[PAD]	0
[UNK]	0
[BOS]	0
[EOS]	0
[CLS]	0
[SEP]	0
[MASK]	0
▁이	-0
▁1	-1
▁있	-2
에서	-3
으로	-4
▁그	-5
▁2	-6
▁사	-7
▁아	-8
▁하	-9
▁수	-10
▁대	-11
▁가	-12
▁시	-13
▁한	-14
▁보	-15
▁전	-16
▁기	-17
▁다	-18
▁것	-19
▁자	-20
▁나	-21
▁마	-22
▁지	-23
하는	-24
▁정	-25
지만	-26
▁모	-27
▁일	-28
▁있다	-29
▁20	-30
▁상	-31
▁스	-32
▁3	-33
▁때	-34
▁공	-35
이다	-36
▁유	-37
▁-	-38
었다	-39
▁제	-40
▁경	-41
▁주	-42
▁없	-43
▁인	-44
▁중	-45
▁부	-46
▁오	-47
▁않	-48
에게	-49
▁무	-50
▁소	-51
▁등	-52
▁어	-53
했다	-54
▁비	-55
한다	-56
▁위	-57
하고	-58
▁되	-59
▁여	-60
▁201	-61
▁해	-62
▁미	-63
▁4	-64
▁바	-65
▁만	-66
이라	-67
▁고	-68
▁조	-69
▁있는	-70
▁방	-71
▁내	-72
▁5	-73
▁성	-74
▁말	-75
▁거	-76
▁영	-77
▁도	-78
▁동	-79
▁안	-80
▁연	-81
▁개	-82
▁신	-83
▁'	-84
▁선	-85
▁장	-86
▁후	-87
▁생	-88
▁발	-89
▁때문	-90
▁카	-91
▁구	-92
▁최	-93
까지	-94
▁적	-95
00	-96
▁세	-97
레이	-98
▁한다	-99
들이	-100
는데	-101
▁의	-102
▁게	-103
면서	-104
하게	-105
▁불	-106
▁타	-107
된다	-108
▁강	-109
에는	-110
▁실	-111
▁많	-112
▁서	-113
▁더	-114
▁진	-115
▁문	-116
▁파	-117
▁당	-118
▁우	-119
▁특	-120
▁결	-121
▁원	-122
▁6	-123
▁S	-124
▁알	-125
에서는	-126
▁같	-127
▁노	-128
하다	-129
▁포	-130
▁관	-131
▁경우	-132
▁때문에	-133
▁반	-134
▁작	-135
▁19	-136
▁:	-137
▁들	-138
적으로	-139
▁리	-140
▁"	-141
▁단	-142
▁역	-143
▁아니	-144
으며	-145
▁추	-146
▁7	-147
▁라	-148
▁프	-149
리고	-150
▁사용	-151
▁공격	-152
▁받	-153
..	-154
▁남	-155
▁자신	-156
▁못	-157
▁출	-158
▁차	-159
▁피	-160
적인	-161
▁0	-162
▁8	-163
▁이후	-164
▁배	-165
▁물	-166
해서	-167
▁좋	-168
▁데	-169
▁본	-170
▁에	-171
▁현	-172
▁버	-173
스트	-174
부터	-175
▁10	-176
▁따	-177
▁매	-178
다는	-179
▁초	-180
▁M	-181
하기	-182
대로	-183
▁사람	-184
▁드	-185
▁코	-186
▁A	-187
▁레	-188
▁9	-189
▁달	-190
▁계	-191
▁또	-192
라는	-193
다고	-194
▁감	-195
라고	-196
▁크	-197
하면	-198
하여	-199
▁재	-200
▁입	-201
▁패	-202
▁건	-203
▁국	-204
▁두	-205
▁김	-206
▁통	-207
▁정도	-208
▁함	-209
▁예	-210
▁저	-211
▁요	-212
였다	-213
이나	-214
▁참	-215
▁설	-216
▁분	-217
▁된다	-218
▁등장	-219
▁다른	-220
▁C	-221
▁명	-222
▁편	-223
▁점	-224
들을	-225
들은	-226
▁로	-227
▁메	-228
▁평	-229
▁T	-230
▁화	-231
▁죽	-232
▁교	-233
▁플	-234
▁할	-235
▁하지만	-236
▁캐	-237
er	-238
▁쓰	-239
지는	-240
에도	-241
▁올	-242
▁돌	-243
▁B	-244
▁걸	-245
▁잘	-246
...	-247
▁그리고	-248
으나	-249
기도	-250
리는	-251
▁아이	-252
기를	-253
들의	-254
▁가능	-255
▁속	-256
▁외	-257
▁200	-258
▁맞	-259
하지	-260
▁것이	-261
기에	-262
▁호	-263
in	-264
되었다	-265
▁처	-266
▁확	-267
▁사실	-268
▁직	-269
▁게임	-270
▁들어	-271
는다	-272
▁애	-273
▁D	-274
▁하는	-275
니다	-276
▁회	-277
▁종	-278
▁심	-279
하며	-280
▁과	-281
▁살	-282
▁L	-283
▁변	-284
▁하나	-285
다가	-286
▁필	-287
▁치	-288
▁같은	-289
▁뒤	-290
▁모습	-291
스터	-292
▁트	-293
▁12	-294
▁승	-295
▁학	-296
▁높	-297
거나	-298
되어	-299
▁대한	-300
보다	-301
▁체	-302
▁박	-303
▁이름	-304
▁운	-305
▁행	-306
▁목	-307
▁그러	-308
이트	-309
▁토	-310
an	-311
▁P	-312
▁약	-313
▁F	-314
▁날	-315
▁시작	-316
▁언	-317
▁나오	-318
on	-319
리를	-320
▁없다	-321
▁번	-322
▁활	-323
▁함께	-324
▁일본	-325
▁한국	-326
▁각	-327
▁생각	-328
았다	-329
▁힘	-330
기가	-331
▁/	-332
▁문제	-333
▁했	-334
▁간	-335
어서	-336
▁이상	-337
▁11	-338
▁존	-339
▁히	-340
이라고	-341
이라는	-342
▁양	-343
능력	-344
▁디	-345
▁순	-346
릭터	-347
▁만들	-348
▁표	-349
▁팀	-350
▁G	-351
▁손	-352
▁투	-353
▁것을	-354
▁위해	-355
▁증	-356
▁끝	-357
▁효	-358
되는	-359
▁했다	-360
▁캐릭터	-361
▁잡	-362
▁키	-363
▁완	-364
▁클	-365
에서도	-366
▁E	-367
▁베	-368
▁H	-369
▁야	-370
리가	-371
▁막	-372
▁집	-373
이지	-374
처럼	-375
▁다시	-376
▁없는	-377
▁추가	-378
라이	-379
▁또한	-380
▁상대	-381
으면	-382
▁볼	-383
▁가장	-384
▁군	-385
▁총	-386
▁독	-387
▁열	-388
▁플레이	-389
▁있었	-390
▁프로	-391
▁난	-392
▁되었다	-393
or	-394
▁근	-395
▁너	-396
▁따라	-397
▁상황	-398
▁사이	-399
▁N	-400
▁판	-401
▁폭	-402
▁용	-403
지고	-404
▁당시	-405
▁R	-406
▁모두	-407
▁+	-408
▁별	-409
ar	-410
th	-411
▁결국	-412
▁15	-413
▁시간	-414
▁스킬	-415
▁형	-416
▁새	-417
기는	-418
▁K	-419
학교	-420
미지	-421
▁I	-422
▁음	-423
▁것이다	-424
▁테	-425
▁모든	-426
▁항	-427
▁루	-428
▁능력	-429
▁보여	-430
▁빠	-431
▁다만	-432
▁네	-433
▁상태	-434
▁왕	-435
▁친	-436
▁태	-437
▁브	-438
▁많이	-439
▁블	-440
▁보면	-441
이고	-442
▁앞	-443
▁그런	-444
.1	-445
▁복	-446
▁먹	-447
▁카드	-448
리즈	-449
▁채	-450
이며	-451
▁넘	-452
리스	-453
▁듯	-454
▁광	-455
▁충	-456
▁및	-457
▁눈	-458
자가	-459
▁자신의	-460
력이	-461
▁얼	-462
▁시즌	-463
▁전투	-464
▁삼	-465
이는	-466
▁것은	-467
▁효과	-468
▁것으로	-469
.0	-470
력을	-471
이었	-472
▁커	-473
▁존재	-474
▁페	-475
▁악	-476
▁누	-477
▁하고	-478
▁준	-479
▁있었다	-480
▁검	-481
▁현재	-482
▁매우	-483
▁합	-484
하면서	-485
en	-486
▁임	-487
▁병	-488
▁나온	-489
▁그래	-490
▁큰	-491
at	-492
리아	-493
▁천	-494
스를	-495
스의	-496
▁싸	-497
▁상당	-498
▁줄	-499
▁O	-500
▁물론	-501
성이	-502
▁그러나	-503
▁금	-504
▁첫	-505
므로	-506
스가	-507
▁얻	-508
▁느	-509
▁#	-510
▁W	-511
인다	-512
▁취	-513
되었	-514
▁찾	-515
하였다	-516
st	-517
가는	-518
▁18	-519
▁그렇	-520
▁경기	-521
▁엄	-522
▁아니라	-523
▁많은	-524
▁시리즈	-525
들에게	-526
▁실제	-527
▁된	-528
-1	-529
▁자체	-530
20	-531
▁아닌	-532
▁이런	-533
▁백	-534
인데	-535
가지	-536
▁이유	-537
000	-538
▁16	-539
▁선수	-540
인이	-541
인지	-542
ou	-543
▁길	-544
▁식	-545
▁와	-546
al	-547
▁업	-548
▁이용	-549
▁극	-550
▁세계	-551
▁돌아	-552
▁떨	-553
▁바로	-554
▁산	-555
▁마법	-556
▁팬	-557
▁갈	-558
▁황	-559
▁필요	-560
▁밀	-561
▁관련	-562
▁처음	-563
▁기본	-564
▁허	-565
▁절	-566
▁일반	-567
▁주인	-568
▁피해	-569
▁슈	-570
▁13	-571
▁역시	-572
진다	-573
▁다음	-574
▁라이	-575
▁모습을	-576
▁벌	-577
▁않는	-578
하자	-579
▁거의	-580
▁머	-581
이었다	-582
▁온	-583
들과	-584
거리	-585
▁30	-586
졌다	-587
린다	-588
▁엔	-589
▁민	-590
▁[	-591
▁해당	-592
▁2017	-593
▁기술	-594
▁아무	-595
▁잠	-596
사를	-597
▁은	-598
▁14	-599
지를	-600
부분	-601
▁199	-602
▁기록	-603
▁몰	-604
▁여러	-605
시키	-606
이지만	-607
에선	-608
▁되어	-609
▁V	-610
▁이야	-611
▁탈	-612
▁창	-613
▁U	-614
▁2018	-615
도가	-616
▁특히	-617
▁미국	-618
▁좀	-619
사가	-620
라도	-621
▁곳	-622
▁붙	-623
▁레이	-624
▁둘	-625
▁않고	-626
어나	-627
▁혼	-628
▁골	-629
▁있으며	-630
이스	-631
▁떨어	-632
지막	-633
▁참고	-634
▁좋은	-635
▁방어	-636
▁쿠	-637
▁같이	-638
▁진행	-639
re	-640
하지만	-641
▁17	-642
기로	-643
상을	-644
▁있는데	-645
▁터	-646
▁곡	-647
▁수도	-648
▁청	-649
▁즉	-650
▁스타	-651
.2	-652
▁북	-653
아서	-654
해야	-655
▁2019	-656
했던	-657
▁지역	-658
주는	-659
le	-660
▁레벨	-661
▁귀	-662
이가	-663
▁철	-664
▁주인공	-665
▁싶	-666
▁증가	-667
▁마지막	-668
▁방송	-669
▁탄	-670
▁사건	-671
▁않는다	-672
▁그냥	-673
▁밝	-674
▁범	-675
▁부분	-676
장을	-677
▁제작	-678
으니	-679
▁달리	-680
▁환	-681
▁권	-682
▁인간	-683
▁작품	-684
로는	-685
▁케	-686
▁계속	-687
▁대부분	-688
▁월	-689
▁영화	-690
▁보고	-691
▁개요	-692
▁몸	-693
시간	-694
▁내용	-695
시아	-696
▁되는	-697
▁있을	-698
▁2016	-699
▁통해	-700
전히	-701
10	-702
▁엘	-703
▁올라	-704
▁풀	-705
▁뿐	-706
▁몇	-707
성을	-708
▁정도로	-709
▁담	-710
▁비슷	-711
▁않은	-712
▁떠	-713
▁어느	-714
르는	-715
▁헤	-716
▁하다	-717
습니다	-718
▁있어	-719
▁수준	-720
▁상당히	-721
▁만들어	-722
▁100	-723
▁접	-724
▁몬	-725
▁보인다	-726
어가	-727
▁가지고	-728
했고	-729
it	-730
▁25	-731
▁워	-732
▁않았	-733
▁지금	-734
▁낮	-735
▁이전	-736
▁대신	-737
드를	-738
▁인물	-739
▁일부	-740
렸다	-741
▁있고	-742
▁맡	-743
▁이동	-744
▁너무	-745
▁것도	-746
▁덕	-747
있는	-748
▁좋아	-749
▁성공	-750
▁격	-751
드는	-752
▁인해	-753
▁암	-754
마다	-755
▁최대	-756
▁-2	-757
지가	-758
▁그대로	-759
ing	-760
▁위치	-761
▁될	-762
▁문서	-763
리에	-764
주의	-765
ic	-766
▁서울	-767
수가	-768
▁제외	-769
▁m	-770
."	-771
정을	-772
▁th	-773
인의	-774
트를	-775
▁높은	-776
▁여기	-777
들도	-778
되고	-779
밖에	-780
▁이를	-781
자를	-782
▁타이	-783
.5	-784
▁중국	-785
▁~	-786
시에	-787
▁기준	-788
▁이미	-789
이션	-790
려고	-791
▁애니	-792
▁뛰	-793
리어	-794
멤버	-795
▁그녀	-796
▁대해	-797
장이	-798
▁팔	-799
▁없이	-800
▁활동	-801
자의	-802
▁언급	-803
▁몬스터	-804
▁유닛	-805
도록	-806
▁울	-807
스는	-808
▁질	-809
▁많다	-810
▁홍	-811
▁감독	-812
▁유저	-813
▁원래	-814
▁국가	-815
▁X	-816
▁직접	-817
년에	-818
▁법	-819
▁결과	-820
▁논	-821
▁경우가	-822
▁2015	-823
▁글	-824
이드	-825
▁괴	-826
▁던	-827
▁홈	-828
▁면	-829
와의	-830
is	-831
▁쓸	-832
▁나오는	-833
사의	-834
▁대표	-835
▁축	-836
스로	-837
▁있지만	-838
지도	-839
르게	-840
▁멤버	-841
▁설명	-842
리의	-843
▁전체	-844
▁성우	-845
▁슬	-846
수를	-847
▁J	-848
▁니	-849
도로	-850
▁자신이	-851
▁스토	-852
▁선택	-853
▁마음	-854
▁평가	-855
왔다	-856
▁의미	-857
▁시절	-858
▁과거	-859
▁이어	-860
▁무기	-861
▁소속	-862
하는데	-863
am	-864
▁엄청	-865
로운	-866
▁50	-867
▁티	-868
▁받아	-869
▁이는	-870
치는	-871
▁넣	-872
하였	-873
he	-874
▁자기	-875
었고	-876
▁설정	-877
위를	-878
도를	-879
▁나타	-880
▁망	-881
▁늘	-882
없이	-883
▁데미지	-884
▁s	-885
리지	-886
준다	-887
전을	-888
▁러	-889
스타	-890
om	-891
▁컨	-892
▁관계	-893
▁꽤	-894
중에	-895
▁아이템	-896
▁불가	-897
▁<	-898
▁장면	-899
번째	-900
▁있던	-901
운드	-902
▁쉽	-903
▁21	-904
▁육	-905
랜드	-906
▁등의	-907
▁공격력	-908
▁실제로	-909
이자	-910
▁묘	-911
▁퍼	-912
▁출연	-913
▁먼	-914
▁영상	-915
▁찾아	-916
50	-917
자는	-918
▁지원	-919
▁초반	-920
▁조금	-921
있다	-922
▁나온다	-923
하던	-924
▁갖	-925
es	-926
▁방법	-927
▁최고	-928
▁이것	-929
나는	-930
▁그의	-931
▁소환	-932
▁참고로	-933
▁깨	-934
▁크게	-935
어로	-936
이기	-937
▁말을	-938
el	-939
▁발매	-940
▁쪽	-941
만큼	-942
과는	-943
▁정보	-944
점을	-945
치가	-946
대를	-947
▁희	-948
▁전부	-949
▁혹	-950
▁동안	-951
▁아니다	-952
▁만든	-953
▁제대로	-954
▁w	-955
▁198	-956
▁알려	-957
▁칼	-958
▁향	-959
▁이에	-960
▁돈	-961
▁갑	-962
대의	-963
▁이벤	-964
dd	-965
이어	-966
나가	-967
트가	-968
치를	-969
▁유명	-970
▁22	-971
▁있다는	-972
▁사라	-973
▁압	-974
인을	-975
▁공식	-976
▁놀	-977
화를	-978
▁이때	-979
▁아버	-980
기의	-981
▁t	-982
드가	-983
30	-984
▁전쟁	-985
▁보여주	-986
▁하지	-987
▁자주	-988
▁2014	-989
이를	-990
as	-991
▁기타	-992
▁24	-993
국의	-994
▁정말	-995
▁최종	-996
▁급	-997
▁사랑	-998
▁듣	-999
▁뉴	-1000
▁b	-1001
-0	-1002
▁당연	-1003
▁운영	-1004
▁아직	-1005
▁이렇	-1006
▁그런데	-1007
되지	-1008
로서	-1009
ch	-1010
▁친구	-1011
▁o	-1012
▁침	-1013
▁찍	-1014
하기도	-1015
어난	-1016
와는	-1017
▁적이	-1018
▁파괴	-1019
▁학교	-1020
▁해도	-1021
정이	-1022
▁사망	-1023
에서의	-1024
▁가능하다	-1025
머니	-1026
▁출신	-1027
▁강력	-1028
이크	-1029
드의	-1030
▁강화	-1031
같은	-1032
▁the	-1033
▁바람	-1034
ff	-1035
▁빨	-1036
▁개발	-1037
▁규	-1038
원이	-1039
▁비해	-1040
ol	-1041
▁탑	-1042
▁인터	-1043
▁멀	-1044
했을	-1045
히려	-1046
▁마찬	-1047
▁그것	-1048
▁봉	-1049
▁놓	-1050
▁책	-1051
전에	-1052
▁프리	-1053
▁학생	-1054
▁마찬가지	-1055
이터	-1056
▁궁	-1057
▁영향	-1058
▁발생	-1059
ion	-1060
등학교	-1061
▁오히려	-1062
▁있어서	-1063
▁끌	-1064
▁드래	-1065
▁앨	-1066
▁노래	-1067
▁의해	-1068
▁비교	-1069
▁왜	-1070
전에서	-1071
▁위한	-1072
▁우승	-1073
▁회복	-1074
▁기존	-1075
▁서로	-1076
▁주로	-1077
▁포함	-1078
지어	-1079
▁빌	-1080
▁딜	-1081
어도	-1082
▁좋다	-1083
으로는	-1084
▁슈퍼	-1085
과의	-1086
이도	-1087
▁성능	-1088
▁리그	-1089
▁게다가	-1090
▁협	-1091
▁빼	-1092
격을	-1093
▁사람이	-1094
▁뜻	-1095
했지만	-1096
▁특수	-1097
▁살아	-1098
는지	-1099
▁23	-1100
일에	-1101
▁가진	-1102
▁역할	-1103
▁보통	-1104
▁때문이다	-1105
▁정신	-1106
▁어떤	-1107
▁않았다	-1108
▁공개	-1109
▁아예	-1110
▁40	-1111
▁중요	-1112
명이	-1113
▁알고	-1114
▁후반	-1115
▁여성	-1116
▁일단	-1117
▁잔	-1118
▁변경	-1119
식을	-1120
▁봐	-1121
명을	-1122
분에	-1123
▁착	-1124
▁확률	-1125
▁연구	-1126
▁이번	-1127
였던	-1128
동안	-1129
▁지나	-1130
상이	-1131
▁플레이어	-1132
▁노선	-1133
▁하면	-1134
리그	-1135
▁사실상	-1136
하려	-1137
-2	-1138
나마	-1139
리오	-1140
▁그래서	-1141
경기	-1142
.3	-1143
▁송	-1144
ig	-1145
▁측	-1146
▁유지	-1147
▁써	-1148
▁작중	-1149
il	-1150
ow	-1151
▁배우	-1152
▁이루	-1153
et	-1154
다면	-1155
11	-1156
ac	-1157
점이	-1158
화에서	-1159
▁본인	-1160
▁하며	-1161
▁스테	-1162
▁승리	-1163
▁발동	-1164
자로	-1165
하거나	-1166
▁되고	-1167
▁농	-1168
트로	-1169
▁심지어	-1170
▁이러	-1171
▁최초	-1172
▁영웅	-1173
▁이렇게	-1174
,000	-1175
라마	-1176
ed	-1177
자인	-1178
▁까	-1179
▁그래도	-1180
▁f	-1181
▁보스	-1182
▁대한민	-1183
었던	-1184
▁행동	-1185
▁,	-1186
▁도시	-1187
오는	-1188
▁뽑	-1189
▁힘들	-1190
▁유일	-1191
▁수록	-1192
▁숨	-1193
리카	-1194
▁그렇게	-1195
년대	-1196
▁가까	-1197
물을	-1198
▁들어가	-1199
▁2013	-1200
!!	-1201
▁어려	-1202
▁부족	-1203
했다고	-1204
프트	-1205
▁기사	-1206
▁버전	-1207
▁결정	-1208
수의	-1209
▁비슷한	-1210
▁여자	-1211
▁d	-1212
▁없어	-1213
▁모양	-1214
▁체력	-1215
르면	-1216
▁&	-1217
▁먼저	-1218
음을	-1219
간다	-1220
▁있다고	-1221
▁형태	-1222
보면	-1223
메이션	-1224
라의	-1225
르고	-1226
▁흑	-1227
▁여담	-1228
서는	-1229
니까	-1230
스템	-1231
▁원작	-1232
드로	-1233
버스	-1234
이기도	-1235
▁장비	-1236
▁Y	-1237
시켜	-1238
▁바뀌	-1239
▁어떻	-1240
ht	-1241
▁주변	-1242
▁성격	-1243
▁센	-1244
▁흔	-1245
▁아래	-1246
▁완전히	-1247
▁드러	-1248
▁k	-1249
ve	-1250
▁한번	-1251
ay	-1252
▁이야기	-1253
명의	-1254
▁굉	-1255
▁활약	-1256
▁자세	-1257
▁폐	-1258
▁획	-1259
▁솔	-1260
▁쇼	-1261
▁확인	-1262
▁스트	-1263
▁전혀	-1264
▁동시에	-1265
대가	-1266
▁일이	-1267
사는	-1268
▁특징	-1269
▁26	-1270
인물	-1271
▁내려	-1272
▁특성	-1273
스와	-1274
ad	-1275
▁등을	-1276
▁잃	-1277
른다	-1278
▁어떻게	-1279
더라도	-1280
▁프랑	-1281
지의	-1282
원을	-1283
화가	-1284
▁움	-1285
▁같다	-1286
임을	-1287
▁적용	-1288
▁사진	-1289
▁만큼	-1290
▁굉장	-1291
▁휴	-1292
▁패배	-1293
id	-1294
내는	-1295
▁샤	-1296
▁28	-1297
▁좌	-1298
▁불가능	-1299
▁얼굴	-1300
▁드래곤	-1301
▁월드	-1302
▁독일	-1303
▁윤	-1304
▁음악	-1305
▁만나	-1306
디오	-1307
▁빛	-1308
▁되었	-1309
▁섬	-1310
▁애니메이션	-1311
▁2012	-1312
▁27	-1313
▁이벤트	-1314
어버	-1315
▁이제	-1316
라가	-1317
간에	-1318
▁감소	-1319
▁않아	-1320
▁전에	-1321
▁방식	-1322
▁맵	-1323
▁우리	-1324
▁자유	-1325
상으로	-1326
!"	-1327
▁얼마	-1328
▁실패	-1329
and	-1330
.4	-1331
▁차량	-1332
▁때는	-1333
▁그나마	-1334
▁31	-1335
▁명칭	-1336
▁아군	-1337
▁링	-1338
▁뭐	-1339
▁c	-1340
▁오브	-1341
▁항목	-1342
적이	-1343
▁혹은	-1344
▁싱	-1345
▁힘을	-1346
▁액	-1347
▁모델	-1348
니아	-1349
▁에피	-1350
▁Lv	-1351
▁새로운	-1352
▁획득	-1353
보다는	-1354
▁1,	-1355
▁시스템	-1356
▁콘	-1357
▁지속	-1358
시킨	-1359
레벨	-1360
지로	-1361
▁국내	-1362
구를	-1363
해도	-1364
▁녹	-1365
▁발견	-1366
▁덕분에	-1367
▁기억	-1368
▁남자	-1369
▁나가	-1370
▁위해서	-1371
▁쓰는	-1372
▁역사	-1373
▁동일	-1374
▁of	-1375
▁응	-1376
▁구성	-1377
▁사회	-1378
▁상승	-1379
▁하루	-1380
▁챔	-1381
▁쉬	-1382
라면	-1383
▁주장	-1384
▁차지	-1385
▁반응	-1386
조차	-1387
▁색	-1388
▁속성	-1389
ro	-1390
▁참조	-1391
▁-1	-1392
▁마을	-1393
▁에피소	-1394
▁상위	-1395
▁자신을	-1396
▁소개	-1397
▁경우도	-1398
▁딸	-1399
▁생산	-1400
▁콜	-1401
▁빈	-1402
un	-1403
▁문제가	-1404
스크	-1405
▁스토리	-1406
했는데	-1407
▁움직	-1408
▁출시	-1409
합니다	-1410
▁가져	-1411
▁정확	-1412
▁그리	-1413
한다는	-1414
▁아마	-1415
한테	-1416
▁이러한	-1417
BS	-1418
▁입장	-1419
우는	-1420
▁도움	-1421
▁하는데	-1422
▁l	-1423
그램	-1424
▁없었다	-1425
▁또는	-1426
겠지만	-1427
▁가격	-1428
▁공격을	-1429
어를	-1430
정도	-1431
▁자체가	-1432
▁했지만	-1433
▁앨범	-1434
▁휘	-1435
▁수비	-1436
▁순간	-1437
▁등장하는	-1438
us	-1439
개의	-1440
▁있기	-1441
▁선발	-1442
▁v	-1443
났다	-1444
▁딱	-1445
▁받고	-1446
갔다	-1447
▁긴	-1448
▁담당	-1449
대한	-1450
▁견	-1451
체를	-1452
▁그림	-1453
▁굉장히	-1454
ER	-1455
▁넘어	-1456
▁쓴	-1457
이의	-1458
▁2010	-1459
40	-1460
으므로	-1461
이었던	-1462
대에	-1463
▁풍	-1464
▁해서	-1465
▁조건	-1466
우스	-1467
▁자동	-1468
▁편이다	-1469
▁다이	-1470
▁훈	-1471
▁정치	-1472
원의	-1473
장의	-1474
▁밝혀	-1475
▁가면	-1476
▁강력한	-1477
▁하이	-1478
했으며	-1479
▁대체	-1480
레이드	-1481
▁익	-1482
치고	-1483
▁시점	-1484
▁마이	-1485
▁바이	-1486
▁가능한	-1487
▁표현	-1488
▁않다	-1489
지지	-1490
대학교	-1491
▁진짜	-1492
▁드라마	-1493
제가	-1494
아가	-1495
트의	-1496
▁없고	-1497
▁p	-1498
▁있게	-1499
▁확실	-1500
회의	-1501
했다는	-1502
60	-1503
▁사용하는	-1504
▁판매	-1505
리티	-1506
▁a	-1507
▁경찰	-1508
▁어디	-1509
▁졸	-1510
▁시간이	-1511
▁개인	-1512
스러	-1513
▁스페	-1514
군의	-1515
▁기능	-1516
▁y	-1517
▁받은	-1518
▁답	-1519
이라면	-1520
▁어렵	-1521
▁클리어	-1522
▁물리	-1523
▁데뷔	-1524
▁무시	-1525
▁주의	-1526
▁마찬가지로	-1527
▁마스터	-1528
▁피해를	-1529
▁퇴	-1530
▁29	-1531
▁땅	-1532
▁다르	-1533
▁St	-1534
▁요구	-1535
▁맨	-1536
▁아주	-1537
▁웃	-1538
mm	-1539
▁겨	-1540
▁나와	-1541
▁펼	-1542
▁패턴	-1543
▁맥	-1544
▁인정	-1545
▁대사	-1546
▁퀘	-1547
▁경험	-1548
▁믿	-1549
통령	-1550
▁당연히	-1551
▁폭발	-1552
▁상대로	-1553
▁60	-1554
.7	-1555
부의	-1556
피언	-1557
▁엄청난	-1558
▁못하고	-1559
상의	-1560
▁계획	-1561
지에	-1562
▁등이	-1563
▁말이	-1564
가가	-1565
12	-1566
▁우주	-1567
▁득	-1568
▁197	-1569
▁더욱	-1570
▁사람들이	-1571
전이	-1572
▁진출	-1573
▁못한	-1574
▁따라서	-1575
문을	-1576
▁가지	-1577
▁습	-1578
▁헬	-1579
▁위험	-1580
문에	-1581
치로	-1582
까지는	-1583
▁영어	-1584
수로	-1585
▁꿈	-1586
▁이미지	-1587
수는	-1588
▁츠	-1589
▁2011	-1590
▁뮤	-1591
▁밤	-1592
▁묻	-1593
놓고	-1594
▁한정	-1595
▁이름을	-1596
▁가능성이	-1597
려서	-1598
▁쓰러	-1599
▁대한민국	-1600
게임	-1601
▁푸	-1602
▁단순	-1603
▁가족	-1604
어진	-1605
▁히로	-1606
▁The	-1607
티브	-1608
▁사용할	-1609
▁시청	-1610
▁쿨	-1611
▁훨	-1612
▁석	-1613
▁논란	-1614
▁여기서	-1615
▁영국	-1616
라운드	-1617
시즌	-1618
▁옆	-1619
▁준비	-1620
▁분위	-1621
▁알아	-1622
▁쉽게	-1623
했으나	-1624
▁괜	-1625
▁혼자	-1626
량이	-1627
▁싫	-1628
▁어머니	-1629
▁하자	-1630
▁참여	-1631
▁약간	-1632
▁파워	-1633
없는	-1634
으면서	-1635
▁엑	-1636
▁대학	-1637
▁대미지	-1638
▁가는	-1639
들에	-1640
▁적을	-1641
▁나왔	-1642
▁건물	-1643
▁낙	-1644
ot	-1645
▁얘	-1646
▁활용	-1647
리기	-1648
감을	-1649
▁속도	-1650
▁짓	-1651
▁비판	-1652
▁현실	-1653
▁어린	-1654
ir	-1655
▁발사	-1656
▁컴	-1657
▁동료	-1658
▁챔피언	-1659
.8	-1660
▁대해서	-1661
나라	-1662
▁훨씬	-1663
▁불구	-1664
▁메이	-1665
▁똑	-1666
▁여전히	-1667
▁현대	-1668
.6	-1669
만한	-1670
▁대회	-1671
▁대통령	-1672
겠다	-1673
▁소모	-1674
▁나머	-1675
▁보내	-1676
15	-1677
적을	-1678
▁초기	-1679
▁조합	-1680
▁다양	-1681
▁n	-1682
▁수가	-1683
▁크리스	-1684
▁핵	-1685
▁듀	-1686
히는	-1687
해주	-1688
제를	-1689
▁주요	-1690
타를	-1691
▁남아	-1692
▁잡아	-1693
▁블랙	-1694
im	-1695
▁폴	-1696
▁술	-1697
▁따르면	-1698
▁버스	-1699
▁라인	-1700
▁숙	-1701
▁주는	-1702
▁방영	-1703
▁퀘스트	-1704
▁제한	-1705
▁있었던	-1706
▁싸움	-1707
▁흡	-1708
라인	-1709
지션	-1710
부를	-1711
▁받는	-1712
으로서	-1713
▁HP	-1714
체가	-1715
▁나이	-1716
▁강한	-1717
▁취급	-1718
인트	-1719
▁타입	-1720
▁잘못	-1721
▁아르	-1722
선을	-1723
▁크로	-1724
▁도망	-1725
계를	-1726
▁읽	-1727
수록	-1728
▁중심	-1729
▁꾸	-1730
▁결혼	-1731
▁덱	-1732
▁그는	-1733
▁헌	-1734
▁문제는	-1735
난다	-1736
▁탐	-1737
리로	-1738
▁전용	-1739
▁홀	-1740
▁고려	-1741
▁각각	-1742
프를	-1743
▁사고	-1744
▁미션	-1745
▁대전	-1746
이즈	-1747
겠다고	-1748
▁죄	-1749
개를	-1750
시키는	-1751
▁보는	-1752
▁불구하고	-1753
▁등장인물	-1754
▁모드	-1755
도의	-1756
▁후에	-1757
듯이	-1758
되면서	-1759
▁직업	-1760
▁등장한다	-1761
이면	-1762
▁류	-1763
권을	-1764
부에	-1765
ag	-1766
장에	-1767
리와	-1768
학년	-1769
▁방면	-1770
▁중앙	-1771
▁맛	-1772
▁난이도	-1773
▁삼성	-1774
나게	-1775
자기	-1776
▁후보	-1777
▁않을	-1778
▁해결	-1779
19	-1780
세대	-1781
▁굴	-1782
▁즐	-1783
▁지하	-1784
▁웨	-1785
▁부산	-1786
져서	-1787
▁이해	-1788
▁엔딩	-1789
식이	-1790
▁지구	-1791
▁의견	-1792
▁범위	-1793
만에	-1794
사로	-1795
▁설치	-1796
▁끼	-1797
▁욕	-1798
▁참가	-1799
▁들고	-1800
랭크	-1801
▁느낌	-1802
나이	-1803
▁일으	-1804
보니	-1805
▁내가	-1806
▁짧	-1807
한다고	-1808
▁벨	-1809
▁방향	-1810
입니다	-1811
▁끊	-1812
▁발표	-1813
▁이유는	-1814
▁처리	-1815
▁포켓	-1816
▁조선	-1817
▁h	-1818
▁과정	-1819
▁일행	-1820
▁벗	-1821
▁부활	-1822
심을	-1823
▁아이돌	-1824
▁흥	-1825
▁꼬	-1826
▁장착	-1827
학생	-1828
▁일정	-1829
▁메인	-1830
하나	-1831
▁탓	-1832
데이트	-1833
▁되면	-1834
장은	-1835
▁충분	-1836
▁2000	-1837
키는	-1838
▁TV	-1839
▁기간	-1840
.9	-1841
ub	-1842
기고	-1843
제로	-1844
▁구조	-1845
력은	-1846
대는	-1847
▁갤	-1848
32	-1849
타로	-1850
▁나무	-1851
공격	-1852
라서	-1853
37	-1854
▁최근	-1855
만이	-1856
신이	-1857
▁보호	-1858
▁스테이지	-1859
▁배틀	-1860
▁굳	-1861
▁번째	-1862
▁근접	-1863
▁특별	-1864
초에	-1865
▁보이는	-1866
▁그를	-1867
od	-1868
장으로	-1869
됐다	-1870
말로	-1871
ST	-1872
▁제국	-1873
되며	-1874
▁에피소드	-1875
레스	-1876
▁링크	-1877
▁Z	-1878
▁여담으로	-1879
▁나는	-1880
위로	-1881
▁받았	-1882
ver	-1883
장에서	-1884
▁업데이트	-1885
▁경우는	-1886
ur	-1887
▁쳐	-1888
▁러시아	-1889
ent	-1890
▁FC	-1891
▁배경	-1892
▁나왔다	-1893
▁절대	-1894
▁유니	-1895
▁브라	-1896
하다는	-1897
▁g	-1898
▁다니	-1899
▁밴	-1900
▁오래	-1901
▁제공	-1902
▁낮은	-1903
▁것에	-1904
▁작은	-1905
▁타고	-1906
▁벽	-1907
이란	-1908
조건	-1909
▁기준으로	-1910
가를	-1911
라를	-1912
▁교육	-1913
▁곧	-1914
▁스스로	-1915
▁프로그램	-1916
ak	-1917
BC	-1918
▁80	-1919
▁제목	-1920
▁생존	-1921
▁오른	-1922
▁운행	-1923
▁스피	-1924
▁하기	-1925
부가	-1926
▁덤	-1927
▁SK	-1928
▁목소	-1929
▁계약	-1930
가의	-1931
▁가끔	-1932
?"	-1933
▁되지	-1934
▁세이	-1935
▁그가	-1936
cm	-1937
▁종료	-1938
▁번역	-1939
신을	-1940
로를	-1941
▁종족	-1942
▁추정	-1943
▁포켓몬	-1944
▁아버지	-1945
같이	-1946
카이	-1947
▁달성	-1948
마저	-1949
▁역할을	-1950
80	-1951
▁높다	-1952
▁이유로	-1953
리면	-1954
▁수정	-1955
사와	-1956
▁예정	-1957
▁검은	-1958
▁선거	-1959
▁종류	-1960
▁분노	-1961
유의	-1962
일을	-1963
▁틀	-1964
만을	-1965
다니	-1966
▁?	-1967
▁you	-1968
라며	-1969
으로도	-1970
▁찬	-1971
군이	-1972
▁전설	-1973
구가	-1974
▁영향을	-1975
▁시도	-1976
되었고	-1977
▁더불	-1978
당한	-1979
▁중에	-1980
냐고	-1981
에게는	-1982
냈다	-1983
ec	-1984
▁에너	-1985
▁얻을	-1986
▁괜찮	-1987
시로	-1988
▁전작	-1989
▁만화	-1990
▁빅	-1991
▁생활	-1992
이로	-1993
▁만약	-1994
인은	-1995
▁시전	-1996
▁염	-1997
▁유리	-1998
▁자연	-1999
▁셈	-2000
▁연속	-2001
하다가	-2002
▁한편	-2003
▁뒷	-2004
▁대상	-2005
▁구간	-2006
지기	-2007
▁아니고	-2008
▁하면서	-2009
▁밖에	-2010
▁랜	-2011
▁좋지	-2012
자와	-2013
▁없음	-2014
▁능력을	-2015
전의	-2016
겼다	-2017
▁프랑스	-2018
▁싸우	-2019
▁반면	-2020
지게	-2021
신의	-2022
▁자랑	-2023
트는	-2024
▁생긴	-2025
일이	-2026
업을	-2027
려는	-2028
16	-2029
▁각성	-2030
▁나머지	-2031
▁35	-2032
리며	-2033
위원	-2034
비가	-2035
점으로	-2036
▁해야	-2037
▁최소	-2038
였고	-2039
어들	-2040
▁일을	-2041
이라도	-2042
▁거기	-2043
▁타카	-2044
하다고	-2045
▁씨	-2046
▁연결	-2047
▁무엇	-2048
▁계열	-2049
▁꺼	-2050
▁정작	-2051
▁항상	-2052
▁일러	-2053
자들이	-2054
▁바람에	-2055
▁중요한	-2056
▁정도의	-2057
▁이루어	-2058
▁대부분의	-2059
ut	-2060
▁포지션	-2061
▁더불어	-2062
마의	-2063
함을	-2064
▁등급	-2065
기와	-2066
▁70	-2067
시를	-2068
▁90	-2069
정한	-2070
▁축구	-2071
▁다르게	-2072
▁인터뷰	-2073
외로	-2074
단의	-2075
비아	-2076
25	-2077
낸다	-2078
▁신경	-2079
▁국민	-2080
▁미사	-2081
여서	-2082
▁전문	-2083
▁상황에서	-2084
대학	-2085
▁연출	-2086
▁비행	-2087
어야	-2088
명은	-2089
▁자리	-2090
▁현재는	-2091
▁제외한	-2092
리게	-2093
주고	-2094
▁흐	-2095
▁자세한	-2096
소를	-2097
▁표기	-2098
시의	-2099
18	-2100
▁칸	-2101
▁수상	-2102
▁싱글	-2103
력으로	-2104
▁스파	-2105
▁누구	-2106
▁칭	-2107
▁위에	-2108
▁끝나	-2109
▁빠른	-2110
▁하였다	-2111
▁콤	-2112
시가	-2113
▁관리	-2114
▁모습이	-2115
들로	-2116
▁엔진	-2117
▁나름	-2118
버린	-2119
치기	-2120
▁목표	-2121
▁2009	-2122
,#	-2123
▁옵	-2124
카와	-2125
▁이상의	-2126
디어	-2127
스럽	-2128
▁넓	-2129
▁있다면	-2130
▁소설	-2131
▁비롯	-2132
었지만	-2133
▁소녀	-2134
▁사람은	-2135
▁별로	-2136
....	-2137
로가	-2138
▁성장	-2139
▁소재	-2140
▁냉	-2141
▁삭	-2142
▁라고	-2143
▁비밀	-2144
▁보이	-2145
▁정식	-2146
성은	-2147
다운	-2148
▁미래	-2149
더니	-2150
▁말한다	-2151
▁흘	-2152
페이지	-2153
▁사실을	-2154
14	-2155
▁각종	-2156
▁따로	-2157
▁다크	-2158
▁있으니	-2159
야마	-2160
▁유럽	-2161
▁깔	-2162
▁모르	-2163
▁탱	-2164
미가	-2165
▁다양한	-2166
스티	-2167
▁유명한	-2168
▁일어나	-2169
▁적은	-2170
▁클래	-2171
의를	-2172
▁이걸	-2173
▁제일	-2174
▁벌어	-2175
▁못하는	-2176
▁달려	-2177
▁갑자기	-2178
nd	-2179
▁32	-2180
스러운	-2181
동을	-2182
▁전반	-2183
▁이게	-2184
도는	-2185
▁만드는	-2186
회를	-2187
ight	-2188
비를	-2189
▁이쪽	-2190
▁불러	-2191
▁케이	-2192
▁vs	-2193
▁쌓	-2194
고는	-2195
▁애초에	-2196
세를	-2197
ON	-2198
야말로	-2199
▁없을	-2200
▁출전	-2201
▁않게	-2202
었는데	-2203
시마	-2204
▁치명	-2205
▁묘사	-2206
▁본인이	-2207
스에	-2208
▁사냥	-2209
▁야구	-2210
▁두고	-2211
었다고	-2212
▁부르	-2213
em	-2214
▁압도	-2215
▁파티	-2216
▁공중	-2217
▁결승	-2218
▁전차	-2219
물이	-2220
▁하늘	-2221
타임	-2222
▁지휘	-2223
▁일러스트	-2224
▁나서	-2225
▁게임을	-2226
▁식으로	-2227
48	-2228
AN	-2229
▁최강	-2230
▁엘리	-2231
▁작곡	-2232
▁나올	-2233
수한	-2234
월에	-2235
▁받았다	-2236
▁북한	-2237
음에도	-2238
▁것과	-2239
▁예상	-2240
▁to	-2241
▁효과를	-2242
▁왼	-2243
지면	-2244
▁특이	-2245
▁아키	-2246
프로	-2247
호가	-2248
하라	-2249
▁*	-2250
▁이름이	-2251
▁이탈	-2252
▁]	-2253
AR	-2254
▁상황이	-2255
ra	-2256
▁혈	-2257
▁항공	-2258
나의	-2259
크로	-2260
위에	-2261
▁롤	-2262
관이	-2263
▁머리	-2264
종의	-2265
마자	-2266
▁목록	-2267
ri	-2268
▁반대	-2269
버렸다	-2270
▁맹	-2271
▁징	-2272
해진	-2273
▁보기	-2274
',	-2275
▁있으면	-2276
▁이외	-2277
▁생명	-2278
▁언제	-2279
:00	-2280
▁부여	-2281
▁조직	-2282
혔다	-2283
▁공연	-2284
▁확정	-2285
내고	-2286
▁지켜	-2287
:0	-2288
되기	-2289
▁무슨	-2290
상에	-2291
▁훈련	-2292
▁졸업	-2293
선이	-2294
▁보니	-2295
▁보유	-2296
-3	-2297
▁하여	-2298
▁기동	-2299
▁앤	-2300
성의	-2301
주를	-2302
.#	-2303
▁기다	-2304
방송	-2305
계의	-2306
마가	-2307
단을	-2308
▁뭔	-2309
▁건담	-2310
▁2008	-2311
▁못했다	-2312
▁민주	-2313
▁기대	-2314
부터는	-2315
▁문화	-2316
▁오늘	-2317
▁쌍	-2318
▁물건	-2319
17	-2320
um	-2321
▁아니면	-2322
▁사용자가	-2323
사에	-2324
모토	-2325
▁-3	-2326
▁경우에는	-2327
▁탈출	-2328
율이	-2329
▁뒤에	-2330
▁턴	-2331
▁특정	-2332
▁옷	-2333
▁연기	-2334
13	-2335
▁없다는	-2336
▁억	-2337
▁롯	-2338
▁꽃	-2339
▁순위	-2340
▁납	-2341
트라	-2342
▁이용해	-2343
os	-2344
운데	-2345
부로	-2346
▁좋아하는	-2347
비스	-2348
▁변신	-2349
▁안에	-2350
시켰	-2351
▁필요한	-2352
원은	-2353
▁역대	-2354
▁힐	-2355
원으로	-2356
▁in	-2357
▁아카	-2358
▁교체	-2359
▁파이	-2360
▁뜨	-2361
▁안정	-2362
이니	-2363
▁린	-2364
▁회피	-2365
▁집중	-2366
▁최고의	-2367
버린다	-2368
로우	-2369
▁짜	-2370
▁라는	-2371
고를	-2372
녀석	-2373
▁.	-2374
▁털	-2375
▁사례	-2376
▁잠시	-2377
▁업그	-2378
▁준다	-2379
▁트리	-2380
세요	-2381
▁없다고	-2382
호를	-2383
▁빠르게	-2384
▁있으나	-2385
▁이끌	-2386
▁등으로	-2387
▁옥	-2388
행을	-2389
▁돼	-2390
▁차이가	-2391
▁나타나	-2392
▁무려	-2393
▁No	-2394
▁죽은	-2395
▁듣고	-2396
▁기관	-2397
바람	-2398
▁근처	-2399
냐는	-2400
▁196	-2401
▁날아	-2402
▁존재한다	-2403
보는	-2404
▁나중에	-2405
시는	-2406
▁켄	-2407
▁부모	-2408
▁이후로	-2409
▁대기	-2410
스케	-2411
▁하게	-2412
촬영	-2413
▁기본적으로	-2414
았던	-2415
▁유튜	-2416
▁어둠	-2417
▁쏘	-2418
▁스포	-2419
▁빠져	-2420
▁타격	-2421
▁이야기를	-2422
▁품	-2423
▁추천	-2424
▁등장한	-2425
드시	-2426
▁수는	-2427
▁고양	-2428
▁지방	-2429
▁사이트	-2430
▁깊	-2431
프가	-2432
▁인천	-2433
▁본래	-2434
ce	-2435
▁달라	-2436
타가	-2437
▁이건	-2438
▁말에	-2439
▁임무	-2440
▁가까운	-2441
▁EX	-2442
속도	-2443
▁지난	-2444
▁연습	-2445
▁멸	-2446
▁경제	-2447
▁저지	-2448
계가	-2449
서를	-2450
▁45	-2451
▁여기에	-2452
▁전국	-2453
▁카운	-2454
▁발언	-2455
▁소리	-2456
▁분류	-2457
▁일본의	-2458
▁싫어	-2459
ul	-2460
감이	-2461
▁그룹	-2462
단이	-2463
▁옛	-2464
▁했으나	-2465
▁남성	-2466
고등학교	-2467
▁위의	-2468
파트	-2469
학과	-2470
▁명령	-2471
▁남은	-2472
인으로	-2473
▁평균	-2474
어의	-2475
▁포기	-2476
▁때마다	-2477
▁라이브	-2478
▁경쟁	-2479
▁배치	-2480
/2	-2481
▁띄	-2482
IN	-2483
▁부탁	-2484
▁오버	-2485
▁밑	-2486
부는	-2487
▁이름은	-2488
▁겪	-2489
▁킹	-2490
▁제거	-2491
▁칠	-2492
▁봐도	-2493
▁건설	-2494
▁투수	-2495
▁돌아가	-2496
▁갖고	-2497
▁디자인	-2498
었을	-2499
▁e	-2500
▁상태에서	-2501
세트	-2502
km	-2503
▁새로	-2504
▁사용한다	-2505
▁삭제	-2506
▁500	-2507
▁효과가	-2508
▁마나	-2509
▁자체는	-2510
▁죽음	-2511
▁외국	-2512
스테	-2513
▁무장	-2514
▁국제	-2515
▁보아	-2516
미를	-2517
▁예를	-2518
▁꼭	-2519
▁쫓	-2520
▁Q	-2521
심이	-2522
지라	-2523
▁2,	-2524
▁중에서	-2525
all	-2526
▁조종	-2527
▁장소	-2528
▁완벽	-2529
▁Ch	-2530
▁미니	-2531
▁분명	-2532
▁상관	-2533
▁비용	-2534
ap	-2535
▁했던	-2536
▁완전	-2537
▁2020	-2538
▁쓰고	-2539
▁충격	-2540
▁개념	-2541
45	-2542
즈의	-2543
▁고정	-2544
량을	-2545
▁것이라고	-2546
▁상당한	-2547
진이	-2548
▁블루	-2549
▁홈페이지	-2550
▁아들	-2551
▁알게	-2552
▁반드시	-2553
▁없지만	-2554
▁부정	-2555
만의	-2556
▁왔	-2557
▁캠	-2558
▁LG	-2559
들어	-2560
▁의외로	-2561
로의	-2562
▁받을	-2563
세가	-2564
▁장갑	-2565
것도	-2566
▁롯데	-2567
▁히어로	-2568
터를	-2569
▁2007	-2570
단계	-2571
▁운동	-2572
▁탈락	-2573
▁중간	-2574
▁방어력	-2575
▁바꾸	-2576
하였고	-2577
온다	-2578
▁없어서	-2579
시브	-2580
▁구매	-2581
▁독립	-2582
▁아프	-2583
▁촬영	-2584
▁유일하게	-2585
▁붉	-2586
▁마무	-2587
였으나	-2588
▁듯하다	-2589
치의	-2590
▁그야말로	-2591
토리	-2592
▁요소	-2593
년부터	-2594
▁카드를	-2595
▁직후	-2596
▁보상	-2597
▁연재	-2598
일러	-2599
기사	-2600
▁생각해	-2601
▁사람을	-2602
▁지도	-2603
▁과학	-2604
화의	-2605
▁해외	-2606
▁보여준다	-2607
▁리더	-2608
에만	-2609
▁뇌	-2610
▁벤	-2611
▁밖	-2612
스코	-2613
▁픽	-2614
▁동생	-2615
▁그녀의	-2616
우가	-2617
▁느끼	-2618
▁녀석	-2619
▁심각	-2620
▁일어	-2621
▁큐	-2622
▁시험	-2623
▁떡	-2624
▁늦	-2625
▁반대로	-2626
▁제외하면	-2627
점은	-2628
▁옮	-2629
▁워낙	-2630
▁앞에	-2631
크를	-2632
▁유일한	-2633
▁다행	-2634
op	-2635
▁있었고	-2636
▁했는데	-2637
▁걱	-2638
탄을	-2639
90	-2640
▁추측	-2641
▁이하	-2642
롭게	-2643
▁튀	-2644
▁많아	-2645
▁복귀	-2646
▁한글	-2647
▁정상	-2648
▁평범	-2649
▁무조건	-2650
위가	-2651
▁점을	-2652
▁뛰어난	-2653
▁점점	-2654
▁살해	-2655
세기	-2656
문이	-2657
▁되는데	-2658
▁도착	-2659
지면서	-2660
▁타이틀	-2661
▁상태로	-2662
▁대구	-2663
▁저항	-2664
▁x	-2665
너스	-2666
▁올려	-2667
▁지지	-2668
▁다소	-2669
▁정규	-2670
되면	-2671
키가	-2672
▁시작했다	-2673
무라	-2674
▁악마	-2675
▁개그	-2676
▁상세	-2677
▁나라	-2678
라이더	-2679
▁완성	-2680
▁버그	-2681
한다면	-2682
▁과정에서	-2683
인가	-2684
▁시간을	-2685
▁그걸	-2686
▁데미지를	-2687
러스	-2688
▁굳이	-2689
받은	-2690
▁아무리	-2691
▁가르	-2692
▁웹	-2693
▁도중	-2694
▁에이	-2695
▁제품	-2696
▁접근	-2697
▁화면	-2698
▁2006	-2699
로그	-2700
▁베이	-2701
로드	-2702
▁33	-2703
▁기체	-2704
▁뿌	-2705
제의	-2706
선의	-2707
역을	-2708
70	-2709
▁빨리	-2710
▁높아	-2711
으로써	-2712
▁우선	-2713
▁트위	-2714
▁않으면	-2715
ik	-2716
▁시리즈의	-2717
▁레드	-2718
▁한다는	-2719
플레이	-2720
원에	-2721
▁킬	-2722
겠다는	-2723
▁겸	-2724
▁있었는데	-2725
▁오프	-2726
▁자리를	-2727
주가	-2728
▁전사	-2729
▁주고	-2730
ter	-2731
차가	-2732
▁도와	-2733
▁도전	-2734
▁끝에	-2735
▁성우는	-2736
키의	-2737
개로	-2738
▁MA	-2739
르크	-2740
▁패치	-2741
▁카이	-2742
ation	-2743
보고	-2744
▁유사	-2745
▁맞추	-2746
▁최후	-2747
진을	-2748
▁기계	-2749
▁동물	-2750
많은	-2751
▁이적	-2752
▁옵션	-2753
터가	-2754
▁영혼	-2755
▁기반	-2756
시킬	-2757
▁공포	-2758
▁평소	-2759
세계	-2760
술을	-2761
▁판단	-2762
▁암살	-2763
수도	-2764
▁스크	-2765
▁적의	-2766
IC	-2767
니티	-2768
ea	-2769
군을	-2770
▁신체	-2771
▁전략	-2772
분이	-2773
▁빙	-2774
▁멘	-2775
kg	-2776
받는	-2777
1,	-2778
▁명중	-2779
▁짐	-2780
▁수행	-2781
역시	-2782
▁지상	-2783
▁처음으로	-2784
▁스코	-2785
▁월드컵	-2786
▁300	-2787
▁비중	-2788
▁다루	-2789
였지만	-2790
라스	-2791
▁탓에	-2792
▁프레	-2793
▁경기를	-2794
▁곤	-2795
//	-2796
년에는	-2797
세이	-2798
▁진화	-2799
▁합류	-2800
▁척	-2801
▁생각하면	-2802
▁멋	-2803
모가	-2804
보를	-2805
▁연합	-2806
▁무한	-2807
▁닥	-2808
▁몇몇	-2809
▁발전	-2810
ia	-2811
래도	-2812
▁종종	-2813
주로	-2814
▁놈	-2815
▁사기	-2816
▁이곳	-2817
▁파일	-2818
장판	-2819
▁십	-2820
▁36	-2821
▁세트	-2822
35	-2823
▁야마	-2824
▁바다	-2825
▁충분히	-2826
▁로봇	-2827
군은	-2828
▁오리지	-2829
▁부하	-2830
보다도	-2831
▁아스	-2832
▁밸	-2833
▁마사	-2834
▁어려운	-2835
▁홈런	-2836
▁대화	-2837
적이다	-2838
용으로	-2839
▁인터넷	-2840
두고	-2841
이므로	-2842
요일	-2843
▁화염	-2844
▁요시	-2845
▁되었고	-2846
이닝	-2847
▁and	-2848
▁거기에	-2849
아버	-2850
되었으며	-2851
▁소련	-2852
▁작가	-2853
▁행정	-2854
▁네이	-2855
▁확률로	-2856
▁정리	-2857
▁가서	-2858
▁지배	-2859
▁회사	-2860
▁듯한	-2861
▁도입	-2862
▁특유의	-2863
▁끌어	-2864
▁유튜브	-2865
▁본격	-2866
▁도쿄	-2867
대표	-2868
▁것처럼	-2869
▁이로	-2870
▁떠나	-2871
스킬	-2872
▁치료	-2873
리온	-2874
▁공략	-2875
▁팩	-2876
ack	-2877
▁사격	-2878
▁체력이	-2879
드와	-2880
려면	-2881
간의	-2882
▁지키	-2883
▁본인의	-2884
▁능	-2885
▁SP	-2886
레인	-2887
대전	-2888
▁팀의	-2889
▁성향	-2890
▁주민	-2891
문의	-2892
▁잊	-2893
차를	-2894
▁텐	-2895
%,	-2896
▁맞춰	-2897
▁록	-2898
개가	-2899
▁장면이	-2900
▁돈을	-2901
▁조작	-2902
▁수많은	-2903
▁손을	-2904
▁근데	-2905
드에	-2906
RA	-2907
▁사이에	-2908
▁얼마나	-2909
이와	-2910
▁시나	-2911
▁대결	-2912
방을	-2913
ill	-2914
▁아내	-2915
▁나이트	-2916
▁군사	-2917
에게서	-2918
▁있었지만	-2919
▁비고	-2920
쳤다	-2921
카가	-2922
▁오오	-2923
/0	-2924
▁운용	-2925
▁실험	-2926
▁플래	-2927
▁인한	-2928
▁투입	-2929
oc	-2930
지와	-2931
시킨다	-2932
▁VS	-2933
▁댄	-2934
▁좀비	-2935
▁보조	-2936
▁필살	-2937
▁않지만	-2938
▁이탈리아	-2939
▁희생	-2940
이야	-2941
▁상징	-2942
art	-2943
▁사쿠	-2944
▁나오지	-2945
▁셀	-2946
▁말하는	-2947
▁무리	-2948
▁100%	-2949
동생	-2950
텐츠	-2951
▁난이	-2952
▁멜	-2953
▁뚫	-2954
▁능력이	-2955
력과	-2956
▁적에게	-2957
ie	-2958
▁그린	-2959
▁패러	-2960
어요	-2961
▁재료	-2962
▁점이	-2963
형을	-2964
▁다운	-2965
▁받는다	-2966
▁붉은	-2967
▁잉	-2968
일차	-2969
ab	-2970
▁힘든	-2971
▁중반	-2972
▁프로젝	-2973
때문에	-2974
▁외에도	-2975
▁뻔	-2976
지며	-2977
화된	-2978
▁능력치	-2979
▁전기	-2980
▁KBS	-2981
아이	-2982
적으로는	-2983
▁하드	-2984
▁장르	-2985
▁몽	-2986
▁카메	-2987
▁시설	-2988
▁낫	-2989
:2	-2990
TV	-2991
▁불리	-2992
했기	-2993
▁위협	-2994
▁코스	-2995
▁가깝	-2996
▁입고	-2997
▁그저	-2998
하자면	-2999
▁2005	-3000
AL	-3001
질을	-3002
▁정부	-3003
▁점프	-3004
▁소유	-3005
식으로	-3006
▁간단	-3007
보자	-3008
▁환경	-3009
▁갔	-3010
▁그럼	-3011
쪽으로	-3012
시오	-3013
▁런	-3014
▁주문	-3015
▁모르는	-3016
▁대형	-3017
▁선생	-3018
▁스타일	-3019
▁포인트	-3020
▁38	-3021
▁다르다	-3022
판을	-3023
▁개봉	-3024
▁생성	-3025
▁때도	-3026
리자	-3027
uby	-3028
다른	-3029
든지	-3030
▁꽤나	-3031
▁보다	-3032
▁사람들은	-3033
▁범죄	-3034
▁가수	-3035
금을	-3036
상은	-3037
크가	-3038
▁데려	-3039
▁컬	-3040
래프트	-3041
▁빼앗	-3042
미의	-3043
▁던전	-3044
▁대중	-3045
▁맞는	-3046
▁널	-3047
2,	-3048
▁개조	-3049
▁안전	-3050
▁통합	-3051
▁조사	-3052
▁컨셉	-3053
▁종교	-3054
모로	-3055
▁지금은	-3056
▁요청	-3057
▁붙어	-3058
도에	-3059
▁숫	-3060
하니	-3061
▁엠	-3062
▁서브	-3063
승을	-3064
▁장난	-3065
▁뛰어	-3066
▁얻어	-3067
시키고	-3068
▁섞	-3069
나와	-3070
호선	-3071
▁서술	-3072
▁잭	-3073
미널	-3074
▁저격	-3075
하려고	-3076
▁아니지만	-3077
믹스	-3078
▁살인	-3079
▁1000	-3080
ruby	-3081
▁표시	-3082
치게	-3083
▁몸을	-3084
▁오리지널	-3085
레이션	-3086
▁내용은	-3087
기관	-3088
▁닌	-3089
모를	-3090
▁젊	-3091
▁가운데	-3092
▁앞에서	-3093
▁있지	-3094
▁흉	-3095
▁있습니다	-3096
▁캡	-3097
▁2004	-3098
▁했고	-3099
▁경기에서	-3100
소녀	-3101
▁아는	-3102
▁서버	-3103
력의	-3104
왕의	-3105
티어	-3106
▁원거리	-3107
▁먹고	-3108
▁붕	-3109
지에서	-3110
▁란	-3111
트리	-3112
음이	-3113
▁펜	-3114
▁기념	-3115
▁34	-3116
러가	-3117
▁반복	-3118
버리는	-3119
▁윈	-3120
▁오랜	-3121
▁대단	-3122
▁살아남	-3123
▁특성상	-3124
▁대응	-3125
▁의하면	-3126
구의	-3127
▁목숨	-3128
▁기존의	-3129
▁올라가	-3130
교육	-3131
▁마치	-3132
▁걱정	-3133
▁이름으로	-3134
▁후속	-3135
선수	-3136
▁지정	-3137
▁날려	-3138
~2	-3139
▁영입	-3140
로도	-3141
▁든	-3142
바이	-3143
▁막아	-3144
리안	-3145
EN	-3146
이라서	-3147
▁찌	-3148
림픽	-3149
답게	-3150
▁바라	-3151
▁아쉬	-3152
▁말았다	-3153
▁인기	-3154
tp	-3155
▁관통	-3156
▁챙	-3157
시티	-3158
▁모티브	-3159
▁모습으로	-3160
▁뜬	-3161
▁프로듀	-3162
▁모험	-3163
이상	-3164
▁숲	-3165
▁바닥	-3166
▁브레이	-3167
해진다	-3168
▁진입	-3169
▁195	-3170
인과	-3171
▁앉	-3172
▁나쁘	-3173
▁불안	-3174
▁정체	-3175
AT	-3176
▁변화	-3177
만으로	-3178
▁사무	-3179
▁성적	-3180
▁공간	-3181
▁소년	-3182
▁앞서	-3183
▁관한	-3184
▁닮	-3185
힌다	-3186
아의	-3187
▁거부	-3188
▁득점	-3189
▁비롯한	-3190
▁사는	-3191
▁사태	-3192
▁관련된	-3193
▁마무리	-3194
▁무사	-3195
▁37	-3196
dddd	-3197
▁죠	-3198
▁레어	-3199
dddddd	-3200
마를	-3201
ate	-3202
▁불과	-3203
▁You	-3204
▁봤	-3205
▁되면서	-3206
정으로	-3207
▁맞아	-3208
한데	-3209
http	-3210
관을	-3211
르트	-3212
이었고	-3213
▁단순히	-3214
▁맺	-3215
▁내에서	-3216
:5	-3217
▁시기	-3218
▁착용	-3219
졌고	-3220
://	-3221
▁수호	-3222
그룹	-3223
원에서	-3224
방에	-3225
개월	-3226
▁마음을	-3227
▁거짓	-3228
▁인도	-3229
▁이기	-3230
▁더블	-3231
워서	-3232
회가	-3233
카드	-3234
▁하나로	-3235
라우	-3236
정의	-3237
▁무너	-3238
▁누군	-3239
▁MBC	-3240
잖아	-3241
움을	-3242
▁꾸준	-3243
▁어느정도	-3244
▁딱히	-3245
▁손에	-3246
▁감안	-3247
up	-3248
정에	-3249
▁그때	-3250
▁윌	-3251
이에	-3252
▁미드	-3253
▁오토	-3254
▁점은	-3255
▁있었으나	-3256
▁둔	-3257
▁셋	-3258
▁적절	-3259
▁죽을	-3260
전쟁	-3261
역으로	-3262
▁AP	-3263
▁최초로	-3264
▁멈	-3265
하도록	-3266
▁보였다	-3267
▁2002	-3268
▁때까지	-3269
임이	-3270
▁확실히	-3271
▁상황을	-3272
먼트	-3273
▁공동	-3274
▁언론	-3275
위는	-3276
▁유우	-3277
▁부분이	-3278
▁카즈	-3279
▁디지	-3280
▁미리	-3281
▁마리	-3282
▁쥬	-3283
스럽게	-3284
▁In	-3285
▁채널	-3286
크의	-3287
▁트랙	-3288
트롤	-3289
▁컴퓨	-3290
▁상대가	-3291
▁기업	-3292
▁쿨타임	-3293
▁해금	-3294
▁위치한	-3295
실을	-3296
▁확장	-3297
▁방패	-3298
▁제압	-3299
ue	-3300
5%	-3301
▁투표	-3302
었으나	-3303
▁보병	-3304
▁+1	-3305
우고	-3306
▁오르	-3307
▁요리	-3308
▁택	-3309
광역시	-3310
▁부대	-3311
▁이와	-3312
▁km	-3313
▁스킬을	-3314
▁파트	-3315
하므로	-3316
▁갤러	-3317
▁돌려	-3318
로부터	-3319
즈가	-3320
▁잇	-3321
▁해석	-3322
▁썼	-3323
▁인사	-3324
▁작업	-3325
▁앞으로	-3326
카의	-3327
▁황금	-3328
▁보컬	-3329
▁캐릭터가	-3330
에게도	-3331
▁겹	-3332
▁자신은	-3333
놓은	-3334
▁훌	-3335
었다는	-3336
란드	-3337
▁부르는	-3338
▁=	-3339
OR	-3340
부에서	-3341
차전	-3342
▁인식	-3343
았고	-3344
▁구분	-3345
▁정의	-3346
자에	-3347
▁골드	-3348
시피	-3349
연히	-3350
마트	-3351
▁지닌	-3352
자들은	-3353
▁웬	-3354
▁업그레이드	-3355
▁150	-3356
률이	-3357
자들의	-3358
▁밥	-3359
▁데이터	-3360
경을	-3361
나를	-3362
PS	-3363
.10	-3364
속성	-3365
니스	-3366
해졌다	-3367
▁패시브	-3368
▁방해	-3369
▁선언	-3370
▁선보	-3371
법을	-3372
▁스카	-3373
▁적극	-3374
약을	-3375
▁받지	-3376
▁인기가	-3377
▁거대한	-3378
▁st	-3379
였는데	-3380
▁이유가	-3381
▁PC	-3382
▁사과	-3383
▁교통	-3384
▁본인은	-3385
▁나오고	-3386
▁버프	-3387
.'	-3388
▁카오	-3389
복을	-3390
▁마침	-3391
▁잠깐	-3392
악의	-3393
ang	-3394
▁대답	-3395
▁넥	-3396
▁사업	-3397
어는	-3398
크래프트	-3399
▁밝혔다	-3400
▁상처	-3401
▁시나리오	-3402
:1	-3403
구나	-3404
▁차이	-3405
▁설립	-3406
▁일은	-3407
고속	-3408
▁시대	-3409
화에서는	-3410
고가	-3411
특별	-3412
▁전통	-3413
▁사람의	-3414
▁완료	-3415
쪽에	-3416
스토	-3417
▁어찌	-3418
▁아름	-3419
을때	-3420
▁대표적인	-3421
▁추가로	-3422
정은	-3423
지자	-3424
시대	-3425
▁마르	-3426
형이	-3427
▁Sh	-3428
▁덜	-3429
▁데이	-3430
▁엄청나게	-3431
▁듀얼	-3432
▁그려	-3433
▁됐	-3434
▁그레이	-3435
성도	-3436
주차	-3437
코가	-3438
▁수밖에	-3439
IA	-3440
센터	-3441
▁등에	-3442
▁맞고	-3443
성에	-3444
▁눈에	-3445
▁대놓고	-3446
코의	-3447
도우	-3448
루가	-3449
▁통과	-3450
-4	-3451
인들이	-3452
▁앙	-3453
ard	-3454
ast	-3455
이었으나	-3456
리면서	-3457
▁봉인	-3458
▁랭크	-3459
지역	-3460
▁비난	-3461
민주	-3462
▁48	-3463
친다	-3464
▁전개	-3465
구에	-3466
▁클럽	-3467
전으로	-3468
▁대비	-3469
▁고통	-3470
▁초반에	-3471
▁광주	-3472
▁만다	-3473
oo	-3474
무를	-3475
▁불명	-3476
까지도	-3477
▁그만	-3478
▁이후에	-3479
▁평범한	-3480
▁말고	-3481
▁못한다	-3482
▁라이트	-3483
▁렌	-3484
▁몰아	-3485
키를	-3486
하려는	-3487
▁재미	-3488
▁개최	-3489
안을	-3490
▁여름	-3491
▁가게	-3492
▁점령	-3493
▁로마	-3494
▁밸런	-3495
구는	-3496
▁스위	-3497
▁II	-3498
▁팀이	-3499
줬다	-3500
▁삼국	-3501
▁년	-3502
▁탑재	-3503
쳐서	-3504
▁멀티	-3505
명으로	-3506
▁노력	-3507
모리	-3508
▁묶	-3509
▁느껴	-3510
▁시작한다	-3511
타는	-3512
가와	-3513
▁병사	-3514
스에서	-3515
▁궁극	-3516
▁단계	-3517
▁점에서	-3518
▁커뮤	-3519
르의	-3520
▁철도	-3521
▁1.	-3522
▁시민	-3523
▁본편	-3524
▁Re	-3525
ant	-3526
▁소울	-3527
▁스탯	-3528
제에	-3529
▁MP	-3530
▁2003	-3531
▁원정	-3532
VE	-3533
▁겨우	-3534
if	-3535
성과	-3536
분을	-3537
호의	-3538
▁가슴	-3539
24	-3540
진의	-3541
▁논란이	-3542
ers	-3543
▁대해서는	-3544
▁은퇴	-3545
▁좁	-3546
론을	-3547
▁꼽	-3548
▁문제를	-3549
▁없기	-3550
▁어렵다	-3551
조의	-3552
▁일반적인	-3553
▁거야	-3554
▁50%	-3555
▁초대	-3556
르기	-3557
▁액션	-3558
▁도움을	-3559
▁도로	-3560
에서만	-3561
▁물어	-3562
▁최대한	-3563
▁2.	-3564
▁다름	-3565
▁희망	-3566
일부터	-3567
▁뭔가	-3568
▁먹는	-3569
▁걸어	-3570
▁콤보	-3571
▁아나	-3572
▁추가바람	-3573
바로	-3574
▁바꿔	-3575
▁잡고	-3576
라와	-3577
▁솔로	-3578
▁안타	-3579
▁비교적	-3580
▁예전	-3581
▁한국의	-3582
▁필요가	-3583
▁코스트	-3584
프레	-3585
▁거리	-3586
ell	-3587
▁경기도	-3588
임에도	-3589
▁꼴	-3590
방의	-3591
리스트	-3592
▁안습	-3593
소년	-3594
단에	-3595
▁지니	-3596
▁속도가	-3597
▁고대	-3598
운동	-3599
회에서	-3600
▁확보	-3601
▁용병	-3602
히고	-3603
▁애매	-3604
▁미국의	-3605
▁때의	-3606
▁코너	-3607
▁만한	-3608
▁연장	-3609
ine	-3610
▁인류	-3611
▁쿄	-3612
▁얘기	-3613
▁전환	-3614
▁타임	-3615
PC	-3616
트와	-3617
▁걸로	-3618
▁승리를	-3619
체의	-3620
효과	-3621
차로	-3622
도시	-3623
사카	-3624
▁BG	-3625
전사	-3626
▁금지	-3627
▁밀어	-3628
36	-3629
사항	-3630
▁엉	-3631
화에	-3632
루스	-3633
나다	-3634
▁그에	-3635
▁원래는	-3636
▁Sp	-3637
▁필수	-3638
▁지옥	-3639
▁구축	-3640
해를	-3641
▁39	-3642
▁기술을	-3643
▁끝까지	-3644
토가	-3645
▁자신에게	-3646
▁어울	-3647
시한	-3648
.12	-3649
AM	-3650
▁처치	-3651
▁쥐	-3652
▁유키	-3653
▁다음과	-3654
장과	-3655
▁스킨	-3656
▁보이지	-3657
▁42	-3658
▁대공	-3659
▁드라이	-3660
▁태양	-3661
▁멸망	-3662
▁힘이	-3663
▁크다	-3664
▁당장	-3665
▁극장판	-3666
▁눈을	-3667
르가	-3668
▁남편	-3669
신은	-3670
상태	-3671
▁최초의	-3672
▁힘들다	-3673
▁끝내	-3674
▁되기	-3675
▁타이밍	-3676
즈를	-3677
▁10%	-3678
▁트레이	-3679
▁에너지	-3680
▁정보를	-3681
▁등록	-3682
▁컨트롤	-3683
373	-3684
▁3,	-3685
▁흡수	-3686
▁광역	-3687
▁레이저	-3688
ove	-3689
▁이용한	-3690
석을	-3691
one	-3692
▁혐	-3693
▁고속	-3694
▁멀리	-3695
▁레전	-3696
▁바뀐	-3697
▁아무래도	-3698
▁뮤직	-3699
▁실력	-3700
▁게시	-3701
▁모자	-3702
이치	-3703
/3	-3704
▁모아	-3705
▁한다고	-3706
500	-3707
▁이야기가	-3708
▁뱀	-3709
▁194	-3710
하게도	-3711
▁상대의	-3712
▁샌	-3713
로스	-3714
▁왕국	-3715
▁무기를	-3716
▁이들은	-3717
발을	-3718
리트	-3719
▁게임의	-3720
▁끝난	-3721
▁소비	-3722
▁직전	-3723
호는	-3724
미야	-3725
▁거두	-3726
▁지적	-3727
회에	-3728
▁을	-3729
▁허용	-3730
가로	-3731
▁알렉	-3732
▁유용	-3733
▁폭탄	-3734
▁생기	-3735
역이	-3736
▁조준	-3737
▁전술	-3738
었으며	-3739
▁바뀌었다	-3740
ED	-3741
▁작성	-3742
▁촉	-3743
▁히트	-3744
▁해군	-3745
▁스포츠	-3746
▁뒤로	-3747
락을	-3748
자리	-3749
미는	-3750
사이	-3751
ee	-3752
▁방문	-3753
▁되며	-3754
달라고	-3755
▁짧은	-3756
AS	-3757
▁편집	-3758
피아	-3759
▁덩	-3760
▁만들어진	-3761
▁부른다	-3762
목을	-3763
▁일본어	-3764
▁스케	-3765
▁알려져	-3766
드리	-3767
▁설계	-3768
▁넘어가	-3769
터의	-3770
▁조각	-3771
▁거대	-3772
▁기절	-3773
받고	-3774
99	-3775
게도	-3776
렸고	-3777
▁하나의	-3778
▁데스	-3779
보기	-3780
▁필드	-3781
아웃	-3782
▁진영	-3783
프의	-3784
▁소리를	-3785
▁습격	-3786
▁추가된	-3787
▁미친	-3788
석이	-3789
▁효율	-3790
▁누가	-3791
자들	-3792
심히	-3793
▁중심으로	-3794
▁삶	-3795
▁상대를	-3796
동이	-3797
▁평가를	-3798
▁ST	-3799
▁유도	-3800
▁테마	-3801
▁약속	-3802
▁깎	-3803
▁자료	-3804
▁갱	-3805
▁도움이	-3806
▁수준의	-3807
OS	-3808
▁재생	-3809
/32	-3810
▁나누	-3811
▁분리	-3812
▁싶어	-3813
시스	-3814
▁뿐이다	-3815
▁댓	-3816
마스	-3817
▁퓨	-3818
▁수치	-3819
제는	-3820
-10	-3821
공을	-3822
▁메가	-3823
포를	-3824
ct	-3825
▁선정	-3826
▁사용한	-3827
▁99	-3828
인지라	-3829
▁보여주는	-3830
함이	-3831
▁장기	-3832
▁집에	-3833
▁페르	-3834
▁자기가	-3835
▁이전에	-3836
물로	-3837
▁고등학교	-3838
▁부담	-3839
▁떨어진	-3840
ffff	-3841
마을	-3842
와서	-3843
▁그게	-3844
ive	-3845
▁죽이	-3846
▁발휘	-3847
질이	-3848
▁여행	-3849
▁틈	-3850
▁스펙	-3851
▁스탠	-3852
▁부상	-3853
▁국회의	-3854
주시	-3855
▁아웃	-3856
▁아프리카	-3857
▁Bl	-3858
▁길을	-3859
서가	-3860
▁목적	-3861
판이	-3862
▁보급	-3863
것이	-3864
마법	-3865
ong	-3866
▁마법사	-3867
▁떨어지는	-3868
사키	-3869
▁측면	-3870
▁패러디	-3871
▁곳에	-3872
▁공격력이	-3873
▁중이다	-3874
100	-3875
▁제외하고	-3876
▁하나를	-3877
ort	-3878
▁간다	-3879
▁랜덤	-3880
▁가면라이더	-3881
ffffff	-3882
▁무게	-3883
라리	-3884
▁유래	-3885
▁로드	-3886
▁SS	-3887
3,	-3888
차피	-3889
▁위에서	-3890
▁두산	-3891
▁라디오	-3892
던가	-3893
▁55	-3894
▁등등	-3895
▁게임이	-3896
▁아야	-3897
▁정당	-3898
▁연계	-3899
▁핸	-3900
▁사령	-3901
▁공통	-3902
▁를	-3903
▁원하는	-3904
▁싶은	-3905
▁출생	-3906
ip	-3907
▁행복	-3908
▁그리스	-3909
이었지만	-3910
▁둘러	-3911
▁탑승	-3912
▁오프닝	-3913
▁Al	-3914
▁개선	-3915
품을	-3916
▁춤	-3917
▁상황에	-3918
▁아오	-3919
▁사실은	-3920
▁떨어져	-3921
▁디자	-3922
▁미사일	-3923
▁그렇다고	-3924
세의	-3925
▁중에서도	-3926
이라며	-3927
▁뿐만	-3928
▁음식	-3929
▁덴	-3930
▁젊은	-3931
위의	-3932
▁팀을	-3933
▁쉬운	-3934
▁문제로	-3935
▁Th	-3936
▁판타	-3937
▁44	-3938
ist	-3939
▁승강	-3940
할때	-3941
▁포함한	-3942
▁에이스	-3943
생활	-3944
끼리	-3945
권이	-3946
▁내용을	-3947
느냐	-3948
기술	-3949
▁강제	-3950
▁살짝	-3951
▁생겨	-3952
▁온갖	-3953
론이	-3954
▁정책	-3955
▁해주	-3956
▁못해	-3957
▁처음에는	-3958
자에게	-3959
파이어	-3960
교통	-3961
사건	-3962
트에	-3963
규모	-3964
▁그럴	-3965
▁거절	-3966
EC	-3967
▁이후에는	-3968
▁드랍	-3969
소가	-3970
AC	-3971
▁단점	-3972
디션	-3973
▁SBS	-3974
안타	-3975
▁서포	-3976
▁늘어나	-3977
▁카페	-3978
▁꾸준히	-3979
▁상태가	-3980
▁모른다	-3981
▁75	-3982
▁구입	-3983
▁대한민국의	-3984
마리	-3985
▁은근	-3986
▁둘이	-3987
▁바탕	-3988
▁사항	-3989
.11	-3990
LC	-3991
▁처음부터	-3992
▁콩	-3993
▁고유	-3994
우의	-3995
▁에어	-3996
있던	-3997
▁머리를	-3998
▁한국어	-3999
으로부터	-4000
하러	-4001
나무	-4002
비의	-4003
량의	-4004
▁그녀를	-4005
ne	-4006
▁줄어들	-4007
▁이상한	-4008
▁배신	-4009
▁상대적으로	-4010
골을	-4011
오의	-4012
▁종합	-4013
▁광고	-4014
▁혜	-4015
▁없게	-4016
▁어쩔	-4017
▁2001	-4018
▁삽	-4019
▁왼쪽	-4020
▁무서	-4021
산을	-4022
가능	-4023
이던	-4024
언을	-4025
▁없으며	-4026
▁차례	-4027
▁무대	-4028
▁로켓	-4029
▁하나가	-4030
ind	-4031
하의	-4032
▁이것이	-4033
▁점수	-4034
▁일어난	-4035
▁테러	-4036
▁쏟	-4037
▁120	-4038
렀다	-4039
▁릴	-4040
타의	-4041
랐다	-4042
▁플레이어가	-4043
▁07	-4044
▁래	-4045
▁숨겨	-4046
▁센터	-4047
▁내부	-4048
▁자살	-4049
먹는	-4050
38	-4051
전은	-4052
▁때부터	-4053
▁단독	-4054
▁열린	-4055
▁사정	-4056
▁01	-4057
▁be	-4058
▁형태로	-4059
▁해제	-4060
▁습득	-4061
디아	-4062
▁함정	-4063
▁돌격	-4064
▁시내	-4065
긴다	-4066
▁당황	-4067
드라	-4068
▁커버	-4069
어져	-4070
▁말도	-4071
조가	-4072
하긴	-4073
▁한화	-4074
▁화살	-4075
까지의	-4076
▁료	-4077
▁게이	-4078
▁어째	-4079
님이	-4080
▁데미지가	-4081
권에서	-4082
▁고민	-4083
즈키	-4084
▁나카	-4085
무기	-4086
▁말했다	-4087
▁내구	-4088
▁미나	-4089
토의	-4090
FF	-4091
▁횟	-4092
▁겁	-4093
▁의심	-4094
▁서비스	-4095
▁말해	-4096
치지	-4097
▁인생	-4098
사에서	-4099
거리가	-4100
▁울트라	-4101
▁혁	-4102
▁가정	-4103
▁흔히	-4104
▁어차피	-4105
▁모션	-4106
▁온라인	-4107
▁사거리	-4108
▁활동을	-4109
▁한계	-4110
▁나쁜	-4111
정보	-4112
▁약한	-4113
향이	-4114
▁훌륭	-4115
▁PS	-4116
▁공화	-4117
▁주연	-4118
▁확률이	-4119
오가	-4120
▁당선	-4121
▁캔	-4122
▁사이에서	-4123
▁사건이	-4124
▁중간에	-4125
▁동맹	-4126
웠다	-4127
▁밀려	-4128
▁47	-4129
▁않으며	-4130
▁뒤집	-4131
▁오는	-4132
격이	-4133
▁두번째	-4134
▁인구	-4135
▁열심히	-4136
▁연주	-4137
▁따른	-4138
▁그다	-4139
▁인기를	-4140
▁대다	-4141
▁02	-4142
▁08	-4143
패를	-4144
ly	-4145
▁수원	-4146
▁플라	-4147
▁향해	-4148
▁받아들	-4149
▁오후	-4150
지마	-4151
▁때려	-4152
▁버티	-4153
▁아침	-4154
▁입수	-4155
▁탄생	-4156
였다고	-4157
▁돌파	-4158
▁들어오	-4159
▁와중에	-4160
-5	-4161
▁파악	-4162
▁있으므로	-4163
ain	-4164
▁시점에서	-4165
ith	-4166
상에서	-4167
▁이사	-4168
▁스페셜	-4169
39	-4170
▁위로	-4171
▁괴물	-4172
▁명의	-4173
기만	-4174
▁1990	-4175
리나	-4176
▁박살	-4177
▁MV	-4178
▁불리는	-4179
되는데	-4180
았지만	-4181
▁개편	-4182
▁정글	-4183
적이고	-4184
▁증거	-4185
▁아이템을	-4186
64	-4187
34	-4188
▁초월	-4189
년이	-4190
ry	-4191
IT	-4192
선거	-4193
▁단체	-4194
시장	-4195
▁댓글	-4196
▁눈치	-4197
▁비록	-4198
▁내용이	-4199
▁속에서	-4200
일의	-4201
▁했다고	-4202
▁본선	-4203
▁버튼	-4204
▁우려	-4205
다이	-4206
▁정말로	-4207
▁정령	-4208
▁하위	-4209
▁카드가	-4210
▁납치	-4211
ld	-4212
▁기획	-4213
▁아시아	-4214
▁않아서	-4215
▁밟	-4216
▁장점	-4217
▁세력	-4218
▁않기	-4219
▁무력	-4220
▁실질	-4221
구로	-4222
자마자	-4223
▁핵심	-4224
▁해설	-4225
▁봄	-4226
등급	-4227
▁만들었다	-4228
▁궤	-4229
▁격투	-4230
▁20%	-4231
com	-4232
▁역전	-4233
OL	-4234
▁사람들	-4235
▁채용	-4236
니가	-4237
▁마츠	-4238
▁라이벌	-4239
하기에	-4240
▁핑	-4241
▁중단	-4242
▁클로	-4243
▁활약을	-4244
▁자이	-4245
▁시작한	-4246
피스	-4247
▁룰	-4248
▁포르	-4249
▁겨울	-4250
▁존재하는	-4251
식의	-4252
족의	-4253
▁하수	-4254
▁06	-4255
▁경유	-4256
▁설득	-4257
▁나오는데	-4258
철도	-4259
▁디스	-4260
▁생물	-4261
▁육군	-4262
▁마녀	-4263
▁자원	-4264
▁찰	-4265
▁덕에	-4266
▁레인	-4267
량은	-4268
▁네이버	-4269
▁공격이	-4270
▁외모	-4271
만원	-4272
▁시티	-4273
일은	-4274
▁커뮤니티	-4275
시켰다	-4276
권의	-4277
▁대장	-4278
▁얼음	-4279
▁파이터	-4280
▁올림픽	-4281
▁발음	-4282
루를	-4283
▁들어가는	-4284
FA	-4285
▁당시에는	-4286
▁북미	-4287
▁반영	-4288
▁쓴다	-4289
▁http	-4290
토를	-4291
수와	-4292
▁3.	-4293
▁혼란	-4294
리티컬	-4295
스카	-4296
▁입은	-4297
▁09	-4298
▁셰	-4299
▁일종의	-4300
▁갓	-4301
▁지명	-4302
▁행적	-4303
▁필요하다	-4304
▁내내	-4305
▁뽑아	-4306
▁옆에	-4307
▁쓰지	-4308
▁김성	-4309
▁그것도	-4310
▁주력	-4311
ore	-4312
자들을	-4313
▁즉시	-4314
되었는데	-4315
▁책임	-4316
▁출발	-4317
▁마지막으로	-4318
관계	-4319
22	-4320
루의	-4321
였으며	-4322
▁여러가지	-4323
▁#373	-4324
▁거주	-4325
▁46	-4326
▁위키	-4327
▁제로	-4328
▁선배	-4329
▁안되는	-4330
▁다행히	-4331
▁템	-4332
▁아라	-4333
▁암흑	-4334
▁패치로	-4335
▁하다가	-4336
▁보여준	-4337
▁아사	-4338
▁쓰러뜨	-4339
▁늘어	-4340
▁떼	-4341
▁사람도	-4342
었기	-4343
▁컨텐츠	-4344
HE	-4345
▁때문인지	-4346
웨이	-4347
리다	-4348
▁사람들을	-4349
▁정도는	-4350
방이	-4351
▁작전	-4352
▁00	-4353
▁제조	-4354
았다고	-4355
▁카운터	-4356
▁낳	-4357
기인	-4358
▁있도록	-4359
▁그다지	-4360
▁가사	-4361
▁수리	-4362
▁일부러	-4363
▁하기도	-4364
▁핀	-4365
ss	-4366
▁갑옷	-4367
면서도	-4368
▁지급	-4369
됩니다	-4370
성으로	-4371
등을	-4372
▁그만큼	-4373
▁계산	-4374
스포	-4375
▁않았고	-4376
▁아티	-4377
▁스프	-4378
▁무난	-4379
▁붙잡	-4380
주면	-4381
▁떡밥	-4382
▁놓고	-4383
▁황제	-4384
▁만족	-4385
end	-4386
▁낚	-4387
▁융	-4388
▁게이지	-4389
시리즈	-4390
았는데	-4391
하기로	-4392
▁그것을	-4393
▁홍콩	-4394
도와	-4395
▁만난	-4396
▁컴퓨터	-4397
▁보너스	-4398
▁이름의	-4399
▁비하면	-4400
▁03	-4401
▁들어간	-4402
▁쓰레	-4403
▁돌진	-4404
▁흰	-4405
▁순식	-4406
▁얻은	-4407
아파트	-4408
▁분야	-4409
▁만들고	-4410
▁스트라이	-4411
▁메탈	-4412
말을	-4413
되기도	-4414
▁NC	-4415
▁크리티컬	-4416
▁의한	-4417
▁트레	-4418
▁가득	-4419
▁{	-4420
해주는	-4421
▁나의	-4422
▁케이스	-4423
받아	-4424
판에서는	-4425
년의	-4426
▁폰	-4427
▁사용하면	-4428
▁전자	-4429
시와	-4430
▁공주	-4431
▁노트	-4432
점에서	-4433
▁400	-4434
▁겐	-4435
관의	-4436
▁신뢰	-4437
사용	-4438
▁구단	-4439
▁카나	-4440
▁국가대표	-4441
▁시야	-4442
▁동일한	-4443
판에	-4444
남도	-4445
보단	-4446
▁해적	-4447
스에게	-4448
▁방식으로	-4449
년까지	-4450
▁재능	-4451
▁하던	-4452
버리고	-4453
년도	-4454
▁롱	-4455
술사	-4456
▁me	-4457
▁아무도	-4458
▁난이도가	-4459
▁붕괴	-4460
았을	-4461
▁교환	-4462
▁사실이	-4463
▁부터	-4464
지컬	-4465
▁주인공이	-4466
▁오른쪽	-4467
▁NPC	-4468
▁충돌	-4469
▁관광	-4470
▁있긴	-4471
화로	-4472
▁미야	-4473
21	-4474
~3	-4475
▁추가되었다	-4476
유키	-4477
▁순식간에	-4478
▁텍	-4479
당의	-4480
▁CP	-4481
중학교	-4482
▁고급	-4483
▁추정된다	-4484
시간이	-4485
오프	-4486
▁나루	-4487
▁출처	-4488
스트로	-4489
만은	-4490
과학	-4491
▁트위터	-4492
해져	-4493
지원	-4494
수에	-4495
▁떠올	-4496
▁생각하는	-4497
▁페이	-4498
▁그런지	-4499
▁외에	-4500
▁말한	-4501
▁or	-4502
▁아케	-4503
RE	-4504
▁늑	-4505
로서의	-4506
주년	-4507
▁어쨌	-4508
▁얼굴을	-4509
▁걸려	-4510
등장	-4511
왕이	-4512
▁그동안	-4513
▁랭	-4514
▁절반	-4515
▁싸우는	-4516
오카	-4517
▁응원	-4518
▁안드로	-4519
75	-4520
▁드디어	-4521
▁1999	-4522
▁i	-4523
▁마주	-4524
우를	-4525
▁드립	-4526
▁것이라는	-4527
조를	-4528
▁건너	-4529
▁적도	-4530
se	-4531
▁빔	-4532
▁불꽃	-4533
▁치고	-4534
-12	-4535
▁데리고	-4536
비는	-4537
해지는	-4538
▁격파	-4539
▁의미가	-4540
ust	-4541
▁오로	-4542
▁이것은	-4543
▁들어서	-4544
▁닿	-4545
대와	-4546
▁스페인	-4547
▁보여주었다	-4548
▁거쳐	-4549
▁르	-4550
▁베이스	-4551
▁반란	-4552
▁받게	-4553
▁와서	-4554
운다	-4555
▁캐릭터의	-4556
▁파이널	-4557
▁뛰어나	-4558
▁없었던	-4559
▁부분은	-4560
▁인간의	-4561
▁1998	-4562
▁많았다	-4563
▁속에	-4564
▁노멀	-4565
▁딜러	-4566
라기	-4567
▁노동	-4568
▁알려진	-4569
악한	-4570
▁폭풍	-4571
▁제안	-4572
▁05	-4573
들이다	-4574
은행	-4575
▁계속해서	-4576
▁그녀가	-4577
▁이쪽은	-4578
▁의도	-4579
▁행동을	-4580
▁오리	-4581
▁못할	-4582
▁감염	-4583
▁클리	-4584
▁가로	-4585
리언	-4586
▁쓰면	-4587
▁04	-4588
▁바르	-4589
▁근거	-4590
당이	-4591
▁걷	-4592
영상	-4593
▁몹	-4594
▁서울특별	-4595
니어	-4596
▁프로토	-4597
▁귀족	-4598
▁지하철	-4599
▁압박	-4600
▁it	-4601
▁테크	-4602
▁채로	-4603
▁연예	-4604
▁아닐	-4605
▁소멸	-4606
판의	-4607
▁많고	-4608
▁벗어나	-4609
이긴	-4610
▁퀄	-4611
▁|	-4612
스팅	-4613
▁쏟아	-4614
▁여동생	-4615
▁브랜드	-4616
:4	-4617
▁동아	-4618
▁역으로	-4619
▁전체적으로	-4620
▁한때	-4621
▁최악의	-4622
▁그렇지	-4623
▁실제로는	-4624
▁이승	-4625
국이	-4626
▁랩	-4627
▁강조	-4628
하지는	-4629
▁노래를	-4630
▁덮	-4631
메달	-4632
보스	-4633
▁단일	-4634
▁홍보	-4635
▁수입	-4636
▁텔	-4637
원들이	-4638
급의	-4639
▁체육	-4640
▁아무런	-4641
이었는데	-4642
▁국적	-4643
▁64	-4644
▁on	-4645
▁사상	-4646
머리	-4647
년간	-4648
널티	-4649
▁내에	-4650
▁맡은	-4651
▁깃	-4652
▁그녀는	-4653
▁신의	-4654
▁첫번째	-4655
증을	-4656
▁토모	-4657
▁유희	-4658
선으로	-4659
형의	-4660
▁몰래	-4661
▁폼	-4662
▁러브	-4663
군에	-4664
▁프로젝트	-4665
전에서는	-4666
▁형제	-4667
▁AT	-4668
▁가까이	-4669
▁출현	-4670
▁상향	-4671
▁집안	-4672
▁입학	-4673
사인	-4674
▁여러모로	-4675
▁SN	-4676
▁뉴욕	-4677
▁견제	-4678
▁관객	-4679
▁아무것도	-4680
▁공을	-4681
▁파이어	-4682
스턴	-4683
▁흔들	-4684
▁부족한	-4685
색이	-4686
33	-4687
▁되돌	-4688
▁수준으로	-4689
▁넣어	-4690
▁젠	-4691
▁이들이	-4692
점에	-4693
▁돌아오	-4694
▁화려	-4695
▁빨간	-4696
▁생겼다	-4697
.25	-4698
내며	-4699
▁re	-4700
▁충전	-4701
하시	-4702
▁괜찮은	-4703
▁주어	-4704
▁크리	-4705
▁선호	-4706
▁연사	-4707
▁제시	-4708
▁대로	-4709
것을	-4710
오를	-4711
기에서	-4712
체는	-4713
거리는	-4714
▁BGM	-4715
▁영문	-4716
▁달러	-4717
▁가문	-4718
▁다니는	-4719
▁들이	-4720
▁조용	-4721
▁만든다	-4722
▁CD	-4723
▁is	-4724
▁신규	-4725
▁성능이	-4726
▁...	-4727
est	-4728
가에	-4729
▁49	-4730
문화	-4731
▁마지막에	-4732
으려	-4733
▁당한	-4734
▁오픈	-4735
사람	-4736
▁예선	-4737
▁창작	-4738
줘야	-4739
했다가	-4740
▁for	-4741
별로	-4742
▁됐다	-4743
▁언니	-4744
▁의식	-4745
▁자리에	-4746
▁An	-4747
▁접기	-4748
진은	-4749
▁기록했다	-4750
▁놀라	-4751
▁영원	-4752
:30	-4753
28	-4754
▁되자	-4755
▁가입	-4756
▁닉	-4757
▁방송을	-4758
▁눈이	-4759
일로	-4760
가락	-4761
▁죽는	-4762
▁실행	-4763
▁마이크	-4764
기에는	-4765
▁취소	-4766
카를	-4767
▁바탕으로	-4768
력에	-4769
▁살고	-4770
실이	-4771
▁유저들이	-4772
▁작사	-4773
없다	-4774
▁명예	-4775
▁끔	-4776
▁후쿠	-4777
▁가드	-4778
▁갖추	-4779
og	-4780
까지만	-4781
치에	-4782
▁크레	-4783
▁카르	-4784
▁거기다	-4785
주인	-4786
▁경계	-4787
판은	-4788
▁혼자서	-4789
▁곳에서	-4790
▁조정	-4791
타이	-4792
▁모습은	-4793
버리	-4794
▁1997	-4795
▁보이고	-4796
각을	-4797
▁정확히	-4798
대에서	-4799
디언	-4800
▁메이저	-4801
▁붙여	-4802
▁대륙	-4803
▁의견이	-4804
되었던	-4805
▁경상	-4806
▁했을	-4807
▁쓰이는	-4808
▁지금까지	-4809
▁어그	-4810
면을	-4811
▁회전	-4812
▁루트	-4813
▁마련	-4814
즈는	-4815
▁화이트	-4816
류가	-4817
▁이후로는	-4818
▁쪽이	-4819
▁전원	-4820
▁위해서는	-4821
하였으며	-4822
▁65	-4823
스트를	-4824
▁얻는	-4825
타입	-4826
▁프로필	-4827
▁효과는	-4828
▁아메	-4829
▁리버	-4830
▁MAX	-4831
▁추락	-4832
▁올리	-4833
▁댄스	-4834
PG	-4835
▁캐릭터를	-4836
▁최상	-4837
▁신인	-4838
▁복수	-4839
▁목숨을	-4840
▁기어	-4841
▁하나인	-4842
스트라	-4843
▁제법	-4844
▁펼치기	-4845
병을	-4846
.01	-4847
▁번호	-4848
한국	-4849
▁언제나	-4850
▁주도	-4851
▁네가	-4852
▁그곳	-4853
▁미츠	-4854
age	-4855
▁보수	-4856
크는	-4857
▁훔	-4858
▁거래	-4859
▁한자	-4860
▁고양이	-4861
▁닥터	-4862
▁심각한	-4863
렸을	-4864
▁30%	-4865
기간	-4866
들에게는	-4867
▁공유	-4868
방어	-4869
▁본인도	-4870
▁단지	-4871
중한	-4872
▁죽여	-4873
▁규모	-4874
▁짤	-4875
거운	-4876
▁쪽으로	-4877
▁그들의	-4878
▁주먹	-4879
▁비슷하게	-4880
▁연애	-4881
▁보이며	-4882
▁형성	-4883
히로	-4884
▁짝	-4885
▁1.5	-4886
▁이스	-4887
▁본격적으로	-4888
▁무적	-4889
권에	-4890
▁어디까지	-4891
▁여겨	-4892
▁보자	-4893
서의	-4894
▁불편	-4895
▁타케	-4896
▁아머	-4897
▁아직도	-4898
▁울산	-4899
▁영상을	-4900
26	-4901
▁묵	-4902
▁되찾	-4903
우리	-4904
▁Ar	-4905
-11	-4906
▁후에는	-4907
27	-4908
ity	-4909
터리	-4910
▁다가	-4911
▁두려	-4912
▁귀여	-4913
▁물러	-4914
▁예고	-4915
실에	-4916
▁맡았다	-4917
▁말할	-4918
북도	-4919
▁대폭	-4920
▁못하게	-4921
브를	-4922
▁스폰	-4923
▁글로	-4924
▁방법이	-4925
▁옛날	-4926
▁마음에	-4927
연구	-4928
out	-4929
▁먹을	-4930
▁뉴스	-4931
▁고생	-4932
▁크루	-4933
▁메카	-4934
▁MS	-4935
▁이득	-4936
▁조심	-4937
단으로	-4938
저히	-4939
BO	-4940
위원회	-4941
자키	-4942
▁부진	-4943
▁마도	-4944
}}	-4945
▁갤럭	-4946
번호	-4947
▁문을	-4948
▁쿠로	-4949
▁푸른	-4950
▁무효	-4951
▁후지	-4952
PM	-4953
시고	-4954
물의	-4955
▁노출	-4956
▁체력을	-4957
▁피아	-4958
▁파일럿	-4959
▁가이	-4960
마저도	-4961
▁베르	-4962
▁팀은	-4963
▁편이	-4964
▁제주	-4965
ide	-4966
전투	-4967
▁이래	-4968
공항	-4969
장인	-4970
▁어쩌	-4971
▁Te	-4972
▁실시	-4973
▁사건을	-4974
▁꺾	-4975
▁모바	-4976
▁수요	-4977
▁몸에	-4978
▁안된다	-4979
ere	-4980
▁이거	-4981
▁제이	-4982
▁자체를	-4983
냐며	-4984
▁선수가	-4985
마는	-4986
할수	-4987
▁풀어	-4988
▁종점	-4989
▁기회를	-4990
▁당시의	-4991
▁브라질	-4992
▁몸이	-4993
기지	-4994
▁오빠	-4995
▁입장에서는	-4996
▁만에	-4997
▁등판	-4998
▁희귀	-4999
▁스킬이	-5000
▁덧	-5001
▁없애	-5002
▁KT	-5003
▁성능을	-5004
▁있어야	-5005
▁거라고	-5006
초등학교	-5007
▁서울특별시	-5008
▁샷	-5009
메이	-5010
▁생각을	-5011
▁유령	-5012
▁이슬	-5013
▁자신과	-5014
▁반격	-5015
▁더빙	-5016
▁r	-5017
ome	-5018
▁생겼	-5019
▁똑같이	-5020
▁연도	-5021
▁맘	-5022
시안	-5023
▁전함	-5024
▁기습	-5025
▁마리오	-5026
선에	-5027
당하고	-5028
▁맞이	-5029
▁정류	-5030
▁계급	-5031
▁판타지	-5032
▁증명	-5033
▁스마트	-5034
정부	-5035
▁것이라	-5036
용이	-5037
65	-5038
▁샘	-5039
▁계승	-5040
▁긍	-5041
▁꺼내	-5042
▁테이	-5043
▁레전드	-5044
▁건강	-5045
▁생일	-5046
▁이들의	-5047
▁구출	-5048
▁시키	-5049
▁도달	-5050
▁어둠의	-5051
인에게	-5052
▁타워	-5053
▁구현	-5054
코는	-5055
.02	-5056
▁사이가	-5057
▁국회의원	-5058
▁권총	-5059
▁방향으로	-5060
력도	-5061
▁우리가	-5062
▁편성	-5063
▁사운드	-5064
▁해체	-5065
▁화장	-5066
▁익숙	-5067
▁조금씩	-5068
▁똑같은	-5069
▁헤드	-5070
▁통한	-5071
연합	-5072
▁43	-5073
역에서	-5074
워드	-5075
라이트	-5076
▁대학교	-5077
▁추적	-5078
▁커맨	-5079
FC	-5080
▁빠진	-5081
부대	-5082
되자	-5083
IS	-5084
▁통해서	-5085
▁공항	-5086
▁1996	-5087
▁것이었다	-5088
사랑	-5089
▁크로스	-5090
▁투자	-5091
▁위기에	-5092
▁어지	-5093
▁사토	-5094
MA	-5095
▁요즘	-5096
▁장애	-5097
▁클래스	-5098
▁1995	-5099
▁자이언	-5100
해보	-5101
▁세계관	-5102
▁감독이	-5103
▁비중이	-5104
▁저주	-5105
▁신청	-5106
▁그래픽	-5107
치와	-5108
▁Ne	-5109
▁무료	-5110
▁언어	-5111
px	-5112
▁선물	-5113
▁대미지를	-5114
드립	-5115
▁요새	-5116
▁산업	-5117
▁기점	-5118
▁US	-5119
▁등장했다	-5120
▁스파이	-5121
▁중인	-5122
▁에서	-5123
▁동네	-5124
대회	-5125
▁인형	-5126
하였으나	-5127
▁민간	-5128
▁불가능하다	-5129
▁한마	-5130
▁호평	-5131
▁사진을	-5132
▁전투를	-5133
200	-5134
▁집어	-5135
▁엑스	-5136
▁던져	-5137
▁프리미	-5138
▁진정한	-5139
무원	-5140
▁경기가	-5141
▁해방	-5142
링을	-5143
▁포인	-5144
▁190	-5145
▁반응을	-5146
▁수록곡	-5147
▁인지	-5148
▁180	-5149
▁최후의	-5150
4,	-5151
▁흘러	-5152
작을	-5153
▁살려	-5154
▁옹	-5155
체로	-5156
▁에스	-5157
▁순서	-5158
▁학살	-5159
▁때가	-5160
▁4,	-5161
▁들은	-5162
▁인상	-5163
▁겉	-5164
▁주목	-5165
.03	-5166
▁행사	-5167
▁말은	-5168
연이	-5169
▁다수	-5170
▁복잡	-5171
▁시행	-5172
▁다이아	-5173
공의	-5174
▁한데	-5175
▁요괴	-5176
야의	-5177
▁페이스	-5178
▁AI	-5179
민이	-5180
▁알파	-5181
하이	-5182
▁어드	-5183
▁나나	-5184
▁분석	-5185
▁이날	-5186
▁동원	-5187
레나	-5188
-20	-5189
ood	-5190
▁걸린	-5191
▁다리	-5192
▁특기	-5193
▁때에는	-5194
서관	-5195
▁이재	-5196
메이크	-5197
▁전직	-5198
+1	-5199
▁눌	-5200
▁매일	-5201
▁코드	-5202
주지	-5203
지는데	-5204
제한	-5205
▁방법을	-5206
츠키	-5207
▁락	-5208
짜리	-5209
프는	-5210
▁적어도	-5211
▁밴드	-5212
▁포탑	-5213
▁아우	-5214
▁값	-5215
화는	-5216
▁플레	-5217
▁된다는	-5218
▁낭	-5219
▁달아	-5220
▁어깨	-5221
▁왔다	-5222
▁음반	-5223
▁팬들이	-5224
▁넓은	-5225
▁근무	-5226
ire	-5227
▁우승을	-5228
▁제기	-5229
▁라이더	-5230
▁델	-5231
시설	-5232
▁전달	-5233
▁말이다	-5234
작의	-5235
▁나를	-5236
▁별명	-5237
▁파란	-5238
▁돌아온	-5239
▁깊은	-5240
든가	-5241
▁쓰인다	-5242
▁주지	-5243
▁부분을	-5244
▁의사	-5245
전차	-5246
▁어떻게든	-5247
▁폭주	-5248
베르	-5249
▁크고	-5250
▁드물	-5251
더라	-5252
▁팬들은	-5253
▁성별	-5254
▁구해	-5255
▁DLC	-5256
▁성인	-5257
▁탱커	-5258
▁젤	-5259
OT	-5260
▁뒤를	-5261
▁작동	-5262
▁헤어	-5263
▁개의	-5264
조리	-5265
▁그랬	-5266
▁평가가	-5267
고의	-5268
▁아쉽	-5269
▁관심을	-5270
선은	-5271
▁대체로	-5272
▁이후의	-5273
▁유명하다	-5274
▁왠	-5275
당하는	-5276
▁오해	-5277
▁현재의	-5278
▁판정	-5279
▁통일	-5280
▁이들	-5281
단은	-5282
▁단어	-5283
▁공격에	-5284
▁작중에서	-5285
▁곳이	-5286
▁너무나	-5287
▁균	-5288
are	-5289
▁무언	-5290
▁MC	-5291
러운	-5292
▁가깝다	-5293
▁검색	-5294
▁학원	-5295
▁해당하는	-5296
▁수집	-5297
▁치명타	-5298
▁양산	-5299
▁플레이를	-5300
▁여유	-5301
해졌	-5302
▁고전	-5303
되었으나	-5304
브리	-5305
▁하니	-5306
장한	-5307
마루	-5308
▁저그	-5309
▁교수	-5310
▁내는	-5311
▁없으니	-5312
▁유형	-5313
▁운전	-5314
▁전투에서	-5315
카는	-5316
▁있었다고	-5317
보가	-5318
번에	-5319
▁붙은	-5320
▁MVP	-5321
▁소리가	-5322
▁이후에도	-5323
라노	-5324
▁표준	-5325
▁하거나	-5326
로로	-5327
류를	-5328
▁절망	-5329
미와	-5330
▁블러	-5331
▁기억을	-5332
▁일반적으로	-5333
▁괴롭	-5334
군과	-5335
▁않아도	-5336
▁외교	-5337
▁AC	-5338
▁무엇보다	-5339
▁연상	-5340
디로	-5341
데스	-5342
▁이시	-5343
▁그럼에도	-5344
▁중계	-5345
▁히로인	-5346
▁58	-5347
▁여왕	-5348
▁팝	-5349
▁엮	-5350
▁넘는	-5351
▁강철	-5352
▁추격	-5353
/4	-5354
당히	-5355
▁위치를	-5356
▁곰	-5357
▁리메이크	-5358
중인	-5359
▁보여주고	-5360
29	-5361
일까지	-5362
▁하필	-5363
▁Wh	-5364
지않	-5365
▁글을	-5366
▁동방	-5367
다니는	-5368
았으나	-5369
경이	-5370
리아의	-5371
▁레오	-5372
▁하더라도	-5373
▁공산	-5374
▁모으	-5375
▁소닉	-5376
▁정도가	-5377
▁매니	-5378
구역	-5379
▁튜	-5380
'.	-5381
▁용의	-5382
▁캐릭터로	-5383
▁낮아	-5384
▁Le	-5385
▁도중에	-5386
▁모리	-5387
라이언	-5388
▁임명	-5389
▁변형	-5390
▁마법을	-5391
▁이뤄	-5392
▁콘서	-5393
시절	-5394
▁맡고	-5395
UN	-5396
실에서	-5397
▁전면	-5398
▁스카이	-5399
▁그것이	-5400
시코	-5401
아를	-5402
▁프린	-5403
▁블록	-5404
인간	-5405
▁안에서	-5406
▁진지	-5407
▁박근	-5408
▁셔	-5409
▁모두가	-5410
▁챕	-5411
▁사람들의	-5412
our	-5413
▁변경되었다	-5414
▁변호	-5415
▁줄어	-5416
▁차라리	-5417
▁없으면	-5418
▁마인	-5419
▁제국의	-5420
스키	-5421
▁퀸	-5422
▁압도적인	-5423
▁몰려	-5424
니의	-5425
▁초창	-5426
▁족	-5427
▁막을	-5428
내기	-5429
▁되지만	-5430
▁통신	-5431
▁자동차	-5432
▁잡는	-5433
친구	-5434
▁66	-5435
병이	-5436
▁쉽다	-5437
동차	-5438
▁페이지	-5439
▁막장	-5440
▁고백	-5441
홈런	-5442
프리	-5443
▁능력은	-5444
▁펀	-5445
▁빵	-5446
▁비슷하다	-5447
ake	-5448
▁하야	-5449
31	-5450
OM	-5451
▁중화	-5452
▁공부	-5453
▁보물	-5454
~4	-5455
▁맞다	-5456
▁나와서	-5457
▁스튜	-5458
▁갈아	-5459
으론	-5460
ure	-5461
▁달린	-5462
OW	-5463
▁최강의	-5464
▁56	-5465
어리	-5466
▁참전	-5467
▁경험치	-5468
레이터	-5469
▁그에게	-5470
▁쇠	-5471
▁득표	-5472
▁고향	-5473
▁느낌이	-5474
▁거리가	-5475
▁의뢰	-5476
▁협력	-5477
쟁이	-5478
ect	-5479
겠지	-5480
스톤	-5481
▁1980	-5482
▁곧바로	-5483
ass	-5484
다보니	-5485
▁대립	-5486
▁세월	-5487
▁개통	-5488
▁THE	-5489
qu	-5490
▁곡을	-5491
▁잦	-5492
▁빗	-5493
▁콜라	-5494
▁빠르	-5495
▁그와	-5496
영이	-5497
▁전형	-5498
▁마크	-5499
▁없는데	-5500
▁지나치게	-5501
ite	-5502
.05	-5503
▁등에서	-5504
에다	-5505
▁사양	-5506
▁일도	-5507
▁1994	-5508
▁슬롯	-5509
▁끝나고	-5510
▁착각	-5511
님의	-5512
▁준우	-5513
▁섹	-5514
▁행성	-5515
ark	-5516
하면서도	-5517
테인	-5518
▁넘겨	-5519
oy	-5520
트남	-5521
모드	-5522
▁예외	-5523
일드	-5524
▁막기	-5525
▁섭	-5526
▁빡	-5527
▁AK	-5528
했는지	-5529
▁편의	-5530
▁위험한	-5531
▁이내	-5532
편에서	-5533
했었다	-5534
▁극단	-5535
▁않았지만	-5536
▁근육	-5537
미니	-5538
▁예능	-5539
▁파라	-5540
▁주변에	-5541
▁아바	-5542
버려	-5543
▁어쨌든	-5544
▁대상으로	-5545
▁특별한	-5546
▁수학	-5547
▁신성	-5548
▁노예	-5549
이게	-5550
▁강원	-5551
의가	-5552
ID	-5553
둥이	-5554
라에	-5555
av	-5556
▁많아서	-5557
▁가고	-5558
▁근처에	-5559
티드	-5560
▁탁	-5561
▁길이	-5562
▁심한	-5563
▁보도	-5564
▁낸	-5565
▁화력	-5566
▁지니고	-5567
▁추진	-5568
▁이것을	-5569
▁차별	-5570
▁튀어나	-5571
▁엄마	-5572
▁커플	-5573
ES	-5574
색으로	-5575
▁잠수	-5576
▁곳으로	-5577
▁이르	-5578
▁있기에	-5579
▁아버지가	-5580
전자	-5581
▁파트너	-5582
▁통상	-5583
하는게	-5584
▁김영	-5585
▁생각하고	-5586
▁De	-5587
.08	-5588
AD	-5589
▁스피드	-5590
▁서서	-5591
끄는	-5592
▁의혹	-5593
▁아니었다	-5594
로봇	-5595
▁없었고	-5596
▁Se	-5597
스탄	-5598
▁잡을	-5599
▁정확히는	-5600
가고	-5601
▁어디까지나	-5602
ime	-5603
85	-5604
하기는	-5605
▁중학교	-5606
▁피격	-5607
▁이성	-5608
였다는	-5609
▁명이	-5610
▁흥행	-5611
평가	-5612
▁세계의	-5613
▁모바일	-5614
▁집단	-5615
▁않았던	-5616
▁뼈	-5617
관은	-5618
▁의원	-5619
▁관계를	-5620
▁헌터	-5621
▁[[	-5622
파이	-5623
▁하나는	-5624
iz	-5625
▁돕	-5626
율을	-5627
▁적극적으로	-5628
▁는	-5629
▁둥	-5630
▁관계가	-5631
▁이용하여	-5632
▁신고	-5633
▁멕	-5634
▁써서	-5635
▁탄약	-5636
▁마왕	-5637
했습니다	-5638
ound	-5639
▁체포	-5640
▁성격이	-5641
▁으	-5642
▁옮겨	-5643
▁협박	-5644
한의	-5645
▁대략	-5646
ob	-5647
▁실버	-5648
미네	-5649
책을	-5650
▁싸울	-5651
작이	-5652
▁외계	-5653
야구	-5654
만큼은	-5655
▁신기	-5656
▁아니냐는	-5657
▁!	-5658
파를	-5659
▁버려	-5660
▁생각보다	-5661
▁간혹	-5662
▁밖으로	-5663
▁컷	-5664
▁디버	-5665
대장	-5666
업이	-5667
▁지속적으로	-5668
으려고	-5669
▁대사를	-5670
▁수영	-5671
있고	-5672
▁말아	-5673
▁썩	-5674
▁목격	-5675
▁분위기	-5676
담을	-5677
노가	-5678
▁외부	-5679
▁실력을	-5680
마이	-5681
▁전까지	-5682
더스	-5683
리얼	-5684
▁뺏	-5685
당한다	-5686
다시	-5687
▁타이거	-5688
소리	-5689
▁날짜	-5690
▁마이클	-5691
OP	-5692
ge	-5693
노우	-5694
식은	-5695
▁똑같	-5696
▁되어서	-5697
▁FI	-5698
화되어	-5699
▁장수	-5700
▁춘	-5701
▁전력	-5702
직을	-5703
그래	-5704
▁곁	-5705
▁말하면	-5706
▁조절	-5707
▁총을	-5708
디가	-5709
▁??	-5710
▁오스	-5711
▁단순한	-5712
▁대부분이	-5713
......	-5714
23	-5715
번의	-5716
▁이지	-5717
▁나름대로	-5718
▁김태	-5719
▁쓰기	-5720
▁베어	-5721
▁은근히	-5722
국을	-5723
▁57	-5724
▁차단	-5725
▁가리	-5726
▁대화를	-5727
▁외에는	-5728
▁파견	-5729
▁가볍	-5730
▁쾌	-5731
▁41	-5732
▁버리고	-5733
▁코어	-5734
하라고	-5735
▁트로	-5736
▁중에서는	-5737
▁계획을	-5738
▁설정이	-5739
▁다들	-5740
▁깜	-5741
항공	-5742
▁소화	-5743
▁힘으로	-5744
들과는	-5745
BA	-5746
린이	-5747
▁까다	-5748
▁스코어	-5749
소의	-5750
▁합쳐	-5751
▁불법	-5752
▁끌고	-5753
자고	-5754
전대	-5755
95	-5756
▁홀로	-5757
▁마구	-5758
데다	-5759
종이	-5760
▁경영	-5761
당을	-5762
▁열차	-5763
▁한동안	-5764
▁맞지	-5765
▁지역의	-5766
▁쫓아	-5767
소에	-5768
~20	-5769
▁수송	-5770
iv	-5771
▁나뉘	-5772
▁들어간다	-5773
격으로	-5774
▁독자	-5775
환이	-5776
▁Me	-5777
▁기원	-5778
단지	-5779
민의	-5780
▁생각이	-5781
동의	-5782
▁폐지	-5783
.09	-5784
▁자가	-5785
▁He	-5786
▁시켜	-5787
편의	-5788
▁미스	-5789
지방	-5790
ock	-5791
▁77	-5792
▁넉	-5793
▁2017-0	-5794
▁평화	-5795
▁목적으로	-5796
▁고용	-5797
▁팬덤	-5798
▁앵	-5799
계에	-5800
▁와이	-5801
실한	-5802
당해	-5803
.07	-5804
▁보이지만	-5805
동에	-5806
▁더더	-5807
▁대처	-5808
▁합격	-5809
▁인근	-5810
름을	-5811
▁시장	-5812
-7	-5813
▁외국인	-5814
▁핫	-5815
LL	-5816
▁펼쳐	-5817
연의	-5818
▁테란	-5819
▁수사	-5820
오고	-5821
▁기초	-5822
▁장식	-5823
▁기능을	-5824
▁몬스터를	-5825
▁끌려	-5826
▁무작	-5827
ath	-5828
오리	-5829
▁보낸	-5830
치며	-5831
▁웹툰	-5832
형으로	-5833
현이	-5834
▁필살기	-5835
▁구속	-5836
▁기록을	-5837
초간	-5838
▁막차	-5839
▁승부	-5840
▁멀쩡	-5841
▁입력	-5842
0000	-5843
▁정확한	-5844
과도	-5845
▁날개	-5846
▁인공	-5847
▁태어	-5848
표를	-5849
어버린	-5850
되었지만	-5851
▁54	-5852
인지는	-5853
▁감시	-5854
▁스톰	-5855
▁시각	-5856
▁상황이다	-5857
심으로	-5858
▁기능이	-5859
▁이중	-5860
▁DJ	-5861
▁대만	-5862
▁85	-5863
▁당신	-5864
▁오랫	-5865
▁편곡	-5866
발이	-5867
티아	-5868
▁정도다	-5869
▁맞은	-5870
▁까지	-5871
론의	-5872
씨가	-5873
재를	-5874
▁자매	-5875
▁정면	-5876
▁무기로	-5877
▁룬	-5878
▁더더욱	-5879
▁my	-5880
▁지능	-5881
▁관계로	-5882
▁넌	-5883
▁흠	-5884
네가	-5885
구치	-5886
색을	-5887
학을	-5888
▁보일	-5889
▁kt	-5890
고로	-5891
▁존재하지	-5892
▁기반으로	-5893
▁갤러리	-5894
▁AR	-5895
▁다섯	-5896
▁강제로	-5897
▁FA	-5898
▁갇	-5899
▁보며	-5900
▁사장	-5901
▁적대	-5902
▁코믹스	-5903
▁낼	-5904
.04	-5905
▁아빠	-5906
▁수련	-5907
▁것만	-5908
▁이들을	-5909
▁죄다	-5910
▁KIA	-5911
▁블로그	-5912
▁작품의	-5913
조차도	-5914
▁플랫	-5915
98	-5916
▁잃은	-5917
테이	-5918
▁긍정	-5919
6,	-5920
▁전화	-5921
▁아리	-5922
▁캐나다	-5923
▁이길	-5924
▁같지만	-5925
▁태그	-5926
▁즈	-5927
부와	-5928
▁CC	-5929
▁Cl	-5930
▁어떠	-5931
▁원본	-5932
ax	-5933
▁것이고	-5934
▁가속	-5935
▁순수	-5936
▁팬들의	-5937
▁누적	-5938
하려면	-5939
▁사용해	-5940
▁중에는	-5941
▁일시	-5942
▁비해서	-5943
감독	-5944
▁썬	-5945
등이	-5946
▁대충	-5947
▁예측	-5948
▁마이너	-5949
▁멍	-5950
▁기술이	-5951
▁안드로이드	-5952
▁상품	-5953
▁아가	-5954
경찰	-5955
▁말로	-5956
▁피해량	-5957
ess	-5958
▁수용	-5959
▁데미	-5960
▁특이한	-5961
?'	-5962
의로	-5963
▁자신도	-5964
▁마음이	-5965
▁아름다운	-5966
▁보라	-5967
▁남겨	-5968
영화	-5969
pe	-5970
▁주말	-5971
▁감옥	-5972
이었다고	-5973
▁{{	-5974
▁현지	-5975
▁레벨이	-5976
▁보인	-5977
▁대규모	-5978
▁박정	-5979
▁안내	-5980
▁알겠지만	-5981
▁허나	-5982
▁나타난	-5983
▁박근혜	-5984
함에	-5985
ance	-5986
▁소총	-5987
▁쏴	-5988
▁SD	-5989
▁펠	-5990
인인	-5991
▁그로	-5992
▁{{{	-5993
▁바보	-5994
츠의	-5995
▁김민	-5996
▁자신들의	-5997
선에서	-5998
▁없던	-5999
▁다루는	-6000
▁유행	-6001
▁지금도	-6002
▁현상	-6003
배를	-6004
▁않는다는	-6005
▁달고	-6006
당했다	-6007
67	-6008
비트	-6009
▁융합	-6010
▁52	-6011
▁키리	-6012
묘한	-6013
료를	-6014
▁예비	-6015
▁이치	-6016
▁GT	-6017
체에	-6018
되지만	-6019
▁88	-6020
▁건축	-6021
▁이리	-6022
일에는	-6023
▁많은데	-6024
▁했다는	-6025
▁he	-6026
▁드러나	-6027
▁주기	-6028
▁형태의	-6029
▁프로듀서	-6030
이기에	-6031
▁죽인	-6032
▁600	-6033
민주당	-6034
uc	-6035
▁써먹	-6036
▁강하다	-6037
▁아닌가	-6038
ick	-6039
▁250	-6040
ix	-6041
▁프라	-6042
▁반응이	-6043
▁깨닫	-6044
▁절대로	-6045
▁죽음의	-6046
▁쉴	-6047
▁땐	-6048
▁피를	-6049
린의	-6050
▁것인지	-6051
▁내의	-6052
▁쿠키	-6053
▁대원	-6054
국가	-6055
▁구멍	-6056
▁소프트	-6057
ord	-6058
▁점차	-6059
▁부상을	-6060
았다는	-6061
▁기자	-6062
▁섀	-6063
▁게임에서	-6064
▁한참	-6065
▁뭘	-6066
안이	-6067
▁경비	-6068
▁영업	-6069
-8	-6070
▁모른	-6071
▁MF	-6072
.06	-6073
▁관중	-6074
▁갤럭시	-6075
소한	-6076
▁베스트	-6077
함과	-6078
▁소형	-6079
▁방에	-6080
▁쓰레기	-6081
타와	-6082
파의	-6083
▁성공했다	-6084
▁wh	-6085
▁활성	-6086
▁밸런스	-6087
슬러	-6088
버렸	-6089
▁텔레	-6090
▁훌륭한	-6091
▁네덜	-6092
▁없었	-6093
▁퀄리티	-6094
야가	-6095
▁대상이	-6096
▁자랑한다	-6097
관리	-6098
팀이	-6099
▁있어도	-6100
▁4.	-6101
▁공급	-6102
▁감사	-6103
▁있다가	-6104
▁공개된	-6105
▁Be	-6106
▁하얀	-6107
▁Tr	-6108
▁히데	-6109
▁했으며	-6110
메가	-6111
▁실력이	-6112
▁예술	-6113
▁프리큐	-6114
▁세계를	-6115
▁어지간	-6116
▁모양이다	-6117
▁내놓	-6118
주기	-6119
르를	-6120
▁액티브	-6121
▁뜯	-6122
역에	-6123
뿐만	-6124
▁어른	-6125
▁군단	-6126
▁그건	-6127
▁어릴	-6128
▁WW	-6129
▁옷을	-6130
▁싫어하는	-6131
▁버프를	-6132
▁인간이	-6133
독교	-6134
▁59	-6135
ame	-6136
▁첫차	-6137
▁95	-6138
터테인	-6139
판에서	-6140
▁곡명	-6141
▁카와	-6142
▁컵	-6143
▁강남	-6144
동으로	-6145
▁뱅	-6146
▁평이	-6147
▁최다	-6148
▁매직	-6149
▁한다면	-6150
▁아일	-6151
▁이상으로	-6152
▁삼국지	-6153
▁스태	-6154
▁j	-6155
▁죽일	-6156
▁와타	-6157
▁챕터	-6158
▁SC	-6159
▁웨이	-6160
▁전쟁을	-6161
트맨	-6162
▁세워	-6163
▁짓을	-6164
na	-6165
▁SR	-6166
▁부품	-6167
▁들어갈	-6168
슈타	-6169
막을	-6170
연을	-6171
▁닫	-6172
▁유저가	-6173
▁하트	-6174
!!!	-6175
▁창조	-6176
▁나쁘지	-6177
▁관심이	-6178
▁공격하는	-6179
▁같아	-6180
▁업무	-6181
",	-6182
▁골든	-6183
▁선생님	-6184
이트를	-6185
르지	-6186
▁도발	-6187
마스터	-6188
▁박스	-6189
인에	-6190
▁다를	-6191
▁DF	-6192
▁카드의	-6193
형은	-6194
▁디아	-6195
산이	-6196
▁감정	-6197
▁장면을	-6198
느라	-6199
니와	-6200
▁저녁	-6201
▁꽂	-6202
▁과연	-6203
▁나아	-6204
▁다룬	-6205
▁만났	-6206
▁전에는	-6207
▁지금의	-6208
OC	-6209
해준다	-6210
▁카미	-6211
▁오랫동안	-6212
▁죽음을	-6213
▁환영	-6214
투를	-6215
량으로	-6216
▁있었으며	-6217
림을	-6218
▁밝혀졌다	-6219
▁카타	-6220
▁나눠	-6221
▁간의	-6222
있어	-6223
▁그렇다	-6224
코를	-6225
ud	-6226
▁이어지는	-6227
▁검사	-6228
▁포스트	-6229
▁어두	-6230
▁접속	-6231
▁뚜	-6232
▁작용	-6233
US	-6234
▁전멸	-6235
인들은	-6236
다의	-6237
▁어마	-6238
위키	-6239
▁성적을	-6240
▁My	-6241
노의	-6242
톨릭	-6243
▁+2	-6244
코와	-6245
법이	-6246
/10	-6247
▁메타	-6248
▁난다	-6249
▁모여	-6250
되었을	-6251
▁트윈	-6252
▁스티	-6253
▁별다른	-6254
▁싸움을	-6255
▁불린다	-6256
▁지어	-6257
▁정지	-6258
▁분위기가	-6259
▁가능하며	-6260
▁전성	-6261
▁윙	-6262
▁시기에	-6263
▁우리는	-6264
▁분위기를	-6265
▁훗	-6266
기업	-6267
베이	-6268
▁받아들이	-6269
▁레어도	-6270
신으로	-6271
▁리듬	-6272
버트	-6273
회사	-6274
▁동시	-6275
▁기본적인	-6276
당에	-6277
관으로	-6278
▁재사용	-6279
▁with	-6280
으러	-6281
▁갈수록	-6282
▁서비	-6283
▁사용하지	-6284
통을	-6285
▁대항	-6286
▁맞게	-6287
▁경력	-6288
되어서	-6289
▁열쇠	-6290
였기	-6291
가며	-6292
거야	-6293
▁들을	-6294
하에	-6295
챌린	-6296
버스터	-6297
▁등은	-6298
▁전방	-6299
▁장교	-6300
▁떨어진다	-6301
번이	-6302
▁사용하고	-6303
과를	-6304
▁되었다고	-6305
▁슈팅	-6306
원과	-6307
▁이즈	-6308
토는	-6309
▁태어난	-6310
ph	-6311
▁보게	-6312
▁아쉬운	-6313
▁OST	-6314
금이	-6315
▁안티	-6316
▁랭킹	-6317
▁결코	-6318
▁신장	-6319
▁잡혀	-6320
▁이영	-6321
역의	-6322
▁멈추	-6323
▁헨	-6324
▁싶다	-6325
▁작가가	-6326
▁감독의	-6327
▁마침내	-6328
▁시즈	-6329
데이	-6330
세로	-6331
▁뭉	-6332
▁5,	-6333
▁이전의	-6334
▁주전	-6335
▁오스트	-6336
졌지만	-6337
▁아니라고	-6338
▁한타	-6339
▁이제는	-6340
▁모모	-6341
▁미카	-6342
▁이슬람	-6343
▁봐야	-6344
▁메뉴	-6345
▁출장	-6346
▁의존	-6347
▁캠페	-6348
▁주소	-6349
공이	-6350
▁비디오	-6351
▁모조리	-6352
▁사라진	-6353
▁크기	-6354
▁비싸	-6355
▁귀찮	-6356
▁치는	-6357
▁휘두	-6358
▁합성	-6359
상한	-6360
▁사람들도	-6361
실로	-6362
▁처벌	-6363
▁조지	-6364
▁SM	-6365
세에	-6366
▁SKT	-6367
▁캐스팅	-6368
▁올린	-6369
▁극복	-6370
▁조성	-6371
▁강하게	-6372
당할	-6373
▁비트	-6374
▁그라	-6375
47	-6376
▁해병	-6377
▁증가한다	-6378
▁당해	-6379
▁민족	-6380
EM	-6381
▁빚	-6382
▁나가는	-6383
번을	-6384
▁입단	-6385
▁Pl	-6386
▁부수	-6387
▁적혀	-6388
▁일상	-6389
▁니시	-6390
▁김동	-6391
실점	-6392
▁회수	-6393
▁할아버	-6394
▁과거의	-6395
▁기분	-6396
심한	-6397
▁김정	-6398
▁주인공의	-6399
▁새벽	-6400
양이	-6401
▁불가능한	-6402
▁후속작	-6403
▁좌우	-6404
▁높이	-6405
..."	-6406
▁보장	-6407
▁방법은	-6408
에겐	-6409
▁대사가	-6410
▁저장	-6411
▁아니라는	-6412
old	-6413
주자	-6414
▁이글	-6415
▁녹음	-6416
▁베트남	-6417
▁JR	-6418
▁칭찬	-6419
▁넷	-6420
권은	-6421
▁문재	-6422
▁스타크래프트	-6423
▁임시	-6424
▁대표적으로	-6425
▁셈이다	-6426
▁캡틴	-6427
▁경향이	-6428
▁목소리	-6429
▁네오	-6430
▁이정	-6431
▁아티스트	-6432
▁보너	-6433
▁뒤에서	-6434
▁잃고	-6435
▁자동으로	-6436
퍼스	-6437
▁한명	-6438
▁공군	-6439
▁찍어	-6440
▁마리아	-6441
▁위주로	-6442
▁찾는	-6443
츠가	-6444
▁감안하면	-6445
▁가능성도	-6446
▁험	-6447
▁부른	-6448
▁킥	-6449
▁앱	-6450
▁로그	-6451
▁서양	-6452
▁적응	-6453
▁약점	-6454
가시	-6455
▁무덤	-6456
장갑	-6457
▁헛	-6458
▁좋을	-6459
▁죽어	-6460
▁보석	-6461
봐야	-6462
회말	-6463
!'	-6464
재가	-6465
▁말자	-6466
▁1992	-6467
모델	-6468
기까지	-6469
되었다고	-6470
▁데다가	-6471
▁점이다	-6472
인들의	-6473
▁찾아가	-6474
▁유로	-6475
▁우연히	-6476
EX	-6477
세는	-6478
▁어택	-6479
급으로	-6480
▁제임	-6481
▁빛의	-6482
▁향상	-6483
▁정찰	-6484
등의	-6485
▁넣고	-6486
▁1993	-6487
▁지나가	-6488
▁수십	-6489
▁보여주며	-6490
▁HD	-6491
줘서	-6492
▁찔	-6493
▁이론	-6494
▁일으키	-6495
▁믿고	-6496
▁인수	-6497
탄이	-6498
▁아크	-6499
소에서	-6500
▁목소리가	-6501
68	-6502
▁꿈을	-6503
▁환승	-6504
▁가야	-6505
환을	-6506
대사	-6507
▁끈	-6508
▁시청자	-6509
▁챌린	-6510
▁디지털	-6511
▁사람들에게	-6512
own	-6513
▁입을	-6514
▁출판	-6515
▁횡	-6516
졌을	-6517
▁심하게	-6518
물에	-6519
졌다고	-6520
▁한국에서	-6521
▁접촉	-6522
▁좋게	-6523
▁불을	-6524
▁방출	-6525
▁생활을	-6526
▁잡기	-6527
▁직원	-6528
▁만나게	-6529
▁무방	-6530
.15	-6531
해의	-6532
▁들어온	-6533
▁사랑을	-6534
▁컬러	-6535
▁무릎	-6536
▁한정으로	-6537
▁의미로	-6538
▁시절의	-6539
▁별개로	-6540
▁부서	-6541
▁전형적인	-6542
것은	-6543
▁메시	-6544
▁신설	-6545
▁병력	-6546
▁보지	-6547
▁캐릭터는	-6548
년을	-6549
▁내장	-6550
▁터치	-6551
▁유닛을	-6552
▁미디어	-6553
▁관심	-6554
트에서	-6555
것으로	-6556
sh	-6557
▁110	-6558
네임	-6559
▁몰라도	-6560
/1	-6561
▁은하	-6562
▁사이의	-6563
나카	-6564
▁68	-6565
속도가	-6566
▁자식	-6567
▁사건의	-6568
리우	-6569
▁크라	-6570
▁이라는	-6571
▁눌러	-6572
▁마력	-6573
ng	-6574
▁정체를	-6575
▁있는지	-6576
▁물고	-6577
per	-6578
▁Pro	-6579
▁테스트	-6580
▁전진	-6581
▁렉	-6582
▁가상	-6583
▁98	-6584
▁둘째	-6585
▁KO	-6586
면에	-6587
받을	-6588
팀의	-6589
▁수수	-6590
▁0.5	-6591
▁고스트	-6592
▁규칙	-6593
토와	-6594
▁세상을	-6595
▁김종	-6596
▁드는	-6597
▁$	-6598
받았다	-6599
▁유니폼	-6600
▁지역에	-6601
▁뜬금	-6602
▁상급	-6603
네요	-6604
▁씹	-6605
링이	-6606
▁여신	-6607
▁엘프	-6608
▁기여	-6609
▁준우승	-6610
▁아파트	-6611
보드	-6612
▁박사	-6613
▁잉글	-6614
▁개방	-6615
.18	-6616
▁인원	-6617
▁욕을	-6618
▁늑대	-6619
▁노부	-6620
▁채워	-6621
브라	-6622
▁얼굴이	-6623
5,	-6624
▁효과로	-6625
▁냄	-6626
▁전후	-6627
▁곽	-6628
▁스트리	-6629
하기가	-6630
▁스웨	-6631
▁소드	-6632
▁완벽한	-6633
▁사쿠라	-6634
▁약간의	-6635
파가	-6636
▁인터뷰에서	-6637
노스	-6638
▁선수들이	-6639
▁경기는	-6640
▁라운드	-6641
▁어째서	-6642
마에	-6643
▁시그	-6644
▁심리	-6645
▁죽고	-6646
회는	-6647
▁이외에도	-6648
령을	-6649
▁다수의	-6650
▁브루	-6651
▁손으로	-6652
사업	-6653
▁51	-6654
▁내세	-6655
▁코미	-6656
▁바깥	-6657
▁깔끔	-6658
▁에드	-6659
닌다	-6660
▁충청	-6661
커가	-6662
▁수준이다	-6663
▁호텔	-6664
바라	-6665
때는	-6666
분의	-6667
▁올리는	-6668
▁그림자	-6669
▁죽는다	-6670
빌리티	-6671
▁그렇지만	-6672
▁정신을	-6673
▁스미	-6674
▁명중률	-6675
▁적절한	-6676
▁PD	-6677
▁헤이	-6678
▁이외의	-6679
개발	-6680
즈마	-6681
▁자세히	-6682
▁GS	-6683
색의	-6684
.20	-6685
방향	-6686
ace	-6687
▁버린다	-6688
▁승격	-6689
계에서	-6690
▁위하여	-6691
▁있었기	-6692
▁헤비	-6693
▁의지	-6694
▁소수	-6695
▁가라	-6696
▁브리	-6697
▁있었을	-6698
설을	-6699
▁되었는데	-6700
즈와	-6701
▁드라	-6702
▁힘들어	-6703
▁높고	-6704
▁제갈	-6705
트릭	-6706
였을	-6707
크와	-6708
▁잡은	-6709
▁마시	-6710
▁국방	-6711
▁정복	-6712
▁Ex	-6713
▁통제	-6714
▁매치	-6715
▁배우는	-6716
검을	-6717
계열	-6718
▁챙겨	-6719
월부터	-6720
▁모르고	-6721
▁플랫폼	-6722
시키기	-6723
▁이명	-6724
▁합체	-6725
▁티어	-6726
▁숨겨진	-6727
▁신이	-6728
▁물을	-6729
▁세이버	-6730
▁''	-6731
▁이닝	-6732
▁무시하고	-6733
▁특집	-6734
▁기독교	-6735
▁아쿠	-6736
현의	-6737
▁천재	-6738
▁넥센	-6739
▁객	-6740
ice	-6741
▁비주	-6742
▁차원	-6743
▁시달	-6744
▁독특	-6745
망을	-6746
▁노란	-6747
▁취임	-6748
▁카라	-6749
로나	-6750
▁구사	-6751
▁돈이	-6752
▁이루어진	-6753
OD	-6754
▁제어	-6755
유를	-6756
피를	-6757
▁아이콘	-6758
▁요코	-6759
▁눈물을	-6760
▁가격이	-6761
▁나오기	-6762
▁가짜	-6763
▁지형	-6764
▁시너	-6765
▁정착	-6766
▁자리에서	-6767
▁비싼	-6768
▁스마트폰	-6769
▁하락	-6770
ok	-6771
▁이끌고	-6772
▁훗날	-6773
▁네임	-6774
▁다음날	-6775
▁재현	-6776
▁어려워	-6777
▁기병	-6778
▁일방	-6779
▁갔다	-6780
드레	-6781
▁맞으면	-6782
▁이것도	-6783
▁킨	-6784
▁버렸다	-6785
▁일본에서	-6786
▁폭격	-6787
▁등장하지	-6788
▁되었으며	-6789
유닛	-6790
▁캐논	-6791
▁층	-6792
아는	-6793
히지	-6794
▁과거에	-6795
▁모래	-6796
▁자폭	-6797
▁스턴	-6798
▁우수	-6799
▁작가의	-6800
▁Love	-6801
▁일으킨	-6802
받는다	-6803
츠를	-6804
▁튕	-6805
겠습니다	-6806
▁탄창	-6807
▁것일	-6808
▁후술	-6809
계로	-6810
▁학생들이	-6811
▁대개	-6812
쪽의	-6813
▁일찍	-6814
▁이용해서	-6815
▁주포	-6816
▁명령을	-6817
▁닌자	-6818
▁하나도	-6819
먹고	-6820
▁잠재	-6821
▁고등	-6822
▁윌리	-6823
란다	-6824
렸던	-6825
▁발매된	-6826
▁동굴	-6827
▁덤으로	-6828
▁가톨릭	-6829
▁퀘스트를	-6830
▁볼넷	-6831
▁스틸	-6832
▁좋고	-6833
▁날아가	-6834
▁쏠	-6835
▁미안	-6836
시험	-6837
▁당하는	-6838
ov	-6839
한을	-6840
했다면	-6841
46	-6842
▁커리어	-6843
▁EP	-6844
▁빛을	-6845
▁지내	-6846
ll	-6847
IG	-6848
ont	-6849
▁할머니	-6850
▁며	-6851
▁의료	-6852
▁드림	-6853
~5	-6854
▁전철	-6855
▁각본	-6856
구리	-6857
▁간신	-6858
▁김재	-6859
▁나이가	-6860
비에	-6861
▁내리	-6862
▁업그레이	-6863
▁이다	-6864
맨의	-6865
적의	-6866
▁성능은	-6867
해지고	-6868
▁장군	-6869
론은	-6870
약한	-6871
산업	-6872
▁개입	-6873
그라	-6874
버전	-6875
포인트	-6876
▁이펙	-6877
인이다	-6878
욕을	-6879
,8	-6880
하가	-6881
▁수익	-6882
▁그러니까	-6883
▁카메라	-6884
▁의무	-6885
▁중국의	-6886
▁된다고	-6887
다란	-6888
▁플레이어의	-6889
▁장전	-6890
웨어	-6891
▁계약을	-6892
▁들려	-6893
▁라이온	-6894
버릴	-6895
-6	-6896
▁경우에	-6897
▁찢	-6898
ave	-6899
▁플로	-6900
졌는데	-6901
▁갈라	-6902
▁핸드	-6903
▁말하며	-6904
▁집에서	-6905
orld	-6906
▁내보	-6907
▁수류	-6908
비로	-6909
▁포스	-6910
▁터뜨	-6911
관에	-6912
▁자는	-6913
▁언급한	-6914
▁등과	-6915
▁공격할	-6916
▁공작	-6917
도르	-6918
증이	-6919
▁트랜	-6920
ies	-6921
▁타락	-6922
▁간부	-6923
▁메르	-6924
레인저	-6925
랑이	-6926
식에	-6927
▁게임에	-6928
주며	-6929
wik	-6930
LE	-6931
▁화를	-6932
▁IS	-6933
▁빠져나	-6934
▁머리가	-6935
▁적당히	-6936
▁상술	-6937
로와	-6938
▁함선	-6939
들만	-6940
기록	-6941
터미널	-6942
실의	-6943
▁67	-6944
키와	-6945
▁일명	-6946
겠어	-6947
비디오	-6948
▁)	-6949
▁블레이	-6950
▁카오스	-6951
▁코코	-6952
▁고작	-6953
크라	-6954
▁덧붙	-6955
▁1988	-6956
용을	-6957
▁패션	-6958
▁충격을	-6959
▁농구	-6960
워치	-6961
▁초반에는	-6962
마와	-6963
아리	-6964
▁CV	-6965
티나	-6966
어마	-6967
▁인하여	-6968
▁구체	-6969
▁고교	-6970
▁찾기	-6971
▁환상	-6972
▁둘은	-6973
▁사냥꾼	-6974
곡을	-6975
그리	-6976
▁이번에는	-6977
▁도구	-6978
▁디지몬	-6979
치면	-6980
▁컸	-6981
▁왕의	-6982
▁말하자면	-6983
조는	-6984
▁그들을	-6985
▁돋	-6986
▁도끼	-6987
▁침공	-6988
▁코치	-6989
▁켈	-6990
▁확인할	-6991
사거리	-6992
니를	-6993
▁켜	-6994
▁깡	-6995
으로만	-6996
▁단점이	-6997
▁저런	-6998
▁아버지의	-6999
▁규정	-7000
▁사용하여	-7001
화한	-7002
MP	-7003
▁런던	-7004
▁추억	-7005
▁첨	-7006
레어	-7007
▁이상을	-7008
▁너의	-7009
▁스승	-7010
▁여담이지만	-7011
▁SNS	-7012
][	-7013
▁신경쓰	-7014
나서	-7015
령이	-7016
▁걸고	-7017
장전	-7018
렬한	-7019
종을	-7020
시타	-7021
여객	-7022
병원	-7023
▁보안	-7024
▁1991	-7025
▁아이스	-7026
▁단단	-7027
하라는	-7028
II	-7029
기나	-7030
▁이식	-7031
▁외의	-7032
▁전부터	-7033
▁개막	-7034
석은	-7035
▁밝혀진	-7036
▁발언을	-7037
▁싸워	-7038
▁니코	-7039
▁sh	-7040
▁식의	-7041
▁클래식	-7042
▁않도록	-7043
▁혈액	-7044
▁치유	-7045
▁2:	-7046
▁연락	-7047
▁썰	-7048
▁어빌리티	-7049
▁결과적으로	-7050
▁가문의	-7051
음악	-7052
▁공격력을	-7053
다나	-7054
▁야스	-7055
▁이미지가	-7056
▁CPU	-7057
커의	-7058
영의	-7059
▁몰락	-7060
▁올라온	-7061
▁사카	-7062
우와	-7063
▁역을	-7064
▁오지	-7065
사령	-7066
▁드리	-7067
▁빨라	-7068
97	-7069
▁않았을	-7070
▁트라이	-7071
▁육성	-7072
▁중독	-7073
▁맞서	-7074
자도	-7075
▁스톤	-7076
▁전체를	-7077
▁연관	-7078
▁어떠한	-7079
▁위치에	-7080
▁상상	-7081
▁죽이고	-7082
▁곳은	-7083
▁안나	-7084
▁반발	-7085
재로	-7086
▁느린	-7087
화와	-7088
▁웅	-7089
▁내지	-7090
▁방사	-7091
지구	-7092
▁마술	-7093
▁만날	-7094
+11	-7095
900	-7096
ber	-7097
▁병력을	-7098
▁Un	-7099
▁오직	-7100
▁군대	-7101
▁아마도	-7102
▁76	-7103
▁없다면	-7104
여자	-7105
▁물론이고	-7106
▁800	-7107
사이드	-7108
▁SH	-7109
▁지원을	-7110
▁나오며	-7111
▁들어갔	-7112
쿠라	-7113
▁공성	-7114
▁걸쳐	-7115
▁율	-7116
▁전의	-7117
▁임무를	-7118
▁콜라보	-7119
▁코멘	-7120
나라의	-7121
이든	-7122
▁남긴	-7123
ION	-7124
▁떨어뜨	-7125
배가	-7126
주민	-7127
▁앉아	-7128
▁색깔	-7129
▁결과를	-7130
로워	-7131
커를	-7132
▁자체의	-7133
비와	-7134
▁숙련	-7135
▁말하고	-7136
▁흡혈	-7137
페이	-7138
▁프라이	-7139
▁있었다는	-7140
▁생명력	-7141
▁130	-7142
▁아이언	-7143
/5	-7144
▁마다	-7145
▁카드는	-7146
▁거리를	-7147
▁총알	-7148
▁78	-7149
▁만들기	-7150
▁세종	-7151
드에서	-7152
로서는	-7153
▁오전	-7154
졌으며	-7155
있게	-7156
돌이	-7157
▁찍은	-7158
▁남녀	-7159
공학	-7160
▁어마어마	-7161
▁언젠	-7162
▁클랜	-7163
▁태어나	-7164
구려	-7165
▁그러자	-7166
건을	-7167
러를	-7168
▁97	-7169
▁패턴이	-7170
▁첼	-7171
io	-7172
양함	-7173
▁루시	-7174
▁꿀	-7175
▁출신의	-7176
방에서	-7177
▁5%	-7178
▁횟수	-7179
▁램	-7180
소로	-7181
▁위장	-7182
▁느낄	-7183
▁미스터	-7184
▁영구	-7185
▁알리	-7186
▁비례	-7187
▁생년	-7188
▁범위가	-7189
▁일람	-7190
지지만	-7191
▁검찰	-7192
▁역사상	-7193
▁타자	-7194
벌레	-7195
▁멘탈	-7196
▁오카	-7197
중앙	-7198
▁벌어진	-7199
▁나중	-7200
집을	-7201
▁그러다가	-7202
▁크리스탈	-7203
▁상자	-7204
▁바꾼	-7205
▁가볍게	-7206
▁당연한	-7207
▁의문	-7208
pt	-7209
▁아이를	-7210
▁그들이	-7211
▁플레이오프	-7212
▁주었다	-7213
▁진짜로	-7214
▁낫다	-7215
▁히카	-7216
▁카트	-7217
96	-7218
▁보관	-7219
▁널리	-7220
▁your	-7221
▁패스	-7222
끄러	-7223
▁나오면	-7224
▁오사카	-7225
9,	-7226
▁가만	-7227
언이	-7228
▁검을	-7229
사고	-7230
▁똥	-7231
▁이겨	-7232
▁그들은	-7233
▁보유하고	-7234
한이	-7235
▁가끔씩	-7236
질로	-7237
▁도주	-7238
▁합니다	-7239
▁소식을	-7240
러의	-7241
▁회의	-7242
▁망가	-7243
anch	-7244
▁이나	-7245
▁왕자	-7246
워크	-7247
▁요정	-7248
▁프리큐어	-7249
▁틀어	-7250
▁강요	-7251
하더라도	-7252
▁호주	-7253
▁토끼	-7254
▁구원	-7255
석에	-7256
▁해주는	-7257
▁청소년	-7258
▁레이더	-7259
타자	-7260
▁de	-7261
▁판정이	-7262
▁회차	-7263
▁처럼	-7264
▁전라	-7265
▁금속	-7266
▁생략	-7267
▁멤버들이	-7268
▁호위	-7269
▁방법으로	-7270
▁해상	-7271
교를	-7272
▁은행	-7273
▁챔피언스	-7274
▁총기	-7275
▁주제에	-7276
▁아케이드	-7277
▁눈물	-7278
▁리가	-7279
▁애플	-7280
▁거기서	-7281
ream	-7282
▁인물이	-7283
▁관람	-7284
▁부각	-7285
▁나면	-7286
▁전공	-7287
포가	-7288
▁다음에	-7289
▁팬들	-7290
▁CF	-7291
▁효율이	-7292
▁72	-7293
-15	-7294
▁편입	-7295
부르크	-7296
▁톰	-7297
▁간신히	-7298
▁코우	-7299
▁+10	-7300
▁잡지	-7301
▁점수를	-7302
▁후계	-7303
이면서	-7304
▁들면	-7305
▁저렴	-7306
▁신분	-7307
리지만	-7308
▁군주	-7309
▁알바	-7310
▁활발	-7311
▁게이트	-7312
으로서의	-7313
▁위력	-7314
까진	-7315
▁포항	-7316
▁농담	-7317
명한	-7318
호와	-7319
미나	-7320
▁민첩	-7321
▁기믹	-7322
▁무척	-7323
▁유효	-7324
▁25%	-7325
▁해피	-7326
▁타겟	-7327
▁유저들은	-7328
▁결성	-7329
년만에	-7330
▁스튜디오	-7331
안에	-7332
der	-7333
▁배차	-7334
후반	-7335
리스의	-7336
사무	-7337
▁한쪽	-7338
▁의상	-7339
▁무지	-7340
▁매니저	-7341
▁LV	-7342
▁최신	-7343
▁이전에는	-7344
향을	-7345
겠다며	-7346
미터	-7347
▁기용	-7348
는게	-7349
류의	-7350
aw	-7351
▁딴	-7352
쿼터	-7353
▁취급을	-7354
▁이란	-7355
▁버린	-7356
▁받으며	-7357
투스	-7358
파로	-7359
▁메리	-7360
▁수도권	-7361
하겠다고	-7362
전과	-7363
▁53	-7364
▁서부	-7365
▁사막	-7366
▁문명	-7367
▁실망	-7368
▁유닛이	-7369
▁가스	-7370
▁편이라	-7371
▁데몬	-7372
▁성공한다	-7373
블린	-7374
iss	-7375
▁스프링	-7376
▁열어	-7377
이동	-7378
▁감독은	-7379
▁무기는	-7380
▁한글판	-7381
▁마법소녀	-7382
천시	-7383
▁삐	-7384
▁이라	-7385
▁일이다	-7386
▁160	-7387
▁거다	-7388
▁행위	-7389
▁공개되었다	-7390
▁사마	-7391
▁이은	-7392
▁직전에	-7393
중이다	-7394
해가	-7395
희가	-7396
국에	-7397
▁자리잡	-7398
▁포르투	-7399
▁길드	-7400
직한	-7401
타카	-7402
자치	-7403
▁느낀	-7404
오와	-7405
▁성남	-7406
▁생년월	-7407
▁헐	-7408
보이	-7409
루는	-7410
▁손가락	-7411
하고자	-7412
세스	-7413
▁집을	-7414
▁거듭	-7415
▁데드	-7416
▁삼진	-7417
▁이민	-7418
석의	-7419
러니	-7420
필드	-7421
▁무기가	-7422
▁김현	-7423
▁떠오	-7424
▁초중	-7425
사우	-7426
▁금방	-7427
▁어린이	-7428
부장	-7429
▁평타	-7430
ET	-7431
공화	-7432
공원	-7433
▁것이며	-7434
들보다	-7435
▁보여줬다	-7436
된다는	-7437
자면	-7438
공사	-7439
▁경고	-7440
▁주사	-7441
주었다	-7442
ian	-7443
▁아즈	-7444
▁유통	-7445
▁쉐	-7446
▁휴대	-7447
▁수업	-7448
하자마자	-7449
▁마키	-7450
탄의	-7451
▁한번에	-7452
▁하나씩	-7453
▁연방	-7454
리는데	-7455
▁사용이	-7456
▁위원	-7457
▁BPM	-7458
디를	-7459
▁모를	-7460
.00	-7461
▁15%	-7462
▁잔뜩	-7463
▁홈런을	-7464
▁또다시	-7465
▁지뢰	-7466
았으며	-7467
▁저질	-7468
▁기숙	-7469
▁스플	-7470
▁곤란	-7471
▁용도로	-7472
▁죽이는	-7473
되었다는	-7474
▁대미지가	-7475
군으로	-7476
▁부딪	-7477
ile	-7478
man	-7479
▁비공	-7480
▁왈	-7481
내가	-7482
▁나타난다	-7483
▁자극	-7484
사이트	-7485
▁닭	-7486
▁격추	-7487
▁거짓말	-7488
▁개시	-7489
국어	-7490
▁방송에서	-7491
▁늘어난	-7492
▁남아있	-7493
▁PV	-7494
IP	-7495
▁공격한다	-7496
▁혹시	-7497
맨이	-7498
ost	-7499
▁로스	-7500
▁움직이는	-7501
▁가을	-7502
▁국립	-7503
▁정치적	-7504
망이	-7505
▁We	-7506
▁유사한	-7507
▁뮤직비디오	-7508
적은	-7509
생을	-7510
▁재밌	-7511
▁하차	-7512
▁완벽하게	-7513
▁언더	-7514
▁정도였다	-7515
▁트럼	-7516
인도	-7517
박을	-7518
▁바이오	-7519
버그	-7520
▁생각해보면	-7521
▁지팡	-7522
▁코믹	-7523
▁140	-7524
▁가시	-7525
▁휩	-7526
▁당하고	-7527
수사	-7528
▁이끄는	-7529
ww	-7530
▁유치	-7531
▁미쿠	-7532
▁라인업	-7533
안의	-7534
단과	-7535
단체	-7536
▁법률	-7537
▁마코	-7538
▁몰랐	-7539
▁알아서	-7540
▁이집	-7541
▁소지	-7542
나이트	-7543
▁난입	-7544
▁무렵	-7545
전설	-7546
▁아들이	-7547
이었으며	-7548
함으로써	-7549
▁이용하는	-7550
보로	-7551
루타	-7552
▁드레	-7553
▁시스템을	-7554
으니까	-7555
법은	-7556
▁먹어	-7557
▁알렉산	-7558
지기도	-7559
▁리얼	-7560
렇게	-7561
유럽	-7562
▁96	-7563
▁형식	-7564
우기	-7565
.17	-7566
:10	-7567
▁장악	-7568
포로	-7569
▁크리스마스	-7570
움이	-7571
▁멜로	-7572
ther	-7573
▁적어	-7574
▁슛	-7575
경에	-7576
▁구하기	-7577
▁사전	-7578
내지	-7579
졌던	-7580
듯한	-7581
해서는	-7582
▁스팀	-7583
▁공허	-7584
▁아일랜드	-7585
해질	-7586
▁단편	-7587
타운	-7588
▁1:1	-7589
년생	-7590
▁메달	-7591
션을	-7592
▁피해가	-7593
▁토론	-7594
▁무서운	-7595
아와	-7596
▁칼날	-7597
커스	-7598
▁군인	-7599
패로	-7600
▁플레이어를	-7601
▁that	-7602
▁나도	-7603
ory	-7604
▁청년	-7605
터테인먼트	-7606
▁유나이	-7607
▁마그	-7608
▁중립	-7609
게이	-7610
능력을	-7611
▁악역	-7612
▁미치	-7613
▁무관	-7614
요시	-7615
▁귀환	-7616
고속도로	-7617
▁쉽지	-7618
스트가	-7619
▁탈퇴	-7620
▁전시	-7621
▁Com	-7622
▁기울	-7623
바의	-7624
▁CJ	-7625
▁지휘관	-7626
▁잘못된	-7627
▁인증	-7628
▁1989	-7629
▁잉글랜드	-7630
백을	-7631
▁물려	-7632
졌다는	-7633
▁기뻐	-7634
rom	-7635
▁투구	-7636
▁mm	-7637
▁결과는	-7638
어와	-7639
▁시노	-7640
▁기관총	-7641
▁유저들의	-7642
우며	-7643
▁윌리엄	-7644
▁멋진	-7645
회차	-7646
번은	-7647
▁쭉	-7648
▁게임은	-7649
▁추종	-7650
차례	-7651
성능	-7652
▁들어가면	-7653
www	-7654
▁페이즈	-7655
Hz	-7656
▁스킬은	-7657
▁화려한	-7658
▁출마	-7659
▁살펴	-7660
▁들여	-7661
▁예로	-7662
▁연료	-7663
▁유대	-7664
이었기	-7665
anchor	-7666
;&	-7667
로만	-7668
:20	-7669
바닥	-7670
▁행운	-7671
▁추구	-7672
▁당시에	-7673
▁명을	-7674
▁둘의	-7675
일본	-7676
들과의	-7677
▁페널티	-7678
▁질문	-7679
▁수준이	-7680
▁블레이드	-7681
▁적합	-7682
▁유희왕	-7683
▁2.0	-7684
▁레알	-7685
▁주간	-7686
▁처형	-7687
▁회장	-7688
▁뿔	-7689
▁천사	-7690
▁유독	-7691
인데다	-7692
▁먹은	-7693
플렉	-7694
▁조별	-7695
▁빼고	-7696
▁나츠	-7697
▁넣는	-7698
IVE	-7699
▁실드	-7700
▁반사	-7701
44	-7702
▁???	-7703
▁문재인	-7704
▁명확	-7705
▁부상으로	-7706
스트의	-7707
▁전반적으로	-7708
▁엿	-7709
▁저작	-7710
]]	-7711
▁노리	-7712
▁친구가	-7713
▁휘말	-7714
▁설정을	-7715
경의	-7716
▁아니라면	-7717
▁찾을	-7718
▁심판	-7719
▁블러드	-7720
거를	-7721
▁교황	-7722
▁출연한	-7723
▁비상	-7724
▁정황	-7725
▁상업	-7726
가미	-7727
▁냄새	-7728
▁새끼	-7729
▁멕시코	-7730
▁어딘	-7731
▁미술	-7732
▁매력	-7733
▁묘사가	-7734
저씨	-7735
프와	-7736
▁갖춘	-7737
▁타쿠	-7738
야만	-7739
▁늦게	-7740
▁그랜드	-7741
훈련	-7742
▁식민	-7743
▁곳곳	-7744
▁WWE	-7745
▁되기도	-7746
지인	-7747
디의	-7748
▁이른	-7749
▁1~2	-7750
▁전설의	-7751
▁내고	-7752
▁미라	-7753
▁넣은	-7754
▁죽지	-7755
▁참석	-7756
VD	-7757
▁히나	-7758
▁커다란	-7759
통이	-7760
몬드	-7761
▁It	-7762
니는	-7763
▁주인공은	-7764
▁공화국	-7765
▁조건을	-7766
▁문서를	-7767
▁공룡	-7768
▁김대	-7769
▁동일하다	-7770
바나	-7771
▁현역	-7772
통신	-7773
▁귀여운	-7774
▁생년월일	-7775
▁거울	-7776
▁구글	-7777
▁그러다	-7778
저럭	-7779
▁&#	-7780
▁키워	-7781
▁답이	-7782
▁세상	-7783
학자	-7784
▁스페이스	-7785
▁발달	-7786
▁곳을	-7787
▁통산	-7788
▁브레이크	-7789
▁지역을	-7790
▁고위	-7791
▁감정을	-7792
▁경기에	-7793
▁작품이	-7794
▁채팅	-7795
▁1970	-7796
▁초록	-7797
▁업데이트로	-7798
.16	-7799
▁후반에	-7800
▁아틀	-7801
▁그럭	-7802
▁주변의	-7803
SP	-7804
▁현재까지	-7805
▁존재를	-7806
▁ED	-7807
시하는	-7808
▁사용되는	-7809
▁요약	-7810
와도	-7811
▁드롭	-7812
▁블라	-7813
나고	-7814
되게	-7815
▁끔찍	-7816
▁카카	-7817
▁선전	-7818
▁5.	-7819
체육	-7820
▁에너지를	-7821
왔던	-7822
▁숨어	-7823
▁언급이	-7824
▁걸맞	-7825
▁확실한	-7826
▁집으로	-7827
▁챔피언십	-7828
IM	-7829
▁터키	-7830
ky	-7831
▁이어서	-7832
▁사랑하는	-7833
▁서번	-7834
.5%	-7835
▁메모리	-7836
▁공식적으로	-7837
▁심지어는	-7838
네의	-7839
▁속도를	-7840
▁왠지	-7841
생의	-7842
▁시간에	-7843
드래	-7844
▁개량	-7845
▁시절에	-7846
OU	-7847
▁이미지를	-7848
▁부를	-7849
▁동부	-7850
▁시청률	-7851
▁대우	-7852
명에	-7853
▁당일	-7854
▁이젠	-7855
▁톱	-7856
▁곡이	-7857
렸다고	-7858
▁오마	-7859
▁AD	-7860
▁전체적인	-7861
▁출입	-7862
▁그럭저럭	-7863
▁생긴다	-7864
▁글로벌	-7865
▁상관없이	-7866
각이	-7867
▁준수한	-7868
▁시작으로	-7869
▁장비를	-7870
VA	-7871
▁초기에는	-7872
▁결말	-7873
님을	-7874
▁후배	-7875
▁과정을	-7876
가서	-7877
▁재판	-7878
▁어뢰	-7879
▁점도	-7880
다를	-7881
▁신화	-7882
▁뛰어넘	-7883
▁사우	-7884
리케	-7885
300	-7886
▁최소한	-7887
▁사라진다	-7888
소속	-7889
▁차가	-7890
▁티켓	-7891
▁보여줬	-7892
무장	-7893
▁존재가	-7894
▁기운	-7895
▁원칙	-7896
▁나아가	-7897
/20	-7898
▁비판을	-7899
▁않는다고	-7900
제국	-7901
▁간접	-7902
생이	-7903
▁일제	-7904
▁양쪽	-7905
▁보다는	-7906
들인	-7907
▁왕이	-7908
▁2~3	-7909
▁우리나라	-7910
▁어필	-7911
▁원딜	-7912
;&#	-7913
▁장면은	-7914
▁영상이	-7915
▁빌드	-7916
▁낮다	-7917
교의	-7918
▁특성을	-7919
ale	-7920
▁부러	-7921
▁성립	-7922
▁마비	-7923
거리를	-7924
인데도	-7925
▁펑	-7926
▁정수	-7927
▁플레이어는	-7928
orm	-7929
▁자연스럽게	-7930
▁급격	-7931
▁건지	-7932
▁작품을	-7933
ys	-7934
▁뜻을	-7935
시에는	-7936
▁답변	-7937
▁면에서	-7938
▁권장	-7939
물은	-7940
▁목을	-7941
▁토벌	-7942
▁조연	-7943
▁체인	-7944
났고	-7945
버를	-7946
-16	-7947
▁해골	-7948
는가	-7949
UM	-7950
▁차를	-7951
▁한국에서는	-7952
하를	-7953
▁공격으로	-7954
▁관할	-7955
▁본다	-7956
▁사후	-7957
▁피할	-7958
▁뻗	-7959
94	-7960
▁상호	-7961
▁배트맨	-7962
▁AM	-7963
▁당신의	-7964
하진	-7965
▁가벼	-7966
브가	-7967
▁불펜	-7968
▁초등학교	-7969
▁물건을	-7970
던지	-7971
두는	-7972
코어	-7973
▁사람에게	-7974
▁집착	-7975
▁책을	-7976
▁음성	-7977
▁브로	-7978
국제	-7979
▁연금	-7980
▁그것은	-7981
조로	-7982
▁원인	-7983
▁세븐	-7984
▁옳	-7985
▁부분에	-7986
▁흩	-7987
TE	-7988
▁가르쳐	-7989
차량	-7990
▁트롤	-7991
▁화가	-7992
▁아니며	-7993
▁따온	-7994
도에서	-7995
▁체크	-7996
▁제가	-7997
▁지역에서	-7998
▁소위	-7999
해보면	-8000
▁대단한	-8001
▁아트	-8002
▁스웨덴	-8003
▁민주당	-8004
▁피아노	-8005
▁신앙	-8006
▁못했고	-8007
▁동작	-8008
▁얻고	-8009
az	-8010
▁오랜만에	-8011
▁데다	-8012
경우	-8013
▁되었을	-8014
▁승객	-8015
▁상영	-8016
기기	-8017
닉스	-8018
인한	-8019
▁톤	-8020
▁지식	-8021
sp	-8022
arg	-8023
캐릭터	-8024
▁단축	-8025
▁돌입	-8026
▁연속으로	-8027
블로	-8028
▁처음에	-8029
되던	-8030
▁라이프	-8031
▁연극	-8032
▁당했다	-8033
▁장탄	-8034
▁대인	-8035
▁호칭	-8036
발로	-8037
정과	-8038
▁죽기	-8039
다리	-8040
▁의견을	-8041
▁사살	-8042
▁기록하며	-8043
▁커녕	-8044
▁펫	-8045
위해	-8046
▁대표팀	-8047
▁공격은	-8048
▁사망한	-8049
▁노르	-8050
▁건드	-8051
▁파리	-8052
▁중의	-8053
▁제임스	-8054
▁이상이	-8055
터는	-8056
▁끝날	-8057
산의	-8058
▁부스터	-8059
▁앞두고	-8060
▁위대한	-8061
▁애매한	-8062
급이	-8063
▁목표로	-8064
▁1987	-8065
지나	-8066
▁번개	-8067
구와	-8068
보병	-8069
▁62	-8070
▁오류	-8071
▁완결	-8072
▁계기로	-8073
누리	-8074
든다	-8075
▁전해	-8076
▁우수한	-8077
▁비교하면	-8078
▁세대	-8079
▁생기는	-8080
양을	-8081
▁분명히	-8082
▁영국의	-8083
▁즉사	-8084
편에	-8085
▁것인데	-8086
▁팬텀	-8087
▁엑스트라	-8088
▁전투에	-8089
▁사유	-8090
▁아나운	-8091
wiki	-8092
▁자막	-8093
▁시즌을	-8094
박스	-8095
▁보완	-8096
▁Gr	-8097
▁무시무	-8098
▁때에	-8099
▁이유를	-8100
▁타마	-8101
▁성공한	-8102
▁유카	-8103
▁체중	-8104
▁두들	-8105
▁적중	-8106
▁확실하게	-8107
▁고수	-8108
▁윗	-8109
▁너프	-8110
▁위치해	-8111
▁사용하기	-8112
감한	-8113
▁다음으로	-8114
▁로얄	-8115
▁아파	-8116
▁바퀴	-8117
ows	-8118
▁사라졌다	-8119
GE	-8120
▁칼을	-8121
▁스텔	-8122
되어있다	-8123
▁체계	-8124
▁노려	-8125
클럽	-8126
▁타는	-8127
▁미군	-8128
▁내야	-8129
▁세계에서	-8130
▁뜻하는	-8131
▁상대에게	-8132
▁가려	-8133
후의	-8134
ish	-8135
▁에그	-8136
▁맛이	-8137
▁시드	-8138
▁시작하는	-8139
리에게	-8140
약이	-8141
▁LC	-8142
족이	-8143
▁리뷰	-8144
▁하나만	-8145
모의	-8146
브의	-8147
데미	-8148
▁6,	-8149
▁경우엔	-8150
선과	-8151
▁전문가	-8152
:40	-8153
▁마라	-8154
▁마법의	-8155
일보	-8156
▁곡이다	-8157
▁등장하며	-8158
▁뿜	-8159
▁시체	-8160
▁태평	-8161
리라	-8162
▁면이	-8163
▁승강장	-8164
배우	-8165
▁실수로	-8166
▁의견도	-8167
ade	-8168
▁BL	-8169
▁필리	-8170
▁많지만	-8171
▁클라	-8172
웠던	-8173
했기에	-8174
▁인물로	-8175
▁괜히	-8176
▁나무위키	-8177
▁숭	-8178
▁상대는	-8179
▁얻게	-8180
율은	-8181
yle	-8182
▁신비	-8183
▁적다	-8184
복이	-8185
▁KBO	-8186
발의	-8187
66	-8188
▁매년	-8189
▁머물	-8190
▁네덜란드	-8191
린을	-8192
▁3000	-8193
그러	-8194
▁느낌을	-8195
ug	-8196
▁시스템이	-8197
▁상처를	-8198
▁시내버스	-8199
▁AS	-8200
▁듣는	-8201
▁두려워	-8202
정도로	-8203
크스	-8204
▁발라	-8205
▁고문	-8206
▁꼼	-8207
▁평을	-8208
▁기사가	-8209
▁밝히	-8210
▁용사	-8211
회초	-8212
▁전투가	-8213
월드	-8214
▁머리에	-8215
서에	-8216
▁현장	-8217
습을	-8218
▁와일드	-8219
▁팀원	-8220
▁호감	-8221
▁팽	-8222
▁심심	-8223
▁더군	-8224
▁캐리	-8225
것이다	-8226
▁그렇고	-8227
▁버그가	-8228
아야	-8229
tle	-8230
진과	-8231
▁전작의	-8232
▁RPG	-8233
▁의미를	-8234
ps	-8235
▁후에도	-8236
우지	-8237
▁101	-8238
▁싶다면	-8239
시즈	-8240
소총	-8241
▁이벤트가	-8242
사관	-8243
▁일일	-8244
▁입장에서	-8245
▁근본	-8246
▁묻자	-8247
▁전쟁이	-8248
▁뜻이다	-8249
위권	-8250
▁도둑	-8251
▁진보	-8252
▁시라	-8253
▁FIFA	-8254
▁누르면	-8255
더러	-8256
ook	-8257
▁비주얼	-8258
▁페이스북	-8259
▁버스터	-8260
▁교전	-8261
▁샌드	-8262
▁승점	-8263
▁아츠	-8264
▁Team	-8265
▁사이버	-8266
사회	-8267
▁익스	-8268
▁예정이다	-8269
act	-8270
▁매달	-8271
르며	-8272
▁한국인	-8273
irl	-8274
레가	-8275
나가는	-8276
ower	-8277
▁일행이	-8278
▁이수	-8279
▁캘	-8280
대상	-8281
▁나선	-8282
▁언데	-8283
▁발렌	-8284
▁Or	-8285
코드	-8286
▁기록한	-8287
받지	-8288
▁프레임	-8289
ike	-8290
▁드럼	-8291
▁언덕	-8292
▁자전	-8293
▁취미	-8294
▁앨리스	-8295
▁엘리트	-8296
시다	-8297
▁OP	-8298
▁포트	-8299
▁신문	-8300
디움	-8301
영웅	-8302
▁Fl	-8303
▁트레이드	-8304
편이	-8305
▁오라	-8306
▁라이플	-8307
급을	-8308
▁스즈	-8309
ink	-8310
▁이자	-8311
▁by	-8312
▁제작한	-8313
▁본명	-8314
▁유이	-8315
7,	-8316
▁쪽은	-8317
에서부터	-8318
ash	-8319
강에	-8320
▁저택	-8321
▁나은	-8322
▁40%	-8323
▁빼면	-8324
바가	-8325
▁인물이다	-8326
▁요소가	-8327
고에	-8328
▁거지	-8329
▁지속시간	-8330
▁최종보스	-8331
달라는	-8332
▁턱	-8333
▁심장	-8334
림이	-8335
▁실점	-8336
▁이벤트를	-8337
▁사이드	-8338
▁사자	-8339
▁인간을	-8340
나기	-8341
▁클레	-8342
▁싹	-8343
▁활성화	-8344
▁선두	-8345
▁깨달	-8346
▁부가	-8347
▁바닥에	-8348
▁상기	-8349
▁시절에는	-8350
▁하이퍼	-8351
▁당신이	-8352
atch	-8353
▁더군다나	-8354
▁회원	-8355
더의	-8356
▁채택	-8357
▁모습도	-8358
▁히어로즈	-8359
▁진심으로	-8360
▁이라고	-8361
▁위력을	-8362
▁대지	-8363
있는데	-8364
▁높게	-8365
pl	-8366
▁간간	-8367
▁기가	-8368
▁좁은	-8369
저스	-8370
▁기지	-8371
▁햄	-8372
▁전주	-8373
▁들었다	-8374
가면	-8375
▁몬스터가	-8376
무가	-8377
▁토너	-8378
▁에반	-8379
판으로	-8380
실은	-8381
손으로	-8382
▁삽입	-8383
▁뱀파이어	-8384
▁올라오	-8385
라엘	-8386
소는	-8387
십시오	-8388
인치	-8389
▁게스트	-8390
▁나간	-8391
▁자격	-8392
ial	-8393
▁조조	-8394
▁근거리	-8395
역사	-8396
▁된다면	-8397
▁어이	-8398
▁남부	-8399
▁이슈	-8400
머가	-8401
▁중첩	-8402
▁가지게	-8403
▁철저	-8404
▁침묵	-8405
▁스킬로	-8406
▁많지	-8407
▁카를	-8408
▁사라져	-8409
▁문자	-8410
▁다리를	-8411
▁임팩	-8412
▁굿	-8413
▁떠난	-8414
인듯	-8415
▁.3	-8416
▁악몽	-8417
▁오래된	-8418
▁카더라	-8419
역은	-8420
▁올렸다	-8421
▁플레이가	-8422
ms	-8423
▁FW	-8424
▁가치가	-8425
▁지불	-8426
TS	-8427
▁편이지만	-8428
▁아끼	-8429
서로	-8430
92	-8431
▁ch	-8432
슬링	-8433
▁학력	-8434
▁사건으로	-8435
합이	-8436
▁플래그	-8437
▁개정	-8438
는지는	-8439
▁가동	-8440
▁서포터	-8441
▁유력	-8442
▁맷	-8443
상황	-8444
▁1:	-8445
▁퍼포	-8446
▁녹색	-8447
▁무사히	-8448
행이	-8449
▁이끌어	-8450
▁다스	-8451
▁시절부터	-8452
▁웬만한	-8453
▁디젤	-8454
▁이종	-8455
▁의미한다	-8456
ae	-8457
▁사야	-8458
▁상점	-8459
?!	-8460
▁올스타	-8461
어버리는	-8462
▁넣을	-8463
▁폐쇄	-8464
▁피가	-8465
▁발생한다	-8466
▁말라고	-8467
▁침략	-8468
▁일격	-8469
▁코난	-8470
▁아기	-8471
▁아테	-8472
▁펄	-8473
▁노리고	-8474
▁정도이다	-8475
리거나	-8476
▁가격은	-8477
이랑	-8478
▁영어판	-8479
속에	-8480
▁소재로	-8481
▁아메리카	-8482
▁독특한	-8483
▁Dr	-8484
▁카츠	-8485
▁발생한	-8486
비드	-8487
▁실종	-8488
▁장면에서	-8489
▁무력화	-8490
▁영광	-8491
▁와중	-8492
▁얻기	-8493
주일	-8494
▁럭	-8495
▁증언	-8496
▁뒤집어	-8497
▁반해	-8498
▁트럭	-8499
▁펌	-8500
▁있음을	-8501
▁결과가	-8502
제와	-8503
▁얘기를	-8504
▁키가	-8505
▁스토리가	-8506
학원	-8507
▁노리는	-8508
▁Sc	-8509
루수	-8510
.14	-8511
▁일으켜	-8512
▁오늘날	-8513
▁교사	-8514
▁61	-8515
▁음원	-8516
차는	-8517
▁무라	-8518
▁방지	-8519
▁발을	-8520
▁정예	-8521
단에서	-8522
▁매번	-8523
ft	-8524
▁세르	-8525
▁걸리는	-8526
인들을	-8527
▁갑작	-8528
▁포켓몬스터	-8529
▁교장	-8530
▁시원	-8531
치면서	-8532
▁공공	-8533
▁팬들에게	-8534
▁어머니가	-8535
▁설정상	-8536
더가	-8537
곡으로	-8538
▁속도로	-8539
▁전체가	-8540
▁아래에	-8541
▁팀에	-8542
▁동의	-8543
▁부분에서	-8544
타수	-8545
▁빌려	-8546
▁전까지는	-8547
▁슬라이	-8548
▁넘어서	-8549
▁건조	-8550
▁1.2	-8551
▁있듯이	-8552
▁닮은	-8553
▁비하	-8554
설이	-8555
▁불이	-8556
너가	-8557
당은	-8558
▁이혼	-8559
로써	-8560
▁대거	-8561
▁기종	-8562
▁불렀	-8563
종합	-8564
▁날카	-8565
▁안녕	-8566
▁바뀐다	-8567
▁들어올	-8568
▁록맨	-8569
▁몽골	-8570
▁콘서트	-8571
▁올릴	-8572
▁사령관	-8573
▁속으로	-8574
저의	-8575
하길	-8576
▁인스타	-8577
키퍼	-8578
▁만남	-8579
▁그러한	-8580
연속	-8581
▁간단히	-8582
▁술을	-8583
▁뮤지컬	-8584
▁1986	-8585
▁너희	-8586
▁루카	-8587
▁칩	-8588
▁위기	-8589
▁호흡	-8590
티스	-8591
▁압도적으로	-8592
▁미네	-8593
▁밝힌	-8594
▁트리플	-8595
사기	-8596
고한	-8597
▁가만히	-8598
▁코토	-8599
▁용서	-8600
▁기록이	-8601
ING	-8602
▁진실을	-8603
▁파생	-8604
▁어두운	-8605
▁문학	-8606
번으로	-8607
▁재장전	-8608
▁취향	-8609
▁식물	-8610
▁밑에	-8611
▁원인이	-8612
▁아래의	-8613
나간	-8614
고도	-8615
라면서	-8616
▁업로드	-8617
걸로	-8618
▁1500	-8619
ble	-8620
▁소속팀	-8621
▁영원히	-8622
:50	-8623
-19	-8624
문은	-8625
▁불렀다	-8626
▁수능	-8627
▁2.5	-8628
▁74	-8629
▁비웃	-8630
▁스토리를	-8631
▁상대방	-8632
란의	-8633
속이	-8634
살을	-8635
▁베네	-8636
▁이루어져	-8637
▁한두	-8638
▁마블	-8639
라이브	-8640
▁사례가	-8641
▁끊어	-8642
▁포르투갈	-8643
ex	-8644
스레	-8645
▁구경	-8646
기어	-8647
▁어드벤	-8648
▁유의	-8649
하마	-8650
▁고기	-8651
▁타격을	-8652
▁남북	-8653
▁아이러니	-8654
▁퀴	-8655
째로	-8656
시스트	-8657
서야	-8658
▁부드	-8659
▁형사	-8660
▁차기	-8661
루와	-8662
77	-8663
▁출격	-8664
▁CG	-8665
▁억지로	-8666
▁엔젤	-8667
▁했었다	-8668
55	-8669
▁le	-8670
▁생각할	-8671
▁으로	-8672
▁사용된다	-8673
데다가	-8674
▁초창기	-8675
▁써야	-8676
▁탐험	-8677
▁메이플	-8678
▁자랑하는	-8679
▁최근에는	-8680
▁거미	-8681
인들	-8682
▁지시	-8683
▁몬스터의	-8684
▁침입	-8685
▁수술	-8686
▁보정	-8687
▁대대	-8688
▁타츠	-8689
▁구슬	-8690
▁치명적인	-8691
▁주차	-8692
▁잠입	-8693
▁프리미엄	-8694
▁전신	-8695
팅을	-8696
▁유발	-8697
▁해준다	-8698
진에	-8699
슨이	-8700
▁세이브	-8701
▁장점이	-8702
스테이지	-8703
▁마약	-8704
▁수를	-8705
▁숫자	-8706
▁시리즈에	-8707
되거나	-8708
▁정식으로	-8709
아키	-8710
▁받아들여	-8711
일과	-8712
▁아르헨	-8713
▁은신	-8714
▁전체의	-8715
▁인피	-8716
▁위반	-8717
▁탱크	-8718
▁혁명	-8719
이거나	-8720
▁외전	-8721
▁유격	-8722
▁영화를	-8723
▁카구	-8724
▁경험이	-8725
▁명칭은	-8726
▁오디션	-8727
법에	-8728
▁스킬의	-8729
~6	-8730
▁길어	-8731
▁미즈	-8732
▁이주	-8733
▁63	-8734
▁버튼을	-8735
득점	-8736
히트	-8737
건이	-8738
▁오타	-8739
▁ID	-8740
▁그랑	-8741
▁쟈	-8742
▁가치	-8743
▁인디	-8744
▁전장	-8745
▁https	-8746
▁카드로	-8747
신교	-8748
관광	-8749
▁발생하는	-8750
▁보내는	-8751
▁새롭게	-8752
▁적군	-8753
▁후반부	-8754
▁한마디로	-8755
섰다	-8756
▁구할	-8757
▁포격	-8758
▁김경	-8759
▁제외하고는	-8760
▁단행	-8761
▁슈퍼로봇	-8762
▁일원	-8763
▁적지	-8764
▁동기	-8765
▁방어력이	-8766
▁골을	-8767
▁버리는	-8768
▁일로	-8769
▁오버워치	-8770
조사	-8771
▁우리의	-8772
▁키스	-8773
▁퍼포먼	-8774
▁귀엽	-8775
▁승률	-8776
▁해킹	-8777
▁마드리	-8778
▁개업	-8779
이었다는	-8780
▁에픽	-8781
왕을	-8782
▁출시된	-8783
▁쌍둥이	-8784
▁위기를	-8785
▁정확하게	-8786
-17	-8787
▁예언	-8788
▁유리한	-8789
▁쏜	-8790
▁좋아한다	-8791
▁귀신	-8792
▁시계	-8793
▁태도를	-8794
▁시간은	-8795
보이는	-8796
▁최하	-8797
▁같다고	-8798
결을	-8799
월에는	-8800
▁언급된	-8801
▁네트	-8802
▁능력으로	-8803
▁빅토	-8804
▁주인공을	-8805
▁중요하다	-8806
마츠	-8807
▁기아	-8808
▁자치	-8809
▁없으므로	-8810
집이	-8811
▁듯이	-8812
▁공지	-8813
동은	-8814
해주고	-8815
▁중형	-8816
▁공기	-8817
▁캐스터	-8818
범위	-8819
포의	-8820
ous	-8821
▁동영상	-8822
레인지	-8823
▁둘을	-8824
▁기회가	-8825
▁처참	-8826
▁이하의	-8827
▁아랍	-8828
▁특히나	-8829
▁양의	-8830
▁과목	-8831
숙한	-8832
▁동양	-8833
▁천안	-8834
▁위력이	-8835
▁파는	-8836
▁화성	-8837
▁주둔	-8838
바야	-8839
▁궁금	-8840
▁동화	-8841
▁동성	-8842
▁War	-8843
▁3:	-8844
▁안좋	-8845
▁쓸데	-8846
▁레이드	-8847
▁사거리가	-8848
는데도	-8849
▁나오기도	-8850
곡이	-8851
▁유나이티드	-8852
▁막내	-8853
타이어	-8854
했듯이	-8855
▁있겠지만	-8856
▁폴란드	-8857
▁하향	-8858
▁투어	-8859
▁느려	-8860
▁구성되어	-8861
데레	-8862
▁나타나는	-8863
▁캔슬	-8864
▁음악을	-8865
▁고구려	-8866
마크	-8867
AY	-8868
름이	-8869
▁않았다고	-8870
▁초반부터	-8871
▁없으나	-8872
▁대치	-8873
▁나왔던	-8874
▁적들을	-8875
전기	-8876
idth	-8877
▁요구하는	-8878
야는	-8879
봤자	-8880
▁캠페인	-8881
▁브레	-8882
저가	-8883
▁일치	-8884
▁전북	-8885
AP	-8886
군요	-8887
▁목소리를	-8888
순위	-8889
엔딩	-8890
▁꿰	-8891
▁왜냐	-8892
▁인게임	-8893
▁첩	-8894
▁좋다고	-8895
▁튼	-8896
▁느끼고	-8897
MS	-8898
타점	-8899
▁기술로	-8900
▁작곡가	-8901
테르	-8902
▁700	-8903
체인	-8904
음에	-8905
▁별도의	-8906
▁폭력	-8907
now	-8908
▁반박	-8909
▁그러던	-8910
▁대다수	-8911
더를	-8912
▁신입	-8913
노트	-8914
산시	-8915
정상	-8916
▁측에서	-8917
▁정차	-8918
▁제도	-8919
▁84	-8920
▁금메달	-8921
▁일행을	-8922
▁좋아서	-8923
▁SE	-8924
주에	-8925
▁수치가	-8926
▁음식을	-8927
▁너는	-8928
▁관련이	-8929
번과	-8930
▁혼돈	-8931
▁곳이다	-8932
▁데에	-8933
▁팔을	-8934
▁수백	-8935
▁손오	-8936
▁fe	-8937
▁지키는	-8938
▁사태가	-8939
싸움	-8940
디는	-8941
준이	-8942
▁주장하는	-8943
▁프렌	-8944
▁교회	-8945
▁쏘는	-8946
▁보면서	-8947
▁입장을	-8948
▁대하여	-8949
족을	-8950
추어	-8951
환의	-8952
▁사용자	-8953
▁현상이	-8954
▁발매일	-8955
~19	-8956
경기에서	-8957
▁딜을	-8958
▁창원	-8959
하고는	-8960
▁커피	-8961
▁세부	-8962
가리	-8963
▁또다른	-8964
▁Wind	-8965
▁선제	-8966
▁아저씨	-8967
축구	-8968
▁히토	-8969
▁아미	-8970
스런	-8971
▁기회	-8972
▁처음엔	-8973
▁쟁	-8974
카라	-8975
▁이동속도	-8976
amp	-8977
온의	-8978
▁부문	-8979
▁무의	-8980
-18	-8981
장비	-8982
▁끝난다	-8983
▁구축함	-8984
▁일어나는	-8985
▁ㅣ	-8986
▁87	-8987
냈고	-8988
3.	-8989
방으로	-8990
▁코리아	-8991
▁실수	-8992
▁7,	-8993
▁더이상	-8994
▁배포	-8995
▁하나이다	-8996
▁상의	-8997
▁깜짝	-8998
▁And	-8999
▁그레	-9000
혀서	-9001
▁보이는데	-9002
열을	-9003
▁훼	-9004
▁하츠	-9005
과정	-9006
▁콜로	-9007
포트	-9008
▁감지	-9009
▁지나지	-9010
▁돌아가는	-9011
가스	-9012
국은	-9013
능력이	-9014
배로	-9015
셔널	-9016
▁김상	-9017
▁친한	-9018
▁사귀	-9019
▁아군의	-9020
침을	-9021
▁사제	-9022
▁정통	-9023
▁XX	-9024
STER	-9025
▁씌	-9026
민은	-9027
▁테라	-9028
버가	-9029
기능	-9030
▁난이도는	-9031
먹은	-9032
▁요원	-9033
공간	-9034
▁가챠	-9035
▁임대	-9036
▁수출	-9037
▁삶을	-9038
▁여학생	-9039
면에서	-9040
▁토르	-9041
▁주인공인	-9042
▁역시나	-9043
니시	-9044
▁법정	-9045
▁연타	-9046
▁마린	-9047
▁이긴	-9048
▁니콜	-9049
▁루이	-9050
▁가디언	-9051
▁용인	-9052
매를	-9053
ree	-9054
▁블래	-9055
▁조금만	-9056
▁출연했다	-9057
▁투척	-9058
▁대상을	-9059
품이	-9060
▁}}	-9061
▁출력	-9062
▁치면	-9063
▁배를	-9064
oll	-9065
▁당할	-9066
▁파멸	-9067
▁여지가	-9068
▁돌아와	-9069
▁막는	-9070
희의	-9071
▁후보로	-9072
▁모니	-9073
병의	-9074
▁들어오는	-9075
▁스파이더	-9076
공격을	-9077
스러워	-9078
▁5000	-9079
네스	-9080
▁나오면서	-9081
▁자신들이	-9082
있으며	-9083
▁도저히	-9084
▁무승	-9085
▁대통령이	-9086
▁대단히	-9087
▁여기는	-9088
▁확대	-9089
▁제한이	-9090
▁개설	-9091
▁패널	-9092
층에	-9093
▁차이는	-9094
▁혐오	-9095
▁방치	-9096
▁터져	-9097
▁이득을	-9098
▁Su	-9099
▁김진	-9100
키지	-9101
일리	-9102
▁집행	-9103
▁Star	-9104
▁재활	-9105
▁기동전사	-9106
▁영향으로	-9107
명과	-9108
▁69	-9109
▁보충	-9110
▁전역	-9111
늦게	-9112
켰다	-9113
▁남기고	-9114
▁사고를	-9115
야를	-9116
▁곡의	-9117
▁상태를	-9118
▁얻는다	-9119
▁벌레	-9120
▁도적	-9121
코스트	-9122
▁가지는	-9123
세한	-9124
▁강의	-9125
▁Man	-9126
렐라	-9127
DS	-9128
1.	-9129
▁너를	-9130
▁보호막	-9131
▁질문에	-9132
▁모티브는	-9133
면이	-9134
▁그날	-9135
▁라그	-9136
있었다	-9137
▁토마	-9138
▁기존에	-9139
▁많기	-9140
▁달라고	-9141
▁Go	-9142
▁종목	-9143
▁그래서인지	-9144
▁금액	-9145
▁중복	-9146
▁서서히	-9147
▁받아서	-9148
▁별의	-9149
▁기점으로	-9150
절한	-9151
▁가해	-9152
▁고마	-9153
▁독일의	-9154
▁부모님	-9155
▁아지	-9156
▁운영하는	-9157
▁오키	-9158
▁증가합니다	-9159
▁잘라	-9160
▁조롱	-9161
▁170	-9162
▁부르며	-9163
▁올랐다	-9164
▁커스	-9165
▁병원	-9166
▁후퇴	-9167
▁오스트리아	-9168
▁놓은	-9169
▁기원전	-9170
▁합의	-9171
▁선행	-9172
▁종류의	-9173
▁대부분은	-9174
▁소속사	-9175
▁선수를	-9176
▁1985	-9177
감에	-9178
연한	-9179
▁시로	-9180
부터가	-9181
▁얻어맞	-9182
▁딜레이	-9183
▁포위	-9184
▁사도	-9185
전한	-9186
▁.2	-9187
▁헝	-9188
▁도서관	-9189
▁특수한	-9190
중간	-9191
▁프레이	-9192
▁나고	-9193
럽게	-9194
▁신호	-9195
▁Br	-9196
▁등장하는데	-9197
▁스트라이크	-9198
씨는	-9199
▁놔	-9200
열이	-9201
ond	-9202
릭스	-9203
본다	-9204
▁읽어	-9205
▁그러면	-9206
▁둠	-9207
▁닌텐	-9208
▁사이코	-9209
▁시에	-9210
▁유닛의	-9211
▁세운	-9212
CG	-9213
▁나머지는	-9214
유가	-9215
아아	-9216
갔고	-9217
▁읽는	-9218
있을	-9219
▁86	-9220
▁면역	-9221
▁한국에	-9222
▁넘게	-9223
▁간단한	-9224
▁나갈	-9225
▁본작	-9226
▁up	-9227
ah	-9228
▁사정거리	-9229
▁경남	-9230
령의	-9231
ai	-9232
▁머리카	-9233
▁바꿀	-9234
▁자꾸	-9235
▁정부의	-9236
▁문제점	-9237
자동차	-9238
▁수월	-9239
에요	-9240
▁과거에는	-9241
리도	-9242
.19	-9243
▁향한	-9244
▁최우	-9245
▁조건이	-9246
▁성우가	-9247
▁세뇌	-9248
▁클릭	-9249
▁끊임	-9250
주와	-9251
▁받기	-9252
▁원작의	-9253
구에서	-9254
▁거는	-9255
▁김기	-9256
영을	-9257
▁부착	-9258
▁과도	-9259
▁1,2	-9260
▁밀리	-9261
▁화력이	-9262
하였는데	-9263
데미지	-9264
▁we	-9265
▁강등	-9266
동과	-9267
ase	-9268
먹을	-9269
▁가죽	-9270
▁맞을	-9271
▁곡은	-9272
▁마냥	-9273
시키면	-9274
▁땅에	-9275
▁일에	-9276
▁드래프트	-9277
▁야생	-9278
소나	-9279
함으로	-9280
▁빛나는	-9281
▁말투	-9282
확률	-9283
영은	-9284
▁대성	-9285
▁줬	-9286
▁미드필	-9287
▁화학	-9288
▁정체는	-9289
GB	-9290
▁직접적으로	-9291
▁유인	-9292
▁별명이	-9293
▁함대	-9294
▁조용히	-9295
▁파르	-9296
ool	-9297
▁패턴을	-9298
▁전투기	-9299
▁날리는	-9300
마치	-9301
▁크기가	-9302
▁땅을	-9303
▁형식으로	-9304
호환	-9305
▁충성	-9306
▁불사	-9307
▁이상은	-9308
▁약탈	-9309
▁무인	-9310
▁줄여	-9311
▁올라가는	-9312
▁소요	-9313
▁배경으로	-9314
▁막상	-9315
▁영역	-9316
▁어디서	-9317
▁다녀	-9318
▁어벤	-9319
온이	-9320
경제	-9321
▁LA	-9322
▁이스라엘	-9323
▁배달	-9324
▁스펠	-9325
▁중국어	-9326
▁끄	-9327
▁새누리	-9328
슨의	-9329
▁기재	-9330
▁사신	-9331
▁풀려	-9332
▁노선이	-9333
▁악의	-9334
▁다녔	-9335
400	-9336
▁마스크	-9337
▁발동할	-9338
▁반짝	-9339
▁유전	-9340
▁정발	-9341
▁나지	-9342
폭탄	-9343
▁온다	-9344
▁몰라	-9345
▁들어가서	-9346
현은	-9347
▁전무	-9348
▁텍스트	-9349
▁악당	-9350
▁옹호	-9351
▁Gam	-9352
▁소식이	-9353
링크	-9354
▁출루	-9355
▁아시안	-9356
42	-9357
▁방식을	-9358
터널	-9359
▁피해자	-9360
▁힌	-9361
▁일어났	-9362
▁벙	-9363
▁포함되어	-9364
▁재정	-9365
▁그외	-9366
▁시리즈를	-9367
▁굵	-9368
▁+3	-9369
▁조우	-9370
▁못하면	-9371
▁지칭	-9372
▁1984	-9373
▁얻었다	-9374
▁돌연	-9375
▁가능성은	-9376
▁무산	-9377
너의	-9378
하세요	-9379
▁배정	-9380
▁포기하고	-9381
▁불만을	-9382
▁지키기	-9383
▁105	-9384
▁대리	-9385
▁해리	-9386
▁경기장	-9387
▁당신은	-9388
길을	-9389
▁솜	-9390
▁신데	-9391
▁모노	-9392
UP	-9393
구간	-9394
▁제독	-9395
▁수면	-9396
▁연기를	-9397
▁신도	-9398
▁사용했다	-9399
▁두드	-9400
▁긴급	-9401
▁쓰여	-9402
이라이트	-9403
▁골키퍼	-9404
▁저지른	-9405
▁각자	-9406
▁벼	-9407
▁부인	-9408
되므로	-9409
▁몫	-9410
거든	-9411
▁뜬금없이	-9412
노는	-9413
▁기기	-9414
▁GP	-9415
▁생애	-9416
▁공용	-9417
▁Fe	-9418
렸는데	-9419
▁시작된	-9420
▁안양	-9421
훈이	-9422
▁사용시	-9423
차별	-9424
▁속의	-9425
▁에르	-9426
년대에	-9427
▁가기	-9428
예술	-9429
▁아버지를	-9430
워즈	-9431
▁건물을	-9432
▁장거리	-9433
▁되었지만	-9434
▁남아있는	-9435
림의	-9436
▁못해서	-9437
▁자이언츠	-9438
▁휠	-9439
▁이용할	-9440
▁나폴	-9441
스도	-9442
▁남자가	-9443
디에	-9444
▁능력치가	-9445
조에	-9446
▁양성	-9447
▁유재	-9448
킨다	-9449
▁배차간	-9450
▁운이	-9451
국에서	-9452
▁속한다	-9453
way	-9454
▁번에	-9455
▁갖추고	-9456
▁호평을	-9457
▁돌아다니	-9458
AK	-9459
▁도루	-9460
▁시상	-9461
▁제정	-9462
▁골렘	-9463
▁회상	-9464
문학	-9465
▁작업을	-9466
▁한방에	-9467
동물	-9468
▁결정적인	-9469
▁토큰	-9470
ary	-9471
베이터	-9472
▁제출	-9473
▁확장팩	-9474
▁철거	-9475
8,	-9476
교회	-9477
병으로	-9478
▁시크	-9479
고지	-9480
▁작화	-9481
▁여론	-9482
렸지만	-9483
▁에릭	-9484
▁대선	-9485
▁화력을	-9486
▁AKB	-9487
▁스크린	-9488
▁통틀	-9489
합을	-9490
▁국왕	-9491
▁쯤	-9492
▁명백	-9493
▁되살	-9494
▁키타	-9495
▁로빈	-9496
▁학생회	-9497
▁내성	-9498
▁테일	-9499
회복	-9500
▁축하	-9501
▁편에	-9502
▁서구	-9503
▁축제	-9504
중에서	-9505
▁신라	-9506
▁후손	-9507
▁아이가	-9508
리스가	-9509
▁ne	-9510
▁조리	-9511
카이도	-9512
▁미래를	-9513
▁자체도	-9514
▁집어넣	-9515
▁허락	-9516
▁걸린다	-9517
▁증폭	-9518
▁만들어서	-9519
▁사형	-9520
▁제자	-9521
▁코인	-9522
▁보통은	-9523
▁되므로	-9524
▁며칠	-9525
▁아이템이	-9526
▁않았다는	-9527
▁털어	-9528
파크	-9529
▁아카데미	-9530
▁따지면	-9531
▁때문이라고	-9532
택을	-9533
ason	-9534
싱턴	-9535
미에	-9536
▁오로지	-9537
aby	-9538
브로	-9539
▁해안	-9540
▁특별히	-9541
mer	-9542
▁이토	-9543
▁프란	-9544
▁진압	-9545
▁전화를	-9546
▁두들겨	-9547
▁82	-9548
▁BS	-9549
▁an	-9550
▁교과	-9551
실점으로	-9552
센트	-9553
DD	-9554
-14	-9555
▁호불	-9556
지니	-9557
▁불의	-9558
▁인연	-9559
▁솔직	-9560
▁쓰러트	-9561
피가	-9562
▁싶다고	-9563
▁담긴	-9564
용의	-9565
건의	-9566
▁금융	-9567
경은	-9568
NA	-9569
▁모티브로	-9570
▁CH	-9571
계획	-9572
우면	-9573
▁쪼	-9574
대원	-9575
▁상태였다	-9576
▁전승	-9577
▁짱	-9578
▁내게	-9579
▁아서	-9580
봐도	-9581
▁세계에	-9582
▁북부	-9583
타니	-9584
▁것보다	-9585
▁오크	-9586
▁경우에도	-9587
함은	-9588
▁뒤늦게	-9589
▁죽게	-9590
▁코스튬	-9591
잡이	-9592
판과	-9593
저런	-9594
례를	-9595
었는지	-9596
나요	-9597
카운	-9598
▁선수는	-9599
반이	-9600
KR	-9601
로이드	-9602
▁버전이	-9603
▁예전에	-9604
▁부임	-9605
▁쉬워	-9606
변이	-9607
러는	-9608
ment	-9609
대기	-9610
▁Sup	-9611
▁소속의	-9612
oon	-9613
마냥	-9614
▁매체	-9615
▁성격을	-9616
포르	-9617
▁화물	-9618
▁아닌데	-9619
라에게	-9620
▁실존	-9621
▁청와	-9622
편을	-9623
까요	-9624
익을	-9625
건지	-9626
▁청소	-9627
▁연습생	-9628
▁커맨드	-9629
▁영토	-9630
▁피에	-9631
▁아래로	-9632
▁개별	-9633
▁Part	-9634
▁트레일러	-9635
션이	-9636
▁지경	-9637
▁선택할	-9638
▁리버풀	-9639
기게	-9640
▁IN	-9641
비전	-9642
▁트라우	-9643
후에	-9644
▁DVD	-9645
▁툴	-9646
▁PP	-9647
▁마케	-9648
▁인지도	-9649
▁All	-9650
▁끝으로	-9651
▁바위	-9652
▁학교에	-9653
▁사건에	-9654
▁스나이	-9655
▁포수	-9656
아니	-9657
▁오브젝	-9658
▁사실이다	-9659
▁당사	-9660
▁이걸로	-9661
▁스트리트	-9662
왔고	-9663
▁DE	-9664
▁장치	-9665
▁엎	-9666
라딘	-9667
▁복구	-9668
▁세상에	-9669
하지도	-9670
▁시간의	-9671
▁포스터	-9672
사단	-9673
▁안타를	-9674
▁En	-9675
▁볼트	-9676
▁투명	-9677
에이	-9678
▁뷰	-9679
▁나왔는데	-9680
들처럼	-9681
▁갈등	-9682
/6	-9683
▁벽을	-9684
▁PR	-9685
지거나	-9686
▁리치	-9687
▁평생	-9688
▁취약	-9689
▁히든	-9690
▁완전한	-9691
▁자유롭게	-9692
린은	-9693
▁나노	-9694
▁자라	-9695
렸다는	-9696
▁중후반	-9697
~10	-9698
오로	-9699
리기도	-9700
▁좋지만	-9701
78	-9702
신과	-9703
상과	-9704
라고도	-9705
▁스포일러	-9706
가드	-9707
▁우월	-9708
▁UN	-9709
▁원더	-9710
포스	-9711
▁막고	-9712
▁특징이다	-9713
정치	-9714
▁늘려	-9715
▁마루	-9716
▁변화가	-9717
▁시리즈에서	-9718
▁데미지는	-9719
▁번도	-9720
ox	-9721
▁자녀	-9722
▁차트	-9723
▁콘텐츠	-9724
▁호환	-9725
▁NE	-9726
피해	-9727
자라는	-9728
란이	-9729
▁메이드	-9730
▁너무나도	-9731
▁국가의	-9732
??	-9733
▁부정적인	-9734
▁BR	-9735
▁2016-0	-9736
▁지나면	-9737
▁주의해야	-9738
사도	-9739
ach	-9740
▁UE	-9741
▁실은	-9742
▁어쩌면	-9743
매치	-9744
▁미국에서	-9745
▁박지	-9746
조직	-9747
▁\	-9748
▁루나	-9749
달아	-9750
▁되어버렸다	-9751
▁싱크로	-9752
▁거친	-9753
된다고	-9754
▁정화	-9755
▁영화의	-9756
▁Fate	-9757
.30	-9758
반의	-9759
거라	-9760
고리	-9761
▁3.5	-9762
▁코르	-9763
▁수류탄	-9764
▁무시무시한	-9765
백이	-9766
▁사이즈	-9767
▁준비를	-9768
▁여기서는	-9769
세서	-9770
리한	-9771
▁힙	-9772
▁터미널	-9773
▁주역	-9774
▁퇴장	-9775
▁자유한국	-9776
달러	-9777
110	-9778
▁무섭	-9779
ple	-9780
우주	-9781
▁손님	-9782
▁쓸만한	-9783
▁나라의	-9784
▁정부가	-9785
강에서	-9786
▁구간이	-9787
▁존경	-9788
▁1960	-9789
▁함부로	-9790
▁성을	-9791
▁UP	-9792
▁유망	-9793
▁낸다	-9794
▁초보	-9795
▁여기저	-9796
▁말로는	-9797
▁정비	-9798
▁지은	-9799
▁오염	-9800
▁훈련을	-9801
▁먹으면	-9802
▁차이를	-9803
즈니	-9804
▁지워	-9805
▁엄밀	-9806
▁가리지	-9807
▁모습에	-9808
목록	-9809
연장	-9810
▁크림	-9811
▁잇는	-9812
▁방식이	-9813
▁재회	-9814
티즌	-9815
▁할수	-9816
▁입장에선	-9817
▁뚫고	-9818
▁바가	-9819
머스	-9820
▁산탄	-9821
▁토너먼트	-9822
래시	-9823
▁공장	-9824
▁경악	-9825
▁나치	-9826
▁고블린	-9827
▁도박	-9828
▁왕국의	-9829
형태	-9830
이라고도	-9831
테일	-9832
▁만일	-9833
▁지녔	-9834
▁람	-9835
▁결승전	-9836
▁어렸을	-9837
마일	-9838
▁군대를	-9839
▁듣는다	-9840
▁마신	-9841
키아	-9842
▁맡게	-9843
▁부적	-9844
▁식당	-9845
▁연령	-9846
▁추정되는	-9847
하곤	-9848
▁뜯어	-9849
▁반지	-9850
나로	-9851
국으로	-9852
▁복수를	-9853
▁창단	-9854
▁책임을	-9855
▁길게	-9856
▁생길	-9857
▁치열	-9858
▁유지하고	-9859
te	-9860
▁한나라	-9861
▁슬라	-9862
▁되었다는	-9863
하겠다는	-9864
▁체험	-9865
▁레지	-9866
▁종이	-9867
▁상태이상	-9868
티를	-9869
▁누군가	-9870
▁소중한	-9871
▁항복	-9872
▁개혁	-9873
▁소방	-9874
▁파크	-9875
▁Pr	-9876
▁아버지는	-9877
있지	-9878
▁각각의	-9879
▁야쿠	-9880
▁외야	-9881
▁아니기	-9882
히코	-9883
전문	-9884
▁작전을	-9885
▁One	-9886
종은	-9887
▁기상	-9888
▁정보가	-9889
도리	-9890
▁중순	-9891
시키며	-9892
▁대회에서	-9893
▁더해	-9894
▁On	-9895
▁츠바	-9896
ank	-9897
▁아인	-9898
▁사라지고	-9899
나미	-9900
▁바에	-9901
▁다닌다	-9902
▁이야기는	-9903
▁카자	-9904
▁동영	-9905
▁LP	-9906
▁퍼즐	-9907
▁당한다	-9908
▁구미	-9909
▁서클	-9910
▁지는	-9911
▁TVA	-9912
▁토요	-9913
▁입주	-9914
▁주식	-9915
▁즉위	-9916
▁+5	-9917
▁73	-9918
▁여럿	-9919
▁모로	-9920
씨의	-9921
지능	-9922
▁관찰	-9923
▁따뜻	-9924
▁나이에	-9925
범죄	-9926
▁폭탄을	-9927
▁하려고	-9928
▁71	-9929
▁리스	-9930
▁후기	-9931
▁넘어가는	-9932
▁For	-9933
CE	-9934
소설	-9935
▁방탄	-9936
▁초콜	-9937
▁수록된	-9938
▁공사	-9939
▁임신	-9940
▁시대의	-9941
ARD	-9942
▁그림을	-9943
▁사용하며	-9944
▁되어있다	-9945
▁맡아	-9946
▁기사를	-9947
▁않다는	-9948
▁대조	-9949
▁세인트	-9950
▁94	-9951
-9	-9952
lect	-9953
▁10.	-9954
권에서는	-9955
▁일방적으로	-9956
▁국민의	-9957
▁피터	-9958
.24	-9959
▁고객	-9960
▁들어갔다	-9961
▁폭파	-9962
관에서	-9963
▁되도록	-9964
▁백성	-9965
일자	-9966
리아가	-9967
▁가까워	-9968
▁하이라이트	-9969
▁서머	-9970
▁125	-9971
▁끌어올	-9972
▁2019-0	-9973
란히	-9974
▁호소	-9975
버튼	-9976
내면서	-9977
르와	-9978
▁도움으로	-9979
.0%	-9980
ife	-9981
▁더불어민주당	-9982
▁결론	-9983
▁쪽에	-9984
배치	-9985
국민	-9986
관련	-9987
로에	-9988
▁넘버	-9989
▁교도	-9990
▁같은데	-9991
▁만나는	-9992
▁한방	-9993
▁이유도	-9994
크리	-9995
▁결합	-9996
▁유래는	-9997
▁삼아	-9998
▁버전은	-9999
▁짜증	-10000
▁발굴	-10001
자들에게	-10002
▁개체	-10003
번이나	-10004
▁치킨	-10005
▁실책	-10006
▁맞는다	-10007
▁랜드	-10008
▁워크래프트	-10009
▁옆에서	-10010
서울	-10011
▁늙	-10012
▁재개	-10013
사한	-10014
▁모토	-10015
▁81	-10016
▁토오	-10017
작으로	-10018
▁79	-10019
투수	-10020
▁트루	-10021
가게	-10022
▁동인	-10023
▁곱	-10024
▁비율	-10025
우라	-10026
▁만만	-10027
노를	-10028
▁배려	-10029
▁변환	-10030
▁전원이	-10031
▁죽었다	-10032
▁눈치채	-10033
▁체인지	-10034
▁있겠다	-10035
해준	-10036
▁머신	-10037
▁위치가	-10038
히게	-10039
계약	-10040
▁정상적인	-10041
바를	-10042
▁장신	-10043
▁주의할	-10044
▁구성된	-10045
▁막강	-10046
88	-10047
▁싶으면	-10048
/12	-10049
▁복잡한	-10050
▁넘치는	-10051
▁네티즌	-10052
▁투사	-10053
▁간호	-10054
▁시작했고	-10055
란을	-10056
▁New	-10057
▁어리	-10058
▁표정을	-10059
▁제작진	-10060
병기	-10061
창을	-10062
▁줘	-10063
▁브라운	-10064
▁안정적인	-10065
시켜서	-10066
드래곤	-10067
▁전세계	-10068
▁범용	-10069
이었을	-10070
▁역사를	-10071
▁튕겨	-10072
▁얼티	-10073
▁강원도	-10074
▁메모	-10075
▁서바이	-10076
▁출신지	-10077
▁기분이	-10078
▁등장할	-10079
군에서	-10080
▁진학	-10081
▁CS	-10082
▁온천	-10083
질의	-10084
▁상대할	-10085
살이	-10086
▁대신에	-10087
았기	-10088
개씩	-10089
표가	-10090
▁제트	-10091
▁드라이브	-10092
▁안으로	-10093
▁발매되었다	-10094
▁상반	-10095
▁저는	-10096
▁6.	-10097
▁지역은	-10098
▁용이	-10099
▁계통	-10100
▁0.3	-10101
▁올랐	-10102
되었기	-10103
▁정류장	-10104
▁열리는	-10105
▁상황은	-10106
▁만화가	-10107
등한	-10108
▁언젠가	-10109
▁인종	-10110
▁벗어	-10111
▁참여한	-10112
ens	-10113
▁이누	-10114
▁이웃	-10115
석에서	-10116
씨를	-10117
▁89	-10118
▁공방	-10119
▁돼지	-10120
▁거라	-10121
we	-10122
▁세력이	-10123
▁DC	-10124
▁시카	-10125
▁서로의	-10126
▁World	-10127
진으로	-10128
▁무소속	-10129
▁결투	-10130
▁92	-10131
▁새겨	-10132
▁극히	-10133
프라	-10134
▁작품은	-10135
▁뒤에는	-10136
▁오락	-10137
▁보유한	-10138
▁줍	-10139
룡의	-10140
▁스카우	-10141
▁남겼다	-10142
▁곡으로	-10143
▁무기의	-10144
저항	-10145
▁났	-10146
▁질투	-10147
스피	-10148
▁날이	-10149
히면	-10150
▁둘다	-10151
▁빛이	-10152
▁빠르고	-10153
▁이모	-10154
▁김준	-10155
▁보존	-10156
▁끝났	-10157
오스	-10158
▁인터뷰를	-10159
추는	-10160
▁Mk	-10161
▁진행하는	-10162
▁남을	-10163
▁적용된다	-10164
▁엘리자	-10165
▁허무	-10166
우스의	-10167
▁학과	-10168
ype	-10169
소리를	-10170
▁화제가	-10171
테랑	-10172
▁주제	-10173
▁사용된	-10174
▁그러니	-10175
▁상실	-10176
▁디스크	-10177
▁아군이	-10178
▁배드	-10179
아시아	-10180
▁간간히	-10181
▁소문이	-10182
▁간주	-10183
▁차지했다	-10184
▁재등장	-10185
▁방어구	-10186
▁GB	-10187
▁생각한	-10188
▁용어	-10189
▁여행을	-10190
▁야수	-10191
▁올드	-10192
▁벽에	-10193
▁누구도	-10194
▁받으면	-10195
▁야간	-10196
▁체감	-10197
▁평가는	-10198
▁자본	-10199
▁유출	-10200
▁거둔	-10201
76	-10202
런트	-10203
▁세번째	-10204
▁합계	-10205
▁필요는	-10206
▁싶지	-10207
▁썼다	-10208
be	-10209
▁파울	-10210
처리	-10211
~!	-10212
▁이니	-10213
▁철권	-10214
▁기대를	-10215
▁기다리고	-10216
▁우라	-10217
스티벌	-10218
▁Mar	-10219
▁나오게	-10220
▁느꼈	-10221
속을	-10222
▁노가	-10223
▁노벨	-10224
▁가자	-10225
▁공연을	-10226
벽을	-10227
▁주장을	-10228
▁드라이버	-10229
▁식량	-10230
▁입는	-10231
▁동남	-10232
▁일본판	-10233
▁커스텀	-10234
▁성적이	-10235
▁드로우	-10236
층의	-10237
해줄	-10238
테이션	-10239
▁얀	-10240
민을	-10241
▁일렉	-10242
▁스캔	-10243
▁실시간	-10244
ork	-10245
▁외형	-10246
▁미드필더	-10247
▁타율	-10248
▁무리가	-10249
▁얽	-10250
▁이세	-10251
▁서로를	-10252
밀리	-10253
▁많으며	-10254
▁다이아몬드	-10255
▁불교	-10256
▁로즈	-10257
▁올라간다	-10258
▁앞의	-10259
▁이런저런	-10260
▁JT	-10261
▁인구가	-10262
▁휘둘	-10263
▁포스트시즌	-10264
▁슬레이	-10265
▁패널티	-10266
▁실질적인	-10267
위대	-10268
서도	-10269
▁포획	-10270
▁LIVE	-10271
▁상대방의	-10272
▁잠수함	-10273
렉션	-10274
▁토우	-10275
▁모양의	-10276
▁사진이	-10277
,0	-10278
▁내린	-10279
▁기다려	-10280
▁AN	-10281
▁왜곡	-10282
강화	-10283
▁유혹	-10284
▁그녀에게	-10285
저를	-10286
▁DPS	-10287
▁복제	-10288
uk	-10289
▁비극	-10290
▁배급	-10291
▁쌓아	-10292
▁1,000	-10293
▁못했던	-10294
▁슈퍼로봇대전	-10295
▁성향이	-10296
~8	-10297
▁누나	-10298
페이스	-10299
▁튼튼	-10300
▁끓	-10301
▁스키	-10302
만으로도	-10303
인데다가	-10304
▁1982	-10305
▁엄격	-10306
들로부터	-10307
▁{{{#	-10308
▁사립	-10309
▁올리고	-10310
볼을	-10311
▁개신교	-10312
▁느끼는	-10313
해요	-10314
▁설령	-10315
▁모에	-10316
분으로	-10317
▁히가시	-10318
▁일부를	-10319
텐데	-10320
▁진실	-10321
▁지목	-10322
▁우호	-10323
준의	-10324
권으로	-10325
▁낙선	-10326
▁부르고	-10327
▁생각한다	-10328
▁미루	-10329
▁계기가	-10330
▁영혼을	-10331
▁편이고	-10332
▁직접적인	-10333
타리	-10334
▁전력을	-10335
보의	-10336
▁개발한	-10337
▁싶을	-10338
▁반응은	-10339
▁나오지만	-10340
▁증오	-10341
▁역임	-10342
▁하늘을	-10343
▁끝나는	-10344
▁아니라서	-10345
▁혈액형	-10346
▁연인	-10347
▁전날	-10348
▁일기	-10349
건설	-10350
▁데빌	-10351
▁플래시	-10352
박이	-10353
케이	-10354
igh	-10355
▁모드를	-10356
▁파츠	-10357
▁설명은	-10358
비용	-10359
▁보냈	-10360
▁에리	-10361
▁전락	-10362
▁선수들의	-10363
반도	-10364
▁중세	-10365
▁디자인이	-10366
들이나	-10367
600	-10368
ung	-10369
▁게이머	-10370
체스터	-10371
탐정	-10372
▁콘솔	-10373
▁자의	-10374
▁lv	-10375
very	-10376
▁경직	-10377
했으니	-10378
▁이어진	-10379
몬의	-10380
▁달리는	-10381
본부	-10382
▁딜링	-10383
▁봇	-10384
▁바른	-10385
▁배가	-10386
네는	-10387
선생	-10388
게이트	-10389
▁분당	-10390
▁커서	-10391
▁이번엔	-10392
어스	-10393
▁본명은	-10394
계는	-10395
▁리타이어	-10396
▁만들어낸	-10397
▁치즈	-10398
▁보이기도	-10399
▁명목	-10400
▁찍는	-10401
▁후의	-10402
▁들어와	-10403
▁선택한	-10404
▁항의	-10405
▁마감	-10406
라미	-10407
▁전적	-10408
▁버섯	-10409
▁나중에는	-10410
▁비유	-10411
▁헌법	-10412
▁부작	-10413
▁쓸만	-10414
▁있거나	-10415
▁DD	-10416
Lv	-10417
▁안심	-10418
아도	-10419
▁설명을	-10420
▁연봉	-10421
▁대량	-10422
베리	-10423
▁싸움이	-10424
카미	-10425
▁칼리	-10426
▁한창	-10427
▁옐	-10428
불가	-10429
▁위엄	-10430
▁형태를	-10431
▁Oh	-10432
적으로도	-10433
▁경북	-10434
▁사나	-10435
▁제네	-10436
께끼	-10437
양의	-10438
▁사망한다	-10439
▁상한	-10440
▁발키	-10441
▁결심	-10442
▁가벼운	-10443
▁기억이	-10444
▁즐겨	-10445
토스	-10446
▁초중반	-10447
하기를	-10448
▁충실	-10449
▁와카	-10450
문으로	-10451
입구	-10452
▁배출	-10453
▁정도를	-10454
▁신경을	-10455
▁불량	-10456
들에겐	-10457
▁사고가	-10458
▁style	-10459
기며	-10460
▁모듈	-10461
▁라틴	-10462
▁가능하지만	-10463
The	-10464
▁론	-10465
▁선고	-10466
▁진정	-10467
노와	-10468
▁상륙	-10469
▁KOF	-10470
▁단행본	-10471
너는	-10472
▁이대	-10473
▁강해	-10474
.22	-10475
▁OVA	-10476
시청	-10477
▁삼각	-10478
▁어렵지	-10479
▁흔한	-10480
스포츠	-10481
투표	-10482
▁가요	-10483
▁보구	-10484
▁히비	-10485
어지는	-10486
▁있기도	-10487
▁유물	-10488
월의	-10489
ero	-10490
▁at	-10491
▁휴식	-10492
▁유니크	-10493
▁에디	-10494
지사	-10495
▁상태에	-10496
▁상황이었다	-10497
협회	-10498
터로	-10499
▁중량	-10500
▁드루	-10501
▁지키고	-10502
▁사가	-10503
▁도시철도	-10504
편에서는	-10505
▁무지막	-10506
집에	-10507
▁un	-10508
운드를	-10509
▁거론	-10510
▁BB	-10511
▁시작된다	-10512
▁수염	-10513
격의	-10514
▁감싸	-10515
▁냈	-10516
▁UEFA	-10517
IR	-10518
▁품고	-10519
▁춤을	-10520
버스터미널	-10521
▁헷	-10522
러브	-10523
▁우에	-10524
▁꽉	-10525
▁긴장	-10526
▁엔드	-10527
▁웨스트	-10528
▁가졌다	-10529
▁담당하는	-10530
▁약점을	-10531
▁난이도를	-10532
▁도착한	-10533
▁세력을	-10534
▁신선	-10535
▁SF	-10536
▁무술	-10537
으라고	-10538
▁약화	-10539
▁악마의	-10540
▁width	-10541
ich	-10542
anc	-10543
▁주면	-10544
스토리	-10545
▁거기다가	-10546
▁관여	-10547
메라	-10548
▁없습니다	-10549
▁호시	-10550
▁쿨타임이	-10551
생명	-10552
보지	-10553
공으로	-10554
▁던지는	-10555
▁등번호	-10556
▁바르셀	-10557
▁이로써	-10558
▁밝은	-10559
▁편에서	-10560
▁Wi	-10561
▁올라왔다	-10562
▁어색	-10563
JP	-10564
▁메구	-10565
▁물에	-10566
다며	-10567
▁수직	-10568
▁편지를	-10569
▁갚	-10570
법으로	-10571
▁우측	-10572
였기에	-10573
▁찾아온	-10574
▁볼수	-10575
▁권력	-10576
느니	-10577
▁손이	-10578
▁걸그룹	-10579
리던	-10580
▁힐러	-10581
차원	-10582
파는	-10583
구청	-10584
천의	-10585
산에	-10586
▁쓰게	-10587
역과	-10588
▁좌절	-10589
▁188	-10590
저리	-10591
▁개를	-10592
후가	-10593
▁찍고	-10594
▁무지막지	-10595
▁동일하게	-10596
▁상태의	-10597
rd	-10598
▁가능성을	-10599
들에게도	-10600
▁킬러	-10601
▁모르게	-10602
▁믿을	-10603
▁정신이	-10604
▁하나다	-10605
▁길고	-10606
▁파밍	-10607
▁1983	-10608
▁천천	-10609
▁스텝	-10610
▁쓰인	-10611
▁하쿠	-10612
▁무효화	-10613
보우	-10614
ven	-10615
▁가질	-10616
▁거인	-10617
▁쫓겨	-10618
▁짙	-10619
bl	-10620
목이	-10621
▁워싱턴	-10622
▁이번에도	-10623
운의	-10624
▁가능하고	-10625
거지	-10626
▁Day	-10627
▁건국	-10628
프에	-10629
▁조회	-10630
미로	-10631
회전	-10632
▁비틀	-10633
▁폐기	-10634
두면	-10635
▁제노	-10636
▁1%	-10637
▁틈을	-10638
▁사회적	-10639
▁뽀	-10640
오버	-10641
argin	-10642
▁있기는	-10643
▁세팅	-10644
▁썬더	-10645
능한	-10646
일지도	-10647
▁마카	-10648
!?	-10649
▁매출	-10650
▁시즌에	-10651
▁일어날	-10652
▁낙하	-10653
▁미키	-10654
백과	-10655
▁시키는	-10656
▁배터리	-10657
▁are	-10658
▁기사단	-10659
▁움직임을	-10660
▁짐승	-10661
심의	-10662
▁후반부에	-10663
▁인용	-10664
산으로	-10665
▁아동	-10666
▁끝이	-10667
▁상태이다	-10668
▁아니더라도	-10669
오지	-10670
▁할인	-10671
▁어지간한	-10672
▁정기	-10673
▁설명이	-10674
▁아레나	-10675
킹을	-10676
쪽에서	-10677
▁실전	-10678
블리	-10679
▁본격적인	-10680
재판	-10681
▁키라	-10682
▁멤버들	-10683
미사	-10684
▁말라	-10685
니코	-10686
▁원소	-10687
▁보내고	-10688
▁미묘	-10689
정하고	-10690
▁정도면	-10691
▁우르	-10692
▁인스타그램	-10693
퍼가	-10694
▁분열	-10695
▁빌런	-10696
▁심사	-10697
orn	-10698
▁80%	-10699
▁전남	-10700
▁Ad	-10701
▁노선을	-10702
▁통치	-10703
속의	-10704
IX	-10705
감과	-10706
호로	-10707
▁83	-10708
▁샬	-10709
▁트릭	-10710
▁기도	-10711
▁어나	-10712
▁대사는	-10713
▁창설	-10714
▁캐릭터들이	-10715
▁맞춘	-10716
어버린다	-10717
▁시리즈가	-10718
관과	-10719
▁어울리는	-10720
클래	-10721
▁호불호가	-10722
▁계열의	-10723
로소	-10724
▁십자	-10725
화점	-10726
▁살아있는	-10727
▁안의	-10728
▁대전차	-10729
▁캐릭	-10730
▁프로듀스	-10731
▁Station	-10732
▁Windows	-10733
주면서	-10734
▁공격해	-10735
내에	-10736
▁평점	-10737
▁시작할	-10738
▁크레이	-10739
.28	-10740
마귀	-10741
▁통칭	-10742
▁피의	-10743
시간에	-10744
▁사로	-10745
▁축복	-10746
디스	-10747
▁다운로드	-10748
▁긁	-10749
지다	-10750
▁히메	-10751
▁모두를	-10752
41	-10753
▁불행	-10754
▁크레딧	-10755
▁DP	-10756
턴에	-10757
▁테니	-10758
게이머	-10759
▁카스	-10760
▁먹는다	-10761
▁엔진을	-10762
미노	-10763
가면서	-10764
▁없다며	-10765
▁코멘트	-10766
▁실질적으로	-10767
▁의해서	-10768
플러	-10769
▁한가	-10770
ep	-10771
감은	-10772
신도	-10773
▁낚시	-10774
▁175	-10775
상으로는	-10776
▁국가대표팀	-10777
SS	-10778
CC	-10779
▁끝나면	-10780
▁베타	-10781
놓는	-10782
▁디펜	-10783
▁사랑의	-10784
론가	-10785
인칭	-10786
▁하라	-10787
▁살아남은	-10788
▁수수께끼	-10789
▁많을	-10790
▁상식	-10791
▁심해	-10792
▁양손	-10793
무의	-10794
▁손꼽	-10795
▁행위를	-10796
▁8,	-10797
▁can	-10798
▁의식을	-10799
▁플레이어에게	-10800
바퀴	-10801
▁후원	-10802
.1%	-10803
▁대마	-10804
초의	-10805
▁하에	-10806
▁불태	-10807
천만	-10808
▁도망치	-10809
▁않는다면	-10810
▁잉여	-10811
▁메카닉	-10812
▁별도로	-10813
각성	-10814
▁스쿨	-10815
▁줄거리	-10816
▁조언	-10817
ise	-10818
▁물이	-10819
▁여부	-10820
▁해명	-10821
▁편하다	-10822
초로	-10823
▁아들을	-10824
.26	-10825
▁주니어	-10826
▁해머	-10827
쉽게	-10828
▁단종	-10829
▁소음	-10830
강의	-10831
▁호남	-10832
▁할로	-10833
▁것과는	-10834
▁클라우	-10835
▁남는	-10836
현을	-10837
작은	-10838
파워	-10839
기준	-10840
▁즐기는	-10841
▁Up	-10842
▁우익	-10843
▁밤에	-10844
▁all	-10845
▁잡아먹	-10846
▁어드벤처	-10847
▁똑같다	-10848
▁분기	-10849
노스케	-10850
▁변태	-10851
여행	-10852
▁정체가	-10853
께서	-10854
▁시대에	-10855
▁섀도우	-10856
뮤직	-10857
▁그대	-10858
▁모자라	-10859
▁일자	-10860
▁불쌍	-10861
▁우위를	-10862
▁최대의	-10863
▁젖	-10864
▁끼고	-10865
ical	-10866
▁실수를	-10867
▁어마어마한	-10868
▁철수	-10869
oh	-10870
▁방향을	-10871
▁지도자	-10872
▁엘리자베	-10873
▁이병	-10874
▁한일	-10875
▁->	-10876
이라기	-10877
▁순으로	-10878
외의	-10879
▁여자가	-10880
▁특이하게도	-10881
▁미노	-10882
내서	-10883
▁항목을	-10884
▁900	-10885
▁차지하는	-10886
▁아니야	-10887
▁로버트	-10888
▁위주의	-10889
바시	-10890
리아를	-10891
▁파고	-10892
가요	-10893
했듯	-10894
▁서포트	-10895
▁봤을	-10896
▁천연	-10897
티가	-10898
▁엑시즈	-10899
졌으나	-10900
사에게	-10901
▁안타까	-10902
▁하반	-10903
▁스피릿	-10904
▁최적	-10905
▁있음	-10906
▁것이기	-10907
▁베테랑	-10908
▁순수한	-10909
▁겹쳐	-10910
▁덱에서	-10911
▁소용	-10912
턴간	-10913
금은	-10914
공업	-10915
▁후회	-10916
라이즈	-10917
시기	-10918
체와	-10919
▁기술은	-10920
▁베이징	-10921
나베	-10922
▁등극	-10923
왕은	-10924
▁수습	-10925
▁디시	-10926
▁구독	-10927
▁선사	-10928
▁감정이	-10929
▁것입니다	-10930
▁극장	-10931
▁오면	-10932
▁관측	-10933
페르	-10934
▁리드	-10935
▁Ph	-10936
▁유적	-10937
▁싸움에서	-10938
▁끊임없이	-10939
으면서도	-10940
▁맞붙	-10941
드컵	-10942
▁오기	-10943
▁연쇄	-10944
▁동반	-10945
▁레벨을	-10946
▁플라이	-10947
▁구역	-10948
▁no	-10949
▁나빠	-10950
▁상성	-10951
▁누군가가	-10952
▁프로그램을	-10953
▁스타리그	-10954
▁일본에서는	-10955
바르	-10956
▁거북	-10957
▁병기	-10958
▁편이며	-10959
품으로	-10960
으려는	-10961
▁간지	-10962
▁고쳐	-10963
▁대접	-10964
뉴얼	-10965
군에게	-10966
▁바꾸는	-10967
추가	-10968
▁차이로	-10969
▁여의	-10970
▁발로	-10971
▁기록은	-10972
▁아까	-10973
▁최근에	-10974
▁블리자	-10975
있지만	-10976
▁차량이	-10977
▁큐브	-10978
▁안경	-10979
▁도깨	-10980
▁일행은	-10981
▁짐작	-10982
타마	-10983
▁사이에서는	-10984
▁소송	-10985
/8	-10986
▁끔살	-10987
▁독재	-10988
▁계획이	-10989
▁천천히	-10990
▁시체를	-10991
▁물질	-10992
▁쳐들어	-10993
▁원자	-10994
▁쓸모	-10995
▁폭행	-10996
▁됩니다	-10997
▁페미니	-10998
▁릭	-10999
▁공무원	-11000
희는	-11001
▁병과	-11002
▁획득할	-11003
▁기갑	-11004
▁속하는	-11005
차에	-11006
▁BE	-11007
▁코노	-11008
통합	-11009
매가	-11010
▁예시	-11011
▁프리미어	-11012
위인	-11013
▁드릴	-11014
▁일시적으로	-11015
부키	-11016
▁수색	-11017
▁팔아	-11018
▁지고	-11019
▁가난	-11020
math	-11021
▁돌아왔다	-11022
▁퍼져	-11023
▁출신으로	-11024
들고	-11025
▁전투력	-11026
▁결정적으로	-11027
▁깔아	-11028
▁트리거	-11029
아트	-11030
▁있었기에	-11031
72	-11032
▁학교에서	-11033
위와	-11034
▁GO	-11035
▁엇	-11036
▁스트레	-11037
강을	-11038
▁주제가	-11039
▁아베	-11040
권과	-11041
▁간에	-11042
▁핑크	-11043
▁레이스	-11044
▁동경	-11045
층이	-11046
▁잠실	-11047
▁ML	-11048
▁라이온즈	-11049
평을	-11050
▁정치인	-11051
▁기생	-11052
당하게	-11053
▁답답	-11054
내어	-11055
▁리스트	-11056
▁윈도우	-11057
▁오우	-11058
▁모은	-11059
▁시종	-11060
자나	-11061
▁정반	-11062
▁선출	-11063
VER	-11064
▁여타	-11065
▁태클	-11066
+0	-11067
▁초콜릿	-11068
▁호의	-11069
너를	-11070
▁성격은	-11071
▁김해	-11072
▁3~4	-11073
▁얼굴에	-11074
▁이순	-11075
▁주최	-11076
▁받았고	-11077
▁사이클	-11078
▁쌀	-11079
프리카	-11080
▁내리는	-11081
▁부분이다	-11082
▁만드	-11083
▁동급	-11084
▁억제	-11085
터와	-11086
▁차고	-11087
▁유용한	-11088
▁포인트를	-11089
▁패배를	-11090
▁김용	-11091
▁글이	-11092
▁사천	-11093
▁생방송	-11094
▁정규시즌	-11095
▁뜬다	-11096
▁멍청	-11097
▁바이올	-11098
레를	-11099
▁드문	-11100
▁어그로를	-11101
49	-11102
▁신데렐라	-11103
교가	-11104
▁헤르	-11105
▁막대한	-11106
▁엄연히	-11107
보며	-11108
지수	-11109
▁특성이	-11110
미한	-11111
▁경상북도	-11112
▁보건	-11113
박한	-11114
▁죽으면	-11115
곡은	-11116
▁할때	-11117
▁마음대로	-11118
길이	-11119
▁박성	-11120
▁대해서도	-11121
▁디바	-11122
▁구름	-11123
네시아	-11124
▁트위치	-11125
▁무역	-11126
▁여전	-11127
▁닛	-11128
▁싼	-11129
혹한	-11130
▁추방	-11131
걸이	-11132
▁스쿼	-11133
▁웃는	-11134
▁유성	-11135
▁적고	-11136
▁수요가	-11137
▁스티븐	-11138
▁모델이	-11139
▁하시	-11140
▁드러난다	-11141
▁헷갈	-11142
▁국회	-11143
차게	-11144
치아	-11145
마로	-11146
자책	-11147
▁차량을	-11148
앨범	-11149
▁빠르다	-11150
▁go	-11151
▁선임	-11152
문제	-11153
▁이전부터	-11154
▁al	-11155
▁60%	-11156
▁원작에서는	-11157
▁케빈	-11158
화에선	-11159
▁이대로	-11160
▁충분한	-11161
▁마음의	-11162
반을	-11163
쉬를	-11164
▁무난하게	-11165
▁방어력을	-11166
대화	-11167
▁취득	-11168
작전	-11169
▁엘레	-11170
하하	-11171
어버리고	-11172
▁보상으로	-11173
소드	-11174
▁주장이	-11175
릴라	-11176
▁국정	-11177
▁에이지	-11178
토니	-11179
중의	-11180
▁선수로	-11181
▁있을까	-11182
▁괴수	-11183
▁때와	-11184
있다는	-11185
▁않으므로	-11186
천사	-11187
▁뉘	-11188
▁움직임	-11189
▁그거	-11190
▁와이번	-11191
▁슬로	-11192
ign	-11193
▁잡으면	-11194
▁자존	-11195
▁일본에	-11196
항목	-11197
▁부숴	-11198
▁인지도가	-11199
방울	-11200
▁진에	-11201
▁추천한다	-11202
▁유료	-11203
하루	-11204
▁싸우게	-11205
▁프랑스의	-11206
줄이	-11207
▁정해진	-11208
▁피부	-11209
▁풍부	-11210
시스템	-11211
▁분해	-11212
히메	-11213
속으로	-11214
▁끝났다	-11215
▁기둥	-11216
▁요리를	-11217
700	-11218
▁일부는	-11219
▁언데드	-11220
▁의미는	-11221
▁일어판	-11222
▁적으로	-11223
▁잊지	-11224
▁후방	-11225
▁파란색	-11226
ence	-11227
▁비가	-11228
▁기묘한	-11229
▁로이	-11230
▁모집	-11231
▁날뛰	-11232
검사	-11233
▁비율이	-11234
▁동해	-11235
▁촌	-11236
▁오죽	-11237
▁왕조	-11238
▁초당	-11239
이후	-11240
▁오다	-11241
보인다	-11242
테니	-11243
▁듣기	-11244
▁미나미	-11245
▁경호	-11246
▁채보	-11247
▁love	-11248
안은	-11249
▁크라이	-11250
▁공수	-11251
▁가져다	-11252
.4%	-11253
장애	-11254
▁알레	-11255
아라	-11256
▁이때는	-11257
▁기본으로	-11258
▁담은	-11259
▁훔쳐	-11260
무는	-11261
장치	-11262
▁do	-11263
▁초등	-11264
▁데이터를	-11265
▁차지하고	-11266
있어서	-11267
▁적당한	-11268
▁공격속도	-11269
▁울트라맨	-11270
▁kg	-11271
▁뮌	-11272
▁신사	-11273
야와	-11274
▁납득	-11275
▁자금	-11276
▁일본은	-11277
▁인가	-11278
스틱	-11279
▁스트리머	-11280
▁브랜	-11281
▁사사	-11282
▁시마	-11283
▁이럴	-11284
커는	-11285
▁보이스	-11286
▁유비	-11287
▁가진다	-11288
▁하루카	-11289
ye	-11290
리드	-11291
▁케이블	-11292
▁독점	-11293
▁않았으나	-11294
복지	-11295
▁든다	-11296
어에	-11297
브레이	-11298
▁부산광역시	-11299
▁강경	-11300
▁퇴각	-11301
▁개성	-11302
▁바뀌는	-11303
▁뻥	-11304
과대학	-11305
+2	-11306
▁찾아볼	-11307
▁하수인	-11308
서와	-11309
▁이현	-11310
만화	-11311
▁셔틀	-11312
주의자	-11313
="	-11314
▁뜻한다	-11315
▁일단은	-11316
ans	-11317
삼진	-11318
▁신형	-11319
▁김승	-11320
▁백인	-11321
▁되려	-11322
▁신부	-11323
▁손쉽게	-11324
▁미정	-11325
▁거라는	-11326
▁특훈	-11327
▁하프	-11328
▁왜냐하면	-11329
내에서	-11330
까봐	-11331
▁%	-11332
▁중장	-11333
▁하급	-11334
면의	-11335
▁경우를	-11336
▁멤버들의	-11337
▁쵸	-11338
▁수의	-11339
했어요	-11340
▁부부	-11341
▁서번트	-11342
.2%	-11343
▁대동	-11344
네마	-11345
대체	-11346
▁부동	-11347
▁역습	-11348
▁주된	-11349
▁열고	-11350
▁총합	-11351
▁웃음	-11352
▁규모가	-11353
석으로	-11354
▁평일	-11355
▁시점에서는	-11356
▁93	-11357
▁가량	-11358
터스	-11359
▁서식	-11360
▁변해	-11361
▁스즈키	-11362
▁1.3	-11363
▁출시되었다	-11364
▁움직일	-11365
액션	-11366
▁선수의	-11367
▁앰	-11368
▁김유	-11369
ier	-11370
▁아닐까	-11371
▁연대	-11372
▁턴에	-11373
▁꼬마	-11374
딜을	-11375
들끼리	-11376
▁합병	-11377
조합	-11378
▁So	-11379
▁페스티벌	-11380
▁구별	-11381
▁밀리는	-11382
▁sp	-11383
▁듣게	-11384
▁감수	-11385
▁햇	-11386
▁편으로	-11387
거라고	-11388
▁Ver	-11389
▁개념이	-11390
▁소문	-11391
▁115	-11392
정당	-11393
▁올라갈	-11394
바야시	-11395
▁미션을	-11396
▁딸을	-11397
▁반동	-11398
▁매드	-11399
▁출간	-11400
▁에피소드에서	-11401
▁건네	-11402
▁영웅이	-11403
▁지점	-11404
▁특급	-11405
▁특화	-11406
▁애칭	-11407
▁열혈	-11408
소와	-11409
▁키요	-11410
▁전투의	-11411
▁롤드컵	-11412
▁응용	-11413
▁편인데	-11414
▁아처	-11415
▁스매	-11416
기면	-11417
▁소라	-11418
▁법칙	-11419
▁인식이	-11420
▁사서	-11421
▁하스	-11422
▁없었지만	-11423
▁아니었	-11424
▁멋대로	-11425
▁뭐가	-11426
정책	-11427
▁쳤	-11428
▁도와주	-11429
▁중거리	-11430
▁편하게	-11431
▁북한의	-11432
▁특전	-11433
▁풋	-11434
▁모드로	-11435
태를	-11436
▁뿌리	-11437
▁입대	-11438
▁펀치	-11439
버리면	-11440
레의	-11441
▁말하자	-11442
▁측정	-11443
네를	-11444
▁레일	-11445
▁후임	-11446
▁모습과	-11447
장도	-11448
▁기적	-11449
▁생김	-11450
▁생각은	-11451
슬라	-11452
▁골라	-11453
▁이겼	-11454
▁않을까	-11455
아나	-11456
urn	-11457
▁하마	-11458
▁회색	-11459
습니까	-11460
oun	-11461
▁신발	-11462
비행	-11463
▁마치고	-11464
▁업체	-11465
▁드래곤볼	-11466
▁어설	-11467
▁1981	-11468
▁이곳에	-11469
▁개교	-11470
달라	-11471
▁아스날	-11472
▁탭	-11473
▁무서워	-11474
▁EN	-11475
,5	-11476
▁너머	-11477
▁발행	-11478
▁잦은	-11479
▁하려	-11480
▁학부	-11481
카페	-11482
골드	-11483
▁성적은	-11484
▁작년	-11485
▁굉장한	-11486
▁실제로도	-11487
▁스핀	-11488
▁돌아다	-11489
aster	-11490
▁신용	-11491
▁최저	-11492
비치	-11493
▁철저히	-11494
▁강도	-11495
▁안타깝	-11496
▁나갔	-11497
▁지향	-11498
모습	-11499
▁주류	-11500
▁쓰던	-11501
리에이션	-11502
▁+4	-11503
▁MG	-11504
▁청주	-11505
▁공격력의	-11506
▁출혈	-11507
▁한번도	-11508
▁찾고	-11509
▁히틀	-11510
▁야마토	-11511
▁인벤	-11512
IL	-11513
줄을	-11514
▁에어로	-11515
▁붐	-11516
폰을	-11517
▁세라	-11518
▁분노를	-11519
▁권유	-11520
▁명문	-11521
▁시작하면	-11522
▁오메가	-11523
▁묘하게	-11524
▁상징하는	-11525
▁버틸	-11526
▁사용해서	-11527
▁알았	-11528
퍼를	-11529
롭다	-11530
풍을	-11531
▁북쪽	-11532
가에서	-11533
▁승부를	-11534
▁하단	-11535
▁옵션이	-11536
▁트라	-11537
팀을	-11538
▁노무	-11539
시간을	-11540
▁감독을	-11541
▁팁	-11542
대문	-11543
절을	-11544
▁배제	-11545
▁유입	-11546
▁여성의	-11547
▁ON	-11548
▁Cr	-11549
▁버전으로	-11550
▁캐치	-11551
91	-11552
▁흙	-11553
자이다	-11554
▁예쁘	-11555
▁머리카락	-11556
▁잊혀	-11557
▁우울	-11558
▁연출이	-11559
▁이해가	-11560
ail	-11561
▁JTBC	-11562
▁고무	-11563
.27	-11564
▁합동	-11565
▁시위	-11566
▁평상	-11567
▁내용의	-11568
보호	-11569
▁라며	-11570
▁맥스	-11571
▁승리로	-11572
▁나이는	-11573
훈의	-11574
▁뽑을	-11575
▁사건은	-11576
▁쫒	-11577
하다면	-11578
▁사법	-11579
▁한계가	-11580
거다	-11581
▁쫄	-11582
▁태어났다	-11583
▁출범	-11584
▁상하	-11585
▁일대	-11586
▁승자	-11587
-09	-11588
▁프라임	-11589
▁360	-11590
▁확정되었다	-11591
▁이집트	-11592
MAX	-11593
▁마을을	-11594
▁닌텐도	-11595
▁싸운	-11596
녀가	-11597
▁깎아	-11598
▁인격	-11599
▁재미있는	-11600
츠는	-11601
▁토리	-11602
▁주며	-11603
▁흑인	-11604
▁그중	-11605
▁사로잡	-11606
▁사람으로	-11607
▁적게	-11608
▁클린	-11609
▁감상	-11610
▁Sk	-11611
▁쇼핑	-11612
▁신속	-11613
▁데이트	-11614
▁카리스	-11615
▁벌인	-11616
▁동행	-11617
▁텐데	-11618
▁강림	-11619
랍니다	-11620
▁자전거	-11621
▁떨어지고	-11622
▁매주	-11623
eah	-11624
▁끔찍한	-11625
철이	-11626
▁토트	-11627
▁말이야	-11628
▁절친	-11629
▁EXP	-11630
▁어머니의	-11631
법인	-11632
지대	-11633
▁시뮬	-11634
▁형태가	-11635
▁모델은	-11636
▁로맨	-11637
▁인접	-11638
▁선회	-11639
▁극도로	-11640
냐면	-11641
인드	-11642
▁7.	-11643
▁연구를	-11644
▁노바	-11645
▁숫자가	-11646
츠카	-11647
▁네임드	-11648
▁무대를	-11649
▁조합을	-11650
▁황제의	-11651
▁프로게이머	-11652
루미	-11653
▁에로	-11654
▁개척	-11655
▁죄책	-11656
▁전망	-11657
▁추측이	-11658
▁사고로	-11659
부인	-11660
▁주문을	-11661
▁정상적으로	-11662
▁공중에서	-11663
장난	-11664
카르	-11665
.13	-11666
▁남쪽	-11667
62	-11668
▁왕복	-11669
▁이상하게	-11670
초가	-11671
▁변화를	-11672
▁분쟁	-11673
▁대통령의	-11674
▁이기고	-11675
로마	-11676
.6%	-11677
▁12.	-11678
▁검술	-11679
▁Con	-11680
▁태평양	-11681
▁이해할	-11682
▁따르는	-11683
매니아	-11684
▁모습이다	-11685
▁멤버가	-11686
▁아버지와	-11687
▁Super	-11688
▁여성이	-11689
▁터트	-11690
▁여러분	-11691
▁토요일	-11692
▁이오	-11693
열차	-11694
.8%	-11695
▁버서	-11696
▁돌아간다	-11697
▁통째로	-11698
풍의	-11699
▁공격력은	-11700
▁식사	-11701
▁고통을	-11702
린다는	-11703
전공	-11704
int	-11705
▁자국	-11706
했음에도	-11707
▁영주	-11708
▁조기	-11709
▁프린세스	-11710
▁복무	-11711
▁과거를	-11712
▁버텨	-11713
사리	-11714
▁여섯	-11715
▁아스트	-11716
▁이그	-11717
킵니다	-11718
▁이노	-11719
▁배운	-11720
uck	-11721
▁강간	-11722
▁반전	-11723
▁놀라운	-11724
▁블로	-11725
▁벌어지는	-11726
슨은	-11727
▁침투	-11728
▁패턴은	-11729
iver	-11730
세와	-11731
AB	-11732
▁수동	-11733
▁실패한	-11734
▁진주	-11735
▁얘기가	-11736
▁ERA	-11737
해온	-11738
▁만능	-11739
고기	-11740
▁주위	-11741
▁의문을	-11742
▁부유	-11743
▁타이밍에	-11744
가루	-11745
틀랜드	-11746
▁아무튼	-11747
▁그러면서	-11748
▁전파	-11749
▁엘리베이터	-11750
필살	-11751
▁굴러	-11752
▁샐	-11753
▁이벤트로	-11754
교사	-11755
학의	-11756
▁전쟁의	-11757
▁밝혔	-11758
버려서	-11759
▁밝혀진다	-11760
.29	-11761
네이	-11762
▁피로	-11763
기병	-11764
▁지연	-11765
▁정부는	-11766
펙트	-11767
▁보라색	-11768
▁주자	-11769
▁깨닫고	-11770
모함	-11771
▁하였고	-11772
즈에	-11773
▁플러	-11774
▁봉쇄	-11775
▁갖게	-11776
▁as	-11777
▁나간다	-11778
▁뮌헨	-11779
▁바뀌어	-11780
▁맞춰서	-11781
▁편은	-11782
ari	-11783
ode	-11784
▁에디션	-11785
▁먹었다	-11786
▁챌린지	-11787
▁모델로	-11788
▁사무라이	-11789
피안타	-11790
기자	-11791
▁적시	-11792
하겠지만	-11793
▁은폐	-11794
▁친애	-11795
MB	-11796
▁퀵	-11797
▁1979	-11798
▁난사	-11799
▁고증	-11800
트랙	-11801
▁흰색	-11802
▁홋	-11803
▁슬픔	-11804
족으로	-11805
▁신나게	-11806
oug	-11807
▁트래	-11808
▁닉네임	-11809
▁그레이트	-11810
▁표현을	-11811
▁바이러	-11812
▁단어를	-11813
▁제작사	-11814
▁사항은	-11815
▁팰	-11816
▁기술의	-11817
!!"	-11818
▁무난한	-11819
초를	-11820
.7%	-11821
▁해치	-11822
면으로	-11823
했을때	-11824
▁말과	-11825
▁새누리당	-11826
▁개인의	-11827
▁않았기	-11828
▁스타디움	-11829
▁지나가는	-11830
곡의	-11831
▁존재로	-11832
▁Dream	-11833
▁제공하는	-11834
버렸고	-11835
아머	-11836
▁서비스를	-11837
▁즐거	-11838
▁장관	-11839
식과	-11840
▁나라를	-11841
관계를	-11842
▁프로레	-11843
▁고난	-11844
ose	-11845
▁1950	-11846
▁제목은	-11847
▁목적을	-11848
▁가성	-11849
▁사와	-11850
▁도시를	-11851
▁돌고	-11852
▁분산	-11853
74	-11854
▁어그로	-11855
▁떨어졌다	-11856
▁이름도	-11857
▁점과	-11858
▁리오	-11859
▁호수	-11860
▁경주	-11861
▁수단	-11862
▁사퇴	-11863
▁데모	-11864
▁않으나	-11865
▁보스가	-11866
▁함락	-11867
구장	-11868
▁스컬	-11869
▁대가로	-11870
▁다이스	-11871
▁루이스	-11872
▁무쌍	-11873
▁잡몹	-11874
▁후일	-11875
▁사단	-11876
▁유용하다	-11877
▁흐름	-11878
▁바나	-11879
▁리틀	-11880
▁적절히	-11881
딜이	-11882
▁미궁	-11883
해볼	-11884
▁원조	-11885
▁안습한	-11886
▁저글	-11887
▁일요일	-11888
▁쪽에서	-11889
▁가공	-11890
▁되니	-11891
▁11.	-11892
▁몰살	-11893
▁프론	-11894
▁선거에서	-11895
▁피카	-11896
▁위안	-11897
▁드러났다	-11898
MC	-11899
오면	-11900
▁GK	-11901
▁면모를	-11902
▁계정	-11903
▁레인저	-11904
오기	-11905
도도	-11906
▁네크로	-11907
▁코스프레	-11908
▁이룬	-11909
▁91	-11910
▁올바	-11911
▁극단적인	-11912
▁라스트	-11913
▁백업	-11914
▁부근	-11915
▁체결	-11916
▁차량은	-11917
▁개업일	-11918
▁않습니다	-11919
▁성과	-11920
▁어나더	-11921
공개	-11922
오피스	-11923
배의	-11924
음으로	-11925
69	-11926
▁최악	-11927
▁구간은	-11928
▁싸우고	-11929
팀은	-11930
하늘	-11931
▁원숭	-11932
▁브라이언	-11933
들까지	-11934
생활을	-11935
▁이브	-11936
자라고	-11937
▁착한	-11938
▁않으니	-11939
맨을	-11940
▁시작해서	-11941
온을	-11942
▁ex	-11943
▁대면	-11944
▁이쯤	-11945
속에서	-11946
▁비용이	-11947
담이	-11948
.....	-11949
▁올해의	-11950
▁this	-11951
▁변한	-11952
▁좌측	-11953
레일	-11954
▁노래가	-11955
▁할로윈	-11956
▁제안을	-11957
▁나누어	-11958
▁질문을	-11959
조각	-11960
▁여우	-11961
주의를	-11962
▁이후로도	-11963
자이	-11964
▁속한	-11965
▁방법도	-11966
▁장성	-11967
▁있겠	-11968
▁음모	-11969
▁스노우	-11970
행정	-11971
▁마오	-11972
▁노스	-11973
▁없었다고	-11974
학적	-11975
▁LO	-11976
▁꼬리	-11977
모스	-11978
▁표절	-11979
▁시작되었다	-11980
▁깨끗	-11981
▁만나고	-11982
▁주목을	-11983
▁나왔을	-11984
▁유산	-11985
▁운명	-11986
▁전체에	-11987
▁프로리그	-11988
▁사람과	-11989
▁어려울	-11990
▁언급된다	-11991
▁이외에	-11992
▁잘하는	-11993
▁복원	-11994
▁높아서	-11995
▁체제	-11996
▁슌	-11997
▁다이어	-11998
▁스텟	-11999
하르	-12000
▁TR	-12001
▁사용가능	-12002
활동	-12003
▁싱가	-12004
▁파편	-12005
▁같다는	-12006
경기를	-12007
▁108	-12008
▁것인가	-12009
▁떠난다	-12010
▁잃어버린	-12011
▁영어로	-12012
▁메이저리그	-12013
▁무거운	-12014
▁동점	-12015
▁불타는	-12016
▁점유	-12017
▁스티브	-12018
▁To	-12019
▁아이들을	-12020
▁확산	-12021
▁있다며	-12022
타인	-12023
▁불참	-12024
파괴	-12025
▁아니게	-12026
▁이른바	-12027
▁것들이	-12028
▁용암	-12029
▁시크릿	-12030
▁동쪽	-12031
▁빙의	-12032
▁벌이는	-12033
▁샷건	-12034
오자	-12035
▁논의	-12036
▁죽이려	-12037
▁이곳에서	-12038
▁소장	-12039
▁헬멧	-12040
▁닮았다	-12041
▁코미디	-12042
▁츄	-12043
▁피지컬	-12044
▁축소	-12045
퍼의	-12046
▁일부가	-12047
▁굽	-12048
▁부위	-12049
나도	-12050
▁조별리그	-12051
▁어려움	-12052
이다보니	-12053
▁김포	-12054
▁활동하고	-12055
이한	-12056
▁가능할	-12057
▁얇	-12058
▁아들인	-12059
▁않았으며	-12060
▁속성이	-12061
▁초인	-12062
올림픽	-12063
▁마피아	-12064
▁포함해	-12065
▁긍정적인	-12066
▁보스를	-12067
▁일반인	-12068
▁돌아갈	-12069
▁싶다는	-12070
▁끼워	-12071
▁곳곳에	-12072
▁평양	-12073
▁일하는	-12074
▁닦	-12075
▁문이	-12076
▁노조	-12077
▁멘붕	-12078
▁시게	-12079
내려	-12080
티의	-12081
▁때문이었다	-12082
▁조차	-12083
▁등도	-12084
주인공	-12085
▁퍼스트	-12086
ats	-12087
▁압권	-12088
▁진행된다	-12089
▁디즈니	-12090
DX	-12091
.9%	-12092
▁존재하며	-12093
▁문제에	-12094
▁놀랍	-12095
▁필리핀	-12096
▁냈다	-12097
▁하므로	-12098
미에게	-12099
▁까는	-12100
▁테츠	-12101
▁조언을	-12102
▁표지	-12103
▁고등학생	-12104
▁고소	-12105
▁뽑는	-12106
버의	-12107
▁던진	-12108
▁세계로	-12109
▁붙인	-12110
▁힘입	-12111
하듯	-12112
▁지리	-12113
금으로	-12114
▁하우스	-12115
▁마유	-12116
▁내에서는	-12117
▁동아리	-12118
▁비스	-12119
련의	-12120
포는	-12121
▁매그	-12122
▁들지	-12123
▁아직까지	-12124
▁분노한	-12125
▁타이거즈	-12126
ey	-12127
▁옴	-12128
주교	-12129
▁보드	-12130
리스를	-12131
졌기	-12132
수리	-12133
번째로	-12134
▁문제의	-12135
주세요	-12136
▁뿌려	-12137
처를	-12138
▁이기는	-12139
▁고속도로	-12140
▁떨어질	-12141
▁자칭	-12142
▁첫째	-12143
▁350	-12144
▁여러번	-12145
63	-12146
▁가능하게	-12147
▁누구나	-12148
히기	-12149
▁발표했다	-12150
▁흡혈귀	-12151
▁EZ	-12152
▁포탈	-12153
▁뜻이	-12154
▁경험을	-12155
▁에피소드가	-12156
ube	-12157
▁ld	-12158
▁토니	-12159
▁뜻으로	-12160
리아는	-12161
▁제작된	-12162
▁타이탄	-12163
▁묘사된다	-12164
▁특징이	-12165
당초	-12166
▁라스	-12167
▁이경	-12168
▁없어도	-12169
▁하나하나	-12170
▁궁극기	-12171
▁억울	-12172
ition	-12173
▁힘의	-12174
▁들어가지	-12175
▁애쉬	-12176
글을	-12177
▁유메	-12178
▁써도	-12179
▁자원을	-12180
▁드워	-12181
▁극중	-12182
▁상태다	-12183
▁RA	-12184
▁다큐	-12185
령으로	-12186
CD	-12187
▁디자인을	-12188
▁미쳐	-12189
usic	-12190
▁이어져	-12191
패스	-12192
msys	-12193
▁아이디	-12194
▁불리한	-12195
▁from	-12196
▁갇혀	-12197
▁좌석	-12198
▁할지	-12199
▁일관	-12200
▁방을	-12201
▁복합	-12202
▁둘러싸	-12203
▁고려하면	-12204
례로	-12205
▁생체	-12206
▁ldmsys	-12207
▁박물	-12208
▁정원	-12209
▁게임으로	-12210
▁카네	-12211
▁담아	-12212
▁인공지능	-12213
▁됨	-12214
▁않나	-12215
▁없지	-12216
뿐이다	-12217
▁진행된	-12218
▁치고는	-12219
▁단위로	-12220
▁의지를	-12221
해야한다	-12222
상승	-12223
▁변호사	-12224
▁Qu	-12225
상가	-12226
▁10,	-12227
▁실사	-12228
감으로	-12229
▁작품이다	-12230
▁입문	-12231
▁까다로운	-12232
▁영향이	-12233
▁필드에	-12234
채로	-12235
▁하였으나	-12236
▁믹스	-12237
▁혀	-12238
▁원수	-12239
로이	-12240
▁다시금	-12241
▁진지하게	-12242
▁하필이면	-12243
노동	-12244
▁ATK	-12245
▁뜨는	-12246
▁단발	-12247
▁달하는	-12248
없어	-12249
-08	-12250
▁기숙사	-12251
몬이	-12252
▁즐길	-12253
orts	-12254
▁패배한	-12255
▁판정을	-12256
▁랄	-12257
▁씨앗	-12258
▁김지	-12259
▁전격	-12260
▁디자이	-12261
▁지원하는	-12262
▁능력도	-12263
▁시골	-12264
용은	-12265
▁멤버로	-12266
▁내용이다	-12267
▁데이비드	-12268
히토	-12269
▁저렇게	-12270
▁칼로	-12271
▁간단하게	-12272
에게만	-12273
리우스	-12274
▁나뉜	-12275
▁때에도	-12276
▁이어진다	-12277
▁도서	-12278
▁여기저기	-12279
▁피규	-12280
▁엄밀히	-12281
▁떴	-12282
▁대변	-12283
▁김수	-12284
우치	-12285
쿠가	-12286
▁카테	-12287
▁9,	-12288
▁활동하는	-12289
▁DS	-12290
▁클론	-12291
▁병력이	-12292
▁게이지가	-12293
▁힙합	-12294
모는	-12295
▁약을	-12296
▁않았는데	-12297
▁기름	-12298
▁높을	-12299
▁오렌	-12300
질적인	-12301
▁뿐더러	-12302
▁@	-12303
률을	-12304
▁185	-12305
▁생김새	-12306
▁측은	-12307
해야만	-12308
▁점수가	-12309
영과	-12310
▁그러므로	-12311
▁이렇다	-12312
포인	-12313
▁원시	-12314
▁승차	-12315
▁신지	-12316
EL	-12317
▁조금이라도	-12318
▁보좌	-12319
▁중고	-12320
시키지	-12321
▁나타내는	-12322
▁NO	-12323
리스타	-12324
▁말씀	-12325
▁이놈	-12326
▁방송에	-12327
▁샀	-12328
▁성격으로	-12329
▁룩	-12330
▁소중	-12331
▁매장	-12332
▁NBA	-12333
▁Vol	-12334
▁이태	-12335
▁충족	-12336
▁마을에	-12337
▁결국은	-12338
▁오니	-12339
▁주인공과	-12340
▁츤	-12341
▁적들이	-12342
▁주축	-12343
▁진행되는	-12344
▁돌아왔	-12345
▁미소	-12346
▁섬의	-12347
예요	-12348
진화	-12349
▁로고	-12350
리스는	-12351
000000	-12352
아닌	-12353
▁죄를	-12354
71	-12355
▁pl	-12356
▁사실에	-12357
등장인물	-12358
▁실현	-12359
▁지역이	-12360
엘의	-12361
▁때만	-12362
▁USB	-12363
▁대표하는	-12364
재의	-12365
▁루비	-12366
▁시작해	-12367
▁아나운서	-12368
▁시에는	-12369
margin	-12370
▁애완	-12371
▁감탄	-12372
▁탓인지	-12373
▁설이	-12374
▁그릇	-12375
▁마물	-12376
▁탐정	-12377
▁마스	-12378
▁했기	-12379
▁입지	-12380
▁선보였다	-12381
▁흥미	-12382
▁인물은	-12383
▁진급	-12384
▁표정	-12385
▁봐서	-12386
▁에메	-12387
▁네트워크	-12388
랄한	-12389
▁형편	-12390
▁격려	-12391
▁128	-12392
▁시바	-12393
▁III	-12394
▁경상남도	-12395
▁이케	-12396
▁220	-12397
▁Season	-12398
▁땡	-12399
▁무자	-12400
▁말해서	-12401
혼의	-12402
▁추측된다	-12403
▁어째서인지	-12404
대고	-12405
▁엉덩	-12406
▁실력은	-12407
▁인민	-12408
▁Pre	-12409
▁샤를	-12410
▁집권	-12411
자동	-12412
▁부천	-12413
▁Sch	-12414
▁좀더	-12415
-13	-12416
▁예산	-12417
공화국	-12418
▁이마	-12419
▁발견한	-12420
▁벨기에	-12421
▁시간대	-12422
▁기껏	-12423
▁타이틀을	-12424
▁BJ	-12425
두로	-12426
61	-12427
:45	-12428
▁회사의	-12429
▁키를	-12430
▁일종	-12431
▁서쪽	-12432
▁마을의	-12433
43	-12434
▁우루	-12435
개나	-12436
▁2:0	-12437
▁분홍	-12438
▁중견	-12439
보컬	-12440
▁카게	-12441
▁저주를	-12442
▁그렇기에	-12443
▁알려졌다	-12444
천년	-12445
▁쿼	-12446
▁실패했다	-12447
나에게	-12448
▁본작의	-12449
▁깨어나	-12450
▁뜨거운	-12451
▁행동이	-12452
▁탕	-12453
▁바텀	-12454
▁것이나	-12455
▁반면에	-12456
▁70%	-12457
▁비난을	-12458
▁스트라이커	-12459
▁입힌다	-12460
▁김주	-12461
▁탐색	-12462
▁바람의	-12463
▁부르기도	-12464
▁시즌이	-12465
▁IT	-12466
미래	-12467
▁덱을	-12468
▁입증	-12469
개는	-12470
대교	-12471
독한	-12472
▁곁에	-12473
▁웰	-12474
드라마	-12475
▁엔딩을	-12476
▁한국시리즈	-12477
▁논리	-12478
able	-12479
▁성과를	-12480
▁섞여	-12481
▁미성	-12482
▁바라는	-12483
누스	-12484
▁터널	-12485
▁트윗	-12486
▁아포	-12487
▁뽑기	-12488
▁유저들	-12489
▁발음이	-12490
했어	-12491
해하는	-12492
▁쿠데	-12493
▁바둑	-12494
▁색이	-12495
▁주행	-12496
▁일어났다	-12497
▁핏	-12498
▁박진	-12499
▁깐	-12500
▁베를	-12501
▁유기	-12502
▁무엇보다도	-12503
▁무작위	-12504
▁그후	-12505
▁비전	-12506
▁넘쳐	-12507
▁뱃	-12508
리츠	-12509
▁브래	-12510
무쌍	-12511
청을	-12512
▁}}}	-12513
▁건물이	-12514
▁여객	-12515
▁내부에	-12516
▁아이들이	-12517
▁밑에서	-12518
▁아가씨	-12519
이크를	-12520
점의	-12521
▁평행	-12522
▁교류	-12523
▁배경이	-12524
▁역사가	-12525
▁퍽	-12526
소리가	-12527
차전에서	-12528
▁단기	-12529
조선	-12530
라라	-12531
▁없기에	-12532
▁피해량이	-12533
▁경기에서는	-12534
▁주술	-12535
하르트	-12536
결승	-12537
▁발견하고	-12538
▁카지	-12539
▁인해서	-12540
▁자체에	-12541
도전	-12542
▁깔끔하게	-12543
병과	-12544
▁벌써	-12545
▁사촌	-12546
▁교토	-12547
▁카카오	-12548
▁강민	-12549
▁빠지는	-12550
▁이별	-12551
▁역의	-12552
▁우스	-12553
▁밖에서	-12554
▁안정적으로	-12555
▁내에서도	-12556
▁심각하게	-12557
크라이나	-12558
ear	-12559
▁통솔	-12560
▁위해선	-12561
▁초상	-12562
▁시리아	-12563
그를	-12564
▁과장	-12565
▁오스만	-12566
▁문장	-12567
▁불멸	-12568
▁침착	-12569
▁대결을	-12570
▁만렙	-12571
▁우치	-12572
▁수상한	-12573
막이	-12574
▁피스	-12575
▁상태이	-12576
▁번의	-12577
▁세월호	-12578
방법	-12579
▁양이	-12580
▁Ed	-12581
▁학교를	-12582
▁씬	-12583
▁학생들은	-12584
었다가	-12585
▁발사한다	-12586
버드	-12587
▁Night	-12588
▁이름에	-12589
본을	-12590
▁알지	-12591
▁자제	-12592
체제	-12593
▁오고	-12594
▁이윤	-12595
▁다가가	-12596
▁최상위	-12597
▁날린다	-12598
서스	-12599
▁믿는	-12600
▁저작권	-12601
야한다	-12602
▁손해	-12603
▁주관	-12604
▁학습	-12605
▁상대로는	-12606
▁240	-12607
▁씻	-12608
▁날카로운	-12609
:15	-12610
사나	-12611
학년도	-12612
▁받기도	-12613
▁보스턴	-12614
▁남동생	-12615
▁하루에	-12616
타에	-12617
net	-12618
▁신동	-12619
채널	-12620
▁대가	-12621
▁이가	-12622
▁육체	-12623
▁박스오피스	-12624
파와	-12625
월까지	-12626
▁마틴	-12627
▁관계는	-12628
▁작품에	-12629
블을	-12630
▁리볼	-12631
▁이쪽도	-12632
포드	-12633
app	-12634
하고도	-12635
루션	-12636
▁가져온	-12637
▁차원에서	-12638
▁걸즈	-12639
▁이원	-12640
그레	-12641
▁제라	-12642
▁한꺼	-12643
▁초기에	-12644
산역	-12645
때마다	-12646
▁대기시간	-12647
▁모르지만	-12648
iel	-12649
▁조치	-12650
▁업적	-12651
▁IM	-12652
▁약속을	-12653
▁수장	-12654
▁후보가	-12655
밀한	-12656
당과	-12657
.3%	-12658
▁일본이	-12659
▁Ap	-12660
몬스터	-12661
▁딘	-12662
▁아자	-12663
▁조합이	-12664
도라	-12665
▁NH	-12666
▁탄핵	-12667
▁껍	-12668
▁괜찮아	-12669
▁랜덤으로	-12670
건담	-12671
스틴	-12672
▁교육을	-12673
▁타이밍을	-12674
▁분신	-12675
▁애용	-12676
▁스스로를	-12677
▁워리어	-12678
▁문제다	-12679
▁되돌아	-12680
▁종결	-12681
▁고개를	-12682
▁위와	-12683
카나	-12684
▁아시	-12685
▁일행과	-12686
▁섞어	-12687
vel	-12688
▁바꿨	-12689
▁판결	-12690
ib	-12691
▁그렇기	-12692
인방	-12693
▁영화가	-12694
▁올라간	-12695
▁알려지지	-12696
▁수석	-12697
▁경력이	-12698
▁AA	-12699
▁Girl	-12700
창이	-12701
▁대시	-12702
▁열매	-12703
히며	-12704
▁8.	-12705
▁살인사건	-12706
▁묻는	-12707
▁수급	-12708
치고는	-12709
▁대미	-12710
리포	-12711
▁개수	-12712
▁주인공에게	-12713
▁Fr	-12714
▁승무원	-12715
질은	-12716
▁우린	-12717
▁소재지	-12718
▁여태	-12719
자유	-12720
▁상냥	-12721
▁아르바	-12722
▁모스크	-12723
▁왼손	-12724
▁방사능	-12725
거래	-12726
하여야	-12727
▁앓	-12728
하였지만	-12729
이었기에	-12730
▁라인을	-12731
▁가루	-12732
▁검은색	-12733
▁대다수의	-12734
▁원작과	-12735
▁초기화	-12736
런스	-12737
▁넉백	-12738
풍이	-12739
등으로	-12740
▁의미하는	-12741
▁결혼을	-12742
ull	-12743
병은	-12744
▁다닐	-12745
▁민폐	-12746
▁주택	-12747
▁땅볼	-12748
사격	-12749
킬을	-12750
엘이	-12751
값을	-12752
▁육상	-12753
▁한꺼번에	-12754
▁CM	-12755
▁공격의	-12756
▁일곱	-12757
▁담배	-12758
에른	-12759
노선	-12760
▁전향	-12761
▁존중	-12762
▁생각하지	-12763
▁OG	-12764
카드를	-12765
▁페어	-12766
▁솟	-12767
이나마	-12768
▁간섭	-12769
▁비행기	-12770
▁피하기	-12771
▁띠	-12772
▁쓰러진	-12773
▁단검	-12774
▁좋다는	-12775
▁살던	-12776
▁뻔한	-12777
▁폴아웃	-12778
▁해당한다	-12779
▁TS	-12780
▁연맹	-12781
▁요한	-12782
▁강릉	-12783
▁해산	-12784
▁조건으로	-12785
▁플랜	-12786
▁상무	-12787
▁선수들을	-12788
▁남매	-12789
▁보낼	-12790
▁짧게	-12791
▁올라와	-12792
▁망설	-12793
▁않는데	-12794
▁일본인	-12795
▁아르헨티나	-12796
▁빙결	-12797
▁공인	-12798
▁시합	-12799
▁충격적인	-12800
▁인상을	-12801
".	-12802
료가	-12803
▁우두	-12804
▁시외	-12805
메이트	-12806
민과	-12807
▁구동	-12808
▁상하이	-12809
▁고르	-12810
보라	-12811
ron	-12812
ult	-12813
▁아수	-12814
73	-12815
▁유니콘	-12816
▁일으키는	-12817
변을	-12818
되지는	-12819
▁La	-12820
▁선발로	-12821
리즘	-12822
치킨	-12823
쪽이	-12824
▁전반적인	-12825
93	-12826
겁게	-12827
▁탈취	-12828
▁보험	-12829
▁2%	-12830
▁이틀	-12831
▁지혜	-12832
▁헥	-12833
▁감독으로	-12834
▁웬만	-12835
▁아군을	-12836
돌아	-12837
▁높여	-12838
▁장례	-12839
▁비교해	-12840
▁장착한	-12841
▁고지	-12842
▁교차	-12843
▁모르겠지만	-12844
▁미래의	-12845
▁판매량	-12846
GA	-12847
▁고로	-12848
▁친척	-12849
ject	-12850
▁OS	-12851
▁허리	-12852
▁등장하고	-12853
빨리	-12854
▁일족	-12855
▁인피니티	-12856
▁요소를	-12857
불명	-12858
▁마땅	-12859
▁말레이	-12860
▁>	-12861
▁앗	-12862
▁토트넘	-12863
▁#!	-12864
▁광명	-12865
▁광산	-12866
▁능가	-12867
▁우크라이나	-12868
분은	-12869
지므로	-12870
▁검열	-12871
▁이쿠	-12872
▁최종적으로	-12873
▁모종의	-12874
▁심의	-12875
▁국내에서	-12876
▁보여주지	-12877
쾌한	-12878
▁내부의	-12879
시아의	-12880
▁오를	-12881
▁영상에서	-12882
▁붙는	-12883
▁인사를	-12884
▁극한	-12885
사냥	-12886
동에서	-12887
▁마드리드	-12888
▁유틸	-12889
▁갖춰	-12890
들에서	-12891
▁순서대로	-12892
시킵니다	-12893
님은	-12894
병에	-12895
▁사업을	-12896
▁프롤	-12897
▁통하지	-12898
▁로보	-12899
▁발각	-12900
▁도트	-12901
thing	-12902
환으로	-12903
▁등재	-12904
적이며	-12905
태가	-12906
▁화산	-12907
플라	-12908
▁시작하고	-12909
/11	-12910
▁아냐	-12911
▁약혼	-12912
▁때를	-12913
▁어머니는	-12914
페라	-12915
▁드물게	-12916
▁감이	-12917
▁흡사	-12918
▁달라진다	-12919
▁전송	-12920
딩을	-12921
▁특화된	-12922
co	-12923
선수권	-12924
코에게	-12925
▁거두었다	-12926
▁프랜	-12927
키스탄	-12928
▁번째로	-12929
▁남게	-12930
▁안겨	-12931
OO	-12932
▁츠키	-12933
▁싸운다	-12934
었어	-12935
실과	-12936
▁대상의	-12937
▁전쟁에서	-12938
뉴스	-12939
▁태워	-12940
▁not	-12941
가기	-12942
▁싸웠	-12943
▁묶어	-12944
▁쏘아	-12945
▁방식의	-12946
▁AV	-12947
▁얼어	-12948
무스	-12949
▁타치	-12950
▁보여줄	-12951
▁스탠드	-12952
▁몸으로	-12953
▁높지	-12954
▁입구	-12955
▁대법	-12956
▁모순	-12957
▁녹아	-12958
▁장미	-12959
▁드립을	-12960
▁딸이	-12961
▁힘입어	-12962
▁스탈	-12963
CS	-12964
▁슈트	-12965
▁영문명	-12966
▁벡	-12967
▁앞선	-12968
작인	-12969
▁보상을	-12970
▁틀린	-12971
▁연예인	-12972
▁그곳에서	-12973
테크	-12974
▁전성기	-12975
▁신중	-12976
▁종점행	-12977
▁뒤의	-12978
▁사이로	-12979
▁따라서는	-12980
▁소환할	-12981
▁유미	-12982
▁무언가를	-12983
▁젬	-12984
총을	-12985
▁압축	-12986
▁프로토스	-12987
국과	-12988
▁중력	-12989
▁남아있다	-12990
▁외곽	-12991
▁개장	-12992
▁아슬	-12993
심은	-12994
▁랑	-12995
리니	-12996
▁김광	-12997
년은	-12998
▁취업	-12999
▁늘어난다	-13000
저는	-13001
▁시상식	-13002
▁재건	-13003
▁마우스	-13004
색은	-13005
▁정권	-13006
▁측의	-13007
CH	-13008
니카	-13009
으신	-13010
플러스	-13011
▁받았다고	-13012
▁스카웃	-13013
▁미만	-13014
▁침몰	-13015
▁통계	-13016
▁별명을	-13017
▁플레이할	-13018
▁지역으로	-13019
▁부패	-13020
있다고	-13021
▁2017-12	-13022
▁오이	-13023
▁단독으로	-13024
▁Op	-13025
▁없었기	-13026
그가	-13027
▁사투	-13028
파티	-13029
▁경연	-13030
▁않다고	-13031
▁달의	-13032
▁주인이	-13033
▁해양	-13034
to	-13035
▁경찰이	-13036
▁재앙	-13037
시에서	-13038
▁신세	-13039
▁불어	-13040
▁여기에서	-13041
▁상주	-13042
▁배울	-13043
▁모나	-13044
▁그리핀	-13045
분간	-13046
ild	-13047
▁상담	-13048
▁포함된	-13049
▁실패하고	-13050
린과	-13051
▁선수들	-13052
▁엔터테인먼트	-13053
▁얹	-13054
▁등장해	-13055
-01	-13056
▁불타	-13057
▁캐시	-13058
만큼의	-13059
▁배차간격	-13060
근이	-13061
▁감동	-13062
사우루스	-13063
▁이전까지	-13064
▁권력을	-13065
▁펭	-13066
▁명칭이	-13067
▁무언가	-13068
▁휩쓸	-13069
▁눈앞	-13070
노미야	-13071
▁거짓말을	-13072
▁본능	-13073
▁기점행	-13074
▁활용할	-13075
▁가담	-13076
망의	-13077
▁묻는다	-13078
inal	-13079
▁Gre	-13080
▁트레이너	-13081
▁미국이	-13082
▁-4	-13083
▁강호	-13084
▁순간에	-13085
▁평소에는	-13086
이치로	-13087
마도	-13088
두를	-13089
▁게임이다	-13090
어택	-13091
삼거리	-13092
▁유튜버	-13093
▁갖다	-13094
연승	-13095
▁못지	-13096
▁보스로	-13097
▁시리즈는	-13098
▁가능하다는	-13099
받게	-13100
▁놓여	-13101
▁Col	-13102
▁후미	-13103
▁점멸	-13104
열의	-13105
다보면	-13106
▁능력치는	-13107
▁지속적인	-13108
두의	-13109
▁마력을	-13110
▁유닛은	-13111
츠와	-13112
레오	-13113
▁우정	-13114
▁직전까지	-13115
▁정도만	-13116
▁장남	-13117
▁지지를	-13118
▁LE	-13119
▁자유한국당	-13120
▁준수	-13121
▁밀어붙	-13122
만도	-13123
▁아픈	-13124
▁비롯해	-13125
▁Mi	-13126
저래	-13127
▁낮고	-13128
▁버릴	-13129
▁되어야	-13130
니즘	-13131
철의	-13132
▁공포의	-13133
▁라이언	-13134
모노	-13135
▁아마존	-13136
▁브론	-13137
▁캄	-13138
▁리그에서	-13139
▁구울	-13140
▁악명	-13141
▁속성을	-13142
▁사라지는	-13143
▁EXT	-13144
슬롯	-13145
▁강아	-13146
대신	-13147
▁찍을	-13148
▁남자의	-13149
▁그렇다면	-13150
▁게시판	-13151
분한	-13152
심에	-13153
▁AFC	-13154
마나	-13155
▁키우	-13156
▁맨체스터	-13157
▁나왔고	-13158
▁소유자	-13159
▁바이에른	-13160
▁황제가	-13161
차의	-13162
▁0.4	-13163
▁않았다면	-13164
▁사람이다	-13165
▁추가된다	-13166
▁불만이	-13167
▁카운트	-13168
▁울프	-13169
▁이야기도	-13170
▁남학생	-13171
페이즈	-13172
▁단어가	-13173
▁몰고	-13174
▁위성	-13175
▁피어	-13176
▁화재	-13177
음은	-13178
sc	-13179
코스	-13180
▁마산	-13181
▁저렴한	-13182
▁캐릭터들의	-13183
▁Mag	-13184
리타	-13185
무로	-13186
▁찔러	-13187
니아의	-13188
▁1978	-13189
▁부탁을	-13190
운이	-13191
▁중지	-13192
▁보냈다	-13193
▁성향을	-13194
▁한국은	-13195
▁현재도	-13196
▁미소녀	-13197
▁있음에도	-13198
▁인챈	-13199
▁리처	-13200
▁운송	-13201
▁엽	-13202
▁안개	-13203
적이지	-13204
▁디버프	-13205
▁트리비아	-13206
결과	-13207
▁카가	-13208
▁터지는	-13209
-07	-13210
▁장본	-13211
▁목적은	-13212
▁전략을	-13213
▁지구의	-13214
때도	-13215
me	-13216
▁이빨	-13217
형인	-13218
▁저하	-13219
▁쿨다운	-13220
▁호러	-13221
▁한국판	-13222
▁갯	-13223
연맹	-13224
▁할아버지	-13225
▁눈동	-13226
▁쓰리	-13227
▁식민지	-13228
▁이천	-13229
민족	-13230
▁GSL	-13231
▁시작부터	-13232
▁대상에게	-13233
▁본토	-13234
으려면	-13235
▁툭	-13236
▁레시피	-13237
키스	-13238
월호	-13239
▁아유	-13240
제작	-13241
▁등장은	-13242
해라	-13243
▁노말	-13244
▁숨을	-13245
▁구간을	-13246
▁일어난다	-13247
▁덕분	-13248
▁예고편	-13249
▁모아서	-13250
▁토키	-13251
▁향후	-13252
▁팡	-13253
레옹	-13254
▁밀고	-13255
▁안고	-13256
파일	-13257
운동장	-13258
우스가	-13259
▁레이싱	-13260
트론	-13261
▁자를	-13262
렸으나	-13263
▁목적이	-13264
▁4:	-13265
맥스	-13266
▁BGA	-13267
플로	-13268
▁90%	-13269
▁방식은	-13270
텍스	-13271
▁밀리언	-13272
▁영원한	-13273
XX	-13274
▁터진	-13275
▁실용	-13276
▁유언	-13277
디와	-13278
▁공부를	-13279
~7	-13280
.75	-13281
출을	-13282
▁전당	-13283
▁무엇을	-13284
▁산하	-13285
▁얼티밋	-13286
▁모두에게	-13287
되서	-13288
▁페어리	-13289
reak	-13290
▁닐	-13291
▁귀국	-13292
기다	-13293
성한	-13294
▁동계	-13295
▁철도역	-13296
▁본래는	-13297
▁국도	-13298
▁공이	-13299
▁.4	-13300
하더니	-13301
ME	-13302
3%	-13303
동시	-13304
▁변한다	-13305
량과	-13306
▁그란	-13307
하기까지	-13308
▁헨리	-13309
▁모험가	-13310
출연	-13311
yn	-13312
▁z	-13313
~1	-13314
▁고맙	-13315
▁갔다가	-13316
▁둘이서	-13317
▁전과	-13318
▁이글스	-13319
▁규격	-13320
▁얄	-13321
공에	-13322
현과	-13323
▁대해선	-13324
▁사망했다	-13325
▁목표를	-13326
▁위상	-13327
공주	-13328
▁우회	-13329
▁피닉스	-13330
▁토크	-13331
▁지구를	-13332
쿠의	-13333
▁PK	-13334
▁막강한	-13335
▁학생들의	-13336
▁복장	-13337
▁에일	-13338
해져서	-13339
▁어드밴	-13340
▁이름만	-13341
▁급격히	-13342
▁굶	-13343
▁드러난	-13344
▁소환한다	-13345
녀의	-13346
들한테	-13347
▁통틀어	-13348
▁배역	-13349
▁비공식	-13350
▁주장했다	-13351
해버렸다	-13352
▁업그레이드를	-13353
▁썸	-13354
▁입는다	-13355
▁니가	-13356
▁슬퍼	-13357
▁모두의	-13358
들어가	-13359
▁에밀	-13360
▁없어진	-13361
▁3%	-13362
▁단위	-13363
▁이용객	-13364
▁철갑	-13365
oot	-13366
▁화살을	-13367
▁되었던	-13368
▁이진	-13369
▁올해	-13370
▁많다는	-13371
▁어렵게	-13372
리칸	-13373
▁레이블	-13374
▁참모	-13375
방식	-13376
환은	-13377
▁와타나베	-13378
▁고성능	-13379
▁생명의	-13380
▁용도	-13381
▁합리	-13382
할만한	-13383
모션	-13384
▁CL	-13385
▁센트	-13386
▁비스트	-13387
층을	-13388
탄은	-13389
▁웨이브	-13390
▁영향력을	-13391
프레임	-13392
▁가이드	-13393
▁보자면	-13394
범이	-13395
▁영양	-13396
▁섬광	-13397
▁대부분이다	-13398
▁세레	-13399
▁전쟁에	-13400
맨은	-13401
▁210	-13402
▁학교의	-13403
▁AL	-13404
▁자책	-13405
▁무방하다	-13406
▁별개의	-13407
▁아비	-13408
▁버전의	-13409
구조	-13410
▁속해	-13411
▁이세계	-13412
그래도	-13413
거의	-13414
▁홍진	-13415
▁비판이	-13416
▁약하다	-13417
▁블럭	-13418
▁둘러보기	-13419
▁적힌	-13420
▁전담	-13421
▁면도	-13422
▁엠블	-13423
▁모양이	-13424
ings	-13425
▁1.4	-13426
▁팀에서	-13427
▁강하고	-13428
▁멤버들은	-13429
▁노선은	-13430
패턴	-13431
▁추세	-13432
▁피오	-13433
▁1200	-13434
▁산타	-13435
▁컨디션	-13436
▁노린	-13437
형과	-13438
▁상대하기	-13439
시내	-13440
▁평소에	-13441
왔다고	-13442
▁뿐이지	-13443
▁라이트닝	-13444
▁시의	-13445
▁공간을	-13446
▁1945	-13447
▁플라스	-13448
▁아랫	-13449
우에게	-13450
▁쓰기도	-13451
▁원래대로	-13452
▁미사일을	-13453
▁주저	-13454
편으로	-13455
▁두드러	-13456
▁공격적인	-13457
▁토시	-13458
▁전동차	-13459
▁팀으로	-13460
바는	-13461
▁너도	-13462
▁이래저래	-13463
▁악화	-13464
▁발견된	-13465
▁아키라	-13466
플라이	-13467
렸으며	-13468
▁모인	-13469
▁비서	-13470
▁소꿉	-13471
▁시범	-13472
▁탔	-13473
집에서	-13474
▁표정이	-13475
▁기부	-13476
▁0%	-13477
▁노력을	-13478
량에	-13479
▁모드가	-13480
05	-13481
▁믿지	-13482
▁샤오	-13483
▁반란을	-13484
cc	-13485
▁포장	-13486
음의	-13487
▁뚜렷	-13488
▁내렸다	-13489
피의	-13490
▁도우	-13491
▁오노	-13492
▁도덕	-13493
▁수호자	-13494
▁전작과	-13495
▁마친	-13496
▁정석	-13497
▁아래와	-13498
▁패자	-13499
▁티저	-13500
▁소원을	-13501
▁맡는	-13502
▁두는	-13503
▁특징을	-13504
▁아쉽게도	-13505
▁몸통	-13506
▁+20	-13507
▁제치고	-13508
▁기록하고	-13509
▁Black	-13510
▁냉장	-13511
▁미러	-13512
▁뚱	-13513
▁이동할	-13514
▁조사를	-13515
▁신경쓰지	-13516
▁장난감	-13517
▁표현이	-13518
▁인도네시아	-13519
▁도감	-13520
▁부실	-13521
급은	-13522
▁중소	-13523
▁차이나	-13524
제도	-13525
/7	-13526
▁여자를	-13527
▁상대하는	-13528
▁멈춰	-13529
▁감옥에	-13530
되었다가	-13531
▁어머니를	-13532
▁버스트	-13533
▁마족	-13534
▁신을	-13535
▁모션이	-13536
인민	-13537
다시피	-13538
▁부담이	-13539
▁상황에서도	-13540
코인	-13541
미디어	-13542
어버렸다	-13543
바다	-13544
볼넷	-13545
▁벗겨	-13546
▁이도	-13547
▁자료를	-13548
BL	-13549
▁전대	-13550
▁받아야	-13551
버스가	-13552
▁도시의	-13553
이에게	-13554
요한	-13555
▁면허	-13556
▁뛰어들	-13557
▁작품에서	-13558
▁짓는	-13559
▁점에	-13560
▁궤도	-13561
▁하긴	-13562
ECT	-13563
돼서	-13564
▁공격력과	-13565
등록	-13566
안전	-13567
▁세계대전	-13568
▁그도	-13569
▁독보	-13570
▁거점	-13571
▁했다가	-13572
▁나폴레옹	-13573
▁들어보면	-13574
▁보여주면서	-13575
▁여론이	-13576
▁후술할	-13577
▁이르는	-13578
애니	-13579
▁도대체	-13580
초부터	-13581
FL	-13582
애를	-13583
워하는	-13584
▁규모의	-13585
토에게	-13586
▁돌아올	-13587
▁간파	-13588
▁국경	-13589
▁컴뱃	-13590
▁오른손	-13591
하신	-13592
▁트랩	-13593
▁-10	-13594
▁will	-13595
▁인간과	-13596
▁테이블	-13597
▁창을	-13598
-02	-13599
▁총선	-13600
▁어벤져	-13601
훈은	-13602
▁상승한다	-13603
▁장타	-13604
▁밀레	-13605
▁복사	-13606
▁여기까지	-13607
▁츠쿠	-13608
구분	-13609
▁노인	-13610
▁친다	-13611
▁쓰이지	-13612
▁운동을	-13613
86	-13614
▁다리가	-13615
▁필요로	-13616
BT	-13617
▁룸	-13618
▁주의하자	-13619
무지	-13620
▁정답	-13621
▁좌익	-13622
▁캣	-13623
▁실내	-13624
▁파동	-13625
▁오죽하면	-13626
▁전력이	-13627
▁like	-13628
▁노란색	-13629
▁소규모	-13630
수에게	-13631
전선	-13632
▁얌	-13633
▁야구장	-13634
oul	-13635
▁CR	-13636
▁배리어	-13637
들여	-13638
▁공업	-13639
▁맵을	-13640
▁페르소나	-13641
▁뺨	-13642
▁막혀	-13643
▁진행할	-13644
▁본다면	-13645
▁이리저리	-13646
▁포착	-13647
▁약점이	-13648
▁발사하는	-13649
▁보너스를	-13650
IK	-13651
▁확인되었다	-13652
▁마찰	-13653
▁꿈꾸	-13654
▁음료	-13655
라운드에서	-13656
▁지루	-13657
▁돔	-13658
리시	-13659
▁노릇	-13660
▁단장	-13661
법의	-13662
▁계단	-13663
▁고대의	-13664
▁바랍니다	-13665
중이	-13666
▁그렇듯	-13667
링은	-13668
오게	-13669
▁녀석이	-13670
▁속도는	-13671
▁제발	-13672
▁메디	-13673
▁TOP	-13674
▁오르는	-13675
▁것이지	-13676
▁대피	-13677
▁세우	-13678
▁덧붙여	-13679
▁오퍼	-13680
▁문제도	-13681
▁껴	-13682
▁재능을	-13683
▁1.6	-13684
량도	-13685
▁Gl	-13686
▁MM	-13687
▁법무	-13688
▁순환	-13689
▁Gaming	-13690
파에	-13691
ody	-13692
ater	-13693
▁홋카이도	-13694
레븐	-13695
▁아쿠아	-13696
▁주무	-13697
▁와중에도	-13698
▁낯	-13699
터에	-13700
▁오게	-13701
▁따위	-13702
석과	-13703
▁철저하게	-13704
좋게	-13705
▁타카하시	-13706
카게	-13707
▁완공	-13708
▁대기업	-13709
그의	-13710
▁입에	-13711
▁목소리로	-13712
동맹	-13713
되어야	-13714
▁방영된	-13715
▁tv	-13716
▁교복	-13717
▁보이기	-13718
각의	-13719
▁권한	-13720
▁경기력을	-13721
▁고사	-13722
▁1.0	-13723
▁자아	-13724
▁말고도	-13725
▁천하	-13726
▁국어	-13727
▁발레	-13728
▁설정은	-13729
▁왓	-13730
▁벌어졌다	-13731
ott	-13732
▁카사	-13733
▁1.8	-13734
▁완벽히	-13735
▁않자	-13736
국인	-13737
▁팬이	-13738
▁가령	-13739
견을	-13740
▁사다	-13741
▁앞으로도	-13742
▁들어가게	-13743
84	-13744
▁첼시	-13745
▁tr	-13746
▁베어스	-13747
ster	-13748
었습니다	-13749
함의	-13750
▁나타났다	-13751
이다가	-13752
AND	-13753
▁다르지만	-13754
쓰고	-13755
▁스바	-13756
▁이듬	-13757
▁절벽	-13758
▁플레이버	-13759
▁남지	-13760
▁살게	-13761
▁드러내	-13762
▁싶어서	-13763
▁제왕	-13764
ould	-13765
르도	-13766
▁9.	-13767
▁마스코	-13768
▁폭로	-13769
▁이라크	-13770
▁믹	-13771
▁맞았다	-13772
▁환생	-13773
비한	-13774
▁1973	-13775
▁수준은	-13776
▁바론	-13777
리스크	-13778
▁레벨업	-13779
▁아마추어	-13780
▁있어서는	-13781
▁나뉜다	-13782
쓰는	-13783
▁김일	-13784
▁쳐서	-13785
▁모의	-13786
말이	-13787
회로	-13788
실점을	-13789
▁곤충	-13790
▁초능력	-13791
▁늪	-13792
▁ver	-13793
▁시대를	-13794
▁감추	-13795
▁so	-13796
ions	-13797
▁늘어났다	-13798
운수	-13799
▁원주민	-13800
▁보낸다	-13801
▁운영을	-13802
▁공감	-13803
▁사정이	-13804
▁김병	-13805
▁리자	-13806
▁이동하는	-13807
▁계략	-13808
▁영웅의	-13809
▁트랜스포	-13810
▁따르	-13811
▁행방	-13812
▁학생이	-13813
▁상대방을	-13814
▁착륙	-13815
▁겪은	-13816
...?	-13817
자료	-13818
▁능력과	-13819
▁iOS	-13820
▁하나에	-13821
절이	-13822
리코	-13823
▁읽고	-13824
▁트럼프	-13825
조한	-13826
▁사악한	-13827
▁하츠네	-13828
센스	-13829
▁Gu	-13830
▁대포	-13831
▁떡밥이	-13832
▁모빌	-13833
더는	-13834
립스	-13835
고교	-13836
▁공원	-13837
▁에미	-13838
▁유학	-13839
▁도망가	-13840
cl	-13841
▁못했지만	-13842
▁오류가	-13843
▁금강	-13844
▁루머	-13845
ws	-13846
▁추리	-13847
▁국가가	-13848
▁아사히	-13849
▁성공적으로	-13850
▁법을	-13851
보에	-13852
▁나기	-13853
▁안젤	-13854
▁유지하는	-13855
사이어	-13856
▁주변을	-13857
▁투기	-13858
▁헤드샷	-13859
▁Let	-13860
▁미국은	-13861
▁만나서	-13862
▁달콤	-13863
▁정황상	-13864
▁대쉬	-13865
▁힘은	-13866
▁공중에	-13867
mmer	-13868
견이	-13869
▁중화민	-13870
▁직선	-13871
계와	-13872
▁내며	-13873
▁능력치를	-13874
▁짝사랑	-13875
었기에	-13876
념을	-13877
▁불리며	-13878
▁혼혈	-13879
희를	-13880
▁즈음	-13881
▁다루고	-13882
▁사용되었다	-13883
▁로스트	-13884
의의	-13885
alk	-13886
▁시가	-13887
조와	-13888
▁로우	-13889
▁테크닉	-13890
▁선진	-13891
▁빌리	-13892
니혼	-13893
▁나눈	-13894
▁박아	-13895
▁쉽고	-13896
▁없었을	-13897
▁작가는	-13898
▁무료로	-13899
▁수비력	-13900
▁지켜보	-13901
전에서도	-13902
ICE	-13903
▁Do	-13904
간이	-13905
▁케리	-13906
▁밈	-13907
헤이	-13908
▁필요할	-13909
▁At	-13910
모어	-13911
▁김윤	-13912
▁특징은	-13913
▁덱에	-13914
오면서	-13915
▁포텐	-13916
▁짬	-13917
▁움직이지	-13918
▁암시	-13919
▁판다	-13920
시민	-13921
▁부자	-13922
▁2017-11	-13923
▁의사를	-13924
▁예약	-13925
드에게	-13926
형에	-13927
▁딜이	-13928
▁길다	-13929
만명	-13930
▁공헌	-13931
▁눈으로	-13932
▁운수사	-13933
서버	-13934
▁Min	-13935
▁베지	-13936
▁상위권	-13937
한정	-13938
▁트로피	-13939
▁해소	-13940
소모	-13941
혁이	-13942
▁드론	-13943
▁상대방이	-13944
▁FM	-13945
▁마지	-13946
▁저승	-13947
▁특이사항	-13948
▁덤벼	-13949
▁무제한	-13950
▁아이들	-13951
▁종류가	-13952
▁빨간색	-13953
▁버프가	-13954
▁이타	-13955
해선	-13956
▁비판하는	-13957
▁보편	-13958
▁방에서	-13959
볼트	-13960
▁원작에서	-13961
▁벤치	-13962
▁나비	-13963
▁장탄수	-13964
▁모음	-13965
가족	-13966
시스코	-13967
▁하나같이	-13968
▁토미	-13969
지옥	-13970
▁우유	-13971
▁인간은	-13972
▁재수	-13973
▁피니	-13974
할지	-13975
▁친애도	-13976
▁칭호	-13977
▁가히	-13978
▁전인	-13979
▁스테이	-13980
▁적용되는	-13981
▁모양으로	-13982
지던	-13983
▁소속으로	-13984
마력	-13985
▁그루	-13986
▁맡겨	-13987
▁지원한다	-13988
▁종영	-13989
▁기관단	-13990
▁정책을	-13991
▁서바이벌	-13992
▁두꺼	-13993
▁시공	-13994
▁주인공으로	-13995
행위	-13996
신에	-13997
▁통하여	-13998
관계가	-13999
▁방식이다	-14000
▁워커	-14001
▁실린	-14002
▁강렬한	-14003
▁경부	-14004
▁무대에	-14005
▁중동	-14006
▁노는	-14007
▁단점은	-14008
▁축구선수	-14009
▁출동	-14010
▁시험을	-14011
▁비밀을	-14012
▁큐어	-14013
ty	-14014
▁알려준다	-14015
▁답게	-14016
▁수감	-14017
▁다카	-14018
▁운수사명	-14019
▁쳐도	-14020
▁부대를	-14021
79	-14022
▁쳐다	-14023
UR	-14024
▁선택을	-14025
▁대책	-14026
▁발생했다	-14027
군주	-14028
활약	-14029
▁논쟁	-14030
▁가져가	-14031
▁콘스탄	-14032
YP	-14033
학부	-14034
▁듣지	-14035
▁캐릭터인	-14036
▁Co	-14037
▁고아	-14038
▁기간이	-14039
▁이루어졌다	-14040
따라	-14041
▁개가	-14042
▁사우스	-14043
고와	-14044
▁만주	-14045
▁항공기	-14046
▁섬멸	-14047
6%	-14048
▁얼마든지	-14049
▁국내에서는	-14050
즈카	-14051
▁예전에는	-14052
올라	-14053
▁병살	-14054
▁구조를	-14055
▁가면을	-14056
▁아이템은	-14057
▁예쁜	-14058
코치	-14059
▁엉뚱	-14060
▁이소	-14061
▁주황	-14062
차기	-14063
▁조커	-14064
▁후유	-14065
▁주입	-14066
ann	-14067
▁워프	-14068
련을	-14069
eng	-14070
▁아버지인	-14071
▁부분도	-14072
▁당연하지만	-14073
롭게도	-14074
▁원문	-14075
▁초청	-14076
▁돌아온다	-14077
▁이듬해	-14078
▁조종하는	-14079
타워	-14080
▁상술한	-14081
▁맞추는	-14082
▁있어요	-14083
▁치러	-14084
▁백작	-14085
▁누르고	-14086
▁올라오는	-14087
▁포지션을	-14088
레이트	-14089
▁극초	-14090
▁부스트	-14091
▁불과하다	-14092
▁연구소	-14093
▁토대로	-14094
▁눈의	-14095
▁레이븐	-14096
▁보러	-14097
▁초과	-14098
류는	-14099
▁아아	-14100
▁RE	-14101
▁마법으로	-14102
▁작중에서는	-14103
▁작아	-14104
▁위험이	-14105
▁앤드	-14106
▁터보	-14107
▁조명	-14108
▁희망을	-14109
▁디스플레이	-14110
편은	-14111
▁자율	-14112
▁최정	-14113
되었습니다	-14114
▁타운	-14115
82	-14116
▁겟	-14117
▁유저의	-14118
▁실려	-14119
▁바리에이션	-14120
▁힘에	-14121
▁러시아의	-14122
▁찬성	-14123
▁손상	-14124
▁상단	-14125
▁인류의	-14126
ㅋㅋ	-14127
▁트러	-14128
▁되어버린	-14129
▁두번	-14130
▁만들어졌다	-14131
▁반도	-14132
▁직행	-14133
▁가족을	-14134
▁따라잡	-14135
▁님	-14136
▁설치되어	-14137
▁플라즈마	-14138
프란	-14139
▁여유가	-14140
▁아담	-14141
▁해준	-14142
도서관	-14143
▁재미를	-14144
하니까	-14145
풀이	-14146
▁초에	-14147
▁카렌	-14148
▁클리셰	-14149
쳤고	-14150
환경	-14151
▁미코	-14152
▁아그	-14153
차지	-14154
▁너와	-14155
▁나뉘어	-14156
▁유망주	-14157
▁잡는다	-14158
뱅크	-14159
▁기술이다	-14160
▁선호하는	-14161
▁메이지	-14162
▁have	-14163
거가	-14164
▁먹지	-14165
▁만나면	-14166
▁그들	-14167
▁신한	-14168
▁작고	-14169
▁언급을	-14170
▁청춘	-14171
▁1974	-14172
▁대수	-14173
▁비비	-14174
▁바이러스	-14175
▁나왔지만	-14176
조작	-14177
학기	-14178
▁쪽을	-14179
▁사키	-14180
▁엉망	-14181
▁의도적으로	-14182
연패	-14183
▁운영하고	-14184
반에	-14185
▁수립	-14186
▁고립	-14187
▁레온	-14188
▁찾아서	-14189
▁걸리면	-14190
▁올린다	-14191
▁짠	-14192
▁과정이	-14193
▁현황	-14194
▁하늘의	-14195
▁포로	-14196
▁유우키	-14197
▁선수들은	-14198
그리고	-14199
▁그려진	-14200
▁이때부터	-14201
▁잡힌	-14202
▁NT	-14203
▁스태프	-14204
▁모터	-14205
▁발목을	-14206
ins	-14207
▁사이를	-14208
▁이름과	-14209
▁모른다는	-14210
때까지	-14211
택이	-14212
▁순간이동	-14213
증가	-14214
-06	-14215
게이지	-14216
▁조카	-14217
▁태도	-14218
▁인천광역시	-14219
~15	-14220
▁흉내	-14221
두가	-14222
층은	-14223
▁구형	-14224
▁콤보를	-14225
▁이벤트에서	-14226
agon	-14227
▁이명박	-14228
▁죽이지	-14229
구니	-14230
▁치료를	-14231
▁루크	-14232
~"	-14233
▁받았던	-14234
▁밤의	-14235
▁과언이	-14236
스나	-14237
즈로	-14238
▁꿰뚫	-14239
▁터라	-14240
▁많았던	-14241
▁IIDX	-14242
재는	-14243
엔터테인먼트	-14244
▁것들을	-14245
▁Play	-14246
▁[[]]	-14247
▁몰아넣	-14248
▁Time	-14249
▁김두	-14250
▁과격	-14251
▁공간이	-14252
▁서울대학교	-14253
순환	-14254
▁RO	-14255
▁비추	-14256
▁그리는	-14257
▁세컨	-14258
▁스카우트	-14259
리버	-14260
▁충청남도	-14261
▁고집	-14262
▁외계인	-14263
▁특정한	-14264
▁승진	-14265
건은	-14266
▁활약으로	-14267
티콘	-14268
▁중대	-14269
▁타입의	-14270
▁깃털	-14271
▁매각	-14272
꾸로	-14273
ator	-14274
▁평택	-14275
▁다시는	-14276
.21	-14277
에다가	-14278
저우	-14279
▁도쿠	-14280
▁신생	-14281
▁마일	-14282
있기	-14283
▁갈리는	-14284
회장	-14285
우스를	-14286
전도	-14287
▁철학	-14288
▁날아가는	-14289
▁올려주는	-14290
▁내지는	-14291
▁활동이	-14292
▁두뇌	-14293
▁맹독	-14294
▁바꾸고	-14295
불을	-14296
IGH	-14297
▁공대	-14298
▁3.0	-14299
▁남의	-14300
▁방송사	-14301
▁아니냐	-14302
▁잘생	-14303
▁공짜	-14304
▁155	-14305
▁가치를	-14306
▁뭐야	-14307
▁삭제되었다	-14308
▁당대	-14309
▁상당수	-14310
미즈	-14311
오르	-14312
▁백제	-14313
▁태국	-14314
▁버스를	-14315
▁소수의	-14316
▁특수능력	-14317
ange	-14318
▁경험치를	-14319
중국	-14320
▁스탭	-14321
▁넣는다	-14322
▁여자친구	-14323
대수	-14324
상자	-14325
-30	-14326
▁내뱉	-14327
시까지	-14328
바위	-14329
▁반쯤	-14330
▁입히는	-14331
▁초등학생	-14332
▁0.8	-14333
▁관계없이	-14334
▁가사를	-14335
▁상인	-14336
▁줄여서	-14337
나리	-14338
▁어렵고	-14339
▁이용하면	-14340
▁Type	-14341
▁도약	-14342
▁시사	-14343
▁요금	-14344
▁기록하였다	-14345
ict	-14346
▁탄압	-14347
▁1975	-14348
▁한나라당	-14349
▁꾀	-14350
▁달인	-14351
▁어서	-14352
▁창의	-14353
▁탱킹	-14354
년동안	-14355
▁ALL	-14356
▁돌리는	-14357
하자는	-14358
▁각자의	-14359
▁읍	-14360
▁방송이	-14361
▁리버스	-14362
와이	-14363
▁길에	-14364
▁말고는	-14365
▁하인	-14366
▁돼서	-14367
▁호랑이	-14368
▁know	-14369
▁강동	-14370
▁모르겠	-14371
권도	-14372
오르는	-14373
.50	-14374
▁효과도	-14375
▁군수	-14376
▁스윙	-14377
▁탐사	-14378
▁소프트웨어	-14379
자다	-14380
▁꺾고	-14381
▁Ser	-14382
▁시카고	-14383
▁키우는	-14384
▁질주	-14385
▁바르셀로나	-14386
▁박명	-14387
▁현실의	-14388
▁쓰이고	-14389
▁무시할	-14390
▁다행히도	-14391
▁바쿠	-14392
▁가리키는	-14393
▁들어가기	-14394
했으면	-14395
▁근처에서	-14396
UT	-14397
▁산다	-14398
▁유동	-14399
▁Is	-14400
층에서	-14401
▁발생할	-14402
▁먹여	-14403
▁공교	-14404
▁명은	-14405
▁병역	-14406
미르	-14407
기면서	-14408
▁다국어	-14409
▁약칭	-14410
후보	-14411
▁펴	-14412
▁마찬가지다	-14413
▁흐르는	-14414
▁병행	-14415
▁소니	-14416
▁넘어갈	-14417
▁하도	-14418
DP	-14419
▁래퍼	-14420
▁성배	-14421
액을	-14422
▁알기	-14423
▁깊이	-14424
▁김선	-14425
▁조상	-14426
▁요격	-14427
▁못하며	-14428
즈에서	-14429
▁화해	-14430
▁요즘은	-14431
89	-14432
▁멀어	-14433
▁연락을	-14434
이사	-14435
▁있는게	-14436
▁월간	-14437
셨다	-14438
St	-14439
800	-14440
▁만루	-14441
요리	-14442
▁관리를	-14443
▁출산	-14444
▁스코틀랜드	-14445
▁팬들도	-14446
-05	-14447
▁벗어난	-14448
▁탁월	-14449
포와	-14450
▁그나마도	-14451
▁태어났	-14452
▁감각	-14453
▁목이	-14454
▁차체	-14455
▁스위스	-14456
▁해줄	-14457
▁지진	-14458
▁대부분을	-14459
▁112	-14460
▁화폐	-14461
▁나서는	-14462
▁조던	-14463
▁대학생	-14464
▁징역	-14465
~30	-14466
▁한국과	-14467
▁인정하고	-14468
산동	-14469
▁갈색	-14470
▁등장하여	-14471
천을	-14472
▁대구광역시	-14473
클릭	-14474
▁2017-10	-14475
▁민병	-14476
▁이외에는	-14477
▁최연	-14478
▁띄워	-14479
▁선동	-14480
▁앨범을	-14481
▁업무를	-14482
▁담당하고	-14483
피는	-14484
▁슬슬	-14485
노리	-14486
분기	-14487
열에	-14488
▁고장	-14489
▁캡슐	-14490
▁사에	-14491
▁포인트가	-14492
▁진행한다	-14493
▁두루	-14494
ACK	-14495
▁측면에서	-14496
속도를	-14497
티넘	-14498
▁정도에	-14499
▁자기를	-14500
▁플레이하는	-14501
▁Am	-14502
▁때려잡	-14503
▁삼고	-14504
▁Max	-14505
▁유저는	-14506
▁정신적	-14507
▁되었으나	-14508
위치	-14509
▁메세	-14510
▁패치를	-14511
▁작품으로	-14512
호에게	-14513
화하는	-14514
금의	-14515
대결	-14516
▁Im	-14517
돌파	-14518
:05	-14519
▁급행	-14520
▁라면	-14521
▁임진	-14522
▁선을	-14523
▁정해	-14524
▁행복한	-14525
▁흑막	-14526
▁사원	-14527
▁쥐어	-14528
▁마코토	-14529
▁통하는	-14530
▁줌	-14531
▁주머니	-14532
▁어스	-14533
▁뛰어나다	-14534
▁총리	-14535
▁맑	-14536
밴드	-14537
▁무시하는	-14538
▁안전하게	-14539
▁명시	-14540
▁현대의	-14541
▁마운	-14542
▁못하다	-14543
▁일어나지	-14544
▁2:1	-14545
▁아름다	-14546
▁인생을	-14547
▁선봉	-14548
▁맛을	-14549
▁불안한	-14550
▁HE	-14551
▁나에게	-14552
af	-14553
글라	-14554
령은	-14555
▁필사	-14556
▁자리가	-14557
▁전수	-14558
▁바닷	-14559
▁타이틀곡	-14560
▁전라남도	-14561
▁공격시	-14562
천군	-14563
▁맵이	-14564
▁병원에	-14565
▁SSR	-14566
▁로리	-14567
▁리즈	-14568
▁호크	-14569
▁걸릴	-14570
▁고스	-14571
▁무기에	-14572
▁상시	-14573
▁이처럼	-14574
▁pro	-14575
▁일베	-14576
▁추후	-14577
▁미국과	-14578
▁그보다	-14579
▁충격과	-14580
▁프랭크	-14581
▁리부	-14582
▁도깨비	-14583
▁달성했다	-14584
▁모드에서	-14585
▁호감도	-14586
혁명	-14587
▁복선	-14588
▁+15	-14589
▁말하지	-14590
▁대검	-14591
하겠다	-14592
▁톨	-14593
▁전생	-14594
▁두개	-14595
▁컴백	-14596
▁체력과	-14597
▁스테이터	-14598
▁세계가	-14599
인조	-14600
공은	-14601
▁낭비	-14602
▁비정상	-14603
▁시작하였다	-14604
▁찾으러	-14605
▁얼라이언	-14606
▁인권	-14607
▁초록색	-14608
왔는데	-14609
▁간접적으로	-14610
▁마저	-14611
장면	-14612
▁퇴치	-14613
▁프롤로그	-14614
전에는	-14615
▁이후부터	-14616
▁짧아	-14617
▁방패를	-14618
▁지킬	-14619
▁잘만	-14620
▁잡았다	-14621
▁히로시	-14622
▁붙어있는	-14623
▁능력에	-14624
시대의	-14625
▁EV	-14626
오니	-14627
▁여긴	-14628
▁인조	-14629
▁당신을	-14630
문에서	-14631
실험	-14632
▁앨런	-14633
▁불가사의	-14634
▁연결되어	-14635
▁캐릭터이다	-14636
▁동력	-14637
활동을	-14638
▁성격의	-14639
▁상황이라	-14640
쿠스	-14641
스테이션	-14642
들리	-14643
▁보루	-14644
불명의	-14645
▁스나이퍼	-14646
배틀	-14647
▁GM	-14648
해버린다	-14649
배차	-14650
▁지을	-14651
▁드래곤의	-14652
르드	-14653
▁부속	-14654
채를	-14655
:55	-14656
▁지나친	-14657
한지	-14658
슈타인	-14659
▁남자는	-14660
머리를	-14661
▁해당되는	-14662
,000,000	-14663
▁지우	-14664
▁떨어져서	-14665
▁레이디	-14666
▁않던	-14667
▁것에서	-14668
▁하는게	-14669
하임	-14670
네이션	-14671
▁거꾸로	-14672
▁10000	-14673
▁조약	-14674
▁생명을	-14675
▁민주주의	-14676
▁제목으로	-14677
ics	-14678
▁챠	-14679
▁드루이드	-14680
되니	-14681
▁입원	-14682
▁중구	-14683
▁갱신	-14684
▁원피스	-14685
▁청와대	-14686
자들과	-14687
▁키미	-14688
▁Car	-14689
▁크래	-14690
▁4000	-14691
▁정성	-14692
ica	-14693
▁135	-14694
▁바닥을	-14695
▁제작진이	-14696
▁한양	-14697
자이자	-14698
▁차원의	-14699
▁스콜	-14700
▁클리어하면	-14701
차이즈	-14702
▁유탄	-14703
무게	-14704
▁한대	-14705
▁놈이	-14706
▁만난다	-14707
▁명칭을	-14708
▁유니버	-14709
▁자체적으로	-14710
▁섭취	-14711
전부터	-14712
대륙	-14713
래의	-14714
▁퍼펙트	-14715
▁슬픈	-14716
▁스마일	-14717
AA	-14718
▁다니엘	-14719
▁비중을	-14720
▁수여	-14721
▁전개가	-14722
▁수치를	-14723
▁고고	-14724
▁고우	-14725
록을	-14726
▁맵의	-14727
▁오딘	-14728
▁여파로	-14729
층으로	-14730
▁오케	-14731
▁생각에	-14732
▁유닛으로	-14733
▁bl	-14734
▁웃음을	-14735
▁한계를	-14736
하우스	-14737
▁리셋	-14738
▁0.00	-14739
도어	-14740
▁야마모토	-14741
고생	-14742
장군	-14743
▁남한	-14744
▁그마저도	-14745
▁리플렉	-14746
▁일리	-14747
▁친구를	-14748
▁항해	-14749
▁벚	-14750
▁찾아와	-14751
▁니코니코	-14752
▁싸이	-14753
▁상자를	-14754
▁허가	-14755
▁오른팔	-14756
▁차지한	-14757
BB	-14758
▁방위	-14759
▁리뉴얼	-14760
▁역이	-14761
▁원래의	-14762
▁one	-14763
▁우세	-14764
▁언급되는	-14765
▁김도	-14766
▁여캐	-14767
▁의정부	-14768
▁스타워즈	-14769
성에서	-14770
녀를	-14771
▁에레	-14772
신도시	-14773
▁한달	-14774
▁수확	-14775
▁양반	-14776
▁베이비	-14777
▁트윈스	-14778
▁LTE	-14779
▁com	-14780
▁바뀌고	-14781
훈을	-14782
▁ME	-14783
▁줍니다	-14784
▁짓고	-14785
수인	-14786
▁제니	-14787
▁멀리서	-14788
▁자켓	-14789
▁많다고	-14790
▁정준	-14791
▁오렌지	-14792
사라	-14793
우드	-14794
▁이단	-14795
▁근원	-14796
▁알아차	-14797
▁내버려	-14798
▁도배	-14799
▁일본군	-14800
어버릴	-14801
연은	-14802
▁수비를	-14803
▁자신들을	-14804
▁창작물	-14805
▁느끼게	-14806
▁사과를	-14807
8%	-14808
률은	-14809
▁사랑에	-14810
▁시선을	-14811
▁힘들고	-14812
▁밥을	-14813
화되었다	-14814
그마	-14815
▁없어졌다	-14816
▁450	-14817
▁킷	-14818
▁1976	-14819
제품	-14820
▁죠죠	-14821
리에서	-14822
▁떠났다	-14823
그라운드	-14824
▁걷어	-14825
▁솔직히	-14826
▁지내는	-14827
사다	-14828
▁성의	-14829
▁황태	-14830
▁인원이	-14831
▁-5	-14832
▁앞세	-14833
▁쪽의	-14834
▁격퇴	-14835
▁피난	-14836
경기에	-14837
▁본체	-14838
▁주니	-14839
▁소환하는	-14840
코로	-14841
▁--	-14842
▁시킨	-14843
▁저스티	-14844
▁TP	-14845
▁팬들을	-14846
▁건가	-14847
▁탐지	-14848
룡이	-14849
▁높지만	-14850
▁심히	-14851
마리를	-14852
▁이카	-14853
됨에	-14854
▁1/3	-14855
▁진격	-14856
▁맡는다	-14857
▁맡았던	-14858
리프	-14859
▁노골	-14860
▁강탈	-14861
▁feat	-14862
▁곳도	-14863
▁호날	-14864
▁플러스	-14865
▁근처의	-14866
▁점검	-14867
▁어찌보면	-14868
wh	-14869
▁빨아	-14870
▁때문인	-14871
▁몰아붙	-14872
미션	-14873
전까지	-14874
▁시작하면서	-14875
▁유즈	-14876
년식	-14877
▁WH	-14878
▁자고	-14879
▁방심	-14880
▁국제공항	-14881
사구	-14882
▁OF	-14883
▁정교	-14884
▁테오	-14885
▁않겠	-14886
▁협동	-14887
▁수인	-14888
▁프로그래	-14889
▁무지개	-14890
레타	-14891
▁사치	-14892
▁무용	-14893
▁일러스트레이터	-14894
▁운행하는	-14895
▁소집	-14896
▁일컫	-14897
초마다	-14898
▁고마워	-14899
▁무작정	-14900
▁헬리	-14901
▁상관없	-14902
▁미남	-14903
▁145	-14904
항을	-14905
▁농업	-14906
▁당시엔	-14907
▁별명은	-14908
▁소원	-14909
▁친구인	-14910
▁꼴찌	-14911
▁당초	-14912
▁나라가	-14913
▁1972	-14914
▁언급했다	-14915
수준	-14916
▁빈틈	-14917
eep	-14918
▁얻지	-14919
일때	-14920
▁보강	-14921
▁마지막까지	-14922
▁맞물	-14923
▁너클	-14924
▁태양의	-14925
▁시기가	-14926
▁보스의	-14927
▁수업을	-14928
▁데려가	-14929
▁피하는	-14930
▁노부나가	-14931
▁발매한	-14932
:35	-14933
▁바닐	-14934
▁Sun	-14935
락의	-14936
▁연습을	-14937
▁못한다는	-14938
례가	-14939
▁갖는	-14940
▁마케팅	-14941
두에	-14942
▁극대화	-14943
▁유사하다	-14944
▁띄는	-14945
▁물의	-14946
▁박종	-14947
▁AB	-14948
게요	-14949
▁카피	-14950
▁써먹을	-14951
▁군의	-14952
▁GTA	-14953
안으로	-14954
▁프로야구	-14955
▁크롬	-14956
▁내려가	-14957
▁중국에서	-14958
▁캠프	-14959
▁급속	-14960
▁호응	-14961
▁미끼	-14962
▁향한다	-14963
전용	-14964
하와	-14965
▁유연	-14966
▁메트로	-14967
▁이어가	-14968
~200	-14969
▁싱가포르	-14970
▁쳤다	-14971
▁Don	-14972
▁가깝게	-14973
▁영혼이	-14974
▁스타일의	-14975
▁친절	-14976
골로	-14977
▁검정	-14978
▁채찍	-14979
▁이루는	-14980
▁기를	-14981
▁사슬	-14982
주공	-14983
▁무너뜨	-14984
▁심하다	-14985
▁시리즈와	-14986
모와	-14987
▁아폴	-14988
▁알렉스	-14989
▁기지를	-14990
문과	-14991
마법사	-14992
▁인물들이	-14993
아슬	-14994
▁의아	-14995
▁재발	-14996
▁소속된	-14997
그런	-14998
테오	-14999
▁호감을	-15000
처가	-15001
파인	-15002
▁김성근	-15003
▁객관	-15004
▁발탁	-15005
▁수술을	-15006
▁운명을	-15007
▁지식을	-15008
▁속성의	-15009
우로	-15010
▁오늘도	-15011
여야	-15012
83	-15013
▁재산	-15014
▁out	-15015
gr	-15016
▁조립	-15017
▁준결승	-15018
▁과시	-15019
▁모욕	-15020
음과	-15021
▁다짐	-15022
▁일각	-15023
▁사직	-15024
해보자	-15025
▁제너	-15026
▁행정구역	-15027
루트	-15028
▁날린	-15029
▁도는	-15030
▁뽑은	-15031
▁대량으로	-15032
▁1977	-15033
▁미라이	-15034
▁오더	-15035
▁진지한	-15036
▁글자	-15037
▁스칼	-15038
▁묻혀	-15039
▁나란히	-15040
▁유격수	-15041
▁공교롭게도	-15042
▁마을에서	-15043
TA	-15044
개와	-15045
▁주어진	-15046
▁떼어	-15047
효과를	-15048
맨과	-15049
▁돌아오는	-15050
▁무색	-15051
▁원곡	-15052
주기도	-15053
▁놀랍게도	-15054
필로그	-15055
놀이	-15056
물과	-15057
use	-15058
▁장인	-15059
▁히로시마	-15060
▁인텔	-15061
▁가라앉	-15062
▁트랜스포머	-15063
▁비참	-15064
▁안하고	-15065
▁쓰러져	-15066
▁하이드	-15067
4%	-15068
▁회사가	-15069
▁윈드	-15070
파이트	-15071
▁최종보	-15072
▁남양	-15073
▁다른데	-15074
이는데	-15075
▁놀러	-15076
▁발표한	-15077
패가	-15078
▁어디에	-15079
중을	-15080
▁붙어서	-15081
▁물품	-15082
▁여기고	-15083
▁걸맞게	-15084
▁주제로	-15085
▁물고기	-15086
▁적용되지	-15087
에의	-15088
▁났다	-15089
▁특공	-15090
▁섬에	-15091
명에게	-15092
▁원인은	-15093
왕과	-15094
▁리본	-15095
▁직책	-15096
▁소노	-15097
▁스토리는	-15098
▁다투	-15099
사이즈	-15100
▁차이점	-15101
▁강력하다	-15102
미아	-15103
▁어레인지	-15104
▁보이게	-15105
▁이름인	-15106
▁총선거	-15107
▁디렉	-15108
▁있을지	-15109
▁유니버스	-15110
▁괴로워	-15111
▁문서의	-15112
▁자이언트	-15113
▁진행되었다	-15114
▁연동	-15115
▁Ste	-15116
▁판매하는	-15117
대구	-15118
▁어긋	-15119
▁오가	-15120
▁혐의로	-15121
▁사전에	-15122
▁플레임	-15123
▁수록되었다	-15124
▁체육관	-15125
▁강서	-15126
였다면	-15127
▁타다	-15128
▁전장에	-15129
▁건다	-15130
상태가	-15131
▁165	-15132
les	-15133
된다면	-15134
스럽다	-15135
놨다	-15136
▁폐허	-15137
▁필드의	-15138
▁다름아닌	-15139
▁점심	-15140
▁리바	-15141
▁동맹을	-15142
▁집계	-15143
▁이광	-15144
▁브레이브	-15145
▁멀쩡한	-15146
측의	-15147
▁효율을	-15148
▁망치	-15149
▁블랙홀	-15150
▁전제	-15151
술이	-15152
▁소생	-15153
▁응급	-15154
▁최전	-15155
▁양자	-15156
▁설치된	-15157
▁일꾼	-15158
▁가로막	-15159
▁맞추면	-15160
내면	-15161
:25	-15162
▁역이다	-15163
▁확신	-15164
▁사람들과	-15165
▁순천	-15166
캠퍼스	-15167
▁기호	-15168
▁오늘은	-15169
판에선	-15170
▁NEW	-15171
87	-15172
재료	-15173
정지	-15174
리아와	-15175
테의	-15176
▁Of	-15177
▁머릿	-15178
▁논란을	-15179
벌을	-15180
▁SA	-15181
▁이방	-15182
간을	-15183
리치	-15184
▁부끄러	-15185
▁먹기	-15186
▁성씨	-15187
▁찬양	-15188
형제	-15189
▁IP	-15190
▁깨고	-15191
▁안산	-15192
▁정신나간	-15193
▁않음	-15194
▁동료가	-15195
▁각인	-15196
▁줄어든	-15197
▁방송국	-15198
▁사용을	-15199
당에서	-15200
▁도전과	-15201
▁텍사	-15202
▁벅	-15203
▁존재하는데	-15204
세계의	-15205
▁에메랄	-15206
▁지시를	-15207
▁캘리포	-15208
▁거뒀	-15209
▁진행했다	-15210
▁본관	-15211
▁High	-15212
▁어시스트	-15213
▁Your	-15214
▁디자이너	-15215
▁내용으로	-15216
▁중에선	-15217
운을	-15218
▁감금	-15219
▁트랜스	-15220
▁배수	-15221
▁스텔스	-15222
▁하후	-15223
▁문서에	-15224
▁패키지	-15225
▁적재	-15226
▁지붕	-15227
▁해보	-15228
▁쿵	-15229
▁본진	-15230
▁붙었다	-15231
▁성폭	-15232
rain	-15233
▁향하는	-15234
▁기다리는	-15235
▁표정으로	-15236
▁성사	-15237
▁폴리	-15238
▁서기	-15239
해방	-15240
▁폭스	-15241
▁것이니	-15242
▁Sw	-15243
▁몇번	-15244
▁번이나	-15245
▁was	-15246
▁검토	-15247
▁샘플	-15248
▁연산	-15249
사들이	-15250
▁설명하는	-15251
사무소	-15252
▁읽을	-15253
▁실험을	-15254
글이	-15255
▁마술사	-15256
▁지팡이	-15257
▁위치하고	-15258
▁국무	-15259
▁시오	-15260
▁변하지	-15261
▁군단의	-15262
▁중학생	-15263
▁증가하고	-15264
▁용산	-15265
▁유비트	-15266
▁SU	-15267
▁깨어난	-15268
▁바람을	-15269
질에	-15270
미트	-15271
하기에는	-15272
칭을	-15273
커로	-15274
▁나타났	-15275
무늬	-15276
▁장비가	-15277
▁기관단총	-15278
▁문서로	-15279
파라	-15280
해버린	-15281
▁밝혀지지	-15282
▁데스티	-15283
▁히라	-15284
르면서	-15285
▁차에	-15286
▁딥	-15287
▁야만	-15288
▁스파르	-15289
▁영화에서	-15290
못해	-15291
루에	-15292
토리얼	-15293
▁영화는	-15294
▁매니아	-15295
▁검증	-15296
▁숨기고	-15297
▁하치	-15298
▁내린다	-15299
▁개명	-15300
▁들어서는	-15301
▁정밀	-15302
▁히사	-15303
▁발명	-15304
▁oh	-15305
▁범위를	-15306
▁역할이	-15307
▁페미니즘	-15308
▁부탁한다	-15309
탕을	-15310
박물	-15311
▁말려	-15312
▁지오	-15313
▁가사가	-15314
▁더러운	-15315
네와	-15316
진흥	-15317
▁맞출	-15318
less	-15319
▁에필로그	-15320
카에게	-15321
IO	-15322
LS	-15323
▁화장실	-15324
▁아슬아슬	-15325
검은	-15326
행성	-15327
▁아이의	-15328
귤러	-15329
▁손해를	-15330
▁근대	-15331
순양함	-15332
▁역할은	-15333
▁다큐멘	-15334
▁최상급	-15335
▁중급	-15336
▁선물을	-15337
▁결제	-15338
린다고	-15339
▁2019.	-15340
▁소통	-15341
▁봐서는	-15342
▁섞인	-15343
▁아타	-15344
▁소금	-15345
장에게	-15346
▁재료를	-15347
ress	-15348
▁보여주기도	-15349
▁저기	-15350
▁훼손	-15351
▁단점을	-15352
BE	-15353
▁행보를	-15354
▁로렌	-15355
▁동정	-15356
▁쉴드	-15357
우타	-15358
▁오리온	-15359
che	-15360
▁고인	-15361
▁마계	-15362
▁탄환	-15363
▁연간	-15364
▁휘하	-15365
▁스쿠	-15366
▁공정	-15367
▁이름이다	-15368
▁오른다	-15369
▁대미지는	-15370
▁아내가	-15371
▁줄어든다	-15372
▁가오	-15373
▁위력은	-15374
▁의혹이	-15375
▁보였고	-15376
귀를	-15377
커녕	-15378
▁변이	-15379
▁받았지만	-15380
▁입사	-15381
▁세웠다	-15382
▁스네	-15383
▁팔레	-15384
▁제약	-15385
▁골프	-15386
▁글래	-15387
▁임기	-15388
▁고의	-15389
▁대통령은	-15390
▁잔류	-15391
▁주거	-15392
▁걸려서	-15393
▁이번에	-15394
놓았다	-15395
01	-15396
적으론	-15397
온은	-15398
나지	-15399
▁생각해서	-15400
작에	-15401
▁치바	-15402
▁암호	-15403
▁게임에서는	-15404
개에	-15405
몬을	-15406
플레	-15407
▁인재	-15408
▁Par	-15409
▁날개를	-15410
▁뺀	-15411
▁좋은데	-15412
▁손잡	-15413
▁시어	-15414
하느라	-15415
▁테마곡	-15416
ANI	-15417
▁원로	-15418
▁컬렉션	-15419
▁과제	-15420
▁크지	-15421
기념	-15422
▁102	-15423
▁비슷하지만	-15424
불능	-15425
여도	-15426
▁노무현	-15427
▁세일러	-15428
org	-15429
리다가	-15430
let	-15431
▁일주일	-15432
마에게	-15433
▁겪고	-15434
▁주력으로	-15435
▁미소를	-15436
▁늘어나고	-15437
▁HARD	-15438
▁내부에서	-15439
살인	-15440
▁학생들을	-15441
▁난무	-15442
버스를	-15443
해주면	-15444
▁읽는다	-15445
▁#000000	-15446
▁GPU	-15447
▁받으면서	-15448
갤러	-15449
▁내기	-15450
▁만났을	-15451
▁담겨	-15452
▁부친	-15453
▁사태를	-15454
내의	-15455
▁영혼의	-15456
▁숙청	-15457
▁드래곤을	-15458
▁두근	-15459
▁세우고	-15460
▁연달아	-15461
라시	-15462
▁산맥	-15463
▁실상은	-15464
▁시점에	-15465
덕션	-15466
▁출석	-15467
▁패스를	-15468
▁견디	-15469
▁실로	-15470
▁쯔	-15471
회관	-15472
▁쓸데없이	-15473
테츠	-15474
▁졸업식	-15475
하겠	-15476
▁성장한	-15477
▁뜻은	-15478
▁Light	-15479
▁출신인	-15480
-21	-15481
▁분대	-15482
▁로테이션	-15483
eF	-15484
▁베를린	-15485
▁뛰는	-15486
▁안드레	-15487
▁입히고	-15488
업체	-15489
기동	-15490
50%	-15491
▁시킬	-15492
▁주워	-15493
▁포터	-15494
▁제작자	-15495
▁대체적으로	-15496
orea	-15497
▁방어를	-15498
금지	-15499
▁무궁	-15500
▁공격수	-15501
▁추가되어	-15502
▁콘셉	-15503
▁유머	-15504
▁금요일	-15505
▁연관이	-15506
▁차로	-15507
▁315	-15508
▁그간	-15509
▁참가한	-15510
▁발급	-15511
▁종로	-15512
▁탈환	-15513
▁Gen	-15514
▁통화	-15515
짓을	-15516
▁마모	-15517
▁이루고	-15518
▁이른다	-15519
▁끝을	-15520
▁알수	-15521
▁얼어붙	-15522
이라고는	-15523
▁쇼크	-15524
마니아	-15525
7%	-15526
삼아	-15527
-22	-15528
▁과도한	-15529
▁세상의	-15530
▁진행이	-15531
직원	-15532
▁원주	-15533
▁아울	-15534
콤보	-15535
▁바이킹	-15536
교도	-15537
▁해변	-15538
▁보였으나	-15539
니버스	-15540
▁치열한	-15541
프스	-15542
ert	-15543
▁볼드	-15544
▁출제	-15545
▁모양새	-15546
규가	-15547
▁우주의	-15548
▁디자인은	-15549
▁트릴	-15550
▁선박	-15551
▁우즈	-15552
▁설마	-15553
▁불릴	-15554
▁103	-15555
▁공식적인	-15556
▁레인보우	-15557
▁근거로	-15558
▁맞추기	-15559
▁출신이다	-15560
중심	-15561
▁어렵다는	-15562
▁영화에	-15563
▁톡	-15564
라니	-15565
▁번갈	-15566
▁식품	-15567
▁서울시	-15568
팩트	-15569
▁유럽의	-15570
수용	-15571
▁살펴보면	-15572
▁시네마	-15573
▁트레이닝	-15574
▁산탄총	-15575
▁이쪽이	-15576
▁방법이다	-15577
진한	-15578
land	-15579
▁1971	-15580
▁수신	-15581
▁투쟁	-15582
작품	-15583
▁차량의	-15584
▁화면이	-15585
▁+10%	-15586
무리	-15587
▁구매할	-15588
oss	-15589
▁가족이	-15590
▁정보는	-15591
▁재학	-15592
어에서	-15593
anna	-15594
▁구하는	-15595
▁시청자들이	-15596
좀무	-15597
크로스	-15598
▁확률은	-15599
▁존재감이	-15600
▁중부	-15601
yout	-15602
▁Red	-15603
BD	-15604
에가	-15605
▁루키	-15606
▁때리는	-15607
▁기준으로는	-15608
▁미루어	-15609
-25	-15610
▁다룰	-15611
스트림	-15612
ring	-15613
▁한층	-15614
▁싫어한다	-15615
▁beat	-15616
▁실패로	-15617
▁표면	-15618
▁하러	-15619
집의	-15620
▁퍼부	-15621
▁소련의	-15622
▁좋아하고	-15623
유는	-15624
▁Ro	-15625
▁업데이트가	-15626
▁날씨	-15627
그대로	-15628
백으로	-15629
ideo	-15630
▁스킬이다	-15631
▁이의	-15632
▁갑옷을	-15633
▁기후	-15634
▁로열	-15635
▁배터	-15636
▁편을	-15637
▁에서는	-15638
▁FPS	-15639
▁캐릭터에	-15640
▁순찰	-15641
▁광고를	-15642
하였다고	-15643
왔을	-15644
▁기쁨	-15645
▁내뿜	-15646
▁가위	-15647
▁디아블로	-15648
▁훈훈	-15649
▁나서서	-15650
▁공격형	-15651
▁자세를	-15652
또한	-15653
.23	-15654
▁아이스크	-15655
사실	-15656
▁키노	-15657
▁한손	-15658
▁상점에서	-15659
마르	-15660
▁성실	-15661
▁BO	-15662
▁집필	-15663
▁발발	-15664
▁컸다	-15665
▁시뮬레이션	-15666
▁다이스케	-15667
유저	-15668
자였던	-15669
▁뱉	-15670
▁아이템으로	-15671
머신	-15672
소수	-15673
▁진출을	-15674
▁스기	-15675
▁협상	-15676
▁득표수	-15677
▁마하	-15678
▁경기의	-15679
▁문제점이	-15680
▁거리에	-15681
▁역할로	-15682
▁전임	-15683
▁드레이	-15684
▁이후엔	-15685
▁진행을	-15686
▁드러나는	-15687
염을	-15688
▁안철	-15689
▁폼이	-15690
명이다	-15691
...!	-15692
▁강화된	-15693
회까지	-15694
▁1/2	-15695
▁내구도	-15696
▁게이지를	-15697
▁CE	-15698
▁츤데레	-15699
▁오세	-15700
▁패배하고	-15701
▁공무	-15702
▁바바	-15703
▁노선으로	-15704
▁안될	-15705
▁정우	-15706
위까지	-15707
ough	-15708
▁설정으로	-15709
링의	-15710
▁폐선	-15711
▁절단	-15712
▁사진은	-15713
▁클라이	-15714
카타	-15715
▁맥주	-15716
▁너에게	-15717
▁넣었다	-15718
려나	-15719
▁편지	-15720
▁주위에	-15721
쿠로	-15722
▁넬	-15723
▁마을버스	-15724
찮게	-15725
▁시즌에는	-15726
▁인정하는	-15727
▁궁합이	-15728
arm	-15729
듯하다	-15730
송이	-15731
▁바란다	-15732
UC	-15733
▁후타	-15734
▁0.6	-15735
~12	-15736
▁움직임이	-15737
▁전체에게	-15738
▁상위호환	-15739
▁존재할	-15740
베르크	-15741
▁관광객	-15742
▁스위치	-15743
▁미녀	-15744
▁후쿠오카	-15745
▁스톡	-15746
9%	-15747
▁명으로	-15748
+0900	-15749
요원	-15750
▁변하는	-15751
랑은	-15752
▁책략	-15753
자리를	-15754
▁앞뒤	-15755
▁후반기	-15756
▁자작	-15757
▁지극	-15758
▁겁니다	-15759
▁키보드	-15760
▁스토리의	-15761
적도	-15762
▁일조	-15763
미스	-15764
부턴	-15765
▁기력	-15766
▁찍었다	-15767
▁필요도	-15768
▁미식	-15769
이서	-15770
▁la	-15771
▁무식	-15772
▁야마다	-15773
▁시작하여	-15774
준은	-15775
ush	-15776
▁부지	-15777
▁혈통	-15778
▁영상은	-15779
▁줄어들었다	-15780
댄다	-15781
▁넉넉	-15782
▁쥰	-15783
가수	-15784
▁우투	-15785
▁현상을	-15786
▁아오이	-15787
▁행동에	-15788
▁밑으로	-15789
attle	-15790
▁몬스터는	-15791
▁펌프	-15792
▁미친듯이	-15793
▁앞을	-15794
▁전광	-15795
당시	-15796
▁구리	-15797
▁죽음에	-15798
▁체력은	-15799
감도	-15800
▁나르	-15801
▁내밀	-15802
▁득표율	-15803
▁발톱	-15804
▁부분의	-15805
▁이전에도	-15806
▁마요	-15807
자로서	-15808
▁휴스턴	-15809
▁MK	-15810
▁성장을	-15811
▁아무렇	-15812
▁말하지만	-15813
가이	-15814
바스	-15815
▁재벌	-15816
▁이르러	-15817
▁깨알	-15818
▁마지막에는	-15819
한게	-15820
▁수시로	-15821
년부터는	-15822
▁버전을	-15823
▁안경을	-15824
▁페이크	-15825
▁맺고	-15826
▁막판	-15827
▁패전	-15828
▁멤버들과	-15829
▁콧	-15830
▁연고	-15831
▁선포	-15832
▁남자를	-15833
▁냅	-15834
▁목욕	-15835
▁분쇄	-15836
▁바라보는	-15837
▁영등	-15838
▁증가하는	-15839
검의	-15840
아스	-15841
광역	-15842
▁스크롤	-15843
▁후쿠시마	-15844
▁뉴질	-15845
▁신전	-15846
▁나루토	-15847
슨을	-15848
▁깔려	-15849
▁서울대	-15850
▁의원이	-15851
미츠	-15852
▁후면	-15853
었으니	-15854
▁최우수	-15855
국제공항	-15856
▁1969	-15857
▁어울리지	-15858
▁리퍼	-15859
▁대학원	-15860
ONE	-15861
▁행동은	-15862
▁재단	-15863
▁강습	-15864
▁내일	-15865
▁붙는다	-15866
▁냥	-15867
▁화면에	-15868
▁자칫	-15869
▁경찰에	-15870
▁빠지고	-15871
▁오자	-15872
▁미묘한	-15873
▁흐름을	-15874
▁오의	-15875
▁사이토	-15876
▁찾지	-15877
▁수단이	-15878
-03	-15879
OID	-15880
▁넣으면	-15881
▁시모	-15882
▁공손	-15883
▁의문의	-15884
빈이	-15885
▁부재	-15886
▁파티를	-15887
/16	-15888
▁엘더	-15889
▁그려져	-15890
▁늘어나는	-15891
▁프레데	-15892
▁엣	-15893
▁더구나	-15894
▁달라진	-15895
▁동성애	-15896
▁Heart	-15897
▁_	-15898
▁취재	-15899
생물	-15900
▁특이하게	-15901
▁오시	-15902
증으로	-15903
▁신곡	-15904
▁신하	-15905
▁리믹스	-15906
레드	-15907
▁아리아	-15908
▁것이지만	-15909
▁해독	-15910
▁하여금	-15911
▁지옥의	-15912
▁최순	-15913
나면	-15914
년과	-15915
▁하지메	-15916
▁택시	-15917
▁메딕	-15918
▁적과	-15919
/+	-15920
임은	-15921
문서	-15922
▁최소한의	-15923
▁일으켰	-15924
답지	-15925
▁필두로	-15926
▁눈빛	-15927
▁다름없는	-15928
▁뚝	-15929
▁수비수	-15930
▁해병대	-15931
▁모른다고	-15932
▁들어온다	-15933
▁그만두	-15934
▁캐릭터들	-15935
호도	-15936
▁Tw	-15937
ret	-15938
▁무도	-15939
▁오비	-15940
▁미칠	-15941
air	-15942
▁되게	-15943
▁대명	-15944
▁원래부터	-15945
롭고	-15946
▁성직	-15947
▁보았다	-15948
거는	-15949
▁돌아간	-15950
▁옵션을	-15951
▁양아	-15952
희와	-15953
▁까마귀	-15954
락이	-15955
▁번씩	-15956
값이	-15957
판매	-15958
▁조치를	-15959
부지	-15960
편성	-15961
▁맹세	-15962
▁화염방	-15963
더라면	-15964
▁성기사	-15965
▁뒤이어	-15966
▁필라	-15967
▁이하로	-15968
▁멀티플레이	-15969
▁걸면	-15970
▁초반의	-15971
▁김연	-15972
▁뿐이었다	-15973
▁종사	-15974
고에서	-15975
▁김천	-15976
▁불길	-15977
▁지선	-15978
웠고	-15979
▁해운	-15980
▁셜	-15981
▁명단	-15982
▁따져	-15983
▁방으로	-15984
▁정글러	-15985
▁카에	-15986
▁떠나는	-15987
▁안보	-15988
▁희대의	-15989
려야	-15990
▁나뭇	-15991
▁챔피언스리그	-15992
토르	-15993
▁열쇠를	-15994
리라는	-15995
▁가득한	-15996
▁옆으로	-15997
▁사람이라면	-15998
▁Mr	-15999
▁엄폐	-16000
▁함재	-16001
▁창립	-16002
▁날에	-16003
▁내리고	-16004
▁오해를	-16005
클레	-16006
▁장제	-16007
호에	-16008
효율	-16009
▁사정을	-16010
▁대니	-16011
▁만만치	-16012
▁유저들에게	-16013
▁괜찮다	-16014
지니어	-16015
▁대중교통	-16016
▁유아	-16017
▁편리	-16018
볼루션	-16019
▁신비한	-16020
▁공격과	-16021
▁직통	-16022
▁냉동	-16023
▁단련	-16024
▁여부를	-16025
▁뻘	-16026
▁타점	-16027
림으로	-16028
▁색상	-16029
▁BEM	-16030
▁부활한	-16031
▁AF	-16032
시켜야	-16033
▁time	-16034
kr	-16035
▁부대가	-16036
▁묘지로	-16037
++	-16038
▁상쇄	-16039
▁지구에	-16040
▁낳은	-16041
▁명탐정	-16042
▁갸	-16043
높은	-16044
▁게르	-16045
우스는	-16046
▁풀고	-16047
▁분할	-16048
▁크리스티	-16049
▁씨가	-16050
▁막판에	-16051
==	-16052
브는	-16053
▁흠좀무	-16054
▁늦은	-16055
▁튜토리얼	-16056
.,	-16057
선지	-16058
▁유지할	-16059
▁하스스톤	-16060
▁Fire	-16061
▁경향	-16062
화도	-16063
▁올라갔다	-16064
▁캘리포니아	-16065
쪽은	-16066
ady	-16067
▁머무	-16068
▁쓸모가	-16069
▁순위가	-16070
▁외야수	-16071
려던	-16072
▁플래티넘	-16073
▁한해	-16074
▁수준을	-16075
▁수천	-16076
▁타르	-16077
▁바람이	-16078
일까	-16079
▁혼다	-16080
▁로스터	-16081
수원	-16082
▁팝픈	-16083
icro	-16084
▁식사를	-16085
▁암컷	-16086
▁퓨처	-16087
▁안전한	-16088
OK	-16089
▁삿	-16090
▁명성	-16091
▁헤라	-16092
▁본의	-16093
▁원형	-16094
보그	-16095
▁중에도	-16096
▁참여했다	-16097
▁그레이드	-16098
▁거칠	-16099
▁조합으로	-16100
▁높기	-16101
▁여기서도	-16102
▁팔이	-16103
년으로	-16104
▁03.	-16105
▁아바타	-16106
▁인질로	-16107
▁사인	-16108
란한	-16109
발에	-16110
▁#2	-16111
▁믿어	-16112
▁Per	-16113
▁빼앗아	-16114
▁정해져	-16115
▁마에	-16116
▁홀드	-16117
함으로서	-16118
▁사회주의	-16119
▁LOVE	-16120
▁한가지	-16121
▁캐릭터와	-16122
▁소우	-16123
▁측에서는	-16124
▁사용하게	-16125
▁DJMAX	-16126
갔지만	-16127
▁않거나	-16128
가인	-16129
레는	-16130
▁러닝	-16131
▁주의를	-16132
▁생각하며	-16133
ru	-16134
였으니	-16135
▁하이브리	-16136
▁만화를	-16137
▁빈번	-16138
▁콤비	-16139
IV	-16140
치도	-16141
▁위치는	-16142
▁수중	-16143
que	-16144
▁젤리	-16145
▁급하게	-16146
▁재능이	-16147
▁트렌	-16148
▁빠지게	-16149
▁하하	-16150
▁119	-16151
▁걸어서	-16152
▁나이를	-16153
기계	-16154
▁담고	-16155
ution	-16156
▁립	-16157
▁빌딩	-16158
격인	-16159
▁브라더	-16160
▁확인하고	-16161
▁중반에	-16162
▁토마스	-16163
▁Kn	-16164
▁순정	-16165
▁팟	-16166
▁드워프	-16167
▁관리자	-16168
▁바뀌면서	-16169
▁가나	-16170
▁조력	-16171
▁활용하는	-16172
▁활약이	-16173
창에	-16174
내는데	-16175
81	-16176
iew	-16177
▁가슴에	-16178
▁쿠니	-16179
▁적에	-16180
▁롬	-16181
랑을	-16182
▁구성원	-16183
▁모드의	-16184
▁생기고	-16185
▁이동속도가	-16186
▁아군에게	-16187
▁츠카	-16188
▁죽이면	-16189
▁극단적으로	-16190
스파	-16191
▁IV	-16192
▁하려는	-16193
▁플라스틱	-16194
▁미하	-16195
▁꿈의	-16196
신문	-16197
▁비아	-16198
▁750	-16199
▁레스토	-16200
▁재빨리	-16201
▁마기	-16202
▁문의	-16203
▁관리하는	-16204
티노	-16205
▁여수	-16206
▁복장을	-16207
▁급식	-16208
▁음향	-16209
▁어느날	-16210
ium	-16211
▁뉘앙	-16212
▁별을	-16213
루타를	-16214
▁떨어지면	-16215
▁너프를	-16216
▁갈등이	-16217
▁버블	-16218
▁나인	-16219
▁조선의	-16220
공학과	-16221
이름	-16222
▁펭귄	-16223
▁보였지만	-16224
▁꿇	-16225
▁빠진다	-16226
▁BEMANI	-16227
욱이	-16228
▁진출에	-16229
▁게스트로	-16230
듈럼	-16231
느냐에	-16232
▁정리한	-16233
▁횟수가	-16234
▁존재하고	-16235
헤드	-16236
▁소스	-16237
▁물건이	-16238
▁암살자	-16239
노래	-16240
▁모던	-16241
야스	-16242
스퍼	-16243
▁이익	-16244
사진	-16245
▁적립	-16246
▁위함	-16247
▁노래는	-16248
▁테러리스트	-16249
스트는	-16250
▁오바	-16251
▁1963	-16252
▁상태에서는	-16253
▁땀	-16254
▁반대하는	-16255
▁엔트리	-16256
기획	-16257
▁코이	-16258
▁클러	-16259
▁귀가	-16260
▁분량	-16261
클래스	-16262
▁혼돈의	-16263
▁등장으로	-16264
초교	-16265
▁요미	-16266
▁사각	-16267
▁원흉	-16268
▁마법이	-16269
▁넘사	-16270
하다며	-16271
▁미션에서	-16272
연대	-16273
▁대의	-16274
▁아레	-16275
▁올림	-16276
시키면서	-16277
니클	-16278
방은	-16279
▁낡	-16280
적이라	-16281
▁박상	-16282
▁배워	-16283
▁Champ	-16284
▁운영기관	-16285
▁타키	-16286
▁내용에	-16287
▁뒤에도	-16288
▁인연이	-16289
▁ES	-16290
▁모으는	-16291
▁인정하지	-16292
▁처리하는	-16293
▁브라우	-16294
▁등장이	-16295
/15	-16296
▁루트를	-16297
▁느껴지는	-16298
▁이준	-16299
tern	-16300
▁캐롤	-16301
▁휴게	-16302
▁BM	-16303
군단	-16304
▁일삼	-16305
▁넘어간	-16306
▁지원이	-16307
▁주기도	-16308
▁Baby	-16309
강이	-16310
▁스트리밍	-16311
▁홍성	-16312
▁뮤탈	-16313
리라고	-16314
▁STR	-16315
▁가격을	-16316
▁같아서	-16317
▁가도	-16318
▁전두	-16319
▁파괴하는	-16320
▁마나를	-16321
▁미국에	-16322
전철	-16323
▁따뜻한	-16324
▁바다에	-16325
▁패스트	-16326
▁탄탄	-16327
▁프랜차이즈	-16328
셔서	-16329
▁구로	-16330
▁나을	-16331
▁북아	-16332
▁적극적인	-16333
,7	-16334
▁수컷	-16335
▁보스전	-16336
▁프로토타입	-16337
▁소녀의	-16338
시나	-16339
▁면적	-16340
술의	-16341
▁엄마가	-16342
▁템플	-16343
▁Em	-16344
▁사람에	-16345
▁무늬	-16346
▁일품	-16347
▁아님	-16348
▁버려진	-16349
▁중앙에	-16350
▁항목에	-16351
▁볶	-16352
시도	-16353
▁본부	-16354
▁개념을	-16355
▁돌연변이	-16356
▁5.0	-16357
▁쓰였다	-16358
▁파일을	-16359
▁평균자책	-16360
▁워터	-16361
▁인문	-16362
▁착지	-16363
▁평창	-16364
▁친목	-16365
▁조이	-16366
▁현실을	-16367
▁가능해	-16368
▁지속시간이	-16369
▁전지	-16370
▁찰나	-16371
▁파격	-16372
▁사랑이	-16373
제일	-16374
▁마가	-16375
▁다름없	-16376
▁예상된다	-16377
▁놀란	-16378
▁1968	-16379
빌딩	-16380
▁프랑스어	-16381
▁미미	-16382
itch	-16383
▁푼	-16384
▁호기	-16385
주택	-16386
▁별이	-16387
▁나레이션	-16388
▁박수	-16389
▁오만	-16390
▁부대의	-16391
▁제공한다	-16392
▁물어보	-16393
▁한글명	-16394
▁광경을	-16395
▁Dark	-16396
▁달러를	-16397
▁자부	-16398
▁교실	-16399
▁해군의	-16400
▁포션	-16401
▁메이커	-16402
▁용자	-16403
▁항공모함	-16404
▁벚꽃	-16405
IE	-16406
▁사용해야	-16407
▁배구	-16408
▁나고야	-16409
▁수준에	-16410
백의	-16411
▁CO	-16412
▁IC	-16413
▁은메달	-16414
▁응답	-16415
news	-16416
▁역관광	-16417
받기	-16418
▁킹덤	-16419
▁군대가	-16420
▁중시	-16421
▁한국이	-16422
▁길로	-16423
▁막지	-16424
림은	-16425
▁Li	-16426
다와	-16427
▁현직	-16428
▁설정에	-16429
▁가능하기	-16430
▁박용	-16431
▁투고	-16432
▁패닉	-16433
▁해주고	-16434
▁개인적인	-16435
▁무녀	-16436
▁합작	-16437
▁나카무라	-16438
▁학사	-16439
gain	-16440
▁현장에서	-16441
▁그녀와	-16442
▁없거나	-16443
▁끝내기	-16444
▁후보에	-16445
▁승급	-16446
테가	-16447
인만큼	-16448
▁갈등을	-16449
밥을	-16450
아르	-16451
회와	-16452
▁대외	-16453
▁부장	-16454
▁Sm	-16455
▁시트	-16456
▁모자를	-16457
▁예수	-16458
워커	-16459
▁불만	-16460
달이	-16461
▁리스크	-16462
쉬가	-16463
▁시야를	-16464
▁오브젝트	-16465
▁그랜	-16466
▁불평	-16467
힙니다	-16468
▁우천	-16469
▁추궁	-16470
▁열린다	-16471
▁풀린	-16472
▁뽐	-16473
▁연막	-16474
▁블래스터	-16475
ors	-16476
▁챔프	-16477
▁박쥐	-16478
▁장면도	-16479
▁나가서	-16480
▁포지션은	-16481
▁박혀	-16482
▁반성	-16483
▁포드	-16484
티는	-16485
광이	-16486
▁계절	-16487
▁나열	-16488
당으로	-16489
▁추모	-16490
▁공립	-16491
▁일일이	-16492
▁남았다	-16493
▁쐐	-16494
▁역사적	-16495
▁넘사벽	-16496
▁EU	-16497
루에서	-16498
▁휴대폰	-16499
▁돌아가기	-16500
▁자신보다	-16501
▁리프	-16502
▁군림	-16503
▁순양함	-16504
▁스탯이	-16505
▁팀명	-16506
팀으로	-16507
▁묘사를	-16508
달의	-16509
▁현금	-16510
▁감소한다	-16511
▁떠났	-16512
▁소득	-16513
▁바로는	-16514
▁절대적인	-16515
▁해가	-16516
끄럽	-16517
▁예의	-16518
▁어느새	-16519
▁외치는	-16520
▁붓	-16521
▁사수	-16522
스크롤	-16523
지에게	-16524
▁불편한	-16525
▁팩션	-16526
▁개발된	-16527
▁기능은	-16528
이팅	-16529
▁NP	-16530
다니며	-16531
답시고	-16532
▁목포	-16533
▁안무	-16534
▁1.7	-16535
▁당선되었다	-16536
하려던	-16537
▁스타일을	-16538
▁발이	-16539
▁범인	-16540
▁온몸	-16541
▁승리한	-16542
▁아카이	-16543
▁자원이	-16544
▁해태	-16545
먹는다	-16546
▁좋았다	-16547
▁윈터	-16548
▁일행에게	-16549
irst	-16550
▁벌어진다	-16551
경과	-16552
▁요구한다	-16553
▁변동	-16554
▁일본을	-16555
▁SCP	-16556
메다	-16557
줘도	-16558
▁쿤	-16559
▁호노	-16560
▁활용한	-16561
▁장치를	-16562
▁모델을	-16563
적이었다	-16564
OCAL	-16565
▁1~3	-16566
▁MO	-16567
▁대답을	-16568
▁장동	-16569
▁대회에	-16570
▁다케	-16571
▁양대	-16572
▁누워	-16573
▁소환한	-16574
▁오쿠	-16575
▁뮤지션	-16576
AE	-16577
▁ADV	-16578
▁돈으로	-16579
▁구체적인	-16580
▁구한	-16581
▁면접	-16582
▁붙이는	-16583
▁이때문에	-16584
red	-16585
론과	-16586
▁후루	-16587
▁우려가	-16588
카제	-16589
https	-16590
▁등장했던	-16591
▁유튜브에	-16592
▁성향의	-16593
vol	-16594
!!!!	-16595
▁오프라인	-16596
▁휴먼	-16597
▁그리하여	-16598
▁카메라를	-16599
파이터	-16600
▁가면서	-16601
▁제품을	-16602
▁생략한다	-16603
▁시리즈에서는	-16604
▁실루	-16605
▁엔진이	-16606
▁들어있는	-16607
캐슬	-16608
▁now	-16609
▁꽁	-16610
▁사소한	-16611
▁3164	-16612
GO	-16613
▁MSL	-16614
▁건데	-16615
▁문단	-16616
▁홀리	-16617
시테	-16618
▁자비	-16619
▁치며	-16620
▁민간인	-16621
▁돌을	-16622
류로	-16623
▁대하는	-16624
▁의하여	-16625
▁Good	-16626
교차로	-16627
▁마이크로	-16628
▁1.1	-16629
▁득점을	-16630
▁시대가	-16631
▁처리할	-16632
프란시스코	-16633
끄러운	-16634
▁싸움에	-16635
▁면에서는	-16636
▁피카츄	-16637
그린	-16638
▁지냈	-16639
▁짧고	-16640
▁공허의	-16641
▁미성년	-16642
선다	-16643
▁OK	-16644
▁빠져나가	-16645
▁아메리칸	-16646
▁군용	-16647
▁참으로	-16648
▁EC	-16649
▁그림이	-16650
년에도	-16651
▁하느	-16652
▁펜듈럼	-16653
▁마징	-16654
▁Sl	-16655
▁재배	-16656
대대	-16657
▁쿠루	-16658
▁낀	-16659
▁재활용	-16660
▁몹시	-16661
▁괴물이	-16662
▁내셔널	-16663
▁시도를	-16664
▁꼽힌다	-16665
루로	-16666
+110	-16667
취를	-16668
▁기괴	-16669
려다	-16670
▁저글링	-16671
▁말그대로	-16672
▁필립	-16673
▁내면	-16674
▁입지가	-16675
▁가브리	-16676
▁맵에서	-16677
▁의미의	-16678
▁연출을	-16679
▁조각을	-16680
▁것이므로	-16681
웠다고	-16682
대학원	-16683
▁0.2	-16684
하기만	-16685
술로	-16686
▁신은	-16687
▁제목이	-16688
▁벙커	-16689
봉을	-16690
▁사용하던	-16691
극을	-16692
▁동북	-16693
▁노릴	-16694
▁하기에	-16695
테스	-16696
▁El	-16697
저것	-16698
책으로	-16699
▁조직의	-16700
다드	-16701
▁동명의	-16702
공과	-16703
▁2500	-16704
▁뛰어넘는	-16705
▁am	-16706
▁보쿠	-16707
▁se	-16708
오던	-16709
▁쥐고	-16710
▁유승	-16711
▁총평	-16712
▁포기하지	-16713
▁격침	-16714
▁약물	-16715
▁있는가	-16716
대왕	-16717
▁경의	-16718
▁이때의	-16719
니에	-16720
▁전투력이	-16721
▁달라붙	-16722
▁영웅을	-16723
▁참가자	-16724
▁2018.	-16725
▁121	-16726
▁cl	-16727
▁시흥	-16728
▁져	-16729
▁몸무게	-16730
▁분노의	-16731
▁끝나지	-16732
▁박재	-16733
▁관통력	-16734
바와	-16735
포에	-16736
▁직장	-16737
▁LED	-16738
▁박찬	-16739
▁심야	-16740
▁111	-16741
▁따돌	-16742
▁전염	-16743
말고	-16744
▁테레	-16745
한데다	-16746
▁생겨서	-16747
▁단단한	-16748
▁따위는	-16749
▁전적이	-16750
업자	-16751
▁맞지만	-16752
▁장로	-16753
▁웜	-16754
▁이어졌다	-16755
▁버릇	-16756
▁0.9	-16757
▁레벨은	-16758
▁권능	-16759
▁삼촌	-16760
▁전차를	-16761
▁합친	-16762
▁대신해	-16763
화부터	-16764
혜를	-16765
되나	-16766
충전	-16767
▁As	-16768
▁뉴질랜드	-16769
▁무리하게	-16770
았는지	-16771
어지고	-16772
▁Dis	-16773
▁동메달	-16774
▁일레븐	-16775
심과	-16776
▁죽이기	-16777
▁크로노	-16778
일수록	-16779
▁극우	-16780
▁테일즈	-16781
▁공격하면	-16782
▁유리하다	-16783
▁덕후	-16784
▁1967	-16785
▁이들에게	-16786
▁카토	-16787
▁의뢰를	-16788
이라면서	-16789
▁국토	-16790
▁럭키	-16791
▁무죄	-16792
▁뒤통	-16793
bo	-16794
▁재료로	-16795
노벨	-16796
시엔	-16797
▁면제	-16798
ART	-16799
▁무지막지한	-16800
하트	-16801
▁따라가	-16802
▁친구들과	-16803
▁구상	-16804
개조	-16805
▁남기	-16806
▁휩싸	-16807
▁바디	-16808
▁줄을	-16809
황을	-16810
▁잠을	-16811
▁킴	-16812
▁스스로의	-16813
bs	-16814
▁104	-16815
▁녀석은	-16816
▁넘어간다	-16817
▁서태	-16818
▁구성이	-16819
▁없었다는	-16820
▁김구	-16821
▁연말	-16822
▁전선	-16823
▁첫날	-16824
▁못했다고	-16825
▁AG	-16826
▁레이첼	-16827
테라	-16828
▁친일	-16829
▁낮아서	-16830
▁체코	-16831
▁넘기는	-16832
정류	-16833
▁신입생	-16834
▁일하고	-16835
▁나타나서	-16836
▁전라북도	-16837
천이	-16838
▁임팩트	-16839
뿐인	-16840
타케	-16841
▁면을	-16842
라에몽	-16843
▁제국이	-16844
▁카이사	-16845
▁브레이커	-16846
▁업그레이드가	-16847
▁멧	-16848
▁시간도	-16849
▁노트북	-16850
▁나이트메	-16851
▁중상	-16852
▁마시고	-16853
▁심어	-16854
▁소꿉친구	-16855
▁허무하게	-16856
▁입성	-16857
▁있나	-16858
▁티아	-16859
▁루리	-16860
ERO	-16861
▁와이번스	-16862
-04	-16863
III	-16864
▁독일어	-16865
빵을	-16866
▁안돼	-16867
▁측이	-16868
▁데미지도	-16869
대도	-16870
▁옵티	-16871
▁급히	-16872
▁빠뜨	-16873
▁퀄리티가	-16874
->	-16875
하자고	-16876
순이	-16877
▁인명	-16878
▁운명의	-16879
ina	-16880
▁블라디	-16881
▁자기도	-16882
▁장사	-16883
때부터	-16884
▁미치는	-16885
▁부채	-16886
▁외모가	-16887
▁외면	-16888
▁퓨전	-16889
▁권한을	-16890
더링	-16891
2%	-16892
부작	-16893
록의	-16894
▁기체가	-16895
▁높다는	-16896
▁피트	-16897
▁말만	-16898
▁브론즈	-16899
벌이	-16900
거리며	-16901
▁전에서	-16902
▁성공하면	-16903
▁주어지는	-16904
메탈	-16905
▁구도	-16906
▁4.5	-16907
▁모임	-16908
▁자르	-16909
▁보고는	-16910
▁명중률이	-16911
란트	-16912
였다가	-16913
▁그들에게	-16914
요가	-16915
마침	-16916
▁박탈	-16917
▁초고	-16918
▁치하	-16919
▁아스카	-16920
키로	-16921
홈런을	-16922
▁패밀리	-16923
것에	-16924
▁PL	-16925
청이	-16926
▁볼을	-16927
아이템	-16928
▁캐릭터들은	-16929
▁찬스를	-16930
해버리는	-16931
가락을	-16932
▁에너지가	-16933
▁애정	-16934
▁달려들	-16935
팀에	-16936
▁파랑	-16937
▁헝가리	-16938
▁미국으로	-16939
▁안토니	-16940
▁없다시피	-16941
▁친구들이	-16942
ars	-16943
▁비로소	-16944
골이	-16945
:59	-16946
▁없이도	-16947
▁생각했다	-16948
▁쇄	-16949
▁총독	-16950
▁방공	-16951
리스와	-16952
종으로	-16953
▁의심을	-16954
▁이들도	-16955
▁이호	-16956
▁주를	-16957
▁하행	-16958
▁레슬링	-16959
▁관료	-16960
▁적용된	-16961
▁승리했다	-16962
▁죽이려고	-16963
렌의	-16964
▁일례로	-16965
▁회피율	-16966
▁위험에	-16967
▁쉬는	-16968
▁샌프란시스코	-16969
▁마마	-16970
▁설상가	-16971
▁스타일이	-16972
▁심상	-16973
▁마시는	-16974
▁아래에서	-16975
ons	-16976
▁포탄	-16977
▁리베	-16978
▁사마의	-16979
ally	-16980
▁않더라도	-16981
역이다	-16982
▁아이템의	-16983
▁가던	-16984
▁DM	-16985
▁슬라임	-16986
▁Summer	-16987
▁역사에	-16988
▁냉정	-16989
▁Dance	-16990
치오	-16991
▁공존	-16992
▁비꼬	-16993
수수	-16994
▁가창	-16995
▁생태	-16996
▁한숨	-16997
텔레	-16998
▁말하길	-16999
▁푹	-17000
▁수성	-17001
▁장소에	-17002
▁봉사	-17003
▁낮지만	-17004
우먼	-17005
▁동년	-17006
▁패배했다	-17007
일지	-17008
▁벨트	-17009
▁익숙한	-17010
▁케이크	-17011
▁정면으로	-17012
블루	-17013
호쿠	-17014
테스트	-17015
기보다는	-17016
▁리처드	-17017
▁녹화	-17018
▁웨폰	-17019
▁신세가	-17020
산은	-17021
살의	-17022
▁동료로	-17023
▁에이전	-17024
벽이	-17025
▁이창	-17026
▁흥분	-17027
▁이례	-17028
▁5.5	-17029
▁가하는	-17030
▁스틱	-17031
▁감행	-17032
▁도리어	-17033
혼을	-17034
▁아이폰	-17035
▁평범하게	-17036
/24	-17037
▁소속되어	-17038
▁FL	-17039
▁다음은	-17040
▁페르시아	-17041
해지	-17042
사령관	-17043
▁좀비가	-17044
▁혼란을	-17045
.31	-17046
▁내놓은	-17047
▁씩	-17048
찬을	-17049
▁개구리	-17050
▁일정한	-17051
▁캠퍼스	-17052
▁유용하게	-17053
▁김원	-17054
그는	-17055
▁있듯	-17056
▁이행	-17057
만으로는	-17058
란은	-17059
오오	-17060
▁엔터	-17061
▁애니메이션에서는	-17062
▁무신	-17063
-24	-17064
▁Bo	-17065
▁아깝	-17066
에서나	-17067
▁이인	-17068
▁십자가	-17069
▁상을	-17070
▁파손	-17071
▁없었으나	-17072
▁아니므로	-17073
▁시작하자마자	-17074
▁레벨에	-17075
▁동아시아	-17076
▁맴	-17077
▁유난	-17078
▁찾은	-17079
▁히드라	-17080
▁이것저것	-17081
▁추구하는	-17082
▁방울	-17083
▁씹어	-17084
▁하라고	-17085
▁VOCAL	-17086
▁업데이트를	-17087
▁못했다는	-17088
▁4~5	-17089
전함	-17090
조정	-17091
▁아이러니하게도	-17092
▁지낸	-17093
겨서	-17094
▁메갈	-17095
▁끄는	-17096
▁나오자	-17097
▁공통적으로	-17098
~9	-17099
▁올바른	-17100
▁현실은	-17101
▁상행	-17102
▁강해서	-17103
▁소소한	-17104
▁놀이	-17105
▁차용	-17106
▁하사	-17107
▁Wii	-17108
▁국내에	-17109
▁장소를	-17110
▁입었다	-17111
▁호랑	-17112
▁박영	-17113
▁깽	-17114
▁123	-17115
혁의	-17116
▁인쇄	-17117
▁독자적인	-17118
▁치안	-17119
▁난민	-17120
▁코요	-17121
▁1-2	-17122
▁앨범의	-17123
▁대표적	-17124
마리가	-17125
▁결정을	-17126
▁조건은	-17127
▁터렛	-17128
▁버티고	-17129
▁강타	-17130
▁나섰	-17131
▁고래	-17132
▁얼굴로	-17133
▁동서	-17134
▁끌어들	-17135
▁다니며	-17136
▁모니터	-17137
▁댈	-17138
클린	-17139
▁왕을	-17140
▁들린다	-17141
▁상당수가	-17142
려도	-17143
▁실루엣	-17144
▁요청을	-17145
오는데	-17146
글로	-17147
▁프로덕션	-17148
파리	-17149
▁아랑	-17150
▁재밌는	-17151
▁소나	-17152
▁무기와	-17153
▁혼합	-17154
효과가	-17155
▁장갑을	-17156
▁암울	-17157
▁골목	-17158
▁Over	-17159
▁고발	-17160
▁감자	-17161
▁포도	-17162
좋은	-17163
▁퇴역	-17164
▁상성이	-17165
▁분이	-17166
▁들자면	-17167
▁주먹을	-17168
▁노선이다	-17169
▁입힙니다	-17170
공단	-17171
▁말소	-17172
▁추출	-17173
▁본래의	-17174
▁Korea	-17175
vs	-17176
금융	-17177
▁레슬	-17178
▁합법	-17179
▁음악이	-17180
시켜주는	-17181
▁댓글을	-17182
▁시간동안	-17183
▁잃게	-17184
당하기	-17185
▁Blue	-17186
샤의	-17187
▁공포를	-17188
▁전통적인	-17189
▁주민들이	-17190
지휘	-17191
▁12,	-17192
▁얕	-17193
토록	-17194
▁정형	-17195
▁고기를	-17196
족은	-17197
▁en	-17198
▁맵에	-17199
▁법적	-17200
▁But	-17201
▁무슬	-17202
▁드립이	-17203
▁카무	-17204
▁What	-17205
겼고	-17206
▁우타	-17207
▁포효	-17208
▁진행한	-17209
▁클레이	-17210
▁패왕	-17211
한테는	-17212
▁합쳐서	-17213
▁유벤	-17214
▁집이	-17215
▁자유를	-17216
▁모스크바	-17217
▁스파이크	-17218
▁'''	-17219
▁스미스	-17220
▁해결할	-17221
▁말라는	-17222
▁HK	-17223
▁뒤틀	-17224
자리에서	-17225
▁등지에서	-17226
▁훈장	-17227
하다보니	-17228
▁증발	-17229
▁빌보드	-17230
▁잎	-17231
이에요	-17232
▁농락	-17233
인해	-17234
▁못하지만	-17235
▁요코하마	-17236
▁정체불명의	-17237
▁비춰	-17238
▁주파	-17239
▁쓰일	-17240
▁적합한	-17241
▁작품인	-17242
운영	-17243
▁중재	-17244
참모	-17245
▁동구	-17246
▁지냈다	-17247
▁부모가	-17248
▁에드워드	-17249
▁들어가고	-17250
▁돌이	-17251
▁DR	-17252
▁결과로	-17253
▁세력의	-17254
▁재위	-17255
▁따왔다	-17256
때문	-17257
▁보스는	-17258
▁화소	-17259
▁3:0	-17260
▁일본어로	-17261
▁그릴	-17262
▁네놈	-17263
▁성전	-17264
▁차가운	-17265
▁스켈	-17266
업에	-17267
▁동생인	-17268
▁이렇듯	-17269
돌프	-17270
▁초반부	-17271
▁고든	-17272
▁DNA	-17273
▁넣어서	-17274
▁sm	-17275
▁EBS	-17276
▁이츠	-17277
코프	-17278
▁죄송	-17279
UE	-17280
ana	-17281
▁주세요	-17282
▁헬리콥	-17283
▁끼어	-17284
▁뚜껑	-17285
▁세츠	-17286
▁물러나	-17287
▁것만으로도	-17288
아래	-17289
▁밖의	-17290
▁개발이	-17291
결정	-17292
▁교역	-17293
궁의	-17294
▁개연	-17295
▁비치	-17296
스타일	-17297
▁민주화	-17298
▁리나	-17299
▁마음은	-17300
▁추가되는	-17301
▁물약	-17302
▁바꿔서	-17303
명도	-17304
▁대차	-17305
▁왕좌	-17306
▁비중은	-17307
tr	-17308
슨과	-17309
▁성이	-17310
▁우미	-17311
▁이어나	-17312
▁뒤로는	-17313
생으로	-17314
▁연기가	-17315
카스	-17316
▁영남	-17317
나가와	-17318
원에게	-17319
▁웃으며	-17320
▁잡아서	-17321
▁자신만의	-17322
▁권위	-17323
▁때나	-17324
왔지만	-17325
키에게	-17326
▁중간중간	-17327
▁마타	-17328
▁구해주	-17329
▁개개	-17330
▁정재	-17331
▁역대급	-17332
후를	-17333
▁결전	-17334
▁카밀	-17335
▁쌓여	-17336
▁그룹의	-17337
▁KTX	-17338
▁세상에서	-17339
▁대회를	-17340
▁레버	-17341
▁레코	-17342
▁오아	-17343
▁준공	-17344
▁센트럴	-17345
▁1966	-17346
▁럼	-17347
자원	-17348
▁공백	-17349
▁느낌으로	-17350
▁주장한다	-17351
일으	-17352
▁아루	-17353
▁무비	-17354
▁한신	-17355
▁로그인	-17356
▁스토리에서	-17357
네트	-17358
▁부드러운	-17359
TC	-17360
▁항구	-17361
▁가능성	-17362
▁이펙트	-17363
▁메시지를	-17364
블레이드	-17365
▁느낌의	-17366
▁남는다	-17367
▁취한	-17368
▁나락	-17369
▁스크립	-17370
▁뿜어	-17371
▁세로	-17372
▁불안정	-17373
▁주시	-17374
요의	-17375
카즈	-17376
▁영등포	-17377
▁전속	-17378
▁2.4	-17379
▁개그맨	-17380
▁그곳에	-17381
소프트	-17382
▁기준이	-17383
▁적들의	-17384
▁도라에몽	-17385
비어	-17386
▁노블	-17387
▁도마	-17388
▁구하러	-17389
▁아름답	-17390
▁한국을	-17391
미네이터	-17392
격투	-17393
년전	-17394
▁유유	-17395
▁일산	-17396
▁진출했다	-17397
▁듀오	-17398
▁로저	-17399
▁도시에	-17400
▁입장이	-17401
▁떡밥을	-17402
해머	-17403
▁청구	-17404
시켰고	-17405
▁아직은	-17406
▁학교가	-17407
▁압박을	-17408
▁Rock	-17409
▁베이스로	-17410
블릿	-17411
▁힘과	-17412
▁펼쳤다	-17413
공연	-17414
▁뛰쳐	-17415
▁원인을	-17416
▁표현한	-17417
바지	-17418
이센	-17419
▁TE	-17420
▁제지	-17421
▁했으니	-17422
▁콜롬	-17423
편이다	-17424
▁아드	-17425
▁용량	-17426
▁차는	-17427
▁광주광역시	-17428
▁서치	-17429
드립을	-17430
디스크	-17431
▁짚	-17432
▁나이로	-17433
대인	-17434
▁불문	-17435
▁신정	-17436
타임을	-17437
엘은	-17438
▁크리에	-17439
AF	-17440
▁근로	-17441
▁돌격소총	-17442
▁양도	-17443
▁했는지	-17444
▁광물	-17445
무기를	-17446
▁세포	-17447
▁인테	-17448
▁어플	-17449
▁더욱이	-17450
▁오디오	-17451
▁한강	-17452
▁형상	-17453
먹기	-17454
▁다해	-17455
▁들으면	-17456
▁서지	-17457
▁찰스	-17458
▁안성	-17459
▁가방	-17460
▁샐러	-17461
는다는	-17462
왔다는	-17463
▁떠날	-17464
▁좋아한다고	-17465
▁궤적	-17466
▁충남	-17467
▁강철의	-17468
▁프로레슬링	-17469
▁로컬	-17470
였는지	-17471
▁위협적인	-17472
▁별칭	-17473
▁말하면서	-17474
역까지	-17475
▁부동산	-17476
▁미치지	-17477
HD	-17478
다르	-17479
▁타일	-17480
▁페르난	-17481
▁패치가	-17482
▁솔저	-17483
▁두가지	-17484
▁무리한	-17485
적이지만	-17486
▁기대할	-17487
▁하는지	-17488
복무	-17489
림과	-17490
▁네덜란	-17491
▁유저들도	-17492
▁포함하여	-17493
등에	-17494
▁워낙에	-17495
▁퓨어	-17496
▁제약이	-17497
▁이전까지는	-17498
▁똑똑	-17499
▁살아가는	-17500
함대	-17501
등하게	-17502
▁걸친	-17503
▁마법사의	-17504
그로	-17505
▁잘못을	-17506
어졌다	-17507
▁지크	-17508
▁어디로	-17509
집니다	-17510
▁시스템의	-17511
▁취급하는	-17512
▁내릴	-17513
▁안도	-17514
▁지력	-17515
02	-17516
▁환자	-17517
▁전작인	-17518
-23	-17519
▁경제적	-17520
▁유스	-17521
▁보정을	-17522
▁포스를	-17523
제이	-17524
▁딸인	-17525
▁여는	-17526
시드	-17527
이런	-17528
▁친하게	-17529
▁Ep	-17530
▁손톱	-17531
▁쿼터	-17532
백화점	-17533
▁시체가	-17534
▁무엇인지	-17535
시부터	-17536
못미	-17537
▁셋째	-17538
▁생명체	-17539
▁월요일	-17540
▁키보	-17541
이닝을	-17542
▁오키나와	-17543
▁전투력을	-17544
렸다가	-17545
메리카	-17546
▁오늘의	-17547
▁루팡	-17548
▁의외의	-17549
▁텅	-17550
▁답을	-17551
▁사스케	-17552
▁지방의	-17553
▁김명	-17554
▁버티는	-17555
▁에인	-17556
브레	-17557
asy	-17558
▁Pv	-17559
▁꽂아	-17560
▁잔인	-17561
▁적어서	-17562
림에	-17563
▁해고	-17564
▁담당한다	-17565
학이	-17566
▁뜨고	-17567
▁숲의	-17568
작가	-17569
▁청룡	-17570
▁관리가	-17571
▁직결	-17572
명인	-17573
▁의미에서	-17574
▁109	-17575
▁본사	-17576
▁한반도	-17577
▁자란	-17578
▁라인전	-17579
▁연구가	-17580
▁인간으로	-17581
▁교체되었다	-17582
▁발동하는	-17583
▁발악	-17584
▁다이너	-17585
▁친분이	-17586
▁응시	-17587
▁해당된다	-17588
▁Just	-17589
내야	-17590
▁뛰고	-17591
▁개발자	-17592
▁초코	-17593
위원장	-17594
▁소재를	-17595
히면서	-17596
▁플레이어블	-17597
▁명명	-17598
▁ARM	-17599
▁엔지니어	-17600
▁올라가면	-17601
▁잃어버	-17602
▁경질	-17603
▁사격을	-17604
▁캐릭터다	-17605
▁각오	-17606
▁원숭이	-17607
▁유전자	-17608
▁지정된	-17609
▁자유로운	-17610
▁#1	-17611
▁나갔다	-17612
▁흑역사	-17613
▁속도도	-17614
▁대결에서	-17615
▁부사	-17616
▁스윕	-17617
▁컨셉을	-17618
▁선원	-17619
▁공산주의	-17620
▁사회의	-17621
소울	-17622
▁어쌔	-17623
▁만들면	-17624
리그에서	-17625
주쿠	-17626
▁끝장	-17627
▁게임인	-17628
▁직후에	-17629
▁대다수가	-17630
상태로	-17631
싸움을	-17632
▁골로	-17633
▁원활	-17634
▁뛴	-17635
▁사육	-17636
▁코트	-17637
▁스파이더맨	-17638
멘탈	-17639
요를	-17640
▁거냐	-17641
▁최후를	-17642
▁힘들게	-17643
▁내비	-17644
▁미들	-17645
▁디스코	-17646
새를	-17647
▁발칸	-17648
베이스	-17649
▁콰	-17650
복은	-17651
▁알을	-17652
식에서	-17653
년도에	-17654
▁높으며	-17655
▁스킬에	-17656
04	-17657
▁출구	-17658
▁블리자드	-17659
빈의	-17660
▁당하며	-17661
TER	-17662
정도의	-17663
▁명성을	-17664
▁주기적으로	-17665
aj	-17666
▁야외	-17667
▁겔	-17668
▁화면을	-17669
▁기념으로	-17670
▁있을지도	-17671
▁국군	-17672
데르	-17673
▁GN	-17674
▁그랑프리	-17675
주게	-17676
킥을	-17677
▁말레이시아	-17678
히어로	-17679
▁계획은	-17680
▁만들지	-17681
▁돌아갔다	-17682
/14	-17683
▁만하다	-17684
aid	-17685
왕국	-17686
▁내로	-17687
▁김치	-17688
신다	-17689
▁자처	-17690
언정	-17691
▁MX	-17692
▁상태라	-17693
ck	-17694
▁슬로우	-17695
▁HS	-17696
▁가급	-17697
▁통행	-17698
▁한발	-17699
멋대로	-17700
▁오페라	-17701
▁파티에	-17702
▁Comm	-17703
▁정한	-17704
했음을	-17705
▁성공을	-17706
/100	-17707
▁안타깝게도	-17708
▁무대에서	-17709
▁비용을	-17710
니엄	-17711
▁늙은	-17712
▁이념	-17713
▁LCK	-17714
▁신흥	-17715
▁정사	-17716
▁호출	-17717
▁보상이	-17718
▁최약	-17719
▁106	-17720
▁냄새가	-17721
▁아줌	-17722
▁day	-17723
이건	-17724
▁달래	-17725
▁못했을	-17726
▁문서가	-17727
크루	-17728
▁광탈	-17729
▁받았을	-17730
ield	-17731
▁부리는	-17732
▁초필살	-17733
▁VOCALOID	-17734
▁보기는	-17735
됐고	-17736
▁일절	-17737
▁소모량	-17738
▁오타쿠	-17739
어찌	-17740
공격력	-17741
노우에	-17742
▁Mon	-17743
▁but	-17744
▁도망쳐	-17745
▁있었는지	-17746
▁흥미를	-17747
▁째	-17748
▁위를	-17749
▁회복한다	-17750
▁엑셀	-17751
▁구조가	-17752
제에서	-17753
▁0.7	-17754
▁무장을	-17755
▁스냅	-17756
▁포병	-17757
▁공격한	-17758
▁영상에	-17759
▁당시에도	-17760
토시	-17761
칸센	-17762
▁박경	-17763
가능한	-17764
▁파괴할	-17765
▁나무를	-17766
▁소식	-17767
▁길이가	-17768
▁퍼붓	-17769
시간은	-17770
▁베리	-17771
▁즐거운	-17772
▁눕	-17773
▁떠오르는	-17774
▁원내	-17775
▁중도	-17776
day	-17777
▁인력	-17778
▁필름	-17779
▁UI	-17780
▁도심	-17781
▁접수	-17782
▁임금	-17783
▁표를	-17784
토미	-17785
▁멸종	-17786
▁샹	-17787
▁+0	-17788
▁나미	-17789
▁트와	-17790
▁Can	-17791
▁나가고	-17792
웨이트	-17793
▁프레스	-17794
▁일러스트가	-17795
▁코디	-17796
atic	-17797
ction	-17798
▁회사에서	-17799
▁사용하는데	-17800
요소	-17801
▁입힐	-17802
▁하려면	-17803
▁워크	-17804
받던	-17805
▁묘한	-17806
▁인상적인	-17807
축을	-17808
하듯이	-17809
▁배우가	-17810
▁리볼버	-17811
▁전투는	-17812
,4	-17813
해지기	-17814
▁때마침	-17815
▁현장에	-17816
▁선택하면	-17817
▁울음	-17818
▁스테이지에서	-17819
▁1962	-17820
▁전해진다	-17821
▁타우	-17822
▁롤러	-17823
▁서방	-17824
▁Leg	-17825
▁능력의	-17826
▁죽어서	-17827
riend	-17828
▁성우인	-17829
시키는데	-17830
▁운행한다	-17831
▁남발	-17832
인수	-17833
▁기록하면서	-17834
▁일어나고	-17835
인원	-17836
▁122	-17837
▁추가적으로	-17838
▁2.3	-17839
▁유난히	-17840
ittle	-17841
▁저질렀	-17842
▁프리즘	-17843
인사이드	-17844
▁get	-17845
▁시청자들의	-17846
랑의	-17847
안타를	-17848
▁기사의	-17849
▁멜로디	-17850
말의	-17851
▁UF	-17852
스타의	-17853
▁영향력이	-17854
▁갔을	-17855
▁겹치는	-17856
▁TW	-17857
나라는	-17858
▁알려주는	-17859
▁몸의	-17860
▁에코	-17861
▁디버프를	-17862
▁깊게	-17863
▁묻고	-17864
▁Hard	-17865
▁일행의	-17866
▁이미지는	-17867
▁예정이라고	-17868
▁아수라	-17869
▁애니메이션의	-17870
▁흑역	-17871
▁데뷔한	-17872
▁미묘하게	-17873
동네	-17874
▁말까지	-17875
하네	-17876
▁그닥	-17877
▁어머니와	-17878
차대전	-17879
▁가능한데	-17880
▁시부	-17881
업으로	-17882
▁수만	-17883
▁외로	-17884
진에게	-17885
▁자리는	-17886
▁파수	-17887
▁한타에서	-17888
EB	-17889
▁보우	-17890
▁주유	-17891
▁채취	-17892
부족	-17893
▁졌다	-17894
▁편안	-17895
▁BD	-17896
폴리스	-17897
▁테일러	-17898
▁대령	-17899
▁고가	-17900
▁사출	-17901
▁연사력	-17902
▁바티	-17903
▁변경된	-17904
모에	-17905
▁기수	-17906
▁순간이	-17907
레스트	-17908
▁적절하게	-17909
▁감염된	-17910
▁상황에서는	-17911
▁퀄컴	-17912
▁민중	-17913
▁치우	-17914
뜩이나	-17915
부문	-17916
▁왕위	-17917
▁발표된	-17918
분해	-17919
▁재직	-17920
▁쿠라	-17921
▁정하는	-17922
▁타나카	-17923
▁대목	-17924
▁쏘면	-17925
▁다르지	-17926
▁언급한다	-17927
▁길거리	-17928
▁꼴이	-17929
▁마스코트	-17930
신인	-17931
▁베니	-17932
▁마디로	-17933
▁밸런스가	-17934
▁덴마크	-17935
▁공학	-17936
▁운반	-17937
▁107	-17938
▁자기는	-17939
▁동호	-17940
번타자	-17941
버리기	-17942
▁구멍이	-17943
▁늘었다	-17944
▁1940	-17945
▁세키	-17946
▁여자친	-17947
▁피안타	-17948
▁장점을	-17949
▁추종자	-17950
▁Sec	-17951
▁장소로	-17952
▁주도권을	-17953
▁연결된	-17954
▁부족으로	-17955
▁델타	-17956
▁열차가	-17957
▁느껴진다	-17958
▁일격을	-17959
▁이과	-17960
other	-17961
▁스테이지를	-17962
발사	-17963
▁벨라	-17964
▁박사가	-17965
▁지극히	-17966
▁파워를	-17967
오며	-17968
▁결승전에서	-17969
지점	-17970
성인	-17971
▁신상	-17972
▁펜타	-17973
▁인형을	-17974
▁Power	-17975
▁생존자	-17976
▁꽃을	-17977
▁우는	-17978
▁발현	-17979
▁PVP	-17980
▁목걸	-17981
▁아델	-17982
▁받았으며	-17983
▁도와주는	-17984
▁홍준	-17985
▁많았고	-17986
▁단원	-17987
▁MB	-17988
▁출근	-17989
주는데	-17990
▁사관	-17991
▁쏠쏠	-17992
지방선거	-17993
▁원망	-17994
▁파도	-17995
강점	-17996
▁담임	-17997
하였던	-17998
몬과	-17999
▁뿐이고	-18000
▁츠루	-18001
▁못지않	-18002
▁퉁	-18003
▁걸까	-18004
▁빠졌다	-18005
▁관장	-18006
▁런닝	-18007
젤레스	-18008
▁아니니	-18009
▁This	-18010
▁삼성전자	-18011
엔진	-18012
퇴근	-18013
▁찌질	-18014
가메	-18015
감의	-18016
▁처한	-18017
▁결국에는	-18018
창의	-18019
▁심장을	-18020
▁여성을	-18021
▁Sing	-18022
▁편한	-18023
▁맛있는	-18024
▁계획에	-18025
▁벌인다	-18026
▁비단	-18027
▁중이던	-18028
▁관계에	-18029
▁쓰며	-18030
베리아	-18031
▁가뜩이나	-18032
▁퀘스트가	-18033
/30	-18034
▁이블	-18035
비도	-18036
생산	-18037
구성	-18038
본이	-18039
더스트	-18040
▁시너지를	-18041
▁연상시키는	-18042
▁HG	-18043
▁모르겠다	-18044
▁동갑	-18045
▁서열	-18046
▁부담을	-18047
▁상기한	-18048
▁우루과	-18049
▁자유의	-18050
▁1930	-18051
체육관	-18052
▁수치는	-18053
▁지내고	-18054
▁Af	-18055
IGHT	-18056
▁기피	-18057
▁컴퍼	-18058
▁외모를	-18059
돈을	-18060
▁후예	-18061
▁전설적인	-18062
▁과일	-18063
▁대량의	-18064
▁덩치가	-18065
▁빼고는	-18066
▁성대	-18067
▁애틀	-18068
▁한마디	-18069
▁최초수록	-18070
▁의학	-18071
현실	-18072
▁습격을	-18073
▁도망치는	-18074
이냐	-18075
▁클립	-18076
측에서	-18077
inn	-18078
▁연설	-18079
▁천지	-18080
▁확률을	-18081
▁레스	-18082
▁차원이	-18083
돼지	-18084
,6	-18085
▁02.	-18086
▁거두며	-18087
▁결국엔	-18088
▁모으고	-18089
청의	-18090
▁박준	-18091
방송을	-18092
▁Live	-18093
▁다이나	-18094
▁발키리	-18095
▁설명할	-18096
▁이동이	-18097
NG	-18098
화학	-18099
▁승인	-18100
▁75%	-18101
▁피드	-18102
▁시즌의	-18103
▁5:	-18104
▁비자	-18105
▁않은데	-18106
▁당첨	-18107
▁124	-18108
▁이루어지지	-18109
▁Life	-18110
▁시설을	-18111
▁하이브리드	-18112
▁따지자	-18113
▁의지가	-18114
▁신칸센	-18115
▁신조	-18116
▁후려	-18117
▁가슴을	-18118
▁아포칼	-18119
숨에	-18120
▁쏟아져	-18121
▁이익을	-18122
▁높이는	-18123
▁스폰서	-18124
법과	-18125
▁부진한	-18126
▁것들	-18127
▁시점이	-18128
▁퍼포먼스	-18129
▁자유자	-18130
버섯	-18131
▁사면	-18132
BM	-18133
의회	-18134
▁등장하였다	-18135
놓으면	-18136
ount	-18137
▁예전부터	-18138
▁가의	-18139
▁미끄러	-18140
프터	-18141
▁다닌	-18142
▁스트레스	-18143
춘다	-18144
세력	-18145
▁죽인다	-18146
▁수험	-18147
목적	-18148
▁카니	-18149
▁포커	-18150
▁해에	-18151
감하게	-18152
▁내정	-18153
▁왔을	-18154
▁국가를	-18155
▁아멜	-18156
▁지못미	-18157
▁BC	-18158
▁공격하고	-18159
▁fl	-18160
▁마디	-18161
▁인물의	-18162
소환	-18163
▁터질	-18164
▁just	-18165
▁컨셉으로	-18166
▁Res	-18167
▁무한도전	-18168
▁Out	-18169
▁받았는데	-18170
널드	-18171
왔으며	-18172
▁활동한	-18173
쿠리	-18174
▁피치	-18175
▁출몰	-18176
▁돌려보	-18177
▁우츠	-18178
▁어딘가	-18179
타고	-18180
▁목에	-18181
▁끼어들	-18182
▁시너지	-18183
▁프랑크	-18184
폭이	-18185
▁출고	-18186
▁천년	-18187
▁이내에	-18188
▁가능했다	-18189
▁이마저도	-18190
개혁	-18191
▁포켓몬이	-18192
▁이겼다	-18193
▁악기	-18194
▁대고	-18195
▁선조	-18196
▁수록되어	-18197
▁전국동시	-18198
케이션	-18199
▁바주	-18200
▁들리는	-18201
▁달빛	-18202
▁사용되고	-18203
▁하수인을	-18204
AG	-18205
버거	-18206
▁이끌었다	-18207
ony	-18208
▁버서커	-18209
▁텍사스	-18210
에너	-18211
이트가	-18212
▁위협을	-18213
▁스토리에	-18214
▁멤버는	-18215
슈트	-18216
▁주어진다	-18217
▁깰	-18218
▁용기	-18219
▁관해	-18220
▁드리블	-18221
▁night	-18222
▁굵은	-18223
▁무기인	-18224
▁초보자	-18225
▁문제점을	-18226
▁남편이	-18227
▁태생	-18228
▁삭제된	-18229
▁위치로	-18230
▁대진	-18231
▁포맷	-18232
▁회사를	-18233
▁사실이지만	-18234
▁완화	-18235
▁장을	-18236
▁스완	-18237
▁카탈	-18238
▁단체로	-18239
▁명백한	-18240
▁인물을	-18241
▁무실점으로	-18242
▁격리	-18243
▁보직	-18244
▁쉽지만	-18245
▁연세	-18246
▁시간과	-18247
▁돌아다니는	-18248
▁팜	-18249
패의	-18250
▁확립	-18251
▁영어를	-18252
▁1800	-18253
▁드라큘	-18254
▁인트로	-18255
▁멜론	-18256
▁살기	-18257
▁방호	-18258
▁세컨드	-18259
▁친구들	-18260
▁싸우다가	-18261
▁킬을	-18262
▁우리를	-18263
나오는	-18264
철은	-18265
▁합류한	-18266
▁Music	-18267
▁전국동시지방선거	-18268
군사	-18269
▁대상은	-18270
▁신세계	-18271
▁무선	-18272
▁불륜	-18273
▁안동	-18274
▁김택	-18275
▁비정	-18276
▁넘긴	-18277
맥을	-18278
▁휴가	-18279
▁이이	-18280
▁엘리자베스	-18281
▁단숨에	-18282
통에	-18283
▁낮게	-18284
▁후로	-18285
▁리부트	-18286
▁손아	-18287
▁필드를	-18288
▁시스템은	-18289
▁무빙	-18290
▁불쾌	-18291
먹었다	-18292
▁tvN	-18293
▁프로그램이	-18294
▁공모	-18295
▁변속	-18296
▁플루	-18297
링으로	-18298
▁마에다	-18299
팅이	-18300
진다는	-18301
피로	-18302
▁리코	-18303
극장	-18304
치다	-18305
▁변장	-18306
▁맞추어	-18307
▁공개한	-18308
▁여자는	-18309
▁2017.	-18310
▁스타트	-18311
▁주는데	-18312
▁중국이	-18313
건물	-18314
차고	-18315
▁즉각	-18316
▁UFC	-18317
▁애매하다	-18318
▁손목	-18319
▁운영체제	-18320
Gr	-18321
▁보잉	-18322
▁액셀	-18323
▁가격에	-18324
▁법한	-18325
오토	-18326
▁짙은	-18327
카쿠	-18328
▁카우	-18329
테루	-18330
반은	-18331
▁넘은	-18332
▁리츠	-18333
▁유영	-18334
▁학생들	-18335
ane	-18336
▁매운	-18337
▁끝내고	-18338
▁사일	-18339
▁안다	-18340
▁드물다	-18341
▁what	-18342
르바	-18343
▁능숙	-18344
▁석유	-18345
▁안그래도	-18346
▁2/3	-18347
▁배우고	-18348
▁받았으나	-18349
▁찌르	-18350
ship	-18351
.-	-18352
▁숭배	-18353
▁토네	-18354
▁시장에서	-18355
▁일체	-18356
경험	-18357
▁단말	-18358
▁쌓인	-18359
▁나누는	-18360
려다가	-18361
▁건물에	-18362
▁독립운동	-18363
▁복지	-18364
▁협조	-18365
▁영상의	-18366
▁이누야	-18367
▁한정판	-18368
▁MR	-18369
▁순간적으로	-18370
▁대왕	-18371
▁태극	-18372
ENT	-18373
▁일러스트를	-18374
▁건재	-18375
▁보복	-18376
▁언급하는	-18377
▁덱이	-18378
▁좁아	-18379
연과	-18380
ual	-18381
▁밝힌다	-18382
아에게	-18383
▁수정되었다	-18384
클리	-18385
▁EMP	-18386
바리	-18387
선도	-18388
▁화상	-18389
▁아쉽게	-18390
▁채집	-18391
기로는	-18392
▁처참한	-18393
▁열람	-18394
▁형이	-18395
▁렌즈	-18396
있으면	-18397
▁이기지	-18398
▁시절을	-18399
▁트위터에	-18400
▁리카	-18401
▁반영한	-18402
▁시장에	-18403
▁어벤져스	-18404
▁좋아하지	-18405
▁뒤덮	-18406
▁라이너	-18407
▁부려	-18408
탄과	-18409
해에	-18410
▁예정이었으나	-18411
▁GG	-18412
▁지날	-18413
▁멀쩡히	-18414
▁전개를	-18415
▁휘말려	-18416
쉬의	-18417
▁맨시티	-18418
방위	-18419
▁포니	-18420
▁크로아	-18421
애가	-18422
▁입양	-18423
▁내주고	-18424
▁현실적으로	-18425
▁던지고	-18426
▁불러일으	-18427
▁센티	-18428
▁스커	-18429
▁지위를	-18430
▁네코	-18431
▁없었는데	-18432
▁세기	-18433
▁콤보가	-18434
▁제프	-18435
▁한편으로는	-18436
▁삼는	-18437
▁볼륨	-18438
당하지	-18439
▁현재까지도	-18440
투아	-18441
▁질병	-18442
▁키쿠	-18443
56	-18444
절로	-18445
행으로	-18446
▁1964	-18447
▁메일	-18448
▁왕족	-18449
▁진행하고	-18450
클로	-18451
▁프랭	-18452
▁필연	-18453
▁개봉한	-18454
▁갈고	-18455
▁재임	-18456
잖아요	-18457
▁자격이	-18458
▁롤링	-18459
▁타서	-18460
▁탄을	-18461
▁기록하는	-18462
▁빅토리아	-18463
▁줬다	-18464
▁코마	-18465
▁인간형	-18466
▁스킵	-18467
▁원을	-18468
▁질풍	-18469
▁멘탈이	-18470
▁코바야시	-18471
월이	-18472
▁스모	-18473
▁교수가	-18474
▁테니스	-18475
▁Gold	-18476
▁돌릴	-18477
▁동탁	-18478
▁유저들을	-18479
▁레슨	-18480
▁비어	-18481
서비스	-18482
▁않겠다고	-18483
52	-18484
▁장점은	-18485
▁도요	-18486
▁총으로	-18487
▁독백	-18488
▁떠돌	-18489
년차	-18490
▁320	-18491
ern	-18492
특별자치	-18493
▁우두머리	-18494
▁일당	-18495
점과	-18496
▁제작에	-18497
부에서는	-18498
▁말의	-18499
▁딱딱	-18500
▁레이저를	-18501
▁Mod	-18502
▁1965	-18503
▁표창	-18504
▁투수가	-18505
▁키즈	-18506
▁고유의	-18507
▁입으로	-18508
▁이야기의	-18509
▁에피소드를	-18510
▁신작	-18511
▁이해하지	-18512
▁같고	-18513
ecial	-18514
▁놀고	-18515
구멍	-18516
▁담배를	-18517
▁동료를	-18518
▁감히	-18519
▁전에도	-18520
▁흔적이	-18521
▁데스티니	-18522
▁거주하는	-18523
▁단역	-18524
▁독을	-18525
▁팀과	-18526
▁무너져	-18527
▁림	-18528
▁Vo	-18529
▁보기에는	-18530
▁삶의	-18531
▁세상이	-18532
▁Lo	-18533
▁에일리언	-18534
▁VR	-18535
▁끈질	-18536
▁살이	-18537
▁사망하고	-18538
▁되어버린다	-18539
▁마나가	-18540
▁스킬인	-18541
▁선택지가	-18542
▁Miss	-18543
칸의	-18544
명이나	-18545
▁드레스	-18546
충이	-18547
라이어	-18548
덩이	-18549
▁FB	-18550
▁굴욕	-18551
▁뭔가를	-18552
▁기체의	-18553
▁타지	-18554
▁울고	-18555
▁알고보니	-18556
▁애를	-18557
▁작정하고	-18558
구도	-18559
류에	-18560
▁라비	-18561
움의	-18562
▁타노	-18563
▁후지와	-18564
찬이	-18565
▁버림	-18566
▁슬러	-18567
▁먼치킨	-18568
적이라는	-18569
▁생각으로	-18570
▁알렉산더	-18571
쪽을	-18572
▁미국인	-18573
▁230	-18574
▁진출한	-18575
▁팔라딘	-18576
▁공속	-18577
▁아니냐고	-18578
▁사슴	-18579
▁End	-18580
▁만나러	-18581
▁1944	-18582
맞은	-18583
▁144	-18584
▁OPS	-18585
▁벌이고	-18586
▁루미	-18587
▁징징	-18588
어진다	-18589
▁다니고	-18590
▁케이지	-18591
▁딜레이가	-18592
십자	-18593
회담	-18594
▁에버	-18595
▁아버지에게	-18596
/9	-18597
탈출	-18598
▁넘기	-18599
▁따른다	-18600
▁엔딩에서	-18601
▁적들에게	-18602
샷을	-18603
ALL	-18604
야에게	-18605
▁책정	-18606
▁대한항공	-18607
▁사기를	-18608
▁망했어요	-18609
▁만회	-18610
▁점으로	-18611
▁상금	-18612
▁4.0	-18613
▁열정	-18614
▁휘둘러	-18615
▁김형	-18616
▁의사가	-18617
▁저스티스	-18618
▁패키	-18619
▁파이트	-18620
▁그렇듯이	-18621
사자	-18622
▁가다	-18623
▁무공	-18624
▁웃긴	-18625
▁유한	-18626
차와	-18627
▁느리게	-18628
▁안좋은	-18629
계에서는	-18630
렌이	-18631
▁주장은	-18632
▁싶었지만	-18633
타로가	-18634
▁권리를	-18635
▁대도	-18636
▁있었다면	-18637
드릭	-18638
▁박사의	-18639
▁겪는	-18640
▁수에	-18641
득점을	-18642
▁전술을	-18643
▁지구로	-18644
▁뿐인	-18645
아이돌	-18646
▁병사들이	-18647
인형	-18648
▁116	-18649
▁불리고	-18650
▁대역	-18651
▁장원	-18652
▁엉뚱한	-18653
▁칭호를	-18654
▁충청북도	-18655
▁설상가상으로	-18656
론에	-18657
▁추가적인	-18658
모니	-18659
점도	-18660
▁신과	-18661
▁반지를	-18662
▁이동한다	-18663
▁다룬다	-18664
▁점프를	-18665
▁IDOL	-18666
▁스네이크	-18667
▁쑥	-18668
atale	-18669
교로	-18670
▁Hy	-18671
▁전폭	-18672
게임을	-18673
▁기소	-18674
게리온	-18675
▁출연작	-18676
03	-18677
▁크립	-18678
▁이끈	-18679
▁연금술	-18680
샤가	-18681
rop	-18682
▁절규	-18683
▁선택이	-18684
▁호박	-18685
▁묶여	-18686
▁코다	-18687
모자	-18688
▁급기	-18689
▁세가	-18690
▁따지고	-18691
▁알리는	-18692
▁파악하고	-18693
▁이상일	-18694
▁마음으로	-18695
▁타치바나	-18696
귀가	-18697
▁망명	-18698
▁그립	-18699
▁후반에는	-18700
▁중국은	-18701
소스	-18702
▁바뀔	-18703
황제	-18704
▁교훈	-18705
▁용맹	-18706
▁거래를	-18707
▁구분이	-18708
▁세르비아	-18709
▁것임을	-18710
▁상위항목	-18711
나온	-18712
▁Femm	-18713
▁캐서	-18714
장치를	-18715
▁가슴이	-18716
▁굴욕을	-18717
▁승리의	-18718
▁어려움을	-18719
▁뜻의	-18720
▁주사위	-18721
▁함대를	-18722
▁서킷	-18723
▁스콧	-18724
▁포켓몬을	-18725
▁불려	-18726
▁맨유	-18727
▁학년	-18728
▁엔딩이	-18729
▁루피	-18730
▁스펙이	-18731
▁Che	-18732
우니	-18733
▁스크래	-18734
▁아니었고	-18735
는다면	-18736
라인을	-18737
여름	-18738
▁Sy	-18739
▁갈린다	-18740
▁1920	-18741
1%	-18742
수아	-18743
.99	-18744
▁천둥	-18745
▁저주받은	-18746
▁형님	-18747
▁완성된	-18748
ision	-18749
▁비명	-18750
▁쥬얼	-18751
ham	-18752
즈에게	-18753
▁소환된	-18754
mania	-18755
▁바다의	-18756
▁지도를	-18757
▁있으니까	-18758
▁바꾸어	-18759
▁DX	-18760
이드의	-18761
▁1-1	-18762
▁대타로	-18763
황이	-18764
▁피닉	-18765
▁우월한	-18766
▁한가운데	-18767
세인	-18768
▁구석	-18769
▁사쿠라이	-18770
▁포함해서	-18771
▁트러블	-18772
번대	-18773
▁놓는	-18774
▁대격	-18775
▁자각	-18776
▁수영복	-18777
▁주장도	-18778
▁김전	-18779
▁소서	-18780
▁한몫	-18781
▁6%	-18782
▁내외	-18783
▁내전	-18784
▁상처가	-18785
▁등장하면서	-18786
elf	-18787
▁이력	-18788
▁구입할	-18789
패치	-18790
▁방과	-18791
▁애국	-18792
▁테리	-18793
▁앉아서	-18794
시노	-18795
▁런처	-18796
▁분량이	-18797
자체	-18798
IST	-18799
공격이	-18800
▁공격도	-18801
▁슬라이드	-18802
연방	-18803
▁크라운	-18804
결에	-18805
데가	-18806
책임	-18807
▁//	-18808
▁미오	-18809
▁미유	-18810
▁넓게	-18811
▁어찌어찌	-18812
▁School	-18813
▁발광	-18814
리조	-18815
▁씁	-18816
▁춘천	-18817
▁대대로	-18818
▁주면서	-18819
▁타격이	-18820
▁세금	-18821
▁레코드	-18822
▁버스가	-18823
▁평론가	-18824
▁체력의	-18825
▁행적을	-18826
▁원정에서	-18827
▁똘	-18828
트레이	-18829
▁01.	-18830
▁2,000	-18831
터에서	-18832
▁문화를	-18833
57	-18834
▁맞으며	-18835
▁부족하다	-18836
▁망한	-18837
▁샤워	-18838
▁퀴즈	-18839
▁Rem	-18840
▁미도리	-18841
송을	-18842
▁높다고	-18843
▁일제강점	-18844
▁잠들	-18845
▁조영	-18846
▁초래	-18847
▁피해는	-18848
▁로제	-18849
리어스	-18850
▁이후부터는	-18851
팀인	-18852
▁위주	-18853
▁내각	-18854
라고는	-18855
▁배치되어	-18856
▁set	-18857
▁양보	-18858
▁소녀가	-18859
트에게	-18860
▁호전	-18861
▁에어로시티	-18862
▁웃고	-18863
해한다	-18864
▁붉은색	-18865
▁내려오는	-18866
▁공지사항	-18867
감소	-18868
갑을	-18869
▁모닝	-18870
▁오재	-18871
▁보너스가	-18872
▁측근	-18873
▁꼽히는	-18874
▁바이크	-18875
▁높으신	-18876
번호를	-18877
▁127	-18878
들아	-18879
▁한복	-18880
▁BT	-18881
▁로스앤	-18882
▁FemmeF	-18883
▁GR	-18884
▁간판	-18885
▁집합	-18886
▁놓치지	-18887
▁FemmeFatale	-18888
▁이해하기	-18889
캐스트	-18890
▁변신한	-18891
구단	-18892
▁의혹을	-18893
리카와	-18894
ouse	-18895
▁불리기도	-18896
▁하드코어	-18897
FM	-18898
▁모친	-18899
[...]
