[PAD]	0
[UNK]	0
[BOS]	0
[EOS]	0
[CLS]	0
[SEP]	0
[MASK]	0
▁▃	-0
▁ㅇ	-1
▁ㅇㅡ	-2
▁ㄷ	-3
▁.	-4
▁ㄱ	-5
▁ㅇㅔ	-6
ㅡㄴ	-7
▁ㄴ	-8
▁ㄷㅏ	-9
▁ㅇㅢ	-10
▁ㄴㅡㄴ	-11
▁ㄹ	-12
▁이	-13
▁,	-14
▁하	-15
▁ㅇㅡㄹ	-16
▁ㅎ	-17
▁ㅇㅣ	-18
ㅏㄴ	-19
▁ㅇㅡㄴ	-20
▁1	-21
ㅅㅓ	-22
ㅡㄹ	-23
▁ㄹㅡㄹ	-24
▁ㅇㅓ	-25
ㄹㅗ	-26
▁ㄱㅗ	-27
▁년	-28
▁ㅎㅏㄴ	-29
▁2	-30
▁ㄱㅏ	-31
▁있	-32
▁ㄹㅗ	-33
▁되	-34
▁ㅇㅕ	-35
▁대	-36
▁사	-37
▁ㅇㅓㅆ	-38
ㄷㅏ	-39
▁ㅎㅐ	-40
ㅁㅕ	-41
▁그	-42
ㅈㅣ	-43
▁일	-44
▁시	-45
▁ㄱㅘ	-46
▁지	-47
▁들	-48
▁수	-49
▁ㅎㅐㅆ	-50
▁기	-51
▁전	-52
▁ㅇㅕㅆ	-53
▁적	-54
▁ㅇㅘ	-55
▁20	-56
▁ㄷㅗ	-57
▁아	-58
▁가	-59
▁월	-60
▁ㅁㅕ	-61
▁제	-62
▁19	-63
▁ㅇㅣㄴ	-64
▁ㄷㅚ	-65
▁다	-66
▁ㅂ	-67
▁주	-68
▁정	-69
▁중	-70
▁ㅈㅣ	-71
▁자	-72
▁ㄷㅚㄴ	-73
▁공	-74
ㅎㅐ	-75
▁경	-76
▁인	-77
▁ㄱㅣ	-78
▁ㅇㅏ	-79
▁개	-80
▁것	-81
▁세	-82
▁유	-83
▁3	-84
▁"	-85
▁ㄹㅏ	-86
▁조	-87
▁부	-88
▁ㅎㅏㄴㄷㅏ	-89
▁등	-90
▁ㄱㅔ	-91
▁선	-92
▁스	-93
▁성	-94
▁미	-95
▁동	-96
▁연	-97
▁보	-98
▁마	-99
▁위	-100
▁상	-101
▁소	-102
▁오	-103
▁한	-104
ㄴㅏ	-105
▁고	-106
▁ㅁ	-107
▁영	-108
▁국	-109
▁모	-110
▁구	-111
ㄱㅗ	-112
▁도	-113
▁발	-114
▁비	-115
ㅓㄴ	-116
ㅎㅏㄴ	-117
▁201	-118
▁'	-119
ㅕㅆ	-120
▁여	-121
▁나	-122
▁ㅎㅏ	-123
▁4	-124
▁서	-125
ㄴㅡㄴ	-126
▁ㅈ	-127
▁후	-128
▁명	-129
▁신	-130
▁ㅅ	-131
▁5	-132
ㅣㄴ	-133
▁프	-134
▁ㅁㅕㄴ	-135
▁때	-136
▁관	-137
▁200	-138
▁장	-139
▁-	-140
ㄹㄹ	-141
▁방	-142
▁ㄷㅓㄴ	-143
▁의	-144
▁교	-145
▁만	-146
▁ㅎㅏㄹ	-147
▁ㄲ	-148
▁리	-149
▁문	-150
▁해	-151
▁역	-152
ㅌㅓ	-153
▁차	-154
▁ㅂㅜ	-155
▁바	-156
▁우	-157
ㅇㅡ	-158
▁무	-159
▁계	-160
▁원	-161
▁현	-162
▁군	-163
▁포	-164
▁노	-165
▁분	-166
▁6	-167
▁또	-168
▁당	-169
▁화	-170
▁않	-171
▁남	-172
▁학	-173
▁ㄲㅏ	-174
▁ㅇㅏㅆ	-175
▁작	-176
▁같	-177
▁결	-178
ㅇㅓ	-179
▁출	-180
▁ㄴㅏ	-181
ㄱㅔ	-182
▁파	-183
▁생	-184
▁진	-185
▁내	-186
▁강	-187
▁ㄷㅐ	-188
▁단	-189
▁7	-190
▁번	-191
▁받	-192
▁최	-193
▁10	-194
▁8	-195
▁어	-196
▁ㄷㅚㄴㄷㅏ	-197
▁반	-198
ㅜㄴ	-199
▁호	-200
▁ㅂㅗ	-201
ㅁㅏㄴ	-202
▁회	-203
▁거	-204
▁데	-205
▁안	-206
▁형	-207
▁초	-208
▁카	-209
▁실	-210
▁예	-211
▁배	-212
▁에	-213
▁재	-214
▁불	-215
▁ㅇㅟ	-216
▁ㄸ	-217
▁말	-218
▁없	-219
▁로	-220
▁두	-221
▁사용	-222
ㄷㅔ	-223
▁9	-224
▁미국	-225
▁타	-226
▁종	-227
▁라	-228
▁이후	-229
▁함	-230
▁요	-231
▁설	-232
▁통	-233
▁과	-234
▁ㅈㅏ	-235
▁특	-236
▁ㅁㅏㄴ	-237
▁ㅁㅕㄴㅅㅓ	-238
▁일본	-239
▁코	-240
▁ㄴㅡㄴㄷㅔ	-241
▁산	-242
▁운	-243
▁ㅌ	-244
▁권	-245
▁감	-246
▁독	-247
▁레	-248
▁활	-249
▁왕	-250
ㄱㅏ	-251
▁추	-252
민국	-253
▁김	-254
▁베	-255
ㅈㅣㄴ	-256
▁지역	-257
▁음	-258
▁크	-259
▁대한	-260
▁양	-261
▁199	-262
▁행	-263
▁다음	-264
▁더	-265
▁민	-266
ㄹㅏ	-267
▁많	-268
▁평	-269
▁12	-270
▁매	-271
▁피	-272
▁대한민국	-273
▁입	-274
▁18	-275
▁간	-276
▁참	-277
▁및	-278
▁경기	-279
▁승	-280
▁목	-281
▁대학	-282
▁다른	-283
▁ㄱㅓ	-284
▁;	-285
00	-286
리아	-287
▁프로	-288
▁건	-289
▁총	-290
ㅇㅎㅐ	-291
스트	-292
▁그리	-293
▁북	-294
or	-295
▁S	-296
▁알	-297
▁집	-298
▁11	-299
▁법	-300
▁때문	-301
▁시작	-302
▁체	-303
▁각	-304
▁천	-305
▁트	-306
▁외	-307
▁드	-308
▁임	-309
▁직	-310
▁표	-311
▁ㅋ	-312
▁ㄸㅏ	-313
▁변	-314
ㅇㅜㄴ	-315
▁토	-316
▁사람	-317
▁&	-318
▁본	-319
▁함께	-320
▁그러	-321
▁처	-322
▁A	-323
▁또한	-324
▁물	-325
▁속	-326
▁팀	-327
▁메	-328
▁점	-329
▁ㅊ	-330
▁박	-331
▁투	-332
▁선수	-333
▁한국	-334
▁항	-335
▁청	-336
▁)	-337
▁브	-338
▁영화	-339
▁세계	-340
▁사이	-341
▁광	-342
ㅈㅕ	-343
▁저	-344
la	-345
▁자신	-346
▁C	-347
▁ㅇㅗ	-348
▁게	-349
▁M	-350
▁경우	-351
▁ㅅㅣ	-352
▁달	-353
▁용	-354
▁f	-355
▁태	-356
▁판	-357
▁약	-358
▁디	-359
▁축	-360
▁T	-361
▁현재	-362
▁F	-363
▁기록	-364
ㄹㄹㅕ	-365
▁복	-366
▁야	-367
▁하나	-368
▁국가	-369
시아	-370
▁존	-371
▁198	-372
▁이름	-373
▁편	-374
▁당시	-375
▁가장	-376
▁확	-377
▁위치	-378
▁네	-379
▁ㅌㅗ	-380
▁삼	-381
▁_	-382
▁열	-383
▁ㅇㅕㅆㅇㅡ	-384
▁조선	-385
▁테	-386
▁학교	-387
▁활동	-388
▁가지	-389
ㅣㄴㄷㅏ	-390
▁철	-391
▁리그	-392
주의	-393
▁(	-394
▁버	-395
▁필	-396
▁그러나	-397
▁15	-398
▁올	-399
▁for	-400
ㅈㅕㅆ	-401
▁금	-402
▁페	-403
▁뒤	-404
▁증	-405
mu	-406
▁째	-407
▁루	-408
▁플	-409
ㅂㅜ	-410
▁백	-411
ㄹㅓ	-412
▁창	-413
▁ㅅㅓ	-414
mula	-415
▁formula	-416
▁언	-417
ㄴㅐ	-418
▁16	-419
▁식	-420
▁대표	-421
레이	-422
▁연구	-423
▁치	-424
▁근	-425
▁병	-426
▁또는	-427
▁프랑	-428
▁ㅌㅗㅇㅎㅐ	-429
▁/	-430
ㄴㅏㄴ	-431
▁심	-432
▁합	-433
▁그리고	-434
▁황	-435
▁사회	-436
▁m	-437
▁규	-438
ㅇㅕ	-439
▁0	-440
▁ㅎㅐㅆㅇㅡ	-441
▁살	-442
▁ㅁㅗ	-443
▁애	-444
▁D	-445
▁충	-446
▁17	-447
▁시즌	-448
ㅇㅑ	-449
ㅇㅏ	-450
▁첫	-451
▁순	-452
▁따	-453
▁]	-454
▁197	-455
▁[	-456
▁B	-457
▁완	-458
▁ㅆ	-459
랜드	-460
▁히	-461
▁중국	-462
▁아니	-463
▁협	-464
▁다시	-465
▁클	-466
▁서울	-467
▁ㅂㅏ	-468
▁정부	-469
▁프랑스	-470
학교	-471
▁K	-472
▁영국	-473
▁I	-474
▁:	-475
▁시대	-476
▁패	-477
▁ㄴㅡㄴㄷㅏ	-478
▁높	-479
▁k	-480
▁만들	-481
▁포함	-482
ㄹㅡㄴ	-483
▁여러	-484
▁뜻	-485
▁도시	-486
ㅁㅕㄴ	-487
▁196	-488
▁14	-489
▁은	-490
ㄴㅏㅆ	-491
▁전쟁	-492
▁채	-493
▁독일	-494
▁ㅅㅐ	-495
ㅇㅝ	-496
▁아이	-497
▁키	-498
er	-499
▁대회	-500
▁~	-501
▁문화	-502
▁g	-503
ㅣㄹ	-504
▁13	-505
▁축구	-506
▁면	-507
ㅊㅕ	-508
▁위원	-509
ㄹㅇㅓ	-510
▁P	-511
▁가능	-512
▁모두	-513
▁ㅋㅡㄴ	-514
▁뉴	-515
▁동안	-516
in	-517
▁모든	-518
▁이상	-519
▁감독	-520
▁곡	-521
▁194	-522
▁정치	-523
▁별	-524
▁쓰	-525
▁환	-526
▁일부	-527
▁손	-528
▁방송	-529
▁친	-530
▁l	-531
▁석	-532
ㄹㅕ	-533
▁문제	-534
▁길	-535
▁대학교	-536
▁처음	-537
▁개발	-538
▁ㅇㅏㄹㄹㅕ	-539
▁L	-540
▁지방	-541
▁ㄴㅐ	-542
▁허	-543
▁제작	-544
ㅇㅘ	-545
▁취	-546
▁구성	-547
▁%	-548
▁검	-549
▁죽	-550
▁ㅍ	-551
▁국제	-552
▁러	-553
▁배우	-554
▁농	-555
▁ㄷㅚㄹ	-556
라이	-557
▁사건	-558
▁니	-559
▁골	-560
ㄱㅕ	-561
▁세기	-562
▁시간	-563
▁새	-564
▁이용	-565
▁캐	-566
▁일반	-567
▁ㅁㅏ	-568
▁씨	-569
▁논	-570
▁존재	-571
▁G	-572
▁작품	-573
▁게임	-574
▁운동	-575
▁정도	-576
▁폭	-577
▁역사	-578
▁주장	-579
▁gt	-580
▁N	-581
▁곳	-582
ㄹㅗㄱ	-583
▁급	-584
▁관계	-585
▁즉	-586
▁인구	-587
니아	-588
on	-589
▁195	-590
▁티	-591
▁효	-592
▁km	-593
▁교육	-594
▁음악	-595
▁중심	-596
▁섬	-597
▁ㅎㅏㅁ	-598
리스	-599
▁육	-600
▁lt	-601
▁ㄹㅕ	-602
▁U	-603
▁이러	-604
▁돌	-605
▁ㄷㅙ	-606
▁30	-607
▁쿠	-608
▁R	-609
▁극	-610
▁선거	-611
▁경제	-612
부분	-613
▁날	-614
▁블	-615
▁발견	-616
이스	-617
▁귀	-618
▁전투	-619
통령	-620
▁절	-621
▁H	-622
▁맡	-623
화국	-624
▁민주	-625
▁발표	-626
▁글	-627
▁E	-628
▁홍	-629
▁기술	-630
▁올림	-631
▁측	-632
ㄹㄹㅏ	-633
▁암	-634
▁아들	-635
▁밀	-636
▁우승	-637
▁시키	-638
▁터	-639
▁막	-640
▁책	-641
▁2010	-642
▁공격	-643
▁엔	-644
▁대부분	-645
▁대통령	-646
▁올림픽	-647
▁사망	-648
ㅎㅐㅆ	-649
an	-650
▁영향	-651
▁케	-652
000	-653
▁결과	-654
▁슈	-655
▁송	-656
▁질	-657
▁라이	-658
▁지원	-659
▁ㄸㅓ	-660
▁향	-661
▁프로그	-662
▁앨	-663
▁잘	-664
리카	-665
▁193	-666
▁담	-667
ㅆㅓ	-668
▁과정	-669
▁접	-670
▁의미	-671
▁발생	-672
ㄷㅗ	-673
▁끝	-674
▁관련	-675
▁참여	-676
▁중앙	-677
▁유럽	-678
ㄴㄷㅏ	-679
▁헤	-680
ㄹㄹㅣㄴ	-681
▁봉	-682
▁업	-683
▁앞	-684
▁c	-685
▁최초	-686
란드	-687
ㅇㅗ	-688
▁진행	-689
20	-690
▁얻	-691
▁준	-692
▁25	-693
▁고등	-694
▁ㅌㅐ	-695
▁부분	-696
▁독립	-697
▁특히	-698
▁자유	-699
▁범	-700
▁결정	-701
▁제국	-702
▁다양	-703
▁ㅅㅔ	-704
지만	-705
▁구조	-706
▁설립	-707
▁ㄷㅙㅆ	-708
▁ㄷㅡㄹ	-709
▁ㅁㅗㅅ	-710
▁설치	-711
▁초등	-712
버지	-713
▁폐	-714
▁못	-715
▁형태	-716
나라	-717
▁상태	-718
▁소속	-719
▁탄	-720
▁발매	-721
▁W	-722
▁온	-723
ㄹㄹㅓ	-724
▁탈	-725
▁좌	-726
▁2008	-727
▁러시아	-728
▁누	-729
▁악	-730
▁이전	-731
▁잡	-732
▁21	-733
▁침	-734
▁사실	-735
우스	-736
▁센	-737
▁하지만	-738
▁그녀	-739
▁르	-740
▁스타	-741
ㅇㅕㅆ	-742
ㄴㅣ	-743
▁ㅇㅣㄴㅎㅐ	-744
디오	-745
▁같이	-746
▁폴	-747
▁로마	-748
▁여성	-749
▁갖	-750
▁인민	-751
▁프로그램	-752
▁주로	-753
▁맞	-754
▁나라	-755
ㅜㄹ	-756
▁ㅊㅓ	-757
▁타이	-758
▁2012	-759
▁2011	-760
▁생각	-761
▁필요	-762
▁ㅃ	-763
▁출신	-764
▁참가	-765
ㄴㅐㅆ	-766
▁싱	-767
▁이탈	-768
▁혼	-769
▁ㅂㅓ	-770
▁관리	-771
▁이것	-772
▁기준	-773
▁조직	-774
▁100	-775
▁운영	-776
▁머	-777
en	-778
▁위원회	-779
▁좋	-780
▁2009	-781
▁여자	-782
▁2007	-783
▁윤	-784
▁중요	-785
▁생산	-786
▁2014	-787
▁계획	-788
▁기관	-789
▁t	-790
▁행정	-791
▁등장	-792
▁정보	-793
ㄹㄹㅕㅆ	-794
ㄹㅓㅁ	-795
▁상대	-796
▁음반	-797
ㅋㅕㅆ	-798
▁이루	-799
▁지정	-800
▁계속	-801
▁바이	-802
▁성공	-803
▁데이	-804
▁a	-805
▁콘	-806
▁매우	-807
▁국민	-808
▁데뷔	-809
ㅇㅎㅏㄴ	-810
▁2013	-811
▁ㄱㅡ	-812
▁해당	-813
▁O	-814
he	-815
▁갈	-816
▁레이	-817
▁철도	-818
▁대전	-819
▁아버지	-820
▁과학	-821
스터	-822
▁고려	-823
▁칼	-824
▁팔	-825
리즈	-826
▁이탈리아	-827
▁주요	-828
▁몇	-829
프트	-830
▁발전	-831
르크	-832
▁자리	-833
▁따르	-834
▁191	-835
▁사업	-836
▁시스	-837
▁와	-838
▁23	-839
▁24	-840
▁묘	-841
▁커	-842
▁000	-843
▁2015	-844
남도	-845
ㅈㅣㄴㄷㅏ	-846
ar	-847
▁차지	-848
▁방법	-849
▁2018	-850
라마	-851
▁헌	-852
▁억	-853
▁보이	-854
▁2016	-855
▁월드	-856
▁앨범	-857
레스	-858
▁그룹	-859
ㄹㅇㅏ	-860
▁최고	-861
▁쇼	-862
▁인도	-863
▁ㅇㅑ	-864
▁줄	-865
▁ㅇㅣㄹ	-866
▁마이	-867
▁출연	-868
▁아래	-869
▁능	-870
▁시리즈	-871
이션	-872
▁결국	-873
ㄺㅎ	-874
▁엘	-875
▁J	-876
ㄹㅣㄴ	-877
es	-878
▁후보	-879
▁고등학교	-880
▁전체	-881
▁생활	-882
▁22	-883
▁2006	-884
▁회사	-885
이트	-886
▁ㅈㅕㅆ	-887
▁이유	-888
▁그리스	-889
▁한편	-890
FA	-891
▁192	-892
▁내용	-893
비아	-894
▁층	-895
▁ㅅㅏ	-896
▁제공	-897
▁스페	-898
▁연합	-899
▁격	-900
▁우리	-901
ㅌㅏ	-902
▁방식	-903
▁2017	-904
ㄴㅎㅏㄴ	-905
▁의원	-906
▁공식	-907
▁항공	-908
운데	-909
▁인터	-910
▁풍	-911
▁많이	-912
▁인간	-913
▁ㅂㅏㄺㅎ	-914
▁못하	-915
▁시기	-916
▁컴	-917
▁역할	-918
▁드라마	-919
▁가운데	-920
▁군사	-921
▁몸	-922
▁시스템	-923
▁얼	-924
ㅇㅘㅆ	-925
▁초기	-926
▁조사	-927
▁출전	-928
▁빌	-929
▁유명	-930
▁워	-931
▁민족	-932
▁거의	-933
▁기업	-934
▁제도	-935
▁반대	-936
▁s	-937
▁ㄷㅡㄹㅇㅓ	-938
▁ㅈㅣㄴ	-939
▁ㅂㅗㄹ	-940
▁지구	-941
▁교회	-942
▁텔	-943
ㅇㅣㄴ	-944
▁수상	-945
▁대신	-946
▁ㅇㅡㅁ	-947
비스	-948
▁유지	-949
▁색	-950
▁평가	-951
ㅇㅣㄴㄷㅏ	-952
▁분류	-953
▁표현	-954
▁ㄹㅏㄴ	-955
ㅜㄴㄷㅏ	-956
▁잠	-957
▁26	-958
▁!	-959
▁특별	-960
▁홈	-961
▁언어	-962
▁대상	-963
▁동시	-964
at	-965
▁기능	-966
▁현대	-967
▁ㄱㅓㄹ	-968
▁규모	-969
▁이르	-970
▁공개	-971
▁프리	-972
▁28	-973
▁류	-974
▁모습	-975
▁자연	-976
▁노동	-977
▁이미	-978
▁연결	-979
▁각각	-980
야기	-981
▁개인	-982
▁27	-983
▁마지	-984
▁녹	-985
▁2019	-986
▁이론	-987
▁졸	-988
▁승리	-989
▁응	-990
▁인정	-991
▁단체	-992
ㅋㅕ	-993
▁여기	-994
▁진출	-995
▁지도	-996
▁브라	-997
북도	-998
▁임명	-999
▁웨	-1000
▁2005	-1001
▁핵	-1002
▁V	-1003
ㅊㅕㅆ	-1004
▁2000	-1005
▁마지막	-1006
▁울	-1007
▁시장	-1008
ㄱㅏㅆ	-1009
▁시절	-1010
▁목적	-1011
ㄹㅕㅆ	-1012
머니	-1013
▁아르	-1014
▁수도	-1015
▁전문	-1016
▁경상	-1017
▁정의	-1018
ㄴㅣㄴ	-1019
▁목록	-1020
▁난	-1021
▁정책	-1022
▁기간	-1023
▁족	-1024
▁상황	-1025
ic	-1026
어지	-1027
▁희	-1028
▁산업	-1029
▁ㅇㅘㅆ	-1030
▁직접	-1031
▁이야기	-1032
al	-1033
▁ㅊㅣ	-1034
▁서로	-1035
ㅂㄴㅣ	-1036
▁야구	-1037
스크	-1038
▁ㅇㅣㄹㅇㅓ	-1039
▁오스트	-1040
▁불리	-1041
▁압	-1042
ㄱㅕㅆ	-1043
▁혁	-1044
▁밴	-1045
▁계약	-1046
▁ㅇㅗㄹㄹㅏ	-1047
▁기원	-1048
▁힘	-1049
▁ㅇㅕㄹㄹㅣㄴ	-1050
▁추가	-1051
BS	-1052
▁건설	-1053
▁공동	-1054
▁모델	-1055
▁2004	-1056
▁개최	-1057
▁콜	-1058
ㅇㅝㅆ	-1059
▁FC	-1060
▁눈	-1061
▁샤	-1062
▁건물	-1063
▁공간	-1064
▁플레이	-1065
▁먹	-1066
▁경찰	-1067
▁50	-1068
▁활약	-1069
▁형성	-1070
▁푸	-1071
▁찾	-1072
▁결혼	-1073
▁스페인	-1074
▁부산	-1075
▁31	-1076
▁자동	-1077
▁훈	-1078
▁ㄱㅘㄴㅎㅏㄴ	-1079
▁29	-1080
학자	-1081
▁졸업	-1082
ㄷㅡㄴ	-1083
▁넘	-1084
▁거리	-1085
▁칸	-1086
▁b	-1087
▁변화	-1088
▁교수	-1089
▁노래	-1090
▁사상	-1091
▁변경	-1092
▁ㄴㅣ	-1093
▁TV	-1094
▁국회	-1095
is	-1096
▁인물	-1097
▁의하	-1098
▁뿐	-1099
▁나이	-1100
▁마을	-1101
re	-1102
it	-1103
▁공화국	-1104
▁텔레	-1105
▁그것	-1106
▁완전	-1107
▁벨	-1108
ㅇㅗㄴ	-1109
▁궁	-1110
▁너	-1111
▁부르	-1112
▁190	-1113
▁비롯	-1114
▁퍼	-1115
▁노선	-1116
▁사랑	-1117
▁망	-1118
▁인민공	-1119
▁인민공화국	-1120
비전	-1121
▁휴	-1122
▁역시	-1123
▁ㅈㅓ	-1124
이드	-1125
▁2020	-1126
ㅎㅏㄴㄷㅏ	-1127
▁둘	-1128
▁학생	-1129
▁중학교	-1130
▁ㄱㅜ	-1131
▁ㅂㅣ	-1132
ou	-1133
어나	-1134
▁보통	-1135
▁맥	-1136
▁실제	-1137
▁최대	-1138
▁서비스	-1139
▁볼	-1140
▁잉	-1141
▁요구	-1142
▁속하	-1143
▁탑	-1144
▁지금	-1145
▁보호	-1146
▁전국	-1147
프리카	-1148
▁슬	-1149
▁낮	-1150
대로	-1151
▁의회	-1152
▁나타	-1153
▁소설	-1154
▁중화	-1155
▁우주	-1156
▁지지	-1157
▁ㄸㅓㄹㅇㅓ	-1158
ㄹㅡㄴㄷㅏ	-1159
▁메이	-1160
▁ㅅㅡ	-1161
▁실시	-1162
▁지하	-1163
▁ㄱㅔㅆ	-1164
르트	-1165
▁기본	-1166
역시	-1167
ㅈㅏ	-1168
▁혹	-1169
▁없이	-1170
▁황제	-1171
▁ㄷㅡ	-1172
▁가수	-1173
ㄷㅡㄹ	-1174
운드	-1175
▁다이	-1176
▁판매	-1177
▁싱글	-1178
▁자기	-1179
▁전통	-1180
▁달리	-1181
▁밴드	-1182
▁원래	-1183
▁비판	-1184
▁옥	-1185
▁기반	-1186
▁ㅅㅗ	-1187
ㅏㄴㄷㅏ	-1188
▁따라	-1189
▁퇴	-1190
ㄹㅜ	-1191
▁론	-1192
▁2002	-1193
▁종교	-1194
▁경기도	-1195
▁차이	-1196
▁견	-1197
▁ㄴㅗ	-1198
▁세력	-1199
▁어떤	-1200
▁위하	-1201
▁딸	-1202
로스	-1203
▁탐	-1204
▁40	-1205
▁ㅁㅜ	-1206
▁자료	-1207
스탄	-1208
▁ㅁㅗㅅㅎㅐㅆ	-1209
▁겸	-1210
▁ㄷㅗㄹㅇㅏ	-1211
▁소련	-1212
▁수행	-1213
▁2003	-1214
▁몰	-1215
▁환경	-1216
▁기타	-1217
▁ㅆㅡ	-1218
▁회의	-1219
▁센터	-1220
▁모양	-1221
▁전기	-1222
▁운행	-1223
▁시설	-1224
▁도쿄	-1225
▁월드컵	-1226
나다	-1227
▁부대	-1228
▁전자	-1229
▁특징	-1230
러스	-1231
▁밖	-1232
▁공연	-1233
▁승강	-1234
▁기념	-1235
▁컵	-1236
▁그래	-1237
▁명칭	-1238
▁교황	-1239
▁분야	-1240
▁뮤	-1241
▁나오	-1242
le	-1243
▁예술	-1244
▁이동	-1245
▁설명	-1246
▁놓	-1247
▁기독	-1248
▁텔레비전	-1249
▁ㅈㅓㄴ	-1250
▁통합	-1251
mp	-1252
▁작업	-1253
▁연방	-1254
▁남자	-1255
▁도입	-1256
▁구역	-1257
▁염	-1258
▁동물	-1259
▁득	-1260
▁행동	-1261
▁따라서	-1262
▁선정	-1263
▁전라	-1264
▁애니	-1265
▁ㅇㅗㄴ	-1266
스타	-1267
▁군대	-1268
▁벌	-1269
▁소프트	-1270
▁남쪽	-1271
▁바로	-1272
▁가족	-1273
▁작용	-1274
▁할	-1275
ㅊㅣㄴ	-1276
▁출시	-1277
▁능력	-1278
▁ㅈㅜ	-1279
▁숙	-1280
▁북쪽	-1281
ㄲㅏ	-1282
▁방향	-1283
▁증가	-1284
▁확인	-1285
▁기존	-1286
ㅇㅎㅐㅆ	-1287
▁지휘	-1288
▁=	-1289
너지	-1290
▁제외	-1291
▁행위	-1292
▁차량	-1293
▁교통	-1294
▁문학	-1295
의원	-1296
▁기독교	-1297
▁이때	-1298
▁작가	-1299
▁비슷	-1300
▁사고	-1301
▁ㅁㅡ	-1302
▁클럽	-1303
▁국내	-1304
▁ㅇㅏㄹ	-1305
▁윌	-1306
▁ㅃㅏ	-1307
▁형식	-1308
▁십	-1309
▁도로	-1310
▁어머니	-1311
▁혁명	-1312
▁작곡	-1313
▁역임	-1314
ㅋㅣㄴㄷㅏ	-1315
▁빈	-1316
▁승강장	-1317
▁효과	-1318
▁태양	-1319
▁ㄷㅜ	-1320
▁캐나다	-1321
▁몽	-1322
▁낙	-1323
▁컴퓨	-1324
▁열차	-1325
▁왕국	-1326
▁유일	-1327
▁FI	-1328
▁과거	-1329
▁사무	-1330
ㄹㅣ	-1331
▁이적	-1332
▁챔	-1333
▁착	-1334
BC	-1335
▁협회	-1336
▁높이	-1337
▁혹은	-1338
▁남부	-1339
▁ㄷㅓ	-1340
리오	-1341
▁추정	-1342
▁뉴욕	-1343
▁솔	-1344
▁비교	-1345
▁지배	-1346
▁공산	-1347
자리	-1348
▁흥	-1349
▁ㅅㅗㄱ	-1350
▁담당	-1351
▁육군	-1352
▁넓	-1353
▁정당	-1354
▁이사	-1355
▁동일	-1356
▁베이	-1357
▁시민	-1358
▁흐	-1359
▁이끌	-1360
▁주변	-1361
▁획	-1362
▁2001	-1363
ㄱㅣㄴ	-1364
▁ㄱㅓㄴ	-1365
▁1990	-1366
▁런	-1367
▁동쪽	-1368
▁장관	-1369
▁즈	-1370
▁홀	-1371
▁인기	-1372
▁대사	-1373
▁스포	-1374
▁스트	-1375
▁적용	-1376
▁ㅁㅏㄴㄷㅡㄴ	-1377
▁X	-1378
▁챔피	-1379
▁윈	-1380
▁세포	-1381
▁건축	-1382
▁예정	-1383
▁공사	-1384
▁p	-1385
▁데이터	-1386
▁구간	-1387
▁쪽	-1388
▁사단	-1389
▁컴퓨터	-1390
▁개념	-1391
▁성장	-1392
▁갑	-1393
▁상당	-1394
▁마음	-1395
▁곧	-1396
▁크기	-1397
▁조지	-1398
▁오늘	-1399
▁서쪽	-1400
▁189	-1401
▁품	-1402
▁차례	-1403
▁징	-1404
▁버스	-1405
▁에너지	-1406
▁ㄹㅓ	-1407
▁마르	-1408
▁멤	-1409
▁충청	-1410
ㅎㅏ	-1411
▁돈	-1412
▁맨	-1413
▁흑	-1414
▁대하	-1415
▁록	-1416
▁넣	-1417
이지	-1418
▁액	-1419
▁ㅂㅗㄴ	-1420
▁작전	-1421
ㄴㅐㄴ	-1422
▁엄	-1423
▁땅	-1424
▁조건	-1425
▁민주주의	-1426
▁다르	-1427
▁자체	-1428
▁실패	-1429
▁디자	-1430
▁나가	-1431
▁잔	-1432
▁어느	-1433
▁연기	-1434
▁율	-1435
▁반응	-1436
▁덕	-1437
▁이런	-1438
▁FIFA	-1439
▁d	-1440
▁선언	-1441
▁이어	-1442
▁버전	-1443
▁애니메	-1444
▁특정	-1445
▁종류	-1446
▁컨	-1447
▁부족	-1448
▁연주	-1449
▁국립	-1450
▁페르	-1451
▁방영	-1452
카이	-1453
▁연속	-1454
드리	-1455
ㅜㅁ	-1456
▁쌍	-1457
▁피해	-1458
▁공항	-1459
▁선택	-1460
el	-1461
▁대체	-1462
▁대구	-1463
▁해군	-1464
et	-1465
▁규정	-1466
▁고대	-1467
버스	-1468
가지	-1469
▁멤버	-1470
▁체제	-1471
▁조약	-1472
▁북부	-1473
▁내부	-1474
루스	-1475
▁수록	-1476
▁속도	-1477
▁결승	-1478
▁기원전	-1479
▁아시아	-1480
▁선출	-1481
▁연대	-1482
▁애니메이션	-1483
글랜드	-1484
▁명령	-1485
▁헌법	-1486
▁정신	-1487
▁들어	-1488
▁크리스	-1489
▁인천	-1490
▁포르	-1491
거리	-1492
▁ㄴㅡㄴㅈㅣ	-1493
▁ㅂㅏㄺㅎㅕㅆ	-1494
▁풀	-1495
▁옛	-1496
ion	-1497
▁왜	-1498
▁가치	-1499
▁ㅇㅗㄻ	-1500
웨어	-1501
▁ㄱㅓㄹㅊㅕ	-1502
▁단계	-1503
▁영어	-1504
▁개혁	-1505
▁최종	-1506
▁자치	-1507
ing	-1508
▁물질	-1509
▁ㅇㅣㄹㅇㅡ	-1510
▁친구	-1511
▁달러	-1512
▁설계	-1513
ㅈㅊ	-1514
▁최근	-1515
▁분석	-1516
▁비행	-1517
▁밤	-1518
▁척	-1519
▁출판	-1520
트남	-1521
▁평균	-1522
▁의사	-1523
▁ㅇㅔㄴ	-1524
▁강화	-1525
시마	-1526
▁지명	-1527
▁1999	-1528
▁로스	-1529
▁ㅅㅐㅇ	-1530
▁체계	-1531
▁물리	-1532
▁더욱	-1533
ol	-1534
라스	-1535
▁표준	-1536
▁소비	-1537
▁잉글랜드	-1538
▁배치	-1539
▁술	-1540
메리카	-1541
▁걸	-1542
▁쥐	-1543
▁1998	-1544
▁ㅂㅜㄹㄹㅓ	-1545
▁법원	-1546
널리	-1547
▁익	-1548
ㅡㅁ	-1549
▁집단	-1550
21	-1551
▁Y	-1552
▁cm	-1553
▁치료	-1554
▁북한	-1555
▁머리	-1556
▁개월	-1557
▁획득	-1558
▁부문	-1559
▁씩	-1560
▁o	-1561
▁팬	-1562
▁언급	-1563
▁관심	-1564
▁뛰	-1565
▁헬	-1566
▁함수	-1567
▁하이	-1568
ㄴㅏㄴㄷㅏ	-1569
▁하계	-1570
▁분리	-1571
▁공원	-1572
▁1980	-1573
▁유사	-1574
▁현상	-1575
▁지속	-1576
▁부상	-1577
▁60	-1578
▁파리	-1579
▁ㅆㅓ	-1580
▁먼	-1581
▁벤	-1582
▁스테	-1583
▁실험	-1584
▁스포츠	-1585
▁조정	-1586
▁확장	-1587
▁처리	-1588
▁선발	-1589
스코	-1590
▁당하	-1591
▁입단	-1592
▁베르	-1593
▁엔진	-1594
▁관할	-1595
리지	-1596
▁제품	-1597
▁35	-1598
▁공립	-1599
▁가리	-1600
▁흔	-1601
▁대중	-1602
▁챔피언	-1603
렇게	-1604
▁마리	-1605
▁맺	-1606
▁겨	-1607
▁소유	-1608
▁문자	-1609
▁ㅋㅓ	-1610
▁목표	-1611
▁통일	-1612
▁칭	-1613
▁장군	-1614
▁도움	-1615
▁mm	-1616
▁요소	-1617
▁시도	-1618
▁주도	-1619
▁재판	-1620
디어	-1621
▁정규	-1622
▁에스	-1623
▁자동차	-1624
▁요시	-1625
▁외국	-1626
▁거주	-1627
▁이해	-1628
ㅣㅁ	-1629
▁꽃	-1630
▁점령	-1631
▁구단	-1632
▁나무	-1633
ㅂㅎ	-1634
▁ㄴㅡ	-1635
▁후반	-1636
▁ㄱㅣㄴ	-1637
▁원자	-1638
▁시험	-1639
▁주인	-1640
▁지나	-1641
▁편성	-1642
▁네덜	-1643
▁네덜란드	-1644
▁기사	-1645
ㅇㅔ	-1646
▁n	-1647
광역시	-1648
▁ㅇㅣㅁ	-1649
▁주민	-1650
▁학자	-1651
▁앤	-1652
▁행사	-1653
ㄹㄹㅣㄴㄷㅏ	-1654
▁일종	-1655
▁통신	-1656
▁파이	-1657
▁사령	-1658
▁결합	-1659
▁웹	-1660
▁투표	-1661
▁안정	-1662
▁혈	-1663
▁고속	-1664
▁동맹	-1665
▁붙	-1666
▁알렉	-1667
▁예선	-1668
▁불교	-1669
▁길이	-1670
om	-1671
▁수준	-1672
▁느	-1673
▁개봉	-1674
▁앙	-1675
나무	-1676
▁장치	-1677
야마	-1678
▁아프리카	-1679
▁ㄷㅔ	-1680
▁언론	-1681
▁1997	-1682
▁깊	-1683
젝트	-1684
▁디자인	-1685
▁본선	-1686
▁문서	-1687
▁불구	-1688
▁광주	-1689
일랜드	-1690
▁준비	-1691
▁베트남	-1692
▁사진	-1693
ㅅㅓㄴ	-1694
▁촉	-1695
▁캠	-1696
▁방문	-1697
▁바르	-1698
▁신문	-1699
▁가문	-1700
▁휘	-1701
메달	-1702
▁싸	-1703
▁유전	-1704
st	-1705
▁책임	-1706
▁ㄱㅏㅆ	-1707
▁ㄲㅡ	-1708
▁폴란드	-1709
▁구분	-1710
▁정권	-1711
▁1996	-1712
▁가정	-1713
▁칠	-1714
▁정확	-1715
▁ㅇㅣㄴㄷㅔ	-1716
▁The	-1717
▁ㅈㅜㄹ	-1718
▁1995	-1719
▁경험	-1720
▁그림	-1721
▁제조	-1722
ㅂㅗ	-1723
▁성적	-1724
▁핀	-1725
▁요리	-1726
▁비디오	-1727
▁ㅇㅗㄹㄹㅏㅆ	-1728
▁용어	-1729
▁amp	-1730
▁평화	-1731
▁부인	-1732
▁정리	-1733
▁32	-1734
▁믿	-1735
▁오늘날	-1736
▁통과	-1737
▁70	-1738
▁밝	-1739
▁부여	-1740
▁ㅁㅓㄴ	-1741
▁일제	-1742
▁원인	-1743
특별	-1744
▁왕조	-1745
▁아마	-1746
▁프로젝트	-1747
▁런던	-1748
▁추진	-1749
ㅇㅓㅆ	-1750
▁아직	-1751
▁덴	-1752
▁거두	-1753
▁찬	-1754
▁은퇴	-1755
▁병원	-1756
▁이곳	-1757
▁빠	-1758
▁쉽	-1759
ㅎㅏㄹ	-1760
ㅁㅡ	-1761
스로	-1762
▁종합	-1763
▁방어	-1764
▁프레	-1765
스턴	-1766
인트	-1767
▁ㄴㅓ	-1768
▁슈퍼	-1769
▁빛	-1770
▁신라	-1771
▁멸	-1772
▁500	-1773
▁폐지	-1774
▁인터넷	-1775
▁이듬	-1776
▁몬	-1777
▁영역	-1778
▁널리	-1779
▁해석	-1780
▁통치	-1781
▁경쟁	-1782
웨이	-1783
▁미사	-1784
▁훈련	-1785
▁ㅆㅡㄴ	-1786
▁경영	-1787
▁움	-1788
▁제주	-1789
▁입장	-1790
▁ㅊㅏ	-1791
▁the	-1792
▁면적	-1793
▁ㅍㅕ	-1794
▁총리	-1795
▁보도	-1796
▁츠	-1797
▁발달	-1798
▁주연	-1799
▁노력	-1800
레일	-1801
am	-1802
▁파괴	-1803
▁기여	-1804
▁제안	-1805
▁일어나	-1806
▁80	-1807
▁만화	-1808
▁멀	-1809
▁회장	-1810
▁유래	-1811
▁미술	-1812
▁번호	-1813
▁서부	-1814
▁주제	-1815
▁부정	-1816
▁이듬해	-1817
▁188	-1818
▁경기장	-1819
▁도서	-1820
▁야마	-1821
▁값	-1822
▁오르	-1823
▁국회의원	-1824
리트	-1825
▁UE	-1826
▁연맹	-1827
▁생물	-1828
▁남성	-1829
▁완전히	-1830
▁식민	-1831
▁빅	-1832
▁습	-1833
라인	-1834
▁자주	-1835
▁동부	-1836
▁민주당	-1837
▁궤	-1838
▁투수	-1839
▁경계	-1840
▁요청	-1841
▁+	-1842
▁그런	-1843
il	-1844
▁정상	-1845
▁잃	-1846
▁1994	-1847
▁폰	-1848
▁법률	-1849
▁UEFA	-1850
▁행성	-1851
▁1970	-1852
▁소재	-1853
▁무기	-1854
▁등록	-1855
▁수용	-1856
▁ㅂㅜㅌ	-1857
▁금지	-1858
▁ㄴㅏㅁ	-1859
▁연구소	-1860
▁삼성	-1861
톨릭	-1862
ac	-1863
▁인식	-1864
▁지진	-1865
▁제한	-1866
▁라디오	-1867
▁바탕	-1868
▁괴	-1869
▁링	-1870
▁강원	-1871
▁무대	-1872
▁박물	-1873
▁아시	-1874
▁발사	-1875
▁영토	-1876
▁노르	-1877
머지	-1878
▁지대	-1879
▁나머지	-1880
▁KBS	-1881
▁외교	-1882
▁접근	-1883
▁철학	-1884
▁표기	-1885
▁반면	-1886
▁린	-1887
ㅋㅣㄴ	-1888
▁뉴스	-1889
▁스스로	-1890
▁ㅅㅡㅂㄴㅣ	-1891
▁업무	-1892
▁정식	-1893
▁조각	-1894
ㅈㅣㄹ	-1895
▁뇌	-1896
▁거부	-1897
▁아일랜드	-1898
▁결성	-1899
▁마찬	-1900
▁마찬가지	-1901
▁서식	-1902
▁더불	-1903
▁오스	-1904
▁벽	-1905
▁오래	-1906
▁필리	-1907
▁1992	-1908
▁펜	-1909
▁상호	-1910
▁ㄷㅏㅇㅎㅐㅆ	-1911
▁은행	-1912
요일	-1913
▁ㄹㅜ	-1914
▁45	-1915
▁다수	-1916
▁공작	-1917
▁아카	-1918
▁기초	-1919
▁가톨릭	-1920
ro	-1921
ㅁㅕㄴㅅㅓ	-1922
▁박사	-1923
▁복귀	-1924
임스	-1925
▁보수	-1926
▁임시	-1927
▁논란	-1928
▁스웨	-1929
▁수학	-1930
▁트리	-1931
▁주의	-1932
▁득점	-1933
▁성격	-1934
시코	-1935
▁의식	-1936
▁바다	-1937
▁다리	-1938
▁36	-1939
ed	-1940
▁꼬	-1941
▁장애	-1942
▁of	-1943
▁ㄴㅏㄴ	-1944
▁ㄷㅡㄴ	-1945
모토	-1946
▁윌리	-1947
▁ㅈㅓㄴㅎㅐ	-1948
▁짧	-1949
▁지도자	-1950
▁박물관	-1951
▁초대	-1952
▁해결	-1953
▁이스	-1954
▁유로	-1955
▁장소	-1956
▁마이크	-1957
▁그대로	-1958
▁검사	-1959
▁소리	-1960
▁실제로	-1961
▁브라질	-1962
▁스위	-1963
워드	-1964
▁긴	-1965
▁총선	-1966
▁여행	-1967
▁카드	-1968
▁바뀌	-1969
▁집합	-1970
▁여름	-1971
▁화학	-1972
▁표시	-1973
▁차원	-1974
▁ㄸㅟ	-1975
▁강력	-1976
▁기구	-1977
▁패배	-1978
▁오브	-1979
▁묘사	-1980
▁식물	-1981
▁1960	-1982
아가	-1983
ig	-1984
▁계열	-1985
▁제시	-1986
▁관측	-1987
▁ㅁㅣ	-1988
▁이외	-1989
▁연극	-1990
▁1991	-1991
▁쓰이	-1992
▁에이	-1993
▁안전	-1994
▁인사	-1995
▁단순	-1996
▁유니	-1997
토리	-1998
▁차트	-1999
▁스웨덴	-2000
로나	-2001
▁활용	-2002
▁파일	-2003
▁멕	-2004
▁디지	-2005
▁무역	-2006
▁권력	-2007
▁개국	-2008
▁회원	-2009
▁잇	-2010
▁히로	-2011
▁오스트리아	-2012
▁곤	-2013
부르크	-2014
레일리아	-2015
▁1993	-2016
▁근처	-2017
▁33	-2018
▁기계	-2019
▁ㄲㅡㅌ	-2020
▁형제	-2021
▁캐릭	-2022
▁보다	-2023
▁조성	-2024
▁소프트웨어	-2025
▁반란	-2026
▁ㅂㅏㄺㅎㅕ	-2027
▁붕	-2028
배우	-2029
트리	-2030
▁먼저	-2031
▁지적	-2032
▁분포	-2033
베이	-2034
▁중간	-2035
▁중단	-2036
▁흡	-2037
▁발행	-2038
ㅐㄴ	-2039
▁위험	-2040
▁아무	-2041
▁일정	-2042
트로	-2043
▁세대	-2044
▁시행	-2045
▁스튜	-2046
▁스코	-2047
▁도착	-2048
▁여객	-2049
특별시	-2050
▁량	-2051
od	-2052
▁기자	-2053
▁협력	-2054
▁서울특별시	-2055
버트	-2056
▁사이트	-2057
사카	-2058
▁윈도	-2059
▁지하철	-2060
주시	-2061
▁186	-2062
▁단어	-2063
▁해안	-2064
▁캐릭터	-2065
▁하루	-2066
니스	-2067
▁다만	-2068
ve	-2069
▁",	-2070
▁렌	-2071
워크	-2072
▁나타나	-2073
▁코드	-2074
▁혜	-2075
▁파견	-2076
▁죽음	-2077
as	-2078
▁수많	-2079
▁연장	-2080
▁통하	-2081
▁내각	-2082
▁순위	-2083
▁세상	-2084
▁전시	-2085
▁경상남도	-2086
▁오스트레일리아	-2087
지션	-2088
▁공장	-2089
▁다카	-2090
▁본부	-2091
나이	-2092
▁생성	-2093
▁투자	-2094
▁후기	-2095
▁번역	-2096
▁카이	-2097
소년	-2098
▁삶	-2099
▁겪	-2100
▁케이	-2101
▁윌리엄	-2102
▁감소	-2103
▁근거	-2104
▁ㅉ	-2105
▁혐	-2106
▁경상북도	-2107
ㅇㅣㄹ	-2108
▁지상	-2109
▁옹	-2110
▁죄	-2111
▁뮤직	-2112
▁네트	-2113
▁제기	-2114
▁보유	-2115
▁확대	-2116
▁귀족	-2117
▁보존	-2118
▁태평	-2119
▁유형	-2120
▁관광	-2121
▁나타내	-2122
▁양식	-2123
▁ㅆㅏ	-2124
▁1988	-2125
무원	-2126
▁떠	-2127
▁ㅇㅣㄴㅈㅣ	-2128
▁지식	-2129
▁균	-2130
▁동생	-2131
▁바꾸	-2132
▁멜	-2133
▁위기	-2134
▁?	-2135
▁상징	-2136
▁달성	-2137
▁유대	-2138
▁187	-2139
▁촬	-2140
▁ㅋㅔ	-2141
▁캘	-2142
▁극장	-2143
▁멕시코	-2144
▁원소	-2145
▁촌	-2146
▁전략	-2147
▁상업	-2148
▁h	-2149
▁디지털	-2150
▁근무	-2151
▁영상	-2152
▁학위	-2153
▁당선	-2154
▁유리	-2155
▁수사	-2156
ㄹㅏㄴ	-2157
▁성립	-2158
▁완성	-2159
▁대응	-2160
▁굴	-2161
▁단위	-2162
▁34	-2163
▁특수	-2164
▁계승	-2165
▁촬영	-2166
▁체포	-2167
▁옆	-2168
▁이슬	-2169
▁올리	-2170
티아	-2171
▁수비	-2172
▁님	-2173
▁코치	-2174
ㅋㅣㄹ	-2175
▁식민지	-2176
▁38	-2177
▁나중	-2178
▁몇몇	-2179
▁이렇게	-2180
▁체결	-2181
id	-2182
▁전달	-2183
회사	-2184
▁마사	-2185
▁그렇	-2186
▁이집	-2187
▁이집트	-2188
▁권리	-2189
▁알렉산	-2190
▁종목	-2191
▁국왕	-2192
▁생명	-2193
가와	-2194
▁보내	-2195
▁90	-2196
▁듀	-2197
가리	-2198
아시아	-2199
▁승격	-2200
▁아내	-2201
▁시티	-2202
▁톤	-2203
▁헨	-2204
▁1989	-2205
▁직후	-2206
▁판단	-2207
▁이주	-2208
모리	-2209
▁타이틀	-2210
▁시청	-2211
▁개통	-2212
▁2021	-2213
▁맹	-2214
▁관찰	-2215
▁률	-2216
▁주식	-2217
▁도서관	-2218
▁크로	-2219
▁대륙	-2220
▁48	-2221
ec	-2222
▁미래	-2223
▁측정	-2224
▁동계	-2225
▁소수	-2226
▁미군	-2227
▁다루	-2228
▁젊	-2229
▁채널	-2230
▁엘리	-2231
▁홍콩	-2232
▁발매되	-2233
us	-2234
▁문화재	-2235
▁깨	-2236
▁낳	-2237
▁밑	-2238
▁정치인	-2239
▁싶	-2240
▁스키	-2241
▁전환	-2242
▁설정	-2243
▁자본	-2244
▁세르	-2245
▁포르투	-2246
and	-2247
▁특성	-2248
▁라인	-2249
▁텍	-2250
▁',	-2251
NA	-2252
▁새로	-2253
▁미사일	-2254
▁개정	-2255
ㄱㅏㄴ	-2256
▁납	-2257
▁신경	-2258
▁시위	-2259
▁종료	-2260
▁얼마	-2261
▁취임	-2262
▁의견	-2263
▁1950	-2264
▁기획	-2265
▁제정	-2266
▁지위	-2267
▁|	-2268
▁후쿠	-2269
▁본관	-2270
▁300	-2271
▁결승전	-2272
▁은하	-2273
▁ㄴㅓㅁ	-2274
ㅇㅣ	-2275
▁전차	-2276
▁청년	-2277
스티	-2278
▁MBC	-2279
디아	-2280
코드	-2281
▁사회주의	-2282
▁천황	-2283
▁e	-2284
▁아키	-2285
▁출생	-2286
▁주인공	-2287
▁교체	-2288
▁범죄	-2289
ad	-2290
▁헝	-2291
▁제임스	-2292
▁전라남도	-2293
▁셀	-2294
▁충돌	-2295
▁주목	-2296
▁계산	-2297
▁소개	-2298
▁예수	-2299
▁수정	-2300
▁해외	-2301
▁녹음	-2302
▁춘	-2303
교회	-2304
▁장기	-2305
▁ㅃㅜㄴ	-2306
▁1945	-2307
▁ㅁㅗㅅㅎㅏㄴ	-2308
▁음식	-2309
▁바이러스	-2310
▁비용	-2311
▁즉위	-2312
▁스티	-2313
▁ㄱㅏㅇㅎㅏㄴ	-2314
ㄴㅏㄹ	-2315
▁본래	-2316
▁남북	-2317
▁카운	-2318
▁개선	-2319
▁소장	-2320
리학	-2321
▁합류	-2322
ent	-2323
▁자격	-2324
▁건강	-2325
▁비밀	-2326
전히	-2327
▁공부	-2328
▁펠	-2329
▁네트워크	-2330
▁공급	-2331
▁ㅈㅕ	-2332
▁궤도	-2333
▁계기	-2334
▁ㅎㅑ	-2335
▁배경	-2336
▁부모	-2337
▁체육	-2338
스카	-2339
▁이래	-2340
▁만드	-2341
▁시내	-2342
▁에드	-2343
50	-2344
▁인근	-2345
▁제거	-2346
▁늘	-2347
▁원정	-2348
▁셰	-2349
▁ㅇㅗㄻㄱㅕ	-2350
▁컬	-2351
▁작성	-2352
▁공군	-2353
▁오후	-2354
▁각종	-2355
▁명예	-2356
ㄱㅏㄴㄷㅏ	-2357
▁가리키	-2358
▁거대	-2359
▁홈런	-2360
▁자원	-2361
ㅁㅏ	-2362
▁감염	-2363
▁물론	-2364
▁입학	-2365
▁왼	-2366
▁신학	-2367
▁가입	-2368
▁성우	-2369
▁베네	-2370
▁국경	-2371
▁군인	-2372
▁집중	-2373
▁피아	-2374
▁가격	-2375
▁전사	-2376
▁듣	-2377
▁천문	-2378
▁ㄱㅏㅈㅊ	-2379
베르	-2380
▁명단	-2381
ㅝㅆ	-2382
▁객	-2383
▁포지션	-2384
▁ㅆㅓㅆ	-2385
▁나누	-2386
▁울산	-2387
▁병력	-2388
▁ㅁㅓ	-2389
▁저항	-2390
▁신호	-2391
ㄷㅇㅏ	-2392
ㄹㅡㄹ	-2393
니어	-2394
▁ㅈㅜㄴㄷㅏ	-2395
▁통제	-2396
티나	-2397
▁이슬람	-2398
▁농업	-2399
▁기후	-2400
리포	-2401
▁끌	-2402
피아	-2403
▁강조	-2404
▁찰	-2405
▁질량	-2406
▁측면	-2407
▁소송	-2408
▁St	-2409
▁인수	-2410
▁터미	-2411
▁만약	-2412
▁플로	-2413
▁실행	-2414
▁블랙	-2415
▁학문	-2416
▁ㅁㅔ	-2417
▁세이	-2418
▁ㅈㅜㄴ	-2419
▁병사	-2420
▁콩	-2421
▁마치	-2422
▁터키	-2423
▁움직	-2424
ot	-2425
도로	-2426
▁ㅇㅏㅍ	-2427
▁오른	-2428
▁강원도	-2429
▁겨울	-2430
▁x	-2431
▁정착	-2432
▁최소	-2433
▁증명	-2434
▁약간	-2435
▁비트	-2436
▁변호	-2437
▁잎	-2438
▁엑	-2439
ㄹㅡㅁ	-2440
▁기회	-2441
▁너무	-2442
ㅎㅕ	-2443
▁읽	-2444
ㄴㅓ	-2445
▁미디어	-2446
▁ㄴㅜ	-2447
▁무장	-2448
un	-2449
▁외부	-2450
▁광고	-2451
▁노동자	-2452
▁이번	-2453
▁37	-2454
ow	-2455
▁해방	-2456
▁in	-2457
▁몽골	-2458
동안	-2459
▁편집	-2460
▁아우	-2461
▁터미널	-2462
▁국방	-2463
▁환자	-2464
ㄱㅓ	-2465
철도	-2466
▁ㅍㅕㄹ	-2467
▁마쓰	-2468
▁마리아	-2469
▁다니	-2470
▁제목	-2471
스키	-2472
▁태평양	-2473
▁지점	-2474
▁밀도	-2475
▁들어가	-2476
▁놀	-2477
▁냉	-2478
▁표면	-2479
▁라운드	-2480
▁무렵	-2481
▁금융	-2482
▁도중	-2483
▁전반	-2484
▁ㅇㅣㄴㅎㅏㄴ	-2485
▁마련	-2486
▁유도	-2487
▁혐의	-2488
▁1987	-2489
오카	-2490
▁가스	-2491
▁허용	-2492
▁바람	-2493
ㄴㅏㅆㅇㅡ	-2494
▁그해	-2495
▁카르	-2496
▁학년	-2497
▁윈도우	-2498
▁힐	-2499
▁충분	-2500
▁짓	-2501
▁합병	-2502
소리	-2503
▁충청남도	-2504
▁인디	-2505
▁루이	-2506
▁만나	-2507
▁쇠	-2508
▁래	-2509
▁여전히	-2510
▁꼬리	-2511
▁재산	-2512
▁영화배우	-2513
▁재직	-2514
▁민간	-2515
▁갖추	-2516
▁오사카	-2517
▁전력	-2518
▁포르투갈	-2519
▁가르	-2520
▁모리	-2521
▁숲	-2522
▁ㅂㅓㄹ	-2523
▁w	-2524
▁양성	-2525
마크	-2526
▁고전	-2527
▁등급	-2528
▁선수단	-2529
ㅈㅇㅏ	-2530
▁전역	-2531
▁41	-2532
▁뒷	-2533
▁령	-2534
▁붕괴	-2535
▁킹	-2536
▁헝가리	-2537
▁현실	-2538
▁라이브	-2539
▁1986	-2540
▁재정	-2541
드로	-2542
▁공주	-2543
▁1984	-2544
▁51	-2545
ur	-2546
▁지내	-2547
▁캘리포	-2548
▁공공	-2549
▁보고	-2550
▁엔터	-2551
▁스튜디오	-2552
▁이하	-2553
▁동료	-2554
▁ㄹㅣ	-2555
▁봄	-2556
▁털	-2557
▁대수	-2558
▁계급	-2559
▁위원장	-2560
▁전선	-2561
▁승인	-2562
▁강제	-2563
▁군주	-2564
▁상하	-2565
▁적극	-2566
▁인하	-2567
▁온도	-2568
▁대대	-2569
▁ㅂㅜㄹㄹㅣㄴㄷㅏ	-2570
▁위협	-2571
▁샌	-2572
▁조치	-2573
▁근대	-2574
▁구축	-2575
▁롤	-2576
▁유엔	-2577
ㄹㅣㄹ	-2578
▁수입	-2579
▁범위	-2580
▁전하	-2581
▁ㅈㅗ	-2582
▁클라	-2583
▁캘리포니아	-2584
▁임무	-2585
▁오리	-2586
▁ㅂㅏㄷㅇㅏ	-2587
▁이미지	-2588
▁경력	-2589
▁양자	-2590
▁업체	-2591
▁논문	-2592
▁대학원	-2593
▁핀란드	-2594
▁위성	-2595
▁출발	-2596
▁다섯	-2597
▁고구	-2598
▁교사	-2599
▁항상	-2600
▁거래	-2601
▁점차	-2602
▁성인	-2603
▁미치	-2604
▁토론	-2605
▁공산당	-2606
▁후지	-2607
▁채택	-2608
▁전개	-2609
▁필리핀	-2610
▁수단	-2611
▁원칙	-2612
▁회복	-2613
▁확보	-2614
▁잭	-2615
마스	-2616
▁아시안	-2617
▁강의	-2618
▁잡지	-2619
▁섭	-2620
▁수립	-2621
테르	-2622
▁드래	-2623
ㅇㅛ	-2624
ch	-2625
▁남아	-2626
▁공업	-2627
▁증거	-2628
▁첨	-2629
주교	-2630
▁39	-2631
▁남편	-2632
▁ㅈㅔ	-2633
▁400	-2634
▁개편	-2635
▁매년	-2636
▁ㅊㅏㅈㅇㅏ	-2637
▁기지	-2638
▁스파	-2639
▁얼굴	-2640
▁일원	-2641
고리	-2642
▁선생	-2643
ㄴㅐㄴㄷㅏ	-2644
▁의료	-2645
▁사례	-2646
▁합의	-2647
▁만족	-2648
▁시인	-2649
바이	-2650
▁나카	-2651
▁스위스	-2652
▁이스라	-2653
▁1985	-2654
▁부근	-2655
▁폭발	-2656
▁꿈	-2657
▁그래서	-2658
▁장비	-2659
▁64	-2660
▁간주	-2661
▁ㄴㅐㅆ	-2662
로드	-2663
▁이승	-2664
▁모스크	-2665
▁종종	-2666
▁대형	-2667
▁ㄷㅚㅁ	-2668
데미	-2669
▁경주	-2670
▁붉	-2671
▁대기	-2672
▁군단	-2673
▁스리	-2674
ay	-2675
▁이스라엘	-2676
▁끼	-2677
▁띠	-2678
▁분자	-2679
▁규칙	-2680
ir	-2681
▁ㅅㅓㄴ	-2682
▁장면	-2683
▁토지	-2684
▁항성	-2685
▁아주	-2686
▁답	-2687
▁욕	-2688
▁불가	-2689
▁II	-2690
▁수원	-2691
▁종이	-2692
ut	-2693
▁어린	-2694
▁ㅇㅕㄹㄹㅕㅆ	-2695
▁롭	-2696
▁게이	-2697
▁캄	-2698
▁경향	-2699
▁ㅂㅓㄹㅇㅓ	-2700
▁조합	-2701
백질	-2702
▁알리	-2703
키아	-2704
▁ㅂㅜㄹㄹㅓㅆ	-2705
▁해체	-2706
▁낭	-2707
▁진화	-2708
▁탑재	-2709
▁귀국	-2710
▁꾸	-2711
우드	-2712
um	-2713
▁레코드	-2714
▁아랍	-2715
▁강점	-2716
▁아카데미	-2717
▁43	-2718
고기	-2719
레이드	-2720
▁그곳	-2721
▁대장	-2722
▁br	-2723
▁확실	-2724
▁쉬	-2725
▁기억	-2726
▁서양	-2727
▁버리	-2728
▁이제	-2729
▁신화	-2730
▁평양	-2731
▁짐	-2732
ㅇㅜㄹ	-2733
▁세우	-2734
▁향상	-2735
▁클래	-2736
▁투어	-2737
im	-2738
▁장식	-2739
▁스피	-2740
▁아나	-2741
▁고양	-2742
▁기대	-2743
▁아메리카	-2744
▁박쥐	-2745
▁청소년	-2746
▁란	-2747
▁좀	-2748
▁침공	-2749
▁42	-2750
▁틀	-2751
▁ㅍㅏ	-2752
▁보장	-2753
▁융	-2754
▁의학	-2755
▁청나라	-2756
▁카운티	-2757
▁폼	-2758
▁남동	-2759
▁랭	-2760
ㅡㄹㅇㅓ	-2761
▁메이저	-2762
▁사후	-2763
▁고구려	-2764
오스	-2765
▁켄	-2766
▁만큼	-2767
요시	-2768
▁카메	-2769
▁자금	-2770
▁에피	-2771
보드	-2772
▁보병	-2773
▁어떻	-2774
ㄱㅏㄹ	-2775
ver	-2776
▁가사	-2777
네스	-2778
▁불과	-2779
▁선고	-2780
▁잠시	-2781
▁신설	-2782
▁1982	-2783
▁소년	-2784
▁나치	-2785
▁성과	-2786
▁맛	-2787
라비아	-2788
▁단백질	-2789
▁빠르	-2790
▁55	-2791
▁독자	-2792
▁스타일	-2793
타인	-2794
▁고문	-2795
▁중화민국	-2796
▁이끄	-2797
에르	-2798
▁만주	-2799
라노	-2800
▁숭	-2801
▁라틴	-2802
▁편입	-2803
▁감정	-2804
▁철도역	-2805
▁살해	-2806
▁우선	-2807
▁우수	-2808
▁단지	-2809
▁스카	-2810
▁ㅅㅏㄹ	-2811
▁확정	-2812
네시아	-2813
틀랜드	-2814
▁ㅌㅗㅇㅎㅏㄴ	-2815
▁스케	-2816
▁광역시	-2817
▁함대	-2818
▁복잡	-2819
▁ㅌㅏ	-2820
▁비율	-2821
▁ㄱㅏㅈㅊㅜㄴ	-2822
▁덴마크	-2823
▁1983	-2824
▁i	-2825
▁차별	-2826
▁신앙	-2827
▁의장	-2828
▁지시	-2829
▁모르	-2830
▁세종	-2831
▁나폴	-2832
▁44	-2833
▁왕위	-2834
다이	-2835
▁재단	-2836
▁예상	-2837
▁창설	-2838
▁온라인	-2839
누스	-2840
▁LG	-2841
일러	-2842
▁태풍	-2843
▁삭	-2844
▁고향	-2845
FC	-2846
▁공유	-2847
▁마크	-2848
▁법인	-2849
ㅅㅓㅆ	-2850
▁구체	-2851
▁전설	-2852
▁나뉘	-2853
▁성당	-2854
▁선거구	-2855
▁ㄷㅏㅇㅎㅏㄴ	-2856
▁검찰	-2857
▁전화	-2858
▁역대	-2859
▁브리	-2860
▁동의	-2861
▁육상	-2862
▁킬	-2863
하라	-2864
▁47	-2865
▁솔로	-2866
▁반도	-2867
▁참석	-2868
▁판결	-2869
▁삼국	-2870
▁보급	-2871
▁브랜드	-2872
운동	-2873
ㄹㅜㄴㄷㅏ	-2874
트라	-2875
▁대립	-2876
▁ㅎㅏㅂ	-2877
싱턴	-2878
▁유학	-2879
▁하늘	-2880
의회	-2881
▁저장	-2882
▁ㅎㅐㅆㅇㅓㅆ	-2883
▁노예	-2884
▁고정	-2885
▁수출	-2886
▁후손	-2887
이크	-2888
비드	-2889
▁애플	-2890
▁핵심	-2891
▁카를	-2892
▁ㅇㅗㄹㄹㅕㅆ	-2893
ㅇㅗㄴㄷㅏ	-2894
▁집행	-2895
▁이루어지	-2896
▁75	-2897
▁오픈	-2898
▁강점기	-2899
▁협상	-2900
▁본격	-2901
▁ㄴㅑ	-2902
▁184	-2903
▁보안	-2904
▁산맥	-2905
▁ㄴㅔ	-2906
▁180	-2907
▁ㅂㅐ	-2908
▁Z	-2909
▁앞두	-2910
▁마드리	-2911
▁초반	-2912
오프	-2913
▁회전	-2914
셔널	-2915
원군	-2916
없이	-2917
▁자세	-2918
▁탄생	-2919
▁암살	-2920
▁대비	-2921
문화	-2922
▁중반	-2923
▁사전	-2924
ㅇㅡㄹ	-2925
▁연고	-2926
각형	-2927
▁ㅈㅓㅂ	-2928
▁숫	-2929
▁대항	-2930
▁마드리드	-2931
▁로버트	-2932
▁1972	-2933
▁옷	-2934
▁이성	-2935
▁헤이	-2936
▁베이스	-2937
반도	-2938
▁주교	-2939
▁까	-2940
▁플랫	-2941
▁사라	-2942
▁아르헨	-2943
▁법칙	-2944
▁듯	-2945
▁켈	-2946
리스트	-2947
▁어린이	-2948
▁사우	-2949
▁공학	-2950
▁전용	-2951
▁권한	-2952
▁순서	-2953
▁46	-2954
소드	-2955
어들	-2956
▁단일	-2957
▁지키	-2958
▁말기	-2959
▁1920	-2960
▁이란	-2961
▁공기	-2962
▁프란	-2963
▁베를	-2964
▁유적	-2965
▁의무	-2966
레이션	-2967
▁직원	-2968
▁전혀	-2969
▁아르헨티나	-2970
▁수여	-2971
▁조금	-2972
CA	-2973
▁요한	-2974
▁인상	-2975
▁떨	-2976
▁중심지	-2977
터리	-2978
▁시각	-2979
으키	-2980
▁이익	-2981
▁1979	-2982
▁별도	-2983
▁공포	-2984
▁아미	-2985
▁운전	-2986
▁ㅍㅓ	-2987
▁아스	-2988
▁전라북도	-2989
▁사항	-2990
▁스크	-2991
▁효소	-2992
▁흔히	-2993
▁빨	-2994
▁보조	-2995
▁ㄷㅜㄴ	-2996
ㄹㅝ	-2997
▁비난	-2998
▁글로	-2999
▁롯	-3000
▁잘못	-3001
▁원주	-3002
▁워싱턴	-3003
▁CD	-3004
▁협정	-3005
▁상품	-3006
▁변호사	-3007
▁kg	-3008
▁아파	-3009
▁전후	-3010
▁파크	-3011
▁관료	-3012
▁우크	-3013
▁통계	-3014
▁쌓	-3015
▁방면	-3016
정부	-3017
ra	-3018
▁을	-3019
▁창조	-3020
▁튀	-3021
▁인권	-3022
▁1930	-3023
퍼드	-3024
▁작곡가	-3025
▁레드	-3026
▁금메달	-3027
▁In	-3028
▁1981	-3029
▁투입	-3030
▁ㄴㅗㅎ	-3031
▁텐	-3032
▁저서	-3033
▁현장	-3034
▁1973	-3035
무라	-3036
▁장착	-3037
▁항복	-3038
▁하드	-3039
▁소식	-3040
▁아침	-3041
▁셋	-3042
▁정복	-3043
▁150	-3044
▁벡	-3045
퍼스	-3046
사키	-3047
▁호텔	-3048
10	-3049
▁ㅋㅣ	-3050
▁심각	-3051
▁공무원	-3052
▁엠	-3053
▁훨	-3054
▁드러	-3055
▁중세	-3056
▁헨리	-3057
▁강하	-3058
리어	-3059
▁노스	-3060
▁니콜	-3061
▁건국	-3062
▁오른쪽	-3063
os	-3064
▁교류	-3065
▁숨	-3066
▁공화	-3067
▁교토	-3068
▁본인	-3069
▁중부	-3070
▁ㄷㅡㅅ	-3071
▁v	-3072
▁ㅈㅜㄱ	-3073
▁갈등	-3074
▁산하	-3075
▁훨씬	-3076
▁공산주의	-3077
▁마이클	-3078
▁코미	-3079
▁빙	-3080
▁요새	-3081
▁세인트	-3082
▁김정	-3083
▁오랜	-3084
▁유전자	-3085
ㄷㅡㄹㅇㅕ	-3086
▁건조	-3087
▁한때	-3088
▁출마	-3089
▁플라	-3090
▁왼쪽	-3091
▁인정받	-3092
▁오히	-3093
▁플레이어	-3094
▁논의	-3095
▁서기	-3096
ㅡㄹㄹㅓ	-3097
▁무리	-3098
▁창립	-3099
▁성경	-3100
▁인류	-3101
▁오토	-3102
▁어떻게	-3103
▁로드	-3104
▁연합군	-3105
▁방출	-3106
▁추측	-3107
▁금속	-3108
▁1940	-3109
▁베이징	-3110
▁원작	-3111
30	-3112
▁태국	-3113
▁1974	-3114
▁주위	-3115
BO	-3116
▁185	-3117
▁예산	-3118
▁성질	-3119
▁노르웨이	-3120
em	-3121
▁북서	-3122
▁릴	-3123
▁끊	-3124
▁제자	-3125
▁형사	-3126
일보	-3127
▁복합	-3128
▁투쟁	-3129
▁에피소드	-3130
▁군수	-3131
▁코스	-3132
▁열리	-3133
ter	-3134
▁에어	-3135
▁사령관	-3136
▁운용	-3137
▁일으키	-3138
▁사태	-3139
▁플레이오프	-3140
▁모스크바	-3141
▁효율	-3142
▁전철	-3143
▁오전	-3144
▁논쟁	-3145
▁SBS	-3146
▁멸망	-3147
▁입자	-3148
▁ㅂㅣㄴ	-3149
▁반복	-3150
▁해양	-3151
카와	-3152
▁스코틀랜드	-3153
▁합성	-3154
▁집안	-3155
▁절대	-3156
▁정비	-3157
▁구별	-3158
▁1948	-3159
▁노부	-3160
▁제출	-3161
▁숫자	-3162
▁메시	-3163
▁주기	-3164
▁ㅂㅕ	-3165
▁블루	-3166
▁연산	-3167
▁인종	-3168
듀서	-3169
▁각본	-3170
▁프로듀서	-3171
▁탁	-3172
▁미니	-3173
▁사법	-3174
머스	-3175
▁54	-3176
▁ㄷㅔㄹ	-3177
▁ㅈㅣㄴㄷㅏ	-3178
▁포위	-3179
▁흡수	-3180
▁인조	-3181
▁거절	-3182
▁이어지	-3183
▁1968	-3184
▁출장	-3185
▁인공	-3186
▁델	-3187
▁댄	-3188
ㄹㅣㄴㄷㅏ	-3189
▁ㅂㅜㄹㄹㅕㅆ	-3190
▁중대	-3191
▁1976	-3192
▁원리	-3193
▁웨스트	-3194
▁슬로	-3195
▁연관	-3196
▁베를린	-3197
▁경성	-3198
도르	-3199
▁활발	-3200
▁목사	-3201
▁ㄷㅜㄹㄹㅓ	-3202
▁마침	-3203
▁수송	-3204
▁시점	-3205
▁ㅂㅜㅌㅇㅕ	-3206
▁신체	-3207
▁북동	-3208
▁출입	-3209
▁오히려	-3210
▁소녀	-3211
▁전공	-3212
▁해상	-3213
라크	-3214
▁이민	-3215
▁건립	-3216
▁개시	-3217
▁주전	-3218
▁포기	-3219
▁1975	-3220
▁읍	-3221
▁보스	-3222
▁인터뷰	-3223
▁음력	-3224
▁취급	-3225
▁사령부	-3226
다리	-3227
▁우스	-3228
▁국도	-3229
▁가로	-3230
▁지니	-3231
op	-3232
▁명성	-3233
ㅁㅊ	-3234
시스	-3235
데스	-3236
▁디스	-3237
▁파라	-3238
▁트랙	-3239
▁고용	-3240
▁축제	-3241
▁ㅂㅏㄲ	-3242
▁ㅂㅏㄲㅇㅔ	-3243
▁영화제	-3244
나이티	-3245
▁동원	-3246
▁활성	-3247
▁취득	-3248
▁히데	-3249
▁분쟁	-3250
▁프라	-3251
▁1978	-3252
▁유나이티	-3253
▁신성	-3254
▁국장	-3255
▁농민	-3256
▁주택	-3257
▁1971	-3258
▁56	-3259
▁장악	-3260
ag	-3261
▁어렵	-3262
▁미드	-3263
▁갤	-3264
▁소스	-3265
▁비록	-3266
ㄹㅡㅁㄷㅏ	-3267
▁총독	-3268
▁보컬	-3269
▁빼	-3270
▁구속	-3271
▁고유	-3272
▁1963	-3273
▁진보	-3274
▁일치	-3275
▁견해	-3276
▁생기	-3277
▁ㅅㅗㄱㅎㅏㄴㄷㅏ	-3278
산시	-3279
▁죽이	-3280
서트	-3281
▁52	-3282
▁전부	-3283
▁ㄱㅓㄴㄴㅓ	-3284
▁북아	-3285
▁불법	-3286
▁유물	-3287
▁49	-3288
▁직전	-3289
▁한자	-3290
▁자이	-3291
▁하위	-3292
▁코미디	-3293
▁후원	-3294
▁부활	-3295
키스탄	-3296
에트	-3297
쿠라	-3298
▁65	-3299
▁포도	-3300
▁교차	-3301
▁학습	-3302
▁여객철도	-3303
▁폭력	-3304
▁연료	-3305
▁정체	-3306
▁관점	-3307
▁닌	-3308
▁보험	-3309
▁타이완	-3310
▁주관	-3311
▁도달	-3312
▁수술	-3313
▁대리	-3314
메리	-3315
세이	-3316
▁1969	-3317
▁천체	-3318
ce	-3319
▁둥	-3320
▁혼란	-3321
▁179	-3322
▁떠나	-3323
▁항공기	-3324
▁약속	-3325
▁편지	-3326
▁아테	-3327
▁이기	-3328
▁시리아	-3329
▁한국어	-3330
기에	-3331
▁철수	-3332
▁Q	-3333
▁관직	-3334
젤레스	-3335
▁직업	-3336
▁상당히	-3337
▁본사	-3338
리케	-3339
릭스	-3340
▁고종	-3341
▁여부	-3342
▁00	-3343
▁미나	-3344
▁명명	-3345
▁ㅇㅐㄴ	-3346
▁수집	-3347
▁선교	-3348
▁장교	-3349
▁반영	-3350
▁데이비드	-3351
▁임금	-3352
▁제어	-3353
▁취하	-3354
▁넷	-3355
▁팝	-3356
자기	-3357
▁테러	-3358
▁ㄱㅕ	-3359
▁브레	-3360
▁성능	-3361
▁1946	-3362
▁논리	-3363
▁그리스도	-3364
▁백제	-3365
▁아사	-3366
▁주간	-3367
▁의존	-3368
▁화물	-3369
▁예비	-3370
▁부임	-3371
▁상륙	-3372
공항	-3373
▁영업	-3374
▁보관	-3375
▁일대	-3376
▁폴리	-3377
▁스미	-3378
▁학술	-3379
▁프리미	-3380
▁하나님	-3381
▁소방	-3382
▁톰	-3383
▁백작	-3384
▁불상	-3385
▁도구	-3386
▁내리	-3387
▁심리	-3388
▁주식회사	-3389
▁해산	-3390
OS	-3391
▁연재	-3392
▁프로세	-3393
▁53	-3394
▁대화	-3395
▁정지	-3396
▁콘서트	-3397
▁무엇	-3398
아내	-3399
▁교환	-3400
▁접하	-3401
▁스마	-3402
▁허가	-3403
ㅈㅜㄴㄷㅏ	-3404
▁하우스	-3405
▁개체	-3406
▁전파	-3407
ㅇㅜ	-3408
▁코로나	-3409
미터	-3410
▁박정	-3411
▁십자	-3412
▁전문가	-3413
▁제일	-3414
이어	-3415
oc	-3416
▁1964	-3417
▁정원	-3418
▁방사	-3419
▁충청북도	-3420
▁대략	-3421
▁니시	-3422
▁자살	-3423
▁헤르	-3424
▁핑	-3425
▁간단	-3426
프리	-3427
▁반발	-3428
▁ㄴㅐㄴ	-3429
▁진입	-3430
▁화성	-3431
▁영향력	-3432
▁보건	-3433
▁살인	-3434
▁재료	-3435
▁판서	-3436
▁베스트	-3437
▁학부	-3438
병대	-3439
▁벨기에	-3440
▁리스	-3441
▁미터	-3442
▁US	-3443
▁포트	-3444
▁겐	-3445
▁공통	-3446
▁서버	-3447
▁상승	-3448
뿌리	-3449
▁신분	-3450
▁거기	-3451
▁항구	-3452
▁국제공항	-3453
▁안타	-3454
▁김영	-3455
ri	-3456
▁학원	-3457
▁영입	-3458
▁지붕	-3459
▁그런데	-3460
▁인도네시아	-3461
▁and	-3462
▁58	-3463
▁승진	-3464
▁사장	-3465
▁피아노	-3466
▁꼭	-3467
▁고리	-3468
▁소비에트	-3469
▁가을	-3470
▁시호	-3471
▁파트	-3472
▁학회	-3473
노스	-3474
▁바라	-3475
▁그레	-3476
▁부장	-3477
▁1000	-3478
▁99	-3479
▁외국인	-3480
▁ㄹㅔ	-3481
▁루이스	-3482
▁랜	-3483
▁진압	-3484
▁스프	-3485
▁스토	-3486
하마	-3487
▁아라	-3488
▁사운드	-3489
▁브루	-3490
▁식품	-3491
▁창단	-3492
▁질병	-3493
▁횡	-3494
▁채용	-3495
▁콤	-3496
▁변환	-3497
▁주년	-3498
어스	-3499
▁복무	-3500
ㅈㅕㅆㅇㅡ	-3501
▁계통	-3502
▁참전	-3503
▁구성원	-3504
▁현역	-3505
▁PC	-3506
▁임대	-3507
▁응용	-3508
▁픽	-3509
▁저지	-3510
▁1977	-3511
저우	-3512
▁요코	-3513
▁통상	-3514
▁공동체	-3515
▁감사	-3516
▁탈출	-3517
▁임의	-3518
▁합격	-3519
천군	-3520
▁작사	-3521
▁장수	-3522
▁트랜	-3523
▁민법	-3524
▁리더	-3525
ㄴㅐㄹ	-3526
아버지	-3527
▁찍	-3528
▁기도	-3529
▁망명	-3530
▁SK	-3531
▁모드	-3532
▁벼	-3533
▁의도	-3534
▁롯데	-3535
▁한반도	-3536
▁탈락	-3537
▁말레이	-3538
▁문헌	-3539
▁고도	-3540
▁조작	-3541
▁화면	-3542
▁로스앤	-3543
▁로스앤젤레스	-3544
▁페이	-3545
다가	-3546
▁1949	-3547
▁친일	-3548
▁포로	-3549
▁위반	-3550
아들	-3551
▁에도	-3552
▁신청	-3553
▁탄소	-3554
▁라이트	-3555
▁문장	-3556
문화재	-3557
▁발언	-3558
성군	-3559
▁부부	-3560
▁방송국	-3561
▁마케	-3562
▁트라	-3563
▁흐르	-3564
igh	-3565
▁이치	-3566
▁학과	-3567
▁FA	-3568
▁동남	-3569
▁캠퍼스	-3570
ㄹㄹㅣㄹ	-3571
▁88	-3572
▁수영	-3573
▁변형	-3574
▁선조	-3575
▁저작	-3576
정식	-3577
▁배출	-3578
▁수소	-3579
▁트로	-3580
▁ㅍㅣ	-3581
▁1962	-3582
▁메모리	-3583
ㄹㅓㅆ	-3584
▁연출	-3585
▁상원	-3586
▁엑스	-3587
ation	-3588
▁시카	-3589
▁예측	-3590
▁코파	-3591
▁62	-3592
▁절차	-3593
▁청구	-3594
▁자녀	-3595
▁레오	-3596
▁1967	-3597
▁주둔	-3598
▁전동	-3599
려움	-3600
▁조절	-3601
▁기호	-3602
▁..	-3603
▁이중	-3604
▁택	-3605
▁분열	-3606
카이도	-3607
▁기하	-3608
▁요인	-3609
▁신인	-3610
▁큐	-3611
▁서원	-3612
▁국무	-3613
▁누구	-3614
▁화재	-3615
▁레스	-3616
▁정기	-3617
드시	-3618
▁처형	-3619
▁r	-3620
타르	-3621
▁좁	-3622
▁로켓	-3623
▁출간	-3624
▁ㅈㅕㅆㅇㅡ	-3625
크스	-3626
▁호수	-3627
▁선전	-3628
로그	-3629
▁57	-3630
천시	-3631
▁광장	-3632
▁막부	-3633
▁이승만	-3634
▁실수	-3635
ㅟㄴㄷㅏ	-3636
▁수리	-3637
▁ㅇㅛ	-3638
▁남서	-3639
▁황금	-3640
▁방지	-3641
▁ㅅㅣㅁ	-3642
▁증상	-3643
▁카메라	-3644
▁달하	-3645
▁동작	-3646
▁루트	-3647
▁이시	-3648
페라	-3649
▁기법	-3650
▁동성	-3651
▁연안	-3652
▁왕자	-3653
▁장르	-3654
▁취소	-3655
▁흑인	-3656
브리	-3657
▁ㅇㅣㅂㄴㅣ	-3658
▁개조	-3659
▁오스만	-3660
▁스럽	-3661
▁어떠	-3662
▁You	-3663
▁생존	-3664
▁콘스탄	-3665
▁앵	-3666
▁흉	-3667
▁ㅁㅏㅈ	-3668
라드	-3669
▁롱	-3670
바르	-3671
▁Ch	-3672
▁ㄴㅏㅁㄱㅕㅆ	-3673
포르	-3674
▁위상	-3675
▁지급	-3676
▁서구	-3677
▁등지	-3678
▁현지	-3679
▁기체	-3680
▁농구	-3681
▁히트	-3682
▁고지	-3683
▁여단	-3684
▁전주	-3685
▁좌우	-3686
▁천연	-3687
▁반드시	-3688
▁임진	-3689
▁진주	-3690
▁ㄴㅡㄴㄱㅏ	-3691
▁일본군	-3692
비치	-3693
▁공정	-3694
▁무덤	-3695
▁터널	-3696
▁181	-3697
▁크리	-3698
▁희망	-3699
아오	-3700
▁ㄱㅏㄹ	-3701
▁동아	-3702
▁제대로	-3703
▁톱	-3704
▁코르	-3705
▁도전	-3706
▁전면	-3707
ㅁㅜ	-3708
방송	-3709
ㄱㅣㄹ	-3710
▁ㅇㅜ	-3711
▁스탠	-3712
▁ㅍㅜ	-3713
nd	-3714
▁글자	-3715
▁1966	-3716
▁분명	-3717
▁미국인	-3718
▁바둑	-3719
▁이온	-3720
▁압력	-3721
▁66	-3722
▁둘째	-3723
▁특이	-3724
▁녹색	-3725
▁독립운동	-3726
▁그레이	-3727
▁%,	-3728
▁파악	-3729
ㄹㄹㅓㅆ	-3730
▁싸움	-3731
▁전형	-3732
▁노벨	-3733
▁짜	-3734
▁경로	-3735
▁방정식	-3736
▁독특	-3737
라이언	-3738
▁1965	-3739
▁리처	-3740
▁KBO	-3741
바라	-3742
▁68	-3743
▁매일	-3744
▁법정	-3745
▁아프	-3746
▁해리	-3747
▁에르	-3748
티브	-3749
▁물체	-3750
▁부사	-3751
▁유기	-3752
▁183	-3753
더스	-3754
▁타임	-3755
▁목소리	-3756
▁ㄹㅏㅇ	-3757
▁체코	-3758
에이	-3759
▁나들	-3760
▁신뢰	-3761
▁일식	-3762
▁ㅊㅟ	-3763
▁뿌리	-3764
▁성향	-3765
▁개신	-3766
▁인지	-3767
▁ㅇㅣㄴㄱㅏ	-3768
▁분해	-3769
▁61	-3770
▁클레	-3771
ST	-3772
▁알렉산드	-3773
▁지리	-3774
▁간행	-3775
▁밥	-3776
치아	-3777
▁즐	-3778
▁퀸	-3779
베스	-3780
▁홋	-3781
▁처벌	-3782
▁찰스	-3783
▁일찍	-3784
▁돌아가	-3785
르타	-3786
▁동기	-3787
▁화산	-3788
▁타격	-3789
이치	-3790
▁유행	-3791
▁완료	-3792
▁분할	-3793
▁사립	-3794
ㄷㅡ	-3795
▁나들목	-3796
질랜드	-3797
▁내전	-3798
▁김일	-3799
▁손자	-3800
▁실질	-3801
ㅅㅔ	-3802
▁방해	-3803
▁범주	-3804
▁뉴질랜드	-3805
▁풍부	-3806
▁삽	-3807
▁순환	-3808
▁던	-3809
▁아리	-3810
▁추구	-3811
▁ㅈㅓㅇㅎㅐ	-3812
▁구하	-3813
▁아동	-3814
▁갈색	-3815
▁1961	-3816
▁별명	-3817
ER	-3818
▁싸우	-3819
▁평등	-3820
▁맞이	-3821
▁대개	-3822
▁묵	-3823
▁웅	-3824
▁ㄲㅡㅌㄴㅏㄴ	-3825
먼트	-3826
▁플래	-3827
▁아파트	-3828
▁복지	-3829
▁우려	-3830
art	-3831
▁800	-3832
▁먹이	-3833
▁마르크	-3834
▁ㅂㅘ	-3835
▁흰	-3836
ㄴㅎㅐ	-3837
ice	-3838
▁리가	-3839
▁비평	-3840
▁희생	-3841
▁가상	-3842
▁오프	-3843
▁ㅁㅏㄴㄴㅏ	-3844
▁부진	-3845
▁최다	-3846
▁파르	-3847
▁가까	-3848
▁창원	-3849
▁분기	-3850
▁시조	-3851
▁ㅍㅐ	-3852
▁600	-3853
▁올라	-3854
▁86	-3855
▁시드	-3856
▁전원	-3857
ㅇㅜㅁ	-3858
▁집권	-3859
▁마침내	-3860
ON	-3861
▁구현	-3862
▁사냥	-3863
▁기둥	-3864
▁모형	-3865
▁IS	-3866
▁점점	-3867
▁ㅎㅑㅇㅎㅐ	-3868
▁완공	-3869
▁판사	-3870
▁벡터	-3871
▁마시	-3872
▁한정	-3873
▁120	-3874
▁가시	-3875
▁메리	-3876
텐츠	-3877
▁중기	-3878
▁ㄱㅏㄴ	-3879
▁프린	-3880
▁ㅁㅐ	-3881
▁첼	-3882
▁대법	-3883
▁명확	-3884
▁테이	-3885
▁향하	-3886
유럽	-3887
▁닥	-3888
▁웨이	-3889
▁훗	-3890
est	-3891
▁사임	-3892
▁근본	-3893
피스	-3894
▁스토리	-3895
은행	-3896
▁한계	-3897
틀러	-3898
▁무게	-3899
▁일본인	-3900
▁부하	-3901
▁확산	-3902
▁사마	-3903
▁물리학	-3904
▁re	-3905
▁호주	-3906
▁출범	-3907
▁대공	-3908
ia	-3909
▁충격	-3910
▁캔	-3911
▁교향	-3912
▁날개	-3913
▁레인	-3914
▁늦	-3915
▁단독	-3916
▁맞추	-3917
투스	-3918
▁카라	-3919
▁사형	-3920
▁오페라	-3921
▁닛	-3922
▁의지	-3923
▁명나라	-3924
▁알파	-3925
▁뚜	-3926
▁상위	-3927
▁가나	-3928
▁1919	-3929
▁마법	-3930
ap	-3931
▁98	-3932
▁제이	-3933
디션	-3934
▁분위	-3935
▁사원	-3936
▁연구원	-3937
▁통산	-3938
▁ㅅㅐㅇㄱㅕ	-3939
▁편찬	-3940
▁ㅁㅏㅈㅊ	-3941
TV	-3942
▁넓이	-3943
사스	-3944
▁악화	-3945
▁1944	-3946
▁이자	-3947
리히	-3948
▁의혹	-3949
▁모토	-3950
▁서명	-3951
▁적절	-3952
▁유치	-3953
▁렀	-3954
▁인접	-3955
▁ㄴㅏㅆ	-3956
ak	-3957
▁조종	-3958
라이나	-3959
▁영웅	-3960
▁당초	-3961
▁의심	-3962
▁인증	-3963
▁꺾	-3964
▁끝나	-3965
▁문명	-3966
▁발굴	-3967
▁훌	-3968
▁도쿠	-3969
▁연간	-3970
▁추천	-3971
▁모임	-3972
▁샘	-3973
▁새롭	-3974
▁포인트	-3975
▁저술	-3976
ㄹㅏㅆ	-3977
▁곽	-3978
▁ㄱㅗㄴ	-3979
▁고속도로	-3980
▁ㅇㅗㄹㄹㅕ	-3981
▁광복	-3982
▁무시	-3983
▁함락	-3984
▁각지	-3985
▁동서	-3986
▁회담	-3987
▁사실상	-3988
▁포항	-3989
▁63	-3990
사자	-3991
▁1941	-3992
▁프리미어	-3993
▁홍보	-3994
▁접촉	-3995
▁기온	-3996
▁드라이	-3997
AR	-3998
▁골든	-3999
▁자극	-4000
▁개입	-4001
▁독일군	-4002
▁ㄷㅏㄹ	-4003
▁징역	-4004
▁기기	-4005
▁탐사	-4006
▁95	-4007
우리	-4008
▁순수	-4009
▁올해	-4010
▁멘	-4011
▁사정	-4012
▁밝히	-4013
▁ㅂㅗㅇㅎㅐ	-4014
▁개막	-4015
▁뮤지	-4016
▁순간	-4017
▁득표	-4018
▁세르비아	-4019
▁74	-4020
▁공로	-4021
▁그라	-4022
▁경전	-4023
▁학살	-4024
연히	-4025
▁등판	-4026
▁성분	-4027
▁행렬	-4028
숭이	-4029
▁느끼	-4030
▁바위	-4031
▁정하	-4032
▁시카고	-4033
▁59	-4034
▁변수	-4035
▁임기	-4036
▁DNA	-4037
▁오랫	-4038
▁추산	-4039
▁악기	-4040
민주	-4041
▁루스	-4042
버그	-4043
믹스	-4044
▁앤드	-4045
▁178	-4046
▁Lo	-4047
ct	-4048
▁그때	-4049
학생	-4050
▁구원	-4051
▁락	-4052
▁수석	-4053
▁한국인	-4054
▁여론	-4055
대부	-4056
일리	-4057
▁실현	-4058
▁닉	-4059
▁예전	-4060
▁자전	-4061
ㄴㅕㅆ	-4062
▁네이	-4063
▁공헌	-4064
▁확률	-4065
▁벗	-4066
무부	-4067
▁보고서	-4068
▁팽	-4069
▁입법	-4070
▁스마트	-4071
▁프로그래	-4072
▁혼합	-4073
▁백성	-4074
▁아티	-4075
▁태도	-4076
▁훗날	-4077
▁1958	-4078
▁튜	-4079
▁언제	-4080
▁매장	-4081
▁IC	-4082
▁방위	-4083
▁이닝	-4084
▁페르시아	-4085
▁감시	-4086
▁ㄷㅏㅁ	-4087
▁떨어지	-4088
▁양쪽	-4089
▁오랫동안	-4090
▁특별시	-4091
▁미쓰	-4092
▁심사	-4093
▁ㅈㅡㄹ	-4094
▁피터	-4095
ul	-4096
러리	-4097
▁1947	-4098
▁ㅂㅓㅅ	-4099
▁왕실	-4100
▁to	-4101
코스	-4102
▁ㅋㅡㄹ	-4103
▁160	-4104
▁82	-4105
▁;/	-4106
▁ㅁㅜㄹㄹㅓ	-4107
▁ㅎㅏㅂㅊㅕ	-4108
▁출력	-4109
▁에드워드	-4110
▁영지	-4111
▁침략	-4112
▁리처드	-4113
▁커뮤	-4114
▁뱅	-4115
▁내려	-4116
▁개신교	-4117
▁균형	-4118
▁줄기	-4119
ㅎㅣㄴ	-4120
▁원형	-4121
▁1956	-4122
▁텍사스	-4123
▁다케	-4124
▁경남	-4125
▁대량	-4126
▁단편	-4127
▁안토	-4128
▁저녁	-4129
▁조별	-4130
▁72	-4131
▁76	-4132
▁SS	-4133
▁랜드	-4134
▁승객	-4135
▁그래픽	-4136
이너	-4137
▁시사	-4138
▁자라	-4139
▁신부	-4140
▁멀리	-4141
▁프라이	-4142
▁여왕	-4143
▁승부	-4144
▁아이돌	-4145
▁제사	-4146
▁발발	-4147
▁가와	-4148
▁미야	-4149
ㄹㅡ	-4150
▁분위기	-4151
ie	-4152
▁동명	-4153
▁무사	-4154
▁권위	-4155
▁대선	-4156
▁안동	-4157
▁커뮤니	-4158
리노	-4159
▁작위	-4160
▁이라크	-4161
▁타자	-4162
▁흐름	-4163
▁춤	-4164
▁재건	-4165
▁교구	-4166
▁프랑크	-4167
ㄱㅎㅏㄴ	-4168
▁데스	-4169
▁77	-4170
▁입력	-4171
▁마무	-4172
▁참고	-4173
▁바깥	-4174
▁ㅅㅗㄱㅎㅏㄴ	-4175
▁복원	-4176
▁1939	-4177
▁테스트	-4178
▁잠수	-4179
▁축구단	-4180
▁과학자	-4181
ㅇㄴㅏㄴ	-4182
▁확립	-4183
▁ㅂㅔ	-4184
▁일상	-4185
▁석유	-4186
▁67	-4187
메리칸	-4188
▁폭탄	-4189
레나	-4190
▁점수	-4191
▁시상	-4192
▁Th	-4193
▁도요	-4194
▁타워	-4195
▁리버	-4196
▁포켓	-4197
▁비상	-4198
▁침입	-4199
▁어깨	-4200
▁ㅎㅡ	-4201
▁긍	-4202
▁AFC	-4203
ud	-4204
▁병합	-4205
▁사자	-4206
▁신자	-4207
▁복음	-4208
▁수익	-4209
▁ㅂㅓㄹㅇㅕㅆ	-4210
▁민중	-4211
ly	-4212
▁일시	-4213
▁주최	-4214
▁한글	-4215
▁복수	-4216
▁부지	-4217
일스	-4218
▁기소	-4219
og	-4220
▁대왕	-4221
▁시마	-4222
▁정수	-4223
▁ㄷㅏㄹㄹㅏ	-4224
▁자식	-4225
▁재배	-4226
▁다운	-4227
▁브라운	-4228
▁당국	-4229
▁더블	-4230
▁빅토	-4231
▁혁신	-4232
레옹	-4233
메이	-4234
▁대성	-4235
▁내셔널	-4236
th	-4237
▁보물	-4238
▁ㄴㅡㄹㅇㅓ	-4239
▁85	-4240
▁도모	-4241
▁신고	-4242
▁암호	-4243
에른	-4244
▁가량	-4245
▁평안	-4246
▁가공	-4247
▁지형	-4248
▁동양	-4249
▁움직이	-4250
▁1954	-4251
ist	-4252
▁나폴레옹	-4253
▁본질	-4254
▁창작	-4255
ㄱㅣㄴㄷㅏ	-4256
▁계층	-4257
▁연예	-4258
▁우라	-4259
▁공중	-4260
마니아	-4261
▁인쇄	-4262
▁가담	-4263
▁국기	-4264
▁사제	-4265
▁훈장	-4266
이센	-4267
보이	-4268
▁빌보드	-4269
▁쌀	-4270
▁폐쇄	-4271
▁어디	-4272
▁힌	-4273
레인	-4274
▁구글	-4275
▁심지	-4276
▁산화	-4277
▁파워	-4278
▁ㅊㅣㄴ	-4279
▁후계	-4280
왜란	-4281
ight	-4282
▁고기	-4283
▁임진왜란	-4284
▁1952	-4285
▁돕	-4286
▁노출	-4287
▁참모	-4288
AS	-4289
▁급제	-4290
▁ㅇㅏㅍㅅㅓ	-4291
▁누르	-4292
▁가설	-4293
▁움직임	-4294
▁비서	-4295
▁평론	-4296
▁ㅎㅣㅁ	-4297
▁탱	-4298
▁력	-4299
▁세리	-4300
아티아	-4301
▁크로아티아	-4302
▁73	-4303
ㅇㅗㄹ	-4304
▁가이	-4305
▁다소	-4306
▁발음	-4307
▁조조	-4308
▁아테네	-4309
▁ㅊㅐ	-4310
▁총회	-4311
▁스타디	-4312
▁ㅁㅏㄴㄷㅡㄹ	-4313
▁전신	-4314
조합	-4315
▁그렇게	-4316
▁박정희	-4317
▁대지	-4318
▁타운	-4319
ㄴㅟㄴㄷㅏ	-4320
▁동방	-4321
▁*	-4322
▁람	-4323
▁96	-4324
▁후속	-4325
▁고통	-4326
▁라스	-4327
▁뷰	-4328
ㄷㅜ	-4329
▁오카	-4330
▁탈퇴	-4331
▁실력	-4332
▁81	-4333
필더	-4334
▁따로	-4335
▁무한	-4336
▁뮤지컬	-4337
▁미드필더	-4338
ㅊㅏ	-4339
AT	-4340
▁셔	-4341
▁절반	-4342
▁청주	-4343
ㅝㄴ	-4344
▁78	-4345
▁Al	-4346
▁행복	-4347
ㅂㅎㅕ	-4348
▁상관	-4349
▁장남	-4350
▁수도원	-4351
▁뤼	-4352
▁개설	-4353
▁ㅊㅕ	-4354
▁재학	-4355
바로	-4356
▁인용	-4357
▁ㅅㅣㄴ	-4358
▁화이트	-4359
▁국정	-4360
▁로봇	-4361
▁전투기	-4362
ㅂㅗㄹ	-4363
▁뽑	-4364
마르	-4365
시오	-4366
▁센트	-4367
▁보상	-4368
▁중력	-4369
▁가까이	-4370
▁기리	-4371
▁젠	-4372
▁비례	-4373
▁전남	-4374
▁ㅇㅗㄻㄱㅕㅆ	-4375
▁ㄴㅓㅁㅇㅓ	-4376
▁이혼	-4377
▁아트	-4378
▁심장	-4379
▁천안	-4380
▁화장	-4381
▁도덕	-4382
▁산소	-4383
▁김성	-4384
▁하인	-4385
▁202	-4386
▁뮌	-4387
▁보르	-4388
▁바닥	-4389
▁손상	-4390
▁안드로	-4391
▁바이에른	-4392
▁블라	-4393
▁여섯	-4394
▁NH	-4395
너스	-4396
▁생물학	-4397
의정	-4398
▁1959	-4399
▁빌딩	-4400
▁레알	-4401
▁전직	-4402
체스터	-4403
▁피해자	-4404
ess	-4405
▁지향	-4406
▁177	-4407
타이	-4408
▁김대	-4409
자치	-4410
▁포스트	-4411
▁국군	-4412
▁지사	-4413
▁상역	-4414
▁문신	-4415
▁불만	-4416
▁사무소	-4417
▁Li	-4418
▁주력	-4419
▁윗	-4420
▁ㄲㅣ	-4421
인물	-4422
▁백만	-4423
▁71	-4424
▁와이	-4425
▁AT	-4426
▁교리	-4427
BA	-4428
▁묻	-4429
▁사우스	-4430
토스	-4431
▁질환	-4432
▁황후	-4433
▁녀	-4434
▁화합	-4435
▁91	-4436
▁DV	-4437
▁포스	-4438
▁당나라	-4439
▁작동	-4440
▁콘스탄티	-4441
▁관여	-4442
▁피부	-4443
▁소득	-4444
하여	-4445
▁피하	-4446
▁벌이	-4447
▁인생	-4448
▁패션	-4449
ㅁㅊㅓ	-4450
▁ㅇㅓㅁㅊㅓ	-4451
세포	-4452
▁기상	-4453
클리	-4454
▁검토	-4455
▁액션	-4456
▁총장	-4457
▁깃	-4458
▁승려	-4459
▁부담	-4460
▁선박	-4461
▁마무리	-4462
▁가마	-4463
▁하원	-4464
▁메시지	-4465
▁호소	-4466
직자	-4467
▁1942	-4468
▁유통	-4469
▁신사	-4470
▁결론	-4471
▁사유	-4472
▁상실	-4473
▁가슴	-4474
▁약물	-4475
가락	-4476
▁역학	-4477
스트라	-4478
▁골드	-4479
▁디아	-4480
▁;,	-4481
▁글로벌	-4482
▁개방	-4483
쿠스	-4484
▁아웃	-4485
▁좌상	-4486
▁혼인	-4487
▁설득	-4488
▁동해	-4489
▁디스크	-4490
▁모바	-4491
▁위키	-4492
▁햄	-4493
▁덜	-4494
▁조카	-4495
▁페이지	-4496
▁프로이센	-4497
▁87	-4498
▁그린	-4499
▁오직	-4500
▁적합	-4501
▁규제	-4502
▁ㅅㅏㄴ	-4503
미야	-4504
터스	-4505
ub	-4506
▁심지어	-4507
▁수요	-4508
▁결의	-4509
▁st	-4510
▁매체	-4511
▁연습	-4512
▁앉	-4513
나가	-4514
▁1943	-4515
▁ㅇㅓㅁㅊㅓㅇㄴㅏㄴ	-4516
▁비치	-4517
▁진단	-4518
▁159	-4519
ㄷㅜㄴ	-4520
▁부산광역시	-4521
▁처분	-4522
▁홋카이도	-4523
▁구매	-4524
▁통화	-4525
▁가요	-4526
▁1955	-4527
▁원년	-4528
▁선임	-4529
▁김일성	-4530
▁서식지	-4531
▁분노	-4532
▁말레이시아	-4533
가니	-4534
▁보살	-4535
▁야스	-4536
▁이명	-4537
ㅆㅏ	-4538
▁왕비	-4539
▁잭슨	-4540
▁\	-4541
IV	-4542
▁스타디움	-4543
▁띄	-4544
▁위대	-4545
ㄹㅜㄴ	-4546
▁억제	-4547
▁심판	-4548
ㅊㅣㄹ	-4549
▁ㅂㅗㄴㄷㅏ	-4550
▁개성	-4551
IA	-4552
▁발탁	-4553
▁드래프트	-4554
▁1953	-4555
▁ㅅㅟ	-4556
▁퀴	-4557
▁쿠데	-4558
▁테크	-4559
▁주석	-4560
▁진정	-4561
드리히	-4562
▁일기	-4563
▁1936	-4564
▁소멸	-4565
▁무료	-4566
▁싱가	-4567
▁예방	-4568
▁크루	-4569
▁싱가포르	-4570
▁일컫	-4571
ab	-4572
▁AP	-4573
▁필드	-4574
ㄴㅑ	-4575
▁84	-4576
ㅊㅣㄴㄷㅏ	-4577
▁왕후	-4578
▁톨	-4579
미르	-4580
▁700	-4581
▁유형문화재	-4582
▁일본어	-4583
▁덮	-4584
▁끝내	-4585
▁사격	-4586
▁프랭	-4587
▁사무실	-4588
▁자이언	-4589
▁음악가	-4590
▁티베	-4591
▁ㅇㅕㅆㅇㅡㄹ	-4592
▁거듭	-4593
▁일체	-4594
▁태조	-4595
ㅂㅎㅕㅆ	-4596
▁힙	-4597
▁여우	-4598
▁어려움	-4599
▁프리드리히	-4600
▁진영	-4601
▁이와	-4602
▁긍정	-4603
▁정차	-4604
▁루마니아	-4605
▁모바일	-4606
▁카스	-4607
▁곱	-4608
▁사도	-4609
▁인원	-4610
▁폭격	-4611
▁조지아	-4612
▁천주교	-4613
▁1910	-4614
▁궁전	-4615
데이	-4616
▁세자	-4617
유산	-4618
▁쿠데타	-4619
▁ㅅㅐㅇㄱㅣㄴ	-4620
주군	-4621
▁타인	-4622
▁후쿠오카	-4623
▁기동	-4624
▁즉시	-4625
▁창당	-4626
ine	-4627
▁대책	-4628
▁전동차	-4629
▁리드	-4630
▁전북	-4631
▁ㅂㅓㅅㅇㅓ	-4632
▁Re	-4633
▁김종	-4634
▁불안	-4635
▁ㅇㅜㅁ	-4636
▁히틀러	-4637
▁시나	-4638
▁유고	-4639
▁스티븐	-4640
▁크로스	-4641
▁쾌	-4642
▁ㄷㅔㄴ	-4643
▁학사	-4644
▁개칭	-4645
▁에서	-4646
▁상속	-4647
▁ㅇㅗㄹ	-4648
▁딜	-4649
▁막대	-4650
▁전당	-4651
▁깊이	-4652
▁오이	-4653
란색	-4654
▁대체로	-4655
▁강릉	-4656
▁남아프리카	-4657
▁1957	-4658
구리	-4659
▁아메리칸	-4660
▁알고리	-4661
아들이	-4662
▁ㅅㅗㄱㅎㅐ	-4663
▁97	-4664
▁구입	-4665
▁ㅅㅓㄴㅂㅗ	-4666
▁요금	-4667
▁진격	-4668
▁챔피언십	-4669
▁원주민	-4670
▁딘	-4671
▁연설	-4672
▁본명	-4673
ew	-4674
독부	-4675
베르트	-4676
리나	-4677
▁발명	-4678
▁콘텐츠	-4679
▁조상	-4680
▁휴대	-4681
▁스미스	-4682
▁타이거	-4683
머리	-4684
▁메이지	-4685
▁1914	-4686
히로	-4687
▁필수	-4688
▁독재	-4689
▁전송	-4690
▁생태	-4691
▁광범	-4692
▁추방	-4693
▁음성	-4694
ㅎㅕㅆ	-4695
▁자국	-4696
▁검색	-4697
▁누리	-4698
▁동북	-4699
▁수호	-4700
▁69	-4701
▁알고리즘	-4702
▁테마	-4703
▁초점	-4704
▁세트	-4705
▁이즈	-4706
▁부동	-4707
▁대우	-4708
ue	-4709
▁주소	-4710
▁포켓몬	-4711
▁="	-4712
▁도마	-4713
시스코	-4714
▁토론토	-4715
▁인디언	-4716
미니	-4717
▁사기	-4718
구치	-4719
▁이마	-4720
▁천만	-4721
▁92	-4722
▁느낌	-4723
▁렀다	-4724
▁신장	-4725
▁덩	-4726
▁1900	-4727
▁수업	-4728
원경	-4729
▁급격	-4730
▁신도	-4731
리그	-4732
▁최우	-4733
▁알바	-4734
▁불가리아	-4735
▁코리아	-4736
▁미리	-4737
▁1938	-4738
▁세부	-4739
▁후임	-4740
▁업적	-4741
▁랑	-4742
▁림	-4743
▁사과	-4744
▁핫	-4745
▁이내	-4746
▁클로	-4747
▁섹	-4748
▁미술관	-4749
래프트	-4750
▁원수	-4751
▁연락	-4752
▁펑	-4753
▁석사	-4754
▁ㅎㅐㅇㅎㅐ	-4755
▁서술	-4756
▁부위	-4757
▁주니어	-4758
EC	-4759
▁배포	-4760
▁완벽	-4761
▁101	-4762
지사	-4763
비히	-4764
▁유효	-4765
▁해발	-4766
▁ㅍㅕㄹㅊㅕ	-4767
▁바르셀	-4768
▁스프링	-4769
자키	-4770
▁상인	-4771
▁바르셀로나	-4772
총리	-4773
▁전술	-4774
▁노트	-4775
▁라이프	-4776
▁재즈	-4777
▁고시	-4778
▁똑	-4779
▁HD	-4780
▁게다가	-4781
▁빌리	-4782
▁화려	-4783
▁01	-4784
▁고급	-4785
▁오키	-4786
▁언덕	-4787
▁연평	-4788
▁립	-4789
▁안드	-4790
▁선형	-4791
▁영양	-4792
▁1918	-4793
▁윙	-4794
로지	-4795
▁라틴어	-4796
▁DVD	-4797
산화	-4798
▁스탈	-4799
▁마스터	-4800
▁암컷	-4801
▁늑	-4802
▁등장인물	-4803
▁소형	-4804
총독부	-4805
▁소비자	-4806
▁조선총독부	-4807
▁웰	-4808
ㅈㅓ	-4809
▁랩	-4810
▁션	-4811
▁풋	-4812
▁각국	-4813
▁개량	-4814
▁ㄲㅔ	-4815
▁ㅅㅜㅁ	-4816
▁1951	-4817
▁시내버스	-4818
▁그만	-4819
▁상주	-4820
오르	-4821
▁물건	-4822
▁백인	-4823
▁유산	-4824
▁1932	-4825
▁마르크스	-4826
BM	-4827
▁일련	-4828
▁실천	-4829
ㅆㅏㄴ	-4830
제국	-4831
▁운항	-4832
▁화석	-4833
▁손실	-4834
▁{	-4835
▁on	-4836
ㄱㅎㅕ	-4837
ㅂㅜㅌ	-4838
▁고위	-4839
▁언스	-4840
▁계곡	-4841
▁저자	-4842
▁메달	-4843
▁묶	-4844
▁국적	-4845
▁ㄷㅡㅅㅇㅣ	-4846
▁질문	-4847
▁추기	-4848
▁1937	-4849
▁사퇴	-4850
무늬	-4851
▁게르	-4852
▁반사	-4853
▁블록	-4854
▁ㅁㅏㄴㄴㅏㅆ	-4855
▁집회	-4856
▁알레	-4857
▁미시	-4858
▁설치류	-4859
▁정교회	-4860
▁경비	-4861
▁짝	-4862
▁미스	-4863
ㄸㅡ	-4864
여금	-4865
▁영주	-4866
▁상수	-4867
▁만든	-4868
▁개별	-4869
▁노리	-4870
▁방언	-4871
▁대만	-4872
▁용인	-4873
▁주체	-4874
▁ㅅㅐㅇㄱㅕㅆ	-4875
▁진학	-4876
▁흰색	-4877
ㅢㄴ	-4878
▁ㅈㅓㅂㅎㅏㄴㄷㅏ	-4879
▁선포	-4880
▁마틴	-4881
▁엘리자	-4882
▁고객	-4883
민주당	-4884
▁89	-4885
▁차단	-4886
▁첩	-4887
▁환승	-4888
▁우크라	-4889
▁1935	-4890
ect	-4891
▁격파	-4892
▁부친	-4893
▁광범위	-4894
▁올스타	-4895
▁분교	-4896
펙트	-4897
필드	-4898
▁감각	-4899
▁실업	-4900
▁의문	-4901
▁갑자기	-4902
▁넥	-4903
▁타율	-4904
▁182	-4905
▁변하	-4906
▁칭호	-4907
▁닥터	-4908
▁프랑스군	-4909
▁이스트	-4910
▁후계자	-4911
사전	-4912
▁비행기	-4913
▁트레이드	-4914
▁크라	-4915
▁경제학	-4916
▁ㄱㅘㄴㅎㅐ	-4917
▁사찰	-4918
▁이웃	-4919
▁재개	-4920
바키아	-4921
▁93	-4922
▁로렌	-4923
▁화제	-4924
▁받아들이	-4925
ㅅㅜ	-4926
▁중추	-4927
▁찬성	-4928
▁뮌헨	-4929
▁커버	-4930
가시	-4931
▁항공사	-4932
▁싱어	-4933
▁Be	-4934
▁면역	-4935
▁추기경	-4936
▁퀘	-4937
▁거짓	-4938
▁고양이	-4939
▁다스	-4940
▁자본주의	-4941
하이	-4942
▁수치	-4943
동생	-4944
▁당원	-4945
▁ㅎㅏㅂㄴㅣ	-4946
▁구상	-4947
▁탄압	-4948
▁발간	-4949
▁비스	-4950
ㅇㅏㅆ	-4951
브라	-4952
▁항의	-4953
▁체험	-4954
▁줄이	-4955
▁수백	-4956
▁파티	-4957
▁겉	-4958
▁기부	-4959
▁회로	-4960
▁질서	-4961
▁꾸준	-4962
▁자산	-4963
▁내놓	-4964
▁사양	-4965
▁허락	-4966
▁남기	-4967
▁최후	-4968
▁촉진	-4969
▁분화	-4970
▁OS	-4971
▁곡선	-4972
▁남녀	-4973
▁성남	-4974
▁클리	-4975
▁쿨	-4976
런스	-4977
센트	-4978
▁마루	-4979
▁공신	-4980
▁법학	-4981
▁양산	-4982
▁이념	-4983
▁증언	-4984
▁클래식	-4985
ore	-4986
▁FM	-4987
▁1933	-4988
저스	-4989
▁반지	-4990
▁시트	-4991
▁잠수함	-4992
▁94	-4993
▁목성	-4994
▁화폐	-4995
▁아티스트	-4996
▁ㅌㅓ	-4997
▁소화	-4998
▁시모	-4999
슈타인	-5000
▁구멍	-5001
▁거치	-5002
▁영원	-5003
▁티베트	-5004
▁탕	-5005
▁대법원	-5006
▁가속	-5007
▁개척	-5008
▁극단	-5009
IN	-5010
▁습격	-5011
▁물고기	-5012
▁지수	-5013
▁아오	-5014
리우스	-5015
▁소위	-5016
▁보편	-5017
▁오버	-5018
▁축소	-5019
▁1928	-5020
▁쿼	-5021
다수	-5022
our	-5023
▁툴	-5024
▁수십	-5025
▁강남	-5026
▁소집	-5027
ㄴㅐㅆㅇㅡ	-5028
도사	-5029
▁군부	-5030
▁CP	-5031
ㅡㄹㄹㅕ	-5032
돼지	-5033
▁동경	-5034
▁유배	-5035
▁탄핵	-5036
▁태종	-5037
▁동화	-5038
▁선호	-5039
▁운송	-5040
▁팩	-5041
▁원시	-5042
▁베리	-5043
▁프랑스어	-5044
ell	-5045
▁상대식	-5046
▁줄어들	-5047
▁1924	-5048
▁콜로	-5049
▁조항	-5050
▁핸	-5051
공사	-5052
▁전적	-5053
▁료	-5054
▁ㄷㅏㅇㅎㅐ	-5055
프레	-5056
▁칠레	-5057
▁누스	-5058
▁용도	-5059
▁시신	-5060
▁개명	-5061
▁영구	-5062
▁79	-5063
▁오가	-5064
▁치르	-5065
▁충분히	-5066
▁익스	-5067
▁간부	-5068
▁약화	-5069
▁국토	-5070
▁하여금	-5071
▁주일	-5072
▁메트로	-5073
▁지불	-5074
▁혼자	-5075
닉스	-5076
▁세월	-5077
뜨리	-5078
▁대로	-5079
▁09	-5080
▁사막	-5081
▁전망	-5082
▁정면	-5083
▁김해	-5084
▁프로그래밍	-5085
▁조기	-5086
▁돌아오	-5087
▁이행	-5088
▁회색	-5089
▁펼	-5090
벤트	-5091
▁댄스	-5092
▁개장	-5093
▁콜롬	-5094
▁발레	-5095
▁110	-5096
▁대칭	-5097
▁재능	-5098
▁펀	-5099
end	-5100
▁그리하여	-5101
▁의정부	-5102
▁입대	-5103
▁실내	-5104
▁토대	-5105
▁ㅎㅡㄹㄹㅓ	-5106
슬링	-5107
▁정통	-5108
른바	-5109
▁존스	-5110
▁종사	-5111
▁직무	-5112
▁열매	-5113
▁형상	-5114
▁러브	-5115
티스	-5116
사이	-5117
▁토마스	-5118
▁04	-5119
▁토착	-5120
▁ㄷㅓㅅ	-5121
▁파키스탄	-5122
▁동굴	-5123
▁브로	-5124
▁당신	-5125
▁합동	-5126
▁이른바	-5127
드라	-5128
ill	-5129
▁구름	-5130
▁액체	-5131
▁원자력	-5132
리다	-5133
▁ㄱㅏㄴㄷㅏ	-5134
▁가깝	-5135
▁ㄱㅓㄹㅊㅣㄴ	-5136
▁쟁	-5137
▁법안	-5138
▁ㅆㅡㄹ	-5139
코프	-5140
ain	-5141
▁지중	-5142
▁하와	-5143
▁08	-5144
어도	-5145
▁이재	-5146
▁총재	-5147
▁170	-5148
▁웃	-5149
▁매치	-5150
베리아	-5151
▁정류	-5152
▁해제	-5153
▁퓨	-5154
▁안토니	-5155
▁빚	-5156
▁가난	-5157
▁진실	-5158
▁Co	-5159
▁단순히	-5160
▁틴	-5161
▁고교	-5162
▁대승	-5163
▁세로	-5164
▁초상	-5165
▁재생	-5166
▁스카이	-5167
▁베네치아	-5168
▁밀리	-5169
▁수컷	-5170
▁유아	-5171
▁개찰	-5172
▁손해	-5173
▁흔적	-5174
▁우에	-5175
▁판정	-5176
▁프로토	-5177
ID	-5178
▁빼앗	-5179
▁룸	-5180
ers	-5181
▁경북	-5182
▁부속	-5183
▁자랑	-5184
▁83	-5185
▁멀티	-5186
▁당대	-5187
과이	-5188
▁안티	-5189
ㅋㅡㅁ	-5190
▁스톤	-5191
▁뼈	-5192
▁다큐	-5193
▁오케	-5194
▁주문	-5195
▁안쪽	-5196
▁장로	-5197
페이스	-5198
테스	-5199
▁엄격	-5200
▁지표	-5201
▁힙합	-5202
▁ㅁㅗㅅㅎㅏㄴㄷㅏ	-5203
▁경고	-5204
▁사이드	-5205
▁무용	-5206
▁벼슬	-5207
▁서방	-5208
▁오류	-5209
데르	-5210
▁무력	-5211
▁ㅎㅢㄴ	-5212
▁메탈	-5213
ㅈㅣㄱ	-5214
▁들어오	-5215
ㅅㅡ	-5216
▁전제	-5217
▁함경	-5218
ard	-5219
▁강도	-5220
▁경찰서	-5221
고속	-5222
▁평면	-5223
▁늑대	-5224
▁페리	-5225
▁국방부	-5226
▁비잔	-5227
▁스크린	-5228
▁할아버지	-5229
▁소문	-5230
어로	-5231
▁배열	-5232
▁주재	-5233
▁호흡	-5234
▁인민군	-5235
▁1934	-5236
▁아프가니	-5237
▁한성	-5238
▁ㄴㅗㅎㅇㅕ	-5239
조선	-5240
▁MS	-5241
▁레닌	-5242
▁닐	-5243
▁분산	-5244
▁선로	-5245
▁편의	-5246
▁성서	-5247
▁혈액	-5248
▁요코하마	-5249
즈니	-5250
▁행하	-5251
▁이벤트	-5252
▁마감	-5253
▁일단	-5254
▁중동	-5255
▁대사관	-5256
▁대가	-5257
▁농장	-5258
▁메르	-5259
▁포드	-5260
AN	-5261
▁빵	-5262
▁De	-5263
▁대원	-5264
▁ㄹㅣㅇ	-5265
▁동지	-5266
▁철거	-5267
▁양국	-5268
▁히어로	-5269
▁보스턴	-5270
▁ㄷㅓㅅㅂㅜㅌ	-5271
▁자매	-5272
▁놀이	-5273
▁중지	-5274
▁판타	-5275
▁스케이	-5276
▁구사	-5277
▁입구	-5278
▁추적	-5279
유키	-5280
키퍼	-5281
▁근육	-5282
ㅅㅣㄴ	-5283
▁광산	-5284
▁탓	-5285
세대	-5286
▁골키퍼	-5287
아르	-5288
▁장례	-5289
▁흘	-5290
▁주자	-5291
▁ㅁㅏㄴㅋㅡㅁ	-5292
▁동구	-5293
▁강요	-5294
▁노동당	-5295
▁Me	-5296
▁북미	-5297
▁130	-5298
▁본토	-5299
▁뱀	-5300
야스	-5301
▁대동	-5302
▁동메달	-5303
▁토머스	-5304
▁드물	-5305
제르	-5306
▁유키	-5307
▁은메달	-5308
▁봉기	-5309
▁현존	-5310
▁ㅈㅣㄹ	-5311
ㄷㅡㄹㅇㅕㅆ	-5312
▁거점	-5313
▁투스	-5314
▁글리	-5315
▁코어	-5316
▁쿠바	-5317
▁밸	-5318
▁살아	-5319
ㅎㅏㅁ	-5320
▁남극	-5321
▁정확히	-5322
▁쏘	-5323
▁젤	-5324
베르크	-5325
레오	-5326
▁사카	-5327
▁접속	-5328
▁140	-5329
공업	-5330
무르	-5331
▁나이트	-5332
▁카리	-5333
▁아프가니스탄	-5334
ne	-5335
▁항해	-5336
▁사망자	-5337
▁도쿠가와	-5338
▁정조	-5339
ㄹㅣㅁ	-5340
▁ㅎㅔ	-5341
▁레지	-5342
▁부처	-5343
▁테르	-5344
▁로즈	-5345
▁선물	-5346
▁중계	-5347
▁알렉산더	-5348
레아	-5349
▁필립	-5350
▁Sh	-5351
▁복사	-5352
▁김구	-5353
▁시계	-5354
▁철학자	-5355
▁돔	-5356
▁스탈린	-5357
▁식량	-5358
▁칼리지	-5359
▁발전소	-5360
우치	-5361
▁매주	-5362
▁초청	-5363
▁새끼	-5364
▁재판소	-5365
▁야당	-5366
돌프	-5367
위대	-5368
ㅇㅣㅁ	-5369
▁페이스	-5370
안군	-5371
▁중성	-5372
OR	-5373
▁안내	-5374
▁ㅇㅜㅁㅈㅣㄱ	-5375
▁경사	-5376
▁ㄲㅗ	-5377
▁곤충	-5378
▁농촌	-5379
▁화합물	-5380
▁th	-5381
▁맨체스터	-5382
▁ㄷㅙㅆㅇㅡ	-5383
성기	-5384
▁대다수	-5385
▁특별히	-5386
▁ㅎㅟ	-5387
▁로맨	-5388
▁1931	-5389
▁구로	-5390
▁위안	-5391
▁관계자	-5392
크래프트	-5393
▁훼	-5394
▁부호	-5395
▁새벽	-5396
▁강등	-5397
▁재임	-5398
▁체육관	-5399
▁토너	-5400
▁간격	-5401
▁독점	-5402
▁존슨	-5403
▁증권	-5404
▁타카	-5405
▁교향곡	-5406
▁세금	-5407
▁생애	-5408
▁유력	-5409
▁금강	-5410
▁멸종	-5411
▁그리스어	-5412
베리	-5413
▁역전	-5414
▁오염	-5415
▁휘하	-5416
▁ㅁㅣㄹㄹㅕ	-5417
▁펄	-5418
▁르네	-5419
▁파울	-5420
▁일곱	-5421
▁cod	-5422
므로	-5423
▁이정	-5424
▁히로시마	-5425
▁목포	-5426
▁클래스	-5427
▁계수	-5428
▁풍속	-5429
▁아비	-5430
▁모노	-5431
all	-5432
▁기병	-5433
게이	-5434
▁명시	-5435
▁종전	-5436
▁진동	-5437
▁코너	-5438
▁타원	-5439
▁ㅍㅕㄹㅊㅕㅆ	-5440
▁뚜렷	-5441
▁버지	-5442
▁ST	-5443
▁부품	-5444
▁An	-5445
▁석방	-5446
▁ㄷㅏㄹㄹㅕ	-5447
▁비중	-5448
▁킬로	-5449
▁해협	-5450
AM	-5451
▁꾼	-5452
▁뻗	-5453
나르	-5454
▁미카	-5455
▁아이스	-5456
▁하사	-5457
레이크	-5458
▁그래프	-5459
▁그러므로	-5460
▁ㄴㅗㅍ	-5461
▁관객	-5462
▁무늬	-5463
▁타점	-5464
▁다다	-5465
▁공룡	-5466
▁하버	-5467
▁자유주의	-5468
▁감옥	-5469
▁원조	-5470
▁250	-5471
▁1921	-5472
▁장점	-5473
▁좌파	-5474
▁지칭	-5475
▁훌륭	-5476
▁교도	-5477
▁코트	-5478
▁176	-5479
▁기생	-5480
▁연호	-5481
▁숙종	-5482
▁구리	-5483
▁힘들	-5484
사르	-5485
▁수비수	-5486
▁심리학	-5487
▁1929	-5488
널드	-5489
▁대변	-5490
▁캠프	-5491
▁마그	-5492
▁특허	-5493
ang	-5494
▁ㅇㅝㄴ	-5495
▁유발	-5496
느님	-5497
▁가구	-5498
▁필라	-5499
ㅇㅡㄴ	-5500
수량	-5501
▁조문	-5502
ㄹㄹㅏㅆ	-5503
▁하느님	-5504
▁박근	-5505
▁지휘관	-5506
▁동성애	-5507
▁닮	-5508
▁비즈	-5509
▁유대인	-5510
둥이	-5511
▁아틀	-5512
▁운동가	-5513
▁스트라이	-5514
▁ㅋㅗ	-5515
▁합리	-5516
▁ㄱㅣㄹ	-5517
▁토너먼트	-5518
▁소요	-5519
▁윤리	-5520
▁y	-5521
▁강전	-5522
▁05	-5523
▁단장	-5524
▁집필	-5525
▁후퇴	-5526
▁사관	-5527
▁ㅋㅜ	-5528
▁폭풍	-5529
▁스테이션	-5530
▁성명	-5531
▁도메	-5532
▁착용	-5533
▁트랜스	-5534
▁키스	-5535
▁칙	-5536
▁갤럭	-5537
▁라트	-5538
▁일환	-5539
▁수반	-5540
▁캡	-5541
ㅁㅜㄴ	-5542
▁기갑	-5543
▁자이언츠	-5544
투아	-5545
▁대결	-5546
▁연평균	-5547
▁부작	-5548
▁1925	-5549
▁목숨	-5550
▁인터페이스	-5551
시스트	-5552
▁1923	-5553
▁공세	-5554
▁문재	-5555
ss	-5556
▁입사	-5557
▁덕분	-5558
▁건담	-5559
▁번지	-5560
▁연상	-5561
▁쯤	-5562
▁ㅅㅠ	-5563
▁도호	-5564
미아	-5565
▁동반	-5566
▁갤럭시	-5567
▁극복	-5568
▁첫째	-5569
▁공국	-5570
▁마라	-5571
▁지부	-5572
▁고고	-5573
▁과일	-5574
▁플로리다	-5575
▁삼각	-5576
산물	-5577
▁추대	-5578
▁첸	-5579
▁평론가	-5580
▁롬	-5581
▁조화	-5582
ㅇㅎㅏㄹ	-5583
▁북아메리카	-5584
▁ㄷㅟ	-5585
▁약탈	-5586
무게	-5587
▁협약	-5588
▁몸무게	-5589
▁압축	-5590
▁07	-5591
▁바이올	-5592
▁틱	-5593
타카	-5594
▁가끔	-5595
▁샤를	-5596
▁옮	-5597
▁매니	-5598
▁AC	-5599
▁발렌	-5600
▁연계	-5601
▁장갑	-5602
▁요원	-5603
▁북서쪽	-5604
베이스	-5605
▁관리자	-5606
ity	-5607
▁섬유	-5608
▁유비	-5609
▁대한제국	-5610
▁원장	-5611
▁단선	-5612
▁빠지	-5613
▁시게	-5614
밀리	-5615
▁불화	-5616
▁성직자	-5617
▁남아메리카	-5618
▁캘리포니아주	-5619
▁얀	-5620
▁추락	-5621
▁의석	-5622
▁사당	-5623
▁김대중	-5624
▁램	-5625
클린	-5626
▁미분	-5627
▁웨일스	-5628
카스	-5629
▁이수	-5630
대문	-5631
▁우드	-5632
▁유성	-5633
마이	-5634
▁임신	-5635
▁영감	-5636
▁트레이	-5637
▁중립	-5638
▁하와이	-5639
▁페루	-5640
키스	-5641
▁북극	-5642
▁SC	-5643
▁진흥	-5644
▁갱	-5645
페인	-5646
▁선교사	-5647
▁박스	-5648
▁리스트	-5649
▁161	-5650
▁ㅁㅏㅈㅅㅓ	-5651
▁모로	-5652
▁종로	-5653
▁필름	-5654
▁근로	-5655
▁향토	-5656
▁ㅎㅡㄴ	-5657
▁딱	-5658
추어	-5659
▁모험	-5660
▁서인	-5661
▁사거리	-5662
▁살아남	-5663
▁민속	-5664
▁기관차	-5665
느리	-5666
▁고분	-5667
▁발휘	-5668
▁다이묘	-5669
▁모시	-5670
▁삭제	-5671
▁타입	-5672
▁동인	-5673
▁수직	-5674
▁도마뱀	-5675
▁똑같	-5676
▁codice	-5677
▁영광	-5678
▁일자	-5679
▁영혼	-5680
▁그랜드	-5681
▁카자	-5682
▁빅토리아	-5683
ff	-5684
▁준우	-5685
▁프로세서	-5686
▁마주	-5687
▁모음	-5688
▁망원경	-5689
▁EP	-5690
▁복구	-5691
▁삼각형	-5692
즈키	-5693
행성	-5694
▁진술	-5695
슬리	-5696
▁청동	-5697
▁데리	-5698
▁레벨	-5699
▁1922	-5700
▁문인	-5701
ㅃㅡㄴ	-5702
▁파운드	-5703
▁유가	-5704
▁쫓	-5705
▁명사	-5706
▁비하	-5707
▁175	-5708
▁홀로	-5709
▁곰	-5710
▁윤치	-5711
▁화가	-5712
▁ㅈㅜㄹㅇㅕ	-5713
▁잠재	-5714
▁박근혜	-5715
▁de	-5716
▁수장	-5717
▁성씨	-5718
▁제약	-5719
▁버지니아	-5720
▁엽	-5721
▁돌파	-5722
▁레이블	-5723
일본	-5724
▁변신	-5725
▁결심	-5726
▁중구	-5727
▁루트비히	-5728
▁채권	-5729
▁무릎	-5730
▁압도	-5731
▁주류	-5732
▁중시	-5733
오리	-5734
▁틸	-5735
▁칼리	-5736
애나	-5737
▁평생	-5738
▁인천광역시	-5739
▁규슈	-5740
▁엘리자베스	-5741
▁교과	-5742
▁바오	-5743
▁서적	-5744
▁투구	-5745
▁피트	-5746
▁프레임	-5747
▁My	-5748
▁지역구	-5749
▁모래	-5750
▁공격수	-5751
▁1912	-5752
▁유역	-5753
▁이조	-5754
▁교차로	-5755
▁가톨릭교회	-5756
▁아과	-5757
▁부유	-5758
▁고안	-5759
▁황태	-5760
▁자치구	-5761
▁직선	-5762
▁ㅌㅏㄴ	-5763
▁올라가	-5764
프란	-5765
▁여인	-5766
▁나서	-5767
▁리치	-5768
▁설비	-5769
▁ㄴㅓㅁㄱㅕ	-5770
▁최상	-5771
▁트럼	-5772
▁지연	-5773
▁왕가	-5774
▁각자	-5775
▁건너	-5776
▁토벌	-5777
▁글씨	-5778
▁유용	-5779
▁수상자	-5780
양군	-5781
▁이날	-5782
▁철저	-5783
눅스	-5784
▁164	-5785
▁문법	-5786
▁부탁	-5787
메니아	-5788
▁구미	-5789
▁직위	-5790
▁포유	-5791
▁사토	-5792
▁네이션	-5793
▁동일본	-5794
▁파트너	-5795
▁음모	-5796
▁왈	-5797
▁국민당	-5798
▁Go	-5799
▁벨라	-5800
▁아기	-5801
▁리눅스	-5802
▁Love	-5803
니즘	-5804
▁KT	-5805
▁무산	-5806
▁부서	-5807
▁블라디	-5808
멘트	-5809
타운	-5810
ong	-5811
ㅁㅏㅇ	-5812
▁소설가	-5813
▁1908	-5814
▁""	-5815
▁리아	-5816
▁목조	-5817
▁크레	-5818
라이터	-5819
▁퍼시	-5820
야수	-5821
▁모니	-5822
▁봉사	-5823
▁드리	-5824
▁무인	-5825
▁보통학교	-5826
▁아르메니아	-5827
부사	-5828
▁ㅃㅐ	-5829
▁영조	-5830
up	-5831
▁1906	-5832
▁표지	-5833
▁고르	-5834
▁랭킹	-5835
보살	-5836
▁06	-5837
▁주사	-5838
▁건축물	-5839
▁경유	-5840
▁납치	-5841
▁인력	-5842
▁자책	-5843
▁베타	-5844
▁토르	-5845
▁도어	-5846
▁돼지	-5847
▁마카	-5848
▁장사	-5849
▁사촌	-5850
▁남동쪽	-5851
▁ㅇㅘㅆㅇㅡ	-5852
▁간섭	-5853
▁노비	-5854
▁어워드	-5855
▁지중해	-5856
▁릭	-5857
▁아마추어	-5858
▁ㅉㅗ	-5859
▁패턴	-5860
멘터리	-5861
▁히가시	-5862
▁며	-5863
▁스케이팅	-5864
ㅊㅣ	-5865
▁MV	-5866
▁연령	-5867
▁다양체	-5868
▁노무	-5869
▁침해	-5870
▁태자	-5871
▁연소	-5872
▁ㄲㅜ	-5873
지마	-5874
▁1917	-5875
ip	-5876
▁플레	-5877
▁크림	-5878
▁뜨	-5879
▁ㅅㅔㄴ	-5880
▁ㄴㅏㅁㄱㅕ	-5881
ㅇㄱ	-5882
사관	-5883
▁이종	-5884
▁전향	-5885
▁정자	-5886
▁옮기	-5887
▁준우승	-5888
▁SM	-5889
▁모듈	-5890
도니아	-5891
▁1927	-5892
ld	-5893
슬로	-5894
IS	-5895
▁삽입	-5896
▁상처	-5897
▁JR	-5898
▁제주도	-5899
▁교역	-5900
▁이토	-5901
▁앨런	-5902
▁03	-5903
▁적응	-5904
▁통로	-5905
▁과도	-5906
▁안양	-5907
▁커피	-5908
▁북동쪽	-5909
▁명문	-5910
▁호조	-5911
▁ㅇㅗㄹㄹㅣㄴ	-5912
▁적어도	-5913
▁매각	-5914
▁탐험	-5915
▁배상	-5916
▁시아	-5917
▁호르	-5918
▁우익	-5919
▁창간	-5920
▁굿	-5921
ant	-5922
▁조명	-5923
▁1907	-5924
▁우크라이나	-5925
▁럭	-5926
▁대행	-5927
▁전승	-5928
▁BBC	-5929
▁둔	-5930
▁석조	-5931
영상	-5932
▁배급	-5933
▁보좌	-5934
▁시상식	-5935
OM	-5936
다드	-5937
▁라우	-5938
▁베토	-5939
▁에스파	-5940
▁수지	-5941
▁스와	-5942
▁인자	-5943
▁1926	-5944
▁ㄴㅐㄴㄷㅏ	-5945
▁과장	-5946
▁외계	-5947
▁육성	-5948
▁전작	-5949
▁다큐멘터리	-5950
▁흙	-5951
▁산악	-5952
스팅	-5953
▁몬테	-5954
▁항목	-5955
이즈	-5956
▁옵	-5957
▁산타	-5958
▁유인	-5959
▁밀라노	-5960
▁앱	-5961
ED	-5962
▁관하	-5963
▁정서	-5964
▁대교	-5965
▁협의회	-5966
▁옹호	-5967
▁상하이	-5968
▁쇠퇴	-5969
▁출현	-5970
▁표본	-5971
▁사라지	-5972
▁송라이터	-5973
▁의병	-5974
▁노인	-5975
▁폐기	-5976
▁문하	-5977
av	-5978
▁SN	-5979
▁슐	-5980
생물	-5981
▁왕립	-5982
▁체인	-5983
▁자전거	-5984
몬드	-5985
▁ㄲㅐ	-5986
▁색상	-5987
▁포크	-5988
▁168	-5989
▁별로	-5990
▁탑승	-5991
▁He	-5992
▁자문	-5993
▁지름	-5994
페이지	-5995
▁동아시아	-5996
스토	-5997
▁해설	-5998
▁단행	-5999
▁세조	-6000
▁종족	-6001
▁묘지	-6002
▁부동산	-6003
▁디즈니	-6004
▁비전	-6005
▁무선	-6006
다이라	-6007
▁연고지	-6008
런트	-6009
▁비틀	-6010
▁ㅁㅏㅈㅊㅝ	-6011
▁수감	-6012
ind	-6013
▁NHK	-6014
▁사신	-6015
▁패러	-6016
▁PD	-6017
로프	-6018
슬라	-6019
▁상영	-6020
▁스틸	-6021
▁관중	-6022
▁ㄱㅏㄹㄹㅏ	-6023
티움	-6024
▁유입	-6025
▁호남	-6026
▁렉	-6027
▁1905	-6028
se	-6029
▁내장	-6030
▁동사	-6031
텐도	-6032
▁닌텐도	-6033
▁||	-6034
▁기종	-6035
▁콩고	-6036
▁시에	-6037
▁오리지	-6038
▁하천	-6039
▁레이다	-6040
▁때로	-6041
▁모자	-6042
▁산지	-6043
▁틈	-6044
▁노조	-6045
▁아가	-6046
▁합계	-6047
▁166	-6048
튜브	-6049
ame	-6050
▁162	-6051
▁사료	-6052
▁제후	-6053
AC	-6054
▁ㅆㅏㅎ	-6055
▁최우수	-6056
▁문화유산	-6057
▁홈페이지	-6058
▁칭하	-6059
▁룩	-6060
세스	-6061
▁독일어	-6062
▁기하학	-6063
▁정사	-6064
라지	-6065
▁버그	-6066
▁151	-6067
▁민족주의	-6068
▁ㅆㅡㄴㄷㅏ	-6069
▁좌익	-6070
총장	-6071
▁시외	-6072
▁ㅇㅠ	-6073
▁유튜브	-6074
▁에릭	-6075
▁진지	-6076
▁들어서	-6077
▁데이터베이스	-6078
▁유신	-6079
▁Sp	-6080
▁떼	-6081
▁기아	-6082
▁엄마	-6083
▁베토벤	-6084
브스	-6085
▁역과	-6086
▁선제	-6087
▁참조	-6088
▁헤드	-6089
▁비평가	-6090
▁꾸준히	-6091
▁가쓰	-6092
ry	-6093
▁아무런	-6094
무네	-6095
▁예외	-6096
▁조선인	-6097
▁꼽	-6098
나카	-6099
▁연금	-6100
▁사이클	-6101
▁정류장	-6102
▁ㅎㅑㅇㅎㅏㄴ	-6103
▁아울	-6104
▁카페	-6105
▁158	-6106
▁주말	-6107
▁수명	-6108
ES	-6109
▁비단	-6110
▁급속	-6111
▁지바	-6112
▁스승	-6113
▁트럭	-6114
▁품질	-6115
▁드래곤	-6116
플레이	-6117
▁가르치	-6118
▁크리스토	-6119
ith	-6120
▁색깔	-6121
▁증기	-6122
▁대조	-6123
▁원로	-6124
어트	-6125
▁모집	-6126
▁ㄱㅔㄴ	-6127
ㄷㅚ	-6128
▁겨우	-6129
▁아크	-6130
▁광역	-6131
▁상소	-6132
▁스페셜	-6133
▁칩	-6134
▁원산	-6135
▁커뮤니티	-6136
스케	-6137
▁요미	-6138
▁자바	-6139
ㅂㅓ	-6140
다니	-6141
▁02	-6142
▁안보	-6143
▁펼치	-6144
ort	-6145
▁목격	-6146
▁문과	-6147
엘라	-6148
▁ㄴㅐㄹ	-6149
▁수천	-6150
▁주거	-6151
▁남서쪽	-6152
▁둘러	-6153
▁리얼	-6154
▁선진	-6155
▁주파	-6156
▁마일	-6157
▁구마	-6158
▁ㅂㅓㄴ	-6159
▁할리	-6160
▁리듬	-6161
▁야생	-6162
ㅋㅕㅆㅇㅡ	-6163
▁향년	-6164
▁라이온	-6165
▁유고슬	-6166
▁유고슬라비아	-6167
▁셋째	-6168
▁실점	-6169
▁반환	-6170
▁옛날	-6171
스티벌	-6172
▁라이벌	-6173
ok	-6174
▁플루	-6175
▁레이스	-6176
▁특급	-6177
▁곧바로	-6178
▁나폴리	-6179
▁가미	-6180
▁라마	-6181
▁수수	-6182
▁점성	-6183
▁굳	-6184
▁입문	-6185
▁대안	-6186
▁흥미	-6187
▁도리	-6188
▁동치	-6189
▁베이스볼	-6190
▁페스티벌	-6191
▁인텔	-6192
프란시스코	-6193
▁기점	-6194
▁유닛	-6195
▁굽	-6196
▁샌프란시스코	-6197
▁무관	-6198
▁주의자	-6199
▁기념물	-6200
▁단층	-6201
▁도심	-6202
▁재무	-6203
▁토니	-6204
▁신비	-6205
▁악장	-6206
▁소니	-6207
▁쿠르	-6208
▁스피드	-6209
▁방안	-6210
▁운반	-6211
▁협의	-6212
▁와카	-6213
▁주한	-6214
▁디자이너	-6215
▁서북	-6216
▁동영상	-6217
해군	-6218
▁기압	-6219
▁운명	-6220
▁오리지널	-6221
▁마스	-6222
▁묘소	-6223
▁사직	-6224
▁ㅈㅝㅆ	-6225
프스	-6226
▁미네	-6227
▁ㅁㅗㄴ	-6228
▁브라이언	-6229
▁콜롬비아	-6230
▁렌즈	-6231
▁1904	-6232
▁안드로이드	-6233
▁적색	-6234
▁이리	-6235
▁석탑	-6236
▁기용	-6237
▁오디션	-6238
▁프랜	-6239
▁출판사	-6240
▁되찾	-6241
▁미만	-6242
▁우르	-6243
▁모터	-6244
▁입증	-6245
▁십자군	-6246
▁마케도니아	-6247
▁이오	-6248
▁일행	-6249
▁케이블	-6250
▁연주자	-6251
▁출산	-6252
▁지휘자	-6253
▁진도	-6254
▁직장	-6255
▁복제	-6256
▁알라	-6257
▁Un	-6258
▁인치	-6259
▁한나라	-6260
▁마쓰다이라	-6261
▁관장	-6262
▁한나라당	-6263
▁걷	-6264
회의	-6265
▁교전	-6266
▁급행	-6267
▁개수	-6268
▁빗	-6269
▁왕족	-6270
▁상무	-6271
▁평소	-6272
▁챌	-6273
▁정교	-6274
▁신임	-6275
리케이션	-6276
▁배제	-6277
▁분배	-6278
▁서경	-6279
▁파생	-6280
▁의거	-6281
ㄹㅓㅁㅇㅔ	-6282
▁판타지	-6283
▁템	-6284
▁동전	-6285
▁심하	-6286
▁165	-6287
▁부패	-6288
▁초래	-6289
▁154	-6290
▁센트럴	-6291
▁예술가	-6292
ord	-6293
▁계단	-6294
▁무신	-6295
▁자사	-6296
▁비즈니스	-6297
루살	-6298
▁내륙	-6299
프라	-6300
▁긴급	-6301
▁아서	-6302
ob	-6303
▁받침	-6304
▁용기	-6305
▁기재	-6306
▁오타	-6307
루살렘	-6308
▁겹	-6309
▁예언	-6310
▁가하	-6311
▁기름	-6312
▁수면	-6313
▁파나	-6314
▁폭스	-6315
▁Se	-6316
▁합작	-6317
▁Wh	-6318
▁스테이지	-6319
qu	-6320
러지	-6321
▁좌석	-6322
▁콘스탄티노	-6323
▁걸리	-6324
▁트레	-6325
▁163	-6326
▁당사자	-6327
문학	-6328
▁권고	-6329
▁가게	-6330
▁단종	-6331
▁사르	-6332
▁156	-6333
▁도메인	-6334
▁여동생	-6335
▁ㄱㅓㄹㄹㅕ	-6336
▁엉	-6337
모니	-6338
▁스펙트	-6339
우옌	-6340
▁SF	-6341
▁사범	-6342
▁신하	-6343
디스	-6344
▁넘어	-6345
▁용산	-6346
▁신용	-6347
▁링크	-6348
▁리투아	-6349
▁리투아니아	-6350
ate	-6351
▁항일	-6352
가스	-6353
▁연애	-6354
▁무슬	-6355
▁167	-6356
▁모순	-6357
▁스쿨	-6358
▁그랑	-6359
▁사면	-6360
▁호환	-6361
▁스펙트럼	-6362
▁타마	-6363
▁DJ	-6364
▁ㅇㅏㄴ	-6365
PS	-6366
아보	-6367
아하	-6368
▁ㄷㅓㅍ	-6369
▁예루살렘	-6370
▁크리스티	-6371
▁900	-6372
▁여신	-6373
▁무슬림	-6374
▁상임	-6375
▁진상	-6376
▁충남	-6377
▁회원국	-6378
교육	-6379
▁어항	-6380
카르	-6381
▁ㅉㅣ	-6382
경기	-6383
▁혜성	-6384
▁스마트폰	-6385
▁정계	-6386
▁챌린	-6387
▁아인	-6388
ㅁㅜㄹㄹㅓㅆ	-6389
▁압박	-6390
▁조류	-6391
▁자회사	-6392
▁끼리	-6393
▁ㅁㅏㄴㄴㅏㄴ	-6394
▁한양	-6395
껍질	-6396
페이	-6397
▁니스	-6398
▁부리	-6399
▁착륙	-6400
▁AM	-6401
▁미얀	-6402
▁분지	-6403
▁선사	-6404
▁발효	-6405
▁샹	-6406
▁장편	-6407
▁싫	-6408
▁무라	-6409
IC	-6410
길이	-6411
▁밀접	-6412
▁WW	-6413
▁번식	-6414
▁주립	-6415
▁게시	-6416
▁부수	-6417
▁바이올린	-6418
▁훼손	-6419
▁지주	-6420
▁일요일	-6421
▁바그	-6422
▁조국	-6423
▁지장	-6424
▁비로	-6425
▁전염	-6426
▁피렌	-6427
▁좋아하	-6428
▁ㅁㅗㅅㅎㅐ	-6429
▁애국	-6430
▁서울시	-6431
리크	-6432
커스	-6433
▁고립	-6434
식물	-6435
▁얼음	-6436
▁친정	-6437
▁ㅋㅏㄴ	-6438
▁교섭	-6439
▁포맷	-6440
킨스	-6441
▁오다	-6442
▁UN	-6443
▁팅	-6444
▁서브	-6445
▁우지	-6446
럼비아	-6447
▁비잔티움	-6448
▁농도	-6449
▁피스	-6450
▁139	-6451
▁진나라	-6452
▁예능	-6453
▁요크	-6454
▁옌	-6455
랑이	-6456
▁AS	-6457
▁오케스트라	-6458
잡이	-6459
▁대단	-6460
▁식사	-6461
▁낱	-6462
▁하트	-6463
▁대령	-6464
▁우루	-6465
▁최신	-6466
▁이지	-6467
▁쇼군	-6468
예프	-6469
▁아베	-6470
▁브라우	-6471
▁노무현	-6472
▁행정부	-6473
▁하드웨어	-6474
▁구장	-6475
ET	-6476
▁사리	-6477
▁성종	-6478
▁개발자	-6479
▁아이디	-6480
▁차관	-6481
마치	-6482
▁용량	-6483
▁145	-6484
▁킬로미터	-6485
부인	-6486
ast	-6487
▁도망	-6488
▁물려	-6489
▁월간	-6490
▁번주	-6491
▁융합	-6492
▁주머니	-6493
▁시체	-6494
▁지질	-6495
▁알바니아	-6496
아지	-6497
▁벌어지	-6498
▁기타리스트	-6499
▁과제	-6500
▁발족	-6501
▁쿠스	-6502
▁이명박	-6503
DP	-6504
▁마리오	-6505
▁미나미	-6506
▁스트리트	-6507
▁강연	-6508
▁참판	-6509
▁몸길이	-6510
▁파동	-6511
▁선두	-6512
▁전이	-6513
▁디비전	-6514
▁바티	-6515
▁와중	-6516
▁응우옌	-6517
▁임상	-6518
▁학파	-6519
▁관광객	-6520
▁부통령	-6521
▁공과	-6522
▁페어	-6523
▁소나	-6524
▁피렌체	-6525
수아	-6526
▁중국어	-6527
▁투명	-6528
로디	-6529
▁부흥	-6530
▁아세	-6531
▁부시	-6532
▁해인	-6533
데이트	-6534
▁성공회	-6535
▁보전	-6536
▁위주	-6537
▁1896	-6538
들리	-6539
▁야기	-6540
레이터	-6541
▁업데이트	-6542
if	-6543
▁관찰사	-6544
▁전지	-6545
▁전임	-6546
▁MVP	-6547
▁정벌	-6548
랑크	-6549
▁DS	-6550
▁김동	-6551
▁피에르	-6552
▁부자	-6553
▁ㅅㅣㅁㅎㅏㄴ	-6554
▁빨리	-6555
ack	-6556
▁규명	-6557
▁아이디어	-6558
▁배정	-6559
▁사바	-6560
▁ㅇㅏㄹㄹㅕㅆ	-6561
▁착수	-6562
ive	-6563
▁전류	-6564
▁충성	-6565
▁ㅂㅣㄹ	-6566
▁넬	-6567
▁스콧	-6568
▁마케팅	-6569
▁간접	-6570
▁공용	-6571
▁저기	-6572
▁히라	-6573
▁마산	-6574
ure	-6575
▁부도	-6576
▁IP	-6577
▁공전	-6578
트니	-6579
▁디오	-6580
▁귀환	-6581
▁하노	-6582
▁고조	-6583
▁측근	-6584
▁ㅁㅜㄷ	-6585
▁HIV	-6586
▁여덟	-6587
▁제네	-6588
▁중독	-6589
▁권유	-6590
▁중도	-6591
▁다이아	-6592
IT	-6593
▁굉	-6594
아리	-6595
▁친선	-6596
▁수학자	-6597
▁애플리케이션	-6598
▁맥스	-6599
▁가득	-6600
▁로빈	-6601
▁스타크래프트	-6602
▁ㅅㅡㄹ	-6603
▁게이트	-6604
란트	-6605
▁붓	-6606
▁보드	-6607
▁점유	-6608
▁완화	-6609
균관	-6610
▁거인	-6611
▁샬	-6612
▁턴	-6613
▁성벽	-6614
▁연수	-6615
▁차체	-6616
▁이에	-6617
▁험	-6618
▁마운	-6619
▁우즈	-6620
트롤	-6621
▁152	-6622
iv	-6623
▁섞	-6624
▁경선	-6625
▁출구	-6626
▁형법	-6627
▁174	-6628
▁짙	-6629
운서	-6630
ock	-6631
▁시드니	-6632
▁관습	-6633
▁수산	-6634
▁오렌	-6635
▁서일본	-6636
▁테일러	-6637
▁5000	-6638
▁트윈	-6639
▁소송법	-6640
악기	-6641
▁메디	-6642
▁미하	-6643
▁노동조합	-6644
▁요미우리	-6645
▁아나운서	-6646
▁서열	-6647
▁쇼핑	-6648
리티	-6649
주곡	-6650
토미	-6651
▁붙이	-6652
▁세례	-6653
루미	-6654
▁피난	-6655
▁157	-6656
▁플라스	-6657
▁ㄸㅡ	-6658
▁옐	-6659
▁련	-6660
▁밀양	-6661
▁정찰	-6662
▁지각	-6663
▁규격	-6664
▁조용	-6665
ck	-6666
▁금성	-6667
ㅟㄴ	-6668
결승	-6669
▁ㅅㅕ	-6670
▁사인	-6671
▁석탄	-6672
▁구동	-6673
▁존경	-6674
▁꼴	-6675
사기	-6676
▁사명	-6677
▁장성	-6678
▁번뇌	-6679
▁Ar	-6680
▁변동	-6681
▁전장	-6682
▁좌표	-6683
▁실용	-6684
▁검증	-6685
▁행진	-6686
▁프로세스	-6687
▁루수	-6688
▁수신	-6689
▁한화	-6690
▁하버드	-6691
▁전문학교	-6692
▁한강	-6693
▁준공	-6694
▁뱅크	-6695
▁신칸	-6696
▁백신	-6697
▁뷔	-6698
▁복소	-6699
▁카나	-6700
▁전진	-6701
▁청와	-6702
▁킨	-6703
▁염색	-6704
▁책봉	-6705
가루	-6706
▁테오	-6707
원숭이	-6708
츠키	-6709
문관	-6710
▁고개	-6711
▁빌헬	-6712
▁장인	-6713
ㄹㅐ	-6714
▁가즈	-6715
▁관현	-6716
▁취약	-6717
▁신전	-6718
▁이슈	-6719
▁청와대	-6720
▁급진	-6721
폴리스	-6722
▁j	-6723
▁미스터	-6724
외선	-6725
포스	-6726
▁구제	-6727
▁메가	-6728
붙이	-6729
▁디젤	-6730
▁인과	-6731
▁성균관	-6732
전자	-6733
▁드러내	-6734
▁자손	-6735
▁호평	-6736
니스트	-6737
▁얼마나	-6738
카드	-6739
▁할당	-6740
산군	-6741
▁국어	-6742
▁퇴각	-6743
▁자율	-6744
▁카시	-6745
자와	-6746
▁MP	-6747
▁ㄷㅗㄹㄹㅕ	-6748
▁소총	-6749
▁연구자	-6750
악단	-6751
▁식당	-6752
하르트	-6753
▁닫	-6754
ㅇㅝㅆㅇㅡ	-6755
▁연루	-6756
▁제휴	-6757
▁통행	-6758
▁회수	-6759
▁이순	-6760
▁상상	-6761
▁105	-6762
▁박영	-6763
▁해전	-6764
▁146	-6765
트랙	-6766
▁소금	-6767
▁파스	-6768
▁해임	-6769
▁판매량	-6770
▁쥬	-6771
▁무효	-6772
▁남양	-6773
▁승차	-6774
▁적대	-6775
▁1911	-6776
▁남인	-6777
▁몰락	-6778
▁125	-6779
12	-6780
▁여수	-6781
▁뿔	-6782
수수	-6783
▁상류	-6784
▁1500	-6785
ㅂㅏ	-6786
▁아울러	-6787
혁명	-6788
▁김용	-6789
▁이노	-6790
▁착공	-6791
▁흥행	-6792
▁히스	-6793
▁ㅂㅏㄴ	-6794
ㄴㅕ	-6795
▁강사	-6796
▁루터	-6797
▁전두	-6798
ime	-6799
▁신칸센	-6800
▁서독	-6801
▁창업	-6802
▁ㅉㅗㅊ	-6803
▁천문학	-6804
▁외무	-6805
▁윌슨	-6806
▁젖	-6807
▁관념	-6808
▁응답	-6809
▁자책점	-6810
▁지분	-6811
▁패전	-6812
고속도로	-6813
▁이복	-6814
▁ㄷㅡㄹㅇㅕ	-6815
▁비극	-6816
▁나열	-6817
▁여래	-6818
▁프로토콜	-6819
▁마찰	-6820
▁술탄	-6821
▁유출	-6822
▁3000	-6823
▁민국	-6824
▁소관	-6825
▁에티	-6826
▁소닉	-6827
▁나미	-6828
▁153	-6829
메르	-6830
▁석가	-6831
▁동남아시아	-6832
▁쇄	-6833
▁매출	-6834
▁원나라	-6835
▁저기압	-6836
▁하마	-6837
▁PS	-6838
▁디비	-6839
▁순천	-6840
▁얇	-6841
▁문제점	-6842
▁고원	-6843
▁소재지	-6844
▁시외버스	-6845
▁사사	-6846
▁청사	-6847
▁노드	-6848
▁사지	-6849
ㄱㅜㄴ	-6850
one	-6851
▁항공모	-6852
▁우정	-6853
일드	-6854
▁악마	-6855
라트	-6856
▁과목	-6857
▁저택	-6858
▁카트	-6859
▁강수량	-6860
제프	-6861
▁마오	-6862
▁믿음	-6863
▁Le	-6864
▁로고	-6865
▁마천	-6866
▁비아	-6867
▁이이	-6868
서양	-6869
▁단원	-6870
▁성전	-6871
▁충족	-6872
▁시집	-6873
▁일렉	-6874
▁증후	-6875
팩트	-6876
▁곳곳	-6877
▁동위	-6878
ㄴㅣㄹ	-6879
▁희극	-6880
ㄲㅇㅕ	-6881
▁조언	-6882
▁매개	-6883
▁배구	-6884
▁서서	-6885
▁ISO	-6886
▁예배	-6887
▁유언	-6888
대군	-6889
▁아즈	-6890
▁지목	-6891
네이	-6892
▁Pro	-6893
▁고베	-6894
▁보잉	-6895
▁이글	-6896
▁미얀마	-6897
▁카자흐	-6898
▁중점	-6899
▁조르	-6900
▁폴리스	-6901
▁매사	-6902
▁소지	-6903
▁환원	-6904
▁103	-6905
▁공자	-6906
▁빌헬름	-6907
토시	-6908
▁내내	-6909
▁문재인	-6910
▁우주선	-6911
▁연인	-6912
▁오클	-6913
델피아	-6914
▁필라델피아	-6915
▁시립	-6916
ML	-6917
▁개업	-6918
▁따위	-6919
▁환상	-6920
▁회계	-6921
▁중장	-6922
▁지지자	-6923
▁MC	-6924
▁편곡	-6925
기니	-6926
▁선원	-6927
▁클린	-6928
▁찌	-6929
▁취재	-6930
AP	-6931
▁고무	-6932
▁주권	-6933
▁회견	-6934
▁출입구	-6935
▁제트	-6936
▁포장	-6937
▁힌두	-6938
ㅂㅎㅣㄴ	-6939
즈카	-6940
▁겸임	-6941
▁기장	-6942
노리	-6943
▁성모	-6944
▁해역	-6945
▁각본가	-6946
▁특유	-6947
▁참가자	-6948
▁법령	-6949
▁천사	-6950
▁굵	-6951
▁머물	-6952
▁155	-6953
▁비틀즈	-6954
▁독립운동가	-6955
▁으	-6956
▁삿	-6957
▁근접	-6958
▁셈	-6959
▁최적	-6960
OC	-6961
▁공인	-6962
▁후자	-6963
시온	-6964
▁나리	-6965
▁친척	-6966
ㄷㅚㄴ	-6967
▁버튼	-6968
▁오렌지	-6969
▁주파수	-6970
▁사가	-6971
▁협동	-6972
▁정치가	-6973
▁각기	-6974
▁별개	-6975
▁앞면	-6976
▁카타	-6977
▁ㅊㅏㄴ	-6978
마사	-6979
▁유해	-6980
▁ㅂㅘㅆ	-6981
▁보충	-6982
▁허브	-6983
te	-6984
▁공략	-6985
▁점프	-6986
▁중종	-6987
받침	-6988
▁일관	-6989
▁제의	-6990
▁추모	-6991
▁토리	-6992
▁증후군	-6993
▁닭	-6994
▁반격	-6995
▁진리	-6996
▁토크	-6997
▁포수	-6998
▁ㅇㅓㄴ	-6999
▁별자리	-7000
동물	-7001
어리	-7002
▁이원	-7003
▁늘어나	-7004
▁밭	-7005
▁둘러싸	-7006
▁회화	-7007
▁북동부	-7008
노프	-7009
▁법무	-7010
▁Bo	-7011
▁게재	-7012
▁와인	-7013
▁리메	-7014
▁위장	-7015
▁유격	-7016
▁항공모함	-7017
▁108	-7018
▁벗어나	-7019
▁우편	-7020
▁인형	-7021
ㄹㅓㄴ	-7022
▁오키나	-7023
▁ㅇㅑㄱㅎㅏㄴ	-7024
▁눈물	-7025
▁모으	-7026
ㅅㅡㄹㄹㅓ	-7027
▁상자	-7028
▁성주	-7029
▁이바	-7030
▁평행	-7031
▁나고	-7032
▁생일	-7033
▁Con	-7034
리언	-7035
산면	-7036
▁실종	-7037
▁토요일	-7038
▁미소	-7039
소스	-7040
▁민영	-7041
▁즐기	-7042
▁오디오	-7043
▁트라이	-7044
▁동등	-7045
ㅅㅣ	-7046
▁격렬	-7047
▁ㄲㅓ	-7048
▁두산	-7049
▁베르크	-7050
▁컨트롤	-7051
▁사물	-7052
▁아바	-7053
▁이어서	-7054
▁사우디아	-7055
▁담배	-7056
ㅇㅘㅆㅇㅡ	-7057
플러	-7058
ㅂㅎㅣㄴㄷㅏ	-7059
▁민사	-7060
▁테스	-7061
▁하우	-7062
▁개찰구	-7063
▁영동	-7064
▁이인	-7065
▁룰	-7066
▁서해	-7067
산리	-7068
▁감지	-7069
▁레전	-7070
▁패스	-7071
▁합법	-7072
▁매력	-7073
▁앞서	-7074
▁나고야	-7075
io	-7076
▁내지	-7077
▁ㅂㅜㄹ	-7078
▁승무원	-7079
ber	-7080
▁상부	-7081
▁유교	-7082
▁인격	-7083
▁입상	-7084
가타	-7085
▁고체	-7086
▁스파이	-7087
▁일찍이	-7088
때로	-7089
▁외곽	-7090
▁준결승	-7091
▁금액	-7092
▁아군	-7093
▁아리스	-7094
▁야간	-7095
▁퍼시픽	-7096
▁IT	-7097
▁교장	-7098
▁드라이브	-7099
▁이영	-7100
베이터	-7101
▁건의	-7102
▁대답	-7103
▁박탈	-7104
▁세균	-7105
▁브래	-7106
▁아케	-7107
▁자발	-7108
▁이사장	-7109
▁하인리히	-7110
▁상장	-7111
▁해운	-7112
▁ㅋㅓㅆ	-7113
▁앙리	-7114
▁화살	-7115
▁1909	-7116
▁크리스마스	-7117
퍼니	-7118
▁양상	-7119
▁외국어	-7120
▁스터	-7121
▁전례	-7122
▁일족	-7123
▁채무	-7124
▁호세	-7125
▁생명체	-7126
▁에이스	-7127
상스	-7128
항공	-7129
▁에디	-7130
▁ㅁㅏㅌ	-7131
▁상대방	-7132
▁교단	-7133
▁때때로	-7134
▁태어나	-7135
▁던지	-7136
▁서서히	-7137
▁시청자	-7138
러미	-7139
▁트럼프	-7140
▁멈	-7141
▁사다	-7142
▁128	-7143
화점	-7144
▁향교	-7145
▁149	-7146
▁톈	-7147
▁ㅇㅏㄹㅇㅏ	-7148
▁이슬람교	-7149
▁캠페인	-7150
▁보스니아	-7151
람회	-7152
모어	-7153
▁102	-7154
▁시라	-7155
▁연도	-7156
▁추격	-7157
▁ㅎㅏㄴㄷㅔ	-7158
▁명의	-7159
▁콜라	-7160
▁대주교	-7161
▁복장	-7162
▁부착	-7163
▁궁정	-7164
▁사용자	-7165
▁기금	-7166
▁홍수	-7167
▁히데요시	-7168
▁메타	-7169
라이트	-7170
▁제작자	-7171
▁#	-7172
▁안장	-7173
칠리아	-7174
▁건축가	-7175
▁고가	-7176
▁수성	-7177
▁전도	-7178
▁트루	-7179
▁ㄴㅏㄹ	-7180
age	-7181
▁호칭	-7182
▁후안	-7183
▁발원	-7184
▁트위	-7185
구장	-7186
▁아우구	-7187
▁텍스트	-7188
▁사우디아라비아	-7189
▁배틀	-7190
▁어드	-7191
▁ㅎㅓㄴ	-7192
ge	-7193
트릭	-7194
▁차남	-7195
▁치세	-7196
▁주지사	-7197
집합	-7198
▁최저	-7199
백과	-7200
▁무려	-7201
먼드	-7202
▁고발	-7203
▁계절	-7204
▁남한	-7205
▁물자	-7206
▁짜리	-7207
▁가르침	-7208
▁운동장	-7209
Pa	-7210
▁셸	-7211
▁대외	-7212
▁발현	-7213
▁집계	-7214
▁아미타	-7215
▁여주	-7216
▁긴장	-7217
iz	-7218
▁대군	-7219
▁직책	-7220
▁자유당	-7221
▁ㄴㅏㅁㄱㅣㄴ	-7222
▁정밀	-7223
▁중국인	-7224
▁슬라	-7225
▁전대	-7226
▁키프	-7227
▁골프	-7228
▁$	-7229
▁기다리	-7230
▁네이버	-7231
라미	-7232
▁Bl	-7233
▁대니	-7234
▁섭취	-7235
▁원자로	-7236
▁시오	-7237
▁포도주	-7238
▁에스파냐	-7239
▁사이버	-7240
▁세미	-7241
▁르네상스	-7242
▁다중	-7243
창기	-7244
▁포괄	-7245
▁레이저	-7246
AD	-7247
▁가라	-7248
▁룽	-7249
▁지나치	-7250
▁충주	-7251
▁에우	-7252
▁향후	-7253
▁고래	-7254
▁청장	-7255
▁태생	-7256
▁팔레스	-7257
▁만세	-7258
▁중재	-7259
▁김영삼	-7260
▁CPU	-7261
▁ㄷㅜㅇㄱ	-7262
▁여의	-7263
▁여진	-7264
▁레전드	-7265
▁송나라	-7266
▁강경	-7267
▁조반	-7268
▁존중	-7269
▁노란색	-7270
▁로프	-7271
▁탐지	-7272
▁블루스	-7273
차례	-7274
▁단기	-7275
▁127	-7276
▁경부	-7277
▁리오	-7278
▁문양	-7279
▁왜성	-7280
▁147	-7281
▁수평	-7282
▁스릴	-7283
▁토마	-7284
▁최소한	-7285
▁댐	-7286
우라	-7287
▁그랑프리	-7288
▁피고	-7289
▁프랭크	-7290
▁엘리베이터	-7291
▁패하	-7292
▁팽창	-7293
▁손가락	-7294
나리	-7295
▁상세	-7296
▁토스	-7297
▁1915	-7298
sp	-7299
▁기수	-7300
▁아미노	-7301
▁하이드	-7302
수엘라	-7303
생활	-7304
▁고사	-7305
▁단점	-7306
▁원하	-7307
▁턱	-7308
▁볼리	-7309
▁갓	-7310
▁메인	-7311
▁알코	-7312
▁케네	-7313
▁로맨스	-7314
노부	-7315
▁역명	-7316
▁제곱	-7317
▁황해	-7318
▁수군	-7319
▁추증	-7320
orld	-7321
▁1913	-7322
▁난민	-7323
▁초연	-7324
▁마비	-7325
▁명목	-7326
▁캄보	-7327
서리	-7328
▁북구	-7329
▁사절	-7330
▁속성	-7331
▁ㅍㅏㄴ	-7332
▁유소년	-7333
행위	-7334
ㄷㅏㄴ	-7335
▁ㅈㅜㄱㅇㅕㅆ	-7336
▁겔	-7337
▁부천	-7338
▁딩	-7339
▁얘	-7340
▁굉장	-7341
▁동독	-7342
▁분광	-7343
▁끈	-7344
▁테니스	-7345
▁위키백과	-7346
▁동당	-7347
▁171	-7348
▁라파	-7349
▁숭배	-7350
ㅇㅜㄴㄷㅏ	-7351
ik	-7352
ㄸㅏ	-7353
▁가져	-7354
▁방침	-7355
▁후일	-7356
▁전두환	-7357
▁오키나와	-7358
▁윌리엄스	-7359
ㄴㅣㄴㄷㅏ	-7360
▁북방	-7361
▁무죄	-7362
▁입체	-7363
▁주축	-7364
창군	-7365
▁캐스팅	-7366
▁베네수엘라	-7367
▁쉐	-7368
▁동래	-7369
▁문학상	-7370
▁둘레	-7371
▁창건	-7372
▁유니폼	-7373
기지	-7374
▁전함	-7375
▁침몰	-7376
▁협조	-7377
시티	-7378
▁광년	-7379
▁ㅅㅏㄴㄷㅏ	-7380
▁심의	-7381
▁천문학자	-7382
▁강과	-7383
▁마하	-7384
▁추상	-7385
▁타르	-7386
▁김태	-7387
▁낙선	-7388
▁동년	-7389
▁취지	-7390
▁시그	-7391
▁출토	-7392
▁따뜻	-7393
▁보리	-7394
▁센서	-7395
▁태수	-7396
자치도	-7397
▁투르크	-7398
▁제주특별	-7399
▁제주특별자치도	-7400
명사전	-7401
▁김수	-7402
▁부과	-7403
▁신흥	-7404
▁촉구	-7405
▁초창기	-7406
▁ㅈㅓㄴㅎㅏㄴㄷㅏ	-7407
▁팜	-7408
▁개미	-7409
▁진군	-7410
▁창시	-7411
▁상당수	-7412
포구	-7413
▁김재	-7414
ㄷㅓㄴ	-7415
▁ㄷㅓㅅㅂㅜㅌㅇㅕ	-7416
▁객관	-7417
▁음원	-7418
▁컬러	-7419
▁이어받	-7420
▁대역	-7421
▁서사	-7422
▁원고	-7423
워하	-7424
▁대포	-7425
▁언제나	-7426
▁GT	-7427
▁수렴	-7428
▁옥스	-7429
▁조리	-7430
▁ㄴㅏㄴㄷㅏ	-7431
▁닿	-7432
▁수령	-7433
▁1895	-7434
▁원반	-7435
▁카탈	-7436
▁이민자	-7437
▁스파르타	-7438
▁al	-7439
▁라이언	-7440
▁코프	-7441
ㄹㄹㅣㅁ	-7442
평군	-7443
▁CE	-7444
▁디스플레이	-7445
▁SP	-7446
▁병역	-7447
▁통칭	-7448
▁팔레스타인	-7449
▁남원	-7450
▁169	-7451
▁총선거	-7452
▁리메이크	-7453
▁탈환	-7454
▁141	-7455
▁광부	-7456
박쥐	-7457
▁어업	-7458
▁ㄷㅏㄹㄹㅣㄴ	-7459
▁딴	-7460
▁모스	-7461
▁바흐	-7462
▁프레스	-7463
▁이틀	-7464
▁머신	-7465
▁나가사키	-7466
▁법제	-7467
▁아폴	-7468
▁총괄	-7469
네스코	-7470
MS	-7471
▁아사히	-7472
▁ㅃㅗ	-7473
▁나주	-7474
▁링컨	-7475
▁수동	-7476
▁135	-7477
▁다운로드	-7478
포트	-7479
▁비문	-7480
▁인재	-7481
▁주차	-7482
▁Tr	-7483
▁무제	-7484
▁언론인	-7485
공신	-7486
▁온천	-7487
▁유수	-7488
▁하부	-7489
▁뚫	-7490
▁북서부	-7491
▁기습	-7492
무기	-7493
▁국사	-7494
▁김진	-7495
▁동력	-7496
▁적자	-7497
▁탤	-7498
보기	-7499
▁양주	-7500
▁풋볼	-7501
ust	-7502
그라드	-7503
▁도호쿠	-7504
▁문화방송	-7505
석기	-7506
자스	-7507
▁대처	-7508
▁ㅂㅕㄹ	-7509
▁수용소	-7510
▁자기장	-7511
ㅂㅕ	-7512
벌레	-7513
▁계몽	-7514
▁소실	-7515
▁이진	-7516
▁엔지	-7517
▁유연	-7518
▁종결	-7519
▁드러나	-7520
▁개관	-7521
▁서머	-7522
▁섭정	-7523
▁144	-7524
▁거느리	-7525
▁해병대	-7526
ㄲㅕ	-7527
▁어스	-7528
▁ㄲㅡㄹㅇㅓ	-7529
ep	-7530
▁귀중	-7531
ㄱㅣ	-7532
▁초상화	-7533
▁한동안	-7534
▁후세	-7535
와라	-7536
▁더글	-7537
▁시공	-7538
▁재미	-7539
▁111	-7540
▁스핀	-7541
▁영리	-7542
▁청원	-7543
▁걱	-7544
▁멈추	-7545
▁차기	-7546
▁ㄷㅡㄴㅈㅣ	-7547
▁김포	-7548
▁신세	-7549
▁바실	-7550
▁효력	-7551
▁후대	-7552
▁신중	-7553
▁폐위	-7554
선거	-7555
int	-7556
▁식별	-7557
▁서울대	-7558
▁첨가	-7559
▁ㄷㅜㅇㄱㅡㄴ	-7560
▁저명	-7561
▁풍경	-7562
▁아레나	-7563
▁장미	-7564
▁평야	-7565
▁함유	-7566
▁컴퍼니	-7567
▁고백	-7568
▁번영	-7569
▁대제	-7570
ㅈㅜㄴ	-7571
▁스티브	-7572
▁컬럼비아	-7573
▁정말	-7574
▁중순	-7575
▁정전	-7576
▁공채	-7577
▁조달	-7578
▁119	-7579
▁스릴러	-7580
▁연세대	-7581
▁TH	-7582
▁반박	-7583
▁인산	-7584
▁기요	-7585
▁이광	-7586
▁천도	-7587
▁휴식	-7588
▁끊임	-7589
▁내외	-7590
▁제수	-7591
▁신학교	-7592
▁십자가	-7593
▁캄보디아	-7594
누엘	-7595
▁언더	-7596
▁CO	-7597
▁날짜	-7598
▁대위	-7599
GC	-7600
▁도스	-7601
▁정무	-7602
▁파업	-7603
트리올	-7604
▁리버풀	-7605
▁몬트리올	-7606
ㄲㅝ	-7607
▁It	-7608
▁별칭	-7609
▁아종	-7610
▁오빠	-7611
▁요르	-7612
▁케네디	-7613
키지	-7614
▁두루	-7615
▁총사	-7616
크리트	-7617
▁룡	-7618
시로	-7619
▁편리	-7620
▁172	-7621
▁친일인	-7622
▁친일인명사전	-7623
▁hPa	-7624
▁유네스코	-7625
EN	-7626
▁드럼	-7627
▁매카	-7628
▁삼진	-7629
▁평일	-7630
ib	-7631
▁불편	-7632
▁중소	-7633
푸스	-7634
▁껍질	-7635
▁선구	-7636
▁사회학	-7637
▁유니버	-7638
▁간호	-7639
▁애덤	-7640
▁다니엘	-7641
▁106	-7642
▁이글스	-7643
▁큰	-7644
ㄲㅡ	-7645
▁묘역	-7646
▁테레	-7647
릴라	-7648
▁무상	-7649
▁병조	-7650
▁충실	-7651
▁우연히	-7652
▁교양	-7653
▁원내	-7654
▁WWE	-7655
▁니콜라	-7656
리에	-7657
ome	-7658
▁관통	-7659
▁루시	-7660
▁카리브	-7661
▁페르난	-7662
▁미주	-7663
▁바퀴	-7664
▁소환	-7665
▁아벨	-7666
▁아틀레	-7667
▁전성기	-7668
▁북위	-7669
ude	-7670
▁교원	-7671
▁선종	-7672
▁신학자	-7673
▁관람	-7674
▁장안	-7675
▁해수	-7676
ㅇㅕㅆㅇㅡ	-7677
▁ㅈㅓㅇㅎㅏㄴ	-7678
▁꽤	-7679
▁공모	-7680
▁명백	-7681
▁중량	-7682
그로	-7683
▁제갈	-7684
▁걱정	-7685
▁위임	-7686
▁스페이스	-7687
라리	-7688
▁며칠	-7689
▁휴전	-7690
▁프랑수아	-7691
▁당일	-7692
▁미즈	-7693
▁엔지니어	-7694
ㅐㄹ	-7695
▁에스토	-7696
▁콰	-7697
니치	-7698
▁등재	-7699
▁총대	-7700
▁베드	-7701
▁슈트	-7702
러드	-7703
ian	-7704
▁아이슬	-7705
▁낱말	-7706
▁승점	-7707
▁의상	-7708
케이션	-7709
▁리어	-7710
▁신기	-7711
▁지폐	-7712
▁초과	-7713
▁겸하	-7714
▁서남	-7715
▁콘크리트	-7716
세츠	-7717
▁We	-7718
▁마츠	-7719
▁ㅎㅓ	-7720
▁김상	-7721
ㄹㅏㄴㄷㅏ	-7722
▁정렬	-7723
▁증진	-7724
▁한성부	-7725
내셔널	-7726
▁인터내셔널	-7727
▁마인	-7728
▁연패	-7729
▁지혜	-7730
▁충북	-7731
▁매사추	-7732
▁쇼트	-7733
▁표명	-7734
말라	-7735
ere	-7736
▁전압	-7737
▁매사추세츠	-7738
▁공직	-7739
▁대웅	-7740
▁바치	-7741
▁방패	-7742
▁소통	-7743
▁아이템	-7744
블로	-7745
선스	-7746
페르	-7747
▁우라늄	-7748
▁케이스	-7749
▁미토	-7750
▁생전	-7751
▁평범	-7752
▁해변	-7753
▁보완	-7754
▁중추원	-7755
▁아이슬란드	-7756
▁고수	-7757
▁외교관	-7758
▁책임자	-7759
▁발트	-7760
▁세계관	-7761
ire	-7762
▁고민	-7763
▁장려	-7764
▁공단	-7765
▁모방	-7766
▁좌절	-7767
루션	-7768
태우	-7769
▁단식	-7770
▁돌연	-7771
▁상서	-7772
▁암석	-7773
▁열대	-7774
▁투르	-7775
치오	-7776
▁도주	-7777
▁황태자	-7778
▁나스	-7779
▁영남	-7780
ㅈㅣㅁ	-7781
주의자	-7782
유행	-7783
▁도라	-7784
라이더	-7785
▁공의회	-7786
▁일화	-7787
▁탱크	-7788
▁퍼센트	-7789
▁청하	-7790
▁치열	-7791
▁기울	-7792
▁일조	-7793
ment	-7794
▁스페인어	-7795
실록	-7796
▁불명	-7797
▁ㅂㅜㄴ	-7798
▁에스토니아	-7799
▁그루	-7800
▁시흥	-7801
▁입지	-7802
pe	-7803
ace	-7804
▁역설	-7805
▁영장	-7806
▁양도	-7807
▁진짜	-7808
▁호위	-7809
▁호프	-7810
▁도루	-7811
▁배신	-7812
▁지나가	-7813
▁레바	-7814
▁부채	-7815
▁실전	-7816
▁라이선스	-7817
▁평택	-7818
▁포격	-7819
▁신속	-7820
▁덤	-7821
ide	-7822
▁교외	-7823
▁통근	-7824
야시	-7825
▁로열	-7826
▁오사	-7827
▁친왕	-7828
▁합창	-7829
▁바라보	-7830
▁닝	-7831
▁김기	-7832
▁물리학자	-7833
▁쿤	-7834
▁소유자	-7835
▁대전광역시	-7836
석탑	-7837
▁고령	-7838
▁업계	-7839
▁에버	-7840
▁오비	-7841
▁ㄴㅗㄹㄹㅏ	-7842
▁시나리오	-7843
▁푼	-7844
마드	-7845
층석탑	-7846
▁중심부	-7847
▁애틀	-7848
리케인	-7849
▁리비아	-7850
바이잔	-7851
▁도르	-7852
▁우울	-7853
▁148	-7854
▁마약	-7855
▁서정	-7856
▁창고	-7857
▁할리우드	-7858
▁허리케인	-7859
▁횟	-7860
▁HT	-7861
▁봉쇄	-7862
▁상담	-7863
▁오노	-7864
▁인연	-7865
▁치즈	-7866
▁바리	-7867
▁육지	-7868
▁장난	-7869
▁136	-7870
▁사슬	-7871
▁현금	-7872
오피아	-7873
▁에티오피아	-7874
▁기인	-7875
▁닛폰	-7876
▁부재	-7877
▁아제르	-7878
▁1916	-7879
▁슬로바키아	-7880
제리	-7881
▁시선	-7882
▁오세	-7883
▁탈당	-7884
▁협주곡	-7885
▁카이사르	-7886
▁물러	-7887
▁신생	-7888
▁지능	-7889
▁전라도	-7890
▁마이너	-7891
▁네이션스	-7892
지리아	-7893
▁나이지리아	-7894
▁아제르바이잔	-7895
위원	-7896
▁서재	-7897
▁성운	-7898
▁파장	-7899
▁스튜어트	-7900
▁그로	-7901
▁여지	-7902
▁즈음	-7903
▁파이어	-7904
▁격투	-7905
▁IBM	-7906
IM	-7907
중국	-7908
▁TO	-7909
▁순회	-7910
▁항소	-7911
▁다항	-7912
▁실시간	-7913
▁ㅅㅜㅁㄱㅕ	-7914
▁극동	-7915
▁의뢰	-7916
▁명제	-7917
▁조연	-7918
▁NBA	-7919
▁이사회	-7920
▁아드	-7921
▁입당	-7922
▁병행	-7923
▁산림	-7924
▁작센	-7925
아이	-7926
▁위탁	-7927
▁동상	-7928
▁추출	-7929
▁배터리	-7930
▁바닷	-7931
▁해소	-7932
람쥐	-7933
의자	-7934
▁특집	-7935
바다	-7936
▁막내	-7937
▁노부나가	-7938
▁구릉	-7939
▁추세	-7940
▁원숭이	-7941
▁국무총리	-7942
▁솜	-7943
▁기단	-7944
▁의약	-7945
▁호기	-7946
▁밟	-7947
▁앓	-7948
시피	-7949
▁낭만	-7950
▁안성	-7951
▁약칭	-7952
ㄱㅎㅣㄴ	-7953
▁브라우저	-7954
▁DC	-7955
▁부적	-7956
▁시초	-7957
▁하락	-7958
▁쌍둥이	-7959
▁말리	-7960
▁바스	-7961
▁한스	-7962
▁결혼식	-7963
▁패키지	-7964
▁니아	-7965
▁지류	-7966
cl	-7967
▁닷	-7968
▁실리	-7969
▁138	-7970
▁급격히	-7971
▁데이비스	-7972
▁돌리	-7973
▁리틀	-7974
▁실장	-7975
▁중위	-7976
▁차종	-7977
▁평원	-7978
▁구도	-7979
▁전념	-7980
▁허리	-7981
하면	-7982
▁구호	-7983
▁워드	-7984
▁페르디	-7985
▁구이	-7986
▁유동	-7987
▁해밀	-7988
▁ㅈㅓㄴㅎㅏㄴ	-7989
타로	-7990
▁격퇴	-7991
▁사헌	-7992
▁아마도	-7993
▁거제	-7994
▁반감	-7995
▁이세	-7996
▁리우스	-7997
▁가동	-7998
▁되게	-7999
▁분당	-8000
▁시즈	-8001
▁la	-8002
▁면허	-8003
▁후쿠시마	-8004
▁잦	-8005
▁지선	-8006
▁우루과이	-8007
▁객체	-8008
▁경연	-8009
▁백색	-8010
▁백화점	-8011
▁거론	-8012
▁딕	-8013
▁개그	-8014
▁포터	-8015
▁고성	-8016
▁레논	-8017
▁저하	-8018
▁주행	-8019
아나	-8020
▁토성	-8021
▁현종	-8022
▁구조물	-8023
승지	-8024
▁첼시	-8025
여래	-8026
타나	-8027
▁라이브러리	-8028
▁결선	-8029
▁바이오	-8030
▁시칠리아	-8031
▁박해	-8032
▁수습	-8033
▁회고	-8034
▁상공	-8035
▁세션	-8036
▁360	-8037
▁최상위	-8038
▁라트비아	-8039
▁복선	-8040
래스카	-8041
▁중성자	-8042
▁신규	-8043
▁재위	-8044
곡리	-8045
▁영의정	-8046
▁치명	-8047
▁도미	-8048
▁탐구	-8049
▁아부	-8050
▁104	-8051
마쓰	-8052
▁냉각	-8053
▁En	-8054
▁오바	-8055
▁우세	-8056
대신	-8057
▁가면	-8058
▁춘천	-8059
▁사헌부	-8060
▁고소	-8061
▁그램	-8062
▁오피스	-8063
리니	-8064
▁거행	-8065
▁깨달	-8066
▁신탁	-8067
▁애틀랜	-8068
▁릉	-8069
토모	-8070
▁감리	-8071
▁극히	-8072
▁임용	-8073
▁트래	-8074
▁랄	-8075
ark	-8076
▁모니터	-8077
▁어휘	-8078
▁한쪽	-8079
▁혈통	-8080
▁비시	-8081
▁도장	-8082
▁춘추	-8083
▁피에	-8084
▁LP	-8085
▁송시	-8086
하시	-8087
▁목판	-8088
▁얘기	-8089
▁장학	-8090
▁109	-8091
양함	-8092
▁반도체	-8093
▁테이블	-8094
▁ㅇㅗㄹㄹㅏㅆㅇㅡ	-8095
브레	-8096
▁주가	-8097
▁택시	-8098
스틴	-8099
▁신한	-8100
▁개원	-8101
▁기어	-8102
▁성숙	-8103
▁성체	-8104
▁차장	-8105
회장	-8106
▁생식	-8107
▁제독	-8108
▁게르만	-8109
▁다스리	-8110
▁펌	-8111
은색	-8112
▁Pr	-8113
▁ㄷㅣ	-8114
▁고인	-8115
▁고치	-8116
▁스톡	-8117
▁코무네	-8118
▁나비	-8119
▁주름	-8120
▁횟수	-8121
▁잔류	-8122
▁123	-8123
▁ㄹㅏㄹ	-8124
▁스트레스	-8125
데시	-8126
▁행적	-8127
베르토	-8128
▁이케	-8129
▁ㅈㅓㄴㅎㅐㅆ	-8130
▁후방	-8131
▁ㅇㅔㄹ	-8132
▁해적	-8133
▁대학생	-8134
고쿠	-8135
▁공수	-8136
▁칼라	-8137
▁환영	-8138
▁재현	-8139
▁최악	-8140
▁소매	-8141
▁교황청	-8142
▁민회	-8143
▁방송사	-8144
▁뢰	-8145
▁ㄱㅚ	-8146
▁가짜	-8147
▁그날	-8148
▁명령어	-8149
▁바나	-8150
▁반경	-8151
▁없애	-8152
▁정점	-8153
▁대표작	-8154
▁햇	-8155
▁축하	-8156
▁휴스턴	-8157
▁펜실	-8158
베이니아	-8159
▁펜실베이니아	-8160
▁옴	-8161
더슨	-8162
헤이	-8163
▁아홉	-8164
ㄴㅜㄹ	-8165
ㅀㅇㅓ	-8166
▁종로구	-8167
▁하워드	-8168
▁AK	-8169
▁루프	-8170
▁ㅅㅣㄹㄹㅕ	-8171
▁ㄹㅐ	-8172
▁폭동	-8173
푸르트	-8174
포드	-8175
▁매입	-8176
▁우위	-8177
▁인플	-8178
▁통증	-8179
▁143	-8180
▁ㅂㅕㄹㄷㅏ	-8181
▁너비	-8182
▁ㅇㅑㄱ	-8183
▁분기점	-8184
▁타이거즈	-8185
리안	-8186
▁광물	-8187
▁적당	-8188
▁연합회	-8189
▁카자흐스탄	-8190
타고	-8191
▁부당	-8192
▁공산주의자	-8193
▁AR	-8194
▁억압	-8195
▁터치	-8196
▁NC	-8197
▁성취	-8198
▁시바	-8199
▁수련	-8200
▁ㅎㅏㄹㅈㅣ	-8201
▁견제	-8202
▁경관	-8203
▁노바	-8204
▁아담	-8205
란히	-8206
바시	-8207
▁동점	-8208
▁사모	-8209
▁순교	-8210
▁신조	-8211
랜트	-8212
법인	-8213
▁다발	-8214
▁상점	-8215
▁베스	-8216
▁분비	-8217
▁왜냐	-8218
▁청춘	-8219
▁ㅍㅜㄹㄹㅕ	-8220
은이	-8221
▁산란	-8222
▁이화	-8223
▁주역	-8224
AL	-8225
▁CS	-8226
▁히메	-8227
▁리우	-8228
▁부르크	-8229
차기	-8230
▁힘입	-8231
글리	-8232
▁마야	-8233
▁이식	-8234
▁출처	-8235
▁피츠	-8236
▁한인	-8237
▁col	-8238
▁호랑이	-8239
▁상단	-8240
▁신주	-8241
▁열정	-8242
▁축적	-8243
▁컴파	-8244
▁야구장	-8245
산동	-8246
▁박람회	-8247
▁동아일보	-8248
▁비리	-8249
▁여당	-8250
▁염기	-8251
▁모이	-8252
▁벌금	-8253
▁비자	-8254
▁요하	-8255
▁팔라	-8256
▁ㄴㅔㄴ	-8257
▁팡	-8258
▁롤링	-8259
▁성사	-8260
ile	-8261
▁육체	-8262
▁토모	-8263
▁통영	-8264
▁현저	-8265
▁남동부	-8266
▁CC	-8267
▁관구	-8268
▁유한	-8269
▁자민	-8270
▁블라디미르	-8271
▁목재	-8272
▁펑크	-8273
▁플라이	-8274
▁존속	-8275
러스트	-8276
▁맵	-8277
▁처녀	-8278
▁알코올	-8279
▁근교	-8280
▁응원	-8281
▁ㅎㅡㅌ	-8282
▁래퍼	-8283
브리지	-8284
▁유로파	-8285
▁음료	-8286
▁ㅌㅓㄴ	-8287
▁태양계	-8288
▁ㄸㅐ	-8289
▁룬	-8290
▁설탕	-8291
▁암시	-8292
▁블로그	-8293
▁차이점	-8294
▁ㅁㅗㅅㅎㅏㄹ	-8295
▁적분	-8296
ies	-8297
▁Op	-8298
▁부설	-8299
▁경상도	-8300
▁상용	-8301
▁제프	-8302
▁소나타	-8303
▁친일파	-8304
▁왓	-8305
▁기적	-8306
▁상반	-8307
▁김경	-8308
▁살리	-8309
▁운하	-8310
▁티스	-8311
▁법조	-8312
▁광학	-8313
▁시골	-8314
▁다이아몬드	-8315
▁휠	-8316
▁주주	-8317
▁충전	-8318
▁조선일보	-8319
xt	-8320
면체	-8321
▁나트	-8322
▁CON	-8323
비나	-8324
살이	-8325
▁생산량	-8326
▁보석	-8327
▁사육	-8328
▁이윤	-8329
라클	-8330
▁오해	-8331
▁폭행	-8332
ㄱㅓㄴ	-8333
▁가죽	-8334
▁이에야스	-8335
▁해명	-8336
▁라오스	-8337
▁킥	-8338
▁신념	-8339
▁황실	-8340
▁경찰청	-8341
▁중의원	-8342
기업	-8343
▁국소	-8344
▁이타	-8345
▁카롤	-8346
▁그동안	-8347
▁유죄	-8348
▁히사	-8349
▁RNA	-8350
▁만남	-8351
▁말라	-8352
▁ㅅㅗㄱㅎㅐㅆ	-8353
▁어원	-8354
▁107	-8355
▁112	-8356
▁베어스	-8357
▁브라더스	-8358
▁키프로스	-8359
▁단단	-8360
달리	-8361
도리	-8362
▁공관	-8363
▁공익	-8364
▁규범	-8365
▁누이	-8366
▁빨간	-8367
▁ㅅㅣㄹ	-8368
▁ㄸㅣㄴㄷㅏ	-8369
▁가군	-8370
▁사업자	-8371
▁아랍어	-8372
▁삼층석탑	-8373
▁is	-8374
▁구축함	-8375
▁루이지	-8376
▁장거리	-8377
▁ㄷㅏㄹㅎㅐㅆ	-8378
▁동국	-8379
▁미르	-8380
▁우유	-8381
▁후사	-8382
▁옆면	-8383
▁창원시	-8384
▁시베리아	-8385
▁레일	-8386
▁뛰어나	-8387
▁우승자	-8388
▁흠	-8389
▁공습	-8390
▁이산화	-8391
▁ㅇㅝㄴㅎㅐㅆ	-8392
▁성단	-8393
▁아예	-8394
▁트윈스	-8395
▁부제	-8396
▁상사	-8397
▁시어	-8398
▁언니	-8399
▁126	-8400
도바	-8401
ite	-8402
▁당주	-8403
▁무지	-8404
▁비유	-8405
▁신민	-8406
▁이순신	-8407
▁사우루스	-8408
랑카	-8409
▁탐사선	-8410
▁트위터	-8411
▁Te	-8412
▁증대	-8413
▁117	-8414
▁ㅊㅕㅆ	-8415
▁대웅전	-8416
ㄹㅜㄹ	-8417
▁줄무늬	-8418
ft	-8419
▁거북	-8420
▁ㅆㅗ	-8421
▁맥락	-8422
▁맥주	-8423
▁소셜	-8424
▁ㅂㅜㅌㅇㅕㅆ	-8425
고래	-8426
지붕	-8427
▁수법	-8428
▁플러스	-8429
▁품종	-8430
▁조종사	-8431
▁도마뱀붙이	-8432
▁잊	-8433
▁신선	-8434
ㄷㅣ	-8435
▁누나	-8436
▁송시열	-8437
▁동문	-8438
▁연쇄	-8439
스부르크	-8440
▁ㄷㅏㄹㅇㅏ	-8441
권자	-8442
레기	-8443
▁카를로스	-8444
▁범인	-8445
▁포럼	-8446
▁헤비	-8447
갈색	-8448
▁조세	-8449
▁핸드	-8450
▁평의회	-8451
▁깔	-8452
▁드로	-8453
▁여파	-8454
▁천장	-8455
▁확신	-8456
▁SE	-8457
▁교정	-8458
▁퐁	-8459
▁네스	-8460
▁발해	-8461
아다니	-8462
▁할머니	-8463
▁이경	-8464
▁지평	-8465
▁왜냐하면	-8466
▁구출	-8467
▁교과서	-8468
수리	-8469
▁나르	-8470
▁왜곡	-8471
▁입원	-8472
▁제재	-8473
▁내려오	-8474
▁아카데미상	-8475
▁인체	-8476
▁고속도	-8477
▁굉장히	-8478
▁희생자	-8479
▁몰리	-8480
▁빈곤	-8481
▁그만두	-8482
▁살아가	-8483
▁대폭	-8484
▁인문	-8485
▁허위	-8486
▁협박	-8487
▁경보	-8488
▁근원	-8489
▁실체	-8490
▁진급	-8491
▁화장실	-8492
조부	-8493
▁com	-8494
▁주이	-8495
▁121	-8496
▁법무부	-8497
▁빨간색	-8498
▁양키스	-8499
ath	-8500
▁곡인	-8501
▁깨닫	-8502
▁날씨	-8503
▁키우	-8504
▁137	-8505
▁350	-8506
▁삼성전자	-8507
▁ㄷㅏㅁㄱㅣㄴ	-8508
의장	-8509
▁펠리	-8510
▁가마쿠라	-8511
▁갈라	-8512
▁세라	-8513
▁신약	-8514
ound	-8515
▁ㄷㅏㅁㄱㅕ	-8516
▁킴	-8517
▁이브	-8518
▁통틀	-8519
▁173	-8520
▁전자기	-8521
▁필리프	-8522
OL	-8523
▁몰래	-8524
▁비르	-8525
▁소원	-8526
▁탐색	-8527
▁물리치	-8528
▁제니	-8529
▁제대	-8530
▁CF	-8531
▁일반인	-8532
▁필터	-8533
▁후궁	-8534
▁데모	-8535
ond	-8536
▁샘플	-8537
게이머	-8538
▁프로게이머	-8539
다지	-8540
무스	-8541
▁왕복	-8542
▁연합국	-8543
▁1894	-8544
시타	-8545
▁방화	-8546
▁바오로	-8547
▁클라우드	-8548
ㄴㅝ	-8549
마루	-8550
연합	-8551
▁가축	-8552
▁워터	-8553
▁라이너	-8554
ory	-8555
▁헥	-8556
끼리	-8557
▁문예	-8558
▁우호	-8559
▁113	-8560
▁개교	-8561
▁마디	-8562
▁포병	-8563
베니아	-8564
로니	-8565
▁무어	-8566
▁믹스	-8567
▁일방	-8568
▁해고	-8569
▁물려받	-8570
▁가장자리	-8571
▁ㅂㅣㄹㄹㅕ	-8572
수소	-8573
승부	-8574
▁지미	-8575
▁태권	-8576
▁테이프	-8577
▁크리스토퍼	-8578
▁땃	-8579
▁레온	-8580
▁대의원	-8581
▁수용체	-8582
▁거울	-8583
ov	-8584
▁아야	-8585
▁핵무기	-8586
▁진공	-8587
▁근로자	-8588
▁슬로베니아	-8589
▁냄	-8590
대기	-8591
▁드레	-8592
▁다크	-8593
▁미션	-8594
▁성별	-8595
▁수색	-8596
▁브로드	-8597
▁총독부	-8598
▁맘	-8599
▁끄	-8600
▁둥지	-8601
▁양측	-8602
▁투옥	-8603
번스	-8604
man	-8605
▁문구	-8606
▁보증	-8607
▁계정	-8608
▁궁극	-8609
▁뒷면	-8610
▁코스타	-8611
단체	-8612
▁공민	-8613
▁승계	-8614
▁알제리	-8615
▁결함	-8616
▁요동	-8617
그레이드	-8618
▁ㅂㅏㄴㅎㅐ	-8619
▁바우	-8620
▁일가	-8621
로이	-8622
▁ㅉㅏ	-8623
▁농림	-8624
▁유년	-8625
▁적도	-8626
▁철회	-8627
▁캐시	-8628
▁헐	-8629
▁ㅎㅡㅌㅇㅓ	-8630
▁업그레이드	-8631
아키	-8632
▁로이	-8633
▁용병	-8634
▁자아	-8635
▁바티칸	-8636
▁ㅎㅣㅁㄷㅡㄴ	-8637
▁z	-8638
▁쏟	-8639
규모	-8640
나스	-8641
톨레	-8642
▁강서	-8643
▁대피	-8644
▁하동	-8645
iver	-8646
▁124	-8647
▁ㄸㅏㅆ	-8648
▁게스트	-8649
▁주어지	-8650
▁".	-8651
▁On	-8652
▁공천	-8653
▁서민	-8654
▁치안	-8655
▁몬스터	-8656
▁시뮬	-8657
▁제인	-8658
▁나아가	-8659
아프리카	-8660
▁극심	-8661
▁만일	-8662
퍼런스	-8663
▁LC	-8664
▁관음	-8665
▁군정	-8666
▁게이지	-8667
▁be	-8668
▁화해	-8669
▁도미니	-8670
▁독일인	-8671
▁탤런트	-8672
▁신시	-8673
▁최강	-8674
▁칭찬	-8675
▁판본	-8676
▁자연수	-8677
▁횡단	-8678
▁즉각	-8679
셰비	-8680
▁IM	-8681
▁먼지	-8682
▁상표	-8683
▁서진	-8684
박스	-8685
▁성도	-8686
▁세속	-8687
대원군	-8688
▁륙	-8689
▁공방	-8690
▁김현	-8691
ㄲㅕㅆ	-8692
▁World	-8693
블리	-8694
▁공백	-8695
▁서초	-8696
▁국내외	-8697
▁모친	-8698
▁초록	-8699
▁카카	-8700
▁멜로디	-8701
mer	-8702
▁미루	-8703
▁남서부	-8704
ㅅㅕ	-8705
▁체크	-8706
린스	-8707
▁혈관	-8708
▁고고학	-8709
▁야마토	-8710
▁ㅂㅜㅌㅇㅣㄴ	-8711
겨나	-8712
▁가루	-8713
▁개종	-8714
▁피오	-8715
▁김정일	-8716
▁베네딕	-8717
▁성문	-8718
▁최대한	-8719
▁CR	-8720
▁SU	-8721
▁디렉	-8722
▁학계	-8723
▁구절	-8724
▁그냥	-8725
▁스캔	-8726
▁영산	-8727
▁커뮤니케이션	-8728
▁양호	-8729
▁타당	-8730
▁풍자	-8731
크라	-8732
ich	-8733
▁감자	-8734
▁내정	-8735
▁ㄷㅓㄴㅈㅕ	-8736
▁곁	-8737
▁야쿠	-8738
▁New	-8739
▁브리지	-8740
▁윤치호	-8741
▁1890	-8742
줄기	-8743
▁러시	-8744
▁우파	-8745
▁일생	-8746
▁ㄱㅜㄴ	-8747
▁프랑크푸르트	-8748
드르	-8749
▁데르	-8750
▁오리콘	-8751
축구	-8752
▁땃쥐	-8753
▁항쟁	-8754
▁결코	-8755
▁곤란	-8756
▁아랫	-8757
▁욕구	-8758
▁유저	-8759
▁조부	-8760
프레스	-8761
▁114	-8762
▁사쿠라	-8763
▁기업인	-8764
▁시위대	-8765
▁고장	-8766
▁김규	-8767
▁원전	-8768
▁선비	-8769
▁자오	-8770
▁검찰청	-8771
▁맑	-8772
▁돌격	-8773
▁베니	-8774
▁평정	-8775
▁라이온즈	-8776
▁ㄷㅜㄴㄷㅏ	-8777
▁대명	-8778
▁미노	-8779
▁에미	-8780
▁로우	-8781
▁이소	-8782
▁배후	-8783
▁정주	-8784
▁증손	-8785
▁초월	-8786
▁므	-8787
▁자선	-8788
▁ㄴㅗㄴ	-8789
▁구스타	-8790
▁자비	-8791
▁소규모	-8792
▁이준	-8793
타리오	-8794
▁안토니오	-8795
▁사로	-8796
▁자음	-8797
▁팔리	-8798
▁기질	-8799
▁일리노	-8800
▁드라이버	-8801
▁그대	-8802
▁흔하	-8803
IP	-8804
렉스	-8805
ial	-8806
▁EC	-8807
▁과반	-8808
▁118	-8809
▁오프닝	-8810
▁악단	-8811
▁침투	-8812
▁히어로즈	-8813
▁옵션	-8814
▁이드	-8815
▁제압	-8816
▁ㄱㅕㅂ	-8817
▁블랙홀	-8818
▁일리노이	-8819
▁냉전	-8820
▁미키	-8821
▁아름	-8822
▁자택	-8823
▁정세	-8824
▁학명	-8825
▁파이널	-8826
▁Sc	-8827
▁ㄹㅠ	-8828
▁도청	-8829
ign	-8830
▁만료	-8831
▁서자	-8832
▁스칼	-8833
▁파란색	-8834
▁프로덕	-8835
▁플래시	-8836
▁디비시온	-8837
▁관세	-8838
▁구와	-8839
▁이남	-8840
▁종착	-8841
▁ㅁㅣㄹ	-8842
hn	-8843
▁시정	-8844
▁하르	-8845
▁알루미	-8846
▁가드	-8847
▁그치	-8848
▁어미	-8849
▁지침	-8850
▁체스	-8851
▁체조	-8852
▁요정	-8853
▁극장판	-8854
▁미하일	-8855
▁사상자	-8856
▁1898	-8857
▁ㅅㅏㄹㅇㅏ	-8858
황후	-8859
▁예시	-8860
▁주부	-8861
▁진사	-8862
▁115	-8863
▁크리스티안	-8864
▁뉘	-8865
▁예조	-8866
ㄷㅎㅣㄴ	-8867
▁대거	-8868
▁태극	-8869
▁경신	-8870
▁대부	-8871
▁경찰관	-8872
▁퍼지	-8873
▁분명히	-8874
▁저널	-8875
▁지인	-8876
▁반지름	-8877
▁방사선	-8878
▁우즈베	-8879
저지	-8880
▁헬리	-8881
▁모로코	-8882
▁벵	-8883
닐라	-8884
▁연이	-8885
▁재상	-8886
▁커널	-8887
▁봉안	-8888
▁용이	-8889
▁인명	-8890
▁괴물	-8891
▁순조	-8892
▁연승	-8893
▁계열사	-8894
고스	-8895
▁남구	-8896
▁말씀	-8897
▁ㅁㅔㄴ	-8898
▁컷	-8899
▁로그	-8900
▁징계	-8901
▁레바논	-8902
▁트로이	-8903
▁봉건	-8904
▁챌린지	-8905
▁빔	-8906
▁솟	-8907
▁SD	-8908
▁매니저	-8909
▁통치자	-8910
지스	-8911
하루	-8912
▁우측	-8913
▁키르	-8914
▁세이브	-8915
▁외야수	-8916
▁웨스턴	-8917
▁승부차기	-8918
교도	-8919
기념	-8920
▁매매	-8921
▁패럴	-8922
▁희귀	-8923
▁물러나	-8924
조건	-8925
▁카우	-8926
▁헬기	-8927
벨트	-8928
▁GS	-8929
▁중형	-8930
▁축출	-8931
▁시가지	-8932
▁원로원	-8933
▁범유행	-8934
▁성리학	-8935
▁내주	-8936
보르	-8937
▁JT	-8938
▁센티	-8939
▁웹툰	-8940
▁케냐	-8941
▁넘어가	-8942
▁뉴저지	-8943
ㄴㅎㅏㄴㄷㅏ	-8944
▁변이	-8945
▁ㄷㅏㄹㅎㅏㄴㄷㅏ	-8946
▁GP	-8947
▁가옥	-8948
▁극작	-8949
▁필사	-8950
ㄲㅡㄴ	-8951
▁남미	-8952
▁본국	-8953
▁선도	-8954
▁비로소	-8955
타니	-8956
히코	-8957
▁동정	-8958
▁무성	-8959
▁취업	-8960
▁129	-8961
▁무승부	-8962
마이오스	-8963
▁렐	-8964
▁공조	-8965
▁정변	-8966
▁켈리	-8967
▁혜택	-8968
▁소모	-8969
▁전년	-8970
▁핑크	-8971
▁뉴턴	-8972
▁앵글	-8973
▁왕세	-8974
▁`	-8975
▁맏	-8976
▁광해군	-8977
rom	-8978
▁외모	-8979
▁통보	-8980
▁ㅅㅣㅁㅎㅐ	-8981
▁붐	-8982
개미	-8983
▁글루	-8984
▁기증	-8985
▁캔자스	-8986
▁믹	-8987
▁사위	-8988
▁코카	-8989
▁의약품	-8990
▁비주	-8991
▁캉	-8992
▁컨셉	-8993
▁젊은이	-8994
▁러셀	-8995
▁재혼	-8996
▁하프	-8997
▁체코슬로	-8998
▁체코슬로바키아	-8999
▁직면	-9000
▁쾌속	-9001
▁개막전	-9002
▁ㅇㅕㅆㅇㅡㅁ	-9003
▁쯔	-9004
미사	-9005
▁답변	-9006
▁미세	-9007
▁숙청	-9008
▁폭넓	-9009
▁한족	-9010
▁마운트	-9011
▁벨라루스	-9012
▁ㅇㅗㄴㄷㅏ	-9013
▁공감	-9014
▁밀집	-9015
▁그레고	-9016
▁기각	-9017
▁맥도	-9018
▁예하	-9019
▁중산	-9020
▁괘	-9021
문트	-9022
타리	-9023
▁군중	-9024
▁말미	-9025
▁승자	-9026
▁첨단	-9027
▁학업	-9028
▁호출	-9029
▁스타리그	-9030
▁바빌	-9031
▁황족	-9032
▁스크립	-9033
방송공사	-9034
바닥	-9035
▁Ne	-9036
▁밝기	-9037
▁ㄷㅏㄴ	-9038
▁럼	-9039
▁발급	-9040
▁회관	-9041
▁총사령	-9042
▁III	-9043
▁스트리	-9044
쟁이	-9045
▁빌라	-9046
▁리뷰	-9047
▁종속	-9048
▁퇴임	-9049
ㄹㄹㅣ	-9050
▁천문대	-9051
▁로비	-9052
▁부스	-9053
▁조지프	-9054
▁벽돌	-9055
ph	-9056
레타	-9057
펴보	-9058
▁살펴보	-9059
▁ㅎㅡㄴㅎㅏㄴ	-9060
ㅅㅏ	-9061
▁월요일	-9062
▁1899	-9063
그리	-9064
우트	-9065
천리	-9066
▁부피	-9067
▁척추	-9068
▁카디	-9069
▁연예인	-9070
▁알루미늄	-9071
▁ㅎㅣㅁㅆㅓ	-9072
▁뇌물	-9073
▁오오	-9074
TS	-9075
▁옳	-9076
▁남작	-9077
▁무명	-9078
▁유라	-9079
▁케빈	-9080
▁142	-9081
▁장례식	-9082
urn	-9083
▁폭포	-9084
▁레슬링	-9085
▁퉁	-9086
치기	-9087
▁난징	-9088
▁생체	-9089
▁응시	-9090
▁케임	-9091
▁대변인	-9092
화물	-9093
▁일컬	-9094
▁ㅈㅓㄱㅎㅕ	-9095
▁양반	-9096
▁어른	-9097
▁요건	-9098
▁임원	-9099
▁지우	-9100
▁토끼	-9101
ㅎㅇㅏ	-9102
▁부여받	-9103
▁청주시	-9104
테르부르크	-9105
먼스	-9106
진군	-9107
▁천재	-9108
▁웬	-9109
▁각도	-9110
▁옹립	-9111
▁재선	-9112
▁창출	-9113
▁총칭	-9114
▁토미	-9115
▁화력	-9116
롤라이나	-9117
▁관제	-9118
▁워너	-9119
▁브리튼	-9120
▁세이부	-9121
슬러	-9122
포로	-9123
▁룩셈	-9124
▁예고	-9125
▁중공	-9126
▁축물	-9127
느러미	-9128
▁더글러스	-9129
▁프로덕션	-9130
▁토양	-9131
▁룩셈부르크	-9132
▁콕	-9133
코딩	-9134
함수	-9135
▁모나	-9136
▁사본	-9137
▁설화	-9138
▁소생	-9139
▁마르티	-9140
▁타임스	-9141
ction	-9142
수록	-9143
▁무함	-9144
▁배수	-9145
▁워크	-9146
▁정려	-9147
▁커지	-9148
▁스즈키	-9149
▁유방	-9150
▁자크	-9151
▁전속	-9152
▁학기	-9153
▁대서양	-9154
▁온타리오	-9155
▁플라스틱	-9156
▁ㅇㅡㄴㄷㅔ	-9157
▁ㅈㅗㅎㅇㅏ	-9158
로우	-9159
시즘	-9160
▁발병	-9161
▁싸이	-9162
▁파산	-9163
틱스	-9164
▁구경	-9165
▁사간	-9166
▁CJ	-9167
▁오크	-9168
셰비키	-9169
▁광주광역시	-9170
브르	-9171
아먹	-9172
▁실망	-9173
▁부의장	-9174
▁프란츠	-9175
▁닦	-9176
럴드	-9177
▁미들	-9178
▁거래소	-9179
▁기술자	-9180
▁1902	-9181
버리	-9182
토르	-9183
▁ch	-9184
▁대치	-9185
▁리프	-9186
도스	-9187
▁종래	-9188
▁금요일	-9189
▁뒷받침	-9190
▁저주	-9191
ens	-9192
▁시범	-9193
▁혼동	-9194
MA	-9195
▁ID	-9196
▁광둥	-9197
▁안테	-9198
▁화상	-9199
▁ㅅㅕㅆ	-9200
▁연산자	-9201
▁대패	-9202
▁신원	-9203
▁유진	-9204
▁Man	-9205
pp	-9206
타주	-9207
▁성폭	-9208
▁왼손	-9209
▁지옥	-9210
▁ㅅㅔㄹ	-9211
▁만성	-9212
▁명종	-9213
▁확실히	-9214
▁덧	-9215
ㅃㅏ	-9216
▁공적	-9217
▁도카이	-9218
덩이	-9219
▁감행	-9220
▁독서	-9221
▁서신	-9222
▁중복	-9223
파이어	-9224
▁대성당	-9225
▁키보드	-9226
▁힌두교	-9227
▁가야	-9228
▁니코	-9229
▁연꽃	-9230
▁ㅇㅕㄴ	-9231
▁플랫폼	-9232
lan	-9233
▁보위	-9234
▁피겨	-9235
▁동네	-9236
▁ㄴㅡㄹ	-9237
▁기사단	-9238
▁병기	-9239
▁코시	-9240
▁ㅍㅣㄹ	-9241
▁ㄱㅏㅇㅎㅐ	-9242
두리	-9243
▁프톨레	-9244
▁프톨레마이오스	-9245
▁''	-9246
▁대손	-9247
▁우체	-9248
▁채소	-9249
▁컴백	-9250
▁그래미	-9251
▁ㅇㅣㅀㅇㅓ	-9252
▁지출	-9253
▁화자	-9254
ㅓㄹ	-9255
▁발기	-9256
▁수분	-9257
▁스턴	-9258
▁시코	-9259
▁운수	-9260
▁ㄱㅓㄹㄹㅕㅆ	-9261
▁위쪽	-9262
▁의자	-9263
▁체류	-9264
▁감마	-9265
▁드림	-9266
▁탄도	-9267
▁비석	-9268
▁촉매	-9269
▁바깥쪽	-9270
샤바	-9271
▁그릇	-9272
▁원종	-9273
▁피신	-9274
▁아리아	-9275
lic	-9276
▁늘리	-9277
▁발리	-9278
▁설교	-9279
▁시가	-9280
▁원천	-9281
▁형조	-9282
▁교통국	-9283
▁게리	-9284
▁마녀	-9285
▁개소	-9286
▁아돌프	-9287
▁국영	-9288
▁비행장	-9289
▁지식인	-9290
▁고양시	-9291
폴리	-9292
▁BS	-9293
▁ㅇㅚ	-9294
▁강변	-9295
▁대합	-9296
▁마력	-9297
▁희곡	-9298
▁ㅉㅗㅊㄱㅕ	-9299
▁소나무	-9300
▁밍	-9301
글라	-9302
크로	-9303
▁간선	-9304
▁기차	-9305
▁버드	-9306
▁영등	-9307
▁표적	-9308
ㅌㅔ	-9309
국사	-9310
▁기니	-9311
▁물품	-9312
▁생생	-9313
▁포획	-9314
▁하단	-9315
TC	-9316
▁깃발	-9317
▁외관	-9318
▁토착종	-9319
▁익스프레스	-9320
▁정성	-9321
▁머무르	-9322
▁가환	-9323
▁선배	-9324
▁유체	-9325
ㄷㅝㅆ	-9326
▁페르디난	-9327
▁김지	-9328
▁동학	-9329
▁벨트	-9330
▁스폰	-9331
▁참의	-9332
▁마스크	-9333
TA	-9334
▁영문	-9335
▁해밀턴	-9336
▁단축	-9337
▁사슴	-9338
ary	-9339
▁강동	-9340
▁코끼리	-9341
▁포켓몬스터	-9342
▁아산	-9343
▁정적	-9344
▁주조	-9345
▁경성부	-9346
▁보이스	-9347
▁코믹스	-9348
▁서류	-9349
▁세비	-9350
▁스위치	-9351
▁단절	-9352
▁울프	-9353
▁부회장	-9354
▁사이토	-9355
▁이용자	-9356
▁호르몬	-9357
▁러시아어	-9358
▁등기	-9359
▁직결	-9360
▁갈수록	-9361
▁나노	-9362
▁화강	-9363
구르	-9364
▁광명	-9365
▁브뤼	-9366
▁압둘	-9367
▁페널	-9368
▁아이오	-9369
▁동행	-9370
▁드러머	-9371
▁매카트니	-9372
▁단의	-9373
▁복용	-9374
▁선행	-9375
▁함정	-9376
▁끊임없이	-9377
▁의의	-9378
▁축조	-9379
▁1901	-9380
▁몫	-9381
테인	-9382
▁소시	-9383
▁열도	-9384
ach	-9385
▁생략	-9386
▁어류	-9387
▁제국주의	-9388
▁ㅆㅏㅎㅇㅏㅆ	-9389
out	-9390
▁광대	-9391
▁수확	-9392
그룹	-9393
▁약자	-9394
▁입성	-9395
▁청산	-9396
▁다항식	-9397
▁울산광역시	-9398
▁No	-9399
▁고아	-9400
▁혐오	-9401
ㄱㅡ	-9402
미트	-9403
▁쓰촨	-9404
▁제네바	-9405
▁폭격기	-9406
짓점	-9407
ert	-9408
▁임관	-9409
▁입국	-9410
▁공리	-9411
▁본문	-9412
▁꼭짓점	-9413
카가	-9414
▁보트	-9415
▁색채	-9416
▁염증	-9417
▁체르	-9418
▁헌신	-9419
▁현은	-9420
▁부작용	-9421
▁간토	-9422
▁권총	-9423
▁코코	-9424
▁하치	-9425
▁연기자	-9426
▁알렉산드르	-9427
디나	-9428
피어	-9429
▁무궁	-9430
▁일산	-9431
▁렘	-9432
▁습지	-9433
▁여운	-9434
▁정문	-9435
▁채우	-9436
▁바이킹	-9437
▁삿포로	-9438
▁ㄷㅏㅇㅎㅏㄴㄷㅏ	-9439
▁부가	-9440
▁자작	-9441
▁퀘벡	-9442
▁기숙	-9443
▁수축	-9444
▁초신	-9445
▁치아	-9446
모스	-9447
자르	-9448
▁ㅅㅑ	-9449
▁카미	-9450
ㄷㅐ	-9451
링턴	-9452
▁갱신	-9453
▁매수	-9454
LE	-9455
▁MB	-9456
▁김창	-9457
▁실버	-9458
▁이단	-9459
▁체중	-9460
▁사회당	-9461
루아	-9462
▁서문	-9463
▁역량	-9464
LS	-9465
▁꾀	-9466
타임	-9467
▁성지	-9468
▁조립	-9469
▁영국인	-9470
IG	-9471
▁고산	-9472
▁드라	-9473
▁이현	-9474
▁커스	-9475
▁서유럽	-9476
ys	-9477
나우	-9478
▁보복	-9479
▁정동	-9480
▁낫	-9481
▁례	-9482
파르	-9483
▁간단히	-9484
▁광저우	-9485
▁점성술	-9486
▁대구광역시	-9487
▁케임브리지	-9488
▁쿄	-9489
▁ㅈㅛ	-9490
▁검열	-9491
▁경과	-9492
▁염색체	-9493
ug	-9494
▁표방	-9495
노미야	-9496
▁134	-9497
▁푸에르	-9498
▁}	-9499
▁갈릴	-9500
▁면제	-9501
▁조이	-9502
▁크롬	-9503
▁페니	-9504
▁호모	-9505
베트남	-9506
▁가역	-9507
▁두께	-9508
▁민감	-9509
▁스님	-9510
▁토기	-9511
▁요르단	-9512
▁동이	-9513
▁김제	-9514
▁조수	-9515
▁차르	-9516
▁캐서	-9517
▁누적	-9518
▁분수	-9519
▁특권	-9520
어내	-9521
▁동조	-9522
▁미륵	-9523
▁상금	-9524
▁입각	-9525
▁정립	-9526
▁아라비아	-9527
▁독성	-9528
▁엔딩	-9529
▁원료	-9530
▁파이터	-9531
▁무함마드	-9532
ase	-9533
▁KIA	-9534
▁THE	-9535
▁장기간	-9536
▁아시카가	-9537
▁남매	-9538
▁보헤	-9539
▁오쿠	-9540
ㅋㅣㅁ	-9541
▁공명	-9542
▁그다지	-9543
▁모서리	-9544
▁1903	-9545
ㅊㅕㅆㅇㅡ	-9546
▁레즈	-9547
레슬링	-9548
▁사업가	-9549
기스	-9550
속기	-9551
정리	-9552
▁전방	-9553
▁카프	-9554
▁크레이	-9555
대장	-9556
▁다마	-9557
▁둥글	-9558
▁1884	-9559
▁옥스퍼드	-9560
▁ㅎㅏㄴㅌㅔ	-9561
▁기르	-9562
▁명하	-9563
▁섹스	-9564
▁아브	-9565
▁직경	-9566
▁One	-9567
▁신도비	-9568
▁언어학	-9569
▁트리플	-9570
▁홈구장	-9571
▁마우	-9572
▁불꽃	-9573
▁천하	-9574
▁All	-9575
▁ㅅㅡㄴ	-9576
▁연봉	-9577
▁원본	-9578
▁이병	-9579
▁쥐과	-9580
▁개인전	-9581
▁쟈	-9582
그라	-9583
퀘어	-9584
▁Gr	-9585
▁학대	-9586
▁관광지	-9587
▁만주국	-9588
▁이성계	-9589
▁표기법	-9590
▁아인슈타인	-9591
▁노보	-9592
▁제치	-9593
▁미시시피	-9594
리코	-9595
펜하	-9596
▁공예	-9597
▁라그	-9598
▁박지	-9599
▁중령	-9600
▁태그	-9601
▁하리	-9602
테르담	-9603
카미	-9604
▁강간	-9605
▁개화	-9606
▁불신	-9607
▁갈리아	-9608
ke	-9609
▁EX	-9610
▁토요	-9611
처스	-9612
▁극대	-9613
▁대두	-9614
▁에콰	-9615
▁퇴역	-9616
▁쓰레기	-9617
▁트로피	-9618
▁아리스토	-9619
▁에콰도르	-9620
▁프로레슬링	-9621
카타	-9622
▁공고	-9623
▁삼촌	-9624
▁AN	-9625
▁산출	-9626
▁ㄱㅏㅆㅇㅡ	-9627
텍처	-9628
▁루타	-9629
▁좌측	-9630
▁아키텍처	-9631
▁야마구치	-9632
▁릿	-9633
▁교대	-9634
▁어둠	-9635
▁이관	-9636
▁ㅂㅕㄴ	-9637
▁도널드	-9638
▁질소	-9639
▁알렉산드리아	-9640
▁구형	-9641
▁비타	-9642
▁선동	-9643
▁퇴적	-9644
▁쓰시마	-9645
사리	-9646
아웃	-9647
▁소말	-9648
▁하비	-9649
▁전염병	-9650
▁도요토미	-9651
▁슈팅	-9652
▁스텔	-9653
▁정선	-9654
▁히타	-9655
▁ㅅㅓㅁ	-9656
▁니콜라이	-9657
▁발렌시아	-9658
▁군산	-9659
▁로저	-9660
▁메커	-9661
▁꼭대기	-9662
▁ㅅㅏㄹㅍ	-9663
히토	-9664
▁제로	-9665
▁패널	-9666
▁복합체	-9667
▁패밀리	-9668
▁Cl	-9669
▁검출	-9670
▁어뢰	-9671
▁아폴로	-9672
▁클라이	-9673
▁헌정	-9674
▁조반니	-9675
▁프란체	-9676
▁1800	-9677
ㄴㅡ	-9678
▁비뉴	-9679
▁구스	-9680
▁대문	-9681
▁충청도	-9682
▁콤팩트	-9683
▁마키	-9684
방울	-9685
▁달걀	-9686
▁마르틴	-9687
라이언트	-9688
▁LA	-9689
▁타케	-9690
▁해남	-9691
▁뮤지션	-9692
▁삼국지	-9693
▁소방서	-9694
그레	-9695
ree	-9696
▁군함	-9697
▁우치	-9698
▁클라이언트	-9699
▁흥선	-9700
▁드레스	-9701
▁방글라	-9702
▁지도부	-9703
▁히로시	-9704
▁방글라데시	-9705
▁실재	-9706
▁장벽	-9707
▁프레드	-9708
▁뒤쪽	-9709
▁정유	-9710
▁철폐	-9711
▁마르코	-9712
▁유부	-9713
▁회상	-9714
▁소행성	-9715
▁피고인	-9716
▁반공	-9717
테이션	-9718
올로	-9719
▁공황	-9720
▁선우	-9721
▁실무	-9722
▁전위	-9723
▁함선	-9724
나미	-9725
ㅇㅏㅅ	-9726
가와현	-9727
▁기념관	-9728
▁ㅂㅓㄹㅇㅣㄴ	-9729
▁당수	-9730
▁토시	-9731
라이어	-9732
▁슬라브	-9733
▁가오	-9734
▁인질	-9735
사이드	-9736
▁당연히	-9737
▁방사성	-9738
간지	-9739
▁경작	-9740
▁김홍	-9741
▁농부	-9742
▁단면	-9743
▁염소	-9744
▁원더	-9745
▁이태	-9746
▁기념비	-9747
▁복소수	-9748
▁일렉트로	-9749
▁팟	-9750
가르	-9751
불교	-9752
▁곡물	-9753
▁도선	-9754
▁에밀	-9755
▁자형	-9756
▁ㄲㅡㄹㄹㅕ	-9757
▁경인	-9758
▁로라	-9759
▁코믹	-9760
▁활주	-9761
▁북아프리카	-9762
▁팰	-9763
네마	-9764
▁IN	-9765
▁우회	-9766
▁조형	-9767
▁분량	-9768
▁분출	-9769
▁전복	-9770
▁ㄱㅏㅁ	-9771
▁남동생	-9772
▁기슭	-9773
▁발칸	-9774
▁하차	-9775
▁뉴욕주	-9776
▁소수자	-9777
▁스토어	-9778
▁카를로	-9779
▁with	-9780
산맥	-9781
▁기분	-9782
▁상가	-9783
▁카사	-9784
▁ㄴㅓㄼ	-9785
니시	-9786
▁강대	-9787
▁전구	-9788
▁기관총	-9789
▁오사카부	-9790
하키	-9791
▁권장	-9792
▁상경	-9793
▁세바	-9794
▁터보	-9795
▁페널티	-9796
▁발령	-9797
▁우물	-9798
▁현감	-9799
번뇌	-9800
▁궁중	-9801
▁가브리	-9802
▁리더십	-9803
개골	-9804
ass	-9805
▁러스	-9806
▁모모	-9807
▁물가	-9808
▁밀란	-9809
▁상트	-9810
▁창녕	-9811
▁더욱이	-9812
▁그레이트	-9813
▁아미노산	-9814
구역	-9815
act	-9816
▁가산	-9817
▁견인	-9818
▁상응	-9819
▁수목	-9820
▁파병	-9821
▁ㅍㅣㄴ	-9822
▁ㅇㅡㄹㅈㅣ	-9823
11	-9824
▁막스	-9825
▁준주	-9826
▁후작	-9827
▁116	-9828
▁중앙아시아	-9829
▁교량	-9830
▁세키	-9831
▁취항	-9832
▁메커니즘	-9833
▁Ad	-9834
▁건륭	-9835
▁모리스	-9836
▁무너지	-9837
▁전시회	-9838
▁관절	-9839
▁브란	-9840
▁소자	-9841
▁의결	-9842
▁교도소	-9843
▁ㅈㅏㄹㄹㅏ	-9844
사우	-9845
▁강희	-9846
▁220	-9847
▁거주지	-9848
▁민간인	-9849
▁ㅈㅡㄹㄱㅕ	-9850
▁한국방송공사	-9851
곡동	-9852
▁까닭	-9853
▁추첨	-9854
▁포스터	-9855
▁Br	-9856
▁등용	-9857
▁와일드	-9858
▁캐서린	-9859
pt	-9860
▁보성	-9861
▁신축	-9862
▁안경	-9863
▁용서	-9864
▁이북	-9865
▁회피	-9866
▁총대주교	-9867
▁감안	-9868
▁냄새	-9869
▁효고	-9870
▁다케다	-9871
▁에디션	-9872
▁볼리비아	-9873
▁각색	-9874
▁뒤집	-9875
▁미라	-9876
▁정화	-9877
▁1897	-9878
▁가계	-9879
▁마카오	-9880
▁카스티	-9881
▁진전	-9882
▁평창	-9883
▁1860	-9884
쿠버	-9885
▁낙동	-9886
▁델타	-9887
▁돌기	-9888
▁샌드	-9889
▁스트라이크	-9890
▁ㅇㅕㄹㄹㅣㄴㄷㅏ	-9891
▁홉	-9892
역학	-9893
▁CN	-9894
▁기저	-9895
▁맞붙	-9896
▁시야	-9897
▁절단	-9898
ream	-9899
▁데스크	-9900
▁방송인	-9901
▁일부분	-9902
▁컨트리	-9903
사업	-9904
▁반군	-9905
▁태백	-9906
▁대출	-9907
▁델라	-9908
▁요약	-9909
▁티코	-9910
▁페이스북	-9911
▁ㅇㅑㄱㅎㅐ	-9912
▁가열	-9913
▁르노	-9914
▁취미	-9915
▁교육청	-9916
▁깨끗	-9917
▁리조	-9918
▁마블	-9919
▁올드	-9920
벤처	-9921
▁GO	-9922
▁갈래	-9923
▁상법	-9924
▁오로	-9925
▁장자	-9926
▁침체	-9927
▁폭로	-9928
▁휴가	-9929
기념물	-9930
▁아나키	-9931
▁어드벤처	-9932
▁사살	-9933
▁일파	-9934
▁배우자	-9935
▁알프레	-9936
▁꿀	-9937
▁강남구	-9938
▁버클리	-9939
▁일자리	-9940
▁데카	-9941
▁수료	-9942
▁확진	-9943
▁거짓말	-9944
▁이주하	-9945
▁가의	-9946
▁마니	-9947
▁반전	-9948
▁안산	-9949
▁음향	-9950
▁타우	-9951
ㅍㅡㄴ	-9952
▁농사	-9953
▁상고	-9954
▁전산	-9955
▁노태우	-9956
▁스크립트	-9957
▁Is	-9958
▁마가	-9959
▁접수	-9960
▁한층	-9961
▁카타르	-9962
▁ㅂㅏㄺㅎㅣㄴ	-9963
▁ㅊㅜ	-9964
▁청색	-9965
파리	-9966
▁나루	-9967
▁네오	-9968
▁석불	-9969
▁장제	-9970
스카르	-9971
캐롤라이나	-9972
▁Ex	-9973
▁리히	-9974
▁샌디	-9975
▁카즈	-9976
▁쿠니	-9977
▁효종	-9978
▁경제학자	-9979
▁;&	-9980
▁공손	-9981
▁무슨	-9982
▁민정	-9983
▁사카이	-9984
▁연대기	-9985
▁대관	-9986
▁쥐속	-9987
ㄲㅣㄴ	-9988
▁중공업	-9989
▁바르샤바	-9990
▁앰	-9991
▁구약	-9992
▁북경	-9993
▁아소	-9994
부리	-9995
피언	-9996
▁간신	-9997
▁심화	-9998
▁저렴	-9999
▁모티브	-10000
▁유닉스	-10001
ㄴㅔ	-10002
도비	-10003
푸르	-10004
▁2022	-10005
나드	-10006
퍼슨	-10007
▁마애	-10008
▁서리	-10009
▁122	-10010
ㄷㅡㄹㅇㅣㄴ	-10011
산성	-10012
츠크	-10013
▁넘기	-10014
▁이반	-10015
반구	-10016
▁체력	-10017
ㅇㅑㄴ	-10018
▁미네소	-10019
▁ㅈㅏㅂㅎㅕ	-10020
▁막시	-10021
▁입주	-10022
▁추론	-10023
▁스퀘어	-10024
▁안드레아	-10025
▁깎	-10026
▁떡	-10027
▁가신	-10028
▁버마	-10029
▁소행	-10030
▁ㅈㅏㅁ	-10031
▁클라크	-10032
포터	-10033
▁고토	-10034
▁다가	-10035
▁동형	-10036
▁종파	-10037
▁화순	-10038
▁게릴라	-10039
▁석회	-10040
▁중원	-10041
▁홍문관	-10042
▁후반기	-10043
▁모용	-10044
▁윤보	-10045
▁솔루션	-10046
▁아마존	-10047
▁죠	-10048
푸아	-10049
▁글래	-10050
▁브룩	-10051
▁이빨	-10052
▁짐작	-10053
▁흥선대원군	-10054
ii	-10055
▁군청	-10056
▁집결	-10057
▁인테르	-10058
콥터	-10059
▁적군	-10060
▁전격	-10061
▁NGC	-10062
▁상트페	-10063
▁설립자	-10064
▁1880	-10065
▁상트페테르부르크	-10066
▁느리	-10067
▁수중	-10068
▁애리	-10069
▁con	-10070
▁몰아내	-10071
▁아름답	-10072
▁급수	-10073
▁리만	-10074
▁종점	-10075
▁ㅁㅜㄹㄹㅣ	-10076
▁BM	-10077
▁ㅋㅐ	-10078
▁갑옷	-10079
▁메라	-10080
▁사적	-10081
▁마라톤	-10082
거진	-10083
▁타협	-10084
▁ㄹㅠㄴ	-10085
▁가져오	-10086
▁신동	-10087
▁안치	-10088
▁예명	-10089
▁용암	-10090
▁합당	-10091
▁호쿠	-10092
▁유대교	-10093
▁세네	-10094
▁콘테	-10095
▁공용어	-10096
▁두개골	-10097
▁제작사	-10098
▁마당	-10099
▁메릴	-10100
▁보강	-10101
▁득표율	-10102
▁옥수수	-10103
▁그리스인	-10104
▁셜	-10105
▁제리	-10106
▁함양	-10107
▁진행자	-10108
▁천연기념물	-10109
▁노이	-10110
▁루크	-10111
▁벽화	-10112
▁빈도	-10113
▁어로	-10114
▁유정	-10115
▁창의	-10116
▁갤러리	-10117
네시	-10118
다르	-10119
▁무술	-10120
▁장원	-10121
▁정경	-10122
▁133	-10123
▁ㅎㅏㄴㅈㅣ	-10124
iss	-10125
▁이장	-10126
▁함부르크	-10127
▁ㄷㅓㅍㅇㅕ	-10128
▁과실	-10129
▁실적	-10130
▁약하	-10131
▁입양	-10132
니지	-10133
▁가네	-10134
▁강철	-10135
▁돌입	-10136
▁청소	-10137
▁타지	-10138
▁프렌	-10139
몰로지	-10140
▁새로이	-10141
리즘	-10142
ake	-10143
▁신정	-10144
▁일괄	-10145
자치시	-10146
▁나란히	-10147
▁지지율	-10148
▁특별자치시	-10149
▁기성	-10150
▁소령	-10151
▁이언	-10152
▁극작가	-10153
▁키예프	-10154
타케	-10155
▁무로	-10156
▁번성	-10157
▁디트로	-10158
▁디트로이트	-10159
own	-10160
▁스노	-10161
▁블리	-10162
▁왕정	-10163
▁특색	-10164
▁호응	-10165
▁ㄲㅡㄶ	-10166
▁법정동	-10167
▁파라과이	-10168
기구	-10169
▁쑤	-10170
케이	-10171
▁연못	-10172
▁무궁화	-10173
▁이동하	-10174
사관학교	-10175
▁일러스트	-10176
▁랍	-10177
▁수녀	-10178
▁심야	-10179
▁연동	-10180
▁이규	-10181
▁팔레	-10182
ㄷㅎㅕ	-10183
▁CBS	-10184
▁ㅇㅗㄹㅂㅏ	-10185
▁그레고리오	-10186
▁자결	-10187
▁진료	-10188
▁찰리	-10189
▁확고	-10190
▁랴	-10191
▁가가	-10192
▁격차	-10193
▁장흥	-10194
▁조계	-10195
▁종말	-10196
▁펜싱	-10197
▁헬륨	-10198
▁Mus	-10199
▁준결승전	-10200
올리	-10201
▁농어	-10202
▁몽고	-10203
▁유령	-10204
▁교육부	-10205
▁그림자	-10206
▁ㅅㅐㅇㄱㅣㄴㄷㅏ	-10207
▁고추	-10208
▁복권	-10209
▁위나라	-10210
▁그레고리	-10211
▁등극	-10212
▁자생	-10213
▁미생물	-10214
▁극도	-10215
▁오락	-10216
▁경쟁력	-10217
▁사로잡	-10218
▁포도당	-10219
clude	-10220
▁그렇지만	-10221
▁애틀랜타	-10222
▁출석	-10223
▁파우	-10224
▁GDP	-10225
▁겉보기	-10226
▁사무총장	-10227
▁지방산	-10228
▁개항	-10229
▁공약	-10230
▁도사	-10231
▁무스	-10232
▁자카	-10233
▁평민	-10234
▁앨리스	-10235
타마	-10236
▁미셸	-10237
▁선장	-10238
▁ES	-10239
▁국유	-10240
▁아치	-10241
▁스리랑카	-10242
그래	-10243
미스	-10244
▁문경	-10245
▁위생	-10246
▁CEO	-10247
▁아래쪽	-10248
림픽	-10249
▁니카	-10250
▁열심	-10251
▁추종	-10252
HO	-10253
▁ㅁㅗㄹㄹㅕ	-10254
원장	-10255
▁스로	-10256
▁유스	-10257
▁제왕	-10258
▁지청	-10259
▁탁월	-10260
▁엘리트	-10261
UR	-10262
▁수심	-10263
▁아데	-10264
▁재해	-10265
▁대성전	-10266
old	-10267
▁더비	-10268
▁우상	-10269
▁132	-10270
▁ㅇㅡㄹㄲㅏ	-10271
▁++	-10272
▁광양	-10273
▁ㅅㅏㄹㄹㅕ	-10274
▁시뮬레이션	-10275
멘스	-10276
▁수년	-10277
▁정인	-10278
▁스트라이커	-10279
▁자르	-10280
▁재난	-10281
▁주지	-10282
▁진수	-10283
Hz	-10284
▁섀	-10285
위성	-10286
▁가볍	-10287
▁리모	-10288
▁빛나	-10289
▁애칭	-10290
ㅇㄱㅕ	-10291
▁글로브	-10292
▁동성애자	-10293
▁툰	-10294
▁듀오	-10295
▁숙주	-10296
▁명분	-10297
▁반역	-10298
▁마다가	-10299
▁인디애나	-10300
미즈	-10301
스기	-10302
▁결핍	-10303
▁주화	-10304
버러	-10305
ork	-10306
▁NE	-10307
▁격자	-10308
▁결제	-10309
▁원격	-10310
▁이득	-10311
▁조병	-10312
▁초원	-10313
▁칼뱅	-10314
바야시	-10315
▁대지진	-10316
▁극락	-10317
▁김민	-10318
▁이데	-10319
▁프롤	-10320
ㄴㅏㅁ	-10321
▁삼국사기	-10322
ix	-10323
헌영	-10324
▁감동	-10325
▁듀얼	-10326
▁속편	-10327
▁미주리	-10328
▁인프라	-10329
거래	-10330
세기	-10331
에미	-10332
▁ㄹㅑ	-10333
▁동요	-10334
GA	-10335
▁빈번	-10336
▁프랭클린	-10337
파크	-10338
▁베른	-10339
▁브랜	-10340
세우	-10341
▁정관	-10342
▁요제프	-10343
▁얹	-10344
▁국수	-10345
▁온갖	-10346
▁총무	-10347
▁pro	-10348
▁마우스	-10349
▁패럴림픽	-10350
해튼	-10351
▁or	-10352
▁어리	-10353
▁타석	-10354
벨라	-10355
▁김옥	-10356
▁시종	-10357
▁현직	-10358
▁무조건	-10359
▁복음서	-10360
▁파이프	-10361
()	-10362
lo	-10363
렉션	-10364
보내	-10365
▁까지	-10366
▁동참	-10367
▁상연	-10368
위원회	-10369
메다	-10370
▁부드	-10371
▁평안남도	-10372
▁쾰	-10373
▁발각	-10374
▁보헤미아	-10375
▁ㅂㅜㅌㅈㅏ	-10376
천사	-10377
▁울리	-10378
▁호족	-10379
루냐	-10380
ick	-10381
▁현황	-10382
▁농산물	-10383
▁저널리	-10384
▁대국	-10385
▁상기	-10386
▁요법	-10387
CAF	-10388
▁La	-10389
▁Ro	-10390
▁신상	-10391
▁현행	-10392
ence	-10393
▁우체국	-10394
▁PR	-10395
▁강풍	-10396
▁암흑	-10397
▁통틀어	-10398
▁활주로	-10399
마리	-10400
▁ㅎㅜ	-10401
▁청자	-10402
▁대사헌	-10403
▁자세히	-10404
를테	-10405
▁총기	-10406
▁피로	-10407
를테면	-10408
▁기상청	-10409
▁후속작	-10410
▁이를테면	-10411
▁kt	-10412
▁대각	-10413
▁워치	-10414
▁페로	-10415
▁밀러	-10416
▁파문	-10417
▁아니하	-10418
▁볼셰비키	-10419
▁공파	-10420
▁단과	-10421
▁세손	-10422
▁황도	-10423
▁단행본	-10424
변이	-10425
▁의과	-10426
▁투항	-10427
▁트리니	-10428
▁돌연변이	-10429
▁합스부르크	-10430
라기	-10431
홀름	-10432
▁초고	-10433
브리아	-10434
▁매거진	-10435
▁모터스	-10436
▁창시자	-10437
▁1870	-10438
▁평안북도	-10439
▁숀	-10440
▁To	-10441
▁관동	-10442
▁낙하	-10443
▁만년	-10444
▁소울	-10445
▁속주	-10446
울리	-10447
▁DM	-10448
▁공표	-10449
▁낮추	-10450
▁장대	-10451
▁제너	-10452
▁해부	-10453
▁호리	-10454
삭스	-10455
할시	-10456
▁왜구	-10457
▁재질	-10458
▁표창	-10459
▁호의	-10460
▁뾰	-10461
▁ㅃㅜ	-10462
▁가타	-10463
▁생계	-10464
▁아쿠	-10465
▁저격	-10466
▁타이베이	-10467
공산	-10468
▁말년	-10469
▁맹세	-10470
▁중앙부	-10471
▁댓	-10472
플로	-10473
▁머스	-10474
▁서장	-10475
▁애리조	-10476
▁청동기	-10477
▁우즈베키스탄	-10478
▁쳐	-10479
▁감금	-10480
▁라오	-10481
▁배속	-10482
▁불행	-10483
▁이븐	-10484
▁정국	-10485
▁450	-10486
▁입수	-10487
▁NAS	-10488
▁USS	-10489
▁아스널	-10490
▁1885	-10491
▁복식	-10492
▁우아	-10493
▁Mar	-10494
▁내려가	-10495
▁프랜시스	-10496
ection	-10497
▁ㄲㅗㅂㅎㅣㄴㄷㅏ	-10498
▁른	-10499
▁짱	-10500
▁Ph	-10501
▁ㅈㅝ	-10502
▁ㅌㅟ	-10503
▁국악	-10504
▁로페	-10505
▁세븐	-10506
▁시국	-10507
▁소피아	-10508
ㄲㅝㅆ	-10509
▁기병대	-10510
▁다람쥐	-10511
EM	-10512
▁슛	-10513
▁엥	-10514
▁포고	-10515
▁비주얼	-10516
▁ㄷㅡㄴㄷㅏ	-10517
▁아이스하키	-10518
십자	-10519
▁un	-10520
▁김병	-10521
▁돌출	-10522
▁카바	-10523
▁로렌스	-10524
▁1871	-10525
▁알래스카	-10526
▁ㅉㅣㄴ	-10527
▁양성자	-10528
ear	-10529
▁앞쪽	-10530
ance	-10531
▁쓸	-10532
▁쿡	-10533
▁수염	-10534
▁신종	-10535
▁맷	-10536
▁아빠	-10537
▁양육	-10538
▁중생	-10539
▁휴게	-10540
테리아	-10541
▁only	-10542
▁오클랜드	-10543
티시	-10544
▁계시	-10545
▁비늘	-10546
▁대장군	-10547
▁프레이	-10548
제이	-10549
lass	-10550
▁ㅌㅡㄴ	-10551
▁빅토르	-10552
▁1600	-10553
▁유러	-10554
▁카터	-10555
▁수원시	-10556
▁로리	-10557
▁성령	-10558
▁센고쿠	-10559
▁활발히	-10560
ild	-10561
▁내성	-10562
▁루비	-10563
▁요지	-10564
▁위스	-10565
▁전날	-10566
▁참사	-10567
▁테일	-10568
▁오로지	-10569
▁마르크스주의	-10570
▁낚	-10571
▁리터	-10572
▁앤더슨	-10573
▁파나마	-10574
▁1200	-10575
▁유러피언	-10576
지오	-10577
▁유료	-10578
▁청룡	-10579
▁케이프	-10580
▁경질	-10581
▁매직	-10582
▁봉수	-10583
▁붙잡	-10584
▁오라	-10585
테쓰	-10586
▁GN	-10587
▁벤치	-10588
▁시애	-10589
▁역도	-10590
▁장단	-10591
▁내면	-10592
▁중상	-10593
타이드	-10594
▁예정자	-10595
▁편집자	-10596
▁볼프	-10597
▁중서	-10598
▁탑신	-10599
▁화랑	-10600
▁ㅃㅏㄹ	-10601
▁마닐라	-10602
▁윤보선	-10603
▁마다가스카르	-10604
▁자칭	-10605
▁해저	-10606
▁내무부	-10607
▁박헌영	-10608
파이	-10609
▁부조	-10610
▁지성	-10611
▁케라	-10612
▁선보이	-10613
▁난이	-10614
▁루카	-10615
▁이양	-10616
▁재외	-10617
▁흉노	-10618
ㄷㅗㄹㅇㅏ	-10619
▁갈리	-10620
▁수인	-10621
▁김규식	-10622
▁부원군	-10623
▁꺼	-10624
체고	-10625
▁SL	-10626
▁감수	-10627
▁능선	-10628
▁원심	-10629
체고비나	-10630
ㄱㅜㄴㄱㅏ	-10631
▁관행	-10632
▁구니	-10633
▁이모	-10634
▁출가	-10635
▁친분	-10636
▁카니	-10637
▁퇴장	-10638
ㅆㅇㅡ	-10639
▁240	-10640
▁구마모토	-10641
▁ㅂㅜㄹㄹㅣㄴ	-10642
irl	-10643
▁맨해튼	-10644
▁알렉스	-10645
▁프로리그	-10646
관리	-10647
쩌둥	-10648
▁vs	-10649
▁리바	-10650
▁콜레	-10651
▁플랜	-10652
▁김정은	-10653
▁다나카	-10654
▁반란군	-10655
▁시애틀	-10656
▁앤드루	-10657
▁해리슨	-10658
▁마오쩌둥	-10659
▁ㅌㅣ	-10660
▁반성	-10661
▁생선	-10662
▁조광	-10663
▁교실	-10664
▁뛰어	-10665
▁AD	-10666
▁서산	-10667
▁스태	-10668
▁시달리	-10669
▁오른손	-10670
맥스	-10671
▁시리	-10672
▁제동	-10673
▁지쿠	-10674
OV	-10675
▁즘	-10676
▁수교	-10677
▁초빙	-10678
▁제조업	-10679
▁프라하	-10680
ㅁㅗ	-10681
메스	-10682
▁민요	-10683
▁바디	-10684
▁이완	-10685
▁파인	-10686
텔레스	-10687
▁동물원	-10688
지로	-10689
천면	-10690
▁궁궐	-10691
▁송도	-10692
▁부드럽	-10693
▁역사가	-10694
ans	-10695
▁리비	-10696
▁이방	-10697
▁함자	-10698
코토	-10699
▁경희	-10700
▁시중	-10701
▁루돌프	-10702
▁실험실	-10703
ivers	-10704
▁관문	-10705
▁상급	-10706
▁통역	-10707
▁콘스탄티노폴리스	-10708
▁괄	-10709
▁국보	-10710
▁무척	-10711
▁오미	-10712
▁재활	-10713
▁성남시	-10714
▁헬리콥터	-10715
▁ㅁㅗㅅㅎㅐㅆㅇㅡ	-10716
▁성실	-10717
▁정제	-10718
▁조례	-10719
▁징병	-10720
▁티켓	-10721
▁호크	-10722
▁대대로	-10723
▁왕세자	-10724
▁제퍼슨	-10725
▁ㄱㅓㄹㄹㅣㄴ	-10726
▁고쿠	-10727
▁증인	-10728
▁EBS	-10729
▁미군정	-10730
ype	-10731
▁Sy	-10732
▁남산	-10733
▁사쿠	-10734
▁허드	-10735
▁공민왕	-10736
▁신문사	-10737
▁경시	-10738
▁구청	-10739
▁부각	-10740
▁창문	-10741
▁동대문	-10742
include	-10743
▁반하	-10744
▁분과	-10745
▁아리스토텔레스	-10746
▁남용	-10747
▁커플	-10748
▁리조트	-10749
▁위너스	-10750
올라	-10751
▁CM	-10752
▁놀라	-10753
▁몸통	-10754
▁테라	-10755
▁줄거리	-10756
▁클레이	-10757
ㄲㅇㅣㄴ	-10758
▁러시아인	-10759
ish	-10760
▁드미	-10761
▁바트	-10762
▁뾰족	-10763
▁레이크	-10764
▁하노이	-10765
무소	-10766
어사	-10767
▁남해	-10768
▁돌려	-10769
▁섬세	-10770
▁차용	-10771
▁총통	-10772
▁서재필	-10773
▁당내	-10774
▁사각형	-10775
▁크라이	-10776
▁얕	-10777
▁카지	-10778
▁칼럼	-10779
▁":	-10780
▁개헌	-10781
▁엮	-10782
ㄲㅓ	-10783
ㅔㄴ	-10784
▁총애	-10785
▁퍼스	-10786
▁하키	-10787
▁화기	-10788
▁가늘	-10789
▁각성	-10790
▁시노	-10791
▁이룩	-10792
▁동유럽	-10793
▁자치체	-10794
▁클린턴	-10795
▁퍼스트	-10796
▁김원	-10797
▁다투	-10798
▁배려	-10799
▁통용	-10800
▁화엄	-10801
▁대합실	-10802
▁생겨나	-10803
▁해리스	-10804
GM	-10805
▁NT	-10806
▁나우	-10807
▁뉴클	-10808
▁주임	-10809
▁지오	-10810
▁푸르	-10811
▁MTV	-10812
▁개개	-10813
▁광도	-10814
▁약혼	-10815
▁에프	-10816
▁하반	-10817
▁효자	-10818
▁아무것	-10819
▁케플러	-10820
▁돋	-10821
라니	-10822
oun	-10823
▁농경	-10824
▁씨앗	-10825
▁안녕	-10826
▁천왕	-10827
▁올림피아	-10828
▁학설	-10829
▁허정	-10830
ㅂㅗㄴ	-10831
ㅅㅕㅆ	-10832
▁솔로몬	-10833
▁@	-10834
▁싣	-10835
에스	-10836
▁독도	-10837
▁스가	-10838
▁시합	-10839
▁알아	-10840
▁ex	-10841
▁산호	-10842
▁시부	-10843
▁진해	-10844
▁ㄲㅡㄴ	-10845
▁선거법	-10846
원수	-10847
▁모의	-10848
▁보라	-10849
▁수양	-10850
▁칙령	-10851
▁분류군	-10852
▁요시다	-10853
▁유치원	-10854
OD	-10855
▁돌보	-10856
▁모호	-10857
▁포착	-10858
AF	-10859
사상	-10860
▁갑작	-10861
▁브루스	-10862
▁예선전	-10863
▁총사령관	-10864
ey	-10865
▁관청	-10866
▁나선	-10867
▁메뉴	-10868
▁내야수	-10869
▁아키라	-10870
▁함경남도	-10871
▁메카	-10872
▁지로	-10873
▁카테	-10874
▁파도	-10875
▁하류	-10876
▁브레이크	-10877
컨대	-10878
▁sc	-10879
▁경호	-10880
▁극한	-10881
▁독창	-10882
▁로버	-10883
▁보로	-10884
▁주입	-10885
▁긴테쓰	-10886
ㄹㅕㅆㅇㅡ	-10887
▁네이션스컵	-10888
fe	-10889
▁겁	-10890
정원	-10891
지르	-10892
▁국당	-10893
▁문고	-10894
▁성화	-10895
▁실존	-10896
▁자제	-10897
▁Jo	-10898
▁검정	-10899
▁전래	-10900
▁처하	-10901
▁호스	-10902
▁경영자	-10903
▁스테파	-10904
▁아키타	-10905
통일	-10906
▁다테	-10907
▁마차	-10908
▁보행	-10909
▁일당	-10910
▁트릭	-10911
창호	-10912
▁만장	-10913
▁분파	-10914
▁블로	-10915
▁신발	-10916
▁어군	-10917
▁평형	-10918
▁스톡홀름	-10919
나오	-10920
등식	-10921
▁되돌	-10922
▁유혹	-10923
▁케인	-10924
▁퍼포	-10925
▁비타민	-10926
▁컴퓨팅	-10927
ical	-10928
▁비밀리	-10929
▁서대문	-10930
토랑	-10931
▁찬사	-10932
▁레스토랑	-10933
▁퍼포먼스	-10934
▁수필	-10935
▁욕망	-10936
▁캐롤	-10937
lat	-10938
▁제물	-10939
▁카피	-10940
신문	-10941
▁테리	-10942
▁알프스	-10943
▁자치주	-10944
▁원통	-10945
▁전무	-10946
▁타스	-10947
EG	-10948
TP	-10949
▁드루	-10950
▁유아기	-10951
▁친위대	-10952
러브	-10953
▁도교	-10954
▁마셜	-10955
▁마술	-10956
▁포식	-10957
ㄹㅝㅆ	-10958
▁스폰서	-10959
▁잡아먹	-10960
▁와이번스	-10961
바흐	-10962
▁박종	-10963
▁방콕	-10964
▁ABC	-10965
▁마천루	-10966
▁프린스	-10967
▁뉴클레오	-10968
▁ㅅㅣㄹㄹㅣㄴ	-10969
▁뻔	-10970
환경	-10971
히트	-10972
▁수복	-10973
▁엄밀	-10974
▁보수당	-10975
▁유권자	-10976
암동	-10977
▁색소	-10978
IR	-10979
▁CH	-10980
▁럭비	-10981
▁프론	-10982
▁다저스	-10983
▁로드리	-10984
▁바이트	-10985
▁예수회	-10986
▁고든	-10987
▁김유	-10988
▁모어	-10989
▁묘비	-10990
▁헬싱	-10991
▁황소	-10992
▁ATP	-10993
메드	-10994
▁AV	-10995
▁리베	-10996
▁맞대	-10997
▁불변	-10998
▁블레	-10999
▁실정	-11000
▁이렇	-11001
ㅉㅓㄹ	-11002
▁대원군	-11003
▁강령	-11004
▁구내	-11005
▁천국	-11006
▁치과	-11007
▁북아일랜드	-11008
▁ㅎㅑㅇㅎㅐㅆ	-11009
▁멧	-11010
▁DD	-11011
▁넷째	-11012
▁본성	-11013
▁야드	-11014
▁웨인	-11015
▁개구리	-11016
▁방어선	-11017
▁플라톤	-11018
▁피아니스트	-11019
▁리보	-11020
▁마켓	-11021
▁시몬	-11022
▁장시	-11023
▁전담	-11024
▁톈진	-11025
▁파손	-11026
▁마누엘	-11027
▁투자자	-11028
▁연극배우	-11029
▁나인	-11030
▁상행	-11031
▁소음	-11032
▁천거	-11033
▁추이	-11034
▁포토	-11035
▁도둑	-11036
▁영유	-11037
▁정부군	-11038
▁콘테스트	-11039
매매	-11040
▁삼존	-11041
▁이점	-11042
▁210	-11043
▁나트륨	-11044
▁용인시	-11045
▁ㅂㅓㄹㅇㅕ	-11046
are	-11047
▁대본	-11048
▁리사	-11049
▁벤처	-11050
▁폭파	-11051
▁오리온	-11052
▁피라미	-11053
▁화강암	-11054
▁샐	-11055
▁실권	-11056
▁약사	-11057
▁특전	-11058
▁튀르크	-11059
▁프레데	-11060
▁ㅎㅏㅂㅊㅣㄴ	-11061
▁헤르체고비나	-11062
놀이	-11063
▁Fr	-11064
▁절망	-11065
▁주차장	-11066
덴부르크	-11067
대교	-11068
▁pr	-11069
▁스칸	-11070
▁슬하	-11071
▁선구자	-11072
▁알파벳	-11073
군다	-11074
▁구실	-11075
▁야전	-11076
▁왕권	-11077
▁퇴직	-11078
티넘	-11079
▁Ma	-11080
▁동로	-11081
▁릴리	-11082
▁무실	-11083
▁ㄸㅓㄹ	-11084
▁ㅎㅏㅇ	-11085
▁적외선	-11086
▁플래티넘	-11087
▁스텝	-11088
▁정거	-11089
▁토스카	-11090
▁가브리엘	-11091
EL	-11092
▁노론	-11093
▁마에	-11094
▁백두	-11095
▁선천	-11096
▁찬양	-11097
▁침묵	-11098
▁쾰른	-11099
▁경전철	-11100
▁목요일	-11101
▁아나톨	-11102
FL	-11103
▁결별	-11104
▁위그	-11105
▁채취	-11106
▁휩	-11107
ica	-11108
▁ㅎㅣ	-11109
▁국공	-11110
▁별세	-11111
▁소극	-11112
▁중퇴	-11113
▁he	-11114
▁넘치	-11115
▁밸리	-11116
▁유선	-11117
▁1889	-11118
▁가락	-11119
▁봉화	-11120
▁준수	-11121
▁차출	-11122
▁화약	-11123
ㄲㅜㄹ	-11124
공산당	-11125
▁유격수	-11126
사고	-11127
▁리본	-11128
▁사방	-11129
▁ㅈㅡㄹㄱㅣㄹ	-11130
수스	-11131
▁대북	-11132
▁아날	-11133
▁이의	-11134
▁일리	-11135
▁ㄴㅓㄹ	-11136
▁동시대	-11137
ㅈㅣㄹㄹㅓ	-11138
언스	-11139
▁가맹	-11140
▁본작	-11141
▁소중	-11142
▁송신	-11143
▁영정	-11144
▁제노	-11145
▁감찰	-11146
▁가이드	-11147
60	-11148
▁로크	-11149
▁방치	-11150
▁슬픔	-11151
▁실록	-11152
▁켈트	-11153
▁호대	-11154
▁연산군	-11155
▁스카우트	-11156
난성	-11157
천동	-11158
▁패트릭	-11159
ㅇㅎㅏㄴㄷㅏ	-11160
대표	-11161
충류	-11162
▁베트	-11163
▁요충	-11164
▁추리	-11165
▁오바마	-11166
▁직통	-11167
▁아이폰	-11168
지기	-11169
ㄲㅟㄴ	-11170
테이너	-11171
▁정의당	-11172
소통	-11173
클레	-11174
▁반포	-11175
▁정형	-11176
▁종식	-11177
▁주계	-11178
▁하시	-11179
▁기관지	-11180
▁밴쿠버	-11181
▁안테나	-11182
▁So	-11183
▁여권	-11184
▁임정	-11185
▁투여	-11186
▁니혼	-11187
▁비엔	-11188
▁산성	-11189
▁삼림	-11190
▁엔트리	-11191
▁공존	-11192
▁대영	-11193
▁야시	-11194
▁의류	-11195
▁전전	-11196
▁칸국	-11197
▁CONCA	-11198
위안	-11199
▁간첩	-11200
▁당연	-11201
ㅈㅎㅕ	-11202
카리	-11203
▁다윈	-11204
▁모금	-11205
▁미수	-11206
▁이송	-11207
▁메디치	-11208
▁메이커	-11209
▁의사소통	-11210
▁늙	-11211
▁딥	-11212
▁멍	-11213
▁강렬	-11214
▁맞서	-11215
▁불량	-11216
▁여유	-11217
▁중수	-11218
▁형질	-11219
▁For	-11220
▁타이거스	-11221
▁CONCACAF	-11222
▁불참	-11223
▁영예	-11224
▁한미	-11225
▁초신성	-11226
▁고속버스	-11227
▁끓	-11228
드레	-11229
▁김형	-11230
▁비야	-11231
▁연말	-11232
▁중합	-11233
▁Live	-11234
▁끼치	-11235
▁로트	-11236
▁유목	-11237
▁플리	-11238
▁말미암	-11239
▁건전	-11240
▁김준	-11241
▁정읍	-11242
와라노	-11243
▁리프트	-11244
▁센티미터	-11245
▁후지와라노	-11246
▁라리	-11247
▁라자	-11248
▁모하	-11249
▁사서	-11250
▁사설	-11251
▁시크	-11252
▁타이어	-11253
부로	-11254
▁금호	-11255
▁무형	-11256
▁의령	-11257
▁인가	-11258
▁처지	-11259
▁피지	-11260
▁JTBC	-11261
▁미야자키	-11262
▁구두	-11263
▁예약	-11264
▁우림	-11265
▁정종	-11266
▁종자	-11267
▁프란체스코	-11268
sh	-11269
▁격리	-11270
휴일	-11271
▁감상	-11272
▁감성	-11273
▁매트	-11274
▁앙골	-11275
▁절정	-11276
▁낙동강	-11277
▁ㄴㅏㄹㅇㅏ	-11278
bo	-11279
란토	-11280
▁원군	-11281
▁은거	-11282
▁지자	-11283
▁쿠퍼	-11284
▁하야	-11285
▁스트로	-11286
▁시네마	-11287
▁가나가와현	-11288
▁왕건	-11289
▁작물	-11290
▁캐리	-11291
▁판례	-11292
▁후배	-11293
▁백과	-11294
▁수락	-11295
▁애정	-11296
블랜드	-11297
▁로마인	-11298
▁카탈루냐	-11299
프로	-11300
▁열강	-11301
▁두려움	-11302
▁똑같이	-11303
▁훙	-11304
▁메소	-11305
▁사탕	-11306
▁습윤	-11307
▁요격	-11308
▁Sou	-11309
▁나카무라	-11310
▁가도	-11311
▁들이	-11312
▁송출	-11313
▁잠정	-11314
▁집정	-11315
▁치환	-11316
▁자유민주당	-11317
EE	-11318
▁펌프	-11319
바이트	-11320
▁레이싱	-11321
▁생존자	-11322
▁열심히	-11323
▁ㅈㅜㄱㅇㅣㄴ	-11324
망디	-11325
바나	-11326
▁극우	-11327
하이오	-11328
tern	-11329
▁미야기	-11330
▁ㅁㅓㅁㅊ	-11331
▁오하이오	-11332
▁클리블랜드	-11333
가미	-11334
부르	-11335
캐슬	-11336
▁기이	-11337
▁리옹	-11338
▁서임	-11339
IL	-11340
▁연정	-11341
▁ㅅㅓㄹ	-11342
▁GB	-11343
▁고딕	-11344
▁마땅	-11345
▁징수	-11346
▁AKB	-11347
▁발라드	-11348
▁소말리아	-11349
▁프랑스인	-11350
▁캅	-11351
▁공소	-11352
▁금산	-11353
▁반기	-11354
▁비준	-11355
▁트렌	-11356
▁int	-11357
▁광복군	-11358
▁피라미드	-11359
▁김명	-11360
▁평평	-11361
도르프	-11362
지능	-11363
ood	-11364
▁거미	-11365
▁장학금	-11366
▁인공지능	-11367
대사	-11368
▁가솔	-11369
▁그저	-11370
▁모색	-11371
▁유희	-11372
▁여배우	-11373
▁Time	-11374
▁유니버설	-11375
▁담보	-11376
▁여고	-11377
▁정작	-11378
▁항만	-11379
▁Col	-11380
▁Com	-11381
▁레이트	-11382
에미리트	-11383
▁아랍에미리트	-11384
자루	-11385
ost	-11386
▁격추	-11387
▁무네	-11388
▁벨리	-11389
▁성곽	-11390
▁워커	-11391
▁카카오	-11392
▁Part	-11393
▁도피	-11394
간다	-11395
유예	-11396
▁삼중	-11397
▁순종	-11398
▁유의	-11399
▁추력	-11400
▁페트	-11401
▁드디어	-11402
▁토리노	-11403
▁EU	-11404
▁사역	-11405
▁암스	-11406
▁자서	-11407
▁검은색	-11408
에몽	-11409
풀이	-11410
현동	-11411
span	-11412
▁교통부	-11413
▁기숙사	-11414
▁1848	-11415
거스	-11416
row	-11417
▁"&	-11418
▁목회	-11419
▁바지	-11420
▁볼트	-11421
▁수로	-11422
▁제명	-11423
추부사	-11424
▁츄	-11425
▁서태	-11426
▁한림	-11427
마르크	-11428
▁뉴캐슬	-11429
▁부총리	-11430
▁ㅃㅏㄹㄱㅏㄴ	-11431
▁onlyinclude	-11432
▁벅	-11433
▁TR	-11434
▁문집	-11435
▁하행	-11436
▁댄서	-11437
▁공휴일	-11438
화문	-11439
▁로얄	-11440
▁탄약	-11441
▁포털	-11442
▁해태	-11443
▁해피	-11444
▁마이어	-11445
지부	-11446
▁모욕	-11447
▁무과	-11448
▁티아	-11449
▁ㅍㅜㄹ	-11450
▁여의도	-11451
▁꼽히	-11452
▁라르	-11453
▁매킨	-11454
▁사쓰	-11455
▁우한	-11456
▁재팬	-11457
▁튀니지	-11458
▁카스티야	-11459
uc	-11460
▁헛	-11461
애미	-11462
정동	-11463
▁김광	-11464
▁오만	-11465
▁익숙	-11466
▁줄리	-11467
▁토트	-11468
▁해독	-11469
프랑크	-11470
▁간신히	-11471
▁대니얼	-11472
▁라이더	-11473
▁브레이	-11474
▁마이애미	-11475
▁프랑스령	-11476
lay	-11477
▁급여	-11478
▁보령	-11479
▁셀레	-11480
▁악보	-11481
▁재일	-11482
▁절벽	-11483
▁추억	-11484
▁ㄱㅕㅁ	-11485
▁ㅈㅔㄴ	-11486
▁대승불교	-11487
나마	-11488
의사	-11489
▁비추	-11490
▁음절	-11491
▁레이더	-11492
▁우루스	-11493
▁일본국	-11494
▁지상파	-11495
ous	-11496
▁ㄸㅢ	-11497
▁남군	-11498
▁유식	-11499
▁페트로	-11500
▁볼로	-11501
▁비토	-11502
▁여사	-11503
▁천주	-11504
▁고인돌	-11505
▁무안	-11506
▁병자	-11507
▁종군	-11508
ㅅㅓㄹ	-11509
페스트	-11510
▁국제법	-11511
▁법원장	-11512
▁정치학	-11513
▁공대	-11514
▁도래	-11515
▁치카	-11516
▁스타트	-11517
ㅟㄹ	-11518
ows	-11519
▁사민	-11520
▁양심	-11521
▁코리	-11522
▁한중	-11523
olog	-11524
▁국한	-11525
▁다치	-11526
▁랴오	-11527
▁조인	-11528
▁바그너	-11529
▁클라우	-11530
메니	-11531
▁교의	-11532
▁산둥	-11533
▁어긋	-11534
▁특화	-11535
파니아	-11536
▁명확히	-11537
▁시멘트	-11538
▁관현악단	-11539
지아	-11540
▁EM	-11541
▁가혹	-11542
▁굴절	-11543
▁비정	-11544
▁업자	-11545
▁워즈	-11546
▁인칭	-11547
▁SNS	-11548
▁제위	-11549
해살이	-11550
▁Bla	-11551
▁시코쿠	-11552
▁정거장	-11553
▁경복	-11554
▁로키	-11555
▁리카	-11556
▁부평	-11557
▁클러	-11558
ㄲㅣㄹ	-11559
▁지배자	-11560
▁모건	-11561
▁안개	-11562
▁API	-11563
▁ㄱㅕㄴ	-11564
▁카메룬	-11565
▁보수주의	-11566
▁줄기세포	-11567
▁공성	-11568
▁어시스트	-11569
OP	-11570
브로	-11571
▁김인	-11572
▁단결	-11573
▁비대	-11574
▁선명	-11575
▁어찌	-11576
▁합치	-11577
▁항체	-11578
클리드	-11579
▁그랜트	-11580
▁저지대	-11581
도라	-11582
▁류큐	-11583
▁평지	-11584
▁황색	-11585
▁대리인	-11586
▁마법사	-11587
▁에이즈	-11588
▁제우스	-11589
orn	-11590
▁가쿠	-11591
▁부다	-11592
▁아이즈	-11593
▁at	-11594
▁거란	-11595
▁방대	-11596
▁숙부	-11597
▁연립	-11598
▁총격	-11599
▁케르	-11600
▁131	-11601
ann	-11602
▁문단	-11603
▁안방	-11604
▁적료	-11605
▁ㅎㅟㅂ	-11606
▁하노버	-11607
az	-11608
▁쾨	-11609
▁글꼴	-11610
▁마테	-11611
▁명소	-11612
▁사수	-11613
빌라이	-11614
▁대나무	-11615
ㄱㅏㅆㅇㅡ	-11616
▁ㅇㅞ	-11617
▁귀신	-11618
▁용액	-11619
▁종양	-11620
서스	-11621
칼리	-11622
▁고로	-11623
▁메일	-11624
▁모빌	-11625
▁서귀	-11626
▁전한	-11627
▁점포	-11628
▁지법	-11629
▁NASA	-11630
▁Your	-11631
▁레드삭스	-11632
시노	-11633
▁검거	-11634
▁베어	-11635
메이카	-11636
▁자메이카	-11637
▁녕	-11638
▁욱	-11639
▁BC	-11640
▁동산	-11641
▁신곡	-11642
▁지석	-11643
▁하코	-11644
▁곶	-11645
▁기와	-11646
▁남방	-11647
▁선봉	-11648
▁재편	-11649
▁영화상	-11650
▁제이슨	-11651
▁1883	-11652
▁ㅈㅓㅂㅎㅏㄴ	-11653
틀리	-11654
히사	-11655
▁공영	-11656
▁대마	-11657
▁항우	-11658
▁OST	-11659
▁ref	-11660
▁정보원	-11661
▁u	-11662
▁설문	-11663
ㄲㅜㄴ	-11664
드리아	-11665
른스트	-11666
▁사림	-11667
▁수식	-11668
▁오디	-11669
▁탄자	-11670
▁한신	-11671
▁계주	-11672
▁도키	-11673
▁줄리아	-11674
▁텍사스주	-11675
▁ㅍㅏㄹㄹㅕㅆ	-11676
▁부합	-11677
▁응급	-11678
▁초콜	-11679
네그로	-11680
레스트	-11681
▁라파엘	-11682
▁방사능	-11683
▁부상자	-11684
▁교향악단	-11685
▁골격	-11686
▁쌍대	-11687
▁연희	-11688
▁다툼	-11689
▁동진	-11690
▁무작	-11691
▁중엽	-11692
80	-11693
▁근사	-11694
▁모범	-11695
▁속력	-11696
▁식스	-11697
▁진로	-11698
▁대단히	-11699
▁패러디	-11700
▁관상	-11701
▁다듬	-11702
▁대좌	-11703
▁삽화	-11704
▁혼다	-11705
▁ㅇㅣㅅ	-11706
▁대법관	-11707
▁비서관	-11708
▁연구회	-11709
▁그라운드	-11710
으로	-11711
▁기세	-11712
▁유공	-11713
▁에스페	-11714
▁판소리	-11715
▁노르망디	-11716
▁프로그래머	-11717
거지	-11718
관계	-11719
▁가우	-11720
▁간략	-11721
▁병마	-11722
▁코소	-11723
▁피리	-11724
▁하남	-11725
▁형벌	-11726
▁tv	-11727
▁산요	-11728
▁온난	-11729
▁유우	-11730
▁홀리	-11731
▁고분군	-11732
▁가토	-11733
▁야외	-11734
▁자명	-11735
▁최진	-11736
▁카네	-11737
▁편견	-11738
▁도박	-11739
▁실증	-11740
▁우산	-11741
▁전보	-11742
▁절감	-11743
▁쿠빌라이	-11744
▁Ge	-11745
▁경위	-11746
▁노면	-11747
▁니키	-11748
▁단군	-11749
▁이터	-11750
▁만화가	-11751
▁녹화	-11752
▁라바	-11753
▁리마	-11754
▁콘솔	-11755
▁큐브	-11756
▁흘러	-11757
▁에이전	-11758
▁해상도	-11759
센스	-11760
ern	-11761
▁공무	-11762
▁리즈	-11763
▁열전	-11764
▁월터	-11765
▁위구르	-11766
▁이용객	-11767
▁토마토	-11768
▁파일럿	-11769
▁깜	-11770
▁봉인	-11771
▁ㅂㅏㄹ	-11772
▁달라지	-11773
▁야마가타	-11774
▁콥	-11775
▁RP	-11776
▁안나	-11777
▁평판	-11778
▁함량	-11779
▁프란치	-11780
▁해안선	-11781
합성	-11782
▁성동	-11783
▁소외	-11784
▁요절	-11785
▁카마	-11786
▁1882	-11787
▁Wind	-11788
버른	-11789
▁GM	-11790
▁고흥	-11791
▁북군	-11792
▁촛	-11793
▁펴	-11794
▁가중	-11795
▁고노	-11796
▁기전	-11797
▁부왕	-11798
ㄹㅗㄴ	-11799
▁슈퍼컵	-11800
40	-11801
워스	-11802
제품	-11803
프턴	-11804
▁덮개	-11805
▁세습	-11806
▁송파	-11807
▁스루	-11808
▁은혜	-11809
▁조교	-11810
스트리	-11811
▁Day	-11812
▁다이어	-11813
▁스칼라	-11814
▁봇	-11815
▁간사	-11816
▁권역	-11817
▁기량	-11818
▁모세	-11819
▁타락	-11820
포시	-11821
ink	-11822
▁가고	-11823
▁거성	-11824
▁관례	-11825
▁최선	-11826
▁친족	-11827
▁후진	-11828
▁올리브	-11829
▁원산지	-11830
▁체인지	-11831
CC	-11832
▁꿈꾸	-11833
▁엔드	-11834
▁데니스	-11835
용차	-11836
▁고생	-11837
▁유생	-11838
▁유서	-11839
▁ㅇㅓㅄ	-11840
▁아이언	-11841
▁중소기업	-11842
II	-11843
▁FK	-11844
▁SA	-11845
▁발상	-11846
▁우시	-11847
▁학력	-11848
에고	-11849
▁RS	-11850
▁내일	-11851
▁라디	-11852
▁루키	-11853
▁상어	-11854
▁수위	-11855
▁아날로그	-11856
▁ㄱㅕㅂㅊㅕ	-11857
교통	-11858
돌이	-11859
토프	-11860
▁외치	-11861
▁항원	-11862
▁통신사	-11863
▁멋	-11864
▁정월	-11865
▁조셉	-11866
▁ㄴㅗㅍㅇㅕ	-11867
▁국외	-11868
▁사영	-11869
▁수다	-11870
▁아목	-11871
▁ㅅㅏㅆ	-11872
▁가솔린	-11873
▁뫼	-11874
▁앗	-11875
▁관악	-11876
▁주선	-11877
오르크	-11878
▁Sch	-11879
▁단체전	-11880
▁대표자	-11881
▁ㅁㅜㄷㅎㅕㅆ	-11882
들이	-11883
치히	-11884
▁국교	-11885
▁배분	-11886
▁제천	-11887
▁플러	-11888
▁헬레	-11889
▁330	-11890
▁연장전	-11891
▁관목	-11892
▁단정	-11893
▁직속	-11894
▁공화정	-11895
▁해운대	-11896
▁미스터리	-11897
▁시즈오카	-11898
▁강당	-11899
▁단속	-11900
▁딜런	-11901
▁상록	-11902
▁새우	-11903
▁요양	-11904
▁최영	-11905
▁선진국	-11906
▁전반기	-11907
▁관계없이	-11908
▁브루클린	-11909
데라	-11910
▁시안	-11911
▁왕궁	-11912
▁재래	-11913
▁정정	-11914
▁경주시	-11915
▁노벨상	-11916
서니	-11917
▁결사	-11918
▁몰타	-11919
▁씨족	-11920
▁지극	-11921
▁미토콘	-11922
▁카스트	-11923
▁미토콘드리아	-11924
게스	-11925
여객	-11926
▁ㅅㅜ	-11927
▁고의	-11928
▁급증	-11929
▁위로	-11930
▁위조	-11931
▁파벌	-11932
▁예컨대	-11933
▁지붕돌	-11934
▁파푸아	-11935
▁필립스	-11936
▁호스트	-11937
▁도네	-11938
▁배달	-11939
▁부교	-11940
▁산시	-11941
▁자수	-11942
▁장덕	-11943
▁협업	-11944
▁북유럽	-11945
▁휴게소	-11946
나기	-11947
려가	-11948
본부	-11949
ㄹㅓㄹ	-11950
▁레오폴	-11951
▁사업소	-11952
▁제갈량	-11953
▁테네시	-11954
▁외래	-11955
▁정은	-11956
▁주창	-11957
▁new	-11958
▁빙하	-11959
▁사학	-11960
▁성원	-11961
▁타수	-11962
▁단말	-11963
▁소프	-11964
▁수열	-11965
▁멜버른	-11966
▁4000	-11967
▁유클리드	-11968
융합	-11969
▁내걸	-11970
▁라미	-11971
▁램프	-11972
▁대상자	-11973
▁영원히	-11974
▁컨테이너	-11975
OT	-11976
▁규탄	-11977
▁동포	-11978
▁번창	-11979
▁영덕	-11980
▁베이커	-11981
▁부르주	-11982
▁안티오	-11983
▁OB	-11984
▁넬슨	-11985
▁어파	-11986
▁회귀	-11987
▁괌	-11988
▁과테	-11989
▁보름	-11990
▁사치	-11991
▁염려	-11992
▁제단	-11993
▁피핀	-11994
스탄불	-11995
▁산티아	-11996
▁1868	-11997
▁과테말라	-11998
▁사이타마	-11999
▁이스탄불	-12000
▁Or	-12001
▁일각	-12002
▁조슈	-12003
▁콜럼	-12004
▁할인	-12005
▁중공군	-12006
▁핵융합	-12007
팡이	-12008
▁남하	-12009
▁동적	-12010
▁국정원	-12011
▁Girl	-12012
▁ㄴㅗㅎㅇㅣㄴ	-12013
US	-12014
▁랭크	-12015
▁지르	-12016
티모어	-12017
▁앙골라	-12018
▁메릴랜드	-12019
▁컨트롤러	-12020
지리	-12021
▁서면	-12022
▁선대	-12023
▁냥	-12024
▁맡기	-12025
▁잠깐	-12026
▁종영	-12027
▁태후	-12028
▁군사력	-12029
▁스캔들	-12030
▁요충지	-12031
▁발동	-12032
▁신입	-12033
▁후예	-12034
▁ㄷㅜㄹ	-12035
▁내세우	-12036
▁알아보	-12037
▁파시즘	-12038
▁ㅅㅏㅇㅎㅐ	-12039
▁몬테네그로	-12040
▁객차	-12041
▁노사	-12042
ㄹㅐㅆ	-12043
▁주계열	-12044
협회	-12045
▁군벌	-12046
▁범행	-12047
▁충렬	-12048
▁어울리	-12049
▁사회민주당	-12050
▁버터	-12051
▁형편	-12052
▁기념일	-12053
▁떠오르	-12054
▁우의정	-12055
▁ㅇㅗㄻㄱㅣㄴ	-12056
▁ㅁㅏㄴㄴㅏㄴㄷㅏ	-12057
히드	-12058
▁받들	-12059
▁청도	-12060
▁표정	-12061
▁폐기물	-12062
▁몹	-12063
▁고트	-12064
▁농지	-12065
▁사천	-12066
▁항로	-12067
▁이바지	-12068
▁프랜차	-12069
▁colspan	-12070
▁대인	-12071
▁보루	-12072
▁부파	-12073
▁양보	-12074
▁지켜	-12075
▁하의	-12076
펜하겐	-12077
▁뛰어들	-12078
▁코펜하겐	-12079
▁너머	-12080
▁노후	-12081
▁영암	-12082
▁영월	-12083
▁전수	-12084
▁천수	-12085
▁독수리	-12086
oll	-12087
▁다우	-12088
▁사안	-12089
▁성산	-12090
▁오아	-12091
▁320	-12092
▁ㄸㅣㄴ	-12093
▁김옥균	-12094
▁너무나	-12095
▁신주쿠	-12096
▁오스틴	-12097
▁커리어	-12098
▁히브리	-12099
▁프란시스코	-12100
ㅌㅐ	-12101
▁우왕	-12102
▁우월	-12103
▁위촉	-12104
▁저조	-12105
▁카세	-12106
▁ㅅㅕㄴ	-12107
ㄷㅡㄹㅇㅓ	-12108
▁뒤이	-12109
▁법관	-12110
▁식용	-12111
▁차선	-12112
▁초안	-12113
▁추서	-12114
▁베르나르	-12115
▁아케이드	-12116
해자	-12117
▁대청	-12118
▁러일	-12119
▁아유	-12120
▁장병	-12121
▁카툰	-12122
▁end	-12123
▁급속히	-12124
▁라인업	-12125
▁요하네스	-12126
우에	-12127
▁교직	-12128
▁족보	-12129
▁준장	-12130
▁헌장	-12131
▁효고현	-12132
다운	-12133
호란	-12134
▁강행	-12135
▁대덕	-12136
▁밀레	-12137
▁배리	-12138
ㄲㅡㅁ	-12139
웨이트	-12140
▁수요일	-12141
▁ㅇㅓㅄㅇ	-12142
▁야마모토	-12143
▁사운드트랙	-12144
▁프랜차이즈	-12145
바오	-12146
▁사비	-12147
▁외과	-12148
▁청계	-12149
▁타리	-12150
▁사이먼	-12151
▁오일러	-12152
디나비아	-12153
▁암스테르담	-12154
▁스칸디나비아	-12155
▁뭉	-12156
▁상국	-12157
▁외형	-12158
▁이메	-12159
▁정령	-12160
▁치하	-12161
▁슌	-12162
▁고이	-12163
▁이항	-12164
▁종신	-12165
▁컨설	-12166
ㅇㅣㄹㅇㅡ	-12167
gin	-12168
▁DF	-12169
▁거처	-12170
▁대도	-12171
▁샤프	-12172
▁양수	-12173
▁은신	-12174
▁증폭	-12175
토리코	-12176
▁LED	-12177
▁무실점	-12178
▁좌의정	-12179
▁게오르크	-12180
▁ㅈㅜㄹㅇㅓ	-12181
▁ㅎㅣㅁㅆㅓㅆ	-12182
▁by	-12183
▁도상	-12184
▁소아	-12185
▁절제	-12186
▁축산	-12187
▁출동	-12188
▁피치	-12189
▁로마자	-12190
▁니콜라스	-12191
공주	-12192
꼬리	-12193
▁복종	-12194
▁자재	-12195
▁직행	-12196
▁타일	-12197
▁피드	-12198
▁ㅅㅓㄲㅇㅕ	-12199
▁코스타리카	-12200
▁ㅇㅏㅆㅇㅓㅆ	-12201
▁네티	-12202
▁문종	-12203
▁ㄴㅓㄴ	-12204
▁자서전	-12205
▁산티아고	-12206
걸이	-12207
▁교부	-12208
▁매리	-12209
▁시비	-12210
▁전세	-12211
▁치유	-12212
▁서해안	-12213
▁어웨이	-12214
▁천안시	-12215
▁헤이안	-12216
▁에른스트	-12217
▁ㅇㅕㄴㅎㅏㄴ	-12218
단지	-12219
amp	-12220
▁고온	-12221
▁동향	-12222
▁위력	-12223
▁리믹스	-12224
▁브뤼셀	-12225
▁시트콤	-12226
계승	-12227
니파	-12228
셀러	-12229
웍스	-12230
▁양대	-12231
▁조영	-12232
▁타로	-12233
▁피우	-12234
▁법조인	-12235
▁함경북도	-12236
▁렛	-12237
▁각료	-12238
▁김선	-12239
▁내분	-12240
▁성악	-12241
▁순차	-12242
▁우연	-12243
▁데이브	-12244
▁발전기	-12245
▁푸에르토리코	-12246
LA	-12247
익스	-12248
▁노아	-12249
▁슈테	-12250
▁스콜	-12251
▁주성	-12252
▁호아	-12253
▁텔레콤	-12254
▁ㅁㅗㄹㅇㅏ	-12255
▁ㄲㅡㅌㄴㅏㅆ	-12256
RT	-12257
▁거지	-12258
▁공안	-12259
▁꾀하	-12260
▁모차	-12261
▁브릿	-12262
▁정몽	-12263
▁ㅇㅜㄹ	-12264
▁유학자	-12265
▁육군사관학교	-12266
▁금전	-12267
▁내무	-12268
▁세련	-12269
▁습관	-12270
▁증오	-12271
▁포르노	-12272
▁복음주의	-12273
▁쿠웨이트	-12274
▁맬	-12275
어넣	-12276
▁결핵	-12277
▁김윤	-12278
▁박성	-12279
▁아흐	-12280
▁압록	-12281
▁잔인	-12282
▁펠릭스	-12283
▁ㄲㅡㅌㄴㅏㄹ	-12284
북구	-12285
▁리튬	-12286
▁분사	-12287
▁켄트	-12288
▁폐렴	-12289
▁ㅁㅜㄴ	-12290
▁위안부	-12291
▁윗부분	-12292
▁1893	-12293
▁김승	-12294
▁능동	-12295
▁안무	-12296
▁정재	-12297
▁출자	-12298
▁코네	-12299
▁280	-12300
▁IOC	-12301
▁장로교	-12302
▁가고시마	-12303
▁루이지애나	-12304
▁늪	-12305
▁영천	-12306
▁천마	-12307
▁측량	-12308
▁칭송	-12309
▁학장	-12310
▁해왕	-12311
▁후유	-12312
▁203	-12313
▁ㅎㅜㅁ	-12314
▁결과물	-12315
▁서사시	-12316
퍼레이션	-12317
게임	-12318
▁le	-12319
▁문무	-12320
▁배드	-12321
▁서주	-12322
▁수량	-12323
▁유족	-12324
▁이황	-12325
▁이회	-12326
▁축전	-12327
▁함흥	-12328
▁ㄷㅗㄹ	-12329
▁여성주의	-12330
▁탄자니아	-12331
▁ㅈㅓㅇㅎㅐㅆ	-12332
gr	-12333
▁Fe	-12334
▁백악	-12335
▁점거	-12336
▁퍼즐	-12337
▁화장품	-12338
▁이탈리아어	-12339
OW	-12340
세유	-12341
▁리코	-12342
▁생리	-12343
▁심포	-12344
▁전학	-12345
▁접종	-12346
▁척도	-12347
▁하타	-12348
▁흡사	-12349
▁국철	-12350
▁조제	-12351
▁천천	-12352
▁한번	-12353
로이드	-12354
▁ㅊㅣㄹ	-12355
▁민병대	-12356
▁마이크로	-12357
ung	-12358
▁관우	-12359
▁긴밀	-12360
▁배양	-12361
▁선인	-12362
▁소대	-12363
▁원활	-12364
▁차츰	-12365
▁톰슨	-12366
▁교육자	-12367
▁도자기	-12368
▁로베르	-12369
▁부르고	-12370
▁트리오	-12371
▁해안가	-12372
▁갯	-12373
몬트	-12374
상시	-12375
▁Mo	-12376
▁금동	-12377
▁레프	-12378
▁이아	-12379
▁첼로	-12380
▁편향	-12381
▁해치	-12382
▁그만큼	-12383
▁서초구	-12384
▁유적지	-12385
▁ㅇㅓㅆㅇㅓㅆ	-12386
▁놈	-12387
화학	-12388
les	-12389
▁전락	-12390
▁충무	-12391
▁톡	-12392
▁라카	-12393
▁박상	-12394
▁온화	-12395
▁짐승	-12396
▁피크	-12397
▁한큐	-12398
▁헤로	-12399
▁노미야	-12400
▁어긋나	-12401
▁Comp	-12402
▁NP	-12403
▁고집	-12404
▁관성	-12405
▁대종	-12406
▁도우	-12407
▁분단	-12408
▁조니	-12409
▁집착	-12410
라이드	-12411
▁데일리	-12412
▁비스타	-12413
▁아라곤	-12414
▁천천히	-12415
▁후쿠오카현	-12416
ㅋㅏ	-12417
▁불경	-12418
▁우두	-12419
▁주심	-12420
▁한문	-12421
▁헌터	-12422
▁ㄷㅏㅇㅎㅏㄹ	-12423
독립	-12424
▁데드	-12425
레드	-12426
티에	-12427
▁김천	-12428
▁마타	-12429
▁버섯	-12430
▁아츠	-12431
▁앤디	-12432
▁칼슘	-12433
▁Rock	-12434
▁Univers	-12435
ㄸㅓ	-12436
▁김치	-12437
▁바울	-12438
▁도야마	-12439
▁동맹국	-12440
▁스포르	-12441
▁플랑크	-12442
▁ㅅㅏㄹㅍㅕ	-12443
▁미성	-12444
▁주세	-12445
▁탈취	-12446
▁Car	-12447
▁강화도	-12448
▁녹색당	-12449
▁불계승	-12450
▁컬렉션	-12451
aw	-12452
▁핏	-12453
▁노랑	-12454
▁에마	-12455
▁전미	-12456
▁하급	-12457
루이스	-12458
▁TBS	-12459
▁접어들	-12460
▁레인저스	-12461
eth	-12462
▁간직	-12463
▁도이	-12464
▁버러	-12465
▁아메	-12466
▁장녀	-12467
▁동맹군	-12468
▁철저히	-12469
▁촐	-12470
▁Am	-12471
▁공양	-12472
▁림프	-12473
▁정반	-12474
▁합하	-12475
▁휴양	-12476
▁ㅁㅗㄹ	-12477
▁발사체	-12478
▁심부	-12479
▁우울증	-12480
▁미나모토	-12481
▁참모총장	-12482
oth	-12483
▁격려	-12484
▁도출	-12485
▁라흐	-12486
▁애인	-12487
▁오하	-12488
▁월트	-12489
▁페더	-12490
▁초콜릿	-12491
▁픽처스	-12492
익스피어	-12493
▁도카이도	-12494
들러	-12495
업자	-12496
▁시속	-12497
▁점검	-12498
▁Rec	-12499
▁셰익스피어	-12500
▁과시	-12501
▁라즈	-12502
▁소사	-12503
▁심상	-12504
▁자진	-12505
▁현판	-12506
▁황산	-12507
▁GNU	-12508
▁베르타	-12509
▁에스페란토	-12510
▁AB	-12511
▁이우	-12512
▁Sup	-12513
▁고려대	-12514
▁순양함	-12515
▁인공위성	-12516
▁플로리다주	-12517
▁갚	-12518
폭탄	-12519
▁강진	-12520
▁낚시	-12521
▁당뇨	-12522
▁명인	-12523
▁미츠	-12524
▁숨기	-12525
▁에로	-12526
▁230	-12527
▁로스쿨	-12528
▁스탠리	-12529
▁from	-12530
▁부르고뉴	-12531
▁ㄴㅏㄹㅋㅏ	-12532
▁핼	-12533
▁혀	-12534
▁ㄱㅟ	-12535
▁노프	-12536
▁막판	-12537
▁사상가	-12538
ublic	-12539
▁유영	-12540
민스터	-12541
▁게오르	-12542
▁케이크	-12543
▁중앙은행	-12544
ㅂㅘ	-12545
국적	-12546
▁구독	-12547
▁마트	-12548
▁지바현	-12549
▁가와사키	-12550
▁ㅂㅏㄹㄹㅏ	-12551
▁귀속	-12552
▁까마	-12553
▁무단	-12554
▁바비	-12555
▁스킴	-12556
▁이범	-12557
▁파편	-12558
▁프리스	-12559
▁가르시아	-12560
▁마르세유	-12561
▁IV	-12562
▁기쁨	-12563
▁상정	-12564
▁심문	-12565
▁피사	-12566
▁대진	-12567
▁서스	-12568
▁기업가	-12569
태평	-12570
헤드	-12571
▁Do	-12572
▁대차	-12573
▁미아	-12574
▁배역	-12575
▁울릉	-12576
▁향기	-12577
▁서바이	-12578
▁1888	-12579
▁상관없이	-12580
▁율리우스	-12581
▁ㄷㅏㄹㄹㅏㅆ	-12582
▁가부	-12583
▁반동	-12584
▁발목	-12585
▁청량	-12586
▁톱니	-12587
▁특사	-12588
▁페오	-12589
▁로빈슨	-12590
▁견고	-12591
▁겹치	-12592
▁구금	-12593
▁구치	-12594
▁스투	-12595
▁시우	-12596
▁청송	-12597
▁경계선	-12598
▁노스캐롤라이나	-12599
ㄹㅔ	-12600
유사	-12601
트르	-12602
▁닉슨	-12603
▁백자	-12604
▁슈타	-12605
▁용품	-12606
▁운임	-12607
▁유포	-12608
▁로이드	-12609
▁세비야	-12610
▁쇠고기	-12611
▁이바라	-12612
AI	-12613
▁아와	-12614
▁흥분	-12615
▁수나라	-12616
▁펠리페	-12617
▁대접	-12618
▁명부	-12619
▁산수	-12620
▁국제선	-12621
▁하이퍼	-12622
바리	-12623
▁Su	-12624
▁대주	-12625
▁사키	-12626
▁글래스	-12627
▁애덤스	-12628
▁평안도	-12629
▁Sw	-12630
▁ar	-12631
▁감싸	-12632
▁메틸	-12633
▁붕어	-12634
▁사커	-12635
▁1892	-12636
▁공법	-12637
▁무르	-12638
▁시문	-12639
▁에바	-12640
▁입헌	-12641
▁재차	-12642
▁다이빙	-12643
▁산스크	-12644
▁지켜보	-12645
▁찾아내	-12646
▁박테리아	-12647
▁ㅇㅣㅅㄸㅏ	-12648
▁산스크리트	-12649
그마	-12650
▁동종	-12651
▁리차	-12652
▁수차례	-12653
▁허드슨	-12654
▁우에스기	-12655
▁푹	-12656
▁제창	-12657
▁제철	-12658
▁코사	-12659
▁펠트	-12660
▁다카라	-12661
▁대전차	-12662
▁소학교	-12663
▁절도사	-12664
▁케이트	-12665
▁프로모	-12666
▁러시아군	-12667
둘기	-12668
자동	-12669
▁낙양	-12670
▁농축	-12671
▁새뮤	-12672
▁연회	-12673
▁유무	-12674
▁조롱	-12675
▁ㅂㅔㄹ	-12676
▁문자열	-12677
▁ㄷㅏㄷㅎㅣㄴ	-12678
비크	-12679
티노	-12680
▁견디	-12681
▁모던	-12682
▁사변	-12683
미디어	-12684
▁대명사	-12685
암리	-12686
연수	-12687
홍색	-12688
▁계량	-12689
▁물결	-12690
▁산청	-12691
▁어의	-12692
▁온대	-12693
▁대공국	-12694
▁스테판	-12695
▁데스크톱	-12696
▁미식	-12697
▁자립	-12698
▁재발	-12699
▁공방전	-12700
▁ㅆㅓㅆㅇㅡ	-12701
AE	-12702
▁납부	-12703
▁니켈	-12704
▁데미	-12705
▁웃음	-12706
▁해병	-12707
▁ㅅㅓㅆ	-12708
보리	-12709
▁고스	-12710
▁옥타	-12711
▁하임	-12712
▁레이디	-12713
▁ㅈㅓㅂㅎㅐ	-12714
▁펩	-12715
▁CG	-12716
▁IR	-12717
▁공시	-12718
▁완도	-12719
▁위계	-12720
▁주먹	-12721
▁직계	-12722
▁카야	-12723
▁더블린	-12724
▁차세대	-12725
▁활동가	-12726
▁프레임워크	-12727
▁wh	-12728
▁강성	-12729
▁군데	-12730
▁불사	-12731
▁생모	-12732
▁선양	-12733
▁자코	-12734
▁조개	-12735
▁중고	-12736
▁볼로냐	-12737
▁스탠드	-12738
▁앤서니	-12739
▁조선왕	-12740
ah	-12741
▁나뭇	-12742
▁복싱	-12743
▁침례	-12744
▁터지	-12745
▁논리학	-12746
▁북조선	-12747
▁사간원	-12748
▁성매매	-12749
▁1866	-12750
▁1876	-12751
광성	-12752
▁간혹	-12753
▁배기	-12754
▁소동	-12755
▁손녀	-12756
로니아	-12757
▁관현악	-12758
▁아브라	-12759
▁지리학	-12760
▁페르난도	-12761
▁ㅈㅜㄱㅇㅕ	-12762
▁가면라이더	-12763
▁로브	-12764
▁알폰	-12765
▁이나	-12766
▁이산	-12767
▁지난	-12768
▁축성	-12769
▁토이	-12770
▁올리버	-12771
ㅂㅎㅏㄴ	-12772
▁베네딕토	-12773
▁프린스턴	-12774
▁펫	-12775
너드	-12776
▁순례	-12777
▁이봉	-12778
▁전권	-12779
▁ㄱㅏㅌ	-12780
▁고려사	-12781
▁보좌관	-12782
▁서기관	-12783
▁세네갈	-12784
▁후원자	-12785
▁1886	-12786
네트	-12787
뮬러	-12788
▁군관	-12789
▁두려	-12790
▁세레	-12791
▁장래	-12792
▁Gre	-12793
▁알렉산드로스	-12794
네임	-12795
▁원유	-12796
▁USB	-12797
▁ㅊㅜㄹ	-12798
▁도르트	-12799
▁전주시	-12800
▁웨스트민스터	-12801
로쿠	-12802
EST	-12803
▁두각	-12804
▁애초	-12805
▁재앙	-12806
▁저우	-12807
▁통폐	-12808
▁파파	-12809
르타뉴	-12810
▁헤라클	-12811
▁구스타프	-12812
▁브르타뉴	-12813
▁뱃	-12814
분열	-12815
사태	-12816
▁co	-12817
▁바시	-12818
▁송환	-12819
▁채색	-12820
▁포탄	-12821
▁풍습	-12822
▁ㅈㅏㄴ	-12823
▁교구장	-12824
▁생리학	-12825
▁이즈미	-12826
▁ㄲㅡㅌㄴㅐㅆ	-12827
▁라드	-12828
▁반주	-12829
▁불러	-12830
▁아디	-12831
▁죄수	-12832
▁카레	-12833
▁브래드	-12834
▁베이시스트	-12835
큐어	-12836
▁거룩	-12837
▁미미	-12838
▁번갈	-12839
▁부양	-12840
▁수력	-12841
▁임계	-12842
▁초전	-12843
▁파커	-12844
▁펀드	-12845
▁합천	-12846
▁드미트리	-12847
▁댓글	-12848
▁발의	-12849
▁조소	-12850
▁260	-12851
▁ㅇㅕㅅ	-12852
▁바이어	-12853
▁사단장	-12854
▁조나라	-12855
▁덱	-12856
직경	-12857
코르	-12858
▁긴키	-12859
▁대금	-12860
▁마나	-12861
▁신진	-12862
▁Tour	-12863
▁인플레이션	-12864
레시	-12865
▁두드	-12866
▁살라	-12867
▁소용	-12868
▁270	-12869
▁게시판	-12870
▁새뮤얼	-12871
▁시직경	-12872
▁장제스	-12873
▁펭	-12874
▁깃털	-12875
▁너스	-12876
▁서예	-12877
▁ㄴㅜㄴ	-12878
▁ㅋㅣㄹ	-12879
▁보살상	-12880
▁스테인	-12881
▁마린	-12882
▁메스	-12883
▁앨리	-12884
▁음운	-12885
▁일진	-12886
▁간사이	-12887
▁경영학	-12888
▁독립군	-12889
▁코소보	-12890
▁뮐	-12891
우회	-12892
ron	-12893
▁도하	-12894
▁맥아	-12895
▁아자	-12896
▁유다	-12897
▁제르	-12898
▁퇴위	-12899
▁필하	-12900
▁현과	-12901
▁삼각주	-12902
▁1887	-12903
▁당황	-12904
▁면모	-12905
▁약점	-12906
▁강서구	-12907
▁축구팀	-12908
▁통폐합	-12909
꿈치	-12910
철수	-12911
▁모라	-12912
▁위패	-12913
▁포츠	-12914
▁금나라	-12915
▁이어주	-12916
▁카운트	-12917
▁페미니	-12918
▁ㄷㅓㅅㅂㅜㅌㅇㅕㅆ	-12919
라호	-12920
▁구르	-12921
▁수하	-12922
▁프루	-12923
리카락	-12924
▁Wii	-12925
▁화요일	-12926
▁머리카락	-12927
▁브리티시	-12928
▁집행유예	-12929
슈타	-12930
왕후	-12931
ave	-12932
▁ML	-12933
▁경무	-12934
▁도제	-12935
▁산물	-12936
▁코호	-12937
▁갑작스	-12938
▁서포터	-12939
▁유전학	-12940
▁도미니카	-12941
클라	-12942
ble	-12943
▁도약	-12944
▁박수	-12945
▁비지	-12946
▁오산	-12947
▁유능	-12948
▁조현	-12949
▁펠로	-12950
land	-12951
▁근거지	-12952
▁덩어리	-12953
▁사절단	-12954
▁용의자	-12955
▁마르쿠스	-12956
19	-12957
쓰기	-12958
▁동창	-12959
▁레트	-12960
▁에두	-12961
▁원상	-12962
▁자궁	-12963
▁부분군	-12964
▁역사학	-12965
▁모차르트	-12966
코타	-12967
▁본체	-12968
▁부류	-12969
▁출혈	-12970
▁1861	-12971
▁Dream	-12972
▁ㅇㅕㄹㄹㅕ	-12973
제비	-12974
▁Up	-12975
▁it	-12976
▁고창	-12977
▁도성	-12978
▁중개	-12979
▁직사	-12980
▁행방	-12981
▁ㅅㅗㄴ	-12982
▁단거리	-12983
▁가로지르	-12984
▁재단법인	-12985
비안	-12986
▁KB	-12987
▁무수	-12988
▁버크	-12989
▁여타	-12990
▁사쓰마	-12991
▁프리미엄	-12992
하임	-12993
▁배척	-12994
▁사내	-12995
▁엘런	-12996
▁편안	-12997
▁SV	-12998
▁악곡	-12999
▁유머	-13000
▁유타	-13001
▁타구	-13002
▁주니치	-13003
▁Life	-13004
▁돌아다니	-13005
▁ㄱㅏㅈㅊㅝ	-13006
▁ㅁㅗㄹㄹㅏㅆ	-13007
▁놓이	-13008
▁물류	-13009
▁형용	-13010
▁베이비	-13011
▁황해도	-13012
▁볼티모어	-13013
▁클레멘스	-13014
짜기	-13015
▁모닝	-13016
▁세분	-13017
▁완결	-13018
▁이호	-13019
▁민영화	-13020
▁해결책	-13021
▁1864	-13022
▁석가모니	-13023
▁가닥	-13024
▁기밀	-13025
▁성기	-13026
▁수이	-13027
▁지아	-13028
▁오대	-13029
▁왕관	-13030
▁데이빗	-13031
▁장애물	-13032
▁좌표계	-13033
ult	-13034
▁구문	-13035
▁불분	-13036
▁세무	-13037
▁승단	-13038
▁장전	-13039
▁백악기	-13040
▁스트리밍	-13041
DA	-13042
라르	-13043
콘신	-13044
▁급히	-13045
▁라시	-13046
▁익명	-13047
▁공연장	-13048
▁음악원	-13049
▁위스콘신	-13050
▁SH	-13051
▁교지	-13052
▁내포	-13053
▁박자	-13054
▁오지	-13055
▁올레	-13056
▁포화	-13057
▁환관	-13058
▁당선자	-13059
플린	-13060
▁과연	-13061
▁광선	-13062
▁모국	-13063
▁오메	-13064
▁홀딩	-13065
ㄴㅜㄴ	-13066
▁ㄹㅓㄴ	-13067
▁신세계	-13068
▁프랑코	-13069
▁홈경기	-13070
▁다카라즈카	-13071
열차	-13072
즐리	-13073
▁RT	-13074
▁발톱	-13075
▁습득	-13076
▁지면	-13077
솔리니	-13078
▁코스트	-13079
▁남베트남	-13080
▁슬램	-13081
▁페스	-13082
▁홍성	-13083
▁바로크	-13084
▁아무리	-13085
▁후세인	-13086
▁1850	-13087
▁마구	-13088
▁매달	-13089
▁천지	-13090
▁특기	-13091
▁평탄	-13092
▁모나코	-13093
▁마을버스	-13094
ational	-13095
▁TC	-13096
▁과잉	-13097
▁양현	-13098
▁오일	-13099
▁잔디	-13100
▁정예	-13101
▁집정관	-13102
EP	-13103
▁나름	-13104
▁실각	-13105
▁암모	-13106
▁추존	-13107
ition	-13108
▁1881	-13109
▁ㄷㅏㅇㅎㅐㅆㅇㅡ	-13110
진우	-13111
orm	-13112
▁ㄴㅛ	-13113
▁위시	-13114
▁쿼크	-13115
▁허블	-13116
▁생성물	-13117
▁컨텐츠	-13118
▁행정동	-13119
디슨	-13120
브웨	-13121
▁레버	-13122
▁리트	-13123
▁무자	-13124
▁자릿	-13125
▁증세	-13126
▁철강	-13127
▁촛불	-13128
▁파직	-13129
▁홈즈	-13130
바도르	-13131
▁네티즌	-13132
▁뛰어넘	-13133
▁참의원	-13134
▁토트넘	-13135
▁깁	-13136
▁렙	-13137
▁구례	-13138
▁만점	-13139
▁몰두	-13140
▁복위	-13141
▁워킹	-13142
▁짐바	-13143
▁하얀	-13144
▁개정안	-13145
▁사나이	-13146
▁경건	-13147
▁마요	-13148
▁백업	-13149
▁스모	-13150
▁토목	-13151
▁혼혈	-13152
▁요금소	-13153
▁if	-13154
▁히토	-13155
▁카이로	-13156
ㄱㅎㅕㅆ	-13157
다오	-13158
동자	-13159
▁객원	-13160
▁관내	-13161
▁리에	-13162
▁삼척	-13163
▁푸아	-13164
▁가라앉	-13165
▁노동력	-13166
▁대교구	-13167
▁크리에이	-13168
ton	-13169
▁괘불	-13170
▁다행	-13171
▁차수	-13172
▁카와	-13173
▁유니버스	-13174
▁Music	-13175
▁돗	-13176
린트	-13177
▁en	-13178
▁군세	-13179
▁외환	-13180
▁1830	-13181
ㅈㅜ	-13182
예술	-13183
▁근래	-13184
▁방공	-13185
▁아타	-13186
▁여건	-13187
▁이력	-13188
▁잠실	-13189
▁재결	-13190
라호마	-13191
▁도라에몽	-13192
▁컴파일러	-13193
▁오클라호마	-13194
▁ㅁㅏㄴㄴㅏㄹ	-13195
니오	-13196
뛰기	-13197
▁ㅇㅝ	-13198
▁공판	-13199
▁도산	-13200
▁뷰티	-13201
▁에반	-13202
▁무작위	-13203
▁외무부	-13204
▁카르타고	-13205
렌스	-13206
▁구획	-13207
▁동차	-13208
▁산기	-13209
▁쓰루	-13210
▁자판	-13211
▁재판관	-13212
아메리카	-13213
▁두려워하	-13214
▁루스벨트	-13215
▁ㄴㅗㅍㅇㅕㅆ	-13216
▁AG	-13217
▁계보	-13218
▁소라	-13219
▁코난	-13220
▁가해자	-13221
▁아카이	-13222
▁ㄱㅕㄴㄷ	-13223
▁XP	-13224
▁남조	-13225
▁매진	-13226
▁스몰	-13227
▁승하	-13228
▁예의	-13229
▁왕성	-13230
▁판관	-13231
▁ㅂㅔㄴ	-13232
▁관련자	-13233
▁화성시	-13234
▁미네소타	-13235
화경	-13236
▁강세	-13237
▁러닝	-13238
▁말단	-13239
▁민물	-13240
▁오우	-13241
▁요괴	-13242
▁응하	-13243
▁전리	-13244
▁헌납	-13245
▁iOS	-13246
▁대표단	-13247
▁재판부	-13248
른베르크	-13249
▁ㄴㅐㅆㅇㅡ	-13250
ㅍㅏ	-13251
▁침대	-13252
ject	-13253
▁프란치스코	-13254
▁뭐	-13255
▁경도	-13256
▁뒤늦	-13257
▁파주	-13258
▁황자	-13259
▁마르셀	-13260
▁보너스	-13261
▁야구단	-13262
▁장난감	-13263
▁다비	-13264
▁미상	-13265
▁벌레	-13266
▁아편	-13267
▁재벌	-13268
▁흘리	-13269
▁로맨틱	-13270
▁보안법	-13271
▁압록강	-13272
▁여학생	-13273
▁헤라클레스	-13274
평리	-13275
▁목욕	-13276
▁스윙	-13277
▁승지	-13278
▁익산	-13279
▁팔작	-13280
▁현미	-13281
라이어티	-13282
▁세르게이	-13283
▁버라이어티	-13284
ㄱㅜ	-13285
림사	-13286
ION	-13287
▁Ed	-13288
▁남송	-13289
▁당진	-13290
▁스기	-13291
▁이별	-13292
▁정황	-13293
▁파열	-13294
▁패권	-13295
▁Open	-13296
▁ㄲㅡㅌㄴㅏㄴㄷㅏ	-13297
타입	-13298
▁김희	-13299
▁마티	-13300
▁발포	-13301
▁애슬	-13302
▁농어촌	-13303
▁바람직	-13304
▁반대파	-13305
▁불분명	-13306
▁1872	-13307
▁훔	-13308
달마	-13309
비오	-13310
▁DR	-13311
▁루나	-13312
▁몸돌	-13313
▁별장	-13314
▁세간	-13315
▁양조	-13316
▁이누	-13317
▁켄터	-13318
▁쿠로	-13319
▁감리교	-13320
▁모멘트	-13321
▁ㅃㅗㅂㅎㅕㅆ	-13322
▁an	-13323
▁고모	-13324
▁관용	-13325
▁금고	-13326
슬라프	-13327
▁까마귀	-13328
▁이메일	-13329
▁주나라	-13330
▁이시카와	-13331
▁ㅁㅜㄷㅎㅕ	-13332
께끼	-13333
▁닛산	-13334
▁발자	-13335
▁신봉	-13336
▁용사	-13337
▁이은	-13338
▁조경	-13339
▁흑백	-13340
▁750	-13341
▁수수께끼	-13342
▁트레이닝	-13343
▁te	-13344
▁승상	-13345
▁종묘	-13346
▁트란	-13347
ㄱㅅㅡ	-13348
▁라치오	-13349
▁무솔리니	-13350
▁유라시아	-13351
덕왕	-13352
두르	-13353
▁BL	-13354
▁교동	-13355
▁베일	-13356
▁빅뱅	-13357
▁시원	-13358
▁알맞	-13359
▁종업	-13360
▁태우	-13361
▁ㄹㅏㄱ	-13362
▁라이스	-13363
▁롬바르	-13364
▁합창단	-13365
▁대중교통	-13366
▁부다페스트	-13367
리드	-13368
▁배트	-13369
▁부전	-13370
▁콘티	-13371
▁햇빛	-13372
▁허목	-13373
▁초록색	-13374
▁피닉스	-13375
어드	-13376
▁경매	-13377
▁양면	-13378
▁원동	-13379
▁조심	-13380
▁다비드	-13381
▁센다이	-13382
▁화학자	-13383
▁대한항공	-13384
나파	-13385
ics	-13386
▁경량	-13387
▁꼬마	-13388
▁등등	-13389
▁레비	-13390
▁레아	-13391
▁모란	-13392
▁브렌	-13393
▁샤이	-13394
▁음주	-13395
▁전교	-13396
▁중랑	-13397
브리드	-13398
▁Don	-13399
▁세군다	-13400
▁하얀색	-13401
ru	-13402
더지	-13403
▁가든	-13404
▁교제	-13405
▁기고	-13406
▁생도	-13407
▁접합	-13408
▁주고	-13409
▁탄산	-13410
▁범죄자	-13411
▁아이콘	-13412
▁호크스	-13413
▁낭만주의	-13414
▁ㅇㅕㄹㄹㅣㄹ	-13415
데자	-13416
쿠니	-13417
▁도봉	-13418
▁반죽	-13419
▁발산	-13420
▁복역	-13421
▁티모	-13422
▁청년회	-13423
▁파충류	-13424
데자네이	-13425
▁ㄱㅏㅌㅇㅣ	-13426
▁도르트문트	-13427
▁엡	-13428
ier	-13429
▁두어	-13430
▁순항	-13431
▁야망	-13432
▁옹주	-13433
▁의용	-13434
▁탐험가	-13435
▁부르주아	-13436
▁튼	-13437
▁"-	-13438
▁가독	-13439
▁그란	-13440
▁대강	-13441
▁삭스	-13442
▁오트	-13443
▁장쑤	-13444
▁개체군	-13445
▁1863	-13446
리야	-13447
바인	-13448
번에	-13449
▁Ab	-13450
▁납작	-13451
▁넥센	-13452
▁보정	-13453
▁복직	-13454
ㅂㅈㅏ	-13455
태평양	-13456
▁작품상	-13457
▁1865	-13458
ㅂㅈㅏㄱㅅㅡ	-13459
▁ㅍㅕㅇㅎㅐㅆ	-13460
▁쵸	-13461
▁Sm	-13462
▁불타	-13463
▁인제	-13464
▁친밀	-13465
▁캐피	-13466
▁투하	-13467
▁계승자	-13468
▁도망치	-13469
▁밀가루	-13470
▁박영효	-13471
▁HTML	-13472
▁하이브리드	-13473
단위	-13474
리쿠	-13475
워즈	-13476
클럽	-13477
▁과다	-13478
▁닌자	-13479
▁단국	-13480
▁덴쇼	-13481
▁배향	-13482
▁변종	-13483
▁슈고	-13484
▁의례	-13485
▁지경	-13486
▁필연	-13487
▁격투기	-13488
루크	-13489
▁이례	-13490
▁페라	-13491
▁편제	-13492
▁피카	-13493
▁다시금	-13494
▁유전체	-13495
▁챌린저	-13496
▁공군기지	-13497
▁탐정	-13498
▁피셔	-13499
▁Night	-13500
▁ㄴㅡㄹㄹㅕ	-13501
매김	-13502
ode	-13503
▁곱셈	-13504
▁조시	-13505
▁경복궁	-13506
▁시간대	-13507
▁유니언	-13508
▁ㄱㅓㄹㄹㅣㄴㄷㅏ	-13509
▁기통	-13510
▁당과	-13511
▁봉황	-13512
▁섬기	-13513
▁어촌	-13514
▁코마	-13515
▁승정원	-13516
▁항아리	-13517
▁1891	-13518
▁교통사고	-13519
▁아이디얼	-13520
데자네이루	-13521
▁리우데자네이루	-13522
▁ㅇㅖ	-13523
▁작년	-13524
▁진흙	-13525
▁클릭	-13526
▁태아	-13527
▁우간다	-13528
▁타임즈	-13529
▁오카야마	-13530
▁ㅁㅏㅌㄱㅕㅆ	-13531
▁ㅈㅣㄴㅎㅏㄴ	-13532
훈장	-13533
ool	-13534
▁메츠	-13535
▁이니	-13536
▁ret	-13537
▁고성군	-13538
▁기획사	-13539
▁발기인	-13540
▁조선소	-13541
▁켄터키	-13542
▁감추	-13543
▁경마	-13544
▁곡면	-13545
▁완비	-13546
▁철종	-13547
리아스	-13548
▁앤드류	-13549
▁여진족	-13550
TE	-13551
▁AL	-13552
▁대목	-13553
▁애완	-13554
▁엄청	-13555
▁여호	-13556
▁처방	-13557
▁포대	-13558
▁세계유산	-13559
▁짐바브웨	-13560
▁베스트셀러	-13561
▁ㅇㅕㅆㅇㅡㅁㅇㅡㄹ	-13562
타스	-13563
▁란스	-13564
▁배아	-13565
▁법전	-13566
▁선율	-13567
▁요즘	-13568
▁청문	-13569
▁카슈	-13570
▁픽셀	-13571
▁안산시	-13572
▁해석학	-13573
▁자리매김	-13574
QL	-13575
UC	-13576
친왕	-13577
▁--	-13578
▁가두	-13579
▁거스	-13580
▁경지	-13581
▁대의	-13582
▁미인	-13583
▁조공	-13584
▁받침돌	-13585
▁자유형	-13586
▁1873	-13587
▁오스트리	-13588
▁려	-13589
ise	-13590
▁살짝	-13591
▁직관	-13592
▁수시로	-13593
▁반점	-13594
▁시진	-13595
▁여대	-13596
▁코뮌	-13597
▁혈압	-13598
이스케	-13599
▁몰도바	-13600
▁ㅇㅏㅍㅅㅓㄴ	-13601
▁구강	-13602
▁리브	-13603
▁매립	-13604
▁매스	-13605
▁상파	-13606
▁해킹	-13607
▁노르드	-13608
▁다국적	-13609
▁릴레이	-13610
▁ㅇㅓㄺㅎ	-13611
▁온타리오주	-13612
ai	-13613
▁샨	-13614
▁씻	-13615
쿠르	-13616
▁NS	-13617
▁도도	-13618
▁마모	-13619
▁조장	-13620
올로기	-13621
▁와이드	-13622
▁제너럴	-13623
▁테무르	-13624
▁이데올로기	-13625
미쓰	-13626
▁거꾸	-13627
▁손꼽	-13628
▁쇼크	-13629
▁왓슨	-13630
▁입시	-13631
▁취향	-13632
동맹	-13633
che	-13634
▁굴복	-13635
▁단자	-13636
▁잡히	-13637
▁파기	-13638
▁포항시	-13639
레반	-13640
▁계좌	-13641
▁내재	-13642
▁등단	-13643
▁신대	-13644
▁정명	-13645
▁충당	-13646
▁킹스	-13647
▁필두	-13648
stem	-13649
▁MA	-13650
▁루즈	-13651
▁어는	-13652
▁열렬	-13653
▁자켓	-13654
▁재고	-13655
▁한창	-13656
▁현무	-13657
부아르	-13658
▁난이도	-13659
▁승용차	-13660
▁시티즌	-13661
▁팔작지붕	-13662
▁Black	-13663
린더	-13664
▁리키	-13665
▁부실	-13666
▁착취	-13667
▁촉발	-13668
▁합금	-13669
합중국	-13670
▁제프리	-13671
무제	-13672
▁걸작	-13673
▁튼튼	-13674
플렉스	-13675
▁발가락	-13676
▁알아내	-13677
세다	-13678
▁고마	-13679
▁과격	-13680
▁교서	-13681
▁국호	-13682
▁라크	-13683
▁반항	-13684
▁인위	-13685
▁입술	-13686
▁적발	-13687
▁해시	-13688
ower	-13689
▁Can	-13690
▁슬로건	-13691
▁믈	-13692
▁리자	-13693
▁분경	-13694
▁외상	-13695
▁페인	-13696
▁공통점	-13697
▁백악관	-13698
70	-13699
킨슨	-13700
▁PM	-13701
▁계엄	-13702
▁라면	-13703
▁모함	-13704
▁버펄	-13705
▁볼넷	-13706
▁불로	-13707
▁체내	-13708
▁키즈	-13709
▁공식전	-13710
▁Good	-13711
▁스테이트	-13712
▁야쿠르트	-13713
ㅇㅗㄹㄹㅏㅆ	-13714
▁section	-13715
NG	-13716
바지	-13717
성경	-13718
진구	-13719
▁광배	-13720
▁단조	-13721
▁서위	-13722
▁양양	-13723
▁조준	-13724
▁최장	-13725
▁토유	-13726
▁헤어	-13727
ㅈㅏㅇ	-13728
▁선제골	-13729
ㄷㅏㄹㄹㅕㅆ	-13730
▁네임	-13731
▁신의	-13732
▁유태	-13733
▁토로	-13734
▁헌병	-13735
▁그나마	-13736
▁트로트	-13737
▁삼국유사	-13738
▁아비달마	-13739
▁이바라키	-13740
▁구시	-13741
▁산책	-13742
▁양궁	-13743
▁위법	-13744
▁터빈	-13745
▁파랑	-13746
선거구	-13747
▁다마스	-13748
ㄴㅣㄴㄱㅏ	-13749
▁qu	-13750
▁당당	-13751
▁병과	-13752
▁부에	-13753
▁야심	-13754
▁에치	-13755
▁을사	-13756
▁이강	-13757
▁증강	-13758
▁하스	-13759
▁550	-13760
▁Let	-13761
▁종업원	-13762
▁두드러지	-13763
▁캐논	-13764
▁거꾸로	-13765
▁캐스트	-13766
▁q	-13767
▁El	-13768
▁머니	-13769
▁오즈	-13770
▁용감	-13771
▁현도	-13772
스코트	-13773
타나베	-13774
▁650	-13775
▁하반기	-13776
▁샵	-13777
▁MM	-13778
▁간판	-13779
▁국부	-13780
▁문정	-13781
▁연화	-13782
▁우마	-13783
▁채굴	-13784
드라마	-13785
▁국민회	-13786
▁아오모리	-13787
▁이노우에	-13788
▁피츠버그	-13789
▁코호몰로지	-13790
▁ㅇㅏㅍㄷㅜㄴ	-13791
내리	-13792
펠러	-13793
ank	-13794
▁광자	-13795
▁산신	-13796
▁아델	-13797
▁진원	-13798
▁후미	-13799
▁앨버트	-13800
▁1867	-13801
▁페르디난트	-13802
▁콧	-13803
▁AI	-13804
▁사하	-13805
▁조어	-13806
▁705	-13807
▁반정부	-13808
▁용산구	-13809
▁1862	-13810
▁무로마치	-13811
▁미합중국	-13812
방군	-13813
▁극찬	-13814
▁모반	-13815
▁진언	-13816
ings	-13817
▁김성수	-13818
▁알폰소	-13819
▁찾아가	-13820
▁괜	-13821
▁댈	-13822
▁맞춤	-13823
▁무도	-13824
▁앵커	-13825
▁온건	-13826
▁투신	-13827
▁활자	-13828
▁지자체	-13829
해살이풀	-13830
▁경은	-13831
▁농성	-13832
▁베풀	-13833
▁수퍼	-13834
▁ㅁㅓㅅ	-13835
▁경희대	-13836
▁변광성	-13837
▁증조부	-13838
▁폼페이	-13839
▁ㄱㅏㅂㅈㅏㄱㅅㅡ	-13840
상어	-13841
정사	-13842
▁소작	-13843
▁주저	-13844
▁황폐	-13845
▁흡연	-13846
▁미카엘	-13847
▁무고	-13848
▁박진	-13849
▁스테이	-13850
▁엑스포	-13851
▁국민학교	-13852
려들	-13853
▁AU	-13854
▁증발	-13855
▁통지	-13856
▁갈라지	-13857
▁손잡이	-13858
▁스코어	-13859
▁자외선	-13860
▁사이타마현	-13861
DS	-13862
▁스킬	-13863
▁연행	-13864
▁열쇠	-13865
▁조서	-13866
▁휩쓸	-13867
절도사	-13868
고르	-13869
렐라	-13870
티야	-13871
▁Ac	-13872
▁엘라	-13873
▁ㄱㅣㄹㄹㅓ	-13874
대전	-13875
▁세단	-13876
▁전멸	-13877
▁체하	-13878
▁IMF	-13879
▁레인저	-13880
▁사보이	-13881
▁크루즈	-13882
▁신한은행	-13883
포타	-13884
활약	-13885
▁광업	-13886
▁구슬	-13887
▁독주	-13888
▁옥시	-13889
▁온두	-13890
▁코모	-13891
세우스	-13892
▁MSL	-13893
▁노르만	-13894
▁언론사	-13895
▁타이탄	-13896
ㄱㅇㅣㄴ	-13897
▁온두라스	-13898
북면	-13899
▁대담	-13900
▁사교	-13901
▁양군	-13902
▁예종	-13903
▁쿠라	-13904
ㄱㅔㄴ	-13905
레타리아	-13906
▁프롤레타리아	-13907
▁ㅇㅜㅁㅈㅣㄱㅇㅣㄹ	-13908
▁캣	-13909
비언	-13910
센터	-13911
인구	-13912
▁걸프	-13913
▁꽃잎	-13914
▁병단	-13915
▁성수	-13916
▁심정	-13917
▁증식	-13918
▁타도	-13919
▁푸드	-13920
ㄷㅣㄴ	-13921
▁맹활약	-13922
▁연출가	-13923
▁조선왕조	-13924
▁ㄷㅡㄹㄹㅕ	-13925
▁군자	-13926
▁나사	-13927
▁나탈	-13928
▁노브	-13929
▁보직	-13930
▁북벌	-13931
▁위헌	-13932
▁감염증	-13933
▁출입문	-13934
▁페드로	-13935
포타미아	-13936
▁6000	-13937
▁메소포타미아	-13938
lar	-13939
▁LS	-13940
▁UC	-13941
▁서한	-13942
▁장신	-13943
▁충칭	-13944
▁캐치	-13945
▁사무국	-13946
▁일본식	-13947
▁편집장	-13948
tr	-13949
곡면	-13950
▁-&	-13951
▁잔존	-13952
▁키릴	-13953
▁기원후	-13954
▁다이노스	-13955
▁라이프치히	-13956
할린	-13957
▁간결	-13958
▁동탁	-13959
▁들리	-13960
▁버진	-13961
▁세토	-13962
▁신해	-13963
▁엘레	-13964
▁연달	-13965
▁유구	-13966
▁조석	-13967
▁취리히	-13968
▁컴파일	-13969
▁1878	-13970
▁협동조합	-13971
ky	-13972
▁기묘	-13973
▁시역	-13974
▁유망	-13975
▁연주회	-13976
▁치료제	-13977
참찬	-13978
▁완수	-13979
▁타타르	-13980
▁프로모션	-13981
사화	-13982
위치	-13983
퉁이	-13984
▁Qu	-13985
▁번개	-13986
▁저축	-13987
▁차림	-13988
▁필명	-13989
▁대리석	-13990
▁부여군	-13991
▁제조사	-13992
▁백과사전	-13993
▁미나모토노	-13994
▁ㅈㅜㄱㅇㅣㅁ	-13995
ta	-13996
▁밋	-13997
디언	-13998
젤로	-13999
▁가극	-14000
▁동자	-14001
▁상선	-14002
▁유림	-14003
▁이끼	-14004
rist	-14005
▁마그네	-14006
▁웨이브	-14007
▁홀딩스	-14008
▁궐	-14009
hem	-14010
▁강호	-14011
▁괄호	-14012
▁절약	-14013
▁지그	-14014
▁충신	-14015
▁HMS	-14016
▁Ser	-14017
▁사대부	-14018
▁신기록	-14019
▁이성질	-14020
▁ㄱㅔㄴㅈㅣ	-14021
▁스톰	-14022
▁직교	-14023
▁처장	-14024
▁피어	-14025
▁하중	-14026
▁낡	-14027
▁샴	-14028
▁논하	-14029
▁당파	-14030
▁자행	-14031
▁작중	-14032
▁히노	-14033
플로러	-14034
▁802	-14035
▁뉴기니	-14036
▁익스플로러	-14037
ee	-14038
빌리	-14039
산부	-14040
▁국력	-14041
▁바쿠	-14042
▁사드	-14043
▁옥천	-14044
▁자부	-14045
▁접전	-14046
▁글로브상	-14047
▁일리노이주	-14048
▁킷	-14049
▁팍	-14050
루엔	-14051
▁봉하	-14052
▁부군	-14053
▁서지	-14054
▁완만	-14055
▁지린	-14056
▁횡령	-14057
ㅂㅇㅏ	-14058
뉴기니	-14059
▁입법부	-14060
▁주고받	-14061
▁플루토	-14062
▁핵분열	-14063
▁ㅈㅜㄹㅇㅣㄹ	-14064
▁팻	-14065
▁시르	-14066
▁일설	-14067
▁중용	-14068
▁지탱	-14069
▁참패	-14070
▁And	-14071
▁스케이트	-14072
▁싹	-14073
벤션	-14074
▁국인	-14075
▁다량	-14076
▁라다	-14077
▁매슈	-14078
▁스에	-14079
▁애기	-14080
▁영사	-14081
▁후드	-14082
▁액세스	-14083
▁플러그	-14084
중추부사	-14085
일치	-14086
조리	-14087
▁tr	-14088
▁급성	-14089
▁매도	-14090
▁변모	-14091
▁적정	-14092
▁행군	-14093
▁ㅂㅐㄴ	-14094
▁와세다	-14095
▁1869	-14096
▁개기	-14097
▁고찰	-14098
▁과자	-14099
▁길드	-14100
▁참수	-14101
▁자릿수	-14102
▁포뮬러	-14103
▁고등학생	-14104
▁프라이즈	-14105
누마	-14106
다발	-14107
▁Ag	-14108
▁도발	-14109
▁보류	-14110
▁잉크	-14111
▁정박	-14112
ㄱㅣㅁ	-14113
▁업로드	-14114
▁페르미	-14115
▁프로테	-14116
▁ㅁㅏㅈㅊㅜㄴ	-14117
다스	-14118
시게	-14119
▁서점	-14120
▁육식	-14121
▁표출	-14122
시아드	-14123
▁마포구	-14124
▁와타나베	-14125
▁코퍼레이션	-14126
셔주	-14127
▁솔라	-14128
▁임하	-14129
▁점진	-14130
▁청각	-14131
▁봉우리	-14132
▁쿠르드	-14133
▁프리츠	-14134
▁유니버시아드	-14135
내티	-14136
▁다목	-14137
▁용해	-14138
▁현악	-14139
▁형주	-14140
▁회유	-14141
▁수비대	-14142
▁원자핵	-14143
▁이브스	-14144
▁특별법	-14145
▁해부학	-14146
▁신시내티	-14147
▁키르기스	-14148
▁객실	-14149
▁벵골	-14150
▁무사히	-14151
▁방위군	-14152
▁비스마르크	-14153
▁면직	-14154
▁몸체	-14155
▁변증	-14156
▁북대	-14157
▁소피	-14158
▁오보	-14159
▁저해	-14160
▁직물	-14161
▁추후	-14162
▁포천	-14163
▁건륭제	-14164
▁경쟁자	-14165
▁1592	-14166
▁명성황후	-14167
▁요리토모	-14168
▁엇	-14169
정보	-14170
▁텍스	-14171
▁패킷	-14172
▁포탑	-14173
▁표절	-14174
▁베르나	-14175
▁안동시	-14176
▁외교부	-14177
▁ㅅㅐㅇㄱㅣㄹ	-14178
ae	-14179
▁밧	-14180
▁썬	-14181
▁강우	-14182
▁고국	-14183
▁로시	-14184
▁아뢰	-14185
▁ㄱㅜㄷ	-14186
▁영유권	-14187
▁친선경기	-14188
▁고을	-14189
▁근방	-14190
▁부관	-14191
▁부두	-14192
▁일선	-14193
▁잔해	-14194
▁항생	-14195
▁기동전	-14196
▁아이젠	-14197
▁운동량	-14198
▁인지도	-14199
▁인코딩	-14200
▁장로회	-14201
▁ㅂㅕㄴㅎㅏㄴㄷㅏ	-14202
▁AA	-14203
▁서거	-14204
▁용수	-14205
ㅅㅣㄹ	-14206
▁프라임	-14207
OU	-14208
▁탬	-14209
암사	-14210
▁글렌	-14211
▁기조	-14212
▁논산	-14213
▁목동	-14214
▁무비	-14215
▁무색	-14216
▁버티	-14217
▁손님	-14218
▁오자	-14219
▁위도	-14220
▁정진	-14221
▁치사	-14222
▁피처	-14223
ount	-14224
▁부등식	-14225
▁생화학	-14226
▁제작진	-14227
▁ㅊㅣㅇㅎㅐㅆ	-14228
▁ㅍㅏㄹㄹㅣㄴ	-14229
세르	-14230
▁대타	-14231
▁수당	-14232
▁시시	-14233
▁콜드	-14234
▁행보	-14235
▁골짜기	-14236
▁수도회	-14237
▁오스카	-14238
▁지하역	-14239
▁ㄷㅚㅂㄴㅣ	-14240
▁사부	-14241
▁성품	-14242
▁수레	-14243
▁자처	-14244
▁컴필	-14245
ㅈㅜㄹ	-14246
▁스파이더	-14247
▁후지와라	-14248
▁ㄴㅏㄹㄹㅕ	-14249
▁컴필레이션	-14250
▁크리스티나	-14251
▁ㄴㅓㅁㄱㅕㅆ	-14252
▁박원	-14253
▁빈민	-14254
▁축일	-14255
▁팔꿈치	-14256
ㅈㅣㄹㄹㅓㅆ	-14257
티컷	-14258
▁그물	-14259
▁금색	-14260
▁지체	-14261
▁토라	-14262
▁헤더	-14263
▁여객기	-14264
▁코네티컷	-14265
네르	-14266
노르	-14267
▁RC	-14268
▁겨루	-14269
▁린다	-14270
▁모티	-14271
▁반입	-14272
▁이목	-14273
▁토키	-14274
▁폴라	-14275
▁금강산	-14276
▁며느리	-14277
▁불가피	-14278
▁Song	-14279
▁마스코트	-14280
▁ㅂㅜㄹㄹㅕ	-14281
▁로드리게스	-14282
▁ㅁㅓㅅㅈㅣㄴ	-14283
수염	-14284
ata	-14285
▁ㅍㅛ	-14286
▁단역	-14287
▁루피	-14288
▁민심	-14289
▁아어	-14290
▁자정	-14291
ㅇㅓㄴ	-14292
가르트	-14293
▁Mon	-14294
▁목적지	-14295
▁1840	-14296
▁파시스트	-14297
▁여우원숭이	-14298
pr	-14299
구스	-14300
▁귀인	-14301
▁내란	-14302
▁사소	-14303
▁상의	-14304
▁위즈	-14305
▁유화	-14306
▁지문	-14307
▁캐슬	-14308
▁516	-14309
▁레지스터	-14310
ㄷㅡㄹㅇㅣㄹ	-14311
▁me	-14312
▁가비	-14313
▁고제	-14314
▁병풍	-14315
▁빅터	-14316
▁수급	-14317
▁하라	-14318
스타인	-14319
▁리차드	-14320
▁사생활	-14321
▁연예계	-14322
▁유년기	-14323
▁힐베르트	-14324
▁랙	-14325
쳐지	-14326
per	-14327
▁닉스	-14328
▁디나	-14329
▁추축	-14330
▁헤일	-14331
▁ㅌㅡㄹ	-14332
▁네이트	-14333
▁로타르	-14334
▁창립자	-14335
▁return	-14336
▁볶	-14337
려오	-14338
마디	-14339
자원	-14340
ade	-14341
▁KN	-14342
▁가방	-14343
▁다쓰	-14344
▁소박	-14345
▁심소	-14346
▁출국	-14347
▁하수	-14348
▁사이언스	-14349
▁에이전트	-14350
▁프랑스와	-14351
▁Heart	-14352
▁널	-14353
블릿	-14354
▁국화	-14355
▁블러	-14356
▁유이	-14357
▁이거	-14358
▁자취	-14359
▁절친	-14360
▁유엔군	-14361
▁매킨토시	-14362
▁심리학자	-14363
▁지장보살	-14364
▁아나톨리아	-14365
작전	-14366
효소	-14367
히메	-14368
▁쿼터	-14369
▁헤겔	-14370
▁글러브	-14371
▁종착역	-14372
▁히타치	-14373
ㅁㅜㄹㄹㅓ	-14374
▁Pe	-14375
▁공상	-14376
▁발착	-14377
▁분별	-14378
▁숙소	-14379
▁얼룩	-14380
▁유골	-14381
▁유자	-14382
▁입출	-14383
▁탁구	-14384
▁튜브	-14385
▁티저	-14386
▁ㅋㅣㄴ	-14387
▁바닷물	-14388
▁테크놀	-14389
▁파주시	-14390
▁필사본	-14391
사우루스	-14392
90	-14393
BI	-14394
찬성	-14395
▁ab	-14396
▁거창	-14397
▁벤츠	-14398
▁성가	-14399
▁자질	-14400
▁출세	-14401
▁풀리	-14402
▁패스트	-14403
▁와카야마	-14404
▁ㅂㅕㄴㅎㅐ	-14405
ㅁㅏㅇㅊㅕㅆ	-14406
▁Windows	-14407
▁펜실베이니아주	-14408
▁국세	-14409
▁상식	-14410
▁영미	-14411
▁영수	-14412
▁입히	-14413
▁처치	-14414
▁천상	-14415
이치로	-14416
▁ㅉㅓㄴ	-14417
▁과반수	-14418
▁다가오	-14419
▁스트림	-14420
▁시니어	-14421
▁예언자	-14422
테랑	-14423
▁ㅌㅡ	-14424
▁계룡	-14425
▁넘버	-14426
▁농가	-14427
▁라라	-14428
▁변질	-14429
▁여포	-14430
▁이카	-14431
▁전단	-14432
변속기	-14433
▁나치오	-14434
▁보유자	-14435
▁어도비	-14436
▁ㅈㅡㄹㄱㅓ	-14437
▁벳	-14438
날드	-14439
ium	-14440
▁겸직	-14441
▁란트	-14442
▁상과	-14443
▁쌍성	-14444
▁염화	-14445
▁자루	-14446
▁패망	-14447
▁강력히	-14448
▁구단주	-14449
▁영등포구	-14450
▁백조	-14451
▁성대	-14452
▁수만	-14453
▁암수	-14454
▁청취	-14455
▁퀴즈	-14456
▁8000	-14457
▁그린란드	-14458
▁남아시아	-14459
IX	-14460
▁강인	-14461
▁거사	-14462
▁단서	-14463
▁라프	-14464
▁바인	-14465
▁스택	-14466
▁온실	-14467
▁최하	-14468
▁그래도	-14469
▁적십자	-14470
▁지질학	-14471
▁알프레드	-14472
▁세인트루이스	-14473
IF	-14474
▁악명	-14475
▁오시	-14476
▁워스	-14477
▁조비	-14478
▁초음	-14479
▁흥원	-14480
▁ㄷㅓㄴㅈㅕㅆ	-14481
던트	-14482
▁Gl	-14483
▁권익	-14484
▁기행	-14485
▁렉스	-14486
▁사귀	-14487
▁연중	-14488
▁윤휴	-14489
▁의주	-14490
▁휘발	-14491
▁세미나	-14492
계사	-14493
히데	-14494
▁괜찮	-14495
▁베오	-14496
▁페레	-14497
넌트	-14498
선언	-14499
욕장	-14500
전선	-14501
▁PL	-14502
▁동호	-14503
▁문중	-14504
▁중견	-14505
▁시미즈	-14506
▁안창호	-14507
▁헤르만	-14508
▁1875	-14509
▁썩	-14510
링겐	-14511
▁ㅆㅢ	-14512
▁삭감	-14513
▁실상	-14514
▁준동	-14515
▁피살	-14516
▁하구	-14517
▁Out	-14518
▁고문서	-14519
▁비둘기	-14520
▁집단군	-14521
▁데카르트	-14522
▁Aw	-14523
▁노현	-14524
▁능가	-14525
▁상동	-14526
▁외척	-14527
▁이심	-14528
▁이와테	-14529
▁진주시	-14530
▁근본번뇌	-14531
▁As	-14532
▁가곡	-14533
▁반론	-14534
▁에트	-14535
▁유카	-14536
▁의복	-14537
▁보리스	-14538
기즈	-14539
수단	-14540
탄두	-14541
테이	-14542
▁독살	-14543
▁몰아	-14544
▁숙련	-14545
▁웍스	-14546
▁임종	-14547
▁댈러스	-14548
▁ㅁㅜㄲㅇㅕ	-14549
▁기린	-14550
▁콜린	-14551
▁나리타	-14552
▁맥아더	-14553
▁예비역	-14554
▁VS	-14555
▁강습	-14556
▁바보	-14557
▁수증	-14558
▁왜군	-14559
▁저그	-14560
▁최남	-14561
▁침식	-14562
▁키리	-14563
▁ㅅㅟㄹ	-14564
▁관심사	-14565
▁담당자	-14566
▁사이즈	-14567
구니	-14568
기아	-14569
itt	-14570
▁니케	-14571
▁디바	-14572
▁미지	-14573
▁설리	-14574
▁아다	-14575
▁철자	-14576
▁혼잡	-14577
▁Gen	-14578
▁KTX	-14579
▁회고록	-14580
▁아우구스	-14581
▁다름	-14582
▁선상	-14583
▁월화	-14584
▁텐서	-14585
레이트	-14586
▁AMD	-14587
▁올라오	-14588
▁컨벤션	-14589
▁고등교육	-14590
이에	-14591
son	-14592
▁sh	-14593
▁노원	-14594
▁도적	-14595
▁신지	-14596
▁용지	-14597
▁이선	-14598
▁표제	-14599
▁게임기	-14600
▁운전자	-14601
▁남양주시	-14602
▁ㅇㅗㄹㄹㅕㅆㅇㅡ	-14603
사유	-14604
▁걸음	-14605
▁김두	-14606
▁다자	-14607
▁예프	-14608
▁원단	-14609
▁이희	-14610
▁징집	-14611
▁친화	-14612
▁컵스	-14613
▁한민	-14614
▁리스본	-14615
▁치료법	-14616
▁아나키스트	-14617
▁ㅍㅕㄹㅊㅣㄴ	-14618
▁DB	-14619
▁거칠	-14620
▁규율	-14621
▁미학	-14622
▁볼록	-14623
▁생원	-14624
▁어사	-14625
▁위크	-14626
▁일명	-14627
▁아세틸	-14628
▁통도사	-14629
▁파라오	-14630
보당	-14631
▁교파	-14632
▁뉴런	-14633
▁로사	-14634
▁사각	-14635
▁은밀	-14636
▁인승	-14637
▁키드	-14638
▁터너	-14639
▁해트	-14640
▁호그	-14641
ㄱㅓㄹ	-14642
▁돌고래	-14643
▁북극점	-14644
▁칭기즈	-14645
▁함경도	-14646
세서	-14647
▁단양	-14648
▁시찰	-14649
▁여럿	-14650
▁출품	-14651
▁표트르	-14652
▁모자이크	-14653
▁포르투갈어	-14654
PA	-14655
▁엿	-14656
방향	-14657
어류	-14658
▁금정	-14659
▁비키	-14660
▁셔틀	-14661
▁잠입	-14662
▁질투	-14663
에이고	-14664
▁매디슨	-14665
▁친환경	-14666
▁병자호란	-14667
ㄲㅟㄴㄷㅏ	-14668
▁샌디에이고	-14669
▁ㅇㅏㅍㅈㅏㅇ	-14670
▁TS	-14671
▁교훈	-14672
▁목장	-14673
▁에레	-14674
▁절충	-14675
▁정오	-14676
▁집전	-14677
▁취직	-14678
▁태안	-14679
세데스	-14680
▁ㅌㅐㄱ	-14681
▁가환환	-14682
▁광둥성	-14683
▁다이쇼	-14684
▁레스터	-14685
▁크메르	-14686
▁피의자	-14687
▁학술지	-14688
▁항공대	-14689
날레	-14690
알라	-14691
▁구루	-14692
▁생쥐	-14693
▁서약	-14694
▁아지	-14695
▁에리	-14696
▁의정	-14697
▁직렬	-14698
able	-14699
▁꽃차례	-14700
▁스케치	-14701
▁일부러	-14702
▁테오도	-14703
▁토요타	-14704
▁뉘른베르크	-14705
▁메르세데스	-14706
▁김연	-14707
▁로큰	-14708
▁실명	-14709
▁안중	-14710
▁양파	-14711
▁원효	-14712
▁의성	-14713
▁첩보	-14714
▁타쿠	-14715
해방군	-14716
▁이사벨	-14717
▁장갑차	-14718
▁중앙선	-14719
▁통신망	-14720
크라테스	-14721
▁몽고메리	-14722
▁인민해방군	-14723
▁브란덴부르크	-14724
▁ㄷㅏㄹㄹㅣㄴㄷㅏ	-14725
▁땀	-14726
▁격하	-14727
▁리크	-14728
▁문관	-14729
▁바늘	-14730
▁서당	-14731
▁슈투	-14732
▁포인	-14733
록대부	-14734
▁ㅆㅏㄴ	-14735
▁슈타인	-14736
▁신석기	-14737
▁연속극	-14738
▁클리어	-14739
▁ㅂㅜㄹㄹㅓㅆㅇㅡ	-14740
▁달콤	-14741
▁문체	-14742
▁버트	-14743
▁선체	-14744
▁체로	-14745
▁"()	-14746
▁성폭행	-14747
▁코트디	-14748
▁코트디부아르	-14749
▁ㅂㅏㄺㅎㅕㅆㅇㅡ	-14750
은사	-14751
ale	-14752
▁교관	-14753
▁막강	-14754
▁면담	-14755
▁변혁	-14756
▁열세	-14757
▁호른	-14758
▁비단털	-14759
▁쇼핑몰	-14760
▁야마다	-14761
▁채권자	-14762
▁크라운	-14763
▁클레어	-14764
ng	-14765
더링	-14766
몽골	-14767
▁로바	-14768
▁비료	-14769
▁영락	-14770
▁인먼	-14771
루엔자	-14772
▁380	-14773
▁로버츠	-14774
▁로큰롤	-14775
▁바나나	-14776
▁아리랑	-14777
스코리아	-14778
▁비단털쥐	-14779
▁저널리스트	-14780
촌리	-14781
▁기공	-14782
▁방호	-14783
▁아노	-14784
▁반감기	-14785
▁베르트	-14786
▁부적절	-14787
▁파스칼	-14788
▁안드로메다	-14789
놀드	-14790
부대	-14791
▁교화	-14792
▁레몬	-14793
▁몹시	-14794
▁방울	-14795
▁스펜	-14796
▁어부	-14797
▁자장	-14798
▁데이트	-14799
▁스피커	-14800
▁꽂	-14801
ㅐㅆ	-14802
엽수	-14803
우주	-14804
조사	-14805
▁기판	-14806
▁동거	-14807
▁배반	-14808
▁야수	-14809
▁외면	-14810
▁강대국	-14811
▁금환	-14812
▁래리	-14813
▁명상	-14814
▁세일	-14815
▁일차	-14816
▁착각	-14817
▁특공	-14818
▁폐허	-14819
▁708	-14820
▁상반기	-14821
▁선거인	-14822
▁송파구	-14823
▁정치국	-14824
▁바빌로니아	-14825
▁ㅅㅣㄹㄹㅕㅆ	-14826
박사	-14827
행파	-14828
▁서클	-14829
▁순식	-14830
▁잉카	-14831
▁정에	-14832
▁향신	-14833
▁Par	-14834
▁이랜드	-14835
▁종사자	-14836
▁오프라인	-14837
▁ㅎㅡㄴㄷㅡㄹ	-14838
▁University	-14839
두사	-14840
르카	-14841
▁가모	-14842
▁구아	-14843
▁모피	-14844
▁보그	-14845
▁성행	-14846
▁수마	-14847
▁수은	-14848
▁술라	-14849
▁안식	-14850
▁예식	-14851
▁왕래	-14852
▁장정	-14853
▁지치	-14854
▁환율	-14855
▁ㄹㅗㄹ	-14856
▁ㅁㅜㅇ	-14857
▁대항전	-14858
▁맥스웰	-14859
▁라이베리아	-14860
▁탭	-14861
니에	-14862
▁기마	-14863
▁모사	-14864
▁보우	-14865
▁엔젤	-14866
▁이홍	-14867
▁정칙	-14868
▁헤센	-14869
▁후루	-14870
▁ATC	-14871
▁Vol	-14872
▁프론트	-14873
▁합성어	-14874
▁관음보살	-14875
세키	-14876
▁At	-14877
▁라울	-14878
▁문수	-14879
▁사주	-14880
▁슬리	-14881
▁야권	-14882
▁보호법	-14883
▁형용사	-14884
▁ㅊㅣㄴㅎㅏㄴ	-14885
▁KO	-14886
▁WC	-14887
▁구세	-14888
▁규약	-14889
▁기운	-14890
▁마레	-14891
▁모체	-14892
▁위트	-14893
▁중일	-14894
▁205	-14895
▁강희제	-14896
▁데뷔작	-14897
▁사할린	-14898
▁콘라트	-14899
ㄷㅗㄹㄹㅕ	-14900
건설	-14901
▁경순	-14902
▁날리	-14903
▁데일	-14904
▁샤르	-14905
▁야코	-14906
▁정언	-14907
▁조봉	-14908
▁쇼트트랙	-14909
▁보컬리스트	-14910
▁인플루엔자	-14911
▁삐	-14912
르산	-14913
쿠사	-14914
▁극소	-14915
▁로니	-14916
▁미첼	-14917
▁율법	-14918
very	-14919
▁슈미트	-14920
▁엑스박스	-14921
▁페널티킥	-14922
▁조선공산당	-14923
▁벙	-14924
시대	-14925
▁GR	-14926
▁JC	-14927
▁가명	-14928
▁결전	-14929
▁경의	-14930
▁실은	-14931
▁되풀이	-14932
▁보조금	-14933
▁캐스터	-14934
▁통계청	-14935
연구	-14936
▁라벨	-14937
▁베티	-14938
▁외손	-14939
▁출격	-14940
▁치마	-14941
▁ㄷㅏㅇ	-14942
▁ㄷㅗㅇ	-14943
▁싯	-14944
▁텅	-14945
모음	-14946
▁등산	-14947
▁박용	-14948
▁실사	-14949
▁월남	-14950
▁이질	-14951
▁토피	-14952
▁235	-14953
▁DOS	-14954
▁NBC	-14955
▁개그맨	-14956
▁사학자	-14957
▁호흡기	-14958
▁동군	-14959
▁상계	-14960
▁수역	-14961
▁시의	-14962
▁에코	-14963
▁외할	-14964
▁칸트	-14965
▁호로	-14966
▁후한	-14967
▁가이아	-14968
ㅁㅎㅏㄴ	-14969
▁name	-14970
▁ㅃㅏㄹㄹㅏ	-14971
사와	-14972
▁군복	-14973
▁양서	-14974
▁에노	-14975
▁자키	-14976
▁정글	-14977
▁집사	-14978
▁획기	-14979
▁스케줄	-14980
▁시마즈	-14981
▁가세	-14982
▁구타	-14983
▁기미	-14984
▁사미	-14985
▁서안	-14986
▁안톤	-14987
▁염두	-14988
▁자위	-14989
폴리탄	-14990
▁터뜨리	-14991
▁흔들리	-14992
▁ㄴㅏㅈㅊ	-14993
▁메트로폴리탄	-14994
▁엣	-14995
▁남단	-14996
▁불쾌	-14997
▁석기	-14998
▁아연	-14999
▁후이	-15000
▁남극점	-15001
▁물려주	-15002
▁스케일	-15003
▁로베르토	-15004
▁ㅇㅗㄹㄹㅣㄹ	-15005
▁셴	-15006
화당	-15007
▁경종	-15008
▁나쁘	-15009
▁내림	-15010
▁비옥	-15011
▁초계	-15012
▁코바	-15013
▁화승	-15014
▁지하철역	-15015
황색	-15016
▁경화	-15017
▁노카	-15018
▁라가	-15019
▁리나	-15020
▁마흐	-15021
▁양극	-15022
▁외삼	-15023
▁웨어	-15024
▁재화	-15025
▁찌르	-15026
▁타시	-15027
▁풀백	-15028
▁사무관	-15029
▁자격증	-15030
▁조각상	-15031
▁ㅁㅏㄹㄹㅏ	-15032
▁뤄	-15033
데기	-15034
▁cc	-15035
▁나기	-15036
▁배당	-15037
▁버니	-15038
▁병렬	-15039
▁아끼	-15040
▁종가	-15041
▁카로	-15042
▁칼륨	-15043
▁포니	-15044
▁tvN	-15045
▁내보내	-15046
▁당뇨병	-15047
▁순식간	-15048
▁브로드웨이	-15049
co	-15050
so	-15051
루즈	-15052
벌리	-15053
▁골절	-15054
▁나한	-15055
▁복부	-15056
▁불복	-15057
▁실효	-15058
▁안기	-15059
▁열악	-15060
▁유충	-15061
▁하산	-15062
▁로페스	-15063
▁미스코리아	-15064
18	-15065
▁랠	-15066
보라	-15067
양이	-15068
에쓰	-15069
▁안팎	-15070
▁화원	-15071
▁손꼽히	-15072
▁시그마	-15073
▁신호장	-15074
▁열역학	-15075
▁천도교	-15076
▁테두리	-15077
▁중앙아메리카	-15078
yn	-15079
큐슈	-15080
▁균일	-15081
▁망치	-15082
▁세스	-15083
▁시제	-15084
▁신병	-15085
▁창구	-15086
▁키트	-15087
▁패치	-15088
▁흔들	-15089
ㅊㅏㄴ	-15090
▁김해시	-15091
▁그레이엄	-15092
▁파푸아뉴기니	-15093
텐셜	-15094
ATO	-15095
▁고층	-15096
▁부엌	-15097
▁솜씨	-15098
▁양평	-15099
▁요직	-15100
▁족장	-15101
▁칠성	-15102
▁키타	-15103
▁공주시	-15104
▁동아리	-15105
▁카디널	-15106
▁유가행파	-15107
열대	-15108
▁뉴멕	-15109
▁마늘	-15110
▁무능	-15111
▁무예	-15112
▁박재	-15113
▁산조	-15114
▁침범	-15115
▁케리	-15116
▁협곡	-15117
▁라스트	-15118
▁안드레	-15119
▁안양시	-15120
▁최성기	-15121
▁뉴멕시코	-15122
▁우두머리	-15123
IVE	-15124
ala	-15125
▁오마	-15126
▁은폐	-15127
▁이달	-15128
▁일간	-15129
▁일주	-15130
▁정승	-15131
▁줄곧	-15132
▁홍익	-15133
▁스틸러스	-15134
▁일렉트릭	-15135
신저	-15136
▁결말	-15137
▁동백	-15138
▁리시	-15139
▁중남	-15140
스크림	-15141
▁간호사	-15142
▁거주자	-15143
▁무지개	-15144
▁퍼텐셜	-15145
▁1874	-15146
▁This	-15147
▁ㅂㅜㄹㅌㅐ	-15148
시험	-15149
악산	-15150
주크	-15151
▁넷플	-15152
▁레나	-15153
▁안심	-15154
▁애착	-15155
▁이색	-15156
▁축복	-15157
▁통솔	-15158
▁반대편	-15159
▁빼앗기	-15160
▁넷플릭스	-15161
▁ㄱㅓㄴㄴㅔ	-15162
▁ㅁㅏㅌㄱㅕ	-15163
윽고	-15164
▁기스	-15165
▁묘호	-15166
▁베크	-15167
▁악당	-15168
▁재보	-15169
▁포자	-15170
올리언	-15171
▁동남쪽	-15172
▁이윽고	-15173
▁콘퍼런스	-15174
ㅇㅜㄹㅇㅓ	-15175
▁잼	-15176
징어	-15177
▁sp	-15178
▁대류	-15179
▁읍성	-15180
▁잔혹	-15181
▁204	-15182
▁대수학	-15183
▁앞바다	-15184
▁에스컬	-15185
▁조각가	-15186
▁항공편	-15187
▁후쿠이	-15188
▁바그다드	-15189
▁에스컬레이터	-15190
▁벚	-15191
▁다쿠	-15192
▁무가	-15193
▁숙박	-15194
▁일삼	-15195
▁젠더	-15196
▁조동	-15197
▁학당	-15198
▁따라가	-15199
▁저스틴	-15200
▁컨퍼런스	-15201
▁퀄	-15202
운수	-15203
▁가뭄	-15204
▁라플	-15205
▁받치	-15206
▁소론	-15207
▁이문	-15208
▁즐거	-15209
▁쿠마	-15210
진보당	-15211
▁게임즈	-15212
▁지리산	-15213
▁프레슬리	-15214
ax	-15215
me	-15216
소문	-15217
▁리타	-15218
▁싱크	-15219
▁잔여	-15220
▁캠벨	-15221
▁판명	-15222
▁한복	-15223
▁향수	-15224
어들이	-15225
▁책임지	-15226
▁클로드	-15227
▁콜럼버스	-15228
ody	-15229
▁낭비	-15230
▁몰수	-15231
▁발작	-15232
▁인스	-15233
▁잉여	-15234
▁품목	-15235
▁한겨	-15236
▁가요제	-15237
▁트레일	-15238
▁휴대폰	-15239
▁1877	-15240
▁뉴올리언	-15241
▁ㄱㅗㄹㄹㅏ	-15242
▁SR	-15243
▁눈치	-15244
▁메모	-15245
▁사중	-15246
▁송이	-15247
▁옥사	-15248
▁루이즈	-15249
▁호소카와	-15250
▁ㅇㅏㄴㄱㅕ	-15251
▁서아프리카	-15252
▁알렉산데르	-15253
더릭	-15254
프랑	-15255
net	-15256
▁상한	-15257
▁애드	-15258
▁차오	-15259
▁클랜	-15260
야누스	-15261
▁원주시	-15262
▁바이마르	-15263
▁멀티미디어	-15264
민당	-15265
▁단발	-15266
▁도형	-15267
▁에페	-15268
▁코로	-15269
▁탄수	-15270
▁확충	-15271
▁공학자	-15272
▁아우르	-15273
▁재미있	-15274
▁허베이	-15275
▁슈퍼스타	-15276
oid	-15277
▁강좌	-15278
▁손목	-15279
▁하지	-15280
▁APG	-15281
▁Bab	-15282
▁교육감	-15283
▁참전하	-15284
▁트라야누스	-15285
GB	-15286
▁쿰	-15287
anc	-15288
▁격전	-15289
▁델리	-15290
▁본존	-15291
▁소양	-15292
▁순찰	-15293
▁예멘	-15294
▁사하라	-15295
▁7000	-15296
▁오아시스	-15297
양구	-15298
혈구	-15299
ash	-15300
ose	-15301
▁곤살	-15302
▁바니	-15303
▁복속	-15304
▁빌드	-15305
▁주군	-15306
▁코크	-15307
▁토바	-15308
▁행선	-15309
▁브리스	-15310
▁채무자	-15311
▁핸드볼	-15312
▁가온	-15313
▁경내	-15314
▁바투	-15315
▁양천	-15316
▁처마	-15317
▁총영	-15318
ㅈㅇㅓ	-15319
▁중거리	-15320
▁컨설팅	-15321
▁Best	-15322
▁ㅇㅏㅍㅅㅔ	-15323
바드	-15324
변수	-15325
▁고승	-15326
▁놓치	-15327
▁모치	-15328
▁아킬	-15329
▁엄지	-15330
▁출사	-15331
▁성폭력	-15332
▁스타드	-15333
▁여운형	-15334
▁콜린스	-15335
▁플루토늄	-15336
22	-15337
를레	-15338
▁AF	-15339
▁ㅅㅛ	-15340
▁나투	-15341
▁로망	-15342
▁무주	-15343
▁에볼	-15344
▁오구	-15345
▁재회	-15346
▁카일	-15347
▁셀주크	-15348
▁클러스터	-15349
14	-15350
au	-15351
ps	-15352
비에	-15353
ict	-15354
▁et	-15355
▁미겔	-15356
▁산체	-15357
▁석권	-15358
▁선단	-15359
▁요가	-15360
▁인성	-15361
▁전조	-15362
▁한겨레	-15363
▁다카하시	-15364
▁캄파니아	-15365
▁맴	-15366
▁강국	-15367
▁블랑	-15368
▁시발	-15369
▁추계	-15370
▁코린	-15371
▁Her	-15372
▁강화군	-15373
▁부르봉	-15374
▁비잔틴	-15375
▁수백만	-15376
▁엘비스	-15377
▁아우구스투스	-15378
일기	-15379
▁AE	-15380
▁공문	-15381
▁산문	-15382
▁소인	-15383
▁인계	-15384
▁자성	-15385
▁경부선	-15386
▁오릭스	-15387
▁1859	-15388
▁Hell	-15389
▁메모리얼	-15390
남면	-15391
피크	-15392
▁ㅈㅐ	-15393
▁가선	-15394
▁감축	-15395
▁거시	-15396
▁관아	-15397
▁바야	-15398
▁방학	-15399
▁사연	-15400
▁소르	-15401
▁앞뒤	-15402
▁유창	-15403
▁앙드레	-15404
▁한국군	-15405
▁만장일치	-15406
▁KS	-15407
▁너희	-15408
▁라임	-15409
▁문맥	-15410
▁숙명	-15411
▁원사	-15412
▁제지	-15413
▁ㄹㅏㅁ	-15414
▁서스펜	-15415
▁오르간	-15416
▁전시관	-15417
▁콘티넨	-15418
▁1700	-15419
▁ㅉㅗㅊㅇㅏ	-15420
▁ㄷㅗㄹㄹㅕㅆ	-15421
▁툼	-15422
▁us	-15423
▁결장	-15424
▁도안	-15425
▁레크	-15426
▁민원	-15427
▁밸브	-15428
▁선과	-15429
▁지령	-15430
▁해지	-15431
▁화염	-15432
▁CIA	-15433
▁프리큐어	-15434
범죄	-15435
장사	-15436
제철	-15437
토크	-15438
▁두뇌	-15439
▁뮐러	-15440
▁소주	-15441
▁승률	-15442
▁원문	-15443
▁중건	-15444
▁퇴진	-15445
▁펭귄	-15446
▁교육학	-15447
▁아파치	-15448
▁청문회	-15449
▁클레오	-15450
▁포식자	-15451
▁혼합물	-15452
형제	-15453
▁도부	-15454
▁도읍	-15455
▁명왕	-15456
▁미켈	-15457
▁미트	-15458
▁발판	-15459
▁우표	-15460
▁이씨	-15461
▁태화	-15462
▁루카스	-15463
▁연방군	-15464
13	-15465
15	-15466
EEE	-15467
▁곡식	-15468
▁네브	-15469
▁니즈	-15470
▁뚜껑	-15471
▁문물	-15472
▁볼드	-15473
▁스플	-15474
▁완장	-15475
ㅅㅜㄹ	-15476
▁개화파	-15477
▁게이밍	-15478
▁아놀드	-15479
▁오리엔	-15480
▁외계인	-15481
▁갈릴레오	-15482
▁스테파노	-15483
ㅇㅗㄹㄹㅕㅆ	-15484
▁사병	-15485
▁스펙	-15486
▁제비	-15487
▁퇴치	-15488
▁518	-15489
▁사다리	-15490
▁우에노	-15491
▁울트라	-15492
▁현미경	-15493
나시	-15494
데일	-15495
란다	-15496
로트	-15497
▁대입	-15498
▁두르	-15499
▁서품	-15500
▁요도	-15501
▁통찰	-15502
▁플랑	-15503
▁순천시	-15504
▁인류학	-15505
▁갑작스럽	-15506
▁미야기현	-15507
▁자이언트	-15508
▁자카르타	-15509
계약	-15510
▁공병	-15511
▁나일	-15512
▁리안	-15513
▁모교	-15514
▁산재	-15515
▁예금	-15516
▁의제	-15517
▁푸젠	-15518
▁함장	-15519
▁곧이어	-15520
▁억제제	-15521
▁핵탄두	-15522
▁사무라이	-15523
▁테크놀로지	-15524
VA	-15525
▁멱	-15526
마을	-15527
완다	-15528
▁SO	-15529
▁YG	-15530
▁se	-15531
▁구가	-15532
▁롤러	-15533
▁앨라	-15534
▁재물	-15535
▁전범	-15536
▁지크	-15537
▁화소	-15538
▁625	-15539
▁아키텐	-15540
▁이론가	-15541
▁라이센스	-15542
▁ㄱㅓㄹㅇㅓ	-15543
▁부식	-15544
▁블룸	-15545
▁상감	-15546
▁왕당	-15547
▁이케다	-15548
주석	-15549
uck	-15550
▁구전	-15551
▁백운	-15552
▁율리	-15553
▁차명	-15554
▁츠카	-15555
▁투사	-15556
▁화음	-15557
▁ㄲㅡㅀ	-15558
▁빌바오	-15559
▁레닌주의	-15560
▁^	-15561
▁뮈	-15562
▁챠	-15563
▁켐	-15564
무장	-15565
▁과세	-15566
▁북측	-15567
▁제니퍼	-15568
▁직사각	-15569
ㅇㅓㄴㄱㅏ	-15570
de	-15571
매기	-15572
투리	-15573
▁레티	-15574
▁아누	-15575
▁출장소	-15576
고사	-15577
동원	-15578
버터	-15579
▁바젤	-15580
▁박찬	-15581
▁발터	-15582
▁산남	-15583
▁양지	-15584
▁후견	-15585
▁바스크	-15586
▁찾아오	-15587
▁환승역	-15588
▁IEEE	-15589
▁아드리아	-15590
▁크리스틴	-15591
HL	-15592
▁거병	-15593
▁경합	-15594
▁기념장	-15595
▁목표물	-15596
▁서태지	-15597
▁탈레반	-15598
▁아이스크림	-15599
▁웜	-15600
ㅉㅣ	-15601
과학	-15602
나주	-15603
재판	-15604
▁무공	-15605
▁상환	-15606
▁억울	-15607
▁원점	-15608
▁총감	-15609
▁테헤	-15610
▁후회	-15611
reak	-15612
▁난쟁이	-15613
▁미성년	-15614
▁아이치	-15615
▁이치현	-15616
▁트레인	-15617
▁샷	-15618
크리	-15619
▁변론	-15620
▁사와	-15621
▁속국	-15622
▁왕명	-15623
▁자갈	-15624
▁정청	-15625
▁피자	-15626
▁하후	-15627
▁회차	-15628
▁결의안	-15629
▁선제후	-15630
▁고바야시	-15631
▁ㅂㅜㄹㄹㅣㄹ	-15632
스톤	-15633
주사	-15634
▁리언	-15635
▁북인	-15636
▁산술	-15637
▁서체	-15638
▁오와	-15639
▁이창	-15640
▁전서	-15641
▁코이	-15642
▁튜링	-15643
ㅂㅅㅣ	-15644
▁340	-15645
▁가치관	-15646
▁케이드	-15647
▁아미타불	-15648
▁뉴클레오타이드	-15649
다보	-15650
패드	-15651
ail	-15652
▁김학	-15653
▁만류	-15654
▁여정	-15655
▁특명	-15656
▁평하	-15657
▁하층	-15658
▁로저스	-15659
▁마코토	-15660
▁빈센트	-15661
▁셰퍼드	-15662
▁순교자	-15663
▁쓰촨성	-15664
▁향신료	-15665
▁소아시아	-15666
▁ㄸㅓㄹㅊㅕㅆ	-15667
oo	-15668
▁FF	-15669
▁경원	-15670
▁김우	-15671
▁뉴잉	-15672
▁담양	-15673
▁로디	-15674
▁매기	-15675
▁알로	-15676
▁장경	-15677
▁적법	-15678
▁희미	-15679
▁길거리	-15680
▁이주민	-15681
▁출판물	-15682
▁카디널스	-15683
티지	-15684
▁as	-15685
▁논증	-15686
▁로보	-15687
▁로코	-15688
▁백지	-15689
▁진천	-15690
▁청정	-15691
▁후면	-15692
게이트	-15693
▁미트라	-15694
▁지석묘	-15695
▁통계학	-15696
▁서바이벌	-15697
HC	-15698
스퍼	-15699
▁관군	-15700
▁군기	-15701
▁근간	-15702
▁도끼	-15703
▁법규	-15704
▁사산	-15705
▁원만	-15706
▁전봉	-15707
▁조회	-15708
▁화풍	-15709
▁로스트	-15710
▁볼프강	-15711
▁이광수	-15712
▁카리스	-15713
▁해인사	-15714
▁Star	-15715
▁매사추세츠주	-15716
▁펙	-15717
▁관위	-15718
▁섹션	-15719
▁용맹	-15720
▁정역	-15721
▁주포	-15722
▁헬스	-15723
▁ㅁㅏㅇ	-15724
▁레이건	-15725
▁정착지	-15726
르바	-15727
조류	-15728
▁맹렬	-15729
▁베다	-15730
▁보어	-15731
▁어선	-15732
▁우니	-15733
▁이만	-15734
▁헤라	-15735
▁홀수	-15736
▁가우스	-15737
▁실린더	-15738
▁Super	-15739
▁짚	-15740
▁구라	-15741
▁발광	-15742
▁베가	-15743
▁양동	-15744
▁일면	-15745
▁입찰	-15746
▁자백	-15747
하마드	-15748
▁310	-15749
▁Sun	-15750
▁개척자	-15751
▁대혁명	-15752
▁국가원수	-15753
▁my	-15754
▁나바	-15755
▁보국	-15756
▁수주	-15757
▁아칸	-15758
▁연해	-15759
▁오인	-15760
▁젤리	-15761
▁퇴출	-15762
▁개막식	-15763
댓값	-15764
배마	-15765
장조	-15766
▁결여	-15767
▁달력	-15768
▁사생	-15769
▁수프	-15770
▁커브	-15771
▁평방	-15772
▁국내선	-15773
▁대사간	-15774
▁울주군	-15775
▁원정대	-15776
▁앨라배마	-15777
플레	-15778
▁개경	-15779
▁공석	-15780
▁도매	-15781
▁멜라	-15782
▁발진	-15783
▁상설	-15784
▁안주	-15785
▁짝수	-15786
▁추장	-15787
▁호화	-15788
▁209	-15789
▁바빌론	-15790
▁예문관	-15791
▁끔	-15792
ㅇㅢ	-15793
▁교감	-15794
▁사탄	-15795
▁손수	-15796
▁폐차	-15797
▁ㅍㅏㄹ	-15798
▁그래픽스	-15799
▁유니코드	-15800
▁ㅅㅏㄴㅈㅣ	-15801
▁후쿠시마현	-15802
구미	-15803
▁거문	-15804
▁김도	-15805
▁부락	-15806
▁승낙	-15807
▁추밀	-15808
▁타밀	-15809
▁통감	-15810
▁you	-15811
▁오슬로	-15812
▁자치현	-15813
▁뉴잉글랜드	-15814
▁콘스탄티누스	-15815
TF	-15816
니언	-15817
학파	-15818
iel	-15819
▁교인	-15820
▁근세	-15821
▁금관	-15822
▁김주	-15823
▁명륜	-15824
▁미러	-15825
▁산정	-15826
▁시력	-15827
▁타파	-15828
▁토프	-15829
▁디에고	-15830
▁무신론	-15831
▁브레멘	-15832
▁셀레우	-15833
▁안철수	-15834
▁윤치영	-15835
▁자오선	-15836
▁과달	-15837
▁맞배	-15838
▁박경	-15839
▁상층	-15840
▁성조	-15841
▁탄두	-15842
▁피그	-15843
▁교황령	-15844
▁르완다	-15845
▁삼거리	-15846
▁1812	-15847
▁Soul	-15848
▁ㅈㅏㅂㅎㅣㄴ	-15849
▁ad	-15850
▁김덕	-15851
▁로컬	-15852
▁수문	-15853
▁정실	-15854
▁터스	-15855
▁대관식	-15856
▁송진우	-15857
▁아니면	-15858
▁에이브	-15859
▁모니터링	-15860
▁오토바이	-15861
ㅅㅓㄴㄷㅏ	-15862
▁ㄴㅓㄼㅎㅕ	-15863
▁무형문화재	-15864
의식	-15865
초프	-15866
티어	-15867
vel	-15868
▁Kn	-15869
▁강유	-15870
▁넓히	-15871
▁로런	-15872
▁보디	-15873
▁산인	-15874
▁속초	-15875
▁유틸	-15876
▁의인	-15877
▁장강	-15878
▁장지	-15879
▁충동	-15880
▁템플	-15881
▁206	-15882
▁ㅅㅜㄴ	-15883
▁ㅍㅕㄴ	-15884
▁아스카	-15885
▁에이지	-15886
▁페스트	-15887
▁ICBM	-15888
▁선거관리	-15889
▁알렉세이	-15890
▁유틸리티	-15891
ㄷㅜㄹㄹㅓ	-15892
▁선거관리위원회	-15893
59	-15894
▁닷컴	-15895
▁루손	-15896
▁선별	-15897
▁어학	-15898
▁지검	-15899
▁지카	-15900
▁항문	-15901
▁호국	-15902
▁호이	-15903
▁단말기	-15904
▁자본가	-15905
▁한자어	-15906
그램	-15907
▁근위	-15908
▁나시	-15909
▁다윗	-15910
▁모션	-15911
▁무위	-15912
▁수구	-15913
▁아호	-15914
▁안면	-15915
▁주유	-15916
▁투니	-15917
하우스	-15918
▁대대장	-15919
▁에세이	-15920
▁음식점	-15921
▁John	-15922
▁아이파크	-15923
▁중앙일보	-15924
▁ㅎㅟㅂㅆㅏ	-15925
▁Christ	-15926
▁굶	-15927
▁쑹	-15928
디드	-15929
▁무진	-15930
▁센타	-15931
▁코우	-15932
▁여수시	-15933
▁서비스업	-15934
도감	-15935
샤오	-15936
ute	-15937
▁금천	-15938
▁루드	-15939
▁메드	-15940
▁문건	-15941
▁법상	-15942
▁빨강	-15943
▁산동	-15944
▁샤오	-15945
▁스쿼	-15946
ㄱㅇㅕ	-15947
▁엄청나	-15948
▁주거지	-15949
▁안토니우스	-15950
면적	-15951
▁걸스	-15952
▁동급	-15953
▁배타	-15954
▁세제	-15955
▁장이	-15956
▁풀이	-15957
시아키	-15958
▁대제학	-15959
▁록히드	-15960
▁슈투트	-15961
▁조광조	-15962
▁조르주	-15963
▁주제가	-15964
▁1879	-15965
▁건국훈장	-15966
▁슈투트가르트	-15967
EA	-15968
TR	-15969
네오	-15970
탄올	-15971
▁ON	-15972
▁Tw	-15973
▁변성	-15974
▁수질	-15975
▁점토	-15976
▁차역	-15977
▁철기	-15978
▁콜론	-15979
공화당	-15980
▁막시밀리	-15981
▁ㄱㅏㄷㅎㅕ	-15982
▁민주공화당	-15983
OK	-15984
▁Mi	-15985
▁조던	-15986
▁집적	-15987
▁기생충	-15988
▁로널드	-15989
▁안데스	-15990
▁접미사	-15991
▁조봉암	-15992
▁얄	-15993
버라	-15994
▁로지	-15995
▁버밍	-15996
▁세밀	-15997
▁수라	-15998
▁익히	-15999
▁춘계	-16000
▁카보	-16001
▁폐하	-16002
▁747	-16003
▁고지대	-16004
▁보이즈	-16005
▁테헤란	-16006
▁베르사유	-16007
▁북대서양	-16008
구나	-16009
▁HP	-16010
▁당상	-16011
▁도자	-16012
▁범람	-16013
▁우기	-16014
▁이건	-16015
▁초식	-16016
▁하강	-16017
▁한하	-16018
ㅁㅕㅆ	-16019
▁ㄱㅕㅌ	-16020
▁의병장	-16021
▁파르마	-16022
gh	-16023
방스	-16024
여지	-16025
▁교재	-16026
▁대방	-16027
▁매듭	-16028
▁양원	-16029
▁진심	-16030
▁천자	-16031
▁ㅆㅓㄴ	-16032
▁백두산	-16033
▁연대장	-16034
▁제이크	-16035
▁카지노	-16036
▁피어스	-16037
▁Mr	-16038
▁도파	-16039
▁영도	-16040
▁울루	-16041
▁의논	-16042
▁초회	-16043
▁해주	-16044
▁석회암	-16045
▁일렉트로닉	-16046
▁뽀	-16047
▁IF	-16048
▁양념	-16049
▁유계	-16050
▁카토	-16051
▁CoA	-16052
▁des	-16053
▁독재자	-16054
▁바닷가	-16055
▁사우디	-16056
▁름	-16057
▁썰	-16058
화산	-16059
▁귀순	-16060
▁규합	-16061
▁대여	-16062
▁스완	-16063
▁위축	-16064
▁유세	-16065
▁이코	-16066
▁콘스	-16067
▁App	-16068
▁ㅁㅗㄹㄹㅏ	-16069
네프	-16070
분투	-16071
팩스	-16072
▁공경	-16073
▁아람	-16074
▁임실	-16075
▁자석	-16076
▁청일	-16077
▁포상	-16078
▁휴일	-16079
▁420	-16080
▁라그랑	-16081
▁태블릿	-16082
▁아브라함	-16083
▁뉴올리언스	-16084
슐리	-16085
▁고후	-16086
▁관개	-16087
▁구비	-16088
▁농담	-16089
▁동맥	-16090
▁부기	-16091
▁사스	-16092
▁사파	-16093
▁소량	-16094
▁유보	-16095
▁카파	-16096
▁카펠	-16097
▁쿠시	-16098
▁클럭	-16099
ㄹㄹㅗ	-16100
로세서	-16101
▁개개인	-16102
▁레코딩	-16103
▁여행자	-16104
정변	-16105
▁노역	-16106
▁두부	-16107
▁듀스	-16108
▁방탄	-16109
▁스텐	-16110
▁영종	-16111
▁컬링	-16112
레틱스	-16113
▁사가미	-16114
▁암스트	-16115
▁여러분	-16116
리아누스	-16117
▁애슬레틱스	-16118
ㄷㅓ	-16119
▁과감	-16120
▁국문	-16121
▁군마	-16122
▁노마	-16123
▁단수	-16124
▁딱딱	-16125
▁모태	-16126
▁수족	-16127
▁카다	-16128
▁호시	-16129
▁황위	-16130
라이스	-16131
▁글리제	-16132
▁리그컵	-16133
▁무사시	-16134
ㄲㅣㄴㄷㅏ	-16135
▁썸	-16136
바퀴	-16137
연맹	-16138
▁ㄲㅚ	-16139
▁가창	-16140
▁권투	-16141
▁기권	-16142
▁동대	-16143
▁머큐	-16144
▁반달	-16145
▁불문	-16146
▁스킨	-16147
▁일보	-16148
를레앙	-16149
▁기울이	-16150
▁니가타	-16151
▁아이작	-16152
▁인산화	-16153
ㄴㅜㄴㄷㅏ	-16154
신보	-16155
▁두스	-16156
▁상이	-16157
▁소포	-16158
▁양정	-16159
▁원한	-16160
▁전열	-16161
▁최용	-16162
▁트리스	-16163
▁주머니쥐	-16164
▁ㅂㅜㅌㅈㅏㅂㅎㅕ	-16165
▁꽝	-16166
▁니치	-16167
▁열람	-16168
▁인삼	-16169
▁처칠	-16170
▁체리	-16171
▁국방군	-16172
▁알칼리	-16173
ㅁㅏㅇㅊㅕ	-16174
▁Record	-16175
▁ㅈㅏㅂㅎㅕㅆ	-16176
블릭	-16177
VID	-16178
ull	-16179
▁Gu	-16180
▁강가	-16181
▁김시	-16182
▁반납	-16183
▁자네	-16184
▁정맥	-16185
▁현수	-16186
▁440	-16187
▁영사관	-16188
▁원종공신	-16189
▁쿵	-16190
자드	-16191
▁"|	-16192
▁PA	-16193
▁광시	-16194
▁불능	-16195
▁인척	-16196
▁조우	-16197
▁할구	-16198
▁호적	-16199
▁ㅅㅐㄴ	-16200
▁오메가	-16201
▁잠비아	-16202
▁테크노	-16203
▁print	-16204
▁아우구스트	-16205
▁ㅈㅓㄱㅎㅣㄴ	-16206
▁ㅈㅜㄱㅇㅣㄹ	-16207
▁능숙	-16208
▁무겁	-16209
▁시타	-16210
▁애호	-16211
▁용역	-16212
▁유상	-16213
▁풍요	-16214
▁변호인	-16215
▁타지키스탄	-16216
▁public	-16217
링크	-16218
산업	-16219
선교	-16220
▁끔찍	-16221
▁대등	-16222
▁리퍼	-16223
▁타선	-16224
▁폴로	-16225
▁후추	-16226
▁Str	-16227
▁바실리	-16228
▁수영장	-16229
▁항생제	-16230
길준	-16231
장군	-16232
▁DO	-16233
▁po	-16234
▁도나	-16235
▁부트	-16236
▁부화	-16237
▁빛깔	-16238
▁수아	-16239
▁신익	-16240
▁왕녀	-16241
▁중등	-16242
▁커리	-16243
▁타라	-16244
▁택하	-16245
▁해커	-16246
ㄴㅣㅁ	-16247
▁게이오	-16248
▁스위트	-16249
▁엘리스	-16250
▁오토모	-16251
▁퀼	-16252
반정	-16253
태자	-16254
▁궁주	-16255
▁미타	-16256
▁용문	-16257
▁차차	-16258
▁항전	-16259
리오스	-16260
▁Per	-16261
▁그러면	-16262
▁본거지	-16263
▁유기체	-16264
▁클라리	-16265
▁합병증	-16266
▁쑨	-16267
대비	-16268
수지	-16269
티보	-16270
▁nm	-16271
▁금기	-16272
▁나토	-16273
▁남경	-16274
▁노엘	-16275
▁성자	-16276
▁성현	-16277
▁예보	-16278
▁은평	-16279
▁자각	-16280
▁제방	-16281
▁종실	-16282
▁환산	-16283
▁산투스	-16284
▁실리콘	-16285
▁양산시	-16286
▁엘리엇	-16287
▁여주인	-16288
▁페이퍼	-16289
▁허버트	-16290
덕궁	-16291
레미	-16292
자나	-16293
▁감당	-16294
▁리노	-16295
▁아루	-16296
▁유민	-16297
▁이한	-16298
▁전곡	-16299
▁접목	-16300
▁제고	-16301
▁화이	-16302
▁군주제	-16303
▁야구부	-16304
▁엔리케	-16305
▁영화관	-16306
바이러스	-16307
▁파르티아	-16308
▁교학	-16309
▁사나	-16310
▁압수	-16311
▁유관	-16312
▁증축	-16313
▁퀸스	-16314
▁투병	-16315
▁환초	-16316
▁256	-16317
▁ㅊㅜㄴ	-16318
▁공성전	-16319
▁바레인	-16320
▁오우치	-16321
▁엔지니어링	-16322
▁CA	-16323
▁동두	-16324
▁라쿠	-16325
▁문어	-16326
▁북마	-16327
▁앙상	-16328
▁요셉	-16329
▁콜리	-16330
▁시에라	-16331
▁제시카	-16332
▁조용히	-16333
▁카스텔	-16334
▁2500	-16335
▁불법행위	-16336
▁천문단위	-16337
▁다마스쿠스	-16338
황제	-16339
▁리지	-16340
▁명동	-16341
▁무패	-16342
▁비싸	-16343
▁소진	-16344
▁식이	-16345
▁열거	-16346
▁이설	-16347
▁코인	-16348
로그램	-16349
▁기본법	-16350
▁초고층	-16351
▁플래닛	-16352
▁ㄴㅜㄹㄹㅓ	-16353
▁ㅇㅣㅂㅎㅕㅆ	-16354
16	-16355
무지	-16356
쿠치	-16357
ual	-16358
▁게놈	-16359
▁군도	-16360
▁담수	-16361
▁당장	-16362
▁온전	-16363
▁이석	-16364
▁자존	-16365
▁Win	-16366
▁비행사	-16367
▁왕당파	-16368
▁캅카스	-16369
▁리바운드	-16370
25	-16371
포리	-16372
▁논평	-16373
▁바바	-16374
▁우타	-16375
▁투기	-16376
▁랴오닝	-16377
▁즐거움	-16378
발트	-16379
일체	-16380
▁매복	-16381
▁사목	-16382
▁사체	-16383
▁아역	-16384
▁유미	-16385
▁코니	-16386
▁피질	-16387
ogle	-16388
▁크리스탈	-16389
▁헬레니즘	-16390
▁ㄴㅗㅎㅇㅕㅆ	-16391
데오	-16392
▁고난	-16393
▁시영	-16394
▁실베	-16395
▁역동	-16396
▁오차	-16397
▁왕좌	-16398
▁카츠	-16399
▁패자	-16400
▁호투	-16401
▁Hot	-16402
▁리바이	-16403
▁이세이	-16404
▁접근성	-16405
자락	-16406
▁ER	-16407
▁교명	-16408
▁균등	-16409
▁내시	-16410
▁농협	-16411
▁상회	-16412
▁성교	-16413
▁연하	-16414
▁접시	-16415
▁중신	-16416
▁향로	-16417
▁호찌	-16418
고로드	-16419
▁광합성	-16420
▁남북조	-16421
▁브루노	-16422
▁리치먼드	-16423
ty	-16424
스틱	-16425
커우	-16426
▁라사	-16427
▁마다	-16428
▁석재	-16429
▁셔츠	-16430
▁응력	-16431
그래피	-16432
▁버스터	-16433
▁예수교	-16434
▁대법원장	-16435
▁사이클론	-16436
▁캥	-16437
어놓	-16438
▁Ke	-16439
▁담임	-16440
▁동체	-16441
▁따지	-16442
▁아구	-16443
▁왕릉	-16444
▁정직	-16445
▁코일	-16446
▁힐스	-16447
ㅇㅡㅁ	-16448
▁208	-16449
▁예비군	-16450
▁제주시	-16451
▁조연상	-16452
▁주둔지	-16453
▁춘천시	-16454
ㅁㅏㄹㄹㅗ	-16455
▁아미타여래	-16456
▁ㄱㅏㅇㅎㅐㅆ	-16457
▁ㅅㅓㄲㅇㅣㄴ	-16458
높이	-16459
다임	-16460
무트	-16461
울루	-16462
▁마거	-16463
▁이보	-16464
▁킬러	-16465
▁ㅇㅓㄹ	-16466
▁베이직	-16467
▁오이타	-16468
▁유도탄	-16469
▁페르시	-16470
▁프리드	-16471
NT	-16472
▁ㅣ	-16473
▁가결	-16474
▁광동	-16475
▁미녀	-16476
▁부안	-16477
▁성형	-16478
▁시온	-16479
▁탈피	-16480
▁할로	-16481
▁행운	-16482
던지기	-16483
▁고다이	-16484
▁지극히	-16485
▁1789	-16486
▁Back	-16487
▁찢	-16488
는점	-16489
RNA	-16490
▁HS	-16491
▁mu	-16492
▁스팀	-16493
▁촐라	-16494
▁칠곡	-16495
▁히코	-16496
프리드	-16497
▁911	-16498
▁ㅌㅏㅆ	-16499
▁머큐리	-16500
▁사무엘	-16501
▁스텔스	-16502
▁유길준	-16503
▁잠재력	-16504
▁조제프	-16505
▁후유증	-16506
▁1801	-16507
▁기타큐슈	-16508
▁플랑드르	-16509
▁ㅈㅡㄹㄱㅕㅆ	-16510
평면	-16511
▁금리	-16512
▁반정	-16513
▁반향	-16514
▁소노	-16515
▁양구	-16516
▁쿠루	-16517
▁트램	-16518
▁렌더링	-16519
▁1400	-16520
▁패러다임	-16521
▁ㅇㅡㄹㅅㅜ	-16522
▁느슨	-16523
▁지브	-16524
▁진성	-16525
▁초석	-16526
▁네바다	-16527
▁아르테	-16528
▁암스트롱	-16529
▁포틀랜드	-16530
▁ㄴㅏㄹㄹㅕㅆ	-16531
ll	-16532
인산	-16533
▁Fl	-16534
▁강자	-16535
▁누마	-16536
▁바타	-16537
▁봉분	-16538
▁악어	-16539
▁안시	-16540
▁원곡	-16541
▁MIT	-16542
▁영문학	-16543
▁Kore	-16544
▁KD	-16545
▁NM	-16546
▁고독	-16547
▁득실	-16548
▁여관	-16549
▁이크	-16550
▁파피	-16551
▁Get	-16552
▁재결합	-16553
▁호기심	-16554
▁비로자나	-16555
▁MD	-16556
▁개표	-16557
▁그릴	-16558
▁기피	-16559
▁깊숙	-16560
▁끌어	-16561
▁실책	-16562
▁영성	-16563
▁유독	-16564
▁윤곽	-16565
▁총생	-16566
▁치킨	-16567
▁침수	-16568
▁로런스	-16569
▁NATO	-16570
▁남한산성	-16571
불명	-16572
스텐	-16573
▁신천	-16574
▁애프	-16575
▁오웬	-16576
▁작자	-16577
▁중학	-16578
▁폐교	-16579
▁370	-16580
▁길버트	-16581
▁내몽골	-16582
▁사망률	-16583
▁사천왕	-16584
▁슈트라	-16585
▁양평군	-16586
▁영장류	-16587
ox	-16588
제사	-16589
▁NA	-16590
▁갑신	-16591
▁강타	-16592
▁군량	-16593
▁기한	-16594
▁정중	-16595
▁브릿지	-16596
▁웨슬리	-16597
▁프린세스	-16598
▁가전	-16599
▁거품	-16600
▁교란	-16601
▁구애	-16602
▁대용	-16603
▁동률	-16604
▁멘델	-16605
▁워낙	-16606
▁조율	-16607
▁즉흥	-16608
ames	-16609
▁다행히	-16610
▁방법론	-16611
▁생산자	-16612
▁판매고	-16613
▁슈트라우스	-16614
▁ㅇㅕㅅㅂㅗㄹ	-16615
라과	-16616
▁NL	-16617
▁거머	-16618
▁약품	-16619
▁전과	-16620
▁채집	-16621
lect	-16622
▁매니아	-16623
▁선수상	-16624
▁앙상블	-16625
▁요나라	-16626
▁항공우주	-16627
▁Intern	-16628
▁쐐	-16629
▁킵	-16630
ㅂㅐ	-16631
로움	-16632
▁균열	-16633
▁극회	-16634
▁노골	-16635
▁도화	-16636
▁승선	-16637
▁총국	-16638
▁ㅇㅘㄴ	-16639
▁마운틴	-16640
▁붉은색	-16641
▁토론회	-16642
▁드래곤즈	-16643
▁탄수화물	-16644
▁ㅇㅏㄴㄷㅏ	-16645
▁렬	-16646
▁국산	-16647
▁군림	-16648
▁레저	-16649
▁발열	-16650
▁보아	-16651
▁사조	-16652
▁승마	-16653
▁아로	-16654
▁에픽	-16655
▁우디	-16656
▁커넥	-16657
▁코딩	-16658
▁타키	-16659
▁트론	-16660
▁알베르	-16661
ology	-16662
▁미식축구	-16663
빨리	-16664
▁관원	-16665
▁관저	-16666
▁내기	-16667
▁노름	-16668
▁면하	-16669
▁미로	-16670
▁민선	-16671
▁세타	-16672
▁쐐기	-16673
▁예편	-16674
▁첫날	-16675
▁출정	-16676
▁코디	-16677
▁현관	-16678
▁호지	-16679
▁후난	-16680
▁메신저	-16681
▁오리건	-16682
▁독립선언	-16683
▁리하르트	-16684
▁해수욕장	-16685
YP	-16686
피카	-16687
let	-16688
▁가변	-16689
▁먼로	-16690
▁변천	-16691
▁신궁	-16692
▁쌍용	-16693
▁제헌	-16694
▁청중	-16695
▁탄력	-16696
▁Mag	-16697
▁ㅇㅓㅇ	-16698
▁남아공	-16699
▁동일시	-16700
▁디렉터	-16701
▁부천시	-16702
▁추축국	-16703
ature	-16704
▁생물학자	-16705
▁이마가와	-16706
▁셀레우코스	-16707
▁겨냥	-16708
▁깨지	-16709
▁미디	-16710
▁안건	-16711
▁의대	-16712
▁제타	-16713
▁카인	-16714
▁케로	-16715
ㅇㅊㅣ	-16716
▁넘어서	-16717
▁클라인	-16718
▁펼쳐지	-16719
그라운드	-16720
▁Baby	-16721
레븐	-16722
모닉	-16723
투르	-16724
▁기일	-16725
▁니트	-16726
▁무루	-16727
▁성부	-16728
▁악의	-16729
▁열기	-16730
▁장승	-16731
▁지회	-16732
▁책정	-16733
▁캔터	-16734
▁디아스	-16735
▁마거릿	-16736
▁미요시	-16737
▁니카라과	-16738
▁레오나르	-16739
▁ㅂㅕㄴㅎㅐㅆ	-16740
ove	-16741
▁군위	-16742
▁궁수	-16743
▁광주시	-16744
▁급속도	-16745
▁방문객	-16746
▁베테랑	-16747
▁와이어	-16748
▁콜라보	-16749
▁돼지고기	-16750
▁서귀포시	-16751
▁에두아르	-16752
▁ㅇㅗㄹㄹㅣㅁ	-16753
경찰	-16754
락부	-16755
백색	-16756
이상	-16757
▁구명	-16758
▁생포	-16759
▁안락	-16760
▁초판	-16761
▁하세	-16762
▁흉내	-16763
▁ㅁㅏㄹ	-16764
▁범어사	-16765
▁부사장	-16766
▁브루크	-16767
▁블러드	-16768
▁신안군	-16769
▁주세페	-16770
▁태양광	-16771
17	-16772
남동	-16773
박이	-16774
enn	-16775
▁Cr	-16776
▁고관	-16777
▁공훈	-16778
▁로만	-16779
▁베아	-16780
▁어둡	-16781
▁오랑	-16782
▁주스	-16783
▁진위	-16784
▁최순	-16785
▁탄광	-16786
▁황하	-16787
▁효성	-16788
코비치	-16789
피에르	-16790
▁225	-16791
▁고스트	-16792
▁기네스	-16793
▁요시카	-16794
▁최진실	-16795
▁페라리	-16796
GO	-16797
득점	-16798
▁BB	-16799
▁나날	-16800
▁누에	-16801
▁레반	-16802
▁리라	-16803
▁무소	-16804
▁출항	-16805
▁카노	-16806
▁캡틴	-16807
▁탄성	-16808
▁파출	-16809
▁피시	-16810
▁호전	-16811
스트림	-16812
inal	-16813
▁GPS	-16814
▁나카노	-16815
▁다카시	-16816
▁리카르	-16817
▁시나노	-16818
▁프레더릭	-16819
▁베오그라드	-16820
▁안티오키아	-16821
▁둠	-16822
▁씬	-16823
의금	-16824
▁강구	-16825
▁경산	-16826
▁김장	-16827
▁다채	-16828
▁도보	-16829
▁만물	-16830
▁사옥	-16831
▁수화	-16832
▁유재	-16833
▁천태	-16834
▁카불	-16835
▁합장	-16836
▁김종직	-16837
▁두더지	-16838
▁이치로	-16839
▁게오르기	-16840
▁트로츠키	-16841
▁ㅎㅐㅇㅎㅏㄴ	-16842
파니	-16843
ors	-16844
▁가령	-16845
▁매튜	-16846
▁박태	-16847
▁비방	-16848
▁사일	-16849
▁생장	-16850
▁연어	-16851
▁철근	-16852
▁하츠	-16853
말라야	-16854
▁ㅍㅡㄹ	-16855
▁강릉시	-16856
▁만주족	-16857
▁혈액형	-16858
ㄷㅏㄹㄹㅕ	-16859
ㄲㅗ	-16860
능력	-16861
무실	-16862
스레	-16863
▁DA	-16864
▁무쓰	-16865
▁잔치	-16866
▁출병	-16867
▁365	-16868
▁Res	-16869
▁유물론	-16870
▁이유로	-16871
▁체육회	-16872
▁서대문구	-16873
▁선거인단	-16874
ㅇㅜㄹㅇㅕㅆ	-16875
덱스	-16876
심원	-16877
훈련	-16878
▁고취	-16879
▁대소	-16880
▁불길	-16881
▁외가	-16882
▁운석	-16883
▁스펜서	-16884
▁이지스	-16885
▁인문학	-16886
▁타일러	-16887
▁Amer	-16888
▁로베르트	-16889
광사	-16890
금속	-16891
▁MR	-16892
▁개리	-16893
▁공지	-16894
▁교내	-16895
▁깁슨	-16896
▁꾸미	-16897
▁도식	-16898
▁명장	-16899
▁살레	-16900
▁알마	-16901
▁조너	-16902
▁키치	-16903
▁포메	-16904
▁효모	-16905
▁흡입	-16906
▁207	-16907
▁동북부	-16908
▁아열대	-16909
▁해수면	-16910
▁후반전	-16911
TN	-16912
메랄	-16913
즈미	-16914
▁OK	-16915
▁개축	-16916
▁결투	-16917
▁공평	-16918
▁레르	-16919
▁맞닿	-16920
▁명중	-16921
▁베라	-16922
▁브이	-16923
▁솔직	-16924
▁야만	-16925
▁유감	-16926
▁장차	-16927
▁조엘	-16928
▁통킹	-16929
▁풋살	-16930
▁풍기	-16931
▁스태프	-16932
▁스트라	-16933
▁지방도	-16934
▁프린터	-16935
노스아이	-16936
노스아이레스	-16937
▁부에노스아이레스	-16938
24	-16939
▁쪼	-16940
마니	-16941
app	-16942
▁도량	-16943
▁듀엣	-16944
▁라테	-16945
▁봉헌	-16946
▁사계	-16947
▁세도	-16948
▁에든	-16949
▁청군	-16950
▁한꺼	-16951
▁핼리	-16952
▁감마선	-16953
▁무정부	-16954
▁알레산	-16955
▁압둘라	-16956
▁페레스	-16957
▁에든버러	-16958
▁한꺼번에	-16959
▁히말라야	-16960
▁아르바이트	-16961
FS	-16962
질량	-16963
▁습도	-16964
▁신안	-16965
▁유익	-16966
▁천적	-16967
▁친히	-16968
▁퇴계	-16969
▁흑색	-16970
이즈미	-16971
▁Way	-16972
▁모잠	-16973
▁미추	-16974
▁변조	-16975
▁북송	-16976
▁전극	-16977
▁폭주	-16978
▁한라	-16979
스티안	-16980
▁농민군	-16981
▁어드밴	-16982
▁일제히	-16983
▁조합원	-16984
▁태극기	-16985
▁1815	-16986
▁1820	-16987
▁모잠비크	-16988
갱이	-16989
나비	-16990
시카	-16991
월드	-16992
현실	-16993
ina	-16994
▁격침	-16995
▁격화	-16996
▁내역	-16997
▁담장	-16998
▁떨어	-16999
▁박동	-17000
▁양위	-17001
▁증류	-17002
▁표어	-17003
▁야행성	-17004
▁오징어	-17005
▁라이온스	-17006
▁리얼리티	-17007
▁ㅁㅏㄹㄹㅕ	-17008
▁레닌그라드	-17009
▁낸	-17010
▁Dr	-17011
▁굳이	-17012
▁베컴	-17013
▁소마	-17014
▁시성	-17015
▁약수	-17016
▁월경	-17017
▁호박	-17018
ater	-17019
▁리그전	-17020
▁시아파	-17021
▁지포스	-17022
▁후베이	-17023
▁마쓰모토	-17024
로프로세서	-17025
▁System	-17026
▁마이크로프로세서	-17027
▁공보	-17028
▁김석	-17029
▁모질	-17030
▁에다	-17031
▁인노	-17032
▁천리	-17033
▁춘향	-17034
▁치루	-17035
▁트롤	-17036
▁국무부	-17037
▁디나모	-17038
▁제품군	-17039
▁조병옥	-17040
▁Cent	-17041
▁ㅆㅗㄷㅇㅏ	-17042
MP	-17043
▁결단	-17044
▁결렬	-17045
▁그간	-17046
▁노하	-17047
▁마취	-17048
▁서곡	-17049
▁설과	-17050
▁에인	-17051
▁지반	-17052
▁직각	-17053
▁총수	-17054
▁해머	-17055
▁허들	-17056
▁유명세	-17057
▁모노이드	-17058
▁이리하여	-17059
▁ㅂㅜㄹㅌㅏ	-17060
▁막시밀리안	-17061
▁둑	-17062
거루	-17063
끄럽	-17064
▁노총	-17065
▁데니	-17066
▁로제	-17067
▁세실	-17068
▁소켓	-17069
▁어인	-17070
▁피쳐	-17071
▁필로	-17072
▁도나우	-17073
▁사법부	-17074
▁전망대	-17075
▁트럼펫	-17076
▁알베르트	-17077
▁오스트로	-17078
▁유럽연합	-17079
▁카롤루스	-17080
▁ㅌㅗㅇㅊㅣ	-17081
▁알렉산드라	-17082
za	-17083
▁꿰	-17084
▁SW	-17085
▁김은	-17086
▁리서	-17087
▁산마	-17088
▁술집	-17089
▁스틱	-17090
▁양분	-17091
▁장론	-17092
▁장서	-17093
▁조나	-17094
▁죄인	-17095
▁쿠사	-17096
▁파고	-17097
▁아드리	-17098
▁혁명가	-17099
▁ㅈㅣㄴㅇㅣ	-17100
쓰네	-17101
▁BO	-17102
▁격상	-17103
▁당사	-17104
▁마초	-17105
▁미완	-17106
▁아토	-17107
▁옵티	-17108
▁윈드	-17109
▁이부	-17110
▁학도	-17111
▁힘쓰	-17112
레이즈	-17113
▁Mac	-17114
▁유공자	-17115
▁일진회	-17116
▁전동기	-17117
▁정몽주	-17118
▁파블로	-17119
▁함부로	-17120
▁1858	-17121
▁고고학자	-17122
▁이성질체	-17123
▁이오니아	-17124
▁프로방스	-17125
입자	-17126
▁'-	-17127
▁던전	-17128
▁떠돌	-17129
▁서역	-17130
▁이구	-17131
▁재심	-17132
▁코넬	-17133
▁하카	-17134
▁민의원	-17135
▁신익희	-17136
▁총생산	-17137
▁마그네슘	-17138
▁class	-17139
▁폴리네시아	-17140
▁폼페이우스	-17141
가요	-17142
동리	-17143
비츠	-17144
ons	-17145
▁갈비	-17146
▁녹말	-17147
▁만수	-17148
▁성찬	-17149
▁에뮬	-17150
▁융기	-17151
▁좌랑	-17152
▁탈리	-17153
▁모델링	-17154
▁제노바	-17155
▁맞배지붕	-17156
▁챈	-17157
오드	-17158
토바	-17159
▁"'	-17160
▁갑오	-17161
▁결실	-17162
▁기주	-17163
▁배지	-17164
▁슐레	-17165
▁장택	-17166
▁창씨	-17167
▁치밀	-17168
▁테살	-17169
ange	-17170
ions	-17171
▁ㄸㅏㄴ	-17172
▁ㅈㅣㅁ	-17173
▁도치기	-17174
▁봉수대	-17175
▁조너선	-17176
▁필리스	-17177
ㅍㅣ	-17178
가라	-17179
니츠	-17180
처럼	-17181
▁결집	-17182
▁더빙	-17183
▁벅스	-17184
▁본진	-17185
▁직류	-17186
▁특위	-17187
▁형광	-17188
▁화교	-17189
▁ㅁㅣㄴ	-17190
▁연습생	-17191
▁크레타	-17192
▁포인터	-17193
▁무궁화호	-17194
▁ㅊㅓㅇㅎㅐㅆ	-17195
▁갸	-17196
코인	-17197
▁달마	-17198
▁시편	-17199
▁아쉽	-17200
▁엠마	-17201
▁으뜸	-17202
▁출루	-17203
▁태상	-17204
▁펜스	-17205
▁합산	-17206
▁Tra	-17207
▁노트북	-17208
▁마에다	-17209
▁목포시	-17210
▁스와프	-17211
▁유성구	-17212
ㅅㅓㅆㅇㅡ	-17213
러기	-17214
▁고택	-17215
▁능하	-17216
▁동티	-17217
▁본능	-17218
▁상해	-17219
▁소정	-17220
▁수강	-17221
▁완산	-17222
▁이철	-17223
▁자막	-17224
▁좌천	-17225
▁진구	-17226
▁노무라	-17227
▁선데이	-17228
▁시게루	-17229
▁중심핵	-17230
▁천연가스	-17231
▁필하모닉	-17232
att	-17233
▁SG	-17234
▁굴욕	-17235
▁기욤	-17236
▁낙태	-17237
▁농작	-17238
▁도난	-17239
▁매질	-17240
▁새해	-17241
▁소탕	-17242
▁의왕	-17243
▁정공	-17244
▁지뢰	-17245
▁특혜	-17246
▁가디언	-17247
▁군산시	-17248
▁안티고	-17249
▁트랜싯	-17250
▁서프랑크	-17251
사랑	-17252
ret	-17253
▁광서	-17254
▁기민	-17255
▁남궁	-17256
▁디펜	-17257
▁만연	-17258
▁분담	-17259
▁성제	-17260
▁아말	-17261
▁안재	-17262
▁육박	-17263
▁충고	-17264
▁포섭	-17265
▁푸틴	-17266
▁헬렌	-17267
지먼트	-17268
▁USA	-17269
▁그리드	-17270
▁지팡이	-17271
▁type	-17272
▁동아프리카	-17273
▁매니지먼트	-17274
▁ㄷㅓㄴㅈㅣㄴ	-17275
ux	-17276
당류	-17277
라나	-17278
▁대정	-17279
▁영위	-17280
▁정과	-17281
▁정현	-17282
▁종단	-17283
▁총살	-17284
▁토드	-17285
▁토의	-17286
▁Int	-17287
▁대학살	-17288
▁쌍방울	-17289
▁직할시	-17290
▁귤	-17291
널목	-17292
▁기형	-17293
▁미자	-17294
▁빠져	-17295
▁수선	-17296
▁이삭	-17297
▁재주	-17298
▁콘셉	-17299
▁펠레	-17300
▁IEC	-17301
▁Not	-17302
▁ㅌㅡㅁ	-17303
▁건널목	-17304
▁라이드	-17305
▁분홍색	-17306
▁전철역	-17307
▁평상시	-17308
▁평의원	-17309
▁1300	-17310
▁High	-17311
실험	-17312
자유	-17313
촌동	-17314
ART	-17315
▁궁내	-17316
▁급사	-17317
▁납품	-17318
▁덕수	-17319
▁문성	-17320
▁벨벳	-17321
▁사보	-17322
▁쓰리	-17323
▁아약	-17324
ㄷㅣㅈ	-17325
▁MHz	-17326
▁ㄱㅔㅅ	-17327
▁저지르	-17328
▁충주시	-17329
▁1814	-17330
▁보호구역	-17331
▁알베르토	-17332
▁소크라테스	-17333
거성	-17334
재단	-17335
컨드	-17336
ley	-17337
▁로타	-17338
▁마틸	-17339
▁소치	-17340
▁위태	-17341
▁전집	-17342
▁테드	-17343
▁휴먼	-17344
▁War	-17345
▁겨울철	-17346
▁깨달음	-17347
▁미우라	-17348
▁적절히	-17349
▁평택시	-17350
▁항소심	-17351
▁산업단지	-17352
▁ㅆㅏㅎㅇㅕ	-17353
▁Google	-17354
기둥	-17355
테일	-17356
▁Of	-17357
▁경구	-17358
▁독실	-17359
▁바사	-17360
▁부탄	-17361
▁석등	-17362
▁선서	-17363
▁음역	-17364
▁퍼플	-17365
▁건너편	-17366
▁마피아	-17367
▁성북구	-17368
▁연구실	-17369
▁오나라	-17370
▁티무르	-17371
마일	-17372
정제	-17373
▁위배	-17374
▁음양	-17375
▁이덕	-17376
▁증직	-17377
▁핑계	-17378
▁석가여래	-17379
▁ㅅㅔㄴㄷㅏ	-17380
BN	-17381
랭크	-17382
림동	-17383
민정	-17384
▁견지	-17385
▁기교	-17386
▁마도	-17387
▁주상	-17388
▁헤임	-17389
▁홍천	-17390
▁패트리	-17391
▁프렌즈	-17392
▁플래그	-17393
▁암모니아	-17394
니코	-17395
▁고요	-17396
▁목화	-17397
▁미에	-17398
▁버거	-17399
▁스팅	-17400
▁윗면	-17401
▁퀘이	-17402
▁흥덕	-17403
ㅅㅔㄴ	-17404
씨식물	-17405
▁WHO	-17406
▁거머쥐	-17407
▁광화문	-17408
▁비올라	-17409
▁세컨드	-17410
▁수도사	-17411
▁아약스	-17412
▁혁명군	-17413
살바도르	-17414
▁What	-17415
▁플레이스	-17416
▁앳	-17417
토쿠	-17418
▁FS	-17419
▁군락	-17420
▁도표	-17421
▁민가	-17422
▁시차	-17423
▁신관	-17424
▁캐럴	-17425
▁콤비	-17426
▁헨드	-17427
▁달아나	-17428
▁막아내	-17429
▁미시간	-17430
▁액티브	-17431
▁연금술	-17432
▁우승컵	-17433
▁통신부	-17434
▁플라자	-17435
▁1795	-17436
▁그래미상	-17437
▁다리우스	-17438
▁부위원장	-17439
▁클라이맥스	-17440
▁윔	-17441
식스	-17442
싸움	-17443
전차	-17444
▁고갈	-17445
▁군집	-17446
▁기근	-17447
▁바하	-17448
▁보카	-17449
▁사악	-17450
▁손쉽	-17451
▁수의	-17452
▁실태	-17453
▁완주	-17454
▁유승	-17455
▁전란	-17456
▁지층	-17457
▁페데	-17458
정보부	-17459
▁국문학	-17460
▁맞대결	-17461
▁피드백	-17462
▁토스카나	-17463
▁조선왕조실록	-17464
데냐	-17465
ger	-17466
▁PH	-17467
▁ㄸㅜ	-17468
▁갈아	-17469
▁군비	-17470
▁규장	-17471
▁루지	-17472
▁리츠	-17473
▁말소	-17474
▁멘토	-17475
▁본초	-17476
▁살피	-17477
▁스쿠	-17478
▁우도	-17479
▁초당	-17480
▁패드	-17481
▁TBC	-17482
▁ㅌㅏㄹ	-17483
▁니스트	-17484
▁블루어	-17485
▁디렉터리	-17486
▁사르데냐	-17487
퍼트	-17488
▁레미	-17489
▁아난	-17490
▁암초	-17491
▁애매	-17492
▁앨버	-17493
▁약학	-17494
▁예일	-17495
▁우대	-17496
▁원생	-17497
▁켈빈	-17498
▁키아	-17499
▁프록	-17500
▁290	-17501
▁LCK	-17502
▁관찰자	-17503
▁라쿠텐	-17504
▁성명서	-17505
▁주교좌	-17506
▁홉킨스	-17507
▁With	-17508
▁샌드위치	-17509
UN	-17510
회원	-17511
▁공해	-17512
▁도정	-17513
▁라지	-17514
▁로어	-17515
▁발췌	-17516
▁스톨	-17517
▁에런	-17518
▁우사	-17519
▁제보	-17520
▁증원	-17521
▁코지	-17522
▁포진	-17523
▁Dis	-17524
▁MLB	-17525
▁로렌초	-17526
▁모조리	-17527
▁모터쇼	-17528
▁스레드	-17529
▁원정군	-17530
▁익산시	-17531
▁하모니	-17532
ye	-17533
▁켓	-17534
구멍	-17535
yle	-17536
▁모식	-17537
▁몬태	-17538
▁보육	-17539
▁보훈	-17540
▁아핀	-17541
▁열풍	-17542
▁인대	-17543
▁전액	-17544
ㅅㄱㅏ	-17545
▁남조선	-17546
▁한정판	-17547
▁쥘	-17548
부미	-17549
카라	-17550
alk	-17551
▁로동	-17552
▁비욘	-17553
▁얼터	-17554
▁쿠리	-17555
▁트림	-17556
▁패퇴	-17557
▁480	-17558
▁남해군	-17559
▁리포트	-17560
▁에히메	-17561
▁이회창	-17562
▁커티스	-17563
▁헬싱키	-17564
▁ㅈㅣㄴㅈㅓ	-17565
▁ㅁㅕㄴㅇㅡㄴ	-17566
▁ㅈㅣㄴㅈㅓㅇㅎㅏㄴ	-17567
▁렝	-17568
라도	-17569
▁kW	-17570
▁간지	-17571
▁비호	-17572
▁세베	-17573
▁아랑	-17574
▁우이	-17575
▁장준	-17576
▁헬로	-17577
▁238	-17578
▁850	-17579
▁ㄴㅗㄹ	-17580
▁선언문	-17581
▁스타즈	-17582
▁창덕궁	-17583
▁창업자	-17584
▁수마트라	-17585
▁아틀레틱	-17586
▁안드레이	-17587
enc	-17588
▁감기	-17589
▁견훤	-17590
▁괴뢰	-17591
▁김세	-17592
▁당명	-17593
▁아픔	-17594
▁알렌	-17595
▁정일	-17596
▁종친	-17597
▁포교	-17598
▁혼돈	-17599
디우스	-17600
▁트루먼	-17601
▁드레이크	-17602
▁ㅇㅝㄴㅅㅜㄹ	-17603
팽이	-17604
▁그늘	-17605
▁니나	-17606
▁니체	-17607
▁반야	-17608
▁부녀	-17609
▁실크	-17610
▁열망	-17611
▁영재	-17612
▁웰스	-17613
▁유원	-17614
▁토비	-17615
▁풍수	-17616
▁할양	-17617
▁함의	-17618
▁헤지	-17619
▁훈족	-17620
지스터	-17621
▁ㄷㅐㄴ	-17622
▁고조선	-17623
▁대항해	-17624
▁정확도	-17625
▁합천군	-17626
▁가나자와	-17627
▁그리스도인	-17628
▁ㅇㅜㅁㅈㅣㄱㅇㅣㅁ	-17629
IO	-17630
▁광택	-17631
▁덩굴	-17632
▁버시	-17633
▁보궐	-17634
▁숭실	-17635
▁진하	-17636
▁천정	-17637
주니어	-17638
▁개최지	-17639
▁보행자	-17640
▁북반구	-17641
▁페테르	-17642
▁크리스천	-17643
ㄷㅡㄴㄱㅏ	-17644
▁COVID	-17645
▁머피	-17646
▁비어	-17647
▁승전	-17648
▁총액	-17649
▁허구	-17650
▁Art	-17651
▁안데르	-17652
▁요시아키	-17653
레프	-17654
▁관대	-17655
▁랜덤	-17656
▁매춘	-17657
▁미숙	-17658
▁브람	-17659
▁어쩌	-17660
▁정여	-17661
플레잉	-17662
▁ㅁㅝㄴ	-17663
▁남반구	-17664
▁수번뇌	-17665
▁충렬왕	-17666
▁타블로	-17667
▁롤플레잉	-17668
▁카테고리	-17669
▁트랜지스터	-17670
▁키르기스스탄	-17671
UI	-17672
천국	-17673
▁Di	-17674
▁노화	-17675
▁박승	-17676
▁보츠	-17677
▁북상	-17678
▁에린	-17679
▁연유	-17680
▁장조	-17681
▁장항	-17682
▁평신	-17683
가하라	-17684
다람쥐	-17685
▁돋보이	-17686
▁보호관	-17687
▁빅토리	-17688
의금부사	-17689
▁Blue	-17690
▁MPEG	-17691
베인	-17692
블린	-17693
▁RA	-17694
▁구룡	-17695
▁묘법	-17696
▁민권	-17697
▁서강	-17698
▁웅진	-17699
▁정병	-17700
▁천구	-17701
▁첨부	-17702
▁팀장	-17703
네소스	-17704
ough	-17705
▁Rev	-17706
▁ㅁㅜㄹ	-17707
▁공기업	-17708
▁노르트	-17709
▁보라색	-17710
▁스타인	-17711
▁아산시	-17712
▁아칸소	-17713
▁지방관	-17714
▁취약점	-17715
▁1846	-17716
▁프로이트	-17717
적분	-17718
OVE	-17719
que	-17720
▁각광	-17721
▁골수	-17722
▁구토	-17723
▁급기	-17724
▁기시	-17725
▁논설	-17726
▁대뇌	-17727
▁데메	-17728
▁데쓰	-17729
▁리저	-17730
▁미코	-17731
▁선회	-17732
▁용접	-17733
▁이트	-17734
▁효용	-17735
연화경	-17736
▁ㄹㅜㄴ	-17737
▁문하시	-17738
▁산체스	-17739
▁이완용	-17740
▁크라스	-17741
▁학생회	-17742
▁물리학상	-17743
▁브루나이	-17744
▁ㅇㅜㅁㅈㅣㄱㅇㅕ	-17745
26	-17746
ㅊㅜ	-17747
▁ㅇㅐ	-17748
▁기악	-17749
▁신구	-17750
▁율령	-17751
▁페터	-17752
웨스트	-17753
▁유격대	-17754
▁페인트	-17755
▁1793	-17756
▁time	-17757
▁사탕수수	-17758
▁에드먼드	-17759
▁하시모토	-17760
▁그리스도교	-17761
▁중앙정보부	-17762
▁ㄴㅡㄹㄹㅕㅆ	-17763
ING	-17764
▁갤러	-17765
▁국지	-17766
▁니콘	-17767
▁당분	-17768
▁오호	-17769
▁올랭	-17770
▁윈터	-17771
▁직함	-17772
▁바로잡	-17773
▁1839	-17774
▁시즈오카현	-17775
▁아오모리현	-17776
▁뿜	-17777
나물	-17778
던스	-17779
르모	-17780
파스	-17781
▁'.	-17782
▁ED	-17783
▁걸치	-17784
▁경이	-17785
▁교주	-17786
▁구자	-17787
▁국과	-17788
▁소도	-17789
▁수렵	-17790
▁역모	-17791
▁옥상	-17792
▁와해	-17793
▁월북	-17794
▁쿠릴	-17795
▁공직자	-17796
▁농작물	-17797
▁등록금	-17798
▁사이공	-17799
▁추밀원	-17800
▁이베리아	-17801
▁밈	-17802
건적	-17803
▁공덕	-17804
▁독소	-17805
▁무당	-17806
▁존상	-17807
▁차분	-17808
▁퇴단	-17809
▁하순	-17810
▁휘트	-17811
▁배수량	-17812
▁시어터	-17813
▁아쿠아	-17814
▁엉덩이	-17815
▁재빨리	-17816
▁전기장	-17817
▁중서부	-17818
▁프리킥	-17819
▁자유민주	-17820
▁히로부미	-17821
▁촘	-17822
▁훅	-17823
바람	-17824
스테	-17825
운전	-17826
ump	-17827
▁괴멸	-17828
▁남포	-17829
▁맛있	-17830
▁성내	-17831
비우스	-17832
▁737	-17833
▁대머리	-17834
▁여객선	-17835
▁외무성	-17836
▁체스터	-17837
▁테트라	-17838
▁ㅌㅡㅁㅌㅏ	-17839
▁트리니다드	-17840
ㅇㅏㅅㄱㅕㅆ	-17841
▁중앙아프리카	-17842
▁뱌	-17843
래시	-17844
메트	-17845
der	-17846
▁Vf	-17847
▁게일	-17848
▁과부	-17849
▁군국	-17850
▁권하	-17851
▁도색	-17852
▁멜론	-17853
▁몸집	-17854
▁부딪	-17855
▁부윤	-17856
▁설사	-17857
▁순정	-17858
▁심플	-17859
▁해자	-17860
▁ㅇㅗㅂ	-17861
▁가시마	-17862
▁상대론	-17863
▁아테나	-17864
▁알레르	-17865
▁포스코	-17866
▁1854	-17867
▁언어학자	-17868
▁경멸	-17869
▁범용	-17870
▁본당	-17871
▁쇠약	-17872
▁아민	-17873
▁엄정	-17874
▁유시	-17875
▁직권	-17876
▁추위	-17877
▁현충	-17878
슬라브	-17879
시우스	-17880
▁214	-17881
▁손바닥	-17882
▁수증기	-17883
▁팩토리	-17884
총리대신	-17885
▁기념사업	-17886
▁ㅍㅏㄹㄹㅕ	-17887
▁내각총리대신	-17888
▁꼼	-17889
고트	-17890
뉴스	-17891
재란	-17892
후이	-17893
▁간디	-17894
▁걸맞	-17895
▁낙타	-17896
▁불평	-17897
▁세탁	-17898
▁손책	-17899
▁윤원	-17900
▁이국	-17901
▁정강	-17902
▁펀치	-17903
▁표결	-17904
▁필기	-17905
티우스	-17906
▁COM	-17907
▁ㄴㅏㅊ	-17908
▁국무원	-17909
▁분류학	-17910
▁조계종	-17911
▁하카타	-17912
▁비지니스	-17913
▁아나키즘	-17914
▁정유재란	-17915
▁ㅊㅏㄱㅎㅏㄴ	-17916
패스	-17917
▁등대	-17918
▁망루	-17919
▁방조	-17920
▁서보	-17921
▁야로	-17922
▁인신	-17923
▁메이트	-17924
▁버나드	-17925
▁윤리학	-17926
▁자연주의	-17927
▁ㅎㅜㅁㅊㅕ	-17928
대성	-17929
▁ㅎㅘ	-17930
▁교묘	-17931
▁디디	-17932
▁마한	-17933
▁미묘	-17934
▁브론	-17935
▁상작	-17936
▁솔트	-17937
▁이효	-17938
▁제식	-17939
▁코레	-17940
▁클루	-17941
▁학급	-17942
▁학창	-17943
ㄴㅜㅁ	-17944
▁교토부	-17945
▁비행대	-17946
▁산둥성	-17947
▁이브라	-17948
▁키워드	-17949
▁평화상	-17950
스트리트	-17951
▁갈릴레이	-17952
▁비트코인	-17953
▁어드밴스	-17954
▁초등학생	-17955
▁ㅅㅗㄴㄲㅗ	-17956
▁세키가하라	-17957
▁감탄	-17958
▁구석	-17959
▁구인	-17960
▁바일	-17961
▁이형	-17962
▁인출	-17963
▁칼레	-17964
▁특례	-17965
▁Min	-17966
▁ㅋㅐㄹ	-17967
▁돗토리	-17968
▁안중근	-17969
▁초대칭	-17970
▁기독교인	-17971
▁미성년자	-17972
▁여주인공	-17973
28	-17974
▁돛	-17975
▁퓌	-17976
탐정	-17977
▁BR	-17978
▁ME	-17979
▁박기	-17980
▁북해	-17981
▁상투	-17982
▁새턴	-17983
▁석상	-17984
▁심근	-17985
▁억류	-17986
▁종주	-17987
▁총체	-17988
▁페가	-17989
▁환기	-17990
▁후시	-17991
▁ㅇㅐㄹ	-17992
▁가입자	-17993
▁경비대	-17994
▁데포르	-17995
▁베일리	-17996
▁파출소	-17997
▁델라웨어	-17998
▁오브젝트	-17999
▁플로이드	-18000
▁ㄱㅓㄹㄹㅗ	-18001
▁간염	-18002
▁갑각	-18003
▁개전	-18004
▁만기	-18005
▁매월	-18006
▁바덴	-18007
▁박준	-18008
▁베버	-18009
▁새기	-18010
▁시주	-18011
▁오딘	-18012
▁참배	-18013
▁파드	-18014
▁팬아	-18015
▁하디	-18016
캐스트	-18017
학생회	-18018
▁구청장	-18019
▁북극해	-18020
▁황태후	-18021
▁1849	-18022
▁네덜란드어	-18023
HD	-18024
사회	-18025
호프	-18026
▁분양	-18027
▁산불	-18028
▁찬탈	-18029
독립당	-18030
직할시	-18031
▁LCD	-18032
▁ㅎㅡㄹ	-18033
▁나가노	-18034
▁에리크	-18035
▁최하위	-18036
▁후임자	-18037
베이거스	-18038
▁1856	-18039
▁총학생회	-18040
▁한국독립당	-18041
모자	-18042
정권	-18043
▁견습	-18044
▁계투	-18045
▁고압	-18046
▁교포	-18047
▁남로	-18048
▁분장	-18049
▁오기	-18050
▁유폐	-18051
▁존엄	-18052
▁ㄸㅜㅀ	-18053
▁기부금	-18054
▁장택상	-18055
▁공화주의	-18056
▁크레이그	-18057
▁ㄷㅡㄹㅇㅡ	-18058
▁라스베이거스	-18059
23	-18060
▁뚱	-18061
누아	-18062
리가	-18063
뻐하	-18064
호르	-18065
▁NX	-18066
▁고하	-18067
▁귀양	-18068
▁라몬	-18069
▁루머	-18070
▁수표	-18071
▁신작	-18072
▁씨름	-18073
▁어이	-18074
▁요아	-18075
▁우동	-18076
▁웅장	-18077
▁웨일	-18078
▁이안	-18079
▁장령	-18080
▁준하	-18081
▁치중	-18082
▁틀리	-18083
▁페드	-18084
▁화북	-18085
atch	-18086
▁기뻐하	-18087
▁낙하산	-18088
▁넥스트	-18089
▁보나파	-18090
▁증명서	-18091
▁1851	-18092
▁끌어들이	-18093
▁하이웨이	-18094
▁보나파르트	-18095
▁페더레이션	-18096
▁줌	-18097
오린	-18098
▁두껍	-18099
▁만국	-18100
▁매번	-18101
▁밀스	-18102
▁본디	-18103
▁분쇄	-18104
▁육아	-18105
▁윤영	-18106
▁체질	-18107
▁촌은	-18108
쿠스틱	-18109
타니아	-18110
▁ㄱㅏㅄ	-18111
▁입출력	-18112
▁절대로	-18113
▁사보이아	-18114
▁스탠퍼드	-18115
▁어쿠스틱	-18116
▁차량기지	-18117
렁이	-18118
체어	-18119
▁내수	-18120
▁디온	-18121
▁미모	-18122
▁비크	-18123
▁셔먼	-18124
▁수류	-18125
▁시경	-18126
▁유장	-18127
▁이견	-18128
▁인피	-18129
▁적재	-18130
▁철원	-18131
▁해일	-18132
▁효능	-18133
코스트	-18134
프랑스	-18135
▁419	-18136
▁건국대	-18137
▁벤피카	-18138
▁포위전	-18139
▁Beat	-18140
▁캔자스시티	-18141
86	-18142
▁넉	-18143
▁럴	-18144
▁볼륨	-18145
▁수서	-18146
▁예속	-18147
▁주경	-18148
리어스	-18149
▁430	-18150
▁FBI	-18151
▁레인보	-18152
▁에밀리	-18153
▁진보당	-18154
▁참모장	-18155
▁캥거루	-18156
▁파트리	-18157
▁하동군	-18158
▁해럴드	-18159
▁1855	-18160
▁블레이드	-18161
▁상파울루	-18162
▁오하이오주	-18163
우어	-18164
처리	-18165
▁낙엽	-18166
▁라티	-18167
▁메사	-18168
▁배설	-18169
▁생가	-18170
▁서천	-18171
▁쇼팽	-18172
▁오닐	-18173
▁현령	-18174
▁베드로	-18175
▁상속인	-18176
▁핵폭탄	-18177
▁1857	-18178
▁캐나다인	-18179
▁크리에이티브	-18180
▁ㅇㅕㄹㄹㅕㅆㅇㅡ	-18181
산읍	-18182
케스	-18183
하늘	-18184
▁광경	-18185
▁도독	-18186
▁변방	-18187
▁상체	-18188
▁알비	-18189
▁원성	-18190
▁적성	-18191
▁한서	-18192
▁서북쪽	-18193
▁ㅈㅏㅂㅇㅏ	-18194
▁ㅎㅑㅇㅎㅏㄴㄷㅏ	-18195
담회	-18196
▁PP	-18197
▁간장	-18198
▁김문	-18199
▁사흘	-18200
▁여과	-18201
▁연임	-18202
▁카잔	-18203
▁후백	-18204
ㅈㅔㄴ	-18205
트로피	-18206
icro	-18207
▁Top	-18208
▁공사관	-18209
▁교직원	-18210
▁글리코	-18211
▁디스코	-18212
▁수산물	-18213
▁시부야	-18214
▁오비탈	-18215
▁지난해	-18216
▁휠체어	-18217
▁노동자당	-18218
▁스티븐스	-18219
▁폴란드인	-18220
ㄷㅡㄹㅇㅣㄴㄷㅏ	-18221
▁좡	-18222
개혁	-18223
봉사	-18224
섬유	-18225
하르	-18226
ery	-18227
▁계란	-18228
▁깜짝	-18229
▁단사	-18230
▁들여	-18231
▁반려	-18232
▁봉작	-18233
▁소란	-18234
▁외동	-18235
콥스키	-18236
cess	-18237
▁Med	-18238
▁변속기	-18239
▁애벌레	-18240
▁작사가	-18241
▁테이크	-18242
▁포천시	-18243
▁갑신정변	-18244
▁다이스케	-18245
▁소용돌이	-18246
ㄲㅜㄴㄷㅏ	-18247
▁결탁	-18248
▁내구	-18249
▁수훈	-18250
▁정시	-18251
▁체첸	-18252
▁활기	-18253
▁기념식	-18254
▁보르도	-18255
▁시공간	-18256
▁시흥시	-18257
▁식물원	-18258
▁지평선	-18259
▁이와테현	-18260
▁데포르티보	-18261
▁여러해살이풀	-18262
댄스	-18263
려나	-18264
버거	-18265
일라	-18266
▁단성	-18267
▁모기	-18268
▁보문	-18269
▁서상	-18270
▁실로	-18271
▁여생	-18272
▁잇달	-18273
▁착안	-18274
▁추궁	-18275
▁치수	-18276
▁헐리	-18277
고양이	-18278
▁시우바	-18279
▁포브스	-18280
메니스탄	-18281
▁반공주의	-18282
▁정사각형	-18283
▁프란시스	-18284
▁병마절도사	-18285
▁투르크메니스탄	-18286
BT	-18287
▁씌	-18288
카테	-18289
▁TG	-18290
▁대광	-18291
▁대세	-18292
▁버퍼	-18293
▁벽면	-18294
▁비이	-18295
▁비참	-18296
▁수배	-18297
▁임베	-18298
▁주치	-18299
▁캔디	-18300
▁톨킨	-18301
▁해금	-18302
▁301	-18303
▁갖가지	-18304
▁구미시	-18305
▁베르디	-18306
▁봉사자	-18307
▁찬드라	-18308
▁펠로폰	-18309
▁임베디드	-18310
▁민족주의자	-18311
▁펠로폰네소스	-18312
▁힉	-18313
레토	-18314
서구	-18315
전기	-18316
▁CL	-18317
▁셀룰	-18318
▁아모	-18319
▁택지	-18320
▁팔자	-18321
▁핵산	-18322
▁211	-18323
▁223	-18324
▁수수료	-18325
▁은하단	-18326
▁일간지	-18327
▁저작물	-18328
▁헤이스	-18329
츠부르크	-18330
▁마음대로	-18331
▁깡	-18332
깨비	-18333
나들	-18334
니엄	-18335
▁경색	-18336
▁다지	-18337
▁분개	-18338
▁수스	-18339
▁압송	-18340
▁지소	-18341
▁태세	-18342
▁폰트	-18343
▁히나	-18344
▁동의어	-18345
▁아가씨	-18346
▁ㅇㅣㅈㅎㅕ	-18347
쇼프	-18348
하스	-18349
ont	-18350
▁YM	-18351
▁담론	-18352
▁롤리	-18353
▁박격	-18354
▁벚꽃	-18355
▁사죄	-18356
▁외벽	-18357
▁유품	-18358
▁음경	-18359
▁정년	-18360
▁크세	-18361
▁NAD	-18362
▁감염자	-18363
▁노스케	-18364
▁상세히	-18365
▁어리석	-18366
▁Free	-18367
▁이해관계	-18368
천년	-18369
흐트	-18370
▁권세	-18371
▁변장	-18372
▁성간	-18373
▁성채	-18374
▁소홀	-18375
▁신영	-18376
▁엠블	-18377
▁이학	-18378
▁카렐	-18379
▁페티	-18380
▁포구	-18381
▁Pop	-18382
▁ㄸㅡㄴ	-18383
▁보니파	-18384
▁컨디션	-18385
▁투데이	-18386
▁행정관	-18387
▁ㄴㅏㅊㅅㅓㄴ	-18388
재기	-18389
day	-18390
▁IA	-18391
▁고증	-18392
▁단호	-18393
▁랜디	-18394
▁명주	-18395
▁민생	-18396
▁실습	-18397
▁열반	-18398
▁율곡	-18399
▁조식	-18400
▁친목	-18401
▁현청	-18402
▁나주시	-18403
▁대주주	-18404
▁수송기	-18405
▁1776	-18406
▁Will	-18407
▁사카모토	-18408
▁서아시아	-18409
니크	-18410
로아	-18411
테른	-18412
▁대흥	-18413
▁돌핀	-18414
▁심슨	-18415
▁욕설	-18416
▁원제	-18417
▁쟁점	-18418
▁조력	-18419
▁지병	-18420
노벨라	-18421
시오날	-18422
▁루터교	-18423
▁비엔나	-18424
▁제이스	-18425
▁집어넣	-18426
▁카운터	-18427
▁나시오날	-18428
▁무라카미	-18429
▁미주리주	-18430
▁엔트로피	-18431
▁플루오린	-18432
▁그레고리력	-18433
▁텔레노벨라	-18434
광선	-18435
왕국	-18436
지대	-18437
▁FR	-18438
▁거액	-18439
▁노회	-18440
▁맛보	-18441
▁슈바	-18442
▁어기	-18443
▁윤선	-18444
▁퇴사	-18445
ㄱㅏㅁ	-18446
▁그로스	-18447
▁다이나	-18448
▁레너드	-18449
▁바이스	-18450
▁오카다	-18451
▁형무소	-18452
▁태평천국	-18453
▁국면	-18454
▁급습	-18455
▁낙랑	-18456
▁뇌졸	-18457
▁만리	-18458
▁반열	-18459
▁빌미	-18460
▁소망	-18461
▁악역	-18462
▁일어	-18463
ㅌㅏㄹ	-18464
▁XML	-18465
▁다면체	-18466
▁달라이	-18467
▁이범석	-18468
▁하이든	-18469
▁핵실험	-18470
타고라스	-18471
▁캄파니아주	-18472
ㄷㅝ	-18473
ㅃㅓ	-18474
볼트	-18475
▁UR	-18476
▁금광	-18477
▁무왕	-18478
▁부총	-18479
▁서던	-18480
▁언약	-18481
▁제학	-18482
▁타오	-18483
▁탄원	-18484
▁ㅅㅡㄹㅍㅡㄴ	-18485
27	-18486
ma	-18487
가야	-18488
스탕	-18489
▁MW	-18490
▁간파	-18491
▁누각	-18492
▁알론	-18493
▁요네	-18494
▁인테	-18495
▁장구	-18496
▁현명	-18497
▁현생	-18498
레시브	-18499
▁병원체	-18500
▁영산회	-18501
▁청구인	-18502
▁ㄴㅗㄹㄹ	-18503
▁올랭피크	-18504
▁프로그레시브	-18505
29	-18506
연대	-18507
▁Po	-18508
▁ne	-18509
▁개요	-18510
▁골목	-18511
▁괴팅	-18512
▁네모	-18513
▁대적	-18514
▁부풀	-18515
▁상시	-18516
▁센스	-18517
▁오도	-18518
▁중첩	-18519
▁진안	-18520
▁코민	-18521
▁타현	-18522
▁회부	-18523
▁거제시	-18524
▁동북쪽	-18525
▁하이델	-18526
고도	-18527
마타	-18528
소득	-18529
▁김한	-18530
▁땅콩	-18531
▁로젠	-18532
▁버즈	-18533
▁살림	-18534
▁시왕	-18535
▁역습	-18536
▁이로	-18537
▁잠복	-18538
▁항모	-18539
루리아	-18540
▁del	-18541
▁가속기	-18542
▁김종필	-18543
▁독립국	-18544
▁배트맨	-18545
▁심포니	-18546
▁청교도	-18547
▁출생지	-18548
▁클라라	-18549
▁조기어류	-18550
▁10000	-18551
▁ㄸㅢㄴㄷㅏ	-18552
를린	-18553
버드	-18554
연료	-18555
▁가메	-18556
▁괴롭	-18557
▁국채	-18558
▁끊이	-18559
▁로로	-18560
▁마고	-18561
▁명지	-18562
▁발송	-18563
▁방한	-18564
▁장타	-18565
▁파격	-18566
▁한참	-18567
▁Bro	-18568
▁대각선	-18569
▁마그마	-18570
▁마인드	-18571
▁사모아	-18572
▁가까스로	-18573
▁레오나르도	-18574
▁묘법연화경	-18575
▁뵈	-18576
투안	-18577
▁누락	-18578
▁몬트	-18579
▁미움	-18580
▁사성	-18581
▁산탄	-18582
▁셰이	-18583
▁와트	-18584
▁호가	-18585
▁메이플	-18586
▁서기장	-18587
▁네브래스카	-18588
▁통합진보당	-18589
슐린	-18590
저민	-18591
쿠젠	-18592
its	-18593
▁간소	-18594
▁교복	-18595
▁미안	-18596
▁사극	-18597
▁수잔	-18598
▁역행	-18599
▁연좌	-18600
▁윤석	-18601
▁입안	-18602
▁케니	-18603
▁템포	-18604
들랜드	-18605
irst	-18606
▁벤저민	-18607
▁피에트로	-18608
▁뜯	-18609
급시	-18610
모습	-18611
바꿈	-18612
페리	-18613
▁각별	-18614
▁공녀	-18615
▁대열	-18616
▁로미	-18617
▁미망	-18618
▁본기	-18619
▁부이	-18620
▁음란	-18621
▁찬스	-18622
▁청화	-18623
▁최경	-18624
▁홀드	-18625
▁베르그	-18626
▁샘플링	-18627
▁스나이	-18628
▁아세트	-18629
▁팰리스	-18630
▁황도대	-18631
▁ㄱㅏㄹㅇㅏ	-18632
aut	-18633
▁CV	-18634
▁나나	-18635
▁노미	-18636
▁당기	-18637
▁밑면	-18638
▁발주	-18639
▁비기	-18640
▁습성	-18641
▁신명	-18642
▁이연	-18643
▁직제	-18644
▁친절	-18645
▁콘월	-18646
▁파사	-18647
▁하쿠	-18648
중국해	-18649
▁Big	-18650
▁논산시	-18651
▁단기간	-18652
▁모티프	-18653
▁새천년	-18654
▁서남쪽	-18655
▁크리켓	-18656
▁스포르팅	-18657
▁캔터베리	-18658
ㅂㅗㄴㄷㅏ	-18659
▁begin	-18660
미치	-18661
증권	-18662
▁DL	-18663
▁독감	-18664
▁마마	-18665
▁액수	-18666
▁정철	-18667
▁지단	-18668
▁퓨전	-18669
▁End	-18670
▁웨이트	-18671
▁미시간주	-18672
▁ㅁㅜㄹㄹㅕ	-18673
▁눌	-18674
평가	-18675
활성	-18676
▁문교	-18677
▁반일	-18678
▁브롱	-18679
▁시로	-18680
▁심신	-18681
▁위드	-18682
▁유즈	-18683
▁이공	-18684
▁준위	-18685
▁화신	-18686
메데스	-18687
▁리서치	-18688
▁코미디언	-18689
빼미	-18690
어하	-18691
연의	-18692
▁노먼	-18693
▁다의	-18694
▁듯이	-18695
▁배영	-18696
▁양손	-18697
▁에나	-18698
▁우메	-18699
▁총알	-18700
▁타나	-18701
▁퇴화	-18702
▁편하	-18703
▁화전	-18704
더니즘	-18705
▁레이어	-18706
▁문화사	-18707
▁해설자	-18708
▁서스펜션	-18709
▁원내대표	-18710
▁포레스트	-18711
▁ㄷㅏㄹㄹㅕㅆ	-18712
▁언더그라운드	-18713
▁과업	-18714
▁라비	-18715
▁로자	-18716
▁성추	-18717
▁세브	-18718
▁연천	-18719
▁장보	-18720
▁천명	-18721
▁픽업	-18722
▁혹독	-18723
▁히다	-18724
▁215	-18725
▁239	-18726
▁510	-18727
▁DFB	-18728
▁변증법	-18729
▁비정규	-18730
▁유니온	-18731
BL	-18732
개발	-18733
코바	-18734
aff	-18735
▁HK	-18736
▁WH	-18737
▁개간	-18738
▁기물	-18739
▁레베	-18740
▁생사	-18741
▁서킷	-18742
▁전갈	-18743
▁종택	-18744
▁질레	-18745
▁쿠키	-18746
▁평년	-18747
▁합체	-18748
▁구석기	-18749
▁베리아	-18750
▁에인절	-18751
▁특이점	-18752
▁포위망	-18753
▁써	-18754
ㅌㅡ	-18755
계리	-18756
▁KC	-18757
▁거세	-18758
▁경치	-18759
▁대양	-18760
[...]
