[UNK]
[CLS]
[SEP]
[PAD]
[MASK]
!
"
#
$
%
&
'
(
)
*
+
,
-
.
/
0
1
2
3
4
5
6
7
8
9
:
;
<
=
>
?
@
A
B
C
D
E
F
G
H
I
J
K
L
M
N
O
P
Q
R
S
T
U
V
W
X
Y
Z
[
\
]
^
_
`
a
b
c
d
e
f
g
h
i
j
k
l
m
n
o
p
q
r
s
t
u
v
w
x
y
z
{
|
}
~

ᄀ
ᄁ
ᄂ
ᄃ
ᄄ
ᄅ
ᄆ
ᄇ
ᄈ
ᄉ
ᄊ
ᄋ
ᄌ
ᄍ
ᄎ
ᄏ
ᄐ
ᄑ
ᄒ
ᅡ
ᅢ
ᅣ
ᅤ
ᅥ
ᅦ
ᅧ
ᅨ
ᅩ
ᅪ
ᅫ
ᅬ
ᅭ
ᅮ
ᅯ
ᅰ
ᅱ
ᅲ
ᅳ
ᅴ
ᅵ
ᆨ
ᆩ
ᆪ
ᆫ
ᆬ
ᆭ
ᆮ
ᆯ
ᆰ
ᆱ
ᆲ
ᆳ
ᆴ
ᆵ
ᆶ
ᆷ
ᆸ
ᆹ
ᆺ
ᆻ
ᆼ
ᆽ
ᆾ
ᆿ
ᇀ
ᇁ
ᇂ
⫸
⭧
ㄱ
ㄲ
ㄳ
ㄴ
ㄵ
ㄶ
ㄷ
ㄸ
ㄹ
ㄺ
ㄻ
ㄼ
ㄽ
ㄾ
ㄿ
ㅀ
ㅁ
ㅂ
ㅃ
ㅄ
ㅅ
ㅆ
ㅇ
ㅈ
ㅉ
ㅊ
ㅋ
ㅌ
ㅍ
ㅎ
ㅏ
ㅐ
ㅑ
ㅒ
ㅓ
ㅔ
ㅕ
ㅖ
ㅗ
ㅘ
ㅙ
ㅚ
ㅛ
ㅜ
ㅝ
ㅞ
ㅟ
ㅠ
ㅡ
ㅢ
ㅣ
##ᅮ
##ᄎ
##ᅳ
##a
##t
##e
##r
##i
##l
##y
##0
##6
##7
##4
##9
##1
##2
##g
##o
##ᅦ
##ᄂ
##ᅥ
##ᆯ
##ᄐ
##ᄏ
##ᅵ
##ᆨ
##ᄋ
##ᄅ
##ᅩ
##H
##k
##m
##c
##ᅡ
##ᄉ
##ᆫ
##ᄃ
##5
##ᅬ
##ᄒ
##ᅧ
##ᆼ
##ᄀ
##ᆷ
##n
##d
##h
##ᅴ
##ᄆ
##u
##R
##O
##U
##G
##T
##N
##s
##M
##b
##V
##D
##ᅨ
##ᅢ
##3
##ᄑ
##ᅭ
##E
##L
##A
##S
##8
##j
##f
##ᄌ
##ᆾ
##ᅲ
##B
##w
##ᆻ
##p
##x
##Z
##K
##C
##ᄇ
##q
##X
##ᅱ
##z
##v
##F
##Y
##P
##I
##ᅪ
##ᄁ
##ᅰ
##ᅯ
##ᆸ
##ᆺ
##ᅤ
##W
##ᄍ
##ᇂ
##ᄄ
##ᅫ
##^
##\
##;
##'
##,
##ᅣ
##?
##.
##ᆹ
##ᆮ
##ᆽ
##J
##ㄹ
##ㅅ
##ㅍ
##ㅁ
##ᄈ
##}
##[
##ᇁ
##ᆱ
##ㄴ
##ㅜ
##ᄊ
##ᆭ
##ᇀ
##ᆳ
##ᆩ
##ᆬ
##ㅡ
##ㅀ
##!
###
##@
##$
##%
##ㅙ
##ㅌ
##ᆵ
##Q
##ㄲ
##ㅘ
##ㅎ
##ㄿ
##ᆿ
##ㅔ
##ㄻ
##-
##{
##ㅏ
##~
##ㄽ
##&
##ᆲ
##_
##+
##ㅈ
##ㅣ
##ㅓ
##=
##|
##"
##ㅒ
##)
##ㅗ
##ㅄ
##ㄱ
##]
##ㅟ
##ㅐ
##ㄼ
##ㅇ
##ㄳ
##ᆰ
##/
##ᆶ
##ㅝ
##ㅖ
##ㅚ
##>
##ㅢ
##:
##ᆪ
##(
##ㄶ
##ㅛ
##ㄷ
##ㅑ
##ㅕ
##*
##`
##ㅂ
##ㅠ
##ㅋ
##ㄺ
##<
##ᆴ
##ㅆ
##ㄾ
##ㅊ
##ㅞ
##ㄸ
##ㅃ
##ㄵ
##ㅉ
##
⫸ᄋ
이
##ᅳᆫ
⭧ᄋ
##ᅳᆯ
하
##다
##는
⭧ᆫ
⫸에
##ᅡᆫ
##로
##ᅡᆼ
##이
##ᅥᆫ
⭧다
⭧ᄀ
⫸의
##ᅧᆫ
##지
##서
##가
⫸을
⭧어
⭧아
##리
⫸이
##도
⭧는
##ᅧᆼ
⫸ᄅ
##ᅩᆼ
##ᅮᆫ
##ᅡᆯ
⫸를
##시
⫸는
시
⫸가
##ᅥᆼ
##라
⭧고
##스
아
##하
되
##ᅳ로
가
있
지
##ᅮᆯ
그
##ᅩᆨ
⭧었
주
##ᅧᆨ
거
##나
사
⫸에서
⫸은
⫸로
⫸으로
⭧ᆫ다
##기
##ᅥᆨ
⭧았
⫸도
⭧ᄆ
##ᅳᆼ
##자
##어
보
⭧ᆯ
들
어
대
마
##과
자
수
나
##고
기
##ᅢᆼ
⭧지
##ᅮᆨ
##만
##니
##ᅩᆫ
것
##르
##ᅥᆷ
일
다
##드
모
##ᅯᆫ
##ᅦ이
전
⭧기
바
##우
##ᅥᆯ
##사
⭧게
##트
적
⭧라
##치
오
##장
##요
##대
##ᅧᆯ
⫸과
년
⭧면
스
##러
##아
##ᅳᆷ
미
⭧은
정
⫸와
화
##부
##미
##화
조
상
유
##수
20
부
##정
##인
##오
##ᅣᆼ
공
비
##터
##주
때
##상
##전
##히
##ᅢᆨ
위
##마
중
인
##데
경
제
차
⭧으
##국
##게
고
##용
도
##력
##제
한
##키
##ᅯᆯ
소
과
무
##구
##성
노
##신
없
##ᅳᆨ
등
##문
성
세
##야
⭧지만
⭧ᄃ
##면
여
##래
않
##원
월
##격
만
##동
⫸에게
개
##ᅥᆸ
##타
##보
타
⭧며
구
⭧던
⭧여
내
##까
리
##그
201
동
피
##간
장
방
선
##거
연
##비
⫸ᆫ
후
##려
##유
##ᆯ리
영
카
⭧을
말
치
우
신
발
##체
드
당
##ᅦᆫ
요
안
##소
생
버
##작
⫸만
⭧는데
##무
##명
##ᅵᆷ
##며
서
##계
의
추
파
##크
원
포
##일
회
때문
명
##재
19
강
##까지
⫸까지
해
⭧아서
##식
##들
##차
##티
##위
##의
최
##00
문
##당
##ᅦᆯ
##루
##후
크
아니
매
배
##카
데
더
실
같
##음
번
관
와
##선
##한
##교
받
##물
불
##프
⭧라는
##행
호
진
코
##즈
라
##실
단
##바
##능
결
##내
##학
##역
##회
##단
반
⭧자
초
패
많
##공
알
##조
특
##디
나오
##피
⭧다고
##람
로
역
작
##모
##속
##토
야
⭧으며
계
##버
⭧면서
##반
보이
쓰
##레
##점
분
레
##분
남
에
##산
국
⭧라고
그리
그러
##생
경우
10
두
따
##각
##두
##록
처
사용
⭧어서
현
출
##본
##습
##레이
##부터
⭧다는
물
##진
공격
##연
##중
저
##류
이후
##호
##관
캐
예
##태
자신
교
##안
못
학
감
달
통
점
재
##군
##저
또
⭧였
애
편
##민
##런
##세
##른
좋
##영
##노
##름
##코
사람
디
키
##해
입
##급
위하
정도
##금
##경
##ᅮᆷ
대하
##방
##법
##발
메
##적
##종
속
너
트
##브
⫸부터
형
함
설
##업
##통
⫸나
김
##포
군
참
##스트
가능
플
게이
##승
##양
외
평
본
##처
토
시키
##란
##술
##매
다른
종
##파
##준
##료
##테
권
##직
승
12
##건
##와
##녀
프
⭧으나
죽
⫸이나
가지
##심
##션
팀
⫸ᆯ
##론
200
뒤
등장
직
살
##투
⭧는다
##입
아이
⫸보
11
⫸보다
히
##표
그리고
용
판
버리
##어지
확
하나
체
게임
시ᄌ
행
경기
변
##ᅥ나
심
운
돌
##운
..
잘
맞
만들
##개
##랑
##판
##여
못하
박
끄
##약
채
##족
##er
##석
##든
사실
간
활
투
##설
집
##령
시간
##황
##께
##형
##대로
##너
##량
##네
목
##련
양
필
약
건
##출
사이
각
네
날
##합
높
##더
##릭
##향
테
##츠
##청
##럼
시작
⭧니
표
루
##추
##품
##현
##에
일본
새
##복
이상
##망
모습
이름
왕
##니다
##것
태
언
함께
존
순
##언
열
##외
따르
##지만
베
상대
⭧려
프로
⭧다가
독
증
한국
##어나
문제
15
##울
##환
##머
병
천
총
손
##ᅳᆯ리
잡
##in
⭧으면
효
⭧거나
하지만
터
##임
##스터
능
생각
##ᆯ라
음
##ᅵᆨ
별
힘
##독
완
다시
끝
⭧겠
##송
막
또한
##병
항
##목
폭
##천
스키
가장
##립
복
들어
근
광
##배
##험
브
식
싸
빠
캐릭
당시
시즌
플레이
##처럼
##럽
삼
티
⭧ᆫ데
듯
누
⭧아야
먹
##막
⫸처럼
캐릭터
당하
및
18
검
##on
능력
산
⭧ᆫ지
##년
모두
##쿠
상황
백
충
##색
상태
니
##락
그렇
민
##결
⭧아도
임
블
레이
길
##쪽
느
##ᅧᆸ
##말
모든
##감
##퍼
##근
추가
금
결국
앞
라이
세계
##악
커
##질
선수
##an
머
##초
##담
16
##벨
##or
카드
친
스킬
##케
##미지
곡
##살
##탄
##ᆫ드
업
현재
##등
얼
합
슈
쿠
넘
##편
악
##남
많이
##쟁
⭧ᆫ다는
통하
##메
전투
쉬
효과
다음
30
다만
급
그러나
##느
눈
존재
##함
지역
##라이
13
미국
⭧ᄇ
취
여기
시리
첫
##냐
##택
##항
청
##접
##냥
14
페
199
⭧서
매우
엔
##예
법
황
##ar
창
이러
클
##ᅥᆯ어지
북
달리
절
이ᄇ
17
##견
##절
극
##존
대학
얻
⭧ㅓ
허
그런
##강
골
##글
상당
뜨
⭧ᄇ니다
레벨
##ᅡᆯ리
##패
기록
##범
스타
##he
시리즈
게
찾
째
괴
⭧야
##at
이유
인하
##집
철
기술
##움
##ᅮᆼ
물론
무기
바ᄁ
엄
##득
어ᄄ
그래
이용
의하
여러
##왕
올리
처음
##규
⭧다면
놓
난
자체
⭧시
##커
부르
팬
방송
곳
100
이것
이런
은
##별
필요
영화
줄
##템
워
실제
환
##워
##널
해당
25
들어가
마법
모르
##은
주인
##곡
귀
##열
일반
스ᄐ
탈
⭧ᆫ다고
⫸마
⫸서
돌아
⭧어야
규
거의
꼬
##끼
##거리
역시
바로
리그
학교
혼
범
나가
잠
사건
##틀
##큼
##en
다르
같이
특히
관련
유니
기본
##달
2017
붙
##ᆨ스
##착
부분
즉
위치
피해
##야기
⭧도
##으
진행
류
##ou
겨
아무
방어
격
2018
면
탄
##칭
이야기
##부분
축
대표
글
##다가
##창
담
##짜
마지
국가
좀
⭧는지
없이
##박
⭧냐
##례
⭧음
제작
##권
며
##찰
메이
활동
인간
##난
싶
동안
##육
밝
작품
걸
알리
증가
##때
##변
짜
둘
##페
웨
##괴
풀
##롭
대부분
준
래
쉽
뿐
##al
접
비스
마지막
본인
##찬
몸
자기
씨
2019
##ᆯ러
일부
##혼
헤
지나
계속
⭧ᆫ가
##활
##렵
##시아
떨어지
21
암
생기
서울
##ᇂ게
몬
우리
##극
몇
내용
##es
샤
##광
러
주인공
벌
##률
넣
2016
덕
감독
##희
참고
속도
관계
50
##철
##애
##순
##월
맡
팔
흐
⫸라
##전히
까
중국
##없
대신
##슨
수준
이전
그냥
##베
##린
타이
쪽
⭧어도
⭧습
비슷
어느
⭧으니
나이
##징
전쟁
비하
지금
##블
강하
⭧라면
희
##턴
##날
##응
만나
성공
22
스토
질
낮
기준
홍
뛰
도시
##ᅦ인
밝히
인물
##탈
##돌
논
⭧습니다
멀
울
##불
슬
##랴
이루
배우
협
⭧도록
##벌
⫸라고
198
상당히
공격력
그녀
자리
대한
24
##율
최대
기사
올라
##ᅦᆫ트
##민국
결과
##온
⭧더
##ᅦ이스
홈
지원
##ᆷ버
그대로
평가
##리스
시절
밀
##림
##증
너무
빠르
육
뉴
##플
##략
보스
제외
##it
⭧므로
죽이
##할
연구
##씨
##버지
의미
온
망
나타
⭧ㅏ
##ᅦ이지
실제로
##ᆯ로
##축
##백
측
소속
##라지
##북
이미
⫸로서
봉
##귀
승리
직접
전체
2015
##책
영상
대한민국
보내
향
23
어렵
원래
유닛
퍼
체력
여자
##을
⫸마다
##굴
언급
그것
##획
##념
묘
개발
데미지
##리아
멤버
##ing
유저
갖
##st
갈
##le
##학교
머리
##ic
츠
휴
이동
##가지
##앙
마음
설정
40
싸우
정보
책
⭧ᆫ다면
맨
씩
방법
컨
문서
몰
선택
애니
차이
님
##re
깨
##늘
과거
가까
##ᆷ피
##운드
던
몬스터
듣
센
쇼
왜
##평
##슬
⭧나
출연
성우
불리
송
##누
##몬
친구
포함
파이
⭧란
##욱
돈
침
##dd
빼
석
##닝
농
##ᅦ이션
갑
뜻
뭐
압
탑
대상
설명
거리
엄청
프리
혹
어ᄍ
사회
소리
##총
바람
플레이어
장면
##딩
힘들
우승
최고
여성
##봉
버전
사랑
바뀌
아버지
즈
##웅
칼
##침
마이
동시
⭧드
공식
##팅
유명
시대
스럽
2014
##켓
답
발생
영향
사망
주로
어떠
꽤
대회
프랑
##주의
남자
궁
층
색
결정
조금
⭧려고
발매
26
주장
출신
아이템
⭧러
##ff
##ᅩᆸ
초반
000
역사
걸리
섬
빠지
인터
일어나
학생
나라
전부
버스
공개
28
##랜드
푸
##쉬
운영
오르
서로
유지
콘
오래
스토리
모드
##밀
##el
27
##ᅦ일
대사
구성
##염
엘
##갑
파괴
제대로
##am
정부
방식
만큼
음악
강화
자주
31
쏘
중요
아직
후반
이때
##쁘
나타나
또는
노래
월드
##컬
the
정치
##델
과정
형태
밖
최종
새롭
다니
독일
시스
역할
르
좌
휘
최초
억
##라도
대전
##벽
딜
##랙
끼
착
찍
마리
##필
쓰이
이벤트
누구
##om
##머니
강력
아래
정말
변경
회복
##얼
##곤
##클
##먹
##확
기존
##우스
싱
##맨
바이
그런데
##잡
볼
영국
보통
비교
드래
소환
잔
느끼
##아가
정신
##객
폐
마찬
마찬가지
이기
##la
⭧든
어떤
조선
##었
당연
##측
특성
인기
##is
엄청나
성능
##프트
늘
링
확률
속성
##뜨
마을
⭧듯
##번
먼
행동
움
##이도
##훈
바꾸
⭧라도
앨
2013
슈퍼
오히
노선
다이
⫸대로
윤
모양
##덕
이제
오히려
케
풍
데이
올
드라
##풍
가깝
자유
아들
교육
197
발견
차량
##억
라인
##퇴
##휘
짓
29
사라지
끌
##너지
게다가
술
32
하이
부족
특수
프랑스
##et
이번
00
대학교
##손
확인
성격
끝나
문화
유일
활약
차지
##렌
흑
수록
##ol
2012
장비
관리
##혀
##써
##ion
아예
##답
영웅
응
일단
입장
구하
녹
##슈
액
내리
생산
맞추
따라
시스템
빛
이렇게
##지어
제국
흔
맵
훈
숨
##폭
고등
뽑
##웨
어리
##ᆫ스
##숙
돌아오
에피
들어오
먼저
심지어
득
경찰
반대
##디오
계획
주변
거기
##레이드
운동
2010
앨범
##던
자동
⭧어요
##골
획
완전히
조건
드러
##램
우주
기간
사진
##엇
##새
##ᅢᆼ크
##레스
애니ᄆ
난이도
부대
##옥
적용
발동
개인
기능
##튼
##ow
지구
뮤
건물
60
감소
위원
잃
##nd
km
##멸
##20
축구
자세
##통령
##il
떠나
##ig
##므로
어디
그루
스ᄑ
중심
⫸으로서
모델
##ed
실패
견
##링
##져
지키
그래서
##곳
세트
혹은
중앙
##ᅦ이트
선거
##뢰
⭧라며
현대
35
회사
덕분
##ᆼ장
돌아가
클리
초기
##ᅩᆾ
전혀
얼굴
##롯
##먼
작가
바다
시기
듀
표현
국내
원작
##충
민주
대통령
패배
##밖
##탁
##웃
물리
처리
오브
순간
TV
크로
하루
동일
##뷔
스트
모으
지속
프로그
드라마
반응
지방
##익
무엇
얼마
날리
열리
##균
##ᆨ트
##버스
도움
⭧더라도
인정
참여
기관
맥
애니메이션
출시
##니아
칸
명칭
##ac
판매
담당
데뷔
##as
##나마
##엘
##없이
꾸
퇴
##밖에
##BS
##압
정확
##싸
요구
획득
196
땅
##룡
굉장
생활
그렇게
of
⫸루
시점
헌
컴
2011
설치
작중
넘어
다양
⫸밖에
발표
후보
##끔
그룹
상승
##아내
진출
선발
아군
구조
기억
롭
항목
Lv
영어
만화
가격
움직
습
탐
단계
족
##소드
그림
##럭
밤
특별
##들이
올라가
마스터
실력
##ve
그나마
##놓
핵
세이
⭧으므로
##리카
##죄
량
드래곤
아마
⭧다며
턴
세우
이거
찌
01
##욕
야구
빌
킹
##채
⭧았었
덱
졸
시장
맛
수비
낙
The
미치
가족
##비스
아주
범위
##탕
##찮
사고
특징
밀리
연기
##넷
⭧려는
##소리
경제
시청
방향
스ᄏ
대체
딸
패치
경험
##뜨리
계약
⫸한
퀘
고려
##스크
##조차
##ot
남기
⫸한테
⫸조차
숙
벨
아르
확실
참가
국제
딱
지니
디자
에피소드
500
발사
세대
어머니
폭발
묘사
⫸로부터
##트로
##이드
##덤
주의
프로그램
고등학교
80
던지
믿
활용
2000
트리
굴
어떻게
피하
상위
결혼
무시
⭧라서
⭧ㅕ
##으키
비판
목적
##효
더욱
준비
##못
중간
나무
##밍
심하
각각
##ad
쿨
보호
37
브라
##ᇀ이
러시아
45
오리
펼
묻
챔피
버프
##맹
이ᄁ
라운드
굉장히
이미지
⫸다
패턴
빈
국민
##궁
히로
##혹
이어지
위험
진짜
옆
참조
##인트
내려
꿈
##검
조사
대미지
생명
조직
죄
단순
혼자
싸움
과학
여담
크리스
약하
##ᅦ임
이루어지
꺼
전하
나쁘
스피
타입
다루
##뷰
흡
소모
세력
현실
파워
St
시도
안타
⭧ᆯ지
##씬
염
제공
욕
주요
구간
흥
율
194
유리
불구
거치
가리
전문
지하
유럽
할
일으키
연속
웃
##칙
부산
세기
##머지
나머지
순위
논란
돕
조합
한정
포인트
괘
익
사실상
헬
케이
약간
##아오
론
##틴
노리
동료
##id
70
클래
뛰어나
##샤
분위
성장
훨
09
떠
##섭
##ay
아프
무장
여전히
바라
디자인
⫸랑
##갈
즐
분위기
당연히
취급
항공
출전
##스로
90
이해
⭧으면서
학년
얘
린
##렉
일정
규모
등급
##혁
싫
훨씬
FC
##ER
지도
투수
소설
징
##나라
한편
예정
운행
블랙
성적
##협
인구
읽
부상
쌍
기대
자연
엔딩
기타
그래도
⭧구
마치
삼성
##러지
벽
계열
mm
똑
02
해결
2009
03
폴
괜
사업
가져
##ch
스테이지
향하
센터
##킹
가스
##완
어두
##혜
방면
연결
미션
300
콤
옥
엘리
방영
플래
최근
##빈
의견
튀
##낌
⭧기에
연합
수정
##짝
짧
##us
48
변화
도망
종류
##ir
⭧자면
⭧ᆯ까
그거
곧
표기
잘못
⫸야
률
칭
전용
이르
태어나
배치
##받
05
털
퀘스트
195
추정
33
for
터지
2008
⫸고
탓
발전
##다리
벗
##척
소녀
##혈
36
##엄
##폰
08
대화
변하
거대
정상
직업
##스타
##참
끊
안정
척
07
움직이
##ur
도중
언제
죽음
엔진
충분
⭧네
올라오
스스로
큐
종료
작전
넘어가
##티브
##파이
스카
수상
챔피언
펼치
세상
품
나중
##둥
붙이
십
##텐
독립
일행
비행
요소
나누
캠
느낌
속하
##볼
##취
수도
당신
HP
굳
벌어지
벌이
로보
##액
보상
에너지
##륙
##ᆩ이
지내
방어력
달성
비롯
전설
팩
녀
##..
무리
공연
##od
미사
##센
만드
06
력
동물
⫸만큼
솔
배틀
##BC
부활
특정
관하
장착
훈련
절대
빅
##ᅡᆯ리아
th
졸업
철도
전기
지지
렌
##자기
##im
기업
##암
위기
포켓
##길
##라고
넓
지휘
행정
다리
싱글
번역
런
##빠
번호
근접
##란드
틀
더불
돌리
제목
점수
건설
빨
04
만약
관심
아이돌
미래
##어들
황제
내부
스페
남성
##렬
스코
반면
따라서
득점
##un
충격
##ut
신경
##겁
SK
시험
전차
##뉴
요리
군사
가르
목소리
거두
목표
##수록
삭
홈런
소재
인사
덤
뚜
전사
2007
##데이트
업데이트
바르
정체
멸
you
공간
##지션
똑가
가끔
저지
무대
##튜
카이
픽
어찌
시설
놀
사이트
타격
셈
로마
오늘
34
뒷
꽃
##인물
##즘
##컵
##흥
배경
##트리
링크
록
지정
⫸다가
장소
각성
전작
##죠
찬
서비스
공중
마르
빙
최소
##큐
항상
부여
##다니
##ro
냉
교체
도로
그만
파티
전국
##닉
맹
분노
⭧느
베이
##너스
##폐
생존
⭧으려
작곡
북한
얘기
넘기
등장인물
켄
정식
예상
스포
⫸마저
자랑
의원
##알
혀
⫸으로써
작업
높이
잉
포켓몬
사냥
##디어
##쇄
랜
크리
분류
종족
늘어나
이끌
##엽
##층
인도
벤
악마
##ag
##igh
소개
야마
드리
38
올림피
아키
쌓
겸
##ver
단체
혈
애초
제한
인터뷰
괜찮
⫸ᆯ로
가수
홀
필드
##ec
결승
##동안
cm
판정
##뿐
롯
⭧듯이
기계
이어
클리어
75
연출
목록
각종
외국
하늘
컵
이외
타카
명령
##ᅪᆯ
정하
##ent
2006
제일
초등
기체
병력
지상
깊
카운
페이
재미
로봇
개념
스타일
아카
##보이
트위
가운
55
놀라
##드리
전반
확정
##이트
기동
in
##콘
교통
옛
정작
##꾸
##허
##촌
193
건담
레어
비용
##쓰
퀴
옷
##탈리아
별로
파일
왼
##ak
##스티
화력
장갑
옵
올림픽
수행
⫸뿐
몽
##랄
⭧니까
군대
드러나
사항
가운데
갖추
표시
##흐
크기
##뮤
⭧오
따로
인식
시티
행위
사격
수치
경쟁
##겨
라이브
료
2020
사거리
납
to
##um
##최
누르
##쉽
기반
변신
갑자기
저항
감정
',
##쿄
##러스
나름
포지션
비밀
잇
##젝트
진화
이탈리아
완전
평균
왕국
단점
##짓
뇌
보유
집중
인천
스티
코미
##리오
란
교수
##ᆨ터
##셉
근처
통합
기회
병원
살리
vs
폰
직전
에이
던전
노력
특이
임무
띄
##아들이
의식
##라인
자원
전자
어쩌
⭧냐고
느리
국회
설립
탈출
스태
코스
##친
놈
##화국
정의
쯤
##윤
오버
압도
##ST
오른
혁
레인
이닝
옮
월드컵
부모
촬
단어
다크
때리
부정
환경
##em
##앗
고양
마시
현상
##ub
정리
사례
잠시
떨
사정
##비아
판단
효율
시전
제품
이쪽
아파
콜
쥬
펜
밑
극장
⭧더니
치명
스위
##텔
본래
아스
##르트
##ᆯ링
##리어
나서
주제
##말로
무슨
촬영
##000
삭제
붕
상관
사무
의외
주문
위원회
전력
가문
⭧ㅏㅆ
겪
##낙
##븐
동생
고속
컬
##어로
원인
주민
대구
##묘
여행
물건
옮기
지배
제거
##헌
발언
강제
키우
소련
연습
곤
치료
병사
포기
골드
위력
요시
파트
도전
##무리
전개
2005
기다리
이하
노트
역대
새로
책임
해군
##째
중학교
기념
##요일
도입
정책
점프
앞서
완성
웹
복귀
##싱
실험
##ight
화면
42
##야마
루트
⭧려면
유사
고정
공주
도쿄
살인
의사
모이
음식
41
##학생
레드
##좌
칠
별명
차원
직후
선생
끝내
이적
뿌
히어로
불가
다수
셋
버티
사기
중반
나이트
39
받아들이
잡히
##섯
티어
전략
숨기
히트
엑
어둠
⫸에게서
분명
밴드
마나
붉
공동
도착
2004
무려
미니
쫓
꼭
##모토
션
##특
접근
가치
언어
녀석
짐
제도
##야말로
일러
EX
LG
⭧은데
빌리
정당
⫸으로부터
텐
회피
텔
추천
타임
조종
⭧ㅓㅆ
##ᆯ린
정규
사상
시민
대기
반드
로드
##젤
예전
##ce
살아
확장
아파트
신체
빨리
##숨
##그레이드
업그레이드
##루스
마사
쥐
구매
##AR
줄이
연장
멘
롯데
리더
자료
##퓨
랭크
이곳
반드시
폭탄
##os
투표
##끄
탈락
꾼
오프
타이틀
인터넷
##밥
부탁
장치
학원
단지
완벽
라이트
미사일
종교
44
##찍
우선
##ri
일러스트
소유
형식
닌
해외
고대
낫
##시마
##AN
구역
장점
사령
셰
최강
이사
힐
심각
산업
##걸
##듀
아내
##ula
Ch
금지
늦
##벤
⭧죠
##ON
수마
##셀
##역시
하드
탱
앙
추측
버그
실시
##덴
No
위키
마무리
##ap
43
99
⫸이라고
⭧곤
대장
##홍
##몇
클럽
몇몇
공포
가사
##나이
##ᆨ정
노동
##and
2002
연재
가드
구분
복수
취하
st
검사
##마자
디스
아라
범죄
톤
합류
점점
달러
즐기
서버
로스
다소
조정
##아하
요청
드로
행사
##이치
차례
form
덜
옵션
##탑
떡
재료
보병
밥
조작
선정
선언
수많
마법사
전통
택
교회
잭
입히
타자
걱정
프로젝트
브레이
롤
kg
##쳐
그리스
종종
개그
47
스포츠
46
##빙
데이터
51
191
##첩
좋아하
컴퓨
개월
암살
부하
##듬
광고
형제
열차
formula
##르크
트레이
채우
템
성향
뉴스
대중
##털
개최
##십
평범
폼
⭧자마자
KBS
##ᆯ리스
아쉽
##조건
포스
숲
그야말로
실점
모자
한계
스페인
구단
고르
##죽
채널
##맞
뻔
대결
설계
##ter
거부
코드
통신
언론
아무리
보조
##아보
워낙
생물
다행
##맥
비중
종합
⭧고자
전화
행성
기지
컴퓨터
민족
멜
and
##셜
맺
한글
무한
투입
개봉
해석
값
무조건
##트라
캡
##아지
본격
영혼
트로
정확히
연주
⭧냐는
굳이
운용
##ul
MA
평소
실수
회장
원정
광주
##IN
지적
박사
소년
##타임
##ᆺ자
지명
와중
##무라
##ᅳᆯ린
인상
1000
위협
미드
##버리
2003
닉
줄어들
멋
젊
##ᅳᆯ링
회의
상징
충분히
##꽃
으
##op
등록
대로
##몽
##ᆺ수
⭧는가
사태
집단
대형
가정
대응
대비
쓸
보너스
터미
아웃
카메
자동차
데스
소비
엠
##ck
전원
공사
보컬
체제
페르
시청자
%,
다운
뚫
태양
##되
특유
희생
150
조각
먹이
##드로
개조
가면
무사
65
##FA
혐
샷
군단
##ation
빵
편성
뿌리
도망치
봉인
깔
네이
리어
여름
MBC
마력
##따
흉
##니스
SP
긴
통과
일종
##ᆫ만
기자
떠오
##ra
##려가
192
##라스
잊
똑같
육군
##콩
##펜
혜
##자리
발음
장군
공항
##셔
##녕
죠
생성
벗어나
얼마나
##의원
시나
분리
##스케
방문
64
##리트
오리지
##있
II
##오스
가하
⫸로써
드러내
##꺼
##ᅦ이크
고양이
하야
촉
장르
보다
동맹
빼앗
장기
간단
##톤
함정
##줄
반복
##칸
⭧ㅏ서
서술
⭧을지
##튜브
튜
소식
앉
의도
##려오
##넘
사쿠
분야
디지
##깨
전환
근데
갤러
52
불과
합치
유튜브
랭
##니까
바닥
영입
안전
경기도
그때
치르
##돈
괴물
저격
제안
##텐츠
흡수
점령
##찌
You
##ᅧ보
의지
##깐
밸
##시스
⭧는다는
윈
예선
초대
루이
필살
최후
##니티
따지
400
##릿
개선
공략
유도
##빌
화염
##남도
##엔
##빛
숫자
독자
오토
전술
##art
코치
그저
블루
미리
방해
##나가
##님
주력
원하
액션
확보
외모
인원
가져오
평화
매일
##풀
진입
터미널
이론
##런스
규정
관통
VS
수사
클래스
비트
라디오
찾아오
장난
넥
##랗
49
들리
이치
투자
⭧느냐
승부
컨셉
눈물
체육
목숨
형성
지나가
적극
패러
인류
방패
AP
56
##시피
상자
##논
##핑
음반
몹
에스
모험
시내
사과
아름
서브
겹
왼쪽
부수
적절
흐르
한국어
계기
보도
2001
함대
구축
트래
떼
##동생
거짓
저지르
##팔
살아남
의심
⭧ᆫ지라
약점
챙
쳐
예술
공화국
들이
역전
궤
인형
##퀴
기원
53
오리지널
54
비디오
##페이지
작성
완료
##모리
...
데리
자라
공부
은퇴
수리
솔로
코어
회전
쓰러지
##라이더
단순히
풀리
대단
질문
In
걸치
PC
편집
황금
닮
끌어
민주당
마침
뮤직
훌
##래프트
날개
프레이
##바이
핑
##시브
홈페이지
덩
착용
필수
##삼
트랙
오스
상대방
멈
보수
꾸준
85
해제
##옷
##토리
엄마
아프리카
드라이
경상
##ia
사단
습격
##ᆯ리아
장관
편하
1990
현장
사장
비난
포르
희망
코스트
걷
원거리
##ill
청소
수원
##ie
재판
선보이
분석
하위
카페
##레이션
명중
테러
앤
아시아
퓨
진정
더블
무력
##로드
선물
##RA
##나다
인지
성인
수호
ST
마크
삶
##덜
모티브
##IA
##몰
비고
스파이
에이스
콩
확실히
아름답
행복
경계
부리
저주
감안
중단
태도
##를
가슴
190
##ik
카즈
임명
남편
공원
기획
꼴
쿄
지식
##롱
관광
##텀
표정
허용
승강
스마
쿨타임
장애
무섭
수단
지나치
오른쪽
셀
탑재
바탕
본선
멈추
딱히
인민
제시
친하
소프트
좁
상처
주도
##무원
당장
59
망하
이스
롱
##연히
처치
##북도
의문
영역
유래
기점
테마
소울
테크
고통
리스
보급
유우
##ab
컷
직원
불명
날아가
비싸
돌파
기어
멀티
베이스
위주
##닥
작용
고유
브로
주목
제압
대답
챙기
120
58
##워드
##뉘
나카
꼽
잠깐
##마스
주연
⭧아요
⭧을까
카운터
여부
##잔
##울리
제기
순서
갈리
측면
꺼내
베르
체계
도서
##춘
##est
탯
57
업무
박스
우수
진영
부인
텍
##th
MP
멀리
퍼지
문명
그레이
카메라
패스
횟수
드립
후속
멸망
통일
온라인
##all
버튼
공장
텔레
⭧어라
낳
시나리오
⫸아
##푸
지점
거주
케이스
갱
귀족
나뉘
##ea
##쇼
##거나
66
가ᄇ
##뇌
95
코너
문자
당선
##쇠
내려가
엉
겨우
협력
특기
차별
계산
소수
펀
지옥
##ᆸ터
후지
셔
댓
눈치
약속
듀얼
널
삼국
##로스
최악
마츠
##럴
건너
춤
스크
뉴욕
달라지
랍
테이
에어
Sh
시체
연계
⭧ᆯ수록
딜러
조지
은행
##붙이
다가
뱀
⭧건
##머리
크로스
Lo
##ct
늘리
살해
가볍
ddd
나타내
유키
on
##ᆨ시
프레
개편
상하
오후
가져가
1999
그라
##다르
융
Re
붕괴
배신
제로
틈
가로
대놓
자격
미스
미야
혁명
자치
게시
매치
군주
부담
110
##ddd
dddddd
Sp
자이
컨트로
게이지
1998
##AL
해금
겨울
국회의원
어울리
견제
증거
##핀
레이저
외부
##픈
##꼬
최대한
군인
장전
⭧ㅓ서
교사
필살기
##릉
##AT
62
출발
진실
제조
자살
핵심
##PS
정권
##워하
균
어린
대원
웨이
##륭
여왕
전장
드물
궁극
미군
##OR
중화
연방
용병
##니어
마왕
아메
섭
로켓
귀엽
니코
아침
댄스
옹
##VE
거절
충전
##아리
##라리
룰
한화
타이밍
출생
쓰러
브리
스프
봄
가르치
유용
공산
체인
SS
일본어
기분
SBS
미나
이성
##달리
##터리
커뮤
조준
만족
충돌
고급
브랜드
도구
단위
취소
블로
애매
교환
⭧는다고
스피드
부진
넷
⭧고서
거래
##ate
스킨
⭧쿠
##래도
스파
##사카
수학
흔히
##ess
피해자
##컨
극장판
토스
Th
##ell
카르
61
반란
제주
무게
##광역시
발휘
세계관
##킨
얼음
##ard
##읍
76
끼리
어떻
플라
장수
파악
후반부
##멘
하트
##ang
단독
아무래도
겹치
인생
모션
레전
홍콩
막히
패시브
공통
##IC
근무
판타
자르
##ue
신화
##랜
비록
삽
격투
아머
한자
##ant
헤드
##ack
순수
몰리
##ers
따위
피아
Al
NP
77
##두르
구입
정령
파이터
##ine
88
공군
1997
##다수
운전
72
등등
혼란
쿼
계급
자식
가입
수입
##하라
스코어
닥터
오스트
##심히
빔
내주
회수
##어내
권력
⭧자고
경력
본부
핀
채용
지시
##세이
공작
근거
커버
탄생
생일
밸런스
해방
비율
누리
##젠
##흑
외치
기절
우려
##촉
건강
쪼
지하철
언니
엑스
##웨이
용도
남부
꾸준히
##가락
아사
병기
갓
표준
갤러리
BG
⭧ㅕ서
##헨
타워
모리
실질
돌격
지대
##ok
##OS
납치
증명
스테
협회
반영
홍보
지급
##피아
무너지
##둑
프라
대공
강조
입학
be
오오
업체
##멀
불안
##렛
덴
랜덤
373
FI
윙
유형
왕자
##아나
외교
##픽
요원
##디션
경영
or
온가
##유키
대륙
감염
경향
쏟
98
fff
온갖
훌륭
광역
감사
CD
gt
⭧아라
연대
노르
제이
##솔
마녀
실행
맡기
장식
문학
##ive
패러디
젠
울트라
기독
서포
덮
페이스
찌르
물질
600
원수
주어지
없애
내놓
입단
##오리
재생
가까이
##크래프트
스페셜
화살
추진
주년
어차
찾아가
집안
고민
내내
설득
대다수
계승
1996
트라
선배
승강장
살짝
사카
어차피
부문
폐지
##ast
캐나다
##고기
PS
고기
##AS
영원
정지
대놓고
와이
이슬
##들리
신문
##피스
##어리
베트
1995
밟
보물
낭
적당
##메달
킥
아나
오류
신뢰
사전
##바로
아리
##멍
이렇
연예
지우
작사
즉시
⭧ㅓ야
기기
흘리
##즈키
##uby
",
파라
전선
당황
##ED
미소
내려오
함선
괴롭
##tt
##휴
아야
##다지
68
뒤집
페이지
##ee
폭풍
브라질
등판
은근
쇠
lt
오픈
800
소문
짝
헤이
탑승
명예
열심히
상품
화장
입수
레전드
오프닝
⭧군
##렘
필리
별도
갑옷
경유
심리
시행
락
파리
##붙
경기장
러브
령
단일
63
##시오
말리
메탈
마이크
의회
##렴
1980
변호
##팩
라스
통제
마련
늑
##아먹
랩
##카와
틱
공유
댓글
반격
##ong
##AM
ruby
##ᅦᆯ라
운명
가면라이더
정류
푸르
응원
##세우
크루
캔
레오
후쿠
한때
커뮤니티
신청
쓰레
트위터
격파
라이벌
사령관
##ort
⭧리
김성
주전
갤
고전
기독교
출판
공기
##납
습득
이승
##웨어
컨트롤
중계
랜드
깃
편의
퀄
##ith
하수
수업
심장
오해
처하
불만
신고
마인
마주
두산
울산
71
##if
74
관객
외국인
##ᆮ히
카나
정말로
보정
주위
##ly
메가
스트라이
##나무
##fff
건축
##아버지
출장
....
용어
MV
##ld
그곳
전달
닿
73
여론
67
메이저
ffffff
민간
사운드
짜리
절반
조치
묵
가리키
##티컬
고치
지형
가토
갈등
여신
##딘
##도우
붙잡
임시
무적
##ᆯ릭
##학자
재능
챠
가득
요새
전함
아오
전공
##겨나
둥
압박
NC
##ain
리버
별개
엔터
초월
##ist
96
알렉
쌓이
오로
종점
연구소
네이버
##묵
##쥐
스튜
##타인
1994
##ind
안드로
북쪽
##드라
카라
전형
추적
팝
TH
그다지
메타
시각
180
컨텐츠
남쪽
##돌리
제하
지ᄏ
무르
가이
늑대
보장
발매되
써
AC
돌진
시야
소멸
##서트
판타지
##크로
81
AT
##ᆷ프
결승전
전시
널리
클라
타점
다행히
파이어
일부러
무지
⫸하
##럿
탁
##렁
##per
동기
불꽃
그만큼
##가와
따오
동네
환자
##듀서
프로듀서
##ps
강원
##지컬
##EN
서부
쉐
여동생
문제점
흔하
적히
화려
화이트
##츠키
쓰러뜨리
그림자
선호
왕조
동원
폭력
##놈
상향
아티
우스
지켜보
##깝
파이널
회원
이마
대만
뛰어
본명
치명타
유비
유로
북부
맞서
굽
물러
##EC
소드
⭧자는
##툰
##ᆺ가
클로
78
신라
##식간
91
맘
##OL
##콤
##스탄
수요
순식간
연상
##어스
무난
곰
##ew
종이
도서관
##ᅫ지
신세
향상
전역
메시
매력
학과
차트
전적
##더스
틀리
변형
##캐
최상
헨
전방
부품
##팡
지르
아시
84
CP
체포
영토
성과
일상
수집
크리티컬
암흑
전투력
시드
게이트
##사키
코믹스
아우
테스트
키스
아트
팅
영업
##LC
킬
##ᆷ치
마술
me
인수
토모
##ry
수용
조절
저런
파견
플로
드디어
오랜
폭격
복잡
학살
유전
복장
##려움
오빠
82
바라보
대우
떡밥
릭
##lo
입력
구현
편지
##껏
##융
개통
생명력
호환
현지
97
니시
추락
키리
신인
사자
천사
도달
아무런
고향
콜라
동부
닌자
사토
##덜란드
네덜란드
청년
86
##찾
창작
반지
밴
아가
경비
점차
작동
맞이
콘서트
연관
프레임
교황
엘프
스펙
##일랜드
##브리
한국인
쓰레기
수송
출현
노예
그치
스톤
기초
바이오
##레나
낚
짱
모바
덧
추격
⭧단
해설
it
해체
69
객
##퍼스
⭧다시피
몰래
달하
토리
##어버리
조용
구도
충청
묶
의상
##노스
심판
##밀리
간격
공급
녹음
나루
is
주먹
아무것
##모로
##히로
식물
막장
시위
조성
NPC
연사
##ᆷ새
프리미
전투기
조조
사쿠라
##오프
##IT
제자
퀸
둘러
##둥이
돌아다니
수술
무효
썰
마스
스마트
연애
검색
슬롯
⭧잖
실드
만든
감시
##타로
스카이
레스
US
그래픽
일제
블록
꼬리
법원
##스트라
동쪽
##특별
찰
마리오
⫸께
경험치
구체
MS
고교
룬
옛날
놓치
까다
알아
##오카
An
통상
총기
김정
##티나
뼈
##보내
범인
##ᅦ이터
룡
구속
긍
베트남
라이더
##글랜드
진지
##ust
마리아
신분
대립
신규
장교
은하
연락
카미
어깨
국립
예외
쿠키
앵
250
##주시
KT
강의
##어도
##칠
인근
춘
입구
탱크
##ᆼ이
지도자
신성
뷰
다섯
차단
규칙
글자
##50
되찾
불편
대대
##뜩
메카
디아
마도
평타
프린
창조
요정
언제나
바보
박살
코인
안습
총선
##헤
유희
모바일
동작
##도로
토론
후기
전라
##비전
##홀
여러모로
에드
환상
189
거짓말
##디아
노출
기여
의료
##파이어
권총
세월
소총
접하
이래
이리
이득
농구
어택
##즌
일원
##ᆯ레
자이언
무료
신호
블레이드
202
서쪽
##영상
가시
이날
1992
##버트
부위
##크스
출처
정복
개혁
음성
미술
폭주
그르
극단
잠수
고생
##깔
띄우
92
##옹
헌터
##BO
##ore
##ᅢᆼ이
##저히
간부
겉
Ar
참전
반발
전직
교전
고용
투어
대체로
양산
일자
보석
고문
폴란드
대량
연도
상점
83
글로
렙
라이프
제법
호평
상상
제어
동영상
길이
수영
마루
정류장
##리티
승격
전대
Te
##보드
출력
⭧랄
##ᆸ스
겐
사양
합격
89
기습
⭧잖아
휘두르
터치
##FF
101
사마
##룩
93
1993
공학
잉글랜드
반하
지휘관
북미
De
MAX
제작진
태우
기병
윌리
촌
득표
⫸하고
중대
94
요괴
합성
미디어
⫸이랑
깎
다이아
머신
환승
인증
##륜
##다이
⫸링
법률
com
79
끼치
적어도
탄약
조심
가량
박근
##일드
런던
회차
구출
이자
매니
요즘
탱커
##FC
파일럿
의혹
##ᆨ시코
원소
띠
re
활성
사이드
동방
샘
유령
포탑
하수인
##덩
노멀
삼진
침공
믹
⭧다면서
분기
87
디지털
마이클
의무
이재
##란색
##ᆫ지
톱
개정
서양
멋지
알파
가톨릭
묘지
인공
##우드
가게
홀로
볼넷
훔치
이슬람
똑같이
네임
첨
가속
결성
##one
실리
예비
메인
대략
스웨
학자
On
히데
블러
패널
##쩡
경고
레인저
계정
⫸란
##폼
아크
##se
축제
##ip
캐스
쾌
헌법
소화
전면
이내
아일랜드
##둔
##AC
부부
AI
DJ
앱
특화
용사
##RE
##자키
익숙
상호
나아가
횡
⫸같이
미츠
⭧었었
갤럭
##ere
##먼트
문장
바이러스
메모리
도망가
어지
워치
블리
근육
대항
불법
넘치
##PG
##닫
어째
슈트
BGM
MC
슛
핸드
플레이오프
칼리
베스트
이시
어둡
오가
SN
자매
유행
묻히
한방
개체
켜
##ity
도발
⭧냐며
쿠로
타케
어린이
##붕
들어서
##ath
김영
##녁
핫
##창기
고지
보안
육성
##넣
##조리
예측
빛나
예고
신기
이즈
소닉
빗
제임
자금
갤럭시
총리
루시
⭧으니까
겁
##컷
검찰
형사
취임
멕시코
카스
FIFA
터키
정면
결론
사제
길드
##end
국방
웬만
차리
리스트
스톰
고백
1991
대리
##끄럽
루타
캐리
파크
구멍
식사
움직임
불러
마구
일시
아기
레이스
리치
세이브
스미
호텔
곧바로
##컴
상업
앞두
이명
감옥
여유
그로
!!
##펙트
저장
번개
절망
제임스
찾아보
개방
부서
진심
원자
##워크
투구
사이즈
구원
##라이트
대가
유대
볼트
초창기
플랫
세르
THE
700
타마
FA
##고리
피부
너무나
바위
콜로
배차
##요시
박정
듯이
청소년
오랫
팀원
흥행
강철
⭧ㅕㅆ
럭
바치
카타
리ᄆ
⭧거
착각
좌우
##특별시
전철
여지
1988
##구리
파트너
발달
세포
리메이크
MVP
소형
##페인
아끼
처벌
그동안
서울특별시
반사
떠오르
현역
다스
레이드
신설
둔
긍정
##네스
아빠
##쾌
주식
융합
##데스
##레이터
훗
주간
망치
외계
##로나
분량
차라리
프라이
정착
Ro
위장
물러나
잦
미카
##OT
인정받
돼지
챕터
합의
##디언
식민
랭킹
내성
##성기
봇
목격
인연
누적
커지
협박
전문가
내장
장악
단장
게스트
의뢰
화학
빌드
알레
보고
CC
방지
⫸에서부터
포스트
펠
곁
야스
섞
브레이크
잡지
박근혜
##든지
Wh
해병
영향력
공지
논리
방출
안드로이드
동의
태그
##ᆫ트
쟈
국왕
사우
방사
⭧는다면
AK
시즈
깨지
타이거
먹히
조약
포트
뭉
각자
그대
꺾
몰아
떠올리
요코
배트
한번
룸
괴롭히
관할
저녁
펴
지능
##ect
DLC
골든
하필
국군
칭하
htt
⭧라면서
대폭
Se
1970
흠
의존
최소한
양쪽
놀이
멍
⭧으려고
호주
손가락
토르
Le
악역
마침내
스턴
동화
연맹
과목
변호사
대지
실버
공무원
유치
'.
삐
후속작
막차
기구
##셰
수련
수수
본작
그럼
무역
소지
섞이
He
면역
보관
소원
오랫동안
무덤
PD
##톱
##age
오사카
웹툰
주말
역임
오카
##IS
귀신
육체
연인
스리
이지
기원전
빡
al
혐의
해리
스튜디오
썩
내구
명중률
확대
재산
카오스
접촉
⫸레
호감
어쨌
불교
노부
다가오
적대
##구치
네트
kt
##잡이
대처
샌
깜
메리
윌
명성
팔리
써먹
강남
태평
계단
올해
전후
비행기
Go
연료
예능
정비
Me
출마
통치
씌
간혹
슈팅
험
테일
오늘날
딘
합체
트레이드
피스
화제
로즈
컬러
모모
예쁘
정치인
마키
부장
정원
섀
퀄리티
흐름
개성
츄
⭧ᆫ다며
소장
리드
안내
놀랍
학부
오전
게시판
소스
뺏
GT
놓이
준수
휴대
접속
저그
수익
권리
1989
떨어
KIA
권한
빚
특집
패하
연극
하우스
##og
외형
금융
##ake
##ide
##어나오
박물
크라
선전
김태
새벽
허리
##오르
고마
상당수
윌리엄
톰
##OM
Be
피격
이집
⫸에다
My
초간
이집트
주기
WW
무렵
따라가
공공
##미야
##흡
뻐
담기
##ᅦ인트
환영
편곡
페이즈
일기
130
최다
둘째
시계
금속
포르투
갇히
꼽히
##윈
알아보
##려주
나치
넉
AR
메르
##ss
고구
원칙
##바라
결합
SC
##ark
누나
림
##ime
숭
깨닫
연타
##ire
알렉산
할아버지
치우
SM
편입
식당
리얼
##지마
유물
굴리
개입
한동안
문재
캠퍼스
흘
기도
인조
매직
어른
##세스
뜬
렛
웅
지진
주사
거인
188
전신
⭧으러
소중
아니면
극복
wh
116
블로그
전진
시선
성립
영문
##듭
my
Su
##ES
정찰
##티아
사도
은근히
회상
헤비
정글
딩
아바
기사단
SD
협상
⭧ㅓ도
캐스팅
##칼
메뉴
궤도
뜯
스웨덴
##ID
##그마
시내버스
팬덤
Tr
음원
부디
유이
⭧는지라
대개
작곡가
손해
데모
##ite
##던가
익히
대충
튀어나오
독특
재단
수십
동굴
##다랗
우위
더더
별다르
##아시아
안티
복무
무겁
보라
고수
민주주의
용기
식량
##부르크
털리
트럭
160
젤
교차
리아
종목
이익
해안
##회사
처형
##맨드
##ound
조언
아이스
일찍
뱅
멀쩡
SR
클래식
과제
이끄
리듬
세이버
허나
위상
##iv
원본
더더욱
HD
''
커맨드
펀치
신비
커스
##라드
김민
빼앗기
시마
##베르
타인
박물관
까다롭
플라이
##미니
힙
신부
##리그
⭧든지
##가미
##iz
##OP
삼국지
##쳐지
훗날
##ge
##마디
증언
해적
머무
천재
날짜
절대로
적군
IC
자국
꽂
마비
일격
살아가
신앙
위원장
구사
##가리
##OW
갈수록
⭧구나
##ᆯ락
노인
재미있
바리
##스턴
각본
무릎
코우
중독
하얗
##큐어
기적
재정
죄다
킨
세종
주포
집행
양성
슬로
스승
멘탈
철학
⫸요
하락
우라
참석
마이너
지위
##바르
캠페인
과연
비례
고리
정수
개시
호수
예산
결코
모자라
국적
적응
패션
호위
교류
관중
작화
크리스마스
한참
탄창
깡
매체
##팀
이브
이중
##덩이
##LL
열쇠
##프레
안경
히메
##ome
활발
시아
데이비
경기력
Gr
##갛
##쩍
펫
내세우
원주
⭧어다
선출
투명
십자
드레
##테르
툴
해상
바퀴
##쥬
with
냥
우연히
김종
루수
체크
##BA
희귀
##지로
명단
비추
녹색
##UN
충성
화성
진보
곽
##리스트
미안
스타크래프트
##스키
데려오
##슬리
새기
이영
칭찬
개수
사막
개막
렉
첫차
주일
##아웃
결말
IS
위대
로그
행적
헝
##든가
전성기
##몬드
모래
뽀
제정
당일
의대
기르
인지도
흔적
1987
상급
기종
챌린
흔들리
후방
업적
오스트리아
de
미터
강점
BE
px
임대
상성
140
농담
어지간
김동
포로
웃음
사유
계통
⭧겟
##핵
대수
##릭스
켈
⭧느라
도우
##MA
Pr
버스터
재현
대학원
⭧요
취미
면적
무작
왈
매년
##ord
스프링
Love
비상
오직
어쨌든
토끼
어려움
체육관
클릭
⭧더라
##려나
심사
##ud
일반인
포항
펑
고스트
피니
개량
사후
⭧에
신장
##가시
거점
프리큐어
첼
생존자
유적
이정
남북
어마
강도
자책
기아
과장
새끼
ch
본체
모조리
##양함
자본
자극
괴수
예수
이주
##코드
닥
가을
##mp
부지
##케이
⭧으시
파츠
##사자
헛
화물
##데미
울리
카트
##10
부작
로우
맥스
저작
전멸
돋
스탠
##일러
##ame
##나미
람
기용
##겐
소위
UE
어스
선고
##멜
##ance
아메리카
캡틴
시달리
연금
추구
기울
아티스트
SKT
##ax
##카드
미라
구리
인격
##ᆼ기
에리
흥미
자세히
an
##치기
가짜
출입
행하
판매량
JR
공세
##ure
아카데미
뮈
유나이
유니폼
꽈
불타
##ix
기ᄈ
900
일치
차기
GS
승점
채택
포격
브루
##뜻
공룡
일방
단편
유나이티
취향
아미
##ick
소송
##mer
스마트폰
도주
##랑이
포드
덧붙이
탈퇴
코코
부자
일본인
##ice
막대
사형
스트리
연패
할머니
기량
색깔
타율
칩
피아노
##깥
바깥
귀찮
##our
제작자
사라
잘리
한마디
##긋
Bo
유통
건조
코리아
상실
아즈
눕
타선
화장실
드라이브
⭧런
구경
후계
생겨나
영구
치유
##이즈
집어
을
라이온
마린
몽골
측정
EP
닭
노벨
식민지
내지
비주
##아다니
미루
요금
햄
##시로
씹
##맛
자전
보존
1986
거듭
로고
##시타
날아오
다름
##공화국
선택지
무라
##랭크
트레
쌍둥이
어드
클레
초코
잠재
1960
아이콘
OST
상인
##가스
무방
커피
레디
##켄
찢
빨갛
사신
쵸
훼
강요
##코토
레이더
메시지
인민공화국
KO
##{{
Un
간신
언스
초보
이민
##고속
이슈
통산
팽
가요
동력
가상
박히
Ex
##얄
포수
가루
신사
도끼
넥센
조연
색상
등지
릴
피터
다치
데드
##AD
캐논
명확
오타
##듈
몰락
##멘트
연승
##qu
주택
화재
사원
여객
루카
교장
네트워크
주소
조이
타락
곡명
귀환
##oc
베네
냄새
안타깝
{{{
외전
즐겁
콜라보
구르
##반도
유희왕
모토
나포
터뜨리
제갈
실망
판결
##80
##시스트
남녀
아서
칭호
##카리
GB
대선
찾아내
담배
경로
##ᆫ색
수장
둘러싸
UEFA
항공기
펄
이터
스페이스
광역시
핏
⭧슈
위반
레알
깔끔
매니저
비치
포르투갈
DS
고구려
타수
연합군
186
##own
sh
##ys
반동
##나카
아마도
라인업
순환
CPU
##노우
혐오
스터
교실
영주
##스틱
##럼프
그만두
항복
법인
백성
이탈
너희
관찰
복지
뿔
타운
잠수함
##ber
미스터
단단
비서
주역
주자
##블리
적합
캠프
벼
배터리
쟁
낚시
스와
매장
수류
시노
거미
We
##프리
관람
익스
붓
AM
소라
커다랗
예시
유효
강원도
커리어
드래프트
##괄
##저스
흘러
히어로즈
105
끊기
공성
공업
##av
아쿠
##OC
트라이
흑인
하단
##섬
인치
고도
유학
벌레
##쌍
이스라
##데이
승객
고개
##old
카츠
예언
용량
##정부
김재
동성
.."
고작
본사
##땅
상단
##큰
승률
국경
##일보
추억
소프트웨어
CF
면모
천만
##랭
마약
포위
튕기
휴식
서구
티켓
꾸미
관측
LI
철수
수출
일대
그러니까
첩
##orld
도적
곤란
중립
자폭
카운트
생략
개국
표지
적당히
수류탄
터널
상술
립
턱
변환
음모
조별
클랜
인디
마드리
기생
좌석
허가
합병
다름없
추종
##위대
형상
윗
고맙
##곱
소대
대인
곱
사이버
웬
실전
##늬
오크
치루
##김
정기
후술
아랍
문구
김대
내전
마드리드
통계
1984
디스크
더럽
보험
인종
차이점
메달
마디
펌
##머스
##ont
1985
글로벌
연예인
최신
근본
복구
##려들
지경
언더
액티브
입지
사명
타로
베리
187
##삭
서포터
증오
SH
지뢰
후손
함수
이스라엘
스트라이크
후배
용서
아시안
에르
구석
성남
3000
똥
사정거리
위성
일족
시너지
크리스탈
떨어뜨리
AD
##ies
허락
LC
기숙
고위
스틸
DF
급격
자막
그랜드
즉위
모노
끈
휩
리타
숙련
논의
하차
전주
부각
텔레비전
엿
공방
lo
KBO
행보
어뢰
미묘
경주
굿
이수
##팩트
토벌
들키
오라
쓸모
모니
감각
발행
해피
데려가
##타이
언덕
서식
It
왕위
##lay
연령
특전
⭧네요
XX
준우
중첩
태평양
부딪
뻗
취약
가만
뜬금
구글
후원
##ᆯ드
오랜만
제약
쿼터
블러드
루나
##어마
아츠
노동자
무척
침략
파르
저렴
정화
간신히
##자드
총알
기관총
##OD
노스
침입
##하면
눈치채
릿
##쓸
세븐
MF
루비
간접
일본군
생년
오마
##US
아르헨
방어구
히나
##슴
제트
워커
흡혈
분쟁
법정
입대
알아내
헬기
학습
혹시
균형
전이
드럼
놀리
맛있
가동
찍히
아테
CV
사귀
읍
진압
강자
##뇨
##말리
카카
산하
WWE
우르
.....
##PM
아르헨티나
##ann
잡아먹
곳곳
찬스
공용
텍스트
소방
평생
##라이언
양자
머무르
여우
##넬
분열
NE
트랜스
아이언
SE
어마어마
네오
주차
모시
드롭
자이언츠
##40
관점
중세
구슬
신전
동인
약화
악당
금방
정차
아포
##블린
나리
125
##pe
##첨
깨어나
저러
이토
잡아내
거울
##30
##뚱
애정
부적
페널
결심
지리
경상북도
딜링
반전
제작사
다지
격추
옳
내보내
제출
상기
##네임
성당
앨리스
##sh
⭧라기
연고
보호막
your
이혼
되돌리
##플레이
통화
크림
스팀
이란
⭧던지
##눈
토너
##NA
호흡
표면
폐쇄
##배우
뎀
사령부
아저
금액
##마크
결전
큐브
구축함
엘리트
미즈
아저씨
코르
간주
히토
악화
저택
보완
뮤지컬
##픔
게리
창원
구름
이식
인권
얻어
스캐
뽑히
충실
##VD
채팅
스크린
헤어지
썬
불사
CJ
김현
선거구
착하
AS
용인
상관없
라면
##츄
참모
전파
플레
초록
열매
주둔
지불
DE
세인트
발리
인용
하루카
유력
##은행
암시
대왕
천안
##ng
##키아
##io
##값
긴장
정예
교과
분해
물리치
##천시
묘하
해치
##올리
흩
빠져
토니
프란
딴
동양
유발
멜로
문재인
서서
보건
존재감
성별
공정
##뛰
경남
체결
릴리
시인
남아
배포
학력
상세
##셋
얀
소유자
낮추
##ᆫ가
##ᆯ라이
엮이
수석
우에
커플
##거지
후계자
;&
악기
언젠가
답변
드라이버
마주치
걸어
짜증
상영
##oo
토너먼트
시라
원리
수호자
안기
재밌
도둑
전승
로이
엑스트라
로리
악명
행운
호기
로버트
개설
170
##렐
지라
이듬
도박
Pro
구미
##즐
본관
천하
뜨겁
업로드
잔뜩
미쿠
기인
선두
은신
견디
기숙사
##싱턴
##월일
##ave
씬
뱀파이어
양식
실종
쏟아지
교도
중량
지팡
##포트
요인
테라
백인
##걸이
⭧에요
쭉
탐험
##LE
정황
⫸에다가
부임
임신
난입
중력
아동
처분
대책
임금
비아
동점
LV
관리자
캐스터
미키
디지몬
애플
심심
##번트
건드리
만남
끔
방송국
that
논문
야생
칼날
UP
항의
##라기
관계자
헨리
생년월일
해명
백작
시카
유독
탄환
##센트
분명히
베타
##우마
호칭
##슬링
복합
도루
서번트
카와
닫
금메달
##베이
말투
윈도우
##ION
동명
생명체
이라
진주
문단
##ream
와일드
할인
법칙
##스럽
브레
수백
가방
패키
다이아몬드
⭧려던
발렌
ED
1500
단축
자녀
뿜
절차
정통
잃어버리
EN
⭧다니
해골
분신
외계인
무관
영광
루이스
기상
운동장
하향
델
지치
온도
이드
시합
조리
라틴
이듬해
⭧래
주술
분대
닛
인력
프로필
리뷰
##ond
딜레이
창고
1982
치즈
->
보드
부스터
##펴보
살펴보
이온
니스
끔찍
##어하
광장
로얄
기름
플래시
도라
⭧소
##게임
##iss
Com
5000
왠지
막내
사살
의학
미네
기둥
헐
창설
뛰어넘
전동
레지
건국
성질
전북
울프
밍
셜
##메이
한쪽
유인
공허
샌드
가라
체험
레딧
장인
부드
##에르
부사
퇴장
그렇지만
물고기
유격
존경
집착
민첩
두르
##태우
우정
##운서
##탐
삽입
디젤
##군다
아나운서
걸맞
상식
참가자
아키라
승자
1950
럼
공산당
##카이
크레
##IP
##11
깔리
웨스트
창단
요약
그린
휘말리
블라
엔젤
시상
##ᆺ갈리
감지
시원
작년
진학
시공
모터
솜
조기
증상
그램
전제
마블
독재
수면
감추
1983
하츠
의장
불펜
##올
##60
학기
##도르
출구
##ian
복제
??
by
##비치
##소녀
부드럽
오디션
he
싫어하
나츠
유산
##커스
⫸께서
힐러
비전
덩치
##이어
철저
선제
발굴
가공
BL
하이퍼
헤어
단원
스위스
투스
유전자
스폰
&#
반박
##유럽
go
그럭
트럼프
맷
##그리
여주
항구
탕
타석
리스크
코트
미만
##세대
돌입
##저럭
웃기
안녕
갑작
중형
스쿨
사인
콘텐츠
스위치
펼쳐지
꼼
비주얼
꿀
다카
그럭저럭
##티스
딕
사법
주니어
##팬
##쟁이
노바
기운
##Hz
통로
준우승
배정
##TV
돔
수명
마스크
##던지
사용자
대거
어필
출격
휘하
기재
상륙
라이플
논쟁
웨이브
정교
##크라
이펙트
본진
단행
자전거
##투스
가죽
배트맨
보충
대조
토마
팟
##ory
신도
##베스
깨달
트리플
처지
훈장
호소
##TE
##우리
시리아
회담
식품
스트레스
격차
속이
국장
축복
빅토
인질
백제
##ace
##rom
코미디
Co
##늄
##세서
실책
##틀러
폴리
근대
완결
##엣
위안
Bl
옹호
학문
파편
##카이도
태국
케인
평양
##누스
지사
공화
유기
싸이
마우스
;&#
##꼽
경전
공립
갈아
워싱턴
카를
팬텀
오키
부근
적중
DVD
##필더
승인
미드필더
Br
원문
##필드
##틱
토지
침묵
소음
##ᆫ들
피우
##레인
마케
메이드
디즈
##부로
소요
기갑
기동성
##끈
경직
플래그
이글
뱅크
Or
##게이
루스
##무시
중국어
세부
##뚝
커녕
##oth
두들
와타
근거리
치킨
축하
배출
##ows
내각
막판
결투
경상남도
신나
보이스
##산시
복선
시신
오염
솔직
파동
방위
##MP
연습생
마감
부실
동계
남매
리카
수능
내일
삼각
간단히
차체
과학자
급하
후퇴
그레
동급
히라
기후
##잠
고객
임기
날카
##TS
줍
밀어
센스
넘버
##빵
슬라이
우세
##먼스
헝가리
##잘
무작위
수급
망가지
왜곡
무인
상담
##ᆯ로그
학위
손상
롬
##화점
##신교
국정
랄
노조
한반도
괜히
지향
규격
스케
##IG
영지
장거리
##더러
바쁘
리오
야수
안개
##곽
##셔널
CG
약탈
램
마법소녀
일당
##다보
중시
철거
기세
질리
##주교
무사히
##그나
##경기
##aw
끼우
선행
185
##하마
토크
요한
유성
날카롭
##텐도
닌텐도
패키지
스즈
##에이
최상위
멜로디
##딱
싱크
장탄
킬러
과도
하마
##포르
미나미
야구장
##몸
콰
간간
신발
대포
엔드
##군다나
##ᆻ다
양상
록맨
성전
##ale
SNS
출루
즈음
프리미엄
지칭
타쿠
그날
골키
변수
개발자
##아키
PV
스트리트
핑크
주류
##ike
대치
모데
독일군
개별
뭉치
페이스북
후자
에서
벙
##하시
무산
##틀랜드
특별히
더군다나
여러분
영원히
임팩트
장사
사키
##밋
전망
초인
1945
입주
Cl
챌린지
물체
집권
##아이
##겹
업계
바디
농업
For
무시무시
군수
부착
리프
원조
데이비드
흰색
동남
##야수
암살자
첼시
매번
RPG
나미
왜냐
청주
⭧우
만주
계시
##OU
중복
브라운
시비
Dr
질병
손실
야마토
최적
틸
악몽
##바닥
서서히
필리핀
##ep
선조
피트
취득
모로
##irl
##man
##우치
폭행
동아리
오이
##ach
##ile
175
동경
수비력
##닌
1981
슬프
Sc
인방
스트로
BB
호랑이
##여객
골키퍼
OP
벨트
부동
해양
올스타
서클
싹
여인
구별
102
##공항
잠입
사리
헤르
117
어이
지팡이
꿰
나르
진격
인피
파생
##12
고장
Team
106
며칠
배역
끌려가
잎
교토
룩
##자와
##VA
LA
몫
해킹
물량
##철도
트루
##ink
플러스
Sk
선임
일람
제독
상한
퍼포
의외로
사회주의
굵
##둘
Mo
체인지
퍼포먼스
⭧ᆯ게
감싸
페널티
직장
GP
비비
합계
권위
중장
가만히
국당
기호
##데드
레코드
공수
청와
DD
##륨
틴
마물
무술
115
⭧ᄇ시오
응용
##어놓
시크
메이커
⭧로
김경
해내
세팅
사립
⭧여야
데이트
코난
팡
원형
제네
시트
이웃
평점
이종
약물
가디언
기동전
주행
귀국
언데드
신입
최우
연산
##ial
스펠
FM
##승부
나비
풋
청와대
건네
밀도
투쟁
##토스
개장
##런트
##킥
##ish
엘리자
장로
국어
당대
에릭
SU
파란색
1979
서기
마다
캄
⭧냐면
후임
여전
에디
긴급
집합
UN
이와
만만
웰
배달
징역
챔피언십
억지로
스파이더
프로토
포즈
오스만
트릭
선사
테츠
⭧옵
합리
쇼핑
##앉
개신교
분포
권장
뽑아내
장신
김상
기장
행방
랑
추방
##ower
택시
저하
천연
다가가
공백
회색
감동
##네시아
##튬
안양
전무
해산
일화
댄
궁금
프리미어
연구원
독점
증폭
신자
수동
즉사
모스크
확산
##II
명의
관여
야간
주관
⫸더러
Bla
면허
교단
여학생
공인
방치
재회
임의
모집
폐기
##하르트
듀오
빌딩
유미
##오루
아틀
대단히
조상
혼돈
잠들
라이너
만일
명백
김진
##GE
전남
썬더
##ᆺ이
##블로
코멘트
감상
아레나
캘리
바둑
성경
렌즈
쌀
##운동
버섯
사무소
택하
CH
매출
도마
##늦
분당
we
캐치
고블린
자비
피닉스
끊임
발목
토시
돌연
BS
##IM
출간
조명
타이거즈
처참
Ne
추리
##!!
불량
Star
##콜
오메
장미
부서지
광산
닐
깜짝
광선
박지
뒤지
##프리카
승무원
김기
무스
##ᅡᆯ린
전라남도
구성원
포켓몬스터
비웃
##벌레
스테이
상관없이
복원
뚫리
PR
해머
우월
고소
실장
ID
우주선
##벳
고로
질투
히가시
목사
쿠라
스타디
되게
통틀
##언스
하인
평일
만지
계수
간호
기쁘
지연
난사
와카
##번에
##히코
배급
##쿠라
드루
Wind
미국인
버드
수색
##드레
화산
350
라이온즈
세리
유출
벌리
협정
닝
##99
유언
##벅
파이트
수립
탐정
엄격
시외
조롱
up
스탠드
풍부
##전자
붐
우유
짤
운수
##나오
서포트
LP
재학
파멸
심의
DC
골렘
한두
우익
##카락
국무
산맥
War
##래시
머리카락
오니
메이플
fe
체감
And
정발
뤼
시바
의자
호시
젤리
⫸이란
검술
온천
##체스터
도저히
##ass
텟
당사자
청구
치열
##ᆺ지
나기
모험가
센트
말ᄊ
합동
육상
토미
##타카
포장
국제공항
뒤늦
사이코
##ms
반부
##me
키타
루크
360
스텝
Man
##릇
레일
소용
실내
이라크
오로지
다운로드
본토
##춤
112
마코토
축소
기력
권유
특급
로빈
조용히
극도
에픽
아쉬
규제
디즈니
승진
배수
##gh
바스
따뜻
⭧티
우치
##CG
낙하
##렐라
비명
루머
마냥
시사
##가드
108
##뮬
##도리
All
라라
##사이
묶이
거스
자꾸
러시
AKB
나노
티아
##틀리
##tle
하계
##pp
⫸두
##ble
##amp
충청남도
반감
톨
범죄자
지인
바르셀
페리
루피
오락
파울
출범
바르셀로나
##를린
세라
##ᆯ러스
비유
우즈
##ft
지목
여섯
수직
베이징
안쪽
##농
토큰
뮌
중지
단종
오우
알라
##궐
일요일
103
프렌
수월
⭧려다
경북
세금
탐지
폭파
황후
능력자
전당
##슬라
붙잡히
협의
바니
꼬이
리즈
어시스트
##yle
스타디움
서머
##70
⫸니
우드
기리
미르
실은
이글스
여파
##ous
중순
물품
직선
막아내
##려받
실현
배제
조우
모임
##튀
##now
베테
##atch
##sp
신학
슬리
넘어지
리버풀
카구
불행
분산
##졸
부딪히
당당
조커
One
넘어서
타르
아가씨
Mar
에미
모듈
##orm
수염
미미
생전
손자
드림
김해
평론
얻어맞
캐시
토키
유의
신용
New
To
##뚜
ON
명문
퍼부
거북
할로
기묘
나스
추세
드론
바론
여고
조르
무승부
ex
체중
막상
낙선
##스티벌
나루토
진상
페스티벌
⭧노
수비수
IN
경악
##란히
##플레
살아나
토요일
BR
⭧던가
맥주
##민주
천문
까이
Part
스미스
수습
엽
태풍
가난
더빙
채보
KR
기수
##구나
두렵
마카
연봉
함락
김용
Gam
##쿨
강등
엑시
비극
센서
강사
시로
##저리
알바
되살
SF
주최
후회
패전
힙합
이나
##ING
대성
홋
극히
##슬러
집어넣
잠실
리온
비틀
산탄
고속도로
CS
좌절
적자
⭧ᆫ다거나
엄밀
국판
듀스
명목
까마
배려
동반
배드
팁
타일
둠
엎
끓
훼손
꽉
인접
유망
대시
노가
실시간
개척
코마
##ment
철권
리가
기부
PP
##방송
에로
에반
사무실
##ae
빨간
반짝
케이블
야쿠
⫸나마
주체
늙
도리
##64
하여
128
뻥
원시
스티븐
압력
모스
##펠
상반
고증
장탄수
캣
샤이
젖
스테이션
##불명
유재
스핀
⭧나요
혜택
투척
도장
##더라
신속
포탄
닉네임
##테이
바지
##버그
인자
##ase
혈액
쳐들
호남
중화민국
##사기
코믹
농장
마땅
아이러
각지
##ree
장성
다투
이타
꼬마
되돌
재개
##사리
조카
역습
주교
걸즈
고시
음료
유니크
휴가
벤치
히틀러
반도
##앤
암호
##밭
쇼크
구조물
달려가
짙
구장
날씨
##어트
샷건
##구장
때려
변동
번지
총장
En
캘리포
네티
##킷
쿤
확장팩
퍼즐
얽
##노리
제갈량
그라운드
시상식
하프
짐작
1978
질서
1973
⭧ᄇ니까
오페
근원
챔
믹스
레온
JT
함부로
트로피
해병대
동해
##ᅥ하
기뻐하
어쩌면
184
사퇴
로맨
거론
오브젝트
##az
튼
여의
##bo
대행
렐
캘리포니아
보라색
슬라
제치
소니
찬성
라즈
첫째
갈색
짐승
AN
상사
가담
깊이
베기
##러그
각오
인재
##놀
##앞
사로
World
##ason
양손
구동
##AY
111
##케이션
그랑
샵
쿠데
220
여럿
안심
호불
##iki
호불호
퇴각
무용
백화점
껍
최저
##베리
혁신
거칠
사야
공감
갚
183
강림
메트로
키보드
정반
##돌이
결제
지수
##키스탄
킷
감수
시그
JP
##저기
오더
카리
포스터
##느리
사이클
돌보
동서
프린세스
말기
⭧레
트레이너
진급
마계
전날
계층
베어스
리미
고무
할리
네티즌
알렉스
원더
동아
##ear
So
중동
경호
빨간색
대령
⭧거든
특별시
피로
동행
산타
흡사
##hen
후반기
하하
빠져나가
장례
셔틀
노란색
여기저기
중부
장난감
마오
240
평하
흔들
사관
막강
타이탄
리처
##MS
뜬금없이
신선
당기
sp
수지
##ᆯ릿
세뇌
핀란드
학생회
가두
##키스
아베
##are
휠
포획
드레스
밀어내
견해
⭧려다가
FW
베를린
탐색
두들기
헬리
차갑
##빨
보좌
인과
유혹
GO
깎이
매주
선수단
날뛰
양반
폭스
교복
패밀리
유입
봉쇄
국도
⭧ᆯ려
페어
영감
우호
강렬
원곡
스코틀랜드
연쇄
뮌헨
상주
입자
##직자
##브라
케이드
선진
##차기
1974
돋보이
방송사
무공
문화재
프랑스어
생체
끌리
재건
tv
##클리
클론
우측
박쥐
소재지
트라우마
마일
비기
도어
역명
점유
운송
##우트
토대
##이너
⫸마냥
콤비
##루미
방탄
요미
경찰서
아이러니
드로우
##케이드
위로
왕실
결계
##듯
김준
서바이
잭슨
후미
흙
박살나
와인
약자
신중
공격수
무실
결혼식
세로
##ᆺ불
http
비스트
부시
수여
##하나
침대
지부
1972
연금술
##기에
복사
##90
##ven
래퍼
트윈스
윈드
##ife
포터
##아치
관료
화폐
제물
기스
도덕
전락
집회
통칭
바나
https
##싸움
쇄
로이드
완공
튼튼
트랩
첸
토하
##ade
허무
⭧마
장판
프라임
순양함
엔지
리안
밀려나
##AP
Wi
취업
##박스
##베이터
홀리
역량
스즈키
선장
소금
콘솔
탐사
##렉션
세자
덴마크
영양
출혈
강경
우회
쓸데
##껍
빈도
탭
나아지
##act
##데레
도감
MB
##웰
글씨
~!
도트
홀드
##ai
대타
일곱
##ank
아바타
##깨비
##gin
연설
이순
억제
여단
간섭
%/
관통력
라크
상무
공대
낭비
do
단행본
⫸이라
##aby
히든
루프
부작용
노무
메이지
오노
모형
신데
창문
104
영화제
청나라
⭧라니
하스
승차
##out
전동차
인도네시아
책임지
소통
법무
Fate
no
트레일러
##흔
전격
침투
성씨
##토니
술사
재직
태클
오지
페미니
워크래프트
손꼽
넘어오
디시
⭧이
당초
매니아
한창
⫸든
다큐
1975
커스텀
쿠데타
⭧되
마피아
##lect
시카고
신데렐라
실상
##른바
히로시
LIVE
간간히
부재
##지르
형편
백업
제재
파밍
123
설령
손오
출산
성실
손쉽
깃발
끊임없이
##ET
범용
##에른
공산주의
장애물
스나이
⭧을수록
경연
강간
김일
스트라이커
딸리
##oll
큰
제니
NH
우승자
끌어들이
전향
소득
스타리그
시호
검증
조종사
##UM
##모스
토요
중점
Up
이른바
품질
왕비
OS
노르웨이
여타
카자
1976
라스트
are
근접전
소나
말레이
변이
항해
외곽
III
##ork
렉스
##천군
워크
다스리
스피릿
파도
성분
강릉
최선
원주민
정석
마산
사악
사사
크라이
대접
혈통
섀도우
모니터
그러므로
##추어
발명
따라오
판사
유료
##바야
Do
단기
##ary
이어받
하급
마트
구상
특공
선박
리코
리모
카더라
Oh
제왕
공통점
왜냐하면
검열
광물
##넌
##way
하반
티스
전생
##ᆸ시
##렇
왼손
포도
스텔
끌어올리
뉘
##루션
##페이
동전
입문
119
##와라
브라이언
키라
유연
트리거
벨기에
천천
##바지
##톡
중상
맞붙
명분
탄핵
올드
##ey
쯔
##ich
명사
공헌
고종
장남
전송
원장
사로잡
##께끼
135
수수께끼
이스트
급행
소모량
중심지
단검
109
##슈타인
##모함
초콜릿
엘레
중고
김수
박정희
미지
바이에른
초상
우울
코스튬
중기
지선
##저우
##타입
ES
중위
트롤
확신
대변
##으로
##플링
올바르
Mk
공단
입증
⭧으려는
베테랑
일체
한나라
모스크바
잔인
##능력
##키리
크레이
한나라당
관우
벅
엘리베이터
검토
오페라
시모
저자
자네
수인
마틴
시게
Ad
잉여
예약
시온
단발
조국
부패
질주
친절
불태우
손오공
대법
아이디어
lv
땅볼
부유
메일
대동
##샷
히스
긁
꿈꾸
힌
교리
all
##동자
##벤처
Day
어드벤처
씌우
존스
강호
발판
보스턴
아스카
성배
##헬
터스
유망주
천황
콘스탄
AFC
##어드
케빈
시외버스
곡인
스태프
부속
도쿠
퀵
이병
앤드
##다운
천천히
nd
체코
버스트
렘
압축
##하루
충족
일레
학사
##pt
⭧고는
182
##라미
##orn
과자
카카오
흩어지
이현
메리트
비리
니혼
고스
카시
굴욕
구독
무제
도깨비
에이지
##스카
그릇
갑작스럽
쓰리
프로게이
프로게이머
분할
동정
손님
오메가
강전
화상
군부
자제
연수
나폴레
##르타
루마
토마스
친분
어색
후일
대박
지붕
위엄
민중
싱가
싱가포르
항공모함
디자이너
기하
평등
기차
121
홋카이도
치카
##네이
미궁
레이디
이모
나폴레옹
마운
지력
##레일리아
고고
삼성전자
라그나
##스레
1971
땡
일관
머니
Windows
까지
##의자
##네마
왕복
얇
레이블
박살내
와이번
달아나
FF
이오
동구
테이블
폭격기
스택
너머
발레
머물
145
사체
사촌
극대
107
블레이
맹세
디펜
망명
##테이션
우루
톡
="
이경
현금
RA
기울이
열정
찰스
이틀
엑시즈
광기
합작
1977
진에
점검
강점기
대전차
##ah
김포
엔트리
퍼스트
##EM
터트리
그립
하이라이트
카리스
여포
질량
유탄
창립
쫓겨나
DP
변태
종결
썸
##사스
원숭이
⭧으라고
후드
촉수
하사
##군가
작위
마타
ML
##브로
고집
##렷
AA
##very
신동
자율
리퍼
##uck
화해
저기
마술사
일가
보고서
리틀
재배
존중
조화
누군가
츠카
본질
그레이트
독일어
##첼
표절
##막지
사족
무지막지
챔프
춥
총합
오렌
외우
원전
ne
⭧여서
천장
잊히
선교
이대로
IT
공신
에버
평행
엔지니어
보르
앗
이이
##라는
br
석유
부스
⭧쥬
쳐들어
중거리
자존
감탄
브라더스
임진
전라북도
피카
##ph
Sw
DPS
호크
젬
자책점
면하
BPM
게이머
JTBC
소집
정사
지분
농민
##아들
진단
물자
210
지오
스포일러
란스
##끗
메카닉
카마
봉사
노무현
연간
해소
178
인칭
카레
##ero
꺼리
몸통
스가
1969
마그
떨치
과일
##자치
113
니아
유가
스티브
관장
리처드
".
대위
유격수
교과서
파랗
무실점
##플리
라마
쿠스
교차로
##ool
타구
사수
서적
동속
검정
노가다
165
##바나
오스트레일리아
파스
광명
브레이커
마유
김지
1968
하치
맨체스터
동대
솟
1963
냉정
데빌
주식회사
임하
철저히
##ical
러스
총독
토트
쨩
불쌍
빙판
명시
출판사
시골
손꼽히
NBA
부원
프랜
힘입
입사
필름
주축
장타
##urn
부산광역시
아깝
가구
착륙
##퍼드
백만
겜
##ype
다니엘
Ph
병역
블리자드
탄압
실체
슬픔
##ARD
부천
Con
테스
2021
말씀
에드워드
윤리
모순
##구미
##anc
주사위
호의
##센스
##지아
스노우
매각
##ᆺ속
고아
광경
지장
유치원
터보
미오
##우라
매드
섹
불능
마인드
닦
스폰서
목걸이
##프로
{{{#
⭧은지
어벤
부스트
라이언
##은색
김유
155
서열
레이어
완화
겸하
지혜
용산
Cr
마당
파운드
변장
##ung
참사
제리
평론가
엄연히
줄기
유니버스
날아다니
⫸이라도
내버리
물어
멍청
OVA
사우스
수천
김승
울트라맨
답답
명명
##멧
우타
문양
나나
하나하나
보편
개명
122
Qu
서류
트윗
상금
납득
아아
미러
초청
워프
##항공
배구
모델링
씨앗
외국어
##ᆫ즈
평상
##테일
시뮬
디오
Station
181
레인지
프로그래
##업자
압권
TVA
이노
치안
열혈
가설
##잉
144
중구
정문
친척
난무
어나
펠리
진동
취재
닥치
집계
디바
중원
엘리자베스
박수
##소년
본능
수위
LO
발키리
향후
##ww
앓
절친
좌익
KOF
재앙
철갑
마케팅
자산
서명
주석
리나
헷갈리
성명
클린
오죽
카지
우연
녹화
고등학생
##끼리
이케
##iver
도심
케이크
애칭
무늬
초능력
##부지
비우
소생
작정
고사
어나더
at
패자
행진
서방
강민
쫒
쿵
국토
햇
사연
사직
시조
덤비
페스
##DD
신하
곤충
어이없
브래
152
일리
서울대
시어
드래곤볼
유아
용암
골프
가이드
love
결의
아리아
로프
아마추어
경부
실용
액체
학대
실사
##폭탄
##ens
경사
산소
국방부
정성
발발
멋대로
매트
자사
쿠니
##마리
표적
츠바
전지
as
워터
편리
벙커
좌측
유엔
##ost
스카우트
민간인
도색
##이동
TR
이태
자칭
##드러지
리플
침몰
114
엄밀히
##ᆺ말
워즈
##마르
주머니
사투
일커
마음대로
스케일
##워즈
##ence
1930
일컫
다케
##흉
라이즈
wiki
몰살
거지
마하
아지
박성
롤러
인성
만점
미성
##려워하
IM
##nt
변명
##밤
의정부
이대
직책
때로
##띠
##마루
##켈
자아
개교
초록색
망토
알아채
##변이
돌연변이
from
초점
항모
##ise
⭧샤
옥상
⭧습니까
각도
코토
각인
법사
웜
##int
리본
##시스코
이진
기질
모음
텍사스
포크
이누
1920
개구리
원피스
겔
템플
마모
아자
신지
스컬
루리
179
##타운
방학
##뱅
만능
이념
정밀
유스
고의
달려들
!"
발급
##탱
##AK
통째
풍기
죄책
등극
학급
지로
Super
⭧션
이원
포탈
매달리
에디션
MG
##이나
##하여
비키
Fr
격려
1940
이명박
BJ
can
이어서
##oy
##지능
용자
인공지능
동성애
조항
아담
방심
포병
슈퍼맨
미인
혼인
정신력
##툼
이빨
www
##ign
발탁
##떨어지
구로
적절히
CM
선동
오렌지
엉망
관직
종영
인벤
연전
##ans
극한
협동
스타트
바쿠
연이
177
북아
마찰
안동
기소
어설
대역
제사
들여
남동생
멧
죄책감
소비자
##과이
튜버
##리칸
추후
네이션
리사
호러
##ug
포착
최순
Dream
##베트
헬멧
풍선
펌프
##팽
정반대
트릴
부러지
⭧다거나
##바이트
장벽
##바야시
아케이드
공속
감당
덮치
124
은폐
뚜렷
##전차
블럭
##이치로
억울
1967
##야스
금강
선로
너스
저서
유진
갱신
고가
원로
반경
127
다시금
아이디
##트론
##글링
마에
USB
흘러가
킴
그해
아무튼
오른손
오다
교역
타츠
협조
페어리
뛰어들
정점
용이
씻
도약
예의
##룬
##짱
아사히
부동산
아쿠아
신곡
해운
this
##IR
내기
다비
유카
##나베
##뒤
페르시아
펭
1200
퍽
중국인
##코트
시오
##vel
분홍
트윈
대차
쉴드
타치
마라
450
잔혹
시타
고발
맞히
카운티
부채
연동
왕족
##이크
기본기
사나
녹이
피오
##철수
욕설
독립운동
⭧ᆫ데다
##질랜드
컴백
##지사
ERA
##ode
민감
뉴질랜드
출동
교도소
초과
크래프트
누스
절벽
선원
카테
##uk
##VER
옴
##셈
##젤레스
수신
지역구
비단
##빡
##쭉
호드
시크릿
네크로
수감
무도
후쿠오카
사방
프레스
베스
어ᄊ
침착
사무라이
서리
Fl
발각
방침
스토어
감자
덩어리
Pl
후유
##렉터
회관
청춘
우마
대세
뺏기
툰
물려받
팔라
갯
젼
보강
Ver
스로
이소
대피
##역사
제의
CE
##나기
##생활
얹
그러면
구형
급격히
키미
스케이
⭧게끔
EC
종전
철도역
진에어
디스플레이
⫸게
EXP
##텍
연소
카리스마
재즈
##공사
style
내외
애완
함장
이윤
측근
얽히
##민주당
발전소
히카
방사능
도르
##헤이
로렌
꾀
스쿼
코스프레
코노
애인
가마
실존
선포
아울
레나
유재석
##ier
에도
마야
게르
신한
궁합
가위
퇴치
반성
판도
아랫
강대
현자
카쿠
리바
격렬
기법
분자
워리어
아비
Sch
가오
예방
잔류
나인
밭
##페이스
김구
Girl
당국
Season
두드러지
사물
##뱃
인문
⭧군요
##틈
1962
##ash
징계
IP
오퍼
러쉬
미아
박자
문신
##속기
왕가
ar
자이언트
근로
La
이놈
DM
시시
모욕
전담
화기
약혼
강타
쿠마
NO
반역
162
이카
흡혈귀
카피
유동
이단
정조
흑마
tr
사치
중견
118
종로
흥분
왕후
친애
지루
비오
화석
WC
시종
점심
쿠바
퀴즈
불러오
고립
피자
제주도
벗기
노아
기동력
카네
분배
##reat
1966
##IX
쿠리
아처
넬
부가
유우키
잠기
돌려주
이용자
명나라
위쪽
레이싱
단백
##ib
황당
타이어
박진
경성
계곡
##리나
벌써
이행
##꿈
김치
314
##돌프
자존심
학술
##렙
##치아
##뱀
생김새
제노
##슐
스나이퍼
한하
태생
탈환
##usic
월간
Max
##사랑
중소
피지컬
##탐정
우두
관문
실적
로스트
모나
한양
망설
##딸
750
입시
##방울
1964
##폴
바시
스모
건지
금요일
대검
노랗
뚱
고인
골치
그간
##ᆸ시고
안무
적시타
불길
##수리
Vol
TS
아스트
뱅가드
##리얼
숙소
유고
DNA
그쪽
여태
정전
토트넘
라미
오케
내셔널
얼티
급속
스파이더맨
능가
Ed
아오이
천상
##}}
--
궁전
시범
중재
요격
호리
##ose
ld
할로윈
통솔
레아
남동
모종
성사
스피어
대학생
코파
##서스
중도
나이프
사슬
탈취
진술
스타즈
갈라지
로키
AV
존슨
부끄럽
에메
까마귀
직위
한꺼
치이
섬기
한꺼번에
소소
입원
##시대
두려워하
##닛
괴인
과시
나이츠
##보기
황태
amp
욕망
계절
불참
##프라
청하
Col
거세
혼합
##부키
##te
야당
so
생태
##킬
##ᅳ롤
기껏
##미터
학년도
아리스
항공사
GM
비자
저글링
점멸
HE
건너가
##사르
질환
미정
⫸든지
마기
극심
뷔
다녀
##ail
오만
##msys
모빌
페르소
우지
##ition
ldmsys
원판
간판
그란
테리
천국
충청북도
스탭
일지
스탈린
히드라
이별
닷
도대
필사
테르
얼리
과금
##구니
욱
rd
보로
Night
각국
잼
욕심
BC
차장
마르코
상냥
토우
나들
강인
not
조립
레버
시안
회로
##당초
앨런
미녀
련
고추
헤라
나들목
리버스
##워프
##IL
달려오
이사장
지크
김주
뻘
아케
단자
스매
승패
지지율
요코하마
암컷
공국
##당기
##히토
##ild
##무지
하여금
##러브
얌
168
일일
김광
페르소나
오토바이
Let
수소
툭
##티노
물약
도미
마쓰
깨끗
병행
희생자
디아블로
고이
오사
키요
학회
하지
피난
⭧ᆯ래
단백질
굶
상부
난민
스크롤
##ody
돌려
바텀
로비
만렙
테니스
갸
등재
목욕
##깃
사탕
빙결
Black
들르
어원
펑크
159
##바리
일환
어서
코끼리
밀리언
신작
무녀
스윙
이승만
##세지
미노
얄
도배
퍼펙트
BD
토라
평택
무신
춤추
말레이시아
칼라
라인하르트
부처
아마존
일어
⭧ㅔ
인쇄
내밀
리자
여주인
해변
##진호
##클린
해역
오즈
파고
아인
신생
화신
금발
무지개
부친
환생
##톨
둥지
덥
##빗
마도카
가해
##딴
직행
1948
mar
##ough
응답
해전
발사기
아메리칸
국기
##치고
진흥
엉덩이
⭧머
맑
삼키
AF
##롤
대니
늪
MM
챔스
절단
1944
미소녀
세례
아무렇
도대체
모의
무능
1965
성벽
OG
부제
히사
##33
##모습
명장
두껍
맛보
쿠르
유머
중공
일조
로스앤
로스앤젤레스
퓨전
스텔스
섬멸
##쑤
노부나가
충남
석사
방언
프랑크
회계
간지
불상
스쿼드
노릇
아카네
##멘터리
주저
RE
섭취
아슬
울음
##겔
와이번스
수중
식스
수아
약체
필라
4000
눈앞
Op
##gr
데몬
일명
대국
조수
안토니
좌파
전임
##타리
##스크림
빅토리아
카일
사임
고래
동상
집필
객관
출석
##aster
접수
⭧ㅔ요
빌보드
공교
외야수
##app
마을버스
그리스도
메디
##orts
평상시
목포
확립
두루
비평
인피니티
선회
사이토
대안
##성군
그리핀
⭧까
뾰
대승
연세대
유메
##uc
보살
뺘
쿄코
베이비
##벼
사천
교향
에코
드워프
애용
혼혈
1946
걸어가
##고속도로
##은이
십자군
아수
신관
아니하
워드
공동체
성지
이계
주공
PK
다큐멘터리
주입
##ᅩᆯ
어제
루미
장본
해고
##시티
꺼지
알렉산더
무자
옐로
서울시
최상급
보우
컨디션
츤
그랑프리
코레
동북
놔
위시
휴게
스카웃
김대중
##CE
이무
주파
제발
스기
##ject
en
편의점
스타워즈
껍질
평판
라비
교대
##OO
EXT
⭧몬
탄소
침해
..?
카토
블라디
득표율
비로
가령
##ari
단련
프랭크
줄리
폭로
math
낯
믿음
아유
카게
자력
컴뱃
전도
방안
댐
면제
수컷
사지
벨라
##긋나
민폐
집사
le
휴대폰
AL
흑막
진도
테이프
CR
독백
정답
아쉬움
크롬
라우
히로시마
솔저
정서
숙청
섬광
아르바이트
EZ
려
리프트
두려움
유즈
대면
소마
막부
성대
뻔하
##프란
리부
타우
##각형
와타나베
구호
달콤
원한
라가
밈
큐어
경제학
항성
원자력
##iel
##그라
감성
우미
떠돌
팜
단서
강동
지각
냉장
남학생
공명
##퍼니
관광객
151
홈경기
##미르
둥글
찬양
하와
사르
보복
격퇴
138
Gu
신념
스틱
배리
신조
⭧으려면
SA
⭧던지라
가해자
장본인
쑤
티저
광복
남양
개업
320
케리
하도
172
GSL
눈동자
은메달
적이
##애나
점하
타카하시
권하
정우
휴먼
벡터
수성
##오피스
상시
남한
가이아
##TA
김병
천주교
ATK
살아오
##ats
순천
##도전
##ye
지면
의의
강아지
어벤져
단역
보직
우기
EU
##eah
##바람
불화
동아시아
개막전
사와
아드
자루
주한
315
수라
시네마
로크
1961
##가루
##총장
##부인
컬렉션
풍경
GD
서바이벌
일각
천지
배후
테레
걸음
##중간
얼티밋
투고
##운수
고난
트이
TOP
##디스
Mag
오공
158
⭧케
균열
동사
어기
대교
찔리
내정
그리하여
라이드
샹
CL
노비
표기법
##다드
상원
도스
재질
탁월
다녀오
깃털
흑역사
카사
손잡이
가왕
악행
캡슐
무한도전
통보
##이센
마미
스톡
시련
추모
로맨스
AB
민병
NT
물리학
##꿉
여수
ver
리믹스
수확
로제
흉내
스파크
동메달
카이저
내면
일산
스칼
숭배
루마니아
UC
##oh
⫸치고
##eth
이순신
매그
충고
표식
##ron
동이
박스오피스
소꿉
쿠사
슬라이드
##사고
제대
##성이
독보
결과물
병살
금고
##ings
아이즈
##룸
주차장
마저
이호
김일성
패트
유마
구제
##내리
##메리카
제인
사범
신상
어판
이세
볶
그레이드
건립
레이지
176
공로
도요
컴퍼니
방정
크라운
다저스
딥
삽질
will
간파
운반
지미
Is
ME
재수
예고편
보가
##짤
##떡
직무
##로우
##느님
병과
계략
저항력
테란
청사
호응
타리
발톱
##inal
궁수
군데
심정
##==
126
차림
김윤
신임
1949
오로치
정의당
마수
안드레
주의자
Am
과격
대명
완벽히
하느님
자작
기온
폴아웃
승려
자카
상어
친일
우두머리
이점
10000
겟
몸매
어그
보루
Don
테오
문법
감금
타스
서원
갈기
##ult
겨루
크로우
라이트닝
무선
바이킹
응급
코로나
리리
테크노
154
사망자
like
레시피
LE
패왕
세르비아
총사
쫓기
흉악
WH
방울
스치
맷집
{{{-
KB
뒤쪽
풀려나
Time
리볼
132
##총리
##MAN
클레이
주황
전법
총선거
법안
유해
드루이드
무비
도사
웨폰
거꾸
김성근
표하
짬
습하
레슬링
센트럴
아테나
##핏
new
##넛
##덕션
성폭
##빨리
성직자
강서
##13
멸종
응시
##저래
지배자
##마치
이즈미
빗나가
강습
천체
삿
저승
이래저래
반기
218
완성도
이용객
테크닉
이리저리
르노
Mi
피드
##겸
장신구
##GA
니트
##ᆼ가
코디
로열
떨구
국민당
난리
##ov
취지
##oul
슌
급식
충격파
##18
상의
퉁
라이징
##낭
##곰
손목
선봉
리츠
##조합
엠블
이영호
탐구
유신
키노
당나라
짝사랑
더미
지터
##ob
제너
핑계
보트
⫸우
태조
##나르
전염
리우스
야망
미남
마가
과언
블랙홀
트론
유능
후반전
어드배
고조
##ould
하우
이쿠
##전사
통틀어
156
##보우
..!
iOS
무궁
Ser
마마
##친구
카제
one
164
스크래
##alk
버거
미세
진하
엮
##tern
##yn
재벌
숙련도
139
나란히
배율
필두
렀다
모에
샤를
##활약
놔두
얼라이
⭧ᆫ가요
유카리
⫸이나마
##15
능하
몰려오
긋
시간대
이인
##up
구청
153
조던
매기
하츠네
아호
먼지
벚
교정
저격수
Gaming
플리
하나님
##레이크
##reak
무슬리
반장
콜롬
감기
공격기
거꾸로
커플링
무슬림
양심
합법
초등학생
나열
김두
이광
##der
⭧으리
##able
GK
오키나
하드웨어
코프
유라
##제스
접전
리터
⭧ᆫ듯
전두
청장
엉뚱
하비
성숙
세미
후면
누이
지성
상공
##바스
최하
148
디비전
가히
신주
Car
맞먹
##ions
허브
인천광역시
연달
탄막
범하
실업
셋째
니콜라
##엘라
스케줄
표창
동등
Your
얼라이언스
마티
타키
오바
단의
벌금
주유
⫸롤
##문화
167
##널드
⭧ᆫ단
볼드
고우
장시
김선
냉장고
스마일
쟁이
대등
맞대
203
동지
북서
봉하
배열
달인
지표
몰아넣
애드
쫓아내
황혼
프로덕션
##쿠스
어긋나
애국
데미
##타니
SSR
창작물
##백과
##주의자
##PA
##사와
사료
무색
1958
브라우
가나
1941
음향
174
이니
오역
주술사
야마모토
승급
##왜
영화배우
##ull
휴스턴
도모
##타르
공모
무죄
갈구
꾸리
사야카
##프란시스코
샌프란시스코
전례
라틴어
##재기
진로
##뼈
종말
여주인공
se
유타
타당
아수라
노하
동년
시끄럽
##뱉
Min
설탕
법학
깨우
버블
번식
##ᅰ어
처녀
앞세우
무안
RO
##셉트
시뮬레이션
142
자키
##니코
밀라
통행
지지자
바이크
##상가
LTE
광범
레이븐
##차리
굳히
영등
##껑
문헌
사내
헤드샷
빈약
인명
염색
스페인어
쳐들어오
카인
주가
순간이동
##무네
163
혼동
원화
런처
과감
박탈
가라앉
한층
##넨
##기업
파이프
배상
수령
차일드
맹활약
토비
레인보우
생각나
득실
이오리
프로이센
##ube
##ECT
일련
러너
비즈
마스코트
네스
꼴찌
1954
우편
염두
BGA
레바
리볼버
##아티아
제자리
졸업식
사가
크로아티아
강수
월요일
⭧디
안보
##ll
전학
##크리
have
플레임
후쿠시마
pr
태권
회견
맥락
##뤼
제지
단식
찰나
설마
황실
out
##보라
레슨
절정
음력
밀레
오리온
수하
##퉁
기관포
페미니즘
대목
연막
능숙
른
발현
대외
득표수
크리스토
장례식
상속
약칭
이만
##스티스
##ICE
##립트
##랄드
내ᄈ
스캔
초상화
환호
카렌
단총
연고지
사소
안제
NM
제프
복음
토론토
미트
대군
파우
143
밀어붙이
137
공고
인텔
대법원
호스
죄수
부호
##물리
앞면
당원
한강
무너
무너뜨리
소우
따내
시흥
너클
릴리스
방벽
공짜
쳐다보
##베르트
투사
창당
313
현직
노골
격하
혹평
Sum
무단
솔직히
망설이
평창
⭧다지만
내뱉
한정판
##귄
소꿉친구
사당
박종
펙
양국
빙의
북동
##바루
차분
왓
HS
인체
외관
ALL
플라스틱
오비
경찰청
꿇
가미
자포
테일즈
트러
두뇌
무식
CN
IV
추출
랜서
설비
이력
치마
##소수
베어
1943
십자가
230
이준
전반기
앵커
반란군
알아차리
스트레이
바티
오딘
아테네
태자
뮤지션
##대사
델타
북구
##박이
순찰
맹독
남미
난투
오케스트라
프로스트
기술력
푼
##ᅨᆫ
우산
157
관계없이
해상도
몰아내
##모어
강탈
오쿠
극악
키드
133
숙주
⭧ᆯ까요
##FL
기이
슬슬
공자
브레스
거스르
갈리아
바비
미시
un
출제
146
팬티
129
극우
뚝
잔해
윈터
확고
구독자
세키
##더슨
000000
플레이버
1942
광범위
별칭
지극
##곧
청룡
화약
##STER
비참
173
시에
나카무라
카오루
BO
##트랙
워너
##결승
종사
미쓰
박명
발하
달래
##고사
힌트
키즈
경선
##드리히
채찍
여장
리뉴
리셋
##천사
기쁨
클리셰
원년
진구
폐허
margin
섹스
실바
수영복
know
서치
##맷
카테고리
오디오
라시
연안
멘붕
전수
해태
##무게
호출
텔레포트
몸무게
후대
칠레
폴리스
팀장
##MAX
끓이
set
##무이
방화
##DX
나락
생물학
청원
##날두
OF
호날두
통증
기행
공습
공천
136
Play
체스
리베
생애
BT
사나이
팩션
미하
파랑
시초
##ica
정교회
CB
##믹
##che
##소총
Of
서장
애쉬
태종
##ock
히카루
번갈
포니
바그
##생기
얼터
As
la
##풀이
개판
미모
우크라
크리스티
망상
##YP
증기
제조사
메세지
빈번
저조
Red
아노
##회장
럭키
Type
BM
하의
##제국
양대
##14
불문
##산역
##로그
오른팔
애쓰
브루스
일러스트레이터
잠그
조력
심화
복도
클라우드
149
⭧다만
버터
대패
정준
바인
혼다
라이센스
우파
박영
친정
산탄총
##에몽
##시다
##전설
치바
교육청
유선
바나나
때려잡
트랜스포
넓히
샤오
BA
포맷
오키나와
##ict
미끼
범주
##17
##스틴
라파
스ᄂ
심야
134
1900
슬라임
마니
1956
미숙
인터페이스
미도리
맞물리
경지
해독
##지않
가의
스나
로라
TP
입국
냉동
가혹
지주
진리
목재
DI
##ᆺ대
##ster
레슬러
신세계
책상
공손
퍼센트
##ange
나사
##ater
대사관
EV
개미
부흥
팍
운항
가로막
거느리
밧
깡패
뫼
진짜로
##티넘
김천
플래티넘
슈가
비꼬
왕관
High
태미
슬램
사일
##ons
캇
##권자
##모니
##뿔
무수
로그인
##ᅣᆯ
자부
열세
파손
심히
##메라
파괴력
트레이닝
제이슨
장갑차
pro
중후
앞뒤
##레슬링
오세
땀
분쇄
달라
교양
스매시
불쾌
초래
개개
자켓
무명
feat
진형
요우
입법
TE
찰리
원망
프로그래밍
NEW
미들
수시로
섹시
외면
프로레슬링
페이크
재림
슬러그
축구단
##나리
##왜란
악곡
임진왜란
##ple
보디
증인
중급
열기
랜스
트리스
싱어
인트
경질
칙
방정식
퇴역
쇼트
사천왕
전두환
##넉
지난
스바루
##콕
시집
주고
모어
##교통
%.
뒷면
콕
싣
연말
##니스트
147
⭧리라
스팅
공과
골목
##툴
비로소
Light
##차례
아래쪽
패스트
닫히
미식
박해
호프
자회사
퓨처
상대식
심상
클러
AE
안철수
생선
앰
꽁
##주군
##무늬
폐선
##이스
280
세일러
배우자
실로
##탈리
##세서리
최정
엄폐
2500
므
소령
제우스
헐크
##바다
하지메
저스티스
드리블
##지오
오프라인
MO
수용소
선인
##티지
GHz
##카미
철갑탄
옌
##텍스
착지
직통
메구미
Gen
아랑
웨일
관절
222
차관
마켓
토막
##to
CO
의아
##에트
격리
테일러
히나타
##구역
편견
##토랑
##니즘
##의회
실천
레스토랑
가브리
굴러
따라잡
~"
보잉
세츠
강세
수상자
1939
음색
불리우
##더기
배속
김연
##CC
개그맨
was
라임
What
제단
소행
브랜
로브
플랜
메테
면접
꼼수
템포
감행
레규
프로세서
배신자
푹
용의자
##산동
복용
거르
Kor
166
미호
로지
##고래
증권
고음
원종
연기력
1959
##컨드
물어보
⭧지요
반론
도쿠가와
지문
##ics
1936
타고
야전
프랜차
⭧바
명탐정
세컨드
동조
섬유
소설가
롤링
일삼
냉기
두목
##사관
신칸
준공
술집
하후
탈당
우물
재임
##ACK
화소
Heart
율리
##투아
산화
러닝
레프
공영
Tw
종착
펭귄
조교
소노
스콧
프랜차이즈
##les
플로리
케리건
미수
내역
역학
LOVE
필터
웨인
oh
1955
GPU
삼촌
미스터리
##ex
기피
병종
##BM
이아
트랜스포머
모함
##어붙
어벤져스
퍼붓
랙
##커녕
아이스크림
체격
하카
낡
투신
NHK
AG
##쫓
투성이
에그
##데르
반환
아이폰
찌질
전광
성기
위키백과
어린아이
Mr
파문
##니스탄
신칸센
책략
동문
루키
콘셉트
토가
채취
사모
기술자
Blo
동호
재활
둘러싸이
PL
하이브리
경보
호무
속편
영등포
참으로
이방
시가
그제
야마다
⭧락
물가
하이브리드
##lass
전열
더구나
가르침
##플렉스
솔라
##레드
장학
##16
인구수
특훈
##테스
부도
뱃
응하
냉각
봉기
레귤러
자질
반군
FPS
주되
틀어
MK
플루
##AND
깃들
다면
부당
##두리
##무실
준결승
장편
방호
TO
스트리밍
최대치
쫓아가
방송인
좌표
서민
마의
##아슬
아슬아슬
하리
말년
져
Par
보행
정형
##전트
소사
메우
##nder
##플러스
##규모
패드
인사이드
스크립트
모던
로테이션
1952
쐐
상행
라바
time
포식
뢰
뇌물
적립
수량
가와
소매
악하
전반전
공존
범행
ll
330
되살리
수도원
내뿜
##교육
##더링
하반기
엣지
##좀
캐슬
270
사슴
캔디
카즈야
##ors
Fe
##볼루션
교통사고
륙
패닉
얼어붙
노래방
도청
##ME
도호
더하
##란트
접어들
표본
단과
죠죠
신수
쥰
김도
LED
카니
정계
페니
불가리아
경과
오타쿠
속력
유대인
서해
몹시
스텔라
담임
직속
중년
어미
뱉
끝장
스윕
카우
태극
여배우
순정
뚜껑
매지
입양
에메랄드
발라드
멋있
교섭
테러리스트
함성
우체
파키스탄
⫸거나
출고
1947
GTA
파격
동로
원고
##단지
저거
필립
춘천
#!
솜씨
##대기
이에
225
평안
모양새
구마
Good
얕
두근
##콥터
전속
르네
거품
심문
박상
맴
방공
직격
탈리
소시
상쇄
스퀘어
짤리
영동
우상
곡선
재빨리
저희
무고
발간
현존
세스
Per
##뿌
유지비
적색
현황
서두르
따돌리
다이노스
프리드리히
사투리
##딕
핸드폰
쓰러트리
멜론
##수수
영남
로저
자각
##려보
순교
광대
쥬얼
⭧ᆯ라
배리어
호구
단말
자칫
산악
하행
##글라스
오락실
##무기
시가지
스파이크
프랑스군
카를로스
마초
베일
월등
신흥
벚꽃
어워드
##ᆺ집
앤디
SL
##파리
am
##HT
사탄
텀
넉넉
성서
털어놓
석상
발렌타인
쎄
하시
신병
라프
적재
레즈
260
스내
급히
보리
마신
##eep
우천
1800
격전
래스터
쏠
유나
메이트
바닐라
요미우리
유니콘
미유키
##윽
MSL
##뚫
타이완
더욱이
선우
구절
부관
1919
리바운드
홀딩
본의
줌
호투
실력자
브이
휩싸
IIDX
몰아붙이
고산
##ᆯ리언
하라
새우
부사관
공약
추궁
갈라
중학생
호르
불신
아홉
##ott
받치
원내
즉각
프로모
심연
질풍
비타
간호사
야만
기함
상용
차용
핸들
미티
Kn
쳐내
ab
정정
상장
신정
일례
유니온
0900
퐁
남작
군림
소실
징크스
Li
로스터
⭧ㅓㅆ었
눈빛
이례
시부
꿰뚫
증발
호박
카이사르
부류
텅
냅
선형
유방
장원
운석
##메다
EBS
단정
적성
고분
다중
wid
유정
포워드
프로토타입
Wii
클라이
##문트
에바
⭧ᆯ려고
츤데레
##수아
타고나
도시락
양보
##메스
최우수
프롤로그
소리치
This
근력
안성
호그
⭧ㅏ야
드레드
머스
훈훈
미로
여관
설화
성비
⭧ᆯ지라도
하와이
악령
조준경
##산물
축적
픽셀
##IV
길거리
헬리콥터
구타
유무
지름
유승
회귀
⭧더라면
Baby
##25
##IK
소규모
본가
카디
페인
후루
망원
남서
##anna
허위
격투기
기관차
##두사
##파크
루루
자본주의
프린스
깽
교훈
트러블
실정
진수
제보
페르난
##자동
전산
농사
켈리
정재
습관
HARD
Sm
바오
⭧드라
불평
존대
일레븐
럴
ONE
스토커
탄탄
동요
떄
충북
서정
유코
빈틈
히데요시
루터
킹덤
1953
대중교통
스콜
에필로그
레이트
서태
자문
게임즈
밀집
대진
중성
샤워
##포드
##델피아
필라델피아
GN
민정
##넘기
1938
리키
심리학
##other
총괄
관념
원작자
Rock
송출
격침
##행위
첫날
169
프렌즈
us
회화
단속
줄어드
##19
박용
청산
석방
##바키아
알렉산드
빌라
##세포
미팅
일렉
책정
독서
뽐
리부트
550
야외
우가
만료
구두
만루
자격증
##똑
##앙스
##그루
총회
장풍
width
선대
고토
말미
양측
파벌
수수료
수평
##쉐
##icro
Live
밀어주
##케인
고든
수복
요시다
일품
리조
김원
생산량
병장
노트북
Ac
특이점
온몸
술탄
뉘앙스
보증
##ins
죄송
내수
황태자
여권
히카리
멀리서
엇
유유
비토
리우
할리우드
##oss
##ᆷ마
미니언
##ru
DB
크래
희대
결사
연금술사
킬로
동래
그리드
대마
좁히
미라이
결함
페이커
여당
##하이
니카
가창
왕좌
독수리
장동
완구
의석
교내
혜성
에밀리
##받침
하부
성수
헥
유배
협약
##노스케
상가
요하
윌슨
쇠퇴
cc
살피
교시
은혜
후안
홈즈
OK
연의
호세
##gain
##ction
Blue
##턱
브릿
전세
정체불명
경쟁자
##잎
잊어버리
Dark
##EL
⭧움
버릇
누명
재위
1957
배송
도라에몽
사안
제작비
고성
달ᄀ
체형
KTX
원활
가축
갈아타
초교
우루과이
##플리케이션
아르카
오리진
무사시
저술
캐스트
메모
서대
텍스
##0000
##팍
짚
""
자크
켄지
방과
글리
게시물
토마토
편안
셰프
진행자
마테
천마
강팀
주거
마차
로컬
Champ
자발
말소
환수
더비
##툭
말아먹
소비에트
예배
##토르
속박
수강
특허
포대
⭧라구
원흉
격기
경순
##na
발차기
분기점
RC
편찬
빠뜨리
Im
주파수
실루
유비트
분장
Sun
##ood
첨단
##agon
쫓아오
오시
브론즈
##UT
유로파
진군
진정하
##자재
타다
트로이
게릴라
탯이
넥서스
바이올린
++
##어쓰
친목
OCG
모친
##ᆯ리티
돌아보
닉스
Can
직결
일일이
장제스
스케이팅
포럼
리액
아까
프랭
랩터
Bat
해적단
선곡
깨알
##스티니
수녀
라트
MHz
back
타카시
환사
슬퍼
자손
니나
요리사
##ky
북극
연루
코즈
##버드
DR
유영
205
##토리얼
쓸데없이
##훼
재무
센티
클립
매달
찢어지
경감
미성년
통수
용감
키트
기획사
정동
본성
튜토리얼
커트
##꼴
이창
##놀이
주고받
##통수
달라붙
na
박재
미즈키
열람
열악
피에
무제한
기성
##코스
수식
불어
디렉터
후지와라
데스티니
Summer
대출
금색
RP
단선
권능
모범
니코니코
##일으키
요시노
##ty
불러일으키
플레어
김명
##irst
셰이
분홍색
야마구치
##사벽
넘사벽
배기
오클
매수
명곡
##DS
민영
##페르
야심
농촌
당주
⭧유
살상
연하
브레이브
##코프
빅토르
##기지
자판
산책
저것
도검
##ady
목동
양키스
##무소
##land
Korea
밀치
흠좀
흠좀무
대대로
Music
탄도
원천
헌신
##소스
제스
피치
중추
항아리
창세
동족
하워드
##박히
비시
스파르타
##듣
그래프
서초
아울러
오디
남발
자처
레이첼
레이너
##저드
엘리스
휴게소
함재기
발광
소극
BEMAN
타나카
세레
루이지
##균관
병합
급기
줄줄
1914
행렬
어느새
라드
아제
개칭
토이
노동당
코지
계란
프리즘
도마뱀
무진
귀하
안산
합하
카타르
기괴
슈터
필연
빼내
베이스볼
험하
강행
반대편
잠재력
합당
임원
##누르
BEMANI
장안
파산
실무
##현우
악의
만행
화내
일렉트로
엿보
##OID
감전
토로
핸
루팡
나레이션
Fire
##석민
무상
다이스케
설상가
리턴
윌리엄스
프로모션
설상가상
제휴
##스트림
피에르
블래
##현진
금호
##마당
인어
성모
재난
OB
now
쪼개
학점
쩔
교관
솔리
김형
댄서
##숍
성균관
밀란
유난
650
야기
하원
살인마
##셸
셸
음악가
힐링
정벌
펜듈
펜듈럼
창업
조직원
##킨스
211
주심
실습
손톱
##곡동
목적지
마운트
화합
대각
문고
북방
입체
이질
위탁
복면
아타
고자
총격
후궁
##프스
슬퍼하
악어
시코
##니시
차선
포토
##ium
지온
광속
청동
호기심
여정
평원
달걀
휩싸이
보구
미스트
정립
폭동
늦추
쐐기
세션
농락
##테이너
후예
귀중
듀크
치사
GG
점사
Life
CA
서독
뒤통수
미끄
진나라
##혁명
계열사
가성
육지
사다
3164
##즈카
##ush
냉전
해수
STR
고령
재판소
로코
##메어
양호
##기사
한발
소동
반항
실명
문어
성도
박찬
퓨리
Ma
분화
피카츄
##ount
스냅
마요
##ᆯ럿
어설프
가급
모닝
스캔들
까닭
But
숙이
세탁
리엘
염려
별점
1951
동탁
호노
Just
똑똑
어퍼
##크리트
로저스
증가량
풍속
##그룹
204
##멋
뭔
자수
총재
숀
한탄
돌이
진성
투니
월급
내륙
동체
준하
대상자
쓸어버리
네이트
진료
스킵
아토
선제골
연회
##따르
불로
##ᅥᆫ지
DX
##CH
코리
나이트메어
고속도
지극히
창시
##궤
네코
대공포
사로잡히
시몬
플로리다
선방
Ste
##때로
끌어내
이복
우아
day
캐리어
레기
##년기
향기
##르기
한숨
Sy
##ger
프로리그
사면
박경
##퍼런스
FFF
하타
pt
남극
감히
개개인
##덮
야드
Dance
##주리
에스파
사찰
강연
마운드
드릴
박명수
일본식
공익
개연
해임
행방불명
끼어들
츠바사
파장
출근
##저것
이것저것
할당
현상금
FB
상표
한도
발칸
Gold
여친
홍성
석탄
나폴리
CON
##엉
훅
지상파
실루엣
국산
노블
호로
Grand
주황색
적료
스완
네놈
이노우
스퍼
##블릿
테루
지휘자
망가
Pre
오의
회고
페루
저상
Ev
민법
##티콘
기복
음주
1600
콘티
광전사
VOC
구단주
##아라
효소
##ne
암울
##ally
HK
아프가
채집
##ution
서지
이속
괄
시간표
LCK
따라다니
예언자
##미스
성체
슬로우
대주
아르메
기타리스트
##준표
괴상
차후
괴력
아줌마
##눅
난감
##pr
지중
화자
영진
번트
일식
대표작
피고
관동
스네이크
##징어
신대
매너
##빼
전교
접점
구급
파수
파업
열등
수락
##힐
반짝이
get
통신사
세일
##보그
카이토
부여받
사우루스
화나
##마침
논하
##클럽
샘플
외롭
다짐
##미즈
내걸
TW
Over
대본
##얼거리
케이지
목요일
코다
군복
이변
콘크리트
꽂히
부평
교직
투하
셉
램프
1937
카르마
나고
##사이드
매스
리마
##ator
ARM
추기
포효
호쿠
경찰관
정확도
##펄
아틀레
정세
정자
신축
때마침
딸기
beat
젝
##장난
잖
해치우
출루율
미사키
출연진
소피아
고질
전리
박치기
합창
러셀
일어서
한스
가브리엘
아이유
쫄
매출액
무궁화
UF
##체스
변질
외래
금화
##도스
차종
일진
샐러
##베르토
리에
선구
뷰티
홍진호
DJMAX
서인
행정부
예지
##봇
회오리
##air
각기
자진
연발
클레어
Sec
코바야시
비장
어리석
남아프리카
퇴출
등교
##얀
tvN
픽업
대부
챌린저
처절
크루즈
대쉬
##르드
일절
최영
##네이터
브레인
개인전
베네치아
코카
백신
세세
파인
##쩌
피츠
##라노
##토시
출중
여진
아카리
##엎
교향곡
⭧ᆫ들
아프가니스탄
##나드
BBC
부과
동창
Out
지침
조영
커비
영리
사극
접근성
##ᆸ니다
⭧느니
고릴라
한성
마누
태수
우습
신원
##히트
만세
쾨
뺨
##inc
광부
점거
간선
상류
헤매
##스톤
회심
간략
그려
경매
뽐내
수험
경희
코요
딱딱
##로이드
검은색
이은
소서
시치
##닐
##축구
콜드
##장이
체이
##포스
영조
완수
부대원
스피커
밋
컨트롤러
풍자
##츠카
달빛
##펑
상체
리티
양주
El
Dis
but
책임자
Win
가소
전년
##흙
케이트
미판
사이보그
##꿈치
사스케
강판
유난히
##동원
상하이
수요일
저렇게
VOCAL
##러리
조형
군함
베이더
에티
총열
빅뱅
은밀
리브
캐서
##...
뒤덮
이용해
리플렉
용맹
천공
후문
⭧ᆫ다던가
계좌
콜롬비아
##바시
##휴일
총사령
연구실
소수자
##ART
백색
촉진
천둥
카구라
미술관
UI
오피
소감
잔디
##use
평민
바우
고속버스
전류
몬테
sc
케로
정크
6000
##앵
런닝
##수스
미코토
##터스
못지않
자신감
조제
여더
Mon
##베이스
예명
스플리
혹사
노려보
기밀
웨어
HG
워낙에
제다이
김두한
영장
##ring
성형
안면
민원
앙리
중견수
판권
##XT
벵
페이트
man
차남
비즈니스
~~
##LS
매칭
레이나
Af
조류
역과
##ᆯ렛
##레스트
오인
이동하
퓨어
레몬
권고
장기간
비요
카가미
힘쓰
우와
Power
막아
##아스
태블릿
임관
학계
다툼
대문
타니
함포
사출
##여지
##ina
##대교
튜닝
Res
철회
정렬
매개
스님
샤프
##관총
체리
집결
우체국
내야수
아폴로
뽕
정거
##로니
소절
형편없
망령
380
퀄컴
매진
발전기
기합
오피스
At
호전
도피
섀도
리전
무효화
##소문
건전
OPS
패미
베인
}}}
바주
피스트
혈액형
지자
퇴사
경쟁력
여덟
노엘
글래
256
키무라
입술
추첨
나고야
직구
똘
SCP
캐서린
NG
웨이트
욕구
유서
전전
이성계
조달
제라
Fem
강성
금성
국사
##범죄
당첨
저리
자취
베니
때때로
동갑
카지노
##하하
공휴일
동참
속공
농협
섬세
볼리
아카이
존속
립스
볼륨
⫸이야말로
##맥스
맏
페가
타치바나
##ᅢ신
야시
총탄
김영삼
어쌔신
코시
증후
##ittle
무빙
타국
영미
쑥
적발
sm
경량
##베리아
##아르
초고
유포
김택
Fi
서사
MR
옵티
오징어
직역
제르
무소
색채
성역
아르메니아
MX
##심장
악용
##카스
채소
명대사
궤적
가호
##라이어
방어선
집중력
여사
샴
내구력
애시
공성전
부추
건재
화가
지그
허공
가급적
##베르크
코이
대인배
Sing
##흘
카노
조력자
조그마
낙인
거제
본국
1910
##삐
##부시
FL
##숨에
단숨에
노기
⭧거니
마에다
아부
장병
저널
##ERO
츠나
SG
카즈마
##싹
##de
광탈
##be
넥슨
피드백
gr
궁지
횡단
고안
러시아어
젊은이
##긴
부식
##ello
이우
베토
갈래
괴리
공방전
리트
재고
정거장
사육
타나
MT
가명
태세
##reen
SV
쿠루
서진
##ual
윈스
피라미
김정은
억지
피처
창의
승천
IG
적진
생산력
족장
견인
세조
##대부
예장
근성
로사
무전
증세
튀기
##라비아
레닌
막바지
기미
복싱
락스
절규
##코어
정명
줄거리
돌격소총
뒤이
통용
군사력
소용돌이
하임
노이즈
휴전
##ᆺ잎
주재
MLB
##바퀴
동인지
데우스
Pv
##칼리
모방
포지
꺾이
디펜스
후후
Rem
⭧라지만
돌아서
맥도
건축물
서킷
표방
허구
에우
카오리
Ep
가뜩
친선
추적자
역병
##ational
##프레스
원격
999
연예계
대파
타시
군기
돌려보내
어인
수군
##riend
##af
발상
아이작
히토미
##ars
카바
파이브
##bs
신주쿠
두부
##첸
설계도
루카스
소진
결장
출몰
Vo
깊숙
카에
둘러보
##IE
가뜩이나
초당
슈퍼스타
정은
베드
홍준표
##해군
양파
모호
스타팅
이선
발악
급기야
숏
##ivers
주방
##퇴근
수비진
증후군
노드
테이크
네모
폭포
트렌
흐리
자유자재
길들이
인벤토리
조폭
VOCALOID
양현
⭧다기
IDOL
그려지
##ᆺ물
리쿠
악랄
꽝
초선
오로라
판서
럼블
포트리스
박격
고양시
Leg
King
수원시
상임
블래스트
##에이터
중전차
애교
고원
연호
김희
풋볼
베가
부럽
##회의
미야자키
든
마이어
병단
실황
깽판
HT
##클레스
핵무기
스위트
YOU
BF
강변
자유주의
벽돌
just
시스터
히노
이치고
무림
아몬
##쏠
태그팀
에이전트
제시카
상회
엄지
##외선
물들
표출
징징
쏠쏠
분경
응원가
코타로
추기경
콘테
##시픽
억압
##SS
일자리
School
##MC
지령
신시
왠만
운운
⭧람
Miss
선도
김창
CEO
키사
랜턴
1935
팔찌
##atic
수다
간행
##질기
밉
인맥
UFC
진가
Rec
삼거리
GR
대제
끈질기
##그램
##일본
##니클
바루
유토
what
사사키
배분
수고
옥타
고베
재사
경유지
???
스티커
##토미
극소수
뒷받침
밀접
1918
치명상
##ern
소피
티베트
마르크스
다단
자바
벅스
포고
##itch
코스타
블루스
조지아
당분
알고리
데카
이노우에
##ts
장타율
빨강
STER
별자리
1934
운동가
반갑
레스터
본디
Che
허리케인
쿠파
131
창병
아이언맨
되살아나
하르
스타크
파파
ADV
'''
기마
일보
국력
손아
임상
아의
##연합
##사전
여고생
플래닛
어드밴스
평면
게임기
천도
##셔츠
라자
고폭탄
##카즈
End
퍼시픽
프론트
##그레
유하
방금
자주포
##날드
천적
시중
로만
VR
##rain
Ge
Di
피겨
쿠시
##큘라
위나라
함경
도리어
인내
독성
어우
라오
Air
쇼군
뵈
##tr
단골
마이너스
편대
세간
디에
불러들이
##서야
과부
남구
##투르
방황
##루살
군산
새로이
대명사
무성
입성
메라
고어
##루살렘
넓이
노조미
도도
명령어
성문
알고리즘
헬스
##oot
Mod
한심
줄곧
마사키
올라서
강유
##노미야
글러브
사부
군벌
if
전편
종일
마이트
야쿠자
##긍
그리스어
단조
교주
인프라
걸작
멀쩡히
뒤집히
이과
자민
표명
예술가
실험실
바흐
정인
경신
안나
##재판
무언
흡연
교란
##어먹
##의사
초사
드라큘라
서드
취직
위즈
포털
##ren
마커
피리
굴복
피코
킹스
에일리언
정유
이화
박주
착수
남용
관악
시립
우크
송도
솔로몬
col
담당자
요건
광신
욕하
##같이
체질
금전
작별
##라이나
단절
타케시
메스
샤크
덫
첨가
##UE
악장
카로
상반기
EMP
아이리스
우크라이나
지망
##려드
카스미
##55
##쿠로
예비군
부풀
집정
예루살렘
해운대
여의도
저격총
PVP
직관
천계
디디
왕궁
시드니
스플
레지스
관제
이치로
학번
##UR
옵티머스
원호
휴일
##웬
##데아
제후
성추
초원
추이
로딩
토오루
광석
미성년자
만류
##rist
night
주범
사교
비늘
매사
진흙
손녀
타노스
도미니
##ony
##ma
청색
카린
##무스
Sound
토착
사쿠라이
POP
⭧느냐는
애틀
Hy
지기
염소
키워드
회복력
화요일
총대
##중국
양도
제식
뛰쳐
##사우
문과
정중
연희
광저우
하세
불멸
메꾸
컨테이너
백합
무작정
부치
##세데스
김전
메르세데스
##iew
요동
고독
괴담
아역
프런트
거주지
DO
유소년
출퇴근
##콰
상수
리노
군중
블라디미르
진작
연구자
팔라딘
작아지
don
한모
##ope
벼슬
해커
행태
좌익수
유교
##데기
양면
##시계
조운
MASTER
##글리
빼돌리
노숙
대칭
오너
현명
요르
아산
성채
모터스
바주카
애틀랜
잉크
##수엘라
법무부
인테르
신디
발트
민족주의
시한
MD
눈ᄊ
고려대
EM
ㅋㅋ
나날
퍼스
유수
징병
##ana
유목
손바닥
미끄러지
반다이
아야카
게리온
후유증
빌헬
배지
툼
##리히
먹방
##atale
기와
##어찌
드라군
선비
골리
과실
카무이
제멋
교육부
조장
커리
데이비스
##던트
스코프
프레데
##메인
하야토
굳어지
Femme
##oon
베토벤
청량
로망
사업자
콜로니
효력
그닥
##제이
기한
SO
Cat
사에
시그마
칼럼
way
황족
##패스
액셀
명작
이마트
##ox
농어
BAS
이안
의거
빈사
어찌어찌
레이터
무어
##ield
대용
재팬
언행
마도사
브라더
금기
들려오
일부분
득점자
경인
박준
사우디아
##천동
얼핏
bl
내려지
피어
학업
텔레콤
섭외
가치관
##22
애당초
티코
애프
베르크
파고들
다나카
베네수엘라
역설
##먹이
EA
미토
##노이
1100
수산
##티어
매복
##안군
소심
##지원
우시
펄스
쟁탈
##무장
1932
##야샤
타협
극찬
이누야샤
WE
생사
흑백
경장
알코
각색
한몫
보태
성주
카탈
즐거
##의정
활주
친밀
##olog
알프레
트림
1931
그놈
피라미드
광학
1933
XP
수준급
민국
링컨
해인
초토
선체
아루
택배
미지수
보답
대잠
총통
폴더
겉보기
친위대
이윽
사바
이윽고
증원
껄
재혼
스루
##언정
확연히
##튠
패기
되돌아가
양념
창원시
일쑤
브릿지
조율
중앙선
광주광역시
강적
##변속기
##Fatale
아그
전리품
조선일보
설레
##맨더
FemmeFatale
With
반말
병살타
Hard
자연스레
Run
⭧다던가
스테이트
사위
대두
효과음
위화
카도
외출
빅터
안토니오
다정
마모루
건의
시력
미타
바하
##퀄
피곤
참패
##돼지
XXX
자잘
쾌속
지중해
다인
김전일
부회장
마징가
추석
두께
임용
복종
CT
가든
칭송
##AA
연비
인테
후타
탈옥
번영
##쿠버
낯설
엇갈리
##블랜드
수작
무찌
성폭행
미디
토머스
340
부화
클리블랜드
Not
정장
겨누
중령
커브
전념
폭발물
##테리
탤
봉황
이스터
App
카가
직감
신이치
진공
셜록
가솔린
안테
승기
넵
손흥
##elf
Rev
슈타인
가산
여건
##암동
입맛
추대
니콜
##ouse
도전자
RS
설득력
말장난
프랑켄
살라
1928
##선거
제정신
214
캡콤
세나
##사의
기병대
CCTV
식신
스폰지
동봉
송구
흑화
압살
RG
충주
환원
무찌르
도널드
호대
토탈
성공회
셀프
제이스
dis
씁
부츠
명인
채무
##저트
술법
예리
키퍼
악세
난전
Da
바늘
치중
꼭두
미셸
환각
체조
게재
손흥민
사용법
무의
쓸모없
든든
##그라드
들이대
박격포
외무
듀엣
아지트
서문
송이
쇼핑몰
##75
VIP
가출
뾰족
##텁
##무니
장래
시동
조세
쓸데없
이ᄆ
의병
페로
접시
안도
서식지
순진
육식
충성심
키리토
마포
경위
##투수
SHOW
피신
좀처럼
미라클
유감
##거진
쇼코
재사용
종자
재해
바이스
카세
협곡
반칙
스왑
분사
고장나
마작
삼각형
메테오
##아아
서면
광양
도호쿠
##니치
안치
완전체
공채
위생
선발투수
##마사
아종
변종
⫸라든가
아즈사
##득점
상권
선진국
진과
릉
걸어오
사우디아라비아
UM
트린
시궁
계보
하이드
육박
Elect
하코
노이
임창
아치
관습
오스카
마음껏
꾀하
사각
서북
기만
물려주
윈스턴
시구
허세
RAW
어처
북유럽
온화
샨
시위대
리포트
초식
##방향
빌미
혼종
불가사의
폭사
co
##ORE
미츠루
Ke
141
She
학창
310
##컨대
대강
동국
##슬로
뒤틀리
만회
사마의
순조
호노카
체가
8000
제비
데이브
모라
잠복
스플래시
##투표
결별
격돌
프레디
작살
액세서리
##we
저번
##ecial
##쿤
과다
최전
석궁
버지
홈구장
도르트
동물원
에리카
연주자
현행
백미
제구
향수
입학식
늘어지
철학자
사과문
패트릭
대여
Get
낙원
입당
김혜
협의회
사다리
존댓말
앞쪽
발산
만두
퍼뜨리
수법
정적
뮬
##조각
탄종
풀백
##라이즈
대관
단테
##요환
홍대
틀어지
가물
본문
##asy
제이크
호스트
##ane
포르노
기요
⭧라거나
##66
수렴
승부차기
콜라보레이션
불사조
레고
앨리
##ᆺ거리
넘쳐
샌디
평정
##its
DT
Ang
스크래치
애플리케이션
world
상정
##미아
블레이즈
사설
오미
치아
##28
비석
임요환
##네트
수레
정제
와우
어처구니
비정
구자
오리콘
시엘
##치오
무자비
1924
정류소
##미사
열풍
까먹
김인
유죄
왼팔
##히사
최면
white
크로니클
당당히
듀티
엑소
480
스튜어트
대담
김세
속삭
송병
설사
타라
학파
벡
식별
소인
베라
##짜기
캉
기각
##먼드
순교자
차세대
암스
강당
볼텍스
제이드
거물
분수
##EX
양동
재선
⭧느냐고
촉구
안장
##ze
밸리
손수
SW
영분
알루미
앞장
침체
007
##용차
원동
가까스로
밀라노
박병
수배
더스트
0000
Cy
로드리
다이브
한조
대전광역시
추산
프리즈
시애
부합
하드코어
아픔
부추기
틀림
영락
헤딩
네메
⭧ᆫ다면서
되돌아오
선공
⭧자니
탐욕
열받
##크로스
대변인
⭧데
##레트
니키
스칼렛
##무진
##포로
우익수
콘스탄티노
su
노브
##ness
망원경
난동
베른
720
주주
사이퍼
가네
기총
착공
플랫폼
어비스
전태
에덴
타지
Song
##지대
목성
흘러나오
Big
다이어트
Comm
시저
호조
휩쓸
발렌시아
국무총리
##24
자위대
비약
편제
합방
Back
선명
##인간
처단
클로즈
샬
애리
동포
##appy
주작
데이빗
도르트문트
420
팔꿈치
강남구
정무
신민
Arm
류현진
##매매
##도니아
선교사
마더
##즈마
시애틀
의미심장
디트로
디트로이트
서점
⭧꼬
교구
광화
검찰청
빌헬름
유한
레트
커먼
승계
품종
황자
화수
삽화
방대
⭧여도
망자
익스프레스
##ny
유쾌
출입구
화장품
이산
격노
동대문
코이치
대한항공
오버로드
##제리
매거진
조선인
자라나
리젠
##벨트
항로
목표물
##ke
교감
프론
폿
##평가
랫
히로유키
특권
창출
Order
유명세
##제품
괴로
늘어놓
두텁
##RAM
##부리
##sc
##슬라비아
유고슬라비아
##바ᄁ
적정
##부대
##마이
1929
##드래
⭧으라는
떠들
대각선
바바
##모자
룽
1911
부두
##틱스
브란
빡빡
민병대
와이드
포화
역기
카야
로마자
후일담
알루미늄
대장군
Skill
리액션
기라
젤다
스케치
미련
나우
⭧으라
단신
전복
##쓸리
꼭대기
서재
정현
프리스트
송파
휩쓸리
방랑
야하
커네
인디언
con
주군
>,
##35
이따
김준호
대머리
법령
국수
KS
플러그
배척
유추
선천
벌칙
집정관
독재자
서커스
농부
##chor
스탠다드
웨일스
주성
매입
씁쓸
TB
어도
나주
##평군
케네
리조트
태연
가가
사이오
퇴근
안드로메다
##공격
산지
첩보
아벨
클락
허영
오드
⭧대
인즈
차출
UR
가제
발효
겸임
1925
시즈카
아론
문의
열전
지아
Every
페인트
사토시
자택
브뤼
과반
행선
##느니
좀비
##let
토네이
토네이도
세균
버금
노후
새해
수분
일직
토의
졸개
무협
정규군
김정일
연기자
즘
##실히
당분간
오재
보유자
PSP
cl
듬
조비
투르
서경
윤종
크루세이
분교
국정원
##발리
조회
디테일
입상
병영
##푸스
##러미
장단
난폭
##UC
모티
경이
내년
태고
##예프
캬
##AG
##니트
양아치
운전자
짤방
영화판
석화
리히
That
구이
가즈
비행선
##빠르
사상자
나나미
위조
알코올
어휘
속옷
총사령관
##각시
상대편
마늘
수반
왕녀
난해
1917
성추행
커터
##자카
성취
느긋
qu
208
##파니
화랑
해협
빡세
이에야스
활주로
간식
내려놓
동거
##눅스
가차
단거리
##양군
지독
전염병
치타
생리
##패드
추월
##작전
##타자
합산
##페스트
노랑
심포
헌데
공병
괴도
상경
갈고리
펜스
선발전
프랭클린
##폴리스
te
지체
온전히
라운
춘추
마장
자석
TCG
인민군
신종
##비우스
시노부
비숍
샤아
복권
홍수
자부심
단말기
개화
박세
숙종
거슬리
##그러지
212
켄타
##괘
⫸서부터
츠카사
리눅스
공직
출세
역전승
해저
마그마
원산
비욘
##정역
심플
##원수
##애미
세이부
##나가와
관광지
유행어
##bps
Des
올라타
스펙트
마이애미
최진
이어인
동남아시아
이관
대적
교재
제멋대로
Har
##운전
위임
##바위
##ert
갑판
교원
비밀리
페더
콩고
초급
잔당
토요타
##ious
##정동
불운
낭만
볼프
나츠미
##끝
프리스
FX
등산
영기
왕따
171
##옌
##ient
라이터
NL
Top
앞마당
끊이
게이밍
타쿠미
구세
항쟁
235
튜너
자아내
모건
요일
##단체
올리버
침식
체이스
##net
판본
연방군
채굴
능동
##모사
크롤
스펙터
GL
아델
파열
자의
영창
개종
850
유체
Tri
누마
##위치
심부
법조
의리
##비히
EXH
##유산
크리스토퍼
중얼거리
야채
##노기
##ret
사절
255
이제동
1927
조슈
##렉트
FR
조인
농도
##ideo
눌
후작
NS
..'
패거리
다이너
악보
리오스
##라이언트
어중간
일선
직계
키메라
##라이터
푸드
쏠리
마츠모토
##르바
정진
근래
가변
사비
플레이트
##튀기
들려주
장녀
레이크
일찍이
비대
백악
법정동
클라이언트
##넓
구치
에프
래스
서스
##pl
뻥튀기
주임
RF
한가
해밀
줄리아
##ᆷ비
알아듣
##호도
##olution
떨어트리
##둘기
신한은행
Amer
마드
골대
헌병
⭧는군
공전
중산
와일드카드
미완
내심
랏
매트릭스
어로
쉘
어지간히
햇빛
바트
왕건
##토록
Em
초동
용품
206
스플릿
##주곡
투기
트리오
연평
특출
유니버
이의
상고
이승엽
애틀랜타
와이어
부메
안중
PO
텐션
유세
DEF
##IST
##자스
모기
인신
드레이크
##겨지
LCD
작렬
off
삿포로
럽
##나들
##co
경호원
##버릇
##노프
소량
##ERS
각본가
유민
버디
⭧앗
오아
정직
인스
가메
##비언
리바이
사역
성남시
알파벳
중공업
구애
벨벳
이지스
##러기
주스
우로
##교도
켄이치
333
거듭나
게르만
장학금
쭈
피크
Act
소이
프라이즈
기통
##니지
요지
진해
UFO
부메랑
요크
프레드
원제
가쿠
정경
후려
드리프트
##인드
치부
메소
데뷔작
209
무로
두드리
이신
카터
메아리
버니
청주시
##ful
##밟
엘런
##mania
ve
판도라
절묘
부딪치
290
Pe
지바
kn
기겁
LS
케르
우메
줄줄이
꼭두각시
남원
자드
작물
무난히
튜브
KG
코지마
저렇
##틀링
##힘
여리
리투아
햄버
토템
암석
리투아니아
⭧면은
동선
##피어
이트
정종
소아
소음기
##ner
##ham
##고쿠
뇌격
TD
형법
##사우루스
##로프
관대
특공대
팔레스
토와
주름
츠루
푸른
인기투표
Bar
Fre
215
받침
진전
고모
파드
선풍
마고
##어들이
친근
오바마
가창력
트레이서
데프
성녀
외야
단단히
##캐슬
세단
치밀
Ext
소중히
##조선
비틀즈
루즈
런닝맨
##럭스
브로드
AMD
시정
이민자
##슘
시궁창
이가
가로지르
God
자연수
데일리
Str
1926
생계
통역
##서리
데스크
희미
송곳
나루호도
되려
레미
다이묘
항우
뉴캐슬
독립운동가
##숭
##곡리
##ning
동산
GDP
괴멸
나가사키
브라우저
때우
Hot
팩토리
Bea
재상
가중
Ab
경관
밀러
##ERT
STAR
##캐스트
오마주
규명
RAM
anchor
덩크
위화감
우투
어린애
음양
##ump
아우구
샤이닝
가세
클라우
나츠키
Char
노사
항소
전폭
성종
자정
보전
고스란히
김제
러블리
버금가
'-
케네디
⭧ᆯ지도
##ward
심심찮
마카오
Met
Rain
심슨
시발
##day
점포
Sil
소셜
초중
every
주시
대의
서남
중소기업
마천
공시
최성
헛소리
⭧ᆯ게요
알맞
##ATION
위인
인장
갭
데이즈
FN
##여행
금하
경상도
무심
⭧랄까
탄수
평지
오일
최적화
동유럽
간장
산호
박민
투여
**
뮤즈
만화가
해결책
수리검
시르
영재
체류
want
아이리
이시다
성령
##상스
로페
이목
재화
FE
이분
White
##88
비하인드
Inf
옥스
헤라클레스
찬사
랜디
최우선
신촌
1400
##ᅪᆫ
헌납
yout
세무
팔레스타인
채권
셔츠
경의
미얀
인피니트
##하늘
기판
로버
대리인
수주
문호
##매니아
⭧ᄇ시다
카자흐
제각
발도
십상
##내기
바사
수료
유우야
이송
계승자
사생활
젯
코나미
KD
명품
북두
루드
충동
성동
바람직
선하
군단장
수영장
안테나
조승
세토
현수
역관
앤더슨
퀑
김태균
제레
down
최재
긴장감
more
레비
탬
포이
멸자
과잉
황무지
오덕
May
빈스
불분
버지니아
##트니
길목
애리조
##대표
건너편
정연
207
마케도니아
그물
키바
감속
스트레이트
이치카
Pop
잔여
한인
찾아다니
IDOLM
다이렉트
주부
도보
개틀링
권역
##살이
오퍼레이터
발령
로로
여행자
근로자
Master
저스틴
청문
주권
장막
타가
내무
##소통
흑룡
배럴
터무니
대한제국
##대군
##레즈
의류
휘둘
##켜
의사소통
하렘
##son
지자체
코로
한결
창세기
하데스
편집자
영국인
##드래곤
투항
##뮤직
##au
부녀
분과
서울역
유부
##ANC
체로
PA
외교관
자음
우사
##oud
과하
농어촌
⭧냐면서
병맛
박기
머들
심리전
##ves
아르테
익명
사단장
##지리아
단연
감도
나이지리아
포유
##피탈
몸체
앞장서
Game
대입
나시
초연
숙명
나기사
공석
불분명
##엠
이범
⫸이라든가
에니
무언가
지갑
##실록
멀린
노동조합
멧돼지
무법
여객철도
OR
사병
##밑
촛불
플라워
로자
스펙트럼
⭧는데도
충실히
수년
##뚤
수뇌
##마츠
안식
분전
161
경희대
미분
며느리
they
끝판
감시자
##지물
1922
사카모토
##ift
티탄
송라이터
행동력
몰아치
뛰어다니
여대
체급
란트
보단
만화책
재빠르
리비아
엠파이어
##ship
즉석
전용기
명확히
서유럽
호타
전과
스패
##ape
애프터
COM
동독
너구리
쿠미
##블랑
유시
제품군
##부짖
##떼
성검
울부짖
중심부
Are
##갱
##돔
##도사
경시
한중
카에데
신령
##감치
랄프
GAM
그토록
기공
오반
공적
##찌감치
피고인
조로
치세
체르
미하일
들통
##그로
경합
리언
1923
열렬
지출
체내
세츠나
TN
행각
WAR
기생충
국물
절약
역전패
간편
터리
1921
자재
기린
고갈
##현동
TG
외래어
스노
김택용
##lock
좌석버스
레베
불가피
카트라이더
차마
반자동
메커
산출
##꿀
요양
몸집
트레인
Bu
맞춤
가야
무네
Bra
##또
나데
520
후하
천리
only
시세
로미
언론사
마오쩌
마오쩌둥
##ien
뿜어내
마우
크러
멱
시프트
익스트림
천문학
Yeah
부설
명하
버즈
경전철
##관계
마비노기
애덤
DA
의약
단번에
##less
필기
사시
준장
쿼드
⭧ㅏ요
이장
비둘기
##ize
특색
news
학부모
소망
체하
짓밟
크림슨
##산면
개드
폐하
##ᆺ소리
##고스
도타
순순
##뿌리
##zy
음식점
루시퍼
민지
Cont
##LD
마취
완패
절감
##니케이션
메이크
솔리드
피니시
리시
말라
헤더
성급
피버
커뮤니케이션
오스틴
pl
티나
터미네이터
신공
걸스
카프
하얀색
등용
프란츠
제네시스
##EE
##형제
캐로
탤런트
밴시
예하
산산
Hea
창간
서약
친화
케어
트레버
제명
치소
인분
나지
##45
월터
르네상스
임페
항속
장대
활기
##led
##고루
유스케
##omb
일갈
⭧누
섹터
강령
전투원
자치구
아세
당근
포괄
⭧자며
극동
궁정
##준호
비범
붙여지
콘테스트
일생
영화관
남아공
⭧ᆫ대
##렁이
##마트
구스타
설문
무패
급여
붉은색
종로구
운임
##똥
간첩
구비
치키
급제
위태
독설
포진
독도
##기어
댈러스
단간
출생지
재차
##ited
Project
교직원
##HD
##법인
그지
팀킬
헤지
온게임
온게임넷
##마드
와타루
7000
세련
리포
⫸마는
배고
##람쥐
민속
##문화재
노마
복부
Joh
회자
##조작
다이스
##ALL
Off
자위
온전
Battle
불허
이상민
TEC
응징
생포
힘겹
붕대
1912
척하
읊
TF
노스케
불안감
플라잉
정선
선상
팰
이유로
스릴러
다트
우동
메츠
계약자
순순히
##ita
승부조작
유다
빼놓
다이빙
눈부시
발자
회유
이어폰
##준혁
JC
##소타
선별
Open
##ORM
톡톡
성유
##ton
##가요
원상
반죽
태후
DDR
~'
정국
협공
스몰
조나
성품
빵빵
##29
이로
순차
천연가스
wiz
칸나
Sky
돌풍
지못
지못미
패미컴
##낮
Moon
나뭇잎
브룩
전투복
조니
브리핑
##장구
##레오
휘둘리
케미
헤일
아란
번거
##플러
......
조부
##웹
221
##ENT
날아오르
BASIC
이석
연장전
노원
기염
관건
알비
미네소타
소주
##선스
일직선
⫸여
777
##메르
얀데레
맞대결
good
##23
아이슬
스켈
카르타
힌두
저력
타츠야
전라도
라리
하늘색
다마
백지
##row
##27
레코
1300
아쉬워하
##촬
야자
섭정
꼼짝
외침
짤막
매도
급진
##개골
네타
##푼
카즈키
감염자
Like
다듬
##com
##위원
남짓
내려찍
체구
아이슬란드
무모
성원
마코
라이선스
청취
초회
수족
WCS
##ling
인플
우이
벌어들이
소탕
희박
경비원
김현수
Special
##즐리
화속
2022
조개
오모
순항
음란
흉터
성가시
여느
갱단
졸지
##의지
beatmania
니즘
방어전
##타기
네메시스
개드립
Bad
눈썹
탈탈
도메인
노프
샌드박스
아틀라스
재주
비서관
강호동
⭧그
##교회
짊
톱니
누락
검거
관현
막말
둔화
낙하산
이나즈마
중사
음모론
루리웹
경영학
디에고
하천
류지
TT
티셔츠
탈주
일정량
산체스
업자
악인
이북
릭스
통학
데이터베이스
Soul
합금
바이올렛
##일관
파병
치과
백수
쪽지
다이크
넵튠
밝혀
추위
부상자
팽창
졸리
Med
코팅
뭣
사납
파나
세이지
⭧는구나
##rop
멕
미달
모치
프라이드
주립
급상
⭧ᆫ다든가
탈것
성범죄
특촬
착취
원로원
사죄
벤츠
브래드
213
드래곤즈
##방식
임프
거창
반대쪽
##어내리
이천
이시카와
크레이지
막아서
지폐
마호
호라이
진행하
##UB
흐트
칠흑
사하
박태
서스펜
형벌
end
Po
##vent
마사무네
앵글
티타
Hey
over
정관
피쳐
환불
눕히
생방송
대지진
FBI
##산리
픽처
이메일
##line
일간
##ute
Now
WOR
무당
일파
조현
반납
자기장
Dragon
성희
Bur
이도
여하
223
찜
##play
유노
빽
죄인
명백히
our
사카이
##xt
파기
폴라
철벽
275
밀양
밸브
가주
드미
해프
히코
햄버거
전갈
어우러지
메커니즘
벨리
스탠딩
바실리
부통령
막스
baby
관용
자자
파괴자
정부군
브라이
래쉬
##stem
001
밝혀내
니즈
#,
⭧리아
울버
이바
신봉
##oney
세속
옥수수
Eng
미유
에테르
장동민
넘쳐나
거머
매점
순례
이끌리
치히로
버퍼
대장장이
⭧리온
미카엘
베풀
fl
성운
반달
왕립
급습
햐
원나라
##뜸
부끄
1907
구스
##방사기
헬로
화염방사기
하시모토
##96
만장
연성
민심
팬클럽
스탠스
수차례
폭군
##나우
자선
일찌감치
구루
본드
액트
ac
신탁
쌔
영령
손책
깁
에로게
비행장
대도
개관
##소니
아카기
Way
샬로
코브라
일개
올리브
##아내리
제너럴
노보
민사
세비
급증
강서구
인승
결선
##규어
##두근
종속
슬쩍
Alb
##FFF
조원
##IGHT
골리앗
##미츠
결단
외환
벤트
패권
수당
타오르
원어
일컬
##eng
설립자
써니
해프닝
수납
##지리
##닥치
see
마리사
볼일
겸비
라이브러리
1905
관전
황소
암기
펠트
미처
케니
카논
연대기
행군
테슬라
##벅지
새신
포자
디비
설교
모리스
##lt
문성
승하
럭스
껴
수퍼
번번
참모총장
스스
제국주의
갈아입
DAY
##맵
튀김
러시아군
빈센트
아득
골짜기
뒤쳐지
태백
슬라이딩
레그
Int
송신
365
##라트
고하
Cent
오주
조문
방관
린다
엠마
max
악질
속사
##ᆯ린더
미나토
Comp
현무
증진
향년
초전
전령
일괄
##파르
쓸쓸
희생양
Match
부기
##눕
타케루
앤드류
사드
##툭튀
선글라스
##시즘
티모
흰
##홍철
골고루
##영향
수송선
모로코
코일
료마
클로버
Ass
거행
극성
갑툭튀
216
대구광역시
최형
두개골
백두
##26
지탱
보급품
바깥쪽
##짖
제드
변모
블루투스
반주
총구
명장면
검출
데니스
구라
탄두
"'
사생
미용
하남
⭧거니와
물음
아이오
Yes
불거지
초필
충무
욕먹
템플러
자결
명실
본거지
밴쿠버
##건설
##탕스
370
레지스탕스
좆
왕성
언락
아데
다량
동아일보
마공
프리드
막론
선지
##원군
내리치
리더십
say
시베리아
블랑
NAS
최하위
여명
행세
Fla
라지
증강
사업가
레프트
right
이남
알제리
자판기
복식
스투
메두사
재규어
변함
이문
매지컬
격납
암흑기
재발
푸른색
수속
미공
라일
덕택
정대
##독부
정주
토토
만년
서유
코칭
슬래
kr
매매
양육
##열차
크루세이더
홰
경전차
⭧ᆫ다든지
해발
마르티
텐더
한복
소란
세레나
##ude
교제
##혀가
포상
메르시
##맹이
전위
CIA
##원지
잡혀가
##천리
장기전
Ook
##내셔널
부르크
인터내셔널
라파엘
사파이어
##디우스
좌완
드래그
거머쥐
광동
하버드
마자
미코
포레스트
오카다
PvP
이달
##ata
잠식
레오나
##ᆺ밤
베이커
SUP
##공주
에어컨
해지
에노
아츠시
사서
토사
왕세
구실
##큐버스
케로로
리벤
##뜯
수혜
시오리
##늠
사력
공안
연화
폐위
시연
선역
Last
쩌
아날
잘생기
몽땅
XY
쌩
호우
에러
총애
상승세
시종일관
##나시
우즈베
짊어지
거미줄
덤벼
동맹군
IF
보호자
날라
척추
밀가루
이터널
화판
개찰
장담
TWICE
##부르
후진
무안타
결투장
현질
누님
바드
부전
처방
어지럽
##ius
북서쪽
쟁탈전
거유
명왕
래리
크로노스
##ᆺ빛
헤븐
카메오
소름
쿠퍼
화질
명은
자멸
급상승
아랍어
플레인
야구단
도입부
440
가신
정윤
공중전
막시
미약
카트리
나카노
##III
굉
##red
부적절
수뇌부
배반
유족
인제
마운틴
레니
적기
난장
카멜
자치령
사주
하반신
잽
멜리
네로
퍼트
기어이
간직
의존도
추상
##ᆺ코
##오피아
순삭
에티오피아
팰리스
이강
##로이
불발
Core
쌈
BRV
부러
##ets
퇴임
자백
젓
크리에이터
##캉
정보원
지도부
한국군
Mir
더러
Show
##76
콜리
##ated
시라이
보이드
there
납품
스맥
좌상
발병
##매치
##ara
두각
왕정
철퇴
관세
츠바키
감찰
본뜨
석가
배급사
최장
돌기
필승
원반
예매
국내외
스맥다운
쌍용
공민
비잔
혼나
Nor
데스매치
1908
편도
리비
조선소
원성
##cl
백룡
센트리
엎드리
사이먼
깜빡
피칭
신약
아이젠
##가타
장려
his
아리사
HOT
정몽
##부수
프론티어
무서
나트
우대
크리드
박차
슬러
소모품
파비
떨리
MI
수전
동하
저축
횡령
승낙
아디
또래
보름
시어터
톈
악수
얌전
바이퍼
퇴마
##44
보좌관
대북
자가
##페어
견고
묵직
테츠야
판과
적도
##데라
아레스
호화
특출나
pe
##천역
가넷
오보
micro
신격
필적
잔재
례
바운드
슬로건
성단
##일기
솔루션
물류
엘소드
모탈
위아
##ely
수박
연못
서프
반려
슬래시
tw
승승
원자로
통근
몰입
노태우
##산군
무방비
Mark
문인
투석
쿠도
이를
시녀
##거스
컨퍼런스
저항군
신빙
전문학교
폰트
오산
비운
##테면
변속기
미얀마
노획
소나무
커맨더
얼룩
If
##이즈미
이를테면
##UST
제복
충공
빈곤
근위
컬링
⭧으리라
비열
다크니스
에어리어
각별
Art
뜬공
지명타자
Best
First
##영수
##임수
이니셜
혈관
##픈뮤직
팝픈뮤직
쿠폰
RPM
수제
허술
##디난
난쟁이
스케이트
이탈리아어
Sur
블리츠
서태지
got
##무르
남산
##KO
오클랜드
김소
뛰어내리
베레
터프
악영향
삼국사기
호르몬
How
⭧다구
##더스트
가늠
블레
맨날
그제서야
첨부
액수
재미없
크리스티안
who
시미즈
츠치
틈새
잠자
##OCK
용왕
id
부피
허벅지
##꼼
식인
여운
##레인저
큰일
부토
칼리지
들여오
-.
직면
베아
통찰
금서
Sl
고뇌
열광
베끼
Christ
언론인
##85
⫸오
Ap
##멈
히이
##짚
적시
인플레
근방
219
##INE
이대호
위안부
이형
##니르
피그
감마
분출
샤르
간절
연합국
후리
파주
##ᆯ리온
이규
압둘
가르시아
중론
페달
훈련소
구미호
##ga
아스타
후카
발해
푸쉬
알몸
웨딩
자유당
##udio
해밀턴
##트리스
어쩌다
틀어막
낱
옐
##ERF
문관
무리수
평의회
머릿속
토코
한족
시리우스
비타민
린치
Down
소폭
다이어
김신
복각
난징
급속도
RED
중화기
FFFFFF
임페리얼
저음
페트
남친
스피리
후려치
정시
곧장
책봉
Never
NA
##푸르트
동급생
추론
##ric
유창
민트
Sam
키치
투르크
950
벼락
전황
##지기
오자
섣
Tour
쿡
약수
겉모습
마키나
말살
파탄
끊어지
feel
화전
군세
송병구
백과
밤중
뛰어오르
##work
Free
NAT
어웨이
티거
활약상
##요리
##통일
이조
하이브
540
아유미
##ther
시커
나오키
금곡
골수
##ley
덩달
닛산
퍼니
주루
마토
내쫓
소홀
용인시
고고학
매그넘
##캣
활발히
화룡
⭧ᆫ데다가
Na
시술
단타
김호
미워하
Side
질질
전우
검도
뚱뚱
대나무
동결
장자
##세우스
##ux
##깽
롤리
GX
화끈
416
GPS
미움
Magic
병신
환산
옵스
##HC
##메이션
##NG
전쟁터
##럴드
하쿠
카츠키
독단
중의원
분비
키쿠
##ᆷ핑
일기토
나리타
그분
제동
사쿠야
궤멸
사복
영수
이롭
##다듬
개리
선후
나선
##erm
미니게임
동성애자
yeah
##hy
투수진
페이퍼
엑셀
인테리어
아로
세가
Track
⭧모
##폴리
몸싸움
##황후
전패
슐
정치가
미완성
서동
판명
##사람
투표율
외장
곡사
유역
허니
탐험가
페미니스트
이반
아만
엄폐물
덮이
트라웃
개더링
다채
형주
지석
패트리
통영
Sim
⭧은가
그러다가
정승
토바
##사관학교
동남아
갑주
개헌
9000
직진
창시자
상서
배틀필드
정착지
로토
픽처스
지하실
시속
KN
##총독부
조선총독부
전곡
검색어
아재
진범
페라리
해설자
체크카드
KCC
스커
내공
라르
경비병
엠블럼
다발
끝없이
글ᄊ
톰슨
제곱
알프레드
거액
마크로스
동그
충원
윤성
태양계
신년
##ird
KA
⭧랍시고
한미
공연장
##가르드
바그너
마라톤
한눈
앉히
Pol
고요
페드로
어시
##뭉
면도
퍼블
적어지
포식자
girl
보리스
사학
스쿠
알트
성희롱
City
프리킥
노선도
PM
##전쟁
##생물
##월드
조공
빅토리
화보
걷어
대영
오데
245
조짐
드러머
오아시스
Happy
스턴트
방망
공황
불계
대구경
성시
##브레
Party
##고생
참수
##BOX
##이인
절제
축출
⫸야말로
밧줄
광화문
충공깽
우여
포섭
슬립
Edition
두근두근
##UL
##덱스
가무
현종
지상군
이쁘
김한
플랑
잠정
##rew
족보
끌어오
김하
야마자키
Perf
메탈기어
AW
##니컬
초계
험악
##21
다라
리제
곁들이
재결
골절
능욕
평준
##소년단
비룡
야인
##슬쩍
090
짱구
캄보
라카
멘토
##UK
청문회
어려
라다
카르텔
의뢰인
Cap
버겁
낙동
BP
YG
클럭
넷째
쥬라기
Fall
234
숙지
고아원
굴러가
di
신천
이츠키
물결
샬롯
Final
치프
실감
천왕
초딩
콩두
엑스맨
옴니
아와
노라
코러스
약사
##aka
선율
##코스터
로어
아날로그
RT
그리폰
끌어당기
##yes
퍼플
수사관
life
EB
박병호
차우
허다
깍
삽입곡
롤러코스터
토우마
온건
애니메이터
226
싱크로
Will
##ris
다비드
난장판
우디
풀이
249
알바니아
엠블렘
주화
로스쿨
야스오
동명이인
미식축구
송나라
아야노
##거래
규율
판단력
마사토
포구
즐거움
부우
라티
출국
이어주
로렌스
블로킹
PT
하키
세바스
부록
스트림
안톤
악평
##삭스
위닝
##프레이
##레톤
방사선
안젤리
##오버
##분투
##젓
망각
꾹
카툰
호각
소방서
업종
북동쪽
##쌀
⭧거라
넬슨
도봉
바알
사냥터
소나타
티라노
방탄소년단
만성
백병
Angel
호라이즌
시프
생식
토카
##핍
우선시
메가트론
켈트
RX
저명
스켈레톤
소양
카자마
관현악
야구부
유승민
분양
Stage
Net
Spring
make
##게스
강진
흡입
효용
이룩
적과
물러서
겁쟁이
클라크
니퍼
재보
##que
맥시
##arius
SEED
우먼
217
최원
보이즈
곧이어
함유
스테이크
짜이
WHIP
상소
퇴직
410
컬럼
슈리
##하임
신태
점치
배수량
김은
다그
##데오
방영일
BMW
증대
엘더스
제주특별
##자치도
제주특별자치도
##링크
##ONE
경순양함
카라스
##재욱
재일
인삼
##tain
동률
##곡절
흉기
사적
속주
린이
플랜트
Boy
보성
##부사
Club
생몰
예민
올레
우여곡절
루돌프
##ision
##헤치
자행
에이미
오리지날
웍스
##보스
디바이
그레이브
##륵
주지
애시당초
하강
##높
반도체
괄호
기교
전자기
호족
디럭스
표준어
샌드위치
ff
도래
귤
슬라이더
발사체
다다르
경부선
##날리
요가
##모델
1906
월등히
쁘
228
ABC
BW
사요
소품
Come
Great
혼잡
피노
##str
RR
미상
남인
233
압승
빨아들이
##걸음
옅
매료
산전
중순양함
레바논
##룰
향토
##네이션
라이토
잔존
계약서
##폴트
홉
최연
애니플러스
⫸ㅣ
가맹
익산
##95
다다
한승
Cor
경멸
파커
초라
토드
캠핑
마석
받아치
내용물
##ASS
도네
검기
억양
아돌프
양지
루기
##ader
김시
칼질
##ama
혈압
##하니
차오르
교무실
재래
##OWN
궁궐
치토
옥타브
유상
미도
고철
과열
##ague
이보
기념일
발기
잡아
소대장
고드
악단
양말
##블루
여중
독살
티르
##끌
##신기
part
##쟈
수만
천진
캄보디아
##쑥
골격
철자
미우
용호
중대장
미네랄
Class
황폐
트렌드
##ause
타원
별거
진기
##팔로
차크라
예컨대
##IME
편애
224
흥하
엘라
IMF
평이
초구
라니
잔소리
파라오
Break
MY
스팟
Fly
##시장
구가
포커
투영
속임수
약품
375
##ross
텐트
황색
##ival
연마
실탄
취항
역전재판
사우디
has
아르타
SKE
엘릭
im
Legend
염동
##보살
발열
설진
친왕
바티칸
피파
신진
발포
버크
콥
항일
목조
자릿수
cont
서주
산림
Little
하자드
PH
##츰
⭧단다
##해야
티격
경대
##바인
숫
인원수
강대국
##ism
사이비
센고쿠
##와르
##83
임재
들어올리
##관리
환율
최형우
##모트
aqu
기증
하인리히
허약
아브
복수심
힘내
머독
청자
시부야
기압
신승
문경
조각상
위저드
코퍼
셰리
띵
젠지
자서
시우
##장치
레볼루션
⭧라우
양방향
광폭
##아오르
Girls
북벌
틀림없
우등
용납
##att
Univers
클러치
발족
코우지
##뻔
집요
만우
예비역
황해
##IVE
코바
##테라
낙서
만악
보스니아
RB
⭧안
세터
어설트
⫸는커녕
세계수
Swe
구식
##erry
수송기
'~
ER
##불리
NFL
교황청
고참
⭧거든요
서산
키사라기
정찰기
승용차
##슐리
회원국
fr
코요미
##대왕
공평
초음
보그
⭧는다며
사춘
뮐러
김구라
시급
파워레인저
##마니
강정
John
EXO
조동
프랑크푸르트
##미트
은색
아누
모금
APC
윤종신
마레
폭언
수목
심복
이완
치하
김규
숨결
##네즈
연합회
##르슈
##ᆯ로지
⭧매
어르
빙글
아소
대주교
전주시
##ᆼ스
##도어
로니
카자흐스탄
겨냥
몬트리
never
몬트리올
출진
301
음료수
녹스
레인저스
에마
셔먼
린드
스틸러스
비방
##교사
벳
코미디언
모차
박원
포메이션
출연자
글래스
비야
팻
마이티
남아메리카
우왕
##uch
목장
증표
냉혹
again
초심
천자
성우진
바이트
만우절
로젠
야나기
##래스카
##구멍
##매김
순회
평야
heart
이바라
##티티
Gl
후사
해부
허물
몰두
추축
빈민
내비치
##피온
치솟
우려먹
자객
자리매김
켓
컵스
미스테리
CGV
개전
박하
오거
호위함
위아래
열대
광해군
오정
크로스오버
스테판
시메
227
하동
폭넓
##ords
PRO
조그맣
정민
헌트
Mem
Take
호문
러스트
매끄럽
악연
하로
##서니
##전함
호모
착안
올인
마사히로
도요토미
봄버
레이카
##충류
램지
히브리
일렉트
성소
국보
폄
사츠키
콴
사춘기
무예
헤엄
노홍철
실록
##시온
담보
##샤인
TBS
쇼타
조슈아
강국
390
1913
악세사리
명지
대기실
##지우
누비
비평가
em
헤이세이
에버튼
통폐
건축가
기울어지
미공개
뺑
보류
지원군
##람회
눈보라
볶음
인계
한판
원사
모자이크
코만
로트
낙양
라몬
512
교묘
숨지
화성시
니르
괴이
윤영
##ubl
강희
화합물
라이엇
우울증
제때
요령
매튜
1909
차고
오우거
북위
은신처
레티
휴지
루시안
캔자스
프렌드
##베트남
땜
##그래
동탄
##조림
##칼리버
징집
비견
지식인
제천
프로토콜
생생
⭧ㅕ야
미시마
숙박
sk
브리지
정설
줄무늬
서신
점성
편향
대련
임정
1915
마방
스미레
이리스
교명
정치력
알라딘
하모니
중종
남동쪽
##포동
은빛
011
인턴
무함
토치
xx
##스부르크
계엄
갈비
유권자
##body
정근
Cry
mA
콧
뻔뻔
의약품
오승
오컬
큐트
저상버스
Hol
가온
도가
1700
타쿠야
의결
근황
##정리
오베
각광
맹렬
북아메리카
대니얼
반입
나오미
##토모
##ital
견습
김종국
외지
유키노
크류
흑색
뜬금없
모하
철혈
제네레이션
에디터
대성공
사칭
총수
##apan
스냅드래곤
수첩
종파
돌변
품목
##주니어
##세움
재기
쌍검
원가
맹수
정명훈
분파
활력
식용
시티즌
시칠리아
##스기
위드
##말라
페가수스
애착
양양
ISO
내분
뜯어
를
⭧ㅏ라
개표
##iny
크리스티나
##헤드
시트콤
울산광역시
##ᆷ없이
모사
EPL
껌
뜸
⭧라던가
얍
건너오
타도
반공
쿄스케
##넌트
나크
껄끄럽
##제프
욘
거래소
ad
반쪽
푸시
##ura
##전대
더듬
투덜
폐업
##뉴스
OO
컴파
##시간
주선
예거
서대문
통폐합
나성
전압
비터
##상부
##빠지
##ople
기권
카오
둔기
아틀란
재계
##ler
키시
⭧뇨
##cy
##ᆺ값
걷어차
김종민
랴
귀속
숙제
##마을
here
폐인
##REME
Ho
간과
오컬트
Gal
꼬시
DSP
도맡
오사무
##ᅥᆯ트
어썰트
담원
뉴타입
밤새
틈타
Sn
억누르
클레멘
니콜라스
##ᆯ래
1904
##DDR
오현
##펠러
문예
이븐
올려
관람객
747
코네
꼬박
##스코
Ind
OM
거침
무마
Mbps
⭧ᆫ답시고
##라이어티
HR
~?
경복
버라이어티
##oun
표류
슬로바키아
기금
둘째치
펠릭스
bb
브록
정박
쾌락
남서쪽
군청
##ino
바닷가
데미안
크레인
전조
게으
인기가요
세인
##훈련
##irect
소외
손발
김장
naver
매크로
어려우
MUS
##메이트
에너
\]
동자
릴레이
##78
내레이션
합숙
오레
공소
풀타임
기념관
##TH
##팽이
##IO
시제
요르단
아다
일면
로더
엄연
카즈미
GTX
자물
도넛
식구
입점
확진
모용
상층
231
다이노
우스개
단결
테드
세이야
체이서
성북
역도
잔치
##십자
##렌트
설리
##길이
전광판
⭧수록
##떠
고온
방아
떠나가
벗겨지
오라클
FO
루가
백스
극하
트리니티
노미야
여차
증식
추격전
|[
우즈베키스탄
Real
프레데터
aquarius
사고방식
1916
일전
##벡
자물쇠
Rad
선샤인
마스터즈
##aker
bo
운하
무트
NORM
⭧슴
조경
상역
252
SMG
when
지효
##소연
류우
급감
뱌
튀르크
어진
환장
꽃잎
당부
금세
진중
단호
가비
##후미
완주
올림
타카히로
사각형
인가
라이덴
섬뜩
염증
경비대
닛폰
Sou
##by
##AE
그늘
강급
장지
컬트
실물
암묵
교통부
역적
238
짝퉁
서바이버
닷컴
트롤링
##식물
특혜
서강
백종
아라시
나카지마
선단
장시간
gu
그딴
주지사
노노
수학자
let
툭하면
Aut
##lex
##요이
순전히
아오키
##UD
중용
NORMAL
친일파
코스모스
⭧길래
이동기
When
이면
구기
야요이
이따금
조만
질책
협주곡
신뢰도
유괴
신해
아이파크
430
##줄기
any
##유예
돌려받
샛
주변인
데이지
가도
계주
기대감
다리우스
지저
가락
닳
주조
뿌요
하가
Park
만신
손길
명심
Single
##BY
##바뀌
무함마드
뒤바뀌
새턴
이코
애꾸
##너드
세이프
수없이
고체
똑바로
로켓단
공모전
##36
조건부
웨스턴
담그
츳코
성매매
##노트
카니발
송곳니
싯
불러내
Who
샤이니
Esp
등기
독소
엑스포
나츠메
⭧노라
고영
EXTREME
멱살
play
마커스
##lection
##닷
노미
근교
##onder
뒤서
머큐
PG
공표
신노스케
Hi
마일리
##anger
웬디
그랜
##gy
스타킹
숙적
타사
집게
폭투
금정
걔
방주
영도
롱주
탁구
깐
##48
실컷
양분
매춘
농성
도키
향신
브리튼
하르트
우의
테디
원정대
냅다
피렌
선량
출토
가계
차차
타카오
##나타
카디널
⫸이야
##사노
고군
Feel
퍼레이드
안주
달려드
래빗
min
일루
##설수
육신
이크
카모
⭧을시
뭉개
공구
기념비
Du
레타
##raft
Album
Je
가늘
무례
코니
그랜트
mAh
수양
루팅
합격자
펠레
버팔로
JYP
광란
프리퀄
알렉산드로
허드
북아프리카
무서워하
명제
어쩐지
뜯어내
##RO
전범
여제
파헤치
##ONG
##다카
서슴
동맹국
아틀란티스
하즈
개요
진명
펜타
한국식
백웅
팔다리
Cal
Mix
낙사
ap
개머리
금단
사무총장
아카이브
우터
⫸라든지
동시대
트랜
hp
데르
des
차츰
##방지
기형
타깃
플리트
Inv
스프레이
즌
홍익
파충류
격분
업소
서스펜션
부대장
하야테
##게이트
지평
분실
분광
팽팽
##로니카
치요
신스
열강
코비
레베카
비어
##산부
풍습
SNK
서라
키네
외동
##98
포커스
계책
코스모
##ya
주점
이효
탄산
red
WWF
Ret
방콕
완승
츠네
Hero
박동
음파
Kim
도면
테두리
규슈
주유소
수식어
##타마
연정
광년
##비슷
앙상
우치하
베가스
브리스
바래
조반
프로테
##태격
쿠보
티격태격
항공대
##ations
셀레
리라
실권
재편
투지
Ult
놀러
은혼
짓거리
근육질
껍데기
QP
판다
236
##혐
대첩
바카
공문
저질
넥스트
이광수
킬로미터
장민
텝
사보
감격
##ouble
코라
플롯
##다주
다테
##제비
굳건
단국
껴안
모차르트
##뮬러
공무
작자
슈테
면담
계몽
##ball
성물
서큐버스
눈길
Blood
소자
코아
##병기
⭧란다
뒤집어쓰
##뇽
관내
라디
윤석민
Fun
some
은근슬쩍
역행
대장간
##떨
음절
어떡
STA
한신
KE
배당
속출
경제력
자습
평온
불계승
치환
##르도
장문
지원자
카스티
국지
보크
나자
요절
야유
##나르도
어정
##정사
통통
엄하
##uture
피시
Sol
수트
크래시
공예
별장
난데
몽환
루트비히
돗
수비대
터너
를르슈
오기
##eck
최민
아구
콜린
탄력
##vil
성화
총무
보살피
⫸울
라이스
독일인
need
엥
##푸르
⫸이라든지
원안
Sweet
로아
##더미
010
격납고
지네
##eek
승승장구
매혹
악재
##린트
다람쥐
##사태
변기
##ocal
KBL
Ag
뒤떨어지
##ather
스콜피온
앞부분
잭스
시게루
Val
원료
코타
##배기
일렉트릭
스무
##숲
제련
Tech
횃불
화순
피어스
중수
열화
자서전
##TC
피통
요요
혹독
천안시
유니버설
이견
신야
사타
돌고래
##더리
265
홀수
햄튼
지질
사념
실격
반열
실린더
마리나
##볼트
된
보아
CBS
들이닥치
꼼꼼
잘나
워스
기시
조련
유품
스트롱
결번
이베
하룻밤
렴
##플릭스
투자자
넷플릭스
정액
강북
희소
금천
앙쥬
개머리판
Say
왕권
밝기
##HN
한류
내신
료코
주둔지
로드리게스
##틀린
조례
스펜
루디
USS
전면전
돌이키
피쉬
라나
순종
##날레
##암리
끌어안
##ANCED
자일
재탕
##arth
3500
거처
초밥
##세요
봉건
사오
비화
한없이
치어리
명계
격변
제이코
클라라
나돌
가열
불륜
이윤열
이언
아멜
설날
청량리
최승
##피드
⭧든가
Def
캅
야가미
복판
##onna
눈여
교육감
510
Space
언뜻
윤지
도카이
호크스
802
왼발
컷인
⭧사
야권
다케다
위너스
홍차
기색
장이
난도
232
맥도날드
사루
자오
손대
충당
스메
##티시
로밍
정신병
흑발
쟤
매카
반년
제이미
##34
말뚝
them
대항전
사이클론
노련
Beat
##뚜기
레터
##태인
비지
최준
##바탕
##ours
옐로우
후추
앞머리
이불
특별자치
노리코
빙하
특별자치시
공판
경계선
사들이
하루히
예선전
조시
르블랑
자그마
상디
댁
국한
기니
염기
시영
히타
굴림
페르디난
일제히
대서
풀어내
her
레이브
다르크
훌쩍
산산조각
대항해
쓸리
이연
한문
##클레
기껏해야
메기
판례
타이베이
로빈슨
가우스
##사무소
명절
변칙
##ena
빗대
실기
##hammer
작센
위그
WORLD
##뽕
렬
엽기
태반
대덕
수교
원군
히로미
알렌
변속
640
세카
안즈
외과
프랑켄슈타인
내던지
번성
Orig
영정
컨버
##ames
제각각
클리프
⭧소서
ADVANCED
##콧
꼬맹이
딱지
쥴
메모리얼
부포
직사
희한
몰아가
인위
랠리
내려치
GC
공식전
우라늄
하네
미우라
애호
카리브
서초구
마니아
액스
향신료
만연
팔아먹
견주
족족
내치
파미
##출력
총체
이부키
##지부
스캇
통솔력
##걱
##와일
얼른
그레이스
Dest
월트
파라과이
Mac
##토니아
이리야
세습
##매기
스트링
불명예
마음먹
레드삭스
LCS
⭧다던
칼데아
##ement
##thing
히데키
##게일
엘사
사일런트
외할
굴절
이국
연막탄
신영
Zero
발진
레테
황녀
!!!
LOL
오소
홍련
##rough
##aid
##노부
코피
밀리터리
속죄
##욕장
세네
리크
##츈
##ways
동떨어지
장영
아라비아
##투사
병풍
밀짚
젠더
GOT
분단
슈타
오도
결속
##입구역
밀수
자하
포박
프로세스
⫸한테서
분담
독창
포뮬러
신재
카나코
고딕
번쩍
트란
Story
타타
장발
종업
무궁화호
황룡
워킹
셴
305
푸딩
강좌
폭죽
덴마
파피
##알라
교량
형용
심해
첩자
##프로스
무토
편차
325
들이받
she
쇼우
PERF
길가
클라이맥스
Home
##DER
모란
유린
아스가르드
##우옌
##경민
##UG
피의자
공격진
##느러미
프리랜
프리랜서
##ta
##눌
연장선
한라
분하
역마
이모티콘
##ano
뫼비우스
와해
수로
수렵
안영
실비아
살포
파이팅
##마르크
우소
⭧다는데
철구
디스코
-!
마즈
깨뜨리
##une
정근우
##로리
자초
안드
라키
뒤따르
등록금
열도
쿠루미
러프
동일본
##so
다의
불어넣
KC
##즉
조병
슬레이
##뉴얼
주저앉
달랑
더욱더
##테르담
정변
부어
셧
겐지
##브론
머큐리
Ry
대방
권력자
##ait
웅장
쿠즈
##ANG
##티모어
NASA
##묻
심볼
에인
전구
에비
봉투
떠넘기
갉
간수
잠자리
근친
금빛
왕세자
상병
고비
관례
못생기
뒤엎
은둔
통치자
특례
교외
몰려들
피아니스트
동호회
IBM
가희
##진구
쏙
의과
수기
폐교
마르셀
호루스
##조사
조나단
Japan
##데시
유가족
Stri
인플레이션
질럿
조라
교포
포세이
분지
물어뜯
포세이돈
##테인
⭧운
##닿
읽히
미야코
방수
셰퍼드
소굴
왓슨
기폭
리얼리티
김건
섬머
로건
##란다
친숙
땅굴
##self
행정동
⭧라나
사이다
포츈
##ᅪᆨ
##신문
김우
##err
수모
묵묵
피스톨
메사
사회학
선호도
MAD
인디애나
아키타
이사벨
마츠다
굶주리
기조
반신
다이애나
클레오
마개
고척
에지
직렬
각주
괴로워하
치아키
##bal
짠
고압
마구잡이
오줌
Hel
함부르크
중앙일보
붕어
위축
독주
딜런
피렌체
엑스칼리버
Lee
##ASY
치우치
Fight
남코
짭
스에
종식
비르
에리스
돼지고기
##ML
유흥
토성
이슬람교
생소
국외
재킷
아이덴
아이덴티티
Bro
Gun
bit
강과
에볼루션
현저히
사이키
허정
람보
강민호
우한
발랄
줄리엣
기하학
##리즘
괴짜
미니건
단수
절실
##ands
드로이드
동백
신예
디나
양천
클로이
##르바이
문화유산
Young
BLACK
##jo
장화
마네
증차
페라
##arm
아키코
납부
셀렉
##르바이잔
##드릭
##카타
앞당기
가요제
AAA
ph
##TER
니콜라이
토모코
여객기
항만
묘소
캡쳐
Wanna
Champion
발자국
사옥
위계
간담
노무라
셀러
알려주
##65
##위성
SUV
경산
##iful
로미오
타코
Pla
수프
일회
에그맨
총점
##light
비들
장진
국문
갈망
동향
판교
229
243
##osh
포터블
뜯기
아제르바이잔
가우
개인차
이클리
클래시
이클립스
카밀
##틸
페널티가
망신
##elie
##위원회
당진
무리뉴
수호신
스탠리
바가지
단도
감명
승선
경기관총
급소
조성주
DL
대물
야오
##팝
리디
660
이브스
##회전
##그럽
737
불굴
클로드
Storm
아오바
김학
뒤쫓
about
컬럼비아
용족
급수
블러디
박진영
케일
없음
육아
##ortex
유희열
펌웨어
NXT
존기
이하일
메릴
과부하
##ᆯ림
안대
워페어
방탄복
DIO
마성
동강
공격대
아사쿠라
표지판
얌전히
##리학
어항
625
버트
이케다
MIX
볼티모어
상반신
Pa
루시아
⫸라던가
익사
Kill
가닥
중남
교화
슬하
EL
IEM
바바리
정가
유구
돌출
담장
잔잔
경원
바퀴벌레
미적
엘더
지방도
정상급
피츠버그
아라이
##깊
마로
김홍
##eter
티오
정훈
##보레
직종
차오
봉화
560
##니발
소고
##수원
한겨
Jo
TC
황산
노우
요법
비닐
마르크
이건
터빈
충신
sec
시그널
SUPER
노을
##lease
하야시
;/
옹립
결정력
##덕이
바운
래더
약혼자
##구르
동두
파오
넛
2400
정준하
Friend
백호
자연히
속아
권혁
##벌이
타케우치
##바꿈
##산성
저속
콜로세움
힛
심영
사토미
XBOX
다분
프라모델
불량배
양현종
아귀
##다이스
본대
건달
혹시나
목욕탕
컨트리
심부름
Line
목격자
칩셋
태극기
##ume
Warhammer
##구석
자동변속기
헐리
기로
공조
게이츠
공용어
명동
##ines
264
##센터
##77
마담
##윤수
블룸
There
이매
라그
낙태
국악
프로페
클린턴
응우옌
맥크리
자상
정오
벽화
분대장
볼프강
##ATE
여군
FS
현악
사이렌
임종
come
하오
##나크
오하
주제가
미행
조예
티비
their
구매자
##굽
조종당
##OK
유주
의인
##현수
국공
청각
클러스터
나오토
##ene
거란
##학생회
신문사
모색
아카시
요나
디언
포도주
미츠키
니스트
포이즌
고트
침범
밑바닥
가뭄
##ral
도하
League
사이코패스
페르난도
체코슬로
체코슬로바키아
도핑
노장
계룡
그리워하
투혼
핑거
전시회
스도
치료제
로디
학명
ATM
놀림
지겹
##얹
노화
##비어
끼얹
가차없이
밀짚모자
res
노하우
백종원
##리아나
프리티
소각
##노세
퍼시
EXTRA
도살
사오리
##샤바
징수
Road
가장자리
황인
Apple
ma
##ᆯ론
입각
Green
쿠페
슬럼프
나즈
들어맞
지니어스
765
쾌적
대격
전경
포신
초신
주리
라오스
##리카와
구룡
파나마
덤블
원만
부착물
힌두교
평시
헬싱
⭧아지
에라
히키
피콜로
성산
당내
관행
커밍
이재명
##자락
백설
곡물
집어던지
사파
매뉴얼
찬란
한큐
양의지
요네
호적
##zz
연행
##라잇
헤비급
##ODE
무구
버들
과거사
우에노
명실상부
##und
##무로
루니
리빌
장정
샤인
Intern
서자
선더
볼리비아
##에스
##ORA
순발
효자
두어
몸값
세리카
GE
뎁
체면
303
관리인
글로브
##수아비
가관
허수아비
노어
251
리차
총학생회
거주민
아코
안파
교활
트와일
은인
러시아인
데스노트
트와일라잇
유파
제타
디셉
사이킥
Death
##드르
화이
성의
##utiful
컬쳐
탈락자
순발력
Tom
모성
케이스케
살벌
참치
종사자
net
공의회
뱃지
창법
백마
덜하
##ha
연두
합스부르크
Dead
양정
룰렛
노기자카
##환경
르브론
호시노
사벨
단층
티아라
슬라브
코퍼레이션
고쿠
실례
⭧어야지
타이가
##VEL
NATO
AO
SB
보헤
253
상록
색소
장난치
장작
연어
프로그래머
늄
궁예
받들
청혼
##ᆸ실
외상
양재
##백호
##ible
피셔
슈퍼주니어
##PN
황천
##플라이
##페르노
남방
국영
병자
316
정신기
펑펑
하피
뒤돌
##동물
완투
⭧건만
##ᆺ감
피지
신룡
##INAL
부팅
인페르노
코만도
살육
알렉산드르
칵
스텐
모조
모태
전보
237
가격대
Champions
제아
김남
죠셉
NV
민수
한나
완력
대대장
안팎
사변
Del
##대장
불곰
##에리
##창민
긍지
1896
미나모토
스코어링
-,
##가키
레진
연구회
스트레인지
원내대표
지간
로맨틱
타츠미
원동력
바사라
."
공양
성자
##베다
239
프리덤
개찰구
소니아
반반
니지
##rol
글루
TEAM
##펀
김응
##송이
##마이트
##독스
탐지기
대함
허접
궁중
후타바
##AF
원대
양평
바크
피르
환기
##펫
냉철
지난해
조계
판독
사토루
입찰
씨름
구내
스타더스트
페널티킥
##기둥
##츠미
맨서
드래건
살인범
앙상블
Mal
Que
거하
##END
보람
친족
모니카
거들
삭스
내포
##그러
⭧니까요
460
유티
인대
앤서니
디스트로
한니발
크랭크
콜트
어정쩡
라울
고창
김문
항전
이방원
노지
남대
제니퍼
분식
##해머
군포
##썩
##잖
나토
고라
샘플링
hats
발당
해트
##루냐
쿠토
뛰쳐나가
하세가와
눌리
<<
유네스
##가짐
중앙아시아
##꼬리
한겨레
미역
유이치
##신저
사나다
명치
분투
종회
양조
##리아스
환관
연산군
라벨
저편
아이카
프롬
루시우
##췌
느와르
김상수
물리학자
디스트로이어
비나
##uss
아사미
##OUR
성계
성악
범퇴
##총사
거북이
비호
보위
##키오
충이
이회
EXPERT
##84
한수
농어촌버스
비료
베로니카
은총
사카키
폐기물
끝마치
레츠
순화
##성장
솔트
촉매
펀드
전산망
가발
오트
신검
##oup
두루마리
DH
⭧와
##vy
원통
애원
레이서
##융합
보안관
물방울
천성
바로잡
##할시
돌발
OC
노티
의기
천수
충청도
힐러리
스노우볼
파우스트
##고로
어류
핵융합
Full
문파
계투
하나같이
중퇴
번들
##ental
낙동강
도자기
Pass
팥
코쿠
아이코
효고
광교
옆집
핍
혐한
헤드폰
과대
헤카
아놀드
름
유투
파란
##메트
스트라
조준기
##대상
필리프
다이너마이트
깨달음
빙글빙
hatsan
XC
골문
앤트
웬리
덤벼들
1895
이타치
##??
김보
빙글빙글
혈연
의구
풍미
곧잘
에델
속국
혼내
픽션
TSM
아르테미스
수이
##아프
서커
짜장
쌍방울
레전더리
무법자
안락
번화
페퍼
석탑
##ily
##우먼
비누
자궁
다급
명상
통장
올림피아
위크
짝수
훤
시진
호도
손잡
백악관
프랑스인
아키야마
호가
위용
시즈쿠
왕창
협업
낙타
레일건
Tra
큼
이큐
##aser
떠다니
WCW
모선
니티
흑기사
Games
모나코
##보잡
발주
안건
포옹
들어주
브렛
시빌
파스타
칠곡
엔도
##ground
패럴
듣보잡
아서스
폭락
흉노
패러독스
부양
##훤
도화
##워지
그렌
차르
포제
스타터
242
##퐁
남해
탈바꿈
숙부
어부
얼라
##OSS
##짐
시브
조셉
##공원
태아
501
태권도
황재
팬더
선점
명맥
통조림
징벌
Set
퀀
우루스
불어나
244
##에이고
샌디에이고
농림
잠재우
호라
느슨
아키텍
##ᆺ자루
선구자
아키텍처
미화
냄비
휘발
히로키
떄문
스니
##페리
율리우스
설치류
스포트
차징
니케
##UND
left
⭧가
아우라
나약
스레드
파치
타이머
사샤
청계
샤먼
리어스
하체
⭧라가
요술
##awn
산란
공산주의자
FT
##간다
⭧수
남궁
뼈아프
MAN
아샤
후원자
쾰
탈영
왜구
적외선
##볶이
와이파이
반대파
랜드마크
##ormal
OT
비문
럿
Pack
모서리
감리
샬럿
유형문화재
유대교
GAME
의구심
per
린스
안산시
난데없이
IR
도류
카이바
뿌리치
가위바위
가위바위보
SKY
MUSIC
방아쇠
##86
##ttack
파라다이스
메이크업
⭧세
알마
약초
##밍고
사냥감
권속
바오로
알렉산드리아
훈련장
위법
연장자
##74
보육
메이스
Mad
사스
##사상
원점
대통령령
마츠리
##IDE
개소
라피
sw
##ᅴ우
신의
하산
풍요
##ISS
연꽃
구덩이
탑승자
속초
##gg
방전
입석
고귀
그릴
##ider
아우르
백병전
군용
무기고
글렌
아그니
어업
객차
##하키
경화
이비
라쿠
보통학교
볼링
부잣집
역부
재우
울릉
공포증
이시스
동진
양팔
괴뢰
승마
행크
530
무의미
베티
탄자
선거법
대림
박람회
부조리
항마
레이팅
##티움
##절로
성폭력
딤
서귀
취역
##폭풍
고구마
짬뽕
지단
사구
스구
양수
pop
소림
플루토
Ah
모국
##야구
안방
프랑코
자급
개원
두세
우리나라
잇따르
long
##꽁
북경
퓨처스
##윗
쉐보레
##빼미
세분
출소
##다이라
예견
뉴비
##leep
이동한
##OWER
역장
특검
네기
라이저
바르샤바
윤상
환술
압수
어르신
246
츠지
헌정
재판부
wanna
##전력
촉한
블리치
비겁
위급
선취
##ouch
##박사
SDRAM
요제프
구축전차
콘스탄티
켄트
##화물
실세
into
촌장
아즈텍
살림
실크
##코르
핵폭탄
##ESS
승자전
##프리트
Bet
Long
규범
크리스틴
진풍
참호
쳇
미겔
내비
요코야마
김광현
경주시
송지
왜냐면
op
기약
만담
변조
심도
분당선
제위
저절로
쳐들어가
판넬
##onic
##이다
신학교
##솥
노카
동복
김봉
태초
254
치어리더
##코리아
척도
호타루
주춤
신변
초빙
조차
유공
문하
고층
##진우
승조
석조
##ience
어감
불상사
빠져나오
거너
강압
증축
금물
갑작스레
Tem
블링
전륜
발작
켐
단기간
유목민
시디
##마음
⭧구만
윈도
동방신기
드럼매니아
약탈자
문건
반찬
앳
코드네임
##ology
배고프
##고르
세르게이
##세인
다자
초조
복서
니어
쿠노
고글
재량
워해머
##워키
울타리
바닥나
##yo
브금
트로트
재생성
GU
커널
밀크
위선
뒷담
##퀸
##니엄
경도
규탄
사운드트랙
신세기
코사
재물
군장
구세주
기일
자이로
##덩어리
중전
은평
##reet
Step
Glo
한국사
##바라기
디바이스
크툴
모모코
크툴루
페러
MTV
바벨
알버트
텃
릴리즈
NR
미흡
삼가
##지부지
박건
흐지부지
오토봇
벨라루스
타오
남다르
사이타마
종업원
윤회
오피셜
영덕
너비
##임새
##찔
been
카나타
NMB
;,
Dem
##뽀
지드
방한
묘비
##웨이트
빨래
겁먹
폄하
자경
소프
후세
⭧려나
카미조
##탄불
NCT
쏴
##도시
진이
야미
1080
##저곳
삼총사
이곳저곳
##자위대
봉지
방망이
고군분투
기업인
watch
##괭이
##ting
자대
##버섯
비스마르크
연장포
##box
조끼
서투르
황궁
##iet
##드런
이블
헤치
마일리지
오두
등대
민망
배틀로
Ele
빗자루
에콰
난간
USA
맹독충
에콰도르
AH
##꼬박
크라이시스
꼬박꼬박
마부
요도
라멘
금상
248
휴양
##ots
쿠사나기
##get
도산
디어
외화
##illa
##꺼이
스크랩
그지없
쾰른
성불
애벌레
친부
크레용
Brave
구위
호밍
레토
##네시
수완
##비지
신천지
nm
실재
진위
학군
카나메
프라이스
유적지
비주류
⭧랴
##br
하운드
오성
만물
총검
카루
지금껏
뛰어가
보옥
도지
맨손
카미야
유네스코
TRA
나뭇
##셀러
VI
bla
사채
국교
엄호
Level
브루노
##흠
소관
불시
싸그리
거리낌
야쿠르트
##za
쿠웨이트
적의
피사
Chap
666
해안가
Her
시발점
다물
정산
안구
감축
굽히
##본부
박승
306
액자
디멘
가져다주
기아스
디멘션
거시
스톨
##32
노년
스테미
우에다
다승
안착
데비
단군
로메
레퀴
달력
##저지
손질
알래스카
##ander
제조업
박지성
nb
넋
질타
박찬호
차질
통지
속칭
연구생
ATP
구청장
아도
내림
에뮬
케이티
톡톡히
번복
##GP
프루
눈알
큐라
가쓰
수두
##국수
System
고프
도난
허준
코코로
Cortex
금수
도우미
양복
⭧ㅓ요
##글라
신인왕
Call
반디
285
페미
프랑수아
올빼미
포르쉐
유키코
Key
이홍
##자유
수세
##너티브
총칭
얼터너티브
이신형
화살표
사카가미
##mas
##노버
방향키
졸지에
선착
근소
김재환
투옥
법제
귀걸이
##풋
Spe
MOV
벌집
말버릇
흥국
신혼
설원
극명
녕
뉴저지
에스토니아
충실하
##ᅪᆼ
오랑
포천
문무
남색
외로
표범
타카미
미소년
Ant
샐러드
레너드
##IAL
##체어
블로우
반역자
Direct
세밀
시험장
대금
부끄러
위스
매리
코그
20000
해리슨
공손찬
##벙
커튼
Stand
퀼
적잖
쿠지
불릿
오구
야마시타
##햄
까칠
##ᆨ션
오열
경음
ah
주특
계양
LPDDR
주특기
Mil
##블러
멸시
요시카
나코
포톤
순양
토리노
성대모사
단추
##enn
떡볶이
휠체어
GA
미주
위스키
외주
인조인간
나진
달구
변호인
가샤
자형
프로파
스필
⭧지만은
야루
쟝
주희
크나크
넘어뜨리
Cha
외교부
po
이세이
하교
가람
요충
와드
손견
##ense
팍팍
추력
해남
##함수
Mer
서고
이스탄불
##94
서든
소거
곡괭이
뉴턴
몽키
밀레니엄
어쿠
##드기
중랑
월화
##에미
##천년
음주운전
##WAR
##말리아
잠잠
도로시
미야모토
소송법
선술
발버
의복
애슐리
편파
이상일
스톱
##OTH
North
##ied
과묵
247
재수없
Eur
엑스박스
##ka
가타
기꺼이
번역본
포스코
##궂
굼
에토
새천년
블랭크
쫒아
카디널스
수진
수병
비관
인술
구와
잠적
머나
마귀
동면
##효과
전기톱
모의고사
머나멀
et
역이
메즈
맥아
디바인
Gener
구작
##차원
LB
유년기
브라이트
에인절
사계
980
시라이시
어의
구토
키쿠치
Die
LM
화교
take
아발
남주
재결합
역부족
다이나
도인
특무
송정
BMS
시경
차명
##갈색
##고짜
다짜
교배
크루저
##뚤어지
다짜고짜
파출
몰아주
EASY
전고
활로
산성
##프레소
무라카미
정품
성행
말려들
262
한자어
쿼터백
에스파냐
color
아드리
레논
종양
밀워키
##ᆼ아
헤엄치
그렉
리세
명언
호신
보컬로이드
유토피아
유틸리티
##ILL
요금제
##ki
##하고
직설
##베니아
동차
메로
마츠이
웅진
HKT
둘레
이산화
모여
연휴
단락
리그베다
무가
심경
농경
##미사일
쇄도
TECHN
스펜서
조광
권투
판자
레이코
걸어다니
Mel
Mnet
무형
신명
##루이
패망
혼용
발성
박석민
부적합
⭧던데
회식
결정타
린네
철제
헤르메스
비잔티움
키프로스
종반
##ove
카빈
본점
##쓸이
Hell
발단
바야
후크
##윅
수조
Heaven
##my
나연
약국
##렌스
슬로베니아
전근
옆구리
구원자
마누엘
로카
함량
토기
센다이
##원장
현관
승수
총신
커크
망언
쿠우
실증
##레라
렴구
서귀포
어학
근위대
습지
유유히
외로움
심기
콘스
필립스
김연아
로베르토
은어
축전
##샹
모면
##ents
Port
UK
엔리
⭧을까요
레오나르도
이양
공범
장창
애기
외견
짧아지
470
쉼
관련자
아미타
열등감
음역
무기력
간결
마땅히
cr
하층
셔터
##St
##도현
백발
숄
##누마
##go
308
무용지물
데일
세손
##브르
순번
상류층
문체
##구려
노이드
가로채
쓰레기통
비키니
680
알아주
뒤섞이
엘렌
공물
기념물
아람
홈플러스
제퍼
시멘트
##바흐
현세
바이어
##ember
대법관
결집
##에타
⫸라도
수학여행
후지타
건국대
의왕
jp
성가
아이린
델라
소켓
요마
룰루
미켈
##화당
최용
Shad
김유진
다방
한기
버나
점장
부담감
핸디
명랑
탈피
객실
라트비아
번작
환상향
송파구
어쿠스틱
나래
오션
에미야
케이틀린
이마이
재판관
시공간
레퀴엠
절판
이희
선종
맛집
유의미
도안
절도
말썽
겨자
##umb
이륙
토모야
모교
키예프
##합중국
##껄
구판
용접
혼수
ROX
대의원
메이슨
##경찰
천차
##ince
서해안
Hello
탄피
스칸
아키하
생물체
##IF
본업
착시
경쾌
##워커
dr
적국
해바라기
니치
⭧린
하락세
배달부
QS
지마
어윤수
결핍
!!"
비행단
묵시
KGC
우후
당뇨
리벤지
일침
추앙
Rep
볼드모트
직급
베누
손색
##yr
색적
911
위니
영사
군량
징표
구인
문정
라데
필명
카트리지
Lun
종용
레이다
덩굴
미네르바
팟캐스트
##add
숨통
황금기
단축키
관성
##uth
치즈루
적나라
양날
아이스하키
구스타프
일병
제츠
관상
침수
##va
##로트
조미
솔러
노역
산물
켄시로
산업단지
미합중국
북아일랜드
사이퍼즈
모레
오나라
도굴
영산
드레이
##파치
둔갑
##생명
박인
엘다
자명
전권
월광
신창
병음
노르망
인공위성
마진
용시
304
##ection
샤우
241
카카오톡
경마
에보
리지
케이타
동위
카푸
템페스트
상동
만인
호아
부사장
구마모토
헤임
카키
디셉티콘
##39
우진
정신줄
밤하늘
##ures
사무엘
시즈오카
⭧ᆯ세
최태
신경전
쟈니
오지환
위압
##iri
서일본
강가
야타
난관
에스프레소
##녹
강기
##레일
##사슬
조디
##ᅢᆨ스
##바드
김강
군정
증설
브렌
김성현
RGB
##일치
네버
스카이워커
한술
##ility
Fil
##ates
희극
김기태
Network
##보리
알폰
오와
도부
버저
원서
디폴트
Inc
헤이즈
1899
Cup
##ELL
영천
문항
##irc
진홍
슬기
유리창
맹장
데인
이프
가옥
대열
타무라
저스트
로이스
망가뜨리
Mach
ser
확충
ㅋㅋㅋ
날라가
Esports
중파
역순
길티
타카기
연평균
인척
역동
캘리포니아주
이덕
ZZ
##테르부르크
이나바
라칸
참신
##aph
쾌감
아즈마
미륵
University
##WA
##펙터
미츠루기
한림
311
##ometh
##십리
선동열
내란
순하
조종석
환승역
그레고리
Again
구명
동치
호송
처장
구구
후쿠다
앰프
이용규
울림
아약
⭧ᆯ지언정
매화
불빛
빙그레
⭧쟈
노량
개중
##razy
look
아캄
##궐선거
재보궐선거
rem
자속
본심
벤처
몽고
##핑크
김해시
사미
마샤
##미디어
##조부
##ORPG
브랜든
상아
마이스터
##ᆷ돌
세주
맨몸
##사병
제라드
사냥개
소행성
##닭
퇴화
EE
게오르
칸자키
싹쓸이
하디
전소
펜싱
샌즈
로바
건방지
문학상
세비야
##부상
기동대
⭧덴
이다
노쇠
거주자
미노루
타란
파운
풍성
미니맵
철폐
번역가
울버린
##어머니
군자
##atter
영등포구
시이
아모
윳
##위안
이용한
Only
실화
짜내
몸길이
집행유예
무스메
컴플렉스
카르타고
Burst
bet
궐
디온
소용없
주니치
파시즘
해롭
별반
mg
노하라
변방
웨스
뒷부분
아나스타
##bit
##hem
##집합
LPL
Dig
아린
##태현
은화
판타스틱
냐
수축
인산
헬레나
모세
비축
블라인
우스갯소리
##윙
##ᆨ스피어
셔플
에밀리아
신차
반포
홍문
방위군
백조
##AKA
셰익스피어
소고기
리토
장흥
몬스터즈
Days
미어
##공화당
양궁
##플로
민주공화당
패자전
오심
패티
담담
기나
관음
네이션스
##pm
##보트
다우
부조
비등
도레
알리스타
키아
마르세
꿍
##플린
##뱅이
##전생
고찰
##해지
콤플렉스
여신전생
##ether
무수히
패퇴
스터디
간담회
로케
내지르
MiG
##TN
장윤
파가
따름
디저트
##랑카
잡음
사업소
Winter
##ips
최단
##에나
점프력
모독
##우로스
싸구려
제이콥
리옹
영월
초안
최유
발레리
기나길
능통
힘드
숟
섣불리
도란
알로
튀니지
대소
자립
노다
자림
think
브루클린
천문학자
지코
302
랜딩
합성수
LF
여래
레반
죄악
nbsp
수난
유화
트립
stay
랑그
윽
##LA
불의
에스퍼
은지원
깨물
해수욕장
Gh
낌
필멸
토리코
시들
신통
머피
##평동
손아귀
"...
라흐
##더지
마음가짐
박용택
##갱이
걸림돌
Jack
##uj
##영웅
귀가
##ids
IB
바빌
이름값
슈우
온의
이공
시국
고졸
##제르
그리스인
손아섭
아약스
구설수
디노
태사
아리마
안양시
##cess
어김
방청
메신저
야코
뒤흔
아이비
문화방송
##imes
##unk
INT
##기수
##샵
앙고
⭧로군
키타로
군마
육탄
신음
##레로
송광
시설물
잡아먹히
Va
수갑
##걸스
스크림
두꺼
격발
원심
##남동
Sports
name
스사노
##als
타마키
복음서
피에로
라사
바꿔
푸에르
노동력
사인회
차근
뒷모습
미카도
꾸짖
신형
외양
좌천
자장
원투
강시
흉부
1903
틀어박히
수도사
룩셈
비정규
전액
부트
윅
범퍼
굵직
##톨레
어선
##진보
음질
골머리
빙빙
보조금
Inter
WA
들뜨
산요
복숭아
룩셈부르크
유예
##코인
서프라이즈
수회
체자
DEX
도원
##일비
학설
권수
간사이
송창
따라붙
제리코
티타늄
Kar
뻑
부의
테레비
공관
드링크
##산업
믿기
##uman
630
쿠미코
가고
기승
고동
##진창
레일리
두들겨
Knight
House
대망
데어
마르틴
카가미네
쑨
대참
속속
##커버리
##그라운드
고서
엘레나
출입문
⭧맨
2100
색기
##ᆯ라이나
사생아
필리스
노르망디
오릭스
프로펠러
보수당
music
발췌
에루
주박
##ald
아일
전업
칠드런
##XX
말단
오사카부
대모
적분
해마
불씨
누드
Wr
만수
구금
##orce
푸틴
관중석
이너
화풍
올라프
드미트리
##치히
놋
종신
창건
푸치
코너킥
쇠사슬
##ved
작품상
빼먹
⭧튼
토목
논산
행선지
갖가지
착탄
##팔구
수잔
강구
저버리
오른발
북동부
유폐
도태
당과
크랙
잔상
슈퍼볼
안드레아스
그람
원체
십중
GF
세타
번외
##해하
십중팔구
타일러
유골
플릭
승화
##ico
계약금
렌더링
겸손
붉히
사선
불경
케냐
##혜진
시니어
iP
##37
적장
제패
산드라
개당
##거슨
둘러대
웰스
에인절스
헌팅
##라면
일그러지
근간
##폭력
개인기
##isode
파밀리아
⭧어다가
분개
키카
아인슈타인
카탈루냐
조만간
Snow
##수단
종래
⭧니깐
선데이
김미
##양이
눈매
렀
##emy
네온
윤보
##REAM
엉망진창
CLG
초토화
바로크
포르투갈어
전서
와다
무한히
다이나미
올가
다이나믹
More
천년기
철판
꼰
유세이
장료
증정
나가토
속마음
토레스
착오
염라
##VEN
##기념
도교
##공업
종군
쿠르드
##IKA
성조
파천
편집장
백두산
캐쉬
탈모
샌드백
초판
##적으로
미국식
오토메
베르나
NCR
오키타
플러그인
잡담
이사회
사나에
##거시
후우
##토크
마포구
제레미
##lin
After
오유
##31
순천시
객원
타이거스
아레
수은
전단
리허
##겨우
경부고속도로
객체
에반스
출항
달팽이
티온
획기
공민왕
어김없이
##진보당
were
##사업
내력
네프
뜻대로
덮개
탐험대
공백기
이그
나이스
카이지
히데오
⭧은지라
자야
중증
도선
처자
선승
##갈이
일신
오펜
SSD
광명시
핸들링
요시코
mod
의성
산동
다이버
##드라마
Ice
한바탕
영의정
##내티
홀로그램
신시내티
##BE
기물
⭧니아
침략자
##ella
##국적
안상
김동현
남양주시
딛
길동
##림동
나뭇가지
서건
시식
일류
구약
서현
컨설
깡통
Year
속수
760
공기업
배틀로얄
미마
럭비
기뢰
발화
투게
질소
%]
가나가와
위구르
교의
김무
온리
아나키
묵인
##글러브
영화상
골든글러브
송시
정치학
조승우
귀인
보령
타파
아이샤
990
장로회
학장
아이패드
용역
그래미
염원
아머드
xC
하청
보드게임
주이
영통
555
승산
##ori
##헐
파프
데릭
사이조
귀도
봄이
근거지
현혹
접착
석판
처칠
뺨치
발버둥
##fl
보어
도합
에트
까치
빈자리
마사유키
뿅
번번히
이바라키
하복
아과
미개
팝콘
진구지
비이
총살
심포니
악녀
투게더
이징
밀착
찝
##촌동
메피스
권법
백상
##oph
쟁취
렐름
him
장만
They
Lost
⭧로라
마그네
아톰
보일러
연필
##세어
전처
정호
유타카
토양
황건
960
우르스
공화정
강수량
PPV
라모스
##72
정태
항문
헤일로
##어처
방글라
우버
저우
케스
미니어처
핫토리
방글라데시
맥스웰
중성자
~.
비니
2200
윤치
부천시
구부
음표
하야미
영예
와스
빠름
야만인
game
수순
놓아
마이크로
섹션
열폭
비웃음
날렵
Arc
매월
##피디아
재방송
트랭크
삼척
즈이
하진
떠도
TA
소파
로엔
##현실
황도
##꾼
보나
공파
히터
농산물
생활관
공생
위키피디아
##프레이즈
책임감
사유리
Under
대작
요스케
반증
알론
주택가
최경
맘대로
험난
점원
박제
##마이오스
##기니
##othing
295
부지기수
수문
투창
독사
병실
##덕지
죠타
리차드
바빌론
통곡
키르
면세
킬링
굴곡
Rob
합세
404
610
우에스기
실각
면회
Cur
##zer
⭧고야
에르난
소시지
Mc
야사
프리츠
##ᆺ가루
갈아엎
영력
카메룬
프린터
사마귀
대전차포
dream
##만화
후견
초유
퍼거슨
네이밍
Imp
##촨
관청
##....
놀래
자가용
아편
헬레
포르테
정공
제이나
Gra
##치우
상응
몰이
컬처
침입자
역이용
카봇
바닷물
580
##ving
Anim
정복자
동양인
png
무투
##호마
축물
특별법
교통국
VC
용문
##ITE
펠리페
모루
미스틱
강우
게일
세바스찬
삭감
질투심
MMORPG
쑹
주세
도출
도무지
간사
조선왕
관심사
##YS
Why
간간이
##컥
칼로리
신기록
흩뿌리
블라인드
주상
명색
봉신
stop
##ᆼ크스
##자마
강승
마유미
테레사
수두룩
##ARK
하류
공언
도용
당도
독신
장보
포그
로시
승전
단체전
##캐피탈
피날레
뱃속
남하
재야
천정
top
880
##order
Kiss
걍
자만
채색
이리나
##ᆫ티지
자타
405
콜럼
탯은
강의실
어드밴티지
##omething
가독
수심
다희
야크
캐치프레이즈
⫸이라던가
마조
구걸
원탑
해답
##천면
Spir
⭧릿
소질
색다르
무참
체육복
짖
기모
장터
문선
브렉
Enter
대천사
##그라들
##92
애비
002
살라딘
##fore
연무
브론
Secret
비너스
##테라스
박한
##베로스
쭉쭉
vol
기고
산재
기흥
공상
김범
풍신
소말리아
머스키
여하튼
##WS
대종
걸프
266
김대엽
파출소
즉흥
혁명군
##82
전래
##구름
체온
시뮬레이터
모녀
판인
남양주
거장
미야기
##차림
형체
언리얼
난이
온통
##INK
##쿨루스
##ᆯ리니
결여
초소
속기
외인
현대캐피탈
여력
파주시
##광이
490
HL
사울
Ann
war
위세
박현
루갈
왕도
##ANCE
ACT
크라켄
중기관총
소미
사이언스
포스팅
갉아먹
TL
불복
##ury
튠
아리랑
자갈
저쪽
달리기
혈전
쿠로사키
기민
##부림
애니맥스
away
중무장
개기
매듭
혈족
쑤시
유리카
마사시
아오야마
FINAL
blo
##나스
아마테라스
블레이크
Pan
##렁크
제철
변덕
길쭉
미제
건과
파이크
쇠약
쟁쟁
서영
양세
겨우겨우
어머
악귀
습성
의논
광신도
나팔
한진
부자연
호이
일주
오닐
박성준
오거리
머슬
하이스
매그너스
속삭임
쿠가
가젯
마킹
카시오
말다
그래피
윤정
##mon
##중심
본연
박형
##시아키
아킬
Roy
##터지
성욕
퇴진
##URE
상선
단면
카밀라
SNH
Dan
베이시스트
425
Reg
합성어
김주찬
알렉산드로스
만찬
1890
마제
생도
##루가
폐차
아나토
톱니바퀴
가부
정읍
드나들
레저
독고
독실
초심자
IZ
##Pa
일구
미노리
##일체
##활성
가톨릭교회
Hun
Sal
동당
명소
강남역
blue
JB
수시
속보
##병원
Remix
스러
코마츠
ed
연옥
의역
특대
뚜벅
시계탑
Normal
light
일색
##미온
타노
데저트
트렁크
햄스터
찢기
##반짝
세이렌
##부진
무더기
성룡
반짝반짝
서건창
Vir
유모
반월
강력히
아키토
##aking
부엌
비일비
통나무
##코지
끝장내
비일비재
전일
발가락
천룡
악취
넥타이
개정안
더럽히
민영화
From
되풀이
얼떨
Plus
쇼트트랙
속삭이
해리스
Micro
신교
문도
실태
현저
다이고
응모
지민
기저
구레
태화
열중
우주인
피부색
입김
메트
훈련병
장조
발터
올리비아
토론회
로하
글라스
⭧쿠노
플라자
BEST
##짤이
일일히
요충지
견훤
API
엎치
엎어지
str
무효표
display
변함없
Nat
영종
##르르
트램
폭염
탄식
로마인
##스턴트
노틸러스
타루
연격
신타로
초장
080
마사루
밥상
고분군
GRE
해결사
용산구
지름길
##바겐
검문
상급자
America
had
킵
앵무
실과
##esh
사산
인스턴트
영유
퇴학
베이컨
##뚝뚝
HA
캐롤
##저버
두꺼비
Easy
리알
##코타
옵저버
##엔드
사치코
PERFECT
add
무표
도련
345
##ᆸ쓰
당파
원탁
뒤편
고심
명수
은거
스페이
점령지
⭧건대
By
LR
##ney
무뚝뚝
공격자
무릅쓰
작명
##불복
005
JAP
과천
##급수
플로우
결탁
긴토
시코쿠
마두
화사
비법
방진
재력
복불복
혼잣말
부풀리
우방
로터스
엘리엇
##듐
Dri
상봉
창녕
Band
유병
납작
패스트볼
총대주교
형용사
검투사
진풍경
지프
소정
⭧을래
스테레오
##GO
함양
박소
글로리
수서
질색
당선자
크래쉬
심신
항시
자작곡
XI
##38
하긴
드리스
식칼
칠성
더글라스
국과
Ob
손패
Ha
경치
능선
색감
810
정파
##파시
배신감
브레멘
퍼스널
##erson
소방관
288
동그랗
##므
대보
발암
##손자
안티오
모뎀
##씌우
경례
재촉
긴밀
활기차
허드슨
##히드
##차근
달마
잡아가
청순
##OLD
차근차근
산적
레이더스
대학살
Wol
##con
518
경복궁
##타일
현란
스테인
퀘이크
##페리온
한동
출품
##연의
유니코드
들여다보
도미니카
동학
사이언
기대치
da
수긍
일판
관구
시마즈
준결승전
레코딩
##을리
##무책
포티
참혹
영애
문희
진시
코앞
토에이
루주
임창용
##무트
PTS
고해
식이
송은
272
휘감
Fant
오치
상트
내쉬
권영
볼거리
MSI
GIR
##기구
수훈
15000
홍진
미치광이
리아스
Series
사본
사흘
모기업
학실
아키오
유키오
연명
땅콩
숱
무턱
##모으
택지
범람
이해도
쉔
780
##테이커
would
##게티
권선
담아내
명종
평가전
고려사
신분증
AJ
##감독
bu
모지
##orry
##메드
신학자
근현
##순환
미스코리아
유혈
언더테이커
모닝구
Video
재조
570
돛
영연
별세
##협회
두건
막사
##반구
오가타
미혼
재경기
탐사선
GEN
소스케
##도르프
상층부
평평
##ublic
단언
녹아내리
고루
판박이
법규
840
기프트
드가
명부
초승
보주
폼페이
번화가
특강
식단
걸레
중개
스커트
편히
액세스
MED
아흐
미자
고강
왕래
차량기지
1901
하퍼
텔레파시
기득
아이치
박헌
태안
##wn
유야
프래
##idae
탐탁
마상
⭧려니
병법
탈진
척탄
가인
리니어
회랑
힘차
꽃피
코우타
에고
석재
머스킷
PE
동형
당수
재외
아라타
둔하
대주자
다목
창구
##길동
OGN
메피스토
번뇌
레거시
주제곡
극단주의
속수무책
부총리
키보
국제선
MOD
민요
숟가락
af
변화구
쥐어
보건소
승룡
만장일치
진통
재연
용신
1860
아브라
함교
멀록
불타오르
⭧다네
지청
쓰다듬
401
연합뉴스
##렁거리
지선버스
오재원
가고시마
다재
##키치
286
GIT
소다
복량
근사
##ato
미사토
코스타리카
UB
조쉬
노토
영영
##피오
SPEC
서연
비스타
까맣
마노
오오타
중공군
톈진
캘
응수
지구력
JK
xB
사커
박희
비트코인
Force
##높이
##타니아
맹공
칵테일
##케이크
##지옥
화분
##레르
문화사
ACE
##ITY
저기압
결점
절멸
이경규
매개체
인양
후부키
홍명
마나카
페르시
심상정
##댕
주문서
SHD
카카시
하노이
지노
작성자
춘천시
의수
명함
토도
역사학
1898
지안
주정
치수
신현
레이튼
스파이럴
니퍼트
카코
물의
##ATA
ro
##MI
장현
금주
##리스타
창조주
용기사
##덱
용지
산토스
321
사민
##마다
플랭크
난조
공학부
중독자
##쯔
정열
분분
순이
천명
##쿠사
민선
299
스포츠카
하노버
##ison
아랑전설
##스토
가망
타쿠마
사황
##마키
당직
독하
동호인
장검
국철
윗부분
동거리
##외과
누설
센토
##umber
깔보
위문
예감
트렉
!!!!
STAGE
620
뉴트
번호판
으르
제네바
##hn
도나
찡
##TLE
파마
RES
⭧다나
##파르트
모니터링
편법
픽시
1902
과반수
Div
안데르
코크
용돈
알레르기
##현희
슈마
⭧웨
##미안
싸늘
기계식
정미
발송
죽전
호문쿨루스
상국
히트맨
FK
##기스
기단
##만별
폭우
⭧ㅕ야지
천차만별
무턱대
기전
화단
퍼트리
후지와라노
Lu
아냐
구획
쇠고기
어쨌거나
본전
허점
캥
##디나
메오
GITAD
##다발
##러붙
체의
금광
몸소
우노
총력
##득이
향교
출자
이해관계
EF
##아부
##권력
논외
영웅전설
차례차례
삼국지연의
하하하
검법
헥터
재계약
질식
제논
와시
두더지
페트로
1897
KV
발군
짤짤이
정윤종
##석희
몽둥이
구수
후한
야키
##BT
완장
무신론
##벗
##페테르부르크
이동해
영업소
MOVIE
부의장
상트페테르부르크
바짝
조엘
##즙
파티마
프란치
아자르
도성
⭧ᆫ다던지
플라스
퀘벡
먹잇감
Ta
레기온
무표정
##기리
자생
고국
312
##샘
린코
셋쇼
셋쇼마루
점막
JAPAN
성신
개소리
타순
출정
##벌리
Future
췌
오븐
타개
접목
##tm
폭스바겐
나성범
세네갈
die
불스
준이치
357
유도탄
boy
자퇴
불패
베르트
퍼블리
링고
블랙리스트
ZERO
거진
화원
건들
쏟아부
힘껏
##amb
than
조선왕조
820
##비행
천호
얀다
비드
결방
로데
음식물
묵묵히
pre
수저
한상
엘튼
녹슬
국방군
총독부
##넨탈
신안
계파
용광
건반
북서부
하코다
장단점
곡사포
쿰
아네
FD
노면
채광
307
밥값
355
출장소
리허설
Here
호머
처우
##방위
엉터리
Fin
el
⭧다느니
수거
비안
뎃
진언
씽
행정학
디아스
수아레스
Championship
너트
Aq
으로
꾸역
무턱대고
cod
이랜드
##다능
케라
벽면
종착역
영암
스리랑카
다재다능
박철
블라드
막대기
지스
발의
der
역세
웨이드
유자
면사무소
발사관
##irth
카우보이
이한
전량
피안
휴재
왈츠
could
오대
중학
산티아
##read
335
International
가트
거만
##어가
연약
안달
원단
##hed
마르세유
##나츠
유년
광자
쿠타
##강하
네이비
소인수
##해튼
2600
무인역
제끼
교부
##브스
직함
바스티
빠트리
청도
까발리
##odu
코즈믹
초승달
기내
일축
몬드
##acy
선후배
Queen
##ror
퇴원
1894
##46
반문
간헐
경작
망나
Exper
이수근
프란시스
모티프
김하성
황재균
새천년민주당
기류
화승
만하
프톨레
프톨레마이오스
소변
만주국
잣대
리자드
##분별
스물
고저
직경
복역
말다툼
조나라
멩스
GITADORA
##아떨어지
리콜
계급장
섬광탄
자조
일수
리저
해파리
급강하
리포터
맞닿
양덕
뛰쳐나오
자우
다레
청라
묶음
나지완
##무쌍
코볼트
열연
쉽사리
메인보드
모덴
##테크
적재량
최전방
추태
로또
대성당
셔틀버스
power
##텅
주신
만기
역공
교파
트럼
심층
테크니컬
Pat
알람
특사
매킨
육수
왜건
⭧을지언정
첼로
엔지니어링
Old
채식
태엽
##락스
셀카
증명서
관찰사
산티아고
youtu
자코
호른
아마노
황야
숙성
독립군
시비르
how
⭧는데요
옷차림
##ctor
페르난데스
중남미
Ill
##트롱
앙코르
##맞춤
묵시록
지략
⭧ᆫ다던
다윗
노론
##두고
끼이
이경우
안드레아
호두
루이즈
아케치
FOR
떡칠
Mor
전학생
금나라
경찰차
시에라
후열
##unch
##RC
벤자
강경파
##화기
세공
여과
Look
BLUE
##iw
오수
미신
오르페
710
Work
⫸이여
꼬꼬
틈틈
아나킨
유시민
pla
데바
달달
황급
봉우리
##icle
옥토
카이로
테크놀로지
##레프
접대
지지부진
수백만
##iant
하울
거구
파이어볼
VT
강백호
##토프
야포
사회당
앤드루
최연성
오영
용모
고함
도수
##노르
본기
포항시
##덥
피력
우키
로도스
컨벤
이제야
##아프리카
강물
플러
핵전쟁
합창단
##꿍
모카
JD
호연
##티아스
도카이도
원주시
애런
애증
메이든
횡포
보보
마아
유례
암스트롱
미생물
호쾌
손승
시리얼
아야메
정찰병
카츠라기
Er
Fore
Give
##고양이
크레이그
##ces
선녀
##핀스
이근
세실
토아
토레
통행료
내무부
청취자
비활성
장강
포포
국세
폭약
세이라
##QU
주안
이봉
유실
무분별
배양
화포
리빙
왕전
##메탈
플라톤
Dyn
츠요시
나루미
공리
방통
말린
디그
효종
Cla
마셜
맨해튼
자카르타
##cal
##LY
미첼
심취
궁녀
##otion
문종
페네
클라인
##els
갱생
프랜시스
피난민
Aqours
Ber
##su
후세인
##달프
김민철
핥
##라호마
일라이
장승
애너
##적거리
각하
탈레
오클라호마
##WC
마그나
스털
##킴
⭧을려
강풍
국부
한국전력
고의로
문수
346
전화기
276
칸국
빌리지
여실히
의용
배낭
베리아
급조
음악중심
스탬프
션트
보컬리스트
구미시
er
유관
만다
법관
##브리지
Dav
주괴
자해
번안
영화사
치매
알프스
백석
##불사
송환
전국구
맹주
콜렉션
오웬
##면체
타미
함종
대표자
성리학
##글러스
구조대
케이코
낱말
리거
코랄
메들리
##파트라
아득히
클레오파트라
와트
총액
퍼니셔
게으르
⭧먼
##인더
진사
브리오
칸트
놀이터
아랍에미
아랍에미리트
공직자
원초
강박
##ask
더글러스
청부
##혜원
##ender
##엉이
피타
에밀
속내
⭧더라고
조선족
하이트
페일
##만큼
찹
뒷목
발라
##ami
황금색
여수시
제수
동귀
술래
추축국
이철
속곡
에이핑크
##가나
부비
절로
ARC
Plan
np
##시원
마중
마오카
식감
휴고
즙
##sy
##바스티
지원금
RNG
요직
충만
캐롤라
사조
히미
온천욕
루미너스
이그니스
Fort
미요시
방독
##와트
양민
필로
금연
슈이치
아우디
TFT
키네시스
카다
더디
결렬
김밥
소비량
TBD
이설
⭧랏
학관
달서
에이브
광주시
동해선
Player
구급차
이서
볼로
개항
##스트리
러커
CI
큐티
sy
지브리
친동생
그레이엄
넘버링
##대신
파훼
교신
쿠쿠
글꼴
롭스
육군사관학교
발명품
##원숭이
See
말싸움
우레
출가
high
치욕
델리
##레마
나가노
애드온
전태양
애슬
간토
페페
##ular
효도
지지층
타임스
##여래
##elieve
PTSD
비교적
안젤라
초신성
모여들
괌
세심
국유
슈츠
어라
##재주
접선
##젠더
art
MH
리파
단가
반야
베이직
모모카
가마쿠라
WIN
##주석
한껏
관철
항체
프라하
##SH
##사탕
얏
예식
변론
낙점
펀딩
고흥
연중
포츠
##예스
얽매
Sub
##이라
치치
반향
##테리아
철인
침실
큐리
선제공격
인내심
고상
도그
카톡
스타인
아폴론
hPa
상습
##ᆯ리우스
언어학
직장인
Ever
주성욱
컨벤션
배회
흥덕
우치다
INF
오두막
남경
##뿔소
치닫
매물
금관
쾌거
스털링
Dec
##쏘
시일
최종병기
Another
시바타
Make
Squ
670
이정훈
사노
우성
기어코
무쌍
선의
무전기
##tus
##EP
펀트
신해철
무드
쿠와
258
이승기
IOC
슬링
최동
진열
덴오
Wonder
안마
완치
트랙터
카나에
샌더스
CU
ml
독스
조석
애도
##ICK
비취
분탕
룻
골밑
웡
격상
감독관
707
940
페티
론도
970
말미암
지검
어메이
##대원군
히치
257
야마가타
미카사
오블리
실마리
판별
터틀
승하차
벤자민
성호
본즈
Roll
rec
##버무리
##itt
385
포위망
##거미
에드가
정실
화음
선악
서운
예금
중생
히요리
열망
##덴부르크
its
광둥
얼버무리
⭧ㅏㅆ었
상계
장합
밀폐
APK
##호크
카를로
하양
잡졸
##스타인
박지원
장항
독음
키리시마
끊임없
무진장
깁슨
##부치
자유민주
흐트러지
수혈
군국
은하영웅
기상청
나트륨
은하영웅전설
##ddy
솟아오르
부차
##비티
용액
배웅
꿋
##쓰기
여객선
낌새
동군
뉴올리
##ᆺ수염
##캡
탈리스
노블레스
Ben
기입
설명서
맹목
브롤
츳코미
얼떨결
유원지
신참
심재
##츠크
석회
263
찬탈
알론소
상이
데꿀
규합
코스케
비올레
데꿀멍
San
다키
아누비스
송은범
나탈리
중일
죽창
##도바
아타리
파사
궁이
바이저
##맞추
탯을
소매치기
건너뛰
후시
후륜
류큐
##지먼트
레브
철강
아르마
매니지먼트
간소
울트론
##OME
##고치
발걸음
필하
민자
콘도
각성기
왼손잡이
성왕
외벽
커티스
##93
대혁명
파즈
김갑
극회
아주머니
525
org
헛되
하녀
가전
길리
파로
탈의
곤도
LoL
세미나
징병제
Card
##vice
만리
##버른
##포인트
삼림
상륙작전
양부
라이오
팬서
##곡역
즉발
bbq
구릉
서툴
학우
##저찌
김부
떠돌이
어찌저찌
이승현
Sea
##가야
무루
연유
##루아
뜻밖
이슈타르
무도회
##미남
류노스케
⭧더군
딴지
##side
모체
소르
단시간
낙후
##ellow
알아들
구문
요루
파블로
김포시
된장
아워
영차
알베르토
궁을
타카야마
들러붙
오야
장도
포틀랜드
토종
덜덜
일리노이
평택시
암스테르담
비결
최지
##실신
금동
에리나
오블리비언
Ko
내막
방종
추진력
hello
바레
⭧으세요
액정
Mind
이교도
##루크
승리자
전임자
지산
자메이
세제
요시히로
프레이야
아리스토
자메이카
과외
판테
##유리
매사추
##세츠
군도
##any
##hes
잔느
미치루
떡실신
방사성
##ava
⭧인
브래들리
총격전
대꾸
조난
호나우
##민턴
메드
헤아리
수리비
BY
보더
유표
리서
스토크
우승컵
좌회전
데프콘
사륜
필리아
전문점
%~
버마
##카운
잉카
매사추세츠
##실베이
학도
펜실베이
한양대
펜실베이니아
마다가
리만
방계
발끈
##피언
송금
듀란
마다가스카
기네스
사무국
불도
백야
사대부
##카가
스푼
##ote
##PGA
##네이루
매카트니
##가르트
노먼
단맛
시스터즈
포가
즐비
죠니
배드민턴
AGE
주현
당혹
종언
삼중
클라리
팔레트
유리코
##셰비
후신
글레이
오퍼레이션
칙령
경의선
비정규직
문대
국내선
730
로페즈
Pal
##form
방귀
니시노
유즈키
##빅
##카르
진루
캐넌
황선
273
자청
소박
데코
이시이
참판
산정
급속히
Ra
##프스키
조직력
실리콘
소화기
모처럼
부름
장렬
영판
##막이
나나세
지난번
야인시대
꿋꾸
영생
양해
독침
산군
맥기
칭기
폭주족
아미노
곶
국면
시보
수표
세시
시작점
병아리
-'
이펙터
양각
##reas
고사하고
성년
##개미
블락
운동회
흥선
리딩
야영
링크스
통신망
대참사
도지사
생쥐
에린
강지
강신
마르스
투표수
star
셀레스
그로기
뱌쿠
under
한지
원유
부러뜨리
판테온
##ican
이즈모
⭧ᆯ려면
서예
다양체
youtube
SPECIAL
황급히
##ih
소연
반일
에두
루아
##ories
골판
불꽃놀이
디펜더
시어머니
이색
마동
일설
오호
도형
##구동
역인
독기
얻어먹
##니파
김석
왜성
연예대상
푸르지오
오시리스
##YY
미비
9999
카타리나
Beautiful
컴파일
HIV
##마차
인파
코딩
아르고
맥아더
Emp
사피
고룡
김사
본교
쥬리
뒤덮이
정영
캐럴
##oto
True
GSM
볼드체
회고록
구시
장구
군관
라이어
친아버지
소유주
공대공
대양
대죄
##진군
##몬트
##ffer
yul
##기름
유강
##루이스
격자
크론
멜버른
피로도
YTN
어는
요란
종국
청담
벌벌
마리카
##필레이션
컴필레이션
배너
코소
시이나
다윈
402
gonna
오송
태커
애니멀
벨로
유사시
미즈노
애호가
조민
유랑
소티
구야
교인
복속
핀치
리버티
숱하
어메이징
수의
소치
연립
버로우
에테
온난
동일시
전반부
거룩
어니스트
민회
그루브
웅덩이
##ollow
{{{#!
Electr
KM
주영
##요한
클루
프리트
글쎄
고착
선미
잉어
토미노
다마스
다국적
상도
뽀삐
구박
카산
관입
##iness
국민회
소문나
⭧리라는
칭기즈
피어나
324
흠집
Id
ep
##처리
전미
정색
맞아떨어지
스위칭
지저분
입소
유우나
MSM
Trans
##미나
930
SI
정찬
정략
등짝
건륭
쫓아다니
경영자
트라이얼
⫸은커녕
미형
양학
##북자
앵그리
마틸
스팸
회생
집시
벌점
##ific
커넥트
조연상
기척
팀워크
독가스
283
가르드
트레이스
TOUR
위업
크로즈
김민성
군부대
시판
미스티
등신
두고
뽀뽀
나니
비슈
타의
##재호
총동원
민경
##난방
##ister
에른
##큘
마요이
맞춤법
손익
##얗
포세
검진
혹자
마리코
흥원
유희관
라이프치히
리플레이
동티
결판
마나미
SSS
시타델
두고두고
급사
Bus
아연
최현
켄치
해괴
타이트
##달리스트
여태껏
차우찬
방독면
로커
##토메
석권
행진곡
##press
사표
참회
영웅전
리오넬
##scape
284
헬렌
386
주마
##워스
멍청이
##상하
국호
백동
멜라
플로어
네드
스타드
도플
피폭
플라밍고
김유신
카본
진주시
넘나들
희석
261
으뜸
벅차
박원순
하물
##자원
픽스
##렉스
004
Shadow
VF
추증
반점
꿀리
비비안
리븐
선례
##ress
지류
##해방
엄친
##ada
정준영
밋밋
오락가락
-.-
Av
VOD
소국
극락
령우
초석
렐리아
종주
##현상
흔드
클로즈업
##태자
Arch
상세히
알비온
아니마
결산
아스널
불로불사
OFF
이학
이딴
마안
##당당
##onight
유충
후폭풍
금괴
sky
아스트라
파니
숙달
Dep
배타
##las
발표회
시흥시
깊숙히
정년
무위
개근
백승
윤서
마사미
햇살
##bow
엘자
아라키
정몽주
YES
원킬
##컬레이터
에스컬레이터
테이머
염색체
일렉트로닉
##afe
du
더치
남군
##amage
이지선
송시열
이등
오르내리
보호법
돌림
녜
##금속
플릿
종단
용법
가루다
프란시스코
여진족
번거롭
투석기
여간
피플
두리
물들이
헤로
추하
대서양
TECHNIKA
##민정
직권
##ives
Ve
구력
비행사
김동준
##oid
현은
터득
황위
러버
Two
방랑자
아만다
⭧아다
한식
항법
##APP
##쿵
277
의례
폴로
##디슨
쓰시마
케이이치
무한대
밟히
Ka
did
⫸ㄹ
조아
유루
인민해방
근본주의
인민해방군
비엔
영상물
경쟁사
이정현
Hz
퓌
앞날
커서
사쿠마
##닥뜨리
개척자
라쿠텐
Fro
##나물
축구팀
Chapter
Tur
시테
시럽
감화
##뎅이
내통
레노
맞닥뜨리
보디가드
이택
##어사
성교
추악
항변
##ᆸ스키
##MM
지긋
해일
야성
우림
바렛
야후
박보
##누이
후지이
고관
살생
묘역
맨션
강화도
015
조서
노포
월경
관저
용검
양준혁
수동변속기
파급
비빔
파스칼
##잭
정병
부영
진천
주창
라브
판국
요시유키
김태원
호수비
베네딕
재조명
독려
##쿠젠
아발론
하기
추존
##ini
Intel
지양
습기
전군
남송
순혈
스테파
870
안일
병들
323
율법
Leader
신동엽
전의
키코
인문학
금산
4500
##맡
코에이
양키
민가
통합진보당
하후돈
티라노사우루스
920
TK
타바
타블로
디안
완충
꼬드기
딜레마
화염병
베스트셀러
부지런
Vi
군가
하루하루
Head
Cost
KK
상전
크리스티아
덴버
사가라
불고기
난타
테마파크
오디세이
프리스타일
동종
##회원
커세어
##쓰럽
주구장
CHA
노원구
주구장창
UD
전상
빅스
총평
민주자유
멸칭
이종범
##갱어
쌤
도플갱어
민주자유당
##ja
##비안
핵미사일
⭧려는데
전망대
신우
왕릉
악동
창녀
희곡
뻔히
캔자스시티
##AMP
동갑내기
리보
피살
무심코
셧아웃
프란치스코
생모
키오
귄
나잇
료타
Christmas
Earth
##97
파쿠
게인
보패
치에
형광
금사
##골목
아시카가
친선경기
Silver
Burn
##무사
양극
이범호
갔다
미학
군의
294
##먼지
특촬물
갔다오
NBC
##제철
추신
발사대
대문자
옴니버스
Tok
이왕
에무
비서실
miss
대청
황보
녹턴
현대인
마닐라
Global
##CO
레즈비언
내시
히데아키
공수부대
영락없
Double
모피
척탄병
수액
소체
우러
북스
레스큐
동력원
아드리아
리츠코
강정호
.?
세피
씨족
냉소
HERO
work
##디트
베오
##ones
러일
274
Street
다운타운
위너
신일본
세기말
리턴즈
킬리
효능
뉴올리언스
##Boy
##시설
가꾸
위례
영하
##티엄
데포르
변변
끝자락
악세서리
펜티엄
Hand
JO
완행
##친왕
Want
XL
⭧다든가
학비
메노
코코아
원산지
휘발유
##ASH
트랜스젠더
이끼
⭧고요
리의
실베
##ery
식탁
고우키
터무니없
하찮
포인
글귀
050
Cloud
하물며
다현
버클리
예보
여성향
003
중흥
선덕
타카다
자시
2800
드라고
창립자
⭧남
무반
타령
누에
Reb
냅두
===
네츠
증류
LD
어태
노크
리무진
267
무한정
수색대
랴오
Techn
미발
경춘
각개
담화
노르드
거침없이
##상어
한일
##보성
동고
##바꾸
농지
338
리미터
착실
##충전
소지품
##껍질
지크프리트
##앵글
코메
감차
농가
아케미
메디치
##KE
나침
무디
반다
백정
아웃사이
EDG
아웃사이더
##꽝
김나
병마
라이노
쇼타로
아우구스
##과학
치진
박력
##베라
빼어나
롯데월드
천문대
big
모질
##미널
내키
왜군
##aint
피스톤
아츠코
미케
##부쿠로
선왕
외판
지법
치곤
##홈
ind
박선
음독
머금
친히
널널
김정우
##ii
교도관
##카이저
##ues
##port
아트로
미주리
등불
신드
준말
캠벨
렌지
젊음
보헤미아
오차
정월
리퀴
파시스트
재충전
김풍
곰팡
동대구
맥시멈
Hal
이능
현과
##코비치
경차
연작
황교
오르간
강석
번주
순욱
법대
271
브루드
PART
##츠로
대웅
미온
영식
샤드
궁사
268
명목상
법조인
얽매이
사간
어림
기침
실효
아유무
미확
단풍
츠노
##67
여초
복직
키릴
트라이앵글
조군
중간중간
스즈카
##OTHER
MOM
맞은
논평
세르히
##전등
재원
##ating
유일무이
through
Thank
제퍼슨
##ken
하버
불후
##탄두
할퀴
의무병
싸이코
헉
##거품
켄신
화물선
하이스쿨
##gen
아탈
나일
정단
성나
해동
야고
참배
경기병
임성
경제학자
꽁꽁
부득이
효성
전란
바네
##쿠보
케이프
모터쇼
상환
아야네
바티스타
Second
점성술
Oper
권세
##천후
금제
거성
수풀
베히
수원역
조전
부군
영연방
Pur
위자
곡식
관계없
성장기
타임즈
맞은편
##팜
임박
블럼
몰카
체인지업
##타스
마츠오카
신앙심
마쿠
Studio
415
Cho
안치홍
##하타
##레이트
표차
항렬
순양전함
박대
루시드
TUN
⭧엇
수스
반미
응원단
풀어놓
고지대
DREAM
치장
신겐
베일리
##HS
로터
##aa
오선
해법
##iko
헤이안
카스티야
중문
혈투
수건
우니
청정
환시
##샨
정의감
Vita
##YO
장부
핏줄
##bert
서강대
give
⭧답니다
박이
무지하
야쿠모
통찰력
MAR
소이치로
여야
서른
반정부
액터
초음파
AU
475
주사기
che
##KA
시현
리암
코야마
휘장
자스
수력
유럽연합
퇴계
값싸
퀸시
주거지
관서
287
징조
헥토르
##꼭
카림
탄성
Hor
##jor
이발
학당
빵집
##라시
##사건
문득
산개
끌려오
엘리시
치료법
Group
Electrical
Water
병조
폴드
codice
RW
갬
부산시
앙드레
모텔
##화학
노시
교문
귀순
##딩크
Qual
외딴
스테파니
LIG
바꿔치기
마천루
시무
자파
당사
최수
##발트
촉발
1880
서사시
가평
바키
성좌
손주
괴한
하이드라
헬름
믈
##를리
아차
자외선
천인
모이라
머스탱
대마초
Sign
XG
##나도
필중
레이프
블로거
석가모니
문산
실프
현충
쇠뇌
배재
##던스
불사신
##ael
카스트
파이퍼
스위프트
맴돌
트럼펫
매섭
##oman
프로그레
수집가
짜장면
##도록
우완
경향신문
곱하
이웃집
리네
##홀름
기우
다항
개의
##stal
암살단
뼈대
거실
무속
##쿠니
다이몬
Gre
XIII
이찬
잡이
##lad
자유도
##꾸역
아슈
나마
##니카
호동
라엘
악순환
이태양
꾸역꾸역
Vers
피넛
부녀자
##ior
조식
노자
패튼
##토쿠
톳
별빛
홀더
닭고기
기하급수
수줍
Jr
Wel
비버
끌어내리
Radio
떄문에
HC
아낌
연시
신오
백혈
국민정부
녹색당
다로
데크
몰타
too
롯데마트
태양광
황건적
연신
요셉
딧
히딩크
날조
기능사
이효리
##라마
나방
츠키
318
##꾸러기
Bill
뻗치
잿
지하철역
개정판
오명
공덕
##개발
청송
에이즈
##ANT
카스가
원더걸스
대식
나경
피조
740
가나가와현
이부
금리
작업장
+,
에이트
코모
현도
##imate
오프사이드
휴식기
전회
포용
포교
자유투
레인즈
프로그레시브
피나
송영
##기아
변국
완파
침례
넥톤
폭풍우
조리개
모비스
소신
축약
핏빛
##uz
조진
국명
하이데
##미경
##막히
친자
육손
켄타로
디스토
의문점
##ipp
노량진
시역
##하트
##대전
소타
노구
##왕후
Right
##만장
서천
본색
꼬치
샤라
Know
소독
서핑
메뚜기
Cross
##uff
모더
타에
##호테
오리아나
그러다
류중
묘호
키리코
플랑크
Speed
⭧는다거나
티라
309
590
이병규
##셰비키
중보
제프리
성심
여몽
절기
몽크
애드립
마틸다
조소
Original
Sin
상작
유급
##타나
##포츠
히지
압구
##ters
대주주
마무
일장
단두
식욕
송강
스티어
DOS
캐터
병무
윤석
양산시
세리아
알토
알콜
플로라
탈레반
세하
달렉
투병
네빌
쇼고
휘어지
##axy
run
말벌
##챙이
가뿐
교동
##usion
⭧으려다
스모크
호그와트
정강
##비나
음유
흑자
십이
최윤
##세르크
##애자
타이라
옆면
##이스트
마세
##roid
모자르
초대장
END
god
##come
화풀이
중서
첫눈
밸류
대원군
카게야마
나침반
TM
##수선
강현
라플
탐내
아야세
read
남동부
조타
매립
##쿠르
묵살
Where
인더스
막심
슈퍼컵
국제법
리베로
이방인
Episode
#==
케임
이레
##당선
Extra
시진핑
##뮈
##마켓
부르주
정우람
카탈로그
##부아르
##데리
도저
친형
미치코
지와
월남
개역
포에
황성
259
조지프
유러
TRPG
Ki
바타
신랑
급부상
kW
##쩔
대작전
비위
고승
안재
알렉세이
호흡기
자폐
인코
##바오
입안
스탈
샤론
기념품
두근거리
VOL
배꼽
현수막
장권
연선
안쓰럽
라일라
##ative
질기
빠짐없이
pack
수려
소하
요트
보상금
타케다
끈끈
##겹살
치토세
South
노회
머리띠
김성주
일기장
일회용
video
보훈
픽시브
해적선
모노레일
아트록스
##live
원석
문물
저수
반지름
Lab
##68
공론
문맥
호건
디나모
Ju
하중
동태
네스트
슈미트
전사자
힐데
Born
유장
칫
관리국
지구인
야마노
채무자
유러피언
공법
##키드
노도
성내
불출
##버스터
별관
삼겹살
씹히
쩔쩔
little
size
인건
올랜
리시버
⭧히
야노
김효
청록
##북면
중요도
브라보
물러가
와카야마
불시착
Mill
Us
지병
##젤로
혹성
Shin
잡아당기
Land
신계
신판
역경
축산
##UMI
최전선
더위
친딸
팝업
Pres
유라시아
COL
전말
신궁
살인자
Walk
##리지
들먹이
기정사
역겹
김옥
환전
282
정규직
집단군
프레시
신조어
기정사실
티엘
오카야마
굴러다니
노총
원샷
배영수
검단
##stic
POWER
TNA
하아
우도
결실
##창호
꼰대
⭧라든가
진우
역수
##저냥
느닷
오오츠카
탁자
뷰어
기말
무득점
개사
직류
누카
니켈
휴학
나카타
할로우
Rel
외고
승상
정상인
춘향
로버츠
##ji
##티에
스컴
류중일
FP
대손
도매
탈선
##펜하
해산물
PRE
이스타
전뇌
슈투
마사코
효고현
Some
유종
물병
수호천사
하후연
이마스
도이
도킹
장어
##받아치
취약점
Mid
##ks
가나다
확연
투아
산신
##벼락
문호준
htm
유생
답장
기모노
friend
부심
발원
히다카
향로
니시무라
오카베
샐리
준코
주먹밥
흉내내
인덕
명회
Chall
노벨상
적출
프로즌
펜던트
009
그레고
##마타
피폐
외삼
강태
숍
아키모토
제제
장태
호퍼
점퍼
종장
파이로
퇴위
조중
저전
317
이성열
알렉산드라
may
##yl
안목
양승
약관
중앙부
블리스
김재호
와카바
SoC
⭧라네
스탄
론드
마사오
##룩스
바운스
후렴
그냥저냥
홍시
민병헌
청동기
Iron
##**
민스
혹한
세인트루이스
아우구스투스
바일
KL
발길
속어
이동국
##웃음
마르쿠스
연주회
##셔리
Ref
동질
##바도르
식수
백금
럭셔리
⭧런들
이야
콧수염
남베트남
##ora
낙오
부왕
##정보
##깍
골자
⭧도다
##akes
West
car
⭧다든지
##고시
동과
##유사
버틀러
아오모리
승조원
상심
포우
강선
역주
티티
279
창업주
##ᆺ길
미추
승단
Forever
골판지
수경
로치
레더
298
##깨우
네덜란드어
##다임
리도
재지
짜르
자유민주당
꼭지
아라드
청소부
이카리
##슈타
카즈토
카와이
##자치단체
수혜자
성토
존엄
근절
패러다임
##REAK
턱없이
black
##vin
##리르
장차
난방
일깨우
선양
이봐
##풍선
핸드볼
##here
나위
기가
외신
##hel
탈북자
댄싱
File
VV
하태
정희
코보
계명
폐렴
가입자
##aeb
장원준
이혜
##퉁이
순애
손재주
길버트
츠츠
칼초
하라다
명반
문지기
##공학
처박히
아프간
##aki
저작물
이회창
하코다테
Dynam
탈리아
나베
불순
청탁
칸타
int
에스텔
룸메이트
세르히오
위헌
매몰
패링
교통카드
##IZ
전병
폐역
항공편
융통
찰지
카운트다운
##FE
시의
급박
빨아먹
##랄라
곤잘
그레인
라운지
부엉이
공권력
##ese
##raw
##랜더
주치
성정
걸출
아르토
협력자
기급
유달리
성찬
스기타
people
##부패
부다
개굴
데블
헌제
##HO
바케
부정부패
WBC
채영
느림
COST
##ault
##of
현생
속담
펩
##평리
제스처
##큘럼
고배
356
훌린
선인장
해시
갈매기
278
어벤저스
오승환
모랄
위도
##유희
호실
붙들
인편
신보
캐피탈
키라리
귀여
신대륙
도당
센텀
##볕
전근대
Ray
제미니
고열
구파
남초
다이쇼
020
ha
mind
파쇄
김도우
##셔스
comp
Circ
이족
전희
인부
##바바
렉터
함흥
테트리스
289
윤희
##edia
올랜도
Lord
##IVER
##버러
깨부수
탐방
쾌활
컨버터
##퀀
참작
으스
정전식
촘
##네그로
단체장
커리큘럼
경시청
보이콧
루도
급작
미에
메키
극작
전가
물기
하루나
수십만
미라쥬
이데아
그럴
대들
에어로
협소
=,
비무장
##주얼
김천시
용가
심성
Prot
사법부
림프
동음
레게
증서
2300
신분당선
숯
다와
조규
테트라
검수
금강산
보름달
ElectricalBoy
Award
수현
가브
고명
고노
폭장
칼집
크로마
카이사
지배하
소대원
아키하바라
뒤흔들
NFC
##사메
일본도
LT
체스터
듄
##삼키
미군정
Collection
대항해시대
에르난데스
아킬레스
아나톨리아
삑
다혈
뭇
##연기
악성
이와타
선지자
##cc
##꺽
히마
남서부
옥스퍼드
Pet
sl
츠구미
미하엘
박민우
미확인
OL
##뿍
타테
후마
##실험
차이나
쇼지
sur
##날린
장모
게임차
매니악
사형수
미성숙
거사
소풍
##와키
스토킹
##돈나
월계
원균
캐주얼
910
집어삼키
##드레날린
Gar
사대
방도
버질
남장
참새
히비
조인성
위배
라치오
산양
벤제
##승지
백모
##맞이
안무가
아랑곳
경종
알베르
로랑
키츠
속셈
외질
008
실패작
1889
가디
##수소
##처치
269
냉면
오파
총기류
JS
뇨
##궈
가레스
위연
입담
판치
이베이
한성부
학동
플린
##텔레스
들판
차인
슈와
##라도나
##끓
하카타
앵무새
⫸든가
병약
황충
굴하
룩스
스완지
텃밭
그럴싸
mon
건널
나이키
나이토
브리기
건널목
##사쿠
장마
식초
플레이스
def
지존
정용
상명
카잔
카락스
치비
재치
책사
핵탄두
작사가
TER
물거품
쿠소
엄정
마쓰다이라
LH
##냉
초롱
아마게
APEX
후쿠오카현
mag
##쭈
소코
경영진
레버쿠젠
벤제마
Wild
고액
집념
빙자
핀잔
Plat
시퀀
극치
돈독
지휘부
아리스토텔레스
Ze
혼령
온실
망정
링링
교육학
리카르도
군의관
구강
⫸보고
압록
다혈질
##ios
메르스
이케부쿠로
형량
스핑크스
##andy
하즈키
입헌
DRA
보면
조총
도재욱
에이리
골목길
지느러미
예절
##미리
##제트
##공신
스턴스
지회
강병
선취점
##uh
##행성
##멜로
리호
라고
내리막
벼랑
백과사전
홍천
마음속
가속도
쥐어짜
##이야기
유두
예우
##놀림
권외
은닉
궁기
폭발력
토모미
##공산
급전
휴즈
바레인
백자
##이어티
이로하
||
주나라
마론
##닉스
라피스
##개토
순경
독약
민물
296
리서치
fire
##LV
그나
치노
초성
브뤼셀
히이라기
도탄
서너
명가
곡예
득점력
##킨슨
주먹질
에른스트
간청
루브
곤봉
444
니시키
##메이커
후견인
RK
마스터스
둔감
오카자키
아드레날린
부축
비행대
ass
리튬
채태인
급급
답하
배기량
##일점
박시
##ouri
EXE
콤비네이션
음양사
자영
스네이
당구
혹여
##빽
로한
민호
용기병
1870
스톡홀름
슈가맨
소사이어티
구포
의태
프리깃
순정만화
화강
##크림
호지
돌격대
김유정
보시
안위
로베르
감점
##lear
보수주의
미적분
저마다
직각
양질
스타이
협찬
다이어리
운전석
리벨리온
바움
##데자
차역
국화
##파인더
광개토
호소다
방조
니모
국가원수
띄어쓰
감염증
\[
닷지
##인명
인회
레우스
트집
외가
품위
오스트리
빽빽
Lim
지탄
보관소
##ISE
fun
일말
쓰촨
앙헬
690
imp
##스톱
국고
del
font
고세이
1884
에디슨
Ban
빌더
자료실
MCU
백운
행정관
리자몽
적수
정모
은발
명과
##노동
##불교
박정현
전준
##아채
위버
데우
##물질
체벌
몸담
낚아채
리우데자
외동딸
피조물
리우데자네이루
자괴
현우
닉슨
IL
하소연
조재
코츠
산역
단두대
TJ
제창
384
리스본
##동사
스카프
시아파
읍내
시찰
소바
피디
서성
초속
006
삼성그룹
브리기테
Hall
파하
면전
281
충전기
측정기
토벌전
폴리곤
오현민
Mich
WD
wr
##xy
용수
still
지리산
사이좋
Bon
상큼
토고
광원
297
헬륨
카즈오
코노미
Vf
리소스
##루즈
코뿔소
##두라스
군무
육전
온두라스
앙숙
와이즈
##istory
루스벨트
##심원
EG
KAC
구전
신마
코오
스포르
부응
여호
Child
관악구
##히메
푸아
##드롬
CONC
몬테네그로
Jump
구심
영과
레이즈
토모에
미시시피
공보
장경
⭧아야지
임파
옥황
336
포니테일
Round
몰수
옥좌
멤
##폭스
기슭
사부로
우표
##받이
##푸리
하여튼
장고
서한
교우
손전등
히로아키
만신창
대권
무주
Mart
Nav
Wo
파레
쿨러
카산드라
##ba
배설
증산
##ising
베르나르
히라가나
ft
팩터
랜더
샐러리
듬뿍
HAPP
전입
스몬
홍설
윤하
Guard
아무로
격화
웨슬리
롤스터
베르디
박해민
Eyes
##uel
아틀리
과소
포춘
강룡
그리움
##cept
요금소
⭧언
수필
##추리
브리타니아
모래시계
내디
##태평
770
레스테
약혼녀
센티넬
전년도
애덤스
박건우
##TO
비보
빛깔
레드불
꿰차
⭧제
⭧랜
워렌
헤비메탈
하등
유현
도일
북측
Dist
조스
카발
군소
씨스타
##잔치
동반자
조안
입금
##츠바
온과
농축
네이마르
##찌개
투덜거리
경춘선
Bas
이지만
적설
합전
츠시
##땀
Rh
우타이
앞바다
쿠다
대법원장
수화
경무
도축
##타리오
음차
30000
잇달
엿보이
##뇰
Ball
##ever
보이저
메구
식히
봉선
##reme
컵라면
히토시
sub
아보
공제
무왕
데자
역린
음악실
아울렛
지에
낚이
하이바라
생활비
##oke
RD
##토무
독식
where
플렉스
어조
유리아
후쿠이
페르디난트
케임브리지
tell
뤄
##비에
와리오
삼지
환하
아마미
##아넘기
만월
요츠바
라세
프시
독학
녹아들
콘스탄티노폴리스
Royal
적병
의향
수족관
OH
전초
조윤
포경
호죠
##여왕
319
고춧가루
GDI
⭧멘
노파
창백
휴머
익스플로
서장훈
익스플로러
par
나탈리아
비탄
폭렬
옮겨
유키나
기선
무희
노상
행패
합본
골인
거상
흐릿
낙엽
뇌신
Inst
삼국유사
빚어지
스벤
안부
##호란
종북
투데이
팔콘
떠맡
품격
에뮬레이터
흥선대원군
가논
주무
코버
예프
종시
##inity
산불
권위주의
LEVEL
파우더
American
two
온건파
##ker
화법
도큐
장량
목판
홍백
할애
##푸드
깁스
제원
에타
밥줄
##cer
##56
아라곤
##똘
핵실험
부여군
켜지
후훗
이티
마역
타크
반투
대합실
양력
휘청
파스텔
RM
가파르
노로
우현
용마
##캐로
마스미
내동
신월
양구
새뮤
티미
교육자
으레
미덕
리링
생화학
로베르트
난항
잔나
860
##찜
고환
무브
##ᆯ리스크
배짱
강동구
간선버스
오벨리스크
송창식
합참
책자
##교동
##쿠마
커쇼
철조
마사지
열람실
VO
##하우스
와전
에렌
김철
석양
##캐롤라이나
tri
대야
리피
리그컵
결정체
326
Style
헐리우드
히루
천거
김재현
Parad
sing
스며
번즈
머릿수
익룡
와라
산청
406
입장권
##닥거리
항해사
언동
어리둥
##를로
어리둥절
팀플레이
박은
##ddle
어퍼컷
둑
##레아
종가
##추얼
벤쳐
성전환
들끓
제군
동공
카포
카파
도미노
제니스
외식
네즈
쉬프
Luc
정청
호국
저해
열거
쿠치
블린
##대성
알베르트
그래비티
##acle
보안법
마가렛
관현악단
##가면
가곡
##산맥
평형
덕아웃
##제일
안시
잡다
수감자
오목
고출력
도토리
##역학
##vers
요시키
호쿠토
##ugh
##BL
바이브
##akao
스테파노
Fa
코고로
산수
충렬
292
젓가락
올려놓
first
보노
피라
신랄
요이치
심수
레이건
접히
참모장
##ㅋㅋ
##이츠
카고
살의
Stop
숭실
화정
차녀
디브
⭧ᆫ데요
real
⭧아지므로
무브먼트
##ᆫ시
##기병
##빌라이
포부
꽃미남
얕보
진서
타카유키
비올라
욱일기
마샬
padd
대당
인품
광휘
NEXT
닛타
일과
만무
야라
넘나드
덕수
피오나
사디
장외
장년
초이스
약소
함경남도
영능
##람스
보내오
Bell
HO
등부
브로드웨이
유공자
가모
재석
친환경
##alth
이치노세
~!!
##ᆯ리나
신족
데니
롤백
##르츠
2030
신이치로
흑사병
사우론
바네사
타박
루츠
커즈
교통수단
자책골
중재자
비수
고물
리니지
임산부
찬반
영남대
##73
##자루
노안
베개
##배추
##악단
지상주의
곰팡이
하일
보궐
마돈나
육사
크로커
##샤오
벤투
##걸리
칼리스타
삥
시한부
OUT
이간
##나항공
미연
선라이즈
돌프
니시오
아시아나항공
Cast
⭧류
언저리
앞발
1885
##즈미
##민당
##른베르크
##핸드
##덧
헷
풍족
펜리르
람다
곤잘레스
사하라
적벽
영걸
엉성
양성소
홀딩스
##ule
더그
MSX
2023
명문가
##트르
제노스
##락부
극비
##글거리
대졸
엔드게임
Golden
꺄
폭정
와일리
배합
##레온
레카
군비
Alex
자마
기간제
촬영장
해적판
라미아
알폰소
Our
은사
##rie
겹쳐지
exp
##trl
서유기
박헌영
수포
소희
모리슨
장타력
VII
순결
스스무
시퀀스
⫸따
공해
망전
바쿠간
섬멸전
##43
⫸이루
작열
교가
니노
3200
STX
모우
카요
설욕
외톨
프리뷰
힐다
네이팜
스파게티
ref
떠돌아다니
이씨
노와
성진
페스트
찬물
글로리아
Far
##ᆼ굴
아뢰
남우
천억
금품
매킨토시
느닷없이
FU
암드
then
재판장
묠
##슝
얄짤
얄짤없
HMS
테네시
스트릭
퇴적
##갈기
느릿
카미유
Dear
잽싸
##min
##이시
##스태
요시아키
불우
대표단
늘이
기관지
익주
모리타
이주민
카세트
##유행
서당
문턱
코스터
##디부아르
판금
##석탑
베츠
친위
축조
김영철
멍하니
코트디부아르
Flash
손승락
지피
##타주
1001
##애플
##클라
##슛
졸전
육탄전
##데우스
우시오
호성
식료
갑각
아킬레
##ARE
##눈물
파피루스
?"
고바야시
폐해
셰필드
하수구
유성구
강릉시
가맹점
애꿎
조반니
아산시
중신
레비아
교지
페그
은유
국민학교
위기감
##층석탑
연대장
이지영
레비아탄
rpm
⭧아서라도
군신
토호
약학
##ᆷ피스
요시타카
스파르
무인기
Mini
수나라
장서
활짝
울먹이
Stars
키노시타
##시험
시망
##인구
세크
독차
레이버
악덕
역사가
연주가
##ought
군체
아라카와
카시와
수성구
새뮤얼
Code
전유
내다보
분별
난바
에스페
허리띠
김수현
설레발
이츠카
지소
최충
애절
세계사
일단락
트레저
성전사
대란
정판
화형
고을
선화
라헬
디렉
##바이크
렛츠
GOLD
MIN
영세
카슈
논술
상점가
황교안
Attack
말풍선
라간
종편
회사원
남녀공학
함의
철창
뮤츠
트리스탄
대관식
콘스탄티노플
윤성환
컨설팅
전등
왕왕
류승
샤프트
정조준
html
대연
나영
고티
##파스
덕양
##iter
온타리오
오카모토
##ucky
other
##ko
##por
이데오
형질
총상
갈증
깨우치
블록버스터
must
song
##GN
장충
겸직
휴게실
##ternal
디비시온
Ti
Ur
영제
원당
배팅
불합
레다
취침
엔투스
705
오버래
##피카
예종
##천하
간절히
염라대왕
pp
~,
뜰
##AV
집무실
헬리오스
ret
연개
로킹
예멘
증감
칼슘
343
공사장
BAT
단짝
염보성
자업자
도민
자업자득
bec
구례
실신
토니아
탄광
##amu
서양인
Rap
기주
⭧라던
815
사마소
피눈물
##ᆯ리즘
##티드
##orrow
늘어
미야비
생몰년
사이타마현
⭧옥
릴리아
의형제
투시
830
Mob
background
아탈란
공터
인덱스
##문고
성관
발드
안가
채권자
양아버지
총학
쿠르트
잦아지
Ven
WOW
##kn
주니
##주머니
뉴타운
아카바
부르주아
상연
여분
##소디
로큰
야근
##탈출
답례
##못하
419
삼국전
그리스도교
Engine
padding
app
노모
노점
출도
캐내
점착
병동
책장
아키즈키
533
고고학자
NTR
친일인명
성북구
친일인명사전
도제
군산시
##예술
벌목
야구팬
331
트래비스
나나코
이택근
act
##bat
파내
빈유
조용필
PVE
##gar
명기
485
쥬스
hellojo
##po
가용
무카이
선입
산둥
난국
히타치
우솝
수구
나단
매국
음악회
휙
계산기
line
##under
타계
291
지반
중의
송승
구자욱
TNT
모치즈키
Chaos
이바지
##eca
검사장
평안북도
;;
Yo
##Force
마라도나
깅
행실
허스키
##패닉
모드레드
어딨
염주
클로저
히스패닉
크리스티아누
코에
역자
변성
극렬
허기
곤살
탈리야
무소속
소홀히
break
##리쿠
마정
타전
영자
홍길동
퇴색
뒷골목
오피스텔
##치산
유익
터로
절충
##박쥐
흔쾌
렌치
뒷이야기
록키
가역
요기
용례
완다
미카미
여차하면
HYP
##땡
정평
버나드
간디
안타까
갈림
Princ
박주영
Fair
멤피스
⭧그라
npc
차수
서막
양배추
베크
철기
담론
꿈속
##ORY
레모
국소
판문
컴팩트
국민은행
크리에이
실종자
##uke
크리에이티브
GUMI
##도그
집안일
히메네스
하하하하
되도록
사철
미라지
내재
준주
322
요격기
쁘띠
##그래피
##케이트
모략
의정
##프릭스
기타프릭스
빗발
always
Wave
도륙
##피크
잿빛
킬라
곤경
조선왕조실록
Got
##42
오에
료우
435
중추원
아방
아칸
⭧무
정순
부이
난립
##스티아
보병대
##셔닝
아사노
낭독
캣츠
포지셔닝
LW
노진
원이
참견
양주시
쿠션
어대
##려내
절박
케모
border
fall
##자르
노이어
개점
매디슨
번리
천신
커드
덜렁
쬐
위트
몸부림
타이르
351
겁나
애완견
비대칭
CAN
DG
부랴
레퍼
간만
빛내
하비에르
Galaxy
OZ
##드라이
성냥
불변
표제
북송
브리티시
가와사키
소포
노심
네리
충칭
중국식
망고
랩소디
##olding
EVER
아난
비공
군락
혼신
도독
##들레
매터
호통
체공
삼보
친아들
##ᆯ로기
성동구
가부장
이데올로기
DN
오존
포카
문전
잡스
갖은
좌지우
##USH
좌지우지
Tell
free
⫸랴
사용량
급유
페터
⭧음직
787
성상
팔콤
야구팀
##채기
콩트
MID
북해
스탑
505
##ITION
히바
게스
403
516
과감히
상파
간다르
준위
로리콘
간다르바
##sung
남도
342
후지모토
펠로
Face
어렴
특명
황정
신경질
드리우
방문객
주종
상쾌
색인
찌푸리
##ota
탯에
이브라
훼이크
흩날리
ESC
영유권
히지카타
수증
무쇠
구지
도로공사
도레미
방청객
Ak
##ᆻ다가
오답
루퍼
열량
쑨원
'"
⭧다니까
##려먹
##후무
##연구
전무후무
사절단
유민상
로큰롤
live
##고비나
##체고비나
##레알
히가
412
개최지
선제후
추신수
find
거병
후각
우발
검객
니트로
평안남도
모씨
목도
눈덩이
봉승
상영관
연제
박광
퇴보
ACL
뿔뿔
lea
화백
##전드
명군
아리안
아카데미상
##aeboo
비술
성덕
라벤
##영화
음정
트래픽
학살자
갈림길
##sm
가결
적개
리시브
영매
번뜩
본방
골동
은의
볼셰비키
⭧래디
Dawn
##/-
성군
설산
음각
##훈장
습도
515
가독성
Ros
시문
등수
라보
##itter
우스꽝
콜린스
사그라들
다리아
적반
교보
니이
곡도
에어리얼
스테로이드
재정부
dark
윔
노코
추스
박서
Caeboo
mp
##cat
시물
새하
앞길
슈티
395
랄라
키라라
이지훈
나치오
골칫거리
후루카와
year
ㅠㅠ
어버
왕십리
백기
억류
밀림
내려앉
쑥대
und
##하장
형평
⭧렴
손보
텍스처
유영혁
은평구
ROCK
남만
Adren
project
독차지
비사
신스케
코린
단판
엇비슷
안중근
렌트
경품
항생
극진
상상력
쟌
마르크스주의
IX
사속
자학
적폐
복병
홍석
328
이끌어내
show
Element
##dom
투박
앞지르
##극상
##꽂
##pha
제너레이션
흔쾌히
Pri
비클
버벅
세계선
떠나보내
빅리그
나카야마
김정민
함경북도
군국주의
포인터
WS
##라토
소냐
웁
신구
##omet
응축
야스히로
쟁점
##스윙
장광
연세
카멜레온
Tig
##ique
##사유
역효과
식충
산도
블레어
리퀴드
kill
##사항
지상전
옥타비아
Crazy
이직
##러레이터
##그네
치기
##enz
암약
##림픽
깨트리
데이드
현대차
클링
사우전드
액셀러레이터
도살자
은월
⭧더니만
##ript
MBT
이코마
패럴림픽
마히
1850
제트기
당뇨병
Lady
RNA
사만
사별
다빈
장석
선과
최병
##즈컨
캐럿
절개
환희
마리우스
블리즈컨
숙련자
아킬레우스
GV
이권
나바
세레스
##의식
손등
스트립
뜯어먹
고성능
핍박
레퍼토리
LUK
##HA
##레인지
형무소
프로야구
외삼촌
팽이
##ᅯᆼ
정일
타니아
북로
감소량
##ima
고속철도
공주시
외할아버지
ND
이동식
스펀지
눈여기
참관
내려다보
재건축
##뻑
사아
자성
경은
소작
야훼
쌍방
아야코
얹히
선풍기
이매진
스파르탄
가타카
민생
##abe
잣
성행위
라쿤
하이네
언어유희
토스카
카와사키
아낌없이
Away
과세
찬드라
사오토메
안드레이
솥
선식
신석
멥
풍조
김종필
슬리퍼
시가전
파인애플
FTA
계진
혈청
HAPPY
##스태프
주얼
##투리
503
타카라
항공전
inline
옷장
솟구치
##카운터
새하얗
##파람
퀘이
원정군
이스즈
공작원
무라사키
head
마일즈
지부장
케르베로스
아퀴
내보이
밤낮
통계학
##ruct
최준석
class
##소득
##티넨탈
선수상
컨티넨탈
399
대미
화웨이
무츠키
식판
금새
침울
타입문
Point
이항
정봉
의술
문답
배영
안타까워하
##GM
국인
⭧러니
페이탈
기부금
서대문구
#.
##FS
모코
유학생
플립
##새끼
쿠로다
박정석
Block
##iam
##iec
안지
토프
윤곽
덮밥
Missouri
당해
파타
재심
던컨
돈벌이
오리사
일차
한남
짜릿
팔아넘기
거제시
Armor
Train
하바
⭧라데
비만
연임
치켜
매표
##급부
샐
벡스
지리학
도야마
설전
허탈
철원
까스
##ffect
반대급부
해안선
이만수
구치소
헛스윙
이호준
바바라
인카운터
피즈
생각없이
괴성
5500
과도기
##뿌요
Evil
신태일
뿌요뿌요
"~
바스트
유림
부검
현기
##중력
아이라
소방차
다카하시
툭툭
TIME
목회
검호
난파
낙관
가라테
가이드북
묠니르
Bul
##만고
관공
엣
##런타인
외척
밸런타인
부담없이
뉘른베르크
BN
call
차도
강재
청천
부산대
맺히
지우개
들여보내
폭소
허망
HTML
서랍
Low
체념
잇세
세관
추노
활자
송현
낙랑
나무라
현지인
응급실
Ring
장호
회송
범상
밀키
경성부
##47
고충
소학교
스트레
숙녀
컨셉트
##팔이
이준석
진시황
Wal
ever
조잡
개심
터닝
플레잉
백련
류세이
가오슝
메디컬
Hon
하숙
카베
##통행
친모
##unt
코칭스태프
파올로
Lea
문부
배성
레조
양서
070
아키히토
##apon
이시하라
고위직
호크아이
카시와기
"-
##mar
이채
레이아웃
라일리
##트가르트
부탄
외대
홍주
아야토
슈투트가르트
Count
GBA
아하
진부
반시
349
섭리
훙
박문
윤용
전시관
마다가스카르
##펌
##붐
##보르
포리
청양
겨울철
헨더슨
오비완
XM
hel
이두
##지휘
신드롬
버추얼
##은성
##할라
##ste
##uts
무참히
##묻히
파묻히
패주
군종
금남
난처
서로마
기관사
염구
배틀러
브로커
지형지물
연산자
대국민
win
테임
마경
최인
얼추
최신작
부평구
핸디캡
차태현
달성군
##IDIA
구로구
도니
##세다
필히
백귀
브리즈
오동
소카
매미
##내미
점토
선거관리
익산시
안정환
아자젤
선거관리위원회
Vis
##gu
타이푼
##comm
콜럼버스
하극상
기막히
성황
만석
리신
해경
군악
환마
##롄
##oday
쾅
이와테
미세먼지
적반하장
성간
세그
개고생
낸시
존칭
잡아오
##악산
341
장유
회선
처사
하이드로
드러눕
떠안
##earch
TI
적십자
502
##린내
신호장
##NER
거포
비조
터전
니카이도
##메리
##팔트
서양식
칼리파
아틀리에
##랭이
가렌
정육
성탄
릴라
왁
##버니
예기
##페아
should
비아냥
시원찮
정성훈
쿠니오
미란다
##룽
평신
##난만
스자
폭뢰
뉴이스트
땅바닥
마시멜로
광역버스
슬림
##ubeat
오행
교구장
편승
히포
손석희
오버히트
경보병
스포트라이트
오작
우메다
역모
특수전
미카즈키
영문학
DIS
지어
도금
타비
해충
음침
복위
웬만큼
Bang
##토리코
이재원
사세
노루
후송
청렴
경전선
스트로스
천진난만
주워
수유
노즈
아스팔트
떡하니
사카타
공공연
Son
상극
먹거리
무라타
해왕
혈기
트윙
이소룡
무솔리니
괴로움
성시경
경산시
고성군
성부
번역기
재단법인
Fest
##87
독과
민진
헤메
수도회
뒷문
출입국
Pf
기신
##국사
돌핀스
##era
판매고
기억나
떠받
아나스타샤
푸에르토리코
Lin
##라치
아류
##무가
태왕
완봉
353
할배
뜯어보
Machine
세그먼트
도파
강화군
사업장
신청서
보관함
야간전
영수증
뒷담화
유약
도노
알테
##런드
카이리
MAG
다그치
국문학
카시오페아
mac
부고
반가
염화
##암역
이자벨
집행자
##berg
Jun
PUB
##mo
비츠
신림
요람
왔다가
##분해
새미
삼미
임수
쿠엔
접종
##aken
헤르만
왔다갔다
##89
##트롤
##죽이
스칸디나
스칸디나비아
수선
일인
##넴
네거
티타임
인코딩
고담
리샤
호되
칼뱅
프로페서
연두색
##시네마
부로
훈독
폼페이우스
Jin
##다스
매운
재봉
천주
스타스크림
르마
숨어들
코코넛
키요시
아이튜
철근
착실히
이치현
아이튠즈
eyes
보검
고각
##티보
반목
왕징
입장료
죠지
United
대판
수역
##소프트
나카가와
부교
이승환
그로스
SideM
재래식
그레고리오
keep
##hone
기출
다원
유원
##성어
관두
캐디
팔랑
아마데우스
찬밥
쿵푸
노비타
David
역주행
헤헤
명성황후
섀시
숄더
포물
니화
악사
안전장치
가로우
ZEX
⭧애
무정부
방선
아르티
030
소개팅
핫도그
세실리아
보두
오물
인비
패딩
점액
외도
헌혈
둥둥
깎아내리
터키어
동두천
만신창이
슈프
벌처
1871
에스페란
SAM
마창
##곶
코사카
##모르
외편
이름표
창천
다이얼
293
##겨보
코덱
단죄
송수
극작가
Honey
view
재작
니엘
송하
이재용
협동조합
경미
고단
노히트
후치
김덕
참의원
MIT
}{
##lish
최규
심지
음운
풍운
##나잇
카도카와
허영무
!'
##ole
나체
신서
생수
야로
입회
옥천
이명기
PASS
Please
인드라
세도
나오코
키야마
광무
빙고
김명운
뵙
##핌
미진
상법
훑
우트
요긴
프티
베데스
접합
막시밀리
베데스다
##ca
강퇴
심시티
임계
눈뜨
SPOT
윙크
빠져들
##anced
사발
단파
##매장
루치아
이블린
기억력
꿀벌
브라우닝
SY
바토리
방비
드래고
호스팅
Lie
구종
##캅
완강
북대
녹차
오리엔
뷰티풀
민나
임동
허허
술자리
택틱스
신기루
스프링필드
이민호
출고가
타나토스
광동어
불합격
##63
도겸
토야마
⭧니라
최신형
IW
##멜라
타타르
##비츠
서안
강용
극상
##지방
관군
키호
류이치
Yout
균등
해독제
##르겐
미레이
고카이저
12000
용해
검지
판매자
찝찌
자프
고득점
완도
꼬집
##RAS
혁명가
헤르체고비나
라라라
연수원
보르도
찝찝
##sw
공경
원스
앙심
요하네스
Kh
RTS
##서기
비노
비앙
한영
단양
재가
덕선
Box
HYPER
수재
유학자
눈꽃
취사
MBN
압록강
와치
입부
##ener
하이스트
##몽골
성곽
에리코
시사회
도미닉
병무청
전준우
##41
발신
넴
복고
접두사
쇼팽
##idge
도가니
대뜸
소명
구국
배추
종과
티파니
면목
번역자
마스다
클린업
Wall
##키호테
우군
돈키호테
455
뒷심
압박감
댄디
퉁퉁
bad
비크
트윙클
##붓
원예
와세다
존나
브링
⭧라니까
비준
고현
엄중
Log
##크라테스
골프장
아미노산
에스트
창피
팔달
다이치
##ira
##콘서트
jubeat
거금
갤리
운전사
토모카즈
무등
발부
코이즈미
라이카
삭발
1888
일렬
동수
진경
슈퍼카
아파치
네크론
Asia
적법
회군
1111
벌크
살인죄
패스트푸드
그레이브즈
NVIDIA
사니
에헤
타이베리
휘파람
그럴싸하
타이베리움
디오스
권익
삼양
뇌전
PSY
교향악단
고난도
스구루
Mat
상해
신아
앰버
직할시
심혈
백경
벵거
home
##OB
바젤
한별
패니
##금니
##멓
커넥션
모하메드
##ook
바스크
위촉
##체스코
##RS
서럽
손짓
삼위
##함대
염체
얻어터지
승소
허경민
범실
알리사
김민우
예수회
중장거리
김선빈
모반
세차
서빙
근세
전기철도
아리엘
NX
경리
무우
매시
관도
프로메
루이지애나
포가튼
바텐
미후
티안
⭧으려던
대교구
대생
미조
비티
훔
누아
##광석
##ident
기욤
##gn
아웅
고은
실에
외박
털털
337
쿠로사와
응급처치
Kr
UL
##선언
##연장
대리석
삼위일체
Tim
##가을
수륙
##성사
##브리아
##cho
486
##릿사
jpg
랑그릿사
유강남
코소보
발할라
외눈
하루미
찬가
인도인
Tor
Wake
바울
연심
절도사
마음씨
낙뢰
##멘토
조리법
시원시원
발명가
##태평양
여가
레리
에세이
잔기
Sa
어가
정철
개경
데메
##테우스
최고령
기업가
이재호
Sword
##쿼
무정
타잔
완만
이대형
부채꼴
Bal
사헌
##장소
건장
##ᆫ들러
우월주의
이병렬
용광로
block
기근
경색
##민호
행인
삼층석탑
지배인
으으
클라우스
##뜰
기품
일순
문중
호오
북상
피노키오
fuck
전능
문란
엠버
종묘
아이바
나타샤
##링턴
료스케
start
옹주
지껄
카론
야르
용하
낙법
Alt
EDGE
코토미
Ham
인솔
챔버
양평군
울분
##브롤
네이션스컵
##리치
상비
유폭
초절
붙히
##착륙
찌들
##orean
PX
도코
한잔
해주
급성장
훈족
##ACE
김광석
Youtube
쫙
모병
리메
요안
##모음
예린
##슬란
Book
>>
DU
제과
영성
태산
누더기
inf
셰어
CDMA
##바스티안
쩔쩔매
유착
비뉴
고학
소도
세베
카무
호호
렝가
키친
광운
##amond
true
동글
##모비스
오래가
현대모비스
요시오
이천수
SUN
Tit
##식스
양원
슈즈
봉천
멸치
연락처
넘버원
⭧로다
경단
현시
본판
루지
이가라시
마름
학벌
창업자
하이에나
421
##궤도
스네이프
이운
사림
위클리
따스
탄지
##aper
상한선
흥국생명
Deep
Five
우열
불새
애드리
살살
징후
수용체
여전사
크랩
양천구
##ua
에페
감독상
프리징
비트매니아
going
지석진
Touch
##모닉
식기
윤동
죄목
PSG
Any
개막식
리모컨
팰컨
미나모토노
앙골라
Spirit
사파리
연연
연초
의령
코헤이
감량
##여대
332
캡처
카츠미
히라노
낭떠
프란체스코
애국심
지껄이
낭떠러지
다드
염력
쌍욕
롤랜드
상품권
SNL
박종훈
Paul
Adreno
VP
알카
타이치
아라라
우회전
사성
젝스
버클
막무가
질감
윤호
쿨라
헤이븐
젝스키스
막무가내
예스
예문
EXID
동작구
변함없이
UAE
주원
자지
의제
##메즈
352
Stud
여름철
##iving
필하모닉
fight
kHz
상현
의경
풀럼
견학
Stay
KING
결석
분가
골반
육안
369
⭧다던지
가스트
연혁
메시아
김완
봉안
브로스
##ECTION
부다페스트
사헌부
ET
유압
드웨이
건내
유우코
놓아주
워록
걸이
정신없이
놀려먹
종교인
커트라인
GeForce
플랑드르
PUBG
쿠빌라이
켄터
연출가
에스파다
면세점
사레
##구이
##두스
설과
김관
막걸리
즛
르망
하이엔드
하이랜더
##roy
ESPN
아브라함
##nam
##OG
어금니
부역
교통량
천하제일
비슈누
가타카나
turn
아성
미각
현주
혼재
팔뚝
낮잠
⭧느냐며
Shift
지파
라테
##덜랜드
신속히
울릉도
Dom
##CS
시차
##어씌우
패도
디미
##퀘
부락
레시
##갤
답습
클레멘스
SEC
그웬
대정
패인
싸잡
마지마
맛없
아스톤
반딧불
송광민
유색
루소
태상
비슷비슷
사상가
파베
재소
편중
IA
노현
안토
변혁
##스타파
##iano
코다마
에노시마
아드리안
SAS
께
모후
호빵
묘기
멸하
Offic
마르티네스
HM
##시게
들락
룹
향연
1887
Monster
대용량
시무라
후아
영체
청중
##곡면
##reeca
##dden
##lash
노르만
만주족
아전
동중
참담
##ination
냉방
⭧으니까요
펌핑
엄격히
스케치북
개콘
364
511
Jour
Men
수질
전인
동천
남문
##복지부
브릭
공군기지
렉서스
아수라장
신권
티치
넷마
언더그라운드
끈적
##문드
변절
워든
롯데시네마
KOO
흘러내리
##르기니
비프
서산시
로나
레콘
입소문
##를레
⫸하구
대마도
로사리오
금기시
람보르기니
교목
디아나
##ergy
황진
요구사항
Exp
박지훈
##도치
가재
[...]
