▁▃ -0
▁ㅇ -1
▁ㄱ -2
▁ㄷ -3
▁ㄴ -4
▁ㅎ -5
▁ㅇㅣ -6
ㅡㄹ -7
▁ㅈ -8
▁ㅅ -9
ㅡㄴ -10
▁ㅎㅏ -11
▁ㄷㅏ -12
▁ㄹ -13
▁ㅂ -14
▁. -15
▁ㅇㅔ -16
ㅏㅇ -17
▁ㅁ -18
▁ㅇㅢ -19
▁ㅇㅡㄹ -20
ㅏㄴ -21
▁ㄴㅡㄴ -22
ㅓㄴ -23
ㅕㄴ -24
ㅗㅇ -25
▁ㅇㅏ -26
▁ㅇㅓ -27
▁, -28
ㅅㅓ -29
▁ㅊ -30
ㅣㄴ -31
ㅕㅇ -32
ㅏㄹ -33
▁ㅇㅡㄴ -34
ㅏㄱ -35
▁ㄱㅏ -36
ㅜㄴ -37
ㅗㄱ -38
ㅓㅇ -39
▁ㅍ -40
ㅜㄱ -41
▁1 -42
▁ㄱㅗ -43
▁ㄷㅚ -44
▁ㅈㅣ -45
▁ㄹㅡㄹ -46
ㅜㄹ -47
ㅈㅣ -48
▁ㅇㅓㅆ -49
ㄹㅣ -50
▁ㅇㅕ -51
ㅅㅡ -52
ㅜㅇ -53
▁ㅌ -54
▁ㄴㅕㄴ -55
ㅎㅏ -56
▁ㄹㅗ -57
ㅅㅣ -58
▁ㄱㅣ -59
ㅐㅇ -60
▁ㅇㅡㄹㅗ -61
▁ㅅㅣ -62
▁ㄱㅘ -63
▁2 -64
ㅗㄴ -65
▁ㅇㅔㅅㅓ -66
▁ㅇㅣㅆ -67
ㅇㅣ -68
▁ㅇㅣㄹ -69
ㅡㅁ -70
▁ㅇㅏㅆ -71
▁ㄷㅐ -72
ㅏㅁ -73
ㅡㅇ -74
ㅓㄱ -75
▁ㅋ -76
ㄷㅏ -77
▁ㄷㅗ -78
ㅝㄴ -79
▁ㅇㅘ -80
▁ㄷㅡㄹ -81
▁ㄸ -82
ㅓㅂ -83
ㅓㄹ -84
ㅕㄱ -85
ㅗㄹ -86
ㄱㅜㄱ -87
ㄱㅣ -88
▁ㄴㄷㅏ -89
ㅣㅇ -90
ㅓㅁ -91
ㅅㅏ -92
▁ㅈㅓㄴ -93
▁ㅅㅏㅇ -94
▁ㄱㅡ -95
▁ㅈㅓㄱ -96
▁20 -97
ㅓㅅ -98
ㅝㄹ -99
ㅐㄱ -100
▁ㅈㅜㅇ -101
▁ㅅㅜ -102
ㅎㅘ -103
ㅈㅏㅇ -104
ㅈㅏ -105
ㄷㅗ -106
▁ㅇㅝㄹ -107
▁ㅇㅣㄴ -108
ㅊㅣ -109
▁ㅈㅔ -110
ㅛㅇ -111
▁19 -112
ㅑㅇ -113
ㅈㅓㅇ -114
▁ㅇㅟ -115
▁ㅈㅓㅇ -116
ㅂㅜ -117
ㅣㄹ -118
ㄷㅐ -119
▁ㄱㅗㅇ -120
▁ㅇㅠ -121
ㅕㄹ -122
▁ㅎㅘ -123
ㄷㅡ -124
▁ㅅㅔ -125
▁ㅂㅜ -126
▁ㅇㅡㅁ -127
▁ㅇㅕㅆ -128
ㅅㅜ -129
ㅅㅏㅇ -130
ㅅㅓㅇ -131
▁ㄱㅔ -132
▁ㄱㅕㅇ -133
▁ㅅㅓㅇ -134
ㅈㅓㄴ -135
▁ㅁㅣ -136
▁ㅈㅏ -137
ㅈㅔ -138
ㅌㅡ -139
ㄷㅗㅇ -140
▁ㄱㅓㅅ -141
▁ㅎㅏㄴ -142
ㄱㅏ -143
▁3 -144
ㅌㅓ -145
ㅎㅏㄱ -146
ㅔㄹ -147
▁ㅁㅏ -148
▁ㄷㅗㅇ -149
▁" -150
ㄱㅜ -151
▁ㄱㅐ -152
▁ㅈㅜ -153
ㅎㅚ -154
▁ㄷㅡㅇ -155
▁ㅅㅓㄴ -156
ㅇㅝㄴ -157
▁ㄷㅏㅇ -158
▁ㅅㅏ -159
▁ㅂㅏ -160
▁ㄲ -161
▁ㅁㅏㄴ -162
ㄱㅘ -163
▁ㄱㅡㄹ -164
ㅗㅅ -165
▁ㅂㅏㄹ -166
ㅈㅜ -167
▁ㅇㅕㄴ -168
ㅡㄱ -169
▁ㅇㅕㅇ -170
ㅔㅇㅣ -171
▁ㄱㅜㄱ -172
ㅣㄱ -173
▁ㅂㅗ -174
▁ㅁㅕ -175
▁ㅅㅡ -176
▁ㅈㅏㅇ -177
ㅣㅁ -178
▁ㅇㅗ -179
▁ㅍㅡㄹ -180
▁ㄴㅏ -181
ㅇㅓ -182
▁ㅁㅕㄴ -183
▁ㅇㅡㅁㅕ -184
ㄱㅛ -185
ㅇㅣㄴ -186
ㅔㄴ -187
ㅏㅇㅣ -188
ㅁㅜㄴ -189
▁201 -190
ㅅㅏㄴ -191
ㅎㅏㄴ -192
ㄱㅖ -193
▁' -194
ㅁㅣㄴ -195
▁4 -196
ㅅㅣㄴ -197
▁ㅅㅣㄴ -198
▁ㅈㅗ -199
▁ㅂㅏㅇ -200
▁ㄱㅘㄴ -201
ㅐㄴ -202
▁ㅁㅕㅇ -203
▁ㄷㅏㄴ -204
ㄹㅗ -205
ㅁㅏㄴ -206
▁ㅁㅗ -207
ㅏㅈㅣ -208
ㄷㅏㄴ -209
ㅋㅣ -210
ㅅㅣㄱ -211
▁ㄱㅜ -212
▁ㅇㅏㄴ -213
▁5 -214
▁ㅈㅣㄴ -215
▁ㄸㅐ -216
▁ㅇㅏㄹ -217
▁200 -218
ㅇㅏ -219
▁- -220
▁ㄷㅏㄹ -221
▁ㅎㅜ -222
ㅈㅏㄱ -223
▁ㄱㅏㅇ -224
▁ㄷㅓㄴ -225
ㅊㅔ -226
▁ㅇㅕㄱ -227
▁ㅈㅏㄱ -228
ㅈㅐ -229
ㄱㅗ -230
▁ㅂㅣ -231
▁ㅁㅜㄴ -232
▁ㄴㅏㅁ -233
ㅓㄴㅏ -234
▁ㅅㅏㄹ -235
ㅇㅕㄱ -236
ㅏㄹㅡ -237
ㅁㅕㅇ -238
ㅅㅗ -239
ㄷㅔ -240
ㅎㅣ -241
▁ㅂㅜㄹ -242
ㄷㅡㄹ -243
▁ㅆ -244
ㅎㅐㅇ -245
▁ㅌㅗㅇ -246
ㅑㄱ -247
ㅎㅜ -248
▁ㅇㅝㄴ -249
ㅜㅁ -250
ㅏㄱㅗ -251
ㅈㅗ -252
▁ㅎㅕㄴ -253
▁ㄱㅖ -254
▁ㄱㅜㄴ -255
ㄱㅔ -256
ㄷㅏㅇ -257
ㅂㅗㄴ -258
▁ㄱㅏㅌ -259
▁ㅂㅜㄴ -260
ㅂㅣ -261
ㅇㅜ -262
▁ㅁㅏㄹ -263
▁6 -264
▁ㅎㅏㄱ -265
ㅁㅜㄹ -266
ㅋㅡ -267
▁ㅅㅗ -268
ㄱㅗㅇ -269
ㅅㅓㄴ -270
▁ㅇㅏㄶ -271
▁ㅅㅐㅇ -272
▁ㄴㅗ -273
▁ㅊㅜㄹ -274
ㅡㄹㄹ -275
▁ㅂㅏㄷ -276
▁ㄲㅏㅈㅣ -277
ㅈㅜㅇ -278
ㅁㅏ -279
ㅂㅏㄴ -280
ㅇㅣㄹ -281
▁ㄱㅕㄹ -282
ㄱㅏㄴ -283
▁ㅎㅚ -284
▁ㅇㅕㄹ -285
▁ㄷㅐㅎㅏ -286
▁ㅇㅔㄱㅔ -287
ㄱㅜㄴ -288
▁ㅈㅣㅂ -289
ㄱㅘㄴ -290
▁ㅈㅗㅇ -291
▁ㅂㅓㄴ -292
▁ㅂㅏㄴ -293
▁ㄱㅛ -294
▁7 -295
▁ㄱㅏㄴ -296
ㄹㅗㄱ -297
▁ㅊㅚ -298
▁ㅇㅖ -299
▁10 -300
▁8 -301
ㄹㅕㄱ -302
▁ㄴㅐ -303
▁ㄹㅏㄴ -304
▁ㅇㅟㅎㅏ -305
ㅌㅏ -306
▁ㅇㅗㄹ -307
▁ㅎㅐ -308
ㄹㅣㅂ -309
ㅈㅣㄴ -310
ㅇㅢ -311
▁ㅅㅣㄹ -312
▁ㅅㅓㄹ -313
▁ㄹㅏ -314
ㅇㅏㄴ -315
ㅋㅏ -316
▁ㅈㅣㅁㅏㄴ -317
ㅂㅗ -318
▁ㅎㅕㅇ -319
ㅇㅟ -320
ㅁㅣ -321
ㅌㅗㅇ -322
ㅌㅗ -323
ㅇㅛㅇ -324
ㅍㅛ -325
▁ㅎㅐㅇ -326
▁ㅍㅗ -327
▁ㅎㅗ -328
▁ㅂㅜㅌㅓ -329
ㅇㅓㅂ -330
ㅅㅐㅇ -331
ㅈㅗㅇ -332
▁ㅅㅏㅁ -333
ㅎㅗ -334
▁ㄷㅜ -335
ㅣㅇㅏ -336
ㅍㅡ -337
▁ㅇㅓㅄ -338
ㄹㅠ -339
▁ㅅㅏㅇㅛㅇ -340
▁9 -341
ㅣㅅㅡ -342
▁ㅁㅣㄱㅜㄱ -343
ㅂㅜㄴ -344
▁ㅅㅓ -345
ㅡㅂ -346
▁ㅇㅜ -347
▁ㅇㅣㅂ -348
▁ㅊㅏ -349
▁ㄹㅏㄱㅗ -350
▁ㅎㅏㅁ -351
▁ㅂㅗㅇ -352
ㅂㅏㄹ -353
▁ㅇㅣㅎㅜ -354
▁ㅅㅏㄴ -355
ㅅㅗㄱ -356
▁ㄹㅏㄴㅡㄴ -357
▁ㅊㅓㅇ -358
▁ㅇㅛ -359
ㅈㅓㄱ -360
▁ㄷㅗㄱ -361
▁ㅅㅡㅇ -362
▁ㅌㅡㄱ -363
▁ㄷㅔ -364
ㅎㅏㅂ -365
ㅁㅕㄴ -366
▁ㅁㅣㄴ -367
ㅂㅓㅂ -368
▁ㅇㅣㄹㅂㅗㄴ -369
▁ㅉ -370
▁ㅁㅕㄴㅅㅓ -371
ㅓㅈㅣ -372
▁ㄱㅏㅁ -373
▁ㅇㅜㄴ -374
ㅎㅐ -375
ㅅㅡㅇ -376
▁ㅎㅘㄹ -377
▁ㅁㅜㄹ -378
▁ㄸㅗ -379
ㅇㅕㅇ -380
▁ㄴㅡㄴㄷㅔ -381
▁ㅈㅐ -382
ㄱㅕㅇ -383
▁ㄱㅝㄴ -384
▁ㅂㅗㄴ -385
▁ㅅㅗㄱ -386
▁ㅁㅗㄷ -387
ㅇㅣㅁ -388
ㅣㅂ -389
▁ㅁㅜ -390
▁ㄱㅓ -391
ㅈㅣㄱ -392
ㅅㅡㅌ -393
ㅍㅗ -394
▁ㅈㅣㄱ -395
▁ㅋㅡ -396
ㅏㄹㅏ -397
▁ㄱㅏㄱ -398
ㅇㅠ -399
▁ㅇㅘㅇ -400
▁ㅇㅑㅇ -401
▁ㄱㅣㅁ -402
▁ㅂㅜㄱ -403
ㅁㅣㄴㄱㅜㄱ -404
ㅂㅏㅇ -405
ㅅㅓㄹ -406
ㅏㄹㅣ -407
▁ㄷㅐㅎㅏㄴ -408
▁ㄷㅏㅇㅡㅁ -409
▁199 -410
▁ㅈㅣㅇㅕㄱ -411
ㅋㅗ -412
▁ㄱㅓㄴ -413
ㅅㅣㄹ -414
▁ㅇㅡㄴㅏ -415
ㄱㅕㄱ -416
ㅕㅂ -417
▁ㅁㅗㄱ -418
▁ㅁㅣㅊ -419
▁ㅍㅕㅇ -420
ㅈㅡ -421
▁ㅊㅗㅇ -422
ㅈㅗㄱ -423
▁12 -424
ㄹㅏ -425
▁ㄷㅐㅎㅏㄴㅁㅣㄴㄱㅜㄱ -426
▁ㅊㅜㄱ -427
ㅈㅓㅁ -428
▁ㅁㅏㄶ -429
ㄷㅡㅇ -430
ㅊㅏ -431
▁ㄸㅏㄹㅡ -432
▁ㅊㅏㅁ -433
ㄱㅓ -434
▁18 -435
ㅅㅔ -436
ㅅㅜㄹ -437
ㄹㅕㅇ -438
ㅇㅛ -439
▁ㄱㅕㅇㄱㅣ -440
▁ㅊㅗ -441
▁ㅂㅗㄱ -442
▁ㄷㅐㅎㅏㄱ -443
▁ㄱㅏㅈㅣ -444
ㄷㅗㄱ -445
ㄹㅔ -446
▁ㄷㅏㄹㅡㄴ -447
ㅅㅣㅁ -448
ㄱㅏㄱ -449
00 -450
▁; -451
▁ㄷㅏㄱㅗ -452
ㅕㅁ -453
▁ㅇㅢㅎㅏ -454
ㅊㅜㄹ -455
▁ㅇㅚ -456
ㅉㅗㄱ -457
ㅐㅇㅜ -458
ㅎㅕㅇ -459
▁ㄱㅡㄴ -460
ㅌㅐ -461
▁ㅋㅗ -462
or -463
▁ㅇㅣㅁ -464
ㅗㅅㅓㄴ -465
▁ㅇㅑ -466
▁S -467
ㅎㅕㄴ -468
▁ㅊㅓㄹ -469
ㅁㅜ -470
▁ㅃ -471
ㅍㅏ -472
ㅅㅓㄱ -473
▁ㅂㅓㅂ -474
▁11 -475
ㅁㅗ -476
▁ㅊㅓㄴ -477
▁ㅎㅏㅇ -478
ㅎㅑㅇ -479
▁ㄸㅐㅁㅜㄴ -480
ㅐㅁ -481
▁ㅅㅣㅈㅏㄱ -482
▁ㅂㅕㄴ -483
ㄹㅏㄴ -484
▁ㄹㅣ -485
ㅍㅏㄴ -486
▁ㅍㅛ -487
▁ㄹㅔ -488
ㅊㅓㄴ -489
▁ㅅㅣㅋㅣ -490
▁ㅇㅛㅇ -491
▁ㅈㅓㅁ -492
ㅍㅜㅁ -493
ㅌㅡㄹ -494
ㄲㅔ -495
▁ᄆ -496
▁& -497
▁ㅂㅏㄱ -498
▁ㅌㅣㅁ -499
▁A -500
▁ㅅㅏㄹㅏㅁ -501
▁ㅇㅏㅇ -502
▁ㅁㅔ -503
ㅇㅕㄴ -504
▁ㅎㅏㅁㄲㅔ -505
ㅈㅐㅇ -506
▁ㅊㅔ -507
ㅓㅅㅡ -508
▁ㅂㅐ -509
ㅇㅏㄱ -510
▁ㄸㅗㅎㅏㄴ -511
ㅎㅏㅇ -512
▁) -513
▁ㅅㅓㄴㅅㅜ -514
▁ㅋㅏ -515
▁ㅇㅑㄱ -516
▁ㅎㅏㄴㄱㅜㄱ -517
▁ㅇㅏㅅㅓ -518
▁ㄷㅓ -519
la -520
▁ㅇㅕㅇㅎㅘ -521
▁ㅇㅐ -522
▁ㄱㅘㅇ -523
▁ㅅㅔㄱㅖ -524
ㅌㅏㄴ -525
▁ㅈㅜㄱ -526
▁ㅅㅣㅈ -527
ㅏㅇㅗ -528
▁ㅌㅏ -529
ㅡㅅ -530
▁ㅍㅏㄴ -531
▁ㅇㅓㄴ -532
▁ㅂㅡㄹ -533
▁ㅆㅡ -534
▁ㅍㅏ -535
▁ㅂㅐㄱ -536
▁C -537
▁ㅊㅏㅇ -538
▁f -539
▁M -540
ㅂㅏ -541
ㅊㅓㅇ -542
ㅇㅑ -543
▁ㄱㅗㄱ -544
ㅅㅗㅇ -545
▁ㄱㅕㅇㅇㅜ -546
▁ㅅㅐ -547
▁ㅈㅏㅅㅣㄴ -548
▁ㅈㅗㄴ -549
ㅐㄴㄷㅡ -550
▁ㅁㅏㅇ -551
▁ㄴㅔ -552
ㅎㅏㅁ -553
▁ㅌㅗㅇㅎㅏ -554
▁T -555
▁ㅎㅕㄴㅈㅐ -556
▁F -557
▁ㄷㅟ -558
▁ㅍㅣㄹ -559
▁ㄱㅗㄹ -560
ㅈㅜㄴ -561
▁ㅅㅏㅇㅣ -562
ㅌㅣ -563
▁ㅇㅣㄹㅡㅁ -564
▁ㅅㅏㄱ -565
▁ㅍㅣ -566
▁198 -567
▁ㄱㅣㄹㅗㄱ -568
▁ㄹㅣㄱ -569
▁ㅍㅕㄴ -570
ㅇㅑㄱ -571
▁ㅎㅘㄱ -572
▁ㄱㅜㄱㄱㅏ -573
▁_ -574
ㅈㅣㄹ -575
▁ㅇㅟㅊㅣ -576
▁ㅁㅐ -577
▁ㅊㅜ -578
▁ㄱㅏㅈㅏㅇ -579
▁ㅇㅏㄴㅣ -580
▁ㄱㅡㅁ -581
▁ㅈㅜㄹ -582
▁ㄷㅏㅇㅅㅣ -583
▁ㅅㅣㅁ -584
▁( -585
▁ㄷㅏㄴㅡㄴ -586
▁ㅎㅏㅂ -587
▁ㅎㅏㄱㄱㅛ -588
ㅊㅗ -589
ㅅㅕㄴ -590
▁ㅈㅗㅅㅓㄴ -591
ㄷㅣㅇ -592
▁ㅎㅘㄹㄷㅗㅇ -593
▁ㅅㅣㄱ -594
▁ㅎㅏㄴㅏ -595
ㅅㅣㅇㅏ -596
▁for -597
▁ㄹㅣㄱㅡ -598
▁ㅁㅏㄴㄷㅡㄹ -599
ㅡㄹㅣ -600
▁15 -601
ㅓㄹㅣ -602
▁ㄱㅠ -603
mu -604
▁ㅇㅣㄴㅏ -605
ㅁㅐ -606
▁ㅈㅡㅇ -607
ㅈㅜㅇㅢ -608
ㄷㅣ -609
▁ㄱㅡㄹㅓㄴㅏ -610
▁ㅂㅗㅇㅣ -611
▁ㄷㅗㄹ -612
▁ㅁㅗㅅ -613
▁ㅅㅗㄴ -614
mula -615
▁formula -616
▁ㅉㅐ -617
ㄹㅣㅇㅏ -618
▁ㅂㅔ -619
ㅇㅑㅇ -620
ㄴㅏㅁ -621
ㅂㅕㅇ -622
ㅍㅕㄴ -623
ㅘㅇ -624
ㅂㅗㄱ -625
▁ㅅㅜㅇ -626
▁ㅅㅗㅇ -627
▁ㅌㅗ -628
▁ㅇㅜㄹ -629
ㄹㅣㅁ -630
▁16 -631
▁ㅈㅗㄱ -632
▁ㅍㅡㄹㅏㅇ -633
ㅗㄴㅡㄴ -634
▁ㅎㅘㅇ -635
▁ㅅㅓㄱ -636
▁ㄸㅗㄴㅡㄴ -637
▁ㅅㅜㄴ -638
ㅣㄱㅗ -639
▁ㄷㅐㅍㅛ -640
ㅔㄹㅡ -641
▁ㅊㅜㅇ -642
▁ㄱㅡㄱ -643
ㅡㄹㅗ -644
▁ㅈㅓ -645
▁ㅂㅕㅇ -646
▁ㅇㅠㄹ -647
▁ㄱㅣㄹ -648
▁ㅁㅗㅇ -649
ㅌㅏㄹ -650
ㅂㅕㄹ -651
▁/ -652
ㄷㅏㄹ -653
▁ㅇㅣㄱ -654
ㅂㅜㅌㅓ -655
ㅗㄹㅡ -656
ㅅㅐㄱ -657
▁m -658
ㅎㅘㄴ -659
ㅎㅘㅇ -660
▁ㄱㅡㄹㅣㄱㅗ -661
▁0 -662
▁ㅈㅏㄹ -663
▁D -664
ㅁㅗㄱ -665
ㄱㅏㅇ -666
▁ㅅㅏㅎㅚ -667
▁ㅇㅏㅍ -668
▁ㄴㅗㅇ -669
ㄱㅕㄴ -670
▁17 -671
ㅊㅣㅇ -672
▁ㅁㅣㄹ -673
ㅎㅓㅁ -674
▁ㅅㅣㅈㅡㄴ -675
▁ㅇㅕㄴㄱㅜ -676
ㅘㄴ -677
▁ㅊㅓㅅ -678
▁ㅂㅣㄹ -679
▁197 -680
▁ㄹㅜ -681
ㄴㅏ -682
▁B -683
ㅌㅜ -684
ㅏㄱㅏ -685
ㄷㅜ -686
ㄱㅡㅂ -687
▁ㅇㅓㅅㅓ -688
ㅊㅏㄹ -689
▁ㅌㅜ -690
ㅇㅕ -691
ㄹㅕㄴ -692
▁ㄴㅗㄹ -693
▁] -694
▁ㅌㅡㄹ -695
▁ㅂㅗㄷㅏ -696
▁[ -697
ㅅㅡㅂ -698
ㄱㅕㄹ -699
▁ㄴㅗㅍ -700
▁ㅇㅘㄴ -701
▁ㅇㅏㄹㄹㅣ -702
▁ㅌㅐㅇ -703
ㄹㅛ -704
▁ㄴㅣ -705
▁ㅈㅜㅇㄱㅜㄱ -706
▁ㅅㅡㅌ -707
▁ㅇㅏㅂ -708
▁ㅎㅕㅂ -709
▁ㅅㅓㅇㅜㄹ -710
▁ㅍㅡㄹㅗ -711
ㅎㅏㄱㄱㅛ -712
▁I -713
▁K -714
▁ㅇㅏㅁ -715
ㅊㅡ -716
▁: -717
ㅂㅜㄱ -718
▁ㅁㅗㅅㅎㅏ -719
▁ㄷㅏㅅㅣ -720
▁ㅇㅕㅇㄱㅜㄱ -721
ㅈㅣㅂ -722
▁ㅅㅣㄷㅐ -723
▁ㅂㅜㅇ -724
▁ㅍㅐ -725
▁ㅌㅔ -726
▁ㅌㅐ -727
▁ㅍㅗㄱ -728
▁ㄷㅣ -729
ㄱㅐ -730
▁k -731
▁ㄸㅡㅅ -732
▁ㄷㅗㅅㅣ -733
▁ㅍㅗㅎㅏㅁ -734
ㅇㅏㅇ -735
▁ㅈㅓㅇㅂㅜ -736
▁ㄲㅡ -737
▁ㅍㅡㄹㅏㅇㅅㅡ -738
ㄹㅗㄴ -739
ㄹㅓ -740
▁ㅅㅜㄹ -741
▁ㄱㅣㄴ -742
▁ㅅㅓㅁ -743
▁ㄱㅜㅇ -744
ㅇㅓㅈㅣ -745
▁ㅇㅔㄴ -746
▁196 -747
▁ㅇㅠㄴ -748
▁14 -749
▁ㅅㅓㅂ -750
▁ㅅㅡㅍ -751
ㅅㅡㅌㅡ -752
ㅈㅓ -753
ㅂㅓㅁ -754
▁ㅋㅡㄹ -755
▁ㄱㅛㅇ -756
ㄱㅡㄴ -757
▁ㅇㅕㄹㅓ -758
▁ㅈㅓㄴㅈㅐㅇ -759
ㅇㅗ -760
er -761
ㄹㅐ -762
▁ㄹㅓ -763
ㄹㅑㅇ -764
▁~ -765
▁ㄷㅐㅎㅚ -766
▁ㅂㅏㄲ -767
▁ㅇㅗㄴ -768
ㄱㅗㄱ -769
▁ㄹㅗㅅㅓ -770
▁ㄷㅗㄱㅇㅣㄹ -771
ㅇㅓㄴㅏ -772
▁ㅂㅐㅇㅜ -773
▁ㅊㅜㄱㄱㅜ -774
▁ㅁㅜㄴㅎㅘ -775
ㅠㄱ -776
▁ㅂㅕㄹ -777
▁13 -778
▁g -779
ㅋㅔ -780
ㄱㅠ -781
▁ㅊㅟ -782
▁P -783
ㅊㅜ -784
in -785
▁ㅇㅟㅇㅝㄴ -786
ㅇㅣㅂ -787
▁ㄱㅏㄴㅡㅇ -788
▁ㄷㅏㄱㅏ -789
ㅓㅎ -790
▁ㄴㅠ -791
▁ㅁㅗㄷㅜ -792
▁ㅇㅣㅅㅏㅇ -793
▁ㅊㅣㄴ -794
▁ㄱㅏㅈ -795
▁ㄱㅓㅁ -796
▁ㄷㅗㅇㅇㅏㄴ -797
▁ㄴㅏㄴ -798
▁ㅎㅐㄱ -799
▁ㅎㅗㅇ -800
▁ㅁㅗㄷㅡㄴ -801
▁ㅇㅓㄹ -802
▁194 -803
▁ㅂㅏㅇㅅㅗㅇ -804
ㅈㅗㄴ -805
▁ㄱㅏㅁㄷㅗㄱ -806
ㅂㅗㅇ -807
▁ㄱㅏㄹ -808
▁ㅎㅘㄴ -809
ㄱㅝㄴ -810
ㅎㅏㄹ -811
ㅊㅜㄱ -812
ㅍㅣ -813
▁ㅁㅏㄱ -814
▁ㄱㅓㄹ -815
▁ㄷㅐㅎㅏㄱㄱㅛ -816
▁ㄴㅏㄹ -817
▁l -818
ㅜㅅㅡ -819
▁ㄱㅐㅂㅏㄹ -820
▁ㅁㅏㅌ -821
▁ㄱㅐㅇ -822
ㅏㅇㅣㄴ -823
▁ㅇㅣㄹㅂㅜ -824
▁L -825
▁ㄴㅡㄴㄷㅏ -826
▁ㅇㅏㅇㅣ -827
▁ㅈㅔㅈㅏㄱ -828
ㅂㅓ -829
ㅇㅓㄴ -830
▁ㅈㅣㅂㅏㅇ -831
▁ㅊㅓㅇㅡㅁ -832
ㅇㅡㅁ -833
▁ㅁㅜㄴㅈㅔ -834
ㅍㅣㄱ -835
▁ㅅㅗㅅ -836
ㄱㅡㅁ -837
ㅠㄹ -838
ㄹㅗㅂ -839
▁ㄱㅜㅅㅓㅇ -840
▁ㅋㅡㄹㄹ -841
▁ㅇㅠㄱ -842
▁ㄱㅜㄱㅈㅔ -843
▁ㄴㅗㄴ -844
▁% -845
▁ㅇㅣㄴㅎㅏ -846
▁ㄱㅔㅇㅣㅁ -847
ㅍㅕㅇ -848
▁ㅋㅏㄹ -849
▁ㅇㅣㅇ -850
▁ㄷㅏㅁ -851
▁ㅈㅜㄴ -852
ㅊㅓㄹ -853
▁ㅅㅏㄱㅓㄴ -854
ㄷㅏㅁ -855
ㄱㅘㅇ -856
▁ㅇㅣㄹㅂㅏㄴ -857
▁ㅅㅔㄱㅣ -858
▁ㅇㅣㅇㅛㅇ -859
ㄹㄹㅣ -860
▁ㅅㅣㄱㅏㄴ -861
▁G -862
▁ㄱㅗㅅ -863
▁ㄲㅡㅌ -864
ㅈㅣㅇ -865
ㄴㅐ -866
ㅏㅁㅏ -867
ㅜㄹㅡ -868
ㄷㅗㄹ -869
▁ㅈㅏㄱㅍㅜㅁ -870
ㅈㅓㄹ -871
▁ㅎㅑㅇ -872
▁ㅈㅗㄴㅈㅐ -873
▁ㅊㅣ -874
▁ㅆㅣ -875
ㅅㅏㄹ -876
▁ㅇㅜㄴㄷㅗㅇ -877
▁N -878
▁ㅇㅣㄴㄱㅜ -879
▁ㅈㅓㅂ -880
▁ㄱㅡㅂ -881
ㅂㅡ -882
▁gt -883
▁ㅈㅓㅇㄷㅗ -884
▁ㅈㅣㄹ -885
on -886
▁ㅊㅗㄱ -887
▁km -888
▁195 -889
ㅌㅔ -890
▁ㅍㅏㄹ -891
▁ㅈㅡㄱ -892
▁ㅈㅜㅈㅏㅇ -893
▁ㄴㅏㅇㅗ -894
▁ㅈㅓㄹ -895
▁ㅂㅜㄹㅡ -896
▁ㄱㅛㅇㅠㄱ -897
ㅎㅚㄱ -898
▁ㄱㅘㄴㄱㅖ -899
▁ㅊㅐㄱ -900
ㅌㅐㄱ -901
▁ㅇㅡㅁㅇㅏㄱ -902
▁ㄱㅟ -903
▁U -904
▁ㄱㅓㄴㅏ -905
▁lt -906
ㅊㅏㅇ -907
▁ㅍㅗㄹ -908
▁ㅇㅕㄱㅅㅏ -909
▁ㅈㅜㅇㅅㅣㅁ -910
ㅈㅡㅇ -911
▁ㄴㅏㅌㅏㄴ -912
ㅁㅏㅇ -913
ㅌㅓㄴ -914
▁ㅅㅣㅇ -915
▁ㅇㅞ -916
▁ㅋㅐ -917
▁R -918
▁ㅈㅓㅇㅊㅣ -919
ㅊㅏㄱ -920
▁30 -921
▁ㅅㅠ -922
▁ㅁㅏㅈ -923
ㅅㅗㄴ -924
ㄴㅕㄴ -925
▁ㅊㅣㄹ -926
▁ㅇㅣㄹㅓ -927
▁ㅇㅏㄷㅡㄹ -928
ㅂㅐ -929
▁ㅊㅏㄹ -930
▁H -931
ㄴㅣ -932
ㅇㅡㄴ -933
▁ㅂㅏㄹㄱㅕㄴ -934
ㅊㅐㄱ -935
ㅂㅜㅂㅜㄴ -936
ㅎㅘㄱㅜㄱ -937
▁E -938
▁ㅇㅗㄹㄹㅣㅁ -939
▁ㄱㅕㅇㅈㅔ -940
ㅌㅗㅇㄹㅕㅇ -941
▁ㄷㅡ -942
▁ㅂㅏㄹㅍㅛ -943
▁ㄴㅐㅇ -944
ㄷㅓ -945
▁ㅌㅏㅇ -946
▁ㄷㅗㄹㅗㄱ -947
▁ㄱㅣㅅㅜㄹ -948
ㅊㅓ -949
ㅋㅡㄹ -950
ㅂㅕㄴ -951
▁ㅍㅡㄹㅗㄱ -952
▁ㅋㅣ -953
▁ㅊㅡㄱ -954
▁ㅂㅓ -955
▁ㅍㅡㄹㄹ -956
ㅅㅡㄴ -957
▁ㄷㅐㅇ -958
▁ㅅㅗㄹ -959
ㅔㅇㅣㄴ -960
▁ㅈㅏㅁ -961
▁ㅇㅜㅅㅡㅇ -962
▁ㅅㅏㅁㅏㅇ -963
ㄱㅡㄹ -964
▁2010 -965
ㅎㅘㄹ -966
ㅇㅘㅇ -967
▁ㅇㅗㄹㄹㅣㅁㅍㅣㄱ -968
▁ㅁㅣㄴㅈㅜ -969
▁ㄹㅗㅂㅜㅌㅓ -970
an -971
ㅈㅓㅂ -972
ㅋㅜ -973
ㅁㅏㄱ -974
▁ㄷㅐㅂㅜㅂㅜㄴ -975
▁ㅂㅓㅁ -976
ㅡㄹㅐㅁ -977
▁ㄷㅐㅌㅗㅇㄹㅕㅇ -978
▁ㅊㅐ -979
▁ㅋㅗㄴ -980
▁ㄱㅗㅇㄱㅕㄱ -981
▁ㅂㅜㄹㄹㅣ -982
▁ㅇㅣㅅ -983
000 -984
▁ㅈㅏㅂ -985
▁ㄴㅓㅁ -986
▁ㅇㅕㅇㅎㅑㅇ -987
ㅍㅓ -988
ㅓㄱㅏ -989
▁ㅇㅕㄹㄹㅣ -990
▁ㅇㅕㄱㅣ -991
▁ㅇㅓㅂ -992
▁ㅈㅣㅇㅝㄴ -993
ㅔㅅㅡ -994
▁193 -995
▁ㅍㅡㄹㅗㄱㅡㄹㅐㅁ -996
ㄷㅏㄴㅡㄴ -997
ㅔㅁ -998
ㅔㅅ -999
ㄱㅡㄱ -1000
▁ㄱㅕㄹㄱㅘ -1001
▁ㅊㅣㅁ -1002
▁ㅂㅓㄹ -1003
▁ㅅㅐㄹㅗㅂ -1004
▁ㅇㅓㄷ -1005
▁ㅂㅏㄺ -1006
▁ㅌㅏㄹ -1007
ㅏㅂ -1008
▁ㅎㅛ -1009
▁c -1010
▁ㄱㅘㅈㅓㅇ -1011
▁ㅇㅢㅁㅣ -1012
ㅎㅗㄴ -1013
▁ㅌㅏㄴ -1014
▁ㅈㅜㅇㅇㅏㅇ -1015
▁ㅈㅓㄴㅌㅜ -1016
▁ㅊㅏㅁㅇㅕ -1017
▁ㄱㅘㄴㄹㅕㄴ -1018
▁ㅇㅠㄹㅓㅂ -1019
▁ㅂㅏㄹㅅㅐㅇ -1020
ㅍㅡㄹ -1021
▁ㅂㅔㄹ -1022
▁ㅎㅗㄴ -1023
▁ㅊㅚㅊㅗ -1024
20 -1025
▁ㅇㅏㄱ -1026
▁ㅈㅣㄴㅎㅐㅇ -1027
▁ㅅㅔㄴ -1028
ㄷㅡㄱ -1029
▁ㅇㅓㅁ -1030
▁25 -1031
▁ㅌㅔㄹ -1032
▁ㅅㅓㄹㄹㅣㅂ -1033
▁ㄱㅗㄷㅡㅇ -1034
▁ㅈㅗㅎ -1035
▁ㅌㅐㅇㅓㄴㅏ -1036
▁ㅂㅣㅇ -1037
▁ㅂㅜㅂㅜㄴ -1038
▁ㅊㅗㄷㅡㅇ -1039
ㅜㄹㅣ -1040
ㅆㅓ -1041
▁ㄷㅗㄱㄹㅣㅂ -1042
▁ㅅㅗㄱㅎㅏ -1043
▁ㄷㅏㅇㅑㅇ -1044
▁ㅅㅓㄹㅊㅣ -1045
ㄱㅏㅁ -1046
▁ㅅㅔㅇㅜ -1047
▁ㅍㅏㅇ -1048
ㅌㅡㄴ -1049
▁ㅁㅗㄹ -1050
▁ㅇㅐㄹ -1051
▁ㅌㅡㄱㅎㅣ -1052
ㅜㅂ -1053
▁ㄱㅜㅈㅗ -1054
▁ㅈㅔㄱㅜㄱ -1055
▁ㅈㅏㅇㅠ -1056
▁ㅂㅏㄹㅁㅐ -1057
▁ㄱㅕㄹㅈㅓㅇ -1058
▁ㅍㅖ -1059
▁ㅎㅕㅇㅌㅐ -1060
▁ㅅㅗㅅㅗㄱ -1061
▁2008 -1062
▁W -1063
ㅈㅣㅁㅏㄴ -1064
▁ㅇㅣㄹㅜ -1065
▁ㅅㅏㅇㅌㅐ -1066
ㄹㅜ -1067
▁ㅂㅡㄹㄹ -1068
ㄹㅣㄱ -1069
▁ㄷㅏㅇㅎㅏ -1070
ㅔㅇㅣㅅㅕㄴ -1071
▁21 -1072
▁ㄷㅡㄹㅇ -1073
▁ㄹㅔㅇㅣ -1074
▁ㅎㅣ -1075
▁ㅇㅣㅈㅓㄴ -1076
▁ㄴㄷㅏㄴㅡㄴ -1077
▁ㄱㅏㅌㅇㅣ -1078
ㅂㅐㄱ -1079
ㅌㅣㄴ -1080
▁ㅈㅘ -1081
▁ㅇㅏㅇㅑ -1082
▁ㄹㅣㅇ -1083
ㄷㅣㅇㅗ -1084
▁ㅇㅣㄹㅇㅓㄴㅏ -1085
▁ㄱㅡㄴㅕ -1086
▁ㅁㅜㅇ -1087
▁ㅁㅜㄱ -1088
▁ㅈㅜㄹㅗ -1089
ㄹㅣㄴ -1090
▁ㅋㅗㄹ -1091
▁ㅎㅏㅈㅣㅁㅏㄴ -1092
▁ㅇㅣㄴㅁㅣㄴ -1093
▁ㄷㅔㅇㅣ -1094
▁ㅇㅕㅅㅓㅇ -1095
▁ㄴㅏㄹㅏ -1096
▁ㅅㅏㅅㅣㄹ -1097
▁2012 -1098
▁ㅂㅣㄱ -1099
▁2011 -1100
▁ㅇㅡㄹㅗㅅㅓ -1101
▁ㅊㅜㄹㅅㅣㄴ -1102
ㄷㅓㄱ -1103
▁ㅅㅓㄴㄱㅓ -1104
▁ㅅㅡㄹ -1105
en -1106
▁ㄱㅣㅈㅜㄴ -1107
▁ㄷㅜㄹ -1108
▁ㅇㅣㄱㅓㅅ -1109
▁ㅇㅜㄴㅇㅕㅇ -1110
▁ㅋㅓㅁ -1111
▁ㄷㅔㅂ -1112
▁ㅇㅕㅈㅏ -1113
ㅍㅐ -1114
▁2007 -1115
▁ㅍㅣㄹㅇㅛ -1116
▁100 -1117
▁ㅊㅏㅁㄱㅏ -1118
▁ㅇㅣㅌㅏㄹ -1119
▁t -1120
▁2009 -1121
▁ㅇㅟㅇㅝㄴㅎㅚ -1122
▁2014 -1123
▁ㄱㅘㄴㄹㅣ -1124
▁ㅈㅗㅈㅣㄱ -1125
▁ㅎㅐㅇㅈㅓㅇ -1126
▁ㅅㅐㅇㄱㅏㄱ -1127
ㄷㅏㄱㅗ -1128
▁ㄱㅣㄱㅘㄴ -1129
ㄹㅏㄴㄷㅡ -1130
▁ㅈㅣㅈㅓㅇ -1131
ㄹㅡ -1132
ㅅㅜㄴ -1133
▁ㄱㅖㅎㅚㄱ -1134
▁ㅅㅐㅇㅅㅏㄴ -1135
▁ㅈㅜㅇㅇㅛ -1136
▁ㄷㅡㅇㅈㅏㅇ -1137
▁ㅌㅡ -1138
▁ㅇㅡㅁㅂㅏㄴ -1139
▁ㄹㅏㅇㅣ -1140
ㅣㅇㅓㄴ -1141
▁a -1142
ㄹㅏㄱ -1143
ㅇㅕㄹ -1144
ㅣㅇㅗ -1145
ㅂㅏㄱ -1146
▁ㅈㅗㄹ -1147
▁ㅍㅔ -1148
▁ㅂㅗㄴㅐ -1149
▁ㄱㅓㅇ -1150
ㅏㅇㅜㄴ -1151
ㅌㅚ -1152
▁ㅅㅜㄱ -1153
ㅇㅏㅁ -1154
▁ㅇㅣㄹㅡ -1155
▁O -1156
▁2013 -1157
▁ㄹㅓㅅㅣㅇㅏ -1158
▁ㄷㅔㅂㅟ -1159
▁ㅎㅢ -1160
▁ㄹㅗㅁㅏ -1161
he -1162
▁ㅇㅗㅇ -1163
▁ㅇㅓㄱ -1164
▁ㅇㅓㄸ -1165
▁ㅅㅏㅇㄷㅐ -1166
▁ㅎㅐㄷㅏㅇ -1167
▁ㄱㅖㅅㅗㄱ -1168
▁ㅁㅐㅇㅜ -1169
▁ㅍㅜㅇ -1170
▁ㅅㅓㅇㄱㅗㅇ -1171
▁ㄲㅗ -1172
▁ㅅㅣㄹㅣ -1173
▁ㅇㅗㄹㅡ -1174
▁ㅇㅗㄱ -1175
ㅊㅏㄴ -1176
▁ㅅㅛ -1177
▁ㄱㅜㄱㅁㅣㄴ -1178
▁ㅆㅏㅇ -1179
ㅎㅢ -1180
▁ㄷㅐㅈㅓㄴ -1181
ㄴㅏㄹㅏ -1182
▁ㅎㅓㄴ -1183
▁ㅇㅏㅂㅓㅈㅣ -1184
ㄸㅐ -1185
ㅂㅡㄹ -1186
▁ㄱㅘㅎㅏㄱ -1187
▁ㅇㅐㄴ -1188
▁ㅈㅜㅇㅛ -1189
▁ㅈㅓㅇㅂㅗ -1190
▁191 -1191
▁ㅂㅏㄺㅎㅣ -1192
▁ㅅㅏㅇㅓㅂ -1193
▁ㅇㅏㄹㅐ -1194
ㅓㄴㅣ -1195
▁ㅈㅏㄹㅣ -1196
▁ㅂㅗㄹ -1197
▁23 -1198
▁24 -1199
▁ㄱㅗㄹㅕ -1200
▁ㅂㅏㄹㅈㅓㄴ -1201
▁ㅁㅕㅊ -1202
ar -1203
▁ㅃㅜㄴ -1204
▁2015 -1205
▁ㅅㅡㅋ -1206
▁ㅈㅣㄴㅐ -1207
ㄹㅣㅇ -1208
▁ㅊㅏㅈㅣ -1209
▁2018 -1210
ㅊㅡㄱ -1211
ㅁㅐㅇ -1212
▁000 -1213
▁ㄴㄷㅏㄱㅗ -1214
▁ㅌㅣ -1215
ㅅㅡㅌㅡㄹ -1216
▁ㅎㅣㅁ -1217
▁2016 -1218
▁ㅊㅏㅈ -1219
▁ㄱㅓㅊㅣ -1220
ㅣㅇㅓ -1221
▁ㅂㅣㄴ -1222
▁ㅇㅣㅇㅠ -1223
▁ㅂㅏㅇㅂㅓㅂ -1224
▁ㄱㅡㄹㅜㅂ -1225
▁ㄴㅡㅇ -1226
▁ㅇㅝㄹㄷㅡ -1227
▁ㅊㅓㄹㅓㅁ -1228
▁ㅋㅜ -1229
▁ㅇㅐㄹㅂㅓㅁ -1230
▁ㅋㅏㄴ -1231
▁ㄱㅡㄹㅣ -1232
ㅊㅣㅁ -1233
▁J -1234
▁ㅇㅜㅇ -1235
▁ㄴㅗㄱ -1236
▁ㅇㅣㅌㅏㄹㄹㅣㅇㅏ -1237
es -1238
▁ㅊㅜㄹㅇㅕㄴ -1239
▁ㅅㅣㄹㅣㅈㅡ -1240
▁ㅁㅗㅁ -1241
ㅊㅜㅇ -1242
▁22 -1243
▁ㄱㅗㄷㅡㅇㅎㅏㄱㄱㅛ -1244
ㄱㅠㄴ -1245
▁ㅁㅐㄱ -1246
▁2006 -1247
ㅇㅐ -1248
ㅆㅡ -1249
▁ㅈㅓㄴㅊㅔ -1250
▁ㄸㅓㄹ -1251
▁ㅅㅐㅇㅎㅘㄹ -1252
▁ㅌㅓ -1253
▁ㅇㅣㄹㅜㅇ -1254
▁ㄱㅘㄴㅎㅏ -1255
▁ㅇㅣㄹㅜㅇㅓㅈㅣ -1256
▁ㅁㅐㄴ -1257
ㅇㅖ -1258
▁ㅁㅛ -1259
▁192 -1260
▁ㅊㅡㅇ -1261
FA -1262
▁ㅊㅚㄱㅗ -1263
▁ㅂㅜㅌ -1264
▁ㅎㅚㅅㅏ -1265
ㅗㅇㅣ -1266
▁ㅅㅑ -1267
▁ㄱㅡㄹㅣㅅㅡ -1268
▁2017 -1269
ㅇㅚ -1270
▁ㅈㅔㄱㅗㅇ -1271
▁ㄴㅓ -1272
▁ㄴㅐㅇㅛㅇ -1273
ㅊㅚ -1274
▁ㅎㅏㄴㅍㅕㄴ -1275
▁ㄱㅕㄹㄱㅜㄱ -1276
▁ㅅㅣㅅㅡㅌ -1277
▁ㅂㅏㅇㅅㅣㄱ -1278
ㅅㅡㅌㅓ -1279
▁ㄱㅕㄱ -1280
ㅂㅓㄹ -1281
▁ㅇㅕㄴㅎㅏㅂ -1282
▁ㅎㅏㅇㄱㅗㅇ -1283
▁ㄹㅠ -1284
ㅌㅣㅇ -1285
▁ㄱㅗㅇㅅㅣㄱ -1286
▁ㅎㅗㄱ -1287
▁ㄱㅏㅇㅜㄴ -1288
▁ㄷㅡㄹㅏㅁㅏ -1289
▁ㅁㅏㄶㅇㅣ -1290
▁ㅈㅣㄴㅏ -1291
▁ㄷㅗㅋ -1292
▁ㄱㅏㅇㅜㄴㄷㅔ -1293
▁ㅎㅜㅂㅗ -1294
▁ㅇㅢㅇㅝㄴ -1295
▁ㅅㅣㅅㅡㅌㅔㅁ -1296
▁ㅅㅣㄱㅣ -1297
▁ㅊㅜㄹㅈㅓㄴ -1298
▁ㅎㅗㅁ -1299
▁ㅇㅠㅁㅕㅇ -1300
▁ㅇㅣㄴㄱㅏㄴ -1301
▁ㅇㅣㄲ -1302
▁ㅊㅗㄱㅣ -1303
▁ㅇㅕㄱㅎㅏㄹ -1304
▁ㅆㅡㅇㅣ -1305
▁s -1306
▁ㅂㅔㄴ -1307
▁ㅎㅠ -1308
▁ㅈㅏㄴ -1309
▁ㄱㅣㅇㅓㅂ -1310
▁ㄴㅗㅎ -1311
▁ㄹㅡ -1312
ㅍㅣㄹ -1313
▁ㅈㅔㄷㅗ -1314
▁ㄸㅏㄹ -1315
ㅔㄹㅣ -1316
▁ㅁㅣㄴㅈㅗㄱ -1317
▁ㅅㅐㄱ -1318
ㅁㅏㄹ -1319
▁ㄱㅓㅇㅢ -1320
ㅈㅜㄱ -1321
▁ㅇㅜㄹㅣ -1322
▁ㅈㅗㅅㅏ -1323
▁ㅂㅜㄴㄹㅠ -1324
▁ㅅㅜㅅㅏㅇ -1325
▁ㅂㅏㄴㄷㅐ -1326
▁ㄴㅏㅌㅏㄴㅏ -1327
▁ㄱㅏㄹㅣ -1328
▁ㅁㅔㅇㅣ -1329
ㄴㅏㄹ -1330
▁ㄱㅛㅎㅚ -1331
▁ㅈㅣㄱㅜ -1332
ㄹㅑㄱ -1333
▁ㅇㅡㄹㅗㅆㅓ -1334
▁! -1335
ㅍㅜㅇ -1336
▁ㄷㅏㄹㄹㅣ -1337
▁ㄷㅐㅅㅣㄴ -1338
▁ㄴㅜㄴ -1339
▁26 -1340
at -1341
▁ㅇㅓㄴㅇㅓ -1342
ㅊㅣㄱ -1343
▁ㅇㅝ -1344
ㅌㅏㅇ -1345
▁ㅍㅛㅎㅕㄴ -1346
ㅎㅓㄴ -1347
▁ㅌㅡㄱㅂㅕㄹ -1348
▁ㅍㅏㄱ -1349
ㅇㅏㅂ -1350
▁ㅍㅕㅇㄱㅏ -1351
▁ㅇㅠㅈㅣ -1352
▁ㄱㅣㄴㅡㅇ -1353
▁ㄷㅐㅅㅏㅇ -1354
▁ㄴㅏㄱㅏ -1355
▁ㅊㅣㅇ -1356
▁ㅇㅡㄹㅗㅂㅜㅌㅓ -1357
▁ㄱㅠㅁㅗ -1358
▁ㅇㅡㅇ -1359
▁ㄱㅜㄹ -1360
▁28 -1361
▁ㅂㅔㅇㅣ -1362
▁2019 -1363
ㅡㄹㄹㅐㄴㄷㅡ -1364
▁ㅇㅕㄴㄱㅕㄹ -1365
▁ㄷㅗㅇㅅㅣ -1366
▁ㄴㅏㅇㅣ -1367
▁ㄱㅗㅇㄱㅐ -1368
▁27 -1369
▁ㅈㅏㅇㅕㄴ -1370
▁ㄱㅏㄱㄱㅏㄱ -1371
▁ㅁㅓㄹ -1372
▁ㄱㅜㄴㅅㅏ -1373
ㅂㅜㄱㄷㅗ -1374
▁ㄸㅟ -1375
ㅎㅟ -1376
▁ㅁㅏㅈㅣ -1377
▁ㅅㅟ -1378
▁ㅁㅗㅅㅡㅂ -1379
▁ㄹㅗㅂ -1380
▁ㄴㅗㄷㅗㅇ -1381
▁ㅇㅣㄹㅗㄴ -1382
ㅋㅓ -1383
▁ㄷㅡㄹㅇㅓㄱㅏ -1384
▁ㄱㅐㅇㅣㄴ -1385
▁ㄷㅏㄴㅊㅔ -1386
▁2005 -1387
▁ㅈㅓㄴㅎㅏ -1388
▁ㅁㅗㄱㄹㅗㄱ -1389
▁ㅅㅡㅌㅏ -1390
▁ㅎㅗㄹ -1391
ㅋㅓㅂ -1392
▁ㅇㅣㅇㅑ -1393
▁V -1394
▁ㅋㅐㄴ -1395
ㅊㅗㅇ -1396
▁ㄱㅕㅇㅅㅏㅇ -1397
▁ㅇㅣㅁㅁㅕㅇ -1398
▁2000 -1399
▁ㅇㅔㄹ -1400
▁ㅇㅣㅁㅣ -1401
▁ㅎㅕㄴㄷㅐ -1402
▁ㅅㅡㅂ -1403
▁ㅌㅏㅇㅣ -1404
▁ㅇㅓㅇㅑ -1405
▁ㅊㅓㄹㄷㅗ -1406
▁ㅈㅣㄴㅊㅜㄹ -1407
▁ㅇㅣㄴㅈㅓㅇ -1408
▁ㄹㅏㅁ -1409
▁ㄸㅓㄹㅇㅓㅈㅣ -1410
ic -1411
▁ㅅㅡㅇㄹㅣ -1412
▁ㅈㅓㅇㅇㅢ -1413
▁ㅅㅣㅈㅓㄹ -1414
▁ㅁㅓㄱ -1415
▁ㅈㅓㄴㅁㅜㄴ -1416
▁ㅁㅏㅈㅣㅁㅏㄱ -1417
al -1418
▁ㅅㅣㅈㅏㅇ -1419
ㄴㅕㅁ -1420
▁ㅁㅗㄱㅈㅓㄱ -1421
▁ㅈㅣㄷㅗ -1422
ㅌㅡㅇ -1423
▁ㅍㅔㄹ -1424
ㅎㅡㅇ -1425
ㅇㅔ -1426
▁ㅅㅏㄴㅇㅓㅂ -1427
▁ㅎㅜㄴ -1428
▁ㅋㅓㅂ -1429
▁ㄱㅣㄱㅏㄴ -1430
ㅜㅇㅝㄴ -1431
ㅊㅡㅇ -1432
▁ㅇㅑㄱㅜ -1433
▁ㅇㅣㅇㅑㄱㅣ -1434
▁ㄴㅏㄱ -1435
▁ㅈㅓㅇㅊㅐㄱ -1436
▁ㅈㅣㄱㅈㅓㅂ -1437
ㅂㅜㄹ -1438
BS -1439
▁ㄱㅣㅇㅝㄴ -1440
ㅅㅡㄹ -1441
▁ㄴㅡ -1442
▁2004 -1443
▁ㅍㅡㄹㄹㅔㅇㅣ -1444
▁ㅎㅕㄱ -1445
▁ㄱㅐㅊㅚ -1446
▁ㅅㅓㄹㅗ -1447
▁ㅊㅏㄱ -1448
ㅇㅡㅇ -1449
▁ㅁㅗㄷㅔㄹ -1450
▁ㄱㅖㅇㅑㄱ -1451
▁FC -1452
▁ㄱㅗㅇㄱㅏㄴ -1453
▁ㅅㅏㅇㅎㅘㅇ -1454
ㅎㅕㄱ -1455
▁ㄱㅓㄴㅅㅓㄹ -1456
▁ㄱㅓㄴㅁㅜㄹ -1457
▁ㄱㅗㅇㄷㅗㅇ -1458
▁ㅁㅏㅇㅣ -1459
▁ㅂㅣㄹㅗㅅ -1460
▁ㅊㅜㄱㅏ -1461
▁ㄷㅗㄴ -1462
ㄷㅡㅁ -1463
▁ㅇㅣㄴㄷㅗ -1464
▁50 -1465
ㄷㅡㄴ -1466
▁ㄹㅏㅇ -1467
▁ㅎㅘㄹㅇㅑㄱ -1468
ㅅㅜㄱ -1469
▁b -1470
ㄱㅓㄴ -1471
▁ㅂㅜㅅㅏㄴ -1472
▁ㅅㅡㅍㅔㅇㅣㄴ -1473
▁31 -1474
▁ㄱㅓㄹㅣ -1475
▁ㅇㅡㅁㅕㄴ -1476
▁ㄱㅕㅇㅊㅏㄹ -1477
▁ㅎㅕㅇㅅㅓㅇ -1478
▁ㅋㅓㅁㅍ -1479
ㄹㅠㄹ -1480
▁ㅍㅣㅇ -1481
▁ㅈㅗㄹㅇㅓㅂ -1482
▁ㄱㅕㄹㅎㅗㄴ -1483
▁ㅁㅗㄴ -1484
▁29 -1485
▁ㄱㅏㄲ -1486
▁TV -1487
▁ㄴㅗㄹㅐ -1488
ㅎㅏㄱㅈㅏ -1489
ㅐㅁㅍ -1490
is -1491
▁ㅈㅏㄷㅗㅇ -1492
ㅔㅇㅣㄹ -1493
it -1494
▁ㅎㅣㄹ -1495
ㅅㅠ -1496
▁ㅂㅣㅅㅡ -1497
re -1498
▁ㅂㅕㄴㄱㅕㅇ -1499
▁ㅅㅏㄹㅏㅇ -1500
ㅁㅔ -1501
▁ㅅㅏㅅㅏㅇ -1502
ㄹㅓㄴ -1503
ㄱㅗㄹ -1504
ㅈㅏㅂ -1505
▁ㄱㅜㄱㅎㅚ -1506
ㅌㅔㄴ -1507
▁ㅇㅗㄹㄹㅣ -1508
▁ㄱㅛㅅㅜ -1509
▁ㄱㅗㅇㅎㅘㄱㅜㄱ -1510
ㅡㅋㅣ -1511
▁ㅁㅏㅇㅡㄹ -1512
▁ㅌㅏㅁ -1513
▁ㅇㅣㄴㅁㅜㄹ -1514
▁ㅂㅕㄴㅎㅘ -1515
ㅅㅣㅇ -1516
ㅂㅣㅈㅓㄴ -1517
ㄴㅣㄷㅏ -1518
ㅇㅡㅋㅣ -1519
▁ㅌㅔㄹㄹㅔ -1520
▁ㅌㅏㅂ -1521
▁190 -1522
ㄲㅣ -1523
▁ㄴㅗㅅㅓㄴ -1524
▁ㅇㅗㅅㅡㅌㅡㄹ -1525
ㄱㅏㄹ -1526
▁ㅈㅜㅇㅎㅏㄱㄱㅛ -1527
ㄷㅓㄴ -1528
ㄹㅠㄱ -1529
▁ㄴㅏㅈ -1530
▁2020 -1531
▁ㅇㅣㄴㅁㅣㄴㄱㅗㅇ -1532
▁ㅇㅣㄴㅁㅣㄴㄱㅗㅇㅎㅘㄱㅜㄱ -1533
ㄹㅐㄴㄷㅡ -1534
▁ㄱㅡㄱㅓㅅ -1535
▁ㅇㅘㄴㅈㅓㄴ -1536
▁ㄷㅏㄹㅡ -1537
▁ㄱㅕㄴ -1538
ㅍㅗㄴ -1539
ou -1540
ㅔㄹㅏ -1541
▁ㅂㅗㅌㅗㅇ -1542
▁ㅅㅣㅂ -1543
ㅏㄷㅏ -1544
ㄹㅖ -1545
▁ㅅㅓㅂㅣㅅㅡ -1546
ㄴㅏㅁㄷㅗ -1547
▁ㅁㅏㄹㅡ -1548
▁ㅈㅣㄱㅡㅁ -1549
▁ㅈㅐㄱ -1550
ㅇㅣㄱ -1551
▁ㄹㅗㄴ -1552
▁ㅎㅏㄱㅅㅐㅇ -1553
▁ㅇㅕㄱㅅㅣ -1554
▁ㄹㅗㄱ -1555
▁ㅅㅣㄹㅈㅔ -1556
ㅅㅏㄱ -1557
▁ㅎㅔ -1558
ㅇㅛㄱ -1559
ㅈㅡㅁ -1560
▁ㅅㅗㅅㅓㄹ -1561
▁ㅊㅚㄷㅐ -1562
▁ㅇㅜㅁ -1563
▁ㅈㅓㄴㄱㅜㄱ -1564
▁ㅇㅢㅎㅚ -1565
▁ㅈㅜㅇㅎㅘ -1566
ㅌㅔㄹ -1567
▁ㅎㅓㅇ -1568
ㅇㅕㄱㅅㅣ -1569
▁ㅈㅣㅈㅣ -1570
▁ㅁㅏㄴㄴㅏ -1571
ㅇㅏㅇㅗ -1572
▁ㄱㅕㅁ -1573
ㅡㄹㅣㅋㅏ -1574
▁ㅍㅜㄹ -1575
▁ㄱㅏㅂ -1576
▁ㄴㅏㅇ -1577
▁ㅇㅣㄹㅇㅡㅋㅣ -1578
ㄷㅐㄹㅗ -1579
▁ㅏ -1580
▁ㄱㅣㅂㅗㄴ -1581
▁ㄹㅕ -1582
ㅜㄱㅣ -1583
ㅇㅜㄴ -1584
ㅍㅡㅌㅡ -1585
▁ㄱㅏㅅㅜ -1586
▁ㅅㅣㅇㄱㅡㄹ -1587
ㅎㅘㄱ -1588
▁ㅇㅝㄴㄹㅐ -1589
▁ㅇㅛㄱㅜ -1590
▁ㅂㅐㄴㄷㅡ -1591
▁ㄱㅕㅇㄱㅣㄷㅗ -1592
▁ㅎㅘㅇㅈㅔ -1593
▁ㄴㅗㅍㅇㅣ -1594
▁ㄱㅣㅂㅏㄴ -1595
▁ㅈㅓㄴㅌㅗㅇ -1596
▁ㅌㅚ -1597
▁ㅍㅜ -1598
▁2002 -1599
▁ㅌㅜㅇ -1600
ㄹㅕ -1601
▁ㅇㅓㅄㅇㅣ -1602
ㄹㅔㄱ -1603
ㅋㅏㄴ -1604
▁ㅍㅗㅇ -1605
ㅌㅡㄱ -1606
ㅟㄴ -1607
▁ㅈㅣㅎㅏ -1608
▁ㄱㅏㄹㅣㅋㅣ -1609
▁ㄹㅣㅂ -1610
▁ㅇㅜㅈㅜ -1611
▁ㅅㅜㄷㅗ -1612
▁ㄹㅜㅇ -1613
ㅅㅔㄴ -1614
▁40 -1615
▁ㄱㅔㅆ -1616
▁ㅊㅓ -1617
▁ㅊㅏㅇㅣ -1618
▁ㅈㅏㄹㅛ -1619
▁ㅂㅣㅍㅏㄴ -1620
▁2003 -1621
▁ㄱㅐㄱ -1622
▁ㅈㅣㅇ -1623
▁ㅇㅓㄸㅓㄴ -1624
▁ㅁㅣㅇ -1625
▁ㅈㅏㄱㅣ -1626
▁ㄸㅓㄴㅏ -1627
▁ㅇㅜㄴㅎㅐㅇ -1628
ㄷㅜㅇ -1629
ㄱㅜㄹ -1630
ㅇㅏㄱㅏ -1631
▁ㅈㅗㅇㄱㅛ -1632
▁ㅅㅔㄴㅌㅓ -1633
▁ㅅㅜㅎㅐㅇ -1634
▁ㅁㅗㅇㅑㅇ -1635
ㅈㅚ -1636
▁ㅅㅡㅇㄱㅏㅇ -1637
ㅓㅎㄱㅔ -1638
▁ㅎㅘㄴㄱㅕㅇ -1639
▁ㅅㅔㄹㅕㄱ -1640
ㅊㅗㄴ -1641
▁ㅈㅓㄴㄱㅣ -1642
▁ㄷㅗㅋㅛ -1643
▁ㅅㅣㅅㅓㄹ -1644
▁ㄴㅐㄹㅣ -1645
▁ㅂㅓㄹㅣ -1646
▁ㅅㅗㄹㅕㄴ -1647
▁ㅁㅕㅇㅊㅣㅇ -1648
▁ㅎㅚㅇㅢ -1649
▁ㅌㅔㄹㄹㅔㅂㅣㅈㅓㄴ -1650
▁ㅍㅏㄴㅁㅐ -1651
▁ㅇㅣㄲㅡㄹ -1652
▁ㄹㅓㄴ -1653
ㅂㅔ -1654
ㄹㅔㄴ -1655
ㄹㅣㅅㅡ -1656
▁ㄱㅣㄴㅕㅁ -1657
▁ㄴㅏㅌㅏㄴㅐ -1658
▁ㄸㅏㄹㅏ -1659
▁ㅌㅡㄱㅈㅣㅇ -1660
le -1661
▁ㄷㅓㄱ -1662
▁ㅎㅟ -1663
▁ㄱㅓㄹㅊㅣ -1664
▁ㅇㅝㄹㄷㅡㅋㅓㅂ -1665
▁ㄱㅜㅇㅕㄱ -1666
ㄷㅔㄴ -1667
▁ㅇㅕㅁ -1668
mp -1669
▁ㅋㅏㅁ -1670
▁ㅂㅜㄴㅇㅑ -1671
ㅏㅇㅘ -1672
▁ㄹㅔㄴ -1673
▁ㄹㅣㄴ -1674
▁ㅍㅣㄴ -1675
▁ㅁㅠ -1676
ㅓㄹㄹㅣ -1677
▁ㄱㅗㅇㅇㅕㄴ -1678
▁ㅇㅣㄷㅗㅇ -1679
▁ㅇㅖㅅㅜㄹ -1680
▁ㄴㅏㅁㅈㅏ -1681
▁ㅂㅗㅎㅗ -1682
▁ㅅㅣㄹㅅㅣ -1683
▁ㄱㅣㄷㅗㄱ -1684
ㅍㅔ -1685
▁ㄱㅡㄹㅐ -1686
▁ㅇㅕㄴㅂㅏㅇ -1687
▁ㄷㅗㅇㅁㅜㄹ -1688
▁ㄱㅛㅎㅘㅇ -1689
▁ㄷㅗㅇㅣㅂ -1690
▁ㅅㅓㄴㅈㅓㅇ -1691
▁ㄱㅣㅇ -1692
▁ㅅㅓㄹㅁㅕㅇ -1693
▁ㅋㅓㄴ -1694
ㅇㅓㅁ -1695
ㄹㅕㄹ -1696
▁ㅈㅏㄱㅇㅓㅂ -1697
▁= -1698
▁ㅎㅔㄹ -1699
▁ㅂㅜㄷㅐ -1700
ㅠㅁ -1701
▁ㅇㅟㄴ -1702
▁ㄷㅓㅇ -1703
▁ㄴㅏㅁㅉㅗㄱ -1704
▁ㄸㅏㅇ -1705
▁ㅂㅜㄱㅉㅗㄱ -1706
▁ㅌㅗㅇㅎㅏㅂ -1707
▁ㄴㅓㄼ -1708
▁ㄸㅏㄹㅏㅅㅓ -1709
▁ㄷㅓㅂ -1710
▁ㅈㅏㄱㅇㅛㅇ -1711
▁ㅊㅜㄹㅅㅣ -1712
▁ㅎㅐㅇㄷㅗㅇ -1713
ㅍㅗㄹ -1714
▁ㄱㅛㅌㅗㅇ -1715
▁ㄷㅡㄱ -1716
ㄷㅗㄴ -1717
ㅂㅣㄴ -1718
▁ㅅㅡㅇㄱㅏㅇㅈㅏㅇ -1719
▁ㅊㅏㄹㅑㅇ -1720
▁ㄱㅏㅈㅗㄱ -1721
▁ㅂㅏㅇㅎㅑㅇ -1722
ㄱㅟ -1723
▁ㅋㅡㄹㄹㅓㅂ -1724
ㅈㅟ -1725
▁ㅈㅡㅇㄱㅏ -1726
▁ㄱㅣㅈㅗㄴ -1727
▁ㄴㅡㅇㄹㅕㄱ -1728
▁ㅇㅕㄱㅇㅣㅁ -1729
▁ㅈㅔㅇㅚ -1730
▁ㅈㅏㄱㄱㅏ -1731
▁ㅁㅜㄴㅎㅏㄱ -1732
▁ㅎㅘㄱㅇㅣㄴ -1733
ㄷㅡㄹㅇㅣ -1734
▁ㅇㅗㄻ -1735
▁ㅂㅣㅅㅡㅅ -1736
▁ㄱㅗㄴ -1737
▁ㄱㅜㄴㄷㅐ -1738
ㅌㅓㄹ -1739
▁ㅂㅏㄹㅗ -1740
▁ㄱㅗㄷ -1741
▁ㅌㅐㅇㅑㅇ -1742
▁ㅎㅕㅇㅅㅣㄱ -1743
ㅎㅕㅂ -1744
▁ㅈㅣㅎㅟ -1745
▁ㅁㅡㄹㅗ -1746
▁ㅎㅐㅇㅇㅟ -1747
▁ㅋㅓㅁㅍㅠ -1748
▁ㅇㅕㄹㅊㅏ -1749
▁ㅇㅓㅁㅓㄴㅣ -1750
▁ㅇㅣㄸㅐ -1751
▁ㅎㅡㄹ -1752
▁ㅅㅏㄱㅗ -1753
▁ㅁㅐㅇ -1754
▁ㅈㅏㄱㄱㅗㄱ -1755
▁ㅎㅕㄱㅁㅕㅇ -1756
ㅎㅜㄴ -1757
▁ㅋㅗㅇ -1758
ㅌㅏㄱ -1759
ㅇㅕㅁ -1760
▁ㅇㅠㅇㅣㄹ -1761
▁FI -1762
▁ㅇㅘㅇㄱㅜㄱ -1763
▁ㅎㅛㄱㅘ -1764
▁ㄱㅡㄹㅓ -1765
ㅂㅔㄹ -1766
ㅇㅠㄱ -1767
▁ㅌㅗㄹ -1768
▁ㅇㅣㅈㅓㄱ -1769
▁ㅇㅗㄻㄱㅣ -1770
BC -1771
▁ㄷㅗㄹㅗ -1772
▁ㄱㅏㅇㅎㅏ -1773
▁ㄱㅘㄱㅓ -1774
▁ㄹㅕㄱ -1775
▁ㅎㅕㅂㅎㅚ -1776
ㅁㅣㄹ -1777
▁ㄱㅣㄷㅗㄱㄱㅛ -1778
▁ㅂㅓㅅㅡ -1779
▁ㄴㅡㄹ -1780
▁ㅍㅔㄴ -1781
▁ㅅㅐㅇㄱㅣ -1782
▁ㅊㅜㅈㅓㅇ -1783
▁ㅎㅗㄱㅇㅡㄴ -1784
▁ㅎㅡㅇ -1785
▁ㅋㅐㄴㅏㄷㅏ -1786
ㅌㅗㄴ -1787
▁ㄴㅏㅁㅂㅜ -1788
▁ㄴㅓㅎ -1789
ㅈㅔㄹ -1790
▁ㅍㅡㄹㅣ -1791
ㅋㅗㅇ -1792
▁ㄴㅠㅇㅛㄱ -1793
▁ㅈㅓㄴㅈㅏ -1794
▁ㅎㅡㄴ -1795
▁ㅎㅏㄹ -1796
ㅂㅕㄱ -1797
▁ㅇㅐㄱ -1798
▁ㅈㅣㅂㅐ -1799
ㄹㅏㅇ -1800
▁ㅉㅗㄱ -1801
ㅎㅛ -1802
▁ㄱㅏㅈㅊㅜ -1803
▁ㄴㄷㅔ -1804
▁ㅇㅠㄱㄱㅜㄴ -1805
▁ㄷㅏㅁㄷㅏㅇ -1806
▁ㅇㅗㅍ -1807
ㅈㅏㄹㅣ -1808
▁ㄱㅓㄷㅜ -1809
ㅆㅣ -1810
▁ㅅㅡㅁ -1811
▁2001 -1812
▁ㄷㅗㅇㅇㅣㄹ -1813
▁ㄷㅗㅇㅉㅗㄱ -1814
▁ㅂㅣㄱㅛ -1815
▁1990 -1816
ㅞㅇㅓ -1817
▁ㅈㅜㅂㅕㄴ -1818
▁X -1819
▁p -1820
▁ㅋㅣㅇ -1821
▁ㄱㅜㄱㅏㄴ -1822
▁ㅇㅣㅇㅓㅈㅣ -1823
▁ㅎㅚㄱ -1824
▁ㄱㅗㅇㅅㅏㄴ -1825
▁ㅈㅏㅇㄱㅘㄴ -1826
ㅋㅔㅅ -1827
▁ㅅㅡㅌㅡㄹ -1828
▁ㅍㅜㅁ -1829
▁ㅁㅜㄹㄹㅣ -1830
▁ㅅㅣㅁㅣㄴ -1831
▁ㅋㅓㅁㅍㅠㅌㅓ -1832
▁ㅇㅖㅈㅓㅇ -1833
▁ㄱㅓㄴㅊㅜㄱ -1834
▁ㅈㅗㅈㅣ -1835
▁ㅇㅣㄴㄱㅣ -1836
▁ㅈㅓㅇㄷㅏㅇ -1837
▁ㅍㅐㄴ -1838
▁ㅊㅜㅇㅊㅓㅇ -1839
▁ㅋㅔㅇㅣ -1840
▁ㅌㅗㄴ -1841
ㄷㅓㄹ -1842
▁ㅅㅓㅉㅗㄱ -1843
▁ㅇㅐㄴㅣㅁ -1844
ㅇㅜㅅㅡ -1845
▁ㅁㅔㅁ -1846
ㅇㅢㅇㅝㄴ -1847
▁189 -1848
▁ㅇㅏㄹㅡ -1849
▁ㄱㅐㄴㅕㅁ -1850
▁ㅅㅏㄷㅏㄴ -1851
▁ㅁㅏㄷㅏ -1852
▁ㅋㅡㄱㅣ -1853
▁ㅈㅓㄱㅇㅛㅇ -1854
▁ㅇㅔㄴㅓㅈㅣ -1855
▁ㅇㅗㄴㅡㄹ -1856
▁ㅅㅓㅇㅈㅏㅇ -1857
▁ㅊㅏㄹㅖ -1858
▁ㄱㅣㅌㅏ -1859
▁ㄱㅚ -1860
ㄱㅜㅇ -1861
▁ㅇㅠㅇ -1862
▁ㅅㅏㅇㄷㅏㅇ -1863
▁ㅎㅡㄱ -1864
ㅈㅏㅇㅣㄴ -1865
▁ㅁㅏㅇㅡㅁ -1866
▁ㄱㅜㄱㄴㅐ -1867
▁ㅈㅟ -1868
▁ㅊㅣㄹㅡ -1869
▁ㅊㅏㄴ -1870
▁d -1871
ㅅㅡㅋㅡ -1872
▁ㅇㅓㄹㅣ -1873
ㅂㅣㅇ -1874
▁ㅂㅏㄲㅜ -1875
▁ㄷㅣㅈㅏㅇㅣㄴ -1876
▁ㅇㅔㄴㅈㅣㄴ -1877
▁ㅁㅣㄴㅈㅜㅈㅜㅇㅢ -1878
▁ㅈㅗㄱㅓㄴ -1879
▁ㅅㅔㅍㅗ -1880
▁ㄱㅗㅇㅅㅏ -1881
ㅅㅡㅌㅏㄴ -1882
▁ㅂㅏㅇㅇㅕㅇ -1883
▁ㅁㅓㄹㅣ -1884
▁ㅂㅓㅈㅓㄴ -1885
ㄴㅗ -1886
ㅋㅓㄹ -1887
ㅋㅣㄴ -1888
ㅊㅐ -1889
▁ㄱㅜㄱㄹㅣㅂ -1890
▁ㄴㅈㅣ -1891
▁ㅇㅗㄹㅐ -1892
ㄱㅅㅡ -1893
▁ㅈㅏㄱㅈㅓㄴ -1894
▁ㅈㅏㅊㅔ -1895
▁FIFA -1896
▁ㄱㅗㅇㅎㅏㅇ -1897
▁ㅈㅗㅇㄹㅠ -1898
ㄱㅐㄱ -1899
▁ㅂㅏㄴㅇㅡㅇ -1900
▁ㅅㅜㄹㅗㄱ -1901
ㅅㅐ -1902
▁ㅂㅣㅎㅏ -1903
el -1904
▁ㅇㅕㄴㄱㅣ -1905
et -1906
ㅊㅟ -1907
▁ㅌㅡㄱㅈㅓㅇ -1908
▁ㅅㅣㄹㅍㅐ -1909
▁ㅋㅡㄹㅣㅅㅡ -1910
▁ㄱㅓㅂ -1911
▁ㅅㅓㄴㅇㅓㄴ -1912
▁ㄷㅗㄹㅇㅏㅇㅗ -1913
ㅁㅐㄱ -1914
▁ㅎㅐㄱㅜㄴ -1915
▁ㄷㅔㄴ -1916
▁ㅇㅕㄴㅅㅗㄱ -1917
▁ㅇㅐㄴㅣㅁㅔㅇㅣㅅㅕㄴ -1918
▁ㅅㅟㅂ -1919
▁ㅇㅓㄴㅡ -1920
▁ㅌㅏㄱ -1921
▁ㅇㅣㄹㅓㄴ -1922
ㅈㅘ -1923
▁ㅎㅓ -1924
▁ㅂㅜㅈㅗㄱ -1925
▁ㅅㅔㄹ -1926
ㄱㅏㅈㅣ -1927
▁ㄸㅏ -1928
▁ㄱㅠㅈㅓㅇ -1929
▁ㅅㅓㄴㅊㅜㄹ -1930
▁ㅅㅓㄴㅌㅐㄱ -1931
▁ㄱㅗㄷㅐ -1932
▁ㅁㅔㅁㅂㅓ -1933
▁ㅂㅜㄱㅂㅜ -1934
▁ㄱㅣㅇㅝㄴㅈㅓㄴ -1935
▁ㅈㅏㅊㅣ -1936
▁ㄷㅏㄹㅜ -1937
▁ㅈㅗㅇㅑㄱ -1938
ion -1939
▁ㅅㅗㄱㄷㅗ -1940
▁ㅎㅓㄴㅂㅓㅂ -1941
▁ㅊㅔㅈㅔ -1942
▁ㅇㅖㅅ -1943
▁ㅇㅣㅅㅏ -1944
▁ㅇㅣㄴㅊㅓㄴ -1945
▁ㄱㅕㄹㅅㅡㅇ -1946
▁ㄴㅐㅂㅜ -1947
▁ㅇㅕㅇㅇㅓ -1948
▁ㅇㅕㄴㄷㅐ -1949
ㄱㅌㅡ -1950
▁ㄴㅏㄴㅜ -1951
ㅅㅜㅇ -1952
ㅊㅣㄴ -1953
ing -1954
▁ㅍㅣㅎㅐ -1955
ㅋㅗㄹ -1956
▁ㅅㅡㅍㅗ -1957
▁ㅇㅙ -1958
▁ㅇㅣㄴㅌㅓㄴ -1959
ㅜㄹㅏ -1960
ㄱㅡㄹㄹㅐㄴㄷㅡ -1961
▁ㅁㅕㅇㄹㅕㅇ -1962
▁ㅂㅣㅁ -1963
▁ㅇㅗㅅ -1964
▁ㄱㅏㅊㅣ -1965
▁ㅇㅕㄴㅈㅜ -1966
▁ㅅㅓㄹㄱㅖ -1967
▁ㅁㅓㄴ -1968
▁ㄷㅏㄴㄱㅖ -1969
▁ㅈㅓㅇㅅㅣㄴ -1970
ㅅㅏㅁ -1971
▁ㅁㅜㄹㅈㅣㄹ -1972
▁ㄹㅕㄴ -1973
▁ㅊㅓㄱ -1974
▁ㅂㅏㅁ -1975
▁ㅊㅚㅈㅗㅇ -1976
ㅌㅡㄴㅏㅁ -1977
▁ㄷㅏㄹㄹㅓ -1978
ㅈㅏㄴ -1979
ㅎㅗㄱ -1980
▁ㄴㅡㄴㅈㅣ -1981
▁ㅊㅚㄱㅡㄴ -1982
▁ㅂㅣㅎㅐㅇ -1983
▁1999 -1984
ol -1985
▁ㄱㅐㅎㅕㄱ -1986
▁ㅈㅣㅁㅕㅇ -1987
▁ㅍㅛㅈㅜㄴ -1988
▁ㅊㅜㄹㅍㅏㄴ -1989
▁ㅊㅣㄴㄱㅜ -1990
ㄱㅣㄹ -1991
21 -1992
▁ㅋㅓ -1993
▁ㄱㅏㄲㅏㅂ -1994
▁ㅍㅕㅇㄱㅠㄴ -1995
▁ㅂㅜㄴㅅㅓㄱ -1996
▁ㅉㅏ -1997
▁ㅇㅏㅅㅣㅇㅏ -1998
▁ㅎㅜㅇ -1999
▁cm -2000
ㅞㅇㅣ -2001
ㅅㅣㅁㅏ -2002
ㄷㅏㅂ -2003
▁1998 -2004
▁ㅎㅏㄱㅖ -2005
▁o -2006
▁ㅎㅏㅁㅅㅜ -2007
▁Y -2008
ㅣㅅㅡㅌㅡ -2009
▁ㅊㅔㄱㅖ -2010
▁ㅂㅐㅊㅣ -2011
▁ㄱㅗㅇㅇㅝㄴ -2012
▁ㅇㅢㅅㅏ -2013
▁ㅅㅏㅁㅜ -2014
▁ㅂㅜㅁㅜㄴ -2015
ㄷㅡㄹㅣ -2016
▁ㅊㅣㄹㅛ -2017
▁ㄱㅗㅇㄹㅣㅂ -2018
ㅔㄹㅣㅋㅏ -2019
ㅊㅓㄱ -2020
▁ㄱㅏㅇㅎㅘ -2021
▁ㅈㅐㅇ -2022
▁ㄱㅘㄴㅎㅏㄹ -2023
▁ㅆㅣㄱ -2024
ㅜㄱㅜ -2025
ㅋㅣㅇ -2026
▁ㅎㅚㄱㄷㅡㄱ -2027
ㅍㅡㄹㄹ -2028
▁1980 -2029
▁ㅂㅜㄴㄹㅣ -2030
▁ㅇㅣㅂㄷㅏㄴ -2031
▁ㅇㅣㅇㄱㅡㄹㄹㅐㄴㄷㅡ -2032
ㅍㅖ -2033
ㅎㅐㄱ -2034
▁ㄴㅏㅁㄱㅣ -2035
▁ㄱㅐㅇㅝㄹ -2036
▁ㄴㅐㄱ -2037
▁ㅂㅓㅂㅇㅝㄴ -2038
▁ㅈㅣㅂㄷㅏㄴ -2039
▁60 -2040
ㅍㅣㄴ -2041
ㅏㅎ -2042
▁ㅇㅓㄴㄱㅡㅂ -2043
▁35 -2044
▁ㅇㅠㅅㅏ -2045
▁ㅈㅔㅍㅜㅁ -2046
▁ㅂㅜㄱㅎㅏㄴ -2047
▁ㅎㅘㄱㅈㅏㅇ -2048
▁ㄹㅐ -2049
▁ㄲㅗㅊ -2050
▁ㄴㅏㅁㅜ -2051
▁mm -2052
▁ㄷㅓㅇㅜㄱ -2053
▁ㄱㅘㄴㅅㅣㅁ -2054
ㅏㅇㅣㄹ -2055
▁ㅊㅐㅁㅍ -2056
▁ㅎㅕㄴㅅㅏㅇ -2057
ㅉㅐ -2058
▁ㅊㅓㄹㅣ -2059
▁ㅂㅜㅅㅏㅇ -2060
▁ㅅㅗㅇㅠ -2061
▁ㅈㅡ -2062
ㅅㅙ -2063
▁ㅁㅐㅈ -2064
▁ㅈㅣㅅㅗㄱ -2065
▁ㅅㅡㅍㅗㅊㅡ -2066
▁ㅋㅔ -2067
ㅓㅇㅗ -2068
▁ㅎㅏㅇㅣ -2069
▁ㅅㅣㄹㅎㅓㅁ -2070
▁ㅈㅗㅈㅓㅇ -2071
▁ㅊㅐㅁㅍㅣㅇㅓㄴ -2072
▁ㄷㅐㅈㅜㅇ -2073
▁ㄷㅔㅇㅣㅌㅓ -2074
▁ㅅㅓㄴㅂㅏㄹ -2075
ㅋㅡㅁ -2076
▁ㄱㅓㅈㅜ -2077
▁n -2078
▁ㄷㅗㅇㅜㅁ -2079
▁ㅈㅣㄴㅣ -2080
ㅎㅗㅇ -2081
▁ㅈㅓㅇㄱㅠ -2082
▁ㅌㅗㅇㅇㅣㄹ -2083
▁ㅈㅏㅇㄱㅜㄴ -2084
▁ㅈㅜㄷㅗ -2085
▁ㅁㅗㄱㅍㅛ -2086
▁ㅇㅏㄹㄹㅔㄱ -2087
▁ㅍㅏㄹㅣ -2088
▁ㄱㅗㅈㅏ -2089
▁ㅃㅏㄹㅡ -2090
ㅅㅓㅅ -2091
▁ㅂㅣㅊ -2092
▁ㅇㅛㅅㅗ -2093
▁ㅇㅣㄹㅈㅗㅇ -2094
ㅗㅅㅡ -2095
▁ㅇㅚㄱㅜㄱ -2096
▁ㄱㅗㅅㅗㄱ -2097
▁ㄱㅜㄷㅏㄴ -2098
▁ㅍㅕㄴㅅㅓㅇ -2099
▁ㅁㅏㅊㅣ -2100
▁ㅈㅏㄷㅗㅇㅊㅏ -2101
▁ㅇㅞㅂ -2102
▁ㅈㅐㅍㅏㄴ -2103
▁ㅅㅣㅎㅓㅁ -2104
ㅍㅗㄱ -2105
▁ㅈㅜㅇㅣㄴ -2106
ㅋㅗㄴ -2107
ㄷㅣㅇㅓ -2108
▁ㅂㅏㄲㅟ -2109
▁ㄱㅐㅂㅗㅇ -2110
▁ㄱㅣㄹㅇㅣ -2111
▁ㅇㅓㄹㅕㅂ -2112
▁ㅈㅓㅁㄹㅕㅇ -2113
▁ㄴㅔㄷㅓㄹ -2114
▁ㅌㅗㅇㅅㅣㄴ -2115
▁ㅇㅖㅅㅓㄴ -2116
▁ㅍㅗㄹㅡ -2117
om -2118
ㅎㅖ -2119
▁ㅎㅗㅅ -2120
▁ㅈㅜㅁㅣㄴ -2121
▁ㅅㅏㄹㅕㅇ -2122
▁ㄹㅗㅇ -2123
▁ㅂㅜㄹㄱㅛ -2124
▁ㄱㅕㄹㅎㅏㅂ -2125
▁ㅎㅑㅇㅎㅏ -2126
▁ㅅㅣㄷㅗ -2127
▁ㅊㅓㅂ -2128
▁ㅓ -2129
▁ㅈㅏㅇㅊㅣ -2130
▁ㅂㅗㄴㅅㅓㄴ -2131
▁ㅎㅜㅂㅏㄴ -2132
▁ㅇㅏㅇㅣㄹ -2133
▁ㄱㅕ -2134
▁ㅎㅏㄱㅈㅏ -2135
▁ㅎㅐㅇㅅㅏ -2136
ㅘㄹ -2137
▁1997 -2138
▁ㅁㅜㄴㅅㅓ -2139
ㅇㅗㄱ -2140
ㅈㅔㄱㅌㅡ -2141
▁ㅇㅣㅀ -2142
▁ㅎㅕㄹ -2143
▁ㅇㅔㅇㅣ -2144
▁ㄷㅐㄱㅜ -2145
▁ㅇㅏㄴㅈㅓㅇ -2146
▁ㄷㅏㅁㅕㄴ -2147
▁ㄷㅗㅇㅁㅐㅇ -2148
▁ㄷㅏㅇㅣ -2149
ㅂㅏㄷ -2150
▁ㅂㅐㅇ -2151
▁ㄱㅣㅍ -2152
▁ㄱㅣㅅㅏ -2153
ㄷㅚ -2154
▁ㄱㅡㄹㅓㅎ -2155
▁ㅅㅖ -2156
▁ㅇㅣㅇㅓ -2157
▁ㅂㅔㅌㅡㄴㅏㅁ -2158
▁ㅅㅜㅈㅜㄴ -2159
▁ㄹㅕㄱㅗ -2160
st -2161
▁ㅍㅔㅇㅣ -2162
ㅂㅓㅅㅡ -2163
ㅁㅔㄷㅏㄹ -2164
▁ㅍㅗㄴ -2165
▁ㅅㅡㄹㅓㅂ -2166
▁ㄱㅡㄹㅣㅁ -2167
▁ㅅㅏㅈㅣㄴ -2168
▁ㄱㅏㅁㅜㄴ -2169
▁ㅇㅓㄴㄹㅗㄴ -2170
▁ㄱㅏㄹㅡ -2171
▁ㅁㅣㅊㅣ -2172
▁ㅁㅜㄴㅈㅏ -2173
▁ㅊㅐㄱㅇㅣㅁ -2174
▁1995 -2175
▁ㅅㅣㄴㅁㅜㄴ -2176
▁1996 -2177
▁The -2178
▁ㅌㅜㅍㅛ -2179
ㅇㅝㄹ -2180
▁ㄱㅜㅂㅜㄴ -2181
▁ㅈㅓㅇㅎㅏ -2182
ㅋㅡㄹㄹ -2183
▁ㅇㅏㅍㅡㄹㅣㅋㅏ -2184
▁ㅂㅏㅇㅁㅜㄴ -2185
ㅌㅡㄱㅂㅕㄹ -2186
ㅗㅂ -2187
▁ㅇㅛㅇㅇㅓ -2188
▁ㅇㅠㅈㅓㄴ -2189
▁ㅈㅓㅇㄹㅣ -2190
▁amp -2191
▁ㄲㅡㅌㄴㅏ -2192
▁ㄱㅏㅄ -2193
▁32 -2194
▁ㅇㅛㄹㅣ -2195
▁ㄱㅏㅈㅓㅇ -2196
▁ㅈㅓㅇㅎㅘㄱ -2197
▁ㅌㅗㅇㄱㅘ -2198
▁ㄷㅡㅅ -2199
▁ㅂㅣㄷㅣㅇㅗ -2200
▁70 -2201
ㅅㅡㅌㅓㄴ -2202
ㅗㅊ -2203
ㅅㅣㅂ -2204
ㅎㅡ -2205
▁ㅇㅣㅎㅐ -2206
▁ㄹㅣㅁ -2207
▁ㅇㅣㄹㅈㅔ -2208
▁ㅇㅡㄴㅌㅚ -2209
▁ㅂㅜㄹㄱㅜ -2210
▁ㅍㅡㄹㅗㅈㅔㄱㅌㅡ -2211
▁ㅈㅓㅇㄱㅝㄴ -2212
▁ㅋㅔㄴ -2213
▁ㅂㅜㅇㅣㄴ -2214
▁ㅇㅘㅇㅈㅗ -2215
▁ㅈㅜㄴㅂㅣ -2216
▁ㅇㅗㄴㅡㄹㄴㅏㄹ -2217
▁ㅅㅓㅇㅈㅓㄱ -2218
▁ㄴㅓㄹㄹㅣ -2219
▁ㄹㅓㄴㄷㅓㄴ -2220
▁ㄱㅕㅇㅎㅓㅁ -2221
▁ㄷㅓㄹ -2222
ㅇㅐㄱ -2223
▁ㄷㅐㄹㅗ -2224
▁ㅈㅗㅇㅎㅏㅂ -2225
▁ㅍㅕㅇㅎㅘ -2226
▁ㅁㅕㄹ -2227
▁ㅇㅝㄴㅇㅣㄴ -2228
▁ㅂㅏㄷㅏ -2229
▁ㄱㅏㅇㅣ -2230
▁ㅂㅕㅇㅇㅝㄴ -2231
▁ㅇㅣㄱㅗㅅ -2232
▁ㅁㅕㄴㅈㅓㄱ -2233
ㄴㅡㅇ -2234
▁ㅁㅣㄷ -2235
ㅇㅓㅆ -2236
▁ㅊㅜㅈㅣㄴ -2237
▁500 -2238
▁ㅅㅡㅇㅟ -2239
▁ㅇㅣㄴㅌㅓㄴㅔㅅ -2240
▁the -2241
ㅋㅏㄹ -2242
▁ㅈㅜㅇㅕㄴ -2243
ㅏㅁㅣ -2244
▁ㅍㅖㅈㅣ -2245
▁ㄴㅔㄷㅓㄹㄹㅏㄴㄷㅡ -2246
▁ㅇㅏㅈㅣㄱ -2247
am -2248
▁ㅇㅣㄷㅡㅁ -2249
▁ㅈㅓㅂㅎㅏ -2250
▁ㅁㅏㄴㅎㅘ -2251
ㅂㅣㅇㅏ -2252
▁ㅇㅠㄹㅐ -2253
▁ㅌㅗㅇㅊㅣ -2254
▁ㅂㅓㄴㅎㅗ -2255
▁ㅇㅕㅇㅇㅕㄱ -2256
▁ㅊㅗㅇㄹㅣ -2257
▁ㄱㅏㅅㅡ -2258
▁ㅁㅗㄹㅡ -2259
▁ㅁㅜㄷ -2260
▁ㅇㅡㅁㅡㄹㅗ -2261
ㄷㅣㄴ -2262
▁ㅎㅐㅅㅓㄱ -2263
▁ㅅㅓㅂㅜ -2264
▁ㄱㅕㅇㄱㅣㅈㅏㅇ -2265
▁ㅈㅔㅈㅜ -2266
ㅏㅇㅜ -2267
▁ㄷㅗㅅㅓ -2268
▁ㅍㅡ -2269
▁ㅎㅜㄴㄹㅕㄴ -2270
▁ㄱㅕㅇㅈㅐㅇ -2271
▁ㅌㅐㄱ -2272
▁80 -2273
▁188 -2274
▁ㅍㅓ -2275
▁ㅁㅣㅅㅜㄹ -2276
▁ㄹㅕㄴㅡㄴ -2277
ㅅㅡㅌㅏ -2278
ㅎㅣㄹ -2279
▁ㄱㅜㄱㅎㅚㅇㅢㅇㅝㄴ -2280
▁ㄱㅞ -2281
▁ㄱㅣㅇㅕ -2282
▁ㄱㅕㅇㅇㅕㅇ -2283
▁ㅇㅕㄴㅁㅐㅇ -2284
▁UE -2285
▁ㅇㅣㄷㅡㅁㅎㅐ -2286
▁+ -2287
il -2288
ㅂㅓㄴ -2289
▁ㅎㅚㅈㅏㅇ -2290
▁ㅅㅣㄴㄹㅏ -2291
▁ㅍㅏㄱㅚ -2292
▁ㄴㅏㅁㅅㅓㅇ -2293
▁ㅈㅏㅈㅜ -2294
▁ㅁㅗㅇㅡ -2295
▁ㅈㅜㅈㅔ -2296
▁1994 -2297
▁ㅎㅐㅇㅅㅓㅇ -2298
▁ㄱㅕㅇㄱㅖ -2299
▁ㅁㅓㅁ -2300
▁ㅅㅐㅇㅁㅜㄹ -2301
ㅁㅣㅇ -2302
▁ㅇㅏㄹㅡㅁ -2303
▁ㄴㅏㄴㅟ -2304
ㅜㄹㅡㅋㅡ -2305
▁ㅈㅔㅇㅏㄴ -2306
ㅎㅔㄴ -2307
▁ㅇㅗㄹㄹ -2308
▁ㅅㅗㅈㅐ -2309
▁UEFA -2310
ㅇㅏㄷㅡㄹㅇㅣ -2311
ㅅㅡㄹㅗ -2312
▁ㅈㅓㅇㅅㅏㅇ -2313
▁ㅅㅣㄱㅁㅣㄴ -2314
▁ㄷㅐㅅㅏ -2315
▁ㅂㅏㄹㄷㅏㄹ -2316
▁ㅂㅜㅈㅓㅇ -2317
▁1970 -2318
▁ㄴㅗㄹㅕㄱ -2319
▁ㅂㅓㅂㄹㅠㄹ -2320
▁ㅁㅔㄹ -2321
▁ㅈㅜㄱㅇㅣ -2322
ac -2323
▁ㅇㅕㄴㄱㅜㅅㅗ -2324
▁ㅍㅗㄹㄹㅏㄴㄷㅡ -2325
▁ㄲㅡㄹ -2326
▁ㅇㅣㅂㅈㅏㅇ -2327
▁ㅅㅏㅁㅅㅓㅇ -2328
▁ㅇㅏㅅㅣ -2329
▁ㄷㅡㅇㄹㅗㄱ -2330
▁ㅈㅣㅋㅣ -2331
ㄹㅛㅇ -2332
▁ㄷㅗㅂ -2333
▁ㅌㅜㅅㅜ -2334
▁ㅇㅘㄴㅈㅓㄴㅎㅣ -2335
▁ㅍㅛㄱㅣ -2336
▁ㄱㅏㅇㅇㅝㄴ -2337
▁ㅂㅗㄷㅗ -2338
▁ㅂㅏㄱㅁㅜㄹ -2339
ㅗㄹㄹㅣㄱ -2340
ㅝㄷㅡ -2341
ㄱㅅㅣ -2342
▁ㅈㅣㅈㅣㄴ -2343
▁ㄷㅗㅇㅂㅜ -2344
▁ㄹㅏㄷㅣㅇㅗ -2345
▁ㅇㅛㅊㅓㅇ -2346
▁KBS -2347
ㄱㅓㄹㅣ -2348
▁ㅅㅜㅇㅛㅇ -2349
▁ㄷㅏㄹㅣ -2350
ㄴㅕ -2351
▁ㅂㅕㄱ -2352
▁ㄹㅑㅇ -2353
▁ㅂㅏㅌㅏㅇ -2354
▁ㄹㅏㅇㅣㄴ -2355
▁ㅅㅓㅅㅣㄱ -2356
ㅌㅓㅂ -2357
▁ㅈㅔㅎㅏㄴ -2358
▁ㅂㅓㄹㅇㅣ -2359
▁ㅈㅗㄱㅏㄱ -2360
ㄹㅡㅁ -2361
▁ㄷㅐㅊㅔ -2362
▁ㄴㅚ -2363
▁ㄱㅡㅁㅈㅣ -2364
▁ㅈㅓㅇㅅㅣㄱ -2365
▁ㅇㅛㅅㅣ -2366
▁1992 -2367
ㅣㄱㅅㅡ -2368
▁ㅇㅕㅇㅌㅗ -2369
▁ㅇㅟㄹㄹㅣ -2370
▁ㅍㅕㄹ -2371
▁ㅅㅗㅍㅡ -2372
ㅝㅋㅡ -2373
▁ㅈㅓㅂㄱㅡㄴ -2374
▁ㅍㅣㄹㄹㅣ -2375
▁ㄱㅕㄹㅅㅓㅇ -2376
▁ㅇㅜㅁㅈㅣㄱ -2377
▁ㅇㅣㄴㅅㅣㄱ -2378
▁ㅂㄴㅣㄷㅏ -2379
▁ㅂㅔㄹㅡ -2380
▁ㄴㅏㅁㅓㅈㅣ -2381
ro -2382
▁ㅂㅜㅌㅇㅣ -2383
▁ㅃㅏㅈㅣ -2384
▁ㅁㅜㄷㅐ -2385
▁ㅇㅓㅂㅁㅜ -2386
▁ㅈㅔㅈㅗ -2387
ㄱㅏㅂ -2388
ㅎㅓ -2389
▁ㅇㅚㄱㅛ -2390
▁ㅁㅏㅊㅏㄴ -2391
▁ㅁㅏㅊㅏㄴㄱㅏㅈㅣ -2392
ㄱㅌㅓ -2393
▁45 -2394
▁ㄱㅡㄹㅓㄴ -2395
▁ㅂㅏㄴㅁㅕㄴ -2396
▁ㅊㅓㄹㅎㅏㄱ -2397
▁ㅇㅡㄴㅎㅐㅇ -2398
ㅌㅗㄹㅣ -2399
ㅔㅌㅡ -2400
▁ㄴㅠㅅㅡ -2401
▁ㅁㅣㄴㅈㅜㄷㅏㅇ -2402
ed -2403
ㅅㅓㅂ -2404
ㅏㄴㅗ -2405
▁ㅉㅏㄼ -2406
ㄷㅔㄹ -2407
▁ㄱㅗㅇㅈㅏㄱ -2408
▁ㅅㅜㅎㅏㄱ -2409
▁of -2410
▁ㅅㅡㅅㅡㄹㅗ -2411
ㅔㅇㅣㅅㅡ -2412
ㄹㅔㅅㅡ -2413
▁ㅈㅣㄷㅐ -2414
▁ㄱㅏㅌㅗㄹㄹㅣㄱ -2415
ㅌㅏㅂ -2416
ㄹㅏㅁ -2417
ㅌㅡㄹㄹ -2418
▁ㄱㅣㅊㅗ -2419
▁ㅅㅡㅇㅞ -2420
▁ㅂㅏㄱㅁㅜㄹㄱㅘㄴ -2421
▁36 -2422
▁ㅈㅣㅂㅎㅏㅂ -2423
▁ㅍㅔㄹㅡ -2424
▁ㅇㅣㅁㅅㅣ -2425
ㅈㅜㅅㅣ -2426
▁ㅇㅠㄹㅗ -2427
▁ㄱㅓㅂㅜ -2428
▁ㅊㅗㄴ -2429
▁ㄷㅗㄹㅇㅏㄱㅏ -2430
▁ㅂㅏㄱㅅㅏ -2431
▁ㅂㅏㄷㅇㅏㄷㅡㄹㅇㅣ -2432
▁ㅂㅏㄹㅅㅏ -2433
ㅏㅈㅣㄹ -2434
▁ㅂㅗㄱㄱㅟ -2435
ㅁㅗㄴ -2436
▁ㅊㅗㄷㅐ -2437
▁ㅈㅜㅇㅢ -2438
ㅣㅂㅡ -2439
ㅈㅏㄹ -2440
▁ㅅㅗㄹㅣ -2441
ㄹㅡㅇ -2442
ig -2443
▁ㅅㅏㅇㅎㅗ -2444
▁ㅂㅡㄹㅏㅈㅣㄹ -2445
▁ㄷㅏㅅㅜ -2446
▁ㅅㅜㅁㅏ -2447
▁ㅅㅓㅇㄱㅕㄱ -2448
▁ㅈㅣㄷㅗㅈㅏ -2449
▁ㅍㅏㅇㅣㄹ -2450
▁ㅎㅘㅎㅏㄱ -2451
▁ㄱㅣㄱㅜ -2452
▁ㄴㅗㄴㄹㅏㄴ -2453
▁ㄹㅗㅆㅓ -2454
▁ㅍㅛㅅㅣ -2455
▁ㅇㅢㅅㅣㄱ -2456
▁ㄲㅐ -2457
▁ㅇㅕㄹㅡㅁ -2458
▁ㅇㅕㅎㅐㅇ -2459
▁ㅊㅏㅇㅝㄴ -2460
▁ㅈㅏㅇㅅㅗ -2461
▁ㅁㅜㄱㅣ -2462
▁ㄱㅖㅇㅕㄹ -2463
▁ㄷㅣㅅㅡ -2464
▁ㅁㅏㄹㅣ -2465
▁1991 -2466
ㅏㅌ -2467
ㄷㅐㄱ -2468
▁ㄱㅐㄱㅜㄱ -2469
▁1960 -2470
ㅏㅇㅜㄴㄷㅡ -2471
▁ㅅㅣㄹㅈㅔㄹㅗ -2472
▁ㅅㅣㄱㅁㅜㄹ -2473
▁ㅇㅣㄱㅣ -2474
▁ㅇㅕㄴㄱㅡㄱ -2475
▁ㅋㅏㄷㅡ -2476
▁ㅎㅐㄱㅕㄹ -2477
▁ㄱㅡㄷㅐㄹㅗ -2478
▁ㄱㅘㄴㅊㅡㄱ -2479
▁ㅕ -2480
ㅌㅡㅇㅞㅇㅓ -2481
▁ㅅㅡㅇㅞㄷㅔㄴ -2482
▁ㅅㅗㅍㅡㅌㅡㅇㅞㅇㅓ -2483
▁ㅂㅗㅅㅜ -2484
ㅇㅜㅇ -2485
ㅂㅐㅇㅜ -2486
▁ㄷㅡㄱㅈㅓㅁ -2487
▁ㅇㅣㅇㅚ -2488
▁ㅅㅜㅁ -2489
ㅔㅇㅣㄹㄹㅣㅇㅏ -2490
▁ㄷㅣㅈㅣ -2491
▁1993 -2492
▁ㄷㅓㅂㅜㄹ -2493
▁ㅇㅏㅇㅣㄹㄹㅐㄴㄷㅡ -2494
▁ㅁㅛㅅㅏ -2495
▁ㅅㅠㅍㅓ -2496
▁ㅊㅏㅌㅡ -2497
ㅂㅗㄹ -2498
▁ㅎㅚㅇㅝㄴ -2499
▁ㄷㅏㄴㅣ -2500
▁ㅈㅏㅇㅇㅐ -2501
ㅇㅠㅇ -2502
▁ㅂㅜㄴㅍㅗ -2503
ㅈㅔㄴ -2504
ㅣㄹㅡ -2505
ㅑㅁㅏ -2506
▁ㄷㅏㄴㅅㅜㄴ -2507
▁ㅎㅘㄹㅇㅛㅇ -2508
▁ㅋㅐㄹㅣㄱ -2509
▁ㅇㅏㄴㅈㅓㄴ -2510
▁ㄱㅣㄱㅖ -2511
▁ㄱㅡㄴㅊㅓ -2512
ㅅㅡㅋ -2513
▁ㅈㅗㅅㅓㅇ -2514
▁ㄱㅓㅁㅅㅏ -2515
▁33 -2516
▁ㅇㅕㄱㅐㄱ -2517
ㅌㅡㄱㅂㅕㄹㅅㅣ -2518
▁ㅁㅜㅇㅕㄱ -2519
▁ㅂㅡ -2520
▁ㄲㅜㅁ -2521
▁ㄸㅟㅇㅓㄴㅏ -2522
ㄹㄹ -2523
▁ㅂㅏㄹㅎㅐㅇ -2524
▁ㅈㅔㅅㅣ -2525
▁ㅇㅏㄷㅗ -2526
▁ㄱㅏㅇㄹㅕㄱ -2527
ㅔㄴㅌㅡ -2528
ㄱㅚ -2529
▁ㄲㅣ -2530
▁ㅅㅓㅇㅜㄹㅌㅡㄱㅂㅕㄹㅅㅣ -2531
od -2532
▁ㅋㅗㅁ -2533
▁ㄴㅡㄲㅣ -2534
▁ㅎㅕㅇㅈㅔ -2535
▁ㅇㅗㅅㅡㅌㅡㄹㅣㅇㅏ -2536
▁ㄱㅓㄴㄴ -2537
ㄱㅘㅇㅇㅕㄱㅅㅣ -2538
▁ㅈㅣㅎㅏㅊㅓㄹ -2539
▁ㅊㅗㅇㅅㅓㄴ -2540
▁ㅎㅡㅂ -2541
ㄱㅅㅣㅋㅗ -2542
ㅗㅅㅔ -2543
▁ㅅㅡㅌㅠ -2544
▁ㅈㅜㅇㄱㅏㄴ -2545
▁ㅂㅏㅇㅣㄹ -2546
▁ㄱㅝㄴㄹㅕㄱ -2547
▁ㅍㅐㅂㅐ -2548
▁ㅁㅣㅅㅏㅇ -2549
▁ㅆㅏㅇㅜ -2550
▁ㅅㅡㅂㄴㅣㄷㅏ -2551
▁ㅅㅏㅇㅣㅌㅡ -2552
▁ㅂㅏㄴㄹㅏㄴ -2553
ㄷㅏㅁㅕㄴ -2554
▁ㅈㅜㅇㄷㅏㄴ -2555
▁ㄴㄱㅏ -2556
▁ㄱㅕㅇㅅㅏㅇㄴㅏㅁㄷㅗ -2557
ㅈㅣㅅㅕㄴ -2558
▁ㄷㅏㄴㅇㅓ -2559
▁ㅇㅏㅁㅏ -2560
▁ㅎㅡ -2561
▁ㄸㅣ -2562
ㅜㄹㅕ -2563
▁ㅅㅣㅎㅐㅇ -2564
ㅅㅡㅋㅗ -2565
▁186 -2566
ve -2567
as -2568
▁ㅊㅡ -2569
▁ㅋㅐㄹㅣㄱㅌㅓ -2570
▁ㅇㅣㄹㅈㅓㅇ -2571
▁ㅇㅟㅎㅓㅁ -2572
▁ㅍㅏㅇㅣ -2573
▁ㅅㅔㄷㅐ -2574
ㅇㅗㄴ -2575
▁ㅊㅟㅎㅏ -2576
▁ㄷㅏㅁㅏㄴ -2577
▁ㅎㅐㅇㅏㄴ -2578
ㅣㄹㄹㅣ -2579
ㅏㄷ -2580
▁ㄴㅣㅁ -2581
▁ㅎㅕㅂㄹㅕㄱ -2582
▁ㅇㅗㅅㅡㅌㅡㄹㅔㅇㅣㄹㄹㅣㅇㅏ -2583
▁ㄱㅕㅇㅅㅏㅇㅂㅜㄱㄷㅗ -2584
▁ㅊㅐㄴ -2585
▁ㄱㅣㅈㅏ -2586
ㅈㅡㄴ -2587
ㅔㅇㅣㅁ -2588
▁ㅂㅏㅇㅣ -2589
▁ㅅㅜㄴㅇㅟ -2590
▁ㅇㅗㅂㅡ -2591
▁ㅈㅣㅈㅓㄱ -2592
▁ㅁㅓㄴㅈㅓ -2593
ㅅㅏㅋㅏ -2594
▁", -2595
▁ㅅㅐㅇㅅㅓㅇ -2596
▁ㅈㅓㄴㅅㅣ -2597
▁ㅌㅐㅍㅕㅇ -2598
▁ㅎㅖ -2599
ㅁㅕ -2600
▁ㅎㅜㄱㅣ -2601
▁ㅂㅓㄴㅇㅕㄱ -2602
▁ㅁㅏㄴㅋㅡㅁ -2603
▁ㄷㅗㅊㅏㄱ -2604
ㅅㅗㄴㅕㄴ -2605
▁ㄴㅐㄱㅏㄱ -2606
▁ㄱㅘㅇㅈㅜ -2607
▁ㅇㅓㅇ -2608
▁ㅅㅜㅁㅏㄶ -2609
▁ㅇㅕㄴㅈㅏㅇ -2610
▁ㅈㅣㅅㅏㅇ -2611
▁ㄷㅜㅇ -2612
▁ㄱㅔㅇㅣ -2613
▁ㅍㅏㄱㅕㄴ -2614
▁ㄱㅘㄴㄱㅘㅇ -2615
▁ㅇㅟㄹㄹㅣㅇㅓㅁ -2616
▁ㅇㅠㅎㅕㅇ -2617
▁ㅍㅡㄹㄹㅐ -2618
▁ㄱㅗㅇㅈㅏㅇ -2619
▁ㅂㅗㄴㅂㅜ -2620
▁ㅈㅜㄱㅇㅡㅁ -2621
▁ㅋㅗㄷㅡ -2622
▁ㅅㅓㄴㄱ -2623
▁ㅎㅏㄹㅜ -2624
▁ㅅㅔㅅㅏㅇ -2625
▁1988 -2626
ㅂㅔㄹㅡ -2627
▁ㅂㅗㅇㅠ -2628
▁ㄷㅗㅇㅅㅐㅇ -2629
▁ㅁㅠㅈㅣㄱ -2630
▁ㅂㅗㅈㅗㄴ -2631
▁ㅈㅚ -2632
▁ㅇㅏㅋㅏ -2633
▁ㅇㅑㅇㅅㅣㄱ -2634
▁ㅅㅏㄻ -2635
▁ㅂㅏㅇㅇㅓ -2636
▁ㄷㅡㄹㅇㅓㅇㅗ -2637
▁ㅇㅝㄴㅅㅗ -2638
ㅇㅡㅂ -2639
▁ㅁㅏㅅ -2640
ㄷㅐㅇ -2641
▁ㅂㅏㄹㅡ -2642
▁187 -2643
▁ㄱㅡㄱㅈㅏㅇ -2644
▁ㅅㅏㅇㅈㅣㅇ -2645
▁ㅂㅜㅇㅕ -2646
ㅁㅜㅇㅝㄴ -2647
ㄹㅏㅇㅣㄴ -2648
▁ㄱㅕㄲ -2649
ㄹㅔㅇㅣ -2650
ㅁㅕㄹ -2651
▁ㄱㅏㅁㅅㅗ -2652
▁ㄱㅠㄴ -2653
▁ㅍㅣㄱ -2654
▁ㅂㅡㄹㅣ -2655
▁ㅌㅔㄴ -2656
▁ㅌㅜㅈㅏ -2657
▁ㅎㅏㄱㅇㅟ -2658
▁ㅈㅓㄴㄹㅏㄴ -2659
▁ㄱㅟㅈㅗㄱ -2660
▁ㄴㅜ -2661
▁ㅎㅕㅁ -2662
▁ㅊㅘㄹ -2663
▁ㅎㅘㄱㄷㅐ -2664
▁ㄱㅡㄴㅁㅜ -2665
▁ㅇㅔㅅㅡ -2666
▁ㄷㅣㅈㅣㅌㅓㄹ -2667
▁ㅇㅕㅇㅅㅏㅇ -2668
▁ㅅㅏㅇㅇㅓㅂ -2669
▁ㅎㅔㄴ -2670
▁ㅈㅣㅅㅣㄱ -2671
▁ㄷㅏㄴㅇㅟ -2672
▁ㄴㅏㅎ -2673
▁ㄷㅏㄹㅅㅓㅇ -2674
▁ㅂㅏㄹㅁㅐㄷㅚ -2675
▁ㅅㅓㅇㄹㅣㅂ -2676
▁ㄷㅔㄹ -2677
▁? -2678
ㅏㅇㅔㄹ -2679
▁ㅇㅟㄱㅣ -2680
▁ㅈㅔㄱㅣ -2681
▁ㄱㅜㅎㅏ -2682
▁ㅇㅣㄹㅏㄱㅗ -2683
ㄹㅏㅇㅣ -2684
▁ㅈㅣㅅ -2685
id -2686
▁ㅇㅘㄴㅅㅓㅇ -2687
▁ㅁㅔㄱㅅㅣㅋㅗ -2688
▁ㅇㅕㅍ -2689
▁ㅈㅗㅇㅁㅗㄱ -2690
▁34 -2691
▁ㅇㅣㄴㅅㅏ -2692
▁ㄷㅡㄷ -2693
ㅔㅇㅣㅌㅡ -2694
▁ㄷㅐㅇㅡㅇ -2695
ㅜㄴㄷㅡ -2696
ㅎㅚㅅㅏ -2697
▁ㅈㅔㄴ -2698
▁ㄹㅜㅇㅣ -2699
▁ㄷㅡㄴ -2700
▁38 -2701
▁ㅈㅏㄹㅏ -2702
▁ㅇㅠㄹㅣ -2703
▁ㅎㅡㄹㅡ -2704
ㅑㄴ -2705
▁ㄱㅖㅅㅡㅇ -2706
▁ㅊㅘㄹㅇㅕㅇ -2707
▁ㅈㅓㄴㄹㅑㄱ -2708
ㅍㅣㅇ -2709
▁2021 -2710
▁ㄱㅐㅌㅗㅇ -2711
▁ㅇㅏㄹㄹㅔㄱㅅㅏㄴ -2712
ec -2713
▁h -2714
▁ㅅㅡㅇㄱㅕㄱ -2715
ㅊㅣㅇㅣㄴ -2716
▁ㅁㅣㅌ -2717
▁ㄴㅏㅂ -2718
▁ㅊㅔㄱㅕㄹ -2719
▁ㅇㅣㅈㅣㅂ -2720
ㅏㅁㄷㅗ -2721
▁ㄱㅜㄱㅇㅘㅇ -2722
▁ㅈㅜㅅㅣㄱ -2723
▁ㅅㅣㄱㅁㅣㄴㅈㅣ -2724
▁ㄷㅗㅇㄱㅖ -2725
ㅍㅜㄹ -2726
▁ㅁㅜㄴㅎㅘㅈㅐ -2727
▁ㅋㅗㅊㅣ -2728
▁1989 -2729
ㅁㅕㅊ -2730
▁ㅁㅕㅊㅁㅕㅊ -2731
▁90 -2732
▁ㅇㅣㄹㅏㄴ -2733
▁ㅎㅜㄱ -2734
▁ㄷㅏㅇㅅㅓㄴ -2735
▁ㄴㅏㅈㅜㅇ -2736
▁ㅎㅣㄹㅗ -2737
▁ㅅㅣㄴㅐ -2738
▁ㄷㅗㅅㅓㄱㅘㄴ -2739
ㅂㅓㅌㅡ -2740
▁ㅎㅗㅇㅋㅗㅇ -2741
▁ㅊㅐㄴㅓㄹ -2742
▁ㄷㅠ -2743
▁ㅅㅣㅊㅓㅇ -2744
▁ㅈㅓㅇㅊㅣㅇㅣㄴ -2745
▁ㅌㅡㄱㅅㅜ -2746
▁ㅅㅣㅌㅣ -2747
▁ㅌㅓㅁ -2748
▁ㅂㅗㅅ -2749
▁ㅇㅏㄴㅐ -2750
us -2751
▁ㅈㅓㄴㄹㅏ -2752
▁ㅈㅓㄴㄷㅏㄹ -2753
▁ㅊㅜㄴ -2754
▁ㅁㅏㅇㅣㅋㅡ -2755
▁48 -2756
ㅊㅗㄱ -2757
▁ㄷㅐㄹㅠㄱ -2758
and -2759
▁ㅅㅐㅇㅁㅕㅇ -2760
▁ㅁㅣㅅㅏㅇㅣㄹ -2761
▁ㅊㅔㅍㅗ -2762
▁ㅅㅣㅍ -2763
ㅇㅠㄹ -2764
▁ㄹㅠㄹ -2765
▁ㅅㅓㅅ -2766
▁ㅂㅗㄴㄱㅘㄴ -2767
▁ㅂㅓㄹㅇㅓㅈㅣ -2768
▁ㅊㅔㄹ -2769
▁ㄱㅝㄴㄹㅣ -2770
▁ㅊㅡㄱㅈㅓㅇ -2771
▁ㅅㅡㅋㅗ -2772
▁ㅌㅏㅇㅣㅌㅡㄹ -2773
▁ㅈㅣㄱㅎㅜ -2774
ㅁㅜㄱ -2775
▁ㅁㅣㄱㅜㄴ -2776
▁ㅇㅗㅅㅡ -2777
ㅋㅗㄷㅡ -2778
▁ㅅㅓㄹㅈㅓㅇ -2779
ㅎㅕㄹ -2780
▁ㅋㅏㅇㅜㄴ -2781
▁ㅇㅣㄹㅓㅎㄱㅔ -2782
▁ㅁㅏㅈㅊㅜ -2783
ㅠㄴ -2784
ㅇㅓㅄ -2785
▁ㄱㅘㄴㅊㅏㄹ -2786
▁ㅈㅓㄴㄹㅏㄴㅏㅁㄷㅗ -2787
▁ㅈㅜㅇㅓㅈㅣ -2788
▁ㅆㅏㅎ -2789
▁ㅈㅓㄴㅎㅘㄴ -2790
▁e -2791
▁ㅈㅓㄻ -2792
ㅁㅗㅇ -2793
▁ㅅㅗㅅㅜ -2794
▁ㅍㅕㄹㅊㅣ -2795
▁ㅈㅔㅇㅣㅁ -2796
▁ㄱㅓㄹㄹㅣ -2797
▁ㄹㅏㄱ -2798
▁ㅌㅡㄱㅅㅓㅇ -2799
▁| -2800
▁ㅈㅡㄹ -2801
▁ㅍㅏㄴㄷㅏㄴ -2802
ㅁㅗㅅ -2803
▁ㅈㅔㅈㅓㅇ -2804
▁1950 -2805
▁ㄱㅣㅎㅚㄱ -2806
▁ㅈㅗㅇㄹㅛ -2807
▁ㅊㅜㄹㅅㅐㅇ -2808
▁', -2809
NA -2810
▁ㅊㅟㅇㅣㅁ -2811
ad -2812
▁ㄱㅐㅈㅓㅇ -2813
▁300 -2814
ㅅㅔㄹ -2815
▁MBC -2816
▁ㅅㅣㄴㄱㅕㅇ -2817
ㅔㄱ -2818
ㅁㅓㄴ -2819
ㅔㅇㅣㄷㅡ -2820
ㅌㅡㅇㅝㅋㅡ -2821
▁ㄱㅕㄹㅅㅡㅇㅈㅓㄴ -2822
▁ㅊㅓㅇㄴㅕㄴ -2823
▁ㄱㅖㅅㅏㄴ -2824
▁ㅈㅜㅇㅣㄴㄱㅗㅇ -2825
▁ㅇㅔㄹㄹㅣ -2826
▁ㅇㅡㅁㅅㅣㄱ -2827
ㅊㅜㄴ -2828
ent -2829
▁ㄷㅏㄹㅎㅏ -2830
▁ㅇㅏㄹㅏㅂ -2831
ㅕㅇㅗ -2832
▁ㅅㅜㅅㅏ -2833
▁ㅅㅣㅇㅟ -2834
▁ㅈㅣㅇㅟ -2835
▁ㄷㅏㅂ -2836
▁ㄴㄷㅏㅁㅕㄴ -2837
▁ㅌㅓㄹ -2838
▁ㅂㅏㅇㅣㄹㅓㅅㅡ -2839
▁ㅈㅔㅇㅣㅁㅅㅡ -2840
ㅆㅏ -2841
ㅣㄹㅏ -2842
▁ㅂㅓㅁㅈㅚ -2843
▁ㄴㅔㅌㅡㅇㅝㅋㅡ -2844
▁ㄱㅡㄴㄱㅓ -2845
▁ㅅㅜㅈㅓㅇ -2846
▁ㄴㅗㄱㅇㅡㅁ -2847
ㅣㅇㅔㄹ -2848
▁ㅅㅏㅎㅚㅈㅜㅇㅢ -2849
▁1945 -2850
▁ㅇㅡㄴㅎㅏ -2851
▁ㅈㅏㅂㅗㄴ -2852
▁ㅇㅣㅈㅣㅂㅌㅡ -2853
ㅇㅏㄴㅐ -2854
▁ㅇㅣㅍ -2855
▁ㅇㅢㄱㅕㄴ -2856
▁ㅊㅜㅇㄷㅗㄹ -2857
▁ㅌㅗㅁ -2858
▁ㅊㅔㅇㅠㄱ -2859
▁ㅈㅜㅁㅗㄱ -2860
▁ㅈㅡㄱㅇㅟ -2861
▁ㄱㅛㅊㅔ -2862
▁ㅎㅐㅇㅚ -2863
▁ㅅㅗㄱㅐ -2864
ㄴㅏㄴ -2865
▁ㅊㅓㄴㅎㅘㅇ -2866
▁ㅅㅜㅂㅣ -2867
▁ㅂㅓㅅ -2868
▁ㅇㅡㅁㅕㄴㅅㅓ -2869
▁ㅇㅏㅆㅇㅓㅆ -2870
▁ㅍㅗㅈㅣㅅㅕㄴ -2871
▁ㅋㅡㄹㅗ -2872
▁ㅈㅏㄱㅕㄱ -2873
▁ㅇㅣㅅㅡㄹㄹ -2874
▁ㅅㅓㅇㅇㅜ -2875
▁ㅅㅗㅈㅏㅇ -2876
▁ㅂㅣㅇㅛㅇ -2877
▁ㅈㅏㅇㄱㅣ -2878
▁ㅅㅡㅋㅣ -2879
▁ㅈㅓㄴㅊㅏ -2880
▁ㄷㅔㅇㅣㅂㅣ -2881
▁ㄴㅏㅁㅂㅜㄱ -2882
▁ㅂㅗㄴㄹㅐ -2883
▁ㄱㅓㄴㄱㅏㅇ -2884
▁ㄱㅗㅇㄱㅡㅂ -2885
▁ㅇㅣㄴㄱㅡㄴ -2886
▁ㄱㅞㄷㅗ -2887
50 -2888
▁ㅂㅐㄱㅕㅇ -2889
▁ㄱㅐㅅㅓㄴ -2890
▁ㅅㅡㄹㄹ -2891
▁ㅎㅏㅂㄹㅠ -2892
ㄹㅣㅎㅏㄱ -2893
▁ㅍㅗㅁ -2894
ㅅㅏㄱㅘㄴ -2895
▁ㄱㅗㅇㅂㅜ -2896
▁ㅁㅏㄴㄷㅡ -2897
ㅡㄹㄹㅣㄴ -2898
▁ㅌㅡㄹㅣ -2899
▁ㅁㅕㅇㄷㅏㄴ -2900
▁ㅈㅔㄱㅓ -2901
ㅖㄴ -2902
▁ㅇㅗㄹㅡㄴ -2903
▁ㅇㅠㄴㅣ -2904
▁ㄱㅗㅇㄱㅜㄴ -2905
▁ㅁㅣㄹㅐ -2906
ㄷㅗㅇㅜ -2907
▁ㅇㅣㄹㅐ -2908
▁ㅁㅕㅇㅇㅖ -2909
▁ㄱㅏㅁㅇㅕㅁ -2910
▁ㅇㅚㄴ -2911
ㅋㅏㅇㅣ -2912
▁ㅇㅣㅈㅜ -2913
▁ㅈㅏㄱㅅㅓㅇ -2914
▁ㅁㅗㅇㅣ -2915
▁ㄱㅖㄱㅣ -2916
▁ㄱㅜㄱㄱㅕㅇ -2917
▁ㅍㅡㄹㅔ -2918
▁ㄱㅏㅇㅣㅂ -2919
ㅈㅓㄴㅎㅣ -2920
▁ㅋㅓㄹ -2921
ㅓㄱㅜ -2922
▁ㅊㅓㄴㅁㅜㄴ -2923
▁ㄱㅏㄱㅈㅗㅇ -2924
▁ㄱㅣㅎㅜ -2925
▁ㅌㅓㅁㅣㄴ -2926
▁ㅅㅜㅍ -2927
▁ㅇㅝㄴㅈㅓㅇ -2928
▁ㄱㅜㄴㅇㅣㄴ -2929
▁ㅈㅏㅇㅝㄴ -2930
▁ㅂㅜㅁㅗ -2931
▁ㅇㅣㅂㅎㅏㄱ -2932
▁ㅈㅣㄹㄹㅑㅇ -2933
▁ㅇㅣㄺ -2934
▁ㅅㅚ -2935
▁x -2936
▁ㅇㅜㄹㅅㅏㄴ -2937
▁ㅅㅣㄴㅎㅏㄱ -2938
▁St -2939
▁ㄱㅓㄷㅐ -2940
▁ㅌㅓㄴ -2941
▁ㅋㅏㅇㅣ -2942
▁ㄱㅏㄱㅕㄱ -2943
▁ㄴㅜㄱㅜ -2944
▁ㅏㅆ -2945
ㄷㅗㄹㅗ -2946
▁ㅈㅜㄹㅇㅣ -2947
ㅋㅓㅅ -2948
▁ㅇㅣㅅㅡㄹㄹㅏㅁ -2949
▁ㅈㅣㅂㅈㅜㅇ -2950
▁ㄱㅏㅇㅇㅝㄴㄷㅗ -2951
ot -2952
▁ㄴㅗㅇㅇㅓㅂ -2953
▁ㅈㅓㄴㅅㅏ -2954
ㅌㅜㄱ -2955
▁ㅅㅗㅅㅗㅇ -2956
▁ㅅㅣㄹㅎㅐㅇ -2957
ㅌㅡㄹㅣ -2958
ㅋㅡㅅㅡ -2959
▁ㅊㅓㅁ -2960
▁ㅇㅗㅍㅡㄴ -2961
ㅇㅠㄴ -2962
▁ㅂㅡㄹㄹㅐㄱ -2963
▁ㅌㅓㅁㅣㄴㅓㄹ -2964
▁ㅌㅐㅍㅕㅇㅇㅑㅇ -2965
▁ㅈㅓㅎㅏㅇ -2966
ㅊㅓㄹㄷㅗ -2967
▁in -2968
▁ㄱㅕㅇㅜㄹ -2969
▁ㅁㅜㄹㄹㅗㄴ -2970
un -2971
▁ㅎㅏㄱㅁㅜㄴ -2972
▁ㅊㅡㄱㅁㅕㄴ -2973
▁ㅇㅗㅎㅜ -2974
▁ㅎㅗㅁㄹㅓㄴ -2975
▁ㅁㅏㄴㅇㅑㄱ -2976
▁ㄲㅗㄹㅣ -2977
ㅊㅏㅁ -2978
ㅗㄴㅏ -2979
▁ㅌㅗㅇㅈㅔ -2980
▁ㅋㅔㄹ -2981
▁ㄹㅗㅁ -2982
▁ㅈㅓㅇㅊㅏㄱ -2983
ㅂㅔㄴ -2984
▁ㅇㅣㄴㅅㅜ -2985
ow -2986
▁ㅂㅕㅇㄹㅕㄱ -2987
ㅣㄴㅗ -2988
▁ㄷㅐㄴ -2989
▁ㅌㅔㄱ -2990
▁ㅈㅡㅇㅁㅕㅇ -2991
▁ㅇㅑㄱㄱㅏㄴ -2992
ㅁㅛ -2993
▁37 -2994
▁ㅁㅣㄹㄷㅗ -2995
ㅜㅅ -2996
ㅌㅣㄴㅏ -2997
▁ㅇㅣㅅㅡㄹ -2998
▁ㅍㅕㄴㅈㅣㅂ -2999
▁ㅁㅜㅈㅏㅇ -3000
ㅌㅣㅁ -3001
▁ㅋㅐㄹㄹㅣ -3002
▁ㄱㅜㄱㅂㅏㅇ -3003
▁ㅊㅚㅅㅗ -3004
▁ㅈㅔㅁㅗㄱ -3005
▁ㅇㅚㅂㅜ -3006
▁ㅅㅗㅂㅣ -3007
▁ㅁㅗㅇㄱㅗㄹ -3008
▁ㅍㅣㅎㅏ -3009
▁ㅈㅣㅈㅓㅁ -3010
▁ㅇㅕㅇㅎㅘㅂㅐㅇㅜ -3011
▁ㄷㅏㅋ -3012
▁ㅊㅜㅇㅊㅓㅇㄴㅏㅁㄷㅗ -3013
ㄱㅗㄹㅣ -3014
▁ㄱㅏㅇㅈㅗ -3015
▁ㅂㅏㄹㅏㅁ -3016
▁1987 -3017
▁ㅎㅐㅂㅏㅇ -3018
▁ㅁㅣㄷㅣㅇㅓ -3019
ㅎㅗㄹ -3020
ㅍㅣㅇㅏ -3021
▁ㅂㅕㅇㅅㅏ -3022
ㅈㅜㄹ -3023
▁w -3024
▁ㄴㅏㅅㅓ -3025
ㄷㅗㅇㅇㅏㄴ -3026
▁ㅎㅏㅂㅂㅕㅇ -3027
▁ㄱㅘㅇㄱㅗ -3028
▁ㄱㅡㅁㅇㅠㅇ -3029
▁ㅎㅘㄴㅈㅏ -3030
▁ㅇㅠㄷㅗ -3031
▁ㅍㅛㅁㅕㄴ -3032
▁ㅅㅓㄴㅅㅜㄷㅏㄴ -3033
▁ㄱㅡㅎㅐ -3034
▁ㄱㅣㅎㅚ -3035
▁ㅇㅟㄴㄷㅗㅇㅜ -3036
▁ㄴㅗㄷㅗㅇㅈㅏ -3037
▁ㅃㅏㄹ -3038
▁ㅇㅏㅅㅣㅇㅏㄴ -3039
▁ㄹㅏㅇㅜㄴㄷㅡ -3040
▁ㅍㅗㄹㅡㅌㅜㄱ -3041
▁ㄹㅕㅇ -3042
▁ㅅㅏㄹㅏㅈㅣ -3043
ㄹㅗㅇ -3044
▁ㅎㅏㄱㄴㅕㄴ -3045
▁ㅇㅗㅅㅏㅋㅏ -3046
▁ㅈㅐㅈㅣㄱ -3047
▁ㅍㅗㄹㅡㅌㅜㄱㅏㄹ -3048
▁ㄷㅗㅈㅜㅇ -3049
▁ㅅㅓㅇㄱㅘ -3050
▁ㄷㅡㅇㄱㅡㅂ -3051
▁ㅁㅜㄹㅕㅂ -3052
ur -3053
▁ㅇㅔㅁ -3054
ㅘㅇㅣ -3055
▁ㅈㅓㄴㄹㅕㄱ -3056
▁1984 -3057
▁1986 -3058
▁ㅁㅏㄹㅕㄴ -3059
▁ㅇㅑㅇㅅㅓㅇ -3060
▁ㅅㅣㄴㅎㅗ -3061
▁41 -3062
▁ㅂㅗㅁ -3063
ㅈㅜㄱㅛ -3064
▁ㄷㅐㅅㅜ -3065
▁ㅎㅓㅇㅛㅇ -3066
ㅅㅡㄹㄹ -3067
ㄴㅏㅁㅜ -3068
ㅇㅛㅇㅣㄹ -3069
▁ㄷㅟㅅ -3070
ㅇㅏㅅㅣㅇㅏ -3071
▁ㅇㅐㅇ -3072
ㄱㅏㄹㅣ -3073
▁51 -3074
▁ㅅㅡㅌㅠㄷㅣㅇㅗ -3075
▁ㅁㅣㄴㄱㅏㄴ -3076
▁ㅎㅕㅁㅇㅢ -3077
▁ㅋㅐㄹㄹㅣㅍㅗㄴ -3078
▁ㅁㅔㄴ -3079
▁ㅇㅖㅅㅜ -3080
ㅓㄱㅡ -3081
ㅣㄴㅣ -3082
▁ㅇㅔㄴㅌㅓ -3083
▁ㅂㅜㅇㄱㅚ -3084
▁ㅈㅓㄴㅇㅕㄱ -3085
▁ㅇㅣㅂㅓㄴ -3086
▁ㅈㅐㅅㅏㄴ -3087
▁ㅕㅅㅓ -3088
▁ㅊㅜㅇㅂㅜㄴ -3089
▁ㅂㅗㄱㅗ -3090
▁ㅅㅐㄹㅗ -3091
ㄹㅚ -3092
▁ㄱㅗㅇㄱㅗㅇ -3093
▁ㅇㅕㅈㅓㄴㅎㅣ -3094
▁ㅈㅓㄴㅂㅏㄴ -3095
ㅏㅁㅗ -3096
▁ㅎㅐㅇㅎㅏ -3097
▁ㄱㅗㅈㅓㄴ -3098
▁ㅇㅓㅂㅊㅔ -3099
▁ㄱㅗㅇㅈㅜ -3100
▁ㅇㅟㅇㅝㄴㅈㅏㅇ -3101
▁ㅋㅐㄹㄹㅣㅍㅗㄴㅣㅇㅏ -3102
▁ㄷㅐㅎㅏㄱㅇㅝㄴ -3103
▁ㅈㅐㅈㅓㅇ -3104
▁ㅁㅏㄹㅣㅇㅏ -3105
▁ㄱㅕㅇㄹㅕㄱ -3106
▁ㅅㅡㅇㅇㅣㄴ -3107
ㅅㅗㄹㅣ -3108
ㅣㅇㅗㄴ -3109
▁ㄱㅖㄱㅡㅂ -3110
▁ㅇㅣㅁㅁㅜ -3111
▁ㅇㅏㄴㄷㅡㄹ -3112
ㅍㅡㄹㅣㅋㅏ -3113
▁ㅍㅣㄹㄹㅣㅍㅣㄴ -3114
▁ㄱㅜㅊㅜㄱ -3115
ㅌㅡㄹㅗ -3116
ㅏㅋㅡ -3117
▁ㅇㅟㅅㅓㅇ -3118
▁ㅇㅠㅇㅔㄴ -3119
▁ㅈㅓㄴㅅㅓㄴ -3120
ch -3121
▁ㄷㅏㅅㅓㅅ -3122
▁ㄱㅏㅇㅈㅔ -3123
▁ㅈㅏㅂㅈㅣ -3124
▁ㅈㅓㄱㄱㅡㄱ -3125
▁ㅎㅕㄴㅅㅣㄹ -3126
▁ㅇㅛㄱ -3127
▁ㅁㅜㄹㄹ -3128
▁ㅅㅜㅇㅣㅂ -3129
▁ㅅㅓㅇㅇㅣㄴ -3130
ㅏㅅㅡ -3131
▁ㅌㅗㄹㅗㄴ -3132
▁ㅋㅣㄹ -3133
▁ㅅㅜㄹㅣㅂ -3134
▁ㅂㅓㅁㅇㅟ -3135
▁ㄷㅗㅇㄹㅛ -3136
▁ㅊㅐㅌㅐㄱ -3137
ㅡㄴㅗ -3138
▁ㅇㅑㅇㅈㅏ -3139
ㄱㅛㅎㅚ -3140
▁ㅇㅟㅎㅕㅂ -3141
▁ㅎㅏㅇㅅㅏㅇ -3142
▁ㅈㅣㅁ -3143
▁ㅅㅗㅍㅡㅌㅡ -3144
▁ㅊㅜㄹㅂㅏㄹ -3145
▁39 -3146
▁ㅇㅣㅁㅣㅈㅣ -3147
▁ㅋㅐㅁㅍ -3148
▁ㄷㅐㄷㅐ -3149
ㅂㅜㅌ -3150
▁ㄱㅐㅍㅕㄴ -3151
▁ㄱㅏㅇㅇㅢ -3152
▁ㅈㅏㅇㅅㅣㄱ -3153
▁ㄱㅓㄹㅐ -3154
▁ㅅㅣㅇㅣㄴ -3155
▁ㄱㅛㅅㅏ -3156
▁ㅁㅐㄴㅕㄴ -3157
▁ㄱㅡㄴㄷㅐ -3158
▁ㅌㅓㅋㅣ -3159
▁ㄱㅓㄱ -3160
▁400 -3161
▁ㅊㅜㅁ -3162
ㅅㅓㅁ -3163
▁ㅈㅓㄴㄱㅐ -3164
▁ㄱㅗㅇㅅㅏㄴㄷㅏㅇ -3165
▁ㅇㅗㄹㄹㅏㄱㅏ -3166
ㅐㅍㅡㅌㅡ -3167
▁ㅅㅜㄷㅏㄴ -3168
▁ㅂㅣㅁㅣㄹ -3169
▁ㄱㅣㅈㅣ -3170
▁ㄴㅗㄴㅁㅜㄴ -3171
▁64 -3172
▁ㅌㅟ -3173
▁ㅅㅓㄴㅅㅐㅇ -3174
▁ㅋㅡㄹㄹㅐ -3175
▁ㅇㅝㄴㅊㅣㄱ -3176
▁ㅇㅛㅎㅏㄴ -3177
ㅅㅑ -3178
▁1985 -3179
ㅣㄴㅏ -3180
▁ㅂㅕㄴㅎㅗ -3181
▁ㄴㅏㅁㅍㅕㄴ -3182
▁ㅇㅣㅈㅔ -3183
▁ㅇㅣㄹㅇㅝㄴ -3184
ㅂㅗㅇㅣ -3185
▁ㅇㅏㅈㅜ -3186
ㅂㅜㅇ -3187
▁ㅅㅡㅇㅟㅅㅡ -3188
▁ㅇㅗㄴㄷㅗ -3189
▁ㅅㅐㄴ -3190
ㅂㅣㄹ -3191
▁ㅂㅜㄺ -3192
▁ㅎㅘㄱㅂㅗ -3193
▁ㄱㅗㅇㅇㅓㅂ -3194
ay -3195
▁ㅁㅗㅅㅡㅋㅡ -3196
▁ㅁㅏㄴㅈㅗㄱ -3197
▁II -3198
▁ㅈㅏㅇㅂㅣ -3199
▁ㅎㅚㅂㅗㄱ -3200
▁ㅇㅓㄹㄱㅜㄹ -3201
ut -3202
▁ㅎㅏㅇㅅㅓㅇ -3203
ir -3204
▁ㅂㅏㄹㅏ -3205
▁ㅈㅗㅇㅇㅣ -3206
▁ㅈㅓㅁㅊㅏ -3207
▁ㅍㅗㄱㅂㅏㄹ -3208
▁ㅈㅗㅇㅈㅗㅇ -3209
▁ㅂㅣㅌㅡ -3210
▁ㅅㅏㄹㅖ -3211
ㄷㅔㅁㅣ -3212
▁ㅇㅣㅅㅡㄹㅏㅇㅔㄹ -3213
▁ㅇㅝㄴㅈㅏ -3214
▁ㅇㅏㅍㄷㅜ -3215
▁ㄱㅠㅊㅣㄱ -3216
▁ㄷㅐㄱㅣ -3217
▁ㄱㅏㄴㅈㅜ -3218
ㅋㅜㅇ -3219
▁br -3220
ㅁㅗㄹㅣ -3221
um -3222
▁ㅈㅗㅊㅣ -3223
ㅏㄷㅗ -3224
▁ㅅㅜㅇㅝㄴ -3225
▁ㅇㅣㅅㅡㅇ -3226
▁ㄷㅐㅎㅕㅇ -3227
ㅡㄴㅔ -3228
▁ㅇㅣㅎㅏ -3229
▁ㄱㅏㅇㅈㅓㅁ -3230
▁ㅇㅓㄹㅣㄴ -3231
▁ㅁㅓ -3232
▁ㅌㅏㅂㅈㅐ -3233
▁ㅅㅐㄱㅣ -3234
▁ㅂㅏㄱㅈㅟ -3235
ㄹㅓㅁ -3236
▁ㄹㅔㅋㅗㄷㅡ -3237
ㅅㅡㅋㅣ -3238
▁ㅇㅏㅍㅅㅓ -3239
ㅂㅐㄱㅈㅣㄹ -3240
▁ㅇㅗㄹㅣ -3241
▁43 -3242
▁ㅎㅏㅂㅇㅢ -3243
im -3244
▁ㅏㅅㅓ -3245
▁ㅎㅐㅊㅔ -3246
▁ㅇㅏㅋㅏㄷㅔㅁㅣ -3247
▁ㄱㅡㄹㅐㅅㅓ -3248
▁ㄹㅐㅇ -3249
ㅛㅇㅠㄹ -3250
▁ㄱㅟㄱㅜㄱ -3251
▁ㅋㅏㅇㅜㄴㅌㅣ -3252
ㅇㅏㄹ -3253
ㅅㅗㄹ -3254
▁ㄱㅕㅇㅈㅜ -3255
▁ㄱㅜㄴㄷㅏㄴ -3256
ㄷㅗㅇㅕㄱ -3257
▁ㄲㅡㄶ -3258
▁ㅈㅗㅎㅏㅂ -3259
▁ㅇㅢㄹㅛ -3260
▁ㅈㅣㄴㅎㅘ -3261
▁ㄱㅗㅇㅑㅇ -3262
▁ㅎㅓㅇㄱㅏㄹㅣ -3263
ㅗㅇㅣㄷㅡ -3264
▁ㄷㅐㅈㅏㅇ -3265
▁ㄱㅜㄴㅈㅜ -3266
▁ㅊㅓㅇㅅㅗㄴㅕㄴ -3267
▁ㅍㅣㄴㄹㅏㄴㄷㅡ -3268
▁ㅈㅏㅇㅁㅕㄴ -3269
▁ㅈㅓㅈㅣ -3270
▁ㅌㅏㅇㅣㅁ -3271
▁ㅍㅕㅇㅇㅑㅇ -3272
ㅍㅔㄴ -3273
▁ㄴㅏㅁㄷㅗㅇ -3274
ㅔㅅㅣㅇㅏ -3275
▁ㅅㅓㅇㅑㅇ -3276
▁ㄹㅏㅁㅕㄴ -3277
▁42 -3278
▁ㅂㅜㄱㅡㄴ -3279
▁ㅇㅜㅁㅈㅣㄱㅇㅣ -3280
▁ㅅㅣㄴㅎㅘ -3281
ㅊㅣㄹ -3282
▁ㄹㅗㅅㅡ -3283
▁ㄱㅡㄱㅗㅅ -3284
▁ㅅㅣㅁㅎㅏ -3285
▁ㅊㅓㄹㄷㅗㅇㅕㄱ -3286
▁ㅈㅗㄱㅡㅁ -3287
▁ㅇㅢㅈㅏㅇ -3288
▁ㄱㅣㄷㅐ -3289
ver -3290
▁ㅇㅢㅎㅏㄱ -3291
ㅔㄹㅗ -3292
▁ㅌㅜㅇㅓ -3293
▁ㅇㅔㄱㅔㅅㅓ -3294
▁ㄱㅕㅇㅎㅑㅇ -3295
▁ㅈㅓㅅ -3296
▁ㅅㅏㅎㅜ -3297
▁ㅈㅗㅁ -3298
▁ㅎㅑㅇㅅㅏㅇ -3299
▁ㅆㅡㄹ -3300
▁ㄱㅣㅇㅓㄱ -3301
▁ㅎㅘㄱㅅㅣㄹ -3302
▁ㅌㅗㅈㅣ -3303
▁1982 -3304
ㄷㅏㄹㅣ -3305
▁ㅊㅓㅇㄴㅏㄹㅏ -3306
▁ㅇㅏㄹㅡㅁㄷㅏㅂ -3307
▁ㅈㅏㄱㅡㅁ -3308
▁ㅅㅣㄴㅅㅓㄹ -3309
▁55 -3310
▁ㅊㅐㅇ -3311
▁ㄹㅏㅌㅣㄴ -3312
▁ㅁㅔㅇㅣㅈㅓ -3313
▁ㅊㅣㅁㄱㅗㅇ -3314
▁ㅂㅗㅈㅏㅇ -3315
▁ㅅㅗㄴㅕㄴ -3316
▁ㅁㅏㅁ -3317
▁ㅍㅕㄴㅇㅣㅂ -3318
▁ㄱㅗㄱㅜㄹㅕ -3319
▁ㅂㅕㄴㅎㅏ -3320
▁ㅂㅜㄴㅈㅏ -3321
▁ㄴㅓㅁㅜ -3322
▁ㅇㅏㅁㅔㄹㅣㅋㅏ -3323
▁ㄷㅜㄹㄹㅓ -3324
▁ㅈㅜㅇㅎㅘㅁㅣㄴㄱㅜㄱ -3325
▁ㄷㅏㄴㅂㅐㄱㅈㅣㄹ -3326
▁ㅇㅣㄴㅅㅏㅇ -3327
▁ㄹㅏㅁㅕ -3328
ㅍㅏㄹ -3329
▁ㄱㅘㅇㅇㅕㄱㅅㅣ -3330
ㅈㅏㄱㅣ -3331
▁ㄷㅔㄴㅁㅏ -3332
▁i -3333
▁ㅍㅡㄹㄹㅏ -3334
▁ㅅㅡㅌㅏㅇㅣㄹ -3335
ㅏㄹㅡㅌㅡ -3336
▁1983 -3337
▁ㅅㅔㅈㅗㅇ -3338
▁ㄱㅗㅁㅜㄴ -3339
ㅅㅏㅋㅣ -3340
▁ㅂㅗㅂㅕㅇ -3341
▁ㅎㅏㅂㅊㅣ -3342
▁ㅇㅗㄴㄹㅏㅇㅣㄴ -3343
▁ㅈㅐㄷㅏㄴ -3344
▁ㅅㅏㄹㅎㅐ -3345
ㅋㅠ -3346
▁ㅍㅡㄹㅣㅁ -3347
▁ㄷㅏㄴㅈㅣ -3348
ㅓㅂㅡ -3349
FC -3350
▁ㄷㅡㅁ -3351
▁ㅊㅏㅇㅅㅓㄹ -3352
ㄷㅜㄴ -3353
▁ㄷㅗㄱㅈㅏ -3354
▁ㅈㅡㅇㄱㅓ -3355
▁44 -3356
▁ㅈㅏㅁㅅㅣ -3357
▁ㅇㅘㅇㅇㅟ -3358
▁ㅇㅜㅅㅓㄴ -3359
▁ㄱㅏㅅㅏ -3360
▁ㅇㅣㄲㅡ -3361
▁LG -3362
ㅇㅓㄷㅡㄹ -3363
▁ㅂㅓㅂㅇㅣㄴ -3364
▁ㅅㅣㄴㅇㅏㅇ -3365
▁ㅇㅔㅍㅣ -3366
▁ㅂㅣㅇㅠㄹ -3367
▁ㅎㅘㄱㅈㅓㅇ -3368
▁ㅇㅠㄱㅅㅏㅇ -3369
▁ㅅㅓㄴㄱㅓㄱㅜ -3370
▁ㅅㅓㄴㄱㅗ -3371
▁ㅈㅓㄴㅅㅓㄹ -3372
▁ㄱㅗㅎㅑㅇ -3373
ㅋㅓㄴ -3374
▁47 -3375
▁ㄱㅗㅇㅇㅠ -3376
▁ㅎㅏㅁㄷㅐ -3377
▁ㅂㅜㄹㄱㅘ -3378
▁ㅂㅗㄱㅈㅏㅂ -3379
▁ㄴㅏㅍㅗㄹ -3380
ㅇㅏㅁㅔㄹㅣㅋㅏ -3381
▁ㅅㅓㅇㄷㅏㅇ -3382
▁ㅈㅓㅇㅂㅗㄱ -3383
▁ㅊㅏㅂㅕㄹ -3384
▁ㅅㅏㅁㄱㅜㄱ -3385
▁ㅎㅜㄹ -3386
▁ㅋㅜㄹ -3387
▁ㅈㅓㄴㅎㅘ -3388
ㅌㅡㄹㄹㅐㄴㄷㅡ -3389
ㅂㅗㄷㅡ -3390
ㅋㅣㅇㅏ -3391
▁ㄴㅐㄴ -3392
▁ㅅㅔㅇㅣㄴ -3393
▁ㅂㅡㄹㅐㄴㄷㅡ -3394
ㅁㅗㄹ -3395
▁ㅅㅜㅅ -3396
▁ㄱㅏㅇㅈㅓㅁㄱㅣ -3397
ㅎㅏㄹㅏ -3398
▁ㅈㅓㅈㅏㅇ -3399
▁ㅎㅜㅅㅗㄴ -3400
▁ㄱㅏㄹㅗ -3401
▁ㅈㅣㅅㅣ -3402
▁ㅇㅣㅅㅓㅇ -3403
ㄱㅗㅂ -3404
ㅇㅓㅅㅓ -3405
▁Z -3406
▁ㄹㅗㅅ -3407
▁ㅇㅕㄱㄷㅐ -3408
▁ㅂㅏㄴㄷㅗ -3409
▁ㄱㅗㅈㅓㅇ -3410
▁ㄱㅜㅊㅔ -3411
▁75 -3412
ㅐㄴㅅㅡ -3413
ㅍㅔㄹ -3414
ㅡㄹㄹㅗ -3415
▁ㅈㅜㄱㅛ -3416
▁ㄷㅗㅇㅇㅢ -3417
▁ㅂㅗㄱㅡㅂ -3418
▁ㅅㅏㄴㅁㅐㄱ -3419
▁ㄱㅏㅁㅈㅓㅇ -3420
ㅅㅣㅇㅌㅓㄴ -3421
ㅇㅢㅎㅚ -3422
▁ㅇㅠㅎㅏㄱ -3423
ㅇㅏㅍㅡㄹㅣㅋㅏ -3424
▁ㅇㅜㅅㅜ -3425
ㅅㅕㄴㅓㄹ -3426
ㅁㅜㄴㅎㅘ -3427
▁184 -3428
▁ㅋㅏㄹㅡ -3429
▁ㅅㅗㄹㄹㅗ -3430
▁ㅎㅏㄴㅡㄹ -3431
▁ㄴㅗㅇㅖ -3432
▁ㅊㅏㅁㅅㅓㄱ -3433
▁ㅂㅗㅇㅏㄴ -3434
▁1972 -3435
▁ㅇㅕㄴㄱㅗ -3436
▁ㅅㅜㅊㅜㄹ -3437
▁180 -3438
▁ㅇㅖㅅㅏㅇ -3439
▁ㅎㅔㅇㅣ -3440
ㄷㅡㄹㅣㄷㅡ -3441
▁ㅁㅏㄷㅡㄹㅣㄷㅡ -3442
ㄸㅡㄹㅣ -3443
▁ㅎㅐㄱㅅㅣㅁ -3444
ㄷㅡㅂ -3445
ㅣㄴㅌㅡ -3446
ㅉㅣㄱ -3447
▁ㅌㅐㅍㅜㅇ -3448
▁ㄱㅗㅇㅎㅏㄱ -3449
▁ㅍㅏㄴㄱㅕㄹ -3450
▁ㅍㅡㄹㄹㅐㅅ -3451
▁ㅎㅚㅈㅓㄴ -3452
▁ㄷㅔㄴㅁㅏㅋㅡ -3453
▁ㅇㅓㄹㅣㄴㅇㅣ -3454
ㅇㅕㅂ -3455
▁ㅇㅏㅁㅅㅏㄹ -3456
▁ㅇㅓㄷㅗ -3457
▁ㅅㅏㅈㅓㄴ -3458
▁ㄹㅗㅂㅓㅌㅡ -3459
▁ㅌㅏㄴㅅㅐㅇ -3460
▁ㅈㅜㅇㅂㅏㄴ -3461
▁ㅅㅜㄴㅅㅓ -3462
▁ㅈㅓㄴㅇㅛㅇ -3463
▁ㅂㅓㅂㅊㅣㄱ -3464
▁ㅇㅟㄹ -3465
ㅅㅗㄷㅡ -3466
▁ㅇㅏㄹㅡㅎㅔㄴ -3467
CA -3468
▁ㄷㅐㅂㅣ -3469
▁ㅁㅏㄹㄱㅣ -3470
▁ㅇㅠㅈㅓㄱ -3471
▁46 -3472
▁ㅁㅗㄹㅣ -3473
▁ㄱㅓㅁㅊㅏㄹ -3474
ㅓㄴㅌㅡ -3475
▁ㅂㅗㄴㄱㅕㄱ -3476
ㄷㅏㄱㅏ -3477
▁ㅊㅗㅂㅏㄴ -3478
▁ㅈㅏㅅㅔ -3479
ㄷㅠ -3480
ㄷㅣㅇㅏ -3481
▁ㅈㅣㅂㅎㅐㅇ -3482
▁ㅈㅓㄴㄹㅏㅂㅜㄱㄷㅗ -3483
ㅁㅏㅅㅡ -3484
▁ㅈㅜㅇㅅㅣㅁㅈㅣ -3485
ㅇㅜㄴㄷㅗㅇ -3486
▁ㄷㅐㅎㅏㅇ -3487
▁ㅍㅡㄹㅏㄴ -3488
▁ㅅㅜㅇㅕ -3489
▁ㄱㅏㅎㅏ -3490
▁ㅎㅕㅂㅅㅏㅇ -3491
▁1979 -3492
▁ㄷㅐㄹㅣㅂ -3493
▁ㅇㅐㅍㅡㄹ -3494
▁1920 -3495
ㅌㅏㅇㅣ -3496
▁ㅇㅏㄹㅡㅎㅔㄴㅌㅣㄴㅏ -3497
▁ㅂㅕㄹㄷㅗ -3498
▁ㄱㅗㅇㄱㅣ -3499
▁ㄷㅓㅍ -3500
▁ㅎㅡㄴㅎㅣ -3501
▁ㄷㅏㄴㅇㅣㄹ -3502
ㅎㅕ -3503
ㅆㅣㄴ -3504
▁ㅅㅡㅋㅡㄹ -3505
▁ㅇㅣㄴㅌㅓ -3506
ㅔㅇㅣㅋㅡ -3507
ㅂㅏㄴㄷㅗ -3508
▁CD -3509
▁ㄱㅝㄴㅎㅏㄴ -3510
▁ㄹㅗㄹ -3511
▁ㅇㅓㄹㅁㅏ -3512
ㄲㅏ -3513
▁ㅅㅣㄱㅏㄱ -3514
ra -3515
▁ㅅㅔㅅ -3516
ㅡㅇㅞㅇㅣ -3517
▁kg -3518
ㅉㅏ -3519
▁ㅌㅗㅇㄱㅖ -3520
▁ㅇㅜㅋㅡㄹ -3521
▁ㅁㅜㅇㅓㅅ -3522
▁ㅂㅏㅇㅁㅕㄴ -3523
▁ㄱㅘㄴㄹㅛ -3524
▁ㅈㅣㄱㅇㅝㄴ -3525
▁In -3526
▁ㅇㅏㅋㅣ -3527
▁1981 -3528
▁ㅇㅜㄴㅈㅓㄴ -3529
▁ㄱㅡㅁㅁㅔㄷㅏㄹ -3530
▁ㅅㅏㅎㅏㅇ -3531
▁ㅇㅣㅇㅣㄱ -3532
▁ㅎㅛㅅㅗ -3533
▁ㅅㅏㅇㅎㅏ -3534
▁ㅇㅝㅅㅣㅇㅌㅓㄴ -3535
▁ㄱㅏㄹㅡㅊㅣ -3536
ㄲㅗㅊ -3537
▁1973 -3538
▁ㅎㅕㅂㅈㅓㅇ -3539
▁1930 -3540
▁ㅉㅣㄱ -3541
10 -3542
▁v -3543
ㅊㅓㅂ -3544
ㅓㄴㅐ -3545
ㅈㅓㅇㅂㅜ -3546
▁ㅅㅏㅇㅍㅜㅁ -3547
▁ㅂㅕㄴㅎㅗㅅㅏ -3548
▁ㅆㅗ -3549
▁ㅁㅜㄴㅈㅏㅇ -3550
▁ㅈㅏㄱㄱㅗㄱㄱㅏ -3551
▁ㅎㅗㅌㅔㄹ -3552
▁ㅇㅢㅁㅜ -3553
▁ㄱㅗㅇㅍㅗ -3554
▁ㅈㅓㄴㅎㅕ -3555
ㅗㅋㅏ -3556
▁ㅁㅏㅇㅣㅋㅡㄹ -3557
▁ㅅㅣㅋ -3558
▁ㄷㅗㅁ -3559
▁ㅇㅝㄴㅈㅏㄱ -3560
ㅍㅓㄷㅡ -3561
▁ㅇㅏㅋ -3562
▁150 -3563
▁ㅂㅣㄴㅏㄴ -3564
os -3565
▁ㅂㅔㄴㅔ -3566
▁ㅇㅏㅊㅣㅁ -3567
▁ㅈㅏㅇㅊㅏㄱ -3568
▁ㅈㅏㄹㅁㅗㅅ -3569
▁ㄹㅣㅅㅡ -3570
▁ㅈㅓㅅㅓ -3571
▁ㄴㅗㅎㅇㅣ -3572
▁ㅅㅔㅇㅣ -3573
ㅋㅏㅇㅘ -3574
▁ㅂㅣㄹㄹㅣ -3575
▁ㅎㅕㄴㅈㅏㅇ -3576
▁ㅇㅣㄴㄱㅝㄴ -3577
▁ㄱㅓㄴㄱㅜㄱ -3578
ㅃㅡ -3579
ㅇㅗㅍㅡ -3580
▁ㅅㅏㄴㅎㅏ -3581
▁ㄴㅣㅋㅗㄹ -3582
▁ㅈㅔㅇㅣ -3583
▁ㄱㅗㅇㅁㅜㅇㅝㄴ -3584
ㅌㅜㅇ -3585
▁ㅇㅗㄹㅡㄴㅉㅗㄱ -3586
▁ㅈㅓㄴㅎㅜ -3587
ㄷㅓㅁ -3588
▁ㅈㅜㅇㅅㅔ -3589
BO -3590
em -3591
▁ㄱㅣㅁㅈㅓㅇ -3592
▁ㅅㅜㅅㅜㄹ -3593
▁ㄱㅛㅌㅗ -3594
▁ㄱㅛㄹㅠ -3595
▁ㅁㅣㄹㄹㅣ -3596
ㅗㅎ -3597
▁ㅋㅗㅁㅣ -3598
▁ㅌㅐㄱㅜㄱ -3599
▁ㅊㅏㅇㄹㅣㅂ -3600
▁ㅎㅏㅇㅂㅗㄱ -3601
ㄱㅗㄱㅣ -3602
▁ㅍㅡㄹㄹㅔㅇㅣㅇㅓ -3603
▁ㅎㅏㄴㄸㅐ -3604
▁1974 -3605
▁ㅌㅜㅇㅣㅂ -3606
30 -3607
▁ㅇㅑㅁㅏ -3608
▁ㅇㅣㄴㄹㅠ -3609
▁ㅅㅗㅅㅣㄱ -3610
▁ㅇㅛㅅㅐ -3611
▁ㅇㅚㄴㅉㅗㄱ -3612
▁ㄴㅏㅊㅣ -3613
▁185 -3614
▁1940 -3615
ㅎㅠ -3616
▁ㅂㅔㅇㅣㅈㅣㅇ -3617
ter -3618
▁ㅅㅜㄷㅗㅇ -3619
▁ㅅㅓㄱㅣ -3620
ㄱㅕㄴㅏ -3621
▁ㄱㅡㅁㅅㅗㄱ -3622
▁ㅈㅓㄴㅊㅓㄹ -3623
▁ㅎㅝㄹ -3624
▁ㅂㅗㄱㅎㅏㅂ -3625
▁ㅈㅜㅇㅟ -3626
▁ㄱㅗㅇㅎㅘ -3627
▁ㄹㅐㄴ -3628
▁ㅇㅡㅂ -3629
▁ㄴㅗㄹㅡㅇㅞㅇㅣ -3630
▁ㅁㅏㅋㅡ -3631
▁ㅎㅕㅇㅅㅏ -3632
ㅡㅁㅏ -3633
▁ㅅㅓㅇㅈㅣㄹ -3634
▁ㅇㅔㅍㅣㅅㅗㄷㅡ -3635
▁ㄱㅗㅇㅠ -3636
▁ㅂㅜㄱㅅㅓ -3637
▁ㅇㅣㄴㅈㅓㅇㅂㅏㄷ -3638
▁ㅇㅗㄹㅐㄴ -3639
ㅏㅁㅜ -3640
▁ㅍㅏㅋㅡ -3641
▁ㅁㅔㄹㅣ -3642
▁ㅈㅔㅈㅏ -3643
▁ㅌㅏㅇㅣㅇ -3644
▁ㅊㅜㅊㅡㄱ -3645
▁ㅅㅓㅇㄱㅕㅇ -3646
▁ㅇㅕㄴㅅㅏㄴ -3647
▁ㄲㅜ -3648
▁ㄱㅣㅎㅏ -3649
▁ㅇㅠㅈㅓㄴㅈㅏ -3650
▁ㅍㅏㅂ -3651
▁ㅂㅏㅇㅊㅜㄹ -3652
▁ㄷㅣㄹ -3653
▁ㄹㅏㅇㅣㅂㅡ -3654
▁ㅅㅣㅁㄱㅏㄱ -3655
▁ㅇㅜㄴㅇㅛㅇ -3656
▁ㅎㅝㄹㅆㅣㄴ -3657
▁ㅇㅝㄴㅈㅜ -3658
▁ㅎㅔㄴㄹㅣ -3659
▁ㄱㅜㄴㅅㅜ -3660
▁ㄱㅗㅇㅅㅏㄴㅈㅜㅇㅢ -3661
▁ㄱㅏㄱㅂㅗㄴ -3662
▁ㅁㅗㅅㅡㅋㅡㅂㅏ -3663
▁ㅈㅓㄹㄷㅐ -3664
▁ㄱㅓㄴㅈㅗ -3665
▁ㅍㅐㅎㅏ -3666
▁ㅅㅏㅁㄱㅏㄱ -3667
▁SBS -3668
▁ㅂㅗㄴㅇㅣㄴ -3669
ㅅㅟ -3670
▁ㅎㅐㅇㅑㅇ -3671
▁ㅈㅜㅇㅂㅜ -3672
ㄷㅠㅅㅓ -3673
▁ㅍㅡㄹㅗㄷㅠㅅㅓ -3674
▁ㄴㅣㄴ -3675
▁ㅁㅕㄹㅁㅏㅇ -3676
▁ㅎㅏㅂㅅㅓㅇ -3677
▁1948 -3678
ㅔㅇㅣㅈㅣ -3679
▁ㅅㅜㅅㅈㅏ -3680
▁ㅇㅣㄴㅈㅗㅇ -3681
▁ㅅㅏㄹㅕㅇㄱㅘㄴ -3682
▁ㅇㅖㅅㅏㄴ -3683
▁ㄱㅜㅂㅕㄹ -3684
▁ㄴㅗㄴㅇㅢ -3685
▁ㅎㅛㅇㅠㄹ -3686
▁1968 -3687
ㅓㅅㅡㄴ -3688
▁ㄱㅏㄹㄷㅡㅇ -3689
▁54 -3690
▁ㅇㅕㄴㅎㅏㅂㄱㅜㄴ -3691
▁ㅍㅡㄹㄹㅔㅇㅣㅇㅗㅍㅡ -3692
▁1976 -3693
▁ㅅㅣㄹㄹㅣ -3694
▁ㅇㅣㅂㅈㅏ -3695
▁ㅁㅜㄹㅣ -3696
▁ㅅㅏㅇㅣㅁ -3697
ㅏㅌㅡ -3698
▁ㅊㅗㄹ -3699
▁ㄱㅜㄱㄷㅗ -3700
▁ㅈㅣㅂㅇㅏㄴ -3701
▁ㅂㅔㄹㅡㄹㄹㅣㄴ -3702
▁ㅅㅐㅁ -3703
ㅌㅓㄹㅣ -3704
▁ㅊㅏㅇㅈㅗ -3705
▁ㄷㅏㅋㅏ -3706
▁ㅇㅣㄴㄱㅗㅇ -3707
▁ㅇㅡㅁㄹㅕㄱ -3708
▁ㄹㅏㄷㅗ -3709
▁ㅊㅜㄹㅇㅣㅂ -3710
▁ㅂㅏㄴㅂㅗㄱ -3711
▁ㅊㅜㄹㅈㅏㅇ -3712
▁ㅍㅓㅈㅣ -3713
▁ㅇㅝㄴㅈㅏㄹ -3714
▁ㄱㅓㄴㄹㅣㅂ -3715
ㅔㄷㅡ -3716
▁ㄱㅕㅇㅅㅓㅇ -3717
▁ㅇㅓㄸㅓㅎㄱㅔ -3718
▁1975 -3719
▁ㅌㅜㅈㅐㅇ -3720
▁ㄷㅡㄹㅓㄴㅏ -3721
▁ㅋㅏㄹㄹㅣ -3722
ㅌㅐㅇ -3723
▁ㅂㅜㄱㄷㅗㅇ -3724
▁ㅅㅏㅌㅐ -3725
▁ㄴㅗㄴㅈㅐㅇ -3726
▁ㅃㅜㄹㅣ -3727
▁ㅅㅏㅂㅓㅂ -3728
▁ㄷㅓㄴㅈㅣ -3729
▁ㅅㅜㅅㅗㅇ -3730
▁ㅍㅡㄹㄹㅗ -3731
▁ㅇㅣㄴㅈㅗ -3732
▁ㅈㅓㄴㄱㅗㅇ -3733
▁ㅅㅡㅋㅗㅌㅡㄹㄹㅐㄴㄷㅡ -3734
▁ㅇㅗㅌㅗ -3735
ㅇㅓㅄㅇㅣ -3736
▁ㅁㅗㄱㅅㅏ -3737
op -3738
▁ㅃㅗㅂ -3739
▁ㅇㅕㄴㄱㅘㄴ -3740
▁ㅂㅗㅇㅎㅏ -3741
ㅜㅁㅏ -3742
▁ㅂㅓㅅㅇㅓㄴㅏ -3743
▁ㅊㅜㄹㅁㅏ -3744
▁ㅈㅓㅇㅂㅣ -3745
ㅣㅇㅓㄹ -3746
▁ㅈㅜㅈㅓㄴ -3747
▁ㅁㅏㅅㅣ -3748
▁ㄱㅗㄹㅣ -3749
▁ㅅㅏㄹㅕㅇㅂㅜ -3750
ㅂㅜㄹㅡㅋㅡ -3751
ag -3752
▁ㅇㅝㄴㄹㅣ -3753
▁ㅈㅔㅊㅜㄹ -3754
▁ㅊㅟㄱㅡㅂ -3755
▁ㅇㅕㅇㅎㅘㅈㅔ -3756
▁ㄹㅔㄷㅡ -3757
▁ㄱㅏㅈㅕㅇㅗ -3758
ㅏㅇㅣㅌㅣ -3759
▁ㅇㅣㅁㅣㄴ -3760
▁ㅅㅡㄹㅣ -3761
ㄱㅡ -3762
▁ㅊㅜㄱㅈㅔ -3763
▁1978 -3764
▁ㅅㅣㄴㅊㅔ -3765
▁ㅇㅕㄱㅐㄱㅊㅓㄹㄷㅗ -3766
▁ㅇㅜㅅㅡ -3767
▁ㅈㅡㄹㄱㅣ -3768
ㅅㅕ -3769
▁ㅎㅘㄹㅂㅏㄹ -3770
▁ㅅㅗㄴㅕ -3771
▁ㅅㅣㅈㅓㅁ -3772
▁ㅌㅡㄹㅐㄱ -3773
▁ㅅㅗㅅㅡ -3774
▁ㅎㅡㅂㅅㅜ -3775
▁ㅇㅗㅎㅣㄹ -3776
▁ㅇㅠㄴㅏㅇㅣㅌㅣ -3777
▁ㅁㅗㅂㅏㅇ -3778
▁ㄱㅜㄱㅈㅏㅇ -3779
▁1971 -3780
▁ㄱㅓㅈㅓㄹ -3781
▁56 -3782
▁ㄷㅐㅅㅓㅇ -3783
ㅏㅅ -3784
▁ㅇㅏㅍㅏ -3785
▁ㅇㅗㅈㅓㄴ -3786
▁ㅁㅕㅇㅅㅓㅇ -3787
▁ㅊㅟㄷㅡㄱ -3788
▁ㄱㅐㅅㅣ -3789
▁ㅍㅗㅇㅟ -3790
ㅅㅡㅌㅣㅇ -3791
ㄷㅔㅅㅡ -3792
▁ㅎㅘㄹㅅㅓㅇ -3793
▁ㅎㅣㅂ -3794
▁1963 -3795
▁ㅊㅗㅇㄷㅗㄱ -3796
▁ㄹㅗㅅㅡㅇ -3797
▁52 -3798
▁ㅁㅔㅅㅣ -3799
ㅍㅏㅇ -3800
▁ㅁㅏㅆㅡ -3801
ㅌㅗㄹ -3802
▁ㅈㅜㅇㄷㅐ -3803
▁ㅇㅗㅂ -3804
ㅅㅛ -3805
▁ㅈㅜㅌㅐㄱ -3806
▁ㄹㅔㅇㅣㄴ -3807
▁ㅍㅗㄱㅣ -3808
▁ㅂㅜㄴㅈㅐㅇ -3809
▁ㅇㅣㄴㅌㅓㅂ -3810
▁ㅎㅜㅈㅣ -3811
▁ㄱㅗㅇㅛㅇ -3812
▁ㅎㅏㄴㄱㅜㄱㅇㅓ -3813
▁65 -3814
ㅐㅁㅍㅡ -3815
▁ㅅㅣㄴㅅㅓㅇ -3816
▁ㄴㅓㅁㄱㅣ -3817
▁ㅇㅣㄴㅌㅓㅂㅠ -3818
▁ㅎㅏㅇㅟ -3819
ce -3820
▁ㅎㅏㄱㅅㅡㅂ -3821
▁ㅈㅜㄱㅣ -3822
ㅓㄷㅡ -3823
▁ㅇㅠㅁㅜㄹ -3824
ㅅㅣㅅㅡ -3825
▁ㅂㅗㄴㅅㅏ -3826
▁49 -3827
ㅡㄹㄹㅣ -3828
ㅋㅣㅅㅡㅌㅏㄴ -3829
▁00 -3830
ㅇㅗㅇ -3831
▁ㅇㅣㄹㅊㅣ -3832
ㅜㅇㅣ -3833
▁ㅈㅏㅇㅇㅏㄱ -3834
▁ㅌㅏㅇㅣㅇㅘㄴ -3835
▁ㅇㅕㄴㄹㅛ -3836
▁ㅁㅏㅅㅏ -3837
▁ㄱㅘㄴㅈㅣㄱ -3838
▁ㅇㅣㅇㅗㄴ -3839
▁ㄷㅗㅇㅇㅝㄴ -3840
▁Q -3841
▁ㅇㅜㄱ -3842
ㅇㅓㄹ -3843
▁ㅁㅏㅊㅣㅁ -3844
ㅅㅓㅌㅡ -3845
ㅂㅣㅊㅣ -3846
▁ㄱㅗㅈㅗㅇ -3847
▁ㅎㅜㅇㅝㄴ -3848
▁ㄷㅣㅇ -3849
▁ㄱㅕㄴㅎㅐ -3850
▁ㅈㅜㄱㅘㄴ -3851
▁179 -3852
▁1969 -3853
▁ㅇㅑㄱㅅㅗㄱ -3854
ㅈㅔㄹㄹㅔㅅㅡ -3855
▁ㅁㅕㅇㅁㅕㅇ -3856
▁ㄷㅐㄹㅣ -3857
▁ㅂㅜㄹㅅㅏㅇ -3858
▁ㅈㅓㄴㅂㅜ -3859
▁ㄴㅗㅇㅁㅣㄴ -3860
▁ㅋㅗㅅㅡ -3861
▁ㅊㅓㄴㅊㅔ -3862
▁ㅇㅣㅈㅜㅇ -3863
▁ㄷㅏㅅ -3864
▁ㅁㅗㅅㅣ -3865
▁ㅅㅗㅂㅏㅇ -3866
▁ㅎㅐㅅㅏㅇ -3867
▁ㅇㅗㅎㅣㄹㅕ -3868
▁ㄴㅡㄹㅇㅓㄴㅏ -3869
▁ㅂㅣㄹㅗㄱ -3870
▁ㄴㅔㅅ -3871
▁ㅂㅜㄹㅂㅓㅂ -3872
▁ㅂㅡㄹㄹㅗㄱ -3873
▁ㅈㅣㄱㅈㅓㄴ -3874
▁ㄱㅜㅅㅗㄱ -3875
▁ㅎㅏㅇㄱㅗㅇㄱㅣ -3876
▁ㅇㅕㄴㅈㅐ -3877
▁ㅈㅜㅅㅣㄱㅎㅚㅅㅏ -3878
▁ㄴㅑ -3879
▁ㅂㅜㅎㅘㄹ -3880
ㅏㄴㅏ -3881
OS -3882
ㄱㅗㅇㅎㅏㅇ -3883
▁ㅈㅓㅇㅊㅔ -3884
▁ㅇㅕㅇㅇㅓㅂ -3885
▁ㅊㅜㅇㅊㅓㅇㅂㅜㄱㄷㅗ -3886
▁ㅅㅓㅇㄴㅡㅇ -3887
▁ㅂㅏㄲㅇㅔ -3888
ㅂㅜㅌㅇㅣ -3889
▁ㄹㅗㄷㅡ -3890
ㅍㅡㄹㅣ -3891
▁ㅈㅜㄱㅏㄴ -3892
▁1946 -3893
ㅣㅇㅗㄹ -3894
▁ㅌㅡㅇ -3895
▁ㅍㅗㄱㄹㅕㄱ -3896
▁ㅎㅏㄱㅅㅜㄹ -3897
▁ㅅㅜㅈㅣㅂ -3898
▁ㅈㅏㅇㄱㅛ -3899
▁ㅂㅐㄱㅈㅏㄱ -3900
▁ㅂㅗㅎㅓㅁ -3901
▁ㅂㅐㄱㅈㅔ -3902
▁ㄴㅗㄴㄹㅣ -3903
▁ㅅㅓㄴㄱㅛ -3904
▁ㅎㅘㅁㅜㄹ -3905
▁ㄷㅔㅇㅣㅂㅣㄷㅡ -3906
▁ㅎㅗㄴㄹㅏㄴ -3907
▁53 -3908
▁ㄷㅗㄱㅜ -3909
▁ㄷㅗㄷㅏㄹ -3910
▁ㄱㅔㄴ -3911
▁ㅎㅣㄷㅔ -3912
▁ㅁㅜㄹㄹㅓㄴㅏ -3913
▁ㅍㅗㄷㅗ -3914
▁ㅁㅣㄷㅡ -3915
▁ㅈㅣㄱㅇㅓㅂ -3916
▁ㅊㅓㄹㅅㅜ -3917
▁ㅅㅏㅇㄷㅏㅇㅎㅣ -3918
▁ㅈㅗㅂ -3919
▁ㅋㅗㄹㅗㄴㅏ -3920
▁ㄱㅘㄴㅈㅓㅁ -3921
oc -3922
▁ㅂㅗㄱㅘㄴ -3923
▁ㅂㅏㄴㅇㅕㅇ -3924
▁ㄲㅡㅌㄴㅐ -3925
▁ㅍㅕㄴㅈㅣ -3926
▁ㅂㅜㅈㅏㅇ -3927
▁ㅎㅐㅅㅏㄴ -3928
▁1964 -3929
ㅏㄴㅣㅁ -3930
▁ㄷㅓㄹㅏㄷㅗ -3931
▁ㅇㅣㄹㄷㅐ -3932
▁ㅂㅜㅇㅣㅁ -3933
▁ㅇㅕㅂㅜ -3934
▁ㅎㅏㅇㅜㅅㅡ -3935
ㅅㅓㅇㄱㅜㄴ -3936
▁ㅇㅣㅁㄱㅡㅁ -3937
▁ㅎㅓㅁ -3938
▁ㄱㅜㄱㅈㅔㄱㅗㅇㅎㅏㅇ -3939
▁ㅈㅔㅇㅣㄹ -3940
▁ㅈㅓㅇㅇㅝㄴ -3941
▁ㅁㅓㄱㅇㅣ -3942
ri -3943
ㄹㅏㄹ -3944
▁ㅂㅗㄱㅓㄴ -3945
▁US -3946
▁and -3947
ㄹㅏㅈㅣ -3948
▁ㅋㅗㄹㄹㅗ -3949
▁ㅅㅣㅎㅗ -3950
▁ㄷㅐㄹㅑㄱ -3951
▁ㅈㅣㅂㅜㅇ -3952
▁ㅂㅏㄱㅈㅓㅇ -3953
▁ㅎㅏㄱㅂㅜ -3954
ㄷㅣㅇㅓㄴ -3955
ㅣㄷㅡ -3956
▁ㄱㅛㅎㅘㄴ -3957
ㅈㅡㅂ -3958
▁ㄱㅡㄹㄹㅗㅂ -3959
▁ㅅㅣㅁㄹㅣ -3960
▁ㄱㅏㄴㄷㅏㄴ -3961
ㄴㅕㅇ -3962
▁ㅂㅔㄹㄱㅣ -3963
ㄲㅐ -3964
ㅅㅡㅋㅏ -3965
▁ㅎㅓㄱㅏ -3966
▁ㅇㅢㅈㅗㄴ -3967
▁ㅋㅏㅇ -3968
▁ㅈㅐㄹㅛ -3969
▁ㅋㅗㄴㅅㅓㅌㅡ -3970
▁ㄹㅓㅅㅣ -3971
▁ㅇㅣㄴㄷㅗㄴ -3972
▁ㅅㅓㅂㅓ -3973
▁ㅂㅔㅅㅡㅌㅡ -3974
▁ㅂㅏㅂ -3975
▁58 -3976
▁ㅇㅔㄷㅡㅇ -3977
▁ㄱㅐㅊㅔ -3978
▁ㅎㅏㄴㅏㄴㅣㅁ -3979
▁ㅈㅓㄴㅁㅜㄴㄱㅏ -3980
▁ㅈㅓㅇㅈㅣ -3981
▁ㅈㅓㄴㄷㅗㅇ -3982
▁ㅇㅏㄹㅣ -3983
▁ㅈㅏㅅㅏㄹ -3984
▁ㅎㅏㄱㅎㅚ -3985
▁ㅎㅏㄱㅇㅝㄴ -3986
▁PC -3987
▁ㅅㅡㅋㅏ -3988
▁ㅂㅕㄴㅎㅘㄴ -3989
▁ㅇㅏㄴㅌㅏ -3990
▁ㅅㅣㄱㅍㅜㅁ -3991
▁ㅇㅡㅇㅇㅛㅇ -3992
▁ㄱㅗㅇㅌㅗㅇ -3993
▁ㄱㅏㅇㅡㄹ -3994
ㅁㅜㄴㅎㅘㅈㅐ -3995
▁ㄷㅐㅎㅘ -3996
▁ㅌㅗㅂ -3997
▁ㄲㅗㄱ -3998
▁ㅅㅏㄹㅇㅣㄴ -3999
ㅋㅜㄹㅏ -4000
▁ㅅㅡㅇㅈㅣㄴ -4001
ㅎㅏㅁㅏ -4002
▁ㅅㅗㅂㅣㅇ -4003
▁1977 -4004
▁ㄹㅜㅇㅣㅅㅡ -4005
▁ㅅㅏㅇㄹㅠㄱ -4006
▁ㄱㅖㅌㅗㅇ -4007
ㅊㅓㄴㄱㅜㄴ -4008
▁ㅍㅏㅁ -4009
▁ㅅㅏㅈㅏㅇ -4010
▁ㅇㅣㅁㅇㅢ -4011
▁ㅁㅣㄴㅂㅓㅂ -4012
▁ㅇㅕㅇㅎㅑㅇㄹㅕㄱ -4013
▁ㅈㅣㄴㅇㅣㅂ -4014
▁ㅈㅜㄴㅕㄴ -4015
▁ㅁㅣㅇㅑ -4016
▁ㅅㅣㄴㅂㅜㄴ -4017
▁ㅊㅏㅇㄷㅏㄴ -4018
ㅂㅕㅇㄷㅐ -4019
▁ㅈㅣㄹㅂㅕㅇ -4020
▁1000 -4021
▁ㅂㅏㄴㅂㅏㄹ -4022
▁ㅊㅐㅇㅛㅇ -4023
▁ㄱㅣㅁㅇㅕㅇ -4024
▁ㅈㅓㄴㅍㅏ -4025
▁ㅎㅚㅇ -4026
▁ㅍㅣㅇㅏㄴㅗ -4027
ㅏㄱㅣ -4028
▁ㅇㅚㄱㅜㄱㅇㅣㄴ -4029
ㅁㅓㄴㅣ -4030
▁ㅊㅣㄴㅇㅣㄹ -4031
▁ㅁㅣㅌㅓ -4032
▁ㄱㅜㅅㅓㅇㅇㅝㄴ -4033
▁ㅅㅏㅇㅜㄴㄷㅡ -4034
▁ㅋㅟㄴ -4035
igh -4036
▁99 -4037
▁ㅈㅣㄴㅇㅏㅂ -4038
▁ㅎㅗㅅㅜ -4039
ㅈㅓㅇㅅㅣㄱ -4040
▁ㅁㅏㄹㄹㅔㅇㅣ -4041
▁ㅅㅜㅇㅕㅇ -4042
▁ㅌㅗㅇㅅㅏㅇ -4043
▁ㅅㅗㅂㅣㅇㅔㅌㅡ -4044
▁ㅃㅐㅇ -4045
▁ㅋㅐㅁㅍㅓㅅㅡ -4046
▁ㄹㅗㅅㅡㅇㅐㄴ -4047
▁ㄹㅗㅅㅡㅇㅐㄴㅈㅔㄹㄹㅔㅅㅡ -4048
ㅔㄹㄹㅏ -4049
▁ㅊㅏㅁㅈㅓㄴ -4050
▁ㄹㅣㄹ -4051
▁ㅂㅏㅇㅅㅗㅇㄱㅜㄱ -4052
▁ㅎㅘㅅㅓㅇ -4053
▁ㅁㅏㅇㅁㅕㅇ -4054
▁ㅎㅘㅁㅕㄴ -4055
▁ㄴㅏㅇㅏㄱㅏ -4056
▁88 -4057
▁ㅅㅣㄹㅣㅇㅏ -4058
▁ㅅㅏㅇㅅㅡㅇ -4059
ㅗㄹㅣ -4060
▁ㅁㅗㄷㅡ -4061
ㅇㅏㅂㅓㅈㅣ -4062
▁ㅁㅜㄴㅎㅓㄴ -4063
▁ㅇㅝㄴㅎㅏ -4064
▁ㅈㅔㅇㅓ -4065
▁ㅎㅏㅂㄱㅕㄱ -4066
▁ㅇㅠㄷㅐ -4067
▁ㅅㅓㄴㅈㅗ -4068
▁ㅂㅗㄱㅁㅜ -4069
▁ㄱㅗㅇㄷㅗㅇㅊㅔ -4070
▁ㄷㅗㅇㄴㅏㅁ -4071
▁ㅇㅑㄱㅎㅏ -4072
▁1949 -4073
▁ㄷㅏㅁㅕ -4074
▁ㄷㅗㅇㅅㅓㅇ -4075
▁ㄴㅜㄹㅣ -4076
ㅜㅊㅣ -4077
▁ㅎㅏㄱㄱㅘ -4078
ation -4079
ㅌㅡㅁ -4080
▁ㅍㅐㅇ -4081
▁ㅇㅔㄷㅗ -4082
▁ㅂㅔㄹㄱㅣㅇㅔ -4083
▁r -4084
▁ㄹㅗㅅㄷㅔ -4085
▁ㅋㅗㅍㅏ -4086
▁ㅇㅕㅇㅇㅣㅂ -4087
▁ㄱㅓㄱㅣ -4088
▁ㅁㅏㄴㅈㅜ -4089
▁1962 -4090
▁ㅁㅓㅁㅜㄹㅡ -4091
▁ㅎㅕㄴㅇㅕㄱ -4092
ㄹㅗㄹ -4093
▁ㅁㅏㅋㅔ -4094
▁SK -4095
▁ㅈㅣㄴㅂㅗ -4096
ㅌㅏㅇㅣㄴ -4097
▁62 -4098
▁ㅅㅓㅇㅝㄴ -4099
▁FA -4100
▁ㄱㅗㄷㅗ -4101
▁ㅂㅕㄴㅎㅕㅇ -4102
▁ㅈㅣㄹㅣ -4103
▁ㅇㅣㄴㄷㅗㄴㅔㅅㅣㅇㅏ -4104
▁ㅋㅗㅁㅣㄷㅣ -4105
▁ㄱㅣㅎㅗ -4106
ㅊㅓㄴㅅㅣ -4107
▁ㅈㅐㄴ -4108
▁ㅈㅓㅈㅏㄱ -4109
▁ㅇㅣㅁㄷㅐ -4110
▁1967 -4111
▁ㅅㅏㅇㅇㅝㄴ -4112
▁ㅈㅗㅈㅏㄱ -4113
ㄲㅇㅣ -4114
▁ㄷㅗㅇㅈㅏㄱ -4115
▁ㄹㅗㅋㅔㅅ -4116
▁ㅇㅕㄴㅊㅜㄹ -4117
▁ㅇㅏㄹㄹㅔㄱㅅㅏㄴㄷㅡㄹ -4118
▁ㅂㅐㅊㅜㄹ -4119
▁ㅉㅗㅊ -4120
▁ㅅㅡㅌㅏㄹ -4121
▁ㄴㅗㄹㅣ -4122
▁57 -4123
ㅔㅇㅣㅌㅓ -4124
▁ㄱㅣㄷㅗ -4125
▁ㅇㅏㄹㅏ -4126
▁ㄱㅘㅇㅈㅏㅇ -4127
▁ㄸㅢ -4128
▁ㅈㅡㅇㅅㅏㅇ -4129
▁ㅈㅏㄴㅕ -4130
ㅌㅣㄱ -4131
▁ㅇㅟㅅㅏㅇ -4132
▁ㅌㅏㄴㅅㅗ -4133
▁ㄸㅡ -4134
▁ㄷㅗㅁㅏㅇ -4135
ㅈㅓㅇㅜ -4136
▁ㅊㅜㄹㄱㅏㄴ -4137
▁ㅌㅏㄹㅊㅜㄹ -4138
▁ㅇㅢㄷㅗ -4139
▁ㅎㅏㄴㅂㅏㄴㄷㅗ -4140
▁ㄱㅜㄱㅁㅜ -4141
▁ㅎㅠㅇ -4142
▁ㅁㅣㄴㅣ -4143
▁ㅇㅕㄴㅇㅏㄴ -4144
ㅌㅡㄹㅏ -4145
ㅎㅏㅇㅣ -4146
▁ㄹㅜㅌㅡ -4147
▁ㅅㅣㄴㅊㅓㅇ -4148
▁ㅅㅜㅇㅛ -4149
▁ㅇㅟㅂㅏㄴ -4150
▁ㅂㅜㅂㅜ -4151
▁ㅎㅘㅈㅐ -4152
▁ㅍㅏㄴㅅㅓ -4153
▁Ch -4154
▁You -4155
▁ㅌㅏㄹㄹㅏㄱ -4156
ㅌㅏㅁ -4157
▁ㅇㅞㅇㅣ -4158
▁ㅈㅜㄷㅜㄴ -4159
▁ㅈㅗㅈㅓㄹ -4160
▁ㄱㅡㄹㅓㄴㄷㅔ -4161
▁ㄹㅣㄷㅓ -4162
▁ㅅㅣㄹㅅㅜ -4163
▁ㅈㅓㅇㄱㅣ -4164
▁ㅊㅓㅎㅕㅇ -4165
▁ㅇㅣㄹㅉㅣㄱ -4166
▁ㅎㅐㄹㅣ -4167
▁ㄴㅗㅇㄱㅜ -4168
▁.. -4169
▁ㅂㅏㄴㄷㅡ -4170
▁ㅁㅏㄱㅂㅜ -4171
▁ㅌㅓㄴㅓㄹ -4172
▁ㄱㅡㅊㅣ -4173
▁ㅇㅖㅊㅡㄱ -4174
▁ㅅㅣㄴㅇㅣㄴ -4175
ㅠㅂㅡ -4176
▁ㅈㅓㄹㅊㅏ -4177
▁ㄷㅣㄴ -4178
▁ㅂㅏㄹㅇㅓㄴ -4179
▁ㅂㅜㄴㅇㅕㄹ -4180
▁ㅊㅓㄴㅇㅕㄴ -4181
▁ㅎㅘㅇㄱㅡㅁ -4182
▁ㄲㅏ -4183
ㄱㅓㅁ -4184
▁ㄱㅡㅇ -4185
▁ㅈㅏㅇㄹㅡ -4186
▁ㅂㅏㄷㅜㄱ -4187
▁ㅎㅜㅋㅜㅇ -4188
▁ㄱㅣㅂㅓㅂ -4189
ㄱㅗㅅ -4190
▁ㅇㅣㅁㅈㅣㄴ -4191
▁ㄴㅏㅁㅅㅓ -4192
▁ㅇㅣㅅㅡㅇㅁㅏㄴ -4193
▁ㄱㅜㅁ -4194
ㅌㅏㄹㅡ -4195
▁ㅁㅜㄷㅓㅁ -4196
ㅅㅖ -4197
▁ㄱㅣㅊㅔ -4198
ㅋㅏㅇ -4199
▁ㅅㅜㅅㅗ -4200
ㅂㅏㅇㅅㅗㅇ -4201
▁ㅂㅏㅇㅈㅣ -4202
▁ㅎㅕㄴㅈㅣ -4203
▁ㅅㅔㅇㅣㄴㅌㅡ -4204
▁ㅅㅓㄴㅈㅓㄴ -4205
▁181 -4206
ㅍㅗㄹㅡ -4207
▁ㄱㅗㅊㅣ -4208
▁ㄴㅜㄹㅡ -4209
▁ㅇㅛㅇㅣㄴ -4210
▁ㅂㅏㄹㅡㅅ -4211
▁ㅇㅗㅅㅡㅁㅏㄴ -4212
▁ㅅㅏㅂ -4213
ㄹㅕㅇㅗ -4214
▁ㅇㅣㄹㅅㅣㄱ -4215
▁ㅂㅏㅇㅈㅓㅇㅅㅣㄱ -4216
nd -4217
▁ㅌㅡㄱㅇㅣ -4218
▁ㄴㅗㅂㅔㄹ -4219
▁ㅇㅓㄸㅓ -4220
▁ㄱㅐㅈㅗ -4221
▁ㅅㅐㅇㅈㅗㄴ -4222
ㅅㅏㄴㅅㅣ -4223
▁ㅇㅕㄷㅏㄴ -4224
▁ㅊㅟㅅㅗ -4225
▁ㄱㅗㅂ -4226
ㅌㅜㄱㅣ -4227
▁66 -4228
▁ㄲㅓ -4229
▁ㄱㅡㄹㅈㅏ -4230
▁KBO -4231
▁ㅋㅏㅁㅔㄹㅏ -4232
▁ㄱㅜㅂ -4233
▁ㅂㅗㅋㅓㄹ -4234
▁1966 -4235
▁ㅇㅣㄹㅂㅗㄴㄱㅜㄴ -4236
ㄴㅔ -4237
▁ㄱㅗㅈㅣ -4238
ㅅㅜㄹㅗㄱ -4239
▁ㅎㅏㅇㄱㅜ -4240
▁ㅅㅓㄱㅜ -4241
▁ㅋㅗㄴㅅㅡㅌㅏㄴ -4242
▁ㅎㅡㄱㅇㅣㄴ -4243
▁ㅅㅡㅌㅗㄹㅣ -4244
▁ㄷㅗㄱㄹㅣㅂㅇㅜㄴㄷㅗㅇ -4245
▁ㅁㅣㄱㅜㄱㅇㅣㄴ -4246
▁ㄷㅓㅅ -4247
▁ㅂㅗㅈㅗ -4248
▁ㅈㅣㄱㅡㅂ -4249
▁1965 -4250
▁ㄱㅐㄹㄹ -4251
▁ㅇㅘㅇㅈㅏ -4252
▁ㅅㅏㄹㅣㅂ -4253
▁ㄴㅏㄷㅡㄹ -4254
▁68 -4255
▁ㄹㅣㅊㅓ -4256
▁ㅊㅏㅇㅇㅝㄴ -4257
▁ㅂㅏㄴㄷㅡㅅㅣ -4258
▁ㄴㅏㄷㅡㄹㅁㅗㄱ -4259
▁ㄷㅜㄹㅉㅐ -4260
ㅅㅏㅅㅡ -4261
▁ㅇㅛㅋㅗ -4262
ㅌㅣㅂㅡ -4263
▁ㄱㅗㅇㅈㅓㅇ -4264
▁ㄴㅗㄱㅅㅐㄱ -4265
▁ㅈㅣㄴㅈㅜ -4266
▁ㅎㅢㅁㅏㅇ -4267
▁ㅎㅣㅁㄷㅡㄹ -4268
▁ㅎㅘㅅㅏㄴ -4269
▁ㄴㅡㅈ -4270
▁ㄱㅕㅇㄹㅗ -4271
▁ㅎㅣㅌㅡ -4272
ST -4273
▁ㄹㅏㅇㅣㅌㅡ -4274
▁ㄷㅡㅁㅜㄹ -4275
▁ㅍㅗㄹㅗ -4276
▁ㅈㅓㄴㅎㅕㅇ -4277
▁ㅅㅓㄴㅂㅗㅇㅣ -4278
ㅡㄱㅏㄴ -4279
▁ㅇㅏㅌㅔㄴ -4280
ㅇㅜㄹ -4281
▁ㅈㅓㄴㅁㅕㄴ -4282
▁61 -4283
▁ㄱㅏㄴㅎㅐㅇ -4284
▁ㅁㅐㅇㅣㄹ -4285
▁ㄷㅗㄱㅌㅡㄱ -4286
▁ㅂㅓㅂㅈㅓㅇ -4287
▁ㄷㅗㅈㅓㄴ -4288
▁%, -4289
▁ㅇㅏㅂㄹㅕㄱ -4290
ㅅㅡㅋㅔ -4291
▁ㅁㅜㄹㅊㅔ -4292
▁ㅁㅏㅈㅅㅓ -4293
▁ㅎㅐㅁ -4294
▁ㅎㅓㄹ -4295
▁ㅊㅏㄹㅅㅡ -4296
▁183 -4297
▁ㄱㅏㄹㅅㅐㄱ -4298
▁ㄱㅐㅅㅣㄴ -4299
ㄱㅜㅇㅝㄴ -4300
▁ㅊㅣㅇㅎㅏ -4301
ㅋㅡㄴ -4302
ㄷㅗㄹㅡ -4303
▁ㅈㅘㅇㅜ -4304
ice -4305
▁ㅋㅟ -4306
▁ㄴㅡㄴㄱㅏ -4307
▁ㅅㅣㄴㄹㅚ -4308
▁ㅍㅏㅇㅏㄱ -4309
▁ㅅㅗㄴㅈㅏ -4310
ㄱㅓㄹ -4311
ER -4312
▁ㅅㅡㄴ -4313
▁ㅇㅏㅌ -4314
▁ㅎㅏㅇㅣㄴ -4315
▁ㄴㅠㅈㅣㄹ -4316
ㅣㄱㅕㅇ -4317
art -4318
▁ㅆㅏㅇㅜㅁ -4319
▁1961 -4320
▁ㅇㅘㄴㄹㅛ -4321
▁ㅂㅜㄴㅎㅏㄹ -4322
▁ㅍㅐㄱ -4323
▁IS -4324
ㅇㅏㅂㅗ -4325
▁ㄱㅏㅅㅏㅇ -4326
▁ㅂㅕㄹㅁㅕㅇ -4327
▁ㅇㅠㅎㅐㅇ -4328
▁ㄱㅓㄴㄴㅓ -4329
▁ㅂㅜㄴㅁㅕㅇ -4330
▁ㄹㅏㄹ -4331
▁ㄴㅠㅈㅣㄹㄹㅐㄴㄷㅡ -4332
▁ㄷㅐㄱㅐ -4333
▁ㅇㅓㄷㅣ -4334
▁ㅌㅣㅂ -4335
ON -4336
▁ㅌㅔㅇㅣ -4337
▁ㅌㅣㅇ -4338
▁ㄹㅣㄱㅏ -4339
▁ㅇㅣㄴㅈㅣ -4340
▁ㄴㅐㅈㅓㄴ -4341
▁ㅁㅏㅈㅇㅣ -4342
▁ㅌㅔㄹㅓ -4343
▁ㄱㅣㅁㅇㅣㄹ -4344
ㅗㄹㄹㅣ -4345
▁ㅈㅔㄷㅐㄹㅗ -4346
▁ㅁㅗㄱㅅㅗㄹㅣ -4347
▁ㅂㅜㄴㄱㅣ -4348
▁ㅅㅜㄴㅎㅘㄴ -4349
▁800 -4350
▁ㅎㅜㅅ -4351
▁ㅅㅣㄹㅈㅣㄹ -4352
▁86 -4353
ㅣㅂㅓ -4354
▁ㅅㅑㅇ -4355
▁ㅎㅢㄴ -4356
▁ㅇㅘㄴㄱㅗㅇ -4357
▁ㅍㅜㅇㅂㅜ -4358
▁ㄷㅗㅇㄱㅣ -4359
▁ㅈㅜㅇㄱㅣ -4360
ㅇㅓㄱㅏ -4361
▁ㅊㅓㅂㅓㄹ -4362
▁600 -4363
▁ㄷㅗㄹㄹㅣ -4364
▁ㅂㅓㅁㅈㅜ -4365
▁ㅂㅗㄱㅈㅣ -4366
▁ㅁㅗㅎㅕㅇ -4367
▁ㅇㅣㅊㅣ -4368
▁re -4369
ㅅㅣㅇㅗ -4370
▁ㅇㅏㅍㅏㅌㅡ -4371
▁ㅅㅏㅇㅜ -4372
▁ㅎㅏㄴㅈㅏ -4373
▁ㅇㅠㄱㅣ -4374
▁ㄱㅜㅎㅕㄴ -4375
▁ㅂㅜㄴㅎㅐ -4376
▁ㄴㅓㄼㅇㅣ -4377
▁ㅇㅏㄴㅌㅗㄴ -4378
▁ㅌㅏㄱㅕㄱ -4379
▁ㅇㅔㅇㅓ -4380
▁ㅈㅏㄱㅅㅏ -4381
ia -4382
▁ㄹㅜㅁ -4383
▁ㅂㅔㄱㅌㅓ -4384
ㅌㅔㄴㅊㅡ -4385
▁ㅇㅏㄷㅗㅇ -4386
▁ㅅㅑㄹ -4387
▁ㅂㅣㅍㅕㅇ -4388
▁ㅈㅓㄴㅈㅜ -4389
▁ㄱㅣㄷㅜㅇ -4390
▁ㅅㅡㅌㅔ -4391
▁ㅎㅘㅇㅣ -4392
▁ㅁㅜㄹㄹㅣㅎㅏㄱ -4393
ㅂㅣㅊ -4394
▁ㄴㅣㅅ -4395
ㅈㅏㅁ -4396
▁ㅍㅕㅇㄷㅡㅇ -4397
est -4398
▁ㅅㅓㅇㅎㅑㅇ -4399
▁ㅇㅓㅁㅊㅓㅇ -4400
ap -4401
▁ㄷㅡㅇㅈㅣ -4402
▁ㅂㅡㄹㅗ -4403
▁ㅅㅕㄴ -4404
▁120 -4405
▁ㅅㅣㅈㅗ -4406
▁ㅂㅏㅇㅎㅐ -4407
▁ㅅㅔㄹㅡㅂ -4408
ㄹㅠㅇ -4409
▁ㅈㅗㅅ -4410
▁ㅈㅓㄴㅇㅝㄴ -4411
▁ㅁㅜㄱㅔ -4412
▁ㄷㅡㄹㅣ -4413
ㅓㄴㅅㅡ -4414
▁ㅃㅐㅇㅏㅅ -4415
▁ㅎㅘㄱㅅㅏㄴ -4416
▁ㅊㅜㄱㅜ -4417
▁ㅊㅚㄷㅏ -4418
▁ㅈㅓㅅㅜㄹ -4419
▁ㅅㅏㄴㅑㅇ -4420
▁ㄱㅗㅅㅗㄱㄷㅗㄹㅗ -4421
▁ㅎㅏㄴㅈㅓㅇ -4422
ak -4423
▁ㅁㅏㅂㅓㅂ -4424
▁ㅅㅏㅇㅇㅟ -4425
▁ㄴㅏㄹㄱㅐ -4426
▁ㅈㅣㅂㄱㅝㄴ -4427
▁ㅍㅕㄴㅊㅏㄴ -4428
▁ㅇㅣㄴㅈㅓㅂ -4429
ㅓㄹㄷㅡ -4430
▁ㅇㅗㅍㅔㄹㅏ -4431
ㅋㅔㅇㅣㅅㅕㄴ -4432
▁ㅁㅕㅇㄴㅏㄹㅏ -4433
▁ㅎㅢㅅㅐㅇ -4434
▁ㄹㅟ -4435
▁ㅇㅣㄹㅂㅗㄴㅇㅣㄴ -4436
▁ㅊㅜㄹㅂㅓㅁ -4437
▁1919 -4438
▁ㄷㅐㄱㅗㅇ -4439
▁ㅁㅕㅇㅎㅘㄱ -4440
▁1944 -4441
ㅣㄹㄹㅓ -4442
▁98 -4443
ㅗㄹㅗ -4444
▁ㅇㅣㄴㅈㅡㅇ -4445
▁ㅍㅏㄴㅅㅏ -4446
TV -4447
▁ㅇㅜㄹㅕ -4448
▁ㅎㅗㅈㅜ -4449
ㄷㅎㅣ -4450
▁ㄱㅘㄱ -4451
▁ㅇㅕㄴㄱㅜㅇㅝㄴ -4452
▁ㅁㅏㅇㅣㄴ -4453
▁63 -4454
▁ㅂㅜㅈㅣㄴ -4455
AR -4456
▁ㄱㅡㄴㅂㅗㄴ -4457
▁ㅂㅏㅊㅣ -4458
▁ㅅㅏㅎㅕㅇ -4459
▁ㅂㅏㄹㄱㅜㄹ -4460
▁ㅅㅡㅍㅡㄹ -4461
▁ㅁㅔㅁㅗㄹㅣ -4462
ㅇㅘ -4463
▁ㄷㅐㅂㅓㅂ -4464
▁ㄷㅏㄴㄷㅗㄱ -4465
▁ㅇㅕㄴㄱㅏㄴ -4466
▁ㅍㅡㄹㅣㅁㅣㅇㅓ -4467
▁ㅈㅗㅈㅗㅇ -4468
▁ㄷㅡㄹㅇㅓㅅㅓ -4469
ㄷㅏㄹㅡ -4470
▁ㅇㅕㅇㅇㅜㅇ -4471
ㄷㅣㅅㅕㄴ -4472
ㅌㅡㄹㄹㅓ -4473
▁ㅅㅏㅇㅝㄴ -4474
ㄴㅚ -4475
▁ㅌㅏㅁㅅㅏ -4476
▁ㄷㅏㅇㅜㄴ -4477
▁ㅎㅐㅇㄹㅕㄹ -4478
▁ㅂㅡㄹㅏㅇㅜㄴ -4479
▁ㄱㅣㄱㅣ -4480
▁ㄷㅏㅇㅊㅗ -4481
▁95 -4482
▁ㄱㅣㅇㅗㄴ -4483
▁ㅊㅜㅊㅓㄴ -4484
▁ㅁㅗㅇㅣㅁ -4485
▁ㅎㅏㄴㄱㅖ -4486
▁ㅊㅜㅅㅏㄴ -4487
▁ㅍㅗㅎㅏㅇ -4488
▁ㄱㅛㅎㅑㅇ -4489
▁ㅅㅓㅁㅕㅇ -4490
▁ㅁㅜㄴㅁㅕㅇ -4491
▁ㅌㅗㅇㅅㅏㄴ -4492
▁ㄱㅕㅇㅈㅓㄴ -4493
▁ㄱㅘㅇㅂㅗㄱ -4494
▁ㅊㅜㅇㄱㅕㄱ -4495
ct -4496
▁1941 -4497
▁ㅇㅢㅈㅣ -4498
▁ㅈㅓㅁㅈㅓㅁ -4499
▁ㅂㅕㄴㅅㅜ -4500
▁ㅇㅏㅁㅜㄹ -4501
▁ㅁㅏㅊㅣㅁㄴㅐ -4502
▁ㄱㅏㅅㅣ -4503
ㅈㅜㄱㅜㄴ -4504
▁ㅈㅓㄱㅈㅓㄹ -4505
ㅋㅗㅁ -4506
▁ㄱㅣㄹㅣ -4507
▁ㅅㅐㅇㄱㅕㄴㅏ -4508
▁ㄱㅗㅇㄹㅗ -4509
▁ㅇㅏㄱㅎㅘ -4510
▁ㅂㅡㄹㄹㅜ -4511
ㅇㅜㄱ -4512
▁ㅅㅓㅇㅂㅜㄴ -4513
▁ㄱㅏㄱㅈㅣ -4514
▁ㄱㅗㄹㄷㅡㄴ -4515
ㅠㄴㅣ -4516
ㅅㅏㅈㅏ -4517
▁ㄹㅓㅆ -4518
▁IC -4519
▁ㅇㅓㅁㅊㅓㅇㄴㅏ -4520
▁ㅅㅣㅂㅈㅏㄱ -4521
▁59 -4522
▁ㅍㅗㅇㅣㄴㅌㅡ -4523
▁ㅅㅣㅋㅏㄱㅗ -4524
▁ㅂㅔㄹㅡㄴ -4525
▁ㅌㅡㄱㅂㅕㄹㅅㅣ -4526
▁ㅈㅏㅈㅓㄴ -4527
▁ㄱㅐㅁㅏㄱ -4528
▁ㅎㅏㄱㅅㅏㄹ -4529
▁74 -4530
▁178 -4531
▁ㅂㅜㅎㅏ -4532
▁ㅋㅣㅇㅜ -4533
▁ㅎㅘㄱㄹㅠㄹ -4534
▁ㅎㅗㅇㅂㅗ -4535
ㅔㄹㅣㅋㅏㄴ -4536
▁ㅌㅗㄱ -4537
▁ㅂㅏㅇㅟ -4538
▁;/ -4539
▁Lo -4540
▁ㄱㅓㅈㅣ -4541
▁ㅇㅢㅎㅗㄱ -4542
▁ㅈㅏㄱㅡㄱ -4543
ㅎㅏㄱㅅㅐㅇ -4544
▁ㅇㅢㅅㅣㅁ -4545
▁ㅇㅣㅅㅣ -4546
▁to -4547
▁ㅁㅐㅈㅏㅇ -4548
▁ㅍㅗㅌㅡ -4549
▁ㅎㅏㅁㄹㅏㄱ -4550
ㅞㄹ -4551
▁ㅅㅡㅁㅏㅌㅡ -4552
▁82 -4553
▁ㄷㅡㄹㅏㅇㅣ -4554
▁ㄱㅏㅁㅅㅏ -4555
▁ㅍㅡㄹㅣㄴ -4556
ul -4557
▁ㄷㅡㄹㅓㄴㅐ -4558
▁ㅇㅞㅅㅡㅌㅡ -4559
▁ㅅㅏㅅㅣㄹㅅㅏㅇ -4560
▁1958 -4561
▁ㅍㅡㄹㅗㅇㅣ -4562
▁ㅇㅗㄹㅎㅐ -4563
▁ㄱㅗㅇㅎㅓㄴ -4564
▁ㄲㅗㅂ -4565
▁ㅂㅣㅅㅏㅇ -4566
▁ㅇㅣㅁㄱㅣ -4567
▁ㅇㅡㄴㅣ -4568
▁ㅇㅣㅇㅜ -4569
ㅏㅇㅣㅇㅓㄴ -4570
▁ㅎㅗㄴㅎㅏㅂ -4571
ㅁㅜㅂㅜ -4572
▁ㅇㅖㅈㅓㄴ -4573
▁ㅇㅑㄴ -4574
▁ㅎㅏㄴㄱㅜㄱㅇㅣㄴ -4575
▁ㅅㅏㅈㅓㅇ -4576
▁DNA -4577
▁1947 -4578
▁ㅈㅓㅂㅊㅗㄱ -4579
ㄷㅜㄱ -4580
▁ㅈㅜㄹㄱㅣ -4581
▁ㅇㅘㅇㅣ -4582
▁ㅊㅜㄹㄹㅕㄱ -4583
▁ㅇㅏㄱㄱㅣ -4584
▁ㅎㅚㄷㅏㅁ -4585
▁ㅂㅜㄴㅇㅟ -4586
▁ㅈㅣㅇㅇㅕㄱ -4587
▁ㅇㅗㄹㅐㅅ -4588
▁76 -4589
▁ㅅㅜㄴㅅㅜ -4590
▁ㄱㅡㄹㅐㅍㅣㄱ -4591
▁ㄱㅐㅇㅣㅂ -4592
▁ㅌㅔㄱㅅㅏㅅㅡ -4593
▁ㅂㅏㅇㅇㅟ -4594
ㅏㄹㅏㅎ -4595
▁ㅂㅗㄱㅗㅅㅓ -4596
▁SS -4597
▁1956 -4598
▁ㅇㅝㄴㅎㅕㅇ -4599
▁ㅇㅑㅇㅉㅗㄱ -4600
▁ㅅㅡㅇㄱㅐㄱ -4601
▁ㅇㅏㄴㄷㅗㅇ -4602
▁ㄷㅐㅇㅝㄴ -4603
ㅗㅅㅣㄴ -4604
ㅅㅔㅇㅜ -4605
▁ㅇㅣㅂㅂㅓㅂ -4606
ㅈㅣㅋㅓㄹ -4607
▁ㅈㅔㅅㅏ -4608
▁ㅅㅜㄹㅣ -4609
▁ㅇㅣㅂㄹㅕㄱ -4610
▁ㅅㅣㄹㅎㅕㄴ -4611
▁ㅎㅜㅅㄴㅏㄹ -4612
▁ㅇㅏㅇㅣㄷㅗㄹ -4613
▁ㅇㅓㄴㅈㅔ -4614
▁ㅊㅓㅇㄱㅜ -4615
ㅋㅓㅁ -4616
▁ㄱㅜㅇㅝㄴ -4617
▁ㄱㅕㅇㄴㅏㅁ -4618
▁72 -4619
▁ㄱㅡㄸㅐ -4620
▁ㅋㅡㄹㅗㅇ -4621
▁ㅅㅜㅅㅓㄱ -4622
▁ㄷㅏㄴㅍㅕㄴ -4623
▁ㅂㅐㄱㅅㅓㅇ -4624
ㄹㅣㅇㅓ -4625
▁ㄹㅣㅊㅓㄷㅡ -4626
▁ㄱㅐㅅㅣㄴㄱㅛ -4627
ㅅㅜㅇㅇㅣ -4628
▁ㅇㅏㅅㅏ -4629
▁ㄷㅗㅇㅁㅕㅇ -4630
▁160 -4631
ie -4632
ㅇㅙ -4633
▁ㄱㅛㄱㅜ -4634
▁ㅈㅏㄱㅇㅟ -4635
▁ㄴㅔㅇㅣ -4636
▁ㄷㅡㅇㅍㅏㄴ -4637
▁ㅇㅗㄹㅐㅅㄷㅗㅇㅇㅏㄴ -4638
▁ㅈㅣㄴㅈㅓㅇ -4639
ㅍㅓㄹ -4640
ㅂㅏㄹㅡ -4641
▁ㅇㅘㅇㅅㅣㄹ -4642
▁ㅇㅕㅇㅑ -4643
▁ㅇㅣㄹㅏㅋㅡ -4644
▁ㅋㅓㅁㅠㄴㅣ -4645
▁ㅊㅜㄱㄱㅜㄷㅏㄴ -4646
▁ㅅㅜㄴㄱㅏㄴ -4647
▁ㄱㅏㅁㅅㅣ -4648
▁77 -4649
ㄷㅐㅂㅜ -4650
▁ㅋㅏㄹㅏ -4651
▁ㅇㅔㄷㅡㅇㅝㄷㅡ -4652
▁ㄷㅗㄱㅇㅣㄹㄱㅜㄴ -4653
▁ㅈㅓㄴㅕㄱ -4654
▁ㅅㅣㅅㅏㅇ -4655
ㅈㅗㄹ -4656
▁ㄲㅓㄲ -4657
▁ㅂㅣㅈㅜㅇ -4658
▁ㅌㅜㄹ -4659
▁ㅈㅜㄹㅇㅓㄷㅡㄹ -4660
ㅎㅡㅂ -4661
▁ㄷㅜㄱ -4662
▁ㅂㅏㄷㅏㄱ -4663
▁ㅈㅐㄱㅓㄴ -4664
▁ㅈㅗㅂㅕㄹ -4665
ud -4666
ㅋㅗㅅㅡ -4667
▁ㄷㅐㄹㅑㅇ -4668
▁ㅊㅔㄴ -4669
ㄹㅗㄷㅡ -4670
▁ㅂㅏㄹㅂㅏㄹ -4671
▁67 -4672
▁ㅇㅕㅇㅘㅇ -4673
▁ㄱㅠㄴㅎㅕㅇ -4674
ㅋㅟ -4675
▁ㅇㅏㅅㅡ -4676
▁ㅌㅐㄷㅗ -4677
▁ㅅㅣㄴㅂㅜ -4678
▁ㅇㅔㄱㅅㅡ -4679
▁ㅇㅔㅅㅓㅂㅜㅌㅓ -4680
ly -4681
ㄴㅏㅂ -4682
▁ㅇㅕㄹㅗㄴ -4683
▁ㅇㅣㄴㅣㅇ -4684
▁ㅍㅗㅋㅔㅅ -4685
▁Th -4686
ㄹㅏㄴㅗ -4687
▁ㅈㅏㅇㅅㅜ -4688
▁ㅇㅕㅇㅈㅣ -4689
▁ㅂㅕ -4690
▁ㅋㅗㄹㅡ -4691
▁ㅂㅗㄱㅇㅝㄴ -4692
ㅓㅁㅍㅡ -4693
▁ㅎㅡㄹㅡㅁ -4694
▁AFC -4695
ㅇㅡㄴㅎㅐㅇ -4696
▁ㅊㅣㅁㄹㅑㄱ -4697
▁ㅌㅏㅇㅝ -4698
og -4699
ㅍㅗㅁ -4700
▁1939 -4701
▁ㅍㅡㄹㅏㅇㅋㅡ -4702
th -4703
▁ㅎㅏㄴㄱㅡㄹ -4704
ㅎㅔㄹ -4705
▁ㅈㅜㅊㅚ -4706
▁ㅋㅗㄴㅅㅡㅌㅏㄴㅌㅣㄴ -4707
▁ㅂㅕㅇㅎㅏㅂ -4708
▁ㅈㅏㅁㅅㅜ -4709
▁ㅂㅏㄲㅏㅌ -4710
▁ㅈㅓㅁㅅㅜ -4711
▁ㄱㅜㄱㄱㅣ -4712
▁ㅂㅗㅁㅜㄹ -4713
▁ㅆㅏㄹ -4714
▁ㄷㅜㄹㄹㅓㅆㅏ -4715
▁ㅂㅣㅊㅣ -4716
▁ㅍㅗㄱㅌㅏㄴ -4717
▁ㅎㅐㄴ -4718
ㅅㅔㅁ -4719
ㅜㄴㅣ -4720
▁ㄱㅣㅅ -4721
▁ㄱㅜㄱㅡㄹ -4722
▁ㅍㅗㄹㄹㅣ -4723
ㅛㅅㅣ -4724
ㅣㅅㅡㅌㅏㄴ -4725
▁ㄱㅘㅎㅏㄱㅈㅏ -4726
ist -4727
▁ㄷㅐㅇㅘㅇ -4728
▁ㅂㅏㅇㅅㅏ -4729
▁ㅇㅝㄴㅅㅜ -4730
▁ㄱㅝㄴㅇㅟ -4731
▁ㅍㅏㄹㄹㅣ -4732
▁ㅌㅔㅅㅡㅌㅡ -4733
▁ㄴㅐㅅㅕㄴㅓㄹ -4734
▁ㅅㅓㄱㅇㅠ -4735
▁ㄴㅕ -4736
▁ㅇㅏㅁㅜ -4737
▁ㅎㅘㄱㄹㅣㅂ -4738
▁ㅇㅏㅁㅎㅗ -4739
▁85 -4740
▁ㅇㅣㄹㅅㅏㅇ -4741
▁1954 -4742
▁ㄱㅕㅂ -4743
▁ㅂㅜㅅ -4744
▁ㄱㅏㄱㅗㅇ -4745
▁ㅇㅣㄴㅅㅙ -4746
▁ㅌㅏㅇㅣㅂ -4747
▁ㅎㅜㄴㅈㅏㅇ -4748
AS -4749
▁ㅌㅏㅈㅏ -4750
ight -4751
▁ㅇㅏㄵ -4752
▁ㄱㅣㅇㅜㄹ -4753
▁ㅁㅜㅅㅏ -4754
▁ㅊㅣㅁㅇㅣㅂ -4755
ㅏㅂㅣㅇㅏ -4756
ㅊㅣㅇㅏ -4757
ㅇㅙㄹㅏㄴ -4758
▁ㄷㅗㅇㅇㅑㅇ -4759
▁ㅇㅣㅁㅈㅣㄴㅇㅙㄹㅏㄴ -4760
▁ㅂㅗㄱㅅㅜ -4761
▁ㅈㅏㅅㅣㄱ -4762
▁ㄷㅐㅅㅓㄴ -4763
▁ㅁㅓㄹㄹㅣ -4764
▁ㅍㅕㅇㅇㅏㄴ -4765
▁ㅅㅣㅅㅏ -4766
▁ㅅㅣㅁㅅㅏ -4767
▁ㅇㅏㅇㅜ -4768
▁ㅈㅣㅎㅕㅇ -4769
▁ㅅㅏㅇㅇㅕㄱ -4770
▁ㄱㅏㄹㅑㅇ -4771
▁ㅂㅜㄴㅇㅟㄱㅣ -4772
▁ㅂㅜㅅㅏ -4773
▁ㅁㅓㅅ -4774
▁ㅇㅕㄴㅇㅖ -4775
▁ㅌㅏㅇㅜㄴ -4776
▁ㅂㅗㄱㅇㅡㅁ -4777
ㅋㅏㅇㅣㄷㅗ -4778
▁ㅇㅓㄴㄷㅓㄱ -4779
▁ㅁㅜㅅㅣ -4780
▁ㅁㅣㄴㅈㅜㅇ -4781
ㅊㅕ -4782
▁1952 -4783
▁ㅇㅣㄹㅅㅣ -4784
▁* -4785
▁ㄱㅗㅇㅈㅜㅇ -4786
▁ㅂㅏㄹㅇㅡㅁ -4787
▁ㄷㅏㅇㄱㅜㄱ -4788
▁ㅅㅔㄹㅣ -4789
▁ㄴㅏㅍㅗㄹㄹㅔ -4790
▁73 -4791
▁ㅊㅏㅇㅈㅏㄱ -4792
▁ㄱㅡㅂㅈㅔ -4793
▁ㅅㅡㅇㅂㅜ -4794
▁ㅇㅔㄱ -4795
▁ㄴㅏㅍㅗㄹㄹㅔㅇㅗㅇ -4796
AT -4797
▁ㅅㅡㅌㅏㄷㅣㅇ -4798
▁ㅅㅜㅇㅣㄱ -4799
▁ㅎㅕㄱㅅㅣㄴ -4800
▁ㅍㅖㅅㅙ -4801
▁ㄱㅓㄷㅡㅂ -4802
▁ㅈㅗㅈㅗ -4803
▁ㅈㅐㅂㅐ -4804
▁ㅇㅏㄹㅍㅏ -4805
▁ㅈㅓㄴㅅㅣㄴ -4806
▁ㅎㅜㄱㅖ -4807
▁ㄱㅏㄷㅏㅁ -4808
▁ㄷㅗㅇㅛ -4809
▁ㅊㅓㄴㅈㅜㄱㅛ -4810
▁ㄷㅐㅈㅣ -4811
▁ㅂㅣㄹㅂㅗㄷㅡ -4812
▁ㅊㅏㅁㅁㅗ -4813
ㅜㄱㅅㅡ -4814
▁ㄲㅣㅊㅣ -4815
▁ㅎㅣㄴ -4816
ㄹㅕㄱㅏ -4817
ㅈㅏㅊㅣ -4818
ㅇㅏㄴㅏ -4819
▁ㄱㅖㅊㅡㅇ -4820
▁ㅂㅗㄴㅈㅣㄹ -4821
▁ㅇㅏㅌㅔㄴㅔ -4822
▁ㅂㅏㄱㅈㅓㅇㅎㅢ -4823
▁96 -4824
▁Al -4825
▁ㄹㅈㅣ -4826
▁ㅅㅏㅈㅔ -4827
ㅍㅜ -4828
▁78 -4829
▁ㄷㅗㅇㅂㅏㅇ -4830
▁ㄱㅡㄹㅔ -4831
ㅈㅗㅎㅏㅂ -4832
▁202 -4833
▁ㅂㅗㅅㅏㄹ -4834
ㅕㄱㅏ -4835
ㅈㅣㅅ -4836
▁ㅁㅜㅎㅏㄴ -4837
▁ㅂㅏㅇㅣㅇㅔㄹ -4838
▁81 -4839
▁ㅇㅓㄲㅐ -4840
▁ㄹㅗㅂㅗㅅ -4841
ㅏㅁㅗㅌㅗ -4842
ㅓㅅㅡㅌㅡ -4843
▁ㅁㅜㄴㅅㅣㄴ -4844
▁ㅅㅏㄴㅎㅘ -4845
▁ㅁㅠㅈㅣㅋㅓㄹ -4846
▁ㅈㅏㅇㄴㅏㅁ -4847
▁ㅎㅜㅅㅗㄱ -4848
ㄷㅏㄹㄹㅣ -4849
ㅍㅣㄹㄷㅓ -4850
▁ㅊㅓㅇㅈㅜ -4851
▁ㅁㅣㄷㅡㅍㅣㄹㄷㅓ -4852
▁ㄱㅏㅅㅓㄹ -4853
▁ㅊㅗㅇㅎㅚ -4854
▁ㅎㅐㅂㅏㄹ -4855
▁ㄴㅗㄹㄹㅏ -4856
▁ㅇㅓㄹㅕㅇ -4857
▁ㄴㅗㅊㅜㄹ -4858
▁ㅍㅕㅇㄹㅗㄴ -4859
▁ㅈㅐㅎㅏㄱ -4860
▁ㅌㅏㄹㅌㅚ -4861
ess -4862
ㅁㅣㄴㅈㅜ -4863
▁DV -4864
▁NH -4865
ㅇㅣㄹㅂㅗ -4866
▁ㄱㅡㄹㅣㅅㅡㄷㅗ -4867
▁ㅎㅏㅇㅝㄴ -4868
▁ㄱㅐㅅㅓㄹ -4869
ㅋㅓㄷ -4870
▁ㅈㅓㄴㄴㅏㅁ -4871
▁ㅁㅟㄴ -4872
ㅡㅁㅏㄴ -4873
▁ㄸㅏㄹㅗ -4874
▁ㄱㅡㄹㅣㄴ -4875
▁ㅊㅏㅁㄱㅗ -4876
ㅇㅏㅎㅏ -4877
▁ㅅㅣㄴㅈㅏ -4878
▁Li -4879
▁ㅂㅣㄹㄷㅣㅇ -4880
▁ㅅㅏㅁㅜㅅㅗ -4881
▁ㄷㅡㄹㅇㅣ -4882
ㅌㅣㄹ -4883
▁ㅅㅣㅁㅈㅣ -4884
▁ㅈㅓㄴㅌㅜㄱㅣ -4885
▁1959 -4886
▁ㅈㅘㅅㅏㅇ -4887
▁ㅇㅣㄹㅋㅓㄷ -4888
▁ㅎㅐㅇㅂㅗㄱ -4889
▁ㅈㅗㅎㅇㅏㅎㅏ -4890
▁ㅎㅘㅈㅏㅇ -4891
▁ㅈㅓㄴㅈㅣㄱ -4892
▁ㅈㅜㅇㄹㅕㄱ -4893
▁ㅅㅣㄴㄱㅗ -4894
▁ㅅㅜㄷㅗㅇㅝㄴ -4895
▁ㄷㅏㅅㅗ -4896
▁ㅍㅏㅇㅝ -4897
▁ㅅㅣㄹㄹㅕㄱ -4898
▁71 -4899
▁ㅌㅏㅇㅣㄴ -4900
▁ㅉㅣ -4901
▁ㅍㅡㄹㅏ -4902
ㅔㄴㅣㅇㅏ -4903
▁ㄱㅣㅁㅅㅓㅇ -4904
▁ㅈㅓㄹㅂㅏㄴ -4905
ㄹㅣㄹ -4906
▁ㄷㅗㅁㅏ -4907
▁AT -4908
▁177 -4909
▁ㅇㅟㅅ -4910
▁ㅂㅣㅅㅓ -4911
▁ㅇㅗㄱㅏ -4912
▁ㄱㅡㄹㅓㅁ -4913
▁ㅎㅘㅇㅣㅌㅡ -4914
▁ㅍㅔㄹㅡㅅㅣㅇㅏ -4915
▁ㅊㅐㅇㅜ -4916
▁ㄷㅗㅇㅅㅓ -4917
▁ㄷㅏㅋㅔ -4918
▁ㄹㅔㅇㅏㄹ -4919
▁ㅅㅏㅈㅏ -4920
▁ㅇㅜㅁㅈㅣㄱㅇㅣㅁ -4921
▁ㅅㅏㅇㄱㅘㄴ -4922
▁ㅊㅓㄴㅇㅏㄴ -4923
▁ㅎㅘㅎㅏㅂ -4924
▁91 -4925
▁ㅂㅠ -4926
ㅌㅔㄹㅡ -4927
ㄹㅗㅅㅡ -4928
▁ㄱㅏㄲㅏㅇㅣ -4929
▁ㄱㅗㅌㅗㅇ -4930
▁ㅇㅕㅅㅓㅅ -4931
▁ㅇㅣㄴㅇㅛㅇ -4932
▁ㄱㅣㅅㅗ -4933
▁ㅎㅘㅇㅎㅜ -4934
▁ㅈㅣㄹㅎㅘㄴ -4935
▁ㅁㅜㄹㅡ -4936
ㄱㅘㄹ -4937
ㅋㅡㄹㄹㅣ -4938
▁ㄷㅏㅇㄴㅏㄹㅏ -4939
▁ㅇㅟㅋㅣ -4940
▁ㅇㅣㅎㅗㄴ -4941
ㅏㅌㅣㅇㅏ -4942
▁ㅅㅡㅌㅐㄴ -4943
▁ㅅㅐㅇㅁㅜㄹㅎㅏㄱ -4944
BA -4945
▁ㅇㅐㄱㅅㅕㄴ -4946
ㅇㅣㄴㅁㅜㄹ -4947
▁ㅅㅗㄴㅅㅏㅇ -4948
ㅊㅔㅅㅡㅌㅓ -4949
▁\ -4950
ㅔㄴㅏ -4951
▁ㄷㅡㅅㅇㅣ -4952
▁ㅂㅐㄱㅁㅏㄴ -4953
ㅑㄹ -4954
ㅁㅣㅌㅓ -4955
▁ㅂㅜㅈㅣ -4956
▁ㄷㅣㅅㅡㅋㅡ -4957
ㅜㄴㅏ -4958
▁ㅅㅣㅁㅈㅏㅇ -4959
▁st -4960
▁ㅈㅏㄱㄷㅗㅇ -4961
▁ㅅㅡㅇㄹㅕ -4962
▁ㅍㅐㅅㅕㄴ -4963
▁ㄱㅜㄱㄱㅜㄴ -4964
ub -4965
▁ㄱㅏㅅㅡㅁ -4966
ㅌㅓㅅㅡ -4967
▁ㅁㅏㅁㅜㄹㅣ -4968
▁ㅂㅏㅇㅣㅇㅔㄹㅡㄴ -4969
▁1942 -4970
▁ㅇㅢㄷㅐ -4971
▁ㅂㅜㅅㅏㄴㄱㅘㅇㅇㅕㄱㅅㅣ -4972
▁ㅁㅗㅌㅗ -4973
▁ㅂㅗㅅㅏㅇ -4974
▁ㅎㅗㅅㅋㅏㅇㅣㄷㅗ -4975
ㅡㄹㅣㅌㅡ -4976
▁ㅇㅏㅁㅔㄹㅣㅋㅏㄴ -4977
▁ㅈㅣㅎㅑㅇ -4978
▁ㅇㅣㄴㅅㅐㅇ -4979
▁ㄱㅕㅇㅂㅜㄱ -4980
▁ㅇㅠㅎㅕㅇㅁㅜㄴㅎㅘㅈㅐ -4981
ㄲㅣㅁ -4982
▁ㅂㅣㄹㅖ -4983
▁ㅁㅔㅅㅣㅈㅣ -4984
▁ㅅㅓㅅㅣㄱㅈㅣ -4985
▁ㄱㅡㄹㄹㅗㅂㅓㄹ -4986
▁ㄱㅡㅁㅏㄴ -4987
▁ㄱㅘㄴㅇㅕ -4988
▁ㅇㅑㄱㅁㅜㄹ -4989
▁ㅇㅠㅌㅗㅇ -4990
▁ㅈㅣㅅㅏ -4991
▁ㅈㅜㄹㅕㄱ -4992
▁ㄸㅜ -4993
▁ㅊㅓㅎㅏ -4994
ㄷㅡㄹㅣㅎㅣ -4995
ㅋㅐ -4996
ㅣㅂㅡㄴ -4997
▁ㅅㅏㄹㄹㅣ -4998
▁ㅍㅔㅇㅣㅈㅣ -4999
▁ㅎㅗㄴㅇㅣㄴ -5000
▁87 -5001
▁ㄱㅡㄹㅓㅎㄱㅔ -5002
▁ㄴㅣㅅㅣ -5003
ㄱㅏㄹㅏㄱ -5004
▁1955 -5005
▁ㄱㅛㄹㅣ -5006
▁159 -5007
▁ㅂㅐㄴ -5008
▁ㅅㅣㅇㄱㅏ -5009
▁ㅁㅏㄹㄹㅔㅇㅣㅅㅣㅇㅏ -5010
▁ㄷㅗㄷㅓㄱ -5011
▁ㄱㅜㅁㅐ -5012
▁ㅅㅡㅌㅏㄷㅣㅇㅜㅁ -5013
▁ㅇㅝㄴㄴㅕㄴ -5014
▁AP -5015
▁ㅇㅕㄱㅎㅏㄱ -5016
▁ㅈㅣㄴㄷㅏㄴ -5017
▁ㅇㅘㅇㅂㅣ -5018
▁ㅅㅓㄴㅂㅏㄱ -5019
▁ㄱㅜㄱㅈㅓㅇ -5020
▁ㅁㅜㄹㅛ -5021
▁ㄷㅡㄹㅐㅍㅡㅌㅡ -5022
IA -5023
ab -5024
▁ㅇㅣㄹㅂㅗㄴㅇㅓ -5025
▁ㅈㅓㅇㅊㅏ -5026
▁1953 -5027
▁ㄱㅏㅇㅘ -5028
ㄹㅣㅎㅣ -5029
▁ㅈㅓㄱㅎㅏㅂ -5030
▁ㅊㅗㅇㅈㅏㅇ -5031
▁1943 -5032
▁ㅅㅏㅇㅠ -5033
▁ㄹㅜㅁㅏㄴ -5034
▁ㅈㅗㅅㅏㅇ -5035
▁ㅋㅡㄹㅗㅇㅏㅌㅣㅇㅏ -5036
▁ㅁㅐㅊㅔ -5037
▁ㅋㅠ -5038
▁ㄱㅣㅅㅏㅇ -5039
▁ㅇㅘㅇㅎㅜ -5040
▁ㅅㅏㄴㅅㅗ -5041
▁ㅌㅗㅇㅎㅘ -5042
▁ㅅㅡㅌㅗ -5043
ㅇㅠㅅㅏㄴ -5044
▁ㅅㅣㅇㄱㅏㅍㅗㄹㅡ -5045
▁1936 -5046
▁ㅂㅔㅇㅣㅅㅡ -5047
▁ㅈㅓㄴㄷㅗㅇㅊㅏ -5048
▁ㄱㅏㅇㅛ -5049
ㅈㅣㄱㅈㅏ -5050
▁ㅇㅖㅂㅏㅇ -5051
▁ㅅㅏㅇㅅㅣㄹ -5052
▁ㅍㅣㅎㅐㅈㅏ -5053
▁84 -5054
▁ㅁㅗㅂㅏㅇㅣㄹ -5055
▁ㅈㅜㅅㅓㄱ -5056
▁ㅈㅣㄴㅏㄱㅏ -5057
▁ㄴㅡㄴㄷㅏㄴㅡㄴ -5058
▁ㅅㅓㄴㅇㅣㅁ -5059
▁ㄱㅣㅁㅇㅣㄹㅅㅓㅇ -5060
▁ㄱㅠㅈㅔ -5061
▁ㄴㅐㄹㅕㅇㅗ -5062
IV -5063
▁ㄷㅔㅅㅡ -5064
ㅅㅡㅌㅣㄴ -5065
▁ㄱㅕㄹㅇㅢ -5066
▁ㅂㅜㄹㅁㅏㄴ -5067
▁ㄴㅣㄱ -5068
▁ㅋㅜㄷㅔ -5069
ㅎㅣㄹㅗ -5070
▁ㅎㅜㅋㅜㅇㅗㅋㅏ -5071
▁ㄱㅐㅅㅓㅇ -5072
▁ㅇㅏㅇㅜㅅ -5073
▁ㄱㅐㅂㅏㅇ -5074
▁ㅍㅣㄹㄷㅡ -5075
▁ㄲㅔ -5076
▁700 -5077
▁ㅌㅣㄱ -5078
▁ㅅㅏㅁㅜㅅㅣㄹ -5079
▁ㅇㅡㅁㅇㅏㄱㄱㅏ -5080
▁ㅂㅏㄹㅌㅏㄱ -5081
▁ㄴㅓㅁㅇㅓㄱㅏ -5082
ㄹㅗㄴㅏ -5083
▁ㅍㅡㄹㅗㅇㅣㅅㅔㄴ -5084
ㅏㄷㅡ -5085
▁ㅇㅗㅈㅣㄱ -5086
▁ㅇㅣㄹㅊㅔ -5087
ㅊㅔㄹㅗ -5088
▁ㄱㅣㄷㅗㅇ -5089
▁ㅇㅕㄴㅅㅡㅂ -5090
▁ㄱㅐㅊㅣㅇ -5091
ㅋㅡㄹㅗ -5092
▁ㅂㅜㄷㅏㅁ -5093
ㅋㅔㄹ -5094
▁ㅈㅏㅇㅣㅇㅓㄴ -5095
ine -5096
▁ㅅㅣㅁㅍㅏㄴ -5097
▁ㅇㅟㄷㅐ -5098
▁ㅎㅜㅋㅜ -5099
▁ㅅㅔㄹㅡㅂㅣㅇㅏ -5100
▁ㄱㅗㄱㅣ -5101
ㄷㅡㄹㅗ -5102
▁1910 -5103
▁Re -5104
▁ㅅㅗㄷㅡㄱ -5105
▁ㅇㅓㄱㅈㅔ -5106
▁ㄱㅕㄹㄹㅗㄴ -5107
▁ㅇㅏㄹㄱㅗㄹㅣ -5108
▁ㅇㅣㄹㄱㅣ -5109
▁ㅇㅣㄴㅇㅝㄴ -5110
ㅎㅏㅇㅕ -5111
▁ㅍㅡㄹㅐㅇ -5112
▁ㅅㅡㅌㅣㅂㅡㄴ -5113
▁ㅈㅓㄴㅂㅜㄱ -5114
ㅏㄴㅅㅐㄱ -5115
▁ㅂㅓㅈㅣㄴ -5116
▁ㅇㅛㄱㅡㅁ -5117
▁ㅊㅓㅂㅜㄴ -5118
▁ㄱㅏㅇㄹㅡㅇ -5119
▁ㄴㅗㅅㅡ -5120
▁ㅈㅗㅋㅏ -5121
▁ㅂㅗㄴㅁㅕㅇ -5122
ㄷㅗㄱㅂㅜ -5123
ㅕㅂㅗ -5124
▁ㅌㅐㅈㅗ -5125
▁ㄱㅓㅁㅌㅗ -5126
▁ㄱㅣㅁㅈㅗㅇ -5127
▁ㅅㅏㄱㅕㄱ -5128
▁ㅅㅓㄹㄷㅡㄱ -5129
ㅌㅗㅅㅡ -5130
▁ㅋㅜㄷㅔㅌㅏ -5131
▁ㅈㅓㄴㄷㅏㅇ -5132
▁ㄴㅏㅁㅇㅏㅍㅡㄹㅣㅋㅏ -5133
▁ㅅㅗㅁㅕㄹ -5134
▁ㅋㅜㅇ -5135
▁ㄷㅗㅁㅗ -5136
ew -5137
▁=" -5138
▁;, -5139
▁ㄷㅗㅇㅂㅜㄱ -5140
▁ㅇㅏㅌㅡ -5141
ㅗㅅㅏㄴ -5142
▁ㅈㅓㅇㅅㅜ -5143
▁ㄱㅜㅇㅈㅓㄴ -5144
▁ㅋㅙ -5145
ㅅㅡㅌㅗㄴ -5146
▁ㅍㅓㄹ -5147
▁1957 -5148
▁ㅌㅗㅇㅛ -5149
▁ㅍㅗㄱㄱㅕㄱ -5150
ㄲㅏㄹ -5151
ㄹㅣㅅ -5152
▁ㅇㅏㄹㄱㅗㄹㅣㅈㅡㅁ -5153
▁ㅎㅓㄹㅣ -5154
▁ㅊㅏㅇㄷㅏㅇ -5155
▁ㅅㅣㅁㅈㅣㅇㅓ -5156
▁ㅈㅓㄴㅅㅗㅇ -5157
▁ㄹㅐㄴㄷㅡ -5158
▁ㅁㅔㅇㅣㅈㅣ -5159
▁ㅈㅐㄱㅅㅡㄴ -5160
▁ㅇㅡㅁㅅㅓㅇ -5161
▁ㅊㅐㅁㅍㅣㅇㅓㄴㅅㅣㅂ -5162
▁ㅇㅓㄹㅕㅇㅜㅁ -5163
▁ㅌㅗㄹㅗㄴㅌㅗ -5164
▁1914 -5165
▁ㅂㅜㄴㄴㅗ -5166
▁ㅍㅡㄹㅏㅇㅣ -5167
▁ㅇㅣㅁㅕㅇ -5168
ㅁㅜㄹㅏ -5169
▁69 -5170
▁ㄱㅜㅇㅣㅂ -5171
▁ㅎㅡㄴㅎㅏ -5172
▁ㅍㅗㅅㅡㅌㅡ -5173
ㅅㅔㅇㅣ -5174
▁ㅅㅏㄷㅗ -5175
▁ㅍㅡㄹㅣㄷㅡㄹㅣㅎㅣ -5176
ㅣㅌㅡ -5177
ue -5178
▁ㅌㅔㅇㅣㄹ -5179
ㅌㅣㅅㅡ -5180
▁ㅂㅣㅈ -5181
▁ㄱㅏㅁㅏ -5182
▁ㅂㅏㄹㅁㅕㅇ -5183
▁ㅋㅗㄴㅌㅔㄴㅊㅡ -5184
▁97 -5185
▁ㄷㅐㅊㅔㄹㅗ -5186
▁ㄴㅏㅃㅡ -5187
▁ㄱㅓㅁㅅㅐㄱ -5188
▁ㅅㅏㅇㅅㅗㄱ -5189
▁ㅇㅝㄴㅈㅜㅁㅣㄴ -5190
ㅅㅡㅌㅡㄹㅏ -5191
▁ㅌㅏㅇㅣㄱ -5192
▁ㅍㅗㅋㅔㅅㅁㅗㄴ -5193
▁ㅅㅣㄴㅈㅏㅇ -5194
▁ㅌㅔㅁㅏ -5195
▁1900 -5196
▁ㅌㅡㄹㅗ -5197
▁ㅁㅣㅅㅜㄹㄱㅘㄴ -5198
▁ㄱㅣㅍㅇㅣ -5199
ㄷㅏㅇㅣ -5200
▁ㅎㅠㄷㅐ -5201
▁ㅈㅣㄴㅇㅕㅇ -5202
▁ㅈㅡㄱㅅㅣ -5203
▁ㄱㅡㅇㅈㅓㅇ -5204
▁ㅅㅏㅁㅏㄱ -5205
▁ㅇㅏㅍㅡㄱㅏㄴ -5206
▁ㄹㅜㄱ -5207
▁92 -5208
▁ㅊㅗㅈㅓㅁ -5209
▁ㅈㅏㄴㅡㄴ -5210
EC -5211
▁ㅊㅜㅂㅏㅇ -5212
ㅅㅣㅅㅡㅋㅗ -5213
▁ㅍㅣㄹㅅㅜ -5214
ㅣㅇㅏㄴ -5215
▁ㅅㅡㅁㅣㅅㅡ -5216
ㅋㅔㄴ -5217
▁ㄱㅗㄹㅡ -5218
▁ㅁㅏㄱㄷㅐ -5219
▁ㅂㅜㄹㄱㅏㄹ -5220
▁ㄷㅐㅊㅐㄱ -5221
▁ㅎㅣㅌㅡㄹㄹㅓ -5222
▁ㅍㅣㅌㅓ -5223
▁01 -5224
▁ㄱㅘㅇㅂㅓㅁ -5225
▁ㄷㅜㄴ -5226
▁ㅍㅓㅇ -5227
▁1938 -5228
▁ㅅㅓㄱㅅㅏ -5229
▁HD -5230
ㅇㅝㄴㄱㅕㅇ -5231
▁ㅂㅐㅍㅗ -5232
▁DVD -5233
▁ㅇㅞㅇㅣㄹ -5234
▁ㄷㅏㄱ -5235
▁ㄷㅏㅁㄱㅣ -5236
▁ㅇㅣㄴㄷㅣㅇㅓㄴ -5237
▁ㅈㅏㄱㅜㄱ -5238
▁ㅂㅜㄹㅇㅏㄴ -5239
ㅗㅅㅔㅅㅓ -5240
▁ㅍㅜㅅ -5241
ㄱㅛㅇ -5242
▁ㅅㅓㄴㅎㅕㅇ -5243
▁{ -5244
ㄹㅠㅁ -5245
▁ㅌㅣㄹ -5246
▁ㅍㅗㅅㅡ -5247
▁ㅅㅏㅇㅜㅅㅡ -5248
▁ㅎㅏㄱㅅㅏ -5249
ㅊㅗㅇㄷㅗㄱㅂㅜ -5250
▁ㅈㅗㅅㅓㄴㅊㅗㅇㄷㅗㄱㅂㅜ -5251
▁ㄹㅔㅅㅡ -5252
▁ㅇㅏㅁㅣ -5253
▁101 -5254
▁ㅎㅏㅅ -5255
▁ㅊㅓㄴㅁㅏㄴ -5256
▁ㅍㅏㄹㅡ -5257
▁ㅅㅣㄴㅐㅂㅓㅅㅡ -5258
▁ㅈㅐㅈㅡ -5259
▁ㅇㅕㄴㅍㅕㅇ -5260
▁ㄹㅣㅂㅓ -5261
▁ㅈㅜㅅㅗ -5262
▁ㅉㅏㄱ -5263
ㅈㅏㅋㅣ -5264
▁ㄷㅜㅇㄱㅡㄹ -5265
▁ㅇㅓㅂㅈㅓㄱ -5266
▁ㅎㅗㅅㅗ -5267
ㄷㅏㄱ -5268
▁ㅇㅕㄴㅅㅓㄹ -5269
ㅂㅣㅎㅣ -5270
ㅗㅌㅗ -5271
▁ㅂㅜㅇㅟ -5272
▁ㅅㅓㅅㅜㄹ -5273
▁ㅅㅔㅌㅡ -5274
ㅗㄴㅣ -5275
▁ㅅㅠㄹ -5276
▁ㄴㅡㄹㄹㅣ -5277
▁ㅅㅓㄹㅊㅣㄹㅠ -5278
BM -5279
▁ㅎㅜㅇㅣㅁ -5280
▁ㄹㅣㄷㅡ -5281
▁ㅇㅠㅅㅏㄴ -5282
▁ㅇㅟㅇ -5283
▁ㄴㅔㄱ -5284
▁ㅇㅕㅇㅇㅑㅇ -5285
ㄷㅔㅇㅣ -5286
ㅌㅜㅅㅡ -5287
▁ㅇㅣㄴㅐ -5288
▁ㅌㅡㄹㅏ -5289
▁ㅅㅔㅂㅜ -5290
▁ㅍㅣㅂㅜ -5291
▁ㅅㅜㅇㅓㅂ -5292
▁ㅂㅏㄹㅡㅅㅔㄹ -5293
▁ㅂㅏㄹㅡㅅㅔㄹㄹㅗㄴㅏ -5294
▁on -5295
▁1918 -5296
ㅊㅗㅇㄹㅣ -5297
▁ㅅㅏㄱㅘ -5298
▁ㅂㅜㄷㅗㅇ -5299
▁ㅈㅣㄴㄱㅕㄱ -5300
▁ㄷㅡㅇㅈㅏㅇㅇㅣㄴㅁㅜㄹ -5301
▁ㄹㅏㅌㅣㄴㅇㅓ -5302
▁ㅇㅕㄴㄹㅏㄱ -5303
▁ㄴㅣㅇ -5304
▁ㄴㅡㄲㅣㅁ -5305
ㄷㅐㅇㅣㄴ -5306
▁ㅁㅣㅆㅡ -5307
▁ㅂㅜㄴㄱㅛ -5308
▁1951 -5309
▁ㅈㅏㅂㅎㅣ -5310
ㅂㅏㄹㅗ -5311
▁ㄷㅏㅅㅡㄹㅣ -5312
▁1932 -5313
▁ㅅㅡㅍㅡㄹㅣㅇ -5314
ect -5315
▁ㅎㅘㄴㅅㅡㅇ -5316
ㅅㅔㅍㅗ -5317
▁ㄱㅐㄹㅑㅇ -5318
▁ㅅㅣㄴㄷㅗ -5319
ㅜㅇㅏ -5320
ㅔㅇㅗ -5321
ㅅㅏㄴㅎㅘ -5322
▁ㅇㅏㅁㅋㅓㅅ -5323
ㅐㄴㅏ -5324
▁ㅈㅓㅈㅏ -5325
▁ㄹㅕㅁㅕㄴ -5326
▁ㅂㅏㅇㅇㅓㄴ -5327
ㅂㅐㅇ -5328
▁ㅁㅏㅅㅡㅌㅓ -5329
▁ㅇㅜㄴㅎㅏㅇ -5330
▁ㅈㅓㅇㄱㅛㅎㅚ -5331
ㅈㅔㄱㅜㄱ -5332
▁ㄷㅡㄹㅐㄱ -5333
▁ㄴㅡㄱ -5334
▁ㅁㅏㅌㅣㄴ -5335
▁ㅊㅚㅇㅜ -5336
ㅓㄷ -5337
ㄷㅏㄹㅏㅎ -5338
ㅅㅏㅈㅓㄴ -5339
▁ㄷㅐㅁㅏㄴ -5340
▁ㅋㅗㄹㅣㅇㅏ -5341
▁ㄱㅜㄱㅈㅓㄱ -5342
▁ㄱㅣㄷㅏㄹㅣ -5343
▁ㅎㅘㄹㅕ -5344
▁ㄱㅏㄱㄱㅜㄱ -5345
▁ㄱㅖㄱㅗㄱ -5346
▁ㄷㅗㅇㅎㅐ -5347
▁ㄱㅡㅂㄱㅕㄱ -5348
▁89 -5349
ㅈㅜㄱㅜㄱ -5350
▁ㅇㅛㅇㅇㅣㄴ -5351
▁ㄱㅗㄱㅡㅂ -5352
▁ㅅㅏㅇㅇㅣㄴ -5353
▁ㄸㅗㄱ -5354
▁ㅈㅓㄴㅅㅜㄹ -5355
ㅃㅏ -5356
▁ㄹㅔㅇㅗㄴ -5357
▁ㅇㅓㄴㅅㅡ -5358
▁ㄱㅗㅁ -5359
▁ㅁㅣㄹㅣ -5360
▁1937 -5361
▁ㅌㅣㄴ -5362
▁ㅅㅜㅁㄱㅣ -5363
ㅈㅣㅅㅏ -5364
▁ㅅㅣㅇㅇㅓ -5365
▁ㅇㅜㅋㅡㄹㅏ -5366
▁ㅎㅢㄴㅅㅐㄱ -5367
▁ㅎㅘㅅㅓㄱ -5368
ㄹㅔㅁ -5369
▁ㅈㅗㅊㅏ -5370
ㅕㅂㅏㄷ -5371
▁ㅅㅣㅁㅏ -5372
▁ㅁㅏㄴㄷㅡㄴ -5373
▁ㅅㅗㅎㅕㅇ -5374
▁ㅇㅓㄷㅜ -5375
▁ㅂㅓㄴㅈㅣ -5376
▁ㅇㅣㄹㄹㅕㄴ -5377
▁ㅅㅗㅂㅣㅈㅏ -5378
▁ㅅㅣㄴㅅㅏ -5379
▁ㅇㅘㄴㅂㅕㄱ -5380
ㄱㅘㄱ -5381
ㅁㅏㄴㅏ -5382
ㅜㄴㅌㅡ -5383
▁ㄹㅗㄹㅔㄴ -5384
▁ㅎㅏㅇㅕㄱ -5385
▁1935 -5386
▁182 -5387
▁ㄹㅐㅂ -5388
▁ㄱㅗㅇㅟ -5389
▁ㄴㅗㄹㅡ -5390
▁ㅅㅣㄹㅊㅓㄴ -5391
▁ㄱㅗㅇㅑㅇㅇㅣ -5392
ㅅㅜㅁ -5393
▁ㅁㅏㄹㄹㅣ -5394
▁ㄱㅜㅅㅏㅇ -5395
▁ㅅㅏㅊㅏㄹ -5396
ㅏㅌㅏ -5397
ㅡㄹㄹㅏ -5398
▁ㄹㅓㅆㄷㅏ -5399
ㅍㅣㄹㄷㅡ -5400
▁ㅂㅐㄱㅇㅣㄴ -5401
▁ㄱㅗㄱㅐㄱ -5402
▁ㅃㅐ -5403
▁ㄷㅡㄹㅓㅁ -5404
▁ㅅㅏㅌㅚ -5405
▁ㅊㅣㅇㅎㅗ -5406
▁ㅂㅜㅊㅣㄴ -5407
ㄲㅡㄹ -5408
▁ㅇㅠㅎㅛ -5409
▁ㅁㅜㄹㄱㅓㄴ -5410
▁ㅇㅏㅇㅣㅅㅡ -5411
▁ㅅㅗㄴㅅㅣㄹ -5412
▁Be -5413
▁ㄱㅕㅇㅈㅔㅎㅏㄱ -5414
▁93 -5415
ㄷㅏㄴㅣ -5416
▁ㄷㅗㄱㅈㅐ -5417
▁ㅈㅣㄴㅎㅏㄱ -5418
▁ㅁㅟㄴㅎㅔㄴ -5419
▁ㅇㅣㅇㅘ -5420
▁ㅅㅕ -5421
▁ㄱㅔㄷㅏㄱㅏ -5422
▁ㅌㅏㅇㅠㄹ -5423
▁ㅅㅔㄱㅡㅁ -5424
▁ㄱㅘㅇㅂㅓㅁㅇㅟ -5425
▁ㄴㅐㄴㅗㅎ -5426
ㅁㅜㄴㅢ -5427
▁ㅂㅣㅎㅐㅇㄱㅣ -5428
ㅌㅗㅂ -5429
▁ㅈㅗㅈㅣㅇㅏ -5430
▁ㅇㅗㄹㅅㅡㅌㅏ -5431
ㅁㅣㄴㅈㅜㄷㅏㅇ -5432
ㅌㅜㅇㅏㄴ -5433
ㄷㅗㅇㅅㅐㅇ -5434
▁ㅅㅣㄹㅇㅓㅂ -5435
▁ㄹㅜㅁㅏㄴㅣㅇㅏ -5436
▁ㅈㅜㅊㅔ -5437
▁ㅈㅣㄹㅁㅜㄴ -5438
▁ㄱㅗㅇㅅㅣㄴ -5439
▁ㅂㅏㄹㄱㅏㄴ -5440
ㄹㅠㄴ -5441
ㅣㅇㅗㅅㅡ -5442
▁FM -5443
ore -5444
▁ㅇㅣㅇㅜㅅ -5445
▁ㅁㅗㄱㅅㅓㅇ -5446
▁ㅎㅚㄹㅗ -5447
▁ㅎㅏㅇㄱㅗㅇㅅㅏ -5448
▁ㅅㅓㄴㅍㅗ -5449
▁ㅎㅘㅈㅔ -5450
▁ㅈㅣㅂㅎㅚ -5451
IN -5452
▁ㅇㅠㅌ -5453
▁ㄷㅚㄷㅗㄹ -5454
▁ㅁㅕㄴㅇㅕㄱ -5455
▁ㅎㅜㄱㅖㅈㅏ -5456
▁ㄱㅗㄱㅅㅓㄴ -5457
▁ㅊㅔㅎㅓㅁ -5458
ㅌㅗㄹㅣㅇㅏ -5459
▁ㄹㅛ -5460
▁ㄱㅐㅂㅕㄹ -5461
▁ㅈㅏㅁㅅㅜㅎㅏㅁ -5462
▁ㅊㅏㄷㅏㄴ -5463
▁ㅅㅏㅇㄷㅐㅅㅣㄱ -5464
▁ㄱㅓㅌ -5465
▁ㅅㅐㅇㅌㅐ -5466
▁ㅍㅏㅇㅣㄴ -5467
▁ㄷㅏㅇㅣㅁ -5468
▁ㅅㅓㅇㄴㅏㅁ -5469
▁ㅎㅓㅅ -5470
▁OS -5471
ㅇㅣㅊㅣ -5472
▁ㅈㅐㄱㅐ -5473
▁ㅁㅏㄹㅡㅋㅡㅅㅡ -5474
▁ㅂㅔㄹㅣ -5475
▁ㅊㅏㄴㅅㅓㅇ -5476
▁ㅇㅑㅇㅅㅏㄴ -5477
▁ㅍㅡㄹㅏㅇㅅㅡㄱㅜㄴ -5478
▁ㅌㅐㅈㅗㅇ -5479
▁ㄷㅗㅇㄱㅜㄹ -5480
ㅅㅠㅌㅏㅇㅣㄴ -5481
▁ㅂㅜㄴㅎㅘ -5482
▁ㅋㅡㄹㅣ -5483
▁ㅇㅣㅈㅏ -5484
▁ㅂㅓㅂㅎㅏㄱ -5485
ㅌㅜㄴ -5486
▁ㅅㅏㅇㅅㅜ -5487
▁ㄱㅕㄱㅍㅏ -5488
ㅜㄹㅡㅌㅡ -5489
▁ㄹㅜㅅㅡ -5490
▁ㄱㅏㅁㄱㅏㄱ -5491
ㄱㅗㄴ -5492
▁ㄱㅗㅅㅣ -5493
▁ㅈㅏㅅㅏㄴ -5494
ㅏㄱㅏㅇㅘ -5495
▁ㅋㅡㄹㄹㅐㅅㅣㄱ -5496
ㅂㅐㅁ -5497
▁ㅇㅖㅂㅣ -5498
our -5499
▁94 -5500
▁ㅇㅜㅅ -5501
▁1928 -5502
▁ㅇㅕㅇㅈㅜ -5503
▁1933 -5504
▁ㄷㅐㅇㅜ -5505
▁ㅇㅢㅁㅜㄴ -5506
▁ㅁㅜㄹㄱㅗㄱㅣ -5507
▁ㅎㅓㅂ -5508
▁ㅇㅑㅇㄱㅜㄱ -5509
▁ㄱㅏㅂㅈㅏㄱㅣ -5510
▁ㅊㅣㄱ -5511
ㄷㅗㅅㅏ -5512
ㅎㅜㄱ -5513
▁ㅅㅜㅂㅐㄱ -5514
▁ㄱㅓㅈㅣㅅ -5515
▁ㅊㅜㄱㅣㄱㅕㅇ -5516
▁ㅌㅡㄹㅔㅇㅣㄷㅡ -5517
▁ㅅㅏㄱㅣ -5518
▁ㅅㅡㅌㅗㄴ -5519
ㅂㅗㅅ -5520
▁ㅌㅏㄴㅇㅏㅂ -5521
▁ㄴㅣㄹ -5522
▁ㅅㅜㅊㅣ -5523
▁ㅍㅡㄹㅗㄱㅡㄹㅐㅁㅣㅇ -5524
▁CP -5525
▁ㅇㅕㅇㅇㅝㄴ -5526
▁ㄱㅐㅁㅕㅇ -5527
▁ㄷㅗㅇㄱㅕㅇ -5528
▁ㅎㅘㅍㅖ -5529
ㅈㅗㅅㅓㄴ -5530
▁ㄷㅏㅇㅇㅝㄴ -5531
▁ㅅㅏㅇㅈㅜ -5532
▁ㄱㅏㅇㄴㅏㅁ -5533
▁ㅊㅗㄱㅈㅣㄴ -5534
▁ㅎㅏㅇㅇㅢ -5535
ㅗㄹㄹㅗ -5536
▁ㅅㅡㅋㅡㄹㅣㄴ -5537
▁ㅇㅠㅂㅐ -5538
▁ㄱㅜㅁㅓㅇ -5539
▁ㅇㅣㅎㅐㅇ -5540
ㅇㅜㄷㅡ -5541
▁ㄱㅐㄹㄹㅓㄱ -5542
▁ㅁㅜㄲ -5543
▁ㅈㅣㅅㅜ -5544
▁1924 -5545
ㅗㅅㅗ -5546
▁ㄲㅜㅈㅜㄴ -5547
end -5548
ㅅㅡㅌㅣㄱ -5549
▁ㅊㅚㅎㅜ -5550
▁ㄱㅐㅊㅓㄱ -5551
▁ㅇㅕㅇㄱㅜ -5552
▁ㅂㅜㄹㄱㅏㄹㅣㅇㅏ -5553
▁ㄱㅏㅅㅗㄱ -5554
▁ㅂㅡㄹㅏ -5555
▁ㄷㅐㅊㅣㅇ -5556
▁ㅇㅏㅌㅣㅅㅡㅌㅡ -5557
ell -5558
▁ㄱㅐㅈㅏㅇ -5559
▁ㅈㅗㅎㅏㅇ -5560
▁79 -5561
▁ㅇㅡ -5562
▁ㄸㅏㅇㅗ -5563
▁ㅇㅣㄴㅕㅁ -5564
▁ㅅㅏㅇㅑㅇ -5565
▁ㅅㅣㅅㅣㄴ -5566
▁ㅎㅚㅅㅐㄱ -5567
▁ㄸㅓㅇ -5568
▁ㄷㅔㄹㅣ -5569
▁ㅅㅗㅁㅜㄴ -5570
▁ㅊㅣㄹㄹㅔ -5571
ㅐㅁㅐ -5572
▁ㄷㅗㅇㅎㅘ -5573
ㅁㅣㅇㅑ -5574
▁ㅎㅓㄹㅏㄱ -5575
▁ㅈㅣㄹㅅㅓ -5576
▁ㅅㅜㅅㅣㅂ -5577
▁ㅈㅜㄴㅣㅇㅓ -5578
▁110 -5579
▁ㄱㅐㅊㅏㄹ -5580
▁ㅈㅔㄹ -5581
▁ㅇㅝㄴㅅㅣ -5582
▁09 -5583
▁ㅂㅗㅍㅕㄴ -5584
▁ㅇㅕㄹㅁㅐ -5585
▁ㅈㅓㅇㄹㅠ -5586
▁04 -5587
▁ㅈㅡㅇㅇㅓㄴ -5588
▁ㄱㅡㄱㄷㅏㄴ -5589
▁ㅅㅡㅂㄱㅕㄱ -5590
▁ㅅㅗㅎㅘ -5591
▁ㅌㅗㅊㅏㄱ -5592
▁ㅇㅛㅇㄷㅗ -5593
▁ㅅㅡㅋㅔㅇㅣ -5594
▁ㅍㅡㄹㄹㅗㄹㅣ -5595
ain -5596
▁ㅇㅓㄷㅜㅂ -5597
▁ㅅㅓㄴㅎㅗ -5598
▁ㅋㅗㄹㄹㅗㅁ -5599
▁ㅅㅔㄹㅡ -5600
▁ㅅㅗㅈㅣㅂ -5601
▁ㄷㅓㅅㅂㅜㅌㅇㅣ -5602
▁ㄷㅐㅂㅓㅂㅇㅝㄴ -5603
ㅗㅇㅓ -5604
▁ㅇㅜㄴㅅㅗㅇ -5605
▁ㅇㅣㄱㅅㅡ -5606
ㅜㄱㅏㅇㅘ -5607
▁ㅇㅝㄴㅈㅏㄹㅕㄱ -5608
ㅈㅓㅅㅡ -5609
ㅅㅔㅂ -5610
▁ㅊㅜㄱㅅㅗ -5611
▁ㅅㅗㅇㅟ -5612
▁ㅇㅠㅊㅣ -5613
▁ㄱㅓㄷ -5614
▁ㄴㅜㅅㅡ -5615
▁ㅋㅓㅂㅓ -5616
▁ㅈㅓㄴㅈㅓㄱ -5617
▁ㅈㅓㅇㅁㅕㄴ -5618
▁ㅌㅏㄴㅎㅐㄱ -5619
ㅂㅏㅋㅣㅇㅏ -5620
▁ㅇㅢㅈㅓㅇㅂㅜ -5621
▁ㅇㅣㅂㄷㅐ -5622
▁ㄱㅣㅁㄷㅐ -5623
▁ㅍㅡㄹㅗㅌㅗ -5624
▁ㄹㅔㅇㅗ -5625
ㄱㅔㄴ -5626
ㄷㅏㅅㅜ -5627
▁08 -5628
▁ㄷㅐㄴㅅㅡ -5629
ㅆㅏㅇㅣ -5630
▁ㄷㅏㄱㅌㅓ -5631
▁ㅅㅏㄷㅏㅇ -5632
▁ㅈㅜㅇㅣㄹ -5633
ㅔㄹㄹㅣ -5634
ㅇㅘㄴ -5635
ㅇㅏㅇㅓ -5636
▁ㅈㅣㅂㅜㄹ -5637
ㅜㄹㄹㅣ -5638
ers -5639
▁ㅈㅏㅂㅗㄴㅈㅜㅇㅢ -5640
▁ㅈㅓㄴㅁㅏㅇ -5641
ill -5642
▁ㄹㅏㅅㅡ -5643
▁ㅂㅗㅅㅡ -5644
▁ㅎㅔㄹㅡ -5645
▁ㄱㅜㄹㅡㅁ -5646
ㅏㅇㅣㅌㅡ -5647
▁ㅎㅗㄴㅈㅏ -5648
ID -5649
▁ㄷㅐㄱㅜㄱ -5650
▁ㅂㅕㅅㅡㄹ -5651
▁ㄴㅐㅅㅔㅇㅜ -5652
▁83 -5653
▁170 -5654
ㅣㅇㅜㅅㅡ -5655
ㅂㅡㄴ -5656
▁ㅊㅗㅅㅏㅇ -5657
▁Co -5658
▁ㄷㅐㅅㅡㅇ -5659
▁ㅍㅏㅋㅣㅅㅡㅌㅏㄴ -5660
▁ㅍㅠ -5661
▁ㅎㅕㅇㅅㅏㅇ -5662
▁ㅇㅓㅇㅛ -5663
▁ㅍㅡㄹㅏㅇㅅㅡㅇㅓ -5664
ㅍㅔㅇㅣㅅㅡ -5665
▁ㅍㅕㅇㅁㅕㄴ -5666
ard -5667
ㅌㅡㄴㅓ -5668
▁ㅈㅐㄴㅡㅇ -5669
▁ㅃㅓㄷ -5670
▁ㄱㅣㅇㅔ -5671
▁ㅁㅐㅊㅣ -5672
▁ㅇㅐㄱㅊㅔ -5673
▁ㅅㅜㅋㅓㅅ -5674
▁ㅅㅔㅇㅝㄹ -5675
▁ㅈㅣㅈㅜㅇ -5676
▁ㅁㅔㅌㅏㄹ -5677
▁ㅎㅏㅂㄷㅗㅇ -5678
ㅇㅣㅍ -5679
▁ㅈㅐㅅㅐㅇ -5680
▁ㅈㅣㅍㅛ -5681
ㅂㅜㅇㅣㄴ -5682
▁ㅍㅓㄴ -5683
ㅋㅗㅍㅡ -5684
▁ㄱㅏㄴㅂㅜ -5685
▁ㅂㅜㅅㅗㄱ -5686
▁ㅃㅕ -5687
▁ㅈㅓㅇㅌㅗㅇ -5688
▁ㅎㅣㅂㅎㅏㅂ -5689
▁ㅎㅏㄷㅡ -5690
▁ㅅㅓㄴㄹㅗ -5691
▁ㅎㅏㅇㅕㄱㅡㅁ -5692
▁ㅂㅣㅈㅏㄴ -5693
▁ㅌㅗㅁㅏㅅㅡ -5694
▁ㅎㅏㅁㄱㅕㅇ -5695
▁ㄱㅕㅇㅊㅏㄹㅅㅓ -5696
AN -5697
▁ㅎㅏㄹㅇㅏㅂㅓㅈㅣ -5698
▁ㅎㅡㄴㅈㅓㄱ -5699
ㅍㅡㄹㄹㅔㅇㅣ -5700
▁ㅁㅜㅇㅛㅇ -5701
ㅡㄹㅡ -5702
▁ㅌㅡㅁ -5703
▁ㅈㅜㅁㅜㄴ -5704
▁MS -5705
ㄲㅓㅂ -5706
▁ㅃㅏㅇ -5707
▁ㄷㅣㅇㅏ -5708
▁ㅌㅗㄷㅐ -5709
▁ㅁㅜㄴㅓㅈㅣ -5710
▁ㅅㅔㄹㅗ -5711
ㅍㅐㄱ -5712
▁ㅁㅔㅌㅡㄹㅗ -5713
▁ㅊㅜㅇㅂㅜㄴㅎㅣ -5714
ㄹㅏㅅㅡ -5715
▁ㄱㅜㄱㅌㅗ -5716
▁ㅇㅏㄴㅉㅗㄱ -5717
▁ㄴㅏㅁㄱㅡㄱ -5718
▁ㄴㅗㅌㅡ -5719
▁ㄷㅏㅇㅅㅣㄴ -5720
▁ㅇㅛㅋㅗㅎㅏㅁㅏ -5721
ㅊㅏㄹㅗ -5722
▁ㄴㅗㄹㅇㅣ -5723
▁1934 -5724
▁ㅈㅜㅇㄷㅗㅇ -5725
▁ㅇㅣㅂㅔㄴㅌㅡ -5726
▁ㅇㅗㄹㅠ -5727
▁ㄱㅜㄱㅂㅏㅇㅂㅜ -5728
▁ㅂㅗㄹㅡ -5729
▁ㅎㅐㅈㅔ -5730
▁ㅈㅣㄴㅏㅊㅣ -5731
▁De -5732
▁ㅅㅜㅈㅏㅇ -5733
▁ㄷㅏㄴㅅㅜㄴㅎㅣ -5734
▁ㅂㅐㅇㅕㄹ -5735
▁ㄹㅏㅇㅣㅍㅡ -5736
▁ㄱㅜㄷ -5737
▁ㅎㅗㅎㅡㅂ -5738
▁ㅇㅓㅉ -5739
▁ㅂㅏㄴㅎㅏ -5740
▁ㄷㅗㅇㅁㅔㄷㅏㄹ -5741
▁ㅂㅜㅅㅓ -5742
▁ㅂㅓㅂㅇㅏㄴ -5743
▁ㅇㅡㄴㅁㅔㄷㅏㄹ -5744
▁ㄱㅏㄴㅏㄴ -5745
▁ㅈㅏㄹㅏㅇ -5746
▁ㅍㅕㄴㅇㅢ -5747
▁ㅊㅣㅂ -5748
▁ㅌㅣㅂㅔㅌㅡ -5749
▁130 -5750
▁ㄱㅘㅇㅅㅏㄴ -5751
▁ㄷㅐㅅㅏㄱㅘㄴ -5752
▁ㄹㅓㅂㅡ -5753
▁ㅊㅗㅇㅈㅐ -5754
▁ㄷㅐㄷㅗㅇ -5755
▁ㅇㅏㅇㅜㄹ -5756
ㄱㅏㅄ -5757
▁ㅁㅏㅈㅜ -5758
▁ㄷㅏㅇㄷㅐ -5759
ㅆㅡㅁ -5760
▁ㅂㅏㄴㅅㅏ -5761
▁ㅁㅗㄹㄹㅣ -5762
▁ㅆㅏㅎㅇㅣ -5763
▁ㅍㅗㄷㅡ -5764
▁ㄴㅗㅇㅈㅏㅇ -5765
▁ㅍㅣㄹㄹㅣㅂ -5766
▁ㅇㅣㅂㄱㅜ -5767
▁ㅈㅓㅂㅅㅗㄱ -5768
ㅣㅇㅓㄹㅗ -5769
▁ㅈㅏㄹㅡ -5770
▁ㅍㅏㄴㅈㅓㅇ -5771
ne -5772
▁Me -5773
▁ㅂㅜㄹㄱㅏ -5774
▁ㅌㅗㅁㅓㅅㅡ -5775
▁ㅎㅏㄴㅅㅓㅇ -5776
▁ㅂㅔㄴㅔㅊㅣㅇㅏ -5777
▁ㄱㅗㄱㅛ -5778
▁ㅇㅏㅍㅡㄱㅏㄴㅣㅅㅡㅌㅏㄴ -5779
▁ㄱㅕㅇㅂㅣ -5780
▁ㅈㅏㅇㄹㅖ -5781
▁ㅇㅓㅁㄱㅕㄱ -5782
▁ㅅㅏㅁㅏㅇㅈㅏ -5783
▁ㅓㅆ -5784
▁ㅋㅗㅇㅓ -5785
▁ㅁㅔㄷㅏㄹ -5786
▁ㅈㅗㄴㅅㅡ -5787
ㅌㅔㅅㅡ -5788
▁ㅁㅐㅈㅜ -5789
▁ㅊㅜㅈㅓㄱ -5790
▁ㅈㅣㄴㅅㅣㄹ -5791
ㅍㅡㄹㅗ -5792
▁ㄴㅡㄹㅣ -5793
▁ㅁㅏㄱㅏㅁ -5794
▁ㅎㅕㄴㅈㅗㄴ -5795
ㅇㅏㅈㅣ -5796
▁ㅅㅓㅇㅅㅓ -5797
▁ㅍㅏㄹㄹㅔ -5798
▁ㅎㅣㅇㅓㄹㅗ -5799
▁ㄷㅗㅋㅜㄱㅏㅇㅘ -5800
▁th -5801
▁140 -5802
▁ㅂㅗㅅㅡㅌㅓㄴ -5803
▁ㅂㅣㅌㅡㄹ -5804
ㅡㄴㅂㅏ -5805
▁ㅈㅣㄱㅁㅜ -5806
▁ㅎㅕㄹㅇㅐㄱ -5807
▁ㄴㅗㄷㅗㅇㄷㅏㅇ -5808
▁ㅇㅣㄹㅡㄴㅂㅏ -5809
ㄴㅗㅇ -5810
▁ㅅㅓㅂㅏㅇ -5811
OR -5812
▁Sh -5813
ㅔㄴㅗ -5814
▁ㄱㅡㄹㅣㅎㅏㅇㅕ -5815
▁ㅋㅡㄹㅜ -5816
ㅂㅏㅂ -5817
▁ㅅㅓㄴㅁㅜㄹ -5818
▁ㅈㅜㅇㅈㅣ -5819
▁ㄱㅡㄴㅇㅠㄱ -5820
▁ㅋㅏㄹㄹㅣㅈㅣ -5821
▁cod -5822
▁ㅎㅣㄱㅏ -5823
▁ㅁㅜㄹㅕㄱ -5824
▁ㅇㅗㄹㄹㅣㅂ -5825
▁ㅋㅏㄹㅡㄹㄹㅗ -5826
▁ㄱㅓㅈㅓㅁ -5827
▁ㅈㅓㄴㅈㅔ -5828
▁ㄱㅗㄴㅊㅜㅇ -5829
▁ㅈㅜㅇㅅㅓㅇ -5830
ㅋㅜㄹ -5831
▁ㅂㅜㄱㅁㅣ -5832
▁ㅈㅓㅇㅎㅘㄱㅎㅣ -5833
ㅗㅇㅑ -5834
▁ㅊㅏㅈㅇㅏㄱㅏ -5835
▁ㅂㅏㄹㅈㅓㄴㅅㅗ -5836
▁ㅍㅜㄹㅡ -5837
▁ㅇㅠㅂㅏㄹ -5838
▁ㅈㅜㅈㅐ -5839
▁ㄹㅔㄴㅣㄴ -5840
▁ㅌㅜㅅㅡ -5841
▁ㅁㅏㅌㄱㅣ -5842
ㅅㅔㄷㅐ -5843
▁ㅎㅘㅎㅏㅂㅁㅜㄹ -5844
ㅣㅌㅓ -5845
▁ㅅㅣㄱㅖ -5846
▁ㅈㅜㅇㄱㅖ -5847
▁ㅎㅏㅇㅑ -5848
▁ㄱㅓㄴㅡㄹㅣ -5849
▁ㅂㅗㅇㄱㅣ -5850
▁ㄴㅏㅋㅏ -5851
ㅔㅇㅏ -5852
▁ㅍㅔㄹㅣ -5853
▁ㄱㅏㅂㅕㅂ -5854
▁ㅁㅏㅅㅏㄴ -5855
▁ㅊㅔㅇㅠㄱㄱㅘㄴ -5856
ㄷㅜㄹ -5857
ㅉㅏㄱ -5858
▁1931 -5859
▁ST -5860
▁ㅁㅕㄹㅈㅗㅇ -5861
▁ㅂㅜㅊㅓ -5862
▁ㅈㅐㅍㅏㄴㅅㅗ -5863
▁ㄱㅏㅇㄷㅡㅇ -5864
▁ㅅㅐㄲㅣ -5865
ㄷㅡㄹㄹㅣ -5866
▁ㅈㅓㅇㅈㅗ -5867
▁ㄴㅐㄹㅕㄱㅏ -5868
ㄷㅗㄹㅍㅡ -5869
▁ㄱㅕㅇㄱㅗ -5870
▁ㅇㅣㄹㄷㅏㄴ -5871
▁ㅌㅠ -5872
ㅋㅣㅍㅓ -5873
ㄱㅏㅌ -5874
▁ㄴㅏㅁㄴㅕ -5875
▁ㅇㅣㄴㅁㅣㄴㄱㅜㄴ -5876
AM -5877
▁ㄴㅗㅂㅜ -5878
▁ㄱㅡㅁㄱㅏㅇ -5879
▁ㄱㅗㄹㅋㅣㅍㅓ -5880
▁ㅊㅓㄹㅎㅏㄱㅈㅏ -5881
▁ㄸㅔ -5882
▁ㅇㅣㅅㅡ -5883
▁ㅂㅜㄴㅅㅏㄴ -5884
▁ㄷㅗㅇㅈㅣ -5885
▁ㅈㅣㄴㄷㅗㅇ -5886
▁ㄱㅡㄹㅣㅅㅡㅇㅓ -5887
▁ㅌㅏㅅ -5888
▁ㅂㅗㄴㅌㅗ -5889
▁ㅇㅑㄱㅎㅘ -5890
▁ㅇㅣㅅㅡㅌㅡ -5891
▁ㅋㅣㅅㅡ -5892
▁ㅊㅗㅊㅓㅇ -5893
▁ㄱㅡㄹㅐㅍㅡ -5894
▁ㅍㅏㄹㅏ -5895
▁ㅈㅡㅇㄱㅝㄴ -5896
all -5897
ㅝㅎㅏ -5898
ㅅㅣㄱㅏㄴ -5899
▁ㅋㅡㄹㄹㅐㅅㅡ -5900
▁ㅌㅡㄱㅂㅕㄹㅎㅣ -5901
▁ㅈㅗㅁㅜㄴ -5902
▁ㄱㅏㄴㄱㅕㄱ -5903
ㅋㅣㅅㅡ -5904
▁ㄱㅏㅇㅇㅛ -5905
▁ㅌㅏㅇㅝㄴ -5906
▁ㅅㅗㄴㅎㅐ -5907
▁ㅈㅐㅇㅣㅁ -5908
▁ㅇㅑㅁ -5909
▁ㅎㅣㄹㅗㅅㅣㅁㅏ -5910
▁ㅂㅜㄷㅡㄹ -5911
▁ㅁㅓㅁㅊㅜ -5912
▁ㄱㅏㅇㄷㅗ -5913
▁ㄱㅗㄹㄷㅡ -5914
▁ㅎㅏㅇㅎㅐ -5915
▁ㅎㅐㅎㅕㅂ -5916
▁ㅁㅐㄴㅊㅔㅅㅡㅌㅓ -5917
▁ㄱㅡㄹㄹㅣ -5918
▁ㅂㅣㅅ -5919
▁ㅋㅜㅂㅏ -5920
ㅋㅡㄹㅐㅍㅡㅌㅡ -5921
▁ㅇㅟㅇㅏㄴ -5922
▁ㅇㅏㅇㅣㄴ -5923
▁ㄱㅓㄴㄴㅓㄱㅏ -5924
▁ㅅㅣㄱㄹㅑㅇ -5925
▁ㅇㅣㄹㄱㅗㅂ -5926
ㅘㅇㅇㅕㄱㅅㅣ -5927
▁ㄱㅜㄹㅣ -5928
▁ㅋㅐㅂ -5929
▁y -5930
▁An -5931
▁ㅈㅗㅇㅅㅏ -5932
▁ㅅㅐㅇㅇㅐ -5933
▁176 -5934
▁ㅇㅕㄴㅎㅗ -5935
▁ㅇㅗㅇㅣ -5936
▁ㅁㅕㅇㅅㅣ -5937
▁ㅈㅗㄴㅅㅡㄴ -5938
▁ㅈㅗㅇㅈㅓㄴ -5939
ang -5940
▁ㅇㅗㅇㅕㅁ -5941
ㄷㅓㅅㅡ -5942
▁ㅁㅜㄴㅢ -5943
▁ㄷㅓㅂㅡㄹ -5944
▁ㅂㅜㄹㅣ -5945
▁ㅅㅜㄱㅈㅗㅇ -5946
▁ㅅㅐㅂㅕㄱ -5947
▁ㅈㅣㅊㅣㅇ -5948
▁ㄱㅣㅅㅐㅇ -5949
▁ㅅㅡㅍㅔㄱ -5950
▁ㄱㅣㄱㅏㅂ -5951
▁ㅅㅡㅌㅏㄹㄹㅣㄴ -5952
ㅂㅣㅅㅡ -5953
▁05 -5954
▁ㅍㅏㅌㅣ -5955
▁ㅇㅕㄴㅍㅕㅇㄱㅠㄴ -5956
ㅌㅡㄴㅣ -5957
▁ㅅㅏㅇㅣㄷㅡ -5958
ㅇㅓㄴㅐ -5959
▁ㅇㅣㅈㅓㅇ -5960
▁ㄴㅗㅇㅊㅗㄴ -5961
▁ㅇㅜㄴㄷㅗㅇㄱㅏ -5962
▁ㅅㅡㅌㅔㅇㅣㅅㅕㄴ -5963
▁1929 -5964
ㅓㅁㅓㄴㅌㅡ -5965
▁ㅁㅣㅅㅡ -5966
▁ㄱㅗㅇㄹㅛㅇ -5967
ㅌㅣㅇㅗ -5968
▁ㅇㅑㄷㅏㅇ -5969
ㅋㅣㅅ -5970
▁ㅌㅡㄹㅐㄴㅅㅡ -5971
ㅂㅗㄴㅐ -5972
▁ㅅㅗㅇㅛ -5973
▁ㅂㅜㅍㅜㅁ -5974
▁ㅈㅓㄴㅈㅏㄱ -5975
▁ㄹㅡㄴㅔ -5976
▁ㅂㅏㄹㄹㅔ -5977
▁ㅇㅣㄴㅌㅓㅍㅔㅇㅣㅅㅡ -5978
▁1921 -5979
▁ㅎㅟㅎㅏ -5980
▁ㄷㅗㄱㅈㅓㅁ -5981
ㄹㅓㄹ -5982
▁ㅂㅜㅈㅏㄱ -5983
ㅊㅓㅁ -5984
▁ㄷㅏㄻ -5985
▁ㄱㅣㄹㅡ -5986
▁ㅇㅠㄹㅕㄱ -5987
▁ㅅㅓㄱㅂㅏㅇ -5988
ss -5989
▁ㅌㅗㄴㅓㅁㅓㄴㅌㅡ -5990
▁ㅇㅏㄴㅏ -5991
▁ㄷㅐㄷㅏㅅㅜ -5992
▁ㅁㅜㄹㄹㅣㅊㅣ -5993
▁ㄱㅐㄹㄹㅓㄱㅅㅣ -5994
▁250 -5995
ㅜㄹㅕㅅ -5996
▁ㅅㅔㅈㅏ -5997
▁ㄸㅜㄹㅕㅅ -5998
▁ㄱㅘㅇㅣㄹ -5999
▁ㄷㅏㄴㅅㅓㄴ -6000
ㅁㅜㄱㅔ -6001
▁ㅋㅐㅁㅍㅡ -6002
▁ㅈㅣㅂㅍㅣㄹ -6003
▁ㄷㅏㄹㄹㅏㅈㅣ -6004
▁ㅁㅗㅁㅁㅜㄱㅔ -6005
▁ㄲㅜㄴ -6006
▁ㄹㅏㅇㅜ -6007
ㅠㅁㅔㄴ -6008
▁ㄱㅛㅎㅑㅇㄱㅗㄱ -6009
▁ㅎㅞ -6010
ㅈㅡㄴㅣ -6011
ㅋㅗㅂ -6012
ㄱㅗㅇㅅㅏ -6013
ㅇㅏㅇㅣㄹ -6014
▁ㅈㅏㅇㅈㅓㅁ -6015
▁ㅎㅏㅇㅘㅇㅣ -6016
▁ㄸㅏㄱ -6017
▁ㄷㅗㅎㅗ -6018
▁ㅋㅣㄴ -6019
ㅇㅏㄹㅣ -6020
▁ㄱㅣㅁㄱㅜ -6021
▁ㅅㅣㅁㄹㅣㅎㅏㄱ -6022
ㄱㅝㄹ -6023
ity -6024
▁ㅈㅘㅍㅏ -6025
▁ㅁㅣㅂㅜㄴ -6026
▁1925 -6027
▁ㅅㅜㅂㅏㄴ -6028
▁ㅅㅜㅅㅏㄴ -6029
ㅁㅓ -6030
▁ㄱㅗㅇㄱㅜㄱ -6031
▁ㅇㅠㅅㅓㅇ -6032
▁1923 -6033
ㅝㄴㄱㅜㄴ -6034
▁ㅅㅏㄱㅘㄴ -6035
▁ㅇㅣㄹㅎㅘㄴ -6036
▁ㅍㅡㄹㄹㅗㄹㅣㄷㅏ -6037
▁ㄱㅏㅁㅇㅗㄱ -6038
▁ㅂㅜㄷㅡㄹㅓㅂ -6039
▁07 -6040
▁ㅂㅏㄹㄹㅔㄴ -6041
▁ㅊㅓㄹㄱㅓ -6042
▁ㄹㅏㅇㅗ -6043
ㅅㅜㄹㅑㅇ -6044
▁ㅁㅗㄱㅍㅗ -6045
▁ㅊㅏㄱㅇㅛㅇ -6046
▁ㄱㅘㄴㄱㅖㅈㅏ -6047
▁ㄱㅣㅂㅕㅇ -6048
▁ㅈㅏㅁㅐ -6049
▁ㅋㅡㄹㅣㅁ -6050
▁ㅋㅐㄹㄹㅣㅍㅗㄴㅣㅇㅏㅈㅜ -6051
▁ㄴㅏㅋ -6052
ㅡㄴㅣㅁ -6053
▁ㄴㅡㄴㅑ -6054
▁ㅇㅠㄷㅐㅇㅣㄴ -6055
▁ㅋㅓㄷㅏㄹㅏㅎ -6056
▁ㅂㅜㄱㅇㅏㅁㅔㄹㅣㅋㅏ -6057
▁ㅇㅏㄹㄹㅔㄱㅅㅏㄴㄷㅓ -6058
▁ㄱㅡㄹㅔㅇㅣ -6059
▁ㄴㅏㅁㅇㅏㅁㅔㄹㅣㅋㅏ -6060
▁SC -6061
▁codice -6062
▁ㅅㅜㅂㅣㅅㅜ -6063
▁ㅇㅠㅂㅣ -6064
▁ㅊㅜㄷㅐ -6065
▁ㄱㅕㅁㅎㅏ -6066
▁ㄷㅏㄴㅈㅏㅇ -6067
▁ㅂㅜㄱㅅㅓㅉㅗㄱ -6068
▁ㅇㅝㄴㅈㅗ -6069
▁ㅇㅣㅈ -6070
▁ㅅㅡㅌㅡㄹㅏㅇㅣ -6071
▁ㅇㅏㅂㅊㅜㄱ -6072
ㄷㅡㄴㅣ -6073
▁ㄷㅡㄱㅍㅛ -6074
▁ㅈㅣㅎㅟㄱㅘㄴ -6075
▁ㅊㅏㅈㅇㅏㅇㅗ -6076
▁ㅈㅏㅇㅠㅈㅜㅇㅢ -6077
▁ㄱㅘㄴㄹㅣㅈㅏ -6078
▁ㅈㅏㅇㅣㅇㅓㄴㅊㅡ -6079
▁ㅇㅞㄹ -6080
ㅋㅡㄹㄹㅣㄴ -6081
▁ㅅㅏㄱㅓㄹㅣ -6082
▁ㄷㅐㅎㅏㄴㅈㅔㄱㅜㄱ -6083
▁ㅁㅜㄱㅓㅂ -6084
▁ㄱㅡㄹㅓㅁㅡㄹㅗ -6085
▁ㅇㅐㅂ -6086
▁ㅅㅡㄹㄹㅗ -6087
▁ㅈㅣㅂㅜ -6088
▁ㄱㅣㅁㅎㅐ -6089
▁ㅊㅐㅁ -6090
ㄷㅐㅁㅜㄴ -6091
▁ㅂㅜㄹㅎㅘ -6092
▁ㅌㅏㅈㅓㅁ -6093
▁ㅋㅡㄴ -6094
▁ㅇㅗㄹㄹㅏㅇㅗ -6095
▁ㄱㅓㄴㄷㅏㅁ -6096
▁ㅂㅜㄱㄱㅡㄱ -6097
▁ㅋㅣㅁ -6098
▁ㄷㅗㅇㅅㅓㅇㅇㅐ -6099
ㅇㅠㄹㅓㅂ -6100
▁ㅁㅏㅈㅓ -6101
▁ㅎㅏㄴㅡㄴㅣㅁ -6102
▁ㄱㅜㄴㅂㅜ -6103
▁ㅇㅞㅇㅣㄹㅅㅡ -6104
▁ㅅㅏㅁㄱㅏㄱㅎㅕㅇ -6105
▁AC -6106
ㅗㅍㅡ -6107
▁ㄹㅏㅌㅡ -6108
ㅎㅐㅇㅅㅓㅇ -6109
▁ㄱㅏㄲㅡㅁ -6110
▁ㄷㅐㅂㅕㄴ -6111
▁ㄱㅣㄱㅘㄴㅊㅏ -6112
ㅏㄴㄷㅡ -6113
▁ㅊㅓㅇㄷㅗㅇ -6114
▁ㅇㅔㄹㄹㅣㅈㅏㅂ -6115
▁ㅈㅣㄴㅎㅡㅇ -6116
ㅌㅔㅁ -6117
ff -6118
▁ㄴㅡㄱㄷㅐ -6119
▁ㅇㅕㄴㄱㅖ -6120
▁ㅇㅠㄴㄹㅣ -6121
▁ㅎㅕㅂㅇㅑㄱ -6122
ㄹㅣㅇㅗ -6123
▁ㅇㅏㄴㄴㅐ -6124
▁ㅎㅏㅂㄹㅣ -6125
▁ㄱㅏㅇㅈㅓㄴ -6126
▁ㅊㅔㅋㅗ -6127
▁ㅁㅣㄴㅅㅗㄱ -6128
▁ㅇㅕㄱㅈㅓㄴ -6129
▁ㅈㅏㅇㄱㅏㅂ -6130
▁ㅇㅑㅅㅡ -6131
ㅇㅢㅈㅓㅇ -6132
▁ㅇㅣㅂㅅㅏ -6133
▁ㅌㅡㄱㅎㅓ -6134
▁ㄷㅗㅇㅂㅏㄴ -6135
▁ㅎㅜㄹㄹㅠㅇ -6136
▁ㅍㅡㄹㅗㅅㅔㅅㅓ -6137
▁ㄱㅘㄴㄱㅐㄱ -6138
ㅏㄹㅡㅌㅏ -6139
▁ㅁㅗㅇㅡㅁ -6140
▁ㅇㅕㅇㅜ -6141
▁ㅅㅣㄹㄴㅐ -6142
▁ㅍㅣㄹㄹㅡㅁ -6143
▁ㄷㅗㅁㅏㅂㅐㅁ -6144
ㅣㄹㄹㅏ -6145
ㄷㅜㅇㅇㅣ -6146
ㅔㄷㅏ -6147
▁ㄷㅣㅂ -6148
▁ㅅㅓㅇㅁㅕㅇ -6149
▁ㅇㅝㄴㅈㅏㅇ -6150
ㅅㅣㅇㅗㄴ -6151
▁ㄷㅐㄱㅏ -6152
▁ㄱㅏㄱㅜ -6153
▁ㅁㅔㄹㅡ -6154
▁ㄷㅐㄱㅕㄹ -6155
▁ㅈㅗㅎㅘ -6156
▁ㅈㅜㅈㅏ -6157
▁ㅋㅗㄴㅓ -6158
▁ㄱㅗㅂㅜㄴ -6159
▁ㅁㅗㄱㅅㅜㅁ -6160
▁ㄷㅗㅁㅏㅇㅊㅣ -6161
▁ㅁㅗㅎㅓㅁ -6162
▁ㅊㅜㄹㅏㄱ -6163
ㅣㅅ -6164
▁ㅎㅏㄹㄹㅣ -6165
ㅅㅣㅅㅡㅌㅡ -6166
▁161 -6167
▁ㅇㅣㅁㅅㅣㄴ -6168
▁ㅅㅜㅎㅗ -6169
▁ㅇㅜㅇㅕㄴ -6170
▁ㄱㅗㄱㅗ -6171
▁ㅅㅓㅇㅆㅣ -6172
▁de -6173
▁ㅅㅓㅁㅇㅠ -6174
▁ㅊㅓㅅㅉㅐ -6175
▁ㄱㅛㅊㅏㄹㅗ -6176
▁ㅇㅣㄴㅊㅓㄴㄱㅘㅇㅇㅕㄱㅅㅣ -6177
▁ㅈㅜㅇㄱㅗㅇ -6178
▁ㄱㅖㅅㅜ -6179
▁ㅅㅜㅈㅣㄱ -6180
▁ㅇㅛㅇㅝㄴ -6181
▁ㄷㅏㅇㅣㅁㅛ -6182
▁ㅁㅜㄴㅇㅣㄴ -6183
▁ㅂㅏㅇㅣㅇㅗㄹ -6184
▁ㅇㅕㅂ -6185
▁ㄹㅣㅅㅡㅌㅡ -6186
▁ㅇㅗㄹㅣㅈㅣㄴ -6187
▁ㅁㅏㅇㅣㄹ -6188
▁ㅇㅕㄴㅅㅏㅇ -6189
▁ㅉㅡㅁ -6190
▁ㅍㅣㅅㅡ -6191
▁ㅃㅏ -6192
ㅊㅜㅇㅓ -6193
▁ㅅㅓㅇㅣㄴ -6194
▁ㅁㅏㅇㅇㅝㄴㄱㅕㅇ -6195
ㅅㅓㅇㄱㅣ -6196
▁ㄹㅔㅂㅔㄹ -6197
▁ㅅㅔㄴㅌㅡㄹ -6198
▁ㅍㅕㅇㄹㅗㄴㄱㅏ -6199
▁ㅈㅏㅊㅣㄱㅜ -6200
ㄹㄹㅣㄴ -6201
▁ㅎㅜㅌㅚ -6202
▁ㅇㅗㅁ -6203
ㅈㅡㅋㅣ -6204
ㅡㄴㅏ -6205
▁ㅇㅏㄱㅘ -6206
▁ㅇㅕㅇㅎㅗㄴ -6207
▁ㄹㅔㅇㅣㅂㅡㄹ -6208
▁EP -6209
▁1922 -6210
▁ㄷㅗㅇㅇㅣㄹㅂㅗㄴ -6211
▁ㅅㅓㅇㅈㅣㄱㅈㅏ -6212
▁ㅂㅓㅈㅣㄴㅣㅇㅏ -6213
▁ㅈㅜㄴㅇㅜ -6214
▁175 -6215
▁ㄲㅗㅂㅎㅣ -6216
ㅋㅓㅅㅡ -6217
▁ㄱㅡㄹㅆㅣ -6218
▁ㅋㅣㄹㄹㅗ -6219
▁ㄱㅠㅅㅠ -6220
▁ㅇㅑㄱㅌㅏㄹ -6221
ㅅㅡㅌㅏㅇㅣㄴ -6222
▁ㄴㅔㅇㅣㅅㅕㄴ -6223
▁1912 -6224
▁ㅂㅜㅎㅗ -6225
▁ㄷㅗㅇㅇㅣㄴ -6226
▁ㅇㅕㅇㄱㅏㅁ -6227
▁ㄹㅣㄴㅜㄱㅅㅡ -6228
ㅁㅜㅇ -6229
ㄱㅏㅅㅡ -6230
ㅊㅣㅇㅗ -6231
▁ㄴㅡㄴㄷㅏㄱㅗ -6232
▁ㄷㅓㄱㅂㅜㄴ -6233
▁My -6234
▁ㅍㅛㅈㅣ -6235
▁ㅅㅏㅁㅜㄹ -6236
▁ㅅㅓㄴㄱㅛㅅㅏ -6237
▁ㅅㅏㄱㅈㅔ -6238
▁ㅈㅔㅇㅑㄱ -6239
ㅇㅑㅇㄱㅜㄴ -6240
ㅅㅏㅇㅣ -6241
ㅍㅡㄹㅏㄴ -6242
▁ㅇㅕㅇㄱㅘㅇ -6243
▁ㄹㅜㅌㅡㅂㅣㅎㅣ -6244
▁ㄱㅛㄱㅘ -6245
▁ㅎㅘㄱㅏ -6246
▁ㄱㅗㅇㅅㅔ -6247
▁ㅁㅜㄴㅂㅓㅂ -6248
▁ㅈㅜㅇㄹㅣㅂ -6249
▁ㅍㅡㄹㅔㅇㅣㅁ -6250
▁ㅊㅚㅅㅏㅇ -6251
ㅔㅅㅣ -6252
▁ㅍㅗㅇㅠ -6253
▁ㄱㅡㄱㅂㅗㄱ -6254
▁ㅂㅗㄱㄱㅜ -6255
▁ㅂㅕㄴㅅㅣㄴ -6256
▁ㅅㅜㅅㅏㅇㅈㅏ -6257
ㅇㅏㄴㅏㅁ -6258
▁ㄷㅏㅇㅑㅇㅊㅔ -6259
▁ㅅㅏㄹㅇㅏㄴㅏㅁ -6260
▁ㅂㅗㄱㅅㅏ -6261
▁"" -6262
ㄹㄹㅓ -6263
▁ㅇㅢㅅㅓㄱ -6264
▁ㅎㅑㅇㅌㅗ -6265
▁ㅂㅏㄱㄱㅡㄴ -6266
▁ㅂㅣㄱㅌㅗㄹㅣㅇㅏ -6267
up -6268
▁Go -6269
ong -6270
ㅆㅡㅇ -6271
▁ㅇㅗㅋㅔ -6272
▁ㅁㅗㄱㅈㅗ -6273
▁ㅅㅓㅈㅓㄱ -6274
▁ㅅㅗㅅㅓㄹㄱㅏ -6275
▁ㄷㅙ -6276
▁ㅋㅏㄹㅡㄹ -6277
▁ㄱㅏㅌㅗㄹㄹㅣㄱㄱㅛㅎㅚ -6278
▁ㅈㅣㄱㅅㅓㄴ -6279
ㅍㅣㅅㅡ -6280
▁ㅋㅗㅌㅡ -6281
▁ㅍㅔㄹㅜ -6282
▁ㅇㅠㅇㅕㄱ -6283
▁ㄱㅡㄹㅐㄴㄷㅡ -6284
▁ㅂㅗㅌㅗㅇㅎㅏㄱㄱㅛ -6285
ㅇㅗㄹ -6286
ㅅㅏㄱㅣ -6287
▁164 -6288
▁ㅁㅜㅇㅣㄴ -6289
ㅋㅏㅇㅗ -6290
▁06 -6291
▁ㅍㅕㅇㅅㅐㅇ -6292
▁ㄱㅓㄴㅊㅜㄱㅁㅜㄹ -6293
▁ㅁㅗㄷㅠㄹ -6294
▁ㅊㅓㅇㅎㅏ -6295
▁ㅎㅘㅇㅌㅐ -6296
▁ㅂㅏㄹㅎㅟ -6297
▁ㅌㅓㅂ -6298
▁1908 -6299
▁ㅂㅜㅇㅠ -6300
▁ㄸㅗㄱㄱㅏㅌ -6301
▁ㅇㅣㄹㅈㅏ -6302
▁1906 -6303
▁ㅇㅔㄹㅡ -6304
ㅇㅏㅇㅣㄴ -6305
▁ㄱㅗㅇㅏㄴ -6306
▁ㄷㅜㄹㅕㅇ -6307
▁ㅇㅕㅇㅣㄴ -6308
▁ㅅㅡㅋㅔㅇㅣㅌㅣㅇ -6309
▁ㅍㅗㄱㅍㅜㅇ -6310
▁ㄸㅐㄹㅗ -6311
▁ㅁㅐㄴㅣ -6312
▁ㅂㅡㄹㅜ -6313
▁ㄹㅐㅇㅋㅣㅇ -6314
▁ㄹㅓㄱ -6315
▁Love -6316
▁ㅁㅣㅅㅣ -6317
▁JR -6318
▁ㅅㅡㅍㅣ -6319
▁ㄱㅕㅇㅇㅠ -6320
▁ㅈㅜㅇㅅㅣ -6321
▁ㅁㅗㄹㅐ -6322
▁ㅅㅓㄹㅂㅣ -6323
▁ㄱㅣㅂㅜ -6324
ip -6325
▁ㅌㅗㅂㅓㄹ -6326
▁ㅍㅏㅌㅡㄴㅓ -6327
ㄹㄹㅣㅇ -6328
▁ㄴㅏㅁㄷㅗㅇㅉㅗㄱ -6329
▁ㅇㅠㅇㅛㅇ -6330
▁ㅍㅡㄹㄹㅏㅇ -6331
▁ㅇㅏㅁㅏㅊㅜㅇㅓ -6332
ㅠㅁㅔㄴㅌㅓㄹㅣ -6333
▁ㅇㅔㄹㄹㅣㅈㅏㅂㅔㅅㅡ -6334
▁ㅍㅓㅅㅣ -6335
▁ㄱㅗㅇㄱㅕㄱㅅㅜ -6336
ㄷㅡㄹㅏ -6337
▁ㅈㅜㄹㅠ -6338
OM -6339
▁03 -6340
▁ㅈㅜㅇㄱㅜ -6341
▁ㅍㅐㅌㅓㄴ -6342
▁ㅋㅡㄹㄹㅏㅇㅜ -6343
▁ㅅㅏㅊㅗㄴ -6344
▁ㄱㅜㅁㅣ -6345
▁ㄱㅣㅇㅛ -6346
▁ㅌㅗㅅㅡ -6347
▁ㄱㅣㅁㄷㅐㅈㅜㅇ -6348
▁KT -6349
▁ㅅㅓㄱㅈㅗ -6350
▁ㅇㅏㅌㅡㄹㄹ -6351
▁ㅇㅕㄴㄹㅕㅇ -6352
▁ㅁㅜㄹㅡㅍ -6353
▁ㅋㅡㄹㄹㅗ -6354
▁ㄱㅕㄹㅅㅣㅁ -6355
ㅌㅗㅅㅣ -6356
▁ㅇㅘㅇㄱㅏ -6357
IS -6358
▁ㅇㅣㅈㅗㅇ -6359
▁ㅇㅠㄱㅏ -6360
▁ㄱㅗㅅㅓ -6361
▁ㄹㅡㅇ -6362
▁ㄱㅛㄷㅗ -6363
▁ㅂㅔㅌㅏ -6364
▁ㅈㅣㅇㅕㄴ -6365
ㅎㅚㅇㅢ -6366
▁ㅇㅕㅇㅈㅗ -6367
▁ㅈㅣㅈㅜㅇㅎㅐ -6368
▁ㄴㅏㅇㅣㅌㅡ -6369
▁ㅅㅡㅍㅏㅇㅣ -6370
ㅅㅚ -6371
▁ㅇㅣㄴㅏㄹ -6372
▁ㅈㅣㄴㅅㅜㄹ -6373
ld -6374
▁ㅇㅏㄴㅇㅑㅇ -6375
▁ㅇㅜㅋㅡㄹㅏㅇㅣㄴ -6376
▁ㅋㅞ -6377
▁ㅁㅜㅅㅏㄴ -6378
▁SM -6379
ㅋㅏㅅㅡ -6380
ㅂㅔㄹㅡㅋㅡ -6381
▁ㅇㅐㄹㄹㅓㄴ -6382
▁ㄱㅜㅅ -6383
ㄹㅏㅇㅣㅌㅓ -6384
▁ㅂㅗㅇㅅㅏ -6385
▁ㅇㅓㅄㅇㅐ -6386
▁ㅂㅜㄱㄷㅗㅇㅉㅗㄱ -6387
▁ㅅㅗㅇㄹㅏㅇㅣㅌㅓ -6388
▁1927 -6389
▁ㅂㅐㄱㅡㅂ -6390
▁ㄹㅏㅇㅣㅇㅗㄴ -6391
ㅎㅐㄱㅜㄴ -6392
ant -6393
▁ㄱㅏㄱㅈㅏ -6394
▁ㅇㅓㅇㅝㄷㅡ -6395
▁1907 -6396
ㅋㅗㄱ -6397
ㄹㅣㄱㅅㅡ -6398
▁BBC -6399
ㄷㅏㅇㅣㄹㅏ -6400
▁ㅅㅏㄴㅇㅏㄱ -6401
▁ㄷㅏㅋㅠㅁㅔㄴㅌㅓㄹㅣ -6402
▁ㄷㅐㄱㅛ -6403
▁ㅈㅜㄴㅇㅜㅅㅡㅇ -6404
▁ㄱㅜㄱㅁㅣㄴㄷㅏㅇ -6405
▁ㅅㅡㅇㅘ -6406
▁ㅇㅣㄴㅈㅏ -6407
▁ㅅㅏㅂㅇㅣㅂ -6408
▁ㅋㅡㄹㅗㅅㅡ -6409
▁ㅁㅕㅇㅅㅏ -6410
▁ㅌㅜㄱㅜ -6411
▁ㅇㅏㄹㅂㅏㄴ -6412
▁ㅈㅣㄱㅇㅟ -6413
▁|| -6414
ㅅㅅㅜ -6415
▁ㄱㅣㅈㅗㅇ -6416
▁1917 -6417
▁ㄷㅗㅇㅓ -6418
▁ㅍㅡㄹㅗㄹ -6419
▁ㅊㅏㅇㄱㅏㄴ -6420
▁ㅍㅜㅇㅅㅗㄱ -6421
▁ㅂㅏㅇㅣㅇㅗㄹㄹㅣㄴ -6422
av -6423
▁ㅍㅣㅌㅡ -6424
▁ㅌㅗㅇㄹㅗ -6425
▁ㅂㅜㅅㅜ -6426
▁ㅈㅗㅅㅔ -6427
▁ㅂㅜㅌㅏㄱ -6428
ㅇㅓㄷㅗ -6429
ㅜㅇㅔㄹ -6430
ㅔㄴㅅㅡ -6431
▁ㅇㅏㅂㄷㅗ -6432
▁ㄴㅏㅂㅊㅣ -6433
▁ㅇㅣㄴㄹㅕㄱ -6434
▁ㅁㅜㄴㅎㅏ -6435
▁ㅁㅕㅇㅁㅜㄴ -6436
▁ㅌㅏㅁㅎㅓㅁ -6437
▁ㅎㅡㄺ -6438
▁ㅇㅚㄱㅖ -6439
▁ㅎㅏㅅㅏ -6440
▁ㅈㅔㅈㅜㄷㅗ -6441
ㅓㅇㅣㄹ -6442
▁ㄴㅗㅂㅣ -6443
▁ㄷㅣㅈㅡㄴㅣ -6444
▁ㅅㅣㅅㅏㅇㅅㅣㄱ -6445
▁ㅁㅗㄹㅗ -6446
▁ㅈㅓㄴㅎㅑㅇ -6447
▁ㅂㅓㄱ -6448
▁1926 -6449
▁ㅁㅜㅅㅓㄴ -6450
▁He -6451
▁ㄴㅔㄹ -6452
▁ㄷㅐㅎㅐㅇ -6453
▁ㅈㅣㄹㅡㅁ -6454
ㅇㅕㅇㅅㅏㅇ -6455
ED -6456
▁ㅁㅛㅈㅣ -6457
▁ㅊㅐㄱㅝㄴ -6458
▁ㅇㅠㄱㅅㅓㅇ -6459
▁ㅇㅏㅁㅣㄴ -6460
ㄷㅏㄷㅡ -6461
▁ㅅㅔㅈㅗ -6462
▁ㄹㅣㄷㅡㅁ -6463
ㄹㄹㅓㄴ -6464
▁ㄱㅡㄴㄹㅗ -6465
▁ㅇㅢㅂㅕㅇ -6466
▁ㅁㅣㄹㄹㅏㄴㅗ -6467
▁ㅈㅓㄱㅇㅓㄷㅗ -6468
▁ㄷㅐㅁ -6469
▁ㅈㅏㅁㅜㄴ -6470
▁ㅁㅜㄴㅎㅘㅇㅠㅅㅏㄴ -6471
▁MV -6472
▁ㅋㅓㅍㅣ -6473
ㅌㅔㄴㄷㅗ -6474
▁ㄴㅣㄴㅌㅔㄴㄷㅗ -6475
▁ㅈㅗㅁㅕㅇ -6476
▁ㅊㅔㅇㅣㄴ -6477
ㅔㅂㅏ -6478
▁ㅇㅠㅇㅣㄴ -6479
▁ㄷㅗㅇㅇㅏㅅㅣㅇㅏ -6480
▁NHK -6481
▁ㅊㅣㅁㅎㅐ -6482
▁ㄹㅅㅜㄹㅗㄱ -6483
ㅡㅂㅏ -6484
▁ㄴㅗㅇㅣㄴ -6485
▁ㅁㅐㄱㅏㄱ -6486
▁ㅇㅕㄴㅅㅗ -6487
▁ㅈㅓㄱㅇㅡㅇ -6488
▁ㅈㅓㄴㅅㅡㅇ -6489
se -6490
▁ㄱㅛㅇㅕㄱ -6491
ㅗㅅㅡㄹㄹ -6492
▁ㅂㅣㅈㅓㄴ -6493
ㅌㅓㅂㅔㅇㅣㅅㅡ -6494
▁ㄱㅡㄹㅏㅇ -6495
▁ㅇㅕㄱㄱㅘ -6496
ㅡㄴㅏㄴ -6497
▁ㄷㅔㅇㅣㅌㅓㅂㅔㅇㅣㅅㅡ -6498
▁ㅌㅐㅈㅏ -6499
▁ㄱㅏㄴㅅㅓㅂ -6500
▁ㅎㅏㅇㅁㅗㄱ -6501
▁ㅂㅡㄹㅔ -6502
▁ㅎㅐㅅㅓㄹ -6503
▁ㅇㅕㄴㄱㅗㅈㅣ -6504
ame -6505
▁ㅈㅏㅊㅐㄱ -6506
ㅣㅇㅔ -6507
▁ㅁㅏㄹㅜ -6508
▁ㅅㅣㅇㅚ -6509
▁ㅅㅏㅇㅎㅏㅇㅣ -6510
ㅕㄷㅡㄹ -6511
▁ㄱㅘㅈㅏㅇ -6512
▁ㄱㅣㅁㄷㅗㅇ -6513
ㄱㅔㄹ -6514
▁ㄱㅛㅊㅏ -6515
▁ㅂㅗㅈㅘ -6516
▁ㅎㅏㅂㄱㅖ -6517
AC -6518
▁ㅍㅡㄹㄹㅔ -6519
▁ㅎㅕㅂㅇㅢㅎㅚ -6520
▁ㅇㅗㅋ -6521
▁ㅇㅏㄱㅣ -6522
ㅅㅐㅇㅁㅜㄹ -6523
▁ㅇㅘㅇㄹㅣㅂ -6524
▁ㅂㅏㄱㄱㅡㄴㅎㅖ -6525
▁SN -6526
▁ㅈㅛ -6527
ind -6528
▁ㄷㅗㄱㅇㅣㄹㅇㅓ -6529
ㅌㅔㄱ -6530
▁ㄴㅐㅈㅏㅇ -6531
▁ㅅㅏㅅㅣㄴ -6532
▁ㅈㅣㅇㅕㄱㄱㅜ -6533
▁ㅈㅓㅇㄹㅠㅈㅏㅇ -6534
▁PD -6535
▁ㅅㅣㅌㅡ -6536
ㄷㅗㄴㅣㅇㅏ -6537
▁ㄹㅔㅇㅣㄷㅏ -6538
▁ㅅㅏㅇㅊㅓ -6539
▁ㅈㅏㅇㅅㅏ -6540
▁ㄴㅗㅁㅜ -6541
▁ㅅㅣㅈㅣㅂ -6542
▁ㅅㅏㅇㅇㅕㅇ -6543
▁ㅊㅓㄹㅈㅓ -6544
▁ㅂㅕㄹㄹㅗ -6545
▁ㅅㅓㅂㅜㄱ -6546
▁ㅎㅏㅊㅓㄴ -6547
▁ㅈㅗㅇㅈㅗㄱ -6548
▁ㅊㅜㄹㅎㅕㄴ -6549
▁ㅅㅏㄴㅈㅣ -6550
▁ㅅㅜㅈㅣ -6551
▁168 -6552
▁ㅅㅐㄱㅅㅏㅇ -6553
ㅡㄹㅏ -6554
▁ㅊㅏㅁㅈㅗ -6555
ㅇㅣㅂㅡ -6556
▁ㅎㅣㅅㅡ -6557
▁ㅅㅡㅋㅏㅇㅣ -6558
▁ㅍㅏㅇㅜㄴㄷㅡ -6559
▁162 -6560
▁ㅌㅏㅂㅅㅡㅇ -6561
▁ㅈㅏㅈㅓㄴㄱㅓ -6562
ry -6563
▁ㄱㅣㄹㅡㅁ -6564
▁ㅇㅜㅇㅣㄱ -6565
▁ㅂㅔㅇㅓ -6566
▁ㅇㅠㅌㅠㅂㅡ -6567
ith -6568
ㅊㅡㅁ -6569
ㅌㅗㄹㅡ -6570
▁1905 -6571
▁ㅋㅜㅅㅡ -6572
▁ㄱㅣㅎㅏㅎㅏㄱ -6573
▁Sp -6574
▁166 -6575
▁ㅇㅝㄴㅅㅏㄴ -6576
▁151 -6577
▁ㅅㅜㄱㅏㅁ -6578
▁ㅎㅗㄹㄹㅗ -6579
▁ㅅㅣㅀ -6580
▁ㅇㅔㄹㅣㄱ -6581
▁ㅇㅐㄹㄹㅣ -6582
▁ㅁㅜㄷㅎㅣ -6583
ㅍㅔㅇㅣㅈㅣ -6584
ㅣㅇㅜ -6585
▁ㅈㅓㅇㅅㅓ -6586
▁ㅈㅜㅁㅏㄹ -6587
▁ㅎㅏㄷㅡㅇ -6588
▁ㅋㅡㄹㅣㅅㅡㅌㅗ -6589
ort -6590
▁ㅅㅚㅌㅚ -6591
▁02 -6592
▁ㅂㅣㄷㅏㄴ -6593
▁ㅅㅜㅁㅕㅇ -6594
ES -6595
▁ㅈㅗㄱㅣ -6596
▁ㄷㅏㄴㅎㅐㅇ -6597
ok -6598
▁ㅇㅣㅈㅗ -6599
▁ㅋㅓㅈㅣ -6600
▁ㄷㅗㅇㅊㅣ -6601
▁ㅌㅡㄱㄱㅡㅂ -6602
▁158 -6603
▁ㄷㅗㅇㄱㅜ -6604
▁ㅇㅠㅇㅣㅂ -6605
▁ㅍㅏㅇㅜㄹ -6606
ㅔㅅㅕㄹ -6607
▁ㄷㅡㄹㅐㄱㅗㄴ -6608
▁ㅈㅜㅍㅏ -6609
▁ㄲㅜㅁㅣ -6610
▁ㅈㅏㅂㅏ -6611
▁ㅅㅏㄹㅛ -6612
▁ㅎㅗㅁㅍㅔㅇㅣㅈㅣ -6613
ㅊㅏㅈ -6614
▁ㅈㅏㅁㅈㅐ -6615
▁ㅂㅟ -6616
▁ㅍㅔㅅㅡㅌ -6617
▁ㅍㅛㅂㅗㄴ -6618
▁ㅂㅔㅌㅗ -6619
▁ㅇㅣㄴㅌㅔㄹ -6620
▁ㅇㅗㅇㅎㅗ -6621
▁ㅍㅏㄴㅌ -6622
ㅅㅡㅂㅗㄹ -6623
▁ㅇㅏㄹㄹㅔ -6624
▁ㄱㅣㄴㅕㅁㅁㅜㄹ -6625
▁ㅂㅜㅅㅣ -6626
▁ㄷㅗㄹㅣ -6627
▁ㅂㅐㅁ -6628
▁ㅎㅑㅇㄴㅕㄴ -6629
▁ㄴㅏㅁㅅㅓㅉㅗㄱ -6630
▁ㅁㅛㅅㅗ -6631
▁ㅍㅖㄱㅣ -6632
ㅌㅐㅇㅜ -6633
▁ㅍㅣㄹㄹㅏ -6634
ㅊㅗㅇㅈㅏㅇ -6635
▁ㄱㅘㅇㅇㅕㄱ -6636
▁ㅍㅜㅁㅈㅣㄹ -6637
▁ㅋㅓㅁㅠㄴㅣㅌㅣ -6638
▁ㅂㅔㅇㅣㅅㅡㅂㅗㄹ -6639
▁ㅁㅓㅁㅜㄹ -6640
ㄴㅐㅇ -6641
ㅜㄹㅜㅅㅡ -6642
▁ㅅㅓㄱㅌㅏㅂ -6643
▁ㅈㅡㅇㄱㅣ -6644
▁ㅂㅣㅍㅕㅇㄱㅏ -6645
▁ㅁㅏㄹㅡㅌㅣㄴ -6646
▁ㅁㅏㅅㅡ -6647
▁ㅇㅓㅁㅁㅏ -6648
▁ㅅㅐㄱㄲㅏㄹ -6649
ㅅㅔㅅㅡ -6650
▁ㅍㅗㅋㅡ -6651
▁ㅌㅡㄹㅓㄱ -6652
▁ㅇㅖㅇㅚ -6653
▁ㅍㅡㄹㄹㅐㄴ -6654
▁ㅇㅠㄴㅣㅅ -6655
▁ㅇㅠㅅㅣㄴ -6656
▁ㅁㅏㅆㅡㄷㅏㅇㅣㄹㅏ -6657
▁ㅎㅗㅈㅗ -6658
▁ㅅㅡㅅㅡㅇ -6659
▁ㅇㅑㅅㅐㅇ -6660
▁ㅅㅡㅍㅔㅅㅕㄹ -6661
▁ㅇㅏㄴㄷㅡㄹㅗㅇㅣㄷㅡ -6662
ㅅㅏㄹㅡ -6663
▁ㄱㅙ -6664
▁ㄷㅏㄴㅊㅡㅇ -6665
▁ㅈㅗㅅㅓㄴㅇㅣㄴ -6666
▁ㄱㅘㄴㅈㅜㅇ -6667
▁ㅈㅣㅂㅏ -6668
▁ㄱㅣㅈㅓㅁ -6669
▁ㅅㅗㄴㅣ -6670
▁ㅁㅜㄴㄱㅘ -6671
ㄷㅓㅇ -6672
▁ㅂㅐㅅㅏㅇ -6673
▁ㄲㅜㅈㅜㄴㅎㅣ -6674
▁ㄷㅗㅅㅣㅁ -6675
▁ㅈㅘㅇㅣㄱ -6676
▁ㄷㅣㅈㅏㅇㅣㄴㅓ -6677
▁ㅋㅐㅁ -6678
▁ㄱㅡㄹㅔㄱㅗㄹㅣ -6679
ㅇㅓㄱ -6680
▁ㅂㅏㄴㅎㅘㄴ -6681
▁ㅁㅣㄴㅈㅗㄱㅈㅜㅇㅢ -6682
ㅡㄴㅣ -6683
ㄹㅣㅋㅔㅇㅣㅅㅕㄴ -6684
ㅣㅂㅓㄹ -6685
▁ㅇㅣㄴㄷㅣ -6686
ㅂㅣㄱ -6687
ㅌㅗㅁㅣ -6688
▁ㅅㅔㅅㅉㅐ -6689
ㅂㅗㅅㅏㄹ -6690
▁ㅊㅚㅇㅜㅅㅜ -6691
▁ㅂㅜㄷㅗㅇㅅㅏㄴ -6692
▁ㅇㅗㄹㅣㅈㅣㄴㅓㄹ -6693
ㅂㅏㅇㅣ -6694
▁ㅁㅗㅈㅣㅂ -6695
▁ㅅㅏㅇㅅㅗ -6696
▁ㅅㅏㅈㅣㄱ -6697
▁ㅅㅜㅊㅓㄴ -6698
▁ㄷㅗㅇㅇㅕㅇㅅㅏㅇ -6699
▁ㅁㅏㅇㅗ -6700
▁ㅇㅣㅂㅁㅜㄴ -6701
▁ㅋㅔㅇㅣㅂㅡㄹ -6702
▁ㅋㅗㄹㄹㅗㅁㅂㅣㅇㅏ -6703
ㅁㅐㅅ -6704
▁ㄹㅔㄴㅈㅡ -6705
▁ㅌㅔㅁ -6706
▁ㄹㅣㅇㅏ -6707
▁ㄱㅏㄹㄹㅣ -6708
▁ㄱㅡㅂㅎㅐㅇ -6709
▁ㄸㅡㄱ -6710
ㄷㅐㄱㅛ -6711
▁1904 -6712
▁Un -6713
ㅌㅣㅇㅜㅁ -6714
▁ㅌㅔㄹㅡ -6715
▁ㄱㅘㄴㅈㅏㅇ -6716
ㅍㅡㄹㅏㄴㅅㅣㅅㅡㅋㅗ -6717
▁ㅂㅓㄱㅡ -6718
▁ㅇㅏㄴㅂㅗ -6719
▁ㅇㅠㄱㅗㅅㅡㄹㄹ -6720
▁ㅇㅠㄱㅗㅅㅡㄹㄹㅏㅂㅣㅇㅏ -6721
ㅁㅐㄴ -6722
▁ㄷㅐㅇㅏㄴ -6723
▁ㄱㅡㅂㅅㅗㄱ -6724
▁ㄹㅏㅇㅣㅂㅓㄹ -6725
▁ㅅㅐㄴㅍㅡㄹㅏㄴㅅㅣㅅㅡㅋㅗ -6726
▁ㅍㅡㄹㅐㄴ -6727
▁ㅁㅜㅅㅣㄴ -6728
▁ㅇㅖㅅㄴㅏㄹ -6729
▁ㅌㅗㄹㅡ -6730
▁ㅅㅓㄴㅈㅣㄴ -6731
ord -6732
ㄹㅔㅇㅣㅅㅕㄴ -6733
ㄹㅕㄴㅏ -6734
ㅌㅡㄹㅓㅁ -6735
▁ㅅㅓㄱㅕㅇ -6736
▁ㅋㅏㅍㅔ -6737
▁ㄹㅔㅇㅣㅅㅡ -6738
▁ㅇㅕㄴㅈㅜㅈㅏ -6739
▁ㅈㅓㅁㅅㅓㅇ -6740
▁ㄴㅏㅍㅗㄹㄹㅣ -6741
ㅇㅛㅅㅣ -6742
▁ㅎㅗㄴㅏㅁ -6743
▁ㄷㅗㅇㅈㅓㄴ -6744
▁ㅎㅣㄱㅏㅅㅣ -6745
▁ㅁㅜㄱㅘㄴ -6746
▁ㅂㅏㄷㅊㅣㅁ -6747
▁ㅊㅜㄹㅍㅏㄴㅅㅏ -6748
▁ㅍㅔㅅㅡㅌㅣㅂㅓㄹ -6749
▁ㅂㅏㄱㅅㅡ -6750
ob -6751
▁Se -6752
▁ㅈㅓㄱㅅㅐㄱ -6753
▁ㅍㅏㄴㅌㅏㅈㅣ -6754
qu -6755
▁ㄷㅐㅇㅢ -6756
ㅇㅜㅇㅖㄴ -6757
ㄷㅣㅅㅡ -6758
ㅋㅜㅅㅡ -6759
▁ㅁㅣㅁㅏㄴ -6760
▁ㅈㅜㅎㅏㄴ -6761
▁ㅂㅔㅌㅗㅂㅔㄴ -6762
▁ㅋㅏㅈㅏ -6763
▁ㅈㅜㅇㅢㅈㅏ -6764
▁165 -6765
▁ㅌㅡㅇㅟ -6766
▁ㄷㅗㄹㅍㅏ -6767
▁ㄷㅗㅁㅔㅇㅣㄴ -6768
▁ㅇㅢㄱㅓ -6769
▁ㅋㅏㅅㅡ -6770
▁ㅎㅡㅇㅁㅣ -6771
▁ㅇㅜㄴㅂㅏㄴ -6772
▁ㅂㅏㄹㅏㅂㅗ -6773
▁ㅅㅔㄴㅌㅡㄹㅓㄹ -6774
▁154 -6775
▁ㅅㅓㅇㅣㄹ -6776
▁ㅁㅗㄱㄱㅕㄱ -6777
▁ㄴㅐㄹㅠㄱ -6778
▁ㅇㅘㅇㅈㅗㄱ -6779
▁ㅇㅕㄴㄱㅡㅁ -6780
▁ㅅㅡㅋㅗㅅ -6781
▁ㅍㅏㅅㅐㅇ -6782
▁ㄱㅐㅅㅜ -6783
▁ㄱㅖㄷㅏㄴ -6784
▁ㅊㅜㄹㅅㅏㄴ -6785
▁ㅇㅖㄴ -6786
▁ㅌㅜㄹㅡ -6787
▁ㅂㅗㄱㅈㅔ -6788
ate -6789
ㅁㅣㄴㅣ -6790
ㅌㅏㅇㅜㄴ -6791
▁ㅇㅜㄴㅁㅕㅇ -6792
▁ㅂㅏㅌ -6793
▁ㅈㅏㅅㅏ -6794
▁ㅋㅜㄴ -6795
▁ㅇㅏㄱㅈㅏㅇ -6796
▁ㄱㅣㅇㅛㅇ -6797
▁ㅇㅓㅎㅏㅇ -6798
▁ㅇㅐㄴㄷㅡㄹ -6799
▁ㅎㅗㅎㅘㄴ -6800
▁Wh -6801
▁156 -6802
ㅈㅡㄴㅣㅅㅡ -6803
▁ㄸㅜㅀ -6804
▁ㅈㅏㅇㅠㄹ -6805
▁ㅅㅓㄴㅈㅔ -6806
▁ㅈㅓㅇㅈㅏ -6807
▁SF -6808
▁ㄹㅚ -6809
▁ㅇㅏㅁㅜㄹㅓㄴ -6810
▁ㅂㅣㅈㅡㄴㅣㅅㅡ -6811
▁ㄸㅏㄴ -6812
ㅂㅜㅅㅏ -6813
▁ㅇㅔㅅㅡㅍㅏㄴ -6814
▁ㄹㅣㅌㅜㅇㅏㄴ -6815
PS -6816
ㅔㅇㅑ -6817
ㅇㅓㅅ -6818
ㅈㅜㄱㅗㄱ -6819
▁ㅈㅓㅇㄱㅛ -6820
▁ㅈㅣㅎㅟㅈㅏ -6821
ㅈㅏㅂㅎㅣ -6822
▁ㄹㅣㅇㅋㅡ -6823
▁ㄷㅗㅋㅏㅇㅣ -6824
▁ㄱㅗㄷㅂㅏㄹㅗ -6825
▁ㅇㅗㄷㅣㅅㅕㄴ -6826
ㄱㅣㄴ -6827
▁ㄱㅜㅅㅏ -6828
▁163 -6829
▁ㅂㅡㄹㅏㅇㅣㅇㅓㄴ -6830
▁ㅂㅜㅍㅐ -6831
ㅅㅣㄴㅗ -6832
▁ㅇㅣㄴㅊㅣ -6833
▁ㅇㅛㅇㅅㅏㄴ -6834
▁ㅈㅣㄱㅈㅏㅇ -6835
▁ㄱㅜㅈㅏㅇ -6836
▁ㅅㅡㅍㅔㄱㅌㅡㄹㅓㅁ -6837
ㄹㅏㄴㄷㅡㅇ -6838
▁ㅅㅣㄴㅂㅣ -6839
▁ㅎㅏㅂㅈㅏㄱ -6840
▁ㄹㅗㅈㅡ -6841
▁ㅎㅕㅂㅇㅢ -6842
ㄱㅣㄹㅇㅣ -6843
▁ㅇㅖㅅㅜㄹㄱㅏ -6844
▁ㅃㅏㄹㄹㅣ -6845
▁ㅅㅡㅁㅏㅌㅡㅍㅗㄴ -6846
▁ㄴㅏㅌ -6847
▁ㅇㅕㄷㅗㅇㅅㅐㅇ -6848
ㄷㅣㄱ -6849
▁ㅁㅏㄹㅏ -6850
▁ㅂㅏㅇㅇㅏㄴ -6851
ㅂㅏㄹㅏ -6852
▁ㅅㅡㅋㅜㄹ -6853
▁ㅋㅗㅇㄱㅗ -6854
▁ㅍㅣㄹㅔㄴ -6855
▁ㅂㅔㄴㅔㅅ -6856
▁ㅍㅕㅇㅅㅗ -6857
▁ㅅㅣㄴㅇㅣㅁ -6858
▁ㅍㅐㄹㅓ -6859
▁ㅈㅣㄴㅅㅏㅇ -6860
IC -6861
▁ㅅㅏㄹㅏ -6862
▁ㅍㅗㅁㅐㅅ -6863
▁ㅈㅜㄹㅣㅂ -6864
▁ㄴㅗㅈㅗ -6865
ㅁㅜㄴㅎㅏㄱ -6866
▁ㅅㅏㅂㅓㅁ -6867
▁ㄱㅣㄴㄱㅡㅂ -6868
▁ㅌㅏㅇㅣㄱㅓ -6869
ㅋㅙ -6870
▁ㅅㅡㅌㅔㅇㅣㅈㅣ -6871
▁ㄷㅗㅇㅅㅏ -6872
▁ㅎㅏㅇㅇㅣㄹ -6873
▁ㄱㅏㄱㅔ -6874
▁ㅅㅜㅁㅕㄴ -6875
▁ㅈㅘㅅㅓㄱ -6876
▁ㅇㅕㅅㅣㄴ -6877
ㅌㅡㄹㅡ -6878
▁ㅇㅣㄹㅎㅐㅇ -6879
▁ㅎㅏㄴㅇㅑㅇ -6880
ㄹㅜㅅㅏㄹ -6881
▁ㅈㅏㅇㅍㅕㄴ -6882
▁ㅈㅏㅎㅚㅅㅏ -6883
ㄹㅜㅅㅏㄹㄹㅔㅁ -6884
▁ㅁㅏㅋㅔㄷㅗㄴㅣㅇㅏ -6885
▁ㄱㅣㅈㅐ -6886
▁ㄷㅜㄷㅡㄹ -6887
▁ㅅㅡㅌㅣㄹ -6888
▁ㄲㅏㄹ -6889
ㅌㅏㅋㅏ -6890
ㅌㅡㄹㅗㄹ -6891
▁ㄷㅚㅊㅏㅈ -6892
▁167 -6893
▁900 -6894
▁ㅃㅜㄹ -6895
▁ㅊㅜㅇㄴㅏㅁ -6896
▁ㅎㅚㅇㅝㄴㄱㅜㄱ -6897
▁ㅍㅐㅁ -6898
▁ㄱㅝㄴㄱㅗ -6899
▁AM -6900
▁ㅁㅓㄹㅌㅣ -6901
▁ㅁㅣㅇㅑㄴ -6902
▁ㄱㅕㅇㅜ -6903
▁ㅇㅜㄷㅡ -6904
▁ㄱㅕㅂㅊㅣ -6905
▁ㅂㅜㄴㅈㅣ -6906
▁ㅇㅛㅇㄱㅣ -6907
▁ㅈㅣㄴㅈㅣ -6908
ㅜㅇㅓ -6909
▁ㄱㅛㅈㅓㄴ -6910
▁ㅇㅖㅇㅓㄴ -6911
▁ㅅㅏㅇㅇㅣㅁ -6912
▁ㅅㅓㄴㅅㅏ -6913
▁ㅈㅣㅈㅏㅇ -6914
▁139 -6915
▁ㅂㅓㄴㅈㅜ -6916
▁ㅅㅡㅍㅣㄷㅡ -6917
▁ㅎㅏㄴㄱㅏㅇ -6918
▁DJ -6919
▁ㅊㅏㄱㄹㅠㄱ -6920
ㅌㅣㅇㅏㄴ -6921
▁ㅇㅣㄹㅇㅛㅇㅣㄹ -6922
▁ㄹㅏㅁㅏ -6923
ㅈㅡㅁㅣ -6924
ㅊㅕㅈㅣ -6925
▁ㅂㅜㄴㅂㅐ -6926
▁ㅂㅐㅈㅔ -6927
▁ㅈㅗㄹㅠ -6928
▁ㅅㅣㄴㅇㅛㅇ -6929
▁ㅁㅗㅁㄱㅣㄹㅇㅣ -6930
▁ㄷㅗㄹㅡ -6931
▁ㅅㅣㄴㅎㅏ -6932
▁ㄷㅏㄴㅈㅗㅇ -6933
▁ㅎㅏㄷㅡㅇㅞㅇㅓ -6934
ㅏㅇㅇㅣ -6935
▁ㅁㅜㅅㅡㄹ -6936
▁ㅇㅛㅇㄹㅑㅇ -6937
▁ㄱㅜㄹㅗ -6938
▁ㄲㅣㄹㅣ -6939
▁ㅇㅡㅇㅇㅜㅇㅖㄴ -6940
ast -6941
▁AS -6942
ㅍㅡㄹㅏ -6943
ㅅㅣㄱㅁㅜㄹ -6944
▁ㅇㅣㅂㅈㅡㅇ -6945
▁ㄴㅣㅅㅡ -6946
▁ㄷㅏㅇㅣㄴ -6947
▁ㅇㅣㅂㅎㅣ -6948
▁ㄱㅐㅂㅏㄹㅈㅏ -6949
▁ㅁㅜㅅㅡㄹㄹㅣㅁ -6950
▁ㄱㅔㅅㅣ -6951
▁ㅈㅐㅁㅜ -6952
▁ㄱㅣㅌㅏㄹ -6953
▁ㅍㅡㄹㅗㅅ -6954
ET -6955
ㅍㅐㅇ -6956
ㅛㄱ -6957
▁ㅈㅣㅌ -6958
▁ㄱㅏㄴㅏ -6959
▁ㅇㅠㅎㅏ -6960
▁ㅇㅣㅌㅗ -6961
▁ㅇㅡㅁㅁㅗ -6962
▁ㅈㅓㅇㄱㅖ -6963
▁ㄷㅏㅇㅇㅕㄴ -6964
▁ㅊㅗㄹㅐ -6965
▁ㅈㅓㅈㅣㄹㅡ -6966
ㄱㅓㅈㅣ -6967
▁ㅇㅏㅂㅣ -6968
▁ㅈㅣㅈㅣㄹ -6969
ㅂㅔㄹㅡㅌㅡ -6970
▁ㅇㅖㄹㅜㅅㅏㄹㄹㅔㅁ -6971
▁ㅂㅓㄴㅅㅣㄱ -6972
▁ㅊㅐㄹㄹㅣㄴ -6973
▁ㅇㅐㄱㅜㄱ -6974
▁ㅇㅕㄴㅇㅐ -6975
▁ㅋㅣㄹㄹㅗㅁㅣㅌㅓ -6976
ㅠㅋㅣ -6977
ㅈㅣㄹㅡ -6978
▁ㄹㅔㅈㅣ -6979
▁ㅅㅣㅅㅡ -6980
▁ㄴㅗㅇㄷㅗ -6981
▁ㅅㅡㅌㅡㄹㅣㅌㅡ -6982
▁ㅊㅚㅅㅣㄴ -6983
ㄸㅡㅅ -6984
▁ㅈㅗㄹㅡ -6985
▁ㅎㅏㄴㄴㅏㄹㅏ -6986
▁ㅋㅗㄴㅅㅡㅌㅏㄴㅌㅣㄴㅗ -6987
ㅣㅇㅑ -6988
▁ㄴㅏㄹㄹㅣ -6989
▁ㅇㅖㄴㅡㅇ -6990
ㅌㅓㄱ -6991
ㅈㅏㅂㅇㅣ -6992
▁ㅅㅓㅇㅈㅗㅇ -6993
▁ㅎㅏㄴㄴㅏㄹㅏㄷㅏㅇ -6994
▁145 -6995
ㅇㅓㅌㅡ -6996
▁ㅎㅖㅅㅓㅇ -6997
▁ㅈㅓㄴㅇㅕㅁ -6998
▁ㄱㅘㄴㄱㅘㅇㄱㅐㄱ -6999
ㅍㅐㄴ -7000
▁ㅌㅡㄹㅔ -7001
ㅣㄱㅡ -7002
▁ㅈㅜㅇㄱㅜㄱㅇㅓ -7003
ㄹㅓㅁㅂㅣㅇㅏ -7004
▁ㄷㅐㅈㅗ -7005
▁ㅇㅏㅎㅗ -7006
▁ㄱㅏㄷㅡㄱ -7007
ㄷㅔㅇㅣㅌㅡ -7008
▁DS -7009
▁ㅊㅣㄴㅈㅓㅇ -7010
▁ㄷㅣㅂㅣㅈㅓㄴ -7011
▁UN -7012
▁ㅆㅏ -7013
▁ㅇㅣㅁㅅㅏㅇ -7014
▁ㅇㅓㅂㄷㅔㅇㅣㅌㅡ -7015
▁ㅇㅛㅋㅡ -7016
▁ㅊㅏㄱㅘㄴ -7017
ㅣㅇㅏㅂ -7018
▁ㅇㅑㄱㅣ -7019
▁ㅂㅏㄹㅈㅗㄱ -7020
▁ㅅㅏㅁㅕㄴ -7021
▁ㅁㅣㄹㅈㅓㅂ -7022
▁ㅈㅣㅈㅜ -7023
▁ㄱㅗㅇㄱㅘ -7024
▁ㅇㅝㄹㄱㅏㄴ -7025
▁ㄱㅣㅌㅏㄹㅣㅅㅡㅌㅡ -7026
▁ㅇㅕㄷㅓ -7027
▁ㅅㅛㄱㅜㄴ -7028
▁ㅅㅣㄹㅈㅓㅁ -7029
▁ㅇㅐㅍㅡㄹㄹㅣㅋㅔㅇㅣㅅㅕㄴ -7030
if -7031
▁ㅋㅡㄹㅔ -7032
DP -7033
▁IP -7034
▁ㅅㅡㅍㅏ -7035
▁ㄱㅕㅇㅅㅏ -7036
▁ㄱㅗㄹㅣㅂ -7037
▁ㅅㅓㅇㄱㅗㅇㅎㅚ -7038
▁ㅅㅣㅂㅈㅏㄱㅜㄴ -7039
▁ㅅㅓㅇㅜㄹㅅㅣ -7040
▁ㅅㅡㅍㅣㄴ -7041
▁ㅇㅘㄹ -7042
ㄹㅗㄱㅡ -7043
▁ㅁㅗㅅㅜㄴ -7044
ㅋㅗㅅ -7045
▁ㄸㅡㄱㅓㅂ -7046
▁ㅇㅗㄹㅣㅇ -7047
▁ㄱㅗㅇㅇㅛㅇ -7048
▁ㅇㅠㅇㅎㅏㅂ -7049
▁ㅂㅜㅌㅗㅇㄹㅕㅇ -7050
▁ㅅㅓㅇㅣㄹㅂㅗㄴ -7051
▁ㄹㅣㅌㅜㅇㅏㄴㅣㅇㅏ -7052
▁ㄱㅡㄹㅏ -7053
ㅌㅡㄹㅣㄱ -7054
▁ㅂㅐㅈㅓㅇ -7055
▁ㄷㅏㅇㅅㅏㅈㅏ -7056
▁ㅇㅓㅆㅇㅓㅆ -7057
▁1896 -7058
▁ㅈㅓㄴㅇㅣ -7059
▁ㅍㅣㄹㅔㄴㅊㅔ -7060
ure -7061
▁ㄱㅗㄱㅐ -7062
▁ㄷㅐㄹㅕㅇ -7063
ㅃㅕ -7064
▁ㅁㅐㅂ -7065
ㅔㄹㅣㅇㅏ -7066
▁ㄱㅏㅇㅇㅕㄴ -7067
▁ㅎㅐㅇㅣㄴ -7068
ack -7069
▁ㅆㅢ -7070
▁ㅇㅗㅂㅓ -7071
ㅔㅅㅡㅋㅗ -7072
▁ㄱㅛㅅㅓㅂ -7073
▁ㅋㅚ -7074
ㅔㄴㅈㅣ -7075
▁ㅇㅓㄹㅇㅡㅁ -7076
▁ㅈㅓㄴㄹㅠ -7077
▁ㅅㅣㄱㅅㅏ -7078
▁ㅊㅐㅁㅍㅣ -7079
▁ㅈㅣㄴㄴㅏㄹㅏ -7080
▁ㄲㅗㄹ -7081
▁ㅊㅣㄴㅅㅓㄴ -7082
▁ㅈㅗㄱㅜㄱ -7083
▁ㅅㅣㄷㅡㄴㅣ -7084
▁ㅅㅗㅅㅗㅇㅂㅓㅂ -7085
▁ㅎㅏㄱㅍㅏ -7086
▁ㅎㅞㅅㅗㄴ -7087
▁ㅅㅜㅎㅏㄱㅈㅏ -7088
▁ㅅㅣㄷㅏㄹㄹㅣ -7089
ive -7090
▁ㅅㅏㄹㅡ -7091
▁ㅌㅜㅁㅕㅇ -7092
IT -7093
▁ㄲㅓㅂ -7094
▁ㅇㅔㄹㅣ -7095
ㅇㅣㅇ -7096
▁ㅅㅣㅊㅔ -7097
▁ㄱㅘㅈㅔ -7098
▁ㅈㅜㅇㄷㅗㄱ -7099
▁ㅂㅏㄹㅎㅛ -7100
▁ㅈㅓㅇㅂㅓㄹ -7101
▁ㅂㅜㅎㅡㅇ -7102
▁ㄱㅗㅇㅈㅓㄴ -7103
▁ㅇㅕㄷㅓㄼ -7104
▁ㅅㅣㄴㅋㅏㄴ -7105
▁ㅇㅏㅂㅂㅏㄱ -7106
▁ㄷㅜㄹㄹㅓㅆㅏㅇㅣ -7107
▁ㅅㅡㅌㅏㅋㅡㄹㅐㅍㅡㅌㅡ -7108
ock -7109
▁ㅌㅔㅇㅗ -7110
iv -7111
▁ㅅㅣㅇㅏ -7112
▁ㅁㅏㅋㅔㅌㅣㅇ -7113
▁ㅂㅗㄱㅅㅗ -7114
▁ㅎㅐㅇㅈㅓㅇㅂㅜ -7115
▁ㅁㅣㄹㅇㅑㅇ -7116
▁ㅈㅏㅇㅅㅓㅇ -7117
ㄲㅗㄹ -7118
▁ㄷㅐㄷㅏㄴ -7119
▁ㅅㅏㄹㅗ -7120
▁ㅅㅏㅇㅣㄴ -7121
▁ㅎㅕㅇㅂㅓㅂ -7122
▁ㅂㅜㄷㅗ -7123
ㅋㅔㅇㅣㄴ -7124
ㅏㅇㅜㄴㅅㅓ -7125
▁ㅇㅏㄴㅏㅇㅜㄴㅅㅓ -7126
▁ㄱㅓㅅㅡㄹㅡ -7127
▁ㅈㅓㄴㅇㅣㅁ -7128
▁ㅅㅛㅍㅣㅇ -7129
▁ㅈㅓㄴㅈㅣ -7130
▁ㅇㅟㅈㅜ -7131
▁ㅁㅣㄴㅏㅁㅣ -7132
▁ㅇㅣㄹㅣ -7133
▁ㄱㅠㄱㅕㄱ -7134
▁ㄱㅠㅁㅕㅇ -7135
ㄱㅠㄴㄱㅘㄴ -7136
▁ㅍㅡㄹㅗㅅㅔㅅㅡ -7137
▁157 -7138
▁174 -7139
▁ㄱㅟㅎㅘㄴ -7140
▁ㅅㅜㅅㅣㄴ -7141
▁ㄱㅏㄴㅈㅓㅂ -7142
▁ㄴㅗㅁㅜㅎㅕㄴ -7143
▁ㅂㅗㅈㅓㄴ -7144
▁ㅇㅗㅋㅔㅅㅡㅌㅡㄹㅏ -7145
▁ㄹㅜㄹ -7146
▁ㅊㅡㄱㄱㅡㄴ -7147
▁Ar -7148
▁ㄱㅡㅁㅅㅓㅇ -7149
▁ㄹㅗㅂㅔㄹㅡ -7150
▁ㅂㅐㄱㅅㅣㄴ -7151
▁ㅂㅓㄴㄴㅚ -7152
▁ㅇㅣㅇㅣ -7153
▁ㅌㅔㅇㅣㄹㄹㅓ -7154
▁ㅂㅣㅈㅏㄴㅌㅣㅇㅜㅁ -7155
ck -7156
ㅜㄷㅡ -7157
▁ㅇㅏㅅㅔ -7158
▁ㅇㅣㅈㅣ -7159
▁j -7160
ㅈㅏㅇㅘ -7161
▁ㅊㅜㄹㄱㅜ -7162
▁152 -7163
▁ㄹㅗㅂㅣㄴ -7164
ㅈㅡㅋㅏ -7165
▁ㅅㅓㄴㄷㅜ -7166
ㄷㅐㄱㅜㄴ -7167
▁ㅈㅓㄴㅈㅏㅇ -7168
▁ㅍㅕ -7169
▁5000 -7170
ㅗㅇㅜ -7171
▁HIV -7172
▁ㅍㅏㄷㅗㅇ -7173
▁ㅈㅓㅈ -7174
▁ㅈㅘㅍㅛ -7175
▁ㄴㅐㄹㅕ -7176
▁ㅍㅣㅇㅔㄹㅡ -7177
ㅅㅡㅂㅜㄹㅡㅋㅡ -7178
▁ㅁㅏㄹㅣㅇㅗ -7179
▁ㅋㅡㄹㄹㅣㄴ -7180
▁ㅈㅜㄴㄱㅗㅇ -7181
▁ㅊㅜㅇㅅㅓㅇ -7182
▁WW -7183
▁ㅈㅜㅅㅏ -7184
▁ㅊㅏㄱㅅㅜ -7185
▁ㅈㅓㅇㅊㅏㄹ -7186
▁ㄴㅗㄷㅗㅇㅈㅗㅎㅏㅂ -7187
ㅅㅠㄹ -7188
▁MVP -7189
▁ㅂㅜㅈㅏ -7190
▁ㄱㅘㄴㅊㅏㄹㅅㅏ -7191
ㅂㅡㄹㅣ -7192
▁ㄱㅕㅇㅅㅓㄴ -7193
▁ㅈㅓㄴㅁㅜㄴㅎㅏㄱㄱㅛ -7194
ㅁㅏㅈ -7195
▁ㄱㅕㅌ -7196
▁ㅈㅓㅁㅇㅠ -7197
▁ㄱㅗㅈㅗ -7198
▁ㅁㅛㅇ -7199
▁ㄱㅜㄷㅗㅇ -7200
▁ㅎㅏㄹㄷㅏㅇ -7201
▁ㄱㅘㄴㅅㅡㅂ -7202
▁ㅎㅏㅂㅓㄷㅡ -7203
ㅗㄴㄷㅡ -7204
▁ㅁㅣㅅㅏ -7205
▁ㅊㅏㅊㅔ -7206
▁ㅎㅏㅌㅡ -7207
▁ㅅㅓㅇㅕㄹ -7208
▁ㅊㅐㄱㅂㅗㅇ -7209
▁ㅇㅘㅈㅜㅇ -7210
▁ㅇㅏㅇㅣㄷㅣㅇㅓ -7211
▁ㄱㅣㅇㅏ -7212
▁ㅅㅏㅁㅕㅇ -7213
▁ㄹㅜㅅㅜ -7214
▁ㅅㅓㅇㅂㅕㄱ -7215
▁ㅇㅕㅁㅅㅐㄱ -7216
▁ㅇㅜㅈㅣ -7217
▁ㅈㅏㅁㅏ -7218
▁ㅌㅡㄹㅐ -7219
▁ㅇㅘㄴㅎㅘ -7220
▁ㅅㅣㄴㅋㅏㄴㅅㅔㄴ -7221
▁ㅌㅡㅇㅟㄴ -7222
▁ㅇㅕㄹㅐ -7223
12 -7224
▁MP -7225
▁ㅋㅏㅌㅏㄹ -7226
▁ㅅㅓㄱㅌㅏㄴ -7227
▁ㅊㅏㅁㅍㅏㄴ -7228
ㅔㄱㅣ -7229
▁ㅍㅔㅇㅓ -7230
▁ㅅㅏㄹㅇㅏㄱㅏ -7231
▁ㅅㅓㅇㄱㅠㄴㄱㅘㄴ -7232
▁ㅌㅗㄴㅣ -7233
▁ㅈㅏㅅㅗㄴ -7234
▁ㅁㅣㅅㅡㅌㅓ -7235
▁146 -7236
▁ㄱㅗㄹㅕㅇ -7237
▁ㅂㅐㅇㅋㅡ -7238
▁ㅅㅣㄹㅣㅂ -7239
ㅏㅇㅑ -7240
▁ㄱㅝㄴㅇㅠ -7241
▁ㅎㅏㄴㅎㅘ -7242
▁ㅍㅡㄹㅗㅌㅗㅋㅗㄹ -7243
ㅓㅂㅣ -7244
ㅜㅁㅣ -7245
▁ㄱㅚㅇ -7246
ㅓㄹㅣㅇ -7247
ㅗㄱㄷㅗㄹㅗ -7248
ime -7249
▁ㅅㅗㄱㅘㄴ -7250
▁ㅇㅣㅅㅜㄴ -7251
▁ㅍㅣㄴㅏㄴ -7252
▁ㅇㅣㅁㅕㅇㅂㅏㄱ -7253
▁ㅅㅣㄹㅇㅛㅇ -7254
▁ㅌㅗㅇㅎㅐㅇ -7255
ㅈㅐㄱ -7256
ㅁㅗㅌㅗ -7257
▁ㄷㅣㅂㅣ -7258
▁ㄴㅏㅇㅕㄹ -7259
ㄲㅡㄹㅓㅂ -7260
▁ㅅㅣㅇㅚㅂㅓㅅㅡ -7261
ㄷㅔㄹㅡ -7262
▁ㅊㅏㄱㄱㅗㅇ -7263
ㅅㅏㄴㅁㅜㄹ -7264
▁ㅅㅗㅈㅐㅈㅣ -7265
▁ㅈㅔㅎㅠ -7266
▁ㅎㅡㅇㅎㅐㅇ -7267
▁ㄴㅏㅁㅇㅑㅇ -7268
▁ㅇㅜㄹㅏㄴ -7269
ㅂㅡㄹㄹ -7270
▁ㅇㅣㅅㅠ -7271
▁ㅇㅣㅂㅗㄱ -7272
▁125 -7273
▁ㅎㅐㅈㅓㄴ -7274
▁ISO -7275
▁ㅂㅏㄱㅇㅕㅇ -7276
▁ㅅㅔㄹㅖ -7277
ㄱㅕㄹㅅㅡㅇ -7278
▁ㅈㅏㅇㅇㅣㄴ -7279
▁ㄴㅣㅇㅏ -7280
▁ㅎㅣㅁㅆㅡ -7281
ㅈㅓㄴㅈㅏ -7282
▁ㅅㅗㅊㅗㅇ -7283
▁ㄹㅓㅅ -7284
▁ㅇㅛㅁㅣㅇ -7285
▁ㅅㅣㄱㄷㅏㅇ -7286
▁ㅇㅛㅁㅣㅇㅜㄹㅣ -7287
▁ㅅㅏㄹㅣ -7288
ㅋㅣㄴㅅㅡ -7289
▁ㄱㅓㅁㅈㅡㅇ -7290
▁105 -7291
▁ㅅㅏㅈㅣ -7292
▁ㅈㅔㅇㅢ -7293
▁ㄷㅏㅁㅂㅐ -7294
▁ㄷㅗㅇㄴㅏㅁㅇㅏㅅㅣㅇㅏ -7295
▁ㅈㅗㄴㄱㅕㅇ -7296
▁ㅈㅣㄱㅏㄱ -7297
▁ㅇㅡㄹㅕ -7298
▁ㅅㅗㄱㅡㅁ -7299
▁1911 -7300
▁ㄸㅏㅇㅟ -7301
ㅌㅡㄹㅐㄱ -7302
▁ㄱㅏㅇㅅㅏ -7303
▁ㅇㅟㄹㅅㅡㄴ -7304
ㅍㅡㅅㅡ -7305
▁ㄷㅗㅇㅇㅟ -7306
▁ㄱㅏㅅ -7307
▁ㅅㅗㄴㅣㄱ -7308
▁ㅇㅝㄴㄴㅏㄹㅏ -7309
ML -7310
one -7311
▁ㅇㅕㅇㅢ -7312
▁ㄴㅏㅁㅇㅣㄴ -7313
ㅁㅏㄹㅡ -7314
▁ㅂㅕㄴㄷㅗㅇ -7315
ㅍㅗㄹㄹㅣㅅㅡ -7316
▁Le -7317
▁ㅁㅏㅊㅓㄴ -7318
▁ㅈㅓㄴㅈㅣㄴ -7319
▁ㅇㅗㄷㅏ -7320
ㅎㅕㄱㅁㅕㅇ -7321
▁ㅅㅜㄴㅊㅓㄴ -7322
▁ㅊㅏㅇㅇㅓㅂ -7323
▁1500 -7324
▁ㄱㅜㄱㅇㅓ -7325
▁ㄱㅘㄴㅎㅕㄴ -7326
▁PS -7327
▁ㅅㅏㅇㄹㅠ -7328
▁ㅊㅟㅇㅑㄱ -7329
▁ㄱㅡㅂㅈㅣㄴ -7330
▁ㅎㅐㅇㅈㅣㄴ -7331
ㅎㅔ -7332
▁ㄱㅜㅈㅔ -7333
▁ㅇㅔㅁㅣㄹ -7334
▁ㅈㅗㅇㅛㅇ -7335
▁ㅅㅣㄴㅈㅓㄴ -7336
▁Pro -7337
▁ㅈㅏㅁㅕㄴ -7338
▁ㅈㅜㅁㅓㄴㅣ -7339
▁ㄱㅏㅇㅅㅜㄹㅑㅇ -7340
▁ㅅㅔㅁ -7341
▁3000 -7342
▁ㅇㅜㄹㅡ -7343
▁ㅇㅣㅂㅡ -7344
▁ㅇㅜㅈㅓㅇ -7345
▁ㄴㅗㄷㅡ -7346
▁ㅅㅓㅂㅡ -7347
ㅂㅔㅇㅣㄴ -7348
▁ㅂㅣㄹㅎㅔㄹ -7349
ㅈㅡㄹ -7350
▁ㅂㅜㄹㄹ -7351
ㅈㅐㅇㅣㄴ -7352
▁ㄱㅏㄱㅂㅗㄴㄱㅏ -7353
▁ㄱㅗㅂㅔ -7354
▁ㄱㅣㅁㅇㅛㅇ -7355
▁ㅇㅚㅁㅜ -7356
▁ㄷㅣㅈㅔㄹ -7357
▁ㄱㅘㄷㅗ -7358
▁ㄱㅗㅇㅝㄴ -7359
▁ㅇㅘㅇㅣㄴ -7360
▁ㅊㅓㅇㅅㅏ -7361
▁ㅎㅏㅇㄱㅗㅇㅁㅗ -7362
▁153 -7363
▁ㄲㅡㄴ -7364
▁ㅈㅓㄱㅎㅣ -7365
▁ㅅㅞ -7366
ㅋㅏㄷㅡ -7367
▁ㄷㅏㅈㅣ -7368
▁ㅅㅓㄷㅗㄱ -7369
▁ㅅㅏㅇㅅㅏㅇ -7370
▁ㅂㅐㄱㅜ -7371
▁ㅅㅏㅅ -7372
▁ㅇㅕㄴㄹㅜ -7373
▁ㅎㅢㄱㅡㄱ -7374
▁ㅅㅜㄹㅌㅏㄴ -7375
▁ㅊㅜㄹㅇㅣㅂㄱㅜ -7376
▁ㅊㅓㄴㅁㅜㄴㅎㅏㄱ -7377
ㅅㅜㅅㅜ -7378
ㅆㅏㅇ -7379
▁ㄱㅐㅇㅓㅂ -7380
▁ㄱㅓㅇㅣㄴ -7381
▁ㅁㅣㄴㄱㅜㄱ -7382
▁ㅁㅔㅇㅣㄴ -7383
▁ㅍㅐㅈㅓㄴ -7384
▁ㄷㅜㄹㅡ -7385
▁ㄷㅣㅇㅗ -7386
▁ㅇㅑㄼ -7387
ㅈㅔㅍㅡ -7388
▁ㅎㅐㅇㅣㅁ -7389
▁ㅂㅣㄱㅡㄱ -7390
▁ㅇㅣㄹㄹㅔㄱ -7391
▁ㅎㅡㅌ -7392
▁ㅎㅚㅅㅜ -7393
AP -7394
▁ㅁㅐㅊㅜㄹ -7395
▁ㅇㅣㄴㄱㅘ -7396
▁ㄱㅣㅇㅜㄹㅇㅣ -7397
▁ㅋㅜㄹㅡ -7398
▁ㅈㅣㅂㅜㄴ -7399
▁ㅁㅣㅇㅑㄴㅁㅏ -7400
▁ㅇㅔㅇ -7401
▁ㅈㅓㅌㅐㄱ -7402
ㅇㅏㄷㅏㄴㅣ -7403
▁ㅅㅣㄷㅡ -7404
▁ㅇㅠㅊㅜㄹ -7405
▁ㅇㅓㄹㅁㅏㄴㅏ -7406
▁ㄱㅣㅈㅏㅇ -7407
ㅏㄹㅏㅂㅣㅇㅏ -7408
▁ㅈㅓㅇㅊㅣㄱㅏ -7409
▁ㅇㅏㅍㅁㅕㄴ -7410
▁ㅁㅐㄱㅐ -7411
ㄷㅔㄹㅍㅣㅇㅏ -7412
▁ㅍㅣㄹㄹㅏㄷㅔㄹㅍㅣㅇㅏ -7413
ㅎㅜㄱㅜㄴ -7414
▁ㅇㅏㄱㅁㅏ -7415
▁ㄱㅏㄹㄹㅏㅈㅣ -7416
▁ㅎㅗㅍㅕㅇ -7417
▁ㅅㅓㅇㅈㅓㄴ -7418
▁ㅈㅜㅍㅏㅅㅜ -7419
▁ㄷㅏㄴㅇㅝㄴ -7420
▁ㅁㅗㄹㄹㅏㄱ -7421
▁ㅈㅡㅇㅎㅜㄱㅜㄴ -7422
▁ㅎㅓㅂㅡ -7423
▁ㅌㅡㄹㅐㄴ -7424
▁ㅊㅓㅇㅇㅝㄴ -7425
▁ㄷㅏㄺ -7426
▁ㅇㅕㅅㅜ -7427
▁ㄱㅘㅁㅗㄱ -7428
▁ㅂㅗㅇㅣㅇ -7429
▁ㅇㅗㅋㅣㄴ -7430
ㅎㅏㄹㅡㅌㅡ -7431
▁ㄷㅓㅁ -7432
▁ㅁㅏㅊㅏㄹ -7433
▁ㅊㅚㅈㅓㄱ -7434
▁ㅍㅗㅈㅏㅇ -7435
▁ㄱㅕㅁㅇㅣㅁ -7436
▁ㅇㅕㄴㄱㅜㅈㅏ -7437
▁ㄹㅔㅂㅏㄴ -7438
▁ㅈㅜㅇㅈㅓㅁ -7439
▁ㅍㅕㄴㄱㅗㄱ -7440
ㅏㄱㅎㅕㅇ -7441
te -7442
▁ㅍㅏㄴㅁㅐㄹㅑㅇ -7443
▁ㄷㅗㄱㄹㅣㅂㅇㅜㄴㄷㅗㅇㄱㅏ -7444
▁ㄱㅜㄺ -7445
▁ㅁㅜㅎㅛ -7446
OC -7447
▁ㅇㅣㅇㅝㄴ -7448
▁ㅇㅡㅇㄷㅏㅂ -7449
▁103 -7450
▁ㅅㅏㅁㅏ -7451
▁ㅊㅜㅇㅈㅗㄱ -7452
▁ㅇㅜㅈㅜㅅㅓㄴ -7453
▁ㅅㅙ -7454
▁ㅁㅣㄷㅇㅡㅁ -7455
▁ㅇㅕㄴㅇㅣㄴ -7456
▁ㅎㅘㄴㅇㅝㄴ -7457
▁ㄱㅐㅊㅏㄹㄱㅜ -7458
▁ㅇㅏㅇㅜㄹㄹㅓ -7459
▁ㄱㅔㅇ -7460
▁ㄱㅣㅇㅏㅂ -7461
▁ㅈㅜㅇㅈㅗㅇ -7462
▁ㅈㅜㅇㅈㅏㅇ -7463
▁ㄷㅏㄹㅇㅏㄴㅏ -7464
▁155 -7465
▁ㅂㅜㄱㄷㅗㅇㅂㅜ -7466
▁ㅇㅣㅈㅐ -7467
ㅁㅜㄴㄱㅘㄴ -7468
ㅇㅗㅅ -7469
▁ㅈㅔㅎㅜ -7470
▁ㅈㅣㅁㅗㄱ -7471
▁ㅊㅓㅇㅇㅘ -7472
ㄷㅗㅇㅁㅜㄹ -7473
▁ㅇㅖㅂㅐ -7474
▁MC -7475
▁ㅁㅐㄱㅣ -7476
▁ㅇㅠㅇㅓㄴ -7477
▁ㅊㅓㄴㅅㅏ -7478
▁ㅊㅏㅈㅇㅏㅂㅗ -7479
▁ㅇㅜㅍㅕㄴ -7480
ㅇㅏㄱㄷㅏㄴ -7481
▁ㄱㅘㄴㄴㅕㅁ -7482
▁ㅌㅚㄱㅏㄱ -7483
▁ㅍㅕㅇㅎㅐㅇ -7484
▁ㅎㅕㅂㄷㅗㅇ -7485
▁ㅈㅏㅊㅐㄱㅈㅓㅁ -7486
▁ㅇㅠㅎㅐ -7487
ㅡㄴㅣㅇㅏ -7488
▁ㅊㅓㅇㅇㅘㄷㅐ -7489
▁ㅁㅜㄴㅈㅔㅈㅓㅁ -7490
▁Con -7491
▁ㅅㅗㅈㅣ -7492
▁ㅇㅗㄹㅔㄴㅈㅣ -7493
▁ㄱㅔㄹㅡㅁ -7494
▁ㅇㅣㅇㅣㄴ -7495
▁ㄱㅗㅇㅇㅣㄴ -7496
▁ㅇㅗㅋㅏ -7497
▁ㅌㅗㅋㅡ -7498
▁ㅎㅡㄹㄹ -7499
▁ㅌㅡㄹㅏㅇ -7500
▁ㅎㅐㅇㅕㄱ -7501
▁ㅇㅣㄴㅎㅕㅇ -7502
▁ㅇㅗㄷㅣㅇㅗ -7503
▁Bo -7504
▁ㅈㅗㅇㅓㄴ -7505
▁ㅎㅘㄴㅅㅏㅇ -7506
▁108 -7507
▁ㅂㅗㅊㅜㅇ -7508
▁ㄱㅗㅅㄱㅗㅅ -7509
▁ㅅㅓㄴㅇㅝㄴ -7510
ㅍㅗㅅㅡ -7511
▁ㄱㅏㅁㅣ -7512
ㅅㅏㄴㅁㅕㄴ -7513
▁ㅂㅣㅌㅡㄹㅈㅡ -7514
▁ㅍㅗㄹㄹㅣㅅㅡ -7515
▁ㅎㅏㅇㄱㅗㅇㅁㅗㅎㅏㅁ -7516
▁ㅅㅏㅇㅁㅜ -7517
▁ㅇㅕㅇㄷㅗㅇ -7518
▁ㅌㅗㅇㅛㅇㅣㄹ -7519
▁ㅈㅔㅌㅡ -7520
▁ㅂㅓㅌㅡㄴ -7521
▁ㅁㅣㄴㅇㅕㅇ -7522
▁ㅂㅕㄹㅈㅏㄹㅣ -7523
▁ㅆㅗㄷ -7524
▁ㄲㅏㅁ -7525
▁ㅅㅣㅁㅗ -7526
▁ㄱㅡㄴㅈㅓㅂ -7527
▁ㅇㅣㅂㅅㅏㅇ -7528
▁ㅌㅗㄹㅣ -7529
▁ㅅㅐㅇㅇㅣㄹ -7530
▁ㅊㅣㄴㅊㅓㄱ -7531
▁ㅂㅣㄹㅎㅔㄹㄹㅡㅁ -7532
ㅗㄱㅣ -7533
▁ㅅㅓㅇㅁㅗ -7534
▁ㄴㅏㄱㅗㅇㅑ -7535
ㄴㅓ -7536
▁ㅇㅏㅇㅗ -7537
▁ㅇㅣㅂㅏㄴ -7538
▁ㅇㅏㄹㅡㅁㅔㄴㅣㅇㅏ -7539
▁ㅇㅣㅅㅜ -7540
▁IT -7541
▁ㅂㅓㅂㄹㅕㅇ -7542
▁ㅇㅑㅇㅅㅏㅇ -7543
▁ㅎㅚㄱㅖ -7544
▁ㅎㅑㅇㄱㅛ -7545
▁ㅂㅕㄹㄱㅐ -7546
▁ㅌㅡㄱㅇㅠ -7547
▁ㅅㅏㄹㅍ -7548
▁ㄷㅡㄹㄹㅣ -7549
▁ㄷㅡㄹㅏㅇㅣㅂㅡ -7550
ber -7551
▁ㅊㅟㅈㅐ -7552
ㅅㅡㅌㅔㄹ -7553
▁ㅈㅜㄱㅝㄴ -7554
▁ㅇㅏㄴㅣㅎㅏ -7555
▁ㅍㅓㅅ -7556
▁ㄱㅔㅈㅐ -7557
io -7558
▁ㅇㅟㄴㄷㅗ -7559
ㅍㅔㅇㅣ -7560
▁ㄱㅗㅇㅈㅏ -7561
▁ㅈㅣㅈㅣㅈㅏ -7562
ㅔㄷㅣ -7563
▁ㅇㅏㄴㅈㅏㅇ -7564
▁ㅅㅏㄹㅍㅕㅂㅗ -7565
▁ㄹㅛㅇ -7566
ㅏㄴㅌㅡ -7567
▁ㅈㅣㄴㄹㅣ -7568
▁ㄴㅜㄴㅁㅜㄹ -7569
▁ㄴㅐㄴㅐ -7570
▁ㅎㅜㅈㅏ -7571
▁ㄸㅓㅇㅗㄹㅡ -7572
▁ㅎㅐㅇㅜㄴ -7573
ㅏㅇㅓ -7574
▁ㅍㅗㅅㅜ -7575
▁ㅈㅗㅂㅏㄴ -7576
▁ㅊㅏㅁㄱㅏㅈㅏ -7577
▁ㅎㅟㅂ -7578
ㅅㅏㄹㅕㅇ -7579
▁ㅅㅑㄹㅡㄹ -7580
▁ㅎㅜㅇㅏㄴ -7581
▁ㄱㅔㄹ -7582
▁ㅅㅔㄱㅠㄴ -7583
▁ㄴㅏㅁㅇㅝㄴ -7584
▁ㅍㅓㅅㅣㅍㅣㄱ -7585
ㅊㅡㅋㅣ -7586
▁ㅉㅏㄹㅣ -7587
▁ㄱㅏㄱㄱㅣ -7588
ㅡㅂㅜㄹㅡㅋㅡ -7589
▁ㄱㅔㄹㅡㅁㅏㄴ -7590
▁ㅋㅡㄹㅣㅅㅡㅁㅏㅅㅡ -7591
▁ㅅㅏㅅㅡ -7592
▁ㅅㅏㅇㅈㅏ -7593
ㅜㅇㅔㄹㄹㅏ -7594
ㅌㅜㅁ -7595
▁ㅅㅜㅅㅓㅇ -7596
▁ㅅㅡㅇㅊㅏ -7597
▁ㅎㅚㄱㅕㄴ -7598
▁128 -7599
▁# -7600
▁ㅎㅚㅎㅘ -7601
▁ㅅㅏㅇㅈㅏㅇ -7602
▁ㅇㅜㅋㅡㄹㅏㅇㅣㄴㅏ -7603
▁1909 -7604
▁ㅅㅓㅅㅓ -7605
▁ㅌㅔㅅㅡ -7606
▁ㅇㅟㅈㅏㅇ -7607
▁ㅍㅗㄱㅅㅡ -7608
▁ㄱㅗㅇㄹㅑㄱ -7609
▁ㅇㅠㄱㅕㄱ -7610
▁ㅇㅣㅇㅕㅇ -7611
▁ㄱㅣㅅㅡ -7612
▁ㅊㅜㅁㅗ -7613
▁ㅁㅣㄴㅅㅏ -7614
▁ㅋㅓㄴㅌㅡㄹㅗㄹ -7615
age -7616
▁149 -7617
▁ㅇㅒ -7618
▁ㅁㅐㅅㅏ -7619
▁ㅇㅠㄱㅛ -7620
▁ㄹㅔㅈㅓㄴ -7621
▁ㅅㅏㄴㅌㅏ -7622
ㅂㅏㄷㅊㅣㅁ -7623
ㅋㅏㅇㅑㅁㅏ -7624
▁ㅅㅏㅇㅂㅜ -7625
▁ㅇㅑㄱㅏㄴ -7626
▁ㅂㅏㄱㅌㅏㄹ -7627
▁ㅅㅡㅇㅁㅜㅇㅝㄴ -7628
ㅊㅔㄴ -7629
ㄸㅐㄹㅗ -7630
▁ㅈㅐㅁㅣ -7631
▁ㄱㅓㄴㅇㅢ -7632
▁ㅂㅏㄹㅇㅝㄴ -7633
▁ㅇㅣㄹㅈㅗㄱ -7634
▁ㄱㅛㄷㅏㄴ -7635
▁ㅌㅐㅇㅜ -7636
ㅂㅐㄱㄱㅘ -7637
▁ㅅㅡㅌㅔㅍㅏㄴ -7638
▁ㅍㅏㅌㅡ -7639
▁ㄱㅛㅈㅏㅇ -7640
ㄲㅜ -7641
ㅂㅏㅌ -7642
ㄹㅏㅁㅎㅚ -7643
▁102 -7644
▁ㅇㅚㄱㅜㄱㅇㅓ -7645
▁ㅎㅏㅇㅣㄴㄹㅣㅎㅣ -7646
ㅌㅏㄴㅣ -7647
▁ㅇㅏㄱㅜㄴ -7648
▁ㅂㅗㄱㅈㅏㅇ -7649
▁ㅇㅣㄹㄱㅘㄴ -7650
▁ㅇㅣㄹㅉㅣㄱㅇㅣ -7651
▁ㅎㅔㄷㅡ -7652
▁ㅇㅏㅇㄹㅣ -7653
▁ㅌㅖㄴ -7654
▁ㅇㅚㄱㅘㄱ -7655
▁ㄷㅗㅇㄷㅡㅇ -7656
▁ㅅㅏㅇㅛㅇㅈㅏ -7657
▁ㅇㅝㄴㅈㅏㄹㅗ -7658
▁ㅌㅓㅈㅣ -7659
▁$ -7660
▁ㅎㅘㅅㅏㄹ -7661
ㅂㅔㅅ -7662
▁ㅇㅕㄴㄷㅗ -7663
▁ㅎㅗㅊㅣㅇ -7664
▁ㅃㅐㅇㅏㅅㄱㅣ -7665
ㄷㅏㄷ -7666
▁ㅂㅔㄹㅡㅋㅡ -7667
ㅣㅁㅔ -7668
▁ㅇㅠㄹㄹㅣ -7669
▁ㅇㅣㄴㄱㅕㄱ -7670
ㅌㅣㅇㅏ -7671
▁ㅅㅏㅇㄱㅗㅇ -7672
iz -7673
▁ㄸㅐㄸㅐㄹㅗ -7674
ㅏㅇㅋㅏ -7675
▁ㅌㅡㄹㅔㅇㅣㄴ -7676
ㅈㅣㅂㅎㅏㅂ -7677
▁ㄷㅜㄷㅡㄹㅓㅈㅣ -7678
▁ㅈㅜㅇㄷㅗ -7679
▁ㅈㅏㅂㅏㄹ -7680
▁ㅅㅣㄹㅈㅗㅇ -7681
▁ㅇㅣㅅㅏㅈㅏㅇ -7682
▁ㅅㅐㅇㅁㅕㅇㅊㅔ -7683
▁ㄷㅜㅅㅏㄴ -7684
▁ㅈㅓㄴㄹㅖ -7685
▁ㄷㅗㅇㄱㅜㄱ -7686
▁ㅅㅣㅊㅓㅇㅈㅏ -7687
▁ㅌㅏㄹㅡ -7688
▁ㅈㅣㄴㄷㅗ -7689
▁ㅈㅜㄴㄱㅕㄹㅅㅡㅇ -7690
▁ㅂㅗㄷㅡ -7691
▁ㅊㅣㅅㅔ -7692
▁ㅇㅣㅇㅓㅂ -7693
▁ㅌㅡㄹㅓㅁㅍㅡ -7694
▁ㅇㅣㅅㅡㄹㄹㅏㅁㄱㅛ -7695
▁ㅇㅣㅇㅓㅅㅓ -7696
▁ㄱㅓㄴㅊㅜㄱㄱㅏ -7697
sp -7698
▁ㄲㅚ -7699
ㅡㄹㅅㅡ -7700
▁ㄷㅏㅈㅜㅇ -7701
▁ㄷㅐㅈㅜㄱㅛ -7702
ㄹㅕㅈㅜ -7703
▁ㄱㅖㅈㅓㄹ -7704
▁ㅎㅏㅂㅂㅓㅂ -7705
▁Bl -7706
▁ㅈㅓㅁㅍㅡ -7707
▁ㅊㅏㄴㅏㅁ -7708
▁ㄴㅔㅇㅣㅂㅓ -7709
ㅁㅓㄱ -7710
▁ㄱㅣㄱㅡㅁ -7711
▁ㅈㅓㄱㅈㅏ -7712
▁ㅈㅣㅂㄱㅖ -7713
ge -7714
ㄱㅛㅇㅠㄱ -7715
▁ㅇㅜㄴㄷㅗㅇㅈㅏㅇ -7716
ㅎㅘㅈㅓㅁ -7717
ㅅㅡㅌㅣ -7718
▁ㅈㅡㄹㄱ -7719
▁ㅅㅓㅇㅈㅜ -7720
▁ㅁㅔㄷㅣ -7721
▁ㅂㅣㅇㅏ -7722
▁ㅁㅐㄹㅕㄱ -7723
▁ㄱㅡㅁㅇㅐㄱ -7724
▁ㅇㅕㄱㅁㅕㅇ -7725
▁ㅇㅙㅅㅓㅇ -7726
▁ㅇㅣㅌㅡㄹ -7727
▁ㅅㅓㄲㅇㅣ -7728
▁ㅂㅏㄹㅎㅕㄴ -7729
ㄱㅣㅁ -7730
▁ㅈㅏㅇㅠㄷㅏㅇ -7731
▁ㅅㅏㅇㄷㅐㅂㅏㅇ -7732
ㅅㅏㅇㅅㅡ -7733
▁ㅊㅜㅇㅈㅜ -7734
▁ㅌㅐㅅㅐㅇ -7735
▁ㅈㅔㅈㅏㄱㅈㅏ -7736
▁ㅇㅔㄷㅣ -7737
ㄱㅕㅇㄱㅣ -7738
▁ㄹㅔㅇㅣㅈㅓ -7739
▁ㅌㅔㄱㅅㅡㅌㅡ -7740
▁ㅇㅔㄹㄹㅣㅂ -7741
▁ㄱㅡㄹㅏㅇㅍㅡㄹㅣ -7742
▁ㅎㅗㅇㅟ -7743
▁ㅇㅔㄹㄹㅣㅂㅔㅇㅣㅌㅓ -7744
ㅅㅗㅅㅡ -7745
ㄱㅜㅈㅏㅇ -7746
▁ㄹㅔㅅㅡㄹ -7747
▁ㄱㅔㅇㅣㅌㅡ -7748
▁ㅇㅖㄹ -7749
▁ㄴㅗㄹㅏㄴㅅㅐㄱ -7750
▁ㅋㅐㅁㅍㅔㅇㅣㄴ -7751
▁ㅈㅠ -7752
ㅗㄹㅏ -7753
▁ㄱㅕㄱㄹㅕㄹ -7754
▁ㅎㅣㄷㅔㅇㅛㅅㅣ -7755
AD -7756
▁ㅂㅜㅊㅏㄱ -7757
▁ㅈㅔㄱㅗㅂ -7758
ㅅㅏㄴㄱㅜㄴ -7759
▁CPU -7760
▁ㅇㅠㅋㅣ -7761
▁ㅅㅡㅌㅔㄹ -7762
▁ㅇㅕㅈㅣㄴ -7763
▁ㅍㅗㄷㅗㅈㅜ -7764
▁ㅈㅏㄱㅗ -7765
▁ㅇㅔㅇㅣㅅㅡ -7766
▁ㅈㅓㄴㄷㅐ -7767
ㅎㅏㅇㄱㅗㅇ -7768
ㅇㅡㄹ -7769
▁ㄷㅐㄱㅜㄴ -7770
▁ㄴㅐㅈㅣ -7771
▁ㅁㅣㄹㅜ -7772
▁ㄱㅏㅁㅈㅣ -7773
▁ㅊㅗㅊㅏㅇ -7774
▁ㅈㅓㅇㅁㅣㄹ -7775
▁ㅇㅠㅅㅗㄴㅕㄴ -7776
▁ㅁㅕㅇㅇㅢ -7777
▁ㅊㅜㅈㅡㅇ -7778
▁ㅍㅗㄱㅘㄹ -7779
▁ㅂㅡㄹㄹㅜㅅㅡ -7780
▁ㅅㅏㅇㅜㄷㅣㅇ -7781
▁ㅅㅏㅇㅜㄷㅣㅇㅏㄹㅏㅂㅣㅇㅏ -7782
▁ㄷㅐㅇㅕㄱ -7783
▁ㄷㅗㅇㄷㅏㅇ -7784
▁ㅈㅣㄱㅊㅐㄱ -7785
▁ㄹㅗㅁㅐㄴㅅㅡ -7786
▁ㅇㅟㅋㅣㅂㅐㄱㄱㅘ -7787
▁ㄷㅏㄷ -7788
▁ㄱㅗㅊㅔ -7789
▁ㅂㅏㄴㄱㅕㄱ -7790
ㅅㅜㅇㅏ -7791
▁ㄱㅏㄹㅡㅊㅣㅁ -7792
▁ㅇㅏㄹㅂㅏㄴㅣㅇㅏ -7793
▁ㅈㅜㅇㄱㅜㄱㅇㅣㄴ -7794
▁1915 -7795
ㅏㄴㅎㅣ -7796
ㅍㅡㄹㅗㅅㅡ -7797
▁ㅁㅜㄴㅇㅑㅇ -7798
▁ㅂㅜㄴㄱㅘㅇ -7799
▁ㅂㅔㄴㅔㅅㅜㅇㅔㄹㄹㅏ -7800
▁ㄱㅡㅁㅏㄴㄷㅜ -7801
ㅁㅏㅊㅣ -7802
▁ㅈㅜㅈㅣㅅㅏ -7803
▁ㅍㅕㄹㅊㅕㅈㅣ -7804
▁ㄱㅘㅇㄴㅕㄴ -7805
▁ㄷㅐㅇㅚ -7806
▁ㅌㅔㄴㅣㅅㅡ -7807
ㅁㅕㅇㅅㅏㅈㅓㄴ -7808
▁ㅇㅔㅅㅡㅍㅏㄴㅑ -7809
ㅖㅍㅡ -7810
▁147 -7811
▁ㅁㅔㄱㅏ -7812
▁ㅂㅜㅊㅓㄴ -7813
ㅈㅏㅊㅣㄷㅗ -7814
▁ㅈㅔㅈㅜㅌㅡㄱㅂㅕㄹ -7815
ㅣㅊㅣ -7816
orld -7817
▁ㄱㅣㅅㅜ -7818
ㄷㅜㅎㅘㄴ -7819
▁ㅊㅓㅇㅈㅏㅇ -7820
▁ㅁㅜㄴㅈㅐㅇㅣㄴ -7821
▁ㅅㅓㄲ -7822
▁ㅁㅣㅎㅏㅇ -7823
▁ㄱㅜㅇㅈㅓㅇ -7824
▁127 -7825
ㅂㅗㄱㅣ -7826
▁ㅌㅏㅋㅏ -7827
▁ㄱㅗㄹㅐ -7828
ㄸㅡ -7829
▁ㄱㅏㅇㄱㅘ -7830
▁ㄷㅜㄹㄹㅔ -7831
▁ㅅㅜㅍㅕㅇ -7832
▁ㄴㅏㅁㅎㅏㄴ -7833
▁ㅋㅏㅈㅏㅎㅡ -7834
▁ㄹㅔㅈㅓㄴㄷㅡ -7835
▁ㅅㅗㅇㄴㅏㄹㅏ -7836
ㅊㅏㄹㅖ -7837
▁ㅋㅏㅁㅂㅗ -7838
▁ㅌㅏㅁㅈㅣ -7839
▁ㄱㅗㅂㅏㄹ -7840
ㅍㅏㄱ -7841
▁ㅌㅓㄱ -7842
▁1913 -7843
▁ㅅㅔㄴㅅㅓ -7844
▁ㅇㅜㄹㄹㅣ -7845
ㅊㅏㅇㄱㅜㄴ -7846
ㅏㅋㅏ -7847
ㅅㅓㄹㅣ -7848
▁ㅊㅏㅇㄱㅓㄴ -7849
▁al -7850
▁ㄴㅜㄹ -7851
▁ㄹㄲㅏ -7852
▁ㅁㅜㄴㅎㅏㄱㅅㅏㅇ -7853
ik -7854
▁171 -7855
▁ㅇㅗㄹㅗ -7856
▁ㄷㅐㄷㅏㅂ -7857
▁ㅅㅓㅂㅊㅟ -7858
ㅏㄴㄷㅏ -7859
▁ㅇㅏㄱㅏ -7860
▁ㅅㅏㅇㅅㅔ -7861
▁ㅎㅑㅇㅎㅜ -7862
▁ㄹㅡㄴㅔㅅㅏㅇㅅㅡ -7863
ㅅㅣㅌㅣ -7864
▁ㄷㅗㅅㅡ -7865
▁ㄲㅜㄹ -7866
▁ㄴㅏㄹㅣ -7867
ㄷㅡㄹㅣㄱ -7868
ㅊㅜㅇㅝㄴ -7869
▁ㅁㅓㅅㅣㄴ -7870
▁ㅊㅜㄱㅕㄱ -7871
▁ㄴㅏㄴㅁㅣㄴ -7872
ㅊㅣㄹㄹㅣㅇㅏ -7873
▁ㅁㅔㅌㅏ -7874
ㅁㅜㄴㅔ -7875
ㅍㅗㅌㅡ -7876
▁ㄷㅏㄴㅣㅇㅔㄹ -7877
▁ㅅㅓㅅㅓㅎㅣ -7878
▁ㅅㅗㄴㄱㅏㄹㅏㄱ -7879
▁ㄱㅘㅇㅂㅜ -7880
▁ㅍㅡㄹㅐㅇㅋㅡ -7881
ㄹㅏㄷㅡ -7882
▁ㄱㅣㄴㅈㅏㅇ -7883
▁ㅎㅜㅁ -7884
▁ㅌㅗㅁㅏ -7885
▁ㅅㅜㄱㅜㄴ -7886
▁ㄷㅏㄴㅈㅓㅁ -7887
▁ㄷㅙㅈㅣ -7888
▁ㄷㅏㄴㄱㅣ -7889
▁ㅅㅣㄴㅈㅜㅇ -7890
ㅍㅗㄱㅜ -7891
▁ㅌㅐㅅㅜ -7892
▁ㅍㅜㄴ -7893
▁ㅂㅜㄱㄱㅜ -7894
ㅍㅕㅇㄱㅜㄴ -7895
▁ㅌㅗㅇㅊㅣㅇ -7896
▁ㅍㅐㅇㅊㅏㅇ -7897
▁1895 -7898
▁ㅅㅏㅋㅏ -7899
▁ㅅㅗㅁ -7900
▁ㅅㅣㄴㅎㅡㅇ -7901
▁ㅊㅓㄴㅁㅜㄴㅎㅏㄱㅈㅏ -7902
▁ㅃㅗㅂㅎㅣ -7903
▁ㄷㅣㅅㅡㅍㅡㄹㄹㅔㅇㅣ -7904
ㅋㅡㅇ -7905
▁ㅂㅐㅌㅡㄹ -7906
▁ㅇㅗㄴㅊㅓㄴ -7907
▁ㅇㅝㄴㅂㅏㄴ -7908
▁ㄴㅏㄱㅏㅅㅏㅋㅣ -7909
▁ㅅㅜㄹㅕㅁ -7910
▁ㅊㅜㄹㅌㅗ -7911
▁SP -7912
▁ㅂㅜㄱㅘ -7913
▁ㅊㅏㅇㅅㅣ -7914
▁ㅎㅜㅇㅣㄹ -7915
▁ㄷㅏㅎ -7916
▁ㅂㅓㅂㅈㅔ -7917
▁GT -7918
▁ㅅㅗㄱㅅㅓㅇ -7919
EN -7920
▁ㅅㅣㅇㅗ -7921
ㅅㅏㄴㄹㅣ -7922
▁ㅊㅗㅇㅕㄴ -7923
▁ㅍㅜㅅㅂㅗㄹ -7924
▁ㅇㅗㅋㅣㄴㅏㅇㅘ -7925
ㅏㅇㅣㅇㅓ -7926
ㅋㅡㄹㅣㅌㅡ -7927
▁ㄱㅏㅇㄱㅕㅇ -7928
▁141 -7929
▁ㄸㅏㄸㅡㅅ -7930
▁ㅇㅣㅂㅊㅔ -7931
▁ㅂㅜㄱㅂㅏㅇ -7932
▁ㅊㅗㅊㅏㅇㄱㅣ -7933
▁Tr -7934
ㅓㅇㅜ -7935
▁ㅎㅗㅅㅔ -7936
▁ㄴㅓㄼㅎㅣ -7937
▁ㄷㅗㅇㄴㅕㄴ -7938
▁ㄷㅏㅇㅜㄴㄹㅗㄷㅡ -7939
▁ㅇㅓㄴㄹㅗㄴㅇㅣㄴ -7940
▁ㅁㅕㅇㅁㅗㄱ -7941
▁ㅂㅜㄱㅅㅓㅂㅜ -7942
▁ㅍㅏㄹㄹㅔㅅㅡㅌㅏㅇㅣㄴ -7943
ㅍㅗㅇ -7944
▁ㅊㅜㅅㅏㅇ -7945
MS -7946
ㅅㅜㄹㅣ -7947
▁ㅈㅗㄴㅈㅜㅇ -7948
▁ㄹㅏㅇㅣㅇㅓㄴ -7949
▁ㄱㅣㅁㅇㅕㅇㅅㅏㅁ -7950
▁ㅁㅜㅈㅔ -7951
ㅌㅔㅇㅣㄴ -7952
ㅅㅐㅇㅎㅘㄹ -7953
▁ㅁㅜㄴㅎㅘㅂㅏㅇㅅㅗㅇ -7954
ㄹㅣㅇㅔ -7955
▁ㅁㅜㄹㅈㅏ -7956
▁ㅂㅣㅁㅜㄴ -7957
▁ㅅㅣㅁㅇㅢ -7958
▁ㅈㅓㄴㅎㅏㅁ -7959
ust -7960
ㅎㅐㅇㅇㅟ -7961
▁ㅅㅜㅇㅂㅐ -7962
▁ㄷㅗㅇㄷㅗㄱ -7963
▁169 -7964
▁ㄱㅐㄱㅘㄴ -7965
▁ㅁㅕㅊㅣㄹ -7966
▁ㅅㅏㅈㅓㄹ -7967
▁ㅇㅣㅈㅣㄴ -7968
ㅃㅏㄹ -7969
▁ㄱㅗㄹㅍㅡ -7970
▁ㅈㅓㄱㄷㅐ -7971
ㄱㅗㅁ -7972
▁ㅊㅚㅅㅗㅎㅏㄴ -7973
int -7974
▁ㄷㅏㅁㅏ -7975
ㅇㅓㄷㅡㄹㅇㅣ -7976
▁ㅈㅓㄱㅣㅇㅏㅂ -7977
▁ㄹㅣㅁㅔㅇㅣㅋㅡ -7978
▁135 -7979
▁ㅋㅐㅅㅡㅌㅣㅇ -7980
▁ㅇㅟㄹㄹㅣㅇㅓㅁㅅㅡ -7981
ep -7982
▁144 -7983
ㅇㅓㅇㅗ -7984
▁ㄱㅣㅁㅈㅣㄴ -7985
▁ㅈㅜㅊㅜㄱ -7986
▁ㄷㅗㅎㅗㅋㅜ -7987
▁ㅂㅕㅇㅇㅕㄱ -7988
▁ㅊㅐㅁㅜ -7989
▁ㅇㅏㅂㅔㄹ -7990
▁ㅋㅝ -7991
▁ㄱㅟㅈㅜㅇ -7992
▁ㅂㅡㄹㅏㅇㅜ -7993
▁ㅅㅜㅅㅜ -7994
ㅈㅏㅅㅡ -7995
▁ㅅㅡㅌㅣ -7996
▁ㄱㅏㅂㅈㅏㄱ -7997
▁ㅇㅣㅇㅓㅂㅏㄷ -7998
▁111 -7999
▁ㅈㅜㅊㅏ -8000
▁ㅅㅣㄹㅏ -8001
▁ㅇㅑㅇㅈㅜ -8002
▁ㅈㅏㅁㅏㅈㅏ -8003
▁ㅅㅜㄹㅕㅇ -8004
▁ㅈㅓㄴㄷㅜㅎㅘㄴ -8005
ㄹㅕㅁ -8006
ㅇㅕㅈㅣ -8007
▁ㄱㅜㄱㅅㅏ -8008
▁ㅊㅣㅁㅁㅗㄹ -8009
▁ㅈㅏㄱㅣㅈㅏㅇ -8010
▁ㅎㅏㅇㅜ -8011
ㅅㅓㄱㄱㅣ -8012
▁ㅅㅗㅅㅣㄹ -8013
▁ㅇㅓㅇㅓㅂ -8014
▁ㅋㅓㄹㄹㅓ -8015
▁ㅎㅗㅇㅅㅜ -8016
▁ㄲㅙ -8017
▁ㅂㅏㅅㅣㄹ -8018
▁ㅋㅓㅁㅍㅓㄴㅣ -8019
▁ㅅㅏㅇㄷㅏㅇㅅㅜ -8020
▁ㅊㅗㅇㅅㅓㄴㄱㅓ -8021
▁ㅇㅏㅈㅗㅇ -8022
▁ㅇㅣㅁㅣㄴㅈㅏ -8023
▁119 -8024
▁ㅅㅡㅌㅐ -8025
▁ㄴㅏㅈㅊㅜ -8026
▁ㅊㅣㄴㅇㅣㄹㅇㅣㄴ -8027
▁ㄱㅗㅇㅊㅐ -8028
▁ㅇㅗㄱㅅㅡ -8029
▁CO -8030
ㅣㅇㅐ -8031
▁ㅎㅜㅅㅔ -8032
▁ㅊㅗㅇㄱㅘㄹ -8033
▁ㅁㅜㅈㅚ -8034
▁ㅋㅡㄹㅏ -8035
GC -8036
▁ㄴㅏㅈㅜ -8037
▁ㅅㅡㅌㅓ -8038
▁ㄱㅖㅁㅗㅇ -8039
▁ㅍㅕㅇㅇㅑ -8040
ㅏㄹㄹㅏ -8041
▁ㅅㅣㄱㅗㅇ -8042
▁ㅇㅕㅇㄹㅣ -8043
▁ㄱㅐㅁㅣ -8044
▁ㅁㅜㄹㅕ -8045
▁ㄷㅐㅍㅗ -8046
▁ㅍㅕㅇㅇㅝㄴ -8047
▁ㅅㅜㅇㅛㅇㅅㅗ -8048
▁ㅊㅗㅅㅏㅇㅎㅘ -8049
▁ㅋㅡㄹㄹㅣ -8050
▁ㅅㅓㅂㅈㅓㅇ -8051
▁ㄱㅛㅇㅚ -8052
▁ㅁㅛㅇㅕㄱ -8053
▁ㄷㅓㄱㅡㄹㄹ -8054
▁ㅈㅓㅇㅈㅓㄴ -8055
▁ㅍㅕㅇㅇㅣㄹ -8056
ude -8057
▁TH -8058
▁ㅅㅡㅌㅗㅇ -8059
▁ㅇㅏㄷㅏㅁ -8060
▁ㄱㅚㅇㅈㅏㅇ -8061
ㅔㅇㅓ -8062
▁ㄱㅗㅁㅜ -8063
▁ㄱㅣㅁㅅㅏㅇ -8064
▁ㅂㅕㄹㅊㅣㅇ -8065
▁ㅇㅠㄴㅣㅂㅓ -8066
▁ㅇㅠㄴㅔㅅㅡㅋㅗ -8067
▁ㅎㅕㅂㅈㅗ -8068
▁ㅁㅗㄴㅌㅡㄹ -8069
▁ㅎㅡㅌㅇㅓㅈㅣ -8070
▁ㅇㅣㄴㅈㅐ -8071
▁ㅇㅓㄴㅈㅔㄴㅏ -8072
▁ㅌㅏㅁㅏ -8073
ㅍㅐㄱㅌㅡ -8074
▁ㅅㅡㅍㅏㄹㅡㅌㅏ -8075
▁ㅊㅟㅈㅣ -8076
ㅋㅣㅈㅣ -8077
▁ㅅㅓㅅㅏ -8078
▁ㅍㅐㅅㅡ -8079
▁ㅇㅓㅅㅡ -8080
▁ㅍㅖㅇㅟ -8081
▁ㅎㅐㅂㅕㅇㄷㅐ -8082
▁ㅁㅗㄴㅌㅡㄹㅣㅇㅗㄹ -8083
▁ㅅㅣㄱㅂㅕㄹ -8084
▁172 -8085
▁ㄹㅗㅍㅡ -8086
▁ㅎㅏㅂㅜ -8087
▁ㅇㅏㅅㅏㅎㅣ -8088
▁ㅇㅠㅇㅕㄴ -8089
▁ㅎㅜㄷㅐ -8090
▁ㅇㅡㅁㅇㅝㄴ -8091
▁ㅁㅗㅅㅡ -8092
▁ㅊㅗㄱㄱㅜ -8093
ib -8094
▁ㅇㅚㅇㅑ -8095
▁ㅈㅓㅁㅕㅇ -8096
ㅎㅡㅁ -8097
ㅗㅇㅣㄴ -8098
▁ㅈㅓㄴㄷㅗ -8099
ㅏㅂㅔ -8100
▁ㅋㅏㄹㅣㅂㅡ -8101
▁It -8102
ㅌㅡㄹㄹㅐㄴ -8103
▁ㅂㅏㅇㅊㅣㅁ -8104
▁ㅅㅓㅇㅜㄹㄷㅐ -8105
▁ㅅㅣㄴㅎㅏㄱㄱㅛ -8106
▁ㅈㅣㅍㅖ -8107
▁ㄷㅐㅇㅜㅇ -8108
▁ㅋㅏㅁㅂㅗㄷㅣㅇㅏ -8109
▁ㅂㅏㄹㅣ -8110
▁ㅇㅜㄹㅏ -8111
▁ㅂㅜㄱㅇㅟ -8112
▁ㄷㅗㅇㄹㅕㄱ -8113
▁106 -8114
▁ㅁㅐㅋㅏ -8115
▁ㅎㅏㄴㄷㅗㅇㅇㅏㄴ -8116
▁ㅈㅏㅇㅁㅣ -8117
▁ㅊㅏㄱㅣ -8118
▁ㅍㅕㄴㄹㅣ -8119
ㅍㅡㅁ -8120
ㅡㅂㅏㅇㅣ -8121
▁ㅈㅣㄴㄱㅜㄴ -8122
▁ㅇㅗㅍㅡ -8123
▁ㄹㅏㅇㅣㅂㅡㄹ -8124
▁ㄴㅏㅅ -8125
▁ㅈㅗㅇㄱㅕㄹ -8126
▁ㅅㅡㄹㅣㄹㄹㅓ -8127
▁ㄴㅐㅇㅚ -8128
▁ㅇㅏㅇㅣㅅㅡㄹㄹ -8129
▁ㅌㅏㄹㅎㅘㄴ -8130
▁ㅋㅓㄹㄹㅓㅁㅂㅣㅇㅏ -8131
▁ㅇㅐㄷㅓㅁ -8132
ome -8133
▁ㄷㅐㅊㅓ -8134
▁ㅇㅏㅂㅔ -8135
▁ㄴㅏㄹㅉㅏ -8136
▁ㅈㅗㄷㅏㄹ -8137
▁ㅋㅗㄹㄹㅏ -8138
▁ㅊㅏㅈㅇㅏㄴㅐ -8139
▁ㄹㅣㅇㅋㅓㄴ -8140
▁ㅇㅜㄹㅏㄴㅠㅁ -8141
▁ㄸㅐㄹㅣ -8142
▁ㅅㅣㄴㅅㅔ -8143
▁ㄲㅓㅂㅈㅣㄹ -8144
▁ㅈㅜㅇㅊㅜㅇㅝㄴ -8145
ㅅㅓㄴㅅㅡ -8146
▁ㄱㅗㅂㅐㄱ -8147
▁ㄱㅘㄴㄹㅏㅁ -8148
▁ㅅㅡㅌㅣㅂㅡ -8149
▁ㅈㅓㄴㅇㅏㅂ -8150
▁ㅇㅣㄱㅡㄹㅅㅡ -8151
ㅈㅣㅇㅘ -8152
▁ㅇㅗㅃㅏ -8153
▁ㄴㅏㄱㅅㅓㄴ -8154
ㅁㅔㄴ -8155
ㅂㅏㄱㅈㅟ -8156
▁ㅆㅡㄹㅓㅈㅣ -8157
▁ㅈㅓㅇㄹㅕㄹ -8158
▁ㅈㅜㅇㄹㅑㅇ -8159
▁ㅇㅕㄴㅅㅔㄷㅐ -8160
▁ㅇㅐㄴㅣ -8161
▁ㄱㅗㅇㅁㅗ -8162
▁ㅎㅏㅁㅇㅠ -8163
▁ㄴㅏㅌㅁㅏㄹ -8164
▁ㅊㅜㅇㅂㅜㄱ -8165
ian -8166
▁ㄱㅣㅅㅡㅂ -8167
▁ㅈㅔㄱㅏㄹ -8168
▁ㅅㅣㅂㅈㅏㄱㅏ -8169
▁ㄷㅐㅈㅔ -8170
ㅐㅅㅕㄴㅓㄹ -8171
▁ㅇㅣㄴㅌㅓㄴㅐㅅㅕㄴㅓㄹ -8172
ㄱㅣㅈㅣ -8173
ㅅㅔㅊㅡ -8174
▁ㅌㅔㄹㅔ -8175
▁ㅇㅣㄱㅘㅇ -8176
▁ㅂㅐㄱㅇㅏㄱ -8177
▁ㄹㅐㅁ -8178
▁ㅇㅏㅌㅡㄹㄹㅔ -8179
ment -8180
▁ㅇㅠㄴㅊㅣ -8181
▁ㅍㅜㅇㄱㅕㅇ -8182
ㅏㄷㅣㅁ -8183
▁ㄷㅡㅇㅈㅐ -8184
▁ㅇㅐㄴㄷㅡ -8185
▁ㄱㅐㄱㄱㅘㄴ -8186
▁ㅁㅐㅅㅏㅊㅜ -8187
▁ㅅㅏㅇㅣㅂㅓ -8188
▁ㅂㅡㄹㄹㅏㄷㅣㅁ -8189
▁ㄱㅛㅇㅑㅇ -8190
▁ㅁㅕㄴㅎㅏ -8191
▁ㅂㅓㄴㅇㅕㅇ -8192
▁ㅇㅣㄴㅅㅏㄴ -8193
▁ㅈㅏㅇㅇㅏㄴ -8194
▁CE -8195
▁ㅇㅠㅅㅜ -8196
▁ㅁㅐㅅㅏㅊㅜㅅㅔㅊㅡ -8197
▁ㅇㅣㅁㅏ -8198
ㅏㄹㅣㅇㅗ -8199
▁ㅇㅏㅇㅣㅌㅔㅁ -8200
▁ㅋㅗㄴㅋㅡㄹㅣㅌㅡ -8201
ere -8202
▁We -8203
▁ㅌㅜㄱ -8204
ㅍㅡㄹㅏㅇ -8205
▁ㄴㅗㅂㅜㄴ -8206
▁ㅁㅜㅅㅏㅇ -8207
▁ㅎㅠㅅㅣㄱ -8208
▁ㅍㅡㄹㅏㅇㅅㅜㅇㅏ -8209
▁ㄴㅜㅂ -8210
▁ㅅㅗㅌㅗㅇ -8211
▁ㅊㅗㅇㄷㅐ -8212
▁ㅂㅜㄹㅍㅕㄴ -8213
▁ㅈㅜㅇㅈㅐ -8214
▁ㅁㅏㅎㅏ -8215
▁ㅎㅐㅂㅕㄴ -8216
ㅅㅓㄱㅌㅏㅂ -8217
ㅣㅇㅓㅂ -8218
▁ㅇㅣㅅㅣㄱ -8219
▁ㅈㅜㅇㅅㅜㄴ -8220
▁ㅎㅛㄹㅕㄱ -8221
ㅊㅡㅇㅅㅓㄱㅌㅏㅂ -8222
▁ㅅㅣㄴㅎㅏㄱㅈㅏ -8223
ㄹㅜㅅㅕㄴ -8224
▁ㅅㅓㅅㅏㄴ -8225
▁ㅈㅔㅅㅜ -8226
▁ㄷㅏㅎㅏㅇ -8227
▁ㅅㅓㄴㅈㅗㅇ -8228
▁ㄹㅏㅇㅣㅅㅓㄴㅅㅡ -8229
pe -8230
▁ㄹㅣㅊㅣ -8231
▁ㅂㅏㅋㅟ -8232
ㅊㅣㅇㅝㄴ -8233
▁ㅇㅔㅅㅡㅌㅗㄴ -8234
ire -8235
▁ㅅㅡㅍㅔㅇㅣㄴㅇㅓ -8236
▁ㄱㅛㅇㅝㄴ -8237
▁ㅈㅡㅇㅈㅣㄴ -8238
▁ㅋㅔㄴㅔㄷㅣ -8239
▁ㅎㅜㅈㅣㅇㅘ -8240
▁ㅅㅏㅇㅣㅋㅡㄹ -8241
▁ㅅㅡㅍㅔㅇㅣㅅㅡ -8242
▁ㅈㅓㄴㅅㅓㅇㄱㅣ -8243
▁ㄷㅡㄴㅈㅣ -8244
ㅅㅣㄹㄹㅗㄱ -8245
▁ㄱㅘㄴㅌㅗㅇ -8246
▁ㄷㅗㄹㅇㅕㄴ -8247
▁ㅇㅏㄹㅣㅅㅡ -8248
▁ㄹㅣㅂㅓㅍㅜㄹ -8249
▁ㅁㅗㄹㅇㅏㄴㅐ -8250
ㅂㅓㄹㄹㅔ -8251
▁ㅁㅔㄹㄹㅗ -8252
▁ㅇㅏㄹㅔㄴㅏ -8253
▁ㅍㅕㅇㅌㅐㄱ -8254
▁ㅇㅚㄱㅛㄱㅘㄴ -8255
▁ㄷㅐㅈㅓㄴㄱㅘㅇㅇㅕㄱㅅㅣ -8256
▁HT -8257
▁ㅂㅡㄹㅐ -8258
▁ㄹㅗㄱㅗ -8259
▁ㅇㅢㅅㅏㅇ -8260
▁ㅇㅏㅂㅏ -8261
▁ㄷㅏㄴㅅㅣㄱ -8262
▁ㅅㅐㅇㅈㅓㄴ -8263
▁ㅌㅗㅇㄱㅡㄴ -8264
▁ㅇㅠㄴㅣㅍㅗㅁ -8265
▁ㅍㅔㄹㅡㄴㅏㄴ -8266
▁ㄴㅔㅇㅣㅅㅕㄴㅅㅡ -8267
ㄴㅏㄱ -8268
▁ㄷㅐㅇㅟ -8269
ㅅㅣㄹㅗ -8270
▁ㅅㅡㅋㅐㄴ -8271
ide -8272
▁ㄴㅏㄹㅡ -8273
▁ㅊㅗㄱㅘ -8274
ㅍㅡㄹㄹㅓ -8275
▁ㅁㅏㄴㅅㅔ -8276
ace -8277
▁ㅇㅘㅇㅣㄹ -8278
▁ㅇㅝㄴㄱㅗ -8279
▁ㅈㅏㅇㄹㅗ -8280
▁ㄱㅗㅇㄷㅏㄴ -8281
▁ㅅㅣㄹㅈㅓㄴ -8282
ㄷㅜㄹㅡ -8283
▁ㅇㅏㅁㅅㅓㄱ -8284
▁ㅂㅏㅇㅍㅐ -8285
▁ㅈㅣㅎㅖ -8286
▁ㅍㅏㅇㅓㅂ -8287
▁ㅇㅏㅅ -8288
▁ㅋㅏㅁㅔㄹ -8289
▁ㅊㅜㅇㅅㅣㄹ -8290
▁ㅇㅝㄴㄴㅐ -8291
▁ㅈㅣㅋ -8292
ㅏㅁㅈㅟ -8293
▁ㅅㅗㅎㅘㄴ -8294
▁ㅅㅣㄴㄱㅣ -8295
▁ㄹㅗㅇㅕㄹ -8296
▁ㅇㅜㅇㅕㄴㅎㅣ -8297
▁IBM -8298
▁ㅅㅓㄴㅏㅁ -8299
▁ㅎㅠㅈㅓㄴ -8300
ㅓㄴㅣㅈㅡㅁ -8301
ㅅㅏㄱㅏ -8302
IM -8303
ㅏㅂㅡ -8304
▁ㅁㅣㅌㅗ -8305
▁ㅅㅣㄱㅔ -8306
▁ㅅㅣㅎㅡㅇ -8307
▁ㅍㅕㅇㅂㅓㅁ -8308
▁ㅎㅔㄹㄹㅔㄴ -8309
ㄹㅓㅅㅡ -8310
ㅔㅇㅣㅁㅓ -8311
▁ㅇㅟㅇㅣㅁ -8312
▁ㅇㅣㄹㅎㅘ -8313
▁ㅎㅘㅇㅌㅐㅈㅏ -8314
▁ㅋㅏㅇㅣㄹ -8315
▁TO -8316
▁ㅎㅡㅁ -8317
▁ㅂㅕㅇㅈㅗ -8318
▁ㅂㅡㄹㅏㅇㅜㅈㅓ -8319
▁ㅊㅐㄱㅇㅣㅁㅈㅏ -8320
▁ㅊㅚㅈㅓ -8321
ㄸㅏㄹㅡ -8322
▁ㅂㅏㄹㅌㅡ -8323
▁ㅂㅗㅇㅘㄴ -8324
▁ㄱㅓㄱㅈㅓㅇ -8325
▁ㅂㅜㄹㅁㅕㅇ -8326
cl -8327
ㅈㅣㄹㅣㅇㅏ -8328
▁ㅅㅡㅇㅈㅓㅁ -8329
▁ㄴㅏㅇㅣㅈㅣㄹㅣㅇㅏ -8330
▁148 -8331
▁ㄱㅗㅁㅣㄴ -8332
▁ㅂㅡㄹㅜㄴ -8333
▁ㅇㅕㄱㅅㅓㄹ -8334
ㅎㅏㅅㅣ -8335
▁ㅅㅏㅅㅡㄹ -8336
▁ㅇㅏㅈㅔㄹ -8337
▁ㅎㅏㄴㅅㅓㅇㅂㅜ -8338
▁ㅁㅜㄹㄹㅣㅎㅏㄱㅈㅏ -8339
▁ㅁㅏㅂㅣ -8340
ㅅㅡㄹㅓㅂ -8341
▁ㅍㅛㅁㅕㅇ -8342
▁ㄱㅗㅇㅈㅣㄱ -8343
ㅌㅏㄹㅗ -8344
▁ㅇㅕㄴㅍㅐ -8345
▁ㅍㅓㅅㅔㄴㅌㅡ -8346
▁ㅎㅏㄹㄹㅣㅇㅜㄷㅡ -8347
ㅍㅗㄷㅡ -8348
▁ㄴㅐㅈㅜ -8349
▁ㄴㅣㅅㅍㅗㄴ -8350
▁ㅇㅑㄱㅊㅣㅇ -8351
ㄱㅏㄹㅜ -8352
▁ㅁㅏㅇㅑㄱ -8353
▁ㅁㅏㅇㅣㄴㅓ -8354
▁ㅅㅣㄹㅅㅣㄱㅏㄴ -8355
▁ㄷㅏㅊㅣ -8356
▁ㅇㅔㅇㅜ -8357
ㅈㅜㅇㅢㅈㅏ -8358
▁ㅇㅏㄴㅅㅓㅇ -8359
ㅡㅂㅏㅇㅣㅈㅏㄴ -8360
▁ㅇㅏㅈㅔㄹㅡㅂㅏㅇㅣㅈㅏㄴ -8361
ㅗㅇㅏ -8362
▁ㄲㅡㅀ -8363
▁ㅅㅓㄴㄱㅜ -8364
▁ㅇㅜㅇㅜㄹ -8365
▁ㄲㅡㄶㅇㅣㅁ -8366
ㅇㅓㅇ -8367
▁ㅈㅏㅈ -8368
▁ㄱㅣㄷㅏㄴ -8369
▁ㅇㅏㅅㅏㄴ -8370
▁ㅂㅏㅌㅣ -8371
▁ㅇㅠㅇㅏ -8372
▁ㅇㅣㅇㅗ -8373
▁ㅇㅣㅂㅈㅣ -8374
▁ㅈㅏㅇㄴㅏㄴ -8375
▁ㅂㅗㅅㅡㄴㅣㅇㅏ -8376
▁136 -8377
▁ㅇㅔㅌㅣㅇㅗ -8378
▁ㅎㅕ -8379
▁ㅅㅏㅂㅏ -8380
▁ㅅㅜㄴㅎㅚ -8381
▁ㅇㅓㅂㄱㅖ -8382
▁ㅅㅛㅌㅡ -8383
▁ㅇㅓㄹㅏ -8384
▁ㅅㅏㄴㄹㅣㅁ -8385
▁ㅂㅜㅊㅐ -8386
▁ㅈㅜㄱㅓ -8387
▁ㄱㅏㄴㅎㅗ -8388
▁ㅂㅐㅌㅓㄹㅣ -8389
▁ㄱㅗㅇㅇㅢㅎㅚ -8390
▁ㅅㅏㅎㅚㅎㅏㄱ -8391
▁ㄱㅜㄹㅡㅇ -8392
▁ㅍㅏㅈㅏㅇ -8393
▁ㅈㅓㅇㅁㅏㄹ -8394
▁ㅈㅜㅇㅅㅣㅁㅂㅜ -8395
▁ㄷㅓㅍㅇㅣ -8396
▁ㅇㅠㄱㅈㅣ -8397
▁ㅍㅕㅇㅎㅏ -8398
▁ㅅㅏㅁㅈㅣㄴ -8399
▁ㅇㅣㄴㅇㅕㄴ -8400
▁ㅎㅕㄴㄱㅡㅁ -8401
▁ㅅㅔㄱㅖㄱㅘㄴ -8402
▁ㄹㅏㅇㅣㅂㅡㄹㅓㄹㅣ -8403
▁ㅁㅕㅇㅈㅔ -8404
▁ㅈㅓㄴㄹㅏㄷㅗ -8405
▁ㅅㅣㄴㅏㄹㅣㅇㅗ -8406
▁ㅈㅣㄹㅠ -8407
▁ㄹㅣㅂㅣㅇㅏ -8408
▁ㅈㅏㄱㅅㅔㄴ -8409
▁ㅎㅏㄹㅡ -8410
▁ㅅㅓㅇㅅㅜㄱ -8411
▁ㅋㅣㄱ -8412
▁1916 -8413
▁ㅇㅏㅍㅡ -8414
▁ㅍㅐㅋㅣㅈㅣ -8415
ㅈㅔㄹㅣ -8416
ㅔㄱㅅㅡ -8417
▁ㄷㅗㅇㅅㅏㅇ -8418
▁ㄷㅣㄱ -8419
▁ㅋㅗㄱ -8420
ㅋㅏㄹㅡ -8421
▁ㅇㅔㅌㅣㅇㅗㅍㅣㅇㅏ -8422
ㅅㅗㄹㄹㅣㄴ -8423
▁ㅇㅏㅇㅜㄱㅜ -8424
▁ㅅㅡㅌㅠㅇㅓㅌㅡ -8425
▁ㅇㅢㅇㅑㄱ -8426
▁ㅂㅏㄴㅂㅏㄱ -8427
▁la -8428
ㅁㅜㄱㅣ -8429
▁ㅎㅐㅁㅣㄹ -8430
▁ㄷㅏㅇㅇㅣㄹ -8431
▁ㅅㅣㄴㅅㅐㅇ -8432
▁ㅌㅡㄱㅈㅣㅂ -8433
▁ㅈㅣㅇㅜ -8434
▁ㅊㅜㅊㅜㄹ -8435
▁ㅂㅗㄹㅣ -8436
▁ㄹㅣㅌㅡㄹ -8437
▁ㄱㅕㄹㅅㅓㄴ -8438
▁ㅅㅓㅇㅇㅜㄴ -8439
▁ㅆㅏㅇㄷㅜㅇㅇㅣ -8440
▁138 -8441
▁ㅈㅘㅈㅓㄹ -8442
▁ㄴㅐㄹㅕㅈㅣ -8443
▁ㄱㅏㄹㅗㅈㅣㄹㅡ -8444
▁ㄱㅓㅈㅔ -8445
ㅎㅐㅇㅏㄴ -8446
▁ㄱㅐㄱㅊㅔ -8447
▁ㅇㅟㅌㅏㄱ -8448
▁ㅅㅏㅇㄷㅏㅁ -8449
▁ㄴㅗㅂㅜㄴㅏㄱㅏ -8450
▁ㅂㅔㄷㅡ -8451
▁ㄱㅣㅇㅣㄴ -8452
▁ㅊㅣㄴㅎㅏ -8453
▁ㅅㅣㅊㅗ -8454
▁ㅎㅓㄹㅣㅋㅔㅇㅣㄴ -8455
▁ㅋㅡㄹㅣㅅㅡㅌㅣㅇㅏㄴ -8456
▁ㅂㅐㅅㅣㄴ -8457
▁ㅈㅗㅇㅕㄴ -8458
▁ㄱㅚㄹㅗㅂ -8459
▁ㅊㅣㅇㅕㄹ -8460
ㅁㅅㅐ -8461
▁ㅇㅗㅌㅏ -8462
▁ㅅㅣㅅㅓㄴ -8463
▁ㅅㅗㅇㅠㅈㅏ -8464
▁DC -8465
▁ㄱㅏㄷㅗㅇ -8466
▁ㅍㅡㄹㄹㅜ -8467
▁ㄴㅗㄹㅡㅁ -8468
▁ㅁㅕㅇㅂㅐㄱ -8469
▁ㅅㅣㄴㅅㅗㄱ -8470
▁ㅇㅣㅅㅏㅎㅚ -8471
▁ㅇㅕㅇㄴㅏㅁ -8472
▁ㄱㅜㅈㅗㅁㅜㄹ -8473
▁ㅋㅏㄱ -8474
▁ㄲㅔㅅㅓ -8475
▁ㄱㅗㅅㅓㅇ -8476
▁ㅎㅏㅂㅊㅏㅇ -8477
▁ㅈㅗㅇㅣ -8478
ㅊㅔㄹ -8479
▁ㅂㅗㄱㅅㅓㄴ -8480
ㅂㅔㅇㅣ -8481
▁ㅂㅏㄷㅏㅅ -8482
▁ㄱㅡㄱㄷㅗㅇ -8483
▁ㅂㅜㄴㄷㅏㅇ -8484
▁ㅇㅕㅇㅈㅏㅇ -8485
▁ㅊㅚㅅㅏㅇㅇㅟ -8486
ㅇㅟㄷㅐ -8487
▁ㅎㅔㄹㅏ -8488
▁ㅈㅣㅅㅓㄴ -8489
▁ㅇㅣㅂㄷㅏㅇ -8490
▁ㅋㅗㅁㅜㄴㅔ -8491
ㅊㅜㅁ -8492
▁ㅎㅏㄴㅅㅡ -8493
ㅈㅜㅇㄱㅜㄱ -8494
▁ㅇㅝㄴㅅㅜㅇㅇㅣ -8495
▁ㄱㅜㄱㅁㅜㅊㅗㅇㄹㅣ -8496
ㅂㅅㅡ -8497
▁ㄱㅕㅇㅇㅕㄴ -8498
▁ㅂㅏㄴㄱㅏㅁ -8499
▁ㅎㅕㅂㅈㅜㄱㅗㄱ -8500
▁ㅎㅜㅋㅜㅅㅣㅁㅏ -8501
ㅅㅖㄹ -8502
▁ㅎㅗㄱㅣ -8503
▁ㅂㅗㅇㅅㅙ -8504
▁ㅊㅣㄴㅇㅘㅇ -8505
▁ㅂㅕㅇㅎㅐㅇ -8506
▁ㅇㅢㄹㅚ -8507
▁ㅅㅓㅈㅓㅇ -8508
▁ㅌㅐㅇㅋㅡ -8509
▁En -8510
ㅡㅁㅣ -8511
▁NBA -8512
▁ㄷㅏㅇㅣㅇㅏㅁ -8513
ㄹㅗㄱㅜ -8514
▁ㄱㅕㄴㄷㅣ -8515
▁ㄷㅜㄲㅓㅂ -8516
ㅊㅘㄴ -8517
▁360 -8518
ㅔㄱㅌㅓ -8519
▁ㄷㅔㅇㅣㅂㅣㅅㅡ -8520
▁ㅂㅏㄼ -8521
▁ㅊㅔㄹㅅㅣ -8522
▁ㅇㅗㅍㅣㅅㅡ -8523
▁ㅂㅏㄴㄷㅗㅊㅔ -8524
▁WWE -8525
▁ㅂㅜㅈㅐ -8526
▁ㅈㅡㅇㅡㅁ -8527
ㅐㅇㅣㄴ -8528
▁ㅊㅜㅅㅔ -8529
▁ㅎㅘㅇㅎㅐ -8530
▁ㅇㅕㅇㅇㅢㅈㅓㅇ -8531
▁ㄱㅗㅅㅜ -8532
▁ㄱㅡㄹㅜ -8533
▁ㄱㅐㅇㅝㄴ -8534
▁ㅎㅕㄴㅈㅗㅇ -8535
ㄹㅗㄹㄹㅏㅇㅣㄴ -8536
▁ㅂㅜㅁ -8537
▁ㅈㅓㄴㄴㅕㅁ -8538
▁ㅇㅓㅎㅟ -8539
▁ㅈㅜㅇㅇㅟ -8540
▁ㅂㅜㅈㅓㄱ -8541
▁ㅌㅔㅇㅣㅂㅡㄹ -8542
▁ㅈㅜㅇㅅㅓㅇㅈㅏ -8543
▁104 -8544
▁ㅈㅏㅇㄹㅕ -8545
▁ㅈㅣㄴㅡㅇ -8546
▁ㅊㅜㄴㅊㅓㄴ -8547
▁ㅈㅐㅇㅟ -8548
▁ㅍㅗㄱㅕㄱ -8549
▁ㅇㅔㄷㅏ -8550
▁ㅇㅕㅈㅣ -8551
▁ㄱㅣㅁㅍㅗ -8552
▁ㅅㅔㅅㅕㄴ -8553
▁ㅅㅡㅌㅗㄱ -8554
▁ㅂㅐㄱㅅㅐㄱ -8555
▁ㄹㅜㅅㅣ -8556
▁ㅌㅗㅅㅓㅇ -8557
▁ㅇㅏㅀ -8558
ㄷㅔㅅㅣ -8559
▁ㅎㅐㅅㅗ -8560
ㅣㅇㅏㅈㅜ -8561
▁ㄱㅏㅁㅕㄴ -8562
▁ㄷㅗㅇㅇㅣ -8563
▁ㅁㅗㄴㅣㅌㅓ -8564
▁ㄱㅕㄹㅎㅗㄴㅅㅣㄱ -8565
▁ㄹㅣㅅ -8566
▁ㅇㅙㄴ -8567
▁ㅅㅓㅁㄱㅣ -8568
▁ㅅㅣㅁㅗㄴ -8569
▁ㅁㅗㄱㅍㅏㄴ -8570
ark -8571
▁ㅋㅓㄹㅣ -8572
▁ㅇㅔㅅㅡㅌㅗㄴㅣㅇㅏ -8573
▁ㄱㅏㅁㄹㅣ -8574
▁ㄷㅗㄹㅜ -8575
▁ㅇㅐㅌㅡㄹㄹㅐㄴ -8576
▁ㅅㅏㅌㅗ -8577
▁ㅇㅓㄷㅏ -8578
▁ㅊㅣㅈㅡ -8579
ㄷㅐㅅㅣㄴ -8580
▁ㅅㅏㅎㅓㄴ -8581
▁ㅅㅗㅇㅅㅣ -8582
▁ㅇㅣㄱㅎㅣ -8583
▁ㅂㅐㄱㅎㅘㅈㅓㅁ -8584
▁109 -8585
ㄲㅡㅁ -8586
▁ㅅㅓㅈㅐ -8587
▁ㅅㅡㅋㅔ -8588
▁ㅇㅝㄷㅡ -8589
▁ㅁㅣㄴㅎㅚ -8590
▁ㅇㅠㄷㅗㅇ -8591
▁ㅎㅏㄹㅏㄱ -8592
▁ㄹㅣㅇㅜㅅㅡ -8593
▁ㄷㅗㅈㅜ -8594
ㅋㅗㅇㅗㄹ -8595
▁ㅇㅑㅇㄷㅗ -8596
ㅌㅗㄱ -8597
▁123 -8598
▁ㅌㅏㄹㄷㅏㅇ -8599
▁ㅎㅡㄹㄹㅣ -8600
▁ㅇㅏㄹㅇㅏㄴㅐ -8601
▁ㅁㅕㅇㄹㅕㅇㅇㅓ -8602
▁ㄱㅗㅅㅏ -8603
▁ㅍㅣㅇㅏ -8604
▁ㄱㅓㅎㅐㅇ -8605
▁ㅈㅓㅇㅁㅜ -8606
ㅇㅡㄴㅅㅐㄱ -8607
▁ㅂㅜㄴㄱㅣㅈㅓㅁ -8608
ㅂㅏㅇㅑ -8609
▁ㄹㅗㅇㅣ -8610
▁ㄷㅏㅂㅏㄹ -8611
▁ㅈㅣㄴㅉㅏ -8612
▁ㄷㅐㅍㅛㅈㅏㄱ -8613
▁ㅋㅓㅅ -8614
▁ㅂㅣㅅㅣ -8615
ㄷㅓㅅㅡㄴ -8616
▁ㄹㅔㄴㅗㄴ -8617
▁ㅋㅗㅍㅡ -8618
▁ㅈㅜㄹㅡㅁ -8619
▁ㅈㅗㅇㄹㅗㄱㅜ -8620
ㅎㅚㅈㅏㅇ -8621
▁Pr -8622
ㄱㅣㅅㅡ -8623
ㅇㅓㄹㅣ -8624
▁ㅈㅓㅎㅏ -8625
▁ㄱㅗㅇㅣㄴ -8626
▁ㄱㅗㅈㅏㅇ -8627
▁ㅈㅜㅎㅐㅇ -8628
▁ㅇㅣㅁㅇㅛㅇ -8629
▁ㅌㅐㄱㅅㅣ -8630
▁ㅌㅔㅋㅡㄴ -8631
▁CS -8632
▁col -8633
ㅁㅓㄹㅣ -8634
ㅜㄱㅘㅇㅣ -8635
▁ㅊㅓㅁㄱㅏ -8636
▁ㅇㅜㄹㅜㄱㅘㅇㅣ -8637
▁ㅍㅔㄴㅅㅣㄹ -8638
▁ㅍㅔㄴㅅㅣㄹㅂㅔㅇㅣㄴ -8639
▁ㅅㅖㄹ -8640
ㅈㅜㄹㅣ -8641
ㅈㅣㄹㅡㅁ -8642
▁ㄴㅐㅇㄱㅏㄱ -8643
▁ㅎㅐㅇㅈㅓㄱ -8644
▁ㄱㅕㄱㅌㅚ -8645
▁ㅊㅏㅈㅏㅇ -8646
▁ㅇㅏㅁㅏㄷㅗ -8647
Pa -8648
▁AR -8649
▁ㄹㅡㄴ -8650
▁ㄱㅗㄱㅏ -8651
▁ㄷㅚㄱㅔ -8652
▁ㄱㅓㄹㅗㄴ -8653
▁ㅅㅜㅅㅡㅂ -8654
ㅣㅇㅏㅇㅣㄴ -8655
▁ㅎㅕㄹㅌㅗㅇ -8656
▁ㅋㅓㅁㅍㅏㅇㅣㄹ -8657
ㅗㄹㄹㅏ -8658
▁ㄴㅓㅂㅣ -8659
▁ㅎㅏㄴㅉㅗㄱ -8660
▁143 -8661
▁ㅁㅕㄴㅎㅓ -8662
▁ㅅㅣㅇㅓ -8663
▁ㅅㅏㅎㅓㄴㅂㅜ -8664
▁ㄴㅏㅇㅁㅏㄴ -8665
▁ㅇㅓㅇㅜㄹㄹㅣ -8666
▁ㄱㅣㅁㄱㅣ -8667
▁ㅇㅡㄹㅈㅣ -8668
▁ㅅㅐㅇㅅㅣㄱ -8669
▁ㅅㅣㄹㅈㅏㅇ -8670
▁ㅈㅏㅇㅎㅏㄱ -8671
▁ㅈㅗㄹㅣ -8672
ㅎㅔㅁ -8673
ㄷㅗㄹㅣ -8674
▁ㄷㅏㅂㅣ -8675
▁ㅂㅏㄴㅈㅣ -8676
▁ㅊㅏㅇㄱㅗ -8677
▁ㅇㅒㄱㅣ -8678
▁ㄱㅕㅇㄱㅘㄴ -8679
▁ㄷㅗㅈㅏㅇ -8680
▁ㅅㅣㄴㄱㅠ -8681
▁ㅅㅏㄴㄹㅏㄴ -8682
▁NC -8683
▁ㅈㅔㄷㅗㄱ -8684
▁ㅈㅓㄱㅂㅜㄴ -8685
▁ㅂㅏㅇㅅㅗㅇㅅㅏ -8686
▁AK -8687
▁ㄱㅜㄷㅗ -8688
▁ㅎㅚㅅㅅㅜ -8689
▁ㅂㅏㅎㅡ -8690
ㅌㅡㄹㅗㄴ -8691
▁ㄱㅣㅈㅓㄱ -8692
ile -8693
ㅅㅡㅋㅏㄹㅡ -8694
▁CC -8695
▁ㅊㅜㄹㅊㅓ -8696
▁ㅊㅣㅁㅕㅇ -8697
▁ㅅㅣㄴㅎㅏㄴ -8698
▁ㅊㅓㅇㅊㅜㄴ -8699
▁ㅌㅏㅇㅣㄱㅓㅈㅡ -8700
▁ㅋㅏㅈㅏㅎㅡㅅㅡㅌㅏㄴ -8701
▁ㄱㅘㅇㅁㅜㄹ -8702
▁ㄱㅡㅂㄱㅕㄱㅎㅣ -8703
ㅏㄷㅓㅅㅡ -8704
AL -8705
▁ㅅㅓㅁㅓ -8706
▁ㄲㅐㄷㅏㄹ -8707
▁ㅎㅏㅇㅝㄷㅡ -8708
▁ㄱㅜㅇㅣ -8709
▁ㅅㅏㄷㅏ -8710
▁ㅅㅜㄴㄱㅛ -8711
▁ㅈㅏㄴㄹㅠ -8712
▁ㅌㅗㅇㅈㅡㅇ -8713
ㅂㅓㅂㅇㅣㄴ -8714
▁ㅅㅣㄴㅌㅏㄱ -8715
▁ㅂㅏㄱㄹㅏㅁㅎㅚ -8716
▁ㅇㅏㅎㅗㅂ -8717
▁ㅎㅐㅈㅓㄱ -8718
▁ㅂㅓㅂㅁㅜ -8719
▁ㅇㅕㄴㅎㅏㅂㅎㅚ -8720
▁ㄱㅛㅎㅘㅇㅊㅓㅇ -8721
▁ㅁㅏㄷ -8722
▁ㅂㅜㄷㅣ -8723
ㅅㅡㅇㅈㅣ -8724
ㅎㅏㅁㅕㄴ -8725
▁ㅅㅏㅇㅈㅓㅁ -8726
▁ㄴㅏㅁㄷㅗㅇㅂㅜ -8727
xt -8728
▁ㅅㅏㅇㄷㅏㄴ -8729
ㅍㅣㅂ -8730
▁ㄹㅜㅍㅡ -8731
▁ㅇㅠㄹㅗㅍㅏ -8732
▁ㅇㅕㄹㄷㅐ -8733
ㅅㅡㅌㅡㄹㅣ -8734
▁CON -8735
▁ㅂㅏㄱㅎㅐ -8736
▁ㅈㅓㅇㅈㅓㅁ -8737
▁ㄷㅐㅎㅏㄱㅅㅐㅇ -8738
▁ㅅㅣㅊㅣㄹㄹㅣㅇㅏ -8739
▁ㅇㅠㅎㅏㄴ -8740
ㅇㅑㅇㅎㅏㅁ -8741
▁ㅇㅗㄹㅂㅏㄹㅡ -8742
▁ㅊㅗㅅ -8743
▁ㅅㅏㅅㅏ -8744
▁ㄱㅡㄱㅎㅣ -8745
▁ㅇㅏㄹㄹㅜ -8746
▁ㅌㅗㅇㅇㅕㅇ -8747
▁ㅅㅏㅁㅊㅡㅇㅅㅓㄱㅌㅏㅂ -8748
▁ㅅㅜㄹㅕㄴ -8749
▁ㅇㅕㄴㅎㅏ -8750
▁ㅈㅔㅇㅣㄴ -8751
▁ㅌㅏㅁㄱㅜ -8752
▁ㅍㅓㅇㅋㅡ -8753
▁ㅎㅗㄹㅏㅇㅇㅣ -8754
▁is -8755
ㅓㅁㅣ -8756
ㅡㄹㄹㅣㅇ -8757
▁ㄱㅏㄱㅜㄴ -8758
▁ㄱㅜㄱㅅㅗ -8759
▁ㄱㅡㄹㅐㅁ -8760
▁ㄹㅗㄹㄹㅣㅇ -8761
▁ㅇㅕㅍㅁㅕㄴ -8762
▁LP -8763
▁Op -8764
ㅎㅔㅇㅣ -8765
▁ㅌㅣㅅㅡ -8766
▁ㅁㅐㅇㅣㅂ -8767
▁ㅈㅗㄹㅣㅂ -8768
▁ㄷㅔㅁㅗ -8769
ㅂㅡㄹㄹㅗ -8770
▁ㅇㅣㅈㅜㄴ -8771
▁ㅈㅜㅇㅕㄱ -8772
ㅇㅓㅂㅓㄹㅣ -8773
▁ㅈㅓㄱㄷㅏㅇ -8774
▁ㅇㅑㄱㅜㅈㅏㅇ -8775
▁ㅌㅐㅇㅑㅇㄱㅖ -8776
▁ㄴㅜㅇㅣ -8777
▁ㅂㅜㄹㅡㅋㅡ -8778
▁ㅇㅏㅇㅣㅅㅡㄹㄹㅏㄴㄷㅡ -8779
ㅕㄹㅐ -8780
▁ㅎㅏㅇㅅㅗ -8781
▁ㅅㅠㅍ -8782
▁ㅇㅡㅁㄹㅛ -8783
▁ㅋㅣㅍㅡㄹㅗㅅㅡ -8784
▁ㅇㅏㄴㄱㅣ -8785
▁ㅇㅏㄹㄹㅏ -8786
ㅅㅣㅍㅣ -8787
▁ㄱㅜㅎㅗ -8788
▁ㄹㅐㅍㅓ -8789
▁ㅎㅠㅅㅡㅌㅓㄴ -8790
ㅅㅠㅁ -8791
▁ㅈㅐㅎㅕㄴ -8792
ㅇㅏㄴㄱㅜㄴ -8793
▁ㅅㅓㅇㄷㅏㄴ -8794
▁ㅎㅘㄴㅇㅕㅇ -8795
ㅇㅑㅁㅏ -8796
ㅅㅏㄹㅇㅣ -8797
▁ㄱㅡㄴㅏㄹ -8798
▁ㅅㅓㅇㅊㅔ -8799
▁ㅇㅓㅇㅝㄴ -8800
▁ㅇㅕㅁㄱㅣ -8801
▁ㅂㅕㄹㄷㅏㄹㅡ -8802
▁ㅇㅏㄹㅏㅂㅇㅓ -8803
▁ㅊㅣㄴㅇㅣㄹㅍㅏ -8804
▁ㅅㅓㄹㅌㅏㅇ -8805
▁ㅅㅡㅌㅡㄹㅣㅁ -8806
▁ㅂㅗㄹㄹㅣㅂ -8807
▁ㅍㅗㄱㄷㅗㅇ -8808
▁ㄷㅐㅇㅜㅇㅈㅓㄴ -8809
▁ㄹㅏㅌㅡㅂㅣㅇㅏ -8810
▁ㄷㅗㄹㅂㅗ -8811
▁ㅇㅣㄴㅍㅡㄹㄹ -8812
▁ㅅㅡㅌㅡㄹㅔㅅㅡ -8813
▁ㅅㅡㄹㄹㅗㅂㅏㅋㅣㅇㅏ -8814
ft -8815
▁ㄸㅓ -8816
ㅍㅜㅅㅡ -8817
▁ㅎㅜㅂㅏㅇ -8818
▁ㅃㅏㄹㄱㅏㄴ -8819
▁ㄹㅏㅇㅗㅅㅡ -8820
▁ㅈㅗㄴㅅㅗㄱ -8821
▁ㅊㅜㅇㅈㅓㄴ -8822
ies -8823
▁ㄷㅗㄷ -8824
▁ㅈㅔㅎㅏ -8825
ㅇㅡㄴㅇㅣ -8826
▁ㄱㅡㄴㄱㅛ -8827
▁ㅅㅏㅇㅇㅛㅇ -8828
▁ㅎㅐㅅ -8829
▁ㅂㅜㅅㅓㄹ -8830
▁ㄱㅕㅇㅊㅏㄹㅊㅓㅇ -8831
▁ㅇㅜㅇㅟ -8832
▁ㄱㅓㅂㅜㄱ -8833
▁ㄹㅔㅇㅣㄹ -8834
▁ㅌㅏㅁㅅㅏㅅㅓㄴ -8835
ite -8836
▁ㅅㅓㅇㅊㅟ -8837
▁ㄱㅗㅇㄱㅘㄴ -8838
▁ㄱㅕㅇㅅㅏㅇㄷㅗ -8839
▁ㅋㅏㅇㅣㅅㅏㄹㅡ -8840
▁ㅂㅡㄹㄹㅏㄷㅣㅁㅣㄹㅡ -8841
▁ㄴㅜㄱ -8842
▁ㅂㅣㄹㅣ -8843
▁ㅁㅗㄱㅈㅐ -8844
▁ㅊㅏㅇㅣㅈㅓㅁ -8845
▁ㅁㅐㄱㅈㅜ -8846
▁ㅇㅜㅅㅡㅇㅈㅏ -8847
▁ㅂㅡㄹㅏㄷㅓㅅㅡ -8848
▁ㅇㅏㄹㅋㅗㅇㅗㄹ -8849
▁ㅈㅜㅇㅇㅢㅇㅝㄴ -8850
ㅔㅁㅏ -8851
▁ㅊㅏㅈㅗㅇ -8852
▁112 -8853
▁ㄱㅗㅇㅅㅜ -8854
▁ㄹㅗㅁㅏㄴ -8855
▁ㅎㅏㄴㅇㅣㄴ -8856
ㅇㅏㅇㅣㄹㅂㅗ -8857
▁ㄷㅗㅇㅇㅏㅇㅣㄹㅂㅗ -8858
ㅊㅏㄱㅣ -8859
ㅈㅣㅂㅜㅇ -8860
▁ㅇㅡㅇㅇㅝㄴ -8861
▁ㅊㅜㄱㅈㅓㄱ -8862
▁ㅅㅏㅇㅠㄱ -8863
ㅈㅣㅁㅏ -8864
▁ㅈㅜㄱㅏ -8865
▁ㅅㅏㅇㅂㅏㄴ -8866
▁ㅅㅏㅇㅓㅂㅈㅏ -8867
▁107 -8868
▁ㅂㅣㅆㅏ -8869
▁ㅅㅠㅌㅡ -8870
▁ㅇㅓㄱㅇㅏㅂ -8871
▁ㅈㅜㄹㅁㅜㄴㅢ -8872
▁ㄷㅏㅇㅈㅜ -8873
▁ㅁㅜㅅㅓㅇ -8874
ㄴㅔㅅ -8875
▁ㅂㅡㄹㄹㅏ -8876
▁ㅎㅏㅂㅎㅏ -8877
▁ㄷㅏㅇㅣㅇㅏㅁㅗㄴㄷㅡ -8878
▁SE -8879
ㄴㅗㄹ -8880
▁ㅂㅔㅅㅡ -8881
▁ㅅㅡㄹㄹㅗㅂ -8882
▁ㅅㅣㄴㅁㅣㄴ -8883
▁ㄹㅣㅇㅓ -8884
▁ㅌㅓㅊㅣ -8885
▁ㅂㅓㄹㄱㅡㅁ -8886
▁ㅂㅡㄹㄹㅗㄱㅡ -8887
▁ㄴㅏㅅㅡ -8888
▁ㅇㅚㅊㅣ -8889
▁ㄱㅘㅇㅎㅏㄱ -8890
▁ㅈㅏㅇㄱㅓㄹㅣ -8891
▁ㅇㅣㅅㅜㄴㅅㅣㄴ -8892
▁126 -8893
▁ㄴㅏㅁㅣ -8894
ㅓㄸㅡㄹㅣ -8895
▁ㅅㅜㅂㅓㅂ -8896
▁ㅅㅣㄱㅗㄹ -8897
▁ㄱㅗㅇㅇㅣㄱ -8898
▁ㄱㅗㅇㅅㅏㄴㅈㅜㅇㅢㅈㅏ -8899
▁ㅍㅓㅂ -8900
▁ㅅㅐㅁㅍㅡㄹ -8901
▁Te -8902
ㄲㅗㅂ -8903
▁ㅁㅣㅋㅏ -8904
▁ㅇㅜㅅㅔ -8905
▁ㄷㅗㅁㅏㅂㅐㅁㅂㅜㅌㅇㅣ -8906
▁ㅅㅓㅇㅅㅏ -8907
▁ㅎㅕㄴㅈㅓ -8908
▁ㅇㅕㄹㅈㅓㅇ -8909
▁ㄷㅗㅇㅇㅏ -8910
▁ㄷㅏㄴㄷㅏㄴ -8911
▁ㅅㅐㅇㅅㅏㄴㄹㅑㅇ -8912
▁ㅂㅜㄷㅏㅇ -8913
▁ㅅㅏㅇㅅㅓ -8914
▁ㅊㅚㅇㅏㄱ -8915
▁ㄱㅜㅊㅜㄱㅎㅏㅁ -8916
▁ㅅㅗㅇㅅㅣㅇㅕㄹ -8917
▁ㅍㅜㅁㅈㅗㅇ -8918
▁ㅍㅡㄹㄹㅓㅅㅡ -8919
ㅂㅅㅣㄹ -8920
ㅡㄴㅓ -8921
▁ㅇㅔㅋ -8922
▁ㅍㅣㅂ -8923
▁ㅇㅜㅇㅠ -8924
▁ㄱㅣㅁㄱㅕㅇ -8925
▁ㄱㅏㅉㅏ -8926
▁ㅇㅜㄴㅎㅏ -8927
ㄱㅏㄹㅅㅐㄱ -8928
▁ㅁㅚ -8929
▁117 -8930
▁ㅇㅣㅅㅏㄴㅎㅘ -8931
▁ㅅㅣㄴㅈㅜ -8932
▁ㅇㅛㄷㅗㅇ -8933
ㅇㅜㅁ -8934
▁ㅇㅘㅅ -8935
▁ㅁㅣㄴㅔ -8936
▁ㄱㅕㄴㅈㅔ -8937
▁ㅁㅏㅅㅏㅇ -8938
▁ㅅㅣㅂㅔㄹㅣㅇㅏ -8939
▁ㄸㅏㅅ -8940
▁ㅇㅏㅂㅜ -8941
▁ㄱㅣㅃ -8942
▁ㅈㅜㅇㅣ -8943
▁ㅇㅠㄱㅊㅔ -8944
▁ㅂㅔㅇㅓㅅㅡ -8945
▁ㅎㅘㅇㅅㅣㄹ -8946
▁ㄱㅡㄹㅗ -8947
▁ㅇㅣㅋㅔ -8948
▁ㄱㅛㅈㅓㅇ -8949
▁ㅇㅕㄴㅅㅙ -8950
▁ㅇㅣㄹㅈㅗ -8951
▁ㄱㅗㅅㅗㄱㄷㅗ -8952
▁ㅊㅏㅇㅇㅝㄴㅅㅣ -8953
▁ㅁㅗㄴㅗ -8954
▁ㅇㅗㅂㅣ -8955
▁ㅂㅗㅅㅓㄱ -8956
▁ㅈㅗㅅㅓㄴㅇㅣㄹㅂㅗ -8957
▁ㅂㅗㅎㅗㄱ -8958
▁ㅈㅏㅁㅣㄴ -8959
▁ㅅㅗㄴㅏㅌㅏ -8960
▁ㅃㅏㄹㄱㅏㄴㅅㅐㄱ -8961
▁ㅂㅏㅇㅣㅇㅗ -8962
▁com -8963
ㄹㅣㅅㅡㅌㅡ -8964
▁ㅋㅔㅇㅣㅅㅡ -8965
ㅈㅗㅂㅜ -8966
ㅠㄱㅣㄴㅣ -8967
▁ㅈㅗㅈㅗㅇㅅㅏ -8968
ㄸㅏㄹ -8969
ㅍㅏㄹㅡ -8970
▁ㅇㅕㄷㅏㅇ -8971
▁ㅍㅗㄹㅓㅁ -8972
▁137 -8973
ㄷㅏㅈㅣ -8974
▁ㄱㅐㄱㅛ -8975
▁ㄱㅖㅅㅣ -8976
▁ㅇㅗㅎㅐ -8977
▁ㅊㅏㄱㅏ -8978
▁ㄱㅓㅊㅣㄹ -8979
▁ㅇㅘㅇㅂㅗㄱ -8980
▁ㄱㅏㅈㅜㄱ -8981
▁ㅇㅏㅁㅅㅣ -8982
▁ㅈㅓㅇㅅㅏ -8983
▁ㅍㅕㅇㅇㅢㅎㅚ -8984
▁ㅍㅡㄹㅗㄱㅔㅇㅣㅁㅓ -8985
OL -8986
ath -8987
ㅌㅓㅁ -8988
▁113 -8989
ㅣㅇㅓㅁ -8990
▁ㅇㅣㄱㅕㅇ -8991
▁ㅅㅣㄴㅅㅓㄴ -8992
ㅁㅏㄷㅡ -8993
▁ㄴㅜㄴㅏ -8994
▁ㅈㅣㄹㅡ -8995
▁ㄱㅛㄱㅘㅅㅓ -8996
▁ㄷㅐㅇㅢㅇㅝㄴ -8997
ond -8998
▁ㄷㅗㅇㅁㅜㄴ -8999
▁ㅎㅣㅁㅇㅣㅂ -9000
▁ㄱㅡㄷㅗㅇㅇㅏㄴ -9001
ㄹㅓㅅ -9002
▁ㅇㅑㅇㅋㅣㅅㅡ -9003
▁ㅅㅏㅁㅅㅓㅇㅈㅓㄴㅈㅏ -9004
▁ㄱㅗㅅㅗ -9005
▁ㅇㅏㅋㅡ -9006
▁ㅌㅐㄱㅝㄴ -9007
▁ㄱㅏㅁㅅㅏㅇ -9008
ound -9009
▁RNA -9010
▁ㅎㅜㄱㅜㅇ -9011
▁ㅁㅏㄴㄴㅏㅁ -9012
ov -9013
▁ㄴㅗㅅ -9014
▁ㅇㅙㄴㅑ -9015
ㅔㅇㅑㅅㅡ -9016
▁ㅇㅏㄹㅇㅏ -9017
▁ㅇㅣㅇㅔㅇㅑㅅㅡ -9018
ㄸㅜㄱ -9019
▁ㅇㅓㄴㄴㅣ -9020
▁ㅇㅣㄹㄹㅣㄴ -9021
▁ㅋㅏㄹㅡㄹㄹㅗㅅㅡ -9022
ory -9023
▁1894 -9024
▁ㅈㅜㅈㅜ -9025
▁ㅊㅓㄴㅈㅏㅇ -9026
ㅅㅟㅂ -9027
▁121 -9028
▁173 -9029
▁ㅂㅔㅇ -9030
▁ㅂㅣㅇㅠ -9031
▁ㅅㅣㄴㄴㅕㅁ -9032
ㄹㅜㅅㅡ -9033
▁ㅍㅣㄹㅌㅓ -9034
▁ㅌㅡㅇㅟㄴㅅㅡ -9035
▁ㅎㅘㅈㅏㅇㅅㅣㄹ -9036
▁ㅇㅏㅋㅏㄷㅔㅁㅣㅅㅏㅇ -9037
▁ㅂㅣㄹㅡ -9038
▁ㄱㅠㅂㅓㅁ -9039
▁ㅇㅣㄴㅊㅔ -9040
▁ㅋㅡㄹㄹㅣㅂ -9041
▁ㅌㅏㅁㅅㅐㄱ -9042
▁ㅌㅡㅇㅟㅌㅓ -9043
▁be -9044
ㅂㅣㄴㅏ -9045
▁ㅇㅠㅈㅚ -9046
▁ㅅㅣㄴㅇㅑㄱ -9047
▁ㅋㅡㄹㄹㅏㅇㅜㄷㅡ -9048
▁CF -9049
▁ㅁㅣㄹㅡ -9050
▁350 -9051
▁z -9052
▁ㄷㅏㅌㅜ -9053
▁ㅂㅜㅈㅔ -9054
▁ㅂㅏㅇㅎㅘ -9055
▁ㅅㅗㅅㅕㄹ -9056
▁ㅎㅐㄱㅁㅜㄱㅣ -9057
ㄹㅣㅇㅏㄴ -9058
▁ㄱㅗㅇㅅㅡㅂ -9059
▁ㅁㅣㄱ -9060
ㄹㅣㅌㅡ -9061
ㅌㅗㅁㅗ -9062
▁ㅊㅣㅇㅏㄴ -9063
▁ㅇㅣㅇㅠㄴ -9064
▁ㅊㅜㄱㅎㅏ -9065
ㄱㅡㄹㅔㅇㅣㄷㅡ -9066
▁ㅈㅣㄴㄱㅡㅂ -9067
ㄴㅡ -9068
▁ㄹㅜㅌㅓ -9069
▁ㄹㅣㅇㅓㄹ -9070
▁ㄱㅡㄴㅇㅝㄴ -9071
▁ㄷㅟㅅㅁㅕㄴ -9072
▁ㅍㅗㄱㅎㅐㅇ -9073
▁ㅈㅏㅇㅕㄴㅅㅜ -9074
iver -9075
ㅂㅏㄷㅏ -9076
▁ㄴㅔㅅㅡ -9077
▁ㅈㅔㄹㅗ -9078
ㅅㅏㄴㄷㅗㅇ -9079
▁ㅂㅜㅇㅢ -9080
▁ㅈㅓㄴㅂㅗㄱ -9081
▁ㅇㅓㅂㄱㅡㄹㅔㅇㅣㄷㅡ -9082
▁ㅇㅕㅅ -9083
ㄱㅡㄹㄹ -9084
▁ㅎㅢㅅㅐㅇㅈㅏ -9085
▁ㄴㅗㅂㅏ -9086
▁ㅁㅣㅅㅕㄴ -9087
▁ㄴㅐㅂㅗㄴㅐ -9088
▁ㅂㅓㅁㅇㅣㄴ -9089
▁ㅊㅓㄴㅕ -9090
▁ㅁㅜㅇㅏㄴ -9091
▁ㅇㅣㅂㅇㅝㄴ -9092
ㄷㅐㄱㅣ -9093
▁ㅇㅕㅍㅏ -9094
▁ㅈㅔㄴㅣ -9095
▁ㄱㅡㄹㅐㄴ -9096
▁ㅌㅔㅇㅣㅍㅡ -9097
▁ㅁㅜㄹㄹㅕㅂㅏㄷ -9098
ㄹㅔㄹ -9099
▁ㄱㅏㅊㅜㄱ -9100
▁ㄴㅗㅇㄹㅣㅁ -9101
▁ㅁㅗㄴㅅㅡㅌㅓ -9102
▁ㅂㅓㅂㅁㅜㅂㅜ -9103
▁ㅊㅗㅇㄷㅗㄱㅂㅜ -9104
▁ㅎㅏㄷㅗㅇ -9105
▁ㅁㅐㄱㄹㅏㄱ -9106
▁ㄱㅏㅁㅏㅋㅜㄹㅏ -9107
▁ㅇㅣㄹㅂㅏㄴㅇㅣㄴ -9108
ㅔㅈㅡ -9109
▁ㄴㅗㄹㄹㅏㅂ -9110
▁ㅅㅓㅇㅂㅕㄹ -9111
▁ㅌㅐㄹㄹㅓㄴ -9112
ㅂㅓㄱㅡ -9113
▁ㅍㅔㄹㄹㅣ -9114
▁ㅇㅣㄴㅁㅜㄴ -9115
▁ㄹㅠㄱ -9116
▁ㄱㅓㅇㅜㄹ -9117
▁ㄱㅗㄱㅇㅣㄴ -9118
ㄴㅓㄼ -9119
▁ㄱㅣㅇㅓ -9120
▁ㅈㅣㅁㅣ -9121
▁ㄸㅏㅅㅈㅟ -9122
▁ㅁㅜㄴㅇㅖ -9123
▁ㄱㅘㄴㅇㅡㅁ -9124
man -9125
▁ㄷㅣㅁ -9126
▁ㄴㅏㄹㅆㅣ -9127
▁ㄹㅣㄹㄹㅣ -9128
▁ㄹㅏㅇㅣㄴㅓ -9129
▁ㅅㅣㄴㅈㅗㅇ -9130
▁ㅍㅣㄹㄹㅣㅍㅡ -9131
▁ㄱㅏㅈㅏㅇㅈㅏㄹㅣ -9132
▁ㅈㅔㄷㅐ -9133
▁ㅌㅐㄹㄹㅓㄴㅌㅡ -9134
ㅋㅣㄱ -9135
ㄱㅗㄹㅐ -9136
▁ㅈㅔㅍㅡ -9137
▁ㅍㅏㅇㅣㅇㅓ -9138
▁ㅎㅐㄴㄷㅡ -9139
▁ㄱㅗㅇㅁㅣㄴ -9140
▁ㅎㅘㄱㅅㅣㄴ -9141
▁ㅇㅗㅅㅔ -9142
ㄷㅏㄴㅊㅔ -9143
▁ㄱㅜㅊㅜㄹ -9144
▁ㅈㅡㅇㄷㅐ -9145
▁ㅎㅐㅁㅕㅇ -9146
ㄹㅜㅇ -9147
ㅃㅜㄹ -9148
ㅡㄱㅗㄴ -9149
▁ㅇㅙㄱㅗㄱ -9150
ㅍㅜㄹㅡㅌㅡ -9151
▁ㄴㅏㅁㅅㅓㅂㅜ -9152
ㅏㅁㅜㄹㅏ -9153
▁ㅅㅡㅇㄱㅖ -9154
▁ㅂㅣㄴㄱㅗㄴ -9155
▁ㅅㅗㅇㅝㄴ -9156
▁ㄱㅔㅇㅣㅈㅣ -9157
▁ㄷㅗㅇㅈㅓㅁ -9158
ㅍㅓㄹㅓㄴㅅㅡ -9159
▁ㅍㅔㄹㅡㄷㅣㄴ -9160
▁ㅎㅏㄹㅁㅓㄴㅣ -9161
▁ㅋㅡㄹㅣㅅㅡㅌㅗㅍㅓ -9162
▁". -9163
▁ㄹㅔㄱ -9164
▁ㅆㅏㅇㅣ -9165
▁ㅎㅓㅇㅟ -9166
▁ㅅㅣㄹㅊㅔ -9167
▁ㅍㅜㄹㄹㅣ -9168
▁ㅎㅗㄹㅡㅁ -9169
▁ㅌㅗㅇㅌㅡㄹ -9170
▁ㅎㅚㅇㄷㅏㄴ -9171
ㅓㄴㄷㅡ -9172
▁ㄷㅐㅍㅗㄱ -9173
▁ㅈㅣㅍㅕㅇ -9174
▁ㄱㅔㅅㅡㅌㅡ -9175
▁ㄱㅔㅇㅗㄹㅡ -9176
▁ㅇㅏㄹㅈㅔㄹㅣ -9177
▁ㅇㅠㄴㅊㅣㅎㅗ -9178
ㄲㅣㄹㅣ -9179
▁ㅅㅓㅇㄷㅗ -9180
▁ㅂㅏㅇㅗㄹㅗ -9181
ㄷㅐㅇㅝㄴㄱㅜㄴ -9182
▁ㄱㅕㅇㅂㅗ -9183
▁ㅂㅗㅈㅡㅇ -9184
▁ㅅㅏㅁㅜㄱ -9185
▁ㅇㅕㅇㅅㅏㄴ -9186
▁ㄱㅖㅈㅓㅇ -9187
▁ㅇㅏㅇㅖ -9188
▁ㅌㅜㅇㅗㄱ -9189
▁On -9190
ㄹㅣㄱㅡ -9191
▁ㅅㅣㅁㅠㄹ -9192
▁ㅈㅣㄴㄱㅗㅇ -9193
▁ㄱㅣㅇㅓㅂㅇㅣㄴ -9194
ich -9195
ㄷㅡㄹㅡ -9196
ㄸㅏㄱ -9197
▁ㄷㅏㄱㅏㄱ -9198
▁ㅊㅗㄹㅗㄱ -9199
▁ㄱㅗㅇㅣ -9200
ㅈㅜㄹㄱㅣ -9201
▁ㅂㅏㄴㄱㅕㅇ -9202
▁ㅈㅡㅇㅅㅗㄴ -9203
▁ㄱㅣㅁㅈㅓㅇㅇㅣㄹ -9204
▁hPa -9205
ㄹㅗㅇㅝㄴ -9206
▁World -9207
▁ㅁㅜㄴㄱㅜ -9208
▁ㅈㅏㅇㅡㅁ -9209
▁New -9210
▁ㅂㅏㅌㅣㅋㅏㄴ -9211
▁ㅁㅗㅈㅏ -9212
ㄱㅝㄴㅈㅏ -9213
▁ㅍㅗㅂㅕㅇ -9214
MA -9215
ㅔㅌㅣ -9216
▁ㄷㅜㅇㅈㅣ -9217
▁ㄱㅗㄱㅗㅎㅏㄱ -9218
▁ㄲㅚㅎㅏ -9219
▁ㅈㅣㄴㅎㅏ -9220
▁ㅇㅛㅇㅂㅕㅇ -9221
▁ㅎㅕㅂㅂㅏㄱ -9222
▁ㄱㅚㅇㅈㅏㅇㅎㅣ -9223
▁ㅅㅏㅇㅜㄹㅜㅅㅡ -9224
▁ㅁㅣㄹㅏ -9225
▁ㄷㅐㅁㅕㅇ -9226
▁ㅅㅏㅇㅍㅛ -9227
▁ㅇㅑㅇㅎㅗ -9228
ㅌㅏㄹㅣㅇㅗ -9229
▁114 -9230
▁ㅅㅓㅁㅣㄴ -9231
▁CR -9232
▁ㄴㅟ -9233
▁ㅍㅏㄴㅂㅗㄴ -9234
mer -9235
▁124 -9236
ㅍㅡㄹㅔㅅㅡ -9237
▁ㄱㅜㄴㅈㅓㅇ -9238
ㅅㅑㅇ -9239
▁ㅎㅏㄱㅁㅕㅇ -9240
▁ㅇㅕㄴㅎㅏㅂㄱㅜㄱ -9241
▁ㅋㅓㅁㅠㄴㅣㅋㅔㅇㅣㅅㅕㄴ -9242
ㅂㅔㄱ -9243
ㅎㅏㄹㅜ -9244
▁ㅅㅓㅇㅁㅜㄴ -9245
▁ㄷㅣㅂㅣㅅㅣㅇㅗㄴ -9246
▁ㅈㅔㅈㅐ -9247
▁ㄱㅏㄷㅎㅣ -9248
▁ㄲㅐㄷㅏㄷ -9249
▁ㅊㅚㄱㅏㅇ -9250
▁ㅌㅏㄷㅏㅇ -9251
▁SU -9252
▁ㅅㅏㅇㅅㅏ -9253
▁ㅇㅠㄴㅕㄴ -9254
▁ㅇㅣㅁㅎㅏ -9255
▁ㅂㅡㄹㅣㅈㅣ -9256
▁ㅋㅗㄹㄹㅣㄴ -9257
▁ㅍㅔㅇㅣㅅㅡ -9258
▁ㅋㅘ -9259
ㄷㅗㄱㅛ -9260
▁ㄷㅐㅍㅣ -9261
▁ㅎㅜㅅㅏ -9262
▁ㅇㅕㄴㅅㅜ -9263
ㅇㅞㅇㅣ -9264
▁1890 -9265
▁ㅅㅓㄴㅂㅣ -9266
▁ㄷㅗㄱㅇㅣㄹㅇㅣㄴ -9267
▁ㅁㅗㄹㄹㅐ -9268
▁ㅋㅡㄹㅗㅁ -9269
▁ㄱㅡㄱㅅㅣㅁ -9270
▁ㄱㅡㄱㅈㅏㅇㅍㅏㄴ -9271
ign -9272
ㄴㅐㅇㅚ -9273
▁ㅍㅏㅅㅡ -9274
▁ㄱㅜㄱㄴㅐㅇㅚ -9275
ial -9276
▁ㄷㅏㄷㅎㅣ -9277
▁ㅎㅕㄹㄱㅘㄴ -9278
▁ㅇㅙㄴㅑㅎㅏㅁㅕㄴ -9279
▁ㅉㅏㅇ -9280
▁ㅅㅡㅋㅡㄹㅣㅂ -9281
▁ㅁㅟ -9282
▁ㄴㅏㅂㅣ -9283
▁ㅈㅗㅇㅊㅏㄱ -9284
▁ㅍㅡㄹㅗㄷㅓㄱ -9285
▁ㄹㅣㅇㅜ -9286
▁ㅇㅣㄹㄹㅣㄴㅗㅇㅣ -9287
▁118 -9288
▁ㄱㅜㅈㅓㄹ -9289
▁ㄱㅣㅁㄱㅠ -9290
▁ㅎㅔㄹㄹㅣ -9291
▁ㄱㅜㅅㅡㅌㅏ -9292
▁EC -9293
▁ㅂㅏㅅㅡ -9294
▁ㄱㅕㄹㅎㅏㅁ -9295
▁ㅂㅔㄹㄹㅏㄹ -9296
▁ㅇㅝㄴㅈㅓㄴ -9297
▁ㅇㅣㄹㅅㅐㅇ -9298
▁Sc -9299
▁ㅅㅣㅂㅏ -9300
▁ㅊㅔㅈㅗ -9301
▁ㅋㅐㅅㅣ -9302
ㅋㅏㄹㅏㄱ -9303
ㅣㅇㅓㅅㅡ -9304
▁ㅊㅓㄹㅎㅚ -9305
▁ㅇㅣㄹㅂㅏㅇ -9306
▁ㄱㅐㅈㅗㅇ -9307
▁ㅅㅔㅅㅗㄱ -9308
▁ㅎㅏㄱㄱㅖ -9309
▁ㅅㅜㅇㅛㅇㅊㅔ -9310
▁ㄷㅡㄹㅏㅇㅣㅂㅓ -9311
▁ㅅㅒ -9312
▁ㄹㅔㄹ -9313
▁ㅁㅗㅊㅣㄴ -9314
▁ㅇㅑㅇㅊㅡㄱ -9315
▁ㅇㅗㄹㅣㅋㅗㄴ -9316
▁ㅈㅗㅂㅜ -9317
▁ㅇㅏㄹㅐㅅ -9318
▁ㄱㅡㄴㄹㅗㅈㅏ -9319
▁ㅇㅗㅍㅡㄴㅣㅇ -9320
▁ㅇㅜㅎㅗ -9321
ㅇㅠㅎㅐㅇ -9322
▁ㅋㅏㄹㅗㄹ -9323
▁ㅇㅏㄱㄷㅏㄴ -9324
▁ㅎㅓㄱ -9325
▁ㅌㅟㄹㅡ -9326
▁ㅁㅕㅇㅎㅏ -9327
▁ㅇㅣㄴㅏㅁ -9328
▁ㅁㅔㄹㄹㅗㄷㅣ -9329
ㅌㅜㄹ -9330
▁ㅈㅏㅅㅓㄴ -9331
▁ㄱㅜㅇㄱㅡㄱ -9332
▁ㅍㅏㄹㅏㄴㅅㅐㄱ -9333
▁ㄹㅏㅇㅣㅇㅗㄴㅈㅡ -9334
ㅅㅣㅌㅏ -9335
▁ㄱㅏㅈㅕㄱㅏ -9336
▁ㅎㅏㅇㅈㅐㅇ -9337
▁ㅅㅡㄹㄹㅗㅂㅔㄴㅣㅇㅏ -9338
▁ㅇㅓㅁㅣ -9339
▁ㅅㅜㅅㅐㄱ -9340
▁ㅈㅐㅅㅏㅇ -9341
▁ㄱㅗㅇㅂㅐㄱ -9342
▁ㅍㅕㅇㅈㅓㅇ -9343
▁ㅇㅠㅈㅓ -9344
▁ㅎㅐㄱㅗ -9345
▁ㄴㅐㅈㅓㅇ -9346
▁ㅅㅣㄴㅅㅏㅇ -9347
ㅓㄹㄹㅣㅅㅡㅌㅡ -9348
ㅗㅂㅓ -9349
▁ㅍㅣㅇㅜ -9350
ㄱㅣㄴㅕㅁ -9351
▁ㅂㅏㅂㅣㄹ -9352
▁ㅋㅓㄴㅓㄹ -9353
▁ㅂㅏㄴㅈㅣㄹㅡㅁ -9354
ㅎㅘㅇㅎㅜ -9355
▁ㅁㅓㄴㅈㅣ -9356
▁ㅂㅔㄴㅔㄷㅣㄱ -9357
▁ㅎㅣㅇㅓㄹㅗㅈㅡ -9358
hn -9359
▁ㅁㅏㄺ -9360
▁ㅅㅓㅈㅏ -9361
▁ㄱㅘㄴㄱㅜ -9362
▁ㅍㅏㅇㅣㄴㅓㄹ -9363
▁ㅂㅏㅇㅅㅏㅅㅓㄴ -9364
IP -9365
ㅈㅡㅂㅔ -9366
ㅋㅏㅁㅣ -9367
▁ㄱㅡㄷㅐ -9368
▁ㅇㅜㅈㅡㅂㅔ -9369
▁ㅅㅏㅅㅏㄹ -9370
▁ㅌㅐㄱㅎㅏ -9371
▁ㅁㅏㄴㅇㅣㄹ -9372
▁ㅂㅗㅇㅇㅏㄴ -9373
▁ㄷㅗㅊㅓㅇ -9374
▁ㅇㅛㄱㄱㅜ -9375
ㅠㄹㅓㅂ -9376
▁ㅈㅏㅌㅐㄱ -9377
▁ㄱㅗㅇㅂㅏㅇ -9378
▁SD -9379
▁ㅌㅜㄴ -9380
▁ㅇㅣㅅㅔ -9381
▁ㅁㅗㄹㅗㅋㅗ -9382
▁ㅇㅞㅅㅡㅌㅓㄴ -9383
ㅅㅖㅂㅣ -9384
ㅈㅓㅈㅣ -9385
▁1898 -9386
▁ㄹㅣㅇㅗ -9387
▁ㄹㅔㅂㅏㄴㅗㄴ -9388
ㅠㅁㅗ -9389
▁ㅇㅣㄹㄱㅏ -9390
▁ㅇㅗㅂㅅㅕㄴ -9391
▁ㅂㅓㅁㅇㅠㅎㅐㅇ -9392
▁ㅁㅏㄹㅣㄴ -9393
▁ㄷㅏㄴㅕㅇㅗ -9394
▁LC -9395
ㄷㅜㄱㅛ -9396
▁ㅋㅔㄴㅑ -9397
ㄱㅗㅇㅅㅣㄴ -9398
ㅂㅡㄹㅣㅈㅣ -9399
ㅗㄴㅌㅡ -9400
▁ㅇㅖㅅㅣ -9401
ㅅㅡㅇㅂㅜ -9402
▁ㅁㅣㅎㅏㅇㅣㄹ -9403
▁ㅊㅐㄹㄹㅣㄴㅈㅣ -9404
ㅗㅁ -9405
ㄹㅗㅇㅣ -9406
▁ㄷㅟㅈㅣㅂ -9407
▁ㅅㅣㅈㅓㅇ -9408
▁ㄱㅓㅁㅊㅏㄹㅊㅓㅇ -9409
▁115 -9410
ㅅㅡㅂㅜㄱ -9411
▁ㄱㅣㅁㅎㅕㄴ -9412
ㅈㅜㄹㅗ -9413
▁ㅎㅢㄱㅟ -9414
▁ㅁㅜㅎㅏㅁ -9415
▁GS -9416
ㅈㅏㅇㅣ -9417
ㅑㄴㅡㄴ -9418
▁ㅁㅏㄴㄹㅛ -9419
▁ㅅㅣㅇㅟㄷㅐ -9420
▁ㅅㅏㅇㅟ -9421
▁ㄱㅣㅈㅣㄹ -9422
▁ㅅㅗㄱㅠㅁㅗ -9423
▁ㅇㅓㄱㅡㅅ -9424
▁ㅇㅚㅇㅑㅅㅜ -9425
▁ㄱㅘㅇㅎㅐㄱㅜㄴ -9426
▁GP -9427
▁ㄴㅐㅇㅈㅓㄴ -9428
▁ㅈㅡㄱㄱㅏㄱ -9429
▁ㄱㅖㅇㅕㄹㅅㅏ -9430
▁129 -9431
▁ㄹㅗㅇㅜ -9432
▁ㄴㅏㅁㄱㅜ -9433
▁ㅂㅜㄷㅣㅈ -9434
▁ㄱㅗㄴㄹㅏㄴ -9435
▁ㅊㅣㅇㅊㅏㄴ -9436
▁ㄹㅜㄴ -9437
ㄹㅣㄴㅏ -9438
▁ㅁㅐㄱㅅㅡ -9439
▁ㅂㅣㅊㄴㅏ -9440
▁ㅌㅐㄱㅡㄱ -9441
▁ㅎㅔㄹㄱㅣ -9442
ㅂㅏㅇㅅㅗㅇㄱㅗㅇㅅㅏ -9443
rom -9444
▁ㄱㅏㅇㅗㄱ -9445
▁ㄱㅡㄴㅑㅇ -9446
▁ㅊㅗㅇㅝㄹ -9447
▁ㅍㅐㄹㅓㄹ -9448
▁ㄴㅠㅈㅓㅈㅣ -9449
▁ㅍㅡㄹㄹㅐㅅㅣ -9450
ㅗㅇㅣㅌㅡ -9451
▁ㄴㅓㅁㅊㅣ -9452
▁ㅎㅚㅅㅏㅇ -9453
▁ㅓㅅㅓ -9454
▁ㅇㅝㅋㅡ -9455
▁ㅎㅘㅎㅐ -9456
▁ㄱㅘㅂㅏㄴ -9457
▁ㅍㅜㅇㅈㅏ -9458
▁ㅂㅡㄹㄹㅐㄱㅎㅗㄹ -9459
ㅌㅗㄹㄹㅔ -9460
▁ㄱㅘㄴㅅㅔ -9461
▁ㄷㅔㄹㅡ -9462
▁ㅅㅏㅂㅗㄴ -9463
▁ㅎㅘㅇㅈㅗㄱ -9464
▁ㅅㅓㅇㄹㅣㅎㅏㄱ -9465
▁ㄹㅓㅁ -9466
▁ㅇㅏㅇㅣㄷㅣ -9467
ㅡㄹㅔ -9468
▁ㅂㅐㅎㅜ -9469
▁ㄴㅗㅎㅊㅣ -9470
▁ㅇㅛㅈㅓㅇ -9471
▁ㅈㅓㄴㅓㄹ -9472
▁ㅎㅗㅊㅜㄹ -9473
▁ㄷㅗㅁㅣㄴㅣ -9474
▁ㅇㅣㄴㅁㅕㅇ -9475
▁ㅊㅜㄱㅊㅜㄹ -9476
▁JT -9477
ㅏㅇㅣㄷㅡ -9478
▁III -9479
▁ㅇㅗㄴㅗ -9480
▁ㄱㅏㅁㅈㅏ -9481
▁ㄸㅓㄹㅊㅣ -9482
▁ㅊㅚㄷㅐㅎㅏㄴ -9483
▁ㅇㅢㅇㅑㄱㅍㅜㅁ -9484
▁ㄱㅏㅇㅅㅓ -9485
▁ㄴㅏㅁㅁㅣ -9486
▁ㄷㅏㅅㅡ -9487
▁ㅊㅔㅅㅡ -9488
ㄷㅗㄱㅜㄴ -9489
▁ㅅㅣㄱㅏㅈㅣ -9490
▁ㅁㅏㅇㅜㄴㅌㅡ -9491
▁ㅈㅔㅊㅣ -9492
▁ㅋㅐㄴㅈㅏㅅㅡ -9493
▁ㄱㅡㄱㅈㅏㄱ -9494
▁ㅁㅣㅅㅗ -9495
▁ㅇㅡㄴㄷㅔ -9496
▁ㅇㅏㄹㅇㅏㅂㅗ -9497
▁ㅌㅗㅇㅊㅣㅈㅏ -9498
▁ㅇㅏㄹㄹㅜㅁㅣㄴ -9499
▁ㅇㅛㅇㅇㅣ -9500
▁ㄱㅕㅇㅅㅣㄴ -9501
ㅆㅜ -9502
▁ㅋㅛ -9503
ㅎㅣㅋㅗ -9504
▁ㄷㅡㄹㅣㅁ -9505
▁ㅇㅘㅇㅅㅔ -9506
▁ㅇㅞㅂㅌㅜㄴ -9507
▁ㅂㅔㄹㄹㅏㄹㅜㅅㅡ -9508
ph -9509
▁ㅈㅐㅎㅗㄴ -9510
ㅎㅐㅁ -9511
▁ㄷㅏㄷㅏ -9512
▁ㅈㅓㅇㅂㅕㄴ -9513
▁ㄱㅕㅇㅊㅏㄹㄱㅘㄴ -9514
▁ㅂㅜㄹㅌㅏ -9515
▁ㅇㅏㄴㅌㅗㄴㅣㅇㅗ -9516
▁ㅇㅣㄱㅓ -9517
ㄷㅐㅅㅓㅇ -9518
▁ㅁㅣㄱㅅㅡ -9519
▁ㅈㅣㅇㅣㄴ -9520
ㅇㅣㅆ -9521
ㅅㅜㅅㅗ -9522
▁ㅁㅏㄱㄴㅐ -9523
▁ㅁㅏㅇㅣㅋㅡㄹㅗ -9524
urn -9525
ㅆㅡㄹ -9526
ㅜㅇㅔ -9527
ㅎㅏㅁㅅㅜ -9528
▁ㅋㅏㄹㄹㅏ -9529
▁ㅍㅗㄱㅍㅗ -9530
▁ㅍㅜㄹㄹㅕㄴㅏ -9531
▁ㅇㅔㄷㅡ -9532
▁ㅂㅣㅅㅓㄱ -9533
▁ㅅㅜㄴㅈㅗ -9534
ㄷㅏㅎ -9535
ㄷㅗㅂㅏ -9536
ction -9537
▁ㅅㅡㅇㅈㅏ -9538
▁ㅋㅙㅅㅗㄱ -9539
▁ㄱㅘㅇㅈㅜㄱ -9540
ㄱㅞ -9541
▁ㅅㅓㄴㄷㅗ -9542
▁ㅈㅔㅇㅏㅂ -9543
▁ㅊㅓㅁㄷㅏㄴ -9544
▁ㅊㅓㅇㅈㅜㅅㅣ -9545
▁ㅇㅝㄹㅇㅛㅇㅣㄹ -9546
▁ㅊㅓㄴㅁㅜㄴㄷㅐ -9547
ㅏㅇㅜㅅㅡ -9548
▁ㅂㅏㄹㄹㅣ -9549
▁ㅈㅓㅇㄹㅕ -9550
▁ㅈㅣㅊㅣㅁ -9551
▁ㄷㅗㄹㄱㅕㄱ -9552
▁ㅇㅗㄴㅌㅏㄹㅣㅇㅗ -9553
▁142 -9554
▁ㄷㅏㅋㅡ -9555
▁ㅇㅠㄹㅏ -9556
▁ㅍㅣㄹㅅㅏ -9557
▁ㅂㅕㄱㄷㅗㄹ -9558
▁ㅍㅡㄹㅗㄷㅓㄱㅅㅕㄴ -9559
▁ㅊㅣㅁㅌㅜ -9560
ㅋㅛ -9561
▁ㅂㅜㅍㅣ -9562
ㅊㅓㄴㄹㅣ -9563
▁ㅂㅗㄴㄱㅜㄱ -9564
▁ㅊㅗㅇㅊㅣㅇ -9565
▁ㅂㅕㄴㅇㅣ -9566
▁ㅈㅣㅇㄱㅖ -9567
▁ㅁㅐㄴㅣㅈㅓ -9568
▁ㅇㅑㅁㅏㅌㅗ -9569
▁ㄹㅔㅅㅡㄹㄹㅣㅇ -9570
ㄹㅗㄹㄹㅏㅇㅣㄴㅏ -9571
ㅎㅏㅇㅣㅁ -9572
▁ㅂㅏㄺㄱㅣ -9573
▁ㅇㅓㅅ -9574
▁ㅇㅞㄴ -9575
▁ㄱㅘㅇㅈㅜㄱㅘㅇㅇㅕㄱㅅㅣ -9576
TS -9577
▁Ne -9578
▁1899 -9579
▁ㅇㅖㅎㅏ -9580
ㅈㅣㄴㄱㅜㄴ -9581
▁ㅅㅜㄱㅊㅓㅇ -9582
▁ㅊㅜㄱㅁㅜㄹ -9583
ㅌㅔㄹㅡㅂㅜㄹㅡㅋㅡ -9584
▁CJ -9585
ㅋㅗㄷㅣㅇ -9586
▁ㄱㅕㄹㅋㅗ -9587
▁ㅈㅗㅈㅣㅍㅡ -9588
▁ㅅㅡㅇㅂㅜㅊㅏㄱㅣ -9589
ㅎㅘㅁㅜㄹ -9590
▁ㄱㅘㄴㅈㅔ -9591
▁ㅈㅐㅅㅓㄴ -9592
▁ㅋㅔㅇㅣㅁ -9593
▁ch -9594
ㅇㅏㅁㅓㄱ -9595
▁ㄱㅚㅁㅜㄹ -9596
▁ㅎㅚㄱㅘㄴ -9597
▁ㄹㅓㅅㅔㄹ -9598
▁ㄷㅐㅅㅓㅇㅑㅇ -9599
pp -9600
▁ㅎㅔㄱ -9601
▁ㅈㅜㅇㅅㅏㄴ -9602
ㅍㅗㄹㅗ -9603
▁ㅅㅗㅁㅐ -9604
▁ㅇㅚㅁㅗ -9605
▁ㅇㅠㅈㅣㄴ -9606
▁ㄷㅏㄱㅏㅇㅗ -9607
▁ㅍㅗㄱㄴㅓㄼ -9608
▁ㅎㅗㄴㄷㅗㅇ -9609
▁ㅂㅜㅇㅢㅈㅏㅇ -9610
▁ㅈㅏㅇㄹㅖㅅㅣㄱ -9611
ㅉㅣ -9612
▁ㅁㅣㄹㅈㅣㅂ -9613
▁ㄷㅓㄴㅣ -9614
▁ㅈㅜㅂㅜ -9615
ㅂㅏㄷㅏㄱ -9616
▁ㅇㅜㅊㅡㄱ -9617
▁ㅊㅟㅇㅓㅂ -9618
▁ㅈㅓㄴㅈㅏㄱㅣ -9619
▁ㅇㅕㄴㅅㅏㄴㅈㅏ -9620
▁ㄱㅏㄹㅜ -9621
▁ㅈㅓㅇㅅㅔ -9622
▁` -9623
▁ㅂㅣㅊㅜ -9624
▁ㅇㅣㄷㅡ -9625
ㅈㅐㅇㅇㅣ -9626
▁ㄱㅣㅈㅡㅇ -9627
▁ㄷㅐㅅㅗㄴ -9628
▁ㅅㅓㅈㅣㄴ -9629
▁ㅁㅕㅇㅈㅗㅇ -9630
▁ㅁㅣㅅㅔ -9631
▁ㅂㅏㄹㅎㅐ -9632
▁ㅎㅏㄱㅇㅓㅂ -9633
▁ㅊㅗㅇㅅㅏㄹㅕㅇ -9634
▁ㄱㅏㅂㅈㅏㄱㅅㅡㄹㅓㅂ -9635
▁ㄷㅐㅂㅜ -9636
▁ㅍㅣㄱㅕ -9637
▁ㅁㅣㄷㅡㄹ -9638
▁ㅇㅗㅇㄹㅣㅂ -9639
▁ㅅㅏㅅㅏㅇㅈㅏ -9640
▁ㅈㅓㄻㅇㅡㄴㅇㅣ -9641
▁Man -9642
▁ㅁㅏㄷㅣ -9643
▁ㄱㅡㅁㅇㅛㅇㅣㄹ -9644
▁ㄹㅣㅂㅠ -9645
▁ㅅㅗㅅㅐㅇ -9646
▁ㅂㅏㄹㅂㅕㅇ -9647
lan -9648
▁ㄴㅠㅌㅓㄴ -9649
▁ㅌㅚㅇㅣㅁ -9650
▁ㅇㅣㄹㅋㅓㄹ -9651
▁ㅈㅓㄴㄴㅕㄴ -9652
▁ㅂㅡㄹㅣㅌㅡㄴ -9653
▁ㄱㅛㅌㅗㅇㄱㅜㄱ -9654
▁ㅍㅏㅅㅏㄴ -9655
▁ㅉㅗㅊㄱㅕㄴㅏ -9656
▁1902 -9657
▁ㄱㅏㄱㄷㅗ -9658
▁ㅂㅏㄹㄱㅣ -9659
▁ㅇㅣㄴㄷㅣㅇ -9660
▁ㅋㅓㄴㅅㅔㅂ -9661
▁ㅇㅕㄴㅇㅖㅇㅣㄴ -9662
▁ㅋㅣㄹㅡ -9663
▁ㅌㅗㅇㅂㅗ -9664
▁ㄱㅘㅇㄷㅜㅇ -9665
▁ㅋㅣㅂㅗㄷㅡ -9666
ens -9667
▁ㅇㅜㅊㅔ -9668
ㅈㅗㄱㅓㄴ -9669
▁ㄷㅗㅇㅈㅓㅇ -9670
▁ㅂㅜㅇㅕㅂㅏㄷ -9671
▁ㅍㅡㄹㄹㅏㅅㅡㅌㅣㄱ -9672
ㅌㅏㅈㅜ -9673
ㅡㄱㅏㅇ -9674
ㅌㅏㅁㅣㄴ -9675
▁ㅋㅔㄹㄹㅣ -9676
▁ㅈㅗㅇㅅㅗㄱ -9677
▁ㅌㅗㅊㅏㄱㅈㅗㅇ -9678
lic -9679
▁ㄷㅜㄹㅜ -9680
▁ㄱㅏㅎㅘㄴ -9681
▁ㅋㅔㅂㅣㄴ -9682
▁ㅎㅘㄹㅕㄱ -9683
▁ㄱㅓㄹㅐㅅㅗ -9684
▁ㅁㅏㄹㅆㅡㅁ -9685
▁ㅇㅣㅁㅇㅝㄴ -9686
▁ㅅㅓㄹㅎㅘ -9687
▁ㅇㅠㅂㅏㅇ -9688
▁ㄷㅓㄱㅡㄹㄹㅓㅅㅡ -9689
▁ID -9690
ㄹㅐㅇ -9691
▁ㅈㅣㅇㅗㄱ -9692
▁ㅎㅏㅇㅑㅎ -9693
▁ㅅㅔㅇㅣㅂㅡ -9694
▁ㅊㅐㅅㅗ -9695
▁ㅊㅔㅋㅗㅅ -9696
▁ㅎㅖㅌㅐㄱ -9697
▁ㅊㅔㅋㅗㅅㅡㄹㄹㅗ -9698
▁ㅊㅔㅋㅗㅅㅡㄹㄹㅗㅂㅏㅋㅣㅇㅏ -9699
ㄹㅣㅇㅓㄹ -9700
▁ㅇㅓㄹㅡㄴ -9701
▁ㅌㅏㄴㄷㅗ -9702
▁ㅇㅝㄴㄹㅗㅇㅝㄴ -9703
▁ㅍㅡㄹㄹㅐㅅㅍㅗㅁ -9704
▁ㄹㅑ -9705
▁ㄱㅔㄹㅡ -9706
▁ㅇㅏㅈㅡ -9707
▁ㄴㅏㄴㅈㅣㅇ -9708
▁ㄹㅜㄱㅅㅔㅁ -9709
▁ㄷㅗㅇㄹㅐ -9710
▁ㅁㅜㅁㅕㅇ -9711
▁ㅎㅘㅅㅏㅇ -9712
▁'' -9713
▁ㅇㅕㄴㄲㅗㅊ -9714
▁ㅇㅏㄹㄹㅜㅁㅣㄴㅠㅁ -9715
▁ㅁㅝ -9716
▁ㅎㅏㄱㄱㅣ -9717
▁ㅇㅕㄴㅇㅣ -9718
▁ㄱㅏㅇㄷㅗㅇ -9719
▁ㅁㅏㄴㅅㅓㅇ -9720
ㅡㄹㅓㅁㅣ -9721
▁ㄱㅜㄱㅕㅇ -9722
▁ㅂㅗㅇㄱㅓㄴ -9723
▁ㅅㅣㄴㅇㅝㄴ -9724
▁ㄱㅐㅁㅏㄱㅈㅓㄴ -9725
▁ㅂㅜㄴㅁㅕㅇㅎㅣ -9726
▁ㅇㅓㄵ -9727
▁ㅁㅐㅁㅐ -9728
▁ㅇㅑㅁㅏㄱ -9729
▁ㅇㅡㅇㅅㅣ -9730
▁ㅋㅡㄹㄹㅔㅁ -9731
▁ㅎㅏㄴㅈㅗㄱ -9732
▁ㅂㅜㄴㅂㅣ -9733
▁ㅂㅡㄹㅐㄴ -9734
▁ㅊㅓㄴㅎㅏ -9735
▁ㅇㅑㅇㅂㅏㄴ -9736
▁ㅇㅝㄴㅈㅗㅇ -9737
▁ㅋㅜㄱ -9738
▁ㄹㅗㄹㅏ -9739
TC -9740
▁ㅎㅏㅊㅏ -9741
ㄹㅡㄷㅏㄴ -9742
▁ㄱㅏㅁㅁㅏ -9743
▁ㅈㅣㄴㅅㅏ -9744
▁ㄱㅗㅇㅈㅓㄱ -9745
▁ㅇㅕㄴㅅㅡㅇ -9746
▁ㄱㅣㅅㅏㄷㅏㄴ -9747
▁ㅂㅣㅎㅐㅇㅈㅏㅇ -9748
ㄲㅜㄹ -9749
▁ㄹㅗㅂㅣ -9750
▁ㄱㅏㄴㅅㅓㄴ -9751
▁ㄷㅐㅅㅓㅇㄷㅏㅇ -9752
▁ㅅㅡㅌㅏㄹㅣㄱㅡ -9753
▁IM -9754
▁ㄹㅓㅅㅡ -9755
▁ㅎㅏㄷㅏㄴ -9756
▁ㅈㅓㄴㅅㅗㄱ -9757
▁ㄱㅐㅅㅗ -9758
▁ㅌㅗㄲㅣ -9759
ㅏㅇㅣㅈㅡ -9760
▁ㄱㅣㄱㅏㄱ -9761
▁ㄴㅚㅁㅜㄹ -9762
▁ㅅㅜㅂㅜㄴ -9763
▁ㅌㅗㅇㅑㅇ -9764
▁ㅂㅏㄹㄱㅡㅂ -9765
▁ㅇㅚㄴㅅㅗㄴ -9766
▁ㄷㅏㅎㅏㅇㅅㅣㄱ -9767
▁BS -9768
▁ㄹㅔㅁ -9769
▁ㅌㅏㅈㅣ -9770
▁ㄱㅏㄹㄹㅏ -9771
▁ㄱㅗㅇㅈㅗ -9772
▁ㄱㅗㅇㄱㅏㅁ -9773
▁ㅅㅔㅇㅣㅂㅜ -9774
▁ㅅㅡㅈㅡㅋㅣ -9775
▁ㅍㅡㄹㅏㄴㅊㅡ -9776
▁ㄷㅐㄱㅓ -9777
▁ㄱㅏㅅㅣㄴ -9778
▁ㅂㅔㄹㄹㅣ -9779
▁ㅅㅐㅇㅊㅔ -9780
▁ㅎㅣㄴㄷㅜㄱㅛ -9781
ary -9782
▁ㅇㅛㄱㅓㄴ -9783
▁ㅈㅓㄱㄷㅗ -9784
▁ㅅㅗㄴㅏㅁㅜ -9785
▁ㅁㅣㅋㅣ -9786
▁ㅇㅞㅅㅡㅌ -9787
▁ㅊㅏㅇㅊㅜㄹ -9788
▁ㅋㅗㅁㅣㄱㅅㅡ -9789
▁ㅇㅣㄱㅅㅡㅍㅡㄹㅔㅅㅡ -9790
▁ㅍㅡㄹㅏㅇㅋㅡㅍㅜㄹㅡㅌㅡ -9791
▁ㅕㅆ -9792
ㅌㅠㅁ -9793
▁ㅈㅜㅇㅂㅗㄱ -9794
▁ㅈㅜㅇㅎㅕㅇ -9795
ㄲㅜㅁ -9796
▁ㅍㅗㅎㅚㄱ -9797
▁ㅎㅘㄱㅏㅇ -9798
▁ㄱㅜㄱㅇㅕㅇ -9799
▁ㅈㅑ -9800
ㅔㄴㅣ -9801
▁ㅅㅏㅅㅡㅁ -9802
▁ㅅㅡㅂㅈㅣ -9803
▁ㄷㅗㅇㅎㅏㄱ -9804
▁ㅂㅣㄹㅗㅅㅗ -9805
▁ㅅㅗㅅㅣ -9806
▁ㅇㅖㅈㅗ -9807
▁ㅇㅣㅎㅘ -9808
▁ㅎㅘㅈㅏ -9809
▁ㅅㅓㅅㅣㄴ -9810
▁ㅊㅓㄱㅊㅜ -9811
▁ㄱㅣㅅㅜㄹㅈㅏ -9812
▁ㅇㅣㅂㅡㄴ -9813
▁ㅈㅜㅇㅊㅜ -9814
▁ㅅㅐㅇㅅㅐㅇ -9815
▁ㅇㅕㅇㄷㅡㅇ -9816
ㄷㅏㅁㅕ -9817
▁ㄱㅣㄴㅣ -9818
▁ㅈㅏㅇㅏ -9819
▁ㄱㅡㄹㅡㅅ -9820
▁ㅇㅕㅇㅁㅜㄴ -9821
▁ㅍㅡㄹㄹㅏㅇㅣ -9822
▁ㄹㅓㅅㅣㅇㅏㅇㅓ -9823
▁ㅎㅐㅁㅣㄹㅌㅓㄴ -9824
▁ㅍㅗㅋㅔㅅㅁㅗㄴㅅㅡㅌㅓ -9825
▁ㅋㅏㅅㅣ -9826
▁ㅅㅣㅂㅓㅁ -9827
▁ㄱㅏㅇㅂㅕㄴ -9828
▁ㅂㅏㄲㅏㅌㅉㅗㄱ -9829
▁ㄷㅗㄱㅅㅓ -9830
▁ㄲㅡㄹㅇㅓㄷㅡㄹㅇㅣ -9831
ㄱㅗㅋㅜ -9832
▁ㅇㅣㅈㅡ -9833
▁ㅎㅕㄴㅇㅡㄴ -9834
TA -9835
▁ㅅㅣㄱㅏ -9836
ㅅㅡㅌㅗㄹ -9837
▁ㅂㅕㅇㄱㅣ -9838
▁ㄷㅏㅂㅂㅕㄴ -9839
▁ㅅㅐㅇㄹㅑㄱ -9840
▁ㅌㅓㄸㅡㄹㅣ -9841
▁ㄹㅜㄱㅅㅔㅁㅂㅜㄹㅡㅋㅡ -9842
▁ㄷㅐㅅ -9843
▁ㅇㅝㅌㅓ -9844
ㅅㅣㅈㅡㅁ -9845
ㅈㅣㅅㅈㅓㅁ -9846
▁ㄷㅏㄴㅊㅜㄱ -9847
▁ㅈㅓㅇㅅㅓㅇ -9848
▁ㅁㅜㅅㅡㅇㅂㅜ -9849
▁ㄱㅕㅇㅅㅓㅇㅂㅜ -9850
ㅏㄱㅗㄴ -9851
▁ㅈㅓㅈㅜ -9852
▁ㅌㅗㅁㅗ -9853
ㅁㅣㅅㅏㅇ -9854
▁ㅂㅗㅇㅣㅅㅡ -9855
▁ㄲㅗㄱㅈㅣㅅㅈㅓㅁ -9856
▁ㄷㅐㅊㅣ -9857
▁ㅂㅣㄱㅣ -9858
ㅇㅟㅇㅝㄴ -9859
▁ㄴㅏㅁㅈㅏㄱ -9860
▁ㅈㅣㄱㅁㅕㄴ -9861
▁ㅇㅜㄹㅅㅏㄴㄱㅘㅇㅇㅕㄱㅅㅣ -9862
ach -9863
▁ㅇㅟㅉㅗㄱ -9864
▁No -9865
▁ㅍㅣㅅㅣㄴ -9866
ㅅㅔㅅ -9867
▁ㄱㅗㅅㅏㄴ -9868
▁ㅇㅏㄷㅗㄹㅍㅡ -9869
ert -9870
▁ㅊㅜㅂ -9871
▁ㅎㅗㄹㅡㅁㅗㄴ -9872
▁ㅁㅐㅋㅏㅌㅡㄴㅣ -9873
LE -9874
ㅍㅗㅌㅓ -9875
▁ㅅㅓㄹㅣ -9876
▁ㅊㅓㄴㅈㅐ -9877
▁ㅊㅗㄱㅁㅐ -9878
▁ㅇㅏㅂㄷㅜㄹ -9879
▁ㅂㅏㅂㅣㄹㄹㅗㄴ -9880
ㅏㄴㅣ -9881
▁ㄴㅏㄴㅗ -9882
▁ㅁㅜㄹㅏ -9883
▁ㅆㅡㅊㅘㄴ -9884
▁ㅊㅜㄱㅈㅗ -9885
▁ㄱㅗㅇㅑㅇㅅㅣ -9886
▁ㅂㅜㅎㅚㅈㅏㅇ -9887
▁ㄷㅜㄹㅕㅇㅝㅎㅏ -9888
▁ㅇㅣㅀㅇㅓㅂㅓㄹㅣ -9889
▁ㄷㅐㄱㅜㄱㅘㅇㅇㅕㄱㅅㅣ -9890
out -9891
ㄷㅜㄹㅣ -9892
▁ㅊㅔㄹㅠ -9893
▁ㅇㅕㄹㄷㅗ -9894
▁ㅎㅢㄱㅗㄱ -9895
▁ㄷㅐㅂㅕㄴㅇㅣㄴ -9896
▁ㅇㅑㄱㅈㅏ -9897
▁ㄱㅜㄴㅈㅜㅇ -9898
▁ㅁㅏㄱㅅㅣㅁ -9899
▁ㅂㅗㄱㅇㅛㅇ -9900
▁ㄴㅓㅁㅇㅓㅅㅓ -9901
▁} -9902
▁1901 -9903
▁ㄷㅗㄱㅅㅓㅇ -9904
▁ㅅㅡㅇㅟㅊㅣ -9905
▁ㅌㅏㅇㅣㅁㅅㅡ -9906
▁ㄱㅏㅇㅕㄱ -9907
▁ㅇㅚㄱㅘㄴ -9908
▁ㅊㅏㅁㅇㅢ -9909
▁ㄱㅣㅅㅂㅏㄹ -9910
▁ㅈㅓㅇㅈㅓㄱ -9911
▁ㅇㅓㄱㅡㅅㄴㅏ -9912
▁ㅈㅏㅋㅡ -9913
▁ㅅㅓㅇㅍㅗㄱ -9914
▁ㅇㅓㄹㅠ -9915
ㅅㅖㅂㅣㅋㅣ -9916
▁ㄷㅗㅇㅎㅐㅇ -9917
▁ㅈㅔㄴㅔㅂㅏ -9918
▁ㅈㅣㄱㄱㅕㄹ -9919
LS -9920
ㄱㅛㄷㅗ -9921
▁ㅅㅔㅇㅣㄹ -9922
▁ㅍㅛㅈㅓㄱ -9923
▁ㄱㅘㅇㅁㅕㅇ -9924
▁ㅇㅣㅇㅛㅇㅈㅏ -9925
IG -9926
ug -9927
▁MB -9928
▁ㅁㅗㄳ -9929
▁ㅇㅓㅉㅓ -9930
▁ㅅㅡㄹㅣㄹ -9931
▁ㅈㅣㅊㅜㄹ -9932
▁ㅆㅓㄹ -9933
ㅈㅓㅇㄹㅣ -9934
▁ㄱㅗㅇㄹㅣ -9935
▁ㄷㅏㄴㅇㅢ -9936
▁ㄷㅗㅇㄴㅔ -9937
▁ㅅㅏㄱㅏㄴ -9938
▁ㅂㅗㄴㅁㅜㄴ -9939
▁ㅍㅜㅇㅔㄹㅡ -9940
▁ㄷㅏㄲ -9941
▁ㅇㅗㅀ -9942
▁ㅁㅜㅇㅓ -9943
ㄷㅐㅈㅏㅇ -9944
ㅌㅏㅇㅣㅁ -9945
▁ㄷㅡㄹㅓㅁㅓ -9946
▁ㅎㅟㄹ -9947
▁ㅈㅟㄱㅘ -9948
▁ㅍㅡㅌㅗㄹㄹㅔ -9949
ㅁㅏㅇㅣㅇㅗㅅㅡ -9950
▁ㅍㅡㅌㅗㄹㄹㅔㅁㅏㅇㅣㅇㅗㅅㅡ -9951
▁ㄱㅓㅅㅔ -9952
▁ㅊㅗㅅㅣㄴ -9953
▁ㅅㅏㅅㅍㅗㄹㅗ -9954
▁ㅁㅣㄹㅡㄱ -9955
▁ㅇㅝㄴㅊㅓㄴ -9956
▁ㅂㅜㅈㅏㄱㅇㅛㅇ -9957
ㅈㅏㄹㅡ -9958
▁ㅅㅡㄴㅣㅁ -9959
▁ㅇㅣㅎㅕㄴ -9960
ㅋㅏㄱㅏ -9961
▁ㅇㅖㄱㅗ -9962
▁ㅎㅏㅁㅏ -9963
▁ㄱㅏㅁㅆㅏ -9964
▁ㅋㅗㄲㅣㄹㅣ -9965
ey -9966
▁ㄹㅏㅂ -9967
▁ㅇㅜㅇㅢ -9968
▁ㅈㅣㅊㅣ -9969
▁ㅈㅗㅇㄹㅐ -9970
▁ㄱㅣㅁㅎㅗㅇ -9971
▁ㄷㅏㄴㅈㅓㄹ -9972
▁ㅅㅣㄴㄷㅗㅂㅣ -9973
▁ㄱㅣㅁㅊㅏㅇ -9974
▁ㅍㅗㄱㄱㅕㄱㄱㅣ -9975
ㄱㅑㄹ -9976
▁ㅁㅏㄴㅕ -9977
▁ㅊㅔㅈㅜㅇ -9978
▁ㅂㅜㅌㅈㅏㅂㅎㅣ -9979
▁ㅂㅔㄴㅣ -9980
▁ㅎㅗㅁㅗ -9981
▁ㅅㅡㅍㅗㄴ -9982
▁ㅁㅏㅅㅡㅋㅡ -9983
▁ㅂㅡㄹㅟ -9984
▁ㅁㅜㄹㅍㅜㅁ -9985
▁ㅈㅓㅇㅁㅜㄴ -9986
▁ㄱㅘㅇㅈㅓㅇㅜ -9987
▁ㄷㅟㅅㅂㅏㄷㅊㅣㅁ -9988
▁ㅁㅜㄱㅜㅇ -9989
▁ㅈㅏㅈㅏㄱ -9990
▁ㅇㅣㅁㄱㅘㄴ -9991
▁ㅎㅘㄱㅅㅣㄹㅎㅣ -9992
▁ㅇㅏㄹㄹㅔㄱㅅㅏㄴㄷㅡㄹㅡ -9993
▁THE -9994
ㅅㅡㅌㅔ -9995
▁ㅍㅛㄱㅣㅂㅓㅂ -9996
▁ㅇㅓㄺ -9997
ㅎㅣㅌㅗ -9998
▁ㅍㅔㅇㅣㄴ -9999
▁ㅇㅛㄹㅡㄷㅏㄴ -10000
ㅅㅈㅣ -10001
▁134 -10002
▁ㅅㅠㄴ -10003
▁1903 -10004
▁ㄷㅜㄲㅔ -10005
ㅅㅔㄴㅌㅡ -10006
ㅌㅔㄱㅊㅓ -10007
▁ㄱㅣㅁㅈㅔ -10008
▁ㅇㅕㅁㅈㅡㅇ -10009
▁ㅈㅣㅅㅣㄱㅇㅣㄴ -10010
▁ㅇㅏㅋㅣㅌㅔㄱㅊㅓ -10011
ㅊㅣㄱㅣ -10012
▁ㄷㅐㅍㅐ -10013
ㅍㅗㄹㄹㅣ -10014
▁ㄱㅏㄴㅌㅗ -10015
▁ㅋㅞㅂㅔㄱ -10016
ㅂㅔㅌㅡㄴㅏㅁ -10017
ㅊㅓㅅㅡ -10018
ㅍㅜㄹㅡ -10019
▁ㅌㅗㄱㅣ -10020
▁ㅇㅕㄴㄱㅣㅈㅏ -10021
ㄹㅔㄴㅏ -10022
▁ㅇㅠㅊㅔ -10023
▁ㅈㅜㄷㅚ -10024
▁ㅇㅗㄹㄹㅏ -10025
▁ㄱㅝㄴㅊㅗㅇ -10026
▁ㅅㅏㅇㄱㅡㅁ -10027
▁ㅅㅓㄴㅎㅐㅇ -10028
▁ㅅㅏㅎㅚㄷㅏㅇ -10029
▁ㅇㅕㅁㅅㅐㄱㅊㅔ -10030
▁ㄹㅖ -10031
▁ㄱㅏㄴㄷㅏㄴㅎㅣ -10032
▁ㅅㅗㄴㄲㅗㅂ -10033
▁ㅇㅣㅅㅓㅇㄱㅖ -10034
ase -10035
▁ㄱㅘㅇㄷㅐ -10036
▁ㅎㅏㅁㅈㅓㅇ -10037
▁ㅇㅓㄴㅇㅓㅎㅏㄱ -10038
▁AN -10039
▁One -10040
▁ㄱㅜㅇㅘ -10041
ㅣㅇㅏㅅㅡ -10042
▁ㅅㅓㅁㅜㄴ -10043
▁ㅅㅜㅎㅘㄱ -10044
▁ㅁㅗㅅㅓㄹㅣ -10045
▁ㅇㅏㅁㅏㅈㅗㄴ -10046
ㅓㅂㅓㅂ -10047
▁ㅁㅜㅎㅏㅁㅁㅏㄷㅡ -10048
▁ㄱㅣㅅㅜㄱ -10049
▁ㄱㅐㅇㅅㅣㄴ -10050
▁ㄹㅏㅍ -10051
▁ㅅㅓㅇㅈㅣ -10052
▁ㅇㅡㄹㅕㄱ -10053
▁ㅋㅗㅁㅍㅐㄱㅌㅡ -10054
▁ㅇㅘㅋㅏ -10055
ㄱㅡㄹㄹㅏ -10056
▁ㅇㅣㅌㅏㄹㄹㅣ -10057
▁ㄱㅘㄴㄱㅘㅇㅈㅣ -10058
▁ㅇㅏㅇㅣㄴㅅㅠㅌㅏㅇㅣㄴ -10059
ㄹㅔㅅ -10060
▁1884 -10061
▁ㅅㅓㄹㅠ -10062
▁ㄱㅗㅇㅇㅖ -10063
▁ㄱㅡㄹㄹㅜ -10064
▁ㅅㅓㄴㅂㅐ -10065
▁ㅇㅔㄴㄷㅣㅇ -10066
▁ㅇㅕㄱㄹㅑㅇ -10067
▁ㅇㅗㄱㅅㅡㅍㅓㄷㅡ -10068
▁ㄹㅣㅍㅡ -10069
▁ㅅㅗㅁㅏㄹ -10070
ㅇㅓㄸㅡㄹㅣ -10071
▁ㅎㅗㅁㄱㅜㅈㅏㅇ -10072
▁ㅋㅔㅇㅣㅁㅂㅡㄹㅣㅈㅣ -10073
▁KIA -10074
ㅠㅇㅓㄹ -10075
▁ㅇㅣㅂㅅㅓㅇ -10076
▁ㅈㅣㄱㄱㅕㅇ -10077
▁Gr -10078
▁ㅁㅕㄴㅈㅔ -10079
▁ㅅㅓㄹㄱㅛ -10080
▁ㅎㅔㅇㅣㄹ -10081
ㅅㅡㅌㅔㄹㅡ -10082
▁ㅌㅡㄹㅗㅍㅣ -10083
▁ㅍㅏㅇㅣㅌㅓ -10084
▁ㅅㅏㅇㅓㅂㄱㅏ -10085
▁EX -10086
ㅂㅏㄴㅏ -10087
ㅔㄹㅏㄹ -10088
▁ㅇㅢㅇㅢ -10089
▁ㅌㅚㅇㅕㄱ -10090
▁ㄱㅏㅁㅎㅐㅇ -10091
▁ㅇㅣㅂㄱㅜㄱ -10092
▁ㅂㅗㅎㅔㅁ -10093
▁ㅊㅜㄴㅊㅜ -10094
▁ㅎㅐㄴㅏㅁ -10095
▁ㅇㅡㄹㅕㄱㅗ -10096
▁ㅈㅓㅇㅅㅓㄴ -10097
ㅍㅣㅇㅓ -10098
▁ㅁㅏㄹㅕㄱ -10099
▁ㅅㅜㅊㅜㄱ -10100
▁ㅅㅗㅎㅐㅇㅅㅓㅇ -10101
▁All -10102
▁ㅍㅏㅅ -10103
▁ㅂㅏㅇㅣㄴ -10104
▁ㅇㅣㅅㅏㄱ -10105
▁ㅅㅣㄹㅁㅏㅇ -10106
▁ㅎㅡㄴㄷㅡㄹㄹㅣ -10107
▁ㅇㅟㄱ -10108
ㅂㅡㅅㅡ -10109
▁ㅂㅗㅇㅟ -10110
ㅘㄷㅗㄹㅡ -10111
▁ㅇㅣㄱㅘㄴ -10112
▁ㅂㅜㄹㄲㅗㅊ -10113
▁ㅂㅗㄱㅅㅗㅅㅜ -10114
▁ㄱㅐㅎㅘ -10115
▁ㅇㅔㅋㅘㄷㅗㄹㅡ -10116
▁ㅂㅣㄴㅠ -10117
▁ㄷㅐㅁㅜㄴ -10118
▁ㅇㅡㅇㅎㅏ -10119
▁ㅂㅏㅇㅣㅋㅣㅇ -10120
ㅏㅇㅣㅇㅓㄴㅌㅡ -10121
▁ㅇㅝㄴㄹㅛ -10122
▁ㅇㅣㅈㅏㅇ -10123
ㄹㅔㅇㅣㅌㅓ -10124
▁ㅋㅓㅁㅂㅐㄱ -10125
▁ㅅㅗㅂㅏㅇㅅㅓ -10126
▁ㅇㅕㅇㄱㅜㄱㅇㅣㄴ -10127
▁ㅇㅜㄴㅅㅜ -10128
▁ㅂㅏㅇㄱㅡㄹㄹㅏ -10129
▁ㅇㅑㅁㅏㄱㅜㅊㅣ -10130
▁ㅈㅔㄱㅜㄱㅈㅜㅇㅢ -10131
▁ㅂㅏㅇㄱㅡㄹㄹㅏㄷㅔㅅㅣ -10132
▁ㅋㅡㄹㄹㅏㅇㅣㅇㅓㄴㅌㅡ -10133
ree -10134
ㅎㅡㄱ -10135
▁ㅇㅣㄴㄷㅗㅇ -10136
▁ㅅㅏㅁㄱㅜㄱㅈㅣ -10137
▁ㅂㅔㄱ -10138
▁ㅈㅓㅇㄷㅗㅇ -10139
▁ㅁㅏㄴㅈㅜㄱㅜㄱ -10140
▁ㅂㅗㄱㅎㅏㅂㅊㅔ -10141
▁ㅇㅣㅂㅕㅇ -10142
▁ㅈㅓㅁㅅㅓㅇㅅㅜㄹ -10143
ㄲㅡㅅ -10144
ㅅㅕㄹ -10145
▁ㅈㅜㅈㅗ -10146
▁ㅊㅣㅇㅏ -10147
▁ㄱㅓㅁㅇㅕㄹ -10148
▁ㄱㅗㅇㅁㅕㅇ -10149
▁ㅁㅣㄴㄱㅏㅁ -10150
▁ㅇㅣㄹㅅㅏㄴ -10151
▁ㅅㅓㅇㅠㄹㅓㅂ -10152
▁ㅇㅏㅅㅣㅋㅏㄱㅏ -10153
▁ㅇㅣㄷㅏㄴ -10154
▁ㄷㅏㄹㄱㅑㄹ -10155
ㄱㅜㅊㅣ -10156
▁ㅇㅕㅈㅜ -10157
▁ㅍㅐㄴㅓㄹ -10158
ㄴㅜㄴ -10159
▁ㅍㅛㅂㅏㅇ -10160
ㅔㅅㅡㄹㄹㅣㅇ -10161
▁ㅍㅡㄹㅗㄹㅔㅅㅡㄹㄹㅣㅇ -10162
▁ㅂㅜㅅㅡ -10163
▁ㅇㅜㅍㅏ -10164
▁ㅎㅏㄹㅣ -10165
ㅂㅓㄴㄴㅚ -10166
▁ㅆㅡㄹㅔㄱㅣ -10167
▁ㅇㅏㅁㅣㅌㅏ -10168
▁with -10169
▁ㅇㅕㅇㅜㄴ -10170
▁ㅅㅡㅌㅗㅇㅓ -10171
▁ㄷㅗㄴㅓㄹㄷㅡ -10172
▁ㄱㅏㄹㅅㅜㄹㅗㄱ -10173
▁ㅈㅏㅇㄱㅣㄱㅏㄴ -10174
▁ㅍㅡㄹㅔㄴ -10175
ㅂㅜㄹㄱㅛ -10176
▁ㄱㅡㄷㅏㅈㅣ -10177
▁IN -10178
ㅏㅇㅣㅅㅡ -10179
▁ㅂㅏㅇㅅㅏㄴ -10180
▁ㅎㅣㄹㅗㅅㅣ -10181
▁ㄲㅗㄱㄷㅐㄱㅣ -10182
▁ㅇㅏㄹㅏㅂㅣㅇㅏ -10183
▁1800 -10184
▁ㅁㅏㅇㅑ -10185
▁ㄱㅕㅇㅂㅜ -10186
▁ㅆㅡㅅㅣㅁㅏ -10187
▁ㅌㅗㅅㅣ -10188
▁ㅁㅗㅌㅓ -10189
▁ㅍㅔㄴㅣ -10190
▁ㄴㅜㅈㅓㄱ -10191
▁ㅇㅝㄴㅂㅗㄴ -10192
▁ㅊㅓㅇㅅㅏㄴ -10193
▁ㄱㅣㄴㅕㅁㄱㅘㄴ -10194
▁ㄷㅡㄹㅏ -10195
▁ㄱㅕㅇㄱㅘ -10196
▁ㅂㅜㄴㅊㅜㄹ -10197
▁ㅅㅏㅁㅊㅗㄴ -10198
▁ㅇㅣㅂㄱㅏㄱ -10199
▁ㅈㅓㅇㄹㅣㅂ -10200
▁ㄱㅐㅇㅣㄴㅈㅓㄴ -10201
▁ㅌㅐㄱㅡ -10202
▁ㅎㅣㄹㅏ -10203
▁ㅁㅗㅎㅏㅁ -10204
▁ㅇㅜㄹㅍㅡ -10205
ㅣㅇㅓㄴㅅㅡ -10206
▁ㄷㅏㄴㅁㅕㄴ -10207
▁ㅎㅡㅇㅅㅓㄴ -10208
▁ㅍㅡㄹㅏㄴㅊㅔ -10209
▁ㅂㅏㅇㅅㅏㅅㅓㅇ -10210
▁ㄴㅣㅋㅗㄹㄹㅏㅇㅣ -10211
▁ㅈㅓㅇㅇㅠ -10212
▁ㅋㅗㅁㅣㄱ -10213
▁ㅎㅕㅇㅈㅗ -10214
▁ㄱㅕㅇㅇㅣㄴ -10215
▁ㄴㅏㄹㅋㅏㄹ -10216
▁ㅈㅗㅂㅏㄴㄴㅣ -10217
▁ㅇㅗㅅㅏㅋㅏㅂㅜ -10218
ㅏㄵ -10219
▁ㄹㅣㅁㅏㄴ -10220
▁ㄱㅜㄴㅅㅏㄴ -10221
▁ㄷㅗㅇㅛㅌㅗㅁㅣ -10222
ㅏㄱㅅㅡ -10223
ㅏㅅㅣㅇㅏ -10224
▁ㄱㅜㅎㅕㅇ -10225
▁ㅋㅐㅅㅓㄹ -10226
▁ㅊㅏㅇㄴㅕㅇ -10227
▁ㅌㅡㄱㄱㅝㄴ -10228
▁Cl -10229
ㄹㅜㄴ -10230
▁ㅅㅗㅈㅏ -10231
▁ㅅㅡㅋㅏㅇㅜ -10232
▁ㄱㅓㅁㅊㅜㄹ -10233
▁ㅍㅐㅁㅣㄹㄹㅣ -10234
11 -10235
act -10236
ㅅㅏㅇㅘ -10237
ㅎㅏㅋㅣ -10238
▁ㅈㅏㅎㅕㅇ -10239
▁ㅍㅣㅇㅋㅡ -10240
▁ㅂㅏㄹㅋㅏㄴ -10241
▁ㅈㅓㄴㅇㅕㅁㅂㅕㅇ -10242
▁ㅈㅔㄹㅣ -10243
▁ㄴㅗㄴㅎㅏ -10244
ㅇㅝㄴㄱㅜㄴ -10245
▁ㅊㅜㅇㅊㅓㅇㄷㅗ -10246
▁LA -10247
ㅈㅜㅇㅣㄴ -10248
▁ㄷㅗㅅㅓㄴ -10249
ys -10250
▁ㅁㅔㅁㅗ -10251
▁ㄱㅣㅅㅡㄺ -10252
▁ㅇㅓㄷㅜㅁ -10253
▁ㅈㅜㄴㅈㅜ -10254
▁ㅎㅓㄴㅅㅣㄴ -10255
▁ㄱㅏㄴㅏㄱㅏㅇㅘ -10256
▁ㅎㅛㄱㅗ -10257
▁ㅂㅗㅂㅗㄱ -10258
▁ㄲㅡㄶㅇㅣㅁㅇㅓㅄㅇㅣ -10259
▁ㅊㅏㄹㅡ -10260
▁ㅅㅏㅇㅇㅡㅇ -10261
▁ㅈㅜㅇㄹㅕㅇ -10262
▁ㅎㅕㄴㄱㅏㅁ -10263
▁ㄱㅣㄴㅕㅁㅂㅣ -10264
pt -10265
▁Ad -10266
▁ㄷㅡㅇㄱㅣ -10267
▁ㄱㅝㄴㅈㅏㅇ -10268
ㅌㅏㅋㅔ -10269
▁ㄹㅣㅈㅗ -10270
▁ㅁㅗㄴㅏ -10271
▁ㅌㅡㄹㅔㅇㅣ -10272
▁GO -10273
▁ㅅㅜㅁㅗㄱ -10274
▁ㄱㅜㄴㅎㅏㅁ -10275
▁ㄴㅠㅇㅛㄱㅈㅜ -10276
▁ㄴㅏㅁㄷㅗㅇㅅㅐㅇ -10277
ㄹㅜㄱ -10278
▁ㄱㅛㄹㅑㅇ -10279
▁ㄴㅏㅁㅁㅐ -10280
▁ㄱㅘㄴㅈㅓㄹ -10281
▁ㅅㅓㄴㄷㅗㅇ -10282
ㅓㅇㅣㄹㅇㅡㅋㅣ -10283
▁ㅂㅜㄹㄹㅓㅇㅣㄹㅇㅡㅋㅣ -10284
▁ㅂㅡㄹㅏㄴ -10285
▁ㅇㅜㅁㅜㄹ -10286
▁ㅈㅓㄴㅂㅏㅇ -10287
ㄱㅣㄴㅕㅁㅁㅜㄹ -10288
▁ㄹㅗㅈㅓ -10289
▁ㅇㅝㄴㅓ -10290
▁ㅁㅏㅂㅡㄹ -10291
▁ㄱㅏㅇㄱㅏㄴ -10292
▁ㅈㅘㅊㅡㄱ -10293
▁ㅅㅗㅅㅜㅈㅏ -10294
ass -10295
▁ㄱㅗㅊㅜ -10296
▁ㅎㅣㅁㅔ -10297
▁ㄱㅗㅇㄱㅗ -10298
▁ㄷㅏㅇㅅㅜ -10299
▁ㅊㅓㄹㅍㅖ -10300
▁ㅍㅣㅇㅏㄴ -10301
▁ㅇㅕㄴㅂㅗㅇ -10302
▁ㄱㅛㅇㅠㄱㅊㅓㅇ -10303
ㅗㄴㅔ -10304
▁ㅇㅏㅁㅜㄱ -10305
▁ㅈㅓㄴㅅㅣㅎㅚ -10306
▁ㅅㅡㅋㅡㄹㅣㅂㅌㅡ -10307
ㄹㅐㄴ -10308
▁ㅇㅣㄹㅓㅎ -10309
▁ㅂㅗㄹㄹㅣㅂㅣㅇㅏ -10310
▁ㅅㅗㅁㅗ -10311
▁ㅋㅏㅇㅜ -10312
▁ㄹㅣㅂㅗㄴ -10313
▁ㅈㅟㅅㅗㄱ -10314
▁ㄷㅔㅅㅡㅋㅡ -10315
▁ㅅㅏㄴㅊㅜㄹ -10316
▁ㅇㅏㄹㄹㅔㄱㅅㅏㄴㄷㅡㄹㅣㅇㅏ -10317
ㅑㅂㅏ -10318
▁ㅅㅣㅋㅗ -10319
▁ㅂㅗㅅㅓㅇ -10320
▁ㅈㅓㄴㄱㅜ -10321
▁ㅊㅜㅊㅓㅁ -10322
▁ㄱㅗㄱㅁㅜㄹ -10323
▁ㄱㅜㅇㅈㅜㅇ -10324
▁116 -10325
▁ㅇㅓㄹㅚ -10326
▁ㄷㅟㅉㅗㄱ -10327
▁ㅅㅓㄱㅂㅜㄹ -10328
▁ㅇㅏㄹㅣㅅㅡㅌㅗ -10329
▁ㅊㅗㅇㄷㅐㅈㅜㄱㅛ -10330
▁ㅁㅠㅈㅣㅅㅕㄴ -10331
▁ㅂㅜㄱㅇㅏㅍㅡㄹㅣㅋㅏ -10332
▁ㅇㅓㄷㅡ -10333
▁ㅌㅚㅈㅓㄱ -10334
▁ㅍㅏㄹㄹㅏ -10335
▁ㅅㅔㄱ -10336
▁ㄲㅡㄹㄹ -10337
▁ㅇㅜㅎㅚ -10338
▁ㅈㅣㄹㅅㅗ -10339
▁ㅎㅏㄱㄷㅐ -10340
▁ㅅㅡㄹㄹㅏㅂㅡ -10341
▁ㅁㅏㅇㅐ -10342
▁ㅌㅡㄹㅣㄱ -10343
▁ㄱㅕㅇㅈㅏㄱ -10344
ㅋㅡㄹㄹㅔㅅㅡ -10345
▁ㄲㅐㅈㅣ -10346
▁ㅎㅜㅁㅊㅣ -10347
▁ㅂㅜㄴㄹㅑㅇ -10348
▁ㅇㅏㄴㄱㅕㅇ -10349
▁ㅈㅜㅇㅇㅏㅇㅇㅏㅅㅣㅇㅏ -10350
▁Br -10351
ㅋㅡㄹㅏ -10352
▁ㅎㅏㄴㅌㅔ -10353
ㅇㅕㄱㅎㅏㄱ -10354
▁ㅅㅏㅇㄱㅕㅇ -10355
▁ㅅㅣㄴㅊㅜㄱ -10356
▁ㅎㅏㅁㅅㅓㄴ -10357
▁ㅋㅐㅅㅓㄹㅣㄴ -10358
▁ㄱㅡㄹㅏㄴ -10359
▁ㄱㅓㅈㅜㅈㅣ -10360
▁CN -10361
ㅎㅡㄹ -10362
ㅅㅏㅇㅓㅂ -10363
▁ㅅㅣㄹㅁㅜ -10364
▁ㅇㅣㅂㅜㄱ -10365
▁ㄱㅏㄱㅅㅐㄱ -10366
▁ㅂㅏㄹㄹㅕㅇ -10367
▁ㅎㅓㄴㅈㅓㅇ -10368
▁ㅂㅏㄹㄹㅔㄴㅅㅣㅇㅏ -10369
ㅋㅜㅂㅓ -10370
▁ㄷㅔㄹㅌㅏ -10371
▁1897 -10372
▁ㅁㅔㄹㅏ -10373
▁ㅎㅠㄱㅏ -10374
▁ㅌㅐㅂㅐㄱ -10375
▁ㅍㅕㅇㅊㅏㅇ -10376
▁ㅇㅓㄷㅡㅂㅔㄴ -10377
▁ㄴㅏㄹㅋㅏㄹㅗㅂ -10378
ㄱㅏㅎ -10379
ream -10380
▁ㄱㅏㅅㅏㄴ -10381
▁ㅅㅐㄱㅊㅐ -10382
▁ㄱㅣㄱㅘㄴㅊㅗㅇ -10383
▁ㅂㅏㅇㅅㅗㅇㅇㅣㄴ -10384
▁ㅁㅣㅋ -10385
▁1860 -10386
▁ㄷㅗㅇㅎㅕㅇ -10387
▁ㅈㅏㅇㅂㅕㄱ -10388
▁ㅁㅓㅇ -10389
▁ㄱㅣㅂㅜㄴ -10390
▁ㅁㅗㄴㅌㅔ -10391
▁ㅅㅣㄴㅈㅗ -10392
ㅅㅏㄴㅁㅐㄱ -10393
▁ㅂㅜㄹㅅㅣㄴ -10394
▁ㅇㅔㄷㅣㅅㅕㄴ -10395
▁2022 -10396
▁ㅂㅓㅌㅣ -10397
▁ㄷㅐㅊㅜㄹ -10398
▁ㅎㅘㅅㅜㄴ -10399
▁Ex -10400
▁Is -10401
▁ㅂㅔㄹㄹㅏ -10402
▁ㅅㅏㅇㅂㅓㅂ -10403
ㅁㅏㅅ -10404
▁ㅂㅣㅈㅏ -10405
▁ㅈㅏㅂㅣ -10406
ㄹㅣㄹㄹㅏ -10407
▁ㅈㅓㄴㅇㅟ -10408
▁ㄷㅡㅇㅇㅛㅇ -10409
▁220 -10410
▁NGC -10411
ㅋㅏㄴㅗ -10412
▁ㅊㅟㅁㅣ -10413
▁ㄴㅗㅇㅂㅜ -10414
▁ㅁㅏㄷㅏㅇ -10415
▁ㄱㅛㄷㅗㅅㅗ -10416
▁ㅎㅘㄱㅈㅣㄴ -10417
▁ㅇㅘㅇㅣㄹㄷㅡ -10418
▁ㅅㅔㅂㅏ -10419
▁ㄴㅐㅁㅅㅐ -10420
▁ㅁㅜㄲㅇㅣ -10421
▁ㅅㅠㅌㅣㅇ -10422
▁ㅋㅗㄴㅌㅔ -10423
▁ㄱㅏㅇㄴㅏㅁㄱㅜ -10424
▁ㄱㅡㄹㅔㅇㅣㅌㅡ -10425
▁ㄹㅣㅎㅣ -10426
▁ㅎㅚㅍㅣ -10427
▁ㄱㅕㄴㅇㅣㄴ -10428
▁ㅇㅣㄴㅈㅣㄹ -10429
▁122 -10430
▁ㄷㅐㄷㅜ -10431
▁ㅋㅏㅌㅏㄹㅡ -10432
▁con -10433
▁ㅁㅓㅅㅡ -10434
▁ㅁㅗㅇㅛㅇ -10435
▁ㄱㅗㅇㅊㅓㄴ -10436
▁ㅁㅏㅋㅏㅇㅗ -10437
▁ㅁㅔㅋ -10438
▁ㅇㅛㅇㅑㄱ -10439
▁ㅎㅜㅈㅏㄱ -10440
▁ㄷㅏㅋㅔㄷㅏ -10441
▁ㅁㅗㄹㅣㅅㅡ -10442
▁ㅂㅏㄴㄱㅜㄴ -10443
▁ㅂㅓㅋㅡㄹㄹㅣ -10444
▁ㅇㅣㄹㅂㅜㅂㅜㄴ -10445
▁ㅂㅡㄹㄹㅣ -10446
▁ㅎㅛㅈㅗㅇ -10447
▁ㅂㅐㅇㅜㅈㅏ -10448
▁ㅇㅣㅈㅜㅎㅏ -10449
▁ㅇㅠㄴㅣㄱㅅㅡ -10450
▁ㅇㅓㄷㅡㅂㅔㄴㅊㅓ -10451
▁ㅈㅗㅎㅕㅇ -10452
▁ㅈㅓㄴㅅㅏㄴ -10453
▁ㅁㅣㄴㄱㅏㄴㅇㅣㄴ -10454
ㅗㄹㅜ -10455
ㅔㄹㅌㅡ -10456
▁ㅅㅜㄹㅛ -10457
▁ㄷㅗㄹㄱㅣ -10458
▁ㅍㅏㄹㅏㄱ -10459
▁ㅈㅣㄷㅗㅂㅜ -10460
▁ㄹㅜㅌㅏ -10461
▁ㅂㅡㄹㅜㅅㅡ -10462
▁ㅈㅗㅇㅈㅓㅁ -10463
▁ㅈㅣㅋㅕㅂㅗ -10464
▁ㅍㅗㅅㅡㅌㅓ -10465
▁ㅇㅏㅁㅣㄴㅗㅅㅏㄴ -10466
▁ㅊㅓㄴㅇㅕㄴㄱㅣㄴㅕㅁㅁㅜㄹ -10467
ㅐㄱㅗㄹ -10468
▁ㄲㅐㄲㅡㅅ -10469
▁ㅈㅓㄹㅕㅁ -10470
ㅂㅏㅇㅇㅜㄹ -10471
▁ㅌㅡㄹㅣㅍㅡㄹ -10472
▁ㅅㅔㄹㅏ -10473
▁ㄱㅕㅇㅈㅔㅎㅏㄱㅈㅏ -10474
▁ㅌㅗㅁㅣ -10475
▁ㅊㅟㅎㅏㅇ -10476
▁ㅂㅏㄴㄱㅗㅇ -10477
▁ㅇㅏㄹㅍㅡㄹ -10478
▁ㅁㅔㅋㅓㄴㅣㅈㅡㅁ -10479
▁ㅍㅔㅇㅣㅅㅡㅂㅜㄱ -10480
▁;& -10481
ㅌㅡㅍㅔ -10482
▁ㅅㅣㄴㅗ -10483
▁ㅁㅐㄱㄷㅗㄴ -10484
▁ㅅㅏㅇㅌㅡㅍㅔ -10485
▁ㅈㅜㅇㄱㅗㅇㅇㅓㅂ -10486
ㅋㅏㅌㅏ -10487
▁ㄱㅏㅇㅢ -10488
▁ㅁㅏㄱㅅㅡ -10489
▁ㅂㅏㄱㅈㅣ -10490
▁ㅇㅢㄱㅕㄹ -10491
▁ㅁㅣㄴㅔㅅㅗ -10492
▁ㄸㅓㄱ -10493
ㅏㄷㅏㄺ -10494
ㅐㄱㅅㅡ -10495
▁ㄲㅏㄷㅏㄺ -10496
▁ㄱㅗㅇㅎㅘㅇ -10497
▁ㅅㅡㅋㅞㅇㅓ -10498
▁ㅅㅣㄴㄷㅗㅇ -10499
▁ㅅㅗㄹㄹㅜㅅㅕㄴ -10500
▁ㄹㅡㅁ -10501
▁ㅊㅔㅋㅡ -10502
▁ㅎㅗㄹㅣ -10503
▁ㅇㅣㅅㅗㅇ -10504
▁ㅈㅗㅇㅍㅏ -10505
▁ㄱㅜㄴㅊㅓㅇ -10506
▁ㅈㅓㄹㄷㅏㄴ -10507
▁ㅅㅡㅌㅡㄹㅏㅇㅣㅋㅡ -10508
ㄹㄹㅏ -10509
▁ㄴㅗㅇㅣ -10510
▁ㅎㅏㅍㅡ -10511
▁ㅅㅣㅇㅏㄴ -10512
▁ㅈㅓㅇㅈㅜ -10513
▁ㄷㅡㄹㅔㅅㅡ -10514
▁ㅇㅕㄴㄷㅐㄱㅣ -10515
▁ㅂㅓㅂㅈㅓㅇㄷㅗㅇ -10516
ii -10517
▁ㄱㅜㅇㅑㄱ -10518
▁ㅅㅗㅎㅐㅇ -10519
▁ㅇㅏㅍㅗㄹㄹㅗ -10520
ㅓㅈㅣㄴ -10521
▁ㅇㅛㅇㅇㅏㅁ -10522
ㅂㅡㄹㅣㅇㅔㄹ -10523
▁ㄲㅏㄲ -10524
▁ㄱㅏㅇㅕㄹ -10525
▁ㄱㅡㅂㅅㅜ -10526
▁ㄷㅣㅌㅡㄹ -10527
▁ㅅㅏㅈㅓㄱ -10528
▁ㅍㅏㅂㅕㅇ -10529
▁ㄱㅗㅇㅅㅗㄴ -10530
▁ㅇㅏㄴㅅㅏㄴ -10531
▁ㄱㅗㅇㅇㅛㅇㅇㅓ -10532
▁ㅇㅖㅁㅕㅇ -10533
▁ㅁㅗㅌㅣㅂㅡ -10534
ㅅㅡㄹㄹㅣ -10535
▁ㄷㅗㅇㅈㅗ -10536
▁ㅁㅣㄹㄹㅏㄴ -10537
▁ㅋㅓㄴㅌㅡㄹㅣ -10538
clude -10539
ㅋㅗㅂㅌㅓ -10540
▁ㄱㅏㄹㄹㅐ -10541
▁ㅇㅣㄹㄱㅘㄹ -10542
▁ㅈㅏㅇㅎㅡㅇ -10543
▁ㅁㅏㄹㅏㅌㅗㄴ -10544
▁ㅎㅡㅇㅅㅓㄴㄷㅐㅇㅝㄴㄱㅜㄴ -10545
▁ㅂㅗㅌㅡ -10546
▁ㅇㅡㅁㅎㅑㅇ -10547
▁ㅈㅣㄴㅈㅓㄴ -10548
▁ㅈㅣㄴㅎㅐㅇㅈㅏ -10549
▁ㄹㅗㅍ -10550
▁ㄱㅏㄱㅖ -10551
▁ㅌㅣㅋㅗ -10552
▁ㄹㅗㄹㅓㄴ -10553
▁ㅅㅓㄱㅎㅚ -10554
▁ㅊㅓㅇㅅㅐㄱ -10555
▁ㄹㅣㄷㅓㅅㅣㅂ -10556
ㄹㅜㄹ -10557
ㄱㅏㄴㅈㅣ -10558
▁ㅁㅜㄹㄱㅏ -10559
▁ㅅㅏㅇㄱㅏ -10560
▁ㅂㅏㄴㅈㅓㄴ -10561
▁ㅋㅗㅅ -10562
ㄷㅗㅅㅡ -10563
▁ㄴㅏㄹㅜ -10564
▁ㅁㅣㄹㄹㅓ -10565
▁ㅂㅕㄱㅎㅘ -10566
▁ㅇㅕㅁㅅㅗ -10567
▁ㅅㅓㄹㄹㅣㅂㅈㅏ -10568
ㅉㅓ -10569
ㅅㅜㅇㅝㄴ -10570
▁ㅅㅣㄹㅈㅐ -10571
▁ㅇㅣㅂㅈㅜ -10572
▁ㅈㅏㅇㅈㅔ -10573
▁ㅁㅏㅈㅂㅜㅌ -10574
▁ㄷㅚㄷㅗㄹㄹㅣ -10575
▁ㅅㅑㄴ -10576
▁ㄱㅏㅁㅇㅏㄴ -10577
▁ㄴㅏㄱㄷㅗㅇ -10578
▁ㅍㅔㄴㅅㅣㅇ -10579
▁ㅎㅏㅁㅇㅑㅇ -10580
iss -10581
▁ㅇㅑㅅㅣ -10582
ㅈㅏㅊㅣㅅㅣ -10583
▁ㄱㅐㄹㄹㅓㄹㅣ -10584
▁ㅌㅡㄱㅂㅕㄹㅈㅏㅊㅣㅅㅣ -10585
ick -10586
ㄸㅏㅇ -10587
▁133 -10588
ㅊㅡㅋㅡ -10589
▁ㅇㅣㅇㅓㄴ -10590
▁ㅂㅜㄱㄱㅕㅇ -10591
▁ㅍㅗㅌㅓ -10592
▁ㄷㅏㅇㅣㄹ -10593
ㄹㅣㅁㅍㅣㄱ -10594
▁ㄷㅣㅌㅡㄹㅗㅇㅣㅌㅡ -10595
▁ㅅㅕㄹ -10596
ㅇㅚㅅㅓㄴ -10597
ㅌㅡㄹㄹㅣ -10598
▁ㅂㅣㄴㄷㅗ -10599
▁ㅅㅏㅋㅏㅇㅣ -10600
▁ㅋㅡㄹㄹㅏㅋㅡ -10601
own -10602
▁CBS -10603
▁ㅇㅠㅈㅓㅇ -10604
▁ㅈㅏㅅㅐㅇ -10605
▁ㅊㅔㄹㅕㄱ -10606
▁ㄷㅓㅇㅜㄱㅇㅣ -10607
▁ㅅㅣㄷ -10608
▁1880 -10609
▁ㅇㅏㄴㅌㅣ -10610
▁ㄱㅏㅇㅊㅓㄹ -10611
▁ㅂㅏㄹㅡㅅㅑㅂㅏ -10612
▁ㄱㅛㄷㅐ -10613
▁ㅍㅏㅈㅣ -10614
▁ㅂㅜㅌㅇㅕㅈㅣ -10615
ake -10616
▁ㄴㅔㅇㅗ -10617
▁ㅊㅓㅈㅣ -10618
ㅍㅓㅅㅡㄴ -10619
▁ㅈㅔㅈㅏㄱㅅㅏ -10620
▁ㅅㅡㄹㅣㄹㅏㅇㅋㅏ -10621
▁++ -10622
▁ㅌㅓㅂㅗ -10623
▁ㅇㅣㄹㅍㅏ -10624
▁ㅅㅏㅇㅣㅌㅗ -10625
▁ㅋㅜㅂ -10626
▁ㅁㅜㅅㅡ -10627
ㅏㅁㅏㅆㅡ -10628
▁ㄷㅐㄱㅘㄴ -10629
▁ㅂㅔㄹㅡㄱ -10630
▁ㅊㅣㅁㅊㅔ -10631
▁ㅇㅣㄹㅈㅏㄹㅣ -10632
▁BM -10633
ㅅㄱㅏㅄ -10634
▁ㅊㅜㄹㅗㄴ -10635
▁ㅁㅣㄴㅈㅓㅇ -10636
▁ㅅㅛㄴ -10637
▁ㅇㅏㄴㅊㅣ -10638
▁ㅇㅗㄱㅅㅜㅅㅜ -10639
▁ㄷㅏㅇㅇㅕㄴㅎㅣ -10640
▁ㅅㅣㄹㅂㅓ -10641
▁ㅅㅣㅁㅇㅑ -10642
HO -10643
ㅜㅇㅏㄹㅡ -10644
▁ㅇㅣㅇㅘㄴ -10645
▁ㅁㅜㄴㄱㅕㅇ -10646
▁ㅅㅗㄴㄲㅗㅂㅎㅣ -10647
▁ㅍㅏㄹㅏㄱㅘㅇㅣ -10648
▁ㅎㅏㅁㅂㅜㄹㅡㅋㅡ -10649
▁ㅎㅣㅅㅏ -10650
▁ㄱㅣㅁㅈㅣ -10651
▁ㅈㅓㅇㅎㅘ -10652
▁ㅊㅏㅇㅇㅢ -10653
▁ㅅㅣㄴㅈㅓㅇ -10654
▁ㅈㅜㅇㅇㅝㄴ -10655
▁ㄱㅡㄱㅈㅏㄱㄱㅏ -10656
▁ㅇㅣㄱㅠ -10657
▁ㄱㅣㅁㅅㅜ -10658
▁ㄱㅣㅅㅓㅇ -10659
▁ㅂㅣㄹㄹㅏ -10660
▁ㅇㅗㅅㅏㄴ -10661
▁ㅈㅏㄱㅕㄹ -10662
▁ㅂㅓㄴㅅㅓㅇ -10663
▁ㅁㅜㅅㅜㄹ -10664
▁ㅇㅜㄹㅣㅁ -10665
▁ㅈㅓㅇㄱㅕㅇ -10666
▁ㄱㅓㅈㅣㅅㅁㅏㄹ -10667
▁ㅇㅏㄴㄷㅡㄹㅔㅇㅏ -10668
▁ㅅㅣㅇㅑ -10669
▁ㅇㅛㅇㅅㅓ -10670
▁ㅈㅏㅇㅇㅝㄴ -10671
▁ㅎㅔㄹㄹㅠㅁ -10672
UR -10673
▁Mus -10674
▁ㅁㅣㅈㅡ -10675
▁ㅍㅗㄱㄹㅗ -10676
▁ㄱㅘㅇㅇㅑㅇ -10677
▁ㅅㅣㄹㅈㅓㄱ -10678
▁ㅇㅣㅂㅇㅑㅇ -10679
▁ㅈㅓㅇㅂㅜㄱ -10680
▁ㅋㅣㅇㅖㅍㅡ -10681
Hz -10682
old -10683
ork -10684
▁ㄱㅏㅇㄷㅐ -10685
▁ㅂㅜㅇㅕㄱ -10686
▁ㄱㅡㄱㄷㅐ -10687
▁ㄱㅡㄱㄹㅏㄱ -10688
▁ㅁㅏㄷㅏㄱㅏ -10689
▁ㅇㅕㄴㄷㅗㅇ -10690
▁ㅈㅣㅁㅈㅏㄱ -10691
▁ㅇㅐㄹㅣ -10692
▁ㅇㅓㄹㅗ -10693
▁ㅇㅐㅊㅣㅇ -10694
▁ㅇㅜㅅㅏㅇ -10695
▁ㅇㅘㅇㅈㅓㅇ -10696
▁ㅁㅜㄱㅜㅇㅎㅘ -10697
ㄴㅡㄴ -10698
▁ㅈㅣㅊㅓㅇ -10699
▁ㅂㅗㄱㄱㅝㄴ -10700
▁ㅇㅠㄷㅐㄱㅛ -10701
▁ㅈㅓㄴㄱㅕㄱ -10702
▁ㅍㅐㄹㅓㄹㄹㅣㅁㅍㅣㄱ -10703
ㅌㅡㄹㅠㅁ -10704
▁ㅇㅏㄴㅏㅋㅣ -10705
▁ㄱㅓㅌㅂㅗㄱㅣ -10706
ㄱㅗㄱㄹㅣ -10707
▁ㅅㅗㄹㅕㅇ -10708
▁ㄱㅓㄴㄹㅠㅇ -10709
ㅇㅟㅅㅓㅇ -10710
▁ㅇㅣㅃㅏㄹ -10711
▁ㅅㅓㄴㅇㅜ -10712
▁ㅍㅔㄴㅓㄹ -10713
▁ㅎㅏㄴㅊㅡㅇ -10714
▁ㄷㅐㅅㅓㅇㅈㅓㄴ -10715
▁ㅁㅣㅅㅣㅅㅣㅍㅣ -10716
ㅏㄹㅜ -10717
▁ㅎㅗㅍㅡ -10718
▁ㅅㅜㅈㅜㅇ -10719
▁ㅈㅗㅅㅜ -10720
▁ㅈㅓㅇㅇㅣㄴ -10721
▁ㄴㅏㄹㅏㄴㅎㅣ -10722
▁ㅇㅏㄹㅐㅉㅗㄱ -10723
ㅅㅏㄱㅘㄴㅎㅏㄱㄱㅛ -10724
ㅏㄹㅗ -10725
▁ㅅㅜㅅㅣㅁ -10726
▁ㅈㅣㄴㄹㅛ -10727
▁ㅊㅕㄷㅡㄹ -10728
▁ㅎㅕㄴㅇㅏㄱ -10729
▁ㅁㅣㅅㅐㅇㅁㅜㄹ -10730
▁ㅇㅣㄴㄷㅣㅇㅐㄴㅏ -10731
▁ㅇㅣㅎㅏㅇ -10732
▁ㅎㅗㅇㅡㅇ -10733
▁ㄱㅜㄱㅇㅏㄱ -10734
▁ㅇㅐㅌㅡㄹㄹㅐㄴㅌㅏ -10735
() -10736
▁or -10737
▁ㅉㅡ -10738
▁pro -10739
ㅅㅡㄹㄹㅓ -10740
ㅈㅗㅇㅓㅂ -10741
▁ㅈㅔㅇㅘㅇ -10742
▁ㅅㅐㄹㅗㅇㅣ -10743
lo -10744
CAF -10745
▁ㅂㅗㄱㅏㅇ -10746
▁ㅇㅗㄹㅏㄱ -10747
▁ㅋㅗㄹㄹㅔ -10748
▁ㅋㅗㅅㅡㅌ -10749
▁ㄱㅏㅂㅇㅗㅅ -10750
▁ㅇㅕㄴㅁㅗㅅ -10751
▁ㅈㅏㅇㄹㅗㄱ -10752
▁ㅇㅣㄷㅗㅇㅎㅏ -10753
▁ㅍㅏㅇㅜ -10754
▁ㅎㅏㅇㅣㅁ -10755
▁ㄱㅛㅇㅠㄱㅂㅜ -10756
▁ㅎㅜㅂㅏㄴㄱㅣ -10757
▁ES -10758
▁ㅅㅏㅁㅜㅊㅗㅇㅈㅏㅇ -10759
ㅡㄹㅐ -10760
ㄱㅐㅁㅣ -10761
▁ㄴㅐㅅㅓㅇ -10762
▁ㅁㅜㅅㅡㄴ -10763
▁ㅅㅏㄹㅍㅣ -10764
▁ㅈㅗㅇㅁㅏㄹ -10765
▁ㄱㅡㄹㅣㅅㅡㅇㅣㄴ -10766
GA -10767
▁132 -10768
▁ㄷㅠㅇㅗ -10769
ㅅㅗㄱㄱㅣ -10770
▁ㅇㅠㄹㅕㅇ -10771
▁ㅈㅗㅂㅕㅇ -10772
▁ㅎㅕㅁㅇㅗ -10773
▁ㅇㅟㄴㅏㄹㅏ -10774
▁ㄱㅔㄹㅣㄹㄹㅏ -10775
▁ㅍㅣㄱㅗㅇㅣㄴ -10776
▁ㄱㅏㅆㅡ -10777
▁ㅅㅔㄴㅔ -10778
▁ㅈㅗㄱㅖ -10779
▁ㅅㅣㅁㅎㅘ -10780
▁ㅇㅟㅅㅐㅇ -10781
▁ㅇㅝㄴㄱㅕㄱ -10782
▁ㅈㅣㅂㄱㅕㄹ -10783
▁ㅅㅣㅁㅠㄹㄹㅔㅇㅣㅅㅕㄴ -10784
▁ㅇㅏㅊㅣ -10785
▁ㄱㅕㄹㅈㅔ -10786
▁ㅅㅔㄱㅅㅡ -10787
▁ㄱㅣㅁㅇㅗㄱ -10788
▁GDP -10789
ㅂㅔㅅㅡ -10790
▁ㄷㅓㅂㅣ -10791
▁ㅈㅐㅎㅐ -10792
▁ㅈㅣㄴㅅㅜ -10793
▁ㅎㅏㅇㅣㄹ -10794
▁ㄱㅚㄹㅗㅂㅎㅣ -10795
▁ㄱㅡㄹㅣㅁㅈㅏ -10796
▁ㄱㅏㅁㅊㅜ -10797
▁ㅈㅓㅂㅅㅜ -10798
▁ㄱㅕㄹㅍㅣㅂ -10799
▁ㄷㅜㄱㅐㄱㅗㄹ -10800
▁ㄷㅐㄱㅏㄱ -10801
▁ㄱㅘㄴㅇㅏㄱ -10802
▁ㅁㅏㅇㅜㅅㅡ -10803
▁ㅇㅣㄴㅌㅔㄹㅡ -10804
▁ㅇㅜㅊㅔㄱㅜㄱ -10805
▁ㄷㅗㄹㅇㅏㄷㅏㄴㅣ -10806
ix -10807
ㄷㅗㅁ -10808
▁ㅅㅏㄱㅏ -10809
▁ㅊㅣㅇㅜ -10810
ㅎㅐㅌㅡㄴ -10811
▁ㄱㅗㅇㅇㅑㄱ -10812
▁ㄱㅕㅇㅈㅐㅇㄹㅕㄱ -10813
▁ㄱㅏㅇㅎㅢ -10814
▁ㄱㅐㅎㅏㅇ -10815
▁ㅌㅏㅎㅕㅂ -10816
ㄱㅏㅈ -10817
ㄱㅣㄱㅜ -10818
▁ㅅㅏㅇㄱㅗ -10819
▁ㅊㅗㅇㅝㄴ -10820
▁ㅎㅜㅅㅗㄱㅈㅏㄱ -10821
▁ㅊㅜㅈㅗㅇ -10822
ㄸㅟ -10823
ㅌㅏㅁㅏ -10824
▁ㄴㅐㅇㅑ -10825
▁ㅁㅣㄴㅏ -10826
▁ㅅㅡㅋㅏㄴ -10827
▁ㅈㅓㅇㅂㅗㅇ -10828
▁ㅌㅏㄱㅇㅝㄹ -10829
▁ㅈㅜㄴㄱㅕㄹㅅㅡㅇㅈㅓㄴ -10830
▁DM -10831
▁Ro -10832
ence -10833
▁ㄴㅏㄲ -10834
ㅏㅇㅣㄷㅓ -10835
▁ㅅㅗㄱㅍㅕㄴ -10836
▁ㄷㅏㄹㅏㅁㅈㅟ -10837
▁ㅇㅣㄴㅍㅡㄹㅏ -10838
▁ㄱㅏㅂㅡㄹㅣㅇㅔㄹ -10839
▁ㄹㅣㅁㅗ -10840
▁ㄴㅐㄱㅓㄹ -10841
▁ㅅㅜㄴㅕㄴ -10842
▁ㅇㅛㅈㅔㅍㅡ -10843
▁ㅌㅡㄱㅅㅐㄱ -10844
▁ㅎㅏㅂㄷㅏㅇ -10845
▁ㄷㅐㅈㅣㅈㅣㄴ -10846
▁ㄷㅏㄴㅎㅐㅇㅂㅗㄴ -10847
▁NE -10848
ㅂㅡㄹㅏ -10849
ㅅㅔㄱㅣ -10850
▁ㅇㅝㅊㅣ -10851
▁ㅈㅜㅎㅘ -10852
ㅎㅗㄹㄹㅡㅁ -10853
▁ㄴㅗㅌㅐㅇㅜ -10854
▁kt -10855
▁ㅃㅓㄴ -10856
ㅎㅏㄹㅅㅣ -10857
▁ㄴㄷㅏㅁㅕ -10858
▁ㅅㅔㅅㅗㄴ -10859
▁ㅌㅡㄹㅣㄴㅣ -10860
▁ㅁㅐㄲㅡㄹㅓㅂ -10861
▁ㅅㅏㅁㄱㅜㄱㅅㅏㄱㅣ -10862
▁PR -10863
ㅊㅓㄴㅅㅏ -10864
ection -10865
▁ㅁㅣㅅㅖㄹ -10866
▁ㅇㅔㄹㄹㅣㅌㅡ -10867
▁ㅍㅗㄷㅗㄷㅏㅇ -10868
▁ㄱㅜㅅㅡ -10869
▁ㄱㅘㅅㅣㄹ -10870
▁ㅈㅐㄴㅏㄴ -10871
▁ㅍㅕㅇㅇㅏㄴㅂㅜㄱㄷㅗ -10872
▁USS -10873
▁ㄷㅜㅁ -10874
▁only -10875
▁ㄷㅗㅅㅏ -10876
ㅊㅜㄱㄱㅜ -10877
▁ㄱㅗㅇㅍㅏ -10878
▁ㅊㅏㄹㄹㅣ -10879
▁ㅅㅏㅋㅜㄹㅏ -10880
▁ㅎㅕㄴㅎㅘㅇ -10881
ㅡㄹㅌㅔ -10882
▁ㅎㅗㅈㅗㄱ -10883
ㅡㄹㅌㅔㅁㅕㄴ -10884
▁ㅇㅣㄹㅡㄹㅌㅔㅁㅕㄴ -10885
▁ㅃㅛ -10886
▁ㅍㅔㅅ -10887
▁ㄷㅠㅇㅓㄹ -10888
▁ㅇㅛㅂㅓㅂ -10889
▁ㄱㅏㄹㄹㅣㅇㅏ -10890
▁ㅈㅏㅇㄹㅗㄱㅛ -10891
▁ㄴㅗㅇㅅㅏㄴㅁㅜㄹ -10892
ㅍㅣㅇㅓㄴ -10893
▁Ph -10894
▁ㅇㅓㅉㅣ -10895
▁ㄱㅜㄱㅅㅜ -10896
▁ㅂㅔㄹㅌㅡ -10897
▁ㅊㅗㅇㄱㅣ -10898
ㅅㅏㄴㅅㅓㅇ -10899
▁ㄷㅡㅇㄱㅡㄱ -10900
▁ㅈㅓㄱㄱㅜㄴ -10901
▁ㅊㅜㄹㅅㅓㄱ -10902
▁ㅂㅗㅎㅔㅁㅣㅇㅏ -10903
▁ㄱㅡㄹㅓㅎㅈㅣㅁㅏㄴ -10904
▁ㄱㅗㅌㅗ -10905
▁ㅇㅗㅋㅣ -10906
▁ㄱㅏㄴㅅㅣㄴ -10907
▁ㅂㅏㄴㅇㅕㄱ -10908
▁ㅅㅏㅇㅇㅕㄴ -10909
▁ㅈㅡㄹㄱㅓㅂ -10910
▁ㅎㅗㅇㅁㅜㄴㄱㅘㄴ -10911
▁ㅅㅡㅌㅡㄹㅏㅇㅣㅋㅓ -10912
▁ㄱㅣㅈㅓ -10913
▁ㅅㅣㅈㅗㅇ -10914
▁ㅇㅡㄹㄲㅏ -10915
▁ㅊㅓㅇㅈㅏ -10916
▁ㅍㅕㅇㅁㅣㄴ -10917
▁ㅎㅕㄴㅈㅣㄱ -10918
▁ㅇㅏㄴㄷㅡㄹㅗ -10919
ㅍㅓㅇ -10920
▁ㅁㅣㅈㅜㄹㅣ -10921
▁ㄱㅡㄹㄹㅗㅂㅡ -10922
▁ㅎㅘㄹㅈㅜㄹㅗ -10923
▁ㅁㅗㅌㅓㅅㅡ -10924
▁ㅍㅡㄹㅐㅇㅋㅡㄹㄹㅣㄴ -10925
▁ㅇㅜㅈㅡㅂㅔㅋㅣㅅㅡㅌㅏㄴ -10926
▁ㅎㅠㄱㅔ -10927
▁ㄷㅏㄴㄱㅘ -10928
▁ㅇㅏㄹㄹㅐ -10929
ㅎㅐㅈㅣ -10930
▁ㄱㅣㅁㅁㅣㄴ -10931
▁ㅁㅏㄴㄴㅕㄴ -10932
▁ㅁㅏㄹㄴㅕㄴ -10933
▁ㅂㅣㅈㅜㅇㅓㄹ -10934
lass -10935
▁NAS -10936
▁ㄷㅡㄹㅔ -10937
▁ㅇㅗㅇㅗ -10938
▁ㅇㅢㄱㅘ -10939
ㅂㅗㅅㅓㄴ -10940
ㅇㅝ -10941
▁ㄱㅜㄱㅇㅠ -10942
▁ㄷㅗㄹㅇㅣㅂ -10943
▁ㅊㅏㅇㅅㅣㅈㅏ -10944
▁ㄱㅡㄹㅔㄱㅗㄹㅣㅇㅗ -10945
▁ㅍㅕㅇㅇㅏㄴㄴㅏㅁㄷㅗ -10946
▁La -10947
▁450 -10948
ㅅㅡㄹㄹㅏ -10949
▁ㅍㅛㅊㅏㅇ -10950
▁ㅂㅗㄱㅅㅣㄱ -10951
▁ㅇㅖㅈㅓㅇㅈㅏ -10952
▁un -10953
▁ㅅㅏㅇㄱㅣ -10954
ㅇㅕㄴㅎㅏㅂ -10955
▁ㅌㅏㅇㅣㅂㅔㅇㅣ -10956
▁ㅍㅡㄹㅐㄴㅅㅣㅅㅡ -10957
▁ㅇㅏㅇㅣㅅㅡㅎㅏㅋㅣ -10958
▁CEO -10959
▁Mar -10960
▁ㅇㅣㅎㅘㅇ -10961
▁ㅁㅐㄱㅓㅈㅣㄴ -10962
ance -10963
▁1885 -10964
▁ㅋㅏㅌㅏ -10965
ㅣㅂㅓㅅㅡ -10966
▁ㅇㅐㄹㄹㅣㅅㅡ -10967
▁ㅇㅑㅇㅅㅓㅇㅈㅏ -10968
▁ㅈㅜㅇㅇㅏㅇㅂㅜ -10969
▁To -10970
▁ㅁㅐㅅ -10971
ㅂㅕㄴㅇㅣ -10972
▁ㄱㅡㄱㄷㅗ -10973
▁ㅈㅐㅈㅣㄹ -10974
▁ㄱㅘㄴㄷㅗㅇ -10975
▁ㄷㅗㄹㅇㅕㄴㅂㅕㄴㅇㅣ -10976
▁ㄲㅜㅁㄲㅜ -10977
▁ㄷㅗㅇㅇㅛ -10978
▁ㅁㅔㄹㅣㄹ -10979
▁ㅇㅏㅍㅈㅏㅇ -10980
▁ㅇㅐㄴㄷㅓㅅㅡㄴ -10981
▁ㅈㅣㅂㅏㅇㅅㅏㄴ -10982
▁ㅇㅗㅋㅡㄹㄹㅐㄴㄷㅡ -10983
ㅁㅏㄹㅜ -10984
▁ㅈㅜㅈㅣ -10985
▁ㅌㅏㅅㅓㄱ -10986
▁ㅁㅏㄹㅡㅋㅗ -10987
▁ㅂㅣㄴㅂㅓㄴ -10988
▁ㅇㅏㅇㅣㅇㅗ -10989
▁1870 -10990
▁ㅅㅡㄹㅗ -10991
▁ㅅㅏㅎㅏㄱ -10992
▁ㅅㅗㄱㅈㅜ -10993
▁ㅇㅔㅇㅣㅂ -10994
▁ㄱㅏㅁㄷㅗㅇ -10995
ild -10996
▁1871 -10997
▁ㅇㅣㄷㅔ -10998
ㅅㅣㅂㅈㅏ -10999
▁ㅎㅘㄱㄱㅗ -11000
▁ㄴㅣㅋㅗㄹㄹㅏ -11001
▁ㅊㅓㅇㄷㅗㅇㄱㅣ -11002
▁ㅁㅏㄷㅏㄱㅏㅅㅡㅋㅏㄹㅡ -11003
▁ㅅㅜㅇㅕㅁ -11004
▁ㅁㅕㅇㅂㅜㄴ -11005
▁ㅇㅕㄹㅅㅣㅁ -11006
▁ㅅㅜㅇㅝㄴㅅㅣ -11007
ear -11008
▁GN -11009
ㅌㅔㄴㅏ -11010
▁ㅅㅜㅁㅈㅣ -11011
▁ㅇㅑㅁㅏㄱㅏ -11012
▁ㅋㅏㄹㅂㅐㅇ -11013
▁ㅇㅠㄴㅂㅗㅅㅓㄴ -11014
▁ㅈㅣㄹㅗ -11015
▁ㅅㅗㅇㅜㄹ -11016
▁ㅂㅏㄱㅎㅓㄴ -11017
▁ㅌㅏㅂㅅㅣㄴ -11018
▁ㅎㅏㅂㅅㅡㅂㅜㄹㅡㅋㅡ -11019
ㅊㅔㄱㅗ -11020
▁ㅇㅠㅂㅜ -11021
▁ㅇㅢㅈㅏ -11022
ㅂㅏㄴㄱㅜ -11023
▁ㅅㅓㅈㅏㅇ -11024
▁ㅅㅜㄱㅈㅜ -11025
▁ㅈㅜㅇㅅㅐㅇ -11026
ㄹㅏㄴㄷㅡㅇㅓ -11027
ㅊㅔㄱㅗㅂㅣㄴㅏ -11028
ㅋㅗㅌㅗ -11029
▁ㅇㅠㄹㅓ -11030
ㅂㅏㅇㅑㅅㅣ -11031
▁ㅇㅠㄹㅛ -11032
▁ㄱㅕㄱㅈㅏ -11033
▁ㅂㅐㅅㅗㄱ -11034
▁ㅇㅕㄱㄷㅗ -11035
▁ㅂㅏㄹㄱㅏㄱ -11036
▁ㄷㅣㄹㅔㄱㅌㅓ -11037
▁ㅇㅏㄹㄹㅐㅅㅡㅋㅏ -11038
▁ㅂㅜㄱㅏ -11039
ㅌㅣㄱㅅㅡ -11040
▁ㅈㅓㅇㄱㅜㄱ -11041
▁ㅅㅔㄴㄱㅗㅋㅜ -11042
▁ㅇㅠㄹㅓㅍㅣㅇㅓㄴ -11043
ㄷㅣㅂ -11044
▁ㅈㅐㅇㅚ -11045
▁ㅎㅏㅁㅈㅏ -11046
▁ㅎㅘㅇㄷㅗ -11047
▁ㅇㅏㅍㅉㅗㄱ -11048
▁ㅋㅏㅅㅡㅌㅣㅇ -11049
▁SL -11050
▁1600 -11051
▁ㄹㅗㄹㅣ -11052
▁ㅅㅔㅂㅡㄴ -11053
▁ㅅㅗㅍㅣㅇㅏ -11054
▁ㅂㅜㅇㅝㄴㄱㅜㄴ -11055
▁1200 -11056
▁ㅇㅙㄱㅜ -11057
▁ㅎㅏㄱㅗ -11058
▁ㅈㅓㄱㅕㄱ -11059
▁ㅈㅏㅅㅔㅎㅣ -11060
▁ㄹㅗㄹㅔㄴㅅㅡ -11061
ㄱㅗㅅㅗㄱㄷㅗㄹㅗ -11062
▁ㅇㅔㄴㅈㅣㄴㅣㅇㅓ -11063
EM -11064
ㄹㅡㄴ -11065
▁ㅅㅓㄴㅈㅏㅇ -11066
▁ㄱㅗㅇㅍㅛ -11067
▁ㅅㅣㄱㅜㄱ -11068
▁ㅅㅐㅇㅅㅓㄴ -11069
▁ㅎㅕㄴㅎㅐㅇ -11070
▁vs -11071
▁ㄴㅓㄱ -11072
ㅇㅏㄱㅣ -11073
▁ㅎㅘㄹㅏㅇ -11074
include -11075
▁ㄴㅐㅁㅜㅂㅜ -11076
▁ㅍㅏㄴㅏㅁㅏ -11077
▁ㅅㅗㄱㅇㅣ -11078
▁ㅌㅗㅇㅌㅡㄹㅇㅓ -11079
ㅐㅂ -11080
▁240 -11081
ㅅㅡㄴㅓㄹ -11082
▁ㅈㅓㅇㄱㅘㄴ -11083
▁ㄷㅗㅇㅅㅓㅇㅇㅐㅈㅏ -11084
ype -11085
ivers -11086
▁ㄱㅗㅁㅏ -11087
▁ㅊㅜㄹㅣ -11088
ㅅㅏㅅㅏㅇ -11089
▁ㅁㅐㅇㅅㅔ -11090
▁ㄱㅣㅁㅂㅕㅇ -11091
▁ㅇㅗㄴㄱㅏㅈ -11092
ㅇㅟㅇㅝㄴㅎㅚ -11093
ㅍㅏㅋㅡ -11094
▁ㅇㅛㅈㅣ -11095
▁ㅅㅐㅇㄱㅖ -11096
▁ㅎㅏㅇㅣㄷㅡ -11097
▁ㅇㅏㅅㅡㄴㅓㄹ -11098
▁ㄱㅣㅁㄱㅠㅅㅣㄱ -11099
▁ㅈㅡㅁ -11100
ㅈㅣㄹㅣ -11101
▁ㅇㅟㅅㅡ -11102
▁ㅂㅏㄹㅈㅏㄱ -11103
▁ㅋㅏㅍㅡ -11104
▁ㅈㅗㄱㅘㅇ -11105
▁ㅅㅏㅇㅎㅐㅇ -11106
▁ㅁㅐㄴㅎㅐㅌㅡㄴ -11107
▁ㅂㅗㄱㅇㅡㅁㅅㅓ -11108
▁AD -11109
▁Sy -11110
ㅌㅔㅆㅡ -11111
▁ㅇㅏㅃㅏ -11112
▁ㅇㅘㅇㅣㅂ -11113
ㅊㅓㄴㅁㅕㄴ -11114
▁ㄷㅗㄹㅊㅜㄹ -11115
▁ㅍㅡㄹㅔㅅㅡ -11116
▁": -11117
▁ㅇㅓㄸㅓㅎ -11118
▁ㅌㅜㅎㅏㅇ -11119
▁ㄱㅏㅁㄱㅡㅁ -11120
▁ㅋㅏㅌㅓ -11121
ㅗㅇㅑㅁㅏ -11122
▁ㄴㅏㄱㅎㅏ -11123
▁ㄴㅡㅇㅅㅓㄴ -11124
▁ㅃㅏㄹㄱㅏㅎ -11125
▁ㅇㅏㅁㅎㅡㄱ -11126
▁ㅊㅓㅇㄹㅛㅇ -11127
▁ㅂㅗㄹㅅㅖㅂㅣㅋㅣ -11128
▁ㅃㅏㅈ -11129
▁ㅇㅣㄷㅡㄱ -11130
▁ㄹㅣㅈㅗㅌㅡ -11131
▁ㄱㅜㅁㅏㅁㅗㅌㅗ -11132
▁EBS -11133
▁ㄴㅗㅇㅅㅏ -11134
▁ㅈㅏㅇㄷㅐ -11135
▁ㄴㅏㅁㅅㅏㄴ -11136
▁ㅂㅣㄱㅌㅗㄹㅡ -11137
ㅜㅇㅑ -11138
▁ㅇㅗㄹㅏ -11139
▁ㅇㅠㅅㅡ -11140
▁ㅂㅕㅇㅁㅏ -11141
ㄹㅏㄴㄷㅡㅇㅣㄴ -11142
OV -11143
ans -11144
ㅂㅏㅁ -11145
▁ㅎㅛㅇ -11146
▁ㄹㅜㅋㅡ -11147
▁ㅅㅣㅇㅐ -11148
▁ㅇㅏㄹㄹㅔㄱㅅㅡ -11149
ㄴㅗㄴ -11150
ㅁㅣㄴㅏ -11151
ㅏㄹㅡㄷㅗ -11152
▁ㄴㅏㄴㅇㅣ -11153
▁ㄴㅐㅁㅕㄴ -11154
▁ㅁㅐㅈㅣㄱ -11155
▁ㄷㅗㅇㅊㅏㅁ -11156
▁ㅂㅜㄹㅎㅐㅇ -11157
▁ㄷㅐㅎㅏㅂㅅㅣㄹ -11158
▁ㄱㅜㄱㅂㅗ -11159
▁ㄷㅜㄹㅕㅂ -11160
ㅅㅏㅇㅣㄷㅡ -11161
▁ㅅㅓㅇㄹㅕㅇ -11162
▁ㅁㅜㅈㅗㄱㅓㄴ -11163
▁ㅅㅓㅈㅐㅍㅣㄹ -11164
▁ㄱㅣㅁㅈㅓㅇㅇㅡㄴ -11165
ㅅㅏㄹㅣ -11166
ㅌㅏㄹㅣ -11167
ㅅㅣㅁㅗㅌㅗ -11168
▁ㅇㅐㄴㄷㅡㄹㅜ -11169
▁ㄱㅕㄱㅊㅏ -11170
▁ㅎㅠㅇㄴㅗ -11171
ㅌㅏㅇㅣㄷㅡ -11172
▁ㅇㅑㅇㅇㅠㄱ -11173
▁ㅍㅕㄴㅈㅣㅂㅈㅏ -11174
ㅠㅇ -11175
ish -11176
▁ㄷㅐㅈㅏㅇㄱㅜㄴ -11177
▁ㅅㅓㅇㄴㅏㅁㅅㅣ -11178
TP -11179
▁@ -11180
▁ㄴㅛ -11181
▁ㅎㅗㅇㅢ -11182
▁ㅃㅛㅈㅗㄱ -11183
▁ㅅㅓㄴㄷㅐ -11184
▁ㅊㅏㅁㅅㅏ -11185
▁ㅎㅘㅇㅓㅁ -11186
ㅌㅔㄹㅣㅇㅏ -11187
▁ㅋㅏㅂ -11188
ㅣㅇㅏㅇㅓ -11189
▁ㄱㅛㅅㅣㄹ -11190
▁ㅂㅗㅇㅅㅜ -11191
▁ㅈㅏㅇㅈㅏ -11192
▁ㅍㅏㅁㅜㄴ -11193
▁ㄱㅜㅇㄱㅝㄹ -11194
▁ㅈㅏㅊㅣㅊㅔ -11195
▁ㄱㅜㅊㅓㅇ -11196
▁ㄱㅡㄹㄹㅐ -11197
▁ㅊㅜㄹㄱㅏ -11198
▁ㅈㅏㅂㅇㅏㅁㅓㄱ -11199
ke -11200
irl -11201
▁ㅋㅏㄴㅏ -11202
ㅁㅜㄱㅘㄴ -11203
▁ㅇㅔㄷㅡㅁ -11204
ㅁㅣㄹㅣㅌㅡ -11205
▁ㅈㅏㅇㄷㅏㄴ -11206
▁ex -11207
ㅎㅡㄴ -11208
▁ㅂㅐㅅㅜ -11209
▁ㅈㅗㄹㅖ -11210
▁ㅌㅏㅋㅔ -11211
▁ㅇㅗㄹㄷㅡ -11212
▁ㅈㅓㅇㅈㅔ -11213
▁ㅈㅔㄷㅗㅇ -11214
▁ㅈㅜㅇㅅㅏㅇ -11215
▁ㅎㅔㄹㄹㅣㅋㅗㅂㅌㅓ -11216
▁ㅂㅏㅇㅜ -11217
▁ㅋㅔㅇㅣㄴ -11218
▁ㄷㅐㄷㅐㄹㅗ -11219
▁ㅈㅓㄴㄴㅏㄹ -11220
▁ㅅㅣㅇㅐㅌㅡㄹ -11221
▁ㅎㅘㄹㅂㅏㄹㅎㅣ -11222
▁ㅁㅏㄹㅡㅋㅡㅅㅡㅈㅜㅇㅢ -11223
GM -11224
▁ㄹㅓㅂ -11225
▁ㅍㅜㄱ -11226
ㅁㅣㄹㅡ -11227
▁ㅇㅔㄹㅡㄴ -11228
▁ㅈㅏㅊㅣㅇ -11229
▁ㅈㅣㅅㅓㅇ -11230
▁ㅍㅡㄹㅔㅇㅣ -11231
▁ㄴㅔㅇㅣㅅㅕㄴㅅㅡㅋㅓㅂ -11232
▁ㅇㅏㅇㅛ -11233
▁ㅋㅔㄹㅏ -11234
▁ㄱㅘㄴㅁㅜㄴ -11235
▁ㅎㅏㄴㅗㅇㅣ -11236
▁ㄱㅗㅇㅁㅣㄴㅇㅘㅇ -11237
▁sc -11238
▁ㅎㅐㅈㅓ -11239
ㅍㅛㅇㅠㄹ -11240
▁ㄱㅕㅇㅅㅣ -11241
ㅗㄹㄹㅗㅈㅣ -11242
▁ㅁㅗㅁㅌㅗㅇ -11243
▁ㅊㅣㄴㅂㅜㄴ -11244
▁ㅁㅏㄴㅣㄹㄹㅏ -11245
▁ㅈㅔㅈㅗㅇㅓㅂ -11246
▁ㄷㅗㅇㄷㅐㅁㅜㄴ -11247
ㅓㅇㅣㄴ -11248
▁ㄱㅕㅇㅎㅢ -11249
▁ㅇㅣㅇㅑㅇ -11250
▁ㅌㅡㄹㅏㅇㅣ -11251
▁ㄷㅗㅇㅁㅜㄹㅇㅝㄴ -11252
AF -11253
ㄷㅠㅁ -11254
▁ㄱㅘㄹ -11255
▁ㄹㅣㄹㅏ -11256
▁ㅈㅏㅇㅟ -11257
▁ㅎㅘㄱㅣ -11258
▁ㅇㅓㄱㅜㄴ -11259
▁ㅇㅞㅇㅣㄴ -11260
▁ㅇㅣㅂㅅㅜ -11261
ㄷㅡㅇㅅㅣㄱ -11262
▁ㅅㅏㄱㅏㄱㅎㅕㅇ -11263
▁ㅇㅗㄹㅡㄴㅅㅗㄴ -11264
▁ㅇㅣㅌㅏ -11265
ㅅㅡㅋㅜㄹ -11266
▁ㅊㅗㅂㅣㅇ -11267
ㅏㄹㄹㅗㄱㅡ -11268
▁ㄸㅏㄹㅏㄱㅏ -11269
ㅞㄴ -11270
▁CM -11271
ㄴㅣㄲㅏ -11272
▁ㄱㅣㅂㅕㅇㄷㅐ -11273
▁ㅎㅐㄹㅣㅅㅡㄴ -11274
▁ㅁㅣㄱㅜㄴㅈㅓㅇ -11275
▁ㅂㅏㄱㅎㅓㄴㅇㅕㅇ -11276
▁ㅂㅏㄴㄹㅏㄴㄱㅜㄴ -11277
▁ㅇㅑㅌ -11278
ㅌㅣㅅㅣ -11279
▁ㅅㅜㄷㅏ -11280
▁ㅊㅏㄹㅣ -11281
▁ㅅㅣㅈㅜㅇ -11282
▁ㅂㅜㄴㄹㅠㄱㅜㄴ -11283
▁ㅂㅔㄴㅊㅣ -11284
▁ㅂㅣㄴㅡㄹ -11285
▁ㅋㅓㅍㅡㄹ -11286
▁ㅅㅏㅇㄱㅡㅂ -11287
▁ㅈㅣㅇㅂㅕㅇ -11288
▁ㅌㅗㅇㅇㅛㅇ -11289
▁ㄹㅜㄷㅗㄹㅍㅡ -11290
▁ㅎㅏㅁㄱㅕㅇㄴㅏㅁㄷㅗ -11291
OD -11292
▁ㅋㅡㅁ -11293
▁ㅎㅓㅈㅓㅇ -11294
▁ㅁㅜㄹㅗ -11295
▁ㅉㅣㄹㅡ -11296
▁ㅎㅏㅋㅣ -11297
▁ㅎㅏㅂㅏㄴ -11298
▁ㅋㅔㅇㅣㅍㅡ -11299
▁ㄱㅏㅈㅡ -11300
▁ㅆㅣㅇㅏ -11301
▁ㅇㅗㅈㅣ -11302
▁ㅅㅜㅇㅣㄴ -11303
▁ㅊㅏㅇㅛㅇ -11304
▁ㄱㅘㄴㅎㅐㅇ -11305
▁ㅅㅣㄴㅁㅜㄴㅅㅏ -11306
ㅋㅏㄹㅣ -11307
▁ㄱㅔㄹㅣ -11308
▁ㅂㅜㄴㄱㅘ -11309
▁ㅇㅣㅂㅏㅇ -11310
▁ㅅㅣㄴㅂㅏㄹ -11311
▁ㅇㅣㅅㅏㅂㅔㄹ -11312
▁ㅅㅣㄹㅎㅓㅁㅅㅣㄹ -11313
ㅁㅓㄴㅅㅡ -11314
▁ㅌㅡㄹㄹㅣ -11315
▁ㄹㅓㅅㅣㅇㅏㅇㅣㄴ -11316
▁ㅅㅡㅌㅗㄱㅎㅗㄹㄹㅡㅁ -11317
EG -11318
oun -11319
ㅍㅏㄹㅣ -11320
▁ㅁㅔㄴㅠ -11321
▁ㅇㅜㅇㅏ -11322
▁ㄱㅏㄴㅡㄹ -11323
▁ㅇㅏㅋㅣㅌㅏ -11324
▁ㅂㅣㅌㅏㅁㅣㄴ -11325
ㅇㅏㅇㅣㄹㄹㅐㄴㄷㅡ -11326
ㅅㅏㄱㅅㅡ -11327
ㅔㅇㅣㄹㅜ -11328
▁ㅈㅜㅇㅣㅁ -11329
▁ㅇㅏㅋㅣㄹㅏ -11330
▁ㅇㅗㄹㅗㅈㅣ -11331
▁ㅈㅏㅊㅣㅈㅜ -11332
▁ㅍㅡㄹㅗㄹㅣㄱㅡ -11333
ㅣㅁㅏ -11334
ㄷㅡㅅㅡㄴ -11335
▁ㅁㅏㄱㅎㅣ -11336
▁ㅅㅓㅁㅅㅔ -11337
▁ㄴㅗㅁ -11338
▁ㅍㅏㄷㅗ -11339
▁ㅁㅐㅋㅣㄴ -11340
▁ㅌㅗㅇㅇㅕㄱ -11341
▁ㅓㅇ -11342
▁ㅌㅔㄹㅣ -11343
▁ㅂㅜㄴㅅㅜ -11344
▁ㅊㅓㅇㅅㅗ -11345
▁ㅌㅣㅋㅔㅅ -11346
▁ㄴㅐㅇㅑㅅㅜ -11347
▁ㅊㅏㅇㅁㅜㄴ -11348
▁ㅌㅜㄹㅡㅋㅡ -11349
▁ㅈㅜㄹㄱㅓㄹㅣ -11350
ㄹㄹㅡㄴ -11351
ㅈㅣㅅㅡ -11352
ㅠㄹㄹㅓ -11353
▁ㅎㅐㅅㅜ -11354
▁ㅈㅐㅎㅘㄹ -11355
▁ㅊㅗㅇㅁㅜ -11356
▁ㄱㅡㄱㅎㅏㄴ -11357
fe -11358
▁ㅁㅗㅂ -11359
▁ㅁㅜㅊㅓㄱ -11360
▁ㅈㅘㅇ -11361
▁ㄷㅗㅁㅣ -11362
▁ㄹㅡㄴㅗ -11363
▁ㅊㅓㄴㄷㅗ -11364
▁ㅇㅏㄴㄴㅕㅇ -11365
lat -11366
▁ㄱㅕㅇㅈㅣㄹ -11367
▁ㄱㅣㅁㅇㅝㄴ -11368
▁ㅈㅡㅇㅇㅣㄴ -11369
▁ㅍㅡㄹㅏㅎㅏ -11370
▁ㅇㅕㄱㅅㅏㄱㅏ -11371
ㅓㅇㅇㅣ -11372
▁ㄱㅓㅁㅈㅓㅇ -11373
▁ㅋㅏㄹㄹㅓㅁ -11374
▁CH -11375
ical -11376
▁ㅋㅗㅋㅏ -11377
ㅉㅓㄷㅜㅇ -11378
ㅊㅏㅇㅎㅗ -11379
ㅋㅡㄹㄹㅏ -11380
▁ㄱㅏㄷㅡㄴ -11381
▁ㄴㅏㅅㅓㄴ -11382
▁ㅅㅜㅍㅣㄹ -11383
▁ㅅㅣㅈㅡㅇ -11384
ㅈㅓㅇㅇㅝㄴ -11385
▁ㄱㅏㄱㅅㅓㅇ -11386
▁ㄷㅏㄴㅏㅋㅏ -11387
▁ㅅㅓㄷㅐㅁㅜㄴ -11388
▁ㅊㅣㄴㅇㅟㄷㅐ -11389
▁ㅁㅏㅇㅗㅉㅓㄷㅜㅇ -11390
▁ㅍㅏㄴㅏ -11391
▁ㅁㅜㄴㄱㅗ -11392
▁ㅎㅜㅈㅣㄴ -11393
▁ㄷㅗㄱㅛ -11394
▁ㄱㅐㅎㅓㄴ -11395
▁ㅇㅑㅁㅏㅇ -11396
▁ㄱㅘㄴㅊㅓㅇ -11397
▁ㄴㅗㅇㄱㅕㅇ -11398
▁Jo -11399
ㅊㅡㅂ -11400
▁ㅅㅛㅇ -11401
▁ㅇㅔㅂㅓ -11402
▁ㄹㅕㄷㅓㄴ -11403
▁ㅅㅜㅇㅑㅇ -11404
▁ㅇㅗㅎㅏㅇ -11405
▁ㅂㅏㅇㅣㅌㅡ -11406
▁ㅍㅕㅇㅎㅕㅇ -11407
▁NT -11408
ㅎㅣㅌㅡ -11409
▁ㅁㅣㄴㅇㅛ -11410
▁ㄱㅣㄴㅌㅔㅆㅡ -11411
▁ㅋㅓㅁㅍㅠㅌㅣㅇ -11412
▁ㅋㅗㄴㅌㅔㅅㅡㅌㅡ -11413
▁ㅇㅕㄴㄱㅡㄱㅂㅐㅇㅜ -11414
▁ㄹㅗㄱㅡ -11415
▁ㅂㅏㄴㅅㅓㅇ -11416
▁ㅇㅛㅅㅣㄷㅏ -11417
▁ㅊㅗㅇㅌㅗㅇ -11418
▁ㅈㅣㅈㅣㅇㅠㄹ -11419
▁ㅅㅗㄹㄹㅗㅁㅗㄴ -11420
▁DD -11421
▁pr -11422
▁ㅆㅜ -11423
▁ㅅㅣㅇㅔ -11424
▁ㅌㅏㅅㅡ -11425
▁ㅇㅏㄹㅡㄴ -11426
▁ㅅㅔㄴㅌㅣㅁ -11427
▁ㅇㅜㅊㅣ -11428
▁ㅍㅣㅇㅗ -11429
▁ㄷㅏㄷㅏㅇ -11430
▁ㅂㅗㅎㅐㅇ -11431
▁ㅅㅏㅁㅈㅗㄴ -11432
▁AV -11433
ㅅㅡㅌㅗ -11434
▁ㅁㅏㅅㅜㄹ -11435
▁ㅆㅣㅇㅏㅅ -11436
▁ㅊㅗㅇㅇㅐ -11437
ㄹㅔㄱㅅㅕㄴ -11438
▁ㅎㅔㄹㅅㅣㅇ -11439
ㅅㅡㅌㅗㄹㅏㅇ -11440
▁ㅍㅡㄹㄹㅏㅌㅗㄴ -11441
▁ㄹㅔㅅㅡㅌㅗㄹㅏㅇ -11442
▁ㅂㅐㄹㅕ -11443
▁ㅇㅝㄴㅅㅣㅁ -11444
▁ㅋㅡㄹㅏㅇㅣ -11445
▁ㅂㅜㄹㅌㅐㅇㅜ -11446
▁ㅎㅘㄱㅏㅇㅇㅏㅁ -11447
▁ㄱㅏㄷㅡ -11448
▁ㅇㅏㄹㅣㅇㅏ -11449
▁ㅊㅣㄱㅘ -11450
▁ㅋㅓㅅㅡ -11451
▁ㅁㅏㅋㅔㅅ -11452
▁ㅂㅜㄱㅏㄱ -11453
▁ㅌㅏㅇㅣㄹ -11454
ㅌㅗㅇㅇㅣㄹ -11455
▁ㅅㅓㅇㅅㅣㄹ -11456
▁ㅍㅓㅅㅡㅌㅡ -11457
▁ㄷㅐㅅㅏㅎㅓㄴ -11458
▁ㅎㅔㄹㅡㅊㅔㄱㅗㅂㅣㄴㅏ -11459
▁ㅂㅜㅈㅗ -11460
▁ㅈㅓㄴㄹㅐ -11461
▁ㅊㅏㄱㅏㅂ -11462
▁ㅎㅏㄱㅅㅓㄹ -11463
▁ㅁㅏㅊㅓㄴㄹㅜ -11464
▁ㅅㅣㅎㅏㅂ -11465
▁ㄴㅠㅋㅡㄹㄹ -11466
ㅌㅔㄹㄹㅔㅅㅡ -11467
▁ㅇㅛㅇㅇㅣㄴㅅㅣ -11468
▁ㅇㅗㄹㄹㅣㅁㅍㅣㅇㅏ -11469
▁ㅊㅗㅇㅅㅏㄹㅕㅇㄱㅘㄴ -11470
ㄴㅛ -11471
▁ㄷㅡㅁㅣ -11472
▁ㅊㅜㅇㅣ -11473
▁ㅎㅐㅂㅜ -11474
ㅅㅏㄱㅏㄱ -11475
▁ㅇㅏㄹㅍㅡㅅㅡ -11476
IR -11477
▁210 -11478
ㅂㅏㅅㅣ -11479
▁ㄹㅗㅂㅓ -11480
▁ㄴㅏㅁㅇㅛㅇ -11481
▁ㅇㅏㅇㄱㅗㄹ -11482
▁ㄲㅡㄹㄹㅕㄱㅏ -11483
▁ㅇㅐㅁ -11484
ㅁㅔㅇㅣ -11485
▁ㅁㅗㅇㅢ -11486
▁ㅅㅜㄱㅛ -11487
▁ㅎㅏㄹㅠ -11488
▁ㅇㅑㄱㅎㅗㄴ -11489
▁ㅈㅓㅇㅈㅏㄱ -11490
▁ㅋㅡㄹㄹㅣㄴㅌㅓㄴ -11491
FL -11492
▁ㅂㅚ -11493
ㄷㅣㄹ -11494
▁ㅎㅏㄴㅎㅏ -11495
▁ㅂㅏㅇㅋㅗㄱ -11496
▁ㅈㅜㅊㅏㅈㅏㅇ -11497
are -11498
▁ABC -11499
▁ㅁㅔㅅ -11500
▁ㄱㅗㅋㅜ -11501
ㄱㅜㄱㅅㅏ -11502
▁ㄷㅏㅇㄴㅐ -11503
▁ㅇㅣㄹㅜㄱ -11504
▁ㅇㅝㄴㅌㅗㅇ -11505
▁ㅋㅗㄹㄹㅗㄴ -11506
▁ㅂㅜㄴㅍㅏ -11507
▁ㅅㅗㅇㅡㅁ -11508
▁ㅁㅔㅇㅣㅋㅓ -11509
▁ㅇㅣㄹㄷㅏㅇ -11510
▁ㅍㅡㄹㅔㄷㅔ -11511
▁ㅅㅡㅍㅗㄴㅅㅓ -11512
▁ㅈㅔㅍㅓㅅㅡㄴ -11513
▁ㅁㅗㄱㅇㅛㅇㅣㄹ -11514
EE -11515
▁ㅅㅐㄱㅅㅗ -11516
▁ㅇㅣㄹㄹㅣ -11517
ㅎㅘㄴㄱㅕㅇ -11518
▁ㅊㅣㄱㄹㅕㅇ -11519
▁ㄷㅐㅇㅝㄴㄱㅜㄴ -11520
▁ㅇㅏㄹㅍㅏㅂㅔㅅ -11521
▁ㅂㅜㄱㅇㅏㅇㅣㄹㄹㅐㄴㄷㅡ -11522
ㅂㅡㄹㅡ -11523
▁ㄱㅣㅊㅏ -11524
▁ㄹㅣㅌㅓ -11525
▁ㄱㅘㅇㄷㅗ -11526
▁ㄷㅗㄱㄷㅗ -11527
▁ㅁㅏㅅㅕㄹ -11528
▁ㅂㅐㄱㄷㅜ -11529
▁ㅅㅜㅂㅗㄱ -11530
▁ㅈㅓㅇㄱㅓ -11531
▁ㄷㅗㄱㅊㅏㅇ -11532
▁ㅂㅏㄱㅈㅗㅇ -11533
▁ㅌㅡㄱㅈㅓㄴ -11534
60 -11535
▁he -11536
▁ㅈㅜㄱㅗ -11537
▁ㅂㅐㄹㄹㅣ -11538
▁ㅌㅡㄹㅗㅇㅣ -11539
▁ㄸㅟㅇㅓㄷㅡㄹ -11540
▁ㅌㅏㅇㅣㅌㅏㄴ -11541
▁ㅅㅓㄴㄱㅓㅂㅓㅂ -11542
▁ㅇㅏㄹㅣㅅㅡㅌㅗㅌㅔㄹㄹㅔㅅㅡ -11543
▁ㅂㅔㄴㅊㅓ -11544
▁ㅊㅓㄴㄱㅓ -11545
▁ㅂㅜㄹㅂㅕㄴ -11546
▁ㅇㅓㅁㅁㅣㄹ -11547
▁ㅍㅣㄹㅏㅁㅣ -11548
▁ㄷㅗㅇㅇㅠㄹㅓㅂ -11549
▁Ma -11550
ㅈㅣㅇㅏ -11551
▁ㅇㅏㅅㅗ -11552
▁ㄱㅗㄷㅡㄴ -11553
▁ㅈㅜㅇㅣㅂ -11554
▁ㅍㅗㅅㅣㄱ -11555
▁ㅍㅗㅊㅏㄱ -11556
▁ㅇㅠㅇㅏㄱㅣ -11557
ㅅㅐㅁ -11558
ㅇㅏㄱㅜㄴ -11559
▁ㄱㅕㅇㅈㅓㄴㅊㅓㄹ -11560
▁ㅎㅣㅇ -11561
▁ㅈㅏㅈㅔ -11562
▁ㄴㅔㅅㅉㅐ -11563
▁ㄹㅓㄱㅂㅣ -11564
▁ㅅㅔㄴㅌㅡ -11565
▁ㅊㅓㄴㅇㅘㅇ -11566
▁ㅇㅖㅅㅓㄴㅈㅓㄴ -11567
▁ㅁㅐㅅㅜ -11568
▁CONCA -11569
ㅅㅣㄴㅁㅜㄴ -11570
▁ㄱㅏㅇㄹㅕㅇ -11571
▁ㅌㅟㄹㅡㅋㅡ -11572
▁ㄱㅜㄴㅐ -11573
▁ㄴㅣㅋㅗ -11574
▁ㅌㅔㅋㅡ -11575
▁ㅂㅏㄴㄱㅣ -11576
▁ㅇㅏㄴㅏㅌ -11577
▁ㅈㅔㅁㅜㄹ -11578
▁ㅌㅖㄴㅈㅣㄴ -11579
▁ㅇㅏㄹㅂㅔㄹㅡ -11580
▁ㅇㅠㅎㅗㄱ -11581
▁ㄹㅔㅇㅣㅋㅡ -11582
▁ㅈㅓㄱㅇㅚㅅㅓㄴ -11583
ㅔㅁㅗㅇ -11584
▁ㅎㅗㄷㅐ -11585
▁ㄱㅏㅁㅅㅜ -11586
▁ㅈㅓㄴㅁㅜ -11587
▁ㄷㅏㅈㅓㅅㅡ -11588
▁ㅇㅕㅇㅈㅓㅇ -11589
▁ㅇㅏㅁㅜㄱㅓㅅ -11590
▁CONCACAF -11591
ica -11592
ㄲㅏㄴ -11593
ㅇㅞㄹ -11594
ㅅㅡㅋㅐ -11595
▁ㅅㅓㅇㅎㅘ -11596
ㅊㅓㄴㄷㅗㅇ -11597
▁ㅁㅗㅎㅗ -11598
▁ㅇㅗㅋㅡ -11599
▁ㅈㅜㄱㅖ -11600
▁ㄷㅏㅇㅣㅂ -11601
▁ㅇㅏㄷㅔㄴ -11602
▁ㅋㅡㄹㄹㅔ -11603
ㄹㅏㅇㅣㄷㅓ -11604
▁ㅊㅓㄴㄱㅜㄱ -11605
▁ㄴㅏㅌㅡㄹㅠㅁ -11606
▁ㅂㅣㅁㅣㄹㄹㅣ -11607
▁ㅇㅕㄴㅅㅏㄴㄱㅜㄴ -11608
▁ㅁㅗㅇㅓ -11609
▁ㅍㅏㅅㅗㄴ -11610
▁ㅅㅗㅇㅅㅣㄴ -11611
▁ㅅㅣㄹㄱㅝㄴ -11612
▁1889 -11613
▁ㄴㅑㄴㅡㄴ -11614
ㅅㅡㅌㅡㄹㅗ -11615
▁ㅂㅗㄴㅈㅏㄱ -11616
▁ㅅㅓㄴㄱㅜㅈㅏ -11617
ㅅㅜㅅㅡ -11618
▁ㄹㅜㅋㅏ -11619
▁ㅇㅑㄷㅡ -11620
▁ㅇㅑㅈㅓㄴ -11621
▁ㅇㅣㅈㅓㅁ -11622
▁ㄱㅜㄱㄱㅗㅇ -11623
▁ㅌㅜㅈㅏㅈㅏ -11624
▁ㅇㅠㅊㅣㅇㅝㄴ -11625
▁Fr -11626
ㄲㅓㅇ -11627
▁ATP -11628
▁MTV -11629
▁ㄹㅏㅅㅓ -11630
▁ㅊㅐㅊㅟ -11631
▁ㄱㅏㄹㅏㄱ -11632
▁ㄷㅐㅂㅗㄴ -11633
▁ㅅㅏㅂㅏㅇ -11634
▁ㅅㅡㄹㅎㅏ -11635
▁ㅇㅢㄹㅕㅇ -11636
▁ㅈㅗㅇㅣㄴ -11637
▁ㄷㅔㄹㅕㅇㅗ -11638
▁ㅋㅚㄹㄹㅡㄴ -11639
▁ㅂㅗㅅㅜㄷㅏㅇ -11640
▁ㅂㅐㄹ -11641
▁ㅌㅜㅇㅕ -11642
▁ㅍㅓㅍㅗ -11643
▁ㅍㅔㄹㅗ -11644
▁ㅁㅏㄴㅈㅏㅇ -11645
▁ㄴㅡㄴㄷㅏㅁㅕㄴ -11646
▁ㅈㅓㅇㅂㅜㄱㅜㄴ -11647
ㄷㅔㄴㅂㅜㄹㅡㅋㅡ -11648
▁ㅍㅓㅍㅗㅁㅓㄴㅅㅡ -11649
▁ㅅㅠㅅ -11650
ㅈㅣㄱㅣ -11651
ㅍㅏㅇㅣ -11652
▁Live -11653
▁ㅋㅏㄴㄱㅜㄱ -11654
▁ㅁㅏㄴㅜㅇㅔㄹ -11655
▁ㅁㅐㅁ -11656
ㅌㅣㄴㅓㅁ -11657
▁ㅅㅣㄹㅈㅗㄴ -11658
▁ㅍㅐㅌㅡㄹㅣㄱ -11659
▁ㅍㅡㄹㄹㅐㅌㅣㄴㅓㅁ -11660
ㅏㄴㅌㅗ -11661
▁ㅂㅓㄷㅡ -11662
▁ㅅㅡㅌㅔㅂ -11663
▁ㅈㅜㅇㅌㅚ -11664
▁ㅎㅗㄹㄹㅣ -11665
▁ㅈㅓㅇㅇㅡㅂ -11666
ㅁㅐㅁㅐ -11667
▁ㅂㅕㄹㅅㅔ -11668
▁ㅊㅏㅊㅜㄹ -11669
▁ㅌㅚㅈㅏㅇ -11670
▁ㅍㅣㅍㅣㄴ -11671
▁ㅂㅏㅇㅇㅓㅅ -11672
▁ㅈㅓㄴㄷㅏㅁ -11673
ㄱㅏㄹㅡ -11674
ㅇㅝㅋㅡ -11675
▁ㅂㅏㄷㅣ -11676
ㅋㅓㄴㄷㅐ -11677
▁ㄷㅐㅂㅜㄱ -11678
▁ㅈㅓㅇㅈㅗㅇ -11679
▁ㅇㅗㄹㅣㅇㅗㄴ -11680
▁ㄱㅏㄴㅏㄱㅏㅇㅘㅎㅕㄴ -11681
▁ㅈㅣㅇㅗ -11682
▁ㅇㅛㅊㅜㅇ -11683
▁ㅅㅣㄹㅈㅓㅇ -11684
▁ㅊㅐㄱㅇㅣㅁㅈㅣ -11685
bo -11686
▁ㅎㅛㅈㅏ -11687
ㅊㅜㅇㄹㅠ -11688
▁ㄷㅗㄷㅜㄱ -11689
▁ㅁㅜㅇㅊㅣ -11690
▁ㅊㅏㄴㅅㅏ -11691
▁ㅅㅏㅁㄹㅣㅁ -11692
▁ㄱㅗㅅㅗㄱㅂㅓㅅㅡ -11693
▁ㅇㅘㅇㅣㅂㅓㄴㅅㅡ -11694
▁ㅇㅣㅇㅢ -11695
▁ㅎㅏㅊㅣ -11696
▁ㅂㅣㅇㅔㄴ -11697
▁ㅍㅗㄱㅍㅏ -11698
▁ㅅㅣㄹㄹㅗㄱ -11699
▁ㅍㅔㄴㅓㄹㅌㅣ -11700
▁ㅍㅣㅇㅏㄴㅣㅅㅡㅌㅡ -11701
▁ㅋㅜㅁ -11702
▁JTBC -11703
▁ㅇㅢㄹㅠ -11704
▁ㅎㅐㅊㅣ -11705
▁ㄱㅣㅁㅇㅠ -11706
▁ㅇㅕㅇㅇㅠ -11707
▁ㅅㅡㅂㅇㅠㄴ -11708
▁ㅂㅐㄴㅋㅜㅂㅓ -11709
▁ㅇㅏㅇㅣㅍㅗㄴ -11710
▁ㅇㅠㄱㅝㄴㅈㅏ -11711
▁ㅁㅣㅇㅑㅈㅏㅋㅣ -11712
▁ㅋㅏㅌㅏㄹㄹㅜㄴ -11713
▁So -11714
▁ㄴㅣㅎㅗㄴ -11715
▁ㅊㅗㅅㅣㄴㅅㅓㅇ -11716
ㅓㄹㅓㄹ -11717
▁ㄱㅏㅁㅐㅇ -11718
▁ㄱㅗㅇㅎㅠ -11719
▁ㅁㅜㅎㅕㅇ -11720
▁ㄱㅣㅅㅏㅇㅊㅓㅇ -11721
ㄷㅓㅇㅇㅣ -11722
ㅔㄱㅡㄹㅗ -11723
▁ㅌㅐㅇㅏㄴ -11724
▁ㅅㅏㄴㅅㅓㅇ -11725
▁ㅅㅡㅍㅗㄹㅡ -11726
▁ㅈㅓㄹㅁㅏㅇ -11727
▁ㅇㅘㅇㅅㅔㅈㅏ -11728
EL -11729
sh -11730
▁ㄹㅣㅅㅏ -11731
▁ㅂㅜㅊㅣ -11732
ㄹㅏㄴㅌㅡ -11733
▁ㅇㅠㅅㅓㄴ -11734
▁ㅇㅏㄴㅌㅔㄴㅏ -11735
▁ㅅㅡㅋㅏㅇㅜㅌㅡ -11736
▁int -11737
▁ㅊㅗㄱㅗ -11738
▁ㄱㅜㅅㅣㄹ -11739
▁ㄴㅡㅇㅎㅏ -11740
▁ㅇㅓㄴㅡㄴ -11741
▁ㅈㅜㄴㅅㅜ -11742
▁ㅎㅘㅇㅅㅗ -11743
ㅅㅏㄴㄷㅏㅇ -11744
▁ㅅㅓㄴㅊㅓㄴ -11745
▁ㅈㅣㄱㅌㅗㅇ -11746
▁ㅅㅔㄴㅌㅣㅁㅣㅌㅓ -11747
▁ㄴㅗㄹㅗㄴ -11748
▁ㅈㅓㅇㅎㅕㅇ -11749
▁ㅈㅜㅇㅎㅏㅂ -11750
▁ㅅㅗㅁㅏㄹㄹㅣㅇㅏ -11751
▁ㅎㅔㅅ -11752
▁ㄷㅐㅈㅗㅇ -11753
▁ㄱㅕㅇㅇㅕㅇㅈㅏ -11754
▁ㅂㅐㄱㄱㅘ -11755
▁ㄱㅕㄹㅂㅕㄹ -11756
▁For -11757
ㄹㅣㅋㅡ -11758
ㅡㄹㅣㄷㅡ -11759
▁ㅅㅜㄹㅏㄱ -11760
▁ㅇㅡㄴㄱㅓ -11761
▁ㅇㅖㅅㅜㅎㅚ -11762
▁ㅇㅛㄱㅁㅏㅇ -11763
▁ㅋㅏㅋㅏㅇㅗ -11764
IL -11765
▁ㅍㅓㅁㅍㅡ -11766
▁ㅇㅠㄴㅣㅂㅓㅅㅓㄹ -11767
span -11768
▁GB -11769
ㅓㅌㅡ -11770
▁ㄴㅗㅂㅗ -11771
▁ㅊㅣㅎㅘㄴ -11772
▁ㅌㅚㅈㅣㄱ -11773
▁ㄱㅣㅁㅎㅕㅇ -11774
▁ㅎㅐㄹㅣㅅㅡ -11775
▁ㅋㅔㅍㅡㄹㄹㅓ -11776
▁ㅇㅏㅍㅈㅏㅇㅅㅓ -11777
▁onlyinclude -11778
▁ㅋㅡㄹㄹㅣㅂㅡㄹㄹㅐㄴㄷㅡ -11779
ㄷㅗㄹㄹㅣ -11780
▁ㅂㅏㅇㅊㅣ -11781
▁ㅊㅜㄹㅕㄱ -11782
▁ㅇㅘㅇㄱㅝㄴ -11783
▁ㅓㅇㅑ -11784
▁ㄱㅣㅁㅈㅐ -11785
▁ㅇㅕㅇㅇㅖ -11786
▁ㅇㅠㅁㅗㄱ -11787
▁ㄱㅏㅁㅊㅏㄹ -11788
▁ㅊㅏㄴㅇㅑㅇ -11789
ost -11790
▁Com -11791
▁ㄹㅜㅂㅣ -11792
▁ㅌㅡㄹㅜ -11793
▁ㄱㅕㄱㄹㅣ -11794
▁ㅂㅏㄴㅍㅗ -11795
▁ㅅㅣㄴㅔㅁㅏ -11796
▁ㅈㅏㅇㅠㅁㅣㄴㅈㅜㄷㅏㅇ -11797
tern -11798
▁Col -11799
▁Sou -11800
ㅁㅣㅅㅡ -11801
▁ㄷㅏㅌㅔ -11802
▁ㅁㅜㅅㅣㄹ -11803
▁ㅇㅕㄲ -11804
▁Time -11805
ㅅㅗㅌㅗㅇ -11806
▁ㅍㅏㄴㄹㅖ -11807
▁ㅊㅣㅁㅁㅜㄱ -11808
▁ㅍㅡㄹㅏㅇㅣㅁ -11809
▁ㅂㅣㅇㅑ -11810
▁ㅁㅗㄱㅡㅁ -11811
▁ㅂㅗㅇㅎㅘ -11812
▁ㅅㅗㅈㅜㅇ -11813
ㅎㅕㄴㄷㅗㅇ -11814
▁ㅈㅗㅇㅅㅣㄱ -11815
ㅅㅏㄱㅗ -11816
▁ㅅㅐㅇㅜ -11817
ㅇㅏㅇㅜㅅ -11818
▁ㅇㅣㄴㄱㅏ -11819
▁ㅅㅗㅇㅊㅜㄹ -11820
▁TR -11821
▁ㅁㅏㅊㅏ -11822
▁ㄷㅐㅇㅕㅇ -11823
▁ㅁㅔㄷㅣㅊㅣ -11824
▁ㅂㅡㄹㅔㅇㅣㅋㅡ -11825
▁ㅂㅏㅌㅡ -11826
▁ㅂㅏㄷㅊㅣ -11827
▁ㅇㅠㅅㅣㄱ -11828
ㅍㅇㅣ -11829
▁ㄱㅣㅇㅘ -11830
▁ㅇㅣㅁㅗ -11831
▁ㄷㅏㅇㅟㄴ -11832
▁ㄱㅗㅇㅈㅗㄴ -11833
▁ㄱㅡㅁㅅㅏㄴ -11834
▁ㅎㅏㄴㄹㅣㅁ -11835
▁ㄱㅗㅇㅎㅠㅇㅣㄹ -11836
▁ㅇㅢㅅㅏㅅㅗㅌㅗㅇ -11837
ㅂㅜㄹㅗ -11838
▁ㅎㅏㄱㅜ -11839
▁ㅎㅏㅎㅐㅇ -11840
▁ㄹㅔㅇㅣㅅㅣㅇ -11841
▁ㅍㅣㄹㅏㅁㅣㄷㅡ -11842
ㄷㅐㅅㅏ -11843
▁ㅇㅗㅅㅏ -11844
▁ㅅㅗㄱㅡㄱ -11845
▁ㅈㅗㅇㅈㅏ -11846
▁ㄱㅣㅁㅈㅜㄴ -11847
▁ㅎㅏㅇㅁㅏㄴ -11848
▁ㄴㅠㅋㅡㄹㄹㅔㅇㅗ -11849
▁Part -11850
▁ㄴㅔㅌㅡ -11851
▁ㄸㅏㅈㅣ -11852
ㅈㅗㅇㅣㄴ -11853
▁ㅇㅕㄱㅝㄴ -11854
▁ㅇㅛㄱㅕㄱ -11855
▁ㅎㅘㅇㅑㄱ -11856
▁ㅂㅜㄹㄹㅑㅇ -11857
▁ㅅㅓㅇㄱㅘㄱ -11858
▁ㅈㅓㄴㅈㅓㄴ -11859
▁ㅇㅠㄱㅕㄱㅅㅜ -11860
▁ㅍㅡㄹㅏㄴㅊㅔㅅㅡㅋㅗ -11861
ood -11862
▁ㄱㅏㄹㅏ -11863
▁ㄱㅗㄷㅣㄱ -11864
▁ㅂㅗㄹㅌㅡ -11865
▁ㅇㅗㅂㅏㅁㅏ -11866
▁ㅈㅏㄱㅁㅜㄹ -11867
▁ㄷㅐㅅㅡㅇㅂㅜㄹㄱㅛ -11868
ㄴㅣㅈㅣ -11869
▁ㅈㅣㅈㅏ -11870
▁ㅊㅣㄹㅜ -11871
▁ㅂㅜㄹㅊㅏㅁ -11872
▁ㅅㅡㄹㅍㅡㅁ -11873
▁ㅇㅘㅇㄱㅓㄴ -11874
▁ㅌㅟㄴㅣㅈㅣ -11875
▁ㅋㅡㄹㄹㅔㅇㅣ -11876
▁ㄴㅏㅋㅏㅁㅜㄹㅏ -11877
▁ㄱㅓㅁㅇㅡㄴㅅㅐㄱ -11878
▁ㅌㅡㄴ -11879
ㅆㅡㅁㅏ -11880
ㅡㄹㄹㅔ -11881
▁ㄷㅐㄴㅅㅓ -11882
▁ㅇㅜㅎㅏㄴ -11883
▁ㅁㅜㄴㅈㅣㅂ -11884
▁ㅇㅝㄴㄱㅜㄴ -11885
▁ㅂㅣㅈㅜㄴ -11886
▁ㅅㅏㅌㅏㅇ -11887
ㅈㅓㅇㄷㅗㅇ -11888
▁ㅋㅏㅅㅡㅌㅣㅇㅑ -11889
▁ㅇㅣㄹㅂㅗㄴㄱㅜㄱ -11890
▁ㅅㅗㅇㄷㅗ -11891
▁ㅁㅣㅇㅑㄱㅣ -11892
▁ㅅㅏㅁㅈㅜㅇ -11893
▁ㅌㅏㅇㅣㅇㅓ -11894
▁ㅇㅗㅎㅏㅇㅣㅇㅗ -11895
▁ㄱㅣㅇㅣ -11896
▁ㅇㅕㄴㅁㅏㄹ -11897
▁ㅇㅕㅂㅐㅇㅜ -11898
▁ㅅㅏㄹㅗㅈㅏㅂ -11899
uc -11900
▁ㅁㅗㅅㅔ -11901
▁ㅇㅕㅇㅠ -11902
ㅁㅣㅇㅏㅁ -11903
ㅔㅅㅡㅌㅡ -11904
▁ㅁㅜㅈㅏㄱ -11905
▁ㅇㅡㅁㅈㅓㄹ -11906
ㅍㅡㄹㅏㅇㅋㅡ -11907
▁ㅁㅏㄹㅁㅣㅇㅏㅁ -11908
▁AKB -11909
▁ㅇㅏㄴㄴㅏ -11910
▁ㄱㅏㅇㅍㅜㅇ -11911
▁ㄱㅓㄴㅈㅓㄴ -11912
▁ㅇㅣㅁㅈㅓㅇ -11913
▁ㅍㅕㅇㅍㅕㅇ -11914
ㅎㅐㅅㅏㄹㅇㅣ -11915
▁ㅌㅏㅇㅣㄱㅓㅅㅡ -11916
▁"& -11917
▁ㄱㅏㄷㅗ -11918
▁ㄱㅡㄹㄹ -11919
▁ㅈㅜㅇㅅㅓ -11920
ㄷㅗㄹㅡㅍㅡ -11921
▁ㅂㅗㄴㅅㅓㅇ -11922
▁ㅇㅕㄴㅈㅓㅇ -11923
▁ㅌㅗㄹㅣㄴㅗ -11924
▁ㅎㅕㅇㅈㅣㄹ -11925
▁ㅇㅔㄴㅌㅡㄹㅣ -11926
lay -11927
row -11928
▁ㄱㅗㅈ -11929
ㄷㅐㅍㅛ -11930
▁ㄱㅡㄴㅅㅏ -11931
▁ㄹㅏㅇㅣㅁ -11932
ㅂㅣㅅ -11933
ㅊㅏㄶ -11934
▁ㄷㅡㄹㅗ -11935
ㅏㅇㅑㅁㅏ -11936
▁ㄹㅏㅍㅏㅇㅔㄹ -11937
▁ㄱㅣㅁㅌㅐ -11938
▁ㅂㅗㄹㅕㅇ -11939
▁ㄸㅓㄹㅇㅓㄸㅡㄹㅣ -11940
ous -11941
ㅌㅓㅅ -11942
ㅜㅇㅕㄱ -11943
▁ㄹㅏㄹㅣ -11944
ㅋㅐㅅㅡㄹ -11945
▁ㄱㅗㅊㅏㅇ -11946
▁ㄷㅗㅇㄹㅗ -11947
▁ㅈㅐㅍㅐㄴ -11948
▁ㄱㅏㅇㄹㅕㄹ -11949
▁ㄱㅣㅁㅇㅣㄴ -11950
▁ㄹㅏㅇㅣㄷㅓ -11951
▁ㄹㅗㅁㅏㅇㅣㄴ -11952
▁EU -11953
▁ㅇㅏㄲㅣ -11954
▁ㅅㅓㅇㅣㅁ -11955
▁ㄷㅐㄴㅣㅇㅓㄹ -11956
▁ㅇㅣㅅㄸㅏㄹㅡ -11957
ㅇㅝㄴㅅㅜㅇㅇㅣ -11958
▁ㄱㅘㅇㅂㅗㄱㄱㅜㄴ -11959
▁ㄴㅡㄺ -11960
▁ㄹㅠㅋㅠ -11961
ㅣㅇㅐㅁㅣ -11962
▁ㅅㅣㅁㅔㄴㅌㅡ -11963
▁ㅁㅏㅇㅣㅇㅐㅁㅣ -11964
▁at -11965
▁ㄱㅝㄴㅎㅏ -11966
▁ㅇㅔㄹㄹㅔ -11967
▁ㄱㅡㄹㄲㅗㄹ -11968
▁ㅎㅜㅈㅣㅇㅘㄹㅏㄴㅗ -11969
ows -11970
▁ㅊㅠ -11971
▁ㅈㅏㅅㅓ -11972
▁ㄷㅣㅇㅗㄴ -11973
▁ㅂㅕㅇㅈㅏ -11974
▁ㅈㅓㅇㄱㅓㅈㅏㅇ -11975
ㅁㅣㅈㅡ -11976
ㅏㅇㄷㅣ -11977
▁ㅁㅜㄱㅘ -11978
▁ㅋㅡㄹㄹㅏ -11979
▁ㄱㅜㄱㄷㅏㅇ -11980
▁ㅇㅣㄴㅊㅣㅇ -11981
▁ㅈㅏㅁㅈㅓㅇ -11982
▁ㅈㅗㅇㄱㅜㄴ -11983
▁ㅎㅏㄴㅈㅜㅇ -11984
ㅍㅡㄹㅏㅇㅣㄴ -11985
▁ㄱㅗㅇㅣㄴㄷㅗㄹ -11986
▁ㅅㅔㅋㅣ -11987
▁ㅁㅏㅆㅡㅇ -11988
▁ㅅㅏㅅㅓㄹ -11989
▁ㅊㅜㅇㅓㄱ -11990
ㅋㅣㄴㅗ -11991
ㅅㅡㅌㅔㄴ -11992
▁ㄹㅔㅇㅣㅌㅡ -11993
▁ㅈㅓㄹㅈㅓㅇ -11994
▁ㄴㅠㅋㅐㅅㅡㄹ -11995
▁ㅂㅏㄹㄹㅏㄷㅡ -11996
▁ㅂㅜㅊㅗㅇㄹㅣ -11997
▁ㄱㅜㄱㅈㅔㅂㅓㅂ -11998
▁API -11999
▁ㅇㅠㅎㅢ -12000
▁ㅌㅏㄹㅣ -12001
ㄹㅣㄱㅓㄴ -12002
ㅅㅡㄹㅕㅇ -12003
▁ㅁㅗㄱㅎㅚ -12004
▁ㅂㅗㅈㅗㄱ -12005
▁ㅈㅐㅇㅣㄹ -12006
ㅌㅔㅇㅣㄴㅓ -12007
▁ㅈㅓㄴㅎㅏㄴ -12008
▁ㅍㅡㄹㅏㅇㅅㅡㄹㅕㅇ -12009
▁u -12010
ㄷㅜㅁ -12011
▁ㄴㅕㅇ -12012
▁ㅌㅜㅁ -12013
▁ㄷㅏㅇㄱㅣ -12014
▁ㅂㅜㅍㅕㅇ -12015
▁ㄱㅏㅁㅅㅓㅇ -12016
▁ㅁㅏㄹㅡㅋㅡ -12017
▁ㄱㅛㅌㅗㅇㅂㅜ -12018
olog -12019
ㅈㅣㅂㅜ -12020
▁ㅎㅜㅂㅐ -12021
▁ㅁㅕㅇㅅㅗ -12022
▁ㅈㅣㅇㅅㅜ -12023
▁ㄱㅜㄹㅈㅓㄹ -12024
▁ㄹㅔㅇㅣㄷㅓ -12025
▁ㄹㅔㅂ -12026
ㅔㅇㅣㅋㅏ -12027
▁ㄱㅕㄱㅊㅜ -12028
▁ㅇㅖㅇㅑㄱ -12029
▁ㅈㅜㅇㅅㅜ -12030
▁ㅎㅏㄴㅏㅁ -12031
▁ㄱㅕㅇㅂㅗㄱ -12032
▁ㄱㅣㅁㅁㅕㅇ -12033
▁ㄷㅗㅁㅏㅇㄱㅏ -12034
▁ㅂㅏㅇㅇㅓㅅㅓㄴ -12035
▁ㅈㅏㅇㅎㅏㄱㄱㅡㅁ -12036
az -12037
▁131 -12038
ㄱㅓㄹㅐ -12039
▁1848 -12040
▁ㅅㅣㅋㅗㅋㅜ -12041
ㅓㄹㄹㅣㅈㅡㅁ -12042
▁ㄱㅣㅅㅜㄱㅅㅏ -12043
▁ㄷㅜㄹㅕㅇㅜㅁ -12044
▁ㅇㅏㄹㅏㅂㅇㅔ -12045
▁ㅈㅏㅁㅔㅇㅣㅋㅏ -12046
▁ㅇㅏㄹㅏㅂㅇㅔㅁㅣㄹㅣㅌㅡ -12047
OP -12048
ㅎㅣㄴ -12049
ㅡㅇㅣㄴ -12050
▁ㅌㅏㅇㅜ -12051
▁ㅅㅏㅇㅕㄱ -12052
▁ㅇㅐㅈㅓㅇ -12053
▁ㅇㅗㅁㅏㄴ -12054
▁ㅍㅡㄹㅔㅅ -12055
▁ㅈㅓㄹㅂㅕㄱ -12056
ㅋㅡㄹㄹㅣㄷㅡ -12057
▁ㅈㅣㅅㅏㅇㅍㅏ -12058
▁ㅋㅏㅁㅔㄹㅜㄴ -12059
▁ㅅㅐㅇㅈㅗㄴㅈㅏ -12060
▁ㄴㅏㄱㄷㅗㅇㄱㅏㅇ -12061
ㅐㅇㅇㅣ -12062
▁ㄷㅗㅋㅜ -12063
ㄹㅣㅇㅗㄴ -12064
▁ㅅㅣㅁㅅㅏㅇ -12065
▁ㅇㅔㅇㅣㅈㅡ -12066
▁ㅁㅣㅅㅜ -12067
▁ㅂㅏㄱㅡ -12068
ㅎㅘㅁㅜㄴ -12069
▁ㅍㅗㅌㅓㄹ -12070
▁ㄱㅏㄴㅊㅓㅂ -12071
▁ㅅㅜㄴㅈㅗㅇ -12072
▁ㅇㅕㄹㄱㅏㅇ -12073
▁ㅈㅓㅈㅣㄷㅐ -12074
▁BC -12075
ㅈㅏㄹㅜ -12076
ㅈㅣㄹㅗ -12077
▁ㅇㅠㅇㅢ -12078
▁ㅌㅔㄹㅏ -12079
▁ㄷㅗㄹㅏㅇ -12080
▁ㄹㅗㅇㅑㄹ -12081
▁ㄹㅣㅇㅗㅇ -12082
▁EM -12083
ㅈㅣㄴㅡㅇ -12084
▁ㄱㅓㄹㅏㄴ -12085
▁ㅅㅏㅁㅣㄴ -12086
▁ㄷㅐㄴㅏㅁㅜ -12087
▁ㅍㅡㄹㅏㅇㅅㅡㅇㅣㄴ -12088
▁ㅈㅔㅇㅟ -12089
▁ㅈㅣㅅㅓㄱ -12090
▁ㄱㅣㅁㄱㅘㅇ -12091
▁ㄸㅗㄱㄱㅏㅌㅇㅣ -12092
▁ㅌㅔㄱㅅㅏㅅㅡㅈㅜ -12093
▁ㅇㅣㄴㄱㅗㅇㅈㅣㄴㅡㅇ -12094
ann -12095
▁Bla -12096
ㅂㅣㅇㅑ -12097
▁ㅇㅛㅇㅇㅢ -12098
▁ㅂㅗㄹㅏ -12099
▁ㅋㅜㄴㅣ -12100
▁ㅅㅜㄱㅂㅜ -12101
▁ㅇㅟㄴㅓㅅㅡ -12102
▁ㅎㅏㄴㅗㅂㅓ -12103
▁ㄱㅡㄹㅐㄴㅌㅡ -12104
▁ㅇㅕㅅㅏ -12105
▁ㅇㅕㅅㅓ -12106
ㅌㅡㄴㅓㅁ -12107
▁ㅁㅏㅂㅓㅂㅅㅏ -12108
▁NASA -12109
▁ㅋㅗㅅㅣ -12110
▁ㅌㅡㄱㅎㅘ -12111
▁ㅅㅏㄴㄷㅜㅇ -12112
▁ㅇㅏㄹㅏㄱㅗㄴ -12113
▁ㅁㅏㄴㅣ -12114
ㅏㅇㅗㅋㅏ -12115
▁ㄱㅏㄹㅏㅇ -12116
▁ㅇㅏㄱㅂㅗ -12117
▁ㅎㅐㄷㅗㄱ -12118
▁ㅎㅘㅇㅅㅐㄱ -12119
▁ㅈㅔㅇㅣㅅㅡㄴ -12120
▁ㄱㅗㅂㅜㄴㄱㅜㄴ -12121
▁ㅈㅓㅂㅇㅓㄷㅡㄹ -12122
▁ㅂㅓㅁㅏ -12123
ㅜㄹㅣㅇㅏ -12124
▁ㅅㅏㄹㅣㅁ -12125
▁ㅎㅏㅇㅊㅔ -12126
▁ㅅㅣㄴㄱㅗㄱ -12127
▁ㅇㅜㄹㅜㅅㅡ -12128
▁ㅈㅗㅇㅇㅑㅇ -12129
▁ㅈㅣㅂㅈㅓㅇ -12130
▁ㅇㅕㄹㅅㅣㅁㅎㅣ -12131
▁OST -12132
▁ㄱㅗㅇㅏ -12133
▁ㅇㅗㄷㅣ -12134
▁ㅂㅣㅈㅓㅇ -12135
▁ㄱㅗㅇㅇㅕㅇ -12136
▁ㄴㅏㅁㅂㅏㅇ -12137
▁ㅇㅗㅁㅣ -12138
▁ㄴㅗㅁㅕㄴ -12139
▁ㅇㅕㄴㅎㅢ -12140
▁ㅁㅏㅇㅣㅇㅓ -12141
▁ㅈㅜㄹㄱㅣㅅㅔㅍㅗ -12142
ern -12143
▁ㅎㅗㅂ -12144
ㅎㅣㅅㅏ -12145
▁ㅅㅓㅎㅐ -12146
▁ㅍㅣㄹㅣ -12147
▁ㄱㅡㄱㅇㅜ -12148
▁ㅁㅗㄱㅓㄴ -12149
▁ㅊㅗㅋㅗㄹ -12150
▁ㄹㅣㅍㅡㅌㅡ -12151
▁ㅂㅜㄷㅣㅈㅎㅣ -12152
▁ㅍㅡㄹㅗㄱㅡㄹㅐㅁㅓ -12153
ㅍㅔㅅ -12154
▁Your -12155
▁ㄱㅛㅇㅢ -12156
▁ㄴㅗㅇㅇㅓ -12157
▁ㅁㅗㅅㅐㄱ -12158
▁ㅇㅜㅅㅏㄴ -12159
▁ㅈㅔㅇㅜㅅㅡ -12160
▁ㅌㅏㄴㅇㅑㄱ -12161
▁ㅁㅏㄴㅎㅘㄱㅏ -12162
▁ㄱㅘㄴㅎㅕㄴㅇㅏㄱㄷㅏㄴ -12163
ㄷㅡㅇㅣㄴ -12164
▁ㅅㅔㄹㅡㄱ -12165
▁ㅈㅔㅁㅕㅇ -12166
▁ㅊㅗㅇㄱㅕㄱ -12167
▁ㄷㅡㄱㅍㅛㅇㅠㄹ -12168
▁ㅇㅑㅁㅏㄱㅏㅌㅏ -12169
ㅇㅓㅅㅏ -12170
▁1883 -12171
▁ㅎㅐㅌㅐ -12172
▁ㅅㅜㅅㅣㄱ -12173
ㅍㅔㅅㅡㅌㅡ -12174
▁ㄴㅏㅁㄱㅜㄴ -12175
ㅏㅋㅣ -12176
▁ㅅㅓㄱㅟ -12177
▁ㅂㅗㄴㄸㅡ -12178
▁ㅇㅑㅁㅏㄴ -12179
▁ㅎㅐㅅㅏㅇㄷㅗ -12180
▁ㅈㅓㄱㄹㅛ -12181
▁ㅅㅓㄴㅁㅕㅇ -12182
▁ㅈㅓㅇㅊㅣㅎㅏㄱ -12183
80 -12184
ㅍㅜㄹㅇㅣ -12185
▁ㅈㅏㅁㅕㅇ -12186
▁ㅈㅗㅇㄹㅗ -12187
▁ㄱㅘㄴㅅㅏㅇ -12188
▁ㅇㅕㅇㅢㄷㅗ -12189
▁ㅈㅜㅇㅅㅗㄱ -12190
▁ㅍㅏㄴㅅㅗㄹㅣ -12191
ㅅㅓㅅㅡ -12192
▁ㄱㅖㅈㅜ -12193
▁ㄷㅐㅈㅘ -12194
▁ㅁㅗㅇㅛㄱ -12195
▁ㅇㅠㄱㅗㅇ -12196
▁ㅈㅜㅅㅏㅇ -12197
▁ㅇㅗㄴㄴㅏㄴ -12198
▁ㅈㅣㅂㅐㅈㅏ -12199
ㄷㅗㅇㅓ -12200
ㅝㄴㅅㅜ -12201
▁ㅍㅗㄱㅗ -12202
▁ㅎㅔㅂㅣ -12203
▁ㄱㅗㅎㅡㅇ -12204
▁ㅂㅏㅇㄷㅐ -12205
▁ㅇㅏㄴㄱㅐ -12206
▁ㅎㅏㄴㅅㅣㄴ -12207
▁ㄷㅓㅂㅡㄹㄹㅣㄴ -12208
ㄲㅏㅂ -12209
▁ref -12210
▁ㄹㅗㅋㅣ -12211
▁ㅁㅛㅂㅣ -12212
ㄴㅗㄹㅇㅣ -12213
▁ㄱㅟㅅㅣㄴ -12214
▁ㅈㅓㅁㅍㅗ -12215
▁ㅍㅕㅇㅈㅣ -12216
▁ㅇㅏㄴㅂㅏㅇ -12217
▁ㅂㅓㅂㅇㅝㄴㅈㅏㅇ -12218
CC -12219
▁FK -12220
▁tv -12221
ㅂㅓㄹㅡㄴ -12222
▁ㅋㅜㅂㅣㄹ -12223
▁ㅎㅗㄴㄷㅏ -12224
▁ㄱㅏㄴㄹㅑㄱ -12225
▁ㅇㅏㅇㅣㅈㅡ -12226
▁ㅇㅡㅇㄱㅡㅂ -12227
40 -12228
▁ㄹㄹㅏ -12229
▁ㅅㅏㅇㅕㅇ -12230
▁ㅍㅏㅍㅜㅇ -12231
▁ㅇㅕㄹㅈㅓㄴ -12232
▁ㅇㅝㄴㅅㅏㄴㅈㅣ -12233
orn -12234
▁ㅁㅜㅉ -12235
▁ㄱㅏㄱㅏ -12236
▁ㅇㅏㅁㅗㄱ -12237
▁ㅇㅛㅇㅇㅐㄱ -12238
▁ㅅㅠㅍㅓㅋㅓㅂ -12239
▁Wind -12240
▁ㅇㅑㅇㅚ -12241
ㅋㅏㅇㅣㄴ -12242
▁ㄷㅓㅍㄱㅐ -12243
▁ㅅㅏㅂㅎㅘ -12244
▁ㅁㅜㄴㄷㅏㄴ -12245
▁ㅂㅜㅅㅏㅇㅈㅏ -12246
ㅅㅡㅌㅔㄹㅡㄷㅏㅁ -12247
▁ㅋㅜㅂㅣㄹㄹㅏㅇㅣ -12248
▁RP -12249
ㄷㅡㄹㅣㅇㅏ -12250
▁ㅁㅜㅉㅣㄹㅡ -12251
▁ㅅㅓㅇㄷㅗㅇ -12252
▁ㅇㅑㅇㅅㅣㅁ -12253
▁ㅂㅗㅅㅜㅈㅜㅇㅢ -12254
▁ㅇㅜㅇㅔ -12255
▁ㄱㅓㅅㅓㅇ -12256
▁ㄱㅣㅈㅓㄴ -12257
▁ㄷㅏㄴㄱㅕㄹ -12258
▁ㅂㅡㄹㅔㅇㅣ -12259
▁ㅎㅏㄴㄱㅕㄹ -12260
▁RS -12261
▁1882 -12262
▁ㄴㅗㄱㅎㅘ -12263
▁ㄱㅜㄱㅎㅏㄴ -12264
▁ㅅㅓㄹㅁㅜㄴ -12265
▁ㅇㅕㄴㄱㅜㄱ -12266
▁ㅍㅐㄹㅓㄷㅣ -12267
▁ㅇㅔㅇㅣㅈㅓㄴ -12268
▁ㅇㅣㅇㅛㅇㄱㅐㄱ -12269
▁ㅈㅣㅂㅜㅇㄷㅗㄹ -12270
▁ㅌㅐㅁ -12271
ㅂㅓㄹㅓ -12272
▁ㄷㅐㅁㅏ -12273
▁ㅂㅔㅌㅡ -12274
▁ㅂㅜㅇㅏㄴ -12275
▁ㅈㅣㅂㅓㅂ -12276
▁ㅇㅣㄹㄱㅏㄱ -12277
▁ㅌㅗㅁㅏㅌㅗ -12278
▁ㅇㅔㅅㅡㅍㅔㄹ -12279
▁ㄷㅏㄴㅊㅔㅈㅓㄴ -12280
▁ㄱㅏㄷㅜ -12281
▁ㅎㅏㄴㅁㅣ -12282
▁ㄷㅗㅇㅅㅏㄴ -12283
▁ㅎㅔㅇㅓㅈㅣ -12284
▁ㅁㅕㅇㅎㅘㄱㅎㅣ -12285
ㅏㄴㅡㄴ -12286
▁ㅇㅛㅈㅓㄹ -12287
▁ㄷㅏㄴㄱㅜㄴ -12288
▁ㄷㅗㅇㅈㅣㄴ -12289
▁ㅅㅏㅇㄹㅗㄱ -12290
▁ㅇㅞㅅㅡㅌㅡㅁ -12291
ink -12292
▁SNS -12293
▁new -12294
▁ㄴㅏㅇㅣㄴ -12295
▁ㄱㅘㄴㅁㅗㄱ -12296
▁ㅅㅗㄱㄹㅕㄱ -12297
▁ㅇㅟㄱㅜㄹㅡ -12298
▁Ge -12299
▁ㅍㅔㅅㅡ -12300
▁ㅃㅏㅈㅕㄴ -12301
▁ㅇㅓㅂㅈㅏ -12302
▁ㅇㅣㄱㅅㅜㄱ -12303
▁ㅎㅠㄱㅔㅅㅗ -12304
▁Day -12305
▁ㄱㅏㄱㅗ -12306
ㅇㅏㄷㅡㄹ -12307
▁ㄴㅐㅇㅣㄹ -12308
▁ㅅㅜㅇㅕㄹ -12309
▁ㅈㅐㅍㅕㄴ -12310
▁ㅈㅔㅊㅓㄴ -12311
▁ㅅㅓㄴㅂㅗㅇ -12312
▁ㅇㅣㅅㅡㅌㅏㄴ -12313
▁ㅁㅣㅅㅡㅌㅓㄹㅣ -12314
▁ㅈㅔㄱㅏㄹㄹㅑㅇ -12315
▁ㅅㅓㅌㅐ -12316
▁ㅋㅜㅍㅓ -12317
ㅈㅔㅍㅜㅁ -12318
▁ㅇㅠㅅㅐㅇ -12319
▁ㄱㅗㅇㅅㅓㅇ -12320
▁ㅎㅏㅁㄹㅑㅇ -12321
▁ㅇㅕㄴㄱㅜㅎㅚ -12322
▁ㅅㅣㅈㅡㅇㅗㅋㅏ -12323
▁ㅈㅓㅇㅂㅗㅇㅝㄴ -12324
▁ㅈㅜㅇㅅㅗㄱㅣㅇㅓㅂ -12325
ㅐㄴㅌㅣㄱ -12326
ㅊㅜㅂㅜㅅㅏ -12327
▁ㅎㅕㅇㅂㅓㄹ -12328
II -12329
▁Sch -12330
▁ㅋㅏㅅㅏ -12331
▁ㄱㅗㅇㅁㅜ -12332
▁ㄷㅏㄷㅡㅁ -12333
▁ㅈㅜㅇㅇㅕㅂ -12334
▁ㅇㅏㅇㅣㅇㅓㄴ -12335
▁ㅊㅔㅇㅣㄴㅈㅣ -12336
ㅋㅗㄹㅡ -12337
ㅍㅗㅅㅣ -12338
ㅏㅇㅣㅁ -12339
▁ㄱㅗㄹㄱㅕㄱ -12340
▁ㄷㅔㄴㅣㅅㅡ -12341
▁ㄷㅣㄹㄹㅓㄴ -12342
▁ㅂㅡㄹㄹㅜㅁ -12343
▁ㅍㅡㄹㅣㄴㅅㅡ -12344
▁ㅎㅐㅇㅏㄴㅅㅓㄴ -12345
ㅟㄹㅡ -12346
▁ㅋㅐㄹ -12347
ㅞㅇㅣㅌㅡ -12348
▁ㅅㅏㄴㅇㅛ -12349
ㅎㅏㅂㅅㅓㅇ -12350
▁ㅍㅕㅇㅍㅏㄴ -12351
▁ㄴㅏㄹㅇㅏㄱㅏ -12352
▁ㄷㅏㅌㅜㅁ -12353
▁ㅁㅏㄸㅏㅇ -12354
▁ㅂㅜㅇㅘㅇ -12355
▁ㅅㅏㄴㅅㅣ -12356
▁ㅈㅓㅇㅇㅡㄴ -12357
▁ㄷㅐㄹㅣㅇㅣㄴ -12358
▁ㄴㅗㅂㅔㄹㅅㅏㅇ -12359
▁ㅍㅏㅇㅣㄹㄹㅓㅅ -12360
ㄷㅡㅇㅟ -12361
ㄹㅗㅈㅣ -12362
▁ㅅㅏㅅㅓ -12363
▁ㅅㅡㄴㅗ -12364
▁ㄱㅓㅁㄱㅓ -12365
▁ㄴㅏㄲㅅㅣ -12366
▁ㅅㅔㅅㅡㅂ -12367
▁ㅁㅗㄴㅌㅔㄴ -12368
ㅌㅔㅇㅣㅅㅕㄴ -12369
ㅋㅏㄴㅏ -12370
▁ㅇㅜㅅㅣ -12371
▁ㅋㅏㅍㅣ -12372
ㅁㅏㄹㄹㅏ -12373
▁ㅇㅝㄴㄹㅗ -12374
▁ㄱㅐㄱㅜㄹㅣ -12375
▁ㅇㅕㄴㄹㅣㅂ -12376
▁ㅇㅕㅇㅎㅘㅅㅏㅇ -12377
▁ㅈㅗㄱㅛ -12378
▁ㅇㅝㄹㅌㅓ -12379
▁ㅋㅔㄹㅌㅡ -12380
▁ㄷㅡㄷㅣㅇㅓ -12381
▁ㄴㅣㅋㅣ -12382
▁ㄱㅡㅂㅇㅕ -12383
▁ㅇㅡㄴㅎㅖ -12384
▁ㅂㅏㄷㄷㅡㄹ -12385
▁ㅇㅐㅇㄱㅡㄹ -12386
▁ㄱㅕㅇㅈㅜㅅㅣ -12387
▁ㅁㅔㄹㅂㅓㄹㅡㄴ -12388
▁ㅂㅏㅇㅅㅏㄴㅡㅇ -12389
▁ㅍㅣㄹㄹㅣㅂㅅㅡ -12390
▁ㅂㅡㄹㅜㅋㅡㄹㄹㅣㄴ -12391
ㅉㅜㄱ -12392
▁ㄱㅜㄷㅜ -12393
▁ㄱㅜㄹㅡ -12394
▁ㄱㅏㅎㅗㄱ -12395
▁ㅈㅣㄴㄹㅗ -12396
ㅈㅏㄴㅣㅇㅏ -12397
▁ㄴㅗㄹㅡㅁㅏㅇㄷㅣ -12398
OT -12399
▁GM -12400
ㄷㅡㄹㅔ -12401
ㅅㅓㄴㅣ -12402
▁ㄱㅘㅌㅔ -12403
▁ㅂㅗㄹㅗ -12404
▁ㅅㅜㅇㅟ -12405
ㄷㅗㄹㅇㅣ -12406
▁ㅆㅣㅈㅗㄱ -12407
▁ㅂㅏㄱㅡㄴㅓ -12408
▁ㅈㅓㅇㅇㅝㄹ -12409
▁ㄱㅘㅌㅔㅁㅏㄹㄹㅏ -12410
▁ㄱㅛㅎㅑㅇㅇㅏㄱㄷㅏㄴ -12411
▁SA -12412
▁ㅂㅜㄷㅏ -12413
▁ㅁㅗㅂㅓㅁ -12414
▁ㅈㅓㄹㄱㅏㅁ -12415
▁ㅋㅗㄴㅅㅗㄹ -12416
▁ㄱㅡㄹㅏㅇㅜㄴㄷㅡ -12417
▁ㅇㅏㄴㅏㄹㄹㅗㄱㅡ -12418
▁ㄱㅡㅈㅓ -12419
▁ㅋㅗㅅㅗ -12420
▁ㄱㅘㄴㄹㅖ -12421
▁ㅊㅚㅇㅕㅇ -12422
▁ㅂㅏㄹㅅㅏㅇ -12423
▁ㅂㅗㅇㅇㅣㄴ -12424
▁colspan -12425
▁ㅈㅜㄱㅖㅇㅕㄹ -12426
▁ㅇㅓㅍㅏ -12427
ㅂㅣㄱㅜㄴ -12428
▁ㄱㅏㅇㄷㅏㅇ -12429
▁ㄷㅏㄴㅅㅗㄱ -12430
▁ㅂㅓㄴㅊㅏㅇ -12431
▁ㅊㅣㄴㅈㅗㄱ -12432
▁ㄹㅔㄷㅡㅅㅏㄱㅅㅡ -12433
▁ㅅㅡㅁㅣ -12434
▁ㅈㅐㄹㅐ -12435
ㅁㅏㄹㄹㅣ -12436
▁ㄱㅏㅈㅜㅇ -12437
▁ㄱㅗㅇㅅㅗ -12438
▁ㅅㅣㄱㅅㅡ -12439
▁ㅅㅏㄴㅌㅣㅇ -12440
▁ㅈㅣㄱㅅㅗㄱ -12441
▁ㅎㅕㅂㅇㅓㅂ -12442
▁ㅁㅗㄴㅌㅔㄴㅔㄱㅡㄹㅗ -12443
ㄷㅟ -12444
▁ㄷㅗㅍㅣ -12445
▁ㅎㅏㅋㅗ -12446
▁ㅂㅜㅎㅏㅂ -12447
▁ㅈㅔㄷㅏㄴ -12448
▁ㅂㅜㄱㄱㅜㄴ -12449
▁ㅈㅓㅇㅈㅓㅇ -12450
▁ㅅㅏㅇㅓㅂㅅㅗ -12451
▁ㅈㅓㅇㅇㅢㄷㅏㅇ -12452
▁ㅇㅠㅋㅡㄹㄹㅣㄷㅡ -12453
▁Or -12454
ㄴㅣㅁ -12455
ㅏㄱㅟ -12456
ㅐㄱㅡ -12457
ㄷㅗㄹㅏ -12458
ㅡㅅㅔㄴ -12459
▁ㄱㅕㅇㅇㅟ -12460
▁ㅈㅣㄱㅡㄱ -12461
▁ㅂㅏㄱㅅㅓㅇ -12462
ㅗㅅㅗㄱㄷㅗㄹㅗ -12463
▁ㅋㅣㅂ -12464
ㅋㅔㅇㅣ -12465
▁ㄱㅣㅅㅔ -12466
▁ㅌㅐㅎㅜ -12467
ㅅㅏㄹㅕㄱ -12468
ㅎㅏㄱㅔㄴ -12469
▁ㅅㅓㅊㅗㄱ -12470
▁ㅎㅏㅇㅇㅝㄴ -12471
▁ㅅㅏㅅㅜ -12472
▁ㄷㅗㅂㅏㄱ -12473
▁ㅈㅓㅇㄹㅕㅇ -12474
▁ㅊㅜㅇㄹㅕㄹ -12475
▁ㅅㅏㅇㅣㅌㅏㅁㅏ -12476
▁ㅌㅗㅇㅅㅣㄴㅅㅏ -12477
▁ㅋㅓㄴㅌㅡㄹㅗㄹㄹㅓ -12478
▁ㄹㅣㅈㅡ -12479
▁ㅂㅏㅈㅣ -12480
▁ㅇㅠㅅㅓ -12481
ㅂㅗㄴㅂㅜ -12482
ㅏㄹㅣㅋㅏ -12483
▁ㄱㅗㅇㅎㅘㅈㅓㅇ -12484
▁ㅋㅗㅍㅔㄴ -12485
▁ㅌㅏㄹㅏㄱ -12486
▁ㄴㅔㄹㅅㅡㄴ -12487
▁ㅇㅕㅇㅇㅏㅁ -12488
▁ㅎㅛㄱㅗㅎㅕㄴ -12489
▁ㅇㅏㅇㄱㅗㄹㄹㅏ -12490
US -12491
▁end -12492
▁ㅎㅚㄱㅟ -12493
▁ㄱㅜㄱㅇㅚ -12494
▁ㅇㅛㅇㅑㅇ -12495
▁ㄷㅐㅍㅛㅈㅏ -12496
▁ㄷㅗㅇㅈㅓㄱ -12497
▁ㅇㅕㅇㄷㅓㄱ -12498
▁ㅁㅣㅌㅗㅋㅗㄴ -12499
▁ㅁㅣㅌㅗㅋㅗㄴㄷㅡㄹㅣㅇㅏ -12500
▁4000 -12501
▁ㄱㅗㄹㅗ -12502
▁ㅂㅜㅍㅏ -12503
▁ㅎㅜㅇㅖ -12504
▁ㄱㅝㄴㅇㅕㄱ -12505
▁ㅈㅗㅇㅇㅕㅇ -12506
▁ㅍㅕㄴㄱㅕㄴ -12507
▁ㄷㅐㄷㅏㄴㅎㅣ -12508
▁ㅅㅣㄴㅈㅜㅋㅜ -12509
▁330 -12510
▁ㄱㅏㄴㅅㅏ -12511
▁ㄹㅏㅇㅜㄹ -12512
▁ㅈㅗㅅㅔㅂ -12513
▁ㅋㅡㄹㅣㅇ -12514
▁ㄱㅏㄴㅅㅣㄴㅎㅣ -12515
ㅗㅌㅡ -12516
▁ㅊㅜㅅㅓ -12517
ㄱㅛㅌㅗㅇ -12518
ㅊㅣㅎㅣ -12519
▁ㅈㅗㅅㅠ -12520
▁ㄷㅐㅊㅓㅇ -12521
▁ㄹㅗㅁㅏㅈㅏ -12522
▁ㄱㅣㅁㅇㅗㄱㄱㅠㄴ -12523
▁ㅌㅏㅅㅜ -12524
▁ㄱㅣㄹㅑㅇ -12525
▁ㅈㅜㅊㅏㅇ -12526
▁ㅅㅣㄱㅇㅛㅇ -12527
▁ㅇㅕㅇㅇㅝㄹ -12528
▁ㅇㅘㅇㄱㅜㅇ -12529
▁ㅎㅏㄹㅇㅣㄴ -12530
▁ㄹㅔㅇㅗㅍㅗㄹ -12531
▁ㅇㅗㅇㅣㄹㄹㅓ -12532
▁ㄷㅐㅂㅓㅂㄱㅘㄴ -12533
▁ㅇㅣㅅㅡㅌㅏㄴㅂㅜㄹ -12534
▁ㄷㅡㅂ -12535
▁ㅋㅐㅅ -12536
ㅓㄹㅅㅡ -12537
▁ㄱㅗㅅㅐㅇ -12538
▁ㅈㅜㅅㅓㄴ -12539
▁ㅊㅚㅅㅓㄴ -12540
▁ㅇㅓㅅㅣㅅㅡㅌㅡ -12541
▁ㅁㅔㄹㅣㄹㄹㅐㄴㄷㅡ -12542
oll -12543
ㅌㅏㄴㅏ -12544
▁1868 -12545
▁ㅂㅐㅂㅜㄴ -12546
▁ㄷㅏㄴㅁㅏㄹ -12547
▁ㅅㅜㅇㅛㅇㅣㄹ -12548
▁ㄱㅣㄴㅕㅁㅇㅣㄹ -12549
ㅔㄱㅗ -12550
▁ㅂㅐㄷㅏㄹ -12551
▁ㅅㅓㅁㅕㄴ -12552
▁ㅇㅏㄴㅌㅣㅇㅗ -12553
▁by -12554
▁ㅍㅗㅌㅗ -12555
ㅇㅠㅇㅎㅏㅂ -12556
▁ㄷㅗㅇㅅㅣㄷㅐ -12557
ㅌㅣㅁㅗㅇㅓ -12558
▁ㅅㅣㄹㅈㅡㅇ -12559
▁ㅇㅛㅊㅜㅇㅈㅣ -12560
▁ㅍㅔㅂ -12561
▁ㅈㅔㄴㅗ -12562
ㅎㅗㄹㅏㄴ -12563
▁ㅈㅗㄱㅂㅗ -12564
▁ㅋㅏㅌㅜㄴ -12565
▁ㅂㅜㄱㅇㅠㄹㅓㅂ -12566
▁ㅎㅐㄱㅇㅠㅇㅎㅏㅂ -12567
ㅋㅏㄹㄹㅣ -12568
▁ㄷㅐㄷㅓㄱ -12569
▁ㅇㅜㅇㅘㅇ -12570
▁ㅍㅏㅂㅓㄹ -12571
▁ㅋㅓㄹㅣㅇㅓ -12572
gin -12573
▁ㄱㅡㅂㅈㅡㅇ -12574
▁ㅅㅓㅇㅇㅝㄴ -12575
▁ㅊㅜㄱㅅㅏㄴ -12576
▁ㅇㅏㅋㅔㅇㅣㄷㅡ -12577
▁ㅆㅏㄱ -12578
▁ㄷㅗㄹㅐ -12579
ㅁㅏㄹㄹㅗ -12580
▁ㅂㅜㄹㄱㅖ -12581
▁ㅇㅠㅇㅕㅇ -12582
ㅌㅗㄹㅣㅋㅗ -12583
▁ㄷㅏㄴㅈㅓㅇ -12584
▁ㅅㅣㄴㅇㅣㅂ -12585
▁ㅂㅣㅅㅓㄱㅘㄴ -12586
▁ㅅㅓㄴㅈㅣㄴㄱㅜㄱ -12587
amp -12588
▁OB -12589
▁Girl -12590
▁ㅇㅠㄱㅗ -12591
▁ㅊㅚㅈㅣㄴ -12592
▁ㅎㅏㅇㄹㅗ -12593
▁ㅌㅔㄴㅔㅅㅣ -12594
▁320 -12595
▁ㅇㅟㅊㅗㄱ -12596
▁ㅁㅜㄴㅈㅗㅇ -12597
▁ㅋㅗㄹㄹㅓㅁ -12598
▁ㅍㅡㄹㅏㄴㅅㅣㅅㅡㅋㅗ -12599
ㅔㅁㅔㄴ -12600
▁ㄷㅟㅇㅣ -12601
ㅂㅜㄱㄱㅜ -12602
▁ㅁㅏㅆㅡㅁ -12603
▁ㅁㅗㅌㅓㅅ -12604
▁ㅂㅡㄹㅏㅁ -12605
▁ㅎㅏㄱㄹㅕㄱ -12606
▁ㅈㅓㄴㅂㅏㄴㄱㅣ -12607
▁ㅍㅣㅅ -12608
▁ㄱㅏㅇㅜ -12609
▁ㄹㅏㄱㅏ -12610
▁ㅅㅗㅇㅚ -12611
▁ㅎㅐㅍㅣ -12612
▁ㅂㅗㄹㅡㅁ -12613
▁ㅊㅏㅅㅓㄴ -12614
▁ㅈㅗㅇㅅㅣㄴ -12615
▁ㅋㅓㄴㅅㅓㄹ -12616
▁ㅅㅡㅋㅐㄴㄷㅡㄹ -12617
ㄱㅗㅇㅅㅏㄴㄷㅏㅇ -12618
▁ㄱㅘㄴㄱㅖㅇㅓㅄㅇㅣ -12619
RT -12620
ㅗㄴㅗ -12621
▁ㄴㅑㅇ -12622
ㅇㅡㄹㅗ -12623
▁ㅇㅚㄱㅘ -12624
▁ㅌㅡㅇㅣ -12625
▁ㄱㅕㄹㅅㅏ -12626
▁ㅇㅓㅇㅞㅇㅣ -12627
▁ㅋㅗㅍㅔㄴㅎㅏㄱㅔㄴ -12628
▁ㅋㅏㅁㅣ -12629
▁ㅁㅜㅅㅓㅂ -12630
▁ㅅㅓㅇㅅㅏㄴ -12631
▁ㅇㅣㅂㅏㅈㅣ -12632
▁ㅅㅏㅇㅣㅁㅓㄴ -12633
▁ㅇㅗㅅㅡㅌㅣㄴ -12634
▁ㅍㅛㅇ -12635
ㅎㅣㄷㅡ -12636
▁ㅎㅏㅇㅢ -12637
▁ㄹㅐㅇㅋㅡ -12638
▁ㅅㅣㅌㅡㅋㅗㅁ -12639
▁ㅇㅏㅁㅅㅡㅌㅔㄹㅡㄷㅏㅁ -12640
▁ㅍㅜㅇㅔㄹㅡㅌㅗㄹㅣㅋㅗ -12641
ㅈㅣㄱㅐ -12642
▁ㄲㅓㄴㅐ -12643
▁ㅇㅝㅋㅓ -12644
▁ㄷㅗㅅㅏㅇ -12645
▁ㅁㅓㅅㅈㅣ -12646
▁ㅊㅗㅇㅏㄴ -12647
ㄱㅡㄹㅏㄷㅡ -12648
▁ㅇㅕㅇㅊㅓㄴ -12649
▁ㅍㅡㄹㅐㄴㅊ -12650
ㅜㅌㅡ -12651
▁ㄹㅣㅁㅏ -12652
▁ㅅㅑㅍㅡ -12653
▁ㅇㅣㄴㅗ -12654
▁ㅅㅏㅊㅓㄴ -12655
▁ㄱㅏㅇㅅㅓㅇ -12656
▁ㄱㅜㄴㅂㅓㄹ -12657
▁ㅇㅑㅁㅏㅁㅗㅌㅗ -12658
▁DF -12659
ㅕㅈㅣ -12660
▁ㅎㅣㅌㅏ -12661
ㅂㅡㄹㄹㅣ -12662
▁ㄱㅘㄴㅇㅜ -12663
▁ㄱㅜㄱㄱㅛ -12664
▁ㄹㅓㅇㅣㄹ -12665
▁ㅎㅣㅂㅡㄹㅣ -12666
▁ㅅㅏㄹㅗㅈㅏㅂㅎㅣ -12667
▁Fe -12668
▁ㄱㅏㅌㅗ -12669
▁ㄹㅏㄱㅣ -12670
▁ㅇㅠㅇㅜ -12671
▁ㅇㅚㅎㅕㅇ -12672
▁ㅎㅏㄴㅈㅏㅇ -12673
▁ㅂㅡㄹㅟㅅㅔㄹ -12674
▁ㅇㅖㅋㅓㄴㄷㅐ -12675
▁ㅎㅔㅇㅣㅇㅏㄴ -12676
ㅈㅣㄴㅡㄹㅓㅁㅣ -12677
▁ㅋㅗㅅㅡㅌㅏㄹㅣㅋㅏ -12678
gr -12679
ㅅㅗㅅ -12680
▁ㅂㅏㅇㅗ -12681
▁ㅌㅏㄹㅗ -12682
▁ㄴㅔㅇㅣㅁ -12683
▁ㅍㅓㅈㅡㄹ -12684
▁ㅂㅏㄱㅅㅏㅇ -12685
▁ㅅㅏㅇㄱㅜㄱ -12686
▁ㅊㅜㄱㅈㅓㄴ -12687
▁ㅎㅗㅅㅡㅌㅡ -12688
▁ㅋㅜㅇㅞㅇㅣㅌㅡ -12689
ㅅㅏㅇㅜ -12690
ㅎㅕㅂㅎㅚ -12691
▁ㅇㅡㄴㅅㅣㄴ -12692
▁ㅅㅓㅎㅐㅇㅏㄴ -12693
▁ㅇㅕㅇㅇㅝㄴㅎㅣ -12694
▁ㅌㅔㄹㄹㅔㅋㅗㅁ -12695
▁ㅁㅏㅊㅡ -12696
▁ㅈㅗㅈㅔ -12697
ㅈㅣㅇㅐㄴㅏ -12698
▁ㄷㅐㅅㅏㅇㅈㅏ -12699
▁ㅅㅡㅋㅏㄹㄹㅏ -12700
▁ㅇㅔㄹㅡㄴㅅㅡㅌㅡ -12701
▁ㄹㅜㅇㅣㅈㅣㅇㅐㄴㅏ -12702
OW -12703
▁ㅇㅓㄱㅣ -12704
ㄱㅡㄹㄹㅣ -12705
▁ㄱㅠㅌㅏㄴ -12706
▁ㄹㅣㅌㅠㅁ -12707
▁ㅂㅜㅌㅈㅏㅂ -12708
▁ㅈㅏㅁㄲㅏㄴ -12709
▁ㅈㅓㅂㅈㅗㅇ -12710
▁ㅎㅓㄴㅈㅏㅇ -12711
ㄷㅣㄴㅏㅂㅣㅇㅏ -12712
▁ㅅㅏㄴㅌㅣㅇㅏㄱㅗ -12713
▁ㅇㅕㄴㅈㅏㅇㅈㅓㄴ -12714
▁ㅅㅡㅋㅏㄴㄷㅣㄴㅏㅂㅣㅇㅏ -12715
▁ㄱㅜㄴㅣ -12716
ㅍㅏㅇㅇㅣ -12717
▁ㄱㅛㅈㅣㄱ -12718
▁ㅁㅗㄹㅌㅏ -12719
▁ㅂㅔㅍㅜㄹ -12720
▁ㅇㅔㄴㄹㅣ -12721
▁ㅈㅜㅅㅓㅇ -12722
▁ㅂㅏㄹㄷㅗㅇ -12723
▁ㅂㅓㅂㄱㅘㄴ -12724
▁ㅎㅏㅁㅎㅡㅇ -12725
▁ㅍㅡㄹㅐㄴㅊㅏㅇㅣㅈㅡ -12726
▁ㅅㅏㅎㅚㅁㅣㄴㅈㅜㄷㅏㅇ -12727
▁ㄴㅗㅇㅏ -12728
▁ㅂㅗㄹㅜ -12729
▁ㄷㅏㅁㅂㅗ -12730
▁ㅇㅔㅇㅣㄴ -12731
▁ㅇㅜㅇㅝㄹ -12732
▁ㅂㅏㄹㅈㅓㄴㄱㅣ -12733
▁ㅂㅜㄹㄱㅖㅅㅡㅇ -12734
▁ㅊㅓㄴㅇㅏㄴㅅㅣ -12735
▁ㅇㅟㅈㅗ -12736
▁ㄱㅗㅇㅗㄴ -12737
▁ㅅㅏㅇㅇㅓ -12738
▁ㅈㅓㅇㅁㅗㅇ -12739
▁ㅂㅓㅂㅈㅗㅇㅣㄴ -12740
▁le -12741
▁ㄱㅘㅁ -12742
▁ㄱㅗㅇㅢ -12743
▁ㅁㅔㅅㅡ -12744
▁ㅊㅣㅎㅏ -12745
▁ㄷㅐㅇㅣㄴ -12746
▁ㅈㅗㅇㅕㅇ -12747
▁ㅊㅜㄹㄷㅗㅇ -12748
▁ㄴㅣㅋㅗㄹㄹㅏㅅㅡ -12749
▁ㅂㅗㄱㅇㅡㅁㅈㅜㅇㅢ -12750
▁ㅎㅜㅋㅜㅇㅗㅋㅏㅎㅕㄴ -12751
ung -12752
▁1893 -12753
▁ㄹㅔㅍㅡ -12754
▁ㅂㅜㄱㅛ -12755
▁ㄴㅗㄹㅏㅇ -12756
▁ㄷㅗㅇㅍㅗ -12757
▁ㅅㅔㄹㅕㄴ -12758
▁ㅇㅠㅎㅏㄱㅈㅏ -12759
▁203 -12760
▁ㄱㅐㅅ -12761
ㅁㅣㅅㅏ -12762
▁ㄷㅐㄷㅗ -12763
▁ㄹㅣㅋㅗ -12764
▁ㄷㅗㅇㅑㅁㅏ -12765
▁ㅊㅡㄱㄹㅑㅇ -12766
▁ㄱㅛㅇㅠㄱㅈㅏ -12767
▁ㄹㅏㅇㅣㄴㅇㅓㅂ -12768
ㅣㄹㄹㅗ -12769
▁ㅇㅗㅋㅜ -12770
▁ㅂㅡㄹㄹㅗ -12771
▁ㅍㅖㄹㅕㅁ -12772
▁ㄱㅕㄹㅎㅐㄱ -12773
▁ㄱㅜㄱㅊㅓㄹ -12774
▁ㅈㅡㅇㅍㅗㄱ -12775
▁ㅋㅏㅌㅏㄹㄹㅜㄴㅑ -12776
▁ㅇㅣㅌㅏㄹㄹㅣㅇㅏㅇㅓ -12777
ㅎㅡㄺ -12778
ㅣㅍㅏ -12779
ㅍㅡㄹㅔ -12780
▁ㄱㅓㅊㅓ -12781
▁ㅅㅡㅋㅣㅁ -12782
▁ㅇㅔㄴㄷㅡ -12783
▁ㅈㅏㅇㄷㅓㄱ -12784
▁ㅈㅜㄴㅈㅏㅇ -12785
▁Univers -12786
▁ㅈㅏㅅㅓㅈㅓㄴ -12787
▁ㅍㅔㄹㄹㅣㄱㅅㅡ -12788
▁ㅌㅏㄴㅈㅏㄴㅣㅇㅏ -12789
ㅎㅐㅈㅏ -12790
▁ㄴㅗㅎㅜ -12791
▁ㅈㅓㅈㅗ -12792
ㄷㅏㄴㅈㅣ -12793
▁ㄲㅡㅀㅇㅣ -12794
▁ㅁㅏㄱㅡㄴ -12795
▁ㅇㅓㄺㅎㅣ -12796
▁ㄱㅡㅁㄷㅗㅇ -12797
▁ㅅㅓㄴㅇㅣㄴ -12798
▁ㅈㅓㅇㅂㅏㄴ -12799
▁ㅈㅣㄱㅎㅐㅇ -12800
▁ㄷㅗㄱㅅㅜㄹㅣ -12801
▁ㅇㅕㅅㅓㅇㅈㅜㅇㅢ -12802
ㅇㅜㄹㅣ -12803
ㅎㅕㄴㅐ -12804
▁ㄴㅓㅁㅓ -12805
▁ㅁㅗㄷㅓㄴ -12806
▁ㄱㅣㅁㅊㅓㄴ -12807
▁ㅎㅏㄱㅈㅏㅇ -12808
▁ㅂㅏㄺㅎㅕㄴㅐ -12809
▁ㄱㅡㅂㅅㅗㄱㅎㅣ -12810
▁ㅇㅔㅅㅡㅍㅔㄹㅏㄴㅌㅗ -12811
▁TBS -12812
▁Rock -12813
▁ㅅㅏㅊㅣ -12814
▁ㅁㅔㅇㅣㄹ -12815
▁ㅎㅐㅇㅘㅇ -12816
▁ㄱㅣㅁㅇㅠㄴ -12817
▁ㅈㅏㅇㅂㅕㅇ -12818
▁ㅎㅏㅁㄱㅕㅇㅂㅜㄱㄷㅗ -12819
▁ㅇㅕㅁㄹㅕ -12820
▁ㅈㅓㄴㅅㅔ -12821
▁ㅊㅗㅈㅓㄴ -12822
▁ㅎㅓㄴㅌㅓ -12823
▁ㅋㅏㄹㅅㅠㅁ -12824
▁LED -12825
▁ㄴㅐㅂㅜㄴ -12826
▁ㅊㅓㅇㄱㅖ -12827
ㅌㅡㄹㅣㅅㅡ -12828
▁ㅇㅜㅇㅢㅈㅓㅇ -12829
▁ㅈㅘㅇㅢㅈㅓㅇ -12830
▁ㅍㅣㄱㅊㅓㅅㅡ -12831
▁ㄱㅏㄱㅗㅅㅣㅁㅏ -12832
▁ㅎㅘㅈㅏㅇㅍㅜㅁ -12833
▁ㅅㅏㅇㅜㄴㄷㅡㅌㅡㄹㅐㄱ -12834
▁NP -12835
ㄲㅓㅅ -12836
ㅂㅣㅋㅡ -12837
▁ㅁㅏㅋㅣ -12838
▁ㅂㅡㄹㅡ -12839
▁ㅇㅔㅍㅡ -12840
▁ㅎㅗㅅㅡ -12841
ㅅㅏㅇㅅㅣ -12842
▁ㅂㅓㅅㅓㅅ -12843
▁ㅍㅛㅈㅓㅇ -12844
▁ㅎㅏㄴㅋㅠ -12845
▁ㅎㅠㅇㅑㅇ -12846
▁ㅂㅜㄹㄱㅕㅇ -12847
▁ㅇㅏㅂㄹㅗㄱ -12848
▁ㄹㅔㅅ -12849
ㅂㅏㅇㅗ -12850
ublic -12851
▁ㄹㅣㅋㅏ -12852
▁ㅈㅜㅇㄱㅗㅇㄱㅜㄴ -12853
LA -12854
les -12855
▁Mo -12856
ㅋㅜㄴ -12857
▁Car -12858
▁ㄴㅔㅌㅣ -12859
▁ㄲㅡㄶㄱㅣ -12860
▁ㄴㅏㅁㅎㅏ -12861
▁ㅅㅜㄴㅊㅏ -12862
▁ㅇㅗㄴㅎㅘ -12863
▁ㄴㅡㅇㄷㅗㅇ -12864
▁ㄷㅗㅈㅏㄱㅣ -12865
▁ㅅㅓㅅㅏㅅㅣ -12866
eth -12867
ㅇㅣㅇㅓ -12868
▁ㄷㅗㄴㅔ -12869
▁ㅅㅏㅇㅏㄴ -12870
▁ㅈㅏㅇㄴㅕ -12871
▁ㄷㅗㅇㅎㅑㅇ -12872
▁ㅍㅡㄹㄹㅏㅇㅋㅡ -12873
▁ㅋㅓㄴㅌㅔㅇㅣㄴㅓ -12874
▁GNU -12875
▁IOC -12876
▁ㅉㅣㅈ -12877
▁ㅈㅗㄴㅣ -12878
ㄷㅏㅇㄱㅣ -12879
▁ㅂㅓㅁㅎㅏ -12880
ㅍㅗㄱㅌㅏㄴ -12881
▁ㅂㅓㅁㅎㅐㅇ -12882
▁ㅅㅓㅊㅗㄱㅜ -12883
▁ㅇㅛㅅㅣㄴㅗ -12884
▁ㅍㅖㄱㅣㅁㅜㄹ -12885
▁ㅎㅐㅇㅏㄴㄱㅏ -12886
▁ㄱㅜㄴㅅㅏㄹㅕㄱ -12887
▁ㅊㅗㅋㅗㄹㄹㅣㅅ -12888
▁Rec -12889
▁ㄱㅏㅇㅈㅣㄴ -12890
▁ㅂㅔㄹㅡㅌㅏ -12891
▁ㅅㅓㅇㅇㅏㄱ -12892
▁ㅈㅓㄴㅎㅏㄱ -12893
▁ㅊㅣㅇㅅㅗㅇ -12894
▁ㅍㅡㄹㅣㅅㅡ -12895
▁ㅂㅓㅌㅓ -12896
▁ㅂㅣㄷㅐ -12897
▁ㅎㅜㅎㅏ -12898
▁ㅇㅝㄹㅌㅡ -12899
ㄲㅗㄹㅣ -12900
▁from -12901
ㅅㅔㄹㄹㅓ -12902
▁ㄱㅐㄱㅊㅏ -12903
▁ㄱㅔㄲㅡㅁ -12904
▁ㄷㅐㄱㅏㅇ -12905
▁ㅎㅕㄴㅍㅏㄴ -12906
▁ㅂㅏㄹㅅㅏㅊㅔ -12907
▁ㅇㅠㅈㅓㄱㅈㅣ -12908
▁ㄱㅔㅇㅗㄹㅡㅋㅡ -12909
▁ㅁㅣㄴㅗ -12910
▁ㅇㅣㅎㅚ -12911
▁ㅈㅏㅈㅐ -12912
▁ㅅㅐㅇㄹㅣ -12913
▁ㅊㅓㄴㅁㅏ -12914
▁ㅎㅡㅂㅅㅏ -12915
▁ㄴㅗㅁㅣㅇㅑ -12916
▁ㅂㅣㅅㅡㅌㅏ -12917
▁ㅅㅡㅌㅡㄹㅗ -12918
▁Comp -12919
▁ㄱㅡㅁㅈㅓㄴ -12920
▁ㄱㅣㅁㅅㅓㄴ -12921
▁ㅍㅏㅅㅣㅈㅡㅁ -12922
▁ㅇㅟㅅㅂㅜㅂㅜㄴ -12923
▁280 -12924
▁ㅁㅣㅅ -12925
ㅌㅏㄱㅗ -12926
▁ㄴㅐㅁㅜ -12927
ㅇㅣㄱㅅㅡ -12928
▁ㄷㅏㅇㄴㅛ -12929
▁ㅇㅑㅇㅂㅗ -12930
▁ㅂㅜㄴㄷㅏㄴ -12931
▁ㅇㅣㄴㄱㅗㅇㅇㅟㅅㅓㅇ -12932
▁ㅍㅡㄹㄹㅗㄹㅣㄷㅏㅈㅜ -12933
▁ㅌㅔㅋ -12934
▁ㅈㅏㅅㅜ -12935
▁ㅅㅣㅅㅗㄱ -12936
▁ㅁㅕㅇㅇㅣㄴ -12937
▁ㅇㅏㅁㅁㅗㄴ -12938
▁ㅈㅣㅂㅏㅎㅕㄴ -12939
▁ㄱㅏㅇㅘㅅㅏㅋㅣ -12940
oth -12941
▁IV -12942
▁ㅊㅣㅇㅠ -12943
▁ㅋㅐㄹㅣ -12944
▁ㅅㅔㄹㄹㅔ -12945
▁ㅇㅜㅇㅔㅅㅡ -12946
▁ㄹㅣㅁㅣㄱㅅㅡ -12947
▁ㄷㅗㅋㅏㅇㅣㄷㅗ -12948
▁Sup -12949
▁ㅅㅣㅇㅜ -12950
▁ㄱㅜㄷㅗㄱ -12951
▁ㄷㅐㅈㅣㄴ -12952
▁ㅂㅏㅇㅜㄹ -12953
▁ㅅㅔㄱㅜㄴ -12954
▁ㄱㅗㅇㅇㅏㄴ -12955
▁ㅊㅓㅇㅅㅗㅇ -12956
▁ㅎㅕㅇㅍㅕㄴ -12957
▁ㄱㅕㄹㄱㅘㅁㅜㄹ -12958
ㅇㅣㄱㅅㅡㅍㅣㅇㅓ -12959
▁ㅅㅓㅈㅜ -12960
▁ㅈㅜㅅㅔ -12961
▁ㅎㅚㄱㅗ -12962
ㄷㅏㅇㅜㄴ -12963
▁ㅇㅟㄹㅕㄱ -12964
▁ㅎㅏㅇㅣㅂ -12965
▁ㅇㅣㅂㅏㄹㅏ -12966
▁ㅈㅏㄴㅇㅣㄴ -12967
▁ㅅㅖㅇㅣㄱㅅㅡㅍㅣㅇㅓ -12968
▁Am -12969
▁ㅈㅏㅇㅣ -12970
▁ㅍㅔㅇㅗ -12971
▁ㅎㅜㅇㅠ -12972
ㅎㅘㅎㅏㄱ -12973
ㅡㄱㅗㄴㅠ -12974
▁ㅇㅣㅂㅗㅇ -12975
▁ㅂㅗㄱㅈㅗㅇ -12976
▁ㅅㅡㅂㄱㅘㄴ -12977
▁ㅇㅏㅇㅜㄹㅡ -12978
▁ㅊㅓㅇㄹㅑㅇ -12979
▁ㅎㅏㄴㅁㅜㄴ -12980
▁ㅂㅜㄹㅡㄱㅗㄴㅠ -12981
▁ㅋㅓㄹㄹㅔㄱㅅㅕㄴ -12982
▁Su -12983
▁230 -12984
▁ㅇㅑㅋ -12985
ㅈㅔㅇㅣ -12986
▁ㄱㅜㅁㅏ -12987
▁ㅁㅔㅅㅗ -12988
▁ㅊㅣㅋㅏ -12989
▁ㅅㅣㅁㅜㄴ -12990
▁ㅌㅗㅁㅅㅡㄴ -12991
▁ㅍㅡㄹㄹㅗㄹ -12992
▁AB -12993
▁ㅇㅟㄹㅗ -12994
▁ㄱㅏㄱㄹㅛ -12995
▁ㅂㅜㄴㅅㅏ -12996
▁ㅈㅓㅁㄱㅓ -12997
▁ㅇㅣㅈㅡㅁㅣ -12998
▁ㅍㅡㄹㅏㄴㅊㅣ -12999
▁ㅁㅜㄴㅈㅏㅇㅕㄹ -13000
▁ㄴㅡㅍ -13001
ㅗㄱㅓㄴ -13002
▁ㅂㅐㄹㅣ -13003
ㅌㅐㅍㅕㅇ -13004
▁ㄱㅣㅁㅅㅡㅇ -13005
▁ㅇㅜㄴㅇㅣㅁ -13006
▁ㅁㅜㅅㅣㄹㅈㅓㅁ -13007
ㅃㅏㅇ -13008
ㅡㅇㅞ -13009
ㅍㅏㄱㅜ -13010
▁ㅁㅏㅋㅏ -13011
▁ㅅㅜㄹㅗ -13012
▁ㅁㅕㅇㅂㅜ -13013
▁ㅅㅜㄹㅑㅇ -13014
ㅣㄴㅅㅡㅌㅓ -13015
▁ㄹㅔㅇㅣㄴㅈㅓㅅㅡ -13016
▁ar -13017
▁1888 -13018
▁ㄷㅗㅇㅣ -13019
▁ㅂㅐㄱㅈㅏ -13020
▁ㄱㅘㄴㅅㅓㅇ -13021
▁ㄴㅗㅅㅡㅋㅐ -13022
▁ㅅㅐㄴㄷㅣㅇ -13023
▁ㄴㅗㅅㅡㅋㅐㄹㅗㄹㄹㅏㅇㅣㄴㅏ -13024
▁ㅇㅗㅇㅏ -13025
ㅣㅇㅔㄹㅡ -13026
▁ㅁㅣㅅㅓㅇ -13027
▁ㅁㅣㅅㅣㄱ -13028
ㄷㅡㄹㅏㅁㅏ -13029
▁ㄱㅗㅇㅇㅑㅇ -13030
▁ㅈㅣㅁㅅㅡㅇ -13031
▁ㅍㅔㄹㅡㅅㅣ -13032
▁ㅇㅟㅇㅏㄴㅂㅜ -13033
▁ㅈㅜㅇㅇㅏㅇㅇㅡㄴㅎㅐㅇ -13034
▁ㄴㅗㅇㅈㅣ -13035
▁ㅁㅏㅇㅊㅣ -13036
▁ㅇㅠㅈㅗㄱ -13037
▁ㄱㅏㄴㅈㅣㄱ -13038
▁ㅅㅓㄱㄱㅏㅁ -13039
▁ㅅㅔㅂㅣㅇㅑ -13040
▁ㅅㅏㅅㅏㅇㄱㅏ -13041
▁ㄴㅗㄱㅅㅐㄱㄷㅏㅇ -13042
▁ㄱㅕㄱㅌㅜ -13043
▁ㅈㅓㄹㅈㅔ -13044
▁ㅍㅏㅍㅕㄴ -13045
▁ㅎㅑㅇㄱㅣ -13046
▁ㄷㅔㅇㅣㅂㅡ -13047
▁ㅈㅣㅂㅊㅏㄱ -13048
▁ㅅㅡㅌㅐㄴㄹㅣ -13049
▁ㅁㅣㄴㅂㅕㅇㄷㅐ -13050
ㅡㅁㅗ -13051
▁1892 -13052
▁ㄷㅐㅊㅏ -13053
▁ㄹㅣㅂㅡ -13054
▁ㅇㅏㅋㅔ -13055
▁ㅌㅗㅇㅣ -13056
▁ㄴㅓㅁㅜㄴㅏ -13057
▁ㅅㅏㄴㅊㅓㅇ -13058
▁ㄱㅏㄹㅏㅇㅏㄵ -13059
▁Do -13060
▁ㅂㅓㄹㅓ -13061
▁ㅅㅏㅋㅓ -13062
▁ㅈㅓㄴㅁㅣ -13063
▁ㄷㅔㄹㅕㄱㅏ -13064
▁ㄷㅗㅇㅈㅗㅇ -13065
▁ㅇㅛㅇㅍㅜㅁ -13066
▁ㅇㅣㄴㅌㅓㄹ -13067
▁ㅊㅓㄴㅊㅓㄴ -13068
AI -13069
▁Sw -13070
▁ㅋㅔㅁ -13071
▁ㅍㅔㅇ -13072
▁ㄱㅕㄹㅜ -13073
▁ㄴㅏㅇㅜ -13074
▁ㅅㅡㄱㅏ -13075
▁ㅈㅡㅇㅇㅗ -13076
▁ㅇㅜㄹㄹㅡㅇ -13077
▁ㅎㅘㅇㅅㅏㄴ -13078
▁ㄷㅐㅁㅕㅇㅅㅏ -13079
▁ㄷㅔㅇㅣㄹㄹㅣ -13080
▁ㅂㅏㅅㅣㄹㄹㅣ -13081
▁ㄷㅔㅅㅡㅋㅡㅌㅗㅂ -13082
▁ㅅㅜㄴㅇㅑㅇㅎㅏㅁ -13083
▁ㄱㅗㅅㅡ -13084
▁ㄱㅜㅊㅣ -13085
▁ㅇㅣㅂㅓㅁ -13086
▁ㅊㅔㄹㄹㅗ -13087
▁ㅅㅜㄴㅏㄹㅏ -13088
▁ㄱㅣㅇㅓㅂㄱㅏ -13089
▁ㄱㅏㅁㅕㄴㄹㅏㅇㅣㄷㅓ -13090
▁ㅍㅡㄹㅔㅇㅣㅁㅇㅝㅋㅡ -13091
▁wh -13092
▁ㄱㅗㄴㅗ -13093
▁ㄴㅗㅍㅡ -13094
▁ㅋㅏㅇㅘ -13095
▁ㄹㅐㅁㅍㅡ -13096
▁ㅁㅔㅌㅣㄹ -13097
▁ㅇㅐㅇㅣㄴ -13098
▁ㅌㅏㄹㅊㅟ -13099
▁ㅎㅏㄴㅂㅓㄴ -13100
▁ㄱㅣㄱㅘㄴㅈㅣ -13101
▁ㄱㅏㅅㅗㄹㄹㅣㄴ -13102
▁ㅇㅜㅇㅜㄹㅈㅡㅇ -13103
▁ㅍㅔㄴㅅㅣㄹㅂㅔㅇㅣㄴㅣㅇㅏ -13104
ㅌㅏㄴㅗ -13105
ㄷㅡㄹㄹㅓ -13106
▁ㄱㅕㄱㅎㅏ -13107
▁ㄱㅖㄹㅑㅇ -13108
▁ㅇㅝㄴㅎㅘㄹ -13109
▁ㅊㅓㄴㅊㅓㄴㅎㅣ -13110
ㅣㅋㅏ -13111
ㄱㅏㅇㅘ -13112
▁ㅋㅗㄹㅣ -13113
ㄹㄹㅣㅅㅡ -13114
▁ㅊㅏㅁㅁㅗㅊㅗㅇㅈㅏㅇ -13115
▁ㅎㅗㅋㅡ -13116
▁ㅇㅑㅇㄷㅐ -13117
▁ㅇㅝㄴㅅㅏㅇ -13118
▁ㅂㅜㄹㅡㅈㅜㅇ -13119
▁ㅅㅠㅌㅏㅇㅣㄴ -13120
▁CG -13121
▁ㄴㅠㅇ -13122
▁ㅋㅏㅁㅏ -13123
▁ㅁㅜㄷㅏㄴ -13124
▁ㅇㅣㅅㅏㄴ -13125
▁ㅋㅔㄴㅌㅡ -13126
▁ㄴㅏㄱㅇㅑㅇ -13127
▁ㄴㅗㅇㅊㅜㄱ -13128
▁ㅅㅏㄴㅅㅡㅋ -13129
▁ㅅㅚㄱㅗㄱㅣ -13130
▁ㅈㅗㅅㅓㄴㅇㅘㅇ -13131
▁ㅅㅏㄴㅅㅡㅋㅡㄹㅣㅌㅡ -13132
▁ㅋㅠㅂㅡ -13133
▁ㄱㅟㅅㅗㄱ -13134
ㅁㅏㄹㅡㅋㅡ -13135
▁ㅇㅣㅂㅎㅓㄴ -13136
▁ㅈㅓㅁㄱㅓㅁ -13137
▁ㄱㅏㅇㅎㅘㄷㅗ -13138
▁ㅈㅓㄹㄷㅗㅅㅏ -13139
▁IR -13140
ㅅㅔㅇㅠ -13141
▁ㅋㅏㅌㅔ -13142
▁ㅎㅗㄹㅡ -13143
▁ㅍㅔㄹㅌㅡ -13144
▁ㄹㅗㅇㅣㄷㅡ -13145
▁ㅂㅏㄴㄷㅗㅇ -13146
▁ㅅㅓㅂㅏㅇㅣ -13147
▁ㄷㅗㅇㅁㅐㅇㄱㅜㄱ -13148
AE -13149
▁ㄷㅗㅊㅜㄹ -13150
▁ㅅㅣㅈㅣㄱ -13151
ㄷㅗㄱㄹㅣㅂ -13152
ㅎㅗㅇㅅㅐㄱ -13153
▁ㅎㅏㅂㅊㅓㄴ -13154
▁ㄱㅡㄹㄹㅐㅅㅡ -13155
▁ㅅㅣㅈㅣㄱㄱㅕㅇ -13156
▁ㄱㅜㄱㅈㅓㅇㅇㅝㄴ -13157
ㅅㅜㄹㅗ -13158
▁ㄹㅣㅊㅏ -13159
▁ㅅㅏㄱㅟ -13160
ㄹㅣㅇㅓㄴ -13161
▁ㅇㅣㅁㄱㅖ -13162
▁ㅈㅏㄹㅣㅂ -13163
▁ㅊㅓㄱㄷㅗ -13164
▁ㄱㅗㅇㅂㅓㅂ -13165
▁ㅈㅓㅇㅈㅣㄴ -13166
▁ㅅㅓㄱㅣㄱㅘㄴ -13167
▁ㄷㅐㄱㅗㅇㄱㅜㄱ -13168
▁ㅂㅜㄱㅈㅗㅅㅓㄴ -13169
ㄴㅣㅇ -13170
▁ㄹㅏㄹㅡ -13171
ㅇㅕㄱㅐㄱ -13172
ㅈㅏㄷㅗㅇ -13173
ㅡㄹㅏㄷㅡ -13174
▁ㄱㅣㄴㅋㅣ -13175
▁ㅂㅐㅇㅑㅇ -13176
▁ㅅㅓㄴㅇㅑㅇ -13177
ㅋㅠㅇㅓ -13178
▁ㅈㅏㄱㅜㅇ -13179
▁ㅋㅔㅇㅣㅋㅡ -13180
▁ㅅㅗㅎㅏㄱㄱㅛ -13181
▁ㄱㅏㄹㅡㅅㅣㅇㅏ -13182
▁ㅅㅏㅇㄱㅘㄴㅇㅓㅄㅇㅣ -13183
▁co -13184
ㅏㅎㅣㅁ -13185
▁ㄱㅏㅂㅜ -13186
▁ㅁㅏㅇㅛ -13187
▁ㅇㅓㅇㅢ -13188
ㅇㅓㄴㅓㅎ -13189
▁ㄷㅐㅈㅓㅂ -13190
▁ㅇㅕㄴㅎㅚ -13191
▁ㅇㅣㅁㅏㄴ -13192
ㄱㅘㅇㅅㅓㅇ -13193
▁ㄱㅣㄴㅁㅣㄹ -13194
▁ㅈㅓㄴㅈㅜㅅㅣ -13195
▁ㅎㅓㄷㅡㅅㅡㄴ -13196
▁ㄴㅓㄹ -13197
▁ㄲㅣㅇㅜ -13198
▁ㄱㅕㄴㄱㅗ -13199
▁ㄱㅣㅃㅡㅁ -13200
▁ㄴㅣㅋㅔㄹ -13201
▁ㅅㅗㄴㄴㅕ -13202
▁ㅍㅕㄴㅎㅑㅇ -13203
▁ㄷㅏㅇㅣㅂㅣㅇ -13204
▁ㄱㅕㅇㄱㅖㅅㅓㄴ -13205
EST -13206
ㅏㅁㅣㄴ -13207
▁ㅂㅐㄱㅣ -13208
▁ㅇㅠㅁㅜ -13209
▁ㅇㅣㅌㅐ -13210
▁ㅁㅐㄷㅏㄹ -13211
▁ㄱㅏㄴㅎㅗㄱ -13212
▁ㅇㅡㅁㅇㅜㄴ -13213
▁ㅇㅐㄴㅅㅓㄴㅣ -13214
▁ㅅㅏㅋ -13215
▁ㅋㅏㅌㅡㄹ -13216
▁ㅎㅏㄱㅡㅂ -13217
▁ㄱㅏㅇㅎㅐㅇ -13218
▁ㅁㅜㄹㄹㅕㅈㅜ -13219
▁ㅇㅐㄷㅓㅁㅅㅡ -13220
▁ㅈㅣㄹㅣㅎㅏㄱ -13221
▁1876 -13222
▁ㄴㅗㄹㅏㅎ -13223
▁ㅂㅗㄹㄹㅗㄴ -13224
▁ㅂㅔㅇㅣㅅㅣㅅㅡㅌㅡ -13225
ah -13226
▁260 -13227
ㄷㅜㄹㅏ -13228
▁ㅋㅗㅎㅗ -13229
ㅂㅏㅇㅣㄴ -13230
▁ㅅㅏㅂㅕㄴ -13231
▁ㄱㅡㅁㅏㄴㅋㅡㅁ -13232
▁ㄹㅗㅂㅣㄴㅅㅡㄴ -13233
▁ㅂㅜㅂㅜㄴㄱㅜㄴ -13234
ron -13235
ㅇㅢㅅㅏ -13236
▁1886 -13237
▁ㅈㅗㄱㅐ -13238
▁ㄱㅗㅈㅣㅂ -13239
▁ㄸㅟㅇㅓㄴ -13240
▁ㅅㅓㅇㄱㅣ -13241
▁ㅈㅔㅊㅏㅇ -13242
▁ㅈㅔㅊㅓㄹ -13243
▁ㄱㅗㄹㅕㄷㅐ -13244
aw -13245
ㅈㅏㄹㅏ -13246
▁ㄹㅗㅋㅡ -13247
▁ㅅㅓㅇㅖ -13248
ㄱㅏㄹㄹㅣ -13249
ㄹㅕㄷㅡㄹ -13250
▁ㅇㅐㄴㄷㅣ -13251
▁ㅌㅡㄱㅅㅏ -13252
▁ㅌㅡㄹㅔㄴ -13253
▁ㅂㅗㄱㅅㅣㅇ -13254
▁ㅇㅓㄹㄹㅜㄱ -13255
▁ㅇㅣㅇㅓㅈㅜ -13256
▁ㅈㅓㄴㄹㅏㄱ -13257
▁ㅊㅜㄱㅅㅓㅇ -13258
▁ㄱㅜㄱㅈㅔㅅㅓㄴ -13259
▁ㄷㅐㅈㅜ -13260
▁ㄷㅗㄹㅏ -13261
▁ㅇㅏㅊㅡ -13262
▁ㅇㅟㄱㅖ -13263
▁ㅈㅏㅈㅣㄴ -13264
▁ㅎㅕㄴㄱㅘ -13265
▁ㄱㅛㄱㅜㅈㅏㅇ -13266
▁ㅁㅣㄹㄹㅕㄴㅏ -13267
▁ㅅㅡㅌㅔㅇㅣㄴ -13268
▁ㅂㅏㄱㅌㅔㄹㅣㅇㅏ -13269
▁ㅇㅞㅅㅡㅌㅡㅁㅣㄴㅅㅡㅌㅓ -13270
ㄷㅣㅅ -13271
▁Gre -13272
▁ㅇㅟㅍㅐ -13273
▁ㅇㅝㄴㅇㅠ -13274
▁ㅊㅏㅊㅡㅁ -13275
▁ㅊㅓㄹㅈㅓㅎㅣ -13276
▁ㅅㅏㅁㄱㅏㄱㅈㅜ -13277
▁ㅍㅔㄹㅡㄴㅏㄴㄷㅗ -13278
▁USB -13279
ㅁㅣㅌㅡ -13280
ㅅㅡㅇㅞ -13281
ㅈㅣㄴㅗ -13282
▁ㄱㅏㄴㅔ -13283
▁ㅈㅣㄱㄱㅖ -13284
ㅂㅜㄴㅇㅕㄹ -13285
▁ㅅㅏㅇㅈㅓㅇ -13286
▁ㅈㅓㄴㄱㅝㄴ -13287
▁ㅊㅏㅅㅔㄷㅐ -13288
▁270 -13289
▁ㅇㅕㄷㅗ -13290
▁ㅇㅗㅎㅏ -13291
▁ㅆㅏㅇㄷㅐ -13292
▁ㅇㅣㄴㅈㅔ -13293
▁ㅈㅓㄴㅅㅜ -13294
▁ㅌㅗㅇㅍㅖ -13295
▁ㅈㅏㄹㅏㄴㅏ -13296
▁ㄷㅓㅇㅇㅓㄹㅣ -13297
land -13298
ㅏㄹㅣㄴ -13299
ㅡㄹㅏㅇ -13300
▁ㅁㅗㄴㅣㅇ -13301
▁ㅂㅐㅇㅕㄱ -13302
▁ㅅㅐㅇㅁㅗ -13303
▁ㅈㅗㄹㅗㅇ -13304
▁ㅊㅣㅁㄹㅖ -13305
▁ㅍㅓㄴㄷㅡ -13306
▁ㅋㅡㄹㅔㅇㅣ -13307
▁ㄱㅏㄴㅅㅏㅇㅣ -13308
▁ㅎㅘㅇㅛㅇㅣㄹ -13309
▁ㅊㅜㄱㄱㅜㅌㅣㅁ -13310
▁1866 -13311
ㄱㅛㅇㅣㄴ -13312
▁ㄱㅗㅇㅅㅣ -13313
▁ㄱㅜㄴㄷㅔ -13314
▁ㅇㅡㄹㅕㄴ -13315
▁ㅊㅐㅅㅐㄱ -13316
▁ㄱㅜㄴㄱㅘㄴ -13317
▁ㅅㅣㅁㅁㅜㄴ -13318
▁ㅇㅏㄹㅍㅗㄴ -13319
▁ㅋㅔㅇㅣㅌㅡ -13320
▁ㅍㅕㅇㅇㅏㄴㄷㅗ -13321
▁ㄱㅓㅁㅣ -13322
▁ㄹㅏㄷㅡ -13323
▁ㅍㅓㅅㅡ -13324
▁ㄱㅗㄹㅕㅅㅏ -13325
▁ㅂㅗㄹㄹㅗㄴㅑ -13326
▁ㅍㅡㄹㅣㄴㅅㅡㅌㅓㄴ -13327
▁KB -13328
ㅌㅏㅅㅡ -13329
ㅌㅣㅇㅑ -13330
▁ㄲㅜㄹㅣ -13331
ㄱㅡㄹㅜㅂ -13332
▁ㄱㅡㄹㄹㅗ -13333
▁ㅅㅏㄴㅎㅗ -13334
▁ㅍㅣㅅㅏㄹ -13335
ㅍㅏㅇㅣㅇㅓ -13336
▁ㅂㅓㄴㄱㅏㄹ -13337
▁ㅋㅗㅅㅗㅂㅗ -13338
▁ㄷㅐㅈㅓㄴㅊㅏ -13339
▁it -13340
ㅗㅋㅣ -13341
▁ㅍㅣㄷㅡ -13342
▁ㅎㅡㅇㅂㅜㄴ -13343
▁ㄹㅗㅅㅡㅋㅜㄹ -13344
▁ㅂㅗㅅㅏㄹㅅㅏㅇ -13345
▁ㅂㅡㄹㅣㅌㅣㅅㅣ -13346
▁ㅇㅏㄹㄹㅔㄱㅅㅏㄴㄷㅡㄹㅗㅅㅡ -13347
ㄷㅔㄹㅏ -13348
▁ㅍㅕㄴㅐ -13349
▁ㅈㅜㅁㅓㄱ -13350
▁ㅁㅜㄹㄱㅕㄹ -13351
▁ㅍㅜㅇㅅㅡㅂ -13352
▁ㅇㅗㄹㄹㅣㅂㅓ -13353
▁ㅍㅔㄹㄹㅣㅍㅔ -13354
▁ㄱㅕㅇㅇㅕㅇㅎㅏㄱ -13355
▁ㅂㅔㄴㅔㄷㅣㄱㅌㅗ -13356
▁SV -13357
▁ㄷㅗㅅ -13358
ㄱㅓㅅㅡ -13359
▁ㅎㅏㅂㅣ -13360
▁ㄷㅜㄱㅏㄱ -13361
▁ㅅㅜㄴㄹㅖ -13362
▁ㅅㅜㄹㅕㄱ -13363
▁ㅈㅏㅇㄹㅐ -13364
▁ㅅㅡㅇㄷㅏㄴ -13365
▁ㅍㅗㄹㅡㅌㅜ -13366
▁ㅁㅏㄹㅡㅅㅔㅇㅠ -13367
ㅡㄹㅜ -13368
▁ㅆㅣㅅ -13369
▁ㅋㅏㄴㅣ -13370
ㄱㅓㄹㅇㅣ -13371
▁ㄴㅣㅋㅗㄴ -13372
▁ㅎㅐㅂㅕㅇ -13373
▁ㅅㅣㄴㅈㅣㄴ -13374
▁ㅊㅜㄹㅎㅕㄹ -13375
▁ㄷㅗㅁㅣㄴㅣㅋㅏ -13376
▁ㅅㅏㄷㅏㄴㅈㅏㅇ -13377
19 -13378
ㅂㅗㄹㅣ -13379
▁ㅎㅗㅇㅏ -13380
▁ㅎㅗㅇㅅㅓㅇ -13381
▁ㄷㅏㄴㄱㅓㄹㅣ -13382
▁ㅉㅗㅊㅇㅏㄴㅐ -13383
▁ㄱㅜㅅㅡㅌㅏㅍㅡ -13384
▁ㄱㅘㄴㅎㅕㄴㅇㅏㄱ -13385
ble -13386
▁ㄱㅏㅍ -13387
ㅋㅗㅌㅏ -13388
ㅌㅗㄴㅗ -13389
ㅏㄹㄷㅡ -13390
▁ㅁㅣㅇㅏ -13391
▁ㅅㅗㄷㅗㅇ -13392
▁ㅎㅕㅇㅇㅛㅇ -13393
▁ㄴㅗㄴㄹㅣㅎㅏㄱ -13394
▁ㅌㅗㅇㅍㅖㅎㅏㅂ -13395
▁ㅎㅘㄹㄷㅗㅇㄱㅏ -13396
▁ㅈㅐㄷㅏㄴㅂㅓㅂㅇㅣㄴ -13397
▁Wii -13398
▁ㄱㅔㅅ -13399
▁ㅅㅓㅅㅡ -13400
▁ㄴㅏㅁㅜㅅ -13401
▁ㅊㅜㄹㅈㅏ -13402
▁ㄷㅏㅋㅏㄹㅏ -13403
▁ㄹㅔㅇㅣㄷㅣ -13404
▁ㅂㅏㄹㅁㅗㄱ -13405
▁ㅅㅜㅊㅏㄹㅖ -13406
▁ㄱㅔㅅㅣㅍㅏㄴ -13407
▁ㅅㅓㅇㅁㅐㅁㅐ -13408
▁ㅋㅏㅅ -13409
ㅅㅡㅇㅘ -13410
▁1887 -13411
ㄱㅜㅇㅕㄱ -13412
▁ㄱㅜㄷㅎㅣ -13413
▁ㅇㅔㅂㅏㄴ -13414
▁ㅅㅐㅁㅠㅇㅓㄹ -13415
▁Up -13416
ㄴㅗㅁ -13417
▁ㄱㅗㅌㅡ -13418
▁ㅍㅏㅋㅓ -13419
ㅍㅔㄱㅌㅡ -13420
▁ㅂㅜㄹㅅㅏ -13421
▁ㄱㅏㅇㅅㅓㄱㅜ -13422
▁ㅁㅏㅇㅡㄹㅂㅓㅅㅡ -13423
▁ㅁㅓㄹㅣㅋㅏㄹㅏㄱ -13424
ave -13425
▁ML -13426
ㅁㅜㄹㅡ -13427
▁1864 -13428
▁Dream -13429
▁ㄴㅏㄹㅡㅁ -13430
▁ㄷㅗㅅㅓㅇ -13431
▁ㄱㅗㅇㅂㅏㅇㅈㅓㄴ -13432
ition -13433
▁ㄱㅛㅂㅜ -13434
▁ㅁㅔㅋㅏ -13435
ㄷㅜㄹㄱㅣ -13436
▁ㄱㅜㄱㅡㅁ -13437
▁ㄱㅜㅁㅜㄴ -13438
▁ㅂㅔㅌㅔㄹ -13439
▁ㅅㅔㅂㅜㄴ -13440
▁ㅊㅜㅈㅗㄴ -13441
▁ㅎㅗㄹㄷㅣㅇ -13442
▁ㄱㅡㅁㄴㅏㄹㅏ -13443
▁ㅂㅐㄱㅇㅏㄱㄱㅣ -13444
ㄸㅣ -13445
▁SH -13446
ㅣㄱㅗㅇ -13447
▁ㄷㅗㅇㅑㄱ -13448
▁ㅎㅘㅇㅎㅐㄷㅗ -13449
▁ㅂㅔㅅ -13450
▁Life -13451
▁ㄲㅓㄹㅣ -13452
▁ㄹㅔㅌㅡ -13453
▁ㅇㅣㄹㄹ -13454
▁ㅌㅚㅇㅟ -13455
▁ㅈㅣㄴㅏㄴ -13456
▁ㅁㅏㄱㅍㅏㄴ -13457
▁ㅇㅠㅈㅓㄴㅎㅏㄱ -13458
▁if -13459
▁ㄱㅐㄱㅡㅁ -13460
▁ㄹㅣㅇㅗㄴ -13461
▁ㅇㅗㅇㅣㄹ -13462
▁ㄴㅣㄱㅅㅡㄴ -13463
▁ㅂㅗㅇㅎㅘㅇ -13464
▁ㅇㅏㄱㄱㅗㄱ -13465
▁ㅎㅜㅇㅝㄴㅈㅏ -13466
▁ㅎㅟㅁㅏㄹㄹㅣ -13467
▁ㅎㅐㅇㅈㅓㅇㄷㅗㅇ -13468
ult -13469
▁RT -13470
ㅣㄹㄷㅡ -13471
▁ㄱㅘㅅㅣ -13472
▁ㅅㅏㄴㅅㅜ -13473
▁ㅈㅏㄹㄹㅣ -13474
▁ㅈㅜㅅㅣㅁ -13475
▁ㅅㅏㅆㅡㅁㅏ -13476
▁ㄷㅗㅇㅁㅐㅇㄱㅜㄴ -13477
▁ㄱㅜㄻ -13478
▁ㅂㅜㄹㅠ -13479
ㅇㅕㄴㅎㅣ -13480
▁ㅂㅜㅇㅑㅇ -13481
▁ㅈㅐㅇㅏㅇ -13482
▁ㅇㅣㄹㅈㅣㄴ -13483
▁ㅍㅏㅇㅣㅍㅡ -13484
▁ㅋㅓㄴㅌㅔㄴㅊㅡ -13485
▁ㅇㅑㄹ -13486
▁1861 -13487
▁Tour -13488
▁ㅇㅠㅌㅏ -13489
ㅅㅡㅇㅞㄹ -13490
▁ㄱㅓㄹㅜㄱ -13491
▁ㄱㅕㄱㄹㅕ -13492
▁ㅅㅔㅇㅣㅂ -13493
▁ㅇㅣㄴㅗㅇ -13494
▁ㄷㅗㅇㅊㅏㅇ -13495
▁ㅈㅘㅍㅛㄱㅖ -13496
▁ㅇㅛㄱㅡㅁㅅㅗ -13497
▁ㅁㅣㄴㅇㅕㅇㅎㅘ -13498
▁ㅅㅐㅇㄹㅣㅎㅏㄱ -13499
▁ㄷㅗㄱㄹㅣㅂㄱㅜㄴ -13500
▁ㅂㅗㄹㅌㅣㅁㅗㅇㅓ -13501
▁ㄴㅏㅁㅂㅔㅌㅡㄴㅏㅁ -13502
▁ㅋㅓㅁㅍㅏㅇㅣㄹㄹㅓ -13503
▁ㅇㅣㄴㅍㅡㄹㄹㅔㅇㅣㅅㅕㄴ -13504
DA -13505
▁ㅂㅣㄹㅗ -13506
ㄱㅗㅇㅈㅜ -13507
▁ㄴㅐㄹㅣㅁ -13508
▁ㅂㅓㄹㄹㅔ -13509
▁ㅅㅗㅇㅛㅇ -13510
▁ㄱㅣㅅㅌㅓㄹ -13511
▁ㅈㅏㅇㅈㅔㅅㅡ -13512
▁ㅇㅜㅇㅔㅅㅡㄱㅣ -13513
▁TC -13514
ㅅㅏㅌㅐ -13515
ㅌㅏㄴㅠ -13516
▁ㄱㅛㅈㅣ -13517
▁ㅇㅝㅋㅣㅇ -13518
▁ㅎㅏㅇㅑㄴ -13519
▁ㅇㅘㄴㄱㅕㄹ -13520
▁ㅍㅕㅇㅌㅏㄴ -13521
▁en -13522
▁ㄱㅜㄹㅖ -13523
▁ㄴㅓㅅㅡ -13524
▁ㅈㅐㅊㅏ -13525
▁ㄱㅏㄹㅇㅏ -13526
▁ㄷㅗㅁㅣㄴ -13527
▁ㄷㅐㅅㄱㅡㄹ -13528
▁ㅈㅜㄴㅣㅊㅣ -13529
▁ㄱㅡㄴㄱㅓㅈㅣ -13530
▁ㄷㅔㅇㅣㅂㅣㅅ -13531
▁ㅊㅏㅁㅇㅢㅇㅝㄴ -13532
▁ㄷㅗㄹㅏㅇㅔㅁㅗㅇ -13533
▁ㅅㅡㅌㅡㄹㅣㅁㅣㅇ -13534
ㅁㅏㅅㅏ -13535
▁ㄷㅗㅎㅏ -13536
▁ㅂㅣㅇㅜ -13537
▁ㅇㅝㅈㅡ -13538
▁ㄷㅏㅅㅣㄱ -13539
▁ㅈㅐㅂㅏㄹ -13540
ㅂㅔㄹㅣㅇㅏ -13541
▁ㄱㅕㅇㅈㅗㅇ -13542
▁ㄷㅐㄱㅛㄱㅜ -13543
▁ㅂㅜㄹㅂㅜㄴ -13544
▁ㅇㅛㅇㅇㅢㅈㅏ -13545
▁ㅅㅏㄱㅏㄴㅇㅝㄴ -13546
EP -13547
ㅌㅗㅍㅡ -13548
ㅗㄴㅣㅇ -13549
▁ㅋㅏㅇㅑ -13550
▁ㅇㅣㅎㅗㅇ -13551
▁ㅈㅏㅇㅈㅓㄴ -13552
ㅔㄱㅡ -13553
ㅜㅈㅣ -13554
▁ㅁㅜㅁ -13555
ㄹㅏㅌㅡ -13556
▁ㅇㅡㅅㅣ -13557
▁ㄱㅙㅂㅜㄹ -13558
▁ㅁㅕㄴㅁㅗ -13559
▁ㅁㅗㄱㅜㄱ -13560
▁ㅂㅗㄴㅊㅔ -13561
ㅂㅏㄷㅗㄹㅡ -13562
▁ㄷㅏㅁㅕㄴㅅㅓ -13563
▁ㅂㅗㅈㅘㄱㅘㄴ -13564
▁ㅅㅐㅇㅅㅓㅇㅁㅜㄹ -13565
ㄱㅕㅁ -13566
ㅂㅡㄹㅗ -13567
▁ㅅㅏㅋㅣ -13568
ㄲㅜㅁㅊㅣ -13569
ㄱㅗㅇㅇㅓㅂ -13570
ㅋㅗㄴㅅㅣㄴ -13571
▁ㄱㅘㅇㅅㅓㄴ -13572
▁ㅂㅏㄹㅌㅗㅂ -13573
▁ㅅㅏㅁㅊㅓㄱ -13574
▁ㅇㅡㄹㅕㄴㅡㄴ -13575
▁ㅎㅜㅅㅔㅇㅣㄴ -13576
▁ㅇㅟㅅㅡㅋㅗㄴㅅㅣㄴ -13577
▁ㄷㅗㅈㅔ -13578
▁ㅋㅝㅋㅡ -13579
ㄷㅣㅅㅡㄴ -13580
▁ㅈㅏㅍㅏㄴ -13581
▁ㅅㅏㄴㅁㅜㄹ -13582
▁ㅅㅔㄴㅔㄱㅏㄹ -13583
▁ㅅㅣㄴㅅㅔㄱㅖ -13584
▁ㅍㅡㄹㅏㅇㅋㅗ -13585
▁ㅁㅏㄹㅡㅋㅜㅅㅡ -13586
▁ㅂㅡㄹㅡㅌㅏㄴㅠ -13587
ㅔㄴㅔ -13588
▁ㄹㅔㅈㅡ -13589
▁ㅅㅡㄹㅜ -13590
▁ㅅㅡㅌㅜ -13591
▁ㅅㅡㅇㅎㅏ -13592
▁ㅍㅗㅌㅏㄴ -13593
ational -13594
▁ㅍㅏㄹㅈㅏㄱ -13595
▁AG -13596
▁ㄲㅗㅈ -13597
ㅂㅜㄹㅣ -13598
▁ㅁㅣㅁㅣ -13599
▁ㅈㅣㅁㅕㄴ -13600
▁ㅋㅗㄴㅏㄴ -13601
▁ㅅㅗㅇㅎㅘㄴ -13602
▁ㅇㅘㅇㄱㅘㄴ -13603
▁ㅈㅗㄴㅏㄹㅏ -13604
▁ㄱㅗㅇㅇㅕㄴㅈㅏㅇ -13605
▁ㄹㅓㅅㅣㅇㅏㄱㅜㄴ -13606
ㅍㅓㄴ -13607
ject -13608
ㅁㅕㄴㅊㅔ -13609
ㅎㅘㄱㅕㅇ -13610
▁ㄱㅘㄴㄴㅐ -13611
▁ㅂㅏㄹㅇㅢ -13612
▁ㅈㅡㅇㅅㅔ -13613
▁ㅍㅔㄹㄹㅗ -13614
ㅇㅔㄹ -13615
▁ㅁㅜㄴㅔ -13616
▁ㅇㅏㅌㅗ -13617
▁ㅇㅠㅍㅗ -13618
▁ㅈㅣㄴㅎㅐ -13619
▁ㅌㅗㅁㅗㄱ -13620
▁ㅁㅗㅁㄷㅗㄹ -13621
▁ㅅㅏㄴㅏㅇㅣ -13622
▁ㅅㅏㅈㅓㄹㄷㅏㄴ -13623
orm -13624
▁1881 -13625
▁ㅊㅏㅅㅜ -13626
▁ㅌㅡㄱㄱㅣ -13627
▁ㅁㅣㄴㅁㅜㄹ -13628
▁ㅅㅡㅇㅇㅛㅇ -13629
▁ㅍㅗㅎㅘ -13630
▁Music -13631
▁ㅂㅗㄴㅓㅅㅡ -13632
▁ㅇㅜㅅㅇㅡㅁ -13633
▁ㅋㅏㅇㅜㄴㅌㅡ -13634
▁ㅈㅏㅇㅇㅐㅁㅜㄹ -13635
▁te -13636
ㄴㅏㅇ -13637
ㅣㅅㅣ -13638
ㄸㅟㄱㅣ -13639
ㄹㅏㄷㅗ -13640
ㅈㅡㅁㅏ -13641
▁ㅇㅏㅇㅠ -13642
▁ㅅㅓㅍㅗㅌㅓ -13643
▁ㅇㅑㄱㅈㅓㅁ -13644
▁ㅎㅐㅇㅂㅏㅇ -13645
ㅗㄹㅔ -13646
ㅍㅕㅇㄹㅣ -13647
▁ㅁㅏㅇㅎㅏ -13648
▁ㅁㅗㄴㅏㅋㅗ -13649
▁ㅅㅡㅌㅔㅇㅣ -13650
▁ㅇㅣㄱㅅㅏㄴ -13651
▁ㅎㅗㅁㄱㅕㅇㄱㅣ -13652
ㅝㅅㅡ -13653
▁Open -13654
▁ㅇㅔㅂㅏ -13655
▁ㅂㅜㅇㅇㅓ -13656
▁ㅂㅏㅇㄱㅗㅇ -13657
▁ㅂㅔㅇㅣㅂㅣ -13658
▁ㅇㅠㄴㅣㅂㅓㅅㅡ -13659
▁ㅎㅐㄱㅕㄹㅊㅐㄱ -13660
ㅇㅠㅅㅏ -13661
▁ㅅㅜㅇㅣ -13662
▁ㅇㅟㅅㅣ -13663
▁ㄹㅣㅁㅍㅡ -13664
▁ㅇㅏㅋㅏㄴ -13665
▁ㅋㅐㄹㅗㄹ -13666
▁ㅇㅑㄱㅜㄷㅏㄴ -13667
▁BL -13668
▁ㅍㅗㅅ -13669
▁ㄱㅏㄷㅏㄱ -13670
ㅊㅏㄹㅡㅌㅡ -13671
▁ㅇㅕㄱㅅㅏㅎㅏㄱ -13672
▁ㅍㅡㄹㅣㅁㅣㅇㅓㅁ -13673
ㅛㄴ -13674
▁Ed -13675
▁ㅅㅔㅁㅣ -13676
▁ㅅㅣㅂㅣ -13677
▁ㄱㅐㄱㅇㅝㄴ -13678
▁ㅂㅐㄱㅇㅓㅂ -13679
▁ㅅㅡㅂㄷㅡㄱ -13680
▁ㅇㅣㄱㅁㅕㅇ -13681
ㅏㅇㅣㅇㅓㅌㅣ -13682
▁ㅇㅕㅎㅏㄱㅅㅐㅇ -13683
▁ㅂㅓㄹㅏㅇㅣㅇㅓㅌㅣ -13684
▁an -13685
ㄴㅡㅈ -13686
ㅐㅅㅣ -13687
▁1850 -13688
▁ㄷㅔㄷㅡ -13689
▁ㅇㅕㅌㅏ -13690
▁ㅁㅜㄹㄹㅠ -13691
▁ㅂㅐㅊㅓㄱ -13692
▁ㅈㅓㄴㄹㅣ -13693
ㅍㅡㄹㄹㅣㄴ -13694
▁ㅂㅏㄴㅈㅜㄱ -13695
▁ㅎㅘㄴㄱㅘㄴ -13696
ION -13697
ton -13698
▁XP -13699
ㄷㅣㅇㅓㄹ -13700
▁ㄷㅗㅅㅏㄴ -13701
▁ㅅㅡㄹㅍㅡ -13702
▁ㅊㅏㄱㅎㅏ -13703
▁ㄷㅏㅇㅈㅣㄴ -13704
▁ㅅㅡㄹㄹㅐㅁ -13705
▁ㅁㅗㅁㅔㄴㅌㅡ -13706
ㅁㅗㅁ -13707
▁ㅅㅏㄴㅐ -13708
ㅅㅔㄴㅅㅡ -13709
ㅗㄴㅗㅅㅡ -13710
▁ㅂㅗㄱㅇㅟ -13711
▁ㅇㅠㄴㅡㅇ -13712
▁ㅈㅗㅎㅕㄴ -13713
▁ㅋㅔㄴㅌㅓ -13714
ㅣㄹㄹㅣㅌㅣ -13715
▁ㅍㅏㄴㄱㅘㄴ -13716
▁ㅁㅣㅋㅏㅇㅔㄹ -13717
▁ㅁㅣㄴㅔㅅㅗㅌㅏ -13718
ㅓㄱㅣ -13719
▁ㄴㅐㅍㅗ -13720
▁ㄱㅛㄷㅗㅇ -13721
▁ㄱㅡㄴㄹㅐ -13722
▁ㅂㅏㄱㅈㅏ -13723
▁ㅂㅡㄹㅜㄱ -13724
▁ㅂㅏㄹㅗㅋㅡ -13725
▁ㅇㅑㅇㄱㅜㅇ -13726
▁ㅍㅕㄴㅇㅏㄴ -13727
▁ㅁㅜㅈㅏㄱㅇㅟ -13728
▁ㅅㅔㄱㅜㄴㄷㅏ -13729
▁ㅇㅏㅂㅣㄷㅏㄹ -13730
▁ㅁㅗㅊㅏㄹㅡㅌㅡ -13731
▁ㄷㅐㅈㅜㅇㄱㅛㅌㅗㅇ -13732
ㅝㅈㅡ -13733
ㅉㅏㄱㅣ -13734
ㅎㅗㅁㅏ -13735
▁ㄱㅖㅂㅗ -13736
▁ㅂㅏㅂㅣ -13737
▁ㅇㅛㄱㅚ -13738
▁ㄸㅏㄹㄹㅣ -13739
▁ㅁㅐㄱㅇㅏ -13740
▁ㅂㅜㅈㅓㄴ -13741
▁ㅈㅏㅁㅅㅣㄹ -13742
ㅏㅁㅔ -13743
ㅋㅡㄹㅣ -13744
▁ㅅㅠㅌㅔ -13745
▁ㅇㅐㅊㅗ -13746
▁ㄷㅐㄱㅡㅁ -13747
▁ㄷㅗㅇㅊㅏ -13748
▁ㄹㅓㄴㅣㅇ -13749
▁ㅅㅡㅁㅗㄹ -13750
▁ㄴㅣㅅㅅㅏㄴ -13751
▁ㅅㅣㄴㅅㅣㄴ -13752
▁ㅌㅗㅌㅡㄴㅓㅁ -13753
▁ㅎㅘㅅㅓㅇㅅㅣ -13754
ㅣㅁㅐ -13755
ㄷㅏㅂㅗ -13756
ㅚㅅㅓㄴ -13757
▁HTML -13758
▁ㄹㅏㅈㅏ -13759
ㄹㅣㅁㅅㅏ -13760
ㅌㅏㅇㅣㅂ -13761
▁ㄱㅣㅁㅣㄹ -13762
▁ㅈㅐㄱㅕㄹ -13763
▁ㅈㅓㅇㅇㅖ -13764
▁ㅎㅓㅁㅗㄱ -13765
ㄱㅜㄱㅈㅓㄱ -13766
▁ㄴㅏㅁㅅㅗㅇ -13767
▁ㅅㅡㅇㅅㅏㅇ -13768
▁ㅅㅣㄹㄱㅏㄱ -13769
▁ㅅㅏㄷㅡㄹㅇㅣ -13770
▁ㅎㅏㅇㅑㄴㅅㅐㄱ -13771
ru -13772
▁ㅅㅜㄴㅎㅏㅇ -13773
▁ㅇㅏㄴㅏㅌㅗㄹ -13774
▁ㅈㅐㅍㅏㄴㄱㅘㄴ -13775
▁ㅇㅡㅁㅇㅏㄱㅇㅝㄴ -13776
▁ㅈㅏㅇㄴㅏㄴㄱㅏㅁ -13777
▁"- -13778
ㅂㅣㅁ -13779
ㄱㅓㄱㅜ -13780
▁ㄹㅜㄴㅏ -13781
▁ㅈㅚㅅㅜ -13782
▁ㅍㅛㅎㅏ -13783
▁ㅇㅛㅇㅅㅏ -13784
▁ㄱㅗㅂㅅㅔㅁ -13785
▁ㄴㅔㅌㅣㅈㅡㄴ -13786
▁ㅇㅣㅁㅔㅇㅣㄹ -13787
ㅓㅁㅏ -13788
ㄷㅏㅇㅗ -13789
ㄹㄹㅓㅅㅡ -13790
▁ㅍㅏㅈㅣㄱ -13791
ㄷㅓㄱㅇㅘㅇ -13792
▁ㅂㅏㄹㅅㅏㄴ -13793
▁ㅂㅡㄹㅐㄷㅡ -13794
▁ㅇㅐㅅㅡㄹㄹ -13795
▁ㄹㅗㄷㅡㄹㅣㄱ -13796
▁ㅎㅔㄹㅏㅋㅡㄹㄹㅔㅅㅡ -13797
ㄷㅓㅈㅣ -13798
ㄷㅏㄴㅇㅟ -13799
▁ㄱㅜㅎㅚㄱ -13800
▁ㄴㅏㅇㅣㄹ -13801
▁ㅁㅗㄹㅏㄴ -13802
▁ㅂㅏㄴㅈㅜ -13803
▁ㅇㅓㅊㅗㄴ -13804
▁ㄹㅏㅊㅣㅇㅗ -13805
▁ㅇㅠㄹㅏㅅㅣㅇㅏ -13806
▁ㅊㅓㅇㄴㅕㄴㅎㅚ -13807
▁ㅋㅏㄹㅡㅌㅏㄱㅗ -13808
▁ㅇㅏㅇㅣㄷㅣㅇㅓㄹ -13809
▁ㅇㅣㄹㄹㅔㄱㅌㅡㄹㅗㄴ -13810
ics -13811
ode -13812
▁ret -13813
▁ㅁㅜㅅㅜ -13814
▁ㅇㅖㅇㅢ -13815
▁ㅇㅠㄷㅏ -13816
▁ㅈㅣㅋㅜ -13817
▁ㅇㅣㄹㅕㄱ -13818
▁ㅎㅓㅂㅡㄹ -13819
▁ㄱㅘㄴㅇㅛㅇ -13820
▁ㅁㅏㄹㅡㅅㅔㄹ -13821
▁ㅁㅣㄹㄱㅏㄹㅜ -13822
▁ㅍㅣㄴㅣㄱㅅㅡ -13823
▁ㅎㅘㅎㅏㄱㅈㅏ -13824
▁ㅇㅣㅅㅣㅋㅏㅇㅘ -13825
▁ㅂㅜㄹㅂㅜㄴㅁㅕㅇ -13826
▁iOS -13827
ㅇㅜㅎㅚ -13828
▁1872 -13829
▁ㄷㅗㅂㅗㅇ -13830
▁ㅅㅣㅇㅝㄴ -13831
▁ㅍㅏㅇㅕㄹ -13832
ㅌㅏㄴㅣㅇㅏ -13833
▁ㄱㅕㅇㄱㅓㄴ -13834
▁ㄱㅕㅇㄹㅑㅇ -13835
▁ㅇㅑㅇㅎㅕㄴ -13836
▁ㅇㅚㅁㅜㅂㅜ -13837
▁ㅈㅜㅇㄹㅏㅇ -13838
▁ㅋㅏㅁㅍㅏㄴ -13839
▁ㅌㅏㄴㅅㅏㄴ -13840
▁ㄹㅗㅁㅂㅏㄹㅡ -13841
▁ㅇㅏㅂㄹㅗㄱㄱㅏㅇ -13842
▁ㄷㅏㅋㅏㄹㅏㅈㅡㅋㅏ -13843
▁750 -13844
▁ㅅㅑㅁ -13845
ㄷㅔㅈㅏㄴ -13846
▁ㅂㅐㅎㅑㅇ -13847
▁ㅇㅓㄴㄷㅓ -13848
▁ㅌㅡㄹㅏㄴ -13849
ㅊㅡㅂㅓㄱㅡ -13850
▁ㄱㅗㅇㅍㅏㄴ -13851
▁ㅎㅟㄷㅜㄹㅡ -13852
▁ㅎㅡㄱㅂㅐㄱ -13853
▁ㅇㅗㅋㅡㄹㄹㅏ -13854
▁ㅇㅠㄴㅣㅇㅓㄴ -13855
▁ㅇㅗㅋㅡㄹㄹㅏㅎㅗㅁㅏ -13856
ㄸㅓㄹ -13857
▁Don -13858
▁ㅇㅔㄹㅗ -13859
ㄷㅗㅇㅈㅏ -13860
▁ㄱㅡㅁㅎㅗ -13861
▁ㄹㅜㅅㅡㅂ -13862
▁ㅇㅗㄴㄷㅐ -13863
▁ㅈㅗㄱㅕㅇ -13864
ㄷㅡㅇㅞㅇㅣ -13865
▁ㅂㅏㄱㅅㅡㅇ -13866
▁ㅈㅓㅇㅎㅘㅇ -13867
▁ㄱㅘㄴㄹㅕㄴㅈㅏ -13868
▁ㄹㅗㅁㅐㄴㅌㅣㄱ -13869
▁ㅂㅏㄱㅇㅕㅇㅎㅛ -13870
▁ㄹㅜㅅㅡㅂㅔㄹㅌㅡ -13871
▁1830 -13872
▁ㄱㅏㅇㅅㅔ -13873
▁ㄱㅕㅇㄷㅗ -13874
▁ㅂㅜㄹㄹㅓ -13875
▁ㅅㅔㄱㅏㄴ -13876
▁ㄷㅏㅇㅎㅘㅇ -13877
▁ㅎㅗㄴㅎㅕㄹ -13878
ㅌㅐㅍㅕㅇㅇㅑㅇ -13879
▁ㅇㅗㅋㅏㅇㅑㅁㅏ -13880
▁ㅌㅏㅁㅎㅓㅁㄱㅏ -13881
ier -13882
▁1863 -13883
▁ㄱㅏㄷㅗㄱ -13884
▁ㅍㅐㄱㅝㄴ -13885
▁ㅎㅗㅁㅈㅡ -13886
▁ㄴㅗㅇㅇㅓㅊㅗㄴ -13887
▁ㅅㅔㄹㅡㄱㅔㅇㅣ -13888
▁ㅂㅏㄷㅊㅣㅁㄷㅗㄹ -13889
▁ㄱㅗㅇㄱㅜㄴㄱㅣㅈㅣ -13890
QL -13891
▁ㅎㅔㅁ -13892
▁ㄹㅔㅇㅏ -13893
▁ㄱㅗㄱㅁㅕㄴ -13894
▁ㅂㅕㄴㅈㅗㅇ -13895
▁ㅈㅓㅇㅈㅜㅇ -13896
▁ㅊㅓㄹㅈㅗㅇ -13897
ㅌㅡㅁㅜㄴㅌㅡ -13898
ㅣㄹㄹㅣㅇㅏㄴ -13899
▁ㅊㅗㄹㅗㄱㅅㅐㄱ -13900
▁ㅅㅔㄱㅖㅇㅠㅅㅏㄴ -13901
▁ㄷㅗㄹㅡㅌㅡㅁㅜㄴㅌㅡ -13902
TE -13903
ㄲㅔㄲㅣ -13904
▁ㄹㅏㅅㅣ -13905
▁ㅎㅔㅇㅓ -13906
▁ㄱㅡㅂㅎㅣ -13907
▁ㅅㅡㅇㅟㅇ -13908
▁ㅊㅣㅁㄷㅐ -13909
▁ㅍㅡㄹㅣㄹ -13910
▁ㅂㅕㄹㅈㅏㅇ -13911
▁ㅊㅗㅅㅂㅜㄹ -13912
▁ㅍㅣㄱㅅㅔㄹ -13913
▁ㅎㅐㅅㅂㅣㅊ -13914
▁ㅅㅜㅅㅜㄲㅔㄲㅣ -13915
▁1865 -13916
▁ㄱㅣㅁㅎㅢ -13917
▁ㅁㅐㅈㅣㄴ -13918
▁ㅎㅚㄱㅗㄹ -13919
▁ㄷㅏㄴㄱㅜㄱ -13920
▁ㅁㅗㄱㅇㅛㄱ -13921
▁ㅂㅔㅇㅣㅋㅓ -13922
▁ㅂㅗㄱㅇㅕㄱ -13923
▁ㅇㅏㅂㅡㄹㅏ -13924
▁ㅇㅑㅁㅏㄴㅏ -13925
▁ㄱㅏㅁㄹㅣㄱㅛ -13926
▁ㄷㅗㄷㅂㅗㅇㅣ -13927
▁ㅂㅏㄴㄷㅐㅍㅏ -13928
▁ㅅㅣㄱㅏㄴㄷㅐ -13929
▁ㅇㅏㅇㅣㅋㅗㄴ -13930
▁DR -13931
▁ㅅㅜㅎ -13932
▁ㅅㅜㄴㅕ -13933
ㄷㅐㅇㅝㄴ -13934
ㄷㅗㅇㅣㄴ -13935
ㅈㅡㄹㄹㅣ -13936
▁ㄱㅏㄱㅗㄱ -13937
▁ㅇㅓㅈㅣㄹ -13938
▁ㅇㅣㄱㅏㅇ -13939
▁ㅊㅓㄴㅈㅣ -13940
▁ㅌㅏㅁㅈㅓㅇ -13941
▁ㅍㅗㄹㄹㅣㄴ -13942
▁ㄱㅕㄱㅌㅜㄱㅣ -13943
▁ㅈㅏㅇㅠㅎㅕㅇ -13944
▁ㅈㅗㅅㅓㄴㅅㅗ -13945
▁ㅂㅜㄹㄹㅓㄷㅡㄹㅇㅣ -13946
▁ㅉㅓㄹ -13947
▁ㅇㅏㅇㅘ -13948
▁Night -13949
▁ㅇㅏㅍㅕㄴ -13950
▁ㅇㅣㅂㅕㄹ -13951
▁ㄲㅏㅁㅏㄱㅟ -13952
▁ㅊㅓㄹㄱㅏㅇ -13953
▁ㅇㅜㄱㅏㄴㄷㅏ -13954
▁ㅋㅔㄴㅌㅓㅋㅣ -13955
▁ㅌㅡㄹㅔㅇㅣㄴㅣㅇ -13956
▁Sm -13957
▁ㅎㅡㄹㅣ -13958
ㅋㅗㅇㅣㄴ -13959
▁ㅂㅜㅍㅜㄹ -13960
▁ㅇㅗㄹㄹㅔ -13961
▁ㅍㅕㄴㅎㅏ -13962
ㅎㅜㄴㅈㅏㅇ -13963
▁ㄱㅏㅎㅐㅈㅏ -13964
▁ㅂㅗㄱㅈㅣㄱ -13965
▁ㅎㅗㅋㅡㅅㅡ -13966
▁ㅂㅏㄹㄱㅣㅇㅣㄴ -13967
▁ㄹㅣㅇㅜㄷㅔㅈㅏㄴ -13968
▁ㅋㅡㄹㄹㅔㅁㅔㄴㅅㅡ -13969
▁ㄹㅣㅇㅜㄷㅔㅈㅏㄴㅔㅇㅣㄹㅜ -13970
UC -13971
▁ㅍㅣㅊㅣ -13972
▁ㄱㅘㅇㅣㅇ -13973
▁ㅇㅗㅇㅈㅜ -13974
▁ㅈㅏㅇㅆㅜ -13975
▁ㄱㅜㄱㄱㅏㅇ -13976
▁ㅇㅘㅇㅅㅓㅇ -13977
▁ㅆㅗㄷㅇㅏㅈㅣ -13978
▁ㅇㅠㅈㅓㄴㅊㅔ -13979
▁ㄷㅏㅇㅅㅓㄴㅈㅏ -13980
ool -13981
▁AL -13982
▁Ab -13983
ㅣㅈㅡㅁ -13984
▁ㄱㅕㅇㅁㅏ -13985
▁ㅇㅘㄴㅂㅣ -13986
▁ㅁㅏㄹㄷㅏㄴ -13987
▁ㅇㅏㅁㅜㄹㅣ -13988
▁ㅋㅡㄹㄹㅣㄱ -13989
▁ㅌㅔㅁㅜㄹㅡ -13990
▁ㄱㅐㅈㅓㅇㅇㅏㄴ -13991
▁ㅇㅕㅈㅣㄴㅈㅗㄱ -13992
▁ㅈㅏㄱㅍㅜㅁㅅㅏㅇ -13993
▁ㅈㅣㅂㅈㅓㅇㄱㅘㄴ -13994
▁ㅇㅗㄴㅌㅏㄹㅣㅇㅗㅈㅜ -13995
▁ㅍㅏㄹㅈㅏㄱㅈㅣㅂㅜㅇ -13996
stem -13997
▁ㄱㅛㅈㅔ -13998
▁ㄷㅡㄹㅜ -13999
▁ㅁㅏㅌㅡ -14000
ㅣㅇㅓㄹㅣㅇ -14001
▁ㅍㅏㅊㅜㅇㄹㅠ -14002
▁ㅅㅡㅇㅈㅓㅇㅇㅝㄴ -14003
▁ㅊㅛ -14004
▁ㅇㅢㄹㅖ -14005
▁ㄱㅘㅇㅕㄴ -14006
▁ㄴㅏㅂㅂㅜ -14007
▁ㄴㅣㄴㅈㅏ -14008
▁ㅁㅣㅇㅣㄴ -14009
▁ㅂㅗㅈㅓㅇ -14010
▁ㅅㅓㅇㄱㅏ -14011
▁ㅈㅐㅂㅓㄹ -14012
▁ㅋㅗㅇㅣㄴ -14013
▁ㄱㅡㄹㅐㅁㅣ -14014
▁ㅂㅏㄴㅈㅓㅁ -14015
▁ㄱㅗㅅㅓㅇㄱㅜㄴ -14016
▁ㅅㅔㅇㅣㄴㅌㅡㄹ -14017
▁ㄱㅕㅇㅂㅗㄱㄱㅜㅇ -14018
▁-- -14019
▁MA -14020
ㅗㄹㅓ -14021
▁ㅋㅗㅂ -14022
ㅗㅂㅣㅊㅣ -14023
▁ㅅㅏㄱㅅㅡ -14024
▁ㅇㅚㅎㅘㄴ -14025
▁ㅈㅓㄴㄱㅛ -14026
▁ㅅㅣㄴㅂㅗㅇ -14027
▁ㅇㅔㄹㄹㅓㄴ -14028
▁ㄷㅐㅍㅛㄷㅏㄴ -14029
ㅜㅇㅝㄴㅅㅜㅇㅇㅣ -14030
▁1891 -14031
▁ㅇㅗㄷㅐ -14032
ㅇㅕㄹㅊㅏ -14033
▁ㄷㅏㅎㅐㅇ -14034
▁ㅁㅗㄹㄷㅜ -14035
▁ㅉㅣㄱㅎㅣ -14036
▁ㄴㅏㅂㅈㅏㄱ -14037
▁ㅇㅏㄹㅁㅏㅈ -14038
▁ㅇㅑㅇㅁㅕㄴ -14039
ㅅㅗㄹㄹㅣㄴㅣ -14040
▁section -14041
▁ㅂㅜㄷㅏㅍㅔㅅㅡㅌㅡ -14042
▁ㅂㅏㅅㅣ -14043
▁ㅊㅔㅎㅏ -14044
▁ㅌㅗㅇㅠ -14045
▁ㅈㅓㅂㅎㅏㅂ -14046
▁ㅈㅜㄴㅏㄹㅏ -14047
▁ㅍㅔㅌㅡㄹㅗ -14048
▁ㄸㅟㅇㅓㄴㅓㅁ -14049
▁ㄷㅡㅁㅣㅌㅡㄹㅣ -14050
▁ㅎㅏㅂㅊㅏㅇㄷㅏㄴ -14051
▁NS -14052
ㅇㅇㅣ -14053
ㄷㅓㄹㅣ -14054
▁ㅋㅐㅍㅣ -14055
ㅊㅣㄴㅇㅘㅇ -14056
▁ㅅㅑㅂ -14057
ㅏㄴㄷㅗ -14058
▁ㄷㅜㅇㅓ -14059
▁ㅈㅣㅎㅏㅇ -14060
▁ㅎㅕㄹㅇㅏㅂ -14061
▁ㅎㅐㅅㅓㄱㅎㅏㄱ -14062
ise -14063
ㅂㅏㅎㅡ -14064
ㅆㅡㄱㅣ -14065
▁ㄱㅐㄱㅡ -14066
▁ㅋㅔㄹㅡ -14067
ㅂㅣㅇㅏㄴ -14068
▁ㅅㅏㅎㅏㄹ -14069
▁ㅅㅐㅇㄷㅗ -14070
▁ㅇㅕㄱㅓㄴ -14071
▁ㅈㅗㅅㅣㅁ -14072
▁ㅈㅜㅇㄱㅗ -14073
▁ㄷㅏㅂㅣㄷㅡ -14074
▁ㄷㅏㄱㅜㄱㅈㅓㄱ -14075
70 -14076
▁ㄱㅣㅁㅇㅕㄴ -14077
▁ㄷㅡㅇㄷㅏㄴ -14078
▁ㅇㅐㄴㄷㅡㄹㅠ -14079
▁qu -14080
▁Can -14081
ㅈㅔㅂㅣ -14082
▁ㅅㅖㅇㅣ -14083
▁ㅇㅏㅈㅣ -14084
ㅌㅣㄴㅔㄴ -14085
▁ㄱㅜㄱㅏㅇ -14086
▁ㄴㅜㄴㅊㅣ -14087
▁ㄷㅟㄴㅡㅈ -14088
ㅋㅡㄹㄹㅓㅂ -14089
▁ㅍㅗㅎㅏㅇㅅㅣ -14090
ai -14091
ower -14092
▁ㄱㅏㅇㅑ -14093
▁ㅇㅗㅁㅔ -14094
▁ㄹㅏㄴㅅㅡ -14095
▁ㅇㅣㅇㅡㄴ -14096
ㅅㅡㅌㅜㅅㅡ -14097
▁ㅈㅔㅍㅡㄹㅣ -14098
ㅁㅗㄹㄹㅗㅈㅣ -14099
▁ㅂㅓㅁㅈㅚㅈㅏ -14100
▁ㅅㅣㅌㅣㅈㅡㄴ -14101
▁ㅋㅗㅎㅗㅁㅗㄹㄹㅗㅈㅣ -14102
▁ㄴㅗㅅㅏ -14103
▁ㄱㅓㄲㅜㄹ -14104
▁ㅅㅡㅋㅣㄴ -14105
▁ㅇㅕㅅㅂㅗ -14106
▁ㅈㅗㅇㅁㅛ -14107
▁ㅈㅜㅇㅅㅗ -14108
▁ㅍㅕㄴㅈㅔ -14109
▁ㄱㅖㅅㅡㅇㅈㅏ -14110
▁ㅎㅏㅇㅇㅏㄹㅣ -14111
▁ㅇㅏㄴㅅㅏㄴㅅㅣ -14112
▁ㅂㅔㅅㅡㅌㅡㅅㅔㄹㄹㅓ -14113
▁q -14114
ㅅㅣㄷㅐ -14115
▁ㄱㅘㄷㅏ -14116
▁ㅁㅐㄹㅣㅂ -14117
▁ㅇㅔㄷㅜㅇ -14118
▁ㅍㅏㄹㅏㅇ -14119
▁ㅋㅏㅇㅣㄹㅗ -14120
▁ㄹㅣㄹㄹㅔㅇㅣ -14121
▁ㅅㅔㄴㄷㅏㅇㅣ -14122
▁ㅌㅏㅇㅣㅁㅈㅡ -14123
▁ㅇㅣㅂㅏㄹㅏㅋㅣ -14124
▁ㅎㅏㅇㅣㅂㅡㄹㅣㄷㅡ -14125
ㅋㅣㅁ -14126
ㅂㅡㄹㅔ -14127
▁ㄹㅏㅂㅏ -14128
▁ㅅㅓㅇㅟ -14129
▁ㅅㅗㄷㅐ -14130
▁ㅅㅣㅈㅣㄴ -14131
ㅂㅏㅂㅡㅇㅞ -14132
▁ㅈㅣㅁㅂㅏㅂㅡㅇㅞ -14133
▁ㅌㅜㅎㅏ -14134
▁ㅈㅏㅋㅔㅅ -14135
▁ㅂㅓㅂㅈㅓㄴ -14136
▁ㄱㅛㅌㅗㅇㅅㅏㄱㅗ -14137
▁ㄷㅐㅎㅏㄴㅎㅏㅇㄱㅗㅇ -14138
NG -14139
▁705 -14140
ㅅㅔㄷㅏ -14141
ㅇㅠㅇㅖ -14142
▁1873 -14143
▁ㅁㅏㅌㅏ -14144
▁ㅇㅕㄷㅐ -14145
▁ㅍㅣㄹㅗ -14146
▁ㅎㅐㅅㅣ -14147
ㅔㄹㅡㅋㅡ -14148
▁ㅂㅓㅍㅓㄹ -14149
▁ㅇㅏㄷㅔㄹ -14150
▁ㅈㅣㄴㅎㅡㄺ -14151
▁ㄱㅐㅊㅔㄱㅜㄴ -14152
▁ㅈㅣㅂㅎㅐㅇㅇㅠㅇㅖ -14153
che -14154
▁Good -14155
▁ㅇㅏㄷㅣ -14156
▁ㅋㅏㅇㅗ -14157
▁ㅁㅗㅂㅣㄹ -14158
▁ㅇㅐㅇㅘㄴ -14159
▁ㅊㅚㅈㅏㅇ -14160
▁ㅋㅗㅁㅟㄴ -14161
▁ㅊㅣㄴㅁㅣㄹ -14162
ㅎㅐㅅㅏㄹㅇㅣㅍㅜㄹ -14163
▁ㄹㅗㅂㅡ -14164
▁ㄱㅜㄴㅅㅔ -14165
▁ㄷㅔㄴㅅㅛ -14166
▁ㅇㅝㄴㄷㅗㅇ -14167
▁ㄱㅣㅎㅚㄱㅅㅏ -14168
▁ㅅㅑㄹㄹ -14169
▁ㅍㅡㄹㄹㅣ -14170
▁ㅅㅜㅅㅣㄹㅗ -14171
ㅏㅎㅡ -14172
ㅁㅗㅅㅡ -14173
▁ㄹㅏㄹㅏ -14174
▁ㅌㅏㄱㅜ -14175
▁Black -14176
▁ㄴㅏㅁㅇㅏㄱ -14177
▁ㅁㅏㅅㅡㅋㅗ -14178
▁ㅇㅑㅇㅇㅑㅇ -14179
▁ㅇㅏㅇㅗㅁㅗㄹㅣ -14180
ank -14181
▁MM -14182
▁ㅈㅔㅁ -14183
▁ㄷㅗㄷㅗ -14184
▁ㅂㅏㄹㅎㅏ -14185
▁ㅎㅏㅇㅇㅜ -14186
▁ㅎㅐㅋㅣㅇ -14187
▁ㅅㅏㄴㅅㅣㄴ -14188
▁ㅅㅗㅇㅈㅣㄴ -14189
▁ㅂㅕㄴㄱㅘㅇㅅㅓㅇ -14190
▁AI -14191
▁Let -14192
ㅁㅜㅈㅔ -14193
ㅎㅗㅇㅣㄴ -14194
▁ㅇㅕㄴㅎㅘ -14195
▁ㅇㅚㅅㅏㅇ -14196
▁ㅋㅐㄴㅗㄴ -14197
ㅋㅣㄴㅅㅡㄴ -14198
▁ㄹㅏㅇㅣㅅㅡ -14199
▁ㅎㅓㄴㄴㅏㅂ -14200
▁ㅈㅔㄴㅓㄹㅓㄹ -14201
▁ㅂㅏㄹㅏㅁㅈㅣㄱ -14202
▁ㄴㅏㅇㅁㅏㄴㅈㅜㅇㅢ -14203
ㄲㅗ -14204
ㅜㅁㅓㄴ -14205
▁ㄱㅖㅈㅘ -14206
▁ㅅㅠㄱㅗ -14207
▁ㅋㅣㅈㅡ -14208
ㅅㅜㅇㅕㅁ -14209
▁ㄷㅜㅌㅓㅂ -14210
▁ㅇㅣㅂㅅㅣ -14211
ㅅㅡㅂㅏㄱㅅㅡ -14212
ㅏㅍㅡㄹㅣㅋㅏ -14213
▁ㅍㅔㄹㅡㄷㅣㄴㅏㄴㅌㅡ -14214
▁PM -14215
ㅅㅜㄱㅛ -14216
ㅔㄹㄹㅗ -14217
▁ㅊㅔㄴㅐ -14218
ㅔㄹㅡㅌㅡ -14219
▁ㅇㅏㅅㅟㅂ -14220
▁ㅁㅜㄴㅈㅓㅇ -14221
▁AU -14222
▁ㅈㅗㅇㅓ -14223
▁ㅍㅏㅈㅜ -14224
▁ㅂㅏㄹㅍㅗ -14225
▁ㅅㅡㅇㅈㅣ -14226
▁ㅌㅓㅂㅣㄴ -14227
▁ㄴㅏㄴㅇㅣㄷㅗ -14228
▁ㅇㅗㅅㅡㅌㅡㄹㅣ -14229
ㄸㅓㄱ -14230
▁ㅅㅜㅈㅜ -14231
▁ㅍㅣㅅㅕ -14232
ㅁㅣㄱㅕㅇ -14233
▁ㄱㅜㄱㅎㅗ -14234
▁ㅂㅕㅇㄱㅘ -14235
▁ㅇㅢㅇㅛㅇ -14236
▁ㅊㅓㅂㅏㅇ -14237
▁ㄴㅔㄱㅅㅔㄴ -14238
▁ㅁㅏㄴㅈㅓㅁ -14239
▁ㅊㅓㅇㅁㅜㄴ -14240
▁ㄷㅏㅅㅣㄱㅡㅁ -14241
▁ㅇㅔㄱㅅㅡㅍㅗ -14242
ㅂㅡㄱ -14243
▁650 -14244
ㅈㅣㄴㄱㅜ -14245
▁ㄱㅜㅅㅡㄹ -14246
▁ㅇㅛㅈㅡㅁ -14247
▁ㅅㅏㄴㅊㅐㄱ -14248
▁ㅈㅗㅇㅇㅓㅂ -14249
▁ㅍㅡㄹㅔㄷㅡ -14250
▁ㅂㅜㄹㅡㅈㅜㅇㅏ -14251
ㅎㅏㅂㅈㅜㅇㄱㅜㄱ -14252
ㅉㅗㅊ -14253
ings -14254
▁550 -14255
▁ㅂㅏㅅ -14256
▁ㅆㅜㅇ -14257
▁ㅎㅐㄹ -14258
ㅁㅜㅅㅡ -14259
ㅇㅏㅇㅣ -14260
▁ㄷㅐㅁㅗㄱ -14261
▁ㅈㅗㄱㅗㅇ -14262
▁ㅎㅘㅇㅈㅏ -14263
▁ㄱㅏㅇㅣㄷㅡ -14264
▁ㄱㅘㅇㅇㅓㅂ -14265
▁ㅎㅏㅂㄱㅡㅁ -14266
▁ㅈㅡㅇㅈㅗㅂㅜ -14267
▁ㄱㅣㅁㅅㅓㅇㅅㅜ -14268
▁ㄴㅗㄷㅗㅇㄹㅕㄱ -14269
▁ㅂㅐㄱㅇㅏㄱㄱㅘㄴ -14270
▁ㅅㅏㅇㅣㅌㅏㅁㅏㅎㅕㄴ -14271
▁-& -14272
▁ㅇㅣㄹㅖ -14273
▁ㄴㅏㅁㅈㅗ -14274
▁ㅈㅏㅁㄱㅣ -14275
▁ㅈㅏㄱㄴㅕㄴ -14276
▁ㄹㅔㅇㅣㄴㅈㅓ -14277
▁ㅈㅏㅇㅚㅅㅓㄴ -14278
▁ㅇㅣㄴㅗㅇㅜㅇㅔ -14279
▁ㅁㅔㅇㅜ -14280
▁ㅍㅗㄷㅐ -14281
ㅏㄹㅣㅇㅏ -14282
▁ㄱㅕㅇㅈㅣ -14283
▁ㄱㅘㅇㅈㅏ -14284
ㄱㅏㄱㅎㅕㅇ -14285
ㄷㅗㅇㅁㅐㅇ -14286
▁ㅈㅣㄴㅇㅝㄴ -14287
▁ㅎㅏㄴㅊㅏㅇ -14288
DS -14289
ㅡㄱㅗㅅㅡ -14290
▁ㅅㅣㅇㅕㄱ -14291
▁ㄷㅡㅇㄷㅡㅇ -14292
▁ㅁㅜㄴㅈㅜㅇ -14293
▁ㅂㅣㄱㅂㅐㅇ -14294
▁ㅍㅣㅊㅡㅂㅓㄱㅡ -14295
▁ㅁㅜㅅㅗㄹㄹㅣㄴㅣ -14296
▁El -14297
▁1867 -14298
▁ㅂㅐㅇㅏ -14299
▁ㅇㅏㄷㅡ -14300
ㅅㅜㅅㅏㄴ -14301
▁ㅎㅘㄹㅈㅏ -14302
▁ㅁㅏㅈㅊㅜㅁ -14303
▁ㅌㅡㄴㅌㅡㄴ -14304
▁ㅈㅐㅍㅏㄴㅂㅜ -14305
▁ㅅㅗㄴㅈㅏㅂㅇㅣ -14306
ㄲㅡㄴ -14307
ㅇㅔㄴ -14308
ㅅㅣㄴㅣ -14309
▁ㅅㅔㄹㅔ -14310
ㄷㅏㅂㅏㄹ -14311
ㅋㅡㄹㅣㅁ -14312
ㄷㅜㄹㅏㅅㅡ -14313
ㅂㅏㅇㄱㅜㄴ -14314
▁ㅂㅏㄹㄱㅏㄹㅏㄱ -14315
▁ㅇㅗㄴㄷㅜㄹㅏㅅㅡ -14316
ㄹㅗㅋㅜ -14317
▁ㅈㅣㅇㅏ -14318
ㅈㅓㅇㅅㅏ -14319
ㅓㅅㅡㅌㅓ -14320
▁ㄱㅣㅌㅗㅇ -14321
▁ㅇㅘㅇㅣㄷㅡ -14322
▁ㅈㅣㄱㄱㅘㄴ -14323
▁ㅍㅡㄹㅗㅌㅔ -14324
ㅈㅓㄹㄷㅗㅅㅏ -14325
▁ㅎㅕㅂㄷㅗㅇㅈㅗㅎㅏㅂ -14326
ㅎㅞ -14327
▁ㅇㅏㄹㅚ -14328
▁ㅈㅏㅇㅗ -14329
▁ㄱㅣㅁㅊㅣ -14330
▁ㅁㅏㅇㅜㄴ -14331
▁ㅊㅐㄱㅜㄹ -14332
▁ㅋㅣㄹㅣㄹ -14333
ㅌㅏㄴㅏㅂㅔ -14334
▁ㅈㅓㄱㅂㅏㄹ -14335
▁ㅌㅡㄹㅗㅌㅡ -14336
▁ㅎㅡㅂㅇㅕㄴ -14337
▁ㅎㅏㅂㅏㄴㄱㅣ -14338
▁ㅈㅗㅅㅓㄴㅇㅘㅇㅈㅗ -14339
▁ㅋㅣㅅ -14340
ㄹㅔㄹㅡ -14341
▁ㅇㅔㅊㅣ -14342
▁ㄱㅓㄴㄴㅔ -14343
▁ㄱㅕㅇㅁㅐ -14344
▁ㅂㅓㄹㄹㅣ -14345
▁ㅅㅓㅎㅏㄴ -14346
▁ㅍㅣㄹㄷㅜ -14347
ㅅㅓㅇㄱㅕㅇ -14348
▁ㅂㅜㄱㅂㅓㄹ -14349
▁ㅎㅟㅂㅆㅡㄹ -14350
▁ㄱㅏㄹㅇㅏㅌㅏ -14351
▁ㅂㅜㅇㅕㄱㅜㄴ -14352
ㅋㅏㅁ -14353
▁ㄱㅗㅎㅏ -14354
▁ㅅㅔㅁㅜ -14355
ㅣㅁㅐㄱㅣㅁ -14356
▁ㄷㅏㅇㄷㅏㅇ -14357
▁ㅅㅏㄹㅉㅏㄱ -14358
▁ㅍㅣㄹㅇㅕㄴ -14359
▁ㅇㅐㄹㅂㅓㅌㅡ -14360
▁ㅈㅏㄹㅣㅁㅐㄱㅣㅁ -14361
ta -14362
▁802 -14363
▁ㅍㅜㄷㅡ -14364
ㅁㅗㅅㅕㄴ -14365
ㅜㅇㅣㅅㅡ -14366
▁ㅇㅖㅈㅗㅇ -14367
▁ㅍㅔㄹㅡㅁ -14368
▁ㄲㅗㅊㅇㅣㅍ -14369
▁ㅈㅣㄴㅇㅓㄴ -14370
▁ㄱㅕㅌㄷㅡㄹㅇㅣ -14371
▁ㅇㅛㅇㅅㅏㄴㄱㅜ -14372
▁ㄱㅏㅁㅇㅕㅁㅈㅡㅇ -14373
▁1862 -14374
▁ㄹㅔㅂㅓ -14375
▁ㄱㅘㄱㅕㄱ -14376
▁ㄱㅘㄹㅎㅗ -14377
▁ㅅㅣㄴㅇㅢ -14378
▁ㄱㅕㅇㅇㅡㄴ -14379
▁ㅂㅗㄹㄹㅗㄱ -14380
▁ㅇㅕㄹㄹㅕㄹ -14381
▁ㅍㅣㄹㅎㅏㅁ -14382
▁ㅅㅡㄹㄹㅗㄱㅓㄴ -14383
▁ㅇㅑㅋㅜㄹㅡㅌㅡ -14384
▁ㄱㅜㄱㅁㅣㄴㅎㅏㄱㄱㅛ -14385
ky -14386
lar -14387
ㅏㅂㅏ -14388
ㅅㅣㄱㅔ -14389
▁ㄱㅐㄱㅣ -14390
▁ㅇㅗㄱㅅㅣ -14391
▁ㅈㅣㄱㄱㅛ -14392
▁ㄱㅡㄹㄹㅔㄴ -14393
▁ㅇㅘㅅㅅㅡㄴ -14394
▁ㅊㅣㄹㅛㅈㅔ -14395
▁ㅁㅐㄷㅏㄹㄹㅣ -14396
▁ㅇㅣㄷㅔㅇㅗㄹ -14397
▁ㅇㅏㄹㅍㅗㄴㅅㅗ -14398
▁ㅅㅏㅁㄱㅜㄱㅇㅠㅅㅏ -14399
▁ㅁㅣㅎㅏㅂㅈㅜㅇㄱㅜㄱ -14400
▁ㄱㅙㄴ -14401
▁ㅁㅜㅈㅣ -14402
ㄹㅔㅂㅏㄴ -14403
▁ㄱㅡㅁㄱㅗ -14404
▁ㅁㅏㄹㅣㅇ -14405
ㅇㅏㅁㄷㅗㅇ -14406
▁ㄱㅏㄴㅍㅏㄴ -14407
▁ㄱㅓㄹㅈㅏㄱ -14408
▁ㅊㅗㄱㅂㅏㄹ -14409
▁ㅂㅏㄴㅈㅓㅇㅂㅜ -14410
▁ㅎㅗㄹㄷㅣㅇㅅㅡ -14411
▁ㄱㅗㅇㅌㅗㅇㅈㅓㅁ -14412
tr -14413
ㅡㄱㅗ -14414
▁6000 -14415
▁ㅁㅏㄱㅏ -14416
▁ㄱㅏㅁㅜㄹ -14417
▁ㄱㅖㅇㅓㅁ -14418
▁ㄱㅡㅂㅎㅏ -14419
▁ㅇㅏㅁㅏㄹ -14420
▁ㅇㅟㅂㅓㅂ -14421
▁ㅊㅐㅇㄱㅣ -14422
ㅌㅏㅁㅣㅇㅏ -14423
▁ㅇㅣㅂㅅㅜㄹ -14424
▁ㅊㅜㅇㄷㅏㅇ -14425
▁ㅁㅜㄹㅗㅁㅏㅊㅣ -14426
▁ㅂㅗㅇㅏㄴㅂㅓㅂ -14427
▁ㅊㅜㄹㅇㅣㅂㅁㅜㄴ -14428
▁ㅣ -14429
▁LS -14430
▁ㅈㅗㅅㅣ -14431
▁ㄷㅏㄴㅈㅏ -14432
▁ㅊㅟㅎㅑㅇ -14433
▁ㅁㅔㅅㅗㅍㅗ -14434
▁ㄱㅕㅇㅎㅢㄷㅐ -14435
▁ㅅㅏㅁㅜㄱㅜㄱ -14436
▁ㅊㅐㄹㄹㅣㄴㅈㅓ -14437
▁ㅂㅐㄱㄱㅘㅅㅏㅈㅓㄴ -14438
▁ㅁㅔㅅㅗㅍㅗㅌㅏㅁㅣㅇㅏ -14439
▁Ac -14440
rist -14441
▁Ser -14442
ㄹㅗㄱㅣ -14443
▁1878 -14444
▁ㄹㅣㅊㅣㅁ -14445
▁ㄴㅠㄱㅣㄴㅣ -14446
▁ㅈㅡㅇㄱㅏㅇ -14447
▁ㅂㅡㄹㄹㅏㄷㅣ -14448
▁ㅍㅗㅁㅠㄹㄹㅓ -14449
ㅋㅏㄹㅡㅌㅏ -14450
▁ㅂㅏㄱㅈㅣㄴ -14451
▁ㅈㅓㅇㅁㅕㅇ -14452
▁ㅈㅣㅈㅏㅊㅔ -14453
▁ㅍㅕㄴㅈㅣㅂㅈㅏㅇ -14454
▁ㄷㅔㄱ -14455
ㅂㅏㅈㅣ -14456
▁ㄱㅣㅃㅡ -14457
▁ㅂㅜㅇㅓ -14458
▁ㅅㅗㅈㅏㄱ -14459
▁ㅊㅏㅁㅅㅜ -14460
▁ㄴㅗㅇㅅㅓㅇ -14461
▁ㅇㅣㅅㅓㅇㅈㅣㄹ -14462
▁UC -14463
ㄱㅟㄴ -14464
▁ㅌㅓㅇ -14465
▁ㅈㅗㅅㅓ -14466
▁ㄷㅏㅇㄱㅘ -14467
▁ㄹㅔㅁㅗㄴ -14468
▁ㅇㅠㄹㅣㅁ -14469
▁ㅌㅔㄱㅅㅡ -14470
▁ㅂㅏㄴㅎㅏㅇ -14471
▁ㅈㅔㅈㅗㅅㅏ -14472
▁ㅇㅏㅍㅅㅔㅇㅜ -14473
▁ㅇㅣㄹㅂㅗㄴㅅㅣㄱ -14474
▁Qu -14475
▁ㄲㅞ -14476
▁ㅁㅔㅊㅡ -14477
▁ㅌㅐㅇㅏ -14478
▁ㅎㅏㅈㅜㅇ -14479
▁ㄱㅓㄲㅜㄹㅗ -14480
▁ㄷㅗㅇㅌㅏㄱ -14481
▁ㅇㅗㄱㅊㅓㄴ -14482
▁ㄷㅏㅇㅣㄴㅗㅅㅡ -14483
▁ㅇㅕㄴㅊㅜㄹㄱㅏ -14484
▁ㅇㅛㅎㅏㄴㅔㅅㅡ -14485
ㅆㅡㄴㅗ -14486
▁ㄱㅘㅈㅏ -14487
▁ㄷㅓㅎㅏ -14488
▁ㄹㅏㅈㅣ -14489
▁ㄹㅗㄴㅣ -14490
▁ㄹㅣㅌㅡ -14491
▁ㅇㅐㄱㅣ -14492
▁ㅇㅗㅇㅜ -14493
ㅔㅇㅣㄹㅏ -14494
▁ㅈㅗㅈㅜㄴ -14495
▁ㅂㅜㄴㄱㅕㅇ -14496
▁ㅇㅛㅇㄱㅏㅁ -14497
▁ㅊㅜㅇㅅㅣㄴ -14498
▁ㅋㅡㄹㅜㅈㅡ -14499
hem -14500
▁MSL -14501
▁ㄱㅛㅅㅓ -14502
▁ㄹㅔㅂㅣ -14503
▁ㅊㅓㅊㅣ -14504
▁ㅂㅜㅅㅣㄹ -14505
▁ㅇㅣㄴㅇㅟ -14506
ㅂㅔㄴㅅㅕㄴ -14507
▁ㄱㅜㄹㅂㅗㄱ -14508
▁ㅇㅣㄹㅅㅓㄹ -14509
▁ㅈㅏㅇㅅㅣㄴ -14510
▁ㅈㅡㅇㅅㅣㄱ -14511
▁ㅋㅗㅅㅡㅌㅡ -14512
▁ㄱㅣㅇㅝㄴㅎㅜ -14513
▁ㅇㅣㄷㅔㅇㅗㄹㄹㅗㄱㅣ -14514
▁ㅇㅣㄹㄹㅣㄴㅗㅇㅣㅈㅜ -14515
▁HMS -14516
▁ㅅㅑㄹㅡ -14517
▁ㄷㅏㅁㅗㄱ -14518
▁ㅈㅣㄱㅕㅇ -14519
▁ㅊㅏㄱㅊㅟ -14520
▁ㄲㅡㄹㅇㅓㅇ -14521
▁ㅇㅠㄴㅊㅣㅇ -14522
▁ㅈㅡㅇㅂㅏㄹ -14523
▁ㅇㅣㄹㄹㅓㅅㅡㅌㅡ -14524
▁ㄹㅡㅂ -14525
▁ㅍㅏㄱㅣ -14526
▁ㅁㅗㅂㅏㄴ -14527
▁ㅌㅜㅅㅣㄴ -14528
▁ㄱㅜㄱㅇㅣㄴ -14529
▁ㄱㅡㅂㅅㅓㅇ -14530
▁ㅈㅓㄴㅁㅕㄹ -14531
▁ㅇㅏㄴㄷㅗㅇㅅㅣ -14532
▁tr -14533
ㅐㅌㅣ -14534
▁ㅁㅐㅅㅠ -14535
▁ㅇㅣㅅㅗ -14536
▁ㅎㅣㄴㅗ -14537
ㅌㅜㅇㅇㅣ -14538
ㅓㅅㅡㅌㅏ -14539
▁ㄷㅏㄹㅑㅇ -14540
▁ㄷㅐㄹㅣㅅㅓㄱ -14541
▁ㅂㅜㄷㅡㅇㅅㅣㄱ -14542
▁ㅅㅡㅌㅔㅇㅣㅌㅡ -14543
▁ㅇㅣㄴㅋㅗㄷㅣㅇ -14544
▁ㅋㅡㄹㅣㅅㅡㅌㅣㄴ -14545
ae -14546
▁Ag -14547
▁And -14548
▁ㄷㅐㄴㅣ -14549
ㅈㅔㄹㄹㅗ -14550
▁ㅍㅗㅊㅓㄴ -14551
▁ㅇㅞㅇㅣㅂㅡ -14552
▁ㅅㅡㅌㅐㄴㄷㅡ -14553
▁ㅈㅣㅎㅏㅇㅕㄱ -14554
▁ㅍㅡㄹㄹㅏㅅㅡ -14555
▁ㄸㅏㅁ -14556
▁ㅅㅖㄴ -14557
▁ㄴㅐㅈㅐ -14558
▁ㅁㅜㅈㅏ -14559
▁ㅅㅏㄱㅛ -14560
▁ㅅㅓㅈㅣ -14561
▁ㅇㅗㅅㅣ -14562
▁ㅂㅓㄴㄱㅐ -14563
▁ㅇㅕㄹㅅㅚ -14564
▁ㅈㅗㅅㅓㄱ -14565
▁ㅍㅐㅋㅣㅅ -14566
ㅅㅣㅇㅏㄷㅡ -14567
▁ㅇㅘㄴㅁㅏㄴ -14568
▁ㅊㅜㅇㅊㅣㅇ -14569
▁ㅎㅓㄴㅂㅕㅇ -14570
ㅍㅡㄹㄹㅗㄹㅓ -14571
▁ㅂㅗㅇㅇㅜㄹㅣ -14572
▁ㅇㅓㄴㄹㅗㄴㅅㅏ -14573
▁ㅅㅣㄴㅅㅣㄴㅐㅌㅣ -14574
▁ㅍㅡㄹㅗㅁㅗㅅㅕㄴ -14575
▁ㅎㅐㄱㅂㅜㄴㅇㅕㄹ -14576
▁ㅅㅣㄴㅎㅏㄴㅇㅡㄴㅎㅐㅇ -14577
▁ㅇㅣㄱㅅㅡㅍㅡㄹㄹㅗㄹㅓ -14578
▁ㅍㅐㅅ -14579
ㄷㅏㅅㅡ -14580
▁ㄹㅏㄴㅣ -14581
▁ㄷㅏㄴㅈㅗ -14582
▁ㅈㅗㅈㅏㅇ -14583
▁ㅊㅏㄹㅣㅁ -14584
▁ㅎㅕㅇㅈㅜ -14585
▁ㅇㅘㅅㅔㄷㅏ -14586
▁ㅇㅠㄴㅣㅂㅓㅅㅣㅇㅏㄷㅡ -14587
▁AA -14588
ㅍㅡㄴ -14589
▁1869 -14590
ㅣㄹㅓㅅㅡ -14591
▁ㅂㅔㅇㅣㄹ -14592
▁ㅈㅣㄹㅣㄴ -14593
ㅅㅔㅇㅜㅅㅡ -14594
▁ㅇㅗㄴㄱㅓㄴ -14595
ee -14596
▁ㅋㅔㅅ -14597
ㅅㅏㅎㅘ -14598
ㅍㅏㅅㅡ -14599
ㅣㅁㅕㄴ -14600
▁ㄱㅣㅁㅛ -14601
▁ㅂㅓㅋㅡ -14602
▁ㅈㅐㄱㅗ -14603
▁ㅅㅡㅌㅗㅁ -14604
▁ㅇㅘㄴㅅㅜ -14605
▁ㅇㅑㅇㄱㅜㄴ -14606
▁ㅍㅣㄹㅁㅕㅇ -14607
▁ㅎㅡㄴㄷㅡㄹ -14608
▁ㅁㅓㄴㅣ -14609
▁ㅅㅣㄹㅡ -14610
▁ㅇㅣㅅㅣㅁ -14611
▁ㅇㅣㅈㅡㅁ -14612
▁ㅋㅗㅍㅓㄹ -14613
▁ㅇㅕㄴㅎㅐㅇ -14614
▁ㅇㅠㄱㅅㅣㄱ -14615
▁ㅈㅓㄹㅇㅑㄱ -14616
▁ㅇㅓㅂㄹㅗㄷㅡ -14617
▁ㅁㅏㅅㅡㅋㅗㅌㅡ -14618
▁ㅅㅡㅋㅔㅇㅣㅌㅡ -14619
▁ㅊㅣㄴㅅㅓㄴㄱㅕㅇㄱㅣ -14620
▁ㄱㅝㄹ -14621
▁ㅈㅡㅂ -14622
▁ㅊㅣㅇㅣ -14623
▁ㄱㅘㅇㅂㅐ -14624
▁ㅅㅜㄷㅏㅇ -14625
▁ㅇㅑㅅㅣㅁ -14626
▁ㄱㅏㄴㄱㅕㄹ -14627
▁ㅁㅏㅍㅗㄱㅜ -14628
▁ㅅㅓㄴㅇㅠㄹ -14629
▁ㅈㅏㄴㅈㅗㄴ -14630
▁ㅎㅏㅇㅅㅐㅇ -14631
▁ㄱㅣㅂ -14632
▁ㅅㅏㅇㅅㅓㄹ -14633
▁ㅊㅟㄹㅣㅎㅣ -14634
▁ㄹㅏㅇㅣㅍㅡㅊㅣㅎㅣ -14635
▁ㅁㅕㅇㅅㅓㅇㅎㅘㅇㅎㅜ -14636
ㅘㄱ -14637
▁ㅂㅐㅅ -14638
ㄷㅐㅈㅓㄴ -14639
ㅇㅘㅇㅎㅜ -14640
▁ㄴㅏㅌㅏㄹ -14641
▁ㅂㅡㄹㅔㄴ -14642
▁ㅍㅗㅇㅣㄴ -14643
▁return -14644
▁ㅇㅣㅂㅡㅅㅡ -14645
▁ㅋㅐㅅㅡㅌㅡ -14646
▁ㅅㅣㄴㄱㅣㄹㅗㄱ -14647
▁ㅇㅣㅂㅂㅓㅂㅂㅜ -14648
▁ㅍㅡㄹㅏㅇㅣㅈㅡ -14649
▁ㅎㅣㄹㅂㅔㄹㅡㅌㅡ -14650
▁ㅇㅕㅇㅜㅇㅝㄴㅅㅜㅇㅇㅣ -14651
▁me -14652
ㅅㅣㄴㅏ -14653
▁1592 -14654
▁ㅅㅏㅋㅜㄹ -14655
▁ㅅㅣㅁㅅㅗ -14656
▁ㅇㅣㅇㅋㅡ -14657
▁ㄱㅡㄱㅊㅏㄴ -14658
▁ㅍㅡㄹㅣㅊㅡ -14659
▁ㄴㅗㄹㅡㅁㅏㄴ -14660
▁ㄱㅣㄷㅗㅇㅈㅓㄴ -14661
▁ㅈㅗㅇㅇㅓㅂㅇㅝㄴ -14662
▁ㅋㅗㅍㅓㄹㅔㅇㅣㅅㅕㄴ -14663
▁ㅁㅐㄹ -14664
▁ㅅㅛㅋㅡ -14665
▁ㅂㅜㄱㅜㄴ -14666
▁ㅎㅘㅇㅍㅖ -14667
▁ㅂㅗㄹㄴㅔㅅ -14668
▁ㅈㅜㅇㅇㅛㅇ -14669
▁ㅍㅗㄹㅡㄴㅗ -14670
▁ㄹㅔㅈㅣㅅㅡㅌㅓ -14671
▁ㅅㅡㅇㅇㅛㅇㅊㅏ -14672
pr -14673
ata -14674
ㅔㅌㅏ -14675
▁ㅇㅣㅌㅓ -14676
▁ㅍㅣㅋㅏ -14677
▁ㅈㅣㅌㅐㅇ -14678
▁ㅌㅗㅇㅈㅣ -14679
▁ㅍㅗㅌㅏㅂ -14680
▁ㅈㅏㄱㅈㅜㅇ -14681
▁ㄱㅗㅇㅅㅣㄱㅈㅓㄴ -14682
ㅋㅝ -14683
ㅂㅔㄹㅣ -14684
▁ㄷㅏㅇㅍㅏ -14685
▁ㅁㅗㅁㅊㅔ -14686
▁ㅇㅗㄱㅌㅏ -14687
▁ㅆㅓㄴ -14688
ㅜㅇㅔㄴ -14689
▁ㄱㅣㄱㅗ -14690
▁ㅇㅏㅇㅓ -14691
▁ㅇㅟㅈㅡ -14692
▁ㅈㅏㅋㅗ -14693
▁ㅋㅜㄹㅏ -14694
▁ㄱㅏㄱㅡㄱ -14695
▁ㅂㅗㅈㅣㄱ -14696
▁ㅈㅏㄴㄷㅣ -14697
▁ㅊㅓㅈㅏㅇ -14698
▁ㅎㅏㅇㅣㅍㅓ -14699
▁ㅇㅐㄱㅅㅔㅅㅡ -14700
▁ㅈㅏㅇㄹㅗㅎㅚ -14701
▁ㅍㅡㄹㅏㄴㅊㅣㅅㅡㅋㅗ -14702
ㅓㄱㅓ -14703
▁ㄷㅗㅋㅣ -14704
▁ㅋㅜㄹㅗ -14705
▁ㄱㅗㅊㅏㄹ -14706
▁ㅂㅗㄹㅍㅡ -14707
▁ㅇㅟㅎㅓㄴ -14708
▁ㅇㅕㄴㄷㅏㄹ -14709
▁ㅊㅓㅇㄱㅏㄱ -14710
▁RC -14711
▁ab -14712
ount -14713
▁ㅊㅜㅎㅜ -14714
▁ㄱㅗㄴㅏㄴ -14715
▁ㅅㅡㅋㅣㄹ -14716
ㅌㅏㄹㅣㅇㅏ -14717
▁ㅇㅘㅌㅏㄴㅏㅂㅔ -14718
▁ㅇㅝㄴㅈㅏㅎㅐㄱ -14719
▁ㅋㅣㄹㅡㄱㅣㅅㅡ -14720
▁ㄷㅚㄷㅗㄹㅇㅏㄱㅏ -14721
▁KN -14722
▁ㅁㅜㄱㅗ -14723
▁ㅎㅔㄹㅗ -14724
▁ㄱㅜㄱㅎㅘ -14725
▁ㅇㅠㅁㅏㅇ -14726
▁ㅇㅣㅁㅗㄱ -14727
▁ㅁㅕㄴㅈㅣㄱ -14728
▁ㅇㅏㅇㅣㄹㄹㅐㄴ -14729
OU -14730
per -14731
▁Mon -14732
▁ㅂㅗㄲ -14733
ㅅㅗㄴㅕ -14734
▁ㅇㅕㅍㅗ -14735
▁ㅎㅜㄷㅡ -14736
▁ㄴㅣㄱㅅㅡ -14737
▁ㅂㅜㄱㅘㄴ -14738
▁ㅅㅓㅈㅓㅁ -14739
▁ㄱㅡㄴㅂㅏㅇ -14740
▁ㄴㅗㄴㅅㅏㄴ -14741
▁ㅅㅏㅇㅅㅓㄴ -14742
▁ㅈㅗㅇㅊㅏㄱㅇㅕㄱ -14743
▁ㄱㅗㄷㅡㅇㅎㅏㄱㅅㅐㅇ -14744
ㅇㅔㅅ -14745
▁ㅆㅓㄱ -14746
▁ㅈㅐㅁ -14747
▁ㄹㅜㄷㅗ -14748
ㅎㅜㄱㅜㄱ -14749
▁ㄷㅐㄷㅏㅁ -14750
▁ㅈㅏㄴㅎㅐ -14751
ㅔㅌㅣㅋㅓㅅ -14752
▁ㅁㅣㄴㅏㅁㅗ -14753
▁ㅂㅔㅇㄱㅗㄹ -14754
▁ㅋㅓㅁㅍㅣㄹ -14755
▁ㄱㅗㄹㅉㅏㄱㅣ -14756
▁ㅇㅕㄱㅐㄱㄱㅣ -14757
▁ㅇㅜㄴㄷㅗㅇㄹㅑㅇ -14758
▁ㅋㅗㄴㅔㅌㅣㅋㅓㅅ -14759
▁ㅋㅓㅁㅍㅣㄹㄹㅔㅇㅣㅅㅕㄴ -14760
90 -14761
ㅟㅅ -14762
▁IMF -14763
▁ㅇㅠㅇㅣ -14764
▁ㅊㅓㄴㅅㅜ -14765
ㅎㅘㄹㅇㅑㄱ -14766
▁ㄱㅐㄱㅅㅣㄹ -14767
▁ㄷㅏㄴㅇㅕㄱ -14768
▁ㅇㅓㄷㅗㅂㅣ -14769
▁ㅇㅣㅂㅊㅜㄹ -14770
▁ㅈㅓㄱㅈㅓㅇ -14771
▁ㅊㅜㄱㅇㅣㄹ -14772
▁ㅍㅣㄹㅅㅏㅂㅗㄴ -14773
▁ㅇㅠㄹㄹㅣㅇㅜㅅㅡ -14774
ade -14775
▁ㅆㅢㅇㅜ -14776
▁ㅈㅏㅂㅜ -14777
▁ㅌㅏㄷㅗ -14778
ㅌㅡㅁㅏㄴ -14779
▁ㅂㅗㅇㅠㅈㅏ -14780
▁ㅅㅏㅇㅣㅇㅓㄴㅅㅡ -14781
▁ㅆㅣㄴ -14782
▁Song -14783
▁ㄱㅗㅈㅔ -14784
▁ㅅㅓㄱㅓ -14785
ㅅㅓㄴㄱㅓ -14786
ㅇㅓㄴㅅㅡ -14787
▁ㅈㅜㄱㅗㅂㅏㄷ -14788
▁ㅎㅐㅂㅜㅎㅏㄱ -14789
▁ㅁㅐㅇㅎㅘㄹㅇㅑㄱ -14790
▁ㄱㅡㄹㄹㅗㅂㅡㅅㅏㅇ -14791
▁ㄹㅗㄷㅡㄹㅣㄱㅔㅅㅡ -14792
▁DB -14793
▁ㄲㅐㅇ -14794
ㅏㄷㅡㄹ -14795
▁ㅋㅐㅊㅣ -14796
▁ㄹㅗㅁㅏㅇ -14797
ㄱㅗㄱㄷㅗㅇ -14798
▁ㅅㅓㅇㅍㅜㅁ -14799
▁ㅈㅓㅁㅈㅣㄴ -14800
▁ㅈㅓㅇㅂㅏㄱ -14801
▁ㅈㅣㄱㅁㅜㄹ -14802
▁ㅍㅡㄹㅗㄹㄹㅔ -14803
▁ㄱㅕㅇㅈㅐㅇㅈㅏ -14804
▁ㅁㅣㄴㅏㅁㅗㅌㅗㄴㅗ -14805
▁ㅈㅣㅈㅏㅇㅂㅗㅅㅏㄹ -14806
▁ㅍㅡㄹㅗㄹㄹㅔㅌㅏㄹㅣㅇㅏ -14807
▁ㄴㅏㅊ -14808
▁ㅍㅓㅁ -14809
ㅈㅣㅇㅗ -14810
▁ㅎㅗㅋㅜ -14811
▁ㄱㅗㅇㅡㄹ -14812
▁ㅁㅜㅅㅐㄱ -14813
▁ㅅㅏㅇㄱㅘ -14814
▁ㅂㅕㅇㅍㅜㅇ -14815
▁ㅁㅐㅋㅣㄴㅌㅗㅅㅣ -14816
▁ㅋㅟㅈㅡ -14817
ㄷㅐㄱㅗㅇ -14818
ㅌㅡㅁㅐㄴ -14819
▁ㄱㅕㅇㅎㅗ -14820
▁ㄱㅡㅁㅜㄹ -14821
▁ㅇㅑㄱㅅㅏ -14822
ㅂㅡㄹㅣㅇㅏ -14823
▁ㅁㅗㄱㄷㅗㅇ -14824
▁ㅂㅏㄱㅇㅝㄴ -14825
▁ㅇㅕㄴㅇㅖㄱㅖ -14826
▁ㅇㅕㄴㅈㅜㅎㅚ -14827
▁ㄱㅜㄱㅁㅣㄴㅎㅚ -14828
▁ㅃㅏㅈㅕㄴㅏㄱㅏ -14829
▁ㄴㅏㅁㅇㅏㅅㅣㅇㅏ -14830
ium -14831
ㄱㅣㅅ -14832
▁516 -14833
ㄹㅏㅇㅑ -14834
▁ㄱㅏㅌㅏ -14835
▁ㅇㅣㅌㅡ -14836
▁ㄱㅖㄹㅛㅇ -14837
▁ㅇㅑㅇㅈㅗ -14838
▁ㅂㅏㄹㅊㅏㄱ -14839
▁ㅂㅜㄴㅂㅕㄹ -14840
▁ㅆㅏㅇㅅㅓㅇ -14841
▁ㅊㅏㅇㄹㅣㅂㅈㅏ -14842
ㅂㅜㅅㅣ -14843
ㅓㅇㅜㅁ -14844
▁ㅁㅜㅂㅣ -14845
▁ㅇㅟㄷㅗ -14846
ㅔㅇㅣㄱㅗ -14847
▁Heart -14848
▁ㄱㅣㅎㅐㅇ -14849
▁ㄴㅗㅂㅜㅇ -14850
▁ㄷㅗㅇㅈㅏ -14851
▁ㅅㅡㅌㅐㄱ -14852
▁ㄱㅡㅁㅅㅐㄱ -14853
▁ㅇㅗㅅㅡㅋㅏ -14854
▁ㅇㅚㄱㅛㅂㅜ -14855
▁ㅇㅣㄹㅅㅓㄴ -14856
▁ㅈㅜㄴㄷㅗㅇ -14857
▁ㅈㅏㄹㅣㅅㅅㅜ -14858
▁ㄱㅡㅁㄱㅏㅇㅅㅏㄴ -14859
▁ㄱㅡㄴㅂㅗㄴㅂㅓㄴㄴㅚ -14860
IX -14861
ㅈㅗㄹㅣ -14862
▁ㄲㅗㅁㅏ -14863
▁ㅇㅗㅈㅏ -14864
▁ㄱㅓㅊㅏㅇ -14865
▁ㄱㅟㅇㅣㄴ -14866
▁ㅂㅕㄴㅁㅗ -14867
▁ㅍㅛㅈㅓㄹ -14868
▁ㅅㅜㅂㅣㄷㅐ -14869
▁ㅅㅣㄴㅣㅇㅓ -14870
▁Windows -14871
▁ㅅㅐㅇㅎㅘㅎㅏㄱ -14872
▁ㅋㅡㄹㅣㅅㅡㅌㅣㄴㅏ -14873
▁ㅌㅠㅂㅡ -14874
ㅇㅓㅂㅈㅏ -14875
ㅊㅓㄹㅅㅜ -14876
▁ㅁㅏㅅㅂㅗ -14877
▁ㅅㅔㄷㅏㄴ -14878
▁ㅇㅛㅇㅎㅐ -14879
▁ㅍㅐㅅㅡㅌㅡ -14880
▁ㅇㅘㅋㅏㅇㅑㅁㅏ -14881
ㅛㄹ -14882
▁As -14883
ㅂㅏㄹㅣ -14884
▁ㄴㅏㅁㅏ -14885
▁ㄷㅐㅌㅏ -14886
▁ㄹㅏㅍㅡ -14887
▁ㄱㅓㄹㅍㅡ -14888
▁ㅇㅕㅇㅁㅣ -14889
▁ㅈㅓㄴㄷㅏㄴ -14890
▁ㅇㅣㄴㅈㅣㄷㅗ -14891
▁ㅁㅗㄱㅈㅓㄱㅈㅣ -14892
▁ㅇㅔㅇㅣㅈㅓㄴㅌㅡ -14893
▁ㅌㅡㄱㅂㅕㄹㅂㅓㅂ -14894
▁Pe -14895
▁ㅅㅕㅁ -14896
▁1840 -14897
▁ㄷㅗㄱㅈㅜ -14898
▁ㅇㅣㅈㅣㄹ -14899
▁ㅌㅔㄴㅅㅓ -14900
▁ㅂㅣㄴㅁㅣㄴ -14901
▁ㅈㅓㄹㅊㅣㄴ -14902
▁ㅇㅕㅇㅇㅠㄱㅝㄴ -14903
▁ㅅㅏㅇㅘ -14904
▁ㅈㅏㅊㅓ -14905
▁ㅋㅏㅂㅏ -14906
▁ㅋㅏㅌㅡ -14907
▁ㄴㅗㅎㅕㄴ -14908
▁ㅍㅛㅊㅜㄹ -14909
▁ㅅㅓㄷㅜㄹㅡ -14910
▁ㅇㅕㄴㅈㅜㅇ -14911
▁ㅎㅚㅇㄹㅕㅇ -14912
▁ㅁㅜㄴㅓㄸㅡㄹㅣ -14913
▁ㅂㅏㅇㅇㅟㄱㅜㄴ -14914
▁ㅎㅜㅈㅣㅇㅘㄹㅏ -14915
IF -14916
▁ㅇㅓㅅㅏ -14917
ㅇㅣㄹㅊㅣ -14918
▁ㅈㅏㅎㅐㅇ -14919
▁ㅍㅜㅇㄱㅣ -14920
▁ㅎㅡㅇㅇㅝㄴ -14921
▁Aw -14922
ㄷㅓㅂ -14923
▁Out -14924
▁ㅎㅐㅈㅣ -14925
▁ㄱㅗㄱㅜㄱ -14926
▁ㅂㅐㄱㅈㅗ -14927
▁ㅈㅓㅊㅜㄱ -14928
ㅋㅏㄹㅡㅌㅡ -14929
▁ㅅㅣㅁㅣㅈㅡ -14930
▁ㅇㅏㅇㅣㅈㅔㄴ -14931
▁ㅍㅏㅅㅣㅅㅡㅌㅡ -14932
▁AMD -14933
▁ㄴㅏㄺ -14934
▁ㄹㅐㄹㅣ -14935
▁ㅅㅡㄱㅣ -14936
▁ㅈㅏㅊㅟ -14937
▁ㅎㅚㅇㅠ -14938
▁ㄱㅣㄹㅣㄴ -14939
▁ㄷㅏㅇㅣㅇ -14940
▁ㅇㅠㄱㅗㄹ -14941
▁ㅇㅠㄴㅎㅠ -14942
▁ㄴㅔㅇㅣㅌㅡ -14943
▁ㅅㅗㄴㄴㅣㅁ -14944
ㅗㄴㅔㅅㅣㅇㅏ -14945
▁ㅇㅏㄴㅊㅏㅇㅎㅗ -14946
▁ㅅㅔㅇㅣㄴㅌㅡㄹㅜㅇㅣㅅㅡ -14947
ㅣㅇㅠ -14948
ㅎㅣㄷㅔ -14949
▁ㄴㄷㅏㄴ -14950
ㅅㅜㄷㅏㄴ -14951
▁ㅂㅣㄱㅌㅓ -14952
▁ㅇㅏㅁㅅㅜ -14953
▁ㅇㅝㄱㅅㅡ -14954
▁ㅈㅣㄴㅈㅜㅅㅣ -14955
▁ㅅㅣㅁㄹㅣㅎㅏㄱㅈㅏ -14956
itt -14957
▁sh -14958
ㄱㅗㄷ -14959
ㅎㅜㅇ -14960
▁ㅂㅓㅇ -14961
ㅐㅇㅋㅡ -14962
▁ㅎㅣㅌㅗ -14963
ㄷㅓㄴㅌㅡ -14964
▁ㅅㅣㄴㅎㅐ -14965
▁ㅇㅔㄹㄹㅏ -14966
▁ㅇㅝㄹㅎㅘ -14967
▁ㅈㅣㅁㅜㄴ -14968
▁ㅋㅣㅇㅅㅡ -14969
ㅋㅡㄹㄹㅗㄴ -14970
▁ㅂㅏㄴㅇㅣㅂ -14971
▁ㅅㅣㅁㅈㅓㅇ -14972
▁ㅍㅏㅈㅜㅅㅣ -14973
▁ㅎㅔㄹㅡㅁㅏㄴ -14974
▁ㅈㅣㅈㅣㄹㅎㅏㄱ -14975
▁ㅍㅏㄹㄲㅜㅁㅊㅣ -14976
▁ㅂㅜㄱㄱㅡㄱㅈㅓㅁ -14977
▁ㅇㅕㅇㄷㅡㅇㅍㅗㄱㅜ -14978
ㅅㅣㅅ -14979
ㅓㅎㅏ -14980
ㄱㅜㅅㅡ -14981
▁ㅍㅣㅊㅓ -14982
▁ㅊㅗㅇㅡㅁ -14983
▁ㅎㅏㅅㅏㄴ -14984
ㅈㅓㄴㅅㅓㄴ -14985
▁ㅁㅜㅅㅏㅎㅣ -14986
▁ㅅㅏㄷㅐㅂㅜ -14987
▁ㅌㅜㄹㅡㅋㅡㅁ -14988
▁ㄱㅏㅎㅘㄴㅎㅘㄴ -14989
ㅈㅜㅇㅊㅜㅂㅜㅅㅏ -14990
ㅡㅂㅗㅇ -14991
▁ㄹㅗㅈㅣ -14992
▁ㅂㅗㄹㅠ -14993
▁ㅇㅝㅅㅡ -14994
▁ㅍㅣㅋㅡ -14995
ㅂㅣㅇㅕㄱ -14996
▁ㅅㅗㅂㅏㄱ -14997
▁ㄱㅕㅁㅈㅣㄱ -14998
▁ㄱㅗㅇㅅㅏㅇ -14999
▁ㄱㅡㄴㅏㅁㅏ -15000
▁ㅁㅕㄴㅡㄹㅣ -15001
▁ㅅㅜㄷㅗㅎㅚ -15002
▁ㅊㅜㄹㄱㅜㄱ -15003
▁ㄱㅗㅁㅜㄴㅅㅓ -15004
▁ㄱㅡㄹㄹㅓㅂㅡ -15005
ㅋㅣㄴㅏ -15006
▁8000 -15007
▁ㅅㅏㄷㅡ -15008
▁ㅋㅗㅁㅏ -15009
▁ㅇㅚㅊㅓㄱ -15010
▁ㅊㅜㄹㅅㅔ -15011
▁ㅍㅐㅁㅏㅇ -15012
▁ㄹㅗㅌㅏㄹㅡ -15013
▁ㅈㅓㄱㅅㅣㅂㅈㅏ -15014
▁ㅇㅏㄴㅏㅌㅗㄹㄹㅣㅇㅏ -15015
▁ㅇㅣㅇㅏ -15016
▁ㅈㅏㄹㅜ -15017
▁ㅈㅣㅊㅔ -15018
▁ㅇㅕㅇㅅㅏ -15019
▁ㅈㅏㅈㅣㄹ -15020
ㅈㅏㄱㅈㅓㄴ -15021
▁ㄱㅝㄴㅇㅣㄱ -15022
▁ㅅㅏㄴㄴㅏㅁ -15023
▁ㅋㅓㄴㅂㅔㄴㅅㅕㄴ -15024
▁ㅂㅣㅅㅡㅁㅏㄹㅡㅋㅡ -15025
▁ㅍㅗㄹㅡㅌㅜㄱㅏㄹㅇㅓ -15026
▁Gl -15027
ㅌㅣㅈㅣ -15028
▁ㅇㅡㄹㅓ -15029
▁ㅈㅓㅎㅐ -15030
▁ㄱㅗㅇㄷㅐ -15031
▁ㅅㅐㅇㅈㅟ -15032
▁ㄱㅜㄱㄹㅕㄱ -15033
▁ㅊㅓㄴㅅㅏㅇ -15034
▁ㅅㅏㅁㅜㄱㅘㄴ -15035
▁ㅇㅏㅇㅌㅜㅇㅏㄴ -15036
▁ㅈㅔㅈㅏㄱㅈㅣㄴ -15037
▁ㅊㅓㅇㅊㅟ -15038
▁ㄷㅏㄴㅇㅑㅇ -15039
▁ㄱㅔㅇㅣㅁㄱㅣ -15040
▁ㄷㅐㄹㄹㅓㅅㅡ -15041
▁ㄹㅣㅅㅡㅂㅗㄴ -15042
▁ㅌㅗㅇㄷㅗㅅㅏ -15043
▁ㅂㅣㄷㅏㄴㅌㅓㄹ -15044
▁ㅇㅏㄹㅍㅡㄹㅔㄷㅡ -15045
able -15046
ㅋㅜㄹㅡ -15047
▁ㅁㅏㄱㅜ -15048
▁ㅅㅏㅅㅗ -15049
▁ㅇㅠㅎㅘ -15050
▁ㅈㅣㅇㅛ -15051
▁ㅋㅏㄹㅔ -15052
ㅍㅔㄹㄹㅓ -15053
ㅣㄴㅣㅊㅣ -15054
▁ㄹㅏㄴㅌㅡ -15055
▁ㅅㅜㄱㅡㅂ -15056
▁ㅅㅜㅁㅏㄴ -15057
▁ㅉㅗㅊㄱㅣ -15058
▁ㅊㅓㄹㅈㅏ -15059
▁ㅊㅚㄴㅏㅁ -15060
▁ㅌㅏㄱㄱㅜ -15061
▁ㅅㅏㅇㄷㅗㅇ -15062
▁ㅇㅏㄴㅈㅜㅇ -15063
▁ㅇㅗㄴㅅㅣㄹ -15064
▁ㅂㅕㅇㅈㅏㅎㅗㄹㅏㄴ -15065
▁ㅂㅣㄷㅏㄴㅌㅓㄹㅈㅟ -15066
ㅏㅇㅔ -15067
ㄱㅏㅌㅏ -15068
▁1875 -15069
▁ㄹㅏㄷㅏ -15070
▁ㅅㅡㅇㅔ -15071
▁ㄴㅐㄹㅏㄴ -15072
▁ㅇㅢㅅㅓㅇ -15073
▁ㅇㅢㅈㅓㅇ -15074
▁ㄱㅏㅇㅇㅣㄴ -15075
▁ㄱㅡㅁㅈㅓㅇ -15076
▁ㄴㅏㅊㅣㅇㅗ -15077
▁ㄷㅗㄱㅅㅏㄹ -15078
▁ㅇㅣㅇㅘㅌㅔ -15079
▁ㅎㅐㅇㄱㅜㄴ -15080
ㅅㅡㅋㅗㄹㅣㅇㅏ -15081
▁ㄱㅘㅇㄷㅜㅇㅅㅓㅇ -15082
▁VS -15083
▁"() -15084
ㅅㅡㄹㅔ -15085
ㄷㅓㄹㅣㅇ -15086
▁ㅅㅓㅇㄷㅐ -15087
▁ㅇㅢㅂㅗㄱ -15088
▁ㅎㅕㄴㄷㅗ -15089
▁ㅎㅗㄴㅈㅏㅂ -15090
▁ㄱㅜㄷㅏㄴㅈㅜ -15091
▁ㄲㅗㅊㅊㅏㄹㅖ -15092
▁ㄷㅗㄹㄱㅗㄹㅐ -15093
▁ㅂㅏㄷㅏㅅㅁㅜㄹ -15094
▁ㅍㅡㄹㅏㅇㅅㅡㅇㅘ -15095
▁ㅌㅗㄹㅏ -15096
ㅍㅡㅁㅏㄴ -15097
▁ㅂㅔㄴㅊㅡ -15098
▁ㄴㅗㄹㅡㄷㅡ -15099
▁ㅇㅠㄴㅕㄴㄱㅣ -15100
▁ㅋㅗㅌㅡㄷㅣㅂ -15101
▁ㅌㅜㄹㅡㅋㅡㅁㅔㄴ -15102
▁ㅅㅐㄴㄷㅣㅇㅔㅇㅣㄱㅗ -15103
▁ㅋㅗㅌㅡㄷㅣㅂㅜㅇㅏㄹㅡ -15104
▁TS -15105
ㅈㅣㅈ -15106
▁Gen -15107
▁ㅅㅜㅍㅓ -15108
▁ㄸㅏㄱㄸㅏㄱ -15109
▁ㅁㅗㅈㅏㅇㅣ -15110
▁ㅁㅣㄴㅅㅣㅁ -15111
▁ㄱㅘㅂㅏㄴㅅㅜ -15112
▁ㅇㅖㅂㅣㅇㅕㄱ -15113
BI -15114
ng -15115
▁708 -15116
▁ㅂㅓㅈ -15117
▁ㅇㅟㅋㅡ -15118
▁ㄱㅏㅂㅏㅇ -15119
▁ㅍㅏㄹㅏㅎ -15120
▁ㄷㅏㅇㅣㅅㅛ -15121
▁ㅁㅜㅈㅣㄱㅐ -15122
▁ㅅㅔㅁㅣㄴㅏ -15123
▁ㅍㅗㅁㅍㅔㅇㅣ -15124
▁ㅁㅗㅈㅏㅇㅣㅋㅡ -15125
▁ㅂㅏㄴㄱㅏㅁㄱㅣ -15126
▁PL -15127
ㄱㅜㄹㅣ -15128
ㅎㅐㅇㅍㅏ -15129
▁ㄱㅜㄱㅅㅔ -15130
▁ㄱㅙㄴㅊㅏㄶ -15131
▁ㅂㅏㅇㅇㅜㄹ -15132
▁ㅂㅗㄹㅣㅅㅡ -15133
▁ㅅㅏㅇㅣㅈㅡ -15134
▁ㅎㅣㅌㅏㅊㅣ -15135
ㄹㅗㄱㄷㅐㅂㅜ -15136
▁ㅇㅔㅇㅣㅂㅡㄹ -15137
ㄱㅕㅂ -15138
▁ㅆㅣㅂ -15139
ㅅㅏㅇㅠ -15140
ㅇㅓㅎㅏ -15141
▁ㅇㅏㅌㅔ -15142
▁ㄷㅏㄴㅅㅓ -15143
▁ㄹㅗㅋㅡㄴ -15144
▁ㄱㅡㅁㅎㅘㄴ -15145
▁ㅇㅣㅁㅈㅗㅇ -15146
▁ㅈㅓㅇㅊㅣㄱ -15147
▁ㅇㅖㅇㅓㄴㅈㅏ -15148
▁ㅊㅣㄹㅛㅂㅓㅂ -15149
▁ㅇㅕㄴㅅㅗㄱㄱㅡㄱ -15150
▁ㄱㅡㄹㅣㄴㄹㅏㄴㄷㅡ -15151
ㅢㅈㅏ -15152
ㅊㅗㄴㄹㅣ -15153
▁ㄴㅗㅇㄱㅏ -15154
▁ㄴㅗㅇㅝㄴ -15155
▁ㅍㅗㅅㅏㅇ -15156
▁ㅇㅏㅅㅔㅌㅣㄹ -15157
ㅌㅠ -15158
son -15159
▁ㅅㅏㅈㅜ -15160
▁ㅇㅠㅁㅓ -15161
▁ㅌㅗㄹㅗ -15162
ㅈㅐㄷㅏㄴ -15163
▁ㅅㅜㄱㅅㅗ -15164
▁ㅇㅔㅂㅗㄹ -15165
▁ㅋㅓㅂㅅㅡ -15166
ㅊㅏㄴㅅㅓㅇ -15167
▁ㄴㅏㄹㅣㅌㅏ -15168
▁ㅅㅏㄱㄱㅏㅁ -15169
▁ㅅㅓㄴㅅㅏㅇ -15170
▁ㅁㅐㄷㅣㅅㅡㄴ -15171
▁ㅇㅗㄹㄹㅣㅂㅡ -15172
▁ㄱㅗㄷㅡㅇㄱㅛㅇㅠㄱ -15173
▁ㄴㅏㅁㅇㅑㅇㅈㅜㅅㅣ -15174
ㅣㅇㅅㅡ -15175
▁ㅇㅢㅈㅜ -15176
▁ㅁㅗㅈㅣㄹ -15177
▁ㅅㅏㅇㅇㅢ -15178
▁ㅇㅏㅁㅏㄴ -15179
▁ㅇㅑㅇㅍㅏ -15180
▁ㅇㅕㄹㅓㅅ -15181
▁ㅈㅓㅇㅇㅔ -15182
▁ㅎㅟㅂㅏㄹ -15183
▁ㅅㅐㅇㅇㅝㄴ -15184
▁ㅇㅏㄱㅁㅕㅇ -15185
▁ㅎㅏㅁㄱㅕㅇㄷㅗ -15186
▁ㅎㅏㅇㄱㅗㅇㄷㅐ -15187
ale -15188
ㄸㅜㅇ -15189
ㄱㅣㅈㅡ -15190
ㅌㅏㄴㄷㅜ -15191
▁ㅇㅓㅅㅓㄴ -15192
▁ㅇㅛㅇㅈㅣ -15193
▁ㅊㅜㅊㅜㄱ -15194
ㄱㅗㅁㅔㄹㅣ -15195
▁ㅁㅗㄹㄷㅗㅂㅏ -15196
▁ㅇㅗㄹㅡㄱㅏㄴ -15197
▁ㅅㅏㅅㅐㅇㅎㅘㄹ -15198
▁ㅅㅛㅍㅣㅇㅁㅗㄹ -15199
▁ㅍㅡㄹㄹㅜㅌㅗㄴ -15200
▁University -15201
▁JC -15202
ㅔㅎㅕㄴ -15203
▁ㄱㅜㅅㅣ -15204
▁ㄷㅏㄹㅡㅁ -15205
▁ㄷㅗㅈㅓㄱ -15206
▁ㅅㅓㄷㅏㅇ -15207
▁ㅊㅏㅁㅍㅐ -15208
▁ㅊㅟㅈㅣㄱ -15209
▁ㅅㅡㅍㅣㅋㅓ -15210
▁ㅇㅏㄹㅣㄹㅏㅇ -15211
▁ㅎㅚㄱㅗㄹㅗㄱ -15212
ㅋㅣㅇㅗ -15213
▁ㅇㅜㅁㅏ -15214
ㅁㅜㄱㅗㅇ -15215
▁ㄱㅛㄱㅘㄴ -15216
ㅂㅏㅇㅎㅑㅇ -15217
▁ㅁㅗㄱㅈㅏㅇ -15218
▁ㅈㅣㅂㅈㅓㄴ -15219
ㅎㅐㅂㅏㅇㄱㅜㄴ -15220
▁ㅅㅓㄴㄱㅓㅇㅣㄴ -15221
▁ㅅㅣㄴㅅㅓㄱㄱㅣ -15222
▁ㅊㅣㄴㅎㅘㄴㄱㅕㅇ -15223
▁ㄹㅏㅇㅣㅂㅔㄹㅣㅇㅏ -15224
▁ㅇㅣㄴㅁㅣㄴㅎㅐㅂㅏㅇㄱㅜㄴ -15225
ㅜㄴㅔ -15226
▁ATC -15227
▁ㅇㅔㅂ -15228
ㅇㅜㅊㅣ -15229
▁ㄴㅣㅋㅔ -15230
▁ㄴㅠㄹㅓㄴ -15231
▁ㄹㅣㅇㅏㄴ -15232
▁ㅅㅣㅊㅏㄹ -15233
▁ㅇㅣㅂㅡㄹ -15234
▁ㅈㅏㅈㅓㅇ -15235
▁ㅇㅡㄴㅁㅣㄹ -15236
▁ㄱㅏㅇㄹㅕㄱㅎㅣ -15237
▁ㅈㅓㅇㅊㅣㄱㅜㄱ -15238
▁ㄷㅚㄷㅗㄹㅇㅏㅇㅗ -15239
▁380 -15240
▁ㄱㅛㅍㅏ -15241
▁ㅂㅔㄹㅏ -15242
▁ㅈㅗㅂㅣ -15243
▁ㄱㅛㅎㅜㄴ -15244
▁ㄱㅟㅇㅕㅂ -15245
▁ㄱㅣㄹㄷㅡ -15246
▁ㅅㅓㅋㅡㄹ -15247
▁ㅅㅕㅌㅡㄹ -15248
▁ㅇㅏㄹㅡㅂ -15249
▁ㅊㅣㄴㅎㅘ -15250
ㅅㅔㄷㅔㅅㅡ -15251
▁ㄱㅡㄹㅐㄷㅗ -15252
▁ㅊㅜㄹㅍㅜㅁ -15253
▁ㅍㅏㄹㅏㅇㅗ -15254
▁ㅈㅏㅇㄱㅏㅂㅊㅏ -15255
▁ㅈㅜㅇㅇㅏㅇㅅㅓㄴ -15256
▁ㅈㅓㄴㅓㄹㄹㅣㅅㅡㅌㅡ -15257
▁KTX -15258
ㅋㅠㄹㅣ -15259
▁ㄱㅛㅎㅘ -15260
▁ㅇㅣㅎㅢ -15261
▁ㅍㅛㅈㅔ -15262
ㅅㅏㄹㅗㄴ -15263
▁ㄹㅣㄴㄷㅏ -15264
▁ㅇㅣㅅㅓㄴ -15265
▁ㄱㅏㅇㅅㅡㅂ -15266
▁ㅇㅝㄴㄷㅏㄴ -15267
▁ㅈㅜㅇㄱㅕㄴ -15268
▁ㅊㅣㅁㅅㅣㄱ -15269
▁ㄹㅏㅁㅕㄴㅅㅓ -15270
▁ㅊㅣㅇㄱㅣㅈㅡ -15271
▁ㅅㅓㄴㅈㅔㄱㅗㄹ -15272
▁ㅇㅜㄴㅈㅓㄴㅈㅏ -15273
▁ㅎㅕㅇㅇㅛㅇㅅㅏ -15274
▁ㅁㅗㅇㄱㅗㅁㅔㄹㅣ -15275
▁ㅁㅔㄹㅡㅅㅔㄷㅔㅅㅡ -15276
▁At -15277
▁205 -15278
▁Vol -15279
▁ㅅㅗㄹㅏ -15280
▁ㄱㅠㅇㅑㄱ -15281
▁ㅅㅜㅈㅡㅇ -15282
▁ㅈㅗㅂㅗㅇ -15283
▁ㄷㅏㄹㅋㅗㅁ -15284
▁ㅂㅕㄴㅈㅡㅇ -15285
▁ㅎㅑㅇㅅㅣㄴ -15286
▁ㅎㅏㅂㅅㅓㅇㅇㅓ -15287
▁ㅋㅕ -15288
▁ㅌㅓㄴㅓ -15289
▁ㅋㅗㄹㄹㅣ -15290
▁ㅅㅣㄹㅅㅏㅇ -15291
▁ㅇㅣㄹㅁㅕㅇ -15292
▁ㅍㅛㅌㅡㄹㅡ -15293
▁ㅅㅏㅎㅏㄹㄹㅣㄴ -15294
▁ㄴㅏㅁㄱㅡㄱㅈㅓㅁ -15295
▁ㅅㅓㅇㅍㅗㄱㅎㅐㅇ -15296
▁GR -15297
▁WC -15298
ㅋㅜㅅㅏ -15299
ㅎㅣㅁㅔ -15300
▁ㅂㅏㅃㅡ -15301
ㅁㅗㅇㅡㅁ -15302
ㅂㅗㄷㅏㅇ -15303
ㅍㅔㅇㅣㄴ -15304
ㅣㄷㅣㅇㅓ -15305
▁ㄱㅜㄱㅂㅜ -15306
▁ㄱㅣㅍㅏㄴ -15307
▁ㅇㅙㄱㅜㄴ -15308
▁ㅇㅐㄹㅣㅈㅗ -15309
▁ㅇㅑㅁㅏㄷㅏ -15310
▁ㅈㅣㅇㅈㅣㅂ -15311
▁ㅋㅗㄴㄹㅏㅌㅡ -15312
▁ㅎㅗㅎㅡㅂㄱㅣ -15313
▁ㅇㅓㅅㄱㅏㄹㄹㅣ -15314
▁ㄱㅘㄴㅇㅡㅁㅂㅗㅅㅏㄹ -15315
▁Par -15316
▁ㅍㅣㅅㅏ -15317
▁ㄱㅣㄱㅗㅇ -15318
▁ㄷㅡㄹㄹㅡ -15319
▁ㅅㅓㄴㅊㅔ -15320
▁ㅇㅚㅎㅏㄹ -15321
▁ㅊㅓㅂㅂㅗ -15322
▁ㅎㅓㄴㅏㄴ -15323
▁ㅅㅜㄱㄹㅕㄴ -15324
▁ㅇㅣㄴㅅㅡㅇ -15325
▁ㅍㅏㅅㅡㅋㅏㄹ -15326
ㅋㅡㄹㅏㅌㅔㅅㅡ -15327
▁ㄷㅏㅁㄷㅏㅇㅈㅏ -15328
▁ㅇㅔㄱㅅㅡㅂㅏㄱㅅㅡ -15329
▁ㄱㅠㅇㅠㄹ -15330
▁ㅈㅏㅈㅏㅇ -15331
▁ㅎㅐㅇㅂㅗ -15332
▁ㄷㅡㅇㅅㅏㄴ -15333
▁ㅈㅜㅇㅇㅣㄹ -15334
▁ㅈㅣㄱㄹㅕㄹ -15335
ㄹㅡㄴㅂㅔㄹㅡㅋㅡ -15336
▁235 -15337
▁ㅇㅠㅋㅏ -15338
▁ㅌㅗㅍㅣ -15339
▁ㄹㅔㄱㅅㅡ -15340
▁ㅁㅏㄹㅡㄱ -15341
▁ㅅㅏㄱㅏㄱ -15342
▁ㅅㅏㅇㄱㅖ -15343
▁ㅇㅑㅇㅅㅜ -15344
▁ㅎㅔㅅㅔㄴ -15345
▁ㅂㅏㄴㄹㅗㄴ -15346
▁ㅇㅣㄴㅁㅓㄴ -15347
▁ㅂㅗㅎㅗㅂㅓㅂ -15348
▁ㅂㅜㄹㄱㅏㅍㅣ -15349
▁ㅇㅛㄹㅣㅌㅗㅁㅗ -15350
▁ㅎㅏㄱㅅㅜㄹㅈㅣ -15351
▁ㅇㅏㄴㄷㅡㄹㅗㅁㅔ -15352
▁ㅈㅣㅎㅏㅊㅓㄹㅇㅕㄱ -15353
ㅁㅔㄹ -15354
ㅈㅏㄷㅡ -15355
▁ㅇㅑㅋㅜ -15356
▁ㅍㅣㅈㅣ -15357
▁ㄷㅔㅇㅣㄹ -15358
▁ㄹㅏㅅㅡㅂ -15359
▁ㅅㅣㄴㄷㅐ -15360
▁ㅅㅣㄴㅅㅣ -15361
▁ㄷㅔㅇㅣㅌㅡ -15362
▁ㅂㅏㅇㅣㅇㅓ -15363
▁ㅅㅏㅇㅅㅣㄱ -15364
▁ㅅㅣㅀㅇㅓㅎㅏ -15365
▁ㅌㅗㅇㄱㅖㅊㅓㅇ -15366
▁ㅁㅣㅅㅡㅋㅗㄹㅣㅇㅏ -15367
▁DOS -15368
▁ㅁㅗㅍㅣ -15369
[...]
