[PAD]	0
[UNK]	0
[BOS]	0
[EOS]	0
[CLS]	0
[SEP]	0
[MASK]	0
▁이	-0
▁하	-1
▁.	-2
▁에	-3
▁다	-4
▁의	-5
▁는	-6
▁ᆫ	-7
▁,	-8
▁을	-9
▁은	-10
▁가	-11
▁1	-12
▁으	-13
▁고	-14
▁되	-15
▁아	-16
▁를	-17
▁었	-18
▁지	-19
▁년	-20
▁로	-21
▁으로	-22
▁에서	-23
▁2	-24
▁있	-25
▁어	-26
▁대	-27
▁았	-28
▁기	-29
▁사	-30
▁그	-31
▁도	-32
▁시	-33
▁일	-34
▁과	-35
▁ᆫ다	-36
▁들	-37
▁수	-38
▁전	-39
▁적	-40
▁여	-41
▁자	-42
▁와	-43
▁20	-44
▁부	-45
▁월	-46
▁주	-47
▁제	-48
▁19	-49
▁라	-50
▁ᆯ	-51
▁정	-52
▁보	-53
▁중	-54
▁위	-55
▁인	-56
▁였	-57
▁나	-58
▁공	-59
▁세	-60
▁경	-61
▁것	-62
▁게	-63
▁개	-64
▁오	-65
▁유	-66
▁3	-67
▁"	-68
▁조	-69
▁등	-70
▁스	-71
▁선	-72
▁마	-73
▁성	-74
▁만	-75
▁미	-76
▁동	-77
▁연	-78
▁상	-79
▁서	-80
▁소	-81
▁한	-82
▁모	-83
▁비	-84
▁구	-85
▁영	-86
▁국	-87
▁발	-88
▁면	-89
▁며	-90
▁으며	-91
▁201	-92
▁'	-93
▁4	-94
▁후	-95
▁관	-96
▁명	-97
▁신	-98
▁프	-99
▁5	-100
▁때	-101
▁200	-102
▁장	-103
▁던	-104
▁-	-105
▁거	-106
▁방	-107
▁바	-108
▁교	-109
▁리	-110
▁해	-111
▁문	-112
▁내	-113
▁역	-114
▁차	-115
▁당	-116
▁우	-117
▁무	-118
▁원	-119
▁통	-120
▁계	-121
▁현	-122
▁남	-123
▁노	-124
▁군	-125
▁포	-126
▁분	-127
▁6	-128
▁또	-129
▁않	-130
▁화	-131
▁까	-132
▁학	-133
▁생	-134
▁까지	-135
▁같	-136
▁결	-137
▁작	-138
▁강	-139
▁에게	-140
▁출	-141
▁파	-142
▁대하	-143
▁받	-144
▁진	-145
▁크	-146
▁단	-147
▁7	-148
▁번	-149
▁최	-150
▁반	-151
▁불	-152
▁10	-153
▁8	-154
▁데	-155
▁알	-156
▁위하	-157
▁두	-158
▁호	-159
▁회	-160
▁지만	-161
▁안	-162
▁배	-163
▁실	-164
▁카	-165
▁형	-166
▁말	-167
▁초	-168
▁따	-169
▁예	-170
▁재	-171
▁없	-172
▁부터	-173
▁타	-174
▁사용	-175
▁9	-176
▁음	-177
▁미국	-178
▁라고	-179
▁종	-180
▁요	-181
▁이후	-182
▁라는	-183
▁함	-184
▁설	-185
▁특	-186
▁면서	-187
▁일본	-188
▁는데	-189
▁코	-190
▁레	-191
▁산	-192
▁운	-193
▁권	-194
▁감	-195
▁더	-196
▁독	-197
▁활	-198
▁추	-199
▁행	-200
▁베	-201
▁왕	-202
▁처	-203
▁피	-204
민국	-205
▁김	-206
▁그리	-207
▁지역	-208
▁양	-209
▁으나	-210
▁매	-211
▁대한	-212
▁199	-213
▁민	-214
▁다음	-215
▁평	-216
▁태	-217
▁많	-218
▁건	-219
▁입	-220
▁따르	-221
▁12	-222
▁간	-223
▁참	-224
▁대한민국	-225
▁18	-226
▁경기	-227
▁및	-228
▁승	-229
▁다고	-230
▁가지	-231
▁열	-232
▁목	-233
▁드	-234
▁다른	-235
▁대학	-236
▁;	-237
▁의하	-238
리아	-239
00	-240
▁프로	-241
▁총	-242
▁속	-243
스트	-244
▁북	-245
▁야	-246
▁집	-247
▁S	-248
or	-249
▁때문	-250
▁법	-251
▁11	-252
▁시작	-253
▁트	-254
▁물	-255
▁외	-256
▁체	-257
▁시키	-258
▁각	-259
▁변	-260
▁달	-261
▁천	-262
▁직	-263
▁메	-264
▁임	-265
▁표	-266
▁올	-267
▁ᄆ	-268
▁그러	-269
▁토	-270
▁사람	-271
▁본	-272
▁점	-273
▁&	-274
▁저	-275
▁쓰	-276
▁함께	-277
▁또한	-278
▁아서	-279
▁A	-280
어지	-281
▁박	-282
▁팀	-283
어나	-284
▁치	-285
▁투	-286
▁한국	-287
▁청	-288
▁선수	-289
▁항	-290
▁브	-291
▁사이	-292
▁세계	-293
▁영화	-294
▁)	-295
▁자신	-296
▁버	-297
▁새	-298
▁약	-299
▁광	-300
la	-301
▁C	-302
▁디	-303
▁경우	-304
▁M	-305
▁통하	-306
▁네	-307
▁용	-308
▁판	-309
▁루	-310
▁f	-311
▁기록	-312
▁T	-313
▁아니	-314
▁축	-315
▁F	-316
▁복	-317
▁현재	-318
▁하나	-319
▁국가	-320
시아	-321
▁존	-322
▁다는	-323
▁이름	-324
▁198	-325
▁편	-326
▁당시	-327
▁확	-328
▁가장	-329
▁삼	-330
▁위치	-331
▁_	-332
▁보이	-333
▁활동	-334
▁조선	-335
▁이나	-336
▁뒤	-337
▁학교	-338
▁철	-339
▁만들	-340
주의	-341
▁그러나	-342
▁리그	-343
▁필	-344
▁15	-345
▁(	-346
▁살	-347
▁금	-348
▁증	-349
▁페	-350
▁합	-351
▁for	-352
▁째	-353
▁플	-354
▁백	-355
mu	-356
▁테	-357
▁심	-358
▁창	-359
▁언	-360
▁애	-361
mula	-362
▁formula	-363
▁식	-364
▁못	-365
▁16	-366
▁대표	-367
레이	-368
▁병	-369
▁연구	-370
▁근	-371
▁또는	-372
부터	-373
▁프랑	-374
▁니	-375
▁그리고	-376
▁/	-377
▁사회	-378
▁황	-379
▁돌	-380
▁규	-381
▁m	-382
▁0	-383
▁D	-384
▁충	-385
▁시즌	-386
▁17	-387
▁어서	-388
▁패	-389
▁]	-390
▁[	-391
▁첫	-392
▁순	-393
▁197	-394
▁B	-395
▁보다	-396
▁이루	-397
▁완	-398
▁러	-399
▁다시	-400
▁못하	-401
▁히	-402
랜드	-403
▁높	-404
▁중국	-405
▁협	-406
▁알리	-407
▁길	-408
▁정부	-409
▁서울	-410
▁클	-411
▁프랑스	-412
▁채	-413
▁영국	-414
▁K	-415
학교	-416
▁시대	-417
▁I	-418
▁:	-419
▁는다	-420
▁키	-421
▁도시	-422
▁k	-423
▁포함	-424
▁여러	-425
▁뜻	-426
▁196	-427
▁전쟁	-428
▁14	-429
▁아이	-430
▁독일	-431
▁다가	-432
▁로서	-433
▁죽	-434
er	-435
▁문화	-436
▁대회	-437
▁~	-438
▁g	-439
▁취	-440
▁13	-441
▁배우	-442
▁축구	-443
▁모두	-444
▁허	-445
▁가능	-446
▁위원	-447
▁별	-448
▁동안	-449
▁P	-450
▁뉴	-451
▁모든	-452
in	-453
▁이상	-454
▁친	-455
▁손	-456
▁곡	-457
▁감독	-458
▁정치	-459
▁환	-460
▁194	-461
▁일부	-462
▁문제	-463
▁l	-464
▁석	-465
▁방송	-466
▁처음	-467
▁개발	-468
▁대학교	-469
▁L	-470
▁지방	-471
▁%	-472
▁제작	-473
▁검	-474
▁구성	-475
▁인하	-476
▁캐	-477
▁국제	-478
▁농	-479
▁골	-480
▁사건	-481
라이	-482
▁터	-483
▁끝	-484
▁논	-485
▁세기	-486
▁시간	-487
▁씨	-488
▁이용	-489
▁일반	-490
▁부르	-491
▁존재	-492
▁작품	-493
▁향	-494
▁날	-495
▁G	-496
▁밀	-497
▁정도	-498
▁게임	-499
▁주장	-500
▁폭	-501
▁운동	-502
▁티	-503
▁급	-504
▁쿠	-505
▁역사	-506
▁나오	-507
▁gt	-508
▁관계	-509
▁앞	-510
▁즉	-511
▁곳	-512
▁려	-513
▁N	-514
▁교육	-515
▁섬	-516
니아	-517
▁음악	-518
▁인구	-519
▁효	-520
▁195	-521
on	-522
▁나타	-523
▁km	-524
▁거나	-525
▁이러	-526
▁접	-527
▁중심	-528
▁lt	-529
▁육	-530
▁맡	-531
리스	-532
▁극	-533
▁귀	-534
▁U	-535
▁맞	-536
▁절	-537
▁30	-538
▁R	-539
▁경제	-540
▁선거	-541
▁블	-542
부분	-543
▁민주	-544
통령	-545
▁발견	-546
▁전투	-547
▁담	-548
▁누	-549
▁도록	-550
▁H	-551
▁봉	-552
▁발표	-553
▁갖	-554
▁측	-555
화국	-556
▁홍	-557
▁글	-558
▁기술	-559
▁막	-560
▁슈	-561
▁E	-562
▁올림	-563
▁암	-564
▁아들	-565
이스	-566
▁책	-567
▁케	-568
▁우승	-569
▁로부터	-570
▁공격	-571
▁엔	-572
▁들어	-573
▁대통령	-574
▁2010	-575
▁ㄴ	-576
▁대부분	-577
▁잘	-578
▁영향	-579
▁걸	-580
▁사망	-581
▁올림픽	-582
▁결과	-583
an	-584
▁질	-585
▁밝	-586
▁헤	-587
▁여기	-588
▁새롭	-589
▁열리	-590
000	-591
▁불리	-592
▁송	-593
▁라이	-594
▁지원	-595
▁앨	-596
▁프로그	-597
▁과정	-598
▁잡	-599
리카	-600
▁발생	-601
▁193	-602
▁의미	-603
▁관련	-604
▁머	-605
▁참여	-606
▁중앙	-607
▁유럽	-608
▁업	-609
▁진행	-610
▁최초	-611
▁얻	-612
▁c	-613
▁범	-614
란드	-615
▁준	-616
20	-617
▁25	-618
지만	-619
▁특히	-620
▁부분	-621
▁독립	-622
▁자유	-623
▁고등	-624
▁결정	-625
▁제국	-626
▁구조	-627
▁태어나	-628
▁세우	-629
▁다양	-630
▁당하	-631
▁팔	-632
▁설립	-633
▁ᆫ다는	-634
버지	-635
▁상태	-636
▁설치	-637
▁W	-638
나라	-639
▁속하	-640
▁악	-641
▁형태	-642
▁폐	-643
▁발매	-644
▁탈	-645
▁초등	-646
▁벌	-647
▁탄	-648
▁아야	-649
▁온	-650
▁좌	-651
▁소속	-652
▁같이	-653
▁사실	-654
▁러시아	-655
▁하지만	-656
▁2008	-657
▁좋	-658
▁침	-659
▁이전	-660
▁그녀	-661
▁일어나	-662
▁21	-663
우스	-664
▁줄	-665
▁스타	-666
▁센	-667
▁르	-668
▁커	-669
▁이것	-670
▁으로서	-671
▁로마	-672
디오	-673
▁생각	-674
▁여성	-675
▁나라	-676
▁폴	-677
▁인민	-678
▁타이	-679
▁프로그램	-680
▁주로	-681
▁필요	-682
▁갈	-683
▁2011	-684
▁2012	-685
▁혼	-686
▁출신	-687
▁싱	-688
▁참가	-689
▁이탈	-690
▁조직	-691
▁관리	-692
▁보내	-693
▁100	-694
▁기준	-695
▁생산	-696
▁오르	-697
▁중요	-698
▁운영	-699
▁위원회	-700
▁윤	-701
므로	-702
▁란	-703
▁2009	-704
en	-705
▁계획	-706
▁여자	-707
▁기관	-708
▁2007	-709
▁2014	-710
▁상대	-711
▁행정	-712
▁t	-713
▁등장	-714
▁이르	-715
▁성공	-716
▁계속	-717
▁정보	-718
▁음반	-719
▁지나	-720
▁바이	-721
▁국민	-722
▁데이	-723
▁매우	-724
▁지정	-725
▁콘	-726
▁a	-727
▁넘	-728
▁밝히	-729
▁데뷔	-730
▁해당	-731
▁2013	-732
▁O	-733
▁뿐	-734
he	-735
▁레이	-736
▁과학	-737
▁고려	-738
▁발전	-739
▁아버지	-740
▁철도	-741
▁칼	-742
▁대전	-743
스터	-744
▁몇	-745
▁이탈리아	-746
리즈	-747
▁주요	-748
▁자리	-749
▁사업	-750
프트	-751
▁찾	-752
▁191	-753
▁시스	-754
▁묘	-755
▁억	-756
▁24	-757
▁23	-758
▁방법	-759
▁처럼	-760
▁차지	-761
▁지내	-762
▁000	-763
▁2015	-764
▁얼	-765
▁2018	-766
▁쇼	-767
ar	-768
▁헌	-769
남도	-770
▁앨범	-771
▁능	-772
▁월드	-773
라마	-774
▁돌아	-775
▁최고	-776
▁2016	-777
레스	-778
▁결국	-779
▁그룹	-780
▁후보	-781
▁인도	-782
▁빌	-783
▁관하	-784
▁마이	-785
▁출연	-786
르크	-787
▁아래	-788
▁생활	-789
▁시리즈	-790
▁전체	-791
▁엘	-792
▁우리	-793
이션	-794
▁빠	-795
▁떨	-796
▁J	-797
▁22	-798
▁이루어지	-799
es	-800
▁한편	-801
▁이유	-802
▁고등학교	-803
▁내용	-804
▁회사	-805
▁ᆫ다고	-806
▁그리스	-807
▁2006	-808
▁격	-809
이트	-810
▁거치	-811
▁나가	-812
FA	-813
▁192	-814
비아	-815
▁풍	-816
▁인간	-817
▁힘	-818
▁층	-819
▁제공	-820
▁연합	-821
▁방식	-822
▁스페	-823
▁의원	-824
▁많이	-825
▁공식	-826
▁2017	-827
운데	-828
▁인터	-829
▁시기	-830
▁항공	-831
▁역할	-832
▁희	-833
▁잠	-834
▁컴	-835
▁군사	-836
▁몸	-837
▁가운데	-838
▁조사	-839
▁시스템	-840
▁초기	-841
▁드라마	-842
▁기업	-843
▁거의	-844
▁워	-845
▁출전	-846
▁류	-847
▁반대	-848
▁제도	-849
▁유명	-850
▁놓	-851
▁민족	-852
▁나타나	-853
▁으로써	-854
▁s	-855
▁퍼	-856
▁둘	-857
▁교회	-858
▁지구	-859
▁쓰이	-860
▁울	-861
▁떠	-862
▁색	-863
▁푸	-864
▁수상	-865
▁대신	-866
▁가리	-867
▁평가	-868
▁텔	-869
▁유지	-870
▁달리	-871
▁표현	-872
비스	-873
▁느	-874
▁으로부터	-875
▁몰	-876
▁동시	-877
▁분류	-878
▁홈	-879
▁26	-880
▁올리	-881
▁대상	-882
▁특별	-883
▁현대	-884
▁!	-885
▁기능	-886
▁녹	-887
▁웨	-888
▁규모	-889
▁이미	-890
▁모습	-891
▁공개	-892
▁언어	-893
▁마지	-894
▁프리	-895
▁자연	-896
▁응	-897
▁노동	-898
▁승리	-899
at	-900
▁어야	-901
▁28	-902
▁개인	-903
야기	-904
▁들어가	-905
▁각각	-906
▁졸	-907
▁연결	-908
▁이론	-909
▁27	-910
▁전하	-911
▁인정	-912
▁밖	-913
▁뛰	-914
▁붙	-915
▁진출	-916
▁2019	-917
▁단체	-918
▁지도	-919
▁브라	-920
▁마지막	-921
▁임명	-922
북도	-923
▁핵	-924
▁시장	-925
▁상황	-926
▁떨어지	-927
▁V	-928
▁목적	-929
▁2005	-930
▁정책	-931
▁2000	-932
▁너	-933
▁수도	-934
머니	-935
▁시절	-936
▁눈	-937
▁샤	-938
▁아르	-939
▁전문	-940
▁난	-941
▁멀	-942
▁기간	-943
▁메이	-944
▁정의	-945
▁경상	-946
▁직접	-947
▁산업	-948
▁습	-949
▁족	-950
▁이야기	-951
▁목록	-952
▁서로	-953
▁먹	-954
니다	-955
ic	-956
▁계약	-957
al	-958
▁압	-959
▁혁	-960
▁야구	-961
스크	-962
▁오스트	-963
▁추가	-964
▁슬	-965
▁으면	-966
▁밴	-967
▁기원	-968
▁모델	-969
▁건설	-970
▁공동	-971
BS	-972
▁2004	-973
▁콜	-974
▁개최	-975
▁경찰	-976
▁FC	-977
▁플레이	-978
▁망	-979
▁형성	-980
▁건물	-981
▁공간	-982
▁그것	-983
▁50	-984
▁활약	-985
▁자동	-986
▁결혼	-987
▁거리	-988
▁부산	-989
▁변화	-990
▁31	-991
▁훈	-992
▁스페인	-993
▁29	-994
▁노래	-995
학자	-996
▁사상	-997
▁변경	-998
▁교수	-999
으키	-1000
▁졸업	-1001
▁나이	-1002
▁칸	-1003
▁국회	-1004
▁인물	-1005
▁b	-1006
▁완전	-1007
▁TV	-1008
▁다르	-1009
▁마을	-1010
▁궁	-1011
is	-1012
re	-1013
▁공화국	-1014
it	-1015
▁벨	-1016
▁텔레	-1017
▁비롯	-1018
▁역시	-1019
▁사랑	-1020
▁낮	-1021
▁190	-1022
▁흐	-1023
▁노선	-1024
▁휴	-1025
▁인민공	-1026
▁인민공화국	-1027
▁ㅏ	-1028
비전	-1029
▁실제	-1030
▁지지	-1031
▁학생	-1032
▁2020	-1033
▁맥	-1034
ou	-1035
▁최대	-1036
▁만나	-1037
▁보통	-1038
▁중학교	-1039
▁요구	-1040
▁따라	-1041
▁겠	-1042
▁지금	-1043
대로	-1044
▁견	-1045
▁볼	-1046
▁서비스	-1047
이드	-1048
▁잉	-1049
▁싸	-1050
▁보호	-1051
▁탑	-1052
▁전국	-1053
▁일으키	-1054
프리카	-1055
▁소설	-1056
▁우주	-1057
▁의회	-1058
▁중화	-1059
▁없이	-1060
▁겸	-1061
▁딸	-1062
▁자기	-1063
▁실시	-1064
▁기본	-1065
▁판매	-1066
▁혹	-1067
▁지하	-1068
▁비판	-1069
▁황제	-1070
운드	-1071
▁다이	-1072
▁옥	-1073
▁가수	-1074
▁전통	-1075
역시	-1076
▁싱글	-1077
르트	-1078
▁엄	-1079
▁차이	-1080
▁떠나	-1081
▁높이	-1082
▁밴드	-1083
▁원래	-1084
▁기반	-1085
▁론	-1086
▁퇴	-1087
▁어떤	-1088
▁종교	-1089
▁세력	-1090
▁버리	-1091
너지	-1092
▁내리	-1093
▁2002	-1094
▁경기도	-1095
▁탐	-1096
▁40	-1097
로스	-1098
▁이끌	-1099
▁소련	-1100
▁자료	-1101
스탄	-1102
▁환경	-1103
▁수행	-1104
▁기타	-1105
▁2003	-1106
▁회의	-1107
▁가리키	-1108
▁풀	-1109
▁전기	-1110
▁모양	-1111
▁센터	-1112
▁월드컵	-1113
▁부대	-1114
▁시설	-1115
▁나타내	-1116
▁공연	-1117
▁그래	-1118
▁특징	-1119
▁운행	-1120
▁전자	-1121
러스	-1122
▁걸치	-1123
▁도쿄	-1124
▁뮤	-1125
▁설명	-1126
▁통합	-1127
▁컵	-1128
▁이동	-1129
▁교황	-1130
▁기념	-1131
▁예술	-1132
▁분야	-1133
나다	-1134
▁기독	-1135
▁득	-1136
▁작업	-1137
▁승강	-1138
▁명칭	-1139
le	-1140
▁행동	-1141
▁남자	-1142
mp	-1143
▁도입	-1144
▁염	-1145
▁따라서	-1146
▁동물	-1147
▁텔레비전	-1148
▁연방	-1149
▁선정	-1150
▁바로	-1151
▁구역	-1152
▁군대	-1153
▁숙	-1154
들이	-1155
▁능력	-1156
▁전라	-1157
▁애니	-1158
▁출시	-1159
▁증가	-1160
스타	-1161
▁가족	-1162
▁작용	-1163
▁확인	-1164
▁기존	-1165
▁넓	-1166
▁할	-1167
▁방향	-1168
▁남쪽	-1169
▁행위	-1170
▁소프트	-1171
▁지휘	-1172
▁북쪽	-1173
▁제외	-1174
▁이때	-1175
▁교통	-1176
▁문학	-1177
▁기독교	-1178
▁차량	-1179
▁옮	-1180
▁착	-1181
▁작가	-1182
▁사고	-1183
▁국내	-1184
▁=	-1185
▁형식	-1186
▁비슷	-1187
의원	-1188
▁므로	-1189
▁그렇	-1190
▁강하	-1191
▁십	-1192
▁혁명	-1193
▁어머니	-1194
▁클럽	-1195
▁윌	-1196
▁작곡	-1197
▁도로	-1198
▁빈	-1199
▁효과	-1200
▁마르	-1201
▁지배	-1202
▁낙	-1203
▁거두	-1204
▁런	-1205
▁마다	-1206
▁몽	-1207
▁과거	-1208
▁왕국	-1209
▁태양	-1210
▁컴퓨	-1211
▁역임	-1212
▁유일	-1213
▁챔	-1214
▁캐나다	-1215
▁옮기	-1216
▁FI	-1217
▁승강장	-1218
▁사무	-1219
▁열차	-1220
▁갑	-1221
▁이적	-1222
BC	-1223
▁혹은	-1224
▁협회	-1225
▁남부	-1226
리오	-1227
▁비교	-1228
▁생기	-1229
▁흥	-1230
▁정당	-1231
▁공산	-1232
▁추정	-1233
▁솔	-1234
▁베이	-1235
▁뉴욕	-1236
▁적용	-1237
▁흔	-1238
▁이어지	-1239
▁담당	-1240
▁갖추	-1241
▁시민	-1242
자리	-1243
▁이사	-1244
▁늘	-1245
▁동일	-1246
▁획	-1247
▁주변	-1248
▁육군	-1249
▁장관	-1250
▁인기	-1251
▁홀	-1252
▁1990	-1253
▁대사	-1254
▁2001	-1255
▁즈	-1256
▁챔피	-1257
▁넣	-1258
▁물리	-1259
▁동쪽	-1260
▁스포	-1261
▁스트	-1262
▁쪽	-1263
▁세포	-1264
▁곧	-1265
▁X	-1266
▁상당	-1267
▁ᆫ데	-1268
▁성장	-1269
▁건축	-1270
▁예정	-1271
▁징	-1272
▁마음	-1273
▁윈	-1274
▁개념	-1275
▁공사	-1276
▁사단	-1277
▁맨	-1278
▁오늘	-1279
▁컴퓨터	-1280
▁데이터	-1281
▁p	-1282
▁구간	-1283
▁조지	-1284
▁품	-1285
▁차례	-1286
드리	-1287
▁움	-1288
▁돈	-1289
▁비하	-1290
▁크기	-1291
▁에너지	-1292
▁멤	-1293
▁흑	-1294
▁189	-1295
▁서쪽	-1296
▁바꾸	-1297
▁어리	-1298
▁버스	-1299
▁액	-1300
▁바르	-1301
이지	-1302
▁잔	-1303
▁어느	-1304
▁치르	-1305
▁자체	-1306
▁실패	-1307
▁땅	-1308
▁충청	-1309
▁록	-1310
▁조건	-1311
▁연기	-1312
▁작전	-1313
▁민주주의	-1314
▁칭	-1315
▁이라	-1316
▁디자	-1317
▁이런	-1318
▁율	-1319
▁반응	-1320
▁돌아오	-1321
▁덕	-1322
▁이어	-1323
▁선언	-1324
▁연주	-1325
▁쉽	-1326
▁피해	-1327
▁FIFA	-1328
▁부족	-1329
▁컨	-1330
▁연속	-1331
▁특정	-1332
▁종류	-1333
▁버전	-1334
가지	-1335
▁d	-1336
▁선택	-1337
▁페르	-1338
▁익	-1339
▁규정	-1340
메이션	-1341
▁대체	-1342
▁국립	-1343
▁쌍	-1344
▁방영	-1345
▁수록	-1346
카이	-1347
▁다루	-1348
▁대구	-1349
거리	-1350
el	-1351
▁해군	-1352
라지	-1353
▁내부	-1354
▁체제	-1355
▁고대	-1356
▁공항	-1357
▁멤버	-1358
루스	-1359
et	-1360
▁속도	-1361
▁정신	-1362
▁결승	-1363
▁조약	-1364
버스	-1365
▁아시아	-1366
▁북부	-1367
▁명령	-1368
▁기원전	-1369
▁왜	-1370
▁는지	-1371
▁연대	-1372
▁헌법	-1373
글랜드	-1374
▁선출	-1375
▁인천	-1376
▁ㅓ	-1377
▁크리스	-1378
▁휘	-1379
▁단계	-1380
▁쥐	-1381
▁개혁	-1382
▁애니메이션	-1383
▁링	-1384
▁가치	-1385
▁옛	-1386
▁포르	-1387
▁먼	-1388
▁친구	-1389
▁최종	-1390
▁물질	-1391
ion	-1392
▁영어	-1393
▁분석	-1394
▁자치	-1395
▁달러	-1396
웨어	-1397
▁최근	-1398
▁나누	-1399
▁ᆫ지	-1400
ing	-1401
▁더욱	-1402
▁밤	-1403
▁의사	-1404
▁설계	-1405
트남	-1406
▁강화	-1407
아가	-1408
▁척	-1409
▁가깝	-1410
▁평균	-1411
▁출판	-1412
▁소비	-1413
▁비행	-1414
▁롭	-1415
시마	-1416
▁체계	-1417
▁지명	-1418
▁1999	-1419
▁로스	-1420
▁법원	-1421
▁집단	-1422
▁술	-1423
▁북한	-1424
널리	-1425
▁관심	-1426
라스	-1427
▁배치	-1428
ol	-1429
▁남기	-1430
▁언급	-1431
▁팬	-1432
▁머리	-1433
▁곤	-1434
▁잉글랜드	-1435
▁엔진	-1436
▁개월	-1437
▁1998	-1438
▁부문	-1439
▁표준	-1440
메리카	-1441
▁치료	-1442
▁씩	-1443
▁획득	-1444
▁Y	-1445
▁현상	-1446
▁겨	-1447
▁파이	-1448
▁하이	-1449
▁cm	-1450
21	-1451
▁조정	-1452
▁o	-1453
▁헬	-1454
▁지속	-1455
▁부상	-1456
▁지니	-1457
▁실험	-1458
▁분리	-1459
▁고자	-1460
▁선발	-1461
▁맺	-1462
▁1980	-1463
▁유사	-1464
▁벤	-1465
▁60	-1466
▁파리	-1467
▁처리	-1468
▁챔피언	-1469
▁마치	-1470
▁대중	-1471
▁스테	-1472
▁함수	-1473
▁하계	-1474
▁확장	-1475
▁스포츠	-1476
▁공원	-1477
스코	-1478
▁소유	-1479
▁목표	-1480
▁베르	-1481
▁어렵	-1482
▁제품	-1483
▁35	-1484
▁마리	-1485
▁이해	-1486
▁시도	-1487
▁통일	-1488
리지	-1489
▁빠르	-1490
▁도움	-1491
▁자동차	-1492
▁관할	-1493
▁입단	-1494
▁장군	-1495
▁요소	-1496
▁재판	-1497
▁향하	-1498
▁공립	-1499
▁후반	-1500
▁주도	-1501
디어	-1502
▁점령	-1503
▁외국	-1504
▁정규	-1505
▁mm	-1506
▁꽃	-1507
▁문자	-1508
▁에스	-1509
▁요시	-1510
▁거주	-1511
▁구단	-1512
▁려고	-1513
▁나무	-1514
▁주인	-1515
▁미치	-1516
▁편성	-1517
▁기사	-1518
▁바뀌	-1519
▁주민	-1520
▁잃	-1521
▁앙	-1522
▁스럽	-1523
▁가르	-1524
▁시험	-1525
▁원자	-1526
▁다면	-1527
▁책임	-1528
▁끌	-1529
▁괴	-1530
▁네덜	-1531
▁네덜란드	-1532
▁행사	-1533
▁학자	-1534
▁통신	-1535
▁안정	-1536
▁n	-1537
▁동맹	-1538
▁투표	-1539
▁수준	-1540
▁결합	-1541
▁앤	-1542
광역시	-1543
▁사령	-1544
▁혈	-1545
▁모르	-1546
▁일종	-1547
▁언론	-1548
▁듯	-1549
▁불구	-1550
▁깊	-1551
▁알렉	-1552
▁웹	-1553
▁끝나	-1554
▁고속	-1555
▁잇	-1556
▁장치	-1557
▁ᄇ	-1558
▁불교	-1559
▁예선	-1560
▁다니	-1561
▁디자인	-1562
om	-1563
▁준비	-1564
▁아프리카	-1565
▁길이	-1566
▁개봉	-1567
▁1997	-1568
야마	-1569
나무	-1570
▁정하	-1571
젝트	-1572
▁베트남	-1573
▁빛	-1574
▁촉	-1575
▁방문	-1576
▁덴	-1577
▁문서	-1578
▁본선	-1579
▁칠	-1580
▁광주	-1581
▁사진	-1582
▁캠	-1583
일랜드	-1584
▁정권	-1585
▁신문	-1586
▁경험	-1587
▁믿	-1588
▁드러	-1589
▁가정	-1590
▁가문	-1591
▁정확	-1592
▁유전	-1593
▁대로	-1594
▁성적	-1595
▁구분	-1596
▁몬	-1597
메달	-1598
st	-1599
▁제조	-1600
▁그림	-1601
▁The	-1602
▁1996	-1603
▁요리	-1604
▁폴란드	-1605
▁평화	-1606
▁1995	-1607
▁비디오	-1608
▁오늘날	-1609
▁원인	-1610
▁amp	-1611
▁통과	-1612
▁부인	-1613
▁핀	-1614
▁찬	-1615
▁려는	-1616
▁왕조	-1617
▁부여	-1618
▁아직	-1619
▁용어	-1620
▁일제	-1621
▁추진	-1622
▁ㄹ	-1623
▁32	-1624
▁정리	-1625
▁70	-1626
▁깨	-1627
스로	-1628
▁값	-1629
▁방어	-1630
▁아마	-1631
▁민주당	-1632
▁런던	-1633
▁올라	-1634
▁프로젝트	-1635
▁종합	-1636
특별	-1637
▁입장	-1638
▁이곳	-1639
▁신라	-1640
▁병원	-1641
▁해석	-1642
▁멸	-1643
▁경영	-1644
▁널리	-1645
▁은퇴	-1646
▁으므로	-1647
스턴	-1648
▁경쟁	-1649
▁프레	-1650
▁통치	-1651
▁발달	-1652
▁영역	-1653
▁끼	-1654
▁슈퍼	-1655
인트	-1656
▁노력	-1657
▁500	-1658
▁이듬	-1659
▁폐지	-1660
▁인터넷	-1661
▁훈련	-1662
아들이	-1663
▁그런	-1664
▁죽이	-1665
▁보도	-1666
▁파괴	-1667
▁제주	-1668
▁제안	-1669
▁미사	-1670
▁주제	-1671
▁츠	-1672
웨이	-1673
▁총리	-1674
▁꼬	-1675
▁부정	-1676
▁놀	-1677
▁회장	-1678
▁the	-1679
▁지키	-1680
▁완전히	-1681
▁80	-1682
am	-1683
레일	-1684
▁면적	-1685
▁모으	-1686
▁기여	-1687
▁미술	-1688
▁주연	-1689
▁요청	-1690
▁서부	-1691
▁이듬해	-1692
▁접하	-1693
리트	-1694
▁만화	-1695
▁유래	-1696
▁번호	-1697
▁정상	-1698
▁빅	-1699
▁188	-1700
▁국회의원	-1701
▁경기장	-1702
▁남성	-1703
▁투수	-1704
▁도서	-1705
▁식민	-1706
▁자주	-1707
▁야마	-1708
▁생물	-1709
▁법률	-1710
▁연맹	-1711
라인	-1712
▁UE	-1713
▁벌이	-1714
▁경계	-1715
▁궤	-1716
▁동부	-1717
▁+	-1718
▁돕	-1719
▁무기	-1720
▁폰	-1721
▁1994	-1722
▁움직	-1723
▁1970	-1724
▁린	-1725
▁금지	-1726
il	-1727
▁인식	-1728
▁나뉘	-1729
▁행성	-1730
▁수용	-1731
▁UEFA	-1732
▁소재	-1733
▁ᄇ니다	-1734
▁등록	-1735
▁철학	-1736
▁더불	-1737
▁삼성	-1738
▁펼	-1739
▁제한	-1740
▁무대	-1741
톨릭	-1742
▁외교	-1743
▁바탕	-1744
▁연구소	-1745
▁영토	-1746
▁빠지	-1747
▁아시	-1748
머지	-1749
ac	-1750
▁나머지	-1751
▁반면	-1752
▁스스로	-1753
▁접근	-1754
▁라디오	-1755
▁지대	-1756
▁거부	-1757
▁강원	-1758
▁조각	-1759
▁지진	-1760
▁다리	-1761
▁업무	-1762
▁뇌	-1763
▁KBS	-1764
▁노르	-1765
▁발사	-1766
▁박물	-1767
▁돌아가	-1768
▁받아들이	-1769
▁오래	-1770
▁뉴스	-1771
▁마찬	-1772
▁마찬가지	-1773
▁정식	-1774
▁벽	-1775
▁표기	-1776
▁오스	-1777
▁아일랜드	-1778
▁결성	-1779
▁상호	-1780
▁논란	-1781
▁보수	-1782
▁이렇	-1783
▁이기	-1784
▁은행	-1785
▁득점	-1786
▁의식	-1787
▁붙이	-1788
▁서식	-1789
▁ㅕ	-1790
▁굴	-1791
▁다수	-1792
▁필리	-1793
▁펜	-1794
▁1992	-1795
▁소리	-1796
▁기초	-1797
▁복귀	-1798
▁짧	-1799
▁주의	-1800
▁45	-1801
▁성격	-1802
▁공작	-1803
▁아도	-1804
▁가톨릭	-1805
▁박사	-1806
요일	-1807
▁바다	-1808
▁트리	-1809
임스	-1810
▁아카	-1811
▁실제로	-1812
▁패배	-1813
▁임시	-1814
▁스웨	-1815
▁로써	-1816
ro	-1817
▁해결	-1818
▁수학	-1819
시코	-1820
▁그대로	-1821
▁총선	-1822
▁장애	-1823
▁36	-1824
모토	-1825
▁검사	-1826
▁느끼	-1827
▁습니다	-1828
워드	-1829
▁윌리	-1830
▁of	-1831
▁장소	-1832
▁지도자	-1833
ed	-1834
▁초대	-1835
▁유로	-1836
▁긴	-1837
▁강력	-1838
▁브라질	-1839
▁이스	-1840
▁에이	-1841
트리	-1842
▁여행	-1843
▁마이크	-1844
▁제시	-1845
▁스위	-1846
▁박물관	-1847
▁차원	-1848
▁표시	-1849
▁묘사	-1850
▁여름	-1851
▁단순	-1852
▁오브	-1853
▁기구	-1854
▁인사	-1855
▁차트	-1856
▁식물	-1857
▁화학	-1858
▁카드	-1859
▁이외	-1860
▁안전	-1861
▁1960	-1862
▁계열	-1863
▁집합	-1864
ig	-1865
▁관측	-1866
▁권력	-1867
▁뛰어나	-1868
▁유니	-1869
▁활용	-1870
▁무역	-1871
▁연극	-1872
▁싸우	-1873
▁1991	-1874
토리	-1875
▁먼저	-1876
▁꾸	-1877
▁스웨덴	-1878
로나	-1879
▁지적	-1880
▁멕	-1881
▁아무	-1882
▁오스트리아	-1883
▁기계	-1884
▁회원	-1885
▁자라	-1886
▁취하	-1887
▁디지	-1888
▁파일	-1889
▁히로	-1890
▁캐릭	-1891
▁개국	-1892
▁조성	-1893
부르크	-1894
▁형제	-1895
▁1993	-1896
▁근처	-1897
▁만큼	-1898
▁반란	-1899
▁위험	-1900
▁33	-1901
▁중단	-1902
레일리아	-1903
▁중간	-1904
▁붕	-1905
▁세대	-1906
▁일정	-1907
▁흡	-1908
▁도착	-1909
▁시행	-1910
▁소프트웨어	-1911
▁발행	-1912
▁분포	-1913
▁기자	-1914
▁협력	-1915
베이	-1916
▁다만	-1917
배우	-1918
▁스코	-1919
▁량	-1920
▁스튜	-1921
트로	-1922
▁ᆫ가	-1923
▁띠	-1924
버트	-1925
▁사이트	-1926
특별시	-1927
od	-1928
▁캐릭터	-1929
▁죄	-1930
▁죽음	-1931
▁여객	-1932
▁들어오	-1933
▁하루	-1934
▁서울특별시	-1935
▁",	-1936
▁세상	-1937
▁186	-1938
▁단어	-1939
▁해안	-1940
사카	-1941
▁렌	-1942
▁파견	-1943
▁연장	-1944
주시	-1945
▁지하철	-1946
▁수많	-1947
ve	-1948
▁윈도	-1949
▁투자	-1950
▁삶	-1951
▁겪	-1952
니스	-1953
워크	-1954
▁내려	-1955
▁공장	-1956
▁제기	-1957
▁혐	-1958
▁순위	-1959
▁카이	-1960
▁혜	-1961
▁확대	-1962
▁뮤직	-1963
as	-1964
▁코드	-1965
▁이라고	-1966
▁감소	-1967
▁태평	-1968
▁본부	-1969
나이	-1970
소년	-1971
▁근거	-1972
▁내각	-1973
▁다카	-1974
▁전시	-1975
▁옹	-1976
▁오스트레일리아	-1977
▁후기	-1978
▁번역	-1979
▁위기	-1980
▁케이	-1981
지션	-1982
▁생성	-1983
▁경상남도	-1984
▁지식	-1985
▁?	-1986
▁듣	-1987
▁윌리엄	-1988
▁귀족	-1989
▁경상북도	-1990
▁지상	-1991
▁보유	-1992
▁네트	-1993
▁달성	-1994
▁균	-1995
▁구하	-1996
▁양식	-1997
▁보존	-1998
▁유형	-1999
▁숨	-2000
무원	-2001
▁상징	-2002
▁1988	-2003
▁동생	-2004
▁관광	-2005
▁유대	-2006
▁수사	-2007
▁촬	-2008
▁전략	-2009
▁멜	-2010
▁h	-2011
▁187	-2012
▁완성	-2013
▁멕시코	-2014
▁극장	-2015
▁유리	-2016
▁당선	-2017
▁래	-2018
▁성립	-2019
▁이렇게	-2020
▁상업	-2021
▁촌	-2022
▁캘	-2023
▁영상	-2024
▁대응	-2025
▁학위	-2026
▁원소	-2027
▁근무	-2028
▁님	-2029
▁디지털	-2030
▁짓	-2031
▁특수	-2032
▁단위	-2033
▁촬영	-2034
▁체포	-2035
▁계승	-2036
티아	-2037
▁34	-2038
▁싶	-2039
아내	-2040
▁이슬	-2041
▁수비	-2042
▁흐르	-2043
▁옆	-2044
▁미래	-2045
▁권리	-2046
▁나중	-2047
▁체결	-2048
▁전달	-2049
▁38	-2050
▁코치	-2051
▁몇몇	-2052
▁식민지	-2053
▁발매되	-2054
가리	-2055
▁생명	-2056
▁이집	-2057
▁판단	-2058
회사	-2059
▁이집트	-2060
▁벌어지	-2061
▁마사	-2062
id	-2063
▁걸리	-2064
▁듀	-2065
▁90	-2066
▁타이틀	-2067
▁낳	-2068
▁알렉산	-2069
▁자본	-2070
▁시티	-2071
▁맹	-2072
아시아	-2073
▁아내	-2074
▁이란	-2075
▁국왕	-2076
▁직후	-2077
▁종목	-2078
▁관찰	-2079
▁헨	-2080
가와	-2081
▁이주	-2082
▁펼치	-2083
▁률	-2084
▁크로	-2085
▁시청	-2086
▁승격	-2087
▁측정	-2088
▁틀	-2089
▁1989	-2090
▁맞추	-2091
▁젊	-2092
▁대륙	-2093
▁톤	-2094
▁주식	-2095
▁미군	-2096
▁즐	-2097
▁소수	-2098
모리	-2099
▁전환	-2100
▁설정	-2101
▁개통	-2102
▁얼마	-2103
▁밑	-2104
▁라인	-2105
▁48	-2106
▁도서관	-2107
ec	-2108
▁채널	-2109
▁2021	-2110
▁의견	-2111
▁세르	-2112
▁엘리	-2113
▁새로	-2114
▁동계	-2115
us	-2116
▁스키	-2117
▁',	-2118
▁특성	-2119
▁쌓	-2120
NA	-2121
▁납	-2122
▁시위	-2123
▁홍콩	-2124
▁개정	-2125
▁정치인	-2126
▁답	-2127
▁문화재	-2128
▁지위	-2129
▁종료	-2130
and	-2131
▁신경	-2132
▁포르투	-2133
▁텍	-2134
▁취임	-2135
▁달하	-2136
▁제정	-2137
▁상하	-2138
▁셰	-2139
▁|	-2140
▁기획	-2141
▁미사일	-2142
▁교체	-2143
▁1950	-2144
▁헝	-2145
▁300	-2146
▁으면서	-2147
▁주어지	-2148
▁사회주의	-2149
▁은하	-2150
▁예수	-2151
디아	-2152
▁주인공	-2153
▁아라	-2154
▁빼	-2155
▁결승전	-2156
▁MBC	-2157
스티	-2158
▁천황	-2159
▁주목	-2160
▁후쿠	-2161
▁청년	-2162
▁본관	-2163
▁범죄	-2164
▁벗	-2165
코드	-2166
▁장기	-2167
▁소개	-2168
▁충돌	-2169
▁전차	-2170
▁았었	-2171
▁해외	-2172
▁출생	-2173
▁개선	-2174
▁수정	-2175
▁제임스	-2176
ad	-2177
▁비용	-2178
▁셀	-2179
▁녹음	-2180
▁춘	-2181
▁계산	-2182
▁아키	-2183
▁e	-2184
교회	-2185
전히	-2186
▁스티	-2187
▁남북	-2188
▁본래	-2189
▁전라남도	-2190
▁모이	-2191
▁음식	-2192
▁계기	-2193
▁1945	-2194
▁바이러스	-2195
▁즉위	-2196
▁비밀	-2197
▁자격	-2198
▁공급	-2199
▁공부	-2200
리학	-2201
▁합류	-2202
▁건강	-2203
▁건너	-2204
▁이래	-2205
▁소장	-2206
▁부모	-2207
▁물론	-2208
▁누구	-2209
▁카운	-2210
▁홈런	-2211
▁원정	-2212
▁만드	-2213
ent	-2214
▁배경	-2215
▁펠	-2216
▁제거	-2217
스카	-2218
▁오후	-2219
▁네트워크	-2220
▁각종	-2221
▁체육	-2222
보이	-2223
▁집중	-2224
▁털	-2225
▁ㅏㅆ	-2226
▁에드	-2227
▁궤도	-2228
▁거대	-2229
50	-2230
▁컬	-2231
▁가격	-2232
▁신학	-2233
▁인근	-2234
▁시내	-2235
▁랑	-2236
▁자원	-2237
▁작성	-2238
▁명예	-2239
▁가입	-2240
▁읽	-2241
▁객	-2242
▁감염	-2243
▁입학	-2244
▁공군	-2245
▁왼	-2246
▁국경	-2247
▁피아	-2248
▁군인	-2249
▁강조	-2250
▁롤	-2251
라도	-2252
▁병력	-2253
▁베네	-2254
▁전사	-2255
베르	-2256
▁저항	-2257
▁통제	-2258
▁측면	-2259
▁천문	-2260
티나	-2261
▁울산	-2262
▁이슬람	-2263
▁농업	-2264
▁성우	-2265
▁소송	-2266
▁찰	-2267
▁명단	-2268
▁아우	-2269
▁줄이	-2270
▁신호	-2271
▁인수	-2272
피아	-2273
▁포지션	-2274
▁이번	-2275
▁만약	-2276
▁병사	-2277
▁세이	-2278
▁학문	-2279
▁너무	-2280
▁기회	-2281
▁기후	-2282
▁나서	-2283
▁실행	-2284
▁블랙	-2285
리포	-2286
▁피하	-2287
▁질량	-2288
▁플로	-2289
▁St	-2290
▁터미	-2291
▁오른	-2292
▁변호	-2293
▁콩	-2294
ot	-2295
▁최소	-2296
▁광고	-2297
▁겨울	-2298
▁약간	-2299
▁증명	-2300
▁태평양	-2301
니어	-2302
▁노동자	-2303
▁정착	-2304
▁터키	-2305
도로	-2306
▁강원도	-2307
▁엑	-2308
동안	-2309
▁쉬	-2310
▁비트	-2311
▁마리아	-2312
▁외부	-2313
▁x	-2314
▁해방	-2315
▁무장	-2316
▁미디어	-2317
▁바람	-2318
▁전반	-2319
▁잎	-2320
▁바라	-2321
▁쇠	-2322
▁몽골	-2323
▁사라지	-2324
un	-2325
▁37	-2326
▁환자	-2327
▁냉	-2328
▁ᆫ다면	-2329
▁국방	-2330
▁도중	-2331
▁제목	-2332
ow	-2333
▁편집	-2334
▁마련	-2335
▁in	-2336
▁금융	-2337
▁마쓰	-2338
▁혐의	-2339
▁라운드	-2340
▁허용	-2341
▁무렵	-2342
▁터미널	-2343
▁지점	-2344
▁표면	-2345
▁충분	-2346
▁재산	-2347
스키	-2348
철도	-2349
▁ㅕ서	-2350
▁가스	-2351
소리	-2352
▁여전히	-2353
▁밀도	-2354
▁빨	-2355
▁유도	-2356
▁1987	-2357
▁카르	-2358
▁힐	-2359
▁고전	-2360
▁그해	-2361
오카	-2362
▁가져	-2363
▁학년	-2364
▁민간	-2365
▁현실	-2366
▁인디	-2367
▁루이	-2368
▁오리	-2369
▁보고	-2370
▁합병	-2371
▁뒷	-2372
▁전력	-2373
▁헝가리	-2374
▁재정	-2375
▁숲	-2376
▁재직	-2377
▁전역	-2378
▁윈도우	-2379
▁양성	-2380
▁꼬리	-2381
▁오사카	-2382
▁충청남도	-2383
▁킹	-2384
▁적극	-2385
▁41	-2386
▁등급	-2387
▁행하	-2388
▁포르투갈	-2389
▁령	-2390
▁계급	-2391
▁붕괴	-2392
▁동료	-2393
▁영화배우	-2394
▁후지	-2395
▁w	-2396
▁조치	-2397
▁강제	-2398
드로	-2399
▁위협	-2400
마크	-2401
▁선수단	-2402
▁51	-2403
▁라이브	-2404
▁대대	-2405
▁공주	-2406
▁공공	-2407
▁1986	-2408
▁엔터	-2409
▁근대	-2410
▁이하	-2411
▁수입	-2412
▁위원장	-2413
▁온도	-2414
▁1984	-2415
ur	-2416
▁승인	-2417
▁봄	-2418
▁전선	-2419
▁스튜디오	-2420
▁군주	-2421
▁유엔	-2422
▁구축	-2423
▁이미지	-2424
▁이제	-2425
▁범위	-2426
▁캘리포	-2427
▁점차	-2428
▁원칙	-2429
▁꿈	-2430
▁대수	-2431
▁확보	-2432
▁샌	-2433
▁업체	-2434
▁앞서	-2435
▁논문	-2436
▁항상	-2437
▁클라	-2438
▁임무	-2439
▁거래	-2440
▁출발	-2441
▁고구	-2442
▁전개	-2443
▁공업	-2444
▁둥	-2445
러지	-2446
▁경력	-2447
▁회복	-2448
▁교사	-2449
▁다섯	-2450
▁공산당	-2451
▁채택	-2452
▁위성	-2453
▁든	-2454
▁수단	-2455
▁양자	-2456
▁올라가	-2457
▁잭	-2458
▁대학원	-2459
▁증거	-2460
▁캘리포니아	-2461
▁수립	-2462
▁성인	-2463
▁토론	-2464
마스	-2465
▁섭	-2466
▁핀란드	-2467
▁강의	-2468
▁필리핀	-2469
▁어떻	-2470
▁잡지	-2471
▁합의	-2472
▁그래서	-2473
▁드래	-2474
▁첨	-2475
테르	-2476
주교	-2477
▁얼굴	-2478
▁39	-2479
▁라며	-2480
▁부근	-2481
▁아시안	-2482
ch	-2483
▁남아	-2484
▁사례	-2485
▁남편	-2486
▁만족	-2487
▁개편	-2488
바이	-2489
▁400	-2490
▁스파	-2491
▁의료	-2492
▁일원	-2493
▁선생	-2494
▁시인	-2495
▁매년	-2496
▁폭발	-2497
▁앞두	-2498
▁나카	-2499
▁기지	-2500
▁욕	-2501
▁이승	-2502
▁끊	-2503
고리	-2504
▁장면	-2505
▁간주	-2506
▁이스라	-2507
▁스위스	-2508
▁대형	-2509
▁1985	-2510
▁군단	-2511
▁아름	-2512
▁모스크	-2513
▁장비	-2514
▁붉	-2515
▁토지	-2516
▁64	-2517
▁경향	-2518
▁종종	-2519
▁아주	-2520
▁기대	-2521
다리	-2522
▁불가	-2523
▁둘러	-2524
로드	-2525
▁튀	-2526
▁대기	-2527
▁스리	-2528
▁뜨	-2529
데미	-2530
▁움직이	-2531
▁규칙	-2532
▁ㅏ서	-2533
▁어린	-2534
▁이스라엘	-2535
ay	-2536
▁분자	-2537
▁경주	-2538
ir	-2539
▁수원	-2540
▁종이	-2541
▁라면	-2542
▁게이	-2543
▁캄	-2544
▁확실	-2545
▁심하	-2546
키아	-2547
▁기억	-2548
▁항성	-2549
▁에게서	-2550
▁조합	-2551
ut	-2552
▁낭	-2553
▁II	-2554
▁그곳	-2555
▁저지	-2556
▁아랍	-2557
▁진화	-2558
▁귀국	-2559
▁탑재	-2560
▁해체	-2561
백질	-2562
▁맛	-2563
레이드	-2564
▁향상	-2565
어들	-2566
▁좀	-2567
고기	-2568
▁43	-2569
▁대장	-2570
▁레코드	-2571
▁장식	-2572
▁짐	-2573
우드	-2574
▁서양	-2575
um	-2576
▁신화	-2577
▁아나	-2578
▁강점	-2579
▁변하	-2580
▁아카데미	-2581
▁스피	-2582
▁보장	-2583
▁평양	-2584
▁불과	-2585
▁투어	-2586
▁br	-2587
▁아름답	-2588
▁침공	-2589
▁클래	-2590
▁융	-2591
▁고양	-2592
▁아메리카	-2593
▁청소년	-2594
▁청나라	-2595
▁선고	-2596
▁의학	-2597
▁감정	-2598
im	-2599
▁42	-2600
▁고구려	-2601
▁폼	-2602
▁자금	-2603
▁성과	-2604
▁랭	-2605
▁가사	-2606
▁켄	-2607
요시	-2608
▁가로	-2609
오스	-2610
▁박쥐	-2611
보드	-2612
▁남동	-2613
▁잠시	-2614
▁사후	-2615
▁보병	-2616
▁새기	-2617
▁스타일	-2618
▁독자	-2619
▁메이저	-2620
▁카메	-2621
▁카운티	-2622
▁우선	-2623
▁에피	-2624
▁확정	-2625
네스	-2626
▁이끄	-2627
▁고문	-2628
▁소년	-2629
ver	-2630
▁중화민국	-2631
▁살해	-2632
▁단지	-2633
▁신설	-2634
▁55	-2635
▁만주	-2636
▁나치	-2637
타인	-2638
▁1982	-2639
▁우수	-2640
▁숭	-2641
▁신앙	-2642
무르	-2643
▁지시	-2644
▁단백질	-2645
▁라틴	-2646
라노	-2647
에르	-2648
틀랜드	-2649
▁합치	-2650
▁스카	-2651
▁비율	-2652
▁편입	-2653
▁복잡	-2654
▁검찰	-2655
▁스케	-2656
▁함대	-2657
▁차별	-2658
▁나폴	-2659
▁예상	-2660
▁삭	-2661
▁전화	-2662
▁구체	-2663
▁태풍	-2664
▁광역시	-2665
▁철도역	-2666
▁냐	-2667
▁왕위	-2668
네시아	-2669
▁대립	-2670
▁의장	-2671
누스	-2672
▁44	-2673
▁마크	-2674
뜨리	-2675
▁LG	-2676
▁고향	-2677
▁1983	-2678
▁역대	-2679
▁법인	-2680
▁재단	-2681
▁판결	-2682
▁동의	-2683
▁창설	-2684
다이	-2685
▁덴마크	-2686
▁세종	-2687
▁i	-2688
일러	-2689
▁성당	-2690
▁온라인	-2691
▁공유	-2692
▁짜	-2693
트라	-2694
▁가하	-2695
▁전설	-2696
▁수출	-2697
▁참석	-2698
FC	-2699
▁묻	-2700
▁보급	-2701
▁솔로	-2702
▁브리	-2703
▁47	-2704
▁반도	-2705
▁하늘	-2706
▁선거구	-2707
▁육상	-2708
뿌리	-2709
▁둘러싸	-2710
▁킬	-2711
▁삼국	-2712
▁어도	-2713
없이	-2714
운동	-2715
▁브랜드	-2716
▁무엇	-2717
▁협상	-2718
▁노예	-2719
싱턴	-2720
▁집행	-2721
▁고정	-2722
▁본격	-2723
▁핵심	-2724
▁유학	-2725
의회	-2726
이크	-2727
▁후손	-2728
비드	-2729
▁저장	-2730
반도	-2731
▁카를	-2732
오프	-2733
▁애플	-2734
▁헤이	-2735
▁초반	-2736
▁탄생	-2737
▁보안	-2738
▁75	-2739
▁자세	-2740
▁대비	-2741
▁사전	-2742
하라	-2743
▁중반	-2744
▁184	-2745
▁Z	-2746
▁산맥	-2747
▁180	-2748
▁옷	-2749
▁오픈	-2750
▁강점기	-2751
▁대항	-2752
▁전혀	-2753
▁사우	-2754
▁주교	-2755
▁숫	-2756
▁암살	-2757
▁이성	-2758
▁마드리	-2759
▁아르헨	-2760
▁회전	-2761
▁이익	-2762
원군	-2763
▁의무	-2764
셔널	-2765
각형	-2766
▁법칙	-2767
▁연고	-2768
▁1972	-2769
▁로버트	-2770
▁권한	-2771
문화	-2772
▁어린이	-2773
▁플랫	-2774
▁베이스	-2775
▁마드리드	-2776
▁단일	-2777
리스트	-2778
▁공기	-2779
▁인상	-2780
▁조금	-2781
▁프란	-2782
▁직원	-2783
▁켈	-2784
▁전용	-2785
▁46	-2786
▁아르헨티나	-2787
▁1920	-2788
바르	-2789
▁공학	-2790
소드	-2791
▁순서	-2792
▁베를	-2793
▁말기	-2794
레이션	-2795
터리	-2796
▁운전	-2797
▁시각	-2798
▁잘못	-2799
▁가르치	-2800
▁요한	-2801
▁공포	-2802
▁사항	-2803
▁비난	-2804
▁아스	-2805
▁모리	-2806
▁유적	-2807
▁1979	-2808
▁별도	-2809
▁상품	-2810
▁수여	-2811
▁협정	-2812
▁중심지	-2813
▁보조	-2814
CA	-2815
▁밀리	-2816
▁흔히	-2817
▁창조	-2818
▁아미	-2819
▁변호사	-2820
▁전후	-2821
▁덮	-2822
▁스크	-2823
▁워싱턴	-2824
▁원주	-2825
▁전라북도	-2826
▁롯	-2827
▁기하	-2828
▁인권	-2829
▁글로	-2830
▁효소	-2831
▁아파	-2832
▁관료	-2833
▁kg	-2834
▁장착	-2835
정부	-2836
▁투입	-2837
▁마시	-2838
▁넘어	-2839
▁소식	-2840
▁통계	-2841
▁오히	-2842
▁CD	-2843
▁작곡가	-2844
▁파크	-2845
▁방면	-2846
▁셋	-2847
▁1930	-2848
퍼드	-2849
▁심각	-2850
ra	-2851
▁갈등	-2852
▁현장	-2853
▁레드	-2854
▁우크	-2855
무라	-2856
▁본인	-2857
▁훨	-2858
▁항복	-2859
▁정복	-2860
▁엠	-2861
▁저서	-2862
▁어떻게	-2863
▁150	-2864
▁아침	-2865
▁1981	-2866
▁금메달	-2867
▁In	-2868
▁놓이	-2869
▁중세	-2870
▁1973	-2871
▁하드	-2872
▁출마	-2873
▁논의	-2874
▁물러	-2875
▁공무원	-2876
퍼스	-2877
▁헨리	-2878
▁호텔	-2879
▁ㄴ다	-2880
▁훨씬	-2881
▁공산주의	-2882
▁교류	-2883
▁성경	-2884
사키	-2885
▁v	-2886
▁니콜	-2887
10	-2888
▁마이클	-2889
▁무리	-2890
▁벡	-2891
▁공화	-2892
리어	-2893
▁오랜	-2894
▁플라	-2895
겨나	-2896
▁건국	-2897
▁오른쪽	-2898
▁요새	-2899
▁뿌리	-2900
▁교토	-2901
▁택	-2902
▁인류	-2903
os	-2904
▁건조	-2905
▁노스	-2906
▁패하	-2907
▁빙	-2908
▁중부	-2909
▁드러나	-2910
▁연합군	-2911
▁유전자	-2912
▁코미	-2913
▁인정받	-2914
▁오토	-2915
▁김정	-2916
▁한때	-2917
▁예산	-2918
▁라도	-2919
▁산하	-2920
▁플레이어	-2921
▁방출	-2922
▁추측	-2923
▁왼쪽	-2924
▁형사	-2925
▁세인트	-2926
▁로드	-2927
▁금속	-2928
▁서기	-2929
▁벗어나	-2930
▁성질	-2931
▁투쟁	-2932
▁사태	-2933
▁찍	-2934
▁주위	-2935
▁창립	-2936
▁1940	-2937
▁에어	-2938
30	-2939
일보	-2940
▁던지	-2941
▁절대	-2942
▁아프	-2943
▁베이징	-2944
▁오전	-2945
▁릴	-2946
▁사령관	-2947
▁태국	-2948
▁1974	-2949
▁원작	-2950
▁오히려	-2951
▁185	-2952
▁탁	-2953
▁플레이오프	-2954
▁코스	-2955
▁북서	-2956
▁제자	-2957
▁노르웨이	-2958
BO	-2959
▁멸망	-2960
▁뽑	-2961
▁효율	-2962
▁가져오	-2963
▁에피소드	-2964
▁제출	-2965
▁반복	-2966
▁복합	-2967
em	-2968
▁군수	-2969
▁구별	-2970
▁운용	-2971
▁논쟁	-2972
▁스코틀랜드	-2973
ter	-2974
▁SBS	-2975
▁메시	-2976
▁집안	-2977
▁모스크바	-2978
▁읍	-2979
▁마침	-2980
▁정비	-2981
▁해양	-2982
▁입자	-2983
카와	-2984
▁포위	-2985
▁숫자	-2986
▁해상	-2987
▁사법	-2988
▁중대	-2989
▁인공	-2990
▁합성	-2991
▁거절	-2992
▁전철	-2993
▁목사	-2994
▁노부	-2995
붙이	-2996
아오	-2997
▁인종	-2998
▁흡수	-2999
▁1948	-3000
▁미니	-3001
▁빌리	-3002
▁원리	-3003
▁주기	-3004
▁출장	-3005
듀서	-3006
▁프로듀서	-3007
▁54	-3008
▁퍼지	-3009
▁활발	-3010
▁시점	-3011
▁인조	-3012
▁연관	-3013
▁포기	-3014
▁블루	-3015
머스	-3016
▁연산	-3017
▁댄	-3018
▁인터뷰	-3019
▁각본	-3020
▁밖에	-3021
▁1968	-3022
▁1976	-3023
▁델	-3024
▁베를린	-3025
▁수송	-3026
▁웨스트	-3027
▁소녀	-3028
▁슬로	-3029
▁이민	-3030
▁넘기	-3031
▁신체	-3032
▁개시	-3033
▁우스	-3034
▁취급	-3035
▁경성	-3036
▁보험	-3037
▁북동	-3038
▁하나님	-3039
▁안타	-3040
▁주전	-3041
▁출입	-3042
▁전공	-3043
▁즐기	-3044
▁건립	-3045
▁명성	-3046
▁고용	-3047
▁1975	-3048
▁보스	-3049
▁분쟁	-3050
▁비록	-3051
▁끝내	-3052
▁동원	-3053
▁구속	-3054
▁파라	-3055
▁진보	-3056
데스	-3057
▁실리	-3058
나이티	-3059
▁장악	-3060
▁히데	-3061
▁디스	-3062
▁음력	-3063
▁사령부	-3064
▁주택	-3065
▁취득	-3066
op	-3067
▁유나이티	-3068
▁축제	-3069
▁활성	-3070
도르	-3071
시스	-3072
▁일치	-3073
▁트랙	-3074
▁농민	-3075
▁견해	-3076
▁신성	-3077
▁영화제	-3078
서트	-3079
▁국도	-3080
▁전부	-3081
▁보컬	-3082
▁봉하	-3083
▁56	-3084
▁불법	-3085
▁1978	-3086
▁1971	-3087
▁늘어나	-3088
▁국장	-3089
▁갤	-3090
▁프라	-3091
▁총독	-3092
▁부활	-3093
▁미드	-3094
▁더라도	-3095
▁텐	-3096
▁고유	-3097
▁직전	-3098
ag	-3099
▁1963	-3100
▁52	-3101
▁유물	-3102
▁관점	-3103
에트	-3104
▁정체	-3105
▁소스	-3106
▁약속	-3107
▁편지	-3108
산시	-3109
▁학습	-3110
▁상당히	-3111
▁북아	-3112
▁49	-3113
▁후원	-3114
▁하위	-3115
다가	-3116
▁대리	-3117
▁도달	-3118
▁폭력	-3119
▁혼란	-3120
▁누리	-3121
▁자이	-3122
키스탄	-3123
▁직업	-3124
▁65	-3125
▁연료	-3126
▁코미디	-3127
▁주관	-3128
▁교차	-3129
▁포도	-3130
▁그리스도	-3131
▁한자	-3132
▁철수	-3133
비치	-3134
▁여부	-3135
▁타이완	-3136
▁항공기	-3137
▁다며	-3138
▁임금	-3139
▁반영	-3140
▁수술	-3141
▁시리아	-3142
▁물러나	-3143
▁닌	-3144
▁선교	-3145
자기	-3146
▁스미	-3147
▁백제	-3148
ce	-3149
메리	-3150
▁1969	-3151
세이	-3152
▁아테	-3153
▁관직	-3154
▁여객철도	-3155
릭스	-3156
▁179	-3157
기에	-3158
▁대화	-3159
▁상륙	-3160
▁천체	-3161
▁고종	-3162
▁Q	-3163
▁팝	-3164
▁논리	-3165
▁성능	-3166
▁의존	-3167
▁한국어	-3168
▁랜	-3169
▁브레	-3170
▁명명	-3171
▁수집	-3172
젤레스	-3173
리케	-3174
쿠라	-3175
▁제어	-3176
▁장교	-3177
▁주간	-3178
▁00	-3179
▁본사	-3180
▁심리	-3181
▁넷	-3182
▁그런데	-3183
▁모시	-3184
어스	-3185
▁부임	-3186
▁미나	-3187
▁테러	-3188
▁교환	-3189
▁판서	-3190
▁콘서트	-3191
▁데이비드	-3192
▁보관	-3193
▁1946	-3194
▁영업	-3195
▁일대	-3196
▁나아가	-3197
▁프리미	-3198
▁아사	-3199
▁좁	-3200
▁십자	-3201
▁화물	-3202
▁백작	-3203
▁학술	-3204
▁정지	-3205
▁해산	-3206
라비아	-3207
▁톰	-3208
▁도구	-3209
▁개체	-3210
▁상승	-3211
▁53	-3212
▁허가	-3213
▁거기	-3214
▁폴리	-3215
▁주식회사	-3216
▁반발	-3217
▁박정	-3218
▁불상	-3219
▁스마	-3220
▁자살	-3221
공항	-3222
▁전파	-3223
▁전문가	-3224
▁김영	-3225
OS	-3226
▁소방	-3227
▁하우스	-3228
▁제일	-3229
▁방사	-3230
▁연재	-3231
▁원하	-3232
▁진입	-3233
▁코로나	-3234
▁프로세	-3235
▁영향력	-3236
▁그레	-3237
▁영입	-3238
▁핑	-3239
▁살인	-3240
▁대략	-3241
▁공통	-3242
병대	-3243
미터	-3244
▁1964	-3245
oc	-3246
▁간단	-3247
▁드리	-3248
▁정원	-3249
▁먹이	-3250
▁고리	-3251
▁화성	-3252
▁헤르	-3253
▁신분	-3254
▁베스트	-3255
▁리스	-3256
▁약하	-3257
▁재료	-3258
▁충청북도	-3259
▁니시	-3260
▁보건	-3261
▁학부	-3262
▁미터	-3263
▁사장	-3264
▁발언	-3265
▁소비에트	-3266
▁겐	-3267
▁US	-3268
▁피아노	-3269
이어	-3270
▁스프	-3271
▁승진	-3272
▁파트	-3273
▁외국인	-3274
▁도망	-3275
▁가을	-3276
▁항구	-3277
▁한반도	-3278
▁꼭	-3279
▁고도	-3280
▁벨기에	-3281
▁99	-3282
▁기도	-3283
▁포트	-3284
▁부장	-3285
▁그치	-3286
노스	-3287
▁학원	-3288
▁탈락	-3289
▁1000	-3290
▁진압	-3291
▁서버	-3292
▁현역	-3293
▁58	-3294
▁and	-3295
▁지붕	-3296
▁사운드	-3297
▁누르	-3298
▁국제공항	-3299
▁질병	-3300
오르	-3301
▁감사	-3302
▁탈출	-3303
ri	-3304
▁횡	-3305
▁구성원	-3306
▁쫓	-3307
▁리더	-3308
▁머무르	-3309
▁학회	-3310
▁다스	-3311
▁인도네시아	-3312
▁락	-3313
▁의도	-3314
▁신청	-3315
▁루이스	-3316
▁닥	-3317
▁시호	-3318
▁주년	-3319
▁채용	-3320
▁참전	-3321
▁스토	-3322
하마	-3323
▁공동체	-3324
▁창단	-3325
▁통상	-3326
▁장수	-3327
▁브루	-3328
▁벼	-3329
▁식품	-3330
▁콤	-3331
▁복무	-3332
▁트랜	-3333
▁PC	-3334
▁픽	-3335
▁계통	-3336
▁합격	-3337
▁응용	-3338
▁모드	-3339
▁망명	-3340
▁위반	-3341
천군	-3342
▁임대	-3343
▁1977	-3344
▁조작	-3345
아버지	-3346
▁변환	-3347
저우	-3348
▁포로	-3349
▁청구	-3350
▁SK	-3351
▁롯데	-3352
▁친일	-3353
프리	-3354
▁..	-3355
▁민법	-3356
▁요코	-3357
▁임의	-3358
▁작사	-3359
▁FA	-3360
▁페이	-3361
▁1949	-3362
▁띄	-3363
▁문헌	-3364
▁화면	-3365
▁에도	-3366
▁트라	-3367
▁부부	-3368
▁요인	-3369
▁말레이	-3370
▁절차	-3371
▁마케	-3372
▁동남	-3373
성군	-3374
▁문장	-3375
려움	-3376
▁라이트	-3377
▁신인	-3378
▁분열	-3379
▁저작	-3380
▁탄소	-3381
igh	-3382
▁로스앤	-3383
▁로스앤젤레스	-3384
▁예측	-3385
▁이치	-3386
▁방송국	-3387
▁지급	-3388
▁트로	-3389
▁배출	-3390
▁연출	-3391
▁변형	-3392
드시	-3393
▁학과	-3394
▁수영	-3395
▁선보이	-3396
▁1962	-3397
▁선조	-3398
▁캠퍼스	-3399
▁88	-3400
▁조절	-3401
문화재	-3402
▁엑스	-3403
▁자녀	-3404
▁주둔	-3405
▁선전	-3406
▁레오	-3407
▁상원	-3408
정식	-3409
▁국무	-3410
▁시카	-3411
▁칭하	-3412
▁수소	-3413
▁이중	-3414
▁62	-3415
▁전동	-3416
▁코파	-3417
ation	-3418
▁이승만	-3419
▁1967	-3420
▁출간	-3421
▁힘들	-3422
▁메모리	-3423
▁레스	-3424
▁처형	-3425
▁흉	-3426
▁막부	-3427
▁는가	-3428
▁실수	-3429
▁흑인	-3430
▁광장	-3431
▁큐	-3432
▁정기	-3433
타르	-3434
▁수리	-3435
▁어떠	-3436
크스	-3437
▁취소	-3438
▁등지	-3439
▁방지	-3440
▁기호	-3441
로그	-3442
▁화재	-3443
▁오페	-3444
▁황금	-3445
▁콘스탄	-3446
▁생존	-3447
▁기법	-3448
▁장르	-3449
▁서원	-3450
천시	-3451
카이도	-3452
▁r	-3453
▁로켓	-3454
수록	-3455
▁57	-3456
▁이시	-3457
▁You	-3458
▁증상	-3459
▁오스만	-3460
▁남서	-3461
▁서구	-3462
▁카메라	-3463
▁호수	-3464
▁현지	-3465
▁왕자	-3466
▁반드시	-3467
▁제대로	-3468
▁연안	-3469
▁동작	-3470
▁앵	-3471
라드	-3472
▁동성	-3473
브리	-3474
▁개조	-3475
▁루트	-3476
▁히트	-3477
▁예비	-3478
▁늦	-3479
▁롱	-3480
▁희망	-3481
▁기체	-3482
아나	-3483
▁좌우	-3484
▁맞서	-3485
▁고지	-3486
▁분명	-3487
▁위상	-3488
▁Ch	-3489
▁공정	-3490
포르	-3491
▁임진	-3492
▁도전	-3493
▁농구	-3494
▁싸움	-3495
▁고치	-3496
▁맞이	-3497
▁여단	-3498
▁동아	-3499
▁전주	-3500
▁톱	-3501
▁무덤	-3502
▁천연	-3503
▁노리	-3504
▁진주	-3505
▁크리	-3506
▁일본군	-3507
▁파악	-3508
▁전면	-3509
▁으려	-3510
▁엄청	-3511
▁181	-3512
▁둘째	-3513
▁꺾	-3514
▁독특	-3515
▁압력	-3516
▁터널	-3517
▁우려	-3518
▁흘	-3519
▁전형	-3520
▁돌리	-3521
▁코르	-3522
▁목소리	-3523
▁묵	-3524
▁특이	-3525
▁%,	-3526
▁1966	-3527
▁해리	-3528
nd	-3529
▁스탠	-3530
▁성향	-3531
▁물체	-3532
▁미국인	-3533
▁66	-3534
▁동기	-3535
▁매일	-3536
라이언	-3537
▁이온	-3538
방송	-3539
▁법정	-3540
▁신뢰	-3541
바라	-3542
▁그레이	-3543
▁녹색	-3544
▁드물	-3545
▁리처	-3546
▁타임	-3547
▁경로	-3548
▁독립운동	-3549
이치	-3550
▁에르	-3551
▁글자	-3552
▁덧	-3553
▁1965	-3554
▁어디	-3555
▁인지	-3556
▁유기	-3557
▁68	-3558
▁아리	-3559
▁멘	-3560
베스	-3561
▁노벨	-3562
▁추구	-3563
▁바둑	-3564
▁부사	-3565
▁방정식	-3566
▁처벌	-3567
▁체코	-3568
더스	-3569
▁183	-3570
▁KBO	-3571
티브	-3572
▁실질	-3573
▁지리	-3574
▁방해	-3575
▁묶	-3576
에이	-3577
▁가시	-3578
▁클레	-3579
▁개신	-3580
▁알렉산드	-3581
▁람	-3582
▁타격	-3583
▁밥	-3584
▁61	-3585
▁일찍	-3586
▁분해	-3587
ST	-3588
▁웅	-3589
치아	-3590
▁유행	-3591
▁일식	-3592
▁김일	-3593
▁분할	-3594
▁찰스	-3595
▁아동	-3596
▁부진	-3597
▁풍부	-3598
▁간행	-3599
▁퀸	-3600
▁완료	-3601
다르	-3602
▁빼앗	-3603
▁평등	-3604
▁찌	-3605
▁내전	-3606
▁희생	-3607
▁삽	-3608
▁마르크	-3609
▁복지	-3610
▁마침내	-3611
질랜드	-3612
▁홋	-3613
▁순환	-3614
▁화산	-3615
▁사립	-3616
▁엄청나	-3617
▁아파트	-3618
▁손자	-3619
▁뉴질랜드	-3620
▁범주	-3621
먼트	-3622
▁1961	-3623
▁최다	-3624
▁대개	-3625
▁집권	-3626
▁나들	-3627
▁점점	-3628
▁비평	-3629
▁가까	-3630
▁별명	-3631
▁나들목	-3632
▁으니	-3633
▁플래	-3634
▁800	-3635
▁오프	-3636
▁의지	-3637
▁한정	-3638
ER	-3639
▁첼	-3640
art	-3641
▁전원	-3642
▁갈색	-3643
▁한계	-3644
▁분위	-3645
▁86	-3646
▁시조	-3647
▁곱	-3648
▁흰	-3649
▁파르	-3650
▁600	-3651
▁판사	-3652
▁근본	-3653
▁대법	-3654
▁부하	-3655
▁사냥	-3656
▁분기	-3657
▁창원	-3658
▁구현	-3659
▁명확	-3660
▁가상	-3661
▁시드	-3662
▁리가	-3663
투스	-3664
▁120	-3665
ice	-3666
▁테이	-3667
▁기둥	-3668
▁모형	-3669
▁충격	-3670
유럽	-3671
▁훗	-3672
▁바치	-3673
▁사원	-3674
르타	-3675
▁그라	-3676
▁일본인	-3677
▁사형	-3678
텐츠	-3679
▁교향	-3680
▁완공	-3681
▁웨이	-3682
ON	-3683
▁드러내	-3684
▁사임	-3685
▁들어서	-3686
▁IS	-3687
▁무게	-3688
▁확산	-3689
▁메리	-3690
▁중기	-3691
▁단독	-3692
▁스토리	-3693
▁마법	-3694
▁출범	-3695
▁오페라	-3696
▁프린	-3697
▁션	-3698
▁벡터	-3699
▁날개	-3700
디션	-3701
▁악화	-3702
▁적절	-3703
▁1919	-3704
▁통산	-3705
est	-3706
▁대공	-3707
▁훌	-3708
▁상위	-3709
세우	-3710
틀러	-3711
▁의혹	-3712
▁회담	-3713
▁뚜	-3714
은행	-3715
▁의심	-3716
▁물리학	-3717
▁렀	-3718
▁호주	-3719
피스	-3720
▁사마	-3721
▁유치	-3722
▁캔	-3723
▁레인	-3724
사자	-3725
▁제이	-3726
TV	-3727
▁이자	-3728
▁무시	-3729
ia	-3730
▁득표	-3731
▁모토	-3732
▁명나라	-3733
▁re	-3734
▁당초	-3735
▁이닝	-3736
▁98	-3737
▁영웅	-3738
▁조종	-3739
▁닛	-3740
▁굽	-3741
▁서명	-3742
▁연구원	-3743
▁쏘	-3744
▁키우	-3745
▁알파	-3746
▁함락	-3747
▁사실상	-3748
▁가나	-3749
▁징역	-3750
▁순간	-3751
▁편찬	-3752
ap	-3753
▁그때	-3754
▁문명	-3755
▁포인트	-3756
▁발굴	-3757
▁자극	-3758
▁여론	-3759
▁1944	-3760
▁추천	-3761
사스	-3762
▁카라	-3763
▁개입	-3764
▁샘	-3765
▁광복	-3766
▁모임	-3767
▁곽	-3768
▁연간	-3769
▁인접	-3770
▁포항	-3771
ak	-3772
▁넓이	-3773
▁인증	-3774
▁저술	-3775
▁접촉	-3776
▁진정	-3777
▁생겨나	-3778
▁순수	-3779
아보	-3780
▁사정	-3781
▁각지	-3782
연히	-3783
라이나	-3784
▁구원	-3785
▁도쿠	-3786
▁올해	-3787
▁등판	-3788
▁독일군	-3789
▁홍보	-3790
▁프리미어	-3791
▁태도	-3792
▁악기	-3793
▁동서	-3794
▁개막	-3795
▁세르비아	-3796
▁언제	-3797
▁1941	-3798
▁63	-3799
▁기리	-3800
▁골든	-3801
▁고속도로	-3802
▁뮤지	-3803
▁여야	-3804
우리	-3805
▁기온	-3806
나가	-3807
▁95	-3808
▁오랫	-3809
▁드라이	-3810
▁실현	-3811
▁DNA	-3812
AR	-3813
▁꼽	-3814
▁루스	-3815
▁학살	-3816
▁팽	-3817
무부	-3818
▁네이	-3819
▁백성	-3820
▁74	-3821
일리	-3822
▁탐사	-3823
▁기기	-3824
시오	-3825
학생	-3826
▁수석	-3827
▁한국인	-3828
메이	-3829
▁임기	-3830
▁59	-3831
민주	-3832
▁바위	-3833
버그	-3834
▁Lo	-3835
▁공로	-3836
▁시카고	-3837
믹스	-3838
▁변수	-3839
▁예전	-3840
▁경전	-3841
▁공헌	-3842
▁성분	-3843
▁행렬	-3844
▁줄어들	-3845
▁입법	-3846
▁보고서	-3847
▁스마트	-3848
▁균형	-3849
숭이	-3850
▁178	-3851
▁양쪽	-3852
▁앤드	-3853
▁춤	-3854
▁아티	-3855
▁훗날	-3856
▁뱅	-3857
▁감시	-3858
▁심사	-3859
▁오랫동안	-3860
▁추산	-3861
ct	-3862
▁닉	-3863
▁페르시아	-3864
대부	-3865
▁분위기	-3866
▁혼합	-3867
▁확률	-3868
▁튜	-3869
▁방위	-3870
▁침략	-3871
▁자전	-3872
▁1958	-3873
▁시사	-3874
▁매장	-3875
▁프로그래	-3876
▁미쓰	-3877
▁출력	-3878
▁영지	-3879
▁왕실	-3880
▁대량	-3881
▁특별시	-3882
▁에드워드	-3883
리히	-3884
▁1947	-3885
ul	-3886
러리	-3887
▁리처드	-3888
▁승부	-3889
▁82	-3890
▁IC	-3891
▁신부	-3892
▁조별	-3893
▁피터	-3894
▁커뮤	-3895
▁160	-3896
▁저녁	-3897
▁권위	-3898
▁무사	-3899
▁원형	-3900
▁안토	-3901
코스	-3902
▁개신교	-3903
▁멀리	-3904
▁마무	-3905
▁타자	-3906
▁이라크	-3907
▁to	-3908
▁대선	-3909
▁팔리	-3910
▁기울	-3911
▁단편	-3912
▁경남	-3913
▁다케	-3914
▁76	-3915
▁1956	-3916
▁에서부터	-3917
▁72	-3918
이너	-3919
▁흐름	-3920
▁줄기	-3921
▁고르	-3922
▁;/	-3923
▁여왕	-3924
▁프라이	-3925
▁미야	-3926
▁승객	-3927
▁제사	-3928
▁발발	-3929
▁텍사스	-3930
▁그래픽	-3931
▁점수	-3932
▁재건	-3933
▁랜드	-3934
▁프랑크	-3935
▁앉	-3936
▁확립	-3937
▁아이돌	-3938
▁커뮤니	-3939
▁SS	-3940
▁가와	-3941
▁긍	-3942
▁일상	-3943
▁안동	-3944
▁석유	-3945
ie	-3946
▁바깥	-3947
▁동명	-3948
▁77	-3949
▁과학자	-3950
▁우라	-3951
▁복원	-3952
▁원수	-3953
▁데스	-3954
▁비치	-3955
▁작위	-3956
▁참고	-3957
▁침입	-3958
▁비상	-3959
리노	-3960
▁수익	-3961
▁교구	-3962
▁시상	-3963
▁복수	-3964
▁섞	-3965
▁당국	-3966
▁테스트	-3967
▁입력	-3968
▁1939	-3969
▁겹	-3970
▁리버	-3971
▁어깨	-3972
▁잠수	-3973
▁Th	-3974
▁폭탄	-3975
▁브라운	-3976
레나	-3977
▁심지	-3978
▁67	-3979
▁신자	-3980
메리칸	-3981
▁민중	-3982
▁덜	-3983
▁기소	-3984
▁젠	-3985
▁본질	-3986
▁일시	-3987
▁도요	-3988
▁자식	-3989
▁그렇게	-3990
▁축구단	-3991
▁계층	-3992
▁복음	-3993
레옹	-3994
▁사자	-3995
▁파워	-3996
▁더블	-3997
▁재배	-3998
▁연예	-3999
일스	-4000
▁포켓	-4001
▁혁신	-4002
▁신고	-4003
▁타워	-4004
▁AFC	-4005
▁나폴레옹	-4006
ud	-4007
▁병합	-4008
▁듯이	-4009
▁빌보드	-4010
▁끼치	-4011
▁주최	-4012
마르	-4013
이센	-4014
▁가공	-4015
▁부지	-4016
▁도모	-4017
▁한글	-4018
▁거듭	-4019
▁대왕	-4020
▁가량	-4021
▁시마	-4022
에른	-4023
▁빅토	-4024
▁정수	-4025
▁85	-4026
▁다운	-4027
▁가담	-4028
ly	-4029
▁지형	-4030
▁동양	-4031
og	-4032
▁공중	-4033
▁움직임	-4034
▁사제	-4035
▁암호	-4036
▁창작	-4037
▁대성	-4038
▁힌	-4039
▁보물	-4040
th	-4041
▁깃	-4042
▁고통	-4043
▁평안	-4044
▁폐쇄	-4045
▁1954	-4046
▁내셔널	-4047
▁들이	-4048
아티아	-4049
▁소득	-4050
▁크로아티아	-4051
레인	-4052
마니아	-4053
▁노출	-4054
ist	-4055
▁평론	-4056
▁가설	-4057
▁후계	-4058
▁급제	-4059
▁인쇄	-4060
왜란	-4061
▁훈장	-4062
▁임진왜란	-4063
▁쌀	-4064
▁다소	-4065
아지	-4066
▁구글	-4067
▁가이	-4068
▁국기	-4069
▁비서	-4070
▁산화	-4071
▁참모	-4072
ight	-4073
▁고기	-4074
▁총회	-4075
▁1952	-4076
▁력	-4077
▁실력	-4078
▁박정희	-4079
AS	-4080
▁탱	-4081
▁세리	-4082
▁채우	-4083
▁보상	-4084
▁전신	-4085
▁대지	-4086
▁상관	-4087
▁후속	-4088
▁김대	-4089
느리	-4090
▁그만	-4091
▁73	-4092
▁바닥	-4093
▁동방	-4094
▁오가	-4095
▁행복	-4096
▁보살	-4097
▁따로	-4098
▁셔	-4099
▁국정	-4100
▁아테네	-4101
▁96	-4102
▁뮤지컬	-4103
▁절반	-4104
▁도덕	-4105
▁라스	-4106
바로	-4107
조합	-4108
▁비례	-4109
아하	-4110
▁발음	-4111
▁인용	-4112
▁조조	-4113
▁부담	-4114
▁탈퇴	-4115
▁81	-4116
▁무한	-4117
▁스타디	-4118
하여	-4119
▁ᆯ지	-4120
▁오카	-4121
▁타운	-4122
▁피해자	-4123
▁수도원	-4124
▁개설	-4125
▁*	-4126
▁Al	-4127
▁께	-4128
▁불만	-4129
필더	-4130
▁가까이	-4131
▁미드필더	-4132
▁로봇	-4133
체스터	-4134
▁뤼	-4135
▁심장	-4136
▁뷰	-4137
▁좋아하	-4138
▁살리	-4139
▁78	-4140
▁장남	-4141
▁화이트	-4142
▁처하	-4143
▁청주	-4144
AT	-4145
▁이혼	-4146
▁화장	-4147
▁는다는	-4148
▁손상	-4149
▁재학	-4150
너스	-4151
▁교리	-4152
▁지향	-4153
▁총장	-4154
의정	-4155
▁전남	-4156
▁전투기	-4157
▁바이에른	-4158
▁김성	-4159
▁전직	-4160
▁센트	-4161
▁안드로	-4162
▁여섯	-4163
▁마무리	-4164
▁뮌	-4165
▁하인	-4166
▁중력	-4167
▁포스트	-4168
▁주력	-4169
▁녀	-4170
▁아트	-4171
▁수요	-4172
▁검토	-4173
▁천안	-4174
타이	-4175
▁국군	-4176
▁인생	-4177
▁콘스탄티	-4178
▁백만	-4179
▁블라	-4180
▁산소	-4181
BA	-4182
▁결론	-4183
▁NH	-4184
▁작동	-4185
▁1959	-4186
▁붓	-4187
▁기상	-4188
▁보르	-4189
▁지사	-4190
▁202	-4191
▁레알	-4192
▁;,	-4193
▁관여	-4194
▁상실	-4195
▁당나라	-4196
▁심지어	-4197
직자	-4198
▁91	-4199
▁생물학	-4200
▁Li	-4201
▁유통	-4202
▁와이	-4203
▁177	-4204
▁윗	-4205
ess	-4206
▁질환	-4207
▁패션	-4208
인물	-4209
자치	-4210
토스	-4211
▁빌딩	-4212
▁아웃	-4213
▁포스	-4214
▁사무소	-4215
▁71	-4216
▁개방	-4217
▁호소	-4218
▁화합	-4219
▁설득	-4220
▁피부	-4221
▁황후	-4222
▁사유	-4223
▁처분	-4224
▁규제	-4225
세포	-4226
▁AT	-4227
▁메시지	-4228
▁신사	-4229
가락	-4230
▁문신	-4231
▁선박	-4232
▁오직	-4233
▁분노	-4234
▁이명	-4235
▁상역	-4236
▁사우스	-4237
▁프로이센	-4238
▁가마	-4239
▁결의	-4240
스트라	-4241
클리	-4242
▁DV	-4243
▁넘어가	-4244
▁연습	-4245
▁가슴	-4246
▁골드	-4247
쿠스	-4248
▁일컫	-4249
▁승려	-4250
▁액션	-4251
▁의대	-4252
▁햄	-4253
▁모터	-4254
▁1942	-4255
▁하원	-4256
▁가요	-4257
▁약물	-4258
▁심판	-4259
▁혼인	-4260
▁내려오	-4261
▁선임	-4262
▁적합	-4263
드리히	-4264
▁동해	-4265
▁위대	-4266
▁글로벌	-4267
▁매체	-4268
▁역학	-4269
▁김일성	-4270
▁디스크	-4271
▁통화	-4272
▁페이지	-4273
IV	-4274
▁구매	-4275
▁개성	-4276
▁조카	-4277
▁모바	-4278
▁소멸	-4279
▁그린	-4280
▁87	-4281
▁진단	-4282
▁왕비	-4283
▁좌상	-4284
▁긍정	-4285
▁잭슨	-4286
▁프리드리히	-4287
▁억제	-4288
미야	-4289
▁159	-4290
▁1943	-4291
▁위키	-4292
ub	-4293
▁프랭	-4294
▁발탁	-4295
▁1955	-4296
▁st	-4297
▁야스	-4298
▁지나가	-4299
IA	-4300
▁쿠데	-4301
▁크루	-4302
▁부산광역시	-4303
▁일기	-4304
▁진영	-4305
▁서식지	-4306
▁원년	-4307
▁조차	-4308
▁어려움	-4309
▁말레이시아	-4310
▁나쁘	-4311
▁1953	-4312
가니	-4313
▁대책	-4314
▁홋카이도	-4315
▁예방	-4316
▁일체	-4317
▁불안	-4318
▁주석	-4319
▁스타디움	-4320
▁굳	-4321
▁퀴	-4322
▁왕후	-4323
▁700	-4324
▁사도	-4325
▁음악가	-4326
▁드래프트	-4327
▁자이언	-4328
히로	-4329
▁테크	-4330
▁필드	-4331
▁무료	-4332
▁톨	-4333
▁타인	-4334
ab	-4335
▁\	-4336
▁즉시	-4337
▁1936	-4338
▁시나	-4339
▁힙	-4340
미르	-4341
▁싱가	-4342
▁사무실	-4343
▁84	-4344
▁싱가포르	-4345
▁사격	-4346
▁카스	-4347
▁쾌	-4348
▁AP	-4349
▁유고	-4350
▁태조	-4351
▁폭격	-4352
▁디아	-4353
▁티베	-4354
▁일본어	-4355
▁인원	-4356
▁쿠데타	-4357
▁루마니아	-4358
▁여우	-4359
▁자는	-4360
▁김종	-4361
▁궁전	-4362
▁리드	-4363
데이	-4364
▁깊이	-4365
▁막대	-4366
▁조지아	-4367
▁천주교	-4368
▁세자	-4369
▁1910	-4370
버리	-4371
▁대체로	-4372
▁유형문화재	-4373
▁크로스	-4374
▁몰리	-4375
▁사라	-4376
▁연설	-4377
▁이와	-4378
▁모바일	-4379
▁기동	-4380
▁상속	-4381
▁창당	-4382
▁정차	-4383
▁닫	-4384
올리	-4385
▁전북	-4386
▁스티븐	-4387
▁구입	-4388
▁전동차	-4389
주군	-4390
ine	-4391
▁히틀러	-4392
▁후쿠오카	-4393
유산	-4394
▁진격	-4395
▁97	-4396
▁Re	-4397
▁오이	-4398
▁딜	-4399
▁독재	-4400
▁요금	-4401
▁전당	-4402
▁챔피언십	-4403
▁학사	-4404
달리	-4405
▁딘	-4406
▁대우	-4407
▁자국	-4408
구리	-4409
▁개칭	-4410
우치	-4411
▁발명	-4412
▁남아프리카	-4413
▁느낌	-4414
▁아메리칸	-4415
▁늘리	-4416
▁1957	-4417
▁강릉	-4418
란색	-4419
▁부동	-4420
▁알바	-4421
▁조상	-4422
▁원주민	-4423
▁검색	-4424
▁추방	-4425
▁초점	-4426
머리	-4427
▁광범	-4428
▁급격	-4429
▁수호	-4430
▁필수	-4431
▁사과	-4432
▁콘텐츠	-4433
▁타이거	-4434
▁본명	-4435
▁알고리	-4436
구치	-4437
▁스미스	-4438
▁동북	-4439
ew	-4440
▁기다리	-4441
베르트	-4442
독부	-4443
▁휴대	-4444
▁음성	-4445
▁생태	-4446
▁세트	-4447
▁담기	-4448
▁사기	-4449
▁1914	-4450
▁렀다	-4451
▁흔하	-4452
▁전송	-4453
▁천만	-4454
다랗	-4455
▁신장	-4456
▁69	-4457
▁빚	-4458
▁이마	-4459
▁테마	-4460
▁메이지	-4461
원경	-4462
▁수업	-4463
▁잡히	-4464
▁끌어	-4465
▁게다가	-4466
▁이즈	-4467
▁핫	-4468
▁완벽	-4469
▁92	-4470
▁업적	-4471
▁주소	-4472
▁인디언	-4473
▁덩	-4474
▁똑	-4475
시스코	-4476
▁미리	-4477
▁연락	-4478
ue	-4479
▁최우	-4480
▁알고리즘	-4481
미니	-4482
▁후임	-4483
▁="	-4484
▁포켓몬	-4485
▁신도	-4486
▁이내	-4487
▁게르	-4488
▁불가리아	-4489
▁토론토	-4490
▁도마	-4491
▁세부	-4492
▁전술	-4493
▁코리아	-4494
▁1900	-4495
▁서술	-4496
▁섹	-4497
▁1938	-4498
▁림	-4499
▁유효	-4500
▁상인	-4501
▁클로	-4502
▁랄	-4503
▁닥터	-4504
▁고급	-4505
▁려면	-4506
▁화려	-4507
▁펑	-4508
▁스프링	-4509
▁물건	-4510
▁부위	-4511
▁스탈	-4512
▁늑	-4513
▁다스리	-4514
지사	-4515
래프트	-4516
▁질문	-4517
▁노트	-4518
▁석사	-4519
▁미술관	-4520
▁고시	-4521
▁숨기	-4522
EC	-4523
▁언덕	-4524
▁라이프	-4525
▁재즈	-4526
▁바르셀	-4527
▁바르셀로나	-4528
다니	-4529
▁각국	-4530
▁배포	-4531
총리	-4532
▁암컷	-4533
▁내놓	-4534
▁영양	-4535
▁101	-4536
▁주니어	-4537
▁마르크스	-4538
▁소비자	-4539
▁연평	-4540
▁느냐	-4541
▁안드	-4542
▁오키	-4543
비히	-4544
▁고위	-4545
▁립	-4546
▁손실	-4547
▁라틴어	-4548
▁1918	-4549
▁01	-4550
▁사퇴	-4551
로지	-4552
▁개량	-4553
▁실천	-4554
▁HD	-4555
▁백인	-4556
▁해발	-4557
▁랩	-4558
리그	-4559
여금	-4560
자키	-4561
▁소형	-4562
▁갑자기	-4563
▁윙	-4564
산화	-4565
▁일련	-4566
▁마스터	-4567
▁료	-4568
▁언스	-4569
▁선형	-4570
▁등장인물	-4571
▁웰	-4572
▁집회	-4573
▁주체	-4574
▁DVD	-4575
▁경비	-4576
▁유산	-4577
총독부	-4578
▁조선총독부	-4579
▁풋	-4580
▁상주	-4581
▁화석	-4582
제국	-4583
▁자본주의	-4584
▁저자	-4585
▁프랑스군	-4586
▁라우	-4587
▁1951	-4588
▁용인	-4589
▁감각	-4590
▁시내버스	-4591
▁개별	-4592
▁1932	-4593
▁의문	-4594
▁격파	-4595
▁메달	-4596
▁국적	-4597
▁반사	-4598
▁추기	-4599
▁계곡	-4600
▁블록	-4601
▁선포	-4602
▁운항	-4603
▁미스	-4604
▁영주	-4605
▁차단	-4606
▁거짓	-4607
BM	-4608
▁알레	-4609
▁1937	-4610
▁on	-4611
▁짝	-4612
▁말리	-4613
▁{	-4614
▁번지	-4615
▁사양	-4616
▁미시	-4617
▁정교회	-4618
▁고객	-4619
무늬	-4620
▁만든	-4621
▁대만	-4622
▁당원	-4623
▁화제	-4624
▁진학	-4625
▁넥	-4626
▁마틴	-4627
▁부친	-4628
▁상수	-4629
▁이웃	-4630
▁182	-4631
민주당	-4632
▁올스타	-4633
▁재개	-4634
필드	-4635
▁89	-4636
▁광범위	-4637
펙트	-4638
▁흰색	-4639
▁실업	-4640
▁엘리자	-4641
가시	-4642
▁설치류	-4643
▁첩	-4644
▁둥글	-4645
▁찬성	-4646
▁후계자	-4647
▁되돌	-4648
▁타율	-4649
▁방언	-4650
바키아	-4651
▁트레이드	-4652
▁꾸준	-4653
▁항의	-4654
▁시트	-4655
▁비스	-4656
▁1935	-4657
▁93	-4658
▁수치	-4659
▁칭호	-4660
▁기부	-4661
▁환승	-4662
▁탄압	-4663
ect	-4664
▁우크라	-4665
▁구상	-4666
▁비행기	-4667
▁데리	-4668
동생	-4669
▁뮌헨	-4670
▁크라	-4671
▁경제학	-4672
▁이스트	-4673
▁퀘	-4674
▁분교	-4675
▁사찰	-4676
▁어요	-4677
▁질서	-4678
▁로렌	-4679
▁Be	-4680
▁구멍	-4681
▁허락	-4682
▁중추	-4683
▁커버	-4684
▁고양이	-4685
▁추기경	-4686
▁베리	-4687
▁수백	-4688
▁촉진	-4689
▁자산	-4690
▁증언	-4691
▁파티	-4692
▁최후	-4693
▁화폐	-4694
사전	-4695
▁체험	-4696
▁항공사	-4697
▁발간	-4698
▁분화	-4699
▁면역	-4700
▁싱어	-4701
▁겉	-4702
▁웃	-4703
▁극단	-4704
▁덧붙이	-4705
다수	-4706
▁남녀	-4707
▁반지	-4708
▁이념	-4709
▁내세우	-4710
▁기에	-4711
▁옵	-4712
▁소문	-4713
▁법학	-4714
▁성남	-4715
▁회로	-4716
▁아티스트	-4717
▁마루	-4718
▁마주	-4719
▁소화	-4720
▁곡선	-4721
▁습격	-4722
▁양산	-4723
▁클리	-4724
▁소위	-4725
▁매치	-4726
▁영원	-4727
▁목성	-4728
▁푸르	-4729
▁개척	-4730
▁쿨	-4731
▁공신	-4732
▁보편	-4733
센트	-4734
▁약화	-4735
▁클래식	-4736
저스	-4737
▁축소	-4738
슈타인	-4739
ore	-4740
▁가속	-4741
▁대법원	-4742
런스	-4743
▁94	-4744
리우스	-4745
▁물고기	-4746
▁강남	-4747
▁탕	-4748
▁시모	-4749
▁소집	-4750
▁탄핵	-4751
▁OS	-4752
▁1933	-4753
른바	-4754
▁운송	-4755
▁잠수함	-4756
▁그리하여	-4757
▁FM	-4758
▁유배	-4759
▁티베트	-4760
our	-4761
▁수십	-4762
▁충분히	-4763
▁펴	-4764
▁지수	-4765
▁이른바	-4766
▁선호	-4767
▁하여금	-4768
려가	-4769
▁쿼	-4770
▁툴	-4771
▁혼자	-4772
리나	-4773
IN	-4774
▁핸	-4775
▁군부	-4776
▁원시	-4777
▁1928	-4778
▁동화	-4779
▁무너지	-4780
▁아오	-4781
▁당신	-4782
▁지나치	-4783
▁전적	-4784
▁조항	-4785
▁주일	-4786
▁세월	-4787
▁영구	-4788
도사	-4789
▁직무	-4790
▁CP	-4791
▁어둡	-4792
▁걷	-4793
▁뼈	-4794
▁지불	-4795
돼지	-4796
▁태종	-4797
▁틈	-4798
▁경사	-4799
▁동경	-4800
▁시신	-4801
▁팩	-4802
ell	-4803
▁국토	-4804
▁누스	-4805
▁간부	-4806
▁정통	-4807
▁1924	-4808
▁멈	-4809
▁이행	-4810
공사	-4811
▁칠레	-4812
▁프랑스어	-4813
▁콜로	-4814
▁용도	-4815
▁전망	-4816
▁재능	-4817
▁토대	-4818
▁정면	-4819
▁형상	-4820
들리	-4821
▁손해	-4822
프레	-4823
▁79	-4824
▁댄스	-4825
▁조기	-4826
닉스	-4827
▁반하	-4828
▁발레	-4829
▁익스	-4830
▁개명	-4831
▁사막	-4832
▁토마스	-4833
벤트	-4834
▁상대식	-4835
▁액체	-4836
▁종사	-4837
▁펀	-4838
▁진실	-4839
▁단순히	-4840
▁메트로	-4841
▁이재	-4842
▁실내	-4843
▁김해	-4844
▁110	-4845
▁09	-4846
▁콜롬	-4847
▁입대	-4848
▁의정부	-4849
▁가난	-4850
▁브로	-4851
▁쟁	-4852
사이	-4853
▁따오	-4854
▁회색	-4855
▁프로그래밍	-4856
슬링	-4857
▁멀티	-4858
▁170	-4859
▁대칭	-4860
▁개장	-4861
▁04	-4862
▁구름	-4863
▁안토니	-4864
▁러브	-4865
▁무력	-4866
▁오버	-4867
▁지중	-4868
어도	-4869
▁판정	-4870
end	-4871
▁경고	-4872
▁양국	-4873
▁전제	-4874
▁합동	-4875
▁수컷	-4876
▁자랑	-4877
▁ㅓㅆ	-4878
▁엄격	-4879
▁열매	-4880
▁동굴	-4881
▁해제	-4882
과이	-4883
▁파키스탄	-4884
코프	-4885
▁사이드	-4886
▁부리	-4887
▁유아	-4888
▁존스	-4889
▁초상	-4890
▁법안	-4891
▁토착	-4892
▁뻗	-4893
브라	-4894
▁자르	-4895
ill	-4896
▁고교	-4897
▁무용	-4898
▁안티	-4899
▁당대	-4900
ain	-4901
▁일단	-4902
▁흔적	-4903
▁늑대	-4904
▁하와	-4905
▁총재	-4906
▁베네치아	-4907
▁로즈	-4908
▁대승	-4909
▁원자력	-4910
▁분산	-4911
베리아	-4912
▁08	-4913
ID	-4914
테스	-4915
▁불러	-4916
▁플로리	-4917
▁틴	-4918
▁세로	-4919
▁재생	-4920
사르	-4921
▁룸	-4922
ers	-4923
▁퓨	-4924
▁주문	-4925
▁인민군	-4926
▁오케	-4927
▁경북	-4928
▁대가	-4929
▁마저	-4930
▁스톤	-4931
▁힙합	-4932
▁주재	-4933
▁우에	-4934
▁지표	-4935
▁Co	-4936
▁비잔	-4937
▁서방	-4938
▁정류	-4939
티스	-4940
▁강도	-4941
▁부속	-4942
▁장로	-4943
▁스카이	-4944
▁맡기	-4945
▁부서	-4946
▁개찰	-4947
▁쌓이	-4948
▁83	-4949
▁다큐	-4950
▁동지	-4951
▁오류	-4952
▁레닌	-4953
▁프로토	-4954
▁메탈	-4955
▁배열	-4956
▁벼슬	-4957
▁엉	-4958
야스	-4959
▁강요	-4960
▁한성	-4961
▁안쪽	-4962
▁찾아가	-4963
데르	-4964
▁함경	-4965
▁국방부	-4966
▁페리	-4967
▁마감	-4968
▁MS	-4969
▁선로	-4970
▁중동	-4971
▁호흡	-4972
페이스	-4973
조선	-4974
▁탓	-4975
ard	-4976
▁중지	-4977
▁추적	-4978
▁편의	-4979
▁경찰서	-4980
▁할아버지	-4981
▁투스	-4982
▁혈액	-4983
▁스크린	-4984
▁성서	-4985
▁이벤트	-4986
▁메르	-4987
▁평면	-4988
▁거스	-4989
▁주자	-4990
▁대원	-4991
워하	-4992
▁느리	-4993
▁포드	-4994
고속	-4995
▁대사관	-4996
어로	-4997
키퍼	-4998
▁구사	-4999
▁골키퍼	-5000
AN	-5001
▁농장	-5002
▁자매	-5003
▁철거	-5004
▁1934	-5005
▁북미	-5006
▁쿠바	-5007
▁De	-5008
▁입구	-5009
세대	-5010
▁가볍	-5011
▁멈추	-5012
▁거느리	-5013
▁아프가니	-5014
베르크	-5015
▁스케이	-5016
▁떼	-5017
▁놀이	-5018
▁풍속	-5019
▁스탈린	-5020
▁요코하마	-5021
▁페이스	-5022
▁빵	-5023
공업	-5024
▁본토	-5025
▁봉기	-5026
▁근육	-5027
▁장례	-5028
▁보스턴	-5029
▁판타	-5030
▁히어로	-5031
▁정확히	-5032
▁닐	-5033
▁밸	-5034
▁야당	-5035
▁노동당	-5036
성기	-5037
유키	-5038
▁광산	-5039
▁동구	-5040
▁현존	-5041
레오	-5042
아르	-5043
▁130	-5044
▁뱀	-5045
▁Me	-5046
▁식량	-5047
▁구로	-5048
▁철학자	-5049
▁얀	-5050
▁정조	-5051
▁맨체스터	-5052
▁거점	-5053
▁코어	-5054
▁관계자	-5055
▁나이트	-5056
▁토머스	-5057
▁대동	-5058
▁글리	-5059
▁항해	-5060
드라	-5061
▁유키	-5062
▁내려가	-5063
제르	-5064
▁사망자	-5065
▁젤	-5066
즈니	-5067
▁동메달	-5068
ne	-5069
▁부처	-5070
▁은메달	-5071
▁선물	-5072
▁대다수	-5073
▁농촌	-5074
▁남극	-5075
▁카리	-5076
보내	-5077
▁모자	-5078
▁시계	-5079
▁140	-5080
▁접속	-5081
▁도쿠가와	-5082
▁초청	-5083
▁중계	-5084
▁새끼	-5085
▁그러므로	-5086
▁역전	-5087
▁사카	-5088
▁발전소	-5089
▁필립	-5090
▁돔	-5091
▁훼	-5092
하이	-5093
▁아프가니스탄	-5094
▁독점	-5095
▁레지	-5096
위대	-5097
▁김구	-5098
▁복사	-5099
▁특별히	-5100
▁알렉산더	-5101
레아	-5102
▁Sh	-5103
▁테르	-5104
▁재판소	-5105
▁안내	-5106
▁겸하	-5107
▁중성	-5108
▁건너가	-5109
▁칼리지	-5110
▁증권	-5111
▁합리	-5112
▁새벽	-5113
▁커다랗	-5114
돌프	-5115
▁문재	-5116
▁휘하	-5117
▁교향곡	-5118
▁매주	-5119
▁르네	-5120
▁화합물	-5121
안군	-5122
▁비중	-5123
▁세금	-5124
▁곤충	-5125
▁오염	-5126
▁구리	-5127
▁유력	-5128
▁물리치	-5129
▁토너	-5130
▁위안	-5131
▁훌륭	-5132
OR	-5133
레이크	-5134
▁로맨	-5135
▁파울	-5136
▁모노	-5137
▁재임	-5138
▁달라지	-5139
▁관객	-5140
▁이정	-5141
▁th	-5142
크래프트	-5143
▁1931	-5144
▁체육관	-5145
베리	-5146
▁생애	-5147
▁코너	-5148
▁박근	-5149
▁부드	-5150
▁타점	-5151
▁부호	-5152
▁폭풍	-5153
▁리아	-5154
▁뚜렷	-5155
▁석방	-5156
▁히로시마	-5157
▁부품	-5158
▁강등	-5159
▁진동	-5160
▁일곱	-5161
▁간격	-5162
▁기병	-5163
▁종전	-5164
▁대변	-5165
▁감옥	-5166
▁원조	-5167
▁존슨	-5168
▁찾아오	-5169
▁미카	-5170
▁아비	-5171
▁그리스어	-5172
▁계수	-5173
▁펄	-5174
느님	-5175
▁금강	-5176
▁타카	-5177
▁명시	-5178
▁하느님	-5179
▁대결	-5180
▁도망치	-5181
▁클래스	-5182
밀리	-5183
▁멸종	-5184
▁ST	-5185
▁기르	-5186
▁후퇴	-5187
▁목포	-5188
all	-5189
▁자유주의	-5190
▁장점	-5191
▁하사	-5192
▁심리학	-5193
▁교도	-5194
▁캠프	-5195
게이	-5196
▁1921	-5197
▁윤리	-5198
AM	-5199
나르	-5200
▁250	-5201
▁꾼	-5202
▁무늬	-5203
▁cod	-5204
▁타원	-5205
▁숙종	-5206
▁버지	-5207
▁올라오	-5208
▁유발	-5209
▁해협	-5210
▁176	-5211
▁목숨	-5212
▁좌파	-5213
시스트	-5214
▁지휘관	-5215
▁가구	-5216
▁스트라이	-5217
▁An	-5218
▁일환	-5219
▁아이스	-5220
▁덕분	-5221
▁지칭	-5222
▁첫째	-5223
▁그래프	-5224
▁수비수	-5225
▁유대인	-5226
▁킬로	-5227
▁김대중	-5228
▁기생	-5229
▁살아	-5230
▁성명	-5231
▁부드럽	-5232
▁공룡	-5233
▁극복	-5234
▁마그	-5235
▁코트	-5236
▁단장	-5237
▁토너먼트	-5238
▁공세	-5239
▁동성애	-5240
널드	-5241
▁닮	-5242
ang	-5243
▁강전	-5244
▁WW	-5245
▁소요	-5246
▁빗	-5247
▁무겁	-5248
▁필라	-5249
▁하버	-5250
▁1929	-5251
둥이	-5252
▁착용	-5253
▁칙	-5254
▁비틀	-5255
▁약탈	-5256
▁트랜스	-5257
▁연호	-5258
▁조문	-5259
▁수반	-5260
수량	-5261
▁집필	-5262
▁는다고	-5263
▁아틀	-5264
▁키스	-5265
▁특허	-5266
▁자이언츠	-5267
▁05	-5268
▁쯤	-5269
▁평론가	-5270
▁비즈	-5271
▁부작	-5272
▁사관	-5273
▁스테이션	-5274
▁조화	-5275
▁캡	-5276
▁운동가	-5277
▁연상	-5278
▁동반	-5279
▁1925	-5280
▁갤럭	-5281
▁곰	-5282
▁도메	-5283
▁기갑	-5284
▁1923	-5285
▁y	-5286
▁잠재	-5287
▁램	-5288
▁매니	-5289
산물	-5290
▁롬	-5291
▁다다	-5292
▁발휘	-5293
▁공국	-5294
▁의석	-5295
투아	-5296
▁라트	-5297
슬리	-5298
▁첸	-5299
▁이수	-5300
▁살아남	-5301
▁연평균	-5302
▁인터페이스	-5303
미아	-5304
▁건담	-5305
▁영혼	-5306
▁삼각	-5307
▁성직자	-5308
▁가끔	-5309
▁고고	-5310
▁협약	-5311
▁갤럭시	-5312
▁북아메리카	-5313
ss	-5314
▁지부	-5315
▁딱	-5316
▁입사	-5317
▁섬유	-5318
▁도호	-5319
▁타입	-5320
클린	-5321
▁임신	-5322
마이	-5323
▁근로	-5324
▁요원	-5325
▁지역구	-5326
▁플로리다	-5327
▁과일	-5328
무게	-5329
▁불화	-5330
▁원장	-5331
▁몸무게	-5332
▁추대	-5333
▁연계	-5334
▁영감	-5335
▁07	-5336
▁AC	-5337
▁장갑	-5338
▁틱	-5339
▁모로	-5340
▁고서	-5341
▁발렌	-5342
▁선교사	-5343
▁압축	-5344
▁추락	-5345
▁웨일스	-5346
타카	-5347
▁관리자	-5348
▁똑같	-5349
▁샤를	-5350
▁대한제국	-5351
▁중립	-5352
▁카페	-5353
▁북서쪽	-5354
▁모험	-5355
▁우드	-5356
▁박근혜	-5357
▁디오	-5358
▁트레이	-5359
대문	-5360
▁영광	-5361
▁갱	-5362
▁유비	-5363
▁시게	-5364
▁채권	-5365
카스	-5366
ity	-5367
▁박스	-5368
▁삭제	-5369
▁진술	-5370
추어	-5371
▁사당	-5372
▁고분	-5373
▁레벨	-5374
▁이조	-5375
▁일자	-5376
▁유성	-5377
베이스	-5378
▁남아메리카	-5379
▁단선	-5380
▁압도	-5381
▁진흥	-5382
키스	-5383
▁결심	-5384
▁리스트	-5385
▁망원경	-5386
▁하와이	-5387
▁둔	-5388
▁161	-5389
▁캘리포니아주	-5390
▁철저	-5391
▁수직	-5392
▁종로	-5393
▁돌파	-5394
▁페루	-5395
▁북극	-5396
▁필름	-5397
▁제약	-5398
▁주사	-5399
▁꼽히	-5400
▁미분	-5401
▁서인	-5402
▁동인	-5403
▁SC	-5404
▁부탁	-5405
▁설비	-5406
▁유가	-5407
▁기관차	-5408
▁다이묘	-5409
▁빅토리아	-5410
▁변신	-5411
▁준우	-5412
▁주류	-5413
▁그랜드	-5414
ff	-5415
▁교과	-5416
▁홀로	-5417
▁때로	-5418
▁민속	-5419
▁중시	-5420
▁사거리	-5421
▁EP	-5422
▁복구	-5423
▁카자	-5424
▁향토	-5425
▁청동	-5426
▁이날	-5427
부사	-5428
▁무릎	-5429
▁파운드	-5430
▁트럼	-5431
▁성씨	-5432
▁피트	-5433
▁175	-5434
▁1922	-5435
▁청하	-5436
▁각자	-5437
▁도마뱀	-5438
▁부수	-5439
▁프로세서	-5440
▁바오	-5441
▁부유	-5442
▁여인	-5443
태우	-5444
▁모음	-5445
▁수장	-5446
▁없애	-5447
▁문인	-5448
▁칼리	-5449
▁codice	-5450
▁도어	-5451
▁아기	-5452
▁삼각형	-5453
▁엽	-5454
▁평생	-5455
▁레이블	-5456
행성	-5457
▁틸	-5458
▁서적	-5459
즈키	-5460
▁음모	-5461
▁화가	-5462
▁프레임	-5463
▁유역	-5464
▁명사	-5465
▁My	-5466
▁중구	-5467
애나	-5468
▁de	-5469
일본	-5470
▁모래	-5471
▁엘리자베스	-5472
▁유용	-5473
▁버지니아	-5474
▁가톨릭교회	-5475
▁인천광역시	-5476
▁고안	-5477
▁지연	-5478
▁규슈	-5479
▁윤치	-5480
▁직위	-5481
▁토벌	-5482
▁공격수	-5483
▁투구	-5484
▁파트너	-5485
▁직선	-5486
▁최상	-5487
▁루트비히	-5488
▁노무	-5489
▁1912	-5490
▁KT	-5491
▁표지	-5492
▁황태	-5493
오리	-5494
프란	-5495
▁리치	-5496
▁국민당	-5497
▁노비	-5498
▁라마	-5499
▁어워드	-5500
▁문법	-5501
▁죠	-5502
▁무산	-5503
▁자치구	-5504
▁아과	-5505
▁Love	-5506
▁크레	-5507
메니아	-5508
▁왕가	-5509
니즘	-5510
▁164	-5511
▁교차로	-5512
▁무인	-5513
양군	-5514
▁간섭	-5515
▁네이션	-5516
▁구미	-5517
▁베토	-5518
▁실점	-5519
▁글씨	-5520
▁인력	-5521
▁수상자	-5522
▁납치	-5523
▁봉사	-5524
▁Go	-5525
▁상처	-5526
눅스	-5527
▁사토	-5528
▁영조	-5529
▁침해	-5530
▁벨라	-5531
▁왈	-5532
▁패턴	-5533
▁모니	-5534
ong	-5535
▁""	-5536
▁퍼시	-5537
▁동일본	-5538
▁블라디	-5539
▁포유	-5540
멘트	-5541
▁소설가	-5542
▁자책	-5543
▁장사	-5544
▁아르메니아	-5545
▁리눅스	-5546
타운	-5547
▁MV	-5548
▁랭킹	-5549
▁SM	-5550
▁지중해	-5551
▁1908	-5552
▁릭	-5553
▁아마추어	-5554
야수	-5555
▁교역	-5556
▁연령	-5557
▁호조	-5558
▁경유	-5559
라이터	-5560
▁목조	-5561
▁배상	-5562
▁이종	-5563
▁스케이팅	-5564
아리	-5565
▁사촌	-5566
▁연소	-5567
▁06	-5568
▁수지	-5569
▁1906	-5570
▁전향	-5571
▁건축물	-5572
▁제주도	-5573
▁보통학교	-5574
up	-5575
▁매각	-5576
▁태자	-5577
▁과도	-5578
▁돼지	-5579
보살	-5580
멘터리	-5581
▁베타	-5582
▁남동쪽	-5583
▁1917	-5584
▁토르	-5585
▁적응	-5586
▁아가	-5587
▁시상식	-5588
▁마카	-5589
▁적어도	-5590
사관	-5591
슬로	-5592
▁출현	-5593
▁싫	-5594
▁준우승	-5595
▁플레	-5596
▁육성	-5597
ip	-5598
도니아	-5599
▁JR	-5600
▁정자	-5601
▁삽입	-5602
▁전승	-5603
마치	-5604
스팅	-5605
▁히가시	-5606
▁에스파	-5607
▁1927	-5608
▁통로	-5609
▁쇠퇴	-5610
▁조명	-5611
▁커피	-5612
▁명문	-5613
▁안양	-5614
▁크림	-5615
▁다양체	-5616
ld	-5617
▁03	-5618
▁북동쪽	-5619
ant	-5620
▁우루	-5621
▁우익	-5622
ED	-5623
IS	-5624
▁유인	-5625
▁시집	-5626
▁앨런	-5627
▁이토	-5628
▁과장	-5629
▁커지	-5630
▁대행	-5631
▁정서	-5632
▁부동산	-5633
▁1907	-5634
▁관중	-5635
▁모듈	-5636
▁별로	-5637
▁스와	-5638
▁시아	-5639
▁굿	-5640
▁기압	-5641
▁몬테	-5642
OM	-5643
▁인자	-5644
▁렉	-5645
▁보좌	-5646
▁전작	-5647
▁호르	-5648
▁흙	-5649
▁노인	-5650
▁배급	-5651
▁옹호	-5652
▁베토벤	-5653
▁색상	-5654
▁연금	-5655
▁외계	-5656
▁의병	-5657
▁탐험	-5658
▁폐기	-5659
▁BBC	-5660
영상	-5661
▁석조	-5662
▁체인	-5663
▁표본	-5664
▁다큐멘터리	-5665
▁험	-5666
▁럭	-5667
▁SN	-5668
▁놀라	-5669
▁단행	-5670
▁창간	-5671
▁1926	-5672
▁사신	-5673
▁종족	-5674
▁협의회	-5675
▁밀라노	-5676
▁우크라이나	-5677
몬드	-5678
▁항목	-5679
▁꺼	-5680
▁자문	-5681
▁산악	-5682
▁선제	-5683
▁안보	-5684
▁산타	-5685
▁호남	-5686
▁168	-5687
▁포크	-5688
▁앱	-5689
▁탑승	-5690
▁헤드	-5691
페이지	-5692
▁아무런	-5693
▁수감	-5694
▁상하이	-5695
▁슐	-5696
▁무선	-5697
▁왕립	-5698
▁He	-5699
▁겨우	-5700
▁유입	-5701
▁해설	-5702
▁동아시아	-5703
티움	-5704
▁머물	-5705
av	-5706
▁급속	-5707
▁내장	-5708
▁진지	-5709
생물	-5710
이즈	-5711
▁문하	-5712
▁꾸미	-5713
▁송라이터	-5714
▁대교	-5715
스토	-5716
▁노조	-5717
▁아울	-5718
▁패러	-5719
▁비전	-5720
▁꾸준히	-5721
▁PD	-5722
▁자전거	-5723
▁상영	-5724
▁지름	-5725
▁스틸	-5726
▁NHK	-5727
▁연고지	-5728
▁세조	-5729
ind	-5730
▁묘지	-5731
▁좌익	-5732
▁디즈니	-5733
런트	-5734
슬라	-5735
▁하천	-5736
▁최우수	-5737
튜브	-5738
▁사료	-5739
▁에릭	-5740
▁기종	-5741
▁유신	-5742
▁홈페이지	-5743
다이라	-5744
▁동사	-5745
▁원로	-5746
▁162	-5747
▁합계	-5748
▁ㄴ다고	-5749
로프	-5750
▁엄마	-5751
▁166	-5752
ame	-5753
▁기름	-5754
▁정사	-5755
▁레이다	-5756
▁1905	-5757
▁민족주의	-5758
페인	-5759
▁물려	-5760
▁오리지	-5761
AC	-5762
▁유튜브	-5763
▁시에	-5764
▁제후	-5765
se	-5766
▁룩	-5767
▁대조	-5768
▁비평가	-5769
텐도	-5770
▁예외	-5771
▁기하학	-5772
▁닌텐도	-5773
▁콩고	-5774
려나	-5775
▁Sp	-5776
▁비단	-5777
▁뚫	-5778
▁흥미	-5779
총장	-5780
▁산지	-5781
▁독일어	-5782
▁묻히	-5783
▁151	-5784
▁곧바로	-5785
브스	-5786
▁||	-5787
▁스승	-5788
▁바이올	-5789
세스	-5790
▁버그	-5791
▁문화유산	-5792
▁색깔	-5793
▁바라보	-5794
▁선진	-5795
▁소니	-5796
▁사이클	-5797
▁증기	-5798
▁품질	-5799
플레이	-5800
▁스페셜	-5801
▁조선인	-5802
▁모집	-5803
▁수명	-5804
▁시외	-5805
▁수천	-5806
▁운명	-5807
▁드래곤	-5808
▁목격	-5809
▁주말	-5810
▁요미	-5811
▁트럭	-5812
나카	-5813
▁가쓰	-5814
▁도리	-5815
▁리듬	-5816
▁158	-5817
ES	-5818
ry	-5819
▁리얼	-5820
▁방안	-5821
▁셋째	-5822
▁참조	-5823
▁데이터베이스	-5824
▁랴	-5825
지마	-5826
▁반환	-5827
▁우르	-5828
스티벌	-5829
▁마일	-5830
▁악장	-5831
▁유닛	-5832
▁주한	-5833
▁역과	-5834
▁조르	-5835
▁협의	-5836
▁주의자	-5837
▁커뮤니티	-5838
스케	-5839
▁나폴리	-5840
▁아크	-5841
▁광역	-5842
▁이오	-5843
▁페스티벌	-5844
▁쥬	-5845
어트	-5846
ith	-5847
▁상소	-5848
▁원산	-5849
▁칩	-5850
무네	-5851
▁문과	-5852
▁일행	-5853
▁라이온	-5854
▁유고슬	-5855
▁유고슬라비아	-5856
▁02	-5857
▁빨리	-5858
엘라	-5859
▁입증	-5860
▁지바	-5861
▁정류장	-5862
▁크리스토	-5863
▁대안	-5864
잡히	-5865
▁날리	-5866
▁옛날	-5867
▁라이벌	-5868
▁할리	-5869
▁신비	-5870
▁분배	-5871
▁이리	-5872
▁점성	-5873
▁남서쪽	-5874
▁십자군	-5875
ort	-5876
▁사리	-5877
▁수수	-5878
▁주거	-5879
▁가미	-5880
▁야생	-5881
▁레이스	-5882
▁무관	-5883
▁자바	-5884
▁브라이언	-5885
▁한나라	-5886
▁구마	-5887
▁도심	-5888
▁되찾	-5889
▁한나라당	-5890
▁기점	-5891
▁입문	-5892
▁기용	-5893
▁주파	-5894
▁운반	-5895
▁스피드	-5896
▁플루	-5897
프란시스코	-5898
ok	-5899
▁토니	-5900
▁오디션	-5901
▁샌프란시스코	-5902
▁사면	-5903
▁재무	-5904
▁배제	-5905
▁향년	-5906
▁저지르	-5907
▁특급	-5908
▁인치	-5909
▁인텔	-5910
▁베이스볼	-5911
▁동치	-5912
▁서북	-5913
▁적색	-5914
▁사직	-5915
▁쿠르	-5916
▁디자이너	-5917
▁마라	-5918
▁콜롬비아	-5919
▁직장	-5920
▁연주자	-5921
▁안드로이드	-5922
▁초래	-5923
▁폭스	-5924
▁출판사	-5925
프스	-5926
해군	-5927
회의	-5928
▁신임	-5929
▁미네	-5930
▁당사자	-5931
▁동영상	-5932
▁단층	-5933
▁미만	-5934
▁기념물	-5935
▁케이블	-5936
▁렌즈	-5937
▁마스	-5938
▁정교	-5939
▁프랜	-5940
▁오리지널	-5941
▁평소	-5942
▁단종	-5943
▁출산	-5944
▁마케도니아	-5945
▁부시	-5946
▁와카	-5947
▁스테이지	-5948
루살	-5949
▁긴급	-5950
▁묘소	-5951
쳐지	-5952
▁개수	-5953
▁1904	-5954
▁복제	-5955
▁부패	-5956
루살렘	-5957
▁지휘자	-5958
▁템	-5959
▁사로	-5960
▁알라	-5961
▁석탑	-5962
▁예술가	-5963
▁예언	-5964
▁콘스탄티노	-5965
▁좌석	-5966
프라	-5967
▁기재	-5968
▁왕족	-5969
▁용기	-5970
▁서경	-5971
▁165	-5972
▁관장	-5973
▁진도	-5974
▁챌	-5975
▁교전	-5976
▁파생	-5977
▁모순	-5978
▁의거	-5979
▁입히	-5980
▁Un	-5981
▁자사	-5982
▁Wh	-5983
▁권고	-5984
▁가게	-5985
▁상무	-5986
▁센트럴	-5987
▁마쓰다이라	-5988
▁판타지	-5989
▁내륙	-5990
▁여동생	-5991
▁급행	-5992
▁신하	-5993
교육	-5994
▁계단	-5995
▁트레	-5996
▁합작	-5997
▁수면	-5998
▁압박	-5999
문학	-6000
▁154	-6001
리케이션	-6002
ob	-6003
ord	-6004
▁파나	-6005
▁겹치	-6006
▁비즈니스	-6007
▁오타	-6008
▁Se	-6009
▁동전	-6010
▁무슬	-6011
▁예루살렘	-6012
터스	-6013
▁무신	-6014
qu	-6015
▁받침	-6016
▁사르	-6017
▁항일	-6018
▁DJ	-6019
▁가득	-6020
▁용산	-6021
▁156	-6022
▁신용	-6023
페이	-6024
▁163	-6025
려오	-6026
모니	-6027
가스	-6028
▁정계	-6029
▁그랑	-6030
▁링크	-6031
▁스펙트	-6032
▁이명박	-6033
▁바이올린	-6034
경기	-6035
▁연애	-6036
▁훼손	-6037
▁대단	-6038
▁167	-6039
▁무슬림	-6040
▁도메인	-6041
우옌	-6042
▁사범	-6043
▁AM	-6044
▁크리스티	-6045
▁상임	-6046
▁스쿨	-6047
▁얼음	-6048
▁이지	-6049
디스	-6050
▁밀접	-6051
▁비로	-6052
▁SF	-6053
▁깔	-6054
▁끼리	-6055
▁진상	-6056
▁스펙트럼	-6057
▁여신	-6058
▁리투아	-6059
▁회원국	-6060
▁리투아니아	-6061
▁900	-6062
ate	-6063
PS	-6064
▁호환	-6065
▁과제	-6066
식물	-6067
▁아인	-6068
▁조국	-6069
▁타마	-6070
▁서울시	-6071
▁시달리	-6072
랑이	-6073
▁전염	-6074
▁충남	-6075
▁노무현	-6076
▁미얀	-6077
▁챌린	-6078
▁분지	-6079
▁스마트폰	-6080
▁친정	-6081
▁한양	-6082
▁씌	-6083
▁조류	-6084
▁게시	-6085
▁자마	-6086
카르	-6087
▁지주	-6088
▁참판	-6089
▁자회사	-6090
▁장편	-6091
▁와중	-6092
▁발효	-6093
▁번식	-6094
▁고립	-6095
▁ᆯ수록	-6096
▁비잔티움	-6097
껍질	-6098
지르	-6099
▁바그	-6100
▁애국	-6101
▁었었	-6102
▁우지	-6103
▁저기	-6104
▁WWE	-6105
▁니스	-6106
▁선사	-6107
▁예능	-6108
▁샹	-6109
▁교섭	-6110
▁식사	-6111
▁디비전	-6112
▁어항	-6113
▁파동	-6114
▁혜성	-6115
▁끄	-6116
▁쇼군	-6117
▁기아	-6118
▁착륙	-6119
▁차관	-6120
▁일요일	-6121
킨스	-6122
IC	-6123
▁무라	-6124
▁지장	-6125
▁오케스트라	-6126
▁오다	-6127
▁피스	-6128
▁팅	-6129
▁선두	-6130
▁UN	-6131
▁피렌	-6132
▁주립	-6133
잡이	-6134
▁시체	-6135
▁부흥	-6136
▁포맷	-6137
길이	-6138
커스	-6139
▁농도	-6140
▁서브	-6141
▁성종	-6142
▁139	-6143
▁융합	-6144
▁진나라	-6145
▁부자	-6146
▁잊	-6147
▁옌	-6148
▁아베	-6149
▁구장	-6150
▁하트	-6151
▁알바니아	-6152
▁AS	-6153
▁최신	-6154
▁충성	-6155
로디	-6156
▁야기	-6157
▁쿠스	-6158
▁련	-6159
▁소나	-6160
▁요크	-6161
럼비아	-6162
▁행정부	-6163
▁대령	-6164
▁바티	-6165
부인	-6166
예프	-6167
▁용량	-6168
▁월간	-6169
▁위주	-6170
▁145	-6171
▁뜨겁	-6172
▁강연	-6173
▁보전	-6174
▁낱	-6175
▁기타리스트	-6176
▁간접	-6177
▁거인	-6178
▁점유	-6179
ET	-6180
▁발족	-6181
▁유하	-6182
▁투명	-6183
ast	-6184
▁차체	-6185
▁공과	-6186
▁해인	-6187
▁굉	-6188
▁전이	-6189
▁마리오	-6190
▁아이디	-6191
▁학파	-6192
▁MVP	-6193
▁하드웨어	-6194
▁이에	-6195
▁개발자	-6196
▁관찰사	-6197
▁주머니	-6198
▁착수	-6199
▁킬로미터	-6200
▁김동	-6201
▁브라우	-6202
▁부통령	-6203
▁스트리트	-6204
▁전임	-6205
▁제네	-6206
▁지질	-6207
▁아이디어	-6208
▁샬	-6209
▁고조	-6210
▁디젤	-6211
▁측근	-6212
DP	-6213
▁사사	-6214
▁임상	-6215
▁피렌체	-6216
▁번주	-6217
▁부도	-6218
▁HIV	-6219
▁마케팅	-6220
▁응우옌	-6221
▁중국어	-6222
▁마산	-6223
▁완화	-6224
▁거스르	-6225
▁몸길이	-6226
▁규명	-6227
▁전지	-6228
▁페어	-6229
▁관광객	-6230
▁넬	-6231
랑크	-6232
수아	-6233
▁아세	-6234
어내	-6235
▁권유	-6236
▁미나미	-6237
▁정벌	-6238
▁배정	-6239
데이트	-6240
▁경선	-6241
▁전두	-6242
▁하노	-6243
if	-6244
▁성공회	-6245
▁중도	-6246
▁맥스	-6247
▁뱅크	-6248
▁1896	-6249
▁업데이트	-6250
▁전류	-6251
▁제의	-6252
트롤	-6253
트니	-6254
▁구동	-6255
▁트윈	-6256
▁귀환	-6257
주곡	-6258
▁출구	-6259
레이터	-6260
▁피에르	-6261
▁변동	-6262
▁공용	-6263
ack	-6264
▁형법	-6265
▁턴	-6266
란트	-6267
ive	-6268
▁사바	-6269
▁성벽	-6270
▁DS	-6271
▁석탄	-6272
IT	-6273
▁공전	-6274
▁보드	-6275
▁여덟	-6276
균관	-6277
루미	-6278
▁스콧	-6279
▁청와	-6280
ure	-6281
▁로빈	-6282
▁검증	-6283
▁연수	-6284
▁게이트	-6285
▁짙	-6286
▁174	-6287
▁살아가	-6288
▁존경	-6289
▁둘러싸이	-6290
▁젖	-6291
츠키	-6292
▁친선	-6293
리티	-6294
악기	-6295
▁세례	-6296
▁IP	-6297
▁실용	-6298
▁정찰	-6299
▁청와대	-6300
▁수학자	-6301
▁인과	-6302
▁중독	-6303
▁5000	-6304
▁스타크래프트	-6305
▁마운	-6306
▁오렌	-6307
▁플라스	-6308
▁우즈	-6309
▁요미우리	-6310
▁애플리케이션	-6311
▁관습	-6312
▁자면	-6313
▁152	-6314
▁노동조합	-6315
▁사명	-6316
▁수산	-6317
▁조용	-6318
▁지각	-6319
▁옐	-6320
ock	-6321
▁서열	-6322
문관	-6323
운서	-6324
▁미하	-6325
▁전장	-6326
▁피난	-6327
▁시드니	-6328
iv	-6329
▁소송법	-6330
▁행진	-6331
▁기울이	-6332
▁얼마나	-6333
▁아나운서	-6334
결승	-6335
▁쇼핑	-6336
▁메디	-6337
▁테일러	-6338
▁뷔	-6339
▁전진	-6340
▁곁	-6341
▁리오	-6342
▁157	-6343
▁장성	-6344
▁서일본	-6345
▁쏟	-6346
토미	-6347
▁사인	-6348
▁호평	-6349
▁전문학교	-6350
▁테오	-6351
▁꼴	-6352
▁규격	-6353
▁밀양	-6354
▁한화	-6355
▁Ar	-6356
▁시라	-6357
▁상상	-6358
▁자율	-6359
▁한강	-6360
▁루수	-6361
▁저기압	-6362
▁신전	-6363
▁준공	-6364
ck	-6365
▁고개	-6366
▁금성	-6367
▁해전	-6368
▁아울러	-6369
폴리스	-6370
▁문재인	-6371
▁판매량	-6372
▁빌헬	-6373
▁퇴각	-6374
▁수신	-6375
▁고사	-6376
▁관념	-6377
▁회수	-6378
▁적대	-6379
▁킨	-6380
▁이슈	-6381
▁좌표	-6382
▁다이아	-6383
▁뿔	-6384
▁프로세스	-6385
▁급진	-6386
▁염색	-6387
▁구제	-6388
▁번뇌	-6389
▁신칸	-6390
▁여의	-6391
▁연구자	-6392
▁취약	-6393
▁힘쓰	-6394
▁미스터	-6395
▁흥행	-6396
▁하버드	-6397
▁책봉	-6398
▁카나	-6399
가루	-6400
▁관현	-6401
▁몰락	-6402
▁비극	-6403
▁성균관	-6404
▁무효	-6405
▁장인	-6406
▁자손	-6407
▁지분	-6408
▁가즈	-6409
▁아니하	-6410
외선	-6411
▁백신	-6412
▁응답	-6413
끄럽	-6414
▁카시	-6415
▁해임	-6416
▁할당	-6417
산군	-6418
트랙	-6419
전자	-6420
▁들리	-6421
▁상류	-6422
▁연루	-6423
▁이순	-6424
▁김용	-6425
▁복소	-6426
수수	-6427
▁식당	-6428
▁쳐	-6429
▁충족	-6430
▁휩	-6431
▁따위	-6432
원숭이	-6433
▁MP	-6434
▁국어	-6435
▁소금	-6436
▁1500	-6437
▁쇄	-6438
카드	-6439
▁마찰	-6440
▁통행	-6441
니스트	-6442
▁제휴	-6443
▁125	-6444
▁달아나	-6445
▁서독	-6446
▁악마	-6447
하르트	-6448
▁문제점	-6449
▁메가	-6450
▁146	-6451
▁j	-6452
▁두드	-6453
포스	-6454
▁믿음	-6455
▁승차	-6456
▁천문학	-6457
혁명	-6458
▁에티	-6459
▁105	-6460
▁흩	-6461
▁니아	-6462
악단	-6463
▁소총	-6464
▁창업	-6465
▁3000	-6466
▁끈	-6467
메르	-6468
▁루터	-6469
▁자고	-6470
▁적히	-6471
▁히스	-6472
▁매출	-6473
자와	-6474
▁파스	-6475
▁남양	-6476
▁패전	-6477
▁마오	-6478
▁강사	-6479
▁박영	-6480
▁서서	-6481
▁외무	-6482
▁유출	-6483
▁남인	-6484
▁여수	-6485
▁로고	-6486
▁저택	-6487
▁자책점	-6488
▁나미	-6489
▁우정	-6490
▁동남아시아	-6491
12	-6492
▁소지	-6493
▁술탄	-6494
▁곳곳	-6495
▁착공	-6496
▁1911	-6497
ime	-6498
▁민국	-6499
▁이노	-6500
▁신칸센	-6501
▁윌슨	-6502
▁노드	-6503
▁성전	-6504
▁조언	-6505
▁히라	-6506
▁이복	-6507
▁얇	-6508
▁단원	-6509
▁내내	-6510
▁와인	-6511
▁떠오르	-6512
고속도로	-6513
▁나열	-6514
▁두르	-6515
▁원나라	-6516
▁지지자	-6517
▁중점	-6518
▁항공모	-6519
▁지목	-6520
라트	-6521
▁회견	-6522
▁153	-6523
▁소닉	-6524
▁일렉	-6525
▁찾아보	-6526
일드	-6527
▁고원	-6528
▁청사	-6529
▁하마	-6530
▁갈라지	-6531
▁소재지	-6532
▁과목	-6533
▁석가	-6534
▁프로토콜	-6535
▁PS	-6536
▁소관	-6537
▁MC	-6538
▁고무	-6539
▁여래	-6540
▁이이	-6541
▁매개	-6542
서양	-6543
one	-6544
▁예배	-6545
펴보	-6546
▁Le	-6547
▁순천	-6548
▁빌헬름	-6549
▁살펴보	-6550
▁디비	-6551
▁유언	-6552
▁셈	-6553
▁사지	-6554
▁후자	-6555
▁103	-6556
▁카트	-6557
▁환상	-6558
▁희극	-6559
▁눈물	-6560
▁환원	-6561
▁회계	-6562
▁강수량	-6563
▁미얀마	-6564
▁힌두	-6565
▁폴리스	-6566
▁시외버스	-6567
제프	-6568
네이	-6569
▁특유	-6570
토시	-6571
▁성모	-6572
▁아즈	-6573
▁동위	-6574
▁매기	-6575
▁증후	-6576
▁배구	-6577
▁우주선	-6578
▁연인	-6579
▁클린	-6580
▁터지	-6581
▁편곡	-6582
▁마천	-6583
▁비아	-6584
팩트	-6585
▁주권	-6586
대군	-6587
▁중장	-6588
▁천사	-6589
▁얘	-6590
▁이글	-6591
▁진리	-6592
▁Pro	-6593
▁참가자	-6594
▁카자흐	-6595
▁보잉	-6596
▁채무	-6597
▁취재	-6598
▁포장	-6599
▁법령	-6600
▁일관	-6601
▁패스	-6602
▁비틀즈	-6603
ML	-6604
▁개업	-6605
▁공략	-6606
▁가라	-6607
▁반격	-6608
▁ISO	-6609
▁공자	-6610
▁오클	-6611
▁제트	-6612
Pa	-6613
▁기장	-6614
델피아	-6615
▁이어서	-6616
▁필라델피아	-6617
노프	-6618
▁고베	-6619
▁공인	-6620
▁별개	-6621
어리	-6622
▁친척	-6623
▁닭	-6624
▁겸임	-6625
▁나리	-6626
▁매사	-6627
▁선원	-6628
▁해역	-6629
받침	-6630
▁근접	-6631
▁점프	-6632
기니	-6633
노리	-6634
▁빼앗기	-6635
▁버튼	-6636
▁인격	-6637
▁최적	-6638
▁우편	-6639
▁삿	-6640
즈카	-6641
▁각기	-6642
▁토크	-6643
AP	-6644
▁시립	-6645
▁회화	-6646
▁대답	-6647
▁추모	-6648
▁굵	-6649
▁오렌지	-6650
▁협동	-6651
OC	-6652
▁게재	-6653
▁상자	-6654
▁출입구	-6655
▁두드러지	-6656
▁유격	-6657
▁중종	-6658
▁155	-6659
▁금액	-6660
▁내지	-6661
마사	-6662
▁격렬	-6663
▁보충	-6664
동물	-6665
▁각본가	-6666
▁독립운동가	-6667
▁아군	-6668
▁카타	-6669
▁위장	-6670
▁테스	-6671
▁사물	-6672
▁실종	-6673
▁매력	-6674
▁컨트롤	-6675
▁유해	-6676
▁이원	-6677
▁밭	-6678
리크	-6679
▁법무	-6680
▁지우	-6681
▁나고	-6682
▁허브	-6683
▁정치가	-6684
▁동등	-6685
▁태우	-6686
▁인형	-6687
▁주파수	-6688
▁108	-6689
▁사가	-6690
▁항공모함	-6691
▁포수	-6692
▁Bo	-6693
▁담배	-6694
▁이인	-6695
▁토리	-6696
▁합법	-6697
▁별자리	-6698
소스	-6699
시온	-6700
▁이영	-6701
te	-6702
▁민영	-6703
▁오키나	-6704
▁생일	-6705
▁앞면	-6706
▁증후군	-6707
▁레전	-6708
▁미소	-6709
▁두산	-6710
▁리메	-6711
▁성주	-6712
▁양상	-6713
▁이바	-6714
▁미루	-6715
▁평행	-6716
▁북동부	-6717
▁민사	-6718
▁유교	-6719
▁사우디아	-6720
▁영동	-6721
▁오디오	-6722
때로	-6723
플러	-6724
▁서서히	-6725
▁일찍이	-6726
▁토요일	-6727
▁룰	-6728
▁감지	-6729
▁아리스	-6730
▁스터	-6731
▁트라이	-6732
▁서해	-6733
▁자발	-6734
▁고체	-6735
▁Con	-6736
▁에이스	-6737
상스	-6738
▁건의	-6739
▁아바	-6740
▁베르크	-6741
▁전두환	-6742
▁준결승	-6743
▁상대방	-6744
▁히데요시	-6745
▁외곽	-6746
▁스파이	-6747
▁만세	-6748
산면	-6749
▁개찰구	-6750
▁쉐	-6751
▁하우	-6752
▁꾀	-6753
▁박탈	-6754
▁상부	-6755
▁추격	-6756
▁에디	-6757
▁때때로	-6758
▁화살	-6759
io	-6760
▁승무원	-6761
▁시청자	-6762
▁갓	-6763
▁무려	-6764
▁일족	-6765
▁전례	-6766
항공	-6767
ber	-6768
▁이사장	-6769
▁브래	-6770
▁아케	-6771
▁야간	-6772
▁김영삼	-6773
▁퍼시픽	-6774
산리	-6775
▁교장	-6776
▁에우	-6777
▁트럼프	-6778
▁1909	-6779
▁앙리	-6780
▁입상	-6781
▁고발	-6782
▁나고야	-6783
▁하인리히	-6784
▁싸이	-6785
▁호세	-6786
▁드라이브	-6787
▁IT	-6788
▁물자	-6789
▁섞이	-6790
▁캠페인	-6791
▁크리스마스	-6792
▁세균	-6793
▁생명체	-6794
▁사다	-6795
▁홍수	-6796
▁아우구	-6797
▁골프	-6798
▁상장	-6799
베이터	-6800
▁교단	-6801
▁궁정	-6802
퍼니	-6803
▁해운	-6804
러미	-6805
화점	-6806
▁기금	-6807
▁외국어	-6808
▁트위	-6809
▁그만두	-6810
▁부착	-6811
▁대주교	-6812
▁이슬람교	-6813
다드	-6814
▁수성	-6815
▁연도	-6816
▁128	-6817
▁보스니아	-6818
▁긴장	-6819
▁149	-6820
▁레이저	-6821
가타	-6822
▁가르침	-6823
▁명의	-6824
▁자마자	-6825
▁대외	-6826
▁배틀	-6827
▁집계	-6828
▁송나라	-6829
▁콜라	-6830
▁네이버	-6831
▁운동장	-6832
▁피고	-6833
라이트	-6834
▁ᆯ까	-6835
▁대군	-6836
▁전도	-6837
▁정밀	-6838
▁짜리	-6839
▁맵	-6840
▁존중	-6841
▁102	-6842
▁톈	-6843
▁사우디아라비아	-6844
구장	-6845
▁복장	-6846
▁향교	-6847
▁#	-6848
모어	-6849
▁트루	-6850
칠리아	-6851
라미	-6852
▁사용자	-6853
▁메타	-6854
▁호칭	-6855
▁제작자	-6856
▁르네상스	-6857
▁고가	-6858
▁남한	-6859
▁어드	-6860
▁펼쳐지	-6861
▁최저	-6862
▁건축가	-6863
람회	-6864
▁여주	-6865
▁안장	-6866
▁후안	-6867
트릭	-6868
▁슬라	-6869
▁중재	-6870
▁치세	-6871
생활	-6872
▁중국인	-6873
▁직책	-6874
▁에스파냐	-6875
▁방침	-6876
▁주지사	-6877
▁발원	-6878
▁발현	-6879
▁계절	-6880
▁흘러	-6881
▁텍스트	-6882
▁넓히	-6883
▁전대	-6884
ge	-6885
age	-6886
▁강경	-6887
▁팽창	-6888
▁포괄	-6889
▁최소한	-6890
먼드	-6891
▁차남	-6892
▁레전드	-6893
▁단기	-6894
▁며칠	-6895
▁굉장	-6896
▁섭취	-6897
▁촉구	-6898
▁Bl	-6899
▁셸	-6900
▁시오	-6901
▁향후	-6902
▁자유당	-6903
iz	-6904
▁댐	-6905
▁사절	-6906
▁상세	-6907
▁세미	-6908
▁손가락	-6909
집합	-6910
▁초창	-6911
▁키프	-6912
▁턱	-6913
▁뽑히	-6914
백과	-6915
▁갑작	-6916
▁문양	-6917
▁캄보	-6918
▁아미타	-6919
▁객관	-6920
▁대니	-6921
▁수평	-6922
▁토스	-6923
▁사이버	-6924
▁포도주	-6925
▁$	-6926
언스	-6927
▁낙선	-6928
차례	-6929
▁원자로	-6930
▁청장	-6931
▁팔레스	-6932
▁그랑프리	-6933
사기	-6934
울리	-6935
▁다중	-6936
▁프랭크	-6937
▁수군	-6938
AD	-6939
▁조리	-6940
▁충주	-6941
▁딩	-6942
▁고래	-6943
▁단점	-6944
▁취지	-6945
▁유니폼	-6946
▁진군	-6947
▁컬러	-6948
▁태생	-6949
▁캐스팅	-6950
▁로프	-6951
▁보리	-6952
▁탐지	-6953
▁147	-6954
▁명목	-6955
▁속성	-6956
▁여진	-6957
▁음원	-6958
▁조반	-6959
▁룽	-6960
▁동독	-6961
▁내주	-6962
▁무죄	-6963
▁127	-6964
▁블루스	-6965
▁경부	-6966
▁CPU	-6967
▁스릴	-6968
▁토마	-6969
▁노란색	-6970
행위	-6971
▁볼리	-6972
수엘라	-6973
▁기수	-6974
▁숭배	-6975
▁hPa	-6976
▁메인	-6977
▁북방	-6978
▁초연	-6979
▁협조	-6980
▁171	-6981
▁1915	-6982
▁케네	-6983
▁아미노	-6984
▁엘리베이터	-6985
▁겔	-6986
▁마비	-6987
▁입체	-6988
▁주축	-6989
▁뢰	-6990
▁전함	-6991
▁왜성	-6992
라리	-6993
▁난민	-6994
▁침몰	-6995
노부	-6996
우라	-6997
▁하이드	-6998
두르	-6999
▁심의	-7000
▁역명	-7001
▁로맨스	-7002
▁이어받	-7003
▁황해	-7004
▁상당수	-7005
▁낮추	-7006
▁알코	-7007
orld	-7008
▁1913	-7009
▁윌리엄스	-7010
sp	-7011
▁원고	-7012
▁후일	-7013
▁오키나와	-7014
▁라파	-7015
▁북구	-7016
▁언제나	-7017
▁유소년	-7018
▁재미	-7019
▁동년	-7020
▁따뜻	-7021
▁부천	-7022
▁제곱	-7023
▁추증	-7024
▁김재	-7025
▁김진	-7026
▁베네수엘라	-7027
▁마하	-7028
▁센서	-7029
서리	-7030
▁투르크	-7031
▁천문학자	-7032
▁김수	-7033
▁신흥	-7034
▁동당	-7035
▁서사	-7036
▁수동	-7037
▁이틀	-7038
ik	-7039
▁추상	-7040
▁출토	-7041
▁부과	-7042
창군	-7043
▁광년	-7044
▁옥스	-7045
▁정말	-7046
▁이민자	-7047
▁GT	-7048
▁탈환	-7049
▁닿	-7050
▁CE	-7051
▁울리	-7052
▁창건	-7053
▁문학상	-7054
▁어업	-7055
▁초창기	-7056
▁테니스	-7057
▁분광	-7058
시티	-7059
▁코프	-7060
▁타르	-7061
▁169	-7062
▁위키백과	-7063
▁기습	-7064
▁둘레	-7065
▁팜	-7066
▁수렴	-7067
▁태수	-7068
▁께서	-7069
▁동래	-7070
▁쓰러지	-7071
▁대포	-7072
▁링컨	-7073
기지	-7074
▁강과	-7075
▁종결	-7076
▁창시	-7077
▁든지	-7078
▁머신	-7079
▁걱	-7080
▁개미	-7081
▁시그	-7082
▁병역	-7083
자치도	-7084
▁제주특별	-7085
▁제주특별자치도	-7086
▁수령	-7087
▁프레스	-7088
▁디스플레이	-7089
석기	-7090
▁대제	-7091
▁대처	-7092
▁인재	-7093
▁청원	-7094
포구	-7095
▁원반	-7096
▁광부	-7097
▁바흐	-7098
명사전	-7099
▁찾아내	-7100
▁한동안	-7101
▁스파르타	-7102
▁무제	-7103
▁대역	-7104
▁1895	-7105
▁때리	-7106
▁유수	-7107
▁유연	-7108
▁효력	-7109
▁SP	-7110
▁끊임	-7111
크리트	-7112
▁반박	-7113
▁아폴	-7114
▁흩어지	-7115
▁팔레스타인	-7116
포트	-7117
▁남원	-7118
▁모스	-7119
▁총선거	-7120
▁딴	-7121
▁카탈	-7122
▁나가사키	-7123
▁리메이크	-7124
여지	-7125
▁엔지	-7126
▁al	-7127
▁나주	-7128
▁적자	-7129
▁주차	-7130
▁141	-7131
▁계몽	-7132
평군	-7133
▁동력	-7134
▁135	-7135
▁초상화	-7136
▁시공	-7137
▁통칭	-7138
▁아사히	-7139
▁대위	-7140
▁언론인	-7141
▁법제	-7142
▁섭정	-7143
▁총괄	-7144
▁김태	-7145
▁오빠	-7146
▁차기	-7147
▁고백	-7148
▁국사	-7149
▁다운로드	-7150
MS	-7151
공신	-7152
▁비문	-7153
▁양주	-7154
▁북서부	-7155
▁신세	-7156
박쥐	-7157
▁삼진	-7158
▁후세	-7159
▁Tr	-7160
▁하부	-7161
▁온천	-7162
▁111	-7163
벌레	-7164
네스코	-7165
와라	-7166
▁번영	-7167
▁캄보디아	-7168
▁탤	-7169
▁신중	-7170
무기	-7171
ust	-7172
▁면하	-7173
▁바실	-7174
▁소실	-7175
▁중순	-7176
그라드	-7177
▁도호쿠	-7178
선거	-7179
자스	-7180
▁수용소	-7181
▁십자가	-7182
보기	-7183
▁저명	-7184
▁나르	-7185
▁서머	-7186
▁영리	-7187
▁풋볼	-7188
▁자기장	-7189
▁명백	-7190
▁원내	-7191
ep	-7192
▁귀중	-7193
▁이진	-7194
▁문화방송	-7195
따르	-7196
▁개관	-7197
▁144	-7198
▁해병대	-7199
▁날짜	-7200
▁어스	-7201
▁조달	-7202
▁평하	-7203
▁서울대	-7204
▁걱정	-7205
▁내외	-7206
▁스핀	-7207
▁풍경	-7208
▁몰아내	-7209
▁큰	-7210
▁기요	-7211
▁더글	-7212
▁후대	-7213
▁당일	-7214
▁중소	-7215
▁휴식	-7216
▁스티브	-7217
▁교원	-7218
▁첨가	-7219
▁김포	-7220
▁리버풀	-7221
▁두루	-7222
▁그로	-7223
▁폐위	-7224
▁연세대	-7225
▁식별	-7226
▁휴전	-7227
▁충실	-7228
▁불편	-7229
▁에다	-7230
▁정무	-7231
▁함유	-7232
▁병조	-7233
▁알아	-7234
▁이광	-7235
▁정전	-7236
▁컴퍼니	-7237
▁It	-7238
▁무상	-7239
▁소환	-7240
▁전성기	-7241
▁장미	-7242
▁파업	-7243
▁천도	-7244
키지	-7245
▁고민	-7246
▁평야	-7247
int	-7248
▁관통	-7249
▁우연히	-7250
▁꽤	-7251
▁제수	-7252
▁편리	-7253
▁119	-7254
▁아레나	-7255
▁총사	-7256
▁스릴러	-7257
▁공채	-7258
▁리어	-7259
▁북위	-7260
▁언더	-7261
▁다니엘	-7262
▁사회학	-7263
▁컬럼비아	-7264
누엘	-7265
▁CO	-7266
▁드럼	-7267
▁쇼트	-7268
▁신기	-7269
▁172	-7270
EN	-7271
▁신학교	-7272
▁케네디	-7273
▁캉	-7274
▁TH	-7275
▁교양	-7276
▁모방	-7277
▁덤	-7278
스럽	-7279
▁간호	-7280
▁위임	-7281
▁매카	-7282
▁별칭	-7283
▁선구	-7284
트리올	-7285
▁몬트리올	-7286
▁도스	-7287
▁인산	-7288
▁차종	-7289
▁106	-7290
▁신학자	-7291
▁엔지니어	-7292
▁카이사르	-7293
▁연패	-7294
▁룡	-7295
▁요르	-7296
▁좌절	-7297
릴라	-7298
▁김상	-7299
▁드라	-7300
▁바퀴	-7301
▁의상	-7302
▁초과	-7303
▁증진	-7304
▁총대	-7305
▁유니버	-7306
GC	-7307
푸스	-7308
▁선종	-7309
▁해수	-7310
▁미즈	-7311
▁표명	-7312
▁니콜라	-7313
시로	-7314
▁진짜	-7315
▁이글스	-7316
▁관람	-7317
▁아종	-7318
▁테레	-7319
ib	-7320
▁미주	-7321
▁베드	-7322
▁공모	-7323
▁껍질	-7324
▁루시	-7325
▁보완	-7326
▁평범	-7327
▁소통	-7328
▁장안	-7329
▁평일	-7330
▁세계관	-7331
▁아틀레	-7332
ian	-7333
▁장난	-7334
▁아이템	-7335
▁친일인	-7336
▁스페이스	-7337
▁유네스코	-7338
▁친일인명사전	-7339
그로	-7340
ome	-7341
▁서남	-7342
▁한성부	-7343
니치	-7344
▁공직	-7345
▁묘역	-7346
▁애덤	-7347
▁항소	-7348
▁카리브	-7349
▁페르난	-7350
케이션	-7351
▁도주	-7352
▁승점	-7353
▁장려	-7354
▁멋	-7355
▁중량	-7356
▁케이스	-7357
ude	-7358
▁배신	-7359
▁열대	-7360
▁잦	-7361
▁포격	-7362
▁영남	-7363
▁치열	-7364
▁고수	-7365
▁마인	-7366
▁아벨	-7367
▁그루	-7368
▁미토	-7369
블로	-7370
▁슈트	-7371
▁쿤	-7372
▁훔	-7373
▁제갈	-7374
▁프랑수아	-7375
▁마츠	-7376
▁지혜	-7377
▁콘크리트	-7378
▁콰	-7379
▁등재	-7380
▁요하	-7381
▁일화	-7382
▁에스토	-7383
▁책임자	-7384
▁닷	-7385
▁We	-7386
▁지폐	-7387
나리	-7388
▁영장	-7389
▁돌연	-7390
▁생전	-7391
▁방패	-7392
▁충북	-7393
▁탱크	-7394
▁아이슬	-7395
루션	-7396
▁역설	-7397
▁해변	-7398
내셔널	-7399
▁인터내셔널	-7400
▁우울	-7401
ere	-7402
▁일조	-7403
▁정렬	-7404
▁낱말	-7405
▁입지	-7406
▁외교관	-7407
▁전압	-7408
▁합창	-7409
주의자	-7410
페르	-7411
▁불명	-7412
▁업계	-7413
세츠	-7414
실록	-7415
▁바리	-7416
▁양도	-7417
▁에버	-7418
선스	-7419
▁괴롭	-7420
▁투르	-7421
말라	-7422
치오	-7423
ire	-7424
▁부재	-7425
▁부채	-7426
▁상서	-7427
▁황태자	-7428
▁공단	-7429
▁호위	-7430
▁매사추	-7431
▁시나리오	-7432
▁단식	-7433
▁신속	-7434
▁지능	-7435
▁발트	-7436
▁암석	-7437
▁공의회	-7438
▁매사추세츠	-7439
▁시흥	-7440
▁어쩌	-7441
▁아이슬란드	-7442
▁기어	-7443
▁나스	-7444
▁퍼센트	-7445
▁대웅	-7446
▁친하	-7447
▁탈당	-7448
▁중추원	-7449
▁견디	-7450
▁도르	-7451
▁내려지	-7452
▁우라늄	-7453
▁밟	-7454
▁김기	-7455
▁레바	-7456
▁얘기	-7457
▁협주곡	-7458
▁다치	-7459
▁교외	-7460
▁여지	-7461
라이더	-7462
▁소유자	-7463
유행	-7464
▁구이	-7465
▁마약	-7466
▁실전	-7467
▁친왕	-7468
리케인	-7469
▁도루	-7470
▁오비	-7471
▁인연	-7472
▁호프	-7473
▁봉쇄	-7474
▁상담	-7475
▁오세	-7476
▁육지	-7477
오피아	-7478
▁에티오피아	-7479
ace	-7480
▁기인	-7481
▁위탁	-7482
▁해소	-7483
▁에스토니아	-7484
▁횟	-7485
▁서정	-7486
▁오노	-7487
▁NBA	-7488
▁스페인어	-7489
▁허리케인	-7490
▁고령	-7491
▁시선	-7492
▁신탁	-7493
▁하락	-7494
ment	-7495
pe	-7496
▁닝	-7497
▁도라	-7498
▁중심부	-7499
▁로열	-7500
▁대전광역시	-7501
▁어다	-7502
▁을지	-7503
▁조이	-7504
▁흘리	-7505
▁라이선스	-7506
▁물리학자	-7507
▁병행	-7508
▁평택	-7509
▁배터리	-7510
▁리비아	-7511
▁의뢰	-7512
▁창고	-7513
▁통근	-7514
▁현금	-7515
▁전라도	-7516
▁추세	-7517
▁파장	-7518
▁푼	-7519
ide	-7520
▁주행	-7521
▁즈음	-7522
▁슬로바키아	-7523
마드	-7524
▁신생	-7525
▁오사	-7526
▁136	-7527
하면	-7528
▁할리우드	-7529
▁격투	-7530
▁호기	-7531
바이잔	-7532
▁사슬	-7533
▁148	-7534
▁애틀	-7535
▁끓	-7536
야시	-7537
▁바닷	-7538
▁1916	-7539
▁어라	-7540
석탑	-7541
의자	-7542
중국	-7543
▁극동	-7544
▁부적	-7545
제리	-7546
▁아드	-7547
▁유동	-7548
▁허리	-7549
▁이사회	-7550
▁덮이	-7551
층석탑	-7552
▁급격히	-7553
▁가로지르	-7554
▁치즈	-7555
▁아제르	-7556
▁알아내	-7557
▁낭만	-7558
▁마이너	-7559
▁추출	-7560
▁스튜어트	-7561
▁우루과이	-7562
▁TO	-7563
▁순회	-7564
▁결혼식	-7565
▁막내	-7566
▁실시간	-7567
▁아제르바이잔	-7568
▁앓	-7569
승지	-7570
▁HT	-7571
▁명제	-7572
아이	-7573
▁갈리	-7574
▁격퇴	-7575
▁국무총리	-7576
▁우세	-7577
▁입당	-7578
▁특집	-7579
▁파이어	-7580
▁닛폰	-7581
▁서재	-7582
위원	-7583
▁조연	-7584
▁거론	-7585
▁동상	-7586
▁사헌	-7587
▁첼시	-7588
▁라이언	-7589
▁극히	-7590
▁성운	-7591
▁솜	-7592
▁구도	-7593
▁동이	-7594
지리아	-7595
▁나이지리아	-7596
▁바스	-7597
▁DC	-7598
▁세션	-7599
▁작센	-7600
▁아마도	-7601
▁패키지	-7602
▁산림	-7603
▁IBM	-7604
▁네이션스	-7605
IM	-7606
▁되게	-7607
▁실장	-7608
▁전념	-7609
▁고소	-7610
▁돌려	-7611
▁노부나가	-7612
바다	-7613
▁기단	-7614
▁다항	-7615
거지	-7616
시피	-7617
▁박해	-7618
▁의약	-7619
▁원숭이	-7620
▁솟	-7621
▁가동	-7622
▁시초	-7623
▁저하	-7624
▁쌍둥이	-7625
▁신규	-7626
▁외치	-7627
▁반감	-7628
▁수습	-7629
▁중위	-7630
▁138	-7631
▁데이비스	-7632
▁안성	-7633
▁포터	-7634
▁깨달	-7635
▁워드	-7636
▁딕	-7637
▁안기	-7638
▁개그	-7639
▁현종	-7640
▁회고	-7641
람쥐	-7642
▁구릉	-7643
▁한스	-7644
▁객체	-7645
▁면허	-7646
▁분당	-7647
▁평원	-7648
▁어울리	-7649
▁백색	-7650
▁성숙	-7651
▁치명	-7652
▁섬기	-7653
▁약칭	-7654
▁환영	-7655
▁후방	-7656
▁백화점	-7657
▁구호	-7658
▁반경	-7659
▁지류	-7660
▁탐구	-7661
▁리우스	-7662
▁페르디	-7663
▁브라우저	-7664
▁리틀	-7665
▁사헌부	-7666
▁경연	-7667
▁돌보	-7668
▁신한	-7669
파르	-7670
▁냉각	-7671
cl	-7672
▁지선	-7673
▁구조물	-7674
타로	-7675
▁la	-7676
▁시즈	-7677
▁360	-7678
▁시칠리아	-7679
▁레논	-7680
▁펌	-7681
▁혀	-7682
▁거제	-7683
▁거행	-7684
▁최악	-7685
▁해밀	-7686
▁고성	-7687
▁그날	-7688
▁상공	-7689
▁후쿠시마	-7690
▁뭉	-7691
▁동점	-7692
▁익히	-7693
▁재위	-7694
▁영의정	-7695
▁104	-7696
▁도미	-7697
▁이세	-7698
▁중성자	-7699
타나	-7700
▁토성	-7701
양함	-7702
▁감리	-7703
▁한쪽	-7704
▁LP	-7705
▁아부	-7706
▁춘천	-7707
▁최상위	-7708
▁리라	-7709
▁해적	-7710
▁별다르	-7711
▁재현	-7712
토모	-7713
▁가면	-7714
▁복선	-7715
▁비리	-7716
▁오바	-7717
▁휴스턴	-7718
▁피에	-7719
▁바이오	-7720
리니	-7721
▁생식	-7722
▁성체	-7723
▁게르만	-7724
대신	-7725
▁결선	-7726
▁택시	-7727
▁혈통	-7728
래스카	-7729
▁라이브러리	-7730
▁도장	-7731
곡리	-7732
▁공천	-7733
▁우위	-7734
▁임용	-7735
▁춘추	-7736
리에	-7737
여래	-7738
▁En	-7739
▁횟수	-7740
▁반도체	-7741
▁그램	-7742
▁힘입	-7743
▁모니터	-7744
▁라트비아	-7745
▁잔류	-7746
▁장학	-7747
▁차장	-7748
회장	-7749
베르토	-7750
▁올바르	-7751
마쓰	-7752
▁비시	-7753
▁왜냐	-7754
▁주가	-7755
▁애틀랜	-7756
▁테이블	-7757
▁스트레스	-7758
타고	-7759
▁송시	-7760
▁트래	-7761
▁릉	-7762
은색	-7763
▁데모	-7764
▁부당	-7765
어버리	-7766
▁옴	-7767
▁나비	-7768
데시	-7769
▁가짜	-7770
▁현저	-7771
▁어휘	-7772
ark	-7773
브레	-7774
푸르트	-7775
▁오피스	-7776
▁Pr	-7777
▁견제	-7778
▁제독	-7779
▁109	-7780
하시	-7781
▁고인	-7782
▁주름	-7783
▁축하	-7784
▁행적	-7785
▁개원	-7786
▁스톡	-7787
▁정점	-7788
▁칼라	-7789
▁방송사	-7790
▁하워드	-7791
▁123	-7792
▁대학생	-7793
랜트	-7794
▁목판	-7795
▁호랑이	-7796
▁육체	-7797
▁이케	-7798
▁야구장	-7799
▁성취	-7800
▁인플	-7801
▁축적	-7802
▁사우루스	-7803
▁억압	-7804
▁여당	-7805
▁교황청	-7806
▁통증	-7807
▁폭동	-7808
▁휠	-7809
▁공수	-7810
▁주주	-7811
▁아홉	-7812
▁적당	-7813
▁햇	-7814
▁NC	-7815
▁열정	-7816
▁대표작	-7817
란히	-7818
▁한인	-7819
▁공산주의자	-7820
차기	-7821
▁매입	-7822
▁코무네	-7823
▁벌금	-7824
▁이식	-7825
▁헐	-7826
▁이에야스	-7827
▁타이거즈	-7828
고쿠	-7829
▁바나	-7830
▁소매	-7831
▁고장	-7832
▁루프	-7833
더슨	-7834
포드	-7835
▁발해	-7836
▁순교	-7837
▁아예	-7838
▁증대	-7839
은이	-7840
▁노바	-7841
▁민회	-7842
▁시바	-7843
▁아담	-7844
▁연하	-7845
▁응원	-7846
▁연합회	-7847
▁플라이	-7848
▁분비	-7849
▁주역	-7850
▁펜실	-7851
베이니아	-7852
▁펜실베이니아	-7853
글리	-7854
헤이	-7855
▁카자흐스탄	-7856
▁암시	-7857
▁처녀	-7858
▁명령어	-7859
▁종로구	-7860
▁오해	-7861
▁이윤	-7862
▁제하	-7863
▁터치	-7864
▁143	-7865
▁AR	-7866
▁경관	-7867
▁수련	-7868
▁폭행	-7869
▁해명	-7870
▁동아일보	-7871
법인	-7872
▁AK	-7873
▁가죽	-7874
▁존속	-7875
▁광물	-7876
▁기적	-7877
▁너비	-7878
▁롤링	-7879
▁팔라	-7880
권자	-7881
▁놀랍	-7882
▁분기점	-7883
▁돋	-7884
▁누이	-7885
▁상점	-7886
▁성사	-7887
▁신조	-7888
▁베스	-7889
▁산란	-7890
▁상반	-7891
▁사모	-7892
▁유한	-7893
▁그동안	-7894
▁부르크	-7895
▁리우	-7896
▁자민	-7897
▁청춘	-7898
▁조선일보	-7899
▁킥	-7900
▁계시	-7901
▁다발	-7902
▁목재	-7903
▁상단	-7904
▁소나타	-7905
바시	-7906
▁이화	-7907
▁비싸	-7908
▁유로파	-7909
▁팡	-7910
▁피츠	-7911
▁차이점	-7912
▁왓	-7913
▁CS	-7914
▁신주	-7915
▁히메	-7916
▁토모	-7917
▁생산량	-7918
▁김경	-7919
▁염기	-7920
▁제프	-7921
▁충전	-7922
스틴	-7923
▁근교	-7924
▁누나	-7925
▁신념	-7926
▁출처	-7927
▁경상도	-7928
▁친일파	-7929
AL	-7930
▁마야	-7931
▁다이아몬드	-7932
▁다투	-7933
▁지르	-7934
▁블라디미르	-7935
▁CC	-7936
▁비자	-7937
▁유죄	-7938
▁블로그	-7939
▁규범	-7940
▁펑크	-7941
▁남동부	-7942
▁내보내	-7943
기업	-7944
나오	-7945
▁깨닫	-7946
▁에미	-7947
▁col	-7948
▁박람회	-7949
산동	-7950
▁컴파	-7951
ile	-7952
▁만남	-7953
▁음료	-7954
▁광학	-7955
▁보석	-7956
▁부설	-7957
▁통영	-7958
▁관구	-7959
러스트	-7960
ies	-7961
▁래퍼	-7962
▁법조	-7963
▁시골	-7964
▁알코올	-7965
▁조세	-7966
▁다녀	-7967
▁마디	-7968
▁갇	-7969
▁룬	-7970
▁Op	-7971
▁무지	-7972
▁미라	-7973
▁상용	-7974
▁나트	-7975
▁부제	-7976
▁운하	-7977
▁이소	-7978
▁황실	-7979
브리지	-7980
▁우유	-7981
▁설탕	-7982
▁확신	-7983
▁태양계	-7984
▁공습	-7985
▁동국	-7986
▁트위터	-7987
▁갈라	-7988
▁티스	-7989
▁경찰청	-7990
▁라오스	-7991
▁베어스	-7992
▁카롤	-7993
▁트윈스	-7994
▁흠	-7995
비나	-7996
▁거칠	-7997
▁단단	-7998
▁시어	-7999
▁이타	-8000
▁협박	-8001
▁왜냐하면	-8002
▁대폭	-8003
▁적분	-8004
▁사육	-8005
▁상사	-8006
▁법무부	-8007
▁경보	-8008
▁비유	-8009
▁엿	-8010
▁말라	-8011
▁굉장히	-8012
레기	-8013
살이	-8014
▁공익	-8015
▁품종	-8016
▁112	-8017
▁장거리	-8018
xt	-8019
수리	-8020
▁이순신	-8021
▁중의원	-8022
▁카를로스	-8023
▁공관	-8024
▁126	-8025
▁브라더스	-8026
▁언니	-8027
▁임하	-8028
▁합하	-8029
▁헤라	-8030
▁히사	-8031
▁CON	-8032
▁레일	-8033
▁사업자	-8034
▁시베리아	-8035
도리	-8036
▁Te	-8037
▁빨간	-8038
▁신민	-8039
▁이산화	-8040
▁어원	-8041
▁107	-8042
▁구축함	-8043
▁창원시	-8044
▁수법	-8045
▁후사	-8046
ite	-8047
▁미르	-8048
▁제재	-8049
▁루이지	-8050
▁갇히	-8051
▁우승자	-8052
▁국소	-8053
▁왜곡	-8054
▁플러스	-8055
▁거북	-8056
▁다지	-8057
▁맥락	-8058
▁범인	-8059
▁우호	-8060
▁허위	-8061
▁RNA	-8062
▁키프로스	-8063
▁구출	-8064
▁신선	-8065
▁입원	-8066
▁천장	-8067
▁뉘	-8068
▁실체	-8069
▁헤비	-8070
▁곡인	-8071
▁몰래	-8072
▁인문	-8073
나스	-8074
▁여파	-8075
▁진하	-8076
▁삼층석탑	-8077
▁is	-8078
▁소셜	-8079
▁교과서	-8080
▁조종사	-8081
▁할머니	-8082
고래	-8083
▁당주	-8084
▁가군	-8085
▁보증	-8086
▁117	-8087
▁아랍어	-8088
▁근원	-8089
▁꾀하	-8090
▁빈곤	-8091
▁성단	-8092
▁세라	-8093
▁풀리	-8094
▁옆면	-8095
▁송시열	-8096
스부르크	-8097
도바	-8098
랑카	-8099
▁줄무늬	-8100
▁탐사선	-8101
▁거울	-8102
▁동문	-8103
▁소원	-8104
▁포럼	-8105
▁결함	-8106
▁지평	-8107
▁핸드	-8108
▁연쇄	-8109
ft	-8110
▁맥주	-8111
▁인체	-8112
▁일방	-8113
갈색	-8114
다지	-8115
▁이브	-8116
▁드로	-8117
▁대웅전	-8118
▁피우	-8119
▁350	-8120
▁퐁	-8121
승부	-8122
▁네스	-8123
지붕	-8124
▁희생자	-8125
▁이경	-8126
▁평의회	-8127
▁ㅓ서	-8128
▁교정	-8129
▁성별	-8130
▁도마뱀붙이	-8131
▁릿	-8132
▁일반인	-8133
ound	-8134
▁SE	-8135
▁결코	-8136
▁만일	-8137
▁신약	-8138
▁통틀	-8139
▁화장실	-8140
▁가마쿠라	-8141
▁제니	-8142
▁제대	-8143
▁탐색	-8144
▁승계	-8145
▁줄리	-8146
▁택하	-8147
▁com	-8148
▁가져가	-8149
▁아카데미상	-8150
▁자아	-8151
▁해고	-8152
▁삼성전자	-8153
▁철회	-8154
▁양키스	-8155
▁날씨	-8156
▁고속도	-8157
▁테이프	-8158
▁CF	-8159
▁빨간색	-8160
시타	-8161
조부	-8162
▁샘플	-8163
▁121	-8164
▁173	-8165
▁양측	-8166
▁후궁	-8167
▁비추	-8168
▁진급	-8169
▁근로자	-8170
끼리	-8171
▁서진	-8172
▁맘	-8173
무스	-8174
연합	-8175
▁펠리	-8176
▁개교	-8177
▁궁극	-8178
▁놓치	-8179
▁뒤집	-8180
▁137	-8181
ath	-8182
▁더니	-8183
▁요동	-8184
▁필터	-8185
▁바오로	-8186
▁연합국	-8187
▁불타	-8188
▁비르	-8189
▁포병	-8190
▁전자기	-8191
마루	-8192
▁물려받	-8193
ond	-8194
▁가축	-8195
▁문예	-8196
▁화해	-8197
▁라이너	-8198
▁1894	-8199
▁킴	-8200
의장	-8201
▁냄	-8202
▁방화	-8203
▁왕복	-8204
▁지미	-8205
▁칭찬	-8206
▁총독부	-8207
▁진공	-8208
▁투옥	-8209
OL	-8210
▁헥	-8211
▁필리프	-8212
▁바우	-8213
▁수용체	-8214
▁가장자리	-8215
▁세속	-8216
ory	-8217
▁최강	-8218
게이머	-8219
▁프로게이머	-8220
▁수색	-8221
크라	-8222
▁다크	-8223
▁일가	-8224
베니아	-8225
규모	-8226
▁IM	-8227
▁문구	-8228
▁워터	-8229
▁붐	-8230
수소	-8231
▁공방	-8232
▁태권	-8233
그레이드	-8234
▁ㅁ	-8235
man	-8236
▁주이	-8237
▁113	-8238
번스	-8239
▁공민	-8240
▁미션	-8241
▁극심	-8242
▁레온	-8243
▁용병	-8244
▁멜로디	-8245
▁최대한	-8246
▁낫	-8247
▁쑤	-8248
대기	-8249
로이	-8250
▁곤란	-8251
▁믹스	-8252
▁성도	-8253
▁유년	-8254
▁클라우드	-8255
▁슬로베니아	-8256
▁업그레이드	-8257
▁계정	-8258
▁서민	-8259
▁그냥	-8260
▁농림	-8261
▁뒷면	-8262
▁적도	-8263
▁즉각	-8264
▁게스트	-8265
▁핵무기	-8266
▁크리스토퍼	-8267
그리	-8268
단체	-8269
▁공백	-8270
▁도미니	-8271
▁알제리	-8272
▁김현	-8273
▁신시	-8274
ov	-8275
▁LC	-8276
▁군정	-8277
▁카카	-8278
▁대피	-8279
▁치안	-8280
▁대의원	-8281
▁브로드	-8282
▁캐시	-8283
▁바티칸	-8284
▁코스타	-8285
▁땃	-8286
톨레	-8287
▁드레	-8288
▁명하	-8289
▁넘치	-8290
▁두껍	-8291
▁둥지	-8292
▁로이	-8293
▁몬스터	-8294
▁".	-8295
▁말씀	-8296
▁제치	-8297
▁하동	-8298
셰비	-8299
▁닫히	-8300
▁미키	-8301
▁제인	-8302
▁타당	-8303
▁게이지	-8304
▁강서	-8305
▁먼지	-8306
▁모친	-8307
▁초월	-8308
▁항쟁	-8309
▁국내외	-8310
▁프랑크푸르트	-8311
▁개종	-8312
▁부딪	-8313
▁혈관	-8314
▁124	-8315
▁무어	-8316
iver	-8317
▁독일인	-8318
▁z	-8319
아키	-8320
▁구절	-8321
퍼런스	-8322
▁륙	-8323
mer	-8324
▁로우	-8325
아프리카	-8326
▁서초	-8327
▁욕구	-8328
▁On	-8329
▁스캔	-8330
▁시뮬	-8331
▁횡단	-8332
▁야마토	-8333
박스	-8334
▁옵션	-8335
로니	-8336
▁관음	-8337
▁판본	-8338
▁탤런트	-8339
▁이거	-8340
▁피오	-8341
▁커뮤니케이션	-8342
▁SU	-8343
▁기질	-8344
▁내정	-8345
▁배후	-8346
▁상표	-8347
▁성문	-8348
▁야쿠	-8349
▁분명히	-8350
▁자연수	-8351
블리	-8352
▁일생	-8353
▁침투	-8354
▁가루	-8355
▁돌격	-8356
▁제압	-8357
▁고고학	-8358
▁오리콘	-8359
▁World	-8360
▁예조	-8361
▁자선	-8362
줄기	-8363
▁be	-8364
▁학계	-8365
린스	-8366
▁발리	-8367
▁자비	-8368
▁검찰청	-8369
▁다가오	-8370
▁그대	-8371
▁우파	-8372
▁원전	-8373
▁초록	-8374
▁감자	-8375
▁디렉	-8376
▁체크	-8377
▁아랫	-8378
▁영산	-8379
▁유저	-8380
▁자오	-8381
대원군	-8382
▁김정일	-8383
▁알루미	-8384
▁라이온즈	-8385
▁풍자	-8386
▁남서부	-8387
▁베네딕	-8388
▁양호	-8389
▁New	-8390
▁소규모	-8391
▁CR	-8392
▁대거	-8393
▁1890	-8394
▁연이	-8395
▁정세	-8396
▁평정	-8397
▁브리지	-8398
ich	-8399
▁오프닝	-8400
▁맑	-8401
▁므	-8402
축구	-8403
드르	-8404
▁은데	-8405
▁데르	-8406
▁러시	-8407
▁선비	-8408
▁어미	-8409
▁조부	-8410
▁다녀오	-8411
▁뭐	-8412
▁베니	-8413
▁징계	-8414
▁시위대	-8415
▁윤치호	-8416
지스	-8417
▁과반	-8418
▁군중	-8419
▁114	-8420
▁냉전	-8421
▁오라	-8422
▁자택	-8423
▁사상자	-8424
▁안토니오	-8425
▁EC	-8426
▁떨치	-8427
▁알아보	-8428
▁시정	-8429
▁이준	-8430
▁김규	-8431
▁태극	-8432
▁비로소	-8433
▁깎	-8434
▁땃쥐	-8435
▁기업인	-8436
▁봉건	-8437
▁대명	-8438
▁매매	-8439
▁빛나	-8440
프레스	-8441
▁원로원	-8442
▁컷	-8443
▁관세	-8444
▁미노	-8445
▁연승	-8446
▁증손	-8447
▁이드	-8448
▁구스타	-8449
렉스	-8450
▁경신	-8451
▁정주	-8452
IP	-8453
▁지침	-8454
▁방사선	-8455
▁블랙홀	-8456
▁히어로즈	-8457
▁가드	-8458
▁공감	-8459
▁이남	-8460
▁세이브	-8461
▁답변	-8462
▁어긋	-8463
▁118	-8464
▁럼	-8465
조건	-8466
▁중형	-8467
▁매니저	-8468
▁풀려나	-8469
ign	-8470
▁구와	-8471
▁대부	-8472
▁만료	-8473
▁파이널	-8474
ial	-8475
▁괴물	-8476
▁공조	-8477
▁뉴턴	-8478
▁예시	-8479
▁용이	-8480
▁드라이버	-8481
▁본국	-8482
▁주부	-8483
타리오	-8484
▁일리노	-8485
▁갑작스럽	-8486
러드	-8487
▁비기	-8488
▁요정	-8489
▁승부차기	-8490
▁도청	-8491
▁진사	-8492
▁크리스티안	-8493
▁악단	-8494
▁저널	-8495
▁플래시	-8496
▁1898	-8497
▁벵	-8498
▁빔	-8499
▁자음	-8500
▁일리노이	-8501
▁Sc	-8502
▁경찰관	-8503
▁무승부	-8504
▁프로덕	-8505
▁인명	-8506
▁체조	-8507
▁통치자	-8508
▁파란색	-8509
황후	-8510
▁두려	-8511
▁서자	-8512
▁재상	-8513
▁115	-8514
▁계열사	-8515
하루	-8516
▁컨셉	-8517
▁학명	-8518
▁미하일	-8519
▁체스	-8520
▁우즈베	-8521
hn	-8522
교도	-8523
저지	-8524
▁SD	-8525
▁마력	-8526
▁스칼	-8527
▁외모	-8528
▁우측	-8529
▁하르	-8530
▁트로이	-8531
▁종착	-8532
▁한족	-8533
▁디비시온	-8534
닐라	-8535
▁지인	-8536
▁극장판	-8537
▁동정	-8538
▁변이	-8539
▁순조	-8540
▁전년	-8541
▁챌린지	-8542
▁엇	-8543
▁밀집	-8544
▁천하	-8545
▁헬리	-8546
▁그레고	-8547
벨트	-8548
▁직면	-8549
▁키르	-8550
▁봉안	-8551
▁축출	-8552
▁취업	-8553
▁희귀	-8554
▁레바논	-8555
아먹	-8556
▁남구	-8557
▁혜택	-8558
▁반지름	-8559
히코	-8560
▁앵글	-8561
▁카우	-8562
▁외야수	-8563
▁`	-8564
▁기각	-8565
▁통보	-8566
▁하프	-8567
▁극작	-8568
▁맥도	-8569
▁선도	-8570
▁모로코	-8571
▁시가지	-8572
바닥	-8573
보르	-8574
▁로그	-8575
▁대변인	-8576
▁알루미늄	-8577
▁JT	-8578
▁가옥	-8579
▁소모	-8580
▁뉴저지	-8581
▁웨스턴	-8582
▁쫓겨나	-8583
문트	-8584
▁말미	-8585
▁커널	-8586
▁남미	-8587
▁왕세	-8588
▁개막전	-8589
▁기증	-8590
▁무성	-8591
▁정변	-8592
▁필사	-8593
마이오스	-8594
▁미세	-8595
▁믹	-8596
기념	-8597
▁헬기	-8598
▁성리학	-8599
▁연예인	-8600
▁닦	-8601
먼스	-8602
▁ㅕㅆ	-8603
▁모나	-8604
▁사위	-8605
▁젊은이	-8606
▁체코슬로	-8607
▁체코슬로바키아	-8608
▁폭넓	-8609
▁129	-8610
▁옳	-8611
▁GS	-8612
▁뇌물	-8613
▁부스	-8614
▁실망	-8615
▁케냐	-8616
▁패럴	-8617
▁학업	-8618
▁광해군	-8619
레타	-8620
▁센티	-8621
▁종래	-8622
타니	-8623
▁켈리	-8624
▁범유행	-8625
▁렐	-8626
▁코카	-8627
▁맏	-8628
쟁이	-8629
▁어른	-8630
부리	-8631
속기	-8632
타리	-8633
▁웹툰	-8634
▁종속	-8635
미사	-8636
▁GP	-8637
▁발급	-8638
▁비주	-8639
▁핑크	-8640
▁호출	-8641
▁의약품	-8642
▁쯔	-8643
▁러셀	-8644
▁리뷰	-8645
▁승자	-8646
▁회관	-8647
▁중공	-8648
▁천재	-8649
▁총사령	-8650
▁터뜨리	-8651
rom	-8652
▁글루	-8653
▁척추	-8654
▁캔자스	-8655
▁중산	-8656
▁창출	-8657
▁쾌속	-8658
▁숙청	-8659
▁예하	-8660
▁재선	-8661
니까	-8662
▁감싸	-8663
▁서신	-8664
▁확실히	-8665
▁첨단	-8666
▁케빈	-8667
▁마운트	-8668
▁스타리그	-8669
개미	-8670
▁기차	-8671
▁재혼	-8672
▁넘어서	-8673
▁끌어들이	-8674
▁토양	-8675
▁퉁	-8676
▁남작	-8677
▁예고	-8678
▁요건	-8679
▁유라	-8680
▁퇴임	-8681
▁기술자	-8682
▁로비	-8683
▁바빌	-8684
▁사간	-8685
▁지출	-8686
▁토미	-8687
▁황족	-8688
▁Ne	-8689
▁청산	-8690
▁두려워하	-8691
▁벨라루스	-8692
▁일컬	-8693
▁컴백	-8694
▁화력	-8695
▁장례식	-8696
TS	-8697
ph	-8698
슬러	-8699
▁배수	-8700
▁벽돌	-8701
▁웬	-8702
▁밝기	-8703
▁뒷받침	-8704
▁감행	-8705
▁옹립	-8706
▁카디	-8707
▁파산	-8708
▁각도	-8709
▁무명	-8710
▁괘	-8711
▁유방	-8712
▁저주	-8713
▁III	-8714
▁스크립	-8715
▁스트리	-8716
방송공사	-8717
우트	-8718
▁난징	-8719
▁등기	-8720
▁오오	-8721
▁임원	-8722
▁조지프	-8723
▁타임스	-8724
▁플라스틱	-8725
▁관제	-8726
▁대패	-8727
▁원천	-8728
▁형조	-8729
화물	-8730
▁생체	-8731
▁양반	-8732
▁전속	-8733
▁찌르	-8734
▁페널	-8735
느러미	-8736
▁부피	-8737
▁워크	-8738
▁응시	-8739
▁142	-8740
▁1899	-8741
▁얹	-8742
▁브리튼	-8743
▁월요일	-8744
▁천문대	-8745
▁대치	-8746
▁미들	-8747
▁유진	-8748
▁학기	-8749
▁부여받	-8750
테르부르크	-8751
시즘	-8752
진군	-8753
▁설화	-8754
▁태그	-8755
▁어긋나	-8756
▁시범	-8757
▁케임	-8758
셰비키	-8759
▁레슬링	-8760
▁세이부	-8761
▁프란츠	-8762
▁콕	-8763
urn	-8764
▁거세	-8765
▁구경	-8766
▁발병	-8767
▁소생	-8768
▁안테	-8769
▁워너	-8770
▁토끼	-8771
▁폭포	-8772
▁하얗	-8773
▁마르티	-8774
▁청주시	-8775
포로	-8776
코딩	-8777
▁성폭	-8778
▁더글러스	-8779
파이어	-8780
▁힌두교	-8781
롤라이나	-8782
▁CJ	-8783
▁ch	-8784
▁리프	-8785
▁무함	-8786
▁지켜	-8787
▁화상	-8788
▁거래소	-8789
로우	-8790
▁룩셈	-8791
▁사본	-8792
▁운수	-8793
▁총칭	-8794
▁프로덕션	-8795
▁룩셈부르크	-8796
▁설교	-8797
▁지옥	-8798
▁축물	-8799
▁희곡	-8800
천리	-8801
토르	-8802
▁벨트	-8803
▁신원	-8804
▁정려	-8805
▁정성	-8806
함수	-8807
▁자크	-8808
▁대서양	-8809
▁사쿠라	-8810
ction	-8811
럴드	-8812
틱스	-8813
▁독서	-8814
▁오크	-8815
▁피겨	-8816
▁혼동	-8817
▁화자	-8818
▁스즈키	-8819
▁끊임없이	-8820
▁중복	-8821
▁지치	-8822
두리	-8823
▁동네	-8824
▁만성	-8825
▁피신	-8826
▁1902	-8827
▁왼손	-8828
▁의자	-8829
▁그래미	-8830
▁잃어버리	-8831
▁제국주의	-8832
▁온타리오	-8833
▁광주광역시	-8834
브르	-8835
▁가야	-8836
▁금요일	-8837
▁부의장	-8838
▁공적	-8839
▁Man	-8840
ens	-8841
▁광둥	-8842
▁병기	-8843
▁쟈	-8844
덩이	-8845
타주	-8846
▁ID	-8847
▁의의	-8848
▁붙잡히	-8849
▁플랫폼	-8850
MA	-8851
치기	-8852
▁명종	-8853
▁물품	-8854
▁보위	-8855
▁위쪽	-8856
▁체류	-8857
▁프톨레	-8858
▁프톨레마이오스	-8859
lan	-8860
▁뛰어	-8861
▁감마	-8862
▁키보드	-8863
▁BS	-8864
▁그릇	-8865
▁발기	-8866
▁스턴	-8867
▁혐오	-8868
▁바깥쪽	-8869
pp	-8870
▁니코	-8871
▁서류	-8872
▁선배	-8873
▁한테	-8874
▁연산자	-8875
▁지식인	-8876
▁우체	-8877
▁표적	-8878
▁대성당	-8879
▁아리아	-8880
▁으려고	-8881
▁수분	-8882
▁도카이	-8883
▁앗	-8884
샤바	-8885
▁강변	-8886
▁단절	-8887
▁원종	-8888
▁드림	-8889
▁포획	-8890
▁''	-8891
▁시가	-8892
▁시코	-8893
▁연꽃	-8894
▁응하	-8895
▁채소	-8896
▁흔들리	-8897
▁영등	-8898
▁소나무	-8899
▁개소	-8900
▁대손	-8901
▁코시	-8902
▁갈수록	-8903
▁기사단	-8904
▁밍	-8905
글라	-8906
▁게리	-8907
▁마녀	-8908
▁하단	-8909
▁간선	-8910
▁비석	-8911
▁촉매	-8912
TA	-8913
▁국영	-8914
▁깃발	-8915
▁선행	-8916
▁외관	-8917
▁코끼리	-8918
그룹	-8919
▁로라	-8920
▁사슴	-8921
▁참의	-8922
▁춥	-8923
▁동행	-8924
▁영문	-8925
▁탄도	-8926
▁제네바	-8927
lic	-8928
▁서리	-8929
▁습지	-8930
▁주조	-8931
▁고양시	-8932
▁아돌프	-8933
▁얽	-8934
▁버드	-8935
▁김창	-8936
▁입성	-8937
▁함정	-8938
▁헌신	-8939
▁비행장	-8940
▁기니	-8941
▁빌라	-8942
▁몫	-8943
폴리	-8944
▁교통국	-8945
▁마스크	-8946
▁단축	-8947
▁시리	-8948
▁부회장	-8949
▁페르디난	-8950
▁광명	-8951
▁매수	-8952
▁유체	-8953
크로	-8954
▁김지	-8955
▁수확	-8956
▁정적	-8957
▁이용자	-8958
▁트리플	-8959
▁동학	-8960
▁아산	-8961
▁정동	-8962
카가	-8963
▁강동	-8964
▁단의	-8965
▁역량	-8966
▁전방	-8967
▁직결	-8968
▁매카트니	-8969
▁대합	-8970
▁부가	-8971
▁생생	-8972
▁울프	-8973
▁색채	-8974
▁드러머	-8975
▁스위치	-8976
TC	-8977
▁공리	-8978
▁압둘	-8979
▁익스프레스	-8980
국사	-8981
▁간토	-8982
▁고아	-8983
▁광대	-8984
▁초신	-8985
▁보이스	-8986
▁부작용	-8987
히토	-8988
ary	-8989
▁면제	-8990
▁스폰	-8991
▁토착종	-8992
▁포켓몬스터	-8993
▁경과	-8994
▁어류	-8995
▁아이오	-8996
▁폭격기	-8997
▁해밀턴	-8998
out	-8999
▁가환	-9000
▁갱신	-9001
▁입각	-9002
▁조립	-9003
▁서유럽	-9004
▁호르몬	-9005
구르	-9006
▁여운	-9007
▁이단	-9008
▁일산	-9009
▁경성부	-9010
▁약자	-9011
▁축조	-9012
▁화강	-9013
▁1901	-9014
▁러시아어	-9015
▁논하	-9016
▁민감	-9017
▁브뤼	-9018
▁성지	-9019
▁세비	-9020
▁입국	-9021
ert	-9022
▁생략	-9023
▁슈팅	-9024
▁사이토	-9025
▁코믹스	-9026
▁정립	-9027
짓점	-9028
피어	-9029
▁보트	-9030
▁복용	-9031
▁본문	-9032
▁열도	-9033
▁표방	-9034
ach	-9035
▁나노	-9036
▁크롬	-9037
▁꼭짓점	-9038
테인	-9039
▁누적	-9040
▁버티	-9041
▁원료	-9042
▁임관	-9043
▁주되	-9044
▁퀘벡	-9045
▁그다지	-9046
모스	-9047
▁날카	-9048
▁쓰촨	-9049
▁지켜보	-9050
타임	-9051
▁No	-9052
▁소시	-9053
▁체르	-9054
▁커스	-9055
▁영국인	-9056
▁알렉산드르	-9057
▁울산광역시	-9058
▁보복	-9059
▁특권	-9060
▁권총	-9061
▁치아	-9062
▁하치	-9063
일으키	-9064
▁연기자	-9065
▁불러일으키	-9066
디나	-9067
▁염증	-9068
▁다항식	-9069
▁삿포로	-9070
미트	-9071
▁불꽃	-9072
▁코코	-9073
나우	-9074
▁동조	-9075
▁아시카가	-9076
▁검열	-9077
▁손꼽	-9078
▁자작	-9079
▁정문	-9080
▁체중	-9081
ys	-9082
▁렘	-9083
▁기숙	-9084
▁무궁	-9085
▁서문	-9086
▁수축	-9087
LE	-9088
▁갈릴	-9089
▁선동	-9090
▁염색체	-9091
▁쿄	-9092
자르	-9093
▁실버	-9094
▁이현	-9095
▁바이킹	-9096
LS	-9097
▁차르	-9098
▁현은	-9099
▁간단히	-9100
▁점성술	-9101
▁MB	-9102
▁공고	-9103
▁옥스퍼드	-9104
▁김제	-9105
▁대두	-9106
▁엔딩	-9107
▁연봉	-9108
▁카미	-9109
▁사회당	-9110
▁고산	-9111
▁두께	-9112
▁박지	-9113
▁소말	-9114
▁타케	-9115
레슬링	-9116
▁장기간	-9117
루아	-9118
▁스님	-9119
▁노태우	-9120
▁페널티	-9121
IG	-9122
▁어찌	-9123
링턴	-9124
사리	-9125
▁134	-9126
▁KIA	-9127
▁파이터	-9128
▁불신	-9129
▁페니	-9130
▁조수	-9131
▁토기	-9132
▁학대	-9133
▁개인전	-9134
내리	-9135
▁하비	-9136
▁광저우	-9137
▁쓰레기	-9138
▁요르단	-9139
▁피고인	-9140
▁아라비아	-9141
▁케임브리지	-9142
▁례	-9143
▁마우	-9144
▁보헤	-9145
▁스텔	-9146
▁원본	-9147
▁카프	-9148
▁호모	-9149
▁}	-9150
▁분수	-9151
▁상금	-9152
▁크레이	-9153
▁썰	-9154
▁공예	-9155
▁극대	-9156
▁어뢰	-9157
베트남	-9158
▁갈리아	-9159
▁당연히	-9160
▁모서리	-9161
▁무함마드	-9162
▁아리스토	-9163
ug	-9164
펜하	-9165
▁남매	-9166
▁훔치	-9167
▁All	-9168
▁푸에르	-9169
▁좌측	-9170
▁토요	-9171
노미야	-9172
▁트로피	-9173
▁패밀리	-9174
▁프로레슬링	-9175
대장	-9176
▁독성	-9177
▁삼촌	-9178
▁직경	-9179
▁대구광역시	-9180
▁사업가	-9181
▁전염병	-9182
▁1903	-9183
기스	-9184
▁레즈	-9185
▁회상	-9186
▁THE	-9187
▁공명	-9188
▁미륵	-9189
▁산출	-9190
▁섹스	-9191
▁어둠	-9192
▁질소	-9193
▁1884	-9194
▁가역	-9195
▁루타	-9196
▁캐서	-9197
▁One	-9198
▁개화	-9199
▁다마	-9200
클레스	-9201
▁미시시피	-9202
ase	-9203
▁교대	-9204
▁군산	-9205
▁라그	-9206
▁터보	-9207
▁아인슈타인	-9208
카미	-9209
▁패널	-9210
▁Gr	-9211
▁구형	-9212
▁노보	-9213
▁오쿠	-9214
▁날카롭	-9215
정리	-9216
▁이병	-9217
▁중령	-9218
라이어	-9219
테르담	-9220
▁더욱이	-9221
▁알렉산드리아	-9222
▁김홍	-9223
▁정선	-9224
▁만주국	-9225
▁홈구장	-9226
아웃	-9227
카타	-9228
▁뮤지션	-9229
▁신도비	-9230
▁이성계	-9231
▁지도부	-9232
올로	-9233
▁강간	-9234
처스	-9235
퀘어	-9236
▁로저	-9237
▁아브	-9238
▁이관	-9239
▁쓰시마	-9240
ke	-9241
▁EX	-9242
▁메커	-9243
▁원더	-9244
▁언어학	-9245
▁퇴역	-9246
▁드레스	-9247
▁검출	-9248
▁조형	-9249
▁하리	-9250
▁관광지	-9251
▁도널드	-9252
▁쥐과	-9253
▁충청도	-9254
그라	-9255
▁AN	-9256
▁물가	-9257
▁반공	-9258
▁헌정	-9259
▁표기법	-9260
▁프레드	-9261
▁강대	-9262
▁기분	-9263
▁깨지	-9264
▁에콰	-9265
▁에콰도르	-9266
▁농부	-9267
▁퇴적	-9268
▁함선	-9269
▁이태	-9270
▁아폴로	-9271
▁클라이	-9272
▁니콜라이	-9273
▁발렌시아	-9274
▁군함	-9275
▁실재	-9276
▁우치	-9277
▁전위	-9278
도스	-9279
▁Cl	-9280
▁LA	-9281
▁공황	-9282
▁제로	-9283
▁야마구치	-9284
▁간신	-9285
▁실무	-9286
▁파병	-9287
▁방글라	-9288
▁도요토미	-9289
▁방글라데시	-9290
▁비타	-9291
▁우회	-9292
▁의결	-9293
▁히타	-9294
▁히로시	-9295
▁1800	-9296
고스	-9297
텍처	-9298
▁구스	-9299
▁대문	-9300
▁마르틴	-9301
▁슬라브	-9302
▁조반니	-9303
▁아키텍처	-9304
▁묶이	-9305
▁장벽	-9306
▁하차	-9307
▁득표율	-9308
▁내걸	-9309
▁뒤쪽	-9310
▁정유	-9311
▁꼭대기	-9312
▁프란체	-9313
▁도선	-9314
▁인질	-9315
▁진전	-9316
▁복합체	-9317
▁까닭	-9318
▁단면	-9319
▁상고	-9320
라이언트	-9321
그레	-9322
리코	-9323
▁건륭	-9324
▁경작	-9325
▁곡물	-9326
▁철폐	-9327
▁컨트리	-9328
푸르	-9329
▁마키	-9330
▁거짓말	-9331
▁마르코	-9332
아들	-9333
▁비뉴	-9334
▁토시	-9335
▁회피	-9336
사이드	-9337
테이션	-9338
▁민간인	-9339
▁클라이언트	-9340
니시	-9341
▁달걀	-9342
방울	-9343
▁밀란	-9344
▁리더십	-9345
▁삼국지	-9346
▁감안	-9347
▁돌기	-9348
▁발칸	-9349
▁선우	-9350
▁을까	-9351
▁카사	-9352
사우	-9353
▁강희	-9354
▁당수	-9355
▁해남	-9356
▁기념관	-9357
▁콤팩트	-9358
가르	-9359
간지	-9360
▁용서	-9361
ree	-9362
▁전복	-9363
▁한층	-9364
▁CN	-9365
▁가오	-9366
▁무슨	-9367
▁흥선	-9368
▁가브리	-9369
▁기념비	-9370
▁소방서	-9371
▁중앙아시아	-9372
▁상가	-9373
▁시야	-9374
▁아나키	-9375
▁총대주교	-9376
▁분출	-9377
▁일렉트로	-9378
▁데카	-9379
▁분량	-9380
▁방사성	-9381
▁에디션	-9382
하키	-9383
▁대출	-9384
▁상경	-9385
▁안경	-9386
▁염소	-9387
▁유부	-9388
▁교도소	-9389
▁북아프리카	-9390
▁권장	-9391
▁에밀	-9392
▁우물	-9393
▁전구	-9394
▁코믹	-9395
▁소수자	-9396
▁소행성	-9397
▁일자리	-9398
▁그레이트	-9399
개골	-9400
▁상응	-9401
▁자형	-9402
▁창녕	-9403
▁취항	-9404
▁현감	-9405
▁활주	-9406
▁되돌리	-9407
네마	-9408
불교	-9409
산맥	-9410
▁경인	-9411
▁기슭	-9412
▁이북	-9413
▁남동생	-9414
▁모리스	-9415
▁카를로	-9416
▁메커니즘	-9417
▁팟	-9418
▁IN	-9419
▁깨끗	-9420
▁냄새	-9421
▁발령	-9422
▁수목	-9423
▁신축	-9424
가와현	-9425
▁다케다	-9426
▁팰	-9427
ass	-9428
▁견인	-9429
▁궁중	-9430
▁가산	-9431
▁각색	-9432
▁거주지	-9433
▁with	-9434
▁등용	-9435
▁정화	-9436
▁복소수	-9437
▁맞붙	-9438
▁스토어	-9439
▁막스	-9440
▁상트	-9441
▁폭로	-9442
▁페이스북	-9443
▁가계	-9444
▁낙동	-9445
▁세바	-9446
▁220	-9447
▁기관총	-9448
▁와일드	-9449
▁격차	-9450
▁관절	-9451
▁농사	-9452
▁러스	-9453
▁모모	-9454
▁반군	-9455
▁소자	-9456
▁침체	-9457
▁볼리비아	-9458
사업	-9459
act	-9460
▁116	-9461
▁뉴욕주	-9462
곡동	-9463
구역	-9464
▁Br	-9465
▁마가	-9466
▁심화	-9467
▁오사카부	-9468
파리	-9469
▁가열	-9470
▁기저	-9471
▁버마	-9472
▁상법	-9473
▁접수	-9474
▁아미노산	-9475
▁브란	-9476
▁세키	-9477
▁평창	-9478
▁지지율	-9479
▁홍문관	-9480
▁라오	-9481
▁일파	-9482
▁준주	-9483
▁추첨	-9484
▁1897	-9485
번뇌	-9486
▁Ad	-9487
▁일부분	-9488
▁전시회	-9489
▁포스터	-9490
▁요약	-9491
▁취미	-9492
▁태백	-9493
11	-9494
▁교량	-9495
▁장자	-9496
▁후작	-9497
▁1860	-9498
▁스트라이크	-9499
▁가의	-9500
▁안산	-9501
▁강남구	-9502
쿠버	-9503
▁리만	-9504
▁반전	-9505
▁샌드	-9506
▁티코	-9507
▁쓸	-9508
▁보성	-9509
▁절단	-9510
▁한국방송공사	-9511
▁갈래	-9512
▁민정	-9513
▁음향	-9514
▁교육청	-9515
▁방송인	-9516
▁델타	-9517
▁체력	-9518
▁버클리	-9519
▁캐서린	-9520
pt	-9521
▁홉	-9522
▁ㄴ지	-9523
▁구약	-9524
▁마니	-9525
▁적군	-9526
▁앰	-9527
역학	-9528
▁특색	-9529
▁효고	-9530
ream	-9531
▁마카오	-9532
▁카스티	-9533
▁네오	-9534
▁사살	-9535
▁올드	-9536
▁찰리	-9537
▁추론	-9538
▁중공업	-9539
▁나루	-9540
▁리조	-9541
▁데스크	-9542
▁공약	-9543
▁오로	-9544
▁중원	-9545
▁아소	-9546
▁꿀	-9547
벤처	-9548
▁;&	-9549
▁르노	-9550
▁마블	-9551
▁북경	-9552
▁장제	-9553
▁효종	-9554
▁어드벤처	-9555
▁저렴	-9556
▁배우자	-9557
▁연대기	-9558
▁GO	-9559
▁대관	-9560
▁델라	-9561
▁안치	-9562
▁후반기	-9563
▁수료	-9564
▁타우	-9565
▁이주하	-9566
▁치우	-9567
▁휴가	-9568
▁알프레	-9569
▁바르샤바	-9570
나드	-9571
▁Ex	-9572
▁고이	-9573
▁글래	-9574
▁살피	-9575
▁애리	-9576
▁집결	-9577
▁카타르	-9578
▁가신	-9579
▁돌입	-9580
▁확진	-9581
기념물	-9582
▁Is	-9583
▁가가	-9584
▁공손	-9585
▁복권	-9586
▁샌디	-9587
▁전산	-9588
▁합당	-9589
▁122	-9590
▁경제학자	-9591
▁떡	-9592
▁랍	-9593
▁청색	-9594
▁메라	-9595
▁청소	-9596
▁사카이	-9597
▁안드레아	-9598
포터	-9599
▁벽화	-9600
▁이반	-9601
▁종파	-9602
▁카즈	-9603
▁스크립트	-9604
캐롤라이나	-9605
반구	-9606
산성	-9607
퍼슨	-9608
▁리히	-9609
▁전격	-9610
▁쿠니	-9611
▁게릴라	-9612
▁마당	-9613
▁수중	-9614
▁신정	-9615
▁짐작	-9616
▁미네소	-9617
▁그레고리오	-9618
▁보강	-9619
츠크	-9620
▁석불	-9621
▁석회	-9622
▁소행	-9623
▁이빨	-9624
▁창의	-9625
▁타지	-9626
▁타협	-9627
스카르	-9628
▁솔루션	-9629
▁세네	-9630
▁모티브	-9631
▁눕	-9632
▁뻔	-9633
▁감추	-9634
▁갑옷	-9635
▁막시	-9636
▁실적	-9637
▁괴롭히	-9638
▁마라톤	-9639
▁새로이	-9640
▁클라크	-9641
▁브룩	-9642
▁쥐속	-9643
▁2022	-9644
▁입주	-9645
▁쳐들	-9646
▁1880	-9647
▁고토	-9648
▁무로	-9649
▁정경	-9650
▁종말	-9651
▁처지	-9652
▁ᆫ다며	-9653
▁셜	-9654
▁강풍	-9655
▁과실	-9656
▁루크	-9657
▁확고	-9658
▁나란히	-9659
▁스퀘어	-9660
▁유닉스	-9661
▁돌아다니	-9662
거진	-9663
▁호응	-9664
▁인테르	-9665
푸아	-9666
▁마애	-9667
▁이언	-9668
▁두개골	-9669
▁아마존	-9670
▁동형	-9671
▁무술	-9672
▁출석	-9673
▁화순	-9674
▁상트페	-9675
▁상트페테르부르크	-9676
콥터	-9677
▁신동	-9678
▁열심	-9679
▁옥수수	-9680
▁엮	-9681
▁모용	-9682
▁윤보	-9683
▁칼뱅	-9684
▁con	-9685
▁갤러리	-9686
▁유대교	-9687
▁BM	-9688
▁메릴	-9689
▁빈도	-9690
▁사적	-9691
▁연동	-9692
▁장원	-9693
▁교육부	-9694
▁설립자	-9695
리즘	-9696
▁강철	-9697
▁선장	-9698
▁팔레	-9699
▁CEO	-9700
▁제작사	-9701
▁그리스인	-9702
▁흥선대원군	-9703
ii	-9704
▁군청	-9705
▁극도	-9706
▁어로	-9707
▁유정	-9708
▁손꼽히	-9709
▁번성	-9710
▁연못	-9711
▁오락	-9712
▁종점	-9713
▁즐겁	-9714
▁133	-9715
▁극작가	-9716
▁함부르크	-9717
기구	-9718
▁급수	-9719
▁기성	-9720
▁용암	-9721
▁이장	-9722
▁입양	-9723
▁호쿠	-9724
▁NGC	-9725
▁공용어	-9726
▁진행자	-9727
▁파라과이	-9728
▁노이	-9729
▁함양	-9730
▁경쟁력	-9731
네시	-9732
▁등극	-9733
▁무스	-9734
▁제리	-9735
▁추종	-9736
▁콘테	-9737
▁이동하	-9738
▁그렇지만	-9739
▁일괄	-9740
▁제왕	-9741
▁추리	-9742
▁소령	-9743
▁예명	-9744
▁자결	-9745
▁릴리	-9746
▁그림자	-9747
▁기상청	-9748
▁붙여지	-9749
▁키예프	-9750
나미	-9751
타케	-9752
iss	-9753
▁가네	-9754
▁몽고	-9755
▁야시	-9756
니지	-9757
▁명분	-9758
▁블리	-9759
▁수녀	-9760
어뜨리	-9761
▁디트로	-9762
▁엘리트	-9763
▁디트로이트	-9764
aw	-9765
ake	-9766
▁왕정	-9767
▁진료	-9768
자치시	-9769
▁준결승전	-9770
▁천연기념물	-9771
▁특별자치시	-9772
▁낚	-9773
own	-9774
▁스노	-9775
▁프렌	-9776
사관학교	-9777
▁Mus	-9778
▁프랭클린	-9779
▁스트라이커	-9780
▁오지	-9781
▁탁월	-9782
케이	-9783
▁숙주	-9784
▁유령	-9785
▁슛	-9786
▁듀얼	-9787
▁심야	-9788
▁이데	-9789
▁프롤	-9790
▁농어	-9791
▁스로	-9792
▁앞장	-9793
몰로지	-9794
▁아래쪽	-9795
▁사쿠	-9796
▁온갖	-9797
▁CBS	-9798
▁싣	-9799
▁국유	-9800
▁아치	-9801
▁우상	-9802
▁이득	-9803
▁해치	-9804
▁일러스트	-9805
해지	-9806
▁수년	-9807
▁원격	-9808
▁재난	-9809
▁무궁화	-9810
▁미생물	-9811
▁앨리스	-9812
▁사무총장	-9813
▁반역	-9814
▁위생	-9815
▁이규	-9816
▁타석	-9817
▁평민	-9818
세기	-9819
▁파우	-9820
▁법정동	-9821
▁애틀랜타	-9822
▁조계	-9823
▁ES	-9824
▁미셸	-9825
▁코리	-9826
▁GDP	-9827
▁대사헌	-9828
▁위나라	-9829
미스	-9830
▁김민	-9831
▁도사	-9832
▁장흥	-9833
▁무조건	-9834
▁포도당	-9835
▁그레고리	-9836
▁감동	-9837
▁고추	-9838
▁빈번	-9839
▁속편	-9840
▁펜싱	-9841
▁vs	-9842
▁개항	-9843
▁자카	-9844
▁헬륨	-9845
▁결핍	-9846
▁문경	-9847
▁자생	-9848
▁겉보기	-9849
▁동성애자	-9850
HO	-9851
그래	-9852
▁정인	-9853
▁삼국사기	-9854
UR	-9855
▁섀	-9856
▁워치	-9857
▁주지	-9858
▁툰	-9859
멘스	-9860
원장	-9861
타마	-9862
old	-9863
▁꿈꾸	-9864
▁막히	-9865
▁132	-9866
clude	-9867
▁스리랑카	-9868
▁니카	-9869
▁속이	-9870
▁지청	-9871
▁진수	-9872
▁하고	-9873
▁파이프	-9874
Hz	-9875
▁더비	-9876
▁동참	-9877
▁상연	-9878
▁유스	-9879
▁정관	-9880
▁지방산	-9881
▁동요	-9882
▁듀오	-9883
▁대성전	-9884
▁인프라	-9885
▁글로브	-9886
림픽	-9887
에미	-9888
▁수심	-9889
▁시종	-9890
▁애칭	-9891
▁대지진	-9892
▁시뮬레이션	-9893
버러	-9894
헌영	-9895
▁아데	-9896
▁마우스	-9897
▁두렵	-9898
▁총무	-9899
▁호족	-9900
▁기병대	-9901
위성	-9902
▁광양	-9903
▁초원	-9904
▁NE	-9905
▁결제	-9906
▁리모	-9907
거래	-9908
▁불행	-9909
▁인디애나	-9910
스기	-9911
▁++	-9912
▁베른	-9913
▁현행	-9914
미즈	-9915
▁대국	-9916
▁맹세	-9917
▁상기	-9918
▁현직	-9919
▁조병	-9920
메다	-9921
ork	-9922
▁속주	-9923
▁암흑	-9924
▁자세히	-9925
천사	-9926
파크	-9927
▁발각	-9928
▁빠져	-9929
▁신상	-9930
▁주화	-9931
▁쾰	-9932
▁헛	-9933
▁격자	-9934
▁재해	-9935
GA	-9936
ix	-9937
렉션	-9938
▁성령	-9939
바야시	-9940
▁농산물	-9941
▁마다가	-9942
▁통틀어	-9943
▁kt	-9944
▁브랜	-9945
▁루비	-9946
▁미주리	-9947
▁보헤미아	-9948
▁극락	-9949
▁호의	-9950
ence	-9951
▁요제프	-9952
lo	-9953
할시	-9954
해튼	-9955
▁Ro	-9956
▁or	-9957
▁김병	-9958
▁단과	-9959
▁무르	-9960
▁장대	-9961
▁파문	-9962
▁복음서	-9963
벨라	-9964
ick	-9965
▁가타	-9966
▁국수	-9967
▁요법	-9968
▁초고	-9969
위원회	-9970
▁아스널	-9971
▁공표	-9972
▁표창	-9973
▁피로	-9974
러피	-9975
변이	-9976
▁숨지	-9977
▁해부	-9978
▁돌연변이	-9979
▁볼셰비키	-9980
▁패럴림픽	-9981
()	-9982
▁현황	-9983
▁호리	-9984
▁pro	-9985
▁저널리	-9986
▁낙하	-9987
▁아요	-9988
▁따라가	-9989
▁른	-9990
▁김옥	-9991
▁대각	-9992
▁밀러	-9993
▁제너	-9994
▁투항	-9995
▁평안남도	-9996
마리	-9997
▁감금	-9998
▁공파	-9999
▁소울	-10000
▁아빠	-10001
▁의과	-10002
▁입수	-10003
▁청자	-10004
▁오로지	-10005
를테	-10006
▁세손	-10007
▁저격	-10008
를테면	-10009
▁우체국	-10010
▁1870	-10011
▁이를테면	-10012
▁휩쓸	-10013
▁모터스	-10014
▁활주로	-10015
▁후속작	-10016
라기	-10017
루냐	-10018
▁양육	-10019
▁재질	-10020
▁정국	-10021
▁총기	-10022
▁매거진	-10023
▁합스부르크	-10024
▁뾰	-10025
▁생계	-10026
▁댓	-10027
▁만년	-10028
▁서장	-10029
▁퇴장	-10030
▁틀리	-10031
▁페로	-10032
▁포고	-10033
▁타이베이	-10034
▁우즈베키스탄	-10035
▁PR	-10036
▁난이	-10037
▁내면	-10038
▁수염	-10039
▁이븐	-10040
▁황도	-10041
▁소피아	-10042
CAF	-10043
▁리터	-10044
▁우아	-10045
▁카바	-10046
브리아	-10047
▁창시자	-10048
▁부조	-10049
▁시국	-10050
ance	-10051
▁대장군	-10052
▁활발히	-10053
▁숀	-10054
▁관동	-10055
▁Mar	-10056
▁NAS	-10057
▁애리조	-10058
▁중앙부	-10059
삭스	-10060
▁맞대	-10061
▁앞쪽	-10062
▁단행본	-10063
플로	-10064
▁To	-10065
▁감수	-10066
▁돌출	-10067
▁말년	-10068
▁머스	-10069
▁아쿠	-10070
▁전날	-10071
▁카터	-10072
▁450	-10073
▁1885	-10074
▁국당	-10075
▁국악	-10076
▁비늘	-10077
▁원심	-10078
▁끌려가	-10079
▁수원시	-10080
▁평안북도	-10081
▁아이스하키	-10082
홀름	-10083
▁왜구	-10084
▁중상	-10085
▁매끄럽	-10086
▁프랜시스	-10087
▁마르크스주의	-10088
▁엥	-10089
▁Ph	-10090
▁리바	-10091
▁반성	-10092
▁수교	-10093
▁지로	-10094
▁1871	-10095
라고	-10096
어오	-10097
▁벤치	-10098
▁청동기	-10099
▁DM	-10100
▁un	-10101
▁로페	-10102
▁배속	-10103
▁복식	-10104
▁차리	-10105
▁티켓	-10106
EM	-10107
공산	-10108
쩌둥	-10109
▁마오쩌둥	-10110
▁경질	-10111
▁세븐	-10112
▁참사	-10113
▁짱	-10114
irl	-10115
▁GN	-10116
▁바디	-10117
테리아	-10118
십자	-10119
▁신종	-10120
▁이모	-10121
▁로렌스	-10122
▁비주얼	-10123
▁편집자	-10124
▁USS	-10125
▁중생	-10126
▁증인	-10127
▁1600	-10128
▁냐는	-10129
▁로리	-10130
▁매직	-10131
▁빅토르	-10132
▁알래스카	-10133
▁맷	-10134
▁쿡	-10135
제이	-10136
ear	-10137
▁관행	-10138
▁다람쥐	-10139
ection	-10140
▁즘	-10141
돌리	-10142
▁볼프	-10143
▁케라	-10144
▁콘스탄티노폴리스	-10145
티시	-10146
▁시애	-10147
러피언	-10148
타이드	-10149
▁240	-10150
▁내무부	-10151
▁다나카	-10152
▁지성	-10153
lass	-10154
▁앤더슨	-10155
▁내성	-10156
▁빨갛	-10157
▁역도	-10158
▁이룩	-10159
▁자칭	-10160
▁흉노	-10161
▁프레이	-10162
파이	-10163
▁민요	-10164
▁이양	-10165
▁콜레	-10166
▁휴게	-10167
▁불태우	-10168
▁양성자	-10169
▁1200	-10170
▁유러피언	-10171
▁수인	-10172
▁스태	-10173
▁청룡	-10174
▁마닐라	-10175
▁알렉스	-10176
▁오클랜드	-10177
틀리	-10178
▁당내	-10179
▁성실	-10180
▁요지	-10181
▁위스	-10182
▁제동	-10183
▁테일	-10184
▁화랑	-10185
텔레스	-10186
▁박헌영	-10187
▁개헌	-10188
▁수다	-10189
▁유료	-10190
▁친분	-10191
▁해저	-10192
▁only	-10193
▁이완	-10194
▁반란군	-10195
▁센고쿠	-10196
▁역사가	-10197
▁유권자	-10198
ild	-10199
▁개개	-10200
▁능선	-10201
▁부각	-10202
테쓰	-10203
▁려던	-10204
▁장단	-10205
▁조광	-10206
▁프로리그	-10207
컨대	-10208
▁루카	-10209
▁지오	-10210
▁잡아먹	-10211
▁파나마	-10212
▁중서	-10213
▁시애틀	-10214
▁케이프	-10215
관리	-10216
▁SL	-10217
▁무척	-10218
▁아무것	-10219
올라	-10220
▁교실	-10221
▁봉수	-10222
▁상급	-10223
▁이방	-10224
▁김정은	-10225
▁궁궐	-10226
▁분과	-10227
▁카니	-10228
▁탑신	-10229
▁오른손	-10230
체고	-10231
▁부원군	-10232
▁예정자	-10233
체고비나	-10234
▁아리스토텔레스	-10235
▁멍	-10236
▁플랜	-10237
▁한하	-10238
▁왕세자	-10239
▁하노이	-10240
▁실험실	-10241
▁윤보선	-10242
▁마다가스카르	-10243
메스	-10244
▁남용	-10245
▁몸통	-10246
▁섬세	-10247
▁재외	-10248
▁초빙	-10249
▁출가	-10250
▁앤드루	-10251
▁제조업	-10252
▁프라하	-10253
맥스	-10254
▁구니	-10255
▁조례	-10256
▁김규식	-10257
▁맨해튼	-10258
▁유치원	-10259
▁정제	-10260
▁동대문	-10261
▁루돌프	-10262
OV	-10263
▁AD	-10264
▁각성	-10265
▁생선	-10266
▁시중	-10267
▁창문	-10268
▁총애	-10269
▁통역	-10270
▁퍼포	-10271
▁성남시	-10272
▁겁	-10273
▁재활	-10274
▁공민왕	-10275
▁구마모토	-10276
▁브레이크	-10277
무소	-10278
▁경희	-10279
▁리비	-10280
▁바트	-10281
▁배려	-10282
▁송도	-10283
▁파인	-10284
▁MTV	-10285
▁미군정	-10286
▁신문사	-10287
▁해리슨	-10288
▁퍼포먼스	-10289
드슨	-10290
ans	-10291
▁경시	-10292
▁실존	-10293
▁차용	-10294
▁칼럼	-10295
▁고쿠	-10296
▁관문	-10297
▁오미	-10298
▁징병	-10299
▁경영자	-10300
▁동물원	-10301
▁호크	-10302
면체	-10303
▁가솔	-10304
▁독창	-10305
▁서산	-10306
▁약혼	-10307
▁지쿠	-10308
사상	-10309
▁대대로	-10310
▁헬리콥터	-10311
천면	-10312
▁농경	-10313
▁뾰족	-10314
▁괄	-10315
코토	-10316
▁Sy	-10317
▁국보	-10318
▁독도	-10319
▁트릭	-10320
▁포착	-10321
▁위너스	-10322
▁줄거리	-10323
▁크라이	-10324
▁러시아인	-10325
▁남산	-10326
▁수필	-10327
▁하반	-10328
▁EBS	-10329
ivers	-10330
▁CM	-10331
▁커플	-10332
▁퍼스	-10333
▁는다면	-10334
▁제퍼슨	-10335
▁시합	-10336
▁함자	-10337
▁리조트	-10338
▁퍼스트	-10339
▁나선	-10340
▁남해	-10341
▁얕	-10342
▁구청	-10343
▁김원	-10344
▁화기	-10345
▁동유럽	-10346
어사	-10347
ype	-10348
▁에프	-10349
▁총통	-10350
▁칙령	-10351
▁통용	-10352
▁경호	-10353
▁나인	-10354
▁욕망	-10355
▁클린턴	-10356
▁뉴클	-10357
▁유혹	-10358
▁사각형	-10359
▁드미	-10360
▁스가	-10361
▁시노	-10362
▁케인	-10363
▁파도	-10364
▁학설	-10365
▁데려오	-10366
▁클레이	-10367
▁올림피아	-10368
ish	-10369
▁모호	-10370
▁안녕	-10371
▁전래	-10372
▁하류	-10373
include	-10374
▁모의	-10375
▁마차	-10376
▁주입	-10377
▁브루스	-10378
▁서재필	-10379
▁선거법	-10380
▁솔로몬	-10381
▁스테파	-10382
▁가늘	-10383
▁신발	-10384
▁일리	-10385
▁테라	-10386
▁효자	-10387
▁레이크	-10388
▁해리스	-10389
▁들여	-10390
▁산호	-10391
▁카지	-10392
▁Jo	-10393
▁주임	-10394
▁차갑	-10395
GM	-10396
▁일당	-10397
▁자제	-10398
▁허정	-10399
▁예수회	-10400
통일	-10401
▁관청	-10402
▁나우	-10403
▁무실	-10404
▁성화	-10405
▁실정	-10406
▁절망	-10407
▁메이커	-10408
▁케플러	-10409
토랑	-10410
▁":	-10411
▁반기	-10412
▁보행	-10413
▁씨앗	-10414
▁찬사	-10415
▁평형	-10416
▁레스토랑	-10417
▁총사령관	-10418
fe	-10419
▁광도	-10420
▁당연	-10421
▁보로	-10422
▁시부	-10423
▁하키	-10424
▁화엄	-10425
▁자치체	-10426
원수	-10427
▁보라	-10428
▁수양	-10429
▁호스	-10430
▁예선전	-10431
▁정의당	-10432
▁함경남도	-10433
oun	-10434
▁NT	-10435
▁천왕	-10436
▁대합실	-10437
▁아키라	-10438
에스	-10439
▁진해	-10440
▁카테	-10441
▁분류군	-10442
▁요시다	-10443
OD	-10444
신문	-10445
▁찬양	-10446
▁침묵	-10447
▁방어선	-10448
▁비밀리	-10449
히트	-10450
▁라서	-10451
▁만장	-10452
▁전무	-10453
▁제물	-10454
AF	-10455
▁@	-10456
환경	-10457
▁로버	-10458
▁메카	-10459
▁분파	-10460
▁ex	-10461
▁메뉴	-10462
▁박종	-10463
▁소음	-10464
▁테리	-10465
▁포식	-10466
▁뛰어들	-10467
정원	-10468
▁ㅓ야	-10469
▁검정	-10470
▁담보	-10471
▁마술	-10472
▁이점	-10473
▁폭파	-10474
▁긴테쓰	-10475
▁내야수	-10476
▁극한	-10477
▁보수당	-10478
▁벅	-10479
▁고든	-10480
az	-10481
창호	-10482
are	-10483
▁sc	-10484
▁본성	-10485
▁시몬	-10486
▁다저스	-10487
▁플라톤	-10488
바흐	-10489
▁리보	-10490
▁색소	-10491
▁천국	-10492
▁알프스	-10493
▁컴퓨팅	-10494
▁김유	-10495
▁다테	-10496
▁대북	-10497
▁엄밀	-10498
▁한미	-10499
▁개구리	-10500
라니	-10501
▁도둑	-10502
▁매리	-10503
▁블레	-10504
▁수복	-10505
▁원통	-10506
▁캐롤	-10507
▁리프트	-10508
▁뉴클레오	-10509
▁네이션스컵	-10510
▁넷째	-10511
▁라자	-10512
▁리사	-10513
▁문고	-10514
▁소극	-10515
▁소중	-10516
▁비타민	-10517
▁서대문	-10518
▁아키타	-10519
▁도교	-10520
▁드루	-10521
▁블로	-10522
▁영유	-10523
▁웨인	-10524
▁파손	-10525
▁프론	-10526
▁친위대	-10527
▁스톡홀름	-10528
다운	-10529
▁마셜	-10530
▁어군	-10531
▁전담	-10532
▁ABC	-10533
▁바이트	-10534
러브	-10535
▁강령	-10536
▁스텝	-10537
▁카피	-10538
ical	-10539
등식	-10540
▁구두	-10541
▁치과	-10542
▁타스	-10543
▁용인시	-10544
▁유아기	-10545
▁와이번스	-10546
▁왕건	-10547
▁프린스	-10548
메드	-10549
▁노론	-10550
▁모어	-10551
▁방콕	-10552
▁황소	-10553
▁오리온	-10554
▁자치주	-10555
lat	-10556
▁대본	-10557
▁동로	-10558
▁리베	-10559
▁실권	-10560
▁포토	-10561
▁나트륨	-10562
▁앞장서	-10563
대표	-10564
암동	-10565
▁묘비	-10566
▁백두	-10567
▁불변	-10568
▁장시	-10569
▁채취	-10570
TP	-10571
▁국공	-10572
▁홀리	-10573
▁스폰서	-10574
▁투자자	-10575
IR	-10576
▁따지	-10577
▁마켓	-10578
▁로드리	-10579
▁책임지	-10580
▁가브리엘	-10581
▁북아일랜드	-10582
EG	-10583
부르	-10584
▁구실	-10585
▁벤처	-10586
▁선천	-10587
▁천거	-10588
▁추이	-10589
▁멧	-10590
매매	-10591
▁DD	-10592
▁슬픔	-10593
▁대원군	-10594
▁피라미	-10595
▁피아니스트	-10596
▁샐	-10597
▁럭비	-10598
▁로얄	-10599
▁여유	-10600
▁마천루	-10601
▁유격수	-10602
군다	-10603
▁왕권	-10604
▁화약	-10605
▁ATP	-10606
▁동시대	-10607
지능	-10608
▁Fr	-10609
▁야전	-10610
▁잇따르	-10611
▁인공지능	-10612
▁CH	-10613
▁강렬	-10614
▁사방	-10615
▁야드	-10616
▁쾰른	-10617
▁퇴직	-10618
말리	-10619
▁AV	-10620
▁결별	-10621
▁상행	-10622
▁헬싱	-10623
▁210	-10624
▁마누엘	-10625
EL	-10626
▁감찰	-10627
▁구내	-10628
▁로크	-10629
▁슬하	-10630
▁이의	-10631
▁톈진	-10632
▁가이드	-10633
▁연산군	-10634
▁토스카	-10635
▁튀르크	-10636
▁간첩	-10637
▁정거	-10638
▁특전	-10639
▁선구자	-10640
▁안테나	-10641
▁정부군	-10642
덴부르크	-10643
티넘	-10644
▁방치	-10645
▁삼존	-10646
▁스칸	-10647
▁제노	-10648
▁연극배우	-10649
▁플래티넘	-10650
▁헤르체고비나	-10651
▁어는	-10652
▁적외선	-10653
▁화강암	-10654
FL	-10655
▁사역	-10656
▁차출	-10657
▁사로잡	-10658
▁콘테스트	-10659
놀이	-10660
대교	-10661
▁가맹	-10662
▁별세	-10663
▁가락	-10664
▁그저	-10665
▁뭉치	-10666
▁약사	-10667
▁준수	-10668
▁펌프	-10669
▁아나톨	-10670
▁아이폰	-10671
▁주차장	-10672
ey	-10673
▁pr	-10674
▁마에	-10675
▁불참	-10676
▁삼림	-10677
▁유선	-10678
▁간신히	-10679
▁도망가	-10680
▁알파벳	-10681
▁접어들	-10682
▁프레데	-10683
ica	-10684
▁위그	-10685
▁중퇴	-10686
사고	-10687
수스	-10688
▁마땅	-10689
▁부치	-10690
▁켈트	-10691
▁두려움	-10692
▁오바마	-10693
▁타이어	-10694
▁늙	-10695
▁공존	-10696
▁극우	-10697
▁김형	-10698
▁여서	-10699
▁종식	-10700
▁최진	-10701
▁말미암	-10702
▁목요일	-10703
▁엔트리	-10704
▁딥	-10705
▁본작	-10706
▁아끼	-10707
▁임정	-10708
▁드디어	-10709
▁초신성	-10710
▁소말리아	-10711
▁건전	-10712
▁리본	-10713
▁모하	-10714
▁애정	-10715
와라노	-10716
▁경전철	-10717
▁후지와라노	-10718
▁반포	-10719
▁봉화	-10720
▁실록	-10721
▁영예	-10722
▁유목	-10723
▁이송	-10724
▁집정	-10725
▁열심히	-10726
▁1889	-10727
▁스카우트	-10728
클레	-10729
▁he	-10730
▁비엔	-10731
▁산성	-10732
▁아날	-10733
▁요충	-10734
▁칸국	-10735
▁기관지	-10736
60	-10737
소통	-10738
▁밸리	-10739
▁연말	-10740
▁가솔린	-10741
▁엣	-10742
▁모금	-10743
▁여권	-10744
▁영정	-10745
▁전전	-10746
▁직통	-10747
▁치루	-10748
▁플리	-10749
▁패트릭	-10750
천동	-10751
▁갈아	-10752
▁감성	-10753
▁로트	-10754
▁새우	-10755
▁송신	-10756
▁예약	-10757
▁쿠퍼	-10758
▁호대	-10759
▁발라드	-10760
난성	-10761
부로	-10762
▁하시	-10763
▁형질	-10764
공산당	-10765
▁밴쿠버	-10766
▁구르	-10767
▁능하	-10768
▁베트	-10769
▁우림	-10770
▁절정	-10771
▁중합	-10772
▁고속버스	-10773
▁대영	-10774
▁사설	-10775
▁정형	-10776
▁피지	-10777
▁의사소통	-10778
충류	-10779
▁권하	-10780
▁다윈	-10781
▁불량	-10782
▁낙동강	-10783
▁So	-10784
▁김준	-10785
▁수락	-10786
▁정작	-10787
▁투여	-10788
▁판례	-10789
테이너	-10790
▁로마인	-10791
▁떨어뜨리	-10792
▁타이거스	-10793
▁라리	-10794
▁인가	-10795
▁캐리	-10796
▁똑같이	-10797
▁매트	-10798
▁모색	-10799
▁챙	-10800
▁니혼	-10801
▁미수	-10802
▁열강	-10803
▁의류	-10804
▁For	-10805
▁스트로	-10806
▁비야	-10807
▁악보	-10808
▁정읍	-10809
▁나카무라	-10810
▁감상	-10811
▁금호	-10812
▁받치	-10813
▁작물	-10814
▁종자	-10815
▁주계	-10816
▁지자	-10817
▁메디치	-10818
카리	-10819
▁후배	-10820
추부사	-10821
▁튼	-10822
드레	-10823
위안	-10824
유예	-10825
▁시크	-10826
▁격리	-10827
▁사탕	-10828
▁중수	-10829
▁생존자	-10830
▁JTBC	-10831
바나	-10832
▁무형	-10833
▁사서	-10834
블랜드	-10835
▁Live	-10836
▁CONCA	-10837
풀이	-10838
휴일	-10839
▁삼중	-10840
▁의령	-10841
▁징수	-10842
▁목회	-10843
▁제명	-10844
▁센티미터	-10845
bo	-10846
가미	-10847
▁어시스트	-10848
▁프란체스코	-10849
▁CONCACAF	-10850
▁공소	-10851
▁원군	-10852
▁은거	-10853
▁하야	-10854
▁훙	-10855
▁가두	-10856
▁도피	-10857
▁메소	-10858
▁서임	-10859
▁잠정	-10860
▁클리블랜드	-10861
망디	-10862
▁기이	-10863
▁서태	-10864
▁유희	-10865
▁정종	-10866
▁부딪히	-10867
sh	-10868
▁깜	-10869
▁김명	-10870
▁앙골	-10871
▁요격	-10872
▁미야자키	-10873
캐슬	-10874
▁습윤	-10875
▁유의	-10876
▁트렌	-10877
▁Sou	-10878
▁시네마	-10879
▁프랑스인	-10880
말로	-10881
▁고딕	-10882
▁당기	-10883
▁바지	-10884
▁백과	-10885
▁비준	-10886
▁페트	-10887
▁한중	-10888
바이트	-10889
▁레이싱	-10890
▁카카오	-10891
에미리트	-10892
▁아랍에미리트	-10893
IL	-10894
프로	-10895
▁가도	-10896
▁피라미드	-10897
▁모욕	-10898
▁볼트	-10899
▁송출	-10900
▁연정	-10901
▁익숙	-10902
마르크	-10903
▁여배우	-10904
란토	-10905
▁금산	-10906
▁장학금	-10907
▁가나가와현	-10908
화문	-10909
▁리옹	-10910
▁성곽	-10911
▁치환	-10912
▁해독	-10913
도르프	-10914
하이오	-10915
▁오하이오	-10916
▁카탈루냐	-10917
▁자유민주당	-10918
지기	-10919
▁Time	-10920
EE	-10921
▁EU	-10922
tern	-10923
▁검은색	-10924
▁교통부	-10925
▁에이즈	-10926
▁GB	-10927
▁거미	-10928
▁김광	-10929
▁순종	-10930
▁평평	-10931
▁Com	-10932
▁광복군	-10933
▁레이더	-10934
▁마이어	-10935
▁스타트	-10936
ost	-10937
▁워커	-10938
▁자서	-10939
▁항만	-10940
나마	-10941
에몽	-10942
ood	-10943
▁격추	-10944
▁귀신	-10945
▁무네	-10946
▁벨리	-10947
▁미야기	-10948
▁토리노	-10949
▁캅	-10950
▁Ma	-10951
▁매킨	-10952
▁포털	-10953
▁브레이	-10954
▁Part	-10955
간다	-10956
대사	-10957
▁"&	-10958
▁양심	-10959
▁여사	-10960
▁Col	-10961
▁유니버설	-10962
▁도래	-10963
▁탄약	-10964
▁뉴캐슬	-10965
▁프랑스령	-10966
▁츄	-10967
▁문집	-10968
▁수로	-10969
▁암스	-10970
▁천주	-10971
▁AKB	-10972
▁1848	-10973
▁여고	-10974
▁클러	-10975
▁티아	-10976
▁하구	-10977
▁int	-10978
▁기숙사	-10979
▁대리인	-10980
자루	-10981
▁급여	-10982
▁한림	-10983
▁해피	-10984
▁라이더	-10985
▁레이트	-10986
▁여의도	-10987
현동	-10988
▁무과	-10989
▁추억	-10990
▁해태	-10991
지부	-10992
찌르	-10993
▁모건	-10994
▁우루스	-10995
▁사쓰	-10996
▁조인	-10997
▁토트	-10998
▁대단히	-10999
▁명확히	-11000
▁지상파	-11001
row	-11002
▁가혹	-11003
▁랴오	-11004
▁오만	-11005
▁총격	-11006
▁부총리	-11007
▁국한	-11008
▁사민	-11009
▁추력	-11010
▁프란치	-11011
거스	-11012
으로	-11013
▁재일	-11014
▁바그너	-11015
의사	-11016
▁댄서	-11017
▁워즈	-11018
▁재팬	-11019
▁절벽	-11020
▁공휴일	-11021
▁지배자	-11022
애미	-11023
ous	-11024
▁TR	-11025
▁공성	-11026
span	-11027
▁마이애미	-11028
▁거란	-11029
▁하행	-11030
▁대니얼	-11031
▁정치학	-11032
▁병자	-11033
▁비정	-11034
▁안개	-11035
▁업자	-11036
▁우한	-11037
▁종군	-11038
▁그랜트	-11039
▁튀니지	-11040
▁onlyinclude	-11041
uc	-11042
관계	-11043
브로	-11044
정동	-11045
▁김인	-11046
▁남군	-11047
▁방대	-11048
▁볼로	-11049
▁부합	-11050
프랑크	-11051
▁클라우	-11052
lay	-11053
▁굴절	-11054
▁라르	-11055
▁마법사	-11056
▁법원장	-11057
▁Your	-11058
▁카스티야	-11059
▁공대	-11060
▁몰아	-11061
▁셀레	-11062
▁진로	-11063
▁무찌르	-11064
▁로키	-11065
▁무안	-11066
▁비토	-11067
▁산둥	-11068
▁제위	-11069
페스트	-11070
▁고인돌	-11071
▁대법관	-11072
▁대승불교	-11073
▁보수주의	-11074
orn	-11075
▁EM	-11076
▁보령	-11077
▁비대	-11078
▁SNS	-11079
▁일본국	-11080
▁정거장	-11081
▁교의	-11082
▁선봉	-11083
▁신곡	-11084
▁유식	-11085
▁특화	-11086
파니아	-11087
▁가쿠	-11088
▁경복	-11089
▁단결	-11090
▁설문	-11091
▁OST	-11092
▁페트로	-11093
▁부평	-11094
▁음절	-11095
▁치카	-11096
OP	-11097
ann	-11098
olog	-11099
▁국제법	-11100
메니	-11101
▁리카	-11102
▁사수	-11103
▁선명	-11104
▁인칭	-11105
▁시코쿠	-11106
▁헤어지	-11107
▁관현악단	-11108
ows	-11109
▁국교	-11110
▁동산	-11111
▁지법	-11112
▁대나무	-11113
▁시멘트	-11114
▁검거	-11115
▁용액	-11116
▁아이즈	-11117
▁BC	-11118
▁고로	-11119
▁공영	-11120
▁동진	-11121
▁모빌	-11122
▁문단	-11123
▁케르	-11124
▁Bla	-11125
▁소외	-11126
▁숙부	-11127
▁연립	-11128
해살이	-11129
▁저지대	-11130
▁NASA	-11131
▁GM	-11132
▁꺼내	-11133
▁류큐	-11134
▁마테	-11135
▁부다	-11136
▁서귀	-11137
▁실증	-11138
▁131	-11139
▁제우스	-11140
▁하노버	-11141
히사	-11142
▁대마	-11143
▁메일	-11144
▁중엽	-11145
▁황색	-11146
▁ㄴ다면	-11147
▁방사능	-11148
▁줄기세포	-11149
서스	-11150
▁교부	-11151
▁점포	-11152
▁최선	-11153
▁평지	-11154
▁항체	-11155
▁쪼	-11156
▁적료	-11157
메이카	-11158
▁정보원	-11159
▁카메룬	-11160
▁1883	-11161
▁자메이카	-11162
용차	-11163
▁메스	-11164
▁오디	-11165
▁재편	-11166
▁API	-11167
▁영화상	-11168
지아	-11169
▁고생	-11170
▁골격	-11171
▁기량	-11172
▁베어	-11173
▁초콜	-11174
클리드	-11175
▁ref	-11176
▁그라운드	-11177
▁레드삭스	-11178
▁가중	-11179
▁단군	-11180
▁라디	-11181
▁명소	-11182
▁모범	-11183
▁안방	-11184
▁항우	-11185
▁라파엘	-11186
▁줄리아	-11187
▁도키	-11188
▁범하	-11189
▁전보	-11190
▁편견	-11191
드리아	-11192
▁쾨	-11193
▁남방	-11194
▁다듬	-11195
▁절감	-11196
▁형벌	-11197
▁부상자	-11198
▁예컨대	-11199
▁욱	-11200
▁at	-11201
▁녹화	-11202
▁사림	-11203
▁종양	-11204
▁지석	-11205
▁혼다	-11206
빌라이	-11207
▁날아가	-11208
▁제이슨	-11209
▁체인지	-11210
▁패러디	-11211
▁촛	-11212
칼리	-11213
▁글꼴	-11214
▁기와	-11215
▁램프	-11216
▁봉인	-11217
▁속력	-11218
▁연희	-11219
▁다툼	-11220
▁평판	-11221
레스트	-11222
른스트	-11223
▁가토	-11224
▁관상	-11225
▁타락	-11226
▁하코	-11227
▁학력	-11228
▁한신	-11229
▁비서관	-11230
▁노르망디	-11231
▁녕	-11232
시노	-11233
▁기세	-11234
▁도박	-11235
▁수식	-11236
▁은혜	-11237
▁전한	-11238
네그로	-11239
▁파일럿	-11240
▁중소기업	-11241
▁곶	-11242
합성	-11243
▁무작	-11244
▁본뜨	-11245
▁응급	-11246
▁후진	-11247
▁라기	-11248
▁무섭	-11249
▁탄자	-11250
▁교향악단	-11251
제품	-11252
▁송파	-11253
▁유우	-11254
▁하남	-11255
▁연구회	-11256
▁판소리	-11257
▁경위	-11258
▁삽화	-11259
▁유공	-11260
▁이회	-11261
▁에스페	-11262
▁u	-11263
▁계주	-11264
▁니키	-11265
▁라바	-11266
▁산요	-11267
▁상어	-11268
▁코소	-11269
▁연장전	-11270
▁공무	-11271
▁근사	-11272
▁대좌	-11273
▁식스	-11274
▁쌍대	-11275
▁야외	-11276
▁위로	-11277
▁이터	-11278
▁자명	-11279
▁해상도	-11280
▁텍사스주	-11281
▁간략	-11282
▁열전	-11283
▁지극	-11284
▁콘솔	-11285
▁큐브	-11286
80	-11287
센스	-11288
▁리즈	-11289
▁배분	-11290
▁온난	-11291
▁피리	-11292
▁고분군	-11293
▁tv	-11294
▁발상	-11295
▁병마	-11296
▁조교	-11297
지로	-11298
▁권역	-11299
▁친족	-11300
▁전반기	-11301
▁뫼	-11302
▁가우	-11303
▁세습	-11304
▁우산	-11305
▁카네	-11306
▁위구르	-11307
▁프로그래머	-11308
▁간사	-11309
▁리마	-11310
▁수위	-11311
▁요양	-11312
▁카마	-11313
스트리	-11314
▁Ge	-11315
▁고의	-11316
▁관악	-11317
▁노면	-11318
▁유생	-11319
▁장덕	-11320
▁에이전	-11321
▁멋지	-11322
▁엔드	-11323
▁월터	-11324
▁관계없이	-11325
▁관례	-11326
▁단속	-11327
▁단정	-11328
▁받들	-11329
▁부교	-11330
▁안나	-11331
▁요절	-11332
▁쿠빌라이	-11333
▁도네	-11334
▁북군	-11335
▁위조	-11336
▁이용객	-11337
▁토마토	-11338
▁봇	-11339
돌이	-11340
에고	-11341
치히	-11342
▁부왕	-11343
▁사학	-11344
▁성동	-11345
▁통신사	-11346
▁1882	-11347
40	-11348
워스	-11349
ink	-11350
▁고흥	-11351
▁국외	-11352
▁씨족	-11353
▁주선	-11354
▁함량	-11355
▁헬레	-11356
▁330	-11357
▁너무나	-11358
▁만화가	-11359
▁해안선	-11360
▁사로잡히	-11361
ern	-11362
▁범행	-11363
▁다이어	-11364
▁중공군	-11365
▁야마가타	-11366
CC	-11367
프턴	-11368
▁급증	-11369
▁동포	-11370
▁루키	-11371
▁모세	-11372
▁성원	-11373
▁스루	-11374
▁유서	-11375
▁슈퍼컵	-11376
포시	-11377
▁RP	-11378
▁결사	-11379
▁내일	-11380
▁보루	-11381
▁붙잡	-11382
▁세련	-11383
▁아유	-11384
▁왕궁	-11385
▁자수	-11386
▁정월	-11387
▁Day	-11388
▁Wind	-11389
▁콥	-11390
갈리	-11391
버른	-11392
▁강행	-11393
▁몰타	-11394
▁베풀	-11395
▁선진국	-11396
▁올리브	-11397
▁거성	-11398
▁고노	-11399
▁기전	-11400
▁국정원	-11401
▁카스트	-11402
▁Girl	-11403
▁몹	-11404
토프	-11405
▁덮개	-11406
▁어기	-11407
▁타수	-11408
▁파벌	-11409
▁단체전	-11410
▁대표자	-11411
▁아이언	-11412
▁영원히	-11413
▁SA	-11414
▁가고	-11415
▁표정	-11416
▁형편	-11417
▁데니스	-11418
▁스칼라	-11419
▁원산지	-11420
교통	-11421
팡이	-11422
▁RS	-11423
▁객차	-11424
▁무실점	-11425
▁필립스	-11426
▁아날로그	-11427
II	-11428
여객	-11429
▁다우	-11430
▁랭크	-11431
▁시안	-11432
▁으리	-11433
▁조셉	-11434
오르크	-11435
▁공화정	-11436
▁군사력	-11437
▁부르주	-11438
서니	-11439
▁남하	-11440
▁배달	-11441
▁선대	-11442
▁잠깐	-11443
▁플러	-11444
▁레오폴	-11445
▁산시	-11446
▁우시	-11447
▁재래	-11448
▁정정	-11449
▁직속	-11450
▁상록	-11451
▁양보	-11452
▁염려	-11453
▁주창	-11454
▁최영	-11455
▁협업	-11456
▁후예	-11457
▁미토콘	-11458
▁미토콘드리아	-11459
US	-11460
▁FK	-11461
▁발동	-11462
▁Sch	-11463
▁미스터리	-11464
▁제천	-11465
▁태후	-11466
▁La	-11467
▁강당	-11468
▁밝혀	-11469
▁사안	-11470
▁항원	-11471
▁4000	-11472
▁관목	-11473
▁넬슨	-11474
▁사영	-11475
▁아목	-11476
▁외래	-11477
▁독수리	-11478
▁북유럽	-11479
게스	-11480
▁노벨상	-11481
▁테네시	-11482
▁해운대	-11483
▁브루클린	-11484
▁시즈오카	-11485
▁괌	-11486
▁규탄	-11487
▁사치	-11488
▁우월	-11489
▁천수	-11490
▁경주시	-11491
▁호스트	-11492
▁냥	-11493
도라	-11494
▁서면	-11495
▁신입	-11496
▁딜런	-11497
▁조슈	-11498
▁LED	-11499
▁데려가	-11500
▁라인업	-11501
▁안티오	-11502
▁법관	-11503
▁보름	-11504
▁빙하	-11505
▁소프	-11506
▁얽히	-11507
▁일각	-11508
▁정은	-11509
▁콜럼	-11510
▁회귀	-11511
▁파시즘	-11512
▁파푸아	-11513
본부	-11514
▁OB	-11515
▁노사	-11516
▁제단	-11517
▁급속히	-11518
▁밝혀내	-11519
▁제갈량	-11520
▁1868	-11521
지리	-11522
▁사업소	-11523
▁산티아	-11524
▁우의정	-11525
▁지붕돌	-11526
▁휴게소	-11527
▁렛	-11528
▁샨	-11529
데라	-11530
▁Or	-11531
▁단말	-11532
▁대인	-11533
▁저조	-11534
▁켄트	-11535
▁하의	-11536
▁할인	-11537
▁대상자	-11538
OT	-11539
융합	-11540
▁뒤이	-11541
▁영덕	-11542
티모어	-11543
▁베이커	-11544
▁뇨	-11545
▁겨루	-11546
▁라미	-11547
▁번창	-11548
스탄불	-11549
▁new	-11550
▁멜버른	-11551
▁메릴랜드	-11552
▁이스탄불	-11553
협회	-11554
oll	-11555
▁고트	-11556
▁과테	-11557
▁외형	-11558
▁전수	-11559
▁족보	-11560
▁종영	-11561
▁스캔들	-11562
▁과테말라	-11563
▁유클리드	-11564
▁컨테이너	-11565
해자	-11566
▁군벌	-11567
▁수열	-11568
▁오스틴	-11569
▁요충지	-11570
▁이바지	-11571
▁사이타마	-11572
당기	-11573
▁동적	-11574
▁오아	-11575
▁증오	-11576
▁증폭	-11577
▁리믹스	-11578
▁커리어	-11579
▁프랜차	-11580
▁핵융합	-11581
▁찢	-11582
▁대도	-11583
▁청계	-11584
▁앙골라	-11585
▁컨트롤러	-11586
▁몬테네그로	-11587
▁사운드트랙	-11588
▁사회민주당	-11589
▁김윤	-11590
▁너머	-11591
▁농지	-11592
▁어파	-11593
▁출자	-11594
▁피핀	-11595
▁라카	-11596
▁절제	-11597
▁초안	-11598
▁트이	-11599
▁베르나르	-11600
히드	-11601
▁금전	-11602
▁노후	-11603
▁영월	-11604
▁위력	-11605
▁좌의정	-11606
▁성산	-11607
▁출동	-11608
▁기념일	-11609
어넣	-11610
▁망치	-11611
▁스콜	-11612
▁충렬	-11613
▁폐기물	-11614
▁고온	-11615
▁사비	-11616
▁사천	-11617
▁외과	-11618
▁잔인	-11619
▁장병	-11620
▁안무	-11621
▁양수	-11622
▁우왕	-11623
▁위촉	-11624
▁차선	-11625
▁야마모토	-11626
▁프랜차이즈	-11627
▁거처	-11628
▁게끔	-11629
▁교직	-11630
▁동향	-11631
▁복종	-11632
▁영암	-11633
▁정몽	-11634
▁항로	-11635
웨이트	-11636
펜하겐	-11637
▁히브리	-11638
▁코펜하겐	-11639
▁러일	-11640
▁우연	-11641
▁종신	-11642
▁주계열	-11643
▁공안	-11644
▁밀레	-11645
▁버터	-11646
▁부파	-11647
▁분단	-11648
▁습관	-11649
▁타리	-11650
▁320	-11651
▁아케이드	-11652
호란	-11653
▁배리	-11654
▁성악	-11655
▁은신	-11656
▁주심	-11657
▁청도	-11658
▁그만큼	-11659
▁요하네스	-11660
▁프란시스코	-11661
바오	-11662
▁내분	-11663
▁바울	-11664
▁이메	-11665
▁치유	-11666
▁피드	-11667
▁발전기	-11668
리안	-11669
▁도상	-11670
▁신주쿠	-11671
▁암스테르담	-11672
▁colspan	-11673
려들	-11674
▁끊기	-11675
▁네티	-11676
▁분사	-11677
▁식용	-11678
▁자진	-11679
▁카세	-11680
▁헌장	-11681
▁수요일	-11682
▁능동	-11683
▁대청	-11684
▁시비	-11685
▁이항	-11686
▁전세	-11687
▁치하	-11688
▁자서전	-11689
디나비아	-11690
▁스칸디나비아	-11691
익스	-11692
▁DF	-11693
▁상국	-11694
▁순차	-11695
▁슈테	-11696
▁준장	-11697
▁김옥균	-11698
▁사이먼	-11699
▁놈	-11700
▁슌	-11701
공주	-11702
▁국철	-11703
▁양대	-11704
▁점거	-11705
▁차츰	-11706
▁추서	-11707
▁컨설	-11708
▁피치	-11709
▁게오르크	-11710
▁긴밀	-11711
▁대덕	-11712
▁문무	-11713
▁조영	-11714
▁호아	-11715
아다니	-11716
▁end	-11717
▁결과물	-11718
▁동맹국	-11719
▁오일러	-11720
▁니콜라스	-11721
걸이	-11722
▁소아	-11723
▁자재	-11724
▁전락	-11725
▁첼로	-11726
▁카툰	-11727
▁서해안	-11728
▁철저히	-11729
▁효고현	-11730
▁산티아고	-11731
▁여성주의	-11732
▁늪	-11733
우에	-11734
▁압록	-11735
▁정령	-11736
▁축산	-11737
독립	-11738
▁김선	-11739
▁모차	-11740
▁박성	-11741
▁직행	-11742
▁한번	-11743
토리코	-11744
▁헤이안	-11745
RT	-11746
▁타일	-11747
▁톰슨	-11748
▁텔레콤	-11749
▁에른스트	-11750
▁쿠웨이트	-11751
▁코스타리카	-11752
▁육군사관학교	-11753
꼬리	-11754
셀러	-11755
▁by	-11756
▁거지	-11757
▁기쁨	-11758
▁문종	-11759
▁샤프	-11760
▁서주	-11761
▁수량	-11762
▁타로	-11763
▁함흥	-11764
amp	-11765
gin	-11766
▁격려	-11767
▁고집	-11768
▁데드	-11769
▁정반	-11770
▁흡사	-11771
▁280	-11772
▁가라앉	-11773
▁데이브	-11774
▁브뤼셀	-11775
▁서사시	-11776
니파	-11777
단지	-11778
▁노아	-11779
▁짐승	-11780
▁시트콤	-11781
▁위안부	-11782
웍스	-11783
▁원활	-11784
▁주성	-11785
▁천천	-11786
▁칭송	-11787
▁로마자	-11788
▁화장품	-11789
▁루이지애나	-11790
▁김승	-11791
▁브릿	-11792
▁온화	-11793
▁전학	-11794
▁퍼즐	-11795
▁후유	-11796
▁윗부분	-11797
▁유학자	-11798
▁내무	-11799
▁서스	-11800
▁아흐	-11801
▁법조인	-11802
▁어웨이	-11803
▁장로교	-11804
▁푸에르토리코	-11805
LA	-11806
▁각료	-11807
▁리튬	-11808
▁막판	-11809
▁앤디	-11810
▁집착	-11811
▁천마	-11812
▁탈취	-11813
▁피크	-11814
▁203	-11815
▁데일리	-11816
▁부르고	-11817
▁천안시	-11818
▁함경북도	-11819
▁촐	-11820
업자	-11821
▁결핵	-11822
▁리코	-11823
▁백악	-11824
▁이우	-11825
▁편향	-11826
▁펠릭스	-11827
▁포르노	-11828
▁1893	-11829
계승	-11830
▁여도	-11831
▁이아	-11832
▁정재	-11833
▁척도	-11834
▁학장	-11835
▁IOC	-11836
▁도자기	-11837
▁천천히	-11838
퍼레이션	-11839
▁갯	-11840
게임	-11841
▁Fe	-11842
▁과시	-11843
▁대종	-11844
▁박상	-11845
▁생리	-11846
▁소대	-11847
▁유족	-11848
▁축전	-11849
▁충무	-11850
▁코네	-11851
▁트리오	-11852
OW	-11853
▁갚	-11854
▁배드	-11855
▁영천	-11856
▁측량	-11857
▁폐렴	-11858
▁헌터	-11859
▁민병대	-11860
▁복음주의	-11861
▁맬	-11862
북구	-11863
▁도우	-11864
▁레프	-11865
▁배양	-11866
▁접종	-11867
상시	-11868
▁간직	-11869
▁김치	-11870
▁선인	-11871
▁우두	-11872
▁조니	-11873
라이드	-11874
▁교육자	-11875
▁서바이	-11876
▁가고시마	-11877
▁이탈리아어	-11878
ung	-11879
▁Mo	-11880
▁NP	-11881
▁관우	-11882
▁조제	-11883
gr	-11884
▁톡	-11885
세유	-11886
▁이황	-11887
▁해안가	-11888
▁마이크로	-11889
▁탄자니아	-11890
화학	-11891
▁심포	-11892
▁하급	-11893
▁해왕	-11894
▁로베르	-11895
▁Rock	-11896
▁미성	-11897
▁애인	-11898
▁점검	-11899
▁서초구	-11900
▁덥	-11901
les	-11902
▁le	-11903
▁하타	-11904
▁헤로	-11905
▁동맹군	-11906
eth	-11907
▁김천	-11908
▁도이	-11909
▁도출	-11910
▁흥분	-11911
익스피어	-11912
티에	-11913
▁공양	-11914
▁바비	-11915
▁한문	-11916
로이드	-11917
▁아우르	-11918
▁가르시아	-11919
▁셰익스피어	-11920
▁핏	-11921
들러	-11922
▁관성	-11923
▁굳히	-11924
▁귀속	-11925
▁발목	-11926
▁사귀	-11927
▁심상	-11928
▁유영	-11929
▁철강	-11930
▁노미야	-11931
▁아라곤	-11932
▁초콜릿	-11933
▁구금	-11934
▁심부	-11935
▁주세	-11936
▁톱니	-11937
▁고려대	-11938
▁유적지	-11939
▁Comp	-11940
▁후쿠오카현	-11941
몬트	-11942
비크	-11943
▁격하	-11944
▁견고	-11945
▁금동	-11946
▁불경	-11947
▁오하	-11948
▁한큐	-11949
▁컬렉션	-11950
▁플랑크	-11951
▁레인저스	-11952
레드	-11953
▁림프	-11954
▁칼슘	-11955
루이스	-11956
▁마타	-11957
▁조롱	-11958
▁다면서	-11959
▁비스타	-11960
▁스포르	-11961
▁우울증	-11962
▁부르고뉴	-11963
▁참모총장	-11964
▁배역	-11965
▁상정	-11966
▁아츠	-11967
▁전미	-11968
▁강화도	-11969
▁녹색당	-11970
▁로스쿨	-11971
▁케이크	-11972
▁픽처스	-11973
▁Univers	-11974
▁끓이	-11975
▁낚시	-11976
▁마트	-11977
▁버섯	-11978
▁심문	-11979
▁침례	-11980
▁현판	-11981
▁글래스	-11982
▁사상가	-11983
▁휘말리	-11984
▁러시아군	-11985
▁미나모토	-11986
▁Am	-11987
▁구독	-11988
▁명인	-11989
▁무단	-11990
▁물결	-11991
▁배기	-11992
▁버러	-11993
▁소사	-11994
▁온대	-11995
▁밀려나	-11996
oth	-11997
▁라흐	-11998
▁반동	-11999
▁에마	-12000
▁장녀	-12001
▁Rec	-12002
▁TBS	-12003
▁도야마	-12004
▁으려는	-12005
▁상관없이	-12006
▁구치	-12007
▁까마	-12008
▁시속	-12009
▁아메	-12010
▁재차	-12011
▁지난	-12012
▁휴양	-12013
지오	-12014
▁AB	-12015
▁노랑	-12016
▁대접	-12017
▁대주	-12018
▁에로	-12019
▁특사	-12020
▁페더	-12021
▁황산	-12022
▁게오르	-12023
▁불계승	-12024
▁순양함	-12025
▁대차	-12026
▁월트	-12027
▁발사체	-12028
▁도카이도	-12029
▁인공위성	-12030
태평	-12031
▁라즈	-12032
트르	-12033
▁연회	-12034
▁청량	-12035
▁카레	-12036
▁후하	-12037
▁230	-12038
▁미츠	-12039
▁에바	-12040
▁유포	-12041
그마	-12042
나기	-12043
폭탄	-12044
▁Do	-12045
▁꾸리	-12046
▁나뭇	-12047
▁미아	-12048
▁파편	-12049
▁물려주	-12050
▁수차례	-12051
▁평안도	-12052
▁프로모	-12053
▁from	-12054
▁핼	-12055
▁가부	-12056
▁끼우	-12057
▁노프	-12058
▁소용	-12059
▁옥타	-12060
▁향기	-12061
▁Sup	-12062
▁기업가	-12063
▁베르타	-12064
▁프리스	-12065
▁플로리다주	-12066
국적	-12067
바리	-12068
▁대진	-12069
▁라가	-12070
▁매달	-12071
▁성기	-12072
▁으시	-12073
▁재발	-12074
▁GNU	-12075
▁스탠리	-12076
▁가와사키	-12077
▁율리우스	-12078
▁에스페란토	-12079
▁공법	-12080
▁당뇨	-12081
▁슈타	-12082
▁스투	-12083
▁용품	-12084
▁원유	-12085
▁제창	-12086
▁제철	-12087
▁국제선	-12088
▁마르세유	-12089
▁강진	-12090
▁애초	-12091
▁이범	-12092
▁장래	-12093
▁수나라	-12094
▁쫓아내	-12095
ublic	-12096
▁1888	-12097
▁뮐	-12098
헤드	-12099
▁IV	-12100
▁산수	-12101
▁운임	-12102
▁울릉	-12103
▁중앙은행	-12104
유사	-12105
▁동종	-12106
▁명부	-12107
▁주먹	-12108
민스터	-12109
▁로빈슨	-12110
▁조선왕	-12111
▁지바현	-12112
▁펠리페	-12113
▁Su	-12114
▁리차	-12115
▁사커	-12116
▁재앙	-12117
▁펠트	-12118
▁피사	-12119
▁허드슨	-12120
▁박테리아	-12121
▁깁	-12122
▁스킴	-12123
▁웃음	-12124
▁카야	-12125
▁페오	-12126
▁하이퍼	-12127
홍색	-12128
▁강성	-12129
▁네모	-12130
▁경계선	-12131
▁로이드	-12132
▁사간원	-12133
▁절도사	-12134
▁1892	-12135
AE	-12136
둘기	-12137
▁과연	-12138
▁군데	-12139
▁닉슨	-12140
▁면모	-12141
▁불사	-12142
▁청송	-12143
▁고려사	-12144
▁다이빙	-12145
▁쇠고기	-12146
▁이바라	-12147
▁케이트	-12148
▁노스캐롤라이나	-12149
▁Sw	-12150
▁과잉	-12151
▁납부	-12152
▁데미	-12153
▁소동	-12154
▁시우	-12155
▁유무	-12156
▁세네갈	-12157
▁CG	-12158
▁고스	-12159
▁반주	-12160
▁조현	-12161
▁Car	-12162
▁세비야	-12163
▁차세대	-12164
AI	-12165
연수	-12166
▁맥아	-12167
▁메틸	-12168
▁사변	-12169
▁사키	-12170
▁자라나	-12171
▁활동가	-12172
암리	-12173
▁나름	-12174
▁백자	-12175
▁시문	-12176
▁아와	-12177
▁위계	-12178
▁우에스기	-12179
▁알렉산드로스	-12180
▁뱃	-12181
▁푹	-12182
다보	-12183
▁낙양	-12184
▁붕어	-12185
▁살라	-12186
▁순례	-12187
▁입헌	-12188
▁더블린	-12189
▁소학교	-12190
▁애덤스	-12191
▁카운트	-12192
▁굶	-12193
티노	-12194
▁ar	-12195
▁공시	-12196
▁모던	-12197
▁새뮤	-12198
▁세레	-12199
▁어의	-12200
▁관현악	-12201
▁논리학	-12202
▁라드	-12203
▁아쉽	-12204
▁자립	-12205
로니아	-12206
미디어	-12207
▁대명사	-12208
▁스탠드	-12209
▁아무리	-12210
▁인플레이션	-12211
▁씻	-12212
사태	-12213
▁당황	-12214
▁이봉	-12215
▁공방전	-12216
▁대공국	-12217
▁레이디	-12218
▁아브라	-12219
철수	-12220
▁미미	-12221
▁채색	-12222
▁USB	-12223
▁대전차	-12224
▁문자열	-12225
▁산스크	-12226
▁산스크리트	-12227
▁펩	-12228
네트	-12229
자동	-12230
▁대금	-12231
▁미식	-12232
▁직계	-12233
▁코사	-12234
▁하임	-12235
▁해병	-12236
▁다카라	-12237
▁도르트	-12238
▁사절단	-12239
▁스테판	-12240
▁앤서니	-12241
▁후원자	-12242
▁1876	-12243
보리	-12244
▁농축	-12245
▁산청	-12246
▁수력	-12247
▁일진	-12248
▁자코	-12249
▁지리학	-12250
▁집행유예	-12251
▁펫	-12252
네임	-12253
▁IR	-12254
▁계량	-12255
▁깃털	-12256
▁노랗	-12257
▁니켈	-12258
▁부류	-12259
▁정진	-12260
▁필하	-12261
▁데스크톱	-12262
▁프린스턴	-12263
▁겟	-12264
다오	-12265
▁두각	-12266
▁죄수	-12267
▁중고	-12268
▁축성	-12269
▁볼로냐	-12270
▁사단장	-12271
▁성매매	-12272
▁올리버	-12273
▁프레임워크	-12274
ah	-12275
클라	-12276
▁북조선	-12277
▁전주시	-12278
코르	-12279
▁댓글	-12280
▁도하	-12281
▁부양	-12282
▁생모	-12283
▁선양	-12284
▁손녀	-12285
▁아다	-12286
▁조개	-12287
▁풍습	-12288
리카락	-12289
▁보좌관	-12290
▁1866	-12291
▁1886	-12292
▁머리카락	-12293
▁꽂	-12294
▁wh	-12295
▁거룩	-12296
▁단조	-12297
▁수하	-12298
▁약점	-12299
▁이산	-12300
▁이호	-12301
러뜨리	-12302
▁페르난도	-12303
▁베이시스트	-12304
로쿠	-12305
▁간혹	-12306
▁로브	-12307
▁발의	-12308
▁유능	-12309
▁전권	-12310
▁토이	-12311
▁통폐	-12312
▁펴내	-12313
▁포탄	-12314
▁260	-12315
▁Gre	-12316
▁브래드	-12317
▁가면라이더	-12318
▁덱	-12319
▁물류	-12320
▁복싱	-12321
▁본체	-12322
▁아지	-12323
▁앨리	-12324
▁에반	-12325
▁완도	-12326
▁서기관	-12327
▁쏟아지	-12328
▁장제스	-12329
▁번갈	-12330
▁송환	-12331
▁알폰	-12332
▁펀드	-12333
▁표하	-12334
▁게시판	-12335
▁금나라	-12336
▁Tour	-12337
광성	-12338
▁군관	-12339
▁망하	-12340
▁무수	-12341
▁엘런	-12342
▁이니	-12343
▁저우	-12344
▁파파	-12345
르타뉴	-12346
▁브르타뉴	-12347
▁프란치스코	-12348
레시	-12349
뮬러	-12350
▁너스	-12351
▁도성	-12352
▁바시	-12353
▁박수	-12354
▁비우	-12355
▁아디	-12356
▁잘리	-12357
▁베네딕토	-12358
▁펭	-12359
너드	-12360
▁신진	-12361
▁조소	-12362
▁합천	-12363
▁교구장	-12364
▁덩어리	-12365
▁생리학	-12366
▁조나라	-12367
▁페스	-12368
▁270	-12369
▁바람직	-12370
▁스테인	-12371
▁해결책	-12372
짜기	-12373
EST	-12374
▁마린	-12375
▁빅뱅	-12376
▁슬램	-12377
▁얼룩	-12378
▁바이어	-12379
▁구스타프	-12380
분열	-12381
▁co	-12382
▁배척	-12383
▁원상	-12384
▁제르	-12385
▁독립군	-12386
▁베이비	-12387
▁코소보	-12388
▁홈경기	-12389
▁드미트리	-12390
▁웨스트민스터	-12391
라호	-12392
▁서예	-12393
▁에리	-12394
▁유다	-12395
▁강서구	-12396
▁민영화	-12397
▁이즈미	-12398
▁페미니	-12399
꿈치	-12400
우회	-12401
▁도약	-12402
▁산물	-12403
▁임계	-12404
▁초전	-12405
▁출혈	-12406
▁새뮤얼	-12407
▁용의자	-12408
▁프리미엄	-12409
쓰기	-12410
큐어	-12411
▁긴키	-12412
▁여건	-12413
▁천지	-12414
▁파커	-12415
▁행방	-12416
▁서포터	-12417
▁역사학	-12418
▁장난감	-12419
▁주니치	-12420
▁통폐합	-12421
▁마르쿠스	-12422
▁모차르트	-12423
▁경무	-12424
▁라니	-12425
▁마나	-12426
▁습득	-12427
▁악곡	-12428
▁위시	-12429
▁타구	-12430
▁현과	-12431
▁간사이	-12432
▁집정관	-12433
▁1887	-12434
▁카르타고	-12435
ron	-12436
▁KB	-12437
▁광선	-12438
▁음운	-12439
▁포츠	-12440
▁경영학	-12441
▁1861	-12442
직경	-12443
ave	-12444
▁급히	-12445
▁중개	-12446
▁퇴위	-12447
▁편안	-12448
▁프루	-12449
▁보살상	-12450
▁삼각주	-12451
▁이어주	-12452
른베르크	-12453
▁싹	-12454
슈타	-12455
코타	-12456
▁ML	-12457
▁동창	-12458
▁모라	-12459
▁비지	-12460
▁아자	-12461
▁여타	-12462
▁위패	-12463
land	-12464
▁근거지	-12465
▁시직경	-12466
▁불러들이	-12467
▁도제	-12468
▁박자	-12469
▁사쓰마	-12470
▁Life	-12471
▁브리티시	-12472
동자	-12473
ble	-12474
▁레트	-12475
▁마구	-12476
▁무자	-12477
▁유머	-12478
▁유전학	-12479
▁축구팀	-12480
▁화요일	-12481
▁몰두	-12482
▁지아	-12483
▁촛불	-12484
▁장애물	-12485
▁Dream	-12486
19	-12487
왕후	-12488
제비	-12489
▁고창	-12490
▁외환	-12491
▁특기	-12492
▁뛰어넘	-12493
▁보안법	-12494
▁클레멘스	-12495
비안	-12496
하임	-12497
▁SV	-12498
▁Up	-12499
▁꺼리	-12500
▁세분	-12501
▁슬프	-12502
▁오산	-12503
▁자궁	-12504
▁펠로	-12505
▁Wii	-12506
▁1864	-12507
▁재단법인	-12508
▁가닥	-12509
▁지면	-12510
▁포화	-12511
▁도미니카	-12512
▁볼티모어	-12513
▁다행	-12514
▁유타	-12515
▁익명	-12516
▁정예	-12517
▁코호	-12518
▁환관	-12519
▁경매	-12520
▁레버	-12521
▁모국	-12522
▁버크	-12523
▁올레	-12524
▁직사	-12525
▁단거리	-12526
▁it	-12527
▁내포	-12528
▁라시	-12529
▁만점	-12530
▁사하	-12531
▁형용	-12532
솔리니	-12533
▁부분군	-12534
▁완결	-12535
▁자릿	-12536
▁당선자	-12537
DA	-12538
▁돗	-12539
ult	-12540
▁사내	-12541
▁양현	-12542
▁노동력	-12543
▁황해도	-12544
▁모닝	-12545
▁오대	-12546
▁착하	-12547
▁후세인	-12548
▁석가모니	-12549
▁RT	-12550
▁건네	-12551
▁경건	-12552
▁기밀	-12553
▁눈치	-12554
▁뒤늦	-12555
▁불분	-12556
▁증세	-12557
▁파직	-12558
▁바로크	-12559
▁신세계	-12560
▁재판부	-12561
▁코스트	-12562
▁1850	-12563
▁왕관	-12564
▁개정안	-12565
열차	-12566
예술	-12567
▁교지	-12568
▁발톱	-12569
▁복위	-12570
▁수이	-12571
▁에두	-12572
▁홍성	-12573
▁공연장	-12574
▁네티즌	-12575
▁데이빗	-12576
▁좌표계	-12577
즐리	-12578
▁예의	-12579
▁장전	-12580
▁필연	-12581
▁카이로	-12582
▁스트리밍	-12583
린트	-12584
콘신	-12585
▁근래	-12586
▁세무	-12587
▁스모	-12588
▁실각	-12589
▁오메	-12590
▁혼혈	-12591
▁모나코	-12592
▁음악원	-12593
▁토트넘	-12594
▁프랑코	-12595
▁휘두르	-12596
▁위스콘신	-12597
▁SH	-12598
▁리트	-12599
▁발하	-12600
▁어우	-12601
▁재결	-12602
▁하얀	-12603
▁백악기	-12604
▁구문	-12605
▁승단	-12606
▁이력	-12607
▁잔디	-12608
▁토목	-12609
▁가해자	-12610
니오	-12611
디슨	-12612
▁더하	-12613
▁피닉스	-12614
스레	-12615
▁TC	-12616
▁정황	-12617
▁평탄	-12618
▁홀딩	-12619
▁홈즈	-12620
▁주나라	-12621
▁남베트남	-12622
▁다카라즈카	-12623
ational	-12624
▁렙	-12625
▁강세	-12626
▁고모	-12627
▁군세	-12628
▁승지	-12629
▁암모	-12630
▁왕성	-12631
▁접합	-12632
▁히토	-12633
▁사들이	-12634
ition	-12635
▁도라에몽	-12636
▁Music	-12637
orm	-12638
▁공판	-12639
▁라라	-12640
▁승하	-12641
▁선제골	-12642
▁컨텐츠	-12643
▁1830	-12644
▁마을버스	-12645
▁계보	-12646
▁기통	-12647
▁도산	-12648
▁매진	-12649
▁부풀	-12650
▁선율	-12651
▁오일	-12652
▁조심	-12653
▁보너스	-12654
▁재판관	-12655
플린	-12656
▁객원	-12657
▁관내	-12658
▁구획	-12659
▁나마	-12660
▁남조	-12661
▁쓰루	-12662
▁엿보	-12663
▁잠실	-12664
▁재벌	-12665
▁허블	-12666
라호마	-12667
▁사나이	-12668
▁1881	-12669
▁오클라호마	-12670
▁알맞	-12671
▁이별	-12672
▁추존	-12673
▁헌납	-12674
▁생성물	-12675
▁아카이	-12676
▁참의원	-12677
▁헤라클레스	-12678
EP	-12679
▁AG	-12680
▁고하	-12681
▁구례	-12682
▁리에	-12683
▁요괴	-12684
▁패권	-12685
바도르	-12686
브웨	-12687
ton	-12688
▁마요	-12689
▁워킹	-12690
▁침대	-12691
▁쿼크	-12692
▁편하	-12693
▁푸아	-12694
▁황자	-12695
▁압록강	-12696
▁행정동	-12697
▁화성시	-12698
▁루스벨트	-12699
▁미네소타	-12700
▁en	-12701
▁남송	-12702
▁로니	-12703
▁말단	-12704
▁전리	-12705
▁짐바	-12706
▁유니버스	-12707
▁크리에이	-12708
▁ㄹ라	-12709
▁민물	-12710
▁방공	-12711
▁백업	-12712
▁산기	-12713
▁삼척	-12714
▁세간	-12715
▁챙기	-12716
▁관련자	-12717
▁대표단	-12718
▁돋보이	-12719
▁if	-12720
▁매스	-12721
▁목욕	-12722
▁조경	-12723
▁찍히	-12724
▁파기	-12725
▁로맨틱	-12726
▁외무부	-12727
▁요금소	-12728
▁배아	-12729
▁스몰	-12730
▁아편	-12731
▁차수	-12732
▁카와	-12733
▁대교구	-12734
▁무작위	-12735
▁여학생	-12736
▁합창단	-12737
▁1872	-12738
▁낭만주의	-12739
▁트레이닝	-12740
▁배트	-12741
▁아타	-12742
▁지경	-12743
▁DR	-12744
▁괘불	-12745
▁대강	-12746
▁벌레	-12747
▁삭스	-12748
▁여호	-12749
▁판관	-12750
▁감리교	-12751
▁반대파	-12752
▁야구단	-12753
▁Ed	-12754
▁ㄴ데	-12755
▁경도	-12756
▁등등	-12757
▁마티	-12758
▁발포	-12759
▁별장	-12760
▁복직	-12761
▁뷰티	-12762
▁신봉	-12763
▁인제	-12764
▁자판	-12765
▁전교	-12766
▁해석학	-12767
라이어티	-12768
▁컴파일러	-12769
▁버라이어티	-12770
▁관용	-12771
▁다비	-12772
▁러닝	-12773
▁생도	-12774
▁소라	-12775
▁스윙	-12776
▁투하	-12777
▁흑백	-12778
ject	-12779
▁다비드	-12780
▁대한항공	-12781
▁오스트리	-12782
뛰기	-12783
렌스	-12784
타입	-12785
화경	-12786
▁닛산	-12787
▁동차	-12788
▁오우	-12789
▁종업	-12790
▁현미	-12791
▁까마귀	-12792
▁무솔리니	-12793
▁부르주아	-12794
평리	-12795
▁딸리	-12796
▁발자	-12797
▁이누	-12798
▁마르셀	-12799
아메리카	-12800
▁꿰	-12801
▁XP	-12802
▁금고	-12803
▁기고	-12804
▁부전	-12805
▁스기	-12806
▁시원	-12807
▁야망	-12808
▁익산	-12809
▁체하	-12810
▁코난	-12811
▁파주	-12812
변속기	-12813
브리드	-12814
▁iOS	-12815
▁농어촌	-12816
▁이메일	-12817
▁미상	-12818
▁양면	-12819
▁용사	-12820
▁이례	-12821
▁이은	-12822
▁진흙	-12823
▁콘티	-12824
▁750	-12825
▁다시금	-12826
▁이시카와	-12827
▁넥센	-12828
▁쿠로	-12829
▁불분명	-12830
▁세르게이	-12831
께끼	-12832
▁레비	-12833
▁의례	-12834
▁저축	-12835
▁청문	-12836
▁파열	-12837
▁승용차	-12838
▁Open	-12839
▁수수께끼	-12840
덕왕	-12841
ION	-12842
▁김희	-12843
▁꼬마	-12844
▁원동	-12845
▁종묘	-12846
▁중랑	-12847
▁햇빛	-12848
▁라치오	-12849
▁범죄자	-12850
▁앞세우	-12851
▁제프리	-12852
▁도르트문트	-12853
나파	-12854
림사	-12855
쿠니	-12856
▁교제	-12857
▁당과	-12858
▁당진	-12859
▁두어	-12860
▁루나	-12861
▁주고	-12862
▁팔작	-12863
▁난이도	-12864
▁유라시아	-12865
▁엡	-12866
비오	-12867
▁an	-12868
▁가비	-12869
▁레아	-12870
▁머니	-12871
▁메우	-12872
▁복역	-12873
▁살짝	-12874
▁승상	-12875
▁애완	-12876
▁친밀	-12877
▁트란	-12878
슬라프	-12879
▁롬바르	-12880
▁아이콘	-12881
▁하얀색	-12882
▁하이브리드	-12883
▁리브	-12884
▁베일	-12885
▁애슬	-12886
▁인위	-12887
▁켄터	-12888
태평양	-12889
▁화학자	-12890
▁대중교통	-12891
▁부다페스트	-12892
루크	-12893
번에	-12894
어드	-12895
클럽	-12896
▁BL	-12897
▁경량	-12898
▁교동	-12899
▁브렌	-12900
▁양조	-12901
▁캐피	-12902
▁Don	-12903
▁라이스	-12904
▁모멘트	-12905
▁센다이	-12906
▁1863	-12907
달마	-12908
▁te	-12909
▁몸돌	-12910
▁샤이	-12911
▁기획사	-12912
▁Sm	-12913
▁그란	-12914
▁단국	-12915
▁배향	-12916
▁변종	-12917
▁의용	-12918
▁통지	-12919
▁그나마	-12920
▁청년회	-12921
▁타임즈	-12922
워즈	-12923
▁Ab	-12924
▁기쁘	-12925
▁도봉	-12926
▁반죽	-12927
▁병단	-12928
▁부실	-12929
▁음주	-12930
▁장쑤	-12931
▁페라	-12932
리아스	-12933
올로기	-12934
▁초록색	-12935
▁폼페이	-12936
▁이데올로기	-12937
▁거꾸	-12938
▁닌자	-12939
▁발산	-12940
▁작년	-12941
▁조시	-12942
▁취향	-12943
▁개체군	-12944
▁계승자	-12945
▁호크스	-12946
ru	-12947
데자	-12948
매김	-12949
ics	-12950
▁고난	-12951
▁열렬	-12952
▁탄산	-12953
▁휩싸	-12954
데자네이	-12955
▁1865	-12956
▁쵸	-12957
더지	-12958
▁계좌	-12959
▁모란	-12960
▁순항	-12961
▁왓슨	-12962
▁잠기	-12963
▁허목	-12964
▁격투기	-12965
▁유전체	-12966
▁파충류	-12967
ier	-12968
▁안산시	-12969
▁항아리	-12970
바인	-12971
▁내재	-12972
▁대의	-12973
▁보정	-12974
▁토로	-12975
▁한창	-12976
▁경복궁	-12977
▁세군다	-12978
▁시간대	-12979
▁작품상	-12980
▁가독	-12981
▁가든	-12982
▁박진	-12983
▁슈고	-12984
▁오트	-12985
▁피카	-12986
▁밀가루	-12987
▁박영효	-12988
▁탐험가	-12989
▁1873	-12990
▁걸작	-12991
▁과다	-12992
▁납작	-12993
▁반항	-12994
▁벌리	-12995
▁세단	-12996
▁옹주	-12997
▁입시	-12998
▁직관	-12999
▁충당	-13000
▁티모	-13001
▁1891	-13002
친왕	-13003
▁부추	-13004
▁야심	-13005
▁조공	-13006
▁조장	-13007
▁챌린저	-13008
▁자리매김	-13009
▁"-	-13010
▁AL	-13011
▁대목	-13012
▁봉황	-13013
▁착취	-13014
▁처방	-13015
▁코마	-13016
▁승정원	-13017
▁Good	-13018
▁댈	-13019
리야	-13020
▁두텁	-13021
▁볼넷	-13022
▁요즘	-13023
▁재고	-13024
▁킹스	-13025
▁편제	-13026
▁피셔	-13027
▁고성군	-13028
▁공식전	-13029
▁여진족	-13030
▁교통사고	-13031
단위	-13032
리쿠	-13033
▁덴쇼	-13034
▁루피	-13035
▁입술	-13036
▁공통점	-13037
▁우간다	-13038
▁HTML	-13039
▁오카야마	-13040
데자네이루	-13041
▁Night	-13042
▁리우데자네이루	-13043
미쓰	-13044
ool	-13045
▁정명	-13046
▁클릭	-13047
▁탐정	-13048
▁포대	-13049
▁발기인	-13050
▁앤드류	-13051
▁공군기지	-13052
▁괜	-13053
▁샵	-13054
▁쩔	-13055
거나	-13056
▁경마	-13057
▁경지	-13058
▁구강	-13059
▁구슬	-13060
▁급하	-13061
▁메츠	-13062
▁태아	-13063
▁유니언	-13064
라르	-13065
▁곡면	-13066
▁굴복	-13067
▁극찬	-13068
▁신대	-13069
▁어촌	-13070
▁페인	-13071
▁베스트셀러	-13072
훈장	-13073
▁곱셈	-13074
▁모함	-13075
▁시진	-13076
▁촉발	-13077
▁최장	-13078
▁해킹	-13079
▁IMF	-13080
▁제너럴	-13081
TE	-13082
바지	-13083
참찬	-13084
▁나탈	-13085
▁란스	-13086
▁루즈	-13087
▁리자	-13088
▁매립	-13089
▁법전	-13090
▁철종	-13091
▁픽셀	-13092
▁조선소	-13093
▁켄터키	-13094
▁아이디얼	-13095
쿠르	-13096
che	-13097
▁과격	-13098
▁반점	-13099
▁여대	-13100
부아르	-13101
▁국민회	-13102
▁발가락	-13103
린더	-13104
▁--	-13105
▁계엄	-13106
▁고마	-13107
▁단자	-13108
▁미인	-13109
▁분경	-13110
▁자켓	-13111
▁필두	-13112
▁후미	-13113
▁ret	-13114
타스	-13115
▁쇼크	-13116
▁완비	-13117
▁위법	-13118
▁적발	-13119
▁카슈	-13120
이스케	-13121
▁와이드	-13122
▁짐바브웨	-13123
UC	-13124
ise	-13125
▁국호	-13126
▁라크	-13127
▁불로	-13128
▁소작	-13129
▁외상	-13130
▁헌병	-13131
▁다국적	-13132
▁수시로	-13133
▁시티즌	-13134
▁포항시	-13135
▁세계유산	-13136
▁야쿠르트	-13137
▁혈압	-13138
▁릴레이	-13139
▁매달리	-13140
QL	-13141
▁PM	-13142
▁도도	-13143
▁마모	-13144
▁무고	-13145
▁상파	-13146
▁아뢰	-13147
▁용감	-13148
▁유태	-13149
▁이야	-13150
▁주저	-13151
▁코뮌	-13152
▁튼튼	-13153
▁합금	-13154
▁몰도바	-13155
▁받침돌	-13156
▁자유형	-13157
▁크루즈	-13158
▁테무르	-13159
무제	-13160
▁매도	-13161
▁비키	-13162
▁증발	-13163
플렉스	-13164
▁거꾸로	-13165
레타리아	-13166
▁프롤레타리아	-13167
NG	-13168
ai	-13169
동맹	-13170
▁NS	-13171
▁당당	-13172
▁산신	-13173
▁키즈	-13174
▁백악관	-13175
▁켜	-13176
▁리키	-13177
▁사드	-13178
▁연행	-13179
▁흔들	-13180
stem	-13181
▁노르드	-13182
▁종업원	-13183
▁온타리오주	-13184
▁구시	-13185
▁등단	-13186
▁신의	-13187
▁체내	-13188
▁무로마치	-13189
레반	-13190
킨슨	-13191
▁MA	-13192
▁병과	-13193
▁에치	-13194
▁오즈	-13195
▁접전	-13196
▁현무	-13197
▁650	-13198
▁Can	-13199
▁캐스트	-13200
▁하반기	-13201
▁Black	-13202
성경	-13203
세다	-13204
ode	-13205
▁네임	-13206
▁증강	-13207
▁해시	-13208
▁헤어	-13209
▁취리히	-13210
▁콧	-13211
▁간판	-13212
▁연화	-13213
▁을사	-13214
▁전멸	-13215
▁하스	-13216
합중국	-13217
▁다마스	-13218
▁슬로건	-13219
▁팔작지붕	-13220
▁믈	-13221
▁강호	-13222
▁교서	-13223
▁산책	-13224
▁서위	-13225
▁심정	-13226
▁양양	-13227
▁연달	-13228
▁파랑	-13229
▁김성수	-13230
▁서두르	-13231
▁삼국유사	-13232
▁삐	-13233
▁샴	-13234
상어	-13235
▁서지	-13236
▁양궁	-13237
▁조준	-13238
▁용산구	-13239
▁지자체	-13240
▁트로트	-13241
▁스테이트	-13242
70	-13243
▁채굴	-13244
▁황폐	-13245
ower	-13246
▁550	-13247
▁연주회	-13248
▁다이노스	-13249
▁피츠버그	-13250
조리	-13251
▁군자	-13252
▁엘라	-13253
▁우마	-13254
▁타도	-13255
선거구	-13256
▁반정부	-13257
▁이바라키	-13258
▁조선왕조	-13259
▁페르디난트	-13260
▁농성	-13261
▁대담	-13262
▁버펄	-13263
▁앵커	-13264
▁열쇠	-13265
▁이강	-13266
▁조서	-13267
▁표절	-13268
▁미카엘	-13269
▁스코어	-13270
▁1867	-13271
▁광배	-13272
▁무도	-13273
▁문정	-13274
▁부에	-13275
▁송진	-13276
▁진언	-13277
▁진원	-13278
▁1862	-13279
▁section	-13280
▁qu	-13281
▁국력	-13282
▁토유	-13283
▁피어	-13284
▁Let	-13285
▁앨버트	-13286
▁언론사	-13287
ank	-13288
▁국부	-13289
▁독주	-13290
▁아델	-13291
▁완수	-13292
▁터빈	-13293
타나베	-13294
▁705	-13295
▁경희대	-13296
▁자외선	-13297
▁증조부	-13298
▁빠져나가	-13299
▁아비달마	-13300
티야	-13301
▁광업	-13302
▁도발	-13303
▁맞춤	-13304
▁사교	-13305
▁씌우	-13306
▁해지	-13307
▁스테이	-13308
진구	-13309
펠러	-13310
▁모반	-13311
▁캐논	-13312
스코트	-13313
▁엑스포	-13314
▁q	-13315
고르	-13316
대전	-13317
활약	-13318
▁El	-13319
▁MM	-13320
드라마	-13321
▁AI	-13322
▁경은	-13323
▁예종	-13324
▁온건	-13325
▁위헌	-13326
▁조어	-13327
▁투신	-13328
▁현도	-13329
▁활자	-13330
정사	-13331
▁간결	-13332
▁북벌	-13333
▁유구	-13334
▁티저	-13335
▁MSL	-13336
▁맹활약	-13337
▁손잡이	-13338
▁미합중국	-13339
▁아오모리	-13340
▁이노우에	-13341
▁프로모션	-13342
▁라이프치히	-13343
▁코호몰로지	-13344
포타	-13345
▁LS	-13346
▁광자	-13347
▁내란	-13348
▁수퍼	-13349
▁잔존	-13350
▁지탱	-13351
▁치이	-13352
▁노르만	-13353
해살이풀	-13354
▁낡	-13355
곡면	-13356
리언	-13357
방군	-13358
▁스킬	-13359
▁처장	-13360
▁처치	-13361
▁횡령	-13362
▁흡연	-13363
ings	-13364
▁알폰소	-13365
▁기묘	-13366
▁노브	-13367
▁변모	-13368
▁서한	-13369
▁썩	-13370
구나	-13371
렐라	-13372
▁AU	-13373
▁걸프	-13374
▁무너	-13375
▁보직	-13376
▁장신	-13377
▁증식	-13378
중추부사	-13379
포타미아	-13380
▁6000	-13381
▁국민학교	-13382
▁무너뜨리	-13383
▁메소포타미아	-13384
▁Ac	-13385
▁번개	-13386
▁변증	-13387
▁상선	-13388
▁성수	-13389
▁양군	-13390
세우스	-13391
절도사	-13392
▁변광성	-13393
▁연출가	-13394
▁타이탄	-13395
▁사이타마현	-13396
인구	-13397
▁오보	-13398
▁유망	-13399
▁지그	-13400
▁코모	-13401
▁페드로	-13402
DS	-13403
투르	-13404
▁차림	-13405
▁회유	-13406
▁곁들이	-13407
▁레인저	-13408
▁무사히	-13409
▁캣	-13410
비언	-13411
▁고찰	-13412
▁그거	-13413
▁옥시	-13414
▁참패	-13415
▁건륭제	-13416
▁라면서	-13417
▁사무국	-13418
▁사보이	-13419
▁UC	-13420
▁자행	-13421
▁충칭	-13422
▁푸드	-13423
센터	-13424
lar	-13425
▁온두	-13426
▁절약	-13427
▁캐치	-13428
▁표출	-13429
▁신기록	-13430
▁출입문	-13431
▁신한은행	-13432
▁온두라스	-13433
▁팍	-13434
디언	-13435
젤로	-13436
▁꽃잎	-13437
▁신해	-13438
▁쿠라	-13439
▁편집장	-13440
▁-&	-13441
▁나사	-13442
▁유림	-13443
▁조석	-13444
▁키릴	-13445
▁감염증	-13446
▁기원후	-13447
▁대리석	-13448
▁프로테	-13449
▁궐	-13450
북면	-13451
사화	-13452
위치	-13453
▁가물	-13454
▁동자	-13455
▁경쟁자	-13456
▁일본식	-13457
▁고등학생	-13458
▁되돌아가	-13459
▁미나모토노	-13460
ky	-13461
▁작중	-13462
▁적정	-13463
▁중용	-13464
▁지린	-13465
▁직교	-13466
▁하중	-13467
▁외교부	-13468
▁1878	-13469
▁협동조합	-13470
▁비스마르크	-13471
tr	-13472
▁세토	-13473
▁스톰	-13474
▁엘레	-13475
▁완만	-13476
▁자부	-13477
▁불가피	-13478
▁유엔군	-13479
▁자릿수	-13480
▁제조사	-13481
▁주고받	-13482
▁치료제	-13483
할린	-13484
▁동탁	-13485
▁버진	-13486
▁저해	-13487
rist	-13488
▁웨이브	-13489
▁타타르	-13490
▁밋	-13491
퉁이	-13492
▁보류	-13493
▁점진	-13494
▁충신	-13495
▁필명	-13496
▁행군	-13497
▁후드	-13498
▁갈아타	-13499
ee	-13500
▁뵈	-13501
▁Qu	-13502
▁국인	-13503
▁당파	-13504
▁정박	-13505
▁Ser	-13506
▁마그네	-13507
▁부여군	-13508
▁컴파일	-13509
ta	-13510
▁급성	-13511
▁손님	-13512
▁시역	-13513
▁으러	-13514
▁청각	-13515
▁피처	-13516
▁행보	-13517
▁아이젠	-13518
▁인지도	-13519
▁프리츠	-13520
▁해부학	-13521
▁백과사전	-13522
▁스케이트	-13523
마디	-13524
hem	-13525
▁Ag	-13526
▁가극	-13527
▁개기	-13528
▁고국	-13529
▁서거	-13530
▁수급	-13531
▁옥천	-13532
▁지체	-13533
▁히노	-13534
플로러	-13535
▁골짜기	-13536
▁익스플로러	-13537
빌리	-13538
산부	-13539
일치	-13540
▁다량	-13541
▁바쿠	-13542
▁벵골	-13543
▁시르	-13544
▁HMS	-13545
▁봉우리	-13546
▁사대부	-13547
▁입법부	-13548
▁플러그	-13549
▁홀딩스	-13550
▁널	-13551
▁스에	-13552
▁이끼	-13553
▁일선	-13554
▁잉크	-13555
▁제작진	-13556
▁쿠르드	-13557
▁후지와라	-13558
시게	-13559
▁가방	-13560
▁괄호	-13561
▁라다	-13562
▁부군	-13563
▁수당	-13564
▁수레	-13565
▁영사	-13566
▁직물	-13567
▁참수	-13568
▁현악	-13569
시아드	-13570
▁And	-13571
▁사생활	-13572
▁액세스	-13573
▁영유권	-13574
▁이성질	-13575
▁특별법	-13576
▁글로브상	-13577
▁킷	-13578
내티	-13579
니티	-13580
루엔	-13581
▁길드	-13582
▁맛보	-13583
▁북대	-13584
▁용해	-13585
▁일설	-13586
▁지문	-13587
▁뉴기니	-13588
▁신시내티	-13589
▁일리노이주	-13590
▁유니버시아드	-13591
▁ㅣ	-13592
▁팻	-13593
▁대타	-13594
▁변질	-13595
▁부두	-13596
▁유화	-13597
▁추후	-13598
▁802	-13599
▁베르나	-13600
▁이브스	-13601
▁1869	-13602
▁프라이즈	-13603
▁밧	-13604
▁SO	-13605
▁매슈	-13606
▁미학	-13607
▁서점	-13608
▁이목	-13609
뉴기니	-13610
▁수비대	-13611
▁업로드	-13612
사우루스	-13613
▁요리토모	-13614
▁코퍼레이션	-13615
다발	-13616
▁과자	-13617
▁기조	-13618
▁몸체	-13619
▁박원	-13620
▁인승	-13621
▁잔해	-13622
▁폴라	-13623
▁헤겔	-13624
▁형주	-13625
▁와세다	-13626
▁플루토	-13627
▁핵분열	-13628
벤션	-13629
▁tr	-13630
▁강우	-13631
▁근방	-13632
▁상의	-13633
▁애기	-13634
▁용수	-13635
▁육식	-13636
▁마포구	-13637
▁데카르트	-13638
▁썬	-13639
누마	-13640
정보	-13641
▁객실	-13642
▁냐고	-13643
▁민심	-13644
▁소피	-13645
▁자처	-13646
▁쫓기	-13647
▁차명	-13648
▁며느리	-13649
▁방위군	-13650
▁와타나베	-13651
▁프랑스와	-13652
ae	-13653
▁모티	-13654
▁반입	-13655
▁자정	-13656
▁수도회	-13657
▁아우구스	-13658
▁무비	-13659
▁헤더	-13660
▁포뮬러	-13661
▁명성황후	-13662
▁스파이더	-13663
셔주	-13664
▁다목	-13665
▁면직	-13666
▁무색	-13667
▁부관	-13668
▁시시	-13669
▁저그	-13670
▁절친	-13671
▁포천	-13672
가르트	-13673
▁강력히	-13674
▁연예계	-13675
▁원자핵	-13676
▁페르미	-13677
▁Song	-13678
▁파시스트	-13679
▁거사	-13680
▁빅터	-13681
▁솔라	-13682
▁에트	-13683
▁위도	-13684
▁토키	-13685
▁1840	-13686
▁낯	-13687
▁고을	-13688
▁국세	-13689
▁그물	-13690
▁로시	-13691
▁목동	-13692
▁치사	-13693
스타인	-13694
▁기동전	-13695
▁댈러스	-13696
▁떠올리	-13697
▁운전자	-13698
▁종사자	-13699
▁채권자	-13700
▁키르기스	-13701
▁글렌	-13702
▁더러	-13703
▁벤츠	-13704
▁숙소	-13705
▁포탑	-13706
▁516	-13707
▁바닷물	-13708
▁1592	-13709
▁탬	-13710
노르	-13711
▁가곡	-13712
▁넘버	-13713
▁단서	-13714
▁마레	-13715
▁성품	-13716
▁수증	-13717
▁오자	-13718
▁텍스	-13719
▁패킷	-13720
▁랙	-13721
세르	-13722
▁귀인	-13723
▁상식	-13724
▁자취	-13725
▁최하	-13726
▁축일	-13727
▁콜드	-13728
▁금강산	-13729
▁목적지	-13730
▁생화학	-13731
▁안동시	-13732
▁오스카	-13733
▁장로회	-13734
▁팔꿈치	-13735
▁프라임	-13736
▁친선경기	-13737
▁벳	-13738
자원	-13739
▁PL	-13740
▁괜찮	-13741
▁금색	-13742
▁빈민	-13743
▁소박	-13744
▁패망	-13745
▁항생	-13746
▁맥아더	-13747
▁유년기	-13748
▁매킨토시	-13749
▁공상	-13750
▁단역	-13751
▁바쁘	-13752
▁사부	-13753
▁사소	-13754
▁컴필	-13755
▁토라	-13756
▁컴필레이션	-13757
암사	-13758
▁AA	-13759
▁논산	-13760
▁위즈	-13761
▁출국	-13762
ount	-13763
▁여객기	-13764
▁운동량	-13765
▁인코딩	-13766
▁8000	-13767
▁사이언스	-13768
▁크리스티나	-13769
▁왜군	-13770
▁포자	-13771
▁로드리게스	-13772
수염	-13773
티컷	-13774
▁RC	-13775
▁강인	-13776
▁끌리	-13777
▁린다	-13778
▁분별	-13779
▁수만	-13780
▁추축	-13781
▁쿼터	-13782
▁해트	-13783
▁로타르	-13784
▁부등식	-13785
▁코네티컷	-13786
네르	-13787
부시	-13788
찬성	-13789
▁렉스	-13790
▁베라	-13791
▁영수	-13792
▁풍기	-13793
▁Mon	-13794
▁과반수	-13795
▁시니어	-13796
▁지하역	-13797
▁Heart	-13798
pr	-13799
구스	-13800
블릿	-13801
per	-13802
▁성가	-13803
▁암수	-13804
▁영미	-13805
▁자루	-13806
▁하수	-13807
▁휘발	-13808
▁그래도	-13809
▁네이트	-13810
▁뒤따르	-13811
▁패스트	-13812
수단	-13813
작전	-13814
ade	-13815
▁능가	-13816
▁튜브	-13817
▁마스코트	-13818
▁고제	-13819
▁다쓰	-13820
▁박히	-13821
▁반론	-13822
▁병풍	-13823
▁천상	-13824
▁안타깝	-13825
▁엇갈리	-13826
▁예언자	-13827
▁파주시	-13828
▁휩싸이	-13829
크라테스	-13830
▁레지스터	-13831
▁아나키스트	-13832
조사	-13833
ata	-13834
▁거창	-13835
▁블러	-13836
▁악명	-13837
▁어사	-13838
▁임종	-13839
▁자질	-13840
▁캐슬	-13841
▁구단주	-13842
▁힐베르트	-13843
▁아나톨리아	-13844
▁규율	-13845
▁닉스	-13846
▁백조	-13847
▁아어	-13848
▁은밀	-13849
▁청취	-13850
▁글러브	-13851
▁심리학자	-13852
▁여우원숭이	-13853
90	-13854
선언	-13855
어하	-13856
테랑	-13857
▁농가	-13858
▁양파	-13859
▁유자	-13860
▁출세	-13861
▁하라	-13862
▁헤일	-13863
▁스트림	-13864
▁에이전트	-13865
▁me	-13866
▁뒤지	-13867
▁디나	-13868
▁삭감	-13869
▁성대	-13870
▁어부	-13871
▁유이	-13872
▁입출	-13873
▁중견	-13874
▁직렬	-13875
▁관심사	-13876
▁창립자	-13877
▁되돌아오	-13878
▁볶	-13879
어가	-13880
효소	-13881
▁Gl	-13882
▁Pe	-13883
▁국화	-13884
▁김연	-13885
▁란트	-13886
▁사주	-13887
▁오도	-13888
▁외면	-13889
▁필사본	-13890
▁지장보살	-13891
▁return	-13892
히메	-13893
▁KN	-13894
▁ab	-13895
▁계룡	-13896
▁루도	-13897
▁문중	-13898
▁심소	-13899
▁염화	-13900
▁전단	-13901
▁담당자	-13902
▁세미나	-13903
날드	-13904
전선	-13905
▁DB	-13906
▁걸음	-13907
▁발착	-13908
▁변혁	-13909
▁실상	-13910
▁오시	-13911
▁유골	-13912
▁의주	-13913
▁질투	-13914
▁흥원	-13915
▁나치오	-13916
▁적십자	-13917
▁종착역	-13918
▁테크놀	-13919
▁히타치	-13920
▁고등교육	-13921
▁겸직	-13922
▁들르	-13923
▁바보	-13924
▁시찰	-13925
▁워스	-13926
▁초음	-13927
▁탁구	-13928
이치로	-13929
▁비둘기	-13930
뻐하	-13931
히데	-13932
ium	-13933
▁권익	-13934
▁다름	-13935
▁숙련	-13936
▁신지	-13937
▁쌍성	-13938
▁어선	-13939
▁이카	-13940
▁지요	-13941
▁페레	-13942
▁호른	-13943
▁기뻐하	-13944
▁모자이크	-13945
▁와카야마	-13946
▁Windows	-13947
▁펜실베이니아주	-13948
던트	-13949
▁기행	-13950
▁라프	-13951
▁사와	-13952
▁상과	-13953
▁스택	-13954
▁연중	-13955
▁온실	-13956
▁이심	-13957
▁피살	-13958
▁환율	-13959
▁지질학	-13960
▁세인트루이스	-13961
날레	-13962
▁몹시	-13963
▁바인	-13964
▁의복	-13965
▁정오	-13966
▁퀴즈	-13967
▁보유자	-13968
▁치료법	-13969
▁크메르	-13970
▁남아시아	-13971
▁영등포구	-13972
▁As	-13973
▁면담	-13974
▁설리	-13975
▁여포	-13976
▁잠입	-13977
▁호그	-13978
▁안창호	-13979
▁어도비	-13980
▁피의자	-13981
▁그린란드	-13982
IX	-13983
구니	-13984
넌트	-13985
놀드	-13986
테이	-13987
▁Aw	-13988
▁막강	-13989
▁박재	-13990
▁베오	-13991
▁열세	-13992
▁외척	-13993
▁출품	-13994
▁컵스	-13995
▁1875	-13996
IF	-13997
▁귀엽	-13998
▁뉴런	-13999
▁니케	-14000
▁동호	-14001
▁디바	-14002
▁미지	-14003
▁불복	-14004
▁윤휴	-14005
▁침식	-14006
▁KTX	-14007
▁예비역	-14008
▁토요타	-14009
▁뉘른베르크	-14010
링겐	-14011
보당	-14012
욕장	-14013
▁볼록	-14014
▁일명	-14015
▁착각	-14016
세데스	-14017
▁교훈	-14018
▁김두	-14019
▁위크	-14020
▁조비	-14021
▁키드	-14022
▁타쿠	-14023
▁Out	-14024
▁고문서	-14025
▁시미즈	-14026
▁진주시	-14027
▁헤르만	-14028
▁메르세데스	-14029
계사	-14030
▁강습	-14031
▁상동	-14032
▁오마	-14033
▁친화	-14034
▁콜린	-14035
▁파랗	-14036
▁집단군	-14037
▁교파	-14038
▁도적	-14039
▁사각	-14040
▁키리	-14041
▁이랜드	-14042
▁이와테	-14043
▁친환경	-14044
▁클리어	-14045
▁끌어올리	-14046
▁페널티킥	-14047
▁노현	-14048
▁방울	-14049
▁예프	-14050
▁유카	-14051
▁준동	-14052
▁한민	-14053
▁강대국	-14054
▁나리타	-14055
▁사이즈	-14056
▁일부러	-14057
▁최성기	-14058
▁회고록	-14059
▁기린	-14060
▁니까	-14061
▁실명	-14062
▁야수	-14063
▁웍스	-14064
▁의정	-14065
▁이선	-14066
▁징집	-14067
▁폐허	-14068
▁Gen	-14069
▁보리스	-14070
▁채무자	-14071
▁함경도	-14072
▁알프레드	-14073
▁쳐들어오	-14074
▁랠	-14075
기즈	-14076
▁노원	-14077
▁독살	-14078
▁순식	-14079
▁슈투	-14080
▁원단	-14081
▁인먼	-14082
▁타나	-14083
▁표제	-14084
▁혼잡	-14085
▁학술지	-14086
▁근본번뇌	-14087
기아	-14088
탄두	-14089
▁VS	-14090
▁문체	-14091
▁선상	-14092
▁철자	-14093
▁취직	-14094
▁게임기	-14095
▁표트르	-14096
▁남양주시	-14097
▁몽고메리	-14098
이에	-14099
▁여럿	-14100
▁용지	-14101
▁절충	-14102
▁강희제	-14103
사유	-14104
itt	-14105
son	-14106
▁닥치	-14107
▁로사	-14108
▁생원	-14109
▁서약	-14110
▁왕래	-14111
▁즐거	-14112
▁최남	-14113
레이트	-14114
▁리스본	-14115
▁스피커	-14116
▁통신망	-14117
▁눌	-14118
▁sh	-14119
▁목장	-14120
▁셔틀	-14121
▁아노	-14122
▁월화	-14123
▁첩보	-14124
▁터너	-14125
▁380	-14126
▁돌고래	-14127
▁송파구	-14128
▁코트디	-14129
▁병자호란	-14130
▁코트디부아르	-14131
▁땀	-14132
▁성행	-14133
▁양지	-14134
에이고	-14135
▁컨벤션	-14136
▁행해지	-14137
▁샌디에이고	-14138
▁안드로메다	-14139
BI	-14140
세서	-14141
▁기운	-14142
▁다자	-14143
▁리크	-14144
▁비료	-14145
▁율법	-14146
▁의성	-14147
▁이희	-14148
▁텐서	-14149
▁획기	-14150
록대부	-14151
▁AMD	-14152
▁데이트	-14153
▁되풀이	-14154
▁마주치	-14155
▁매디슨	-14156
▁부적절	-14157
▁성폭행	-14158
▁TS	-14159
▁달콤	-14160
▁로큰	-14161
▁에레	-14162
▁집전	-14163
▁태안	-14164
▁스케치	-14165
▁싫어하	-14166
▁테오도	-14167
▁통도사	-14168
▁감기	-14169
▁배반	-14170
▁야권	-14171
▁칭기즈	-14172
▁브란덴부르크	-14173
더링	-14174
ale	-14175
▁KO	-14176
▁버트	-14177
▁스펜	-14178
▁안중	-14179
▁일차	-14180
▁장정	-14181
▁특공	-14182
▁쇼핑몰	-14183
▁아세틸	-14184
▁파라오	-14185
PA	-14186
몽골	-14187
방향	-14188
▁거머	-14189
▁극소	-14190
▁디디	-14191
▁문관	-14192
▁바늘	-14193
▁영락	-14194
▁예식	-14195
▁활기	-14196
▁레스터	-14197
▁북극점	-14198
▁상반기	-14199
▁슈타인	-14200
▁이사벨	-14201
▁장갑차	-14202
▁중앙선	-14203
▁크라운	-14204
▁클레어	-14205
▁항공대	-14206
ng	-14207
어류	-14208
윽고	-14209
▁결전	-14210
▁금정	-14211
▁기판	-14212
▁단양	-14213
▁선체	-14214
▁유충	-14215
▁정언	-14216
▁체로	-14217
able	-14218
▁로큰롤	-14219
▁베르트	-14220
▁신석기	-14221
▁이윽고	-14222
▁포르투갈어	-14223
UN	-14224
세키	-14225
은사	-14226
▁레몬	-14227
▁명상	-14228
▁애착	-14229
▁원효	-14230
▁건너오	-14231
▁광둥성	-14232
▁프론트	-14233
▁싯	-14234
부대	-14235
알라	-14236
엽수	-14237
크리	-14238
▁구루	-14239
▁생쥐	-14240
▁이질	-14241
▁가환환	-14242
▁다이쇼	-14243
▁쇼트트랙	-14244
▁가세	-14245
▁경의	-14246
▁동거	-14247
▁슬리	-14248
▁실은	-14249
▁안톤	-14250
▁예금	-14251
▁자장	-14252
해방군	-14253
▁꽃차례	-14254
▁연속극	-14255
▁파스칼	-14256
▁바빌로니아	-14257
▁인민해방군	-14258
▁벙	-14259
시대	-14260
▁교관	-14261
▁구타	-14262
▁모질	-14263
▁서당	-14264
▁세일	-14265
▁술라	-14266
▁염두	-14267
▁재화	-14268
▁중일	-14269
▁칸트	-14270
▁포인	-14271
▁로버츠	-14272
▁보조금	-14273
▁야마다	-14274
▁오프라인	-14275
르카	-14276
▁교화	-14277
▁기공	-14278
▁수은	-14279
▁열악	-14280
▁"()	-14281
▁바나나	-14282
▁순식간	-14283
▁아리랑	-14284
▁저널리스트	-14285
두사	-14286
▁구세	-14287
▁라울	-14288
▁모체	-14289
▁수역	-14290
▁안식	-14291
▁엔젤	-14292
▁출격	-14293
루엔자	-14294
▁보호법	-14295
▁보컬리스트	-14296
▁기마	-14297
▁방호	-14298
▁비단털	-14299
박사	-14300
촌리	-14301
▁로바	-14302
▁모피	-14303
▁보우	-14304
▁이홍	-14305
▁향신	-14306
▁Par	-14307
▁선거인	-14308
스코리아	-14309
▁비단털쥐	-14310
▁WC	-14311
▁가모	-14312
▁래리	-14313
▁문수	-14314
▁샤르	-14315
▁수마	-14316
▁에코	-14317
▁케리	-14318
▁헤센	-14319
▁반감기	-14320
▁스케줄	-14321
▁정치국	-14322
데기	-14323
우주	-14324
▁가명	-14325
▁금하	-14326
▁양극	-14327
▁위트	-14328
▁잉카	-14329
▁정에	-14330
▁대항전	-14331
▁데뷔작	-14332
▁University	-14333
▁기미	-14334
▁배당	-14335
▁보그	-14336
▁서클	-14337
▁205	-14338
▁708	-14339
▁맥스웰	-14340
▁관음보살	-14341
▁텅	-14342
▁구아	-14343
▁금환	-14344
▁대류	-14345
▁모사	-14346
▁무능	-14347
▁안심	-14348
▁월남	-14349
▁후루	-14350
very	-14351
▁개그맨	-14352
▁사학자	-14353
▁합성어	-14354
▁아우구스투스	-14355
▁탭	-14356
건설	-14357
연구	-14358
행파	-14359
▁경순	-14360
▁경종	-14361
▁복부	-14362
▁실사	-14363
▁안팎	-14364
▁Vol	-14365
▁통계청	-14366
▁형용사	-14367
▁라이베리아	-14368
▁cc	-14369
▁규약	-14370
▁동군	-14371
▁야코	-14372
▁NBC	-14373
▁테두리	-14374
▁내림	-14375
▁정칙	-14376
▁한겨	-14377
▁ATC	-14378
▁교육감	-14379
▁사할린	-14380
▁콘라트	-14381
▁맴	-14382
▁At	-14383
▁데일	-14384
▁띄우	-14385
▁불쾌	-14386
▁서안	-14387
▁시의	-14388
▁슈미트	-14389
▁인플루엔자	-14390
양이	-14391
쿠사	-14392
▁GR	-14393
▁군복	-14394
▁라벨	-14395
▁미첼	-14396
▁외손	-14397
▁재보	-14398
▁족장	-14399
▁집사	-14400
▁초계	-14401
▁서스펜	-14402
▁캐스터	-14403
net	-14404
▁거시	-14405
▁균일	-14406
▁박용	-14407
▁베티	-14408
▁양서	-14409
▁외할	-14410
▁조봉	-14411
▁줄곧	-14412
▁타시	-14413
▁확충	-14414
▁김해시	-14415
▁name	-14416
▁엑스박스	-14417
루즈	-14418
IVE	-14419
▁등산	-14420
▁뮐러	-14421
▁싱크	-14422
▁웨어	-14423
▁정글	-14424
▁치마	-14425
▁235	-14426
▁로베르토	-14427
▁조선공산당	-14428
벌리	-14429
ody	-14430
▁JC	-14431
▁남단	-14432
▁라지	-14433
▁상계	-14434
▁신병	-14435
▁실효	-14436
▁아연	-14437
▁외삼	-14438
▁자위	-14439
▁잔혹	-14440
▁토피	-14441
▁후이	-14442
▁가이아	-14443
▁스케일	-14444
▁퀄	-14445
anc	-14446
▁가뭄	-14447
▁가온	-14448
▁마흐	-14449
▁석기	-14450
▁세스	-14451
▁손목	-14452
▁우기	-14453
▁일간	-14454
▁축복	-14455
▁칼륨	-14456
▁하산	-14457
▁화승	-14458
▁다가가	-14459
▁시마즈	-14460
▁안양시	-14461
▁자격증	-14462
나들	-14463
모음	-14464
주크	-14465
화당	-14466
▁나기	-14467
▁베크	-14468
▁비옥	-14469
▁솜씨	-14470
▁잉여	-14471
▁패치	-14472
▁후한	-14473
폴리탄	-14474
▁DOS	-14475
▁반대편	-14476
▁재미있	-14477
▁호흡기	-14478
▁그레이엄	-14479
▁메트로폴리탄	-14480
악산	-14481
▁골절	-14482
▁노카	-14483
▁에노	-14484
▁이달	-14485
▁자키	-14486
▁통솔	-14487
▁포니	-14488
▁풀백	-14489
▁호로	-14490
▁tvN	-14491
▁오르간	-14492
보라	-14493
사와	-14494
열대	-14495
황색	-14496
▁결말	-14497
▁고층	-14498
▁나한	-14499
▁사미	-14500
▁정승	-14501
▁젠더	-14502
▁창구	-14503
▁침범	-14504
▁키트	-14505
▁간호사	-14506
▁조각상	-14507
▁This	-14508
▁슈퍼스타	-14509
▁일렉트릭	-14510
▁브로드웨이	-14511
▁뤄	-14512
▁경화	-14513
▁기스	-14514
▁노라	-14515
▁바니	-14516
▁일삼	-14517
진보당	-14518
▁리차드	-14519
▁사무관	-14520
▁열역학	-14521
▁1874	-14522
▁우두머리	-14523
▁지하철역	-14524
▁셴	-14525
▁낭비	-14526
▁리나	-14527
▁버니	-14528
▁병렬	-14529
▁소론	-14530
▁요직	-14531
▁코바	-14532
▁화원	-14533
▁남극점	-14534
▁동아리	-14535
▁카디널	-14536
▁한겨레	-14537
▁발판	-14538
▁석권	-14539
▁잔여	-14540
▁종가	-14541
▁카로	-14542
▁키타	-14543
▁화음	-14544
▁거주자	-14545
▁조각가	-14546
18	-14547
▁잼	-14548
그램	-14549
에쓰	-14550
▁소양	-14551
▁시제	-14552
▁향수	-14553
▁당뇨병	-14554
▁로페스	-14555
▁신호장	-14556
▁안드레	-14557
so	-14558
르산	-14559
큐슈	-14560
▁무가	-14561
▁부엌	-14562
▁은폐	-14563
▁코로	-14564
▁공주시	-14565
▁알렉산데르	-14566
ATO	-14567
▁마늘	-14568
▁볼드	-14569
▁빌드	-14570
▁양평	-14571
▁클랜	-14572
▁협곡	-14573
▁무지개	-14574
▁천도교	-14575
▁스틸러스	-14576
▁미스코리아	-14577
란다	-14578
▁강국	-14579
▁뉴멕	-14580
▁동백	-14581
▁맞물	-14582
▁몰수	-14583
▁무예	-14584
▁밸브	-14585
▁법규	-14586
▁숙박	-14587
▁악당	-14588
▁일주	-14589
▁재회	-14590
▁품목	-14591
▁홍익	-14592
▁라스트	-14593
▁시그마	-14594
▁청문회	-14595
▁뉴멕시코	-14596
▁오아시스	-14597
▁중앙아메리카	-14598
▁파푸아뉴기니	-14599
▁김우	-14600
▁나일	-14601
▁리시	-14602
▁리타	-14603
▁산문	-14604
▁칠성	-14605
▁한복	-14606
▁아놀드	-14607
▁컨퍼런스	-14608
신저	-14609
텐셜	-14610
▁너희	-14611
▁메모	-14612
▁산조	-14613
▁이색	-14614
▁점하	-14615
▁중남	-14616
스크림	-14617
▁204	-14618
▁가요제	-14619
▁저스틴	-14620
▁중거리	-14621
▁트레일	-14622
▁바그다드	-14623
▁유가행파	-14624
▁콘퍼런스	-14625
▁벚	-14626
시험	-14627
프랑	-14628
▁공문	-14629
▁다쿠	-14630
▁발작	-14631
▁방탄	-14632
▁벗기	-14633
▁자네	-14634
▁주군	-14635
▁코크	-14636
야누스	-14637
▁성폭력	-14638
▁지리산	-14639
▁항공편	-14640
▁기울어지	-14641
▁호소카와	-14642
징어	-14643
ala	-14644
▁격전	-14645
▁고승	-14646
▁되살	-14647
▁흐리	-14648
어나오	-14649
▁여운형	-14650
▁클로드	-14651
▁사무라이	-14652
▁YG	-14653
▁sp	-14654
▁기닿	-14655
▁델리	-14656
▁레나	-14657
▁옥사	-14658
▁인스	-14659
▁조동	-14660
▁쿠마	-14661
▁판명	-14662
▁동남쪽	-14663
▁퍼텐셜	-14664
▁1877	-14665
▁바이마르	-14666
▁트라야누스	-14667
me	-14668
▁강좌	-14669
▁곤살	-14670
▁깔리	-14671
▁넷플	-14672
▁라플	-14673
▁민원	-14674
▁복속	-14675
▁읍성	-14676
▁학당	-14677
▁Bab	-14678
▁교육학	-14679
▁뉴올리	-14680
▁대수학	-14681
▁셀주크	-14682
▁참전하	-14683
▁넷플릭스	-14684
▁SR	-14685
▁모치	-14686
▁묘호	-14687
▁미겔	-14688
▁선단	-14689
▁송이	-14690
▁인성	-14691
▁캠벨	-14692
▁Her	-14693
▁게임즈	-14694
▁비잔틴	-14695
▁앞바다	-14696
▁에스컬	-14697
▁휴대폰	-14698
▁에스컬레이터	-14699
ax	-14700
높이	-14701
소문	-14702
운수	-14703
▁감축	-14704
▁사중	-14705
▁앨라	-14706
▁우니	-14707
▁이문	-14708
▁탄수	-14709
▁하지	-14710
▁행선	-14711
▁핸드볼	-14712
▁후쿠이	-14713
▁7000	-14714
▁돌려보내	-14715
▁콜럼버스	-14716
▁서아프리카	-14717
co	-14718
▁단발	-14719
▁상한	-14720
▁앞뒤	-14721
▁엄지	-14722
▁퇴진	-14723
▁화염	-14724
▁클러스터	-14725
au	-14726
더릭	-14727
비에	-14728
▁AE	-14729
▁결장	-14730
▁그르	-14731
▁그립	-14732
▁에페	-14733
▁거머쥐	-14734
▁대사간	-14735
▁사하라	-14736
▁이주민	-14737
▁프레슬리	-14738
계약	-14739
▁도형	-14740
▁애드	-14741
▁예멘	-14742
▁지크	-14743
▁총영	-14744
▁출사	-14745
▁루이즈	-14746
▁포식자	-14747
▁허베이	-14748
▁Best	-14749
yn	-14750
▁끔	-14751
민당	-14752
▁북측	-14753
▁아킬	-14754
▁억울	-14755
▁에볼	-14756
▁지령	-14757
▁수백만	-14758
▁한국군	-14759
▁레닌주의	-14760
▁멀티미디어	-14761
HC	-14762
▁쿰	-14763
▁두뇌	-14764
▁무주	-14765
▁소인	-14766
▁양천	-14767
▁재물	-14768
▁전조	-14769
▁차오	-14770
▁처마	-14771
▁카일	-14772
▁타선	-14773
▁달려가	-14774
▁원주시	-14775
▁컨설팅	-14776
ps	-14777
범죄	-14778
ash	-14779
▁AF	-14780
▁경내	-14781
▁도읍	-14782
▁승낙	-14783
▁의제	-14784
▁제지	-14785
▁518	-14786
▁CIA	-14787
▁공학자	-14788
▁쓰러뜨리	-14789
GB	-14790
를레	-14791
oid	-14792
▁건지	-14793
▁노하	-14794
▁바야	-14795
▁본존	-14796
▁블랑	-14797
▁시발	-14798
▁쓰리	-14799
▁요가	-14800
▁전범	-14801
▁돌려주	-14802
▁스타드	-14803
▁오릭스	-14804
▁외계인	-14805
▁콘티넨	-14806
▁갈릴레오	-14807
▁얄	-14808
▁툼	-14809
마을	-14810
바드	-14811
혈구	-14812
▁경합	-14813
▁문맥	-14814
▁변론	-14815
▁산체	-14816
▁상환	-14817
▁소주	-14818
▁순찰	-14819
▁스펙	-14820
▁APG	-14821
▁브리스	-14822
양구	-14823
일기	-14824
▁곡식	-14825
▁과세	-14826
▁라임	-14827
▁로망	-14828
▁승률	-14829
▁우표	-14830
▁토바	-14831
▁통찰	-14832
▁펭귄	-14833
▁강화군	-14834
▁루카스	-14835
ict	-14836
ose	-14837
▁방학	-14838
▁사연	-14839
▁유창	-14840
▁인계	-14841
▁추계	-14842
▁하층	-14843
▁경부선	-14844
▁1700	-14845
▁1859	-14846
▁다카하시	-14847
▁만장일치	-14848
변수	-14849
장사	-14850
제철	-14851
▁et	-14852
▁대입	-14853
▁맹렬	-14854
▁미켈	-14855
▁소르	-14856
▁코린	-14857
▁부르봉	-14858
▁연방군	-14859
▁콜린스	-14860
▁클레오	-14861
▁트레인	-14862
▁Hell	-14863
22	-14864
▁나투	-14865
▁도부	-14866
▁숙명	-14867
▁원사	-14868
▁허물	-14869
▁후회	-14870
▁캄파니아	-14871
▁플루토늄	-14872
▁켐	-14873
피크	-14874
▁결여	-14875
▁관아	-14876
▁도안	-14877
▁뒤덮	-14878
▁레크	-14879
▁만류	-14880
▁만지	-14881
▁문물	-14882
▁산재	-14883
▁오구	-14884
▁완장	-14885
14	-14886
▁챠	-14887
의식	-14888
▁가선	-14889
▁오니	-14890
▁자성	-14891
▁퇴치	-14892
▁곧이어	-14893
▁아스카	-14894
▁엘비스	-14895
▁메모리얼	-14896
▁뚜껑	-14897
▁사병	-14898
▁제비	-14899
▁서태지	-14900
▁현미경	-14901
▁스테파노	-14902
버터	-14903
▁구가	-14904
▁니즈	-14905
▁보어	-14906
▁상감	-14907
▁스플	-14908
▁율리	-14909
▁이씨	-14910
▁트림	-14911
▁625	-14912
▁난쟁이	-14913
▁앙드레	-14914
▁라이센스	-14915
▁랏	-14916
남면	-14917
무장	-14918
토크	-14919
형제	-14920
▁서품	-14921
▁여정	-14922
▁게이밍	-14923
▁오리엔	-14924
▁이론가	-14925
▁전시관	-14926
▁긋	-14927
▁짚	-14928
배마	-14929
▁KS	-14930
▁se	-14931
▁us	-14932
▁구전	-14933
▁미트	-14934
▁원문	-14935
▁중건	-14936
▁플랑	-14937
▁개화파	-14938
▁길거리	-14939
▁억제제	-14940
▁이케다	-14941
▁혼합물	-14942
▁앨라배마	-14943
▁프리큐어	-14944
▁ᆫ단	-14945
▁모교	-14946
▁서체	-14947
▁선과	-14948
▁요도	-14949
▁일어	-14950
▁푸젠	-14951
▁결의안	-14952
▁불러오	-14953
▁울트라	-14954
▁인류학	-14955
▁카리스	-14956
▁서바이벌	-14957
▁아드리아	-14958
▁^	-14959
▁네브	-14960
▁블룸	-14961
▁세제	-14962
▁적법	-14963
▁투사	-14964
▁사다리	-14965
▁아키텐	-14966
▁아파치	-14967
▁소아시아	-14968
▁멱	-14969
▁샷	-14970
동원	-14971
EEE	-14972
▁롤러	-14973
▁리안	-14974
▁명왕	-14975
▁원점	-14976
▁태화	-14977
▁가치관	-14978
▁셰퍼드	-14979
▁순천시	-14980
▁튀어나오	-14981
13	-14982
15	-14983
어놓	-14984
▁부식	-14985
▁북인	-14986
▁왕당	-14987
▁원만	-14988
▁함장	-14989
▁후견	-14990
▁대제학	-14991
▁안철수	-14992
데일	-14993
▁공병	-14994
▁관위	-14995
▁군기	-14996
▁미러	-14997
▁박찬	-14998
▁일면	-14999
▁전서	-15000
▁진심	-15001
▁호투	-15002
▁후면	-15003
▁미트라	-15004
▁우에노	-15005
▁뮈	-15006
▁웜	-15007
고사	-15008
나시	-15009
로트	-15010
▁백운	-15011
▁백지	-15012
▁베다	-15013
▁알로	-15014
▁이만	-15015
▁자갈	-15016
▁화소	-15017
reak	-15018
▁제니퍼	-15019
▁최진실	-15020
▁미야기현	-15021
▁자이언트	-15022
▁자카르타	-15023
▁테크놀로지	-15024
▁뉴클레오타이드	-15025
VA	-15026
과학	-15027
매기	-15028
완다	-15029
투리	-15030
▁관군	-15031
▁근간	-15032
▁바젤	-15033
▁아누	-15034
▁자백	-15035
▁츠카	-15036
▁타파	-15037
▁미성년	-15038
▁출장소	-15039
▁핵탄두	-15040
▁크리스틴	-15041
재판	-15042
주석	-15043
티지	-15044
uck	-15045
▁무공	-15046
▁바투	-15047
▁발터	-15048
▁어지	-15049
▁빌바오	-15050
▁예문관	-15051
▁출판물	-15052
▁안토니우스	-15053
▁김학	-15054
▁퇴출	-15055
▁빈센트	-15056
▁직사각	-15057
▁케이드	-15058
장조	-15059
▁거병	-15060
▁금관	-15061
▁다윗	-15062
▁로디	-15063
▁문건	-15064
▁속국	-15065
▁수주	-15066
▁이창	-15067
▁헬스	-15068
▁실린더	-15069
▁페스트	-15070
조류	-15071
▁덮치	-15072
▁레티	-15073
▁산남	-15074
▁왕명	-15075
▁용맹	-15076
▁은지	-15077
▁장경	-15078
▁테헤	-15079
▁환승역	-15080
▁아이스크림	-15081
de	-15082
▁공석	-15083
▁로보	-15084
▁전봉	-15085
▁주포	-15086
▁통감	-15087
▁희미	-15088
떨어지	-15089
▁목표물	-15090
▁선제후	-15091
▁순교자	-15092
▁탈레반	-15093
▁IEEE	-15094
▁카디널스	-15095
르바	-15096
▁도끼	-15097
▁발광	-15098
▁산술	-15099
▁안주	-15100
▁오인	-15101
▁총감	-15102
▁피자	-15103
▁홀수	-15104
▁로저스	-15105
▁바스크	-15106
▁통계학	-15107
▁오토바이	-15108
HL	-15109
나주	-15110
소니	-15111
스톤	-15112
▁논증	-15113
▁사산	-15114
▁상층	-15115
▁연해	-15116
▁정청	-15117
▁하후	-15118
▁호화	-15119
▁회차	-15120
▁기념장	-15121
▁쓰촨성	-15122
▁정착지	-15123
▁Star	-15124
▁아미타불	-15125
▁경원	-15126
▁뉴잉	-15127
▁뚫리	-15128
▁로코	-15129
▁리언	-15130
▁양동	-15131
▁화풍	-15132
▁340	-15133
▁마코토	-15134
▁아이치	-15135
▁이치현	-15136
▁해인사	-15137
주사	-15138
▁달력	-15139
▁발진	-15140
▁보디	-15141
▁오와	-15142
▁코이	-15143
▁튜링	-15144
▁특명	-15145
▁대혁명	-15146
▁디에고	-15147
▁아니면	-15148
▁여러분	-15149
▁이광수	-15150
▁조르주	-15151
▁고바야시	-15152
▁어우러지	-15153
oo	-15154
스퍼	-15155
ail	-15156
▁DO	-15157
▁FF	-15158
▁개경	-15159
▁도매	-15160
▁의인	-15161
▁젤리	-15162
▁조회	-15163
하마드	-15164
▁볼프강	-15165
패드	-15166
▁보국	-15167
▁사생	-15168
▁섹션	-15169
▁수문	-15170
▁유틸	-15171
▁청정	-15172
▁호적	-15173
▁교황령	-15174
▁로스트	-15175
▁향신료	-15176
▁유틸리티	-15177
▁콘스탄티누스	-15178
학파	-15179
▁as	-15180
▁교인	-15181
▁김덕	-15182
▁담양	-15183
▁사탄	-15184
▁산정	-15185
▁상설	-15186
▁수프	-15187
▁진천	-15188
▁타밀	-15189
▁터스	-15190
게이트	-15191
▁310	-15192
▁레이건	-15193
▁리바이	-15194
▁펙	-15195
▁교재	-15196
▁김도	-15197
▁동급	-15198
▁소서	-15199
▁지검	-15200
▁짝수	-15201
▁추장	-15202
▁커브	-15203
▁폐하	-15204
▁개척자	-15205
▁대대장	-15206
▁슈트라	-15207
▁자본가	-15208
▁지석묘	-15209
▁국가원수	-15210
▁중앙일보	-15211
▁구라	-15212
▁베가	-15213
▁정역	-15214
▁폐차	-15215
▁Sun	-15216
▁가우스	-15217
▁국내선	-15218
▁대관식	-15219
▁오슬로	-15220
▁원정대	-15221
▁Super	-15222
▁매사추세츠주	-15223
팩스	-15224
▁my	-15225
▁개표	-15226
▁거문	-15227
▁김주	-15228
▁나바	-15229
▁떠돌	-15230
▁부락	-15231
▁선별	-15232
▁손수	-15233
▁you	-15234
▁브레멘	-15235
▁슈투트	-15236
▁슈트라우스	-15237
▁슈투트가르트	-15238
▁뽀	-15239
바퀴	-15240
플레	-15241
▁교감	-15242
▁닷컴	-15243
▁멜라	-15244
▁수구	-15245
▁어학	-15246
▁입찰	-15247
▁개막식	-15248
▁근세	-15249
▁센타	-15250
▁속초	-15251
▁카파	-15252
▁해커	-15253
▁호이	-15254
▁209	-15255
▁에세이	-15256
▁1812	-15257
▁모니터링	-15258
구미	-15259
댓값	-15260
vel	-15261
▁늦추	-15262
▁모션	-15263
▁세밀	-15264
▁수질	-15265
▁시력	-15266
▁아칸	-15267
▁의논	-15268
▁템플	-15269
▁무사시	-15270
▁에이브	-15271
▁울주군	-15272
▁아이파크	-15273
▁뉴잉글랜드	-15274
▁강유	-15275
▁걸스	-15276
▁과달	-15277
▁도파	-15278
▁무위	-15279
▁배타	-15280
▁빨강	-15281
▁충동	-15282
▁평방	-15283
▁무신론	-15284
▁바빌론	-15285
▁셀레우	-15286
초프	-15287
▁당상	-15288
▁명륜	-15289
▁박경	-15290
▁손쉽	-15291
▁스쿼	-15292
▁장강	-15293
▁장지	-15294
▁추밀	-15295
▁항문	-15296
▁송진우	-15297
▁그래픽스	-15298
▁과감	-15299
▁루드	-15300
▁성조	-15301
▁안면	-15302
▁정실	-15303
▁조던	-15304
▁토프	-15305
▁피그	-15306
▁하강	-15307
▁황위	-15308
▁윤치영	-15309
▁자치현	-15310
▁클라리	-15311
▁Soul	-15312
▁유니코드	-15313
▁후쿠시마현	-15314
▁Kn	-15315
▁ad	-15316
▁규합	-15317
▁그늘	-15318
▁로컬	-15319
▁메드	-15320
▁주유	-15321
▁콘스	-15322
▁풀이	-15323
▁호국	-15324
하우스	-15325
▁록히드	-15326
▁에이지	-15327
▁자오선	-15328
▁북대서양	-15329
▁서비스업	-15330
▁선거관리	-15331
▁무형문화재	-15332
▁선거관리위원회	-15333
TF	-15334
티어	-15335
iel	-15336
▁근위	-15337
▁나시	-15338
▁논평	-15339
▁산인	-15340
▁위축	-15341
▁쪼개	-15342
시아키	-15343
▁르완다	-15344
▁음식점	-15345
▁리바운드	-15346
▁썸	-15347
▁Tw	-15348
▁그릴	-15349
▁끔찍	-15350
▁맞배	-15351
▁산동	-15352
▁이건	-15353
▁점토	-15354
▁지카	-15355
▁천자	-15356
▁탄두	-15357
▁206	-15358
▁단말기	-15359
▁삼거리	-15360
▁접미사	-15361
▁주거지	-15362
▁한자어	-15363
▁John	-15364
▁알렉세이	-15365
▁Christ	-15366
▁루손	-15367
▁용역	-15368
▁집적	-15369
▁보이즈	-15370
▁여수시	-15371
▁조광조	-15372
▁ICBM	-15373
▁름	-15374
디드	-15375
▁ON	-15376
▁고후	-15377
▁김시	-15378
▁로런	-15379
▁매듭	-15380
▁법상	-15381
▁스완	-15382
▁예보	-15383
▁코우	-15384
▁포상	-15385
▁기생충	-15386
▁여주인	-15387
▁연대장	-15388
▁주제가	-15389
▁막시밀리	-15390
59	-15391
샤오	-15392
▁구비	-15393
▁귀순	-15394
▁니치	-15395
▁리퍼	-15396
▁상이	-15397
▁아호	-15398
▁카보	-15399
▁투니	-15400
공화당	-15401
▁개개인	-15402
▁사우디	-15403
▁1879	-15404
▁ᆯ지라도	-15405
▁아브라함	-15406
▁민주공화당	-15407
gh	-15408
네오	-15409
ute	-15410
▁Mi	-15411
▁가창	-15412
▁금천	-15413
▁도자	-15414
▁동맥	-15415
▁로지	-15416
▁무진	-15417
▁버밍	-15418
▁샤오	-15419
▁수라	-15420
▁아람	-15421
▁영도	-15422
▁타라	-15423
▁그러면	-15424
▁레코딩	-15425
▁의병장	-15426
▁쑹	-15427
도감	-15428
버라	-15429
▁당장	-15430
▁유세	-15431
▁자각	-15432
▁장이	-15433
▁철기	-15434
▁춘계	-15435
▁휴일	-15436
▁고지대	-15437
▁에다가	-15438
▁베르사유	-15439
TR	-15440
무지	-15441
블릭	-15442
탄올	-15443
▁IF	-15444
▁Mr	-15445
▁범람	-15446
▁솔리	-15447
▁원한	-15448
▁카토	-15449
▁해주	-15450
▁747	-15451
▁라그랑	-15452
▁로널드	-15453
▁안데스	-15454
▁테헤란	-15455
▁건국훈장	-15456
EA	-15457
면적	-15458
▁애호	-15459
▁양원	-15460
▁양정	-15461
▁차차	-15462
▁초식	-15463
▁커리	-15464
▁콜론	-15465
라이스	-15466
▁바닷가	-15467
▁백두산	-15468
▁태블릿	-15469
▁파르마	-15470
▁관개	-15471
▁동대	-15472
▁딱딱	-15473
▁모태	-15474
▁변성	-15475
▁부화	-15476
▁소량	-15477
▁전열	-15478
▁차역	-15479
▁청일	-15480
▁체질	-15481
▁석회암	-15482
▁파르티아	-15483
방스	-15484
▁감당	-15485
▁낯설	-15486
▁농담	-15487
▁단수	-15488
▁빛깔	-15489
▁소포	-15490
▁슬러	-15491
▁유보	-15492
▁잇달	-15493
▁정맥	-15494
▁카펠	-15495
▁투기	-15496
▁조봉암	-15497
▁피어스	-15498
▁일렉트로닉	-15499
▁뜯	-15500
태자	-15501
▁공경	-15502
▁대등	-15503
▁두부	-15504
▁듀스	-15505
▁부기	-15506
▁불문	-15507
▁양념	-15508
▁영종	-15509
▁울루	-15510
▁유상	-15511
▁풍요	-15512
▁독재자	-15513
▁카지노	-15514
▁불법행위	-15515
▁뉴올리언스	-15516
분투	-15517
▁HP	-15518
▁기권	-15519
▁대방	-15520
▁대여	-15521
▁비오	-15522
▁자석	-15523
▁조우	-15524
▁쿠시	-15525
▁420	-15526
▁des	-15527
▁제이크	-15528
슐리	-15529
▁노역	-15530
▁무패	-15531
▁상회	-15532
▁실베	-15533
▁유계	-15534
▁일보	-15535
▁임실	-15536
▁게이오	-15537
OK	-15538
네프	-15539
신보	-15540
▁국문	-15541
▁군마	-15542
▁노마	-15543
▁보아	-15544
▁수족	-15545
▁이코	-15546
▁인삼	-15547
▁제고	-15548
▁중등	-15549
▁초회	-15550
▁매니아	-15551
▁변호인	-15552
▁여행자	-15553
▁쑨	-15554
반정	-15555
의금	-15556
화산	-15557
▁게놈	-15558
▁능숙	-15559
▁레저	-15560
▁불능	-15561
▁온전	-15562
로세서	-15563
를레앙	-15564
▁CoA	-15565
▁리그컵	-15566
▁부추기	-15567
▁아이작	-15568
▁영사관	-15569
▁즐거움	-15570
▁트리스	-15571
▁원종공신	-15572
정변	-15573
▁강가	-15574
▁사파	-15575
▁스킨	-15576
▁유민	-15577
▁자존	-15578
▁촐라	-15579
▁현수	-15580
▁App	-15581
▁Str	-15582
▁불거지	-15583
▁사가미	-15584
▁암스트	-15585
▁으리라	-15586
▁들어올리	-15587
▁반납	-15588
▁반달	-15589
▁사체	-15590
▁수아	-15591
▁스텐	-15592
▁전곡	-15593
▁최용	-15594
▁클럭	-15595
▁440	-15596
리아누스	-15597
▁쿵	-15598
▁끊이	-15599
▁남경	-15600
▁성자	-15601
▁열람	-15602
▁호시	-15603
레틱스	-15604
▁국방군	-15605
▁본거지	-15606
▁테크노	-15607
▁애슬레틱스	-15608
▁Record	-15609
연맹	-15610
VID	-15611
▁ㄹ로	-15612
▁동하	-15613
▁앉히	-15614
▁역동	-15615
▁카다	-15616
▁컬링	-15617
▁항전	-15618
▁흐트	-15619
▁꽝	-15620
▁퀼	-15621
산업	-15622
수지	-15623
자드	-15624
▁광시	-15625
▁두스	-15626
▁매복	-15627
▁시타	-15628
▁군주제	-15629
▁글리제	-15630
▁수영장	-15631
▁엘리엇	-15632
▁이회창	-15633
▁지극히	-15634
선교	-15635
장군	-15636
ull	-15637
▁Gu	-15638
▁권투	-15639
▁노엘	-15640
▁도나	-15641
▁머큐	-15642
▁소진	-15643
▁아로	-15644
▁인척	-15645
▁접목	-15646
▁처칠	-15647
▁후추	-15648
로그램	-15649
▁광합성	-15650
▁니가타	-15651
▁알칼리	-15652
▁을수록	-15653
▁인산화	-15654
▁사이클론	-15655
▁엔지니어링	-15656
▁압수	-15657
▁왕좌	-15658
▁유관	-15659
▁체리	-15660
▁야구부	-15661
▁오메가	-15662
▁유기체	-15663
▁조용히	-15664
▁호기심	-15665
▁주머니쥐	-15666
▁헬레니즘	-15667
▁아우구스트	-15668
링크	-15669
박이	-15670
▁부트	-15671
▁제방	-15672
▁증축	-15673
▁공성전	-15674
▁요나라	-15675
▁페르시	-15676
▁페이퍼	-15677
▁플래닛	-15678
▁2500	-15679
▁PA	-15680
▁고요	-15681
▁만물	-15682
▁안락	-15683
▁폴로	-15684
▁할구	-15685
▁행운	-15686
▁Hot	-15687
▁양산시	-15688
▁엘리스	-15689
▁잠비아	-15690
티보	-15691
▁"|	-15692
▁동두	-15693
▁양구	-15694
▁열거	-15695
▁왕녀	-15696
▁왕릉	-15697
▁요셉	-15698
▁이석	-15699
▁정직	-15700
▁쿠루	-15701
▁파고	-15702
▁화이	-15703
▁Per	-15704
▁바실리	-15705
▁습니까	-15706
▁판매고	-15707
▁합병증	-15708
▁항생제	-15709
▁print	-15710
▁다마스쿠스	-15711
▁금기	-15712
▁내시	-15713
▁더라	-15714
▁라쿠	-15715
▁용문	-15716
▁탈피	-15717
▁투병	-15718
▁호찌	-15719
▁환산	-15720
▁256	-15721
▁부서지	-15722
▁살아오	-15723
▁스위트	-15724
▁오우치	-15725
▁춘천시	-15726
▁타지키스탄	-15727
▁public	-15728
길준	-15729
니에	-15730
덕궁	-15731
▁CA	-15732
▁고독	-15733
▁궁주	-15734
▁리지	-15735
▁미타	-15736
▁신익	-15737
▁앙상	-15738
▁워낙	-15739
▁작자	-15740
▁헐리	-15741
▁실리콘	-15742
▁영화관	-15743
▁제시카	-15744
▁허버트	-15745
▁대법원장	-15746
대비	-15747
일체	-15748
▁po	-15749
▁나토	-15750
▁리노	-15751
▁명동	-15752
▁문어	-15753
▁종실	-15754
▁퀸스	-15755
▁킬러	-15756
▁깨어나	-15757
▁맞물리	-15758
▁부러지	-15759
▁엔리케	-15760
▁오토모	-15761
레미	-15762
▁균등	-15763
▁기시	-15764
▁담임	-15765
▁득실	-15766
▁마거	-15767
▁성현	-15768
▁콜리	-15769
▁바레인	-15770
▁산투스	-15771
▁접근성	-15772
바이러스	-15773
▁앳	-15774
발트	-15775
빨리	-15776
황제	-15777
▁nm	-15778
▁가결	-15779
▁사나	-15780
▁은평	-15781
▁이한	-15782
▁기본법	-15783
▁왕당파	-15784
▁카스텔	-15785
▁후반전	-15786
ty	-15787
자나	-15788
▁ER	-15789
▁광동	-15790
▁내기	-15791
▁담수	-15792
▁바바	-15793
▁반향	-15794
▁북마	-15795
▁사목	-15796
▁사스	-15797
▁성형	-15798
▁시영	-15799
▁식이	-15800
▁실책	-15801
▁아루	-15802
▁이설	-15803
▁코니	-15804
▁패자	-15805
▁환초	-15806
▁랴오닝	-15807
▁버스터	-15808
16	-15809
25	-15810
는점	-15811
데오	-15812
▁교학	-15813
▁셔츠	-15814
▁중신	-15815
▁향로	-15816
▁힐스	-15817
▁시에라	-15818
▁초고층	-15819
▁후유증	-15820
▁크리스탈	-15821
다임	-15822
쿠치	-15823
▁군도	-15824
▁기한	-15825
▁노골	-15826
▁동률	-15827
▁우타	-15828
▁조승	-15829
▁Win	-15830
▁고다이	-15831
▁남북조	-15832
▁비행사	-15833
▁생산자	-15834
▁캅카스	-15835
▁천문단위	-15836
▁둠	-15837
포리	-15838
ual	-15839
▁금리	-15840
▁석재	-15841
▁접시	-15842
▁준하	-15843
▁코인	-15844
▁토론회	-15845
▁NM	-15846
▁깊숙	-15847
▁바타	-15848
▁성교	-15849
▁솔직	-15850
▁아역	-15851
▁오차	-15852
▁장차	-15853
▁카츠	-15854
고로드	-15855
▁렌더링	-15856
▁방법론	-15857
▁브루노	-15858
▁잠재력	-15859
▁재결합	-15860
▁쐐	-15861
자락	-15862
▁강타	-15863
▁겨냥	-15864
▁농협	-15865
▁동체	-15866
▁미녀	-15867
▁쌍용	-15868
▁여관	-15869
▁피질	-15870
ogle	-15871
▁911	-15872
▁다행히	-15873
▁웨슬리	-15874
▁패러다임	-15875
무트	-15876
불명	-15877
스틱	-15878
▁Ke	-15879
▁강자	-15880
▁대용	-15881
▁멘델	-15882
▁예쁘	-15883
▁유미	-15884
▁즉흥	-15885
▁칠곡	-15886
▁침수	-15887
▁예비군	-15888
▁예수교	-15889
▁이세이	-15890
▁프리드	-15891
울루	-15892
▁HS	-15893
▁mu	-15894
▁관저	-15895
▁교명	-15896
▁기피	-15897
▁녹이	-15898
▁느슨	-15899
▁반정	-15900
▁브이	-15901
▁사조	-15902
▁쐐기	-15903
▁유독	-15904
▁코일	-15905
▁탄력	-15906
▁할로	-15907
▁알베르	-15908
▁조연상	-15909
▁주둔지	-15910
▁Back	-15911
▁리치먼드	-15912
▁플랑드르	-15913
로움	-15914
커우	-15915
▁곱하	-15916
▁군량	-15917
▁도화	-15918
▁라사	-15919
▁스팀	-15920
▁시온	-15921
▁정중	-15922
▁조율	-15923
▁지브	-15924
▁진성	-15925
▁치킨	-15926
▁베이직	-15927
▁사무엘	-15928
▁스텔스	-15929
▁1789	-15930
▁1801	-15931
▁캥	-15932
▁군림	-15933
▁성부	-15934
▁악어	-15935
▁응력	-15936
▁이보	-15937
▁초석	-15938
▁치밀	-15939
그래피	-15940
▁208	-15941
▁제주시	-15942
▁이마가와	-15943
스텐	-15944
▁KD	-15945
▁봉분	-15946
▁부안	-15947
▁아구	-15948
▁우디	-15949
▁전과	-15950
던지기	-15951
프리드	-15952
▁오이타	-15953
▁흘러가	-15954
▁기타큐슈	-15955
▁독립선언	-15956
▁아미타여래	-15957
득점	-15958
▁구애	-15959
▁세타	-15960
▁윤곽	-15961
▁트램	-15962
▁파피	-15963
▁광주시	-15964
▁들여오	-15965
▁유도탄	-15966
▁조제프	-15967
▁트럼펫	-15968
▁Kore	-15969
▁포틀랜드	-15970
▁누마	-15971
▁로만	-15972
▁변천	-15973
▁소노	-15974
▁신천	-15975
▁악의	-15976
▁원곡	-15977
▁유감	-15978
▁총생	-15979
▁히코	-15980
▁길버트	-15981
▁내몽골	-15982
▁영문학	-15983
▁유길준	-15984
▁클라인	-15985
▁1400	-15986
▁암스트롱	-15987
RNA	-15988
▁Fl	-15989
▁가전	-15990
▁기일	-15991
▁이크	-15992
리오스	-15993
▁급속도	-15994
▁마운틴	-15995
▁머큐리	-15996
▁아르테	-15997
▁영장류	-15998
▁폼페이우스	-15999
평면	-16000
▁거품	-16001
▁교란	-16002
▁다채	-16003
▁애프	-16004
▁책정	-16005
▁폐교	-16006
▁거듭나	-16007
▁네바다	-16008
▁동일시	-16009
▁브릿지	-16010
▁스태프	-16011
▁인문학	-16012
▁지배하	-16013
▁드래곤즈	-16014
ll	-16015
▁뿜	-16016
다스	-16017
이상	-16018
차리	-16019
▁MD	-16020
▁구부	-16021
▁균열	-16022
▁미디	-16023
▁약수	-16024
▁에픽	-16025
▁채집	-16026
▁청중	-16027
▁370	-16028
▁MIT	-16029
▁디아스	-16030
▁사망률	-16031
▁선수상	-16032
▁NATO	-16033
인산	-16034
▁NL	-16035
▁가령	-16036
▁격화	-16037
▁고는	-16038
▁공평	-16039
▁궁수	-16040
▁김장	-16041
▁안시	-16042
▁영성	-16043
▁유재	-16044
▁이가	-16045
▁225	-16046
▁Get	-16047
▁브루크	-16048
▁사천왕	-16049
▁앙상블	-16050
▁유물론	-16051
▁작아지	-16052
▁남한산성	-16053
▁탄수화물	-16054
제사	-16055
▁갑신	-16056
▁고관	-16057
▁구명	-16058
▁오웬	-16059
▁제타	-16060
▁첫날	-16061
▁최순	-16062
lect	-16063
▁로런스	-16064
▁마거릿	-16065
▁방문객	-16066
▁붉은색	-16067
▁연금술	-16068
▁이유로	-16069
▁추축국	-16070
▁Baby	-16071
▁비로자나	-16072
ox	-16073
라과	-16074
▁NA	-16075
▁국산	-16076
▁도식	-16077
▁열기	-16078
▁중학	-16079
▁총국	-16080
▁출정	-16081
▁코디	-16082
스트림	-16083
▁양평군	-16084
▁생물학자	-16085
▁Intern	-16086
▁킵	-16087
남동	-16088
▁나날	-16089
▁발열	-16090
▁약품	-16091
▁예편	-16092
▁유익	-16093
▁청군	-16094
▁호전	-16095
▁흑색	-16096
ames	-16097
▁만주족	-16098
▁부천시	-16099
▁와이어	-16100
▁미식축구	-16101
레븐	-16102
▁가변	-16103
▁극회	-16104
▁명장	-16105
▁수표	-16106
▁승선	-16107
▁야만	-16108
▁친히	-16109
▁커넥	-16110
▁트론	-16111
▁베테랑	-16112
▁오리건	-16113
ology	-16114
▁리하르트	-16115
▁이리하여	-16116
▁프린세스	-16117
▁렬	-16118
든가	-16119
ove	-16120
▁강구	-16121
▁격침	-16122
▁교내	-16123
▁민선	-16124
▁생포	-16125
▁안건	-16126
▁오랑	-16127
▁장승	-16128
▁현관	-16129
▁요시카	-16130
▁항공우주	-16131
YP	-16132
▁갸	-16133
▁둑	-16134
모닉	-16135
파니	-16136
▁NX	-16137
▁OK	-16138
▁개리	-16139
▁관원	-16140
▁굳이	-16141
▁먼로	-16142
▁미로	-16143
▁박태	-16144
▁승마	-16145
▁신궁	-16146
▁코딩	-16147
▁탄성	-16148
▁황하	-16149
▁후난	-16150
▁Mag	-16151
▁디렉터	-16152
▁메신저	-16153
▁레오나르	-16154
▁서귀포시	-16155
▁해수욕장	-16156
▁셀레우코스	-16157
GO	-16158
처럼	-16159
▁Cr	-16160
▁그간	-16161
▁노름	-16162
▁듀엣	-16163
▁소마	-16164
▁제헌	-16165
▁출항	-16166
▁카인	-16167
▁하세	-16168
inal	-16169
▁남아공	-16170
▁부사장	-16171
▁항소심	-16172
무실	-16173
▁결단	-16174
▁결렬	-16175
▁공훈	-16176
▁군위	-16177
▁다라	-16178
▁무소	-16179
▁얼리	-16180
▁지회	-16181
▁타키	-16182
▁흉내	-16183
▁기네스	-16184
▁미요시	-16185
▁스펜서	-16186
▁타일러	-16187
ature	-16188
▁니카라과	-16189
▁트로츠키	-16190
▁안티오키아	-16191
▁씬	-16192
백색	-16193
피카	-16194
훈련	-16195
▁개축	-16196
▁결투	-16197
▁배지	-16198
▁외가	-16199
▁조엘	-16200
▁직각	-16201
▁진위	-16202
▁초판	-16203
▁캔터	-16204
▁통킹	-16205
▁호지	-16206
▁효성	-16207
▁나카노	-16208
▁어드밴	-16209
▁해수면	-16210
그라운드	-16211
▁로베르트	-16212
▁소크라테스	-16213
가요	-16214
능력	-16215
let	-16216
▁공지	-16217
▁생장	-16218
▁죄인	-16219
▁캡틴	-16220
▁케로	-16221
▁탄광	-16222
▁블러드	-16223
▁콜라보	-16224
▁태극기	-16225
▁태양광	-16226
▁에두아르	-16227
경찰	-16228
금속	-16229
▁대소	-16230
▁도보	-16231
▁명중	-16232
▁무쓰	-16233
▁불길	-16234
▁비방	-16235
▁서곡	-16236
▁알마	-16237
▁양위	-16238
▁총수	-16239
피에르	-16240
▁고스트	-16241
▁시나노	-16242
▁정몽주	-16243
▁주세페	-16244
▁돼지고기	-16245
▁베오그라드	-16246
17	-16247
TN	-16248
심원	-16249
enn	-16250
▁BO	-16251
▁고취	-16252
▁김은	-16253
▁누에	-16254
▁니트	-16255
▁무루	-16256
▁사일	-16257
▁수화	-16258
▁춘향	-16259
▁카노	-16260
▁화교	-16261
코비치	-16262
▁Way	-16263
▁리카르	-16264
▁신안군	-16265
▁아열대	-16266
▁일진회	-16267
▁함부로	-16268
▁프레더릭	-16269
메랄	-16270
▁MR	-16271
▁경산	-16272
▁던전	-16273
▁사옥	-16274
▁재심	-16275
▁증류	-16276
▁천태	-16277
▁출병	-16278
▁피시	-16279
▁한꺼	-16280
▁사법부	-16281
▁압둘라	-16282
의금부사	-16283
▁한꺼번에	-16284
락부	-16285
▁결실	-16286
▁김석	-16287
▁라테	-16288
▁윈드	-16289
▁주스	-16290
▁틈타	-16291
▁합장	-16292
▁다카시	-16293
▁범어사	-16294
▁스트라	-16295
▁페라리	-16296
▁Amer	-16297
▁게오르기	-16298
▁알아차리	-16299
가키	-16300
ors	-16301
▁BB	-16302
▁굴욕	-16303
▁레반	-16304
▁베아	-16305
▁인노	-16306
▁카불	-16307
▁파출	-16308
▁효모	-16309
▁김종직	-16310
▁동북부	-16311
▁두더지	-16312
▁이치로	-16313
▁혈액형	-16314
▁유럽연합	-16315
▁이오니아	-16316
▁아르바이트	-16317
UM	-16318
갱이	-16319
월드	-16320
▁레르	-16321
▁매튜	-16322
▁미끄	-16323
▁봉헌	-16324
▁사계	-16325
▁잔치	-16326
▁철근	-16327
▁하츠	-16328
▁흡입	-16329
▁207	-16330
▁365	-16331
▁GPS	-16332
▁Res	-16333
▁강릉시	-16334
▁국무부	-16335
▁무정부	-16336
▁알레산	-16337
▁일제히	-16338
▁1820	-16339
▁선거인단	-16340
▁"'	-16341
▁깁슨	-16342
▁담그	-16343
▁북송	-16344
▁연어	-16345
▁폭주	-16346
말라야	-16347
▁시아파	-16348
▁리얼리티	-16349
던스	-16350
즈미	-16351
▁기형	-16352
▁내역	-16353
▁도량	-16354
▁미추	-16355
▁베컴	-16356
▁에인	-16357
▁운석	-16358
▁조너	-16359
▁해내	-16360
▁모터쇼	-16361
▁조합원	-16362
▁체육회	-16363
▁1815	-16364
▁서대문구	-16365
덱스	-16366
app	-16367
▁DA	-16368
▁결집	-16369
▁맞닿	-16370
▁박동	-16371
▁살레	-16372
▁습도	-16373
▁시편	-16374
▁이구	-16375
▁충고	-16376
▁토의	-16377
▁토하	-16378
▁사이다	-16379
▁연습생	-16380
▁유명세	-16381
▁이지스	-16382
▁직할시	-16383
현실	-16384
▁비이	-16385
▁어인	-16386
▁에든	-16387
▁으뜸	-16388
▁좌랑	-16389
▁키치	-16390
▁핼리	-16391
어들이	-16392
▁농민군	-16393
▁페레스	-16394
▁프린터	-16395
노스아이	-16396
▁에든버러	-16397
노스아이레스	-16398
▁부에노스아이레스	-16399
광사	-16400
나비	-16401
시카	-16402
▁Dr	-16403
▁공보	-16404
▁설과	-16405
▁세도	-16406
▁술집	-16407
▁신안	-16408
▁영위	-16409
▁천리	-16410
▁천적	-16411
▁퇴계	-16412
▁펜스	-16413
▁풋살	-16414
▁필로	-16415
스티안	-16416
▁Cent	-16417
▁카롤루스	-16418
▁담장	-16419
▁산마	-16420
▁학도	-16421
▁허구	-16422
이즈미	-16423
▁노무라	-16424
▁도나우	-16425
▁오징어	-16426
▁지방도	-16427
▁라이온스	-16428
▁히말라야	-16429
24	-16430
▁낸	-16431
▁격상	-16432
▁변조	-16433
▁본능	-16434
▁분담	-16435
▁서역	-16436
▁시성	-16437
▁양분	-16438
▁조나	-16439
▁한라	-16440
▁해머	-16441
레이즈	-16442
▁감마선	-16443
▁야행성	-16444
▁지팡이	-16445
▁막시밀리안	-16446
▁욘	-16447
ret	-16448
▁로제	-16449
▁모잠	-16450
▁성내	-16451
▁슐레	-16452
▁쿠사	-16453
▁표어	-16454
▁호박	-16455
ange	-16456
ater	-16457
▁넘어지	-16458
▁리그전	-16459
▁전동기	-16460
▁제품군	-16461
▁후베이	-16462
▁모잠비크	-16463
로프로세서	-16464
▁레닌그라드	-16465
▁마이크로프로세서	-16466
FS	-16467
▁훅	-16468
오드	-16469
ina	-16470
▁견지	-16471
▁디펜	-16472
▁마취	-16473
▁만수	-16474
▁스틱	-16475
▁전극	-16476
▁전액	-16477
▁피쳐	-16478
▁유공자	-16479
▁혁명가	-16480
마니	-16481
▁기주	-16482
▁당사	-16483
▁리서	-16484
▁벅스	-16485
▁본진	-16486
▁실태	-16487
▁월경	-16488
▁이삭	-16489
▁장서	-16490
▁지반	-16491
▁테살	-16492
▁트롤	-16493
▁아드리	-16494
▁고고학자	-16495
▁알베르트	-16496
▁System	-16497
▁갑오	-16498
▁데니	-16499
▁부이	-16500
▁사보	-16501
▁시차	-16502
▁융기	-16503
지먼트	-16504
▁디나모	-16505
▁모델링	-16506
▁선데이	-16507
▁조병옥	-16508
▁지포스	-16509
▁1858	-16510
▁마쓰모토	-16511
▁매니지먼트	-16512
▁알렉산드라	-16513
베인	-16514
비츠	-16515
▁경구	-16516
▁기욤	-16517
▁니체	-16518
▁마초	-16519
▁세실	-16520
▁소정	-16521
▁아토	-16522
▁위태	-16523
▁출루	-16524
▁특혜	-16525
▁퍼플	-16526
▁합산	-16527
▁적절히	-16528
▁총생산	-16529
za	-16530
▁SW	-16531
▁광서	-16532
▁기민	-16533
▁노총	-16534
▁달마	-16535
▁만연	-16536
▁위배	-16537
▁자막	-16538
▁종단	-16539
▁직류	-16540
▁탈리	-16541
▁핑계	-16542
▁허들	-16543
▁형광	-16544
▁가디언	-16545
▁모조리	-16546
▁전망대	-16547
▁중심핵	-16548
▁모노이드	-16549
▁천연가스	-16550
▁프로방스	-16551
▁써	-16552
거루	-16553
니츠	-16554
ons	-16555
▁미완	-16556
▁사악	-16557
▁새해	-16558
▁성찬	-16559
▁소켓	-16560
▁소탕	-16561
▁지뢰	-16562
▁코넬	-16563
▁광화문	-16564
▁군산시	-16565
▁날아오	-16566
▁막아내	-16567
▁분홍색	-16568
▁오스트로	-16569
▁엎	-16570
▁챈	-16571
쓰네	-16572
입자	-16573
퍼트	-16574
▁관대	-16575
▁급사	-16576
▁납품	-16577
▁달래	-16578
▁상해	-16579
▁안재	-16580
▁육박	-16581
▁장론	-16582
▁정현	-16583
▁창씨	-16584
▁콘셉	-16585
▁Int	-16586
▁Mac	-16587
▁Tra	-16588
▁관찰자	-16589
▁라이드	-16590
▁민의원	-16591
▁스와프	-16592
▁크레타	-16593
▁마그네슘	-16594
랭크	-16595
토바	-16596
ley	-16597
▁'-	-16598
▁기교	-16599
▁도난	-16600
▁마도	-16601
▁매질	-16602
▁모여	-16603
▁발라	-16604
▁엠마	-16605
▁옵티	-16606
▁음양	-16607
▁재주	-16608
▁태상	-16609
▁특위	-16610
▁대학살	-16611
▁목포시	-16612
▁신익희	-16613
▁안티고	-16614
▁제노바	-16615
▁조너선	-16616
▁파블로	-16617
▁High	-16618
▁알베르토	-16619
▁이성질체	-16620
▁필하모닉	-16621
▁폴리네시아	-16622
러기	-16623
▁갈비	-16624
▁궁내	-16625
▁기근	-16626
▁낙태	-16627
▁녹말	-16628
▁더빙	-16629
▁선서	-16630
▁애쓰	-16631
▁의왕	-16632
▁포섭	-16633
▁하카	-16634
▁ᄇ니까	-16635
▁넘어오	-16636
▁도치기	-16637
▁평상시	-16638
▁필리스	-16639
▁class	-16640
ux	-16641
동리	-16642
정제	-16643
▁견훤	-16644
▁대정	-16645
▁수강	-16646
▁에뮬	-16647
▁이철	-16648
▁장택	-16649
▁정공	-16650
▁좌천	-16651
▁총살	-16652
▁테드	-16653
ions	-16654
▁USA	-16655
▁스타인	-16656
▁진정하	-16657
▁맞배지붕	-16658
▁무궁화호	-16659
라나	-16660
사랑	-16661
싸움	-16662
▁급기	-16663
▁농작	-16664
▁니라	-16665
▁덕수	-16666
▁독실	-16667
▁말소	-16668
▁민가	-16669
▁완산	-16670
▁진구	-16671
▁총액	-16672
▁프록	-16673
▁노트북	-16674
▁마에다	-16675
▁밀어내	-16676
▁봉수대	-16677
▁시게루	-16678
실험	-16679
▁공해	-16680
▁귀하	-16681
▁기악	-16682
▁남궁	-16683
▁수선	-16684
▁정과	-16685
▁토드	-16686
▁펠레	-16687
▁Not	-16688
▁그리드	-16689
▁마피아	-16690
▁미우라	-16691
▁베일리	-16692
▁유성구	-16693
▁포인터	-16694
▁조선왕조실록	-16695
코인	-16696
att	-16697
▁콤비	-16698
▁패퇴	-16699
▁푸틴	-16700
▁성명서	-16701
▁전철역	-16702
▁타블로	-16703
▁플래그	-16704
▁1300	-16705
▁서프랑크	-16706
컨드	-16707
테일	-16708
▁고택	-16709
▁동티	-16710
▁마틸	-16711
▁북상	-16712
▁예일	-16713
▁우도	-16714
▁증원	-16715
지스터	-16716
▁TBC	-16717
▁연구실	-16718
▁평의원	-16719
▁피드백	-16720
▁1814	-16721
▁그래미상	-16722
▁동아프리카	-16723
▁클라이맥스	-16724
스테	-16725
▁SG	-16726
▁고갈	-16727
▁군락	-16728
▁로어	-16729
▁미자	-16730
▁벨벳	-16731
▁성제	-16732
▁아말	-16733
▁알렌	-16734
▁앨버	-16735
▁음역	-16736
▁제보	-16737
▁헤지	-16738
▁휴먼	-16739
▁흥덕	-16740
▁290	-16741
▁겨울철	-16742
▁비올라	-16743
▁수도사	-16744
▁트랜싯	-16745
▁티무르	-16746
▁귤	-16747
당류	-16748
마일	-16749
촌동	-16750
토쿠	-16751
ART	-16752
▁kW	-16753
▁로타	-16754
▁마고	-16755
▁문성	-16756
▁비호	-16757
▁우이	-16758
▁유승	-16759
▁전란	-16760
▁주상	-16761
▁헬렌	-16762
▁MHz	-16763
▁건너편	-16764
▁수증기	-16765
▁쌍방울	-16766
▁커티스	-16767
▁What	-16768
▁type	-16769
▁보호구역	-16770
재단	-16771
▁RA	-16772
▁군비	-16773
▁보육	-16774
▁비욘	-16775
▁소치	-16776
▁수의	-16777
▁아약	-16778
▁애매	-16779
▁이덕	-16780
▁쿠리	-16781
▁퀘이	-16782
▁키아	-16783
▁깨달음	-16784
▁맞대결	-16785
▁액티브	-16786
▁우승컵	-16787
▁트랜지스터	-16788
기둥	-16789
널목	-16790
자유	-16791
▁Of	-16792
▁군집	-16793
▁려다	-16794
▁목화	-16795
▁스팅	-16796
▁열망	-16797
▁열풍	-16798
▁옥상	-16799
▁우대	-16800
▁전집	-16801
▁증직	-16802
▁튀기	-16803
▁홍천	-16804
▁IEC	-16805
▁WHO	-16806
▁건널목	-16807
▁세컨드	-16808
▁오나라	-16809
▁충주시	-16810
BN	-16811
거성	-16812
데냐	-16813
▁간지	-16814
▁구석	-16815
▁보카	-16816
▁신관	-16817
▁아픔	-16818
▁완주	-16819
▁잊히	-16820
▁직권	-16821
▁포진	-16822
▁War	-16823
▁재빨리	-16824
▁평택시	-16825
▁프리킥	-16826
▁한정판	-16827
▁혁명군	-16828
▁1795	-16829
▁사르데냐	-16830
▁산업단지	-16831
▁암모니아	-16832
▁크리스천	-16833
▁토스카나	-16834
▁Google	-16835
림동	-16836
민정	-16837
▁면은	-16838
▁스쿠	-16839
▁웅진	-16840
▁캐럴	-16841
▁할양	-16842
▁헬로	-16843
▁훈족	-16844
정보부	-16845
▁성북구	-16846
▁주교좌	-16847
▁규장	-16848
▁루지	-16849
▁미에	-16850
▁바사	-16851
▁버거	-16852
▁부탄	-16853
▁석등	-16854
▁윗면	-16855
▁이다	-16856
▁정일	-16857
▁페데	-16858
▁풍수	-16859
▁고조선	-16860
▁니스트	-16861
▁라쿠텐	-16862
▁패트리	-16863
▁그리스도인	-16864
▁FS	-16865
▁구자	-16866
▁레미	-16867
▁만기	-16868
▁바하	-16869
▁선회	-16870
▁세베	-16871
▁춤추	-16872
▁헤임	-16873
씨식물	-16874
▁MLB	-16875
▁미시간	-16876
▁아약스	-16877
▁트루먼	-16878
▁프렌즈	-16879
▁석가여래	-16880
ger	-16881
▁괴뢰	-16882
▁리온	-16883
▁멘토	-16884
▁모식	-16885
▁비어	-16886
▁쇠약	-16887
▁실크	-16888
▁아랑	-16889
▁원생	-16890
▁지층	-16891
▁초당	-16892
▁헨드	-16893
▁혼돈	-16894
▁Dis	-16895
▁LCK	-16896
▁사이공	-16897
▁원정군	-16898
▁통신부	-16899
▁포스코	-16900
▁하모니	-16901
▁홉킨스	-16902
살바도르	-16903
▁부위원장	-16904
▁샌드위치	-16905
NT	-16906
▁뱌	-16907
구멍	-16908
전차	-16909
▁도표	-16910
▁발췌	-16911
▁스톨	-16912
▁아난	-16913
▁암초	-16914
▁에린	-16915
▁켈빈	-16916
▁포교	-16917
▁학급	-16918
▁리포트	-16919
▁익산시	-16920
▁플라자	-16921
▁다리우스	-16922
▁플레이스	-16923
▁윔	-16924
식스	-16925
회원	-16926
▁리츠	-16927
▁몬태	-16928
▁에런	-16929
▁480	-16930
▁공직자	-16931
▁국문학	-16932
▁남조선	-16933
▁정확도	-16934
▁With	-16935
▁프로이트	-16936
ye	-16937
▁밈	-16938
고나	-16939
alk	-16940
▁PH	-16941
▁도정	-16942
▁매춘	-16943
▁본초	-16944
▁부녀	-16945
▁우사	-16946
▁유시	-16947
▁인대	-16948
▁장조	-16949
▁토비	-16950
▁패드	-16951
▁850	-16952
▁대항해	-16953
▁보행자	-16954
▁선언문	-16955
▁창업자	-16956
▁여주인공	-16957
▁그리스도교	-16958
▁렝	-16959
부미	-16960
▁Di	-16961
▁김세	-16962
▁미숙	-16963
▁약학	-16964
▁이효	-16965
▁효용	-16966
주니어	-16967
▁블루어	-16968
▁디렉터리	-16969
yle	-16970
▁감탄	-16971
▁경이	-16972
▁광택	-16973
▁국지	-16974
▁로동	-16975
▁브람	-16976
▁설사	-16977
▁얼터	-16978
▁윈터	-16979
▁첨부	-16980
▁베드로	-16981
▁스타즈	-16982
▁창덕궁	-16983
▁합천군	-16984
▁카테고리	-16985
▁쥘	-16986
enc	-16987
▁맛있	-16988
▁보훈	-16989
▁유원	-16990
▁종친	-16991
▁코지	-16992
▁함의	-16993
디우스	-16994
▁Art	-16995
▁남해군	-16996
▁로렌초	-16997
▁북반구	-16998
▁스레드	-16999
▁수마트라	-17000
▁안드레이	-17001
▁요시아키	-17002
▁자동변속기	-17003
▁켓	-17004
건적	-17005
니코	-17006
팽이	-17007
▁각광	-17008
▁교묘	-17009
▁머피	-17010
▁보궐	-17011
▁승전	-17012
▁아핀	-17013
▁장준	-17014
▁개최지	-17015
▁돌아서	-17016
▁바로잡	-17017
▁학생회	-17018
▁사탕수수	-17019
▁아틀레틱	-17020
▁자연주의	-17021
▁COVID	-17022
뉴스	-17023
렁이	-17024
▁내구	-17025
▁당명	-17026
▁랜덤	-17027
▁미코	-17028
▁반야	-17029
▁불평	-17030
▁엄정	-17031
▁연유	-17032
▁웰스	-17033
▁천정	-17034
▁등록금	-17035
▁에히메	-17036
▁지방관	-17037
▁페테르	-17038
▁헬싱키	-17039
▁꼼	-17040
카라	-17041
▁간디	-17042
▁골수	-17043
▁굶주	-17044
▁니나	-17045
▁더럽	-17046
▁소도	-17047
▁수렵	-17048
▁씨름	-17049
▁차분	-17050
▁팀장	-17051
독립당	-17052
▁238	-17053
▁가입자	-17054
▁남반구	-17055
▁충렬왕	-17056
▁크라스	-17057
▁Blue	-17058
▁드레이크	-17059
▁한국독립당	-17060
든지	-17061
에리	-17062
▁논설	-17063
▁멜론	-17064
▁박승	-17065
▁숭실	-17066
▁영재	-17067
▁평신	-17068
ough	-17069
▁빅토리	-17070
▁안데르	-17071
▁여객선	-17072
IO	-17073
레프	-17074
블린	-17075
전쟁	-17076
▁구토	-17077
▁남포	-17078
▁당분	-17079
▁덩굴	-17080
▁데쓰	-17081
▁몸집	-17082
▁세탁	-17083
▁율령	-17084
▁장항	-17085
▁존엄	-17086
플레잉	-17087
▁보호관	-17088
▁손바닥	-17089
▁가나자와	-17090
▁롤플레잉	-17091
▁이베리아	-17092
▁뚱	-17093
▁먀	-17094
▁괴멸	-17095
▁느라	-17096
▁민권	-17097
▁버시	-17098
▁이트	-17099
▁정병	-17100
▁정여	-17101
가하라	-17102
네소스	-17103
▁공기업	-17104
▁넥스트	-17105
▁산체스	-17106
▁이브라	-17107
▁이완용	-17108
▁1793	-17109
▁어드밴스	-17110
▁중앙정보부	-17111
천국	-17112
ING	-17113
▁과부	-17114
▁국과	-17115
▁깜짝	-17116
▁노화	-17117
▁리저	-17118
▁무당	-17119
▁서강	-17120
▁신구	-17121
▁와해	-17122
▁직함	-17123
▁문하시	-17124
▁에밀리	-17125
▁최하위	-17126
▁페인트	-17127
▁아나키즘	-17128
▁에드먼드	-17129
▁자유민주	-17130
▁키르기스스탄	-17131
UI	-17132
바람	-17133
적분	-17134
OVE	-17135
que	-17136
▁갤러	-17137
▁교주	-17138
▁데메	-17139
▁묘법	-17140
▁민생	-17141
▁삼키	-17142
▁역모	-17143
▁오호	-17144
▁쿠릴	-17145
▁하디	-17146
▁하순	-17147
▁Rev	-17148
▁변속기	-17149
▁보라색	-17150
▁수번뇌	-17151
▁아쿠아	-17152
▁유격대	-17153
▁취약점	-17154
26	-17155
▁넉	-17156
운전	-17157
▁ED	-17158
▁Vf	-17159
▁미묘	-17160
▁보츠	-17161
▁올랭	-17162
▁용접	-17163
▁윤원	-17164
▁이국	-17165
▁참배	-17166
▁천구	-17167
▁총체	-17168
▁페터	-17169
다람쥐	-17170
연화경	-17171
▁버나드	-17172
▁윤리학	-17173
▁지난해	-17174
스트리트	-17175
▁1846	-17176
▁MPEG	-17177
▁물리학상	-17178
▁이해관계	-17179
대성	-17180
르모	-17181
메트	-17182
후이	-17183
▁걸맞	-17184
▁구룡	-17185
▁낙타	-17186
▁대뇌	-17187
▁서보	-17188
▁윤석	-17189
▁이견	-17190
▁철원	-17191
▁클루	-17192
▁펀치	-17193
비우스	-17194
시우스	-17195
웨스트	-17196
▁노르트	-17197
▁농작물	-17198
▁아산시	-17199
▁아칸소	-17200
▁포위전	-17201
▁1839	-17202
▁브루나이	-17203
▁초등학생	-17204
ump	-17205
▁경멸	-17206
▁구인	-17207
▁귀양	-17208
▁억류	-17209
▁월북	-17210
▁잠들	-17211
▁추위	-17212
▁파드	-17213
▁학창	-17214
▁LCD	-17215
▁기부금	-17216
▁메이트	-17217
▁배수량	-17218
▁엉덩이	-17219
▁외무성	-17220
▁중서부	-17221
▁기념사업	-17222
▁하시모토	-17223
▁히로부미	-17224
파스	-17225
▁'.	-17226
▁게일	-17227
▁교포	-17228
▁니콘	-17229
▁박기	-17230
▁사흘	-17231
▁순정	-17232
▁악역	-17233
▁인출	-17234
▁퇴단	-17235
▁국무원	-17236
▁시어터	-17237
▁추밀원	-17238
▁1854	-17239
▁time	-17240
▁뺏	-17241
나물	-17242
래시	-17243
재란	-17244
▁개전	-17245
▁공덕	-17246
▁산불	-17247
▁실로	-17248
▁치중	-17249
▁표결	-17250
▁환기	-17251
슬라브	-17252
▁아테나	-17253
▁절대로	-17254
▁체스터	-17255
▁키워드	-17256
▁테트라	-17257
▁정유재란	-17258
▁시즈오카현	-17259
▁아오모리현	-17260
질량	-17261
der	-17262
▁갑각	-17263
▁군국	-17264
▁내수	-17265
▁도색	-17266
▁독소	-17267
▁루머	-17268
▁망루	-17269
▁사죄	-17270
▁솔트	-17271
▁심플	-17272
▁여과	-17273
▁정강	-17274
▁특례	-17275
▁해자	-17276
▁휘트	-17277
티우스	-17278
학생회	-17279
▁낙하산	-17280
▁상속인	-17281
▁알레르	-17282
▁후임자	-17283
▁촘	-17284
▁구나	-17285
▁마는	-17286
▁본당	-17287
▁아민	-17288
▁이형	-17289
▁인신	-17290
▁존상	-17291
▁737	-17292
▁시공간	-17293
▁전기장	-17294
▁파트리	-17295
▁팩토리	-17296
▁황태후	-17297
▁기독교인	-17298
▁총학생회	-17299
모자	-17300
▁ㄴ가	-17301
▁매번	-17302
▁미모	-17303
▁범용	-17304
▁부윤	-17305
▁심근	-17306
▁육아	-17307
▁톨킨	-17308
▁필기	-17309
▁현충	-17310
니다드	-17311
루리아	-17312
캐스트	-17313
쿠스틱	-17314
▁214	-17315
▁대머리	-17316
▁보나파	-17317
▁상대론	-17318
▁평화상	-17319
▁하카타	-17320
▁미성년자	-17321
▁어쿠스틱	-17322
▁언어학자	-17323
▁보나파르트	-17324
▁트리니다드	-17325
▁중앙아프리카	-17326
고트	-17327
우어	-17328
▁바일	-17329
▁방조	-17330
▁분양	-17331
▁석상	-17332
▁어이	-17333
▁웅장	-17334
▁유폐	-17335
▁유품	-17336
▁칼레	-17337
코스트	-17338
▁가시마	-17339
▁분류학	-17340
▁산둥성	-17341
▁Beat	-17342
▁마음대로	-17343
▁돛	-17344
패스	-17345
▁가니	-17346
▁야로	-17347
▁엠블	-17348
▁오닐	-17349
▁장령	-17350
▁종주	-17351
▁찬탈	-17352
▁화북	-17353
▁후시	-17354
프랑스	-17355
▁증명서	-17356
총리대신	-17357
▁세키가하라	-17358
▁내각총리대신	-17359
BT	-17360
▁BR	-17361
▁ME	-17362
▁광경	-17363
▁등대	-17364
▁라몬	-17365
▁라티	-17366
▁매월	-17367
▁박준	-17368
▁브론	-17369
▁비참	-17370
▁상작	-17371
▁상투	-17372
▁새턴	-17373
▁소홀	-17374
▁손책	-17375
▁수류	-17376
▁오딘	-17377
▁제학	-17378
▁코레	-17379
▁COM	-17380
▁Min	-17381
▁가파르	-17382
▁갖가지	-17383
▁경비대	-17384
▁돗토리	-17385
▁안중근	-17386
▁조계종	-17387
▁갈릴레이	-17388
▁비지니스	-17389
▁단성	-17390
▁마한	-17391
▁베버	-17392
▁북해	-17393
▁시경	-17394
▁이부	-17395
▁적재	-17396
▁페드	-17397
▁에리크	-17398
▁테이크	-17399
▁1849	-17400
▁플로이드	-17401
▁깡	-17402
▁줌	-17403
▁퓌	-17404
담회	-17405
▁견습	-17406
▁분쇄	-17407
▁분장	-17408
▁소란	-17409
▁예속	-17410
▁제식	-17411
▁태세	-17412
▁팬아	-17413
▁교토부	-17414
▁북극해	-17415
▁비행대	-17416
▁어리석	-17417
▁공화주의	-17418
▁비트코인	-17419
▁서스펜션	-17420
▁스탠퍼드	-17421
사회	-17422
섬유	-17423
호프	-17424
▁간염	-17425
▁거액	-17426
▁계투	-17427
▁고압	-17428
▁담론	-17429
▁디온	-17430
▁바덴	-17431
▁비크	-17432
▁시주	-17433
▁역습	-17434
▁오기	-17435
▁인피	-17436
▁페가	-17437
▁해일	-17438
▁헤엄	-17439
직할시	-17440
▁430	-17441
▁건국대	-17442
▁데포르	-17443
▁찬드라	-17444
▁초대칭	-17445
▁파출소	-17446
▁하이든	-17447
▁1856	-17448
▁오브젝트	-17449
▁페더레이션	-17450
28	-17451
HD	-17452
▁럴	-17453
탐정	-17454
▁남로	-17455
▁반열	-17456
▁배설	-17457
▁변방	-17458
▁본디	-17459
▁수배	-17460
▁신작	-17461
▁이안	-17462
▁추궁	-17463
▁파격	-17464
▁현령	-17465
▁화전	-17466
▁교직원	-17467
▁구청장	-17468
▁나가노	-17469
▁델라웨어	-17470
▁소용돌이	-17471
누아	-17472
호르	-17473
▁김문	-17474
▁낙랑	-17475
▁단호	-17476
▁대세	-17477
▁만국	-17478
▁모기	-17479
▁봉작	-17480
▁우동	-17481
▁웨일	-17482
▁윤영	-17483
▁쟁점	-17484
▁후백	-17485
atch	-17486
▁Top	-17487
▁아가씨	-17488
▁노동자당	-17489
▁네덜란드어	-17490
오린	-17491
정권	-17492
▁PP	-17493
▁국면	-17494
▁반려	-17495
▁연임	-17496
▁적성	-17497
▁치수	-17498
▁효능	-17499
타니아	-17500
▁식물원	-17501
▁장택상	-17502
▁해럴드	-17503
베이거스	-17504
▁1851	-17505
▁캐나다인	-17506
▁크레이그	-17507
▁하이웨이	-17508
23	-17509
개혁	-17510
체어	-17511
케스	-17512
▁간장	-17513
▁낙엽	-17514
▁도독	-17515
▁마자	-17516
▁메사	-17517
▁알비	-17518
▁요아	-17519
▁유장	-17520
▁419	-17521
▁공사관	-17522
▁다이나	-17523
▁집어넣	-17524
▁투데이	-17525
▁캔자스시티	-17526
▁라스베이거스	-17527
OU	-17528
▁녜	-17529
버거	-17530
▁결탁	-17531
▁계란	-17532
▁드니	-17533
▁밀스	-17534
▁벽면	-17535
▁볼륨	-17536
▁빌미	-17537
▁셔먼	-17538
▁촌은	-17539
▁친절	-17540
▁한서	-17541
▁감염자	-17542
▁레인보	-17543
▁일간지	-17544
▁입출력	-17545
▁참모장	-17546
▁하동군	-17547
츠부르크	-17548
▁블레이드	-17549
▁사보이아	-17550
▁상파울루	-17551
▁차량기지	-17552
▁크리에이티브	-17553
▁힉	-17554
전기	-17555
▁서천	-17556
▁심슨	-17557
▁외동	-17558
▁원성	-17559
▁정시	-17560
▁한참	-17561
트로피	-17562
▁FBI	-17563
▁디스코	-17564
▁벤피카	-17565
▁보르도	-17566
▁수수료	-17567
▁시부야	-17568
▁프란시스	-17569
처리	-17570
하스	-17571
ery	-17572
▁경색	-17573
▁단사	-17574
▁발송	-17575
▁분개	-17576
▁상체	-17577
▁수서	-17578
▁액수	-17579
▁언약	-17580
▁착안	-17581
▁포구	-17582
▁현명	-17583
▁Med	-17584
▁기념식	-17585
▁노스케	-17586
▁상세히	-17587
▁시흥시	-17588
▁오비탈	-17589
▁올라서	-17590
▁진보당	-17591
▁행정관	-17592
▁Will	-17593
▁스티븐스	-17594
▁오하이오주	-17595
86	-17596
왕국	-17597
하늘	-17598
▁대광	-17599
▁랜디	-17600
▁명주	-17601
▁쇼팽	-17602
▁아모	-17603
▁여생	-17604
▁욕설	-17605
▁인테	-17606
▁주경	-17607
▁히다	-17608
고양이	-17609
▁모자라	-17610
▁서북쪽	-17611
▁애벌레	-17612
▁캥거루	-17613
▁핵폭탄	-17614
▁휠체어	-17615
▁1855	-17616
▁1857	-17617
▁정사각형	-17618
▁폴란드인	-17619
▁민족주의자	-17620
깨비	-17621
일라	-17622
천년	-17623
테른	-17624
투안	-17625
▁TG	-17626
▁김한	-17627
▁대열	-17628
▁무왕	-17629
▁보문	-17630
▁생가	-17631
▁서상	-17632
▁조력	-17633
▁카잔	-17634
▁페티	-17635
cess	-17636
▁211	-17637
▁대주주	-17638
▁배트맨	-17639
▁수산물	-17640
▁작사가	-17641
▁갑신정변	-17642
▁다이스케	-17643
봉사	-17644
산읍	-17645
카테	-17646
하르	-17647
▁YM	-17648
▁권세	-17649
▁미안	-17650
▁성채	-17651
▁재원	-17652
▁캔디	-17653
▁템포	-17654
▁베르디	-17655
▁봉사자	-17656
▁뽑아내	-17657
▁웨이트	-17658
▁포브스	-17659
▁반공주의	-17660
소득	-17661
증권	-17662
▁수훈	-17663
▁정년	-17664
▁주치	-17665
▁친목	-17666
▁택지	-17667
▁핵산	-17668
icro	-17669
▁Pop	-17670
▁구미시	-17671
▁글리코	-17672
▁려다가	-17673
▁제이스	-17674
▁지평선	-17675
▁포천시	-17676
▁여러해살이풀	-17677
▁좡	-17678
지대	-17679
▁소망	-17680
콥스키	-17681
▁223	-17682
▁301	-17683
▁그로스	-17684
▁변증법	-17685
▁시우바	-17686
▁저작물	-17687
▁펠로폰	-17688
▁형무소	-17689
▁원내대표	-17690
▁데포르티보	-17691
▁병마절도사	-17692
▁펠로폰네소스	-17693
댄스	-17694
레토	-17695
바꿈	-17696
▁까다	-17697
▁돌핀	-17698
▁롤리	-17699
▁만다	-17700
▁몰입	-17701
▁변장	-17702
▁선하	-17703
▁신영	-17704
▁압송	-17705
▁찬스	-17706
▁체첸	-17707
▁폰트	-17708
▁해금	-17709
▁동의어	-17710
▁은하단	-17711
▁카운터	-17712
메니스탄	-17713
▁서아시아	-17714
▁이와테현	-17715
▁통합진보당	-17716
▁투르크메니스탄	-17717
버드	-17718
서구	-17719
연대	-17720
재기	-17721
▁간파	-17722
▁버퍼	-17723
▁셀룰	-17724
▁수스	-17725
▁외벽	-17726
▁지병	-17727
▁탄원	-17728
▁팔자	-17729
▁모여들	-17730
▁비엔나	-17731
▁스나이	-17732
▁컨디션	-17733
▁헤이스	-17734
흐트	-17735
▁노회	-17736
▁대적	-17737
▁만리	-17738
▁실습	-17739
▁이학	-17740
▁임베	-17741
▁지소	-17742
▁크세	-17743
▁퇴사	-17744
▁나주시	-17745
▁늘어지	-17746
▁타고나	-17747
타고라스	-17748
▁가까스로	-17749
▁임베디드	-17750
쇼프	-17751
▁CL	-17752
▁급습	-17753
▁문교	-17754
▁벚꽃	-17755
▁센스	-17756
▁슈바	-17757
▁열반	-17758
▁읽히	-17759
▁코민	-17760
▁한도	-17761
▁히나	-17762
레시브	-17763
▁NAD	-17764
▁급기야	-17765
▁1776	-17766
▁Free	-17767
▁엔트로피	-17768
▁클라리넷	-17769
▁프로그레시브	-17770
니엄	-17771
니크	-17772
로아	-17773
▁고증	-17774
▁박격	-17775
▁방한	-17776
▁성간	-17777
▁신명	-17778
▁장구	-17779
▁총알	-17780
▁항모	-17781
▁회부	-17782
▁XML	-17783
▁마그마	-17784
▁오카다	-17785
▁핵실험	-17786
day	-17787
ont	-17788
▁FR	-17789
▁IA	-17790
▁골목	-17791
▁노다	-17792
▁대흥	-17793
▁알론	-17794
▁원가	-17795
▁원제	-17796
▁율곡	-17797
▁음경	-17798
▁최경	-17799
▁카렐	-17800
시오날	-17801
중국해	-17802
▁게이츠	-17803
▁대각선	-17804
▁하이델	-17805
▁나시오날	-17806
▁사카모토	-17807
▁플루오린	-17808
스탕	-17809
▁과업	-17810
▁레베	-17811
▁버즈	-17812
▁언젠	-17813
▁이공	-17814
▁현청	-17815
▁호가	-17816
▁홀드	-17817
궐선거	-17818
▁다면체	-17819
▁바이스	-17820
▁보니파	-17821
▁수송기	-17822
▁청교도	-17823
▁무라카미	-17824
▁미주리주	-17825
▁재보궐선거	-17826
27	-17827
모습	-17828
▁금광	-17829
▁심신	-17830
▁와트	-17831
▁요네	-17832
▁조식	-17833
▁천명	-17834
▁현생	-17835
리어스	-17836
▁독립국	-17837
▁루터교	-17838
▁언젠가	-17839
▁태평천국	-17840
광선	-17841
▁UR	-17842
▁개요	-17843
▁뇌졸	-17844
▁부총	-17845
▁상시	-17846
▁윤선	-17847
▁잠복	-17848
▁조참	-17849
▁타오	-17850
▁합체	-17851
노벨라	-17852
▁거제시	-17853
▁다시피	-17854
▁레너드	-17855
▁병원체	-17856
▁이범석	-17857
▁올랭피크	-17858
▁그레고리력	-17859
▁텔레노벨라	-17860
평가	-17861
활성	-17862
▁Po	-17863
▁국고	-17864
▁누락	-17865
▁라데	-17866
▁사극	-17867
▁살림	-17868
▁중첩	-17869
▁달라이	-17870
▁모티프	-17871
▁비정규	-17872
▁사모아	-17873
▁새천년	-17874
▁아세트	-17875
▁클라라	-17876
▁국민회의	-17877
볼트	-17878
쿠젠	-17879
aut	-17880
▁MW	-17881
▁간소	-17882
▁나나	-17883
▁누각	-17884
▁서던	-17885
▁성추	-17886
▁양손	-17887
▁역행	-17888
▁입안	-17889
▁장타	-17890
▁직제	-17891
▁체임	-17892
▁퇴화	-17893
▁혹독	-17894
▁화신	-17895
▁가로막	-17896
▁가속기	-17897
▁동북쪽	-17898
▁살아나	-17899
▁어지럽	-17900
▁영산회	-17901
▁청구인	-17902
▁출생지	-17903
▁피에트로	-17904
▁레오나르도	-17905
▁캄파니아주	-17906
29	-17907
ma	-17908
▁계파	-17909
▁땅콩	-17910
▁몬트	-17911
▁미움	-17912
▁산탄	-17913
▁연좌	-17914
▁영아	-17915
▁준위	-17916
▁질리	-17917
▁케니	-17918
▁파사	-17919
▁표상	-17920
▁굳어지	-17921
▁김종필	-17922
▁마인드	-17923
▁심포니	-17924
▁영등포	-17925
▁치우치	-17926
▁10000	-17927
계리	-17928
를린	-17929
마타	-17930
its	-17931
▁CV	-17932
▁교복	-17933
▁로로	-17934
▁로미	-17935
▁명지	-17936
▁방수	-17937
▁본기	-17938
▁습성	-17939
▁음란	-17940
▁이연	-17941
▁진안	-17942
▁타현	-17943
▁End	-17944
▁빠뜨리	-17945
▁서기장	-17946
▁ne	-17947
▁각별	-17948
▁괴팅	-17949
▁귀납	-17950
▁기물	-17951
▁미망	-17952
▁미팅	-17953
▁발주	-17954
▁시왕	-17955
▁이족	-17956
▁지단	-17957
▁하쿠	-17958
메네스	-17959
▁Bro	-17960
▁계약금	-17961
▁메이플	-17962
▁베르그	-17963
▁브리트	-17964
▁포위망	-17965
▁묘법연화경	-17966
가야	-17967
연료	-17968
저민	-17969
페리	-17970
▁감명	-17971
▁로젠	-17972
▁사성	-17973
▁셰이	-17974
▁수잔	-17975
▁시로	-17976
▁이로	-17977
들랜드	-17978
▁Big	-17979
▁DFB	-17980
▁del	-17981
▁경기력	-17982
▁단기간	-17983
▁베리아	-17984
▁벤저민	-17985
▁샘플링	-17986
▁에인절	-17987
▁팰리스	-17988
▁황도대	-17989
▁조기어류	-17990
▁네브래스카	-17991
개발	-17992
oss	-17993
▁DL	-17994
▁가메	-17995
▁국채	-17996
▁메콩	-17997
▁반일	-17998
▁생사	-17999
▁세브	-18000
▁어필	-18001
▁청탁	-18002
▁콘월	-18003
▁포에	-18004
▁픽업	-18005
메데스	-18006
▁215	-18007
▁후반부	-18008
▁스포르팅	-18009
▁공녀	-18010
▁비비	-18011
▁열광	-18012
▁포즈	-18013
irst	-18014
▁까다롭	-18015
▁논산시	-18016
▁리서치	-18017
▁서남쪽	-18018
▁해설자	-18019
▁캔터베리	-18020
니발	-18021
미치	-18022
슐린	-18023
지않	-18024
▁대양	-18025
▁배영	-18026
▁세가	-18027
▁에나	-18028
▁접착	-18029
▁정량	-18030
▁포탈	-18031
▁퓨전	-18032
▁황보	-18033
▁크리켓	-18034
▁미시간주	-18035
▁코미디언	-18036
BL	-18037
급시	-18038
빼미	-18039
▁경치	-18040
▁금화	-18041
▁노미	-18042
▁라비	-18043
▁로자	-18044
▁린드	-18045
▁밑면	-18046
▁우문	-18047
▁장보	-18048
▁청화	-18049
▁문화사	-18050
▁미카사	-18051
▁부제학	-18052
▁특공대	-18053
▁프리랜	-18054
▁포레스트	-18055
▁플레이트	-18056
▁가인	-18057
▁개간	-18058
▁낭독	-18059
▁노먼	-18060
▁니즘	-18061
▁독감	-18062
▁마마	-18063
▁실드	-18064
▁요세	-18065
▁위아	-18066
▁정철	-18067
▁제반	-18068
▁주둥	-18069
▁틈새	-18070
파트라	-18071
▁계약서	-18072
▁권력자	-18073
▁Mnet	-18074
▁begin	-18075
▁클레오파트라	-18076
하워	-18077
▁WH	-18078
▁그려	-18079
▁살상	-18080
▁서드	-18081
▁약정	-18082
▁욕심	-18083
▁원화	-18084
▁위드	-18085
▁정약	-18086
▁촌락	-18087
▁코다	-18088
▁패주	-18089
▁한방	-18090
▁239	-18091
▁따돌리	-18092
▁브레인	-18093
▁서로마	-18094
▁엑스선	-18095
▁월리스	-18096
▁전년도	-18097
▁아이젠하워	-18098
▁언더그라운드	-18099
HS	-18100
br	-18101
▁젬	-18102
연의	-18103
코바	-18104
▁감히	-18105
▁녀석	-18106
▁브롱	-18107
▁서킷	-18108
▁연천	-18109
▁우메	-18110
▁유즈	-18111
▁전갈	-18112
▁징후	-18113
▁추석	-18114
▁향리	-18115
▁호치	-18116
더니즘	-18117
▁구석기	-18118
▁목걸이	-18119
▁부활절	-18120
▁사생아	-18121
▁수메르	-18122
▁특이점	-18123
▁1792	-18124
▁사다하루	-18125
▁내쫓	-18126
▁다의	-18127
▁래스	-18128
▁루소	-18129
▁루아	-18130
▁시동	-18131
▁아그	-18132
▁우랄	-18133
▁정파	-18134
▁질레	-18135
▁쿠키	-18136
▁쿠페	-18137
▁Des	-18138
▁기장군	-18139
▁레이어	-18140
▁보호자	-18141
▁유니온	-18142
▁LIVE	-18143
▁소선거구	-18144
▁HK	-18145
▁경수	-18146
▁비슈	-18147
▁세관	-18148
▁시료	-18149
▁시암	-18150
▁시판	-18151
▁창안	-18152
▁칸타	-18153
▁픽션	-18154
▁510	-18155
▁BMW	-18156
▁사중주	-18157
▁인테리어	-18158
▁프로토타입	-18159
보스	-18160
aff	-18161
▁KC	-18162
▁덤불	-18163
▁명절	-18164
▁영연	-18165
▁유실	-18166
▁잠그	-18167
▁종택	-18168
▁커트	-18169
▁평년	-18170
▁함안	-18171
덜랜드	-18172
▁에버턴	-18173
▁외삼촌	-18174
▁재정난	-18175
▁정말로	-18176
▁퍼펙트	-18177
▁한마디	-18178
▁Rain	-18179
▁권위주의	-18180
▁동대문구	-18181
▁모하메드	-18182
▁뱀파이어	-18183
▁아틀라스	-18184
▁프라이스	-18185
▁슈퍼주니어	-18186
노동	-18187
▁까치	-18188
▁대검	-18189
▁도기	-18190
▁듀크	-18191
▁부원	-18192
▁안상	-18193
▁위니	-18194
▁미술가	-18195
▁알레르기	-18196
▁덧셈	-18197
▁성년	-18198
▁으라	-18199
▁제향	-18200
▁set	-18201
▁게이머	-18202
▁다다르	-18203
▁명백히	-18204
▁목격자	-18205
▁브람스	-18206
▁요리사	-18207
▁퍼뜨리	-18208
▁1853	-18209
▁void	-18210
▁경향신문	-18211
▁옥타비아	-18212
삼문	-18213
▁RE	-18214
▁독신	-18215
▁라벤	-18216
▁바크	-18217
▁버락	-18218
▁비츠	-18219
▁수온	-18220
▁시구	-18221
▁양력	-18222
▁예천	-18223
▁자락	-18224
▁출소	-18225
▁쾌락	-18226
▁홍백	-18227
▁과선교	-18228
▁성추행	-18229
▁재판장	-18230
▁지도력	-18231
▁파이브	-18232
▁잣	-18233
루이	-18234
막염	-18235
타라	-18236
▁do	-18237
▁난간	-18238
▁동복	-18239
▁북제	-18240
▁불황	-18241
▁산토	-18242
▁섬멸	-18243
▁슬럼	-18244
▁영세	-18245
▁절멸	-18246
▁지드	-18247
▁최북	-18248
▁카쿠	-18249
▁케스	-18250
▁티르	-18251
▁호엔	-18252
너티브	-18253
메이트	-18254
제르맹	-18255
▁TOP	-18256
▁시설물	-18257
▁표준어	-18258
▁프로파	-18259
▁플랜트	-18260
▁1852	-18261
▁Show	-18262
▁얼터너티브	-18263
▁콘스탄티노플	-18264
그림	-18265
방식	-18266
버섯	-18267
얼빈	-18268
IDS	-18269
▁CT	-18270
▁JP	-18271
▁가평	-18272
▁도고	-18273
▁만찬	-18274
▁박중	-18275
▁상피	-18276
▁선방	-18277
▁숙성	-18278
▁스커	-18279
▁아속	-18280
▁아쓰	-18281
▁오쓰	-18282
▁원망	-18283
▁이면	-18284
▁제각	-18285
▁착오	-18286
▁탄환	-18287
▁희박	-18288
▁검사장	-18289
▁경영진	-18290
▁그려지	-18291
▁끊어지	-18292
▁레일리	-18293
▁버밍엄	-18294
▁호위함	-18295
▁1791	-18296
▁벌어들이	-18297
▁엘살바도르	-18298
▁옅	-18299
▁퓰	-18300
이인	-18301
행사	-18302
▁SI	-18303
▁구급	-18304
▁방과	-18305
▁부응	-18306
▁성하	-18307
▁수뇌	-18308
▁수첩	-18309
▁신재	-18310
▁연작	-18311
▁예견	-18312
▁음색	-18313
▁입적	-18314
▁최치	-18315
▁튀르	-18316
▁부끄럽	-18317
▁아르카	-18318
▁양서류	-18319
▁좀처럼	-18320
▁중생대	-18321
▁지원자	-18322
▁프레디	-18323
▁테러리스트	-18324
▁ㄴ대	-18325
▁갑판	-18326
▁구면	-18327
▁모후	-18328
▁밥상	-18329
▁부름	-18330
▁사구	-18331
▁상권	-18332
▁월급	-18333
▁이계	-18334
▁일람	-18335
▁캄포	-18336
▁212	-18337
▁꽃받침	-18338
▁무안군	-18339
▁무인역	-18340
▁성동구	-18341
▁중학생	-18342
▁생제르맹	-18343
▁속씨식물	-18344
▁크래프트	-18345
▁빽	-18346
경궁	-18347
바타	-18348
티드	-18349
▁FN	-18350
▁강물	-18351
▁능통	-18352
▁매너	-18353
▁메트	-18354
▁박인	-18355
▁수전	-18356
▁실화	-18357
▁제법	-18358
▁친숙	-18359
▁회중	-18360
▁후신	-18361
▁히브	-18362
핵생물	-18363
▁레프트	-18364
▁에르난	-18365
▁조나단	-18366
▁Like	-18367
▁도네츠크	-18368
be	-18369
이다	-18370
팔렌	-18371
vis	-18372
▁FX	-18373
▁교우	-18374
▁근연	-18375
▁김보	-18376
▁도금	-18377
▁독려	-18378
▁따내	-18379
▁박주	-18380
▁반증	-18381
▁불펜	-18382
▁비고	-18383
▁식료	-18384
▁실황	-18385
▁아만	-18386
▁에타	-18387
▁여태	-18388
▁외화	-18389
▁장터	-18390
▁필살	-18391
▁호감	-18392
즐랜드	-18393
▁관악구	-18394
▁더구나	-18395
▁동인도	-18396
▁중대장	-18397
ement	-18398
▁퍼레이드	-18399
oup	-18400
▁고질	-18401
▁관서	-18402
▁구보	-18403
▁귀향	-18404
▁노던	-18405
▁대파	-18406
▁셰프	-18407
▁완투	-18408
▁요트	-18409
▁은둔	-18410
▁점심	-18411
▁해동	-18412
▁베이컨	-18413
▁상류층	-18414
▁점성가	-18415
▁퀸즐랜드	-18416
▁뚝	-18417
▁찻	-18418
귀비	-18419
하트	-18420
▁EN	-18421
▁경감	-18422
▁고작	-18423
▁기치	-18424
▁나니	-18425
▁망상	-18426
▁색인	-18427
▁수찬	-18428
▁오에	-18429
▁우쓰	-18430
▁장영	-18431
▁최재	-18432
▁플뢰	-18433
▁233	-18434
▁게이초	-18435
▁옹진군	-18436
▁유목민	-18437
▁LOVE	-18438
▁즌	-18439
개명	-18440
오세	-18441
▁강수	-18442
▁남짓	-18443
▁동족	-18444
▁발화	-18445
▁벨레	-18446
▁보두	-18447
▁서하	-18448
▁슬퍼	-18449
▁윤상	-18450
▁분화구	-18451
▁앵글로	-18452
▁잎자루	-18453
▁현저히	-18454
▁황갈색	-18455
▁1847	-18456
▁다운타운	-18457
▁천주교회	-18458
▁Sound	-18459
▁히로시마현	-18460
노헤	-18461
▁고타	-18462
▁국물	-18463
▁김호	-18464
▁미일	-18465
▁북진	-18466
▁수난	-18467
▁연일	-18468
▁청진	-18469
▁학점	-18470
▁Bar	-18471
▁김포시	-18472
▁유가족	-18473
▁음악회	-18474
▁이스턴	-18475
▁최적화	-18476
▁퀘스트	-18477
▁도쿠시마	-18478
▁루키우스	-18479
▁프리랜서	-18480
▁필리포스	-18481
▁롬바르디아	-18482
에어	-18483
way	-18484
▁EF	-18485
▁개년	-18486
▁슬롯	-18487
▁신숙	-18488
▁신예	-18489
▁쑨원	-18490
▁주술	-18491
▁차가	-18492
▁추월	-18493
▁팔각	-18494
▁푸시	-18495
▁품계	-18496
▁황성	-18497
하이머	-18498
▁개찰기	-18499
▁세례명	-18500
▁올빼미	-18501
▁현악기	-18502
▁콘티넨털	-18503
▁똥	-18504
거슨	-18505
비어	-18506
야구	-18507
▁강압	-18508
▁골자	-18509
▁궤멸	-18510
▁마조	-18511
▁미신	-18512
▁밀턴	-18513
▁수작	-18514
▁야채	-18515
▁영해	-18516
▁진과	-18517
▁초중	-18518
▁한류	-18519
▁회군	-18520
▁릴리스	-18521
▁피스톤	-18522
▁하얼빈	-18523
▁해적단	-18524
▁레인보우	-18525
▁시트르산	-18526
▁Light	-18527
임수	-18528
▁OC	-18529
▁RO	-18530
▁공물	-18531
▁과천	-18532
▁관사	-18533
▁궁금	-18534
▁나팔	-18535
▁낙인	-18536
▁냉동	-18537
▁버블	-18538
▁비약	-18539
▁안젤	-18540
▁약국	-18541
▁연사	-18542
▁자력	-18543
▁장현	-18544
▁정태	-18545
▁조만	-18546
▁포리	-18547
▁강아지	-18548
▁다각형	-18549
▁이베이	-18550
▁저술가	-18551
▁핵연료	-18552
▁가이우스	-18553
▁브래들리	-18554
▁은행나무	-18555
▁안티고노스	-18556
▁젓	-18557
▁NK	-18558
▁UK	-18559
▁es	-18560
▁mg	-18561
▁가봉	-18562
▁고부	-18563
▁기노	-18564
▁마누	-18565
▁마로	-18566
▁삼가	-18567
▁오목	-18568
▁유위	-18569
▁전륜	-18570
▁카멜	-18571
▁크릭	-18572
▁브룩스	-18573
▁생태학	-18574
▁유학생	-18575
▁인슐린	-18576
▁카이저	-18577
▁Over	-18578
▁옵티머스	-18579
▁버지니아주	-18580
WS	-18581
▁읊	-18582
랄라	-18583
▁베레	-18584
▁업소	-18585
▁왈라	-18586
▁음소	-18587
▁커크	-18588
▁파니	-18589
▁판별	-18590
▁혈청	-18591
▁혹평	-18592
리오카	-18593
ouse	-18594
▁221	-18595
▁가오슝	-18596
▁뇌졸중	-18597
▁레슬리	-18598
▁배상금	-18599
▁수류탄	-18600
▁자신감	-18601
▁1100	-18602
▁Sing	-18603
▁창씨개명	-18604
▁뿌	-18605
루트	-18606
타바	-18607
▁계략	-18608
▁계명	-18609
▁굴리	-18610
▁그랜	-18611
▁라피	-18612
▁서간	-18613
▁선지	-18614
▁송금	-18615
▁신빙	-18616
▁우성	-18617
▁차드	-18618
▁클론	-18619
▁호러	-18620
▁회기	-18621
▁후각	-18622
자위대	-18623
▁Red	-18624
▁미망인	-18625
▁세일러	-18626
▁탈수소	-18627
▁편의점	-18628
▁계몽주의	-18629
시간	-18630
워키	-18631
▁강판	-18632
▁부결	-18633
▁색조	-18634
▁스벤	-18635
▁쓰가	-18636
▁유주	-18637
▁주어	-18638
▁231	-18639
▁Sec	-18640
▁세포막	-18641
▁슬퍼하	-18642
▁정보국	-18643
브레히트	-18644
▁시라카와	-18645
▁카리브해	-18646
▁즙	-18647
색슨	-18648
▁고해	-18649
▁그람	-18650
▁동천	-18651
▁명품	-18652
▁보현	-18653
▁앙주	-18654
▁울음	-18655
▁쟁취	-18656
▁카오	-18657
▁콕스	-18658
▁티나	-18659
▁하체	-18660
대주의	-18661
▁Eng	-18662
▁나뭇잎	-18663
▁리히텐	-18664
▁여름철	-18665
▁곤살레스	-18666
▁동명이인	-18667
▁앵글로색슨	-18668
보레	-18669
옹주	-18670
▁JS	-18671
▁과수	-18672
▁나츠	-18673
▁미약	-18674
▁아워	-18675
▁어음	-18676
▁오경	-18677
▁지터	-18678
ason	-18679
▁390	-18680
▁참가국	-18681
▁콘셉트	-18682
▁1844	-18683
▁사회단체	-18684
▁네덜란드인	-18685
오밍	-18686
쿠로	-18687
▁ac	-18688
▁다키	-18689
▁마왕	-18690
▁비니	-18691
▁비명	-18692
▁식년	-18693
▁안구	-18694
▁이등	-18695
▁정연	-18696
▁취락	-18697
▁타코	-18698
▁합방	-18699
하이드	-18700
▁독립성	-18701
▁산화물	-18702
▁요코스카	-18703
프슨	-18704
▁갑상	-18705
▁레딧	-18706
▁봉산	-18707
▁실바	-18708
▁이도	-18709
▁적시	-18710
▁정구	-18711
▁청풍	-18712
▁토토	-18713
▁해류	-18714
▁갑각류	-18715
▁정착민	-18716
▁조교수	-18717
▁랜드마크	-18718
▁알레산드로	-18719
▁에트루리아	-18720
aj	-18721
▁꽁	-18722
iet	-18723
▁TA	-18724
▁간편	-18725
▁균류	-18726
▁김응	-18727
▁미오	-18728
▁북단	-18729
▁아론	-18730
▁장엄	-18731
▁재야	-18732
▁폐간	-18733
▁박격포	-18734
▁정찰기	-18735
▁평창군	-18736
▁프로필	-18737
▁하루카	-18738
▁후견인	-18739
▁1837	-18740
▁개인주의	-18741
▁오를레앙	-18742
▁민속문화재	-18743
코로	-18744
▁각인	-18745
▁맨틀	-18746
▁면접	-18747
▁무방	-18748
▁벙커	-18749
▁삼부	-18750
▁수유	-18751
▁숙고	-18752
▁아저	-18753
▁요안	-18754
▁원판	-18755
▁유루	-18756
▁유흥	-18757
▁윤회	-18758
▁체온	-18759
▁토사	-18760
▁Net	-18761
▁반대쪽	-18762
▁발자국	-18763
▁부사관	-18764
▁비스트	-18765
▁프런트	-18766
▁현급시	-18767
▁포리스트	-18768
▁삼국지연의	-18769
소시	-18770
헤치	-18771
red	-18772
▁교착	-18773
▁샬럿	-18774
▁선승	-18775
▁악하	-18776
▁오데	-18777
▁주청	-18778
▁청렴	-18779
▁탄화	-18780
▁판도	-18781
▁아저씨	-18782
▁예배당	-18783
▁화순군	-18784
▁북베트남	-18785
교동	-18786
니언	-18787
▁광종	-18788
▁디어	-18789
▁린치	-18790
▁바예	-18791
▁반원	-18792
▁생김	-18793
▁성왕	-18794
▁여순	-18795
▁열등	-18796
▁우미	-18797
▁운문	-18798
▁유예	-18799
▁이서	-18800
▁일직	-18801
▁자니	-18802
▁홍명	-18803
베를린	-18804
슈타트	-18805
▁228	-18806
▁가야금	-18807
▁모국어	-18808
▁연장선	-18809
▁헤아리	-18810
▁환경부	-18811
▁아시리아	-18812
▁오렌지색	-18813
▁트레이너	-18814
▁뜰	-18815
승람	-18816
▁RD	-18817
▁걸즈	-18818
▁경학	-18819
▁고군	-18820
▁담화	-18821
▁예우	-18822
▁익주	-18823
▁치타	-18824
▁친형	-18825
▁코노	-18826
▁테츠	-18827
▁히치	-18828
▁950	-18829
▁Har	-18830
▁밀워키	-18831
고도	-18832
슈티	-18833
▁Pa	-18834
▁냉정	-18835
▁다방	-18836
▁만경	-18837
▁방전	-18838
▁빈약	-18839
▁성직	-18840
▁송병	-18841
▁중흥	-18842
▁호라	-18843
▁흡혈	-18844
자동차	-18845
정대부	-18846
▁목판본	-18847
▁미스트	-18848
▁서산시	-18849
실론	-18850
ana	-18851
ner	-18852
ric	-18853
▁GD	-18854
▁거물	-18855
▁거장	-18856
▁나방	-18857
▁난자	-18858
▁노년	-18859
▁노숙	-18860
▁도핑	-18861
▁반민	-18862
▁성녀	-18863
▁알현	-18864
▁이천	-18865
▁익사	-18866
▁증서	-18867
▁총지	-18868
▁패미	-18869
▁프롬	-18870
[...]
