[UNK]
[CLS]
[SEP]
[PAD]
[MASK]
!
"
#
$
%
&
'
(
)
*
+
,
-
.
/
0
1
2
3
4
5
6
7
8
9
:
;
<
=
>
?
@
A
B
C
D
E
F
G
H
I
J
K
L
M
N
O
P
Q
R
S
T
U
V
W
X
Y
Z
[
\
]
^
_
`
a
b
c
d
e
f
g
h
i
j
k
l
m
n
o
p
q
r
s
t
u
v
w
x
y
z
{
|
}
~

ᄀ
ᄁ
ᄂ
ᄃ
ᄄ
ᄅ
ᄆ
ᄇ
ᄈ
ᄉ
ᄊ
ᄋ
ᄌ
ᄍ
ᄎ
ᄏ
ᄐ
ᄑ
ᄒ
ᅡ
ᅢ
ᅣ
ᅤ
ᅥ
ᅦ
ᅧ
ᅨ
ᅩ
ᅪ
ᅫ
ᅬ
ᅭ
ᅮ
ᅯ
ᅰ
ᅱ
ᅲ
ᅳ
ᅴ
ᅵ
ᆨ
ᆩ
ᆪ
ᆫ
ᆬ
ᆭ
ᆮ
ᆯ
ᆰ
ᆱ
ᆲ
ᆳ
ᆴ
ᆵ
ᆶ
ᆷ
ᆸ
ᆹ
ᆺ
ᆻ
ᆼ
ᆽ
ᆾ
ᆿ
ᇀ
ᇁ
ᇂ
ㄱ
ㄲ
ㄳ
ㄴ
ㄵ
ㄶ
ㄷ
ㄸ
ㄹ
ㄺ
ㄻ
ㄼ
ㄽ
ㄾ
ㄿ
ㅀ
ㅁ
ㅂ
ㅃ
ㅄ
ㅅ
ㅆ
ㅇ
ㅈ
ㅉ
ㅊ
ㅋ
ㅌ
ㅍ
ㅎ
ㅏ
ㅐ
ㅑ
ㅒ
ㅓ
ㅔ
ㅕ
ㅖ
ㅗ
ㅘ
ㅙ
ㅚ
ㅛ
ㅜ
ㅝ
ㅞ
ㅟ
ㅠ
ㅡ
ㅢ
ㅣ
가
간
감
갑
갓
갔
강
같
개
거
건
걸
것
겄
게
겐
겟
겠
겨
곈
고
곡
곤
곰
곳
공
과
관
괴
교
구
군
굽
규
그
근
금
긋
긔
기
긴
길
까
깐
깝
깨
꺼
껀
껄
께
껭
껴
꼐
꼬
꾸
꿔
끄
끔
끼
나
난
남
내
냐
냔
냥
냬
냰
너
넌
네
넨
녀
녕
녜
노
논
놋
농
뇌
뇨
누
눈
느
는
늘
늠
능
늬
늰
니
닌
닛
닝
다
단
달
담
답
닷
당
대
댄
댑
댔
댜
더
던
덜
덧
덩
데
덴
뎁
뎌
도
돗
동
돠
되
두
둔
둥
뒈
드
득
든
들
듯
등
듸
디
딘
딩
따
떼
라
락
란
랄
람
랍
랏
랑
래
랜
랠
랩
랬
랴
랸
러
런
럴
럼
레
려
련
렴
렵
렷
렸
례
로
록
롤
롯
롱
롸
뢰
료
루
룩
류
르
른
를
리
린
릴
릿
링
마
만
많
말
망
매
맨
맹
먀
머
먼
멍
메
멘
며
면
모
목
몬
무
문
뭇
므
믄
미
민
바
밖
배
백
밲
버
벼
보
부
분
비
빈
뿐
사
살
삼
삽
상
새
샤
샨
샬
샴
샷
서
선
성
세
셔
션
셧
셨
셰
소
손
솝
송
쇠
쇼
숌
수
쉐
쉬
슈
스
슨
슴
습
시
신
실
심
십
싸
써
쎄
쏘
쏜
쑤
씨
씩
아
악
안
압
앗
았
앙
애
앱
앳
앴
야
약
얀
얄
얌
얏
얐
양
얘
얫
어
억
언
얼
엄
없
엇
었
엉
엊
에
엣
여
연
염
엿
였
영
예
옛
오
옥
온
올
옵
옷
와
완
왇
외
요
욘
욜
욤
욧
용
우
운
울
움
워
원
웓
월
웨
웬
웰
위
유
윤
윰
으
은
을
음
읍
응
의
이
인
일
잇
있
잉
자
작
잔
잖
잘
잡
장
재
쟈
쟛
쟤
저
정
제
젠
져
조
좁
좋
죠
죵
주
쥬
즈
즉
지
직
진
징
쩌
찌
차
처
치
침
카
캉
캤
커
케
코
쿠
큼
키
타
터
텀
텅
테
텨
투
튼
티
파
프
피
하
한
허
헌
혀
히
##ᅧ
##ᆼ
##ᄒ
##ᅮ
##ᆫ
##ᅡ
##ᄀ
##ᅩ
##ᄋ
##ᄌ
##ᅴ
##ᆨ
##ᄉ
##ᅵ
##ᄆ
##ᄊ
##ᅦ
##ᄃ
##ᅳ
##ᄅ
##ᆺ
##ᄇ
##ᅢ
##ᆯ
##ᄐ
##ᅥ
##ᅭ
##ᅪ
##r
##e
##a
##s
##t
##S
##i
##z
##ᄏ
##ᆷ
##ᆸ
##ᅲ
##ᄑ
##9
##5
##6
##8
##ᄎ
##ᅬ
##ᄂ
##ᄍ
##1
##2
##7
##3
##4
##ᅱ
##u
##d
##y
##n
##o
##m
##ᅣ
##B
##R
##T
##w
##f
##L
##I
##X
##ᄄ
##c
##h
##M
##C
##ᆾ
##0
##ᅰ
##%
##ᇀ
##ᆽ
##l
##U
##A
##ᇁ
##ᅫ
##k
##g
##p
##ᆮ
##b
##ᅯ
##ᇂ
##ᆿ
##ᆳ
##ᆴ
##ᆹ
##ᅨ
##ᆻ
##J
##v
##ᄈ
##H
##O
##N
##E
##매
##ᄁ
##ᆰ
##D
##Z
##Y
##ᅤ
##F
##x
##G
##ᆶ
##P
##ᆩ
##j
##+
##.
##=
##W
##V
##ᆬ
##K
##!
##"
###
##ᆲ
##'
##q
##Q
##ㅝ
##ᆱ
##ㅒ
##ㄽ
##ㅂ
##ㅘ
##ㄲ
##ㅇ
##-
##ㄴ
##ㄸ
##다
##ㅛ
##ㄻ
##)
##\
##/
##ㅋ
##ㅠ
##ㅖ
##ㄺ
##@
##?
##ㅡ
##ㅈ
##ㄼ
##ㅐ
##ㅌ
##ㅍ
##ᆵ
##(
##,
##니
##와
##<
##ᆪ
##^
##ㅅ
##ㄷ
##ㄱ
##ㅏ
##ㅀ
##ㄹ
##$
##]
##[
##ㅎ
##ㅣ
##ᆭ
##*
##ㅓ
##ㄳ
##ㄿ
##데
##갑
##~
##>
##:
##ㅁ
##_
##예
##}
##&
##만
##ㅚ
##ㄾ
##|
##{
##ㅙ
##라
##는
##덩
##ㄵ
##ㅊ
##ㅟ
##대
##서
##ㅜ
##`
##써
##기
##리
##며
##프
##구
##ㄶ
##ㅆ
##실
##ㅄ
##;
##고
##ㅢ
##느
##뇨
##까
##시
##잇
##가
##아
##ㅕ
##ㅗ
##요
##작
##면
##려
##ㅑ
##더
##ㅞ
##도
##야
##렴
##랴
##ㅉ
##마
##오
##군
##ㅃ
##ㅔ
##지
##여
##거
##나
##믄
##댔
##자
##이
##우
##레
##냐
##넌
##단
##무
##들
##든
##로
##누
##먼
##부
##터
##은
##소
##언
##정
##에
##감
##네
##던
##사
##두
##당
##루
##디
##침
##진
##댄
##겨
##직
##목
##치
##길
##래
##드
##세
##록
##련
##욧
##깐
##답
##티
##잉
##교
##멍
##노
##싸
##었
##모
##옵
##랍
##옷
##끼
##안
##락
##게
##꾸
##즉
##슨
##담
##텀
##메
##손
##저
##새
##간
##등
##문
##어
##닌
##죠
##바
##잖
##롱
##란
##냔
##랄
##냥
##덴
##유
##랏
##걸
##말
##듸
##건
##따
##께
##셔
##껄
##선
##료
##씨
##커
##녕
##셰
##찌
##쇼
##껴
##놋
##꼬
##으
##워
##꺼
##신
##압
##징
##웨
##십
##뎁
##녀
##러
##듯
##둥
##카
##람
##를
##많
##그
##럼
##피
##룩
##곤
##스
##런
##럴
##습
##미
##큼
##근
##동
##랑
##난
##용
##쿠
##므
##겠
##뎌
##되
##수
##차
##르
##개
##셨
##키
##
##닛
##랬
##늘
##렷
##벼
##망
##쏘
##공
##슈
##엇
##비
##껀
##제
##깨
##투
##염
##규
##쟈
##금
##쥬
##텅
##주
##끔
##달
##하
##보
##테
##장
##성
##온
##뿐
##강
##외
##댜
##곳
##위
##텨
##멘
##꿔
##넨
##른
##셧
##파
##타
##렵
##양
##겐
##머
##밖
##케
##져
##쇠
##숌
##캤
##릴
##재
##돠
##샤
##쏜
##굽
##빈
##랜
##논
하
이
##ᅡᆼ
##이
##ᅡᆫ
##ᅥᆫ
##리
##ᅩᆼ
##ᅧᆫ
##ᅧᆼ
##ᅥᆼ
##ᅳᆯ
##ᅡᆯ
##ᅮᆫ
##시
##지
##스
##ᅡᆨ
시
##ᅩᆨ
##하
아
되
있
##ᅮᆯ
그
##ᅧᆨ
지
거
가
에서
##ᅥᆨ
주
##기
으로
ᆫ다
사
##ᅩᆫ
##ᅳᆼ
##어
들
##르
어
##ᅢᆼ
수
##가
##구
대
##드
나
##나
##라
마
기
##로
보
것
##사
##ᅥᆯ
##ᅦ이
##ᅯᆫ
##우
##트
자
일
##ᅥᆷ
모
다
##대
##장
##도
##치
##자
적
전
##ᅧᆯ
##니
##요
##그
오
년
##미
##주
##ᅪᆫ
##수
##전
##정
##아
##러
##오
바
##인
스
20
부
미
정
##상
상
##ᅣᆼ
유
조
##히
화
##화
##ᅢᆨ
때
##부
##국
##키
공
##제
비
구
경
##용
위
인
제
##고
##력
##ᅯᆯ
##신
##성
중
##문
한
고
##마
차
도
무
##동
##원
##ᅳᆷ
지만
소
##타
##래
없
성
등
##ᅥᆸ
않
##격
노
##터
여
에게
월
세
##비
##ᅳᆨ
만
##간
개
##다
##거
201
##유
내
##즈
##소
##티
##보
##ᅦᆫ
##체
타
피
##ᅦᆯ
##무
##명
##크
동
##작
추
방
##야
연
##일
##위
장
말
후
영
##카
선
발
당
##계
##ᅪᆼ
##서
생
신
##선
우
##공
는데
##재
안
##식
요
치
##ᆯ리
##후
드
##만
##학
##루
##의
##교
버
리
카
##들
19
까지
서
##프
의
아서
##당
때문
##모
##회
최
##00
강
##디
##단
##실
##물
##음
##역
##행
##내
해
아니
##중
크
##피
##능
##바
##속
##토
##조
회
##차
##버
##한
포
라고
원
파
라는
더
##ᅵᆷ
명
##레
불
문
배
##ᅡᆯ리
##과
실
##반
많
결
데
같
##람
진
매
##점
다고
나오
##분
##산
으며
관
특
호
면서
##생
프
##군
##연
반
패
##려
단
##관
##레이
보이
초
##노
##호
##두
야
##세
코
##진
##코
##각
계
작
그리
그러
10
경우
##ᅳᆫ
역
쓰
##본
##안
남
분
두
##방
받
어서
번
사용
다르
로
##영
##태
다는
##급
##면
##류
처
출
##민
##경
현
라
이후
##포
자신
에
국
##해
##저
못
따
##법
레
알
물
공격
##파
또
##런
##매
##브
##발
저
##종
예
감
##금
##업
애
좋
##름
##통
점
통
사람
재
위하
편
##추
##적
캐
##스트
대하
##판
입
부터
##양
##습
##ᅮᆷ
##승
##록
##술
함
##투
##테
교
김
##개
##직
정도
설
형
##건
너
##론
##ᅦ임
##료
참
시키
##준
가능
##데
##션
다른
##여
평
##녀
외
본
##입
##심
메
##운
12
권
못하
으나
##표
이나
학
죽
200
등장
과
디
##족
승
는다
뒤
플
11
보다
##량
속
종
그리고
##어지
버리
트
키
아이
##너
##츠
..
확
##석
직
가지
##형
##약
##설
용
만들
##령
맞
심
변
경기
##출
##청
하나
##황
잘
##er
토
##복
##현
끄
##더
사실
돌
##랑
##병
게임
다가
##합
##릭
히
행
##것
##련
채
##란
##향
살
박
##외
##망
달
운
##품
활
##번
##게
##배
군
##언
##께
##절
약
높
시작
필
목
일본
##머
모습
##니다
각
체
이름
함께
##네
양
##환
##든
집
한국
새
건
##ᅳᆯ리
사이
##천
따르
##스터
##등
표
##울
상대
##어나
존
##지만
15
투
언
네
##독
##임
태
이상
거나
팀
##초
##송
##in
으면
##목
열
루
독
하지만
문제
순
생각
증
힘
##쿠
별
프로
또한
##즌
시간
##립
손
##ᆯ라
완
총
##년
##메
끝
##쪽
판
가장
##막
##학교
##험
##감
들어
##ᅵᆨ
##결
효
다시
잡
##대로
막
음
##럽
왕
근
##색
##락
ᆫ데
##말
당시
천
간
아야
듯
##편
캐릭
처럼
##라이
항
18
당하
및
##on
##살
##탄
캐릭터
스키
##퍼
ᆫ지
##벨
플레이
폭
##남
모두
##근
베
싸
브
##왕
먹
능
##악
그렇
##케
아도
시즌
빠
##예
##담
##곡
##질
삼
##ᅧᆸ
상황
복
모든
##패
##에
광
결국
추가
느
##an
##ᆫ드
##미지
16
누
##or
##강
충
임
##항
앞
현재
테
##글
##함
상태
터
##처
##집
길
##쟁
날
많이
병
ᆫ다는
통하
넘
##때
30
그러나
다만
금
##워
다음
스킬
존재
전투
친
얼
검
눈
13
##택
미국
능력
악
##범
합
블
##접
여기
##커
식
첫
##존
카드
머
산
##받
14
##냥
민
백
199
세계
##규
매우
선수
허
##없
##견
커
효과
##ar
##리즈
취
##ᅱᆸ
##움
라이
바ᄁ
레이
이러
##ᅥᆯ어지
17
얻
##열
##와
그런
슈
달리
상당
ᄇ니다
##ᅮᆼ
##거리
##he
##박
황
##득
째
##at
찾
##템
##별
뜨
##베
인하
지역
이유
물론
##씨
어ᄄ
이용
북
절
의하
여러
처음
기록
다면
##달
##은
엄
괴
극
놓
레벨
100
엔
업
##틀
이것
이런
필요
##널
##창
창
실제
자체
시리즈
곳
##페
부르
청
25
올리
해당
일반
##느
그래
##끼
##광
##ᅧᆾ
##날
들어가
클
줄
ᆫ다고
##플
##으
어야
돌아
니
모르
난
##부분
##변
##애
역시
골
주인
거의
게
기술
페
바로
은
##착
##순
팬
##en
마법
##철
곡
특히
꼬
영화
##활
##난
잠
##칭
쿠
탈
##권
2017
##블
무기
기본
철
혼
##롭
##야기
##육
##ᅦ이지
즉
관련
붙
##백
##ou
아무
환
귀
2018
##불
진행
같이
티
##괴
##ᆨ스
##시아
방송
유니
##례
##까
##극
마지
이야기
는지
스타
##월
##되
##찰
##돌
##린
나가
겨
피해
##턴
##리스
##혼
규
좀
범
##ᅦ인
위치
##찬
밝
##가지
류
방어
싶
알리
제작
##희
부분
사건
대부분
와
##al
작품
담
마지막
증가
본인
##ᆯ러
뿐
2019
법
일부
계속
인간
ᆫ가
자기
비스
##렵
지나
21
##ᇂ게
떨어지
접
걸
둘
축
##리아
##증
몇
##es
몸
서울
워
생기
##률
2016
쉽
국가
50
참고
##팀
주인공
##탈
준
급
맡
풀
우리
내용
엘
활동
##벤
##전히
##온
##응
넣
그냥
##누
중국
##벌
탄
어도
이전
비슷
어느
##ᅦ이스
으니
면
암
##귀
##축
##림
##맨
##징
지금
비하
격
라면
강하
##북
##평
대신
##토리
22
벌
타이
성공
오르
만나
수준
흐
이루
낮
##슬
밝히
습니다
뛰
감독
떠
##ᆷ버
까
헤
도록
그녀
##율
198
상당히
##몬
24
##책
대한
올라
##ᆯ로
##민국
덕
웨
최대
##랴
대표
러
이동
없이
##할
기준
홍
##같
짜
##굴
배우
스ᄐ
공격력
질
몬
논
너무
##략
##it
희
므로
제외
##봉
멀
##버지
빠르
##슨
인물
죽이
##총
팔
의미
울
그대로
글
##라지
나타
리그
결과
실제로
##메이
로서
직접
2015
23
대한민국
##큼
어렵
소속
원래
##획
나이
##앙
전체
홈
##을
이미
평가
마다
밀
승리
보내
##부터
그것
##잡
언급
##념
체력
자리
동안
##ing
애니
##ᆷ피
##팅
##딩
##st
육
##클
전쟁
갖
##le
시절
래
##닝
##ic
메이
관계
몰
40
싸우
마음
뉴
설정
ᆫ다면
씩
도시
##측
##짜
향
##늘
##re
님
멤버
과거
영상
##주의
유저
##운드
망
지원
가까
데미지
##욱
선택
묘
문서
##침
유닛
샤
깨
불리
발매
##랜드
온
듣
머리
포함
몬스터
끝나
##dd
휴
성우
갈
여자
왜
뜻
슬
뭐
##델
개발
##폭
##웅
빼
어ᄍ
엄청
##는
퍼
힘들
컨
설명
##렌
던
##등학교
##갑
##먹
방법
출연
##필
쪽
바뀌
##켓
플레이어
책
차이
아버지
최고
연구
보스
우승
##컬
기사
혹
##밀
##우스
##웨
유명
##염
여성
스럽
##캐
공식
2014
##골
압
##확
장면
협
침
봉
##없이
속도
##검
사망
영향
어떠
꽤
##덕
##ᅦ이트
##얼
##슈
발생
답
이때
##훈
려고
조금
드라
사랑
프랑
26
##스타
돈
##손
##ff
갑
##ᅦ일
000
주장
일어나
주로
##벽
남자
28
##센
측
오래
프리
빠지
인터
전부
층
##머니
##el
아이템
27
##곤
초반
걸리
출신
##am
제대로
농
운영
##랙
동시
31
자주
결정
아직
중요
##쁘
나타나
마이
the
##벤트
정보
공개
만큼
서로
또는
버전
최종
##풍
새롭
강화
친구
대상
독일
학교
##아가
탑
구성
학생
궁
유지
최초
쏘
노래
송
##뜨
##om
##객
##프트
역사
소리
강력
역할
다니
파괴
억
사회
이벤트
정말
쇼
##버스
누구
그런데
##다가
기존
##새
##채
##이도
쓰이
찍
파이
아래
스토리
영국
##ᅩᆸ
다이
비교
마찬
마찬가지
##ᆫ스
칼
느끼
##휘
##la
형태
어떤
석
라도
##퇴
바람
당연
끼
소환
엄청나
##is
후반
인기
보통
회복
이기
변경
##충
##그래
##효
##ᆼ크
대사
밖
늘
착
2013
##억
오히
대로
바꾸
##샤
조선
특성
정신
슈퍼
오히려
##시간
폐
거리
정치
섬
##혀
##라도
방식
먼
가깝
푸
197
##룡
드래
월드
음악
이번
발견
29
##너지
이제
사라지
##옥
##협
##나라
게다가
32
아들
##동안
##숙
자유
##et
##답
끌
00
색
마리
##트리
성능
잔
프랑스
좌
행동
##킹
특수
확률
성격
유일
활약
맞추
##지어
##ol
2012
일단
하이
모양
##있
스ᄑ
##ion
##럼
씨
확인
아예
시스
구하
##디오
##레이드
##레스
##ᆨ트
따라
앨
이렇게
##쓰
올
부족
##ᅢᆼ크
차지
윤
정부
바이
입장
노선
##엘
에피
내리
흔
##소리
숨
##멸
##ᆼ글
흑
돌아오
심지어
주변
모드
먼저
들어오
콘
##곳
영웅
수록
##롯
##니아
##링
풍
발동
휘
어리
2010
거기
##져
볼
뽑
과정
##엇
어요
반대
녹
##싸
완전히
드러
##쉬
움
생산
##ᅩᆾ
##ow
##그램
개인
응
60
##통령
대회
빛
##nd
적용
km
##익
##탁
##로스
모델
잃
##20
획
##il
제국
##뢰
##ig
떠나
으로서
##압
속성
어디
##ed
시스템
##균
대학
그래서
난이도
##ᆼ장
득
##리카
한번
##룹
라며
혹은
35
지키
자세
##뷔
##넷
##메이션
실패
##튼
전혀
##먼
돌아가
차량
장비
##이드
##웃
감소
원작
패배
##스크
덕분
현대
국내
데이
사진
##럭
얼굴
##욕
TV
##파이
건물
동일
대통령
짓
##소드
##나마
얼마
열리
초기
더라도
도움
##리그
무엇
날리
마을
중심
앨범
우주
맵
##어가
지속
##ac
데뷔
##as
##죄
오브
인정
표현
모으
##참
애니메이션
##BS
출시
참여
하루
나라
버스
196
액
굉장
획득
물리
그렇게
of
2011
밖에
작중
시대
계획
##스티
꾸
세트
##아내
설치
다양
요구
순간
반응
##비스
견
##텐
안되
##놓
클리
Lv
정확
기능
##못
자동
##궁
##탕
##들이
움직
기억
발표
축구
##므로
드라마
선발
훈
올라가
시점
##ve
그나마
##밍
영어
라인
아마
아군
##길
##혁
담당
명칭
##이트
##대학교
##뷰
롭
상승
츠
으므로
##른
판매
##컵
다며
작가
시기
센
중앙
맨
퇴
진출
01
그림
세우
경찰
았었
##속도
The
조건
##갈
가격
맥
뮤
##찮
컴
특징
려는
땅
##덤
##뜨리
##씬
##맹
상위
수비
대체
##특
대전
##ot
고려
한테
지구
관리
조차
남기
확실
드래곤
아주
##위기
참가
500
에피소드
로부터
##혹
졸
##볼
이거
어머니
세이
지니
80
밀리
##폰
단계
2000
어떻게
항목
##취
딸
헌
핵
실력
라서
##끔
미치
##빈
믿
##으키
##콘
아르
딱
더욱
묘사
피하
활용
이ᄁ
던지
##섭
연기
경험
각각
##ad
37
처리
밤
러시아
##액
패치
비판
낙
심하
45
후보
가족
만화
폭발
회사
펼
##인트
##ᆷ피언
문화
굉장히
세대
##완
묻
케
디자
이미지
결혼
교육
##스로
이어지
구조
진짜
헬
##뉴
찌
프로그램
내려
##혜
라운드
##위원
위험
챔피언
##큐
습
탐
단순
선거
턴
약하
여담
숙
이루어지
발사
혼자
참조
무시
오리
다루
##친
꿈
ᆯ지
St
##칙
##라인
목적
술
히로
현실
##아오
준비
주요
194
꺼
민주
크리스
기간
불구
거치
스피
##머지
##암
사실상
나쁘
나머지
일으키
마스터
대미지
방영
옆
제공
##튜
삼성
계약
약간
쿨
율
##혈
나무
웃
시청
##id
부산
70
중간
##닥
괘
뛰어나
##다리
##알
##리오
##보이
##척
시도
퀘
패턴
훨
09
방향
논란
일정
##엄
##ay
지하
범위
동료
유럽
##닉
듀
##렉
여전히
연속
당연히
돕
한정
스트
90
으면서
흡
소모
칸
한편
이해
분위기
성장
아프
훨씬
FC
##ER
##짝
죄
유리
그룹
빌
국민
세기
싫
보호
얘
할
특별
노리
론
즐
파워
학년
흥
##드리
##러지
그래도
##인물
블랙
mm
기대
바라
클래
읽
02
2009
03
익
괜
똑
##ch
딜
어두
가져
조합
향하
잘못
운동
굴
자연
##륙
300
맛
가리
##짓
##ᆫ쪽
출전
##낌
경제
기타
생명
디자인
최근
##엔
기에
싸움
##틴
해결
취급
##us
48
브라
도망
##ir
짧
자면
스테이지
ᆯ까
##티브
국제
부상
쉬
그거
성적
태어나
부대
률
오프
05
곧
##봇
195
33
사고
연결
for
지방
##뮤
이르
2008
##자기
생활
의견
예정
욕
규모
##삼
덱
36
추정
운행
주의
##빠
08
##ᅡᆯ리아
순위
빈
변하
수정
##둥
벗
타입
즈
종류
마치
플래
07
##ur
끊
벨
인구
충분
거대
언제
움직이
트위
방면
스스로
구간
올라오
죽음
대화
아이돌
수상
펼치
염
넘어가
나중
##흐
야구
조직
안정
속하
전용
##듀
세력
표기
터지
변화
나누
느낌
쌍
지도
벽
HP
당신
##쉽
장착
벌어지
미션
##ᆩ이
퀘스트
도중
절대
전문
##텔
비롯
등급
##..
##od
탓
세상
##지션
케이
폴
만드
06
항공
만큼
붙이
달성
##BC
직업
벌이
뚜
##너스
안타
##흥
특정
지내
일행
관하
엔딩
th
부활
털
##능력
굳
##im
##란드
##비아
##겨
독립
포인트
##롤
튀
##촌
무장
##십
발전
종료
지지
##폐
수도
근접
전하
더불
졸업
##허
넓
관심
##층
방어력
04
만약
##붙
포켓
##어들
##톤
##최
##렬
##나이
##겁
##다니
반면
미사
따라서
##un
##ut
SK
번역
싱글
제목
보상
엔진
##데이트
소설
척
##꾸
거두
내부
칭
에너지
##던
목소리
투수
##좌
남성
2007
##즘
력
##탑
you
업데이트
배틀
##쇄
배경
똑같
빅
##윤
무리
가끔
정상
저지
##디어
미래
어찌
##싱
트리
충격
34
##정도
##카이
돌리
##엽
타격
##라고
가스
계열
득점
전설
정체
오늘
옥
##리어
뒷
비행
지휘
목표
##게임
황제
덤
공중
최소
그만
항상
분노
##ro
배치
각성
셈
##칸
공연
아키
콤
예상
##러스
스페
조사
##팔
##끄
등장인물
소재
이어
으려
##묘
마저
북한
##공격
위기
으로써
전국
##헌
정식
얘기
넘기
생존
##대학
##조건
로마
이끌
늘어나
전작
포켓몬
군사
스포
신경
냉
##ag
##igh
38
##나가
##빙
높이
##ver
작곡
애초
ᆯ로
지정
괜찮
##ec
가르
버프
인터뷰
cm
##르크
시전
듯이
자랑
쌓
지상
엘리
기관
75
스태
##쿄
결승
점수
각종
다리
크리
악마
품
요소
전사
삭
건설
분류
##ent
2006
부여
##시마
인도
과학
##시스
##멘
소녀
꽃
스코
##ᅪᆯ
멸
##탈리아
##야마
교체
##르트
55
요리
재미
전기
##낙
카이
연출
##운데
정하
이외
in
##걸
무대
전차
놀라
##스키
전반
##학생
193
하늘
레어
정작
##셉
옛
수치
##ak
클리어
확정
##ᆷ픽
##자리
별로
니까
맹
작전
드러나
에이
##밥
홈런
갖추
개념
##푸
행정
아카
##회의
훈련
소개
건담
링크
야마
살리
바다
따로
2020
제일
##쇼
to
##um
타카
종족
외국
이적
##무리
군대
##로드
갑자기
찬
##젝트
변신
',
깊
스ᄏ
나름
##셀
##루스
제한
단점
이탈리아
기업
솔
##화국
바르
완전
누르
##파트
##븐
장소
vs
크기
인천
기계
##맞
명령
냐고
혀
비밀
##앗
##타임
##아들이
서비스
##시대
##어로
랜
노력
어쩌
근처
놀
기체
평균
동물
가수
납
##홍
파티
수행
포지션
사냥
띄
녀
느리
작업
보유
압도
표시
다크
##ST
##모토
기동
집중
특이
옮
연합
옷
화력
##em
##ub
겸
##돈
시장
끝내
징
##맥
병력
이하
런
롯
사업
설립
이쪽
##니스
잠시
린
옵
기회
##풀
부모
부정
기반
공간
더니
본래
필드
혈
파일
경쟁
##쳐
치명
##올리
빨
판단
가운데
카운
##ᅪᆯ영
무슨
감정
직전
##000
##퓨
##카드
목록
이닝
나서
물건
의외
##바이
##라스
떨
ㅏㅆ
인식
고양
단어
스위
겪
코미
##젤
켄
##ᆨ시
상관
탈출
월드컵
판정
사례
크로
옮기
큐
쯤
기다리
소련
주문
밑
##요일
##이치
던전
##째
2005
주제
효율
차원
##빌
##펜
포기
잇
새로
제거
정리
##찍
가문
앞서
키우
##딜
페이
##역시
임무
##ight
진화
42
마르
퀴
려면
다수
대구
위력
도전
뇌
41
##고등학교
도입
때리
라이브
##ᆺ수
##세계
도쿄
##팩
##죽
강제
##몽
별명
원인
중반
호선
정의
##러스트
레드
완성
제품
##그레이드
##셜
발언
고정
스타일
##털
39
지배
##기사
##섯
받아들이
##드시
숨기
유사
촬영
르
에게서
##레인
2004
킹
골드
무려
복귀
##숨
동생
사이트
시험
어둠
##대표
연습
##롱
직후
분명
붉
인사
도착
EX
버티
모이
##ᅦ이션
LG
역대
전개
은데
쫓
삭제
으로부터
접근
ㅓㅆ
입히
##몰
몽
요시
꼭
사정
마시
해군
랭크
현상
추천
##ce
예전
왕국
정규
살아
음식
확장
교수
회피
아스
빨리
마나
해외
##AR
안전
홀
##많
업그레이드
책임
오버
드리
##덴
병사
이곳
##픽
코스
반드시
##os
줄이
##ᆯ레
꾼
일러스트
웹
##줄
조종
유튜
록
완벽
자원
부탁
점프
십
저항
44
타이틀
##방송
##ri
올림픽
롯데
뿌
도로
극장
고대
##AN
장점
파트
심각
##첩
잡히
비용
캠
탈락
차전
##찌
우선
##ula
Ch
##무라
인터넷
아내
##ON
의사
신체
##몇
##하나
통합
아라
언어
##셔
리더
추측
공동
##대전
전력
의원
##아하
No
전략
미니
늦
##ap
##꽃
43
주민
치료
99
이라고
실험
환경
##넘
놈
몇몇
의식
연장
히어로
##트라
마무리
벤
연재
합류
##and
구매
2002
소유
##ᆨ정
짐
st
복수
##버리
##크래
점점
즐기
다소
살인
장갑
##ᅳᆯ린
사격
최강
낫
##ᅦᆯ레
form
철도
대기
종교
사기
##빛
##광역시
전자
그야
화면
취하
##듬
수많
마법사
틀
기념
구분
좋아하
공포
티어
kg
##논
곤
종종
47
자마
46
개최
51
##ᅳᆯ링
191
##아이
사거리
마사
##아보
암살
걱정
가치
formula
평범
닥
##콩
##말로
##퓨터
쥬
전통
가사
##ᅮᆨ
사무
붕
자마자
형식
KBS
##무기
개봉
아쉽
부하
그야말로
##ᆯ리스
스티
##아지
##스케
그리스
개월
채우
선정
녀석
사상
스페인
여행
##ter
떡
##위원회
팩
콜
워낙
아무리
뻔
##선수
다행
미드
고자
##오르
베이
루트
##메라
and
픽
요청
펜
미사일
한계
프로젝트
##깨
무조건
본격
정당
정확히
대중
냐는
##퀴
한글
##ul
개그
MA
맺
평소
영혼
실점
밴드
시청자
거부
비중
굳이
##IN
##운동
지적
무한
##시장
공주
옵션
1000
##수록
##스토
로봇
덜
2003
데이터
모자
##모리
줄어들
하드
##ᆺ자
컴퓨터
젊
충분히
스토
고르
##op
위협
투입
상징
버그
네이
는가
멋
##오스
##니티
##관계
시설
히트
##쿠라
##사이
달러
도망치
연주
행위
##잔
범죄
##ck
##드로
선언
대형
불가
%,
명중
##폼
실수
쓸
설계
폭탄
콤보
150
##핑
형제
65
특유
##FA
대결
언론
##ation
원정
해석
선생
성향
조작
운용
##꺼
희생
##정부
시민
빙
MBC
##ᆯ링
광주
스포츠
SP
##ᆫ만
행사
이사
##려가
전원
일종
인상
대응
보조
##ra
192
보병
태양
봉인
##남도
광고
행성
잊
##다르
잭
뚫
##페이지
##이상
나이트
멜
얼마나
개조
가면
벗어나
오리지
단지
깔
64
##세이
대로
##컨
##멀
II
통과
그때
로써
마력
##경기
드러내
차례
##동생
##기관
롤
##미널
와중
##머리
앙
란
구단
##특별
보너스
노트
빼앗
간단
단체
점령
시나
을지
프로듀
소비
경기도
##려오
ㅏ서
치르
육군
화염
##웨이
흉
발음
생성
숲
서술
뿌리
가하
##옷
하야
근데
52
방문
혁
셋
클럽
앉
합치
컬
쥐
서버
##릿
유튜브
닌
조정
##플레이
렌
장르
##라이더
##텐츠
불과
긴
의도
재료
투표
##ᅧ보
소년
금지
반복
You
##마스
가정
의지
정책
함정
지명
트레이
한국어
는다는
년대
저격
영입
디지
400
최후
캡
보컬
분리
초대
에어
제안
##랄
보다
따지
채널
##art
원하
##님
박사
##교육
##ᆯ린
##시브
무사
그저
대비
##지역
##춘
사태
##런스
편성
여름
외모
##덜
가져오
고양이
VS
장기
일차
음반
후속
센터
찾아오
##도우
##부대
##솔
##학자
소식
##랗
49
두번
숫자
스카
흡수
##뇌
적극
먹이
느냐
목숨
엠
탱
지나가
독자
AP
56
눈물
공략
진입
장난
패러
모험
바닥
블루
##센터
은퇴
적절
데스
##사카
오토
생물
왼쪽
괴물
셰
##드라
##달리
##랜
군단
주력
2001
혐
오오
뉴스
고등학교
대학교
##마트
컨셉
거짓
아름
택
저지르
살아남
기자
스테
ᆫ지라
흐르
의심
확보
자료
서브
전화
53
약점
노동
원거리
54
개선
코드
필살
제도
오리지널
...
사과
형성
##콤
##휴
##ᅢᆼ기
대단
쓰러지
관통
단순히
In
PC
겹
걸치
교통
대장
##어내
##따
다운
##읍
수호
저주
전술
황금
미리
페르
계기
만원
마침
멘
##핀
촉
브레이
들이
잘하
##텀
밥
부수
##헤
##나미
질문
##즈키
조각
칠
닮
구축
착용
꾸준
85
상대방
##스코
##녕
작성
인류
시티
솔로
유도
풀리
밸
##나다
훌
##ia
타임
으
##로우
멈
1990
루이
방해
##렐
기원
집단
##문화
##깐
비난
삼국
역전
##ill
##다이
##워드
스크
##무원
전환
편하
아프리카
습격
필수
경상
열차
##팬
##ie
##전자
##냐
선보이
승부
족
라디오
##소년
걷
##레이션
규정
##북도
##ᆸ터
홈페이지
데리
##RA
진정
ST
실시
라이트
##회사
##젠
##딘
##IA
삶
클래스
공부
확실히
회전
유우
모티브
아름답
무력
##베이
감안
들리
190
##ik
##전사
엄마
번호
경계
##쥐
##케이
수원
등록
##를
##릉
병원
완료
##쇠
편집
##렛
어느정도
남편
힐
비고
테이
승강
아나
##영상
표정
무섭
쿨타임
임명
멈추
지나치
기지
오른쪽
비트
딱히
행복
##술사
허용
본선
친하
희망
죠
##울리
사장
##붙이
59
##연히
방패
상처
더블
바탕
코스트
당장
좁
의문
##ᆷ프
태도
유키
고통
엑
탑재
유래
장군
에이스
##뉘
##ab
아시아
고유
인지
날아가
기점
이스
평화
국회의
비싸
갤러
스파이
그레이
##아리
처치
날개
분야
120
선물
빌리
제압
58
민주당
트랙
대답
##피아
성인
아요
을까
제시
멸망
하위
챙기
꼽
##흑
##est
##크래프트
가슴
##대회
주목
57
수리
꺼내
잠깐
자라
레인
후지
아웃
##th
MP
중단
갈리
마크
##홀
##꼬
##all
로드
이론
탯
멀티
어라
나뉘
##놈
퍼지
##ea
##어스
거주
사령
66
##터리
한화
95
궤
측면
사항
##라이트
회장
당선
혜
꼴
윈
가ᄇ
검사
시나리오
주도
멀리
겨우
포르
##디아
뮤직
내려가
다가
##킨
액션
##소녀
##전쟁
눈치
투자
프레이
년간
주연
공화국
##헨
##럴
동맹
뉴욕
에다
보급
일본어
##철도
달라지
약속
Sh
학원
ᆯ수록
##촉
링
우수
교회
보수
앤
테마
드라이
테러
##나무
텔레
낳
Lo
온라인
늘리
##ct
궁극
시체
가볍
최악
ddd
on
나타내
조지
카운터
##라리
1999
망하
##하라
트래
Re
##피스
자이
가져가
순서
떼
위주
##섬
배신
좀비
종합
##륭
대놓
##초등학교
해제
견제
컵
소울
가드
포스
110
리어
##바로
함대
##ddd
dddddd
보도
Sp
1998
##두르
현장
오후
##밀리
카메라
##타로
##AL
코너
##어리
산업
지식
##트로
##오리
계산
엉
연계
핵심
베이스
##지원
최대한
##니어
쿄
살해
나카
ㅓ서
##값
##AT
62
##리트
##PS
디스
예선
귀족
##워하
해금
국회의원
폰
직원
제로
인원
료
필살기
중화
덩
틈
##OR
전장
##렘
##토스
진실
##VE
콩
귀엽
외부
분석
거절
퓨
국가대표
드물
건너
##유키
이치
특기
쓰러
이성
##고기
##주시
유용
##보스
출생
SS
용병
제조
가르치
SBS
어울리
소프트
출발
통일
시내
니코
상하
수사
증거
개편
춤
부리
인형
##맛
애매
는다고
##들리
기분
부담
##라우
##시즌
널
##칼
고서
##ate
지옥
광역
##아나
##선거
레이저
뱀
극장판
흔히
##ess
##스카
##사키
커뮤
겨울
안하
Th
##ell
##번호
61
##래도
게이
세계관
갱
불명
어린
민족
##ard
76
한자
##컷
진영
타자
어떻
##오프
끼리
단독
자살
영역
타이밍
##ang
얼음
버튼
피해자
발휘
아무래도
스트리
서울특별
겹치
##IC
카즈
자동차
##민주
크로스
##다수
레전
##바람
##연구
아침
오스트
홍콩
##ue
조준
무게
고급
순수
##기술
##렴
##ant
플라
##ack
비록
##대장
##츠키
공통
##칠
##ers
부진
패시브
Al
NP
코치
77
댓
장전
케이스
소수
##ine
로켓
88
두산
1997
구입
72
반란
##서관
##생활
##심히
브랜드
여왕
##나오
자고
##가락
템
탑승
충돌
한명
혼란
스피드
몰리
텐
상자
후반부
막히
통신
장치
기획
기절
만족
##시티
서울특별시
##툰
문자
내주
협력
외치
인생
파악
##브리
군인
삽
넥
탄생
끌어
롱
테크
아오
꾸준히
왕자
게이지
생일
판타
BG
ㅕ서
우려
##디션
근거
##웨어
##둑
어그
##ok
##샷
##OS
코어
부인
##납
안습
##갖
업무
닥터
무너지
실질
##멍
##붕
##팡
##트롤
카페
관광
##자키
be
납치
강조
##포트
등등
373
FI
채용
반영
붕괴
융
공산
더하
스프
톤
게시
or
##카와
자르
위키
돌격
미군
98
fff
프레
아메
훌륭
온갖
쏟
##융
쳐
듀얼
CD
장수
##노스
gt
마이크
엑스
대공
아라
점차
마왕
##돌리
맡기
##리티
##릇
##ive
밸런스
수단
랜덤
##파이어
스킨
없애
600
반격
자격
패러디
##상태
주어지
##메달
##컴
##사건
용도
댄스
경향
값
홍보
쪼
필리
구역
지하철
공군
##도시
대다수
울트라
찾아가
내놓
공항
1996
##정보
##켄
설득
위원
권력
어차
살짝
제주
입학
고민
어차피
주년
##셰
##ast
가로
언니
승강장
지시
PS
돌파
##옹
표준
##세우
##AS
가까이
체제
##다지
대놓고
1995
지급
아야
커버
영원
화살
실행
감염
아사
가입
또다
적당
대륙
입수
브라질
충전
##중학교
응원
작사
ㅓ야
##오카
베르
제기
##uby
",
캐나다
집안
##ED
##은행
##가능
미야
##tt
봄
당황
갤러리
68
즉시
##ee
##로그
내려오
이렇
자식
은근
lt
800
불안
신화
열심히
##삭
연방
##교통
스페셜
뒤집
별도
체인
여러가지
여부
오프닝
신뢰
##농
폐지
##시지
북미
매치
63
증명
밟
1980
명예
유형
경력
##묵
##아먹
돌진
정령
##친구
한때
##찾
##ong
보물
##호사
##AM
ruby
빵
괴롭
단일
##독교
도구
아리
운명
이승
찌르
가면라이더
후쿠
모션
마련
균
에스
##ort
김성
선배
이슬
흘리
##레기
군주
라이벌
교환
##ᆮ히
비율
##데스
덮
카르
계승
싱
마녀
##덩
룰
##트남
##관리
랭
댓글
##효과
##ith
근무
횟수
##스트라
재생
오해
경유
중계
71
##if
##아버지
74
습득
드랍
수입
주전
함선
쿼
불만
정말로
내내
##ly
트위터
##스탄
커뮤니티
##비전
##미야
조조
시행
##fff
....
MV
##ld
하수
원수
전라
재판
장식
마츠
##히로
그곳
몹
##ᆯ릭
갓
73
67
고속
셔
ffffff
혁명
고전
그라
##타이
레전드
박살
오픈
알렉
주위
절반
가리키
추진
##티컬
격투
지우
##가스
딜러
짜리
남부
메이저
##렁
아우
붙잡
닿
울산
##빵
컨트롤
##보내
외국인
심장
단위
별개
##겨나
계급
취소
NC
처하
##ain
일대
##ist
96
##공사
민간
파이터
지ᄏ
회의
덴
등판
암흑
1994
##ind
소문
옹
##데이
가득
늑
##시안
##보드
재능
TH
정권
북쪽
##ᆨ터
그다지
스파
연예
쌓이
크루
안드로
예술
감사
##서트
마주
180
고치
닉
공유
해방
##퍼스
쇠
아티
피해량
격파
퀄
##기간
지점
남쪽
AC
건강
##지컬
문명
그동안
스트라이
외교
##ᆷ치
와이
스코어
##럿
##베르
81
AT
파리
헤이
네이버
장애
초월
강원
##가와
사운드
핀
든지
튜
발매되
공작
일부러
그만큼
결승전
다행히
차별
전방
##per
##바르
로스
임시
압박
잉
##가리
소멸
널리
전달
##아웃
하트
##ps
##구역
##톱
기독교
화장
공장
레오
##EN
##워크
##랭
입단
##티나
문제점
##버트
흔하
쓰러뜨리
따오
그림자
적히
깃
텍
##깝
카나
고기
지켜보
피아
판타지
타점
##식간
공사
무적
따위
맞서
화려
##EC
물러
자는
헤드
치명타
갑옷
##마을
78
브리
91
스튜
##거나
프로듀서
##OL
거래
갈등
유비
말리
순식간
본명
지형
여동생
무난
공기
오로
##ew
제이
여론
건축
선호
##때문
일상
##ᅫ지
컨텐츠
연사
시야
폭풍
짝
여신
드립
써
84
CP
##투스
##모드
##ᆼ이
##탐
체육
컷
최상
체포
사단
패스
러브
##넣
##LC
##멜
관객
me
미스
##ry
크리티컬
##일랜드
오랜
첫번
드디어
유로
전투력
##려움
수있
체계
가토
82
##타인
불꽃
바라보
자치
페이스
삼진
용어
##lo
전역
추적
##껏
복잡
##둔
무지
섭
매력
늑대
##영화
97
파이널
##레이터
대만
사쿠라
한국인
아무런
##펠
##사항
경영
##덜란드
전함
낭
86
도달
락
##프로
고향
영토
맞이
상향
무르
##어오
대원
파견
##공항
##ᆷ새
빔
폭주
해설
##레나
##ᆯ리아
##병대
떡밥
작동
폼
##둥이
##셋
사전
동원
네덜란드
페이지
트로
##모로
it
푸르
변형
현지
셀
69
##어버리
다시
다시피
한방
몰래
추락
화이트
인수
요새
덧
그치
수용
조용
연관
아무것
쿠로
수학
참전
프라
개통
is
메탈
##믹
오류
추격
NPC
출판
막장
달하
생명력
출현
##IT
상품
충청
교황
일제
##바일
##동차
작용
둘러
파라
돌아다니
매일
##고리
만든
틀리
프리미
US
##과학
##아파트
##디언
해체
메가
박스
향상
경험치
MS
통제
중학교
복장
##더스
신인
까다
놓치
나루
낚
리버
An
옛날
구현
왕조
##마이
##윈
녹음
동쪽
아파트
입력
##어도
김정
이시
북부
##티드
알아
##먼트
##깔
굽
##ᆼ글랜드
조성
##ust
오빠
서부
환상
교사
스마트
##교회
베트남
가이
신규
크레
수업
예외
언제나
보정
환자
노출
긍
##국가
범인
기초
250
종점
총기
KT
##네이
##티아
출장
연애
스카이
구체
##연합
##50
##니까
되찾
##뜩
메타
일원
##단체
##수록
회원
에드
토모
인근
심리
##구리
묶
타워
시각
편지
##병원
영문
##시타
갤
##츄
여러모로
신고
##류장
189
대립
쓰레기
거짓말
수요
제자
한마
##ᅢᆼ이
##요시
쿠키
##과정
보장
신라
마인
사토
의상
불편
불과하
신청
전형
##릭스
연락
##리스트
기어
어깨
수집
202
접하
편의
신분
1992
##전차
팝
##야구
##사기
평타
전면
유희
양산
무료
##조리
##킥
창작
천사
차단
서쪽
마리아
신성
기여
92
##흡
##BO
검색
##ore
키리
##저히
모바일
부품
##버프
영업
이중
Ar
반지
##펙트
띄우
노예
겉
대체로
세월
동부
전직
진지
반발
학살
묵
자이언
83
감시
##핵
고생
이날
마리오
주먹
성과
심판
탁
##륜
폴란드
대량
Te
구속
호평
##조사
상상
제하
89
대우
잖아
##좋
제작진
하고
블록
클로
내구
##FF
101
휘두르
기기
93
반하
정지
##라크
1993
##일드
다섯
##사고
제법
출처
무효
승격
De
프린
MAX
테스트
콘서트
침공
식물
기습
##성기
뼈
닌자
동영상
이득
윌리
한타
94
스폰
랩
이랑
잉글랜드
그래픽
이래
##프리
쉐
더빙
##시설
창조
코믹스
보석
잠수
경기장
com
맘
79
적어도
알파
##빨
마도
멋지
연상
지도자
은하
##ᆨ시코
요즘
폭력
조심
##FC
저장
꼬리
실드
re
이리
동방
##땅
합격
##구치
겐
다이아
찰
니시
##쩡
비디오
다면서
87
##란색
엔터
##쌍
메카
##스팅
극단
##사업
볼넷
헌터
##가미
글로
하수인
공급
마이클
통상
노멀
박근
뛰어
길이
음성
##사자
똑같이
##그라
##페인
스펙
구출
##one
대략
훔치
On
시위
##닫
파일럿
##로나
이재
교전
회차
##닛
밴
##그룹
종이
후기
##공원
전투기
동작
##se
런던
어지
##ip
경비
결성
##활동
##김
합성
토론
상점
지휘관
사령관
##AC
유령
국립
어째
도망가
##코드
AI
DJ
물질
고용
어드
##RE
익숙
운전
아크
아머
바보
이슬람
웨이
같이
었었
헨
서양
수영
##ere
스웨
##창기
나아가
탄약
킬
젠
득표
동네
##PG
폭격
갤럭
소화
퀸
##널티
BGM
프레임
MC
회수
인공
곰
신경쓰
장관
어둡
SN
사마
경고
이내
활성
##넬
콜라
##의원
의혹
##렉스
묻히
법률
샷
##쾌
##ity
썰
불법
권총
냐며
##바라
##ath
태우
조절
##녁
##블리
규칙
조치
플레이오프
디지털
전적
##미스
홀로
겁
##스킬
라이더
동기
유행
수송
김영
들어서
으니까
호감
##마루
부문
간부
투구
##공화국
문장
FIFA
요괴
##사회
지르
##인민
##마법
려다
웬만
##부장
##end
제임
##테르
##부르크
결론
##끄럽
1991
칼리
이명
모리
터키
취임
불러
빛나
움직임
자매
##스턴
원소
다하
매니
앞두
글자
멕시코
곧바로
저그
##슬리
제어
!!
가톨릭
##메이크
펀
탱커
실리
정면
아기
엘프
쾌
틱
찾아보
일시
포탑
여유
특화
진심
너무나
키스
##대사
THE
##그마
700
FA
예측
메인
문학
##장치
##배우
오랫
가시
박정
소닉
절망
##놀
타케
소드
신문
흥행
수술
ㅕㅆ
도발
전공
구원
의무
신호
근육
착각
정복
사자
총리
시드
끼치
1988
유대
##지방
제임스
개정
MVP
외계
듯이
리메이크
##둘
국방
아끼
토크
요정
캔
연대
개체
떠오르
육성
넘치
##타자
브루
그대
##지마
초창기
객
좌우
고백
출력
##가드
소형
##레드
깎
##네스
강철
파이어
여지
팀원
차라리
번개
##커스
Ro
물러나
긍정
##OT
인정받
베스트
잦
피부
초등학교
인연
목격
예비
파트너
샘
정착
##행위
##ᆸ스
##아시아
챕터
탱크
연도
아일랜드
요코
CC
에서부터
계정
어린이
상호
앵
##그리
##팩트
바치
플랫
##속도로
##닌
Wh
타이거
블러
핫
전시
발달
위장
안드로이드
카미
##작용
영향력
섞
켜
이주
길드
는다면
빗
예고
AK
묘지
식민
신설
슬롯
세이브
##지로
히데
내장
대항
헌법
떠올리
##세스
미츠
##자드
##마크
몰아
곁
차트
블리
박근혜
##ect
오스
각자
##티스
DLC
오사카
하필
깨지
대폭
명중률
htt
라면서
고문
Se
##포터
##카리
1970
코인
##평가
청년
사양
예능
농구
갤럭시
##잡이
양쪽
후속작
으려고
##터스
##브라
최소한
Le
마침내
##죠
호주
수록곡
분기
의뢰
아바
##저스
어다
훗
챠
꺾
'.
본작
강의
##도르
게스트
악역
관할
##위키
##대상
주간
전후
협박
콜로
현역
##시리즈
누적
국왕
##이즈
공지
저녁
He
용사
##케이드
인증
##시오
##무장
오랫동안
##미니
세르
그럼
PD
막차
골든
루타
안내
##age
신기
##IS
##의회
아빠
미카
우리나라
기원전
부서
al
첨
일자
역임
##테이
넷
방출
의존
구멍
육체
가속
괴롭히
##나카
전선
메모리
카오스
적대
분량
어쨌
세종
##랭크
##지대
kt
감옥
부부
망치
##어나오
올해
##무르
마구
연인
##에이
장교
Go
다가오
##필드
터치
Me
이지
원자
##앞
간혹
비행기
장악
이끄
##박스
오늘날
요원
명성
년만
강남
실버
##겐
노부
빌드
개방
주말
##몸
일본군
융합
카라
##물관
ᆫ다며
썩
예쁘
앱
깜
정치인
놀랍
노르
##워치
GT
처벌
가량
대처
오가
출마
김태
왼
1989
형사
KIA
투어
떨어
안티
써먹
놓이
은행
지능
##og
포스트
바위
##ake
##몬드
##ide
##ᆷ없
배트
##쿨
상당수
한동안
빡
트레이드
개성
이집
스튜디오
희귀
외형
재미있
##가시
춘
오전
전문가
먹히
##OM
Be
십자
My
무덤
화제
피격
WW
패하
커지
##경찰
호텔
사제
오른
준수
이즈
대지
##덱
접촉
##타입
환승
섞이
부위
의료
130
##제국
꼽히
갇히
환영
고교
둘째
윌리엄
##려주
소원
뺏
흠
고마
담기
샌
포르투
대표팀
횡
씌
AR
##틱
가게
빚
##ss
룬
펠
허리
SC
이집트
##ark
최다
합의
소총
오스트리아
플로
초간
섀
인조
##우드
##ime
깨닫
##ire
따라가
SM
멍
편곡
선전
##천시
##치기
##문제
정류장
##ᅦ인트
국회
수련
188
##말리
논리
웹툰
으러
wh
아니면
116
확대
손가락
알렉산
뜬
구도
전진
핸드
my
Su
문재
##네임
##ES
##듭
은근히
전신
삼국지
##누스
넉
SD
귀신
어른
ㅓ도
##노우
##마리
알아보
상업
##산업
흐름
##ID
입구
극복
##안타
고등
성립
소지
태그
소중
치우
권리
대개
더더
연타
Tr
아가
미디어
뭉
는지라
스웨덴
국가대표팀
청소년
##닉스
##ite
정글
새벽
팔리
접속
수수
##던가
독특
##리안
별다르
고구
익히
튀어나오
##다랗
변호사
무렵
할아버지
부디
##덩이
무겁
##맨드
일격
모모
유이
뻐
축제
태평
##룸
조언
굴리
수십
라이프
160
##ound
블레이드
리치
작곡가
편입
연극
멀쩡
SR
페이즈
칭하
##iv
동의
일찍
바이러스
일일
더더욱
HD
''
##플리
팬덤
브레이크
차리
퀄리티
평가받
##쳐지
빼앗기
병기
까다롭
##스틱
음원
보안
##눈
혐의
원본
블로그
##협회
##큐어
카타
시즈
##iz
##OP
바이오
##ge
한마디
훗날
권한
##일러
위상
기사단
##쩍
허나
랭킹
윌
검찰
첫차
돼지
적군
##게이
절대로
IC
대가
##항공
##속성
클래식
손해
살아가
챔피언스
##지구
주식
사카
식사
##OW
메리
대충
구나
##시로
보관
##스톤
면역
##주인
합체
증언
대리
##사관
주포
##잠
뜯
처형
갈수록
죄다
##감독
각본
시선
적응
하얗
##리얼
계단
한쪽
무릎
미술
네임
##아프
참석
금속
##ᆼ기
리듬
꽂
공공
매직
과연
아트
흘
결코
모자라
험
개시
우위
마이너
##사령
한참
내성
개입
##무시
##머스
결합
##코토
누나
전철
스승
후방
미소
기적
##리코
##법원
량
##LL
시계
둔
스톰
해안
토르
##ome
사도
활발
동화
지진
정수
헤비
브로
천재
수익
슈팅
다음날
##크로
Gr
##공학
불교
##갛
첼
연구소
데이비
해상
##튀
##고속
경기력
신세
내세우
핑
크리스마스
##전대
치유
with
우연히
김민
사이즈
원칙
##BA
유물
최종보스
##지사
루시
디버프
털리
이영
컬러
##UN
루수
캐스팅
자금
보고
유치
캠페인
커맨드
개막
통치
##키아
연료
김종
오래되
스타크래프트
사막
세포
데려오
이민
비추
##범위
위대
##싸움
보라
선출
IS
지위
투명
칭찬
의회
게이트
인지도
결말
회상
메뉴
오카
충성
이자
##비치
전성기
이글
##일보
해적
##양함
1987
##데미
플랫폼
추가바람
de
업체
녹색
전멸
BE
흔들리
##우리
##방식
px
정찰
열쇠
어지간
140
김동
나치
정비
이정
##타카
눈치채
느라
##MA
구사
미나
Pr
도서관
흔적
삐
거인
네오
이식
데모
상태이상
신비
##ord
무작
Love
방사
##어서
상급
어쨌든
자국
오직
띠
새기
일반인
더라
호위
웃음
주기
##ud
아미
어마
취미
작화
##주의자
구경
##쥬
고수
펴
지속시간
##짱
제정
대대
농담
후계
프리큐어
##뒤
안경
어려움
포트
ch
헛
레이드
날짜
##콜
화성
사이드
도주
##멘트
으시
챌린
행적
해리
패션
모래
본체
회말
개량
##ᆯ라이
불타
##mp
##주민
고스트
매년
##사람
모조리
##첨
거점
##블린
하락
##10
사후
당일
##뜻
생존자
##ame
윙
UE
##반도
아이스
##ance
시달리
톰
개수
헝
의대
SKT
##ax
켈
남북
네트
흥미
둥
##밤
코코
상성
로그
진보
##빌리
코우
자세히
동굴
an
##려나
스마트폰
JR
가짜
##ure
기울
일본인
##ix
900
기ᄈ
##회장
GS
관중
기르
##시스트
##문학
메르
##기업
##ick
##mer
비례
누리
채택
##ᆫ지
일방
덧붙이
##스ᄐ
국적
개혁
캡틴
식량
##ice
포격
아티스트
##클리
예시
임대
가을
스프링
뮈
업적
재현
##힐
##our
화학
##자치
##음악
Bo
행하
유나이
유니폼
##월드
궤도
귀찮
방지
바까
기용
울리
바깥
잘못되
영구
집어
피아노
##아다니
생겨나
며
승점
리미
연패
스톤
신부
EP
노인
##랑이
식민지
##버스터
소속사
추구
곽
1986
협상
##위대
거듭
몽골
##곱
##지르
날아오
볼트
미안
자리잡
##인민공화국
잠재
자극
할머니
##투수
사형
선택지
1960
단편
특집
##역사
OST
양성
##올
무방
신앙
##류탄
저작
스탠
잡지
디아
이익
빨갛
KO
##{{
##헬
Un
예수
제갈
취향
공원
종목
##차량
쌍둥이
중장
간신
숭
##룩
스턴
##프레
라이온
Ex
##얄
프라이
아즈
##시험
을
비주
출입
제작자
일치
리드
기병
소장
넥센
소위
##개발
잘리
명확
##AD
정원
##qu
##리온
타인
전주
##캔
##페이
무역
강요
어택
몰락
포항
나포
야스
##럼프
예산
포로
그러니
호수
##듈
캐리
초보
##oc
다치
총선
##캠
씹
사신
{{{
부자
안타깝
판매량
콜라보
유희왕
즐겁
##처리
그만두
막대
사우
##80
레이스
타락
조약
##우승
##폴
가상
킥
실망
터뜨리
GB
##학원
크라
재산
색깔
곡명
##ᆫ색
찾아내
##라엘
둘러싸
UEFA
##센트
연승
단단
화물
세이버
##레벨
깔끔
기도
즉위
##병기
등지
휴대
유나이티드
DS
##도로
귀환
비상
186
##거지
##own
sh
##ys
##딧
##작전
백성
##맵
너희
신장
포르투갈
챔피언십
아마도
CPU
미루
중독
색상
##버전
게시판
ᄇ시
명단
찢
아카데미
베네
항복
##든가
##괄
##수사
공성
##ber
식당
고구려
외전
미스터
사라
김재
다지
강원도
통산
인격
##테일
유적
칭호
항공기
돋
조별
적합
We
AM
구석
##늬
##슬러
##라노
커다랗
##교사
아쿠
로고
교장
중대
타율
대선
김대
105
하단
흘러
새끼
건조
##av
##OC
##로디
일명
수장
오타
유효
탈퇴
교류
체크
끊기
##old
##뛰
커리어
포위
커피
탄창
시내버스
.."
레알
타수
로즈
인치
고작
개국
델
짱
CF
흑인
마키
눕
면모
주사
공무원
반사
박히
LI
추억
측정
뽀
그러니까
##orld
예언
나무위키
이수
포수
라인업
기종
후술
자폭
트라이
기생
히어로즈
휴식
지대
상술
적당히
##드리드
아저
##레어
다름없
렙
용기
꾸미
##학과
##시절
저런
배터리
화장실
사유
마약
일기
고맙
메시지
##쓸
##니시
마비
과목
카트
##라드
실전
##여자
면적
데드
승객
라스
남녀
다스
성남
##고지
1984
##같이
깡
아메리카
형상
차이점
선고
주소
어이
##ont
1985
더럽
반동
미라
최신
국경
철수
닭
##려들
##로봇
##버그
아랍
매니저
근본
##포르
187
##즐
싱크
보존
도적
##번트
SH
##어마
시노
추종
##유럽
##베스
##라이언
##엣
##졸
증오
피터
3000
승률
용서
럭
강도
매장
한글판
소프트웨어
##렙
##축구
하차
##폭탄
AD
##ies
떨어뜨리
LC
사정거리
DF
급격
입지
서포터
아서
유통
만명
후원
또다시
이슈
##에르
초코
마드리드
치루
lo
서구
KBO
본사
관람
도끼
부각
미묘
톱
영주
연예인
시너지
##동물
담배
후배
아르헨
크리스탈
토끼
생략
쓸모
아이콘
##통신
집행
휩
잠수함
루카
후손
데려가
액티브
It
부지
##ᆫ트
##lay
주역
네요
자전
XX
중첩
이스라엘
왕위
아테
허락
##여객
들키
그랜드
천만
저렴
##비디오
이마
중립
마린
##기지
##본부
언더
##사무
기아
동성
오랜만
뜬금
네트워크
파크
##경제
상단
구글
기량
낚시
튕기
##하면
펑
총알
##크라
클랜
간신히
아케이드
음모
공세
##OD
##킷
신사
무척
MF
##걸이
숙련
수류탄
방어구
##슬링
발행
마술
##US
구르
서식
글로벌
부딪
배차
생년
취약
##뚱
관측
##모스
##산시
엔터테
##라기
상인
터미널
뻗
해피
텔레비전
고리
알아내
물리치
##펀
혹시
마주치
흡혈
CV
가만
회초
에리
##카오
블러드
##다운
벼
자막
상실
맛있
아이언
WWE
창원
행보
대수
윗
곤란
일족
##인간
.....
소라
학자
##PM
법정
놀이
##키스
##ann
##늄
관찰
공룡
논의
지경
##잘
바퀴
금융
머무르
사귀
##사이드
트랜스
##포스
조이
스페이스
NE
수출
아르헨티나
애정
어마어마
재정
SE
자본
##ᅦ이징
강등
아시안
이란
고위
##타운
##40
곳곳
거미
오버워치
##사랑
잡아먹
##마스터
125
##pe
뿔
텍스트
타마
##30
##태우
오크
깨어나
##탱
인종
잡아내
##디스
간접
공방
내보내
관점
자이언츠
일레
침략
경상북도
##체육
결심
스트라이크
철학
촌
##딱
똥
##아키
문구
차기
격추
##ᆫ가
단장
토벌
쟈
##sh
유학
라기
##노트
시마
표지
your
##하마
##그나
되돌리
산하
##전기
##불명
악당
놀리
던지
기숙
헤어지
하루카
저러
##NA
위반
중세
##벅
소스
##기구
##신교
낮추
가동
상관없
##픔
멘탈
앨리스
슈트
김현
찍히
정화
슛
평생
상영
얻어
엿
약화
##VD
정차
냄새
연합군
CJ
연금
미터
메달
AS
안기
곱
충실
타선
이혼
드라이브
언덕
금방
쿼터
파츠
거울
##어하
드래프트
##갈리
##벌레
이탈
DE
엘리트
##월일
##승부
동인
리스
와타
간주
##싱턴
##도리
서서
##ng
보호막
강자
##io
붓
##베리
성별
초록
문재인
배포
##나리
##사이트
침입
백제
뽑히
흩
빠져
##텍
상기
긴장
묘하
스팀
제작사
반전
존재감
인민
다카
호기
주둔
본부
내전
##검사
상세
로우
야생
기관총
마법소녀
복구
##너먼트
;&
엮이
백작
##바닥
정기
해치
##공간
언젠가
제출
티켓
판결
폐쇄
루나
##oo
양자
제약
에요
화재
##팡이
동양
천안
레이더
균형
지불
모시
후계자
재밌
악명
짜증
옳
170
뮤직비디오
Pro
이듬
##누리
##끈
조연
끈
엑스트라
로버트
부적
##터미널
은신
##히코
잔뜩
심사
표면
두개
전세계
펀치
유력
뱅
불사
에르
지뢰
##열차
##하르트
##ᅪᆨ
저택
##ave
##전선
뮤지컬
##바나
##포인트
훼
백인
업로드
변환
에다가
답변
구리
프로필
쏟아지
휘말리
바리
경주
행운
매체
##LE
##구장
뱀파이어
소유자
프란
인용
LV
계통
합병
윈도우
##훈련
위성
심심
딴
끔
맥스
that
##운서
뜨겁
본관
천하
체결
UP
해명
##방향
프로토스
릴리
태평양
정황
난입
생년월일
부임
##방어
분명히
왈
세인트
뷰
코리아
창단
유독
##ION
임신
사쿠
라인전
동점
##주교
헨리
건드리
노동자
금메달
상관없이
오라
캐논
##ream
선두
히나
우라
보완
카스
려던
ED
1500
구축함
호칭
괴수
견디
마루
EN
정예
다니
잃어버리
용인
디지몬
펄
내지
와일드
펫
수백
한나라
공허
대인
말투
악화
서번트
쭉
이듬해
항의
해골
다이아몬드
외계인
미쿠
하향
전승
개설
##부로
준우승
##마르
##ond
찬스
1982
전파
영광
호흡
어뢰
->
펌
살ᄑ
스케
굿
팽
선거구
여우
살펴보
발렌
##가루
유발
스테이
끔찍
통계
##윙
착하
경로
##뚜
##iss
파르
Com
머신
5000
애플
딜링
##사리
도루
##곽
왠지
칼날
삽입
##국제
턱
##체제
뛰어넘
##띠
기믹
실종
창설
##하시
막내
지치
민첩
스크린
돌입
루비
부드
##재판
##웰
##군다
##레인저
##슈타인
참가자
유인
아저씨
혐오
호환
플라이
인디
간격
존경
그렇지만
수호자
##밭
##드레
##대원
##중간
집착
걸맞
여객
사살
##블로
성질
##마치
1950
법원
도박
##드립
시상
##르타
##IP
##11
청소
정통
##또
채팅
기숙사
단축
토너먼트
##잉
허가
트럭
사원
반박
경남
##전투
아츠
##틀리
익스
수면
주차
배트맨
##중앙
드럼
미키
##니카
##즈마
닫
깔리
1983
감추
우정
전북
##60
이종
##ian
##뚝
??
by
동명
시원
킨
아나운서
##다보
##룬
he
디젤
싫어하
##스럽
##쟁이
드라이버
모노
사용자
세븐
께서
부드럽
기상
분쟁
##디움
무라
문단
요약
버스터
첩
기름
##레이크
##ᆺ갈리
칩
퇴장
철저
진압
라틴
용량
BL
##장비
물고기
건국
탄환
##ᆺ카
덩치
##파크
분신
&#
완결
##페이스
##고속도로
작년
자녀
입대
go
플래시
웅
##토미
전제
불펜
그럭
발리
중력
탐험
관계자
빅토
##저럭
##홈
경상남도
아포
공정
카와
만남
##겹
시라
샌드
트럼프
리뷰
##밋
갑작
선제
##언스
헐
분열
##런트
펼쳐지
스위스
##세서
스텔
##ᆺ집
##앤
그럭저럭
오디션
배정
중형
웃기
제트
##Hz
##노리
안녕
##TV
아틀
노벨
이토
헝가리
미만
국군
로이
적중
##후반
아키라
##틀러
아동
학과
사이버
평양
##퀘
웬
나츠
유격
벌레
호소
##꼽
##세대
이와
더이상
##유닛
##ory
소속팀
깨달
축복
로얄
##TE
고지
피안타
구름
태국
##ace
##코어
단행
손상
##rom
또다른
##키지
신전
##밖
웨스트
Co
##칼리
봇
유전자
리타
두르
무관
인질
Bl
##동자
스트레스
배역
##텐도
##켈
코르
도둑
;&#
뿜
휘하
기운
비주얼
닛
어필
##필더
야수
대거
마디
고도
하이퍼
DVD
침묵
##정책
Br
감각
안전하
워싱턴
급하
교차
토니
트레
어그로
발굴
학력
##먼스
##야수
##키퍼
스위치
##ᆺ지
##끝
기동성
드롭
승자
##계열
옹호
꼼
트리플
진학
미네
속이
위안
커플
상식
근거리
Or
##화점
주자
##패스
본진
암시
커녕
갈아
영어판
##겸
##oth
공격속도
부스터
안나
##ows
두들
##데드
결투
무시무시
크림
장거리
솔직
##코스
레지
##셔널
##MP
동남
블라
재단
처지
##미르
요인
카를
지라
##우치
신나
날카
##사거리
세부
삼각
미드필더
##스틴
이펙트
간단히
비치
팬텀
##돌이
##투표
##차기
후퇴
파동
철거
##벳
협회
감지
시신
싹
##TS
시카
보스전
밀어
망가지
함수
할인
관리자
무작위
치즈
우에
큐브
공산당
그린
요금
차체
동급
##ᆺ이
기둥
출격
##틸
##제도
##워즈
##예술
괜히
한반도
열매
##IG
스틸
논문
힐러
개발자
##틀랜드
##단지
항구
CG
바쁘
하우스
무사히
##aw
##이동
185
##륨
날카롭
발매일
올스타
고개
##조직
기재
파편
##공업
최상위
독일군
##기어
마감
수능
실책
간간
##마츠
야마토
##군다나
##페라
끼우
연습생
즉사
과도
국정
##ale
SNS
보충
꿀
##지수
아쉬
마블
지칭
##뱅
힙
부근
원리
PV
파생
##즈니
에서
타쿠
장탄
록맨
논쟁
##ike
##자동차
온도
마일
특별히
마케
더군다나
##겔
약탈
상륙
기세
영원히
개별
람
1945
후자
소요
증상
유성
Cl
성당
임기
인피
선행
페이스북
구미
For
무인
##자와
진주
대치
자전거
막판
##하루
내일
무산
피우
축하
퍼포
젤
루이스
RPG
오키
##사우
부장
학문
왜냐
테일
매번
안양
세계대전
모토
흰색
##OU
여러분
##뮬
방송국
##메가
Dr
##지만
##라이드
만주
유산
데이비드
랜드
툴
요한
첼시
##하이
암살자
서서히
엑시
배출
##ep
##종합
어빌리
중복
신도
출루
소음
중시
##기록
에그
선조
##irl
동경
악몽
##man
임팩트
근대
주류
최적
중국어
##ach
영지
##ile
##든지
175
썬
에반
1981
Sc
BB
우세
##부인
수비력
조리
OP
슬프
줍
승인
시크
102
과장
교과
그날
교실
스즈
117
필리핀
신발
##히트
부착
골키퍼
세번
코미디
##톡
베이징
싸이
##지아
##12
Team
106
만일
노스
##ᆯ러스
끌려가
멜로디
미즈
이브
프리미엄
과학자
##VA
수명
##네시아
LA
사사
일당
플래그
##ink
Sk
지리
##이어
잠입
며칠
고객
##늦
브라운
의외로
Mo
금액
##앉
페널티
ᆯ게
꿰
복무
주니어
##타마
GP
악기
마다
감싸
그레
권위
가만히
교토
라면
헬기
프로토
챌린지
라이플
##므
##어놓
코난
안개
천연
DD
복제
위원회
115
ᄇ시오
권장
김경
연맹
베타
퍼포먼스
물량
##ᆯ로그
미나미
##법인
구별
청와
닌텐도
카츠
##사스
여야
스트리트
원형
질병
굵
공용
소방
조기
진격
잠들
장인
##모함
##ial
해킹
전망
FM
##피해
가라
##크스
건네
##렐라
##오루
##ish
가방
언데드
귀국
몫
##클럽
대조
SU
여인
1979
부실
엘리자
가공
냐면
규격
청와대
개신교
좌석
UN
디스크
##의식
파란색
##아트
직장
타석
만만
최우
응용
선임
오스만
당대
한두
에릭
쟁
억지로
김진
법칙
한일
육상
시그
억제
##우라
##루미
새누리
합계
프렌
뽑아내
인권
##ower
취득
신입
학부
가루
##튬
다가가
통화
왜곡
양상
행방
지팡이
##슬라
우르
궁금
여자친구
##하하
입주
이웃
가디언
##저리
##II
치킨
아이러
더러
##바야
Bla
사립
시리아
패널
독재
긴급
명백
##키리
일화
방치
제독
회색
김상
콘텐츠
체험
연령
계시
##뇨
이터
후임
시비
야간
대단히
혼돈
마물
기갑
프리미어
가죽
공백
즈음
##GE
##우트
캐스터
동계
##여행
##ᅡᆯ린
벙
오마
양식
야구장
출구
##계획
헤어
해내
강점
원조
##핏
하츠
이란
##공주
고장
##호환
수동
부동
변수
주관
수급
김기
##계약
CH
일람
전무
##조합
경직
we
임금
확산
재회
구슬
클릭
부서지
모스크
끊임
공수
BS
##IM
Ne
처참
##!!
감동
Star
뒤지
관여
여학생
마우스
모로
##체스터
##나이트
평점
발목
코멘트
##업체
시합
부산광역시
##ᆻ다
오염
데이트
기후
슬로
질리
##뎀
조상
##딕
독점
비웃
##저기
돌연
##천군
전라남도
##포드
포켓몬스터
PR
기동전사
비비
미국인
##차례
장신
ID
##렉션
##노선
사법
호랑이
사이코
질투
타이거즈
조롱
스파이더
화산
##베이터
나비
통틀
##만화
대포
##번에
나나
가요
Wind
공화
기쁘
##전설
ᆫ데다
에디
##어드
안좋
감상
350
스와
##카락
깜짝
생명체
##99
일본판
##소설
임의
내각
##툴
공립
교도
손오
엄격
택하
과제
up
##민족
평일
우주선
카운트
##야스
커스
리오
##로이드
풍부
피닉스
분당
소송
폭행
출간
청주
개장
LP
등번호
함께하
##자료
마스크
유언
DC
##쿠스
솜
제네
승무원
파멸
노바
War
격차
##배치
캘리
분해
fe
And
약물
전남
복원
##궐
##사단
체감
##래시
신자
어떻게들
남매
서포트
##구미
배달
상한
##세력
카구
머리카락
정발
도저히
##ass
##껍
테라
어드벤
뚫리
만지
##티어
추방
##구조
토지
손실
##멧
##레오
라이온즈
뒤늦
##ms
##me
모험가
성경
원더
360
##리나
Man
치열
오로지
메이플
아레나
장미
재학
112
투사
바르셀
조용히
고소
배급
나노
특전
극도
##전문
마코토
##정치
##gh
구성원
중량
따뜻
사용시
이라크
리버풀
뭉치
에픽
조명
##CG
천년
시인
로빈
##기능
다운로드
##진영
세라
108
##모델
폴리
All
박물관
유기
나마
말ᄊ
스탠드
인력
집합
그중
AKB
##ᆫ헨
권유
##아프리카
디즈니
소용
캠프
##tle
##pp
##ble
분포
##amp
##업자
묶이
일요일
경북
중순
##스테
반감
넘버
스펠
##를린
바르셀로나
##려받
##ft
##좀
충청남도
서클
마냥
하마
패전
고블린
추리
##천사
창고
안쪽
야쿠
##바지
상하이
해산
증폭
자비
지목
##소총
단종
103
합리
극중
수월
##데타
루머
붙잡히
비유
트위치
자꾸
출범
축소
##yle
딜레이
루피
##70
인방
##센스
##ous
폐기
##몹
학기
당사자
##코치
##포니아
어시스트
기력
막아내
조우
##상황
세금
수직
타츠
##now
##제한
릭
##atch
##후보
서머
##sp
전대
보이스
##혁명
##케이션
킬러
넘어지
One
넘어서
투척
Mar
램
본토
집권
불행
##orm
기묘
##스티벌
전당
장사
얻어맞
벌리
##차이
수색
폭파
New
To
오이
##수리
학습
ON
##민주당
여파
직선
승진
##히토
퍼부
세팅
##방법
원딜
키타
주최
##란히
김용
ex
무승부
핑크
##사격
세뇌
패키지
꼬이
낙선
대기시간
나루토
짤
IN
순환
범죄자
막상
##간격
던가
BR
모집
농업
경악
Part
##미터
물체
절차
후회
유의
##킬
KR
부딪히
반짝
수석
리얼
가난
두렵
##닐
배제
Gam
이나
##레인지
채보
##테스
##어트
살아나
##흔
##코프
##모어
SF
실현
토요일
비명
국당
유출
##팽
까이
하나하나
복선
##ING
당당
광산
함락
수립
##토니
극히
헤르
집어넣
CS
##반기
블래
리스트
우호
ᆫ다거나
##비용
엄밀
워커
좌절
##부지
손자
##위원장
포드
잠실
비극
우월
파울
결전
우익
산탄
선사
풋
##라이즈
복합
##장갑
##생기
이라
##ment
핸
PP
하여
쵸
유재
해병대
명목
엎
실시간
##ae
토큰
이동속도
와카
중동
##관광
무술
수비수
인접
##64
자책
128
지향
빨간
장탄수
배려
나요
나르
늙
한국판
##자체
동아리
##ase
기호
하인
지연
레코드
스티븐
마땅
메이드
##ree
##카미
조커
중화민국
쌀
##아들
쳐들
유망
택시
생전
되돌
안심
##라이브
닉네임
분산
피트
할로
##ᆯ드
수염
달려가
김해
신속
동반
짐작
히틀러
철권
불량
짙
의자
엔드
En
루크
##놀이
태풍
울프
서울시
제갈량
##장면
크레딧
끓
때려
드루
##느리
##게이트
슈퍼로봇
사회주의
양손
캠퍼스
연산
확장팩
네티
1978
기부
1973
ᄇ니까
챔
각오
상담
주택
비틀
웨이브
JT
##헤이
함부로
각지
날씨
여섯
암호
레스
기뻐
역습
히메
바론
##트론
기뻐하
합동
유니크
어쩌면
184
근원
##az
조카
돌보
튼
케인
##릴
##도라
엔젤
##bo
거론
처분
센스
##버드
제치
벤치
동해
트라
##키스탄
댄
그외
##왜
첫째
##깨비
공격수
아가씨
스타디움
저하
보라색
뜬금없이
##리우스
AN
오락
유전
얽
알바
호남
딘
World
##ason
구장
호불
중후반
##AY
111
매출
방탄
박살내
수습
체중
얀
220
이글스
도시철도
힙합
##데레
오브젝트
##iki
고증
호불호
명의
캐시
##슴
여럿
교단
183
##저우
사인
대성
말레이
배드
공업
샷건
젖
썬더
퇴각
##딸
거칠
짐승
여전
트라우
난사
JP
시상식
스캔
혈액
사무실
낙하
##ᆯ릿
##낭
깊이
여의
유미
온천
##르드
원시
카자
사키
중상
##아아
여기저기
##ear
So
사야
거든
##실점
##뤼
##성군
추세
검술
조회
네티즌
마계
##규모
공인
##hen
##지기
흡사
갈색
캘리포니아
빨간색
조르
스나이
240
##장군
##나기
빠져나가
꼬마
##아치
노란색
하계
동서
##운트
##그러
찬성
탐사
막강
##MS
##생명
##곰
명문
날뛰
sp
평하
장난감
##이너
심의
보드
모니
##스타일
네임드
##스토리
전날
##사르
##are
시공
##기에
맥주
프린세스
노조
려다가
FW
토우
장례
공감
우유
포장
밀어내
두들기
트루
츄
##스레
케이블
차갑
##추어
토미
장로
하프
GO
체인지
호시
골렘
퍼즐
이모
올드
ᆯ려
히가시
포획
##직자
견해
할리
유혹
아베
터널
샤이
매주
인자
원문
##신문
키보드
베를린
알라
강렬
경호
세리
연봉
스미스
##가다
번지
타이탄
훈장
개척
핀란드
드론
1974
구조물
가두
모듈
돋보이
스쿨
이세
감수
인재
오메가
뮌헨
스코틀랜드
마스
tv
프랑스어
사로
통로
포스터
당기
##쏘
물품
마냥
일가
베테
그랑
아이러니
베어스
마오
트라우마
고로
##환경
##반대
트로피
후반기
##플링
벨트
http
우측
트레이너
##범죄
##주인공
진상
주행
김준
1972
책임지
다투
##러브
신용
조선시대
키미
끌리
보건
워프
##90
##ven
성씨
소니
##ife
시종
완공
토마
흔들
전락
통칭
말기
##츠카
https
##의자
##스트로
사퇴
위로
결혼식
토대
##건설
서바이
튼튼
진급
배수
원곡
허무
##ade
가담
혜택
왕실
왕복
##크리
학생회
##AP
코트
##맥스
##상자
Wi
강경
##연구소
체육관
도라
밀려나
이순
신데
트리거
트윈스
콘솔
로맨
중지
##차리
##머신
시카고
이경
##구간
홀리
스즈키
##요소
##미사
##무부
행정구역
대령
##뱃
잭슨
나아지
연쇄
##요원
동행
쓸데
##act
MB
##버스터미널
베리
~!
##ai
##게이머
##ank
##gin
도마
중부
##라라
적자
덴마크
드로우
%/
산타
유입
##소수
박살나
포스트시즌
do
압력
바둑
센서
##aby
시바
흙
최저
버섯
목사
천천
아바타
리즈
부작용
국도
재개
인도네시아
104
한창
라니
##도사
##out
수여
단행본
##탈리
##아메
탐정
##캐릭
사악
청나라
스텝
상주
Fate
시로
no
이점
타일
영감
교복
소재지
코믹
손꼽
대시
##선생
히든
백업
##산역
이누
##무스
실내
패밀리
렌즈
갚
##에른
##타리
##퍼드
##아라
캄
손쉽
넘어오
깎이
제물
김일
##보호
워크래프트
1975
배차간격
민주주의
프로듀스
##명사
비기
대책
##lect
##그르
어벤
트레일러
알레
LIVE
간간히
도덕
기수
##저런
넉백
크라이
123
징역
설령
리처
세월호
신데렐라
##페르
##높
##므로
쿠데타
##보우
탐색
##총장
끊임없이
##ET
포탄
을수록
등극
범용
입자
침대
##미아
년도
해양
##oll
전동차
약자
실상
NH
페스티벌
저자
끌어들이
##바야시
반도
입문
일주
관통력
##른바
##UM
대타
알렉스
##툼
Up
##루션
##더라
OS
이른바
업계
장애물
1976
##액션
##탐정
노무
필요없
여타
##사우루스
are
마피아
재직
그레이트
레온
전향
스타리그
신중
우치
아비
III
##ork
다스리
성실
이런저런
우승자
오우
토키
##타르
원주민
노르웨이
소금
이어받
최선
섀도우
창문
그러므로
깃발
룸
듀오
Do
##ary
##첸
##에어
콤비
잊히
왼손
##소스
딸리
벨기에
커스텀
##램
장성
Oh
거북
공통점
왜냐하면
아스카
부재
##way
##치아
침투
##시기
카더라
신선
이병
일간
디시
캐치
츠바
119
끌어올리
밀도
따라오
전격
초등
후일
참모
브라이언
맞붙
게리
##넌
##조선
불태우
해머
특급
##ey
관우
##ich
모스크바
이현
동력
사로잡
##께끼
135
스트라이커
109
##ᅦ이슨
베테랑
김수
토리
시호
엔지
올바르
슬라
수수께끼
장남
승차
ES
##프라
발명
##조각
박정희
주교
강릉
Mk
##대교
아이디어
으려는
비전
##장애
##생물
##대기
##세기
왕비
꽉
##상시
탄핵
중화인민공화국
초인
중고
변동
이대
확신
잔인
우스
##으로
보험
아시
##요리
콘스탄
##햄
탕
복사
바이에른
소통
##뱀
꿈꾸
입증
Ad
계수
사천
능력자
당초
다큐
기구
페미니
단발
손오공
lv
형편
한나라당
대학원
프라임
재건
땅볼
유연
클라우
리플
피로
코스튬
all
스핀
Day
##체계
드림
패널티
규제
포즈
토시
##레일리아
##물리
잎
명분
##드래
친절
##끗
AFC
와이번
##루트
##제이
유망주
##다드
구동
##흉
##이치로
보스턴
전송
광선
고종
##무지
##군가
점유
중위
후미
##란트
위엄
부유
nd
천천히
우울
##변이
실은
굴욕
##pt
고는
182
##대문
어드벤처
##orn
흩어지
오더
초상
고무
폭스
대전차
선수단
슈퍼로봇대전
바니
크레이
대접
소대
##렇
갑작스럽
모니터
##시피
##통합
쇼핑
중거리
선장
스피릿
상무
억원
나폴레
강간
##셈
조종사
##가포르
쇼크
글씨
레인저
근접전
랑
##춤
도트
양반
토요
##사장
주일
프로게이머
어색
리카
친분
구상
##운수
클론
중심지
충족
사이클
##ᆺ카이도
수하
휴가
##토시
##ᆺ불
121
케빈
삼성전자
취업
##지능
오페라
센트
릴
초콜릿
영양
일곱
브레
1971
싱가포르
##올림픽
햄
Windows
나폴레옹
홋카이도
##사령관
항해
광물
##나베
FF
라그나
뉘
토마스
달아나
방송사
대동
얇
광장
검토
##첼
소련군
머물
긁
145
열정
개교
우회
##세포
107
##모노
##부키
##ᆺ빛
일관
바지
무공
레벨업
어나
##로마
유료
하급
검열
세로
="
마틴
RA
붐
광기
##마사
독일어
강전
비서
도쿠
강림
까마
구독
무지막
1977
##바시
파밍
엑시즈
##ah
##써
##EM
##민주주의
단검
기울이
동전
##연맹
렉
선박
까지
##구청
맹세
DP
천황
##뉴스
##바이트
으라고
쫓겨나
산맥
하이라이트
공헌
잉여
ML
##노동
씌우
발레
##렌지
사촌
출산
AA
터트리
망명
연설
의학
손님
엘리베이터
##very
스마
##론가
무지막지
##이사
모임
##네마
표절
부패
##uck
결제
게이머
##테이션
총합
그후
발판
봉쇄
임진
엔트리
보좌
타이틀곡
탭
##불가
극대
누군가
##떨어지
흑역사
##라미
현금
관료
##복지
자제
##꿈
##렷
황후
고집
해병
대왕
여포
레일
찰스
겸하
ne
여서
##사용
국제공항
IT
##글링
성배
이대로
본질
##뉴얼
경연
지역구
소모량
김포
br
##긋
감탄
##ph
##모습
Sw
에이지
DPS
지붕
포도
BPM
도깨비
농장
디펜
JTBC
##정지
창립
자존
제왕
대변
210
토하
휠
##궤
평행
조국
간섭
전라북도
인게임
178
멍청
##이스
떨치
질서
##ero
페어
화해
지인
##성능
스태프
##이크
몸통
프로리그
1969
면하
113
인칭
카리스
그릇
".
리틀
대박
안동
##플러스
트릭
카메
##바스
오스트레일리아
노무현
무실점
##ool
껍
토트
외우
압축
와인
##랩
천장
##서스
로리
음료
레이블
165
리처드
동아
스포일러
##왕국
1968
##이나
품질
##ᆺ속
유격수
1963
바나
손꼽히
일리
철저히
##ical
맨체스터
메카닉
##오버
스티브
히라
쨩
분대
##지점
여러번
힘입
불쌍
중점
민중
주축
역량
김유
NBA
시골
체코
냉정
카카오
혈통
##urn
꺼리
큰
태클
디자이너
##ype
Ph
##지오
##ARD
안나오
##앨
인천광역시
##방울
고고
Con
앤드
홀드
2021
정석
파랗
페르시아
슬픔
##깃
어ᄊ
##anc
마그
블리자드
아깝
변태
걸즈
##슛
우루
군수
춥
임하
##즈카
에드워드
##넛
##대왕
수인
나리
##거래
##ᆺ말
매니아
코토
이오
병역
조화
트롤
정사
{{{#
은지
##작가
블로
히로시
광경
변이
드레
동정
##은색
스플
155
박지
도장
신동
파티원
##빡
실체
타운
입사
마라
스미
존중
운송
제재
##리칸
시뮬
Cr
##아스
##ung
출혈
에버
닥치
엄연히
위원장
사우스
열혈
날아다니
이라도
호의
의장
명시
김승
물어
OVA
##조작
답답
울트라맨
변장
##태자
션
예약
방위
국어
이소
종결
##세트
마유
122
Qu
납득
연간
초능력
모순
애쉬
##티노
서울대학교
조별리그
##드컵
말씀
##아메리카
Station
##소나
단원
181
주체
개명
사리
한가
##저항
##행정
매드
##미나
TVA
압권
훼손
너머
스택
##히메
모형
광명
##속기
144
결계
시게
마산
주사위
##빗
초청
파도
카지
얼티
명명
뻥
##위치
이단
미궁
수천
시사
브래
스폰서
드레스
보편
LO
애니판
오지
미미
스노우
존스
엔지니어
프로레
엘리자베스
##ww
질량
##떼
하스
아인
청구
KOF
기차
주목받
소집
강민
절친
촉수
해소
##끼리
헷갈리
강호
금강
##앨범
제노
플러스
아오이
##iver
데빌
오죽
치안
##판정
친척
챔피언스리그
아지
장타
읍
##텍스
at
솟
##렉터
메이지
프로그래
애칭
##떡
이원
지분
방심
작정
사투
##철수
쓰리
##사무소
셔틀
투쟁
##DD
토스
에로
그립
152
덤비
마에
가설
타구
테이블
화상
박성
어이없
패자
드래곤볼
love
지력
##멘터리
##주자
##모션
이틀
##ens
프랜
과자
일렉트
좌측
##뿌
강사
이명박
퍼스트
좌익
##노스케
일주일
##ᆼ크스
as
이동속
민간인
쫒
신학
롤드컵
교리
편리
##시스코
##ost
##중심
사연
##얀
기하
재앙
스크래
신하
향후
##드러지
생체
TR
자칭
##네이션
##샵
어나더
테츠
포터
항공모함
직책
액체
턴간
부속
도색
빌딩
마술사
매각
114
미성
멋대로
엄밀히
낭비
일커
검증
##마니아
유니버스
##ence
앓
용암
1930
스쿼
일컫
##트랙
인스타
wiki
아마추어
그로
학위
지혜
과일
##운동장
##려워하
IM
##nt
시간대
##산동
마음대로
사명
##극장
엽
녹화
변명
아스트
발발
이태
나미
백만
선진
디바
초록색
사무라이
##과이
##비행
from
로보
##ise
외곽
노가다
습니까
##젤레스
에미
의정부
스리
##int
닦
모델링
##쉐
우연
히카
돌연변이
옥상
완화
몰살
이케
라이언
알아채
돔
1920
작위
신지
정성
##상가
둘다
젤리
라스트
##동맹
179
분할
시조
##기스
##하여
선회
!"
실사
성분
달려들
텍사스
##AK
매달리
석유
죄책
##돌프
잘못하
이이
원피스
씨앗
통째
##국민
인공지능
##스크림
Super
##의사
총독
MG
국토
Fr
1940
BJ
##인드
can
##시민
##oy
엉망
##바다
코노
바디
아자
고등학생
##엔딩
불참
버스트
##진호
집계
유엔
아쿠아
슈퍼맨
제주도
www
##ign
정반대
CM
거스
몇번
미오
침몰
적절히
한국시리즈
리스크
기본기
##르도
정신력
에도
##ans
아담
자아
어설
계층
이어서
유튜버
177
은폐
##뱅크
발탁
비스트
아처
##도전
중구
으라
피카
##시스템
##아머
중원
죄책감
##벼
목걸이
##수단
저기
최종전
어스
##가수
##ug
전생
Dream
들여
##쭉
탄압
덮치
식품
다거나
##가요
실용
남동생
혼인
스카우트
124
추후
뚜렷
1967
상사
때로
다시금
이타
총장
착륙
억울
좀더
참사
그해
오른손
##물질
127
원숭이
오노
##직원
USB
감당
흘러가
챔프
아무튼
아리아
격려
극한
대구광역시
뛰어들
지장
인벤
안무
##인사
발키리
갱신
수위
##보병
인성
슬리
this
##케인
##IR
##캠퍼스
##대신
오렌지
##질랜드
##등급
1200
텔
최순
##공장
아스날
##vel
수감
퀵
블레이
##엘라
##워프
450
만능
##레이트
##슐
무용
투기
연전
리퍼
##쿤
도심
저서
##차별
원전
동성애
빈도
중국인
용이
대위
구형
더빙판
고아
민감
문양
마케팅
내버리
히로시마
욕설
각인
ERA
##ode
비우
폭격기
곤충
신곡
##이후
##결과
##uk
##대학원
##VER
컴백
분홍
이노
이세계
##틈
##매치
##시청
##고생
유탄
발각
이별
Fl
사직
##고사
트윈
산소
Pl
망토
풍기
조차
천명
냥
표적
##치오
잔혹
##말로
##부르
메시
무지개
물려받
Ver
마하
상금
제니
소비자
박수
성전
##엠
##젼
##부리
공속
시크릿
녹이
##베트
내외
CE
진에어
믹스
뉴질랜드
관장
전이
왕족
키라
합작
그러면
터보
스컬
정밀
이온
오다
급격히
##베르크
애완
궁극기
가구
시외
뺏기
얹
진동
게끔
##모르
EC
특공
마찰
취재
다비
발급
리모
EXP
카리스마
아사히
클린
결의
##하우스
용자
##도서관
엘레
style
시트
미르
에디션
지오
##사진
이윤
##파티
##클린
미노
가이드
서방
유재석
씻
초점
정점
실존
##테크
##당초
일체
리나
맞히
대세
##ier
얽히
경사
도약
카테
꾀
부스트
면허
개구리
측근
호러
##카스
스케일
코스프레
방사능
독립운동
김구
##보기
신한
네크로
경부
Sch
##도어
격렬
앗
선포
##와라
Girl
Season
두드러지
오죽하
대차
##우주
군요
명나라
골프
##먹이
1962
##앵
##ash
IP
만점
협조
지루
포탈
유우키
아이디
ar
맨유
메이저리그
잔류
La
농민
그루
후쿠오카
DM
##일본
##쑤
##학부
청춘
둠
헬멧
카일
##기준
연소
NO
미러
162
롬
##빼
약혼
피지컬
선동
이빨
황당
절벽
tr
서명
118
자네
페어리
##폭력
##박물관
팡
연동
리라
궁합
반성
WC
##군주
##살리
수신
이놈
이사장
한양
불러오
호드
##reat
1966
##IX
##순위
정규시즌
종전
친애
메일
흡혈귀
##뼈
선로
기질
부시
##노미야
##로프
벙커
고립
##자원
##헤드
기동력
유카
잠기
##ib
복지
혁신
벗기
젬
미정
##왕후
자존심
##장소
점심
에메
중견
철도역
한하
314
돌려주
벌써
러시
오퍼
부작
기리
지선
생김새
유진
##usic
##훼
모욕
Max
위쪽
질주
흥분
일조
정조
반역
거세
웰
사수
사방
대피
##밴드
춤추
스매
##구니
##베리아
고난
##무늬
750
모종
레이디
하사
요미
할로윈
징계
##팍
##백질
##당기
예의
1964
마야
유아
부천
##백과
디스플레이
##트릭
미인
쉴드
로렌
국방부
##듣
##제품
주석
래퍼
##시고
리본
그간
한강
정문
부러지
한꺼
월간
##금지
##딴
Vol
TS
금요일
가위
수중
이용자
DNA
##국어
문신
망설
침착
스파이더맨
다니엘
##세지
기소
토트넘
파운드
##그레
집회
사치
교과서
스나이퍼
필름
Ed
##전력
화폐
##캐릭터
루프
리코
각도
##}}
에밀리
--
빙결
강대
리사
##ose
ld
그쪽
서류
##넨
##대체
아유
천상
서열
교역
우두
카운티
##바퀴
탱킹
##니즘
건지
이야
##도스
적시타
AV
자이언트
##토르
갈라지
##드라마
능가
한꺼번에
모터
아케
두려워하
옴
부동산
##데미지
노랗
김주
방안
원로
amp
소생
자율
Col
##니스트
서적
김지
종로
##플러
여자아이
블럭
##te
트윗
so
리프
기껏
통솔
현자
GM
경성
중소
서기
HE
오만
홈경기
도감
##해자
진단
여태
선원
극심
##ail
욕망
##msys
부끄럽
아랫
영국군
유고
츠키
##ition
ldmsys
불길
내셔널
섬기
사물
모음
##발전
남동
테마곡
함장
애인
샤오
##녹
출판사
학급
서울대
평등
환생
다녀
rd
##시내
왕가
탈환
숙소
룩
감자
썸
골치
Night
##현상
태생
충청북도
##안전
##우지
바텀
##공개
판사
BC
연이
혼합
##들목
초과
워리어
상냥
학년도
키요
직위
not
특수능력
##자카
스탈린
##오피스
##챠
필사
알렉산드
재즈
닐
카네
계절
##기념
고인
줄기
말레이시아
제의
##IL
달려오
협동
김광
학대
##타니
공대
소나
프론
메트로
앨런
아마존
퍽
중간중간
항공사
##ild
유니콘
암컷
뻔하
168
하여금
정그르
한정판
강인
##베르트
##파일
Let
탈취
유메
##ᆼ가
청하
##정당
##아니
살인사건
저글링
등재
소소
과시
페르소나
인텔
##사령부
뤼
안쓰
월호
ᆯ래
깨끗
보강
##바루
급행
얼라이
병행
시범
##ody
프로야구
탐지
유동
돌려
스텟
랄
남양
관직
Black
간판
##프란
법인
159
오토바이
##수라
각국
##다스
뚱
요격
입원
시온
일환
##수준
존슨
희생자
퇴치
##톨
지지율
이행
##가족
도서
박쥐
BD
##해군
요코하마
대검
굶
케이크
전지
카피
##본인
보고서
재배
뻘
##항목
라인하르트
리버스
##짤
문화재
도배
만렙
##등록
##베이스
이념
연고
윤리
맛보
##파리
팔라
##총리
브론
이승만
로키
라틴어
##바리
출동
마도카
어원
동구
노부나가
빅토리아
승패
매그
1948
디아블로
mar
##ough
부친
##수수
삼키
오케
##각형
종영
야당
원판
중재
집필
이천
AF
욕심
##볼트
MM
포션
챔스
히드라
1944
신작
아무렇
##룰
1965
부채
OG
열대
##33
두껍
##지도
아리스
교도소
##폴리스
로스앤
팔레
인쇄
##통수
검정
클레
퍼펙트
전담
포착
엉덩이
##재료
팁
##ㅋㅋ
##카라
RE
배구
협정
##뿔
무능
와이번스
오니
눈앞
프랑크
로스앤젤레스
피자
4000
도대체
##보라
어제
아메리칸
섭취
밀리언
미소녀
애용
쇄
Op
##실장
신생
##이센
어서
##gr
##기병
##결정
대니
성사
김치
피난
진술
본능
##와이
성벽
멸종
객관
##데르
##aster
포크
레이싱
ㅔ요
외야수
지크
아니하
아카네
내밀
점검
##삐
##app
안토니
평상시
사이토
##orts
##리건
##펄
이계
목포
##퍼니
빌보드
펭
쿄코
해운
디오
레나
##은이
목욕
그란
주저
해전
다케
괴인
##uc
##제스
스텔스
인피니티
소득
사용가능
국무
테니스
조립
팅
1946
##연대
##회담
유스
계곡
크래
물자
화석
동북
그리핀
걸어가
로비
##서비스
레버
세르비아
화신
##스코트
PK
##작업
학사
성명
맑
##예선
흑막
##메스
대학생
난민
성지
타로
##삼거리
원한
##어택
수성
##CE
박자
##소문
울음
페리
대승
최상급
독백
##ject
달콤
en
드워프
그리스도
##펑
##OO
강동
역명
EXT
부제
제발
##애나
폭로
##개혁
츤
..?
스타워즈
##확률
김대중
##ari
##뮤직
math
##스티스
컨디션
나이프
프랭크
##팟
평택
믿음
블라디
무신
민폐
##행성
단백질
le
AL
테란
약체
##숲
장판
CR
과금
금발
순간이동
세자
덥
카시
아쉬움
아울
다큐멘터리
편의점
그림체
##마당
어드배
##형제
휴대폰
EZ
낯
확립
필라
아르바이트
두려움
펌프
알렉산더
점멸
수컷
스타트
놔
와타나베
바쿠
전임
메디
##iel
게르
에코
떠돌
도미
아슬
리바
라이너
궁전
사임
유머
##공단
적이
##래스
로스트
가오
테오
한신
마인드
151
##국장
분배
##장고
남학생
뺘
옐로
개막전
##형태
138
꺼지
얄
두루
권하
뭐하
Gu
출석
장본인
가마
으려면
평판
한대
SA
립
스카웃
던지라
숙청
타치
##부족
격퇴
##어인
조회수
##주군
남한
320
172
회복량
##젤리
##무네
직행
모나
##교수
동아시아
GSL
가해자
조수
라라
이쿠
마쓰
신념
플레
득표율
눈동자
년전
무도
막부
철갑
##테스트
##TA
##성이
순천
우즈
퀴즈
배후
주입
얼리
자사
개업
ATK
가령
##ats
호크
단자
##ye
해변
툭
살아오
고사
메이커
고의
단서
무한도전
축구선수
점하
타카하시
EU
##eah
고가
##회관
천국
##인원
315
시련
혼혈
1961
##그라운드
빡치
늪
평론가
##따르
오비
GD
코끼리
티저
최순실
대안
어벤져
얌
##문서
TOP
Mag
158
동상
둥글
기인
##순환
내정
캣
주머니
##돔
추모
##슈트
##무대
얼티밋
강서
그리하여
란스
CL
##모니
하지
탁월
정답
큐어
찔리
##콕
마타
항성
뾰
##꿉
##카페
강아지
변호
배리
방언
AB
##카타
영화제
NT
섬멸
##캣
데미
대면
경찰서
##박사
관광객
ver
사나
건너가
##로소
오공
##재단
응답
##모양
여수
UC
##oh
치고
##eth
악행
호리
투고
엠블
어기
##재기
다녀오
비단
도리
셜
##ron
사가
둥지
하느
##상승
##회복
박스오피스
관계없이
퓨전
찬양
충고
베이비
소꿉
중도
짜증나
##ings
파고
공명
##고래
##미즈
##시키
리믹스
이순신
우승팀
##풀이
경전
##홈런
노릇
조항
공학
독보
시아
스쿼드
쿠바
뒤쪽
공산주의
루마니아
광복
##빨리
##강화
쯔
자작
176
유즈
총선거
마을버스
결과물
천지
그랑프리
데몬
단역
##정식
병살
클라
will
다저스
##무이
카사
섬광
저승
Is
ME
갸
감성
성대
바이킹
구로
흉내
솔저
마저
김병
##inal
유치원
##==
126
용산
##네트
상대팀
##주로
폴아웃
1949
지면
유마
십자군
모빌
예고편
고이
김일성
##플렉스
완벽히
Am
반경
사관
##과대학
렉스
##활약
##내리
김윤
과격
피스
후면
10000
응급
하느님
김씨
도요
Don
우두머리
##박이
균열
학술
전두
##순양함
##ult
##스테이션
국장
미녀
계략
친일
비리
소마
김성근
고속도로
무녀
일각
##숭
154
상시
봉사
like
LE
##부문
수확
거꾸
이광
후유
접수
공국
헤라
WH
이니
보루
흉악
##던지
몸매
{{{-
KB
간파
##고스
트랩
연수
깃털
Time
생태
무늬
132
##MAN
건립
끌어내
##티지
충남
물약
##잎
##덕션
사슬
##자책
어긋
주황
이래저
사망자
삽질
카레
##행동
##퉁
관문
표하
고발
빗나가
신조
반기
타키
##스타인
new
킷
절단
브레이커
세컨
강타
##리스크
군부
##서쪽
##포머
표기법
아테나
응시
##13
컬렉션
서바이벌
쫓기
##ᆨ션
크로아
이용객
쑤
##리스타
##과제
지수
은메달
이리저리
이래저래
##일기
218
오세
라이트닝
손목
역시나
피오
Mi
주식회사
감금
완성도
##턱
##GA
##교차
풀려나
##타스
지상역
##ov
##니코
니콜라
##oul
시어
좌파
급식
##아르
로열
##하임
어찌되
안보
##18
호응
##꼴
##니버스
인채
사일
보복
두뇌
브레이브
##슬림
이영호
거듭하
어느새
짝사랑
양심
##ob
##ᆯ렛
당나라
##처럼
코로나
스터
야망
거지
성직자
신임
수라
과언
서리
##ould
후쿠시마
동메달
마르크
스윙
##맷
##방지
으리
156
드루이드
##루기
##혐
유능
..!
iOS
안드레
승려
##조정
통행
마족
순양함
##셉트
통틀어
Ser
불상
벡터
one
164
##alk
예방
나들목
정우
##결승
핑계
천문
##교도
##tern
레시피
승급
슬라이드
장신구
##yn
139
##던지
나란히
분자
렀다
##돼지
유카리
ᆫ가요
이나마
##15
블랙홀
후반전
원주
몰려오
##미사일
##up
선봉
153
주술
##마드
Gaming
자력
고시
충격파
##뚫
성숙
##reak
##웬
맷집
실적
##엔진
오키나
김두
##티넘
놔두
거꾸로
엮
##der
하츠네
불화
##플라이
벨라
##able
GK
나열
##영웅
교향
근로
고통받
하나님
사이타마
엉뚱
밈
ᆫ듯
츠쿠
열세
능하
##테오
프로이센
로제
신상
전염
무슬림
초등학생
합법
이그
지각
##동기
크롬
카토
148
삿
##곧
필두
쿠라
##무게
우미
컴뱃
유해
김선
면제
샤를
Car
미세
최하
##귄
##ions
맞먹
리볼
##널드
##뿜
##쵸
##민주주의인민공화국
가히
##자재
커플링
차분
저격수
제조사
상의
땡
연달
##공연
석사
하드웨어
창당
Your
초반부
스톡
재질
버드
167
##뱉
ᆫ단
코디
윈드
셋째
##닷
203
스네이
##출연
맞대
몰아넣
마당
풍경
##생산
어긋나
##멤버
하비
천체
쫓아내
##프란시스코
취지
조선민주주의인민공화국
년동안
##사상
SSR
통보
크로아티아
벌금
##PA
공격시
메리트
##메이트
##요미
루리
1958
##노프
조던
여주인공
상원
데뷔전
제너
1941
대등
딕
지배자
한층
##운전
운반
174
동등
포텐
난리
자산
타르
##ull
숙련도
##웹
레슬링
황혼
생각나
##ᆯ리언
주파
영화배우
##덮
섹시
평창
##쟈
##글리
세키
주유
##비시
se
시간동안
천주교
전학
##단계
##껑
Min
동년
테크닉
최우수
##니혼
##랄드
##날두
브라우
코파
심정
샌프란시스코
앞세우
##횟수
시끄럽
이진
RO
142
아수라
##목록
사령부
태조
병과
세례
라마
휴스턴
뱅가드
기법
LTE
##보험
극초
행진
냉장고
토론토
문법
도모
##옌
헤드샷
키르
딜량
떨구
지로
가브리
달인
##러그
스케줄
칼라
163
빈약
과감
쳐들어오
사야카
##차원
깨우
스페인어
창작물
시네마
타당
타이어
맹활약
모의
내면
가라앉
집사
절정
##ube
리부
봉하
##ECT
야마모토
혼동
##서버
1954
제자리
무선
BGA
##라가
염두
상속
연고지
라비
일련
글리
##시드
마미
간지
디비전
콜롬
##ll
have
마스코트
월요일
pr
벅
능숙
넬
무색
연구원
out
이만
상부
만년
들르
벚
굳히
졸업식
##립트
어빌리티
로맨스
지지자
매트
짬
부가
클레이
##구나
##스트림
고우
노비
른
##드래곤
##ICE
마수
전례
이오리
##전트
국기
메모
##로로
범하
패왕
NM
지성
밀어붙이
공로
투사체
정서
유신
앞면
레인보우
##유리
비자
143
오즈
137
##미츠
비오
혼다
##득점
공교
해고
##투아
방침
망설이
쟁이
##문자
##코미
찰나
노골
스탭
초상화
포병
##너뜨리
이인
고추
##정권
무너뜨리
##파워
만장
약칭
하나같이
사탕
##튠
꼴찌
구제
영등
스케이
쿤
매기
##배차
313
영문명
대역
##에트
사소
부처
공짜
환호
대외
따내
한달
워터
##홉
Sum
쳐다보
솔직히
무죄
혹평
스마일
일베
단련
다지만
배율
##메이커
##보그
테리
스피어
능력치
장례식
##갱
오로치
득표수
접전
소꿉친구
톡
##유저
국민당
풍선
년식
강수
인체
HS
##거스
카렌
운동장
박종
ALL
##더슨
##엉
내뱉
캡슐
하도
무궁
CN
##부시
IV
운수사
##악기
음향
주술사
1943
230
본편
스모
카오루
##쿠리
재수
전반기
고래
박탈
아테네
리볼버
북동
평균자책
설마
외국어
알아차리
광주광역시
바비
맥락
##레아
인과
이션
반란군
##미디어
157
크라운
제사
톨
몰아내
침해
잘생기
확고
칠레
133
ᆯ까요
##ᅨᆫ
##FL
##원수
궁수
##넉
##여부
인스타그램
빙의
##관련
오리온
황실
갈구
##제르
연막
설탕
플레이버
스칼
슬슬
외관
un
재벌
##ᆷ마
146
루스
##드리히
수아
모에
129
상어
해역
극악
갈기
딥
##단총
##타우
000000
센트럴
1942
맹독
진하
부스
##반신
##STER
##문화재
##돌파
종말
173
프레스
거스르
##수아
광범위
BO
시모
의의
별칭
전법
우드
힌
##세자
##통일
얼라이언스
음력
스트리머
시뮬레이션
##더링
스타즈
죄수
염색
레이븐
후대
격하
대목
사무소
제인
미남
오딘
##제작
제대
펑크
제프
히사
기관포
가나
진로
클리셰
번식
가로막
margin
극우
know
##셸
발현
테일즈
율리
##왜란
##카즈
보직
플라스틱
유타
제지
원화
앞뒤
운수사명
##MAX
공손
set
지극
##동원
##DX
공동체
구독자
##하트
개판
프로덕션
명사
나카무라
##갸
##티콘
몸무게
미호
##워커
아그
사내
이준
해태
OF
원자력
##잭
시초
화기
박명
##에몽
기쁨
힌트
136
Play
호날두
볼드
##쫓
야만
레이지
구호
폐허
BT
기관단총
숭배
끝장
##무실
양국
##ica
CB
플레임
##che
태권
비참
번갈
멘붕
Of
끓이
##ock
출제
##집단
난투
##권자
##벨트
As
la
년차
잔해
##사태
##YP
지사
빈번
중반부
Red
남미
라크
오바
Type
인명
BM
오른팔
강탈
일러스트레이터
##14
##플로
히카루
이방
##점수
중급
생애
키노
애쓰
##호쿠
강습
##개인
공모
##쿠로
정전
149
다만
원년
스파크
레스토
달래
루터
줄리
무단
발하
전속
탄막
페미니즘
박해
청룡
##프레스
저조
꾸리
표창
텔레포트
대법원
정준
랜서
대패
한손
리뉴얼
운영체제
델타
시오
테레
넓히
BA
공습
##ict
시흥
##테츠
##17
기술력
마카
134
카테고리
하후
연안
림
군복
신관
손잡이
1900
##받침
크리스티
차대전
1956
금고
오케스트라
##이름
##리학
##중국
오키나와
발톱
##지않
맞물리
##파괴
쿵
모든것
TP
처녀
라이센스
##피어
럭키
때려잡
바티
수영복
껍질
얼터
DI
##ster
노말
겟
거느리
바이올리
##ange
##ater
마모
노아
EV
##차이즈
핏
먼지
십자가
산탄총
취급받
럼
타고
이스트
비꼬
상위호환
진짜로
##박히
우크라
##빌딩
방화
앵커
해상도
High
##긴
##글라스
##브레
##운영
루키
호출
잠그
##세서리
##ons
프레데
사와
리셋
##서부
가혹
##사와
까마귀
프로레슬링
##함대
전수
##입구
##처스
pro
레오나
조력
역대급
스기
##펫
콰
##발리
브랜
##정리
##소송
공격기
친정
서치
##연구원
미끼
장벽
##참모
러쉬
직무
프로스트
제이슨
##에스
feat
하치
여장
TE
이호
밀라
불쾌
브루스
아이폰
인터페이스
닫히
삼촌
플래티넘
이때문
위시
성기사
한발
NEW
##딜러
심히
##메르
한가지
추출
태종
김천
수시로
원망
일삼
##싸이
##ple
##메인
테이프
망상
전두환
나락
오디오
저항력
아래쪽
어찌보
수령
므
임진왜란
%.
영등포
박영
미식
로그인
어느날
파괴력
트렌
147
보르
책상
이즈미
안철수
##더기
천공
우기
너클
지난
비로소
Light
김도
스바루
오역
자부
감기
트레이닝
포맷
크로우
경질
##브리드
이력
채찍
AE
##빔
##화학
문헌
외면
280
싣
수소
##인형
원내
길가
당국
##국제공항
퇴역
세일러
덩어리
파랑
2500
##경기장
##숍
킴
드라
찰리
MO
팬티
슌
GHz
##실험
##곡동
퍼시
Gen
복도
##타워
상대식
알프
222
뮤지션
##ᆺ대
##to
CO
무수
카리
의아
##에로
폐선
배우자
증기
배신자
##넘기
##두리
다짐
사당
입국
~"
연말
워너
초래
바나나
##러블
1939
순정
범주
편견
불리우
메구미
최정
해독
발전소
증인
##CC
was
What
심야
남아
씬
하지메
굴러
사료
미쓰
김연
미도리
유선
사천왕
##며
법안
요미우리
따라잡
자회사
치카
보잉
제우스
감행
양대
##주택
바닷
##니스탄
주고
신세계
Kor
저스티스
샹
166
라든가
음색
두명
##안군
데스티
목재
도우
##유지
1959
지요
수상자
##ics
1936
불가리아
오프라인
순찰
페이크
긋
특수부대
연기력
차림
파스
입시
개그맨
##특별자치
멀리서
물어보
##패드
깃들
##용차
##ACK
Heart
지미
크리스토
청원
흑마법
Tw
##대부
제리
단기
타우
##les
심화
프로그래밍
무자
##ᆯ리티
도쿠가와
LOVE
경지
반론
북구
정교회
oh
수지
공자
1955
GPU
일산
테일러
영남
##ex
드리블
용의자
##파이트
거르
##체인
##BM
한성
##어붙
##노카
전광
만루
케리건
##칸센
직통
트랜스포머
##힘
퍼붓
##레일
##바위
진도
NHK
AG
어벤져스
레스토랑
어레인지
##사전
배속
재임
낡
##레티
##조치
냉기
팩션
##터널
투성이
브레스
명탐정
퍼센트
바이크
##누르
##빠르
Mr
마르코
사육
##윽
치바
그리드
숙주
착지
슬라임
격리
어린아이
Blo
롤링
페르난
미숙
종사
둘러싸이
메세지
PL
준공
##당시
체격
타이완
여단
##기획
겨루
탈당
##lass
미스터리
프랜차이즈
한복
더구나
주되
##행사
아아
달라
이데
고음
무명
일어
뒷면
##16
무식
##메다
강세
##아슬
##프라이즈
틀어
##플라
FPS
협의
보살
패스트
아이스크림
MK
##연방
방벽
##해방
세컨드
##AND
##귤러
고스
콘셉트
TO
번타자
정신나가
교대
유대인
아랑
회담
##자동
아슬아슬
이과
쇼트
팟
전열
##니트
Par
소령
하이브리드
남자친구
미아
쫓아가
현직
##nder
땀
생선
교통사고
##볼루션
1952
##실력
미모
진리
time
운항
직격
엘더
항모
이동력
인구수
주차장
##고시
전반전
되살리
##인구
정교
##사냥
뇌물
하하
준결승
술집
ll
330
스콧
##문트
최대치
##기인
내뿜
반군
하반기
지표
쿠니
270
##성장
신칸센
웨일
찌질
##포츠
동사
한해
##ors
Fe
스트리밍
얼어붙
표식
야마다
통증
##메일
모양새
카즈야
##ME
가르침
접어들
애국
파손
##나스
##건물
안습하
LED
자질
##규어
사나이
회계
시집
##자이
몹시
광대
경선
##무진
입양
둘이
허브
쿠마
휴게
진형
##청장
웜
##티오
심상
뚝
##미션
더욱이
서민
교정
미들
1947
GTA
멋있
파격
아카이
두근
바그
##포로
#!
죠죠
##체육관
방공
리가
파문
225
덕후
비키
##리다
현존
##모자
Good
후루
응하
##무사
오타쿠
적재
특훈
마기
##노이
##캐스트
##팝
윈터
신주
##퍼트
소리치
##펀치
갯수
리자
함성
넉넉
말년
부당
골목
##폴리
테러리스트
##코인
##대륙
양측
파키스탄
재빨리
##산물
섹스
우산
##두사
Per
백화점
헐크
제단
평안
위키백과
자각
공존
##황후
쐐
ᆯ라
서두르
스내
공격받
저희
##려보
##개조
마마
##카제
##투르
쓰러트리
다중
우물
##툭
에메랄드
뱉
박상
다이노스
테크노
기행
카를로스
얕
사랑받
핸드폰
냉동
자칫
볶
카이저
##니치
무비
프리드리히
서해
##메어
책략
월등
애틀
하행
발간
야전
맷
##캠프
여배우
SL
짤리
프랑스군
am
##HT
사지
스치
나인
담임
정형
소설가
##브로
##주리
로테이션
털어놓
##장관
##카시
상쇄
소규모
라파
##통제
워크
버블
츠카
적색
260
장원
수도원
##eep
개미
급히
발렌타인
1800
악곡
##강점
다면
이드
메우
##찌르
MSL
미하
##클릭
##파라
하와이
차이나
저거
히나타
##군단
##백화점
꿇
후드
레이어
헬리코
꼼수
군림
라이즈
웨인
1919
##충전
복용
호투
아타
엄폐
단식
##레스트
분쇄
##흘
장편
IIDX
몰아붙이
##바키아
잡몹
##캐슬
##저드
##얼리
서태
중학생
자켓
여캐
##ott
##현우
##진화
Kn
ab
차용
두목
몇년
필립
실력자
0900
Li
일례
ㅓㅆ었
##똑
미유키
지부
솔라
##사정
동조
배리어
쳐내
EBS
눈빛
초중
군데
꿰뚫
카이사르
벚꽃
wid
채취
되게
직속
시시
대행
Wii
유지비
휴먼
이례
##장난
두가지
심연
레슨
ᆯ려고
프로토타입
##앙스
전국동
원장
보디
앤디
추궁
간호사
##리오스
화약
시가지
인문
로저
This
ㅏ야
훈훈
모던
##일으키
프롤로그
ᆯ지라도
양보
길거리
징크스
즉각
본가
##IV
##프레이
유방
도어
컴퍼니
산악
더라면
Baby
##25
안성
##IK
중성
타고나
화소
공천
##단위
앰
라던가
재활
유니온
그라운드
##anna
쐐기
미끄
출고
##푸르
치마
##테라
단선
냉각
스크롤
유벤
넥스
김원
병종
기함
셰이
츤데레
HARD
Sm
소매
사투리
실정
트릴
요르
증발
럴
ONE
소노
##부사
멧
##갤러
더미
불평
유코
히데요시
떄
##니발
결정전
바닐라
부류
방울
산화
1953
리터
##폭풍
##등장
##화면
무고
웨폰
지문
##용사
##델피아
교훈
에필로그
근력
베기
상행
믹
적립
탄탄
라구
무사시
GN
유승
1938
##웨이트
##사실
따돌리
##other
필라델피아
스파이크
템포
##강점기
복음
리부트
##럭스
Rock
이화
클러
원작자
단말
169
us
##겜
랜스
##채널
##19
비아
운석
구절
차일드
발라드
아르메
프로세서
##플리케이션
에레
선형
관절
오클
격침
다이스케
##아주
줄어드
그런것
거품
배열
교내
방어막
말소
550
##쿠니
부흥
야외
범행
고산
홈즈
동이
인디언
뫼
허위
면접
정계
리바운드
##토리얼
릴리스
첫날
width
일품
신흥
참으로
##icro
Live
에바
박용
##살인
양호
##방위
상호작용
태극
헬리콥터
##리지
요우
멜론
밍
##서기
받치
밀어주
악령
피드
파이트
러닝
엘리스
##전공
##정신
Ac
팜
축적
왕관
퉁
노트북
죄송
런처
겔
##따위
온몸
이카
##ins
뉘앙스
후안
##심장
##시계
##그대로
육지
실천
꽁
##oss
성균
오락실
유배
##ru
DB
패닉
본의
물리학
대중교통
##자유
영동
토비
우파
호세
고든
물가
희대
밀레
##차지
##던트
말미
실로
프랭
책정
시가
뎀
좁히
화내
##ᆯ로지
수평
불문
멀티플레이
##회견
술탄
일일이
연금술사
자루
존대
가이아
cc
주거
키드
황태자
##하드
장안
카게
##멋
수용소
##부상
발칸
지그
연세
트러블
##시지방
밀치
OK
##gain
필터
##ction
Blue
쏠
쇠퇴
뽐
Dark
##EL
비즈
베스
1957
잊어버리
##시지방선거
호구
브라더스
정체불명
가창
##정원
일제강점기
KTX
##리가
제보
##현진
##킨스
경쟁자
페이커
갈아타
영화관
윌슨
##로이
살피
난무
부여받
##0000
은혜
그레이드
냅
원활
""
직결
##걀
##분야
남작
방호
##퀄
페이트
렛
속박
##가치
의석
우루과이
뚜껑
할리우드
장풍
사탄
Champ
방송인
로컬
석방
##네이터
도라에몽
미라이
##na
파이프
진정하
RC
중기
유니버
상공
박재
Im
동호
##가이
Sun
##ood
탄소
도시락
##agon
원흉
##UT
##어쓰
전국동시지방선거
성수
포니
르네
요하
++
##피드
장제스
저술
OCG
우천
음주
진수
켄지
Can
북극
##테이너
주무기
##쩌
안그러
하시
시부
가축
빠뜨리
쫓아오
Bat
깨알
유비트
MHz
back
##미치
모친
열악
옥타
동지
슬퍼
##ky
누명
화염방
DR
공신
실루
용감
205
플레이스테이션
질풍
신병
펭귄
탯이
넘사
푹
쓸데없이
버릇
좌표
팀명
기술자
쥰
파벌
특이사항
김명
이창
농사
##판매
권능
갈라
요시다
어워드
채집
멘트
바이올린
강팀
독서
브론즈
아까
##크리트
na
플랜
##프터
미니언
주고받
미성년
연루
깽
##휴일
Summer
달라붙
호박
##자치단체
RP
반장
이질
본성
##이자
흠좀
우편
구타
튜토리얼
##ty
불러일으키
교육과정
하부
찢어지
클라우드
한국군
##irst
분홍색
오시
게시물
이속
한미
무제한
식스
성비
제작비
정재
장동
편안
##DS
포식
반짝이
야심
자발
넘사벽
##아래
바바
발차기
첩보
한탄
##내용
##르기
##슬로
니코니코
슈가
##연기
##ady
타카시
게릴라
텅
카우
진행자
##구단
##베르토
##land
천마
Korea
##때로
헌신
짚
공약
쥬얼
흠좀무
솔리
시구
Music
사족
##석민
기괴
소실
엿보
말아먹
양키스
왓
마트
회로
돌아보
아르카
밀집
유라
유로파
빅토르
모범
요리사
충북
사안
슬라이
유유
##캡
##공신
아울러
자처
프린스
##그라드
아루
부관
히카리
##부장관
BEMAN
리키
왕좌
자손
레이첼
매달
저것
어미
1914
바오
롤러
선우
유나
줄줄
반환
호르
##블릿
대전광역시
개칭
동족
##징어
기자회견
결함
하워드
BEMANI
##다카
금색
유정
제구
빼내
요시노
웹사이트
##OID
늦추
넥서스
평균자책점
##예프
Fire
##동네
반대편
파워업
시외버스
##밑
카디
나레이션
설상가
해운대
악의
설상가상
소비에트
##라이어
레바
##뿌리
유벤투스
후예
##테나
블래스터
OB
리리
카타르
덜하
홀딩
now
타나카
남발
가의
##푼
신수
안산
필연
일레븐
표본
유난
민정
650
에스파
스파르타
세레
반항
대군
합하
##커녕
이복
지름
나폴리
대진
말그대로
##듈럼
데스티니
##나드
##츠나
교양
전전
함재기
친목
킹덤
211
나사
연하
##주공
만회
아이리스
총격
밭
환수
##히사
##저것
펜듈럼
##싹
슬퍼하
간호
##콤보
호기심
##ium
유영
프로모션
윌리엄스
법학
휩싸이
##블레이드
##고야
버터
##차트
로스터
여권
##갤
센티
잠재력
##뿐
목동
##폭행
사모
미로
##진흥
##빠지
카마
회귀
싱어
GG
후타
아이유
야마구치
Life
CA
이도
보트
동래
걸음
불신
힘쓰
##데시
##준표
봉기
스토커
기피
회고
3164
##ush
대마
경제학
첨단
특이점
##비어
진나라
대국
뒤통수
농락
서독
원천
STR
베지
루이지
##자르
저주받
뷔
입법
주파수
##기야
장갑차
춘천
부원
여관
조준경
대표작
주심
##테리
Ma
##순간
##ount
콜롬비아
후궁
피에르
중년
만행
어설프
파산
##파르
플로리다
형편없
빈틈
##ᅥᆫ지
창시
스콜
가성
But
리우
박찬
1951
생산량
디스하
##기리
목적지
까닭
강행
일렉트로
쪼개
베네치아
Just
동요
베일
별점
204
조직원
##수정
여정
동로마
당주
아이작
선곡
##크라이
##산화
라우
##못하
서초
백신
뭔
수식
스크립트
##불능
똑똑
태자
성균관
진행중
농촌
체형
귀하
##뽕
진구
칙
깡패
개개인
일본식
염려
선제골
적성
등교
##지리
DX
##CH
오마주
혜성
지극히
사로잡히
##니르
발광
북방
박명수
마초
##의학
특허
Ste
복면
장학
자본주의
하우
올스타전
day
박경
Sy
##ger
레이너
귀중
해적단
독수리
냉전
감전
##청년
캔디
구마
##횡
이것저것
##흙
로저스
총괄
##빅
##퍼런스
생물학
FFF
인어
대대로
정립
베이스볼
하스스톤
pt
열등
한숨
대각
지상파
진군
Dance
디렉터
쓸어버리
헥
감히
나이트메어
선방
첸
이반
##트롤러
피카츄
FB
험하
##장이
준하
Gold
리아
끼어들
전자기
수수료
산책
현상금
개연
CON
마요
중추
새우
##초교
##퀘스트
##수원
송출
행방불명
##마침
분장
아토
가급
마운드
기온
네놈
##베기
Grand
청산
츠바사
선대
남극
주황색
이은
실루엣
Pre
##ᆯ럿
콕
암울
젤다
Ev
히스
오피
사슴
1600
구단주
미즈키
명곡
VOC
설화
달걀
##ne
##ally
##서리
HK
##ution
가미
증가량
계란
계열사
핸들
전세
힐링
LCK
차후
파우
마신
대쉬
입체
경감
##지휘
##켜
따라다니
사르
난감
##양군
플루
##하우
경과
커트
##pr
엇
망원
일진
홍성
괴상
##리히
밧
괴력
고조
밀란
##경찰서
심사위원
메이플스토리
스이
가브리엘
광전사
슬레이
이적료
도전과제
이용해
세세
스킵
우타
천원
get
아델
사범
내걸
##스크롤
##제일
주가
렘
심문
##가타
박진
##후군
##얼거리
스윕
라임
루미
고분
월급
자격증
TW
Over
논하
선고받
시타
##천동
##체국
도검
석상
대사관
로이드
신정
기타리스트
이노우
구두
##패턴
1937
인트
에우
체스
##드릭
습관
교시
마주하
##ator
아프가
ARM
플레어
##치료
때마침
고질
더비
##니클
##식품
사역
소우
꽂히
목요일
카이토
일어서
beat
오쿠
외롭
홍진호
오리진
부호
수녀
잖
애드
정의당
해치우
광속
편찬
내수
동탁
폭동
##신기
UF
ᆫ들
##조약
출근
손톱
##엎
고토
진성
##취소
##스퍼
DJMAX
페루
##air
수강
예지
Sec
선구
총재
음악가
카르마
접점
개인전
우마
총열
석탄
##걸음
화나
다이너
마차
tvN
공익
시중
어리석
차선
은밀
일절
북한군
속력
리쿠
완구
처절
출연진
##십자
기성
유무
프리미어리그
차관
아홉
우지
호프
셀레
남아프리카
출중
러셀
열기
열람
그런거
교섭
피고
예언자
##젯
추기
뽐내
주한
BBC
임원
뒤덮
##유산
출루율
Out
##마시
지중
조원
##공격력
부사관
김형
느니
##링크
입힙
코바야시
수락
최영
##서린
헤매
비타
실업
##페어
맨손
포효
##inc
금호
##듯
##ᆷ없이
소피아
괄
리츠
치트
우습
슬로우
그려
##매매
간략
##대군
이변
딱딱
투하
코마
##꿈치
수복
금화
##작품
안면
고령
##함수
##헬름
##재판소
##격포
단속
수량
신축
커비
모닝
검은색
아프가니스탄
El
노엘
Dis
but
Win
##아서
클라이
프리즘
기복
유틸
파장
유난히
##더스트
보우
##거장
안가
VOCAL
##르바
수요일
아줌마
##삭스
##실리
##...
군함
창업
되살
##라비아
야기
점거
천계
ᆫ다던가
스냅
저렇게
새누리당
키즈
한스
사이보그
쫄
##ART
라이드
항아리
제다이
UI
시몬
##셔츠
##ᆺ테
백색
하원
용맹
##전함
자신감
##use
스틱
사스케
세션
외래
##터지
이정도
스텔라
켈리
sc
6000
향기
성도
Mon
##로크
김두한
##벡
이에
제휴
##나가와
이형
아부
호전
수험
##담당
퇴출
HG
모리스
워낙에
노려보
자진
##파니
끝날
미지
오래전
##ring
##여지
##병력
조영
배송
킬로
픽업
##XT
카인
man
~~
##LS
##덟
천둥
전년
Af
딸기
아드
접근성
실명
평원
전도
평민
하의
곡선
예명
완수
정동
컨트롤러
Power
후딜
##매니아
차남
슈퍼아머
루팡
##나르
##경영
변질
뺨
탐구
헤어스타일
만료
##ina
##퀸
몇개
리바이
Res
하리
때때로
마니
부과
동문
##역학
해임
매수
스토어
##하늘
아이오
##소프트
장기간
중견수
치이
극초반
경희
고자
##설정
380
위나라
내야수
달빛
##콜라
퀄컴
At
판권
토오
히토
어쌔
정벌
못지않
##내기
질환
경매
영리
##금융
OPS
##라트
연회
푼
}}}
전리
단정
듀크
허공
무상
학점
256
속공
태블릿
사출
혈액형
대인배
SCP
NG
분화
딩
런닝
성형
연발
러너
북미판
가소
방과
안치
##모사
##타케
신원
노래방
무스
대공포
##상대
명대사
Fem
쩔
여당
회오리
아카리
스캔들
물들
이성계
##봄
스피커
마누
##식물
적발
이동하
##퇴근
섬세
부평
##광장
캐서린
토마토
이야말로
혹사
일보
세조
##구스
콘크리트
동참
##캐리
맏
##ittle
조제
##신경
기합
볼프
회심
원고
sm
가와
인종차별
직역
##변경
단숨
스커
뱅크
입성
김영삼
##데기
앙리
Fi
MR
파수
투기장
매진
라미
김택
MX
##기시
시치
##보도
하드코어
동갑
베니
어쌔신
각기
영조
자취
플레이어블
고베
##회전
##클레스
옵티
##수치
노블
교향곡
가급적
한도
Sing
##좌석
윈스
##셀러
줌
1910
FL
행정부
##쏠
##ᆺ잎
존속
거니
고안
단숨에
아이언맨
##ERO
설계도
SG
케이지
조그마
문어
##de
카지노
스팅
망령
경찰관
##be
##출력
gr
##나시
##교자
통용
스네이크
지주
쎄
빅뱅
##ello
건재
젊은이
애교
세미
타치바나
근성
러시아어
매너
어우
대본
할당
MT
부추
미수
아르메니아
부리그
배기
승천
##reen
SV
악하
##비우스
##ual
타국
집중력
##고쿠
호무
상류
악용
조력자
미사키
포토
궁지
IG
##슬롯
넥슨
##리아스
볼륨
파업
강연
뒤이
크리에이
적진
괴리
##선언
김정은
##날드
절규
##탱크
부도
상표
입술
마에다
반부
허구
오아
스완
오인
내구력
나고야
학계
강성
아멜
병합
피치
분만
##리어스
매개
색채
궤적
##산군
사찰
막바지
낙인
MLB
그닥
##황제
##기동
Pv
오피스
소동
건전
Rem
다기
라지만
저상
노조미
프렌즈
이안
성서
우상
줄거리
퇴사
소환수
광탈
군사력
돌격소총
중전차
##방면
영미
##공무원
표방
고장나
##단장
슈퍼스타
Ep
가뜩
당첨
코스타
네타
선인
샐러
##ational
모스
##교차로
유포
999
##기계
현황
피드백
##괘
투신
##긍
거제
##체스
스태미
돌려보내
원격
##riend
##노르
경기수
##af
##의장
##ars
꺾이
사사키
##bs
하위호환
어퍼
욱
팀장
##질기
Vo
무궁화
##가르드
##IE
정렬
연예계
둘러보
보구
깊숙
한모
가뜩이나
돌아서
##보살
채소
##패치
정확도
##어먹
##파치
실장
초당
급기야
억지
미시
고려대학교
가명
쾨
##ivers
베토
주방
자유자재
소용돌이
임관
루카스
##인식
드라큐
히토미
악어
홍준표
##고르
##외선
##목적
##한정
##교환
투니버스
##되게
태그팀
아폴로
고릴라
VOCALOID
##무트
인벤토리
동체
제후
서울역
고양시
IDOL
악랄
그려지
풍자
##녀석
숀
##렉트
발악
##로리
Leg
King
카오리
##노기
클립
맥도
추기경
##평군
소절
##분석
관동
폭딜
펠리
동인지
HT
YOU
김희
격전
BF
세탁
분경
튜닝
just
출몰
선발투수
##맨더
##산면
##라이터
깽판
초선
상용
샘플
##준비
평정
크루즈
에이전트
##릿지
쏠쏠
버젼
샤워
##리조
제라
집결
극소수
거주지
되살아나
##송이
##SS
모호
피라미
왠만
School
##MC
##계승
모방
기스
콤보가
Miss
속편
CEO
##러리
1935
끈질기
##장교
##라이프
수비진
네코
##atic
##콰
경량
샤프
UFC
광신
##라이너
Rec
GR
##비트
정자
비장
합창
방어선
스플리
##페스트
서정
what
극딜
나이츠
허리케인
???
전과
기이
스타팅
뒷받침
1918
##미술
##ern
새로이
참패
밀접
오로라
##itch
치명상
##산리
이치고
최초수록
결장
##ts
네모
쿠파
철회
STER
##전일
무빙
1934
카에
사위
차종
코타로
Che
페인
도도
서킷
김창
##제리
코이
131
##무니
마가
##넥
철갑탄
부럽
반갑
ADV
'''
동계올림픽
팍
인맥
재난
수원시
레닌
뷰티
방금
##부수
연호
이누야
공방전
발상
당분
우아
광저우
##르노
한심
피처
무효화
인내
핵무기
차장
##후미
운운
천적
##살렘
창의
End
운영진
##대비
조폭
예배
반다이
클레어
VR
다다르
역병
##rain
응원가
조교
Ge
쓸모없
Di
개발사
한가운데
아몬
##도구
##디스크
생산력
미야자키
##정관
캐리어
득실
제시카
가호
탄도
화자
도리어
##에너지
표출
퓨어
Air
밉
##비언
행렬
자주포
##크라이나
##tr
코카
살상
니나
타다
##루살렘
##서야
함경
눈ᄊ
굴복
솜씨
##주카
여고생
소피
기획사
불러들이
별자리
##고등
알고리
경유지
조류
단골
로브
경신
맨시티
전교
##니지
일자리
매칭
##류소
##oot
Mod
방황
든
줄곧
뒤틀리
올라서
일개
로만
추대
if
트로이
유토
##파이터
콜드
마르크스
발사기
빨강
요동
레이나
기미
키사
양파
무성
리턴
추첨
멀쩡히
소극
뒤집히
세간
게임기
양주
청색
국정원
키워드
마이너스
##구멍
보증
##전이
정명
여진
그리스어
카가미
못쓰
야쿠자
실무
친선
아포칼리
이노우에
가득하
화합
##ren
에일리언
발전기
메르세
##변속기
무언
서장
토로
드라큘라
한중
타케시
레아
탈리
억압
##처분
##방패
col
##학회
상임
노이즈
##비안
디디
작별
흑백
자판
엄지
공고
##UE
위탁
##려드
EMP
욕하
상반기
소서
권고
우크라이나
##플레
소진
취직
카즈마
불로
##55
쇼군
알고리즘
##보정
장타율
부풀
우츠
PVP
부식
명령어
##끌
교관
흐리
솔로몬
샴
##UR
훅
임상
카스미
독성
벽돌
도피
한몫
사쿠라이
옵티머스
레몬
방정식
넓이
##걸리
##rist
night
스티커
동창
민원
이문
미성년자
##ony
##일리
##카운트
강유
여론조사
##ma
점사
Sound
서사
##변화
국산
POP
예리
##쿠마
##수엘라
느냐는
어드밴스
빌라
도미니
Hy
예루살렘
청주시
##영역
##이야기
토오루
강판
비즈니스
##정동
##필살
배상
##쯔
카부
스타크
무작정
시드니
수고
만류
피겨
##반응
수준급
뛰쳐
##의정
왕궁
직관
착수
하세
블루스
워드
##블랜드
홈구장
##스부르크
각색
##요금
성문
진가
서원
랜턴
블래스트
블라디미르
##폭격
성채
불멸
##진행
토이
##어찌
##iew
##수입
지휘자
킹스
주범
토착
안도
DO
그놈
메꾸
송도
##눕
스퀘
신체능력
포워드
챌린저
볼리
##샘
메르세데스
don
##ope
##준혁
사사구
##축제
좌익수
MASTER
작아지
공휴일
빼돌리
##호도
분전
출퇴근
한국전쟁
소녀시대
상장
##바인
간선
치사
포트리스
##큰
글렌
##밟
##암동
MD
EM
자크
프로듀싱
정세
코지
##투자
##ana
직업군
디펜스
나날
인테르
여러개
##장판
징징
령
##정역
소설판
##블루
골리
나기사
과부
##atale
건축물
##고교
민법
법무
에이미
연금술
미스트
티베트
견인
##화기
개관
카탈
하야토
미코토
##해머
##도니아
설비
##낮
일쑤
유소년
사극
애틀랜
으리라
미끄러지
굳어지
화요일
일부분
레즈
퓨리
Femme
현명
##oon
사다
제멋
기관차
조지아
단조
##카쿠
##리츠
합당
빈사
조운
##핸드
오일
베토벤
이씨
##비키
의거
똘
섭외
자민
손아
SO
중앙선
Cat
스위트
드릴
안토니오
way
##여자고등학교
정유
노숙
총애
길들이
과학기술
정인
공지사항
고독
##ox
신디
BAS
살인마
##유기
##실록
어찌어찌
대출
##ield
반말
사이좋
천도
손바닥
기술배치
여의도
유목
선공
##덩어리
##명령
금전
마사키
들려오
실황
bl
흡연
진흙
단절
얼핏
##22
숙이
연구실
애당초
파고들
사우디아
학번
##레이스
EA
1100
국력
레스터
궁병
이윽
미지수
##뽀
티아
채굴
회복력
극찬
스퀘어
1932
창원시
겨누
이누야샤
WE
자잘
함포
언행
##에고
친밀
##뭉
타협
서인
##olog
도사
해리스
##각시
군산
즐거
1931
비례대표
1933
XP
베네수엘라
##거진
역설
엣지
##투어
데이비스
보답
복종
겉보기
사에
##연상
팔라딘
양팀
댐
이윽고
성추
병장
내려지
셰프
카린
확연히
되돌아가
##화문
걸작
##사의
연구자
가치관
누이
아치
재혼
학업
효력
로프
화가
##코르
##흥민
후일담
등산
##레타
##Fatale
그래프
대파
자바
FemmeFatale
해커
복싱
##시카
방학
With
든가
Hard
콜로니
Run
다던가
자연스레
서북
황족
전리품
##격투
크립
교란
육식
잔디
금성
##수지
##언정
후후
컨테이너
XXX
지중해
병살타
렐
다나카
##화력
프랑켄
그제
초토
쿠르
링컨
회화
##레즈
##쿠버
오너
몬테
카구라
CT
김전일
##구나
체리
비판받
성폭행
##분해
악장
마모루
##AA
마티
피곤
직감
말장난
연의
양도
콘티
##튀기
##ᆺ거리
##꿀
보태
위화
##날리
대두
엇갈리
소심
후유증
낯설
오디
빅터
##스쿨
##소개
백미
매복
340
도전자
실험실
고폭탄
리안
허세
욕구
Not
흑화
오재
급속
미셸
##자스
##업무
술법
쾌속
벼슬
튀기
클리블랜드
탈옥
차세대
효과음
아벨
서드
App
##먼드
##elf
경쟁력
Rev
##똥
테르
##텁
성기
앨리
##ouse
칭송
제정신
오징어
진료
RS
##평균
무찌르
아즈사
행태
1928
설득력
사우디아라비아
조형
신이치
자문
##게리온
폭발물
214
매스
손녀
갈리아
##퐁
가솔린
본디
총탄
CCTV
기간동안
아이즈
기마
배분
RG
자유주의
셜록
전념
##우먼
키리토
고원
브레인
재사용
##ᆷ돌
전태
본국
환각
조선일보
dis
경인
히노
다단
장병
사면
씁
중심부
도널드
진작
##비오
다정
숏
유교
육박
##디자
Da
##투사
##박쥐
자가
동봉
##광고
마징가
브라더
든든
압살
유한
손흥민
들이대
##고로
피츠
카노
하쿠
징병
첨가
##75
피라미드
VIP
##넓
##바ᄁ
첫사랑
청량
치중
캡콤
아티팩트
뾰족
##마니
추적자
##훈장
쓸데없
연세대학교
양현
평면
게재
장래
자카
##종합운동장
세일
충성심
SHOW
피신
입맛
설레
스케이팅
바주카
좀처럼
세나
리베
추석
##떨
애완동물
북유럽
리온
강적
횡단
듀엣
##전환
두부
##완성
잠복
가출
조달
토머스
민족주의
아역
한조
##블러
결별
네메
UM
##미코
원호
##라면
##보건
의욕
증원
앞마당
##둘기
반칙
예술가
Elect
악수
두께
성공회
스테이터스
폴더
##테인
꾀하
마음껏
꼭두
순진
시에
성모
임창
RAW
걸어오
사마의
물려주
재고
사용법
순조
시궁
번영
텀
넵
스펙트
공성전
어처
선체
호노카
크로니클
윈스턴
햇
데이브
난전
광양
교차로
아지트
기장
패기
허영
co
##ORE
흑마법사
빌미
##컨대
Ke
141
실험체
She
미라클
살라
310
리플렉
##공작
병영
에반게리온
대용
##배틀
학창
온화
족장
생사
김혜
8000
하코
##여고
토탈
여사
##당하
안보이
스매시
오스카
현행
농어
##we
오의
리마스터
##ecial
아이카
간행
##푸스
##레미
시그마
울산광역시
무소
팔찌
임요
도르트
##메탈
건의
혼종
패미
구급
워즈
망가
불가사의
리에
Get
레지스
연희
아종
정은
##스톨
##지부
도호쿠
저번
변종
초식
스플래시
존댓말
이선
김세
##슘
저격총
입학식
버거
라이징
##오우
유하
입당
액세서리
양념
늘어지
덫
남구
브뤼
송구
##asy
전편
##시온
아포칼립스
대부
점포
승계
##ane
동대문
라거나
##코올
로딩
랩터
부화
##66
승부차기
새해
박격포
미니게임
틀어지
서식지
리모데
사과문
폭사
앞쪽
넘쳐
##its
패트릭
DT
##대대
표명
Ang
유감
여덟
칼럼
콜라보레이션
무자비
world
##보리
퍼뜨리
제이크
##엔터
플래닛
코토리
포털
완전체
##틀링
##28
##병호
에리카
##명칭
어처구니
그르
임요환
대잠
타노스
껄
이동기
왼팔
##과목
외출
그밖
커먼
안장
시위대
##현장
##짜기
1924
불사조
채팅창
식신
작살
애플리케이션
메테오
뵈
울음소리
대상자
조율
##꼬리
선진국
불어
white
##로즈
##제트
바스
카무이
##증가
이신
민병대
480
호로
##학위
재위
공중전
##해제
봉황
##쌀
열받
악세
득점자
당당히
이우
##루루
파인
계보
##감소
속삭
사이퍼
시애
인프라
##무역
##EX
##수도
느냐고
임시정부
##콥
##깊
##브스
탐욕
염소
##ze
해수
부합
##윈드
틴
빡세
SW
예비군
전류
프런트
앞장
풀백
007
휴일
진공
부추기
잼
가까스로
까먹
##토모
책임자
0000
Cy
##신청
##태수
마커
향수
엑소
본문
그전
자위대
프레디
##로트
내륙
황무지
오리콘
주작
보리
정적
레귤러
콘스탄티노
상정
##굽
기밀
##윗
되돌아오
댄서
거물
서남
모터스
섹
ᆫ다면서
자니
정장
##양이
탤
백호
##저트
비정
버닝
##러미
서진
성역
su
야하
손수
##ness
##마켓
볼텍스
##어가드
지망
중령
720
##아일랜드
제멋대로
만세
폭포
기타사항
촉진
아픔
의병
밀라노
픽시
스튜어트
처단
Song
Big
쑥
흘러나오
아론
Comm
##키타
대강
##바디
##쿵
섬유
격돌
센터백
이분
공채
유년
베어
삿포로
##24
##장구
섬식
Back
드라군
쉐도우
풋볼
##인사이드
담당자
##표기
##appy
420
##버섯
##치카
부회장
##트로이트
데이빗
의미심장
협약
Arm
코이치
휩쓸
##루미늄
스칼렛
추산
탄종
니트
류현진
셀프
도르트문트
시애틀
발렌시아
##제어
##더미
송파
소감
우익수
재선
낙원
##병사
스테이션
상위항목
설사
마포
디트로이트
송병
임페
신주쿠
토라
엑셀
이장
삼각형
빌헬름
팔꿈치
그레이스
여도
안중
초고
##ny
촉구
##의료
##운행
##잼
사이오
램프
국무총리
##펙
##판사
다이어트
대한항공
다다
연주자
##러시
로드리
박주
유명세
오버로드
유쾌
관습
닉스
##ke
##평화
##쓸리
##스태
토막
민국
여주
스크래치
플라즈마
사다리
##룽
Order
##마키
성주
##노코
황자
늘어놓
##디우스
##RAM
##슬라비아
##sc
##협정
수군
##보상
두텁
제식
호스트
괴로
1929
클로즈
##보트
박준
으라는
##울프
떠들
1911
목성
방영일
시저
방대
##고개
선비
헤딩
서재
착공
이제동
로마자
자라나
사각
Skill
대담
무림
히로유키
겸임
비약
와우
휴게소
총통
광석
빡빡
유죄
포르노
시전자
##킴
##서울
망자
휩쓸리
협곡
삽화
법정동
한개
위도우
암석
베지터
초사이
con
미련
>,
##35
명작
##멘탈
KS
샌디
유고슬라비아
##누이
경위
환사
##자금
##정류장
##픈
증세
목표물
##chor
##소통
씁쓸
TB
군중
김제
제국군
지온
##네이도
거듭나
##곡리
조장
##실히
기요
레기
유추
정규군
디테일
UR
##애미
상권
##소모
석궁
케네
1925
안드로메다
##보수
Every
차출
백합
김준호
커브
##위성
리조
사토시
##학습
##블랑
##키치
##소재
##무로
##let
사상자
임용
태연
격노
듀티
애시
출입구
대각선
대머리
가왕
버금
에덴
##느니
사설
쿠사
폿
배지
PSP
평행세계
cl
당분간
동점골
저널
시리
##종료
베이더
선천
##UC
##라시
추이
홍대
##뜯
##AG
마더
꼭대기
##가르
상회
윤종
이관
나나미
상대편
난폭
##눅스
That
위즈
##쿠사
##겨지
셸
김정일
자택
시노부
로망
파이터즈
##비히
드레드
박세
양아치
샵
1917
내년
사교
기병대
프리즈
아이리
난해
포커
##코딩
qu
208
알루미늄
충주
시안
대관
단테
키트
독재자
##티티
패드
판도라
헌데
바하
석화
이에야스
##주곡
큐베
당원
스패
안드
내려놓
한인
졸개
가차
연비
쇼핑몰
프랭클린
선도
서커스
난동
te
마운트
스폰지
온전히
##기기
기각
비석
노기
TCG
##비지
스탠다드
아다
제스
벌칙
크루세이
##바흐
두드리
콧
##그러지
펄스
자부심
212
르노
음양
마는
서부터
시스터
거슬리
수다
적정
##소환
##프리트
캐슬
조세
##줄기
텔레콤
과실
##출신
마그마
선교사
서면
이의
환원
마이애미
중간보스
##융합
성체
괴도
농부
동물원
성추행
세이부
포대
시즈카
##bps
듀얼리
갱킹
Des
총사령관
리액션
Har
##ert
비밀리
주성
대명사
뱃
##천역
갈고리
동거
인기있
동남아시아
정현
단거리
교감
##버릇
단신
나츠미
매출액
##점프
##독립
##ious
노이
##피탈
강당
토네이도
숙종
해설위원
자아내
콩고
FX
보행
상경
열풍
171
##ᆷ비
##ient
대여
올라타
NL
Top
동국
끊이
아스타
가물
235
간식
##폭발
##net
##노키
다툼
서경
불운
방영분
아야카
흑마
수렴
벵
공영
문과
식별
토요타
GL
웨일스
일직
샤아
강남구
분수
유행어
초사이어인
지독
##프로그램
이마트
정제
양동
침식
850
##라이언트
타쿠미
영락
최면
Tri
##카이저
역전승
##콜로
##기둥
EXH
구자
느긋
왕따
나기
##장수
안제
##ret
##누마
행정동
크리스토퍼
255
내기
조선인
1927
어중간
중얼거리
##방학
키메라
##약품
FR
##복무
##페스
##탈출
리프트
올리버
##ideo
배틀그라운드
블레이즈
개종
내역
스케치
NS
년작
조슈
##공영
속옷
..'
배척
##토록
합산
야구선수
후렴
##진구
일찍이
##시트
태고
영화판
서스
능동
발산
##줌
집정관
짤방
포화
캉
비행선
신한은행
가산
들려주
어휘
##석기
서문
##pl
대칭
모건
알코올
교주
##엔드
RF
퇴근
왕건
츠카사
##olution
튜너
도마뱀
Amer
수주
리눅스
는군
##성향
##나단
##현동
경이
현대자동차
##투아니아
##동강
프리스트
와일드카드
떨어트리
어지간히
오나라
결승골
##나우
##경비
교육부
Em
내심
원산
206
줄리아
##바이러스
디스코
심플
늑대인간
포럼
특출
남원
마츠모토
조인
##즈미
하타
도청
리포트
해밀
발매국가
쏠리
대표이사
잔당
자며
애틀랜타
활주로
클라이언트
PO
##정의
DEF
##즐리
##IST
##나들
세균
직계
LCD
툰
이승엽
off
구애
게임즈
##왕조
##악단
뻥튀기
##상스
한지
##co
크로노
##천지
##협력
낭만
작화감독
무협
사구
##ERS
화수
##비나
##코트
샤크
글러브
##공군
축구단
##지방법원
소인
리투아니아
시한
모빌슈트
햇빛
##노벨
소량
야구부
세스
자연수
스님
신민
신종
퍼시픽
나이지
333
각본가
용인시
전염병
Act
터미
##메랑
##기체
##준호
투구수
켄이치
UFO
이목
성남시
오바마
공직
해협
##특기
##갓
209
##고도
##더리
어비스
수레
에보
항우
일지
잘되
알파벳
비늘
장녀
길가메
방랑
##예정
##ful
하라
노후
##mania
ve
플러그
절묘
전복
해저
새정치
품종
러블리
심리학
버지
후려
##토키
잉크
##근무
여자애
290
아슬아슬하
발도
부딪치
Pe
마늘
기겁
안주
나이지리아
kn
커리
LS
북두
카쿠
줄줄이
##브르
니콜
관대
##바오
무난히
##이론
KG
에인
노랑
데뷔작
가로지르
카터
면은
##러기
커네
갱단
야채
경호원
##ner
장단
엘런
꽝
##ham
##매체
TD
문의
##비야
버금가
과반
광학
##달러
Bar
Fre
##회원
출세
브란
215
##어들이
##힌
창병
##수술
##감치
꼭두각시
기통
##살이
친근
운전자
합방
휘둘
##삭제
푸른
가창력
결사
저렇
런닝맨
가변
유우야
단단히
소음기
정직
기만
##영수
천만원
패거리
Ext
비틀즈
햄버
시궁창
##사포
##웨이브
주재
##문회
후작
첫등장
소중히
AMD
후문
치밀
호스
인기투표
##타기
종착
God
동독
##고문
##일지
라쿠
Str
1926
의리
희미
일선
##총독
##산맥
베드
나루호도
수분
##영향
트레이서
되려
호조
카바
쿠스
##ning
철학자
GDP
먹튀
##ᅮᆯ리
##집행
친위대
##미트
특권
Hot
편제
근래
Bea
뇌격
뉴캐슬
연기자
못되
Ab
발효
##덕후
##미오
##쿼
##보컬
저리
재팬
##판서
홍수
##ERT
STAR
잔여
RAM
라자
하남
끝내기
위화감
사주
유가
체질
anchor
택배
##카이도
말라
##책임
푸쉬
리노
마이트
##ump
대적
급제
어린애
화랑
때우
관제
초원
Char
분기점
##크루
다이묘
고스란히
법조
'-
덴노
일찌
스캐
##단의
ᆯ지도
##모으
##ward
힘내
괴멸
##루이
심심찮
##보고
우와
비아냥
Met
Rain
페인트
번길
##day
스트라
판본
독립운동가
Sil
##발사
##이용
##히어로
every
비숍
샤이닝
먹방
학생회장
마비노기
가가
원제
ᆯ게요
위생
##ATION
알맞
더스트
헛소리
FN
악보
랄까
전산
인신
명장
반자동
메아리
도르
매입
머니
##바이스
최성
##동력
휴전
##랍
위임
**
동유럽
클락
알아듣
##대책
부메랑
최우선
want
세계선수
FE
##결전
White
##88
##스코어
단말기
쭈
침체
Inf
요일
지자체
매지션
초급
##샤인
이녀석
라바
다그
세단
영기
1400
인피니트
심슨
정종
형법
yout
정경
디시인사이드
케네디
이블
해결책
찬사
##식사
여건
외야
트린
##ᆯ로스
ᄇ시다
조승
골대
최적화
##사관학교
##지물
##사라
코나미
계좌
프리저
오드
데카
대한제국
뮤직뱅크
제르
참수
이민자
KD
##수학
나주
비하인드
바람직
##오오
바늘
채무
인테
리비아
##전생
##전용
##자국
제각
타나
코즈
##면허
##가격
만화책
브로드
##길이
##민주연합
히가시니혼
down
##및
##반사
헤라클레스
more
긴장감
행선
팔레스타인
코다
번트
May
자정
게르만
##차장
##레프
영국인
김태균
불분
경상도
사생활
경의
최재
시력
207
정정
성녀
추월
간편
##기수
고어
Pop
삼지
병맛
상체
코시
IDOLM
##임무
찾아다니
##부모
애리조
베가
왕녀
증후군
한계돌파
악명높
퐁
##군사
Master
중산
항로
##게스
전폭
저스틴
터무니
오퍼레이터
재해
##son
##짐
부치
몸빵
포지
##성적
무진
##핑크
파열
##파스
트림
우천취소
유수
명품
##노부
미하일
##au
관광지
단연
마카오
##ANC
카자흐
PA
무심
이시다
##oud
불분명
제비
감속
길목
로라
냐면서
앞장서
소셜
##확인
과하
##ves
성종
앤더슨
항소
생계
미얀
투여
Game
정거장
끝없
마인크래프트
치세
터렛
개봉일
이라든가
선하
진해
외교관
이스터
##프닝
##발매
무언가
##루가
헌납
부두
풍속
사부
만화가
OR
스코프
##뚤
##보안
드레이크
는데도
즉석
몸체
보유자
이가
건너편
충실히
메소
161
이강
금하
밀러
they
상가
1922
후하
##ift
하렘
박민
일갈
몰아치
##그로
칸나
의사소통
재빠르
뛰어다니
시동
##고루
진전
칼데
##ship
무법
주군
##재산
경찰청
명확히
서유럽
세토
선택받
그토록
##ape
COM
##기아
##소니
창세기
##부짖
아세
행동력
마케도니아
Are
##무쌍
사건사고
울부짖
가중
위조
도스
##전투기
여명
통신사
마오쩌
GAM
야드
요크
작렬
하데스
##대행
인분
##트니
##과장
스폰지밥
수뇌
하이드
아시안컵
차마
숙명
1923
애덤
열렬
광역기
대변인
아이치
들통
끝판
##구성
갭
##천리
팀내
일정시간
카에데
나가사키
##옆
TN
불능
중소기업
WAR
공적
로사
##노미
스트레이트
재화
1921
이치카
오우거
##장전
위인
스베
김택용
TG
##구르
백수
랜디
불가피
순순
체내
비밀번호
##lock
아틀레티
##디자인
한결
텍스
나츠키
인장
화장품
중의원
##소타
리젠
완패
마작
Bu
촛불
창간
망원경
Bra
알비
수송선
몸집
사바
##타고
개틀링
드리프트
520
역관광
평지
외래어
only
사이오닉
이코
미분
##카르
제품군
##ien
명하
샬
##문고
코지마
척하
뿜어내
Yeah
마오쩌둥
한나
성령
아르테
픽셀
휘둘리
산산
##국적
배고
심리전
이지스
##경험
DA
비대
선풍
한국사
출시일
##less
한겨
단번에
티탄
##선스
키쿠
복권
##찰청
ㅏ요
선교
랄프
조비
##람쥐
##렁이
##ize
##일관
news
동선
##륵
방어전
카트라이더
멀린
짓밟
##니케이션
도보
안테나
역전패
구스타
콤보로
헬게이트
스플릿
##터치
부대원
##zy
고모
##교체
징집
익스프레스
Cont
##LD
위태
##텐더
부츠
##고양이
익스트림
강변
##진출
관악
편집자
pl
신촌
타이베이
전용기
베인
##EE
지령
여친
재상
이송
수법
시발
##경쟁
감시자
##지에
Hea
##오류
부녀
편대
##여름
근접공격
괴담
아틀레티코
캠피
엠파이어
아이슬
##45
호타
오스틴
밋
남아공
##여단
프란츠
하얀색
##led
온게임
지방선거
유민
한승
##omb
성취
##세키
이상민
체이
##큐버스
보병사단
##프스키
##강의
뉴비
스펙터
##전적
비범
##일체
수영장
##워스
승부조작
이륙
팩트
##종이
자책점
경합
##개그
트레버
##조절
설정상
며느리
등용
리스폰
피고인
##호텔
초연
##지옥
##헌터
가즈
스펙트럼
수년
##ited
Project
##HD
메커
애니메이
마스터리
세련
##여우
투항
출생지
활기
온게임넷
7000
##뜸
주주
실습
체하
붉은색
학부모
아날
피니시
##슬러그
Joh
##남자
온전
솔리드
인기가요
크림슨
댈러스
힘겹
눈부시
지못
##ALL
Off
Battle
아산
안들
이따
와타루
TEC
##코쿠
궁정
1912
한마리
TF
##지선
예하
독설
##시점
법무부
불안감
순순히
##ita
팀킬
##입장
##수송
ᆫ대
##형식
##솟
선명
터미네이터
유스케
테이크
JC
에임
헤더
다이브
Open
이범
자음
샌드박스
일생
특색
선발전
##ORM
재차
##ton
어새
DDR
~'
모기
월터
이유로
연장전
##29
생포
##맹이
wiz
회유
협공
Sky
마우
##큐리
천연가스
빼놓
독도
언론사
사카모토
Moon
##뽑
##의지
크레이지
번거
끝부분
지못미
##촬
소망
##세우스
트이
미네소타
##짖
설문
산출
##태후
......
백두
정연
번하
##또한
##식당
221
##ENT
BASIC
##원지
##두근
응징
그지
단간
##꼼
날아오르
멧돼지
멱
우투
순차
여객철도
일직선
##구슬
다인
##닥치
777
히트곡
섀도
##피오
양면
기생충
제네시스
증권
매거진
##엑스
##스토어
카트리
good
##23
성품
바우
리듬게임
초회
법령
칠흑
화속
데스크
송곳
통역
관련기사
맞대결
기염
게임판
##row
##27
관건
1300
성가시
##호크
미얀마
꼼짝
윤성
아쉬워하
하늘색
짤막
팰
이북
외침
##플릿
지갑
비둘기
종로구
Like
힌두
##com
애프터
저력
##공산
##토끼
퀑
타츠야
개인기
브라우저
포괄
분가
WCS
영창
페니
접시
오보
선별
천문학
##툭튀
##ling
우메
벌어들이
희박
밴시
마켓
스카이림
수료
안식
읊
라든지
##주행
코리
정선
성급
익명
Special
##신고
버디
카프
정도전
김현수
내려찍
농어촌
##랑크
체류
향토
이어폰
2022
창출
강호동
갈래
수없
과잉
급진
##상품
여느
##메이드
갑판
토템
이츠
##스프
개드립
전라도
##멈
##증권
두개골
강점기
beatmania
수작
헤지
매트릭스
톡톡
다듬
원로원
본거지
얀데레
Bad
도타
스릴러
가야
레베
일정량
아이슬란드
직구
청동
소사
가세
헤일
나선
여행자
스핀오프
르네상스
시세
구세
노원
막말
##혐오
붙여지
TT
의류
아틀라스
##나타
탈탈
디에고
전투원
이나즈마
Soul
원어
조니
##풍선
##협의회
수반
백지
데이즈
펜타
승강전
초동
나뭇잎
루리웹
피어
##코스트
밝혀
조현
붕대
Med
라이선스
는구나
##ᆺ소리
##rop
스왑
싱어송
사병
당근
군단장
가주
카즈키
광동
전투복
섭정
서지
순항
병신
감염자
마도사
ᆫ다든가
슈터
디메
##취급
서브컬
##어내리
이조
문호
##연장
진행하
버지니아
무패
네메시스
손책
213
남캐
##에리
##망이
비요
과다
뭣
반대쪽
##탕스
##파츠
##케이스
##UB
재주
##쿠르
막아서
##벅지
##수업
치키
바이올렛
에로게
무모
생방송
루시퍼
거창
부상자
end
모함
간장
산체스
Po
##vent
바스티
남짓
##풋
고성
체구
Hey
낙하산
over
일만
심포
FBI
분사
##수산
##럼비아
##line
##진우
검거
##ute
음모론
Now
WOR
##이인
알제리
복부
##부원
항속
Dragon
마사무네
만두
러브라이브
미카엘
Bur
사죄
##대리
223
눕히
발령
케이트
##play
빵빵
노드
세이지
전우
오덕
포이
##노래
##기사단
our
짊
명장면
티나
명백히
##xt
삼국시대
275
티타
승하
세속
나지
##카게
형벌
##프로야구
캇
계승자
와이어
이메일
멸자
여하
장동민
##연령
번번
통학
baby
반달
배경음악
##게시
자기장
어우러지
현무
체급
##감정
특촬
##stem
001
원나라
시라이
팬클럽
프리킥
밝혀내
모티
서점
#,
리아
수없이
탈것
벤츠
중장갑
##닭
카도
##발표
##oney
키시
이끌리
Eng
##나크
에테르
보단
서약
넘쳐나
스노
부통령
유서
세츠나
##벌이
밀양
스로
차차
리온
##토라
fl
이로
거머
내구도
마천
네팔
베풀
퓨처
##내셔널
흉터
지체
1907
셔츠
에티오
##96
캐스트
##네즈
가네
고속도
발트
##결합
드래곤즈
계약자
작물
둔화
프론트
##계통
일찌감치
치히로
호라이
ac
햄버거
구비
바실리
##우타
철벽
눈썹
수차례
모라
Way
화염방사기
비평
정윤
##노오
티셔츠
##아내리
현수
콘테스트
아카기
이시카와
메커니즘
##데우스
부적절
현질
그분
악인
넵튠
가장자리
Alb
##FFF
##환승
##IGHT
일컬
##소연
춘추
어새신
##홍철
매사
매도
돌풍
##때리
성희
뜬금없
탤런트
예장
모로코
다테
##eng
커터
소탕
울버
##ᆯ린더
##붕괴
바깥쪽
##포고
급습
웬디
see
##깽
피쳐
1905
사절
무제
에너
히이
농도
싱어송라이터
##탈전
대구경
해프닝
교직원
유다
릿
환불
##클래스
쪽지
브래드
##윅
폐위
##궤도
##전철
도메인
교재
재미없
##lt
##그림
타니
쿼드
플라잉
##폴트
DAY
주권
야자
몇가지
아득
레슬러
동대
소아
준장
Int
이터널
에티오피아
365
타오르
반납
군벌
이사회
Cent
뒤쳐지
옥수수
런칭
max
아츠시
껴
관용
고려대
Comp
희생양
대장장이
선두타자
향년
맞춤
##떠
태백
유세
포진
슬쩍
문성
레고
너구리
##알라
Match
쓸쓸
서스펜
엠마
테슬라
시베리아
공안
골고루
마리사
종속
자자
미처
성원
우로
류우
불거지
남용
청취
내리치
Ass
갑툭튀
##제프
216
급증
최하위
##시에
사카이
고갈
##26
피크
머무
지탱
인승
성범죄
선글라스
거행
사생
장막
극동
"'
블루투스
거니와
Yes
방관
배반
결단
변모
다이빙
러시아군
##모트
370
##아이템
슬레이어
##덱스
골리앗
##권력
##흠
치부
톱니
민심
앤드류
슬라이딩
리벤
##토가
막론
욕먹
정무
샬로
케미
say
어태
전령
##건강
NAS
명실
##후드
##닌자
라파엘
지폐
##만다
최형
레지스탕스
Fla
아날로그
right
미유
츠루
하시모토
##코스터
빈센트
한국어판
리제
제너럴
다량
트리오
회자
우즈베
물음
변함
##유물
kr
혼나
스켈레
시오리
##심사
효소
##혀가
다이크
ᆫ다든지
##소득
간첩
팽창
끝판왕
캬
악질
##ude
##트리스
경전차
소행
절약
그렌
스탠스
CIA
##츠구
팬아트
수퍼
##마타
페더
푸른색
Ook
치아
언락
거머쥐
전패
국물
흥하
음식점
밴쿠버
##여왕
보급품
스맥
##바드
PvP
##ata
##콘서트
신봉
SUP
##ᆺ밤
##피온
하천
왕립
오모
네로
겸비
하버드
바이스
뢰
빽
##독스
급상승
Last
가든
##요정
선지
좌완
프라이드
메두사
박태
총구
잡혀가
세레나
데니스
XY
나스
자수
##광선
시종일관
##운틴
덤벼
스탠딩
동아일보
##주니어
포유
초동안
##철학
짊어지
##투쟁
##청사
IF
극성
마취
오카다
상승세
헬로
연대기
마장
티라노
TWICE
##브레이
자멸
##차고지
이탈리아어
태세
케니
##히데
무안타
##ius
북서쪽
실바
##날개
메이크
##결혼
부끄
권역
매점
마코
어지럽
홰
매지컬
몽땅
440
상반
조선총독
동성애자
도입부
못생기
수납
막시
밀가루
보호자
##III
코브라
올리브
##red
거미줄
하반신
오차
패권
아랍어
정관
무당
누락
격납
##소년단
배급사
치프
소름
폴라
근로자
기린
앵글
흉내내
##록스
##감사
수속
두각
기어이
파기
##브론
##샹
아디
우클릭
카논
##던전
Core
졸리
박치기
골짜기
##맞추
BRV
올인
요지
간직
##ets
##엘프
후진
장대
덕택
왕성
산호
##늠
##주민센터
이남
슬램
곡인
Mir
음역
##라이스
Show
##76
##ated
법사
##짚
자석
##몬스터
there
미완성
쿠퍼
이치로
##ara
자치령
수혜
장담
엎드리
보살피
##가게
십이
국내외
추위
사관학교
스맥다운
본뜨
양육
Nor
오산
1908
##미팅
##인터
페로
리더십
크루세이더
콜업
고려시대
##cl
##시현
##푸르트
경보
발병
타케루
갈아입
his
김호
##배기
케로로
##밴
검출
HOT
불발
광자
압둘
가신
포상
반죽
수뇌부
후카
##코로
암기
##불교
MI
##선택
해발
원상
루즈
안톤
옌
에어컨
아리사
결투장
인제
원종
장기전
##구름
흰
##44
센트리
전주시
시간표
케르
묵직
아소
일괄
가득차
##와르
폐하
##전시
순삭
비잔
척추
특출나
pe
조공
교구
경비원
일등
타리
##클로
얌전
수배
크로노스
수리검
사서
영령
사이먼
micro
기판
레프트
데일리
지명타자
트리스
카메오
무서
##교실
##ely
대북
영문판
국수
tw
##드라이브
엘소드
##공동
베라
산지
라트
Mark
려
##원장
소란
반려
마토
정몽
##젓
학파
이를
시제
대입
##테면
슬로건
신빙
파병
소모품
##진군
무방비
스몰
자치구
불허
합금
##타치
발해
If
비운
코칭
은가
##UST
또래
마르티
일기토
이를테면
리어가드
듬
하르
필적
##가로
시부야
##화물
파이브
##괴수
##사유
일파
견고
Art
깜빡
장학금
##골드
후지와라
이대호
Best
##디난
First
##사인
알바니아
##제비
성동
섹터
##픈뮤직
다크니스
##루오
티거
오사
팝픈뮤직
RPM
공민
크리스티안
##게시판
##타나
허술
고하
요건
##현대
열화
Sur
노획
충공
got
##KO
소주
호화
##테루
료마
##기도
일회
정중
##칩
서태지
악영향
ᆫ답
How
한족
단타
탬
굉
퍼스
자백
##카운
뛰어내리
바이퍼
다구
승낙
무리수
원성
스킬명
허벅지
이니셜
박기
삼국사기
그제서야
적기
비열
피버
메탈슬러그
폭군
납품
##무장관
테츠야
오클랜드
로코
대장군
시녀
크리에이터
who
재발
저항군
##메트
제국주의
##OCK
전갈
id
톈
##라이징
##궐선거
잘나
고속버스
##도르프
승기
직면
간절
쇼코
잠자
팩토리
유족
재규어
##여래
송병구
한장
관전
북아메리카
스트로
-.
에어리어
뜬공
나리타
김하
김인
음란
맨날
포텐셜
Sl
지출
주름
Christ
##85
기총
Ap
##경민
큰일
장민
요양
내쫓
베끼
아유미
예거
219
죄인
##INE
##기자
##스포츠
선역
가늠
결선
제드
고뇌
##모프
김신
##저지
들여오
중사
##사이즈
인페르
##권총
##ga
메르시
##라마
마호
노태우
##직업
니아
##udio
주시
##붐
강령
잔재
중론
카스티
##ERF
지바
레미
틀어막
알몸
선후
덩달
##핍
##노바
라이터
머릿속
데이터베이스
안맞
Down
잠식
##상부
##럴드
RED
이규
시작시
드래그
FFFFFF
신약
##임수
급속도
Never
NA
시리우스
곧장
프론티어
류지
##ric
소폭
드로
Sam
950
일어판
마테
포레스트
누님
레이무
통근
탈주
Tour
에러
겉모습
자위
##다듬
착취
feel
섣
##팁
더러
##강도
##work
명왕
뛰어오르
해밀턴
Free
NAT
분하
십상
브리핑
페스
끊어지
지침
한동
경전철
망각
540
궤멸
밸브
##불리
##ther
조문
##마이트
열광
활약상
##엔터테
사비
수족
대제
통찰
##ley
후려치
한눈
##토크
##분투
전위
진흥
활발히
ᆫ데다가
Na
전황
외환
Side
##구동
##디나
키바
미워하
개찰
박차
원자로
##ux
근방
황소
채권
GX
직진
독단
416
GPS
##사병
Magic
난징
질질
정부군
칠곡
보름
##인과
##보장
베놈
##HC
##NG
롤리
충동
여리
군세
관객수
##표현
##뻔
뚱뚱
주립
여운
나오키
청사
동남아
연합국
스쿠
##erm
커뮤니케이션
yeah
##hy
노브
글ᄊ
##샨
의존도
동급생
감독직
배틀필드
유창
복각
Track
##시즘
피칭
운임
고요
공전
끝없이
즘
임페리얼
##너드
김한
철퇴
개월간
##니컬
설립자
##시위
아레스
유체
남산
전쟁터
이롭
금서
디스트로
행세
책봉
국내판
Sim
레비
##잡지
##이즈미
깁
트라웃
그러다가
몸싸움
상수
특별출연
빈곤
가르시아
백마
엑스맨
유노
페드로
바그너
부피
두근두근
9000
블리츠
##하니
화끈
개화
장려
##산드라
지하실
개더링
얼룩
닛산
데스매치
KN
##슬쩍
라그나로크
모용
통수
최고속도
창시자
KCC
##교육청
투표율
##쑥
분간
틈새
##산성
##난무
시연
##니엄
##용품
엑스박스
수박
데미안
정류소
그랜
##ird
KA
랍시고
##스기
거액
##추가
알프레드
##계급
목조
콩두
첨부
부러
##하치
##마르크
Pol
주조
족보
조선총독부
##래쉬
마크로스
반주
게임내
girl
적어지
해지
니키
City
적도
##간지
콜리
행군
민사
엄폐물
PM
거유
활동중
맥시
듀얼리스트
다채
연세대
골수
245
다이어
##비서
문경
Happy
신격
젓
자선
##위안
##지스
Party
나우
##BOX
싱크로
신령
##복합
컨퍼런스
아르타
아란
예매
이어주
야말로
##펴
##스트리
정치가
미토
##재림
호그
Edition
##UL
##시도
변속기
인테리어
기공
심부
충공깽
##rew
사업가
일전
리빌딩
임프
Perf
한판
끌어오
메탈기어
험악
AW
스케이트
오아시스
##21
제주특별자치
##루이스
곁들이
시미즈
어려
바트
식인
##세츠
온건
잔존
090
쌩
##UK
축출
##중독
##국수
고아원
투르크
##헤치
탐험가
Cap
오자
태양계
BP
YG
버겁
총회
세계수
경비병
야스오
관념
앉히
밧줄
Fall
##재욱
치하
##승리
234
##슐리
정착지
성희롱
di
추상
포섭
짱구
##창고
방탄소년단
Final
헌법재판소
드러머
소홀
지상군
##aka
차오르
실감
야마자키
쥬라기
키퍼
RT
##yes
판명
편도
제주특별자치도
life
##수호
끌어당기
엔터프라이즈
제복
박병호
EB
낱
##수스
감마
##칼리버
설교
허다
이보
버니
메딕
##란티스
##밸
##걸스
토우마
226
롤러코스터
Will
넷째
비타민
##ris
##댐
소이
조선소
249
고성능
동명이인
의뢰인
삽입곡
진범
패트리
루루
전곡
톰슨
페미니스트
적시
각별
잠정
김은
대나무
성검
광화문
##시즈
##묻
굴러가
자결
코팅
##묘지
PT
내공
우선시
즐거움
츠바키
리조트
송나라
##스톰
우여
위안부
그리폰
본드
로스쿨
##훼손
거라
인터내셔널
받침
##포시
연못
예민
근접무기
북동쪽
Angel
##남부
알트
저명
##종교
RX
##날레
이룩
메가트론
조짐
##라우드
난장판
탄두
대지진
자유당
카드군
Stage
Net
소나무
Spring
롱주
make
루드
캄보
차우
보이드
##펠러
서동
##조림
##곡절
이쁘
걷어
물러서
미식축구
##que
네번
쇼타
##arius
##법사
##데라
SEED
매그넘
동하
해설자
217
##영화제
영수
막타
민영
곧이어
##깡
다비드
점치
적과
바알
##포동
WHIP
조로
##애니
410
미술관
##요코
##랜서
유승민
베로
신태
사쿠야
사시
정승
유상
영장
BMW
호각
내한
말살
투수진
##ONE
카르텔
샬롯
##tain
난쟁이
Boy
##코리아
Club
엠블럼
네이션
공석
교황청
일식
생몰
##ision
우여곡절
정대
인간관계
다단히트
승리투수
화성시
엠블렘
사납
위닝
홀로그램
처방
##사살
시어터
만엔
선전포고
어플
클로버
최원
파파
벼락
##정복
만성
뮤즈
겁쟁이
애시당초
통영
플레이트
박하
##팽이
##쯤
##다가
##러쉬
ff
넬슨
아노
무어
타도
블로킹
##게이지
##무관
픽처스
##농구
분비
검열삭제
로렌스
호라이즌
쁘
경순양함
1906
엘더스크롤
월등히
##에타
커맨더
228
ABC
BW
화질
표준어
경부선
Come
Great
펜스
오리지날
##str
RR
##티움
233
빨아들이
사드
##팜
선발출
코믹스판
새마을
압승
클라크
자행
애니플러스
숙지
보전
브이
##베트남
퍼니
##95
초라
##말라
몬트리
빅토리
Cor
##자격
##올로
경멸
선율
##종족
##예산
동률
##봉사
맨몸
옅
라일
##프로스
분출
##ASS
##ader
##마왕
파라오
중순양함
재래
##ama
##린스
##OWN
구미호
내용물
액수
야구단
루돌프
페라리
규율
개헌
이아
보리스
미약
참격
##린트
##ague
크리드
켈트
아돌프
##부여
##노이드
허니
사고방식
레바논
##리아나
공시
위아래
형주
사이비
괴이
둘째치
괄호
이츠키
오컬
받아치
퇴임
폰트
part
##정상
미달
##연의
삼척
##제인
추론
잡아
츠나
종자
웨딩
##버터
우이
물결
판다
##춘기
크로스오버
Class
##섞이
##ause
##펌
##보르
휴대전
##췌
가넷
##질환
관세
겜
칼리지
##IME
##걱
황색
224
체크카드
##전략
##일전쟁
예컨대
효용
어썰
IMF
조개
원반
별거
##수석
공단
실바나
함유
룡
Break
MY
글래스
Fly
##케이트
##랑카
##어뜨리
역전재판
##탓
375
##ross
주공
애비
##임금
잔소리
항쟁
티모
사업자
##ival
has
SKE
장문
애니메이터
im
##썰
밑바닥
베이커
나카노
Legend
캄보디아
우디
##내역
흑룡
노트수
메츠
오사무
편애
팬미팅
도봉
##해야
cont
속임수
아이젠
Little
써니
PH
단다
##츰
매료
코러스
억양
##사슬
만악
독살
인천국제공항
##플레이션
##비리
짜이
##ism
옥타브
##옵
라이토
미네랄
이매
황폐
##83
##거미
발포
##시노
고철
무네
충원
최형우
플레인
##충류
영재
선더
aqu
##댄스
복수심
우스개
천진
광폭
가무
##성우
##마비
만우
##유예
디럭스
약수
탄수
칼질
모금
들어올리
사복
##오토
한수
##틱스
언론인
피리
속주
헤이세이
허약
샌드위치
실탄
##락스
궁궐
##아오르
우려먹
발동시
사우디
개인정보
##요이
##미트리
남아메리카
취항
환산
사냥터
##기관총
차크라
리히
슬라이더
이즈리얼
포세이
코레
센고쿠
원정경기
라우
이달
Girls
스켈레톤
그물
##부진
무로
양방향
부천시
##att
틀림없
리미티드
Univers
내비치
시종착
키사라기
초구
군기
햐
음료수
과열
용납
엘릭
##다발
파커
낙양
파워레인저
하인리히
휴대전화
##IVE
철자
유역
시엘
오승
발열
강서구
##벙
외장
증강
대교
은색
헬스
덮이
바티칸
##바뀌
횡령
거든요
고고학
티격
공황
능욕
노동당
RB
정주
라운
임재
는커녕
##리역
##다라
발족
필승
Swe
##erry
'~
ER
NFL
담원
미움
##래스카
동결
몬트리올
##제하
악평
급여
염동
공연장
김규
퍼플
fr
김구라
##서양
자리매
##냉
##지배
는다며
모차
반공
코요미
##번역
집요
John
백룡
정신병
EXO
쌈
APC
가맹
북벌
소요시간
이레
윤종신
##뻥
연성
광해군
사단장
개월만
프랑크푸르트
관현
공공기관
##스텝
##티스트
##민수
코미디언
출연자
never
전동
투영
301
쾌락
에버튼
##나이츠
재림
폭언
전투시
##다이스
절제
##구이
빙글
겨냥
로버
##영업
확인사살
##지인
정진
초심
팔콘
##람회
##렌즈
주부
암흑기
만우절
##uch
보스니아
소품
패미컴
냉혹
again
심복
이다
점성
경관
총학생
지도부
신승
쌍용
##장식
선딜
우왕
##썬
저속
삼장
흑색
미공개
##현수
##폐합
해피엔딩
인스턴
성우진
방사선
잽
heart
공평
착안
푸드
Gl
마고
신년
폭넓
몰두
포식자
치솟
에마
승승
총대
퇴직
판단력
강대국
랴
정국
CGV
자리매김
미코
##부위
석가
십중
지석
##정호
복식
비행장
중하
227
낙서
대주교
직캠
##밀도
교통카드
##ords
PRO
조그맣
하강
##서니
박원
Mem
Take
##한번
##조노
램지
매끄럽
마라톤
추축
##큐브
바흐
캠핑
##꽁
구실
노선도
##중대
##세움
자서
츳
쿠도
##암리
파주
소나타
도래
황해
도요토미
TBS
##일치
컵스
구식
초음
390
1913
용호
카자흐스탄
##바탕
주제가
조슈아
홍익
획득량
미나토
어설트
em
북위
송신
##스틸
화보
마사히로
##리사
고참
유부
남인
기울어지
교묘
512
게이밍
노홍철
헤엄
연사속도
##가왕
##ubl
연화
##히라
##소방
매튜
승용차
##초인
숨지
야인
##슬램
1909
격투기
캔자스
로젠
제곱
##ᆯ림
스타라이트
마이티
##게일
라이엇
어쩌다
조각상
수만
상소
리트
##버거
증표
##차림
애착
기권
돌이
다이스
악세사리
아일
오도
마키나
인삼
타원
투르
##곡인
솔루션
ㅕ야
허물
은신처
중종
잘나가
사적
##도감
뼈아프
사츠키
##소울
##종일
sk
갑주
서주
교무실
레이카
눈길
눈보라
혼잡
아이코
스틸러스
재보
##뮬러
1915
인가
성소
##비티
강캐
소양
##보조
##공화
절감
자의
소대장
은빛
레인저스
남동쪽
##절차
정치력
011
라이브러리
크래프트
태수
폄
xx
출국
우울증
생생
##body
재일
##입단
지원군
인원수
게시글
Cry
mA
##발트
양말
##호그
회원국
알라딘
아브
평이
악연
Hol
순발
1700
뻔뻔
스미레
투덜
교육청
이완
각광
천수
브릿지
타쿠야
타라
##집합
리전
토드
맹렬
콜레
루시안
##아드
경주시
한기
##다주
한국식
##편집
교제
##ital
뮐러
트렌드
##넌트
정명훈
면도
##주머니
김소
##apan
스냅드래곤
뜻밖
##입구역
십중팔
닷
한밤
파나
##ᆺ값
이면
브록
셔먼
호우
김종국
크리스티나
ISO
안젤리
##가수스
시칠리아
ㅏ라
튀김
뜯어
##iny
액셀
스테판
개표
교명
우등
파프
멩
EPL
호문
##노어
민트
옥스
를
검도
##드르
오현
##슈타
하이브
마석
##동화
손발
대성공
껄끄럽
##지하
근황
페달
시프트
캐로
마르셀
지식인
ad
공병
우대
##자식
##디안
철혈
쿄스케
##ura
OO
오두
##다툼
식용
그만하
젠지
바인
대문
##통로
돌변
건축가
세명
제이스
노라
##라오
##벗
레프
빈민
##ople
최연
카툰
##금속
건너오
##ler
점수차
연방군
전면전
럼블
##cy
##문관
역과
호쿠
억누르
대니얼
쉘
##시경
더듬
엄연
here
비견
국보
##REME
Ho
정근
##여자대학교
실바나스
##르슈
##도나
Gal
카야
##진보
활력
몰입
지방자치단체
백종
DSP
프로토콜
도맡
신진
꾹
김종민
점슛
틈타
클레멘
Sn
킹존
1904
카즈미
##DDR
사칭
기라
화룡
무함
반쪽
올려
오미
터너
아누
##높이
동탄
페가수스
747
육신
Ind
OM
수제
Mbps
로크
ᆫ답시고
HR
피파
~?
다같이
##태인
꼬박
##oun
하동
쿠루
리미트
오컬트
bb
우동
정박
남서쪽
니콜라스
##파인
##ino
동맹군
우즈베키스탄
##내성
게으
엠넷
제명
내분
양민
파괴자
틸
모자이크
##irect
미시마
터프
눈여
정설
한상
naver
대주
어려우
오거
계엄
액트
MUS
중대장
현종
대기실
##라이어티
\]
시술
##체력
##무소
##78
세가
##케이크
아나키
거침
주화
근육맨
##TH
##IO
주임
서대문
기교
반입
코퍼
##베니아
##새끼
##서로
에스토
천왕
GTX
찜
다트
내레이션
뉴타입
사용중
식재료
분파
##보레
##감각
231
바닷가
##파드
증대
휴지
강희
익산
##중량
양지
농협
주지사
##물쇠
토쿠
##버튼
풀타임
폐업
초딩
수록
시정
주지
##면적
폭투
신용카드
FO
뺑
아에
레볼루션
떠나가
튀르크
코스모
|[
북아프리카
Real
aquarius
1916
조경
남친
꼬시
니코동
Rad
##자락
##aker
bo
카라스
푸시
당부
입점
팔다리
떨리
수송기
NORM
252
SMG
when
비방
인계
머독
견습
간과
오라클
무마
관람객
상대전적
우리말
윤영
익스플로
프레데터
주루
뒤바뀌
뱌
호족
업종
##총사
##파르트
케어
공중파
맹수
이따금
슬래시
Sou
##AE
##by
버퍼
타카히로
골절
넷플
니혼
섬뜩
쌍검
그딴
##오미
경복
급감
세이야
부탁드리
238
상층
유권자
카카
##난이도
저평가
##통치
머리색
##잇
부설
빈스
##편성
벗겨지
혈관
저질
암묵
gu
사이클론
let
문고
매크로
##욕장
##옵션
툭하면
Aut
##설수
근위
##lex
슬로바키아
생리
사이킥
순전히
줄무늬
##리즘
##인권
우체국
포메이션
코스모스
##UD
광부
라이덴
숙박
대리인
NORMAL
조만
단호
##고속도
선샤인
요르단
길래
자물쇠
중화기
세인트루이스
전광판
When
연마
스가
##캐논
쿠리
챔피언쉽
실물
질책
430
마공
성북
any
기대감
좆
튜브
한큐
역적
출진
트롤링
숫
보류
##여성
인턴
고온
##즙
치타
짝퉁
Park
##연습
##발사기
수사관
스나
강화판
친일파
Single
들통나
##촬영
##BY
돌려받
귀속
어썰트
손길
주변인
여차
애꾸
사각형
##티뉴
검기
##ᅴ우
장시간
##36
부록
프로페
나츠메
주선
팻
숨결
미우
데우스
성물
##닿
똑바로
트랜
Who
Esp
라니
한순간
고드
추격전
EXTREME
play
가쿠
##lection
일면
신해
완승
##onder
오데
중수
카로
쿠폰
불러내
반도체
PG
바루
서바이버
Hi
보성
##anger
가온
##gy
스투
버팔
용왕
별장
정발판
정상회담
세인
##대미지
배너
##란스
##48
대영
멱살
데이지
##어어
필기
##다이라
무함마드
대련
신노스케
홀수
실컷
##안보
카자마
순회
민속
동시대
치과
야요이
헌병
신탁
냅다
골격
동일인물
샤이니
Feel
사하
방아
##로라
달려드
새턴
##샤오
트리니티
##껍질
min
돗
신뢰도
거처
중용
장자
프렌드
##가키
##상인
하야테
##건우
슈리
Du
와이드
##raft
성배전쟁
Album
Je
##대역
##펙터
숙적
수식어
타지
mAh
백웅
년형
폴리스
JYP
만개
서산
명심
이견
가늘
서강
파헤치
뒤떨어지
서신
카디널
조건부
전국시대
##RO
##ONG
##카운터
무례
을시
소프
프리퀄
다리우스
체이스
##캉
워치
Cal
Mix
거하
ap
어웨이
경원
##티카
쩌
어쩐지
구마모토
이효
성매매
우사
##콧
##태격
금단
hp
스루
환장
무서워하
des
차츰
개중
생식
Inv
뜯어내
##이익
나돌
전조
개리
리시
의결
닳
매춘
양분
격분
기증
개머리
입상
천자
메이킹
팽팽
수양
유괴
향신
##사원
##만도
담그
##의미
이상일
시속
펩
##소수자
즌
수학자
SNK
##98
소외
##ya
레베카
아코
특혜
red
손대
WWF
조반
양재
표류
데스리
Ret
##연료
우치하
Hero
피렌
##와일
아틀란티스
Kim
##주석
확진
##미군
비룡
서슴
##천년
카루
백병
##비슷
린치
헌정
헤븐
티격태격
어정
마커스
낙사
##좌상
##ations
조성주
Ult
QP
지저
##부치
236
독소
은혼
근육질
전소
출토
##스킨
노라
##ouble
펠릭스
수전
자객
고영
학창시절
##스파
방콕
굳건
도넛
감찰
유키노
해안가
뜸
##유도
##서원
열전
닛폰
놀러
하야시
##섬유
##뚜기
껴안
##ball
번성
금기
몇십
주스
버라이어티
실권
진중
Blood
한복판
란다
지효
##글러브
다이노
자판기
##뇽
Fun
some
##공포
은근슬쩍
뒤집어쓰
특공대
감격
어떡
대장간
##공자
윤석민
STA
독일인
이광수
KE
걔
##테러
흐트
고체
속출
##수비
##백호
아데
래스
치토
스테이크
부전
공소
##uture
##관총
Sol
하드캐리
개요
서큐버스
훈련소
이연
이바라
요절
계책
템플
저상버스
마운틴
무전
치어리
##반지
프로입단
광란
백설
##어머니
에노
금세
##eck
캔슬
##틀린
봄버
야유
복면가왕
어르
장화
를르슈
##vil
##웍스
콴
설리
평온
꽃잎
주민등록
need
완주
이라든지
깍
오르카
Sweet
클러치
##바꾸
##외버스터미널
010
경제력
동맹국
동산
카니발
##회로
##연금
##질서
##eek
모차르트
승승장구
##신호
재무
##ocal
주둔지
KBL
Ag
##레쉬
아라비아
한문
매혹
종파
발사체
로켓단
##ather
자서전
##미안
엄하
Val
공표
명계
##사쿠
미트
Tech
세피
##TC
##지상
나오미
한국철도
혹독
몽환
천안시
##허가
완봉
##풍경
큐트
컬트
요령
##포즈
순종
265
이윤열
##명은
##메테
앙쥬
들이닥치
하로
CBS
꼼꼼
넷플릭스
앞부분
테두리
뭉개
전범
시티즌
아오바
시게루
세이프
미쓰비시
걷어차
모치
베른
아이덴
빙하
가성비
창세기전
Say
##HN
야가미
그랜트
마음먹
왼발
##펠트
유니버설
야권
운하
쿠레
USS
횃불
나성
물리공격
흉기
나카지마
스태미너
##ANCED
돌이키
개머리판
##간다
##arth
##태현
3500
끌어안
##천왕
악재
탁구
##닷컴
올림
강급
##검찰청
저격소총
거너
구위
한없이
성운
원안
제이미
##키드
##타라
저축
허드
Def
최준
데비
원내대표
안영
##onna
난데
510
앙상
Space
땅굴
스스
비평가
언뜻
왕권
동시치
802
모하
바래
232
루트비히
릴레이
위그
펠레
개전
설날
##붓
노련
여제
##렌스
##팔이
료코
##하르
피통
극하
희소
격납고
기색
선량
##34
##우옌
반년
them
불륜
작센
Beat
초만
##구라
재탕
##ours
속죄
##란다
포구
##호가
살육
##랜더
아제르
자그마
위저드
세네
후추
플라워
최승
체조
##타니아
규슈
미적
장이
하룻밤
상디
무예
문인
일제히
카부토
her
##땡
에델
흑발
이석
##구석
만연
산산조각
타깃
풀어내
마음속
전화번호
빗대
시트콤
기껏해야
그늘
대항해
##기반
성소수자
편향
페르디난
이니시
통통
##ena
브렌
르블랑
해부
아오키
##hammer
##보통
##형사
백경
뉴이
종료시
자일
최장
진명
##글라
클라라
츠치
WORLD
규어
내던지
국한
들이받
##원숭이
##환자
640
훌쩍
알렌
사춘기
토사
밀리터리
##세인
공과
분양
공식전
도네
Orig
##ames
노리코
일렉트릭
제각각
소서
이클리
가우스
봉건
얄짜
ADVANCED
파탄
음절
희한
롱노트
프랑켄슈타인
애슬
제네레이션
초필살
근교
검색어
중형전차
GC
것같
변칙
몰아가
아키텍
시범경기
체이서
##지식
하루히
스트롱
연쇄살인
루팅
로드리게스
합숙
내려치
포도주
##솥
염증
로빈슨
이비
##가량
포박
백년
풍습
족족
인위
Dest
태반
누비
폐인
동떨어지
지원자
득점왕
명예훼손
##헬기
Mac
플롯
불명예
사파이어
부우
얼른
미니어
LCS
맥도날드
깐
다던
미우라
##ement
##thing
통솔력
코로
##베어
팔아먹
관내
레드삭스
배럴
테드
협주곡
숙제
향신료
엘사
샤르
##광주
과거사
앞머리
주저앉
Zero
쓸리
중등
외동
##죽이
스캇
!!!
LOL
사들이
##티모어
사무총장
스콜피온
##rough
대의
안착
하드모드
##aid
반열
외할
화순
##테르담
##공인
동일본
니콜라이
총체
이적시장
파라과이
에디터
##ways
엽기
서스펜션
오소
후사
쿠루미
히데키
칼데아
강북
민병
공모전
GOT
##해양
샛
넥스트
시우
유티
뒤따르
한테서
##수행
산림
성화
다케다
한류
##무성
루디
플랜트
월말
팰리스
밀짚
##츈
길가메쉬
한시
Story
##마의
##태평
못보
친왕
은둔
카나코
305
멕
항일
금정
##활성
사일런트
##리엘
바르샤
열강
홍련
스핏
계약서
태권도
혼내
325
she
못가
심해
##세이버
교원
담보
PERF
모탈
##마귀
린드
##워지
린다
메모리얼
##믹스
격변
짝수
Home
##DER
파충류
##청구
##스테이트
##리스타일
독창
##UG
##트루
##카메라
문예
에비
아스가르드
##ta
유품
달랑
##피카
관왕
로지
충당
시급
##특집
벨리
##ano
와해
아라시
이부키
쿡
홍차
프리랜서
정근우
##반부
##느러미
밝기
뫼비우스
마방
코일
이용한
일상생활
안대
다는데
##특성
-!
##주식
##분열
번쩍
##악관
타사
깨뜨리
##une
투지
프리티
##시내버스
쟤
##so
불어넣
KC
가열
##동사
명제
이슬람교
##계수
명절
걸스
견주
##시인
면담
더욱더
사보
##상어
프되
Ry
스프레이
##ait
##ANG
연장선
정형돈
NASA
웅장
이사벨
수호신
쾌적
양천
왕정
스크류
꼬맹이
셧
이모티콘
뒤엎
##배상
자초
##도현
번외
IBM
몰려들
치우치
조나단
떠넘기
제라툴
마검
텐션
금천
미스테리
Japan
##덕이
클라이맥스
미상
Stri
혈압
겐지
미타
등장시
스타킹
덴마
치환
공격진
##하키
된
혹시나
물어뜯
듣보
읽히
묵묵
##플린
##그럽
##화가
##다테
교외
단국
사이키
티르
클로이
아카이브
##썩
##self
친숙
##코믹스
라나
장영
개인차
둔기
##구루
굴절
발랄
##err
이경우
다나
##톰
미야코
오정
단의
로밍
제련
##매기
프로테
포뮬러
레니
MAD
종업
연막탄
치아키
사이코패스
굶주리
##네이트
##회피
참호
괴로워하
증진
마이어
기념비
포세이돈
##bal
고비
갉
해인
다이애나
기념일
강민호
Hel
머큐리
마구잡이
인디애나
렬
신재
엔딩곡
코피
레비아
웨어
미니건
Lee
##시각
년제
##ASY
Fight
##상담
차오
##바이잔
유가족
부대장
파피
셰퍼드
코앞
학회
돌발
리얼리티
##ML
고척
호루스
집게
간수
금수
왓슨
##자루
우한
관례
에그맨
피렌체
Bro
Gun
bit
##디드
현저히
##규정
피의자
임정
피아니스트
짭
네이트
##맘
함부르크
샨
##양식
절실
##ands
고군
분광
앞당기
국립공원
기형
##신저
신야
크레인
두배
줄리엣
올레
아키타
아이덴티티
Young
BLACK
##jo
수모
생소
패트
##arm
탄산
토모코
오성
근친
이하일
엑스칼리버
경계선
AAA
ph
##TER
##치원
##종점
양평
자기소개
이번작
잭스
허정
Wanna
##대성
Champion
실린더
운수
수학여행
판례
철구
##65
SUV
뒤쫓
정보통신
##iful
프로세스
암속성
프리시즌
섬머
##라니
기와
폭망
아키코
예선전
Pla
조예
선호도
호위함
로미오
##light
수렵
알려주
##바라기
유흥
노보
피에
장발
229
243
##osh
사나다
개최국
군마
##바이크
전압
환율
남해
시커
랠리
##놀드
##브레이크
##elie
돼지고기
세습
선상
김보
디셉
금빛
조선왕조
김우
양양
잠자리
페널티가
안즈
총점
딜런
사체
##부스
의미없
마사토
컬럼비아
DL
무리뉴
이클립스
갈망
폐교
페이퍼
660
방수
속초
박진영
##브리지
737
칩셋
순례
중국군
Storm
about
감명
오줌
부사
노노
잔잔
아사쿠라
##소송법
상반신
##세르
평야
##윤수
##ortex
NXT
모태
경기관총
브로리
##슬로바키아
다분
DIO
시공간
클레오
특수효과
중앙일보
##데이터
서초구
이홍
625
정준하
물류
유희열
얌전히
MIX
기폭
Pa
Kill
미도
약혼자
EL
IEM
##트럭
##댓
제때
뒤돌
##특급
##공산당
원료
단결
왕세자
장난치
연정
##여대
이산
매매
##eter
양현종
인플레이션
과부하
##경찰청
이무
카밀
##절로
갖가지
560
양조
황천
괴짜
송곳니
슬하
볼티모어
피츠버그
Jo
TC
위축
재기
##라잇
짓거리
##하자드
##베다
클럭
부포
선취
주무장
신예
실비아
급소
블루윙
프레드
##여자중학교
sec
SUPER
월트
직사
##메트로
##lease
;/
아제
마츠다
##인력
##바꿈
##군데
세가지
2400
자연히
Friend
김홍
우선순위
##리치
다굴
##쿨루스
##스와
자오
##호르
역학
##업계
식구
붕어
클로드
##햄튼
XBOX
##얹
궁예
지적받
유형문화재
타케우치
위자드
불량배
거란
테루
호평받
펌웨어
포터블
아제르바이잔
Line
쏙
공구
크리쳐
##ume
Warhammer
비야
도하
옹립
가희
플리
콜린
저음
##ines
임종
264
##77
도키
There
구기
퍼레이드
아르타니스
존기
##창민
##리카와
##쇼핑
용족
프라모델
전경
안파
남궁
마리나
##ATE
바퀴벌레
다르크
##임새
FS
부어
불굴
약초
come
라울
에볼루션
나오토
게임오버
their
돌출
정상급
목격자
##OK
내치
익사
##전문학교
모색
고압
동백
자동변속기
##통화
##ene
맥크리
실격
사이렌
슈퍼전대
이재명
통치자
제니퍼
클린턴
##바타
스피리츠
조종당
##나비
페르난도
상병
여객기
##ral
##루크
##한국
권혁
흡입
League
태극기
백종원
##장미
바드
의인
가격대
합격자
그리워하
이븐
##연주
질럿
##렐리아
ATM
이덕
지겹
끼얹
가차없이
힌두교
res
구이
파나마
승선
콜로세움
##자위대
아카츠키
에스토니아
밀짚모자
방탄복
EXTRA
월광
##카도
맴버
입각
속아
##어족
카나데
Road
대덕
월화
심영
Apple
디메리트
ma
사오리
바로잡
Green
##크로스
공격대
병풍
체코슬로바키아
심부름
레플리
토토
끝마치
올라프
하즈
반신
팬카페
765
지평
조병
디케이드
키무라
증식
국외
봉화
변속
국사
손잡
이런식
##교통공사
##지간
아지
##인증
땜
포자
들어맞
세바스
김학
출연작
미용
피콜로
카푸
편차
사단법인
##격투기
##유진
버즈
##훤
도살
배당
남주
교량
양의지
음파
육아
묘소
집어던지
증차
래리
윤지
##라인드
정시
도가
라지
돌고래
##토쿠
##zz
고트
명동
원정대
템플러
##ODE
브라더후드
##차드
본대
코우지
아칸
명실상부
##현실
총수
이케다
볼프강
##und
##ᆸ실
Intern
블러디
메릴
##수아비
호모
각주
라나
##항모
세종특별자치
##ORA
없음
##체어
##앱
남자아이
랍
##밀리아
세리카
GE
호적
303
쟈니
이방원
은인
러시아인
국토교통
금곡
251
슬럼프
수치이
슈퍼주니어
컷신
하피
김남
##꽝
위드
살벌
몸값
중앙아시아
Death
##와일라잇
##공용
##분교
청혼
가관
오블리
로어
##utiful
Tom
도카이
##헐
##가방
트와일라잇
##왈
찬란
공용어
볼리비아
net
마자
뮤비
도로시
케이스케
데스노트
노하우
최전
##ᆺ감
##ha
##마음
학명
Dead
우소
##ᆷ블
##정령
지질
카모
##베로스
##신성
계몽
어야지
##캐피탈
##VEL
얼터너
NATO
순발력
AO
SB
차고지
253
헤카
이한
교활
폭죽
옵스
##대결
베가스
황녀
##던스
행각
허수아비
유네
신스
레트
르브론
툼
##ible
##PN
이불
##루프
김응
헌트
316
끝장내
침범
건만
서자
##가면
피어스
##INAL
올림피
버서
포커스
펑펑
우라늄
등록금
정민
후리
237
수여받
Champions
노기자카
받들
레그
람보
NV
보헤
실례
두어
디멘
약품
##석탑
죠셉
일대일
비닐
합스부르크
메이트
보물상자
알렉산드르
벨라루스
Del
주세
김사
이런것
1896
-,
수두
거주민
뜯기
."
고딕
##마차
체면
업글
239
낙태
염기
지네
도시국가
##우가
부기
내신
##학사
윤회
숲속
##rol
##자본
##빙글
원동력
통폐합
##림동
연산군
TEAM
완력
타카오
동두
긍지
##루냐
쇼케이스
꽃피
부착물
화합물
##이라
완투
지니어스
탈락자
멘토
##AF
##뻑
##청소년
지방도
평일배차
바운
말뚝
래더
명지
##추진
냉철
아발
카제
##양구
여름방학
지난해
피스톨
더한
건달
##강하
제천
황재
퍼블
페널티킥
랙
라리
스탠리
아우구
스코어링
가위바위
Mal
Que
##담회
##할시
글라
##END
미나모토
억제기
결속
가락
중퇴
성악
##피디아
##법관
##외교
##언어
프로그래머
총학생회
자습
##치우
##수용
바가지
로자
애원
니까요
460
가뭄
##ᆯ레스
마성
분실
유이치
##해지
옆동네
하네
충신
낙동강
어정쩡
제동
테디
목욕탕
내포
##편의
쿠보
안팎
곡물
##클라
아마노
아카시
평시
쟁탈전
후타바
로건
스타더스트
##가짐
사토루
모성
hats
뛰쳐나가
<<
##시어
라오
허접
옐로우
하세가와
한니발
##바바
##토의
##관념
궁중
##메타
월드시리즈
##참사
예비역
구루
##볶이
반반
##테리아
투혼
프리덤
노장
##경로
도핑
##갈색
호시노
엔도
보조무기
아사미
정오
소고
남방
##설계
##네시
황산
##uss
##OUR
최진
명인
루시우
미겔
명치
경영학
사념
타이가
김상수
야시
그레이브
성단
포츈
코코로
청각
품목
EXPERT
##84
가계
##상하
구룡
무토
##협상
패전투수
##식스
##메이지
##이기
모조
도자기
네스
게이츠
껍데기
만신
##oup
DH
매뉴얼
##혁신
주말배차
우투우타
##vy
앤서니
베로니카
안산시
흑기사
아라이
초계
분대장
레이브
##광이
OC
김문
워마드
성계
##회계
북경
탄력
투자자
한겨레
Full
스사
정훈
##ental
룰렛
유투
목장
응우옌
Pass
정크
효고
에이브
헌액
힐러리
##그린
끝나기
아우르
름
##장사
##노조
아샤
해트
급수
다이나미
사카키
빙글빙글
대함
광년
hatsan
XC
이리스
##구려
##카가
백악관
축구부
깨달음
덤벼들
바사라
홉
1895
##??
노화
영정
골문
종식
차원문
브리스
유대교
로맨틱
##국사
푸딩
곧잘
니시니혼
의기
호크스
##사이저
타츠미
TSM
##시르
문화체육
##괭이
개찰구
소굴
권력자
시그널
다이너마이트
인플레
역도
교화
##ily
보좌관
위계
의구
황인
쌍방울
콘스탄티
아르테미스
##니언
구덩이
아키야마
##푸드
##메드
무법자
디스트로이어
피셔
##귀신
필리프
무궁화호
##바니
요츠
##ᆺ자루
닥터후
가위바위보
내비
Tra
마네
##aser
혈연
마이크로
WCW
농어촌버스
큼
잠재우
Games
영유
솔랭
징벌
##로얄
오열
##ground
계룡
히로미
원만
##스트럭
프랑스인
##모음
##심판
컨트리
아서스
아재
##밍고
인천공항
떠다니
242
웨스턴
##에이고
##문명
전구
손견
##낌없이
##OSS
첩자
클러스터
501
콜트
세분
##파시
새천년
뿌리치
헤드폰
대격
키프로스
듣보잡
Set
불어나
244
레전더리
레일건
나약
상고
고층
두루마리
고창
##언론
느슨
구매자
충청도
오명
직렬
##사양
당내
떄문
샌디에이고
마레
신영
명맥
탈바꿈
벅스
호타루
앙상블
어찌하
자재
번주
##UND
##툴루
left
##남동
모사
##테라스
환관
사루
천연가스버스
고귀
만화판
##포역
육사
정규리그
라가
상트
##awn
구내
데프
풀이
FT
분투
헤지혹
웬리
MAN
##섹
설치류
펜실
포이즌
방아쇠
##에나
뽕
조셉
들어주
친족
##르스
조부
##ormal
변호인
세종특별자치시
OT
##연수
김시
의구심
Pack
가발
포옹
연기대상
GAME
오두막
per
사토미
난데없이
IR
독주
SKY
쾰
MUSIC
##86
안건
리브
##에미
헬싱
로마군
##ttack
샬럿
잇따르
알렉산드리아
##영장
양팔
협업
다이렉트
수십년
비토
##74
세비야
박동
투창
루니
##메오
청문회
왜구
Mad
##댄
부조리
러프
대통령령
놀림
게일
파란
##탄불
##길동
##IDE
정신기
카이바
사냥감
sw
취소선
율리우스
연행
명상
심볼
##웜
황룡
뿌요
##ISS
원통
패러독스
한여름
개원
왕창
둘리
볼일
##오거리
모나코
유파
##몬트
납부
모모코
##gg
기약
##조부
##벌리
공산주의자
공의회
밸리
##ider
클래시
피홈런
프로레슬러
김봉
바닥나
순화
사샤
예견
황교
바이오닉
벽화
콘스탄티노폴리스
아키텍처
##전개
행크
호르몬
##만큼
##파일러
히로키
수목
옆집
락스
##갑옷
연장자
브리튼
오코
강공격
저편
삼가
페널
##맨서
캡쳐
무의미
##직전
풀네임
530
후원자
눌리
모기업
밀수
숙부
##턴트
##드런
모란
##잖
유주
분단
카우보이
판도
티아라
갈비
풍미
탑승자
세르게이
방과후
pop
도화
안락
##표시
백병전
Ah
방한
신대
덤블
샤먼
랜드마크
하산
두사람
우에노
long
위용
##버러
초메
김장
##충이
적외선
프토
난도
##연도
##헤임
위급
니지
관행
##네코
신경전
켄타
##상업
불곰
천대
##leep
관계없
와이파이
##OWER
표지판
짠
년판
미행
라즈
##종목
트럼
노무라
태아
나뭇
246
wanna
모선
비겁
슬러그
아시안게임
##뱅이
##롬
##천면
쉐보레
선구자
퀀
이국
기정
소ᄆ
##워키
##ouch
흐지
프랑코
풍요
SDRAM
활용도
주춤
##마인
호대
into
실기
##효율
모서리
퓨처스
##ESS
이회
이마이
선점
##디온
##텔라
배고프
바르샤바
Bet
Long
경산
양각
레이트
크리스틴
구세주
하체
위법
무기고
혐한
##대우
농성
칵
주희
타오
승자전
op
단수
시즈쿠
왜냐면
저절로
권속
토크쇼
주점
##onic
쳐들어가
김광현
부팅
피스트
낙타
스트레인지
##노동당
254
##민정
솜브라
하가
오토봇
동방신기
정찰기
아구
유구
##스톱
칠성
춘천시
##ience
촉매
텐트
달리하
은평
이동한
스페이
불상사
입석
갑작스레
플루토
치어리더
Tem
##그레이
번들
##매장
##퉁이
##글자
전투능력
빠져나오
우에다
유린
##키즈
브라이
학교법인
아즈텍
구만
##미래
조련
##피언
백석
##림픽
헬레
미츠키
세터
강압
재생성
##ology
압수
격발
코드네임
##yo
##루아
천차
워해머
마스터즈
카르타고
GU
##기일
머나
운행중
##프레소
전근
차고
##랫
안달
열도
이라
시립
껌
동진
원군
어르신
어머
성불
##들러
남다르
##와트
겁먹
배정받
크라이시스
백두산
##레터
에콰
##reet
Step
##렁크
시즈오카
Glo
알버트
##네시스
성폭력
##서구
은총
##찔
아우라
##빼미
##동산
두세
번안
MTV
누스
코퍼레이션
##정비
##저곳
휘발
NR
파운
토카
##스티아
도산
발자국
요제프
##에프
화이
담장
조준기
사운드트랙
##합중국
파워풀
흐지부지
##하타
연꽃
장작
##외과
been
NMB
;,
Dem
단기간
재킷
##달리스트
##비츠
##코타
활동량
아키하
려나
##껄
다람쥐
서투르
윤상
보안관
크툴루
뒷담
NCT
유토피아
##마기
후세
1080
##화재
초조
럿
고군분투
나진
물방울
핵폭탄
watch
시프
어감
##ting
전륜
이곳저곳
##box
##이전
직종
변기
##규칙
결정력
바이오하자드
훤
##iet
민망
허준
노동조합
##꼬박
사옥
미흡
만담
산란
북아일랜드
한글명
구축전차
샘플링
수교
아그니
십중팔구
Ele
원가
초빙
울릉
##꺼이
USA
개소
욘
창법
맵병기
비주류
오피셜
AH
폭락
대표곡
꼬박꼬박
248
##ots
묘비
그지없
##get
##사토
청계
##illa
치료제
엑스포
후렴구
취역
##시원
판교
프리메라
Brave
모니카
개사
##각성
금물
폄하
오펜
말버릇
서귀
분식
라프
에라
##테온
비스마르크
까칠
이동통신
공생
에콰도르
nm
##연재
##과학기술
헤엄치
##br
버크
박승
지금껏
상록
여대
##데모
스프라이트
안방
보이즈
뛰어가
주유소
쿠사나기
세밀
TRA
노년
규탄
사회과학
슬라브
VI
bla
프리드
크레용
Level
쾰른
계주
안티오
##za
다짜
싸그리
미니앨범
마주보
등대
##비율
Chap
666
거북이
Her
스무
막스
남색
306
요코야마
배수량
대대장
적의
제위
브렛
아나토
시영
길티
반대파
##32
##전화
래빗
맹독충
유네스코
알래스카
토도
##목표
쿠웨이트
가져다주
##ander
메이크업
nb
다승
신변
근소
괴뢰
쿼터백
##댕
ATP
싹쓸
송이
시발점
톡톡히
성관계
속칭
쿠페
핵융합
제이드
박지성
##GP
##제철
질타
파이팅
메사
##잡히
바오로
System
토가
브루노
Cortex
##성당
개발진
킬로미터
ㅓ요
고졸
Call
총칭
285
##쇼크
박찬호
##궂
##구로
툴팁
Key
##대포
비누
유키코
##상사
반찬
아귀
##드기
##정기
위선
남코
넋
사카가미
##mas
졸지에
포르쉐
거듭되
핍
동향
##막히
얼터너티브
커널
Spe
MOV
빗자루
박씨
효자
공손찬
김강
엘리멘
김재환
##미더
잠적
이신형
소각
##솔러
연어
워페어
블리치
충실하
##바둑
통조림
인도하
Ant
유목민
디멘션
##IAL
시라이시
미연
##조판서
망신
스크린샷
Direct
김건
디바이스
히브리
촌장
카가
##브레이커
애벌레
뉴저지
20000
##방어력
Stand
부잣집
적잖
다키
차질
코만도
##파이브
조광
후우
우후
외화
생각없이
눈알
황도
##노지
##노버
레퀴
천성
소행성
순천시
나가토
ah
모어
재물
LPDDR
부끄러
Mil
##전도
탈영
푸치
트루퍼
##쪼
##자매
##화폐
역부족
외로
울타리
카나타
위너스
##방해
##쿠보
간사이
##enn
GA
증축
##평동
스크랩
##ᆼ아
군용
신인왕
해리슨
송파구
소림
지만은
촉한
실크
에뮬
외주
충무
Cha
인조인간
po
신천지
크나크
넘어뜨리
##ense
이스탄불
안내방송
오지환
Mer
##공세
투옥
총검
##촌동
전기톱
몽고
##도끼
한라
##언니
##운동가
##94
도난
##씌우
요가
게오르
잠잠
##ᆨ스피어
컬링
팍팍
말단
과묵
양정
엔비
민주공화
성대모사
##WAR
오반
호버
재량
태초
퍼블리
연구생
솔로곡
##OTH
North
쏴
##ied
차징
발당
불시
작자
공격범위
247
이리야
재수없
Eur
##마디
##설명
##현준
##ka
기꺼이
구토
##트르
연두
극명
철원
##젠더
종업원
모여
애슐리
카디널스
et
신혼
투수코치
미야모토
트로트
Gener
현세
라오스
한국방송
헤치
##랭킹
굽히
주특기
다우
##오가
잔치
LB
탄자
리더스킬
980
머나멀
세주
김미
아이파크
기업인
Die
LM
이산화
광역시
take
고글
위스키
의복
패티
승마
##출소
팟캐스트
##고짜
성의
##갈이
##연합회
BMS
##꼭
양복
점심시간
##뚤어지
다짜고짜
##합격
타이머
EASY
##베인
재결합
키쿠치
262
color
성산
유년기
밀워키
김연아
말려들
블랑
코타
천리
텟
##손자
##ILL
다물
구작
##다인
카오
재편
브라이트
##ki
포톤
실재
텃
전자랜드
##어다니
소니아
앳
칸자키
토리노
HKT
바벨
카멜
광교
뉴턴
쫒아
에인절
덩크
가로채
번복
소프트뱅크
어쿠
정액
재우
TECHN
나연
패망
결정타
보컬로이드
##스카르
박석민
리그베다
프랑수아
하루종일
음주운전
Mel
Mnet
##자라
##크림
화살표
이양
주니치
편파
카나메
프란체
마일리지
리로드
키타로
골치아프
##기니
도안
호밍
걸어다니
던데
##외국어
피쳐링
리라
명언
난간
열등감
가샤
레진
황궁
##레카
##금액
브금
백발
마법진
정신줄
무라카미
##ove
아지르
가쓰
세손
왕도
Hell
초밥
유틸리티
자하드
##미네
유세이
로데
##라이저
블랭크
직설
##페리온
Heaven
##my
기조
요요
에스퍼
##나인
##치히
##마일
크래시
야오
방향키
수트
실록
##가슴
비잔티움
바운드
한자어
전고
레논
몰아주
수프
로베르토
헤르메스
카리브
유유히
회관
##세어
설원
레이코
다급
##키오
특수기
맥아
##정상회담
외로움
판독
##ents
징표
분당선
Port
UK
미소년
##개미
토성
##더지
망언
을까요
전시회
짧아지
470
나일
제퍼
##거부
##롭스
##생명체
##연산
무기력
흉노
발진
요네
##거시
분지
사이온
cr
문하
외견
아나스타
##태평양
##St
아놀드
요도
출소
뒤섞이
번역본
마땅히
##go
308
무용지물
레오나르도
노을
일단락
징수
자궁
일병
장창
알폰
홈팀
케이티
정신병원
옆구리
거들
색소
680
시진
조계
##면체
판넬
무적시간
체육대회
미주
##토막
##군수
##남미
운동가
야마시타
금상
갱플
##흔들
##이시
동면
유탄발사기
##구도
미디
진위
##ember
알아주
럭비
슬로베니아
항만
구라
철제
jp
팀전
가족관계
##전형
에미야
간결
쓰레기통
놀이기구
하키
지단
수첩
기나
제라드
##레임
아이린
니스
필수요소
디바인
##무도
승조
Shad
카미조
공범
그릴
##베라
부담감
일침
##버너
사채
리마
케이틀린
김유진
어류
##바겐
##구매
적나라
##분기
은어
곡괭이
제조업
유의미
쌔
주중
성행
##체크
##umb
토모야
발성
아이패드
##르르
일루
어윤수
팥
컷인
ROX
최용
##혜진
차례차례
프록
##ince
변경점
밤새
Hello
##IF
이희
경쾌
장지
특검
메이스
##미온
케이타
말썽
어쿠스틱
dr
프라이스
##크론
선술
재판부
그라가스
QS
미화
의왕
##단어
약사
린네
마츠이
!!"
구원자
선동열
서해안
KGC
시빌
추앙
Rep
객실
##yr
소관
손색
타임머신
911
##하하하하
볼드모트
마누엘
라트비아
마담
자상
파스타
키예프
##사탕
본업
순하
Lun
##트륨
방주
##add
위팀
평의회
숨통
뮤탈
위압
포스코
탈피
##uth
셋쇼
이서
공판
방청
제이콥
해남
오기
오마이
도굴
문체
단군
야루오
채색
왕후
절판
켄시로
##va
##대수
장진
카미야
프롬
교육감
동호회
##일비
레딧
다시한번
포항시
##프랑
직급
군량
양날
사무엘
##어진
미합중국
전투중
하층
사이퍼즈
304
개체수
##ection
캘리포니아주
레퀴엠
이바
비문
노티
강국
##연속
아이샤
241
인민군
미네르바
치즈루
스노우볼
카트리지
피사
잠재능력
명랑
하락세
활로
페퍼
##친왕
파라다이스
강과
이용규
단축키
카빈
침수
오사카부
휠체어
##39
다반사
##진창
##망디
##ures
앤트
ᆯ세
모면
서든
의약품
필명
카카오톡
로컬라이징
동복
녹스
##iri
황금기
디셉티콘
만물
##바토
상류층
##ᆩ음
보람
청자
송지
RGB
적국
건방지
판자
##불사
사학
파주시
##ility
헐리
Fil
##고시마
한술
서일본
##본부장
##커버리
##ates
맛집
척도
김기태
Network
##중공업
중증
발단
테스
레이서
Inc
1899
아인즈
Cup
##ᆺ가루
##ELL
메피
##irc
에스프레소
김성현
내림
##테르부르크
필립스
##꿍
국공
망가뜨리
Mach
ser
종용
색적
풍성
Esports
##요청
호송
디폴트
템페스트
사벨
드로이드
알마
네버
은화
##총회
##진보당
ZZ
##자마
##불복
##고치
손질
##aph
University
##WA
아큐
귤
스팟
##아아아아
구스타프
##급수
311
##ometh
가톨릭교회
릴리즈
속국
섹드립
Again
비키니
연평균
문건
분담
##대고
냄비
밤하늘
기간한정
##텅
##역할
코스타리카
ᆯ지언정
날라가
백상
총대주교
아와
##조명
삼총사
음악중심
##razy
베르나
##마이어
look
밀레니엄
깨알같
독고
미츠루기
새정치민주연합
rem
라그
##능력자
##빌론
##거슨
조종석
##ORPG
딱지
브랜든
사파
소용없
공물
##강호
엿먹이
##공룡
참신
리벤지
EE
메이슨
##거나
참치
본심
팬픽
##귀족
스트림
자르반
##민족행위
에밀리아
울버린
모교
##타우로스
##무용
역순
훈련병
살림
아약
레반
혼수
바이트
켄트
##타이어
인공위성
반역자
신의
버저
결집
레너드
유럽연합
##갱이
노쇠
파드
젠더
변방
박인
타카기
빙그레
일장
관련자
미니맵
웅진
##도중
##비서관
##atter
와드
꿈속
남양주시
대법관
##공고
골머리
Only
##이벤트
##도장
외과
부사장
불릿
Burst
bet
##화장
최단
##레로
몸길이
후지타
그레고리
##경력
엘렌
mg
해롭
##bit
##합성
##hem
LPL
Dig
토리코
육탄
##스코리아
오드아이
시식
수병
우스갯소리
##가르트
##돋
총신
운행시간
아드리
기니
자명
코프
외상
귀걸이
알리스타
여신전생
싹쓸이
##자랑
##미드
내지르
원점
겸손
자경
##신화
포신
에지
벌집
농경
미노루
##사제
뱃지
황건
##AKA
오와
장윤
짜내
Days
요충
심경
뒷부분
패자전
##두스
##집권
차명
##세상
좌천
후쿠다
##pm
소고기
신명
코그
겨자
탄피
오심
##정석
바카
드레이
담담
돌격병
럽
세바
입찰
##ether
소켓
저버리
##운용
최종결전
##효소
무수히
캐스
MiG
##TN
돌기
힘드
별반
씨름
Winter
##ips
##조라
패퇴
부적합
##미남
재보궐선거
제타
##츠미
달력
싸구려
##지법
셰익스피어
기나길
구판
단도
##호마
##사이더
##반장
출신지
사회학
고구마
##자전
토와
비관
내란
해바라기
디나
히키
난관
섣불리
필멸
은지원
think
점프력
기승
진홍
302
LF
##나잇
nbsp
동치
##피터
클리어시
stay
야쿠르트
##LA
타마키
안양시
피그
리옹
센다이
Gh
대천사
불빛
루시아
항마
쿠로코
브루클린
그리스인
"...
현혹
엘다
마음가짐
유리창
광명시
대도
부양
구명
와다
한화생명
헤비웨이트
검정색
Jack
##uj
제주시
총살
##ids
김해시
IB
##신라
교배
천호
봉신
##관광부
어김
수잔
선종
##분별
히비키
능통
쿠시
구설수
산물
걸림돌
박용택
##쿰
##cess
기한
##음식
아약스
종사자
##츠크
복숭아
공략법
살포
##레스테
##imes
##unk
##ᆯ라이나
INT
로군
##하고
어부
전초
##일때
로아
점장
이름값
튀니지
손아섭
노르망디
##교류
범퇴
묵인
잡아먹히
쇄도
Va
##코비치
권투
운빨
문관
국교
푸에르
죄악
Sports
name
차근
단추
커크
커튼
##als
경희대학교
##보통학교
야사
##급행
저스트
혼용
##주기
잠시동안
좌석버스
틀어박히
대명
##전드
지역예선
뒷모습
##소비
꾸짖
대방
문무
1903
수완
##아부
서고
속속
느와르
삼성전
##마이징
굵직
##셈부르크
공민왕
인페르노
외양
번역가
집행유예
에스파냐
들뜨
선착
보스방
가비
제리코
엘레나
##ᆫ스키
Inter
유적지
WA
냐
대망
##밸리
##주연
장흥
머피
DEX
아이비
워킹
따라붙
##먼지
행선지
엘리멘틀
Kar
##하스
강승
송광
엄호
##uman
630
그렉
베티
프리파라
농림
빙빙
천문학자
조미
최태
외교부
쾌감
해트트릭
Knight
조만간
House
부트
너비
바꿔
천년기
##주사
굼
송창
두들겨
동그
파밀리아
당뇨
강좌
2100
사생아
이간
##카나
호신
퇴화
시그너스
music
##수무
##해하
쿠미코
##ald
##전술
로페
픽션
##XX
악단
올가
쇼우
Wr
##베타
가로쉬
##orce
깨물
##층석탑
연장포
보건복지
자신있
근위대
창건
믿기
아이스하키
오재원
민주공화당
##ved
노량
##면사무소
백야
빨래
##신공
##성어
따름
탑솔러
한진
##ᆺ타
비호
서프라이즈
##애자
헬레나
##시게
오레
##부품
멸시
전방위
주리
밀크
##캐치
코너킥
경도
원딜러
매화
관성
오른발
샌드백
GF
##동역
관중석
아톰
전액
불씨
##론드
오해받
브룩
바하무트
##로니
자속
##타선
불의
##세유
##ico
영등포구
순양
올빼미
출입문
디저트
기아스
룩셈부르크
iP
##37
##식식
리츠카
발췌
드미트리
샌즈
주박
##오빠
성조
피스톤
##단원
##벅스
인술
박한
프로펠러
둘러대
어시
일그러지
스레드
##추세츠
표범
##isode
##헌법
환상향
데드풀
물속
스타그램
어느쪽
##겨우
대열
설진
음질
쿠르드
어다가
플러그인
Snow
니깐
순번
윤보
비정규
노사
##솜
##체험
렀
슈퍼볼
##완료
##emy
객차
카가미네
나즈
종군
눈매
##시아키
무한히
##REAM
CLG
에인절스
다마
##토마
##랄라
쇠사슬
엉망진창
일류
신차
단층
북동부
분과
종래
붉히
##테이커
More
##리프트
##행진
메신저
오리엔
##덥
수로
노다
##해석
##캐로
사유리
미켈
포제
속마음
거주자
##VEN
자포
비등
##마블
##클레
##IKA
아인슈타인
모의고사
##참모총장
초토화
주상
##사메
타일러
역동
분개
획기
저승사자
신음
##스킷
NCR
번번히
컴플렉스
콤플렉스
##기름
피규어
애기
미국식식
##lin
구가
##세라
증정
After
쑨
대첩
##게더
노동력
##축구단
카탈루냐
##31
미개
배달부
친정팀
##리언
제레미
##버둥
초안
몇명
네크로맨서
유폐
광주시
##프레이즈
손아귀
짬뽕
어김없이
were
일구
다발
문항
미스틱
회식
작명
판박이
빼먹
포르투갈어
은지라
##찜
##캐스터
둔갑
##컥
빅스
위구르
##적으로
##골목
근거지
웃음소리
바바리안
##기한
신시내
원투
용접
달구
##막이
암스
계약금
SSD
버서커
조동
번뇌
블로우
관리인
mod
보옥
포킹
근간
수도사
약탈자
이나바
상원의원
티타늄
Ice
타무라
##분리
양수
니아
##BE
스카이워커
조승우
##데일
초판
##파노
울림
##ella
처칠
사나에
신시내티
니케
##공영차고지
##인상
한바탕
##반짝
##무가
##배구
흥선
##스테이지
쯔위
잔상
Year
760
복음서
중성자
장료
안드레아스
%]
##관리위원회
구약
고프
안구
##실드
##표정
뜻대로
##일행
타이거스
김동현
조시
종일
##다음
남하
국영
가나가와
오릭스
에루
990
기하학
##지정
카드팩
##플레이어
환승역
xC
개업일
##꾼
적장
555
##ori
핸디
이공
나코
희극
나뭇가지
숟
유골
발버둥
##fl
에토
배틀로얄
아리마
##분자
손승
카이지
##도비
##전산
##건창
##예스
빈자리
##듀오
책임감
보드게임
장만
상당부분
골든글러브
모세
경장갑
그래미
경부고속도로
진구지
중남미
##oph
him
로라
마개조
보그
They
윈도
Lost
고찰
리벨
비료
960
##마이오스
도합
신형
푸틴
핸들링
도태
선승
##게티
객원
차르
물몸
하루나
PPV
네이션스
미팅
이해관계
점령지
##72
산요
흉부
제아
코레일
여러차례
##사지
병자
크리처
오키타
~.
2200
편집장
핫토리
원체
##글라데시
내쉬
하야미
피격시
비웃음
game
접착
##시테
##기원
##덕지
우주인
마사유키
야만인
##레마
##군인
날렵
Arc
감축
네온
펜싱
맥스웰
이바라키
최민
막사
미니어처
TA
하청
필리스
역사학자
유화
원주시
불경
에반스
##재현
재방송
악녀
운영중
염원
험난
반포
케냐
Under
##발동
트랭크
잡담
마동
신통
의과대학
실화
아머드
위니
영월
##방영
침략자
마샤
코라
착탄
##othing
어드밴
불계승
문제없이
바로크
295
부지기수
상아
로엔
봉지
찝
##잔치
수은
##요새
승산
Rob
미야기
알카
확충
404
##맞춤
610
##촨
가독
리차드
귀가
덩굴
Cur
고야
##zer
하복
##피리
##저버
차기작
내셔널리그
Mc
알론
태후
기저
##부림
슬러
정규앨범
공백기
dream
##게인
이시스
윤치
공주영
Imp
캐쉬
##....
소수자
비축
경순
##캅
손해배상
부자연
다이나믹
##지명
방글라데시
라멘
열폭
제이나
갈아엎
Gra
##법칙
##심리
헤일로
동포
매월
채광
항전
합세
580
##ving
##리프
바빌론
##선교
못받
벡
병크
유키오
Anim
동양인
png
역이용
바닷물
VC
##ITE
흩뿌리
로시
메스
객체
펠리페
시들
철판
유키무라
통곡
MMORPG
사역마
##더블
네르
떠도
굴곡
##YS
고쿠
도무지
우시
박제
Why
질투심
수석코치
세바스찬
##히드
공언
##루카
퍼거슨
종합격투기
간간이
수두룩
백조
stop
위키피디아
##자살
민수
북서부
##폭스
우에스기
전의
조례
무구
출항
축물
아캄
##ARK
스크림
##ᆸ쓰
##기즈
수갑
캔스
프리츠
연합뉴스
요시코
##정보원
에르난
마유미
##가나
보령
구금
둘레
로이스
다시보
옥토
대전차포
##배경
콩라인
##현역
쿨다운
top
880
##order
Kiss
걍
타란
발작
잡음
##성사
405
탯은
##omething
해답
##네사
##집회
백과
이라던가
캐치프레이즈
마그네
도면
성욕
추력
요스케
반월
에리스
서울중앙
색다르
아마테라스
Spir
마이너리그
단과
김범
##엿
칠드런
아슈
윙어
찢기
자가용
중기관총
진주시
##레이저
열중
술자리
##그라들
Enter
일신
유리카
명색
순교자
응모
##92
시니어
보스급
002
살라딘
##fore
사울
##요한
도출
크랙
##조이
코마츠
Secret
총무
홈플러스
vol
파시즘
겨울왕국
금서목록
분데스
##ㅋㅋㅋㅋ
##신수
뱃속
##손가락
국제대회
이베리아
고동
실각
쭉쭉
유틸성
여하튼
##WS
##선진
데릭
길쭉
266
##뭉치
##마다
삼중
##82
##카츠
도부
추가시간
##묘사
영천
쓰레쉬
##INK
소질
개당
킬링
블라인드
마의
현대캐피탈
미래통합
490
HL
피날레
신창
언리얼
절도
Ann
헤비급
폐기물
war
보육
##장벽
박소
##ANCE
ACT
가도
##ᆨ시록
반짝반짝
소말리아
TL
초장
글래
##ury
소녀전선
침입자
갉아먹
하진
두바이
라벨
즉흥
마르틴
권수
away
수축
전업
오영
애니맥스
##스윙
수난
보수당
FINAL
blo
코쿠
역장
오르페
카메룬
각광받
Pan
마두
도카이도
배회
면회
피부색
##어사
영통
셔플
테레사
중무장
##유희
기념물
쟁쟁
뻘짓
급식실
자립
##반구
##규제
카키
권법
온통
샐러드
유예
영력
김대엽
의논
변덕
강구
자릿수
이해도
겨우겨우
##위반
원탑
##퀘어
##티넨
렌더링
박성준
##자유당
방전
##갈기
죠타
이리나
##mon
Roy
일일히
뺨치
강수량
공무
중파
공격자
##순교자
##꺼비
##URE
내력
디씨
블레이크
SNH
신문사
Dan
##본기
걸프
##징역
425
Reg
하퍼
위세
더글라스
얼떨
놀래
1890
김주찬
알렉산드로스
##아크
결여
딜탱
합성어
저쪽
##현희
논산
떡볶이
카밀라
##뚝뚝
IZ
##Pa
##수소
스니
반증
좀비들
포스팅
Hun
Sal
정가
카시오
현관
blue
속삭임
JB
청순
올리비아
온리
개인방송
아르고
Remix
라드
재야
쿠우
ed
기민
##부호
드나들
서건창
##월드컵
Normal
light
대소
##수요
피에로
##일자
문선
현저
함량
종신
스베누
치요
광신도
Vir
무참
항문
##규명
강력히
##aking
콕핏
##일비재
비일비재
세이렌
##혜원
초심자
매크
라모스
##입자
권영
히데오
From
오대
##비례
영예
의역
Plus
도미니카
속삭이
대의원
본연
##케라
자이로
보루시아
한국철도공사
Micro
하교
되풀이
##부활
발터
코니
토목
일본국
손패
베이시스트
더럽히
주한미군
리허
##처치
쿠로사키
공화정
매그너스
현대건설
견훤
보로
개항
##단과
##실패
토양
##워터
버팔로
쿠노
##디트
BEST
쑤시
데인
패럴
##강사
휘감
기대치
API
교통국
엎치
을려
정품
상서
##언트
str
무효표
창조주
display
Nat
##을리
종양
체온
변함없
을래
보위
점원
단체전
슈테
080
GRE
반등
남주인공
엎어지
요충지
은거
물리학자
정복자
크라켄
America
had
승수
독신
지름길
하디
유타카
##부러지
제끼
통나무
##esh
세븐나이츠
##체인지
전래
##미노
증설
쟁취
공수부대
HA
낌
한림
백승
Easy
병실
서울종합운동장
맘대로
PERFECT
add
화교
레이다
##짤이
악취
나이스
345
시계탑
노틸러스
보틀
신타로
넥타이
거장
입김
석판
아키토
By
LR
##ney
무뚝뚝
뚜벅
조쉬
005
윤정
무릅쓰
JAP
고심
초유
박희
##쩔
이건
에네
##럼블
당진
스펜
혼잣말
깡통
활기차
건대
매카
참혹
로마인
사치코
Dri
진풍경
달리기
환술
송은
아오야마
대성당
Band
##가죽
댁
양세
##곡역
프린터
연령대
##듐
인스턴트
수시
오닐
아즈마
##갈리아
##GO
##학살
마사루
이민족
시뮬레이터
일판
강가
##흐트
사법시험
부풀리
챙
마니아
영산
브렉
퍼스널
XI
##38
##이거
최경
습성
해결사
체육복
마포구
Ob
길리
탄식
옵저버
대모
Ha
전투순양함
##견인
##렁거리
810
##미어
영종
불타오르
바스티온
##차근
결탁
배신감
##erson
브레멘
하오
공상
288
전태양
프톨레
변조
##깍
후한
힛
레이크
관심사
엘리엇
자작곡
비너스
고서
의심받
##OLD
동그랗
##우체국
여력
뒤편
퇴학
강남역
오카야마
코로나바이러스
차근차근
Wol
##뜰
##con
무안
최지
차원종
518
설문조사
전권
긴밀
글로브
##감염
구미시
재촉
참배
속사
슬기
하류
메기
##벨벳
휴양
팝콘
da
트렁크
유니코드
수긍
자만
고해
정읍
중갑
##동작
연옥
질색
깔보
##대원군
주택가
들여다보
##시작
##수집
##음료
토에이
양궁
드럼매니아
톱니바퀴
만하
또봇
##판결
PTS
##녜
정산
##매이
도시전설
272
##칼라
Fant
승전
검투사
업소
서로간
MSI
GIR
##치킨
15000
랑그
Series
임창용
사이다
산재
시코쿠
모녀
별세
원더우먼
허드슨
##이다
무턱
네이밍
준결승전
이등
개소리
학설
볼거리
조조군
780
would
미제
##학년
억엔
경복궁
사회복무
AJ
아브라
제츠
성자
백금
담아내
봉투
색기
색감
흥국
bu
하긴
##orry
야인시대
부엌
타개
산성
가젯
사흘
기물
셉
##탄두
송시
사요
섹션
평평
##린이
베이컨
Video
케일
조씨
570
신분증
어드밴티지
##ᆺ가
숱
##천하
밀착
셔터
언더테이커
다재
소시지
원심
헌팅
왕자림
러블리즈
번화가
##레우스
##스트롱
GEN
지터
부조
##피크
쇼트트랙
단언
##득이
##데시코
##ublic
메피스토
도플
##노아
녹아내리
소인수
중공군
고려사
탐탁
840
조엘
만찬
강진
역관
네이비
##폭격기
복불복
형체
세네갈
꼰
위스
미치광이
용기사
봉우리
MED
도련
쿠즈
1901
##자신
탈모
모닝구
소스케
삼위
쇼미더
##주식회사
##wn
구걸
##소이
##idae
룰루
토코
려니
후부키
폼페이
오웬
연필
초승
##매트
국제선
신시
##구청장
PE
모뎀
##위주
브리티
레드벨벳
로터스
소방관
OGN
##타격
안상
라키
속수무
수원역
속수무책
##정차
범람
텔레파시
MOD
수서
##유사
안살
##석희
##글러스
##착륙
브리지
##클리어
af
하노이
발암
의수
재력
히트맨
해마
머슬
##변환
염라
납작
##셔틀
코우타
##스탱
유모
유혈
노미
재경기
게임플레이
홍명
쥐어
박사학위
1860
##결정전
가고시마
##브리오
슈우
티비
평가전
다네
상응
결점
감리
아이기스
폭염
슈투
401
땅콩
쑹
어항
대주자
마귀
무투
286
도우미
GIT
##와라노
##ato
다이고
UB
조끼
쓰다듬
레거시
딛
##은하
수비대
SPEC
##농장
상급자
##조물
만장일치
카카시
김나
힘차
니퍼트
페티
조선인민
맹공
생물체
실증
범퍼
JK
xB
##비에
스테레오
Force
상층부
대물
미혼
원서
학년때
비트코인
당선자
시멘트
##사범
소거
츠지
쿄우
ACE
##ITY
방진
하루만
상트페
기흥
##픽스
이경규
윽
##멜레
경례
박헌
##남매
SHD
하운드
수훈
##우진
머스킷
응수
화풍
도용
##만별
반문
재계약
이치노
1898
분분
##몰이
페이스리프트
실세
##ATA
ro
쟝
##MI
보크
연휴
적분
##유정
##메리
탈진
321
##매일
메탈리
주제곡
##셴
심상정
일반민족행위
299
이사오
신세기
연명
서영
##ison
판타스틱
만주국
상동
까맣
평택시
아린
중앙대학교
##농협
아랑전설
기득
##점검
멀록
격투게임
시마즈
시메
수문
형용사
##umber
윳
환기
우주세기
시설물
!!!!
놀이공원
STAGE
620
이어가
나데시코
과대
변화구
몽키
##hn
##해방군
톈진
##TLE
인스
RES
다나
##늑
리무
누드
1902
##프레임
Div
##토프
에니
민선
아야노
군장
물의
디노
근사
싸늘
##베스트
##티아스
저우
태화
습지
윗부분
파우스트
지코
기금
보일러
##전역
즉발
##스크린
오가타
FK
이언
일렉
##욘
미스코리아
##거북
안일
문정
키보
아키오
미츠루
세종대왕
정윤종
ㅕ야지
호문쿨루스
천차만별
Lu
소정
식칼
레이팅
강의실
어쨌거나
##댄서
##체이
역행
##거품
##두고
GITAD
년후
갤리
용돈
삭감
솔플
마츠리
아자르
자해
##러붙
허점
몸소
시국
출품
희석
미드라이너
EF
기뢰
##관통
예감
수순
독실
극후반
영화감독
성룡
##관객
재외
태사
창녕
타쿠마
제네바
나성범
동당
1897
KV
정열
경치
리보
달팽이
한국전력
매개체
도교
삼국지연의
##뿔소
오호
헥터
다이버
일축
애너
독사
요금제
##BT
마즈
##공급
##코아
파티마
##컴퓨터
과반수
##가야
전일
심신
##파트라
##홀름
MOVIE
포그
소수민족
주신
정호
중전
하나둘
작성자
이철
ᆫ다던지
비지
무표정
산토스
논외
Ta
아차
어라
바짝
신룡
##프스
편법
폭우
희생플라이
먹잇감
##공용버스터미널
자조
##다능
루주
312
셋쇼마루
원샷
##해튼
이동해
무신론
JAPAN
오하이
Future
공조
레이튼
##사업소
고루
문제없
후지와라노
##발전소
숟가락
##tm
##자민
발송
##셔리
die
당도
카봇
접목
357
탐지기
케이이치
##사이클
boy
기프트
경마
##공정
##당선
일반공격
쇠고기
ZERO
기계식
스포츠카
상트페테르부르크
데어
채영
##amb
than
820
##핀스
쏟아부
모니터링
중랑
##보성
힘껏
금광
##북부
##제공
초전자
묵묵히
pre
자퇴
애증
준이치
엘튼
숄
블랙리스트
마르세유
장단점
기내
##자문
호머
본점
합성수
프란치
영기재림
하울
##구모
##맡
캘
FD
데블
307
유투브
##오브
유병
##신학
후크
##재주
355
힐량
칵테일
영웅전설
현실세계
Here
하양
아파
자코
##종류
칼로리
녹슬
밥값
Fin
el
다느니
독하
잡아가
마나카
으로
Championship
발군
명종
토레스
음식물
##영웅전설
Aq
소파
##열매
포르테
아리랑
이수근
무턱대고
cod
경화
##문화사
미륵
달달
군부대
왕래
다운받
엉터리
다재다능
##봉인
중공업
까발리
애니메이션판
##경제학
der
##탐구
##오토메
##소보
박철
##극단
퀘벡
##irth
수아레스
마틸
문도
호연
could
수혈
##자산
고지대
세실
태안
##read
335
International
연약
열애
##hed
퇴진
결방
지구력
리허설
궐
열연
산티아
이동거리
2600
이즈모
사황
자키
##간부
문희
야나기
알레르기
초승달
자생
채식
##odu
아타리
제패
##acy
Queen
##ror
하노버
항공대
두산전
1894
##46
조나라
등기
원기
퍼트리
##챙이
##상실
플러
아이다
Exper
김하성
티격태격하
대작
몇백
무인역
새천년민주당
계투
꾸역
정식명칭
폭스바겐
라칸
평준
쿠와
파이크
유우기
최전방
##나물
규범
망나
석재
국방장관
섬광탄
##아떨어지
말다툼
두통
수정바람
브롤러
카트바디
GITADORA
황재균
호라
용문
축약
프톨레마이오스
사이언스
노면
##모치
맞닿
##메이카
맨션
스파이럴
뛰쳐나오
선후배
특례
간헐
쉽사리
아야메
장현
드링크
한양대학교
나지완
코볼트
남녀공학
오하이오
린코
틈틈
power
##팔리
만인
##쿠지
팬더
웨이드
미사토
메인보드
시비르
Pat
하모니
걸레
빠트리
을지언정
##네이드
Old
대서양
선단
야나
역공
실사영화
##토무
헤이즈
youtu
아냐
세심
진이
앰프
게임보이
##메로
골때리
스리랑카
카코
how
는데요
##ctor
Ill
아흐
레티
절멸
패스트볼
ᆫ다던
불과한
안드레아
적재량
강백호
##적거리
사이언
황야
템플릿
시이나
##달프
급강하
스포르
스테미
테크니컬
FOR
아케인
경찰차
아라타
지선버스
Mor
영암
##계층
데바
수백만
사계
##도바
##전등
관상
황급
급조
##unch
옷차림
아랍에미
사회복무요원
##RC
초고속
##입대
스텐
갱생
리워크
Look
BLUE
##엉이
##iw
거만
##주체
벽면
710
핑거
Work
이여
함교
금나라
민주통합
멩스크
pla
보더
##호흡
##icle
소문나
함양
##큘
지지부진
##iant
##창작
컨커
시바타
VT
유시민
브레이브스
최연성
정미
장조
끼이
아나킨
시리얼
짖
모덴
다윗
##벤션
케이코
시라누이
페르난데스
산티아고
##원리
매킨
호쾌
##왕자
쉔
횡포
##똘
##주얼
##디부
형광
코즈믹
오치
인문학
노론
우버
아우디
공기업
JD
##용어
이제야
의원직
아케치
##다희
부산시
프란시스
수상작
앙코르
아오모리
강기
로또
트레인
계속하
데뷔골
미스릴
##안경
##겟
제대로되
파이어볼
Er
Fore
Give
##크레
##ces
상국
##무제
리플레이
배양
용광
가마쿠라
자카르타
하카
마킹
화분
영영
작품상
전국구
남경
##라이크
폭장
드레드노트
##QU
##냄새
로도스
모루
등짝
##체가
재연
챈
핵전쟁
교육기관
사냥개
뎃
사이어인
누마
##페리아
Dyn
##지검
타코
두건
카츠라기
스사노오
우즈키
세븐틴
##즉
자형
##전지
제논
무분별
일본시리즈
Cla
지략
고국
##비스트
오클라
##LY
##cal
##펙션
##otion
왈츠
상이
당수
네기
삼형제
금주
##els
주문서
청취자
Aqours
Ber
##su
치매
포포
매듭
민영화
스털
크레이그
피난민
##복귀
암스트롱
##WC
##러너
저레벨
아스나
거진
신검
골밑
아리스토
유례
고저
##볶음
피시
실마리
##연예
처우
애도
지원받
##쉘
무더기
심취
베오
346
비중있
고속철
계급장
##부쿠로
276
루이즈
극단주의
고의로
비올레
이키
여실히
선데이
레코딩
복서
정찰병
배드엔딩
er
리지
직함
짤짤이
Dav
소변
통장
끝나가
홍보대사
오클라호마
##미리
진과
맨해튼
무쌍
리자드
토치
후열
현란
통지
하코다테
페트
에이핑크
아득히
아폴
영의정
발기
##레반
불복
##메즈
판치
나루미
시르
지브리
수세
##다케
방통
학장
린이
몽둥이
프라하
##지방검찰청
김민철
유즈맵
게으르
명함
최종병기
##ask
황금색
키리시마
그뒤
##제조
속내
##ender
더라고
##스가
##바보
라시현
##코이
유리코
뒷목
강경파
사범대학
##정의당
장검
더디
레이더스
##난방
##ami
마이스터
세이라
통행료
고상
장강
강풍
캐롤
복역
참전하
판별
이제르
퇴원
시에라
클레오파트라
대죄
##슝
석조
ARC
Plan
np
이근
수거
동귀
안지
점막
##봐
##sy
유강
애런
동일하나
앵무
##브라더스
RNG
##개치
##처장
여수시
##덴부르크
온천욕
Fort
도나
매리
의미있
TFT
공과대학
에밀
레저
센토
츠쿠요미
TBD
아랍에미리트
직경
##탄소
얼버
페트로
비스무리
컨택
Player
도그
슈이치
휴재
타카야마
안젤라
마셜
전량
후세인
##거래소
프랜시스
추축국
CI
불후
루갈
##렐리
sy
인더스트
치욕
친동생
총독부
신해철
꿍
우진
휴고
다이나
가디언즈
유니콘스
See
안데르
##중력
블라드
모모카
high
전학생
오븐
말싸움
##최강
우치다
앤드루
아드리아
방종
태엽
송환
##ular
통일신라
국방군
인내심
유야
명수
데포르
식감
비교적
아편
가닥
##유치원
철폐
밀폐
##픽셀
##elieve
PTSD
##눌
##레알
반정부
##호프
예니
건들
청도
컴필
특별법
이승기
모여들
주니
타스
리포터
캅
심층
직장인
미첼
백동
##렌드
art
MH
방독
에두
동해선
WIN
타파
술래
의정부시
남양주
##SH
당직
시간여행
##펑크
한껏
##만족
배재
슈타
까치
아이템전
맥기
으르
미군정
##마나
성리학
만수
Sub
세개
파훼
반향
##서류
신학자
보컬리스트
쾌거
hPa
비활성
불스
낙점
Ever
유실
가루다
아폴론
이설
자메이카
장시
##실신
##발생
INF
여고
퍼니셔
선악
치닫
##야구장
저장소
Dec
아이티
Another
말미암
Make
Squ
##보급
김부
670
등신
세그
니즘
벤트
기어코
용산구
알로
김갑
총력
비스타
블룸
##tus
##EP
이랜드
사타
돛
##디스트
##노우치
이정훈
햄스터
##마스크
생도
258
탐사선
애드온
IOC
남서부
쿠노
##앵글
Wonder
당파
강박
괌
막대기
키미노
탬파
CU
ml
보아
##분류
반토막
보호받
마사시
그레이엄
대중문화
##ICK
선제공격
##현석
체술
##괴물
707
오토메
셀카
940
미스티
용모
완치
970
257
중후반부
##사다
후신
선의
과외
사마귀
무진장
경작
고함
파블로
쇠약
Roll
rec
여과
포틀랜드
폭약
광둥
##itt
칸국
자연과학
385
야마가타
건너뛰
쇼미더머니
##토바
분탕
끝자락
여군
벳
격상
its
으세
거구
전미
에프
과천
ㅏㅆ었
벤자민
트랜스젠더
종착역
##리르
관철
APK
##꿀멍
제수
무형
효종
특수공격
둔하
주성욱
얼버무리
##정변
##케스
개인리그
어업
고흥
##파동
히요리
정신건강
퀸즈
뒤덮이
##빌라이
문종
로디
브리타니아
핫스퍼
끊임없
발가락
##라이버
은하영웅전설
개정안
상습
상봉
무전기
입안
##합체
##ddy
지급받
글로리
추태
##뎅이
컨텐더
꿋
솟아오르
연중
초신성
##저찌
잡졸
항시
침실
##ᆺ수염
카나에
Ben
##그네
권선
뉴올리
전국대회
호감도
사본
##심원
263
흐트러지
낌새
심기
간소
##질주
배웅
밥상
얼떨결
San
숙성
플라톤
##티니
##얗
##바치
데꿀멍
스모크
##개선
군정
탯을
일리노이
##교동
##민턴
의용
메들리
맹목
##네이루
##궈
스포트
##멜로
헛되
아누비스
다윈
제제
도원
소자
삼천
조선족
##OME
카네키
알론소
송은범
나팔
발걸음
울트론
루미너스
스핏파이어
미노리
##재호
##93
##니파
화승
도수
박지원
류큐
##쓰기
낙후
525
org
발명품
핥
자타
배타
두고
지지층
LoL
미카사
넘버링
Card
##vice
##티에
라이오
동호인
깁슨
##버른
bbq
글꼴
어찌저찌
##프리드
노블레스
Sea
하녀
전현
공예
영덕
##ᆯ라인
삼성화재
왼손잡이
아보
##아의
군청
이슈타르
셔틀버스
더군
서운
에린
유로파리그
츳코미
스털링
##side
조난
##판지
천정
##ellow
이승현
팔레트
볶음
사미
나탈리
토종
아나타
공리
서툴
선수생활
스커트
##컬러
소매치기
이차
##이츠
어인
총사
규합
류노스케
학교폭력
아이카츠
Ko
가우
주안
들러붙
장합
트란
hello
이교도
슈퍼히어로
어마무시
Mind
출가
스타벅스
접선
정치학
##삼성
코스케
구급차
오블리비언
으세요
모독
에렌
##테마
##넴
떠돌이
국내선
후속곡
배그
단시간
##결번
벨벳
크래쉬
부차
구치
후륜
영연방
더치
계파
맞닥
##any
##hes
밥먹
샌더스
##ava
오디세이
대꾸
##드롭
함종
링고
BY
알베르토
떡실신
프레이야
비비안
호아
%~
##리드
입소
커티스
질소
송정
##베이니아
바리안
##산부
헤아리
웨이트
문화체육관광부
자청
##투입
떡칠
##연합군
보주
피르
양띠
##공학부
김포시
낱말
아만다
비화
요직
##호시
수이
나래
순혈
##왕전
나가노
우승컵
##참여
##ote
쥬다이
##PGA
총격전
암스테르담
위전
고강
데저트
데프콘
펜실베이니아
##블링
발끈
문파
편히
외벽
즐비
매사추세츠
AGE
기입
##수선
미생물
##부담
당혹
##깎
다잡
##결사
번호판
코랄
하이데
미치루
오수
열망
스탬프
730
브래들리
Pal
##form
마다가
미요시
반일
영화진흥
요시히로
##드라실
상계
실태
단맛
##양성
능선
273
독립군
추진력
자갈
안두
##뿌요
급속히
매카트니
메즈
Ra
등반
콘도
딴지
신참
살생
액세스
베이직
에리나
전임자
지난번
아이치현
꿋꾸
##연수원
콥
##병단
황선
라이프치히
카타리나
득실차
하카타
리콜
스톱
가정교사
맥아더
이색
소박
시작점
페페
연재중
퀸시
-'
일설
스러
##노예
##reas
토론회
고사하고
##카노
디어
정영
카톡
라디
민가
포위망
유표
조디
##부기
요술
나나세
공문
##출혈
star
아우구스
글쎄
under
마중
##충돌
##무비
##집중
난조
중앙부
흥덕
수리비
칭송받
주괴
대참사
##피나
##ican
훈련장
ᆯ려면
시어머니
최동
콜렉션
킨테츠
youtube
SPECIAL
황급히
##ih
화포
요마
야미
##령우
##ories
같이하
젝스
코요
우주모함
공대공
비취
노먼
진시
보이그룹
##천후
##푸리
##메이징
##YY
참의원
궁녀
9999
Beautiful
HIV
다방면
판테온
레기온
신학교
리빙
반야
자유계약
좌회전
방사성
벅차
오시리스
Emp
수심
구박
##작물
장렬
청라
캡처
상선
##역과
##oto
혈족
True
GSM
볼드체
국토교통부
##인격
복속
친아버지
악귀
앵그리
카를로
##제이드
인양
레츠
##ffer
유사시
알아들
yul
승리자
동일시
아마네
불꽃놀이
박원순
YTN
이능
##리크
##우회
연유
##백제
다크나이트
토미노
뱌쿠
거룩
402
얻어먹
경의선
gonna
아탈
기네스
볼링
전반부
오퍼레이션
자우
성신
영화사
최고위원
신체조건
비르
카니
쓰시마
벌벌
공개일
생활관
숱하
리저
두꺼비
규명
##충격
##ollow
{{{#!
Electr
KM
##기타
강우
폭망하
##뮈
대양
선공개
더글러스
진열
너무하
세기말
어메이징
오벨
##모임
레일리
풀업
마리코
그로기
지저분
##반동
박령우
##iness
마리카
리라는
##미술관
심포니
컴필레이션
사산
개발살
324
Id
ep
리버티
단면
각성기
##인지
##탄창
지프
다국적
발화
독가스
금관
허당
클라인
멜버른
MSM
Trans
모체
세시
버나
칭기즈
곤도
##땀
930
마요이
SI
플라스
##창호
아주머니
은커녕
##교과
민요
청담
중앙정부
쫓아다니
소유주
흠집
야포
다른데
맞아떨어지
##결제
몇달
##걸즈
##ific
첼로
회고록
비정규직
정찬
리세
##들레
초소
강화도
어태커
성가
##쿠젠
283
조선군
럭셔리
TOUR
천룡
산적
##득실
양산시
스프링캠프
미즈노
친선경기
각하
화사
##보관
##일레
팀워크
삼국무쌍
##ister
셀러
##무적
장정
솔로홈런
한밤중
어니스트
죽창
박형
##북자
유희관
이왕
부름
조직력
소화기
##나츠
기척
체르
##렌트
SSS
두고두고
사륜
강물
##끓
에스컬
재판관
김민성
슬립
에너미
Bus
정략
##승지
##등판
벌목
아발론
##디슨
해괴
##평론가
설정집
우선하
경비대
여태껏
##press
신안
##레트
병아리
##scape
주창
284
386
차우찬
로페즈
대림
##라즈
우방
요나
##피트
##코니
##평리
주영
세타
종언
참회
본교
독침
원맨
다마스
261
김유신
이크
중저
결판
독음
넘나들
스테인
004
Shadow
VF
##시네마
장항
##모래
에고
알람
혹자
특별편
보나
##원인
개근
피어나
양학
##푹
아야네
##벼락
##ress
##당국
밋밋
카스티야
방독면
이펙터
##다일
##ada
잉카
다카라
이택
모처럼
호두
펜티
폭주족
##전문가
시타델
-.-
Av
VOD
장승
강지
##노동자
##통행
클로즈업
세무
##토리아
삼림
발사속도
영애
버로우
역경
국가원수
석권
대학살
Arch
성나
성년
아르마
스즈미야
정준영
불로불사
OFF
##사가
오천
약국
##onight
엄친
오오타
상세히
카스가
이딴
##국인
##메달리스트
sky
오랑
선례
Dep
알비온
선발출전
사민
##크트
건륭
##las
경춘
##보로스
엘자
글루
정신차리
쥬리
보조금
##제로
고착
도형
코비
항체
유우나
드레노어
##bow
미비
후폭풍
##서치
결렬
못말리
##메카
오르내리
헬렌
아스널
트레이스
트램
배드민턴
수줍
YES
정파
오락가락
##afe
du
베레
##amage
뽀뽀
깊숙히
노원구
##과자
양해
슬래
정태
##순이
매니지
영화진흥위원회
이말
마조
자대
영생
영구결번
굿즈
번거롭
이봉
동학
석회
클리프
경쟁전
꿀리
TECHNIKA
##중일
##네오
류다희
희곡
레인지
##ives
칙령
여진족
Ve
주사기
##기종
##호테
얍
스킬셋
##지상주의
아다
##oid
하물
월달
간토
흔드
Two
고분군
##자세
추증
##선발
터득
법제
핀치
##APP
귀인
277
##자크
매물
커밍
김동준
에스컬레이터
Ka
did
방귀
리븐
일렉트로닉
송시열
다목
아니마
닝
에드가
Hz
##쭈
바인드
김옥
심재
영국령
##크랫
Fro
러스
율법
무한대
최저임금
Chapter
##전산망
Tur
건반
터빈
경쟁사
미신
비법
내통
국부
우승후보
맞닥뜨리
##두대
##츠네
백운
잔느
구조대
베네딕
##MM
전시장
조석
투석기
음독
기계족
이정현
라쿠텐
조이드
##야드
남송
파밍하
오송
야고
손보
015
유즈키
철인
컨설
##구장창
수동변속기
개척자
승하차
시판
##사례
이지선
주현
안토
양준혁
열두
심장마비
하후돈
번도로
재조명
심도
크리스티아
카이로
보장받
호수비
슈티
처벌받
##갱어
보디가드
이너
##ini
밟히
신경쓰이
아유무
고우키
Intel
지브
##태그
슐
이종범
이타치
이차원
아도
그와
##곶
발의
##공대
코에이
캐럴
벌점
이시이
870
김태원
야생동물
알프스
##교포
서예
물들이
##개방
프로그
판국
323
스위칭
Leader
밀레시안
전일본
해일
교파
프로비
플레이시
기본공격
##증명
현대인
##넘버
정몽주
유랑
총평
##그래피
##스티드
의료선
놀이터
전준
4500
론도
찬탈
죠스타
프란시스코
##얀다
중흥
##호스
여성향
하루하루
920
TK
자야
##아미
##원사
꼬드기
운동회
그루브
소인수분해
Vi
이부
중생
안마
면세
통합진보당
Head
부지런
Cost
KK
##마린
릿카
특대
투톱
요시유키
비서실장
된장
추하
금괴
민자
시전시
빌드업
신동엽
티라노사우루스
삼위일체
레코
종국
필하
주구장창
위업
##면역
CHA
강릉시
UD
추존
음악방송
컴파일
디아스
##를리
##ja
동형
국호
려는데
베스트셀러
부러뜨리
##미수
인척
##신부
추악
상처입
한화전
협동전
대표자
후지이
##AMP
의무병
캔자스시티
등불
방계
숙달
뻔히
투표수
히데아키
영락없
무심코
월남
##노비치
독기
클라리
왜군
듀란
캠벨
근본주의
Christmas
셧아웃
##티넨탈
도플갱어
Earth
##퍽
##97
아스트라
구릉
##너리
딜레마
로드호그
텐마
사쿠마
모데
해파리
로케
##추적
민주자유당
Silver
Burn
화음
완충
화염병
구원받
뽀삐
맞춤법
타블로
누설
294
##ᆻ다오
NBC
지팡
내막
니얀다
##좌석버스
이범호
Tok
##만장
##개편
샤인
운전면허
서브컬쳐
매니지먼트
miss
캥
##미경
바키
고룡
강정호
상처받
대항해시대
Global
##CO
수풀
네비
육손
롯데전
이태양
프란치스코
##관찰
##덕분
피로도
냅두
Double
파즈
##연결
병법
멸칭
소비량
##알리
이같
생모
황위
핵미사일
성균관대학교
.?
아레
소치
액스
앵콜
HERO
work
만기
집탄
##ones
274
Street
다섯번
신일본
옴니버스
커세어
고유명사
##Boy
##마구
변변
무한정
Hand
JO
파급
히치
덴버
사가라
Want
XL
다든가
지양
수산
조진
최씨
다운타운
동귀어진
베아트
##ASH
혁명군
고요
##타리오
로니
##브로스
##ery
백어택
멍청이
터무니없
아퀴
##굿
동군
프리스타일
뉴올리언스
펜티엄
하찮
##이프
방망이
책사
녹턴
050
Cloud
리츠코
거침없이
하물며
##싶
정색
항변
003
스파르
##공업고등학교
진언
##세르크
천부
쇼타로
폐차
라스타
2800
마나미
대문자
포천
원초
악세서리
##변호사
체력회복
역사학
Reb
===
트라이얼
LD
아모
모카
피살
두발
탈의
글귀
267
Techn
아키하바라
전뇌
미주리
크라우
##슈터
##물리학
로커
예멘
착실
338
마닐라
저렙
김석
각개
우리카드
사회복지
네일
##스카이
##도마
스메
정크랫
금연
료타
명목상
##KE
직권
금동
저그전
EDG
##가쿠
화원
소연
진루
냉소
원산지
##믈
특전사
김풍
주변국
공주시
기상청
big
##클링
원유
##태세
##aint
지크프리트
메디치
사력
전상
개발중
빼어나
아케미
테레비
##보다
음표
삼인
민경
##웃음
맨발
##돈나
아웃사이더
ind
버클리
##탄병
영상물
널널
##ii
스칸
##젤로
##소속
에무
##발언
엄브
서브보컬
김정우
##ues
##port
##도록
##소닉
라가
집시
친히
특촬물
마안
엥
##딩크
##꾸러기
덴오
소지품
Hal
비슈
법관
준말
젊음
##체조
파사
야후
##독재
단지이름
셀레스
탐험대
사선
##출마
##북면
271
전화기
리미터
랴오
PART
##장로
##공부
감도
캐터
##심리학
268
에른
박력
##패닉
머금
시흥시
프로그레
얽매이
동갑내기
##스태프
노량진
##67
##마마
##동아리
감화
박선
군국
##은편
세르히
야성
재충전
켄신
리턴즈
##OTHER
MOM
기류
피폭
##대응
승화
##ating
유일무이
through
Thank
럭스
##ken
##재해
##반경
스토크
안동시
스트리머들
디스토
네프
견환
##gen
##이이
##화산
##달라
##까마귀
독려
올랜
스팸
어림
임성
아츠코
부득이
맴돌
속보
츠요시
Second
법조인
Oper
모피
회랑
맥시멈
##서인
##버니
카이사
에스페
##눈물
교도관
순욱
동력원
##르츠
##아비
천주
값싸
아야세
라던지
##처벌
코치진
경향신문
기아자동차
웅덩이
Pur
##부패
##국립
공양
출정
##파울
##블럼
징병제
제퍼슨
한산
애드립
땅바닥
닥돌
##세일
앞발
##그래프
Studio
이닝동안
415
Cho
레즈비언
그와중
##문드
##놀림
##깨우
호이
호넷
총상
신앙심
안치홍
TUN
기침
한사람
##다의
베히
관음
용신
##출구
##합병
풀어놓
국제법
베일리
DREAM
유충
레이커스
하이스쿨
마사미
##HS
사표
##치노
도성
성유
##통계
##추리
복직
헤이안
##산업단지
꽁꽁
##환승센터
##aa
학비
맞은편
##받이
켄타로
염색체
군의
우주비행
지구인
##iko
전한
소이치로
##개정
##설비
거래소
보헤미아
##계단
##포리
간담회
##귀비
Vita
##YO
수기
##가토
말벌
##코우
##bert
마천루
give
답니다
아네
반미
초석
국악
##애플
뉴트
정의감
순양전함
MAR
##램프
선덕
계왕
으뜸
키릴
AU
475
촉발
관현악
che
##KA
##갚
딧
클루
##케이프
아미노
##겹살
경시
창녀
요구사항
브루드
화물선
##배추
식탁
커서
바이어
정실
287
롯데월드
헥토르
통찰력
##하츠
정월
피타
신겐
네뷰
##꾸역
루시드
창립자
갱플랭크
Hor
##jor
시경
##주먹
정병
치치
크랭크
국지
손익
창구
니시노
Group
Electrical
Water
##지향
##수배
평론
codice
RW
금산
공포증
싸이코
바티스타
기정사실
외딴
병약
곡식
레스큐
Qual
##주부
개의
최윤
##령부
악동
우리은행
장착시
아라키
LIG
조선인민군
가꾸
김효
카드파이트
허탈
다현
특무
산정
끌려오
마르스
1880
휘발유
전란
성왕
일본프로야구
풍신
디펜더
탈리스
##경비대
윳쿠리
Sign
XG
마오카
버마
##브리아
권세
##백스
트랙터
가나가와현
##데자
##시브라
마츠오카
무디
##학기
못미치
헬리
요시카
잉어
워프레임
##파인더
##ael
##시미
##하카
##수량
바레인
타의
##계정
충만
초음파
치토세
여초
##oman
태양광
핏줄
제프리
##포지
무리없이
##테이프
스완지
꾸역꾸역
갔다오
##다임
처박히
코코아
이웃집
매섭
관청
히지
검문
서울시장
##stal
스테파니
야쿠모
일라이
##국시대
내무부
모이라
Gre
XIII
실효
달마
##lad
굴림
스위프트
헤이하치
요괴워치
수백년
드로우하
대마초
##공포증
황건적
이간질
사피
도지사
네드
##십리
징조
원정팀
##선거구
기하급수
Vers
##빽
종주
임박
지하철역
길드원
트라이앵글
##ior
김천시
트립
악순환
츠루기
리오넬
스펜서
Jr
Wel
##신앙
끌어내리
Radio
떄문에
HC
##시전
어워즈
기압
식단
머스탱
절로
의문점
싯
##락하
##귤
농산물
케스파
시전시간
too
##로더
특사
##꽂
불사신
오승환
항렬
318
적용받
곱하
부녀자
Bill
##오일
문화방송
##주아
구획
##물자
##차일드
문득
야노
히딩크
국민투표
비난받
동대구
키리카
##복선
##ANT
대중음악
원더걸스
중상위
##동굴
타순
스타터
스테이트
탐내
740
##투리
베트
쿠사카
홍시
+,
정변
영하
포교
##imate
대청
무위
##학파
군도
하이킥
이효리
자외선
일깨우
핏빛
황보
성좌
귀순
프로그레시브
어선
##광석
오프사이드
셋팅
##uz
연립
토아
시민단체
수조
인산
세미나
##ipp
노르드
어학
트론
Right
역세
##천국
자유투
닭고기
Know
##수급
매치업
신드
투닥
파이퍼
##폴드
Cross
##uff
하후연
커넥트
트럼펫
##시니
선왕
레넥
##투게더
필중
##셰비키
Speed
이혜
##대국
그러다
는다거나
309
590
##핫
##바브
본즈
##등등
네빌
뮬
키리코
오리아나
무속
치장
슈타인
석가모니
Original
Sin
유자
도선
완파
여러명
##침반
##샤르
##ters
이직
자급
##보너스
교신
벤제
아시카가
DOS
소국
관구
마그나
고담
효능
이병규
##니다
만리
별빛
##axy
전망대
마틸다
run
남우주
##춘추
뼈대
이두
가뿐
피넛
##학력
표차
음유
액자
국민정부
##usion
으려다
주민센터
여야
##루즈
포가
라이노
혈전
##셔스
개정판
##첸코
식욕
아웃카운트
호그와트
##마기카
지류
짜장면
##빈도
민주정의당
모자르
##전문대학원
한성부
수려
##나루
화풀이
중보병
타디스
우가
달렉
무기징역
스푼
##roid
END
문화재자료
god
##come
상심
내키
양키
그램
다이치
TM
가나다
여몽
세공
금제
묘호
read
실리콘
전여
두더지
첫눈
Where
아산시
나시
분대원
##와키
Episode
대주주
#==
유루
노도
안먹
패튼
자유도
휘어지
공화당
카게야마
Extra
##바도르
야타
##포이
##업소
힘싸움
백혈
응원단
미치코
암살단
묵살
이방인
기우
모텔
말자
259
##프로젝트
##튀김
##지침
##저냥
삼일
급부상
무지하
전당대회
TRPG
시진핑
Ki
조중
백팩
니달리
타카다
사무국
kW
##후이
##직할시
친화
윤석
남동부
브로드웨이
아드레
##실업
킵
티스
지배하
##찌개
아라드
정우람
VOL
모질
스물
한영
관두
길동
날조
친형
논평
알렉세이
##러피언
배낭
청송
우수학교
안쓰럽
##꺽
이찬
##텝
##ative
팬서
자기자신
pack
##퀀
양주시
퇴계
South
우완
빠짐없이
에이즈
픽시브
video
전말
스벤
최전선
문화예술
정상인
인사이드
##헴
조치원
흩날리
##live
의붓
야영
##출산
앞날
컨티뉴
쇼고
노벨상
파스칼
Lab
##68
포에
몰타
Ju
무브
신대륙
일본서기
이성열
아트록스
##소재지
Born
##가정
##도그
막심
땅속
한두번
카탈로그
레넥톤
사노
##크기
##호리
중요도
little
size
##쌔
오션
강석
탈레반
슈퍼컵
중앙위원회
초대장
와카바
쩔쩔
##오염
조소
인덕
물병
Mill
Us
##보행
##람스
남군
##받아치
홍천
글라스
퇴마
정규직
Shin
김성주
덮개
효고현
불시착
디나모
Land
##마쓰
피력
##진과
##UMI
만대
Pres
여객선
올림피아
COL
영도
배영수
휴방
신조어
Walk
중후
역겹
샤론
282
치료법
물러가
끈끈
##시브라더스
들먹이
친딸
백정
폭풍우
낭독
패자조
굴러다니
잡아당기
양승
##stic
POWER
TNA
일년
더위
온두
그냥저냥
축구팬
자폐
카다
라피스
외인
채태인
느닷
괴한
송영
씨족
손승락
Rel
유러피언
문맥
라흐
몰카
국회의장
일기장
##ji
거실
투병
곡사포
류중일
육수
##삼촌
한양대
스매시브라더스
남우주연상
FP
지병
처자
플랑크
직류
다이몬
서브픽셀
니시무라
##셀러레이터
PRE
고열
무득점
호건
경기병
청록
애니멀
차량기지
플로라
와카야마
바꿔치기
Some
교문
##ᆷ피스트
##펀트
##국민당
##우터
해적선
Mid
##ks
한식
프로포즈
압구
핵실험
혈투
테크놀로지
htm
대손
##전체
발길
서포
쉼
돌진기
리베로
friend
월경
배꼽
확연
쿠죠
##슈팅
발사대
오오츠카
그래픽카드
세카
아시아나
보름달
하하하
한남
##민호
국세
##스트리트
킬리
##망치
Chall
뿅
문호준
##구사
성토
안목
문산
일본도
빠름
할퀴
울트라리스크
오카베
중개
파마
경기일
효성
산개
웡
009
##대표팀
체인지업
##뭐
명소
결실
액정
##른베르크
기념품
마사코
##대중
위연
##극회
준코
##텔레스
위도우메이커
현생
샐리
##볕
케임
선미
우성
김밥
이동국
317
##셔닝
김재호
유라시아
may
##yl
##소자
코모
##증기
##클럭
비명소리
SoC
라네
##메키
폭등
병들
턱없이
현수막
##치마
조타
피폐
해동
천인
히트시
Iron
##**
폴로
##란도
군산시
답장
큐티
해산물
서사시
민병헌
##넘치
KL
##어티
제철
후발
##역전
단풍
본전
Ref
런들
##기테
##유행
솔져
살인범
타케다
사대
##ora
러스트
아우구스투스
도다
유급
##akes
##잔디
죠니
West
car
다든지
이그나
##멘토
세종시
##이식
##식량
남베트남
혹한
279
칸타
작업장
조지프
이그니스
비위
라고
맹주
마르쿠스
햇살
Forever
퓌
오야
##상제
298
살인자
팝업
취약점
엔지니어링
가타
승조원
나경
상도
에스카
하이드라
타임스
씹히
유달리
##창조
차지샷
앙고
플로어
대금
효도
아키모토
##REAK
black
##vin
##가하라
모비스
속어
클로저
##here
##가을
볼로
비버
카스트
##hel
File
VV
안나가
##후유
실프
##분방
금사
골판지
##삼키
긴토키
여유있
선제후
##끝내
##aeb
그림체가
세르히오
바울
##코시
##추얼
하나은행
전사자
장원준
모더
소다
##명단
##디지
##엄마
##aki
빵집
Dynam
콧수염
int
네덜란드어
운행시간표
##기본
바렛
로쿠
감차
손재주
##커드
엘리자베트
##IZ
오하
##일점
변론
##아이스
앙드레
룸메이트
##FE
##끼치
곤잘
오소마츠
##르카
화강
프로즌
##ese
##raw
수호천사
묶음
알렉산드라
로버츠
아성
포츠
##표지
청동기
급박
여성시대
##드랍
쇠뇌
제스처
##구경
강시
서브컬처
people
이회창
히토시
##편지
오이타
콘솔판
미성숙
실존인물
두근거리
##뿍
##HO
물공
##병장
니드
협소
펜던트
모노레일
WBC
주거지
기모노
##티보
##ᆯ리니
라이스
칼초
COST
미하엘
모티프
##큘럼
##ault
##of
경시청
소체
##런드
걸출
육군사관학교
엠브리오
반지름
시스터즈
카림
호오
##호란
용액
니켈
온타리오
356
아프간
##선고
창백
철강
278
##로켓
한둘
연선
신오
##레코드
쓰나미
두마리
##복음
탈북자
부정부패
정조준
난타
주치
포용
코린
길버트
폐역
볼트액션
꼰대
Ray
어펙션
##조종
호가
##병우
몽크
으스
##농업
020
ha
mind
comp
쾌활
후쿠오카현
##슈타트
Circ
붙들
깨부수
289
송승
##edia
Lord
##IVER
하아
고승
알베르
##출판
##텐션
패러다임
##헤헤
테이머
뻗치
공권력
위례
##호수
뒤흔들
##쿠레
존경받
정전식
수혜자
기말
성내
##소유
김도우
종단
브라보
휴식기
로얄럼블
츠쿠모
##캐롤라이나
수건
파시스트
매몰
라미아
##곡면
최고위
주나라
코야마
##방침
슈마
##명사전
헉
오목
동종
허스키
회생
히다카
악성
역할군
밸런
조리개
=,
그럴
촘
##촌역
##윤리
Prot
봉사활동
이봐
##대밭
미확인
테트리스
2300
항공편
종교개혁
시일
다혈
완행
##델라
사회당
스트레
미니시리즈
찰지
하프라이프
어벤저스
ElectricalBoy
Award
##날린
전희
##네프
##커버
경제성장
올랜도
유종
##관절
##박치기
격자
미드웨이
신분당선
그레고
NFC
낙오
아킬레스
융통
하라다
박민우
금수저
베히모스
LT
인민해방군
Collection
말빨
선양
##개토
##팀장
##cc
버트
애호가
속담
골자
빨아먹
롯데마트
집어삼키
전근대
Pet
sl
러커
파이로
OL
주마
일수
생쥐
진사
##평등
sur
코넬
메뚜기
하루키
겟타
비무장
종장
약캐
질기
돈독
유생
위협받
아우터
910
Gar
보이콧
플랑
동국대학교
커리큘럼
항속거리
선지자
원대
히로인
##맞이
주먹밥
##아채
##화단
우타이
리암
##글로
##착오
작사가
한손검
아랑곳
이레귤러
원탁
##관중
##네그로
송금
008
앙헬
1889
블로거
속셈
용법
츠구미
빈사상태
조인성
에르난데스
##구레
##티즈
장차
함흥
플로우
269
창업주
미형
키라리
순애
탈선
수십만
JS
공덕
##체고
프리스
져
버질
문지기
엄정
민주노동당
미라쥬
사법부
동질
플릭
##품질
명성황후
스크린도어
진천
##각류
옐
외질
이산화탄소
입담
성우극회
레인즈
##지원청
장전속도
사우루스
mon
만달러
용검
##널목
메이든
그럴싸
다목적
위배
연신
명부
초성
##예보
실패작
도망다니
def
##입장권
##사마
##계산
커스터
경제학자
옥스퍼드
##프랑스
TER
LH
##수기
리액
패링
APEX
카즈토
mag
일말
##타주
##돌격
나이키
꽃미남
기념관
레버쿠젠
벤제마
Wild
원톱
캐주얼
##덧
Plat
아나톨리아
집념
느림
농지
밤중
핀잔
Ze
알토
니시키
보고
부다
물거품
총기류
녹색당
스턴트
##ios
그정도
어조
랏
알콜
##렘린
심성
##andy
인상깊
안무가
이트
부터
소타
데코
##감옥
다이쇼
내리막
알라라크
다혈질
DRA
어시스
##사수
눈사람
도재욱
신랑
양덕
엘라
압록
퇴위
행정학
음양사
이카리
가망
##드루
제미니
고액
재치
황성
모랄
인파
급작
아리스토텔레스
##uh
공론
젝
카잔
[...]
