[PAD]	0
[UNK]	0
[BOS]	0
[EOS]	0
[CLS]	0
[SEP]	0
[MASK]	0
▁▃	-0
▁이	-1
▁하	-2
▁.	-3
▁ㄴ	-4
▁에	-5
▁는	-6
▁다	-7
▁의	-8
▁을	-9
▁가	-10
▁아	-11
▁,	-12
▁고	-13
▁어	-14
▁를	-15
▁지	-16
▁은	-17
▁으	-18
▁도	-19
▁기	-20
▁있	-21
▁되	-22
▁로	-23
▁1	-24
▁었	-25
▁에서	-26
▁ㄴ다	-27
▁그	-28
▁으로	-29
▁사	-30
▁ㄹ	-31
▁2	-32
▁았	-33
▁들	-34
▁시	-35
▁보	-36
▁대	-37
▁라	-38
▁수	-39
▁나	-40
▁것	-41
▁자	-42
▁게	-43
▁전	-44
▁일	-45
▁과	-46
▁주	-47
▁면	-48
▁적	-49
▁만	-50
▁마	-51
▁-	-52
▁와	-53
▁스	-54
▁부	-55
▁정	-56
▁상	-57
▁때	-58
▁모	-59
▁'	-60
▁오	-61
▁3	-62
▁년	-63
▁여	-64
▁인	-65
▁공	-66
▁중	-67
▁유	-68
▁한	-69
▁20	-70
▁경	-71
▁제	-72
▁없	-73
▁지만	-74
▁위	-75
▁비	-76
▁등	-77
▁무	-78
▁거	-79
▁소	-80
▁성	-81
▁:	-82
▁않	-83
▁던	-84
▁미	-85
▁에게	-86
▁개	-87
▁서	-88
▁세	-89
▁4	-90
▁조	-91
▁바	-92
▁며	-93
▁"	-94
▁내	-95
▁장	-96
▁동	-97
▁5	-98
▁방	-99
▁카	-100
▁타	-101
▁구	-102
▁연	-103
▁월	-104
▁신	-105
▁말	-106
▁선	-107
▁안	-108
▁당	-109
▁영	-110
▁때문	-111
▁후	-112
▁까	-113
▁생	-114
▁201	-115
▁화	-116
▁는데	-117
▁버	-118
▁발	-119
▁/	-120
▁아서	-121
▁리	-122
▁더	-123
▁레	-124
▁차	-125
▁크	-126
▁아니	-127
▁원	-128
▁0	-129
▁까지	-130
▁파	-131
▁우	-132
▁강	-133
▁노	-134
▁실	-135
▁라는	-136
▁최	-137
▁데	-138
▁같	-139
▁나오	-140
▁라고	-141
▁명	-142
▁문	-143
▁많	-144
▁단	-145
▁해	-146
▁불	-147
▁번	-148
▁포	-149
▁관	-150
▁특	-151
▁작	-152
▁받	-153
▁6	-154
▁역	-155
▁경우	-156
▁쓰	-157
▁결	-158
▁반	-159
▁다고	-160
▁진	-161
▁프	-162
▁10	-163
▁알	-164
▁드	-165
▁어서	-166
▁초	-167
▁배	-168
▁처	-169
▁면서	-170
▁계	-171
▁보이	-172
▁회	-173
▁S	-174
▁7	-175
▁코	-176
▁남	-177
▁19	-178
▁다는	-179
▁!	-180
▁8	-181
▁물	-182
▁분	-183
▁피	-184
▁으며	-185
▁편	-186
▁현	-187
▁치	-188
▁사용	-189
▁국	-190
▁못	-191
▁두	-192
▁출	-193
▁정도	-194
▁그리	-195
▁사람	-196
▁매	-197
▁야	-198
▁추	-199
▁이후	-200
▁공격	-201
▁달	-202
▁자신	-203
▁니	-204
▁좋	-205
▁따	-206
▁9	-207
▁점	-208
레이	-209
▁호	-210
▁저	-211
▁요	-212
▁패	-213
▁감	-214
▁트	-215
▁A	-216
▁메	-217
▁재	-218
▁캐	-219
▁M	-220
▁통	-221
▁교	-222
▁학	-223
▁등장	-224
▁또	-225
▁예	-226
▁참	-227
▁가능	-228
▁입	-229
▁형	-230
▁설	-231
▁위하	-232
▁속	-233
▁이나	-234
스트	-235
▁군	-236
▁본	-237
▁보다	-238
▁부터	-239
▁플	-240
▁함	-241
▁죽	-242
▁다른	-243
▁대하	-244
▁T	-245
▁C	-246
▁평	-247
▁ᄆ	-248
▁시키	-249
▁외	-250
▁권	-251
▁판	-252
▁게임	-253
▁애	-254
▁버리	-255
▁200	-256
▁살	-257
▁돌	-258
▁종	-259
▁용	-260
▁..	-261
▁토	-262
▁아이	-263
▁는다	-264
▁김	-265
▁음	-266
▁D	-267
▁그리고	-268
▁가지	-269
▁사실	-270
▁B	-271
▁직	-272
▁체	-273
▁%	-274
▁으나	-275
▁심	-276
▁키	-277
▁~	-278
▁듯	-279
▁다가	-280
▁잘	-281
▁맞	-282
▁그러	-283
▁하나	-284
▁만들	-285
어지	-286
▁루	-287
▁변	-288
▁네	-289
▁승	-290
▁운	-291
▁못하	-292
▁행	-293
▁올	-294
▁건	-295
▁확	-296
▁필	-297
▁히	-298
▁디	-299
▁+	-300
▁뒤	-301
▁베	-302
▁간	-303
▁?	-304
▁사이	-305
▁팀	-306
▁일본	-307
지만	-308
▁높	-309
▁이름	-310
er	-311
▁모습	-312
▁12	-313
▁박	-314
▁약	-315
▁P	-316
▁투	-317
▁집	-318
▁시간	-319
▁목	-320
▁이상	-321
▁날	-322
▁였	-323
00	-324
▁존	-325
▁활	-326
▁언	-327
▁거나	-328
▁표	-329
스터	-330
▁능	-331
▁양	-332
▁문제	-333
▁려	-334
▁캐릭	-335
▁하지만	-336
▁L	-337
▁한국	-338
▁각	-339
▁상대	-340
▁테	-341
▁으면	-342
▁캐릭터	-343
▁F	-344
▁생각	-345
▁왕	-346
▁힘	-347
▁병	-348
▁별	-349
▁G	-350
▁잡	-351
▁함께	-352
▁순	-353
▁터	-354
▁손	-355
▁시작	-356
▁ㄴ데	-357
▁천	-358
in	-359
대로	-360
어나	-361
▁따르	-362
▁11	-363
▁항	-364
▁열	-365
▁E	-366
▁완	-367
▁독	-368
▁경기	-369
▁아야	-370
▁다시	-371
▁브	-372
▁막	-373
▁당시	-374
▁프로	-375
▁ㄴ지	-376
▁겠	-377
▁들어	-378
▁능력	-379
▁먹	-380
▁블	-381
▁처럼	-382
▁식	-383
▁폭	-384
▁아도	-385
▁너	-386
▁근	-387
▁효	-388
▁끝	-389
▁가장	-390
▁당하	-391
▁그렇	-392
▁K	-393
▁복	-394
이트	-395
▁시리	-396
▁또한	-397
on	-398
▁증	-399
▁쿠	-400
▁총	-401
▁다만	-402
▁클	-403
▁삼	-404
▁광	-405
▁검	-406
▁빠	-407
▁태	-408
▁페	-409
▁플레이	-410
an	-411
▁15	-412
▁상황	-413
▁느	-414
▁얼	-415
▁새	-416
▁결국	-417
▁상태	-418
▁걸	-419
▁H	-420
▁시리즈	-421
▁R	-422
▁시즌	-423
▁많이	-424
니다	-425
▁누	-426
▁악	-427
▁카드	-428
미지	-429
▁I	-430
▁채	-431
▁모두	-432
▁충	-433
▁N	-434
▁길	-435
▁백	-436
▁싸	-437
▁넘	-438
▁ㄴ다는	-439
▁세계	-440
▁급	-441
▁곡	-442
▁존재	-443
▁슈	-444
▁친	-445
▁m	-446
▁물론	-447
▁전투	-448
▁금	-449
▁러	-450
▁커	-451
▁모든	-452
▁추가	-453
▁앞	-454
▁업	-455
▁엔	-456
▁티	-457
▁그런	-458
▁상당	-459
▁눈	-460
▁여기	-461
or	-462
▁머	-463
▁t	-464
라이	-465
▁산	-466
▁기술	-467
▁스킬	-468
▁임	-469
▁라이	-470
▁매우	-471
▁이런	-472
▁현재	-473
▁자체	-474
▁극	-475
▁달리	-476
▁취	-477
▁실제	-478
▁그러나	-479
▁및	-480
▁효과	-481
▁선수	-482
▁무기	-483
▁합	-484
▁#	-485
▁절	-486
▁엄	-487
▁O	-488
▁레이	-489
▁이것	-490
▁ㅓ	-491
므로	-492
▁팬	-493
▁레벨	-494
▁뿐	-495
▁민	-496
▁스타	-497
ar	-498
▁이유	-499
▁거의	-500
▁다면	-501
▁통하	-502
▁W	-503
▁놓	-504
▁마법	-505
▁난	-506
▁이용	-507
▁벌	-508
▁주인	-509
▁창	-510
▁철	-511
▁모르	-512
▁케	-513
▁부르	-514
▁허	-515
▁황	-516
▁찾	-517
▁역시	-518
▁줄	-519
▁관련	-520
▁16	-521
▁30	-522
▁밀	-523
▁떨	-524
▁인하	-525
▁얻	-526
at	-527
▁환	-528
▁들어가	-529
▁미국	-530
▁같이	-531
▁그래	-532
거리	-533
▁바로	-534
▁란	-535
▁일반	-536
▁처음	-537
he	-538
▁첫	-539
▁18	-540
▁다르	-541
▁지역	-542
▁해당	-543
▁북	-544
▁곳	-545
▁작품	-546
▁13	-547
▁이야	-548
▁붙	-549
▁참고	-550
▁청	-551
▁골	-552
▁워	-553
▁ㄴ다고	-554
이지	-555
▁몬	-556
이스	-557
▁어야	-558
▁탈	-559
▁기본	-560
▁특히	-561
▁아무	-562
▁여러	-563
▁귀	-564
▁나가	-565
▁격	-566
▁돌아	-567
▁필요	-568
▁199	-569
▁인간	-570
▁혼	-571
▁다음	-572
▁좀	-573
▁100	-574
▁부분	-575
▁습	-576
▁이야기	-577
부분	-578
▁c	-579
▁14	-580
▁잠	-581
▁ㅂ	-582
▁영화	-583
▁s	-584
▁는지	-585
▁대학	-586
▁밖	-587
리스	-588
▁사건	-589
en	-590
▁그냥	-591
▁법	-592
▁즉	-593
▁팔	-594
▁없이	-595
▁V	-596
▁기록	-597
▁의하	-598
▁대부분	-599
▁라면	-600
▁방송	-601
▁탄	-602
▁범	-603
지막	-604
▁덕	-605
리아	-606
▁쉽	-607
▁인물	-608
▁주인공	-609
▁자기	-610
▁째	-611
▁수준	-612
▁비슷	-613
▁글	-614
▁둘	-615
▁본인	-616
▁ㄴ가	-617
▁엘	-618
▁어도	-619
▁냐	-620
▁몸	-621
▁몇	-622
▁담	-623
▁싶	-624
▁풀	-625
▁몰	-626
▁제작	-627
▁생기	-628
▁17	-629
▁25	-630
▁방어	-631
▁쪽	-632
▁마지막	-633
▁비하	-634
▁헤	-635
▁만큼	-636
▁k	-637
▁으니	-638
▁떨어지	-639
al	-640
▁ㅂ니다	-641
▁상당히	-642
▁U	-643
▁내용	-644
전히	-645
▁암	-646
▁일부	-647
▁어느	-648
▁강하	-649
▁관계	-650
▁시절	-651
▁진행	-652
▁리그	-653
▁실제로	-654
▁국가	-655
▁갈	-656
▁00	-657
▁학교	-658
▁대신	-659
▁X	-660
▁넣	-661
▁성우	-662
▁슬	-663
▁지나	-664
▁이전	-665
▁그대로	-666
▁대표	-667
▁맡	-668
▁계속	-669
▁질	-670
▁설정	-671
▁밝	-672
▁지금	-673
▁속도	-674
▁애니	-675
▁접	-676
ou	-677
▁준	-678
▁전쟁	-679
토리	-680
▁괴	-681
▁죽이	-682
▁올리	-683
▁알리	-684
es	-685
▁울	-686
▁축	-687
다가	-688
▁규	-689
▁타이	-690
▁보스	-691
▁낮	-692
▁활동	-693
시아	-694
▁위치	-695
▁원래	-696
▁뛰	-697
▁제외	-698
▁동안	-699
▁서울	-700
▁몬스터	-701
▁멀	-702
▁기사	-703
▁만나	-704
▁므로	-705
▁2015	-706
▁피해	-707
▁감독	-708
▁너무	-709
▁우리	-710
▁츠	-711
▁기준	-712
▁의미	-713
▁평가	-714
▁망	-715
it	-716
버지	-717
▁올라	-718
▁육	-719
▁싸우	-720
▁묘	-721
▁대로	-722
▁배우	-723
라지	-724
▁언급	-725
▁이미	-726
▁ㅏ	-727
▁]	-728
▁떠	-729
▁홈	-730
▁중국	-731
▁마다	-732
▁공격력	-733
▁도시	-734
▁온	-735
▁맨	-736
▁직접	-737
▁50	-738
▁성공	-739
▁어렵	-740
▁그녀	-741
▁J	-742
가지	-743
▁메이	-744
▁문서	-745
▁증가	-746
▁빠르	-747
▁그것	-748
이션	-749
▁유저	-750
▁홍	-751
▁엄청	-752
▁과거	-753
▁데미지	-754
▁장면	-755
▁밝히	-756
▁퍼	-757
▁차이	-758
▁자리	-759
▁칼	-760
▁머리	-761
▁논	-762
▁꽤	-763
▁도록	-764
▁[	-765
▁여자	-766
▁희	-767
▁ㄴ다면	-768
▁유명	-769
is	-770
▁최대	-771
▁돈	-772
▁&	-773
▁정보	-774
▁바람	-775
▁멤	-776
▁지원	-777
▁힘들	-778
▁봉	-779
▁유닛	-780
▁버전	-781
▁늘	-782
▁2016	-783
▁2014	-784
▁멤버	-785
▁이루	-786
▁보내	-787
▁든	-788
▁설명	-789
▁개요	-790
▁듣	-791
▁개발	-792
▁씩	-793
re	-794
▁출연	-795
▁뭐	-796
랜드	-797
▁결과	-798
▁로서	-799
▁류	-800
▁바뀌	-801
le	-802
▁깨	-803
▁전체	-804
▁다니	-805
▁혹	-806
▁체력	-807
▁21	-808
▁측	-809
▁소속	-810
▁나타	-811
▁거리	-812
▁마음	-813
▁님	-814
▁방법	-815
▁소리	-816
▁딜	-817
▁친구	-818
▁이렇	-819
▁스럽	-820
▁d	-821
▁파이	-822
▁역사	-823
▁뉴	-824
▁즈	-825
▁협	-826
▁스토리	-827
ic	-828
▁갖	-829
▁영상	-830
▁선택	-831
▁당연	-832
▁링	-833
▁컨	-834
▁프리	-835
▁198	-836
▁아버지	-837
▁그런데	-838
▁씨	-839
▁제대로	-840
▁답	-841
▁센	-842
as	-843
▁불리	-844
▁갑	-845
▁남자	-846
▁22	-847
▁드래	-848
▁조금	-849
▁자주	-850
▁전부	-851
▁놀	-852
▁려고	-853
▁이동	-854
▁아이템	-855
▁<	-856
▁플레이어	-857
▁노선	-858
▁최고	-859
▁압	-860
▁책	-861
▁탑	-862
▁공식	-863
▁주로	-864
▁인기	-865
▁게다가	-866
▁w	-867
▁여성	-868
▁대전	-869
▁빌	-870
▁슈퍼	-871
▁엄청나	-872
▁나이	-873
▁발매	-874
▁보통	-875
▁침	-876
▁나라	-877
▁24	-878
▁빼	-879
▁대사	-880
▁2017	-881
▁정말	-882
라도	-883
▁걸리	-884
▁초반	-885
▁40	-886
▁최종	-887
▁향	-888
▁빠지	-889
▁샤	-890
▁파괴	-891
▁인터	-892
▁이러	-893
▁사랑	-894
▁2013	-895
▁송	-896
▁쇼	-897
▁승리	-898
▁쓰이	-899
▁출신	-900
▁농	-901
▁시스	-902
▁영향	-903
▁찍	-904
ing	-905
▁2018	-906
▁마찬	-907
▁마찬가지	-908
▁버스	-909
▁색	-910
▁드라	-911
▁모드	-912
▁대상	-913
▁방식	-914
▁성능	-915
▁연구	-916
▁동시	-917
▁비교	-918
▁기타	-919
▁아예	-920
▁끼	-921
▁작중	-922
▁성격	-923
▁라도	-924
이드	-925
▁이때	-926
▁사망	-927
▁시대	-928
▁오히	-929
이도	-930
▁습니다	-931
▁항목	-932
운드	-933
▁후반	-934
▁오히려	-935
▁정신	-936
▁서로	-937
▁뜻	-938
▁궁	-939
▁일단	-940
▁우승	-941
▁아직	-942
▁가깝	-943
▁착	-944
▁왜	-945
부터	-946
▁볼	-947
▁수록	-948
▁형태	-949
▁일어나	-950
▁강력	-951
▁유지	-952
▁a	-953
▁심지	-954
▁차량	-955
▁b	-956
▁마이	-957
▁f	-958
▁역할	-959
▁느끼	-960
▁23	-961
프트	-962
▁앨	-963
▁심지어	-964
▁발생	-965
▁학생	-966
학교	-967
▁스테	-968
▁특성	-969
▁끌	-970
▁콘	-971
머니	-972
▁포함	-973
▁누구	-974
▁애니메	-975
▁속성	-976
▁마리	-977
▁소환	-978
▁술	-979
▁모양	-980
▁노래	-981
▁운영	-982
▁만화	-983
▁월드	-984
▁잔	-985
▁원작	-986
▁2012	-987
▁특수	-988
▁오르	-989
▁짓	-990
▁기존	-991
om	-992
아가	-993
▁바꾸	-994
▁중요	-995
▁어떤	-996
우스	-997
▁사라지	-998
벤트	-999
▁움	-1000
▁나타나	-1001
▁자세	-1002
▁억	-1003
▁사회	-1004
▁h	-1005
▁o	-1006
▁이기	-1007
▁변경	-1008
▁르	-1009
▁좌	-1010
▁섬	-1011
▁최초	-1012
▁풍	-1013
▁애니메이션	-1014
▁결정	-1015
▁유일	-1016
▁층	-1017
▁액	-1018
▁석	-1019
▁이렇게	-1020
▁폐	-1021
▁거기	-1022
▁음악	-1023
▁빨	-1024
▁흑	-1025
▁어떻	-1026
▁구하	-1027
▁먼	-1028
▁과정	-1029
▁그래서	-1030
▁덕분	-1031
el	-1032
▁푸	-1033
▁회복	-1034
▁이벤트	-1035
리어	-1036
▁마을	-1037
▁시스템	-1038
▁우주	-1039
▁주장	-1040
▁모델	-1041
▁행동	-1042
버스	-1043
▁장비	-1044
▁부대	-1045
▁강화	-1046
▁솔	-1047
am	-1048
▁독일	-1049
▁흔	-1050
▁싱	-1051
▁p	-1052
ion	-1053
▁부족	-1054
▁어리	-1055
▁참조	-1056
▁맞추	-1057
▁국내	-1058
▁라인	-1059
▁완전히	-1060
레이드	-1061
▁여담	-1062
▁대한	-1063
▁난이도	-1064
▁영어	-1065
▁명칭	-1066
▁프랑	-1067
▁2019	-1068
소드	-1069
▁지구	-1070
▁휴	-1071
▁구성	-1072
▁작가	-1073
▁바이	-1074
나마	-1075
▁스트	-1076
▁드래곤	-1077
▁훈	-1078
▁이제	-1079
▁확률	-1080
▁굉	-1081
▁전혀	-1082
▁아래	-1083
민국	-1084
주의	-1085
▁뜨	-1086
▁입장	-1087
▁끝나	-1088
▁발동	-1089
▁사진	-1090
▁곤	-1091
▁활약	-1092
▁에피	-1093
▁새롭	-1094
▁숨	-1095
▁아들	-1096
▁n	-1097
▁그나마	-1098
▁혹은	-1099
▁현대	-1100
▁오브	-1101
▁따라	-1102
▁뽑	-1103
▁the	-1104
▁특징	-1105
▁짜	-1106
▁어디	-1107
▁정치	-1108
▁가격	-1109
▁이거	-1110
▁26	-1111
▁주변	-1112
▁더라도	-1113
▁날리	-1114
▁2010	-1115
▁들어오	-1116
▁다이	-1117
▁대회	-1118
▁콜	-1119
▁영국	-1120
▁굉장	-1121
▁던지	-1122
▁얼굴	-1123
▁내리	-1124
▁하이	-1125
▁먼저	-1126
▁에피소드	-1127
너지	-1128
▁28	-1129
▁자동	-1130
▁드러	-1131
▁차지	-1132
ac	-1133
▁맵	-1134
▁녹	-1135
▁할	-1136
▁제국	-1137
▁응	-1138
ol	-1139
▁영웅	-1140
▁돌아오	-1141
없이	-1142
▁잃	-1143
▁빛	-1144
▁TV	-1145
▁드라마	-1146
▁밖에	-1147
▁27	-1148
▁정확	-1149
▁하루	-1150
▁묘사	-1151
▁넘어	-1152
▁웨	-1153
▁확인	-1154
▁시점	-1155
▁죠	-1156
▁조차	-1157
▁히로	-1158
▁윤	-1159
▁얼마	-1160
▁반대	-1161
▁대한민국	-1162
▁휘	-1163
▁회사	-1164
▁공개	-1165
▁마스터	-1166
▁라서	-1167
▁견	-1168
▁시기	-1169
▁돌아가	-1170
▁2011	-1171
▁표현	-1172
▁초기	-1173
디오	-1174
▁익	-1175
▁담당	-1176
▁기능	-1177
인트	-1178
▁실력	-1179
▁연기	-1180
▁아마	-1181
레스	-1182
▁000	-1183
▁지키	-1184
▁계획	-1185
▁관리	-1186
▁쏘	-1187
▁폴	-1188
▁동일	-1189
▁생산	-1190
▁딱	-1191
▁무엇	-1192
인물	-1193
▁딸	-1194
▁=	-1195
▁맥	-1196
▁자유	-1197
▁정부	-1198
▁실패	-1199
▁그렇게	-1200
▁모으	-1201
et	-1202
▁듀	-1203
▁순간	-1204
▁판매	-1205
▁야구	-1206
▁사고	-1207
▁건물	-1208
▁엔딩	-1209
▁맛	-1210
▁헬	-1211
▁등장인물	-1212
▁았었	-1213
▁개인	-1214
▁기관	-1215
▁컴	-1216
▁뮤	-1217
il	-1218
▁그림	-1219
▁틀	-1220
ig	-1221
▁이미지	-1222
▁심하	-1223
▁으므로	-1224
▁인정	-1225
▁당연히	-1226
ed	-1227
▁적용	-1228
▁으로서	-1229
▁교육	-1230
▁Y	-1231
▁떠나	-1232
▁스페	-1233
▁경찰	-1234
▁반응	-1235
▁고등	-1236
▁라며	-1237
▁앨범	-1238
▁세대	-1239
▁조건	-1240
▁올라가	-1241
▁기억	-1242
▁랑	-1243
▁세이	-1244
▁챔	-1245
▁오리	-1246
▁파워	-1247
▁벨	-1248
▁60	-1249
▁km	-1250
▁엑	-1251
ow	-1252
소리	-1253
▁진짜	-1254
▁문화	-1255
▁족	-1256
▁기간	-1257
▁미치	-1258
▁패치	-1259
▁발견	-1260
▁움직	-1261
▁확실	-1262
▁생활	-1263
▁퀘	-1264
us	-1265
BS	-1266
▁표기	-1267
▁굉장히	-1268
▁디자	-1269
▁방면	-1270
▁도움	-1271
▁취급	-1272
▁한테	-1273
▁퇴	-1274
▁땅	-1275
▁듯이	-1276
▁프랑스	-1277
▁패턴	-1278
▁현실	-1279
▁of	-1280
▁무시	-1281
로스	-1282
▁아주	-1283
▁타입	-1284
▁처리	-1285
▁출시	-1286
▁롭	-1287
▁자면	-1288
▁29	-1289
▁소개	-1290
▁데이	-1291
▁홀	-1292
▁패배	-1293
들이	-1294
▁무장	-1295
뜨리	-1296
▁려는	-1297
▁칸	-1298
▁약하	-1299
▁킹	-1300
▁또는	-1301
▁대체	-1302
▁헌	-1303
▁굴	-1304
▁폭발	-1305
▁지니	-1306
▁단순	-1307
▁건담	-1308
▁Z	-1309
▁겨	-1310
▁중간	-1311
▁소설	-1312
▁결혼	-1313
▁그래도	-1314
▁프로그	-1315
▁지속	-1316
▁197	-1317
▁훨	-1318
▁구간	-1319
▁어요	-1320
아내	-1321
▁한정	-1322
▁싸움	-1323
▁가족	-1324
▁단계	-1325
▁계열	-1326
▁꾸	-1327
▁콤	-1328
스크	-1329
▁대학교	-1330
▁주의	-1331
▁나쁘	-1332
▁흡	-1333
▁35	-1334
▁사실상	-1335
▁약간	-1336
▁방향	-1337
▁조선	-1338
▁발사	-1339
▁랭	-1340
▁밀리	-1341
▁31	-1342
▁어머니	-1343
▁훨씬	-1344
▁어떻게	-1345
▁이번	-1346
▁v	-1347
▁구조	-1348
▁린	-1349
▁빈	-1350
▁아르	-1351
▁The	-1352
▁경험	-1353
▁위험	-1354
▁쉬	-1355
▁상승	-1356
▁ㅕ	-1357
▁중심	-1358
▁다루	-1359
▁아군	-1360
▁죄	-1361
▁세트	-1362
ad	-1363
▁ㄹ지	-1364
▁노리	-1365
▁믿	-1366
▁피하	-1367
▁동료	-1368
▁싫	-1369
▁블랙	-1370
▁운동	-1371
▁남기	-1372
▁덱	-1373
▁더욱	-1374
▁활용	-1375
▁특별	-1376
▁분위	-1377
▁욕	-1378
▁요구	-1379
▁졸	-1380
▁2000	-1381
▁상위	-1382
▁범위	-1383
▁읽	-1384
▁낙	-1385
으키	-1386
▁포켓	-1387
▁숙	-1388
▁운행	-1389
▁r	-1390
▁분위기	-1391
▁똑	-1392
이크	-1393
▁쿨	-1394
▁80	-1395
▁핵	-1396
▁쌍	-1397
▁탐	-1398
▁디자인	-1399
▁수비	-1400
▁불구	-1401
▁혼자	-1402
▁탓	-1403
▁물리	-1404
니아	-1405
▁감소	-1406
▁소모	-1407
▁시장	-1408
▁유리	-1409
▁목적	-1410
▁St	-1411
▁중앙	-1412
ER	-1413
▁여전히	-1414
▁옆	-1415
▁뛰어나	-1416
▁얘	-1417
▁지하	-1418
▁그룹	-1419
▁꼬	-1420
비스	-1421
▁흐	-1422
▁밤	-1423
▁웃	-1424
▁염	-1425
▁트리	-1426
▁나중	-1427
머지	-1428
▁나머지	-1429
▁다양	-1430
▁기에	-1431
▁37	-1432
▁500	-1433
▁묻	-1434
▁진출	-1435
▁론	-1436
▁내려	-1437
id	-1438
ot	-1439
▁율	-1440
▁항공	-1441
and	-1442
▁켄	-1443
▁설치	-1444
▁브라	-1445
ay	-1446
▁전용	-1447
스로	-1448
▁흥	-1449
▁그거	-1450
▁괜	-1451
▁세력	-1452
▁방영	-1453
▁다며	-1454
아오	-1455
▁기체	-1456
▁전차	-1457
▁꿈	-1458
▁이어지	-1459
▁프로그램	-1460
▁잘못	-1461
▁일으키	-1462
▁즐	-1463
▁축구	-1464
▁부산	-1465
러지	-1466
▁포인트	-1467
▁고려	-1468
▁런	-1469
▁러시아	-1470
ve	-1471
▁갤	-1472
▁이라	-1473
리카	-1474
▁미사	-1475
▁세우	-1476
▁선발	-1477
▁번역	-1478
▁느낌	-1479
ch	-1480
▁넘어가	-1481
▁으면서	-1482
▁종족	-1483
▁성장	-1484
▁시청	-1485
▁미션	-1486
▁90	-1487
▁변하	-1488
▁포켓몬	-1489
▁퀘스트	-1490
▁붙이	-1491
▁시도	-1492
▁각각	-1493
un	-1494
▁스테이지	-1495
▁대미지	-1496
▁스피	-1497
▁주요	-1498
▁계약	-1499
▁득	-1500
▁굳	-1501
티브	-1502
20	-1503
▁비판	-1504
▁크리스	-1505
▁mm	-1506
▁획	-1507
▁참여	-1508
▁도망	-1509
▁돕	-1510
▁성적	-1511
▁어찌	-1512
▁열리	-1513
▁l	-1514
▁고등학교	-1515
▁로봇	-1516
▁타카	-1517
▁녀	-1518
▁짧	-1519
▁가리	-1520
▁절대	-1521
▁전문	-1522
▁턴	-1523
▁투수	-1524
▁데뷔	-1525
▁거대	-1526
dd	-1527
▁마저	-1528
▁과학	-1529
▁벗	-1530
▁유니	-1531
▁애초	-1532
▁부활	-1533
▁옵	-1534
▁척	-1535
▁훈련	-1536
▁셈	-1537
▁나무	-1538
▁70	-1539
▁준비	-1540
▁렌	-1541
▁해결	-1542
▁충격	-1543
▁이해	-1544
▁만드	-1545
▁지방	-1546
▁털	-1547
▁배틀	-1548
▁논란	-1549
▁챔피	-1550
▁칭	-1551
▁스스로	-1552
▁가끔	-1553
▁일행	-1554
▁징	-1555
▁터지	-1556
▁경제	-1557
▁바라	-1558
▁생명	-1559
▁비행	-1560
▁오래	-1561
▁g	-1562
▁펼	-1563
▁배경	-1564
▁요소	-1565
▁소녀	-1566
▁삭	-1567
▁전설	-1568
▁엔진	-1569
▁조직	-1570
▁부상	-1571
▁전작	-1572
▁철도	-1573
▁벌이	-1574
▁똑같	-1575
▁규모	-1576
▁야마	-1577
▁량	-1578
▁률	-1579
통령	-1580
ro	-1581
▁도중	-1582
▁정상	-1583
▁움직이	-1584
▁벌어지	-1585
▁끊	-1586
▁자랑	-1587
▁옥	-1588
▁이루어지	-1589
▁발표	-1590
▁2009	-1591
▁큐	-1592
▁삼성	-1593
▁롤	-1594
▁무리	-1595
▁의견	-1596
▁충분	-1597
▁일정	-1598
▁랜	-1599
▁기대	-1600
▁덤	-1601
▁학년	-1602
▁죽음	-1603
▁벽	-1604
▁01	-1605
▁변화	-1606
▁스파	-1607
▁밴	-1608
▁혈	-1609
▁스카	-1610
▁직업	-1611
▁팩	-1612
▁최근	-1613
▁사이트	-1614
▁정체	-1615
▁...	-1616
▁유럽	-1617
▁45	-1618
▁스타일	-1619
어들	-1620
▁빅	-1621
▁ㄹ까	-1622
▁작전	-1623
▁기동	-1624
▁마치	-1625
▁ㄹ로	-1626
▁보호	-1627
▁공중	-1628
▁이쪽	-1629
▁예정	-1630
▁종류	-1631
▁대통령	-1632
▁아프	-1633
▁조합	-1634
▁품	-1635
▁전하	-1636
▁목소리	-1637
▁연속	-1638
▁300	-1639
다니	-1640
다리	-1641
▁요리	-1642
▁록	-1643
▁정작	-1644
▁제목	-1645
▁올라오	-1646
▁근접	-1647
▁십	-1648
▁전사	-1649
스타	-1650
▁버프	-1651
▁별로	-1652
▁신경	-1653
▁력	-1654
▁다리	-1655
▁지도	-1656
▁안타	-1657
▁장착	-1658
▁반면	-1659
▁연출	-1660
▁세상	-1661
▁빙	-1662
ir	-1663
▁나름	-1664
▁아키	-1665
▁자연	-1666
▁추정	-1667
▁32	-1668
▁냉	-1669
▁악마	-1670
▁캠	-1671
▁카이	-1672
▁대화	-1673
▁소재	-1674
▁라운드	-1675
▁수도	-1676
▁그만	-1677
▁번호	-1678
▁타격	-1679
ter	-1680
▁전기	-1681
▁탱	-1682
▁로부터	-1683
▁남성	-1684
▁저지	-1685
▁뒷	-1686
▁국제	-1687
▁제공	-1688
▁참가	-1689
▁등급	-1690
▁196	-1691
▁멸	-1692
▁연합	-1693
▁다크	-1694
▁획득	-1695
▁방어력	-1696
▁판정	-1697
수록	-1698
▁늘어나	-1699
▁동물	-1700
▁링크	-1701
▁비롯	-1702
▁따로	-1703
▁후보	-1704
▁아라	-1705
말로	-1706
▁곧	-1707
▁의외	-1708
▁당신	-1709
▁수정	-1710
▁아이돌	-1711
im	-1712
▁만약	-1713
자기	-1714
▁배치	-1715
▁각종	-1716
▁)	-1717
▁위기	-1718
▁정식	-1719
▁롯	-1720
▁교통	-1721
▁연결	-1722
▁래	-1723
▁관심	-1724
디어	-1725
▁안정	-1726
▁케이	-1727
▁극장	-1728
▁48	-1729
▁레어	-1730
▁던전	-1731
▁가르	-1732
▁나누	-1733
▁개념	-1734
▁항상	-1735
▁센터	-1736
▁사업	-1737
▁얘기	-1738
▁수상	-1739
▁시험	-1740
▁사례	-1741
▁내부	-1742
▁분노	-1743
▁쥬	-1744
▁찌	-1745
▁특정	-1746
▁가져	-1747
지션	-1748
▁레인	-1749
▁북한	-1750
▁황제	-1751
▁에너지	-1752
▁맹	-1753
러스	-1754
▁이외	-1755
▁돌리	-1756
리오	-1757
▁2008	-1758
▁민주	-1759
▁으려	-1760
▁변신	-1761
▁단점	-1762
▁지휘	-1763
BC	-1764
▁파일	-1765
▁사격	-1766
▁종료	-1767
ub	-1768
▁힐	-1769
▁단어	-1770
▁제일	-1771
나라	-1772
▁필드	-1773
▁cm	-1774
▁나이트	-1775
ag	-1776
▁놈	-1777
▁36	-1778
▁루트	-1779
▁조사	-1780
▁발전	-1781
▁따라서	-1782
▁크리	-1783
▁공연	-1784
▁향하	-1785
▁쯤	-1786
▁장갑	-1787
▁더불	-1788
▁지상	-1789
▁넓	-1790
▁물건	-1791
▁넘기	-1792
▁y	-1793
▁사정	-1794
▁미래	-1795
▁한편	-1796
▁스포	-1797
▁션	-1798
너스	-1799
▁인터뷰	-1800
동안	-1801
▁챔피언	-1802
▁33	-1803
▁이르	-1804
▁괜찮	-1805
▁사냥	-1806
▁클래	-1807
▁서비스	-1808
▁엘리	-1809
▁각성	-1810
▁외국	-1811
▁기계	-1812
▁거치	-1813
▁선거	-1814
▁점수	-1815
▁펼치	-1816
▁군사	-1817
▁x	-1818
▁최소	-1819
▁특이	-1820
▁*	-1821
라인	-1822
▁기업	-1823
▁옷	-1824
데이트	-1825
▁파티	-1826
▁아카	-1827
이치	-1828
▁업데이트	-1829
▁Lv	-1830
▁닥	-1831
▁이탈	-1832
▁살리	-1833
▁별명	-1834
트리	-1835
▁인구	-1836
▁인식	-1837
믹스	-1838
▁완전	-1839
▁사항	-1840
▁e	-1841
▁어쩌	-1842
▁코스	-1843
▁깔	-1844
▁시설	-1845
▁튀	-1846
▁해군	-1847
▁시티	-1848
▁국민	-1849
▁시전	-1850
ur	-1851
▁바르	-1852
▁화력	-1853
▁세기	-1854
▁띄	-1855
▁도로	-1856
od	-1857
▁로드	-1858
▁05	-1859
▁납	-1860
▁히트	-1861
야마	-1862
▁일러	-1863
▁조종	-1864
▁고속	-1865
▁하늘	-1866
어로	-1867
▁위력	-1868
▁제한	-1869
os	-1870
▁직전	-1871
▁달성	-1872
▁프레	-1873
▁니까	-1874
▁제품	-1875
▁닌	-1876
▁생존	-1877
▁최강	-1878
▁02	-1879
▁상관	-1880
▁가수	-1881
▁쌓	-1882
▁비밀	-1883
▁그야	-1884
▁개그	-1885
▁SK	-1886
▁th	-1887
▁마나	-1888
▁드러나	-1889
▁점프	-1890
▁오프	-1891
▁마시	-1892
▁03	-1893
▁순위	-1894
ST	-1895
▁삭제	-1896
▁',	-1897
▁교체	-1898
▁감정	-1899
▁때리	-1900
▁옛	-1901
▁히어로	-1902
▁사기	-1903
▁홈런	-1904
▁장소	-1905
▁일러스트	-1906
▁싱글	-1907
▁위원	-1908
▁벤	-1909
▁보유	-1910
▁전국	-1911
▁언제	-1912
▁역대	-1913
▁그야말로	-1914
▁목표	-1915
▁녀석	-1916
▁EX	-1917
▁학원	-1918
▁본래	-1919
▁몽	-1920
▁부모	-1921
▁압도	-1922
▁군대	-1923
▁명령	-1924
▁왼	-1925
▁이끌	-1926
▁목록	-1927
▁뇌	-1928
▁요시	-1929
▁려면	-1930
▁깊	-1931
▁더니	-1932
▁분류	-1933
▁가드	-1934
▁주제	-1935
▁출전	-1936
▁꽃	-1937
보이	-1938
▁은데	-1939
▁느리	-1940
▁독립	-1941
▁펜	-1942
▁붕	-1943
▁픽	-1944
▁잇	-1945
▁2007	-1946
모토	-1947
▁갑자기	-1948
▁무슨	-1949
▁잉	-1950
▁포지션	-1951
▁누르	-1952
▁마사	-1953
▁예전	-1954
▁멘	-1955
▁공간	-1956
▁워낙	-1957
um	-1958
▁연재	-1959
▁탈출	-1960
▁사거리	-1961
▁아스	-1962
▁속하	-1963
▁위키	-1964
▁진화	-1965
▁데스	-1966
▁병력	-1967
▁어둠	-1968
igh	-1969
▁전개	-1970
▁34	-1971
▁라이트	-1972
▁표시	-1973
▁지내	-1974
▁ㅏㅆ	-1975
▁폰	-1976
아들이	-1977
▁HP	-1978
ff	-1979
▁작업	-1980
▁중반	-1981
▁작곡	-1982
▁병원	-1983
▁떡	-1984
▁고양	-1985
▁예상	-1986
▁태어나	-1987
ut	-1988
라스	-1989
▁소련	-1990
▁크기	-1991
ent	-1992
▁포기	-1993
▁가문	-1994
50	-1995
▁베이	-1996
▁꺼	-1997
▁레드	-1998
▁의식	-1999
▁원인	-2000
▁09	-2001
▁병사	-2002
▁수치	-2003
▁낫	-2004
▁건설	-2005
▁컬	-2006
▁밑	-2007
▁톤	-2008
▁겪	-2009
▁노력	-2010
▁04	-2011
▁현상	-2012
▁겸	-2013
▁텐	-2014
▁살인	-2015
▁보상	-2016
▁거두	-2017
▁노트	-2018
▁높이	-2019
▁무대	-2020
▁정하	-2021
ak	-2022
▁전력	-2023
▁키우	-2024
트라	-2025
▁살아	-2026
▁행위	-2027
▁갖추	-2028
▁장점	-2029
▁마르	-2030
▁강제	-2031
▁포스	-2032
AR	-2033
ver	-2034
▁ㅓㅆ	-2035
▁졸업	-2036
▁윈	-2037
▁07	-2038
시마	-2039
▁카운	-2040
▁찬	-2041
▁08	-2042
▁클리어	-2043
▁미사일	-2044
학생	-2045
▁동생	-2046
▁부정	-2047
▁오른	-2048
▁06	-2049
▁효율	-2050
▁무려	-2051
▁칠	-2052
▁전자	-2053
▁웹	-2054
▁경쟁	-2055
▁아파	-2056
▁도쿄	-2057
▁비중	-2058
▁롯데	-2059
젝트	-2060
ec	-2061
▁임무	-2062
▁차원	-2063
▁숨기	-2064
▁뿌	-2065
▁194	-2066
▁확정	-2067
▁도입	-2068
▁Q	-2069
▁크로	-2070
▁고정	-2071
▁새로	-2072
▁티어	-2073
▁인천	-2074
▁이어	-2075
▁짐	-2076
▁으로써	-2077
▁드리	-2078
▁덜	-2079
▁발음	-2080
▁전반	-2081
마자	-2082
▁부하	-2083
▁이하	-2084
▁해외	-2085
▁근처	-2086
▁잠시	-2087
▁2006	-2088
▁화면	-2089
무라	-2090
▁완성	-2091
▁관하	-2092
▁필살	-2093
▁음식	-2094
▁인터넷	-2095
▁가면	-2096
▁집중	-2097
▁주문	-2098
▁보병	-2099
▁지지	-2100
▁촬	-2101
▁신체	-2102
▁꼭	-2103
▁인사	-2104
▁무한	-2105
AN	-2106
▁공주	-2107
▁파트	-2108
▁셋	-2109
▁인도	-2110
▁아무리	-2111
▁오리지	-2112
▁평균	-2113
▁분명	-2114
▁결승	-2115
▁정확히	-2116
▁라이브	-2117
▁하드	-2118
▁마법사	-2119
▁잡히	-2120
▁쫓	-2121
▁38	-2122
▁평범	-2123
▁가사	-2124
▁판단	-2125
▁한글	-2126
▁쓸	-2127
▁타임	-2128
▁버티	-2129
▁밸	-2130
▁택	-2131
▁>	-2132
▁근데	-2133
▁빌리	-2134
▁여행	-2135
▁굳이	-2136
▁붉	-2137
▁환경	-2138
▁재미	-2139
▁나서	-2140
▁유사	-2141
▁옮	-2142
▁주민	-2143
▁행정	-2144
▁수행	-2145
▁종교	-2146
루스	-2147
▁종종	-2148
▁촬영	-2149
▁꾼	-2150
▁kg	-2151
▁캡	-2152
▁몇몇	-2153
란드	-2154
▁발언	-2155
▁완벽	-2156
▁폭탄	-2157
▁기반	-2158
이어	-2159
▁줄이	-2160
아하	-2161
▁반드	-2162
▁비용	-2163
페이지	-2164
▁반드시	-2165
▁받아들이	-2166
▁선생	-2167
▁대장	-2168
▁에게서	-2169
▁단체	-2170
조건	-2171
▁다수	-2172
▁제거	-2173
▁랭크	-2174
▁직후	-2175
▁뻔	-2176
▁실험	-2177
르트	-2178
▁광고	-2179
▁심각	-2180
▁홈페이지	-2181
▁아내	-2182
▁패러	-2183
▁봉인	-2184
▁즐기	-2185
▁성향	-2186
▁플래	-2187
▁운용	-2188
▁공포	-2189
▁좋아하	-2190
래프트	-2191
▁이라고	-2192
▁페이	-2193
▁빨리	-2194
▁밴드	-2195
▁치료	-2196
▁버그	-2197
▁기다리	-2198
▁점점	-2199
▁옵션	-2200
▁오버	-2201
▁자원	-2202
▁미니	-2203
▁킬	-2204
▁전략	-2205
▁무조건	-2206
▁LG	-2207
▁암살	-2208
▁in	-2209
▁FC	-2210
▁잭	-2211
무리	-2212
▁앞서	-2213
▁조작	-2214
▁아파트	-2215
▁대구	-2216
▁지배	-2217
▁도전	-2218
▁대결	-2219
▁앙	-2220
▁단지	-2221
러리	-2222
▁디스	-2223
▁함정	-2224
▁대중	-2225
▁냐고	-2226
▁다소	-2227
▁코드	-2228
▁기회	-2229
▁특유	-2230
▁옮기	-2231
▁한계	-2232
▁컵	-2233
▁샷	-2234
▁구분	-2235
▁끝내	-2236
▁본격	-2237
▁바다	-2238
▁통합	-2239
▁다행	-2240
▁접근	-2241
로그	-2242
▁왕국	-2243
그레이드	-2244
▁소년	-2245
▁업그레이드	-2246
▁모이	-2247
▁개조	-2248
▁골드	-2249
▁따지	-2250
▁월드컵	-2251
▁흘	-2252
▁연장	-2253
▁늦	-2254
▁밥	-2255
▁고자	-2256
▁저항	-2257
▁사쿠	-2258
▁의사	-2259
▁추측	-2260
운데	-2261
▁외모	-2262
▁모자	-2263
▁시나	-2264
▁금지	-2265
▁빵	-2266
▁수많	-2267
▁군단	-2268
▁책임	-2269
스케	-2270
▁최후	-2271
▁you	-2272
▁템	-2273
em	-2274
▁정리	-2275
▁복수	-2276
▁오늘	-2277
▁쿄	-2278
아보	-2279
▁범죄	-2280
▁확장	-2281
▁오리지널	-2282
▁복귀	-2283
▁장치	-2284
▁을지	-2285
▁열차	-2286
▁부탁	-2287
▁ㄴ지라	-2288
▁는가	-2289
▁치명	-2290
ON	-2291
▁다운	-2292
▁소유	-2293
▁타이틀	-2294
▁구매	-2295
▁멋	-2296
▁스코	-2297
▁일본어	-2298
▁웬	-2299
▁MA	-2300
▁줄어들	-2301
▁디지	-2302
▁2005	-2303
▁언어	-2304
▁형제	-2305
▁젊	-2306
라이더	-2307
▁멜	-2308
▁에이	-2309
▁교수	-2310
▁부여	-2311
▁광역	-2312
버리	-2313
▁대기	-2314
▁득점	-2315
▁우선	-2316
▁브레이	-2317
▁고대	-2318
▁자마자	-2319
▁vs	-2320
ight	-2321
▁상징	-2322
▁평소	-2323
▁to	-2324
요일	-2325
ation	-2326
▁투입	-2327
▁55	-2328
▁삼국	-2329
▁혁	-2330
드리	-2331
▁가운데	-2332
▁달러	-2333
▁흉	-2334
▁인상	-2335
▁사령	-2336
▁불가	-2337
▁터미	-2338
▁대단	-2339
▁유우	-2340
▁간단	-2341
▁75	-2342
아지	-2343
▁99	-2344
▁스포츠	-2345
▁II	-2346
▁추천	-2347
▁고르	-2348
▁형식	-2349
▁영혼	-2350
▁로마	-2351
▁장르	-2352
▁해석	-2353
▁가치	-2354
▁이곳	-2355
▁2004	-2356
▁숫	-2357
▁정의	-2358
퓨터	-2359
▁앤	-2360
▁걱	-2361
▁충분히	-2362
▁자동차	-2363
▁희생	-2364
▁대형	-2365
ce	-2366
▁걱정	-2367
▁사무	-2368
▁기념	-2369
▁와중	-2370
▁얼마나	-2371
▁이닝	-2372
▁Ch	-2373
▁주력	-2374
▁ㅏ서	-2375
리트	-2376
▁리더	-2377
IN	-2378
▁입히	-2379
▁사상	-2380
▁아쉽	-2381
▁일종	-2382
▁생물	-2383
▁뚫	-2384
▁탈락	-2385
▁카오	-2386
▁망하	-2387
비아	-2388
▁카즈	-2389
▁이탈리아	-2390
▁마크	-2391
▁도착	-2392
▁마무리	-2393
런스	-2394
▁행성	-2395
▁사태	-2396
▁마력	-2397
▁스크	-2398
ap	-2399
▁비싸	-2400
▁컴퓨터	-2401
▁전화	-2402
▁인류	-2403
▁채우	-2404
▁불명	-2405
▁극장판	-2406
▁KBS	-2407
▁42	-2408
▁취하	-2409
▁이치	-2410
▁는다는	-2411
▁네이	-2412
▁폼	-2413
▁공화	-2414
000	-2415
▁재료	-2416
▁필살기	-2417
▁섞	-2418
▁잊	-2419
▁냐는	-2420
▁육군	-2421
▁PC	-2422
▁회피	-2423
▁1000	-2424
▁지정	-2425
▁무사	-2426
▁그저	-2427
▁통신	-2428
▁기지	-2429
▁닉	-2430
▁39	-2431
▁도망치	-2432
▁거부	-2433
▁서버	-2434
▁가정	-2435
▁MBC	-2436
▁셀	-2437
▁끄	-2438
▁전통	-2439
▁프로젝트	-2440
▁공략	-2441
▁먹이	-2442
▁쥐	-2443
▁엠	-2444
▁빼앗	-2445
▁행사	-2446
▁액션	-2447
▁구단	-2448
일러	-2449
ul	-2450
▁2002	-2451
▁서술	-2452
▁로스	-2453
▁단순히	-2454
▁시민	-2455
▁락	-2456
▁올림	-2457
▁목숨	-2458
▁비트	-2459
▁한국어	-2460
▁장난	-2461
▁료	-2462
▁대비	-2463
▁자료	-2464
니티	-2465
▁의도	-2466
▁보조	-2467
▁살아남	-2468
▁보너스	-2469
▁값	-2470
▁불과	-2471
▁넥	-2472
▁뿌리	-2473
▁41	-2474
▁집단	-2475
▁_	-2476
▁닮	-2477
▁더블	-2478
▁드립	-2479
동생	-2480
▁아웃	-2481
▁저지르	-2482
▁의지	-2483
▁전술	-2484
▁덩	-2485
▁박사	-2486
▁전원	-2487
▁데이터	-2488
▁괴물	-2489
▁합류	-2490
▁연주	-2491
▁구역	-2492
▁눈물	-2493
▁제로	-2494
▁실수	-2495
레이션	-2496
▁검사	-2497
▁랄	-2498
▁합치	-2499
▁딱히	-2500
▁컨셉	-2501
▁흡수	-2502
▁벗어나	-2503
▁카메	-2504
▁라디오	-2505
▁제도	-2506
나가	-2507
▁윌	-2508
▁적절	-2509
▁장군	-2510
▁빔	-2511
▁겹	-2512
▁숫자	-2513
▁맺	-2514
▁클럽	-2515
▁상대방	-2516
▁후속	-2517
ri	-2518
▁위협	-2519
▁고양이	-2520
▁함대	-2521
▁조정	-2522
▁화염	-2523
▁오토	-2524
▁타자	-2525
▁드러내	-2526
▁유키	-2527
▁대응	-2528
▁정규	-2529
▁편하	-2530
▁텔	-2531
▁장기	-2532
▁마츠	-2533
려가	-2534
▁수리	-2535
▁44	-2536
▁연습	-2537
▁저격	-2538
▁독자	-2539
려오	-2540
▁감안	-2541
▁드라이	-2542
▁앉	-2543
▁모티브	-2544
▁케이스	-2545
▁꼴	-2546
▁듀얼	-2547
▁시내	-2548
▁느냐	-2549
니까	-2550
자리	-2551
크래프트	-2552
▁약점	-2553
▁릴	-2554
▁반복	-2555
▁무섭	-2556
▁몹	-2557
▁떼	-2558
▁날개	-2559
▁기어	-2560
▁격투	-2561
▁보컬	-2562
▁지나가	-2563
▁풀리	-2564
▁들이	-2565
▁테마	-2566
니스	-2567
▁에이스	-2568
나이	-2569
모리	-2570
▁터미널	-2571
▁닥터	-2572
▁테크	-2573
▁개월	-2574
▁43	-2575
▁대놓	-2576
▁꾸준	-2577
▁들리	-2578
▁바닥	-2579
RA	-2580
▁설계	-2581
▁확실히	-2582
▁분리	-2583
▁이적	-2584
nd	-2585
▁그때	-2586
▁오랜	-2587
▁공항	-2588
▁시나리오	-2589
▁상세	-2590
▁회전	-2591
▁종합	-2592
▁공동	-2593
▁댄	-2594
▁이사	-2595
▁친하	-2596
▁코어	-2597
▁미리	-2598
▁서브	-2599
▁지나치	-2600
▁BG	-2601
타임	-2602
▁2003	-2603
▁에어	-2604
▁숲	-2605
▁투표	-2606
▁가하	-2607
all	-2608
▁요청	-2609
▁성인	-2610
▁유도	-2611
▁체제	-2612
▁페르	-2613
▁필수	-2614
▁세계관	-2615
▁지명	-2616
▁패러디	-2617
▁쓰러지	-2618
▁병기	-2619
▁소식	-2620
▁계기	-2621
▁훌	-2622
▁정책	-2623
▁날아가	-2624
▁당장	-2625
▁클래스	-2626
▁인지	-2627
AL	-2628
연히	-2629
▁컷	-2630
▁스탠	-2631
▁ST	-2632
▁51	-2633
ia	-2634
▁쳐	-2635
▁지적	-2636
▁메탈	-2637
▁지옥	-2638
▁펀	-2639
▁착용	-2640
로드	-2641
로우	-2642
▁광주	-2643
ack	-2644
▁스페인	-2645
st	-2646
▁전환	-2647
▁꼽	-2648
▁셰	-2649
tt	-2650
오르	-2651
▁오오	-2652
시스	-2653
▁채널	-2654
▁150	-2655
▁긴	-2656
uby	-2657
▁인원	-2658
▁부리	-2659
▁부수	-2660
▁미스	-2661
▁어라	-2662
▁195	-2663
▁로써	-2664
▁초등	-2665
▁스마	-2666
▁촉	-2667
▁아머	-2668
▁진정	-2669
▁승부	-2670
▁파이터	-2671
▁방패	-2672
▁선언	-2673
▁소울	-2674
▁뉴스	-2675
▁가슴	-2676
▁산업	-2677
▁편성	-2678
▁찾아오	-2679
▁관통	-2680
▁47	-2681
oc	-2682
▁배신	-2683
▁무력	-2684
▁보급	-2685
▁방해	-2686
▁온라인	-2687
▁궤	-2688
▁회장	-2689
▁중학교	-2690
▁SP	-2691
▁베이스	-2692
어내	-2693
▁차례	-2694
▁원하	-2695
래도	-2696
▁원거리	-2697
▁등등	-2698
▁모험	-2699
▁핑	-2700
▁나카	-2701
▁공사	-2702
▁소비	-2703
▁크로스	-2704
▁ruby	-2705
▁한자	-2706
▁아무래도	-2707
▁VS	-2708
▁은퇴	-2709
▁습격	-2710
▁PS	-2711
▁리어	-2712
▁에스	-2713
▁46	-2714
▁등록	-2715
▁올림픽	-2716
▁상처	-2717
art	-2718
▁언론	-2719
▁그리스	-2720
▁원정	-2721
▁관광	-2722
▁울트라	-2723
올리	-2724
▁안습	-2725
▁걷	-2726
▁엉	-2727
▁가면라이더	-2728
▁잠깐	-2729
▁특기	-2730
▁적극	-2731
▁묶	-2732
▁드물	-2733
▁놀라	-2734
▁st	-2735
▁64	-2736
▁안전	-2737
▁연계	-2738
▁저주	-2739
▁흔히	-2740
▁혐	-2741
▁카페	-2742
▁으로부터	-2743
울리	-2744
▁통과	-2745
▁토스	-2746
ra	-2747
▁인형	-2748
▁공부	-2749
PC	-2750
▁판타	-2751
▁버튼	-2752
▁후지	-2753
▁의심	-2754
▁데리	-2755
▁동맹	-2756
▁가스	-2757
▁실시	-2758
▁구축	-2759
▁후반부	-2760
▁마왕	-2761
▁멸망	-2762
▁여름	-2763
▁무게	-2764
▁마침	-2765
▁미군	-2766
▁위주	-2767
▁아사	-2768
▁혜	-2769
▁i	-2770
라리	-2771
▁MP	-2772
▁거짓	-2773
▁승강	-2774
▁카운터	-2775
▁선정	-2776
▁유래	-2777
▁겨우	-2778
▁명중	-2779
▁가볍	-2780
▁핸	-2781
▁실점	-2782
▁블루	-2783
▁국회	-2784
▁교회	-2785
▁게이	-2786
▁흐르	-2787
▁초대	-2788
유키	-2789
▁역전	-2790
▁공군	-2791
▁엄마	-2792
▁or	-2793
▁and	-2794
▁No	-2795
▁오프닝	-2796
▁코치	-2797
▁뱀	-2798
▁정당	-2799
▁랍	-2800
▁달라지	-2801
거나	-2802
▁스펙	-2803
▁진입	-2804
▁아름	-2805
▁개선	-2806
▁게시	-2807
▁태도	-2808
▁퓨	-2809
▁레이저	-2810
▁In	-2811
AT	-2812
레인	-2813
▁고서	-2814
▁밸런스	-2815
시브	-2816
▁민족	-2817
▁사장	-2818
▁최악	-2819
▁영입	-2820
▁투자	-2821
▁체인	-2822
▁수호	-2823
▁코스트	-2824
▁자라	-2825
▁리스	-2826
▁희망	-2827
op	-2828
▁ㅓ서	-2829
▁왼쪽	-2830
▁그레이	-2831
▁질문	-2832
▁ㄹ수록	-2833
▁태양	-2834
▁눈치	-2835
▁계급	-2836
▁시체	-2837
▁안드	-2838
▁챙	-2839
▁표정	-2840
▁코너	-2841
▁고통	-2842
하라	-2843
▁가까	-2844
▁코믹스	-2845
▁400	-2846
▁그라	-2847
▁373	-2848
▁어울리	-2849
▁멀티	-2850
▁깎	-2851
르크	-2852
▁은근	-2853
▁설립	-2854
ie	-2855
▁쓰러	-2856
▁수단	-2857
▁모션	-2858
▁조각	-2859
▁스위	-2860
▁삽	-2861
▁미야	-2862
▁분야	-2863
▁텍	-2864
▁퍼지	-2865
▁갓	-2866
▁미나	-2867
▁솔로	-2868
▁하위	-2869
▁룰	-2870
▁황금	-2871
▁하트	-2872
▁남편	-2873
트롤	-2874
▁탑재	-2875
▁대원	-2876
est	-2877
▁제압	-2878
▁따위	-2879
▁킥	-2880
▁dd	-2881
▁사단	-2882
▁스피드	-2883
▁군인	-2884
▁끼리	-2885
무원	-2886
▁의문	-2887
▁대놓고	-2888
▁막장	-2889
▁방문	-2890
▁2001	-2891
▁매일	-2892
▁견제	-2893
▁비디오	-2894
▁CD	-2895
▁진영	-2896
▁소드	-2897
OR	-2898
▁셔	-2899
▁대답	-2900
▁용병	-2901
▁경력	-2902
IA	-2903
▁확보	-2904
▁비난	-2905
다수	-2906
붙이	-2907
▁애매	-2908
▁귀엽	-2909
▁가져오	-2910
▁멈	-2911
▁콩	-2912
▁좁	-2913
머리	-2914
▁기자	-2915
▁차별	-2916
▁선보이	-2917
▁자식	-2918
ill	-2919
▁프라	-2920
▁아름답	-2921
▁주연	-2922
▁행적	-2923
▁튜	-2924
▁중단	-2925
▁193	-2926
▁기점	-2927
▁사과	-2928
▁엑스	-2929
▁오스	-2930
▁온갖	-2931
▁자살	-2932
▁청소	-2933
▁수원	-2934
▁지식	-2935
▁본선	-2936
▁고급	-2937
▁꺼내	-2938
▁개봉	-2939
▁사카	-2940
▁구입	-2941
OS	-2942
워하	-2943
▁노동	-2944
▁탯	-2945
▁겹치	-2946
▁살해	-2947
dddd	-2948
▁dddddd	-2949
▁돌파	-2950
▁패스	-2951
▁을까	-2952
세이	-2953
▁낳	-2954
▁해제	-2955
▁유용	-2956
▁롱	-2957
▁라이벌	-2958
▁1990	-2959
▁어린	-2960
▁로켓	-2961
▁외치	-2962
▁브랜드	-2963
▁52	-2964
▁메가	-2965
▁기획	-2966
▁아시아	-2967
ik	-2968
▁트랙	-2969
PS	-2970
▁선물	-2971
▁닌자	-2972
▁개편	-2973
▁진실	-2974
다르	-2975
▁장전	-2976
▁Re	-2977
▁공통	-2978
▁융	-2979
▁조준	-2980
▁체계	-2981
▁컨트롤	-2982
▁%,	-2983
▁내려가	-2984
▁예선	-2985
▁단위	-2986
▁멀리	-2987
▁렉	-2988
▁어차	-2989
ate	-2990
▁시청자	-2991
▁편집	-2992
▁이스	-2993
▁은행	-2994
▁스파이	-2995
▁미드	-2996
▁어차피	-2997
달리	-2998
▁늘리	-2999
▁장애	-3000
워드	-3001
▁는다고	-3002
▁발휘	-3003
▁자이	-3004
터리	-3005
다지	-3006
▁전장	-3007
▁붕괴	-3008
▁멈추	-3009
▁틈	-3010
▁경계	-3011
▁랩	-3012
▁부담	-3013
▁용도	-3014
▁계산	-3015
▁65	-3016
즈키	-3017
▁납치	-3018
▁인생	-3019
▁신화	-3020
▁오른쪽	-3021
▁행복	-3022
▁건너	-3023
▁순수	-3024
▁연예	-3025
▁외부	-3026
▁룡	-3027
사카	-3028
▁Sh	-3029
th	-3030
▁평화	-3031
▁대다수	-3032
▁경유	-3033
▁널	-3034
▁스트라이	-3035
▁궁극	-3036
IC	-3037
▁가르치	-3038
▁실질	-3039
▁귀족	-3040
▁의원	-3041
▁펠	-3042
▁갱	-3043
▁점령	-3044
▁현장	-3045
▁창작	-3046
▁떡밥	-3047
▁최대한	-3048
▁내놓	-3049
▁횟	-3050
▁우수	-3051
▁정령	-3052
▁가이	-3053
▁소프트	-3054
▁여왕	-3055
▁챙기	-3056
▁측면	-3057
▁도서	-3058
▁스케	-3059
▁그다지	-3060
▁젤	-3061
ttp	-3062
▁영역	-3063
▁포르	-3064
▁http	-3065
▁56	-3066
▁제안	-3067
▁게이지	-3068
▁주목	-3069
바이	-3070
▁탄생	-3071
▁찌르	-3072
▁헤드	-3073
▁커뮤	-3074
▁작성	-3075
▁규정	-3076
▁탑승	-3077
▁여부	-3078
▁바탕	-3079
▁경향	-3080
▁갈리	-3081
가락	-3082
카와	-3083
▁꾸준히	-3084
▁체육	-3085
▁니시	-3086
리티	-3087
▁갤러리	-3088
▁치르	-3089
▁몰리	-3090
ED	-3091
▁순서	-3092
▁러브	-3093
▁오해	-3094
▁승강장	-3095
▁얼음	-3096
▁업체	-3097
로이드	-3098
▁운전	-3099
▁타이밍	-3100
두르	-3101
▁이성	-3102
▁생성	-3103
▁상자	-3104
어리	-3105
▁요원	-3106
▁릭	-3107
▁정류	-3108
▁막히	-3109
▁살짝	-3110
▁도구	-3111
▁모리	-3112
▁돌격	-3113
▁저런	-3114
▁카메라	-3115
▁박스	-3116
▁넷	-3117
▁Sp	-3118
▁부인	-3119
▁공화국	-3120
▁동네	-3121
▁테러	-3122
▁개최	-3123
마스	-3124
▁훌륭	-3125
▁선배	-3126
▁완료	-3127
▁횟수	-3128
▁120	-3129
▁판타지	-3130
▁제시	-3131
▁54	-3132
▁마녀	-3133
▁짜리	-3134
▁트위	-3135
▁정말로	-3136
▁유희	-3137
▁고유	-3138
▁2020	-3139
▁쿨타임	-3140
AS	-3141
▁49	-3142
▁장수	-3143
▁통일	-3144
▁뮤직	-3145
▁약속	-3146
▁지하철	-3147
아먹	-3148
▁반영	-3149
▁삶	-3150
▁53	-3151
▁디아	-3152
▁나뉘	-3153
▁자르	-3154
▁레전	-3155
▁블레이드	-3156
▁생일	-3157
▁전대	-3158
▁춤	-3159
▁기분	-3160
▁보정	-3161
▁회의	-3162
▁카나	-3163
▁일부러	-3164
▁뱅	-3165
▁문명	-3166
▁비고	-3167
▁갑옷	-3168
▁교사	-3169
▁SBS	-3170
▁집안	-3171
▁습득	-3172
▁왕자	-3173
▁퀄	-3174
▁문자	-3175
ess	-3176
ab	-3177
▁You	-3178
▁파이어	-3179
▁한화	-3180
심히	-3181
▁편의	-3182
▁신세	-3183
EN	-3184
▁자격	-3185
▁동방	-3186
▁군주	-3187
▁허용	-3188
▁짝	-3189
▁공장	-3190
▁미츠	-3191
▁수요	-3192
▁폭풍	-3193
▁공원	-3194
▁윙	-3195
▁대우	-3196
▁아오	-3197
▁라스	-3198
▁페이지	-3199
스티	-3200
▁커버	-3201
▁괴롭	-3202
▁예술	-3203
▁없애	-3204
▁스프	-3205
▁지점	-3206
▁걸치	-3207
▁마도	-3208
▁캔	-3209
▁85	-3210
▁응원	-3211
▁비록	-3212
▁플라	-3213
▁베르	-3214
▁Bl	-3215
▁업무	-3216
▁유비	-3217
피스	-3218
▁천사	-3219
▁알렉	-3220
▁마인	-3221
▁한때	-3222
▁상품	-3223
▁써	-3224
▁키리	-3225
▁흔하	-3226
▁대공	-3227
▁토모	-3228
▁낚	-3229
▁짱	-3230
▁여신	-3231
▁적당	-3232
▁홍보	-3233
▁ㅕ서	-3234
▁이론	-3235
▁출발	-3236
튜브	-3237
▁공기	-3238
▁노멀	-3239
▁쏟	-3240
▁직원	-3241
▁유튜브	-3242
▁지우	-3243
▁커맨	-3244
▁소수	-3245
▁끌어	-3246
▁설득	-3247
▁파일럿	-3248
▁보수	-3249
▁거절	-3250
ct	-3251
▁단독	-3252
▁비율	-3253
▁재생	-3254
▁소문	-3255
▁협력	-3256
▁레오	-3257
▁스페셜	-3258
▁뒤집	-3259
아리	-3260
▁기기	-3261
▁혼란	-3262
▁충돌	-3263
▁다시피	-3264
▁ㅓ야	-3265
▁가로	-3266
▁거주	-3267
▁그래픽	-3268
▁파악	-3269
▁후쿠	-3270
▁우려	-3271
▁겨울	-3272
▁보도	-3273
eat	-3274
▁미소	-3275
텐츠	-3276
ard	-3277
▁회수	-3278
▁문제점	-3279
▁트레이	-3280
▁덴	-3281
▁그만큼	-3282
▁전함	-3283
▁여동생	-3284
▁댓	-3285
▁이슬	-3286
▁환승	-3287
이터	-3288
▁대륙	-3289
▁무적	-3290
▁근무	-3291
▁수사	-3292
▁57	-3293
▁쓰레	-3294
up	-3295
▁취소	-3296
▁맡기	-3297
▁출처	-3298
▁트위터	-3299
▁영원	-3300
▁AT	-3301
▁따오	-3302
▁격파	-3303
▁든지	-3304
▁충전	-3305
▁66	-3306
▁흘리	-3307
▁MS	-3308
▁반란	-3309
▁메이저	-3310
▁용어	-3311
▁봄	-3312
▁팝	-3313
▁패시브	-3314
▁아리	-3315
▁묵	-3316
▁사이즈	-3317
▁DJ	-3318
▁가입	-3319
▁본명	-3320
▁랜덤	-3321
LC	-3322
▁핵심	-3323
▁운명	-3324
▁전형	-3325
▁건강	-3326
▁커뮤니티	-3327
▁실행	-3328
▁박살	-3329
▁장교	-3330
▁가까이	-3331
▁1999	-3332
▁사쿠라	-3333
▁NPC	-3334
트로	-3335
▁언니	-3336
▁수입	-3337
▁분석	-3338
▁AC	-3339
▁나루	-3340
▁밟	-3341
▁내려오	-3342
▁오류	-3343
▁사토	-3344
▁별개	-3345
▁수학	-3346
아버지	-3347
니어	-3348
▁전투력	-3349
▁형성	-3350
▁사운드	-3351
EC	-3352
ine	-3353
▁증거	-3354
티컬	-3355
▁웨이	-3356
▁열심히	-3357
▁화살	-3358
▁예외	-3359
▁연상	-3360
▁내내	-3361
ant	-3362
▁76	-3363
▁거래	-3364
▁주년	-3365
▁아침	-3366
가와	-3367
▁샌	-3368
▁섭	-3369
▁타케	-3370
ist	-3371
▁쓰러뜨리	-3372
히로	-3373
▁섹	-3374
▁머신	-3375
▁심장	-3376
▁아메	-3377
▁아나	-3378
▁바보	-3379
▁카르	-3380
▁95	-3381
▁초월	-3382
▁권력	-3383
▁처하	-3384
▁AP	-3385
▁제조	-3386
▁카미	-3387
▁서포	-3388
▁상하	-3389
▁신뢰	-3390
모로	-3391
▁연애	-3392
▁강조	-3393
▁연방	-3394
▁만족	-3395
OL	-3396
▁암흑	-3397
▁BGM	-3398
▁붙잡	-3399
▁전투기	-3400
▁CP	-3401
▁피해자	-3402
▁상향	-3403
▁정권	-3404
▁고기	-3405
▁이마	-3406
▁레전드	-3407
▁늑	-3408
▁58	-3409
▁개통	-3410
▁헌터	-3411
피아	-3412
▁스코어	-3413
사키	-3414
디션	-3415
▁제법	-3416
▁피아	-3417
▁본부	-3418
타인	-3419
▁찾아가	-3420
▁여러모로	-3421
▁다행히	-3422
▁변형	-3423
▁오로	-3424
▁자고	-3425
▁겟	-3426
▁기절	-3427
▁고민	-3428
▁재능	-3429
▁뛰어	-3430
파이어	-3431
▁화이트	-3432
▁고교	-3433
▁주도	-3434
▁연사	-3435
▁위원회	-3436
▁주먹	-3437
▁복장	-3438
▁푸르	-3439
▁잖	-3440
▁77	-3441
▁말리	-3442
▁매치	-3443
▁옛날	-3444
▁키스	-3445
▁TH	-3446
▁찰	-3447
▁re	-3448
▁마스	-3449
▁민간	-3450
ue	-3451
▁트라	-3452
▁페이스	-3453
▁72	-3454
▁쿠로	-3455
▁파이널	-3456
▁무너지	-3457
PG	-3458
▁불꽃	-3459
▁아가	-3460
▁우스	-3461
▁부진	-3462
타로	-3463
▁제기	-3464
더스	-3465
▁대만	-3466
▁엘프	-3467
▁1998	-3468
▁별도	-3469
도우	-3470
▁마술	-3471
▁실드	-3472
ip	-3473
▁댄스	-3474
▁62	-3475
AM	-3476
▁98	-3477
▁전공	-3478
▁네이버	-3479
▁com	-3480
▁젠	-3481
▁아요	-3482
ind	-3483
▁옹	-3484
▁가져가	-3485
겨나	-3486
▁총기	-3487
▁함선	-3488
▁절반	-3489
▁고생	-3490
▁88	-3491
▁심리	-3492
▁발매되	-3493
▁게이트	-3494
▁삼국지	-3495
▁크루	-3496
▁Al	-3497
ore	-3498
나다	-3499
츠키	-3500
돼지	-3501
아나	-3502
▁간부	-3503
▁스티	-3504
▁덮	-3505
▁사전	-3506
▁당황	-3507
▁채용	-3508
▁불만	-3509
▁화장	-3510
▁지급	-3511
▁낭	-3512
▁선호	-3513
▁검색	-3514
고기	-3515
▁프레임	-3516
자키	-3517
▁아프리카	-3518
▁적히	-3519
▁추적	-3520
오리	-3521
▁재판	-3522
▁해방	-3523
▁웬만	-3524
▁폭주	-3525
one	-3526
▁후속작	-3527
▁고전	-3528
▁학살	-3529
ang	-3530
▁레인저	-3531
▁한국인	-3532
▁Th	-3533
▁조조	-3534
▁표준	-3535
▁요즘	-3536
▁근거	-3537
▁블러	-3538
▁라이더	-3539
▁동영	-3540
▁동원	-3541
▁입력	-3542
세우	-3543
▁작용	-3544
▁계승	-3545
▁곰	-3546
▁고치	-3547
▁추락	-3548
▁히데	-3549
▁쇠	-3550
▁마이크	-3551
▁돌아다니	-3552
▁균	-3553
▁진지	-3554
식간	-3555
▁합체	-3556
IT	-3557
▁화려	-3558
▁경기도	-3559
▁순식간	-3560
▁800	-3561
▁'.	-3562
▁커플	-3563
▁통제	-3564
▁동영상	-3565
스트라	-3566
▁띄우	-3567
▁크리티컬	-3568
▁어택	-3569
▁지형	-3570
▁대대	-3571
▁SS	-3572
▁학과	-3573
▁카오스	-3574
▁외국인	-3575
▁명예	-3576
▁랜드	-3577
▁늑대	-3578
▁테이	-3579
▁요새	-3580
ell	-3581
▁오빠	-3582
▁믹	-3583
▁현지	-3584
▁일상	-3585
▁틱	-3586
▁쓰레기	-3587
▁....	-3588
▁아트	-3589
▁누리	-3590
어스	-3591
바로	-3592
▁교환	-3593
▁권총	-3594
▁600	-3595
▁지르	-3596
▁핀	-3597
▁제하	-3598
▁최상	-3599
▁해병	-3600
▁카라	-3601
어버리	-3602
의원	-3603
▁양산	-3604
▁닿	-3605
▁시야	-3606
▁전철	-3607
▁부품	-3608
▁해설	-3609
들리	-3610
▁반지	-3611
▁클라	-3612
▁메카	-3613
▁환상	-3614
▁59	-3615
▁김성	-3616
▁수술	-3617
둥이	-3618
▁제작진	-3619
▁드디어	-3620
▁혁명	-3621
▁타워	-3622
▁덧	-3623
▁사마	-3624
▁지시	-3625
▁미디어	-3626
▁구현	-3627
▁전선	-3628
▁불편	-3629
▁토리	-3630
▁요괴	-3631
창기	-3632
▁증명	-3633
돌리	-3634
▁사자	-3635
▁지대	-3636
▁시각	-3637
if	-3638
▁시드	-3639
▁제자	-3640
▁!!	-3641
▁정지	-3642
▁트레	-3643
▁소멸	-3644
▁수송	-3645
▁갈등	-3646
▁소총	-3647
▁탱크	-3648
▁퀸	-3649
▁파라	-3650
▁아무런	-3651
▁정류장	-3652
▁쌓이	-3653
▁처치	-3654
▁대체로	-3655
▁호환	-3656
▁하고	-3657
▁매체	-3658
FA	-3659
▁근육	-3660
▁리메	-3661
▁1997	-3662
▁어지	-3663
▁이승	-3664
▁레스	-3665
▁캐스	-3666
▁유형	-3667
▁마련	-3668
▁매력	-3669
▁마구	-3670
▁영업	-3671
▁연대	-3672
▁자는	-3673
▁불안	-3674
ort	-3675
▁61	-3676
▁스토	-3677
▁중계	-3678
▁리버	-3679
▁폐지	-3680
▁몰래	-3681
▁전적	-3682
▁즉시	-3683
▁겉	-3684
▁반격	-3685
▁복잡	-3686
▁알아	-3687
퍼스	-3688
▁초창기	-3689
▁클로	-3690
▁령	-3691
▁전직	-3692
▁쾌	-3693
▁배트	-3694
▁수업	-3695
▁소닉	-3696
▁경비	-3697
▁테스트	-3698
이즈	-3699
▁네임	-3700
▁공작	-3701
▁깃	-3702
▁폭격	-3703
▁스카이	-3704
▁프린	-3705
저히	-3706
▁경영	-3707
▁상상	-3708
도로	-3709
ive	-3710
▁191	-3711
▁테일	-3712
큐어	-3713
▁동기	-3714
▁극단	-3715
▁작사	-3716
▁출현	-3717
어도	-3718
ok	-3719
▁지켜	-3720
ld	-3721
▁묘지	-3722
▁두산	-3723
▁신장	-3724
▁굽	-3725
▁신고	-3726
▁둘러	-3727
▁",	-3728
▁마루	-3729
▁해금	-3730
▁맞서	-3731
▁공유	-3732
▁스마트	-3733
▁쟈	-3734
▁커맨드	-3735
▁텔레	-3736
▁볼트	-3737
VE	-3738
▁조절	-3739
▁작동	-3740
▁출판	-3741
▁폭력	-3742
▁탁	-3743
▁압박	-3744
▁스톰	-3745
▁이랑	-3746
▁인수	-3747
▁마주	-3748
▁잠수	-3749
▁태우	-3750
▁구도	-3751
▁룬	-3752
▁연관	-3753
▁KO	-3754
▁콜라	-3755
▁참전	-3756
▁1980	-3757
▁아티	-3758
▁브리	-3759
▁휘두르	-3760
▁장관	-3761
ers	-3762
▁리메이크	-3763
지컬	-3764
▁조용	-3765
▁반하	-3766
▁배차	-3767
▁동작	-3768
▁가득	-3769
▁악역	-3770
▁공산	-3771
▁그림자	-3772
▁요정	-3773
▁농구	-3774
▁한방	-3775
▁조지	-3776
▁신분	-3777
▁국적	-3778
▁이리	-3779
▁언제나	-3780
▁전방	-3781
▁장식	-3782
▁알파	-3783
▁묻히	-3784
▁연도	-3785
▁지켜보	-3786
▁렙	-3787
▁오픈	-3788
▁환자	-3789
▁NC	-3790
▁뉴욕	-3791
▁널리	-3792
▁외계	-3793
▁사령관	-3794
ove	-3795
▁평타	-3796
▁An	-3797
▁등판	-3798
조리	-3799
▁왠	-3800
▁어깨	-3801
▁똑같이	-3802
▁찾아보	-3803
▁서양	-3804
▁절망	-3805
▁엮	-3806
ain	-3807
▁흥행	-3808
▁브라질	-3809
▁출생	-3810
▁프리큐어	-3811
▁적어도	-3812
▁물질	-3813
일리	-3814
▁출장	-3815
▁돌진	-3816
▁시행	-3817
지마	-3818
▁익숙	-3819
▁나타내	-3820
▁아크	-3821
▁겐	-3822
▁74	-3823
▁착각	-3824
▁노예	-3825
▁노출	-3826
▁분기	-3827
▁은근히	-3828
▁내주	-3829
▁모바	-3830
▁간격	-3831
▁중대	-3832
▁팅	-3833
▁간혹	-3834
▁게시판	-3835
▁신청	-3836
▁어쨌	-3837
▁미카	-3838
▁유령	-3839
▁사양	-3840
오카	-3841
▁범인	-3842
▁스타크래프트	-3843
드라	-3844
▁글자	-3845
▁Se	-3846
▁코우	-3847
▁되찾	-3848
▁남부	-3849
▁프리미	-3850
▁63	-3851
웨이	-3852
▁주위	-3853
▁입학	-3854
▁고향	-3855
▁신문	-3856
▁저그	-3857
서트	-3858
▁마냥	-3859
광역	-3860
▁사이드	-3861
▁슈트	-3862
▁경험치	-3863
▁보장	-3864
▁무난	-3865
▁강철	-3866
▁96	-3867
▁훔	-3868
▁1996	-3869
▁자이언	-3870
MA	-3871
ong	-3872
▁추진	-3873
▁브레이크	-3874
▁탄약	-3875
▁DLC	-3876
▁써먹	-3877
▁구출	-3878
▁종점	-3879
▁주어지	-3880
▁메모리	-3881
▁유희왕	-3882
▁딜러	-3883
▁전시	-3884
전자	-3885
▁대량	-3886
▁스톤	-3887
보내	-3888
▁71	-3889
▁유행	-3890
▁68	-3891
▁아무것	-3892
▁이시	-3893
▁전역	-3894
▁MAX	-3895
▁KT	-3896
ith	-3897
▁an	-3898
▁부위	-3899
▁AK	-3900
▁보물	-3901
▁썰	-3902
▁출력	-3903
▁이즈	-3904
▁챠	-3905
▁97	-3906
▁틀리	-3907
▁감사	-3908
▁세월	-3909
▁에다	-3910
▁통상	-3911
▁문장	-3912
성기	-3913
▁었었	-3914
▁창조	-3915
▁객	-3916
웨어	-3917
▁스킨	-3918
▁감염	-3919
▁해체	-3920
▁흠	-3921
광역시	-3922
▁대립	-3923
▁차라리	-3924
▁제이	-3925
▁맞이	-3926
▁당선	-3927
▁시즈	-3928
▁주소	-3929
ast	-3930
EM	-3931
▁끼치	-3932
▁북미	-3933
▁도서관	-3934
▁댓글	-3935
▁기독	-3936
▁핸드	-3937
▁멋지	-3938
▁께	-3939
▁매직	-3940
든가	-3941
▁이란	-3942
펙트	-3943
▁기습	-3944
▁넘치	-3945
▁겁	-3946
▁대략	-3947
▁베트	-3948
▁하야	-3949
▁공학	-3950
▁만든	-3951
▁하필	-3952
▁호평	-3953
▁상당수	-3954
end	-3955
▁샘	-3956
위대	-3957
og	-3958
▁은하	-3959
▁중화	-3960
▁73	-3961
톨릭	-3962
▁부문	-3963
▁리아	-3964
▁US	-3965
▁스튜	-3966
▁플레	-3967
▁도망가	-3968
레이터	-3969
▁빗	-3970
▁둔	-3971
▁1995	-3972
▁거짓말	-3973
▁실리	-3974
▁종이	-3975
▁리얼	-3976
ew	-3977
▁제주	-3978
▁인증	-3979
▁이슬람	-3980
▁ㅕㅆ	-3981
▁융합	-3982
시오	-3983
▁돼지	-3984
▁리치	-3985
던가	-3986
▁김정	-3987
▁무료	-3988
▁멕	-3989
▁대충	-3990
▁는지라	-3991
▁서부	-3992
라이언	-3993
▁멀쩡	-3994
▁용사	-3995
▁신성	-3996
▁빡	-3997
요시	-3998
▁결말	-3999
▁추격	-4000
▁둥	-4001
▁고백	-4002
▁타마	-4003
▁회원	-4004
▁라이프	-4005
려움	-4006
▁번개	-4007
▁꺾	-4008
▁모바일	-4009
▁유이	-4010
▁점차	-4011
▁외교	-4012
▁편지	-4013
▁앱	-4014
▁결론	-4015
▁육체	-4016
▁녹음	-4017
▁세이버	-4018
▁이자	-4019
▁달하	-4020
▁67	-4021
▁관객	-4022
▁메시	-4023
▁입수	-4024
▁음성	-4025
▁훔치	-4026
▁퀄리티	-4027
▁앵	-4028
▁먹히	-4029
▁아시	-4030
▁수련	-4031
▁오카	-4032
▁엔터	-4033
▁갤럭	-4034
▁신인	-4035
▁야스	-4036
▁타점	-4037
▁죄다	-4038
▁기원	-4039
▁블로그	-4040
▁이래	-4041
▁향상	-4042
▁특화	-4043
▁예비	-4044
▁긍	-4045
미야	-4046
▁가톨릭	-4047
▁ff	-4048
▁78	-4049
▁공급	-4050
▁정복	-4051
▁요코	-4052
▁81	-4053
▁He	-4054
▁너무나	-4055
▁;	-4056
▁가속	-4057
▁놓치	-4058
▁기독교	-4059
▁그곳	-4060
▁유로	-4061
▁조치	-4062
▁콘서트	-4063
▁기병	-4064
▁맘	-4065
▁슛	-4066
▁츄	-4067
▁아기	-4068
▁단일	-4069
디아	-4070
▁음반	-4071
▁카타	-4072
▁위장	-4073
듀서	-4074
▁프로듀서	-4075
구치	-4076
av	-4077
▁들어서	-4078
▁동화	-4079
▁캐스팅	-4080
▁헨	-4081
▁협회	-4082
▁아우	-4083
▁가게	-4084
▁바라보	-4085
▁THE	-4086
버트	-4087
▁신기	-4088
▁마리아	-4089
▁반발	-4090
리그	-4091
▁전달	-4092
▁소화	-4093
▁깨지	-4094
▁192	-4095
▁훗	-4096
▁프라이	-4097
▁펀치	-4098
러나	-4099
▁현역	-4100
▁주전	-4101
▁JR	-4102
▁고용	-4103
▁썩	-4104
▁무효	-4105
▁가량	-4106
▁피부	-4107
레나	-4108
▁180	-4109
▁뭉	-4110
▁과목	-4111
▁가상	-4112
▁91	-4113
▁갤럭시	-4114
▁국군	-4115
▁마키	-4116
▁게스트	-4117
PM	-4118
▁블리	-4119
▁루시	-4120
쟁이	-4121
▁오가	-4122
▁메인	-4123
▁일원	-4124
▁웹툰	-4125
▁횡	-4126
▁꼬리	-4127
ly	-4128
▁진심	-4129
▁국회의원	-4130
▁입구	-4131
▁세이브	-4132
▁}	-4133
▁HD	-4134
▁오후	-4135
티나	-4136
▁리스트	-4137
▁신규	-4138
▁문학	-4139
▁뜯	-4140
▁마리오	-4141
▁태그	-4142
▁더라	-4143
▁메타	-4144
▁기사단	-4145
▁팔리	-4146
▁바리	-4147
▁수집	-4148
▁털리	-4149
▁홍콩	-4150
▁차리	-4151
▁임시	-4152
▁조심	-4153
se	-4154
▁이득	-4155
보드	-4156
OT	-4157
▁심판	-4158
▁청년	-4159
▁울산	-4160
▁짤	-4161
▁헤이	-4162
▁SD	-4163
▁전면	-4164
▁후기	-4165
▁250	-4166
▁제어	-4167
▁내구	-4168
▁고문	-4169
▁섀	-4170
▁연구소	-4171
▁파리	-4172
▁신라	-4173
▁베스트	-4174
▁내장	-4175
▁1994	-4176
▁람	-4177
▁대개	-4178
▁괴롭히	-4179
란색	-4180
IS	-4181
▁침공	-4182
▁84	-4183
▁익히	-4184
BO	-4185
아웃	-4186
▁부부	-4187
▁쿼	-4188
▁길드	-4189
▁수영	-4190
▁잡지	-4191
▁켈	-4192
▁립	-4193
AC	-4194
가시	-4195
▁지능	-4196
잡이	-4197
▁뼈	-4198
▁MV	-4199
▁구멍	-4200
▁상점	-4201
▁여론	-4202
▁킨	-4203
▁의무	-4204
▁파트너	-4205
▁인공	-4206
▁톱	-4207
▁섞이	-4208
▁육성	-4209
▁카스	-4210
▁영토	-4211
▁불러	-4212
▁아끼	-4213
▁그치	-4214
▁기종	-4215
▁j	-4216
나무	-4217
▁여지	-4218
▁강의	-4219
▁헤비	-4220
구리	-4221
▁망치	-4222
▁작화	-4223
▁아일	-4224
▁슬롯	-4225
▁자매	-4226
▁손가락	-4227
▁어른	-4228
▁지휘관	-4229
▁한번	-4230
▁SN	-4231
▁최소한	-4232
▁경상	-4233
▁원수	-4234
▁정면	-4235
코토	-4236
▁연인	-4237
릭스	-4238
▁터키	-4239
▁일반인	-4240
▁타이거	-4241
▁본작	-4242
▁예능	-4243
▁쿠키	-4244
▁한마	-4245
▁디지몬	-4246
▁연타	-4247
▁Ar	-4248
▁몰아	-4249
크스	-4250
▁인근	-4251
▁노부	-4252
▁Le	-4253
▁사우	-4254
▁어린이	-4255
▁MC	-4256
FC	-4257
▁감시	-4258
호사	-4259
브리	-4260
어나오	-4261
▁외전	-4262
▁명중률	-4263
▁De	-4264
▁성과	-4265
▁파견	-4266
▁에드	-4267
▁방사	-4268
끄럽	-4269
▁인지도	-4270
▁식사	-4271
▁여유	-4272
▁69	-4273
▁가시	-4274
▁교전	-4275
▁잖아	-4276
▁대항	-4277
▁오랫	-4278
▁190	-4279
▁결승전	-4280
▁소형	-4281
▁특집	-4282
▁왕조	-4283
▁82	-4284
▁으려고	-4285
▁회차	-4286
▁어쨌든	-4287
▁시내버스	-4288
▁포탑	-4289
▁는다면	-4290
▁더더	-4291
▁안경	-4292
▁클리	-4293
▁터치	-4294
▁어지간	-4295
▁에서부터	-4296
▁라면서	-4297
▁아바	-4298
▁86	-4299
▁기초	-4300
▁아니면	-4301
▁사도	-4302
▁규칙	-4303
▁고지	-4304
▁험	-4305
가미	-4306
▁한동안	-4307
▁어둡	-4308
▁연락	-4309
▁허나	-4310
▁대폭	-4311
▁PD	-4312
▁강남	-4313
▁실버	-4314
▁요금	-4315
▁잦	-4316
▁해적	-4317
▁반사	-4318
▁더더욱	-4319
▁트윈	-4320
▁칭하	-4321
ry	-4322
ES	-4323
▁합성	-4324
▁국어	-4325
▁왈	-4326
▁협박	-4327
▁림	-4328
▁차단	-4329
▁전성기	-4330
▁레이스	-4331
▁매니	-4332
▁냄	-4333
▁동부	-4334
▁is	-4335
▁컬러	-4336
▁다면서	-4337
▁바치	-4338
▁스미	-4339
▁ㅓ도	-4340
▁의상	-4341
▁AI	-4342
▁스페이스	-4343
▁절대로	-4344
▁국방	-4345
▁떠올리	-4346
▁첨	-4347
▁한참	-4348
우드	-4349
▁고수	-4350
▁분량	-4351
▁소지	-4352
▁렛	-4353
▁재미있	-4354
▁주포	-4355
▁괴수	-4356
▁의료	-4357
▁경기장	-4358
▁움직임	-4359
▁휴대	-4360
▁좌우	-4361
▁굴리	-4362
▁입단	-4363
▁아빠	-4364
▁안티	-4365
▁천재	-4366
▁버스터	-4367
▁{	-4368
▁프로필	-4369
▁체포	-4370
▁로즈	-4371
▁튀어나오	-4372
▁다스	-4373
▁럭	-4374
▁핫	-4375
▁치명타	-4376
오프	-4377
▁누나	-4378
▁쉐	-4379
▁부서	-4380
▁수십	-4381
▁비행기	-4382
▁예고	-4383
▁감옥	-4384
▁캐논	-4385
▁민주당	-4386
▁허리	-4387
▁인정받	-4388
▁웅	-4389
▁다섯	-4390
노스	-4391
▁for	-4392
▁대가	-4393
▁블록	-4394
▁멍	-4395
▁히메	-4396
▁로우	-4397
▁GS	-4398
▁구체	-4399
▁식물	-4400
▁농담	-4401
▁처벌	-4402
▁영문	-4403
▁카츠	-4404
▁비아	-4405
▁주말	-4406
▁깡	-4407
먼트	-4408
▁''	-4409
▁챕	-4410
밀리	-4411
▁꼽히	-4412
▁한마디	-4413
▁도달	-4414
▁일자	-4415
▁트랜	-4416
ity	-4417
카드	-4418
▁일제	-4419
▁목격	-4420
▁커지	-4421
▁데모	-4422
▁아즈	-4423
▁수수	-4424
▁불법	-4425
▁체크	-4426
▁신호	-4427
▁FI	-4428
▁갈수록	-4429
▁합격	-4430
▁시마	-4431
▁모자라	-4432
▁임명	-4433
▁치우	-4434
▁뷰	-4435
시로	-4436
▁취미	-4437
▁이지	-4438
▁그동안	-4439
▁으니까	-4440
▁챕터	-4441
▁드레	-4442
▁대지	-4443
▁멘탈	-4444
▁해리	-4445
▁레이드	-4446
▁씌	-4447
▁92	-4448
▁귀신	-4449
▁ㅣ	-4450
▁혀	-4451
▁크라	-4452
▁양쪽	-4453
▁자치	-4454
▁마비	-4455
▁싱크	-4456
바라	-4457
▁트레이드	-4458
▁뺏	-4459
▁김영	-4460
▁안내	-4461
▁재현	-4462
▁110	-4463
▁구속	-4464
▁떠오르	-4465
▁오사카	-4466
▁뚜	-4467
▁상성	-4468
▁적대	-4469
▁AR	-4470
▁소원	-4471
▁컨텐츠	-4472
▁봇	-4473
▁전신	-4474
▁be	-4475
▁오랫동안	-4476
프레	-4477
닉스	-4478
▁복무	-4479
▁놀랍	-4480
▁깨닫	-4481
고속	-4482
▁취향	-4483
▁의뢰	-4484
▁할아버지	-4485
▁홀로	-4486
▁훗날	-4487
▁모모	-4488
▁구사	-4489
▁뜬	-4490
▁캐나다	-4491
▁까다	-4492
▁안드로이드	-4493
▁상업	-4494
▁접하	-4495
▁개체	-4496
▁나아가	-4497
▁씹	-4498
남도	-4499
▁기아	-4500
▁촌	-4501
▁94	-4502
▁느라	-4503
▁일격	-4504
▁별다르	-4505
▁가리키	-4506
▁지도자	-4507
▁북부	-4508
▁글로	-4509
▁개량	-4510
▁스턴	-4511
▁춘	-4512
페인	-4513
▁결코	-4514
▁79	-4515
▁다이아	-4516
▁떨어	-4517
▁회상	-4518
▁캠퍼스	-4519
▁예시	-4520
▁상급	-4521
▁퀴	-4522
▁수용	-4523
▁전후	-4524
▁투어	-4525
▁이식	-4526
▁바퀴	-4527
▁모조리	-4528
▁명성	-4529
▁93	-4530
▁켜	-4531
▁딩	-4532
▁디지털	-4533
▁알아보	-4534
디언	-4535
▁IC	-4536
▁원본	-4537
▁클래식	-4538
라드	-4539
▁베트남	-4540
▁경고	-4541
▁삼진	-4542
▁83	-4543
▁플로	-4544
▁노인	-4545
▁예쁘	-4546
▁데드	-4547
▁도발	-4548
▁귀찮	-4549
▁미묘	-4550
▁무겁	-4551
시코	-4552
▁랭킹	-4553
▁갇	-4554
▁포트	-4555
▁까다롭	-4556
▁각자	-4557
▁따라가	-4558
▁FA	-4559
▁SC	-4560
▁일기	-4561
▁조성	-4562
▁공지	-4563
OM	-4564
▁마린	-4565
▁박정	-4566
▁바위	-4567
▁일시	-4568
▁축제	-4569
▁빚	-4570
▁구원	-4571
▁어스	-4572
ass	-4573
▁팬덤	-4574
▁수익	-4575
▁정비	-4576
다이	-4577
▁영향력	-4578
▁갇히	-4579
▁700	-4580
▁토르	-4581
스탄	-4582
려주	-4583
▁꽂	-4584
▁편입	-4585
▁긍정	-4586
▁외형	-4587
▁유대	-4588
▁트로	-4589
구려	-4590
▁승격	-4591
▁곧바로	-4592
▁접속	-4593
▁룸	-4594
데스	-4595
▁파츠	-4596
▁형사	-4597
▁거인	-4598
▁89	-4599
her	-4600
▁ffff	-4601
덜란드	-4602
▁네덜란드	-4603
▁방지	-4604
▁으러	-4605
▁커스	-4606
▁연료	-4607
▁유니폼	-4608
▁스승	-4609
▁내성	-4610
▁청소년	-4611
▁GB	-4612
▁노벨	-4613
▁바이러스	-4614
▁곁	-4615
▁개성	-4616
▁아케	-4617
age	-4618
▁자국	-4619
▁유통	-4620
▁동인	-4621
▁전멸	-4622
임스	-4623
▁스틸	-4624
▁건축	-4625
▁어드	-4626
▁빼앗기	-4627
▁시계	-4628
지로	-4629
▁무덤	-4630
▁메뉴	-4631
치기	-4632
▁집어	-4633
▁우라	-4634
▁하우스	-4635
▁보안	-4636
▁대인	-4637
▁CC	-4638
▁깜	-4639
▁OST	-4640
▁레이더	-4641
▁리듬	-4642
▁하얗	-4643
▁헛	-4644
▁햄	-4645
▁환영	-4646
▁무라	-4647
▁빛나	-4648
▁이명	-4649
메달	-4650
▁87	-4651
▁성별	-4652
▁로고	-4653
▁투구	-4654
ide	-4655
ID	-4656
▁정찰	-4657
▁펫	-4658
▁이내	-4659
▁이터	-4660
▁주식	-4661
▁딘	-4662
▁니코	-4663
▁나치	-4664
▁어떠	-4665
▁ffffff	-4666
▁단장	-4667
▁논리	-4668
▁사정거리	-4669
▁메르	-4670
▁개방	-4671
▁GT	-4672
▁부작	-4673
UN	-4674
▁패널	-4675
▁릿	-4676
▁이영	-4677
▁그럼	-4678
▁마침내	-4679
▁자세히	-4680
VA	-4681
▁소중	-4682
▁호주	-4683
▁보석	-4684
▁타인	-4685
▁DS	-4686
▁오타	-4687
▁윌리	-4688
▁드라이브	-4689
▁이날	-4690
ark	-4691
▁코미	-4692
▁연금	-4693
▁톰	-4694
▁자금	-4695
▁저장	-4696
▁오스트	-4697
▁과연	-4698
▁블러드	-4699
▁김태	-4700
▁쵸	-4701
▁Tr	-4702
▁식당	-4703
▁스키	-4704
세스	-4705
▁빌드	-4706
▁곽	-4707
▁생략	-4708
▁칩	-4709
▁놀이	-4710
▁인격	-4711
▁KIA	-4712
▁원소	-4713
▁학부	-4714
▁의존	-4715
▁극복	-4716
▁다름	-4717
▁계통	-4718
▁우연히	-4719
▁똥	-4720
▁와이	-4721
▁마이클	-4722
▁기르	-4723
▁어마	-4724
▁도우	-4725
▁플레이오프	-4726
▁예측	-4727
▁주역	-4728
▁제임스	-4729
▁전문가	-4730
▁맥스	-4731
▁사라	-4732
▁계단	-4733
▁전진	-4734
스키	-4735
▁미술	-4736
▁인연	-4737
▁플랫	-4738
▁탄창	-4739
▁WW	-4740
▁무릎	-4741
▁사이버	-4742
▁악당	-4743
▁트럭	-4744
▁스트라이크	-4745
ep	-4746
▁이브	-4747
▁골든	-4748
▁호텔	-4749
▁살아가	-4750
▁충성	-4751
▁더럽	-4752
▁사신	-4753
▁개정	-4754
ax	-4755
▁판매량	-4756
▁아일랜드	-4757
▁연예인	-4758
▁타로	-4759
▁어다	-4760
▁조언	-4761
▁제갈	-4762
▁준수	-4763
▁캠페인	-4764
▁대처	-4765
▁소위	-4766
▁사형	-4767
▁테츠	-4768
▁좌석	-4769
▁탱커	-4770
▁캡틴	-4771
아다니	-4772
ire	-4773
▁보관	-4774
▁On	-4775
▁차트	-4776
▁기적	-4777
북도	-4778
▁차기	-4779
▁사제	-4780
▁무방	-4781
▁1992	-4782
▁독특	-4783
▁접촉	-4784
▁실전	-4785
▁유치	-4786
▁구경	-4787
▁on	-4788
▁잘리	-4789
▁내지	-4790
▁화제	-4791
▁램	-4792
▁모토	-4793
ood	-4794
▁용기	-4795
▁으시	-4796
▁저작	-4797
ge	-4798
▁포스트	-4799
▁CPU	-4800
▁학자	-4801
▁그로	-4802
▁피스	-4803
▁혈액	-4804
▁시선	-4805
▁결성	-4806
▁단편	-4807
가스	-4808
▁스마트폰	-4809
▁고스트	-4810
덩이	-4811
▁록맨	-4812
일드	-4813
▁박히	-4814
▁특전	-4815
▁네오	-4816
▁하루카	-4817
ect	-4818
▁숭	-4819
ust	-4820
ob	-4821
ock	-4822
▁몰락	-4823
▁조연	-4824
▁흐름	-4825
▁피격	-4826
▁구나	-4827
▁길이	-4828
▁냐며	-4829
▁커리어	-4830
▁강원	-4831
▁삐	-4832
▁화학	-4833
▁호위	-4834
고리	-4835
▁호감	-4836
▁인조	-4837
▁아키라	-4838
AD	-4839
▁커피	-4840
▁덧붙이	-4841
▁구리	-4842
▁제작자	-4843
▁발달	-4844
▁드럼	-4845
▁오크	-4846
나미	-4847
▁툴	-4848
▁시달리	-4849
▁저렴	-4850
▁타락	-4851
▁슈팅	-4852
▁후배	-4853
▁1993	-4854
▁하차	-4855
스턴	-4856
▁안타깝	-4857
▁불타	-4858
▁왠지	-4859
▁본체	-4860
▁우위	-4861
▁생명력	-4862
자드	-4863
▁130	-4864
▁아이스	-4865
▁내세우	-4866
▁처형	-4867
다랗	-4868
▁하락	-4869
▁델	-4870
▁신설	-4871
▁가짜	-4872
▁묘하	-4873
▁스텔	-4874
▁원주	-4875
▁냄새	-4876
멘트	-4877
▁증오	-4878
▁장악	-4879
▁it	-4880
▁자전	-4881
▁파크	-4882
▁초보	-4883
▁지경	-4884
▁결전	-4885
▁아마도	-4886
▁중독	-4887
▁후방	-4888
▁소스	-4889
▁그러니까	-4890
▁다름없	-4891
▁해상	-4892
▁둘째	-4893
▁IS	-4894
▁카와	-4895
▁음모	-4896
워크	-4897
▁국립	-4898
▁미라	-4899
▁활성	-4900
▁고작	-4901
▁닫	-4902
▁북쪽	-4903
▁아티스트	-4904
▁익스	-4905
mer	-4906
▁라기	-4907
▁일람	-4908
▁미터	-4909
▁금속	-4910
▁위상	-4911
▁노르	-4912
▁Be	-4913
▁SM	-4914
▁펴	-4915
▁트랜스	-4916
아시아	-4917
팩트	-4918
▁의대	-4919
▁닭	-4920
▁공무원	-4921
▁계정	-4922
▁무지	-4923
▁데려오	-4924
▁가루	-4925
▁포수	-4926
▁일본인	-4927
▁외계인	-4928
▁핏	-4929
▁AM	-4930
▁신부	-4931
▁으라	-4932
양함	-4933
▁뜬금	-4934
▁플래그	-4935
▁.."	-4936
▁업적	-4937
▁패션	-4938
▁루타	-4939
▁과제	-4940
▁시노	-4941
▁인민	-4942
▁투명	-4943
▁포로	-4944
▁폴란드	-4945
▁주사	-4946
▁선전	-4947
▁일족	-4948
▁표지	-4949
▁남쪽	-4950
▁자폭	-4951
▁미스터	-4952
▁동굴	-4953
▁디스크	-4954
든지	-4955
▁세르	-4956
▁다가오	-4957
▁보라	-4958
▁찢	-4959
▁강도	-4960
▁쌍둥이	-4961
▁날아오	-4962
▁음원	-4963
▁펄	-4964
▁터널	-4965
▁행보	-4966
▁로리	-4967
▁구르	-4968
네스	-4969
▁아저	-4970
▁|	-4971
몬드	-4972
▁EN	-4973
▁동력	-4974
▁Te	-4975
▁바이오	-4976
▁기도	-4977
▁아쿠	-4978
▁me	-4979
▁더러	-4980
▁아저씨	-4981
▁금융	-4982
나카	-4983
are	-4984
▁열쇠	-4985
▁에리	-4986
▁잉글	-4987
▁기동전	-4988
▁정차	-4989
▁눕	-4990
▁편곡	-4991
▁무척	-4992
▁ㄴ다며	-4993
▁캐리	-4994
▁자막	-4995
▁비상	-4996
▁차이점	-4997
▁신비	-4998
▁체중	-4999
▁넉	-5000
▁면모	-5001
▁지라	-5002
▁트라이	-5003
▁연령	-5004
▁개수	-5005
▁웃음	-5006
VD	-5007
▁아이언	-5008
▁간신	-5009
▁부각	-5010
▁1988	-5011
▁라이온	-5012
학자	-5013
▁심심	-5014
▁적응	-5015
▁히어로즈	-5016
▁완결	-5017
▁팽	-5018
▁적당히	-5019
▁격추	-5020
카리	-5021
▁공룡	-5022
▁이집	-5023
랑이	-5024
▁이집트	-5025
그마	-5026
▁천하	-5027
▁보고	-5028
▁엮이	-5029
▁최신	-5030
▁101	-5031
▁멕시코	-5032
▁.....	-5033
▁Me	-5034
▁정글	-5035
▁헬기	-5036
▁흡혈	-5037
려나	-5038
iv	-5039
▁액티브	-5040
▁일방	-5041
▁상술	-5042
▁벌레	-5043
▁할머니	-5044
▁의혹	-5045
CG	-5046
▁승객	-5047
▁인치	-5048
▁제작사	-5049
ance	-5050
▁부장	-5051
▁후계	-5052
▁과장	-5053
▁볼넷	-5054
▁색깔	-5055
▁개입	-5056
▁ch	-5057
▁미즈	-5058
▁담기	-5059
▁대리	-5060
▁일찍	-5061
▁나츠	-5062
▁튕	-5063
▁SR	-5064
▁담배	-5065
▁잠수함	-5066
▁칭호	-5067
▁@	-5068
▁코인	-5069
▁돋	-5070
▁교황	-5071
▁저녁	-5072
▁첼	-5073
▁스터	-5074
▁물러나	-5075
▁위대	-5076
▁예언	-5077
▁십자	-5078
▁리타	-5079
▁리온	-5080
특별	-5081
▁팀원	-5082
▁귀환	-5083
▁총알	-5084
▁냥	-5085
▁후술	-5086
▁시아	-5087
▁각본	-5088
▁방출	-5089
▁사귀	-5090
▁생겨나	-5091
▁새벽	-5092
▁정착	-5093
▁로그	-5094
qu	-5095
▁소라	-5096
▁클레	-5097
▁식량	-5098
▁공성	-5099
▁흥미	-5100
▁도끼	-5101
▁해피	-5102
LL	-5103
▁엿	-5104
▁이중	-5105
▁리오	-5106
로디	-5107
US	-5108
iz	-5109
our	-5110
ound	-5111
▁마디	-5112
▁라이플	-5113
▁곤란	-5114
▁모래	-5115
▁My	-5116
▁식민	-5117
라기	-5118
▁스튜디오	-5119
ord	-5120
▁넥센	-5121
▁페이즈	-5122
▁광역시	-5123
쳐지	-5124
이너	-5125
▁비추	-5126
▁원칙	-5127
▁신사	-5128
▁화성	-5129
▁네트	-5130
▁새끼	-5131
▁썬	-5132
팡이	-5133
▁동의	-5134
▁깔끔	-5135
▁악명	-5136
▁무렵	-5137
▁수장	-5138
▁교류	-5139
▁이정	-5140
▁사후	-5141
▁마약	-5142
▁다치	-5143
▁어판	-5144
▁정발	-5145
▁호기	-5146
▁활발	-5147
▁재산	-5148
▁손해	-5149
▁반동	-5150
▁토끼	-5151
▁칭찬	-5152
ime	-5153
▁이노	-5154
▁구석	-5155
▁XX	-5156
▁고도	-5157
▁1970	-5158
▁패하	-5159
▁항공기	-5160
▁애플	-5161
▁상관없	-5162
▁하단	-5163
▁증언	-5164
▁레슬	-5165
ix	-5166
▁쓸모	-5167
▁오라	-5168
▁도라	-5169
▁제트	-5170
▁Cl	-5171
▁녹색	-5172
▁바깥	-5173
▁사막	-5174
▁주일	-5175
▁비주	-5176
▁애정	-5177
▁Com	-5178
▁원자	-5179
▁토론	-5180
▁뱀파이어	-5181
▁크리스마스	-5182
▁드롭	-5183
▁펌	-5184
우마	-5185
▁중국어	-5186
▁자극	-5187
▁배터리	-5188
▁1991	-5189
▁미안	-5190
▁상기	-5191
▁잠재	-5192
▁도주	-5193
▁튕기	-5194
▁막대	-5195
▁그만두	-5196
▁끊기	-5197
▁부지	-5198
▁수류	-5199
pe	-5200
▁리플	-5201
▁흑인	-5202
▁이드	-5203
▁태평	-5204
▁루카	-5205
▁턱	-5206
▁놓이	-5207
어마	-5208
▁MVP	-5209
▁정원	-5210
▁엔젤	-5211
▁등지	-5212
▁주기	-5213
▁추구	-5214
▁작곡가	-5215
▁SE	-5216
▁최다	-5217
OP	-5218
▁모노	-5219
▁올해	-5220
▁포항	-5221
▁팬텀	-5222
▁씬	-5223
▁어마어마	-5224
▁펑	-5225
▁엑스트라	-5226
▁이재	-5227
▁배트맨	-5228
▁흔적	-5229
▁앞두	-5230
▁얻어	-5231
저스	-5232
▁그럭	-5233
▁강자	-5234
▁상실	-5235
하면	-5236
▁궤도	-5237
▁더군	-5238
▁호칭	-5239
회사	-5240
▁국왕	-5241
▁동쪽	-5242
▁미루	-5243
저럭	-5244
uc	-5245
▁첩	-5246
▁고구려	-5247
▁클릭	-5248
▁할인	-5249
▁이익	-5250
ite	-5251
▁충실	-5252
▁ㅁ	-5253
▁강요	-5254
▁스웨	-5255
▁AD	-5256
▁그대	-5257
▁마이너	-5258
▁그럭저럭	-5259
▁용량	-5260
▁거듭	-5261
▁분대	-5262
▁가동	-5263
▁막차	-5264
▁불교	-5265
▁참모	-5266
▁화장실	-5267
▁플래시	-5268
▁승점	-5269
▁언더	-5270
▁거미	-5271
▁뿔	-5272
▁용서	-5273
▁면역	-5274
▁시합	-5275
▁찍히	-5276
▁포격	-5277
▁기숙	-5278
▁CV	-5279
주시	-5280
▁히나	-5281
▁코코	-5282
▁결합	-5283
▁스즈	-5284
▁아이콘	-5285
▁탈퇴	-5286
▁남녀	-5287
▁시라	-5288
려들	-5289
▁소대	-5290
OW	-5291
▁수류탄	-5292
▁에다가	-5293
▁무술	-5294
▁신앙	-5295
▁160	-5296
게임	-5297
말리	-5298
▁김동	-5299
▁예산	-5300
▁숙련	-5301
▁관중	-5302
▁타율	-5303
▁앨리스	-5304
▁140	-5305
▁기생	-5306
▁짜증	-5307
▁나리	-5308
▁미키	-5309
▁이토	-5310
▁SH	-5311
▁의회	-5312
▁눈치채	-5313
▁입지	-5314
▁옳	-5315
▁혐오	-5316
▁오늘날	-5317
▁런던	-5318
▁자책	-5319
▁아메리카	-5320
▁테라	-5321
▁딴	-5322
▁루수	-5323
▁구슬	-5324
▁적군	-5325
▁입대	-5326
ure	-5327
▁디젤	-5328
▁BPM	-5329
▁잡아먹	-5330
바르	-5331
▁윌리엄	-5332
▁오직	-5333
▁가요	-5334
▁성립	-5335
▁매장	-5336
▁영구	-5337
사관	-5338
▁예수	-5339
▁아츠	-5340
▁종목	-5341
▁잉글랜드	-5342
▁공방	-5343
▁빨갛	-5344
▁간접	-5345
▁통산	-5346
▁일본군	-5347
▁단행	-5348
▁도박	-5349
▁백성	-5350
▁교차	-5351
▁기여	-5352
▁문구	-5353
BA	-5354
▁하향	-5355
OD	-5356
▁동급	-5357
▁우에	-5358
▁900	-5359
▁기구	-5360
▁지뢰	-5361
▁형상	-5362
▁사키	-5363
▁쪼	-5364
▁모니	-5365
▁구글	-5366
▁DVD	-5367
▁공공	-5368
▁덩치	-5369
▁출구	-5370
▁부자	-5371
▁웃기	-5372
▁포켓몬스터	-5373
▁딕	-5374
▁낚시	-5375
▁실망	-5376
▁1989	-5377
▁클랜	-5378
▁힙	-5379
▁존재감	-5380
여객	-5381
▁철권	-5382
▁말투	-5383
▁백인	-5384
▁찾아내	-5385
▁간신히	-5386
▁떨어뜨리	-5387
▁하이퍼	-5388
▁$	-5389
어하	-5390
▁윗	-5391
▁Pr	-5392
▁제약	-5393
▁아미	-5394
▁야마토	-5395
▁피터	-5396
▁발리	-5397
▁금방	-5398
러가	-5399
▁Wh	-5400
▁민첩	-5401
▁소유자	-5402
ake	-5403
▁일치	-5404
▁연합군	-5405
▁착하	-5406
▁크림	-5407
▁오마	-5408
▁서쪽	-5409
머스	-5410
▁들키	-5411
▁Pl	-5412
▁이스라	-5413
▁KR	-5414
▁Ex	-5415
▁치루	-5416
▁상인	-5417
▁가라	-5418
▁흔들리	-5419
소녀	-5420
▁Un	-5421
▁주간	-5422
▁기관총	-5423
▁Pro	-5424
▁초인	-5425
▁어려움	-5426
▁쭉	-5427
▁울리	-5428
▁내전	-5429
▁이슈	-5430
RE	-5431
▁몽골	-5432
▁일대	-5433
▁추억	-5434
▁뎀	-5435
▁천만	-5436
▁동성	-5437
▁중량	-5438
▁근본	-5439
▁힌	-5440
▁단단	-5441
▁칼날	-5442
베르	-5443
▁본사	-5444
ION	-5445
▁매년	-5446
▁붓	-5447
▁유독	-5448
▁의외로	-5449
▁사유	-5450
무시	-5451
▁총리	-5452
▁싫어하	-5453
▁임팩트	-5454
▁아랍	-5455
▁개혁	-5456
▁법률	-5457
다나	-5458
▁너희	-5459
▁포드	-5460
▁지위	-5461
▁순환	-5462
▁권한	-5463
▁그렇지만	-5464
▁난입	-5465
▁RPG	-5466
▁호수	-5467
▁콜라보	-5468
▁화물	-5469
▁심사	-5470
▁와타	-5471
▁건조	-5472
▁평생	-5473
▁분신	-5474
▁NE	-5475
▁가만	-5476
▁침략	-5477
▁선택지	-5478
▁수비력	-5479
▁괜히	-5480
Hz	-5481
▁시공	-5482
▁이끄	-5483
▁리드	-5484
▁메이드	-5485
▁스크린	-5486
시즈	-5487
▁인종	-5488
은행	-5489
▁유물	-5490
▁재단	-5491
▁상식	-5492
▁타선	-5493
▁명확	-5494
▁커녕	-5495
▁믹스	-5496
▁건드리	-5497
▁세븐	-5498
▁개막	-5499
▁뛰어넘	-5500
특별시	-5501
▁스탠드	-5502
▁집착	-5503
oy	-5504
▁합의	-5505
▁전동	-5506
▁비스	-5507
▁반전	-5508
▁연극	-5509
▁소장	-5510
▁불사	-5511
화점	-5512
▁생존자	-5513
▁우르	-5514
▁헤어지	-5515
▁끈	-5516
▁란스	-5517
▁협상	-5518
▁색상	-5519
▁히가시	-5520
ows	-5521
▁스펠	-5522
▁커다랗	-5523
▁메달	-5524
▁맛있	-5525
▁세종	-5526
▁되돌리	-5527
▁헐	-5528
▁정통	-5529
▁기숙사	-5530
▁터뜨리	-5531
▁악기	-5532
▁Gr	-5533
ud	-5534
사자	-5535
신교	-5536
▁뿜	-5537
▁변호사	-5538
▁나마	-5539
▁이스라엘	-5540
▁읍	-5541
▁그랜드	-5542
▁잔뜩	-5543
▁서울특별시	-5544
▁양성	-5545
IG	-5546
▁서구	-5547
▁해치	-5548
▁with	-5549
▁딜레이	-5550
▁히토	-5551
OC	-5552
▁유적	-5553
▁브루	-5554
▁크리스탈	-5555
▁휘말리	-5556
▁승률	-5557
▁항복	-5558
▁끔	-5559
▁재정	-5560
▁개업	-5561
▁센스	-5562
▁곡명	-5563
▁암시	-5564
▁복지	-5565
▁메리	-5566
▁복선	-5567
갈리	-5568
▁인디	-5569
▁집행	-5570
▁렐	-5571
던지	-5572
▁스팀	-5573
▁울프	-5574
▁기울	-5575
▁일화	-5576
랭크	-5577
▁영주	-5578
▁기인	-5579
▁BL	-5580
▁신나	-5581
무르	-5582
▁엘리트	-5583
▁복구	-5584
▁걸맞	-5585
▁총선	-5586
▁무시무시	-5587
▁걸어	-5588
▁임신	-5589
▁카카	-5590
▁고위	-5591
▁교과	-5592
▁단축	-5593
▁부딪	-5594
▁출입	-5595
▁휩	-5596
전차	-5597
▁김종	-5598
▁동양	-5599
▁정수	-5600
▁즐겁	-5601
▁구축함	-5602
▁흰	-5603
그리	-5604
▁급격	-5605
▁열매	-5606
▁코난	-5607
▁무역	-5608
▁포르투	-5609
▁체육관	-5610
▁빠져	-5611
▁KOF	-5612
orld	-5613
▁정치인	-5614
데레	-5615
▁깨어나	-5616
▁자전거	-5617
부로	-5618
▁타쿠	-5619
▁꾸미	-5620
▁레지	-5621
▁기량	-5622
▁상단	-5623
▁비례	-5624
▁스트리트	-5625
▁두들	-5626
▁더군다나	-5627
히코	-5628
▁수출	-5629
▁he	-5630
▁채택	-5631
▁105	-5632
▁고로	-5633
▁치즈	-5634
▁라인업	-5635
▁진보	-5636
▁경직	-5637
▁망가지	-5638
▁꼼	-5639
▁깔리	-5640
▁당일	-5641
▁존경	-5642
▁김민	-5643
▁미나미	-5644
▁간단히	-5645
▁치킨	-5646
▁확대	-5647
▁BS	-5648
▁대단히	-5649
▁금액	-5650
▁부스터	-5651
▁이펙트	-5652
▁누적	-5653
▁성남	-5654
▁재밌	-5655
▁적합	-5656
▁도둑	-5657
▁강점	-5658
▁굿	-5659
▁철저	-5660
▁칼리	-5661
▁넘버	-5662
▁갈아	-5663
▁사이코	-5664
aw	-5665
▁국판	-5666
▁사살	-5667
▁코리아	-5668
▁War	-5669
▁알아내	-5670
▁사령부	-5671
▁정화	-5672
▁화재	-5673
▁상호	-5674
▁전이	-5675
▁허락	-5676
▁에로	-5677
▁통계	-5678
▁뻗	-5679
라이트	-5680
▁서포터	-5681
▁제독	-5682
▁후손	-5683
데이	-5684
▁EP	-5685
▁혹시	-5686
▁OVA	-5687
▁비치	-5688
▁ED	-5689
▁이혼	-5690
▁스폰	-5691
▁스파이더	-5692
티아	-5693
▁유학	-5694
ace	-5695
▁이민	-5696
▁키타	-5697
▁뽑히	-5698
▁내보내	-5699
▁우정	-5700
▁메시지	-5701
우치	-5702
▁메이플	-5703
▁콜로	-5704
▁썬더	-5705
80	-5706
데드	-5707
▁CG	-5708
▁끔찍	-5709
▁띠	-5710
▁잃어버리	-5711
▁치유	-5712
▁DD	-5713
▁대거	-5714
▁권리	-5715
ave	-5716
▁철수	-5717
▁행하	-5718
▁한쪽	-5719
▁견디	-5720
▁자이언츠	-5721
▁후계자	-5722
▁수백	-5723
▁통치	-5724
▁원문	-5725
▁Love	-5726
ame	-5727
▁간간	-5728
▁언데드	-5729
▁수능	-5730
▁수명	-5731
▁대수	-5732
▁마블	-5733
▁사원	-5734
▁검술	-5735
▁분명히	-5736
▁가을	-5737
▁면허	-5738
▁쏟아지	-5739
▁기갑	-5740
▁가공	-5741
▁업계	-5742
▁부적	-5743
아키	-5744
▁토너	-5745
유럽	-5746
▁마법소녀	-5747
▁토마	-5748
▁탄환	-5749
▁까이	-5750
▁주택	-5751
▁우타	-5752
▁루이	-5753
▁고개	-5754
▁변환	-5755
▁노가	-5756
▁능력자	-5757
▁독재	-5758
▁매니저	-5759
▁드라이버	-5760
▁라니	-5761
▁해머	-5762
▁오락	-5763
▁개신교	-5764
▁피아노	-5765
▁1987	-5766
▁물리치	-5767
▁알렉산	-5768
▁헤어	-5769
▁언스	-5770
▁천안	-5771
▁맷	-5772
▁LV	-5773
▁끼우	-5774
▁나루토	-5775
▁낮추	-5776
▁루나	-5777
▁실존	-5778
▁쟁	-5779
▁지불	-5780
▁트롤	-5781
▁하츠	-5782
▁소음	-5783
▁초간	-5784
▁코멘트	-5785
▁박물	-5786
▁제정	-5787
▁삽입	-5788
▁데려가	-5789
▁워크래프트	-5790
▁자본	-5791
▁생명체	-5792
▁유효	-5793
▁오랜만	-5794
▁싸이	-5795
▁토시	-5796
▁동명	-5797
▁크레	-5798
▁거울	-5799
▁전라	-5800
▁WWE	-5801
▁3000	-5802
ice	-5803
포트	-5804
▁기용	-5805
▁싹	-5806
▁마코토	-5807
▁해안	-5808
▁곳곳	-5809
▁중립	-5810
▁202	-5811
로나	-5812
▁타운	-5813
▁세인트	-5814
▁언젠	-5815
ies	-5816
▁배역	-5817
▁언젠가	-5818
▁약화	-5819
▁시위	-5820
▁프리미엄	-5821
chor	-5822
▁캐치	-5823
▁폐쇄	-5824
거지	-5825
데미	-5826
▁마스크	-5827
▁결투	-5828
▁인질	-5829
▁파생	-5830
▁히라	-5831
▁보험	-5832
▁원조	-5833
▁감각	-5834
▁서서	-5835
▁Wind	-5836
▁중첩	-5837
자와	-5838
▁구미	-5839
▁지리	-5840
▁우월	-5841
▁루비	-5842
own	-5843
IM	-5844
▁뮤지컬	-5845
▁대왕	-5846
▁원리	-5847
▁처지	-5848
▁중세	-5849
▁플러스	-5850
▁sh	-5851
▁실종	-5852
▁무관	-5853
▁큐브	-5854
▁요약	-5855
▁레딧	-5856
▁만남	-5857
반도	-5858
▁지팡이	-5859
▁주자	-5860
▁취약	-5861
▁ㄴ다거나	-5862
▁충청	-5863
▁스프링	-5864
▁리스크	-5865
▁기동성	-5866
▁철학	-5867
▁려던	-5868
▁리카	-5869
게이	-5870
걸이	-5871
▁체인지	-5872
▁킬러	-5873
▁엔드	-5874
▁성전	-5875
▁워커	-5876
▁아카데미	-5877
▁코믹	-5878
per	-5879
▁보드	-5880
▁니스	-5881
▁토너먼트	-5882
▁속이	-5883
▁결심	-5884
▁드래프트	-5885
▁니혼	-5886
▁리프	-5887
▁전파	-5888
▁유산	-5889
틀러	-5890
▁??	-5891
▁여객	-5892
하시	-5893
▁밀어	-5894
▁방위	-5895
리온	-5896
▁마주치	-5897
▁더빙	-5898
▁새기	-5899
▁무공	-5900
▁정기	-5901
▁고맙	-5902
▁TVA	-5903
ath	-5904
▁사야	-5905
▁곱	-5906
TE	-5907
man	-5908
가드	-5909
더라	-5910
▁KBO	-5911
▁딜링	-5912
▁날짜	-5913
▁anchor	-5914
▁하마	-5915
▁중형	-5916
▁de	-5917
▁카트	-5918
▁왜곡	-5919
▁나기	-5920
▁호시	-5921
▁나미	-5922
▁시크	-5923
▁도적	-5924
▁배포	-5925
▁보충	-5926
▁스트레스	-5927
▁시바	-5928
▁추종	-5929
▁틸	-5930
▁돌입	-5931
▁허가	-5932
운서	-5933
▁줍	-5934
▁아나운서	-5935
▁연패	-5936
▁티켓	-5937
▁개시	-5938
▁해병대	-5939
▁휘하	-5940
▁시원	-5941
▁관점	-5942
▁장탄	-5943
▁억지로	-5944
▁사명	-5945
▁PV	-5946
▁와일드	-5947
▁베리	-5948
▁베타	-5949
센트	-5950
▁측정	-5951
▁대학원	-5952
▁여우	-5953
시스트	-5954
▁보완	-5955
▁고장	-5956
▁조리	-5957
▁필리	-5958
▁저택	-5959
ere	-5960
old	-5961
스럽	-5962
▁We	-5963
▁복제	-5964
▁부실	-5965
▁중시	-5966
▁AS	-5967
▁PR	-5968
▁유격	-5969
▁1986	-5970
▁헌법	-5971
▁무인	-5972
▁마우스	-5973
▁승무원	-5974
▁파이트	-5975
▁용인	-5976
▁장거리	-5977
카이	-5978
▁후자	-5979
▁안기	-5980
술사	-5981
▁야구장	-5982
▁시외	-5983
텐도	-5984
▁닌텐도	-5985
▁ID	-5986
▁수호자	-5987
▁네트워크	-5988
▁분당	-5989
▁은지	-5990
▁관할	-5991
▁토미	-5992
▁인피	-5993
▁악화	-5994
▁박물관	-5995
▁셜	-5996
▁혐의	-5997
▁불량	-5998
▁이글	-5999
▁주둔	-6000
▁언덕	-6001
▁당대	-6002
10	-6003
▁희귀	-6004
▁서클	-6005
▁라라	-6006
ick	-6007
▁막내	-6008
▁꿀	-6009
▁엄밀	-6010
▁잠입	-6011
▁연고	-6012
▁조약	-6013
▁미네	-6014
ber	-6015
▁캠프	-6016
▁식민지	-6017
▁단원	-6018
▁".	-6019
▁문단	-6020
▁감추	-6021
▁우치	-6022
▁쿠라	-6023
▁모로	-6024
▁톨	-6025
▁튼	-6026
▁여전	-6027
▁롬	-6028
▁유발	-6029
▁기묘	-6030
▁법원	-6031
▁세포	-6032
▁유니크	-6033
▁기상	-6034
▁오키	-6035
▁페널	-6036
▁조이	-6037
네임	-6038
▁학력	-6039
▁->	-6040
▁럼	-6041
▁만만	-6042
▁얀	-6043
▁다이아몬드	-6044
▁지칭	-6045
▁방송국	-6046
▁엑시즈	-6047
▁기름	-6048
▁데이트	-6049
▁그린	-6050
▁취임	-6051
ory	-6052
▁김대	-6053
▁인용	-6054
▁인방	-6055
▁버드	-6056
펴보	-6057
▁카구	-6058
▁살펴보	-6059
GE	-6060
▁피우	-6061
▁연맹	-6062
▁스웨덴	-6063
▁남매	-6064
▁지진	-6065
▁로얄	-6066
▁벨트	-6067
▁즈음	-6068
래시	-6069
▁포위	-6070
▁코마	-6071
▁단행본	-6072
ov	-6073
▁질리	-6074
▁오메	-6075
▁반부	-6076
부르크	-6077
▁고증	-6078
▁가죽	-6079
▁레일	-6080
▁채보	-6081
▁택시	-6082
▁교도	-6083
▁프라임	-6084
▁아르헨	-6085
가리	-6086
▁챌	-6087
▁흩	-6088
▁매번	-6089
▁AKB	-6090
▁부드	-6091
TS	-6092
▁근거리	-6093
▁웰	-6094
그나	-6095
▁거점	-6096
▁울트라맨	-6097
▁자비	-6098
▁멜로디	-6099
ond	-6100
필드	-6101
▁법정	-6102
▁냐면	-6103
▁중장	-6104
▁배달	-6105
▁캐스터	-6106
▁면적	-6107
▁진압	-6108
▁파르	-6109
▁my	-6110
▁도루	-6111
비드	-6112
▁아테	-6113
▁디즈	-6114
▁분쟁	-6115
▁GP	-6116
▁이주	-6117
▁공수	-6118
▁선행	-6119
▁En	-6120
▁준우	-6121
▁도저히	-6122
태우	-6123
▁신도	-6124
▁케이드	-6125
▁레알	-6126
▁이수	-6127
▁아르헨티나	-6128
▁방어구	-6129
▁CJ	-6130
▁꿰	-6131
프리	-6132
▁깨달	-6133
▁일당	-6134
▁굵	-6135
▁독일군	-6136
티스	-6137
▁득표	-6138
▁행방	-6139
▁웨이브	-6140
▁중복	-6141
▁스텝	-6142
▁실은	-6143
▁차체	-6144
시타	-6145
▁FIFA	-6146
ream	-6147
▁혈액형	-6148
▁참석	-6149
미니	-6150
▁아이러	-6151
크로	-6152
▁연승	-6153
▁소요	-6154
▁라틴	-6155
▁호랑이	-6156
▁전승	-6157
▁휴식	-6158
▁부드럽	-6159
블린	-6160
▁균형	-6161
▁답변	-6162
▁시로	-6163
▁유인	-6164
▁때려	-6165
▁미쿠	-6166
▁헝	-6167
카락	-6168
▁암살자	-6169
▁머리카락	-6170
ah	-6171
out	-6172
▁릴리	-6173
커스	-6174
▁케인	-6175
▁공인	-6176
▁법칙	-6177
▁미만	-6178
▁한두	-6179
▁Dr	-6180
▁용자	-6181
▁189	-6182
▁본진	-6183
▁DC	-6184
IP	-6185
▁셔틀	-6186
아이	-6187
▁오전	-6188
▁wh	-6189
▁왜냐	-6190
세서	-6191
▁비전	-6192
▁무작	-6193
▁1500	-6194
▁주류	-6195
▁이온	-6196
타카	-6197
▁kt	-6198
바닥	-6199
베스	-6200
▁창원	-6201
▁코트	-6202
ost	-6203
▁첫차	-6204
▁관람	-6205
▁질투	-6206
▁스위치	-6207
▁로이	-6208
▁포탄	-6209
▁슬라이	-6210
▁발렌	-6211
▁중력	-6212
▁무사히	-6213
▁마계	-6214
▁솔직	-6215
▁께서	-6216
렐라	-6217
▁전제	-6218
▁토키	-6219
▁피닉스	-6220
▁학기	-6221
▁\	-6222
▁규격	-6223
▁전주	-6224
▁초록	-6225
▁에반	-6226
▁둘러싸	-6227
▁비틀	-6228
런트	-6229
▁챌린	-6230
▁리뷰	-6231
▁트리플	-6232
▁에르	-6233
▁영원히	-6234
▁주차	-6235
▁침입	-6236
▁쇼크	-6237
▁모시	-6238
▁격차	-6239
60	-6240
▁토벌	-6241
▁유력	-6242
러그	-6243
▁던가	-6244
▁루머	-6245
▁통틀	-6246
▁장인	-6247
▁바쁘	-6248
▁평일	-6249
UM	-6250
▁트루	-6251
▁에이지	-6252
▁김재	-6253
LE	-6254
▁교실	-6255
▁1985	-6256
▁훼	-6257
▁시너지	-6258
▁드래곤볼	-6259
▁남북	-6260
▁클론	-6261
▁항의	-6262
▁닛	-6263
▁식품	-6264
▁조커	-6265
▁급하	-6266
▁재회	-6267
▁For	-6268
▁놀리	-6269
블로	-6270
▁포르투갈	-6271
▁소방	-6272
▁스태	-6273
테르	-6274
▁비주얼	-6275
▁글로벌	-6276
▁인력	-6277
▁전무	-6278
▁긴장	-6279
▁지치	-6280
▁오디션	-6281
▁니아	-6282
▁공업	-6283
▁합병	-6284
▁안개	-6285
▁스테이션	-6286
▁집어넣	-6287
▁박근	-6288
▁창고	-6289
▁경로	-6290
▁김경	-6291
▁은신	-6292
▁개설	-6293
▁돔	-6294
▁감지	-6295
ile	-6296
▁공허	-6297
▁베기	-6298
▁논쟁	-6299
▁벼	-6300
▁정황	-6301
▁그르	-6302
▁법인	-6303
▁구름	-6304
▁조기	-6305
▁진학	-6306
야수	-6307
▁1984	-6308
리나	-6309
▁아동	-6310
▁추리	-6311
▁선고	-6312
▁노바	-6313
▁보이스	-6314
하르트	-6315
▁이종	-6316
▁아가씨	-6317
▁아틀	-6318
▁히로시	-6319
▁파동	-6320
코드	-6321
▁백화점	-6322
▁뜨겁	-6323
▁탐정	-6324
▁배수	-6325
▁주행	-6326
▁감동	-6327
▁신전	-6328
▁트릭	-6329
▁유성	-6330
▁호흡	-6331
▁양반	-6332
▁무스	-6333
▁난사	-6334
▁유미	-6335
쿠라	-6336
▁막판	-6337
▁통화	-6338
▁쓸데	-6339
▁토크	-6340
▁어필	-6341
▁제네	-6342
▁확장팩	-6343
▁기운	-6344
▁어뢰	-6345
ont	-6346
▁토니	-6347
▁우즈	-6348
▁하수	-6349
▁시카	-6350
▁코르	-6351
▁소송	-6352
▁가방	-6353
▁어이	-6354
▁사인	-6355
▁안녕	-6356
▁왕위	-6357
▁윈드	-6358
번에	-6359
▁범죄자	-6360
▁단종	-6361
▁여주	-6362
▁특별히	-6363
▁신용	-6364
▁뭉치	-6365
▁배드	-6366
▁위성	-6367
▁과도	-6368
▁역명	-6369
▁감상	-6370
▁마물	-6371
▁메이커	-6372
▁변태	-6373
▁수염	-6374
▁신자	-6375
▁프란	-6376
ome	-6377
▁카더라	-6378
▁보존	-6379
▁급행	-6380
▁뽑아내	-6381
▁비유	-6382
▁요인	-6383
▁바디	-6384
세대	-6385
▁자녀	-6386
▁학습	-6387
▁박살나	-6388
▁5000	-6389
▁장미	-6390
▁It	-6391
▁김현	-6392
▁생년	-6393
▁막상	-6394
▁분열	-6395
▁스쿨	-6396
▁그레	-6397
▁갑작	-6398
▁수면	-6399
▁벙	-6400
▁직장	-6401
▁개발자	-6402
정부	-6403
투스	-6404
▁제갈량	-6405
▁슬프	-6406
▁손오	-6407
키지	-6408
▁명의	-6409
▁백제	-6410
▁야쿠	-6411
▁끌려가	-6412
▁추세	-6413
▁나폴	-6414
노리	-6415
▁과학자	-6416
▁뚫리	-6417
▁비웃	-6418
▁의학	-6419
▁서포트	-6420
▁Star	-6421
▁정예	-6422
▁창단	-6423
▁발굴	-6424
▁경기력	-6425
▁만지	-6426
▁패키지	-6427
▁성당	-6428
▁FM	-6429
▁에디	-6430
▁영광	-6431
▁진주	-6432
io	-6433
▁태평양	-6434
▁광선	-6435
▁잉여	-6436
▁섀도우	-6437
▁스캔	-6438
▁아이러니	-6439
▁임금	-6440
▁가디언	-6441
▁운동장	-6442
▁노스	-6443
▁극히	-6444
▁신발	-6445
타입	-6446
▁팟	-6447
▁DE	-6448
▁성질	-6449
▁세라	-6450
▁1960	-6451
▁극도	-6452
▁몫	-6453
▁최상위	-6454
▁진급	-6455
▁기력	-6456
▁체감	-6457
▁상관없이	-6458
▁블라	-6459
▁카운트	-6460
▁매니아	-6461
에이	-6462
▁SNS	-6463
▁106	-6464
▁얻어맞	-6465
▁기재	-6466
▁유재	-6467
▁만일	-6468
▁복합	-6469
▁라이온즈	-6470
az	-6471
▁준우승	-6472
▁오노	-6473
▁서서히	-6474
▁오우	-6475
▁스타리그	-6476
▁ww	-6477
▁룩	-6478
▁쇼핑	-6479
▁오스트리아	-6480
▁판결	-6481
▁대책	-6482
▁러시	-6483
▁리라	-6484
▁물량	-6485
▁국경	-6486
▁EZ	-6487
▁산하	-6488
▁양자	-6489
▁우유	-6490
사기	-6491
▁대치	-6492
▁여인	-6493
▁라즈	-6494
크라	-6495
▁탐험	-6496
▁로버트	-6497
▁타이거즈	-6498
▁루스	-6499
▁프린세스	-6500
▁대조	-6501
▁공정	-6502
▁170	-6503
▁걸즈	-6504
도르	-6505
▁손상	-6506
불명	-6507
▁행운	-6508
▁시상	-6509
▁로보	-6510
▁위엄	-6511
▁윈도우	-6512
▁사관	-6513
▁늙	-6514
▁우주선	-6515
어놓	-6516
벌레	-6517
▁리즈	-6518
▁피트	-6519
▁도감	-6520
▁Fl	-6521
▁티아	-6522
▁처참	-6523
▁관계자	-6524
▁샌드	-6525
▁야수	-6526
▁워치	-6527
▁통로	-6528
▁가만히	-6529
▁데빌	-6530
▁출격	-6531
▁헷	-6532
▁장로	-6533
능력	-6534
▁꼬이	-6535
30	-6536
ian	-6537
▁머무르	-6538
▁해골	-6539
▁여학생	-6540
▁와카	-6541
▁천연	-6542
▁체험	-6543
▁플라이	-6544
▁무산	-6545
▁상담	-6546
일보	-6547
▁퇴장	-6548
▁엘리자	-6549
▁불행	-6550
▁바스	-6551
▁www	-6552
▁조상	-6553
▁증상	-6554
▁Station	-6555
▁콤비	-6556
▁야간	-6557
▁택하	-6558
▁하프	-6559
▁Sc	-6560
▁뜬금없이	-6561
▁AN	-6562
▁사족	-6563
▁상륙	-6564
▁키라	-6565
ade	-6566
▁소프트웨어	-6567
▁부서지	-6568
▁오염	-6569
릴라	-6570
▁엇	-6571
▁Or	-6572
▁포장	-6573
▁약물	-6574
▁쳐들	-6575
▁고객	-6576
▁빙판	-6577
▁손오공	-6578
▁경주	-6579
▁드림	-6580
▁오로지	-6581
▁LC	-6582
▁투스	-6583
▁간주	-6584
▁함부로	-6585
▁캐시	-6586
저기	-6587
▁결제	-6588
▁세뇌	-6589
▁흡사	-6590
▁중고	-6591
▁태클	-6592
▁Fate	-6593
▁디바	-6594
구미	-6595
▁심의	-6596
▁타수	-6597
▁연봉	-6598
▁붙잡히	-6599
▁스핀	-6600
▁나르	-6601
▁Go	-6602
▁여기저기	-6603
▁출간	-6604
▁날카	-6605
▁즉사	-6606
▁캣	-6607
▁남아	-6608
▁마유	-6609
▁마케	-6610
▁백작	-6611
▁베테	-6612
▁뒤지	-6613
▁모터	-6614
▁위반	-6615
▁포터	-6616
▁이웃	-6617
▁아바타	-6618
▁본토	-6619
▁철거	-6620
▁파편	-6621
▁원피스	-6622
▁사립	-6623
▁처분	-6624
저리	-6625
▁렌즈	-6626
▁루크	-6627
▁네요	-6628
▁파란색	-6629
▁당당	-6630
구나	-6631
▁아시안	-6632
▁배정	-6633
▁두들기	-6634
▁난무	-6635
리스트	-6636
▁시온	-6637
▁CF	-6638
▁뱃	-6639
▁비극	-6640
▁콘솔	-6641
▁Br	-6642
▁되살	-6643
▁SF	-6644
▁브로	-6645
▁수색	-6646
ason	-6647
토스	-6648
▁동아리	-6649
▁역습	-6650
▁불펜	-6651
▁실상	-6652
▁샤이	-6653
▁폐기	-6654
▁려다	-6655
▁Windows	-6656
▁대령	-6657
▁해킹	-6658
▁파멸	-6659
▁혜택	-6660
▁후퇴	-6661
▁비스트	-6662
▁BR	-6663
40	-6664
▁캘	-6665
▁지향	-6666
▁창작물	-6667
▁니콜	-6668
▁악몽	-6669
키아	-6670
▁교장	-6671
▁이와	-6672
려받	-6673
▁시신	-6674
▁날카롭	-6675
▁경악	-6676
▁지력	-6677
▁명목	-6678
▁즉위	-6679
▁맥주	-6680
▁갤러	-6681
메이	-6682
▁유전자	-6683
▁나스	-6684
▁코미디	-6685
▁후미	-6686
베이	-6687
▁이타	-6688
▁동남	-6689
sh	-6690
▁도장	-6691
▁거북	-6692
▁시트	-6693
다보	-6694
도리	-6695
▁잡아내	-6696
▁두르	-6697
▁동경	-6698
▁신데	-6699
▁여럿	-6700
▁상사	-6701
▁장사	-6702
먼스	-6703
▁프로토	-6704
▁스포일러	-6705
▁경남	-6706
▁전동차	-6707
▁감싸	-6708
▁타르	-6709
▁125	-6710
▁짐작	-6711
▁핑크	-6712
▁조우	-6713
▁키보드	-6714
▁권위	-6715
하마	-6716
▁대포	-6717
▁엄격	-6718
▁해내	-6719
▁휴가	-6720
▁JP	-6721
카이도	-6722
비전	-6723
▁CH	-6724
▁교단	-6725
▁고리	-6726
▁반박	-6727
▁제왕	-6728
▁기둥	-6729
▁뒤늦	-6730
▁물체	-6731
▁선조	-6732
▁헨리	-6733
▁창설	-6734
▁막강	-6735
불호	-6736
▁UN	-6737
▁혼돈	-6738
▁호불호	-6739
▁조종사	-6740
▁양손	-6741
▁기세	-6742
▁케이블	-6743
tle	-6744
▁360	-6745
▁며칠	-6746
▁디즈니	-6747
▁샷건	-6748
▁한반도	-6749
▁손실	-6750
ug	-6751
▁신입	-6752
▁신데렐라	-6753
▁교토	-6754
▁잠들	-6755
▁얽	-6756
▁원곡	-6757
▁폭파	-6758
▁스테이	-6759
▁정교	-6760
▁OP	-6761
▁발행	-6762
▁최적	-6763
▁타석	-6764
렉스	-6765
▁LA	-6766
▁야생	-6767
▁공세	-6768
▁나노	-6769
▁승차	-6770
▁노조	-6771
▁옹호	-6772
▁배출	-6773
▁트라우마	-6774
▁흰색	-6775
▁장탄수	-6776
▁낙하	-6777
▁노가다	-6778
▁축복	-6779
▁내일	-6780
▁포즈	-6781
▁프레이	-6782
▁풋	-6783
▁딸리	-6784
▁https	-6785
▁베네	-6786
우리	-6787
▁개국	-6788
▁광장	-6789
▁임대	-6790
▁호소	-6791
▁채팅	-6792
▁부착	-6793
▁지선	-6794
▁히틀러	-6795
▁펼쳐지	-6796
▁오이	-6797
▁근원	-6798
▁대전차	-6799
▁여파	-6800
▁하급	-6801
▁스트라이커	-6802
▁넘어서	-6803
▁표면	-6804
▁츤	-6805
▁기장	-6806
▁근접전	-6807
▁미오	-6808
▁디오	-6809
▁복원	-6810
▁어쩌면	-6811
▁버섯	-6812
▁모스	-6813
▁끊임	-6814
▁바지	-6815
▁프랑스어	-6816
▁회색	-6817
▁응용	-6818
▁BE	-6819
▁명백	-6820
▁조별	-6821
▁세팅	-6822
▁승자	-6823
▁패밀리	-6824
▁대시	-6825
▁텍스트	-6826
▁관우	-6827
▁커스텀	-6828
월일	-6829
▁전락	-6830
ach	-6831
▁유언	-6832
▁구동	-6833
▁유기	-6834
ower	-6835
▁여고	-6836
▁방치	-6837
천시	-6838
▁실사	-6839
나기	-6840
▁배려	-6841
▁뽀	-6842
▁첼시	-6843
▁대접	-6844
▁잠실	-6845
▁건네	-6846
▁신지	-6847
▁개장	-6848
라딘	-6849
▁장신	-6850
▁전북	-6851
▁루이스	-6852
▁굴욕	-6853
▁비명	-6854
MP	-6855
iss	-6856
▁솜	-6857
▁궁금	-6858
▁이순	-6859
▁타츠	-6860
▁올스타	-6861
▁반감	-6862
▁출루	-6863
▁물고기	-6864
▁디시	-6865
▁열혈	-6866
▁되게	-6867
▁Wi	-6868
▁쌀	-6869
▁투척	-6870
▁미국인	-6871
▁통칭	-6872
▁초능력	-6873
▁소용	-6874
▁려다가	-6875
▁좌절	-6876
▁브레	-6877
▁장성	-6878
▁생년월일	-6879
▁밍	-6880
▁김상	-6881
▁부작용	-6882
▁양상	-6883
▁저하	-6884
▁탕	-6885
▁앗	-6886
▁살아나	-6887
▁팡	-6888
▁이라크	-6889
▁시인	-6890
▁마드리	-6891
▁꽉	-6892
▁뻥	-6893
▁카자	-6894
▁카리스	-6895
▁갚	-6896
▁묶이	-6897
▁합리	-6898
▁마드리드	-6899
▁진격	-6900
ash	-6901
▁여타	-6902
▁논의	-6903
▁간간히	-6904
▁틴	-6905
▁결계	-6906
▁이글스	-6907
▁그날	-6908
▁근대	-6909
▁선사	-6910
▁여의	-6911
지막지	-6912
▁무지막지	-6913
▁엽	-6914
▁약자	-6915
▁발목	-6916
▁스나이	-6917
▁스태프	-6918
▁민주주의	-6919
▁그램	-6920
▁대차	-6921
▁약탈	-6922
▁마감	-6923
▁엎	-6924
▁축하	-6925
▁긁	-6926
ARD	-6927
▁수월	-6928
▁빌딩	-6929
▁정반	-6930
▁센트	-6931
▁상영	-6932
▁지인	-6933
▁여러분	-6934
▁가난	-6935
▁스케일	-6936
▁거스	-6937
▁공백	-6938
▁기수	-6939
▁스노	-6940
▁해명	-6941
▁계시	-6942
▁1982	-6943
▁공대	-6944
▁올드	-6945
ook	-6946
▁깜짝	-6947
▁아스카	-6948
산역	-6949
▁성씨	-6950
▁집권	-6951
▁퍼포	-6952
OU	-6953
ial	-6954
▁기본기	-6955
▁인자	-6956
▁넘어지	-6957
▁퍼포먼스	-6958
▁수동	-6959
브라	-6960
▁설령	-6961
▁사이클	-6962
사이	-6963
▁모빌	-6964
▁세금	-6965
▁다투	-6966
▁브라운	-6967
돌이	-6968
▁로이드	-6969
▁프론	-6970
▁우세	-6971
▁사악	-6972
▁다운로드	-6973
▁둠	-6974
TV	-6975
▁마트	-6976
▁하하	-6977
▁조용히	-6978
럼프	-6979
▁레온	-6980
▁박살내	-6981
▁생전	-6982
▁실책	-6983
포르	-6984
▁하인	-6985
▁텟	-6986
▁고소	-6987
▁최우	-6988
▁손꼽	-6989
▁중동	-6990
▁한창	-6991
ps	-6992
▁구별	-6993
▁노동자	-6994
ann	-6995
▁대박	-6996
▁조롱	-6997
▁강렬	-6998
▁개별	-6999
▁wik	-7000
버그	-7001
▁라우	-7002
▁이누	-7003
▁후일	-7004
▁독일어	-7005
▁아지	-7006
▁나나	-7007
ss	-7008
▁특급	-7009
란히	-7010
▁엄밀히	-7011
▁시외버스	-7012
▁라크	-7013
누스	-7014
철도	-7015
▁꼬마	-7016
▁로빈	-7017
▁보건	-7018
▁깎이	-7019
▁성경	-7020
▁폴아웃	-7021
▁소니	-7022
▁아쉬	-7023
▁단검	-7024
▁교복	-7025
▁오메가	-7026
▁닐	-7027
모함	-7028
▁폭행	-7029
▁MB	-7030
▁1983	-7031
▁왼손	-7032
▁슬로	-7033
▁삼각	-7034
▁에요	-7035
▁스즈키	-7036
▁우드	-7037
▁권장	-7038
▁대선	-7039
▁라이너	-7040
ky	-7041
▁훈장	-7042
▁사리	-7043
▁페널티	-7044
▁검찰	-7045
▁이용객	-7046
▁감수	-7047
▁ㄹ려	-7048
▁에픽	-7049
센스	-7050
▁명문	-7051
▁조명	-7052
irl	-7053
비치	-7054
▁그레이트	-7055
▁토하	-7056
▁다가가	-7057
▁나아지	-7058
▁형편	-7059
▁업로드	-7060
▁불쌍	-7061
▁음료	-7062
▁선제	-7063
▁빠져나가	-7064
역사	-7065
▁Mk	-7066
▁비서	-7067
▁마도카	-7068
▁전격	-7069
ib	-7070
▁여서	-7071
바야	-7072
▁독점	-7073
▁인권	-7074
70	-7075
▁사사	-7076
▁유망	-7077
▁도리	-7078
▁스피릿	-7079
하나	-7080
▁웨스트	-7081
ish	-7082
▁마땅	-7083
▁산탄	-7084
▁CS	-7085
▁토요	-7086
▁페이스북	-7087
▁넘어오	-7088
▁원전	-7089
▁your	-7090
▁닝	-7091
▁제물	-7092
▁명사	-7093
▁분해	-7094
▁직선	-7095
▁건국	-7096
▁저렇	-7097
▁포획	-7098
▁호크	-7099
숭이	-7100
▁선진	-7101
▁온도	-7102
▁날뛰	-7103
▁홀리	-7104
▁항구	-7105
▁강간	-7106
▁아스트	-7107
▁휠	-7108
▁유혹	-7109
▁후임	-7110
▁GO	-7111
▁세부	-7112
▁고속도로	-7113
▁위안	-7114
▁지사	-7115
▁트랩	-7116
▁에릭	-7117
▁that	-7118
▁벡	-7119
▁공통점	-7120
▁상반	-7121
▁수직	-7122
▁카를	-7123
▁루프	-7124
▁PP	-7125
▁질병	-7126
▁각오	-7127
▁중지	-7128
▁도트	-7129
진호	-7130
rom	-7131
▁학생회	-7132
루미	-7133
▁구장	-7134
▁팁	-7135
▁블레이	-7136
▁혈통	-7137
▁찬스	-7138
▁츠바	-7139
▁부딪히	-7140
▁후원	-7141
공항	-7142
▁잔인	-7143
▁페리	-7144
차기	-7145
▁추방	-7146
▁주니어	-7147
라노	-7148
▁오죽	-7149
▁신선	-7150
▁엄연히	-7151
탐정	-7152
▁평양	-7153
▁김해	-7154
▁경부	-7155
▁le	-7156
▁술사	-7157
▁항공모함	-7158
▁물품	-7159
▁범용	-7160
▁적중	-7161
▁샵	-7162
▁부동	-7163
▁후회	-7164
블리	-7165
▁ON	-7166
orm	-7167
▁두렵	-7168
▁타치	-7169
게이머	-7170
▁프로게이머	-7171
▁유나이	-7172
▁검열	-7173
▁Ne	-7174
▁매드	-7175
사리	-7176
▁축소	-7177
경기	-7178
▁고무	-7179
▁라스트	-7180
▁베테랑	-7181
▁엔지	-7182
▁진상	-7183
▁거론	-7184
▁동행	-7185
▁하치	-7186
▁스와	-7187
▁토요일	-7188
▁압권	-7189
▁헷갈리	-7190
▁ML	-7191
▁루피	-7192
▁관찰	-7193
▁원더	-7194
▁증폭	-7195
▁선두	-7196
▁강원도	-7197
▁메리트	-7198
▁350	-7199
으로	-7200
▁스컬	-7201
▁레인지	-7202
▁땡	-7203
▁다거나	-7204
싱턴	-7205
▁유나이티	-7206
▁마카	-7207
▁허무	-7208
▁젖	-7209
▁기후	-7210
▁논문	-7211
▁주체	-7212
▁지연	-7213
▁김기	-7214
▁하반	-7215
▁스폰서	-7216
▁킷	-7217
▁이어받	-7218
▁원형	-7219
벤처	-7220
▁{{	-7221
우트	-7222
▁흡혈귀	-7223
▁어드벤처	-7224
▁부임	-7225
이치로	-7226
테일	-7227
▁성배	-7228
▁합동	-7229
▁SKT	-7230
▁스리	-7231
▁장난감	-7232
▁트윈스	-7233
▁인칭	-7234
▁교과서	-7235
▁평하	-7236
▁변이	-7237
▁출마	-7238
▁TR	-7239
▁영지	-7240
▁골렘	-7241
에르	-7242
▁요한	-7243
▁경전	-7244
▁자꾸	-7245
▁ㅂ니까	-7246
▁하여	-7247
구장	-7248
전설	-7249
▁기쁘	-7250
▁친절	-7251
▁쿠데	-7252
▁유의	-7253
▁중순	-7254
▁쿄코	-7255
▁쨩	-7256
▁쓰리	-7257
▁메트로	-7258
▁도색	-7259
▁지목	-7260
▁유출	-7261
▁{{{	-7262
▁벌리	-7263
▁거칠	-7264
amp	-7265
▁표절	-7266
▁운수	-7267
▁권유	-7268
▁바나	-7269
▁결혼식	-7270
▁쉴	-7271
▁블로	-7272
▁해양	-7273
▁유니버스	-7274
▁역량	-7275
▁슌	-7276
▁구성원	-7277
▁붐	-7278
▁UE	-7279
ft	-7280
▁타이탄	-7281
▁치열	-7282
▁자네	-7283
▁시리아	-7284
▁피카	-7285
아치	-7286
▁절차	-7287
▁히든	-7288
▁베어스	-7289
▁전망	-7290
싸움	-7291
▁어색	-7292
▁초콜	-7293
▁쿠마	-7294
루션	-7295
▁쿤	-7296
▁!"	-7297
▁보라색	-7298
마크	-7299
ype	-7300
▁당기	-7301
트론	-7302
▁특공	-7303
▁사무라이	-7304
▁우익	-7305
▁돌보	-7306
▁잊히	-7307
▁다이스	-7308
▁취업	-7309
▁빈도	-7310
▁코스튬	-7311
▁우울	-7312
▁여단	-7313
▁폴리	-7314
▁막아내	-7315
▁소서	-7316
▁Mar	-7317
▁시게	-7318
▁헤르	-7319
▁박근혜	-7320
배우	-7321
뻐하	-7322
▁기뻐하	-7323
▁의자	-7324
▁제치	-7325
▁마술사	-7326
▁되돌	-7327
▁끓	-7328
▁과자	-7329
▁컴뱃	-7330
▁긴급	-7331
▁동대	-7332
▁고는	-7333
▁우회	-7334
▁튼튼	-7335
베리	-7336
ous	-7337
▁사와	-7338
▁버스트	-7339
▁서기	-7340
▁뱅크	-7341
▁유료	-7342
▁사투	-7343
▁수습	-7344
▁수급	-7345
▁페르소	-7346
▁조르	-7347
▁카네	-7348
▁줄거리	-7349
▁캄	-7350
▁강호	-7351
▁관여	-7352
▁동서	-7353
▁손자	-7354
▁어설	-7355
▁다큐	-7356
▁안양	-7357
TR	-7358
추어	-7359
▁by	-7360
▁애칭	-7361
▁기호	-7362
▁유탄	-7363
▁카시	-7364
▁청주	-7365
▁ex	-7366
▁공용	-7367
▁이케	-7368
▁침묵	-7369
▁동점	-7370
▁토우	-7371
▁고블린	-7372
▁명단	-7373
▁나비	-7374
▁터스	-7375
▁히스	-7376
▁나이프	-7377
▁가두	-7378
▁히카	-7379
슈타인	-7380
시대	-7381
▁상한	-7382
▁LP	-7383
▁리나	-7384
▁풍부	-7385
▁중상	-7386
▁학문	-7387
▁빨간	-7388
▁징역	-7389
▁외우	-7390
니시	-7391
▁가오	-7392
▁유전	-7393
▁순양함	-7394
▁센서	-7395
▁고스	-7396
▁번지	-7397
▁Sup	-7398
플레이	-7399
▁보호막	-7400
▁광명	-7401
▁쳐들어	-7402
▁관통력	-7403
▁드레스	-7404
▁규제	-7405
산시	-7406
▁정사	-7407
!!	-7408
▁젼	-7409
▁대성	-7410
▁오스만	-7411
▁GSL	-7412
▁퍼즐	-7413
▁we	-7414
▁인재	-7415
▁달려가	-7416
승부	-7417
▁일요일	-7418
▁겔	-7419
▁짙	-7420
▁이놈	-7421
FF	-7422
▁전생	-7423
바나	-7424
▁아무튼	-7425
▁불능	-7426
▁선장	-7427
▁의장	-7428
▁촉수	-7429
▁호드	-7430
▁웜	-7431
▁배제	-7432
▁분산	-7433
▁침대	-7434
▁페어리	-7435
▁끌어들이	-7436
▁손꼽히	-7437
▁스플	-7438
▁bl	-7439
▁앰	-7440
키퍼	-7441
▁마인드	-7442
▁밀려나	-7443
▁기스	-7444
▁평행	-7445
▁포스터	-7446
▁트레이너	-7447
▁우승자	-7448
▁미미	-7449
▁오브젝트	-7450
▁인과	-7451
▁큐어	-7452
▁태국	-7453
▁오지	-7454
▁러스	-7455
▁동반	-7456
▁후반기	-7457
▁백업	-7458
▁페르소나	-7459
▁프렌	-7460
도전	-7461
▁평상	-7462
▁102	-7463
▁도어	-7464
▁특별시	-7465
▁시모	-7466
▁관측	-7467
▁메카닉	-7468
▁카마	-7469
▁아깝	-7470
▁정석	-7471
ey	-7472
▁아아	-7473
▁출산	-7474
▁쏠	-7475
▁금메달	-7476
▁서바이	-7477
▁철갑	-7478
▁낭비	-7479
▁빅토	-7480
▁부스트	-7481
▁크라이	-7482
▁안심	-7483
▁생김	-7484
▁날씨	-7485
▁스위스	-7486
ING	-7487
▁신속	-7488
▁모집	-7489
필더	-7490
▁미드필더	-7491
▁III	-7492
▁동해	-7493
▁시비	-7494
▁강림	-7495
▁현금	-7496
▁IM	-7497
폭탄	-7498
▁수석	-7499
▁왜냐하면	-7500
▁짐승	-7501
▁시상식	-7502
▁워리어	-7503
▁날아다니	-7504
▁관리자	-7505
▁아케이드	-7506
▁참가자	-7507
▁지부	-7508
▁취득	-7509
하루	-7510
▁박지	-7511
▁꺼리	-7512
▁벤치	-7513
▁스탭	-7514
렉션	-7515
▁모에	-7516
▁라가	-7517
AK	-7518
▁간지	-7519
▁패전	-7520
▁무한도전	-7521
▁World	-7522
▁연산	-7523
▁모니터	-7524
▁피로	-7525
▁껍	-7526
▁골키퍼	-7527
▁모험가	-7528
▁유우키	-7529
▁성실	-7530
▁씌우	-7531
▁리모	-7532
▁을수록	-7533
▁마타	-7534
▁유재석	-7535
▁대위	-7536
▁통째	-7537
▁레이디	-7538
▁만주	-7539
▁김용	-7540
▁냉정	-7541
NA	-7542
▁조카	-7543
▁시그	-7544
▁블리자드	-7545
▁공감	-7546
▁플랜	-7547
워즈	-7548
▁친분	-7549
▁대세	-7550
▁원주민	-7551
▁원판	-7552
대사	-7553
▁장타	-7554
▁책임지	-7555
▁워프	-7556
▁화산	-7557
▁스피어	-7558
▁덤비	-7559
▁옐	-7560
der	-7561
▁강사	-7562
oll	-7563
▁최저	-7564
▁슬라	-7565
▁리틀	-7566
▁일가	-7567
▁품질	-7568
▁쿼터	-7569
▁카리스마	-7570
ink	-7571
▁따뜻	-7572
▁New	-7573
▁작년	-7574
▁미인	-7575
▁All	-7576
▁명분	-7577
▁역임	-7578
▁포병	-7579
▁데몬	-7580
▁프리미어	-7581
▁스기	-7582
▁se	-7583
어드	-7584
ET	-7585
▁방송사	-7586
▁111	-7587
코트	-7588
▁변장	-7589
▁생체	-7590
▁뱅가드	-7591
▁미소녀	-7592
MS	-7593
▁OG	-7594
▁al	-7595
▁카지	-7596
▁강등	-7597
▁사무소	-7598
▁미지	-7599
▁절친	-7600
▁단발	-7601
리안	-7602
▁당사자	-7603
▁후드	-7604
▁호러	-7605
▁흑역사	-7606
▁슈퍼맨	-7607
▁108	-7608
▁노란색	-7609
▁닥치	-7610
▁광산	-7611
항공	-7612
▁메일	-7613
▁뉘	-7614
페라	-7615
▁영양	-7616
▁DP	-7617
▁손쉽	-7618
▁스미스	-7619
▁유카	-7620
▁생애	-7621
▁하나하나	-7622
▁으려는	-7623
▁빨간색	-7624
▁자제	-7625
▁사로	-7626
▁IN	-7627
▁선임	-7628
▁여포	-7629
▁토라	-7630
▁넬	-7631
▁호남	-7632
▁리버스	-7633
▁무용	-7634
▁재개	-7635
느리	-7636
▁단기	-7637
▁애인	-7638
▁장판	-7639
▁쿠데타	-7640
▁국무	-7641
주교	-7642
▁워즈	-7643
▁유입	-7644
▁무도	-7645
▁봉쇄	-7646
▁SU	-7647
▁몰살	-7648
▁카레	-7649
▁풍기	-7650
▁오즈	-7651
▁출판사	-7652
▁각지	-7653
▁클린	-7654
▁소모량	-7655
▁Season	-7656
▁OS	-7657
▁루리	-7658
▁장례	-7659
▁안쪽	-7660
▁동정	-7661
▁방사능	-7662
▁연쇄	-7663
▁트릴	-7664
▁자존	-7665
이나	-7666
▁마모	-7667
▁스네	-7668
▁디펜	-7669
떨어지	-7670
▁바르셀	-7671
▁바르셀로나	-7672
▁차갑	-7673
▁끌리	-7674
▁코스프레	-7675
▁un	-7676
▁항해	-7677
▁국제공항	-7678
▁폭스	-7679
당초	-7680
모스	-7681
▁리안	-7682
▁마오	-7683
▁마운	-7684
▁임기	-7685
▁115	-7686
▁발급	-7687
▁전당	-7688
▁수인	-7689
▁마음대로	-7690
▁와인	-7691
페이	-7692
▁자칭	-7693
▁실현	-7694
▁김포	-7695
▁워싱턴	-7696
▁유망주	-7697
▁리처	-7698
▁위원장	-7699
▁워크	-7700
▁해산	-7701
▁국장	-7702
▁미러	-7703
▁스티븐	-7704
▁불태우	-7705
▁고등학생	-7706
▁멋대로	-7707
네마	-7708
께끼	-7709
▁수수께끼	-7710
▁수위	-7711
▁엉망	-7712
▁부근	-7713
▁끊임없이	-7714
IX	-7715
▁병역	-7716
▁MF	-7717
▁카쿠	-7718
▁트론	-7719
▁왕복	-7720
▁렘	-7721
베이터	-7722
▁퍼스트	-7723
▁레이지	-7724
▁곡인	-7725
▁게이머	-7726
▁오니	-7727
▁아베	-7728
▁시크릿	-7729
▁어벤	-7730
▁공단	-7731
▁멍청	-7732
▁제출	-7733
▁브레이커	-7734
▁흔들	-7735
시고	-7736
▁데이비드	-7737
▁마그	-7738
▁민간인	-7739
▁스탈	-7740
▁자책점	-7741
▁쫓겨나	-7742
DX	-7743
▁동속	-7744
▁디자이너	-7745
셔널	-7746
▁드로우	-7747
▁구형	-7748
▁메이지	-7749
▁스텔스	-7750
▁고집	-7751
▁문재	-7752
▁침투	-7753
▁요미	-7754
▁철저히	-7755
▁닦	-7756
35	-7757
▁내버리	-7758
▁1950	-7759
▁할리	-7760
▁작정	-7761
▁확산	-7762
▁비기	-7763
▁1981	-7764
▁우호	-7765
▁DF	-7766
▁맞붙	-7767
▁라이징	-7768
동자	-7769
▁원시	-7770
▁lv	-7771
▁탐지	-7772
▁방탄	-7773
▁양식	-7774
▁목사	-7775
▁돋보이	-7776
▁만능	-7777
▁화해	-7778
▁얇	-7779
▁존스	-7780
▁따라오	-7781
▁경호	-7782
▁쿠리	-7783
▁And	-7784
▁개구리	-7785
▁이라도	-7786
▁투쟁	-7787
▁정반대	-7788
▁생김새	-7789
▁터보	-7790
▁188	-7791
▁후유	-7792
▁힙합	-7793
▁레이어	-7794
▁기부	-7795
▁능가	-7796
ank	-7797
▁부원	-7798
▁수지	-7799
▁NM	-7800
▁미르	-7801
▁BGA	-7802
▁엣	-7803
▁종영	-7804
▁z	-7805
▁첫째	-7806
ai	-7807
▁엔지니어	-7808
▁전남	-7809
틀랜드	-7810
▁치안	-7811
▁간섭	-7812
▁디아블로	-7813
▁농장	-7814
▁렉스	-7815
▁산맥	-7816
▁함장	-7817
▁정신력	-7818
▁To	-7819
▁동전	-7820
▁라그나	-7821
▁밀어내	-7822
▁그랑	-7823
▁실체	-7824
▁아수	-7825
▁1979	-7826
▁세자	-7827
▁쇄	-7828
운수	-7829
▁브라이언	-7830
▁머니	-7831
▁어원	-7832
▁엘레	-7833
▁카피	-7834
▁알렉스	-7835
▁카게	-7836
▁매그	-7837
▁압력	-7838
▁이스트	-7839
MAX	-7840
▁군부	-7841
▁자사	-7842
▁중위	-7843
스레	-7844
▁애완	-7845
▁변동	-7846
▁px	-7847
▁로맨	-7848
▁니트	-7849
▁ㄴ데다	-7850
▁춥	-7851
▁함락	-7852
▁부스	-7853
▁실내	-7854
▁리본	-7855
▁몸통	-7856
스티벌	-7857
▁페스티벌	-7858
▁토지	-7859
▁거지	-7860
ary	-7861
▁떨치	-7862
▁닷	-7863
▁대역	-7864
ero	-7865
나베	-7866
▁오렌	-7867
▁원숭이	-7868
▁물자	-7869
▁재학	-7870
▁하스	-7871
군가	-7872
▁광기	-7873
바야시	-7874
▁유비트	-7875
▁가이아	-7876
▁뻘	-7877
▁스나이퍼	-7878
▁sp	-7879
▁시골	-7880
▁종결	-7881
▁폭격기	-7882
▁다카	-7883
▁세리	-7884
▁운송	-7885
▁모형	-7886
▁템플	-7887
▁김준	-7888
▁ㅂ시오	-7889
▁헬멧	-7890
▁고가	-7891
▁나폴레	-7892
▁트랜스포	-7893
▁Cr	-7894
▁얄	-7895
▁Bo	-7896
▁아자	-7897
▁마하	-7898
▁이모	-7899
▁트레일러	-7900
▁신하	-7901
▁오더	-7902
바이트	-7903
▁사야카	-7904
▁쿠스	-7905
IVE	-7906
▁비비	-7907
▁올바르	-7908
▁크레이	-7909
▁예약	-7910
▁광경	-7911
▁이즈미	-7912
바지	-7913
▁삽질	-7914
▁전향	-7915
▁티스	-7916
▁라든가	-7917
▁납득	-7918
▁여섯	-7919
▁테스	-7920
▁계층	-7921
▁실시간	-7922
저래	-7923
▁그러므로	-7924
▁입주	-7925
▁퍽	-7926
▁어나	-7927
▁홀드	-7928
▁이래저래	-7929
▁금발	-7930
▁사수	-7931
ng	-7932
▁누군가	-7933
▁쿵	-7934
▁마미	-7935
▁나폴레옹	-7936
▁죄책	-7937
▁세로	-7938
▁스카우트	-7939
▁베를	-7940
▁압축	-7941
▁반역	-7942
레븐	-7943
▁출범	-7944
▁시사	-7945
▁입문	-7946
▁UEFA	-7947
▁잔혹	-7948
네시아	-7949
▁탐색	-7950
▁민폐	-7951
아들	-7952
▁습하	-7953
▁주관	-7954
▁오른손	-7955
▁RA	-7956
▁Vol	-7957
ife	-7958
▁지로	-7959
▁그립	-7960
▁ㅋ	-7961
▁부러지	-7962
▁학대	-7963
ich	-7964
▁항모	-7965
▁통솔	-7966
aster	-7967
▁펌프	-7968
▁콘텐츠	-7969
▁겜	-7970
▁고고	-7971
▁밀도	-7972
▁임의	-7973
끼리	-7974
▁128	-7975
▁플라스	-7976
른바	-7977
▁소금	-7978
▁깃발	-7979
▁대타	-7980
▁죄책감	-7981
▁영감	-7982
▁기질	-7983
▁반짝	-7984
▁쿠사	-7985
▁이른바	-7986
▁젬	-7987
▁Day	-7988
ree	-7989
▁부유	-7990
▁스크롤	-7991
▁김유	-7992
▁이소	-7993
▁기껏	-7994
▁표기법	-7995
▁군수	-7996
▁강경	-7997
▁무승부	-7998
ons	-7999
▁나요	-8000
▁드론	-8001
▁파도	-8002
▁황당	-8003
▁Ad	-8004
▁트리거	-8005
▁친척	-8006
▁캡슐	-8007
▁서적	-8008
▁수비수	-8009
▁감탄	-8010
무지	-8011
▁소생	-8012
▁초콜릿	-8013
▁커플링	-8014
▁en	-8015
▁젤리	-8016
▁고사	-8017
▁마산	-8018
▁엘리베이터	-8019
▁도덕	-8020
▁흑막	-8021
▁갈색	-8022
▁망토	-8023
▁부재	-8024
ans	-8025
▁큰	-8026
▁대행	-8027
▁챔프	-8028
▁파스	-8029
▁관장	-8030
▁신중	-8031
▁닉네임	-8032
▁직통	-8033
▁착륙	-8034
라미	-8035
▁기리	-8036
▁동아	-8037
▁위로	-8038
▁시시	-8039
▁실적	-8040
▁김진	-8041
▁매출	-8042
▁라이언	-8043
▁간판	-8044
▁호의	-8045
▁으라고	-8046
▁스파이더맨	-8047
리얼	-8048
부키	-8049
▁깨끗	-8050
▁강대	-8051
▁화기	-8052
▁그란	-8053
▁하사	-8054
▁일렉	-8055
▁승진	-8056
act	-8057
▁김일	-8058
▁수라	-8059
▁고아	-8060
▁엘리자베스	-8061
▁개척	-8062
▁입시	-8063
pl	-8064
▁GD	-8065
▁외국어	-8066
▁러쉬	-8067
▁프랜	-8068
▁알바	-8069
▁가령	-8070
러브	-8071
▁그쪽	-8072
▁힐러	-8073
▁스타즈	-8074
▁육상	-8075
▁예의	-8076
▁트랜스포머	-8077
▁아오이	-8078
▁서방	-8079
▁WC	-8080
▁들여	-8081
▁애용	-8082
▁아이디어	-8083
▁방학	-8084
▁에미	-8085
▁깊이	-8086
▁마피아	-8087
▁김치	-8088
렉터	-8089
▁공산당	-8090
▁퇴각	-8091
▁판도	-8092
▁쫒	-8093
▁케빈	-8094
▁카이저	-8095
▁선로	-8096
▁정문	-8097
▁페어	-8098
▁얽히	-8099
▁레아	-8100
▁리리	-8101
▁스가	-8102
▁챌린지	-8103
ase	-8104
▁목걸이	-8105
▁미궁	-8106
▁덩어리	-8107
▁죠죠	-8108
▁왕비	-8109
▁창문	-8110
▁츤데레	-8111
▁오다	-8112
▁매트	-8113
▁코토	-8114
▁끌어올리	-8115
▁성분	-8116
▁출혈	-8117
▁슬픔	-8118
▁지수	-8119
▁신작	-8120
▁짬	-8121
▁하도	-8122
▁극대	-8123
▁마케팅	-8124
▁부시	-8125
고속도로	-8126
▁탭	-8127
▁아리아	-8128
▁고시	-8129
▁시뮬	-8130
▁이오	-8131
12	-8132
▁감자	-8133
▁만점	-8134
▁발레	-8135
▁미녀	-8136
▁어나더	-8137
▁검증	-8138
ple	-8139
uk	-8140
▁AA	-8141
▁침몰	-8142
▁적절히	-8143
▁워터	-8144
▁존중	-8145
리드	-8146
ear	-8147
▁스타워즈	-8148
▁카리	-8149
▁필리핀	-8150
▁IIDX	-8151
슬라	-8152
▁리사	-8153
업자	-8154
▁앓	-8155
▁와이번	-8156
▁사로잡	-8157
▁가이드	-8158
▁찔	-8159
▁혼혈	-8160
▁오페라	-8161
▁가위	-8162
▁어이없	-8163
▁리퍼	-8164
▁샐	-8165
▁--	-8166
▁이병	-8167
ment	-8168
▁머스	-8169
▁사촌	-8170
▁제노	-8171
▁쉴드	-8172
어트	-8173
▁NBA	-8174
▁오락실	-8175
▁김수	-8176
▁자이언트	-8177
▁AV	-8178
▁츠카	-8179
ction	-8180
▁괴인	-8181
▁토대	-8182
지르	-8183
▁던지라	-8184
▁구상	-8185
▁리버풀	-8186
▁질서	-8187
▁비키	-8188
▁레이븐	-8189
▁드루	-8190
▁박자	-8191
▁변명	-8192
▁라이트닝	-8193
▁DM	-8194
▁천국	-8195
▁원로	-8196
▁쿠니	-8197
▁주축	-8198
▁치카	-8199
▁현자	-8200
▁뚱	-8201
▁매각	-8202
▁중거리	-8203
▁우마	-8204
▁크래프트	-8205
▁모음	-8206
▁고의	-8207
▁터트리	-8208
▁시타	-8209
▁소꿉	-8210
▁외곽	-8211
▁무제	-8212
▁왕실	-8213
▁구조물	-8214
90	-8215
▁마에	-8216
▁연수	-8217
▁최선	-8218
▁합작	-8219
▁우루	-8220
▁tv	-8221
▁노부나가	-8222
▁마기	-8223
좀무	-8224
▁로키	-8225
▁흠좀무	-8226
▁모임	-8227
▁만렙	-8228
▁총합	-8229
▁레이블	-8230
▁부사관	-8231
▁Part	-8232
▁아카네	-8233
▁여주인	-8234
사랑	-8235
▁감당	-8236
▁도심	-8237
▁박수	-8238
▁복사	-8239
▁우연	-8240
▁달려들	-8241
▁타이어	-8242
▁개명	-8243
▁매달리	-8244
▁라미	-8245
▁유머	-8246
▁편리	-8247
▁물려받	-8248
▁바쿠	-8249
▁호리	-8250
▁화폐	-8251
▁파울	-8252
▁다스리	-8253
▁찌질	-8254
▁유연	-8255
▁장애물	-8256
▁갑작스럽	-8257
▁공속	-8258
▁톡	-8259
ool	-8260
▁모델링	-8261
oon	-8262
▁도쿠	-8263
▁승인	-8264
▁초상	-8265
▁등극	-8266
▁오케	-8267
▁우측	-8268
▁일일	-8269
▁지분	-8270
▁해운	-8271
▁One	-8272
ode	-8273
▁적자	-8274
▁런처	-8275
▁면하	-8276
▁황후	-8277
▁잭슨	-8278
▁출동	-8279
▁글씨	-8280
▁실용	-8281
▁연구원	-8282
▁너스	-8283
▁노릇	-8284
▁명장	-8285
▁라인하르트	-8286
번트	-8287
▁자존심	-8288
▁at	-8289
▁사천	-8290
야스	-8291
▁카카오	-8292
▁220	-8293
▁전지	-8294
▁웨폰	-8295
▁표적	-8296
▁전날	-8297
헤이	-8298
▁포탈	-8299
▁103	-8300
▁스카웃	-8301
▁마야	-8302
▁보좌	-8303
▁교리	-8304
▁경찰서	-8305
▁직책	-8306
▁테이블	-8307
▁비리	-8308
▁175	-8309
▁재건	-8310
▁삼성전자	-8311
▁아사히	-8312
▁참사	-8313
▁각도	-8314
VER	-8315
▁천천	-8316
▁약혼	-8317
▁본능	-8318
▁선동	-8319
▁서번트	-8320
▁어시스트	-8321
▁체결	-8322
▁레코드	-8323
▁명대사	-8324
▁무녀	-8325
▁이카	-8326
▁타일	-8327
▁240	-8328
슬리	-8329
▁힘입	-8330
▁듀오	-8331
▁변수	-8332
▁오역	-8333
▁ES	-8334
▁물어	-8335
▁부천	-8336
▁워드	-8337
▁FF	-8338
▁마찰	-8339
▁모듈	-8340
▁전담	-8341
▁모순	-8342
▁뮌	-8343
▁다지	-8344
▁Ap	-8345
▁그릇	-8346
▁돌연	-8347
▁자력	-8348
▁중부	-8349
▁암호	-8350
▁1945	-8351
프리카	-8352
▁아마추어	-8353
▁가담	-8354
▁네티	-8355
▁사연	-8356
▁서식	-8357
▁아담	-8358
▁오토바이	-8359
▁무능	-8360
▁이무	-8361
▁흩어지	-8362
이동	-8363
▁기차	-8364
▁완공	-8365
▁아수라	-8366
▁LO	-8367
▁검정	-8368
▁보가	-8369
▁싱가	-8370
▁알아채	-8371
▁싱가포르	-8372
▁첸	-8373
▁점유	-8374
▁수천	-8375
▁평상시	-8376
▁민감	-8377
▁해소	-8378
▁서열	-8379
▁패자	-8380
▁씻	-8381
▁답답	-8382
IR	-8383
▁사법	-8384
라이언스	-8385
▁NH	-8386
▁신동	-8387
▁아드	-8388
▁모종	-8389
▁이단	-8390
▁얼라이언스	-8391
▁미남	-8392
▁리코	-8393
▁마일	-8394
▁아유	-8395
깨비	-8396
▁뺏기	-8397
▁벗기	-8398
▁확신	-8399
▁벅	-8400
▁Sw	-8401
▁베스	-8402
은색	-8403
▁유가	-8404
▁알레	-8405
려워하	-8406
친구	-8407
▁말기	-8408
▁해전	-8409
▁브라더스	-8410
▁대동	-8411
▁견해	-8412
▁사치	-8413
▁달인	-8414
▁흙	-8415
▁농업	-8416
▁요격	-8417
▁건지	-8418
▁마을버스	-8419
▁CM	-8420
▁몸매	-8421
▁철도역	-8422
▁보직	-8423
▁오공	-8424
▁선출	-8425
▁열정	-8426
▁함수	-8427
▁프로스트	-8428
▁본관	-8429
▁브래	-8430
▁리믹스	-8431
▁화상	-8432
▁천천히	-8433
▁일관	-8434
▁트로피	-8435
드러지	-8436
▁퇴치	-8437
▁타카하시	-8438
▁온천	-8439
▁천장	-8440
▁불러오	-8441
bs	-8442
▁꿈꾸	-8443
▁한꺼	-8444
▁한꺼번에	-8445
▁소우	-8446
▁사무실	-8447
▁테일즈	-8448
▁발판	-8449
▁비우	-8450
▁타우	-8451
▁그라운드	-8452
▁크로우	-8453
▁아르바이트	-8454
▁덮치	-8455
▁맹세	-8456
▁이경	-8457
▁입자	-8458
▁공신	-8459
▁남동생	-8460
▁파랗	-8461
▁오로치	-8462
▁nd	-8463
▁발명	-8464
▁평론	-8465
▁박정희	-8466
▁바둑	-8467
▁SA	-8468
▁소마	-8469
▁일체	-8470
▁전법	-8471
▁가히	-8472
▁레귤	-8473
▁테리	-8474
▁재수	-8475
▁로프	-8476
사와	-8477
▁레나	-8478
▁부속	-8479
▁보편	-8480
▁산타	-8481
▁어드밴	-8482
워프	-8483
▁트래	-8484
▁후쿠시마	-8485
▁너머	-8486
마루	-8487
▁툭	-8488
▁스트리	-8489
▁카테	-8490
▁테란	-8491
▁소나	-8492
▁리처드	-8493
▁자키	-8494
▁장벽	-8495
▁케리	-8496
▁헬리	-8497
▁라마	-8498
▁여야	-8499
▁단역	-8500
▁보로	-8501
▁112	-8502
▁이오리	-8503
▁오렌지	-8504
II	-8505
▁련	-8506
생활	-8507
리스타	-8508
▁휴먼	-8509
▁펭	-8510
▁상냥	-8511
▁정점	-8512
ike	-8513
▁억울	-8514
yle	-8515
orn	-8516
▁너클	-8517
▁아무렇	-8518
▁Man	-8519
atch	-8520
▁모스크	-8521
▁Up	-8522
▁바이올	-8523
▁기동력	-8524
▁샬	-8525
▁최상급	-8526
운동	-8527
▁세일러	-8528
직자	-8529
▁아레나	-8530
▁유격수	-8531
▁임하	-8532
▁천지	-8533
▁흉악	-8534
▁지혜	-8535
▁네티즌	-8536
ence	-8537
키스탄	-8538
▁로스트	-8539
▁시카고	-8540
▁둘러보	-8541
다운	-8542
▁에메	-8543
▁탄압	-8544
▁한하	-8545
▁메구미	-8546
▁마스코트	-8547
▁협정	-8548
▁서울대	-8549
▁에디션	-8550
▁극한	-8551
▁인접	-8552
▁일컫	-8553
▁필름	-8554
▁곤충	-8555
▁상무	-8556
▁베를린	-8557
키리	-8558
▁EC	-8559
▁서류	-8560
▁이순신	-8561
우라	-8562
▁용이	-8563
스크림	-8564
▁노아	-8565
▁휩쓸	-8566
▁피자	-8567
▁클리셰	-8568
▁혁신	-8569
▁소득	-8570
▁지장	-8571
▁퀵	-8572
▁미아	-8573
▁다시금	-8574
▁로크	-8575
▁입증	-8576
▁저글	-8577
▁인문	-8578
▁이나마	-8579
▁NO	-8580
▁솔저	-8581
▁작위	-8582
▁연동	-8583
▁국도	-8584
▁매주	-8585
▁시오	-8586
▁욕설	-8587
▁홋	-8588
▁우기	-8589
▁엉덩이	-8590
▁옥상	-8591
▁까마	-8592
▁면제	-8593
▁레이싱	-8594
▁인피니티	-8595
hen	-8596
▁겸하	-8597
▁상주	-8598
▁선박	-8599
▁일명	-8600
▁마틴	-8601
▁도르	-8602
▁계수	-8603
▁레귤러	-8604
▁회담	-8605
▁밀레	-8606
▁이영호	-8607
ens	-8608
▁손님	-8609
▁1978	-8610
▁떠돌	-8611
▁탈취	-8612
▁키요	-8613
▁루미	-8614
▁강민	-8615
타이	-8616
▁자아	-8617
▁장남	-8618
▁격려	-8619
▁들르	-8620
▁신한	-8621
▁사회주의	-8622
iver	-8623
now	-8624
▁와타나베	-8625
▁이빨	-8626
▁팬티	-8627
▁얼티	-8628
▁헝가리	-8629
ph	-8630
타운	-8631
▁Ed	-8632
▁GM	-8633
▁미노	-8634
▁수신	-8635
구니	-8636
▁페이크	-8637
니코	-8638
▁히카루	-8639
▁과시	-8640
▁백만	-8641
▁지터	-8642
▁트윗	-8643
▁페스	-8644
▁부패	-8645
▁아쿠아	-8646
▁정밀	-8647
▁기울이	-8648
▁청춘	-8649
박스	-8650
▁사나	-8651
▁공격수	-8652
▁섬광	-8653
▁뛰어들	-8654
▁드워프	-8655
▁USB	-8656
▁로라	-8657
▁선거구	-8658
▁녹이	-8659
▁크롬	-8660
▁얹	-8661
▁ㄴ듯	-8662
▁거든	-8663
▁아포	-8664
▁리가	-8665
▁재앙	-8666
▁일지	-8667
▁스티브	-8668
▁연설	-8669
▁트럼프	-8670
▁멘붕	-8671
▁일곱	-8672
▁장본	-8673
▁So	-8674
▁게끔	-8675
▁퍼펙트	-8676
▁프레스	-8677
▁과언	-8678
▁귀국	-8679
▁IT	-8680
▁저글링	-8681
▁사방	-8682
▁발사기	-8683
▁배구	-8684
▁시호	-8685
▁학사	-8686
▁파운드	-8687
▁점검	-8688
민주	-8689
▁스틱	-8690
▁갈구	-8691
▁궁합	-8692
pt	-8693
▁맛보	-8694
▁임진	-8695
▁쯔	-8696
▁미성	-8697
AP	-8698
▁절단	-8699
▁에드워드	-8700
ail	-8701
▁전송	-8702
▁Mag	-8703
▁석유	-8704
▁녹화	-8705
▁블럭	-8706
토니	-8707
▁머물	-8708
▁그레이드	-8709
▁펑크	-8710
▁오만	-8711
▁슬러그	-8712
▁소꿉친구	-8713
▁마당	-8714
케이션	-8715
▁이현	-8716
가루	-8717
▁공헌	-8718
ork	-8719
▁솟	-8720
체스터	-8721
▁박명	-8722
▁골프	-8723
▁돌려주	-8724
▁습니까	-8725
99	-8726
▁RE	-8727
▁이대로	-8728
▁얌	-8729
▁신곡	-8730
▁장본인	-8731
▁인명	-8732
ition	-8733
▁한정판	-8734
▁희생자	-8735
▁주사위	-8736
▁구로	-8737
▁야망	-8738
▁Super	-8739
▁충족	-8740
▁맞먹	-8741
▁테크닉	-8742
▁봉사	-8743
▁이니	-8744
▁학년도	-8745
▁노하	-8746
▁원한	-8747
디움	-8748
▁보우	-8749
▁오사	-8750
▁토큰	-8751
▁테니스	-8752
덕션	-8753
▁up	-8754
▁퀴즈	-8755
▁OCG	-8756
▁엔트리	-8757
▁치이	-8758
▁놔	-8759
▁자루	-8760
▁햇	-8761
▁억제	-8762
바람	-8763
스카	-8764
마리	-8765
▁리부	-8766
▁달아나	-8767
▁화신	-8768
▁시간대	-8769
▁스칼	-8770
▁무비	-8771
▁무식	-8772
▁풍선	-8773
▁위시	-8774
▁주최	-8775
▁Fr	-8776
▁Ph	-8777
▁히사	-8778
▁BD	-8779
▁루마	-8780
▁박성	-8781
▁환생	-8782
▁DJMAX	-8783
세지	-8784
▁유동	-8785
▁카오루	-8786
▁호무	-8787
▁네크로	-8788
틀리	-8789
▁당초	-8790
▁흥분	-8791
▁코레	-8792
▁제재	-8793
▁pl	-8794
▁도깨비	-8795
방송	-8796
▁대학생	-8797
▁마지	-8798
▁모의	-8799
▁자포	-8800
▁정성	-8801
▁카인	-8802
▁굶	-8803
▁라이즈	-8804
▁가설	-8805
▁스모	-8806
▁질주	-8807
▁광물	-8808
▁제리	-8809
▁편의점	-8810
▁킴	-8811
페이스	-8812
▁그러면	-8813
▁아리스	-8814
▁TP	-8815
▁에일리	-8816
▁김성근	-8817
▁벙커	-8818
▁찬양	-8819
▁프로그래	-8820
볼루션	-8821
▁신관	-8822
▁유즈	-8823
▁스윙	-8824
▁강전	-8825
▁라이센스	-8826
수리	-8827
▁과일	-8828
▁방심	-8829
▁치고	-8830
▁조화	-8831
▁중기	-8832
▁동성애	-8833
▁김승	-8834
▁비단	-8835
▁스콜	-8836
▁저상	-8837
▁목욕	-8838
inal	-8839
▁기술력	-8840
▁내기	-8841
▁씨앗	-8842
▁이이	-8843
▁보르	-8844
▁플레임	-8845
▁소재지	-8846
▁인벤	-8847
▁대검	-8848
▁이호	-8849
▁무실	-8850
AY	-8851
▁직행	-8852
▁대면	-8853
▁스타트	-8854
모습	-8855
서스	-8856
지능	-8857
▁두드러지	-8858
▁인공지능	-8859
▁경북	-8860
▁라오	-8861
▁123	-8862
▁일어	-8863
▁선회	-8864
▁갈기	-8865
▁리뉴	-8866
▁국토	-8867
▁옴	-8868
▁반도	-8869
▁계략	-8870
▁흘러가	-8871
▁평판	-8872
▁두껍	-8873
▁초록색	-8874
▁코끼리	-8875
▁급격히	-8876
▁발각	-8877
▁아랫	-8878
▁재질	-8879
▁국방부	-8880
▁시종	-8881
▁타키	-8882
usic	-8883
▁이리저리	-8884
▁캘리	-8885
▁달려오	-8886
▁게르	-8887
ble	-8888
▁야마모토	-8889
▁레버	-8890
▁지루	-8891
▁롤러	-8892
▁숙청	-8893
te	-8894
▁교대	-8895
▁제니	-8896
▁104	-8897
▁맷집	-8898
▁유아	-8899
▁뺨	-8900
▁병과	-8901
▁치바	-8902
▁스마일	-8903
▁일산	-8904
▁일러스트레이터	-8905
바리	-8906
사르	-8907
▁DPS	-8908
▁Qu	-8909
▁멧	-8910
▁덥	-8911
▁프롤	-8912
▁도미	-8913
▁중원	-8914
▁칼라	-8915
▁Dream	-8916
▁밀리언	-8917
▁쥰	-8918
▁프로덕션	-8919
▁고우	-8920
▁포크	-8921
▁리츠	-8922
▁문양	-8923
▁이윤	-8924
▁소소	-8925
▁으려면	-8926
▁나락	-8927
▁무자	-8928
▁1973	-8929
▁109	-8930
▁김두	-8931
▁are	-8932
▁대명	-8933
▁원화	-8934
▁스코틀랜드	-8935
▁완성도	-8936
▁일레븐	-8937
▁토마스	-8938
▁동이	-8939
그라	-8940
▁차림	-8941
전사	-8942
▁분홍	-8943
▁의의	-8944
▁카제	-8945
기에	-8946
▁진동	-8947
▁다지만	-8948
▁스타디움	-8949
▁히드라	-8950
▁흉내	-8951
▁수중	-8952
▁지오	-8953
▁도대	-8954
▁케이크	-8955
▁갸	-8956
▁세키	-8957
▁오타쿠	-8958
▁무신	-8959
▁강릉	-8960
▁거꾸	-8961
▁완화	-8962
▁제너	-8963
▁사이토	-8964
▁과격	-8965
▁총장	-8966
▁트러	-8967
▁동구	-8968
▁명시	-8969
▁이력	-8970
▁발전소	-8971
▁강인	-8972
▁샘플	-8973
▁여태	-8974
▁떨구	-8975
▁집계	-8976
▁135	-8977
▁레슬러	-8978
▁이쿠	-8979
▁중점	-8980
▁Mi	-8981
▁쥬얼	-8982
▁악행	-8983
▁에버	-8984
▁고인	-8985
▁상금	-8986
▁앤드	-8987
▁피오	-8988
▁여주인공	-8989
▁난리	-8990
▁공교	-8991
▁스토어	-8992
▁침착	-8993
▁바이크	-8994
▁관료	-8995
▁순천	-8996
▁자율	-8997
▁도배	-8998
▁155	-8999
▁때려잡	-9000
▁인도네시아	-9001
▁학위	-9002
▁여장	-9003
▁뚜렷	-9004
▁카토	-9005
▁사가	-9006
▁단련	-9007
▁라이드	-9008
▁무궁	-9009
▁젝	-9010
▁리볼	-9011
IK	-9012
▁갱신	-9013
▁하이드	-9014
▁무늬	-9015
▁두려워하	-9016
▁남한	-9017
▁짝사랑	-9018
▁다케	-9019
▁외야수	-9020
▁독보	-9021
▁배리	-9022
▁친애	-9023
▁반경	-9024
▁관문	-9025
▁항공사	-9026
▁중견	-9027
▁스탈린	-9028
▁찔리	-9029
▁걸어가	-9030
▁킹덤	-9031
테이션	-9032
▁내밀	-9033
▁뮌헨	-9034
히토	-9035
▁갯	-9036
▁몰아넣	-9037
▁각인	-9038
▁국정	-9039
▁조립	-9040
▁챔피언십	-9041
▁이듬	-9042
천사	-9043
anc	-9044
▁태권	-9045
▁불리우	-9046
▁완구	-9047
방울	-9048
의자	-9049
▁제의	-9050
▁ㄹ게	-9051
▁강타	-9052
▁체코	-9053
▁발키리	-9054
▁툰	-9055
▁모욕	-9056
▁해태	-9057
티니	-9058
▁공산주의	-9059
▁AB	-9060
▁휴게	-9061
▁맞히	-9062
▁이대	-9063
▁부끄럽	-9064
▁이틀	-9065
▁정전	-9066
▁사체	-9067
▁심히	-9068
▁부가	-9069
▁스페인어	-9070
▁뻔하	-9071
▁팍	-9072
▁반성	-9073
uck	-9074
의회	-9075
▁천상	-9076
▁교도소	-9077
▁휴대폰	-9078
▁켄지	-9079
TA	-9080
▁찰스	-9081
▁퓨전	-9082
▁방언	-9083
▁스로	-9084
▁185	-9085
▁연기력	-9086
▁손잡이	-9087
▁1200	-9088
▁놔두	-9089
▁스파크	-9090
▁도스	-9091
▁거꾸로	-9092
쿠스	-9093
▁아이즈	-9094
IL	-9095
못미	-9096
▁지못미	-9097
▁아타	-9098
▁내외	-9099
PER	-9100
▁명탐정	-9101
▁MM	-9102
▁울음	-9103
ise	-9104
▁섬기	-9105
▁go	-9106
▁지온	-9107
▁꾀	-9108
▁ㄷ	-9109
▁중구	-9110
▁신주	-9111
▁무작위	-9112
▁극심	-9113
▁보강	-9114
▁성지	-9115
▁AL	-9116
▁얼리	-9117
▁wiki	-9118
▁썸	-9119
▁교역	-9120
▁민국	-9121
▁유라	-9122
▁UP	-9123
▁바인	-9124
▁중소	-9125
▁1974	-9126
▁냉장	-9127
▁지크	-9128
▁도대체	-9129
무이	-9130
▁Ver	-9131
▁개판	-9132
▁하수인	-9133
텍스	-9134
▁HE	-9135
▁기관포	-9136
▁강동	-9137
▁돌려	-9138
▁세츠	-9139
▁시안	-9140
▁시네마	-9141
▁경사	-9142
▁릴리스	-9143
▁창세	-9144
스티스	-9145
▁살아오	-9146
▁뤼	-9147
▁기행	-9148
▁예고편	-9149
▁나이츠	-9150
▁포니	-9151
▁필사	-9152
▁iOS	-9153
▁간파	-9154
▁단자	-9155
▁초등학생	-9156
▁입사	-9157
▁이계	-9158
▁찬성	-9159
▁권하	-9160
▁부채	-9161
▁향후	-9162
▁부제	-9163
▁패왕	-9164
▁레슬링	-9165
▁DI	-9166
▁MG	-9167
▁심정	-9168
▁엉뚱	-9169
▁적이	-9170
▁tr	-9171
▁겨루	-9172
▁장갑차	-9173
▁도약	-9174
▁아폴	-9175
▁야마다	-9176
▁좌측	-9177
▁격렬	-9178
ung	-9179
리칸	-9180
▁JT	-9181
▁코노	-9182
▁유니콘	-9183
▁종전	-9184
▁버블	-9185
▁소통	-9186
▁사천왕	-9187
▁보스턴	-9188
▁주석	-9189
▁이듬해	-9190
▁망설	-9191
▁극악	-9192
에른	-9193
보기	-9194
▁그간	-9195
▁노무	-9196
▁장풍	-9197
▁분할	-9198
▁유능	-9199
▁깽	-9200
▁공격기	-9201
▁미유키	-9202
▁르노	-9203
백과	-9204
멘터리	-9205
▁성대	-9206
▁훼손	-9207
▁테이프	-9208
▁눈앞	-9209
▁은폐	-9210
▁깡패	-9211
▁배급	-9212
▁비참	-9213
▁마징	-9214
▁결과물	-9215
▁신생	-9216
▁마징가	-9217
느님	-9218
vel	-9219
▁가구	-9220
▁신학	-9221
▁CL	-9222
▁내각	-9223
파이	-9224
▁동아시아	-9225
oun	-9226
▁CR	-9227
▁폐선	-9228
▁노랗	-9229
▁채찍	-9230
▁서머	-9231
▁때로	-9232
▁하느님	-9233
▁빈약	-9234
▁주술	-9235
▁중공	-9236
▁충고	-9237
▁107	-9238
▁양대	-9239
▁반장	-9240
▁래퍼	-9241
▁유스	-9242
▁자산	-9243
▁벨기에	-9244
11	-9245
▁유메	-9246
▁일리	-9247
▁소비자	-9248
▁186	-9249
▁잼	-9250
▁대등	-9251
▁욕망	-9252
oo	-9253
▁재벌	-9254
▁으리	-9255
▁카사	-9256
▁BB	-9257
▁Team	-9258
▁불길	-9259
▁플리	-9260
사벽	-9261
에몽	-9262
▁넘사벽	-9263
▁as	-9264
▁헥	-9265
▁김병	-9266
▁중국인	-9267
▁왕족	-9268
▁정형	-9269
▁다큐멘터리	-9270
▁초과	-9271
▁할로	-9272
▁헤라	-9273
▁갈라지	-9274
▁인성	-9275
보우	-9276
은이	-9277
▁레시	-9278
▁119	-9279
▁와이번스	-9280
▁미판	-9281
▁지면	-9282
▁진짜로	-9283
▁리우스	-9284
르타	-9285
▁브레스	-9286
urn	-9287
▁이념	-9288
▁마라	-9289
way	-9290
▁눈동자	-9291
▁망명	-9292
▁산소	-9293
▁탐사	-9294
▁모기	-9295
▁엠블	-9296
▁후대	-9297
▁잎	-9298
▁바이에른	-9299
▁모던	-9300
▁인텔	-9301
▁스노우	-9302
▁홍진호	-9303
▁all	-9304
▁취재	-9305
▁원작자	-9306
과이	-9307
▁챔스	-9308
▁케리건	-9309
▁1975	-9310
▁나카무라	-9311
구역	-9312
▁파괴력	-9313
▁조국	-9314
▁Black	-9315
▁삼키	-9316
▁주유	-9317
▁필립	-9318
▁no	-9319
▁상부	-9320
▁얼티밋	-9321
진영	-9322
▁사지	-9323
▁주입	-9324
▁오퍼	-9325
▁주저	-9326
▁집사	-9327
▁신조	-9328
▁주머니	-9329
▁대피	-9330
▁헤일	-9331
▁일례	-9332
▁116	-9333
▁망상	-9334
▁냉동	-9335
▁용산	-9336
▁출고	-9337
0000	-9338
노스케	-9339
▁아울	-9340
세서리	-9341
▁숙련도	-9342
▁추후	-9343
▁쓸데없이	-9344
▁식스	-9345
▁나인	-9346
▁성사	-9347
▁LTE	-9348
▁이원	-9349
▁사나이	-9350
▁문재인	-9351
▁남학생	-9352
▁소령	-9353
gh	-9354
▁근로	-9355
▁협조	-9356
▁시범	-9357
▁청룡	-9358
▁버거	-9359
▁조던	-9360
▁긋	-9361
FL	-9362
▁델타	-9363
▁말년	-9364
▁수립	-9365
▁Col	-9366
중간	-9367
속기	-9368
▁메테	-9369
▁187	-9370
▁저항력	-9371
▁충격파	-9372
ale	-9373
▁주교	-9374
더링	-9375
▁쳐들어오	-9376
▁피난	-9377
▁유치원	-9378
▁어벤져	-9379
티어	-9380
▁병행	-9381
▁에코	-9382
▁math	-9383
▁구호	-9384
▁순정	-9385
▁욱	-9386
▁비자	-9387
▁재즈	-9388
▁욕심	-9389
▁고래	-9390
▁혼동	-9391
▁절정	-9392
▁do	-9393
▁통틀어	-9394
▁Night	-9395
▁독백	-9396
ject	-9397
시티	-9398
▁트러블	-9399
▁군데	-9400
▁종착	-9401
▁FPS	-9402
▁종로	-9403
▁금강	-9404
▁(	-9405
▁MO	-9406
▁대목	-9407
▁아처	-9408
▁입원	-9409
▁리볼버	-9410
▁절벽	-9411
▁직위	-9412
▁퇴역	-9413
▁동사	-9414
▁ERA	-9415
▁요코하마	-9416
▁HS	-9417
▁고립	-9418
ier	-9419
▁그루	-9420
▁경상북도	-9421
▁앨런	-9422
▁해고	-9423
▁도사	-9424
▁플라스틱	-9425
▁키드	-9426
▁투니	-9427
긋나	-9428
▁리플렉	-9429
▁저스티스	-9430
▁한양	-9431
▁두목	-9432
▁급속	-9433
▁서리	-9434
▁Type	-9435
▁중화민국	-9436
ult	-9437
▁연전	-9438
돌프	-9439
▁짤리	-9440
▁TS	-9441
▁쿠바	-9442
▁어기	-9443
▁중년	-9444
키스	-9445
▁마가	-9446
▁중심지	-9447
▁손목	-9448
▁~"	-9449
▁마작	-9450
▁병장	-9451
▁시어	-9452
▁게리온	-9453
▁not	-9454
▁고이	-9455
▁재배	-9456
메다	-9457
▁포도	-9458
▁750	-9459
▁렀	-9460
상가	-9461
▁니코니코	-9462
▁연간	-9463
▁질풍	-9464
▁ㅇ	-9465
▁동계	-9466
▁본질	-9467
▁왕가	-9468
▁말씀	-9469
▁아인	-9470
▁용암	-9471
▁영등	-9472
드립	-9473
▁쫓기	-9474
▁오른팔	-9475
▁방공	-9476
▁122	-9477
▁완벽히	-9478
▁저격수	-9479
▁적립	-9480
▁끌어내	-9481
들목	-9482
사스	-9483
▁투고	-9484
▁누스	-9485
▁나들목	-9486
▁Girl	-9487
▁퍼시	-9488
생기	-9489
▁불문	-9490
▁이만	-9491
▁113	-9492
▁진단	-9493
▁국기	-9494
▁격투기	-9495
▁잠기	-9496
▁지극	-9497
▁레인보우	-9498
니발	-9499
▁빙의	-9500
▁강탈	-9501
▁노블	-9502
▁섭취	-9503
슬링	-9504
▁트이	-9505
▁실로	-9506
▁헐크	-9507
▁초청	-9508
▁포착	-9509
▁까마귀	-9510
▁약칭	-9511
▁꼼수	-9512
DD	-9513
▁집필	-9514
▁사투리	-9515
▁미코토	-9516
▁이용자	-9517
▁카즈야	-9518
▁제자리	-9519
성이	-9520
▁평택	-9521
▁미식	-9522
▁일각	-9523
▁홋카이도	-9524
▁야전	-9525
▁인체	-9526
▁존슨	-9527
▁1977	-9528
▁전수	-9529
▁희대	-9530
▁유카리	-9531
▁스나	-9532
▁내역	-9533
다드	-9534
▁하후	-9535
▁탈환	-9536
▁공짜	-9537
ose	-9538
▁두루	-9539
▁옵티	-9540
▁불참	-9541
▁1976	-9542
▁사탄	-9543
▁합계	-9544
▁승패	-9545
▁Gam	-9546
▁beat	-9547
▁핑계	-9548
▁염두	-9549
▁감기	-9550
▁안젤	-9551
▁공명	-9552
▁450	-9553
▁베이비	-9554
▁대교	-9555
▁점심	-9556
▁144	-9557
▁누이	-9558
▁인플	-9559
▁정조	-9560
▁Con	-9561
▁퉁	-9562
▁4000	-9563
▁캇	-9564
▁MSL	-9565
▁교향	-9566
▁크롤	-9567
▁차장	-9568
▁한나라	-9569
마치	-9570
▁일조	-9571
▁민중	-9572
자치	-9573
▁훈훈	-9574
ox	-9575
▁악하	-9576
▁호구	-9577
▁오딘	-9578
▁미트	-9579
▁뮤지션	-9580
▁숭배	-9581
GA	-9582
▁능하	-9583
▁동상	-9584
▁한나라당	-9585
▁딥	-9586
▁히로시마	-9587
▁로렌	-9588
▁무실점	-9589
▁검토	-9590
네이터	-9591
▁팜	-9592
▁브레이브	-9593
▁Do	-9594
▁제발	-9595
▁행진	-9596
▁도마	-9597
▁토오	-9598
▁320	-9599
▁Max	-9600
▁제인	-9601
▁래스터	-9602
▁리터	-9603
▁무지개	-9604
able	-9605
▁도검	-9606
물리	-9607
▁쿠르	-9608
터스	-9609
▁리셋	-9610
▁이태	-9611
▁철갑탄	-9612
▁대인배	-9613
▁의정부	-9614
뮤직	-9615
▁더구나	-9616
▁위쪽	-9617
지않	-9618
▁벌써	-9619
▁ne	-9620
▁단총	-9621
▁사내	-9622
▁Op	-9623
▁꺼지	-9624
▁냉장고	-9625
▁경지	-9626
▁서치	-9627
▁키노	-9628
▁거세	-9629
▁동인지	-9630
▁부산광역시	-9631
▁격하	-9632
ron	-9633
▁하행	-9634
▁속편	-9635
▁배신자	-9636
very	-9637
▁김광	-9638
▁스치	-9639
▁세례	-9640
▁화약	-9641
▁립스	-9642
▁하지	-9643
▁EV	-9644
▁동호	-9645
▁사퇴	-9646
▁아랑	-9647
▁측근	-9648
▁처녀	-9649
ign	-9650
▁패미	-9651
▁145	-9652
▁152	-9653
▁각국	-9654
int	-9655
▁패트	-9656
▁기원전	-9657
▁OF	-9658
▁교차로	-9659
▁응급	-9660
▁계곡	-9661
PA	-9662
고사	-9663
▁토가	-9664
▁제주도	-9665
▁스톡	-9666
▁주식회사	-9667
▁평점	-9668
▁레이너	-9669
▁맹독	-9670
사고	-9671
▁텔레포트	-9672
▁원자력	-9673
▁상행	-9674
▁베이징	-9675
▁후쿠오카	-9676
▁월간	-9677
태자	-9678
▁건너가	-9679
▁조교	-9680
▁액체	-9681
▁사직	-9682
▁노라	-9683
▁삿	-9684
▁콰	-9685
▁BC	-9686
▁내뱉	-9687
박이	-9688
▁사물	-9689
▁수하	-9690
▁신세계	-9691
▁데미	-9692
▁일품	-9693
▁회관	-9694
▁총사	-9695
▁노골	-9696
▁사소	-9697
▁전도	-9698
▁참으로	-9699
▁청나라	-9700
큘라	-9701
▁자켓	-9702
EL	-9703
▁팰	-9704
▁타구	-9705
▁패닉	-9706
▁테러리	-9707
카미	-9708
▁수감	-9709
▁초필	-9710
▁솔직히	-9711
▁마초	-9712
▁도라에몽	-9713
▁춤추	-9714
▁황혼	-9715
▁밭	-9716
▁김전	-9717
▁사일	-9718
▁신칸	-9719
▁연이	-9720
▁1972	-9721
▁에일리언	-9722
▁남미	-9723
▁앞면	-9724
▁남양	-9725
미터	-9726
▁물약	-9727
당기	-9728
▁베어	-9729
▁생각나	-9730
퍼드	-9731
▁우지	-9732
▁아슬	-9733
▁태풍	-9734
▁토비	-9735
▁메디	-9736
▁페르시아	-9737
▁시조	-9738
▁토막	-9739
▁인사이드	-9740
▁두려움	-9741
▁파고	-9742
▁궤적	-9743
▁윤리	-9744
▁KTX	-9745
▁신칸센	-9746
▁브루스	-9747
▁아이디	-9748
▁랜서	-9749
▁투사	-9750
▁주파	-9751
▁금요일	-9752
▁콧	-9753
▁줄기	-9754
▁법사	-9755
▁정우	-9756
타니	-9757
▁초점	-9758
▁카일	-9759
▁시초	-9760
▁비꼬	-9761
▁고난	-9762
닐라	-9763
▁대변	-9764
▁설마	-9765
▁김구	-9766
▁피지컬	-9767
▁김전일	-9768
▁알렉산드	-9769
ild	-9770
▁210	-9771
▁저승	-9772
▁더미	-9773
▁객관	-9774
▁키미	-9775
▁부동산	-9776
▁일환	-9777
▁이점	-9778
▁김지	-9779
▁서태	-9780
▁관광객	-9781
▁태생	-9782
▁판권	-9783
15	-9784
▁BJ	-9785
▁박명수	-9786
▁감금	-9787
퀘어	-9788
▁연소	-9789
하여	-9790
▁음향	-9791
iel	-9792
▁PSP	-9793
▁장동	-9794
▁La	-9795
▁상의	-9796
▁해상도	-9797
▁격기	-9798
▁쟁이	-9799
▁맑	-9800
▁껍질	-9801
▁영화제	-9802
▁프랭크	-9803
▁볼드	-9804
▁사탕	-9805
▁Gre	-9806
▁보트	-9807
▁접수	-9808
▁파밍	-9809
▁명나라	-9810
▁{{{#	-9811
▁스바	-9812
▁다니엘	-9813
▁다기	-9814
▁사극	-9815
▁선원	-9816
▁탁월	-9817
▁Am	-9818
▁우두	-9819
▁안드로	-9820
▁바닷	-9821
랄드	-9822
▁스매	-9823
▁정준	-9824
▁프랜차	-9825
▁과금	-9826
▁등재	-9827
▁코즈	-9828
▁왕후	-9829
▁서울시	-9830
▁본의	-9831
▁텍사스	-9832
▁나레이션	-9833
▁슬램	-9834
▁히나타	-9835
▁알라	-9836
▁깨알	-9837
▁프랜차이즈	-9838
▁보복	-9839
▁캘리포	-9840
부인	-9841
▁타리	-9842
▁랜스	-9843
▁어퍼	-9844
▁라틴어	-9845
▁밀어붙이	-9846
▁약체	-9847
▁럭키	-9848
▁심야	-9849
▁리키	-9850
▁무색	-9851
▁타스	-9852
▁메이트	-9853
컨드	-9854
▁연금술사	-9855
▁핀란드	-9856
▁골치	-9857
▁환호	-9858
▁세컨드	-9859
▁맞물리	-9860
▁암컷	-9861
▁다이스케	-9862
▁아쉬움	-9863
▁시뮬레이션	-9864
▁에도	-9865
▁바이킹	-9866
▁안동	-9867
▁이별	-9868
▁전학	-9869
▁치마	-9870
▁디스플레이	-9871
▁아테나	-9872
▁공국	-9873
▁우미	-9874
▁BM	-9875
▁고질	-9876
▁에필	-9877
▁에필로그	-9878
ANC	-9879
▁스팅	-9880
▁사우스	-9881
▁발발	-9882
▁주한	-9883
▁주황	-9884
▁~!	-9885
차리	-9886
▁몰려오	-9887
▁무단	-9888
▁지미	-9889
▁배후	-9890
▁캘리포니아	-9891
▁중급	-9892
▁옵티머스	-9893
▁개그맨	-9894
▁보디	-9895
▁별칭	-9896
▁슬슬	-9897
▁목동	-9898
▁컬렉션	-9899
▁165	-9900
▁섹스	-9901
▁탄막	-9902
▁노무현	-9903
▁어린아이	-9904
▁시끄럽	-9905
▁능숙	-9906
▁잔류	-9907
▁점하	-9908
ae	-9909
▁장시	-9910
▁스택	-9911
▁무슬	-9912
▁혼인	-9913
▁강습	-9914
▁DR	-9915
▁GHz	-9916
▁브레인	-9917
▁마수	-9918
▁마의	-9919
▁Wii	-9920
▁저거	-9921
▁십자가	-9922
▁외관	-9923
▁팝픈	-9924
▁호응	-9925
▁강점기	-9926
▁팝픈뮤직	-9927
▁사슬	-9928
▁내면	-9929
▁카구라	-9930
▁월등	-9931
▁끝장	-9932
▁저러	-9933
▁점멸	-9934
▁조준경	-9935
▁타카시	-9936
▁노르웨이	-9937
▁방침	-9938
▁저자	-9939
▁청구	-9940
▁무수	-9941
▁유해	-9942
레이크	-9943
교사	-9944
메라	-9945
▁feat	-9946
▁카이토	-9947
▁편견	-9948
▁요우	-9949
▁가라앉	-9950
▁구청	-9951
▁달라	-9952
▁신상	-9953
▁진하	-9954
▁마켓	-9955
▁경제학	-9956
▁바론	-9957
▁라던가	-9958
▁술집	-9959
▁아메리칸	-9960
보라	-9961
▁CN	-9962
▁바나나	-9963
AND	-9964
▁무슬림	-9965
▁빗나가	-9966
▁반기	-9967
▁낯	-9968
▁고종	-9969
▁좌익	-9970
▁교정	-9971
▁나란히	-9972
▁UC	-9973
▁스토커	-9974
▁시흥	-9975
▁오리진	-9976
▁체격	-9977
▁풀려나	-9978
▁평론가	-9979
▁rd	-9980
▁직격	-9981
▁무사시	-9982
▁서바이벌	-9983
▁격퇴	-9984
▁음색	-9985
▁필두	-9986
소총	-9987
ANI	-9988
▁신념	-9989
▁전두	-9990
▁스네이크	-9991
마르	-9992
▁개미	-9993
▁1969	-9994
▁자작	-9995
▁평등	-9996
▁..?	-9997
티지	-9998
▁뚝	-9999
▁군요	-10000
▁반론	-10001
▁수컷	-10002
▁쫓아내	-10003
▁파우	-10004
▁토오루	-10005
▁네이션	-10006
▁컨디션	-10007
▁Time	-10008
aby	-10009
▁ㄴ단	-10010
▁중후	-10011
▁화석	-10012
나리	-10013
▁관절	-10014
▁선인	-10015
▁정서	-10016
▁가해	-10017
▁비로	-10018
▁드리블	-10019
▁순간이동	-10020
▁모어	-10021
▁질환	-10022
앙스	-10023
▁방울	-10024
▁투신	-10025
ull	-10026
▁댐	-10027
▁문법	-10028
빨리	-10029
▁본가	-10030
매니아	-10031
맥스	-10032
gin	-10033
▁협동	-10034
▁가혹	-10035
▁1971	-10036
▁계절	-10037
총장	-10038
▁로지	-10039
▁자부	-10040
▁드라큘라	-10041
ical	-10042
▁10000	-10043
▁냅	-10044
▁이방	-10045
▁인구수	-10046
▁궁수	-10047
..	-10048
STER	-10049
▁인트	-10050
▁단의	-10051
▁빈번	-10052
▁캔디	-10053
▁퓨처	-10054
▁모스크바	-10055
레일	-10056
▁}}	-10057
▁타치바나	-10058
▁최하	-10059
▁헤드샷	-10060
▁유코	-10061
▁두뇌	-10062
▁라비	-10063
▁GN	-10064
▁엣지	-10065
▁펭귄	-10066
▁천문	-10067
▁강아지	-10068
▁뉘앙스	-10069
▁응원가	-10070
▁from	-10071
▁MHz	-10072
베트	-10073
▁동등	-10074
▁반란군	-10075
▁알아차리	-10076
▁다녀	-10077
▁테레	-10078
▁마르코	-10079
▁주차장	-10080
▁늪	-10081
철수	-10082
콥터	-10083
▁관계없이	-10084
소수	-10085
▁양심	-10086
▁부관	-10087
▁테러리스트	-10088
▁멸종	-10089
▁후루	-10090
▁타당	-10091
▁빙결	-10092
▁아카리	-10093
▁종말	-10094
▁징계	-10095
▁덴마크	-10096
▁조수	-10097
▁미도리	-10098
▁레기	-10099
▁마신	-10100
▁오키나	-10101
▁김주	-10102
▁꼴찌	-10103
▁센트럴	-10104
▁일본식	-10105
▁주공	-10106
플렉스	-10107
▁신병	-10108
▁생태	-10109
▁차분	-10110
▁상장	-10111
oul	-10112
▁유고	-10113
▁굳히	-10114
▁KB	-10115
▁콘스탄	-10116
▁성숙	-10117
▁확고	-10118
▁스케줄	-10119
▁목포	-10120
▁카렌	-10121
▁BEM	-10122
▁말레이	-10123
▁어긋나	-10124
▁발차기	-10125
▁웨인	-10126
▁저기	-10127
▁에메랄드	-10128
공사	-10129
▁숙소	-10130
▁스파이크	-10131
▁수령	-10132
▁미모	-10133
▁분포	-10134
▁벚	-10135
▁멋있	-10136
▁서명	-10137
▁슬라이드	-10138
▁이어서	-10139
▁아르카	-10140
시다	-10141
▁상어	-10142
▁솜씨	-10143
▁프로토타입	-10144
▁정답	-10145
▁위키백과	-10146
▁복용	-10147
▁현황	-10148
▁제조사	-10149
바스	-10150
▁파문	-10151
▁DX	-10152
▁아마존	-10153
▁유유	-10154
레슬링	-10155
천군	-10156
▁흑마	-10157
▁Gu	-10158
▁타고	-10159
▁국산	-10160
▁몹시	-10161
▁모함	-10162
▁혼다	-10163
▁NEW	-10164
▁AFC	-10165
▁극우	-10166
▁가해자	-10167
▁대쉬	-10168
▁Gl	-10169
▁나사	-10170
▁폐허	-10171
▁갈아타	-10172
▁미숙	-10173
▁수여	-10174
▁ㅡ	-10175
▁구제	-10176
▁케로	-10177
▁하라	-10178
재기	-10179
▁숙주	-10180
▁프롤로그	-10181
▁맥락	-10182
▁유진	-10183
▁워낙에	-10184
▁JTBC	-10185
▁프로레슬링	-10186
▁노비	-10187
▁미끼	-10188
▁믿음	-10189
▁우투	-10190
▁샤아	-10191
▁HARD	-10192
▁레오나	-10193
▁샹	-10194
▁근성	-10195
▁영등포	-10196
▁수수료	-10197
▁보행	-10198
▁고음	-10199
▁리부트	-10200
▁마마	-10201
▁ATK	-10202
▁가의	-10203
▁스바루	-10204
▁네스	-10205
▁난민	-10206
▁메세지	-10207
▁Ro	-10208
tern	-10209
▁거니	-10210
TC	-10211
▁고발	-10212
▁로열	-10213
▁유마	-10214
▁new	-10215
▁싣	-10216
▁관직	-10217
▁하드웨어	-10218
▁궁전	-10219
▁패드	-10220
▁하와	-10221
▁헬리콥터	-10222
▁꿇	-10223
▁예방	-10224
▁합법	-10225
▁군림	-10226
▁단말	-10227
▁시가	-10228
▁응시	-10229
▁TCG	-10230
▁파손	-10231
▁별자리	-10232
▁카테고리	-10233
▁콕	-10234
▁매지	-10235
▁발톱	-10236
▁회계	-10237
▁EU	-10238
▁분배	-10239
▁기피	-10240
▁쑤	-10241
▁간호	-10242
▁에바	-10243
▁섬멸	-10244
▁드릴	-10245
▁외래	-10246
▁체형	-10247
▁파격	-10248
idth	-10249
▁모양새	-10250
▁샤워	-10251
▁에그	-10252
▁단서	-10253
▁도시락	-10254
▁실장	-10255
▁사르	-10256
▁선봉	-10257
gr	-10258
▁우편	-10259
▁집합	-10260
▁동체	-10261
▁Co	-10262
▁로컬	-10263
▁전염	-10264
▁그랜	-10265
▁cl	-10266
▁풍경	-10267
▁연의	-10268
▁피카츄	-10269
▁코지	-10270
시스코	-10271
▁밧	-10272
교통	-10273
▁기하	-10274
▁유신	-10275
▁이광	-10276
▁유방	-10277
▁오케스트라	-10278
플러스	-10279
▁생선	-10280
▁BEMANI	-10281
▁지붕	-10282
▁출제	-10283
▁기법	-10284
▁수성	-10285
레이트	-10286
▁러시아어	-10287
▁상대식	-10288
▁미스트	-10289
▁원장	-10290
▁천마	-10291
▁미즈키	-10292
▁깨우	-10293
▁브론	-10294
▁유선	-10295
▁유정	-10296
▁연고지	-10297
▁중도	-10298
▁할로윈	-10299
▁기함	-10300
▁직속	-10301
▁제사	-10302
▁Mr	-10303
▁소집	-10304
메어	-10305
▁IP	-10306
▁격침	-10307
▁부류	-10308
app	-10309
▁이세	-10310
▁환수	-10311
ough	-10312
▁랙	-10313
▁가창	-10314
▁농민	-10315
▁벨라	-10316
▁Ser	-10317
▁경상남도	-10318
13	-10319
▁조력	-10320
ERO	-10321
▁매기	-10322
▁일삼	-10323
▁제우스	-10324
▁캐스트	-10325
▁하이라이트	-10326
▁다저스	-10327
▁밀어주	-10328
▁뒤쪽	-10329
▁미사키	-10330
▁스트로	-10331
▁청사	-10332
▁장례식	-10333
▁UM	-10334
대교	-10335
글라스	-10336
▁IV	-10337
▁루루	-10338
▁한층	-10339
▁배송	-10340
▁오디오	-10341
▁CE	-10342
▁내뿜	-10343
▁인쇄	-10344
▁크라운	-10345
▁스쿼	-10346
▁액셀	-10347
▁성명	-10348
▁소노	-10349
▁져	-10350
eel	-10351
▁LE	-10352
▁후면	-10353
▁114	-10354
▁이인	-10355
▁컴백	-10356
▁나이트메어	-10357
쳐나	-10358
현우	-10359
▁Sk	-10360
▁대니	-10361
▁개교	-10362
▁캐슬	-10363
처럼	-10364
▁통수	-10365
▁수시로	-10366
▁ㅔ	-10367
▁거품	-10368
▁불쾌	-10369
▁노래방	-10370
▁오쿠	-10371
▁파이프	-10372
▁쓰러트리	-10373
▁ㄴ다던가	-10374
통수	-10375
▁창립	-10376
▁앞뒤	-10377
▁성비	-10378
▁가미	-10379
▁걸음	-10380
▁박쥐	-10381
▁츠바사	-10382
▁안토니	-10383
▁부사	-10384
▁자각	-10385
▁주의자	-10386
▁can	-10387
▁이에	-10388
▁키사	-10389
▁상쇄	-10390
▁width	-10391
▁NT	-10392
▁레바	-10393
▁차용	-10394
▁제작비	-10395
퍼니	-10396
▁하이브리	-10397
▁명곡	-10398
▁AF	-10399
▁Heart	-10400
▁방호	-10401
▁하이브리드	-10402
활약	-10403
▁추모	-10404
▁길거리	-10405
지오	-10406
▁전례	-10407
와라	-10408
▁불화	-10409
▁오바	-10410
▁히데요시	-10411
▁드로	-10412
▁무선	-10413
▁츠나	-10414
▁해변	-10415
드로	-10416
▁오비	-10417
▁지배자	-10418
▁난감	-10419
▁Dark	-10420
▁결의	-10421
▁라드	-10422
▁사각	-10423
▁응답	-10424
▁카이사르	-10425
▁버릇	-10426
me	-10427
▁뒷면	-10428
▁Car	-10429
▁땀	-10430
▁그제	-10431
전트	-10432
▁섹시	-10433
▁상시	-10434
▁홈즈	-10435
▁Sch	-10436
▁되살리	-10437
ll	-10438
▁페인	-10439
▁아비	-10440
소문	-10441
▁가브리	-10442
▁말아먹	-10443
저것	-10444
▁레이트	-10445
▁이것저것	-10446
▁브릿	-10447
▁낙선	-10448
▁발하	-10449
▁ㅓㅆ었	-10450
▁하의	-10451
▁보루	-10452
▁리프트	-10453
▁하여금	-10454
▁조항	-10455
▁괴상	-10456
지사	-10457
▁투성이	-10458
▁명명	-10459
박히	-10460
▁보고서	-10461
▁중학생	-10462
▁블랙홀	-10463
▁손톱	-10464
▁UFC	-10465
▁김두한	-10466
▁코요	-10467
줌마	-10468
▁윈터	-10469
▁PK	-10470
▁로브	-10471
▁부친	-10472
▁패스트	-10473
ye	-10474
▁연세대	-10475
▁가마	-10476
▁깃털	-10477
▁로저	-10478
▁원망	-10479
▁연회	-10480
▁악령	-10481
▁이노우	-10482
▁아줌마	-10483
▁교관	-10484
▁타다	-10485
쌔신	-10486
▁벌금	-10487
▁슈터	-10488
▁어쌔신	-10489
▁아이작	-10490
ution	-10491
▁원흉	-10492
▁내구력	-10493
츠카	-10494
▁노트북	-10495
▁공존	-10496
▁꾸리	-10497
▁타고나	-10498
▁클라우드	-10499
▁제이슨	-10500
▁수다	-10501
▁기이	-10502
무게	-10503
▁Em	-10504
▁몸무게	-10505
▁폴리스	-10506
▁지성	-10507
▁튜닝	-10508
▁천주교	-10509
▁혹평	-10510
▁줄줄	-10511
바시	-10512
▁성역	-10513
▁망설이	-10514
▁Is	-10515
▁발탁	-10516
▁콜로니	-10517
▁홈경기	-10518
저드	-10519
▁미호	-10520
▁}}}	-10521
▁배리어	-10522
▁간선	-10523
▁더라면	-10524
공화	-10525
▁민병	-10526
▁가로막	-10527
▁지각	-10528
▁김대중	-10529
자재	-10530
▁강세	-10531
ee	-10532
▁커먼	-10533
▁1968	-10534
▁산탄총	-10535
▁뚜껑	-10536
▁십자군	-10537
풀이	-10538
▁BT	-10539
▁강서	-10540
▁심화	-10541
▁프로리그	-10542
▁Bat	-10543
▁키무라	-10544
보그	-10545
▁일일이	-10546
▁랏	-10547
▁문신	-10548
▁뒤통수	-10549
oh	-10550
▁표하	-10551
▁라구	-10552
▁this	-10553
▁전광	-10554
▁마모루	-10555
▁포대	-10556
▁네코	-10557
▁로비	-10558
▁여배우	-10559
▁교양	-10560
▁깽판	-10561
▁북아	-10562
▁배우자	-10563
▁괴력	-10564
▁무너	-10565
▁무너뜨리	-10566
▁시에	-10567
▁발현	-10568
▁비타	-10569
▁동북	-10570
▁상공	-10571
▁적성	-10572
▁플레어	-10573
▁면접	-10574
▁틀어	-10575
ings	-10576
▁듀크	-10577
▁라프	-10578
▁열악	-10579
▁한강	-10580
▁아이폰	-10581
▁자주포	-10582
▁꽁	-10583
듈럼	-10584
▁사범	-10585
▁선포	-10586
▁SL	-10587
▁리자	-10588
▁미들	-10589
▁시궁	-10590
▁캐리어	-10591
▁주가	-10592
▁발렌타인	-10593
▁센티	-10594
▁끓이	-10595
▁공영	-10596
▁니나	-10597
▁테오	-10598
▁폭로	-10599
▁초상화	-10600
▁코타로	-10601
▁방화	-10602
▁무림	-10603
▁하우	-10604
▁핸들	-10605
reak	-10606
▁달라붙	-10607
▁행방불명	-10608
▁컴퍼니	-10609
▁증발	-10610
▁감성	-10611
▁자위대	-10612
어쓰	-10613
▁재활	-10614
▁저것	-10615
▁우가	-10616
▁라임	-10617
▁오시	-10618
▁시스터	-10619
▁오프라인	-10620
▁외면	-10621
▁포맷	-10622
▁빅토리아	-10623
▁보잉	-10624
▁암울	-10625
▁연달	-10626
▁처절	-10627
▁프랑켄	-10628
▁남발	-10629
▁퍼붓	-10630
▁저서	-10631
▁전두환	-10632
▁교통사고	-10633
▁코바야시	-10634
▁미세	-10635
▁달래	-10636
▁펜듈럼	-10637
▁고토	-10638
▁유난	-10639
▁실력자	-10640
▁전라남도	-10641
▁테루	-10642
▁김일성	-10643
▁뱉	-10644
단지	-10645
▁TO	-10646
▁둥지	-10647
▁애쓰	-10648
▁타케시	-10649
▁기합	-10650
▁EBS	-10651
▁우두머리	-10652
▁저조	-10653
▁당나라	-10654
▁직결	-10655
▁ㄹ려고	-10656
▁ㄹ지라도	-10657
▁꿰뚫	-10658
▁총독	-10659
▁친목	-10660
▁허브	-10661
두사	-10662
▁요리사	-10663
▁야만	-10664
▁맨체스터	-10665
▁Su	-10666
▁시코	-10667
▁맹활약	-10668
▁이행	-10669
▁캡콤	-10670
▁성직자	-10671
▁연막	-10672
▁계란	-10673
▁로맨스	-10674
▁슬라임	-10675
▁오키나와	-10676
▁대외	-10677
▁안무	-10678
▁침해	-10679
▁그랑프리	-10680
icro	-10681
▁나열	-10682
▁회로	-10683
▁문고	-10684
▁도타	-10685
▁따라잡	-10686
ict	-10687
▁스텔라	-10688
니클	-10689
▁앵커	-10690
▁~~	-10691
▁환사	-10692
CH	-10693
▁랜턴	-10694
노기	-10695
▁개개	-10696
▁느니	-10697
▁짤방	-10698
▁203	-10699
▁넉넉	-10700
▁무협	-10701
▁변호	-10702
▁자칫	-10703
▁다녀오	-10704
▁부처	-10705
▁애국	-10706
▁Light	-10707
▁운석	-10708
▁수영복	-10709
장난	-10710
▁박치기	-10711
▁접어들	-10712
▁둥글	-10713
▁개막전	-10714
▁이치고	-10715
▁북두	-10716
▁찰나	-10717
▁쫄	-10718
▁직역	-10719
▁죄수	-10720
▁험하	-10721
▁사이보그	-10722
▁어미	-10723
▁볶	-10724
▁요시노	-10725
▁요시다	-10726
▁듀스	-10727
▁물가	-10728
▁냉전	-10729
▁힌트	-10730
▁공고	-10731
▁ver	-10732
▁푼	-10733
▁레즈	-10734
▁쳐다보	-10735
▁Kore	-10736
▁야쿠자	-10737
▁착지	-10738
▁LED	-10739
▁구절	-10740
▁신수	-10741
▁샤프	-10742
ors	-10743
▁사료	-10744
▁Im	-10745
▁고속버스	-10746
▁제지	-10747
▁파랑	-10748
▁코디	-10749
▁단식	-10750
▁주되	-10751
▁117	-10752
▁진정하	-10753
▁GTA	-10754
▁럴	-10755
셉트	-10756
▁찢어지	-10757
▁뭔	-10758
▁그리하여	-10759
▁대법	-10760
▁잔해	-10761
▁줄어드	-10762
▁범하	-10763
▁적재	-10764
▁므	-10765
무네	-10766
▁켄이치	-10767
▁뉴질	-10768
▁뉴질랜드	-10769
레드	-10770
▁ADV	-10771
▁마사키	-10772
▁대안	-10773
mania	-10774
▁배속	-10775
▁수용소	-10776
▁Sy	-10777
▁빈틈	-10778
▁우습	-10779
▁만행	-10780
▁롤링	-10781
▁지극히	-10782
▁괴리	-10783
▁실바	-10784
▁케이지	-10785
▁성수	-10786
▁127	-10787
▁혼합	-10788
▁어드밴스	-10789
▁땅볼	-10790
▁유타	-10791
▁몰아붙이	-10792
▁BO	-10793
▁번갈	-10794
▁이사장	-10795
스트림	-10796
▁여관	-10797
▁도요	-10798
▁청하	-10799
▁확립	-10800
▁184	-10801
▁AE	-10802
▁깃들	-10803
▁영미	-10804
오스	-10805
▁기쁨	-10806
▁동족	-10807
▁Ev	-10808
▁비로소	-10809
▁라파	-10810
▁담임	-10811
▁먼지	-10812
▁126	-10813
▁고조	-10814
치아	-10815
▁이성계	-10816
▁그려	-10817
▁좌파	-10818
▁앤디	-10819
▁추적자	-10820
▁공모	-10821
▁어벤져스	-10822
일라	-10823
▁금고	-10824
민주당	-10825
토랑	-10826
▁셸	-10827
▁간호사	-10828
▁장신구	-10829
▁온몸	-10830
▁진로	-10831
▁레스토랑	-10832
▁아이스크림	-10833
▁메모	-10834
▁pro	-10835
▁줌	-10836
▁고든	-10837
▁스퀘어	-10838
ACK	-10839
▁군복	-10840
▁왓	-10841
▁호쿠	-10842
▁수확	-10843
▁타나카	-10844
▁신이치	-10845
▁우상	-10846
▁드레드	-10847
▁저렇게	-10848
모어	-10849
▁특훈	-10850
▁자격증	-10851
▁사쿠라이	-10852
▁야마구치	-10853
▁김윤	-10854
▁유무	-10855
더슨	-10856
▁정체불명	-10857
▁속력	-10858
▁블라디	-10859
▁병종	-10860
▁하반기	-10861
디스	-10862
▁해역	-10863
주의자	-10864
▁플래닛	-10865
▁라지만	-10866
▁자회사	-10867
14	-10868
▁라나	-10869
▁실루	-10870
▁니카	-10871
▁크리스토	-10872
▁불평	-10873
▁가나	-10874
▁유토	-10875
▁팩션	-10876
▁중전차	-10877
ics	-10878
▁무진	-10879
▁사스케	-10880
▁시부	-10881
▁쪼개	-10882
야샤	-10883
▁이누야샤	-10884
▁설탕	-10885
▁설화	-10886
▁실정	-10887
▁max	-10888
▁ar	-10889
▁준하	-10890
▁DNA	-10891
▁가브리엘	-10892
▁테르	-10893
▁퓨리	-10894
▁통보	-10895
▁중앙선	-10896
▁휴게소	-10897
무기	-10898
▁실업	-10899
▁과감	-10900
▁183	-10901
▁광전사	-10902
▁will	-10903
▁성기	-10904
▁화소	-10905
▁이준	-10906
▁인어	-10907
▁기괴	-10908
▁호프	-10909
▁대대로	-10910
▁지주	-10911
▁심상	-10912
▁중재	-10913
▁트레이닝	-10914
▁공손	-10915
▁책상	-10916
▁GPU	-10917
▁김연	-10918
▁당국	-10919
▁잊어버리	-10920
니카	-10921
▁버터	-10922
▁텀	-10923
▁엄폐	-10924
▁178	-10925
▁미수	-10926
▁스크래	-10927
요환	-10928
▁못지않	-10929
▁몰아내	-10930
▁아이유	-10931
▁스쿼드	-10932
▁동년	-10933
▁상용	-10934
▁연말	-10935
▁명작	-10936
▁영화판	-10937
넘기	-10938
휴일	-10939
▁급기	-10940
▁As	-10941
▁내셔널	-10942
▁1967	-10943
▁리쿠	-10944
▁클레이	-10945
코어	-10946
▁슈가	-10947
▁순찰	-10948
▁오덕	-10949
▁시가지	-10950
▁섀도	-10951
▁어설프	-10952
▁프린스	-10953
산동	-10954
▁농락	-10955
▁아몬	-10956
▁접점	-10957
▁여수	-10958
소년	-10959
▁리바	-10960
▁HG	-10961
▁루터	-10962
▁사교	-10963
▁사망자	-10964
▁창세기	-10965
▁데스티니	-10966
▁운반	-10967
▁임요환	-10968
af	-10969
▁나고	-10970
▁쾌속	-10971
▁태조	-10972
▁마비노기	-10973
▁단속	-10974
▁샤크	-10975
▁후타	-10976
▁사모	-10977
▁거르	-10978
▁Let	-10979
▁물리학	-10980
▁마장	-10981
ex	-10982
▁무궁화	-10983
▁로코	-10984
▁세미	-10985
▁토트	-10986
▁포트리스	-10987
▁농사	-10988
▁무명	-10989
▁베이더	-10990
▁넵	-10991
▁골목	-10992
▁샤를	-10993
▁호스	-10994
▁WH	-10995
ammer	-10996
즈마	-10997
▁Of	-10998
▁예비군	-10999
퇴근	-11000
▁us	-11001
▁대중교통	-11002
▁수량	-11003
▁오의	-11004
▁더욱이	-11005
▁하시	-11006
르도	-11007
▁내정	-11008
▁코이치	-11009
요이	-11010
▁Red	-11011
▁해치우	-11012
▁바티	-11013
▁쫓아가	-11014
▁쎄	-11015
트랙	-11016
▁제프	-11017
▁진수	-11018
▁게임기	-11019
▁자니	-11020
▁Your	-11021
▁빠뜨리	-11022
▁182	-11023
▁괴담	-11024
▁매스	-11025
▁총선거	-11026
▁출루율	-11027
▁신주쿠	-11028
▁자판	-11029
▁호로	-11030
▁농협	-11031
▁황실	-11032
▁사이퍼	-11033
IGH	-11034
▁부평	-11035
▁냉기	-11036
▁슬퍼	-11037
로프	-11038
커녕	-11039
▁오세	-11040
▁시엘	-11041
▁브라더	-11042
▁른	-11043
▁카우	-11044
▁단과	-11045
▁MX	-11046
▁우체	-11047
▁인터페이스	-11048
아슬	-11049
▁레시피	-11050
▁아슬아슬	-11051
▁법무	-11052
▁키즈	-11053
▁하비	-11054
▁으리라	-11055
▁페이트	-11056
▁계열사	-11057
▁박종	-11058
크리	-11059
▁습관	-11060
▁타국	-11061
▁168	-11062
▁고속도	-11063
▁스크래치	-11064
▁사출	-11065
▁세세	-11066
▁Rock	-11067
▁출중	-11068
▁시궁창	-11069
▁FW	-11070
규모	-11071
▁이선	-11072
▁거스르	-11073
▁제스	-11074
▁혹사	-11075
▁열등	-11076
▁타니	-11077
▁찰리	-11078
▁배기	-11079
▁주고	-11080
애나	-11081
▁..!	-11082
▁끼어들	-11083
▁1963	-11084
▁후일담	-11085
▁LIVE	-11086
ica	-11087
▁신임	-11088
▁유난히	-11089
▁Tw	-11090
▁셋째	-11091
▁플루	-11092
che	-11093
▁전임	-11094
▁커트	-11095
other	-11096
▁밈	-11097
테이	-11098
▁부흥	-11099
▁리턴	-11100
▁망가	-11101
▁성형	-11102
▁페가	-11103
▁통행	-11104
▁공휴일	-11105
ody	-11106
▁한도	-11107
고래	-11108
▁진리	-11109
▁피드	-11110
▁유니온	-11111
▁낡	-11112
▁고성	-11113
쿠로	-11114
▁관동	-11115
▁서해	-11116
▁브랜	-11117
▁애쉬	-11118
▁코프	-11119
▁330	-11120
▁염색	-11121
▁수식	-11122
▁해적단	-11123
▁통증	-11124
▁졸개	-11125
▁달콤	-11126
▁용의자	-11127
▁빼내	-11128
▁본디	-11129
▁키바	-11130
▁이노우에	-11131
LS	-11132
변이	-11133
▁나뭇	-11134
▁징징	-11135
▁쓸어버리	-11136
▁막부	-11137
▁시련	-11138
▁이질	-11139
▁하야토	-11140
▁돌연변이	-11141
▁클레어	-11142
▁경찰청	-11143
▁핸드폰	-11144
▁추출	-11145
▁Don	-11146
▁키트	-11147
▁통신사	-11148
▁오인	-11149
16	-11150
▁카노	-11151
▁선수단	-11152
▁복싱	-11153
▁코다	-11154
▁이명박	-11155
▁조폭	-11156
▁클러	-11157
▁파수	-11158
▁Min	-11159
▁탄탄	-11160
▁하세	-11161
▁륙	-11162
현진	-11163
▁러너	-11164
▁멀쩡히	-11165
▁가르침	-11166
▁듀티	-11167
▁불로	-11168
▁신대	-11169
▁정립	-11170
oth	-11171
▁지요	-11172
▁Sun	-11173
▁이라든가	-11174
▁학점	-11175
▁감행	-11176
▁분장	-11177
▁앞세우	-11178
▁공습	-11179
▁단테	-11180
▁미하	-11181
▁소설가	-11182
▁아즈사	-11183
▁카오리	-11184
▁모범	-11185
▁메우	-11186
▁블래	-11187
▁치사	-11188
▁고릴라	-11189
자동	-11190
▁군기	-11191
▁자질	-11192
▁정교회	-11193
상가상	-11194
▁라바	-11195
▁설상가상	-11196
▁그려지	-11197
▁스캔들	-11198
▁푹	-11199
ins	-11200
▁독립운동	-11201
▁have	-11202
정역	-11203
▁MK	-11204
▁결사	-11205
▁귀하	-11206
▁방안	-11207
▁쿠루	-11208
▁접근성	-11209
▁2500	-11210
▁든가	-11211
▁야심	-11212
▁단정	-11213
▁장편	-11214
▁애당초	-11215
더기	-11216
▁고폭탄	-11217
▁줄리	-11218
▁코나미	-11219
▁슬퍼하	-11220
투표	-11221
▁ㅏ야	-11222
▁가급	-11223
▁근력	-11224
▁클라이	-11225
▁좌석버스	-11226
▁함포	-11227
▁재빨리	-11228
미르	-11229
▁구타	-11230
▁진구	-11231
▁필터	-11232
▁브라우	-11233
▁퐁	-11234
▁도호	-11235
▁SCP	-11236
▁극소수	-11237
▁제대	-11238
▁출연진	-11239
▁따내	-11240
▁탐구	-11241
레인저	-11242
▁대국	-11243
▁정명	-11244
▁TOP	-11245
▁동탁	-11246
▁물어보	-11247
▁매너	-11248
티콘	-11249
▁OB	-11250
▁카무이	-11251
▁형편없	-11252
▁162	-11253
▁임관	-11254
▁연예계	-11255
▁제다이	-11256
▁자유자재	-11257
스틴	-11258
▁진도	-11259
▁인맥	-11260
▁한발	-11261
▁UF	-11262
▁살상	-11263
프라	-11264
▁리전	-11265
▁애프	-11266
▁야시	-11267
▁다던가	-11268
▁후예	-11269
▁전속	-11270
▁뽐	-11271
카즈	-11272
▁미티	-11273
▁월급	-11274
▁라거나	-11275
▁승려	-11276
▁BAS	-11277
▁미성년	-11278
▁통용	-11279
▁호출	-11280
▁Rev	-11281
▁브이	-11282
▁석상	-11283
▁대명사	-11284
▁패기	-11285
▁미스터리	-11286
▁박탈	-11287
▁악곡	-11288
▁세일	-11289
▁소매	-11290
▁하타	-11291
▁태자	-11292
▁트렌	-11293
기어	-11294
▁장학	-11295
▁샤오	-11296
평가	-11297
▁어그	-11298
▁판사	-11299
▁멀리서	-11300
▁마이어	-11301
▁누명	-11302
▁애시	-11303
▁성폭	-11304
▁에로게	-11305
▁더하	-11306
▁연발	-11307
▁증권	-11308
▁호박	-11309
▁트로이	-11310
케인	-11311
▁셰프	-11312
▁158	-11313
agon	-11314
▁실루엣	-11315
▁어인	-11316
▁Per	-11317
▁딱딱	-11318
▁장병	-11319
▁1944	-11320
▁넓히	-11321
▁베인	-11322
▁삼촌	-11323
재판	-11324
▁닉스	-11325
▁연방군	-11326
▁교내	-11327
▁Sum	-11328
▁STER	-11329
▁열세	-11330
▁월요일	-11331
GB	-11332
▁루키	-11333
▁부도	-11334
▁수강	-11335
▁카가미	-11336
▁이례	-11337
▁출퇴근	-11338
▁프로모	-11339
▁후문	-11340
17	-11341
▁격전	-11342
▁책정	-11343
▁파벌	-11344
▁바닐라	-11345
▁토이	-11346
▁사우루스	-11347
▁노기	-11348
▁시몬	-11349
▁비즈	-11350
▁서킷	-11351
▁일절	-11352
▁TEC	-11353
▁사에	-11354
▁신흥	-11355
▁Gen	-11356
▁하지메	-11357
▁am	-11358
▁바주	-11359
▁반군	-11360
▁태종	-11361
▁특촬	-11362
▁동래	-11363
토시	-11364
▁선우	-11365
▁세탁	-11366
테리	-11367
▁게임즈	-11368
▁볼텍스	-11369
▁Sl	-11370
▁벡터	-11371
▁샴	-11372
ECT	-11373
▁충남	-11374
▁beatmania	-11375
▁우파	-11376
▁숏	-11377
티노	-11378
▁저리	-11379
▁디렉터	-11380
▁마이트	-11381
ater	-11382
▁경연	-11383
▁전열	-11384
▁one	-11385
▁레지스	-11386
▁1966	-11387
▁ㄴ가요	-11388
기지	-11389
▁유대인	-11390
▁대군	-11391
패스	-11392
▁하워드	-11393
▁소규모	-11394
▁이치로	-11395
▁발칸	-11396
▁복음	-11397
▁홍성	-11398
▁독수리	-11399
▁DO	-11400
▁OK	-11401
▁ㄴ들	-11402
▁받치	-11403
▁뢰	-11404
▁가토	-11405
▁단골	-11406
▁동봉	-11407
▁갈리아	-11408
▁고어	-11409
▁구마	-11410
▁자처	-11411
▁태극	-11412
▁세스	-11413
▁한몫	-11414
▁꽂히	-11415
▁ㄹ라	-11416
▁부럽	-11417
▁커비	-11418
▁분기점	-11419
▁ㄹ래	-11420
▁성벽	-11421
▁당주	-11422
▁소사	-11423
▁재고	-11424
▁전세	-11425
▁레이터	-11426
▁신정	-11427
▁사사키	-11428
▁입양	-11429
▁징크스	-11430
▁리엘	-11431
▁얼터	-11432
ium	-11433
▁절규	-11434
클린	-11435
심장	-11436
▁음주	-11437
▁도쿠가와	-11438
▁따라다니	-11439
▁자카	-11440
려보	-11441
기사	-11442
▁필연	-11443
그룹	-11444
▁love	-11445
▁토네	-11446
▁대공포	-11447
▁입국	-11448
▁질량	-11449
▁132	-11450
▁카를로스	-11451
▁벚꽃	-11452
ions	-11453
▁발악	-11454
DS	-11455
▁패미컴	-11456
▁영동	-11457
▁출근	-11458
▁그리스도	-11459
▁빅뱅	-11460
▁네놈	-11461
▁뜯어	-11462
▁탄소	-11463
▁동조	-11464
▁리티	-11465
▁승급	-11466
▁ㅔ요	-11467
▁공성전	-11468
▁건재	-11469
▁얼핏	-11470
▁LOVE	-11471
▁셉	-11472
▁대본	-11473
▁맞대	-11474
니즘	-11475
▁집회	-11476
▁청와	-11477
▁반항	-11478
▁하카	-11479
▁로저스	-11480
▁냉각	-11481
▁뽕	-11482
▁서대	-11483
▁159	-11484
▁서민	-11485
▁카린	-11486
▁기온	-11487
UR	-11488
▁쩔	-11489
▁히카리	-11490
▁DT	-11491
▁최정	-11492
▁구단주	-11493
▁아폴로	-11494
▁본성	-11495
▁반다이	-11496
▁와이어	-11497
▁오너	-11498
▁사용자	-11499
▁PL	-11500
▁휩싸	-11501
▁말장난	-11502
▁동문	-11503
▁데우스	-11504
▁아래쪽	-11505
▁경보	-11506
▁술법	-11507
▁공방전	-11508
▁동갑	-11509
▁천둥	-11510
▁배율	-11511
▁퇴사	-11512
▁133	-11513
▁러닝	-11514
▁우물	-11515
바다	-11516
▁태미	-11517
▁김택	-11518
ould	-11519
▁조직원	-11520
port	-11521
▁시그마	-11522
파크	-11523
▁미로	-11524
▁박찬	-11525
▁의아	-11526
▁게릴라	-11527
▁가변	-11528
▁리에	-11529
▁번식	-11530
▁악어	-11531
▁124	-11532
▁High	-11533
▁방송인	-11534
▁액세서리	-11535
▁사당	-11536
▁짚	-11537
▁IDOL	-11538
▁블레이즈	-11539
▁얕	-11540
▁Oh	-11541
▁분쇄	-11542
▁직구	-11543
미즈	-11544
▁제식	-11545
▁바주카	-11546
▁학급	-11547
▁구급	-11548
▁픽셀	-11549
ange	-11550
▁스칼렛	-11551
▁퇴출	-11552
▁EXT	-11553
▁허공	-11554
부지	-11555
어찌	-11556
▁FX	-11557
▁HK	-11558
▁보살	-11559
▁마운트	-11560
▁시즈카	-11561
▁마이너스	-11562
▁동요	-11563
▁비장	-11564
▁상가	-11565
프란	-11566
▁경질	-11567
▁슈퍼스타	-11568
▁베가	-11569
▁악랄	-11570
ott	-11571
▁인천광역시	-11572
▁자손	-11573
어붙	-11574
▁광대	-11575
▁결함	-11576
▁흑화	-11577
▁악용	-11578
▁모닝	-11579
▁무죄	-11580
▁밀집	-11581
▁배상	-11582
▁MLB	-11583
▁마크로스	-11584
▁박영	-11585
▁사다	-11586
▁프로그래밍	-11587
▁구두	-11588
▁추궁	-11589
▁최대치	-11590
▁크로니클	-11591
▁볼륨	-11592
▁파이브	-11593
▁세레	-11594
les	-11595
▁쫓아오	-11596
▁주술사	-11597
▁어찌어찌	-11598
▁1940	-11599
▁한탄	-11600
니스트	-11601
▁뷔	-11602
▁Par	-11603
▁280	-11604
▁감히	-11605
▁1962	-11606
▁허세	-11607
▁힐링	-11608
▁EM	-11609
▁새우	-11610
▁체질	-11611
▁연비	-11612
▁운운	-11613
▁복도	-11614
▁반말	-11615
▁굳어지	-11616
파리	-11617
▁차선	-11618
▁기소	-11619
▁데카	-11620
▁관념	-11621
▁드루이드	-11622
▁퍼센트	-11623
▁BW	-11624
▁엿보	-11625
▁156	-11626
▁필라	-11627
▁흡연	-11628
ator	-11629
▁현상금	-11630
▁계좌	-11631
▁지그	-11632
▁심슨	-11633
▁헌데	-11634
노미야	-11635
▁제시카	-11636
▁쑥	-11637
IE	-11638
▁코카	-11639
▁함재기	-11640
▁이승만	-11641
댓말	-11642
▁무안	-11643
▁토로	-11644
▁학번	-11645
▁존댓말	-11646
란트	-11647
▁광복	-11648
▁총열	-11649
▁인기투표	-11650
▁일렉트로	-11651
▁화내	-11652
▁ㄹ지도	-11653
▁Arm	-11654
▁청와대	-11655
▁El	-11656
▁매달	-11657
▁광탈	-11658
▁남작	-11659
▁무르	-11660
▁br	-11661
▁Master	-11662
▁광속	-11663
▁Ang	-11664
▁가성	-11665
▁원호	-11666
▁파인	-11667
▁런닝	-11668
▁접전	-11669
▁was	-11670
▁포워드	-11671
▁실습	-11672
▁전편	-11673
▁여고생	-11674
▁나츠미	-11675
▁동로	-11676
▁배열	-11677
▁성서	-11678
▁경쟁자	-11679
▁GG	-11680
▁심문	-11681
▁정재	-11682
▁230	-11683
즈카	-11684
▁실황	-11685
▁체스	-11686
▁기술자	-11687
▁허구	-11688
▁메테오	-11689
두리	-11690
▁대패	-11691
▁시간표	-11692
▁다이노스	-11693
꿈치	-11694
▁RP	-11695
▁취지	-11696
인간	-11697
▁기라	-11698
▁카도	-11699
▁아이언맨	-11700
▁금색	-11701
▁118	-11702
징어	-11703
▁바우	-11704
UT	-11705
▁라든지	-11706
▁이용해	-11707
▁페미니	-11708
▁터미네이터	-11709
널드	-11710
18	-11711
▁열풍	-11712
▁텅	-11713
▁불신	-11714
▁펠리	-11715
▁노이즈	-11716
▁콜드	-11717
▁화자	-11718
▁똑똑	-11719
▁미끄	-11720
▁치명상	-11721
나드	-11722
▁웨어	-11723
▁카탈	-11724
▁훅	-11725
▁시집	-11726
▁팔라딘	-11727
▁밋	-11728
▁까닭	-11729
▁장타율	-11730
립트	-11731
▁억지	-11732
▁ARM	-11733
▁어느새	-11734
▁성도	-11735
▁전반기	-11736
▁제정신	-11737
▁소실	-11738
▁자드	-11739
▁138	-11740
▁급기야	-11741
▁네이트	-11742
ICE	-11743
▁공로	-11744
▁수험	-11745
▁거느리	-11746
▁베일	-11747
▁퓨어	-11748
▁점사	-11749
▁급히	-11750
▁탄도	-11751
프레스	-11752
▁군사력	-11753
▁장안	-11754
▁1930	-11755
▁차후	-11756
▁탯이	-11757
▁게시물	-11758
▁알렉산더	-11759
▁비시	-11760
▁시저	-11761
▁콘셉트	-11762
▁리조	-11763
▁호전	-11764
▁스매시	-11765
▁털어놓	-11766
▁문어	-11767
▁드라군	-11768
날드	-11769
▁강수	-11770
▁위화	-11771
▁회오리	-11772
▁당첨	-11773
▁얼어붙	-11774
▁제르	-11775
▁하렘	-11776
▁해독	-11777
19	-11778
▁소시	-11779
▁악세	-11780
▁학술	-11781
▁말레이시아	-11782
▁렀다	-11783
▁안면	-11784
▁이진	-11785
▁히노	-11786
▁수상자	-11787
▁마에다	-11788
▁스콧	-11789
▁원활	-11790
▁호노	-11791
조합	-11792
▁돌이	-11793
▁Sec	-11794
▁말미	-11795
▁운항	-11796
▁콜롬	-11797
▁반대편	-11798
▁경성	-11799
▁셜록	-11800
▁국당	-11801
▁균열	-11802
▁소동	-11803
▁토마토	-11804
▁가뜩	-11805
▁cc	-11806
▁일쑤	-11807
▁서울역	-11808
▁148	-11809
▁수준급	-11810
▁조운	-11811
▁호르	-11812
▁영남	-11813
밀리아	-11814
▁효과음	-11815
누르	-11816
▁염려	-11817
▁초래	-11818
▁메소	-11819
▁분홍색	-11820
엘라	-11821
▁개개인	-11822
▁빌보드	-11823
▁스타팅	-11824
▁지휘자	-11825
▁Fire	-11826
▁스플래시	-11827
▁교시	-11828
▁상권	-11829
▁성모	-11830
▁로망	-11831
▁넥서스	-11832
▁대출	-11833
lect	-11834
▁안산	-11835
▁원고	-11836
▁랩터	-11837
▁머릿	-11838
▁550	-11839
▁루마니아	-11840
alk	-11841
▁가뜩이나	-11842
▁가명	-11843
▁제멋	-11844
▁축적	-11845
▁경유지	-11846
▁시중	-11847
▁일보	-11848
베리아	-11849
▁지상파	-11850
▁보증	-11851
리우스	-11852
▁되살아나	-11853
▁간략	-11854
▁병단	-11855
▁악의	-11856
▁이아	-11857
▁제라	-11858
니스탄	-11859
▁김선	-11860
▁제단	-11861
칼리	-11862
▁고산	-11863
▁넥슨	-11864
▁바이올린	-11865
▁CA	-11866
▁고추	-11867
▁풍자	-11868
▁그놈	-11869
▁김원	-11870
▁양보	-11871
▁이마트	-11872
▁북구	-11873
▁FB	-11874
▁국력	-11875
▁스피커	-11876
▁궁지	-11877
테스	-11878
일으키	-11879
▁불러일으키	-11880
olution	-11881
▁껄	-11882
언정	-11883
▁007	-11884
▁하츠네	-11885
마침	-11886
▁왕관	-11887
▁대표작	-11888
▁팔찌	-11889
▁테이크	-11890
▁채취	-11891
▁외래어	-11892
ty	-11893
▁모친	-11894
▁부호	-11895
▁칠레	-11896
▁레이첼	-11897
▁메가트론	-11898
▁레프	-11899
▁백합	-11900
젤레스	-11901
▁급식	-11902
▁열받	-11903
▁체이	-11904
land	-11905
▁프로세서	-11906
▁""	-11907
▁불어	-11908
▁최면	-11909
▁이시다	-11910
▁pr	-11911
▁때마침	-11912
▁대마	-11913
▁270	-11914
수스	-11915
▁도피	-11916
▁안드로메다	-11917
▁발광	-11918
▁창시	-11919
▁나나미	-11920
▁kr	-11921
▁아야카	-11922
▁정류소	-11923
▁일련	-11924
▁파파	-11925
▁스피리	-11926
▁디펜스	-11927
▁에이전트	-11928
▁가축	-11929
▁전폭	-11930
▁주황색	-11931
▁바비	-11932
▁나고야	-11933
▁1964	-11934
▁숀	-11935
▁일어서	-11936
▁경과	-11937
▁투하	-11938
▁가급적	-11939
▁style	-11940
▁대용	-11941
▁무작정	-11942
▁발라드	-11943
▁양국	-11944
▁피처	-11945
▁172	-11946
축구	-11947
ony	-11948
▁가넷	-11949
▁회고	-11950
▁금호	-11951
▁안드레	-11952
▁뮬	-11953
▁안성	-11954
▁도리어	-11955
▁딸기	-11956
▁커터	-11957
▁떄	-11958
▁다단	-11959
▁유나	-11960
▁할리우드	-11961
놀이	-11962
▁논하	-11963
▁서초	-11964
▁에리카	-11965
▁프리즘	-11966
방향	-11967
▁정정	-11968
▁피에	-11969
▁들이대	-11970
▁sm	-11971
▁조력자	-11972
▁깁	-11973
▁카지노	-11974
▁편대	-11975
▁회화	-11976
▁리브	-11977
▁진행자	-11978
▁노숙	-11979
테이너	-11980
▁우크라	-11981
▁예언자	-11982
홍철	-11983
▁Li	-11984
▁오징어	-11985
천역	-11986
▁포효	-11987
▁해운대	-11988
▁so	-11989
▁병맛	-11990
▁브릿지	-11991
르기	-11992
▁닫히	-11993
▁설비	-11994
▁제원	-11995
▁임원	-11996
▁호투	-11997
▁정확도	-11998
▁키리토	-11999
▁덩크	-12000
▁테일러	-12001
▁컨트롤러	-12002
차례	-12003
▁체가	-12004
▁사로잡히	-12005
▁우천	-12006
▁자잘	-12007
▁항아리	-12008
▁시력	-12009
이프	-12010
▁우산	-12011
▁주범	-12012
▁스탠다드	-12013
▁연하	-12014
▁메탈기어	-12015
pr	-12016
▁메스	-12017
▁보리	-12018
▁예지	-12019
▁총격	-12020
▁코파	-12021
▁군함	-12022
▁프로모션	-12023
▁바하	-12024
▁응하	-12025
▁열람	-12026
▁Pv	-12027
▁야외	-12028
▁열전	-12029
▁BRV	-12030
▁주고받	-12031
▁은혜	-12032
▁로딩	-12033
▁천공	-12034
▁튜너	-12035
▁초교	-12036
▁마츠모토	-12037
BM	-12038
▁개드립	-12039
▁와우	-12040
▁Rem	-12041
▁이나즈마	-12042
▁외롭	-12043
▁천적	-12044
▁피치	-12045
▁아테네	-12046
클럽	-12047
▁1965	-12048
행위	-12049
메스	-12050
▁스타크	-12051
▁증세	-12052
▁지표	-12053
▁카디	-12054
게임넷	-12055
▁목적지	-12056
▁Blue	-12057
▁온게임넷	-12058
▁체크카드	-12059
▁프런트	-12060
▁블래스트	-12061
▁건전	-12062
▁로제	-12063
▁153	-12064
▁Dis	-12065
ert	-12066
왜란	-12067
▁뇌물	-12068
▁초코	-12069
▁둘러싸이	-12070
▁샤이닝	-12071
▁바그	-12072
비우스	-12073
▁마도사	-12074
▁프론트	-12075
▁Power	-12076
▁주파수	-12077
▁쇠퇴	-12078
▁임진왜란	-12079
▁무제한	-12080
▁양키스	-12081
▁나기사	-12082
▁하드코어	-12083
▁라시	-12084
▁저격총	-12085
이센	-12086
▁XY	-12087
▁대주	-12088
▁히로유키	-12089
▁Fi	-12090
▁177	-12091
▁스위트	-12092
포드	-12093
▁로그인	-12094
▁FL	-12095
▁갈라	-12096
▁집정	-12097
▁주거	-12098
▁오버로드	-12099
▁발상	-12100
▁솔리드	-12101
▁Good	-12102
▁요하	-12103
▁쓸데없	-12104
▁바사	-12105
▁복면	-12106
▁진에	-12107
▁Champ	-12108
▁개연	-12109
▁영진	-12110
▁생물학	-12111
느니	-12112
▁창업	-12113
▁도청	-12114
▁자취	-12115
▁공과	-12116
▁두근	-12117
▁바니	-12118
▁기총	-12119
▁증기	-12120
▁부대원	-12121
▁na	-12122
▁슬리	-12123
▁제휴	-12124
▁여권	-12125
▁넵튠	-12126
▁야당	-12127
▁소극	-12128
▁천계	-12129
▁체리	-12130
▁얀데레	-12131
▁용감	-12132
▁빼돌리	-12133
▁여의도	-12134
관총	-12135
▁상속	-12136
▁귀도	-12137
▁동창	-12138
▁방황	-12139
▁수작	-12140
▁ALL	-12141
▁우체국	-12142
▁소행	-12143
라이나	-12144
▁사용법	-12145
▁사슴	-12146
▁쏠쏠	-12147
▁휴일	-12148
▁민원	-12149
▁탄핵	-12150
▁SO	-12151
▁경매	-12152
▁눈빛	-12153
▁완전체	-12154
▁우루과이	-12155
▁종사	-12156
▁교향곡	-12157
▁기미	-12158
▁르네	-12159
▁리마	-12160
▁충청남도	-12161
▁타쿠미	-12162
석민	-12163
▁서장	-12164
▁산악	-12165
▁프리스트	-12166
같이	-12167
▁기성	-12168
부대	-12169
▁서드	-12170
▁EMP	-12171
OID	-12172
▁BA	-12173
▁강유	-12174
▁상표	-12175
라이즈	-12176
▁적시타	-12177
▁병살	-12178
▁STR	-12179
▁글러브	-12180
▁출석	-12181
▁생산량	-12182
무장	-12183
▁ME	-12184
▁맥도	-12185
▁원제	-12186
▁입체	-12187
▁양측	-12188
▁적진	-12189
▁그리드	-12190
▁열기	-12191
▁Sm	-12192
▁코이	-12193
▁적색	-12194
▁레이나	-12195
마당	-12196
▁러셀	-12197
▁재직	-12198
▁해수	-12199
tr	-12200
▁박경	-12201
▁방정	-12202
▁지망	-12203
▁%.	-12204
▁친정	-12205
▁GDP	-12206
▁mar	-12207
▁스파르타	-12208
▁초사	-12209
토리얼	-12210
▁슬로우	-12211
▁후유증	-12212
내리	-12213
▁바이스	-12214
▁북유럽	-12215
▁어리석	-12216
▁리트	-12217
▁엑소	-12218
▁휩싸이	-12219
토르	-12220
▁막아	-12221
▁아의	-12222
▁다툼	-12223
▁단백	-12224
▁미시	-12225
▁학계	-12226
▁헤매	-12227
얼거리	-12228
▁튜토리얼	-12229
▁아니하	-12230
▁횡단	-12231
▁260	-12232
▁카타르	-12233
▁Play	-12234
ART	-12235
▁박재	-12236
▁정벌	-12237
▁심심찮	-12238
▁폴더	-12239
▁합하	-12240
▁프론티어	-12241
▁포식	-12242
▁공동체	-12243
▁호기심	-12244
히사	-12245
▁미정	-12246
▁갭	-12247
▁다이어트	-12248
▁경량	-12249
▁방벽	-12250
▁유목	-12251
▁카스미	-12252
스트로	-12253
▁코시	-12254
▁팀장	-12255
▁샌프란	-12256
▁샌프란시스코	-12257
▁괄	-12258
숨에	-12259
▁단숨에	-12260
▁독재자	-12261
▁미츠루	-12262
▁선대	-12263
▁야하	-12264
▁첨단	-12265
▁밀란	-12266
▁서독	-12267
▁프리즈	-12268
▁지문	-12269
버릇	-12270
▁매수	-12271
▁청량	-12272
▁???	-12273
▁당당히	-12274
▁동지	-12275
▁작살	-12276
▁감전	-12277
▁금화	-12278
▁소심	-12279
▁화나	-12280
▁내수	-12281
▁마더	-12282
▁650	-12283
▁부당	-12284
▁이야말로	-12285
▁나데	-12286
▁레몬	-12287
▁페더	-12288
▁크루즈	-12289
▁늦추	-12290
▁적발	-12291
▁초토	-12292
▁취직	-12293
▁연금술	-12294
▁송출	-12295
장이	-12296
▁다이나	-12297
▁세르비아	-12298
▁토네이도	-12299
▁속옷	-12300
▁돌격소총	-12301
▁원천	-12302
의사	-12303
▁송도	-12304
▁지령	-12305
▁실명	-12306
▁아카이	-12307
▁라자	-12308
▁부메	-12309
▁슈타인	-12310
▁황무지	-12311
▁마커	-12312
▁생사	-12313
▁광신	-12314
버드	-12315
▁충공	-12316
25	-12317
▁무전	-12318
▁어처	-12319
▁137	-12320
▁텔레비전	-12321
려드	-12322
ERS	-12323
▁부츠	-12324
▁루시퍼	-12325
▁확연히	-12326
▁만화책	-12327
▁미니언	-12328
▁카르마	-12329
▁토트넘	-12330
▁메꾸	-12331
▁부메랑	-12332
▁원종	-12333
▁Dance	-12334
대기	-12335
▁장기간	-12336
▁라지	-12337
▁WCS	-12338
▁엘더스	-12339
▁쿠시	-12340
▁경감	-12341
▁개더링	-12342
▁중성	-12343
▁Over	-12344
▁대문	-12345
▁아란	-12346
▁징병	-12347
▁사임	-12348
▁스윕	-12349
베르트	-12350
▁앙쥬	-12351
▁현명	-12352
▁대사관	-12353
▁연습생	-12354
▁정장	-12355
무실	-12356
틀링	-12357
▁입맛	-12358
▁파산	-12359
▁Ke	-12360
페르	-12361
▁아다	-12362
▁157	-12363
▁설득력	-12364
▁이가	-12365
▁미성년자	-12366
▁돌아보	-12367
▁편안	-12368
▁회귀	-12369
▁154	-12370
▁카즈키	-12371
▁오반	-12372
▁179	-12373
▁씁	-12374
▁CO	-12375
▁공립	-12376
▁미디	-12377
저우	-12378
▁왼팔	-12379
▁트리스	-12380
▁금기	-12381
▁창병	-12382
▁고장나	-12383
▁섬유	-12384
▁가출	-12385
▁팀킬	-12386
▁Str	-12387
air	-12388
▁출몰	-12389
▁박상	-12390
▁퍼부	-12391
▁Ac	-12392
▁164	-12393
▁맴	-12394
▁내야수	-12395
▁기밀	-12396
▁드리프트	-12397
▁광범	-12398
▁금서	-12399
▁독서	-12400
라이어	-12401
▁한심	-12402
▁금곡	-12403
▁본국	-12404
▁세간	-12405
▁유서	-12406
▁기판	-12407
▁Music	-12408
▁빡세	-12409
oot	-12410
▁교란	-12411
▁직무	-12412
▁Ep	-12413
▁NL	-12414
▁표식	-12415
▁내걸	-12416
▁쇼트	-12417
매치	-12418
▁삽화	-12419
▁데스매치	-12420
▁뫼	-12421
▁양호	-12422
▁우메	-12423
▁어처구니	-12424
▁단간	-12425
▁망령	-12426
▁친일	-12427
▁텔레콤	-12428
▁선진국	-12429
▁오리온	-12430
▁민영	-12431
▁순진	-12432
▁공병	-12433
▁내륙	-12434
▁초식	-12435
▁왠만	-12436
▁와타루	-12437
▁쿠노	-12438
▁평민	-12439
▁ㄴ다든가	-12440
산물	-12441
▁Kn	-12442
▁DDR	-12443
▁아이리	-12444
▁수복	-12445
▁양주	-12446
▁티탄	-12447
▁쓸모없	-12448
▁129	-12449
▁젊은이	-12450
▁두부	-12451
▁홀딩	-12452
ern	-12453
▁폭사	-12454
▁225	-12455
▁최우수	-12456
▁심리학	-12457
ittle	-12458
▁쐐	-12459
▁만료	-12460
▁NHK	-12461
▁파워레인저	-12462
▁콘티	-12463
▁손바닥	-12464
▁택배	-12465
▁느냐는	-12466
▁때우	-12467
▁강적	-12468
▁최영	-12469
▁고령	-12470
▁괴도	-12471
레트	-12472
▁대각	-12473
▁그닥	-12474
▁솔라	-12475
▁'''	-12476
▁지역구	-12477
셔츠	-12478
▁뽐내	-12479
▁광범위	-12480
▁NS	-12481
▁김형	-12482
▁서점	-12483
▁세나	-12484
▁육박	-12485
▁타나	-12486
▁개틀링	-12487
▁불멸	-12488
▁툼	-12489
▁은혼	-12490
▁돌아서	-12491
▁콜라보레이션	-12492
▁펙	-12493
▁북방	-12494
▁발간	-12495
▁텍스	-12496
▁스코프	-12497
▁전용기	-12498
▁후궁	-12499
▁만화가	-12500
▁핵무기	-12501
▁강성	-12502
▁켄타	-12503
▁우로	-12504
▁충성심	-12505
AG	-12506
▁밉	-12507
▁바시	-12508
▁네타	-12509
▁변질	-12510
▁이승엽	-12511
▁윌리엄스	-12512
▁욕하	-12513
▁천황	-12514
▁중령	-12515
▁포지	-12516
▁역과	-12517
▁진료	-12518
▁저상버스	-12519
▁똘	-12520
▁리액	-12521
▁>,	-12522
▁범행	-12523
▁모호	-12524
▁비범	-12525
▁기타리스트	-12526
▁산책	-12527
▁춘천	-12528
동원	-12529
▁걸스	-12530
▁스냅	-12531
▁낙인	-12532
▁장동민	-12533
▁코지마	-12534
▁카자마	-12535
▁살피	-12536
바위	-12537
▁알아듣	-12538
▁Comm	-12539
▁글래	-12540
▁서정	-12541
▁Pre	-12542
▁박격	-12543
▁1800	-12544
▁크리스티	-12545
▁좌표	-12546
▁헛소리	-12547
▁백미	-12548
▁RC	-12549
▁하와이	-12550
▁대진	-12551
▁256	-12552
▁불사조	-12553
▁허리케인	-12554
▁숙이	-12555
▁라이터	-12556
▁설사	-12557
▁점거	-12558
▁포토	-12559
▁클로즈	-12560
▁Korea	-12561
▁진작	-12562
▁유행어	-12563
hammer	-12564
▁MR	-12565
▁자진	-12566
▁사이언	-12567
▁곡선	-12568
▁케이트	-12569
▁목재	-12570
▁에덴	-12571
▁예명	-12572
▁자연스레	-12573
결승	-12574
▁가솔	-12575
▁베이스볼	-12576
마츠	-12577
▁FR	-12578
▁마차	-12579
▁서커스	-12580
▁공익	-12581
▁헌신	-12582
oss	-12583
▁첫날	-12584
▁칙	-12585
▁정계	-12586
▁퍼니	-12587
▁노홍철	-12588
▁잠그	-12589
▁파장	-12590
아라	-12591
▁End	-12592
▁무빙	-12593
ield	-12594
▁무고	-12595
▁재위	-12596
▁검은색	-12597
▁즉각	-12598
슬러	-12599
▁화수	-12600
▁트린	-12601
ENT	-12602
▁중사	-12603
▁out	-12604
레미	-12605
▁신디	-12606
▁견인	-12607
▁스님	-12608
▁김명	-12609
▁LCD	-12610
▁Leg	-12611
▁펄스	-12612
자카	-12613
▁139	-12614
▁쿄스케	-12615
▁분자	-12616
▁134	-12617
▁꺾이	-12618
▁가창력	-12619
사우	-12620
▁색채	-12621
▁협의	-12622
▁작아지	-12623
▁선풍	-12624
RAM	-12625
▁강행	-12626
▁방과	-12627
▁하리	-12628
▁163	-12629
▁집정관	-12630
▁Life	-12631
▁대여	-12632
▁999	-12633
▁단말기	-12634
▁행태	-12635
▁양아치	-12636
▁충공깽	-12637
받침	-12638
▁지독	-12639
▁에우	-12640
▁yout	-12641
평균	-12642
▁전전	-12643
▁136	-12644
▁UFO	-12645
▁거유	-12646
▁환각	-12647
▁EXH	-12648
eng	-12649
▁모나	-12650
▁바트	-12651
▁엘소드	-12652
▁타츠야	-12653
▁JC	-12654
▁VOC	-12655
▁기관차	-12656
▁사토시	-12657
▁어지간히	-12658
무니	-12659
외선	-12660
edia	-12661
▁까먹	-12662
▁대승	-12663
▁카가	-12664
▁Gold	-12665
▁후반전	-12666
▁가가	-12667
▁부추	-12668
▁존속	-12669
▁박해	-12670
▁스왑	-12671
▁초고	-12672
▁서두르	-12673
▁토탈	-12674
▁176	-12675
▁Cy	-12676
▁남동	-12677
서야	-12678
▁피리	-12679
러나오	-12680
▁man	-12681
▁뒤집히	-12682
질기	-12683
▁173	-12684
▁MT	-12685
▁헬스	-12686
▁나츠키	-12687
▁뉴타입	-12688
▁포르노	-12689
▁BASIC	-12690
▁오미	-12691
▁XXX	-12692
▁끈질기	-12693
▁SG	-12694
▁애프터	-12695
▁이스터	-12696
▁케로로	-12697
범죄	-12698
▁경인	-12699
▁토우마	-12700
▁수리검	-12701
▁하자드	-12702
IST	-12703
▁애드	-12704
▁167	-12705
리에	-12706
▁번트	-12707
▁XP	-12708
▁왕좌	-12709
▁선곡	-12710
▁영창	-12711
▁파고들	-12712
▁수군	-12713
▁142	-12714
문트	-12715
▁뒤덮	-12716
▁미지수	-12717
▁격리	-12718
▁손녀	-12719
ek	-12720
▁왕따	-12721
▁초딩	-12722
▁책략	-12723
▁테크노	-12724
▁램프	-12725
▁신공	-12726
▁캐서	-12727
▁전라북도	-12728
▁SW	-12729
러드	-12730
inc	-12731
▁MD	-12732
▁세츠나	-12733
▁단백질	-12734
▁......	-12735
▁위탁	-12736
▁가치관	-12737
▁로마자	-12738
▁요미우리	-12739
미스	-12740
▁용맹	-12741
▁기획사	-12742
▁자크	-12743
▁청산	-12744
용차	-12745
▁강변	-12746
▁튀기	-12747
▁틀어지	-12748
▁6000	-12749
수아	-12750
▁더비	-12751
▁고양시	-12752
▁제멋대로	-12753
▁말소	-12754
▁상회	-12755
▁충북	-12756
▁국사	-12757
▁야드	-12758
▁초선	-12759
▁co	-12760
▁관제	-12761
▁}{	-12762
▁경순	-12763
▁로자	-12764
▁루리웹	-12765
▁막바지	-12766
▁키워드	-12767
▁정거	-12768
▁돌려보내	-12769
▁Summer	-12770
▁권능	-12771
▁380	-12772
▁경전철	-12773
▁에스파	-12774
▁피스트	-12775
▁수평	-12776
▁은밀	-12777
운전	-12778
▁백신	-12779
▁아치	-12780
▁149	-12781
카스	-12782
▁여사	-12783
irst	-12784
거진	-12785
▁특공대	-12786
▁쳐내	-12787
▁..'	-12788
▁본드	-12789
▁수원시	-12790
▁위화감	-12791
▁깊숙	-12792
▁한숨	-12793
▁버금	-12794
▁살인마	-12795
▁시노부	-12796
▁OR	-12797
▁서지	-12798
▁행선	-12799
세데스	-12800
▁류현진	-12801
▁메르세데스	-12802
▁지자	-12803
▁치부	-12804
▁페달	-12805
▁총괄	-12806
▁IDOLM	-12807
▁완수	-12808
▁학창	-12809
▁프레데	-12810
▁천연가스	-12811
▁정중	-12812
▁키퍼	-12813
▁스티커	-12814
▁어린애	-12815
▁전년	-12816
▁하부	-12817
▁위나라	-12818
▁캐서린	-12819
▁1961	-12820
▁파키스탄	-12821
제국	-12822
▁고베	-12823
▁King	-12824
▁가차	-12825
▁아멜	-12826
▁전교	-12827
ual	-12828
▁성체	-12829
YP	-12830
▁회견	-12831
▁강판	-12832
비언	-12833
▁무언	-12834
▁뷰티	-12835
▁ONE	-12836
▁노려보	-12837
▁AG	-12838
▁미쓰	-12839
▁이안	-12840
gain	-12841
▁스퍼	-12842
▁입술	-12843
▁흑룡	-12844
던트	-12845
▁다인	-12846
▁판본	-12847
패드	-12848
▁노이	-12849
▁유명세	-12850
▁게리	-12851
▁디비전	-12852
▁단선	-12853
▁무상	-12854
준혁	-12855
▁원격	-12856
▁UI	-12857
▁기와	-12858
▁멜론	-12859
▁인내	-12860
령관	-12861
토미	-12862
▁봉기	-12863
▁아홉	-12864
▁차종	-12865
▁다짐	-12866
▁수고	-12867
데기	-12868
▁기마	-12869
▁현존	-12870
▁경의	-12871
▁영분	-12872
먹이	-12873
▁골리	-12874
▁표방	-12875
▁마누	-12876
▁첨가	-12877
▁따돌리	-12878
▁제비	-12879
▁이과	-12880
▁부풀	-12881
▁Win	-12882
▁친위대	-12883
▁코우지	-12884
▁타케루	-12885
▁리히	-12886
▁바오	-12887
▁옐로	-12888
▁추월	-12889
▁휴스턴	-12890
크리트	-12891
▁143	-12892
▁프로이센	-12893
▁계보	-12894
▁댄서	-12895
▁역학	-12896
▁헤븐	-12897
▁물려주	-12898
▁사마의	-12899
▁단신	-12900
▁봉황	-12901
▁유노	-12902
▁최전	-12903
▁호그	-12904
▁그리스어	-12905
▁진가	-12906
▁어비스	-12907
미츠	-12908
▁정거장	-12909
▁황태자	-12910
▁미끄러지	-12911
▁오리지날	-12912
▁프랑크	-12913
▁리우	-12914
▁페니	-12915
▁베니	-12916
▁키메라	-12917
OO	-12918
▁관대	-12919
▁포럼	-12920
▁선형	-12921
▁시동	-12922
aj	-12923
▁무의	-12924
▁여하	-12925
▁흑백	-12926
▁ㄴ다든지	-12927
▁u	-12928
▁백룡	-12929
▁아제	-12930
▁죄송	-12931
툭튀	-12932
▁진공	-12933
▁후려	-12934
▁커맨더	-12935
▁조형	-12936
▁Can	-12937
▁아카기	-12938
▁쉘	-12939
▁빡빡	-12940
▁현직	-12941
▁ㄹ까요	-12942
▁속공	-12943
▁준장	-12944
▁카논	-12945
▁표본	-12946
▁한스	-12947
▁갑툭튀	-12948
▁VOCAL	-12949
▁사파이어	-12950
▁백색	-12951
▁잔당	-12952
▁실무	-12953
▁두께	-12954
▁육지	-12955
▁카에	-12956
▁단조	-12957
▁본문	-12958
▁청색	-12959
▁소진	-12960
▁씁쓸	-12961
▁커브	-12962
▁합창	-12963
▁매진	-12964
▁이분	-12965
▁오피스	-12966
하이	-12967
▁ㅅ	-12968
▁섬세	-12969
▁우사	-12970
▁Vo	-12971
▁크래	-12972
▁타시	-12973
▁테츠야	-12974
▁1942	-12975
▁속박	-12976
▁애교	-12977
▁제이크	-12978
▁자발	-12979
▁This	-12980
▁걸작	-12981
▁Out	-12982
▁매트릭스	-12983
yn	-12984
▁세션	-12985
▁어중간	-12986
▁1943	-12987
▁유지비	-12988
▁끝판	-12989
▁분사	-12990
▁사이오	-12991
▁OPS	-12992
▁마리사	-12993
IV	-12994
ube	-12995
▁미야자키	-12996
▁지아	-12997
▁무효화	-12998
▁What	-12999
▁난폭	-13000
▁왕건	-13001
▁Int	-13002
▁대두	-13003
▁각색	-13004
▁강팀	-13005
▁뭣	-13006
▁요동	-13007
▁SEED	-13008
▁의미심장	-13009
▁빨강	-13010
▁활주	-13011
조작	-13012
▁모탈	-13013
▁세이지	-13014
▁고독	-13015
▁치프	-13016
▁어워드	-13017
타르	-13018
▁되려	-13019
▁처단	-13020
▁스크립트	-13021
▁가든	-13022
▁안보	-13023
▁리젠	-13024
▁등교	-13025
▁승부조작	-13026
▁대부	-13027
▁거리표	-13028
▁Da	-13029
▁바바	-13030
▁콘크리트	-13031
▁독설	-13032
▁유우야	-13033
▁설계도	-13034
▁플러그	-13035
로리	-13036
▁배수량	-13037
▁수녀	-13038
▁심포	-13039
▁교훈	-13040
▁좁히	-13041
▁츠루	-13042
▁tvN	-13043
▁피어	-13044
▁김도	-13045
▁서인	-13046
▁연희	-13047
▁장원	-13048
▁재난	-13049
▁치중	-13050
레스트	-13051
▁언행	-13052
▁디테일	-13053
▁이터널	-13054
튀기	-13055
▁득표율	-13056
▁뾰	-13057
시계	-13058
▁재임	-13059
작전	-13060
▁신시	-13061
▁십상	-13062
▁초중	-13063
▁폭발물	-13064
▁격돌	-13065
▁경장	-13066
▁판과	-13067
▁마는	-13068
▁시세	-13069
ady	-13070
▁시르	-13071
▁칭송	-13072
▁사카모토	-13073
▁네모	-13074
▁선구	-13075
▁잉크	-13076
▁121	-13077
▁MASTER	-13078
▁대머리	-13079
▁뻥튀기	-13080
▁구독	-13081
▁오마주	-13082
▁교주	-13083
▁레미	-13084
▁성녀	-13085
▁양면	-13086
▁출세	-13087
▁미라이	-13088
▁Live	-13089
▁루팡	-13090
▁자신감	-13091
▁무성	-13092
▁음모론	-13093
▁랴	-13094
▁신축	-13095
▁ㄱ	-13096
▁가물	-13097
▁욕구	-13098
▁TD	-13099
▁능욕	-13100
▁재팬	-13101
▁매거진	-13102
▁바늘	-13103
▁세가	-13104
▁Hard	-13105
킨스	-13106
테나	-13107
▁괴멸	-13108
▁석사	-13109
▁Act	-13110
▁매그넘	-13111
▁흘러나오	-13112
▁이속	-13113
▁잠재력	-13114
ATION	-13115
▁당분	-13116
let	-13117
▁역관	-13118
▁로스앤	-13119
▁로스앤젤레스	-13120
▁문화재	-13121
▁배지	-13122
▁튜버	-13123
중국	-13124
▁표출	-13125
▁1920	-13126
▁비약	-13127
riend	-13128
▁노브	-13129
미사	-13130
▁관악	-13131
전대	-13132
▁어제	-13133
▁종일	-13134
▁배틀필드	-13135
▁조비	-13136
▁혜성	-13137
ush	-13138
▁섭외	-13139
▁이상민	-13140
iew	-13141
▁법안	-13142
▁엄지	-13143
▁여건	-13144
▁나우	-13145
▁우시	-13146
▁콥	-13147
▁볼프	-13148
▁인벤토리	-13149
▁이어인	-13150
▁엑스맨	-13151
▁앙리	-13152
▁폭동	-13153
▁베드	-13154
▁수소	-13155
▁준결승	-13156
▁샨	-13157
▁소리치	-13158
▁라이토	-13159
▁군산	-13160
▁174	-13161
▁난동	-13162
▁버금가	-13163
▁반칙	-13164
▁랄까	-13165
▁호세	-13166
▁워너	-13167
▁겉보기	-13168
▁자부심	-13169
▁부치	-13170
베르토	-13171
▁조인	-13172
eet	-13173
▁아역	-13174
▁작별	-13175
▁피에르	-13176
▁줄곧	-13177
▁아프가	-13178
버린	-13179
▁늘어놓	-13180
▁소용돌이	-13181
조각	-13182
bps	-13183
▁EA	-13184
▁덕택	-13185
▁밀치	-13186
▁리바이	-13187
▁솔로몬	-13188
▁이제동	-13189
▁꼭두	-13190
▁느긋	-13191
사이드	-13192
▁쇼핑몰	-13193
▁205	-13194
▁나오키	-13195
▁난해	-13196
▁반환	-13197
▁족장	-13198
▁베가스	-13199
▁누님	-13200
▁크리드	-13201
UC	-13202
▁성검	-13203
▁줄줄이	-13204
▁검도	-13205
▁포털	-13206
▁TG	-13207
▁송병	-13208
▁쐐기	-13209
▁제구	-13210
▁템포	-13211
▁외출	-13212
ational	-13213
▁BF	-13214
총리	-13215
▁틀림	-13216
▁다중	-13217
▁승기	-13218
▁평원	-13219
▁호대	-13220
페어	-13221
▁박용	-13222
▁유포	-13223
rain	-13224
여지	-13225
ORE	-13226
▁CB	-13227
▁사병	-13228
▁심리전	-13229
▁히코	-13230
▁무자비	-13231
▁Air	-13232
▁1946	-13233
무진	-13234
▁이에야스	-13235
▁문헌	-13236
▁양념	-13237
▁보유자	-13238
▁국물	-13239
▁켈리	-13240
▁도호쿠	-13241
ita	-13242
▁거물	-13243
▁겨누	-13244
▁즘	-13245
▁조그	-13246
주리	-13247
ESS	-13248
▁하르	-13249
▁레슨	-13250
▁만루	-13251
▁성우진	-13252
▁예배	-13253
▁임페	-13254
무소	-13255
UE	-13256
▁굴복	-13257
▁퍼스	-13258
▁은메달	-13259
ane	-13260
▁루기	-13261
▁송이	-13262
▁아프가니스탄	-13263
▁지지자	-13264
▁배럴	-13265
때로	-13266
▁비오	-13267
▁윌슨	-13268
▁유영	-13269
니트	-13270
▁벌어	-13271
▁단절	-13272
▁유쾌	-13273
▁폭포	-13274
▁하데스	-13275
케이	-13276
▁흐리	-13277
▁여친	-13278
▁병신	-13279
▁왕궁	-13280
▁언락	-13281
▁이신	-13282
▁빈사	-13283
▁꽝	-13284
▁박격포	-13285
▁아까	-13286
▁주작	-13287
▁미상	-13288
▁탈옥	-13289
▁담당자	-13290
모델	-13291
▁도모	-13292
▁부우	-13293
▁교섭	-13294
▁만세	-13295
▁홍대	-13296
▁내심	-13297
▁Warhammer	-13298
▁졸지	-13299
▁VOCALOID	-13300
▁가네	-13301
▁한조	-13302
▁웍	-13303
▁sc	-13304
▁새로이	-13305
▁팔꿈치	-13306
아아	-13307
▁총통	-13308
▁킬로	-13309
▁티거	-13310
제스	-13311
▁달빛	-13312
▁수락	-13313
▁아부	-13314
▁동대문	-13315
▁time	-13316
▁임페리얼	-13317
블릿	-13318
▁부토	-13319
▁벵	-13320
▁츠카사	-13321
▁웨이트	-13322
▁되돌아가	-13323
▁빵빵	-13324
▁진술	-13325
▁타지	-13326
▁자본주의	-13327
▁유로파	-13328
▁교재	-13329
▁김창	-13330
▁자치령	-13331
▁료마	-13332
▁사부	-13333
퍼런스	-13334
▁데뷔작	-13335
▁각기	-13336
▁피곤	-13337
▁김정일	-13338
▁피라미	-13339
▁퍼뜨리	-13340
▁대제	-13341
▁기한	-13342
▁상반기	-13343
▁연구실	-13344
▁밴시	-13345
▁센트리	-13346
▁남극	-13347
▁랜디	-13348
▁준공	-13349
클레스	-13350
▁부여받	-13351
▁히토미	-13352
▁직감	-13353
▁진형	-13354
공화국	-13355
▁카메오	-13356
▁역전재판	-13357
▁컨테이너	-13358
▁나날	-13359
▁불상	-13360
▁용호	-13361
▁비토	-13362
▁세토	-13363
▁손아	-13364
▁노엘	-13365
▁만두	-13366
▁비정	-13367
▁블루스	-13368
소스	-13369
▁괴로	-13370
▁늘어지	-13371
here	-13372
▁페인트	-13373
▁대한항공	-13374
▁주군	-13375
▁파업	-13376
▁단거리	-13377
▁Hell	-13378
▁미완	-13379
▁Cat	-13380
ness	-13381
▁산화	-13382
▁심연	-13383
▁판도라	-13384
▁q	-13385
컨대	-13386
▁허영	-13387
▁법학	-13388
▁퀄컴	-13389
▁학회	-13390
▁1941	-13391
▁증후	-13392
▁채집	-13393
▁이동하	-13394
▁라데	-13395
▁만류	-13396
▁조제	-13397
▁la	-13398
▁`	-13399
eth	-13400
▁내공	-13401
▁작렬	-13402
▁전류	-13403
▁벤트	-13404
▁호타	-13405
▁싱크로	-13406
▁GR	-13407
▁총탄	-13408
▁오로라	-13409
EX	-13410
신기	-13411
▁At	-13412
▁ll	-13413
▁사안	-13414
▁자수	-13415
▁정크	-13416
▁대장군	-13417
▁지지율	-13418
▁단연	-13419
▁들통	-13420
▁빅터	-13421
▁유년	-13422
▁역병	-13423
▁Res	-13424
▁보단	-13425
▁부녀	-13426
▁킹스	-13427
▁도미니	-13428
유리	-13429
▁물들	-13430
▁스탠스	-13431
▁이복	-13432
▁마음껏	-13433
사우루스	-13434
▁불러들이	-13435
▁레베	-13436
▁마니	-13437
▁치아	-13438
▁빌미	-13439
▁야기	-13440
▁유엔	-13441
코스	-13442
▁떠들	-13443
▁성균	-13444
ret	-13445
▁GX	-13446
▁장래	-13447
▁휩쓸리	-13448
▁래스	-13449
▁항우	-13450
ne	-13451
▁미련	-13452
▁민정	-13453
▁신원	-13454
▁추석	-13455
itch	-13456
▁명인	-13457
▁포고	-13458
▁김택용	-13459
▁퇴마	-13460
▁삼거리	-13461
▁성균관	-13462
▁가주	-13463
▁파드	-13464
▁익스트림	-13465
▁Sound	-13466
▁염소	-13467
▁옥타	-13468
▁동메달	-13469
▁유스케	-13470
▁듬	-13471
▁id	-13472
▁듀엣	-13473
▁후세	-13474
▁이은	-13475
▁조달	-13476
▁태연	-13477
▁참모총장	-13478
▁난전	-13479
▁복종	-13480
▁셀프	-13481
▁창원시	-13482
▁베라	-13483
▁김정은	-13484
▁아울러	-13485
▁우려먹	-13486
▁이니셜	-13487
▁대적	-13488
▁연루	-13489
▁신노스케	-13490
▁경쟁력	-13491
▁알코	-13492
▁레볼루션	-13493
▁조장	-13494
▁대상자	-13495
▁어설트	-13496
▁코브라	-13497
▁차세대	-13498
▁미타	-13499
▁도도	-13500
▁리베	-13501
▁백수	-13502
▁사바	-13503
제품	-13504
무늬	-13505
▁과실	-13506
▁기겁	-13507
▁채소	-13508
▁서원	-13509
▁체급	-13510
▁SKE	-13511
▁사육	-13512
▁시발	-13513
▁직관	-13514
▁후안	-13515
▁유키노	-13516
▁해저	-13517
▁세이야	-13518
클리	-13519
▁시구	-13520
▁빼놓	-13521
▁슈타	-13522
▁이변	-13523
▁할당	-13524
▁제너럴	-13525
▁그지	-13526
▁뒷받침	-13527
럭스	-13528
▁몽땅	-13529
▁집결	-13530
▁147	-13531
▁의리	-13532
▁노후	-13533
▁동참	-13534
▁미팅	-13535
▁으라는	-13536
▁편제	-13537
▁김영삼	-13538
열차	-13539
▁근래	-13540
▁night	-13541
▁인민공화국	-13542
na	-13543
▁술탄	-13544
▁적료	-13545
▁특허	-13546
▁Rec	-13547
▁갈래	-13548
▁매개	-13549
▁증후군	-13550
▁상원	-13551
▁피츠	-13552
▁와이드	-13553
▁아지트	-13554
▁진군	-13555
▁플레이트	-13556
▁낙원	-13557
▁단다	-13558
▁진흥	-13559
▁크림슨	-13560
▁화랑	-13561
더스트	-13562
아티아	-13563
▁146	-13564
▁크로아티아	-13565
▁Hy	-13566
▁방대	-13567
▁휴전	-13568
▁스케치	-13569
▁교감	-13570
▁성채	-13571
▁제각	-13572
▁서태지	-13573
IGHT	-13574
▁상류	-13575
▁자문	-13576
▁차남	-13577
▁오디	-13578
▁유배	-13579
▁증원	-13580
▁스펙터	-13581
▁재혼	-13582
▁저희	-13583
eath	-13584
교육	-13585
▁고모	-13586
▁행각	-13587
▁클립	-13588
▁익스프레스	-13589
▁Big	-13590
▁대담	-13591
▁태세	-13592
▁스트레이트	-13593
모니	-13594
▁노스케	-13595
버거	-13596
▁고원	-13597
▁연안	-13598
▁가솔린	-13599
▁아유미	-13600
▁싱어	-13601
▁피니시	-13602
▁org	-13603
▁세레나	-13604
▁Heav	-13605
▁뿌요	-13606
▁일직	-13607
▁회자	-13608
▁무찌	-13609
▁1600	-13610
르드	-13611
▁서면	-13612
날두	-13613
▁과부	-13614
▁극찬	-13615
▁우이	-13616
▁RAM	-13617
▁미라클	-13618
▁인프라	-13619
▁유교	-13620
▁정종	-13621
▁호날두	-13622
▁타협	-13623
▁티저	-13624
▁news	-13625
수수	-13626
▁결별	-13627
▁커리	-13628
▁Des	-13629
여행	-13630
▁222	-13631
▁1954	-13632
▁맥시	-13633
▁조류	-13634
▁명장면	-13635
▁등산	-13636
▁친근	-13637
▁GK	-13638
▁위생	-13639
▁천도	-13640
▁득실	-13641
▁박준	-13642
▁배분	-13643
▁북극	-13644
▁아킬	-13645
▁주성	-13646
▁키사라기	-13647
린스	-13648
▁지름	-13649
▁거니와	-13650
▁체이스	-13651
▁부록	-13652
방사기	-13653
▁화염방사기	-13654
▁럼블	-13655
▁페르난	-13656
▁like	-13657
▁랫	-13658
asy	-13659
▁온화	-13660
포스	-13661
▁대잠	-13662
▁전투복	-13663
▁츠바키	-13664
▁Battle	-13665
▁한국군	-13666
▁옌	-13667
피온	-13668
▁공자	-13669
▁다정	-13670
캐스트	-13671
▁스탠딩	-13672
▁트리오	-13673
▁스킵	-13674
▁호우	-13675
▁204	-13676
▁구미호	-13677
▁동유럽	-13678
▁좆	-13679
▁박병	-13680
▁하코	-13681
▁166	-13682
▁노마	-13683
▁명왕	-13684
▁캐롤	-13685
고쿠	-13686
▁Mod	-13687
▁구치	-13688
르슈	-13689
▁구세	-13690
▁마토	-13691
▁헤지	-13692
▁가왕	-13693
▁동거	-13694
▁자위	-13695
▁들려오	-13696
▁부추기	-13697
▁스루	-13698
▁웨일	-13699
▁일부분	-13700
▁차관	-13701
ny	-13702
▁영락	-13703
▁1958	-13704
▁상정	-13705
▁칼럼	-13706
▁클락	-13707
타리	-13708
▁손수	-13709
방식	-13710
▁ㅋㅋ	-13711
▁향기	-13712
▁정의당	-13713
▁인피니트	-13714
ven	-13715
▁SV	-13716
▁Che	-13717
▁미도	-13718
▁밸리	-13719
▁변종	-13720
▁로테이션	-13721
OK	-13722
틱스	-13723
▁두텁	-13724
▁반갑	-13725
▁간편	-13726
▁특출	-13727
▁탤	-13728
ORM	-13729
▁누마	-13730
▁원어	-13731
▁시오리	-13732
▁태블릿	-13733
티넘	-13734
▁트림	-13735
▁플래티넘	-13736
▁협약	-13737
벨트	-13738
▁fl	-13739
▁호노카	-13740
권자	-13741
▁대입	-13742
▁승하	-13743
▁난투	-13744
▁아이리스	-13745
내기	-13746
▁기복	-13747
▁무찌르	-13748
각시	-13749
▁동포	-13750
▁전산	-13751
저트	-13752
▁부두	-13753
▁일선	-13754
▁DB	-13755
▁인즈	-13756
▁동맹군	-13757
▁대파	-13758
▁수전	-13759
▁마그마	-13760
모사	-13761
▁라트	-13762
▁유감	-13763
▁철벽	-13764
▁ㄴ다면서	-13765
겨지	-13766
▁진과	-13767
▁연기자	-13768
▁웬리	-13769
▁이창	-13770
▁진흙	-13771
▁병영	-13772
▁참패	-13773
▁수뇌	-13774
▁소중히	-13775
사의	-13776
arm	-13777
▁범주	-13778
▁올라서	-13779
▁레트	-13780
파니	-13781
▁선체	-13782
▁한가	-13783
▁절묘	-13784
▁대각선	-13785
▁소음기	-13786
▁잽	-13787
▁베른	-13788
▁짝퉁	-13789
▁알프레	-13790
▁하반신	-13791
무스	-13792
▁SSR	-13793
▁사생활	-13794
▁갑판	-13795
▁뒤틀리	-13796
ALL	-13797
▁자의	-13798
ouse	-13799
▁엠블렘	-13800
▁퍼시픽	-13801
▁1948	-13802
▁마테	-13803
▁유추	-13804
▁제네시스	-13805
▁다라	-13806
▁넘쳐나	-13807
▁치타	-13808
▁서부터	-13809
따르	-13810
이팅	-13811
▁매칭	-13812
▁정신기	-13813
코프	-13814
바퀴	-13815
▁안도	-13816
▁운임	-13817
▁일진	-13818
▁아이젠	-13819
▁플라잉	-13820
▁활주로	-13821
▁ㅎ	-13822
▁쩌	-13823
▁프라이즈	-13824
렉트	-13825
▁바실	-13826
▁사오	-13827
▁선천	-13828
▁엘리스	-13829
해군	-13830
▁쇼군	-13831
▁8000	-13832
토록	-13833
▁잔재	-13834
▁주방	-13835
▁KD	-13836
▁영리	-13837
▁사단장	-13838
▁코요미	-13839
▁츳	-13840
▁발트	-13841
▁육식	-13842
▁평창	-13843
▁남아공	-13844
▁종자	-13845
▁즐거	-13846
▁외환	-13847
▁용품	-13848
▁무어	-13849
▁회복력	-13850
▁대강	-13851
▁책임자	-13852
▁매복	-13853
▁액트	-13854
▁총대	-13855
▁뛰어다니	-13856
▁욕먹	-13857
▁직계	-13858
▁청동	-13859
▁터무니	-13860
ru	-13861
▁프레디	-13862
▁석화	-13863
▁예리	-13864
▁차마	-13865
▁카멜	-13866
▁걸어오	-13867
▁마운드	-13868
▁1949	-13869
▁쌩	-13870
▁세이부	-13871
▁카트리	-13872
▁귀중	-13873
▁금전	-13874
▁하임	-13875
▁사위	-13876
곡동	-13877
▁동급생	-13878
▁불가리아	-13879
▁기만	-13880
영수	-13881
▁런닝맨	-13882
이인	-13883
회장	-13884
드래	-13885
▁부과	-13886
▁에노	-13887
▁평안	-13888
▁목요일	-13889
혁명	-13890
▁엠파이어	-13891
▁안중	-13892
▁Sing	-13893
러기	-13894
▁끊이	-13895
▁위조	-13896
▁운전자	-13897
▁프렌즈	-13898
데르	-13899
▁슬쩍	-13900
▁다나카	-13901
▁불가사의	-13902
▁가메	-13903
▁박진	-13904
▁태수	-13905
▁but	-13906
▁~'	-13907
▁토론토	-13908
▁현행	-13909
▁치히로	-13910
▁구애	-13911
▁선하	-13912
▁예하	-13913
▁음양	-13914
▁유승	-13915
▁표창	-13916
▁탈것	-13917
▁는데도	-13918
▁리포트	-13919
▁화장품	-13920
▁로로	-13921
▁사츠키	-13922
칼리버	-13923
▁BBC	-13924
▁아종	-13925
▁수비진	-13926
▁하야테	-13927
링크	-13928
▁생몰	-13929
▁조슈	-13930
▁하쿠	-13931
▁푸른	-13932
▁공중전	-13933
▁미토	-13934
▁박차	-13935
▁노선도	-13936
▁충실히	-13937
▁동명이인	-13938
▁탄두	-13939
▁외야	-13940
▁제네레이션	-13941
▁과다	-13942
▁멸자	-13943
▁오클	-13944
▁제보	-13945
▁지중	-13946
▁벽돌	-13947
▁특이점	-13948
자루	-13949
▁저력	-13950
▁템플러	-13951
▁독도	-13952
▁루즈	-13953
ina	-13954
▁Edition	-13955
▁눌	-13956
▁마호	-13957
▁배척	-13958
▁여도	-13959
▁친밀	-13960
ount	-13961
ari	-13962
▁카바	-13963
▁고스란히	-13964
▁양동	-13965
▁빅토리	-13966
실히	-13967
▁스몰	-13968
▁이문	-13969
모자	-13970
▁막론	-13971
▁비올	-13972
▁향수	-13973
▁NG	-13974
▁덫	-13975
▁문의	-13976
▁보답	-13977
▁석궁	-13978
▁성원	-13979
▁알몸	-13980
▁신촌	-13981
▁목표물	-13982
▁콘테	-13983
▁체구	-13984
▁1900	-13985
▁소감	-13986
▁if	-13987
ivers	-13988
▁가산	-13989
▁경부선	-13990
▁교육청	-13991
▁떨어트리	-13992
▁하루히	-13993
▁기염	-13994
▁340	-13995
▁방어선	-13996
▁모방	-13997
▁여진	-13998
▁칸나	-13999
▁경전차	-14000
▁부딪치	-14001
▁품종	-14002
마사	-14003
▁XC	-14004
▁안나	-14005
▁맏	-14006
공격	-14007
▁베끼	-14008
▁퇴근	-14009
▁노조미	-14010
cl	-14011
▁이따	-14012
▁젤다	-14013
▁실험실	-14014
▁토와	-14015
▁길들이	-14016
▁Song	-14017
▁know	-14018
지대	-14019
투아	-14020
▁리언	-14021
▁부합	-14022
▁체조	-14023
▁폭군	-14024
▁거제	-14025
▁히이	-14026
▁민족주의	-14027
▁때때로	-14028
▁뮤즈	-14029
▁신한은행	-14030
▁쥴	-14031
▁방랑	-14032
▁재해	-14033
▁점포	-14034
▁키치	-14035
▁군단장	-14036
▁황족	-14037
▁중공업	-14038
▁설레	-14039
▁우아	-14040
▁잔디	-14041
▁드럼매니아	-14042
▁라운	-14043
▁짱구	-14044
고생	-14045
▁왕녀	-14046
▁알코올	-14047
지물	-14048
▁악질	-14049
▁거슬리	-14050
▁발산	-14051
▁스스	-14052
▁월터	-14053
▁공약	-14054
▁포이	-14055
▁프랑스군	-14056
▁선방	-14057
▁CEO	-14058
▁아그	-14059
▁천체	-14060
▁초전	-14061
▁WAR	-14062
▁사쿠야	-14063
▁안철수	-14064
▁이지스	-14065
▁프라이드	-14066
▁성공회	-14067
▁소피아	-14068
▁되돌아오	-14069
나들	-14070
▁은가	-14071
▁행군	-14072
▁데이브	-14073
천동	-14074
▁카야	-14075
▁RAW	-14076
기업	-14077
덱스	-14078
▁im	-14079
▁머독	-14080
▁정자	-14081
▁뿜어내	-14082
▁보태	-14083
▁Run	-14084
▁But	-14085
▁를르슈	-14086
▁태고	-14087
▁하이브	-14088
use	-14089
▁성문	-14090
▁엘런	-14091
▁카운티	-14092
▁정몽	-14093
▁지난	-14094
ters	-14095
▁국민당	-14096
▁나리타	-14097
▁란트	-14098
▁신령	-14099
▁디스코	-14100
▁방정식	-14101
▁패거리	-14102
▁피라미드	-14103
HN	-14104
▁국수	-14105
▁도메	-14106
▁원년	-14107
▁코일	-14108
▁레이브	-14109
▁Magic	-14110
피어	-14111
▁서문	-14112
▁반자동	-14113
▁관용	-14114
▁랄프	-14115
▁섹터	-14116
▁경찰관	-14117
▁마키나	-14118
▁올리버	-14119
▁사역	-14120
▁든든	-14121
▁휘둘	-14122
▁삼국사기	-14123
▁경시	-14124
▁원사	-14125
▁침체	-14126
▁HOT	-14127
▁AMD	-14128
▁로스터	-14129
스기	-14130
▁'-	-14131
▁선역	-14132
▁토의	-14133
▁민병대	-14134
▁암흑기	-14135
▁송파	-14136
▁츠치	-14137
▁090	-14138
▁료코	-14139
▁정대	-14140
답시고	-14141
▁칼질	-14142
ars	-14143
▁시빌	-14144
▁쟁탈	-14145
▁치토	-14146
▁위저드	-14147
▁프리드	-14148
스톤	-14149
▁송곳	-14150
▁슬래	-14151
▁333	-14152
▁Ab	-14153
▁경위	-14154
▁명실	-14155
▁번거	-14156
▁순순	-14157
ke	-14158
규어	-14159
▁헌병	-14160
▁터프	-14161
▁720	-14162
▁심플	-14163
▁치밀	-14164
▁에밀리	-14165
▁선글라스	-14166
▁SNK	-14167
▁거듭나	-14168
▁꼭두각시	-14169
고루	-14170
르바	-14171
매매	-14172
OUR	-14173
erm	-14174
▁만악	-14175
▁조율	-14176
▁펜스	-14177
▁허다	-14178
▁에러	-14179
▁원동	-14180
XT	-14181
바키아	-14182
▁인스	-14183
▁인신	-14184
▁고려대	-14185
▁홈구장	-14186
▁뒤바	-14187
▁로만	-14188
▁수아	-14189
▁득표수	-14190
▁바운드	-14191
▁덤벼	-14192
▁차크라	-14193
사람	-14194
▁RS	-14195
▁아르메	-14196
▁올라타	-14197
▁오컬	-14198
▁day	-14199
su	-14200
▁시한	-14201
▁아델	-14202
▁가까스로	-14203
▁좀비	-14204
▁칠흑	-14205
▁카터	-14206
▁요르	-14207
▁전과	-14208
디우스	-14209
리케이션	-14210
▁벌어들이	-14211
▁이라든지	-14212
탕스	-14213
▁탐욕	-14214
▁며느리	-14215
▁아츠시	-14216
▁레지스탕스	-14217
블루	-14218
LD	-14219
▁문성	-14220
▁비룡	-14221
▁소주	-14222
▁PVP	-14223
▁진에어	-14224
단체	-14225
▁에티	-14226
▁오스카	-14227
위치	-14228
▁동물원	-14229
▁명령어	-14230
AA	-14231
▁울부	-14232
▁사업자	-14233
나시	-14234
▁영조	-14235
▁여명	-14236
▁얌전	-14237
▁단번에	-14238
▁압살	-14239
▁체내	-14240
레오	-14241
하하	-14242
▁비운	-14243
▁야채	-14244
▁악보	-14245
그러지	-14246
▁알파벳	-14247
▁수레	-14248
▁프랭	-14249
▁명품	-14250
▁성추	-14251
▁시프	-14252
▁드래그	-14253
▁네메	-14254
▁초당	-14255
▁희생양	-14256
▁KC	-14257
▁격노	-14258
▁Not	-14259
▁Tri	-14260
▁바람직	-14261
▁마취	-14262
▁스완	-14263
▁음란	-14264
▁첩보	-14265
▁승천	-14266
▁터리	-14267
▁퍼트	-14268
▁루카스	-14269
▁격변	-14270
▁실천	-14271
▁추첨	-14272
▁GAM	-14273
ecial	-14274
▁슐	-14275
▁탈탈	-14276
▁더스트	-14277
▁가호	-14278
▁정동	-14279
▁순순히	-14280
▁비즈니스	-14281
▁래쉬	-14282
▁브란	-14283
▁역설	-14284
▁네기	-14285
▁짤막	-14286
▁드레이크	-14287
▁Grand	-14288
연합	-14289
▁소이	-14290
▁오드	-14291
▁호라이	-14292
EME	-14293
주군	-14294
▁마티	-14295
▁수족	-14296
▁Boy	-14297
▁스폰지	-14298
▁수분	-14299
▁옴니	-14300
▁임창	-14301
▁단단히	-14302
▁결장	-14303
▁야구단	-14304
▁오우거	-14305
▁코팅	-14306
▁통학	-14307
▁화판	-14308
▁농촌	-14309
▁슬러	-14310
▁그토록	-14311
▁수법	-14312
▁오컬트	-14313
▁리바운드	-14314
▁비평	-14315
▁츳코	-14316
▁바이퍼	-14317
▁볼일	-14318
▁시애	-14319
▁대법원	-14320
▁재규어	-14321
▁슬라이딩	-14322
▁픽업	-14323
▁양방향	-14324
▁증가량	-14325
▁1959	-14326
▁PO	-14327
▁뒤이	-14328
▁평정	-14329
▁쌈	-14330
▁현질	-14331
▁애시당초	-14332
▁고갈	-14333
▁빌헬	-14334
▁일개	-14335
▁거주지	-14336
▁서유럽	-14337
형제	-14338
▁TF	-14339
▁조나	-14340
세우스	-14341
ship	-14342
▁개인전	-14343
▁디셉	-14344
▁불운	-14345
오피스	-14346
▁성폭행	-14347
▁아르메니아	-14348
}}	-14349
▁김인	-14350
▁입성	-14351
▁해임	-14352
▁아득	-14353
▁장녀	-14354
▁도마뱀	-14355
▁훈련소	-14356
투르	-14357
ift	-14358
▁김희	-14359
▁체이서	-14360
▁이탈리아어	-14361
▁창의	-14362
▁God	-14363
▁상대편	-14364
▁온전히	-14365
▁'~	-14366
▁푸쉬	-14367
▁1955	-14368
▁Baby	-14369
▁김혜	-14370
레일리아	-14371
▁Dragon	-14372
▁일갈	-14373
▁케르	-14374
▁화룡	-14375
노트	-14376
소니	-14377
나가와	-14378
▁비행선	-14379
UL	-14380
▁광양	-14381
▁어휘	-14382
▁앞마당	-14383
▁젯	-14384
rop	-14385
▁광화	-14386
▁업종	-14387
▁청장	-14388
ana	-14389
▁백지	-14390
라비아	-14391
▁울부짖	-14392
▁좀처럼	-14393
▁뾰족	-14394
▁총사령관	-14395
메리카	-14396
▁눕히	-14397
▁다이너	-14398
▁중얼거리	-14399
▁찾아다니	-14400
▁구자	-14401
▁부러	-14402
▁시애틀	-14403
유기	-14404
▁무심	-14405
▁노어	-14406
▁지침	-14407
▁이어폰	-14408
▁무궁화호	-14409
▁MAN	-14410
▁페루	-14411
▁다이브	-14412
▁릉	-14413
둘기	-14414
립스	-14415
▁서진	-14416
▁쇼타	-14417
▁억양	-14418
▁NAS	-14419
▁가와	-14420
▁강급	-14421
▁건립	-14422
▁POP	-14423
▁전반전	-14424
▁전염병	-14425
▁토리코	-14426
▁아날	-14427
▁추기	-14428
▁151	-14429
▁미카엘	-14430
▁수요일	-14431
▁페이커	-14432
▁뚱뚱	-14433
▁양파	-14434
▁불허	-14435
▁랍시고	-14436
▁일평균	-14437
▁Beat	-14438
ys	-14439
▁OM	-14440
▁ab	-14441
▁짓밟	-14442
▁크러	-14443
▁남용	-14444
▁난쟁이	-14445
▁경희	-14446
▁주임	-14447
▁게르만	-14448
벅지	-14449
▁니즈	-14450
▁장단	-14451
▁탄수	-14452
▁포화	-14453
▁1956	-14454
베다	-14455
▁염동	-14456
▁둔화	-14457
▁들려주	-14458
▁마사토	-14459
45	-14460
elf	-14461
▁버디	-14462
▁산산	-14463
▁Spr	-14464
▁오리콘	-14465
▁앞쪽	-14466
▁전고	-14467
omb	-14468
▁송구	-14469
▁아랍어	-14470
▁밀접	-14471
▁초계	-14472
▁야요이	-14473
▁악장	-14474
▁졸업식	-14475
슬쩍	-14476
▁이바	-14477
▁학업	-14478
▁화질	-14479
▁괴이	-14480
▁키쿠	-14481
▁페라리	-14482
▁아틀라스	-14483
▁남짓	-14484
▁도보	-14485
▁파열	-14486
▁블라디미르	-14487
빠르	-14488
▁릭스	-14489
▁NAT	-14490
▁바사라	-14491
▁챌린저	-14492
▁후려치	-14493
▁성품	-14494
▁휘둘리	-14495
▁교직	-14496
▁식인	-14497
▁제복	-14498
▁에어컨	-14499
▁디트로	-14500
▁트레인	-14501
▁디트로이트	-14502
장구	-14503
▁RO	-14504
▁관습	-14505
리아스	-14506
▁김준호	-14507
▁다이렉트	-14508
▁쌍용	-14509
ally	-14510
니지	-14511
▁죠셉	-14512
▁여정	-14513
▁정은	-14514
▁169	-14515
▁연성	-14516
▁루드	-14517
▁001	-14518
▁부화	-14519
▁푸드	-14520
▁건너편	-14521
▁클라우	-14522
▁Es	-14523
▁메라	-14524
▁투항	-14525
▁필적	-14526
▁선도	-14527
▁당분간	-14528
▁이유로	-14529
ren	-14530
▁GL	-14531
▁덩달	-14532
▁란다	-14533
▁전태	-14534
▁카츠키	-14535
리아나	-14536
▁포커	-14537
▁간식	-14538
▁세무	-14539
▁수납	-14540
▁항쟁	-14541
▁활약상	-14542
▁케네	-14543
▁풋볼	-14544
olog	-14545
▁김태균	-14546
▁Cont	-14547
▁ㄴ데다가	-14548
▁광학	-14549
▁침식	-14550
▁불분	-14551
▁사벨	-14552
▁전갈	-14553
▁제품군	-14554
데라	-14555
▁Lo	-14556
IF	-14557
▁미셸	-14558
▁자판기	-14559
▁임상	-14560
▁시프트	-14561
▁박주	-14562
▁어우	-14563
▁럽	-14564
병기	-14565
▁레닌	-14566
▁수박	-14567
변속기	-14568
히트	-14569
▁정적	-14570
▁토토	-14571
▁음식점	-14572
▁야마자키	-14573
▁Bar	-14574
▁방금	-14575
영웅	-14576
▁보구	-14577
▁피버	-14578
▁과하	-14579
▁선교	-14580
▁사면	-14581
▁수배	-14582
▁외장	-14583
▁체로	-14584
▁들여오	-14585
▁포터블	-14586
▁토코	-14587
▁마공	-14588
▁지기	-14589
▁쿠도	-14590
▁블리치	-14591
▁IF	-14592
포로	-14593
▁흉터	-14594
▁빅토르	-14595
▁수뇌부	-14596
▁정세	-14597
▁허위	-14598
▁불분명	-14599
▁저음	-14600
▁중견수	-14601
▁폐하	-14602
▁필기	-14603
▁악인	-14604
▁알루미	-14605
▁일직선	-14606
▁qu	-14607
▁프라모델	-14608
▁야인	-14609
▁주스	-14610
▁중대장	-14611
호도	-14612
▁츠네	-14613
▁집중력	-14614
▁로사	-14615
▁백병	-14616
▁오일	-14617
ited	-14618
▁WOR	-14619
▁아르테	-14620
▁오스트레일리아	-14621
▁말살	-14622
▁충동	-14623
▁라이덴	-14624
▁맨날	-14625
▁밀러	-14626
▁양현	-14627
▁지갑	-14628
▁Inf	-14629
▁무언가	-14630
▁하나님	-14631
▁박스오피스	-14632
모트	-14633
III	-14634
▁꾀하	-14635
▁다트	-14636
▁몬테	-14637
▁차출	-14638
▁예비역	-14639
▁잘생기	-14640
▁경이	-14641
▁볼리	-14642
▁열렬	-14643
▁유부	-14644
그래	-14645
▁소피	-14646
입구역	-14647
▁발전기	-14648
혀가	-14649
HD	-14650
부시	-14651
▁루이지	-14652
▁잡혀가	-14653
▁나루호도	-14654
▁스콜피온	-14655
▁아쉬워하	-14656
▁Gaming	-14657
▁다마	-14658
▁삽입곡	-14659
▁카즈마	-14660
▁권역	-14661
해야	-14662
▁행세	-14663
▁사다리	-14664
▁DA	-14665
▁희박	-14666
▁빽	-14667
▁XBO	-14668
▁그물	-14669
▁소량	-14670
▁요건	-14671
▁즉석	-14672
▁VIP	-14673
▁스트리밍	-14674
▁렴	-14675
▁폿	-14676
짜기	-14677
▁로니	-14678
▁사설	-14679
▁엇갈리	-14680
▁하르트	-14681
▁코리	-14682
▁파탄	-14683
▁world	-14684
▁글리	-14685
▁피드백	-14686
마트	-14687
▁셔츠	-14688
▁강호동	-14689
▁메두사	-14690
▁재미없	-14691
▁000000	-14692
▁이데	-14693
▁특권	-14694
▁사납	-14695
▁접시	-14696
▁310	-14697
▁PvP	-14698
▁수영장	-14699
▁중화기	-14700
▁Angel	-14701
▁복부	-14702
▁형벌	-14703
▁진나라	-14704
▁With	-14705
▁마포	-14706
▁비늘	-14707
▁임용	-14708
▁진해	-14709
▁젓	-14710
▁금성	-14711
▁이시카와	-14712
▁외화	-14713
▁무모	-14714
▁악평	-14715
▁항로	-14716
▁리그베다	-14717
▁VR	-14718
appy	-14719
▁사우디아	-14720
미코	-14721
▁강연	-14722
▁미유	-14723
▁COM	-14724
▁마사무네	-14725
타기	-14726
▁나탈	-14727
▁배반	-14728
▁코로	-14729
▁충청북도	-14730
제리	-14731
▁경비원	-14732
▁자라나	-14733
row	-14734
▁봉하	-14735
▁부식	-14736
보잡	-14737
▁분화	-14738
▁붕대	-14739
▁컷인	-14740
▁폐인	-14741
▁환장	-14742
▁흥하	-14743
▁능동	-14744
▁신빙	-14745
▁자자	-14746
▁진성	-14747
▁후리	-14748
콜로	-14749
▁ER	-14750
▁기린	-14751
▁데스크	-14752
▁옵스	-14753
▁미나토	-14754
▁듣보잡	-14755
감치	-14756
▁시립	-14757
▁con	-14758
▁반짝이	-14759
▁프랑켄슈타인	-14760
▁협곡	-14761
그라드	-14762
찌감치	-14763
▁다크니스	-14764
로이	-14765
전함	-14766
▁총재	-14767
▁낙하산	-14768
▁플리트	-14769
▁또래	-14770
▁해커	-14771
▁최우선	-14772
▁중산	-14773
▁FBI	-14774
▁아라시	-14775
▁마코	-14776
▁손책	-14777
▁철회	-14778
▁131	-14779
▁골고루	-14780
▁러시아군	-14781
▁ㅂ시다	-14782
▁클라라	-14783
▁짊	-14784
▁FE	-14785
▁가쿠	-14786
▁구라	-14787
▁만회	-14788
▁항속	-14789
▁호위함	-14790
▁동남아	-14791
▁명은	-14792
▁슬립	-14793
▁임재	-14794
▁잠복	-14795
▁하얀	-14796
▁면은	-14797
▁어로	-14798
▁법정동	-14799
만다	-14800
▁몸집	-14801
▁관광지	-14802
▁청취	-14803
▁기생충	-14804
▁밸브	-14805
▁쇼우	-14806
▁조공	-14807
▁CIA	-14808
▁micro	-14809
▁="	-14810
▁암기	-14811
ious	-14812
▁사카이	-14813
▁비욘	-14814
▁She	-14815
▁알루미늄	-14816
ful	-14817
▁뒤쳐지	-14818
atic	-14819
▁피콜로	-14820
▁대도	-14821
▁안테나	-14822
▁일기토	-14823
▁1939	-14824
▁스테이트	-14825
드리히	-14826
▁Ste	-14827
▁베르크	-14828
▁위인	-14829
▁아픔	-14830
▁힘쓰	-14831
▁TW	-14832
▁빌라	-14833
▁이관	-14834
▁쿠폰	-14835
▁내려지	-14836
▁윳	-14837
▁RX	-14838
▁영국인	-14839
▁재사	-14840
▁달걀	-14841
▁선상	-14842
▁카이지	-14843
▁쏠리	-14844
▁연호	-14845
▁255	-14846
▁햄버거	-14847
▁슴	-14848
일기	-14849
▁카에데	-14850
▁자유주의	-14851
▁나시	-14852
▁복권	-14853
▁성령	-14854
▁내레이션	-14855
▁NFL	-14856
그레	-14857
▁오바마	-14858
전쟁	-14859
▁매지컬	-14860
▁무리수	-14861
▁마스터즈	-14862
▁NCR	-14863
▁오토봇	-14864
MC	-14865
부수	-14866
▁지자체	-14867
▁STAR	-14868
▁노획	-14869
▁이클	-14870
▁장막	-14871
▁계승자	-14872
▁브래드	-14873
▁1952	-14874
▁티타	-14875
▁레그	-14876
▁오자	-14877
▁증인	-14878
▁White	-14879
▁헬로	-14880
▁토요타	-14881
▁플레인	-14882
▁한니발	-14883
민수	-14884
aut	-14885
▁쿠토	-14886
▁사과문	-14887
리히	-14888
▁여당	-14889
▁임프	-14890
▁재상	-14891
▁햇빛	-14892
▁긴장감	-14893
▁티셔츠	-14894
오버	-14895
▁성시	-14896
▁느냐고	-14897
▁쿠루미	-14898
사포	-14899
시장	-14900
▁치과	-14901
▁카라스	-14902
▁둔기	-14903
▁묵직	-14904
▁청원	-14905
▁미식축구	-14906
영향	-14907
▁척하	-14908
▁토사	-14909
델피아	-14910
▁강남구	-14911
▁원로원	-14912
▁필라델피아	-14913
▁노원	-14914
▁류우	-14915
▁몸체	-14916
▁장학금	-14917
TREME	-14918
세이더	-14919
▁기아스	-14920
▁스튜어트	-14921
▁크루세이더	-14922
▁비틀즈	-14923
▁세실	-14924
▁해프	-14925
▁억압	-14926
▁컬트	-14927
▁한성	-14928
어내리	-14929
▁미시마	-14930
▁재주	-14931
▁라다	-14932
▁소모품	-14933
▁콜롬비아	-14934
day	-14935
▁망원	-14936
▁호스트	-14937
▁포진	-14938
▁데이빗	-14939
▁프리드리히	-14940
▁인플레	-14941
▁대의	-14942
▁코스타	-14943
▁환불	-14944
▁타츠미	-14945
▁블레	-14946
▁상병	-14947
▁시술	-14948
▁폰트	-14949
▁그래프	-14950
▁여행자	-14951
▁선공	-14952
▁구비	-14953
▁급상	-14954
▁서사	-14955
▁유다	-14956
▁호각	-14957
▁Sky	-14958
▁Pe	-14959
▁아론	-14960
▁세단	-14961
와르	-14962
▁개종	-14963
▁고뇌	-14964
▁농부	-14965
bl	-14966
세포	-14967
ara	-14968
▁눈썹	-14969
▁새턴	-14970
▁타카오	-14971
▁로젠	-14972
▁사생	-14973
▁최진	-14974
▁대관	-14975
▁베레	-14976
수엘라	-14977
▁골수	-14978
▁용왕	-14979
▁친화	-14980
▁420	-14981
아내리	-14982
▁나츠메	-14983
▁Project	-14984
▁FN	-14985
▁마개	-14986
▁정렬	-14987
▁후하	-14988
▁안토니오	-14989
▁캉	-14990
▁반납	-14991
▁샌디	-14992
▁커넥	-14993
▁850	-14994
▁본거지	-14995
▁길목	-14996
이즈미	-14997
▁비둘기	-14998
▁파괴자	-14999
▁읊	-15000
INE	-15001
▁아벨	-15002
▁고안	-15003
▁꼼짝	-15004
▁조선소	-15005
리역	-15006
▁금하	-15007
▁낯설	-15008
▁사시	-15009
▁양도	-15010
맹이	-15011
▁DIO	-15012
▁겁쟁이	-15013
▁카나코	-15014
▁동산	-15015
▁사대	-15016
▁소프	-15017
▁앞장	-15018
▁모터스	-15019
▁슬래시	-15020
▁패트릭	-15021
▁이클립스	-15022
▁원상	-15023
▁진기	-15024
트리스	-15025
▁해결책	-15026
75	-15027
즐리	-15028
▁OO	-15029
▁해프닝	-15030
▁헤라클레스	-15031
▁가세	-15032
▁어르	-15033
▁플랜트	-15034
▁아날로그	-15035
▁EXTREME	-15036
▁경신	-15037
▁그딴	-15038
▁다나	-15039
▁응징	-15040
▁정인	-15041
큐버스	-15042
▁슬레이	-15043
▁브론즈	-15044
▁겸비	-15045
▁부기	-15046
▁철퇴	-15047
▁141	-15048
▁주부	-15049
▁도입부	-15050
▁자아내	-15051
▁중추	-15052
▁투타	-15053
▁신세기	-15054
▁오사무	-15055
나타	-15056
▁RR	-15057
▁부전	-15058
▁여느	-15059
넌트	-15060
윽고	-15061
▁그해	-15062
▁디에	-15063
▁리시	-15064
▁변함	-15065
▁이윽고	-15066
▁한결	-15067
▁치아키	-15068
▁레니	-15069
스코	-15070
▁셔먼	-15071
▁우대	-15072
▁환율	-15073
▁실탄	-15074
▁막아서	-15075
▁워페어	-15076
▁Just	-15077
▁타카히로	-15078
▁잠자	-15079
▁보성	-15080
▁스릴	-15081
▁자석	-15082
▁Get	-15083
▁니즘	-15084
▁정치력	-15085
갔다	-15086
▁바알	-15087
▁수도원	-15088
▁유수	-15089
레스타인	-15090
▁벌칙	-15091
장치	-15092
▁군중	-15093
▁여대	-15094
▁정설	-15095
▁Gun	-15096
치오	-15097
▁777	-15098
▁CCTV	-15099
▁카세	-15100
▁월등히	-15101
▁팩토리	-15102
▁권고	-15103
▁쓸쓸	-15104
▁저널	-15105
▁코만	-15106
▁신드	-15107
▁이우	-15108
▁정윤	-15109
▁PRO	-15110
▁대항해	-15111
▁앤더슨	-15112
▁로미	-15113
▁자가	-15114
▁리오스	-15115
▁크리스토퍼	-15116
▁꼬박	-15117
▁토카	-15118
▁축구단	-15119
▁티라노	-15120
▁납품	-15121
▁생리	-15122
▁붉은색	-15123
▁악영향	-15124
▁사일런트	-15125
▁마운틴	-15126
애미	-15127
ger	-15128
▁베네수엘라	-15129
▁노랑	-15130
▁유하	-15131
▁혼나	-15132
▁리조트	-15133
▁마이애미	-15134
▁선명	-15135
▁자대	-15136
▁허니	-15137
▁사우디아라비아	-15138
▁처방	-15139
reat	-15140
▁뫼비우스	-15141
준호	-15142
▁크류	-15143
▁레이카	-15144
▁레비	-15145
▁환원	-15146
▁로드리	-15147
▁정직	-15148
▁투기	-15149
▁평준	-15150
▁대지진	-15151
▁기공	-15152
▁초원	-15153
▁항성	-15154
▁후작	-15155
다카	-15156
▁백두	-15157
▁빈센트	-15158
▁사이킥	-15159
▁노사	-15160
▁한복	-15161
▁무당	-15162
▁우등	-15163
▁이화	-15164
▁정시	-15165
▁제후	-15166
▁신검	-15167
▁재래	-15168
▁현무	-15169
▁퀑	-15170
▁생계	-15171
▁겉모습	-15172
▁소대장	-15173
uch	-15174
▁감도	-15175
▁적정	-15176
▁제드	-15177
공주	-15178
▁앨리	-15179
전생	-15180
▁류지	-15181
▁허벅지	-15182
▁네로	-15183
▁바흐	-15184
▁시라이	-15185
▁냉혹	-15186
▁평지	-15187
▁함경	-15188
리카와	-15189
▁잿	-15190
무로	-15191
▁검기	-15192
드래곤	-15193
▁이의	-15194
▁라몬	-15195
▁요지	-15196
▁특출나	-15197
▁화요일	-15198
▁ㄴ답시고	-15199
타자	-15200
▁우크	-15201
▁코미디언	-15202
▁개리	-15203
▁공채	-15204
▁벤츠	-15205
▁그러다가	-15206
▁사력	-15207
▁조현	-15208
▁갈고리	-15209
▁디럭스	-15210
▁야가미	-15211
▁Game	-15212
▁우크라이나	-15213
▁중론	-15214
니치	-15215
▁선비	-15216
▁나뭇잎	-15217
▁LS	-15218
▁미약	-15219
▁520	-15220
▁악세사리	-15221
리즘	-15222
▁최적화	-15223
▁재무	-15224
ric	-15225
▁가늠	-15226
▁반달	-15227
▁총구	-15228
▁절감	-15229
▁케네디	-15230
▁크로스오버	-15231
암동	-15232
일관	-15233
▁카이바	-15234
▁나크	-15235
▁열광	-15236
▁위즈	-15237
▁절약	-15238
▁죄인	-15239
▁자민	-15240
▁아스타	-15241
▁외침	-15242
▁타가	-15243
▁합당	-15244
▁뜬금없	-15245
▁우치하	-15246
▁클로버	-15247
▁Back	-15248
▁석방	-15249
▁엽기	-15250
▁정경	-15251
▁Side	-15252
툴루	-15253
▁전우	-15254
▁조니	-15255
▁레이크	-15256
▁초급	-15257
▁짊어지	-15258
▁꼬시	-15259
▁레코	-15260
▁미처	-15261
▁지중해	-15262
▁대장장이	-15263
▁박기	-15264
▁알맞	-15265
하임	-15266
▁근친	-15267
▁우동	-15268
▁연대기	-15269
▁팔레스타인	-15270
▁히지	-15271
▁기시	-15272
▁이북	-15273
▁편애	-15274
▁리액션	-15275
▁급여	-15276
▁480	-15277
▁다그	-15278
▁기병대	-15279
▁이를	-15280
▁결투장	-15281
▁골리앗	-15282
▁Last	-15283
▁구만	-15284
▁모티	-15285
▁비숍	-15286
▁off	-15287
▁back	-15288
▁크레이지	-15289
테면	-15290
▁벅스	-15291
▁피신	-15292
less	-15293
▁페가수스	-15294
▁텐션	-15295
▁제이드	-15296
▁동남아시아	-15297
▁간장	-15298
▁날라	-15299
▁통솔력	-15300
aka	-15301
▁쿼드	-15302
▁naver	-15303
▁잣	-15304
▁개칭	-15305
▁미달	-15306
▁순삭	-15307
▁이를테면	-15308
▁사죄	-15309
▁펠트	-15310
▁School	-15311
▁Ge	-15312
▁바루	-15313
▁일생	-15314
▁예술가	-15315
▁xx	-15316
▁승부차기	-15317
▁무서	-15318
▁좌완	-15319
▁화가	-15320
▁소탕	-15321
▁KS	-15322
▁심부	-15323
▁틈새	-15324
▁Ass	-15325
▁Zero	-15326
▁맞춤	-15327
▁셀렉	-15328
▁귤	-15329
▁춘추	-15330
▁피쳐	-15331
▁전황	-15332
▁토치	-15333
▁오토메	-15334
▁TECHN	-15335
▁고참	-15336
▁톡톡	-15337
▁스플릿	-15338
co	-15339
소통	-15340
펙터	-15341
푸스	-15342
▁가즈	-15343
▁서스	-15344
▁의사소통	-15345
관계	-15346
bsp	-15347
▁상고	-15348
▁초동	-15349
페스트	-15350
▁ATM	-15351
▁Sil	-15352
▁무네	-15353
▁전념	-15354
▁팬클럽	-15355
후미	-15356
▁남구	-15357
▁해밀	-15358
▁멧돼지	-15359
▁수혜	-15360
▁탈당	-15361
▁텝	-15362
▁라티	-15363
▁알비	-15364
▁경비병	-15365
▁전투원	-15366
▁디디	-15367
▁리벤	-15368
▁212	-15369
▁도널드	-15370
▁시부야	-15371
▁재빠르	-15372
▁추기경	-15373
▁승승	-15374
▁경호원	-15375
▁블리츠	-15376
▁빌헬름	-15377
▁사이퍼즈	-15378
▁멩	-15379
IME	-15380
▁송병구	-15381
▁하늘색	-15382
▁발렌시아	-15383
▁에프	-15384
▁캬	-15385
부리	-15386
▁강령	-15387
▁수당	-15388
▁학파	-15389
▁성추행	-15390
▁정명훈	-15391
▁생포	-15392
레인지	-15393
▁모치	-15394
베이스	-15395
▁Chr	-15396
▁급상승	-15397
이라	-15398
▁동독	-15399
▁심복	-15400
▁무난히	-15401
▁스타킹	-15402
▁nbsp	-15403
▁WE	-15404
▁광석	-15405
▁페로	-15406
▁명백히	-15407
▁디셉티콘	-15408
사전	-15409
▁세균	-15410
▁소름	-15411
▁티격	-15412
▁좌익수	-15413
▁경대	-15414
▁노프	-15415
▁장담	-15416
▁사루	-15417
▁우의	-15418
▁증차	-15419
▁한중	-15420
▁군벌	-15421
▁협공	-15422
▁써니	-15423
bo	-15424
▁룽	-15425
렁이	-15426
레즈	-15427
▁개화	-15428
▁290	-15429
▁검색어	-15430
▁두드리	-15431
▁결번	-15432
▁조로	-15433
▁합금	-15434
▁라파엘	-15435
라이언트	-15436
▁Amer	-15437
▁클라이언트	-15438
▁프레드	-15439
▁빈스	-15440
▁철자	-15441
▁통역	-15442
▁유상	-15443
투수	-15444
▁오승	-15445
▁소수자	-15446
▁켄시로	-15447
▁하시모토	-15448
▁조회	-15449
▁일자리	-15450
▁액수	-15451
▁전복	-15452
▁몰아치	-15453
▁Open	-15454
▁통근	-15455
▁전쟁터	-15456
팔로	-15457
에이터	-15458
▁중소기업	-15459
▁소아	-15460
▁삿포로	-15461
▁정준하	-15462
▁고요	-15463
▁뇌격	-15464
니컬	-15465
▁Di	-15466
▁자바	-15467
▁크툴루	-15468
▁선발투수	-15469
▁찜	-15470
▁가신	-15471
▁파나	-15472
코스터	-15473
▁너구리	-15474
▁저스틴	-15475
▁툭하면	-15476
▁불발	-15477
▁원성	-15478
▁절판	-15479
▁적어지	-15480
▁XBOX	-15481
▁족보	-15482
▁jp	-15483
▁편도	-15484
▁야나기	-15485
▁우와	-15486
▁웨딩	-15487
▁피그	-15488
▁어선	-15489
▁엄연	-15490
▁유원	-15491
▁베아	-15492
▁비견	-15493
▁사요	-15494
▁유세이	-15495
▁의류	-15496
▁질질	-15497
▁선제골	-15498
니르	-15499
▁강정	-15500
▁맹수	-15501
▁소림	-15502
자위대	-15503
▁미워하	-15504
▁사이비	-15505
▁음악가	-15506
▁프리퀄	-15507
▁롤러코스터	-15508
▁그렌	-15509
▁프레데터	-15510
▁보호자	-15511
▁브라우저	-15512
▁Blood	-15513
▁엑스칼리버	-15514
▁낭만	-15515
▁대구경	-15516
▁연주자	-15517
ORA	-15518
▁시커	-15519
▁1400	-15520
▁중순양함	-15521
▁야구부	-15522
▁타쿠야	-15523
▁Moon	-15524
▁극성	-15525
▁스턴트	-15526
UST	-15527
▁분과	-15528
▁주주	-15529
▁생산력	-15530
▁뛰어내리	-15531
▁배고	-15532
▁엘다	-15533
▁일파	-15534
▁화끈	-15535
▁일정량	-15536
▁쥬라기	-15537
▁급습	-15538
▁재사용	-15539
득점	-15540
▁TB	-15541
▁스커	-15542
▁에라	-15543
▁시미즈	-15544
▁탈주	-15545
▁휴지	-15546
▁는구나	-15547
▁성남시	-15548
▁껌	-15549
▁박태	-15550
▁효용	-15551
▁어쩌다	-15552
▁미니게임	-15553
▁촛	-15554
▁실감	-15555
▁절도	-15556
▁트와	-15557
▁회유	-15558
ely	-15559
▁사복	-15560
▁내려놓	-15561
▁에볼루션	-15562
▁일찌감치	-15563
▁매도	-15564
▁모선	-15565
▁인승	-15566
▁나오미	-15567
▁타라	-15568
▁하네	-15569
▁파이팅	-15570
▁데스노트	-15571
▁간첩	-15572
▁착공	-15573
▁APC	-15574
▁뺑	-15575
▁건의	-15576
▁투르	-15577
▁아사쿠라	-15578
▁밤중	-15579
▁엑셀	-15580
▁홍준	-15581
▁Soul	-15582
비슷	-15583
▁내년	-15584
▁문관	-15585
▁익명	-15586
▁험악	-15587
ideo	-15588
▁미완성	-15589
▁카미조	-15590
▁나카지마	-15591
▁신격	-15592
▁찬사	-15593
▁Final	-15594
▁멀린	-15595
▁소망	-15596
▁오아	-15597
▁아리사	-15598
▁냅다	-15599
▁버즈	-15600
▁석탄	-15601
▁margin	-15602
▁고분	-15603
▁명확히	-15604
▁태그팀	-15605
▁마즈	-15606
▁그제서야	-15607
▁승계	-15608
▁1953	-15609
▁기교	-15610
▁만년	-15611
▁기어이	-15612
▁지방도	-15613
▁성동	-15614
▁박병호	-15615
▁비화	-15616
▁Yes	-15617
▁변모	-15618
▁에너	-15619
▁경상도	-15620
▁공격대	-15621
▁7000	-15622
▁치요	-15623
▁Art	-15624
▁마사히로	-15625
ma	-15626
▁구식	-15627
▁웬디	-15628
▁BMW	-15629
▁교육부	-15630
▁미용	-15631
▁흉기	-15632
▁테슬라	-15633
▁페미니즘	-15634
▁모건	-15635
▁방망	-15636
▁사상자	-15637
▁수송기	-15638
▁플로리	-15639
▁쌍검	-15640
▁거미줄	-15641
ning	-15642
▁개전	-15643
▁남산	-15644
▁졸리	-15645
▁착취	-15646
▁둘째치	-15647
▁분당선	-15648
▁불가피	-15649
DER	-15650
▁재일	-15651
▁김구라	-15652
▁내려찍	-15653
▁반대쪽	-15654
▁트리니티	-15655
▁부끄	-15656
▁무방비	-15657
▁빨아들이	-15658
▁공시	-15659
▁크라이시스	-15660
▁스쿠	-15661
▁요요	-15662
▁헤이세이	-15663
▁선후	-15664
▁이치카	-15665
▁지체	-15666
▁체하	-15667
▁케니	-15668
▁래리	-15669
▁유세	-15670
▁피노	-15671
▁부회장	-15672
▁애틀	-15673
▁방어전	-15674
▁가야	-15675
▁오현	-15676
▁미술관	-15677
▁배달부	-15678
▁유이치	-15679
▁크로노스	-15680
▁어시	-15681
▁헤딩	-15682
▁짓거리	-15683
HC	-15684
파치	-15685
▁망각	-15686
▁Mix	-15687
85	-15688
▁쭈	-15689
▁호라이즌	-15690
▁제이스	-15691
▁시종일관	-15692
▁도가	-15693
▁마늘	-15694
▁미움	-15695
▁로켓단	-15696
▁선발전	-15697
가키	-15698
▁Du	-15699
▁수제	-15700
▁천진	-15701
▁Met	-15702
▁Top	-15703
정동	-15704
ward	-15705
▁해설자	-15706
사노	-15707
IKA	-15708
▁리노	-15709
대왕	-15710
▁pt	-15711
▁수년	-15712
▁내용물	-15713
▁후지와라	-15714
32	-15715
▁ㄴ대	-15716
▁서남	-15717
▁어정	-15718
▁유민	-15719
▁히데키	-15720
▁네메시스	-15721
▁아키야마	-15722
▁면도	-15723
▁미우	-15724
▁쿠즈	-15725
stem	-15726
▁MiG	-15727
▁1947	-15728
▁미스테리	-15729
▁허약	-15730
▁홍준표	-15731
▁손발	-15732
▁악연	-15733
일라잇	-15734
▁푸른색	-15735
▁블루투스	-15736
▁트와일라잇	-15737
월드	-15738
▁난장	-15739
▁시속	-15740
▁양평	-15741
▁폐업	-15742
▁레베카	-15743
▁뭉개	-15744
▁야자	-15745
▁쪽지	-15746
▁근육질	-15747
▁마로	-15748
▁아산	-15749
▁한족	-15750
▁끌어오	-15751
▁영화관	-15752
▁표준어	-15753
▁달랑	-15754
▁동국	-15755
▁무로	-15756
▁역마	-15757
▁참수	-15758
▁IMF	-15759
▁애틀랜	-15760
led	-15761
▁어진	-15762
▁완급	-15763
▁조영	-15764
▁브로드	-15765
▁이츠키	-15766
▁테드	-15767
▁매사	-15768
▁피겨	-15769
▁내리치	-15770
▁붙여지	-15771
▁대격	-15772
▁허술	-15773
▁페이퍼	-15774
▁여신전생	-15775
▁반쪽	-15776
to	-15777
폴트	-15778
▁신봉	-15779
▁출입구	-15780
▁하얀색	-15781
▁버니	-15782
▁최재	-15783
▁Eng	-15784
▁태권도	-15785
▁투표율	-15786
▁팔아먹	-15787
▁교제	-15788
▁이서	-15789
▁MIX	-15790
▁보리스	-15791
▁구판	-15792
▁문파	-15793
▁저축	-15794
뿌리	-15795
▁벼락	-15796
▁올인	-15797
▁장대	-15798
▁황자	-15799
▁way	-15800
▁프란츠	-15801
하니	-15802
ute	-15803
▁에이미	-15804
▁갱단	-15805
▁매입	-15806
▁천자	-15807
▁파치	-15808
▁TE	-15809
▁별거	-15810
▁액스	-15811
▁끊어지	-15812
▁호루스	-15813
▁쁘	-15814
▁메트	-15815
▁토템	-15816
▁희한	-15817
▁오보	-15818
▁적기	-15819
▁조세	-15820
욕장	-15821
ata	-15822
▁순항	-15823
▁학부모	-15824
▁ZZ	-15825
▁메츠	-15826
▁세속	-15827
▁위아	-15828
▁타사	-15829
블랜드	-15830
▁슈우	-15831
▁천왕	-15832
▁폴라	-15833
▁Off	-15834
▁시게루	-15835
사관학교	-15836
▁클리블랜드	-15837
▁CT	-15838
▁갈아입	-15839
▁밀리터리	-15840
▁바퀴벌레	-15841
아스	-15842
▁걷어	-15843
▁사냥터	-15844
▁Core	-15845
▁박세	-15846
▁수렴	-15847
▁이큐	-15848
ision	-15849
▁탬	-15850
드런	-15851
쩐지	-15852
▁te	-15853
▁독단	-15854
▁숙명	-15855
▁튀김	-15856
▁포톤	-15857
▁EXP	-15858
▁어쩐지	-15859
▁쿠사나기	-15860
린트	-15861
▁공적	-15862
▁린치	-15863
▁안식	-15864
지우	-15865
현동	-15866
▁새신	-15867
▁정액	-15868
▁형주	-15869
▁투석	-15870
▁사나다	-15871
▁1957	-15872
▁스타더스트	-15873
빠지	-15874
eah	-15875
ump	-15876
▁이산	-15877
▁충주	-15878
▁구스타	-15879
▁병합	-15880
▁영재	-15881
▁저질	-15882
▁RPM	-15883
▁로더	-15884
▁각본가	-15885
▁이끌리	-15886
▁식별	-15887
네트	-15888
▁치키	-15889
▁데이즈	-15890
▁에디터	-15891
▁큰일	-15892
▁영웅전설	-15893
▁신민	-15894
▁합산	-15895
▁정현	-15896
▁농어	-15897
▁맹장	-15898
▁원산	-15899
▁스미레	-15900
▁Track	-15901
▁^	-15902
▁은근슬쩍	-15903
눅스	-15904
▁비대	-15905
▁아사미	-15906
▁연구자	-15907
▁정제	-15908
▁개인차	-15909
▁급속도	-15910
▁자멸	-15911
▁카프	-15912
▁켓	-15913
▁다듬	-15914
▁진전	-15915
▁김종국	-15916
▁나카노	-15917
▁기껏해야	-15918
▁모라	-15919
GN	-15920
세움	-15921
▁는군	-15922
▁랑그	-15923
▁마고	-15924
괭이	-15925
▁긴토	-15926
▁수퍼	-15927
▁요금제	-15928
▁번번	-15929
▁사주	-15930
▁우여	-15931
▁문과	-15932
▁상체	-15933
비안	-15934
▁공전	-15935
▁환산	-15936
▁의뢰인	-15937
▁증강	-15938
▁우선시	-15939
▁카미야	-15940
▁조짐	-15941
▁파병	-15942
▁크레용	-15943
▁북서	-15944
▁요일	-15945
▁위태	-15946
▁토바	-15947
▁Ext	-15948
▁러블리	-15949
▁튜브	-15950
▁209	-15951
▁호르몬	-15952
악기	-15953
▁BP	-15954
▁링컨	-15955
▁방관	-15956
▁제국주의	-15957
▁홉	-15958
선스	-15959
▁계책	-15960
▁리제	-15961
▁린다	-15962
▁업자	-15963
▁대첩	-15964
▁멜리	-15965
▁베토	-15966
▁쇼코	-15967
▁첨부	-15968
▁회심	-15969
▁Cap	-15970
▁동방신기	-15971
린더	-15972
▁발효	-15973
▁포제	-15974
oney	-15975
▁수송선	-15976
▁주변인	-15977
제트	-15978
▁조슈아	-15979
▁{{{-	-15980
▁에어리어	-15981
▁Mark	-15982
요리	-15983
▁ve	-15984
▁느와르	-15985
▁욘	-15986
▁급증	-15987
▁입점	-15988
▁초음	-15989
▁티베트	-15990
▁라이선스	-15991
▁학군	-15992
BY	-15993
▁서재	-15994
▁우먼	-15995
▁후카	-15996
▁리눅스	-15997
▁성가시	-15998
▁카니발	-15999
닥치	-16000
메일	-16001
▁신약	-16002
▁업소	-16003
▁껄끄럽	-16004
▁애니메이터	-16005
▁ADVANC	-16006
▁건대	-16007
▁힘겹	-16008
▁역전승	-16009
▁성취	-16010
▁숙지	-16011
▁도르트	-16012
▁1914	-16013
▁Special	-16014
▁순례	-16015
▁아노	-16016
▁1938	-16017
▁암묵	-16018
▁평이	-16019
▁도전자	-16020
▁켐	-16021
▁막말	-16022
▁시녀	-16023
뮬러	-16024
▁그분	-16025
▁음력	-16026
▁체르	-16027
▁해인	-16028
▁희미	-16029
▁경영학	-16030
▁Little	-16031
▁가중	-16032
▁누락	-16033
▁티나	-16034
▁ph	-16035
▁모용	-16036
▁보그	-16037
▁블룸	-16038
▁엔도	-16039
▁태반	-16040
▁홍수	-16041
▁불안감	-16042
▁마르크스	-16043
실록	-16044
▁UR	-16045
▁구스	-16046
▁송신	-16047
▁체류	-16048
▁포메	-16049
▁사카키	-16050
▁셰퍼드	-16051
▁TT	-16052
▁근황	-16053
▁뜯어내	-16054
▁음료수	-16055
▁굴러	-16056
▁아캄	-16057
▁짜이	-16058
▁경선	-16059
▁이남	-16060
▁재선	-16061
▁키시	-16062
▁사토미	-16063
▁광교	-16064
▁이민자	-16065
▁변속	-16066
▁재기	-16067
▁아오키	-16068
▁아틀레	-16069
▁Free	-16070
ross	-16071
▁경제력	-16072
▁날아오르	-16073
ism	-16074
▁ㅏ라	-16075
▁정유	-16076
▁최연	-16077
▁비밀리	-16078
▁칸자키	-16079
▁격납	-16080
▁무예	-16081
테리어	-16082
▁순전히	-16083
▁gr	-16084
▁베풀	-16085
▁지폐	-16086
▁블러디	-16087
▁한국식	-16088
▁상경	-16089
▁성급	-16090
▁레이코	-16091
▁That	-16092
▁ap	-16093
▁도류	-16094
▁식신	-16095
▁토드	-16096
▁황소	-16097
파일	-16098
프스	-16099
▁데프	-16100
▁땜	-16101
▁기통	-16102
▁요양	-16103
▁추이	-16104
▁호화	-16105
▁FO	-16106
▁아디	-16107
▁지니어스	-16108
두근	-16109
red	-16110
▁Comp	-16111
▁고철	-16112
▁왕성	-16113
▁장민	-16114
▁지탱	-16115
▁치세	-16116
▁화합	-16117
▁구축전차	-16118
▁사념	-16119
▁카툰	-16120
▁플롯	-16121
▁피칭	-16122
▁대함	-16123
▁가격대	-16124
▁앞장서	-16125
▁ac	-16126
▁스팟	-16127
▁실컷	-16128
▁의거	-16129
ocal	-16130
▁아레스	-16131
▁now	-16132
▁버팔로	-16133
▁악단	-16134
▁의존도	-16135
▁++	-16136
▁구가	-16137
▁만우	-16138
▁일컬	-16139
▁자객	-16140
▁net	-16141
▁는커녕	-16142
CE	-16143
ner	-16144
▁토착	-16145
▁야스오	-16146
방지	-16147
▁서프	-16148
▁틀림없	-16149
▁팻	-16150
▁판명	-16151
▁ㅈ	-16152
▁섣	-16153
▁지저	-16154
▁1100	-16155
곡절	-16156
▁난데	-16157
▁일루	-16158
▁정규군	-16159
▁꾹	-16160
▁PT	-16161
▁마자	-16162
▁우여곡절	-16163
▁무법	-16164
▁궤멸	-16165
▁다량	-16166
▁적과	-16167
▁토모야	-16168
스부르크	-16169
주곡	-16170
▁피스톨	-16171
▁독성	-16172
▁자며	-16173
▁어려	-16174
▁레프트	-16175
▁못생기	-16176
▁심영	-16177
▁열화	-16178
▁풀백	-16179
▁아키코	-16180
▁1300	-16181
▁폄	-16182
투사	-16183
ASS	-16184
▁거액	-16185
▁한눈	-16186
▁호조	-16187
▁부피	-16188
▁양양	-16189
▁여차	-16190
▁Bad	-16191
▁복수심	-16192
▁샌드위치	-16193
상부	-16194
▁의석	-16195
▁아이카	-16196
▁코스모스	-16197
소연	-16198
▁친선	-16199
살렘	-16200
어먹	-16201
▁고하	-16202
▁주름	-16203
▁츠지	-16204
▁사고방식	-16205
ird	-16206
▁512	-16207
▁카르텔	-16208
▁크레인	-16209
▁팔다리	-16210
▁구작	-16211
▁연화	-16212
▁바가지	-16213
▁대전광역시	-16214
▁#,	-16215
▁em	-16216
루살렘	-16217
▁경비대	-16218
▁각별	-16219
▁블랑	-16220
▁퍼플	-16221
▁강대국	-16222
▁서바이버	-16223
au	-16224
뚜기	-16225
▁평면	-16226
▁MOV	-16227
OCK	-16228
▁사서	-16229
▁초라	-16230
▁매점	-16231
▁설문	-16232
▁유한	-16233
▁만우절	-16234
▁투수진	-16235
▁뛰어오르	-16236
▁Every	-16237
▁컬쳐	-16238
▁!!!	-16239
▁콘테스트	-16240
▁불곰	-16241
▁작물	-16242
▁저번	-16243
▁카르타	-16244
▁이강	-16245
▁쟁탈전	-16246
▁윤영	-16247
▁이쁘	-16248
▁쿠보	-16249
▁흡입	-16250
▁스케이팅	-16251
▁망자	-16252
▁자음	-16253
▁화속	-16254
▁Rob	-16255
▁카자흐	-16256
▁민지	-16257
▁경원	-16258
▁나돌	-16259
▁명심	-16260
▁무패	-16261
▁역적	-16262
▁get	-16263
▁분대장	-16264
▁말라	-16265
▁이트	-16266
▁어지럽	-16267
▁사이코패스	-16268
고스	-16269
▁반주	-16270
▁이범	-16271
▁초밥	-16272
▁평시	-16273
▁프리티	-16274
▁자재	-16275
먼드	-16276
▁센고쿠	-16277
▁사찰	-16278
▁소품	-16279
▁유파	-16280
▁착안	-16281
▁픽션	-16282
▁마츠다	-16283
▁껴	-16284
▁HR	-16285
▁로어	-16286
▁번영	-16287
▁아틀란	-16288
▁코스모	-16289
▁소홀	-16290
▁서스펜	-16291
▁비열	-16292
▁호문	-16293
▁540	-16294
▁맥도날드	-16295
시간	-16296
▁KA	-16297
▁돌풍	-16298
▁매뉴	-16299
▁옥스	-16300
▁365	-16301
▁남아프리카	-16302
▁공석	-16303
▁양지	-16304
▁멱	-16305
ton	-16306
▁짭	-16307
aid	-16308
▁NA	-16309
▁mA	-16310
캐슬	-16311
▁투덜	-16312
▁변속기	-16313
lection	-16314
▁포뮬러	-16315
▁카밀	-16316
▁플랫폼	-16317
▁추위	-16318
▁Orig	-16319
▁하오	-16320
▁꼭대기	-16321
▁창시자	-16322
▁도르트문트	-16323
its	-16324
▁거창	-16325
▁what	-16326
일본	-16327
티티	-16328
▁벗겨지	-16329
▁게재	-16330
▁길래	-16331
▁스켈	-16332
▁다이빙	-16333
▁Rain	-16334
▁시트콤	-16335
24	-16336
트릭	-16337
▁하계	-16338
▁냐면서	-16339
▁정부군	-16340
▁광부	-16341
▁수만	-16342
▁알라딘	-16343
▁언뜻	-16344
▁티코	-16345
베르크	-16346
▁세바스	-16347
▁Af	-16348
▁입법	-16349
▁필승	-16350
▁그리핀	-16351
▁하세가와	-16352
▁방아	-16353
▁벨벳	-16354
▁뉴캐슬	-16355
▁ADVANCED	-16356
▁당원	-16357
▁라리	-16358
▁애리	-16359
▁자결	-16360
▁패권	-16361
▁암석	-16362
▁온건	-16363
▁요령	-16364
▁아우구	-16365
▁예루살렘	-16366
▁등용	-16367
▁바드	-16368
▁포섭	-16369
▁카나메	-16370
▁순조	-16371
▁오거	-16372
▁행정부	-16373
▁재탕	-16374
▁태백	-16375
▁이방원	-16376
▁트렌드	-16377
▁틀어막	-16378
▁플로리다	-16379
tm	-16380
마을	-16381
▁서슴	-16382
▁에지	-16383
▁징집	-16384
▁창당	-16385
▁206	-16386
▁슬로건	-16387
▁잔소리	-16388
바인	-16389
▁비타민	-16390
▁수식어	-16391
▁재판소	-16392
▁Order	-16393
▁공구	-16394
▁숙적	-16395
▁오피	-16396
▁온전	-16397
▁멘토	-16398
vent	-16399
▁앵글	-16400
▁TBS	-16401
▁인테르	-16402
영웅전설	-16403
▁은하영웅전설	-16404
트니	-16405
▁근위	-16406
▁선별	-16407
▁May	-16408
▁동선	-16409
▁코러스	-16410
▁라이브러리	-16411
▁Po	-16412
▁코피	-16413
▁노동당	-16414
▁아랑전설	-16415
▁노보	-16416
▁don	-16417
▁굴러가	-16418
▁디바인	-16419
▁간과	-16420
▁세련	-16421
▁특색	-16422
태격	-16423
▁sw	-16424
▁각광	-16425
▁동결	-16426
▁어감	-16427
▁전범	-16428
▁후진	-16429
▁베토벤	-16430
▁성범죄	-16431
▁운동가	-16432
▁티격태격	-16433
교도	-16434
▁레고	-16435
▁효력	-16436
▁아르타	-16437
▁아카시	-16438
▁게으	-16439
▁고드	-16440
▁바빌	-16441
▁판넬	-16442
orts	-16443
너드	-16444
▁공천	-16445
▁새해	-16446
▁자선	-16447
▁장발	-16448
김없이	-16449
▁성희	-16450
▁자서	-16451
▁포신	-16452
▁봄버	-16453
▁파충	-16454
▁호족	-16455
▁이리야	-16456
▁굴림	-16457
▁내쫓	-16458
리스크	-16459
▁타노스	-16460
▁편집자	-16461
▁아브	-16462
▁난장판	-16463
ura	-16464
▁경멸	-16465
▁분수	-16466
▁색기	-16467
▁수료	-16468
▁여덟	-16469
▁고아원	-16470
▁구루	-16471
▁스투	-16472
▁안톤	-16473
▁표류	-16474
▁뒤떨어지	-16475
▁뱌	-16476
▁골대	-16477
▁활기	-16478
▁남친	-16479
▁흑발	-16480
▁스트롱	-16481
▁가맹	-16482
▁버겁	-16483
▁오산	-16484
▁여객기	-16485
▁만장	-16486
▁주시	-16487
▁판단력	-16488
▁성주	-16489
▁수산	-16490
▁카로	-16491
▁허접	-16492
▁베네치아	-16493
▁나선	-16494
▁역기	-16495
▁풍속	-16496
▁오모	-16497
▁재림	-16498
▁낙서	-16499
▁린이	-16500
▁채굴	-16501
▁최성	-16502
▁스트림	-16503
▁조동	-16504
▁카즈미	-16505
▁깐	-16506
▁럿	-16507
▁PA	-16508
▁진범	-16509
▁초회	-16510
▁정신병	-16511
▁골격	-16512
▁착수	-16513
▁Are	-16514
▁인테리어	-16515
▁예매	-16516
▁통찰	-16517
▁미하일	-16518
▁아틀란티스	-16519
살이	-16520
▁농도	-16521
▁근로자	-16522
▁뒤집어쓰	-16523
▁힛	-16524
▁최장	-16525
▁미소년	-16526
▁나지	-16527
▁로버	-16528
▁코우타	-16529
▁트롤링	-16530
▁9000	-16531
▁캅	-16532
▁미츠키	-16533
▁아머드	-16534
▁형법	-16535
▁서동	-16536
▁레일건	-16537
니엄	-16538
▁고야	-16539
▁단타	-16540
▁티르	-16541
▁메이크	-16542
▁사오리	-16543
▁제각각	-16544
▁괴짜	-16545
▁소셜	-16546
▁제명	-16547
▁티모	-16548
▁파기	-16549
▁식구	-16550
▁신차	-16551
▁오레	-16552
▁밀레니엄	-16553
스틱	-16554
▁노다	-16555
▁디언	-16556
▁민트	-16557
▁야미	-16558
▁히로미	-16559
▁리비아	-16560
▁슈리	-16561
▁아토	-16562
▁지마	-16563
▁전면전	-16564
▁줄리아	-16565
▁Best	-16566
son	-16567
▁근방	-16568
▁밝혀	-16569
▁아즈텍	-16570
▁항공대	-16571
▁소양	-16572
▁재결	-16573
▁png	-16574
▁아라이	-16575
▁그레이브	-16576
마니	-16577
임수	-16578
▁MI	-16579
▁독소	-16580
▁콜로세움	-16581
▁상임	-16582
▁조부	-16583
▁마성	-16584
▁포자	-16585
▁허준	-16586
▁매뉴얼	-16587
▁물류	-16588
▁악수	-16589
xt	-16590
ape	-16591
▁NP	-16592
▁결단	-16593
▁Stri	-16594
▁길티	-16595
▁초심	-16596
▁파커	-16597
▁아서스	-16598
▁미니건	-16599
▁대련	-16600
▁유체	-16601
▁한판	-16602
▁다이크	-16603
▁달려드	-16604
▁잡아	-16605
▁Pack	-16606
▁동떨어지	-16607
▁기형	-16608
▁사비	-16609
ster	-16610
▁윤성	-16611
▁호밍	-16612
anna	-16613
ize	-16614
▁GA	-16615
▁마쓰	-16616
▁앉히	-16617
▁행동력	-16618
▁pe	-16619
▁불량배	-16620
문화	-16621
▁kn	-16622
▁불륜	-16623
▁옅	-16624
▁무토	-16625
▁웍스	-16626
▁원안	-16627
▁고온	-16628
▁여리	-16629
▁역전패	-16630
▁밝혀내	-16631
▁조그맣	-16632
▁프리덤	-16633
▁니퍼	-16634
▁끝없이	-16635
▁슬라이더	-16636
네즈	-16637
슬로	-16638
▁두각	-16639
▁벼슬	-16640
▁원가	-16641
▁조종당	-16642
▁클러치	-16643
불리	-16644
포동	-16645
▁남코	-16646
▁진중	-16647
▁짬뽕	-16648
▁쿠우	-16649
▁뒤바뀌	-16650
▁리포	-16651
잣집	-16652
▁유족	-16653
▁1951	-16654
▁미우라	-16655
▁조선인	-16656
▁스코어링	-16657
황후	-16658
err	-16659
▁깜빡	-16660
▁오카다	-16661
자국	-16662
▁걷어차	-16663
▁앞머리	-16664
▁타오르	-16665
개골	-16666
▁말뚝	-16667
▁매춘	-16668
▁랠	-16669
▁동탄	-16670
▁울버린	-16671
상스	-16672
▁PH	-16673
▁노노	-16674
▁370	-16675
▁코만도	-16676
▁탤런트	-16677
피탈	-16678
▁이매	-16679
▁직종	-16680
▁사이먼	-16681
▁정찰기	-16682
▁무쌍	-16683
▁왕정	-16684
28	-16685
▁고라	-16686
▁은색	-16687
▁지출	-16688
▁차우	-16689
▁야말로	-16690
AKA	-16691
▁메커	-16692
▁선량	-16693
▁설교	-16694
▁은어	-16695
▁캐쉬	-16696
▁표명	-16697
▁마일리	-16698
지기	-16699
▁대칭	-16700
▁람보	-16701
▁몰입	-16702
▁칠드런	-16703
▁인조인간	-16704
▁tw	-16705
▁통장	-16706
▁미카도	-16707
▁they	-16708
oud	-16709
▁다채	-16710
▁자일	-16711
▁하가	-16712
▁Mir	-16713
썰트	-16714
▁외지	-16715
▁이연	-16716
▁인분	-16717
▁피크	-16718
▁어썰트	-16719
▁유괴	-16720
▁컨버	-16721
▁Joh	-16722
▁앤드류	-16723
▁교원	-16724
▁대물	-16725
▁촉한	-16726
▁his	-16727
▁Mbps	-16728
▁갑주	-16729
▁초연	-16730
▁노리코	-16731
▁홍차	-16732
폴리스	-16733
▁"..	-16734
▁충원	-16735
▁극동	-16736
▁미분	-16737
▁이장	-16738
▁하남	-16739
▁쿠파	-16740
▁나이지	-16741
▁나이지리아	-16742
SS	-16743
▁넬슨	-16744
▁당근	-16745
▁반열	-16746
▁창법	-16747
▁흑색	-16748
▁장시간	-16749
▁크래시	-16750
자스	-16751
▁서북	-16752
▁추축	-16753
▁노하라	-16754
▁치솟	-16755
▁마라톤	-16756
▁거머	-16757
▁mAh	-16758
IDE	-16759
OSS	-16760
▁관현	-16761
▁747	-16762
▁토머스	-16763
▁금정	-16764
▁텐트	-16765
▁레이서	-16766
▁구레	-16767
▁국지	-16768
▁발령	-16769
▁척추	-16770
▁세계수	-16771
▁경순양함	-16772
UG	-16773
▁철구	-16774
▁혈압	-16775
▁불거지	-16776
▁실비아	-16777
ze	-16778
기수	-16779
▁아돌프	-16780
▁총회	-16781
▁무소	-16782
▁브룩	-16783
▁아오바	-16784
▁우익수	-16785
zy	-16786
▁음파	-16787
▁피고	-16788
▁광화문	-16789
ama	-16790
▁용납	-16791
▁주점	-16792
▁171	-16793
▁나오토	-16794
▁유죄	-16795
▁도요토미	-16796
레마	-16797
훈련	-16798
▁부설	-16799
▁사하	-16800
▁독살	-16801
▁앰프	-16802
▁잔존	-16803
▁승용차	-16804
▁정신줄	-16805
▁데이비스	-16806
hy	-16807
▁물음	-16808
▁교구	-16809
▁어머	-16810
▁자행	-16811
▁이부키	-16812
▁파밀리아	-16813
▁First	-16814
▁즌	-16815
헤드	-16816
▁거침	-16817
▁궁예	-16818
▁덴마	-16819
▁신야	-16820
▁오기	-16821
▁다구	-16822
▁동하	-16823
▁이목	-16824
▁215	-16825
▁하야시	-16826
▁로데	-16827
▁분전	-16828
▁분파	-16829
▁여군	-16830
▁우터	-16831
▁급감	-16832
▁순차	-16833
▁토미노	-16834
▁마천	-16835
▁사학	-16836
▁애틀랜타	-16837
▁저술	-16838
▁선지	-16839
▁수기	-16840
▁유창	-16841
▁포상	-16842
▁벳	-16843
▁호머	-16844
▁게이밍	-16845
▁비터	-16846
▁시연	-16847
▁정선	-16848
▁각주	-16849
▁아로	-16850
▁예민	-16851
▁히키	-16852
시즘	-16853
▁니티	-16854
▁도키	-16855
▁박하	-16856
▁손대	-16857
▁쳇	-16858
END	-16859
▁미코	-16860
▁카모	-16861
▁포메이션	-16862
▁발도	-16863
▁속삭	-16864
▁오재	-16865
▁이세이	-16866
▁NORM	-16867
▁브라이트	-16868
특기	-16869
▁상반신	-16870
▁자연히	-16871
▁주특기	-16872
▁탄종	-16873
▁골짜기	-16874
▁수없이	-16875
▁전광판	-16876
▁뻔뻔	-16877
▁선단	-16878
▁161	-16879
▁승승장구	-16880
▁맨손	-16881
▁복식	-16882
▁천리	-16883
▁총애	-16884
▁사우디	-16885
▁엄하	-16886
▁기념일	-16887
▁한없이	-16888
▁도부	-16889
▁강서구	-16890
▁엎드리	-16891
▁알제리	-16892
▁억누르	-16893
▁열폭	-16894
너티브	-16895
▁얼터너티브	-16896
▁육신	-16897
▁코타	-16898
▁탄피	-16899
로트	-16900
▁교포	-16901
▁약사	-16902
▁일면	-16903
▁피파	-16904
▁HT	-16905
▁강국	-16906
▁돌변	-16907
▁메사	-16908
▁아루	-16909
▁181	-16910
▁데니스	-16911
▁1936	-16912
슬라비아	-16913
▁유고슬라비아	-16914
어처	-16915
▁안장	-16916
▁익산	-16917
▁235	-16918
라이어티	-16919
▁미니어처	-16920
▁버라이어티	-16921
▁MAD	-16922
설수	-16923
▁라이저	-16924
▁실물	-16925
▁몸싸움	-16926
▁윈스턴	-16927
▁재수없	-16928
▁타케우치	-16929
▁여제	-16930
▁제때	-16931
▁미노리	-16932
▁Perf	-16933
▁시베리아	-16934
▁교묘	-16935
▁북동	-16936
▁은빛	-16937
▁힌두	-16938
▁NMB	-16939
▁Miss	-16940
▁카트리지	-16941
▁니르	-16942
▁통폐	-16943
▁한류	-16944
▁눈보라	-16945
▁Char	-16946
▁Down	-16947
▁NATO	-16948
▁NORMAL	-16949
▁관건	-16950
▁벨리	-16951
▁왕창	-16952
▁케미	-16953
▁프렌드	-16954
▁오퍼레이터	-16955
ume	-16956
▁뜯기	-16957
▁Mem	-16958
▁요시카	-16959
▁공안	-16960
▁북벌	-16961
▁시급	-16962
▁완력	-16963
▁잭스	-16964
▁전곡	-16965
▁데미안	-16966
▁마카오	-16967
▁역행	-16968
▁종파	-16969
▁거머쥐	-16970
▁엄폐물	-16971
▁마구잡이	-16972
▁에니	-16973
▁이송	-16974
▁이메일	-16975
▁건만	-16976
▁발병	-16977
▁이여	-16978
▁판교	-16979
▁Hot	-16980
▁어정쩡	-16981
▁City	-16982
▁잘나	-16983
▁파주	-16984
▁횡령	-16985
▁wiz	-16986
독스	-16987
yes	-16988
▁단도	-16989
▁페러	-16990
▁향신	-16991
▁조나단	-16992
▁일병	-16993
▁도맡	-16994
▁백병전	-16995
▁대성공	-16996
▁출생지	-16997
조림	-16998
▁첩자	-16999
▁다다르	-17000
23	-17001
▁김천	-17002
▁얼룩	-17003
▁폭언	-17004
▁곁들이	-17005
83	-17006
ga	-17007
net	-17008
▁규율	-17009
▁혐한	-17010
▁동그	-17011
▁이면	-17012
▁재발	-17013
▁AGE	-17014
▁넥스트	-17015
▁에그맨	-17016
분투	-17017
회전	-17018
▁골절	-17019
▁발해	-17020
▁275	-17021
▁어르신	-17022
UD	-17023
▁풍습	-17024
▁머릿속	-17025
▁칵	-17026
▁세인	-17027
▁신종	-17028
▁컬처	-17029
▁데일리	-17030
▁이케다	-17031
▁ㅏ요	-17032
▁나즈	-17033
▁망신	-17034
▁명절	-17035
▁시영	-17036
▁집게	-17037
▁펩	-17038
만화	-17039
▁기폭	-17040
▁약품	-17041
▁이도	-17042
▁207	-17043
▁옥수수	-17044
▁Happy	-17045
▁알트	-17046
▁DEF	-17047
▁탑승자	-17048
꼬박	-17049
▁구기	-17050
▁유리카	-17051
▁치즈루	-17052
▁꼬박꼬박	-17053
▁낙양	-17054
▁분실	-17055
▁실록	-17056
▁스트라	-17057
▁가차없이	-17058
제이	-17059
▁서경	-17060
▁뻐	-17061
▁우울증	-17062
▁겸임	-17063
▁승낙	-17064
▁전위	-17065
▁지겹	-17066
▁순발	-17067
▁dis	-17068
▁유토피아	-17069
▁Class	-17070
▁가발	-17071
▁곧장	-17072
▁버크	-17073
▁재생성	-17074
▁몬스터즈	-17075
▁Ret	-17076
▁르네상스	-17077
▁Break	-17078
나우	-17079
▁Und	-17080
▁헤일로	-17081
awn	-17082
덴티티	-17083
▁RED	-17084
▁선동열	-17085
▁아이덴티티	-17086
▁올레	-17087
▁풍미	-17088
▁쿼터백	-17089
▁요가	-17090
▁765	-17091
▁앞부분	-17092
▁헤드폰	-17093
▁기로	-17094
▁자그마	-17095
▁베로	-17096
▁성의	-17097
▁성희롱	-17098
▁순발력	-17099
▁철학자	-17100
▁경관	-17101
▁과반	-17102
▁외교관	-17103
▁스톨	-17104
▁오소	-17105
▁전경	-17106
▁노하우	-17107
▁호시노	-17108
▁스테이크	-17109
▁관전	-17110
▁정품	-17111
▁헌트	-17112
▁혈관	-17113
▁just	-17114
▁사옥	-17115
▁수렵	-17116
▁입석	-17117
▁위아래	-17118
66	-17119
▁뜸	-17120
▁순화	-17121
▁콴	-17122
▁감마	-17123
▁친숙	-17124
▁하로	-17125
▁도봉	-17126
▁211	-17127
▁MUS	-17128
샤인	-17129
▁TN	-17130
▁나폴리	-17131
▁동성애자	-17132
▁머들	-17133
▁샤르	-17134
▁핑거	-17135
▁러스트	-17136
▁Stage	-17137
▁대대장	-17138
▁말버릇	-17139
▁#!	-17140
▁견습	-17141
▁덜하	-17142
▁조개	-17143
▁총검	-17144
▁한신	-17145
▁황폐	-17146
▁Dec	-17147
▁전라도	-17148
▁우왕	-17149
▁합숙	-17150
▁SHD	-17151
▁경산	-17152
▁막스	-17153
▁매매	-17154
▁주재	-17155
▁동호회	-17156
▁닷컴	-17157
▁본뜨	-17158
로그램	-17159
27	-17160
▁노미	-17161
▁매튜	-17162
▁역도	-17163
▁토모코	-17164
IAL	-17165
▁감속	-17166
▁반죽	-17167
▁개머리	-17168
▁아키하	-17169
▁노화	-17170
▁단수	-17171
▁만담	-17172
▁다는데	-17173
▁넛	-17174
▁가관	-17175
▁숙박	-17176
▁떨리	-17177
▁분비	-17178
ORPG	-17179
▁최하위	-17180
▁통폐합	-17181
▁무서워하	-17182
▁패러독스	-17183
▁다람	-17184
▁로페	-17185
▁족족	-17186
▁코퍼	-17187
▁키네	-17188
▁마니아	-17189
▁수차례	-17190
▁예컨대	-17191
▁클라크	-17192
▁예거	-17193
▁최형	-17194
▁다케다	-17195
▁레스터	-17196
▁프리랜	-17197
ius	-17198
▁소란	-17199
▁베르나	-17200
▁부상자	-17201
나오	-17202
ONE	-17203
▁군세	-17204
▁훌쩍	-17205
▁포이즌	-17206
▁돼지고기	-17207
비야	-17208
▁애착	-17209
▁중남	-17210
▁촉진	-17211
▁두개골	-17212
구멍	-17213
▁판다	-17214
▁!!"	-17215
▁유키코	-17216
▁양말	-17217
▁드러머	-17218
▁레기온	-17219
▁Elect	-17220
ole	-17221
▁레츠	-17222
▁행렬	-17223
▁속임수	-17224
▁드래곤즈	-17225
que	-17226
▁내던지	-17227
▁다리우스	-17228
▁빗대	-17229
▁혼잡	-17230
▁STA	-17231
▁다이묘	-17232
▁over	-17233
▁찻	-17234
대상	-17235
▁사칭	-17236
▁풀이	-17237
▁수사관	-17238
▁진행하	-17239
▁GAME	-17240
▁요코야마	-17241
날리	-17242
▁950	-17243
플러	-17244
▁화보	-17245
▁시드니	-17246
▁약혼자	-17247
▁포레스트	-17248
▁물러	-17249
▁디에고	-17250
▁어려우	-17251
▁퀀	-17252
att	-17253
▁반신	-17254
▁빙글	-17255
▁우에노	-17256
▁어우러지	-17257
▁바카	-17258
▁왕세	-17259
▁불러내	-17260
▁구실	-17261
▁동강	-17262
▁잠식	-17263
▁전리	-17264
▁얏	-17265
멘션	-17266
▁콩고	-17267
▁디멘션	-17268
▁방영일	-17269
▁애니플러스	-17270
95	-17271
삭스	-17272
▁고마	-17273
▁내치	-17274
▁덤블	-17275
▁이로	-17276
▁탈영	-17277
▁페트	-17278
▁부잣집	-17279
▁코즈믹	-17280
▁광주광역시	-17281
▁과열	-17282
▁로트	-17283
▁플라워	-17284
블랑	-17285
▁다분	-17286
▁214	-17287
▁주둔지	-17288
▁돗	-17289
▁ESP	-17290
▁명실상부	-17291
벌이	-17292
▁한인	-17293
오피아	-17294
▁440	-17295
▁알프레드	-17296
▁에티오피아	-17297
▁세카	-17298
▁두근두근	-17299
▁일렉트릭	-17300
▁쿠로사키	-17301
▁집요	-17302
▁치하	-17303
▁샤이니	-17304
▁Cor	-17305
▁Fly	-17306
▁산호	-17307
▁영장	-17308
▁MOD	-17309
▁알고리	-17310
▁훈련병	-17311
▁닳	-17312
다듬	-17313
마드	-17314
▁에비	-17315
▁딱지	-17316
▁천차	-17317
▁펑펑	-17318
▁주유소	-17319
▁2021	-17320
▁컨퍼런스	-17321
▁Legend	-17322
▁명언	-17323
▁볶음	-17324
▁헤더	-17325
▁htm	-17326
▁every	-17327
▁박진영	-17328
▁NASA	-17329
▁시리우스	-17330
발리	-17331
▁래빗	-17332
▁생소	-17333
▁엘더	-17334
▁코드네임	-17335
▁oh	-17336
▁김응	-17337
▁위드	-17338
▁주루	-17339
▁자서전	-17340
▁지간	-17341
▁Fre	-17342
▁EXTRA	-17343
▁검거	-17344
▁경음	-17345
▁보름	-17346
▁Rad	-17347
▁our	-17348
com	-17349
▁수병	-17350
▁유니버	-17351
irect	-17352
GM	-17353
▁아발	-17354
▁차고	-17355
▁팬더	-17356
▁CGV	-17357
▁메커니즘	-17358
바탕	-17359
▁짜장	-17360
▁출연자	-17361
▁뇨	-17362
▁단축키	-17363
▁사업가	-17364
▁포유	-17365
▁과잉	-17366
▁노년	-17367
▁셰이	-17368
▁올려	-17369
▁마사루	-17370
▁타이완	-17371
▁한국사	-17372
▁양재	-17373
▁역장	-17374
▁자속	-17375
▁다이노	-17376
각형	-17377
▁경합	-17378
▁양분	-17379
가르드	-17380
▁건너오	-17381
▁Aut	-17382
▁위스키	-17383
▁피어스	-17384
해머	-17385
▁니키	-17386
▁에뮬	-17387
▁포구	-17388
▁자이로	-17389
▁히로키	-17390
레톤	-17391
get	-17392
▁교활	-17393
▁권법	-17394
▁분경	-17395
▁이크	-17396
▁작자	-17397
▁TRA	-17398
▁이정훈	-17399
▁산산조각	-17400
▁잔여	-17401
▁공연장	-17402
▁향신료	-17403
▁Dest	-17404
arth	-17405
▁EXO	-17406
▁스켈레톤	-17407
노부	-17408
▁**	-17409
▁냉철	-17410
▁죠타	-17411
▁브라이	-17412
▁EXPER	-17413
글러브	-17414
▁물러서	-17415
▁클리프	-17416
▁골든글러브	-17417
▁미적	-17418
▁섬뜩	-17419
▁자백	-17420
▁제동	-17421
▁Mac	-17422
▁건축물	-17423
▁그랜트	-17424
▁빈민	-17425
▁지상군	-17426
▁컴플렉스	-17427
IO	-17428
▁나주	-17429
▁적도	-17430
▁알고리즘	-17431
▁사보	-17432
▁이비	-17433
▁풍신	-17434
▁황색	-17435
▁프리랜서	-17436
▁Level	-17437
▁스메	-17438
▁클럭	-17439
▁대나무	-17440
▁된	-17441
▁Ry	-17442
▁혈연	-17443
▁노미야	-17444
▁이따금	-17445
거스	-17446
숭아	-17447
▁곧잘	-17448
▁공황	-17449
▁복서	-17450
▁권력자	-17451
▁보이드	-17452
▁파충류	-17453
리언	-17454
▁기각	-17455
▁타타	-17456
노프	-17457
▁이롭	-17458
카이저	-17459
▁미야코	-17460
▁Tech	-17461
▁제타	-17462
INAL	-17463
▁백스	-17464
OTH	-17465
▁쾌락	-17466
▁하야미	-17467
▁down	-17468
▁개머리판	-17469
▁백마	-17470
▁코칭	-17471
▁푸시	-17472
▁난데없이	-17473
▁노기자카	-17474
헤치	-17475
▁외동	-17476
▁정관	-17477
▁대영	-17478
▁보옥	-17479
▁역세	-17480
▁윤종	-17481
▁편찬	-17482
뚤어지	-17483
▁싸구려	-17484
▁퍼니셔	-17485
우먼	-17486
▁노태우	-17487
▁방탄복	-17488
▁언론사	-17489
▁이어주	-17490
▁아재	-17491
▁차차	-17492
▁화전	-17493
▁이승현	-17494
▁국교	-17495
▁탄산	-17496
▁301	-17497
▁헤비급	-17498
▁밧줄	-17499
▁환술	-17500
▁TECHNIKA	-17501
▁구이	-17502
▁취항	-17503
▁최순	-17504
▁라이스	-17505
▁more	-17506
▁지명타자	-17507
선거	-17508
▁Ul	-17509
▁요네	-17510
▁Pol	-17511
▁등록금	-17512
▁Port	-17513
▁가르시아	-17514
▁모자이크	-17515
▁페널티가	-17516
펠러	-17517
▁누비	-17518
▁떠넘기	-17519
▁레너드	-17520
▁어웨이	-17521
▁아와	-17522
▁자릿	-17523
▁동시대	-17524
26	-17525
피드	-17526
▁즐거움	-17527
▁노우	-17528
▁채무	-17529
▁이윤열	-17530
▁다의	-17531
▁켄신	-17532
▁물어뜯	-17533
▁비행장	-17534
TER	-17535
▁카니	-17536
▁포박	-17537
▁하피	-17538
▁AAA	-17539
▁괴로워하	-17540
▁카트라이더	-17541
동물	-17542
enc	-17543
▁주제가	-17544
▁EXPERT	-17545
▁쏙	-17546
▁AO	-17547
▁공문	-17548
▁블로우	-17549
▁돌려받	-17550
▁애리조	-17551
ano	-17552
▁담그	-17553
▁위용	-17554
▁마이티	-17555
▁송곳니	-17556
▁놀림	-17557
▁여중	-17558
▁진풍	-17559
▁쿠퍼	-17560
▁410	-17561
▁해밀턴	-17562
무쌍	-17563
▁렐름	-17564
▁오줌	-17565
▁졸지에	-17566
소타	-17567
▁닛산	-17568
ated	-17569
▁농어촌	-17570
ya	-17571
▁뒤엎	-17572
▁이룩	-17573
▁투지	-17574
▁해부	-17575
▁레토	-17576
▁아소	-17577
▁덤벼들	-17578
▁장기전	-17579
▁제이미	-17580
에트	-17581
▁=,	-17582
▁펠레	-17583
▁RGB	-17584
▁집어던지	-17585
▁댁	-17586
▁활발히	-17587
tor	-17588
▁모차	-17589
▁선더	-17590
▁켈트	-17591
▁스사노	-17592
니케이션	-17593
▁독립운동가	-17594
▁AW	-17595
▁Hol	-17596
▁덴오	-17597
▁208	-17598
▁들어맞	-17599
▁올리브	-17600
▁미네소타	-17601
▁서큐버스	-17602
▁커뮤니케이션	-17603
▁방주	-17604
▁원대	-17605
▁홍련	-17606
▁ABC	-17607
▁마츠이	-17608
걸음	-17609
▁감격	-17610
▁명맥	-17611
▁생몰년	-17612
▁아키오	-17613
▁파라오	-17614
▁뒤섞	-17615
▁카나타	-17616
▁특촬물	-17617
수염	-17618
▁속출	-17619
▁자정	-17620
▁도카이	-17621
▁차오르	-17622
▁마이스터	-17623
▁보급품	-17624
▁하이스	-17625
▁송지	-17626
▁정가	-17627
바위보	-17628
아오르	-17629
▁조선일보	-17630
▁가위바위보	-17631
▁볼드모트	-17632
▁광저우	-17633
▁히데오	-17634
▁몬드	-17635
▁안치	-17636
▁인계	-17637
▁투여	-17638
▁내려치	-17639
▁마리나	-17640
▁바이트	-17641
▁일전	-17642
▁팽창	-17643
▁피통	-17644
▁하긴	-17645
▁레인저스	-17646
▁하나같이	-17647
매기	-17648
▁다테	-17649
▁모성	-17650
▁연장선	-17651
▁급소	-17652
▁복판	-17653
▁Line	-17654
▁WHIP	-17655
비지	-17656
▁내신	-17657
▁라르	-17658
▁품목	-17659
▁선샤인	-17660
▁이나바	-17661
도어	-17662
▁강당	-17663
▁호연	-17664
피디아	-17665
▁거북이	-17666
▁반입	-17667
▁GPS	-17668
▁정상급	-17669
uro	-17670
▁증식	-17671
▁타카미	-17672
ouble	-17673
▁위키피디아	-17674
▁아이슬	-17675
성어	-17676
▁내무	-17677
▁레터	-17678
도니아	-17679
▁Hey	-17680
▁노이드	-17681
▁Fall	-17682
▁민심	-17683
▁소스케	-17684
▁우즈베	-17685
▁간직	-17686
▁개중	-17687
▁노드	-17688
▁산전	-17689
ague	-17690
▁도메인	-17691
▁라이엇	-17692
▁베이커	-17693
▁흐트	-17694
▁"'	-17695
▁꼼꼼	-17696
▁티오	-17697
▁good	-17698
팽이	-17699
▁명계	-17700
▁요마	-17701
▁청혼	-17702
▁희소	-17703
▁가요제	-17704
▁병살타	-17705
▁케이스케	-17706
▁메모리얼	-17707
부르	-17708
▁견주	-17709
▁번쩍	-17710
▁속주	-17711
▁앤트	-17712
▁설립자	-17713
▁갈비	-17714
▁지바	-17715
▁Val	-17716
▁장제스	-17717
츠미	-17718
▁영수	-17719
▁watch	-17720
be	-17721
▁소굴	-17722
▁Ant	-17723
▁타무라	-17724
▁봉지	-17725
▁살포	-17726
▁장문	-17727
▁경희대	-17728
▁후지타	-17729
▁깍	-17730
▁라카	-17731
▁호신	-17732
ther	-17733
▁유희열	-17734
▁고구	-17735
▁의약	-17736
▁조련	-17737
▁취역	-17738
▁바티칸	-17739
▁녹스	-17740
▁마요	-17741
▁수두	-17742
▁영령	-17743
▁한술	-17744
▁EPL	-17745
▁박지성	-17746
▁강북	-17747
▁도래	-17748
배기	-17749
▁EL	-17750
▁거라	-17751
▁와해	-17752
▁완투	-17753
▁총수	-17754
▁팍팍	-17755
▁여하튼	-17756
▁중심부	-17757
▁카디널	-17758
▁바이올렛	-17759
48	-17760
비어	-17761
▁남서	-17762
▁발열	-17763
▁보크	-17764
▁투영	-17765
▁OT	-17766
▁매크로	-17767
▁받아치	-17768
▁연합국	-17769
▁Kill	-17770
we	-17771
▁낙동	-17772
▁방사선	-17773
▁천문학	-17774
그러	-17775
▁가락	-17776
▁사적	-17777
line	-17778
▁트랭크	-17779
매김	-17780
조선	-17781
키오	-17782
▁궁궐	-17783
▁발랄	-17784
▁상층	-17785
▁캠핑	-17786
▁오스틴	-17787
▁이펙터	-17788
▁Show	-17789
▁white	-17790
▁아이슬란드	-17791
▁몽환	-17792
▁머큐	-17793
▁혹독	-17794
▁요스케	-17795
▁자리매김	-17796
구석	-17797
UND	-17798
▁도살	-17799
▁구세주	-17800
▁소폭	-17801
▁황천	-17802
▁꼬맹이	-17803
▁이대호	-17804
▁Spring	-17805
▁쿡	-17806
und	-17807
▁헤엄	-17808
ITAD	-17809
▁Pop	-17810
▁조종석	-17811
▁들어올리	-17812
▁나토	-17813
▁허물	-17814
▁펌웨어	-17815
그럽	-17816
▁목성	-17817
▁완패	-17818
▁마츠리	-17819
▁일찍이	-17820
타마	-17821
▁목욕탕	-17822
▁한자어	-17823
▁스케이트	-17824
▁간절	-17825
▁들이받	-17826
▁디스트로	-17827
ck	-17828
▁괄호	-17829
▁편차	-17830
▁포괄	-17831
▁포츈	-17832
▁스타터	-17833
▁국무총리	-17834
▁반공	-17835
▁자물	-17836
▁Ind	-17837
▁방아쇠	-17838
▁튠	-17839
▁성룡	-17840
▁자습	-17841
▁010	-17842
▁Cal	-17843
▁동자	-17844
▁외견	-17845
▁공모전	-17846
▁부적절	-17847
▁은지원	-17848
▁디스트로이어	-17849
▁묵시	-17850
▁Way	-17851
▁브리핑	-17852
▁알버트	-17853
▁원정대	-17854
▁타카기	-17855
▁쓸리	-17856
▁야유	-17857
▁인파	-17858
▁인민군	-17859
▁Club	-17860
▁공포증	-17861
▁연무	-17862
▁적시	-17863
▁내비치	-17864
▁데이지	-17865
▁자물쇠	-17866
▁훤	-17867
럴드	-17868
▁공평	-17869
▁김시	-17870
▁신탁	-17871
▁전조	-17872
▁흐지	-17873
▁싸그리	-17874
▁흐지부지	-17875
▁뻑	-17876
▁격분	-17877
▁똑바로	-17878
▁조지아	-17879
▁Dead	-17880
▁상수	-17881
▁형용	-17882
▁생활관	-17883
▁세리카	-17884
▁환상향	-17885
▁Girls	-17886
▁길동	-17887
▁1937	-17888
▁분식	-17889
▁신천	-17890
▁돌기	-17891
▁위임	-17892
▁동해선	-17893
▁떠나가	-17894
▁비닐	-17895
▁영도	-17896
▁읽히	-17897
▁동호인	-17898
▁오블리	-17899
▁GITAD	-17900
▁장화	-17901
▁후타바	-17902
▁MMORPG	-17903
▁뿅	-17904
▁세조	-17905
▁승조	-17906
▁톰슨	-17907
▁끌어안	-17908
▁비행단	-17909
▁연장전	-17910
AV	-17911
▁루팅	-17912
▁반려	-17913
▁은신처	-17914
▁추격전	-17915
▁헤이즈	-17916
▁내비	-17917
▁이석	-17918
ault	-17919
▁로렌스	-17920
▁원나라	-17921
▁위안부	-17922
▁티아라	-17923
▁프로페	-17924
노세	-17925
▁군용	-17926
▁양육	-17927
▁는다며	-17928
▁WORLD	-17929
▁기권	-17930
▁로엔	-17931
▁이규	-17932
▁거주민	-17933
▁마음먹	-17934
▁사이키	-17935
▁에스퍼	-17936
▁프랭클린	-17937
▁미얀	-17938
▁조디	-17939
연의	-17940
▁달렉	-17941
▁해지	-17942
▁시위대	-17943
▁윤석민	-17944
ipedia	-17945
▁건달	-17946
▁힘내	-17947
프레이	-17948
gy	-17949
회의	-17950
▁빈곤	-17951
▁수모	-17952
▁실기	-17953
▁재킷	-17954
▁How	-17955
▁감염자	-17956
▁아카이브	-17957
▁큘	-17958
러미	-17959
▁권속	-17960
▁백호	-17961
▁스탬	-17962
▁연마	-17963
▁절제	-17964
▁사나에	-17965
▁특례	-17966
▁계약자	-17967
▁이마이	-17968
▁ㅕ야	-17969
▁SPEC	-17970
▁모차르트	-17971
▁sk	-17972
▁일회	-17973
게이트	-17974
▁경계선	-17975
▁제라드	-17976
대군	-17977
▁만성	-17978
▁분하	-17979
▁워해머	-17980
▁퀘이크	-17981
▁DL	-17982
▁과묵	-17983
▁도핑	-17984
플라이	-17985
▁이광수	-17986
▁무마	-17987
▁샤먼	-17988
▁오블리비언	-17989
▁름	-17990
▁귀속	-17991
▁비겁	-17992
▁얼라	-17993
▁판인	-17994
▁한문	-17995
▁숨결	-17996
▁여운	-17997
제프	-17998
▁더듬	-17999
▁버지	-18000
▁일식	-18001
▁Now	-18002
▁뺨치	-18003
▁팔라	-18004
갯소리	-18005
▁구매자	-18006
▁KE	-18007
▁XI	-18008
▁공민	-18009
▁심볼	-18010
▁자상	-18011
▁모로코	-18012
▁별점	-18013
▁슈츠	-18014
▁안구	-18015
▁이견	-18016
▁전근	-18017
▁걸어다니	-18018
통일	-18019
▁안주	-18020
▁요도	-18021
▁인턴	-18022
ayer	-18023
ling	-18024
▁HKT	-18025
▁만연	-18026
▁원반	-18027
▁유품	-18028
▁사이렌	-18029
▁래더	-18030
▁수반	-18031
▁양팔	-18032
▁다이어	-18033
팔구	-18034
▁눈여	-18035
▁타깃	-18036
페르노	-18037
야구	-18038
▁Hi	-18039
▁황룡	-18040
▁눈부시	-18041
▁선교사	-18042
▁선호도	-18043
▁호타루	-18044
▁재차	-18045
▁샘플링	-18046
▁지원자	-18047
▁오아시스	-18048
▁십중	-18049
▁장자	-18050
▁태양계	-18051
▁인가	-18052
▁세이프	-18053
96	-18054
안군	-18055
▁드미	-18056
▁하룻	-18057
덩어리	-18058
▁십중팔구	-18059
▁인페르노	-18060
▁햐	-18061
▁밀수	-18062
▁헌납	-18063
▁Har	-18064
▁스펙트	-18065
▁셧	-18066
▁짠	-18067
▁거들	-18068
▁속칭	-18069
▁아세	-18070
▁주화	-18071
▁Med	-18072
▁그지없	-18073
▁보살피	-18074
▁1934	-18075
▁Space	-18076
▁금단	-18077
▁금빛	-18078
▁노장	-18079
▁무트	-18080
▁발단	-18081
▁야오	-18082
▁레이팅	-18083
▁부르크	-18084
▁소방서	-18085
▁그리워하	-18086
▁독고	-18087
▁땅굴	-18088
▁수속	-18089
▁코라	-18090
▁바닷가	-18091
▁고글	-18092
▁EXE	-18093
▁Sam	-18094
▁드로이드	-18095
▁우스갯소리	-18096
▁인플레이션	-18097
▁수첩	-18098
▁창간	-18099
▁테크놀	-18100
▁템페스트	-18101
▁레티	-18102
▁인술	-18103
▁Def	-18104
▁Death	-18105
나크	-18106
▁고압	-18107
▁금세	-18108
▁바운	-18109
▁종속	-18110
▁코쿠	-18111
▁광해군	-18112
▁잠자리	-18113
▁홈플러스	-18114
꿀멍	-18115
▁니스트	-18116
▁데꿀멍	-18117
▁MOVIE	-18118
▁XG	-18119
▁쳐들어가	-18120
▁바텀	-18121
▁톱니	-18122
▁함성	-18123
▁보컬로이드	-18124
▁GITADORA	-18125
▁성종	-18126
▁번역본	-18127
▁부착물	-18128
▁Sweet	-18129
실신	-18130
▁-!	-18131
▁무례	-18132
▁bit	-18133
▁떡실신	-18134
하늘	-18135
▁EB	-18136
▁그람	-18137
▁주지	-18138
▁아즈마	-18139
▁Pass	-18140
▁Friend	-18141
▁정국	-18142
▁정박	-18143
▁케어	-18144
▁김연아	-18145
▁받침	-18146
▁번화	-18147
▁엠마	-18148
▁엠블럼	-18149
▁유타카	-18150
▁Park	-18151
바꿈	-18152
▁변칙	-18153
▁비어	-18154
▁껍데기	-18155
▁포식자	-18156
일비	-18157
제비	-18158
▁머슬	-18159
▁숙제	-18160
▁실격	-18161
▁라멘	-18162
▁유흥	-18163
▁직급	-18164
▁한큐	-18165
▁삼국지연의	-18166
iny	-18167
▁합격자	-18168
▁슈테	-18169
▁스구	-18170
▁인삼	-18171
▁ISO	-18172
▁사토루	-18173
▁지원군	-18174
▁협의회	-18175
▁로드리게	-18176
송이	-18177
▁HY	-18178
▁맨몸	-18179
▁탈리	-18180
▁백과	-18181
▁변기	-18182
▁신뢰도	-18183
이시	-18184
▁거하	-18185
▁제아	-18186
▁카빈	-18187
▁헐리	-18188
▁돌이키	-18189
ortex	-18190
▁구수	-18191
▁리토	-18192
ople	-18193
▁플레이버	-18194
▁안대	-18195
▁연옥	-18196
▁모란	-18197
▁안즈	-18198
▁요절	-18199
▁관현악	-18200
▁검출	-18201
다이스	-18202
▁슬럼프	-18203
폭풍	-18204
▁식용	-18205
▁조라	-18206
▁디폴트	-18207
▁창출	-18208
▁사이다	-18209
ental	-18210
UK	-18211
▁\]	-18212
▁발진	-18213
▁봉신	-18214
▁사스	-18215
▁스톱	-18216
▁유린	-18217
▁중파	-18218
▁지드	-18219
▁캡쳐	-18220
ASY	-18221
▁김세	-18222
▁셋쇼	-18223
▁지네	-18224
▁223	-18225
▁셋쇼마루	-18226
▁병풍	-18227
▁은둔	-18228
▁과거사	-18229
▁MY	-18230
▁경례	-18231
▁살육	-18232
▁칩셋	-18233
▁Sur	-18234
▁WWF	-18235
▁has	-18236
▁몰아가	-18237
▁상승세	-18238
▁Story	-18239
▁클라이맥스	-18240
▁Bu	-18241
▁달구	-18242
▁멱살	-18243
▁사절	-18244
▁서주	-18245
▁속사	-18246
▁엘릭	-18247
▁통통	-18248
▁거너	-18249
▁계투	-18250
▁아톰	-18251
▁미국식	-18252
승우	-18253
▁관세	-18254
▁반년	-18255
▁원내	-18256
▁카키	-18257
▁태후	-18258
▁삼각형	-18259
▁If	-18260
▁겨냥	-18261
▁군장	-18262
▁린코	-18263
▁점치	-18264
깃거리	-18265
▁Inv	-18266
unk	-18267
▁막시	-18268
▁백설	-18269
▁평온	-18270
▁블로킹	-18271
ander	-18272
재욱	-18273
▁부팅	-18274
▁잠정	-18275
▁점장	-18276
▁거리낌	-18277
가요	-18278
▁DSP	-18279
미아	-18280
▁하원	-18281
▁갉	-18282
▁라그	-18283
▁무구	-18284
▁생식	-18285
▁음역	-18286
▁음질	-18287
▁트란	-18288
▁부지기수	-18289
▁일괄	-18290
▁존기	-18291
▁min	-18292
▁다르크	-18293
▁점프력	-18294
거래	-18295
▁가희	-18296
▁껴안	-18297
▁난도	-18298
▁몸값	-18299
우로스	-18300
▁평의회	-18301
▁스냅드래곤	-18302
▁쟝	-18303
▁신승	-18304
▁정근	-18305
▁혼용	-18306
▁결정타	-18307
▁노련	-18308
▁Cha	-18309
ubl	-18310
▁그리폰	-18311
▁핫토리	-18312
메이트	-18313
▁환승역	-18314
▁마일리지	-18315
▁케이이치	-18316
▁나트	-18317
▁발기	-18318
▁발성	-18319
▁본점	-18320
▁성북	-18321
▁의병	-18322
▁빗자루	-18323
곡역	-18324
▁고딕	-18325
▁살벌	-18326
▁성물	-18327
▁수트	-18328
▁노블레스	-18329
걸스	-18330
▁GE	-18331
▁법령	-18332
▁차츰	-18333
▁쾌적	-18334
▁바깥쪽	-18335
▁요크	-18336
▁이보	-18337
▁질책	-18338
▁미치루	-18339
▁이바라	-18340
▁Never	-18341
▁팥	-18342
▁인제	-18343
▁질럿	-18344
▁아나킨	-18345
▁사이클론	-18346
▁몰두	-18347
▁한테서	-18348
▁John	-18349
▁사카가미	-18350
▁타이베이	-18351
▁신진	-18352
▁저편	-18353
▁치우치	-18354
더리	-18355
▁감명	-18356
▁폐교	-18357
▁아야노	-18358
▁YG	-18359
▁왕권	-18360
str	-18361
▁몽키	-18362
▁밀짚	-18363
▁양천	-18364
▁김유진	-18365
▁헬리오	-18366
▁di	-18367
▁가로지르	-18368
▁연장자	-18369
ley	-18370
▁마석	-18371
▁스맥	-18372
▁LOL	-18373
▁로스쿨	-18374
▁혹시나	-18375
▁3500	-18376
▁두루마리	-18377
RAS	-18378
▁압둘	-18379
▁입찰	-18380
ords	-18381
▁고고학	-18382
▁동맹국	-18383
▁미노루	-18384
▁키리코	-18385
▁끌어당기	-18386
▁스맥다운	-18387
테라	-18388
ope	-18389
▁사채	-18390
▁와드	-18391
▁타도	-18392
▁불명예	-18393
▁샤인	-18394
▁득점자	-18395
▁쌍방울	-18396
▁야마노	-18397
▁RT	-18398
▁마우	-18399
자치단체	-18400
▁그늘	-18401
▁쫒아	-18402
네이션	-18403
▁키쿠치	-18404
▁파우스트	-18405
▁눌리	-18406
▁분출	-18407
▁연혁	-18408
▁우버	-18409
▁을시	-18410
▁군청	-18411
▁디어	-18412
▁샤우	-18413
▁연못	-18414
▁살인범	-18415
▁포스팅	-18416
▁로토	-18417
▁볼링	-18418
▁은인	-18419
▁표지판	-18420
▁하룻밤	-18421
▁이건	-18422
▁Tra	-18423
▁GU	-18424
▁안영	-18425
마이트	-18426
▁부조리	-18427
▁불상사	-18428
▁코마츠	-18429
▁클레멘	-18430
▁지선버스	-18431
서리	-18432
▁콘스	-18433
▁아리마	-18434
▁페드로	-18435
▁샛	-18436
▁소인	-18437
▁이코	-18438
▁추대	-18439
미사일	-18440
▁외주	-18441
▁자택	-18442
▁김풍	-18443
▁신혼	-18444
▁정진	-18445
▁제천	-18446
▁아마노	-18447
▁뮐	-18448
▁내력	-18449
▁알렌	-18450
tain	-18451
▁노량	-18452
▁분단	-18453
▁Will	-18454
ux	-18455
▁체면	-18456
▁다비드	-18457
▁대천사	-18458
▁입상	-18459
udio	-18460
▁지하실	-18461
▁다승	-18462
▁신룡	-18463
▁과대	-18464
▁사춘	-18465
▁해협	-18466
▁깨뜨리	-18467
▁이신형	-18468
▁미네르바	-18469
카타	-18470
▁Bro	-18471
▁Cry	-18472
▁수호신	-18473
▁비석	-18474
▁수이	-18475
▁스캇	-18476
▁역이	-18477
▁웅장	-18478
▁저절	-18479
프릭스	-18480
▁Mer	-18481
▁루돌프	-18482
▁미네랄	-18483
▁스크랩	-18484
▁핵폭탄	-18485
▁기타프릭스	-18486
▁처자	-18487
▁there	-18488
▁나자	-18489
▁다던	-18490
▁조만	-18491
▁컵스	-18492
▁공용어	-18493
▁영웅전	-18494
▁Party	-18495
▁경부고속도로	-18496
▁다이너마이트	-18497
▁에델	-18498
▁타란	-18499
▁탄력	-18500
▁저절로	-18501
▁wikipedia	-18502
예프	-18503
▁Net	-18504
▁Set	-18505
▁와일드카드	-18506
토메	-18507
▁수교	-18508
▁총신	-18509
raft	-18510
▁유목민	-18511
▁최종병기	-18512
▁파프	-18513
▁이블	-18514
▁주박	-18515
▁호적	-18516
▁마유미	-18517
▁동아일보	-18518
▁오클랜드	-18519
▁물결	-18520
▁훈련장	-18521
isode	-18522
▁PM	-18523
▁숙종	-18524
▁저속	-18525
▁NV	-18526
▁hp	-18527
▁궁정	-18528
▁권투	-18529
▁긍지	-18530
▁묵묵	-18531
▁바크	-18532
▁애호	-18533
▁계약서	-18534
▁수두룩	-18535
란다	-18536
▁김남	-18537
▁등짝	-18538
▁엄친	-18539
▁폄하	-18540
▁탈바꿈	-18541
▁맹렬	-18542
▁아귀	-18543
▁밑바닥	-18544
▁우에다	-18545
▁Single	-18546
ino	-18547
▁관내	-18548
▁국외	-18549
▁만신	-18550
▁반찬	-18551
▁일간	-18552
▁레바논	-18553
▁번역가	-18554
▁유가족	-18555
▁390	-18556
▁나이스	-18557
65	-18558
아르	-18559
rol	-18560
▁기증	-18561
▁불시	-18562
▁시정	-18563
▁의인	-18564
▁조예	-18565
▁보이즈	-18566
▁SHOW	-18567
▁횃	-18568
▁거란	-18569
▁몰려들	-18570
▁와이파이	-18571
융합	-18572
▁손길	-18573
▁익사	-18574
▁환관	-18575
▁USA	-18576
▁life	-18577
▁큼	-18578
▁외할	-18579
▁핵융합	-18580
▁애덤	-18581
▁이형	-18582
그래피	-18583
▁252	-18584
▁속아	-18585
eed	-18586
▁별반	-18587
▁비방	-18588
▁라벨	-18589
▁사타	-18590
▁큐리	-18591
▁타루	-18592
▁더욱더	-18593
▁실린더	-18594
프레이즈	-18595
도스	-18596
테라스	-18597
▁토에이	-18598
▁PG	-18599
▁인위	-18600
▁드래건	-18601
▁나가사키	-18602
▁Gener	-18603
▁숄	-18604
▁달력	-18605
BE	-18606
▁걔	-18607
보트	-18608
▁뒷담	-18609
▁링고	-18610
▁쿠가	-18611
▁전리품	-18612
▁fr	-18613
▁나니	-18614
▁방전	-18615
▁살라딘	-18616
▁청주시	-18617
▁콘스탄티노	-18618
▁-.	-18619
▁발포	-18620
▁흘러	-18621
▁SKY	-18622
▁정보원	-18623
▁뛰쳐	-18624
▁충신	-18625
▁쿠와	-18626
세이돈	-18627
ball	-18628
▁투르크	-18629
▁포세이돈	-18630
▁분담	-18631
▁분양	-18632
▁틈타	-18633
▁피시	-18634
▁매출액	-18635
▁애플리케이션	-18636
빙글	-18637
▁권혁	-18638
▁실례	-18639
▁인장	-18640
▁적국	-18641
▁직진	-18642
▁현종	-18643
▁교황청	-18644
▁메이슨	-18645
ement	-18646
ations	-18647
▁아마테라스	-18648
▁캐치프레이즈	-18649
▁수양	-18650
▁불어넣	-18651
인드	-18652
▁구룡	-18653
▁섭정	-18654
▁모니카	-18655
▁밀가루	-18656
▁생방송	-18657
다주	-18658
▁온리	-18659
▁격납고	-18660
▁무라카미	-18661
▁개관	-18662
▁스필	-18663
▁자급	-18664
▁정승	-18665
▁글래스	-18666
▁상급자	-18667
의지	-18668
▁김호	-18669
▁육탄	-18670
▁포르쉐	-18671
▁미야모토	-18672
▁루가	-18673
▁송정	-18674
▁원체	-18675
▁현세	-18676
▁불어나	-18677
▁충실하	-18678
▁Hero	-18679
==	-18680
▁댈	-18681
▁김제	-18682
▁쿠페	-18683
▁박동	-18684
▁워스	-18685
▁375	-18686
▁사춘기	-18687
▁왜냐면	-18688
▁File	-18689
이야	-18690
▁국한	-18691
▁김한	-18692
▁뱌쿠	-18693
▁휴재	-18694
▁견고	-18695
▁두세	-18696
▁터빈	-18697
▁속죄	-18698
ient	-18699
▁유시	-18700
▁조경	-18701
▁주저앉	-18702
▁1935	-18703
▁까칠	-18704
▁멩스	-18705
▁보전	-18706
▁불굴	-18707
▁퇴직	-18708
▁가우스	-18709
▁옥타브	-18710
▁유키오	-18711
▁흑기사	-18712
레프	-18713
▁극명	-18714
▁내분	-18715
▁상서	-18716
▁셔터	-18717
일비재	-18718
▁굶주리	-18719
▁부대장	-18720
▁오나라	-18721
▁1919	-18722
▁비일비재	-18723
▁music	-18724
▁대모	-18725
▁열등감	-18726
▁뛰쳐나가	-18727
더미	-18728
▁산요	-18729
▁무리뉴	-18730
▁조준기	-18731
쩌둥	-18732
▁농성	-18733
▁엘렌	-18734
▁마오쩌둥	-18735
▁례	-18736
▁마귀	-18737
▁계급장	-18738
▁미사토	-18739
▁판박이	-18740
oe	-18741
밍고	-18742
▁세터	-18743
▁오랑	-18744
▁기념관	-18745
▁자릿수	-18746
▁마담	-18747
▁Ma	-18748
▁네버	-18749
▁매료	-18750
▁외판	-18751
▁마사시	-18752
▁연산군	-18753
▁케이타	-18754
핑크	-18755
▁구위	-18756
▁타코	-18757
▁폐위	-18758
▁핸디	-18759
▁리투아	-18760
▁리투아니아	-18761
포역	-18762
▁징벌	-18763
▁바닥나	-18764
▁플루토	-18765
▁매그너스	-18766
▁금천	-18767
▁모태	-18768
▁위닝	-18769
▁어야지	-18770
▁레퀴	-18771
▁신스	-18772
▁신해	-18773
LY	-18774
날레	-18775
▁게인	-18776
▁김신	-18777
▁충무	-18778
▁바리에	-18779
▁지식인	-18780
▁서커	-18781
▁승룡	-18782
▁통영	-18783
▁황녀	-18784
▁자가용	-18785
▁Tour	-18786
유산	-18787
▁끼얹	-18788
ival	-18789
▁802	-18790
▁얌전히	-18791
▁1911	-18792
▁들이닥치	-18793
▁백발	-18794
▁재계	-18795
▁직설	-18796
▁Sou	-18797
▁USS	-18798
▁하버드	-18799
▁후부키	-18800
▁Christ	-18801
나멀	-18802
▁굵직	-18803
▁기색	-18804
▁의기	-18805
▁머나멀	-18806
▁메이스	-18807
▁알아주	-18808
백호	-18809
▁스니	-18810
▁신형	-18811
▁에리스	-18812
▁1700	-18813
브로	-18814
▁et	-18815
▁레진	-18816
▁미화	-18817
▁적잖	-18818
▁아우라	-18819
▁준이치	-18820
▁대전차포	-18821
▁스파이럴	-18822
▁쏴	-18823
▁루니	-18824
▁서든	-18825
▁손색	-18826
▁방향키	-18827
루가	-18828
보스	-18829
▁로아	-18830
▁216	-18831
▁SSD	-18832
▁스도	-18833
▁잔치	-18834
▁적장	-18835
▁코니	-18836
▁심부름	-18837
▁가열	-18838
▁마제	-18839
▁지코	-18840
▁315	-18841
▁소이치로	-18842
▁굳건	-18843
▁큐트	-18844
▁활력	-18845
부치	-18846
▁브렌	-18847
▁강남역	-18848
▁머큐리	-18849
▁원자로	-18850
▁ㄹ지언정	-18851
▁그레이스	-18852
▁기울어지	-18853
▁음주운전	-18854
▁BLACK	-18855
▁도넛	-18856
주니어	-18857
▁DAY	-18858
▁op	-18859
▁본업	-18860
▁장이	-18861
▁파란	-18862
▁pop	-18863
ISS	-18864
▁TA	-18865
▁말려들	-18866
▁맹독충	-18867
▁파라다이스	-18868
TH	-18869
▁소자	-18870
▁은지라	-18871
차원	-18872
▁가계	-18873
▁나약	-18874
▁루디	-18875
▁이완	-18876
▁종반	-18877
▁풀타임	-18878
▁목장	-18879
[...]
