[PAD]
[UNK]
[BOS]
[EOS]
[CLS]
[SEP]
[MASK]
▁▃
▁ㅇ
▁ㅇㅡ
▁ㄷ
▁.
▁ㄱ
▁ㅇㅔ
ㅡㄴ
▁ㄴ
▁ㄷㅏ
▁ㅇㅢ
▁ㄴㅡㄴ
▁ㄹ
▁이
▁,
▁하
▁ㅇㅡㄹ
▁ㅎ
▁ㅇㅣ
ㅏㄴ
▁ㅇㅡㄴ
▁1
ㅅㅓ
ㅡㄹ
▁ㄹㅡㄹ
▁ㅇㅓ
ㄹㅗ
▁ㄱㅗ
▁년
▁ㅎㅏㄴ
▁2
▁ㄱㅏ
▁있
▁ㄹㅗ
▁되
▁ㅇㅕ
▁대
▁사
▁ㅇㅓㅆ
ㄷㅏ
▁ㅎㅐ
ㅁㅕ
▁그
ㅈㅣ
▁일
▁시
▁ㄱㅘ
▁지
▁들
▁수
▁ㅎㅐㅆ
▁기
▁전
▁ㅇㅕㅆ
▁적
▁ㅇㅘ
▁20
▁ㄷㅗ
▁아
▁가
▁월
▁ㅁㅕ
▁제
▁19
▁ㅇㅣㄴ
▁ㄷㅚ
▁다
▁ㅂ
▁주
▁정
▁중
▁ㅈㅣ
▁자
▁ㄷㅚㄴ
▁공
ㅎㅐ
▁경
▁인
▁ㄱㅣ
▁ㅇㅏ
▁개
▁것
▁세
▁유
▁3
▁"
▁ㄹㅏ
▁조
▁부
▁ㅎㅏㄴㄷㅏ
▁등
▁ㄱㅔ
▁선
▁스
▁성
▁미
▁동
▁연
▁보
▁마
▁위
▁상
▁소
▁오
▁한
ㄴㅏ
▁고
▁ㅁ
▁영
▁국
▁모
▁구
ㄱㅗ
▁도
▁발
▁비
ㅓㄴ
ㅎㅏㄴ
▁201
▁'
ㅕㅆ
▁여
▁나
▁ㅎㅏ
▁4
▁서
ㄴㅡㄴ
▁ㅈ
▁후
▁명
▁신
▁ㅅ
▁5
ㅣㄴ
▁프
▁ㅁㅕㄴ
▁때
▁관
▁200
▁장
▁-
ㄹㄹ
▁방
▁ㄷㅓㄴ
▁의
▁교
▁만
▁ㅎㅏㄹ
▁ㄲ
▁리
▁문
▁해
▁역
ㅌㅓ
▁차
▁ㅂㅜ
▁바
▁우
ㅇㅡ
▁무
▁계
▁원
▁현
▁군
▁포
▁노
▁분
▁6
▁또
▁당
▁화
▁않
▁남
▁학
▁ㄲㅏ
▁ㅇㅏㅆ
▁작
▁같
▁결
ㅇㅓ
▁출
▁ㄴㅏ
ㄱㅔ
▁파
▁생
▁진
▁내
▁강
▁ㄷㅐ
▁단
▁7
▁번
▁받
▁최
▁10
▁8
▁어
▁ㄷㅚㄴㄷㅏ
▁반
ㅜㄴ
▁호
▁ㅂㅗ
ㅁㅏㄴ
▁회
▁거
▁데
▁안
▁형
▁초
▁카
▁실
▁예
▁배
▁에
▁재
▁불
▁ㅇㅟ
▁ㄸ
▁말
▁없
▁로
▁두
▁사용
ㄷㅔ
▁9
▁미국
▁타
▁종
▁라
▁이후
▁함
▁요
▁설
▁통
▁과
▁ㅈㅏ
▁특
▁ㅁㅏㄴ
▁ㅁㅕㄴㅅㅓ
▁일본
▁코
▁ㄴㅡㄴㄷㅔ
▁산
▁운
▁ㅌ
▁권
▁감
▁독
▁레
▁활
▁왕
ㄱㅏ
▁추
민국
▁김
▁베
ㅈㅣㄴ
▁지역
▁음
▁크
▁대한
▁양
▁199
▁행
▁다음
▁더
▁민
ㄹㅏ
▁많
▁평
▁12
▁매
▁피
▁대한민국
▁입
▁18
▁간
▁참
▁및
▁경기
▁승
▁목
▁대학
▁다른
▁ㄱㅓ
▁;
00
리아
▁프로
▁건
▁총
ㅇㅎㅐ
스트
▁그리
▁북
or
▁S
▁알
▁집
▁11
▁법
▁때문
▁시작
▁체
▁각
▁천
▁트
▁외
▁드
▁임
▁직
▁표
▁ㅋ
▁ㄸㅏ
▁변
ㅇㅜㄴ
▁토
▁사람
▁&
▁본
▁함께
▁그러
▁처
▁A
▁또한
▁물
▁속
▁팀
▁메
▁점
▁ㅊ
▁박
▁투
▁선수
▁한국
▁항
▁청
▁)
▁브
▁영화
▁세계
▁사이
▁광
ㅈㅕ
▁저
la
▁자신
▁C
▁ㅇㅗ
▁게
▁M
▁경우
▁ㅅㅣ
▁달
▁용
▁f
▁태
▁판
▁약
▁디
▁축
▁T
▁현재
▁F
▁기록
ㄹㄹㅕ
▁복
▁야
▁하나
▁국가
시아
▁존
▁198
▁이름
▁편
▁당시
▁가장
▁확
▁위치
▁네
▁ㅌㅗ
▁삼
▁_
▁열
▁ㅇㅕㅆㅇㅡ
▁조선
▁테
▁학교
▁활동
▁가지
ㅣㄴㄷㅏ
▁철
▁리그
주의
▁(
▁버
▁필
▁그러나
▁15
▁올
▁for
ㅈㅕㅆ
▁금
▁페
▁뒤
▁증
mu
▁째
▁루
▁플
ㅂㅜ
▁백
ㄹㅓ
▁창
▁ㅅㅓ
mula
▁formula
▁언
ㄴㅐ
▁16
▁식
▁대표
레이
▁연구
▁치
▁근
▁병
▁또는
▁프랑
▁ㅌㅗㅇㅎㅐ
▁/
ㄴㅏㄴ
▁심
▁합
▁그리고
▁황
▁사회
▁m
▁규
ㅇㅕ
▁0
▁ㅎㅐㅆㅇㅡ
▁살
▁ㅁㅗ
▁애
▁D
▁충
▁17
▁시즌
ㅇㅑ
ㅇㅏ
▁첫
▁순
▁따
▁]
▁197
▁[
▁B
▁완
▁ㅆ
랜드
▁히
▁중국
▁아니
▁협
▁다시
▁클
▁서울
▁ㅂㅏ
▁정부
▁프랑스
학교
▁K
▁영국
▁I
▁:
▁시대
▁패
▁ㄴㅡㄴㄷㅏ
▁높
▁k
▁만들
▁포함
ㄹㅡㄴ
▁여러
▁뜻
▁도시
ㅁㅕㄴ
▁196
▁14
▁은
ㄴㅏㅆ
▁전쟁
▁채
▁독일
▁ㅅㅐ
ㅇㅝ
▁아이
▁키
er
▁대회
▁~
▁문화
▁g
ㅣㄹ
▁13
▁축구
▁면
ㅊㅕ
▁위원
ㄹㅇㅓ
▁P
▁가능
▁모두
▁ㅋㅡㄴ
▁뉴
▁동안
in
▁모든
▁이상
▁감독
▁곡
▁194
▁정치
▁별
▁쓰
▁환
▁일부
▁손
▁방송
▁친
▁l
▁석
ㄹㅕ
▁문제
▁길
▁대학교
▁처음
▁개발
▁ㅇㅏㄹㄹㅕ
▁L
▁지방
▁ㄴㅐ
▁허
▁제작
ㅇㅘ
▁취
▁구성
▁%
▁검
▁죽
▁ㅍ
▁국제
▁러
▁배우
▁농
▁ㄷㅚㄹ
라이
▁사건
▁니
▁골
ㄱㅕ
▁세기
▁시간
▁새
▁이용
▁캐
▁일반
▁ㅁㅏ
▁씨
▁논
▁존재
▁G
▁작품
▁게임
▁운동
▁정도
▁폭
▁역사
▁주장
▁gt
▁N
▁곳
ㄹㅗㄱ
▁급
▁관계
▁즉
▁인구
니아
on
▁195
▁티
▁효
▁km
▁교육
▁음악
▁중심
▁섬
▁ㅎㅏㅁ
리스
▁육
▁lt
▁ㄹㅕ
▁U
▁이러
▁돌
▁ㄷㅙ
▁30
▁쿠
▁R
▁극
▁선거
▁경제
부분
▁날
▁블
▁발견
이스
▁귀
▁전투
통령
▁절
▁H
▁맡
화국
▁민주
▁발표
▁글
▁E
▁홍
▁기술
▁올림
▁측
ㄹㄹㅏ
▁암
▁아들
▁밀
▁우승
▁시키
▁터
▁막
▁책
▁2010
▁공격
▁엔
▁대부분
▁대통령
▁올림픽
▁사망
ㅎㅐㅆ
an
▁영향
▁케
000
▁결과
▁슈
▁송
▁질
▁라이
▁지원
▁ㄸㅓ
▁향
▁프로그
▁앨
▁잘
리카
▁193
▁담
ㅆㅓ
▁과정
▁접
▁의미
▁발생
ㄷㅗ
▁끝
▁관련
▁참여
▁중앙
▁유럽
ㄴㄷㅏ
▁헤
ㄹㄹㅣㄴ
▁봉
▁업
▁앞
▁c
▁최초
란드
ㅇㅗ
▁진행
20
▁얻
▁준
▁25
▁고등
▁ㅌㅐ
▁부분
▁독립
▁특히
▁자유
▁범
▁결정
▁제국
▁다양
▁ㅅㅔ
지만
▁구조
▁설립
▁ㄷㅙㅆ
▁ㄷㅡㄹ
▁ㅁㅗㅅ
▁설치
▁초등
버지
▁폐
▁못
▁형태
나라
▁상태
▁소속
▁탄
▁발매
▁W
▁온
ㄹㄹㅓ
▁탈
▁좌
▁2008
▁러시아
▁누
▁악
▁이전
▁잡
▁21
▁침
▁사실
우스
▁센
▁하지만
▁그녀
▁르
▁스타
ㅇㅕㅆ
ㄴㅣ
▁ㅇㅣㄴㅎㅐ
디오
▁같이
▁폴
▁로마
▁여성
▁갖
▁인민
▁프로그램
▁주로
▁맞
▁나라
ㅜㄹ
▁ㅊㅓ
▁타이
▁2012
▁2011
▁생각
▁필요
▁ㅃ
▁출신
▁참가
ㄴㅐㅆ
▁싱
▁이탈
▁혼
▁ㅂㅓ
▁관리
▁이것
▁기준
▁조직
▁100
▁운영
▁머
en
▁위원회
▁좋
▁2009
▁여자
▁2007
▁윤
▁중요
▁생산
▁2014
▁계획
▁기관
▁t
▁행정
▁등장
▁정보
ㄹㄹㅕㅆ
ㄹㅓㅁ
▁상대
▁음반
ㅋㅕㅆ
▁이루
▁지정
▁계속
▁바이
▁성공
▁데이
▁a
▁콘
▁매우
▁국민
▁데뷔
ㅇㅎㅏㄴ
▁2013
▁ㄱㅡ
▁해당
▁O
he
▁갈
▁레이
▁철도
▁대전
▁아버지
▁과학
스터
▁고려
▁칼
▁팔
리즈
▁이탈리아
▁주요
▁몇
프트
▁발전
르크
▁자리
▁따르
▁191
▁사업
▁시스
▁와
▁23
▁24
▁묘
▁커
▁000
▁2015
남도
ㅈㅣㄴㄷㅏ
ar
▁차지
▁방법
▁2018
라마
▁헌
▁억
▁보이
▁2016
▁월드
▁앨범
레스
▁그룹
ㄹㅇㅏ
▁최고
▁쇼
▁인도
▁ㅇㅑ
▁줄
▁ㅇㅣㄹ
▁마이
▁출연
▁아래
▁능
▁시리즈
이션
▁결국
ㄺㅎ
▁엘
▁J
ㄹㅣㄴ
es
▁후보
▁고등학교
▁전체
▁생활
▁22
▁2006
▁회사
이트
▁ㅈㅕㅆ
▁이유
▁그리스
▁한편
FA
▁192
▁내용
비아
▁층
▁ㅅㅏ
▁제공
▁스페
▁연합
▁격
▁우리
ㅌㅏ
▁방식
▁2017
ㄴㅎㅏㄴ
▁의원
▁공식
▁항공
운데
▁인터
▁풍
▁많이
▁인간
▁ㅂㅏㄺㅎ
▁못하
▁시기
▁컴
▁역할
▁드라마
▁가운데
▁군사
▁몸
▁시스템
▁얼
ㅇㅘㅆ
▁초기
▁조사
▁출전
▁빌
▁유명
▁워
▁민족
▁거의
▁기업
▁제도
▁반대
▁s
▁ㄷㅡㄹㅇㅓ
▁ㅈㅣㄴ
▁ㅂㅗㄹ
▁지구
▁교회
▁텔
ㅇㅣㄴ
▁수상
▁대신
▁ㅇㅡㅁ
비스
▁유지
▁색
▁평가
ㅇㅣㄴㄷㅏ
▁분류
▁표현
▁ㄹㅏㄴ
ㅜㄴㄷㅏ
▁잠
▁26
▁!
▁특별
▁홈
▁언어
▁대상
▁동시
at
▁기능
▁현대
▁ㄱㅓㄹ
▁규모
▁이르
▁공개
▁프리
▁28
▁류
▁모습
▁자연
▁노동
▁이미
▁연결
▁각각
야기
▁개인
▁27
▁마지
▁녹
▁2019
▁이론
▁졸
▁승리
▁응
▁인정
▁단체
ㅋㅕ
▁여기
▁진출
▁지도
▁브라
북도
▁임명
▁웨
▁2005
▁핵
▁V
ㅊㅕㅆ
▁2000
▁마지막
▁울
▁시장
ㄱㅏㅆ
▁시절
▁목적
ㄹㅕㅆ
머니
▁아르
▁수도
▁전문
▁경상
▁정의
ㄴㅣㄴ
▁목록
▁난
▁정책
▁기간
▁족
▁상황
ic
어지
▁희
▁산업
▁ㅇㅘㅆ
▁직접
▁이야기
al
▁ㅊㅣ
▁서로
ㅂㄴㅣ
▁야구
스크
▁ㅇㅣㄹㅇㅓ
▁오스트
▁불리
▁압
ㄱㅕㅆ
▁혁
▁밴
▁계약
▁ㅇㅗㄹㄹㅏ
▁기원
▁힘
▁ㅇㅕㄹㄹㅣㄴ
▁추가
BS
▁건설
▁공동
▁모델
▁2004
▁개최
▁콜
ㅇㅝㅆ
▁FC
▁눈
▁샤
▁건물
▁공간
▁플레이
▁먹
▁경찰
▁50
▁활약
▁형성
▁푸
▁찾
▁결혼
▁스페인
▁부산
▁31
▁자동
▁훈
▁ㄱㅘㄴㅎㅏㄴ
▁29
학자
▁졸업
ㄷㅡㄴ
▁넘
▁거리
▁칸
▁b
▁변화
▁교수
▁노래
▁사상
▁변경
▁ㄴㅣ
▁TV
▁국회
is
▁인물
▁의하
▁뿐
▁나이
▁마을
re
it
▁공화국
▁텔레
▁그것
▁완전
▁벨
ㅇㅗㄴ
▁궁
▁너
▁부르
▁190
▁비롯
▁퍼
▁노선
▁사랑
▁망
▁인민공
▁인민공화국
비전
▁휴
▁역시
▁ㅈㅓ
이드
▁2020
ㅎㅏㄴㄷㅏ
▁둘
▁학생
▁중학교
▁ㄱㅜ
▁ㅂㅣ
ou
어나
▁보통
▁맥
▁실제
▁최대
▁서비스
▁볼
▁잉
▁요구
▁속하
▁탑
▁지금
▁보호
▁전국
프리카
▁슬
▁낮
대로
▁의회
▁나타
▁소설
▁중화
▁우주
▁지지
▁ㄸㅓㄹㅇㅓ
ㄹㅡㄴㄷㅏ
▁메이
▁ㅅㅡ
▁실시
▁지하
▁ㄱㅔㅆ
르트
▁기본
역시
ㅈㅏ
▁혹
▁없이
▁황제
▁ㄷㅡ
▁가수
ㄷㅡㄹ
운드
▁다이
▁판매
▁싱글
▁자기
▁전통
▁달리
▁밴드
▁원래
▁비판
▁옥
▁기반
▁ㅅㅗ
ㅏㄴㄷㅏ
▁따라
▁퇴
ㄹㅜ
▁론
▁2002
▁종교
▁경기도
▁차이
▁견
▁ㄴㅗ
▁세력
▁어떤
▁위하
▁딸
로스
▁탐
▁40
▁ㅁㅜ
▁자료
스탄
▁ㅁㅗㅅㅎㅐㅆ
▁겸
▁ㄷㅗㄹㅇㅏ
▁소련
▁수행
▁2003
▁몰
▁환경
▁기타
▁ㅆㅡ
▁회의
▁센터
▁모양
▁전기
▁운행
▁시설
▁도쿄
▁월드컵
나다
▁부대
▁전자
▁특징
러스
▁밖
▁공연
▁승강
▁기념
▁컵
▁그래
▁명칭
▁교황
▁분야
▁뮤
▁나오
le
▁예술
▁이동
▁설명
▁놓
▁기독
▁텔레비전
▁ㅈㅓㄴ
▁통합
mp
▁작업
▁연방
▁남자
▁도입
▁구역
▁염
▁동물
▁득
▁행동
▁따라서
▁선정
▁전라
▁애니
▁ㅇㅗㄴ
스타
▁군대
▁벌
▁소프트
▁남쪽
▁바로
▁가족
▁작용
▁할
ㅊㅣㄴ
▁출시
▁능력
▁ㅈㅜ
▁숙
▁북쪽
ㄲㅏ
▁방향
▁증가
▁확인
▁기존
ㅇㅎㅐㅆ
▁지휘
▁=
너지
▁제외
▁행위
▁차량
▁교통
▁문학
의원
▁기독교
▁이때
▁작가
▁비슷
▁사고
▁ㅁㅡ
▁클럽
▁국내
▁ㅇㅏㄹ
▁윌
▁ㅃㅏ
▁형식
▁십
▁도로
▁어머니
▁혁명
▁작곡
▁역임
ㅋㅣㄴㄷㅏ
▁빈
▁승강장
▁효과
▁태양
▁ㄷㅜ
▁캐나다
▁몽
▁낙
▁컴퓨
▁열차
▁왕국
▁유일
▁FI
▁과거
▁사무
ㄹㅣ
▁이적
▁챔
▁착
BC
▁협회
▁높이
▁혹은
▁남부
▁ㄷㅓ
리오
▁추정
▁뉴욕
▁솔
▁비교
▁지배
▁공산
자리
▁흥
▁ㅅㅗㄱ
▁담당
▁육군
▁넓
▁정당
▁이사
▁동일
▁베이
▁시민
▁흐
▁이끌
▁주변
▁획
▁2001
ㄱㅣㄴ
▁ㄱㅓㄴ
▁1990
▁런
▁동쪽
▁장관
▁즈
▁홀
▁인기
▁대사
▁스포
▁스트
▁적용
▁ㅁㅏㄴㄷㅡㄴ
▁X
▁챔피
▁윈
▁세포
▁건축
▁예정
▁공사
▁p
▁데이터
▁구간
▁쪽
▁사단
▁컴퓨터
▁개념
▁성장
▁갑
▁상당
▁마음
▁곧
▁크기
▁조지
▁오늘
▁서쪽
▁189
▁품
▁차례
▁징
▁버스
▁에너지
▁ㄹㅓ
▁마르
▁멤
▁충청
ㅎㅏ
▁돈
▁맨
▁흑
▁대하
▁록
▁넣
이지
▁액
▁ㅂㅗㄴ
▁작전
ㄴㅐㄴ
▁엄
▁땅
▁조건
▁민주주의
▁다르
▁자체
▁실패
▁디자
▁나가
▁잔
▁어느
▁연기
▁율
▁반응
▁덕
▁이런
▁FIFA
▁d
▁선언
▁이어
▁버전
▁애니메
▁특정
▁종류
▁컨
▁부족
▁연주
▁국립
▁페르
▁방영
카이
▁연속
드리
ㅜㅁ
▁쌍
▁피해
▁공항
▁선택
el
▁대체
▁대구
▁해군
et
▁규정
▁고대
버스
가지
▁멤버
▁체제
▁조약
▁북부
▁내부
루스
▁수록
▁속도
▁결승
▁기원전
▁아시아
▁선출
▁연대
▁애니메이션
글랜드
▁명령
▁헌법
▁정신
▁들어
▁크리스
▁인천
▁포르
거리
▁ㄴㅡㄴㅈㅣ
▁ㅂㅏㄺㅎㅕㅆ
▁풀
▁옛
ion
▁왜
▁가치
▁ㅇㅗㄻ
웨어
▁ㄱㅓㄹㅊㅕ
▁단계
▁영어
▁개혁
▁최종
▁자치
ing
▁물질
▁ㅇㅣㄹㅇㅡ
▁친구
▁달러
▁설계
ㅈㅊ
▁최근
▁분석
▁비행
▁밤
▁척
▁출판
트남
▁평균
▁의사
▁ㅇㅔㄴ
▁강화
시마
▁지명
▁1999
▁로스
▁ㅅㅐㅇ
▁체계
▁물리
▁더욱
ol
라스
▁표준
▁소비
▁잉글랜드
▁배치
▁술
메리카
▁걸
▁쥐
▁1998
▁ㅂㅜㄹㄹㅓ
▁법원
널리
▁익
ㅡㅁ
▁집단
21
▁Y
▁cm
▁치료
▁북한
▁머리
▁개월
▁획득
▁부문
▁씩
▁o
▁팬
▁언급
▁관심
▁뛰
▁헬
▁함수
▁하이
ㄴㅏㄴㄷㅏ
▁하계
▁분리
▁공원
▁1980
▁유사
▁현상
▁지속
▁부상
▁60
▁파리
▁ㅆㅓ
▁먼
▁벤
▁스테
▁실험
▁스포츠
▁조정
▁확장
▁처리
▁선발
스코
▁당하
▁입단
▁베르
▁엔진
▁관할
리지
▁제품
▁35
▁공립
▁가리
▁흔
▁대중
▁챔피언
렇게
▁마리
▁맺
▁겨
▁소유
▁문자
▁ㅋㅓ
▁목표
▁통일
▁칭
▁장군
▁도움
▁mm
▁요소
▁시도
▁주도
▁재판
디어
▁정규
▁에스
▁자동차
▁요시
▁외국
▁거주
▁이해
ㅣㅁ
▁꽃
▁점령
▁구단
▁나무
ㅂㅎ
▁ㄴㅡ
▁후반
▁ㄱㅣㄴ
▁원자
▁시험
▁주인
▁지나
▁편성
▁네덜
▁네덜란드
▁기사
ㅇㅔ
▁n
광역시
▁ㅇㅣㅁ
▁주민
▁학자
▁앤
▁행사
ㄹㄹㅣㄴㄷㅏ
▁일종
▁통신
▁파이
▁사령
▁결합
▁웹
▁투표
▁안정
▁혈
▁고속
▁동맹
▁붙
▁알렉
▁예선
▁불교
▁길이
om
▁수준
▁느
▁개봉
▁앙
나무
▁장치
야마
▁아프리카
▁ㄷㅔ
▁언론
▁1997
▁깊
젝트
▁디자인
▁본선
▁문서
▁불구
▁광주
일랜드
▁준비
▁베트남
▁사진
ㅅㅓㄴ
▁촉
▁캠
▁방문
▁바르
▁신문
▁가문
▁휘
메달
▁싸
▁유전
st
▁책임
▁ㄱㅏㅆ
▁ㄲㅡ
▁폴란드
▁구분
▁정권
▁1996
▁가정
▁칠
▁정확
▁ㅇㅣㄴㄷㅔ
▁The
▁ㅈㅜㄹ
▁1995
▁경험
▁그림
▁제조
ㅂㅗ
▁성적
▁핀
▁요리
▁비디오
▁ㅇㅗㄹㄹㅏㅆ
▁용어
▁amp
▁평화
▁부인
▁정리
▁32
▁믿
▁오늘날
▁통과
▁70
▁밝
▁부여
▁ㅁㅓㄴ
▁일제
▁원인
특별
▁왕조
▁아마
▁프로젝트
▁런던
▁추진
ㅇㅓㅆ
▁아직
▁덴
▁거두
▁찬
▁은퇴
▁병원
▁이곳
▁빠
▁쉽
ㅎㅏㄹ
ㅁㅡ
스로
▁종합
▁방어
▁프레
스턴
인트
▁ㄴㅓ
▁슈퍼
▁빛
▁신라
▁멸
▁500
▁폐지
▁인터넷
▁이듬
▁몬
▁영역
▁널리
▁해석
▁통치
▁경쟁
웨이
▁미사
▁훈련
▁ㅆㅡㄴ
▁경영
▁움
▁제주
▁입장
▁ㅊㅏ
▁the
▁면적
▁ㅍㅕ
▁총리
▁보도
▁츠
▁발달
▁주연
▁노력
레일
am
▁파괴
▁기여
▁제안
▁일어나
▁80
▁만화
▁멀
▁회장
▁유래
▁미술
▁번호
▁서부
▁주제
▁부정
▁이듬해
▁188
▁경기장
▁도서
▁야마
▁값
▁오르
▁국회의원
리트
▁UE
▁연맹
▁생물
▁남성
▁완전히
▁식민
▁빅
▁습
라인
▁자주
▁동부
▁민주당
▁궤
▁투수
▁경계
▁요청
▁+
▁그런
il
▁정상
▁잃
▁1994
▁폰
▁법률
▁UEFA
▁행성
▁1970
▁소재
▁무기
▁등록
▁수용
▁ㅂㅜㅌ
▁금지
▁ㄴㅏㅁ
▁연구소
▁삼성
톨릭
ac
▁인식
▁지진
▁제한
▁라디오
▁바탕
▁괴
▁링
▁강원
▁무대
▁박물
▁아시
▁발사
▁영토
▁노르
머지
▁지대
▁나머지
▁KBS
▁외교
▁접근
▁철학
▁표기
▁반면
▁린
ㅋㅣㄴ
▁뉴스
▁스스로
▁ㅅㅡㅂㄴㅣ
▁업무
▁정식
▁조각
ㅈㅣㄹ
▁뇌
▁거부
▁아일랜드
▁결성
▁마찬
▁마찬가지
▁서식
▁더불
▁오스
▁벽
▁오래
▁필리
▁1992
▁펜
▁상호
▁ㄷㅏㅇㅎㅐㅆ
▁은행
요일
▁ㄹㅜ
▁45
▁다수
▁공작
▁아카
▁기초
▁가톨릭
ro
ㅁㅕㄴㅅㅓ
▁박사
▁복귀
임스
▁보수
▁임시
▁논란
▁스웨
▁수학
▁트리
▁주의
▁득점
▁성격
시코
▁의식
▁바다
▁다리
▁36
ed
▁꼬
▁장애
▁of
▁ㄴㅏㄴ
▁ㄷㅡㄴ
모토
▁윌리
▁ㅈㅓㄴㅎㅐ
▁짧
▁지도자
▁박물관
▁초대
▁해결
▁이스
▁유로
▁장소
▁마이크
▁그대로
▁검사
▁소리
▁실제로
▁브라질
▁스위
워드
▁긴
▁총선
▁여행
▁카드
▁바뀌
▁집합
▁여름
▁화학
▁표시
▁차원
▁ㄸㅟ
▁강력
▁기구
▁패배
▁오브
▁묘사
▁식물
▁1960
아가
ig
▁계열
▁제시
▁관측
▁ㅁㅣ
▁이외
▁연극
▁1991
▁쓰이
▁에이
▁안전
▁인사
▁단순
▁유니
토리
▁차트
▁스웨덴
로나
▁활용
▁파일
▁멕
▁디지
▁무역
▁권력
▁개국
▁회원
▁잇
▁히로
▁오스트리아
▁곤
부르크
레일리아
▁1993
▁근처
▁33
▁기계
▁ㄲㅡㅌ
▁형제
▁캐릭
▁보다
▁조성
▁소프트웨어
▁반란
▁ㅂㅏㄺㅎㅕ
▁붕
배우
트리
▁먼저
▁지적
▁분포
베이
▁중간
▁중단
▁흡
▁발행
ㅐㄴ
▁위험
▁아무
▁일정
트로
▁세대
▁시행
▁스튜
▁스코
▁도착
▁여객
특별시
▁량
od
▁기자
▁협력
▁서울특별시
버트
▁사이트
사카
▁윈도
▁지하철
주시
▁186
▁단어
▁해안
▁캐릭터
▁하루
니스
▁다만
ve
▁",
▁렌
워크
▁나타나
▁코드
▁혜
▁파견
▁죽음
as
▁수많
▁연장
▁통하
▁내각
▁순위
▁세상
▁전시
▁경상남도
▁오스트레일리아
지션
▁공장
▁다카
▁본부
나이
▁생성
▁투자
▁후기
▁번역
▁카이
소년
▁삶
▁겪
▁케이
▁윌리엄
▁감소
▁근거
▁ㅉ
▁혐
▁경상북도
ㅇㅣㄹ
▁지상
▁옹
▁죄
▁뮤직
▁네트
▁제기
▁보유
▁확대
▁귀족
▁보존
▁태평
▁유형
▁관광
▁나타내
▁양식
▁ㅆㅏ
▁1988
무원
▁떠
▁ㅇㅣㄴㅈㅣ
▁지식
▁균
▁동생
▁바꾸
▁멜
▁위기
▁?
▁상징
▁달성
▁유대
▁187
▁촬
▁ㅋㅔ
▁캘
▁극장
▁멕시코
▁원소
▁촌
▁전략
▁상업
▁h
▁디지털
▁근무
▁영상
▁학위
▁당선
▁유리
▁수사
ㄹㅏㄴ
▁성립
▁완성
▁대응
▁굴
▁단위
▁34
▁특수
▁계승
▁촬영
▁체포
▁옆
▁이슬
▁올리
티아
▁수비
▁님
▁코치
ㅋㅣㄹ
▁식민지
▁38
▁나중
▁몇몇
▁이렇게
▁체결
id
▁전달
회사
▁마사
▁그렇
▁이집
▁이집트
▁권리
▁알렉산
▁종목
▁국왕
▁생명
가와
▁보내
▁90
▁듀
가리
아시아
▁승격
▁아내
▁시티
▁톤
▁헨
▁1989
▁직후
▁판단
▁이주
모리
▁타이틀
▁시청
▁개통
▁2021
▁맹
▁관찰
▁률
▁주식
▁도서관
▁크로
▁대륙
▁48
ec
▁미래
▁측정
▁동계
▁소수
▁미군
▁다루
▁젊
▁채널
▁엘리
▁홍콩
▁발매되
us
▁문화재
▁깨
▁낳
▁밑
▁정치인
▁싶
▁스키
▁전환
▁설정
▁자본
▁세르
▁포르투
and
▁특성
▁라인
▁텍
▁',
NA
▁새로
▁미사일
▁개정
ㄱㅏㄴ
▁납
▁신경
▁시위
▁종료
▁얼마
▁취임
▁의견
▁1950
▁기획
▁제정
▁지위
▁|
▁후쿠
▁본관
▁300
▁결승전
▁은하
▁ㄴㅓㅁ
ㅇㅣ
▁전차
▁청년
스티
▁MBC
디아
코드
▁사회주의
▁천황
▁e
▁아키
▁출생
▁주인공
▁교체
▁범죄
ad
▁헝
▁제임스
▁전라남도
▁셀
▁충돌
▁주목
▁계산
▁소개
▁예수
▁수정
▁해외
▁녹음
▁춘
교회
▁장기
▁ㅃㅜㄴ
▁1945
▁ㅁㅗㅅㅎㅏㄴ
▁음식
▁바이러스
▁비용
▁즉위
▁스티
▁ㄱㅏㅇㅎㅏㄴ
ㄴㅏㄹ
▁본래
▁남북
▁카운
▁개선
▁소장
리학
▁합류
ent
▁자격
▁건강
▁비밀
전히
▁공부
▁펠
▁네트워크
▁공급
▁ㅈㅕ
▁궤도
▁계기
▁ㅎㅑ
▁배경
▁부모
▁체육
스카
▁이래
▁만드
▁시내
▁에드
50
▁인근
▁제거
▁늘
▁원정
▁셰
▁ㅇㅗㄻㄱㅕ
▁컬
▁작성
▁공군
▁오후
▁각종
▁명예
ㄱㅏㄴㄷㅏ
▁가리키
▁거대
▁홈런
▁자원
ㅁㅏ
▁감염
▁물론
▁입학
▁왼
▁신학
▁가입
▁성우
▁베네
▁국경
▁군인
▁집중
▁피아
▁가격
▁전사
▁듣
▁천문
▁ㄱㅏㅈㅊ
베르
▁명단
ㅝㅆ
▁객
▁포지션
▁ㅆㅓㅆ
▁나누
▁울산
▁병력
▁ㅁㅓ
▁저항
▁신호
ㄷㅇㅏ
ㄹㅡㄹ
니어
▁ㅈㅜㄴㄷㅏ
▁통제
티나
▁이슬람
▁농업
▁기후
리포
▁끌
피아
▁강조
▁찰
▁질량
▁측면
▁소송
▁St
▁인수
▁터미
▁만약
▁플로
▁실행
▁블랙
▁학문
▁ㅁㅔ
▁세이
▁ㅈㅜㄴ
▁병사
▁콩
▁마치
▁터키
▁움직
ot
도로
▁ㅇㅏㅍ
▁오른
▁강원도
▁겨울
▁x
▁정착
▁최소
▁증명
▁약간
▁비트
▁변호
▁잎
▁엑
ㄹㅡㅁ
▁기회
▁너무
ㅎㅕ
▁읽
ㄴㅓ
▁미디어
▁ㄴㅜ
▁무장
un
▁외부
▁광고
▁노동자
▁이번
▁37
ow
▁해방
▁in
▁몽골
동안
▁편집
▁아우
▁터미널
▁국방
▁환자
ㄱㅓ
철도
▁ㅍㅕㄹ
▁마쓰
▁마리아
▁다니
▁제목
스키
▁태평양
▁지점
▁밀도
▁들어가
▁놀
▁냉
▁표면
▁라운드
▁무렵
▁금융
▁도중
▁전반
▁ㅇㅣㄴㅎㅏㄴ
▁마련
▁유도
▁혐의
▁1987
오카
▁가스
▁허용
▁바람
ㄴㅏㅆㅇㅡ
▁그해
▁카르
▁학년
▁윈도우
▁힐
▁충분
▁짓
▁합병
소리
▁충청남도
▁인디
▁루이
▁만나
▁쇠
▁래
▁여전히
▁꼬리
▁재산
▁영화배우
▁재직
▁민간
▁갖추
▁오사카
▁전력
▁포르투갈
▁가르
▁모리
▁숲
▁ㅂㅓㄹ
▁w
▁양성
마크
▁고전
▁등급
▁선수단
ㅈㅇㅏ
▁전역
▁41
▁뒷
▁령
▁붕괴
▁킹
▁헝가리
▁현실
▁라이브
▁1986
▁재정
드로
▁공주
▁1984
▁51
ur
▁지내
▁캘리포
▁공공
▁보고
▁엔터
▁스튜디오
▁이하
▁동료
▁ㄹㅣ
▁봄
▁털
▁대수
▁계급
▁위원장
▁전선
▁승인
▁강제
▁군주
▁상하
▁적극
▁인하
▁온도
▁대대
▁ㅂㅜㄹㄹㅣㄴㄷㅏ
▁위협
▁샌
▁조치
▁근대
▁구축
▁롤
▁유엔
ㄹㅣㄹ
▁수입
▁범위
▁전하
▁ㅈㅗ
▁클라
▁캘리포니아
▁임무
▁오리
▁ㅂㅏㄷㅇㅏ
▁이미지
▁경력
▁양자
▁업체
▁논문
▁대학원
▁핀란드
▁위성
▁출발
▁다섯
▁고구
▁교사
▁항상
▁거래
▁점차
▁성인
▁미치
▁토론
▁공산당
▁후지
▁채택
▁전개
▁필리핀
▁수단
▁원칙
▁회복
▁확보
▁잭
마스
▁아시안
▁강의
▁잡지
▁섭
▁수립
테르
▁드래
ㅇㅛ
ch
▁남아
▁공업
▁증거
▁첨
주교
▁39
▁남편
▁ㅈㅔ
▁400
▁개편
▁매년
▁ㅊㅏㅈㅇㅏ
▁기지
▁스파
▁얼굴
▁일원
고리
▁선생
ㄴㅐㄴㄷㅏ
▁의료
▁사례
▁합의
▁만족
▁시인
바이
▁나카
▁스위스
▁이스라
▁1985
▁부근
▁폭발
▁꿈
▁그래서
▁장비
▁64
▁간주
▁ㄴㅐㅆ
로드
▁이승
▁모스크
▁종종
▁대형
▁ㄷㅚㅁ
데미
▁경주
▁붉
▁대기
▁군단
▁스리
ay
▁이스라엘
▁끼
▁띠
▁분자
▁규칙
ir
▁ㅅㅓㄴ
▁장면
▁토지
▁항성
▁아주
▁답
▁욕
▁불가
▁II
▁수원
▁종이
ut
▁어린
▁ㅇㅕㄹㄹㅕㅆ
▁롭
▁게이
▁캄
▁경향
▁ㅂㅓㄹㅇㅓ
▁조합
백질
▁알리
키아
▁ㅂㅜㄹㄹㅓㅆ
▁해체
▁낭
▁진화
▁탑재
▁귀국
▁꾸
우드
um
▁레코드
▁아랍
▁강점
▁아카데미
▁43
고기
레이드
▁그곳
▁대장
▁br
▁확실
▁쉬
▁기억
▁서양
▁버리
▁이제
▁신화
▁평양
▁짐
ㅇㅜㄹ
▁세우
▁향상
▁클래
▁투어
im
▁장식
▁스피
▁아나
▁고양
▁기대
▁아메리카
▁박쥐
▁청소년
▁란
▁좀
▁침공
▁42
▁틀
▁ㅍㅏ
▁보장
▁융
▁의학
▁청나라
▁카운티
▁폼
▁남동
▁랭
ㅡㄹㅇㅓ
▁메이저
▁사후
▁고구려
오스
▁켄
▁만큼
요시
▁카메
▁자금
▁에피
보드
▁보병
▁어떻
ㄱㅏㄹ
ver
▁가사
네스
▁불과
▁선고
▁잠시
▁신설
▁1982
▁소년
▁나치
▁성과
▁맛
라비아
▁단백질
▁빠르
▁55
▁독자
▁스타일
타인
▁고문
▁중화민국
▁이끄
에르
▁만주
라노
▁숭
▁라틴
▁편입
▁감정
▁철도역
▁살해
▁우선
▁우수
▁단지
▁스카
▁ㅅㅏㄹ
▁확정
네시아
틀랜드
▁ㅌㅗㅇㅎㅏㄴ
▁스케
▁광역시
▁함대
▁복잡
▁ㅌㅏ
▁비율
▁ㄱㅏㅈㅊㅜㄴ
▁덴마크
▁1983
▁i
▁차별
▁신앙
▁의장
▁지시
▁모르
▁세종
▁나폴
▁44
▁왕위
다이
▁재단
▁예상
▁창설
▁온라인
누스
▁LG
일러
▁태풍
▁삭
▁고향
FC
▁공유
▁마크
▁법인
ㅅㅓㅆ
▁구체
▁전설
▁나뉘
▁성당
▁선거구
▁ㄷㅏㅇㅎㅏㄴ
▁검찰
▁전화
▁역대
▁브리
▁동의
▁육상
▁킬
하라
▁47
▁솔로
▁반도
▁참석
▁판결
▁삼국
▁보급
▁브랜드
운동
ㄹㅜㄴㄷㅏ
트라
▁대립
▁ㅎㅏㅂ
싱턴
▁유학
▁하늘
의회
▁저장
▁ㅎㅐㅆㅇㅓㅆ
▁노예
▁고정
▁수출
▁후손
이크
비드
▁애플
▁핵심
▁카를
▁ㅇㅗㄹㄹㅕㅆ
ㅇㅗㄴㄷㅏ
▁집행
▁이루어지
▁75
▁오픈
▁강점기
▁협상
▁본격
▁ㄴㅑ
▁184
▁보안
▁산맥
▁ㄴㅔ
▁180
▁ㅂㅐ
▁Z
▁앞두
▁마드리
▁초반
오프
▁회전
셔널
원군
없이
▁자세
▁탄생
▁암살
▁대비
문화
▁중반
▁사전
ㅇㅡㄹ
▁연고
각형
▁ㅈㅓㅂ
▁숫
▁대항
▁마드리드
▁로버트
▁1972
▁옷
▁이성
▁헤이
▁베이스
반도
▁주교
▁까
▁플랫
▁사라
▁아르헨
▁법칙
▁듯
▁켈
리스트
▁어린이
▁사우
▁공학
▁전용
▁권한
▁순서
▁46
소드
어들
▁단일
▁지키
▁말기
▁1920
▁이란
▁공기
▁프란
▁베를
▁유적
▁의무
레이션
▁직원
▁전혀
▁아르헨티나
▁수여
▁조금
CA
▁요한
▁인상
▁떨
▁중심지
터리
▁시각
으키
▁이익
▁1979
▁별도
▁공포
▁아미
▁운전
▁ㅍㅓ
▁아스
▁전라북도
▁사항
▁스크
▁효소
▁흔히
▁빨
▁보조
▁ㄷㅜㄴ
ㄹㅝ
▁비난
▁글로
▁롯
▁잘못
▁원주
▁워싱턴
▁CD
▁협정
▁상품
▁변호사
▁kg
▁아파
▁전후
▁파크
▁관료
▁우크
▁통계
▁쌓
▁방면
정부
ra
▁을
▁창조
▁튀
▁인권
▁1930
퍼드
▁작곡가
▁레드
▁금메달
▁In
▁1981
▁투입
▁ㄴㅗㅎ
▁텐
▁저서
▁현장
▁1973
무라
▁장착
▁항복
▁하드
▁소식
▁아침
▁셋
▁정복
▁150
▁벡
퍼스
사키
▁호텔
10
▁ㅋㅣ
▁심각
▁공무원
▁엠
▁훨
▁드러
▁중세
▁헨리
▁강하
리어
▁노스
▁니콜
▁건국
▁오른쪽
os
▁교류
▁숨
▁공화
▁교토
▁본인
▁중부
▁ㄷㅡㅅ
▁v
▁ㅈㅜㄱ
▁갈등
▁산하
▁훨씬
▁공산주의
▁마이클
▁코미
▁빙
▁요새
▁세인트
▁김정
▁오랜
▁유전자
ㄷㅡㄹㅇㅕ
▁건조
▁한때
▁출마
▁플라
▁왼쪽
▁인정받
▁오히
▁플레이어
▁논의
▁서기
ㅡㄹㄹㅓ
▁무리
▁창립
▁성경
▁인류
▁오토
▁어떻게
▁로드
▁연합군
▁방출
▁추측
▁금속
▁1940
▁베이징
▁원작
30
▁태국
▁1974
▁주위
BO
▁185
▁예산
▁성질
▁노르웨이
em
▁북서
▁릴
▁끊
▁제자
▁형사
일보
▁복합
▁투쟁
▁에피소드
▁군수
▁코스
▁열리
ter
▁에어
▁사령관
▁운용
▁일으키
▁사태
▁플레이오프
▁모스크바
▁효율
▁전철
▁오전
▁논쟁
▁SBS
▁멸망
▁입자
▁ㅂㅣㄴ
▁반복
▁해양
카와
▁스코틀랜드
▁합성
▁집안
▁절대
▁정비
▁구별
▁1948
▁노부
▁제출
▁숫자
▁메시
▁주기
▁ㅂㅕ
▁블루
▁연산
▁인종
듀서
▁각본
▁프로듀서
▁탁
▁미니
▁사법
머스
▁54
▁ㄷㅔㄹ
▁ㅈㅣㄴㄷㅏ
▁포위
▁흡수
▁인조
▁거절
▁이어지
▁1968
▁출장
▁인공
▁델
▁댄
ㄹㅣㄴㄷㅏ
▁ㅂㅜㄹㄹㅕㅆ
▁중대
▁1976
▁원리
▁웨스트
▁슬로
▁연관
▁베를린
▁경성
도르
▁활발
▁목사
▁ㄷㅜㄹㄹㅓ
▁마침
▁수송
▁시점
▁ㅂㅜㅌㅇㅕ
▁신체
▁북동
▁출입
▁오히려
▁소녀
▁전공
▁해상
라크
▁이민
▁건립
▁개시
▁주전
▁포기
▁1975
▁읍
▁보스
▁인터뷰
▁음력
▁취급
▁사령부
다리
▁우스
▁국도
▁가로
▁지니
op
▁명성
ㅁㅊ
시스
데스
▁디스
▁파라
▁트랙
▁고용
▁축제
▁ㅂㅏㄲ
▁ㅂㅏㄲㅇㅔ
▁영화제
나이티
▁동원
▁활성
▁취득
▁히데
▁분쟁
▁프라
▁1978
▁유나이티
▁신성
▁국장
▁농민
▁주택
▁1971
▁56
▁장악
ag
▁어렵
▁미드
▁갤
▁소스
▁비록
ㄹㅡㅁㄷㅏ
▁총독
▁보컬
▁빼
▁구속
▁고유
▁1963
▁진보
▁일치
▁견해
▁생기
▁ㅅㅗㄱㅎㅏㄴㄷㅏ
산시
▁죽이
서트
▁52
▁전부
▁ㄱㅓㄴㄴㅓ
▁북아
▁불법
▁유물
▁49
▁직전
▁한자
▁자이
▁하위
▁코미디
▁후원
▁부활
키스탄
에트
쿠라
▁65
▁포도
▁교차
▁학습
▁여객철도
▁폭력
▁연료
▁정체
▁관점
▁닌
▁보험
▁타이완
▁주관
▁도달
▁수술
▁대리
메리
세이
▁1969
▁천체
ce
▁둥
▁혼란
▁179
▁떠나
▁항공기
▁약속
▁편지
▁아테
▁이기
▁시리아
▁한국어
기에
▁철수
▁Q
▁관직
젤레스
▁직업
▁상당히
▁본사
리케
릭스
▁고종
▁여부
▁00
▁미나
▁명명
▁ㅇㅐㄴ
▁수집
▁선교
▁장교
▁반영
▁데이비드
▁임금
▁제어
▁취하
▁넷
▁팝
자기
▁테러
▁ㄱㅕ
▁브레
▁성능
▁1946
▁논리
▁그리스도
▁백제
▁아사
▁주간
▁의존
▁화물
▁예비
▁부임
▁상륙
공항
▁영업
▁보관
▁일대
▁폴리
▁스미
▁학술
▁프리미
▁하나님
▁소방
▁톰
▁백작
▁불상
▁도구
▁내리
▁심리
▁주식회사
▁해산
OS
▁연재
▁프로세
▁53
▁대화
▁정지
▁콘서트
▁무엇
아내
▁교환
▁접하
▁스마
▁허가
ㅈㅜㄴㄷㅏ
▁하우스
▁개체
▁전파
ㅇㅜ
▁코로나
미터
▁박정
▁십자
▁전문가
▁제일
이어
oc
▁1964
▁정원
▁방사
▁충청북도
▁대략
▁니시
▁자살
▁헤르
▁핑
▁간단
프리
▁반발
▁ㄴㅐㄴ
▁진입
▁화성
▁영향력
▁보건
▁살인
▁재료
▁판서
▁베스트
▁학부
병대
▁벨기에
▁리스
▁미터
▁US
▁포트
▁겐
▁공통
▁서버
▁상승
뿌리
▁신분
▁거기
▁항구
▁국제공항
▁안타
▁김영
ri
▁학원
▁영입
▁지붕
▁그런데
▁인도네시아
▁and
▁58
▁승진
▁사장
▁피아노
▁꼭
▁고리
▁소비에트
▁가을
▁시호
▁파트
▁학회
노스
▁바라
▁그레
▁부장
▁1000
▁99
▁외국인
▁ㄹㅔ
▁루이스
▁랜
▁진압
▁스프
▁스토
하마
▁아라
▁사운드
▁브루
▁식품
▁창단
▁질병
▁횡
▁채용
▁콤
▁변환
▁주년
어스
▁복무
ㅈㅕㅆㅇㅡ
▁계통
▁참전
▁구성원
▁현역
▁PC
▁임대
▁응용
▁픽
▁저지
▁1977
저우
▁요코
▁통상
▁공동체
▁감사
▁탈출
▁임의
▁합격
천군
▁작사
▁장수
▁트랜
▁민법
▁리더
ㄴㅐㄹ
아버지
▁찍
▁기도
▁망명
▁SK
▁모드
▁벼
▁의도
▁롯데
▁한반도
▁탈락
▁말레이
▁문헌
▁고도
▁조작
▁화면
▁로스앤
▁로스앤젤레스
▁페이
다가
▁1949
▁친일
▁포로
▁위반
아들
▁에도
▁신청
▁탄소
▁라이트
▁문장
문화재
▁발언
성군
▁부부
▁방송국
▁마케
▁트라
▁흐르
igh
▁이치
▁학과
▁FA
▁동남
▁캠퍼스
ㄹㄹㅣㄹ
▁88
▁수영
▁변형
▁선조
▁저작
정식
▁배출
▁수소
▁트로
▁ㅍㅣ
▁1962
▁메모리
ㄹㅓㅆ
▁연출
▁상원
▁엑스
ation
▁시카
▁예측
▁코파
▁62
▁절차
▁청구
▁자녀
▁레오
▁1967
▁주둔
▁전동
려움
▁조절
▁기호
▁..
▁이중
▁택
▁분열
카이도
▁기하
▁요인
▁신인
▁큐
▁서원
▁국무
▁누구
▁화재
▁레스
▁정기
드시
▁처형
▁r
타르
▁좁
▁로켓
▁출간
▁ㅈㅕㅆㅇㅡ
크스
▁호수
▁선전
로그
▁57
천시
▁광장
▁막부
▁이승만
▁실수
ㅟㄴㄷㅏ
▁수리
▁ㅇㅛ
▁남서
▁황금
▁방지
▁ㅅㅣㅁ
▁증상
▁카메라
▁달하
▁동작
▁루트
▁이시
페라
▁기법
▁동성
▁연안
▁왕자
▁장르
▁취소
▁흑인
브리
▁ㅇㅣㅂㄴㅣ
▁개조
▁오스만
▁스럽
▁어떠
▁You
▁생존
▁콘스탄
▁앵
▁흉
▁ㅁㅏㅈ
라드
▁롱
바르
▁Ch
▁ㄴㅏㅁㄱㅕㅆ
포르
▁위상
▁지급
▁서구
▁등지
▁현지
▁기체
▁농구
▁히트
▁고지
▁여단
▁전주
▁좌우
▁천연
▁반드시
▁임진
▁진주
▁ㄴㅡㄴㄱㅏ
▁일본군
비치
▁공정
▁무덤
▁터널
▁181
▁크리
▁희망
아오
▁ㄱㅏㄹ
▁동아
▁제대로
▁톱
▁코르
▁도전
▁전면
ㅁㅜ
방송
ㄱㅣㄹ
▁ㅇㅜ
▁스탠
▁ㅍㅜ
nd
▁글자
▁1966
▁분명
▁미국인
▁바둑
▁이온
▁압력
▁66
▁둘째
▁특이
▁녹색
▁독립운동
▁그레이
▁%,
▁파악
ㄹㄹㅓㅆ
▁싸움
▁전형
▁노벨
▁짜
▁경로
▁방정식
▁독특
라이언
▁1965
▁리처
▁KBO
바라
▁68
▁매일
▁법정
▁아프
▁해리
▁에르
티브
▁물체
▁부사
▁유기
▁183
더스
▁타임
▁목소리
▁ㄹㅏㅇ
▁체코
에이
▁나들
▁신뢰
▁일식
▁ㅊㅟ
▁뿌리
▁성향
▁개신
▁인지
▁ㅇㅣㄴㄱㅏ
▁분해
▁61
▁클레
ST
▁알렉산드
▁지리
▁간행
▁밥
치아
▁즐
▁퀸
베스
▁홋
▁처벌
▁찰스
▁일찍
▁돌아가
르타
▁동기
▁화산
▁타격
이치
▁유행
▁완료
▁분할
▁사립
ㄷㅡ
▁나들목
질랜드
▁내전
▁김일
▁손자
▁실질
ㅅㅔ
▁방해
▁범주
▁뉴질랜드
▁풍부
▁삽
▁순환
▁던
▁아리
▁추구
▁ㅈㅓㅇㅎㅐ
▁구하
▁아동
▁갈색
▁1961
▁별명
ER
▁싸우
▁평등
▁맞이
▁대개
▁묵
▁웅
▁ㄲㅡㅌㄴㅏㄴ
먼트
▁플래
▁아파트
▁복지
▁우려
art
▁800
▁먹이
▁마르크
▁ㅂㅘ
▁흰
ㄴㅎㅐ
ice
▁리가
▁비평
▁희생
▁가상
▁오프
▁ㅁㅏㄴㄴㅏ
▁부진
▁최다
▁파르
▁가까
▁창원
▁분기
▁시조
▁ㅍㅐ
▁600
▁올라
▁86
▁시드
▁전원
ㅇㅜㅁ
▁집권
▁마침내
ON
▁구현
▁사냥
▁기둥
▁모형
▁IS
▁점점
▁ㅎㅑㅇㅎㅐ
▁완공
▁판사
▁벡터
▁마시
▁한정
▁120
▁가시
▁메리
텐츠
▁중기
▁ㄱㅏㄴ
▁프린
▁ㅁㅐ
▁첼
▁대법
▁명확
▁테이
▁향하
유럽
▁닥
▁웨이
▁훗
est
▁사임
▁근본
피스
▁스토리
은행
▁한계
틀러
▁무게
▁일본인
▁부하
▁확산
▁사마
▁물리학
▁re
▁호주
▁출범
▁대공
ia
▁충격
▁캔
▁교향
▁날개
▁레인
▁늦
▁단독
▁맞추
투스
▁카라
▁사형
▁오페라
▁닛
▁의지
▁명나라
▁알파
▁뚜
▁상위
▁가나
▁1919
▁마법
ap
▁98
▁제이
디션
▁분위
▁사원
▁연구원
▁통산
▁ㅅㅐㅇㄱㅕ
▁편찬
▁ㅁㅏㅈㅊ
TV
▁넓이
사스
▁악화
▁1944
▁이자
리히
▁의혹
▁모토
▁서명
▁적절
▁유치
▁렀
▁인접
▁ㄴㅏㅆ
ak
▁조종
라이나
▁영웅
▁당초
▁의심
▁인증
▁꺾
▁끝나
▁문명
▁발굴
▁훌
▁도쿠
▁연간
▁추천
▁모임
▁샘
▁새롭
▁포인트
▁저술
ㄹㅏㅆ
▁곽
▁ㄱㅗㄴ
▁고속도로
▁ㅇㅗㄹㄹㅕ
▁광복
▁무시
▁함락
▁각지
▁동서
▁회담
▁사실상
▁포항
▁63
사자
▁1941
▁프리미어
▁홍보
▁접촉
▁기온
▁드라이
AR
▁골든
▁자극
▁개입
▁독일군
▁ㄷㅏㄹ
▁징역
▁기기
▁탐사
▁95
우리
▁순수
▁올해
▁멘
▁사정
▁밝히
▁ㅂㅗㅇㅎㅐ
▁개막
▁뮤지
▁순간
▁득표
▁세르비아
▁74
▁공로
▁그라
▁경전
▁학살
연히
▁등판
▁성분
▁행렬
숭이
▁느끼
▁바위
▁정하
▁시카고
▁59
▁변수
▁임기
▁DNA
▁오랫
▁추산
▁악기
민주
▁루스
버그
믹스
▁앤드
▁178
▁Lo
ct
▁그때
학생
▁구원
▁락
▁수석
▁한국인
▁여론
대부
일리
▁실현
▁닉
▁예전
▁자전
ㄴㅕㅆ
▁네이
▁공헌
▁확률
▁벗
무부
▁보고서
▁팽
▁입법
▁스마트
▁프로그래
▁혼합
▁백성
▁아티
▁태도
▁훗날
▁1958
▁튜
▁언제
▁매장
▁IC
▁방위
▁이닝
▁페르시아
▁감시
▁ㄷㅏㅁ
▁떨어지
▁양쪽
▁오랫동안
▁특별시
▁미쓰
▁심사
▁ㅈㅡㄹ
▁피터
ul
러리
▁1947
▁ㅂㅓㅅ
▁왕실
▁to
코스
▁ㅋㅡㄹ
▁160
▁82
▁;/
▁ㅁㅜㄹㄹㅓ
▁ㅎㅏㅂㅊㅕ
▁출력
▁에드워드
▁영지
▁침략
▁리처드
▁커뮤
▁뱅
▁내려
▁개신교
▁균형
▁줄기
ㅎㅣㄴ
▁원형
▁1956
▁텍사스
▁다케
▁경남
▁대량
▁단편
▁안토
▁저녁
▁조별
▁72
▁76
▁SS
▁랜드
▁승객
▁그래픽
이너
▁시사
▁자라
▁신부
▁멀리
▁프라이
▁여왕
▁승부
▁아이돌
▁제사
▁발발
▁가와
▁미야
ㄹㅡ
▁분위기
ie
▁동명
▁무사
▁권위
▁대선
▁안동
▁커뮤니
리노
▁작위
▁이라크
▁타자
▁흐름
▁춤
▁재건
▁교구
▁프랑크
ㄱㅎㅏㄴ
▁데스
▁77
▁입력
▁마무
▁참고
▁바깥
▁ㅅㅗㄱㅎㅏㄴ
▁복원
▁1939
▁테스트
▁잠수
▁축구단
▁과학자
ㅇㄴㅏㄴ
▁확립
▁ㅂㅔ
▁일상
▁석유
▁67
메리칸
▁폭탄
레나
▁점수
▁시상
▁Th
▁도요
▁타워
▁리버
▁포켓
▁비상
▁침입
▁어깨
▁ㅎㅡ
▁긍
▁AFC
ud
▁병합
▁사자
▁신자
▁복음
▁수익
▁ㅂㅓㄹㅇㅕㅆ
▁민중
ly
▁일시
▁주최
▁한글
▁복수
▁부지
일스
▁기소
og
▁대왕
▁시마
▁정수
▁ㄷㅏㄹㄹㅏ
▁자식
▁재배
▁다운
▁브라운
▁당국
▁더블
▁빅토
▁혁신
레옹
메이
▁대성
▁내셔널
th
▁보물
▁ㄴㅡㄹㅇㅓ
▁85
▁도모
▁신고
▁암호
에른
▁가량
▁평안
▁가공
▁지형
▁동양
▁움직이
▁1954
ist
▁나폴레옹
▁본질
▁창작
ㄱㅣㄴㄷㅏ
▁계층
▁연예
▁우라
▁공중
마니아
▁인쇄
▁가담
▁국기
▁사제
▁훈장
이센
보이
▁빌보드
▁쌀
▁폐쇄
▁어디
▁힌
레인
▁구글
▁심지
▁산화
▁파워
▁ㅊㅣㄴ
▁후계
왜란
ight
▁고기
▁임진왜란
▁1952
▁돕
▁노출
▁참모
AS
▁급제
▁ㅇㅏㅍㅅㅓ
▁누르
▁가설
▁움직임
▁비서
▁평론
▁ㅎㅣㅁ
▁탱
▁력
▁세리
아티아
▁크로아티아
▁73
ㅇㅗㄹ
▁가이
▁다소
▁발음
▁조조
▁아테네
▁ㅊㅐ
▁총회
▁스타디
▁ㅁㅏㄴㄷㅡㄹ
▁전신
조합
▁그렇게
▁박정희
▁대지
▁타운
ㄴㅟㄴㄷㅏ
▁동방
▁*
▁람
▁96
▁후속
▁고통
▁라스
▁뷰
ㄷㅜ
▁오카
▁탈퇴
▁실력
▁81
필더
▁따로
▁무한
▁뮤지컬
▁미드필더
ㅊㅏ
AT
▁셔
▁절반
▁청주
ㅝㄴ
▁78
▁Al
▁행복
ㅂㅎㅕ
▁상관
▁장남
▁수도원
▁뤼
▁개설
▁ㅊㅕ
▁재학
바로
▁인용
▁ㅅㅣㄴ
▁화이트
▁국정
▁로봇
▁전투기
ㅂㅗㄹ
▁뽑
마르
시오
▁센트
▁보상
▁중력
▁가까이
▁기리
▁젠
▁비례
▁전남
▁ㅇㅗㄻㄱㅕㅆ
▁ㄴㅓㅁㅇㅓ
▁이혼
▁아트
▁심장
▁천안
▁화장
▁도덕
▁산소
▁김성
▁하인
▁202
▁뮌
▁보르
▁바닥
▁손상
▁안드로
▁바이에른
▁블라
▁여섯
▁NH
너스
▁생물학
의정
▁1959
▁빌딩
▁레알
▁전직
체스터
▁피해자
ess
▁지향
▁177
타이
▁김대
자치
▁포스트
▁국군
▁지사
▁상역
▁문신
▁불만
▁사무소
▁Li
▁주력
▁윗
▁ㄲㅣ
인물
▁백만
▁71
▁와이
▁AT
▁교리
BA
▁묻
▁사우스
토스
▁질환
▁황후
▁녀
▁화합
▁91
▁DV
▁포스
▁당나라
▁작동
▁콘스탄티
▁관여
▁피부
▁소득
하여
▁피하
▁벌이
▁인생
▁패션
ㅁㅊㅓ
▁ㅇㅓㅁㅊㅓ
세포
▁기상
클리
▁검토
▁액션
▁총장
▁깃
▁승려
▁부담
▁선박
▁마무리
▁가마
▁하원
▁메시지
▁호소
직자
▁1942
▁유통
▁신사
▁결론
▁사유
▁상실
▁가슴
▁약물
가락
▁역학
스트라
▁골드
▁디아
▁;,
▁글로벌
▁개방
쿠스
▁아웃
▁좌상
▁혼인
▁설득
▁동해
▁디스크
▁모바
▁위키
▁햄
▁덜
▁조카
▁페이지
▁프로이센
▁87
▁그린
▁오직
▁적합
▁규제
▁ㅅㅏㄴ
미야
터스
ub
▁심지어
▁수요
▁결의
▁st
▁매체
▁연습
▁앉
나가
▁1943
▁ㅇㅓㅁㅊㅓㅇㄴㅏㄴ
▁비치
▁진단
▁159
ㄷㅜㄴ
▁부산광역시
▁처분
▁홋카이도
▁구매
▁통화
▁가요
▁1955
▁원년
▁선임
▁김일성
▁서식지
▁분노
▁말레이시아
가니
▁보살
▁야스
▁이명
ㅆㅏ
▁왕비
▁잭슨
▁\
IV
▁스타디움
▁띄
▁위대
ㄹㅜㄴ
▁억제
▁심판
ㅊㅣㄹ
▁ㅂㅗㄴㄷㅏ
▁개성
IA
▁발탁
▁드래프트
▁1953
▁ㅅㅟ
▁퀴
▁쿠데
▁테크
▁주석
▁진정
드리히
▁일기
▁1936
▁소멸
▁무료
▁싱가
▁예방
▁크루
▁싱가포르
▁일컫
ab
▁AP
▁필드
ㄴㅑ
▁84
ㅊㅣㄴㄷㅏ
▁왕후
▁톨
미르
▁700
▁유형문화재
▁일본어
▁덮
▁끝내
▁사격
▁프랭
▁사무실
▁자이언
▁음악가
▁티베
▁ㅇㅕㅆㅇㅡㄹ
▁거듭
▁일체
▁태조
ㅂㅎㅕㅆ
▁힙
▁여우
▁어려움
▁프리드리히
▁진영
▁이와
▁긍정
▁정차
▁루마니아
▁모바일
▁카스
▁곱
▁사도
▁인원
▁폭격
▁조지아
▁천주교
▁1910
▁궁전
데이
▁세자
유산
▁쿠데타
▁ㅅㅐㅇㄱㅣㄴ
주군
▁타인
▁후쿠오카
▁기동
▁즉시
▁창당
ine
▁대책
▁전동차
▁리드
▁전북
▁ㅂㅓㅅㅇㅓ
▁Re
▁김종
▁불안
▁ㅇㅜㅁ
▁히틀러
▁시나
▁유고
▁스티븐
▁크로스
▁쾌
▁ㄷㅔㄴ
▁학사
▁개칭
▁에서
▁상속
▁ㅇㅗㄹ
▁딜
▁막대
▁전당
▁깊이
▁오이
란색
▁대체로
▁강릉
▁남아프리카
▁1957
구리
▁아메리칸
▁알고리
아들이
▁ㅅㅗㄱㅎㅐ
▁97
▁구입
▁ㅅㅓㄴㅂㅗ
▁요금
▁진격
▁챔피언십
▁원주민
▁딘
▁연설
▁본명
ew
독부
베르트
리나
▁발명
▁콘텐츠
▁조상
▁휴대
▁스미스
▁타이거
머리
▁메이지
▁1914
히로
▁필수
▁독재
▁전송
▁생태
▁광범
▁추방
▁음성
ㅎㅕㅆ
▁자국
▁검색
▁누리
▁동북
▁수호
▁69
▁알고리즘
▁테마
▁초점
▁세트
▁이즈
▁부동
▁대우
ue
▁주소
▁포켓몬
▁="
▁도마
시스코
▁토론토
▁인디언
미니
▁사기
구치
▁이마
▁천만
▁92
▁느낌
▁렀다
▁신장
▁덩
▁1900
▁수업
원경
▁급격
▁신도
리그
▁최우
▁알바
▁불가리아
▁코리아
▁미리
▁1938
▁세부
▁후임
▁업적
▁랑
▁림
▁사과
▁핫
▁이내
▁클로
▁섹
▁미술관
래프트
▁원수
▁연락
▁펑
▁석사
▁ㅎㅐㅇㅎㅐ
▁서술
▁부위
▁주니어
EC
▁배포
▁완벽
▁101
지사
비히
▁유효
▁해발
▁ㅍㅕㄹㅊㅕ
▁바르셀
▁스프링
자키
▁상인
▁바르셀로나
총리
▁전술
▁노트
▁라이프
▁재즈
▁고시
▁똑
▁HD
▁게다가
▁빌리
▁화려
▁01
▁고급
▁오키
▁언덕
▁연평
▁립
▁안드
▁선형
▁영양
▁1918
▁윙
로지
▁라틴어
▁DVD
산화
▁스탈
▁마스터
▁암컷
▁늑
▁등장인물
▁소형
총독부
▁소비자
▁조선총독부
▁웰
ㅈㅓ
▁랩
▁션
▁풋
▁각국
▁개량
▁ㄲㅔ
▁ㅅㅜㅁ
▁1951
▁시내버스
▁그만
▁상주
오르
▁물건
▁백인
▁유산
▁1932
▁마르크스
BM
▁일련
▁실천
ㅆㅏㄴ
제국
▁운항
▁화석
▁손실
▁{
▁on
ㄱㅎㅕ
ㅂㅜㅌ
▁고위
▁언스
▁계곡
▁저자
▁메달
▁묶
▁국적
▁ㄷㅡㅅㅇㅣ
▁질문
▁추기
▁1937
▁사퇴
무늬
▁게르
▁반사
▁블록
▁ㅁㅏㄴㄴㅏㅆ
▁집회
▁알레
▁미시
▁설치류
▁정교회
▁경비
▁짝
▁미스
ㄸㅡ
여금
▁영주
▁상수
▁만든
▁개별
▁노리
▁방언
▁대만
▁용인
▁주체
▁ㅅㅐㅇㄱㅕㅆ
▁진학
▁흰색
ㅢㄴ
▁ㅈㅓㅂㅎㅏㄴㄷㅏ
▁선포
▁마틴
▁엘리자
▁고객
민주당
▁89
▁차단
▁첩
▁환승
▁우크라
▁1935
ect
▁격파
▁부친
▁광범위
▁올스타
▁분교
펙트
필드
▁감각
▁실업
▁의문
▁갑자기
▁넥
▁타율
▁182
▁변하
▁칭호
▁닥터
▁프랑스군
▁이스트
▁후계자
사전
▁비행기
▁트레이드
▁크라
▁경제학
▁ㄱㅘㄴㅎㅐ
▁사찰
▁이웃
▁재개
바키아
▁93
▁로렌
▁화제
▁받아들이
ㅅㅜ
▁중추
▁찬성
▁뮌헨
▁커버
가시
▁항공사
▁싱어
▁Be
▁면역
▁추기경
▁퀘
▁거짓
▁고양이
▁다스
▁자본주의
하이
▁수치
동생
▁당원
▁ㅎㅏㅂㄴㅣ
▁구상
▁탄압
▁발간
▁비스
ㅇㅏㅆ
브라
▁항의
▁체험
▁줄이
▁수백
▁파티
▁겉
▁기부
▁회로
▁질서
▁꾸준
▁자산
▁내놓
▁사양
▁허락
▁남기
▁최후
▁촉진
▁분화
▁OS
▁곡선
▁남녀
▁성남
▁클리
▁쿨
런스
센트
▁마루
▁공신
▁법학
▁양산
▁이념
▁증언
▁클래식
ore
▁FM
▁1933
저스
▁반지
▁시트
▁잠수함
▁94
▁목성
▁화폐
▁아티스트
▁ㅌㅓ
▁소화
▁시모
슈타인
▁구멍
▁거치
▁영원
▁티베트
▁탕
▁대법원
▁가속
▁개척
▁극단
IN
▁습격
▁물고기
▁지수
▁아오
리우스
▁소위
▁보편
▁오버
▁축소
▁1928
▁쿼
다수
our
▁툴
▁수십
▁강남
▁소집
ㄴㅐㅆㅇㅡ
도사
▁군부
▁CP
ㅡㄹㄹㅕ
돼지
▁동경
▁유배
▁탄핵
▁태종
▁동화
▁선호
▁운송
▁팩
▁원시
▁베리
▁프랑스어
ell
▁상대식
▁줄어들
▁1924
▁콜로
▁조항
▁핸
공사
▁전적
▁료
▁ㄷㅏㅇㅎㅐ
프레
▁칠레
▁누스
▁용도
▁시신
▁개명
▁영구
▁79
▁오가
▁치르
▁충분히
▁익스
▁간부
▁약화
▁국토
▁하여금
▁주일
▁메트로
▁지불
▁혼자
닉스
▁세월
뜨리
▁대로
▁09
▁사막
▁전망
▁정면
▁김해
▁프로그래밍
▁조기
▁돌아오
▁이행
▁회색
▁펼
벤트
▁댄스
▁개장
▁콜롬
▁발레
▁110
▁대칭
▁재능
▁펀
end
▁그리하여
▁의정부
▁입대
▁실내
▁토대
▁ㅎㅡㄹㄹㅓ
슬링
▁정통
른바
▁존스
▁종사
▁직무
▁열매
▁형상
▁러브
티스
사이
▁토마스
▁04
▁토착
▁ㄷㅓㅅ
▁파키스탄
▁동굴
▁브로
▁당신
▁합동
▁이른바
드라
ill
▁구름
▁액체
▁원자력
리다
▁ㄱㅏㄴㄷㅏ
▁가깝
▁ㄱㅓㄹㅊㅣㄴ
▁쟁
▁법안
▁ㅆㅡㄹ
코프
ain
▁지중
▁하와
▁08
어도
▁이재
▁총재
▁170
▁웃
▁매치
베리아
▁정류
▁해제
▁퓨
▁안토니
▁빚
▁가난
▁진실
▁Co
▁단순히
▁틴
▁고교
▁대승
▁세로
▁초상
▁재생
▁스카이
▁베네치아
▁밀리
▁수컷
▁유아
▁개찰
▁손해
▁흔적
▁우에
▁판정
▁프로토
ID
▁빼앗
▁룸
ers
▁경북
▁부속
▁자랑
▁83
▁멀티
▁당대
과이
▁안티
ㅋㅡㅁ
▁스톤
▁뼈
▁다큐
▁오케
▁주문
▁안쪽
▁장로
페이스
테스
▁엄격
▁지표
▁힙합
▁ㅁㅗㅅㅎㅏㄴㄷㅏ
▁경고
▁사이드
▁무용
▁벼슬
▁서방
▁오류
데르
▁무력
▁ㅎㅢㄴ
▁메탈
ㅈㅣㄱ
▁들어오
ㅅㅡ
▁전제
▁함경
ard
▁강도
▁경찰서
고속
▁평면
▁늑대
▁페리
▁국방부
▁비잔
▁스크린
▁할아버지
▁소문
어로
▁배열
▁주재
▁호흡
▁인민군
▁1934
▁아프가니
▁한성
▁ㄴㅗㅎㅇㅕ
조선
▁MS
▁레닌
▁닐
▁분산
▁선로
▁편의
▁성서
▁혈액
▁요코하마
즈니
▁행하
▁이벤트
▁마감
▁일단
▁중동
▁대사관
▁대가
▁농장
▁메르
▁포드
AN
▁빵
▁De
▁대원
▁ㄹㅣㅇ
▁동지
▁철거
▁양국
▁히어로
▁보스턴
▁ㄷㅓㅅㅂㅜㅌ
▁자매
▁놀이
▁중지
▁판타
▁스케이
▁구사
▁입구
▁추적
유키
키퍼
▁근육
ㅅㅣㄴ
▁광산
▁탓
세대
▁골키퍼
아르
▁장례
▁흘
▁주자
▁ㅁㅏㄴㅋㅡㅁ
▁동구
▁강요
▁노동당
▁Me
▁북미
▁130
▁본토
▁뱀
야스
▁대동
▁동메달
▁토머스
▁드물
제르
▁유키
▁은메달
▁봉기
▁현존
▁ㅈㅣㄹ
ㄷㅡㄹㅇㅕㅆ
▁거점
▁투스
▁글리
▁코어
▁쿠바
▁밸
▁살아
ㅎㅏㅁ
▁남극
▁정확히
▁쏘
▁젤
베르크
레오
▁사카
▁접속
▁140
공업
무르
▁나이트
▁카리
▁아프가니스탄
ne
▁항해
▁사망자
▁도쿠가와
▁정조
ㄹㅣㅁ
▁ㅎㅔ
▁레지
▁부처
▁테르
▁로즈
▁선물
▁중계
▁알렉산더
레아
▁필립
▁Sh
▁복사
▁김구
▁시계
▁철학자
▁돔
▁스탈린
▁식량
▁칼리지
▁발전소
우치
▁매주
▁초청
▁새끼
▁재판소
▁야당
돌프
위대
ㅇㅣㅁ
▁페이스
안군
▁중성
OR
▁안내
▁ㅇㅜㅁㅈㅣㄱ
▁경사
▁ㄲㅗ
▁곤충
▁농촌
▁화합물
▁th
▁맨체스터
▁ㄷㅙㅆㅇㅡ
성기
▁대다수
▁특별히
▁ㅎㅟ
▁로맨
▁1931
▁구로
▁위안
▁관계자
크래프트
▁훼
▁부호
▁새벽
▁강등
▁재임
▁체육관
▁토너
▁간격
▁독점
▁존슨
▁증권
▁타카
▁교향곡
▁세금
▁생애
▁유력
▁금강
▁멸종
▁그리스어
베리
▁역전
▁오염
▁휘하
▁ㅁㅣㄹㄹㅕ
▁펄
▁르네
▁파울
▁일곱
▁cod
므로
▁이정
▁히로시마
▁목포
▁클래스
▁계수
▁풍속
▁아비
▁모노
all
▁기병
게이
▁명시
▁종전
▁진동
▁코너
▁타원
▁ㅍㅕㄹㅊㅕㅆ
▁뚜렷
▁버지
▁ST
▁부품
▁An
▁석방
▁ㄷㅏㄹㄹㅕ
▁비중
▁킬로
▁해협
AM
▁꾼
▁뻗
나르
▁미카
▁아이스
▁하사
레이크
▁그래프
▁그러므로
▁ㄴㅗㅍ
▁관객
▁무늬
▁타점
▁다다
▁공룡
▁하버
▁자유주의
▁감옥
▁원조
▁250
▁1921
▁장점
▁좌파
▁지칭
▁훌륭
▁교도
▁코트
▁176
▁기생
▁연호
▁숙종
▁구리
▁힘들
사르
▁수비수
▁심리학
▁1929
널드
▁대변
▁캠프
▁마그
▁특허
ang
▁ㅇㅝㄴ
▁유발
느님
▁가구
▁필라
ㅇㅡㄴ
수량
▁조문
ㄹㄹㅏㅆ
▁하느님
▁박근
▁지휘관
▁동성애
▁닮
▁비즈
▁유대인
둥이
▁아틀
▁운동가
▁스트라이
▁ㅋㅗ
▁합리
▁ㄱㅣㄹ
▁토너먼트
▁소요
▁윤리
▁y
▁강전
▁05
▁단장
▁집필
▁후퇴
▁사관
▁ㅋㅜ
▁폭풍
▁스테이션
▁성명
▁도메
▁착용
▁트랜스
▁키스
▁칙
▁갤럭
▁라트
▁일환
▁수반
▁캡
ㅁㅜㄴ
▁기갑
▁자이언츠
투아
▁대결
▁연평균
▁부작
▁1925
▁목숨
▁인터페이스
시스트
▁1923
▁공세
▁문재
ss
▁입사
▁덕분
▁건담
▁번지
▁연상
▁쯤
▁ㅅㅠ
▁도호
미아
▁동반
▁갤럭시
▁극복
▁첫째
▁공국
▁마라
▁지부
▁고고
▁과일
▁플로리다
▁삼각
산물
▁추대
▁첸
▁평론가
▁롬
▁조화
ㅇㅎㅏㄹ
▁북아메리카
▁ㄷㅟ
▁약탈
무게
▁협약
▁몸무게
▁압축
▁07
▁바이올
▁틱
타카
▁가끔
▁샤를
▁옮
▁매니
▁AC
▁발렌
▁연계
▁장갑
▁요원
▁북서쪽
베이스
▁관리자
ity
▁섬유
▁유비
▁대한제국
▁원장
▁단선
▁빠지
▁시게
밀리
▁불화
▁성직자
▁남아메리카
▁캘리포니아주
▁얀
▁추락
▁의석
▁사당
▁김대중
▁램
클린
▁미분
▁웨일스
카스
▁이수
대문
▁우드
▁유성
마이
▁임신
▁영감
▁트레이
▁중립
▁하와이
▁페루
키스
▁북극
▁SC
▁진흥
▁갱
페인
▁선교사
▁박스
▁리스트
▁161
▁ㅁㅏㅈㅅㅓ
▁모로
▁종로
▁필름
▁근로
▁향토
▁ㅎㅡㄴ
▁딱
추어
▁모험
▁서인
▁사거리
▁살아남
▁민속
▁기관차
느리
▁고분
▁발휘
▁다이묘
▁모시
▁삭제
▁타입
▁동인
▁수직
▁도마뱀
▁똑같
▁codice
▁영광
▁일자
▁영혼
▁그랜드
▁카자
▁빅토리아
ff
▁준우
▁프로세서
▁마주
▁모음
▁망원경
▁EP
▁복구
▁삼각형
즈키
행성
▁진술
슬리
▁청동
▁데리
▁레벨
▁1922
▁문인
ㅃㅡㄴ
▁파운드
▁유가
▁쫓
▁명사
▁비하
▁175
▁홀로
▁곰
▁윤치
▁화가
▁ㅈㅜㄹㅇㅕ
▁잠재
▁박근혜
▁de
▁수장
▁성씨
▁제약
▁버지니아
▁엽
▁돌파
▁레이블
일본
▁변신
▁결심
▁중구
▁루트비히
▁채권
▁무릎
▁압도
▁주류
▁중시
오리
▁틸
▁칼리
애나
▁평생
▁인천광역시
▁규슈
▁엘리자베스
▁교과
▁바오
▁서적
▁투구
▁피트
▁프레임
▁My
▁지역구
▁모래
▁공격수
▁1912
▁유역
▁이조
▁교차로
▁가톨릭교회
▁아과
▁부유
▁고안
▁황태
▁자치구
▁직선
▁ㅌㅏㄴ
▁올라가
프란
▁여인
▁나서
▁리치
▁설비
▁ㄴㅓㅁㄱㅕ
▁최상
▁트럼
▁지연
▁왕가
▁각자
▁건너
▁토벌
▁글씨
▁유용
▁수상자
양군
▁이날
▁철저
눅스
▁164
▁문법
▁부탁
메니아
▁구미
▁직위
▁포유
▁사토
▁네이션
▁동일본
▁파트너
▁음모
▁왈
▁국민당
▁Go
▁벨라
▁아기
▁리눅스
▁Love
니즘
▁KT
▁무산
▁부서
▁블라디
멘트
타운
ong
ㅁㅏㅇ
▁소설가
▁1908
▁""
▁리아
▁목조
▁크레
라이터
▁퍼시
야수
▁모니
▁봉사
▁드리
▁무인
▁보통학교
▁아르메니아
부사
▁ㅃㅐ
▁영조
up
▁1906
▁표지
▁고르
▁랭킹
보살
▁06
▁주사
▁건축물
▁경유
▁납치
▁인력
▁자책
▁베타
▁토르
▁도어
▁돼지
▁마카
▁장사
▁사촌
▁남동쪽
▁ㅇㅘㅆㅇㅡ
▁간섭
▁노비
▁어워드
▁지중해
▁릭
▁아마추어
▁ㅉㅗ
▁패턴
멘터리
▁히가시
▁며
▁스케이팅
ㅊㅣ
▁MV
▁연령
▁다양체
▁노무
▁침해
▁태자
▁연소
▁ㄲㅜ
지마
▁1917
ip
▁플레
▁크림
▁뜨
▁ㅅㅔㄴ
▁ㄴㅏㅁㄱㅕ
ㅇㄱ
사관
▁이종
▁전향
▁정자
▁옮기
▁준우승
▁SM
▁모듈
도니아
▁1927
ld
슬로
IS
▁삽입
▁상처
▁JR
▁제주도
▁교역
▁이토
▁앨런
▁03
▁적응
▁통로
▁과도
▁안양
▁커피
▁북동쪽
▁명문
▁호조
▁ㅇㅗㄹㄹㅣㄴ
▁적어도
▁매각
▁탐험
▁배상
▁시아
▁호르
▁우익
▁창간
▁굿
ant
▁조명
▁1907
▁우크라이나
▁럭
▁대행
▁전승
▁BBC
▁둔
▁석조
영상
▁배급
▁보좌
▁시상식
OM
다드
▁라우
▁베토
▁에스파
▁수지
▁스와
▁인자
▁1926
▁ㄴㅐㄴㄷㅏ
▁과장
▁외계
▁육성
▁전작
▁다큐멘터리
▁흙
▁산악
스팅
▁몬테
▁항목
이즈
▁옵
▁산타
▁유인
▁밀라노
▁앱
ED
▁관하
▁정서
▁대교
▁협의회
▁옹호
▁상하이
▁쇠퇴
▁출현
▁표본
▁사라지
▁송라이터
▁의병
▁노인
▁폐기
▁문하
av
▁SN
▁슐
생물
▁왕립
▁체인
▁자전거
몬드
▁ㄲㅐ
▁색상
▁포크
▁168
▁별로
▁탑승
▁He
▁자문
▁지름
페이지
▁동아시아
스토
▁해설
▁단행
▁세조
▁종족
▁묘지
▁부동산
▁디즈니
▁비전
▁무선
다이라
▁연고지
런트
▁비틀
▁ㅁㅏㅈㅊㅝ
▁수감
ind
▁NHK
▁사신
▁패러
▁PD
로프
슬라
▁상영
▁스틸
▁관중
▁ㄱㅏㄹㄹㅏ
티움
▁유입
▁호남
▁렉
▁1905
se
▁내장
▁동사
텐도
▁닌텐도
▁||
▁기종
▁콩고
▁시에
▁오리지
▁하천
▁레이다
▁때로
▁모자
▁산지
▁틈
▁노조
▁아가
▁합계
▁166
튜브
ame
▁162
▁사료
▁제후
AC
▁ㅆㅏㅎ
▁최우수
▁문화유산
▁홈페이지
▁칭하
▁룩
세스
▁독일어
▁기하학
▁정사
라지
▁버그
▁151
▁민족주의
▁ㅆㅡㄴㄷㅏ
▁좌익
총장
▁시외
▁ㅇㅠ
▁유튜브
▁에릭
▁진지
▁들어서
▁데이터베이스
▁유신
▁Sp
▁떼
▁기아
▁엄마
▁베토벤
브스
▁역과
▁선제
▁참조
▁헤드
▁비평가
▁꾸준히
▁가쓰
ry
▁아무런
무네
▁예외
▁조선인
▁꼽
나카
▁연금
▁사이클
▁정류장
▁ㅎㅑㅇㅎㅏㄴ
▁아울
▁카페
▁158
▁주말
▁수명
ES
▁비단
▁급속
▁지바
▁스승
▁트럭
▁품질
▁드래곤
플레이
▁가르치
▁크리스토
ith
▁색깔
▁증기
▁대조
▁원로
어트
▁모집
▁ㄱㅔㄴ
ㄷㅚ
▁겨우
▁아크
▁광역
▁상소
▁스페셜
▁칩
▁원산
▁커뮤니티
스케
▁요미
▁자바
ㅂㅓ
다니
▁02
▁안보
▁펼치
ort
▁목격
▁문과
엘라
▁ㄴㅐㄹ
▁수천
▁주거
▁남서쪽
▁둘러
▁리얼
▁선진
▁주파
▁마일
▁구마
▁ㅂㅓㄴ
▁할리
▁리듬
▁야생
ㅋㅕㅆㅇㅡ
▁향년
▁라이온
▁유고슬
▁유고슬라비아
▁셋째
▁실점
▁반환
▁옛날
스티벌
▁라이벌
ok
▁플루
▁레이스
▁특급
▁곧바로
▁나폴리
▁가미
▁라마
▁수수
▁점성
▁굳
▁입문
▁대안
▁흥미
▁도리
▁동치
▁베이스볼
▁페스티벌
▁인텔
프란시스코
▁기점
▁유닛
▁굽
▁샌프란시스코
▁무관
▁주의자
▁기념물
▁단층
▁도심
▁재무
▁토니
▁신비
▁악장
▁소니
▁쿠르
▁스피드
▁방안
▁운반
▁협의
▁와카
▁주한
▁디자이너
▁서북
▁동영상
해군
▁기압
▁운명
▁오리지널
▁마스
▁묘소
▁사직
▁ㅈㅝㅆ
프스
▁미네
▁ㅁㅗㄴ
▁브라이언
▁콜롬비아
▁렌즈
▁1904
▁안드로이드
▁적색
▁이리
▁석탑
▁기용
▁오디션
▁프랜
▁출판사
▁되찾
▁미만
▁우르
▁모터
▁입증
▁십자군
▁마케도니아
▁이오
▁일행
▁케이블
▁연주자
▁출산
▁지휘자
▁진도
▁직장
▁복제
▁알라
▁Un
▁인치
▁한나라
▁마쓰다이라
▁관장
▁한나라당
▁걷
회의
▁교전
▁급행
▁개수
▁빗
▁왕족
▁상무
▁평소
▁챌
▁정교
▁신임
리케이션
▁배제
▁분배
▁서경
▁파생
▁의거
ㄹㅓㅁㅇㅔ
▁판타지
▁템
▁동전
▁심하
▁165
▁부패
▁초래
▁154
▁센트럴
▁예술가
ord
▁계단
▁무신
▁자사
▁비즈니스
루살
▁내륙
프라
▁긴급
▁아서
ob
▁받침
▁용기
▁기재
▁오타
루살렘
▁겹
▁예언
▁가하
▁기름
▁수면
▁파나
▁폭스
▁Se
▁합작
▁Wh
▁스테이지
qu
러지
▁좌석
▁콘스탄티노
▁걸리
▁트레
▁163
▁당사자
문학
▁권고
▁가게
▁단종
▁사르
▁156
▁도메인
▁여동생
▁ㄱㅓㄹㄹㅕ
▁엉
모니
▁스펙트
우옌
▁SF
▁사범
▁신하
디스
▁넘어
▁용산
▁신용
▁링크
▁리투아
▁리투아니아
ate
▁항일
가스
▁연애
▁무슬
▁167
▁모순
▁스쿨
▁그랑
▁사면
▁호환
▁스펙트럼
▁타마
▁DJ
▁ㅇㅏㄴ
PS
아보
아하
▁ㄷㅓㅍ
▁예루살렘
▁크리스티
▁900
▁여신
▁무슬림
▁상임
▁진상
▁충남
▁회원국
교육
▁어항
카르
▁ㅉㅣ
경기
▁혜성
▁스마트폰
▁정계
▁챌린
▁아인
ㅁㅜㄹㄹㅓㅆ
▁압박
▁조류
▁자회사
▁끼리
▁ㅁㅏㄴㄴㅏㄴ
▁한양
껍질
페이
▁니스
▁부리
▁착륙
▁AM
▁미얀
▁분지
▁선사
▁발효
▁샹
▁장편
▁싫
▁무라
IC
길이
▁밀접
▁WW
▁번식
▁주립
▁게시
▁부수
▁바이올린
▁훼손
▁지주
▁일요일
▁바그
▁조국
▁지장
▁비로
▁전염
▁피렌
▁좋아하
▁ㅁㅗㅅㅎㅐ
▁애국
▁서울시
리크
커스
▁고립
식물
▁얼음
▁친정
▁ㅋㅏㄴ
▁교섭
▁포맷
킨스
▁오다
▁UN
▁팅
▁서브
▁우지
럼비아
▁비잔티움
▁농도
▁피스
▁139
▁진나라
▁예능
▁요크
▁옌
랑이
▁AS
▁오케스트라
잡이
▁대단
▁식사
▁낱
▁하트
▁대령
▁우루
▁최신
▁이지
▁쇼군
예프
▁아베
▁브라우
▁노무현
▁행정부
▁하드웨어
▁구장
ET
▁사리
▁성종
▁개발자
▁아이디
▁차관
마치
▁용량
▁145
▁킬로미터
부인
ast
▁도망
▁물려
▁월간
▁번주
▁융합
▁주머니
▁시체
▁지질
▁알바니아
아지
▁벌어지
▁기타리스트
▁과제
▁발족
▁쿠스
▁이명박
DP
▁마리오
▁미나미
▁스트리트
▁강연
▁참판
▁몸길이
▁파동
▁선두
▁전이
▁디비전
▁바티
▁와중
▁응우옌
▁임상
▁학파
▁관광객
▁부통령
▁공과
▁페어
▁소나
▁피렌체
수아
▁중국어
▁투명
로디
▁부흥
▁아세
▁부시
▁해인
데이트
▁성공회
▁보전
▁위주
▁1896
들리
▁야기
레이터
▁업데이트
if
▁관찰사
▁전지
▁전임
▁MVP
▁정벌
랑크
▁DS
▁김동
▁피에르
▁부자
▁ㅅㅣㅁㅎㅏㄴ
▁빨리
ack
▁규명
▁아이디어
▁배정
▁사바
▁ㅇㅏㄹㄹㅕㅆ
▁착수
ive
▁전류
▁충성
▁ㅂㅣㄹ
▁넬
▁스콧
▁마케팅
▁간접
▁공용
▁저기
▁히라
▁마산
ure
▁부도
▁IP
▁공전
트니
▁디오
▁귀환
▁하노
▁고조
▁측근
▁ㅁㅜㄷ
▁HIV
▁여덟
▁제네
▁중독
▁권유
▁중도
▁다이아
IT
▁굉
아리
▁친선
▁수학자
▁애플리케이션
▁맥스
▁가득
▁로빈
▁스타크래프트
▁ㅅㅡㄹ
▁게이트
란트
▁붓
▁보드
▁점유
▁완화
균관
▁거인
▁샬
▁턴
▁성벽
▁연수
▁차체
▁이에
▁험
▁마운
▁우즈
트롤
▁152
iv
▁섞
▁경선
▁출구
▁형법
▁174
▁짙
운서
ock
▁시드니
▁관습
▁수산
▁오렌
▁서일본
▁테일러
▁5000
▁트윈
▁소송법
악기
▁메디
▁미하
▁노동조합
▁요미우리
▁아나운서
▁서열
▁쇼핑
리티
주곡
토미
▁붙이
▁세례
루미
▁피난
▁157
▁플라스
▁ㄸㅡ
▁옐
▁련
▁밀양
▁정찰
▁지각
▁규격
▁조용
ck
▁금성
ㅟㄴ
결승
▁ㅅㅕ
▁사인
▁석탄
▁구동
▁존경
▁꼴
사기
▁사명
▁장성
▁번뇌
▁Ar
▁변동
▁전장
▁좌표
▁실용
▁검증
▁행진
▁프로세스
▁루수
▁수신
▁한화
▁하버드
▁전문학교
▁한강
▁준공
▁뱅크
▁신칸
▁백신
▁뷔
▁복소
▁카나
▁전진
▁청와
▁킨
▁염색
▁책봉
가루
▁테오
원숭이
츠키
문관
▁고개
▁빌헬
▁장인
ㄹㅐ
▁가즈
▁관현
▁취약
▁신전
▁이슈
▁청와대
▁급진
폴리스
▁j
▁미스터
외선
포스
▁구제
▁메가
붙이
▁디젤
▁인과
▁성균관
전자
▁드러내
▁자손
▁호평
니스트
▁얼마나
카드
▁할당
산군
▁국어
▁퇴각
▁자율
▁카시
자와
▁MP
▁ㄷㅗㄹㄹㅕ
▁소총
▁연구자
악단
▁식당
하르트
▁닫
ㅇㅝㅆㅇㅡ
▁연루
▁제휴
▁통행
▁회수
▁이순
▁상상
▁105
▁박영
▁해전
▁146
트랙
▁소금
▁파스
▁해임
▁판매량
▁쥬
▁무효
▁남양
▁승차
▁적대
▁1911
▁남인
▁몰락
▁125
12
▁여수
▁뿔
수수
▁상류
▁1500
ㅂㅏ
▁아울러
혁명
▁김용
▁이노
▁착공
▁흥행
▁히스
▁ㅂㅏㄴ
ㄴㅕ
▁강사
▁루터
▁전두
ime
▁신칸센
▁서독
▁창업
▁ㅉㅗㅊ
▁천문학
▁외무
▁윌슨
▁젖
▁관념
▁응답
▁자책점
▁지분
▁패전
고속도로
▁이복
▁ㄷㅡㄹㅇㅕ
▁비극
▁나열
▁여래
▁프로토콜
▁마찰
▁술탄
▁유출
▁3000
▁민국
▁소관
▁에티
▁소닉
▁나미
▁153
메르
▁석가
▁동남아시아
▁쇄
▁매출
▁원나라
▁저기압
▁하마
▁PS
▁디비
▁순천
▁얇
▁문제점
▁고원
▁소재지
▁시외버스
▁사사
▁청사
▁노드
▁사지
ㄱㅜㄴ
one
▁항공모
▁우정
일드
▁악마
라트
▁과목
▁저택
▁카트
▁강수량
제프
▁마오
▁믿음
▁Le
▁로고
▁마천
▁비아
▁이이
서양
▁단원
▁성전
▁충족
▁시집
▁일렉
▁증후
팩트
▁곳곳
▁동위
ㄴㅣㄹ
▁희극
ㄲㅇㅕ
▁조언
▁매개
▁배구
▁서서
▁ISO
▁예배
▁유언
대군
▁아즈
▁지목
네이
▁Pro
▁고베
▁보잉
▁이글
▁미얀마
▁카자흐
▁중점
▁조르
▁폴리스
▁매사
▁소지
▁환원
▁103
▁공자
▁빌헬름
토시
▁내내
▁문재인
▁우주선
▁연인
▁오클
델피아
▁필라델피아
▁시립
ML
▁개업
▁따위
▁환상
▁회계
▁중장
▁지지자
▁MC
▁편곡
기니
▁선원
▁클린
▁찌
▁취재
AP
▁고무
▁주권
▁회견
▁출입구
▁제트
▁포장
▁힌두
ㅂㅎㅣㄴ
즈카
▁겸임
▁기장
노리
▁성모
▁해역
▁각본가
▁특유
▁참가자
▁법령
▁천사
▁굵
▁머물
▁155
▁비틀즈
▁독립운동가
▁으
▁삿
▁근접
▁셈
▁최적
OC
▁공인
▁후자
시온
▁나리
▁친척
ㄷㅚㄴ
▁버튼
▁오렌지
▁주파수
▁사가
▁협동
▁정치가
▁각기
▁별개
▁앞면
▁카타
▁ㅊㅏㄴ
마사
▁유해
▁ㅂㅘㅆ
▁보충
▁허브
te
▁공략
▁점프
▁중종
받침
▁일관
▁제의
▁추모
▁토리
▁증후군
▁닭
▁반격
▁진리
▁토크
▁포수
▁ㅇㅓㄴ
▁별자리
동물
어리
▁이원
▁늘어나
▁밭
▁둘러싸
▁회화
▁북동부
노프
▁법무
▁Bo
▁게재
▁와인
▁리메
▁위장
▁유격
▁항공모함
▁108
▁벗어나
▁우편
▁인형
ㄹㅓㄴ
▁오키나
▁ㅇㅑㄱㅎㅏㄴ
▁눈물
▁모으
ㅅㅡㄹㄹㅓ
▁상자
▁성주
▁이바
▁평행
▁나고
▁생일
▁Con
리언
산면
▁실종
▁토요일
▁미소
소스
▁민영
▁즐기
▁오디오
▁트라이
▁동등
ㅅㅣ
▁격렬
▁ㄲㅓ
▁두산
▁베르크
▁컨트롤
▁사물
▁아바
▁이어서
▁사우디아
▁담배
ㅇㅘㅆㅇㅡ
플러
ㅂㅎㅣㄴㄷㅏ
▁민사
▁테스
▁하우
▁개찰구
▁영동
▁이인
▁룰
▁서해
산리
▁감지
▁레전
▁패스
▁합법
▁매력
▁앞서
▁나고야
io
▁내지
▁ㅂㅜㄹ
▁승무원
ber
▁상부
▁유교
▁인격
▁입상
가타
▁고체
▁스파이
▁일찍이
때로
▁외곽
▁준결승
▁금액
▁아군
▁아리스
▁야간
▁퍼시픽
▁IT
▁교장
▁드라이브
▁이영
베이터
▁건의
▁대답
▁박탈
▁세균
▁브래
▁아케
▁자발
▁이사장
▁하인리히
▁상장
▁해운
▁ㅋㅓㅆ
▁앙리
▁화살
▁1909
▁크리스마스
퍼니
▁양상
▁외국어
▁스터
▁전례
▁일족
▁채무
▁호세
▁생명체
▁에이스
상스
항공
▁에디
▁ㅁㅏㅌ
▁상대방
▁교단
▁때때로
▁태어나
▁던지
▁서서히
▁시청자
러미
▁트럼프
▁멈
▁사다
▁128
화점
▁향교
▁149
▁톈
▁ㅇㅏㄹㅇㅏ
▁이슬람교
▁캠페인
▁보스니아
람회
모어
▁102
▁시라
▁연도
▁추격
▁ㅎㅏㄴㄷㅔ
▁명의
▁콜라
▁대주교
▁복장
▁부착
▁궁정
▁사용자
▁기금
▁홍수
▁히데요시
▁메타
라이트
▁제작자
▁#
▁안장
칠리아
▁건축가
▁고가
▁수성
▁전도
▁트루
▁ㄴㅏㄹ
age
▁호칭
▁후안
▁발원
▁트위
구장
▁아우구
▁텍스트
▁사우디아라비아
▁배틀
▁어드
▁ㅎㅓㄴ
ge
트릭
▁차남
▁치세
▁주지사
집합
▁최저
백과
▁무려
먼드
▁고발
▁계절
▁남한
▁물자
▁짜리
▁가르침
▁운동장
Pa
▁셸
▁대외
▁발현
▁집계
▁아미타
▁여주
▁긴장
iz
▁대군
▁직책
▁자유당
▁ㄴㅏㅁㄱㅣㄴ
▁정밀
▁중국인
▁슬라
▁전대
▁키프
▁골프
▁$
▁기다리
▁네이버
라미
▁Bl
▁대니
▁섭취
▁원자로
▁시오
▁포도주
▁에스파냐
▁사이버
▁세미
▁르네상스
▁다중
창기
▁포괄
▁레이저
AD
▁가라
▁룽
▁지나치
▁충주
▁에우
▁향후
▁고래
▁청장
▁태생
▁팔레스
▁만세
▁중재
▁김영삼
▁CPU
▁ㄷㅜㅇㄱ
▁여의
▁여진
▁레전드
▁송나라
▁강경
▁조반
▁존중
▁노란색
▁로프
▁탐지
▁블루스
차례
▁단기
▁127
▁경부
▁리오
▁문양
▁왜성
▁147
▁수평
▁스릴
▁토마
▁최소한
▁댐
우라
▁그랑프리
▁피고
▁프랭크
▁엘리베이터
▁패하
▁팽창
▁손가락
나리
▁상세
▁토스
▁1915
sp
▁기수
▁아미노
▁하이드
수엘라
생활
▁고사
▁단점
▁원하
▁턱
▁볼리
▁갓
▁메인
▁알코
▁케네
▁로맨스
노부
▁역명
▁제곱
▁황해
▁수군
▁추증
orld
▁1913
▁난민
▁초연
▁마비
▁명목
▁캄보
서리
▁북구
▁사절
▁속성
▁ㅍㅏㄴ
▁유소년
행위
ㄷㅏㄴ
▁ㅈㅜㄱㅇㅕㅆ
▁겔
▁부천
▁딩
▁얘
▁굉장
▁동독
▁분광
▁끈
▁테니스
▁위키백과
▁동당
▁171
▁라파
▁숭배
ㅇㅜㄴㄷㅏ
ik
ㄸㅏ
▁가져
▁방침
▁후일
▁전두환
▁오키나와
▁윌리엄스
ㄴㅣㄴㄷㅏ
▁북방
▁무죄
▁입체
▁주축
창군
▁캐스팅
▁베네수엘라
▁쉐
▁동래
▁문학상
▁둘레
▁창건
▁유니폼
기지
▁전함
▁침몰
▁협조
시티
▁광년
▁ㅅㅏㄴㄷㅏ
▁심의
▁천문학자
▁강과
▁마하
▁추상
▁타르
▁김태
▁낙선
▁동년
▁취지
▁시그
▁출토
▁따뜻
▁보리
▁센서
▁태수
자치도
▁투르크
▁제주특별
▁제주특별자치도
명사전
▁김수
▁부과
▁신흥
▁촉구
▁초창기
▁ㅈㅓㄴㅎㅏㄴㄷㅏ
▁팜
▁개미
▁진군
▁창시
▁상당수
포구
▁김재
ㄷㅓㄴ
▁ㄷㅓㅅㅂㅜㅌㅇㅕ
▁객관
▁음원
▁컬러
▁이어받
▁대역
▁서사
▁원고
워하
▁대포
▁언제나
▁GT
▁수렴
▁옥스
▁조리
▁ㄴㅏㄴㄷㅏ
▁닿
▁수령
▁1895
▁원반
▁카탈
▁이민자
▁스파르타
▁al
▁라이언
▁코프
ㄹㄹㅣㅁ
평군
▁CE
▁디스플레이
▁SP
▁병역
▁통칭
▁팔레스타인
▁남원
▁169
▁총선거
▁리메이크
▁탈환
▁141
▁광부
박쥐
▁어업
▁ㄷㅏㄹㄹㅣㄴ
▁딴
▁모스
▁바흐
▁프레스
▁이틀
▁머신
▁나가사키
▁법제
▁아폴
▁총괄
네스코
MS
▁아사히
▁ㅃㅗ
▁나주
▁링컨
▁수동
▁135
▁다운로드
포트
▁비문
▁인재
▁주차
▁Tr
▁무제
▁언론인
공신
▁온천
▁유수
▁하부
▁뚫
▁북서부
▁기습
무기
▁국사
▁김진
▁동력
▁적자
▁탤
보기
▁양주
▁풋볼
ust
그라드
▁도호쿠
▁문화방송
석기
자스
▁대처
▁ㅂㅕㄹ
▁수용소
▁자기장
ㅂㅕ
벌레
▁계몽
▁소실
▁이진
▁엔지
▁유연
▁종결
▁드러나
▁개관
▁서머
▁섭정
▁144
▁거느리
▁해병대
ㄲㅕ
▁어스
▁ㄲㅡㄹㅇㅓ
ep
▁귀중
ㄱㅣ
▁초상화
▁한동안
▁후세
와라
▁더글
▁시공
▁재미
▁111
▁스핀
▁영리
▁청원
▁걱
▁멈추
▁차기
▁ㄷㅡㄴㅈㅣ
▁김포
▁신세
▁바실
▁효력
▁후대
▁신중
▁폐위
선거
int
▁식별
▁서울대
▁첨가
▁ㄷㅜㅇㄱㅡㄴ
▁저명
▁풍경
▁아레나
▁장미
▁평야
▁함유
▁컴퍼니
▁고백
▁번영
▁대제
ㅈㅜㄴ
▁스티브
▁컬럼비아
▁정말
▁중순
▁정전
▁공채
▁조달
▁119
▁스릴러
▁연세대
▁TH
▁반박
▁인산
▁기요
▁이광
▁천도
▁휴식
▁끊임
▁내외
▁제수
▁신학교
▁십자가
▁캄보디아
누엘
▁언더
▁CO
▁날짜
▁대위
GC
▁도스
▁정무
▁파업
트리올
▁리버풀
▁몬트리올
ㄲㅝ
▁It
▁별칭
▁아종
▁오빠
▁요르
▁케네디
키지
▁두루
▁총사
크리트
▁룡
시로
▁편리
▁172
▁친일인
▁친일인명사전
▁hPa
▁유네스코
EN
▁드럼
▁매카
▁삼진
▁평일
ib
▁불편
▁중소
푸스
▁껍질
▁선구
▁사회학
▁유니버
▁간호
▁애덤
▁다니엘
▁106
▁이글스
▁큰
ㄲㅡ
▁묘역
▁테레
릴라
▁무상
▁병조
▁충실
▁우연히
▁교양
▁원내
▁WWE
▁니콜라
리에
ome
▁관통
▁루시
▁카리브
▁페르난
▁미주
▁바퀴
▁소환
▁아벨
▁아틀레
▁전성기
▁북위
ude
▁교원
▁선종
▁신학자
▁관람
▁장안
▁해수
ㅇㅕㅆㅇㅡ
▁ㅈㅓㅇㅎㅏㄴ
▁꽤
▁공모
▁명백
▁중량
그로
▁제갈
▁걱정
▁위임
▁스페이스
라리
▁며칠
▁휴전
▁프랑수아
▁당일
▁미즈
▁엔지니어
ㅐㄹ
▁에스토
▁콰
니치
▁등재
▁총대
▁베드
▁슈트
러드
ian
▁아이슬
▁낱말
▁승점
▁의상
케이션
▁리어
▁신기
▁지폐
▁초과
▁겸하
▁서남
▁콘크리트
세츠
▁We
▁마츠
▁ㅎㅓ
▁김상
ㄹㅏㄴㄷㅏ
▁정렬
▁증진
▁한성부
내셔널
▁인터내셔널
▁마인
▁연패
▁지혜
▁충북
▁매사추
▁쇼트
▁표명
말라
ere
▁전압
▁매사추세츠
▁공직
▁대웅
▁바치
▁방패
▁소통
▁아이템
블로
선스
페르
▁우라늄
▁케이스
▁미토
▁생전
▁평범
▁해변
▁보완
▁중추원
▁아이슬란드
▁고수
▁외교관
▁책임자
▁발트
▁세계관
ire
▁고민
▁장려
▁공단
▁모방
▁좌절
루션
태우
▁단식
▁돌연
▁상서
▁암석
▁열대
▁투르
치오
▁도주
▁황태자
▁나스
▁영남
ㅈㅣㅁ
주의자
유행
▁도라
라이더
▁공의회
▁일화
▁탱크
▁퍼센트
▁청하
▁치열
▁기울
▁일조
ment
▁스페인어
실록
▁불명
▁ㅂㅜㄴ
▁에스토니아
▁그루
▁시흥
▁입지
pe
ace
▁역설
▁영장
▁양도
▁진짜
▁호위
▁호프
▁도루
▁배신
▁지나가
▁레바
▁부채
▁실전
▁라이선스
▁평택
▁포격
▁신속
▁덤
ide
▁교외
▁통근
야시
▁로열
▁오사
▁친왕
▁합창
▁바라보
▁닝
▁김기
▁물리학자
▁쿤
▁소유자
▁대전광역시
석탑
▁고령
▁업계
▁에버
▁오비
▁ㄴㅗㄹㄹㅏ
▁시나리오
▁푼
마드
층석탑
▁중심부
▁애틀
리케인
▁리비아
바이잔
▁도르
▁우울
▁148
▁마약
▁서정
▁창고
▁할리우드
▁허리케인
▁횟
▁HT
▁봉쇄
▁상담
▁오노
▁인연
▁치즈
▁바리
▁육지
▁장난
▁136
▁사슬
▁현금
오피아
▁에티오피아
▁기인
▁닛폰
▁부재
▁아제르
▁1916
▁슬로바키아
제리
▁시선
▁오세
▁탈당
▁협주곡
▁카이사르
▁물러
▁신생
▁지능
▁전라도
▁마이너
▁네이션스
지리아
▁나이지리아
▁아제르바이잔
위원
▁서재
▁성운
▁파장
▁스튜어트
▁그로
▁여지
▁즈음
▁파이어
▁격투
▁IBM
IM
중국
▁TO
▁순회
▁항소
▁다항
▁실시간
▁ㅅㅜㅁㄱㅕ
▁극동
▁의뢰
▁명제
▁조연
▁NBA
▁이사회
▁아드
▁입당
▁병행
▁산림
▁작센
아이
▁위탁
▁동상
▁추출
▁배터리
▁바닷
▁해소
람쥐
의자
▁특집
바다
▁막내
▁노부나가
▁구릉
▁추세
▁원숭이
▁국무총리
▁솜
▁기단
▁의약
▁호기
▁밟
▁앓
시피
▁낭만
▁안성
▁약칭
ㄱㅎㅣㄴ
▁브라우저
▁DC
▁부적
▁시초
▁하락
▁쌍둥이
▁말리
▁바스
▁한스
▁결혼식
▁패키지
▁니아
▁지류
cl
▁닷
▁실리
▁138
▁급격히
▁데이비스
▁돌리
▁리틀
▁실장
▁중위
▁차종
▁평원
▁구도
▁전념
▁허리
하면
▁구호
▁워드
▁페르디
▁구이
▁유동
▁해밀
▁ㅈㅓㄴㅎㅏㄴ
타로
▁격퇴
▁사헌
▁아마도
▁거제
▁반감
▁이세
▁리우스
▁가동
▁되게
▁분당
▁시즈
▁la
▁면허
▁후쿠시마
▁잦
▁지선
▁우루과이
▁객체
▁경연
▁백색
▁백화점
▁거론
▁딕
▁개그
▁포터
▁고성
▁레논
▁저하
▁주행
아나
▁토성
▁현종
▁구조물
승지
▁첼시
여래
타나
▁라이브러리
▁결선
▁바이오
▁시칠리아
▁박해
▁수습
▁회고
▁상공
▁세션
▁360
▁최상위
▁라트비아
▁복선
래스카
▁중성자
▁신규
▁재위
곡리
▁영의정
▁치명
▁도미
▁탐구
▁아부
▁104
마쓰
▁냉각
▁En
▁오바
▁우세
대신
▁가면
▁춘천
▁사헌부
▁고소
▁그램
▁오피스
리니
▁거행
▁깨달
▁신탁
▁애틀랜
▁릉
토모
▁감리
▁극히
▁임용
▁트래
▁랄
ark
▁모니터
▁어휘
▁한쪽
▁혈통
▁비시
▁도장
▁춘추
▁피에
▁LP
▁송시
하시
▁목판
▁얘기
▁장학
▁109
양함
▁반도체
▁테이블
▁ㅇㅗㄹㄹㅏㅆㅇㅡ
브레
▁주가
▁택시
스틴
▁신한
▁개원
▁기어
▁성숙
▁성체
▁차장
회장
▁생식
▁제독
▁게르만
▁다스리
▁펌
은색
▁Pr
▁ㄷㅣ
▁고인
▁고치
▁스톡
▁코무네
▁나비
▁주름
▁횟수
▁잔류
▁123
▁ㄹㅏㄹ
▁스트레스
데시
▁행적
베르토
▁이케
▁ㅈㅓㄴㅎㅐㅆ
▁후방
▁ㅇㅔㄹ
▁해적
▁대학생
고쿠
▁공수
▁칼라
▁환영
▁재현
▁최악
▁소매
▁교황청
▁민회
▁방송사
▁뢰
▁ㄱㅚ
▁가짜
▁그날
▁명령어
▁바나
▁반경
▁없애
▁정점
▁대표작
▁햇
▁축하
▁휴스턴
▁펜실
베이니아
▁펜실베이니아
▁옴
더슨
헤이
▁아홉
ㄴㅜㄹ
ㅀㅇㅓ
▁종로구
▁하워드
▁AK
▁루프
▁ㅅㅣㄹㄹㅕ
▁ㄹㅐ
▁폭동
푸르트
포드
▁매입
▁우위
▁인플
▁통증
▁143
▁ㅂㅕㄹㄷㅏ
▁너비
▁ㅇㅑㄱ
▁분기점
▁타이거즈
리안
▁광물
▁적당
▁연합회
▁카자흐스탄
타고
▁부당
▁공산주의자
▁AR
▁억압
▁터치
▁NC
▁성취
▁시바
▁수련
▁ㅎㅏㄹㅈㅣ
▁견제
▁경관
▁노바
▁아담
란히
바시
▁동점
▁사모
▁순교
▁신조
랜트
법인
▁다발
▁상점
▁베스
▁분비
▁왜냐
▁청춘
▁ㅍㅜㄹㄹㅕ
은이
▁산란
▁이화
▁주역
AL
▁CS
▁히메
▁리우
▁부르크
차기
▁힘입
글리
▁마야
▁이식
▁출처
▁피츠
▁한인
▁col
▁호랑이
▁상단
▁신주
▁열정
▁축적
▁컴파
▁야구장
산동
▁박람회
▁동아일보
▁비리
▁여당
▁염기
▁모이
▁벌금
▁비자
▁요하
▁팔라
▁ㄴㅔㄴ
▁팡
▁롤링
▁성사
ile
▁육체
▁토모
▁통영
▁현저
▁남동부
▁CC
▁관구
▁유한
▁자민
▁블라디미르
▁목재
▁펑크
▁플라이
▁존속
러스트
▁맵
▁처녀
▁알코올
▁근교
▁응원
▁ㅎㅡㅌ
▁래퍼
브리지
▁유로파
▁음료
▁ㅌㅓㄴ
▁태양계
▁ㄸㅐ
▁룬
▁설탕
▁암시
▁블로그
▁차이점
▁ㅁㅗㅅㅎㅏㄹ
▁적분
ies
▁Op
▁부설
▁경상도
▁상용
▁제프
▁소나타
▁친일파
▁왓
▁기적
▁상반
▁김경
▁살리
▁운하
▁티스
▁법조
▁광학
▁시골
▁다이아몬드
▁휠
▁주주
▁충전
▁조선일보
xt
면체
▁나트
▁CON
비나
살이
▁생산량
▁보석
▁사육
▁이윤
라클
▁오해
▁폭행
ㄱㅓㄴ
▁가죽
▁이에야스
▁해명
▁라오스
▁킥
▁신념
▁황실
▁경찰청
▁중의원
기업
▁국소
▁이타
▁카롤
▁그동안
▁유죄
▁히사
▁RNA
▁만남
▁말라
▁ㅅㅗㄱㅎㅐㅆ
▁어원
▁107
▁112
▁베어스
▁브라더스
▁키프로스
▁단단
달리
도리
▁공관
▁공익
▁규범
▁누이
▁빨간
▁ㅅㅣㄹ
▁ㄸㅣㄴㄷㅏ
▁가군
▁사업자
▁아랍어
▁삼층석탑
▁is
▁구축함
▁루이지
▁장거리
▁ㄷㅏㄹㅎㅐㅆ
▁동국
▁미르
▁우유
▁후사
▁옆면
▁창원시
▁시베리아
▁레일
▁뛰어나
▁우승자
▁흠
▁공습
▁이산화
▁ㅇㅝㄴㅎㅐㅆ
▁성단
▁아예
▁트윈스
▁부제
▁상사
▁시어
▁언니
▁126
도바
ite
▁당주
▁무지
▁비유
▁신민
▁이순신
▁사우루스
랑카
▁탐사선
▁트위터
▁Te
▁증대
▁117
▁ㅊㅕㅆ
▁대웅전
ㄹㅜㄹ
▁줄무늬
ft
▁거북
▁ㅆㅗ
▁맥락
▁맥주
▁소셜
▁ㅂㅜㅌㅇㅕㅆ
고래
지붕
▁수법
▁플러스
▁품종
▁조종사
▁도마뱀붙이
▁잊
▁신선
ㄷㅣ
▁누나
▁송시열
▁동문
▁연쇄
스부르크
▁ㄷㅏㄹㅇㅏ
권자
레기
▁카를로스
▁범인
▁포럼
▁헤비
갈색
▁조세
▁핸드
▁평의회
▁깔
▁드로
▁여파
▁천장
▁확신
▁SE
▁교정
▁퐁
▁네스
▁발해
아다니
▁할머니
▁이경
▁지평
▁왜냐하면
▁구출
▁교과서
수리
▁나르
▁왜곡
▁입원
▁제재
▁내려오
▁아카데미상
▁인체
▁고속도
▁굉장히
▁희생자
▁몰리
▁빈곤
▁그만두
▁살아가
▁대폭
▁인문
▁허위
▁협박
▁경보
▁근원
▁실체
▁진급
▁화장실
조부
▁com
▁주이
▁121
▁법무부
▁빨간색
▁양키스
ath
▁곡인
▁깨닫
▁날씨
▁키우
▁137
▁350
▁삼성전자
▁ㄷㅏㅁㄱㅣㄴ
의장
▁펠리
▁가마쿠라
▁갈라
▁세라
▁신약
ound
▁ㄷㅏㅁㄱㅕ
▁킴
▁이브
▁통틀
▁173
▁전자기
▁필리프
OL
▁몰래
▁비르
▁소원
▁탐색
▁물리치
▁제니
▁제대
▁CF
▁일반인
▁필터
▁후궁
▁데모
ond
▁샘플
게이머
▁프로게이머
다지
무스
▁왕복
▁연합국
▁1894
시타
▁방화
▁바오로
▁클라우드
ㄴㅝ
마루
연합
▁가축
▁워터
▁라이너
ory
▁헥
끼리
▁문예
▁우호
▁113
▁개교
▁마디
▁포병
베니아
로니
▁무어
▁믹스
▁일방
▁해고
▁물려받
▁가장자리
▁ㅂㅣㄹㄹㅕ
수소
승부
▁지미
▁태권
▁테이프
▁크리스토퍼
▁땃
▁레온
▁대의원
▁수용체
▁거울
ov
▁아야
▁핵무기
▁진공
▁근로자
▁슬로베니아
▁냄
대기
▁드레
▁다크
▁미션
▁성별
▁수색
▁브로드
▁총독부
▁맘
▁끄
▁둥지
▁양측
▁투옥
번스
man
▁문구
▁보증
▁계정
▁궁극
▁뒷면
▁코스타
단체
▁공민
▁승계
▁알제리
▁결함
▁요동
그레이드
▁ㅂㅏㄴㅎㅐ
▁바우
▁일가
로이
▁ㅉㅏ
▁농림
▁유년
▁적도
▁철회
▁캐시
▁헐
▁ㅎㅡㅌㅇㅓ
▁업그레이드
아키
▁로이
▁용병
▁자아
▁바티칸
▁ㅎㅣㅁㄷㅡㄴ
▁z
▁쏟
규모
나스
톨레
▁강서
▁대피
▁하동
iver
▁124
▁ㄸㅏㅆ
▁게스트
▁주어지
▁".
▁On
▁공천
▁서민
▁치안
▁몬스터
▁시뮬
▁제인
▁나아가
아프리카
▁극심
▁만일
퍼런스
▁LC
▁관음
▁군정
▁게이지
▁be
▁화해
▁도미니
▁독일인
▁탤런트
▁신시
▁최강
▁칭찬
▁판본
▁자연수
▁횡단
▁즉각
셰비
▁IM
▁먼지
▁상표
▁서진
박스
▁성도
▁세속
대원군
▁륙
▁공방
▁김현
ㄲㅕㅆ
▁World
블리
▁공백
▁서초
▁국내외
▁모친
▁초록
▁카카
▁멜로디
mer
▁미루
▁남서부
ㅅㅕ
▁체크
린스
▁혈관
▁고고학
▁야마토
▁ㅂㅜㅌㅇㅣㄴ
겨나
▁가루
▁개종
▁피오
▁김정일
▁베네딕
▁성문
▁최대한
▁CR
▁SU
▁디렉
▁학계
▁구절
▁그냥
▁스캔
▁영산
▁커뮤니케이션
▁양호
▁타당
▁풍자
크라
ich
▁감자
▁내정
▁ㄷㅓㄴㅈㅕ
▁곁
▁야쿠
▁New
▁브리지
▁윤치호
▁1890
줄기
▁러시
▁우파
▁일생
▁ㄱㅜㄴ
▁프랑크푸르트
드르
▁데르
▁오리콘
축구
▁땃쥐
▁항쟁
▁결코
▁곤란
▁아랫
▁욕구
▁유저
▁조부
프레스
▁114
▁사쿠라
▁기업인
▁시위대
▁고장
▁김규
▁원전
▁선비
▁자오
▁검찰청
▁맑
▁돌격
▁베니
▁평정
▁라이온즈
▁ㄷㅜㄴㄷㅏ
▁대명
▁미노
▁에미
▁로우
▁이소
▁배후
▁정주
▁증손
▁초월
▁므
▁자선
▁ㄴㅗㄴ
▁구스타
▁자비
▁소규모
▁이준
타리오
▁안토니오
▁사로
▁자음
▁팔리
▁기질
▁일리노
▁드라이버
▁그대
▁흔하
IP
렉스
ial
▁EC
▁과반
▁118
▁오프닝
▁악단
▁침투
▁히어로즈
▁옵션
▁이드
▁제압
▁ㄱㅕㅂ
▁블랙홀
▁일리노이
▁냉전
▁미키
▁아름
▁자택
▁정세
▁학명
▁파이널
▁Sc
▁ㄹㅠ
▁도청
ign
▁만료
▁서자
▁스칼
▁파란색
▁프로덕
▁플래시
▁디비시온
▁관세
▁구와
▁이남
▁종착
▁ㅁㅣㄹ
hn
▁시정
▁하르
▁알루미
▁가드
▁그치
▁어미
▁지침
▁체스
▁체조
▁요정
▁극장판
▁미하일
▁사상자
▁1898
▁ㅅㅏㄹㅇㅏ
황후
▁예시
▁주부
▁진사
▁115
▁크리스티안
▁뉘
▁예조
ㄷㅎㅣㄴ
▁대거
▁태극
▁경신
▁대부
▁경찰관
▁퍼지
▁분명히
▁저널
▁지인
▁반지름
▁방사선
▁우즈베
저지
▁헬리
▁모로코
▁벵
닐라
▁연이
▁재상
▁커널
▁봉안
▁용이
▁인명
▁괴물
▁순조
▁연승
▁계열사
고스
▁남구
▁말씀
▁ㅁㅔㄴ
▁컷
▁로그
▁징계
▁레바논
▁트로이
▁봉건
▁챌린지
▁빔
▁솟
▁SD
▁매니저
▁통치자
지스
하루
▁우측
▁키르
▁세이브
▁외야수
▁웨스턴
▁승부차기
교도
기념
▁매매
▁패럴
▁희귀
▁물러나
조건
▁카우
▁헬기
벨트
▁GS
▁중형
▁축출
▁시가지
▁원로원
▁범유행
▁성리학
▁내주
보르
▁JT
▁센티
▁웹툰
▁케냐
▁넘어가
▁뉴저지
ㄴㅎㅏㄴㄷㅏ
▁변이
▁ㄷㅏㄹㅎㅏㄴㄷㅏ
▁GP
▁가옥
▁극작
▁필사
ㄲㅡㄴ
▁남미
▁본국
▁선도
▁비로소
타니
히코
▁동정
▁무성
▁취업
▁129
▁무승부
마이오스
▁렐
▁공조
▁정변
▁켈리
▁혜택
▁소모
▁전년
▁핑크
▁뉴턴
▁앵글
▁왕세
▁`
▁맏
▁광해군
rom
▁외모
▁통보
▁ㅅㅣㅁㅎㅐ
▁붐
개미
▁글루
▁기증
▁캔자스
▁믹
▁사위
▁코카
▁의약품
▁비주
▁캉
▁컨셉
▁젊은이
▁러셀
▁재혼
▁하프
▁체코슬로
▁체코슬로바키아
▁직면
▁쾌속
▁개막전
▁ㅇㅕㅆㅇㅡㅁ
▁쯔
미사
▁답변
▁미세
▁숙청
▁폭넓
▁한족
▁마운트
▁벨라루스
▁ㅇㅗㄴㄷㅏ
▁공감
▁밀집
▁그레고
▁기각
▁맥도
▁예하
▁중산
▁괘
문트
타리
▁군중
▁말미
▁승자
▁첨단
▁학업
▁호출
▁스타리그
▁바빌
▁황족
▁스크립
방송공사
바닥
▁Ne
▁밝기
▁ㄷㅏㄴ
▁럼
▁발급
▁회관
▁총사령
▁III
▁스트리
쟁이
▁빌라
▁리뷰
▁종속
▁퇴임
ㄹㄹㅣ
▁천문대
▁로비
▁부스
▁조지프
▁벽돌
ph
레타
펴보
▁살펴보
▁ㅎㅡㄴㅎㅏㄴ
ㅅㅏ
▁월요일
▁1899
그리
우트
천리
▁부피
▁척추
▁카디
▁연예인
▁알루미늄
▁ㅎㅣㅁㅆㅓ
▁뇌물
▁오오
TS
▁옳
▁남작
▁무명
▁유라
▁케빈
▁142
▁장례식
urn
▁폭포
▁레슬링
▁퉁
치기
▁난징
▁생체
▁응시
▁케임
▁대변인
화물
▁일컬
▁ㅈㅓㄱㅎㅕ
▁양반
▁어른
▁요건
▁임원
▁지우
▁토끼
ㅎㅇㅏ
▁부여받
▁청주시
테르부르크
먼스
진군
▁천재
▁웬
▁각도
▁옹립
▁재선
▁창출
▁총칭
▁토미
▁화력
롤라이나
▁관제
▁워너
▁브리튼
▁세이부
슬러
포로
▁룩셈
▁예고
▁중공
▁축물
느러미
▁더글러스
▁프로덕션
▁토양
▁룩셈부르크
▁콕
코딩
함수
▁모나
▁사본
▁설화
▁소생
▁마르티
▁타임스
ction
수록
▁무함
▁배수
▁워크
▁정려
▁커지
▁스즈키
▁유방
▁자크
▁전속
▁학기
▁대서양
▁온타리오
▁플라스틱
▁ㅇㅡㄴㄷㅔ
▁ㅈㅗㅎㅇㅏ
로우
시즘
▁발병
▁싸이
▁파산
틱스
▁구경
▁사간
▁CJ
▁오크
셰비키
▁광주광역시
브르
아먹
▁실망
▁부의장
▁프란츠
▁닦
럴드
▁미들
▁거래소
▁기술자
▁1902
버리
토르
▁ch
▁대치
▁리프
도스
▁종래
▁금요일
▁뒷받침
▁저주
ens
▁시범
▁혼동
MA
▁ID
▁광둥
▁안테
▁화상
▁ㅅㅕㅆ
▁연산자
▁대패
▁신원
▁유진
▁Man
pp
타주
▁성폭
▁왼손
▁지옥
▁ㅅㅔㄹ
▁만성
▁명종
▁확실히
▁덧
ㅃㅏ
▁공적
▁도카이
덩이
▁감행
▁독서
▁서신
▁중복
파이어
▁대성당
▁키보드
▁힌두교
▁가야
▁니코
▁연꽃
▁ㅇㅕㄴ
▁플랫폼
lan
▁보위
▁피겨
▁동네
▁ㄴㅡㄹ
▁기사단
▁병기
▁코시
▁ㅍㅣㄹ
▁ㄱㅏㅇㅎㅐ
두리
▁프톨레
▁프톨레마이오스
▁''
▁대손
▁우체
▁채소
▁컴백
▁그래미
▁ㅇㅣㅀㅇㅓ
▁지출
▁화자
ㅓㄹ
▁발기
▁수분
▁스턴
▁시코
▁운수
▁ㄱㅓㄹㄹㅕㅆ
▁위쪽
▁의자
▁체류
▁감마
▁드림
▁탄도
▁비석
▁촉매
▁바깥쪽
샤바
▁그릇
▁원종
▁피신
▁아리아
lic
▁늘리
▁발리
▁설교
▁시가
▁원천
▁형조
▁교통국
▁게리
▁마녀
▁개소
▁아돌프
▁국영
▁비행장
▁지식인
▁고양시
폴리
▁BS
▁ㅇㅚ
▁강변
▁대합
▁마력
▁희곡
▁ㅉㅗㅊㄱㅕ
▁소나무
▁밍
글라
크로
▁간선
▁기차
▁버드
▁영등
▁표적
ㅌㅔ
국사
▁기니
▁물품
▁생생
▁포획
▁하단
TC
▁깃발
▁외관
▁토착종
▁익스프레스
▁정성
▁머무르
▁가환
▁선배
▁유체
ㄷㅝㅆ
▁페르디난
▁김지
▁동학
▁벨트
▁스폰
▁참의
▁마스크
TA
▁영문
▁해밀턴
▁단축
▁사슴
ary
▁강동
▁코끼리
▁포켓몬스터
▁아산
▁정적
▁주조
▁경성부
▁보이스
▁코믹스
▁서류
▁세비
▁스위치
▁단절
▁울프
▁부회장
▁사이토
▁이용자
▁호르몬
▁러시아어
▁등기
▁직결
▁갈수록
▁나노
▁화강
구르
▁광명
▁브뤼
▁압둘
▁페널
▁아이오
▁동행
▁드러머
▁매카트니
▁단의
▁복용
▁선행
▁함정
▁끊임없이
▁의의
▁축조
▁1901
▁몫
테인
▁소시
▁열도
ach
▁생략
▁어류
▁제국주의
▁ㅆㅏㅎㅇㅏㅆ
out
▁광대
▁수확
그룹
▁약자
▁입성
▁청산
▁다항식
▁울산광역시
▁No
▁고아
▁혐오
ㄱㅡ
미트
▁쓰촨
▁제네바
▁폭격기
짓점
ert
▁임관
▁입국
▁공리
▁본문
▁꼭짓점
카가
▁보트
▁색채
▁염증
▁체르
▁헌신
▁현은
▁부작용
▁간토
▁권총
▁코코
▁하치
▁연기자
▁알렉산드르
디나
피어
▁무궁
▁일산
▁렘
▁습지
▁여운
▁정문
▁채우
▁바이킹
▁삿포로
▁ㄷㅏㅇㅎㅏㄴㄷㅏ
▁부가
▁자작
▁퀘벡
▁기숙
▁수축
▁초신
▁치아
모스
자르
▁ㅅㅑ
▁카미
ㄷㅐ
링턴
▁갱신
▁매수
LE
▁MB
▁김창
▁실버
▁이단
▁체중
▁사회당
루아
▁서문
▁역량
LS
▁꾀
타임
▁성지
▁조립
▁영국인
IG
▁고산
▁드라
▁이현
▁커스
▁서유럽
ys
나우
▁보복
▁정동
▁낫
▁례
파르
▁간단히
▁광저우
▁점성술
▁대구광역시
▁케임브리지
▁쿄
▁ㅈㅛ
▁검열
▁경과
▁염색체
ug
▁표방
노미야
▁134
▁푸에르
▁}
▁갈릴
▁면제
▁조이
▁크롬
▁페니
▁호모
베트남
▁가역
▁두께
▁민감
▁스님
▁토기
▁요르단
▁동이
▁김제
▁조수
▁차르
▁캐서
▁누적
▁분수
▁특권
어내
▁동조
▁미륵
▁상금
▁입각
▁정립
▁아라비아
▁독성
▁엔딩
▁원료
▁파이터
▁무함마드
ase
▁KIA
▁THE
▁장기간
▁아시카가
▁남매
▁보헤
▁오쿠
ㅋㅣㅁ
▁공명
▁그다지
▁모서리
▁1903
ㅊㅕㅆㅇㅡ
▁레즈
레슬링
▁사업가
기스
속기
정리
▁전방
▁카프
▁크레이
대장
▁다마
▁둥글
▁1884
▁옥스퍼드
▁ㅎㅏㄴㅌㅔ
▁기르
▁명하
▁섹스
▁아브
▁직경
▁One
▁신도비
▁언어학
▁트리플
▁홈구장
▁마우
▁불꽃
▁천하
▁All
▁ㅅㅡㄴ
▁연봉
▁원본
▁이병
▁쥐과
▁개인전
▁쟈
그라
퀘어
▁Gr
▁학대
▁관광지
▁만주국
▁이성계
▁표기법
▁아인슈타인
▁노보
▁제치
▁미시시피
리코
펜하
▁공예
▁라그
▁박지
▁중령
▁태그
▁하리
테르담
카미
▁강간
▁개화
▁불신
▁갈리아
ke
▁EX
▁토요
처스
▁극대
▁대두
▁에콰
▁퇴역
▁쓰레기
▁트로피
▁아리스토
▁에콰도르
▁프로레슬링
카타
▁공고
▁삼촌
▁AN
▁산출
▁ㄱㅏㅆㅇㅡ
텍처
▁루타
▁좌측
▁아키텍처
▁야마구치
▁릿
▁교대
▁어둠
▁이관
▁ㅂㅕㄴ
▁도널드
▁질소
▁알렉산드리아
▁구형
▁비타
▁선동
▁퇴적
▁쓰시마
사리
아웃
▁소말
▁하비
▁전염병
▁도요토미
▁슈팅
▁스텔
▁정선
▁히타
▁ㅅㅓㅁ
▁니콜라이
▁발렌시아
▁군산
▁로저
▁메커
▁꼭대기
▁ㅅㅏㄹㅍ
히토
▁제로
▁패널
▁복합체
▁패밀리
▁Cl
▁검출
▁어뢰
▁아폴로
▁클라이
▁헌정
▁조반니
▁프란체
▁1800
ㄴㅡ
▁비뉴
▁구스
▁대문
▁충청도
▁콤팩트
▁마키
방울
▁달걀
▁마르틴
라이언트
▁LA
▁타케
▁해남
▁뮤지션
▁삼국지
▁소방서
그레
ree
▁군함
▁우치
▁클라이언트
▁흥선
▁드레스
▁방글라
▁지도부
▁히로시
▁방글라데시
▁실재
▁장벽
▁프레드
▁뒤쪽
▁정유
▁철폐
▁마르코
▁유부
▁회상
▁소행성
▁피고인
▁반공
테이션
올로
▁공황
▁선우
▁실무
▁전위
▁함선
나미
ㅇㅏㅅ
가와현
▁기념관
▁ㅂㅓㄹㅇㅣㄴ
▁당수
▁토시
라이어
▁슬라브
▁가오
▁인질
사이드
▁당연히
▁방사성
간지
▁경작
▁김홍
▁농부
▁단면
▁염소
▁원더
▁이태
▁기념비
▁복소수
▁일렉트로
▁팟
가르
불교
▁곡물
▁도선
▁에밀
▁자형
▁ㄲㅡㄹㄹㅕ
▁경인
▁로라
▁코믹
▁활주
▁북아프리카
▁팰
네마
▁IN
▁우회
▁조형
▁분량
▁분출
▁전복
▁ㄱㅏㅁ
▁남동생
▁기슭
▁발칸
▁하차
▁뉴욕주
▁소수자
▁스토어
▁카를로
▁with
산맥
▁기분
▁상가
▁카사
▁ㄴㅓㄼ
니시
▁강대
▁전구
▁기관총
▁오사카부
하키
▁권장
▁상경
▁세바
▁터보
▁페널티
▁발령
▁우물
▁현감
번뇌
▁궁중
▁가브리
▁리더십
개골
ass
▁러스
▁모모
▁물가
▁밀란
▁상트
▁창녕
▁더욱이
▁그레이트
▁아미노산
구역
act
▁가산
▁견인
▁상응
▁수목
▁파병
▁ㅍㅣㄴ
▁ㅇㅡㄹㅈㅣ
11
▁막스
▁준주
▁후작
▁116
▁중앙아시아
▁교량
▁세키
▁취항
▁메커니즘
▁Ad
▁건륭
▁모리스
▁무너지
▁전시회
▁관절
▁브란
▁소자
▁의결
▁교도소
▁ㅈㅏㄹㄹㅏ
사우
▁강희
▁220
▁거주지
▁민간인
▁ㅈㅡㄹㄱㅕ
▁한국방송공사
곡동
▁까닭
▁추첨
▁포스터
▁Br
▁등용
▁와일드
▁캐서린
pt
▁보성
▁신축
▁안경
▁용서
▁이북
▁회피
▁총대주교
▁감안
▁냄새
▁효고
▁다케다
▁에디션
▁볼리비아
▁각색
▁뒤집
▁미라
▁정화
▁1897
▁가계
▁마카오
▁카스티
▁진전
▁평창
▁1860
쿠버
▁낙동
▁델타
▁돌기
▁샌드
▁스트라이크
▁ㅇㅕㄹㄹㅣㄴㄷㅏ
▁홉
역학
▁CN
▁기저
▁맞붙
▁시야
▁절단
ream
▁데스크
▁방송인
▁일부분
▁컨트리
사업
▁반군
▁태백
▁대출
▁델라
▁요약
▁티코
▁페이스북
▁ㅇㅑㄱㅎㅐ
▁가열
▁르노
▁취미
▁교육청
▁깨끗
▁리조
▁마블
▁올드
벤처
▁GO
▁갈래
▁상법
▁오로
▁장자
▁침체
▁폭로
▁휴가
기념물
▁아나키
▁어드벤처
▁사살
▁일파
▁배우자
▁알프레
▁꿀
▁강남구
▁버클리
▁일자리
▁데카
▁수료
▁확진
▁거짓말
▁이주하
▁가의
▁마니
▁반전
▁안산
▁음향
▁타우
ㅍㅡㄴ
▁농사
▁상고
▁전산
▁노태우
▁스크립트
▁Is
▁마가
▁접수
▁한층
▁카타르
▁ㅂㅏㄺㅎㅣㄴ
▁ㅊㅜ
▁청색
파리
▁나루
▁네오
▁석불
▁장제
스카르
캐롤라이나
▁Ex
▁리히
▁샌디
▁카즈
▁쿠니
▁효종
▁경제학자
▁;&
▁공손
▁무슨
▁민정
▁사카이
▁연대기
▁대관
▁쥐속
ㄲㅣㄴ
▁중공업
▁바르샤바
▁앰
▁구약
▁북경
▁아소
부리
피언
▁간신
▁심화
▁저렴
▁모티브
▁유닉스
ㄴㅔ
도비
푸르
▁2022
나드
퍼슨
▁마애
▁서리
▁122
ㄷㅡㄹㅇㅣㄴ
산성
츠크
▁넘기
▁이반
반구
▁체력
ㅇㅑㄴ
▁미네소
▁ㅈㅏㅂㅎㅕ
▁막시
▁입주
▁추론
▁스퀘어
▁안드레아
▁깎
▁떡
▁가신
▁버마
▁소행
▁ㅈㅏㅁ
▁클라크
포터
▁고토
▁다가
▁동형
▁종파
▁화순
▁게릴라
▁석회
▁중원
▁홍문관
▁후반기
▁모용
▁윤보
▁솔루션
▁아마존
▁죠
푸아
▁글래
▁브룩
▁이빨
▁짐작
▁흥선대원군
ii
▁군청
▁집결
▁인테르
콥터
▁적군
▁전격
▁NGC
▁상트페
▁설립자
▁1880
▁상트페테르부르크
▁느리
▁수중
▁애리
▁con
▁몰아내
▁아름답
▁급수
▁리만
▁종점
▁ㅁㅜㄹㄹㅣ
▁BM
▁ㅋㅐ
▁갑옷
▁메라
▁사적
▁마라톤
거진
▁타협
▁ㄹㅠㄴ
▁가져오
▁신동
▁안치
▁예명
▁용암
▁합당
▁호쿠
▁유대교
▁세네
▁콘테
▁공용어
▁두개골
▁제작사
▁마당
▁메릴
▁보강
▁득표율
▁옥수수
▁그리스인
▁셜
▁제리
▁함양
▁진행자
▁천연기념물
▁노이
▁루크
▁벽화
▁빈도
▁어로
▁유정
▁창의
▁갤러리
네시
다르
▁무술
▁장원
▁정경
▁133
▁ㅎㅏㄴㅈㅣ
iss
▁이장
▁함부르크
▁ㄷㅓㅍㅇㅕ
▁과실
▁실적
▁약하
▁입양
니지
▁가네
▁강철
▁돌입
▁청소
▁타지
▁프렌
몰로지
▁새로이
리즘
ake
▁신정
▁일괄
자치시
▁나란히
▁지지율
▁특별자치시
▁기성
▁소령
▁이언
▁극작가
▁키예프
타케
▁무로
▁번성
▁디트로
▁디트로이트
own
▁스노
▁블리
▁왕정
▁특색
▁호응
▁ㄲㅡㄶ
▁법정동
▁파라과이
기구
▁쑤
케이
▁연못
▁무궁화
▁이동하
사관학교
▁일러스트
▁랍
▁수녀
▁심야
▁연동
▁이규
▁팔레
ㄷㅎㅕ
▁CBS
▁ㅇㅗㄹㅂㅏ
▁그레고리오
▁자결
▁진료
▁찰리
▁확고
▁랴
▁가가
▁격차
▁장흥
▁조계
▁종말
▁펜싱
▁헬륨
▁Mus
▁준결승전
올리
▁농어
▁몽고
▁유령
▁교육부
▁그림자
▁ㅅㅐㅇㄱㅣㄴㄷㅏ
▁고추
▁복권
▁위나라
▁그레고리
▁등극
▁자생
▁미생물
▁극도
▁오락
▁경쟁력
▁사로잡
▁포도당
clude
▁그렇지만
▁애틀랜타
▁출석
▁파우
▁GDP
▁겉보기
▁사무총장
▁지방산
▁개항
▁공약
▁도사
▁무스
▁자카
▁평민
▁앨리스
타마
▁미셸
▁선장
▁ES
▁국유
▁아치
▁스리랑카
그래
미스
▁문경
▁위생
▁CEO
▁아래쪽
림픽
▁니카
▁열심
▁추종
HO
▁ㅁㅗㄹㄹㅕ
원장
▁스로
▁유스
▁제왕
▁지청
▁탁월
▁엘리트
UR
▁수심
▁아데
▁재해
▁대성전
old
▁더비
▁우상
▁132
▁ㅇㅡㄹㄲㅏ
▁++
▁광양
▁ㅅㅏㄹㄹㅕ
▁시뮬레이션
멘스
▁수년
▁정인
▁스트라이커
▁자르
▁재난
▁주지
▁진수
Hz
▁섀
위성
▁가볍
▁리모
▁빛나
▁애칭
ㅇㄱㅕ
▁글로브
▁동성애자
▁툰
▁듀오
▁숙주
▁명분
▁반역
▁마다가
▁인디애나
미즈
스기
▁결핍
▁주화
버러
ork
▁NE
▁격자
▁결제
▁원격
▁이득
▁조병
▁초원
▁칼뱅
바야시
▁대지진
▁극락
▁김민
▁이데
▁프롤
ㄴㅏㅁ
▁삼국사기
ix
헌영
▁감동
▁듀얼
▁속편
▁미주리
▁인프라
거래
세기
에미
▁ㄹㅑ
▁동요
GA
▁빈번
▁프랭클린
파크
▁베른
▁브랜
세우
▁정관
▁요제프
▁얹
▁국수
▁온갖
▁총무
▁pro
▁마우스
▁패럴림픽
해튼
▁or
▁어리
▁타석
벨라
▁김옥
▁시종
▁현직
▁무조건
▁복음서
▁파이프
()
lo
렉션
보내
▁까지
▁동참
▁상연
위원회
메다
▁부드
▁평안남도
▁쾰
▁발각
▁보헤미아
▁ㅂㅜㅌㅈㅏ
천사
▁울리
▁호족
루냐
ick
▁현황
▁농산물
▁저널리
▁대국
▁상기
▁요법
CAF
▁La
▁Ro
▁신상
▁현행
ence
▁우체국
▁PR
▁강풍
▁암흑
▁통틀어
▁활주로
마리
▁ㅎㅜ
▁청자
▁대사헌
▁자세히
를테
▁총기
▁피로
를테면
▁기상청
▁후속작
▁이를테면
▁kt
▁대각
▁워치
▁페로
▁밀러
▁파문
▁아니하
▁볼셰비키
▁공파
▁단과
▁세손
▁황도
▁단행본
변이
▁의과
▁투항
▁트리니
▁돌연변이
▁합스부르크
라기
홀름
▁초고
브리아
▁매거진
▁모터스
▁창시자
▁1870
▁평안북도
▁숀
▁To
▁관동
▁낙하
▁만년
▁소울
▁속주
울리
▁DM
▁공표
▁낮추
▁장대
▁제너
▁해부
▁호리
삭스
할시
▁왜구
▁재질
▁표창
▁호의
▁뾰
▁ㅃㅜ
▁가타
▁생계
▁아쿠
▁저격
▁타이베이
공산
▁말년
▁맹세
▁중앙부
▁댓
플로
▁머스
▁서장
▁애리조
▁청동기
▁우즈베키스탄
▁쳐
▁감금
▁라오
▁배속
▁불행
▁이븐
▁정국
▁450
▁입수
▁NAS
▁USS
▁아스널
▁1885
▁복식
▁우아
▁Mar
▁내려가
▁프랜시스
ection
▁ㄲㅗㅂㅎㅣㄴㄷㅏ
▁른
▁짱
▁Ph
▁ㅈㅝ
▁ㅌㅟ
▁국악
▁로페
▁세븐
▁시국
▁소피아
ㄲㅝㅆ
▁기병대
▁다람쥐
EM
▁슛
▁엥
▁포고
▁비주얼
▁ㄷㅡㄴㄷㅏ
▁아이스하키
십자
▁un
▁김병
▁돌출
▁카바
▁로렌스
▁1871
▁알래스카
▁ㅉㅣㄴ
▁양성자
ear
▁앞쪽
ance
▁쓸
▁쿡
▁수염
▁신종
▁맷
▁아빠
▁양육
▁중생
▁휴게
테리아
▁only
▁오클랜드
티시
▁계시
▁비늘
▁대장군
▁프레이
제이
lass
▁ㅌㅡㄴ
▁빅토르
▁1600
▁유러
▁카터
▁수원시
▁로리
▁성령
▁센고쿠
▁활발히
ild
▁내성
▁루비
▁요지
▁위스
▁전날
▁참사
▁테일
▁오로지
▁마르크스주의
▁낚
▁리터
▁앤더슨
▁파나마
▁1200
▁유러피언
지오
▁유료
▁청룡
▁케이프
▁경질
▁매직
▁봉수
▁붙잡
▁오라
테쓰
▁GN
▁벤치
▁시애
▁역도
▁장단
▁내면
▁중상
타이드
▁예정자
▁편집자
▁볼프
▁중서
▁탑신
▁화랑
▁ㅃㅏㄹ
▁마닐라
▁윤보선
▁마다가스카르
▁자칭
▁해저
▁내무부
▁박헌영
파이
▁부조
▁지성
▁케라
▁선보이
▁난이
▁루카
▁이양
▁재외
▁흉노
ㄷㅗㄹㅇㅏ
▁갈리
▁수인
▁김규식
▁부원군
▁꺼
체고
▁SL
▁감수
▁능선
▁원심
체고비나
ㄱㅜㄴㄱㅏ
▁관행
▁구니
▁이모
▁출가
▁친분
▁카니
▁퇴장
ㅆㅇㅡ
▁240
▁구마모토
▁ㅂㅜㄹㄹㅣㄴ
irl
▁맨해튼
▁알렉스
▁프로리그
관리
쩌둥
▁vs
▁리바
▁콜레
▁플랜
▁김정은
▁다나카
▁반란군
▁시애틀
▁앤드루
▁해리슨
▁마오쩌둥
▁ㅌㅣ
▁반성
▁생선
▁조광
▁교실
▁뛰어
▁AD
▁서산
▁스태
▁시달리
▁오른손
맥스
▁시리
▁제동
▁지쿠
OV
▁즘
▁수교
▁초빙
▁제조업
▁프라하
ㅁㅗ
메스
▁민요
▁바디
▁이완
▁파인
텔레스
▁동물원
지로
천면
▁궁궐
▁송도
▁부드럽
▁역사가
ans
▁리비
▁이방
▁함자
코토
▁경희
▁시중
▁루돌프
▁실험실
ivers
▁관문
▁상급
▁통역
▁콘스탄티노폴리스
▁괄
▁국보
▁무척
▁오미
▁재활
▁성남시
▁헬리콥터
▁ㅁㅗㅅㅎㅐㅆㅇㅡ
▁성실
▁정제
▁조례
▁징병
▁티켓
▁호크
▁대대로
▁왕세자
▁제퍼슨
▁ㄱㅓㄹㄹㅣㄴ
▁고쿠
▁증인
▁EBS
▁미군정
ype
▁Sy
▁남산
▁사쿠
▁허드
▁공민왕
▁신문사
▁경시
▁구청
▁부각
▁창문
▁동대문
include
▁반하
▁분과
▁아리스토텔레스
▁남용
▁커플
▁리조트
▁위너스
올라
▁CM
▁놀라
▁몸통
▁테라
▁줄거리
▁클레이
ㄲㅇㅣㄴ
▁러시아인
ish
▁드미
▁바트
▁뾰족
▁레이크
▁하노이
무소
어사
▁남해
▁돌려
▁섬세
▁차용
▁총통
▁서재필
▁당내
▁사각형
▁크라이
▁얕
▁카지
▁칼럼
▁":
▁개헌
▁엮
ㄲㅓ
ㅔㄴ
▁총애
▁퍼스
▁하키
▁화기
▁가늘
▁각성
▁시노
▁이룩
▁동유럽
▁자치체
▁클린턴
▁퍼스트
▁김원
▁다투
▁배려
▁통용
▁화엄
▁대합실
▁생겨나
▁해리스
GM
▁NT
▁나우
▁뉴클
▁주임
▁지오
▁푸르
▁MTV
▁개개
▁광도
▁약혼
▁에프
▁하반
▁효자
▁아무것
▁케플러
▁돋
라니
oun
▁농경
▁씨앗
▁안녕
▁천왕
▁올림피아
▁학설
▁허정
ㅂㅗㄴ
ㅅㅕㅆ
▁솔로몬
▁@
▁싣
에스
▁독도
▁스가
▁시합
▁알아
▁ex
▁산호
▁시부
▁진해
▁ㄲㅡㄴ
▁선거법
원수
▁모의
▁보라
▁수양
▁칙령
▁분류군
▁요시다
▁유치원
OD
▁돌보
▁모호
▁포착
AF
사상
▁갑작
▁브루스
▁예선전
▁총사령관
ey
▁관청
▁나선
▁메뉴
▁내야수
▁아키라
▁함경남도
▁메카
▁지로
▁카테
▁파도
▁하류
▁브레이크
컨대
▁sc
▁경호
▁극한
▁독창
▁로버
▁보로
▁주입
▁긴테쓰
ㄹㅕㅆㅇㅡ
▁네이션스컵
fe
▁겁
정원
지르
▁국당
▁문고
▁성화
▁실존
▁자제
▁Jo
▁검정
▁전래
▁처하
▁호스
▁경영자
▁스테파
▁아키타
통일
▁다테
▁마차
▁보행
▁일당
▁트릭
창호
▁만장
▁분파
▁블로
▁신발
▁어군
▁평형
▁스톡홀름
나오
등식
▁되돌
▁유혹
▁케인
▁퍼포
▁비타민
▁컴퓨팅
ical
▁비밀리
▁서대문
토랑
▁찬사
▁레스토랑
▁퍼포먼스
▁수필
▁욕망
▁캐롤
lat
▁제물
▁카피
신문
▁테리
▁알프스
▁자치주
▁원통
▁전무
▁타스
EG
TP
▁드루
▁유아기
▁친위대
러브
▁도교
▁마셜
▁마술
▁포식
ㄹㅝㅆ
▁스폰서
▁잡아먹
▁와이번스
바흐
▁박종
▁방콕
▁ABC
▁마천루
▁프린스
▁뉴클레오
▁ㅅㅣㄹㄹㅣㄴ
▁뻔
환경
히트
▁수복
▁엄밀
▁보수당
▁유권자
암동
▁색소
IR
▁CH
▁럭비
▁프론
▁다저스
▁로드리
▁바이트
▁예수회
▁고든
▁김유
▁모어
▁묘비
▁헬싱
▁황소
▁ATP
메드
▁AV
▁리베
▁맞대
▁불변
▁블레
▁실정
▁이렇
ㅉㅓㄹ
▁대원군
▁강령
▁구내
▁천국
▁치과
▁북아일랜드
▁ㅎㅑㅇㅎㅐㅆ
▁멧
▁DD
▁넷째
▁본성
▁야드
▁웨인
▁개구리
▁방어선
▁플라톤
▁피아니스트
▁리보
▁마켓
▁시몬
▁장시
▁전담
▁톈진
▁파손
▁마누엘
▁투자자
▁연극배우
▁나인
▁상행
▁소음
▁천거
▁추이
▁포토
▁도둑
▁영유
▁정부군
▁콘테스트
매매
▁삼존
▁이점
▁210
▁나트륨
▁용인시
▁ㅂㅓㄹㅇㅕ
are
▁대본
▁리사
▁벤처
▁폭파
▁오리온
▁피라미
▁화강암
▁샐
▁실권
▁약사
▁특전
▁튀르크
▁프레데
▁ㅎㅏㅂㅊㅣㄴ
▁헤르체고비나
놀이
▁Fr
▁절망
▁주차장
덴부르크
대교
▁pr
▁스칸
▁슬하
▁선구자
▁알파벳
군다
▁구실
▁야전
▁왕권
▁퇴직
티넘
▁Ma
▁동로
▁릴리
▁무실
▁ㄸㅓㄹ
▁ㅎㅏㅇ
▁적외선
▁플래티넘
▁스텝
▁정거
▁토스카
▁가브리엘
EL
▁노론
▁마에
▁백두
▁선천
▁찬양
▁침묵
▁쾰른
▁경전철
▁목요일
▁아나톨
FL
▁결별
▁위그
▁채취
▁휩
ica
▁ㅎㅣ
▁국공
▁별세
▁소극
▁중퇴
▁he
▁넘치
▁밸리
▁유선
▁1889
▁가락
▁봉화
▁준수
▁차출
▁화약
ㄲㅜㄹ
공산당
▁유격수
사고
▁리본
▁사방
▁ㅈㅡㄹㄱㅣㄹ
수스
▁대북
▁아날
▁이의
▁일리
▁ㄴㅓㄹ
▁동시대
ㅈㅣㄹㄹㅓ
언스
▁가맹
▁본작
▁소중
▁송신
▁영정
▁제노
▁감찰
▁가이드
60
▁로크
▁방치
▁슬픔
▁실록
▁켈트
▁호대
▁연산군
▁스카우트
난성
천동
▁패트릭
ㅇㅎㅏㄴㄷㅏ
대표
충류
▁베트
▁요충
▁추리
▁오바마
▁직통
▁아이폰
지기
ㄲㅟㄴ
테이너
▁정의당
소통
클레
▁반포
▁정형
▁종식
▁주계
▁하시
▁기관지
▁밴쿠버
▁안테나
▁So
▁여권
▁임정
▁투여
▁니혼
▁비엔
▁산성
▁삼림
▁엔트리
▁공존
▁대영
▁야시
▁의류
▁전전
▁칸국
▁CONCA
위안
▁간첩
▁당연
ㅈㅎㅕ
카리
▁다윈
▁모금
▁미수
▁이송
▁메디치
▁메이커
▁의사소통
▁늙
▁딥
▁멍
▁강렬
▁맞서
▁불량
▁여유
▁중수
▁형질
▁For
▁타이거스
▁CONCACAF
▁불참
▁영예
▁한미
▁초신성
▁고속버스
▁끓
드레
▁김형
▁비야
▁연말
▁중합
▁Live
▁끼치
▁로트
▁유목
▁플리
▁말미암
▁건전
▁김준
▁정읍
와라노
▁리프트
▁센티미터
▁후지와라노
▁라리
▁라자
▁모하
▁사서
▁사설
▁시크
▁타이어
부로
▁금호
▁무형
▁의령
▁인가
▁처지
▁피지
▁JTBC
▁미야자키
▁구두
▁예약
▁우림
▁정종
▁종자
▁프란체스코
sh
▁격리
휴일
▁감상
▁감성
▁매트
▁앙골
▁절정
▁낙동강
▁ㄴㅏㄹㅇㅏ
bo
란토
▁원군
▁은거
▁지자
▁쿠퍼
▁하야
▁스트로
▁시네마
▁가나가와현
▁왕건
▁작물
▁캐리
▁판례
▁후배
▁백과
▁수락
▁애정
블랜드
▁로마인
▁카탈루냐
프로
▁열강
▁두려움
▁똑같이
▁훙
▁메소
▁사탕
▁습윤
▁요격
▁Sou
▁나카무라
▁가도
▁들이
▁송출
▁잠정
▁집정
▁치환
▁자유민주당
EE
▁펌프
바이트
▁레이싱
▁생존자
▁열심히
▁ㅈㅜㄱㅇㅣㄴ
망디
바나
▁극우
하이오
tern
▁미야기
▁ㅁㅓㅁㅊ
▁오하이오
▁클리블랜드
가미
부르
캐슬
▁기이
▁리옹
▁서임
IL
▁연정
▁ㅅㅓㄹ
▁GB
▁고딕
▁마땅
▁징수
▁AKB
▁발라드
▁소말리아
▁프랑스인
▁캅
▁공소
▁금산
▁반기
▁비준
▁트렌
▁int
▁광복군
▁피라미드
▁김명
▁평평
도르프
지능
ood
▁거미
▁장학금
▁인공지능
대사
▁가솔
▁그저
▁모색
▁유희
▁여배우
▁Time
▁유니버설
▁담보
▁여고
▁정작
▁항만
▁Col
▁Com
▁레이트
에미리트
▁아랍에미리트
자루
ost
▁격추
▁무네
▁벨리
▁성곽
▁워커
▁카카오
▁Part
▁도피
간다
유예
▁삼중
▁순종
▁유의
▁추력
▁페트
▁드디어
▁토리노
▁EU
▁사역
▁암스
▁자서
▁검은색
에몽
풀이
현동
span
▁교통부
▁기숙사
▁1848
거스
row
▁"&
▁목회
▁바지
▁볼트
▁수로
▁제명
추부사
▁츄
▁서태
▁한림
마르크
▁뉴캐슬
▁부총리
▁ㅃㅏㄹㄱㅏㄴ
▁onlyinclude
▁벅
▁TR
▁문집
▁하행
▁댄서
▁공휴일
화문
▁로얄
▁탄약
▁포털
▁해태
▁해피
▁마이어
지부
▁모욕
▁무과
▁티아
▁ㅍㅜㄹ
▁여의도
▁꼽히
▁라르
▁매킨
▁사쓰
▁우한
▁재팬
▁튀니지
▁카스티야
uc
▁헛
애미
정동
▁김광
▁오만
▁익숙
▁줄리
▁토트
▁해독
프랑크
▁간신히
▁대니얼
▁라이더
▁브레이
▁마이애미
▁프랑스령
lay
▁급여
▁보령
▁셀레
▁악보
▁재일
▁절벽
▁추억
▁ㄱㅕㅁ
▁ㅈㅔㄴ
▁대승불교
나마
의사
▁비추
▁음절
▁레이더
▁우루스
▁일본국
▁지상파
ous
▁ㄸㅢ
▁남군
▁유식
▁페트로
▁볼로
▁비토
▁여사
▁천주
▁고인돌
▁무안
▁병자
▁종군
ㅅㅓㄹ
페스트
▁국제법
▁법원장
▁정치학
▁공대
▁도래
▁치카
▁스타트
ㅟㄹ
ows
▁사민
▁양심
▁코리
▁한중
olog
▁국한
▁다치
▁랴오
▁조인
▁바그너
▁클라우
메니
▁교의
▁산둥
▁어긋
▁특화
파니아
▁명확히
▁시멘트
▁관현악단
지아
▁EM
▁가혹
▁굴절
▁비정
▁업자
▁워즈
▁인칭
▁SNS
▁제위
해살이
▁Bla
▁시코쿠
▁정거장
▁경복
▁로키
▁리카
▁부평
▁클러
ㄲㅣㄹ
▁지배자
▁모건
▁안개
▁API
▁ㄱㅕㄴ
▁카메룬
▁보수주의
▁줄기세포
▁공성
▁어시스트
OP
브로
▁김인
▁단결
▁비대
▁선명
▁어찌
▁합치
▁항체
클리드
▁그랜트
▁저지대
도라
▁류큐
▁평지
▁황색
▁대리인
▁마법사
▁에이즈
▁제우스
orn
▁가쿠
▁부다
▁아이즈
▁at
▁거란
▁방대
▁숙부
▁연립
▁총격
▁케르
▁131
ann
▁문단
▁안방
▁적료
▁ㅎㅟㅂ
▁하노버
az
▁쾨
▁글꼴
▁마테
▁명소
▁사수
빌라이
▁대나무
ㄱㅏㅆㅇㅡ
▁ㅇㅞ
▁귀신
▁용액
▁종양
서스
칼리
▁고로
▁메일
▁모빌
▁서귀
▁전한
▁점포
▁지법
▁NASA
▁Your
▁레드삭스
시노
▁검거
▁베어
메이카
▁자메이카
▁녕
▁욱
▁BC
▁동산
▁신곡
▁지석
▁하코
▁곶
▁기와
▁남방
▁선봉
▁재편
▁영화상
▁제이슨
▁1883
▁ㅈㅓㅂㅎㅏㄴ
틀리
히사
▁공영
▁대마
▁항우
▁OST
▁ref
▁정보원
▁u
▁설문
ㄲㅜㄴ
드리아
른스트
▁사림
▁수식
▁오디
▁탄자
▁한신
▁계주
▁도키
▁줄리아
▁텍사스주
▁ㅍㅏㄹㄹㅕㅆ
▁부합
▁응급
▁초콜
네그로
레스트
▁라파엘
▁방사능
▁부상자
▁교향악단
▁골격
▁쌍대
▁연희
▁다툼
▁동진
▁무작
▁중엽
80
▁근사
▁모범
▁속력
▁식스
▁진로
▁대단히
▁패러디
▁관상
▁다듬
▁대좌
▁삽화
▁혼다
▁ㅇㅣㅅ
▁대법관
▁비서관
▁연구회
▁그라운드
으로
▁기세
▁유공
▁에스페
▁판소리
▁노르망디
▁프로그래머
거지
관계
▁가우
▁간략
▁병마
▁코소
▁피리
▁하남
▁형벌
▁tv
▁산요
▁온난
▁유우
▁홀리
▁고분군
▁가토
▁야외
▁자명
▁최진
▁카네
▁편견
▁도박
▁실증
▁우산
▁전보
▁절감
▁쿠빌라이
▁Ge
▁경위
▁노면
▁니키
▁단군
▁이터
▁만화가
▁녹화
▁라바
▁리마
▁콘솔
▁큐브
▁흘러
▁에이전
▁해상도
센스
ern
▁공무
▁리즈
▁열전
▁월터
▁위구르
▁이용객
▁토마토
▁파일럿
▁깜
▁봉인
▁ㅂㅏㄹ
▁달라지
▁야마가타
▁콥
▁RP
▁안나
▁평판
▁함량
▁프란치
▁해안선
합성
▁성동
▁소외
▁요절
▁카마
▁1882
▁Wind
버른
▁GM
▁고흥
▁북군
▁촛
▁펴
▁가중
▁고노
▁기전
▁부왕
ㄹㅗㄴ
▁슈퍼컵
40
워스
제품
프턴
▁덮개
▁세습
▁송파
▁스루
▁은혜
▁조교
스트리
▁Day
▁다이어
▁스칼라
▁봇
▁간사
▁권역
▁기량
▁모세
▁타락
포시
ink
▁가고
▁거성
▁관례
▁최선
▁친족
▁후진
▁올리브
▁원산지
▁체인지
CC
▁꿈꾸
▁엔드
▁데니스
용차
▁고생
▁유생
▁유서
▁ㅇㅓㅄ
▁아이언
▁중소기업
II
▁FK
▁SA
▁발상
▁우시
▁학력
에고
▁RS
▁내일
▁라디
▁루키
▁상어
▁수위
▁아날로그
▁ㄱㅕㅂㅊㅕ
교통
돌이
토프
▁외치
▁항원
▁통신사
▁멋
▁정월
▁조셉
▁ㄴㅗㅍㅇㅕ
▁국외
▁사영
▁수다
▁아목
▁ㅅㅏㅆ
▁가솔린
▁뫼
▁앗
▁관악
▁주선
오르크
▁Sch
▁단체전
▁대표자
▁ㅁㅜㄷㅎㅕㅆ
들이
치히
▁국교
▁배분
▁제천
▁플러
▁헬레
▁330
▁연장전
▁관목
▁단정
▁직속
▁공화정
▁해운대
▁미스터리
▁시즈오카
▁강당
▁단속
▁딜런
▁상록
▁새우
▁요양
▁최영
▁선진국
▁전반기
▁관계없이
▁브루클린
데라
▁시안
▁왕궁
▁재래
▁정정
▁경주시
▁노벨상
서니
▁결사
▁몰타
▁씨족
▁지극
▁미토콘
▁카스트
▁미토콘드리아
게스
여객
▁ㅅㅜ
▁고의
▁급증
▁위로
▁위조
▁파벌
▁예컨대
▁지붕돌
▁파푸아
▁필립스
▁호스트
▁도네
▁배달
▁부교
▁산시
▁자수
▁장덕
▁협업
▁북유럽
▁휴게소
나기
려가
본부
ㄹㅓㄹ
▁레오폴
▁사업소
▁제갈량
▁테네시
▁외래
▁정은
▁주창
▁new
▁빙하
▁사학
▁성원
▁타수
▁단말
▁소프
▁수열
▁멜버른
▁4000
▁유클리드
융합
▁내걸
▁라미
▁램프
▁대상자
▁영원히
▁컨테이너
OT
▁규탄
▁동포
▁번창
▁영덕
▁베이커
▁부르주
▁안티오
▁OB
▁넬슨
▁어파
▁회귀
▁괌
▁과테
▁보름
▁사치
▁염려
▁제단
▁피핀
스탄불
▁산티아
▁1868
▁과테말라
▁사이타마
▁이스탄불
▁Or
▁일각
▁조슈
▁콜럼
▁할인
▁중공군
▁핵융합
팡이
▁남하
▁동적
▁국정원
▁Girl
▁ㄴㅗㅎㅇㅣㄴ
US
▁랭크
▁지르
티모어
▁앙골라
▁메릴랜드
▁컨트롤러
지리
▁서면
▁선대
▁냥
▁맡기
▁잠깐
▁종영
▁태후
▁군사력
▁스캔들
▁요충지
▁발동
▁신입
▁후예
▁ㄷㅜㄹ
▁내세우
▁알아보
▁파시즘
▁ㅅㅏㅇㅎㅐ
▁몬테네그로
▁객차
▁노사
ㄹㅐㅆ
▁주계열
협회
▁군벌
▁범행
▁충렬
▁어울리
▁사회민주당
▁버터
▁형편
▁기념일
▁떠오르
▁우의정
▁ㅇㅗㄻㄱㅣㄴ
▁ㅁㅏㄴㄴㅏㄴㄷㅏ
히드
▁받들
▁청도
▁표정
▁폐기물
▁몹
▁고트
▁농지
▁사천
▁항로
▁이바지
▁프랜차
▁colspan
▁대인
▁보루
▁부파
▁양보
▁지켜
▁하의
펜하겐
▁뛰어들
▁코펜하겐
▁너머
▁노후
▁영암
▁영월
▁전수
▁천수
▁독수리
oll
▁다우
▁사안
▁성산
▁오아
▁320
▁ㄸㅣㄴ
▁김옥균
▁너무나
▁신주쿠
▁오스틴
▁커리어
▁히브리
▁프란시스코
ㅌㅐ
▁우왕
▁우월
▁위촉
▁저조
▁카세
▁ㅅㅕㄴ
ㄷㅡㄹㅇㅓ
▁뒤이
▁법관
▁식용
▁차선
▁초안
▁추서
▁베르나르
▁아케이드
해자
▁대청
▁러일
▁아유
▁장병
▁카툰
▁end
▁급속히
▁라인업
▁요하네스
우에
▁교직
▁족보
▁준장
▁헌장
▁효고현
다운
호란
▁강행
▁대덕
▁밀레
▁배리
ㄲㅡㅁ
웨이트
▁수요일
▁ㅇㅓㅄㅇ
▁야마모토
▁사운드트랙
▁프랜차이즈
바오
▁사비
▁외과
▁청계
▁타리
▁사이먼
▁오일러
디나비아
▁암스테르담
▁스칸디나비아
▁뭉
▁상국
▁외형
▁이메
▁정령
▁치하
▁슌
▁고이
▁이항
▁종신
▁컨설
ㅇㅣㄹㅇㅡ
gin
▁DF
▁거처
▁대도
▁샤프
▁양수
▁은신
▁증폭
토리코
▁LED
▁무실점
▁좌의정
▁게오르크
▁ㅈㅜㄹㅇㅓ
▁ㅎㅣㅁㅆㅓㅆ
▁by
▁도상
▁소아
▁절제
▁축산
▁출동
▁피치
▁로마자
▁니콜라스
공주
꼬리
▁복종
▁자재
▁직행
▁타일
▁피드
▁ㅅㅓㄲㅇㅕ
▁코스타리카
▁ㅇㅏㅆㅇㅓㅆ
▁네티
▁문종
▁ㄴㅓㄴ
▁자서전
▁산티아고
걸이
▁교부
▁매리
▁시비
▁전세
▁치유
▁서해안
▁어웨이
▁천안시
▁헤이안
▁에른스트
▁ㅇㅕㄴㅎㅏㄴ
단지
amp
▁고온
▁동향
▁위력
▁리믹스
▁브뤼셀
▁시트콤
계승
니파
셀러
웍스
▁양대
▁조영
▁타로
▁피우
▁법조인
▁함경북도
▁렛
▁각료
▁김선
▁내분
▁성악
▁순차
▁우연
▁데이브
▁발전기
▁푸에르토리코
LA
익스
▁노아
▁슈테
▁스콜
▁주성
▁호아
▁텔레콤
▁ㅁㅗㄹㅇㅏ
▁ㄲㅡㅌㄴㅏㅆ
RT
▁거지
▁공안
▁꾀하
▁모차
▁브릿
▁정몽
▁ㅇㅜㄹ
▁유학자
▁육군사관학교
▁금전
▁내무
▁세련
▁습관
▁증오
▁포르노
▁복음주의
▁쿠웨이트
▁맬
어넣
▁결핵
▁김윤
▁박성
▁아흐
▁압록
▁잔인
▁펠릭스
▁ㄲㅡㅌㄴㅏㄹ
북구
▁리튬
▁분사
▁켄트
▁폐렴
▁ㅁㅜㄴ
▁위안부
▁윗부분
▁1893
▁김승
▁능동
▁안무
▁정재
▁출자
▁코네
▁280
▁IOC
▁장로교
▁가고시마
▁루이지애나
▁늪
▁영천
▁천마
▁측량
▁칭송
▁학장
▁해왕
▁후유
▁203
▁ㅎㅜㅁ
▁결과물
▁서사시
퍼레이션
게임
▁le
▁문무
▁배드
▁서주
▁수량
▁유족
▁이황
▁이회
▁축전
▁함흥
▁ㄷㅗㄹ
▁여성주의
▁탄자니아
▁ㅈㅓㅇㅎㅐㅆ
gr
▁Fe
▁백악
▁점거
▁퍼즐
▁화장품
▁이탈리아어
OW
세유
▁리코
▁생리
▁심포
▁전학
▁접종
▁척도
▁하타
▁흡사
▁국철
▁조제
▁천천
▁한번
로이드
▁ㅊㅣㄹ
▁민병대
▁마이크로
ung
▁관우
▁긴밀
▁배양
▁선인
▁소대
▁원활
▁차츰
▁톰슨
▁교육자
▁도자기
▁로베르
▁부르고
▁트리오
▁해안가
▁갯
몬트
상시
▁Mo
▁금동
▁레프
▁이아
▁첼로
▁편향
▁해치
▁그만큼
▁서초구
▁유적지
▁ㅇㅓㅆㅇㅓㅆ
▁놈
화학
les
▁전락
▁충무
▁톡
▁라카
▁박상
▁온화
▁짐승
▁피크
▁한큐
▁헤로
▁노미야
▁어긋나
▁Comp
▁NP
▁고집
▁관성
▁대종
▁도우
▁분단
▁조니
▁집착
라이드
▁데일리
▁비스타
▁아라곤
▁천천히
▁후쿠오카현
ㅋㅏ
▁불경
▁우두
▁주심
▁한문
▁헌터
▁ㄷㅏㅇㅎㅏㄹ
독립
▁데드
레드
티에
▁김천
▁마타
▁버섯
▁아츠
▁앤디
▁칼슘
▁Rock
▁Univers
ㄸㅓ
▁김치
▁바울
▁도야마
▁동맹국
▁스포르
▁플랑크
▁ㅅㅏㄹㅍㅕ
▁미성
▁주세
▁탈취
▁Car
▁강화도
▁녹색당
▁불계승
▁컬렉션
aw
▁핏
▁노랑
▁에마
▁전미
▁하급
루이스
▁TBS
▁접어들
▁레인저스
eth
▁간직
▁도이
▁버러
▁아메
▁장녀
▁동맹군
▁철저히
▁촐
▁Am
▁공양
▁림프
▁정반
▁합하
▁휴양
▁ㅁㅗㄹ
▁발사체
▁심부
▁우울증
▁미나모토
▁참모총장
oth
▁격려
▁도출
▁라흐
▁애인
▁오하
▁월트
▁페더
▁초콜릿
▁픽처스
익스피어
▁도카이도
들러
업자
▁시속
▁점검
▁Rec
▁셰익스피어
▁과시
▁라즈
▁소사
▁심상
▁자진
▁현판
▁황산
▁GNU
▁베르타
▁에스페란토
▁AB
▁이우
▁Sup
▁고려대
▁순양함
▁인공위성
▁플로리다주
▁갚
폭탄
▁강진
▁낚시
▁당뇨
▁명인
▁미츠
▁숨기
▁에로
▁230
▁로스쿨
▁스탠리
▁from
▁부르고뉴
▁ㄴㅏㄹㅋㅏ
▁핼
▁혀
▁ㄱㅟ
▁노프
▁막판
▁사상가
ublic
▁유영
민스터
▁게오르
▁케이크
▁중앙은행
ㅂㅘ
국적
▁구독
▁마트
▁지바현
▁가와사키
▁ㅂㅏㄹㄹㅏ
▁귀속
▁까마
▁무단
▁바비
▁스킴
▁이범
▁파편
▁프리스
▁가르시아
▁마르세유
▁IV
▁기쁨
▁상정
▁심문
▁피사
▁대진
▁서스
▁기업가
태평
헤드
▁Do
▁대차
▁미아
▁배역
▁울릉
▁향기
▁서바이
▁1888
▁상관없이
▁율리우스
▁ㄷㅏㄹㄹㅏㅆ
▁가부
▁반동
▁발목
▁청량
▁톱니
▁특사
▁페오
▁로빈슨
▁견고
▁겹치
▁구금
▁구치
▁스투
▁시우
▁청송
▁경계선
▁노스캐롤라이나
ㄹㅔ
유사
트르
▁닉슨
▁백자
▁슈타
▁용품
▁운임
▁유포
▁로이드
▁세비야
▁쇠고기
▁이바라
AI
▁아와
▁흥분
▁수나라
▁펠리페
▁대접
▁명부
▁산수
▁국제선
▁하이퍼
바리
▁Su
▁대주
▁사키
▁글래스
▁애덤스
▁평안도
▁Sw
▁ar
▁감싸
▁메틸
▁붕어
▁사커
▁1892
▁공법
▁무르
▁시문
▁에바
▁입헌
▁재차
▁다이빙
▁산스크
▁지켜보
▁찾아내
▁박테리아
▁ㅇㅣㅅㄸㅏ
▁산스크리트
그마
▁동종
▁리차
▁수차례
▁허드슨
▁우에스기
▁푹
▁제창
▁제철
▁코사
▁펠트
▁다카라
▁대전차
▁소학교
▁절도사
▁케이트
▁프로모
▁러시아군
둘기
자동
▁낙양
▁농축
▁새뮤
▁연회
▁유무
▁조롱
▁ㅂㅔㄹ
▁문자열
▁ㄷㅏㄷㅎㅣㄴ
비크
티노
▁견디
▁모던
▁사변
미디어
▁대명사
암리
연수
홍색
▁계량
▁물결
▁산청
▁어의
▁온대
▁대공국
▁스테판
▁데스크톱
▁미식
▁자립
▁재발
▁공방전
▁ㅆㅓㅆㅇㅡ
AE
▁납부
▁니켈
▁데미
▁웃음
▁해병
▁ㅅㅓㅆ
보리
▁고스
▁옥타
▁하임
▁레이디
▁ㅈㅓㅂㅎㅐ
▁펩
▁CG
▁IR
▁공시
▁완도
▁위계
▁주먹
▁직계
▁카야
▁더블린
▁차세대
▁활동가
▁프레임워크
▁wh
▁강성
▁군데
▁불사
▁생모
▁선양
▁자코
▁조개
▁중고
▁볼로냐
▁스탠드
▁앤서니
▁조선왕
ah
▁나뭇
▁복싱
▁침례
▁터지
▁논리학
▁북조선
▁사간원
▁성매매
▁1866
▁1876
광성
▁간혹
▁배기
▁소동
▁손녀
로니아
▁관현악
▁아브라
▁지리학
▁페르난도
▁ㅈㅜㄱㅇㅕ
▁가면라이더
▁로브
▁알폰
▁이나
▁이산
▁지난
▁축성
▁토이
▁올리버
ㅂㅎㅏㄴ
▁베네딕토
▁프린스턴
▁펫
너드
▁순례
▁이봉
▁전권
▁ㄱㅏㅌ
▁고려사
▁보좌관
▁서기관
▁세네갈
▁후원자
▁1886
네트
뮬러
▁군관
▁두려
▁세레
▁장래
▁Gre
▁알렉산드로스
네임
▁원유
▁USB
▁ㅊㅜㄹ
▁도르트
▁전주시
▁웨스트민스터
로쿠
EST
▁두각
▁애초
▁재앙
▁저우
▁통폐
▁파파
르타뉴
▁헤라클
▁구스타프
▁브르타뉴
▁뱃
분열
사태
▁co
▁바시
▁송환
▁채색
▁포탄
▁풍습
▁ㅈㅏㄴ
▁교구장
▁생리학
▁이즈미
▁ㄲㅡㅌㄴㅐㅆ
▁라드
▁반주
▁불러
▁아디
▁죄수
▁카레
▁브래드
▁베이시스트
큐어
▁거룩
▁미미
▁번갈
▁부양
▁수력
▁임계
▁초전
▁파커
▁펀드
▁합천
▁드미트리
▁댓글
▁발의
▁조소
▁260
▁ㅇㅕㅅ
▁바이어
▁사단장
▁조나라
▁덱
직경
코르
▁긴키
▁대금
▁마나
▁신진
▁Tour
▁인플레이션
레시
▁두드
▁살라
▁소용
▁270
▁게시판
▁새뮤얼
▁시직경
▁장제스
▁펭
▁깃털
▁너스
▁서예
▁ㄴㅜㄴ
▁ㅋㅣㄹ
▁보살상
▁스테인
▁마린
▁메스
▁앨리
▁음운
▁일진
▁간사이
▁경영학
▁독립군
▁코소보
▁뮐
우회
ron
▁도하
▁맥아
▁아자
▁유다
▁제르
▁퇴위
▁필하
▁현과
▁삼각주
▁1887
▁당황
▁면모
▁약점
▁강서구
▁축구팀
▁통폐합
꿈치
철수
▁모라
▁위패
▁포츠
▁금나라
▁이어주
▁카운트
▁페미니
▁ㄷㅓㅅㅂㅜㅌㅇㅕㅆ
라호
▁구르
▁수하
▁프루
리카락
▁Wii
▁화요일
▁머리카락
▁브리티시
▁집행유예
슈타
왕후
ave
▁ML
▁경무
▁도제
▁산물
▁코호
▁갑작스
▁서포터
▁유전학
▁도미니카
클라
ble
▁도약
▁박수
▁비지
▁오산
▁유능
▁조현
▁펠로
land
▁근거지
▁덩어리
▁사절단
▁용의자
▁마르쿠스
19
쓰기
▁동창
▁레트
▁에두
▁원상
▁자궁
▁부분군
▁역사학
▁모차르트
코타
▁본체
▁부류
▁출혈
▁1861
▁Dream
▁ㅇㅕㄹㄹㅕ
제비
▁Up
▁it
▁고창
▁도성
▁중개
▁직사
▁행방
▁ㅅㅗㄴ
▁단거리
▁가로지르
▁재단법인
비안
▁KB
▁무수
▁버크
▁여타
▁사쓰마
▁프리미엄
하임
▁배척
▁사내
▁엘런
▁편안
▁SV
▁악곡
▁유머
▁유타
▁타구
▁주니치
▁Life
▁돌아다니
▁ㄱㅏㅈㅊㅝ
▁ㅁㅗㄹㄹㅏㅆ
▁놓이
▁물류
▁형용
▁베이비
▁황해도
▁볼티모어
▁클레멘스
짜기
▁모닝
▁세분
▁완결
▁이호
▁민영화
▁해결책
▁1864
▁석가모니
▁가닥
▁기밀
▁성기
▁수이
▁지아
▁오대
▁왕관
▁데이빗
▁장애물
▁좌표계
ult
▁구문
▁불분
▁세무
▁승단
▁장전
▁백악기
▁스트리밍
DA
라르
콘신
▁급히
▁라시
▁익명
▁공연장
▁음악원
▁위스콘신
▁SH
▁교지
▁내포
▁박자
▁오지
▁올레
▁포화
▁환관
▁당선자
플린
▁과연
▁광선
▁모국
▁오메
▁홀딩
ㄴㅜㄴ
▁ㄹㅓㄴ
▁신세계
▁프랑코
▁홈경기
▁다카라즈카
열차
즐리
▁RT
▁발톱
▁습득
▁지면
솔리니
▁코스트
▁남베트남
▁슬램
▁페스
▁홍성
▁바로크
▁아무리
▁후세인
▁1850
▁마구
▁매달
▁천지
▁특기
▁평탄
▁모나코
▁마을버스
ational
▁TC
▁과잉
▁양현
▁오일
▁잔디
▁정예
▁집정관
EP
▁나름
▁실각
▁암모
▁추존
ition
▁1881
▁ㄷㅏㅇㅎㅐㅆㅇㅡ
진우
orm
▁ㄴㅛ
▁위시
▁쿼크
▁허블
▁생성물
▁컨텐츠
▁행정동
디슨
브웨
▁레버
▁리트
▁무자
▁자릿
▁증세
▁철강
▁촛불
▁파직
▁홈즈
바도르
▁네티즌
▁뛰어넘
▁참의원
▁토트넘
▁깁
▁렙
▁구례
▁만점
▁몰두
▁복위
▁워킹
▁짐바
▁하얀
▁개정안
▁사나이
▁경건
▁마요
▁백업
▁스모
▁토목
▁혼혈
▁요금소
▁if
▁히토
▁카이로
ㄱㅎㅕㅆ
다오
동자
▁객원
▁관내
▁리에
▁삼척
▁푸아
▁가라앉
▁노동력
▁대교구
▁크리에이
ton
▁괘불
▁다행
▁차수
▁카와
▁유니버스
▁Music
▁돗
린트
▁en
▁군세
▁외환
▁1830
ㅈㅜ
예술
▁근래
▁방공
▁아타
▁여건
▁이력
▁잠실
▁재결
라호마
▁도라에몽
▁컴파일러
▁오클라호마
▁ㅁㅏㄴㄴㅏㄹ
니오
뛰기
▁ㅇㅝ
▁공판
▁도산
▁뷰티
▁에반
▁무작위
▁외무부
▁카르타고
렌스
▁구획
▁동차
▁산기
▁쓰루
▁자판
▁재판관
아메리카
▁두려워하
▁루스벨트
▁ㄴㅗㅍㅇㅕㅆ
▁AG
▁계보
▁소라
▁코난
▁가해자
▁아카이
▁ㄱㅕㄴㄷ
▁XP
▁남조
▁매진
▁스몰
▁승하
▁예의
▁왕성
▁판관
▁ㅂㅔㄴ
▁관련자
▁화성시
▁미네소타
화경
▁강세
▁러닝
▁말단
▁민물
▁오우
▁요괴
▁응하
▁전리
▁헌납
▁iOS
▁대표단
▁재판부
른베르크
▁ㄴㅐㅆㅇㅡ
ㅍㅏ
▁침대
ject
▁프란치스코
▁뭐
▁경도
▁뒤늦
▁파주
▁황자
▁마르셀
▁보너스
▁야구단
▁장난감
▁다비
▁미상
▁벌레
▁아편
▁재벌
▁흘리
▁로맨틱
▁보안법
▁압록강
▁여학생
▁헤라클레스
평리
▁목욕
▁스윙
▁승지
▁익산
▁팔작
▁현미
라이어티
▁세르게이
▁버라이어티
ㄱㅜ
림사
ION
▁Ed
▁남송
▁당진
▁스기
▁이별
▁정황
▁파열
▁패권
▁Open
▁ㄲㅡㅌㄴㅏㄴㄷㅏ
타입
▁김희
▁마티
▁발포
▁애슬
▁농어촌
▁바람직
▁반대파
▁불분명
▁1872
▁훔
달마
비오
▁DR
▁루나
▁몸돌
▁별장
▁세간
▁양조
▁이누
▁켄터
▁쿠로
▁감리교
▁모멘트
▁ㅃㅗㅂㅎㅕㅆ
▁an
▁고모
▁관용
▁금고
슬라프
▁까마귀
▁이메일
▁주나라
▁이시카와
▁ㅁㅜㄷㅎㅕ
께끼
▁닛산
▁발자
▁신봉
▁용사
▁이은
▁조경
▁흑백
▁750
▁수수께끼
▁트레이닝
▁te
▁승상
▁종묘
▁트란
ㄱㅅㅡ
▁라치오
▁무솔리니
▁유라시아
덕왕
두르
▁BL
▁교동
▁베일
▁빅뱅
▁시원
▁알맞
▁종업
▁태우
▁ㄹㅏㄱ
▁라이스
▁롬바르
▁합창단
▁대중교통
▁부다페스트
리드
▁배트
▁부전
▁콘티
▁햇빛
▁허목
▁초록색
▁피닉스
어드
▁경매
▁양면
▁원동
▁조심
▁다비드
▁센다이
▁화학자
▁대한항공
나파
ics
▁경량
▁꼬마
▁등등
▁레비
▁레아
▁모란
▁브렌
▁샤이
▁음주
▁전교
▁중랑
브리드
▁Don
▁세군다
▁하얀색
ru
더지
▁가든
▁교제
▁기고
▁생도
▁접합
▁주고
▁탄산
▁범죄자
▁아이콘
▁호크스
▁낭만주의
▁ㅇㅕㄹㄹㅣㄹ
데자
쿠니
▁도봉
▁반죽
▁발산
▁복역
▁티모
▁청년회
▁파충류
데자네이
▁ㄱㅏㅌㅇㅣ
▁도르트문트
▁엡
ier
▁두어
▁순항
▁야망
▁옹주
▁의용
▁탐험가
▁부르주아
▁튼
▁"-
▁가독
▁그란
▁대강
▁삭스
▁오트
▁장쑤
▁개체군
▁1863
리야
바인
번에
▁Ab
▁납작
▁넥센
▁보정
▁복직
ㅂㅈㅏ
태평양
▁작품상
▁1865
ㅂㅈㅏㄱㅅㅡ
▁ㅍㅕㅇㅎㅐㅆ
▁쵸
▁Sm
▁불타
▁인제
▁친밀
▁캐피
▁투하
▁계승자
▁도망치
▁밀가루
▁박영효
▁HTML
▁하이브리드
단위
리쿠
워즈
클럽
▁과다
▁닌자
▁단국
▁덴쇼
▁배향
▁변종
▁슈고
▁의례
▁지경
▁필연
▁격투기
루크
▁이례
▁페라
▁편제
▁피카
▁다시금
▁유전체
▁챌린저
▁공군기지
▁탐정
▁피셔
▁Night
▁ㄴㅡㄹㄹㅕ
매김
ode
▁곱셈
▁조시
▁경복궁
▁시간대
▁유니언
▁ㄱㅓㄹㄹㅣㄴㄷㅏ
▁기통
▁당과
▁봉황
▁섬기
▁어촌
▁코마
▁승정원
▁항아리
▁1891
▁교통사고
▁아이디얼
데자네이루
▁리우데자네이루
▁ㅇㅖ
▁작년
▁진흙
▁클릭
▁태아
▁우간다
▁타임즈
▁오카야마
▁ㅁㅏㅌㄱㅕㅆ
▁ㅈㅣㄴㅎㅏㄴ
훈장
ool
▁메츠
▁이니
▁ret
▁고성군
▁기획사
▁발기인
▁조선소
▁켄터키
▁감추
▁경마
▁곡면
▁완비
▁철종
리아스
▁앤드류
▁여진족
TE
▁AL
▁대목
▁애완
▁엄청
▁여호
▁처방
▁포대
▁세계유산
▁짐바브웨
▁베스트셀러
▁ㅇㅕㅆㅇㅡㅁㅇㅡㄹ
타스
▁란스
▁배아
▁법전
▁선율
▁요즘
▁청문
▁카슈
▁픽셀
▁안산시
▁해석학
▁자리매김
QL
UC
친왕
▁--
▁가두
▁거스
▁경지
▁대의
▁미인
▁조공
▁받침돌
▁자유형
▁1873
▁오스트리
▁려
ise
▁살짝
▁직관
▁수시로
▁반점
▁시진
▁여대
▁코뮌
▁혈압
이스케
▁몰도바
▁ㅇㅏㅍㅅㅓㄴ
▁구강
▁리브
▁매립
▁매스
▁상파
▁해킹
▁노르드
▁다국적
▁릴레이
▁ㅇㅓㄺㅎ
▁온타리오주
ai
▁샨
▁씻
쿠르
▁NS
▁도도
▁마모
▁조장
올로기
▁와이드
▁제너럴
▁테무르
▁이데올로기
미쓰
▁거꾸
▁손꼽
▁쇼크
▁왓슨
▁입시
▁취향
동맹
che
▁굴복
▁단자
▁잡히
▁파기
▁포항시
레반
▁계좌
▁내재
▁등단
▁신대
▁정명
▁충당
▁킹스
▁필두
stem
▁MA
▁루즈
▁어는
▁열렬
▁자켓
▁재고
▁한창
▁현무
부아르
▁난이도
▁승용차
▁시티즌
▁팔작지붕
▁Black
린더
▁리키
▁부실
▁착취
▁촉발
▁합금
합중국
▁제프리
무제
▁걸작
▁튼튼
플렉스
▁발가락
▁알아내
세다
▁고마
▁과격
▁교서
▁국호
▁라크
▁반항
▁인위
▁입술
▁적발
▁해시
ower
▁Can
▁슬로건
▁믈
▁리자
▁분경
▁외상
▁페인
▁공통점
▁백악관
70
킨슨
▁PM
▁계엄
▁라면
▁모함
▁버펄
▁볼넷
▁불로
▁체내
▁키즈
▁공식전
▁Good
▁스테이트
▁야쿠르트
ㅇㅗㄹㄹㅏㅆ
▁section
NG
바지
성경
진구
▁광배
▁단조
▁서위
▁양양
▁조준
▁최장
▁토유
▁헤어
ㅈㅏㅇ
▁선제골
ㄷㅏㄹㄹㅕㅆ
▁네임
▁신의
▁유태
▁토로
▁헌병
▁그나마
▁트로트
▁삼국유사
▁아비달마
▁이바라키
▁구시
▁산책
▁양궁
▁위법
▁터빈
▁파랑
선거구
▁다마스
ㄴㅣㄴㄱㅏ
▁qu
▁당당
▁병과
▁부에
▁야심
▁에치
▁을사
▁이강
▁증강
▁하스
▁550
▁Let
▁종업원
▁두드러지
▁캐논
▁거꾸로
▁캐스트
▁q
▁El
▁머니
▁오즈
▁용감
▁현도
스코트
타나베
▁650
▁하반기
▁샵
▁MM
▁간판
▁국부
▁문정
▁연화
▁우마
▁채굴
드라마
▁국민회
▁아오모리
▁이노우에
▁피츠버그
▁코호몰로지
▁ㅇㅏㅍㄷㅜㄴ
내리
펠러
ank
▁광자
▁산신
▁아델
▁진원
▁후미
▁앨버트
▁1867
▁페르디난트
▁콧
▁AI
▁사하
▁조어
▁705
▁반정부
▁용산구
▁1862
▁무로마치
▁미합중국
방군
▁극찬
▁모반
▁진언
ings
▁김성수
▁알폰소
▁찾아가
▁괜
▁댈
▁맞춤
▁무도
▁앵커
▁온건
▁투신
▁활자
▁지자체
해살이풀
▁경은
▁농성
▁베풀
▁수퍼
▁ㅁㅓㅅ
▁경희대
▁변광성
▁증조부
▁폼페이
▁ㄱㅏㅂㅈㅏㄱㅅㅡ
상어
정사
▁소작
▁주저
▁황폐
▁흡연
▁미카엘
▁무고
▁박진
▁스테이
▁엑스포
▁국민학교
려들
▁AU
▁증발
▁통지
▁갈라지
▁손잡이
▁스코어
▁자외선
▁사이타마현
DS
▁스킬
▁연행
▁열쇠
▁조서
▁휩쓸
절도사
고르
렐라
티야
▁Ac
▁엘라
▁ㄱㅣㄹㄹㅓ
대전
▁세단
▁전멸
▁체하
▁IMF
▁레인저
▁사보이
▁크루즈
▁신한은행
포타
활약
▁광업
▁구슬
▁독주
▁옥시
▁온두
▁코모
세우스
▁MSL
▁노르만
▁언론사
▁타이탄
ㄱㅇㅣㄴ
▁온두라스
북면
▁대담
▁사교
▁양군
▁예종
▁쿠라
ㄱㅔㄴ
레타리아
▁프롤레타리아
▁ㅇㅜㅁㅈㅣㄱㅇㅣㄹ
▁캣
비언
센터
인구
▁걸프
▁꽃잎
▁병단
▁성수
▁심정
▁증식
▁타도
▁푸드
ㄷㅣㄴ
▁맹활약
▁연출가
▁조선왕조
▁ㄷㅡㄹㄹㅕ
▁군자
▁나사
▁나탈
▁노브
▁보직
▁북벌
▁위헌
▁감염증
▁출입문
▁페드로
포타미아
▁6000
▁메소포타미아
lar
▁LS
▁UC
▁서한
▁장신
▁충칭
▁캐치
▁사무국
▁일본식
▁편집장
tr
곡면
▁-&
▁잔존
▁키릴
▁기원후
▁다이노스
▁라이프치히
할린
▁간결
▁동탁
▁들리
▁버진
▁세토
▁신해
▁엘레
▁연달
▁유구
▁조석
▁취리히
▁컴파일
▁1878
▁협동조합
ky
▁기묘
▁시역
▁유망
▁연주회
▁치료제
참찬
▁완수
▁타타르
▁프로모션
사화
위치
퉁이
▁Qu
▁번개
▁저축
▁차림
▁필명
▁대리석
▁부여군
▁제조사
▁백과사전
▁미나모토노
▁ㅈㅜㄱㅇㅣㅁ
ta
▁밋
디언
젤로
▁가극
▁동자
▁상선
▁유림
▁이끼
rist
▁마그네
▁웨이브
▁홀딩스
▁궐
hem
▁강호
▁괄호
▁절약
▁지그
▁충신
▁HMS
▁Ser
▁사대부
▁신기록
▁이성질
▁ㄱㅔㄴㅈㅣ
▁스톰
▁직교
▁처장
▁피어
▁하중
▁낡
▁샴
▁논하
▁당파
▁자행
▁작중
▁히노
플로러
▁802
▁뉴기니
▁익스플로러
ee
빌리
산부
▁국력
▁바쿠
▁사드
▁옥천
▁자부
▁접전
▁글로브상
▁일리노이주
▁킷
▁팍
루엔
▁봉하
▁부군
▁서지
▁완만
▁지린
▁횡령
ㅂㅇㅏ
뉴기니
▁입법부
▁주고받
▁플루토
▁핵분열
▁ㅈㅜㄹㅇㅣㄹ
▁팻
▁시르
▁일설
▁중용
▁지탱
▁참패
▁And
▁스케이트
▁싹
벤션
▁국인
▁다량
▁라다
▁매슈
▁스에
▁애기
▁영사
▁후드
▁액세스
▁플러그
중추부사
일치
조리
▁tr
▁급성
▁매도
▁변모
▁적정
▁행군
▁ㅂㅐㄴ
▁와세다
▁1869
▁개기
▁고찰
▁과자
▁길드
▁참수
▁자릿수
▁포뮬러
▁고등학생
▁프라이즈
누마
다발
▁Ag
▁도발
▁보류
▁잉크
▁정박
ㄱㅣㅁ
▁업로드
▁페르미
▁프로테
▁ㅁㅏㅈㅊㅜㄴ
다스
시게
▁서점
▁육식
▁표출
시아드
▁마포구
▁와타나베
▁코퍼레이션
셔주
▁솔라
▁임하
▁점진
▁청각
▁봉우리
▁쿠르드
▁프리츠
▁유니버시아드
내티
▁다목
▁용해
▁현악
▁형주
▁회유
▁수비대
▁원자핵
▁이브스
▁특별법
▁해부학
▁신시내티
▁키르기스
▁객실
▁벵골
▁무사히
▁방위군
▁비스마르크
▁면직
▁몸체
▁변증
▁북대
▁소피
▁오보
▁저해
▁직물
▁추후
▁포천
▁건륭제
▁경쟁자
▁1592
▁명성황후
▁요리토모
▁엇
정보
▁텍스
▁패킷
▁포탑
▁표절
▁베르나
▁안동시
▁외교부
▁ㅅㅐㅇㄱㅣㄹ
ae
▁밧
▁썬
▁강우
▁고국
▁로시
▁아뢰
▁ㄱㅜㄷ
▁영유권
▁친선경기
▁고을
▁근방
▁부관
▁부두
▁일선
▁잔해
▁항생
▁기동전
▁아이젠
▁운동량
▁인지도
▁인코딩
▁장로회
▁ㅂㅕㄴㅎㅏㄴㄷㅏ
▁AA
▁서거
▁용수
ㅅㅣㄹ
▁프라임
OU
▁탬
암사
▁글렌
▁기조
▁논산
▁목동
▁무비
▁무색
▁버티
▁손님
▁오자
▁위도
▁정진
▁치사
▁피처
ount
▁부등식
▁생화학
▁제작진
▁ㅊㅣㅇㅎㅐㅆ
▁ㅍㅏㄹㄹㅣㄴ
세르
▁대타
▁수당
▁시시
▁콜드
▁행보
▁골짜기
▁수도회
▁오스카
▁지하역
▁ㄷㅚㅂㄴㅣ
▁사부
▁성품
▁수레
▁자처
▁컴필
ㅈㅜㄹ
▁스파이더
▁후지와라
▁ㄴㅏㄹㄹㅕ
▁컴필레이션
▁크리스티나
▁ㄴㅓㅁㄱㅕㅆ
▁박원
▁빈민
▁축일
▁팔꿈치
ㅈㅣㄹㄹㅓㅆ
티컷
▁그물
▁금색
▁지체
▁토라
▁헤더
▁여객기
▁코네티컷
네르
노르
▁RC
▁겨루
▁린다
▁모티
▁반입
▁이목
▁토키
▁폴라
▁금강산
▁며느리
▁불가피
▁Song
▁마스코트
▁ㅂㅜㄹㄹㅕ
▁로드리게스
▁ㅁㅓㅅㅈㅣㄴ
수염
ata
▁ㅍㅛ
▁단역
▁루피
▁민심
▁아어
▁자정
ㅇㅓㄴ
가르트
▁Mon
▁목적지
▁1840
▁파시스트
▁여우원숭이
pr
구스
▁귀인
▁내란
▁사소
▁상의
▁위즈
▁유화
▁지문
▁캐슬
▁516
▁레지스터
ㄷㅡㄹㅇㅣㄹ
▁me
▁가비
▁고제
▁병풍
▁빅터
▁수급
▁하라
스타인
▁리차드
▁사생활
▁연예계
▁유년기
▁힐베르트
▁랙
쳐지
per
▁닉스
▁디나
▁추축
▁헤일
▁ㅌㅡㄹ
▁네이트
▁로타르
▁창립자
▁return
▁볶
려오
마디
자원
ade
▁KN
▁가방
▁다쓰
▁소박
▁심소
▁출국
▁하수
▁사이언스
▁에이전트
▁프랑스와
▁Heart
▁널
블릿
▁국화
▁블러
▁유이
▁이거
▁자취
▁절친
▁유엔군
▁매킨토시
▁심리학자
▁지장보살
▁아나톨리아
작전
효소
히메
▁쿼터
▁헤겔
▁글러브
▁종착역
▁히타치
ㅁㅜㄹㄹㅓ
▁Pe
▁공상
▁발착
▁분별
▁숙소
▁얼룩
▁유골
▁유자
▁입출
▁탁구
▁튜브
▁티저
▁ㅋㅣㄴ
▁바닷물
▁테크놀
▁파주시
▁필사본
사우루스
90
BI
찬성
▁ab
▁거창
▁벤츠
▁성가
▁자질
▁출세
▁풀리
▁패스트
▁와카야마
▁ㅂㅕㄴㅎㅐ
ㅁㅏㅇㅊㅕㅆ
▁Windows
▁펜실베이니아주
▁국세
▁상식
▁영미
▁영수
▁입히
▁처치
▁천상
이치로
▁ㅉㅓㄴ
▁과반수
▁다가오
▁스트림
▁시니어
▁예언자
테랑
▁ㅌㅡ
▁계룡
▁넘버
▁농가
▁라라
▁변질
▁여포
▁이카
▁전단
변속기
▁나치오
▁보유자
▁어도비
▁ㅈㅡㄹㄱㅓ
▁벳
날드
ium
▁겸직
▁란트
▁상과
▁쌍성
▁염화
▁자루
▁패망
▁강력히
▁구단주
▁영등포구
▁백조
▁성대
▁수만
▁암수
▁청취
▁퀴즈
▁8000
▁그린란드
▁남아시아
IX
▁강인
▁거사
▁단서
▁라프
▁바인
▁스택
▁온실
▁최하
▁그래도
▁적십자
▁지질학
▁알프레드
▁세인트루이스
IF
▁악명
▁오시
▁워스
▁조비
▁초음
▁흥원
▁ㄷㅓㄴㅈㅕㅆ
던트
▁Gl
▁권익
▁기행
▁렉스
▁사귀
▁연중
▁윤휴
▁의주
▁휘발
▁세미나
계사
히데
▁괜찮
▁베오
▁페레
넌트
선언
욕장
전선
▁PL
▁동호
▁문중
▁중견
▁시미즈
▁안창호
▁헤르만
▁1875
▁썩
링겐
▁ㅆㅢ
▁삭감
▁실상
▁준동
▁피살
▁하구
▁Out
▁고문서
▁비둘기
▁집단군
▁데카르트
▁Aw
▁노현
▁능가
▁상동
▁외척
▁이심
▁이와테
▁진주시
▁근본번뇌
▁As
▁가곡
▁반론
▁에트
▁유카
▁의복
▁보리스
기즈
수단
탄두
테이
▁독살
▁몰아
▁숙련
▁웍스
▁임종
▁댈러스
▁ㅁㅜㄲㅇㅕ
▁기린
▁콜린
▁나리타
▁맥아더
▁예비역
▁VS
▁강습
▁바보
▁수증
▁왜군
▁저그
▁최남
▁침식
▁키리
▁ㅅㅟㄹ
▁관심사
▁담당자
▁사이즈
구니
기아
itt
▁니케
▁디바
▁미지
▁설리
▁아다
▁철자
▁혼잡
▁Gen
▁KTX
▁회고록
▁아우구스
▁다름
▁선상
▁월화
▁텐서
레이트
▁AMD
▁올라오
▁컨벤션
▁고등교육
이에
son
▁sh
▁노원
▁도적
▁신지
▁용지
▁이선
▁표제
▁게임기
▁운전자
▁남양주시
▁ㅇㅗㄹㄹㅕㅆㅇㅡ
사유
▁걸음
▁김두
▁다자
▁예프
▁원단
▁이희
▁징집
▁친화
▁컵스
▁한민
▁리스본
▁치료법
▁아나키스트
▁ㅍㅕㄹㅊㅣㄴ
▁DB
▁거칠
▁규율
▁미학
▁볼록
▁생원
▁어사
▁위크
▁일명
▁아세틸
▁통도사
▁파라오
보당
▁교파
▁뉴런
▁로사
▁사각
▁은밀
▁인승
▁키드
▁터너
▁해트
▁호그
ㄱㅓㄹ
▁돌고래
▁북극점
▁칭기즈
▁함경도
세서
▁단양
▁시찰
▁여럿
▁출품
▁표트르
▁모자이크
▁포르투갈어
PA
▁엿
방향
어류
▁금정
▁비키
▁셔틀
▁잠입
▁질투
에이고
▁매디슨
▁친환경
▁병자호란
ㄲㅟㄴㄷㅏ
▁샌디에이고
▁ㅇㅏㅍㅈㅏㅇ
▁TS
▁교훈
▁목장
▁에레
▁절충
▁정오
▁집전
▁취직
▁태안
세데스
▁ㅌㅐㄱ
▁가환환
▁광둥성
▁다이쇼
▁레스터
▁크메르
▁피의자
▁학술지
▁항공대
날레
알라
▁구루
▁생쥐
▁서약
▁아지
▁에리
▁의정
▁직렬
able
▁꽃차례
▁스케치
▁일부러
▁테오도
▁토요타
▁뉘른베르크
▁메르세데스
▁김연
▁로큰
▁실명
▁안중
▁양파
▁원효
▁의성
▁첩보
▁타쿠
해방군
▁이사벨
▁장갑차
▁중앙선
▁통신망
크라테스
▁몽고메리
▁인민해방군
▁브란덴부르크
▁ㄷㅏㄹㄹㅣㄴㄷㅏ
▁땀
▁격하
▁리크
▁문관
▁바늘
▁서당
▁슈투
▁포인
록대부
▁ㅆㅏㄴ
▁슈타인
▁신석기
▁연속극
▁클리어
▁ㅂㅜㄹㄹㅓㅆㅇㅡ
▁달콤
▁문체
▁버트
▁선체
▁체로
▁"()
▁성폭행
▁코트디
▁코트디부아르
▁ㅂㅏㄺㅎㅕㅆㅇㅡ
은사
ale
▁교관
▁막강
▁면담
▁변혁
▁열세
▁호른
▁비단털
▁쇼핑몰
▁야마다
▁채권자
▁크라운
▁클레어
ng
더링
몽골
▁로바
▁비료
▁영락
▁인먼
루엔자
▁380
▁로버츠
▁로큰롤
▁바나나
▁아리랑
스코리아
▁비단털쥐
▁저널리스트
촌리
▁기공
▁방호
▁아노
▁반감기
▁베르트
▁부적절
▁파스칼
▁안드로메다
놀드
부대
▁교화
▁레몬
▁몹시
▁방울
▁스펜
▁어부
▁자장
▁데이트
▁스피커
▁꽂
ㅐㅆ
엽수
우주
조사
▁기판
▁동거
▁배반
▁야수
▁외면
▁강대국
▁금환
▁래리
▁명상
▁세일
▁일차
▁착각
▁특공
▁폐허
▁708
▁상반기
▁선거인
▁송파구
▁정치국
▁바빌로니아
▁ㅅㅣㄹㄹㅕㅆ
박사
행파
▁서클
▁순식
▁잉카
▁정에
▁향신
▁Par
▁이랜드
▁종사자
▁오프라인
▁ㅎㅡㄴㄷㅡㄹ
▁University
두사
르카
▁가모
▁구아
▁모피
▁보그
▁성행
▁수마
▁수은
▁술라
▁안식
▁예식
▁왕래
▁장정
▁지치
▁환율
▁ㄹㅗㄹ
▁ㅁㅜㅇ
▁대항전
▁맥스웰
▁라이베리아
▁탭
니에
▁기마
▁모사
▁보우
▁엔젤
▁이홍
▁정칙
▁헤센
▁후루
▁ATC
▁Vol
▁프론트
▁합성어
▁관음보살
세키
▁At
▁라울
▁문수
▁사주
▁슬리
▁야권
▁보호법
▁형용사
▁ㅊㅣㄴㅎㅏㄴ
▁KO
▁WC
▁구세
▁규약
▁기운
▁마레
▁모체
▁위트
▁중일
▁205
▁강희제
▁데뷔작
▁사할린
▁콘라트
ㄷㅗㄹㄹㅕ
건설
▁경순
▁날리
▁데일
▁샤르
▁야코
▁정언
▁조봉
▁쇼트트랙
▁보컬리스트
▁인플루엔자
▁삐
르산
쿠사
▁극소
▁로니
▁미첼
▁율법
very
▁슈미트
▁엑스박스
▁페널티킥
▁조선공산당
▁벙
시대
▁GR
▁JC
▁가명
▁결전
▁경의
▁실은
▁되풀이
▁보조금
▁캐스터
▁통계청
연구
▁라벨
▁베티
▁외손
▁출격
▁치마
▁ㄷㅏㅇ
▁ㄷㅗㅇ
▁싯
▁텅
모음
▁등산
▁박용
▁실사
▁월남
▁이질
▁토피
▁235
▁DOS
▁NBC
▁개그맨
▁사학자
▁호흡기
▁동군
▁상계
▁수역
▁시의
▁에코
▁외할
▁칸트
▁호로
▁후한
▁가이아
ㅁㅎㅏㄴ
▁name
▁ㅃㅏㄹㄹㅏ
사와
▁군복
▁양서
▁에노
▁자키
▁정글
▁집사
▁획기
▁스케줄
▁시마즈
▁가세
▁구타
▁기미
▁사미
▁서안
▁안톤
▁염두
▁자위
폴리탄
▁터뜨리
▁흔들리
▁ㄴㅏㅈㅊ
▁메트로폴리탄
▁엣
▁남단
▁불쾌
▁석기
▁아연
▁후이
▁남극점
▁물려주
▁스케일
▁로베르토
▁ㅇㅗㄹㄹㅣㄹ
▁셴
화당
▁경종
▁나쁘
▁내림
▁비옥
▁초계
▁코바
▁화승
▁지하철역
황색
▁경화
▁노카
▁라가
▁리나
▁마흐
▁양극
▁외삼
▁웨어
▁재화
▁찌르
▁타시
▁풀백
▁사무관
▁자격증
▁조각상
▁ㅁㅏㄹㄹㅏ
▁뤄
데기
▁cc
▁나기
▁배당
▁버니
▁병렬
▁아끼
▁종가
▁카로
▁칼륨
▁포니
▁tvN
▁내보내
▁당뇨병
▁순식간
▁브로드웨이
co
so
루즈
벌리
▁골절
▁나한
▁복부
▁불복
▁실효
▁안기
▁열악
▁유충
▁하산
▁로페스
▁미스코리아
18
▁랠
보라
양이
에쓰
▁안팎
▁화원
▁손꼽히
▁시그마
▁신호장
▁열역학
▁천도교
▁테두리
▁중앙아메리카
yn
큐슈
▁균일
▁망치
▁세스
▁시제
▁신병
▁창구
▁키트
▁패치
▁흔들
ㅊㅏㄴ
▁김해시
▁그레이엄
▁파푸아뉴기니
텐셜
ATO
▁고층
▁부엌
▁솜씨
▁양평
▁요직
▁족장
▁칠성
▁키타
▁공주시
▁동아리
▁카디널
▁유가행파
열대
▁뉴멕
▁마늘
▁무능
▁무예
▁박재
▁산조
▁침범
▁케리
▁협곡
▁라스트
▁안드레
▁안양시
▁최성기
▁뉴멕시코
▁우두머리
IVE
ala
▁오마
▁은폐
▁이달
▁일간
▁일주
▁정승
▁줄곧
▁홍익
▁스틸러스
▁일렉트릭
신저
▁결말
▁동백
▁리시
▁중남
스크림
▁간호사
▁거주자
▁무지개
▁퍼텐셜
▁1874
▁This
▁ㅂㅜㄹㅌㅐ
시험
악산
주크
▁넷플
▁레나
▁안심
▁애착
▁이색
▁축복
▁통솔
▁반대편
▁빼앗기
▁넷플릭스
▁ㄱㅓㄴㄴㅔ
▁ㅁㅏㅌㄱㅕ
윽고
▁기스
▁묘호
▁베크
▁악당
▁재보
▁포자
올리언
▁동남쪽
▁이윽고
▁콘퍼런스
ㅇㅜㄹㅇㅓ
▁잼
징어
▁sp
▁대류
▁읍성
▁잔혹
▁204
▁대수학
▁앞바다
▁에스컬
▁조각가
▁항공편
▁후쿠이
▁바그다드
▁에스컬레이터
▁벚
▁다쿠
▁무가
▁숙박
▁일삼
▁젠더
▁조동
▁학당
▁따라가
▁저스틴
▁컨퍼런스
▁퀄
운수
▁가뭄
▁라플
▁받치
▁소론
▁이문
▁즐거
▁쿠마
진보당
▁게임즈
▁지리산
▁프레슬리
ax
me
소문
▁리타
▁싱크
▁잔여
▁캠벨
▁판명
▁한복
▁향수
어들이
▁책임지
▁클로드
▁콜럼버스
ody
▁낭비
▁몰수
▁발작
▁인스
▁잉여
▁품목
▁한겨
▁가요제
▁트레일
▁휴대폰
▁1877
▁뉴올리언
▁ㄱㅗㄹㄹㅏ
▁SR
▁눈치
▁메모
▁사중
▁송이
▁옥사
▁루이즈
▁호소카와
▁ㅇㅏㄴㄱㅕ
▁서아프리카
▁알렉산데르
더릭
프랑
net
▁상한
▁애드
▁차오
▁클랜
야누스
▁원주시
▁바이마르
▁멀티미디어
민당
▁단발
▁도형
▁에페
▁코로
▁탄수
▁확충
▁공학자
▁아우르
▁재미있
▁허베이
▁슈퍼스타
oid
▁강좌
▁손목
▁하지
▁APG
▁Bab
▁교육감
▁참전하
▁트라야누스
GB
▁쿰
anc
▁격전
▁델리
▁본존
▁소양
▁순찰
▁예멘
▁사하라
▁7000
▁오아시스
양구
혈구
ash
ose
▁곤살
▁바니
▁복속
▁빌드
▁주군
▁코크
▁토바
▁행선
▁브리스
▁채무자
▁핸드볼
▁가온
▁경내
▁바투
▁양천
▁처마
▁총영
ㅈㅇㅓ
▁중거리
▁컨설팅
▁Best
▁ㅇㅏㅍㅅㅔ
바드
변수
▁고승
▁놓치
▁모치
▁아킬
▁엄지
▁출사
▁성폭력
▁스타드
▁여운형
▁콜린스
▁플루토늄
22
를레
▁AF
▁ㅅㅛ
▁나투
▁로망
▁무주
▁에볼
▁오구
▁재회
▁카일
▁셀주크
▁클러스터
14
au
ps
비에
ict
▁et
▁미겔
▁산체
▁석권
▁선단
▁요가
▁인성
▁전조
▁한겨레
▁다카하시
▁캄파니아
▁맴
▁강국
▁블랑
▁시발
▁추계
▁코린
▁Her
▁강화군
▁부르봉
▁비잔틴
▁수백만
▁엘비스
▁아우구스투스
일기
▁AE
▁공문
▁산문
▁소인
▁인계
▁자성
▁경부선
▁오릭스
▁1859
▁Hell
▁메모리얼
남면
피크
▁ㅈㅐ
▁가선
▁감축
▁거시
▁관아
▁바야
▁방학
▁사연
▁소르
▁앞뒤
▁유창
▁앙드레
▁한국군
▁만장일치
▁KS
▁너희
▁라임
▁문맥
▁숙명
▁원사
▁제지
▁ㄹㅏㅁ
▁서스펜
▁오르간
▁전시관
▁콘티넨
▁1700
▁ㅉㅗㅊㅇㅏ
▁ㄷㅗㄹㄹㅕㅆ
▁툼
▁us
▁결장
▁도안
▁레크
▁민원
▁밸브
▁선과
▁지령
▁해지
▁화염
▁CIA
▁프리큐어
범죄
장사
제철
토크
▁두뇌
▁뮐러
▁소주
▁승률
▁원문
▁중건
▁퇴진
▁펭귄
▁교육학
▁아파치
▁청문회
▁클레오
▁포식자
▁혼합물
형제
▁도부
▁도읍
▁명왕
▁미켈
▁미트
▁발판
▁우표
▁이씨
▁태화
▁루카스
▁연방군
13
15
EEE
▁곡식
▁네브
▁니즈
▁뚜껑
▁문물
▁볼드
▁스플
▁완장
ㅅㅜㄹ
▁개화파
▁게이밍
▁아놀드
▁오리엔
▁외계인
▁갈릴레오
▁스테파노
ㅇㅗㄹㄹㅕㅆ
▁사병
▁스펙
▁제비
▁퇴치
▁518
▁사다리
▁우에노
▁울트라
▁현미경
나시
데일
란다
로트
▁대입
▁두르
▁서품
▁요도
▁통찰
▁플랑
▁순천시
▁인류학
▁갑작스럽
▁미야기현
▁자이언트
▁자카르타
계약
▁공병
▁나일
▁리안
▁모교
▁산재
▁예금
▁의제
▁푸젠
▁함장
▁곧이어
▁억제제
▁핵탄두
▁사무라이
▁테크놀로지
VA
▁멱
마을
완다
▁SO
▁YG
▁se
▁구가
▁롤러
▁앨라
▁재물
▁전범
▁지크
▁화소
▁625
▁아키텐
▁이론가
▁라이센스
▁ㄱㅓㄹㅇㅓ
▁부식
▁블룸
▁상감
▁왕당
▁이케다
주석
uck
▁구전
▁백운
▁율리
▁차명
▁츠카
▁투사
▁화음
▁ㄲㅡㅀ
▁빌바오
▁레닌주의
▁^
▁뮈
▁챠
▁켐
무장
▁과세
▁북측
▁제니퍼
▁직사각
ㅇㅓㄴㄱㅏ
de
매기
투리
▁레티
▁아누
▁출장소
고사
동원
버터
▁바젤
▁박찬
▁발터
▁산남
▁양지
▁후견
▁바스크
▁찾아오
▁환승역
▁IEEE
▁아드리아
▁크리스틴
HL
▁거병
▁경합
▁기념장
▁목표물
▁서태지
▁탈레반
▁아이스크림
▁웜
ㅉㅣ
과학
나주
재판
▁무공
▁상환
▁억울
▁원점
▁총감
▁테헤
▁후회
reak
▁난쟁이
▁미성년
▁아이치
▁이치현
▁트레인
▁샷
크리
▁변론
▁사와
▁속국
▁왕명
▁자갈
▁정청
▁피자
▁하후
▁회차
▁결의안
▁선제후
▁고바야시
▁ㅂㅜㄹㄹㅣㄹ
스톤
주사
▁리언
▁북인
▁산술
▁서체
▁오와
▁이창
▁전서
▁코이
▁튜링
ㅂㅅㅣ
▁340
▁가치관
▁케이드
▁아미타불
▁뉴클레오타이드
다보
패드
ail
▁김학
▁만류
▁여정
▁특명
▁평하
▁하층
▁로저스
▁마코토
▁빈센트
▁셰퍼드
▁순교자
▁쓰촨성
▁향신료
▁소아시아
▁ㄸㅓㄹㅊㅕㅆ
oo
▁FF
▁경원
▁김우
▁뉴잉
▁담양
▁로디
▁매기
▁알로
▁장경
▁적법
▁희미
▁길거리
▁이주민
▁출판물
▁카디널스
티지
▁as
▁논증
▁로보
▁로코
▁백지
▁진천
▁청정
▁후면
게이트
▁미트라
▁지석묘
▁통계학
▁서바이벌
HC
스퍼
▁관군
▁군기
▁근간
▁도끼
▁법규
▁사산
▁원만
▁전봉
▁조회
▁화풍
▁로스트
▁볼프강
▁이광수
▁카리스
▁해인사
▁Star
▁매사추세츠주
▁펙
▁관위
▁섹션
▁용맹
▁정역
▁주포
▁헬스
▁ㅁㅏㅇ
▁레이건
▁정착지
르바
조류
▁맹렬
▁베다
▁보어
▁어선
▁우니
▁이만
▁헤라
▁홀수
▁가우스
▁실린더
▁Super
▁짚
▁구라
▁발광
▁베가
▁양동
▁일면
▁입찰
▁자백
하마드
▁310
▁Sun
▁개척자
▁대혁명
▁국가원수
▁my
▁나바
▁보국
▁수주
▁아칸
▁연해
▁오인
▁젤리
▁퇴출
▁개막식
댓값
배마
장조
▁결여
▁달력
▁사생
▁수프
▁커브
▁평방
▁국내선
▁대사간
▁울주군
▁원정대
▁앨라배마
플레
▁개경
▁공석
▁도매
▁멜라
▁발진
▁상설
▁안주
▁짝수
▁추장
▁호화
▁209
▁바빌론
▁예문관
▁끔
ㅇㅢ
▁교감
▁사탄
▁손수
▁폐차
▁ㅍㅏㄹ
▁그래픽스
▁유니코드
▁ㅅㅏㄴㅈㅣ
▁후쿠시마현
구미
▁거문
▁김도
▁부락
▁승낙
▁추밀
▁타밀
▁통감
▁you
▁오슬로
▁자치현
▁뉴잉글랜드
▁콘스탄티누스
TF
니언
학파
iel
▁교인
▁근세
▁금관
▁김주
▁명륜
▁미러
▁산정
▁시력
▁타파
▁토프
▁디에고
▁무신론
▁브레멘
▁셀레우
▁안철수
▁윤치영
▁자오선
▁과달
▁맞배
▁박경
▁상층
▁성조
▁탄두
▁피그
▁교황령
▁르완다
▁삼거리
▁1812
▁Soul
▁ㅈㅏㅂㅎㅣㄴ
▁ad
▁김덕
▁로컬
▁수문
▁정실
▁터스
▁대관식
▁송진우
▁아니면
▁에이브
▁모니터링
▁오토바이
ㅅㅓㄴㄷㅏ
▁ㄴㅓㄼㅎㅕ
▁무형문화재
의식
초프
티어
vel
▁Kn
▁강유
▁넓히
▁로런
▁보디
▁산인
▁속초
▁유틸
▁의인
▁장강
▁장지
▁충동
▁템플
▁206
▁ㅅㅜㄴ
▁ㅍㅕㄴ
▁아스카
▁에이지
▁페스트
▁ICBM
▁선거관리
▁알렉세이
▁유틸리티
ㄷㅜㄹㄹㅓ
▁선거관리위원회
59
▁닷컴
▁루손
▁선별
▁어학
▁지검
▁지카
▁항문
▁호국
▁호이
▁단말기
▁자본가
▁한자어
그램
▁근위
▁나시
▁다윗
▁모션
▁무위
▁수구
▁아호
▁안면
▁주유
▁투니
하우스
▁대대장
▁에세이
▁음식점
▁John
▁아이파크
▁중앙일보
▁ㅎㅟㅂㅆㅏ
▁Christ
▁굶
▁쑹
디드
▁무진
▁센타
▁코우
▁여수시
▁서비스업
도감
샤오
ute
▁금천
▁루드
▁메드
▁문건
▁법상
▁빨강
▁산동
▁샤오
▁스쿼
ㄱㅇㅕ
▁엄청나
▁주거지
▁안토니우스
면적
▁걸스
▁동급
▁배타
▁세제
▁장이
▁풀이
시아키
▁대제학
▁록히드
▁슈투트
▁조광조
▁조르주
▁주제가
▁1879
▁건국훈장
▁슈투트가르트
EA
TR
네오
탄올
▁ON
▁Tw
▁변성
▁수질
▁점토
▁차역
▁철기
▁콜론
공화당
▁막시밀리
▁ㄱㅏㄷㅎㅕ
▁민주공화당
OK
▁Mi
▁조던
▁집적
▁기생충
▁로널드
▁안데스
▁접미사
▁조봉암
▁얄
버라
▁로지
▁버밍
▁세밀
▁수라
▁익히
▁춘계
▁카보
▁폐하
▁747
▁고지대
▁보이즈
▁테헤란
▁베르사유
▁북대서양
구나
▁HP
▁당상
▁도자
▁범람
▁우기
▁이건
▁초식
▁하강
▁한하
ㅁㅕㅆ
▁ㄱㅕㅌ
▁의병장
▁파르마
gh
방스
여지
▁교재
▁대방
▁매듭
▁양원
▁진심
▁천자
▁ㅆㅓㄴ
▁백두산
▁연대장
▁제이크
▁카지노
▁피어스
▁Mr
▁도파
▁영도
▁울루
▁의논
▁초회
▁해주
▁석회암
▁일렉트로닉
▁뽀
▁IF
▁양념
▁유계
▁카토
▁CoA
▁des
▁독재자
▁바닷가
▁사우디
▁름
▁썰
화산
▁귀순
▁규합
▁대여
▁스완
▁위축
▁유세
▁이코
▁콘스
▁App
▁ㅁㅗㄹㄹㅏ
네프
분투
팩스
▁공경
▁아람
▁임실
▁자석
▁청일
▁포상
▁휴일
▁420
▁라그랑
▁태블릿
▁아브라함
▁뉴올리언스
슐리
▁고후
▁관개
▁구비
▁농담
▁동맥
▁부기
▁사스
▁사파
▁소량
▁유보
▁카파
▁카펠
▁쿠시
▁클럭
ㄹㄹㅗ
로세서
▁개개인
▁레코딩
▁여행자
정변
▁노역
▁두부
▁듀스
▁방탄
▁스텐
▁영종
▁컬링
레틱스
▁사가미
▁암스트
▁여러분
리아누스
▁애슬레틱스
ㄷㅓ
▁과감
▁국문
▁군마
▁노마
▁단수
▁딱딱
▁모태
▁수족
▁카다
▁호시
▁황위
라이스
▁글리제
▁리그컵
▁무사시
ㄲㅣㄴㄷㅏ
▁썸
바퀴
연맹
▁ㄲㅚ
▁가창
▁권투
▁기권
▁동대
▁머큐
▁반달
▁불문
▁스킨
▁일보
를레앙
▁기울이
▁니가타
▁아이작
▁인산화
ㄴㅜㄴㄷㅏ
신보
▁두스
▁상이
▁소포
▁양정
▁원한
▁전열
▁최용
▁트리스
▁주머니쥐
▁ㅂㅜㅌㅈㅏㅂㅎㅕ
▁꽝
▁니치
▁열람
▁인삼
▁처칠
▁체리
▁국방군
▁알칼리
ㅁㅏㅇㅊㅕ
▁Record
▁ㅈㅏㅂㅎㅕㅆ
블릭
VID
ull
▁Gu
▁강가
▁김시
▁반납
▁자네
▁정맥
▁현수
▁440
▁영사관
▁원종공신
▁쿵
자드
▁"|
▁PA
▁광시
▁불능
▁인척
▁조우
▁할구
▁호적
▁ㅅㅐㄴ
▁오메가
▁잠비아
▁테크노
▁print
▁아우구스트
▁ㅈㅓㄱㅎㅣㄴ
▁ㅈㅜㄱㅇㅣㄹ
▁능숙
▁무겁
▁시타
▁애호
▁용역
▁유상
▁풍요
▁변호인
▁타지키스탄
▁public
링크
산업
선교
▁끔찍
▁대등
▁리퍼
▁타선
▁폴로
▁후추
▁Str
▁바실리
▁수영장
▁항생제
길준
장군
▁DO
▁po
▁도나
▁부트
▁부화
▁빛깔
▁수아
▁신익
▁왕녀
▁중등
▁커리
▁타라
▁택하
▁해커
ㄴㅣㅁ
▁게이오
▁스위트
▁엘리스
▁오토모
▁퀼
반정
태자
▁궁주
▁미타
▁용문
▁차차
▁항전
리오스
▁Per
▁그러면
▁본거지
▁유기체
▁클라리
▁합병증
▁쑨
대비
수지
티보
▁nm
▁금기
▁나토
▁남경
▁노엘
▁성자
▁성현
▁예보
▁은평
▁자각
▁제방
▁종실
▁환산
▁산투스
▁실리콘
▁양산시
▁엘리엇
▁여주인
▁페이퍼
▁허버트
덕궁
레미
자나
▁감당
▁리노
▁아루
▁유민
▁이한
▁전곡
▁접목
▁제고
▁화이
▁군주제
▁야구부
▁엔리케
▁영화관
바이러스
▁파르티아
▁교학
▁사나
▁압수
▁유관
▁증축
▁퀸스
▁투병
▁환초
▁256
▁ㅊㅜㄴ
▁공성전
▁바레인
▁오우치
▁엔지니어링
▁CA
▁동두
▁라쿠
▁문어
▁북마
▁앙상
▁요셉
▁콜리
▁시에라
▁제시카
▁조용히
▁카스텔
▁2500
▁불법행위
▁천문단위
▁다마스쿠스
황제
▁리지
▁명동
▁무패
▁비싸
▁소진
▁식이
▁열거
▁이설
▁코인
로그램
▁기본법
▁초고층
▁플래닛
▁ㄴㅜㄹㄹㅓ
▁ㅇㅣㅂㅎㅕㅆ
16
무지
쿠치
ual
▁게놈
▁군도
▁담수
▁당장
▁온전
▁이석
▁자존
▁Win
▁비행사
▁왕당파
▁캅카스
▁리바운드
25
포리
▁논평
▁바바
▁우타
▁투기
▁랴오닝
▁즐거움
발트
일체
▁매복
▁사목
▁사체
▁아역
▁유미
▁코니
▁피질
ogle
▁크리스탈
▁헬레니즘
▁ㄴㅗㅎㅇㅕㅆ
데오
▁고난
▁시영
▁실베
▁역동
▁오차
▁왕좌
▁카츠
▁패자
▁호투
▁Hot
▁리바이
▁이세이
▁접근성
자락
▁ER
▁교명
▁균등
▁내시
▁농협
▁상회
▁성교
▁연하
▁접시
▁중신
▁향로
▁호찌
고로드
▁광합성
▁남북조
▁브루노
▁리치먼드
ty
스틱
커우
▁라사
▁마다
▁석재
▁셔츠
▁응력
그래피
▁버스터
▁예수교
▁대법원장
▁사이클론
▁캥
어놓
▁Ke
▁담임
▁동체
▁따지
▁아구
▁왕릉
▁정직
▁코일
▁힐스
ㅇㅡㅁ
▁208
▁예비군
▁제주시
▁조연상
▁주둔지
▁춘천시
ㅁㅏㄹㄹㅗ
▁아미타여래
▁ㄱㅏㅇㅎㅐㅆ
▁ㅅㅓㄲㅇㅣㄴ
높이
다임
무트
울루
▁마거
▁이보
▁킬러
▁ㅇㅓㄹ
▁베이직
▁오이타
▁유도탄
▁페르시
▁프리드
NT
▁ㅣ
▁가결
▁광동
▁미녀
▁부안
▁성형
▁시온
▁탈피
▁할로
▁행운
던지기
▁고다이
▁지극히
▁1789
▁Back
▁찢
는점
RNA
▁HS
▁mu
▁스팀
▁촐라
▁칠곡
▁히코
프리드
▁911
▁ㅌㅏㅆ
▁머큐리
▁사무엘
▁스텔스
▁유길준
▁잠재력
▁조제프
▁후유증
▁1801
▁기타큐슈
▁플랑드르
▁ㅈㅡㄹㄱㅕㅆ
평면
▁금리
▁반정
▁반향
▁소노
▁양구
▁쿠루
▁트램
▁렌더링
▁1400
▁패러다임
▁ㅇㅡㄹㅅㅜ
▁느슨
▁지브
▁진성
▁초석
▁네바다
▁아르테
▁암스트롱
▁포틀랜드
▁ㄴㅏㄹㄹㅕㅆ
ll
인산
▁Fl
▁강자
▁누마
▁바타
▁봉분
▁악어
▁안시
▁원곡
▁MIT
▁영문학
▁Kore
▁KD
▁NM
▁고독
▁득실
▁여관
▁이크
▁파피
▁Get
▁재결합
▁호기심
▁비로자나
▁MD
▁개표
▁그릴
▁기피
▁깊숙
▁끌어
▁실책
▁영성
▁유독
▁윤곽
▁총생
▁치킨
▁침수
▁로런스
▁NATO
▁남한산성
불명
스텐
▁신천
▁애프
▁오웬
▁작자
▁중학
▁폐교
▁370
▁길버트
▁내몽골
▁사망률
▁사천왕
▁슈트라
▁양평군
▁영장류
ox
제사
▁NA
▁갑신
▁강타
▁군량
▁기한
▁정중
▁브릿지
▁웨슬리
▁프린세스
▁가전
▁거품
▁교란
▁구애
▁대용
▁동률
▁멘델
▁워낙
▁조율
▁즉흥
ames
▁다행히
▁방법론
▁생산자
▁판매고
▁슈트라우스
▁ㅇㅕㅅㅂㅗㄹ
라과
▁NL
▁거머
▁약품
▁전과
▁채집
lect
▁매니아
▁선수상
▁앙상블
▁요나라
▁항공우주
▁Intern
▁쐐
▁킵
ㅂㅐ
로움
▁균열
▁극회
▁노골
▁도화
▁승선
▁총국
▁ㅇㅘㄴ
▁마운틴
▁붉은색
▁토론회
▁드래곤즈
▁탄수화물
▁ㅇㅏㄴㄷㅏ
▁렬
▁국산
▁군림
▁레저
▁발열
▁보아
▁사조
▁승마
▁아로
▁에픽
▁우디
▁커넥
▁코딩
▁타키
▁트론
▁알베르
ology
▁미식축구
빨리
▁관원
▁관저
▁내기
▁노름
▁면하
▁미로
▁민선
▁세타
▁쐐기
▁예편
▁첫날
▁출정
▁코디
▁현관
▁호지
▁후난
▁메신저
▁오리건
▁독립선언
▁리하르트
▁해수욕장
YP
피카
let
▁가변
▁먼로
▁변천
▁신궁
▁쌍용
▁제헌
▁청중
▁탄력
▁Mag
▁ㅇㅓㅇ
▁남아공
▁동일시
▁디렉터
▁부천시
▁추축국
ature
▁생물학자
▁이마가와
▁셀레우코스
▁겨냥
▁깨지
▁미디
▁안건
▁의대
▁제타
▁카인
▁케로
ㅇㅊㅣ
▁넘어서
▁클라인
▁펼쳐지
그라운드
▁Baby
레븐
모닉
투르
▁기일
▁니트
▁무루
▁성부
▁악의
▁열기
▁장승
▁지회
▁책정
▁캔터
▁디아스
▁마거릿
▁미요시
▁니카라과
▁레오나르
▁ㅂㅕㄴㅎㅐㅆ
ove
▁군위
▁궁수
▁광주시
▁급속도
▁방문객
▁베테랑
▁와이어
▁콜라보
▁돼지고기
▁서귀포시
▁에두아르
▁ㅇㅗㄹㄹㅣㅁ
경찰
락부
백색
이상
▁구명
▁생포
▁안락
▁초판
▁하세
▁흉내
▁ㅁㅏㄹ
▁범어사
▁부사장
▁브루크
▁블러드
▁신안군
▁주세페
▁태양광
17
남동
박이
enn
▁Cr
▁고관
▁공훈
▁로만
▁베아
▁어둡
▁오랑
▁주스
▁진위
▁최순
▁탄광
▁황하
▁효성
코비치
피에르
▁225
▁고스트
▁기네스
▁요시카
▁최진실
▁페라리
GO
득점
▁BB
▁나날
▁누에
▁레반
▁리라
▁무소
▁출항
▁카노
▁캡틴
▁탄성
▁파출
▁피시
▁호전
스트림
inal
▁GPS
▁나카노
▁다카시
▁리카르
▁시나노
▁프레더릭
▁베오그라드
▁안티오키아
▁둠
▁씬
의금
▁강구
▁경산
▁김장
▁다채
▁도보
▁만물
▁사옥
▁수화
▁유재
▁천태
▁카불
▁합장
▁김종직
▁두더지
▁이치로
▁게오르기
▁트로츠키
▁ㅎㅐㅇㅎㅏㄴ
파니
ors
▁가령
▁매튜
▁박태
▁비방
▁사일
▁생장
▁연어
▁철근
▁하츠
말라야
▁ㅍㅡㄹ
▁강릉시
▁만주족
▁혈액형
ㄷㅏㄹㄹㅕ
ㄲㅗ
능력
무실
스레
▁DA
▁무쓰
▁잔치
▁출병
▁365
▁Res
▁유물론
▁이유로
▁체육회
▁서대문구
▁선거인단
ㅇㅜㄹㅇㅕㅆ
덱스
심원
훈련
▁고취
▁대소
▁불길
▁외가
▁운석
▁스펜서
▁이지스
▁인문학
▁타일러
▁Amer
▁로베르트
광사
금속
▁MR
▁개리
▁공지
▁교내
▁깁슨
▁꾸미
▁도식
▁명장
▁살레
▁알마
▁조너
▁키치
▁포메
▁효모
▁흡입
▁207
▁동북부
▁아열대
▁해수면
▁후반전
TN
메랄
즈미
▁OK
▁개축
▁결투
▁공평
▁레르
▁맞닿
▁명중
▁베라
▁브이
▁솔직
▁야만
▁유감
▁장차
▁조엘
▁통킹
▁풋살
▁풍기
▁스태프
▁스트라
▁지방도
▁프린터
노스아이
노스아이레스
▁부에노스아이레스
24
▁쪼
마니
app
▁도량
▁듀엣
▁라테
▁봉헌
▁사계
▁세도
▁에든
▁청군
▁한꺼
▁핼리
▁감마선
▁무정부
▁알레산
▁압둘라
▁페레스
▁에든버러
▁한꺼번에
▁히말라야
▁아르바이트
FS
질량
▁습도
▁신안
▁유익
▁천적
▁친히
▁퇴계
▁흑색
이즈미
▁Way
▁모잠
▁미추
▁변조
▁북송
▁전극
▁폭주
▁한라
스티안
▁농민군
▁어드밴
▁일제히
▁조합원
▁태극기
▁1815
▁1820
▁모잠비크
갱이
나비
시카
월드
현실
ina
▁격침
▁격화
▁내역
▁담장
▁떨어
▁박동
▁양위
▁증류
▁표어
▁야행성
▁오징어
▁라이온스
▁리얼리티
▁ㅁㅏㄹㄹㅕ
▁레닌그라드
▁낸
▁Dr
▁굳이
▁베컴
▁소마
▁시성
▁약수
▁월경
▁호박
ater
▁리그전
▁시아파
▁지포스
▁후베이
▁마쓰모토
로프로세서
▁System
▁마이크로프로세서
▁공보
▁김석
▁모질
▁에다
▁인노
▁천리
▁춘향
▁치루
▁트롤
▁국무부
▁디나모
▁제품군
▁조병옥
▁Cent
▁ㅆㅗㄷㅇㅏ
MP
▁결단
▁결렬
▁그간
▁노하
▁마취
▁서곡
▁설과
▁에인
▁지반
▁직각
▁총수
▁해머
▁허들
▁유명세
▁모노이드
▁이리하여
▁ㅂㅜㄹㅌㅏ
▁막시밀리안
▁둑
거루
끄럽
▁노총
▁데니
▁로제
▁세실
▁소켓
▁어인
▁피쳐
▁필로
▁도나우
▁사법부
▁전망대
▁트럼펫
▁알베르트
▁오스트로
▁유럽연합
▁카롤루스
▁ㅌㅗㅇㅊㅣ
▁알렉산드라
za
▁꿰
▁SW
▁김은
▁리서
▁산마
▁술집
▁스틱
▁양분
▁장론
▁장서
▁조나
▁죄인
▁쿠사
▁파고
▁아드리
▁혁명가
▁ㅈㅣㄴㅇㅣ
쓰네
▁BO
▁격상
▁당사
▁마초
▁미완
▁아토
▁옵티
▁윈드
▁이부
▁학도
▁힘쓰
레이즈
▁Mac
▁유공자
▁일진회
▁전동기
▁정몽주
▁파블로
▁함부로
▁1858
▁고고학자
▁이성질체
▁이오니아
▁프로방스
입자
▁'-
▁던전
▁떠돌
▁서역
▁이구
▁재심
▁코넬
▁하카
▁민의원
▁신익희
▁총생산
▁마그네슘
▁class
▁폴리네시아
▁폼페이우스
가요
동리
비츠
ons
▁갈비
▁녹말
▁만수
▁성찬
▁에뮬
▁융기
▁좌랑
▁탈리
▁모델링
▁제노바
▁맞배지붕
▁챈
오드
토바
▁"'
▁갑오
▁결실
▁기주
▁배지
▁슐레
▁장택
▁창씨
▁치밀
▁테살
ange
ions
▁ㄸㅏㄴ
▁ㅈㅣㅁ
▁도치기
▁봉수대
▁조너선
▁필리스
ㅍㅣ
가라
니츠
처럼
▁결집
▁더빙
▁벅스
▁본진
▁직류
▁특위
▁형광
▁화교
▁ㅁㅣㄴ
▁연습생
▁크레타
▁포인터
▁무궁화호
▁ㅊㅓㅇㅎㅐㅆ
▁갸
코인
▁달마
▁시편
▁아쉽
▁엠마
▁으뜸
▁출루
▁태상
▁펜스
▁합산
▁Tra
▁노트북
▁마에다
▁목포시
▁스와프
▁유성구
ㅅㅓㅆㅇㅡ
러기
▁고택
▁능하
▁동티
▁본능
▁상해
▁소정
▁수강
▁완산
▁이철
▁자막
▁좌천
▁진구
▁노무라
▁선데이
▁시게루
▁중심핵
▁천연가스
▁필하모닉
att
▁SG
▁굴욕
▁기욤
▁낙태
▁농작
▁도난
▁매질
▁새해
▁소탕
▁의왕
▁정공
▁지뢰
▁특혜
▁가디언
▁군산시
▁안티고
▁트랜싯
▁서프랑크
사랑
ret
▁광서
▁기민
▁남궁
▁디펜
▁만연
▁분담
▁성제
▁아말
▁안재
▁육박
▁충고
▁포섭
▁푸틴
▁헬렌
지먼트
▁USA
▁그리드
▁지팡이
▁type
▁동아프리카
▁매니지먼트
▁ㄷㅓㄴㅈㅣㄴ
ux
당류
라나
▁대정
▁영위
▁정과
▁정현
▁종단
▁총살
▁토드
▁토의
▁Int
▁대학살
▁쌍방울
▁직할시
▁귤
널목
▁기형
▁미자
▁빠져
▁수선
▁이삭
▁재주
▁콘셉
▁펠레
▁IEC
▁Not
▁ㅌㅡㅁ
▁건널목
▁라이드
▁분홍색
▁전철역
▁평상시
▁평의원
▁1300
▁High
실험
자유
촌동
ART
▁궁내
▁급사
▁납품
▁덕수
▁문성
▁벨벳
▁사보
▁쓰리
▁아약
ㄷㅣㅈ
▁MHz
▁ㄱㅔㅅ
▁저지르
▁충주시
▁1814
▁보호구역
▁알베르토
▁소크라테스
거성
재단
컨드
ley
▁로타
▁마틸
▁소치
▁위태
▁전집
▁테드
▁휴먼
▁War
▁겨울철
▁깨달음
▁미우라
▁적절히
▁평택시
▁항소심
▁산업단지
▁ㅆㅏㅎㅇㅕ
▁Google
기둥
테일
▁Of
▁경구
▁독실
▁바사
▁부탄
▁석등
▁선서
▁음역
▁퍼플
▁건너편
▁마피아
▁성북구
▁연구실
▁오나라
▁티무르
마일
정제
▁위배
▁음양
▁이덕
▁증직
▁핑계
▁석가여래
▁ㅅㅔㄴㄷㅏ
BN
랭크
림동
민정
▁견지
▁기교
▁마도
▁주상
▁헤임
▁홍천
▁패트리
▁프렌즈
▁플래그
▁암모니아
니코
▁고요
▁목화
▁미에
▁버거
▁스팅
▁윗면
▁퀘이
▁흥덕
ㅅㅔㄴ
씨식물
▁WHO
▁거머쥐
▁광화문
▁비올라
▁세컨드
▁수도사
▁아약스
▁혁명군
살바도르
▁What
▁플레이스
▁앳
토쿠
▁FS
▁군락
▁도표
▁민가
▁시차
▁신관
▁캐럴
▁콤비
▁헨드
▁달아나
▁막아내
▁미시간
▁액티브
▁연금술
▁우승컵
▁통신부
▁플라자
▁1795
▁그래미상
▁다리우스
▁부위원장
▁클라이맥스
▁윔
식스
싸움
전차
▁고갈
▁군집
▁기근
▁바하
▁보카
▁사악
▁손쉽
▁수의
▁실태
▁완주
▁유승
▁전란
▁지층
▁페데
정보부
▁국문학
▁맞대결
▁피드백
▁토스카나
▁조선왕조실록
데냐
ger
▁PH
▁ㄸㅜ
▁갈아
▁군비
▁규장
▁루지
▁리츠
▁말소
▁멘토
▁본초
▁살피
▁스쿠
▁우도
▁초당
▁패드
▁TBC
▁ㅌㅏㄹ
▁니스트
▁블루어
▁디렉터리
▁사르데냐
퍼트
▁레미
▁아난
▁암초
▁애매
▁앨버
▁약학
▁예일
▁우대
▁원생
▁켈빈
▁키아
▁프록
▁290
▁LCK
▁관찰자
▁라쿠텐
▁성명서
▁주교좌
▁홉킨스
▁With
▁샌드위치
UN
회원
▁공해
▁도정
▁라지
▁로어
▁발췌
▁스톨
▁에런
▁우사
▁제보
▁증원
▁코지
▁포진
▁Dis
▁MLB
▁로렌초
▁모조리
▁모터쇼
▁스레드
▁원정군
▁익산시
▁하모니
ye
▁켓
구멍
yle
▁모식
▁몬태
▁보육
▁보훈
▁아핀
▁열풍
▁인대
▁전액
ㅅㄱㅏ
▁남조선
▁한정판
▁쥘
부미
카라
alk
▁로동
▁비욘
▁얼터
▁쿠리
▁트림
▁패퇴
▁480
▁남해군
▁리포트
▁에히메
▁이회창
▁커티스
▁헬싱키
▁ㅈㅣㄴㅈㅓ
▁ㅁㅕㄴㅇㅡㄴ
▁ㅈㅣㄴㅈㅓㅇㅎㅏㄴ
▁렝
라도
▁kW
▁간지
▁비호
▁세베
▁아랑
▁우이
▁장준
▁헬로
▁238
▁850
▁ㄴㅗㄹ
▁선언문
▁스타즈
▁창덕궁
▁창업자
▁수마트라
▁아틀레틱
▁안드레이
enc
▁감기
▁견훤
▁괴뢰
▁김세
▁당명
▁아픔
▁알렌
▁정일
▁종친
▁포교
▁혼돈
디우스
▁트루먼
▁드레이크
▁ㅇㅝㄴㅅㅜㄹ
팽이
▁그늘
▁니나
▁니체
▁반야
▁부녀
▁실크
▁열망
▁영재
▁웰스
▁유원
▁토비
▁풍수
▁할양
▁함의
▁헤지
▁훈족
지스터
▁ㄷㅐㄴ
▁고조선
▁대항해
▁정확도
▁합천군
▁가나자와
▁그리스도인
▁ㅇㅜㅁㅈㅣㄱㅇㅣㅁ
IO
▁광택
▁덩굴
▁버시
▁보궐
▁숭실
▁진하
▁천정
주니어
▁개최지
▁보행자
▁북반구
▁페테르
▁크리스천
ㄷㅡㄴㄱㅏ
▁COVID
▁머피
▁비어
▁승전
▁총액
▁허구
▁Art
▁안데르
▁요시아키
레프
▁관대
▁랜덤
▁매춘
▁미숙
▁브람
▁어쩌
▁정여
플레잉
▁ㅁㅝㄴ
▁남반구
▁수번뇌
▁충렬왕
▁타블로
▁롤플레잉
▁카테고리
▁트랜지스터
▁키르기스스탄
UI
천국
▁Di
▁노화
▁박승
▁보츠
▁북상
▁에린
▁연유
▁장조
▁장항
▁평신
가하라
다람쥐
▁돋보이
▁보호관
▁빅토리
의금부사
▁Blue
▁MPEG
베인
블린
▁RA
▁구룡
▁묘법
▁민권
▁서강
▁웅진
▁정병
▁천구
▁첨부
▁팀장
네소스
ough
▁Rev
▁ㅁㅜㄹ
▁공기업
▁노르트
▁보라색
▁스타인
▁아산시
▁아칸소
▁지방관
▁취약점
▁1846
▁프로이트
적분
OVE
que
▁각광
▁골수
▁구토
▁급기
▁기시
▁논설
▁대뇌
▁데메
▁데쓰
▁리저
▁미코
▁선회
▁용접
▁이트
▁효용
연화경
▁ㄹㅜㄴ
▁문하시
▁산체스
▁이완용
▁크라스
▁학생회
▁물리학상
▁브루나이
▁ㅇㅜㅁㅈㅣㄱㅇㅕ
26
ㅊㅜ
▁ㅇㅐ
▁기악
▁신구
▁율령
▁페터
웨스트
▁유격대
▁페인트
▁1793
▁time
▁사탕수수
▁에드먼드
▁하시모토
▁그리스도교
▁중앙정보부
▁ㄴㅡㄹㄹㅕㅆ
ING
▁갤러
▁국지
▁니콘
▁당분
▁오호
▁올랭
▁윈터
▁직함
▁바로잡
▁1839
▁시즈오카현
▁아오모리현
▁뿜
나물
던스
르모
파스
▁'.
▁ED
▁걸치
▁경이
▁교주
▁구자
▁국과
▁소도
▁수렵
▁역모
▁옥상
▁와해
▁월북
▁쿠릴
▁공직자
▁농작물
▁등록금
▁사이공
▁추밀원
▁이베리아
▁밈
건적
▁공덕
▁독소
▁무당
▁존상
▁차분
▁퇴단
▁하순
▁휘트
▁배수량
▁시어터
▁아쿠아
▁엉덩이
▁재빨리
▁전기장
▁중서부
▁프리킥
▁자유민주
▁히로부미
▁촘
▁훅
바람
스테
운전
ump
▁괴멸
▁남포
▁맛있
▁성내
비우스
▁737
▁대머리
▁여객선
▁외무성
▁체스터
▁테트라
▁ㅌㅡㅁㅌㅏ
▁트리니다드
ㅇㅏㅅㄱㅕㅆ
▁중앙아프리카
▁뱌
래시
메트
der
▁Vf
▁게일
▁과부
▁군국
▁권하
▁도색
▁멜론
▁몸집
▁부딪
▁부윤
▁설사
▁순정
▁심플
▁해자
▁ㅇㅗㅂ
▁가시마
▁상대론
▁아테나
▁알레르
▁포스코
▁1854
▁언어학자
▁경멸
▁범용
▁본당
▁쇠약
▁아민
▁엄정
▁유시
▁직권
▁추위
▁현충
슬라브
시우스
▁214
▁손바닥
▁수증기
▁팩토리
총리대신
▁기념사업
▁ㅍㅏㄹㄹㅕ
▁내각총리대신
▁꼼
고트
뉴스
재란
후이
▁간디
▁걸맞
▁낙타
▁불평
▁세탁
▁손책
▁윤원
▁이국
▁정강
▁펀치
▁표결
▁필기
티우스
▁COM
▁ㄴㅏㅊ
▁국무원
▁분류학
▁조계종
▁하카타
▁비지니스
▁아나키즘
▁정유재란
▁ㅊㅏㄱㅎㅏㄴ
패스
▁등대
▁망루
▁방조
▁서보
▁야로
▁인신
▁메이트
▁버나드
▁윤리학
▁자연주의
▁ㅎㅜㅁㅊㅕ
대성
▁ㅎㅘ
▁교묘
▁디디
▁마한
▁미묘
▁브론
▁상작
▁솔트
▁이효
▁제식
▁코레
▁클루
▁학급
▁학창
ㄴㅜㅁ
▁교토부
▁비행대
▁산둥성
▁이브라
▁키워드
▁평화상
스트리트
▁갈릴레이
▁비트코인
▁어드밴스
▁초등학생
▁ㅅㅗㄴㄲㅗ
▁세키가하라
▁감탄
▁구석
▁구인
▁바일
▁이형
▁인출
▁칼레
▁특례
▁Min
▁ㅋㅐㄹ
▁돗토리
▁안중근
▁초대칭
▁기독교인
▁미성년자
▁여주인공
28
▁돛
▁퓌
탐정
▁BR
▁ME
▁박기
▁북해
▁상투
▁새턴
▁석상
▁심근
▁억류
▁종주
▁총체
▁페가
▁환기
▁후시
▁ㅇㅐㄹ
▁가입자
▁경비대
▁데포르
▁베일리
▁파출소
▁델라웨어
▁오브젝트
▁플로이드
▁ㄱㅓㄹㄹㅗ
▁간염
▁갑각
▁개전
▁만기
▁매월
▁바덴
▁박준
▁베버
▁새기
▁시주
▁오딘
▁참배
▁파드
▁팬아
▁하디
캐스트
학생회
▁구청장
▁북극해
▁황태후
▁1849
▁네덜란드어
HD
사회
호프
▁분양
▁산불
▁찬탈
독립당
직할시
▁LCD
▁ㅎㅡㄹ
▁나가노
▁에리크
▁최하위
▁후임자
베이거스
▁1856
▁총학생회
▁한국독립당
모자
정권
▁견습
▁계투
▁고압
▁교포
▁남로
▁분장
▁오기
▁유폐
▁존엄
▁ㄸㅜㅀ
▁기부금
▁장택상
▁공화주의
▁크레이그
▁ㄷㅡㄹㅇㅡ
▁라스베이거스
23
▁뚱
누아
리가
뻐하
호르
▁NX
▁고하
▁귀양
▁라몬
▁루머
▁수표
▁신작
▁씨름
▁어이
▁요아
▁우동
▁웅장
▁웨일
▁이안
▁장령
▁준하
▁치중
▁틀리
▁페드
▁화북
atch
▁기뻐하
▁낙하산
▁넥스트
▁보나파
▁증명서
▁1851
▁끌어들이
▁하이웨이
▁보나파르트
▁페더레이션
▁줌
오린
▁두껍
▁만국
▁매번
▁밀스
▁본디
▁분쇄
▁육아
▁윤영
▁체질
▁촌은
쿠스틱
타니아
▁ㄱㅏㅄ
▁입출력
▁절대로
▁사보이아
▁스탠퍼드
▁어쿠스틱
▁차량기지
렁이
체어
▁내수
▁디온
▁미모
▁비크
▁셔먼
▁수류
▁시경
▁유장
▁이견
▁인피
▁적재
▁철원
▁해일
▁효능
코스트
프랑스
▁419
▁건국대
▁벤피카
▁포위전
▁Beat
▁캔자스시티
86
▁넉
▁럴
▁볼륨
▁수서
▁예속
▁주경
리어스
▁430
▁FBI
▁레인보
▁에밀리
▁진보당
▁참모장
▁캥거루
▁파트리
▁하동군
▁해럴드
▁1855
▁블레이드
▁상파울루
▁오하이오주
우어
처리
▁낙엽
▁라티
▁메사
▁배설
▁생가
▁서천
▁쇼팽
▁오닐
▁현령
▁베드로
▁상속인
▁핵폭탄
▁1857
▁캐나다인
▁크리에이티브
▁ㅇㅕㄹㄹㅕㅆㅇㅡ
산읍
케스
하늘
▁광경
▁도독
▁변방
▁상체
▁알비
▁원성
▁적성
▁한서
▁서북쪽
▁ㅈㅏㅂㅇㅏ
▁ㅎㅑㅇㅎㅏㄴㄷㅏ
담회
▁PP
▁간장
▁김문
▁사흘
▁여과
▁연임
▁카잔
▁후백
ㅈㅔㄴ
트로피
icro
▁Top
▁공사관
▁교직원
▁글리코
▁디스코
▁수산물
▁시부야
▁오비탈
▁지난해
▁휠체어
▁노동자당
▁스티븐스
▁폴란드인
ㄷㅡㄹㅇㅣㄴㄷㅏ
▁좡
개혁
봉사
섬유
하르
ery
▁계란
▁깜짝
▁단사
▁들여
▁반려
▁봉작
▁소란
▁외동
콥스키
cess
▁Med
▁변속기
▁애벌레
▁작사가
▁테이크
▁포천시
▁갑신정변
▁다이스케
▁소용돌이
ㄲㅜㄴㄷㅏ
▁결탁
▁내구
▁수훈
▁정시
▁체첸
▁활기
▁기념식
▁보르도
▁시공간
▁시흥시
▁식물원
▁지평선
▁이와테현
▁데포르티보
▁여러해살이풀
댄스
려나
버거
일라
▁단성
▁모기
▁보문
▁서상
▁실로
▁여생
▁잇달
▁착안
▁추궁
▁치수
▁헐리
고양이
▁시우바
▁포브스
메니스탄
▁반공주의
▁정사각형
▁프란시스
▁병마절도사
▁투르크메니스탄
BT
▁씌
카테
▁TG
▁대광
▁대세
▁버퍼
▁벽면
▁비이
▁비참
▁수배
▁임베
▁주치
▁캔디
▁톨킨
▁해금
▁301
▁갖가지
▁구미시
▁베르디
▁봉사자
▁찬드라
▁펠로폰
▁임베디드
▁민족주의자
▁펠로폰네소스
▁힉
레토
서구
전기
▁CL
▁셀룰
▁아모
▁택지
▁팔자
▁핵산
▁211
▁223
▁수수료
▁은하단
▁일간지
▁저작물
▁헤이스
츠부르크
▁마음대로
▁깡
깨비
나들
니엄
▁경색
▁다지
▁분개
▁수스
▁압송
▁지소
▁태세
▁폰트
▁히나
▁동의어
▁아가씨
▁ㅇㅣㅈㅎㅕ
쇼프
하스
ont
▁YM
▁담론
▁롤리
▁박격
▁벚꽃
▁사죄
▁외벽
▁유품
▁음경
▁정년
▁크세
▁NAD
▁감염자
▁노스케
▁상세히
▁어리석
▁Free
▁이해관계
천년
흐트
▁권세
▁변장
▁성간
▁성채
▁소홀
▁신영
▁엠블
▁이학
▁카렐
▁페티
▁포구
▁Pop
▁ㄸㅡㄴ
▁보니파
▁컨디션
▁투데이
▁행정관
▁ㄴㅏㅊㅅㅓㄴ
재기
day
▁IA
▁고증
▁단호
▁랜디
▁명주
▁민생
▁실습
▁열반
▁율곡
▁조식
▁친목
▁현청
▁나주시
▁대주주
▁수송기
▁1776
▁Will
▁사카모토
▁서아시아
니크
로아
테른
▁대흥
▁돌핀
▁심슨
▁욕설
▁원제
▁쟁점
▁조력
▁지병
노벨라
시오날
▁루터교
▁비엔나
▁제이스
▁집어넣
▁카운터
▁나시오날
▁무라카미
▁미주리주
▁엔트로피
▁플루오린
▁그레고리력
▁텔레노벨라
광선
왕국
지대
▁FR
▁거액
▁노회
▁맛보
▁슈바
▁어기
▁윤선
▁퇴사
ㄱㅏㅁ
▁그로스
▁다이나
▁레너드
▁바이스
▁오카다
▁형무소
▁태평천국
▁국면
▁급습
▁낙랑
▁뇌졸
▁만리
▁반열
▁빌미
▁소망
▁악역
▁일어
ㅌㅏㄹ
▁XML
▁다면체
▁달라이
▁이범석
▁하이든
▁핵실험
타고라스
▁캄파니아주
ㄷㅝ
ㅃㅓ
볼트
▁UR
▁금광
▁무왕
▁부총
▁서던
▁언약
▁제학
▁타오
▁탄원
▁ㅅㅡㄹㅍㅡㄴ
27
ma
가야
스탕
▁MW
▁간파
▁누각
▁알론
▁요네
▁인테
▁장구
▁현명
▁현생
레시브
▁병원체
▁영산회
▁청구인
▁ㄴㅗㄹㄹ
▁올랭피크
▁프로그레시브
29
연대
▁Po
▁ne
▁개요
▁골목
▁괴팅
▁네모
▁대적
▁부풀
▁상시
▁센스
▁오도
▁중첩
▁진안
▁코민
▁타현
▁회부
▁거제시
▁동북쪽
▁하이델
고도
마타
소득
▁김한
▁땅콩
▁로젠
▁버즈
▁살림
▁시왕
▁역습
▁이로
▁잠복
▁항모
루리아
▁del
▁가속기
▁김종필
▁독립국
▁배트맨
▁심포니
▁청교도
▁출생지
▁클라라
▁조기어류
▁10000
▁ㄸㅢㄴㄷㅏ
를린
버드
연료
▁가메
▁괴롭
▁국채
▁끊이
▁로로
▁마고
▁명지
▁발송
▁방한
▁장타
▁파격
▁한참
▁Bro
▁대각선
▁마그마
▁마인드
▁사모아
▁가까스로
▁레오나르도
▁묘법연화경
▁뵈
투안
▁누락
▁몬트
▁미움
▁사성
▁산탄
▁셰이
▁와트
▁호가
▁메이플
▁서기장
▁네브래스카
▁통합진보당
슐린
저민
쿠젠
its
▁간소
▁교복
▁미안
▁사극
▁수잔
▁역행
▁연좌
▁윤석
▁입안
▁케니
▁템포
들랜드
irst
▁벤저민
▁피에트로
▁뜯
급시
모습
바꿈
페리
▁각별
▁공녀
▁대열
▁로미
▁미망
▁본기
▁부이
▁음란
▁찬스
▁청화
▁최경
▁홀드
▁베르그
▁샘플링
▁스나이
▁아세트
▁팰리스
▁황도대
▁ㄱㅏㄹㅇㅏ
aut
▁CV
▁나나
▁노미
▁당기
▁밑면
▁발주
▁비기
▁습성
▁신명
▁이연
▁직제
▁친절
▁콘월
▁파사
▁하쿠
중국해
▁Big
▁논산시
▁단기간
▁모티프
▁새천년
▁서남쪽
▁크리켓
▁스포르팅
▁캔터베리
ㅂㅗㄴㄷㅏ
▁begin
미치
증권
▁DL
▁독감
▁마마
▁액수
▁정철
▁지단
▁퓨전
▁End
▁웨이트
▁미시간주
▁ㅁㅜㄹㄹㅕ
▁눌
평가
활성
▁문교
▁반일
▁브롱
▁시로
▁심신
▁위드
▁유즈
▁이공
▁준위
▁화신
메데스
▁리서치
▁코미디언
빼미
어하
연의
▁노먼
▁다의
▁듯이
▁배영
▁양손
▁에나
▁우메
▁총알
▁타나
▁퇴화
▁편하
▁화전
더니즘
▁레이어
▁문화사
▁해설자
▁서스펜션
▁원내대표
▁포레스트
▁ㄷㅏㄹㄹㅕㅆ
▁언더그라운드
▁과업
▁라비
▁로자
▁성추
▁세브
▁연천
▁장보
▁천명
▁픽업
▁혹독
▁히다
▁215
▁239
▁510
▁DFB
▁변증법
▁비정규
▁유니온
BL
개발
코바
aff
▁HK
▁WH
▁개간
▁기물
▁레베
▁생사
▁서킷
▁전갈
▁종택
▁질레
▁쿠키
▁평년
▁합체
▁구석기
▁베리아
▁에인절
▁특이점
▁포위망
▁써
ㅌㅡ
계리
▁KC
▁거세
▁경치
▁대양
▁린드
▁서드
▁위니
▁주둥
▁징후
메네스
파트라
▁BMW
▁1792
▁떨어뜨리
▁아틀라스
▁클레오파트라
보스
▁까치
▁니즘
▁듀크
▁루아
▁원가
▁촌락
▁칸타
▁한도
▁황보
▁set
▁기장군
▁전년도
▁프리랜
▁void
HS
br
▁젬
가키
▁가인
▁감명
▁낭독
▁방수
▁시료
▁시암
▁우랄
▁우문
▁재원
▁정약
▁창안
▁체임
▁치이
▁틈새
▁포에
▁픽션
▁함안
궐선거
▁Des
▁계약서
▁과선교
▁목걸이
▁서로마
▁월리스
▁특공대
▁소선거구
▁재보궐선거
▁ㅇㅝㄴㅎㅏㄴㄷㅏ
▁랏
▁덧셈
▁메콩
▁바크
▁부원
▁살상
▁열광
▁예천
▁원화
▁위아
▁코다
▁패주
▁한방
▁호엔
ㄷㅜㄹ
▁가져가
▁권력자
▁목격자
▁사중주
▁엑스선
▁Rain
▁알레르기
▁프로토타입
루이
버섯
삼문
oss
▁난간
▁덤불
▁도기
▁매드
▁명절
▁상피
▁세관
▁아그
▁양력
▁오쓰
▁요세
▁유실
▁최북
▁포탈
ㅎㅣㄹ
▁미술가
▁사생아
▁수메르
▁영등포
▁엘살바도르
▁SI
▁경수
▁도고
▁동복
▁루소
▁박중
▁비슈
▁산토
▁실드
▁아속
▁점하
▁접착
▁포즈
▁레일리
▁부활절
▁브레인
▁표준어
▁1853
▁동대문구
이인
▁JP
▁RE
▁do
▁가평
▁금화
▁마자
▁모후
▁성년
▁영연
▁입적
▁정파
▁제향
▁홍백
너티브
덜랜드
▁게이머
▁계약금
▁꽃받침
▁돌려주
▁무인역
▁시설물
▁외삼촌
▁1791
▁1852
▁크래프트
▁얼터너티브
▁ㅈㅜㄹㅇㅕㅆ
니발
막염
서면
행사
▁구급
▁시구
▁실화
▁아쓰
▁어필
▁조참
▁청탁
▁티르
▁급기야
▁무안군
▁중생대
▁프레디
▁속씨식물
ㄷㅡㄴㅈㅣ
▁슈퍼주니어
그림
vis
▁녀석
▁다라
▁몰입
▁밥상
▁방과
▁시동
▁절멸
▁캄포
▁향리
▁TOP
▁ㅋㅓㄹ
▁버밍엄
▁보호자
▁성동구
▁프로파
▁호위함
▁LIVE
▁Show
▁도네츠크
▁ㄸㅏㄹㄹㅣㄴ
▁퓰
경궁
바타
얼빈
▁그려
▁노던
▁버락
▁비츠
▁상권
▁셰프
▁숙성
▁스커
▁으로
▁춤추
▁탄환
▁튀르
핵생물
▁경기력
▁레프트
▁아르카
▁파이브
ement
▁모하메드
▁클라리넷
▁ㅂㅓㄹㅇㅕㅆㅇㅡ
be
노동
지않
oup
▁CT
▁FN
▁교우
▁국고
▁독신
▁메트
▁비고
▁사구
▁시판
▁실황
▁안상
▁영아
▁자락
▁장영
▁표상
▁플뢰
제르맹
▁233
▁부제학
▁브람스
▁프라이스
▁플레이트
▁옅
팔렌
▁EN
▁관서
▁귀납
▁근연
▁미팅
▁부름
▁수전
▁수첩
▁식료
▁언젠
▁제반
▁최치
▁케스
▁허물
ㅅㅏㄴ
즐랜드
▁분화구
▁양서류
▁요리사
▁잎자루
▁후반부
노헤
▁FX
▁국물
▁박인
▁에타
▁우쓰
▁제법
▁해동
▁후신
▁언젠가
▁황갈색
▁도쿠시마
▁퀸즐랜드
▁ㅁㅏㅈㅁㅜ
▁ㅈㅣㄴㅎㅐ
▁히로시마현
▁잣
타라
티드
▁감히
▁도금
▁연작
▁일람
▁차가
▁카쿠
▁호치
▁회중
▁히브
▁212
▁개찰기
▁게이초
▁음악회
▁퍼펙트
ㅂㅎㅣㄹ
▁LOVE
▁다운타운
▁루키우스
▁생제르맹
▁ㅁㅏㄴㄷㅡㄴㄷㅏ
▁빽
▁구보
▁능통
▁벨레
▁불황
▁색인
▁서하
▁신재
▁요트
▁장터
▁희박
▁그려지
▁동인도
▁상류층
▁성추행
▁세례명
▁앵글로
▁재정난
▁조나단
▁1847
▁Like
▁권위주의
▁뱀파이어
▁사다하루
▁천주교회
▁필리포스
▁테러리스트
개명
에어
▁갑판
▁고타
▁래스
▁만다
▁매너
▁보두
▁여태
▁영세
▁욕심
▁이족
▁친숙
▁김포시
▁에르난
▁옹진군
▁이베이
▁이스턴
▁최적화
▁시트르산
▁인테리어
▁ㄹㅓㅆㅇㅡ
▁ㅅㅓㅁㄱㅕㅆ
▁콘스탄티노플
말리
하워
▁EF
▁OC
▁mg
▁가봉
▁기노
▁대검
▁라벤
▁북제
▁세가
▁신숙
▁쑨원
▁영해
▁월급
▁윤상
▁은둔
▁정량
▁포리
▁ㅆㅗㄴ
▁관악구
▁인슐린
▁재판장
▁중학생
▁퀘스트
▁핵연료
▁Mnet
▁옵티머스
▁은행나무
▁퍼레이드
▁ㄲㅡㄶㅇㅓ
▁롬바르디아
▁아이젠하워
▁ㅇㅜㅁㅈㅣㄱㅇㅣㄴㄷㅏ
하트
▁강물
▁과천
▁마누
▁마로
▁버블
▁수온
▁슬럼
▁안젤
▁야채
▁약정
▁얼리
▁유위
▁음소
▁이계
ㄷㅏㄱ
리오카
하이머
▁ㄲㅣㄴ
▁생태학
▁올빼미
▁점성가
▁지원자
▁국민회의
▁레인보우
▁옥타비아
▁ㅇㅓㅅㄱㅏ
▁뚝
▁NK
▁김호
▁약국
▁오에
▁완투
▁음색
▁제각
▁청진
자위대
▁Red
▁검사장
▁레슬리
▁레오니
▁브룩스
▁세일러
▁저술가
▁중대장
▁편의점
▁버지니아주
▁안티고노스
▁찻
랄라
야구
way
▁UK
▁es
▁경감
▁고질
▁관사
▁구면
▁귀향
▁기치
▁독려
▁망상
▁밀턴
▁수뇌
▁수찬
▁연사
▁즐겁
▁착오
▁회군
ㅈㅣㅂ
ouse
▁221
▁강아지
▁뇌졸중
▁지도력
▁하얼빈
▁Sound
WS
▁똥
▁냉동
▁미일
▁보현
▁불펜
▁스벤
▁쓰가
▁예견
▁왈라
▁원망
▁조만
▁주어
▁차드
▁초중
▁최재
▁쿠페
▁팔각
▁푸시
▁품계
▁황성
▁Sec
▁다각형
▁릴리스
▁미카사
▁정말로
▁탈수소
▁현악기
▁Over
▁Sing
▁경향신문
▁콘티넨털
▁프리랜서
ㄸㅓㄹㅇㅓ
▁계명
▁계파
▁고작
▁나츠
▁남짓
▁라피
▁마조
▁발라
▁송금
▁슬롯
▁여야
▁연일
▁우성
▁진과
▁출소
▁클론
▁231
▁리히텐
▁싫어하
▁정보국
▁1100
▁1844
▁동명이인
▁창씨개명
▁카리브해
▁Light
▁자동변속기
귀비
비어
▁ac
▁나팔
▁미신
▁발화
▁오목
▁커크
▁혈청
하이드
▁가오슝
▁게이츠
▁미망인
▁세포막
▁여름철
▁가이우스
▁즌
색슨
IDS
▁갑상
▁동족
▁명품
▁서간
▁섬멸
▁수작
▁식년
▁안구
▁외화
▁이등
▁정구
▁크릭
▁파니
▁회기
ason
▁유목민
▁피스톤
브레히트
▁곤살레스
▁브래들리
▁앵글로색슨
aj
▁즙
거슨
방식
옹주
▁ㄱㅝ
▁고부
▁골자
▁베레
▁유주
▁조승
▁주술
▁하체
▁호감
▁Bar
▁Eng
▁사이다
▁산화물
▁유학생
▁찾아보
▁카이저
▁하루카
▁계몽주의
▁랜드마크
▁민속문화재
타바
프슨
▁TA
▁공물
▁다키
▁대파
▁마왕
▁만찬
▁아워
▁요안
▁유루
▁자력
▁학점
▁Net
▁명백히
▁박격포
▁수류탄
▁참가국
▁플랜트
▁현급시
▁요코스카
루트
시간
▁JS
▁박주
▁삼부
▁색조
▁수난
▁신빙
▁신예
▁오경
▁재야
▁점심
▁커트
▁토토
대주의
▁배상금
▁정착민
▁사회단체
▁오를레앙
▁포리스트
▁삼국지연의
▁간편
▁미오
▁북단
▁이도
▁정연
▁체온
▁추석
▁취락
▁친하
▁호러
▁갑각류
▁한마디
▁시라카와
▁ㅂㅕㄴㅎㅏㄴ
▁덥
▁흩
소니
오밍
▁과수
▁궁금
▁균류
▁동천
▁디어
▁부응
▁선방
▁테츠
▁390
▁좀처럼
▁프로필
▁1837
ㄴㅕㅆㅇㅡ
▁ㅎㅏㄹㅅㅜ
▁ㄱㅓㄹㄹㅣㄹ
승람
오세
쿠로
red
▁RD
▁강압
▁내쫓
▁레딧
▁봉산
▁숙고
▁운문
▁콕스
▁후각
▁흡혈
ㄸㅡㄴ
▁목판본
▁서산시
▁예배당
▁조교수
▁현저히
ㄱㅇㅣㅁ
▁아시리아
워키
iet
▁Pa
▁걸즈
▁계략
▁부결
▁실바
▁아론
▁업소
▁오니
▁우미
▁한류
베를린
슈타트
▁228
▁미스트
▁비스트
▁정찰기
▁화순군
▁후견인
▁북베트남
▁오렌지색
▁네덜란드인
▁알레산드로
실론
코로
ana
▁그람
▁김응
▁노시
▁도핑
▁만경
▁맨틀
▁면접
▁미약
▁선승
▁수유
▁앙주
▁앞장
▁여순
▁원판
▁청렴
▁치타
▁코노
▁패미
자동차
▁Har
▁유가족
▁제작소
▁프런트
▁뜰
▁ro
▁교착
▁바예
▁아저
▁오데
▁주앙
▁폐간
▁필살
▁히치
정대부
▁가야금
▁군단장
▁발자국
▁이준용
▁콘셉트
▁평창군
▁개인주의
▁꽁
호크
▁벙커
▁비명
▁비약
▁송병
▁영흥
▁울음
▁유흥
▁익주
▁쟁취
echn
▁fun
▁도지사
▁명륜당
▁반대쪽
▁발명가
▁아저씨
▁에버턴
▁최남단
소시
ech
ric
▁MX
▁강수
▁나방
▁노년
▁담화
▁상석
▁성녀
▁일직
▁토사
▁티에
▁판별
▁한옥
▁ㄷㅏㄱ
▁노원구
▁멤피스
▁모국어
▁케네스
▁테레사
▁스테레오
▁트레이너
99
부스
▁광종
▁로랑
▁반민
▁약제
▁연마
▁외젠
▁정태
▁주청
▁칼초
▁트랩
▁호라
▁혹평
▁홍대
클레스
▁226
▁경영진
▁독립성
▁브리즈
▁연장선
▁유리수
▁항저우
▁환경부
▁고속철도
IE
슈티
치카
▁건안
▁고군
▁궤멸
▁마태
▁방전
▁본적
▁북면
▁생김
▁아레
▁아만
▁열등
▁유예
▁총지
▁치우
▁친형
▁타코
▁합방
▁혼용
▁ㅅㅏㅁ
▁버틀러
▁부사관
▁브리트
▁에리트
▁자신감
데하이드
▁저널리즘
▁ㄴㅓㄼㅎㅕㅆ
개석
보레
상도
ven
▁거장
▁군현
▁길목
▁성왕
▁속이
▁슈가
▁알현
▁윤회
▁제례
▁지터
▁판도
▁나뭇잎
▁마리나
▁비대칭
▁스타스
▁울릉도
▁쫓아내
▁녜
▁읊
▁HE
▁경학
▁난사
▁노숙
▁다방
▁말러
▁문부
▁반증
▁서동
▁소토
▁스털
▁이면
▁이천
▁이프
▁정순
▁주살
▁초보
▁티나
▁흐트
▁007
▁LTE
▁경작지
▁비디아
▁연천군
▁예카테
▁최치원
▁헤이룽
▁1794
▁1836
▁Road
▁구스타브
▁모모야마
▁Hello
▁ㅇㅓㅄㅇㅐ
▁마르티네스
▁ㅁㅑ
▁북진
▁소단
▁아명
▁예우
▁전광
▁카오
▁키노
노세키
니우스
▁950
▁Sum
▁ㄹㅕㅆ
▁간행물
▁공로자
▁로스터
▁밀워키
▁스턴트
▁요시노
▁자연사
▁증손자
▁취임식
코프스키
▁글래스고
▁요시노부
▁코르테스
▁비로자나불
회로
▁Af
▁OF
▁개년
▁만능
▁비오
▁섭씨
▁야르
▁엘프
▁용매
▁이매
▁증서
▁척탄
▁추월
▁헌제
vent
▁ㅂㅣㅊ
▁관동군
▁도깨비
▁무척추
▁베이컨
▁아타리
▁알렉시
▁알론소
▁윈스턴
▁정규군
▁피타고라스
▁욘
▁팁
시설
젤란
▁가자
▁고드
▁고해
▁망막
▁매표
▁선더
▁성직
▁성충
▁셀러
▁익사
▁일신
▁장엄
▁재귀
▁중흥
▁증산
▁카멜
▁코라
▁탄화
▁해류
▁757
▁관리국
▁동식물
▁밀양시
▁비서실
▁휘두르
▁알브레히트
07
임수
전력
제곱
ner
▁그랜
▁냉정
▁녹스
▁메로
▁무방
▁빈약
▁설법
▁소변
▁쇼니
▁썬더
▁워런
▁조위
▁짝짓
▁척수
▁출근
▁포사
▁217
▁315
▁Sci
▁ㅇㅜㅅ
▁게임스
▁농경지
▁에스테
▁오미야
▁콩쿠르
▁CCTV
▁블리자드
▁프라이드
ㄷㅜㄴㄷㅏ
ㄹㅓㅆㅇㅡ
▁뿌
ㅁㅐ
기술
bum
ism
▁관공
▁낸시
▁랭커
▁러더
▁물의
▁반구
▁병영
▁셀프
▁여가
▁오거
▁우화
▁이각
▁청풍
▁함평
▁화사
바이크
▁640
▁군사령
▁원통형
▁밀리미터
▁콘스탄틴
yl
▁쉘
조작
▁RO
▁el
▁고어
▁고즈
▁낙농
▁난자
▁도노
▁레고
▁보사
▁슈뢰
▁일류
▁전황
▁접경
▁폭우
미사일
소시엄
ator
▁SQL
▁고창군
▁더구나
▁베르너
▁슐레스
ution
▁컨소시엄
테롤
▁XX
▁독단
▁때리
▁라운
▁숙의
▁예리
▁욕계
▁우트
▁임업
▁전폭
▁조모
▁출진
▁투영
▁프롬
국민당
컨트리
▁720
▁드래건
▁문화원
▁배포판
▁성범죄
▁시크릿
▁야구팀
▁호찌민
▁페미니즘
▁리히텐슈타인
셔스
찌르
피오
▁GL
▁IB
▁거물
▁기만
▁내사
▁냉방
▁단판
▁덴버
▁리턴
▁박제
▁반원
▁벨로
▁상도
▁선덕
▁우부
▁의금
▁타국
▁편모
▁풍토
▁홍명
ㅁㅣㄴ
사이클
ital
▁허난성
▁Stud
▁ㅁㅜㅇㅊㅕ
▁ㅁㅝㄴㄱㅏ
▁콘스탄티노스
▁크로스컨트리
도체
돌리
루프
▁EV
▁OP
▁가니
▁마포
▁박세
▁속죄
▁스즈
▁자급
▁지에
▁쾌락
▁타계
▁RPG
▁본회의
▁스코트
▁쓰러지
▁지린성
▁팬아메리칸
▁ㄷㅡㄹㅇㅕㅆ
생명
▁PK
▁낙향
▁돈녕
▁라코
▁린치
▁방랑
▁살롱
▁암벽
▁액정
▁오정
▁잔당
▁주시
▁집약
▁치역
민정음
▁Boy
▁거문고
▁기후현
▁불명예
▁신인왕
▁인피니
▁해적단
▁1806
▁애기박쥐
▁우리나라
▁카리스마
▁프레데리크
ㅇㅏㅅㄱㅣㄴ
08
▁딤
▁웁
곡선
교동
서기
여왕
▁공회
▁노다
▁도큐
▁무너
▁부마
▁산간
▁선지
▁심층
▁장현
▁지드
▁케어
▁키시
▁테베
▁합전
▁520
▁610
▁규장각
▁에볼라
▁예산군
▁조선조
▁집합론
▁퍼블릭
▁근본주의
▁무너뜨리
▁승부조작
▁쁘
▁얽
바스
▁군용
▁니컬
▁단련
▁만두
▁서광
▁선무
▁스퍼
▁아의
▁외전
▁이교
▁이발
▁주방
▁추봉
▁토고
▁토우
▁티노
▁후학
클랜드
▁제작비
▁징병제
▁1842
▁Play
▁교섭단체
▁산마리노
ㄴㅣㄴㅈㅣ
▁ㅊㅣㄴㄷㅏ
성이
시계
자재
장자
젠더
ony
▁GD
▁김나
▁낙원
▁노량
▁만석
▁모레
▁보비
▁불순
▁비니
▁송정
▁순창
▁승천
▁시술
▁여전
▁이륙
▁주니
▁집현
▁파벨
▁회랑
ㄱㅡㅅ
스타파
▁다이너
▁수호자
▁족제비
▁헤이그
▁후쿠다
▁1796
▁레오폴트
▁세르비아인
uk
링거
외과
▁각인
▁관방
▁김만
▁대축
▁사세
▁위선
▁은사
▁인회
▁절터
▁책판
▁탈선
▁편수
▁해구
▁wid
▁니케아
▁연주가
▁옆구리
▁완주군
▁코코넛
▁이스마일
▁훈민정음
▁챙
이나
IST
▁마현
▁명맥
▁성희
▁쇼난
▁양부
▁오성
▁옴니
▁중사
▁채팅
▁철제
▁허영
▁ㅅㅐㅁ
▁에탄올
▁연구관
▁위클리
▁테슬라
▁라플라스
▁에드워즈
▁플라스마
HT
를로
사병
▁개회
▁결속
▁김혜
▁동결
▁리부
▁사시
▁수생
▁이대
▁인솔
▁절연
▁정설
▁체격
▁카밀
▁캡슐
▁켈러
▁끊임없
▁마티아
▁아즈치
▁웰링턴
▁윈난성
▁임팩트
▁흰개미
▁매일신보
영향
요리
전리
▁노획
▁문묘
▁민자
▁밀교
▁비닐
▁사표
▁이근
▁제스
▁종과
▁차후
▁치소
▁표범
▁헌종
▁후생
▁ㄸㅟㄴ
▁도망가
▁라이터
▁스털링
▁최북단
▁1798
▁1832
▁매트릭스
▁블레이크
타야
하나
▁각오
▁구식
▁궁지
▁금상
▁김부
▁네프
▁동태
▁릭스
▁백국
▁샬럿
▁서라
▁소각
▁신간
▁에게
▁윤봉
▁전륜
▁주안
▁주필
▁진양
▁칼빈
사와라
oney
▁ROM
▁사사키
▁쿠르트
▁ㅍㅣㄴㄷㅏ
▁에트루리아
▁페르난데스
▁옙
ㅊㅓ
동면
화가
ush
▁데시
▁동과
▁모여
▁밀착
▁알토
▁위문
▁의화
▁자의
▁저압
▁증여
▁최충
▁투고
▁폐단
▁후왕
port
▁떠올리
▁무찌르
▁술탄국
▁스톤스
▁충실히
▁2030
▁애틀랜틱
▁ㅂㅓㅅㄱㅕ
▁슐레스비히
▁얌
공원
눌프
▁KR
▁동면
▁미용
▁병인
▁자폐
▁조미
▁차리
▁치앙
▁푸른
▁한산
▁희소
▁나가토
▁오와리
여지승람
▁그레이스
▁아르눌프
▁코민테른
▁ㄴㅗㅎㅊㅕㅆ
▁젯
▁칵
야르
우병
▁국명
▁부록
▁성급
▁소경
▁여장
▁염료
▁인장
▁전경
▁쳐들
▁하향
▁한진
▁히바
▁Rem
▁공모전
▁단체장
▁문학사
▁발행인
▁보두앵
▁설리번
▁연해주
▁온전히
▁이교도
▁이주한
▁후백제
▁ㅁㅏㄱㅎㅕ
▁오가사와라
04
들레
처분
▁급부
▁누설
▁대일
▁딸기
▁래드
▁방계
▁복고
▁상향
▁선풍
▁습기
▁쓸모
▁어음
▁전해
▁정토
▁정희
▁편차
▁학제
▁222
▁815
▁NHL
▁감독상
▁남양주
▁안성시
▁엄격히
▁엄밀히
▁인터랙
▁주간지
▁주황색
▁레즈비언
▁헤이룽장
▁ㅇㅝㄴㅊㅣ
▁ㅁㅏㅈㅅㅓㅆ
▁뺨
더기
시프
플리
▁MT
▁구국
▁도감
▁럭키
▁로메
▁밤중
▁번번
▁신현
▁암술
▁양재
▁의종
▁철교
▁토레
▁표류
▁학비
ㄷㅊㅕ
form
orce
▁경제력
▁대문자
▁미즈노
▁생산력
▁영화사
▁자치령
▁좌찬성
▁하코다
▁King
▁That
▁맥도널드
▁소선거구제
고시
▁기흥
▁반유
▁수능
▁열중
▁유혈
▁탐욕
▁각운동
▁귀족원
▁미완성
▁아랍인
▁아이유
▁앞부분
▁재정부
▁해산물
▁헥타르
▁아이패드
▁Colle
▁외할아버지
▁ㅊㅣㅇㅎㅏㄴㄷㅏ
공간
lex
▁강판
▁벤자
▁수륙
▁애너
▁찬가
▁참봉
▁피노
▁호송
이스터
▁메이어
▁명탐정
▁문학가
▁완도군
▁인구수
▁트래픽
▁마이니치
▁모노레일
▁스위프트
▁프레드릭
▁젓
급수
무덤
테아
▁간간
▁기함
▁돌풍
▁두만
▁명은
▁번복
▁불멸
▁애도
▁영하
▁유유
▁장부
▁펄스
스토크
▁232
▁EMI
▁min
▁글리세
▁오시마
군가
밍고
체인
ady
iew
▁마수
▁반장
▁상온
▁왜적
▁유추
▁인현
▁질산
▁침전
▁페퍼
ㅁㅜㄹ
유철도
▁Met
▁닭고기
▁비행단
▁소시지
▁에르빈
▁의성군
▁전사자
▁전투력
▁참정권
▁카네기
▁코러스
▁포워드
▁1790
▁경부고속도로
▁일본국유철도
병원
▁간청
▁구어
▁깔끔
▁누벨
▁도립
▁도합
▁박현
▁사향
▁어판
▁연성
▁외출
▁전소
▁철로
▁출제
▁폐막
ㄴㅟㄴ
▁ㅌㅓㄹ
▁글라스
▁생김새
▁앙코르
▁원동력
▁철원군
▁해남군
▁마우리아
▁시스템즈
▁트랜스젠더
YS
국수
케인
▁no
▁공생
▁괴산
▁마저
▁실물
▁아코
▁야후
▁의외
▁지토
▁264
▁660
▁not
▁도승지
▁사림파
▁오보에
▁이시다
▁조직원
▁콜레스
▁지느러미
ㄷㅡㄴㄷㅏ
▁ㅇㅡㄴㅈㅣ
UM
sc
농사
뿔소
▁노포
▁보손
▁빌레
▁승탑
▁알카
▁존호
▁파샤
수산부
▁ㄸㅟㄹ
▁고분자
▁괴팅겐
▁누군가
▁불태우
▁상나라
▁테크니
▁포터블
▁플루트
▁1810
▁라그랑주
▁이오시프
af
▁멩
영화
평동
▁고금
▁다롄
▁대면
▁묵시
▁불어
▁소드
▁시메
▁임사
▁종일
▁참호
▁티오
▁필적
▁현내
연수원
raph
▁...
▁가부장
▁구독자
▁실종자
▁창세기
▁1831
▁각운동량
▁상륙작전
▁어니스트
▁사법연수원
대왕
레도
루브
연장
차크
키타
▁pH
▁극좌
▁노토
▁루브
▁방비
▁삼남
▁속현
▁수계
▁아강
▁유약
▁처단
▁흐루
레이스
사우스
▁216
▁다섯째
▁도요타
▁정나라
▁학부모
▁휴양지
컬럼비아
▁총영사관
▁알렉산드로
▁우쓰노미야
▁노스캐롤라이나주
▁브리티시컬럼비아
치니
트론
elf
▁레흐
▁불도
▁절도
▁정산
▁조산
▁촉한
▁태사
▁현안
▁황궁
ㄲㅟㄹ
메이트
▁Bad
▁Run
▁독립당
▁선발전
▁수감자
▁아즈마
▁유망주
▁잉글리
▁자위대
▁제이미
▁척탄병
▁퍼거슨
▁that
▁밀레니엄
▁스트라스
▁width
UT
마켓
▁국자
▁기틀
▁떨치
▁살균
▁일례
▁전량
▁초본
▁최규
▁화친
▁후버
그래프
▁460
▁달팽이
▁은평구
▁이와키
▁타이밍
▁피난민
▁호프만
▁다카마쓰
▁Great
▁align
▁콜레스테롤
▁엷
날두
라프
상가
ane
▁간통
▁명회
▁물병
▁윤지
▁자객
▁지루
▁철권
▁청두
▁코흐
▁파가
▁RCA
▁달성군
▁도리어
▁레인지
▁미시마
▁박지원
▁생산지
▁예비치
▁울타리
▁한니발
▁워싱턴주
▁사회주의자
▁ㄱㅕㄴㄷㅣㄹ
WA
▁깅
폭스
▁we
▁군무
▁김소
▁남문
▁레퍼
▁메우
▁명창
▁비핵
▁선왕
▁수개
▁승소
▁양시
▁어셈
▁오두
▁지파
▁총합
▁키요
ㄱㅇㅏ
스트로
▁Are
▁김유신
▁다름없
▁다케시
▁로런츠
▁오로라
▁주둥이
▁클리프
▁호날두
▁호몰로지
ㄲㅡㄹㅇㅓ
▁ㅇㅣㄹㅅㅜ
▁횃
가슴
묘지
장어
▁관철
▁로펌
▁루르
▁빽빽
▁성호
▁수제
▁신년
▁신변
▁주공
▁초조
▁쿼드
▁투과
▁하일
▁한지
▁가극단
▁부스터
▁오리올
▁합법화
09
누이
오버
▁광석
▁교두
▁근해
▁김봉
▁린네
▁북로
▁서훈
▁설가
▁엣지
▁여류
▁영일
▁잡음
▁피르
▁피플
▁노동부
▁복잡도
▁비핵화
▁슈바르
▁애슐리
▁요시히로
ㅇㅜㄹㅇㅕ
▁Every
▁나가사키현
▁프로테스탄
▁쉼
넬리
도나
슬란
▁덕흥
▁디시
▁방형
▁배럴
▁분실
▁비사
▁성층
▁승패
▁아도
▁양당
▁어쨌
▁윈저
▁인턴
▁클락
▁티니
▁파노
▁판권
▁410
▁Cor
▁군주국
▁귀퉁이
▁지휘봉
▁코페르
▁1841
▁요시타카
▁무척추동물
▁ㅇㅕㅆㅇㅓㅆ
▁숄
▁극성
▁몰살
▁석호
▁소감
▁신디
▁오수
▁의리
▁임차
▁중주
▁차질
▁틀림
▁파월
▁고르바
▁애프터
▁야나기
▁엡실론
▁일레븐
▁지원금
▁this
▁브루크너
▁노브고로드
▁ㅇㅏㅍㅈㅏㅇㅅㅓㅆ
pm
살라
상부
에즈
우마
▁꾸짖
▁뜨겁
▁린턴
▁마더
▁열린
▁커비
▁항거
ㅊㅣㅁ
▁가속도
▁버펄로
▁안후이
▁터키어
▁Inst
▁스토리지
ㄷㅣㄴㄱㅏ
▁모터사이클
▁ㅅㅜㅁㅈㅕㅆ
▁캇
물질
카레
틸렌
▁EL
▁ㄱㅖ
▁고비
▁난방
▁노릇
▁당도
▁멜리
▁방황
▁봉승
▁분대
▁색계
▁실격
▁심볼
▁안달
▁정장
▁청조
▁친필
▁타사
▁회합
거래소
tain
▁법학자
▁인더스
▁제사장
▁진동수
▁통영시
▁레퍼토리
▁베른하르트
▁Project
KA
▁핍
권력
넬라
복음
ene
▁FL
▁UI
▁군왕
▁나자
▁당부
▁라부
▁맬컴
▁머무
▁선법
▁쌍방
▁안트
▁애버
▁엥겔
▁원추
▁일지
▁정대
▁조예
▁호골
▁휘그
러뜨리
▁리오스
▁보성군
▁음식물
▁칭다오
▁토착민
▁다다요시
▁스파이크
▁인사이드
lement
▁멕시코시티
▁School
숭아
퓨터
▁Je
▁갈레
▁만과
▁몽케
▁본드
▁색슨
▁야인
▁양전
▁연골
▁중문
▁체이
▁판각
▁후스
웨일스
▁YTN
▁보이저
▁서양식
▁집현전
스티누스
▁가선대부
▁고이즈미
▁고르바초프
테리
ize
ney
ott
uth
▁남측
▁다원
▁북조
▁신창
▁엘튼
▁울림
▁위엄
▁유색
▁제군
▁침착
▁키미
▁핸들
ript
▁반다이
▁인도인
▁테크닉
▁1843
▁뉴사우스
▁호쿠리쿠
▁ㅂㅗㄴㄸㅏ
▁뉴사우스웨일스
돈나
▁감로
▁김효
▁사멸
▁생후
▁시퀀
▁어간
▁윤종
▁입교
▁자상
▁진관
▁코팅
▁타다
껍데기
▁234
▁ㅈㅜㅁ
▁벤자민
▁양주군
▁총동원
▁케로로
▁프로페
테크
티엄
▁매핑
▁셰리
▁신촌
▁연선
▁연체
▁이따
▁장력
▁전군
▁전횡
▁정랑
▁통사
▁튜버
▁프시
▁강진군
▁구로다
▁로망스
▁밤하늘
▁소방관
▁아소카
▁앙투안
▁에이미
▁진흥왕
▁차이나
▁케이지
▁펜티엄
▁아나스타
▁웸
미드
퇴근
▁계책
▁궤간
▁노블
▁누명
▁니르
▁범하
▁사네
▁신데
▁아일
▁원예
▁은상
▁주오
▁처남
▁페론
라이즈
▁Rad
▁key
▁구로구
▁남원시
▁미야코
▁밀어내
▁위아래
▁의금부
▁ㄱㅕㅁㅎㅐㅆ
▁꿇
뉴얼
로리
웨시
▁꼭두
▁넥슨
▁데인
▁동음
▁레게
▁리빙
▁미혼
▁보은
▁신파
▁업종
▁임지
▁차우
▁찬반
▁체의
▁파탄
라리온
▁213
▁GPU
▁거주민
▁마애불
▁명명법
▁미나토
▁서보장
▁설계자
▁송광사
▁호르헤
▁브리트니
▁비정규직
▁술라웨시
▁score
▁안드레아스
▁ㅁㅏㅈㅁㅜㄹㄹㅕ
▁ㅇㅕㅆㅇㅡㅁㅇㅔ
▁귄
렉트
장식
키르
ama
rag
▁교위
▁구파
▁도조
▁뒤편
▁마의
▁사족
▁어가
▁옐친
▁울진
▁전처
▁처우
▁텐트
▁퍼드
르트르
▁UAE
▁김천시
▁만화책
▁몰아넣
▁버몬트
▁1809
▁더글라스
▁맥도날드
▁20120
▁농어촌버스
▁시에라리온
▁옥타비아누스
경제
노신
암면
조치
푸라
ins
▁Im
▁up
▁개폐
▁고우
▁곤도
▁권영
▁레니
▁반가
▁발단
▁배송
▁법당
▁성찰
▁수완
▁에니
▁온양
▁유모
▁장직
▁재량
▁판문
▁허니
▁허무
▁219
▁공예품
▁리스크
▁보이콧
▁애스턴
▁양주시
▁올바르
▁탈바꿈
▁신데렐라
SI
eng
▁국판
▁남명
▁드롭
▁만력
▁스메
▁양제
▁예제
▁총상
▁EOS
▁Mod
▁Web
▁val
▁기술력
▁김제시
▁안타깝
▁편집기
▁프렌치
▁1623
▁가시광선
▁카슈미르
▁브라이언트
민턴
북동
사촌
중미
▁ha
▁간헐
▁권선
▁발데
▁석학
▁수월
▁야자
▁연필
▁옐로
▁우의
▁총력
▁탈옥
▁특파
▁파멸
▁북중미
▁제이콥
▁진도군
▁1783
▁1804
▁남태평양
▁와이파이
▁원더러스
▁ㅅㅗㄴㄲㅗㅂㅎㅣㄴㄷㅏ
EX
가쿠
더드
마뉴
티니
▁nt
▁각계
▁겸손
▁금하
▁불허
▁산군
▁석물
▁수기
▁유람
▁총관
▁취역
atic
▁255
▁감염병
▁광명시
▁그리핀
▁담양군
▁라이히
▁뱅크스
▁생물체
▁출퇴근
▁홋스퍼
ㅂㅎㅣㅁ
라이언스
▁1819
▁샤를마뉴
▁헤르베르트
05
말로
사지
rop
▁DP
▁금품
▁급유
▁날카
▁뽑히
▁산학
▁아포
▁야노
▁유복
▁전법
▁조희
▁Rob
▁Sub
▁바이든
▁부대원
▁샐러드
▁시어도
▁신숙주
▁초능력
▁1821
▁1835
▁클라우스
▁허베이성
▁오키나와현
바노
▁궁예
▁근심
▁금주
▁김보
▁낙인
▁농악
▁마역
▁매료
▁머릿
▁보답
▁생부
▁스무
▁장진
▁하룻
▁홍주
▁홍준
▁강동구
▁공포증
▁사토시
▁설득력
▁유태인
▁1799
▁ㄱㅏㅁㅊ
▁고다이고
▁궁수자리
▁매개변수
▁배드민턴
▁시어도어
▁샛
▁큼
에타
청정
▁고주
▁도민
▁메기
▁무적
▁박철
▁변제
▁보주
▁부역
▁셀라
▁소부
▁암반
▁쟁탈
▁정운
▁최승
▁탁발
▁환생
▁회생
▁관광업
▁구조대
▁줄리엣
▁지구대
▁1805
▁1813
▁프로펠러
▁애리조나주
▁퀵
네세
단조
룩스
룬궁
엄경
▁UF
▁ㅆㅣ
▁가노
▁길쭉
▁네온
▁도당
▁레노
▁루빈
▁박희
▁배재
▁분립
▁수미
▁와시
▁유랑
▁주루
▁지국
▁캐스
▁티미
▁하랄
그레브
▁ㅊㅏㄹ
▁막바지
▁메이크
▁방문자
▁스포트
▁파룬궁
▁파스타
▁플뢰레
▁하룻밤
▁1803
▁슈바르츠
▁자그레브
▁코페르니
블러
입상
코어
▁am
▁계면
▁난입
▁보천
▁성시
▁오존
▁원균
▁조안
▁지망
▁지요
▁축약
▁카도
▁탄탄
▁포지
▁함포
▁혼슈
▁275
▁미소녀
▁상주시
▁시스터
▁영동군
▁장시간
▁정반대
▁카세트
▁키루스
▁파올로
▁하야시
▁디바이스
▁뺏
갈리
춘기
ams
▁광원
▁그립
▁대간
▁돌방
▁리포
▁명기
▁무학
▁민병
▁선주
▁신드
▁외세
▁원대
▁진봉
▁혈연
레우스
즈버그
▁밑부분
▁아이비
▁안기부
▁전쟁터
▁소프라노
▁아사쿠라
▁와이오밍
▁트랜스포
▁하비에르
ations
▁인터랙티브
NS
na
▁쉴
난히
조약
▁Mc
▁교신
▁리호
▁문답
▁사노
▁서영
▁선산
▁여흥
▁저마
▁증설
▁창사
▁타니
드랑이
▁ARM
▁Ind
▁ㄷㅗㄷ
▁구락부
▁번역본
▁브란트
▁비무장
▁소시에
▁다이렉트
▁법무법인
▁신약성경
▁구마모토현
▁크리스토프
길동
롤터
erm
▁UP
▁간척
▁다승
▁단념
▁매화
▁본점
▁송영
▁순국
▁순사
▁심혈
▁엘렌
▁연례
▁장본
▁조밀
▁지세
▁참새
▁충절
▁친교
▁파머
▁히포
▁Off
▁괴롭히
▁번역가
▁주사위
▁주택지
▁훈련소
▁마스터스
▁오카자키
▁지브롤터
▁스파이더맨
▁넵
광석
봉산
oph
▁RF
▁VR
▁고서
▁기류
▁레디
▁부계
▁순치
▁인맥
▁재기
▁조운
▁조차
▁총신
▁저수지
▁함양군
▁슬라이드
▁영지주의
▁전자기파
▁20100
AX
▁뎀
노지
럭스
야카
▁MY
▁VV
▁격돌
▁결부
▁결점
▁나크
▁다호
▁데릭
▁돌진
▁레터
▁바드
▁버디
▁수험
▁실라
▁양공
▁유쾌
▁임성
▁정열
▁클립
▁Bel
▁근거리
▁로열스
▁비트겐
▁아프간
▁양방향
▁칼리파
▁호스팅
▁1845
▁YMCA
▁나카지마
▁코르도바
▁킬로그램
▁해양수산부
▁ㅁㅗㄹㄹㅕㅆ
▁비트겐슈타인
런드
함대
▁겸비
▁김익
▁나포
▁농노
▁불의
▁속박
▁쓰키
▁애비
▁주정
▁지산
▁청천
복지부
▁She
▁기울기
▁멧돼지
▁오마르
▁제후국
▁창녕군
▁파르티
▁피루브
▁혁명당
▁형이상
▁HTTP
▁플러그인
▁증권거래소
▁ㄱㅕㅌㄷㅡㄹㅇㅕ
로메
시효
▁WK
▁각서
▁근친
▁다나
▁민진
▁배합
▁비법
▁성상
▁시군
▁아령
▁원뿔
▁중류
▁체사
▁탱화
리스타
▁과도기
▁기쿠치
▁디지몬
▁레이드
▁레이터
▁발레리
▁사회부
▁얼스터
▁에드윈
▁웸블리
▁지원군
▁출연진
▁퇴적물
▁Down
▁에인절스
▁핵미사일
▁평양직할시
▁펨
두스
레알
미츠
바야
비노
칼라
▁ㄴㅟ
▁로잔
▁리티
▁마유
▁만네
▁만호
▁밀정
▁밀크
▁반탁
▁산도
▁산양
▁성유
▁세세
▁송강
▁왕망
▁유린
▁유병
▁음극
▁응고
▁일광
▁중창
▁질의
▁탈라
▁혼재
티나무
프리트
▁OEC
▁현무암
▁에마누엘
▁전체주의
▁트리니티
▁ㅉㅣㄹㄹㅓ
▁미네소타주
▁에리트레아
▁페미니스트
▁ㅇㅗㄹㄹㅣㄴㄷㅏ
we
xy
▁댁
무드
별초
보전
▁Em
▁광무
▁구지
▁금오
▁무마
▁무오
▁비안
▁상보
▁섹시
▁완충
▁종용
▁청양
▁크래
▁파면
▁호우
▁금산군
▁오쿠보
▁파이낸
▁휘트니
▁주계열성
렌츠
르노
하리
▁괴테
▁랄프
▁밀로
▁병리
▁분투
▁세그
▁오코
▁왕전
▁육류
▁중년
▁진남
▁커맨
▁포프
▁헌트
▁횃불
atur
▁OVA
▁내려지
▁바울로
▁베니스
▁사마의
▁사바나
▁영암군
▁음성군
▁이즈모
▁작용소
▁칼데라
▁파이썬
▁화물선
▁흑사병
▁스트로스
▁엠파이어
▁가고시마현
▁금메달리스트
03
▁헴
콘티
▁견과
▁결번
▁공제
▁마네
▁스물
▁슬러
▁아문
▁요나
▁원지
▁윙스
▁이변
▁임박
▁재가
▁전령
▁진폭
▁타트
▁행법
▁ㄸㅐㄴ
▁교회법
▁노나라
▁불안감
▁사춘기
▁연나라
▁요시오
▁정읍시
보스토크
▁Just
▁마츠모토
▁ㅎㅏㄴㅎㅐ
▁야마구치현
▁ㅇㅗㄻㄱㅣㄹ
▁블라디보스토크
곡사
마트
혈병
▁강탈
▁격분
▁군소
▁놀랍
▁데루
▁도체
▁동관
▁무녀
▁섹터
▁순절
▁신겐
▁앤젤
▁오드
▁저당
▁활력
▁회가
가르드
적으로
▁경순왕
▁동반자
▁라이즈
▁모기업
▁오사무
▁루즈벨트
▁카스트로
▁얼라이언스
▁ㅎㅐㅇㅎㅐㅆ
▁International
▁경직
▁계림
▁모계
▁목도
▁뭉치
▁바레
▁서군
▁야오
▁역법
▁우등
▁은색
▁인방
▁전각
▁절개
▁한수
ㄹㅏㄹ
▁Act
▁Ste
▁다이라
▁우참찬
▁1775
▁1802
▁스포르차
ㅎㅐㅆㅇㅡ
▁이탈리아인
▁윅
예보
ues
▁Sk
▁게코
▁마두
▁미화
▁벌리
▁본가
▁분청
▁비장
▁양사
▁유례
▁유현
▁퍼부
▁푸트
▁POS
▁are
▁고구마
▁로도스
▁메이드
▁모리슨
▁빌리지
▁사이키
▁색소폰
▁수행원
▁아르마
▁완성도
▁친동생
▁크롬웰
▁비스콘티
▁빠져나가
▁아랫부분
▁인기가요
▁피루브산
▁소시에다드
06
▁팥
만금
타기
▁GE
▁ㅋㅏ
▁구레
▁궁녀
▁김순
▁눈앞
▁메노
▁미쿠
▁백금
▁변의
▁산현
▁수혈
▁시보
▁앵무
▁오귀
▁전태
▁정미
▁추도
▁투라
▁227
▁BSD
▁ver
▁거창군
▁고생물
▁날아가
▁블레어
▁새만금
▁식료품
▁자존심
▁출발점
ㅎㅣㄴㄷㅏ
▁Korea
▁Micro
ㅐㅇ
벌린
쿼이
▁급하
▁랭스
▁미케
▁아방
▁오피
▁옥중
▁입선
▁자모
▁주법
▁지와
▁직구
▁집시
▁크누
▁팔로
▁프티
▁도에이
▁수공업
▁전임자
▁점령지
▁토레스
▁트렌드
▁학년도
▁느티나무
▁마사히로
▁중합효소
▁페가수스
▁Power
▁아케메네스
게니
러니
레마
에다
▁단테
▁라빈
▁마드
▁문공
▁미역
▁밀수
▁시랑
▁쌓이
▁에그
▁은총
▁이쿠
▁중군
▁측도
▁친근
어머니
▁Ang
▁Inc
▁가로막
▁노키아
▁마우리
▁모여들
▁산사태
▁서커스
▁수니파
▁아르타
▁아무르
▁중국식
▁크레인
▁푸른색
▁홍준표
▁OECD
▁세그먼트
▁켄터키주
▁Award
▁ㅈㅓㅇㅎㅏㄴㄷㅏ
궤도
슈빌
요크
클로
air
▁DE
▁ㅋㅕ
▁기즈
▁드론
▁오언
▁장충
▁차내
▁투아
▁한일
▁황조
▁흑자
▁218
▁Che
▁FTA
▁결론지
▁득점자
▁마사카
▁브리핑
▁에이커
▁영연방
▁올라프
▁전환점
▁태권도
aster
ittle
▁1824
▁comp
▁수양대군
▁야마시타
▁어린아이
▁오스트로네시아
▁콴
가이
신기
튠즈
파업
riv
▁OR
▁금당
▁나베
▁넓적
▁노팅
▁루가
▁목축
▁민첩
▁병장
▁에베
▁완행
▁원순
▁자가
▁카렌
▁특진
세이돈
▁매크로
▁보령시
▁비욘세
▁스텔라
▁쌍계사
▁애호가
▁에스터
▁음악상
▁전산망
▁중견수
▁청년단
▁아이튠즈
▁야마자키
▁포세이돈
▁코페르니쿠스
▁웡
놀룰
아비
▁감속
▁강민
▁꺼내
▁데어
▁라브
▁만지
▁상아
▁선분
▁어종
▁어퍼
▁에렌
▁우먼
▁원당
▁이륜
▁정육
▁주동
▁주박
▁한눈
놀룰루
ates
▁316
▁Who
▁ㅃㅐㄴ
▁간담회
▁동작구
▁메이슨
▁몽골족
▁바르트
▁에이드
▁징역형
▁총파업
▁1808
▁에스파뇰
▁이사벨라
▁호놀룰루
▁ㅇㅓㄺㅎㅣㄴ
45
MC
아노
▁Bu
▁누드
▁러너
▁비비
▁스이
▁장방
▁타치
▁판독
▁해법
▁햇볕
▁화의
샤오핑
▁305
▁512
▁How
▁문인석
▁박원순
▁불어넣
▁세이버
▁어쨌든
▁의석수
▁지원병
▁차일드
▁피어슨
▁헤비급
irect
▁1807
▁1834
▁덩샤오핑
▁요시쓰네
▁ㅂㅜㄹㄱㅓ
▁아르메니아인
러햄
튿날
▁기로
▁기예
▁들판
▁망하
▁미처
▁복건
▁시연
▁엄호
▁유파
▁자일
▁제원
▁추앙
▁취입
리스토
▁325
▁공격력
▁노선도
▁밀리언
▁중앙당
▁피에로
▁2023
▁9000
▁개혁주의
▁동프랑크
▁엑스트라
▁뭄
란도
▁고보
▁기약
▁나혜
▁라데
▁발부
▁상학
▁석축
▁수차
▁쉬르
▁신당
▁아쉬
▁여종
▁이분
▁정석
▁찬송
▁티어
▁해면
▁501
▁ㄲㅐㅆ
▁ㅍㅕㅆ
▁마쓰이
▁발사대
▁생산물
▁안보리
▁이영호
▁체이스
▁호나우
▁ㄷㅗㅇㅎㅐ
▁췌
기름
인자
촌면
ava
▁DX
▁TF
▁김택
▁문항
▁박차
▁소하
▁야산
▁접대
▁키라
▁하녀
오피스
▁CNN
▁ㅇㅕㄹ
▁고흥군
▁남대문
▁노이즈
▁니제르
▁덕양구
▁마돈나
▁무용가
▁스피릿
▁아오이
▁유타카
▁짝사랑
▁평양성
▁함안군
기군
따르
리시
마당
사쿠
▁간쑤
▁귀박
▁노우
▁돌궐
▁랜스
▁명곡
▁문란
▁성결
▁용자
▁이비
▁작화
▁포체
▁피력
▁행태
▁호에
ㄴㅐㅁ
샘프턴
▁303
▁940
▁ㅈㅏㄹ
▁관람객
▁문교부
▁이튿날
▁Fire
▁아오야마
▁에이브러햄
MI
ㅂㅣ
와르
▁가위
▁다각
▁뒷날
▁수려
▁신보
▁쓰쿠
▁압승
▁오위
▁장유
▁주미
▁특산
▁파란
▁행주
▁행차
▁후천
트리스
▁253
▁경사면
▁괴산군
▁매출액
▁미코토
▁스피어
▁에리히
▁외래어
▁홍성군
▁Game
▁ㄷㅡㄹㄹㅓ
▁ㅁㅕㄴㅊㅣ
▁ㄴㅗㅍㅇㅣㄹ
du
랜도
바사
분별
ape
oud
▁남만
▁남진
▁덩치
▁반월
▁보가
▁섀도
▁예거
▁의향
▁지온
▁책상
간지주
다나오
▁Tim
▁all
▁ㅌㅔㄴ
▁마산시
▁무제한
▁전반전
▁하르트
▁합중국
▁확고히
티아누스
▁당간지주
▁콤플렉스
▁행방불명
▁ㅅㅏㄹㄹㅏ
▁ㅊㅐㄱㅇㅣㅁ
▁힝
도어
문왕
▁가압
▁구드
▁김좌
▁미티
▁백석
▁부치
▁옥고
▁입회
▁카고
▁투척
▁폐암
▁환호
▁황룡
▁후두
룸푸르
▁ㅂㅣㅅ
▁웨이크
▁유키오
▁비상사태
▁페니키아
시장
진법
▁냉장
▁눈길
▁말갈
▁봉선
▁산세
▁삼위
▁생년
▁소조
▁송준
▁알프
▁영창
▁우여
▁윔블
▁탑비
▁par
▁감사원
▁교통량
▁대장경
▁미하엘
▁바나흐
▁위안스
▁테레비
▁휘발유
▁반유대주의
▁스트라스부르
룬디
햄프
▁강박
▁고단
▁로카
▁민방
▁부령
▁상쇄
▁속기
▁시련
▁쓰시
▁양치
▁웨딩
▁음각
▁커밍
▁코토
▁키보
▁터리
▁토구
▁판교
ster
▁777
▁Ass
▁날카롭
▁미카와
▁부산물
▁힐러리
▁말레이어
▁삼위일체
▁스테로이드
▁항공우주국
TO
ㅅㅟ
정책
지우
▁TP
▁가내
▁감영
▁고레
▁남코
▁다짐
▁도저
▁빌럼
▁소현
▁시급
▁아수
▁응축
▁인어
▁장화
▁전치
▁조망
▁진왕
▁충정
오스트
일으키
헌대부
▁강우량
▁뉴햄프
▁당분간
▁루도비
▁비키니
▁수녀원
▁수족관
▁윔블던
▁불러일으키
▁홀로코스트
DR
▁텃
베그
비시
▁가석
▁공위
▁단락
▁박명
▁백범
▁비탈
▁소공
▁손오
▁원호
▁체구
▁티그
▁패소
▁합세
ield
▁224
▁Hol
▁Pre
▁교차점
▁기업체
▁모니카
▁발상지
▁보수파
▁철도선
▁하남시
▁회의소
▁Mark
▁러더퍼드
▁레버쿠젠
▁리카르도
▁아라카와
▁카롤링거
▁ㅊㅣㄴㅎㅐ
▁잘츠부르크
미분
정지
▁내통
▁다로
▁뒤셀
▁리온
▁명실
▁미구
▁불발
▁석굴
▁예장
▁음수
▁칸토
▁컴포
▁코덱
▁평온
▁Dav
▁KAI
▁국경선
▁상거래
▁세포질
▁쉐보레
▁신생아
▁아비뇽
▁안재홍
▁이동식
▁조사단
▁케이티
▁팬클럽
▁폭발물
▁1392
▁하코다테
▁Dance
▁뒤셀도르프
오스트레일리아
CO
zy
멘토
정기
▁동주
▁드와
▁백마
▁약체
▁영제
▁오페
▁유황
▁자니
▁전영
▁제석
▁처참
▁카누
▁편평
▁하토
게임넷
▁그레그
▁껍데기
▁나바라
▁밸런스
▁사브르
▁상상력
▁앨리슨
▁올랜도
▁완벽히
▁플레어
▁허정숙
ㅇㅅㅏㄴ
▁AIDS
▁마리우스
▁신비주의
▁온게임넷
▁보니파시오
▁위안스카이
▁ㅁㅏㄹㄹㅣㄴ
▁Records
▁켜
고백
바트
터우
학사
ARD
▁ㅆㅘ
▁감형
▁공구
▁납북
▁노섬
▁대연
▁데라
▁막말
▁반칙
▁역간
▁완패
▁위세
▁티비
▁피파
▁헬멧
▁999
▁Air
▁마인츠
▁보상금
▁스턴스
▁1597
▁신앙고백
▁포츠머스
▁ㄴㅏㅆㅇㅡ
▁라이프니츠
▁씹
▁IL
▁나침
▁다트
▁당산
▁데크
▁두아
▁따내
▁마정
▁무아
▁반투
▁책자
▁카베
▁퀴어
▁해탈
▁헤딩
노스케
ited
▁401
▁긴꼬리
▁나혜석
▁눈동자
▁동구권
▁두만강
▁마사키
▁복숭아
▁아폴론
▁에드거
▁에테르
▁원거리
▁윤선도
▁케이시
▁행진곡
▁인조반정
▁보건복지부
▁시모노세키
▁ㄲㅡㅌㄴㅐㄴ
냅스
타일
호텔
▁di
▁관부
▁굴뚝
▁단풍
▁달인
▁명망
▁문리
▁방목
▁소이
▁승화
▁와다
▁최국
▁홍진
아가라
▁Now
▁Und
▁net
▁리소스
▁모음곡
▁시냅스
▁옥타브
▁추진력
▁코나미
▁표준시
▁그리피스
▁나이아가라
너리
니히
비르
코더
ari
▁더그
▁록맨
▁성역
▁세아
▁육조
▁응집
▁잡종
▁집게
▁태클
▁특보
▁판무
▁포티
로니카
▁Tri
▁계획안
▁바바라
▁보병대
▁의용군
▁집대성
▁카오스
▁타악기
▁홍천군
▁흘러가
▁시리우스
▁아이오딘
▁차이콥스키
▁트랜스포머
▁ㅅㅏㄹㄹㅣㄴ
바겐
발라
원사
전쟁
▁꾸란
▁내과
▁대시
▁레우
▁식읍
▁심취
▁지프
▁진법
▁최성
▁치부
▁코비
▁테너
▁토후
▁퇴학
▁해충
ning
ring
ther
▁530
▁ㅈㅗㄴ
▁공양왕
▁리저브
▁마틸다
▁여호와
▁청계천
▁초음파
▁파이트
▁1833
▁구약성경
▁크리스털
▁ㅎㅡㄹㄹㅕ
bs
곡절
관총
저기
준호
▁군역
▁도맡
▁면화
▁묶음
▁봉천
▁수모
▁완강
▁우가
▁원초
▁육사
▁입석
▁제논
▁진평
▁천성
▁트립
▁훔치
▁AEK
▁가평군
▁니코스
▁데이먼
▁아라키
▁접두사
▁중랑장
▁청도군
▁Real
▁사고방식
▁파이어폭스
▁ㅇㅣㅂㅎㅣㄴ
▁프로테스탄트
등기
마침
자브
토끼
▁각하
▁경쾌
▁근현
▁만인
▁베넷
▁병참
▁볼가
▁삼매
▁이숙
▁재실
▁정다
▁좌완
▁중경
▁지기
▁초인
▁쿠프
▁평단
▁항법
▁힉스
▁237
▁244
▁540
▁Cal
▁RFC
▁말라위
▁산기슭
▁아라이
▁아우디
▁자부심
▁ㅇㅣㄹㅈㅣ
▁등지느러미
▁욜
네일
이츠
통감
▁기라
▁도총
▁미그
▁소급
▁우암
▁전업
▁학식
▁헬라
▁호분
▁ㅇㅜㄴ
▁때마침
▁마쓰다
▁소유주
▁인디아
▁지배층
other
▁거듭제곱
▁블루투스
▁우여곡절
▁파이터스
▁젝
▁쭉
무로
정신
카시
카쓰
▁LD
▁MK
▁gr
▁계모
▁급식
▁방직
▁브렛
▁세드
▁앤트
▁용법
▁잡스
▁총명
▁최윤
▁캐머
▁횡포
▁Mer
▁Pol
▁Ver
▁로미오
▁박중양
▁부산시
▁카톨릭
▁캐롤라
▁프레시
▁프로스
▁1787
▁1816
▁Again
▁ㅂㅏㄹㅎㅐ
▁텀
공격
권법
케라
포도
mas
▁고귀
▁고환
▁난부
▁마름
▁말엽
▁벤투
▁사선
▁산후
▁순응
▁정혜
▁쫓기
▁풀럼
▁환각
▁회동
ㄹㄹㅐ
ated
▁265
▁가와치
▁공학부
▁미에현
▁성행위
▁세바스
▁악영향
▁알파인
▁에릭슨
▁에이트
▁지하수
▁프리덤
보르기니
▁1818
▁트라우마
▁ㅎㅏㅁㅇㅣㄴ
GE
릅쓰
플라
▁ㅅㅖ
▁가만
▁고차
▁길가
▁루벤
▁반시
▁볼링
▁생육
▁선화
▁성안
▁소국
▁칸나
▁풍산
▁한상
▁321
▁560
▁ㅋㅏㅇ
▁가나안
▁개정판
▁계엄령
▁끌려가
▁대동강
▁명목상
▁의사당
▁툴루즈
▁펀자브
▁다이라노
▁대통령령
▁파트너십
▁람보르기니
▁봅
▁셉
계선
당기
수사
이동
▁;"
▁OG
▁나니
▁난해
▁대례
▁레브
▁리허
▁반년
▁발문
▁벌써
▁봉토
▁삼가
▁성심
▁스탬
▁시세
▁양털
▁전초
▁초급
▁팬텀
▁포경
▁풍미
▁풍선
▁헌팅
루시아
소년단
▁680
▁Fre
▁ㅍㅜㄴ
▁가석방
▁강경파
▁교두보
▁기록물
▁레이테
▁리처즈
▁무릅쓰
▁속임수
▁킵차크
▁후시미
▁히데키
▁스피어스
▁여기저기
▁ㄲㅏㄹㄹㅕ
▁툭
구동
양동
▁게양
▁고야
▁고영
▁교배
▁김남
▁명승
▁명작
▁소제
▁수박
▁순화
▁시한
▁실링
▁아머
▁외피
▁유토
▁이서
▁재림
▁코메
▁킬리
▁호두
▁효행
▁후량
레슈티
▁ㄱㅝㄴ
▁ㅁㅔㄹ
▁글쓰기
▁나침반
▁방어력
▁베로나
▁부안군
▁에치젠
▁체로키
▁Home
▁바티스타
▁오스카르
▁카를로만
ㅇㅗㄹㄹㅏ
▁하이델베르크
▁ㅂㅜㅌㅇㅣㄴㄷㅏ
미나
춘추
ATA
vil
▁OH
▁Si
▁객사
▁겐지
▁고명
▁달라
▁뒤지
▁맞먹
▁백련
▁수세
▁스탄
▁시녀
▁양명
▁저온
▁풀밭
▁극소수
▁김원봉
▁달서구
▁엘리사
▁유미르
▁유배지
▁정약용
▁홍백가
▁화학식
▁20200
ME
▁ㄸㅔ
▁간극
▁개천
▁농심
▁마샬
▁문의
▁박은
▁변태
▁부추
▁샤먼
▁선적
▁수탈
▁심복
▁양각
▁저상
▁접견
▁정우
▁칼날
▁태위
▁팀원
▁풍력
▁필즈
▁회남
▁245
▁262
▁263
▁DMB
▁남해안
▁단양군
▁모닝구
▁상록수
▁안도라
▁직선제
▁칠곡군
▁브롱크스
▁아세트산
▁중앙유럽
▁파르티잔
▁프레이저
▁ㅅㅐㅇㄱㅕㅆㅇㅡ
보쿠
부패
샤르
쓰키
와트
주제
카즈
any
ook
▁Mk
▁RX
▁눈금
▁더미
▁만행
▁모면
▁병부
▁슬퍼
▁원류
▁이충
▁조중
▁조짐
▁천억
▁코칭
▁판화
▁포용
▁풍화
컴퓨터
평대군
▁SUV
▁imp
▁관공서
▁대국민
▁바르톨
▁수산화
▁수신기
▁의령군
▁이따금
▁존스턴
▁카다피
▁Jour
▁우르바노
▁인도주의
▁히타이트
▁Never
▁ㄱㅜㄷㅇㅓ
▁ㄷㅚㄹㅈㅣ
▁프로페셔널
▁눔
▁찜
전동
징금
▁Ig
▁대홍
▁데프
▁도트
▁독학
▁묵살
▁뮤즈
▁박문
▁사철
▁속곡
▁속명
▁식단
▁신수
▁아보
▁외양
▁요사
▁유표
▁인왕
▁장도
▁진무
▁파급
▁학관
ling
▁311
▁ㄲㅡㄹ
▁성장률
▁아브루
▁우메다
▁원작자
▁이주해
▁조선족
▁줄어드
▁쫓겨나
▁청량리
▁학술원
▁ㅎㅟㅂㅆ
▁레이아웃
▁마르코스
▁부정부패
▁스탠다드
▁ㅅㅣㄴㄷㅏ
▁뻘
다우
레네
톱스
OCA
▁KF
▁가출
▁간택
▁기뢰
▁낙관
▁다인
▁동리
▁레위
▁메탄
▁문호
▁번가
▁사돈
▁산초
▁악용
▁우레
▁정광
▁채식
▁철새
▁치솟
ㅁㅓㄴ
티스트
▁UTC
▁org
▁ㅎㅓㄹ
▁골프장
▁스노우
▁적혈구
▁정선군
▁차라리
▁항구역
케라톱스
Force
▁2600
▁그라나다
▁다이오드
▁라치오주
▁메달리스트
▁ㅅㅣㅁㅎㅐㅆ
▁ㅈㅓㅇㅎㅏㄹ
gy
▁꽉
▁솅
콜라
inc
▁고루
▁고상
▁군내
▁눈썹
▁비각
▁인내
▁크론
▁토막
▁혼수
▁out
▁불명확
▁시행령
▁신뢰도
▁유기물
▁자주포
▁초나라
▁국민정부
▁시라쿠사
▁형이상학
ek
▁뽕
히라
▁PV
▁Wr
▁강기
▁기복
▁바루
▁사누
▁악몽
▁양태
▁이두
▁진중
▁폐업
▁포커
▁피코
ival
▁386
▁대륙군
▁마운드
▁마일스
▁수성구
▁야마노
▁여고생
▁여학교
▁역무원
▁재방송
▁정신병
▁태그팀
▁페라라
▁1778
▁마사유키
▁버펄로스
▁아카이브
▁플리머스
▁ㅇㅣㄱㅎㅕㅆ
네즈
셀라
저리
추얼
터슨
▁공론
▁군의
▁금발
▁기제
▁딱정
▁매시
▁변명
▁소가
▁스매
▁식생
▁신춘
▁양왕
▁영공
▁임영
▁Ber
▁드레이
▁로이스
▁머레이
▁시바타
▁콜레라
▁후지타
▁레이더스
▁스키타이
▁스탠더드
▁연꽃무늬
▁해발고도
ㅊㅝ
도전
디트
저트
전설
ely
▁경국
▁궁핍
▁근소
▁기쁘
▁닛코
▁대첩
▁도지
▁모씨
▁방파
▁비버
▁습작
▁신격
▁엄중
▁연혁
▁일요
▁자파
▁진자
▁최단
▁캡콤
▁통학
▁티탄
▁팬덤
▁편대
▁폴드
▁퓨처
▁행각
▁헤스
▁휴고
▁건너가
▁구례군
▁산청군
▁수페르
▁스파크
▁아르키
▁야전군
▁옹정제
▁조소앙
▁left
▁앨프리드
▁제네시스
▁파피루스
▁ㅇㅏㄹㄹㅣㄴ
lt
리처
발디
변사
이시
raw
▁고라
▁교각
▁김화
▁달빛
▁리쿠
▁박병
▁배차
▁볼레
▁분신
▁사담
▁심도
▁에토
▁월계
▁입방
▁장주
▁제복
▁징발
노비치
▁Fri
▁기관사
▁내슈빌
▁대마도
▁미란다
▁비행선
▁슬럼프
▁시간표
▁조슈아
▁진보신
▁플레밍
▁Moon
▁머리장식
▁트라키아
▁ㅇㅏㅍㄷㅏ
▁Summer
▁아르키메데스
전서
지드
츠만
▁걸어
▁굴곡
▁김미
▁랜더
▁본대
▁비에
▁성혼
▁셜록
▁수조
▁역적
▁진통
▁코요
▁푸앵
플러스
▁Die
▁경덕왕
▁레슬러
▁문무왕
▁문학부
▁슬퍼하
▁이자겸
▁1763
▁Type
▁교통수단
▁스포츠카
▁평화통일
▁한국전력
▁ㄴㅗㄹㄹㅏㄴ
르템
애자
카쿠
▁BJ
▁HR
▁UD
▁갈대
▁관립
▁노자
▁도원
▁맹자
▁분구
▁수체
▁역인
▁엽록
▁오퍼
▁위급
▁유괴
▁잉어
▁제청
▁진산
▁티타
▁한학
▁현자
▁휴지
트리아
▁Pet
▁Soc
▁mod
▁고메스
▁동역학
▁부룬디
▁시작점
▁이제동
▁잠자리
▁적갈색
▁좌참찬
▁진안군
▁카트린
ouble
▁1780
▁City
▁모리오카
▁사라예보
ㄷㅣㅈㅎㅕ
르템베르크
ㄹㅗㅂㅎㅣㅁ
▁ㅈㅣㄴㅎㅐㅇㅎㅏㄹ
슬론
케로
하타
▁Hz
▁동선
▁레자
▁물량
▁범종
▁빙판
▁사피
▁시디
▁신식
▁약어
▁온몸
▁외야
▁원광
▁월등
▁유량
▁전근
▁조아
▁참관
▁포이
▁흥국
ㄷㅓㅍ
애슬론
커버리
클라베
▁Sil
▁def
▁대사성
▁돌아보
▁사이고
▁수뇌부
▁이동한
▁퓨처스
▁1817
▁딱정벌레
▁사쿠라이
▁카를루스
▁콘클라베
래곤
시니
▁-.
▁국권
▁김철
▁누아
▁다정
▁망가
▁속출
▁엘람
▁유르
▁육안
▁잠들
▁즉석
▁총탄
▁타개
▁학무
▁313
▁Fun
▁Swe
▁남북한
▁노이만
▁레이철
▁반혁명
▁보일러
▁아우렐
▁앞장서
▁애니콜
▁영천시
▁헬레나
▁훈련장
▁랭커스터
▁말라리아
▁카트리지
▁폭스바겐
베쓰
신론
중앙
포화
lin
▁관입
▁그분
▁법대
▁빙상
▁소신
▁식수
▁양질
▁열혈
▁일축
▁장공
차일드
▁겉모습
▁광산구
▁동인지
▁마땅히
▁사라이
▁손오공
▁아바스
▁최우선
▁특산물
▁1453
▁사실주의
▁스웨덴어
▁한국은행
▁헤르메스
yr
간드
강도
극장
찰사
코이
▁NO
▁닐스
▁다산
▁대월
▁던스
▁드니
▁병세
▁비구
▁빈혈
▁소명
▁시치
▁장동
▁장막
▁재킷
▁지네
▁호종
▁훈구
ㄲㅡㄹ
곰자리
apan
▁MLS
▁Vis
▁ㄴㅔㄹ
▁ㅊㅏㅁ
▁구사론
▁리버스
▁무안타
▁웨일즈
▁코르넬
▁플레인
▁나카가와
▁무라야마
▁ㄱㅏㄷㅎㅣㄴ
▁ㅈㅓㅂㅎㅏㄹ
▁ㅌㅐㄱㅎㅐㅆ
▁우크라이나인
델라
뚜기
레즈
ino
▁Sn
▁관인
▁기오
▁남도
▁대림
▁미호
▁부쿠
▁사문
▁수재
▁스냅
▁승무
▁오고
▁이극
▁클랩
▁통수
▁팰컨
ican
▁강연회
▁광양시
▁금정구
▁더욱더
▁매장량
▁사진가
▁수집가
▁아스타
▁억지로
▁에반스
▁재계약
▁채플린
▁쿠알라
▁1825
▁열린집합
▁Album
▁Enter
▁방탄소년단
▁부쿠레슈티
▁쿠알라룸푸르
▁ㅂㅓㄹㅇㅣㄴㄷㅏ
▁ㅎㅡㄴㄷㅡㄹㄹㅣㅁ
각시
스프
충사
페어
err
▁곡사
▁광릉
▁노령
▁도내
▁람다
▁백합
▁산개
▁셰르
▁승문
▁신토
▁야나
▁에지
▁영가
▁응모
▁이권
▁철갑
▁호부
ㄱㅡㅁ
work
▁고려인
▁노르딕
▁도봉구
▁모듈러
▁바하마
▁비활성
▁세르비
▁외조부
▁하드코어
ㄴㅣㄹㄲㅏ
▁Techn
▁ㄴㅓㅁㄱㅣㄴ
yp
▁뮬
ㅍㅜ
나잇
덕리
자카
티콘
펠트
포동
▁납세
▁니더
▁루도
▁마장
▁망토
▁비바
▁서유
▁셔터
▁양광
▁외직
▁우뚝
▁우방
▁워프
▁제패
▁출몰
▁캐넌
▁코즈
▁폐비
▁핀치
▁호메
itch
▁980
▁고쿠라
▁금지법
▁레지옹
▁마사코
▁무자비
▁미술사
▁순환선
▁아이누
▁엠블럼
▁연수구
▁영광군
▁옥개석
▁원피스
▁장덕수
▁클레르
▁Team
▁비토리오
▁코린토스
▁테네시주
▁흐루쇼프
그너
슈트
▁단추
▁동궁
▁망라
▁명료
▁성군
▁아밀
▁염전
▁우로
▁원구
▁음계
▁잔재
▁전등
▁충선
▁콥트
▁푸코
본주의
연구소
reet
▁관측자
▁광무제
▁김홍집
▁도저히
▁동남아
▁백혈병
▁셰필드
▁소장품
▁신조어
▁집합체
▁1788
▁문하시중
▁분리주의
▁초전도체
▁ㅂㅜㄹㅇㅓ
▁크로스오버
▁사우스캐롤라이나
일점
치산
팔로
ope
▁KM
▁검역
▁과대
▁남강
▁디랙
▁무굴
▁미달
▁상전
▁소우
▁수혜
▁심경
▁아퀴
▁워렌
▁적시
▁정액
▁편도
▁황기
▁도로시
▁리누스
▁부총재
▁브라만
▁사업비
▁스티커
▁아리마
▁전봉준
▁조그마
▁카이두
▁마사무네
▁포항제철
▁호메로스
ㅈㅏㅂㅎㅕ
▁앨라배마주
▁Little
▁홑
화사
▁fe
▁가용
▁강정
▁경왕
▁구기
▁근절
▁김신
▁반송
▁오현
▁의전
▁이요
▁조원
▁칩셋
▁케토
▁태정
▁품류
▁허나
메이슨
▁.."
▁Cre
▁ㅇㅔㅅ
▁레트로
▁시나이
▁시마네
▁실비아
▁에디터
▁연기력
▁요크셔
▁의화단
▁조선어
▁참으로
▁코발트
▁퍼킨스
▁해왕성
축구협회
▁1593
▁1828
▁무스타파
▁민다나오
▁판타스틱
▁First
▁ㅇㅏㄱㅎㅏㄴ
▁대한축구협회
럽트
록색
무진
바위
슈나
스름
ird
ler
▁VL
▁개역
▁갯벌
▁고품
▁기득
▁난폭
▁네버
▁사샤
▁성신
▁손잡
▁쇄신
▁약초
▁용모
▁원어
▁저희
▁질주
▁초구
▁한영
▁흑연
ㄱㄷㅏ
도토스
무스메
▁관측소
▁기동성
▁뒷부분
▁런타임
▁매표소
▁사냥개
▁서천군
▁신해철
▁에디슨
▁워터스
▁합격자
▁브리즈번
▁히로유키
▁ㅆㅏㅎㅇㅣㄴ
▁모닝구무스메
▁아우구스티누스
메인
ves
▁AW
▁녹훈
▁누비
▁누출
▁도일
▁무정
▁역관
▁용담
▁이그
▁주현
▁지안
▁테루
▁표고
▁후주
▁극락전
▁나이토
▁마젤란
▁빙그레
▁삼별초
▁안세이
▁이방인
▁진사시
▁충성심
▁탈리아
▁황금기
▁모더니즘
▁무한도전
▁이브라힘
▁ㄴㅜㄴㅂㅜ
▁페널티킥을
다라
ike
▁Nt
▁격노
▁경당
▁교상
▁방진
▁비신
▁석실
▁아달
▁오동
▁원경
▁인목
▁준용
▁타바
바니아
▁860
▁ㅈㅓㄹ
▁나오키
▁미도리
▁법상종
▁보호령
▁신경망
▁이규완
▁이스터
▁제미니
▁휘그당
▁SEED
▁세종실록
▁한국일보
▁ㅇㅗㄴㄷㅐ
▁자유주의자
▁ㄷㅗㅇㅇㅣㄴ
▁주간고속도로
게르
첼로
패닉
▁노기
▁도프
▁리뉴
▁리디
▁보크
▁불연
▁속옷
▁안도
▁앙헬
▁에비
▁열녀
▁예민
▁임재
▁저승
▁전편
▁종반
▁주걱
▁통가
▁티티
▁하목
▁한탄
▁회자
ress
▁333
▁로버스
▁록펠러
▁미켈란
▁베이시
▁사이코
▁쇼펜하
▁수사관
▁아리안
▁에미상
▁자연히
▁장본인
▁장신구
▁초이스
▁퓰리처
▁Happ
▁모리셔스
▁모하마드
▁인터럽트
▁헐리우드
▁히스패닉
▁Stage
▁쇼펜하우어
▁수페르리가
UL
ha
▁쉰
개토
임새
▁MI
▁계비
▁고착
▁굴드
▁낙점
▁동강
▁로슈
▁마제
▁민스
▁바카
▁알콜
▁역병
▁울창
▁원각
▁인트
▁진달
리아노
▁960
▁몽골어
▁산리쿠
▁수호이
▁시퀀스
▁일라이
▁정상부
▁탐험대
▁패미컴
▁프랑켄
▁스타트업
▁ㅅㅜㅁㅈㅣㄴ
▁안드로메다자리
▁ㅂㅏㄺㅎㅣㄴㄷㅏ
장성
코니
▁다뉴
▁미우
▁뼈대
▁살포
▁송수
▁알란
▁어귀
▁연경
▁연접
▁우와
▁울라
▁장마
▁재키
▁좡족
▁침실
▁코먼
▁혜왕
▁황주
▁힐튼
카이치
▁레이첼
▁메소드
▁선인장
▁섬네일
▁주제곡
▁지표면
▁클로즈
▁포르쉐
▁피오나
▁필살기
▁다이애나
▁로트링겐
▁집적회로
▁펩타이드
ts
지상
키리
털루
하치
ars
▁공범
▁교민
▁굳건
▁대박
▁미흡
▁소학
▁악행
▁안국
▁양기
▁제회
▁종위
▁카가
▁큼직
▁탐라
▁하대
▁항변
스티스
파고스
▁Dig
▁광개토
▁남동구
▁수십만
▁양성소
▁차베스
▁크랭크
▁피그미
▁항등식
▁황무지
▁1636
▁1797
▁1838
▁에너지원
▁이로쿼이
▁ㅅㅣㅂㅅㅣ
▁인디애나주
ze
관광
리프
소프
출마
켄지
oom
▁EA
▁If
▁OL
▁간절
▁규소
▁기침
▁다드
▁단부
▁당면
▁비우
▁왕상
▁의열
▁퇴거
▁파시
머니즘
자유당
▁229
▁POP
▁ㅇㅏㄵ
▁갑상선
▁꽃가루
▁도파민
▁무분별
▁수호신
▁캐머런
▁특파원
▁페드루
▁포병대
▁헤이케
▁Hist
▁poem
▁국제기구
▁이집트인
▁차가타이
▁크로노스
▁ㅎㅏㅂㅎㅐ
▁민주자유당
▁ㅈㅓㅂㅎㅐㅆ
▁ㅈㅜㄱㅇㅣㄴㄷㅏ
▁된
베다
시드
umb
▁경리
▁굴착
▁기내
▁남대
▁단언
▁도면
▁루앙
▁말뚝
▁명랑
▁법치
▁사별
▁산발
▁신광
▁오레
▁올가
▁잉태
▁정준
▁초각
▁콜트
▁헤엄
▁혈전
▁고용주
▁관박쥐
▁마사토
▁베니토
▁스크롤
▁청취자
▁초거성
▁컨셉트
▁표지판
▁물병자리
▁보호관찰
▁트레이시
▁예카테리나
PG
ㄱㅘ
혀내
▁ed
▁강태
▁구주
▁로더
▁보소
▁불운
▁빈스
▁아슈
▁예기
▁용호
▁이라
▁자영
▁최동
▁편년
▁한우
군주제
▁Pla
▁가쓰라
▁가처분
▁경산시
▁공문서
▁공작원
▁내려놓
▁노비타
▁동두천
▁밝혀내
▁브라이
▁송준길
수염박쥐
▁2024
▁야마나시
▁ㅇㅏㄴㅌㅏ
▁ㅈㅏㄱㅇㅏ
▁프리스타일
▁새천년민주당
자료
환국
▁Sa
▁곡성
▁금방
▁무령
▁볼라
▁시일
▁신승
▁신증
▁역경
▁영내
▁용두
▁유임
▁질타
▁초명
▁호구
▁화단
▁황화
▁Tom
▁남수단
▁사투리
▁성희롱
▁슬라이
▁헝가리인
▁히스파니아
▁ㄴㅏㅁㄱㅕㅆㅇㅡ
yc
덕사
지움
현리
▁MG
▁구소
▁듀이
▁박순
▁베인
▁부츠
▁비웃
▁순열
▁약재
▁연제
▁중진
▁직역
▁찰나
▁평시
▁허적
스탕스
▁AES
▁MBN
▁경사각
▁경호원
▁대표부
▁리베라
▁민스크
▁사육신
▁저소득
▁파티마
슈바이크
▁1777
▁Plan
▁다치바나
▁스케이프
▁ㅂㅏㄱㅎㅕ
▁노스웨스트
▁레지스탕스
▁페르세우스
의어
텍스
▁광교
▁구균
▁남면
▁니노
▁만루
▁무량
▁바벨
▁반미
▁석장
▁신랑
▁압류
▁어진
▁원세
▁은닉
▁지라
▁천진
▁태실
▁편광
▁학상
▁황토
▁249
▁323
▁SAR
▁나루토
▁리허설
▁서귀포
▁스코프
▁영양분
▁영주시
▁웹스터
▁적시타
▁진천군
▁회색빛
▁나카모리
▁마티아스
▁미켈란젤로
▁브라운슈바이크
PN
가치
림리
마에
착륙
get
ris
▁달래
▁더듬
▁락스
▁소품
▁수고
▁일약
▁졸리
▁종별
▁증보
▁캘빈
삼각형
uman
▁PSP
▁ㅇㅓㅍ
▁김정희
▁마술사
▁말버러
▁발트해
▁예천군
▁정여립
▁총감독
▁카르타
▁편집국
▁호남선
▁화엄경
▁히메지
▁네이티브
▁드레스덴
▁로테이션
▁테마파크
▁플랑크톤
▁솔트레이크
▁아일랜드어
▁ㅍㅕㄹㅊㅕㅆㅇㅡ
부시
빌라
천후
▁ph
▁검교
▁공비
▁구한
▁금과
▁난바
▁내연
▁니어
▁도킹
▁멀린
▁볼턴
▁붓다
▁브록
▁비누
▁열병
▁유종
▁인두
▁질감
▁찬미
▁항등
ross
▁266
▁810
▁갈라타
▁관리법
▁기무라
▁도플러
▁서울역
▁신간회
▁온건파
▁코스닥
▁크루스
▁나가오카
▁레이먼드
▁트레일러
▁right
▁ㅇㅏㄹㄹㅣㅁ
▁콜라보레이션
RA
▁씽
덕면
롤라
무사
포츠
폭력
ECT
uro
▁Ap
▁DT
▁갈망
▁검단
▁고졸
▁난소
▁만슈
▁북주
▁사공
▁솔리
▁슈만
▁애쉬
▁애용
▁주종
▁처자
▁쾌적
▁파로
▁der
▁근연종
▁너구리
▁미노루
▁미추홀
▁역전승
▁워털루
▁은하수
▁텅스텐
▁토후국
▁하인츠
▁Conc
▁김나지움
▁문화재청
▁브라이트
▁ㅎㅏㄹㄲㅏ
▁디스커버리
▁미시시피주
▁브리타니아
르담
켤레
키치
▁Km
▁동질
▁로직
▁루미
▁메토
▁모유
▁미끄
▁법사
▁선군
▁세터
▁원안
▁유두
▁인동
▁죄목
▁카구
▁페달
▁피델
▁May
▁구매자
▁다뉴브
▁데려오
▁레반트
▁미술품
▁법무관
▁셰이크
▁외손자
▁우분투
▁재통일
▁전람회
▁지멘스
ative
▁Gold
▁노트르담
▁모리타니
▁아브루초
▁윗수염박쥐
▁function
▁쩌
랜즈
els
▁MO
▁TE
▁Vo
▁구부
▁급감
▁능률
▁니우
▁대불
▁도인
▁레몽
▁루니
▁류성
▁마미
▁면도
▁방역
▁본받
▁비앙
▁서화
▁암사
▁의탁
▁창법
ㅌㅡㄹ
바라기
ific
▁353
▁570
▁var
▁ㄸㅓㅆ
▁보급품
▁부평구
▁수에즈
▁오베르
▁의정서
▁조건부
▁진주성
▁펌웨어
▁허스트
▁main
▁나뭇가지
▁대학원생
▁선덜랜드
▁카나리아
▁ㅇㅣㄹㄹㅓ
▁왁
케르
티르
▁Pi
▁기꺼
▁내해
▁도가
▁마노
▁모성
▁법의
▁복도
▁분가
▁분분
▁비소
▁빗물
▁섭동
▁순방
▁양해
▁위화
▁장명
▁조강
▁천인
▁추수
▁태즈
▁파치
▁파타
▁하네
▁회령
▁회송
▁효시
스카야
야말로
line
▁257
▁306
▁Sky
▁관중석
▁광주군
▁대역폭
▁로베스
▁메디아
▁몰려들
▁유력자
▁일대기
▁주원장
▁춘추관
▁캐피탈
▁테이트
▁팔레르모
▁Gener
▁로베스피에르
▁럽
소녀
언군
태영
ACK
▁so
▁고봉
▁국학
▁굴리
▁뉴펀
▁리야
▁말레
▁물음
▁북문
▁서른
▁안수
▁어근
▁에덴
▁에센
▁용납
▁월성
▁읍내
▁일일
▁임오
▁콘도
▁평영
▁풍성
▁하한
▁협연
디비시
베르데
혁명당
orth
▁갈매기
▁공격자
▁라이징
▁미크로
▁발원문
▁이승훈
▁자본금
▁조언자
▁페르마
▁1784
▁1826
▁니가타현
▁블록체인
▁패러데이
ㅁㅏㄹㄹㅕ
▁뉴펀들랜드
▁에레디비시
▁ㅊㅏㅁㄷㅚㄴ
WC
렁크
사장
후미
ero
▁과소
▁군공
▁드가
▁등식
▁랄리
▁삼도
▁어제
▁은화
▁잔기
▁진시
▁한기
▁화구
▁RAM
▁TCP
▁군포시
▁되돌리
▁라벤나
▁세기말
▁신대륙
▁연합체
▁위스키
▁윤원형
▁이니셜
▁이시이
▁인도양
▁재조합
▁평신도
▁Char
▁ISIL
▁매리너스
▁콜로라도
▁하나하나
▁ㅁㅣㄹㅇㅓ
▁위스콘신주
▁하이라이트
링스
야식
에나
AND
▁간언
▁당구
▁막론
▁사복
▁선량
▁외장
▁원외
▁이다
▁쟁이
▁최정
▁치매
▁칙서
▁페소
▁620
▁Vir
▁ㅊㅐㅇ
▁과학부
▁관습법
▁긴장감
▁미적분
▁슈바벤
▁운전사
▁워크스
▁조이스
▁충선왕
▁에노모토
▁영산회상
▁카탈로그
▁Class
▁판의금부사
디크
엔드
왕도
첼리
▁가꾸
▁경공
▁내밀
▁대산
▁더더
▁링고
▁삼보
▁상비
▁성탄
▁성토
▁숨지
▁슈마
▁신령
▁액자
▁야역
▁어벤
▁오족
▁이혜
▁지간
▁측실
▁토종
▁함축
▁환공
엽수림
▁404
▁STX
▁app
▁ㄷㅐㅁ
▁군자금
▁금지령
▁기꺼이
▁끌어내
▁드레드
▁맘루크
▁바이런
▁부지사
▁수출입
▁양양군
▁에일리
▁유스티
▁장흥군
▁저압부
▁하이데
▁part
▁드래건스
▁삼성그룹
▁하마마쓰
ㅅㅣㄴㄷㅏ
▁갈라파고스
라티
밍턴
쿠마
▁Da
▁Rh
▁군악
▁라키
▁레그
▁백남
▁범퍼
▁변위
▁석좌
▁수납
▁이과
▁천공
▁코아
▁파블
▁파비
▁헥사
▁힘러
▁273
▁630
▁But
▁겨울잠
▁구릉지
▁노후화
▁대구경
▁마오리
▁마커스
▁불신임
▁스피너
▁애국심
▁은밀히
▁은언군
▁하리마
▁TOUR
▁옥스포드
▁이복동생
▁전용도로
▁아일랜드인
놀즈
티늄
ren
▁건기
▁곡률
▁교목
▁두목
▁룬드
▁방아
▁보타
▁상산
▁수르
▁수안
▁스탭
▁옥산
▁우고
▁인화
▁좌초
▁최인
▁토치
▁퍼트
세서리
▁GHz
▁군부인
▁리디아
▁문하생
▁벨리즈
▁부조리
▁세르히
▁소작농
▁수자원
▁스토크
▁아메리
▁야코프
▁연면적
▁저항성
▁정치범
▁포츠담
▁Dark
▁More
▁에히메현
olution
▁미크로네시아
ful
▁가람
▁광천
▁날로
▁데비
▁말투
▁야유
▁엉뚱
▁이찬
▁이춘
▁장연
▁저빌
▁절실
▁징용
▁코보
▁튀김
▁향유
▁화평
▁880
▁God
▁국세청
▁그로브
▁릴리즈
▁생방송
▁요아힘
▁자라나
▁제럴드
▁중남부
▁중앙동
▁참석자
▁통일부
▁희극인
umber
▁1680
▁Long
▁다카사키
▁언더우드
▁페데리코
▁해바라기
▁민코프스키
▁ㅂㅜㅌㅈㅏㅂㅎㅕㅆ
▁쑥
걸스
녜스
누르
장이
포항
ius
▁경장
▁교점
▁구심
▁굶주
▁날조
▁로쿠
▁봉신
▁비관
▁세나
▁세인
▁스틴
▁양모
▁연명
▁재조
▁정릉
▁판다
▁화정
▁회선
메이커
▁bes
▁감독관
▁남학생
▁닉네임
▁몽구스
▁배심원
▁시프트
▁양천구
▁음악인
▁재래식
▁제트기
▁지치부
▁천태종
▁카이퍼
▁키케로
▁현대식
▁혼마루
▁활화산
itude
▁소방본부
▁아키타현
▁Japan
데나
▁Sl
▁px
▁경서
▁궁도
▁대권
▁되살
▁사색
▁상군
▁설날
▁아계
▁염원
▁이음
▁장석
▁재거
▁저런
▁정호
▁천호
▁초순
▁췌장
▁커튼
▁Fla
▁고속철
▁대마초
▁대방광
▁메네스
▁벨라스
▁선교회
▁수필가
▁아루바
▁영남대
▁인덱스
▁정복자
▁토바고
▁트렁크
▁파울리
▁헨리크
ㅇㅎㅏㅁ
▁8859
▁ㄴㅡㅈㅊ
▁국민은행
▁쓰러뜨리
▁다이어그램
▁메릴랜드주
GS
▁솥
부치
타자
▁KP
▁__
▁nd
▁귀부
▁랠리
▁레코
▁방산
▁번사
▁변주
▁불우
▁시럽
▁야고
▁언양
▁여중
▁오치
▁왼발
▁요요
▁이가
▁인포
▁입궁
▁정평
▁팩터
▁하퍼
less
▁기차역
▁마니아
▁미국식
▁볼거리
▁봉화군
▁아메바
▁의왕시
▁이와타
▁이코마
▁나미비아
▁적십자사
▁진핵생물
▁테크니컬
▁페르미온
▁ㅂㅕㄴㅎㅏㅁ
to
▁갠
무역
사항
산역
쓰카
연사
즈다
테로
era
led
▁갑과
▁대식
▁리토
▁버금
▁봉투
▁수론
▁시무
▁안료
▁오펜
▁완봉
▁정창
▁질책
▁최창
▁켤레
▁퀴리
▁페놀
▁폴더
▁풍조
▁헬름
프레임
▁236
▁TNA
▁구덩이
▁마가렛
▁마테오
▁사령탑
▁상징물
▁앙카라
▁제레미
▁Fall
▁가와카미
▁로테르담
▁석불입상
▁Group
▁Stand
임자
찰청
▁BP
▁고뇌
▁광기
▁구정
▁노고
▁도니
▁로건
▁미제
▁성황
▁심해
▁어마
▁연변
▁인부
▁재적
▁접영
▁정촌
▁진부
▁폰티
▁호도
▁호드
네이터
ople
▁Aut
▁NGO
▁SNK
▁경영난
▁곰팡이
▁공손찬
▁리포터
▁명부전
▁셀틱스
▁아가미
▁아르민
▁정류소
▁제천시
▁충무공
▁코베인
▁페트라
▁현충원
▁Year
▁남중국해
▁대검찰청
▁시마네현
▁잉글리시
▁체임벌린
▁Girls
모트
지방
▁OM
▁가례
▁건반
▁금석
▁기년
▁기절
▁대작
▁병설
▁부아
▁북청
▁샤크
▁성하
▁시복
▁안현
▁청백
▁타슈
▁파평
▁항암
▁304
▁OFC
▁계산기
▁도전자
▁루시아
▁문화상
▁스트링
▁실력자
▁주자학
▁튀링겐
▁파열음
▁홍건적
투아네트
프레이즈
▁1620
▁레이놀즈
▁전통문화
▁Beaut
▁ㅍㅕㅇㅅㅏㄴ
성장
소수
와프
운사
▁LL
▁게스
▁남이
▁내년
▁네빌
▁노정
▁농수
▁뇌터
▁똑똑
▁멸치
▁비티
▁사타
▁스스
▁아센
▁에머
▁융성
▁제과
▁주례
▁체급
▁폭설
▁하청
▁한결
▁화천
▁후크
▁415
▁470
▁GUI
▁res
▁고릴라
▁관리인
▁기동대
▁뒷다리
▁로리타
▁르베그
▁리아스
▁무한히
▁반대자
▁부딪히
▁삼척시
▁신중도
▁의료진
▁중심가
▁카니발
▁콜로니
iness
▁1822
▁비엔날레
▁스티븐슨
▁아유타야
▁아킬레스
▁표현주의
▁푸앵카레
▁ㅇㅜㅁㅈㅣㄱㅇㅕㅆ
가드
댑터
메데
▁남초
▁납득
▁도의
▁레토
▁마담
▁법체
▁분묘
▁사경
▁산국
▁아탈
▁악사
▁알자
▁약관
▁연개
▁우현
▁위인
▁이응
▁잡이
▁절기
▁청대
▁최익
▁태고
▁터전
▁피보
달레나
슬레이
▁247
▁Bra
▁MGM
▁UFC
▁공로상
▁데미지
▁마이트
▁불포화
▁아카시
▁어댑터
▁일반직
▁주성분
▁지리지
▁태안군
▁하루히
▁하행선
▁후원회
▁고전주의
▁포클랜드
▁Sweet
▁ㅁㅓㅁㅊㅝ
AV
강원
키오
▁독보
▁본과
▁북키
▁산대
▁소다
▁양안
▁용골
▁이괄
▁적국
▁직할
▁출하
▁치바
▁쿼리
▁토큰
▁프릴
▁한시
텐디크
▁Ret
▁ㅂㅓㅁ
▁광진구
▁드나들
▁세미놀
▁신의주
▁안무가
▁주동자
▁캐리어
▁파이퍼
▁프리즘
▁휘말리
▁LGBT
▁크리스트
▁헨드릭스
▁White
▁그로텐디크
▁Direct
르겐
사토
추리
토닌
▁검진
▁고자
▁곧장
▁기모
▁내력
▁노크
▁백양
▁병약
▁본위
▁봉급
▁부석
▁아톰
▁자드
▁작별
▁탈영
▁티토
▁폭락
▁플롯
▁한두
▁허벅
▁확증
▁환수
▁후송
디스트
▁Bus
▁군부대
▁데이비
▁로고스
▁메디컬
▁방어전
▁비슈누
▁사나다
▁소득세
▁승문원
▁우주국
▁출입국
▁풀타임
▁헬무트
▁1660
▁1811
▁보르네오
▁캔자스주
ㅇㅜㄹㄹㅕ
▁ㄲㅡㅀㅇㅕ
▁앙투아네트
▁프리메이슨
디니
소네
시안
음악
이라
차오
▁강론
▁노라
▁면세
▁몬티
▁묵인
▁배교
▁백상
▁번안
▁비드
▁선착
▁신나
▁심재
▁양준
▁우당
▁의기
▁전생
▁체액
▁초간
▁태원
▁파수
▁피임
▁후카
예비치
▁SHO
▁매개체
▁변경백
▁부코바
▁성주군
▁수행자
▁신고식
▁오세아
▁외로움
▁이사금
▁자작곡
▁정무직
▁조로아
▁파이리
▁플렉스
▁흩어지
lease
▁Miss
▁그야말로
▁로버트슨
▁마라도나
▁마요르카
▁볼리바르
▁카운트다운
▁크리스티아
▁헤로도토스
fr
배상
▁KL
▁고함
▁공진
▁김안
▁내선
▁단총
▁루주
▁미마
▁벌목
▁불선
▁소독
▁순진
▁아롱
▁용융
▁음파
▁적립
▁전가
▁특검
▁패닉
▁행상
▁히우
▁345
▁710
▁Cry
▁갈루아
▁능력자
▁다득점
▁법주사
▁서라벌
▁수세기
▁스트롱
▁스트립
▁시발점
▁알레포
▁유스케
▁일일이
▁패터슨
▁플라잉
▁가니메데
▁꼭두각시
▁스탠포드
▁스프린트
▁오카모토
▁ㅂㅣㅈㅇㅓ
▁하드리아누스
▁Christmas
gg
▁놉
▁댕
▁렴
득이
렌트
좌상
erv
▁Fi
▁각막
▁감귤
▁다임
▁무반
▁민트
▁상술
▁소성
▁스톱
▁씨방
▁육영
▁자퇴
▁초승
▁허셜
▁화분
ㄹㅏㅇ
▁ㄸㅏㄹ
▁ㅉㅏㄴ
▁괘불탱
▁넥서스
▁다비트
▁따라잡
▁실업자
▁암살자
▁은신처
▁저마다
▁체세포
▁1610
▁루도비코
▁사다리꼴
▁슬라이더
▁해운대구
▁ㅊㅣㅇㅎㅐ
거북
무이
산염
종합
타다
asy
▁검소
▁교조
▁룰라
▁박창
▁방광
▁배추
▁사재
▁언행
▁엑소
▁절지
▁첨탑
▁페미
▁한나
▁효령
▁훌린
순양함
테우스
▁나이키
▁발표회
▁산호초
▁식물학
▁쑤저우
▁영월군
▁임진강
▁칼리프
▁1770
▁Roll
▁아뢰야식
▁오리건주
▁지주회사
▁ㄲㅗㅂㅎㅕㅆ
예트
ald
▁가트
▁강선
▁공역
▁난시
▁능히
▁라싱
▁문맹
▁물산
▁부로
▁비노
▁비파
▁스필
▁에콜
▁오션
▁와우
▁완승
▁유향
▁은유
▁일인
▁일절
▁조업
▁조프
▁진종
▁판시
▁흥업
▁ㄱㅘㄴ
▁개혁가
▁나이츠
▁누리꾼
▁마린스
▁바우어
▁비변사
▁수송선
▁시흥군
▁울진군
▁이데아
▁이스타
▁인천시
▁청송군
▁클랜시
▁포커스
▁피아트
▁히라이
니아누스
▁소행성대
▁요시미쓰
▁컴포넌트
▁해군기지
▁Elect
▁ㅇㅓㄺㅎㅕ
▁크리에이터
sy
대상
디브
nal
▁AH
▁공교
▁끊기
▁덴분
▁라타
▁말살
▁맥라
▁밧줄
▁배스
▁백스
▁별시
▁봄바
▁수보
▁약소
▁어순
▁웅변
▁웨버
▁의관
▁입건
▁자화
▁작은
▁채드
▁토번
▁피레
▁해마
▁pop
▁거북이
▁끓는점
▁대구시
▁물방울
▁자연법
▁주둔군
▁최고봉
▁카시오
▁크로마
▁클랩튼
▁마쓰야마
▁이바라키현
▁ㅅㅡㅂㅎㅏㄴ
▁GeForce
CE
가나
노미
뎅이
떡잎
랴쿠
문제
잭션
청사
fin
▁Ca
▁근신
▁기력
▁기입
▁뒤쫓
▁매혹
▁메티
▁북두
▁분말
▁쇄도
▁액면
▁어택
▁엘베
▁이징
▁조간
▁죄책
▁중임
▁차인
▁통째
▁팬터
▁243
▁ㅈㅟㄴ
▁김종서
▁동음이
▁모회사
▁위그노
▁유의미
▁임실군
▁전시실
▁제이컵
▁졸업식
▁최신형
▁코카인
▁특별상
▁험프리
▁홀랜드
▁확장팩
▁1604
▁트랜잭션
▁포메이션
▁ㅇㅣㅂㅎㅕ
88
뮤다
▁Tu
▁고신
▁나그
▁등각
▁로아
▁링스
▁막히
▁목초
▁무모
▁사포
▁상봉
▁선국
▁순무
▁스컬
▁신채
▁오모
▁조진
▁카포
▁키츠
▁토가
▁페름
▁하양
▁형평
▁후륜
레흐트
메랄드
토니오
▁Mat
▁NCA
▁간사장
▁동호회
▁로비치
▁버뮤다
▁불가침
▁영양소
▁유원지
▁이동해
▁인스트
▁재건축
▁중남미
▁참나무
▁초음속
▁출루율
▁하우젠
▁Comm
▁드래곤볼
▁봅슬레이
▁석불좌상
▁에메랄드
▁오피스텔
▁타카하시
bc
ka
ㄴㅜ
닝스
▁HM
▁Na
▁Us
▁계양
▁교세
▁귀도
▁그렉
▁다도
▁장호
▁표수
▁혈당
▁호성
레인지
에이터
oman
▁Mem
▁mac
▁경시청
▁광우병
▁더더욱
▁데이지
▁드래그
▁분석가
▁수사학
▁시리얼
▁우익수
▁중시조
▁쥐라기
▁침례교
▁카디프
▁카펠라
▁한림원
▁헤럴드
▁3500
▁IDOL
▁미쓰나리
▁요시노리
▁에르난데스
▁ㅂㅕㄴㅎㅏㄹ
ml
군트
렐리
록스
소송
워프
진흥
태후
트만
판윤
BSD
▁QS
▁거동
▁굽히
▁답습
▁서얼
▁양화
▁요일
▁우량
▁주당
▁카제
▁탄창
▁테디
▁팔달
▁푸이
▁플린
▁피격
▁허준
▁화법
▁930
▁ㅇㅗㅁ
▁동해안
▁로지스
▁마르텔
▁마주치
▁부적합
▁블랙번
▁호시노
▁부르군트
▁스테파니
▁지그문트
▁핀란드어
▁한성부판윤
▁ㄱㅡㅂㅎㅏㄴ
▁ㅈㅏㄱㅇㅣㄴ
▁깍
▁찹
아과
아스
▁괴담
▁네리
▁대함
▁램지
▁명신
▁봉행
▁스펠
▁어지
▁웨스
▁점막
▁정각
▁종성
▁증조
▁질식
▁충만
▁크롤
▁협찬
롭스크
부쿠로
즈베리
aven
ible
▁공급원
▁달리기
▁랜더스
▁마르키
▁마자르
▁몰디브
▁브라흐
▁시그널
▁오랜만
▁이홍장
▁인디펜
▁중합체
▁지하실
▁카메오
▁타이타
▁페루자
▁홍길동
▁1519
▁아드리안
▁아흐마드
▁약사여래
▁에이로쿠
▁중심주의
▁탄화수소
▁통정대부
▁파우스트
▁파이프라인
▁플루오린화
▁캐치프레이즈
mb
▁갇
▁겟
팬지
▁CI
▁군장
▁귀의
▁기선
▁늦추
▁두건
▁뜻밖
▁머드
▁목련
▁문선
▁방망
▁방재
▁사저
▁성비
▁손견
▁에라
▁역수
▁왕사
▁유코
▁징시
▁초의
▁초토
▁카게
▁탱고
▁통설
▁특무
▁파베
▁회개
ents
▁286
▁307
▁런던탑
▁맥라렌
▁메콩강
▁미즈키
▁법률가
▁아그리
▁아스트
▁에어컨
▁유난히
▁이방원
▁장성군
▁전리품
▁통감부
▁통행료
▁플리트
▁히카리
▁1827
▁1829
▁고생물학
▁네바다주
▁니코니코
▁롯데월드
▁조지아주
▁Staff
▁Story
▁Under
▁ㄱㅏㅁㅆㅏ
▁세바스티안
▁ㄱㅏㅈㅊㅝㅆ
▁ㄷㅓㅍㅇㅣㄴ
▁ㅃㅗㅂㅎㅣㄴ
▁일러스트레이터
▁폄
고원
민관
밴드
사의
스컵
험자
und
▁UH
▁검문
▁고다
▁낙후
▁데바
▁디리
▁바브
▁방벽
▁양복
▁완구
▁육신
▁저속
▁정민
▁코피
▁태인
▁티크
▁하숙
마리아
illa
▁DDR
▁김성근
▁도호부
▁레이지
▁마르타
▁밀려나
▁백혈구
▁빈번히
▁설계도
▁수리남
▁에리카
▁엘레나
▁오다큐
▁재경기
▁침팬지
▁통찰력
▁파비아
▁판문점
▁STER
▁chem
▁고스란히
▁Young
▁안티오코스
▁위트레흐트
▁챔피언스컵
ㅈㅕㅆㅇㅓㅆ
▁Season
▁프라이부르크
디시
조프
콜리
텔라
▁Er
▁가늠
▁검술
▁공허
▁대잠
▁만회
▁반짝
▁벌집
▁베츠
▁불기
▁상량
▁샤론
▁성금
▁소추
▁신심
▁신혼
▁역원
▁옷감
▁원담
▁자회
▁충적
▁246
▁UFO
▁노히트
▁레시피
▁링네임
▁반역자
▁배급사
▁부주석
▁분당선
▁세이프
▁영락제
▁초승달
▁콜롬비
▁클로버
▁헤어지
▁BEST
▁char
▁나카소네
▁리처드슨
▁상무위원
▁알카에다
▁어셈블리
▁올림푸스
▁유스티니아누스
▁American
KO
li
▁숯
▁젼
더미
세나
엑스
▁거류
▁고케
▁교로
▁낭트
▁녹지
▁라나
▁백군
▁스팟
▁실외
▁양봉
▁영안
▁원회
▁잡식
▁정묘
▁제강
▁중정
▁청담
▁체신
▁파지
▁핑거
▁홍영
▁후국
▁후아
▁휴스
▁TTC
▁공격기
▁권위자
▁발루아
▁사마르
▁연수원
▁커플링
▁흘러드
▁Kiss
▁디아블로
▁아데노신
▁익스트림
▁카트라이더
▁싼
▁캬
쓰구
이행
통신
하드
▁군체
▁내뿜
▁목과
▁몸소
▁배서
▁석주
▁알랭
▁완치
▁유허
▁음표
▁제호
▁청혼
▁흑해
프로스
▁288
▁302
▁공백기
▁다이요
▁드리블
▁레드불
▁목적물
▁비스듬
▁세라믹
▁스쿼드
▁옥천군
▁우에다
▁인텔리
▁전도사
▁헤이시
▁후보자
떡잎식물
▁1598
▁1823
▁갑오개혁
▁실증주의
▁자연환경
▁황소자리
ㅁㅏㅇㅊㅣㄴ
▁ㅎㅏㅂㅎㅏㄴ
사위
처치
▁낙성
▁도살
▁레빈
▁배격
▁아덴
▁아헨
▁왜관
▁천둥
▁킹덤
▁폐포
▁표식
▁피쉬
바르드
▁EXO
▁Lee
▁PCI
▁Sur
▁뉴타운
▁당진시
▁문화부
▁버팔로
▁사타케
▁생활비
▁아미르
▁횡성군
르크세스
축구연맹
▁1018
▁달마티아
▁자동차도
▁칼뱅주의
▁Child
▁ㄷㅡㄹㅇㅣ
▁대하드라마
▁크세르크세스
▁숍
▁젱
더넷
도치
롭스
헤르
▁ㅈㅠ
▁난류
▁레진
▁매점
▁매클
▁반승
▁서무
▁서프
▁영인
▁출원
▁친위
▁피폐
▁251
▁285
▁map
▁고케닌
▁메이든
▁무용수
▁반자동
▁베르토
▁소유스
▁아르투
▁아세안
▁이더넷
▁자연석
▁지상군
▁진달래
▁청양군
▁프로메
▁안드레스
▁크리슈나
ㅇㅗㄹㄹㅕ
▁춥
▁츨
ㄱㅐ
규어
글러
딩턴
코지
bit
▁JO
▁jp
▁개점
▁갤리
▁나눗
▁닥치
▁단형
▁동중
▁록과
▁목공
▁백기
▁석성
▁소호
▁오군
▁와의
▁위서
▁전우
▁전패
▁최현
▁홍가
ㄷㅡㅂ
스턴트
▁242
▁GSL
▁LNG
▁Val
▁겐로쿠
▁동래구
▁수개월
▁여행기
▁이고르
▁이나바
▁장수군
▁장애인
▁제곱근
▁판무관
▁확장자
▁mark
▁동부승지
▁분청사기
▁요시모토
▁Inter
▁스테인리스
▁에뮬레이터
▁ㅁㅗㄹㄹㅣㄴ
31
VF
▁궈
▁럿
▁LM
▁격납
▁뉴딜
▁뒤덮
▁론도
▁반디
▁삼색
▁쇼어
▁수크
▁스캐
▁신월
▁실기
▁쌍극
▁일찌
▁잎겨
▁적위
▁쾌거
▁태초
▁피복
▁580
▁나눗셈
▁복사본
▁불국사
▁성악가
▁유사시
▁처인구
▁총인구
▁털어놓
▁후이족
▁흥덕구
▁1689
▁1750
▁Last
▁Spec
▁주니어스
▁핼리팩스
▁헤이세이
▁호나우두
▁Party
▁이슬람교도
▁잎겨드랑이
▁ㅁㅜㄷㅎㅣㄴ
by
나디
mun
▁NR
▁고흐
▁광의
▁국조
▁금수
▁기거
▁농상
▁대보
▁로토
▁리전
▁말초
▁반부
▁반출
▁베텔
▁병상
▁생강
▁식욕
▁양키
▁요로
▁의창
▁접점
▁차고
▁참지
▁크렘
▁통달
▁희종
▁히든
▁히젠
ㅃㅏㅆ
다이스
절제사
soft
▁615
▁dis
▁ㄱㅜㄹ
▁니시노
▁디제이
▁메이스
▁목욕탕
▁베르겐
▁분당구
▁알렉상
▁장방형
▁전교조
▁존재감
▁쥐아과
▁협력자
▁구이저우
▁아칸소주
▁하세가와
▁style
▁National
▁넛
십리
▁CW
▁고배
▁공언
▁대운
▁도바
▁배위
▁손톱
▁수운
▁시추
▁식초
▁암행
▁앙겔
▁연의
▁예니
▁예지
▁용강
▁원죄
▁조양
▁촘촘
▁카산
▁컬럼
▁특질
▁해미
▁후금
나이더
베스트
사무소
ends
▁Cap
▁URL
▁곡성군
▁대축일
▁디오니
▁로이터
▁분류법
▁신천지
▁아쉬움
▁유리창
▁전화기
▁정의역
▁주택가
▁중립국
▁최고점
▁1774
▁뉴저지주
▁도치기현
▁바르바로
▁하토야마
▁해방전선
▁ㄲㅡㅌㄴㅏ
▁ㄱㅕㅁㅎㅏㄴ
96
▁뤽
구로
자매
▁-"
▁GA
▁당근
▁데빌
▁레테
▁막심
▁면책
▁부팅
▁빅스
▁사루
▁상형
▁샤토
▁시화
▁암묵
▁염분
▁우발
▁작풍
▁조도
▁지롱
▁집요
▁쪼개
▁충효
▁택배
▁해답
▁고이치
▁근위대
▁미라이
▁버추얼
▁법체계
▁상층부
▁신정부
▁역사관
▁오스본
▁퀘벡주
▁테일즈
▁틀림없
▁피터슨
▁한국사
▁마르코프
▁스타워즈
▁ㅃㅗㅂㅎㅕ
▁조로아스터
ms
분리
▁닫힌
▁리의
▁막사
▁샤흐
▁수각
▁슬립
▁시프
▁아커
▁악성
▁암각
▁이왕
▁이티
▁임직
▁차녀
▁창극
▁채찍
▁치프
▁캘러
▁캘리
▁평점
▁화형
▁후불
▁휴즈
▁흐리
빌리시
gram
▁403
▁JYP
▁Son
▁per
▁ㅁㅓㄹ
▁고기압
▁그라드
▁로그인
▁루치아
▁볼프스
▁성전환
▁세자빈
▁엄정화
▁윌리암
▁윤봉길
▁이기붕
▁지급시
▁카시니
▁커스텀
▁플라워
▁1603
▁간선도로
▁바이너리
▁이와쿠라
▁인스턴트
▁트빌리시
▁남해고속도로
▁테오도시우스
▁ㅎㅐㅆㅇㅓㅆㅇㅡ
▁륭
ㅍㅓ
장치
쿠프
틸라
lus
oon
▁CB
▁강주
▁강직
▁고슴
▁남사
▁단가
▁메흐
▁물망
▁박노
▁벤조
▁부토
▁비축
▁빈부
▁세심
▁숙적
▁아웅
▁오무
▁우바
▁원환
▁이쪽
▁재촉
▁정안
▁정윤
▁조스
▁주범
▁주영
▁천동
▁한가
▁혜종
arth
ould
▁ㅇㅏㅇ
▁고조부
▁도함수
▁미라클
▁상당구
▁아사노
▁알자스
▁종교인
▁집행부
예술종합
▁1617
▁Take
▁마르티노
▁베트남어
▁스테이크
▁올리비아
▁큰곰자리
▁color
▁ㅂㅏㄷㅊㅕ
▁북키프로스
예술종합학교
▁한국예술종합학교
델리
루치
▁각류
▁남우
▁보닌
▁부차
▁산골
▁삼지
▁생동
▁소의
▁연전
▁자강
▁장판
▁칭화
▁펜타
▁행의
▁호퍼
▁후부
의사당
▁252
▁295
▁add
▁교육법
▁대유행
▁라이플
▁세이지
▁소비량
▁신이치
▁알타이
▁적당히
▁트러스
▁헤르츠
ATION
▁1624
▁Come
▁고슴도치
▁기요모리
▁무하마드
▁아이치현
▁케이블카
▁크라쿠프
▁이케부쿠로
48
ki
로빈
막이
새우
츠카
펄스
▁HC
▁건재
▁곱하
▁교습
▁꿀벌
▁노장
▁루블
▁루체
▁어획
▁연원
▁윤정
▁중턱
▁진척
▁참회
▁츠나
▁트렉
▁할레
벌랜드
▁670
▁910
▁PHP
▁강북구
▁관리원
▁리에주
▁빨치산
▁사업장
▁야마나
▁에가와
▁응원가
▁최강전
▁커맨드
▁키르케
▁평가전
리니스트
▁Core
▁외무대신
▁요한네스
ㄱㅕㅆㅇㅡ
▁There
▁ㅇㅣㅁㅎㅐ
▁페르디난도
▁ㅂㅓㄹㅇㅣㄹ
▁바이올리니스트
yo
▁헵
몬테
바니
박해
소나
신경
임관
ISC
▁Oh
▁경련
▁과당
▁군축
▁남연
▁뇌전
▁대미
▁도굴
▁도수
▁벤트
▁보부
▁상좌
▁솅겐
▁수달
▁스베
▁여산
▁예스
▁오송
▁유마
▁종인
▁천일
▁통풍
▁풍년
▁하도
▁하진
▁행장
▁호군
rown
▁274
▁ITV
▁Que
▁ㅁㅓㄱ
▁갤러거
▁고품질
▁기술원
▁리간드
▁서태후
▁소대장
▁솔리드
▁유위법
▁제자리
▁Want
▁스나이퍼
▁액세서리
▁ㄷㅏㄷㅎㅕ
▁코네티컷주
▁ㅅㅓㄴㅎㅏㄴ
DC
▁잿
멜로
셔츠
흥사
▁가운
▁결산
▁경미
▁고심
▁골대
▁권상
▁김책
▁남정
▁네발
▁넬리
▁대모
▁석관
▁소백
▁슈리
▁시해
▁실학
▁악수
▁영변
▁예부
▁외측
▁육로
▁전립
▁차륜
▁청서
▁케미
▁협공
레이저
▁ㅍㅐㄴ
▁경전선
▁맞춤법
▁매카시
▁문경시
▁발원지
▁보험료
▁불러오
▁새마을
▁소문자
▁수용액
▁지대공
▁지부장
▁축구장
▁투성이
▁티라노
▁프리마
▁ㅇㅣㄺㅎ
▁나카야마
▁베네딕트
▁주체사상
▁중선거구
▁와카야마현
▁ㄱㅜㄷㅎㅕㅆ
▁ㄱㅝㄴㅎㅐㅆ
▁ㅁㅏㄴㅇㅡㄹ
UE
경사
발리
삼국
ada
▁IG
▁결절
▁광구
▁교행
▁도농
▁들려
▁바움
▁비가
▁스팸
▁실형
▁양립
▁유경
▁자마
▁진경
▁철조
▁코브
▁펀딩
▁편이
▁풍물
▁화차
사회당
▁248
▁Som
▁공고히
▁기흥구
▁데려가
▁무색계
▁문학관
▁발사기
▁신속히
▁에나쓰
▁에미넴
▁에번스
▁클레멘
▁킹스턴
▁트란실
▁후쿠치
▁Boys
▁Club
▁Park
▁아이러니
▁오리엔트
▁전기철도
▁팟캐스트
▁ㅂㅗㄴㄸㅓ
▁ㅅㅣㄴㅈㅣ
▁ㅇㅣㄱㅎㅕ
▁ㅎㅣㅁㄷㅡㄹ
▁볼프스부르크
▁트란실바니아
▁퀀
미도
▁*/
▁게티
▁금연
▁남중
▁내심
▁대격
▁대추
▁대호
▁라싸
▁리세
▁샬롯
▁이피
▁청해
▁최명
▁쿠즈
▁팽팽
▁품위
▁현세
망원경
▁USD
▁ㅈㅟㄹ
▁베르가
▁살인범
▁슈테판
▁오른팔
▁완전열
▁이용해
erson
▁스페인인
▁코스모스
ㄹㅏㅆㅇㅡ
▁국회의사당
▁독립선언서
▁ㅌㅡㄹㄹㅣㄴ
▁룹
대리
덕동
문예
웰스
▁각칙
▁감바
▁관보
▁글라
▁김무
▁대당
▁러쉬
▁레시
▁롬멜
▁린스
▁멸시
▁발하
▁밤낮
▁변절
▁분동
▁사행
▁샐리
▁수형
▁스나
▁실러
▁완고
▁장손
▁증득
▁체전
▁탐진
▁폐선
iano
▁308
▁346
▁ㅇㅓㄱ
▁경전차
▁그라스
▁로터리
▁매뉴얼
▁목적어
▁무한대
▁받침대
▁보건부
▁부유층
▁비너스
▁스테드
▁알버트
▁에라스
▁오라클
▁월간지
▁전용선
▁한양대
안토니오
▁1758
▁long
▁중성자별
▁Radio
▁ㅅㅗㄱㅇㅕ
▁ㅉㅣㄱㅎㅕ
ex
ㅍㅕ
레트
요스
lad
▁건원
▁도브
▁디미
▁또래
▁리암
▁민수
▁바주
▁박규
▁사암
▁산전
▁석고
▁신야
▁예브
▁예테
▁옹기
▁요는
▁익룡
▁자임
▁장문
▁포물
▁혈장
▁황진
클레어
iter
obal
ters
▁312
▁PSV
▁가만히
▁고아원
▁구치소
▁남북국
▁몬태나
▁미네랄
▁산토스
▁상행선
▁수없이
▁순서수
▁앞다리
▁이세민
▁축전기
▁컨버터
▁1650
▁2025
▁브레스트
▁슈퍼마켓
▁신춘문예
▁예테보리
긴스
노바
슨스
시기
총사
SQL
oul
▁국을
▁권속
▁나로
▁다녀
▁답사
▁랠프
▁변함
▁비결
▁산로
▁설파
▁신오
▁안지
▁정위
▁제제
▁최연
▁컬트
▁탈북
▁토와
ㄷㅚㄹ
드리치
리스크
스코샤
▁MiG
▁고령군
▁다방면
▁대공포
▁동급생
▁소화기
▁스플릿
▁아와지
▁오야마
▁인버터
▁채권법
▁최충헌
▁허벅지
▁훈련기
▁1080
▁절지동물
▁ㅇㅜㄹㄹㅕ
▁ㅇㅣㄹㄲㅏ
▁알렉상드르
46
물관
반응
아라
의지
토키
con
▁gl
▁기화
▁남침
▁당인
▁동고
▁레슨
▁사대
▁산모
▁속속
▁시파
▁심청
▁자포
▁조군
▁조음
▁청어
▁체형
▁318
▁und
▁구리시
▁달라붙
▁도시락
▁돌핀스
▁리버티
▁리어스
▁부총장
▁신고전
▁알바로
▁와이즈
▁요시마
▁이치카
▁제러미
▁톰프슨
▁화산재
▁회사법
▁1781
▁1786
▁NCAA
▁PROD
▁오리온스
▁우즈베크
▁처녀자리
▁ㄱㅕㄴㄷㅕ
▁ㅂㅏㄹㅁㅐ
▁노바스코샤
▁박스오피스
▁오카야마현
▁ㅈㅏㅁㄱㅡㅁ
LD
교구
대륙
돋움
라다
비지
예스
울림
참모
rib
▁RB
▁UM
▁가재
▁갇히
▁경동
▁고경
▁괴인
▁김이
▁미남
▁봉지
▁비나
▁비엘
▁성관
▁성무
▁성터
▁야훼
▁역내
▁외성
▁유탄
▁정영
▁청국
▁캄차
▁토속
▁파마
▁훌라
▁휘장
▁가드너
▁과천시
▁구속력
▁나무과
▁녹는점
▁라이어
▁서강대
▁스키장
▁승강기
▁아래층
▁아오키
▁장보고
▁재규어
▁직제학
▁코뿔소
▁temp
▁will
▁마이너스
▁아시아나
▁전륜구동
▁David
▁보수주의자
▁레트로바이러스
fer
▁개구
▁결방
▁관등
▁군포
▁권신
▁딱히
▁라만
▁순결
▁스도
▁십육
▁아길
▁알선
▁애들
▁에브
▁예절
▁임씨
▁종시
▁킬링
▁팬더
▁협소
▁회도
iful
▁241
▁269
▁276
▁299
▁490
▁OBS
▁TNT
▁감비아
▁구한말
▁도로망
▁드리스
▁법화경
▁부산항
▁상대편
▁수영복
▁시에나
▁아바타
▁조에쓰
▁체르노
▁함평군
▁헨더슨
▁형태학
▁회의실
▁휴식기
ember
▁1413
▁1506
▁Band
▁니시무라
▁드와이트
▁호그와트
▁ㅁㅏㅈㅇㅏ
▁안달루시아
▁입헌군주제
▁ㄱㅡㄱㅎㅏㄴ
▁아시아나항공
▁하우스도르프
▁께
다코
100
ube
▁기강
▁기우
▁동단
▁듀란
▁문익
▁물색
▁미정
▁배선
▁불공
▁상냥
▁서도
▁선망
▁순경
▁아고
▁자구
▁차갑
▁치욕
▁토륨
▁트릴
▁팔츠
▁하바
▁해달
▁헤밍
▁호앙
로니키
평장사
▁581
▁건축학
▁고려조
▁로페즈
▁모퉁이
▁바이크
▁사용법
▁사유지
▁샌더스
▁어쩌면
▁오두막
▁오타쿠
▁제니스
▁죄책감
▁지휘부
▁총면적
▁치타스
▁클로스
▁헌병대
▁청소년기
▁가이드라인
▁스프링필드
▁우주망원경
▁카보베르데
▁테살로니키
▁ㅈㅜㄹㅇㅣㄴ
35
렉틱
윳값
킹엄
▁==
▁강산
▁금은
▁노모
▁다빈
▁단맛
▁대남
▁류지
▁망고
▁백선
▁서수
▁슐츠
▁스푸
▁시지
▁초라
▁친부
▁타츠
▁태산
▁파테
▁포카
▁홀트
▁히가
▁Sal
▁고윳값
▁다가가
▁당상관
▁득표자
▁발돋움
▁보은군
▁볼츠만
▁사라왁
▁알레한
▁이상재
▁지요다
▁총연장
▁코브라
▁탈북자
▁표시기
▁하지메
▁흥천사
▁1618
▁1785
▁Mach
▁리얼리즘
▁마쓰마에
▁미네르바
▁심플렉틱
▁오디세이
▁차례차례
▁트리오스
▁에마누엘레
▁ㄴㅗㄹㄹㅏㅆ
▁루이지애나주
게티
사람
성사
숨에
▁JK
▁Kh
▁감도
▁강신
▁관작
▁교유
▁맞은
▁매키
▁베시
▁병용
▁석영
▁성소
▁셜리
▁신태
▁예르
▁위정
▁일소
▁입소
▁접두
▁첨사
▁퇴원
▁호자
▁회이
▁희석
▁258
▁970
▁GTX
▁고위직
▁단숨에
▁문제삼
▁바스티
▁사부로
▁서고트
▁스쿼시
▁신청서
▁아토스
▁지배력
▁철광석
▁파슨스
▁한라산
▁한자음
earch
▁독립신문
▁오세아니아
ㅋㅣ
벨리
열왕
이익
▁BA
▁Hy
▁공납
▁구진
▁김중
▁나경
▁넉넉
▁뒷산
▁방편
▁백호
▁번트
▁법명
▁분전
▁선례
▁신일
▁양곤
▁얼티
▁여제
▁용성
▁위례
▁유조
▁작정
▁재치
▁전상
▁전연
▁초속
▁퐁텐
▁허수
▁혈중
▁홀름
▁화질
가사키
리아나
izza
▁254
▁279
▁730
▁ㅈㅓㅁ
▁가창력
▁고위급
▁불출마
▁시구르
▁여행객
▁요시키
▁자유시
▁주고쿠
▁파도바
▁퍼블리
▁피난처
▁News
▁요구사항
▁파이낸셜
▁프레스코
▁플로렌스
▁히로히토
▁ㄷㅗㄷㅂㅗ
▁ㅎㅐㅇㅎㅏㄹ
▁자유민주연합
▁ㅌㅗㅇㅎㅏㄴㄷㅏ
ㅘㅆ
공연
호쿠
ift
▁GC
▁군법
▁군신
▁귀결
▁노런
▁대야
▁레기
▁비견
▁셰어
▁양말
▁왜건
▁요란
▁위층
▁일전
▁탁자
▁학산
▁행실
▁혈증
▁협시
▁후나
▁324
▁525
▁Ext
▁KNN
▁거듭나
▁나세르
▁다무라
▁메구미
▁버금가
▁사누키
▁생명력
▁수출품
▁오로치
▁체사레
▁편집인
▁필리포
▁1590
▁1614
▁라인란트
▁새마을호
▁서베를린
▁순회공연
▁슈베르트
▁시구르드
▁인류학자
▁폴란드어
▁필라멘트
▁형제자매
▁동음이의어
▁와일드카드
▁ㅇㅘㅆㅇㅓㅆ
▁동지중추부사
LO
체육
▁FP
▁TW
▁간과
▁강착
▁국책
▁금욕
▁단바
▁동초
▁목수
▁몸값
▁무연
▁미개
▁사에
▁선의
▁소질
▁송사
▁실세
▁어법
▁예매
▁오소
▁외주
▁유후
▁정법
▁정씨
▁조피
▁좌안
▁지마
▁폭정
폴리오
ache
▁cle
▁김장생
▁누에바
▁동화사
▁마그나
▁막대기
▁방화벽
▁사야카
▁삽입곡
▁승하차
▁오세훈
▁코시모
▁크누트
▁cent
▁text
▁도미니크
▁야마우치
▁Trans
▁ㄴㅗㄱㅇㅕ
▁ㄷㅗㄴㄷㅏ
▁PRODUC
▁ㅂㅣㄹㄹㅣㄴ
VB
시리
irc
▁가칭
▁강병
▁경조
▁관복
▁내막
▁랍비
▁로베
▁무례
▁변칙
▁서성
▁아귀
▁아전
▁연남
▁오븐
▁와타
▁왜소
▁정방
▁촉탁
▁행세
▁형량
▁화족
레이라
베르투
수수색
안데르
프스키
▁293
▁870
▁경유지
▁물리량
▁부득이
▁스콜라
▁신채호
▁영상물
▁장학생
▁칭하이
▁컴팩트
▁파이팅
▁행렬식
오세티야
▁0000
▁1609
▁NADP
▁압수수색
▁크레이지
▁트러스트
▁ㅍㅕㄹㅊㅣㄴㄷㅏ
UB
▁셍
딩거
버시
벡스
소닉
소총
양성
이다
ERT
INE
ets
uss
▁LE
▁ㅂㅚ
▁개창
▁굽타
▁망각
▁반스
▁병무
▁본연
▁비숍
▁썸머
▁엑셀
▁영묘
▁올슨
▁정가
▁조속
▁징조
▁출옥
▁코만
▁코언
▁폴스
▁피침
▁피폭
▁호안
▁황국
▁히에
ious
▁272
▁351
▁CSS
▁Del
▁JAP
▁Kid
▁maj
▁경비원
▁경의선
▁경찰대
▁네우스
▁병리학
▁사마소
▁선전관
▁성삼문
▁아카드
▁유프라
▁일개미
▁저고리
▁테라스
press
▁Mind
▁over
▁다이어트
▁로체스터
▁스키피오
▁왼손잡이
▁하치노헤
▁ㅌㅡㄹㅇㅓ
▁유프라테스
▁포트폴리오
▁ㅁㅗㅅㅎㅏㅁ
▁ㄴㅏㅁㄱㅣㄴㄷㅏ
pl
감치
레르
서관
조각
▁;-
▁OO
▁가다
▁각급
▁구포
▁꺼리
▁나돌
▁다낭
▁대천
▁라모
▁마호
▁만민
▁면밀
▁몸담
▁무속
▁믈라
▁베릴
▁상왕
▁섬진
▁소래
▁소상
▁수피
▁앰프
▁오너
▁유어
▁조재
▁회절
▁히키
ruct
ving
▁335
▁GPL
▁VfL
▁ㄹㅣㄴ
▁가마터
▁간쑤성
▁갈고리
▁게시물
▁노이드
▁다라니
▁동북아
▁맞은편
▁아담스
▁저격수
▁조리법
▁추징금
▁출신자
▁햄버거
▁흡혈귀
▁히로키
▁소프트볼
▁슈나이더
▁코카서스
▁Songs
▁ㅎㅡㄴㅊㅣ
▁남오세티야
▁페르디난드
SS
▁푀
네사
숙왕
실린
에프
청년
프먼
▁강계
▁난항
▁당해
▁대내
▁봉양
▁비보
▁셀틱
▁신교
▁알류
▁알스
▁에딘
▁위수
▁장계
▁장형
▁주보
▁중증
▁참파
▁천민
▁최병
▁한식
▁혼례
스토이
▁421
▁HBO
▁TBN
▁ㅅㅓㅇ
▁대륙성
▁돌출부
▁살라딘
▁생산품
▁아즈텍
▁엥겔스
▁위르겐
▁이그나
▁지배인
▁충숙왕
▁탐지기
▁투수진
다코타주
▁1718
▁공동묘지
▁미야모토
▁부분집합
▁IDOLM
▁ㅎㅐㅆㅇㅓ
보트
시나
sch
▁개울
▁경정
▁계측
▁극진
▁녹차
▁드골
▁몽테
▁문왕
▁문희
▁보필
▁비화
▁섞이
▁소바
▁숙이
▁아체
▁외르
▁유속
▁음대
▁이야
▁장어
▁장재
▁체가
▁탈린
▁통곡
야구장
ider
▁405
▁990
▁Fly
▁Mad
▁Say
▁내용물
▁들려주
▁디나르
▁미유키
▁밑바닥
▁변주곡
▁실내악
▁오마이
▁유제품
▁재처리
▁조만식
▁주모자
▁주유소
▁최익현
▁충실하
▁크리크
▁허가서
▁헤일리
▁Hard
▁Work
▁막내아들
▁요시마사
▁통근열차
▁티베트족
▁프레데릭
▁Count
▁ㅊㅣㅇㅎㅏㄴ
78
HA
▁긋
▁묀
110
▁격변
▁골반
▁국원
▁굴지
▁기염
▁남안
▁데브
▁명과
▁무종
▁미비
▁미연
▁박선
▁방주
▁부곡
▁삭과
▁산산
▁샌타
▁섭외
▁쇠락
▁외인
▁유류
▁유순
▁인덕
▁일회
▁임천
▁쟁의
▁정간
▁제소
▁제전
▁크립
▁타히
▁펄프
▁해골
▁히카
ㅅㅏㄹ
▁BGM
▁Lin
▁고유종
▁나오미
▁데이즈
▁부녀자
▁상공업
▁실학자
▁쏟아지
▁아이다
▁작업장
▁작용기
▁제닝스
▁폭발력
▁경국대전
▁군사령관
▁마사요시
▁시나가와
▁암행어사
▁애너하임
▁인문주의
▁ㄲㅡㄴㄷㅏ
ㅉㅣㄹㄹㅓㅆ
ga
ti
그란
동국
사슬
센테
팔트
호테
▁HN
▁TT
▁남평
▁노퍽
▁논어
▁루디
▁바가
▁볶음
▁부검
▁불쌍
▁석비
▁소꿉
▁수일
▁수해
▁신랄
▁아네
▁영릉
▁오더
▁오야
▁일문
▁장내
▁정이
▁채광
▁측선
▁코타
▁행크
▁황우
ㅊㅐㄴ
드로스
소수점
아비브
▁Dec
▁Mot
▁공대공
▁김좌진
▁딜레마
▁레베카
▁부교수
▁사리탑
▁수출국
▁순창군
▁옹호자
▁이산해
▁제라드
▁제철소
▁캔버라
▁콘트라
▁크로우
▁태양풍
▁포유류
▁화천군
▁히다카
cript
▁1050
▁백조자리
▁베이루트
▁지명타자
ㄹㅡㄴㄷㅔ
▁티베리우스
▁프라이버시
▁ㅇㅣㅁㅎㅐㅆ
ㅎㅔ
뭉치
여름
▁XL
▁군영
▁기문
▁김근
▁닐슨
▁단파
▁더러
▁된장
▁랩퍼
▁런닝
▁린지
▁마코
▁매상
▁문동
▁브룬
▁산천
▁상복
▁스맥
▁어구
▁어서
▁운트
▁임자
▁젊음
▁죄악
▁지의
▁징벌
▁창가
▁카푸
▁타령
▁항속
▁혈류
▁홍조
다코타
▁괴로움
▁다카오
▁사계절
▁성장기
▁세자르
▁순례자
▁식별자
▁신분증
▁아스투
▁애국자
▁유방암
▁자가용
▁챈들러
▁히데오
지느러미
▁두루마리
▁코먼웰스
▁텔아비브
▁하이패스
▁ㅇㅏㅍㅅㅓㅆ
▁아스투리아스
▁클라우디우스
▁롄
를리
뱅이
제도
충제
121
mus
▁고니
▁공증
▁권제
▁극본
▁니티
▁로터
▁변인
▁부성
▁사외
▁시전
▁심성
▁안영
▁양민
▁영당
▁위너
▁이여
▁중핵
▁쿠엔
▁쿠타
▁키티
▁터프
▁푸리
▁필러
▁험준
▁힐데
박물관
베이라
사이저
쿠츠크
▁도이치
▁마르스
▁봉은사
▁삼총사
▁운전석
▁좌익수
▁진출권
▁피오르
▁회의장
안데르탈
▁Feel
▁비행대대
▁사르트르
▁오이라트
▁유한회사
▁저스티스
▁중등학교
▁코르시카
▁네안데르탈
▁올림피아드
▁이르쿠츠크
▁넋
▁슝
▁강림
▁건수
▁구개
▁김관
▁노로
▁두근
▁라세
▁루마
▁버들
▁사동
▁삼청
▁손발
▁아악
▁야영
▁우계
▁잠식
▁전능
▁존자
▁직간
▁진저
▁타가
▁팍스
▁플립
▁항고
▁형세
▁혜공
▁홍종
▁황인
▁Max
▁갈아타
▁금천구
▁급성장
▁노래방
▁노하우
▁대장균
▁만토바
▁북극성
▁브렌트
▁세계사
▁아라시
▁지방선
▁파이크
▁수아레스
▁ㄱㅡㄹㄹㅓ
▁ㄴㅡㄹㄹㅣㄹ
▁긁
▁챕
아서
용수
카인
ola
▁감격
▁낙마
▁남위
▁다미
▁딜러
▁료마
▁명정
▁백서
▁서포
▁서핑
▁소연
▁야즈
▁양승
▁연약
▁영생
▁오파
▁운남
▁원부
▁이본
▁적설
▁조커
▁종중
▁주서
▁찬란
▁처소
▁투리
▁판과
▁풀러
▁필치
▁해식
▁허균
▁환대
대표제
르트헤
시아스
지원군
▁Cat
▁rem
▁드웨이
▁로스엔
▁말린스
▁산화제
▁신호기
▁아람어
▁에비스
▁엔리코
▁오랑캐
▁임산부
▁쟁탈전
▁조직법
▁캄차카
▁페넌트
bject
▁cont
▁글리세롤
▁선덕여왕
▁슬라브족
▁제곱미터
▁신시사이저
▁아방가르드
▁인민지원군
▁크라이슬러
▁팬터그래프
▁로스엔젤레스
▁솝
내면
애플
III
▁ㅎㅕ
▁갑사
▁공청
▁르비
▁모지
▁발성
▁베링
▁석패
▁숭상
▁엔도
▁위암
▁응징
▁자경
▁장량
▁집산
▁천보
▁철인
▁최유
▁출고
▁칠리
▁트이
▁판자
▁핍박
▁하로
▁환멸
▁흉년
ense
▁MBA
▁Mil
▁경마장
▁고니시
▁공화제
▁기계식
▁기계어
▁다빈치
▁다이시
▁다카다
▁덮개돌
▁무령왕
▁스크리
▁애국가
▁오모리
▁오티스
▁유행어
▁음모론
▁이바르
▁이시영
▁형태소
젠테이션
▁Only
▁JAPAN
▁듬
▁쌈
어마
조림
ray
▁BE
▁거버
▁공여
▁디모
▁래피
▁맹주
▁미공
▁분홍
▁섬인
▁성좌
▁송곳
▁어색
▁여느
▁의안
▁잠자
▁쥬얼
▁직급
▁착하
▁천궁
▁초유
▁초프
▁촌의
▁최루
▁타결
▁팬택
▁프랫
▁후렴
프레드
ular
▁WOR
▁김연아
▁깊숙이
▁노량진
▁번식기
▁뽑아내
▁사업단
▁앨릭스
▁영덕군
▁왈라비
▁이사국
▁지휘권
▁창업주
▁퀘이사
▁타카시
▁태양신
렌부르크
▁1644
▁메인보드
▁안토니우
▁일찌감치
▁테오도르
▁페르소나
▁퓰리처상
▁ㄸㅜㅀㄹㅕ
▁ㅈㅗㄹㄹㅏ
▁베스트팔렌
▁ㅂㅗㅇㅎㅐㅆ
▁Microsoft
은하
▁가경
▁군제
▁나물
▁뉴먼
▁마쿠
▁스지
▁시책
▁안사
▁앤티
▁어차
▁에러
▁염오
▁음정
▁천식
▁포그
▁향사
플라이
▁jpg
▁다이스
▁동해선
▁루브르
▁미니애
▁베릴륨
▁부수찬
▁수산업
▁영업소
▁작곡자
▁프로비
▁해파리
▁훈련원
ㄷㅎㅕㅆ
▁1648
▁끌어올리
▁봄바디어
▁손해배상
▁스맥다운
▁아스팔트
▁자유로이
▁후쿠야마
▁ㄱㅓㄹㄹㅓ
▁바르바로사
▁부동소수점
▁ㅁㅏㅈㅅㅓㄴ
▁미니애폴리스
▁딛
▁쎄
ㅋㅓ
내기
사드
ENT
ury
▁ll
▁가택
▁곤잘
▁공저
▁낭인
▁너클
▁랑고
▁무임
▁반다
▁번진
▁변국
▁본원
▁비음
▁서호
▁성리
▁셋쓰
▁에크
▁영접
▁영통
▁우구
▁우생
▁울버
▁웬디
▁인양
▁일로
▁자우
▁자자
▁장가
▁전야
▁초소
▁추돌
▁카슨
▁타타
▁Reg
▁Two
▁log
▁나탈리
▁대성공
▁디저트
▁묘지명
▁미쓰이
▁부시장
▁사무처
▁사우드
▁윌리스
▁전문점
▁피카르
▁햄스터
▁1637
▁글로리아
▁기독교도
▁윈체스터
▁체르노빌
▁Break
▁major
▁ㅅㅐㄱㄷㅏ
▁랑고바르드
▁바르톨로메
▁월스트리트
▁파라다이스
▁ㅁㅜㄲㅇㅣㄴ
GL
▁숏
▁탠
교사
귀족
러시
불화
포이
ily
put
▁go
▁모독
▁무이
▁문전
▁미도
▁반찬
▁백수
▁밴더
▁불그
▁사량
▁사만
▁송치
▁신통
▁심벌
▁악셀
▁예문
▁을과
▁조디
▁직영
▁참혹
▁타역
▁탈주
▁플란
▁학예
▁혜화
▁호황
▁268
▁780
▁각본상
▁다카기
▁덕수궁
▁따돌리
▁리아노
▁만하임
▁미워하
▁보르자
▁선댄스
▁세계인
▁쇼헤이
▁스토아
▁우편물
▁이마트
▁제물포
▁중원소
▁카라스
▁파킨슨
ㄲㅇㅕㅆ
지상주의
▁When
▁불가사의
▁에스메랄
▁에픽하이
▁초등학교
알데하이드
▁뉴멕시코주
▁덕흥대원군
▁클라우디오
▁패트리어트
▁Instit
▁Street
▁오클라호마주
▁늄
비트
IME
▁검지
▁광운
▁리도
▁만만
▁문산
▁반목
▁불빛
▁소천
▁시현
▁심양
▁아멘
▁원론
▁임수
▁적개
▁전분
▁조난
▁조쉬
▁종손
▁첨지
▁초성
▁최태
▁Key
▁NFL
▁one
▁ㄹㅗㄴ
▁경쟁사
▁노팅엄
▁대용량
▁보관소
▁사마시
▁사용량
▁샤프트
▁줄리안
▁창경궁
▁판매자
▁1605
▁Perf
▁셀룰로스
▁에밀리아
▁예브게니
▁인피니티
▁ㅇㅕㄴㄷㅏ
▁ㅈㅣㄹㅅㅜ
▁애들레이드
▁트리케라톱스
가족
공단
달라
차리
uch
▁Cy
▁Hi
▁거침
▁권기
▁딕슨
▁매국
▁밀직
▁빗대
▁생합
▁실례
▁야곱
▁어거
▁어와
▁여분
▁오행
▁육수
▁장윤
▁전계
▁지스
▁창호
▁쿠도
▁쿨라
▁퇴폐
▁포시
▁합주
▁홈스
아지에
edia
▁EFL
▁TOK
▁간간히
▁경공업
▁나치스
▁노리오
▁메시아
▁스폰지
▁여단장
▁웨이드
▁피터스
▁행선지
숭록대부
타르코스
▁FIBA
▁Here
▁브레이커
▁신증동국
▁신해혁명
▁자유자재
▁카타리나
▁ㅈㅏㄹㄹㅕ
▁샌안토니오
▁지중추부사
▁신증동국여지승람
▁옻
나귀
벤토
웨인
턴트
ula
▁KA
▁MF
▁감실
▁고법
▁디노
▁매그
▁배쪽
▁사투
▁여공
▁오웰
▁재검
▁점근
▁추크
▁친자
▁켄지
▁트롬
▁협성
▁회심
글로빈
네이도
▁284
▁Hel
▁구세주
▁단단히
▁도리아
▁마키노
▁못지않
▁살인죄
▁시황제
▁응답자
▁의열단
▁인제군
▁집무실
▁카르텔
▁카자크
▁칵테일
▁하시바
▁하이트
▁호치민
▁후원금
▁히카루
▁동물학자
▁베네벤토
▁슈뢰딩거
▁연합뉴스
▁토네이도
▁현대그룹
▁라부아지에
▁워크래프트
▁넌
궐기
배기
순환
잔디
전지
참배
oot
une
▁각주
▁계위
▁꼭지
▁네로
▁니조
▁동광
▁라멘
▁랑선
▁분고
▁빼내
▁산역
▁스오
▁앉히
▁알트
▁열흘
▁장산
▁칼데
▁템스
▁하북
▁화포
▁힐드
스티니
▁259
▁475
▁AAA
▁공급자
▁과수원
▁김덕령
▁니시오
▁다녀오
▁마찰음
▁뭄바이
▁서정시
▁쌍극자
▁이심률
▁총궐기
▁키치너
▁폭풍우
▁고해상도
▁메가데스
▁베르베르
▁사라고사
▁세르히오
▁신사참배
▁조선귀족
르트헤이트
▁라디오헤드
▁ㅁㅏㅈㅊㅝㅆ
▁아파르트헤이트
SA
go
바루
사건
지도
치현
하탄
후보
ICA
▁걸림
▁난동
▁덩이
▁메클
▁보른
▁사오
▁샤워
▁소거
▁속리
▁위관
▁윤기
▁이신
▁장한
▁재계
▁재연
▁제하
▁지노
▁처사
▁초저
▁총열
▁치치
▁카티
▁튜더
▁호노
▁흑룡
▁흑점
ㄴㅕㅇ
▁261
▁707
▁Bet
▁ㅁㅐㄴ
▁그림책
▁나카쓰
▁네이선
▁다코타
▁바누아
▁사이비
▁상속자
▁심상정
▁울리히
▁현대인
자치단체
▁Some
▁
▃
⊸
ㅇ
ㄴ
ㅡ
ㅏ
ㄹ
ㄷ
ㅗ
ㄱ
ㅔ
.
ㅓ
이
ㅣ
ㅢ
ㅎ
ㅆ
하
,
ㅕ
1
ㅅ
ㅐ
0
사
리
ㅁ
스
2
시
지
대
기
ㅘ
년
ㅈ
있
수
자
일
전
아
그
가
국
되
정
9
주
제
인
도
부
들
성
장
구
상
적
동
로
나
3
라
원
공
다
선
트
ㅂ
ㅜ
드
마
5
중
조
4
한
8
화
월
경
우
미
고
학
소
교
유
비
어
위
르
6
오
신
세
ㅚ
보
의
문
7
개
치
계
명
역
회
연
서
후
등
것
영
관
용
프
모
발
군
산
"
작
무
ㅌ
민
방
단
레
재
당
타
e
카
여
니
해
음
크
러
반
분
a
안
포
만
체
바
생
차
행
진
간
호
식
o
노
거
파
현
t
남
내
과
양
'
r
출
본
통
물
종
요
m
때
ㄲ
실
토
속
l
임
결
형
두
코
터
설
표
데
강
i
키
-
히
각
루
법
초
디
운
승
n
업
독
에
배
함
ㅊ
직
래
입
S
력
건
버
A
점
합
피
최
예
또
번
C
않
야
매
티
태
천
같
권
ㅋ
베
받
ㅟ
브
불
약
메
왕
면
목
말
u
격
립
록
s
판
감
투
심
더
금
청
추
북
항
활
없
평
ㄸ
네
외
집
특
언
즈
저
석
테
복
편
달
T
병
류
F
광
른
향
령
처
B
변
M
족
페
게
I
근
황
란
축
람
급
총
존
송
랑
열
많
c
름
능
김
술
론
박
참
질
철
쪽
f
g
별
D
준
환
증
및
악
창
ㅑ
울
알
P
품
E
;
절
살
육
곡
료
쿠
백
d
h
플
은
애
순
&
필
망
량
확
글
림
께
팀
규
머
N
색
극
탈
쟁
케
범
)
패
클
련
견
k
O
삼
올
L
랜
탄
와
R
ㅝ
충
째
려
쓰
K
린
너
손
막
책
p
_
완
G
봉
츠
(
협
날
션
V
접
돌
뒤
퍼
런
블
는
/
담
골
채
밀
측
혼
온
녀
ㅍ
럽
든
즌
험
암
곳
H
귀
할
찰
따
U
길
앙
[
y
취
]
씨
웨
첫
슈
워
새
뉴
친
슬
누
습
허
침
효
:
칭
획
널
뜻
높
응
난
착
락
엔
커
센
례
폭
검
징
~
b
죽
희
득
픽
농
헌
논
엘
캐
홍
벌
섬
틀
퇴
풍
폴
갈
잡
%
좌
택
층
W
폐
싱
압
움
념
헤
덕
즉
윤
혁
턴
율
슨
릭
ㅙ
못
텔
맡
익
염
찬
v
램
묘
컵
벨
얼
콘
링
궁
맹
렌
잘
균
몇
흥
훈
앨
억
객
끝
ㅃ
앞
옥
칼
빌
을
칸
먼
델
느
휘
콜
얻
빈
늘
엄
맞
맥
팔
J
쇼
숙
갖
푸
뷔
괴
줄
샤
핵
좋
w
볼
템
X
흐
률
컴
탑
액
쥐
룹
혹
욕
굴
롯
십
덴
칙
죄
몬
ㄺ
잠
촌
벽
척
갑
몸
략
잉
졸
몰
렉
핀
벤
맨
휴
먹
틴
몽
넘
!
잔
녹
홈
찾
뮤
컬
폰
끌
던
눈
힘
렇
털
륙
밴
놓
탁
둘
탕
혜
멸
끼
솔
톤
풀
Y
x
홀
혈
윈
팅
넷
셀
돈
컨
쿄
뿐
텐
를
둥
롤
탐
낮
톨
님
퓨
겸
딸
헨
럼
꾸
욱
촉
칠
곤
낙
콩
떤
앤
꽃
릴
펜
걸
밖
랙
왜
뇌
렬
겨
붕
읍
=
킹
옹
튜
넓
싸
덜
섭
융
붙
윌
춘
셔
슷
ㅛ
젤
듬
헬
닝
넣
흑
챔
땅
쌍
딩
빛
곧
멘
켓
즘
빠
팬
큐
답
쇄
멤
룡
듀
릉
롭
짓
밤
닉
웅
렵
뢰
ㄻ
뛰
값
떠
흔
깨
옛
튼
랭
흡
닌
납
씩
놀
롱
젠
랫
젝
맺
숭
겐
쉽
궤
z
펠
쉬
멜
빙
섯
+
웹
깊
핑
캠
|
웃
멀
킨
밍
셰
틱
꼬
으
닥
ㅉ
짜
빅
텍
밝
믿
뷰
까
긴
잇
덤
잎
냐
잃
찍
틸
멕
럭
엽
롬
쇠
뀌
짧
폼
삭
켈
릿
첨
끄
곱
혐
Z
랍
켄
?
낭
삶
겪
딘
촬
럴
캘
힐
숨
Q
컷
콤
옆
둔
밑
첩
곽
젊
낳
셜
싶
짐
킬
옷
냥
꿈
헝
룩
큼
냉
닛
뉘
듣
톱
엑
왼
믹
븐
퀴
맛
빨
벡
즐
띠
읽
숲
얀
ㅠ
잭
봄
쿨
혀
셋
샌
뱅
묵
뒷
닐
캄
랄
괄
엇
넬
엠
붉
둑
웰
좀
첼
슴
늄
밥
튀
씬
톰
앵
떻
탱
팩
픈
듯
뤼
팽
녕
뱀
숫
떨
늬
뜨
짝
j
렐
댄
캔
셈
렴
쌓
빼
쾌
찌
옌
훨
륨
팝
춤
겔
횡
끊
뿌
샘
앗
갤
렘
룸
덩
뼈
꼭
벼
흉
늦
륜
햄
룬
봇
펙
뚜
멍
깔
딕
윗
탠
앉
퀸
랩
좁
깃
륭
딜
퀘
힌
므
궐
첸
쿼
벗
흘
윙
슐
뮌
삽
q
홋
셉
긍
펄
렛
펑
흰
꼴
빗
쌀
훗
훌
툰
*
녁
렀
듭
닫
꺾
넥
돔
펀
끔
\
밭
깥
덮
섹
곰
셸
돕
빵
낌
묻
닷
뽑
콧
툴
톡
쳐
똑
갱
깝
훼
딱
뿔
팡
{
늑
풋
닭
킷
띄
콰
콕
맷
컫
꼽
핸
콥
힙
흙
룽
쫓
룰
뮬
핫
껍
킴
묶
꾼
넌
벳
킥
밸
돼
큰
쏘
굿
겉
져
굽
턱
엉
겁
며
럿
펼
샹
왈
퉁
빚
홉
캡
틈
탓
떼
렷
ㅀ
눅
닮
뻗
겹
옮
샬
쯤
쑤
꺼
붓
끈
릇
릎
굉
듈
쉐
옵
랴
칩
앱
뇨
웬
닿
놈
툼
퐁
펴
쩌
낱
슘
굳
푼
챌
흠
걷
삿
갓
톈
쥬
쓸
딴
젖
엣
쿤
펌
섞
쯔
싫
#
넨
걱
팜
륵
옐
솜
댐
얄
덟
짙
렁
탤
멈
$
얇
떡
뚫
굵
헐
핍
덱
솟
텀
뚝
둠
밟
맵
쁘
댓
얘
맘
캉
옴
밋
ㅖ
괘
햇
촨
빔
꽤
왓
펫
픔
앓
횟
슭
잦
싯
벵
멧
}
벅
휠
꿀
붐
짱
긋
돋
팟
헥
냄
잊
켜
덧
샨
츄
ㄼ
씀
땃
ㄶ
죠
ㅄ
튬
곶
맑
쏟
곁
`
몫
낫
텝
걀
팍
맏
닦
ㅞ
옳
뭇
캅
윅
끗
꾀
멋
엥
쟈
랏
슛
쭉
앰
뱃
눌
팰
얹
핏
깎
듐
뭉
믈
깐
끓
캣
뚱
볍
훙
귤
넛
촐
숀
쾰
귄
낚
섀
쿡
썬
렝
@
뫼
뻔
욘
뭄
찮
탬
뾰
푹
셴
갯
뮈
얕
엮
녜
싣
딥
샐
돗
싹
웍
줌
렙
헛
휩
낸
펩
늙
딧
삐
탭
슌
쾨
훔
샵
볶
깜
뇽
펭
갚
꽝
써
촛
껏
퀼
췌
몹
냅
늪
큘
괌
즙
깁
짖
츰
짚
숍
쿰
엡
맬
롄
훤
룻
퓌
빽
썩
넉
핼
쁨
뮐
꽂
젯
잼
뜸
쵸
잣
퀄
똥
뿜
촘
벚
뭐
슝
뤄
팻
샴
샷
엿
릅
씻
벙
퓰
껑
밧
젓
멩
땀
궈
켐
욤
댈
괜
둡
튠
뻐
텅
츨
윽
낡
댕
뽀
킵
깅
꼼
뇰
썰
캇
멱
뎀
퀀
좡
밈
^
쑹
랠
뜯
뜰
챠
팎
뮴
헴
엌
딤
맴
웜
쿵
썸
팥
캥
뱌
칫
뵈
왁
꽁
챙
굶
솥
ㄵ
댁
쑨
윔
갸
챈
옙
찢
쉘
뎅
훅
쐐
젬
쪼
퍽
얌
앳
넴
덥
쉰
꿰
욜
씌
딪
칵
뽕
깡
돛
콴
쥘
툭
쑥
눔
놉
힉
쩍
찻
찜
룀
웁
팁
캬
옅
늠
흩
볕
뺨
엎
읊
얽
겟
썹
샛
쭈
넵
팸
쉴
븀
퀵
숄
쉼
엷
횃
쨌
텡
핌
딛
젼
쌈
웸
펨
꿇
웡
뺏
힝
텃
춧
눕
텟
튿
씹
싼
된
땡
씽
댑
봅
깍
휼
뻘
눗
꽉
솅
랗
쎄
뱉
꺽
냇
솝
홑
폄
갠
뎃
뎬
뤽
윳
쥔
귈
켤
꼰
젱
됭
뢴
숯
쭤
륀
뜩
꿩
찹
갇
쩡
텁
숏
탸
줍
춥
륄
잿
푀
헵
맙
컹
꿉
셍
볜
잖
볏
짤
묄
묀
랸
쏠
넋
얏
긁
챕
땜
굼
낵
빡
옻
흄
녘
첵
좇
껌
몯
헹
햐
뷸
꿋
냑
놋
밌
얗
짠
줏
쩐
챗
갬
짬
뻣
셤
핥
탯
쥰
쳇
썽
툇
됨
쌔
탉
쟝
똘
넝
눙
덫
낯
갭
겜
닙
쿱
넙
췬
괭
젭
ㅒ
쭝
훠
쇤
쨩
쓴
뷜
귓
솽
콸
튤
꾹
닳
긱
찔
앎
뽐
윕
헷
폿
헉
껴
벰
뜬
쏙
몐
궂
팹
셩
욧
깟
햅
돤
늉
찐
펍
쳅
톳
괵
뷴
숟
뗏
섣
숑
왑
믐
잰
푈
끽
뵐
솁
쳄
겅
닻
듄
쁠
쥴
왐
긔
톄
힛
먀
꿍
갉
맣
짊
쬐
꼿
샥
욥
묽
넹
챤
칡
뻑
샅
쩨
쳉
놔
뺄
뺑
웩
껀
셧
뵤
켁
퓸
죤
휨
뭍
륌
꽈
왠
껫
쭐
줘
떳
섐
갛
뎁
쫄
댜
됴
뚤
팃
낼
빳
뻬
휫
쾡
빻
윰
윷
쾅
퍄
땔
틋
뜀
츤
녓
둬
뢸
솀
켕
섕
씁
홰
믄
웻
잽
찧
퉈
쫑
냘
뵙
냠
멎
좨
퀜
껄
쉔
퓔
녠
웽
켠
깻
띵
짼
꽌
빤
둣
뵘
쩔
햘
쟌
튈
뼛
밉
졍
쯩
뷧
빕
쉥
쿈
깽
쏭
꿔
쇳
얍
겊
뎨
땋
홧
졔
짭
뱁
꽹
먄
롼
섶
쿳
멥
옘
젋
줴
틍
혓
삯
숱
훑
헙
겼
듸
뻥
궬
똔
쭌
뒬
쌩
켑
찡
묠
삵
읏
쫒
붑
찟
푄
낟
룅
룔
씰
낏
봐
뷘
뿍
쳔
큅
큔
씸
뎐
깬
뒹
띤
묜
쏴
녤
떫
뚬
었
튕
쑈
엾
틔
굄
뇬
뽁
숩
읫
폽
쏨
젹
쇽
큄
툐
툠
갗
겡
벋
쉿
뉼
닢
츈
컥
쮸
툽
듦
똠
횔
얉
갔
뿡
낄
졈
숴
귬
룝
퇘
퇼
믜
뱐
퓐
빰
쌤
툉
푯
섄
쏜
졀
짢
펏
뒨
뽈
솎
옝
쯕
촙
띔
밂
쇨
좆
륑
벱
큉
뮨
싀
쾃
틂
궉
셱
숌
슥
갹
웠
튄
낀
낑
넒
쐬
캑
짇
덞
떵
짦
큇
녯
옇
욀
츳
캴
텨
뭔
뱡
였
훵
뗀
삥
얭
뵬
뼉
쌕
쨍
덛
붇
뿅
샾
쓱
쨋
쩜
퀠
틉
꾐
묑
뺌
쌉
썻
옭
왔
죈
죌
퇀
푁
햏
끙
뚠
횬
휙
껩
뎡
몌
춰
ㄾ
귿
됸
딨
땝
맟
묏
벧
볘
븓
븡
잌
젔
쫀
쳥
캰
쿌
큥
꿎
냔
븨
샙
웟
푤
흭
걔
겋
곪
랖
솃
쉑
곗
랼
뼘
솨
앏
윾
굠
떰
쏸
왬
챵
긷
놘
돝
똣
랐
싁
졉
텬
ㄿ
꺅
뤠
슙
읒
잴
쳬
쳰
걍
겍
꾜
륍
슉
큭
킁
퇸
퍌
킈
궃
덖
릐
멓
밞
섈
쉭
쌋
짹
춉
췐
곬
굣
귁
귐
꽥
끎
녈
닑
닯
엳
읗
쟉
좐
죗
챨
쿽
탼
풰
겯
냣
됙
뜷
롹
몆
밎
뱟
뽄
삑
췰
츌
했
햔
뀨
뉵
뉸
댠
믯
붸
쀼
쌰
았
옯
읕
읖
졌
찿
켸
흗
ㄳ
괸
궨
녬
늡
뎌
듕
똬
뭣
솬
슯
읻
쟤
죡
쵤
춍
튐
핬
햑
혠
훕
긑
늴
댱
돐
먁
셕
셥
왝
윁
읔
쥣
즁
쫌
퍈
휀
겝
괼
뇩
뒴
떱
룟
왱
좃
즛
쨈
쨔
쪄
쫙
찝
쾍
튱
틑
굘
꿘
뀍
녑
됀
묫
믕
섰
쎌
읓
졘
쳡
햣
궜
낢
녔
밪
볓
뺀
삘
슾
옉
짯
쩬
쮠
챡
캪
텽
걲
겻
뙈
뚧
륏
륩
벛
앝
엹
읃
잍
잛
쭘
쯧
촤
퀑
큠
튁
푠
횐

꺄
꼍
뇸
뉙
뙤
뜽
뢱
밷
뻰
삔
솓
썅
쎅
쒸
욺
윱
촹
츔
퀌
턔
풂
햠
휜
ㄽ
겇
꼳
눞
늣
딫
땐
맻
맽
뱔
섁
슁
엤
왹
욍
읜
읺
짫
첬
츼
픙
곯
귑
껸
꽛
눼
닏
뎜
듧
묭
묾
뵨
븜
빋
빱
뺐
뺘
쁜
삳
얶
엊
옜
왯
욷
읠
졋
죔
쨘
쭙
쮜
켯
콀
쾬
쿙
푕
휭
갣
겿
꿕
낻
뉻
닸
덪
돟
될
둗
듁
땟
띡
띨
랬
렫
렸
롐
룐
멉
벴
쌘
쏫
얆
얾
욋
웤
잏
잗
쫏
챰
쳑
컁
켬
콱
큽
탘
퍙
픠
햤
횻
곂
곈
곷
괏
깯
깸
꾿
넗
뉨
늗
닜
닺
됩
땁
땨
땸
떄
뙡
뚯
랟
럇
룁
몃
뭏
볻
봔
븍
뺴
뻴
섥
섿
슽
쌴
씼
엶
옫
옸
쟐
좔
짔
쩝
쬼
쯘
챱
촥
쵹
쵼
춋
쾀
톺
톼
퐝
혤
훽
걈
겆
곙
굥
깆
깩
꽅
꽆
꾕
넀
넢
넫
녇
닽
댛
덨
뎰
됫
뗑
럄
롸
뢨
먈
멂
몔
뫃
뮹
믓
믾
뷁
빝
샇
쇵
싻
쎙
쑜
욈
읆
쟂
쟙
젇
쩽
찓
쳘
쳣
춈
츅
츙
콛
콬
퀍
탙
텦
툿
튽
폘
햗
헿
홥
횰
횽
휑
흝
흫
힁
갂
갘
걑
걺
곌
괂
깉
꺠
껭
껶
꽦
꾄
뀀
났
넖
녣
놰
뇻
늇
덝
뎍
뎦
돴
됄
됮
둄
뒸
듫
떽
뗴
띱
럅
렢
롈
뤀
뤗
륻
몄
뫄
밣
붘
뷕
븥
빎
뽓
뿟
삠
삡
삮
샏
섓
셖
솦
솻
쇘
숰
숳
쉉
쉡
쎔
쓔
앟
앧
얖
엜
엵
욌
욯
윶
읭
읳
읹
쟘
졜
졷
좽
쥠
쩄
쩰
쫜
쬔
쬬
찣
챦
쵝
츕
츩
콮
툥
튝
푱
풉
퓬
핟
핮
핶
핻
홛
홤
홱
횄
횩
훍
훓
훝
흿
갃
걋
겂
겣
곅
곘
굑
굔
궅
귝
깂
깢
깹
껙
껼
꼇
꼐
꽐
꿏
끕
냡
넎
넡
넶
녝
뇔
뉫
늚
댤
덣
뎠
돎
돚
돵
돽
됏
둰
둿
뒁
뒥
뒫
듥
딷
뗌
뗘
똫
뙨
뛔
뜌
띳
랒
럐
럔
렜
렡
롑
롓
뤌
맄
맆
맜
먗
먿
몀
몴
뫙
뭅
뭘
뭰
뮝
믏
믠
밒
밨
밫
밯
뱆
뱜
벉
봍
봘
뵉
뵷
붏
붖
붛
붜
붴
뷋
뺩
뺵
뼁
뼤
삣
삻
샂
샊
섦
셑
쇗
숡
숸
슼
싈
싰
싲
싾
쎕
쎴
쏩
쏱
쏳
쐇
쑴
쒜
쓿
씃
씉
앃
앋
얅
얺
엩
옄
옰
옲
옺
왰
윘
윟
읅
읶
읿
잋
잩
젣
젿
죰
죵
줓
줫
쥭
즤
짗
쨉
쩸
쫃
쫍
춴
췅
칲
칳
캌
캭
컈
켙
콙
퀏
킼
턀
텉
텥
톹
퇌
퇻
퉤
틧
팈
팯
퍅
퍠
폅
폔
폳
퐈
푣
풜
핔
핳
햊
햋
혔
혿
홅
홯
횓
횢
휄
휏
힜
갅
갆
갊
갋
갌
갍
갎
갏
갞
갟
갡
갢
갥
갦
갧
갨
갩
갪
갫
갮
갰
갲
갳
갴
갵
갶
갷
갺
갻
갽
갾
갿
걁
걂
걃
걄
걅
걆
걇
걉
걊
걌
걎
걏
걐
걒
걓
걕
걖
걗
걙
걚
걛
걝
걞
걟
걠
걡
걢
걣
걤
걥
걦
걧
걨
걩
걪
걫
걬
걭
걮
걯
걳
걵
걶
걹
걻
걼
걽
걾
걿
겈
겎
겏
겑
겒
겓
겕
겖
겘
겙
겚
겛
겞
겢
겤
겥
겦
겧
겫
겭
겮
겱
겲
겳
겴
겵
겶
겷
겺
겾
곀
곃
곆
곇
곉
곊
곋
곍
곎
곏
곐
곑
곒
곓
곔
곕
곖
곚
곛
곜
곝
곲
곹
곺
괁
괍
괕
괗
괠
굇
굦
굻
궇
궎
궘
궝
궡
궷
귯
긆
긜
긧
긪
긾
깄
깋
깓
깖
꺌
껠
껬
꼈
꼮
꾈
꿧
뀜
끟
낛
낣
낲
냤
넁
넏
넑
넚
넞
녋
녙
놃
놧
놩
뇍
뇓
뇜
눋
눝
뉩
늅
늏
늕
늩
늰
늿
닁
닞
닟
닠
댇
댔
댚
댝
댸
덙
덯
뎗
뎝
돇
돍
돓
돰
됍
됢
됰
됼
둉
둏
둙
둚
둟
둧
둴
뒵
듲
듳
듹
듼
딀
딈
딭
딯
딲
땍
땽
떘
떙
떢
떥
떦
떪
떯
뗄
뗼
뚷
뚸
뚼
뜁
띁
띅
랃
랓
랕
랛
랢
랰
랲
럈
럘
럻
렃
렆
렗
렠
렣
롣
롲
뢀
뢉
룍
룧
룯
뤈
뤘
뤨
뤰
뤳
뤵
륐
륫
륱
륽
릌
릍
릏
릘
릫
릳
맀
맃
맊
맍
맔
맕
맗
맠
맢
먓
먕
먘
먾
멏
멪
멵
몊
몪
뫂
뫈
뫔
묺
뭌
뭬
뭴
믁
밚
밠
밬
뱍
뱓
벏
벐
벓
벹
볃
볈
볿
봋
봌
봣
봥
뵛
뵝
붊
붔
붠
붵
뷀
뷃
뷤
븃
븕
븝
븟
빍
빧
빩
뺙
뺬
뺸
뺼
뻠
뻡
뻤
뻩
뻼
뽝
뿗
뿝
쀍
쁭
삜
샆
샞
섊
섡
섧
섨
섵
섷
셒
솏
솑
쇡
쇰
숔
숖
숮
쉅
쉠
슢
슦
슳
싄
싡
싦
싪
싵
싿
쌁
썊
썪
쎗
쎼
쎾
쐉
쐑
쐼
쑷
쓘
씜
앀
앆
앖
앚
앛
앹
앾
얂
얃
얊
얜
얨
엗
엪
옂
옏
옽
옾
왘
왙
왤
왿
욨
욽
욿
웆
웇
웑
웝
윋
윥
읂
읇
읋
읐
읙
읟
읷
잂
잆
잙
잚
잧
잨
쟃
쟇
쟬
젃
젆
젏
젗
젲
젵
졩
졶
좧
죕
죳
줃
줜
줼
쥉
쥤
쥥
쥼
쥿
즑
즞
짎
짛
짥
쨜
쨤
쩟
쩩
쩹
쩻
쪗
쪤
쫗
쫘
쭁
찯
챂
첟
첯
첲
쳠
쳤
촏
촣
쵀
쵣
춛
춝
춟
춭
췍
췡
췩
췽
츹
칯
칱
캎
캿
컅
컺
켰
켱
켼
콭
쾁
쾩
쾻
쾽
쿸
쿹
퀩
퀫
큎
큣
큹
킄
킌
킽
탇
탣
탶
턚
텛
텤
텰
텸
텻
텼
툅
툘
툱
퉜
튭
튻
틜
틩
팉
팑
팠
팤
팦
퍁
펲
폏
폶
퐃
퐅
퐌
퐷
푓
푝
픅
픝
픞
핃
핓
핝
핞
핢
핦
핧
