▁▃ -0
▁ㅇ -1
▁ㅇㅡ -2
▁하 -3
▁. -4
ㄷㅏ -5
▁ㅇㅔ -6
▁⊸ -7
▁⊸⊸ -8
▁ㄱ -9
▁이 -10
ㅡㄴ -11
ㄴㅡㄴ -12
▁ㄷㅏ -13
▁ㅇㅢ -14
▁ㄴㅡㄴ -15
▁ㄹ -16
▁, -17
▁ㅇㅡㄹ -18
▁ㅇㅓ -19
▁ㅇㅏ -20
▁ㅇㅡㄴ -21
▁1 -22
ㅅㅓ -23
▁되 -24
▁ㅇㅣ -25
ㅡㄹ -26
▁ㄹㅡㄹ -27
▁ㅇㅓㅆ -28
▁년 -29
▁ㄱㅗ -30
ㄹㅗ -31
▁2 -32
▁있 -33
▁대 -34
▁ㅇㅏㅆ -35
▁ㄹㅗ -36
▁ㄱㅏ -37
▁사 -38
▁지 -39
▁그 -40
ㅁㅕ -41
▁시 -42
▁일 -43
▁ㄷ -44
▁ㅇㅕ -45
ㄴㄷㅏ -46
▁들 -47
▁ㄱㅘ -48
▁가 -49
▁수 -50
▁기 -51
▁전 -52
ㅈㅣ -53
▁적 -54
▁아 -55
▁20 -56
▁ㅇㅘ -57
▁ㄷㅗ -58
▁월 -59
▁주 -60
▁제 -61
▁19 -62
▁다 -63
▁ㅁㅕ -64
▁정 -65
▁자 -66
▁중 -67
▁위 -68
▁인 -69
▁ㅇㅕㅆ -70
▁공 -71
▁보 -72
▁경 -73
▁개 -74
▁세 -75
▁것 -76
▁ㅈㅣ -77
▁부 -78
▁ㄹㅏ -79
▁ㄱㅣ -80
▁유 -81
▁오 -82
▁3 -83
▁조 -84
▁" -85
▁나 -86
▁선 -87
▁스 -88
▁등 -89
▁성 -90
▁ㄱㅔ -91
▁미 -92
▁연 -93
▁동 -94
▁마 -95
▁상 -96
▁소 -97
▁한 -98
▁모 -99
▁고 -100
▁구 -101
▁비 -102
▁의 -103
▁영 -104
▁국 -105
▁도 -106
ㄴㅏ -107
▁발 -108
ㄱㅗ -109
▁여 -110
▁201 -111
▁서 -112
▁' -113
ㅁㅏ -114
▁4 -115
▁관 -116
▁후 -117
▁명 -118
▁신 -119
ㅁㅏㄴ -120
▁프 -121
▁만 -122
▁5 -123
▁역 -124
▁때 -125
▁ㅁㅕㄴ -126
▁200 -127
▁- -128
▁장 -129
▁방 -130
▁ㄷㅓ -131
▁교 -132
▁ㄷㅓㄴ -133
▁바 -134
▁문 -135
▁리 -136
▁해 -137
▁차 -138
▁내 -139
▁생 -140
▁무 -141
ㅌㅓ -142
ㅂㅜ -143
▁당 -144
▁우 -145
▁원 -146
▁통 -147
▁현 -148
▁계 -149
▁분 -150
▁남 -151
▁노 -152
▁군 -153
▁포 -154
▁어 -155
▁화 -156
▁6 -157
▁학 -158
▁또 -159
▁거 -160
▁않 -161
ㄲㅏ -162
▁작 -163
▁결 -164
▁ㄲㅏ -165
▁출 -166
▁강 -167
▁같 -168
▁파 -169
▁진 -170
ㄱㅔ -171
▁크 -172
▁대하 -173
▁받 -174
▁단 -175
▁번 -176
▁7 -177
▁최 -178
▁반 -179
▁10 -180
▁불 -181
▁8 -182
▁알 -183
▁데 -184
▁배 -185
▁위하 -186
▁호 -187
▁두 -188
▁회 -189
▁초 -190
▁안 -191
▁카 -192
▁형 -193
▁실 -194
▁예 -195
▁말 -196
▁재 -197
▁에 -198
▁따 -199
▁ㅂㅜ -200
▁타 -201
▁로 -202
▁없 -203
▁사용 -204
▁종 -205
▁9 -206
ㄷㅔ -207
▁미국 -208
▁라 -209
▁특 -210
▁이후 -211
▁설 -212
▁요 -213
▁과 -214
▁함 -215
ㅈㅏ -216
▁ㅁㅕㄴㅅㅓ -217
▁일본 -218
▁코 -219
▁운 -220
▁산 -221
▁행 -222
▁권 -223
▁ㄴㅡㄴㄷㅔ -224
▁활 -225
민국 -226
▁감 -227
▁독 -228
▁레 -229
▁대한 -230
▁다음 -231
▁추 -232
▁베 -233
▁왕 -234
▁ㅈㅏ -235
▁피 -236
▁태 -237
▁김 -238
▁음 -239
▁대한민국 -240
▁지역 -241
▁그리 -242
▁평 -243
▁양 -244
▁199 -245
▁더 -246
▁매 -247
▁민 -248
▁및 -249
▁입 -250
▁참 -251
▁건 -252
▁12 -253
▁많 -254
▁따르 -255
▁경기 -256
▁간 -257
▁18 -258
▁목 -259
▁승 -260
▁열 -261
▁프로 -262
▁가지 -263
▁대학 -264
▁다른 -265
▁드 -266
리아 -267
00 -268
▁; -269
▁총 -270
▁속 -271
스트 -272
▁의하 -273
▁ㅁㅏㄴ -274
▁북 -275
▁S -276
or -277
▁외 -278
▁집 -279
▁법 -280
▁트 -281
▁변 -282
▁11 -283
▁체 -284
▁메 -285
▁각 -286
▁때문 -287
▁물 -288
▁천 -289
▁시작 -290
▁임 -291
▁표 -292
▁직 -293
▁달 -294
▁시키 -295
▁올 -296
▁토 -297
▁처 -298
어나 -299
▁ᄆ -300
▁본 -301
▁저 -302
▁그러 -303
▁쓰 -304
▁& -305
▁선수 -306
▁점 -307
▁사람 -308
▁A -309
▁팀 -310
▁함께 -311
▁박 -312
▁한국 -313
▁또한 -314
▁치 -315
▁투 -316
어지 -317
▁청 -318
▁항 -319
▁브 -320
▁) -321
▁세계 -322
▁영화 -323
▁버 -324
▁약 -325
▁사이 -326
▁광 -327
▁게 -328
▁새 -329
la -330
▁C -331
▁자신 -332
▁M -333
▁용 -334
▁국가 -335
▁판 -336
▁경우 -337
▁디 -338
▁f -339
▁통하 -340
▁야 -341
▁T -342
▁ㄴㅏ -343
▁축 -344
▁복 -345
▁F -346
▁기록 -347
▁현재 -348
시아 -349
▁이름 -350
▁네 -351
▁하나 -352
▁활동 -353
▁편 -354
▁존 -355
▁198 -356
▁아니 -357
▁삼 -358
▁확 -359
▁위치 -360
▁당시 -361
▁가장 -362
▁_ -363
▁조선 -364
▁철 -365
▁학교 -366
주의 -367
▁리그 -368
▁보이 -369
▁( -370
▁만들 -371
▁뒤 -372
▁필 -373
▁15 -374
▁그러나 -375
▁플 -376
▁금 -377
▁증 -378
▁살 -379
▁페 -380
▁for -381
▁합 -382
mu -383
▁째 -384
▁루 -385
▁대표 -386
▁테 -387
▁백 -388
▁애 -389
▁창 -390
▁심 -391
▁언 -392
▁역사 -393
레이 -394
mula -395
▁formula -396
▁식 -397
ㄱㅏ -398
▁연구 -399
▁16 -400
▁근 -401
▁병 -402
▁못 -403
▁프랑 -404
▁또는 -405
▁/ -406
▁사회 -407
▁황 -408
▁그리고 -409
▁규 -410
▁시즌 -411
▁D -412
▁m -413
▁0 -414
▁돌 -415
▁충 -416
▁순 -417
▁17 -418
▁클 -419
▁패 -420
▁첫 -421
▁B -422
▁197 -423
▁] -424
▁[ -425
ㅇㅑ -426
랜드 -427
▁히 -428
▁완 -429
▁중국 -430
▁협 -431
▁이루 -432
▁높 -433
▁알리 -434
▁못하 -435
▁길 -436
▁다시 -437
▁시대 -438
▁K -439
▁서울 -440
▁정부 -441
▁: -442
▁프랑스 -443
▁I -444
학교 -445
▁영국 -446
▁채 -447
▁ㅂ -448
▁키 -449
▁도시 -450
▁ㄴㅡㄴㄷㅏ -451
▁전쟁 -452
▁k -453
▁은 -454
▁배우 -455
▁뜻 -456
▁포함 -457
▁문화 -458
▁여러 -459
▁196 -460
▁14 -461
ㅁㅕㄴ -462
▁아이 -463
▁독일 -464
▁대회 -465
▁~ -466
▁죽 -467
▁면 -468
er -469
▁별 -470
▁축구 -471
▁취 -472
▁13 -473
▁g -474
▁P -475
▁뉴 -476
▁위원 -477
▁허 -478
▁정치 -479
▁가능 -480
▁곡 -481
in -482
▁ㅅㅓ -483
▁모두 -484
ㄴㅣ -485
▁동안 -486
▁환 -487
▁친 -488
▁감독 -489
▁방송 -490
▁ㅂㅗ -491
▁모든 -492
▁이상 -493
▁손 -494
▁구성 -495
▁문제 -496
▁194 -497
▁개발 -498
▁일부 -499
▁논 -500
▁석 -501
▁L -502
▁l -503
▁대학교 -504
▁지방 -505
▁제작 -506
▁사건 -507
▁처음 -508
▁캐 -509
▁국제 -510
▁검 -511
▁% -512
▁러 -513
▁농 -514
▁인하 -515
▁터 -516
라이 -517
▁작품 -518
▁이용 -519
▁관계 -520
▁세기 -521
▁니 -522
▁게임 -523
▁시간 -524
▁골 -525
▁일반 -526
▁씨 -527
▁끝 -528
▁G -529
▁ㄱㅓ -530
▁운동 -531
▁교육 -532
▁부르 -533
▁존재 -534
▁향 -535
▁밀 -536
▁인구 -537
▁날 -538
▁급 -539
▁폭 -540
▁N -541
▁정도 -542
▁주장 -543
▁gt -544
▁음악 -545
▁곳 -546
▁효 -547
▁나오 -548
▁ㅅ -549
▁즉 -550
니아 -551
▁섬 -552
▁티 -553
ㄹㅗㄱ -554
on -555
▁195 -556
▁앞 -557
▁km -558
▁접 -559
▁육 -560
▁경제 -561
리스 -562
▁중심 -563
▁나타 -564
▁lt -565
▁선거 -566
▁U -567
▁ㄹㅕ -568
▁맡 -569
▁이러 -570
▁극 -571
▁전투 -572
▁R -573
▁귀 -574
▁쿠 -575
▁절 -576
▁30 -577
▁블 -578
▁발견 -579
▁맞 -580
▁민주 -581
통령 -582
화국 -583
▁H -584
부분 -585
▁기술 -586
▁E -587
▁봉 -588
▁담 -589
▁홍 -590
▁글 -591
▁올림 -592
▁측 -593
▁발표 -594
▁암 -595
▁누 -596
▁갖 -597
▁구조 -598
▁막 -599
▁태어나 -600
이스 -601
▁결과 -602
▁아들 -603
▁사망 -604
▁영향 -605
▁책 -606
▁2010 -607
▁우승 -608
▁의미 -609
▁엔 -610
▁대통령 -611
▁공격 -612
▁올림픽 -613
▁줄 -614
▁대부분 -615
▁들어 -616
▁과정 -617
an -618
▁케 -619
▁잘 -620
▁질 -621
▁관련 -622
▁라이 -623
▁헤 -624
▁걸 -625
▁슈 -626
▁송 -627
▁프로그 -628
000 -629
▁불리 -630
▁지원 -631
리카 -632
▁여기 -633
▁열리 -634
▁새롭 -635
▁앨 -636
▁밝 -637
▁업 -638
▁193 -639
▁참여 -640
▁발생 -641
▁잡 -642
▁유럽 -643
▁진행 -644
▁중앙 -645
▁준 -646
▁범 -647
20 -648
▁행정 -649
란드 -650
▁c -651
▁독립 -652
▁최초 -653
▁머 -654
▁고등 -655
▁얻 -656
▁25 -657
▁자유 -658
▁부분 -659
▁설립 -660
▁형태 -661
▁결정 -662
▁제국 -663
ㅆㅓ -664
▁특히 -665
▁다양 -666
▁발매 -667
▁폐 -668
▁세우 -669
▁팔 -670
▁악 -671
지만 -672
▁설치 -673
▁탄 -674
▁속하 -675
나라 -676
▁초등 -677
▁상태 -678
▁W -679
버지 -680
▁2008 -681
▁당하 -682
▁이전 -683
▁탈 -684
▁소속 -685
▁온 -686
▁러시아 -687
▁스타 -688
▁좌 -689
▁벌 -690
▁센 -691
디오 -692
▁21 -693
▁침 -694
우스 -695
▁사실 -696
▁르 -697
▁커 -698
▁좋 -699
▁하지만 -700
▁일어나 -701
▁그녀 -702
▁프로그램 -703
▁같이 -704
▁로마 -705
▁타이 -706
▁인민 -707
▁폴 -708
▁참가 -709
▁여성 -710
ㄹㅏ -711
▁나라 -712
▁조직 -713
▁정보 -714
▁2012 -715
▁2011 -716
▁등장 -717
▁주로 -718
▁갈 -719
▁이것 -720
▁주요 -721
▁싱 -722
▁혼 -723
▁출신 -724
▁운영 -725
▁관리 -726
▁기준 -727
▁이탈 -728
▁필요 -729
▁생각 -730
▁2009 -731
▁지정 -732
▁계획 -733
▁위원회 -734
en -735
▁2014 -736
▁100 -737
▁2007 -738
▁기관 -739
▁여자 -740
▁윤 -741
▁생산 -742
▁중요 -743
▁보내 -744
▁오르 -745
▁음반 -746
▁t -747
▁시절 -748
▁바이 -749
▁상대 -750
▁데이 -751
▁이르 -752
▁a -753
▁콘 -754
▁성공 -755
▁계속 -756
▁데뷔 -757
▁2013 -758
▁O -759
▁지나 -760
▁국민 -761
▁철도 -762
▁매우 -763
▁레이 -764
▁대전 -765
▁해당 -766
▁시스 -767
▁사업 -768
리즈 -769
he -770
▁과학 -771
▁넘 -772
프트 -773
▁가리 -774
▁발전 -775
▁생활 -776
▁고려 -777
▁밝히 -778
▁칼 -779
ㄹㅓ -780
▁이탈리아 -781
▁생애 -782
▁방법 -783
스터 -784
▁아버지 -785
▁와 -786
▁묘 -787
ㄷㅗ -788
▁몇 -789
▁191 -790
▁자리 -791
▁초기 -792
▁2015 -793
▁23 -794
라마 -795
▁24 -796
▁2018 -797
▁찾 -798
▁ㅊ -799
ar -800
이션 -801
▁월드 -802
레스 -803
▁헌 -804
▁2016 -805
▁지내 -806
남도 -807
▁출연 -808
▁000 -809
▁억 -810
▁내용 -811
▁차지 -812
▁앨범 -813
ㅁㅡ -814
▁능 -815
▁ㅊㅓ -816
ㄹㅓㅁ -817
▁인도 -818
▁최고 -819
▁그룹 -820
▁얼 -821
▁쇼 -822
▁시리즈 -823
▁빌 -824
▁마이 -825
▁돌아 -826
르크 -827
▁J -828
▁후보 -829
▁평가 -830
▁엘 -831
▁관하 -832
es -833
▁아래 -834
▁고등학교 -835
FA -836
▁22 -837
▁결국 -838
▁2006 -839
이트 -840
▁전체 -841
▁방식 -842
▁떨 -843
▁회사 -844
▁그리스 -845
▁개요 -846
▁이루어지 -847
▁이유 -848
▁빠 -849
비아 -850
▁수상 -851
▁분류 -852
▁192 -853
▁격 -854
▁한편 -855
▁ㅇㅡㅁ -856
▁우리 -857
▁스페 -858
▁연합 -859
▁층 -860
▁거치 -861
▁2017 -862
▁풍 -863
▁항공 -864
▁인터 -865
▁공식 -866
▁나가 -867
▁제공 -868
▁드라마 -869
▁정의 -870
▁시기 -871
▁인간 -872
▁의원 -873
▁시스템 -874
▁힘 -875
▁컴 -876
▁역할 -877
운데 -878
▁군사 -879
▁많이 -880
▁조사 -881
▁희 -882
▁제도 -883
▁출전 -884
▁잠 -885
▁기업 -886
▁워 -887
▁유명 -888
▁민족 -889
▁몸 -890
▁가운데 -891
▁기능 -892
▁류 -893
▁반대 -894
▁텔 -895
▁s -896
▁거의 -897
▁퍼 -898
▁교회 -899
비스 -900
▁지구 -901
▁푸 -902
▁색 -903
▁언어 -904
▁놓 -905
▁쓰이 -906
▁목록 -907
▁나타나 -908
▁둘 -909
▁현대 -910
▁응 -911
▁표현 -912
▁울 -913
▁대신 -914
▁떠 -915
▁유지 -916
▁녹 -917
▁달리 -918
▁개인 -919
▁몰 -920
▁특별 -921
▁ㄹㅏㄴ -922
▁26 -923
▁홈 -924
▁대상 -925
▁이론 -926
▁! -927
at -928
▁규모 -929
▁야구 -930
▁올리 -931
▁동시 -932
▁자연 -933
▁프리 -934
▁연결 -935
야기 -936
▁노동 -937
▁공개 -938
▁지도 -939
▁2019 -940
▁ㅇㅑ -941
▁웨 -942
▁28 -943
▁특징 -944
▁졸 -945
▁모습 -946
▁마지 -947
▁이미 -948
▁진출 -949
▁27 -950
▁각각 -951
▁단체 -952
▁전하 -953
▁들어가 -954
▁승리 -955
▁붙 -956
▁뛰 -957
▁브라 -958
▁ㅅㅣ -959
▁핵 -960
▁V -961
▁목적 -962
▁인정 -963
▁2005 -964
▁정책 -965
▁2000 -966
▁인물 -967
▁산업 -968
북도 -969
▁기원 -970
▁시장 -971
▁임명 -972
▁메이 -973
▁플레이 -974
▁족 -975
▁상황 -976
▁아르 -977
▁마지막 -978
▁전문 -979
▁떨어지 -980
▁가리키 -981
▁구역 -982
▁수도 -983
▁난 -984
▁기간 -985
머니 -986
▁이야기 -987
▁멀 -988
▁경상 -989
▁먹 -990
ic -991
▁너 -992
▁혁 -993
▁눈 -994
al -995
▁모델 -996
스크 -997
▁직접 -998
ㅂㄴㅣ -999
▁오스트 -1000
▁밴 -1001
▁서로 -1002
▁압 -1003
▁슬 -1004
▁계약 -1005
▁건설 -1006
▁FC -1007
▁추가 -1008
▁개최 -1009
BS -1010
▁2004 -1011
▁공동 -1012
▁콜 -1013
▁공간 -1014
▁망 -1015
▁건물 -1016
▁경찰 -1017
▁결혼 -1018
▁샤 -1019
▁형성 -1020
▁노선 -1021
▁사상 -1022
▁활약 -1023
▁기타 -1024
▁50 -1025
▁스페인 -1026
▁거리 -1027
▁TV -1028
▁훈 -1029
▁변화 -1030
▁자동 -1031
▁부산 -1032
▁31 -1033
▁국회 -1034
학자 -1035
▁변경 -1036
▁29 -1037
▁졸업 -1038
▁칸 -1039
▁텔레 -1040
▁b -1041
▁교수 -1042
▁노래 -1043
▁공화국 -1044
▁그것 -1045
▁ㄴㅣ -1046
▁경력 -1047
is -1048
it -1049
▁나이 -1050
으키 -1051
re -1052
▁마을 -1053
▁벨 -1054
▁인민공 -1055
▁궁 -1056
▁뿐 -1057
▁인민공화국 -1058
▁완전 -1059
비전 -1060
▁다르 -1061
▁클럽 -1062
▁2020 -1063
▁190 -1064
▁휴 -1065
▁흐 -1066
▁사랑 -1067
이드 -1068
▁서비스 -1069
▁비롯 -1070
▁낮 -1071
▁학생 -1072
▁맥 -1073
▁역시 -1074
ou -1075
▁비판 -1076
▁중학교 -1077
거리 -1078
▁볼 -1079
▁보통 -1080
▁느 -1081
▁실제 -1082
▁지지 -1083
운드 -1084
▁견 -1085
프리카 -1086
▁최대 -1087
▁잉 -1088
▁보호 -1089
▁의회 -1090
▁소설 -1091
▁탑 -1092
▁요구 -1093
▁가수 -1094
▁중화 -1095
▁만나 -1096
▁전국 -1097
▁우주 -1098
▁론 -1099
▁따라 -1100
▁지금 -1101
▁기본 -1102
▁종교 -1103
대로 -1104
▁싸 -1105
▁다이 -1106
▁일으키 -1107
▁지하 -1108
▁딸 -1109
▁겸 -1110
▁차이 -1111
▁시설 -1112
역시 -1113
▁실시 -1114
▁황제 -1115
▁자기 -1116
▁ㄱㅔㅆ -1117
▁판매 -1118
▁싱글 -1119
르트 -1120
▁혹 -1121
▁전통 -1122
▁없이 -1123
▁밴드 -1124
▁퇴 -1125
▁옥 -1126
▁높이 -1127
너지 -1128
▁탐 -1129
▁기반 -1130
▁운행 -1131
▁2002 -1132
▁원래 -1133
▁ㅁㅏ -1134
▁엄 -1135
▁떠나 -1136
▁자료 -1137
로스 -1138
▁교통 -1139
▁경기도 -1140
▁명칭 -1141
▁세력 -1142
▁환경 -1143
▁가족 -1144
▁40 -1145
▁어떤 -1146
▁내리 -1147
▁센터 -1148
스탄 -1149
▁설명 -1150
▁버리 -1151
▁소련 -1152
▁2003 -1153
▁승강 -1154
▁월드컵 -1155
▁전기 -1156
▁수행 -1157
▁회의 -1158
▁이끌 -1159
▁ㄴ -1160
▁애니 -1161
▁뮤 -1162
▁모양 -1163
▁공연 -1164
▁전자 -1165
▁풀 -1166
러스 -1167
▁컵 -1168
▁도쿄 -1169
▁부대 -1170
▁기념 -1171
나다 -1172
▁분야 -1173
▁그래 -1174
▁교황 -1175
▁텔레비전 -1176
▁예술 -1177
▁기독 -1178
▁사고 -1179
▁밖 -1180
▁나타내 -1181
le -1182
▁이동 -1183
mp -1184
▁통합 -1185
▁도입 -1186
▁남자 -1187
▁걸치 -1188
▁동물 -1189
▁연방 -1190
▁작업 -1191
▁염 -1192
▁득 -1193
▁차량 -1194
▁선정 -1195
▁행동 -1196
▁소프트 -1197
▁= -1198
▁작용 -1199
▁문학 -1200
스타 -1201
▁숙 -1202
▁전라 -1203
▁따라서 -1204
의원 -1205
▁능력 -1206
▁할 -1207
▁출시 -1208
▁도로 -1209
▁군대 -1210
▁기독교 -1211
▁넓 -1212
▁방향 -1213
▁승강장 -1214
▁바로 -1215
▁남쪽 -1216
▁형식 -1217
들이 -1218
▁행위 -1219
▁지휘 -1220
▁기존 -1221
▁확인 -1222
▁증가 -1223
▁북쪽 -1224
▁작가 -1225
▁혁명 -1226
▁효과 -1227
▁십 -1228
▁국내 -1229
▁착 -1230
▁제외 -1231
▁작곡 -1232
▁과거 -1233
▁FI -1234
▁비슷 -1235
▁옮 -1236
▁이때 -1237
▁윌 -1238
▁주변 -1239
▁빈 -1240
▁ㅁㅡ -1241
▁마르 -1242
▁어머니 -1243
▁열차 -1244
▁낙 -1245
▁캐나다 -1246
▁태양 -1247
▁컴퓨 -1248
▁몽 -1249
▁강하 -1250
▁지배 -1251
▁역임 -1252
▁왕국 -1253
▁종류 -1254
▁사무 -1255
▁그렇 -1256
▁챔 -1257
▁유일 -1258
▁이적 -1259
▁뉴욕 -1260
▁거두 -1261
▁옮기 -1262
▁비교 -1263
BC -1264
▁협회 -1265
▁갑 -1266
▁솔 -1267
▁흥 -1268
▁남부 -1269
ㄴㄷㅔ -1270
리오 -1271
▁혹은 -1272
▁정당 -1273
▁베이 -1274
▁스포 -1275
▁추정 -1276
자리 -1277
▁공산 -1278
▁물리 -1279
▁건축 -1280
▁반응 -1281
▁육군 -1282
▁흔 -1283
▁1990 -1284
▁성장 -1285
▁시민 -1286
▁담당 -1287
▁생기 -1288
▁2001 -1289
▁이사 -1290
▁즈 -1291
▁동일 -1292
▁런 -1293
▁갖추 -1294
▁홀 -1295
▁개념 -1296
▁적용 -1297
▁이어지 -1298
▁장관 -1299
▁버스 -1300
▁X -1301
▁획 -1302
▁스트 -1303
▁어리 -1304
▁대사 -1305
▁윈 -1306
▁인기 -1307
▁챔피 -1308
▁늘 -1309
▁공사 -1310
▁세포 -1311
▁동쪽 -1312
▁구간 -1313
▁데이터 -1314
메이션 -1315
▁p -1316
▁컴퓨터 -1317
▁넣 -1318
▁예정 -1319
▁사단 -1320
▁멤 -1321
드리 -1322
▁에너지 -1323
▁품 -1324
▁징 -1325
▁크기 -1326
▁쪽 -1327
▁디자 -1328
▁작전 -1329
▁오늘 -1330
▁조지 -1331
▁맨 -1332
▁민주주의 -1333
▁189 -1334
▁마음 -1335
▁상당 -1336
▁곧 -1337
이지 -1338
▁바르 -1339
▁서쪽 -1340
▁조건 -1341
▁차례 -1342
▁충청 -1343
▁버전 -1344
▁액 -1345
▁흑 -1346
▁돈 -1347
▁록 -1348
▁FIFA -1349
ㄴㅈㅣ -1350
▁비하 -1351
▁애니메이션 -1352
▁칭 -1353
▁바꾸 -1354
▁실패 -1355
▁치르 -1356
▁연기 -1357
▁율 -1358
▁땅 -1359
▁자체 -1360
▁잔 -1361
▁수록 -1362
▁특정 -1363
▁컨 -1364
버스 -1365
▁선언 -1366
▁고대 -1367
▁덕 -1368
▁방영 -1369
▁어느 -1370
▁쌍 -1371
▁d -1372
▁페르 -1373
▁연주 -1374
▁피해 -1375
카이 -1376
▁이런 -1377
▁공항 -1378
▁결승 -1379
▁돌아오 -1380
▁익 -1381
▁국립 -1382
▁움 -1383
▁체제 -1384
▁연속 -1385
▁부족 -1386
▁이어 -1387
el -1388
▁멤버 -1389
▁해군 -1390
▁선택 -1391
▁쉽 -1392
▁내부 -1393
▁대체 -1394
▁규정 -1395
가지 -1396
▁대구 -1397
et -1398
웨어 -1399
▁조약 -1400
▁ㄹㅓ -1401
▁아시아 -1402
▁다루 -1403
루스 -1404
▁개혁 -1405
▁속도 -1406
▁헌법 -1407
▁선출 -1408
▁연대 -1409
▁북부 -1410
라지 -1411
▁지명 -1412
글랜드 -1413
▁단계 -1414
▁정신 -1415
▁최종 -1416
▁명령 -1417
▁포르 -1418
▁기원전 -1419
▁입단 -1420
▁쥐 -1421
▁인천 -1422
▁크리스 -1423
ion -1424
▁설계 -1425
▁자치 -1426
▁가치 -1427
▁영어 -1428
▁로스 -1429
▁휘 -1430
▁분석 -1431
▁왜 -1432
▁치료 -1433
▁옛 -1434
▁물질 -1435
▁관할 -1436
▁ㄴㅡㄴㅈㅣ -1437
▁출판 -1438
▁최근 -1439
ing -1440
▁체계 -1441
트남 -1442
▁친구 -1443
▁비행 -1444
▁의사 -1445
▁달러 -1446
▁논란 -1447
▁척 -1448
▁밤 -1449
▁나누 -1450
▁평균 -1451
▁1999 -1452
▁표준 -1453
▁강화 -1454
시마 -1455
21 -1456
메리카 -1457
▁가깝 -1458
ol -1459
▁스포츠 -1460
라스 -1461
▁배치 -1462
▁소비 -1463
▁함수 -1464
▁파이 -1465
아가 -1466
▁제품 -1467
▁잉글랜드 -1468
▁술 -1469
널리 -1470
▁북한 -1471
▁1998 -1472
▁집단 -1473
▁대중 -1474
▁롭 -1475
▁더욱 -1476
▁하이 -1477
▁예선 -1478
▁부문 -1479
▁팬 -1480
▁법원 -1481
▁Y -1482
▁헬 -1483
▁하계 -1484
▁머리 -1485
▁후반 -1486
스코 -1487
▁공원 -1488
▁실험 -1489
▁cm -1490
▁확장 -1491
▁획득 -1492
▁분리 -1493
▁o -1494
▁관심 -1495
▁언급 -1496
▁유사 -1497
▁남기 -1498
▁스테 -1499
▁1980 -1500
▁개월 -1501
▁배경 -1502
▁씩 -1503
▁현상 -1504
▁벤 -1505
▁파리 -1506
▁겨 -1507
▁선발 -1508
▁처리 -1509
▁문자 -1510
리지 -1511
▁조정 -1512
▁지속 -1513
디어 -1514
▁재판 -1515
▁부상 -1516
▁60 -1517
▁엔진 -1518
▁베르 -1519
▁챔피언 -1520
▁먼 -1521
▁목표 -1522
▁유래 -1523
▁요소 -1524
▁35 -1525
▁주민 -1526
▁맺 -1527
▁편성 -1528
▁정규 -1529
▁소유 -1530
▁통일 -1531
▁마리 -1532
▁공립 -1533
▁구단 -1534
▁지니 -1535
▁마치 -1536
▁외국 -1537
▁꽃 -1538
▁자동차 -1539
▁시험 -1540
▁에스 -1541
▁시도 -1542
▁거주 -1543
▁나무 -1544
▁장군 -1545
▁도움 -1546
▁빠르 -1547
▁주도 -1548
▁mm -1549
▁원자 -1550
▁링 -1551
▁어렵 -1552
▁요시 -1553
▁이해 -1554
▁점령 -1555
▁행사 -1556
⊸⊸ -1557
⊸⊸⊸ -1558
▁향하 -1559
▁네덜 -1560
▁네덜란드 -1561
▁기사 -1562
▁디자인 -1563
▁주인 -1564
▁미치 -1565
▁통신 -1566
▁캠 -1567
▁웹 -1568
▁n -1569
▁괴 -1570
▁원인 -1571
▁본선 -1572
▁고속 -1573
▁투표 -1574
광역시 -1575
▁불교 -1576
▁학자 -1577
▁앤 -1578
▁바뀌 -1579
▁혈 -1580
▁사령 -1581
▁동맹 -1582
▁결합 -1583
▁가르 -1584
▁은퇴 -1585
▁언론 -1586
▁안정 -1587
▁아프리카 -1588
▁개봉 -1589
▁일종 -1590
▁잃 -1591
▁장치 -1592
▁책임 -1593
젝트 -1594
▁용어 -1595
▁앙 -1596
▁준비 -1597
▁알렉 -1598
om -1599
나무 -1600
▁스럽 -1601
▁수준 -1602
▁끌 -1603
▁잇 -1604
야마 -1605
▁베트남 -1606
▁길이 -1607
▁1997 -1608
▁성적 -1609
▁구분 -1610
▁문서 -1611
▁광주 -1612
▁깊 -1613
▁ㄱㅜ -1614
▁비디오 -1615
▁촉 -1616
일랜드 -1617
▁유전 -1618
▁끝나 -1619
▁사진 -1620
▁아마 -1621
▁모르 -1622
▁칠 -1623
▁불구 -1624
▁제조 -1625
▁방문 -1626
▁가문 -1627
▁정하 -1628
▁신문 -1629
▁가정 -1630
▁요리 -1631
▁정리 -1632
st -1633
▁정권 -1634
▁빛 -1635
▁폴란드 -1636
메달 -1637
▁1996 -1638
▁일제 -1639
▁분포 -1640
▁서식 -1641
▁amp -1642
▁1995 -1643
▁The -1644
▁핀 -1645
▁다니 -1646
▁정확 -1647
▁그림 -1648
▁평화 -1649
▁해석 -1650
▁32 -1651
▁경험 -1652
▁왕조 -1653
▁프로젝트 -1654
▁통과 -1655
▁습 -1656
▁드러 -1657
▁오늘날 -1658
▁부인 -1659
▁값 -1660
▁추진 -1661
▁믿 -1662
▁70 -1663
▁멸 -1664
스턴 -1665
▁찬 -1666
▁런던 -1667
▁부여 -1668
▁덴 -1669
특별 -1670
인트 -1671
▁방어 -1672
▁종합 -1673
▁병원 -1674
▁슈퍼 -1675
▁인터넷 -1676
▁프레 -1677
ㅇㅓ -1678
▁몬 -1679
▁폐지 -1680
▁경기장 -1681
▁통치 -1682
▁아직 -1683
▁신라 -1684
▁경쟁 -1685
▁경영 -1686
▁영역 -1687
▁널리 -1688
▁이곳 -1689
▁깨 -1690
스로 -1691
ㅇㅓㅆ -1692
▁올라 -1693
▁미사 -1694
▁면적 -1695
▁만화 -1696
▁입장 -1697
웨이 -1698
▁500 -1699
▁훈련 -1700
▁주제 -1701
▁끼 -1702
▁발달 -1703
▁제주 -1704
▁보도 -1705
▁총리 -1706
▁이듬 -1707
▁민주당 -1708
▁부정 -1709
레일 -1710
▁츠 -1711
▁생물 -1712
▁미술 -1713
▁국회의원 -1714
▁도서 -1715
am -1716
▁번호 -1717
▁노력 -1718
▁ㄹㅜ -1719
▁파괴 -1720
▁the -1721
▁주연 -1722
▁80 -1723
▁기여 -1724
▁제안 -1725
▁식민 -1726
▁회장 -1727
▁모으 -1728
▁서부 -1729
아들이 -1730
▁삼성 -1731
▁복귀 -1732
▁궤 -1733
▁놀 -1734
▁UE -1735
▁행성 -1736
라인 -1737
리트 -1738
▁야마 -1739
▁접하 -1740
▁188 -1741
▁죽이 -1742
▁라디오 -1743
▁연맹 -1744
▁법률 -1745
▁빅 -1746
▁남성 -1747
▁이듬해 -1748
▁+ -1749
▁세대 -1750
▁동부 -1751
▁외교 -1752
▁경계 -1753
▁등록 -1754
▁UEFA -1755
▁무기 -1756
▁정상 -1757
il -1758
▁자주 -1759
▁지키 -1760
▁투수 -1761
▁1970 -1762
▁1994 -1763
▁완전히 -1764
▁폰 -1765
▁철학 -1766
▁지진 -1767
▁요청 -1768
▁수용 -1769
▁금지 -1770
▁소재 -1771
▁표기 -1772
▁그런 -1773
톨릭 -1774
▁나뉘 -1775
▁발사 -1776
▁제한 -1777
▁인식 -1778
▁연구소 -1779
▁박물 -1780
▁벌이 -1781
▁아시 -1782
ac -1783
▁움직 -1784
▁ㅅㅡ -1785
▁돕 -1786
▁무대 -1787
▁노르 -1788
▁업무 -1789
▁지도자 -1790
▁접근 -1791
▁결성 -1792
▁KBS -1793
▁뇌 -1794
▁강원 -1795
▁영토 -1796
▁린 -1797
▁펼 -1798
▁꼬 -1799
▁뉴스 -1800
▁바탕 -1801
▁조각 -1802
▁지대 -1803
▁수학 -1804
머지 -1805
▁나머지 -1806
▁다리 -1807
▁아일랜드 -1808
▁성격 -1809
▁상호 -1810
▁필리 -1811
▁거부 -1812
▁정식 -1813
▁펜 -1814
▁오스 -1815
▁ㅅㅡㅂㄴㅣ -1816
▁반면 -1817
▁오래 -1818
▁벽 -1819
▁스스로 -1820
▁빠지 -1821
▁1992 -1822
▁득점 -1823
▁트리 -1824
▁은행 -1825
▁가톨릭 -1826
▁더불 -1827
▁마찬 -1828
▁마찬가지 -1829
▁기초 -1830
ro -1831
토리 -1832
▁붙이 -1833
▁공작 -1834
▁주의 -1835
▁돌아가 -1836
▁임시 -1837
▁굴 -1838
▁받아들이 -1839
▁아카 -1840
요일 -1841
▁보수 -1842
▁소리 -1843
▁45 -1844
▁다수 -1845
▁스웨 -1846
시코 -1847
▁장애 -1848
▁화학 -1849
▁박사 -1850
▁짧 -1851
▁의식 -1852
임스 -1853
▁바다 -1854
▁박물관 -1855
ㅁㅕㄴㅅㅓ -1856
▁검사 -1857
▁36 -1858
▁이기 -1859
▁장소 -1860
ed -1861
▁카드 -1862
▁캐릭 -1863
▁유로 -1864
▁죽음 -1865
▁마이크 -1866
트리 -1867
▁이스 -1868
▁차원 -1869
▁관측 -1870
▁초대 -1871
모토 -1872
▁유니 -1873
워드 -1874
▁이렇 -1875
▁에이 -1876
▁윌리 -1877
▁of -1878
▁스위 -1879
▁브라질 -1880
▁해결 -1881
▁활용 -1882
▁순위 -1883
▁지리 -1884
▁긴 -1885
▁여행 -1886
▁차트 -1887
▁집합 -1888
ㄴㄱㅏ -1889
▁기구 -1890
▁실제로 -1891
▁계열 -1892
▁식물 -1893
▁묘사 -1894
▁안전 -1895
▁소프트웨어 -1896
▁그대로 -1897
▁총선 -1898
▁표시 -1899
로나 -1900
▁1960 -1901
▁연극 -1902
▁여름 -1903
▁오브 -1904
▁파일 -1905
ig -1906
▁패배 -1907
▁인사 -1908
▁무역 -1909
▁회원 -1910
▁이외 -1911
▁강력 -1912
▁디지 -1913
▁캐릭터 -1914
▁1991 -1915
▁느끼 -1916
▁멕 -1917
▁스웨덴 -1918
▁제시 -1919
▁일정 -1920
▁권력 -1921
▁단순 -1922
▁곤 -1923
부르크 -1924
▁관광 -1925
▁기계 -1926
▁반란 -1927
▁붕 -1928
레일리아 -1929
▁개국 -1930
▁뛰어나 -1931
▁히로 -1932
▁1993 -1933
▁오스트리아 -1934
▁33 -1935
▁조성 -1936
▁꾸 -1937
▁위험 -1938
▁자라 -1939
▁근처 -1940
▁형제 -1941
▁삶 -1942
▁발행 -1943
베이 -1944
▁싸우 -1945
배우 -1946
▁흡 -1947
트로 -1948
▁보다 -1949
▁기획 -1950
▁여객 -1951
▁중간 -1952
▁중단 -1953
▁지적 -1954
▁취하 -1955
▁윈도 -1956
▁스튜 -1957
▁먼저 -1958
▁량 -1959
▁시행 -1960
▁협력 -1961
▁스코 -1962
od -1963
▁지하철 -1964
▁코드 -1965
▁기자 -1966
▁외부 -1967
▁사이트 -1968
▁아무 -1969
▁전시 -1970
▁소개 -1971
▁유형 -1972
▁뮤직 -1973
소년 -1974
워크 -1975
사카 -1976
▁렌 -1977
▁도착 -1978
니스 -1979
특별시 -1980
▁띠 -1981
나이 -1982
▁번역 -1983
버트 -1984
▁서울특별시 -1985
▁후기 -1986
ve -1987
▁태평 -1988
▁혜 -1989
▁단어 -1990
주시 -1991
▁186 -1992
▁기후 -1993
▁하루 -1994
▁연장 -1995
▁해안 -1996
as -1997
▁내각 -1998
무원 -1999
▁오스트레일리아 -2000
▁투자 -2001
▁다만 -2002
▁", -2003
▁파견 -2004
▁본부 -2005
▁보유 -2006
▁상징 -2007
지션 -2008
▁근거 -2009
▁성립 -2010
▁생성 -2011
▁공장 -2012
▁카이 -2013
▁케이 -2014
▁죄 -2015
▁보존 -2016
▁네트 -2017
▁경상남도 -2018
▁수많 -2019
▁다카 -2020
▁들어오 -2021
▁세상 -2022
▁양식 -2023
▁혐 -2024
▁지상 -2025
▁옹 -2026
▁극장 -2027
▁내려 -2028
▁감소 -2029
▁윌리엄 -2030
▁확대 -2031
▁위기 -2032
▁경상북도 -2033
▁겪 -2034
▁제기 -2035
▁균 -2036
▁멜 -2037
▁상업 -2038
▁전략 -2039
▁촬 -2040
▁출생 -2041
▁유대 -2042
▁지식 -2043
▁원소 -2044
▁귀족 -2045
▁특수 -2046
▁1988 -2047
▁특성 -2048
▁멕시코 -2049
▁수사 -2050
▁대응 -2051
▁캘 -2052
▁동생 -2053
▁영상 -2054
▁디지털 -2055
▁듣 -2056
▁187 -2057
▁? -2058
▁촌 -2059
▁달성 -2060
▁구하 -2061
▁숨 -2062
▁단위 -2063
▁종목 -2064
▁유리 -2065
▁h -2066
▁근무 -2067
▁당선 -2068
▁학위 -2069
▁이슬 -2070
▁촬영 -2071
▁계승 -2072
▁완성 -2073
아시아 -2074
▁식민지 -2075
▁34 -2076
▁체포 -2077
ㅜㄴ -2078
▁시티 -2079
▁문화재 -2080
▁코치 -2081
티아 -2082
▁ㅇㅗ -2083
▁2021 -2084
▁짓 -2085
▁률 -2086
▁님 -2087
▁승격 -2088
▁젊 -2089
▁38 -2090
▁이집 -2091
회사 -2092
▁발매되 -2093
▁수비 -2094
▁정치인 -2095
▁이집트 -2096
id -2097
▁권리 -2098
▁옆 -2099
▁전달 -2100
▁체결 -2101
▁흐르 -2102
▁시청 -2103
가리 -2104
▁소수 -2105
▁듀 -2106
▁직후 -2107
▁생명 -2108
▁48 -2109
▁알렉산 -2110
▁몇몇 -2111
▁나중 -2112
▁마사 -2113
▁이렇게 -2114
▁본관 -2115
▁국왕 -2116
▁미래 -2117
▁측정 -2118
▁타이틀 -2119
▁도서관 -2120
▁90 -2121
▁설정 -2122
아내 -2123
가와 -2124
▁채널 -2125
▁대륙 -2126
▁맹 -2127
▁1989 -2128
모리 -2129
▁크로 -2130
▁1950 -2131
▁아내 -2132
▁헨 -2133
▁ㄷㅐ -2134
▁싶 -2135
▁톤 -2136
▁걸리 -2137
▁낳 -2138
▁판단 -2139
▁주식 -2140
ec -2141
▁벌어지 -2142
▁개통 -2143
▁이주 -2144
▁스키 -2145
▁관찰 -2146
▁홍콩 -2147
▁개정 -2148
▁미군 -2149
▁틀 -2150
▁라인 -2151
▁동계 -2152
▁엘리 -2153
▁결승전 -2154
▁전환 -2155
▁청년 -2156
▁포르투 -2157
▁텍 -2158
▁신경 -2159
▁미사일 -2160
us -2161
▁주어지 -2162
NA -2163
▁자본 -2164
▁즐 -2165
▁펼치 -2166
▁세르 -2167
▁맞추 -2168
▁녹음 -2169
▁밑 -2170
▁취임 -2171
▁즉위 -2172
▁시위 -2173
▁지위 -2174
▁종료 -2175
▁제정 -2176
▁해외 -2177
▁납 -2178
and -2179
▁계산 -2180
▁은하 -2181
▁상하 -2182
▁의견 -2183
▁', -2184
▁쌓 -2185
▁범죄 -2186
▁새로 -2187
▁e -2188
코드 -2189
▁음식 -2190
▁아키 -2191
▁전차 -2192
▁얼마 -2193
디아 -2194
▁사회주의 -2195
스티 -2196
▁후쿠 -2197
▁300 -2198
▁셀 -2199
▁| -2200
▁충돌 -2201
▁헝 -2202
▁사후 -2203
ad -2204
▁주인공 -2205
▁교체 -2206
▁MBC -2207
▁달하 -2208
교회 -2209
▁남북 -2210
▁자격 -2211
▁답 -2212
ㅇㅔ -2213
▁천황 -2214
▁수정 -2215
▁예수 -2216
▁장기 -2217
▁춘 -2218
▁바이러스 -2219
▁건강 -2220
▁전라남도 -2221
▁주목 -2222
▁제임스 -2223
▁소장 -2224
▁명단 -2225
▁비용 -2226
▁신학 -2227
▁1945 -2228
▁개선 -2229
▁궤도 -2230
▁ㅃ -2231
▁네트워크 -2232
▁ㅇㅏㅆㅇㅓㅆ -2233
▁빼 -2234
ent -2235
▁원정 -2236
▁ㅃㅜㄴ -2237
▁스티 -2238
▁카운 -2239
▁성우 -2240
▁비밀 -2241
▁공급 -2242
▁체육 -2243
▁펠 -2244
▁모이 -2245
스카 -2246
▁벗 -2247
▁시내 -2248
▁합류 -2249
▁본래 -2250
▁공부 -2251
▁컬 -2252
▁라운드 -2253
▁계기 -2254
▁명예 -2255
▁만드 -2256
전히 -2257
▁부모 -2258
50 -2259
▁제거 -2260
▁에드 -2261
▁셰 -2262
▁건너 -2263
▁자원 -2264
▁감염 -2265
▁ㄷㅡ -2266
▁털 -2267
▁심리 -2268
▁입학 -2269
▁이래 -2270
▁인근 -2271
▁농업 -2272
▁천문 -2273
▁가격 -2274
▁작성 -2275
▁군인 -2276
▁공군 -2277
▁터미 -2278
▁증명 -2279
▁객 -2280
▁가입 -2281
▁전사 -2282
▁각종 -2283
▁누구 -2284
▁홈런 -2285
▁읽 -2286
▁거대 -2287
▁오후 -2288
▁베네 -2289
▁이슬람 -2290
피아 -2291
▁소송 -2292
▁학문 -2293
▁저항 -2294
▁피하 -2295
▁미디어 -2296
▁국경 -2297
▁집중 -2298
▁왼 -2299
▁물론 -2300
▁피아 -2301
▁울산 -2302
▁신호 -2303
베르 -2304
티나 -2305
▁포지션 -2306
보이 -2307
▁병력 -2308
▁질량 -2309
▁통제 -2310
▁측면 -2311
▁블랙 -2312
리포 -2313
▁아우 -2314
▁인수 -2315
▁플로 -2316
▁찰 -2317
▁줄이 -2318
▁세이 -2319
▁St -2320
▁실행 -2321
도로 -2322
▁태평양 -2323
▁콩 -2324
▁터미널 -2325
▁강조 -2326
▁터키 -2327
▁정착 -2328
▁던 -2329
▁엑 -2330
ot -2331
▁해방 -2332
▁광고 -2333
니어 -2334
▁변호 -2335
▁만약 -2336
▁비트 -2337
▁x -2338
▁무장 -2339
▁겨울 -2340
▁쇠 -2341
▁병사 -2342
▁강원도 -2343
▁오른 -2344
▁최소 -2345
▁냉 -2346
▁잎 -2347
철도 -2348
▁나서 -2349
▁유도 -2350
un -2351
▁약간 -2352
드로 -2353
▁몽골 -2354
▁제목 -2355
▁편집 -2356
▁기회 -2357
▁국방 -2358
▁쉬 -2359
▁노동자 -2360
ow -2361
▁ㄹㅣ -2362
▁37 -2363
▁너무 -2364
▁in -2365
▁마리아 -2366
▁금융 -2367
▁마쓰 -2368
스키 -2369
▁환자 -2370
▁밀도 -2371
▁이번 -2372
▁지점 -2373
▁사례 -2374
동안 -2375
▁선수단 -2376
▁표면 -2377
▁합병 -2378
▁윈도우 -2379
▁전반 -2380
▁사라지 -2381
▁전개 -2382
▁이하 -2383
▁인디 -2384
▁혐의 -2385
▁가스 -2386
▁고전 -2387
▁학년 -2388
▁래 -2389
▁바람 -2390
▁무렵 -2391
▁1987 -2392
▁카르 -2393
▁힐 -2394
▁허용 -2395
▁바라 -2396
오카 -2397
▁전력 -2398
▁도중 -2399
소리 -2400
▁대수 -2401
▁등급 -2402
▁재산 -2403
▁붕괴 -2404
▁마련 -2405
▁라이브 -2406
▁오사카 -2407
▁샌 -2408
▁포르투갈 -2409
▁유엔 -2410
▁민간 -2411
▁충청남도 -2412
▁재정 -2413
ra -2414
▁재직 -2415
▁그해 -2416
▁양성 -2417
▁근대 -2418
▁루이 -2419
마크 -2420
▁충분 -2421
▁빨 -2422
▁영화배우 -2423
▁w -2424
▁전역 -2425
▁킹 -2426
▁령 -2427
▁꼬리 -2428
▁숲 -2429
▁헝가리 -2430
▁오리 -2431
▁41 -2432
▁여전히 -2433
▁뒷 -2434
▁범위 -2435
▁공공 -2436
▁51 -2437
▁성질 -2438
▁계급 -2439
▁공주 -2440
▁현실 -2441
▁후지 -2442
▁1986 -2443
▁스튜디오 -2444
▁1984 -2445
▁엔터 -2446
▁임무 -2447
▁군주 -2448
▁캘리포 -2449
▁가져 -2450
▁전선 -2451
▁대학원 -2452
▁강제 -2453
▁토론 -2454
▁보고 -2455
▁롤 -2456
▁승인 -2457
▁업체 -2458
▁온도 -2459
▁위원장 -2460
▁봄 -2461
▁조치 -2462
▁양자 -2463
▁동료 -2464
▁행하 -2465
▁위협 -2466
▁원칙 -2467
▁구축 -2468
▁위성 -2469
▁클라 -2470
▁수입 -2471
▁논문 -2472
▁적극 -2473
▁아시안 -2474
▁대대 -2475
▁고구 -2476
▁이미지 -2477
▁캘리포니아 -2478
▁필리핀 -2479
▁둥 -2480
▁성인 -2481
▁핀란드 -2482
▁드래 -2483
▁교사 -2484
▁거래 -2485
▁출발 -2486
▁섭 -2487
▁이제 -2488
▁공산당 -2489
▁수립 -2490
테르 -2491
▁꿈 -2492
▁수단 -2493
▁장비 -2494
▁역대 -2495
▁공업 -2496
▁회복 -2497
▁다섯 -2498
고리 -2499
▁의료 -2500
▁규칙 -2501
▁채택 -2502
▁항상 -2503
마스 -2504
▁남아 -2505
ch -2506
▁강의 -2507
▁점차 -2508
▁잭 -2509
▁증거 -2510
주교 -2511
▁잡지 -2512
▁스타일 -2513
▁확보 -2514
▁첨 -2515
러지 -2516
▁시인 -2517
▁올라가 -2518
▁에피 -2519
ur -2520
▁스파 -2521
▁39 -2522
▁신화 -2523
▁개편 -2524
바이 -2525
ㅇㅛ -2526
▁남편 -2527
▁400 -2528
▁앞서 -2529
▁선생 -2530
▁폭발 -2531
▁이스라 -2532
▁기지 -2533
▁스위스 -2534
▁일원 -2535
▁진화 -2536
▁강점 -2537
▁합의 -2538
▁매년 -2539
▁얼굴 -2540
▁기대 -2541
▁만족 -2542
로드 -2543
▁II -2544
▁대기 -2545
▁64 -2546
▁나카 -2547
▁이승 -2548
▁통계 -2549
▁모스크 -2550
▁튀 -2551
▁해체 -2552
▁1985 -2553
▁경주 -2554
▁욕 -2555
▁항성 -2556
▁앞두 -2557
▁이스라엘 -2558
▁분자 -2559
▁붉 -2560
▁부근 -2561
▁종이 -2562
데미 -2563
▁대형 -2564
▁스리 -2565
▁간주 -2566
▁그래서 -2567
▁가사 -2568
▁군단 -2569
우드 -2570
▁불가 -2571
▁토지 -2572
▁귀국 -2573
▁종종 -2574
▁뜨 -2575
▁어떻 -2576
ut -2577
▁둘러 -2578
▁태풍 -2579
▁게이 -2580
▁수원 -2581
▁경향 -2582
▁어린 -2583
▁장면 -2584
▁조합 -2585
▁끊 -2586
▁캄 -2587
레이드 -2588
▁낭 -2589
백질 -2590
다리 -2591
▁아나 -2592
▁아름 -2593
▁i -2594
▁청소년 -2595
▁아주 -2596
▁움직이 -2597
▁까 -2598
▁아메리카 -2599
▁삼국 -2600
▁서양 -2601
키아 -2602
▁의학 -2603
▁맛 -2604
▁아랍 -2605
um -2606
▁레코드 -2607
▁사항 -2608
▁대장 -2609
▁스피 -2610
고기 -2611
▁아카데미 -2612
▁클래 -2613
▁탑재 -2614
▁43 -2615
▁기억 -2616
▁ㄷㅡㄴ -2617
▁초반 -2618
▁투어 -2619
▁고양 -2620
▁침공 -2621
▁성과 -2622
▁메이저 -2623
▁LG -2624
▁폼 -2625
▁저지 -2626
▁심하 -2627
▁확실 -2628
▁그곳 -2629
▁평양 -2630
▁카메 -2631
▁랭 -2632
▁짐 -2633
▁융 -2634
오프 -2635
▁란 -2636
▁향상 -2637
▁장식 -2638
▁줄거리 -2639
오스 -2640
▁청나라 -2641
▁보장 -2642
▁박쥐 -2643
▁고구려 -2644
▁42 -2645
어들 -2646
▁좀 -2647
▁br -2648
▁소년 -2649
▁변하 -2650
▁나치 -2651
▁켄 -2652
▁자금 -2653
▁카운티 -2654
▁선거구 -2655
▁남동 -2656
▁아름답 -2657
보드 -2658
요시 -2659
▁새기 -2660
▁중화민국 -2661
▁보병 -2662
ver -2663
네스 -2664
▁단백질 -2665
라비아 -2666
▁가로 -2667
▁전설 -2668
▁숭 -2669
▁1982 -2670
▁만큼 -2671
운동 -2672
소드 -2673
▁신설 -2674
타인 -2675
▁스케 -2676
▁만주 -2677
▁철도역 -2678
ir -2679
▁고문 -2680
▁선고 -2681
▁라틴 -2682
▁55 -2683
▁감정 -2684
▁육상 -2685
▁불과 -2686
▁스카 -2687
▁잠시 -2688
네시아 -2689
▁신앙 -2690
▁광역시 -2691
에르 -2692
▁독자 -2693
▁의장 -2694
틀랜드 -2695
▁우수 -2696
라노 -2697
FC -2698
▁차별 -2699
▁우선 -2700
▁이끄 -2701
▁나폴 -2702
▁편입 -2703
▁확정 -2704
▁단지 -2705
▁살해 -2706
▁창설 -2707
▁함대 -2708
▁온라인 -2709
im -2710
▁재단 -2711
무르 -2712
▁복잡 -2713
▁삭 -2714
▁합치 -2715
▁왕위 -2716
▁덴마크 -2717
일러 -2718
▁탄생 -2719
▁비율 -2720
▁판결 -2721
▁강점기 -2722
▁1983 -2723
▁지시 -2724
▁세종 -2725
▁브랜드 -2726
다이 -2727
▁44 -2728
▁법인 -2729
▁솔로 -2730
누스 -2731
▁ㅂㅏ -2732
▁구체 -2733
▁예상 -2734
▁공유 -2735
▁마크 -2736
▁저서 -2737
▁유학 -2738
▁브리 -2739
▁전화 -2740
▁검찰 -2741
▁킬 -2742
▁성당 -2743
▁고향 -2744
▁마드리 -2745
의회 -2746
▁대립 -2747
이크 -2748
▁보급 -2749
▁동의 -2750
▁애플 -2751
하라 -2752
싱턴 -2753
▁47 -2754
▁짜 -2755
트라 -2756
▁암살 -2757
▁마드리드 -2758
▁반도 -2759
▁노예 -2760
▁수출 -2761
▁참석 -2762
▁후손 -2763
뜨리 -2764
▁고정 -2765
▁전후 -2766
▁저장 -2767
▁오픈 -2768
▁핵심 -2769
▁회전 -2770
▁둘러싸 -2771
ay -2772
뿌리 -2773
▁하늘 -2774
▁보안 -2775
▁Z -2776
▁헤이 -2777
▁집행 -2778
▁법칙 -2779
▁협상 -2780
▁롯 -2781
▁묻 -2782
비드 -2783
▁사전 -2784
퍼스 -2785
▁순서 -2786
▁75 -2787
▁카를 -2788
CA -2789
▁중반 -2790
▁관료 -2791
문화 -2792
▁184 -2793
▁이성 -2794
▁ㄴㅑ -2795
셔널 -2796
▁전용 -2797
각형 -2798
▁본격 -2799
▁유적 -2800
▁듯 -2801
▁플랫 -2802
원군 -2803
▁180 -2804
반도 -2805
▁숫 -2806
▁산맥 -2807
▁자세 -2808
▁공학 -2809
▁대비 -2810
▁주교 -2811
▁가하 -2812
▁권한 -2813
▁대항 -2814
▁ㅈ -2815
▁논리 -2816
▁플레이오프 -2817
▁베이스 -2818
▁아르헨 -2819
레이션 -2820
▁사우 -2821
▁CD -2822
▁연고 -2823
▁에피소드 -2824
▁하위 -2825
▁1972 -2826
리스트 -2827
없이 -2828
▁의무 -2829
▁무엇 -2830
▁로버트 -2831
▁옷 -2832
▁어린이 -2833
▁켈 -2834
▁이란 -2835
▁말기 -2836
▁베를 -2837
▁시각 -2838
▁1920 -2839
▁단일 -2840
터리 -2841
▁스크 -2842
▁공기 -2843
▁46 -2844
▁상품 -2845
▁v -2846
바르 -2847
▁아르헨티나 -2848
▁중세 -2849
▁직원 -2850
▁아스 -2851
▁프란 -2852
▁아파 -2853
▁공무원 -2854
▁보조 -2855
▁의도 -2856
▁이익 -2857
▁효소 -2858
어스 -2859
▁갈등 -2860
▁수여 -2861
▁인상 -2862
▁아미 -2863
▁글로 -2864
▁기하 -2865
▁공포 -2866
▁요한 -2867
▁중심지 -2868
▁전혀 -2869
▁협정 -2870
▁운전 -2871
▁원주 -2872
▁워싱턴 -2873
▁조금 -2874
▁1979 -2875
▁인권 -2876
▁변호사 -2877
▁전라북도 -2878
▁하드 -2879
▁별도 -2880
▁모리 -2881
▁레드 -2882
▁가르치 -2883
▁흔히 -2884
▁파크 -2885
▁덮 -2886
▁창조 -2887
▁비난 -2888
▁원리 -2889
▁우크 -2890
▁잘못 -2891
▁을 -2892
▁벡 -2893
퍼드 -2894
▁정복 -2895
▁밀리 -2896
정부 -2897
▁방면 -2898
▁kg -2899
▁1930 -2900
▁In -2901
▁작곡가 -2902
▁교류 -2903
▁마시 -2904
▁건국 -2905
▁엠 -2906
▁논쟁 -2907
10 -2908
▁1981 -2909
▁투입 -2910
▁셋 -2911
▁금메달 -2912
▁현장 -2913
▁항복 -2914
▁공화 -2915
▁성경 -2916
▁1973 -2917
무라 -2918
▁호텔 -2919
▁세인트 -2920
▁소식 -2921
사키 -2922
▁아침 -2923
▁빙 -2924
▁150 -2925
▁장착 -2926
▁노스 -2927
▁택 -2928
▁창립 -2929
▁유전자 -2930
▁운용 -2931
▁놓이 -2932
▁연산 -2933
▁넘어 -2934
▁플라 -2935
os -2936
▁헨리 -2937
▁심각 -2938
▁공산주의 -2939
▁니콜 -2940
▁건조 -2941
▁김정 -2942
▁훨 -2943
▁교토 -2944
▁요새 -2945
▁산하 -2946
▁코스 -2947
▁중부 -2948
▁논의 -2949
▁합성 -2950
▁오른쪽 -2951
▁코미 -2952
▁서기 -2953
▁형사 -2954
▁본인 -2955
▁오토 -2956
▁출마 -2957
▁금속 -2958
▁인류 -2959
▁원작 -2960
▁연합군 -2961
▁로드 -2962
▁마이클 -2963
▁물러 -2964
▁플레이어 -2965
▁투쟁 -2966
BO -2967
▁무리 -2968
▁방출 -2969
▁훨씬 -2970
▁뿌리 -2971
겨나 -2972
▁오랜 -2973
▁멸망 -2974
▁1940 -2975
▁태국 -2976
▁추측 -2977
▁한때 -2978
▁ㄷㅡㅅ -2979
▁왼쪽 -2980
▁사태 -2981
▁트랙 -2982
▁릴 -2983
▁예산 -2984
▁인정받 -2985
30 -2986
▁오히 -2987
▁패하 -2988
▁복합 -2989
▁베이징 -2990
em -2991
▁노르웨이 -2992
▁아프 -2993
▁1974 -2994
▁제자 -2995
▁전철 -2996
▁어떻게 -2997
▁185 -2998
▁해양 -2999
ter -3000
▁블루 -3001
▁탁 -3002
▁주위 -3003
▁미니 -3004
▁자이 -3005
일보 -3006
젤레스 -3007
▁에어 -3008
▁북서 -3009
▁인공 -3010
▁모스크바 -3011
▁군수 -3012
▁인종 -3013
▁사령관 -3014
▁효율 -3015
▁찍 -3016
시스 -3017
▁사법 -3018
▁구별 -3019
▁드러나 -3020
▁절대 -3021
▁정비 -3022
▁주기 -3023
▁스코틀랜드 -3024
▁반복 -3025
▁입자 -3026
▁메시 -3027
▁소방 -3028
▁출장 -3029
▁SBS -3030
▁숫자 -3031
카와 -3032
▁연관 -3033
▁신체 -3034
▁집안 -3035
▁벗어나 -3036
▁웨스트 -3037
▁노부 -3038
▁오전 -3039
머스 -3040
▁뽑 -3041
▁축제 -3042
▁인조 -3043
▁1948 -3044
▁각본 -3045
▁슬로 -3046
▁54 -3047
듀서 -3048
▁프로듀서 -3049
▁제출 -3050
▁베를린 -3051
▁포위 -3052
나이티 -3053
▁델 -3054
▁흡수 -3055
▁디스 -3056
▁댄 -3057
▁유나이티 -3058
▁가져오 -3059
▁1968 -3060
▁분쟁 -3061
▁이민 -3062
▁수송 -3063
도르 -3064
▁출입 -3065
▁거절 -3066
▁빌리 -3067
▁1976 -3068
▁건립 -3069
▁목사 -3070
▁퍼지 -3071
붙이 -3072
▁중대 -3073
▁해상 -3074
▁경성 -3075
▁전공 -3076
▁프라 -3077
▁보스 -3078
아오 -3079
▁소녀 -3080
▁시점 -3081
▁읍 -3082
▁사령부 -3083
▁취급 -3084
▁개시 -3085
▁한국어 -3086
▁명성 -3087
▁활발 -3088
▁갤 -3089
▁마침 -3090
▁북동 -3091
ㅇㅣ -3092
op -3093
▁관점 -3094
▁포기 -3095
▁텐 -3096
▁우스 -3097
▁1975 -3098
▁응용 -3099
▁오히려 -3100
▁활성 -3101
▁인터뷰 -3102
▁주전 -3103
데스 -3104
▁소스 -3105
▁국도 -3106
▁음력 -3107
▁파라 -3108
▁고용 -3109
▁견해 -3110
▁실리 -3111
▁농민 -3112
▁즐기 -3113
▁주택 -3114
▁신성 -3115
▁취득 -3116
▁던지 -3117
▁넘기 -3118
▁영화제 -3119
▁장악 -3120
▁히데 -3121
▁총독 -3122
▁1978 -3123
▁부활 -3124
▁동원 -3125
▁봉하 -3126
▁성능 -3127
▁국장 -3128
▁진보 -3129
▁학습 -3130
▁고유 -3131
ag -3132
▁56 -3133
▁구속 -3134
서트 -3135
▁유물 -3136
▁Q -3137
▁보험 -3138
▁명명 -3139
▁미드 -3140
▁1971 -3141
▁후원 -3142
▁불법 -3143
▁ㅂㅏㄲ -3144
▁ㅂㅏㄲㅇㅔ -3145
▁포도 -3146
▁한자 -3147
▁여부 -3148
▁북아 -3149
▁1963 -3150
라크 -3151
▁천체 -3152
▁보컬 -3153
▁52 -3154
▁안타 -3155
▁직전 -3156
▁정체 -3157
▁일치 -3158
▁직업 -3159
키스탄 -3160
▁연료 -3161
▁대리 -3162
리케 -3163
▁여객철도 -3164
▁먹이 -3165
산시 -3166
▁폭력 -3167
▁비록 -3168
리어 -3169
▁문헌 -3170
▁전부 -3171
▁교차 -3172
에트 -3173
▁수술 -3174
▁로스앤 -3175
▁로스앤젤레스 -3176
비치 -3177
▁49 -3178
▁65 -3179
▁타이완 -3180
메리 -3181
▁코미디 -3182
▁항공기 -3183
▁관직 -3184
▁닌 -3185
▁시리아 -3186
세이 -3187
▁선교 -3188
▁주관 -3189
기에 -3190
▁미나 -3191
▁늘어나 -3192
▁혼란 -3193
▁아테 -3194
▁끝내 -3195
ce -3196
▁일대 -3197
▁화물 -3198
▁스미 -3199
릭스 -3200
▁브레 -3201
▁테러 -3202
▁캠퍼스 -3203
▁도달 -3204
▁철수 -3205
▁179 -3206
▁1969 -3207
▁수집 -3208
쿠라 -3209
▁편지 -3210
▁도구 -3211
▁00 -3212
▁본사 -3213
▁계통 -3214
▁약속 -3215
▁프로세 -3216
▁고종 -3217
▁넷 -3218
▁증상 -3219
▁학술 -3220
OS -3221
▁영업 -3222
▁백제 -3223
▁누리 -3224
▁임금 -3225
노스 -3226
▁정원 -3227
▁그리스도 -3228
▁팝 -3229
▁장교 -3230
▁폴리 -3231
▁스마 -3232
▁학부 -3233
▁상당히 -3234
▁상륙 -3235
▁제어 -3236
▁롯데 -3237
자기 -3238
▁항구 -3239
▁모시 -3240
▁보관 -3241
▁반영 -3242
▁전파 -3243
▁물러나 -3244
▁아사 -3245
▁데이비드 -3246
▁재료 -3247
▁주간 -3248
▁해산 -3249
▁코로나 -3250
▁SK -3251
▁의존 -3252
▁하나님 -3253
▁콘서트 -3254
▁하우스 -3255
▁모드 -3256
▁프리미 -3257
▁1946 -3258
공항 -3259
▁정지 -3260
▁연재 -3261
▁대화 -3262
▁톰 -3263
▁53 -3264
▁교환 -3265
▁십자 -3266
▁자살 -3267
▁백작 -3268
▁방사 -3269
▁주식회사 -3270
▁부임 -3271
▁불상 -3272
▁구성원 -3273
▁사운드 -3274
▁박정 -3275
▁개체 -3276
▁고리 -3277
▁핑 -3278
▁시호 -3279
▁허가 -3280
▁헤르 -3281
▁영향력 -3282
▁좁 -3283
▁서버 -3284
oc -3285
▁브루 -3286
▁전문가 -3287
▁망명 -3288
▁김영 -3289
▁포트 -3290
▁충청북도 -3291
미터 -3292
▁니시 -3293
▁살인 -3294
▁보건 -3295
▁사유 -3296
▁1964 -3297
▁간단 -3298
▁제일 -3299
▁벨기에 -3300
▁질병 -3301
▁리스 -3302
▁화성 -3303
▁자녀 -3304
▁공통 -3305
▁반발 -3306
▁학원 -3307
▁진입 -3308
▁대략 -3309
▁ㄹㅔ -3310
▁US -3311
▁드리 -3312
▁외국인 -3313
▁베스트 -3314
▁변형 -3315
▁나아가 -3316
▁신분 -3317
병대 -3318
▁스프 -3319
▁파트 -3320
▁판서 -3321
▁변환 -3322
ri -3323
▁겐 -3324
▁인도네시아 -3325
▁미터 -3326
정식 -3327
▁위반 -3328
▁참전 -3329
▁랜 -3330
▁페이 -3331
▁영입 -3332
▁저작 -3333
▁99 -3334
▁임대 -3335
▁시카 -3336
▁창단 -3337
▁상승 -3338
▁학회 -3339
▁국제공항 -3340
▁복무 -3341
▁진압 -3342
▁스토 -3343
▁식품 -3344
▁소비에트 -3345
▁사장 -3346
▁원하 -3347
하마 -3348
▁58 -3349
▁거기 -3350
▁절차 -3351
▁1000 -3352
ㄹㅕ -3353
▁지붕 -3354
▁콤 -3355
▁PC -3356
▁승진 -3357
▁루이스 -3358
▁횡 -3359
▁.. -3360
▁트랜 -3361
▁and -3362
▁꼭 -3363
▁통상 -3364
▁픽 -3365
▁감사 -3366
▁피아노 -3367
▁가을 -3368
▁그레 -3369
▁기도 -3370
▁마케 -3371
▁아라 -3372
▁부장 -3373
▁채용 -3374
▁약하 -3375
▁조작 -3376
▁그런데 -3377
▁리더 -3378
▁문장 -3379
▁주년 -3380
▁공동체 -3381
▁발언 -3382
이어 -3383
▁요코 -3384
▁현역 -3385
▁작사 -3386
▁한반도 -3387
▁생태 -3388
▁탈출 -3389
저우 -3390
▁민법 -3391
▁방송국 -3392
▁1977 -3393
천군 -3394
오르 -3395
▁학과 -3396
▁수영 -3397
▁기호 -3398
▁도망 -3399
▁장수 -3400
▁에도 -3401
▁말레이 -3402
▁친일 -3403
▁큐 -3404
▁다스 -3405
▁화면 -3406
▁누르 -3407
▁임의 -3408
▁라이트 -3409
▁벼 -3410
▁합격 -3411
▁고도 -3412
▁머무르 -3413
▁신청 -3414
▁동남 -3415
▁트로 -3416
▁요인 -3417
▁이중 -3418
▁탄소 -3419
▁포로 -3420
▁청구 -3421
▁분열 -3422
문화재 -3423
▁위상 -3424
아버지 -3425
▁탈락 -3426
▁트라 -3427
프리 -3428
▁그치 -3429
▁엑스 -3430
▁메모리 -3431
▁조절 -3432
▁1949 -3433
▁닥 -3434
▁쫓 -3435
igh -3436
▁특이 -3437
▁FA -3438
▁상원 -3439
▁서식지 -3440
성군 -3441
▁88 -3442
▁예측 -3443
다가 -3444
▁수소 -3445
▁독립운동 -3446
▁부부 -3447
▁이치 -3448
▁연출 -3449
크스 -3450
▁ㅋ -3451
▁카메라 -3452
▁띄 -3453
ation -3454
▁코파 -3455
▁동작 -3456
▁정기 -3457
▁화재 -3458
▁선조 -3459
▁참고 -3460
▁기법 -3461
▁배출 -3462
▁레오 -3463
▁62 -3464
▁국무 -3465
▁전동 -3466
▁1962 -3467
로그 -3468
▁수리 -3469
▁처형 -3470
▁로켓 -3471
▁스토리 -3472
▁개조 -3473
▁앵 -3474
▁황금 -3475
타르 -3476
▁레스 -3477
▁신인 -3478
▁칭하 -3479
▁1967 -3480
▁흉 -3481
▁서원 -3482
▁취소 -3483
려움 -3484
▁주둔 -3485
▁실수 -3486
카이도 -3487
▁기체 -3488
▁출간 -3489
▁왕자 -3490
▁호수 -3491
▁57 -3492
브리 -3493
▁방지 -3494
▁장르 -3495
▁예비 -3496
▁임진 -3497
▁광장 -3498
▁막부 -3499
▁이승만 -3500
▁동성 -3501
▁선전 -3502
▁루트 -3503
천시 -3504
▁롱 -3505
▁방정식 -3506
▁생존 -3507
페라 -3508
드시 -3509
포르 -3510
▁오스만 -3511
▁경로 -3512
▁이시 -3513
▁등지 -3514
▁남서 -3515
▁연안 -3516
▁천연 -3517
▁농구 -3518
라드 -3519
▁지급 -3520
▁Ch -3521
▁공정 -3522
▁서구 -3523
▁흑인 -3524
▁콘스탄 -3525
▁현지 -3526
▁고지 -3527
▁여단 -3528
▁You -3529
▁전주 -3530
▁진주 -3531
▁히트 -3532
▁힘들 -3533
▁어떠 -3534
▁크리 -3535
▁희망 -3536
▁좌우 -3537
▁터널 -3538
▁무덤 -3539
▁일본군 -3540
▁도전 -3541
아나 -3542
▁의혹 -3543
▁선보이 -3544
▁고치 -3545
▁동아 -3546
▁늦 -3547
▁시드 -3548
먼트 -3549
▁이온 -3550
nd -3551
▁181 -3552
인물 -3553
▁반드시 -3554
▁ㄴㅡㄴㄱㅏ -3555
▁노벨 -3556
▁코르 -3557
더스 -3558
▁성향 -3559
▁톱 -3560
▁노리 -3561
방송 -3562
▁스탠 -3563
▁녹색 -3564
▁전면 -3565
▁법정 -3566
ST -3567
▁r -3568
▁그레이 -3569
▁내전 -3570
에이 -3571
▁압력 -3572
▁맞서 -3573
▁KBO -3574
티브 -3575
▁동기 -3576
▁제대로 -3577
▁66 -3578
▁범주 -3579
▁싸움 -3580
▁글자 -3581
▁개신 -3582
▁타임 -3583
▁바둑 -3584
▁1966 -3585
▁전형 -3586
▁둘째 -3587
▁맞이 -3588
▁인지 -3589
▁미국인 -3590
▁묵 -3591
▁유기 -3592
▁68 -3593
▁에르 -3594
라이언 -3595
▁아리 -3596
▁비평 -3597
▁분명 -3598
▁매일 -3599
▁부사 -3600
▁신뢰 -3601
▁해리 -3602
▁1965 -3603
▁흘 -3604
▁%, -3605
▁체코 -3606
▁파악 -3607
▁독특 -3608
▁리처 -3609
▁삽 -3610
▁ㄹㅏㅇ -3611
▁간행 -3612
▁처벌 -3613
▁드물 -3614
▁퀸 -3615
▁물체 -3616
▁유행 -3617
▁별명 -3618
▁아파트 -3619
▁목소리 -3620
이치 -3621
▁모형 -3622
▁183 -3623
▁61 -3624
▁홋 -3625
▁꺾 -3626
▁가시 -3627
▁분할 -3628
▁한계 -3629
▁덧 -3630
▁순환 -3631
▁엄청 -3632
▁분해 -3633
▁복지 -3634
▁오프 -3635
▁밥 -3636
▁알렉산드 -3637
▁클레 -3638
ON -3639
▁곱 -3640
▁돌리 -3641
▁구현 -3642
ER -3643
▁화산 -3644
▁일식 -3645
피스 -3646
르타 -3647
▁평등 -3648
질랜드 -3649
베스 -3650
▁타격 -3651
치아 -3652
▁뉴질랜드 -3653
▁우려 -3654
▁집권 -3655
▁아동 -3656
바라 -3657
▁찰스 -3658
▁웅 -3659
▁어디 -3660
▁광복 -3661
▁묶 -3662
▁벡터 -3663
텐츠 -3664
▁사립 -3665
▁김일 -3666
▁시조 -3667
▁완료 -3668
▁일찍 -3669
▁나들 -3670
▁가상 -3671
▁방해 -3672
▁플래 -3673
▁나들목 -3674
art -3675
▁실질 -3676
▁찌 -3677
▁최다 -3678
▁손자 -3679
▁마르크 -3680
▁파르 -3681
▁풍부 -3682
▁한정 -3683
▁희생 -3684
▁갈색 -3685
▁추구 -3686
▁중기 -3687
▁1961 -3688
ice -3689
▁800 -3690
유럽 -3691
▁분기 -3692
▁호주 -3693
▁물리학 -3694
▁첼 -3695
▁대개 -3696
▁알파 -3697
▁흰 -3698
▁사냥 -3699
▁IS -3700
▁대법 -3701
▁리가 -3702
▁86 -3703
▁캔 -3704
▁확산 -3705
▁부진 -3706
▁레인 -3707
▁전원 -3708
▁창원 -3709
▁일본인 -3710
디션 -3711
▁프린 -3712
▁600 -3713
▁통산 -3714
▁테이 -3715
▁빼앗 -3716
▁완공 -3717
▁출범 -3718
▁판사 -3719
▁기둥 -3720
▁웨이 -3721
▁가까 -3722
▁마법 -3723
est -3724
▁메리 -3725
▁시카고 -3726
▁120 -3727
은행 -3728
▁근본 -3729
▁사임 -3730
▁사형 -3731
▁인증 -3732
▁마침내 -3733
▁점점 -3734
투스 -3735
▁편찬 -3736
▁사마 -3737
▁무게 -3738
▁대공 -3739
▁엄청나 -3740
사스 -3741
▁악기 -3742
▁저술 -3743
▁날개 -3744
틀러 -3745
ap -3746
▁닛 -3747
다르 -3748
▁부하 -3749
▁명확 -3750
▁사원 -3751
▁유치 -3752
▁발굴 -3753
▁re -3754
▁단독 -3755
▁인접 -3756
▁오페라 -3757
▁훗 -3758
▁가나 -3759
▁충격 -3760
▁교향 -3761
▁98 -3762
ak -3763
▁탐사 -3764
▁영웅 -3765
▁홍보 -3766
▁기기 -3767
▁명나라 -3768
▁의지 -3769
▁들어서 -3770
▁제이 -3771
▁조별 -3772
▁상위 -3773
▁성분 -3774
▁뚜 -3775
▁문명 -3776
TV -3777
▁모토 -3778
▁바치 -3779
▁연간 -3780
▁넓이 -3781
▁연구원 -3782
▁1919 -3783
▁1944 -3784
▁악화 -3785
▁개입 -3786
▁분위 -3787
▁회담 -3788
▁포인트 -3789
▁이자 -3790
▁서명 -3791
▁조종 -3792
사자 -3793
라이나 -3794
▁키우 -3795
▁샘 -3796
▁굽 -3797
나가 -3798
AR -3799
▁함락 -3800
▁드라이 -3801
▁고속도로 -3802
ia -3803
▁곽 -3804
▁적절 -3805
▁등장인물 -3806
믹스 -3807
▁임기 -3808
▁학살 -3809
▁렀 -3810
▁링크 -3811
▁추천 -3812
▁의심 -3813
▁도쿠 -3814
▁행렬 -3815
▁당초 -3816
▁카라 -3817
▁드러내 -3818
▁각지 -3819
민주 -3820
▁모임 -3821
우리 -3822
▁포항 -3823
버그 -3824
▁63 -3825
▁쏘 -3826
▁접촉 -3827
▁훌 -3828
▁여론 -3829
▁변수 -3830
▁동서 -3831
▁무시 -3832
▁뮤지 -3833
세우 -3834
▁입법 -3835
▁멘 -3836
▁자전 -3837
▁프리미어 -3838
▁골든 -3839
▁경전 -3840
▁1941 -3841
▁95 -3842
▁기리 -3843
▁자극 -3844
▁순수 -3845
메이 -3846
▁사실상 -3847
▁생겨나 -3848
▁스마트 -3849
▁사정 -3850
▁올해 -3851
▁독일군 -3852
▁기온 -3853
▁그라 -3854
▁개막 -3855
러리 -3856
▁세르비아 -3857
▁팽 -3858
▁74 -3859
▁순간 -3860
▁DNA -3861
▁확률 -3862
▁프로그래 -3863
ct -3864
▁루스 -3865
학생 -3866
▁공로 -3867
▁바위 -3868
아보 -3869
▁59 -3870
▁IC -3871
숭이 -3872
▁공헌 -3873
▁네이 -3874
일리 -3875
▁징역 -3876
▁매장 -3877
▁닉 -3878
▁심사 -3879
▁락 -3880
▁진정 -3881
▁혼합 -3882
▁한국인 -3883
▁구원 -3884
▁득표 -3885
▁앤드 -3886
▁아티 -3887
▁재배 -3888
▁그때 -3889
▁등판 -3890
▁Lo -3891
▁튜 -3892
▁178 -3893
▁추산 -3894
▁보고서 -3895
▁수석 -3896
▁오랫 -3897
연히 -3898
▁꼽 -3899
▁방위 -3900
▁실현 -3901
▁페르시아 -3902
▁커뮤 -3903
대부 -3904
▁예전 -3905
▁언제 -3906
▁특별시 -3907
무부 -3908
▁랜드 -3909
코스 -3910
▁줄기 -3911
▁태도 -3912
▁개신교 -3913
▁감시 -3914
▁텍사스 -3915
▁SS -3916
▁1958 -3917
▁출력 -3918
▁급제 -3919
▁백성 -3920
▁ㄴㅡ -3921
▁시사 -3922
ul -3923
▁왕실 -3924
▁훗날 -3925
▁지형 -3926
▁프라이 -3927
▁뱅 -3928
▁안드로 -3929
▁미쓰 -3930
▁82 -3931
▁양쪽 -3932
▁피터 -3933
▁커뮤니 -3934
▁1947 -3935
▁그래픽 -3936
▁오랫동안 -3937
▁대선 -3938
▁이닝 -3939
▁점수 -3940
▁침략 -3941
▁균형 -3942
▁160 -3943
▁춤 -3944
▁단편 -3945
▁영지 -3946
▁to -3947
리히 -3948
▁줄어들 -3949
▁72 -3950
이너 -3951
▁76 -3952
▁;/ -3953
▁재건 -3954
▁복원 -3955
▁원형 -3956
▁에드워드 -3957
▁경남 -3958
▁흐름 -3959
▁긍 -3960
▁다케 -3961
▁리처드 -3962
▁대량 -3963
▁승객 -3964
▁AFC -3965
▁1956 -3966
▁이라크 -3967
▁안토 -3968
▁발발 -3969
▁제사 -3970
▁저녁 -3971
▁승부 -3972
▁아이돌 -3973
▁보물 -3974
▁신부 -3975
▁교구 -3976
▁여왕 -3977
▁가와 -3978
▁미야 -3979
▁작위 -3980
▁고르 -3981
▁테스트 -3982
▁포켓 -3983
▁입력 -3984
▁동명 -3985
▁팔리 -3986
▁멀리 -3987
▁77 -3988
▁무사 -3989
▁권위 -3990
ie -3991
▁시상 -3992
▁안동 -3993
▁프랑크 -3994
▁비상 -3995
▁리버 -3996
▁데스 -3997
▁잠수 -3998
ㅡㅁ -3999
▁분위기 -4000
▁한글 -4001
메리칸 -4002
리노 -4003
▁타워 -4004
▁타자 -4005
▁기울 -4006
▁확립 -4007
▁비치 -4008
▁정수 -4009
▁석유 -4010
▁1939 -4011
▁ㄲ -4012
▁일상 -4013
▁침입 -4014
▁축구단 -4015
▁개설 -4016
▁67 -4017
▁도요 -4018
▁마무 -4019
▁복음 -4020
▁업적 -4021
▁원수 -4022
▁바깥 -4023
▁과학자 -4024
▁폭탄 -4025
▁와이 -4026
▁암호 -4027
▁앉 -4028
▁사자 -4029
레나 -4030
왜란 -4031
▁Th -4032
▁임진왜란 -4033
▁가설 -4034
▁더블 -4035
▁병합 -4036
▁혁신 -4037
ud -4038
▁섞 -4039
▁민중 -4040
▁복수 -4041
▁창작 -4042
레옹 -4043
IA -4044
▁수익 -4045
▁연예 -4046
일스 -4047
og -4048
▁동양 -4049
▁가공 -4050
▁대왕 -4051
에른 -4052
▁다운 -4053
▁어깨 -4054
▁겹 -4055
▁ㄴㅔ -4056
▁일시 -4057
▁자식 -4058
▁나폴레옹 -4059
ㄹㅈㅣ -4060
▁기소 -4061
▁사제 -4062
ly -4063
마르 -4064
▁파워 -4065
▁국기 -4066
▁브라운 -4067
▁시마 -4068
▁신고 -4069
▁주최 -4070
th -4071
▁85 -4072
▁부지 -4073
▁빅토 -4074
▁발음 -4075
▁신자 -4076
▁훈장 -4077
마니아 -4078
▁우라 -4079
▁내셔널 -4080
▁인쇄 -4081
▁대성 -4082
▁후계 -4083
▁산화 -4084
▁진단 -4085
▁힌 -4086
▁계층 -4087
▁ㅇㅜ -4088
▁공중 -4089
▁구글 -4090
▁본질 -4091
ist -4092
▁당국 -4093
▁폐쇄 -4094
▁평안 -4095
▁끼치 -4096
레인 -4097
이센 -4098
▁1954 -4099
▁깃 -4100
▁력 -4101
▁자이언 -4102
▁평론 -4103
▁도모 -4104
▁ㅁ -4105
▁덜 -4106
▁가량 -4107
▁쌀 -4108
▁생물학 -4109
▁고기 -4110
▁가담 -4111
▁거듭 -4112
▁후속 -4113
ight -4114
▁레알 -4115
▁DV -4116
▁노출 -4117
BA -4118
▁심지 -4119
▁탱 -4120
▁동방 -4121
▁아트 -4122
조합 -4123
▁참모 -4124
▁빌보드 -4125
▁1952 -4126
▁뷰 -4127
▁73 -4128
▁조조 -4129
▁가이 -4130
아티아 -4131
▁라스 -4132
▁비서 -4133
▁세리 -4134
▁역학 -4135
▁아테네 -4136
▁크로아티아 -4137
▁96 -4138
▁타운 -4139
▁총회 -4140
▁보살 -4141
체스터 -4142
▁대지 -4143
▁박정희 -4144
▁무한 -4145
▁탈퇴 -4146
▁움직임 -4147
▁환승 -4148
▁람 -4149
▁뮤지컬 -4150
▁* -4151
▁들이 -4152
▁포스트 -4153
▁전신 -4154
▁인용 -4155
아지 -4156
▁지나가 -4157
▁화이트 -4158
▁셔 -4159
▁81 -4160
▁고통 -4161
▁오가 -4162
▁로봇 -4163
▁중력 -4164
▁다소 -4165
▁보상 -4166
▁스타디 -4167
▁Al -4168
▁예방 -4169
▁이혼 -4170
▁78 -4171
AS -4172
▁국정 -4173
▁작동 -4174
▁오카 -4175
▁바닥 -4176
▁실력 -4177
▁채우 -4178
▁타이거 -4179
▁뤼 -4180
▁뮌 -4181
아하 -4182
AT -4183
너스 -4184
느리 -4185
▁행복 -4186
▁상관 -4187
▁그렇게 -4188
필더 -4189
▁매체 -4190
▁재학 -4191
▁수도원 -4192
▁교리 -4193
▁청주 -4194
▁미드필더 -4195
▁젠 -4196
▁결론 -4197
시오 -4198
▁바이에른 -4199
▁장남 -4200
▁도덕 -4201
▁따로 -4202
▁심장 -4203
▁비례 -4204
▁최후 -4205
▁메달 -4206
▁김성 -4207
▁절반 -4208
▁전투기 -4209
▁센트 -4210
▁천안 -4211
▁화장 -4212
▁사무소 -4213
▁전남 -4214
▁화합 -4215
터스 -4216
▁지사 -4217
▁질환 -4218
▁좋아하 -4219
바로 -4220
토스 -4221
▁포스 -4222
▁약물 -4223
▁202 -4224
▁보르 -4225
▁피해자 -4226
▁붓 -4227
▁김대 -4228
▁산소 -4229
세포 -4230
타이 -4231
▁인생 -4232
▁그만 -4233
ess -4234
▁손상 -4235
▁지향 -4236
▁하인 -4237
▁AT -4238
의정 -4239
▁빌딩 -4240
자치 -4241
클리 -4242
▁황후 -4243
▁가까이 -4244
▁국군 -4245
▁사우스 -4246
▁71 -4247
▁모바 -4248
▁블라 -4249
▁1959 -4250
▁기상 -4251
▁91 -4252
▁문신 -4253
▁여섯 -4254
▁Li -4255
▁유산 -4256
▁혼인 -4257
▁피부 -4258
▁패션 -4259
▁NH -4260
▁전직 -4261
▁골드 -4262
▁177 -4263
▁당나라 -4264
▁선박 -4265
▁살리 -4266
▁불만 -4267
▁소득 -4268
▁주력 -4269
▁메시지 -4270
▁글로벌 -4271
▁상역 -4272
▁세부 -4273
▁콘스탄티 -4274
▁녀 -4275
▁백만 -4276
▁유통 -4277
▁하원 -4278
▁위키 -4279
▁윗 -4280
▁총장 -4281
▁인원 -4282
▁일컫 -4283
▁처하 -4284
▁승려 -4285
▁관여 -4286
▁액션 -4287
▁규제 -4288
▁신사 -4289
▁심판 -4290
▁개방 -4291
스트라 -4292
▁햄 -4293
▁가마 -4294
▁검토 -4295
▁디스크 -4296
직자 -4297
▁아웃 -4298
하여 -4299
쿠스 -4300
▁요금 -4301
▁마무리 -4302
▁상실 -4303
▁긍정 -4304
▁1942 -4305
▁부담 -4306
▁호소 -4307
▁동해 -4308
▁가슴 -4309
▁그린 -4310
▁쿠데 -4311
▁통화 -4312
▁퀴 -4313
▁AP -4314
▁수요 -4315
▁좌상 -4316
▁프로이센 -4317
가락 -4318
▁왕비 -4319
▁의대 -4320
IV -4321
리학 -4322
▁소멸 -4323
▁창당 -4324
▁결의 -4325
▁87 -4326
▁이명 -4327
▁가요 -4328
미야 -4329
▁드래프트 -4330
▁;, -4331
▁모바일 -4332
▁구매 -4333
▁페이지 -4334
ub -4335
▁연습 -4336
▁말레이시아 -4337
▁적합 -4338
▁st -4339
▁조카 -4340
▁사격 -4341
▁알고리 -4342
▁1943 -4343
▁설득 -4344
▁처분 -4345
▁억제 -4346
▁일기 -4347
▁오직 -4348
▁주석 -4349
▁테크 -4350
▁홋카이도 -4351
가니 -4352
▁크루 -4353
▁김일성 -4354
▁내려오 -4355
▁전당 -4356
▁159 -4357
▁부산광역시 -4358
▁필드 -4359
▁싱가 -4360
▁심지어 -4361
▁위대 -4362
▁싱가포르 -4363
▁1955 -4364
▁개성 -4365
▁쿠데타 -4366
▁분노 -4367
▁음악가 -4368
▁대책 -4369
▁무료 -4370
▁선임 -4371
▁야스 -4372
▁넘어가 -4373
▁원년 -4374
▁일본어 -4375
▁톨 -4376
▁잭슨 -4377
▁1953 -4378
▁스타디움 -4379
▁84 -4380
▁ㅎ -4381
▁\ -4382
▁1936 -4383
유산 -4384
▁일체 -4385
▁알고리즘 -4386
▁발탁 -4387
▁사도 -4388
▁700 -4389
▁천주교 -4390
드리히 -4391
▁토론토 -4392
▁티베 -4393
▁쾌 -4394
▁왕후 -4395
▁루마니아 -4396
미르 -4397
히로 -4398
▁진영 -4399
ab -4400
▁크로스 -4401
▁유형문화재 -4402
▁상속 -4403
▁세자 -4404
▁테마 -4405
▁기동 -4406
▁시나 -4407
▁힙 -4408
▁프랭 -4409
▁이와 -4410
데이 -4411
▁카스 -4412
▁사무실 -4413
▁닫 -4414
▁여우 -4415
▁어려움 -4416
▁Re -4417
▁정차 -4418
▁콘텐츠 -4419
▁1910 -4420
▁폭격 -4421
▁디아 -4422
▁궁전 -4423
▁태조 -4424
▁프리드리히 -4425
▁용도 -4426
▁유고 -4427
▁전북 -4428
▁전동차 -4429
주군 -4430
▁김종 -4431
▁불안 -4432
▁사라 -4433
▁리드 -4434
▁1900 -4435
▁타인 -4436
▁딜 -4437
ine -4438
버리 -4439
▁나쁘 -4440
▁학사 -4441
▁후쿠오카 -4442
▁챔피언십 -4443
▁히틀러 -4444
▁즉시 -4445
▁조지아 -4446
▁굳 -4447
▁독재 -4448
▁음성 -4449
▁남아프리카 -4450
올리 -4451
▁발명 -4452
▁오이 -4453
▁원주민 -4454
▁강릉 -4455
▁DVD -4456
▁메이지 -4457
▁스티븐 -4458
구리 -4459
▁97 -4460
시스코 -4461
▁주소 -4462
▁포켓몬 -4463
▁에서 -4464
▁개칭 -4465
▁아메리칸 -4466
▁막대 -4467
구치 -4468
우치 -4469
래프트 -4470
▁검색 -4471
▁부동 -4472
▁깊이 -4473
▁몰리 -4474
▁연설 -4475
▁1957 -4476
ew -4477
▁구입 -4478
▁휴대 -4479
▁딘 -4480
▁영양 -4481
▁각국 -4482
▁추방 -4483
▁대체로 -4484
란색 -4485
베르트 -4486
▁진격 -4487
▁세트 -4488
▁전송 -4489
▁수호 -4490
▁본명 -4491
▁조상 -4492
독부 -4493
▁코리아 -4494
▁이즈 -4495
▁1914 -4496
▁최우 -4497
▁인디언 -4498
원경 -4499
▁필수 -4500
미니 -4501
▁스미스 -4502
머리 -4503
▁사기 -4504
달리 -4505
▁수업 -4506
▁69 -4507
▁동북 -4508
▁대우 -4509
▁흔하 -4510
▁전술 -4511
ue -4512
▁덩 -4513
▁광범 -4514
▁사과 -4515
▁선형 -4516
▁신장 -4517
▁이마 -4518
▁늘리 -4519
▁초점 -4520
▁자국 -4521
▁92 -4522
EC -4523
ㄴㅑ -4524
▁불가리아 -4525
▁도마 -4526
▁사양 -4527
▁넥 -4528
▁알바 -4529
▁클로 -4530
제국 -4531
▁섹 -4532
▁바르셀 -4533
▁바르셀로나 -4534
▁랑 -4535
▁=" -4536
▁신도 -4537
▁미술관 -4538
▁담기 -4539
▁림 -4540
▁개량 -4541
▁미리 -4542
▁핫 -4543
▁노트 -4544
▁라이프 -4545
지사 -4546
▁커버 -4547
▁101 -4548
로지 -4549
▁서술 -4550
▁펑 -4551
▁배포 -4552
▁천만 -4553
▁렀다 -4554
▁재즈 -4555
▁시내버스 -4556
▁느낌 -4557
▁부위 -4558
▁주니어 -4559
▁유효 -4560
▁기다리 -4561
▁HD -4562
▁급격 -4563
▁1938 -4564
▁스프링 -4565
▁션 -4566
▁후임 -4567
총리 -4568
▁윙 -4569
▁립 -4570
▁연락 -4571
▁이내 -4572
▁석사 -4573
▁01 -4574
▁빚 -4575
리그 -4576
▁완벽 -4577
▁상주 -4578
▁랩 -4579
산화 -4580
▁잡히 -4581
▁오키 -4582
▁저자 -4583
자키 -4584
▁상인 -4585
비히 -4586
다랗 -4587
▁마스터 -4588
▁운항 -4589
▁고시 -4590
▁똑 -4591
▁방언 -4592
▁고급 -4593
▁끌어 -4594
▁알레 -4595
▁해발 -4596
▁화석 -4597
▁웰 -4598
▁국적 -4599
▁상수 -4600
▁언덕 -4601
▁마르크스 -4602
BM -4603
▁라틴어 -4604
▁늑 -4605
▁화려 -4606
▁스탈 -4607
▁추기 -4608
▁소형 -4609
▁연평 -4610
▁실천 -4611
▁안드 -4612
▁손실 -4613
▁다스리 -4614
▁블록 -4615
▁1918 -4616
▁풋 -4617
▁게다가 -4618
▁대만 -4619
▁소비자 -4620
다니 -4621
총독부 -4622
▁조선총독부 -4623
▁언스 -4624
▁ㄲㅔ -4625
▁정교회 -4626
▁백인 -4627
▁암컷 -4628
▁올스타 -4629
▁1951 -4630
▁숨기 -4631
펙트 -4632
민주당 -4633
▁주체 -4634
▁반사 -4635
▁집회 -4636
▁게르 -4637
▁고위 -4638
▁사퇴 -4639
▁물건 -4640
▁1932 -4641
▁미스 -4642
▁의문 -4643
▁이념 -4644
▁일련 -4645
▁경제학 -4646
▁계곡 -4647
▁짝 -4648
▁on -4649
▁미시 -4650
▁질문 -4651
▁{ -4652
▁개별 -4653
▁1937 -4654
필드 -4655
▁영주 -4656
무늬 -4657
▁경비 -4658
▁우크라 -4659
가시 -4660
▁차단 -4661
▁실업 -4662
▁내놓 -4663
▁ㄷㅡㅅㅇㅣ -4664
▁뮌헨 -4665
▁분화 -4666
▁탄압 -4667
▁닥터 -4668
▁싱어 -4669
▁이스트 -4670
ect -4671
▁면역 -4672
▁설치류 -4673
▁엘리자 -4674
▁고객 -4675
▁만든 -4676
▁89 -4677
▁감각 -4678
▁첩 -4679
▁퀘 -4680
여금 -4681
▁선포 -4682
▁칭호 -4683
▁클리 -4684
▁말리 -4685
▁크라 -4686
▁번지 -4687
▁진학 -4688
▁추기경 -4689
▁회로 -4690
▁마틴 -4691
▁용인 -4692
▁후계자 -4693
▁체험 -4694
사전 -4695
저스 -4696
▁흰색 -4697
▁1935 -4698
▁구상 -4699
▁사찰 -4700
▁분교 -4701
▁이웃 -4702
▁부친 -4703
▁재개 -4704
▁93 -4705
▁트레이드 -4706
바키아 -4707
▁광범위 -4708
▁격파 -4709
▁찬성 -4710
▁고양이 -4711
▁OS -4712
▁타율 -4713
▁베리 -4714
▁화제 -4715
▁182 -4716
▁갑자기 -4717
▁둥글 -4718
▁프랑스군 -4719
▁중추 -4720
▁비행기 -4721
▁기부 -4722
▁자본주의 -4723
▁로렌 -4724
▁수치 -4725
▁파티 -4726
▁화폐 -4727
▁Be -4728
▁곡선 -4729
▁겉 -4730
▁거짓 -4731
▁당원 -4732
▁비스 -4733
▁ㄱㅗㄴ -4734
▁항공사 -4735
브라 -4736
▁자산 -4737
▁지수 -4738
▁공신 -4739
▁발간 -4740
▁질서 -4741
▁성남 -4742
동생 -4743
▁항의 -4744
▁클래식 -4745
런스 -4746
ㅅㅜ -4747
▁쿨 -4748
▁법학 -4749
▁양산 -4750
▁잠수함 -4751
▁유배 -4752
▁전적 -4753
센트 -4754
▁세월 -4755
▁촉진 -4756
▁카리 -4757
▁아티스트 -4758
IN -4759
▁쿼 -4760
▁남녀 -4761
▁반지 -4762
▁전망 -4763
▁증언 -4764
어로 -4765
▁가속 -4766
▁개척 -4767
▁되돌 -4768
▁탕 -4769
슈타인 -4770
▁마루 -4771
▁수백 -4772
▁FM -4773
▁푸르 -4774
▁소화 -4775
▁꾸준 -4776
▁시트 -4777
▁팩 -4778
▁데리 -4779
ore -4780
▁웃 -4781
▁대법원 -4782
▁티베트 -4783
▁시모 -4784
▁툴 -4785
추어 -4786
▁94 -4787
▁영원 -4788
▁운송 -4789
▁목성 -4790
▁보편 -4791
▁CP -4792
▁습격 -4793
▁허락 -4794
▁히어로 -4795
벤트 -4796
▁극단 -4797
▁축소 -4798
▁마주 -4799
▁구멍 -4800
▁1933 -4801
도사 -4802
▁정류 -4803
▁탄핵 -4804
▁물고기 -4805
▁원시 -4806
ell -4807
▁쟁 -4808
▁동화 -4809
▁프랑스어 -4810
▁대칭 -4811
▁아오 -4812
▁영구 -4813
our -4814
▁소문 -4815
▁소위 -4816
▁군부 -4817
▁강남 -4818
▁조항 -4819
▁1928 -4820
▁프로그래밍 -4821
▁익스 -4822
▁핸 -4823
▁소집 -4824
▁덧붙이 -4825
▁콜로 -4826
공사 -4827
프레 -4828
다수 -4829
▁경사 -4830
▁수십 -4831
▁직무 -4832
돼지 -4833
▁멀티 -4834
▁칠레 -4835
▁선호 -4836
닉스 -4837
슬링 -4838
▁내세우 -4839
▁동경 -4840
▁태종 -4841
▁료 -4842
▁펴 -4843
▁09 -4844
▁79 -4845
▁개명 -4846
▁시신 -4847
▁1924 -4848
▁메트로 -4849
ID -4850
▁고교 -4851
▁누스 -4852
▁어둡 -4853
리우스 -4854
▁상대식 -4855
▁자매 -4856
▁간부 -4857
▁실내 -4858
사이 -4859
▁국토 -4860
▁무용 -4861
▁부속 -4862
▁콜롬 -4863
▁해제 -4864
▁자이언츠 -4865
▁뼈 -4866
end -4867
▁원자력 -4868
▁이행 -4869
▁조기 -4870
▁열매 -4871
▁주일 -4872
▁펀 -4873
▁사막 -4874
▁개장 -4875
▁파키스탄 -4876
▁04 -4877
▁댄스 -4878
▁오버 -4879
▁입대 -4880
▁발레 -4881
▁프로토 -4882
▁지불 -4883
▁대로 -4884
▁약화 -4885
▁김해 -4886
▁재능 -4887
▁110 -4888
▁충분히 -4889
▁따오 -4890
▁하여금 -4891
▁정통 -4892
▁합동 -4893
페이스 -4894
▁플로리 -4895
▁무너지 -4896
▁토너 -4897
▁혼자 -4898
▁걷 -4899
▁강전 -4900
▁형상 -4901
▁브로 -4902
들리 -4903
▁회색 -4904
▁틈 -4905
▁정면 -4906
▁토착 -4907
▁동굴 -4908
▁오류 -4909
▁ㅈㅗ -4910
▁매치 -4911
▁의정부 -4912
▁구름 -4913
▁판정 -4914
▁이벤트 -4915
▁08 -4916
▁멈 -4917
▁러브 -4918
▁대승 -4919
▁재생 -4920
▁행적 -4921
▁스카이 -4922
▁존스 -4923
▁종사 -4924
▁하와 -4925
▁아마추어 -4926
▁퓨 -4927
코프 -4928
▁지중 -4929
▁안티 -4930
▁이재 -4931
▁지표 -4932
▁지나치 -4933
▁토마스 -4934
▁액체 -4935
ㅊㅏ -4936
▁토대 -4937
ill -4938
▁틴 -4939
▁Co -4940
▁법안 -4941
▁진실 -4942
▁보스턴 -4943
▁그리하여 -4944
른바 -4945
▁ㄹㅣㅇ -4946
▁스크린 -4947
▁당신 -4948
▁주문 -4949
▁총재 -4950
▁코너 -4951
려가 -4952
베리아 -4953
▁놀이 -4954
▁유아 -4955
▁성서 -4956
과이 -4957
▁MS -4958
▁룸 -4959
ers -4960
▁평면 -4961
▁손해 -4962
▁초상 -4963
▁이른바 -4964
▁안토니 -4965
▁장점 -4966
▁사이드 -4967
ain -4968
▁ㅎㅏ -4969
▁서방 -4970
▁170 -4971
▁세로 -4972
▁다큐 -4973
티스 -4974
▁베네치아 -4975
▁우에 -4976
▁스톤 -4977
▁오케 -4978
▁반하 -4979
▁배열 -4980
▁가난 -4981
▁당대 -4982
▁자르 -4983
어도 -4984
▁강도 -4985
▁편의 -4986
▁83 -4987
▁개찰 -4988
테스 -4989
▁비잔 -4990
▁수컷 -4991
▁전제 -4992
▁중계 -4993
▁흔적 -4994
▁메탈 -4995
▁부리 -4996
▁단순히 -4997
▁뻗 -4998
▁봉기 -4999
▁경북 -5000
▁장로 -5001
▁젤 -5002
▁호흡 -5003
AN -5004
데르 -5005
▁스케이 -5006
▁자랑 -5007
▁중동 -5008
▁힙합 -5009
▁엄격 -5010
ㅋㅡㅁ -5011
▁경고 -5012
▁부서 -5013
▁페리 -5014
▁요코하마 -5015
▁토너먼트 -5016
▁분산 -5017
ard -5018
▁De -5019
▁늑대 -5020
▁무력 -5021
조선 -5022
▁안쪽 -5023
▁철거 -5024
▁대사관 -5025
▁메르 -5026
▁재임 -5027
고속 -5028
▁국방부 -5029
▁벼슬 -5030
▁장례 -5031
▁투스 -5032
▁경찰서 -5033
▁혈액 -5034
▁아프가니 -5035
▁선로 -5036
▁함경 -5037
▁한성 -5038
▁판타 -5039
▁인민군 -5040
▁레닌 -5041
제르 -5042
즈니 -5043
▁1934 -5044
▁빵 -5045
▁근육 -5046
▁닐 -5047
▁나이트 -5048
▁주재 -5049
▁대원 -5050
▁북미 -5051
▁해설 -5052
▁접속 -5053
▁할아버지 -5054
리나 -5055
▁코어 -5056
▁발전소 -5057
▁농장 -5058
▁포드 -5059
▁광산 -5060
▁동지 -5061
▁불러 -5062
▁마감 -5063
▁추적 -5064
크래프트 -5065
세대 -5066
▁쌓이 -5067
▁맨체스터 -5068
▁대가 -5069
▁양국 -5070
레오 -5071
▁쿠바 -5072
성기 -5073
아르 -5074
▁거스 -5075
▁안내 -5076
▁노동당 -5077
▁맡기 -5078
▁구사 -5079
키퍼 -5080
▁일단 -5081
▁입구 -5082
▁동메달 -5083
▁밸 -5084
▁대동 -5085
▁중지 -5086
▁골키퍼 -5087
유키 -5088
▁리스트 -5089
공업 -5090
▁글리 -5091
▁ㅁㅏㄴㅋㅡㅁ -5092
▁동구 -5093
▁현존 -5094
▁레지 -5095
▁시계 -5096
▁사망자 -5097
▁찾아가 -5098
사르 -5099
▁곤충 -5100
베르크 -5101
▁뱀 -5102
▁야당 -5103
▁조문 -5104
▁주자 -5105
▁강요 -5106
▁본토 -5107
▁항해 -5108
▁130 -5109
▁남극 -5110
▁Me -5111
▁사카 -5112
▁탓 -5113
▁르네 -5114
▁복사 -5115
▁테르 -5116
▁유키 -5117
▁거점 -5118
야스 -5119
하이 -5120
▁토머스 -5121
▁아프가니스탄 -5122
▁정조 -5123
▁140 -5124
▁거느리 -5125
▁떼 -5126
▁은메달 -5127
▁철학자 -5128
▁화합물 -5129
드라 -5130
▁느리 -5131
▁알렉산더 -5132
위대 -5133
▁Sh -5134
▁로즈 -5135
▁재판소 -5136
▁부호 -5137
▁계수 -5138
▁부작 -5139
▁도쿠가와 -5140
ne -5141
▁김구 -5142
▁부처 -5143
▁선물 -5144
▁정확히 -5145
OR -5146
▁가볍 -5147
▁중성 -5148
▁멈추 -5149
▁스탈린 -5150
▁아과 -5151
▁필립 -5152
워하 -5153
▁돔 -5154
▁펄 -5155
▁멸종 -5156
▁아비 -5157
▁식량 -5158
▁심리학 -5159
▁페이스 -5160
▁모노 -5161
▁오염 -5162
▁칼리지 -5163
▁새끼 -5164
▁종전 -5165
레아 -5166
안군 -5167
▁내려가 -5168
▁초청 -5169
돌프 -5170
▁클래스 -5171
▁관계자 -5172
▁th -5173
▁증권 -5174
AM -5175
▁매주 -5176
▁농촌 -5177
▁이정 -5178
▁필라 -5179
▁모자 -5180
▁체육관 -5181
▁세금 -5182
▁구로 -5183
▁로맨 -5184
▁석방 -5185
▁위안 -5186
▁역전 -5187
보내 -5188
▁독점 -5189
▁휘하 -5190
▁금강 -5191
▁ㄷㅜ -5192
▁ST -5193
▁훼 -5194
▁그래프 -5195
▁1931 -5196
▁간격 -5197
▁구리 -5198
▁아틀 -5199
▁존슨 -5200
▁타카 -5201
▁건너가 -5202
▁대다수 -5203
▁진동 -5204
▁히로시마 -5205
▁특별히 -5206
▁아이스 -5207
▁그리스어 -5208
▁연호 -5209
베리 -5210
▁특허 -5211
all -5212
▁새벽 -5213
▁성명 -5214
▁기생 -5215
▁교향곡 -5216
▁타원 -5217
▁파울 -5218
▁강등 -5219
▁풍속 -5220
▁cod -5221
사관 -5222
▁폭풍 -5223
게이 -5224
▁목포 -5225
▁자유주의 -5226
▁겸하 -5227
▁윤리 -5228
▁An -5229
▁기병 -5230
▁일곱 -5231
▁유력 -5232
▁문법 -5233
레이크 -5234
므로 -5235
▁코트 -5236
나르 -5237
▁인터페이스 -5238
▁꾼 -5239
클린 -5240
▁명시 -5241
▁부품 -5242
▁버지 -5243
▁비즈 -5244
▁대한제국 -5245
▁도메 -5246
▁기르 -5247
▁부드 -5248
▁공룡 -5249
▁비중 -5250
▁원조 -5251
▁미카 -5252
▁사관 -5253
▁물리치 -5254
▁관객 -5255
ㄹㅏㄴ -5256
▁트랜스 -5257
▁캠프 -5258
▁달라지 -5259
▁마그 -5260
▁하버 -5261
▁해협 -5262
▁좌파 -5263
▁커다랗 -5264
밀리 -5265
▁250 -5266
▁네이션 -5267
▁스트라이 -5268
▁뚜렷 -5269
▁킬로 -5270
▁유대인 -5271
▁무늬 -5272
▁감옥 -5273
▁미분 -5274
▁집필 -5275
▁건담 -5276
▁그러므로 -5277
▁교도 -5278
▁동성애 -5279
▁지휘관 -5280
▁고고 -5281
▁합리 -5282
▁176 -5283
▁1921 -5284
느님 -5285
ang -5286
▁가구 -5287
▁박근 -5288
▁수산 -5289
▁유발 -5290
▁타점 -5291
▁하느님 -5292
▁박스 -5293
▁공세 -5294
▁단장 -5295
▁지칭 -5296
▁스테이션 -5297
▁숙종 -5298
▁입사 -5299
둥이 -5300
▁05 -5301
▁라트 -5302
▁찾아오 -5303
▁1929 -5304
널드 -5305
▁삼각 -5306
▁키스 -5307
▁협약 -5308
▁운동가 -5309
▁캡 -5310
▁대결 -5311
▁소요 -5312
▁수비수 -5313
▁대변 -5314
▁훌륭 -5315
수량 -5316
▁칙 -5317
▁갤럭 -5318
▁연계 -5319
▁닮 -5320
▁비틀 -5321
▁도망치 -5322
▁후퇴 -5323
▁y -5324
▁빗 -5325
▁틱 -5326
▁수반 -5327
▁동반 -5328
▁성씨 -5329
▁압축 -5330
▁원장 -5331
투아 -5332
생활 -5333
▁문재 -5334
미아 -5335
▁착용 -5336
▁부드럽 -5337
▁지부 -5338
ss -5339
▁AC -5340
▁SC -5341
▁기갑 -5342
▁발렌 -5343
키스 -5344
▁경유 -5345
▁무겁 -5346
▁ㅅㅠ -5347
▁플로리다 -5348
▁갤럭시 -5349
슬리 -5350
▁과일 -5351
마이 -5352
베이스 -5353
▁평론가 -5354
▁1925 -5355
▁일환 -5356
▁조화 -5357
▁마라 -5358
▁잠재 -5359
▁롬 -5360
▁공국 -5361
▁극복 -5362
시스트 -5363
▁07 -5364
▁약탈 -5365
▁올라오 -5366
▁첫째 -5367
▁섬유 -5368
▁1923 -5369
페인 -5370
▁도호 -5371
▁연평균 -5372
▁다다 -5373
▁매니 -5374
▁목숨 -5375
▁불화 -5376
▁북아메리카 -5377
▁민속 -5378
▁ㅋㅜ -5379
▁연상 -5380
▁의석 -5381
▁안드로이드 -5382
▁첸 -5383
▁서적 -5384
▁유비 -5385
▁추대 -5386
▁ㅇㅛ -5387
▁추락 -5388
▁캘리포니아주 -5389
▁덕분 -5390
▁장갑 -5391
▁남아메리카 -5392
ity -5393
▁진흥 -5394
▁쯤 -5395
타카 -5396
▁임신 -5397
▁중립 -5398
▁관리자 -5399
▁프로세서 -5400
▁타입 -5401
▁유성 -5402
▁라이온 -5403
▁김대중 -5404
무게 -5405
▁살아 -5406
▁몸무게 -5407
▁샤를 -5408
▁트레이 -5409
▁영감 -5410
▁이수 -5411
▁웨일스 -5412
▁얀 -5413
니즘 -5414
▁수명 -5415
▁요원 -5416
▁명사 -5417
▁페루 -5418
▁하와이 -5419
카스 -5420
▁성직자 -5421
▁어항 -5422
▁단선 -5423
▁우드 -5424
▁가끔 -5425
▁사당 -5426
▁시게 -5427
▁고분 -5428
▁설비 -5429
▁주사 -5430
▁램 -5431
▁북서쪽 -5432
▁갱 -5433
대문 -5434
▁EP -5435
▁동인 -5436
▁기관차 -5437
▁딱 -5438
▁근로 -5439
▁수상자 -5440
▁망원경 -5441
▁유가 -5442
▁선교사 -5443
▁북극 -5444
▁수직 -5445
▁사거리 -5446
▁필름 -5447
▁모로 -5448
▁레벨 -5449
▁모험 -5450
▁복구 -5451
▁삭제 -5452
▁어원 -5453
▁소설가 -5454
▁그랜드 -5455
행성 -5456
▁며 -5457
▁모음 -5458
▁악장 -5459
▁161 -5460
프란 -5461
▁청동 -5462
▁카자 -5463
▁영광 -5464
ff -5465
▁향토 -5466
▁빅토리아 -5467
▁교과 -5468
▁서인 -5469
ㅅㅣ -5470
일본 -5471
▁삼각형 -5472
▁다이묘 -5473
▁영혼 -5474
▁종로 -5475
▁codice -5476
▁엽 -5477
▁일자 -5478
▁변신 -5479
▁제약 -5480
즈키 -5481
▁도마뱀 -5482
▁살아남 -5483
▁진술 -5484
▁발휘 -5485
▁건축물 -5486
애나 -5487
▁표지 -5488
▁수장 -5489
▁투구 -5490
▁준우 -5491
▁프레임 -5492
▁곰 -5493
▁똑같 -5494
▁황태 -5495
▁홀로 -5496
▁꼽히 -5497
▁칼리 -5498
▁화가 -5499
▁랭킹 -5500
▁175 -5501
▁박근혜 -5502
▁가톨릭교회 -5503
▁동일본 -5504
▁틸 -5505
▁파생 -5506
▁레이블 -5507
▁파운드 -5508
▁문인 -5509
▁음모 -5510
오리 -5511
▁주류 -5512
▁돌파 -5513
▁My -5514
▁어워드 -5515
▁1922 -5516
▁버지니아 -5517
▁규슈 -5518
▁쇠퇴 -5519
▁평생 -5520
IS -5521
▁중구 -5522
▁채권 -5523
▁엘리자베스 -5524
눅스 -5525
▁de -5526
라이터 -5527
타운 -5528
▁윤치 -5529
▁자치구 -5530
▁바오 -5531
▁왕가 -5532
▁지역구 -5533
▁파트너 -5534
▁변동 -5535
▁유역 -5536
▁결심 -5537
▁지연 -5538
▁루트비히 -5539
▁구미 -5540
▁중시 -5541
▁다양체 -5542
▁인천광역시 -5543
▁무릎 -5544
▁직선 -5545
▁피트 -5546
▁리눅스 -5547
▁둔 -5548
▁트럼 -5549
멘트 -5550
▁리치 -5551
▁청하 -5552
▁이조 -5553
▁1912 -5554
▁모래 -5555
▁무인 -5556
▁압도 -5557
▁토벌 -5558
▁교차로 -5559
▁KT -5560
메니아 -5561
▁여인 -5562
▁유용 -5563
▁공격수 -5564
▁모듈 -5565
▁부수 -5566
▁포유 -5567
스팅 -5568
▁고안 -5569
▁최상 -5570
▁연령 -5571
▁탐험 -5572
▁전승 -5573
▁국민당 -5574
▁왈 -5575
▁글씨 -5576
▁부유 -5577
▁모니 -5578
양군 -5579
▁JR -5580
▁SM -5581
▁벨라 -5582
▁상무 -5583
▁직위 -5584
▁Go -5585
▁봉사 -5586
▁무산 -5587
▁164 -5588
▁스케이팅 -5589
▁때로 -5590
▁사토 -5591
▁크레 -5592
up -5593
▁"" -5594
▁베타 -5595
▁항목 -5596
▁아르메니아 -5597
▁없애 -5598
▁부탁 -5599
▁아기 -5600
▁납치 -5601
▁각자 -5602
▁Love -5603
ong -5604
▁철저 -5605
▁06 -5606
▁이날 -5607
▁동아시아 -5608
▁침해 -5609
▁색상 -5610
▁퍼시 -5611
▁인력 -5612
▁노비 -5613
▁도어 -5614
▁목조 -5615
▁블라디 -5616
▁마카 -5617
▁토르 -5618
▁간섭 -5619
▁삽입 -5620
▁연소 -5621
▁영조 -5622
▁1908 -5623
부사 -5624
▁단행 -5625
▁하사 -5626
보살 -5627
▁노무 -5628
▁지중해 -5629
▁패턴 -5630
멘터리 -5631
▁릭 -5632
▁플레 -5633
▁시외 -5634
▁MV -5635
▁크림 -5636
▁1906 -5637
▁이종 -5638
ld -5639
▁장사 -5640
야수 -5641
▁적응 -5642
▁전향 -5643
▁보통학교 -5644
▁태자 -5645
ip -5646
▁돼지 -5647
▁자책 -5648
슬로 -5649
▁사촌 -5650
▁히가시 -5651
OM -5652
▁03 -5653
▁교역 -5654
▁참조 -5655
▁옵 -5656
▁커피 -5657
▁제주도 -5658
▁시아 -5659
▁안양 -5660
▁1917 -5661
ㅈㅓ -5662
도니아 -5663
▁매각 -5664
▁정자 -5665
▁비전 -5666
▁조명 -5667
▁남동쪽 -5668
▁송라이터 -5669
▁외계 -5670
ED -5671
▁앱 -5672
마치 -5673
▁호르 -5674
▁굿 -5675
▁과도 -5676
▁기하학 -5677
▁자전거 -5678
▁정류장 -5679
영상 -5680
아리 -5681
▁럭 -5682
ant -5683
▁동사 -5684
▁입문 -5685
▁이토 -5686
▁패러 -5687
다드 -5688
▁수지 -5689
태우 -5690
▁기종 -5691
▁배상 -5692
▁인자 -5693
▁통로 -5694
▁준우승 -5695
▁에스파 -5696
▁우익 -5697
▁호조 -5698
▁정서 -5699
▁시상식 -5700
▁상처 -5701
▁라우 -5702
▁명문 -5703
▁창간 -5704
▁출현 -5705
▁1927 -5706
ㄹㅅㅜ -5707
▁우크라이나 -5708
▁앨런 -5709
▁다큐멘터리 -5710
▁SN -5711
▁보좌 -5712
▁옹호 -5713
▁의병 -5714
▁밀라노 -5715
▁스와 -5716
▁대행 -5717
▁몬테 -5718
▁사이클 -5719
▁폐기 -5720
▁부동산 -5721
▁배급 -5722
▁산타 -5723
▁석조 -5724
▁육성 -5725
몬드 -5726
▁무선 -5727
▁북동쪽 -5728
▁전작 -5729
▁BBC -5730
▁1907 -5731
▁산악 -5732
▁시집 -5733
▁리아 -5734
▁묘지 -5735
▁종족 -5736
▁체인 -5737
▁1926 -5738
▁유인 -5739
▁과장 -5740
▁노인 -5741
▁베토 -5742
▁오리지 -5743
▁협의회 -5744
▁흙 -5745
▁대교 -5746
▁적어도 -5747
AC -5748
▁표본 -5749
이즈 -5750
av -5751
▁스틸 -5752
▁최우수 -5753
▁슐 -5754
▁싫 -5755
▁관중 -5756
▁탑승 -5757
▁포크 -5758
페이지 -5759
스토 -5760
튜브 -5761
▁상영 -5762
▁PD -5763
▁세조 -5764
▁수감 -5765
▁자문 -5766
플레이 -5767
▁렉 -5768
▁내장 -5769
▁왕립 -5770
▁주거 -5771
런트 -5772
▁문하 -5773
▁유신 -5774
▁번식 -5775
▁예외 -5776
▁유닛 -5777
▁트윈 -5778
로프 -5779
▁He -5780
▁연금 -5781
▁합계 -5782
티움 -5783
▁디즈니 -5784
▁스페셜 -5785
▁168 -5786
▁유튜브 -5787
▁지름 -5788
다이라 -5789
▁문화유산 -5790
ind -5791
▁버그 -5792
▁할리 -5793
슬라 -5794
▁노조 -5795
▁사료 -5796
▁상하이 -5797
▁하천 -5798
생물 -5799
▁시에 -5800
▁드래곤 -5801
▁데이터베이스 -5802
▁험 -5803
▁사신 -5804
▁라이벌 -5805
▁연고지 -5806
▁별로 -5807
▁유입 -5808
▁점성 -5809
▁정사 -5810
▁호남 -5811
se -5812
세스 -5813
ame -5814
▁자바 -5815
▁콩고 -5816
▁Sp -5817
▁레이다 -5818
▁산지 -5819
▁현황 -5820
▁독일어 -5821
▁커뮤니티 -5822
▁홈페이지 -5823
▁룩 -5824
브스 -5825
▁광역 -5826
▁커지 -5827
▁1905 -5828
텐도 -5829
▁닌텐도 -5830
총장 -5831
▁아가 -5832
▁NHK -5833
▁레이스 -5834
▁대안 -5835
▁민족주의 -5836
▁166 -5837
프란시스코 -5838
▁제후 -5839
▁머물 -5840
▁꺼 -5841
▁|| -5842
▁기름 -5843
▁특급 -5844
▁샌프란시스코 -5845
▁카페 -5846
▁칩 -5847
▁증기 -5848
▁헤드 -5849
▁162 -5850
▁꾸미 -5851
▁묘소 -5852
▁요미 -5853
▁에릭 -5854
▁좌익 -5855
▁아크 -5856
▁진도 -5857
무네 -5858
▁엄마 -5859
ES -5860
▁151 -5861
ry -5862
▁상세 -5863
▁주파 -5864
▁수수 -5865
▁색깔 -5866
▁진지 -5867
▁품질 -5868
▁단층 -5869
▁모집 -5870
▁비평가 -5871
▁가쓰 -5872
▁주말 -5873
▁지바 -5874
▁출산 -5875
▁나폴리 -5876
▁역과 -5877
▁트럭 -5878
ort -5879
▁와카 -5880
▁반환 -5881
▁원산 -5882
▁조선인 -5883
▁선제 -5884
▁베토벤 -5885
▁안보 -5886
나카 -5887
▁02 -5888
▁물려 -5889
▁크리스토 -5890
지마 -5891
▁도리 -5892
▁엉 -5893
ith -5894
▁대조 -5895
▁묻히 -5896
▁플루 -5897
▁158 -5898
어트 -5899
▁스승 -5900
▁우르 -5901
▁꾸준히 -5902
▁동전 -5903
▁비단 -5904
▁야생 -5905
▁원로 -5906
▁유고슬 -5907
▁유고슬라비아 -5908
▁다가 -5909
▁놀라 -5910
▁리얼 -5911
▁선진 -5912
엘라 -5913
▁재무 -5914
스티벌 -5915
▁오리지널 -5916
▁아울 -5917
▁스피드 -5918
▁상소 -5919
▁아무런 -5920
▁라마 -5921
▁렌즈 -5922
▁한화 -5923
▁급속 -5924
▁배정 -5925
▁리듬 -5926
▁페스티벌 -5927
▁동치 -5928
▁마일 -5929
려나 -5930
▁신비 -5931
스케 -5932
▁방안 -5933
▁문과 -5934
결승 -5935
▁목격 -5936
▁십자군 -5937
▁주의자 -5938
▁기념물 -5939
▁급행 -5940
▁겨우 -5941
▁구마 -5942
▁정계 -5943
▁바이올 -5944
리케이션 -5945
▁셋째 -5946
▁쿠르 -5947
▁챌 -5948
▁사리 -5949
▁남서쪽 -5950
▁동영상 -5951
ok -5952
▁수천 -5953
▁인텔 -5954
▁흥미 -5955
▁베이스볼 -5956
▁가미 -5957
▁보전 -5958
▁옛날 -5959
▁조르 -5960
▁주한 -5961
▁호환 -5962
▁바라보 -5963
▁향년 -5964
▁복제 -5965
프스 -5966
▁무관 -5967
▁미네 -5968
▁기점 -5969
▁소니 -5970
▁적색 -5971
▁마스 -5972
▁운명 -5973
▁토니 -5974
▁뚫 -5975
▁도심 -5976
해군 -5977
▁실점 -5978
▁운반 -5979
▁곧바로 -5980
▁케이블 -5981
▁협의 -5982
▁지휘자 -5983
▁모터 -5984
▁디자이너 -5985
▁템 -5986
▁스테이지 -5987
▁출판사 -5988
▁분배 -5989
▁교전 -5990
▁콜롬비아 -5991
▁하드웨어 -5992
▁사직 -5993
▁서북 -5994
▁오디션 -5995
▁비즈니스 -5996
▁부시 -5997
▁알라 -5998
▁한나라 -5999
▁마케도니아 -6000
▁이리 -6001
▁프랜 -6002
회의 -6003
▁석탑 -6004
▁직장 -6005
▁한나라당 -6006
잡히 -6007
▁수면 -6008
▁무신 -6009
▁지질 -6010
▁Un -6011
▁빨리 -6012
▁선사 -6013
▁이오 -6014
▁일행 -6015
▁도메인 -6016
▁회원국 -6017
▁기압 -6018
▁문제점 -6019
▁1904 -6020
▁연주자 -6021
▁파나 -6022
모니 -6023
▁긴급 -6024
▁스펙트 -6025
▁관장 -6026
▁예언 -6027
▁입증 -6028
프라 -6029
▁판타지 -6030
▁브라이언 -6031
▁오타 -6032
▁마쓰다이라 -6033
▁개수 -6034
▁기용 -6035
▁부패 -6036
▁포맷 -6037
▁미만 -6038
▁서경 -6039
▁집계 -6040
▁되찾 -6041
▁이력 -6042
▁예술가 -6043
▁합작 -6044
▁임상 -6045
▁신임 -6046
▁정교 -6047
▁역명 -6048
▁스펙트럼 -6049
▁배제 -6050
▁인치 -6051
교육 -6052
▁내륙 -6053
▁왕족 -6054
▁154 -6055
▁센트럴 -6056
ord -6057
▁기재 -6058
▁의거 -6059
▁신용 -6060
루살 -6061
▁좌석 -6062
▁챌린 -6063
▁용기 -6064
qu -6065
▁날리 -6066
▁연애 -6067
쳐지 -6068
▁항일 -6069
▁Se -6070
▁트레 -6071
루살렘 -6072
▁165 -6073
▁계단 -6074
▁자사 -6075
▁평소 -6076
ob -6077
▁단종 -6078
▁저지르 -6079
PS -6080
문학 -6081
▁사르 -6082
▁이글 -6083
▁Wh -6084
▁받침 -6085
▁콘스탄티노 -6086
▁폭스 -6087
▁번주 -6088
▁모순 -6089
▁사범 -6090
▁신하 -6091
▁초래 -6092
▁WW -6093
▁용산 -6094
▁아서 -6095
▁리투아 -6096
▁자회사 -6097
▁리투아니아 -6098
ate -6099
▁당사자 -6100
▁가게 -6101
▁권고 -6102
디스 -6103
우옌 -6104
▁SF -6105
▁사면 -6106
가스 -6107
▁스쿨 -6108
▁AM -6109
▁사로 -6110
▁163 -6111
IC -6112
▁DJ -6113
▁전염 -6114
▁그랑 -6115
▁156 -6116
▁여동생 -6117
▁혜성 -6118
경기 -6119
▁무슬 -6120
▁167 -6121
▁900 -6122
▁타마 -6123
▁아인 -6124
▁이지 -6125
▁스마트폰 -6126
▁상임 -6127
▁서브 -6128
▁착륙 -6129
▁여신 -6130
▁조류 -6131
▁팅 -6132
▁발효 -6133
▁진상 -6134
▁마케팅 -6135
▁행정부 -6136
▁입히 -6137
▁AS -6138
▁예루살렘 -6139
▁겹치 -6140
식물 -6141
운서 -6142
▁니스 -6143
▁분지 -6144
▁무슬림 -6145
▁아나운서 -6146
▁미얀 -6147
▁한양 -6148
커스 -6149
▁교섭 -6150
▁크리스티 -6151
페이 -6152
▁UN -6153
▁정벌 -6154
카르 -6155
▁규격 -6156
▁충남 -6157
▁장편 -6158
▁성공회 -6159
▁샹 -6160
껍질 -6161
▁하트 -6162
▁차관 -6163
▁유하 -6164
▁브라우 -6165
▁스타크래프트 -6166
▁애국 -6167
▁오다 -6168
▁피렌 -6169
▁끼리 -6170
▁과제 -6171
▁예능 -6172
▁피스 -6173
▁무라 -6174
▁식사 -6175
▁파동 -6176
▁게시 -6177
▁압박 -6178
▁부통령 -6179
▁서울시 -6180
▁옌 -6181
▁고립 -6182
▁바그 -6183
▁얼음 -6184
▁용량 -6185
▁바이올린 -6186
▁비잔티움 -6187
ET -6188
▁부흥 -6189
▁지주 -6190
▁페어 -6191
▁훼손 -6192
▁우루 -6193
▁조국 -6194
▁주립 -6195
▁아이디 -6196
▁가득 -6197
▁요크 -6198
▁친정 -6199
▁일요일 -6200
▁오케스트라 -6201
▁쇼군 -6202
▁지장 -6203
▁진나라 -6204
길이 -6205
럼비아 -6206
▁노무현 -6207
▁낱 -6208
려오 -6209
▁밀접 -6210
▁비로 -6211
▁출구 -6212
▁깔 -6213
잡이 -6214
예프 -6215
▁구장 -6216
▁기아 -6217
데이트 -6218
지르 -6219
▁학파 -6220
랑이 -6221
킨스 -6222
▁최신 -6223
▁시달리 -6224
ast -6225
▁융합 -6226
▁디비전 -6227
▁업데이트 -6228
▁우지 -6229
▁이명박 -6230
▁귀환 -6231
▁농도 -6232
▁마천 -6233
▁아베 -6234
▁두산 -6235
▁139 -6236
부인 -6237
▁전이 -6238
▁개발자 -6239
▁바티 -6240
▁미나미 -6241
▁소나 -6242
DP -6243
▁애플리케이션 -6244
▁대단 -6245
▁씌 -6246
▁대령 -6247
▁발족 -6248
▁쿠스 -6249
▁ㅇㅓㅆㅇㅓㅆ -6250
▁강연 -6251
▁차체 -6252
▁DS -6253
▁김동 -6254
▁성종 -6255
▁끄 -6256
▁월간 -6257
레이터 -6258
▁스트리트 -6259
▁145 -6260
▁알바니아 -6261
▁몰락 -6262
▁전지 -6263
▁피렌체 -6264
▁간접 -6265
▁사사 -6266
로디 -6267
▁서열 -6268
▁아종 -6269
▁투명 -6270
▁중국어 -6271
▁시체 -6272
▁응우옌 -6273
▁주머니 -6274
▁공용 -6275
▁아세 -6276
▁저기 -6277
▁마리오 -6278
▁킬로미터 -6279
수아 -6280
▁부도 -6281
▁뜨겁 -6282
▁선두 -6283
▁맥스 -6284
▁참판 -6285
▁시드니 -6286
if -6287
랑크 -6288
▁공과 -6289
▁몸길이 -6290
▁기타리스트 -6291
▁준결승 -6292
▁부자 -6293
▁점유 -6294
▁관광객 -6295
▁IP -6296
▁MVP -6297
▁공전 -6298
▁사바 -6299
▁제네 -6300
▁중독 -6301
▁게이트 -6302
▁보드 -6303
▁HIV -6304
산물 -6305
ive -6306
▁와중 -6307
▁하노 -6308
트랙 -6309
▁전류 -6310
IT -6311
▁이슈 -6312
▁좌표 -6313
▁해인 -6314
▁1896 -6315
ack -6316
▁서일본 -6317
▁소송법 -6318
카드 -6319
▁야기 -6320
▁완화 -6321
▁중도 -6322
▁아이디어 -6323
▁관찰사 -6324
▁위주 -6325
▁형법 -6326
▁요미우리 -6327
▁착수 -6328
ure -6329
▁규명 -6330
▁전임 -6331
▁샬 -6332
▁마산 -6333
▁백신 -6334
▁측근 -6335
▁넬 -6336
트롤 -6337
▁경선 -6338
▁비아 -6339
▁책봉 -6340
▁잊 -6341
트니 -6342
▁고조 -6343
▁지각 -6344
▁관습 -6345
▁디오 -6346
▁메디 -6347
▁스콧 -6348
▁턴 -6349
악기 -6350
▁충성 -6351
▁연수 -6352
▁피에르 -6353
▁복소 -6354
▁로빈 -6355
▁히라 -6356
▁거스르 -6357
▁노동조합 -6358
▁거인 -6359
▁수학자 -6360
▁친선 -6361
란트 -6362
▁마운 -6363
▁수신 -6364
▁시외버스 -6365
토미 -6366
▁우즈 -6367
▁통행 -6368
▁젖 -6369
▁쇼핑 -6370
▁프로세스 -6371
▁흥행 -6372
균관 -6373
▁사인 -6374
▁여덟 -6375
▁174 -6376
▁천문학 -6377
iv -6378
ock -6379
주곡 -6380
▁오렌 -6381
▁정찰 -6382
리티 -6383
▁검증 -6384
▁사명 -6385
▁이에 -6386
▁테일러 -6387
▁굉 -6388
▁권유 -6389
▁련 -6390
▁5000 -6391
ck -6392
▁피난 -6393
▁해전 -6394
▁둘러싸이 -6395
▁152 -6396
▁플라스 -6397
▁짙 -6398
▁번뇌 -6399
▁신칸 -6400
▁성벽 -6401
▁꼴 -6402
어내 -6403
▁옐 -6404
▁미하 -6405
▁세례 -6406
루미 -6407
▁실용 -6408
▁제의 -6409
▁으 -6410
▁뱅크 -6411
▁다이아 -6412
▁독립운동가 -6413
▁금성 -6414
▁구동 -6415
▁밀양 -6416
폴리스 -6417
▁조용 -6418
▁157 -6419
▁뷔 -6420
▁과목 -6421
▁석탄 -6422
▁전장 -6423
▁행진 -6424
▁자손 -6425
▁장성 -6426
▁살아가 -6427
▁전문학교 -6428
▁유년 -6429
▁테오 -6430
▁염색 -6431
▁Ar -6432
▁MP -6433
▁취약 -6434
▁카나 -6435
▁인과 -6436
▁존경 -6437
▁한강 -6438
▁미스터 -6439
12 -6440
▁전진 -6441
▁준공 -6442
▁하버드 -6443
포스 -6444
▁신전 -6445
▁자율 -6446
츠키 -6447
사기 -6448
ㄹㄲㅏ -6449
▁로고 -6450
가루 -6451
혁명 -6452
▁구제 -6453
▁청와 -6454
▁프로토콜 -6455
▁킨 -6456
창기 -6457
▁관현 -6458
▁루수 -6459
▁곁 -6460
▁할당 -6461
▁급진 -6462
▁동위 -6463
▁회수 -6464
▁제휴 -6465
▁파스 -6466
▁j -6467
▁국어 -6468
▁승차 -6469
▁판매량 -6470
ㅓㄴ -6471
▁장인 -6472
▁고개 -6473
▁메가 -6474
▁동남아시아 -6475
▁청와대 -6476
외선 -6477
▁박영 -6478
▁여의 -6479
▁루터 -6480
▁식당 -6481
▁유출 -6482
▁히스 -6483
▁가즈 -6484
산군 -6485
▁PS -6486
▁디젤 -6487
▁창업 -6488
니스트 -6489
▁신칸센 -6490
전자 -6491
▁빌헬 -6492
▁카시 -6493
문관 -6494
일드 -6495
▁무효 -6496
원숭이 -6497
▁퇴각 -6498
▁쥬 -6499
▁대외 -6500
▁소총 -6501
▁일화 -6502
▁상상 -6503
끄럽 -6504
▁성균관 -6505
▁이순 -6506
델피아 -6507
▁필라델피아 -6508
▁뿔 -6509
▁희극 -6510
▁김용 -6511
▁연루 -6512
▁해임 -6513
▁외무 -6514
악단 -6515
▁남인 -6516
자와 -6517
▁105 -6518
▁연구자 -6519
▁이노 -6520
▁기울이 -6521
▁전두 -6522
▁청사 -6523
▁힘쓰 -6524
하르트 -6525
▁얼마나 -6526
수수 -6527
▁나미 -6528
▁여수 -6529
▁저기압 -6530
▁호평 -6531
▁비극 -6532
▁서독 -6533
팩트 -6534
▁적대 -6535
▁쇄 -6536
▁응답 -6537
▁146 -6538
▁마찰 -6539
▁소금 -6540
▁오클 -6541
▁1500 -6542
▁개원 -6543
▁패전 -6544
▁끈 -6545
▁남양 -6546
▁소닉 -6547
▁상류 -6548
▁성전 -6549
▁지분 -6550
▁항공모 -6551
▁악마 -6552
▁에티 -6553
▁125 -6554
메르 -6555
▁관념 -6556
▁여래 -6557
▁1911 -6558
▁매출 -6559
AP -6560
▁강사 -6561
▁착공 -6562
▁예배 -6563
▁증후 -6564
▁원나라 -6565
▁따위 -6566
▁배구 -6567
▁153 -6568
ML -6569
▁3000 -6570
ime -6571
고속도로 -6572
▁노드 -6573
▁소관 -6574
▁윌슨 -6575
one -6576
▁MC -6577
▁매개 -6578
▁술탄 -6579
▁아울러 -6580
▁단점 -6581
▁적히 -6582
▁하마 -6583
▁자책점 -6584
▁출입구 -6585
▁Le -6586
▁민국 -6587
▁순천 -6588
▁이이 -6589
라트 -6590
▁나열 -6591
▁유언 -6592
▁추모 -6593
▁환원 -6594
서양 -6595
▁석가 -6596
▁우정 -6597
▁이복 -6598
▁카트 -6599
▁초창기 -6600
▁폴리스 -6601
▁쏟 -6602
▁보잉 -6603
▁달아나 -6604
▁마오 -6605
▁믿음 -6606
▁쳐 -6607
▁포장 -6608
▁소재지 -6609
네이 -6610
▁두르 -6611
▁중점 -6612
▁Pro -6613
▁단원 -6614
▁저택 -6615
▁흩 -6616
▁고원 -6617
▁사지 -6618
▁아즈 -6619
▁힌두 -6620
▁두드 -6621
▁우주선 -6622
▁휩 -6623
▁들리 -6624
▁디비 -6625
▁제트 -6626
▁미얀마 -6627
▁별자리 -6628
▁얇 -6629
▁소지 -6630
▁회계 -6631
OC -6632
▁강수량 -6633
▁기장 -6634
▁천사 -6635
▁문재인 -6636
제프 -6637
▁법령 -6638
▁갈라지 -6639
▁카자흐 -6640
▁참가자 -6641
▁충족 -6642
▁일렉 -6643
대군 -6644
▁주권 -6645
▁리메 -6646
▁고베 -6647
▁성모 -6648
▁고무 -6649
▁조언 -6650
▁이글스 -6651
▁정치가 -6652
▁반격 -6653
▁연인 -6654
▁친척 -6655
▁편곡 -6656
▁103 -6657
▁ISO -6658
▁매사 -6659
▁곳곳 -6660
▁공자 -6661
▁근접 -6662
▁유해 -6663
▁회화 -6664
즈카 -6665
토시 -6666
▁개업 -6667
▁서서 -6668
▁지목 -6669
▁아니하 -6670
노프 -6671
▁매기 -6672
▁시립 -6673
▁주파수 -6674
▁선원 -6675
▁이원 -6676
▁최적 -6677
▁굵 -6678
상스 -6679
▁빌헬름 -6680
기니 -6681
▁환상 -6682
▁지지자 -6683
▁클린 -6684
▁비틀즈 -6685
▁증후군 -6686
▁중장 -6687
▁떠오르 -6688
▁내내 -6689
▁협동 -6690
동물 -6691
▁나리 -6692
▁보충 -6693
▁취재 -6694
▁오디오 -6695
노리 -6696
▁회견 -6697
▁각본가 -6698
▁찾아보 -6699
▁삿 -6700
▁해역 -6701
▁155 -6702
▁공인 -6703
▁민사 -6704
▁토리 -6705
▁눈물 -6706
▁인형 -6707
▁항공모함 -6708
te -6709
▁공략 -6710
▁점프 -6711
어리 -6712
▁겸임 -6713
▁카타 -6714
▁위장 -6715
▁허브 -6716
▁셈 -6717
▁토크 -6718
▁와인 -6719
▁특유 -6720
▁오렌지 -6721
▁트라이 -6722
▁승무원 -6723
▁버튼 -6724
펴보 -6725
▁중종 -6726
▁살펴보 -6727
▁닭 -6728
시온 -6729
▁법무 -6730
▁사가 -6731
▁레전 -6732
▁진리 -6733
▁룰 -6734
▁우편 -6735
소스 -6736
▁실종 -6737
▁양상 -6738
▁후자 -6739
▁앞면 -6740
▁일관 -6741
io -6742
마사 -6743
▁연도 -6744
▁오키나 -6745
▁컨트롤 -6746
▁전례 -6747
▁평행 -6748
▁밭 -6749
▁게재 -6750
▁연혁 -6751
▁유격 -6752
리크 -6753
▁Con -6754
▁민영 -6755
▁별개 -6756
▁성주 -6757
▁터지 -6758
▁맵 -6759
▁상자 -6760
▁인격 -6761
받침 -6762
▁각기 -6763
▁테스 -6764
▁포수 -6765
▁미소 -6766
▁생일 -6767
▁# -6768
▁Bo -6769
▁이영 -6770
▁패스 -6771
▁108 -6772
▁북동부 -6773
▁아바 -6774
▁베르크 -6775
플러 -6776
▁나고 -6777
▁합법 -6778
▁사우디아 -6779
▁담배 -6780
▁유교 -6781
▁스파이 -6782
▁르네상스 -6783
▁세균 -6784
시티 -6785
▁가라 -6786
▁동등 -6787
▁지우 -6788
▁해운 -6789
▁호칭 -6790
▁입상 -6791
pe -6792
▁이바 -6793
▁이인 -6794
▁아리스 -6795
▁IT -6796
▁사물 -6797
▁캠페인 -6798
▁드라이브 -6799
▁고체 -6800
베이터 -6801
▁태우 -6802
모어 -6803
▁복장 -6804
▁토요일 -6805
▁서해 -6806
산면 -6807
▁야간 -6808
▁하우 -6809
▁두드러지 -6810
▁상장 -6811
▁영동 -6812
▁일족 -6813
▁조리 -6814
▁나고야 -6815
▁이슬람교 -6816
ber -6817
▁빼앗기 -6818
산리 -6819
▁개찰구 -6820
▁격렬 -6821
▁에우 -6822
▁외국어 -6823
▁화살 -6824
▁생명체 -6825
▁이어서 -6826
▁퍼시픽 -6827
▁교장 -6828
▁자발 -6829
▁이사장 -6830
▁아군 -6831
▁외곽 -6832
▁교단 -6833
▁메타 -6834
▁스터 -6835
▁아케 -6836
퍼니 -6837
▁대답 -6838
▁박탈 -6839
▁감지 -6840
▁매력 -6841
▁갓 -6842
▁브래 -6843
라이트 -6844
집합 -6845
▁배틀 -6846
▁상부 -6847
▁콜라 -6848
▁하인리히 -6849
▁트럼프 -6850
▁크리스마스 -6851
▁금액 -6852
▁앙리 -6853
때로 -6854
▁미루 -6855
▁에디 -6856
▁채무 -6857
▁향후 -6858
▁일찍이 -6859
가타 -6860
▁가계 -6861
▁다중 -6862
러미 -6863
▁건의 -6864
▁레이저 -6865
▁일생 -6866
▁에이스 -6867
화점 -6868
▁치세 -6869
▁유소년 -6870
▁톈 -6871
항공 -6872
▁1909 -6873
▁128 -6874
▁사이버 -6875
▁싸이 -6876
▁호세 -6877
▁홍수 -6878
ge -6879
람회 -6880
▁안장 -6881
▁어드 -6882
▁상대방 -6883
▁최저 -6884
▁시청자 -6885
▁전도 -6886
▁시라 -6887
▁149 -6888
▁발현 -6889
▁여진 -6890
▁102 -6891
▁캐스팅 -6892
칠리아 -6893
▁때때로 -6894
▁보스니아 -6895
▁개관 -6896
▁내지 -6897
▁사다 -6898
▁향교 -6899
▁건축가 -6900
▁기금 -6901
▁명의 -6902
▁트루 -6903
▁텍스트 -6904
▁궁정 -6905
▁트위 -6906
▁대주교 -6907
▁서서히 -6908
▁주지사 -6909
▁슬라 -6910
▁원자로 -6911
▁사우디아라비아 -6912
▁발원 -6913
▁섞이 -6914
▁포도주 -6915
▁히데요시 -6916
라미 -6917
▁Bl -6918
▁추격 -6919
구장 -6920
▁부착 -6921
▁가르침 -6922
▁유니폼 -6923
언스 -6924
▁고발 -6925
▁섭취 -6926
▁자유당 -6927
백과 -6928
▁셸 -6929
▁쉐 -6930
▁속성 -6931
▁꾀 -6932
▁계절 -6933
▁고가 -6934
▁레전드 -6935
▁세미 -6936
▁운동장 -6937
▁네이버 -6938
▁사용자 -6939
▁아우구 -6940
행위 -6941
▁GT -6942
▁수성 -6943
▁기수 -6944
트릭 -6945
▁남한 -6946
▁키프 -6947
▁제작자 -6948
iz -6949
먼드 -6950
▁긴장 -6951
▁직책 -6952
▁후안 -6953
AD -6954
▁차남 -6955
▁아미타 -6956
▁얘 -6957
▁여주 -6958
▁그만두 -6959
▁룽 -6960
▁대군 -6961
▁중재 -6962
▁초연 -6963
▁골프 -6964
▁시오 -6965
▁전대 -6966
▁펼쳐지 -6967
▁에스파냐 -6968
▁댐 -6969
▁고래 -6970
▁짜리 -6971
▁탐지 -6972
▁물자 -6973
서리 -6974
age -6975
▁CPU -6976
나리 -6977
▁정밀 -6978
Pa -6979
▁태생 -6980
▁팽창 -6981
▁중국인 -6982
▁$ -6983
▁병역 -6984
▁토스 -6985
▁대니 -6986
▁문양 -6987
▁왜성 -6988
▁충주 -6989
▁김영삼 -6990
▁송나라 -6991
▁엘리베이터 -6992
▁단기 -6993
▁보리 -6994
▁청장 -6995
▁포괄 -6996
▁무려 -6997
▁리오 -6998
orld -6999
▁캄보 -7000
▁만세 -7001
▁토마 -7002
▁아미노 -7003
▁팔레스 -7004
▁로프 -7005
▁메인 -7006
▁ㄹㅐ -7007
▁수평 -7008
▁방침 -7009
▁숭배 -7010
▁입체 -7011
▁블루스 -7012
▁존중 -7013
▁흘러 -7014
▁고사 -7015
▁제곱 -7016
▁하이드 -7017
▁강경 -7018
▁분광 -7019
▁계몽 -7020
▁그랑프리 -7021
▁딩 -7022
▁볼리 -7023
수엘라 -7024
▁경부 -7025
▁취지 -7026
▁127 -7027
▁알코 -7028
▁조반 -7029
▁추상 -7030
▁추증 -7031
▁시그 -7032
▁피고 -7033
▁동독 -7034
▁수군 -7035
차례 -7036
▁경과 -7037
▁부천 -7038
▁타이거즈 -7039
▁겔 -7040
▁팜 -7041
▁스릴 -7042
▁147 -7043
▁리메이크 -7044
▁턱 -7045
노부 -7046
▁뽑히 -7047
▁노란색 -7048
▁프랭크 -7049
▁디스플레이 -7050
▁난민 -7051
▁넓히 -7052
▁로맨스 -7053
▁손가락 -7054
▁테니스 -7055
▁위키백과 -7056
라리 -7057
▁북방 -7058
▁침몰 -7059
▁사절 -7060
▁전두환 -7061
▁최소한 -7062
▁수렴 -7063
▁황해 -7064
▁1915 -7065
▁케네 -7066
▁네이션스 -7067
▁명목 -7068
▁북구 -7069
▁언론인 -7070
기지 -7071
자스 -7072
▁김재 -7073
▁며칠 -7074
▁결선 -7075
▁라파 -7076
▁센서 -7077
▁마하 -7078
▁오키나와 -7079
▁베네수엘라 -7080
▁동당 -7081
▁마비 -7082
▁모스 -7083
▁후일 -7084
▁갑작 -7085
▁심의 -7086
▁저명 -7087
▁컬러 -7088
▁문학상 -7089
▁1913 -7090
울리 -7091
▁어업 -7092
▁171 -7093
ik -7094
▁낙선 -7095
▁무죄 -7096
▁전함 -7097
▁창건 -7098
▁타르 -7099
우라 -7100
포트 -7101
트리올 -7102
▁몬트리올 -7103
석기 -7104
▁김수 -7105
▁윌리엄스 -7106
▁SP -7107
▁개미 -7108
▁동래 -7109
▁신흥 -7110
EN -7111
창군 -7112
▁서사 -7113
▁원반 -7114
무기 -7115
크리트 -7116
▁머신 -7117
▁음원 -7118
▁창시 -7119
▁풍경 -7120
▁투르크 -7121
▁둘레 -7122
▁트윈스 -7123
sp -7124
▁굉장 -7125
▁스핀 -7126
▁태수 -7127
▁대역 -7128
▁주축 -7129
▁진군 -7130
▁출토 -7131
자치도 -7132
▁제주특별 -7133
▁제주특별자치도 -7134
▁협조 -7135
▁천문학자 -7136
▁효력 -7137
▁스파르타 -7138
▁광년 -7139
▁객관 -7140
▁인재 -7141
▁프레스 -7142
▁강과 -7143
▁부과 -7144
▁예시 -7145
포구 -7146
▁ㄱㅓㄴ -7147
▁이민자 -7148
▁전성기 -7149
MS -7150
▁아폴 -7151
명사전 -7152
▁대포 -7153
▁동년 -7154
▁카탈 -7155
▁코프 -7156
▁따뜻 -7157
▁옥스 -7158
▁원고 -7159
▁지폐 -7160
▁비문 -7161
▁종결 -7162
▁촉구 -7163
▁공직 -7164
▁대처 -7165
▁통칭 -7166
▁바흐 -7167
▁이진 -7168
▁탈환 -7169
공신 -7170
▁온천 -7171
▁상당수 -7172
▁남원 -7173
▁주차 -7174
▁Tr -7175
▁낮추 -7176
▁세계관 -7177
▁1895 -7178
▁팔레스타인 -7179
두르 -7180
▁수동 -7181
▁수령 -7182
네스코 -7183
▁이어받 -7184
▁자기장 -7185
▁닿 -7186
▁김진 -7187
평군 -7188
▁섭정 -7189
▁동력 -7190
▁폐위 -7191
▁언제나 -7192
▁링컨 -7193
▁별칭 -7194
▁시공 -7195
▁식별 -7196
▁유수 -7197
▁정무 -7198
▁다운로드 -7199
▁al -7200
그라드 -7201
▁141 -7202
▁총선거 -7203
▁광부 -7204
▁재미 -7205
▁베어스 -7206
보기 -7207
▁하부 -7208
▁후대 -7209
▁169 -7210
▁나가사키 -7211
▁나주 -7212
▁법제 -7213
▁아이템 -7214
▁양주 -7215
▁딴 -7216
여지 -7217
▁어스 -7218
▁아사히 -7219
▁탤 -7220
박쥐 -7221
선거 -7222
▁민회 -7223
▁무제 -7224
▁적자 -7225
▁총괄 -7226
▁아틀레 -7227
▁장학 -7228
▁135 -7229
▁수용소 -7230
▁청원 -7231
▁국사 -7232
▁기습 -7233
벌레 -7234
▁울리 -7235
▁도호쿠 -7236
▁풋볼 -7237
▁엔지 -7238
▁이틀 -7239
ust -7240
▁나르 -7241
▁해병대 -7242
▁문화방송 -7243
▁사회학 -7244
▁서머 -7245
▁유연 -7246
▁후세 -7247
▁반박 -7248
▁북위 -7249
▁소실 -7250
▁북서부 -7251
와라 -7252
▁장미 -7253
▁초상화 -7254
▁여파 -7255
▁내주 -7256
▁카리브 -7257
▁캄보디아 -7258
▁신세 -7259
GC -7260
▁영리 -7261
▁정전 -7262
▁쓰러지 -7263
▁김태 -7264
▁무상 -7265
▁천도 -7266
▁144 -7267
▁리버풀 -7268
선스 -7269
int -7270
▁NC -7271
▁번영 -7272
▁흩어지 -7273
키지 -7274
▁차기 -7275
▁111 -7276
▁관람 -7277
▁김포 -7278
▁WWE -7279
▁바실 -7280
▁파업 -7281
▁찾아내 -7282
▁컴퍼니 -7283
▁날짜 -7284
▁대제 -7285
▁언더 -7286
▁첨가 -7287
▁귀중 -7288
▁때리 -7289
▁CO -7290
▁고백 -7291
▁더글 -7292
▁도스 -7293
▁한동안 -7294
▁조달 -7295
▁119 -7296
▁걱 -7297
▁인산 -7298
▁함유 -7299
▁컬럼비아 -7300
▁신중 -7301
ep -7302
▁CE -7303
▁아벨 -7304
▁서울대 -7305
▁아레나 -7306
▁TH -7307
▁이광 -7308
▁제수 -7309
▁구이 -7310
ib -7311
▁실전 -7312
▁십자가 -7313
▁교원 -7314
▁정렬 -7315
▁스티브 -7316
▁신학교 -7317
▁TO -7318
▁선구 -7319
▁평야 -7320
▁휴전 -7321
▁연세대 -7322
그로 -7323
니치 -7324
푸스 -7325
▁요르 -7326
▁외교관 -7327
▁유네스코 -7328
▁기요 -7329
▁소환 -7330
▁휴식 -7331
▁라이선스 -7332
▁룡 -7333
▁중순 -7334
▁몰아내 -7335
▁ㄷㅡㄴㅈㅣ -7336
리케인 -7337
▁스릴러 -7338
▁덤 -7339
▁큰 -7340
▁간호 -7341
▁공모 -7342
▁공채 -7343
▁대위 -7344
▁드럼 -7345
▁마이너 -7346
▁중소 -7347
▁평일 -7348
▁루시 -7349
▁선종 -7350
▁신기 -7351
▁오빠 -7352
▁정말 -7353
케이션 -7354
▁할리우드 -7355
누엘 -7356
루션 -7357
▁위임 -7358
▁껍질 -7359
▁의상 -7360
▁신학자 -7361
▁허리케인 -7362
▁끊임 -7363
ome -7364
▁면하 -7365
▁불편 -7366
▁총사 -7367
▁테레 -7368
▁해수 -7369
▁유니버 -7370
▁케네디 -7371
▁스페이스 -7372
▁콘크리트 -7373
▁삼진 -7374
시로 -7375
▁It -7376
▁두루 -7377
▁172 -7378
▁We -7379
▁내외 -7380
▁원내 -7381
▁제갈 -7382
▁교양 -7383
▁매카 -7384
▁묘역 -7385
▁마인 -7386
▁미주 -7387
▁슈트 -7388
▁편리 -7389
릴라 -7390
▁바퀴 -7391
▁친일인 -7392
▁친일인명사전 -7393
▁다니엘 -7394
▁바이오 -7395
▁병조 -7396
페르 -7397
▁관통 -7398
▁애덤 -7399
▁106 -7400
▁미즈 -7401
▁hPa -7402
▁공의회 -7403
▁등재 -7404
▁충실 -7405
▁구조물 -7406
▁김상 -7407
▁중량 -7408
▁아이슬 -7409
▁케이스 -7410
▁에스토 -7411
▁니콜라 -7412
▁우라늄 -7413
▁콰 -7414
▁엔지니어 -7415
스럽 -7416
▁소통 -7417
▁장안 -7418
▁전압 -7419
▁총대 -7420
▁페르난 -7421
▁낱말 -7422
▁프랑수아 -7423
▁당일 -7424
▁쇼트 -7425
따르 -7426
ude -7427
▁승점 -7428
▁인연 -7429
▁지혜 -7430
▁NBA -7431
▁미토 -7432
▁서남 -7433
▁애틀 -7434
내셔널 -7435
▁인터내셔널 -7436
▁꽤 -7437
▁단식 -7438
▁베드 -7439
▁역설 -7440
▁우연히 -7441
▁걱정 -7442
▁공단 -7443
▁도라 -7444
▁바리 -7445
▁우울 -7446
▁해변 -7447
세츠 -7448
▁아이슬란드 -7449
▁초과 -7450
라이더 -7451
유행 -7452
▁명백 -7453
ian -7454
ire -7455
▁리어 -7456
▁모방 -7457
▁발트 -7458
▁평하 -7459
▁황태자 -7460
▁대웅 -7461
▁돌연 -7462
▁증진 -7463
▁매사추 -7464
▁HT -7465
▁나스 -7466
▁마츠 -7467
▁오세 -7468
▁차종 -7469
▁한성부 -7470
▁연패 -7471
▁매사추세츠 -7472
말라 -7473
블로 -7474
▁동문 -7475
▁로열 -7476
▁방패 -7477
▁시나리오 -7478
치오 -7479
▁생전 -7480
▁고수 -7481
▁영남 -7482
▁충북 -7483
▁오비 -7484
▁장려 -7485
▁통근 -7486
▁다항 -7487
▁상서 -7488
ere -7489
▁도주 -7490
▁좌절 -7491
▁라이온즈 -7492
▁암석 -7493
▁의의 -7494
▁투르 -7495
주의자 -7496
▁탱크 -7497
▁표명 -7498
▁레바 -7499
▁중추원 -7500
▁책임자 -7501
▁스페인어 -7502
▁양도 -7503
▁호프 -7504
▁오피스 -7505
▁격투 -7506
▁평범 -7507
실록 -7508
▁어휘 -7509
▁합창 -7510
▁차이점 -7511
▁에스토니아 -7512
IM -7513
▁보완 -7514
▁부채 -7515
▁알아 -7516
▁입지 -7517
▁잦 -7518
▁열대 -7519
ace -7520
▁지능 -7521
▁호위 -7522
▁그루 -7523
▁배신 -7524
▁멋 -7525
▁쿤 -7526
▁에버 -7527
▁평택 -7528
ment -7529
ide -7530
▁고민 -7531
▁닝 -7532
▁고령 -7533
▁김기 -7534
▁마약 -7535
▁영장 -7536
▁대전광역시 -7537
▁횟 -7538
▁불명 -7539
▁조이 -7540
▁봉쇄 -7541
▁치열 -7542
▁리비아 -7543
번스 -7544
▁시흥 -7545
▁도루 -7546
▁퍼센트 -7547
▁훔 -7548
▁닛폰 -7549
▁요하 -7550
▁출처 -7551
▁다치 -7552
▁배터리 -7553
▁도르 -7554
▁섬기 -7555
▁오사 -7556
▁일조 -7557
▁파장 -7558
▁파이어 -7559
▁교외 -7560
▁신생 -7561
▁장난 -7562
▁부재 -7563
▁사슬 -7564
▁지선 -7565
제리 -7566
▁개그 -7567
▁조연 -7568
바이잔 -7569
▁신속 -7570
▁업계 -7571
▁특집 -7572
위원 -7573
▁생식 -7574
▁진짜 -7575
▁포격 -7576
석탑 -7577
야시 -7578
▁명제 -7579
▁". -7580
▁기어 -7581
▁낭만 -7582
▁성운 -7583
층석탑 -7584
▁상담 -7585
▁친왕 -7586
▁서정 -7587
▁첼시 -7588
▁치즈 -7589
▁소유자 -7590
▁아제르 -7591
▁물리학자 -7592
마드 -7593
▁괴롭 -7594
▁그로 -7595
오피아 -7596
▁브라우저 -7597
▁에티오피아 -7598
▁푼 -7599
▁협주곡 -7600
▁카이사르 -7601
의자 -7602
▁재위 -7603
▁아제르바이잔 -7604
지리아 -7605
▁나이지리아 -7606
▁순회 -7607
▁항소 -7608
▁중심부 -7609
▁창고 -7610
▁현금 -7611
▁오노 -7612
▁지류 -7613
▁패키지 -7614
▁슬로바키아 -7615
▁시초 -7616
▁입당 -7617
▁148 -7618
▁내려지 -7619
▁끓 -7620
▁실시간 -7621
▁136 -7622
▁대의원 -7623
아이 -7624
▁시선 -7625
▁육지 -7626
▁친하 -7627
▁추출 -7628
▁전라도 -7629
중국 -7630
▁산림 -7631
▁서재 -7632
▁아드 -7633
▁의약 -7634
▁탈당 -7635
▁해밀 -7636
▁1916 -7637
▁극동 -7638
▁위탁 -7639
▁리틀 -7640
▁IBM -7641
▁작센 -7642
▁국무총리 -7643
▁스튜어트 -7644
▁밟 -7645
▁견디 -7646
▁기인 -7647
▁갈리 -7648
▁약칭 -7649
▁이사회 -7650
▁추세 -7651
▁구호 -7652
▁동상 -7653
▁줄리 -7654
▁해소 -7655
▁노부나가 -7656
▁동이 -7657
▁쌍둥이 -7658
▁애틀랜 -7659
▁덮이 -7660
▁여지 -7661
▁워드 -7662
▁삼국지 -7663
▁라이브러리 -7664
▁바스 -7665
▁즈음 -7666
▁DC -7667
▁유동 -7668
▁가로지르 -7669
시피 -7670
▁구도 -7671
▁분당 -7672
▁원숭이 -7673
▁닷 -7674
▁경연 -7675
▁응원 -7676
▁의뢰 -7677
▁객체 -7678
▁병행 -7679
▁부적 -7680
▁솜 -7681
람쥐 -7682
▁안성 -7683
바다 -7684
▁면허 -7685
▁신념 -7686
▁하락 -7687
▁바닷 -7688
▁중위 -7689
▁우루과이 -7690
▁결혼식 -7691
▁막내 -7692
▁실장 -7693
▁어쩌 -7694
▁라이언 -7695
▁구릉 -7696
▁호기 -7697
▁LP -7698
▁기단 -7699
▁박해 -7700
▁포터 -7701
▁허리 -7702
▁흘리 -7703
▁니아 -7704
▁백색 -7705
▁평원 -7706
▁시즈 -7707
▁딕 -7708
타로 -7709
▁그램 -7710
▁반감 -7711
▁세션 -7712
▁백화점 -7713
▁데이비스 -7714
▁앓 -7715
▁가동 -7716
▁수습 -7717
▁휴스턴 -7718
▁라트비아 -7719
cl -7720
▁신탁 -7721
▁주이 -7722
▁택시 -7723
▁한스 -7724
▁138 -7725
▁가면 -7726
▁냉각 -7727
▁비리 -7728
▁주행 -7729
▁격퇴 -7730
▁고성 -7731
▁이세 -7732
▁리우스 -7733
▁시칠리아 -7734
▁대표작 -7735
▁알아내 -7736
▁후쿠시마 -7737
파르 -7738
▁도미 -7739
▁도장 -7740
▁저하 -7741
▁전념 -7742
▁급격히 -7743
▁중성자 -7744
▁펌 -7745
▁ㄷㅚ -7746
▁토성 -7747
▁페르디 -7748
▁AK -7749
▁la -7750
▁복선 -7751
▁거제 -7752
▁영의정 -7753
▁고소 -7754
▁사헌 -7755
▁트래 -7756
▁360 -7757
타나 -7758
▁감리 -7759
여래 -7760
하면 -7761
▁신규 -7762
▁해적 -7763
▁아마도 -7764
▁되게 -7765
▁얘기 -7766
▁현종 -7767
▁CON -7768
▁모니터 -7769
▁솟 -7770
승지 -7771
래스카 -7772
▁적분 -7773
▁혈통 -7774
▁명령어 -7775
나오 -7776
▁회고 -7777
▁뭉 -7778
▁ㅅㅗ -7779
▁상공 -7780
▁릉 -7781
▁안기 -7782
▁임용 -7783
대신 -7784
▁스톡 -7785
▁탐구 -7786
▁테이블 -7787
▁En -7788
▁거론 -7789
▁레논 -7790
▁신한 -7791
▁횟수 -7792
▁목판 -7793
▁산란 -7794
▁오바 -7795
▁춘추 -7796
▁만남 -7797
▁춘천 -7798
▁최상위 -7799
▁104 -7800
곡리 -7801
양함 -7802
▁아부 -7803
▁우세 -7804
▁주가 -7805
토모 -7806
▁깨달 -7807
마쓰 -7808
▁CS -7809
▁치명 -7810
▁109 -7811
▁반도체 -7812
▁랄 -7813
▁익히 -7814
▁게르만 -7815
고쿠 -7816
▁고인 -7817
▁비시 -7818
▁성체 -7819
▁대학생 -7820
데시 -7821
ark -7822
▁성숙 -7823
▁순교 -7824
▁피에 -7825
▁코무네 -7826
ㅇㅗ -7827
하시 -7828
▁나비 -7829
▁송시 -7830
브레 -7831
▁제독 -7832
▁돌려 -7833
▁방송사 -7834
▁사헌부 -7835
▁옴 -7836
▁가짜 -7837
▁루프 -7838
▁어울리 -7839
거지 -7840
▁거행 -7841
▁돌보 -7842
▁칼라 -7843
▁교황청 -7844
▁피츠 -7845
▁공수 -7846
▁잔류 -7847
▁차장 -7848
▁스트레스 -7849
회장 -7850
▁AR -7851
▁극히 -7852
면체 -7853
▁뢰 -7854
▁데모 -7855
▁오해 -7856
▁한쪽 -7857
살이 -7858
▁다발 -7859
▁이식 -7860
▁히어로즈 -7861
▁관구 -7862
▁인플 -7863
▁주름 -7864
▁폭동 -7865
▁바나 -7866
AL -7867
▁래퍼 -7868
▁법조 -7869
▁사모 -7870
▁터치 -7871
은색 -7872
▁수련 -7873
▁음료 -7874
▁이케 -7875
▁환영 -7876
베르토 -7877
▁123 -7878
▁광물 -7879
어버리 -7880
푸르트 -7881
▁주역 -7882
▁ㄹㅏㄹ -7883
▁팡 -7884
▁재현 -7885
▁혀 -7886
▁성취 -7887
▁소매 -7888
▁최악 -7889
▁정점 -7890
▁플랜 -7891
헤이 -7892
▁경관 -7893
▁매입 -7894
▁부당 -7895
▁반경 -7896
▁신조 -7897
▁외치 -7898
타고 -7899
▁한인 -7900
실베이 -7901
실베이니아 -7902
리에 -7903
▁노바 -7904
▁마야 -7905
▁후방 -7906
▁카자흐스탄 -7907
▁펜실베이니아 -7908
더슨 -7909
▁시바 -7910
▁연합회 -7911
▁아홉 -7912
▁통증 -7913
▁축하 -7914
▁햇 -7915
▁CC -7916
▁그날 -7917
▁하워드 -7918
▁분비 -7919
▁상점 -7920
▁부르크 -7921
▁올바르 -7922
▁태양계 -7923
라클 -7924
▁베스 -7925
▁우위 -7926
▁컴파 -7927
▁143 -7928
포드 -7929
▁견제 -7930
▁리우 -7931
▁억압 -7932
▁유한 -7933
▁청춘 -7934
▁공산주의자 -7935
법인 -7936
▁아담 -7937
▁분기점 -7938
▁고장 -7939
▁별다르 -7940
▁종로구 -7941
▁플라이 -7942
글리 -7943
▁품종 -7944
▁헐 -7945
리니 -7946
▁동점 -7947
▁비자 -7948
▁너비 -7949
▁신주 -7950
▁이화 -7951
▁야구장 -7952
바시 -7953
▁Op -7954
▁상용 -7955
▁연하 -7956
▁염기 -7957
▁충전 -7958
▁폭행 -7959
▁드로 -7960
▁제하 -7961
러스트 -7962
▁광학 -7963
▁팔라 -7964
▁박람회 -7965
▁적당 -7966
▁히메 -7967
▁가군 -7968
브리지 -7969
▁호랑이 -7970
▁태권 -7971
▁다이아몬드 -7972
▁통영 -7973
은이 -7974
ile -7975
▁갈라 -7976
▁공관 -7977
란히 -7978
산동 -7979
▁국소 -7980
▁성사 -7981
▁열정 -7982
▁자민 -7983
▁주주 -7984
▁축적 -7985
▁토모 -7986
▁티스 -7987
▁목재 -7988
▁여당 -7989
▁블로그 -7990
▁동아일보 -7991
▁부설 -7992
▁상단 -7993
▁육체 -7994
▁소나타 -7995
▁알코올 -7996
▁룬 -7997
▁기적 -7998
▁왜냐 -7999
▁col -8000
차기 -8001
▁처녀 -8002
ies -8003
▁롤링 -8004
▁힘입 -8005
▁남동부 -8006
▁김경 -8007
▁벌금 -8008
▁펑크 -8009
▁왓 -8010
▁날씨 -8011
▁돋 -8012
▁유로파 -8013
▁공습 -8014
▁사육 -8015
▁신약 -8016
▁존속 -8017
▁경상도 -8018
▁생산량 -8019
▁누이 -8020
▁공익 -8021
▁근교 -8022
▁에미 -8023
▁해명 -8024
▁현저 -8025
▁친일파 -8026
▁블라디미르 -8027
스틴 -8028
▁성단 -8029
▁암시 -8030
▁이윤 -8031
▁사우루스 -8032
▁레일 -8033
▁말라 -8034
▁상반 -8035
▁RNA -8036
▁나트 -8037
▁이타 -8038
xt -8039
▁제프 -8040
▁라오스 -8041
비나 -8042
▁평의회 -8043
▁킥 -8044
▁운하 -8045
▁휠 -8046
의장 -8047
▁설탕 -8048
▁루이지 -8049
▁보석 -8050
▁조선일보 -8051
▁규범 -8052
▁양키스 -8053
▁우승자 -8054
기업 -8055
▁소셜 -8056
▁황실 -8057
▁키프로스 -8058
▁비싸 -8059
▁시골 -8060
▁카롤 -8061
▁사업자 -8062
ite -8063
▁신민 -8064
▁계시 -8065
▁무지 -8066
▁부제 -8067
▁중의원 -8068
▁112 -8069
▁플러스 -8070
도리 -8071
▁맥락 -8072
▁히사 -8073
▁SE -8074
▁가죽 -8075
▁인체 -8076
▁필터 -8077
▁탐사선 -8078
▁이에야스 -8079
▁동국 -8080
▁믹스 -8081
▁지르 -8082
▁아랍어 -8083
▁장거리 -8084
▁CF -8085
▁다투 -8086
▁미르 -8087
▁미션 -8088
▁유죄 -8089
▁107 -8090
▁구축함 -8091
스부르크 -8092
권자 -8093
▁상사 -8094
▁포럼 -8095
▁경찰청 -8096
랑카 -8097
▁다녀 -8098
▁연쇄 -8099
▁범인 -8100
▁비유 -8101
▁시베리아 -8102
▁맥주 -8103
▁우유 -8104
▁삼층석탑 -8105
▁브라더스 -8106
도바 -8107
▁거칠 -8108
▁아예 -8109
▁증대 -8110
▁이산화 -8111
▁거북 -8112
▁누나 -8113
▁왜곡 -8114
▁조세 -8115
▁흠 -8116
▁Pr -8117
▁is -8118
▁핸드 -8119
▁후사 -8120
▁이순신 -8121
▁시어 -8122
▁허위 -8123
▁전자기 -8124
▁창원시 -8125
ft -8126
▁126 -8127
▁그동안 -8128
▁대웅전 -8129
▁희생자 -8130
▁합하 -8131
▁내보내 -8132
고래 -8133
▁단단 -8134
▁빨간 -8135
레기 -8136
수리 -8137
▁교정 -8138
▁서진 -8139
▁수법 -8140
▁이경 -8141
▁트위터 -8142
▁퐁 -8143
▁Te -8144
▁놀랍 -8145
▁옆면 -8146
▁제재 -8147
▁개교 -8148
▁인문 -8149
나스 -8150
▁117 -8151
▁당주 -8152
▁발해 -8153
▁후궁 -8154
▁KIA -8155
▁언니 -8156
▁고속도 -8157
▁교과서 -8158
▁신선 -8159
▁송시열 -8160
▁조종사 -8161
▁구출 -8162
▁탐색 -8163
▁인명 -8164
▁헤비 -8165
OL -8166
▁근원 -8167
▁지평 -8168
▁줄무늬 -8169
단체 -8170
▁네스 -8171
▁핵무기 -8172
지붕 -8173
▁워터 -8174
▁클라우드 -8175
▁도마뱀붙이 -8176
▁경보 -8177
▁다크 -8178
▁자선 -8179
▁투옥 -8180
ound -8181
그레이드 -8182
▁뉘 -8183
ath -8184
▁성별 -8185
▁약력 -8186
▁판본 -8187
연합 -8188
▁샘플 -8189
▁천장 -8190
▁카를로스 -8191
▁업그레이드 -8192
▁갇 -8193
▁극장판 -8194
갈색 -8195
▁CR -8196
▁수색 -8197
▁협박 -8198
▁확신 -8199
▁할머니 -8200
▁빈곤 -8201
▁실체 -8202
▁com -8203
▁게스트 -8204
▁제니 -8205
▁기업인 -8206
▁소원 -8207
▁요동 -8208
▁가마쿠라 -8209
▁냉전 -8210
▁세라 -8211
▁입원 -8212
▁킴 -8213
▁진급 -8214
▁수용체 -8215
▁신시 -8216
▁제대 -8217
▁드레 -8218
▁137 -8219
▁화장실 -8220
▁방화 -8221
▁이브 -8222
▁펠리 -8223
▁121 -8224
▁대명 -8225
▁피우 -8226
게이머 -8227
▁고고학 -8228
▁왜냐하면 -8229
▁아카데미상 -8230
▁프로게이머 -8231
▁비르 -8232
▁진공 -8233
▁풀리 -8234
▁법무부 -8235
▁연합국 -8236
▁삼성전자 -8237
▁깨닫 -8238
▁문예 -8239
▁요약 -8240
▁113 -8241
▁브로드 -8242
▁가축 -8243
▁진하 -8244
▁173 -8245
▁라이너 -8246
▁공방 -8247
▁다지 -8248
▁말년 -8249
▁보증 -8250
▁사생활 -8251
▁대폭 -8252
▁임하 -8253
베니아 -8254
▁350 -8255
▁헥 -8256
조부 -8257
▁1894 -8258
수소 -8259
▁우호 -8260
▁굉장히 -8261
▁빨간색 -8262
마루 -8263
▁LC -8264
▁곡인 -8265
▁포병 -8266
▁알제리 -8267
끼리 -8268
다지 -8269
무스 -8270
▁ㄴㅗ -8271
▁거울 -8272
▁상표 -8273
▁결함 -8274
▁스캔 -8275
▁필리프 -8276
ond -8277
▁갇히 -8278
▁레온 -8279
▁마디 -8280
▁승계 -8281
▁일반인 -8282
▁슬로베니아 -8283
ory -8284
▁몰래 -8285
▁치안 -8286
▁통틀 -8287
▁둥지 -8288
▁왕복 -8289
▁일가 -8290
▁일방 -8291
시타 -8292
▁몬스터 -8293
▁시뮬 -8294
▁아야 -8295
▁테이프 -8296
▁꾀하 -8297
▁자아 -8298
▁지미 -8299
▁바오로 -8300
▁김현 -8301
▁바티칸 -8302
▁코스타 -8303
아프리카 -8304
ov -8305
▁계정 -8306
▁캐시 -8307
▁크리스토퍼 -8308
▁농림 -8309
▁문구 -8310
▁맘 -8311
▁용병 -8312
▁근로자 -8313
▁총독부 -8314
MA -8315
대기 -8316
톨레 -8317
man -8318
▁군정 -8319
▁바우 -8320
▁적도 -8321
▁게이지 -8322
▁도미니 -8323
▁낫 -8324
승부 -8325
▁SU -8326
▁항쟁 -8327
▁땃 -8328
▁대피 -8329
▁해고 -8330
▁물려받 -8331
▁가장자리 -8332
▁냄 -8333
▁뒷면 -8334
▁불타 -8335
▁양측 -8336
그리 -8337
로이 -8338
▁철회 -8339
▁무어 -8340
▁피오 -8341
▁서민 -8342
▁공백 -8343
▁먼지 -8344
▁체크 -8345
퍼런스 -8346
▁124 -8347
▁z -8348
▁엿 -8349
▁공민 -8350
▁세속 -8351
▁학계 -8352
▁붐 -8353
린스 -8354
▁하동 -8355
프레스 -8356
▁내정 -8357
▁로이 -8358
▁탤런트 -8359
규모 -8360
아키 -8361
크라 -8362
▁강서 -8363
▁궁극 -8364
▁원전 -8365
▁최강 -8366
▁택하 -8367
▁횡단 -8368
▁World -8369
▁성문 -8370
블리 -8371
박스 -8372
▁On -8373
▁혈관 -8374
▁독일인 -8375
▁커뮤니케이션 -8376
셰비 -8377
▁제인 -8378
iver -8379
▁자연수 -8380
▁관음 -8381
▁구절 -8382
▁로우 -8383
▁카카 -8384
▁타당 -8385
▁사상자 -8386
로니 -8387
▁Am -8388
▁러시 -8389
▁화해 -8390
▁륙 -8391
▁뒤집 -8392
▁야쿠 -8393
▁멜로디 -8394
▁놓치 -8395
▁성도 -8396
▁체조 -8397
대원군 -8398
▁브리지 -8399
▁오프닝 -8400
▁파이널 -8401
▁개종 -8402
▁국내외 -8403
▁be -8404
▁극심 -8405
▁비추 -8406
▁서초 -8407
▁쑤 -8408
축구 -8409
▁디렉 -8410
▁만일 -8411
▁프랑크푸르트 -8412
▁가루 -8413
▁칭찬 -8414
▁풍자 -8415
▁야마토 -8416
▁공천 -8417
▁데르 -8418
▁명하 -8419
ㄷㅡㄴ -8420
▁김정일 -8421
▁드라이버 -8422
줄기 -8423
▁평정 -8424
▁가져가 -8425
▁프로덕 -8426
드르 -8427
▁닫히 -8428
▁초록 -8429
▁초월 -8430
▁챌린지 -8431
IP -8432
▁영산 -8433
▁자음 -8434
▁즉각 -8435
▁New -8436
▁감자 -8437
▁모친 -8438
▁우파 -8439
▁남서부 -8440
▁욕구 -8441
▁베네딕 -8442
▁1890 -8443
▁그랜 -8444
▁그대 -8445
▁옵션 -8446
▁이소 -8447
▁ㄷㅣ -8448
▁미노 -8449
▁최대한 -8450
ich -8451
▁기질 -8452
▁설화 -8453
▁스칼 -8454
▁외모 -8455
▁유저 -8456
▁자오 -8457
▁정세 -8458
▁114 -8459
▁부작용 -8460
▁정변 -8461
▁윤치호 -8462
렉스 -8463
▁김규 -8464
▁양호 -8465
▁자비 -8466
▁배후 -8467
▁쾌속 -8468
▁블랙홀 -8469
▁오리콘 -8470
▁플래시 -8471
▁EC -8472
▁돌격 -8473
▁그냥 -8474
▁넘치 -8475
▁두껍 -8476
▁악단 -8477
▁이드 -8478
▁계열사 -8479
▁베니 -8480
▁아랫 -8481
▁퇴임 -8482
▁학명 -8483
▁트로이 -8484
▁정주 -8485
▁므 -8486
▁땃쥐 -8487
▁발리 -8488
▁이준 -8489
▁캔자스 -8490
▁곤란 -8491
▁어미 -8492
▁검찰청 -8493
ial -8494
▁SD -8495
▁이거 -8496
▁선비 -8497
▁조부 -8498
▁침투 -8499
▁맑 -8500
▁구스타 -8501
▁제치 -8502
▁체스 -8503
▁시위대 -8504
▁소규모 -8505
황후 -8506
▁결코 -8507
▁미키 -8508
▁커널 -8509
▁방사선 -8510
▁소방서 -8511
▁도청 -8512
▁Sc -8513
▁태극 -8514
타리오 -8515
▁관세 -8516
▁로그 -8517
▁요정 -8518
▁증손 -8519
▁안토니오 -8520
▁벵 -8521
러드 -8522
▁하르 -8523
▁GP -8524
▁비주 -8525
▁118 -8526
기념 -8527
▁학업 -8528
▁일리노 -8529
ign -8530
▁경신 -8531
▁부딪 -8532
▁이남 -8533
▁가드 -8534
▁어긋 -8535
▁다녀오 -8536
저지 -8537
▁말씀 -8538
▁숙청 -8539
▁115 -8540
함수 -8541
▁모나 -8542
▁지침 -8543
▁모로코 -8544
▁일리노이 -8545
▁시정 -8546
▁제압 -8547
▁지인 -8548
▁징계 -8549
▁통치자 -8550
닐라 -8551
▁서자 -8552
▁반지름 -8553
▁과반 -8554
▁생체 -8555
▁진사 -8556
▁자택 -8557
▁우즈베 -8558
hn -8559
▁GS -8560
▁구와 -8561
▁뉴턴 -8562
▁주부 -8563
▁헬리 -8564
▁경찰관 -8565
▁알루미 -8566
▁만료 -8567
▁봉건 -8568
▁키르 -8569
▁미하일 -8570
▁빔 -8571
▁레바논 -8572
교도 -8573
▁떨치 -8574
▁변이 -8575
▁웹툰 -8576
▁종착 -8577
▁성리학 -8578
▁파란색 -8579
▁범유행 -8580
▁알아보 -8581
▁1898 -8582
▁디비시온 -8583
▁깎 -8584
지스 -8585
히코 -8586
TS -8587
고스 -8588
▁매매 -8589
▁빛나 -8590
▁예조 -8591
▁재상 -8592
▁헬기 -8593
▁스크립 -8594
▁남구 -8595
▁대부 -8596
▁혜택 -8597
▁다가오 -8598
▁크리스티안 -8599
▁괴물 -8600
▁바빌 -8601
▁저널 -8602
▁취업 -8603
▁뉴저지 -8604
보르 -8605
▁순조 -8606
▁용이 -8607
▁컨셉 -8608
▁레슬링 -8609
▁스폰 -8610
▁운수 -8611
▁카우 -8612
마이오스 -8613
▁남미 -8614
▁연승 -8615
▁패럴 -8616
▁III -8617
▁ㅌ -8618
▁극작 -8619
▁하프 -8620
▁매니저 -8621
▁ㅇㅡㄹㅈㅣ -8622
▁컷 -8623
▁외관 -8624
▁축출 -8625
▁세이브 -8626
ㄹㅣ -8627
▁분명히 -8628
▁웨스턴 -8629
▁갑작스럽 -8630
▁대거 -8631
▁연이 -8632
▁풀려나 -8633
문트 -8634
틱스 -8635
▁동정 -8636
▁봉안 -8637
먼스 -8638
미사 -8639
조건 -8640
타니 -8641
▁케냐 -8642
▁캉 -8643
▁가옥 -8644
▁왕세 -8645
▁희귀 -8646
▁렐 -8647
▁관제 -8648
▁선도 -8649
▁필사 -8650
▁광해군 -8651
▁원로원 -8652
벨트 -8653
▁앵글 -8654
▁우측 -8655
▁재혼 -8656
▁중형 -8657
▁시가지 -8658
▁ㅋㅔ -8659
▁스타리그 -8660
▁믹 -8661
▁공조 -8662
▁129 -8663
▁의약품 -8664
▁센티 -8665
▁카디 -8666
▁외야수 -8667
부리 -8668
하루 -8669
▁코카 -8670
▁핑크 -8671
▁승부차기 -8672
▁체코슬로 -8673
▁체코슬로바키아 -8674
▁쯔 -8675
▁발급 -8676
▁사적 -8677
▁부의장 -8678
아먹 -8679
타리 -8680
▁소모 -8681
▁임원 -8682
▁프로덕션 -8683
▁기증 -8684
▁무성 -8685
▁미세 -8686
▁부스 -8687
개미 -8688
▁두려 -8689
▁종속 -8690
시즘 -8691
▁본국 -8692
▁천하 -8693
▁글루 -8694
▁리뷰 -8695
▁켈리 -8696
▁마운트 -8697
▁연산자 -8698
▁괘 -8699
▁사위 -8700
▁맏 -8701
▁비기 -8702
▁응시 -8703
▁전년 -8704
▁무승부 -8705
▁1899 -8706
▁승자 -8707
▁호출 -8708
▁비로소 -8709
▁럼 -8710
화물 -8711
▁공감 -8712
▁뇌물 -8713
▁부피 -8714
▁벨라루스 -8715
▁로비 -8716
▁발병 -8717
▁배수 -8718
▁중산 -8719
▁통보 -8720
▁기각 -8721
▁무명 -8722
▁` -8723
▁퉁 -8724
rom -8725
▁밝기 -8726
▁빌라 -8727
▁척추 -8728
▁워크 -8729
▁젊은이 -8730
▁쫓겨나 -8731
슬러 -8732
▁JT -8733
▁Ne -8734
▁천문대 -8735
▁세이부 -8736
▁장례식 -8737
▁뭐 -8738
▁맥도 -8739
▁밀집 -8740
▁케임 -8741
▁스트리 -8742
쟁이 -8743
▁답변 -8744
▁러셀 -8745
▁요건 -8746
▁첨단 -8747
▁황족 -8748
▁연예인 -8749
우트 -8750
▁예하 -8751
▁직면 -8752
▁한족 -8753
▁사쿠라 -8754
▁화력 -8755
▁회관 -8756
▁개막전 -8757
방송공사 -8758
ph -8759
바닥 -8760
▁예고 -8761
▁폭넓 -8762
레타 -8763
테르부르크 -8764
▁ID -8765
▁오오 -8766
▁오크 -8767
▁총사령 -8768
▁키보드 -8769
코딩 -8770
▁미들 -8771
▁폭포 -8772
▁그레고 -8773
▁닦 -8774
▁IM -8775
▁말미 -8776
▁벽돌 -8777
▁토끼 -8778
▁파산 -8779
▁군중 -8780
▁성폭 -8781
▁지옥 -8782
▁사본 -8783
▁조지프 -8784
▁웬 -8785
▁양반 -8786
▁재선 -8787
▁142 -8788
▁월요일 -8789
▁알루미늄 -8790
▁난징 -8791
▁소생 -8792
진군 -8793
▁어른 -8794
▁토양 -8795
▁vs -8796
▁유라 -8797
▁케빈 -8798
▁브리튼 -8799
▁힌두교 -8800
▁콕 -8801
▁저주 -8802
ction -8803
도스 -8804
천리 -8805
포로 -8806
▁만성 -8807
pp -8808
urn -8809
▁각도 -8810
▁남작 -8811
▁혼동 -8812
▁교통국 -8813
▁옳 -8814
로우 -8815
▁기차 -8816
느러미 -8817
▁ㅇㅡㄴㄷㅔ -8818
▁옹립 -8819
▁중공 -8820
▁대변인 -8821
▁대서양 -8822
▁도카이 -8823
▁어긋나 -8824
▁청주시 -8825
롤라이나 -8826
▁룩셈 -8827
▁ch -8828
▁천재 -8829
▁룩셈부르크 -8830
▁구경 -8831
▁워너 -8832
▁유진 -8833
▁창출 -8834
▁토미 -8835
▁스즈키 -8836
▁터뜨리 -8837
▁독서 -8838
▁시범 -8839
▁유방 -8840
▁일컬 -8841
▁축물 -8842
▁광주광역시 -8843
토르 -8844
▁CJ -8845
▁김지 -8846
▁드림 -8847
▁무함 -8848
▁전속 -8849
▁총칭 -8850
▁코시 -8851
셰비키 -8852
▁부여받 -8853
▁플라스틱 -8854
▁감싸 -8855
▁신원 -8856
▁자크 -8857
▁하얗 -8858
▁학기 -8859
▁마르티 -8860
브르 -8861
▁공적 -8862
ㄷㅓㄴ -8863
▁거래소 -8864
▁끌어들이 -8865
▁온타리오 -8866
타주 -8867
▁리프 -8868
▁타임스 -8869
▁더글러스 -8870
▁익스프레스 -8871
럴드 -8872
▁병기 -8873
▁안테 -8874
ens -8875
▁BS -8876
▁동학 -8877
▁발기 -8878
▁보위 -8879
▁화상 -8880
▁공리 -8881
▁대치 -8882
▁본문 -8883
▁정려 -8884
▁기사단 -8885
▁프란츠 -8886
▁마녀 -8887
▁피겨 -8888
▁두려워하 -8889
수록 -8890
▁감마 -8891
▁사간 -8892
▁시코 -8893
▁기술자 -8894
▁아리아 -8895
▁프톨레 -8896
▁프톨레마이오스 -8897
▁가환 -8898
▁Man -8899
▁가야 -8900
▁서장 -8901
▁체류 -8902
▁컴백 -8903
▁다항식 -8904
▁점성술 -8905
▁1902 -8906
▁서신 -8907
▁의자 -8908
▁촉매 -8909
▁넘어서 -8910
▁니코 -8911
▁실망 -8912
▁유체 -8913
▁중복 -8914
▁금요일 -8915
▁광둥 -8916
▁그래미 -8917
▁대성당 -8918
▁수분 -8919
▁스턴 -8920
▁원천 -8921
▁채소 -8922
lan -8923
▁왼손 -8924
▁밍 -8925
▁얹 -8926
▁뒷받침 -8927
크로 -8928
▁명종 -8929
▁표기법 -8930
▁해밀턴 -8931
덩이 -8932
▁지출 -8933
파이어 -8934
▁잃어버리 -8935
샤바 -8936
치기 -8937
▁동네 -8938
▁우체 -8939
▁정적 -8940
▁종래 -8941
▁화자 -8942
▁거세 -8943
TA -8944
▁대패 -8945
▁연꽃 -8946
글라 -8947
▁감행 -8948
▁대합 -8949
▁탄도 -8950
▁희곡 -8951
▁관광지 -8952
두리 -8953
▁게리 -8954
▁독성 -8955
▁설교 -8956
▁확실히 -8957
▁준결승전 -8958
▁등기 -8959
▁습지 -8960
▁시가 -8961
▁플랫폼 -8962
ert -8963
▁'' -8964
▁원종 -8965
▁지치 -8966
▁호르몬 -8967
lic -8968
▁대손 -8969
▁비석 -8970
▁세비 -8971
▁마스크 -8972
▁러시아어 -8973
▁깃발 -8974
▁간선 -8975
▁영문 -8976
▁정성 -8977
▁포획 -8978
폴리 -8979
▁위쪽 -8980
▁스위치 -8981
▁표적 -8982
▁함정 -8983
TC -8984
ary -8985
▁기숙 -8986
▁나노 -8987
▁염증 -8988
▁피신 -8989
▁바깥쪽 -8990
▁코믹스 -8991
▁소나무 -8992
▁토착종 -8993
▁국영 -8994
▁찌르 -8995
▁강변 -8996
▁개소 -8997
▁기니 -8998
▁상금 -8999
▁선행 -9000
▁보이스 -9001
▁아돌프 -9002
▁제국주의 -9003
▁포켓몬스터 -9004
▁몫 -9005
▁그릇 -9006
▁메커 -9007
▁서류 -9008
▁비행장 -9009
▁초신 -9010
▁형조 -9011
국사 -9012
▁광명 -9013
▁물품 -9014
▁사슴 -9015
▁지식인 -9016
▁버드 -9017
▁판례 -9018
▁고양시 -9019
▁복용 -9020
▁엔딩 -9021
▁영등 -9022
▁붙잡히 -9023
▁춥 -9024
▁입국 -9025
▁코끼리 -9026
▁얽 -9027
▁강동 -9028
▁벨트 -9029
▁소시 -9030
▁약자 -9031
텍처 -9032
▁검열 -9033
▁마력 -9034
▁브뤼 -9035
▁선배 -9036
▁참의 -9037
▁아키텍처 -9038
▁아산 -9039
▁주조 -9040
▁지켜 -9041
▁아이오 -9042
▁청산 -9043
▁하단 -9044
그룹 -9045
▁울프 -9046
▁흔들리 -9047
LS -9048
링턴 -9049
미트 -9050
테인 -9051
▁고아 -9052
▁단축 -9053
▁생생 -9054
▁페르디난 -9055
▁임관 -9056
▁퀘벡 -9057
▁부회장 -9058
▁이용자 -9059
디나 -9060
ach -9061
▁동행 -9062
▁서리 -9063
▁직결 -9064
▁사이토 -9065
▁연기자 -9066
구르 -9067
▁수확 -9068
▁경성부 -9069
▁간토 -9070
▁시리 -9071
▁울산광역시 -9072
▁례 -9073
▁혐오 -9074
▁사회당 -9075
▁렘 -9076
▁단절 -9077
▁뛰어 -9078
▁쓰촨 -9079
▁열도 -9080
▁제네바 -9081
▁No -9082
▁서문 -9083
▁호모 -9084
▁서유럽 -9085
▁1901 -9086
LE -9087
▁생략 -9088
▁축조 -9089
자르 -9090
▁갈릴 -9091
▁산출 -9092
▁압둘 -9093
▁드러머 -9094
ys -9095
짓점 -9096
▁바이킹 -9097
▁보복 -9098
▁보트 -9099
▁분수 -9100
▁커스 -9101
▁화강 -9102
▁갈수록 -9103
▁꼭짓점 -9104
▁폭격기 -9105
IG -9106
히토 -9107
▁단의 -9108
▁레즈 -9109
▁면제 -9110
▁실버 -9111
▁페널 -9112
▁현은 -9113
▁언어학 -9114
out -9115
▁공명 -9116
▁광대 -9117
▁색채 -9118
▁성지 -9119
▁어류 -9120
▁이현 -9121
▁페니 -9122
▁매카트니 -9123
▁체르 -9124
▁하치 -9125
▁에디션 -9126
▁케임브리지 -9127
▁수축 -9128
▁응하 -9129
▁정동 -9130
▁뮤지션 -9131
▁삿포로 -9132
▁끊임없이 -9133
피어 -9134
▁무궁 -9135
▁부가 -9136
▁조립 -9137
루아 -9138
모스 -9139
타임 -9140
▁매수 -9141
▁정문 -9142
▁코코 -9143
▁헌신 -9144
▁권총 -9145
▁김창 -9146
▁일산 -9147
▁카미 -9148
▁광저우 -9149
▁쿄 -9150
▁갱신 -9151
▁입성 -9152
▁자작 -9153
카가 -9154
ype -9155
▁라그 -9156
▁치아 -9157
▁MB -9158
▁개화 -9159
▁불꽃 -9160
▁역량 -9161
▁이단 -9162
▁토기 -9163
▁염색체 -9164
▁알렉산드르 -9165
▁메커니즘 -9166
▁아라비아 -9167
아웃 -9168
▁kt -9169
▁가역 -9170
▁공예 -9171
▁체중 -9172
▁퇴역 -9173
ug -9174
▁고산 -9175
쿠버 -9176
▁드라 -9177
▁크롬 -9178
▁요르단 -9179
정리 -9180
▁미륵 -9181
▁여운 -9182
▁원료 -9183
▁방송인 -9184
▁발렌시아 -9185
▁정립 -9186
▁특권 -9187
▁푸에르 -9188
나우 -9189
▁박지 -9190
▁썰 -9191
▁누적 -9192
▁보헤 -9193
▁영국인 -9194
▁스텔 -9195
▁실적 -9196
▁태그 -9197
베트남 -9198
▁134 -9199
그라 -9200
▁ㅈㅛ -9201
▁대두 -9202
▁원본 -9203
▁조수 -9204
▁차르 -9205
방울 -9206
▁민감 -9207
ase -9208
▁이병 -9209
▁주되 -9210
▁표방 -9211
노미야 -9212
▁개인전 -9213
▁EX -9214
▁논하 -9215
▁다마 -9216
▁간단히 -9217
▁파이터 -9218
▁아인슈타인 -9219
▁손꼽 -9220
▁스님 -9221
▁학대 -9222
레슬링 -9223
▁THE -9224
▁사업가 -9225
▁도요토미 -9226
▁대구광역시 -9227
▁} -9228
▁AN -9229
▁김제 -9230
▁두께 -9231
▁입각 -9232
▁만주국 -9233
▁크레이 -9234
▁홈구장 -9235
ㅌㅔ -9236
속기 -9237
퀘어 -9238
▁강간 -9239
▁릿 -9240
그래 -9241
기스 -9242
▁섹스 -9243
▁카프 -9244
▁캐서 -9245
테르담 -9246
▁트로피 -9247
▁무함마드 -9248
그레 -9249
대장 -9250
펜하 -9251
▁아브 -9252
▁오쿠 -9253
▁트리플 -9254
ㄴㄷ -9255
▁동조 -9256
▁마우 -9257
▁쓰레기 -9258
▁장기간 -9259
▁아리스토 -9260
▁쟈 -9261
▁교대 -9262
▁ㅎㅏㄴ -9263
▁모서리 -9264
▁검출 -9265
▁버티 -9266
▁갈리아 -9267
▁신도비 -9268
내리 -9269
▁극대 -9270
▁에콰 -9271
▁에콰도르 -9272
▁불신 -9273
▁All -9274
▁미시시피 -9275
▁아시카가 -9276
사리 -9277
▁헌정 -9278
▁패밀리 -9279
▁1903 -9280
▁옥스퍼드 -9281
▁알렉산드리아 -9282
11 -9283
일으키 -9284
▁와이번스 -9285
▁불러일으키 -9286
역학 -9287
카미 -9288
▁남매 -9289
▁노보 -9290
▁소말 -9291
▁연봉 -9292
▁직경 -9293
▁하리 -9294
▁그다지 -9295
▁아폴로 -9296
▁1884 -9297
▁프로레슬링 -9298
▁Cl -9299
▁어둠 -9300
▁질소 -9301
▁One -9302
▁기념관 -9303
▁리더십 -9304
▁와일드 -9305
▁콤팩트 -9306
▁날카 -9307
▁복합체 -9308
▁ㅎㅏㄴㅌㅔ -9309
불교 -9310
처스 -9311
천사 -9312
▁공황 -9313
▁복소수 -9314
▁이성계 -9315
카타 -9316
▁전방 -9317
▁정유 -9318
▁제로 -9319
▁토요 -9320
▁전염병 -9321
▁1800 -9322
번뇌 -9323
▁기념비 -9324
▁쓰시마 -9325
▁LA -9326
▁ㅅㅑ -9327
▁비타 -9328
▁쥐과 -9329
라이언트 -9330
하키 -9331
▁IN -9332
▁유부 -9333
▁정선 -9334
▁공고 -9335
▁장벽 -9336
▁패널 -9337
▁지도부 -9338
▁야마구치 -9339
▁클라이언트 -9340
▁구형 -9341
▁퇴적 -9342
▁취미 -9343
▁하비 -9344
▁히타 -9345
▁드레스 -9346
▁방글라 -9347
▁방글라데시 -9348
푸르 -9349
▁삼촌 -9350
▁전위 -9351
▁중령 -9352
▁지켜보 -9353
ke -9354
▁실재 -9355
▁이태 -9356
▁타케 -9357
라이어 -9358
▁도널드 -9359
▁어뢰 -9360
▁이관 -9361
▁추첨 -9362
▁슬라브 -9363
▁클라이 -9364
ree -9365
▁Gr -9366
▁단면 -9367
▁로저 -9368
▁선동 -9369
▁소행성 -9370
▁니콜라이 -9371
네마 -9372
▁군산 -9373
▁좌측 -9374
▁팰 -9375
▁각색 -9376
▁루타 -9377
▁반공 -9378
▁샌디 -9379
▁슈팅 -9380
▁우치 -9381
▁티코 -9382
▁팟 -9383
▁대문 -9384
▁염소 -9385
▁준주 -9386
▁꼭대기 -9387
▁마르틴 -9388
▁북아프리카 -9389
▁마키 -9390
나미 -9391
올로 -9392
▁GO -9393
▁상응 -9394
▁인질 -9395
테이션 -9396
▁프란체 -9397
▁군함 -9398
▁선우 -9399
▁원더 -9400
▁흥선 -9401
▁구스 -9402
▁비뉴 -9403
▁철폐 -9404
▁함선 -9405
▁마르코 -9406
▁조반니 -9407
▁교량 -9408
▁발칸 -9409
▁세키 -9410
▁실무 -9411
▁파병 -9412
▁해남 -9413
가와현 -9414
▁뉴욕주 -9415
▁소수자 -9416
▁전시회 -9417
▁충청도 -9418
▁달걀 -9419
▁밀란 -9420
▁코믹 -9421
▁훔치 -9422
사이드 -9423
▁프레드 -9424
▁경작 -9425
▁관절 -9426
▁김홍 -9427
▁토시 -9428
▁피고인 -9429
▁중앙아시아 -9430
pt -9431
가르 -9432
▁가오 -9433
▁상가 -9434
▁스토어 -9435
▁특색 -9436
▁회상 -9437
▁방사성 -9438
▁Ad -9439
▁깨지 -9440
▁당수 -9441
▁모모 -9442
▁활주 -9443
▁갤러리 -9444
리코 -9445
▁러스 -9446
▁에밀 -9447
▁우회 -9448
▁데스크 -9449
▁아미노산 -9450
▁가산 -9451
▁조형 -9452
▁히로시 -9453
▁진료 -9454
▁꿀 -9455
▁급수 -9456
▁농부 -9457
▁도선 -9458
▁마니 -9459
▁분출 -9460
▁자형 -9461
▁전구 -9462
▁회피 -9463
▁오사카부 -9464
간지 -9465
구역 -9466
▁로라 -9467
▁상트 -9468
▁소자 -9469
▁뒤쪽 -9470
▁진행자 -9471
▁권장 -9472
▁음향 -9473
기념물 -9474
▁날카롭 -9475
ass -9476
▁기분 -9477
▁기저 -9478
▁상경 -9479
▁카사 -9480
▁터보 -9481
포터 -9482
▁경인 -9483
▁전복 -9484
▁그레이트 -9485
▁견인 -9486
▁우물 -9487
▁남동생 -9488
▁with -9489
▁스크립트 -9490
▁강대 -9491
▁곡물 -9492
▁궁중 -9493
▁116 -9494
▁카스티 -9495
사업 -9496
▁내걸 -9497
▁상고 -9498
▁의결 -9499
▁이북 -9500
몰로지 -9501
▁아나키 -9502
산맥 -9503
▁물가 -9504
▁창녕 -9505
아들 -9506
act -9507
▁델타 -9508
▁정화 -9509
▁기관총 -9510
▁포스터 -9511
▁일렉트로 -9512
▁발령 -9513
▁세바 -9514
▁하차 -9515
▁가브리 -9516
▁당연히 -9517
▁인테르 -9518
▁CN -9519
▁기슭 -9520
▁막스 -9521
▁분량 -9522
▁후작 -9523
▁카를로 -9524
▁데카 -9525
▁묶이 -9526
▁샌드 -9527
▁취항 -9528
▁구약 -9529
▁수목 -9530
▁절단 -9531
▁다케다 -9532
▁앰 -9533
벤처 -9534
▁리만 -9535
▁보성 -9536
▁디트로 -9537
▁어드벤처 -9538
▁디트로이트 -9539
▁상법 -9540
▁거주지 -9541
▁총대주교 -9542
개골 -9543
▁Br -9544
▁브란 -9545
▁어찌 -9546
▁220 -9547
▁마카오 -9548
▁민간인 -9549
▁1860 -9550
▁볼리비아 -9551
▁홉 -9552
곡동 -9553
사우 -9554
▁안경 -9555
▁모리스 -9556
▁페널티 -9557
▁강희 -9558
▁등용 -9559
▁신축 -9560
▁용서 -9561
▁현감 -9562
▁교도소 -9563
▁유대교 -9564
▁장자 -9565
▁진전 -9566
▁추론 -9567
▁평창 -9568
▁효고 -9569
ream -9570
▁더욱이 -9571
▁버클리 -9572
▁스트라이크 -9573
▁가열 -9574
▁미라 -9575
▁반군 -9576
▁연대기 -9577
▁건륭 -9578
▁반전 -9579
▁캐서린 -9580
▁컨트리 -9581
▁한국방송공사 -9582
▁까닭 -9583
▁냄새 -9584
▁침체 -9585
▁카타르 -9586
▁오로 -9587
▁올드 -9588
▁배우자 -9589
▁1897 -9590
▁페이스북 -9591
▁대출 -9592
▁리조 -9593
▁단행본 -9594
▁돌기 -9595
▁동형 -9596
▁태백 -9597
니시 -9598
▁대관 -9599
▁노태우 -9600
▁떡 -9601
▁Ex -9602
▁감안 -9603
▁농사 -9604
▁마블 -9605
▁브랜 -9606
▁시야 -9607
▁낙동 -9608
▁네오 -9609
▁민정 -9610
▁종말 -9611
▁타우 -9612
파리 -9613
▁델라 -9614
▁휴가 -9615
▁유닉스 -9616
▁글래 -9617
▁르노 -9618
▁입주 -9619
▁폭로 -9620
▁되돌리 -9621
▁모티브 -9622
▁일부분 -9623
▁공손 -9624
▁마가 -9625
▁맞붙 -9626
▁교육청 -9627
▁수료 -9628
▁심화 -9629
▁일파 -9630
▁종파 -9631
▁타지 -9632
▁거짓말 -9633
▁일자리 -9634
▁갈래 -9635
▁안산 -9636
▁애틀랜타 -9637
▁가의 -9638
▁깨끗 -9639
▁리히 -9640
▁접수 -9641
도비 -9642
▁고이 -9643
▁장제 -9644
▁전산 -9645
▁확진 -9646
▁알프레 -9647
▁경제학자 -9648
▁천연기념물 -9649
▁Is -9650
▁가신 -9651
▁나루 -9652
▁북경 -9653
▁석불 -9654
▁왕정 -9655
▁청색 -9656
▁카즈 -9657
▁쿠니 -9658
▁효종 -9659
▁강남구 -9660
▁미네소 -9661
▁솔루션 -9662
▁중공업 -9663
▁후반기 -9664
▁바르샤바 -9665
▁죠 -9666
츠크 -9667
▁사살 -9668
▁체력 -9669
스카르 -9670
나드 -9671
▁아소 -9672
▁스퀘어 -9673
▁신동 -9674
▁애리 -9675
▁공용어 -9676
▁사카이 -9677
▁이주하 -9678
캐롤라이나 -9679
CAF -9680
▁BM -9681
▁2022 -9682
▁ㅇㅡㄹㄲㅏ -9683
산성 -9684
▁벽화 -9685
▁프렌 -9686
▁엇 -9687
리즘 -9688
▁노이 -9689
▁버마 -9690
▁복권 -9691
▁소행 -9692
▁중원 -9693
반구 -9694
▁아마존 -9695
▁함부르크 -9696
▁상트페 -9697
▁상트페테르부르크 -9698
▁++ -9699
▁고토 -9700
▁마애 -9701
▁수중 -9702
▁학력 -9703
퍼슨 -9704
▁;& -9705
▁간신 -9706
▁한층 -9707
▁122 -9708
▁게릴라 -9709
▁과실 -9710
▁빈도 -9711
▁저렴 -9712
▁쥐속 -9713
▁호쿠 -9714
▁쓸 -9715
ake -9716
▁공약 -9717
▁팔레 -9718
▁마라톤 -9719
▁마당 -9720
▁무슨 -9721
▁이반 -9722
▁클라크 -9723
▁흥선대원군 -9724
▁안치 -9725
▁이빨 -9726
▁NGC -9727
▁1880 -9728
▁윤보 -9729
▁con -9730
iss -9731
▁경위 -9732
▁군청 -9733
▁용암 -9734
▁유스 -9735
▁화순 -9736
▁홍문관 -9737
푸아 -9738
▁입양 -9739
▁적군 -9740
▁안드레아 -9741
▁ES -9742
▁막시 -9743
▁분파 -9744
▁브룩 -9745
▁전격 -9746
▁합당 -9747
▁제작사 -9748
콥터 -9749
▁무술 -9750
▁정경 -9751
니지 -9752
▁모용 -9753
▁장원 -9754
▁치우 -9755
▁타협 -9756
자치시 -9757
▁설립자 -9758
▁특별자치시 -9759
▁셜 -9760
네시 -9761
케이 -9762
▁DM -9763
▁보강 -9764
▁석회 -9765
▁신정 -9766
▁이장 -9767
▁콘테 -9768
▁법정동 -9769
▁옥수수 -9770
▁이용객 -9771
▁키예프 -9772
거진 -9773
▁블리 -9774
▁세네 -9775
▁갑옷 -9776
▁김민 -9777
▁예명 -9778
▁청소 -9779
▁무로 -9780
▁연동 -9781
▁짐작 -9782
▁집결 -9783
▁강철 -9784
▁살피 -9785
▁유정 -9786
▁이규 -9787
▁종점 -9788
▁펜싱 -9789
▁극작가 -9790
ii -9791
▁루크 -9792
▁애칭 -9793
▁유령 -9794
▁재해 -9795
▁창의 -9796
▁칼뱅 -9797
▁헬륨 -9798
▁133 -9799
▁일러스트 -9800
▁ㄷㅔ -9801
▁메라 -9802
▁메릴 -9803
▁스노 -9804
▁장단 -9805
▁그리스인 -9806
▁추리 -9807
▁함양 -9808
▁파라과이 -9809
▁엮 -9810
▁고추 -9811
▁더비 -9812
▁두개골 -9813
▁낚 -9814
기구 -9815
▁어로 -9816
▁요법 -9817
▁제리 -9818
▁사무총장 -9819
▁랍 -9820
▁농어 -9821
▁돌입 -9822
▁동요 -9823
▁그림자 -9824
▁지방산 -9825
사관학교 -9826
HO -9827
▁기성 -9828
▁번성 -9829
▁속편 -9830
▁일괄 -9831
▁파우 -9832
▁미생물 -9833
해튼 -9834
▁격차 -9835
▁위생 -9836
▁지지율 -9837
UR -9838
▁눕 -9839
▁랴 -9840
리안 -9841
타케 -9842
▁격자 -9843
▁이언 -9844
▁조계 -9845
▁겉보기 -9846
▁무궁화 -9847
▁포도당 -9848
▁가네 -9849
▁소령 -9850
▁심야 -9851
▁오락 -9852
▁연못 -9853
▁찰리 -9854
▁호응 -9855
own -9856
▁듀얼 -9857
▁CBS -9858
▁나란히 -9859
▁붙여지 -9860
▁새로이 -9861
▁손꼽히 -9862
▁돌아다니 -9863
GA -9864
▁감추 -9865
▁결제 -9866
▁수녀 -9867
▁오지 -9868
ㄹㄹㅗ -9869
▁괴롭히 -9870
▁그레고리 -9871
▁스트라이커 -9872
▁개항 -9873
▁도사 -9874
▁몽고 -9875
▁자카 -9876
▁쳐들 -9877
▁해부 -9878
▁교육부 -9879
▁문경 -9880
▁진수 -9881
▁GDP -9882
▁위나라 -9883
▁스리랑카 -9884
▁가가 -9885
▁대국 -9886
▁무스 -9887
▁자결 -9888
▁자생 -9889
▁이동하 -9890
▁결핍 -9891
▁숙주 -9892
▁우상 -9893
▁장흥 -9894
▁득표율 -9895
▁앨리스 -9896
▁인프라 -9897
삭스 -9898
old -9899
▁경쟁력 -9900
타마 -9901
▁국악 -9902
▁등극 -9903
위성 -9904
▁처지 -9905
▁Mus -9906
▁뻔 -9907
▁NE -9908
▁평민 -9909
▁대지진 -9910
▁시뮬레이션 -9911
림픽 -9912
미스 -9913
▁PR -9914
▁리모 -9915
▁출석 -9916
▁확고 -9917
ㄱㅣ -9918
렉션 -9919
▁아치 -9920
▁재난 -9921
▁주화 -9922
▁프롤 -9923
▁섀 -9924
▁가도 -9925
▁그레고리오 -9926
▁Ro -9927
▁만년 -9928
▁스로 -9929
▁파문 -9930
▁현행 -9931
어뜨리 -9932
▁제조업 -9933
clude -9934
버러 -9935
파크 -9936
▁국유 -9937
▁극도 -9938
▁사쿠 -9939
▁선장 -9940
▁원격 -9941
▁정인 -9942
▁제왕 -9943
▁그렇지만 -9944
▁광양 -9945
▁반역 -9946
▁아데 -9947
▁이데 -9948
▁인디애나 -9949
▁미셸 -9950
▁추종 -9951
위원회 -9952
멘스 -9953
원장 -9954
▁조병 -9955
▁CEO -9956
▁모터스 -9957
▁복음서 -9958
▁엘리트 -9959
▁툰 -9960
거래 -9961
▁암흑 -9962
▁열심 -9963
▁이득 -9964
▁정관 -9965
▁아래쪽 -9966
▁선거법 -9967
▁니카 -9968
▁수심 -9969
▁대성전 -9970
▁비주얼 -9971
▁동성애자 -9972
ork -9973
▁까지 -9974
▁주지 -9975
▁초원 -9976
lo -9977
▁정국 -9978
▁탁월 -9979
▁132 -9980
▁마우스 -9981
▁지청 -9982
▁황도 -9983
▁글로브 -9984
▁후속작 -9985
스기 -9986
에미 -9987
▁대각 -9988
▁듀오 -9989
▁아스널 -9990
▁파이프 -9991
세기 -9992
▁즐겁 -9993
▁마다가 -9994
▁오클랜드 -9995
미즈 -9996
▁삼국사기 -9997
▁쾰 -9998
벨라 -9999
▁ㄹㅑ -10000
▁총기 -10001
▁싣 -10002
▁베른 -10003
▁수년 -10004
▁워치 -10005
▁총무 -10006
▁자치체 -10007
Hz -10008
ix -10009
▁극락 -10010
▁김옥 -10011
▁신상 -10012
▁명분 -10013
▁시애 -10014
바야시 -10015
▁미주리 -10016
▁아이스하키 -10017
▁패럴림픽 -10018
▁프랭클린 -10019
라기 -10020
▁이모 -10021
▁보헤미아 -10022
▁or -10023
▁pro -10024
▁청동기 -10025
▁합스부르크 -10026
ick -10027
▁국수 -10028
▁앞장 -10029
▁짱 -10030
헌영 -10031
▁감동 -10032
▁표창 -10033
▁현직 -10034
루냐 -10035
▁낙하 -10036
ㄹㄹㅏ -10037
▁댓 -10038
변이 -10039
▁공파 -10040
▁발각 -10041
▁복식 -10042
▁페로 -10043
▁요제프 -10044
▁저널리 -10045
▁활주로 -10046
▁돌연변이 -10047
▁무르 -10048
▁빈번 -10049
▁호리 -10050
▁호족 -10051
▁타이베이 -10052
EM -10053
홀름 -10054
() -10055
▁La -10056
▁단과 -10057
▁시종 -10058
▁장대 -10059
▁투항 -10060
▁애리조 -10061
러피 -10062
▁꿈꾸 -10063
▁상연 -10064
▁세븐 -10065
▁속주 -10066
▁스태 -10067
▁온갖 -10068
▁저격 -10069
▁무조건 -10070
▁시애틀 -10071
▁동참 -10072
▁상기 -10073
▁타석 -10074
▁평안남도 -10075
▁네이션스컵 -10076
십자 -10077
해지 -10078
▁아쿠 -10079
▁재질 -10080
▁매끄럽 -10081
메다 -10082
▁불행 -10083
▁소울 -10084
마리 -10085
▁관동 -10086
▁왜구 -10087
▁청자 -10088
브리아 -10089
ence -10090
▁농산물 -10091
▁우체국 -10092
▁세손 -10093
▁피로 -10094
▁해치 -10095
▁야구단 -10096
공산 -10097
▁로리 -10098
▁자세히 -10099
▁볼셰비키 -10100
▁SL -10101
▁강풍 -10102
▁속이 -10103
▁의과 -10104
▁카바 -10105
▁맨해튼 -10106
▁트리니 -10107
할시 -10108
▁배속 -10109
▁숨지 -10110
▁예선전 -10111
▁창시자 -10112
플로 -10113
▁밀러 -10114
▁초고 -10115
▁대사헌 -10116
▁스폰서 -10117
▁우즈베키스탄 -10118
를테 -10119
▁성령 -10120
▁제너 -10121
를테면 -10122
▁기상청 -10123
▁매거진 -10124
▁소피아 -10125
▁통틀어 -10126
▁이를테면 -10127
▁To -10128
▁김병 -10129
▁라오 -10130
▁1870 -10131
▁두렵 -10132
▁공표 -10133
▁마르크스주의 -10134
▁매직 -10135
▁센고쿠 -10136
▁평안북도 -10137
▁른 -10138
▁뾰 -10139
ear -10140
▁가타 -10141
ance -10142
▁NAS -10143
▁숀 -10144
관리 -10145
▁머스 -10146
▁시국 -10147
▁청룡 -10148
▁함자 -10149
▁Mar -10150
등식 -10151
제이 -10152
▁감금 -10153
▁빠져 -10154
▁이븐 -10155
타이드 -10156
▁생계 -10157
▁아빠 -10158
▁양육 -10159
▁1885 -10160
▁슛 -10161
▁엥 -10162
▁헛 -10163
티시 -10164
▁막히 -10165
▁테일 -10166
▁호의 -10167
ection -10168
▁AD -10169
▁내성 -10170
▁맹세 -10171
▁입수 -10172
▁알래스카 -10173
파이 -10174
▁Ph -10175
▁역도 -10176
▁오라 -10177
▁유료 -10178
▁중생 -10179
▁450 -10180
▁양성자 -10181
▁중앙부 -10182
▁프레이 -10183
▁프랜시스 -10184
ild -10185
▁신종 -10186
▁우아 -10187
▁참사 -10188
▁포고 -10189
▁학설 -10190
▁화랑 -10191
▁휴게 -10192
▁다람쥐 -10193
▁파나마 -10194
▁쿡 -10195
▁수염 -10196
▁USS -10197
▁un -10198
▁돌출 -10199
▁출가 -10200
▁기병대 -10201
▁즘 -10202
▁GN -10203
▁루비 -10204
테리아 -10205
테쓰 -10206
▁로페 -10207
▁맞대 -10208
▁부조 -10209
▁릴리 -10210
▁요지 -10211
▁해저 -10212
lass -10213
▁대장군 -10214
▁1871 -10215
▁따라가 -10216
▁로렌스 -10217
▁마닐라 -10218
▁맷 -10219
▁난이 -10220
▁1600 -10221
▁민요 -10222
▁볼프 -10223
▁틀리 -10224
러피언 -10225
▁카니 -10226
▁리터 -10227
▁비늘 -10228
▁앞쪽 -10229
▁카터 -10230
▁경질 -10231
▁벤치 -10232
▁위스 -10233
▁재외 -10234
▁240 -10235
▁빅토르 -10236
▁only -10237
▁유러피언 -10238
▁프로리그 -10239
▁개헌 -10240
▁파인 -10241
▁수원시 -10242
OV -10243
돌리 -10244
▁제동 -10245
▁앤더슨 -10246
▁케이프 -10247
▁1200 -10248
▁국보 -10249
▁봉수 -10250
▁이양 -10251
▁중서 -10252
▁지성 -10253
▁흉노 -10254
▁실험실 -10255
▁편집자 -10256
▁루카 -10257
▁전날 -10258
▁CM -10259
▁생선 -10260
▁윤보선 -10261
어오 -10262
틀리 -10263
▁감수 -10264
▁서산 -10265
▁오로지 -10266
▁프라하 -10267
▁구마모토 -10268
▁마다가스카르 -10269
▁내면 -10270
▁수인 -10271
▁중상 -10272
▁호크 -10273
▁EBS -10274
▁활발히 -10275
▁바디 -10276
▁수교 -10277
맥스 -10278
체고 -10279
▁자칭 -10280
▁휩쓸 -10281
텔레스 -10282
체고비나 -10283
쩌둥 -10284
▁고쿠 -10285
▁교실 -10286
▁구니 -10287
▁남용 -10288
▁리비 -10289
▁콜레 -10290
▁김규식 -10291
▁마오쩌둥 -10292
▁올림피아 -10293
▁능선 -10294
▁정제 -10295
▁조광 -10296
▁김정은 -10297
▁내무부 -10298
▁예정자 -10299
▁관행 -10300
▁궁궐 -10301
▁송도 -10302
▁동물원 -10303
▁박헌영 -10304
▁퍼스트 -10305
▁원심 -10306
▁차리 -10307
▁친분 -10308
올라 -10309
▁지쿠 -10310
▁케라 -10311
▁퇴장 -10312
▁부원군 -10313
▁앤드루 -10314
▁괄 -10315
▁ㅌㅣ -10316
▁구청 -10317
▁레이크 -10318
▁잡아먹 -10319
▁리바 -10320
▁반성 -10321
▁반란군 -10322
ans -10323
▁오미 -10324
▁증인 -10325
▁퍼스 -10326
▁해리슨 -10327
GM -10328
▁각성 -10329
▁분과 -10330
▁실존 -10331
▁조례 -10332
▁징병 -10333
▁왕세자 -10334
irl -10335
▁Sy -10336
▁ex -10337
▁성화 -10338
▁탑신 -10339
▁알렉스 -10340
▁클레이 -10341
▁아리스토텔레스 -10342
메스 -10343
▁독도 -10344
▁이완 -10345
▁재활 -10346
▁다나카 -10347
▁밴쿠버 -10348
▁유년기 -10349
▁국당 -10350
▁남산 -10351
▁무척 -10352
▁빨갛 -10353
▁상급 -10354
▁테라 -10355
▁러시아인 -10356
▁화기 -10357
▁동유럽 -10358
▁루돌프 -10359
▁경희 -10360
▁관문 -10361
▁당내 -10362
▁메뉴 -10363
▁성실 -10364
▁시중 -10365
▁통역 -10366
▁퍼포 -10367
▁다저스 -10368
▁오른손 -10369
▁초빙 -10370
▁티켓 -10371
▁편제 -10372
▁평형 -10373
▁미군정 -10374
어사 -10375
▁이방 -10376
▁레이싱 -10377
▁역사가 -10378
ivers -10379
▁퍼포먼스 -10380
▁CONCA -10381
OD -10382
▁강령 -10383
▁극한 -10384
▁끌려가 -10385
▁위너스 -10386
▁헬리콥터 -10387
무소 -10388
코토 -10389
▁나우 -10390
▁뉴클 -10391
▁메카 -10392
▁총통 -10393
▁화엄 -10394
▁제퍼슨 -10395
TP -10396
사상 -10397
천면 -10398
▁경시 -10399
▁창문 -10400
▁대합실 -10401
▁리조트 -10402
▁CONCACAF -10403
▁콘스탄티노폴리스 -10404
▁성남시 -10405
▁신문사 -10406
▁명소 -10407
▁영예 -10408
▁동대문 -10409
▁검정 -10410
▁지오 -10411
▁천왕 -10412
▁허드 -10413
ish -10414
▁바트 -10415
▁칙령 -10416
▁칼럼 -10417
▁공민왕 -10418
▁하노이 -10419
▁광도 -10420
▁차용 -10421
▁하키 -10422
▁불태우 -10423
RA -10424
▁@ -10425
▁부각 -10426
▁뾰족 -10427
▁특전 -10428
▁대대로 -10429
▁케플러 -10430
▁김원 -10431
▁남해 -10432
▁드미 -10433
▁시합 -10434
▁커플 -10435
라니 -10436
▁몸통 -10437
▁시노 -10438
▁에프 -10439
▁사각형 -10440
include -10441
에스 -10442
지로 -10443
환경 -10444
▁산호 -10445
▁카지 -10446
▁트릭 -10447
▁서재필 -10448
▁솔로몬 -10449
▁유치원 -10450
▁겁 -10451
통일 -10452
▁나선 -10453
▁약혼 -10454
▁크라이 -10455
원수 -10456
▁농경 -10457
▁포식 -10458
▁고속버스 -10459
▁진해 -10460
▁효자 -10461
바흐 -10462
oun -10463
▁배려 -10464
▁블로 -10465
▁섬세 -10466
▁안녕 -10467
▁추이 -10468
▁클린턴 -10469
▁얕 -10470
매매 -10471
▁모의 -10472
▁한하 -10473
▁해리스 -10474
▁문고 -10475
▁수양 -10476
▁전한 -10477
▁총애 -10478
▁통용 -10479
▁긴테쓰 -10480
▁": -10481
▁도교 -10482
▁매리 -10483
▁모호 -10484
▁씨앗 -10485
▁일당 -10486
▁카테 -10487
▁MTV -10488
▁경영자 -10489
are -10490
▁가늘 -10491
▁시부 -10492
▁이룩 -10493
▁허정 -10494
▁호스 -10495
▁브레이크 -10496
▁마술 -10497
▁보행 -10498
▁전래 -10499
▁주임 -10500
▁스톡홀름 -10501
fe -10502
▁관청 -10503
▁주입 -10504
▁하반 -10505
EG -10506
토랑 -10507
▁NT -10508
▁개개 -10509
▁스가 -10510
▁지로 -10511
▁파도 -10512
▁유권자 -10513
▁친위대 -10514
▁레스토랑 -10515
▁아무것 -10516
▁요시다 -10517
▁sc -10518
▁보라 -10519
▁수필 -10520
▁분류군 -10521
▁아키라 -10522
▁컴퓨팅 -10523
▁경호 -10524
▁차갑 -10525
▁하류 -10526
▁신발 -10527
▁케인 -10528
▁브루스 -10529
▁예수회 -10530
▁뉴클레오 -10531
▁어군 -10532
▁멍 -10533
▁로버 -10534
▁마차 -10535
▁반기 -10536
▁불변 -10537
▁포착 -10538
▁총사령관 -10539
▁CH -10540
▁김유 -10541
▁럭비 -10542
▁마켓 -10543
▁소음 -10544
▁바이트 -10545
창호 -10546
▁다테 -10547
▁독창 -10548
▁수복 -10549
▁카피 -10550
▁메이커 -10551
▁함경남도 -10552
정원 -10553
▁박종 -10554
▁캐롤 -10555
▁타스 -10556
▁테리 -10557
▁프론 -10558
ical -10559
▁내야수 -10560
▁AV -10561
▁만장 -10562
▁보로 -10563
▁찬사 -10564
블랜드 -10565
▁비타민 -10566
▁아키타 -10567
▁북아일랜드 -10568
▁벅 -10569
러브 -10570
▁드루 -10571
▁약사 -10572
▁플라톤 -10573
놀이 -10574
신문 -10575
▁들여 -10576
▁별세 -10577
▁유혹 -10578
▁자제 -10579
▁알파벳 -10580
▁피라미 -10581
▁선천 -10582
▁제물 -10583
▁대원군 -10584
▁서대문 -10585
▁가맹 -10586
▁자치주 -10587
컨대 -10588
lat -10589
▁DD -10590
▁Jo -10591
▁결별 -10592
▁색소 -10593
▁정거 -10594
▁클리블랜드 -10595
▁방콕 -10596
▁욕망 -10597
▁원통 -10598
▁210 -10599
▁유아기 -10600
▁타이거스 -10601
EL -10602
▁국공 -10603
▁묘비 -10604
▁블레 -10605
▁유선 -10606
▁퇴직 -10607
▁포토 -10608
▁황소 -10609
▁ATP -10610
▁데려오 -10611
▁비밀리 -10612
▁프린스 -10613
▁마천루 -10614
▁알프스 -10615
▁리베 -10616
▁마셜 -10617
▁모어 -10618
▁ABC -10619
▁선구자 -10620
▁오리온 -10621
▁연극배우 -10622
▁벤처 -10623
▁엄밀 -10624
▁스테파 -10625
▁투자자 -10626
히트 -10627
▁헬싱 -10628
▁개구리 -10629
▁경전철 -10630
▁나트륨 -10631
▁뛰어들 -10632
▁보수당 -10633
▁일리 -10634
▁전무 -10635
▁치과 -10636
▁정의당 -10637
▁나인 -10638
▁넷째 -10639
▁실정 -10640
▁로드리 -10641
▁멧 -10642
암동 -10643
▁대본 -10644
▁전담 -10645
▁톈진 -10646
▁방어선 -10647
▁주차장 -10648
▁피아니스트 -10649
대교 -10650
사고 -10651
▁고든 -10652
▁구내 -10653
▁리보 -10654
▁본성 -10655
▁상행 -10656
▁시몬 -10657
▁아메 -10658
▁야전 -10659
▁영유 -10660
▁차출 -10661
▁쾰른 -10662
▁한미 -10663
▁정부군 -10664
▁튀르크 -10665
▁콘테스트 -10666
▁도둑 -10667
FL -10668
▁샐 -10669
▁Fr -10670
▁Ma -10671
▁이점 -10672
▁장시 -10673
▁천거 -10674
▁폭파 -10675
▁화약 -10676
▁가이드 -10677
대사 -10678
카리 -10679
▁웨인 -10680
▁제노 -10681
▁미수 -10682
▁밸리 -10683
▁스텝 -10684
▁천국 -10685
덴부르크 -10686
▁대북 -10687
▁동로 -10688
▁삼존 -10689
▁송신 -10690
▁야드 -10691
▁초신성 -10692
▁헤르체고비나 -10693
ㄱㅜ -10694
부르 -10695
▁절망 -10696
▁침묵 -10697
▁리사 -10698
▁백두 -10699
▁왕권 -10700
▁파손 -10701
▁홀리 -10702
▁토스카 -10703
ey -10704
대표 -10705
▁동향 -10706
▁마에 -10707
▁소극 -10708
▁실권 -10709
공산당 -10710
▁스칸 -10711
▁위그 -10712
▁채취 -10713
▁AKB -10714
▁프레데 -10715
▁브루클린 -10716
▁리본 -10717
▁마누엘 -10718
▁용인시 -10719
▁적외선 -10720
수스 -10721
▁가락 -10722
▁무실 -10723
▁운임 -10724
▁찬양 -10725
▁켈트 -10726
▁화강암 -10727
ica -10728
▁실록 -10729
▁종식 -10730
해살이 -10731
▁아나톨 -10732
▁가브리엘 -10733
▁봇 -10734
소통 -10735
클레 -10736
티넘 -10737
▁노론 -10738
▁로크 -10739
▁아날 -10740
▁정형 -10741
▁플래티넘 -10742
▁구실 -10743
테이너 -10744
충류 -10745
▁he -10746
▁슬하 -10747
▁영정 -10748
▁임정 -10749
▁목요일 -10750
60 -10751
캐슬 -10752
▁감상 -10753
▁봉화 -10754
▁여권 -10755
▁직통 -10756
▁형질 -10757
군다 -10758
휴일 -10759
▁뭉치 -10760
▁본작 -10761
▁준수 -10762
▁동시대 -10763
▁무형 -10764
▁제명 -10765
▁중퇴 -10766
▁메디치 -10767
▁의사소통 -10768
▁감찰 -10769
▁1889 -10770
▁스카우트 -10771
▁김형 -10772
▁칸국 -10773
▁아이폰 -10774
▁안테나 -10775
▁대영 -10776
▁사방 -10777
▁사설 -10778
▁중합 -10779
▁친족 -10780
▁플리 -10781
▁시네마 -10782
▁이의 -10783
▁연산군 -10784
난성 -10785
▁구르 -10786
▁김준 -10787
▁방치 -10788
▁부치 -10789
▁산성 -10790
▁슬픔 -10791
▁시크 -10792
▁유격수 -10793
▁딥 -10794
위안 -10795
천동 -10796
▁백과 -10797
▁비야 -10798
▁삼림 -10799
▁소중 -10800
▁송출 -10801
▁지자 -10802
▁하시 -10803
▁앞장서 -10804
▁책임지 -10805
▁타이어 -10806
▁베트 -10807
▁비엔 -10808
▁의류 -10809
▁호대 -10810
▁패트릭 -10811
▁So -10812
▁다윈 -10813
▁사역 -10814
▁치환 -10815
▁기관지 -10816
▁오바마 -10817
▁pr -10818
▁간첩 -10819
▁따지 -10820
▁모금 -10821
▁주계 -10822
▁해태 -10823
▁리프트 -10824
▁반포 -10825
▁불량 -10826
▁불참 -10827
AF -10828
▁라리 -10829
▁리옹 -10830
▁전전 -10831
▁토트 -10832
▁기숙사 -10833
지능 -10834
합성 -10835
▁공존 -10836
▁니혼 -10837
▁요충 -10838
▁음운 -10839
▁뉴캐슬 -10840
▁스트로 -10841
▁엔트리 -10842
▁인공지능 -10843
망디 -10844
▁라자 -10845
▁메소 -10846
▁야시 -10847
▁요격 -10848
▁정종 -10849
▁캐리 -10850
▁투여 -10851
란토 -10852
▁당연 -10853
▁로트 -10854
▁중수 -10855
▁For -10856
말리 -10857
애미 -10858
▁갈아 -10859
▁구두 -10860
▁사서 -10861
▁연말 -10862
▁유목 -10863
▁은거 -10864
▁마이애미 -10865
bo -10866
▁극우 -10867
▁모하 -10868
▁이송 -10869
▁절정 -10870
▁Live -10871
▁가나가와현 -10872
▁격리 -10873
▁매트 -10874
▁새우 -10875
▁서임 -10876
▁종자 -10877
▁사로잡 -10878
IL -10879
프로 -10880
▁고딕 -10881
▁금호 -10882
▁여유 -10883
▁외형 -10884
▁펌프 -10885
▁피라미드 -10886
▁목회 -10887
▁비준 -10888
▁의령 -10889
▁트렌 -10890
▁피지 -10891
▁잇따르 -10892
▁자유민주당 -10893
sh -10894
▁늙 -10895
▁훙 -10896
▁능하 -10897
와라노 -10898
▁후지와라노 -10899
교통 -10900
▁감성 -10901
▁김명 -10902
▁사탕 -10903
▁삽화 -10904
▁작물 -10905
드레 -10906
▁정읍 -10907
▁OST -10908
바나 -10909
▁강렬 -10910
▁건전 -10911
클리드 -10912
▁Sou -10913
▁도망가 -10914
▁JTBC -10915
▁미야자키 -10916
EE -10917
▁인가 -10918
▁하야 -10919
▁항만 -10920
바이트 -10921
▁공휴일 -10922
▁생존자 -10923
▁센티미터 -10924
▁삼중 -10925
▁아끼 -10926
▁예약 -10927
▁원군 -10928
▁징수 -10929
도르프 -10930
▁말미암 -10931
▁접어들 -10932
▁줄기세포 -10933
▁카탈루냐 -10934
▁프란체스코 -10935
지기 -10936
▁EU -10937
▁받치 -10938
▁우림 -10939
▁쿠퍼 -10940
tern -10941
▁국제법 -10942
▁장학금 -10943
▁토리노 -10944
▁대승불교 -10945
부로 -10946
▁Mo -10947
▁기이 -10948
▁병자 -10949
▁앙골 -10950
▁연정 -10951
▁잠정 -10952
▁집정 -10953
▁치루 -10954
▁떨어뜨리 -10955
▁공소 -10956
▁볼트 -10957
하이오 -10958
▁지상파 -10959
▁Part -10960
▁소말리아 -10961
▁오하이오 -10962
가미 -10963
▁담보 -10964
▁열강 -10965
▁후배 -10966
▁애정 -10967
▁왕건 -10968
▁Com -10969
▁낙동강 -10970
▁두려움 -10971
▁캅 -10972
▁금산 -10973
▁바지 -10974
▁습윤 -10975
▁유식 -10976
▁해독 -10977
▁레이트 -10978
▁로마인 -10979
▁카카오 -10980
▁유희 -10981
▁츄 -10982
▁거미 -10983
▁권하 -10984
▁수락 -10985
▁광복군 -10986
▁브레이 -10987
▁도피 -10988
▁모색 -10989
▁순종 -10990
▁추력 -10991
▁미야기 -10992
▁나카무라 -10993
▁프랑스인 -10994
▁악보 -10995
▁API -10996
▁똑같이 -10997
▁발라드 -10998
에미리트 -10999
▁레드삭스 -11000
▁아랍에미리트 -11001
▁격추 -11002
▁유의 -11003
▁음절 -11004
▁여배우 -11005
▁일본국 -11006
▁유니버설 -11007
에몽 -11008
▁로얄 -11009
▁벨리 -11010
▁워커 -11011
▁한중 -11012
▁Col -11013
▁int -11014
▁열심히 -11015
▁공성 -11016
▁마땅 -11017
▁쌍대 -11018
▁암스 -11019
▁자서 -11020
▁천주 -11021
▁1848 -11022
▁교의 -11023
▁한신 -11024
▁문집 -11025
▁가솔 -11026
▁급여 -11027
▁무과 -11028
▁성곽 -11029
▁응급 -11030
▁튀니지 -11031
▁카스티야 -11032
간다 -11033
▁여고 -11034
▁페트 -11035
▁평평 -11036
▁해피 -11037
▁라이더 -11038
▁Time -11039
▁보수주의 -11040
거스 -11041
▁기전 -11042
▁양심 -11043
메니 -11044
자루 -11045
▁당기 -11046
▁워즈 -11047
▁인칭 -11048
▁탄약 -11049
마르크 -11050
▁챙 -11051
의사 -11052
▁김광 -11053
▁라르 -11054
▁볼로 -11055
▁서태 -11056
▁자명 -11057
▁여의도 -11058
▁프랑스령 -11059
row -11060
▁EM -11061
▁도래 -11062
▁매킨 -11063
▁무네 -11064
▁부총리 -11065
▁스타트 -11066
▁정거장 -11067
▁정치학 -11068
풀이 -11069
▁굴절 -11070
▁모욕 -11071
▁정작 -11072
▁평판 -11073
▁포털 -11074
lay -11075
▁그저 -11076
▁사쓰 -11077
▁교통부 -11078
uc -11079
도라 -11080
현동 -11081
화문 -11082
▁가두 -11083
▁수로 -11084
▁클러 -11085
▁하행 -11086
▁한림 -11087
추부사 -11088
프랑크 -11089
▁레이더 -11090
▁만화가 -11091
▁비정 -11092
▁셀레 -11093
페스트 -11094
▁검은색 -11095
▁마법사 -11096
지부 -11097
▁댄서 -11098
▁오만 -11099
▁코리 -11100
▁티아 -11101
span -11102
▁고인돌 -11103
▁드디어 -11104
▁시멘트 -11105
유예 -11106
▁"& -11107
▁공대 -11108
▁권역 -11109
▁비토 -11110
▁재팬 -11111
▁SNS -11112
▁사운드트랙 -11113
ows -11114
▁조인 -11115
▁추억 -11116
▁치카 -11117
▁onlyinclude -11118
▁깜 -11119
▁보령 -11120
▁마이어 -11121
▁시코쿠 -11122
▁페트로 -11123
정동 -11124
▁글꼴 -11125
▁김인 -11126
▁대니얼 -11127
▁카메룬 -11128
▁하노버 -11129
OP -11130
▁GB -11131
▁공영 -11132
▁남군 -11133
▁여사 -11134
▁우한 -11135
▁점포 -11136
▁특화 -11137
ous -11138
▁BC -11139
▁랴오 -11140
▁류큐 -11141
▁리카 -11142
▁재일 -11143
▁법원장 -11144
▁패러디 -11145
찌르 -11146
▁무안 -11147
▁익숙 -11148
▁항체 -11149
olog -11150
▁간신히 -11151
▁바그너 -11152
▁우루스 -11153
▁절벽 -11154
나마 -11155
▁경복 -11156
▁근사 -11157
▁제위 -11158
▁종군 -11159
▁대법관 -11160
▁거란 -11161
▁동산 -11162
▁동진 -11163
▁로키 -11164
▁사민 -11165
▁관현악단 -11166
▁녕 -11167
▁검거 -11168
▁국한 -11169
▁비대 -11170
▁산둥 -11171
▁연립 -11172
▁지법 -11173
파니아 -11174
▁Bla -11175
서스 -11176
▁부평 -11177
▁에이즈 -11178
▁커리어 -11179
▁클라우 -11180
▁골격 -11181
▁업자 -11182
▁방사능 -11183
▁부딪히 -11184
▁지배자 -11185
버른 -11186
▁귀신 -11187
▁부다 -11188
▁사수 -11189
▁용액 -11190
▁황색 -11191
▁대리인 -11192
▁아이즈 -11193
▁욱 -11194
▁가혹 -11195
▁국외 -11196
▁단결 -11197
▁대마 -11198
▁문단 -11199
▁선명 -11200
▁수식 -11201
브로 -11202
시노 -11203
▁간략 -11204
▁관상 -11205
▁남방 -11206
▁메일 -11207
▁사림 -11208
▁총격 -11209
orn -11210
▁모건 -11211
▁안개 -11212
▁진로 -11213
드리아 -11214
▁곶 -11215
▁베어 -11216
▁케르 -11217
레스트 -11218
▁131 -11219
▁그랜트 -11220
▁명확히 -11221
▁무찌르 -11222
▁u -11223
▁쾨 -11224
칼리 -11225
히사 -11226
ann -11227
▁종양 -11228
메이카 -11229
▁제우스 -11230
▁노르망디 -11231
▁어시스트 -11232
▁자메이카 -11233
▁가쿠 -11234
▁마테 -11235
▁숙부 -11236
▁저지대 -11237
▁모빌 -11238
▁설문 -11239
▁고로 -11240
▁실증 -11241
▁오디 -11242
▁평지 -11243
▁하코 -11244
▁스칼라 -11245
▁그라운드 -11246
az -11247
관계 -11248
▁at -11249
▁적료 -11250
빌라이 -11251
▁대나무 -11252
▁정보원 -11253
▁NASA -11254
▁방대 -11255
▁정반 -11256
▁헬레 -11257
▁에스페 -11258
▁유클리드 -11259
센스 -11260
▁속력 -11261
▁유공 -11262
▁재편 -11263
▁판소리 -11264
▁Your -11265
▁텍사스주 -11266
▁쪼 -11267
지아 -11268
▁계주 -11269
▁서귀 -11270
▁식스 -11271
▁최진 -11272
▁공화정 -11273
▁영화상 -11274
▁기와 -11275
▁노면 -11276
▁단군 -11277
▁안방 -11278
▁초콜 -11279
▁편견 -11280
▁항우 -11281
▁고분군 -11282
▁1883 -11283
▁도박 -11284
▁무작 -11285
▁사영 -11286
▁선봉 -11287
▁신곡 -11288
▁지석 -11289
▁에이전 -11290
▁연구회 -11291
▁헤어지 -11292
▁공무 -11293
▁리즈 -11294
▁모범 -11295
▁배분 -11296
▁부합 -11297
▁연희 -11298
네그로 -11299
른스트 -11300
80 -11301
▁SA -11302
▁야외 -11303
▁피리 -11304
▁라파엘 -11305
▁줄리아 -11306
▁교향악단 -11307
CC -11308
▁도키 -11309
▁메스 -11310
▁탄자 -11311
▁할인 -11312
▁형벌 -11313
▁ref -11314
▁제이슨 -11315
▁병마 -11316
▁온난 -11317
▁코소 -11318
▁플러 -11319
▁부상자 -11320
▁촛 -11321
▁가우 -11322
▁라바 -11323
▁이터 -11324
▁혼다 -11325
▁원산지 -11326
▁파일럿 -11327
▁해상도 -11328
▁RP -11329
▁ㅅㅕ -11330
▁기세 -11331
▁리마 -11332
▁절감 -11333
▁노벨상 -11334
▁뫼 -11335
▁RS -11336
▁고생 -11337
▁열전 -11338
▁큐브 -11339
티모어 -11340
▁날아가 -11341
▁다이어 -11342
▁멜버른 -11343
▁Wind -11344
▁콥 -11345
ink -11346
▁다툼 -11347
▁몰아 -11348
▁콘솔 -11349
▁하남 -11350
▁라인업 -11351
▁프로그래머 -11352
용차 -11353
워스 -11354
프턴 -11355
▁가중 -11356
▁가토 -11357
▁스루 -11358
▁우산 -11359
▁유우 -11360
▁중엽 -11361
ern -11362
▁다듬 -11363
▁대좌 -11364
▁모세 -11365
▁산요 -11366
▁전보 -11367
▁Sch -11368
▁Ge -11369
▁녹화 -11370
▁니키 -11371
▁본뜨 -11372
▁카네 -11373
▁대단히 -11374
▁비서관 -11375
▁스캔들 -11376
제품 -11377
ood -11378
▁내력 -11379
▁외래 -11380
▁요절 -11381
▁위구르 -11382
▁OB -11383
▁엔드 -11384
▁타락 -11385
▁체인지 -11386
RT -11387
▁tv -11388
▁몰타 -11389
▁사학 -11390
▁조교 -11391
▁카마 -11392
▁함량 -11393
스트리 -11394
▁야마가타 -11395
▁쿠빌라이 -11396
으로 -11397
토프 -11398
▁GM -11399
▁범행 -11400
▁세습 -11401
▁토마토 -11402
▁객차 -11403
▁고노 -11404
▁관례 -11405
▁발상 -11406
▁은혜 -11407
▁항원 -11408
▁아이언 -11409
▁해안선 -11410
II -11411
▁루키 -11412
▁보루 -11413
▁봉인 -11414
▁성동 -11415
데라 -11416
▁가고 -11417
▁간사 -11418
▁안나 -11419
▁월터 -11420
▁전반기 -11421
40 -11422
▁FK -11423
▁거성 -11424
▁고흥 -11425
▁덮개 -11426
▁유서 -11427
▁정은 -11428
▁최영 -11429
▁통신사 -11430
▁1882 -11431
▁중소기업 -11432
융합 -11433
▁북군 -11434
▁자수 -11435
▁콜럼 -11436
▁북유럽 -11437
▁사업소 -11438
▁아날로그 -11439
▁해운대 -11440
화학 -11441
▁내일 -11442
▁부왕 -11443
▁부파 -11444
▁소외 -11445
▁송파 -11446
▁후진 -11447
▁Day -11448
▁슈퍼컵 -11449
▁올리브 -11450
포시 -11451
ost -11452
▁위조 -11453
▁유생 -11454
▁미토콘 -11455
▁미토콘드리아 -11456
▁기량 -11457
▁수위 -11458
▁시안 -11459
▁정정 -11460
▁핵융합 -11461
돌이 -11462
치히 -11463
▁수다 -11464
▁수열 -11465
▁아목 -11466
▁재래 -11467
▁최선 -11468
▁관악 -11469
▁꺼내 -11470
▁받들 -11471
▁협업 -11472
▁회귀 -11473
▁고의 -11474
▁라디 -11475
▁우시 -11476
▁330 -11477
▁프란치 -11478
▁호스트 -11479
에고 -11480
호란 -11481
▁국교 -11482
▁상록 -11483
▁식용 -11484
▁왕궁 -11485
▁파벌 -11486
▁데니스 -11487
▁미스터리 -11488
▁동적 -11489
▁상어 -11490
▁어파 -11491
▁정월 -11492
▁항로 -11493
▁앗 -11494
▁단속 -11495
▁배달 -11496
▁제천 -11497
▁단체전 -11498
▁카스트 -11499
▁시즈오카 -11500
▁컨테이너 -11501
▁단말 -11502
▁씨족 -11503
▁조셉 -11504
▁후예 -11505
▁가솔린 -11506
▁대표자 -11507
▁산티아 -11508
▁폐기물 -11509
▁어기 -11510
▁요양 -11511
▁대상자 -11512
▁휴게소 -11513
▁컨트롤러 -11514
▁강당 -11515
▁단정 -11516
▁직속 -11517
오르크 -11518
▁기념일 -11519
▁법조인 -11520
▁제갈량 -11521
▁피치 -11522
▁오일러 -11523
▁파시즘 -11524
▁다이노스 -11525
OT -11526
US -11527
▁결사 -11528
▁관목 -11529
▁도네 -11530
▁딜런 -11531
▁번창 -11532
▁연장전 -11533
▁프로모 -11534
서니 -11535
여객 -11536
▁대인 -11537
▁러일 -11538
▁무섭 -11539
▁빙하 -11540
▁천수 -11541
▁대진 -11542
▁범하 -11543
본부 -11544
▁라미 -11545
▁장덕 -11546
▁경주시 -11547
▁안티오 -11548
▁테네시 -11549
▁파푸아 -11550
게스 -11551
▁군벌 -11552
▁급증 -11553
▁보름 -11554
▁부교 -11555
▁소프 -11556
▁족보 -11557
▁주선 -11558
▁레오폴 -11559
▁선진국 -11560
▁Or -11561
▁멋지 -11562
▁성원 -11563
▁영덕 -11564
▁종영 -11565
스탄불 -11566
▁베이커 -11567
▁사이타마 -11568
▁이스탄불 -11569
▁노사 -11570
▁법관 -11571
▁주창 -11572
▁ㅅㅕㄴ -11573
▁필립스 -11574
▁관계없이 -11575
▁사회민주당 -11576
ㅇㅏ -11577
▁산시 -11578
▁new -11579
▁군사력 -11580
▁지붕돌 -11581
▁규탄 -11582
▁랭크 -11583
▁서면 -11584
▁얽히 -11585
▁위로 -11586
▁지극 -11587
▁사로잡히 -11588
갈리 -11589
다운 -11590
▁제단 -11591
▁부르주 -11592
▁중공군 -11593
▁괌 -11594
▁교직 -11595
▁넬슨 -11596
▁동포 -11597
▁사천 -11598
▁사치 -11599
▁국정원 -11600
▁4000 -11601
▁로마자 -11602
▁예컨대 -11603
▁과테 -11604
▁조슈 -11605
▁과테말라 -11606
▁TR -11607
▁버터 -11608
▁타수 -11609
▁피드 -11610
▁영원히 -11611
팡이 -11612
▁각료 -11613
▁남하 -11614
▁램프 -11615
▁베풀 -11616
▁붙잡 -11617
▁세련 -11618
펜하겐 -11619
▁1868 -11620
▁레인저스 -11621
▁코펜하겐 -11622
▁태후 -11623
▁피핀 -11624
▁오스틴 -11625
▁히브리 -11626
▁메릴랜드 -11627
▁냥 -11628
해자 -11629
▁우월 -11630
▁일각 -11631
▁앙골라 -11632
▁프랜차 -11633
▁몬테네그로 -11634
▁이항 -11635
▁축전 -11636
▁헌장 -11637
▁독수리 -11638
▁주계열 -11639
▁노후 -11640
▁발동 -11641
▁아유 -11642
▁염려 -11643
▁우왕 -11644
▁잠깐 -11645
▁Girl -11646
협회 -11647
▁DF -11648
▁밀레 -11649
▁분단 -11650
▁사안 -11651
▁생리 -11652
▁신입 -11653
▁양수 -11654
▁컨설 -11655
▁리믹스 -11656
LA -11657
▁겨루 -11658
▁농지 -11659
▁밝혀 -11660
▁소아 -11661
▁오아 -11662
웨이트 -11663
▁320 -11664
▁end -11665
▁대명사 -11666
▁헤이안 -11667
▁여성주의 -11668
바오 -11669
히드 -11670
▁고트 -11671
▁내분 -11672
▁선대 -11673
▁전수 -11674
▁증폭 -11675
▁추서 -11676
▁우의정 -11677
▁김윤 -11678
▁배리 -11679
▁충렬 -11680
▁카세 -11681
▁신주쿠 -11682
▁요충지 -11683
▁산티아고 -11684
웍스 -11685
oll -11686
▁외과 -11687
▁이메 -11688
▁정령 -11689
▁청도 -11690
▁출자 -11691
루이스 -11692
▁김옥균 -11693
▁프란시스코 -11694
▁배드 -11695
▁양보 -11696
▁접종 -11697
▁청계 -11698
▁초안 -11699
▁치하 -11700
▁표정 -11701
▁발전기 -11702
▁암스테르담 -11703
▁프랜차이즈 -11704
▁몹 -11705
게임 -11706
▁박성 -11707
▁트이 -11708
▁LED -11709
▁너머 -11710
▁넥센 -11711
▁성산 -11712
▁성악 -11713
▁시비 -11714
▁영월 -11715
▁위촉 -11716
▁종신 -11717
▁천마 -11718
▁타리 -11719
▁편향 -11720
▁하의 -11721
▁코스타리카 -11722
19 -11723
지리 -11724
▁김선 -11725
▁브릿 -11726
▁영암 -11727
▁타일 -11728
▁형편 -11729
▁베르나르 -11730
▁colspan -11731
꼬리 -11732
▁강행 -11733
▁다우 -11734
▁대덕 -11735
▁대청 -11736
▁분사 -11737
▁샤프 -11738
▁정재 -11739
▁차선 -11740
▁밝혀내 -11741
▁이바지 -11742
▁효고현 -11743
▁복음주의 -11744
▁요하네스 -11745
▁장병 -11746
▁점거 -11747
▁카툰 -11748
▁아케이드 -11749
▁야마모토 -11750
▁루이지애나 -11751
amp -11752
▁능동 -11753
▁사비 -11754
▁수량 -11755
▁자재 -11756
▁저조 -11757
▁전세 -11758
▁조영 -11759
▁페더 -11760
▁자서전 -11761
디나비아 -11762
▁스칸디나비아 -11763
걸이 -11764
gin -11765
▁노랗 -11766
▁척도 -11767
▁축산 -11768
▁치유 -11769
토리코 -11770
▁너무나 -11771
▁수요일 -11772
▁위안부 -11773
우에 -11774
▁대차 -11775
▁뒤이 -11776
▁상국 -11777
▁호아 -11778
▁슌 -11779
▁대도 -11780
▁도상 -11781
▁스콜 -11782
▁습관 -11783
▁절제 -11784
▁준장 -11785
▁퍼즐 -11786
▁급속히 -11787
▁렛 -11788
▁네티 -11789
▁은신 -11790
▁직행 -11791
▁출동 -11792
▁무실점 -11793
▁사이먼 -11794
▁쿠웨이트 -11795
당기 -11796
▁복종 -11797
▁우연 -11798
▁정몽 -11799
▁화장품 -11800
▁니콜라스 -11801
▁교부 -11802
▁노아 -11803
▁문종 -11804
▁위력 -11805
▁타로 -11806
▁브뤼셀 -11807
▁서사시 -11808
▁좌의정 -11809
▁포르노 -11810
▁게오르크 -11811
▁마이크로 -11812
gr -11813
공주 -11814
▁by -11815
▁국철 -11816
▁스킴 -11817
▁양대 -11818
▁주성 -11819
▁측량 -11820
ㄲㅡㅁ -11821
▁텔레콤 -11822
OW -11823
▁결핵 -11824
▁고온 -11825
▁공안 -11826
▁리튬 -11827
▁순차 -11828
로이드 -11829
단지 -11830
▁금동 -11831
▁김승 -11832
▁끊기 -11833
▁서주 -11834
▁슈테 -11835
▁헌터 -11836
▁교육자 -11837
▁서해안 -11838
▁시트콤 -11839
▁유적지 -11840
▁천안시 -11841
▁푸에르토리코 -11842
니파 -11843
▁NP -11844
▁거처 -11845
▁이우 -11846
▁증오 -11847
▁페오 -11848
▁후유 -11849
라이드 -11850
▁에른스트 -11851
▁육군사관학교 -11852
▁맬 -11853
▁금전 -11854
▁리코 -11855
▁해왕 -11856
▁도자기 -11857
▁어웨이 -11858
▁컬렉션 -11859
▁놈 -11860
▁늪 -11861
▁찢 -11862
나기 -11863
▁배역 -11864
▁데이브 -11865
▁장로교 -11866
▁가고시마 -11867
▁관성 -11868
▁압록 -11869
▁코네 -11870
▁함흥 -11871
▁203 -11872
▁스포르 -11873
▁함경북도 -11874
▁이탈리아어 -11875
▁갯 -11876
계승 -11877
셀러 -11878
익스 -11879
▁거지 -11880
▁모차 -11881
▁배양 -11882
▁영천 -11883
▁이아 -11884
▁켄트 -11885
아다니 -11886
▁톡 -11887
▁안무 -11888
▁이회 -11889
▁헤로 -11890
▁부르고 -11891
▁1893 -11892
몬트 -11893
▁박상 -11894
▁백악 -11895
▁심포 -11896
▁피크 -11897
▁IOC -11898
▁비스타 -11899
퍼레이션 -11900
aw -11901
레드 -11902
▁내무 -11903
▁잔인 -11904
▁조제 -11905
▁데려가 -11906
▁유학자 -11907
▁AB -11908
▁Fe -11909
▁데드 -11910
▁레프 -11911
▁문무 -11912
▁아흐 -11913
▁유족 -11914
▁전학 -11915
▁280 -11916
▁발사체 -11917
▁트리오 -11918
북구 -11919
세유 -11920
les -11921
ung -11922
▁le -11923
▁관우 -11924
▁충무 -11925
▁톰슨 -11926
▁학장 -11927
▁노미야 -11928
▁플랑크 -11929
어넣 -11930
▁공양 -11931
▁대종 -11932
▁이황 -11933
▁폐렴 -11934
▁아라곤 -11935
▁펠릭스 -11936
▁Comp -11937
▁라카 -11938
▁망치 -11939
▁소대 -11940
▁칭송 -11941
▁한큐 -11942
▁TBS -11943
▁생리학 -11944
▁윗부분 -11945
독립 -11946
▁낚시 -11947
▁선인 -11948
▁민병대 -11949
▁탄자니아 -11950
▁김치 -11951
▁하타 -11952
▁결과물 -11953
▁로베르 -11954
상시 -11955
▁바울 -11956
▁지리학 -11957
IR -11958
▁도우 -11959
▁버러 -11960
▁우두 -11961
▁핏 -11962
▁마타 -11963
▁버섯 -11964
▁전락 -11965
▁짐승 -11966
▁탈취 -11967
▁흡사 -11968
▁녹색당 -11969
티에 -11970
▁미성 -11971
▁원활 -11972
▁재발 -11973
▁조니 -11974
▁첼로 -11975
▁한번 -11976
▁소사 -11977
▁아츠 -11978
▁칼슘 -11979
▁한문 -11980
▁우울증 -11981
려들 -11982
▁긴밀 -11983
▁비지 -11984
▁앨리 -11985
▁천천 -11986
▁공방전 -11987
▁동맹국 -11988
▁서초구 -11989
▁해안가 -11990
▁에스페란토 -11991
▁후쿠오카현 -11992
▁촐 -11993
▁불경 -11994
▁전미 -11995
▁집착 -11996
▁차츰 -11997
▁휴양 -11998
▁그만큼 -11999
▁논리학 -12000
▁도야마 -12001
eth -12002
▁IV -12003
▁김천 -12004
▁당뇨 -12005
▁마트 -12006
▁주심 -12007
▁GNU -12008
▁강화도 -12009
▁데일리 -12010
▁순양함 -12011
▁인공위성 -12012
▁고집 -12013
▁끓이 -12014
▁심부 -12015
▁온화 -12016
▁주세 -12017
▁하급 -12018
▁플로리다주 -12019
▁핼 -12020
폭탄 -12021
oth -12022
▁도이 -12023
▁림프 -12024
▁Rec -12025
▁로스쿨 -12026
▁초콜릿 -12027
▁하이퍼 -12028
▁도카이도 -12029
▁Univers -12030
▁노랑 -12031
▁명부 -12032
▁위즈 -12033
▁장녀 -12034
▁Sup -12035
▁글래스 -12036
▁기업가 -12037
▁동맹군 -12038
▁천천히 -12039
▁Rock -12040
▁부르고뉴 -12041
메드 -12042
▁미츠 -12043
▁반동 -12044
▁심상 -12045
▁앤디 -12046
민스터 -12047
▁사상가 -12048
▁수나라 -12049
▁참모총장 -12050
▁라즈 -12051
▁자진 -12052
▁케이크 -12053
▁프리스 -12054
▁중앙은행 -12055
업자 -12056
▁격하 -12057
▁까마 -12058
▁에로 -12059
▁가라앉 -12060
▁불계승 -12061
▁성매매 -12062
▁아우르 -12063
▁픽처스 -12064
▁미나모토 -12065
▁덥 -12066
▁공법 -12067
▁구독 -12068
▁도출 -12069
▁애인 -12070
▁월트 -12071
▁유포 -12072
▁제철 -12073
▁카레 -12074
▁황산 -12075
▁서포터 -12076
▁가와사키 -12077
▁데스크톱 -12078
▁간직 -12079
▁강진 -12080
▁격려 -12081
▁서스 -12082
▁오하 -12083
▁특기 -12084
▁현판 -12085
▁더블린 -12086
▁서바이 -12087
▁지바현 -12088
익스피어 -12089
국적 -12090
유사 -12091
▁가부 -12092
▁라흐 -12093
▁에마 -12094
▁이범 -12095
▁특사 -12096
▁후하 -12097
▁절도사 -12098
▁철저히 -12099
▁셰익스피어 -12100
▁Su -12101
▁노프 -12102
▁용품 -12103
▁입헌 -12104
▁점검 -12105
▁파편 -12106
▁230 -12107
▁경계선 -12108
들러 -12109
연의 -12110
▁무단 -12111
▁바비 -12112
▁위계 -12113
▁유영 -12114
▁게오르 -12115
▁다이빙 -12116
▁베르타 -12117
▁귀속 -12118
▁사귀 -12119
▁스투 -12120
▁시속 -12121
▁아와 -12122
▁자립 -12123
▁청량 -12124
▁고려대 -12125
▁스탠리 -12126
태평 -12127
▁계량 -12128
▁닉슨 -12129
▁상정 -12130
▁풍습 -12131
▁도르트 -12132
▁마르세유 -12133
자동 -12134
▁명인 -12135
▁심문 -12136
▁울릉 -12137
▁코호 -12138
▁서기관 -12139
ublic -12140
▁율리우스 -12141
▁갚 -12142
그마 -12143
▁과시 -12144
▁미아 -12145
▁톱니 -12146
▁흥분 -12147
▁국제선 -12148
▁from -12149
▁가르시아 -12150
▁프레임워크 -12151
▁펫 -12152
▁Do -12153
▁라드 -12154
▁막판 -12155
▁직계 -12156
▁피사 -12157
▁향기 -12158
▁1888 -12159
바리 -12160
▁공시 -12161
▁네모 -12162
▁산수 -12163
▁성기 -12164
▁에바 -12165
▁코사 -12166
비크 -12167
헤드 -12168
▁발자 -12169
▁복싱 -12170
▁시우 -12171
▁청송 -12172
로니아 -12173
미디어 -12174
▁문자열 -12175
▁쇠고기 -12176
▁Sw -12177
▁구치 -12178
▁기쁨 -12179
▁대주 -12180
▁모던 -12181
▁미식 -12182
▁사변 -12183
▁사키 -12184
▁소동 -12185
▁슈타 -12186
▁산스크 -12187
▁세비야 -12188
▁이바라 -12189
▁대중교통 -12190
▁산스크리트 -12191
▁구금 -12192
▁형용 -12193
▁로이드 -12194
▁평안도 -12195
트르 -12196
▁굳히 -12197
▁붕어 -12198
▁시문 -12199
▁악곡 -12200
▁하임 -12201
▁밀려나 -12202
▁노스캐롤라이나 -12203
▁강성 -12204
▁농축 -12205
▁발목 -12206
▁유전학 -12207
▁펠리페 -12208
▁박테리아 -12209
▁펩 -12210
▁푹 -12211
▁견고 -12212
▁배기 -12213
▁제창 -12214
▁조롱 -12215
▁중고 -12216
▁USB -12217
▁물려주 -12218
▁차세대 -12219
▁헤라클 -12220
▁볼티모어 -12221
▁상관없이 -12222
▁가면라이더 -12223
AI -12224
▁CG -12225
▁메틸 -12226
▁유무 -12227
▁자코 -12228
▁펠트 -12229
▁다카라 -12230
▁소학교 -12231
보리 -12232
▁계보 -12233
▁끼우 -12234
▁대접 -12235
▁백자 -12236
▁로빈슨 -12237
▁깁 -12238
연수 -12239
mer -12240
▁ar -12241
▁리차 -12242
▁서예 -12243
▁재차 -12244
▁애덤스 -12245
▁1892 -12246
▁우에스기 -12247
▁구문 -12248
▁동종 -12249
▁변종 -12250
▁세레 -12251
▁연회 -12252
▁퇴위 -12253
▁Car -12254
▁볼로냐 -12255
▁아브라 -12256
▁좌표계 -12257
▁케이트 -12258
둘기 -12259
▁데미 -12260
▁불사 -12261
▁사커 -12262
▁웃음 -12263
▁침례 -12264
▁해병 -12265
▁관현악 -12266
▁대전차 -12267
▁자라나 -12268
▁조선왕 -12269
뮬러 -12270
큐어 -12271
▁고스 -12272
▁꾸리 -12273
▁낙양 -12274
▁물결 -12275
▁어의 -12276
▁정진 -12277
▁필하 -12278
▁교구장 -12279
▁허드슨 -12280
▁덱 -12281
분열 -12282
ron -12283
▁매달 -12284
▁선양 -12285
▁수력 -12286
▁임계 -12287
▁대공국 -12288
▁보좌관 -12289
▁스탠드 -12290
▁활동가 -12291
▁러시아군 -12292
▁이산 -12293
▁주먹 -12294
▁수차례 -12295
▁휘말리 -12296
AE -12297
광성 -12298
티노 -12299
▁나뭇 -12300
▁니켈 -12301
▁산청 -12302
▁순례 -12303
▁애슬 -12304
▁옥타 -12305
▁온대 -12306
▁이나 -12307
▁초전 -12308
▁프린스턴 -12309
홍색 -12310
▁새뮤 -12311
▁레이디 -12312
▁웨스트민스터 -12313
▁군관 -12314
▁긴키 -12315
▁완도 -12316
▁이봉 -12317
▁토이 -12318
▁포츠 -12319
▁쫓아내 -12320
네트 -12321
암리 -12322
▁납부 -12323
▁카야 -12324
▁펀드 -12325
▁북조선 -12326
▁스테판 -12327
▁1876 -12328
사태 -12329
EST -12330
▁SV -12331
▁도제 -12332
▁신진 -12333
▁축성 -12334
▁게시판 -12335
▁고려사 -12336
▁세네갈 -12337
▁카운트 -12338
▁후원자 -12339
▁군데 -12340
▁생모 -12341
▁통폐 -12342
▁경영학 -12343
▁토트넘 -12344
▁1866 -12345
코르 -12346
▁거룩 -12347
▁경무 -12348
▁너스 -12349
▁알폰 -12350
▁전권 -12351
▁조개 -12352
▁파파 -12353
▁앤서니 -12354
라호 -12355
▁co -12356
▁wh -12357
▁아디 -12358
▁재앙 -12359
▁조현 -12360
▁죄수 -12361
▁Gre -12362
▁금나라 -12363
▁바이어 -12364
▁도미니카 -12365
▁뱃 -12366
▁펭 -12367
다오 -12368
▁로브 -12369
▁송환 -12370
▁원유 -12371
▁장래 -12372
▁저우 -12373
▁채색 -12374
르타뉴 -12375
▁올리버 -12376
▁조나라 -12377
▁주니치 -12378
▁구스타프 -12379
▁브르타뉴 -12380
▁삼국지연의 -12381
▁인플레이션 -12382
▁알렉산드로스 -12383
네임 -12384
로쿠 -12385
쓰기 -12386
▁사간원 -12387
▁씻 -12388
ble -12389
▁ML -12390
▁SH -12391
▁댓글 -12392
▁바시 -12393
▁손녀 -12394
▁독립군 -12395
▁용의자 -12396
▁전주시 -12397
▁1886 -12398
▁베네딕토 -12399
▁페르난도 -12400
우회 -12401
▁간혹 -12402
▁실각 -12403
▁유다 -12404
▁파커 -12405
▁이즈미 -12406
너드 -12407
▁마린 -12408
▁반주 -12409
▁재결 -12410
▁제르 -12411
▁조소 -12412
▁지난 -12413
▁차수 -12414
▁페미니 -12415
ah -12416
▁굶 -12417
▁도약 -12418
▁두각 -12419
▁마나 -12420
▁부양 -12421
▁브래드 -12422
▁코소보 -12423
▁해결책 -12424
▁미미 -12425
▁요금소 -12426
클라 -12427
▁대금 -12428
▁살라 -12429
▁수하 -12430
▁애초 -12431
▁약점 -12432
▁포탄 -12433
▁270 -12434
▁사단장 -12435
▁통폐합 -12436
▁레버 -12437
▁소용 -12438
▁오산 -12439
▁펠로 -12440
▁합천 -12441
▁모나코 -12442
▁장제스 -12443
▁뮐 -12444
▁깃털 -12445
▁박수 -12446
▁본체 -12447
▁세무 -12448
▁아자 -12449
▁원상 -12450
▁260 -12451
▁삼각주 -12452
▁스테인 -12453
▁드미트리 -12454
▁프리미엄 -12455
슈타 -12456
▁레트 -12457
▁모라 -12458
▁발의 -12459
▁얼룩 -12460
▁간사이 -12461
▁부분군 -12462
▁역사학 -12463
▁베이시스트 -12464
▁번갈 -12465
▁비우 -12466
▁작중 -12467
▁중개 -12468
▁출혈 -12469
▁펴내 -12470
▁축구팀 -12471
▁Dream -12472
▁과잉 -12473
▁구획 -12474
▁라시 -12475
▁면모 -12476
▁스모 -12477
▁익명 -12478
▁일진 -12479
▁자판 -12480
▁프루 -12481
▁현과 -12482
▁보살상 -12483
▁1887 -12484
▁Tour -12485
▁브리티시 -12486
비안 -12487
직경 -12488
▁KB -12489
▁새뮤얼 -12490
▁시직경 -12491
레시 -12492
지오 -12493
▁동창 -12494
▁맥아 -12495
▁유능 -12496
▁잘리 -12497
▁강서구 -12498
▁민영화 -12499
▁베이비 -12500
▁사절단 -12501
▁화요일 -12502
▁재단법인 -12503
DA -12504
다보 -12505
즐리 -12506
▁TC -12507
▁도하 -12508
▁부류 -12509
▁세분 -12510
리카락 -12511
▁컨텐츠 -12512
▁머리카락 -12513
꿈치 -12514
▁Up -12515
▁유머 -12516
▁자궁 -12517
▁직사 -12518
▁행방 -12519
▁홍성 -12520
▁바로크 -12521
▁꽂 -12522
▁렙 -12523
왕후 -12524
하임 -12525
▁고창 -12526
▁단조 -12527
▁모닝 -12528
▁물류 -12529
▁산물 -12530
▁위패 -12531
land -12532
▁사쓰마 -12533
▁버크 -12534
▁오대 -12535
▁공연장 -12536
▁이어주 -12537
▁Life -12538
▁마르쿠스 -12539
▁모차르트 -12540
철수 -12541
코타 -12542
▁당황 -12543
▁여타 -12544
스코트 -12545
▁당선자 -12546
▁덩어리 -12547
ition -12548
▁1861 -12549
▁RT -12550
▁오메 -12551
▁1850 -12552
▁it -12553
▁도성 -12554
▁에리 -12555
▁근거지 -12556
▁단거리 -12557
▁장애물 -12558
ult -12559
▁기밀 -12560
▁동차 -12561
▁망하 -12562
▁무수 -12563
▁완결 -12564
▁유타 -12565
▁천지 -12566
▁홀딩 -12567
▁코스트 -12568
제비 -12569
▁교지 -12570
▁남조 -12571
▁배척 -12572
▁슬램 -12573
▁승단 -12574
▁지아 -12575
▁마을버스 -12576
린트 -12577
▁광선 -12578
▁복위 -12579
▁엘런 -12580
▁요괴 -12581
▁촛불 -12582
▁페스 -12583
▁Wii -12584
▁신세계 -12585
▁석가모니 -12586
▁유니버스 -12587
EP -12588
달마 -12589
▁수이 -12590
▁올레 -12591
▁허블 -12592
▁환관 -12593
아메리카 -12594
▁집행유예 -12595
▁클레멘스 -12596
▁이호 -12597
▁추존 -12598
▁편안 -12599
▁표하 -12600
브리드 -12601
▁백악기 -12602
▁스테이 -12603
▁황해도 -12604
▁스트리밍 -12605
짜기 -12606
orm -12607
▁내포 -12608
▁박자 -12609
▁앵커 -12610
▁왕관 -12611
▁음주 -12612
▁장전 -12613
▁타구 -12614
▁토목 -12615
▁개정안 -12616
▁보너스 -12617
▁Open -12618
콘신 -12619
▁가닥 -12620
▁사하 -12621
▁참의원 -12622
▁1864 -12623
▁위스콘신 -12624
▁다카라즈카 -12625
열차 -12626
▁불분 -12627
▁승하 -12628
▁암모 -12629
▁오일 -12630
▁워킹 -12631
▁증세 -12632
▁철강 -12633
▁평탄 -12634
▁포화 -12635
라호마 -12636
▁음악원 -12637
▁프랑코 -12638
▁오클라호마 -12639
라르 -12640
▁AG -12641
▁가독 -12642
▁강세 -12643
▁뷰티 -12644
▁습득 -12645
▁지면 -12646
러뜨리 -12647
▁데이빗 -12648
니오 -12649
▁모국 -12650
▁사내 -12651
▁쿼크 -12652
솔리니 -12653
▁남베트남 -12654
디슨 -12655
플린 -12656
▁급히 -12657
▁발톱 -12658
▁백업 -12659
▁잔디 -12660
▁정예 -12661
▁생성물 -12662
▁불러들이 -12663
▁컴파일러 -12664
▁크리에이 -12665
▁하이브리드 -12666
ational -12667
▁ㄴㅛ -12668
▁나름 -12669
▁마구 -12670
▁마요 -12671
해살이풀 -12672
▁프로모션 -12673
▁헤라클레스 -12674
ION -12675
▁구례 -12676
▁무자 -12677
▁에두 -12678
▁푸아 -12679
▁쏟아지 -12680
▁행정동 -12681
▁후세인 -12682
▁낭만주의 -12683
▁꺼리 -12684
▁리트 -12685
▁방공 -12686
▁외환 -12687
▁자릿 -12688
▁사나이 -12689
▁아카이 -12690
▁도라에몽 -12691
▁경건 -12692
▁과연 -12693
▁슬프 -12694
▁위시 -12695
▁착하 -12696
▁파직 -12697
바도르 -12698
▁가해자 -12699
▁홈경기 -12700
타입 -12701
▁양현 -12702
▁혼혈 -12703
▁격투기 -12704
▁네티즌 -12705
▁집정관 -12706
른베르크 -12707
▁1881 -12708
▁도르트문트 -12709
▁Ed -12710
▁광업 -12711
▁러닝 -12712
▁아편 -12713
▁이은 -12714
▁카와 -12715
▁코난 -12716
▁현미 -12717
▁히토 -12718
▁iOS -12719
▁노동력 -12720
라이어티 -12721
▁버라이어티 -12722
▁아무리 -12723
브웨 -12724
▁고모 -12725
▁관내 -12726
▁리에 -12727
▁홈즈 -12728
ject -12729
▁무작위 -12730
▁미네소타 -12731
▁캣 -12732
렌스 -12733
▁XP -12734
▁객원 -12735
▁공판 -12736
▁관용 -12737
▁루나 -12738
▁에반 -12739
▁여건 -12740
▁짐바 -12741
▁하얀 -12742
▁뛰어넘 -12743
▁모멘트 -12744
▁장난감 -12745
▁1830 -12746
예술 -12747
▁스윙 -12748
▁관련자 -12749
▁재판관 -12750
▁카이로 -12751
▁돗 -12752
▁싹 -12753
동자 -12754
▁if -12755
▁김희 -12756
▁만점 -12757
▁몰두 -12758
▁보정 -12759
▁삭스 -12760
▁스몰 -12761
▁양조 -12762
▁잠실 -12763
▁전리 -12764
▁감리교 -12765
▁농어촌 -12766
▁대교구 -12767
▁보안법 -12768
▁외무부 -12769
▁아이디얼 -12770
뛰기 -12771
▁괘불 -12772
▁근래 -12773
▁삼척 -12774
▁어우 -12775
▁오우 -12776
▁패권 -12777
▁킷 -12778
ave -12779
ton -12780
▁다행 -12781
▁도산 -12782
▁말단 -12783
▁전교 -12784
TE -12785
▁en -12786
▁메츠 -12787
▁산기 -12788
▁이누 -12789
▁조경 -12790
▁대표단 -12791
▁피닉스 -12792
▁휘두르 -12793
▁루스벨트 -12794
▁an -12795
▁곱셈 -12796
▁군세 -12797
▁민물 -12798
▁침대 -12799
▁파주 -12800
▁사들이 -12801
▁유전체 -12802
▁HTML -12803
▁카르타고 -12804
▁Music -12805
화경 -12806
▁목욕 -12807
▁미상 -12808
▁스기 -12809
▁아타 -12810
▁반대파 -12811
▁재판부 -12812
▁해석학 -12813
▁트레이닝 -12814
▁남송 -12815
▁벌레 -12816
▁소라 -12817
▁쓰루 -12818
▁예의 -12819
▁접합 -12820
▁ㄹㅓㄴ -12821
▁이메일 -12822
▁피츠버그 -12823
클럽 -12824
▁경매 -12825
▁다비 -12826
▁판관 -12827
▁까마귀 -12828
▁로맨틱 -12829
▁마르셀 -12830
▁압록강 -12831
QL -12832
▁부풀 -12833
▁세간 -12834
▁익산 -12835
▁재벌 -12836
▁헌납 -12837
께끼 -12838
▁BL -12839
▁왕성 -12840
▁이별 -12841
▁정황 -12842
▁쿠로 -12843
▁750 -12844
▁라치오 -12845
▁화성시 -12846
▁수수께끼 -12847
▁더하 -12848
▁매진 -12849
▁부전 -12850
▁황자 -12851
▁슬로건 -12852
▁아이콘 -12853
스레 -12854
▁경도 -12855
▁배트 -12856
▁용사 -12857
▁여학생 -12858
▁주나라 -12859
▁캐스트 -12860
림사 -12861
어드 -12862
ics -12863
▁건네 -12864
▁마티 -12865
▁생도 -12866
▁순항 -12867
▁승지 -12868
▁아쉽 -12869
▁애완 -12870
▁트란 -12871
▁파열 -12872
▁롬바르 -12873
▁참가국 -12874
▁이시카와 -12875
▁부다페스트 -12876
▁눈치 -12877
▁등등 -12878
▁딸리 -12879
▁베일 -12880
▁켄터 -12881
▁코뮌 -12882
▁표절 -12883
▁바람직 -12884
▁세계유산 -12885
▁쵸 -12886
덕왕 -12887
평리 -12888
▁가든 -12889
▁경량 -12890
▁닛산 -12891
▁발포 -12892
▁라이스 -12893
▁1872 -12894
▁세르게이 -12895
▁오스트리 -12896
▁"- -12897
▁te -12898
▁고하 -12899
▁곡면 -12900
▁그란 -12901
▁금고 -12902
▁닌자 -12903
▁당진 -12904
▁뒤늦 -12905
▁별장 -12906
▁샤이 -12907
▁인제 -12908
▁종업 -12909
▁찍히 -12910
▁팔작 -12911
▁편하 -12912
▁흑백 -12913
▁불분명 -12914
▁파충류 -12915
비오 -12916
▁승상 -12917
▁옹주 -12918
▁종묘 -12919
▁합창단 -12920
▁무솔리니 -12921
나파 -12922
▁교제 -12923
▁꼬마 -12924
▁대강 -12925
▁레비 -12926
▁발산 -12927
▁양면 -12928
▁완비 -12929
▁청문 -12930
▁체하 -12931
▁해킹 -12932
▁돋보이 -12933
▁호크스 -12934
▁프란치스코 -12935
바인 -12936
▁교동 -12937
▁기고 -12938
▁레아 -12939
▁몸돌 -12940
▁북벌 -12941
▁야망 -12942
▁원동 -12943
▁콘티 -12944
▁허목 -12945
슬라프 -12946
▁기획사 -12947
▁센다이 -12948
▁코호몰로지 -12949
▁국호 -12950
▁모란 -12951
▁브렌 -12952
▁신봉 -12953
▁의례 -12954
▁중랑 -12955
▁캐피 -12956
▁유라시아 -12957
데자 -12958
리쿠 -12959
▁빅뱅 -12960
▁엿보 -12961
▁탄산 -12962
▁범죄자 -12963
▁화학자 -12964
데자네이 -12965
▁교통사고 -12966
▁대한항공 -12967
ru -12968
성경 -12969
ode -12970
▁Sm -12971
▁반죽 -12972
▁배향 -12973
▁복직 -12974
▁티모 -12975
▁계승자 -12976
▁다비드 -12977
▁아비달마 -12978
쿠니 -12979
▁시원 -12980
▁알맞 -12981
▁의용 -12982
▁조심 -12983
▁Don -12984
▁개체군 -12985
▁챌린저 -12986
루크 -12987
워즈 -12988
▁과다 -12989
▁복역 -12990
▁이니 -12991
▁클릭 -12992
▁탐정 -12993
▁필연 -12994
▁햇빛 -12995
태평양 -12996
▁청년회 -12997
▁부르주아 -12998
▁댈 -12999
▁엡 -13000
더지 -13001
ier -13002
▁Ab -13003
▁경마 -13004
▁단국 -13005
▁상파 -13006
▁오트 -13007
▁을사 -13008
▁초록색 -13009
▁탐험가 -13010
▁마스코트 -13011
▁AL -13012
▁피카 -13013
▁해시 -13014
▁세군다 -13015
▁여진족 -13016
▁유니언 -13017
▁하얀색 -13018
▁어촌 -13019
▁태아 -13020
리아스 -13021
▁경복궁 -13022
▁밀가루 -13023
▁꿰 -13024
▁도봉 -13025
▁등단 -13026
▁버펄 -13027
▁부실 -13028
▁슈고 -13029
▁양궁 -13030
▁장쑤 -13031
▁주고 -13032
▁친밀 -13033
▁페라 -13034
▁작품상 -13035
▁튼 -13036
▁두어 -13037
▁봉황 -13038
ㅌㅇㅣ -13039
▁박영효 -13040
▁1863 -13041
▁1865 -13042
▁Night -13043
▁ㄱㅏㅌㅇㅣ -13044
단위 -13045
▁-- -13046
▁납작 -13047
▁당과 -13048
▁덴쇼 -13049
▁배아 -13050
▁법전 -13051
▁조시 -13052
▁지경 -13053
▁진흙 -13054
▁투하 -13055
데자네이루 -13056
▁리우데자네이루 -13057
UC -13058
리야 -13059
번에 -13060
▁이례 -13061
▁입시 -13062
▁피셔 -13063
올로기 -13064
▁난이도 -13065
▁노르드 -13066
▁공군기지 -13067
▁이데올로기 -13068
▁NS -13069
▁비키 -13070
▁조장 -13071
▁코마 -13072
▁픽셀 -13073
▁혈압 -13074
▁조선소 -13075
▁오카야마 -13076
▁려 -13077
ㅇㅜ -13078
▁여호 -13079
▁철종 -13080
▁고성군 -13081
▁몰도바 -13082
▁항아리 -13083
ool -13084
▁머니 -13085
▁발하 -13086
▁정명 -13087
▁챙기 -13088
▁현무 -13089
stem -13090
훈장 -13091
▁내재 -13092
▁단자 -13093
▁도도 -13094
▁미인 -13095
▁박진 -13096
▁직관 -13097
▁처방 -13098
▁취향 -13099
▁포대 -13100
▁합금 -13101
ㅂㅅㅣ -13102
▁다시금 -13103
▁시간대 -13104
▁우간다 -13105
▁켄터키 -13106
동맹 -13107
인구 -13108
타스 -13109
▁거꾸 -13110
▁매립 -13111
▁쇼크 -13112
▁후한 -13113
▁발기인 -13114
▁생화학 -13115
▁시티즌 -13116
▁앤드류 -13117
▁타임즈 -13118
▁1873 -13119
▁1891 -13120
사화 -13121
ise -13122
▁가곡 -13123
▁기통 -13124
▁대목 -13125
▁대의 -13126
▁란스 -13127
▁매스 -13128
▁카슈 -13129
부아르 -13130
▁승정원 -13131
▁안산시 -13132
매김 -13133
쿠르 -13134
▁MA -13135
▁선율 -13136
▁신대 -13137
▁조공 -13138
▁킹스 -13139
▁ret -13140
▁야쿠르트 -13141
▁계좌 -13142
▁구강 -13143
▁리자 -13144
▁외상 -13145
▁작년 -13146
▁공통점 -13147
▁다국적 -13148
▁릴레이 -13149
▁짐바브웨 -13150
린더 -13151
친왕 -13152
▁AI -13153
▁MM -13154
▁경지 -13155
▁리브 -13156
▁위법 -13157
▁잠기 -13158
▁캐치 -13159
▁와이드 -13160
▁고난 -13161
▁마모 -13162
▁메우 -13163
▁요즘 -13164
이스케 -13165
플렉스 -13166
▁베스트셀러 -13167
▁쩔 -13168
미쓰 -13169
▁계엄 -13170
▁반점 -13171
▁산책 -13172
▁앞세우 -13173
▁삼국유사 -13174
▁온타리오주 -13175
NG -13176
▁샨 -13177
레반 -13178
▁두텁 -13179
▁루즈 -13180
▁여대 -13181
▁적발 -13182
▁터빈 -13183
▁휩싸 -13184
▁받침돌 -13185
▁자유형 -13186
▁제너럴 -13187
▁지자체 -13188
▁Black -13189
▁왓슨 -13190
▁착취 -13191
▁하스 -13192
▁수시로 -13193
▁스테이트 -13194
▁자리매김 -13195
che -13196
▁PM -13197
▁고마 -13198
▁맞춤 -13199
▁벌리 -13200
▁스킬 -13201
▁시진 -13202
▁키즈 -13203
▁후미 -13204
▁테무르 -13205
▁포항시 -13206
▁라크 -13207
▁살짝 -13208
▁재고 -13209
▁투신 -13210
▁페인 -13211
▁다마스 -13212
▁제프리 -13213
▁트로트 -13214
▁Good -13215
▁샵 -13216
시대 -13217
▁라면 -13218
▁부에 -13219
▁체내 -13220
▁무로마치 -13221
70 -13222
▁믈 -13223
▁교서 -13224
▁에치 -13225
▁우마 -13226
▁인위 -13227
▁충당 -13228
합중국 -13229
▁백악관 -13230
세다 -13231
▁구슬 -13232
▁자켓 -13233
▁조준 -13234
▁진원 -13235
▁촉발 -13236
▁최장 -13237
▁통지 -13238
▁한창 -13239
ower -13240
▁국민회 -13241
▁승용차 -13242
ㄱㅓ -13243
무제 -13244
▁굴복 -13245
▁리키 -13246
▁모함 -13247
▁불로 -13248
▁어는 -13249
▁입술 -13250
▁증강 -13251
▁직교 -13252
▁흡연 -13253
▁국부 -13254
▁반항 -13255
▁유태 -13256
▁헤어 -13257
▁해부학 -13258
▁팔작지붕 -13259
DS -13260
ai -13261
바지 -13262
킨슨 -13263
▁qu -13264
▁과격 -13265
▁네임 -13266
▁열렬 -13267
▁토로 -13268
▁튼튼 -13269
▁필두 -13270
▁활자 -13271
▁Can -13272
▁노르만 -13273
▁발가락 -13274
▁삐 -13275
▁El -13276
▁걸작 -13277
▁광자 -13278
▁문정 -13279
▁부추 -13280
▁신의 -13281
▁아뢰 -13282
▁조어 -13283
▁파기 -13284
▁650 -13285
▁공식전 -13286
▁이성질 -13287
▁종업원 -13288
▁이바라키 -13289
▁서위 -13290
▁이강 -13291
▁캐논 -13292
▁타이탄 -13293
▁광배 -13294
▁수퍼 -13295
▁양양 -13296
▁토유 -13297
타나베 -13298
▁q -13299
펠러 -13300
▁급하 -13301
▁모반 -13302
▁병과 -13303
▁볼넷 -13304
▁분경 -13305
▁오즈 -13306
▁레인저 -13307
▁제작진 -13308
▁section -13309
▁켜 -13310
내티 -13311
리언 -13312
▁걸프 -13313
▁내역 -13314
▁무도 -13315
▁서지 -13316
▁신해 -13317
▁야심 -13318
▁위헌 -13319
▁조석 -13320
▁파랑 -13321
▁550 -13322
▁매달리 -13323
▁신시내티 -13324
포타 -13325
ank -13326
▁Qu -13327
▁농성 -13328
▁진언 -13329
▁채굴 -13330
▁피어 -13331
선거구 -13332
▁거꾸로 -13333
▁그나마 -13334
▁괜 -13335
▁콧 -13336
▁기쁘 -13337
▁무고 -13338
▁산신 -13339
▁현도 -13340
▁Let -13341
▁부등식 -13342
▁연출가 -13343
▁아오모리 -13344
▁용감 -13345
▁헌병 -13346
드라마 -13347
▁변광성 -13348
▁선제골 -13349
▁엑스포 -13350
▁1862 -13351
ㄹㅜ -13352
고르 -13353
정사 -13354
▁송진 -13355
▁아델 -13356
▁연화 -13357
▁온두 -13358
▁705 -13359
▁반정부 -13360
▁플러그 -13361
▁하반기 -13362
포타미아 -13363
▁미합중국 -13364
▁온두라스 -13365
▁사이타마현 -13366
▁메소포타미아 -13367
센터 -13368
티야 -13369
▁간판 -13370
▁당당 -13371
▁심소 -13372
ings -13373
▁IMF -13374
▁김성수 -13375
▁사보이 -13376
▁자외선 -13377
▁타타르 -13378
▁이노우에 -13379
방군 -13380
▁Ac -13381
▁기묘 -13382
▁반론 -13383
▁성수 -13384
▁연행 -13385
▁온건 -13386
▁푸드 -13387
▁해지 -13388
▁앨버트 -13389
▁용산구 -13390
▁입법부 -13391
▁크루즈 -13392
▁폼페이 -13393
▁1867 -13394
▁협동조합 -13395
▁페르디난트 -13396
상어 -13397
▁장신 -13398
▁주저 -13399
▁쿠라 -13400
▁사무국 -13401
▁알폰소 -13402
▁-& -13403
▁양군 -13404
▁열쇠 -13405
▁증발 -13406
▁증식 -13407
▁처치 -13408
세우스 -13409
▁경희대 -13410
▁미카엘 -13411
▁스코어 -13412
▁페드로 -13413
▁백과사전 -13414
다발 -13415
▁경은 -13416
▁극찬 -13417
▁나사 -13418
▁사교 -13419
▁소작 -13420
▁옥시 -13421
진구 -13422
▁AU -13423
▁UC -13424
▁병단 -13425
▁북대 -13426
▁스톰 -13427
▁코모 -13428
▁히노 -13429
▁MSL -13430
비언 -13431
▁LS -13432
▁객실 -13433
▁길드 -13434
▁동탁 -13435
▁엘라 -13436
▁키릴 -13437
▁감염증 -13438
▁조선왕조 -13439
▁궐 -13440
▁노브 -13441
▁조서 -13442
▁황폐 -13443
절도사 -13444
▁Ser -13445
▁증조부 -13446
▁페르미 -13447
▁플루토 -13448
▁6000 -13449
▁국민학교 -13450
렐라 -13451
▁DR -13452
▁횡령 -13453
▁흔들 -13454
▁손잡이 -13455
▁언론사 -13456
▁제조사 -13457
▁취리히 -13458
레타리아 -13459
▁신한은행 -13460
▁프롤레타리아 -13461
lar -13462
▁괄호 -13463
▁대담 -13464
▁분별 -13465
▁적정 -13466
▁탬 -13467
위치 -13468
▁독주 -13469
▁서한 -13470
▁전멸 -13471
▁타도 -13472
▁웨이브 -13473
디언 -13474
루엔 -13475
▁군자 -13476
▁버진 -13477
▁보직 -13478
▁사드 -13479
▁세단 -13480
▁예종 -13481
▁저해 -13482
▁충칭 -13483
▁이브스 -13484
▁일본식 -13485
▁치료제 -13486
▁컴파일 -13487
▁라이프치히 -13488
▁팍 -13489
▁가극 -13490
▁교훈 -13491
▁당파 -13492
▁엘레 -13493
▁절약 -13494
▁하중 -13495
▁행보 -13496
▁출입문 -13497
▁특별법 -13498
▁편집장 -13499
▁홀딩스 -13500
북면 -13501
투르 -13502
▁교화 -13503
▁꽃잎 -13504
▁동자 -13505
▁성품 -13506
▁유구 -13507
▁저축 -13508
▁필명 -13509
▁802 -13510
▁심정 -13511
▁항생 -13512
▁서두르 -13513
ky -13514
젤로 -13515
할린 -13516
활약 -13517
▁간결 -13518
▁나탈 -13519
▁차림 -13520
rist -13521
▁And -13522
▁사대부 -13523
▁지질학 -13524
▁샴 -13525
▁잔존 -13526
▁처장 -13527
▁나치오 -13528
▁1878 -13529
ta -13530
tr -13531
▁썩 -13532
산부 -13533
조리 -13534
▁국화 -13535
▁벵골 -13536
▁세토 -13537
▁유망 -13538
▁잉크 -13539
▁청각 -13540
▁충신 -13541
▁곁들이 -13542
▁기원후 -13543
▁맹활약 -13544
▁연주회 -13545
ee -13546
▁각주 -13547
▁강호 -13548
▁연달 -13549
▁오보 -13550
▁텍스 -13551
▁프로테 -13552
▁프라이즈 -13553
▁가물 -13554
▁번개 -13555
▁상선 -13556
▁완수 -13557
▁유림 -13558
▁치이 -13559
플로러 -13560
▁갈아타 -13561
▁대리석 -13562
▁포뮬러 -13563
▁핵분열 -13564
▁빠져나가 -13565
▁미나모토노 -13566
▁익스플로러 -13567
▁썬 -13568
벤션 -13569
빌리 -13570
▁RC -13571
▁고찰 -13572
▁국력 -13573
▁시역 -13574
▁명성황후 -13575
참찬 -13576
hem -13577
▁라다 -13578
▁매도 -13579
▁바쿠 -13580
▁옥천 -13581
▁이끼 -13582
▁참수 -13583
▁형주 -13584
▁뉴기니 -13585
▁부여군 -13586
▁신기록 -13587
▁원자핵 -13588
▁밋 -13589
다스 -13590
▁접전 -13591
▁지그 -13592
▁추축 -13593
에이고 -13594
▁ㄹㅏㄱ -13595
▁키르기스 -13596
▁샌디에이고 -13597
▁일리노이주 -13598
▁세인트루이스 -13599
▁뵈 -13600
▁팻 -13601
퉁이 -13602
▁ㅁㅗ -13603
▁시르 -13604
▁후드 -13605
▁HMS -13606
▁인코딩 -13607
▁개기 -13608
▁과자 -13609
▁급성 -13610
▁변증 -13611
▁부군 -13612
▁서점 -13613
▁일설 -13614
▁자행 -13615
▁중용 -13616
▁콜드 -13617
▁행군 -13618
가르트 -13619
▁액세스 -13620
▁프라임 -13621
▁낡 -13622
자원 -13623
▁글렌 -13624
▁보류 -13625
▁부관 -13626
▁솔라 -13627
▁수당 -13628
▁습성 -13629
▁씌우 -13630
▁영사 -13631
▁지린 -13632
▁직물 -13633
▁추계 -13634
▁회유 -13635
뉴기니 -13636
▁운동량 -13637
▁글로브상 -13638
▁스케이트 -13639
누마 -13640
▁변모 -13641
▁용수 -13642
▁용해 -13643
▁패킷 -13644
▁폴라 -13645
▁현악 -13646
▁와세다 -13647
▁자릿수 -13648
▁쿠르드 -13649
▁스파이더 -13650
네르 -13651
▁Ag -13652
▁애기 -13653
▁영미 -13654
▁완만 -13655
▁자부 -13656
▁점진 -13657
▁기동전 -13658
▁인지도 -13659
▁종사자 -13660
정보 -13661
▁tr -13662
▁매슈 -13663
▁스에 -13664
▁육식 -13665
▁지문 -13666
▁비스마르크 -13667
▁널 -13668
일치 -13669
▁SO -13670
▁도발 -13671
▁무너 -13672
▁서거 -13673
▁표출 -13674
중추부사 -13675
▁고등학생 -13676
▁무너뜨리 -13677
▁와타나베 -13678
▁코퍼레이션 -13679
대전 -13680
▁국인 -13681
▁다량 -13682
▁무비 -13683
▁소피 -13684
▁지탱 -13685
▁참패 -13686
시아드 -13687
▁댈러스 -13688
▁봉우리 -13689
▁주고받 -13690
▁1869 -13691
▁레지스터 -13692
▁힐베르트 -13693
▁밧 -13694
시게 -13695
테이 -13696
▁강우 -13697
▁닉스 -13698
▁면직 -13699
▁출국 -13700
▁퀴즈 -13701
▁포천 -13702
▁수도회 -13703
▁업로드 -13704
▁요리토모 -13705
▁유니버시아드 -13706
BI -13707
셔주 -13708
▁로시 -13709
▁박원 -13710
▁잔해 -13711
▁정박 -13712
▁추후 -13713
▁축일 -13714
▁포탑 -13715
▁마포구 -13716
▁방위군 -13717
▁베르나 -13718
▁아이젠 -13719
▁프리츠 -13720
▁되돌아가 -13721
탄두 -13722
▁내란 -13723
▁치사 -13724
▁컴필 -13725
▁경쟁자 -13726
▁마그네 -13727
▁수비대 -13728
▁연예계 -13729
▁영유권 -13730
▁컴필레이션 -13731
▁다목 -13732
▁디나 -13733
▁목동 -13734
▁쿼터 -13735
▁ㄱㅜㄴ -13736
▁랙 -13737
▁그물 -13738
▁근방 -13739
▁무색 -13740
▁사부 -13741
▁손님 -13742
▁출세 -13743
▁헤더 -13744
▁외교부 -13745
▁에이전트 -13746
▁고국 -13747
▁모티 -13748
▁몸체 -13749
▁반입 -13750
▁오자 -13751
▁피처 -13752
▁516 -13753
블릿 -13754
암사 -13755
▁AA -13756
▁KN -13757
▁VS -13758
▁시시 -13759
▁의정 -13760
▁입출 -13761
▁무사히 -13762
▁보유자 -13763
▁안동시 -13764
▁1592 -13765
▁친선경기 -13766
▁논산 -13767
▁부두 -13768
▁수레 -13769
▁초음 -13770
▁네이트 -13771
▁패스트 -13772
▁프랑스와 -13773
티컷 -13774
▁고제 -13775
▁사소 -13776
▁위도 -13777
▁헤겔 -13778
ount -13779
▁오스카 -13780
▁코네티컷 -13781
IF -13782
노르 -13783
효소 -13784
ata -13785
▁귀인 -13786
▁기조 -13787
▁루피 -13788
▁맛보 -13789
▁수급 -13790
▁쌍성 -13791
▁유화 -13792
▁일선 -13793
▁지체 -13794
▁토라 -13795
▁금강산 -13796
▁여객기 -13797
▁장로회 -13798
▁지하역 -13799
▁고을 -13800
▁교파 -13801
▁빈민 -13802
▁청취 -13803
▁캐슬 -13804
▁컵스 -13805
▁토키 -13806
▁티저 -13807
▁건륭제 -13808
▁후지와라 -13809
pr -13810
곡면 -13811
세르 -13812
작전 -13813
▁Pe -13814
▁넘버 -13815
▁대타 -13816
▁바인 -13817
▁베오 -13818
▁전단 -13819
▁하수 -13820
▁헤일 -13821
▁골짜기 -13822
▁며느리 -13823
▁스트림 -13824
▁1840 -13825
▁사이언스 -13826
▁크리스티나 -13827
▁me -13828
▁공상 -13829
▁단역 -13830
▁스택 -13831
▁텐서 -13832
▁패망 -13833
▁Mon -13834
▁시니어 -13835
▁데카르트 -13836
마디 -13837
ade -13838
per -13839
▁PL -13840
▁블러 -13841
▁빅터 -13842
▁자질 -13843
▁어도비 -13844
▁남아시아 -13845
▁매킨토시 -13846
▁볶 -13847
구스 -13848
수염 -13849
▁가비 -13850
▁유골 -13851
▁철자 -13852
스타인 -13853
▁글러브 -13854
▁목적지 -13855
▁창립자 -13856
▁팔꿈치 -13857
▁Song -13858
▁근본번뇌 -13859
▁Windows -13860
▁병풍 -13861
▁여포 -13862
▁온실 -13863
▁유자 -13864
▁자정 -13865
▁자처 -13866
▁준동 -13867
▁탁구 -13868
▁병자호란 -13869
▁파시스트 -13870
IX -13871
ium -13872
▁거사 -13873
▁금색 -13874
▁아어 -13875
▁이목 -13876
▁천상 -13877
▁불가피 -13878
▁로드리게스 -13879
90 -13880
선언 -13881
▁린다 -13882
▁상의 -13883
▁쫓기 -13884
▁리차드 -13885
▁예언자 -13886
▁적십자 -13887
▁테크놀 -13888
▁여우원숭이 -13889
▁계룡 -13890
▁민심 -13891
▁성가 -13892
▁유이 -13893
▁자취 -13894
▁치료법 -13895
▁필사본 -13896
▁라라 -13897
▁소박 -13898
▁의복 -13899
▁휘발 -13900
ㄴㄷㅐ -13901
이치로 -13902
▁기행 -13903
▁변질 -13904
▁상식 -13905
▁에트 -13906
▁웍스 -13907
▁이카 -13908
▁튜브 -13909
▁하라 -13910
▁심리학자 -13911
▁Heart -13912
▁return -13913
▁가방 -13914
▁독살 -13915
▁벤츠 -13916
▁숙소 -13917
▁영수 -13918
▁절친 -13919
▁풍기 -13920
▁피살 -13921
▁KTX -13922
▁로타르 -13923
▁유엔군 -13924
▁히타치 -13925
▁지장보살 -13926
▁벳 -13927
▁국세 -13928
▁다쓰 -13929
▁동호 -13930
▁란트 -13931
▁상동 -13932
▁종착역 -13933
▁그린란드 -13934
▁와카야마 -13935
▁아나톨리아 -13936
▁펜실베이니아주 -13937
히메 -13938
▁강인 -13939
▁성대 -13940
▁바닷물 -13941
▁파주시 -13942
▁형용사 -13943
사우루스 -13944
넌트 -13945
수단 -13946
욕장 -13947
▁ab -13948
▁거창 -13949
▁그거 -13950
▁발착 -13951
▁백조 -13952
▁암수 -13953
▁윤휴 -13954
ㅇㅡㄴ -13955
ae -13956
▁낯 -13957
던트 -13958
찬성 -13959
▁Gl -13960
▁라프 -13961
▁상과 -13962
▁워스 -13963
▁자루 -13964
▁조비 -13965
▁리스본 -13966
▁세미나 -13967
날레 -13968
보당 -13969
전선 -13970
테랑 -13971
▁농가 -13972
▁렉스 -13973
▁수증 -13974
▁연중 -13975
▁염화 -13976
▁의주 -13977
날드 -13978
링겐 -13979
▁겸직 -13980
▁단서 -13981
▁슈투 -13982
▁원문 -13983
▁흥원 -13984
▁과반수 -13985
▁구단주 -13986
▁8000 -13987
기아 -13988
▁Aw -13989
▁볼록 -13990
▁실사 -13991
▁포인 -13992
▁호그 -13993
▁환율 -13994
▁가환환 -13995
▁집단군 -13996
▁헤르만 -13997
▁영등포구 -13998
기즈 -13999
부시 -14000
▁바보 -14001
▁바쁘 -14002
▁셔틀 -14003
▁전조 -14004
▁강력히 -14005
▁고등교육 -14006
▁모자이크 -14007
ale -14008
▁강습 -14009
▁수만 -14010
▁오시 -14011
▁외척 -14012
▁저그 -14013
▁중일 -14014
▁그래도 -14015
▁보호법 -14016
▁1875 -14017
▁알프레드 -14018
계사 -14019
사유 -14020
▁니케 -14021
▁다자 -14022
▁신지 -14023
▁악명 -14024
▁최하 -14025
▁친화 -14026
레이트 -14027
▁AMD -14028
▁시미즈 -14029
▁안창호 -14030
▁이와테 -14031
히데 -14032
▁기린 -14033
▁미학 -14034
▁아다 -14035
▁유카 -14036
▁페레 -14037
▁개그맨 -14038
▁사이즈 -14039
▁성폭행 -14040
▁신석기 -14041
▁아나키스트 -14042
어하 -14043
▁괜찮 -14044
▁권익 -14045
▁노현 -14046
▁삭감 -14047
▁임종 -14048
▁콜린 -14049
▁키리 -14050
▁하구 -14051
▁해트 -14052
변속기 -14053
▁Out -14054
▁고문서 -14055
▁다이쇼 -14056
▁대항전 -14057
▁레스터 -14058
▁비둘기 -14059
▁컨벤션 -14060
▁클리어 -14061
PA -14062
방향 -14063
세서 -14064
▁문체 -14065
▁서약 -14066
▁실상 -14067
▁Gen -14068
▁관심사 -14069
▁보리스 -14070
▁아우구스 -14071
▁뉘른베르크 -14072
▁포르투갈어 -14073
▁As -14074
▁문중 -14075
▁선상 -14076
▁설리 -14077
▁예식 -14078
▁원단 -14079
▁정칙 -14080
▁중견 -14081
▁떠올리 -14082
▁진주시 -14083
▁피의자 -14084
▁휩싸이 -14085
itt -14086
▁사각 -14087
▁숙련 -14088
▁이선 -14089
▁이희 -14090
▁침식 -14091
▁타나 -14092
▁이랜드 -14093
▁친환경 -14094
▁회고록 -14095
▁바빌로니아 -14096
son -14097
▁sh -14098
▁디바 -14099
▁로사 -14100
▁방울 -14101
▁생원 -14102
▁한민 -14103
▁혼잡 -14104
▁380 -14105
▁나리타 -14106
▁돌고래 -14107
▁스케치 -14108
▁칭기즈 -14109
▁파라오 -14110
행파 -14111
▁DB -14112
▁TS -14113
▁뉴런 -14114
▁도적 -14115
▁미지 -14116
▁징집 -14117
▁최남 -14118
▁아세틸 -14119
▁엇갈리 -14120
▁예비역 -14121
▁크라운 -14122
▁파스칼 -14123
구니 -14124
▁구루 -14125
▁끌리 -14126
▁능가 -14127
▁위크 -14128
▁이씨 -14129
▁표제 -14130
루엔자 -14131
▁게임기 -14132
▁뒤따르 -14133
▁맥아더 -14134
▁열역학 -14135
▁항공대 -14136
크라테스 -14137
▁되돌아오 -14138
이에 -14139
▁김두 -14140
▁들르 -14141
▁바늘 -14142
▁선체 -14143
▁파랗 -14144
그래피 -14145
▁담당자 -14146
▁매디슨 -14147
▁코트디 -14148
▁코트디부아르 -14149
▁걸음 -14150
▁결말 -14151
▁다름 -14152
▁단양 -14153
▁변혁 -14154
▁엔젤 -14155
▁왜군 -14156
▁이심 -14157
▁직렬 -14158
▁키드 -14159
▁태안 -14160
▁테오도 -14161
▁규율 -14162
▁묘호 -14163
▁어사 -14164
▁월화 -14165
▁집전 -14166
▁학술지 -14167
VA -14168
어가 -14169
▁목장 -14170
▁서클 -14171
▁아지 -14172
▁안중 -14173
▁용지 -14174
▁일명 -14175
▁자장 -14176
▁토피 -14177
▁DOS -14178
▁스피커 -14179
▁운전자 -14180
▁통도사 -14181
▁합성어 -14182
▁몽고메리 -14183
르카 -14184
▁금정 -14185
▁로바 -14186
▁시찰 -14187
▁실명 -14188
▁예프 -14189
▁인승 -14190
▁질투 -14191
▁특공 -14192
▁안타깝 -14193
▁중앙선 -14194
▁크메르 -14195
▁함경도 -14196
알라 -14197
▁노원 -14198
▁리크 -14199
▁명상 -14200
▁박히 -14201
▁여럿 -14202
▁원효 -14203
▁정오 -14204
▁향신 -14205
▁Vol -14206
▁맥스웰 -14207
▁슈타인 -14208
▁스케줄 -14209
▁표트르 -14210
▁남양주시 -14211
13 -14212
UN -14213
▁눌 -14214
두사 -14215
▁귀엽 -14216
▁김연 -14217
▁모피 -14218
▁절충 -14219
▁첩보 -14220
▁타쿠 -14221
able -14222
▁데이트 -14223
▁선거인 -14224
▁아리랑 -14225
▁오프라인 -14226
더링 -14227
모음 -14228
어류 -14229
화당 -14230
▁등산 -14231
▁디디 -14232
▁문관 -14233
▁버트 -14234
▁생쥐 -14235
▁서당 -14236
▁은밀 -14237
▁잠입 -14238
▁재보 -14239
세데스 -14240
▁235 -14241
▁북극점 -14242
▁통신망 -14243
▁땀 -14244
부대 -14245
▁뒤지 -14246
▁모질 -14247
▁수은 -14248
▁안식 -14249
▁양파 -14250
▁의성 -14251
▁꽃차례 -14252
▁쇼핑몰 -14253
▁이사벨 -14254
▁장갑차 -14255
▁메르세데스 -14256
▁브란덴부르크 -14257
벌리 -14258
임새 -14259
▁교관 -14260
▁로큰 -14261
▁방호 -14262
▁비료 -14263
▁에레 -14264
▁체로 -14265
▁초회 -14266
▁호른 -14267
해방군 -14268
▁인민해방군 -14269
▁인플루엔자 -14270
▁벙 -14271
은사 -14272
▁WC -14273
▁레몬 -14274
▁출품 -14275
▁취직 -14276
▁광둥성 -14277
▁토요타 -14278
시험 -14279
우주 -14280
▁규약 -14281
▁슬리 -14282
▁터너 -14283
▁부적절 -14284
▁야마다 -14285
▁캐스터 -14286
▁클레어 -14287
▁기공 -14288
▁기마 -14289
▁기운 -14290
▁닥치 -14291
▁박용 -14292
▁술라 -14293
▁양지 -14294
▁열세 -14295
▁외면 -14296
▁인먼 -14297
▁잉카 -14298
록대부 -14299
▁연속극 -14300
▁자격증 -14301
▁정치국 -14302
스코리아 -14303
몽골 -14304
박사 -14305
▁IR -14306
▁구시 -14307
▁배반 -14308
▁스펜 -14309
▁어부 -14310
▁영락 -14311
▁율법 -14312
▁"() -14313
▁ㄹㅗㄹ -14314
▁강대국 -14315
▁로큰롤 -14316
▁바나나 -14317
▁베르트 -14318
▁안드로메다 -14319
▁싯 -14320
건설 -14321
세키 -14322
엽수 -14323
▁KO -14324
▁달콤 -14325
▁면담 -14326
▁야권 -14327
▁일차 -14328
▁반감기 -14329
▁일부러 -14330
ㄴㄷㅏㄴ -14331
▁쳐들어오 -14332
▁저널리스트 -14333
ng -14334
놀드 -14335
▁기판 -14336
▁막강 -14337
▁보우 -14338
▁시제 -14339
▁야수 -14340
▁위트 -14341
▁이홍 -14342
▁Par -14343
▁동아리 -14344
▁비단털 -14345
▁통계청 -14346
▁프론트 -14347
▁쇼트트랙 -14348
▁중앙아메리카 -14349
그램 -14350
▁감기 -14351
▁라벨 -14352
▁장정 -14353
▁폐허 -14354
▁로버츠 -14355
▁카디널 -14356
▁비단털쥐 -14357
▁라이베리아 -14358
▁텅 -14359
뻐하 -14360
ody -14361
▁내림 -14362
▁래리 -14363
▁몹시 -14364
▁문수 -14365
▁아노 -14366
▁에코 -14367
▁웨어 -14368
▁칸트 -14369
▁헤센 -14370
▁기뻐하 -14371
▁채권자 -14372
▁탭 -14373
쿠사 -14374
크리 -14375
▁가모 -14376
▁결전 -14377
▁경순 -14378
▁마레 -14379
▁보그 -14380
▁세일 -14381
▁착각 -14382
▁키트 -14383
▁708 -14384
▁스케일 -14385
▁싫어하 -14386
▁엑스박스 -14387
▁유가행파 -14388
18 -14389
촌리 -14390
▁At -14391
▁구세 -14392
▁구아 -14393
▁금환 -14394
▁데일 -14395
▁사주 -14396
▁상계 -14397
▁석기 -14398
▁야코 -14399
▁오마 -14400
▁자키 -14401
▁즐거 -14402
▁가이아 -14403
▁상반기 -14404
▁송파구 -14405
▁행해지 -14406
▁콜럼버스 -14407
니에 -14408
▁극소 -14409
▁메모 -14410
▁모체 -14411
▁베티 -14412
▁사미 -14413
▁성행 -14414
▁수마 -14415
▁순식 -14416
▁월남 -14417
▁정에 -14418
▁조봉 -14419
▁후루 -14420
▁205 -14421
▁ATC -14422
▁대수학 -14423
▁관음보살 -14424
▁University -14425
루즈 -14426
텐셜 -14427
▁JC -14428
▁경의 -14429
▁라울 -14430
▁배당 -14431
▁병렬 -14432
▁젤리 -14433
▁콘스 -14434
▁강희제 -14435
▁뉴올리 -14436
▁사할린 -14437
▁시그마 -14438
▁브로드웨이 -14439
▁조선공산당 -14440
▁동거 -14441
▁샤르 -14442
▁양서 -14443
▁왕래 -14444
▁은폐 -14445
▁보조금 -14446
▁슈미트 -14447
▁콘라트 -14448
▁외할 -14449
▁정글 -14450
▁출격 -14451
▁호흡기 -14452
▁끌어올리 -14453
▁스틸러스 -14454
▁지하철역 -14455
▁엣 -14456
사와 -14457
▁경화 -14458
▁라플 -14459
▁미첼 -14460
▁에노 -14461
▁이달 -14462
▁정언 -14463
▁당뇨병 -14464
▁데뷔작 -14465
▁퍼텐셜 -14466
▁Hell -14467
▁보컬리스트 -14468
▁샷 -14469
▁가명 -14470
▁구타 -14471
▁동군 -14472
▁로니 -14473
▁이질 -14474
▁자위 -14475
▁초계 -14476
▁패치 -14477
very -14478
르산 -14479
▁군복 -14480
▁수역 -14481
▁시의 -14482
▁애착 -14483
▁정승 -14484
▁집사 -14485
▁출사 -14486
▁폐교 -14487
▁사학자 -14488
▁페널티킥 -14489
▁셴 -14490
에쓰 -14491
연구 -14492
▁거머 -14493
▁근세 -14494
▁시성 -14495
▁실은 -14496
▁실효 -14497
▁아연 -14498
▁카로 -14499
▁타시 -14500
▁NBC -14501
▁건너오 -14502
▁무지개 -14503
▁서비스업 -14504
IVE -14505
▁ㅅㅏ -14506
▁경종 -14507
▁기미 -14508
▁숙박 -14509
▁외손 -14510
▁읍성 -14511
▁치마 -14512
▁코바 -14513
▁호로 -14514
▁되풀이 -14515
변수 -14516
▁모사 -14517
▁박재 -14518
▁애드 -14519
▁양극 -14520
▁활기 -14521
진보당 -14522
▁시마즈 -14523
▁name -14524
14 -14525
▁리시 -14526
▁무능 -14527
▁변천 -14528
▁옥사 -14529
▁우기 -14530
▁포니 -14531
▁후이 -14532
폴리탄 -14533
▁마주치 -14534
▁전시관 -14535
▁메트로폴리탄 -14536
▁맴 -14537
보라 -14538
▁가세 -14539
▁노카 -14540
▁단발 -14541
▁악당 -14542
▁에볼 -14543
▁신호장 -14544
▁랠 -14545
▁나기 -14546
▁마흐 -14547
▁비옥 -14548
▁서안 -14549
▁일주 -14550
▁재화 -14551
▁획기 -14552
▁사무관 -14553
▁조각상 -14554
so -14555
▁라가 -14556
▁불복 -14557
▁불쾌 -14558
▁빌드 -14559
▁세스 -14560
▁신병 -14561
▁안톤 -14562
▁유충 -14563
▁종가 -14564
▁칼륨 -14565
▁풀백 -14566
▁오릭스 -14567
양이 -14568
주크 -14569
anc -14570
▁AE -14571
▁골절 -14572
▁균일 -14573
▁남단 -14574
▁리나 -14575
▁무예 -14576
▁염두 -14577
▁포자 -14578
▁화승 -14579
▁화원 -14580
▁가요제 -14581
▁남극점 -14582
▁그레이엄 -14583
▁로베르토 -14584
▁미스코리아 -14585
▁벚 -14586
데기 -14587
민당 -14588
열대 -14589
▁sp -14590
▁나한 -14591
▁버니 -14592
▁양평 -14593
▁열악 -14594
▁예제 -14595
▁중남 -14596
▁칠성 -14597
▁학당 -14598
스크림 -14599
▁간호사 -14600
▁거주자 -14601
▁라스트 -14602
황색 -14603
▁산조 -14604
▁외삼 -14605
▁젠더 -14606
▁족장 -14607
▁하산 -14608
▁한복 -14609
▁ㄹㅏㅁ -14610
▁순식간 -14611
▁천도교 -14612
me -14613
바드 -14614
ATO -14615
ala -14616
▁cc -14617
▁그립 -14618
▁금하 -14619
▁잉여 -14620
▁창구 -14621
▁축복 -14622
▁키타 -14623
▁품목 -14624
▁로페스 -14625
▁핵탄두 -14626
▁일렉트릭 -14627
▁멀티미디어 -14628
▁파푸아뉴기니 -14629
데일 -14630
소문 -14631
▁고층 -14632
▁기스 -14633
▁도형 -14634
▁동백 -14635
▁복부 -14636
▁이문 -14637
▁자성 -14638
▁tvN -14639
▁바이마르 -14640
▁우두머리 -14641
▁콘퍼런스 -14642
큐슈 -14643
▁SR -14644
▁뉴멕 -14645
▁발작 -14646
▁사중 -14647
▁스펙 -14648
▁안팎 -14649
▁요직 -14650
▁일간 -14651
▁조동 -14652
▁케리 -14653
▁안드레 -14654
▁유명세 -14655
▁조각가 -14656
▁테두리 -14657
▁뉴멕시코 -14658
▁슈퍼스타 -14659
▁유니코드 -14660
▁플루토늄 -14661
15 -14662
▁뤄 -14663
▁멱 -14664
신저 -14665
악산 -14666
▁안심 -14667
▁잔혹 -14668
▁총영 -14669
▁침범 -14670
▁쿠마 -14671
▁홍익 -14672
▁공주시 -14673
▁공학자 -14674
▁출판물 -14675
▁1874 -14676
스퍼 -14677
조사 -14678
피크 -14679
▁낭비 -14680
▁띄우 -14681
▁마늘 -14682
▁부엌 -14683
▁솜씨 -14684
▁이색 -14685
▁협곡 -14686
▁최성기 -14687
▁컨설팅 -14688
▁핸드볼 -14689
▁후쿠이 -14690
GB -14691
ax -14692
▁퀄 -14693
▁리타 -14694
▁상한 -14695
▁소론 -14696
▁클랜 -14697
▁탄수 -14698
▁통솔 -14699
▁게임즈 -14700
▁교육감 -14701
▁트레일 -14702
▁This -14703
▁클러스터 -14704
yn -14705
▁잼 -14706
▁가뭄 -14707
▁강좌 -14708
▁넷플 -14709
▁레나 -14710
▁싱크 -14711
▁요가 -14712
▁우표 -14713
▁줄곧 -14714
▁향수 -14715
▁회차 -14716
▁안양시 -14717
▁에스컬 -14718
▁지리산 -14719
▁휴대폰 -14720
▁넷플릭스 -14721
▁바그다드 -14722
▁컨퍼런스 -14723
▁에스컬레이터 -14724
▁GR -14725
▁기닿 -14726
▁바니 -14727
▁인스 -14728
▁성폭력 -14729
운수 -14730
징어 -14731
oid -14732
▁거시 -14733
▁송이 -14734
▁전범 -14735
▁한겨 -14736
▁204 -14737
▁김해시 -14738
▁동남쪽 -14739
▁반대편 -14740
▁부르봉 -14741
▁비잔틴 -14742
▁청문회 -14743
▁항공편 -14744
▁서아프리카 -14745
au -14746
일기 -14747
프랑 -14748
▁다쿠 -14749
▁대류 -14750
▁델리 -14751
▁몰수 -14752
▁무가 -14753
▁에페 -14754
▁차오 -14755
▁행선 -14756
▁프레슬리 -14757
윽고 -14758
혈구 -14759
ash -14760
▁소양 -14761
▁코크 -14762
▁확충 -14763
▁Dra -14764
▁앞바다 -14765
▁이윽고 -14766
▁저스틴 -14767
▁오아시스 -14768
범죄 -14769
▁AF -14770
▁베크 -14771
▁캠벨 -14772
▁코로 -14773
▁코린 -14774
▁판명 -14775
▁개화파 -14776
▁ㅁㅓ -14777
▁경내 -14778
▁그르 -14779
▁소인 -14780
▁일삼 -14781
▁잔여 -14782
▁하지 -14783
▁APG -14784
▁사하라 -14785
▁셀주크 -14786
▁허베이 -14787
▁1877 -14788
▁알렉산데르 -14789
▁쿰 -14790
나들 -14791
▁무주 -14792
▁예멘 -14793
▁스타드 -14794
▁원주시 -14795
▁클로드 -14796
▁호소카와 -14797
더릭 -14798
net -14799
ose -14800
▁문맥 -14801
▁적법 -14802
▁루이즈 -14803
▁브리스 -14804
▁가온 -14805
▁산문 -14806
▁손목 -14807
▁엄지 -14808
▁인성 -14809
▁토바 -14810
▁재미있 -14811
▁포식자 -14812
22 -14813
높이 -14814
를레 -14815
▁Mi -14816
▁고승 -14817
▁모치 -14818
▁바야 -14819
▁본존 -14820
▁블랑 -14821
▁제비 -14822
▁Bab -14823
▁다가가 -14824
▁오리엔 -14825
▁갈릴레오 -14826
계약 -14827
▁KS -14828
▁레크 -14829
▁법규 -14830
▁복속 -14831
▁소주 -14832
▁순찰 -14833
▁스플 -14834
▁아킬 -14835
▁원사 -14836
▁주군 -14837
▁CIA -14838
▁교육학 -14839
▁7000 -14840
▁Best -14841
▁프리큐어 -14842
co -14843
비에 -14844
양구 -14845
▁격전 -14846
▁논증 -14847
▁서품 -14848
▁선단 -14849
▁소르 -14850
▁양천 -14851
▁재회 -14852
▁퇴치 -14853
▁참전하 -14854
▁현미경 -14855
▁아우구스투스 -14856
ict -14857
▁et -14858
▁강국 -14859
▁라임 -14860
▁문물 -14861
▁미트 -14862
▁사연 -14863
▁템플 -14864
▁흐리 -14865
▁사다리 -14866
▁억제제 -14867
▁외계인 -14868
▁울트라 -14869
▁인류학 -14870
▁한겨레 -14871
재판 -14872
▁곤살 -14873
▁과세 -14874
▁로망 -14875
▁산술 -14876
야누스 -14877
▁게이밍 -14878
▁서스펜 -14879
▁엘비스 -14880
▁중거리 -14881
▁채무자 -14882
▁콜린스 -14883
▁캄파니아 -14884
제철 -14885
▁거병 -14886
▁산체 -14887
▁시발 -14888
▁의제 -14889
▁퇴진 -14890
▁펭귄 -14891
▁아키텐 -14892
▁케이드 -14893
▁챠 -14894
토크 -14895
▁감축 -14896
▁너희 -14897
▁도안 -14898
▁맞물 -14899
▁명왕 -14900
▁바젤 -14901
▁오구 -14902
▁제지 -14903
▁처마 -14904
▁카일 -14905
▁화음 -14906
▁Her -14907
▁강화군 -14908
▁오르간 -14909
▁한국군 -14910
▁기울어지 -14911
▁트라야누스 -14912
▁도부 -14913
▁롤러 -14914
▁미겔 -14915
▁승률 -14916
▁차역 -14917
▁경부선 -14918
▁다카하시 -14919
▁자이언트 -14920
▁카디널스 -14921
▁툼 -14922
로트 -14923
▁공문 -14924
▁노하 -14925
▁두뇌 -14926
▁숙명 -14927
▁차명 -14928
▁아파치 -14929
▁여운형 -14930
▁1700 -14931
▁관아 -14932
▁김주 -14933
▁미켈 -14934
▁방학 -14935
▁산정 -14936
▁석권 -14937
▁성조 -14938
▁요도 -14939
▁유창 -14940
▁인계 -14941
▁점하 -14942
▁투사 -14943
▁화염 -14944
▁빌바오 -14945
▁수백만 -14946
▁연방군 -14947
▁콘티넨 -14948
▁돌려보내 -14949
▁라이센스 -14950
▁만장일치 -14951
ps -14952
장사 -14953
형제 -14954
EEE -14955
▁깔리 -14956
▁네브 -14957
▁달력 -14958
▁뮐러 -14959
▁백운 -14960
▁밸브 -14961
▁선과 -14962
▁율리 -14963
▁지령 -14964
어나오 -14965
▁이론가 -14966
▁1859 -14967
▁메모리얼 -14968
▁자카르타 -14969
▁웜 -14970
남면 -14971
▁us -14972
▁공병 -14973
▁나투 -14974
▁니즈 -14975
▁도읍 -14976
▁리안 -14977
▁민원 -14978
▁볼드 -14979
▁부식 -14980
▁앞뒤 -14981
▁태화 -14982
▁순천시 -14983
▁앙드레 -14984
▁통계학 -14985
▁혼합물 -14986
고사 -14987
란다 -14988
마을 -14989
▁건지 -14990
▁결장 -14991
▁무공 -14992
▁중건 -14993
▁루카스 -14994
▁클레오 -14995
나시 -14996
티지 -14997
▁가선 -14998
▁나일 -14999
▁대입 -15000
▁백지 -15001
▁변론 -15002
▁블룸 -15003
▁쓰리 -15004
▁재물 -15005
▁테헤 -15006
▁통찰 -15007
▁함장 -15008
▁518 -15009
▁625 -15010
▁우에노 -15011
▁트레인 -15012
▁레닌주의 -15013
▁사무라이 -15014
버터 -15015
완다 -15016
uck -15017
▁구전 -15018
▁뚜껑 -15019
▁산재 -15020
▁예금 -15021
▁완장 -15022
▁폐차 -15023
▁플랑 -15024
▁아놀드 -15025
▁테크놀로지 -15026
▁경합 -15027
▁발판 -15028
▁여정 -15029
▁튜링 -15030
▁푸젠 -15031
▁가우스 -15032
▁바스크 -15033
▁향신료 -15034
▁미야기현 -15035
▁뉴클레오타이드 -15036
매기 -15037
▁se -15038
▁곡식 -15039
▁바투 -15040
▁박찬 -15041
▁상설 -15042
▁이창 -15043
▁정역 -15044
▁츠카 -15045
▁허물 -15046
▁거머쥐 -15047
▁기념장 -15048
HL -15049
스톤 -15050
정변 -15051
▁YG -15052
▁김도 -15053
▁되살 -15054
▁북인 -15055
▁사병 -15056
▁왕당 -15057
▁피자 -15058
▁후견 -15059
▁개최지 -15060
▁출장소 -15061
▁아이스크림 -15062
de -15063
▁뮈 -15064
투리 -15065
▁앨라 -15066
▁주포 -15067
▁지크 -15068
▁하후 -15069
▁대혁명 -15070
▁이케다 -15071
▁켐 -15072
동원 -15073
무장 -15074
▁모교 -15075
▁발광 -15076
▁베다 -15077
▁보어 -15078
▁산남 -15079
▁입찰 -15080
▁코이 -15081
▁홀수 -15082
▁화소 -15083
게이트 -15084
레틱스 -15085
▁개막식 -15086
▁곧이어 -15087
▁미성년 -15088
▁미트라 -15089
▁직사각 -15090
▁IEEE -15091
▁애슬레틱스 -15092
▁레티 -15093
▁벗기 -15094
▁상감 -15095
▁수프 -15096
▁오와 -15097
▁원점 -15098
▁페스트 -15099
▁서바이벌 -15100
▁^ -15101
▁펙 -15102
과학 -15103
댓값 -15104
주사 -15105
▁구가 -15106
▁뒤덮 -15107
▁로디 -15108
▁발터 -15109
▁변성 -15110
▁사산 -15111
▁사생 -15112
▁서체 -15113
▁장경 -15114
▁전봉 -15115
▁총감 -15116
▁무신론 -15117
▁바빌론 -15118
▁제니퍼 -15119
HC -15120
▁리언 -15121
▁솔리 -15122
▁헬스 -15123
▁화풍 -15124
▁결의안 -15125
▁브레멘 -15126
▁빈센트 -15127
▁서태지 -15128
▁순교자 -15129
▁쓰촨성 -15130
▁이치현 -15131
▁탈레반 -15132
TF -15133
▁FF -15134
▁경원 -15135
▁담양 -15136
▁로보 -15137
▁사와 -15138
▁아누 -15139
▁어학 -15140
▁학창 -15141
▁난쟁이 -15142
▁아이치 -15143
▁국가원수 -15144
▁스테파노 -15145
▁크리스틴 -15146
▁무형문화재 -15147
oo -15148
장조 -15149
티어 -15150
▁뉴잉 -15151
▁만지 -15152
▁섹션 -15153
▁속국 -15154
공화당 -15155
reak -15156
▁340 -15157
▁목표물 -15158
▁환승역 -15159
▁선거관리 -15160
▁아드리아 -15161
▁민주공화당 -15162
▁선거관리위원회 -15163
나주 -15164
패드 -15165
학파 -15166
▁ㄱㅡ -15167
▁김학 -15168
▁북측 -15169
▁상환 -15170
▁억울 -15171
▁자네 -15172
▁전서 -15173
▁정청 -15174
▁퇴출 -15175
▁후회 -15176
▁가치관 -15177
▁셰퍼드 -15178
▁슈투트 -15179
▁슈투트가르트 -15180
르바 -15181
▁조회 -15182
▁헤라 -15183
▁후면 -15184
▁310 -15185
▁마코토 -15186
▁선제후 -15187
▁이주민 -15188
▁정착지 -15189
▁카리스 -15190
▁고바야시 -15191
▁그래픽스 -15192
▁사이클론 -15193
▁Super -15194
▁미러 -15195
▁수질 -15196
▁시력 -15197
▁왕명 -15198
▁우니 -15199
▁이만 -15200
▁일어 -15201
▁진천 -15202
▁돌려주 -15203
▁로스트 -15204
▁볼프강 -15205
▁쓰러뜨리 -15206
▁아미타불 -15207
주석 -15208
▁거문 -15209
▁군기 -15210
▁베가 -15211
▁알로 -15212
▁자갈 -15213
▁자백 -15214
▁짝수 -15215
▁철기 -15216
▁청정 -15217
▁개척자 -15218
▁레이건 -15219
▁로저스 -15220
▁원정대 -15221
ail -15222
▁관위 -15223
▁나바 -15224
▁덮치 -15225
▁도끼 -15226
▁무진 -15227
▁사탄 -15228
▁특명 -15229
▁호국 -15230
▁희미 -15231
▁합병증 -15232
▁뉴올리언스 -15233
▁매사추세츠주 -15234
vel -15235
▁구라 -15236
▁금관 -15237
▁로코 -15238
▁만류 -15239
▁멜라 -15240
▁버밍 -15241
▁선별 -15242
▁수주 -15243
▁어선 -15244
▁오인 -15245
▁터스 -15246
▁하층 -15247
▁기생충 -15248
▁길거리 -15249
▁라그랑 -15250
▁Star -15251
▁소아시아 -15252
▁뽀 -15253
디드 -15254
▁as -15255
▁과달 -15256
▁관군 -15257
▁교감 -15258
▁수구 -15259
▁용맹 -15260
▁국내선 -15261
▁대관식 -15262
▁실린더 -15263
▁해인사 -15264
▁모니터링 -15265
OK -15266
▁로런 -15267
▁문건 -15268
▁박경 -15269
▁발진 -15270
▁보국 -15271
▁안주 -15272
▁양동 -15273
▁일면 -15274
하마드 -15275
▁오슬로 -15276
▁울주군 -15277
▁지석묘 -15278
니언 -15279
조류 -15280
▁ad -15281
▁결여 -15282
▁근간 -15283
▁김우 -15284
▁세제 -15285
▁슬러 -15286
▁아칸 -15287
▁퀸스 -15288
▁단말기 -15289
▁분류학 -15290
▁이광수 -15291
▁한자어 -15292
▁ICBM -15293
▁Soul -15294
▁긋 -15295
버라 -15296
▁매듭 -15297
▁무위 -15298
▁승낙 -15299
▁원만 -15300
▁타밀 -15301
▁209 -15302
▁달려가 -15303
▁아이파크 -15304
▁튀어나오 -15305
▁뉴잉글랜드 -15306
▁얄 -15307
iel -15308
▁도매 -15309
▁로컬 -15310
▁맹렬 -15311
▁손수 -15312
▁의인 -15313
▁커브 -15314
▁토프 -15315
▁App -15316
▁아스카 -15317
▁파르마 -15318
▁1812 -15319
▁쑹 -15320
▁짚 -15321
배마 -15322
플레 -15323
▁Kn -15324
▁my -15325
▁닷컴 -15326
▁모션 -15327
▁아호 -15328
▁유틸 -15329
▁추밀 -15330
▁추장 -15331
▁탄두 -15332
▁피그 -15333
▁Sun -15334
▁교황령 -15335
▁앨라배마 -15336
▁유틸리티 -15337
▁후쿠시마현 -15338
EA -15339
의식 -15340
▁공석 -15341
▁김덕 -15342
▁명륜 -15343
▁샤오 -15344
▁스쿼 -15345
▁타파 -15346
▁투니 -15347
▁호화 -15348
▁대사간 -15349
▁르완다 -15350
▁에세이 -15351
▁에이지 -15352
▁끔 -15353
도감 -15354
▁공경 -15355
▁교인 -15356
▁다윗 -15357
▁보디 -15358
▁부락 -15359
▁센타 -15360
▁수문 -15361
▁연해 -15362
▁통감 -15363
▁평방 -15364
▁호이 -15365
▁you -15366
▁불러오 -15367
▁송진우 -15368
▁예문관 -15369
▁콘스탄티누스 -15370
59 -15371
샤오 -15372
▁ON -15373
▁개경 -15374
▁스완 -15375
▁유계 -15376
▁주유 -15377
▁셀레우 -15378
▁주거지 -15379
▁테헤란 -15380
탄올 -15381
ray -15382
▁강유 -15383
▁금기 -15384
▁금천 -15385
▁산인 -15386
▁속초 -15387
▁천적 -15388
▁충동 -15389
떨어지 -15390
하우스 -15391
▁206 -15392
▁윤치영 -15393
▁자치현 -15394
▁베르사유 -15395
▁헬레니즘 -15396
▁HP -15397
▁근위 -15398
▁메드 -15399
▁상층 -15400
▁청일 -15401
▁폐하 -15402
▁포상 -15403
▁공성전 -15404
▁삼거리 -15405
▁인산화 -15406
▁자오선 -15407
▁어우러지 -15408
▁IF -15409
▁기권 -15410
▁나시 -15411
▁유보 -15412
▁이건 -15413
▁정실 -15414
▁해주 -15415
▁오토바이 -15416
▁중앙일보 -15417
▁Christ -15418
어놓 -15419
초프 -15420
▁DO -15421
▁Mr -15422
▁도파 -15423
▁맞배 -15424
▁법상 -15425
▁장강 -15426
▁장지 -15427
▁지카 -15428
▁항문 -15429
▁디에고 -15430
▁에이브 -15431
▁안토니우스 -15432
RI -15433
구미 -15434
ute -15435
▁관개 -15436
▁노마 -15437
▁동급 -15438
▁루손 -15439
▁부기 -15440
▁산동 -15441
▁수라 -15442
▁안면 -15443
▁예보 -15444
▁울루 -15445
▁장이 -15446
▁코우 -15447
▁콜론 -15448
▁남북조 -15449
▁대제학 -15450
▁자본가 -15451
▁조광조 -15452
▁알렉세이 -15453
▁지검 -15454
▁패자 -15455
▁여수시 -15456
▁접미사 -15457
▁태블릿 -15458
▁북대서양 -15459
gh -15460
네오 -15461
방스 -15462
▁걸스 -15463
▁떠돌 -15464
▁뚫리 -15465
▁배타 -15466
▁이코 -15467
▁자석 -15468
▁점토 -15469
▁카보 -15470
▁하강 -15471
▁록히드 -15472
▁아니면 -15473
▁음식점 -15474
▁조봉암 -15475
▁PA -15476
▁Tw -15477
▁갑신 -15478
▁교재 -15479
▁귀순 -15480
▁도자 -15481
▁로지 -15482
▁빨강 -15483
▁소포 -15484
▁수족 -15485
▁어지 -15486
▁천자 -15487
로세서 -15488
시아키 -15489
▁대대장 -15490
▁백두산 -15491
▁보이즈 -15492
▁조르주 -15493
▁건국훈장 -15494
16 -15495
▁늦추 -15496
▁루드 -15497
▁반정 -15498
▁사파 -15499
▁식이 -15500
▁영도 -15501
▁컬링 -15502
▁효능 -15503
▁747 -15504
▁주제가 -15505
네프 -15506
면적 -15507
팩스 -15508
▁그늘 -15509
▁당상 -15510
▁머큐 -15511
▁아람 -15512
▁인척 -15513
▁쪼개 -15514
▁춘계 -15515
▁풀이 -15516
▁독재자 -15517
▁안데스 -15518
▁의병장 -15519
▁John -15520
▁아브라함 -15521
▁조던 -15522
▁총생 -15523
▁로널드 -15524
▁사우디 -15525
▁안철수 -15526
▁피어스 -15527
▁1879 -15528
▁막시밀리 -15529
무지 -15530
▁듀스 -15531
▁마다 -15532
▁양념 -15533
▁양원 -15534
▁초식 -15535
▁카토 -15536
▁현수 -15537
▁황위 -15538
▁휴일 -15539
▁420 -15540
▁선수상 -15541
▁카지노 -15542
▁썸 -15543
바퀴 -15544
분투 -15545
티보 -15546
▁NM -15547
▁게놈 -15548
▁대여 -15549
▁범람 -15550
▁세밀 -15551
▁스킨 -15552
▁진심 -15553
▁카펠 -15554
▁항생제 -15555
17 -15556
▁름 -15557
구나 -15558
반정 -15559
블릭 -15560
산업 -15561
슐리 -15562
▁구비 -15563
▁대방 -15564
▁방탄 -15565
▁유세 -15566
▁집적 -15567
▁폴로 -15568
▁CoA -15569
▁고지대 -15570
▁영사관 -15571
▁제이크 -15572
▁가창 -15573
▁비오 -15574
▁손쉽 -15575
▁의논 -15576
▁클럭 -15577
▁호시 -15578
라이스 -15579
▁des -15580
▁글리제 -15581
▁레코딩 -15582
▁무사시 -15583
▁아이작 -15584
▁연대장 -15585
▁트리스 -15586
▁불법행위 -15587
▁꽝 -15588
▁국문 -15589
▁군마 -15590
▁두부 -15591
▁반달 -15592
▁불문 -15593
▁아로 -15594
▁유상 -15595
▁쿠시 -15596
▁할구 -15597
▁석회암 -15598
리아누스 -15599
▁쿵 -15600
▁김시 -15601
▁단수 -15602
▁라쿠 -15603
▁반납 -15604
▁부트 -15605
▁임실 -15606
▁조우 -15607
▁힐스 -15608
▁사가미 -15609
YP -15610
연맹 -15611
화산 -15612
▁영종 -15613
▁카다 -15614
▁흐트 -15615
를레앙 -15616
▁게이오 -15617
▁리그컵 -15618
▁암스트 -15619
▁여행자 -15620
▁오메가 -15621
▁테크노 -15622
▁페이퍼 -15623
자드 -15624
▁규합 -15625
▁동맥 -15626
▁리퍼 -15627
▁모태 -15628
▁소량 -15629
▁스텐 -15630
▁위축 -15631
▁이설 -15632
▁인삼 -15633
▁카파 -15634
▁커리 -15635
▁바닷가 -15636
▁일렉트로닉 -15637
링크 -15638
선교 -15639
▁농담 -15640
▁동대 -15641
▁두스 -15642
▁시영 -15643
▁시타 -15644
▁중등 -15645
▁체리 -15646
▁투병 -15647
▁산투스 -15648
▁알칼리 -15649
▁여러분 -15650
▁파르티아 -15651
▁퀼 -15652
VID -15653
▁권투 -15654
▁노역 -15655
▁딱딱 -15656
▁유민 -15657
▁최용 -15658
▁개개인 -15659
▁포틀랜드 -15660
ull -15661
▁사목 -15662
▁유관 -15663
▁일보 -15664
▁코인 -15665
▁호적 -15666
▁광합성 -15667
▁니가타 -15668
▁베이직 -15669
▁접근성 -15670
▁타지키스탄 -15671
수지 -15672
신보 -15673
ual -15674
▁고후 -15675
▁반향 -15676
▁불능 -15677
▁양정 -15678
▁전열 -15679
▁정맥 -15680
▁타라 -15681
▁Per -15682
▁변호인 -15683
바이러스 -15684
▁Record -15685
대비 -15686
▁과감 -15687
▁남경 -15688
▁니치 -15689
▁보아 -15690
▁상이 -15691
▁자존 -15692
▁차차 -15693
▁할로 -15694
▁국방군 -15695
▁스텔스 -15696
▁영화관 -15697
▁원종공신 -15698
▁크리스탈 -15699
박이 -15700
일체 -15701
▁강가 -15702
▁부화 -15703
▁압수 -15704
▁앙상 -15705
▁애호 -15706
▁원한 -15707
▁항전 -15708
▁해커 -15709
▁환산 -15710
▁440 -15711
▁스위트 -15712
▁주머니쥐 -15713
▁나토 -15714
▁동하 -15715
▁리노 -15716
▁미타 -15717
▁아역 -15718
▁요셉 -15719
▁응력 -15720
▁이한 -15721
▁증축 -15722
▁처칠 -15723
▁후추 -15724
▁그러면 -15725
▁기본법 -15726
▁버스터 -15727
▁잠비아 -15728
▁아우구스트 -15729
▁Gu -15730
▁po -15731
▁광시 -15732
▁궁주 -15733
▁도나 -15734
▁신익 -15735
▁용역 -15736
▁풍요 -15737
▁수영장 -15738
▁다마스쿠스 -15739
▁쑨 -15740
길준 -15741
다임 -15742
울루 -15743
피카 -15744
▁"| -15745
▁교명 -15746
▁끊이 -15747
▁끔찍 -15748
▁빛깔 -15749
▁성현 -15750
▁용문 -15751
▁투기 -15752
▁파출 -15753
▁화이 -15754
▁군주제 -15755
▁바실리 -15756
▁양산시 -15757
▁엔리케 -15758
▁유기체 -15759
▁들어올리 -15760
▁print -15761
▁엔지니어링 -15762
▁public -15763
레미 -15764
자나 -15765
태자 -15766
▁MD -15767
▁기시 -15768
▁대등 -15769
▁바바 -15770
▁영성 -15771
▁왕녀 -15772
▁쿠루 -15773
로그램 -15774
▁실리콘 -15775
▁엘리스 -15776
▁오우치 -15777
장군 -15778
쿠치 -15779
▁KD -15780
▁교학 -15781
▁논평 -15782
▁능숙 -15783
▁문어 -15784
▁사나 -15785
▁열람 -15786
▁제고 -15787
▁제방 -15788
▁킬러 -15789
▁트램 -15790
▁Win -15791
▁재결합 -15792
▁클라리 -15793
▁낯설 -15794
▁노엘 -15795
▁라사 -15796
▁소진 -15797
▁아루 -15798
▁열거 -15799
▁자각 -15800
▁코니 -15801
▁콜리 -15802
▁환초 -15803
▁바레인 -15804
▁본거지 -15805
▁시에라 -15806
▁야구부 -15807
▁플래닛 -15808
▁패러다임 -15809
▁CA -15810
▁nm -15811
▁균등 -15812
▁동두 -15813
▁북마 -15814
▁성자 -15815
▁시온 -15816
▁역동 -15817
▁은평 -15818
▁피질 -15819
▁디스코 -15820
▁랴오닝 -15821
▁비행사 -15822
▁스태프 -15823
▁여주인 -15824
▁오토모 -15825
▁캅카스 -15826
▁허버트 -15827
덕궁 -15828
데오 -15829
발트 -15830
스틱 -15831
황제 -15832
RNA -15833
▁담수 -15834
▁성교 -15835
▁성형 -15836
▁오차 -15837
▁유미 -15838
▁이보 -15839
▁잇달 -15840
▁전곡 -15841
▁접목 -15842
▁종실 -15843
▁256 -15844
▁911 -15845
▁카스텔 -15846
▁2500 -15847
▁리치먼드 -15848
25 -15849
▁감당 -15850
▁무패 -15851
▁사스 -15852
▁스팀 -15853
▁에다 -15854
▁우타 -15855
▁이석 -15856
▁코일 -15857
▁타선 -15858
▁파고 -15859
▁ㅁㅓㄴ -15860
▁머큐리 -15861
▁왕당파 -15862
▁제시카 -15863
▁초고층 -15864
▁군도 -15865
▁금리 -15866
▁기피 -15867
▁내시 -15868
▁농협 -15869
▁리지 -15870
▁명동 -15871
▁수아 -15872
▁호찌 -15873
▁유도탄 -15874
▁조용히 -15875
▁대법원장 -15876
▁천문단위 -15877
포리 -15878
▁'. -15879
▁온전 -15880
▁카츠 -15881
▁리바이 -15882
▁살아오 -15883
▁엘리엇 -15884
▁예비군 -15885
▁이세이 -15886
▁ㅇㅡㄹㅅㅜ -15887
▁노름 -15888
▁당장 -15889
▁왕릉 -15890
고로드 -15891
ogle -15892
▁Str -15893
▁즐거움 -15894
▁후유증 -15895
▁리바운드 -15896
▁아미타여래 -15897
평면 -15898
▁개표 -15899
▁담임 -15900
▁동체 -15901
▁매복 -15902
▁무루 -15903
▁부이 -15904
▁사체 -15905
▁안시 -15906
▁왕좌 -15907
▁헐리 -15908
▁히코 -15909
▁드래곤즈 -15910
ll -15911
ty -15912
무트 -15913
커우 -15914
▁접시 -15915
▁잠재력 -15916
▁콜라보 -15917
▁프리드 -15918
▁프린세스 -15919
능력 -15920
▁NA -15921
▁강자 -15922
▁기한 -15923
▁레저 -15924
▁무소 -15925
▁실베 -15926
▁아구 -15927
▁앉히 -15928
▁원곡 -15929
▁중신 -15930
▁향로 -15931
던지기 -15932
리오스 -15933
▁Hot -15934
▁길버트 -15935
▁부추기 -15936
▁브루노 -15937
스텐 -15938
자락 -15939
▁HS -15940
▁광동 -15941
▁셔츠 -15942
▁소노 -15943
▁애프 -15944
▁커넥 -15945
▁파피 -15946
▁행운 -15947
▁호지 -15948
▁208 -15949
▁렌더링 -15950
▁주둔지 -15951
▁춘천시 -15952
▁페르시 -15953
▁뜯 -15954
는점 -15955
▁곱하 -15956
▁멘델 -15957
▁부안 -15958
▁상회 -15959
▁정직 -15960
▁현관 -15961
▁호투 -15962
▁사무엘 -15963
▁사천왕 -15964
▁총생산 -15965
▁추축국 -15966
▁토론회 -15967
▁프로필 -15968
▁1789 -15969
▁캥 -15970
로로 -15971
▁Ke -15972
▁mu -15973
▁마거 -15974
▁미녀 -15975
▁신천 -15976
▁악어 -15977
▁양구 -15978
▁이크 -15979
▁진성 -15980
▁촐라 -15981
▁치킨 -15982
▁함의 -15983
▁고스트 -15984
▁부서지 -15985
▁브릿지 -15986
▁사망률 -15987
▁예수교 -15988
▁제품군 -15989
▁Back -15990
▁플랑드르 -15991
ㅁㅏㄹㄹㅗ -15992
▁ㅣ -15993
훈련 -15994
▁가전 -15995
▁고독 -15996
▁석재 -15997
▁승마 -15998
▁조율 -15999
▁지브 -16000
▁칠곡 -16001
▁탈피 -16002
▁트론 -16003
▁영문학 -16004
▁오이타 -16005
▁유길준 -16006
▁제주시 -16007
▁조연상 -16008
▁1801 -16009
▁가결 -16010
▁바타 -16011
▁생김 -16012
레이즈 -16013
▁앙상블 -16014
▁쐐 -16015
로움 -16016
▁거품 -16017
▁진위 -16018
▁코딩 -16019
▁225 -16020
▁맞물리 -16021
▁아르테 -16022
▁요나라 -16023
▁1400 -16024
▁기타큐슈 -16025
▁독립선언 -16026
▁비로자나 -16027
▁암스트롱 -16028
▁탄수화물 -16029
인산 -16030
제사 -16031
▁Fl -16032
▁교내 -16033
▁예쁘 -16034
▁오웬 -16035
▁중학 -16036
▁침수 -16037
▁타키 -16038
스트림 -16039
프리드 -16040
▁깨어나 -16041
▁부러지 -16042
▁웨슬리 -16043
▁조제프 -16044
▁페라리 -16045
▁NL -16046
▁녹이 -16047
▁느슨 -16048
▁세타 -16049
▁쐐기 -16050
▁윤곽 -16051
ames -16052
▁Get -16053
▁고다이 -16054
▁네바다 -16055
▁디아스 -16056
▁지극히 -16057
▁Kore -16058
▁베오그라드 -16059
▁DA -16060
▁구애 -16061
▁누마 -16062
▁득실 -16063
▁미디 -16064
▁사조 -16065
▁실책 -16066
▁약품 -16067
▁얼리 -16068
▁우디 -16069
▁유독 -16070
▁초석 -16071
▁총국 -16072
▁370 -16073
▁마운틴 -16074
▁영장류 -16075
▁후반전 -16076
▁NATO -16077
▁남한산성 -16078
▁해수욕장 -16079
GO -16080
▁킵 -16081
▁봉분 -16082
▁생장 -16083
▁운석 -16084
▁채집 -16085
▁철근 -16086
▁카인 -16087
lect -16088
▁MIT -16089
▁남아공 -16090
▁들여오 -16091
▁매니아 -16092
▁오리건 -16093
▁미식축구 -16094
▁Intern -16095
▁렬 -16096
모닉 -16097
이상 -16098
let -16099
ors -16100
▁관저 -16101
▁균열 -16102
▁그릴 -16103
▁대용 -16104
▁박태 -16105
▁안건 -16106
▁여관 -16107
▁작자 -16108
▁제타 -16109
▁탄성 -16110
▁흡입 -16111
▁내몽골 -16112
▁슈트라 -16113
▁양평군 -16114
▁호기심 -16115
▁이성질체 -16116
▁항공우주 -16117
▁BO -16118
▁내기 -16119
▁쌍용 -16120
▁안락 -16121
▁예편 -16122
▁정중 -16123
▁탄력 -16124
▁GPS -16125
▁판매고 -16126
그라운드 -16127
UM -16128
ox -16129
ove -16130
▁BB -16131
▁강타 -16132
▁관원 -16133
▁교란 -16134
▁구명 -16135
▁구부 -16136
▁니트 -16137
▁도화 -16138
▁먼로 -16139
▁미로 -16140
▁즉흥 -16141
▁초판 -16142
▁코디 -16143
▁로런스 -16144
▁생산자 -16145
▁생물학자 -16146
▁슈트라우스 -16147
경찰 -16148
불명 -16149
▁군량 -16150
▁극회 -16151
▁깊숙 -16152
▁던전 -16153
▁동률 -16154
▁발열 -16155
▁신궁 -16156
▁첫날 -16157
▁출정 -16158
▁치밀 -16159
▁이지스 -16160
▁군림 -16161
▁민선 -16162
▁사일 -16163
▁승선 -16164
▁에픽 -16165
▁천태 -16166
▁최순 -16167
▁표어 -16168
▁흉내 -16169
▁다행히 -16170
▁미요시 -16171
▁민의원 -16172
▁방법론 -16173
▁유물론 -16174
▁태양광 -16175
레븐 -16176
▁겨냥 -16177
▁레반 -16178
▁열기 -16179
▁워낙 -16180
▁준하 -16181
▁청중 -16182
▁후난 -16183
▁기네스 -16184
▁디렉터 -16185
▁메신저 -16186
▁붉은색 -16187
▁쌍방울 -16188
▁와이어 -16189
▁가변 -16190
▁국산 -16191
▁기일 -16192
▁베아 -16193
▁전과 -16194
▁제헌 -16195
▁Mag -16196
▁부천시 -16197
▁블러드 -16198
▁알베르 -16199
▁전망대 -16200
ology -16201
▁레오나르 -16202
▁모노이드 -16203
▁선거인단 -16204
▁셀레우코스 -16205
▁둠 -16206
라과 -16207
락부 -16208
▁강구 -16209
▁군위 -16210
▁김장 -16211
▁노골 -16212
▁브이 -16213
▁사옥 -16214
▁수화 -16215
▁장승 -16216
▁폭주 -16217
▁동일시 -16218
▁방문객 -16219
▁범어사 -16220
▁불거지 -16221
▁최진실 -16222
▁클라인 -16223
▁이마가와 -16224
덱스 -16225
▁궁수 -16226
▁도식 -16227
▁지회 -16228
▁카노 -16229
▁캔터 -16230
▁키치 -16231
▁나카노 -16232
▁사법부 -16233
▁시나노 -16234
▁지배하 -16235
▁지포스 -16236
ature -16237
▁리하르트 -16238
▁갸 -16239
심원 -16240
▁결투 -16241
▁누에 -16242
▁성부 -16243
▁유재 -16244
▁출항 -16245
▁통킹 -16246
▁풋살 -16247
inal -16248
▁마거릿 -16249
▁신안군 -16250
▁체육회 -16251
▁혈액형 -16252
▁흘러가 -16253
노스아이 -16254
▁Baby -16255
▁안티오키아 -16256
노스아이레스 -16257
▁부에노스아이레스 -16258
빨리 -16259
의금 -16260
enn -16261
▁OK -16262
▁SG -16263
▁다채 -16264
▁비고 -16265
▁생포 -16266
▁악의 -16267
▁어인 -16268
▁연어 -16269
▁오랑 -16270
▁주스 -16271
▁카불 -16272
▁피시 -16273
▁하세 -16274
▁핼리 -16275
▁효모 -16276
▁광주시 -16277
▁디나모 -16278
▁브루크 -16279
▁돼지고기 -16280
▁서귀포시 -16281
TN -16282
파니 -16283
▁도보 -16284
▁박동 -16285
▁캡틴 -16286
▁탄광 -16287
▁효성 -16288
코비치 -16289
▁365 -16290
▁감마선 -16291
▁리그전 -16292
▁베테랑 -16293
▁어드밴 -16294
▁이치로 -16295
▁인문학 -16296
▁게오르기 -16297
▁트로츠키 -16298
▁씬 -16299
남동 -16300
▁공훈 -16301
▁나날 -16302
▁로만 -16303
▁수선 -16304
▁장론 -16305
▁책정 -16306
▁출병 -16307
▁호박 -16308
피에르 -16309
▁김종직 -16310
▁요시카 -16311
▁작아지 -16312
▁주세페 -16313
▁에두아르 -16314
마니 -16315
백색 -16316
오드 -16317
월드 -16318
▁PH -16319
▁경산 -16320
▁고관 -16321
▁리라 -16322
▁매튜 -16323
▁변조 -16324
▁비방 -16325
▁세도 -16326
▁야만 -16327
▁호전 -16328
▁황하 -16329
▁급속도 -16330
▁부사장 -16331
▁아열대 -16332
▁포인터 -16333
▁한정판 -16334
▁해수면 -16335
▁니카라과 -16336
▁라이온스 -16337
▁프레더릭 -16338
FS -16339
득점 -16340
민정 -16341
▁사계 -16342
▁서곡 -16343
▁습도 -16344
▁전극 -16345
▁직각 -16346
▁하츠 -16347
말라야 -16348
▁다카시 -16349
▁두더지 -16350
▁리카르 -16351
▁스트라 -16352
▁프린터 -16353
▁필리스 -16354
질량 -16355
▁SW -16356
▁대소 -16357
▁듀엣 -16358
▁라테 -16359
▁미끄 -16360
▁에뮬 -16361
▁창씨 -16362
▁합장 -16363
▁Res -16364
▁강릉시 -16365
▁스펜서 -16366
▁Amer -16367
▁System -16368
24 -16369
금속 -16370
나비 -16371
무실 -16372
app -16373
▁가령 -16374
▁공지 -16375
▁명장 -16376
▁명중 -16377
▁무쓰 -16378
▁베라 -16379
▁북송 -16380
▁시편 -16381
▁에든 -16382
▁월경 -16383
▁잔치 -16384
▁재심 -16385
▁동북부 -16386
▁만주족 -16387
▁에든버러 -16388
za -16389
메랄 -16390
▁갑오 -16391
▁격침 -16392
▁공평 -16393
▁도량 -16394
▁불길 -16395
▁성찬 -16396
▁약수 -16397
▁옵티 -16398
▁유익 -16399
▁장서 -16400
▁증류 -16401
▁춘향 -16402
▁해머 -16403
▁흑색 -16404
이즈미 -16405
▁207 -16406
▁농민군 -16407
▁라이드 -16408
▁야행성 -16409
▁타일러 -16410
▁서대문구 -16411
로프로세서 -16412
▁마이크로프로세서 -16413
입자 -16414
현실 -16415
▁Cr -16416
▁개리 -16417
▁개축 -16418
▁고취 -16419
▁깁슨 -16420
▁도난 -16421
▁봉헌 -16422
▁비이 -16423
▁살레 -16424
▁설과 -16425
▁에인 -16426
▁학도 -16427
▁거듭나 -16428
▁대학살 -16429
▁무정부 -16430
▁유공자 -16431
▁이유로 -16432
▁로베르트 -16433
▁뿜 -16434
시카 -16435
즈미 -16436
컨드 -16437
ina -16438
▁Dr -16439
▁김은 -16440
▁레르 -16441
▁롤리 -16442
▁만물 -16443
▁양위 -16444
▁외가 -16445
▁윈드 -16446
▁유감 -16447
▁조너 -16448
▁트롤 -16449
▁틈타 -16450
▁알레산 -16451
▁히말라야 -16452
▁아르바이트 -16453
광사 -16454
▁리서 -16455
▁모잠 -16456
▁스틱 -16457
▁신안 -16458
▁장차 -16459
▁필로 -16460
▁한라 -16461
ater -16462
▁Dis -16463
▁시아파 -16464
▁전동기 -16465
▁조합원 -16466
▁트랜싯 -16467
▁모잠비크 -16468
▁낸 -16469
▁격화 -16470
▁기주 -16471
▁소켓 -16472
▁아약 -16473
▁알마 -16474
▁특위 -16475
▁TOP -16476
▁국무부 -16477
▁압둘라 -16478
▁지방도 -16479
▁페레스 -16480
▁1815 -16481
▁1820 -16482
▁리얼리티 -16483
▁오스트로 -16484
▁레닌그라드 -16485
▁폴리네시아 -16486
자유 -16487
ons -16488
▁결렬 -16489
▁마초 -16490
▁조엘 -16491
▁청군 -16492
▁퇴계 -16493
▁한꺼 -16494
▁ㅇㅏㄴ -16495
▁한꺼번에 -16496
갱이 -16497
니츠 -16498
▁결단 -16499
▁결집 -16500
▁담장 -16501
▁본진 -16502
▁선서 -16503
▁성내 -16504
▁소마 -16505
▁솔직 -16506
▁천리 -16507
▁친히 -16508
▁특혜 -16509
▁War -16510
▁Way -16511
▁그리드 -16512
▁세컨드 -16513
▁오징어 -16514
▁일제히 -16515
▁제노바 -16516
▁조병옥 -16517
▁태극기 -16518
▁마쓰모토 -16519
▁유럽연합 -16520
▁프로방스 -16521
▁'- -16522
▁김석 -16523
▁노총 -16524
▁녹말 -16525
▁맞닿 -16526
▁미추 -16527
▁지반 -16528
▁직류 -16529
▁콘셉 -16530
▁탈리 -16531
▁허들 -16532
▁형광 -16533
▁생김새 -16534
▁정몽주 -16535
▁혁명가 -16536
▁Cent -16537
▁이오니아 -16538
▁둑 -16539
실험 -16540
▁공보 -16541
▁당사 -16542
▁더빙 -16543
▁마취 -16544
▁미완 -16545
▁배지 -16546
▁서역 -16547
▁완산 -16548
▁음역 -16549
▁쟁점 -16550
▁피쳐 -16551
▁도나우 -16552
▁후베이 -16553
가요 -16554
거루 -16555
당류 -16556
스테 -16557
쓰네 -16558
차리 -16559
토바 -16560
▁고택 -16561
▁굳이 -16562
▁담그 -16563
▁베컴 -16564
▁실태 -16565
▁으뜸 -16566
▁총수 -16567
▁화교 -16568
스티안 -16569
▁Mac -16570
▁모델링 -16571
▁아약스 -16572
▁트럼펫 -16573
▁캔자스시티 -16574
적분 -16575
테일 -16576
▁로제 -16577
▁발췌 -16578
▁벅스 -16579
▁산마 -16580
▁자막 -16581
▁코넬 -16582
▁쿠사 -16583
▁태상 -16584
▁하카 -16585
▁알베르트 -16586
▁이리하여 -16587
▁카롤루스 -16588
▁필하모닉 -16589
가라 -16590
▁그간 -16591
▁기교 -16592
▁데니 -16593
▁아토 -16594
▁융기 -16595
▁정현 -16596
▁조나 -16597
▁Tra -16598
▁USA -16599
▁목포시 -16600
▁신익희 -16601
▁연금술 -16602
▁막시밀리안 -16603
▁알렉산드라 -16604
러기 -16605
▁RA -16606
▁격상 -16607
▁낙태 -16608
▁도표 -16609
▁만수 -16610
▁본능 -16611
▁새해 -16612
▁수훈 -16613
▁슐레 -16614
▁이구 -16615
▁전란 -16616
▁종단 -16617
▁테살 -16618
ange -16619
ions -16620
▁노트북 -16621
▁프렌즈 -16622
▁피드백 -16623
▁1858 -16624
▁Type -16625
▁귤 -16626
비츠 -16627
▁상해 -16628
▁술집 -16629
▁양분 -16630
▁죄인 -16631
▁지뢰 -16632
▁징후 -16633
▁헬로 -16634
▁아드리 -16635
▁직할시 -16636
▁파블로 -16637
▁폼페이우스 -16638
▁앳 -16639
동리 -16640
코인 -16641
▁달마 -16642
▁동티 -16643
▁디펜 -16644
▁세실 -16645
▁소탕 -16646
▁수강 -16647
▁음양 -16648
▁이삭 -16649
▁인노 -16650
▁ㄱㅔㅅ -16651
▁가디언 -16652
▁넘어지 -16653
▁노무라 -16654
▁도치기 -16655
▁봉수대 -16656
▁일진회 -16657
▁크레타 -16658
▁학생회 -16659
▁고고학자 -16660
▁class -16661
운전 -16662
▁FS -16663
▁갈비 -16664
▁굴욕 -16665
▁기형 -16666
▁아핀 -16667
▁안재 -16668
▁용접 -16669
▁헤지 -16670
어들이 -16671
▁마피아 -16672
▁액티브 -16673
▁오나라 -16674
▁보호구역 -16675
▁동아프리카 -16676
▁써 -16677
▁"' -16678
▁공해 -16679
▁대정 -16680
▁매질 -16681
▁사보 -16682
▁엠마 -16683
▁장택 -16684
▁좌랑 -16685
▁퀘이 -16686
▁펜스 -16687
가하라 -16688
지먼트 -16689
▁라쿠텐 -16690
▁연습생 -16691
▁조너선 -16692
▁type -16693
▁맞배지붕 -16694
▁무궁화호 -16695
▁매니지먼트 -16696
▁소크라테스 -16697
ux -16698
랭크 -16699
ART -16700
ret -16701
▁결실 -16702
▁기민 -16703
▁남궁 -16704
▁농작 -16705
▁멘토 -16706
▁분담 -16707
▁성제 -16708
▁위배 -16709
▁정공 -16710
▁군산시 -16711
▁시게루 -16712
▁안티고 -16713
▁유성구 -16714
▁함부로 -16715
▁천연가스 -16716
기둥 -16717
라나 -16718
사랑 -16719
촌동 -16720
▁노화 -16721
▁이철 -16722
▁좌천 -16723
▁퍼플 -16724
▁포섭 -16725
▁푸틴 -16726
▁IEC -16727
▁Not -16728
▁날아오 -16729
▁마에다 -16730
▁스와프 -16731
▁중심핵 -16732
▁서프랑크 -16733
널목 -16734
▁로타 -16735
▁리츠 -16736
▁아말 -16737
▁영재 -16738
▁의왕 -16739
▁증직 -16740
▁진구 -16741
▁출루 -16742
▁토의 -16743
▁펠레 -16744
▁합산 -16745
▁Int -16746
▁건널목 -16747
▁미우라 -16748
▁선데이 -16749
▁티무르 -16750
▁패트리 -16751
▁항소심 -16752
▁High -16753
▁암모니아 -16754
▁챈 -16755
거성 -16756
재단 -16757
처럼 -16758
att -16759
▁군집 -16760
▁기근 -16761
▁바사 -16762
▁벨벳 -16763
▁보카 -16764
▁스팅 -16765
▁재주 -16766
▁전집 -16767
▁제법 -16768
▁콤비 -16769
▁헬렌 -16770
▁휴먼 -16771
▁WHO -16772
▁파출소 -16773
▁혁명군 -16774
▁플레이스 -16775
▁여러해살이풀 -16776
식스 -16777
▁경구 -16778
▁광서 -16779
▁급사 -16780
▁기욤 -16781
▁로어 -16782
▁만연 -16783
▁문성 -16784
▁미자 -16785
▁바하 -16786
▁부탄 -16787
▁소정 -16788
▁선언문 -16789
▁수번뇌 -16790
▁산업단지 -16791
▁알베르토 -16792
▁마틸 -16793
▁완주 -16794
▁원생 -16795
▁육박 -16796
▁총살 -16797
▁충고 -16798
▁쿠리 -16799
▁테드 -16800
▁토하 -16801
▁팬아 -16802
▁해내 -16803
▁분홍색 -16804
▁지팡이 -16805
▁취약점 -16806
▁플라자 -16807
▁1300 -16808
▁토스카나 -16809
▁밈 -16810
니코 -16811
전쟁 -16812
정제 -16813
▁군락 -16814
▁궁내 -16815
▁납품 -16816
▁당명 -16817
▁덕수 -16818
▁독실 -16819
▁마도 -16820
▁버거 -16821
▁시차 -16822
▁신관 -16823
▁영위 -16824
▁정과 -16825
▁주상 -16826
▁패드 -16827
▁깨달음 -16828
▁리포트 -16829
▁미시간 -16830
▁비올라 -16831
▁스레드 -16832
▁정확도 -16833
▁충주시 -16834
▁평의원 -16835
▁1814 -16836
마일 -16837
카라 -16838
ley -16839
▁EN -16840
▁고갈 -16841
▁규장 -16842
▁루지 -16843
▁석등 -16844
▁소치 -16845
▁스쿠 -16846
▁약학 -16847
▁유승 -16848
▁이덕 -16849
▁토드 -16850
▁프록 -16851
▁허구 -16852
▁LCK -16853
▁광화문 -16854
▁넘어오 -16855
▁전철역 -16856
▁평택시 -16857
▁플래그 -16858
▁샌드위치 -16859
▁알아차리 -16860
▁Google -16861
▁조선왕조실록 -16862
BN -16863
던스 -16864
▁간지 -16865
▁군비 -16866
▁레딧 -16867
▁모식 -16868
▁병인 -16869
▁수의 -16870
씨식물 -16871
▁MHz -16872
▁MLB -16873
▁겨울철 -16874
▁연구실 -16875
▁평상시 -16876
▁서아시아 -16877
싸움 -16878
전차 -16879
천국 -16880
회원 -16881
▁ED -16882
▁달래 -16883
▁말소 -16884
▁애매 -16885
▁앨버 -16886
▁올랭 -16887
▁우대 -16888
▁위태 -16889
▁풍수 -16890
▁헤임 -16891
▁효용 -16892
▁니스트 -16893
▁블루어 -16894
▁상대론 -16895
▁성북구 -16896
▁스타즈 -16897
▁적절히 -16898
▁지방관 -16899
▁하모니 -16900
살바도르 -16901
▁그래미상 -16902
▁석가여래 -16903
▁아틀레틱 -16904
▁페더레이션 -16905
▁윔 -16906
토쿠 -16907
▁Of -16908
▁Vf -16909
▁견지 -16910
▁고요 -16911
▁귀하 -16912
▁목화 -16913
▁미에 -16914
▁보궐 -16915
▁정여 -16916
▁지층 -16917
▁캐럴 -16918
▁튀기 -16919
▁핑계 -16920
▁혼돈 -16921
정보부 -16922
▁남조선 -16923
▁수도사 -16924
▁What -16925
ye -16926
▁쥘 -16927
▁니체 -16928
▁민권 -16929
▁보육 -16930
▁인대 -16931
▁제보 -16932
▁포진 -16933
▁헨드 -16934
▁홍천 -16935
▁흥덕 -16936
▁238 -16937
▁밀어내 -16938
▁주교좌 -16939
▁디렉터리 -16940
▁세키가하라 -16941
▁클라이맥스 -16942
데냐 -16943
림동 -16944
퍼트 -16945
yle -16946
▁모여 -16947
▁사악 -16948
▁아랑 -16949
▁열풍 -16950
▁정일 -16951
▁290 -16952
▁건너편 -16953
▁관찰자 -16954
▁다면체 -16955
▁1795 -16956
▁With -16957
▁갑신정변 -16958
▁사르데냐 -16959
▁자유민주 -16960
▁김세 -16961
▁라지 -16962
▁실크 -16963
▁우도 -16964
▁우이 -16965
▁윗면 -16966
▁장준 -16967
▁코지 -16968
▁키아 -16969
▁TBC -16970
▁국문학 -16971
▁막아내 -16972
▁다리우스 -16973
▁그리스도인 -16974
UI -16975
▁엎 -16976
▁켓 -16977
▁레미 -16978
▁민가 -16979
▁보훈 -16980
▁아난 -16981
▁암초 -16982
▁엠블 -16983
▁초당 -16984
▁공기업 -16985
▁대항해 -16986
▁맞대결 -16987
▁우승컵 -16988
▁통신부 -16989
▁헬싱키 -16990
▁부위원장 -16991
르모 -16992
팽이 -16993
ger -16994
▁MT -16995
▁도정 -16996
▁본초 -16997
▁비호 -16998
▁증원 -16999
▁켈빈 -17000
▁페데 -17001
▁고조선 -17002
▁성명서 -17003
▁원정군 -17004
▁초대칭 -17005
▁홉킨스 -17006
▁프로이트 -17007
라도 -17008
enc -17009
▁ㄲㅗ -17010
▁반야 -17011
▁수표 -17012
▁스톨 -17013
▁승전 -17014
▁얼터 -17015
▁에런 -17016
▁예일 -17017
▁우사 -17018
▁포교 -17019
학생회 -17020
▁로렌초 -17021
▁이회창 -17022
▁창업자 -17023
▁언어학자 -17024
▁그리스도교 -17025
▁렝 -17026
구멍 -17027
부미 -17028
▁견훤 -17029
▁도색 -17030
▁랜덤 -17031
▁비욘 -17032
▁열망 -17033
▁웰스 -17034
▁일람 -17035
▁트림 -17036
디우스 -17037
주니어 -17038
▁850 -17039
▁익산시 -17040
▁MPEG -17041
▁드레이크 -17042
▁총학생회 -17043
▁카테고리 -17044
▁키르기스스탄 -17045
레프 -17046
ING -17047
▁괴뢰 -17048
▁니나 -17049
▁독소 -17050
▁잊히 -17051
▁전액 -17052
▁토비 -17053
▁훈족 -17054
▁480 -17055
▁남반구 -17056
▁남해군 -17057
▁벤피카 -17058
▁커티스 -17059
▁마그네슘 -17060
▁자연주의 -17061
▁ㅁㅕㄴㅇㅡㄴ -17062
고나 -17063
▁Di -17064
▁NX -17065
▁개전 -17066
▁군국 -17067
▁로동 -17068
▁몬태 -17069
▁버시 -17070
▁세베 -17071
▁춤추 -17072
▁패퇴 -17073
▁필기 -17074
▁할양 -17075
네소스 -17076
▁Art -17077
▁모조리 -17078
▁빅토리 -17079
▁가나자와 -17080
▁아나키즘 -17081
▁COVID -17082
23 -17083
▁비어 -17084
▁숭실 -17085
▁심플 -17086
▁애쓰 -17087
▁종친 -17088
▁천정 -17089
▁모터쇼 -17090
▁에히메 -17091
▁진정하 -17092
▁합천군 -17093
▁수마트라 -17094
렁이 -17095
블린 -17096
alk -17097
▁kW -17098
▁광택 -17099
▁구석 -17100
▁묘법 -17101
▁브람 -17102
▁아픔 -17103
▁알렌 -17104
▁유원 -17105
▁율령 -17106
▁장항 -17107
▁정강 -17108
▁직함 -17109
지스터 -17110
ough -17111
▁Rev -17112
▁ㄷㅔㄴ -17113
▁노르트 -17114
▁보행자 -17115
▁아쿠아 -17116
▁알레르 -17117
▁윤리학 -17118
▁창덕궁 -17119
▁크라스 -17120
▁트루먼 -17121
의금부사 -17122
▁안드레이 -17123
▁크리스천 -17124
IO -17125
▁골수 -17126
▁구룡 -17127
▁기악 -17128
▁덩굴 -17129
▁매춘 -17130
▁소도 -17131
▁인신 -17132
▁장조 -17133
▁정병 -17134
▁주경 -17135
▁특례 -17136
▁페터 -17137
▁데포르 -17138
▁북반구 -17139
▁사이공 -17140
▁체스터 -17141
▁황태후 -17142
건적 -17143
OVE -17144
▁관대 -17145
▁대뇌 -17146
▁데메 -17147
▁미숙 -17148
▁박승 -17149
▁부녀 -17150
▁신구 -17151
▁웅진 -17152
▁월북 -17153
▁총액 -17154
▁223 -17155
▁여객선 -17156
▁유격대 -17157
▁페테르 -17158
▁요시아키 -17159
26 -17160
베인 -17161
재란 -17162
▁ㅅㅔ -17163
▁구자 -17164
▁남포 -17165
▁리저 -17166
▁미코 -17167
▁바일 -17168
▁보츠 -17169
▁서강 -17170
▁에린 -17171
▁윈터 -17172
▁이트 -17173
▁이형 -17174
▁천구 -17175
▁첨부 -17176
▁평신 -17177
연화경 -17178
플레잉 -17179
▁COM -17180
▁안데르 -17181
▁전기장 -17182
▁Blue -17183
▁갈릴레이 -17184
▁롤플레잉 -17185
▁브루나이 -17186
▁사탕수수 -17187
▁정유재란 -17188
▁트랜지스터 -17189
나물 -17190
▁ㅇㅠ -17191
▁교주 -17192
▁국과 -17193
▁돌핀 -17194
▁북상 -17195
▁브롱 -17196
▁선회 -17197
▁연유 -17198
▁오호 -17199
▁차분 -17200
다람쥐 -17201
▁737 -17202
▁보호관 -17203
▁아칸소 -17204
▁키워드 -17205
▁팩토리 -17206
▁1846 -17207
▁기념사업 -17208
▁하이웨이 -17209
▁중앙정보부 -17210
▁중앙아프리카 -17211
개혁 -17212
뉴스 -17213
▁갤러 -17214
▁더럽 -17215
▁본당 -17216
▁직권 -17217
▁체질 -17218
▁학급 -17219
시우스 -17220
웨스트 -17221
▁ㅇㅗㅂ -17222
▁문하시 -17223
▁보라색 -17224
▁산체스 -17225
▁수증기 -17226
▁스타인 -17227
▁이완용 -17228
▁충렬왕 -17229
▁테트라 -17230
▁time -17231
▁물리학상 -17232
▁비지니스 -17233
▁어드밴스 -17234
▁훅 -17235
que -17236
▁과부 -17237
▁국지 -17238
▁니콘 -17239
▁데쓰 -17240
▁머피 -17241
▁솔트 -17242
▁순정 -17243
▁팀장 -17244
▁등록금 -17245
▁아산시 -17246
▁제이스 -17247
▁타블로 -17248
▁평화상 -17249
▁1793 -17250
▁하시모토 -17251
▁줌 -17252
처리 -17253
패스 -17254
▁공덕 -17255
▁구토 -17256
▁낙타 -17257
▁루머 -17258
▁방조 -17259
▁범용 -17260
▁수렵 -17261
▁씨름 -17262
▁옥상 -17263
캐스트 -17264
▁농작물 -17265
▁시어터 -17266
▁입출력 -17267
▁중서부 -17268
▁추밀원 -17269
총리대신 -17270
▁오브젝트 -17271
▁아오모리현 -17272
▁내각총리대신 -17273
▁뱌 -17274
▁촘 -17275
래시 -17276
파스 -17277
der -17278
▁게일 -17279
▁급기 -17280
▁베버 -17281
▁부윤 -17282
▁역모 -17283
▁쿠릴 -17284
▁현충 -17285
비우스 -17286
슬라브 -17287
▁Min -17288
▁페인트 -17289
▁포스코 -17290
▁포위전 -17291
▁블레이드 -17292
▁에드먼드 -17293
▁시즈오카현 -17294
HD -17295
바람 -17296
ump -17297
▁ME -17298
▁각광 -17299
▁감탄 -17300
▁경이 -17301
▁논설 -17302
▁당분 -17303
▁마한 -17304
▁멜론 -17305
▁무당 -17306
▁존상 -17307
▁펀치 -17308
▁표결 -17309
▁해자 -17310
▁공직자 -17311
▁엉덩이 -17312
▁외무성 -17313
▁이베리아 -17314
▁히로부미 -17315
정권 -17316
▁간염 -17317
▁등대 -17318
▁손책 -17319
▁심근 -17320
▁이국 -17321
▁이효 -17322
▁페가 -17323
▁해일 -17324
▁휘트 -17325
▁214 -17326
▁가시마 -17327
▁넥스트 -17328
▁배수량 -17329
▁아테나 -17330
▁트리니다드 -17331
28 -17332
▁퓌 -17333
사회 -17334
▁경멸 -17335
▁만기 -17336
▁맛있 -17337
▁아민 -17338
▁와해 -17339
▁유시 -17340
▁추위 -17341
코스트 -17342
▁산둥성 -17343
▁손바닥 -17344
▁오비탈 -17345
▁1839 -17346
▁미성년자 -17347
▁상파울루 -17348
▁차량기지 -17349
고트 -17350
▁굶주 -17351
▁박준 -17352
▁브론 -17353
▁산불 -17354
▁상작 -17355
▁제식 -17356
▁퇴단 -17357
티우스 -17358
▁Top -17359
▁메이트 -17360
▁비행대 -17361
대성 -17362
메트 -17363
모자 -17364
섬유 -17365
후이 -17366
▁구인 -17367
▁박기 -17368
▁세탁 -17369
▁쇠약 -17370
▁엄정 -17371
▁파드 -17372
▁하순 -17373
▁구청장 -17374
▁국무원 -17375
▁대머리 -17376
▁변속기 -17377
▁조계종 -17378
▁진보당 -17379
▁하카타 -17380
▁1854 -17381
▁비트코인 -17382
▁데포르티보 -17383
▁간디 -17384
▁망루 -17385
▁바덴 -17386
▁볼륨 -17387
▁봉작 -17388
▁설사 -17389
▁야로 -17390
▁육아 -17391
▁칼레 -17392
▁코레 -17393
▁핵산 -17394
▁환기 -17395
▁후시 -17396
타니아 -17397
▁교토부 -17398
▁돌아서 -17399
▁안중근 -17400
▁재빨리 -17401
▁프리킥 -17402
베이거스 -17403
▁공화주의 -17404
▁초등학생 -17405
▁뚱 -17406
▁괴멸 -17407
▁몸집 -17408
▁불평 -17409
▁새턴 -17410
▁서보 -17411
▁석상 -17412
▁억류 -17413
▁우동 -17414
▁유장 -17415
▁이부 -17416
▁인출 -17417
▁제원 -17418
▁종주 -17419
▁참배 -17420
▁클루 -17421
▁후백 -17422
독립당 -17423
▁낙하산 -17424
▁바로잡 -17425
▁버나드 -17426
스트리트 -17427
ㄷㅡㄴㄱㅏ -17428
▁한국독립당 -17429
▁라스베이거스 -17430
▁꼼 -17431
▁걸맞 -17432
▁삼키 -17433
▁여과 -17434
▁윤원 -17435
▁인피 -17436
▁찬탈 -17437
▁하디 -17438
▁건국대 -17439
▁경비대 -17440
▁돗토리 -17441
▁크레이그 -17442
▁플로이드 -17443
▁돛 -17444
탐정 -17445
▁고압 -17446
▁메사 -17447
▁윤영 -17448
▁폰트 -17449
atch -17450
▁419 -17451
▁가입자 -17452
▁나가노 -17453
▁기독교인 -17454
86 -17455
호프 -17456
▁PP -17457
▁갑각 -17458
▁내수 -17459
▁상투 -17460
▁셔먼 -17461
▁시주 -17462
▁임베 -17463
▁한서 -17464
icro -17465
▁이브라 -17466
▁델라웨어 -17467
▁사보이아 -17468
▁여주인공 -17469
▁임베디드 -17470
▁네덜란드어 -17471
BT -17472
▁KC -17473
▁견습 -17474
▁교묘 -17475
▁교포 -17476
▁귀양 -17477
▁남로 -17478
▁단사 -17479
▁매월 -17480
▁미묘 -17481
▁반려 -17482
▁북해 -17483
▁분양 -17484
▁오딘 -17485
▁웨일 -17486
▁유폐 -17487
▁총체 -17488
▁기부금 -17489
▁레인보 -17490
▁베일리 -17491
▁북극해 -17492
▁상속인 -17493
▁증명서 -17494
▁1849 -17495
▁오하이오주 -17496
누아 -17497
▁김문 -17498
▁낙엽 -17499
▁만국 -17500
▁밀스 -17501
▁발단 -17502
▁알비 -17503
▁잠들 -17504
▁존엄 -17505
▁화북 -17506
직할시 -17507
트로피 -17508
프랑스 -17509
▁LCD -17510
▁1856 -17511
▁반공주의 -17512
▁럴 -17513
재기 -17514
▁간장 -17515
▁배설 -17516
▁생가 -17517
▁오기 -17518
▁원성 -17519
▁적성 -17520
▁교직원 -17521
▁식물원 -17522
▁특이점 -17523
▁핵폭탄 -17524
▁1851 -17525
OU -17526
니엄 -17527
오린 -17528
▁계투 -17529
▁라몬 -17530
▁라티 -17531
▁분쇄 -17532
▁분장 -17533
▁상체 -17534
▁센스 -17535
▁시경 -17536
▁신작 -17537
▁어이 -17538
▁요아 -17539
▁장령 -17540
▁철원 -17541
▁페드 -17542
▁현령 -17543
▁211 -17544
▁430 -17545
▁보나파 -17546
▁보르도 -17547
▁에리크 -17548
▁에밀리 -17549
▁장택상 -17550
▁최하위 -17551
▁후임자 -17552
▁올랭피크 -17553
▁보나파르트 -17554
▁깡 -17555
깨비 -17556
천년 -17557
호르 -17558
▁DL -17559
▁성추 -17560
▁수류 -17561
▁수서 -17562
▁욕설 -17563
▁치중 -17564
▁FBI -17565
▁가파르 -17566
▁명명법 -17567
▁저작물 -17568
▁지평선 -17569
▁스탠퍼드 -17570
▁크리에이티브 -17571
우어 -17572
일라 -17573
하늘 -17574
oup -17575
▁IA -17576
▁TG -17577
▁매번 -17578
▁미모 -17579
▁박격 -17580
▁변방 -17581
▁본디 -17582
▁비크 -17583
▁여생 -17584
▁웅장 -17585
▁이견 -17586
▁촌은 -17587
▁카잔 -17588
쿠스틱 -17589
▁301 -17590
▁Med -17591
▁글리코 -17592
▁시공간 -17593
▁1855 -17594
▁Beat -17595
▁어쿠스틱 -17596
29 -17597
봉사 -17598
케스 -17599
▁계란 -17600
▁도독 -17601
▁서상 -17602
▁예속 -17603
▁적재 -17604
▁히나 -17605
cess -17606
▁가속기 -17607
▁베드로 -17608
▁절대로 -17609
▁테이크 -17610
▁파트리 -17611
▁펠로폰 -17612
▁하동군 -17613
▁정사각형 -17614
▁캐나다인 -17615
▁펠로폰네소스 -17616
▁넉 -17617
담회 -17618
연료 -17619
전기 -17620
체어 -17621
쿠젠 -17622
하르 -17623
ery -17624
▁디온 -17625
▁모기 -17626
▁버퍼 -17627
▁서천 -17628
▁쇼팽 -17629
▁악역 -17630
▁연임 -17631
▁음경 -17632
▁이안 -17633
▁조력 -17634
▁지소 -17635
▁치수 -17636
▁수산물 -17637
▁시부야 -17638
▁은하단 -17639
▁참모장 -17640
▁캥거루 -17641
▁해럴드 -17642
▁핵실험 -17643
메니스탄 -17644
▁1857 -17645
▁Free -17646
▁투르크메니스탄 -17647
버드 -17648
▁결탁 -17649
▁민생 -17650
▁성간 -17651
▁잠복 -17652
▁정시 -17653
▁체첸 -17654
▁톨킨 -17655
▁다이나 -17656
▁애벌레 -17657
▁청교도 -17658
▁카운터 -17659
타고라스 -17660
▁노동자당 -17661
▁다이스케 -17662
▁이와테현 -17663
레토 -17664
버거 -17665
산읍 -17666
▁CL -17667
▁단성 -17668
▁벚꽃 -17669
▁보문 -17670
▁열반 -17671
▁주치 -17672
▁공사관 -17673
▁구석기 -17674
▁작사가 -17675
▁찬드라 -17676
▁황도대 -17677
▁폴란드인 -17678
쇼프 -17679
왕국 -17680
▁ER -17681
▁광경 -17682
▁덧셈 -17683
▁명주 -17684
▁소란 -17685
▁오닐 -17686
▁외동 -17687
▁추궁 -17688
▁페티 -17689
▁해금 -17690
고양이 -17691
제르맹 -17692
콥스키 -17693
▁서북쪽 -17694
▁포천시 -17695
츠부르크 -17696
▁소용돌이 -17697
▁스티븐스 -17698
▁태평천국 -17699
▁프란시스 -17700
27 -17701
▁좡 -17702
댄스 -17703
카테 -17704
▁내구 -17705
▁담론 -17706
▁소홀 -17707
▁수배 -17708
▁실로 -17709
▁위니 -17710
▁캔디 -17711
들랜드 -17712
▁루터교 -17713
▁베르디 -17714
▁수수료 -17715
▁휠체어 -17716
▁스포르팅 -17717
▁엔트로피 -17718
▁병마절도사 -17719
▁통합진보당 -17720
흐트 -17721
▁YM -17722
▁경색 -17723
▁벽면 -17724
▁비참 -17725
▁사흘 -17726
▁성년 -17727
▁수스 -17728
▁언약 -17729
▁유품 -17730
▁정년 -17731
루리아 -17732
▁ㄷㅏㄴ -17733
▁감염자 -17734
▁기념식 -17735
▁동의어 -17736
▁지난해 -17737
▁포브스 -17738
▁항구역 -17739
▁힉 -17740
연대 -17741
지대 -17742
▁깜짝 -17743
▁대광 -17744
▁대세 -17745
▁셀룰 -17746
▁아모 -17747
▁택지 -17748
▁구미시 -17749
▁그로스 -17750
▁마인드 -17751
▁병원체 -17752
▁형무소 -17753
▁생제르맹 -17754
▁민족주의자 -17755
▁CT -17756
▁고증 -17757
▁낙랑 -17758
▁사죄 -17759
▁슈바 -17760
▁실습 -17761
▁외벽 -17762
▁인테 -17763
▁태세 -17764
▁픽션 -17765
▁헤엄 -17766
▁현생 -17767
시오날 -17768
▁NAD -17769
▁갖가지 -17770
▁시우바 -17771
▁일간지 -17772
▁출생지 -17773
▁나시오날 -17774
서구 -17775
ont -17776
▁이학 -17777
▁중첩 -17778
▁착안 -17779
▁항모 -17780
▁나주시 -17781
▁노스케 -17782
▁대각선 -17783
▁대주주 -17784
▁마그마 -17785
▁봉사자 -17786
▁샘플링 -17787
▁헤이스 -17788
▁이해관계 -17789
▁니즘 -17790
▁대흥 -17791
▁변장 -17792
▁소망 -17793
▁신영 -17794
▁압송 -17795
▁율곡 -17796
▁지병 -17797
▁팔자 -17798
▁XML -17799
▁보니파 -17800
▁투데이 -17801
▁팰리스 -17802
▁행정관 -17803
ma -17804
가야 -17805
니크 -17806
테른 -17807
▁뇌졸 -17808
▁명지 -17809
▁방수 -17810
▁심슨 -17811
▁역행 -17812
▁크세 -17813
궐선거 -17814
▁달라이 -17815
▁베르그 -17816
▁새천년 -17817
▁수송기 -17818
▁시흥시 -17819
▁아가씨 -17820
▁어리석 -17821
▁청구인 -17822
▁컨디션 -17823
▁해설자 -17824
▁Will -17825
▁마음대로 -17826
▁미주리주 -17827
▁사카모토 -17828
▁그레고리력 -17829
▁재보궐선거 -17830
마타 -17831
day -17832
▁HK -17833
▁국면 -17834
▁기물 -17835
▁노회 -17836
▁본기 -17837
▁성채 -17838
▁역습 -17839
▁연천 -17840
▁윤선 -17841
▁조식 -17842
▁친목 -17843
▁카렐 -17844
▁타오 -17845
▁퇴사 -17846
노벨라 -17847
▁233 -17848
▁Pop -17849
▁메이플 -17850
▁스나이 -17851
▁이범석 -17852
▁1776 -17853
▁무라카미 -17854
▁플루오린 -17855
▁텔레노벨라 -17856
광선 -17857
스탕 -17858
▁교복 -17859
▁국채 -17860
▁권세 -17861
▁랜디 -17862
▁분개 -17863
▁서드 -17864
▁셰이 -17865
▁요네 -17866
▁음소 -17867
▁제학 -17868
▁포구 -17869
▁현청 -17870
▁바이스 -17871
▁비엔나 -17872
▁상세히 -17873
▁오카다 -17874
▁올라서 -17875
▁하이든 -17876
로아 -17877
모습 -17878
하스 -17879
▁ne -17880
▁단호 -17881
▁만리 -17882
▁사성 -17883
▁음란 -17884
▁칸타 -17885
▁Bro -17886
▁서기장 -17887
▁시설물 -17888
▁크리켓 -17889
를린 -17890
버섯 -17891
소득 -17892
▁Po -17893
▁급습 -17894
▁누락 -17895
▁마고 -17896
▁무왕 -17897
▁버즈 -17898
▁서던 -17899
▁원제 -17900
▁장구 -17901
▁회부 -17902
메데스 -17903
▁배트맨 -17904
▁성추행 -17905
▁집어넣 -17906
▁프로파 -17907
▁하이델 -17908
▁10000 -17909
바꿈 -17910
증권 -17911
행사 -17912
▁FX -17913
▁거액 -17914
▁괴팅 -17915
▁로로 -17916
▁몬트 -17917
▁반열 -17918
▁부총 -17919
▁오도 -17920
▁원가 -17921
▁이로 -17922
▁읽히 -17923
▁찬스 -17924
▁코민 -17925
▁탄원 -17926
▁파사 -17927
▁퓨전 -17928
▁현명 -17929
▁모티프 -17930
▁영산회 -17931
볼트 -17932
슐린 -17933
페리 -17934
▁BR -17935
▁가메 -17936
▁땅콩 -17937
▁방한 -17938
▁빌미 -17939
▁산탄 -17940
▁신명 -17941
▁알론 -17942
▁연좌 -17943
▁와트 -17944
▁이연 -17945
▁직제 -17946
▁진안 -17947
▁친절 -17948
▁김종필 -17949
▁늘어지 -17950
▁독립국 -17951
▁레너드 -17952
▁사모아 -17953
▁유니온 -17954
▁포위망 -17955
▁레오나르도 -17956
▁묘법연화경 -17957
▁캄파니아주 -17958
▁뺏 -17959
▁MW -17960
▁간파 -17961
▁과업 -17962
▁김한 -17963
▁로젠 -17964
▁발송 -17965
▁상시 -17966
▁시왕 -17967
▁윤석 -17968
▁케니 -17969
▁타현 -17970
▁픽업 -17971
더니즘 -17972
▁End -17973
▁심포니 -17974
▁아세트 -17975
▁웨이트 -17976
▁포레스트 -17977
고도 -17978
평가 -17979
▁교우 -17980
▁누각 -17981
▁대적 -17982
▁살림 -17983
▁준위 -17984
▁클론 -17985
▁합체 -17986
덜랜드 -17987
▁del -17988
▁거제시 -17989
▁리서치 -17990
▁베리아 -17991
▁비정규 -17992
▁코미디언 -17993
▁네브래스카 -17994
BL -17995
투안 -17996
활성 -17997
▁TN -17998
▁골목 -17999
▁금광 -18000
▁까다 -18001
▁노미 -18002
▁최경 -18003
▁쿠키 -18004
▁한참 -18005
레시브 -18006
▁510 -18007
▁ㅇㅓㅇ -18008
▁동북쪽 -18009
▁레이어 -18010
▁미시간주 -18011
▁프로그레시브 -18012
▁JP -18013
▁각별 -18014
▁독감 -18015
▁로미 -18016
▁미망 -18017
▁발주 -18018
▁수잔 -18019
▁이공 -18020
▁청화 -18021
▁템포 -18022
▁화신 -18023
메네스 -18024
irst -18025
▁set -18026
▁에인절 -18027
▁클라라 -18028
▁서스펜션 -18029
▁조기어류 -18030
▁프로토타입 -18031
▁언더그라운드 -18032
계리 -18033
급시 -18034
저민 -18035
▁간소 -18036
▁도핑 -18037
▁미안 -18038
▁비비 -18039
▁생사 -18040
▁심신 -18041
▁아속 -18042
▁입안 -18043
▁장타 -18044
▁정철 -18045
▁퇴화 -18046
▁파격 -18047
▁하쿠 -18048
▁호가 -18049
▁벤저민 -18050
▁엑스선 -18051
▁타고나 -18052
▁가까스로 -18053
HS -18054
▁나나 -18055
▁대열 -18056
▁라비 -18057
▁명절 -18058
▁미움 -18059
▁반일 -18060
▁사극 -18061
▁상피 -18062
▁위드 -18063
▁유즈 -18064
▁지단 -18065
▁청탁 -18066
▁포탈 -18067
중국해 -18068
▁239 -18069
▁모여들 -18070
▁변증법 -18071
▁브레인 -18072
▁생태학 -18073
▁어지럽 -18074
▁알레르기 -18075
▁뿌 -18076
aut -18077
its -18078
▁SI -18079
▁공녀 -18080
▁마마 -18081
▁창안 -18082
▁홀드 -18083
▁화전 -18084
▁굳어지 -18085
▁부활절 -18086
▁서로마 -18087
▁아틀라스 -18088
▁캔터베리 -18089
EX -18090
ㅔㄴ -18091
▁CV -18092
▁다의 -18093
▁린드 -18094
▁몰입 -18095
▁밑면 -18096
▁서훈 -18097
▁시로 -18098
▁전갈 -18099
▁콘월 -18100
▁포에 -18101
▁히다 -18102
▁Big -18103
▁목걸이 -18104
▁뽑아내 -18105
br -18106
미치 -18107
▁귀납 -18108
▁까치 -18109
▁대양 -18110
▁로자 -18111
▁루아 -18112
▁시료 -18113
▁양손 -18114
▁에나 -18115
▁영연 -18116
▁우메 -18117
▁장보 -18118
▁정약 -18119
▁호엔 -18120
핵생물 -18121
▁BMW -18122
▁계약서 -18123
▁논산시 -18124
▁단기간 -18125
▁모자라 -18126
▁버밍엄 -18127
▁서남쪽 -18128
▁원내대표 -18129
▁begin -18130
노동 -18131
빼미 -18132
이인 -18133
▁WH -18134
▁경치 -18135
▁듀크 -18136
▁문교 -18137
▁배영 -18138
▁서킷 -18139
▁선하 -18140
▁세브 -18141
▁액수 -18142
▁재원 -18143
▁질리 -18144
▁한방 -18145
▁215 -18146
▁문화사 -18147
▁사중주 -18148
▁수메르 -18149
▁특공대 -18150
▁Rain -18151
개명 -18152
개발 -18153
워키 -18154
▁노먼 -18155
▁도고 -18156
▁부원 -18157
▁살상 -18158
▁우랄 -18159
▁접착 -18160
▁정파 -18161
▁총알 -18162
▁Des -18163
▁레일리 -18164
▁목격자 -18165
▁파이브 -18166
▁핵연료 -18167
▁호위함 -18168
▁LIVE -18169
▁피에트로 -18170
보스 -18171
▁경수 -18172
▁듯이 -18173
▁레베 -18174
▁방과 -18175
▁원화 -18176
▁황보 -18177
▁미술가 -18178
▁퀘스트 -18179
▁계몽주의 -18180
▁플레이트 -18181
삼문 -18182
코바 -18183
▁개간 -18184
▁도금 -18185
▁미팅 -18186
▁상권 -18187
▁실화 -18188
▁양력 -18189
▁제향 -18190
▁질레 -18191
▁천명 -18192
▁혹독 -18193
▁DFB -18194
▁가로막 -18195
▁권력자 -18196
▁치우치 -18197
▁퍼펙트 -18198
▁랏 -18199
▁젬 -18200
가키 -18201
경궁 -18202
도서 -18203
▁금화 -18204
▁신재 -18205
▁아그 -18206
▁예천 -18207
▁유루 -18208
▁은둔 -18209
▁종택 -18210
▁주둥 -18211
▁촌락 -18212
▁튀르 -18213
▁틈새 -18214
▁평년 -18215
▁한도 -18216
▁ㅇㅜㅁ -18217
▁무인역 -18218
▁사생아 -18219
▁월리스 -18220
▁전년도 -18221
▁표준어 -18222
▁프리랜 -18223
▁1792 -18224
▁void -18225
▁도네츠크 -18226
▁랜드마크 -18227
be -18228
oss -18229
▁구급 -18230
▁낭독 -18231
▁도기 -18232
▁루소 -18233
▁메콩 -18234
▁바크 -18235
▁세관 -18236
▁숙성 -18237
▁스커 -18238
▁시암 -18239
▁언젠 -18240
▁오쓰 -18241
▁우문 -18242
▁유실 -18243
▁함안 -18244
파트라 -18245
▁과선교 -18246
▁출연진 -18247
▁천주교회 -18248
▁크래프트 -18249
▁클레오파트라 -18250
그림 -18251
▁근연 -18252
▁덤불 -18253
▁매드 -18254
▁산토 -18255
▁영세 -18256
▁요세 -18257
▁판별 -18258
▁홍백 -18259
메이트 -18260
▁기장군 -18261
▁빠뜨리 -18262
▁언젠가 -18263
▁영등포 -18264
▁요리사 -18265
▁중생대 -18266
ement -18267
▁소선거구 -18268
▁슈퍼주니어 -18269
▁엘살바도르 -18270
니발 -18271
aff -18272
▁ㄴㅜ -18273
▁가인 -18274
▁가평 -18275
▁관서 -18276
▁모후 -18277
▁북제 -18278
▁비슈 -18279
▁사구 -18280
▁서하 -18281
▁열광 -18282
▁위아 -18283
▁체임 -18284
▁코다 -18285
▁패주 -18286
▁포즈 -18287
▁212 -18288
▁무안군 -18289
▁세일러 -18290
▁아르카 -18291
▁양서류 -18292
▁프레디 -18293
▁카리브해 -18294
▁Hello -18295
▁잣 -18296
루이 -18297
▁ㅅㅜ -18298
▁감명 -18299
▁난간 -18300
▁마자 -18301
▁박중 -18302
▁시구 -18303
▁시판 -18304
▁실드 -18305
▁영아 -18306
▁절멸 -18307
▁카쿠 -18308
▁티르 -18309
너티브 -18310
▁게이머 -18311
▁릴리스 -18312
▁분화구 -18313
▁살아나 -18314
▁1791 -18315
▁1853 -18316
▁시트르산 -18317
▁창씨개명 -18318
▁얼터너티브 -18319
막염 -18320
타라 -18321
▁do -18322
▁구면 -18323
▁내쫓 -18324
▁다라 -18325
▁메트 -18326
▁요트 -18327
▁입적 -18328
▁장영 -18329
▁최북 -18330
▁탄환 -18331
▁까다롭 -18332
▁따돌리 -18333
▁쓰임새 -18334
▁동대문구 -18335
▁인테리어 -18336
▁퓰 -18337
얼빈 -18338
vis -18339
▁FN -18340
▁RD -18341
▁국고 -18342
▁독신 -18343
▁박인 -18344
▁셰프 -18345
▁수난 -18346
▁수첩 -18347
▁시동 -18348
▁이계 -18349
▁향리 -18350
즐랜드 -18351
▁계약금 -18352
▁꽃받침 -18353
▁다각형 -18354
▁다다르 -18355
▁밀워키 -18356
▁보호자 -18357
▁1852 -18358
▁Show -18359
▁속씨식물 -18360
▁퍼레이드 -18361
팔렌 -18362
▁고타 -18363
▁동복 -18364
▁수전 -18365
▁아쓰 -18366
▁안상 -18367
▁캄포 -18368
▁표상 -18369
▁레프트 -18370
▁브람스 -18371
▁앵글로 -18372
▁외삼촌 -18373
▁Road -18374
▁옵티머스 -18375
▁퀸즐랜드 -18376
▁찻 -18377
노헤 -18378
바타 -18379
서면 -18380
타바 -18381
▁관사 -18382
▁나팔 -18383
▁녀석 -18384
▁노던 -18385
▁밥상 -18386
▁비츠 -18387
▁색인 -18388
▁어필 -18389
▁정구 -18390
▁정량 -18391
▁초중 -18392
▁최재 -18393
▁케스 -18394
▁플뢰 -18395
▁회중 -18396
컨트리 -18397
▁급기야 -18398
▁성동구 -18399
▁음악회 -18400
▁권위주의 -18401
ㄷㅡㄴㅈㅣ -18402
IDS -18403
▁EF -18404
▁만다 -18405
▁매너 -18406
▁유위 -18407
▁잠그 -18408
▁조참 -18409
▁게이초 -18410
▁경기력 -18411
▁후반부 -18412
▁LOVE -18413
▁모하메드 -18414
▁클라리넷 -18415
▁프라이스 -18416
▁크로스컨트리 -18417
▁귀향 -18418
▁노년 -18419
▁버블 -18420
▁벨레 -18421
▁슬럼 -18422
▁식료 -18423
▁에타 -18424
▁외화 -18425
▁우쓰 -18426
▁으로 -18427
▁차가 -18428
▁최치 -18429
▁해동 -18430
▁옹진군 -18431
▁이베이 -18432
▁인슐린 -18433
▁국민회의 -18434
▁다운타운 -18435
▁레인보우 -18436
▁필리포스 -18437
▁롬바르디아 -18438
WS -18439
야구 -18440
지않 -18441
하워 -18442
▁OC -18443
▁계파 -18444
▁구보 -18445
▁기노 -18446
▁망상 -18447
▁면접 -18448
▁미신 -18449
▁버락 -18450
▁불황 -18451
▁실황 -18452
▁연작 -18453
▁윤상 -18454
▁자락 -18455
▁착오 -18456
▁쿠페 -18457
▁포리 -18458
▁부제학 -18459
▁세례명 -18460
▁최적화 -18461
▁퍼뜨리 -18462
▁Sing -18463
▁도쿠시마 -18464
▁사회단체 -18465
▁Sound -18466
▁아이젠하워 -18467
▁히로시마현 -18468
▁옅 -18469
▁젓 -18470
에어 -18471
ech -18472
▁가봉 -18473
▁국물 -18474
▁김호 -18475
▁냉동 -18476
▁라벤 -18477
▁보두 -18478
▁부름 -18479
▁약정 -18480
▁영해 -18481
▁장터 -18482
▁히브 -18483
자위대 -18484
▁동식물 -18485
▁비스트 -18486
▁이스턴 -18487
▁잎자루 -18488
▁플랜트 -18489
▁루키우스 -18490
▁팬아메리칸 -18491
▁똥 -18492
티드 -18493
▁감히 -18494
▁나츠 -18495
▁능통 -18496
▁대검 -18497
▁욕심 -18498
▁음색 -18499
▁제반 -18500
▁친숙 -18501
▁호치 -18502
▁Red -18503
▁강아지 -18504
▁개찰기 -18505
▁검사장 -18506
▁김포시 -18507
▁박격포 -18508
▁재정난 -18509
▁저술가 -18510
▁중학생 -18511
▁편의점 -18512
▁황갈색 -18513
▁1847 -18514
▁동명이인 -18515
▁민속문화재 -18516
▁테러리스트 -18517
▁콘스탄티노플 -18518
▁뚝 -18519
ㅍㅣ -18520
way -18521
▁갑판 -18522
▁래스 -18523
▁밀턴 -18524
▁세가 -18525
▁수뇌 -18526
▁수온 -18527
▁안구 -18528
▁안젤 -18529
▁조위 -18530
▁존호 -18531
▁호러 -18532
▁황성 -18533
하이머 -18534
▁간행물 -18535
▁동인도 -18536
▁레슬리 -18537
▁상류층 -18538
▁재판장 -18539
▁조나단 -18540
▁뱀파이어 -18541
▁벌어들이 -18542
▁빽 -18543
▁MX -18544
▁그려 -18545
▁박주 -18546
▁삼부 -18547
▁성하 -18548
▁신숙 -18549
▁여태 -18550
▁이족 -18551
▁주술 -18552
▁파니 -18553
▁품계 -18554
▁후신 -18555
▁관악구 -18556
▁뇌졸중 -18557
▁미카사 -18558
▁세포막 -18559
▁정보국 -18560
▁지원자 -18561
▁카이저 -18562
▁하루카 -18563
▁현악기 -18564
▁Like -18565
▁개인주의 -18566
▁은행나무 -18567
▁안티고노스 -18568
랄라 -18569
색슨 -18570
▁NK -18571
▁계명 -18572
▁과천 -18573
▁마누 -18574
▁마조 -18575
▁송금 -18576
▁이도 -18577
▁주어 -18578
▁출소 -18579
▁타코 -18580
▁푸시 -18581
▁회군 -18582
대주의 -18583
▁221 -18584
▁LTE -18585
▁도지사 -18586
▁레오니 -18587
▁에르난 -18588
▁올빼미 -18589
▁점성가 -18590
▁콘셉트 -18591
▁탈수소 -18592
▁태권도 -18593
▁Mnet -18594
▁옥타비아 -18595
▁앵글로색슨 -18596
하트 -18597
▁UK -18598
▁es -18599
▁mg -18600
▁강물 -18601
▁교착 -18602
▁마로 -18603
▁마왕 -18604
▁만찬 -18605
▁쑨원 -18606
▁쓰가 -18607
▁야채 -18608
▁우성 -18609
▁우화 -18610
▁월급 -18611
▁유주 -18612
▁윤회 -18613
▁이등 -18614
▁진과 -18615
▁청진 -18616
▁폐간 -18617
▁필살 -18618
▁합방 -18619
▁혈청 -18620
▁희박 -18621
리오카 -18622
ouse -18623
▁Net -18624
▁끊어지 -18625
▁리히텐 -18626
▁브리즈 -18627
▁산화물 -18628
▁중대장 -18629
▁지도력 -18630
▁하얼빈 -18631
▁1100 -18632
▁Over -18633
▁사다하루 -18634
▁버지니아주 -18635
HT -18636
▁즌 -18637
귀비 -18638
옹주 -18639
▁갑상 -18640
▁고질 -18641
▁그람 -18642
▁미일 -18643
▁보현 -18644
▁봉산 -18645
▁약국 -18646
▁연사 -18647
▁오목 -18648
▁왈라 -18649
▁재야 -18650
▁조승 -18651
▁회기 -18652
▁흡혈 -18653
▁231 -18654
▁멤피스 -18655
▁브룩스 -18656
비어 -18657
▁JS -18658
▁기치 -18659
▁독려 -18660
▁반증 -18661
▁발라 -18662
▁발화 -18663
▁오경 -18664
▁완투 -18665
▁울음 -18666
▁임업 -18667
▁점심 -18668
▁팔각 -18669
▁학점 -18670
ason -18671
▁미망인 -18672
▁유목민 -18673
▁정찰기 -18674
▁피스톤 -18675
▁포리스트 -18676
▁프리랜서 -18677
▁Light -18678
▁RO -18679
▁TA -18680
▁ac -18681
▁고부 -18682
▁반민 -18683
▁벙커 -18684
▁수찬 -18685
▁스벤 -18686
▁슬롯 -18687
▁예견 -18688
▁오에 -18689
▁자력 -18690
▁제각 -18691
▁커크 -18692
▁후각 -18693
▁Bar -18694
▁가오슝 -18695
▁그려지 -18696
▁사이다 -18697
▁에버턴 -18698
▁교섭단체 -18699
▁글래스고 -18700
▁요코스카 -18701
▁콘티넨털 -18702
▁즙 -18703
소니 -18704
슈티 -18705
호크 -18706
▁국명 -18707
▁명품 -18708
▁베레 -18709
▁색조 -18710
▁서간 -18711
▁송병 -18712
▁여순 -18713
▁여야 -18714
▁우미 -18715
▁원망 -18716
▁조만 -18717
▁차드 -18718
▁커트 -18719
하이드 -18720
▁정말로 -18721
▁1844 -18722
▁경향신문 -18723
▁경감 -18724
▁골자 -18725
▁남짓 -18726
▁동족 -18727
▁라피 -18728
▁불펜 -18729
▁섬멸 -18730
▁수작 -18731
▁연일 -18732
▁요안 -18733
▁재귀 -18734
▁체온 -18735
▁토토 -18736
▁228 -18737
▁예배당 -18738
▁유학생 -18739
▁해적단 -18740
▁가이우스 -18741
▁브래들리 -18742
▁오를레앙 -18743
방식 -18744
오세 -18745
프슨 -18746
▁고작 -18747
▁균류 -18748
▁낙인 -18749
▁바예 -18750
▁셀프 -18751
▁수유 -18752
▁슬퍼 -18753
▁신빙 -18754
▁앙주 -18755
▁크릭 -18756
▁하체 -18757
▁Eng -18758
▁게이츠 -18759
▁배상금 -18760
▁부끄럽 -18761
▁여름철 -18762
▁정착민 -18763
▁집합론 -18764
▁프라이드 -18765
거슨 -18766
▁걸즈 -18767
▁공물 -18768
▁덴버 -18769
▁따내 -18770
▁삼가 -18771
▁식년 -18772
▁아레 -18773
▁약제 -18774
▁오니 -18775
▁정연 -18776
▁호감 -18777
베를린 -18778
▁SQL -18779
▁독립성 -18780
▁수류탄 -18781
▁유리수 -18782
브레히트 -18783
▁곤살레스 -18784
▁시라카와 -18785
▁자동변속기 -18786
루트 -18787
시간 -18788
코로 -18789
▁간편 -18790
▁경학 -18791
▁과수 -18792
▁다키 -18793
▁선더 -18794
▁신예 -18795
▁아워 -18796
▁유흥 -18797
▁추석 -18798
▁치타 -18799
▁칼초 -18800
▁코노 -18801
▁트랩 -18802
▁패미 -18803
슈타트 -18804
자동차 -18805
▁390 -18806
▁Sec -18807
▁갑각류 -18808
▁단체장 -18809
▁미스트 -18810
▁한마디 -18811
▁현급시 -18812
▁후견인 -18813
▁고속철도 -18814
▁읊 -18815
▁Pa -18816
▁대파 -18817
▁동천 -18818
▁디어 -18819
▁미오 -18820
▁선승 -18821
▁정태 -18822
▁청렴 -18823
▁취락 -18824
▁테츠 -18825
민정음 -18826
▁fun -18827
▁경영진 -18828
▁취임식 -18829
▁1837 -18830
실론 -18831
오밍 -18832
제곱 -18833
▁굴리 -18834
▁낙농 -18835
▁담화 -18836
▁아론 -18837
▁업소 -18838
▁오데 -18839
▁중흥 -18840
▁콕스 -18841
▁한옥 -18842
▁홍대 -18843
▁부사관 -18844
▁서산시 -18845
▁프런트 -18846
▁북베트남 -18847
▁피타고라스 -18848
▁팁 -18849
조작 -18850
쿠로 -18851
iet -18852
▁강압 -18853
▁계략 -18854
▁궁금 -18855
▁노시 -18856
▁만능 -18857
▁부결 -18858
▁북단 -18859
▁실바 -18860
▁외전 -18861
▁원판 -18862
▁제례 -18863
▁한류 -18864
▁226 -18865
▁Har -18866
▁도깨비 -18867
▁드래건 -18868
▁목판본 -18869
▁발명가 -18870
▁모모야마 -18871
[...]
