▁▃ -0
▁이 -1
▁. -2
▁에 -3
▁다 -4
▁의 -5
▁는 -6
▁, -7
▁하 -8
▁을 -9
▁은 -10
▁가 -11
▁1 -12
▁고 -13
▁를 -14
▁한 -15
▁으 -16
▁년 -17
▁로 -18
▁으로 -19
▁에서 -20
▁2 -21
▁지 -22
▁있 -23
▁대 -24
▁기 -25
▁되 -26
▁사 -27
▁인 -28
▁었 -29
▁그 -30
▁도 -31
▁일 -32
▁시 -33
▁과 -34
▁아 -35
▁들 -36
▁수 -37
▁했 -38
▁어 -39
▁전 -40
▁적 -41
▁였 -42
▁여 -43
▁와 -44
▁자 -45
▁20 -46
▁월 -47
▁부 -48
▁제 -49
▁19 -50
▁라 -51
▁주 -52
▁정 -53
▁중 -54
▁위 -55
▁된 -56
▁공 -57
▁보 -58
▁해 -59
▁세 -60
▁나 -61
▁경 -62
▁게 -63
▁개 -64
▁것 -65
▁유 -66
▁3 -67
▁" -68
▁조 -69
▁한다 -70
▁등 -71
▁선 -72
▁스 -73
▁마 -74
▁성 -75
▁만 -76
▁미 -77
▁연 -78
▁동 -79
▁오 -80
▁상 -81
▁소 -82
▁서 -83
▁모 -84
▁구 -85
▁영 -86
▁비 -87
▁국 -88
▁발 -89
▁면 -90
▁며 -91
▁201 -92
▁' -93
▁4 -94
▁후 -95
▁관 -96
▁명 -97
▁신 -98
▁5 -99
▁프 -100
▁때 -101
▁200 -102
▁할 -103
▁장 -104
▁던 -105
▁- -106
▁방 -107
▁거 -108
▁바 -109
▁교 -110
▁리 -111
▁대한 -112
▁문 -113
▁역 -114
▁차 -115
▁당 -116
▁우 -117
▁무 -118
▁원 -119
▁통 -120
▁내 -121
▁진 -122
▁계 -123
▁현 -124
▁군 -125
▁남 -126
▁노 -127
▁포 -128
▁분 -129
▁6 -130
▁또 -131
▁화 -132
▁않 -133
▁까 -134
▁학 -135
▁생 -136
▁았 -137
▁까지 -138
▁같 -139
▁작 -140
▁결 -141
▁강 -142
▁출 -143
▁파 -144
▁에게 -145
▁불 -146
▁받 -147
▁함 -148
▁으며 -149
▁단 -150
▁번 -151
▁7 -152
▁최 -153
▁반 -154
▁10 -155
▁8 -156
▁된다 -157
▁알 -158
▁호 -159
▁데 -160
▁안 -161
▁회 -162
▁지만 -163
▁실 -164
▁배 -165
▁형 -166
▁초 -167
▁카 -168
▁두 -169
▁말 -170
▁예 -171
▁재 -172
▁따 -173
▁없 -174
▁부터 -175
▁타 -176
▁사용 -177
▁9 -178
▁미국 -179
▁라고 -180
▁요 -181
▁종 -182
▁음 -183
▁이후 -184
▁라는 -185
▁설 -186
▁특 -187
▁면서 -188
▁산 -189
▁코 -190
▁일본 -191
▁는데 -192
▁레 -193
▁운 -194
▁감 -195
▁권 -196
으며 -197
▁더 -198
▁독 -199
▁활 -200
▁행 -201
▁추 -202
▁왕 -203
▁처 -204
▁건 -205
▁베 -206
민국 -207
▁김 -208
▁간 -209
▁입 -210
▁크 -211
▁지역 -212
▁피 -213
▁양 -214
▁매 -215
▁199 -216
▁민 -217
▁다음 -218
▁평 -219
▁태 -220
▁많 -221
▁12 -222
▁올 -223
▁참 -224
▁대한민국 -225
▁18 -226
▁및 -227
▁경기 -228
▁승 -229
▁본 -230
▁다른 -231
▁다고 -232
▁드 -233
▁목 -234
▁임 -235
▁대학 -236
▁열 -237
▁; -238
리아 -239
00 -240
▁총 -241
▁프로 -242
▁속 -243
▁그리 -244
스트 -245
▁위해 -246
▁북 -247
▁야 -248
▁S -249
▁집 -250
or -251
▁때문 -252
▁법 -253
▁달 -254
▁11 -255
▁시작 -256
▁물 -257
▁외 -258
▁체 -259
▁각 -260
▁변 -261
▁트 -262
▁천 -263
▁토 -264
▁표 -265
▁직 -266
▁메 -267
▁사람 -268
▁& -269
▁따라 -270
▁그러 -271
▁함께 -272
▁또한 -273
▁A -274
▁점 -275
▁박 -276
▁팀 -277
▁항 -278
▁투 -279
▁한국 -280
▁청 -281
▁선수 -282
▁저 -283
▁치 -284
▁브 -285
▁사이 -286
▁세계 -287
▁) -288
▁영화 -289
▁자신 -290
▁광 -291
▁약 -292
▁버 -293
la -294
▁판 -295
▁새 -296
▁C -297
▁M -298
▁디 -299
▁경우 -300
▁용 -301
▁f -302
▁루 -303
▁기록 -304
▁네 -305
▁T -306
▁축 -307
▁F -308
▁현재 -309
▁복 -310
▁하나 -311
▁국가 -312
▁존 -313
시아 -314
▁편 -315
▁이름 -316
▁198 -317
▁다는 -318
▁당시 -319
▁확 -320
▁가장 -321
▁삼 -322
▁위치 -323
▁_ -324
▁필 -325
▁테 -326
▁합 -327
▁활동 -328
▁가지 -329
▁조선 -330
▁학교 -331
▁이나 -332
▁뒤 -333
▁철 -334
주의 -335
▁그러나 -336
▁살 -337
▁리그 -338
▁15 -339
▁( -340
▁금 -341
▁증 -342
▁페 -343
▁for -344
▁언 -345
▁째 -346
▁플 -347
mu -348
▁심 -349
▁백 -350
▁창 -351
▁의해 -352
mula -353
▁formula -354
▁16 -355
▁식 -356
▁못 -357
▁대표 -358
▁병 -359
레이 -360
▁연구 -361
▁근 -362
▁또는 -363
▁쓰 -364
▁프랑 -365
부터 -366
▁니 -367
▁통해 -368
▁그리고 -369
▁/ -370
▁황 -371
▁사회 -372
으나 -373
▁돌 -374
▁규 -375
▁m -376
▁0 -377
▁애 -378
▁D -379
▁충 -380
▁17 -381
▁시즌 -382
▁순 -383
▁클 -384
▁] -385
▁첫 -386
▁[ -387
▁패 -388
▁197 -389
▁러 -390
▁B -391
▁아니 -392
▁완 -393
▁히 -394
▁보다 -395
▁다시 -396
▁만들 -397
랜드 -398
▁높 -399
▁중국 -400
▁협 -401
▁키 -402
▁서울 -403
▁정부 -404
▁프랑스 -405
▁영국 -406
학교 -407
▁K -408
▁채 -409
▁시대 -410
▁I -411
▁: -412
▁는다 -413
▁대해 -414
▁포함 -415
▁k -416
▁여러 -417
▁뜻 -418
▁도시 -419
▁196 -420
▁전쟁 -421
▁14 -422
▁독일 -423
▁다가 -424
▁으나 -425
▁친 -426
▁로서 -427
▁죽 -428
▁아이 -429
▁큰 -430
er -431
▁길 -432
▁문화 -433
▁대회 -434
▁~ -435
▁g -436
▁취 -437
▁13 -438
▁축구 -439
▁엔 -440
▁온 -441
▁모두 -442
▁가능 -443
▁위원 -444
▁별 -445
▁동안 -446
▁P -447
▁뉴 -448
▁모든 -449
in -450
▁준 -451
▁이상 -452
▁손 -453
▁곡 -454
▁감독 -455
▁정치 -456
▁환 -457
▁194 -458
▁일부 -459
▁문제 -460
▁l -461
▁석 -462
▁방송 -463
▁허 -464
▁처음 -465
▁개발 -466
▁대학교 -467
▁알려 -468
▁위한 -469
▁L -470
▁지방 -471
▁이루 -472
▁제작 -473
▁% -474
▁구성 -475
▁검 -476
▁논 -477
▁골 -478
▁였으며 -479
▁국제 -480
▁캐 -481
▁농 -482
▁될 -483
▁배우 -484
▁케 -485
▁사건 -486
라이 -487
▁끝 -488
▁날 -489
▁세기 -490
▁시간 -491
▁이용 -492
▁씨 -493
▁일반 -494
▁존재 -495
▁작품 -496
▁향 -497
▁G -498
▁게임 -499
▁정도 -500
▁운동 -501
▁주장 -502
▁폭 -503
▁걸 -504
▁밀 -505
▁볼 -506
▁쿠 -507
▁티 -508
▁급 -509
▁역사 -510
▁gt -511
▁관계 -512
▁섬 -513
▁앞 -514
▁곳 -515
▁즉 -516
▁N -517
니아 -518
▁교육 -519
▁인구 -520
▁려 -521
▁음악 -522
▁효 -523
on -524
▁195 -525
▁km -526
▁접 -527
▁거나 -528
▁나타 -529
▁중심 -530
▁lt -531
리스 -532
▁육 -533
▁이러 -534
▁맡 -535
▁극 -536
▁U -537
▁귀 -538
▁새로 -539
▁맞 -540
▁30 -541
▁R -542
▁터 -543
▁했으며 -544
▁절 -545
▁경제 -546
▁선거 -547
부분 -548
▁블 -549
▁질 -550
통령 -551
▁발견 -552
▁전투 -553
▁담 -554
이스 -555
▁민주 -556
▁H -557
▁글 -558
▁올림 -559
▁봉 -560
▁발표 -561
화국 -562
▁갖 -563
▁측 -564
▁홍 -565
▁누 -566
▁슈 -567
▁기술 -568
▁E -569
▁막 -570
▁줄 -571
▁도록 -572
▁암 -573
▁시키 -574
▁아들 -575
▁잘 -576
▁책 -577
▁우승 -578
▁로부터 -579
▁들어 -580
▁공격 -581
▁헤 -582
▁2010 -583
▁대통령 -584
▁대부분 -585
▁커 -586
▁영향 -587
▁사망 -588
▁올림픽 -589
an -590
▁결과 -591
▁갈 -592
▁밝 -593
▁앨 -594
000 -595
▁송 -596
▁라이 -597
▁지원 -598
▁프로그 -599
리카 -600
▁과정 -601
▁잡 -602
▁탄 -603
▁193 -604
▁발생 -605
▁의미 -606
▁관련 -607
▁참여 -608
▁머 -609
▁중앙 -610
▁유럽 -611
▁센 -612
▁업 -613
▁진행 -614
▁최초 -615
▁얻 -616
▁c -617
란드 -618
▁범 -619
20 -620
▁25 -621
▁부분 -622
지만 -623
▁특히 -624
▁고등 -625
▁독립 -626
▁자유 -627
▁결정 -628
▁난 -629
▁제국 -630
▁태어 -631
▁됐 -632
▁구조 -633
▁다양 -634
▁설립 -635
▁탈 -636
▁어서 -637
버지 -638
▁설치 -639
▁상태 -640
나라 -641
▁폐 -642
▁형태 -643
▁악 -644
▁발매 -645
▁W -646
▁초등 -647
▁일어 -648
▁소속 -649
▁좌 -650
▁러시아 -651
▁같이 -652
▁사실 -653
▁2008 -654
▁하지만 -655
▁침 -656
▁이전 -657
▁그녀 -658
우스 -659
▁21 -660
▁새로운 -661
▁스타 -662
▁르 -663
▁좋 -664
▁인해 -665
▁로마 -666
디오 -667
▁여성 -668
▁으로서 -669
▁나라 -670
▁폴 -671
▁생각 -672
▁팔 -673
▁인민 -674
▁주로 -675
▁프로그램 -676
▁필요 -677
▁타이 -678
▁벌 -679
▁2011 -680
▁2012 -681
▁이것 -682
▁혼 -683
▁출신 -684
▁싱 -685
▁참가 -686
▁이탈 -687
▁조직 -688
▁관리 -689
▁100 -690
어진 -691
▁기준 -692
▁운영 -693
▁위원회 -694
▁중요 -695
▁윤 -696
므로 -697
▁생산 -698
en -699
▁2009 -700
▁란 -701
▁여자 -702
▁계획 -703
▁2007 -704
▁기관 -705
▁2014 -706
▁t -707
▁상대 -708
▁행정 -709
▁등장 -710
▁정보 -711
▁계속 -712
▁성공 -713
▁음반 -714
▁바이 -715
▁지정 -716
▁국민 -717
▁매우 -718
▁데이 -719
▁콘 -720
▁a -721
▁헌 -722
▁해서 -723
▁빌 -724
▁넘 -725
▁데뷔 -726
▁해당 -727
▁2013 -728
▁O -729
he -730
▁레이 -731
▁뿐 -732
▁과학 -733
▁철도 -734
▁아버지 -735
▁고려 -736
▁칼 -737
▁대전 -738
스터 -739
▁발전 -740
▁몇 -741
▁이탈리아 -742
리즈 -743
▁주요 -744
르크 -745
▁자리 -746
▁따르 -747
프트 -748
▁사업 -749
▁엘 -750
▁191 -751
▁찾 -752
▁시스 -753
▁묘 -754
▁24 -755
▁23 -756
▁억 -757
▁쇼 -758
▁처럼 -759
▁방법 -760
▁차지 -761
▁000 -762
▁2015 -763
ar -764
▁2018 -765
▁보이 -766
▁이어 -767
남도 -768
▁월드 -769
▁능 -770
▁앨범 -771
라마 -772
▁돌아 -773
▁2016 -774
레스 -775
▁최고 -776
▁그룹 -777
▁인도 -778
▁결국 -779
▁후보 -780
▁마이 -781
▁출연 -782
▁아래 -783
▁시리즈 -784
▁생활 -785
▁전체 -786
이션 -787
▁J -788
▁22 -789
es -790
▁고등학교 -791
▁둘 -792
▁한편 -793
▁이유 -794
▁떨 -795
▁회사 -796
▁내용 -797
▁졌 -798
▁2006 -799
▁그리스 -800
이트 -801
▁격 -802
▁우리 -803
FA -804
▁얼 -805
▁192 -806
▁퍼 -807
비아 -808
▁였으나 -809
▁층 -810
▁제공 -811
▁풍 -812
▁인간 -813
▁힘 -814
▁연합 -815
▁스페 -816
운데 -817
▁방식 -818
▁못하 -819
▁의원 -820
▁빠 -821
▁많이 -822
▁공식 -823
▁2017 -824
▁인터 -825
▁떠 -826
▁항공 -827
▁시기 -828
▁역할 -829
▁잠 -830
▁컴 -831
▁몸 -832
▁군사 -833
▁가운데 -834
▁조사 -835
▁드라마 -836
한다 -837
▁시스템 -838
▁워 -839
▁초기 -840
▁기업 -841
▁거의 -842
▁출전 -843
▁유명 -844
▁제도 -845
▁반대 -846
▁민족 -847
▁먼 -848
▁s -849
▁으로써 -850
▁지구 -851
▁교회 -852
▁색 -853
▁수상 -854
▁대신 -855
▁텔 -856
▁유지 -857
▁평가 -858
▁표현 -859
▁해야 -860
▁울 -861
비스 -862
인다 -863
▁느 -864
▁으로부터 -865
▁분류 -866
▁26 -867
▁동시 -868
▁홈 -869
▁대상 -870
▁특별 -871
▁! -872
▁녹 -873
▁현대 -874
▁졸 -875
▁이르 -876
▁웨 -877
▁기능 -878
▁류 -879
▁규모 -880
▁언어 -881
▁이미 -882
▁모습 -883
▁몰 -884
▁공개 -885
▁따라서 -886
at -887
▁응 -888
▁프리 -889
▁마지 -890
▁노동 -891
▁열린 -892
▁자연 -893
▁28 -894
▁승리 -895
▁개인 -896
야기 -897
▁각각 -898
▁놓 -899
▁연결 -900
▁이론 -901
▁27 -902
▁인정 -903
▁푸 -904
▁밖 -905
▁여기 -906
▁2019 -907
▁붙 -908
▁칸 -909
▁진출 -910
▁단체 -911
▁지도 -912
▁시켰 -913
▁브라 -914
▁임명 -915
▁마지막 -916
▁가진 -917
▁긴 -918
북도 -919
▁핵 -920
▁시장 -921
▁V -922
▁2005 -923
▁가리 -924
▁목적 -925
▁상황 -926
▁2000 -927
▁밴 -928
머니 -929
▁수도 -930
▁시절 -931
▁아르 -932
▁정책 -933
▁샤 -934
▁전문 -935
▁눈 -936
▁알려져 -937
▁정의 -938
▁기간 -939
▁경상 -940
▁희 -941
▁왔 -942
▁직접 -943
▁산업 -944
▁목록 -945
▁족 -946
▁습 -947
▁이야기 -948
▁뛰 -949
▁먹 -950
▁서로 -951
ic -952
al -953
니다 -954
▁빈 -955
▁했으나 -956
▁계약 -957
▁압 -958
▁혁 -959
▁불리 -960
▁슬 -961
▁오스트 -962
스크 -963
▁야구 -964
▁추가 -965
▁기원 -966
▁공동 -967
▁모델 -968
▁건설 -969
BS -970
▁2004 -971
▁콜 -972
▁개최 -973
▁경찰 -974
▁건물 -975
▁FC -976
▁플레이 -977
▁망 -978
▁공간 -979
▁형성 -980
▁50 -981
▁벨 -982
▁활약 -983
▁자동 -984
▁결혼 -985
▁보여 -986
▁관한 -987
▁부산 -988
▁스페인 -989
▁훈 -990
▁31 -991
▁태어났 -992
▁29 -993
▁변화 -994
학자 -995
▁거리 -996
▁노래 -997
▁너 -998
▁사상 -999
▁그것 -1000
▁졸업 -1001
▁교수 -1002
▁으면 -1003
▁변경 -1004
▁나이 -1005
▁의하 -1006
▁b -1007
▁국회 -1008
▁인물 -1009
▁TV -1010
▁완전 -1011
▁마을 -1012
is -1013
re -1014
▁공화국 -1015
▁궁 -1016
it -1017
▁텔레 -1018
▁부르 -1019
▁비롯 -1020
▁사랑 -1021
▁역시 -1022
▁낮 -1023
▁190 -1024
▁노선 -1025
▁인민공 -1026
▁휴 -1027
▁인민공화국 -1028
이드 -1029
비전 -1030
▁실제 -1031
▁2020 -1032
▁학생 -1033
ou -1034
▁맥 -1035
▁중학교 -1036
▁보통 -1037
▁최대 -1038
▁요구 -1039
▁지금 -1040
▁견 -1041
▁서비스 -1042
▁잉 -1043
대로 -1044
▁딸 -1045
▁겠 -1046
▁보호 -1047
▁탑 -1048
▁전국 -1049
▁일으 -1050
▁속하 -1051
▁지지 -1052
프리카 -1053
▁소설 -1054
▁우주 -1055
▁의회 -1056
▁거쳐 -1057
▁중화 -1058
른다 -1059
▁겸 -1060
▁없이 -1061
▁메이 -1062
▁실시 -1063
▁기본 -1064
▁자기 -1065
르트 -1066
▁판매 -1067
▁지하 -1068
▁혹 -1069
▁황제 -1070
▁다이 -1071
▁론 -1072
▁옥 -1073
운드 -1074
▁비판 -1075
▁가수 -1076
역시 -1077
▁전통 -1078
▁싱글 -1079
▁달리 -1080
▁한다는 -1081
▁엄 -1082
▁밴드 -1083
▁원래 -1084
▁기반 -1085
▁어떤 -1086
▁퇴 -1087
▁싸 -1088
▁만든 -1089
▁종교 -1090
▁세력 -1091
▁그래 -1092
▁차이 -1093
▁2002 -1094
▁위하 -1095
▁지나 -1096
▁경기도 -1097
▁탐 -1098
로스 -1099
▁40 -1100
▁못했 -1101
▁소련 -1102
▁자료 -1103
스탄 -1104
▁수행 -1105
▁환경 -1106
▁기타 -1107
▁2003 -1108
▁아닌 -1109
▁회의 -1110
▁전기 -1111
▁모양 -1112
▁센터 -1113
▁부대 -1114
▁월드컵 -1115
린다 -1116
▁시설 -1117
▁운행 -1118
▁흐 -1119
▁특징 -1120
어져 -1121
▁공연 -1122
▁전자 -1123
▁앤 -1124
러스 -1125
▁도쿄 -1126
▁나오 -1127
▁교황 -1128
▁설명 -1129
▁뮤 -1130
▁컵 -1131
▁기념 -1132
▁통합 -1133
▁이동 -1134
▁예술 -1135
나다 -1136
▁분야 -1137
▁기독 -1138
▁승강 -1139
▁명칭 -1140
▁작업 -1141
le -1142
▁득 -1143
▁도로 -1144
▁풀 -1145
▁대해서 -1146
mp -1147
▁남자 -1148
▁텔레비전 -1149
▁행동 -1150
▁염 -1151
▁도입 -1152
▁동물 -1153
▁연방 -1154
▁십 -1155
▁구역 -1156
▁선정 -1157
▁의한 -1158
▁바로 -1159
▁군대 -1160
▁숙 -1161
▁전라 -1162
▁능력 -1163
▁애니 -1164
스타 -1165
▁출시 -1166
▁가족 -1167
▁증가 -1168
▁작용 -1169
▁넓 -1170
▁확인 -1171
▁남쪽 -1172
▁기존 -1173
어지 -1174
▁방향 -1175
▁소프트 -1176
▁행위 -1177
▁나가 -1178
▁지휘 -1179
너지 -1180
▁북쪽 -1181
▁이때 -1182
▁제외 -1183
▁문학 -1184
▁교통 -1185
▁기독교 -1186
▁피해 -1187
▁이끌 -1188
▁차량 -1189
▁착 -1190
진다 -1191
▁옮 -1192
▁작가 -1193
▁= -1194
▁므로 -1195
▁사고 -1196
의원 -1197
▁비슷 -1198
▁국내 -1199
▁형식 -1200
▁클럽 -1201
▁어머니 -1202
▁혁명 -1203
▁윌 -1204
▁작곡 -1205
킨다 -1206
▁효과 -1207
▁지배 -1208
▁낙 -1209
▁마다 -1210
▁런 -1211
▁몽 -1212
▁태양 -1213
▁왕국 -1214
▁역임 -1215
▁과거 -1216
▁유일 -1217
▁캐나다 -1218
▁컴퓨 -1219
▁승강장 -1220
▁FI -1221
▁챔 -1222
▁갑 -1223
▁한다고 -1224
▁사무 -1225
▁열차 -1226
▁이적 -1227
BC -1228
▁보내 -1229
▁혹은 -1230
▁높이 -1231
▁협회 -1232
리오 -1233
▁남부 -1234
▁비교 -1235
▁흥 -1236
▁추정 -1237
▁잔 -1238
▁공산 -1239
▁정당 -1240
▁솔 -1241
▁뉴욕 -1242
▁흔 -1243
▁담당 -1244
▁시민 -1245
자리 -1246
▁이사 -1247
▁적용 -1248
▁동일 -1249
▁획 -1250
▁육군 -1251
▁주변 -1252
▁베이 -1253
▁인기 -1254
▁돈 -1255
▁1990 -1256
▁장관 -1257
▁홀 -1258
▁대사 -1259
▁즈 -1260
▁2001 -1261
▁동쪽 -1262
▁시켜 -1263
▁챔피 -1264
▁스포 -1265
▁스트 -1266
▁어린 -1267
▁맨 -1268
▁쪽 -1269
▁X -1270
▁세포 -1271
▁윈 -1272
▁곧 -1273
▁상당 -1274
▁건축 -1275
▁예정 -1276
▁공사 -1277
▁사단 -1278
▁성장 -1279
▁덴 -1280
▁마음 -1281
▁징 -1282
▁개념 -1283
▁데이터 -1284
▁p -1285
▁구간 -1286
▁오늘 -1287
▁컴퓨터 -1288
▁조지 -1289
▁품 -1290
▁차례 -1291
▁움 -1292
▁에너지 -1293
▁크기 -1294
▁대하 -1295
▁마르 -1296
▁멤 -1297
▁가까 -1298
▁서쪽 -1299
▁189 -1300
▁버스 -1301
▁넣 -1302
▁흑 -1303
이지 -1304
▁충청 -1305
▁액 -1306
▁록 -1307
▁자체 -1308
▁땅 -1309
▁어느 -1310
▁칭 -1311
▁작전 -1312
▁조건 -1313
▁실패 -1314
▁민주주의 -1315
▁물리 -1316
▁다르 -1317
▁연기 -1318
▁디자 -1319
▁올라 -1320
▁이런 -1321
▁율 -1322
▁반응 -1323
▁덕 -1324
▁늘 -1325
▁컨 -1326
▁선언 -1327
▁연주 -1328
▁FIFA -1329
▁부족 -1330
▁종류 -1331
▁특정 -1332
▁버전 -1333
▁d -1334
▁연속 -1335
▁페르 -1336
드리 -1337
▁선택 -1338
메이션 -1339
▁국립 -1340
▁익 -1341
▁대체 -1342
▁쌍 -1343
▁규정 -1344
▁방영 -1345
카이 -1346
▁수록 -1347
▁곤 -1348
el -1349
▁해군 -1350
▁대구 -1351
▁공항 -1352
▁고대 -1353
▁내부 -1354
가지 -1355
루스 -1356
▁위해서 -1357
et -1358
▁멤버 -1359
▁체제 -1360
▁속도 -1361
버스 -1362
▁지냈 -1363
▁결승 -1364
▁조약 -1365
▁정신 -1366
▁북부 -1367
▁명령 -1368
▁아시아 -1369
▁기원전 -1370
▁이라 -1371
▁는지 -1372
▁밝혔 -1373
▁연대 -1374
▁왜 -1375
▁인지 -1376
글랜드 -1377
▁선출 -1378
▁헌법 -1379
▁인천 -1380
▁벤 -1381
▁크리스 -1382
▁애니메이션 -1383
거리 -1384
▁몬 -1385
▁옛 -1386
▁가치 -1387
▁단계 -1388
▁포르 -1389
▁찬 -1390
▁개혁 -1391
▁링 -1392
▁걸쳐 -1393
▁친구 -1394
▁최종 -1395
ion -1396
▁물질 -1397
▁보인다 -1398
▁영어 -1399
웨어 -1400
▁달러 -1401
▁분석 -1402
▁자치 -1403
▁최근 -1404
ing -1405
▁일어나 -1406
▁밤 -1407
▁설계 -1408
▁척 -1409
▁의사 -1410
▁팬 -1411
트남 -1412
▁강화 -1413
▁더욱 -1414
▁핀 -1415
▁출판 -1416
▁평균 -1417
▁비행 -1418
▁소비 -1419
시마 -1420
▁1999 -1421
▁지명 -1422
▁널 -1423
▁체계 -1424
▁휘 -1425
▁로스 -1426
난다 -1427
▁술 -1428
▁법원 -1429
▁북한 -1430
▁집단 -1431
ol -1432
▁배치 -1433
▁잉글랜드 -1434
라스 -1435
▁관심 -1436
▁내려 -1437
▁1998 -1438
▁표준 -1439
▁머리 -1440
메리카 -1441
▁겨 -1442
▁언급 -1443
▁쥐 -1444
▁개월 -1445
▁치료 -1446
▁Y -1447
▁획득 -1448
▁부문 -1449
▁씩 -1450
▁엔진 -1451
▁cm -1452
▁하이 -1453
▁현상 -1454
21 -1455
▁o -1456
렇게 -1457
▁헬 -1458
▁지속 -1459
▁조정 -1460
▁실험 -1461
▁분리 -1462
▁당하 -1463
▁부상 -1464
▁맺 -1465
▁1980 -1466
▁유사 -1467
▁선발 -1468
▁60 -1469
▁하계 -1470
▁함수 -1471
▁파리 -1472
▁처리 -1473
▁확장 -1474
▁스테 -1475
▁스포츠 -1476
▁공원 -1477
▁챔피언 -1478
스코 -1479
▁대중 -1480
▁마리 -1481
▁베르 -1482
▁소유 -1483
▁어야 -1484
▁어려 -1485
▁칠 -1486
▁제품 -1487
▁35 -1488
▁입단 -1489
리지 -1490
▁고자 -1491
▁시도 -1492
▁관할 -1493
▁통일 -1494
▁목표 -1495
▁도움 -1496
▁이해 -1497
▁자동차 -1498
▁요소 -1499
▁장군 -1500
▁뛰어 -1501
▁공립 -1502
▁재판 -1503
아들 -1504
▁주도 -1505
▁정규 -1506
디어 -1507
▁mm -1508
▁문자 -1509
▁에스 -1510
▁후반 -1511
▁점령 -1512
▁외국 -1513
▁꽃 -1514
▁요시 -1515
▁나무 -1516
▁거주 -1517
▁구단 -1518
▁려고 -1519
▁가문 -1520
▁주인 -1521
▁들어가 -1522
▁편성 -1523
▁앙 -1524
▁주민 -1525
▁기사 -1526
▁잃 -1527
▁시험 -1528
▁원자 -1529
▁네덜 -1530
▁네덜란드 -1531
▁다면 -1532
▁학자 -1533
▁행사 -1534
▁책임 -1535
▁통신 -1536
▁안정 -1537
▁n -1538
▁괴 -1539
▁동맹 -1540
광역시 -1541
▁사령 -1542
▁결합 -1543
▁투표 -1544
▁파이 -1545
▁혈 -1546
▁수준 -1547
▁일종 -1548
▁알렉 -1549
▁웹 -1550
▁고속 -1551
▁언론 -1552
▁깊 -1553
▁불구 -1554
▁장치 -1555
▁불교 -1556
▁예선 -1557
om -1558
▁제한 -1559
▁길이 -1560
▁디자인 -1561
▁아프리카 -1562
▁개봉 -1563
나무 -1564
야마 -1565
▁준비 -1566
▁1997 -1567
▁듯 -1568
젝트 -1569
▁나타나 -1570
▁베트남 -1571
▁문서 -1572
▁빛 -1573
▁방문 -1574
▁본선 -1575
▁촉 -1576
▁광주 -1577
▁사진 -1578
일랜드 -1579
▁통치 -1580
▁만나 -1581
▁인데 -1582
▁비해 -1583
▁캠 -1584
▁갔 -1585
▁신문 -1586
▁바르 -1587
▁정권 -1588
▁유전 -1589
▁믿 -1590
▁가정 -1591
▁경험 -1592
▁정확 -1593
▁드러 -1594
메달 -1595
▁구분 -1596
▁성적 -1597
▁제조 -1598
st -1599
▁그림 -1600
▁대로 -1601
▁1996 -1602
▁The -1603
▁폴란드 -1604
▁요리 -1605
▁올랐 -1606
▁평화 -1607
▁1995 -1608
▁비디오 -1609
▁끌 -1610
▁오늘날 -1611
▁원인 -1612
▁amp -1613
▁부인 -1614
▁통과 -1615
▁거두 -1616
▁왕조 -1617
▁용어 -1618
▁부여 -1619
▁알려진 -1620
▁아직 -1621
▁려는 -1622
▁32 -1623
▁정리 -1624
▁70 -1625
▁일제 -1626
▁값 -1627
▁그런 -1628
▁추진 -1629
▁아마 -1630
▁쉽 -1631
▁프로젝트 -1632
스로 -1633
▁런던 -1634
특별 -1635
▁병원 -1636
▁이곳 -1637
▁신라 -1638
▁종합 -1639
▁멀 -1640
▁쓴 -1641
▁입장 -1642
▁은퇴 -1643
▁멸 -1644
▁해석 -1645
스턴 -1646
▁프레 -1647
▁경쟁 -1648
▁방어 -1649
▁경영 -1650
▁슈퍼 -1651
인트 -1652
▁영역 -1653
▁500 -1654
▁발달 -1655
▁이듬 -1656
▁노력 -1657
▁폐지 -1658
▁인터넷 -1659
▁널리 -1660
▁훈련 -1661
▁보도 -1662
▁사라 -1663
▁오르 -1664
▁파괴 -1665
▁민주당 -1666
▁미사 -1667
웨이 -1668
▁츠 -1669
▁제안 -1670
▁주제 -1671
▁제주 -1672
▁총리 -1673
▁부정 -1674
▁the -1675
▁놀 -1676
am -1677
레일 -1678
▁면적 -1679
▁회장 -1680
▁주연 -1681
▁80 -1682
▁세워 -1683
▁완전히 -1684
▁기여 -1685
▁미술 -1686
▁꼬 -1687
▁델 -1688
▁서부 -1689
▁이듬해 -1690
▁유래 -1691
▁만화 -1692
▁번호 -1693
리트 -1694
▁요청 -1695
▁188 -1696
▁나온 -1697
▁국회의원 -1698
▁정상 -1699
▁가르 -1700
▁빅 -1701
▁경기장 -1702
▁도서 -1703
▁남성 -1704
▁야마 -1705
▁식민 -1706
▁여겨 -1707
▁자주 -1708
▁투수 -1709
▁생물 -1710
▁연맹 -1711
라인 -1712
▁UE -1713
▁법률 -1714
▁궤 -1715
▁경계 -1716
▁동부 -1717
▁아서 -1718
▁+ -1719
▁폰 -1720
▁1994 -1721
▁무기 -1722
il -1723
▁1970 -1724
▁행성 -1725
▁움직 -1726
▁잇 -1727
▁금지 -1728
▁펼 -1729
▁수용 -1730
▁UEFA -1731
▁인식 -1732
▁등록 -1733
▁소재 -1734
▁깨 -1735
톨릭 -1736
▁철학 -1737
▁삼성 -1738
▁연구소 -1739
▁무대 -1740
▁바탕 -1741
▁외교 -1742
▁더불 -1743
▁끼 -1744
▁전해 -1745
▁영토 -1746
ac -1747
머지 -1748
▁라디오 -1749
▁접근 -1750
▁나머지 -1751
▁반면 -1752
▁아시 -1753
▁스스로 -1754
▁지진 -1755
▁지대 -1756
▁든 -1757
▁받아들 -1758
▁강원 -1759
▁KBS -1760
▁발사 -1761
▁노르 -1762
▁거부 -1763
▁조각 -1764
▁뇌 -1765
▁업무 -1766
▁박물 -1767
▁뉴스 -1768
▁오른 -1769
▁오래 -1770
▁정식 -1771
▁표기 -1772
▁마찬 -1773
▁마찬가지 -1774
▁벽 -1775
▁오스 -1776
▁아일랜드 -1777
▁결성 -1778
▁당했 -1779
▁지난 -1780
▁상호 -1781
▁은행 -1782
▁서식 -1783
▁논란 -1784
▁필리 -1785
▁보수 -1786
▁의식 -1787
▁펜 -1788
▁다수 -1789
▁1992 -1790
▁찾아 -1791
▁기초 -1792
▁짧 -1793
▁득점 -1794
▁공작 -1795
▁45 -1796
▁가톨릭 -1797
요일 -1798
▁복귀 -1799
▁소리 -1800
▁다리 -1801
▁주의 -1802
▁박사 -1803
▁성격 -1804
▁아카 -1805
▁트리 -1806
임스 -1807
▁임시 -1808
▁스웨 -1809
ro -1810
시코 -1811
▁바다 -1812
▁수학 -1813
▁로써 -1814
▁돼 -1815
▁해결 -1816
▁총선 -1817
▁패배 -1818
▁장애 -1819
▁그대로 -1820
▁실제로 -1821
▁36 -1822
모토 -1823
▁윌리 -1824
▁케이 -1825
▁of -1826
▁검사 -1827
ed -1828
▁지도자 -1829
워드 -1830
▁파일 -1831
▁습니다 -1832
▁장소 -1833
▁둔 -1834
▁밝혀 -1835
▁초대 -1836
▁브라질 -1837
▁유로 -1838
▁강력 -1839
▁마이크 -1840
▁이스 -1841
▁바뀌 -1842
▁린 -1843
▁스위 -1844
▁박물관 -1845
▁여행 -1846
▁제시 -1847
▁차원 -1848
▁묘사 -1849
▁표시 -1850
▁여름 -1851
▁기구 -1852
▁오브 -1853
▁카드 -1854
▁화학 -1855
▁식물 -1856
▁인사 -1857
▁단순 -1858
▁1960 -1859
▁집합 -1860
▁안전 -1861
ig -1862
▁차트 -1863
▁이외 -1864
▁관측 -1865
▁계열 -1866
▁그린 -1867
▁유니 -1868
▁에이 -1869
▁연극 -1870
▁권력 -1871
▁쓰이 -1872
▁활용 -1873
▁1991 -1874
토리 -1875
▁스웨덴 -1876
▁무역 -1877
로나 -1878
▁멕 -1879
▁오스트리아 -1880
▁먼저 -1881
▁지적 -1882
▁회원 -1883
▁아무 -1884
▁기계 -1885
▁디지 -1886
▁히로 -1887
▁개국 -1888
▁캐릭 -1889
부르크 -1890
▁형제 -1891
▁근처 -1892
▁셀 -1893
▁가져 -1894
▁1993 -1895
▁반란 -1896
▁조성 -1897
▁33 -1898
레일리아 -1899
▁위험 -1900
트리 -1901
▁중단 -1902
▁중간 -1903
▁붕 -1904
▁세대 -1905
▁만큼 -1906
▁흡 -1907
▁소프트웨어 -1908
▁일정 -1909
▁발행 -1910
▁분포 -1911
▁도착 -1912
▁시행 -1913
▁굴 -1914
낸다 -1915
베이 -1916
배우 -1917
▁협력 -1918
▁기자 -1919
▁캘 -1920
▁쉬 -1921
▁다만 -1922
▁스코 -1923
▁스튜 -1924
▁량 -1925
트로 -1926
▁나타내 -1927
특별시 -1928
od -1929
버트 -1930
▁사이트 -1931
▁멜 -1932
▁여객 -1933
▁캐릭터 -1934
▁죽음 -1935
▁서울특별시 -1936
▁하루 -1937
▁단어 -1938
사카 -1939
▁186 -1940
▁해안 -1941
▁지하철 -1942
▁", -1943
▁윈도 -1944
▁파견 -1945
▁죄 -1946
주시 -1947
▁세상 -1948
▁렌 -1949
ve -1950
▁꾸 -1951
▁수많 -1952
▁연장 -1953
▁통하 -1954
니스 -1955
▁떠나 -1956
워크 -1957
▁삶 -1958
▁카이 -1959
▁겪 -1960
▁투자 -1961
▁순위 -1962
▁혜 -1963
as -1964
▁공장 -1965
▁코드 -1966
▁제기 -1967
▁태평 -1968
▁혐 -1969
▁감소 -1970
나이 -1971
▁본부 -1972
▁전시 -1973
▁다카 -1974
▁내각 -1975
▁뮤직 -1976
▁근거 -1977
▁오스트레일리아 -1978
▁확대 -1979
▁후기 -1980
▁경상남도 -1981
지션 -1982
▁번역 -1983
▁생성 -1984
▁옹 -1985
소년 -1986
▁윌리엄 -1987
▁귀족 -1988
▁? -1989
▁위기 -1990
▁지상 -1991
▁지식 -1992
▁경상북도 -1993
▁네트 -1994
▁보유 -1995
▁균 -1996
▁보존 -1997
▁달성 -1998
▁양식 -1999
▁유형 -2000
간다 -2001
▁바꾸 -2002
▁숨 -2003
무원 -2004
▁관광 -2005
▁1988 -2006
▁동생 -2007
▁상징 -2008
▁유대 -2009
▁세웠 -2010
▁촬 -2011
▁전략 -2012
▁떨어진 -2013
▁래 -2014
▁187 -2015
▁수사 -2016
▁멕시코 -2017
▁춘 -2018
▁극장 -2019
▁당선 -2020
▁h -2021
▁완성 -2022
▁성립 -2023
▁유리 -2024
▁촌 -2025
▁상업 -2026
▁영상 -2027
▁원소 -2028
▁보였 -2029
▁이렇게 -2030
▁대응 -2031
▁학위 -2032
▁근무 -2033
▁디지털 -2034
▁님 -2035
▁특수 -2036
▁계승 -2037
▁촬영 -2038
▁34 -2039
▁체포 -2040
▁단위 -2041
티아 -2042
▁이슬 -2043
▁그렇 -2044
▁옆 -2045
▁올리 -2046
▁나중 -2047
▁권리 -2048
▁수비 -2049
▁식민지 -2050
▁38 -2051
▁체결 -2052
▁몇몇 -2053
▁따른 -2054
▁코치 -2055
▁이루어진 -2056
▁전달 -2057
▁미래 -2058
▁이집 -2059
▁이집트 -2060
회사 -2061
가리 -2062
▁생명 -2063
id -2064
▁마사 -2065
어졌 -2066
▁판단 -2067
▁알렉산 -2068
▁듀 -2069
▁90 -2070
▁으므로 -2071
▁맹 -2072
아시아 -2073
▁타이틀 -2074
▁국왕 -2075
▁시티 -2076
▁이란 -2077
▁아내 -2078
▁종목 -2079
▁직후 -2080
▁헨 -2081
가와 -2082
▁싶 -2083
▁관찰 -2084
▁이라고 -2085
▁승격 -2086
▁1989 -2087
▁시청 -2088
▁측정 -2089
▁자본 -2090
▁이주 -2091
▁크로 -2092
▁톤 -2093
▁률 -2094
▁젊 -2095
▁주식 -2096
▁미군 -2097
▁대륙 -2098
▁즐 -2099
모리 -2100
▁소수 -2101
▁전환 -2102
▁개통 -2103
▁낳 -2104
▁다루 -2105
▁밑 -2106
▁도서관 -2107
▁설정 -2108
▁48 -2109
▁2021 -2110
ec -2111
▁채널 -2112
▁컬 -2113
▁엘리 -2114
▁동계 -2115
▁세르 -2116
▁얼마 -2117
us -2118
▁스키 -2119
▁라인 -2120
▁의견 -2121
▁특성 -2122
▁납 -2123
NA -2124
▁홍콩 -2125
▁발매되 -2126
▁정치인 -2127
▁', -2128
▁개정 -2129
▁문화재 -2130
▁시위 -2131
and -2132
▁부른다 -2133
▁포르투 -2134
▁신경 -2135
▁종료 -2136
▁텍 -2137
▁지위 -2138
▁취임 -2139
▁져 -2140
▁셰 -2141
▁제정 -2142
▁미사일 -2143
▁기획 -2144
▁1950 -2145
▁| -2146
▁쌓 -2147
▁은하 -2148
▁헝 -2149
▁교체 -2150
▁300 -2151
▁빨 -2152
▁사회주의 -2153
▁가리킨다 -2154
▁결승전 -2155
▁예수 -2156
디아 -2157
▁천황 -2158
▁후쿠 -2159
▁주인공 -2160
스티 -2161
▁본관 -2162
▁MBC -2163
▁주목 -2164
▁범죄 -2165
▁청년 -2166
▁벗 -2167
▁전차 -2168
코드 -2169
▁소개 -2170
▁못한 -2171
▁해외 -2172
▁출생 -2173
▁충돌 -2174
▁강한 -2175
ad -2176
▁제임스 -2177
▁찰 -2178
▁장기 -2179
▁녹음 -2180
▁이래 -2181
▁수정 -2182
▁아키 -2183
▁비용 -2184
▁e -2185
▁계산 -2186
교회 -2187
▁개선 -2188
▁스티 -2189
▁전라남도 -2190
전히 -2191
▁본래 -2192
▁남북 -2193
▁바이러스 -2194
▁1945 -2195
라도 -2196
▁음식 -2197
러운 -2198
▁즉위 -2199
▁보냈 -2200
▁계기 -2201
▁비밀 -2202
▁자격 -2203
▁합류 -2204
리학 -2205
▁공부 -2206
▁건강 -2207
▁소장 -2208
▁공급 -2209
▁만드 -2210
▁카운 -2211
▁부모 -2212
▁옮겨 -2213
ent -2214
▁펠 -2215
▁배경 -2216
▁홈런 -2217
▁원정 -2218
▁제거 -2219
▁물론 -2220
▁네트워크 -2221
스카 -2222
▁체육 -2223
▁에드 -2224
▁궤도 -2225
50 -2226
▁각종 -2227
▁거대 -2228
▁인근 -2229
▁으면서 -2230
▁시내 -2231
▁오후 -2232
▁듣 -2233
▁작성 -2234
▁명예 -2235
▁왼 -2236
▁자원 -2237
▁집중 -2238
▁신학 -2239
▁가격 -2240
▁입학 -2241
▁감염 -2242
▁공군 -2243
▁랑 -2244
▁가입 -2245
▁읽 -2246
▁피아 -2247
▁객 -2248
▁베네 -2249
▁국경 -2250
▁군인 -2251
▁병력 -2252
▁가리키 -2253
▁전사 -2254
▁롤 -2255
베르 -2256
▁준다 -2257
▁썼 -2258
▁강조 -2259
▁천문 -2260
▁저항 -2261
▁나누 -2262
▁통제 -2263
▁다니 -2264
▁성우 -2265
티나 -2266
▁이슬람 -2267
▁측면 -2268
▁울산 -2269
▁명단 -2270
▁농업 -2271
▁일어난 -2272
▁소송 -2273
▁포지션 -2274
피아 -2275
▁신호 -2276
니어 -2277
▁인수 -2278
▁샌 -2279
▁만약 -2280
▁가까운 -2281
▁병사 -2282
▁세이 -2283
▁학문 -2284
▁지내 -2285
▁기후 -2286
리포 -2287
▁마치 -2288
▁너무 -2289
▁이번 -2290
▁기회 -2291
▁실행 -2292
▁블랙 -2293
어나 -2294
▁질량 -2295
▁아우 -2296
▁St -2297
▁플로 -2298
▁이루어져 -2299
▁터미 -2300
▁털 -2301
▁콩 -2302
▁틀 -2303
ot -2304
▁변호 -2305
▁증명 -2306
▁터키 -2307
▁빼 -2308
도로 -2309
▁태평양 -2310
▁최소 -2311
▁겨울 -2312
▁약간 -2313
▁광고 -2314
▁정착 -2315
▁강원도 -2316
▁노동자 -2317
▁엑 -2318
아가 -2319
▁비트 -2320
동안 -2321
▁x -2322
▁무장 -2323
▁외부 -2324
▁잎 -2325
▁해방 -2326
▁마리아 -2327
▁미디어 -2328
▁짓 -2329
un -2330
▁환자 -2331
▁가졌 -2332
▁둘러 -2333
▁몽골 -2334
▁37 -2335
▁바람 -2336
▁국방 -2337
▁전반 -2338
▁냉 -2339
ow -2340
▁제목 -2341
▁편집 -2342
▁나왔 -2343
▁마쓰 -2344
▁in -2345
▁도중 -2346
▁터미널 -2347
▁인한 -2348
▁건너 -2349
▁무렵 -2350
▁마련 -2351
▁금융 -2352
▁표면 -2353
▁지점 -2354
스키 -2355
▁허용 -2356
철도 -2357
▁라운드 -2358
▁혐의 -2359
▁충분 -2360
▁밀도 -2361
▁재산 -2362
▁가스 -2363
소리 -2364
▁유도 -2365
▁1987 -2366
▁카르 -2367
▁여전히 -2368
▁힐 -2369
오카 -2370
▁쇠 -2371
▁그해 -2372
▁겐 -2373
▁인디 -2374
▁학년 -2375
▁루이 -2376
▁고전 -2377
▁갖추 -2378
▁시킨 -2379
▁합병 -2380
▁모리 -2381
▁현실 -2382
▁흰 -2383
▁전력 -2384
▁보고 -2385
▁민간 -2386
▁뒷 -2387
▁윈도우 -2388
▁헝가리 -2389
▁숲 -2390
▁재직 -2391
▁오사카 -2392
▁꼬리 -2393
▁충청남도 -2394
▁전역 -2395
▁양성 -2396
▁킹 -2397
▁등급 -2398
▁포르투갈 -2399
▁41 -2400
▁영화배우 -2401
▁재정 -2402
▁령 -2403
▁봄 -2404
▁w -2405
▁붕괴 -2406
▁적극 -2407
마크 -2408
▁계급 -2409
▁동료 -2410
▁선수단 -2411
드로 -2412
▁51 -2413
▁강제 -2414
▁라이브 -2415
▁위협 -2416
▁그려 -2417
▁공주 -2418
▁인하 -2419
▁1986 -2420
▁엔터 -2421
▁공공 -2422
▁짐 -2423
▁조치 -2424
▁대대 -2425
▁이하 -2426
▁위원장 -2427
▁근대 -2428
ur -2429
▁1984 -2430
▁오리 -2431
▁온도 -2432
▁승인 -2433
▁스튜디오 -2434
▁전선 -2435
▁불러 -2436
▁군주 -2437
▁캘리포 -2438
▁유엔 -2439
▁구축 -2440
▁이미지 -2441
▁수입 -2442
▁답 -2443
▁범위 -2444
▁상하 -2445
▁전하 -2446
▁점차 -2447
▁대수 -2448
▁꿈 -2449
▁논문 -2450
▁원칙 -2451
▁클라 -2452
▁임무 -2453
▁불린다 -2454
▁업체 -2455
▁확보 -2456
▁둥 -2457
▁항상 -2458
▁출발 -2459
▁경력 -2460
▁위성 -2461
▁다섯 -2462
▁그래서 -2463
▁미치 -2464
▁킬 -2465
▁고구 -2466
▁공산당 -2467
▁거래 -2468
▁양자 -2469
▁전개 -2470
▁교사 -2471
▁회복 -2472
▁대학원 -2473
▁잭 -2474
▁채택 -2475
▁캘리포니아 -2476
▁수단 -2477
▁후지 -2478
▁성인 -2479
▁증거 -2480
▁공업 -2481
마스 -2482
▁토론 -2483
▁수립 -2484
▁핀란드 -2485
▁섭 -2486
▁필리핀 -2487
▁강의 -2488
▁잡지 -2489
주교 -2490
테르 -2491
▁드래 -2492
▁첨 -2493
▁합의 -2494
▁아시안 -2495
▁남아 -2496
ch -2497
▁얼굴 -2498
▁39 -2499
▁흘 -2500
▁남편 -2501
▁됨 -2502
▁만족 -2503
▁사례 -2504
▁스파 -2505
▁개편 -2506
▁의료 -2507
▁400 -2508
▁냈 -2509
▁부근 -2510
▁선생 -2511
▁일원 -2512
▁라며 -2513
바이 -2514
▁폭발 -2515
▁매년 -2516
▁기지 -2517
▁시인 -2518
▁나카 -2519
▁욕 -2520
고리 -2521
▁이스라 -2522
▁아라 -2523
▁이승 -2524
▁스위스 -2525
▁끊 -2526
▁간주 -2527
▁장면 -2528
▁1985 -2529
▁장비 -2530
▁모스크 -2531
▁붉 -2532
▁64 -2533
▁군단 -2534
▁대형 -2535
▁아름 -2536
▁토지 -2537
▁종종 -2538
로드 -2539
▁대기 -2540
▁불가 -2541
▁아주 -2542
▁스리 -2543
데미 -2544
▁경향 -2545
▁규칙 -2546
▁띠 -2547
ay -2548
▁이스라엘 -2549
▁롭 -2550
▁경주 -2551
▁분자 -2552
ir -2553
리스트 -2554
▁종이 -2555
▁게이 -2556
키아 -2557
▁알리 -2558
▁수원 -2559
▁라면 -2560
▁항성 -2561
▁캄 -2562
▁버리 -2563
ut -2564
▁II -2565
▁조합 -2566
▁열렸 -2567
▁확실 -2568
▁기억 -2569
▁낭 -2570
▁기대 -2571
▁튀 -2572
▁진화 -2573
▁불렀 -2574
▁이제 -2575
▁그곳 -2576
▁아랍 -2577
▁에게서 -2578
▁일어났 -2579
▁귀국 -2580
▁해체 -2581
백질 -2582
▁맛 -2583
▁탑재 -2584
레이드 -2585
▁대장 -2586
▁해도 -2587
고기 -2588
▁좀 -2589
우드 -2590
▁43 -2591
▁레코드 -2592
um -2593
▁아나 -2594
▁향상 -2595
▁강점 -2596
▁서양 -2597
▁장식 -2598
▁세우 -2599
▁아카데미 -2600
▁스피 -2601
▁어떻 -2602
▁br -2603
▁평양 -2604
▁신화 -2605
어들 -2606
▁가로 -2607
▁투어 -2608
▁클래 -2609
▁침공 -2610
▁고양 -2611
▁보장 -2612
▁아메리카 -2613
▁융 -2614
▁청나라 -2615
im -2616
▁불과 -2617
▁의학 -2618
▁청소년 -2619
▁선고 -2620
▁폼 -2621
▁42 -2622
▁떨어져 -2623
▁감정 -2624
요시 -2625
▁박쥐 -2626
▁고구려 -2627
▁자금 -2628
▁랭 -2629
▁남동 -2630
▁가사 -2631
▁사후 -2632
▁켄 -2633
오스 -2634
▁성과 -2635
▁보병 -2636
▁잠시 -2637
보드 -2638
▁세운 -2639
▁카운티 -2640
▁메이저 -2641
▁스타일 -2642
▁에피 -2643
▁독자 -2644
네스 -2645
▁카메 -2646
▁빠르 -2647
▁이끄 -2648
▁고문 -2649
ver -2650
▁소년 -2651
▁아야 -2652
▁우선 -2653
▁단지 -2654
▁신설 -2655
▁나치 -2656
▁살해 -2657
▁확정 -2658
▁55 -2659
▁만주 -2660
▁1982 -2661
라노 -2662
타인 -2663
▁중화민국 -2664
▁갖춘 -2665
▁우수 -2666
▁단백질 -2667
▁숭 -2668
▁모르 -2669
에르 -2670
일러 -2671
▁라틴 -2672
▁지시 -2673
▁스카 -2674
▁편입 -2675
▁신앙 -2676
▁의해서 -2677
틀랜드 -2678
▁함대 -2679
▁복잡 -2680
▁알려졌 -2681
▁스케 -2682
▁나폴 -2683
▁삭 -2684
▁철도역 -2685
▁예상 -2686
▁비율 -2687
▁광역시 -2688
▁차별 -2689
네시아 -2690
▁왕위 -2691
▁태풍 -2692
▁검찰 -2693
▁구체 -2694
▁의장 -2695
누스 -2696
▁전화 -2697
▁44 -2698
▁마크 -2699
▁1983 -2700
▁덴마크 -2701
▁뛰어난 -2702
▁재단 -2703
▁창설 -2704
다이 -2705
▁고향 -2706
▁세종 -2707
▁대립 -2708
▁동의 -2709
▁판결 -2710
▁i -2711
▁법인 -2712
▁성당 -2713
▁LG -2714
▁온라인 -2715
▁역대 -2716
▁쓰인다 -2717
▁공유 -2718
▁나뉘 -2719
▁태어난 -2720
▁나와 -2721
▁시킬 -2722
▁전설 -2723
트라 -2724
FC -2725
▁참석 -2726
▁보급 -2727
▁브리 -2728
▁냐 -2729
▁수출 -2730
▁선거구 -2731
▁솔로 -2732
▁반도 -2733
▁47 -2734
셔널 -2735
▁육상 -2736
▁하늘 -2737
하라 -2738
▁삼국 -2739
▁브랜드 -2740
운동 -2741
▁이루어지 -2742
▁유학 -2743
싱턴 -2744
없이 -2745
▁했었 -2746
룬다 -2747
▁고정 -2748
▁올렸 -2749
▁노예 -2750
▁협상 -2751
▁통한 -2752
▁집행 -2753
의회 -2754
▁핵심 -2755
▁본격 -2756
▁아파 -2757
▁뿌 -2758
▁후손 -2759
이크 -2760
▁저장 -2761
▁텐 -2762
비드 -2763
▁카를 -2764
▁애플 -2765
반도 -2766
▁75 -2767
▁태어나 -2768
오프 -2769
▁보안 -2770
▁탄생 -2771
▁초반 -2772
▁자세 -2773
▁앞두 -2774
▁184 -2775
▁댄 -2776
▁180 -2777
▁대비 -2778
▁강점기 -2779
▁중반 -2780
▁오픈 -2781
▁산맥 -2782
▁옷 -2783
▁사전 -2784
▁주교 -2785
▁대항 -2786
▁이성 -2787
▁Z -2788
▁마드리 -2789
▁암살 -2790
▁회전 -2791
▁아르헨 -2792
▁전혀 -2793
▁사우 -2794
▁숫 -2795
▁지키 -2796
원군 -2797
▁권한 -2798
▁연고 -2799
각형 -2800
▁시킨다 -2801
문화 -2802
▁로버트 -2803
▁1972 -2804
▁플랫 -2805
▁베이스 -2806
▁법칙 -2807
▁이익 -2808
▁헤이 -2809
▁마드리드 -2810
▁의무 -2811
▁어린이 -2812
▁프란 -2813
▁단일 -2814
▁켈 -2815
▁공기 -2816
▁직원 -2817
▁아르헨티나 -2818
▁인상 -2819
▁조금 -2820
▁전용 -2821
소드 -2822
▁46 -2823
▁공학 -2824
▁1920 -2825
▁순서 -2826
▁말기 -2827
▁베를 -2828
▁묻 -2829
▁운전 -2830
▁바라 -2831
▁시각 -2832
레이션 -2833
▁요한 -2834
터리 -2835
▁공포 -2836
▁잘못 -2837
▁비난 -2838
▁사항 -2839
▁유적 -2840
▁수여 -2841
▁별도 -2842
▁중심지 -2843
▁아스 -2844
▁1979 -2845
해졌 -2846
CA -2847
▁에선 -2848
▁협정 -2849
▁아미 -2850
▁보조 -2851
▁흔히 -2852
▁상품 -2853
▁덮 -2854
▁변호사 -2855
▁스크 -2856
▁창조 -2857
▁원주 -2858
▁전라북도 -2859
▁물러 -2860
▁효소 -2861
▁워싱턴 -2862
▁전후 -2863
▁롯 -2864
▁인권 -2865
▁글로 -2866
▁관료 -2867
▁kg -2868
정부 -2869
▁CD -2870
▁넘어 -2871
▁투입 -2872
▁저지 -2873
▁통계 -2874
▁파크 -2875
▁작곡가 -2876
▁방면 -2877
▁소식 -2878
▁장착 -2879
퍼드 -2880
▁1930 -2881
ra -2882
▁심각 -2883
▁우크 -2884
▁현장 -2885
▁셋 -2886
▁레드 -2887
▁앞서 -2888
무라 -2889
▁갈등 -2890
▁정복 -2891
▁항복 -2892
▁저서 -2893
▁오히 -2894
▁훨 -2895
▁1981 -2896
▁In -2897
▁금메달 -2898
▁엠 -2899
▁아침 -2900
▁150 -2901
▁1973 -2902
▁본인 -2903
▁하드 -2904
▁중세 -2905
▁돌아가 -2906
▁강하 -2907
▁어떻게 -2908
▁헨리 -2909
▁호텔 -2910
▁공무원 -2911
퍼스 -2912
▁출마 -2913
사키 -2914
▁오랜 -2915
10 -2916
▁니콜 -2917
▁훨씬 -2918
▁공산주의 -2919
리어 -2920
▁교류 -2921
▁벡 -2922
▁논의 -2923
▁v -2924
▁마이클 -2925
▁공화 -2926
▁성경 -2927
▁플라 -2928
▁요새 -2929
▁건국 -2930
▁교토 -2931
▁오른쪽 -2932
▁무리 -2933
▁노스 -2934
▁짜 -2935
▁인류 -2936
os -2937
▁택 -2938
▁중부 -2939
▁건조 -2940
▁유전자 -2941
▁멘 -2942
▁코미 -2943
▁김정 -2944
▁한때 -2945
▁인정받 -2946
▁오토 -2947
▁연합군 -2948
▁산하 -2949
▁빙 -2950
▁방출 -2951
▁플레이어 -2952
▁왼쪽 -2953
▁추측 -2954
▁세인트 -2955
▁예산 -2956
▁로드 -2957
▁금속 -2958
▁낸 -2959
▁서기 -2960
▁창립 -2961
▁성질 -2962
▁인가 -2963
▁주위 -2964
▁찍 -2965
▁투쟁 -2966
30 -2967
▁1940 -2968
▁베이징 -2969
▁사태 -2970
▁라도 -2971
▁에어 -2972
일보 -2973
▁태국 -2974
▁원작 -2975
▁릴 -2976
▁일으키 -2977
▁1974 -2978
▁185 -2979
▁절대 -2980
▁형사 -2981
▁사령관 -2982
▁오전 -2983
▁열리 -2984
BO -2985
▁노르웨이 -2986
▁에피소드 -2987
▁북서 -2988
▁제자 -2989
em -2990
▁탁 -2991
▁코스 -2992
▁멸망 -2993
▁복합 -2994
▁내렸 -2995
ter -2996
▁군수 -2997
▁논쟁 -2998
▁제출 -2999
▁플레이오프 -3000
▁운용 -3001
▁효율 -3002
▁반복 -3003
▁뽑 -3004
▁모스크바 -3005
▁집안 -3006
▁파라 -3007
▁읍 -3008
▁구별 -3009
▁오히려 -3010
▁스코틀랜드 -3011
▁SBS -3012
▁정비 -3013
▁입자 -3014
▁마침 -3015
▁메시 -3016
카와 -3017
▁진다 -3018
▁해양 -3019
▁합성 -3020
▁인공 -3021
▁전철 -3022
▁사법 -3023
▁갤 -3024
▁중대 -3025
▁1948 -3026
▁노부 -3027
▁숫자 -3028
▁포위 -3029
▁거절 -3030
▁이어지 -3031
▁인종 -3032
▁흡수 -3033
▁미니 -3034
듀서 -3035
▁지니 -3036
▁프로듀서 -3037
▁주기 -3038
▁지닌 -3039
▁해상 -3040
▁블루 -3041
▁연산 -3042
▁54 -3043
머스 -3044
▁원리 -3045
▁그레 -3046
▁연관 -3047
▁출장 -3048
▁인조 -3049
▁활발 -3050
▁시점 -3051
▁1968 -3052
▁우스 -3053
▁각본 -3054
▁목사 -3055
▁포기 -3056
▁1976 -3057
▁불렸 -3058
▁베를린 -3059
▁웨스트 -3060
▁수송 -3061
▁아름다 -3062
▁인터뷰 -3063
▁슬로 -3064
▁생겨 -3065
▁소녀 -3066
▁신체 -3067
▁개시 -3068
▁이민 -3069
▁붙여 -3070
▁밖에 -3071
▁경성 -3072
도르 -3073
▁취급 -3074
▁들어갔 -3075
다리 -3076
▁북동 -3077
▁머물 -3078
▁이기 -3079
▁출입 -3080
▁주전 -3081
▁전공 -3082
▁건립 -3083
▁안타 -3084
▁내리 -3085
▁1975 -3086
▁고용 -3087
▁통해서 -3088
▁보스 -3089
▁명성 -3090
▁분쟁 -3091
시스 -3092
▁동원 -3093
▁자라 -3094
▁음력 -3095
▁어렵 -3096
▁디스 -3097
▁히데 -3098
▁주택 -3099
데스 -3100
▁사령부 -3101
▁장악 -3102
▁죽이 -3103
▁취득 -3104
op -3105
▁비록 -3106
▁구속 -3107
나이티 -3108
▁축제 -3109
▁진보 -3110
▁신성 -3111
▁트랙 -3112
▁생기 -3113
▁활성 -3114
▁국도 -3115
▁유나이티 -3116
▁농민 -3117
▁일치 -3118
▁영화제 -3119
▁견해 -3120
▁하나님 -3121
▁써 -3122
▁보컬 -3123
▁전부 -3124
▁프라 -3125
▁1978 -3126
▁56 -3127
서트 -3128
▁1971 -3129
▁총독 -3130
▁미드 -3131
▁국장 -3132
▁불법 -3133
▁고유 -3134
▁부활 -3135
ag -3136
▁1963 -3137
▁유물 -3138
▁직전 -3139
▁소스 -3140
▁더라도 -3141
▁52 -3142
에트 -3143
▁속한다 -3144
▁관점 -3145
▁보험 -3146
▁해졌 -3147
산시 -3148
▁북아 -3149
▁편지 -3150
▁49 -3151
▁후원 -3152
▁정체 -3153
▁자이 -3154
▁약속 -3155
▁폭력 -3156
▁상당히 -3157
▁도달 -3158
키스탄 -3159
▁혼란 -3160
▁하위 -3161
쿠라 -3162
▁65 -3163
다가 -3164
▁대리 -3165
▁코미디 -3166
▁주관 -3167
▁연료 -3168
▁한자 -3169
▁교차 -3170
▁학습 -3171
▁항공기 -3172
▁철수 -3173
▁포도 -3174
▁지낸 -3175
▁타이완 -3176
▁수술 -3177
▁그리스도 -3178
▁시리아 -3179
▁일으켰 -3180
▁닌 -3181
▁직업 -3182
▁여부 -3183
ce -3184
세이 -3185
▁다운 -3186
▁반영 -3187
▁취하 -3188
▁1969 -3189
▁여객철도 -3190
▁아테 -3191
메리 -3192
▁임금 -3193
▁선교 -3194
▁관직 -3195
자기 -3196
▁179 -3197
기에 -3198
▁다며 -3199
릭스 -3200
▁천체 -3201
▁고종 -3202
▁무엇 -3203
▁Q -3204
▁백제 -3205
▁브레 -3206
▁한국어 -3207
▁랜 -3208
젤레스 -3209
▁팝 -3210
▁떠났 -3211
▁명명 -3212
▁상륙 -3213
▁수집 -3214
▁의존 -3215
리케 -3216
▁논리 -3217
▁대화 -3218
▁장교 -3219
▁00 -3220
▁성능 -3221
▁본사 -3222
▁넷 -3223
▁미나 -3224
▁심리 -3225
▁제어 -3226
▁주간 -3227
▁테러 -3228
▁데이비드 -3229
▁부임 -3230
▁교환 -3231
▁이른 -3232
▁예비 -3233
▁1946 -3234
▁보관 -3235
▁십자 -3236
▁화물 -3237
▁그런데 -3238
▁판서 -3239
▁백작 -3240
▁일대 -3241
▁학술 -3242
▁영업 -3243
▁톰 -3244
▁프리미 -3245
▁좁 -3246
▁아사 -3247
▁콘서트 -3248
▁스미 -3249
▁정지 -3250
▁해산 -3251
▁도구 -3252
준다 -3253
▁개체 -3254
▁주식회사 -3255
▁폴리 -3256
▁불상 -3257
공항 -3258
▁허가 -3259
▁53 -3260
▁소방 -3261
OS -3262
▁전파 -3263
▁로운 -3264
▁스마 -3265
▁상승 -3266
▁하우스 -3267
▁자살 -3268
▁반발 -3269
▁김영 -3270
▁빠른 -3271
라비아 -3272
▁전문가 -3273
▁간단 -3274
▁거기 -3275
▁방사 -3276
▁연재 -3277
▁프로세 -3278
▁코로나 -3279
▁제일 -3280
이어 -3281
▁박정 -3282
▁접하 -3283
▁핑 -3284
▁알아 -3285
▁영향력 -3286
▁진입 -3287
▁살인 -3288
▁렀 -3289
미터 -3290
▁1964 -3291
oc -3292
병대 -3293
▁대략 -3294
프리 -3295
▁정원 -3296
▁공통 -3297
▁쳐 -3298
▁모여 -3299
▁헤르 -3300
▁화성 -3301
▁니시 -3302
▁리스 -3303
▁충청북도 -3304
▁셔 -3305
▁보건 -3306
▁영입 -3307
▁재료 -3308
▁베스트 -3309
▁갈라 -3310
▁신분 -3311
▁락 -3312
▁미터 -3313
▁학부 -3314
▁당한 -3315
▁피아노 -3316
▁US -3317
▁소비에트 -3318
▁기도 -3319
▁사장 -3320
▁승진 -3321
▁파트 -3322
▁항구 -3323
▁가을 -3324
▁꼭 -3325
▁벨기에 -3326
▁포트 -3327
▁외국인 -3328
▁도망 -3329
▁벼 -3330
▁고도 -3331
▁부장 -3332
▁발언 -3333
▁서버 -3334
▁학원 -3335
▁한반도 -3336
▁and -3337
노스 -3338
▁진압 -3339
▁지붕 -3340
▁국제공항 -3341
▁스프 -3342
▁고리 -3343
▁1000 -3344
▁58 -3345
▁모아 -3346
ri -3347
▁99 -3348
▁인도네시아 -3349
▁질병 -3350
▁사운드 -3351
▁학회 -3352
어스 -3353
▁감사 -3354
▁탈락 -3355
▁탈출 -3356
▁다스 -3357
▁횡 -3358
▁구성원 -3359
▁현역 -3360
▁시호 -3361
▁닥 -3362
▁주년 -3363
▁채용 -3364
▁루이스 -3365
▁의도 -3366
하마 -3367
▁리더 -3368
▁스토 -3369
▁참전 -3370
▁신청 -3371
▁브루 -3372
▁식품 -3373
▁창단 -3374
▁공동체 -3375
▁쫓 -3376
▁콤 -3377
▁통상 -3378
▁트랜 -3379
▁픽 -3380
▁합격 -3381
▁계통 -3382
▁복무 -3383
▁PC -3384
▁응용 -3385
▁장수 -3386
천군 -3387
▁임대 -3388
▁스러운 -3389
▁모드 -3390
▁변환 -3391
▁1977 -3392
▁망명 -3393
아버지 -3394
저우 -3395
▁조작 -3396
▁포로 -3397
▁위반 -3398
▁민법 -3399
▁임의 -3400
▁요코 -3401
▁작사 -3402
▁SK -3403
▁에도 -3404
▁문헌 -3405
▁롯데 -3406
▁1949 -3407
▁말레이 -3408
▁친일 -3409
▁화면 -3410
▁마케 -3411
▁흐르 -3412
▁.. -3413
▁트라 -3414
▁페이 -3415
▁빠져 -3416
▁부부 -3417
▁청구 -3418
성군 -3419
▁문장 -3420
▁생긴 -3421
▁라이트 -3422
▁동남 -3423
▁절차 -3424
▁로스앤 -3425
▁로스앤젤레스 -3426
▁방송국 -3427
igh -3428
▁FA -3429
▁요인 -3430
▁젠 -3431
▁이치 -3432
▁분열 -3433
▁저작 -3434
▁예측 -3435
▁트로 -3436
▁탄소 -3437
▁이뤄 -3438
▁변형 -3439
▁학과 -3440
▁선보 -3441
▁신인 -3442
▁배출 -3443
▁수영 -3444
▁지급 -3445
▁누구 -3446
▁연출 -3447
▁1962 -3448
▁선조 -3449
문화재 -3450
드시 -3451
▁88 -3452
▁보낸 -3453
▁캠퍼스 -3454
▁상원 -3455
▁자녀 -3456
▁엑스 -3457
▁주둔 -3458
▁레오 -3459
▁조절 -3460
정식 -3461
▁수소 -3462
▁선전 -3463
▁시카 -3464
▁62 -3465
▁코파 -3466
▁메모리 -3467
ation -3468
▁이중 -3469
▁1967 -3470
▁막부 -3471
▁기하 -3472
▁전동 -3473
▁국무 -3474
▁레스 -3475
▁출간 -3476
▁큐 -3477
▁흉 -3478
▁스럽 -3479
▁처형 -3480
▁광장 -3481
▁정기 -3482
▁어떠 -3483
타르 -3484
▁수리 -3485
▁기호 -3486
▁화재 -3487
▁이승만 -3488
크스 -3489
▁실수 -3490
▁황금 -3491
▁콘스탄 -3492
로그 -3493
▁취소 -3494
▁태어났으며 -3495
▁서원 -3496
▁오페 -3497
▁방지 -3498
카이도 -3499
천시 -3500
▁로켓 -3501
▁r -3502
▁기법 -3503
▁생존 -3504
▁샘 -3505
▁달하 -3506
▁장르 -3507
▁오스만 -3508
▁는가 -3509
▁이시 -3510
▁호수 -3511
▁57 -3512
▁서구 -3513
▁증상 -3514
▁왕자 -3515
▁You -3516
▁흑인 -3517
▁남서 -3518
▁동성 -3519
▁동작 -3520
수록 -3521
▁카메라 -3522
▁앵 -3523
▁연안 -3524
▁남겼 -3525
▁현지 -3526
▁루트 -3527
브리 -3528
▁개조 -3529
▁반드시 -3530
▁나갔 -3531
▁늦 -3532
▁히트 -3533
▁롱 -3534
▁희망 -3535
▁등지 -3536
▁제대로 -3537
바르 -3538
▁메인 -3539
▁나타났 -3540
▁뿌리 -3541
▁고지 -3542
▁그라 -3543
바라 -3544
▁Ch -3545
▁기체 -3546
▁좌우 -3547
▁위상 -3548
포르 -3549
▁농구 -3550
▁여단 -3551
▁싸움 -3552
▁전주 -3553
▁뜨 -3554
▁분명 -3555
▁무덤 -3556
▁임진 -3557
▁우려 -3558
▁된다는 -3559
▁천연 -3560
▁입니다 -3561
▁공정 -3562
▁도전 -3563
▁톱 -3564
▁크리 -3565
▁일본군 -3566
▁맞이 -3567
▁여야 -3568
▁진주 -3569
비치 -3570
▁181 -3571
▁전면 -3572
▁치렀 -3573
▁파악 -3574
▁동아 -3575
▁터널 -3576
▁압력 -3577
▁엄청 -3578
▁둘째 -3579
▁코르 -3580
▁전형 -3581
▁끝나 -3582
▁꺾 -3583
▁독특 -3584
▁살아 -3585
▁1966 -3586
▁해리 -3587
nd -3588
▁목소리 -3589
▁스탠 -3590
▁특이 -3591
방송 -3592
▁이온 -3593
▁66 -3594
라이언 -3595
▁물체 -3596
▁리처 -3597
▁법정 -3598
▁녹색 -3599
▁매일 -3600
▁치러 -3601
▁%, -3602
▁미국인 -3603
▁그레이 -3604
▁경로 -3605
▁글자 -3606
▁성향 -3607
▁에르 -3608
▁동기 -3609
▁독립운동 -3610
▁타임 -3611
▁1965 -3612
▁이룬다 -3613
▁노벨 -3614
▁바둑 -3615
▁덧 -3616
에이 -3617
▁신뢰 -3618
▁부사 -3619
▁아프 -3620
▁유기 -3621
▁68 -3622
▁방정식 -3623
▁183 -3624
▁KBO -3625
더스 -3626
▁체코 -3627
티브 -3628
베스 -3629
▁처벌 -3630
▁분해 -3631
▁묶 -3632
▁지리 -3633
▁클레 -3634
▁개신 -3635
▁방해 -3636
▁추구 -3637
치아 -3638
▁나타난다 -3639
▁알렉산드 -3640
▁밥 -3641
▁실질 -3642
▁61 -3643
▁람 -3644
▁나들 -3645
▁일식 -3646
ST -3647
▁타격 -3648
▁삽 -3649
▁일찍 -3650
▁유행 -3651
▁싸우 -3652
▁김일 -3653
▁웅 -3654
▁퀸 -3655
▁구하 -3656
▁간행 -3657
▁완료 -3658
▁분할 -3659
▁찰스 -3660
▁묵 -3661
이치 -3662
▁풍부 -3663
▁움직임 -3664
르타 -3665
▁올려 -3666
▁먹이 -3667
▁내전 -3668
질랜드 -3669
▁홋 -3670
▁아리 -3671
▁화산 -3672
▁끝난 -3673
▁부진 -3674
▁사립 -3675
▁아동 -3676
▁희생 -3677
▁복지 -3678
▁아파트 -3679
▁뉴질랜드 -3680
▁마르크 -3681
▁범주 -3682
▁손자 -3683
▁버렸 -3684
▁순환 -3685
▁평등 -3686
▁마침내 -3687
먼트 -3688
▁나들목 -3689
▁빼앗 -3690
▁향해 -3691
▁대개 -3692
▁1961 -3693
▁별명 -3694
▁비평 -3695
▁어도 -3696
▁플래 -3697
▁캔 -3698
▁집권 -3699
▁최다 -3700
▁오프 -3701
▁800 -3702
ER -3703
▁갈색 -3704
▁점점 -3705
art -3706
▁한정 -3707
▁첼 -3708
▁한계 -3709
▁시조 -3710
▁전원 -3711
▁파르 -3712
▁향하 -3713
▁86 -3714
▁600 -3715
▁분기 -3716
▁사냥 -3717
▁마시 -3718
▁판사 -3719
▁가상 -3720
▁리가 -3721
▁대법 -3722
ice -3723
▁시드 -3724
▁의지 -3725
▁창원 -3726
▁쓸 -3727
▁부하 -3728
▁구현 -3729
▁120 -3730
투스 -3731
유럽 -3732
▁근본 -3733
▁모형 -3734
▁분위 -3735
▁기둥 -3736
▁테이 -3737
▁명확 -3738
▁훗 -3739
▁가시 -3740
▁충격 -3741
▁교향 -3742
▁사원 -3743
ON -3744
▁완공 -3745
▁달라 -3746
▁IS -3747
▁맞추 -3748
▁일본인 -3749
텐츠 -3750
▁메리 -3751
▁웨이 -3752
▁중기 -3753
▁사형 -3754
▁사임 -3755
▁무게 -3756
▁확산 -3757
▁벡터 -3758
▁스토리 -3759
▁프린 -3760
▁오페라 -3761
▁출범 -3762
▁카라 -3763
▁션 -3764
다는 -3765
디션 -3766
▁날개 -3767
▁마법 -3768
▁둘러싸 -3769
est -3770
▁단독 -3771
▁대공 -3772
▁1919 -3773
은행 -3774
라드 -3775
▁제이 -3776
피스 -3777
▁사마 -3778
▁호주 -3779
틀러 -3780
▁물리학 -3781
▁의혹 -3782
▁적절 -3783
▁상위 -3784
▁뚜 -3785
▁악화 -3786
▁으려 -3787
▁레인 -3788
▁된다고 -3789
▁통산 -3790
ia -3791
▁났 -3792
▁훌 -3793
▁의심 -3794
▁re -3795
▁이자 -3796
▁도와 -3797
▁회담 -3798
▁명나라 -3799
▁닛 -3800
TV -3801
▁모토 -3802
▁영웅 -3803
▁유치 -3804
▁무시 -3805
▁연구원 -3806
리히 -3807
▁98 -3808
▁조종 -3809
▁당초 -3810
▁알파 -3811
▁서명 -3812
▁가나 -3813
사자 -3814
ap -3815
▁편찬 -3816
▁새겨 -3817
▁1944 -3818
▁발굴 -3819
▁함락 -3820
▁득표 -3821
▁이닝 -3822
▁문명 -3823
▁새롭 -3824
▁사실상 -3825
사스 -3826
▁추천 -3827
▁나뉜 -3828
▁인접 -3829
▁자극 -3830
▁징역 -3831
ak -3832
▁넓이 -3833
▁광복 -3834
▁연간 -3835
▁나아가 -3836
▁포인트 -3837
▁느끼 -3838
▁개입 -3839
▁순간 -3840
▁모임 -3841
▁인증 -3842
▁여론 -3843
▁밝히 -3844
▁저술 -3845
라이나 -3846
▁접촉 -3847
▁도쿠 -3848
▁포항 -3849
▁곽 -3850
▁각지 -3851
▁그때 -3852
▁진정 -3853
▁사정 -3854
▁순수 -3855
▁등판 -3856
연히 -3857
▁흘러 -3858
▁올해 -3859
▁홍보 -3860
▁동서 -3861
▁프리미어 -3862
▁1941 -3863
▁구원 -3864
▁악기 -3865
▁고속도로 -3866
▁세르비아 -3867
▁개막 -3868
▁독일군 -3869
▁63 -3870
우리 -3871
▁골든 -3872
▁오랫 -3873
▁드라이 -3874
▁루스 -3875
▁정하 -3876
AR -3877
▁기온 -3878
▁95 -3879
▁뮤지 -3880
▁탐사 -3881
▁DNA -3882
▁태도 -3883
▁꼽 -3884
▁기기 -3885
메이 -3886
일리 -3887
▁학살 -3888
▁팽 -3889
▁74 -3890
시오 -3891
학생 -3892
▁백성 -3893
민주 -3894
버그 -3895
▁실현 -3896
▁Lo -3897
▁임기 -3898
▁59 -3899
▁공로 -3900
▁언제 -3901
▁한국인 -3902
무부 -3903
▁바위 -3904
▁변수 -3905
▁수석 -3906
믹스 -3907
▁시카고 -3908
▁성분 -3909
▁경전 -3910
▁행렬 -3911
숭이 -3912
▁예전 -3913
▁네이 -3914
▁178 -3915
▁공헌 -3916
▁앤드 -3917
▁보고서 -3918
▁입법 -3919
▁양쪽 -3920
▁오랫동안 -3921
▁추산 -3922
▁훗날 -3923
▁심사 -3924
▁스마트 -3925
▁아티 -3926
▁떨어지 -3927
ct -3928
▁페르시아 -3929
▁닉 -3930
▁감시 -3931
대부 -3932
▁확률 -3933
▁춤 -3934
▁뱅 -3935
▁튜 -3936
▁균형 -3937
▁혼합 -3938
▁자전 -3939
▁방위 -3940
▁1958 -3941
▁침략 -3942
▁프로그래 -3943
▁매장 -3944
▁미쓰 -3945
▁시사 -3946
▁띄 -3947
▁왕실 -3948
▁분위기 -3949
ul -3950
▁에드워드 -3951
▁합쳐 -3952
▁한다면 -3953
▁특별시 -3954
▁영지 -3955
▁리처드 -3956
러리 -3957
▁출력 -3958
▁1947 -3959
▁IC -3960
▁신부 -3961
▁피터 -3962
▁82 -3963
▁160 -3964
코스 -3965
▁승부 -3966
▁커뮤 -3967
▁대량 -3968
▁조별 -3969
▁to -3970
▁저녁 -3971
▁개신교 -3972
▁원형 -3973
▁내셔널 -3974
▁멀리 -3975
▁무사 -3976
▁타자 -3977
▁이라크 -3978
▁대선 -3979
거운 -3980
▁76 -3981
▁단편 -3982
▁1956 -3983
▁경남 -3984
▁동해 -3985
▁안토 -3986
▁다케 -3987
이너 -3988
▁프라이 -3989
▁;/ -3990
▁72 -3991
▁줄기 -3992
▁권위 -3993
▁에서부터 -3994
▁여왕 -3995
▁승객 -3996
▁미야 -3997
▁흐름 -3998
▁텍사스 -3999
▁그래픽 -4000
▁마무 -4001
▁랜드 -4002
▁제사 -4003
▁발발 -4004
▁재건 -4005
▁아이돌 -4006
▁프랑크 -4007
▁SS -4008
▁커뮤니 -4009
▁가와 -4010
리노 -4011
▁확립 -4012
▁앉 -4013
ie -4014
▁안동 -4015
▁우라 -4016
▁받아들여 -4017
▁속한 -4018
▁동명 -4019
▁바깥 -4020
▁펼쳐 -4021
▁77 -4022
▁복원 -4023
▁작위 -4024
▁긍 -4025
▁석유 -4026
▁일상 -4027
▁과학자 -4028
▁데스 -4029
▁참고 -4030
▁교구 -4031
▁침입 -4032
▁섞 -4033
▁복수 -4034
▁점수 -4035
▁비상 -4036
▁테스트 -4037
▁입력 -4038
▁수익 -4039
▁밝혀졌 -4040
▁정해 -4041
▁1939 -4042
▁기울 -4043
레나 -4044
▁잠수 -4045
▁어깨 -4046
▁폭탄 -4047
▁Th -4048
▁당국 -4049
▁시상 -4050
▁67 -4051
메리칸 -4052
▁브라운 -4053
▁리버 -4054
▁민중 -4055
▁벌였 -4056
▁일시 -4057
▁신자 -4058
▁지켜 -4059
▁축구단 -4060
▁복음 -4061
▁심지 -4062
▁도요 -4063
▁본질 -4064
▁사자 -4065
레옹 -4066
▁기에 -4067
▁자식 -4068
▁기소 -4069
▁계층 -4070
▁재배 -4071
▁타워 -4072
▁포켓 -4073
ud -4074
▁더블 -4075
▁연예 -4076
일스 -4077
▁병합 -4078
▁AFC -4079
▁움직이 -4080
▁겹 -4081
▁나폴레옹 -4082
▁그렇게 -4083
▁쌀 -4084
▁신고 -4085
▁혁신 -4086
▁주최 -4087
▁한글 -4088
▁대왕 -4089
▁시마 -4090
▁어디 -4091
▁가공 -4092
▁가진다 -4093
▁부지 -4094
▁도모 -4095
▁가량 -4096
ly -4097
og -4098
에른 -4099
이센 -4100
▁파워 -4101
▁벗어나 -4102
▁정수 -4103
▁빌보드 -4104
▁빅토 -4105
▁동양 -4106
▁돌아왔 -4107
▁지형 -4108
▁85 -4109
▁사제 -4110
▁가담 -4111
▁보물 -4112
▁대성 -4113
▁턴 -4114
▁듯이 -4115
▁창작 -4116
th -4117
▁거듭 -4118
▁공중 -4119
▁평안 -4120
▁1954 -4121
▁힌 -4122
▁폐쇄 -4123
마니아 -4124
▁어려운 -4125
ist -4126
▁깃 -4127
▁돕 -4128
▁암호 -4129
▁노출 -4130
▁가설 -4131
레인 -4132
▁인쇄 -4133
▁후계 -4134
▁누르 -4135
아티아 -4136
▁크로아티아 -4137
▁훈장 -4138
▁급제 -4139
▁아름다운 -4140
▁국기 -4141
▁산화 -4142
▁구글 -4143
▁고통 -4144
▁평론 -4145
ight -4146
▁총회 -4147
▁비서 -4148
왜란 -4149
▁1952 -4150
▁임진왜란 -4151
AS -4152
▁가이 -4153
▁참모 -4154
▁다소 -4155
▁력 -4156
▁고기 -4157
▁곱 -4158
▁탱 -4159
▁세리 -4160
▁실력 -4161
▁블라 -4162
▁전신 -4163
▁보상 -4164
▁대지 -4165
▁73 -4166
▁후속 -4167
▁보살 -4168
▁상관 -4169
▁동방 -4170
▁박정희 -4171
▁바닥 -4172
▁그만 -4173
▁아테네 -4174
▁김대 -4175
▁라스 -4176
조합 -4177
▁96 -4178
▁행복 -4179
▁도덕 -4180
▁따로 -4181
▁절반 -4182
▁나타낸다 -4183
▁발음 -4184
▁탈퇴 -4185
▁국정 -4186
▁조조 -4187
▁뮤지컬 -4188
▁스타디 -4189
▁비례 -4190
▁오카 -4191
▁타운 -4192
바로 -4193
▁인용 -4194
▁81 -4195
▁무한 -4196
하여 -4197
▁* -4198
▁개설 -4199
▁Al -4200
필더 -4201
▁수도원 -4202
▁피해자 -4203
▁미드필더 -4204
▁소득 -4205
▁뤼 -4206
▁덜 -4207
▁불만 -4208
▁뷰 -4209
▁심장 -4210
▁좋아 -4211
▁가까이 -4212
▁78 -4213
마르 -4214
▁장남 -4215
▁로봇 -4216
▁부담 -4217
▁청주 -4218
AT -4219
▁나뉜다 -4220
▁옮겼 -4221
▁재학 -4222
체스터 -4223
▁전투기 -4224
▁화이트 -4225
의정 -4226
▁화장 -4227
▁센트 -4228
▁손상 -4229
▁전남 -4230
▁안드로 -4231
▁이혼 -4232
▁전직 -4233
▁바이에른 -4234
▁여섯 -4235
▁지향 -4236
▁는다는 -4237
▁김성 -4238
너스 -4239
▁중력 -4240
▁뮌 -4241
▁기리 -4242
타이 -4243
▁교리 -4244
▁아트 -4245
▁하인 -4246
▁포스트 -4247
▁께 -4248
▁천안 -4249
▁콘스탄티 -4250
▁녀 -4251
나가 -4252
▁국군 -4253
▁벌이 -4254
▁주력 -4255
▁산소 -4256
▁피하 -4257
▁보르 -4258
▁작동 -4259
▁끝내 -4260
▁백만 -4261
▁1959 -4262
▁검토 -4263
▁총장 -4264
▁202 -4265
▁진단 -4266
▁NH -4267
▁결론 -4268
▁인생 -4269
▁지사 -4270
▁마무리 -4271
▁디아 -4272
▁레알 -4273
▁생물학 -4274
▁유한 -4275
▁177 -4276
BA -4277
▁당나라 -4278
▁윗 -4279
ess -4280
▁관여 -4281
▁빌딩 -4282
자치 -4283
직자 -4284
▁기상 -4285
▁질환 -4286
▁와이 -4287
인물 -4288
토스 -4289
▁Li -4290
▁상실 -4291
▁심지어 -4292
▁사무소 -4293
▁포스 -4294
▁황후 -4295
▁91 -4296
▁화합 -4297
▁설득 -4298
▁호소 -4299
▁71 -4300
▁AT -4301
▁아웃 -4302
▁패션 -4303
▁문신 -4304
▁메시지 -4305
▁상역 -4306
▁피부 -4307
▁;, -4308
▁선박 -4309
▁유통 -4310
▁사우스 -4311
가락 -4312
▁사유 -4313
▁엄청난 -4314
▁가마 -4315
▁DV -4316
세포 -4317
▁처분 -4318
클리 -4319
▁개방 -4320
▁신사 -4321
▁결의 -4322
▁분노 -4323
스트라 -4324
▁수요 -4325
▁이어졌 -4326
쿠스 -4327
▁오직 -4328
▁프로이센 -4329
▁가슴 -4330
▁골드 -4331
▁액션 -4332
▁1942 -4333
▁두려 -4334
▁승려 -4335
▁하원 -4336
▁여겨진다 -4337
▁규제 -4338
▁약물 -4339
▁연습 -4340
▁이명 -4341
▁햄 -4342
▁가요 -4343
▁모터 -4344
▁역학 -4345
▁혼인 -4346
▁적합 -4347
▁글로벌 -4348
▁김일성 -4349
▁페이지 -4350
드리히 -4351
▁매체 -4352
IV -4353
▁구매 -4354
▁조카 -4355
▁심판 -4356
▁선임 -4357
▁개성 -4358
▁디스크 -4359
▁올라가 -4360
▁모바 -4361
▁위대 -4362
▁좌상 -4363
▁이른다 -4364
▁부친 -4365
▁87 -4366
▁왕비 -4367
▁통화 -4368
▁돌아와 -4369
▁비치 -4370
▁잭슨 -4371
▁맞서 -4372
▁위키 -4373
ub -4374
미야 -4375
▁159 -4376
▁나온다 -4377
▁프랭 -4378
▁1943 -4379
▁st -4380
▁소멸 -4381
▁긍정 -4382
▁1955 -4383
▁프리드리히 -4384
▁야스 -4385
▁부산광역시 -4386
▁억제 -4387
IA -4388
▁서식지 -4389
▁발탁 -4390
가니 -4391
▁원년 -4392
▁쿠데 -4393
▁크루 -4394
▁말레이시아 -4395
▁일기 -4396
▁홋카이도 -4397
▁어려움 -4398
▁벌어진 -4399
▁1953 -4400
▁스타디움 -4401
▁진영 -4402
▁퀴 -4403
▁예방 -4404
▁주석 -4405
▁음악가 -4406
▁왕후 -4407
▁였을 -4408
▁드래프트 -4409
▁톨 -4410
▁테크 -4411
▁불안 -4412
▁\ -4413
▁조차 -4414
▁필드 -4415
▁자이언 -4416
▁무료 -4417
▁700 -4418
ab -4419
▁사도 -4420
▁1936 -4421
▁굳 -4422
▁조지아 -4423
▁주어진 -4424
▁일체 -4425
▁싱가 -4426
▁싱가포르 -4427
▁대책 -4428
▁사격 -4429
▁사무실 -4430
미르 -4431
▁84 -4432
▁힙 -4433
▁시나 -4434
▁카스 -4435
▁일컫 -4436
▁즉시 -4437
▁웃 -4438
▁AP -4439
▁타인 -4440
▁폭격 -4441
▁유고 -4442
▁태조 -4443
아내 -4444
▁본다 -4445
▁일본어 -4446
▁루마니아 -4447
해서 -4448
▁졌으며 -4449
▁티베 -4450
▁인원 -4451
▁궁전 -4452
▁쾌 -4453
▁리드 -4454
▁쿠데타 -4455
▁천주교 -4456
▁유형문화재 -4457
▁세자 -4458
▁막대 -4459
데이 -4460
▁여우 -4461
▁1910 -4462
▁상속 -4463
▁이와 -4464
▁기동 -4465
▁모바일 -4466
▁정차 -4467
▁창당 -4468
▁김종 -4469
▁자는 -4470
▁깊이 -4471
▁크로스 -4472
▁전북 -4473
▁대체로 -4474
▁연설 -4475
▁스티븐 -4476
슬러 -4477
주군 -4478
▁닫 -4479
ine -4480
▁쓰여 -4481
유산 -4482
▁후쿠오카 -4483
▁전동차 -4484
▁히틀러 -4485
▁Re -4486
▁구입 -4487
▁오이 -4488
▁누리 -4489
▁딜 -4490
▁97 -4491
▁요금 -4492
▁전당 -4493
▁학사 -4494
▁진격 -4495
▁딘 -4496
▁챔피언십 -4497
▁개칭 -4498
▁남아프리카 -4499
▁독재 -4500
▁아메리칸 -4501
구리 -4502
▁속해 -4503
▁강릉 -4504
▁1957 -4505
▁원주민 -4506
란색 -4507
▁발명 -4508
▁알바 -4509
▁자국 -4510
리나 -4511
오르 -4512
▁대우 -4513
▁조상 -4514
▁보여준다 -4515
▁추방 -4516
▁느낌 -4517
▁검색 -4518
머리 -4519
▁초점 -4520
▁알고리 -4521
▁부동 -4522
▁본명 -4523
▁필수 -4524
▁광범 -4525
▁스미스 -4526
▁사과 -4527
베르트 -4528
ew -4529
▁콘텐츠 -4530
▁타이거 -4531
▁휴대 -4532
독부 -4533
▁수호 -4534
히로 -4535
▁급격 -4536
▁음성 -4537
▁동북 -4538
▁생태 -4539
▁전송 -4540
▁늘어 -4541
▁1914 -4542
▁69 -4543
▁세트 -4544
▁테마 -4545
▁메이지 -4546
▁사기 -4547
원경 -4548
▁신장 -4549
▁천만 -4550
▁빚 -4551
▁이즈 -4552
▁92 -4553
▁수업 -4554
시스코 -4555
▁이마 -4556
▁덩 -4557
▁원수 -4558
▁주소 -4559
▁인디언 -4560
▁알고리즘 -4561
ue -4562
▁업적 -4563
미니 -4564
▁똑 -4565
▁=" -4566
▁핫 -4567
▁미리 -4568
▁연락 -4569
▁완벽 -4570
▁포켓몬 -4571
▁신도 -4572
▁게르 -4573
▁게다가 -4574
▁이내 -4575
▁불가리아 -4576
▁렀다 -4577
▁후임 -4578
▁토론토 -4579
▁도마 -4580
리그 -4581
▁최우 -4582
▁1900 -4583
구치 -4584
▁세부 -4585
▁코리아 -4586
▁1938 -4587
▁와서 -4588
▁클로 -4589
▁림 -4590
▁섹 -4591
▁상인 -4592
▁서술 -4593
▁전술 -4594
▁랄 -4595
▁닥터 -4596
▁스프링 -4597
▁밀려 -4598
래프트 -4599
▁려면 -4600
▁펑 -4601
▁달려 -4602
▁부위 -4603
▁스탈 -4604
지사 -4605
▁유효 -4606
▁화려 -4607
▁고급 -4608
▁빌리 -4609
▁물건 -4610
▁라이프 -4611
▁고시 -4612
▁석사 -4613
드라 -4614
EC -4615
▁재즈 -4616
▁미술관 -4617
▁배포 -4618
▁주니어 -4619
다란 -4620
▁언덕 -4621
▁노트 -4622
▁질문 -4623
▁101 -4624
▁소비자 -4625
▁핸 -4626
▁각국 -4627
▁암컷 -4628
▁오키 -4629
비히 -4630
▁바르셀 -4631
▁연평 -4632
▁바르셀로나 -4633
▁돌려 -4634
▁늑 -4635
총리 -4636
▁영양 -4637
▁마르크스 -4638
▁1918 -4639
▁01 -4640
▁HD -4641
로지 -4642
▁해발 -4643
▁립 -4644
▁내세 -4645
▁라틴어 -4646
자키 -4647
▁오가 -4648
▁개량 -4649
▁소형 -4650
▁윙 -4651
산화 -4652
▁손실 -4653
▁라우 -4654
▁느냐 -4655
▁만났 -4656
▁랩 -4657
▁실천 -4658
▁마스터 -4659
▁선형 -4660
여금 -4661
▁고위 -4662
▁백인 -4663
▁료 -4664
▁일련 -4665
▁갑자기 -4666
▁등장인물 -4667
▁DVD -4668
친다 -4669
▁사퇴 -4670
▁집회 -4671
▁조선총 -4672
▁언스 -4673
▁웰 -4674
▁유산 -4675
▁줄어들 -4676
▁조선총독부 -4677
▁당해 -4678
▁화석 -4679
▁풋 -4680
▁상주 -4681
▁1951 -4682
▁저자 -4683
▁프랑스군 -4684
제국 -4685
▁1932 -4686
▁시내버스 -4687
▁감각 -4688
▁추기 -4689
▁경비 -4690
▁반사 -4691
▁메달 -4692
▁운항 -4693
▁주체 -4694
▁계곡 -4695
BM -4696
▁미스 -4697
▁영주 -4698
▁개별 -4699
▁격파 -4700
드레 -4701
▁국적 -4702
▁생겼 -4703
▁알레 -4704
▁on -4705
▁1937 -4706
▁블록 -4707
▁{ -4708
▁정교회 -4709
▁노리 -4710
▁선포 -4711
▁용인 -4712
▁거짓 -4713
▁의문 -4714
▁차단 -4715
무늬 -4716
▁짝 -4717
▁발간 -4718
▁받아들이 -4719
▁다다 -4720
▁미시 -4721
▁자본주의 -4722
▁고객 -4723
▁진학 -4724
▁대만 -4725
▁마틴 -4726
민주당 -4727
▁성남 -4728
▁상수 -4729
▁올스타 -4730
필드 -4731
펙트 -4732
▁이웃 -4733
▁흰색 -4734
▁89 -4735
▁설치류 -4736
▁엘리자 -4737
▁변하 -4738
▁화제 -4739
▁넥 -4740
어도 -4741
▁당원 -4742
▁재개 -4743
▁광범위 -4744
▁첩 -4745
바키아 -4746
▁사양 -4747
▁실업 -4748
▁방언 -4749
▁찬성 -4750
▁타율 -4751
▁후계자 -4752
▁182 -4753
▁1935 -4754
▁비스 -4755
▁환승 -4756
▁되돌 -4757
▁칭호 -4758
▁접한다 -4759
ect -4760
▁우크라 -4761
▁항의 -4762
▁93 -4763
▁수치 -4764
▁비행기 -4765
▁기부 -4766
▁덧붙 -4767
▁트레이드 -4768
▁분교 -4769
▁크라 -4770
▁내놓 -4771
▁구상 -4772
▁이스트 -4773
▁뮌헨 -4774
▁꾸준 -4775
▁합니다 -4776
동생 -4777
▁모음 -4778
▁Be -4779
▁로렌 -4780
▁사찰 -4781
▁추기경 -4782
▁허락 -4783
▁퀘 -4784
▁시트 -4785
▁커버 -4786
▁탄압 -4787
▁고양이 -4788
▁질서 -4789
▁파티 -4790
▁항공사 -4791
사전 -4792
▁중추 -4793
▁경제학 -4794
▁남기 -4795
▁수백 -4796
▁줄이 -4797
▁증언 -4798
▁싱어 -4799
▁최후 -4800
▁구멍 -4801
▁면역 -4802
▁체험 -4803
▁촉진 -4804
가시 -4805
하이 -4806
▁일으켜 -4807
▁분화 -4808
▁반지 -4809
▁겉 -4810
▁자산 -4811
다수 -4812
▁극단 -4813
▁옵 -4814
▁남녀 -4815
▁회로 -4816
▁이념 -4817
▁마주 -4818
▁곡선 -4819
▁목성 -4820
▁화폐 -4821
▁마루 -4822
▁법학 -4823
▁소문 -4824
▁클리 -4825
센트 -4826
▁양산 -4827
▁공신 -4828
▁아티스트 -4829
▁쿨 -4830
▁소화 -4831
▁거치 -4832
▁습격 -4833
▁영원 -4834
▁소위 -4835
▁클래식 -4836
▁개척 -4837
런스 -4838
저스 -4839
리우스 -4840
슈타인 -4841
▁가속 -4842
ore -4843
▁보편 -4844
▁대법원 -4845
▁시모 -4846
▁강남 -4847
▁축소 -4848
▁94 -4849
▁OS -4850
▁1933 -4851
▁탄핵 -4852
▁잠수함 -4853
▁소집 -4854
▁물고기 -4855
▁FM -4856
▁탕 -4857
▁오버 -4858
▁운송 -4859
our -4860
▁힘들 -4861
▁산지 -4862
▁티베트 -4863
▁유배 -4864
▁수십 -4865
▁약화 -4866
▁툴 -4867
▁충분히 -4868
▁쿼 -4869
▁선호 -4870
IN -4871
▁하여금 -4872
▁쓰였 -4873
▁지수 -4874
▁그리하여 -4875
▁아오 -4876
▁1928 -4877
▁군부 -4878
▁동화 -4879
▁원시 -4880
▁혼자 -4881
▁치르 -4882
▁당신 -4883
▁베리 -4884
▁CP -4885
▁조항 -4886
▁매치 -4887
▁주일 -4888
▁태종 -4889
도사 -4890
▁전적 -4891
▁이른바 -4892
▁경사 -4893
▁직무 -4894
▁동경 -4895
▁지불 -4896
▁누스 -4897
▁돌아오 -4898
▁팩 -4899
▁뼈 -4900
▁칠레 -4901
▁1924 -4902
ell -4903
▁국토 -4904
▁시신 -4905
▁프랑스어 -4906
▁틈 -4907
▁세월 -4908
▁멈 -4909
▁콜로 -4910
공사 -4911
▁영구 -4912
▁용도 -4913
▁정통 -4914
▁밸 -4915
▁이행 -4916
▁돌아온 -4917
▁간부 -4918
▁발레 -4919
▁끈 -4920
프레 -4921
▁재능 -4922
▁이어진 -4923
▁개명 -4924
▁상대식 -4925
▁79 -4926
▁전망 -4927
▁정면 -4928
▁조기 -4929
▁토대 -4930
▁댄스 -4931
▁틴 -4932
▁으니 -4933
▁익스 -4934
▁토마스 -4935
▁사막 -4936
벤트 -4937
▁펀 -4938
▁메트로 -4939
▁09 -4940
▁김해 -4941
▁의정부 -4942
닉스 -4943
▁110 -4944
▁손해 -4945
▁실내 -4946
▁형상 -4947
▁입대 -4948
▁종사 -4949
▁이재 -4950
▁콜롬 -4951
▁걸친 -4952
▁프로그래밍 -4953
▁가난 -4954
▁대칭 -4955
▁회색 -4956
▁단순히 -4957
▁개장 -4958
▁브로 -4959
▁진실 -4960
슬링 -4961
티스 -4962
▁170 -4963
▁쟁 -4964
사이 -4965
▁동인 -4966
▁러브 -4967
end -4968
▁04 -4969
▁액체 -4970
▁지중 -4971
▁파키스탄 -4972
▁구름 -4973
▁동굴 -4974
▁판정 -4975
▁합동 -4976
▁수컷 -4977
▁열매 -4978
▁무력 -4979
▁초상 -4980
▁존스 -4981
▁토착 -4982
과이 -4983
▁자랑 -4984
▁가깝 -4985
▁해제 -4986
코프 -4987
▁무용 -4988
▁사이드 -4989
▁베네치아 -4990
ain -4991
▁유아 -4992
▁양국 -4993
▁경고 -4994
▁전제 -4995
▁안토니 -4996
ill -4997
▁법안 -4998
▁엄격 -4999
▁하와 -5000
▁뻗 -5001
리다 -5002
브라 -5003
▁고교 -5004
▁당대 -5005
▁총재 -5006
▁흔적 -5007
▁로즈 -5008
베리아 -5009
▁못한다 -5010
▁밀리 -5011
▁원자력 -5012
ID -5013
테스 -5014
▁안티 -5015
▁쏘 -5016
▁들어오 -5017
▁08 -5018
▁재생 -5019
▁대승 -5020
▁일단 -5021
▁룸 -5022
ers -5023
▁우에 -5024
▁주문 -5025
▁인민군 -5026
▁퓨 -5027
▁멀티 -5028
▁세로 -5029
▁Co -5030
▁정류 -5031
▁오케 -5032
▁힙합 -5033
▁부속 -5034
▁개찰 -5035
▁경북 -5036
▁스카이 -5037
▁분산 -5038
▁늑대 -5039
▁서방 -5040
▁스톤 -5041
▁행하 -5042
▁강도 -5043
▁장로 -5044
▁대가 -5045
▁드물 -5046
뜨리 -5047
▁부서 -5048
▁비잔 -5049
▁프로토 -5050
▁다큐 -5051
▁마저 -5052
▁오류 -5053
▁주재 -5054
▁83 -5055
▁안쪽 -5056
▁한성 -5057
▁배열 -5058
▁세워졌 -5059
▁지표 -5060
▁국방부 -5061
▁엉 -5062
데르 -5063
▁레닌 -5064
페이스 -5065
에도 -5066
▁페리 -5067
▁동지 -5068
▁벼슬 -5069
▁MS -5070
▁강요 -5071
▁호흡 -5072
▁탓 -5073
▁함경 -5074
ard -5075
▁경찰서 -5076
▁스크린 -5077
▁마감 -5078
▁메탈 -5079
▁추적 -5080
▁혈액 -5081
▁할아버지 -5082
▁중동 -5083
▁평면 -5084
▁선로 -5085
▁나섰 -5086
▁편의 -5087
▁주자 -5088
▁중지 -5089
▁포드 -5090
고속 -5091
야스 -5092
▁메르 -5093
▁이벤트 -5094
▁성서 -5095
조선 -5096
▁놓여 -5097
▁대원 -5098
▁아인 -5099
▁대사관 -5100
▁농장 -5101
▁쿠바 -5102
▁철거 -5103
▁1934 -5104
AN -5105
어로 -5106
▁간다 -5107
키퍼 -5108
▁아프가니 -5109
▁북미 -5110
▁자매 -5111
▁골키퍼 -5112
▁투스 -5113
▁De -5114
▁구사 -5115
▁빵 -5116
▁입구 -5117
▁스케이 -5118
▁요코하마 -5119
▁놀이 -5120
베르크 -5121
세대 -5122
▁스탈린 -5123
▁보스턴 -5124
▁닐 -5125
▁거느 -5126
▁근육 -5127
▁리아 -5128
▁판타 -5129
유키 -5130
▁동구 -5131
▁장례 -5132
▁노동당 -5133
▁정확히 -5134
▁히어로 -5135
▁본토 -5136
▁봉기 -5137
▁광산 -5138
▁뱀 -5139
레오 -5140
▁130 -5141
▁현존 -5142
▁페이스 -5143
▁구로 -5144
▁킨 -5145
▁야당 -5146
공업 -5147
▁Me -5148
▁얀 -5149
▁식량 -5150
무르 -5151
▁정조 -5152
아르 -5153
▁나이트 -5154
▁토머스 -5155
▁대동 -5156
▁철학자 -5157
▁거점 -5158
▁꾼 -5159
제르 -5160
▁유키 -5161
▁동메달 -5162
성기 -5163
즈니 -5164
▁항해 -5165
▁젤 -5166
▁은메달 -5167
▁선물 -5168
▁글리 -5169
▁사망자 -5170
ne -5171
▁코어 -5172
▁대다수 -5173
▁접속 -5174
▁관계자 -5175
▁도쿠가와 -5176
▁시계 -5177
▁140 -5178
▁남극 -5179
▁중계 -5180
▁부처 -5181
▁맨체스터 -5182
▁사카 -5183
▁아프가니스탄 -5184
▁카리 -5185
▁초청 -5186
▁필립 -5187
▁돔 -5188
▁레지 -5189
▁새끼 -5190
▁풍속 -5191
▁복사 -5192
▁알렉산더 -5193
▁모자 -5194
▁나선 -5195
▁발전소 -5196
▁Sh -5197
▁김구 -5198
▁테르 -5199
▁재판소 -5200
사르 -5201
위대 -5202
▁중성 -5203
▁칼리지 -5204
▁특별히 -5205
▁역전 -5206
▁훼 -5207
▁안내 -5208
▁교향곡 -5209
▁독점 -5210
돌프 -5211
▁그러므로 -5212
▁농촌 -5213
▁매주 -5214
▁증권 -5215
안군 -5216
▁휘하 -5217
▁화합물 -5218
▁곤충 -5219
▁주어졌 -5220
▁새벽 -5221
우치 -5222
▁세금 -5223
▁위안 -5224
▁르네 -5225
▁봉해졌 -5226
▁유력 -5227
▁토너 -5228
▁합리 -5229
OR -5230
힌다 -5231
▁th -5232
▁로맨 -5233
크래프트 -5234
▁1931 -5235
▁오염 -5236
▁재임 -5237
▁생애 -5238
▁이정 -5239
▁비중 -5240
▁체육관 -5241
베리 -5242
▁부호 -5243
▁파울 -5244
▁펼쳤 -5245
▁일곱 -5246
▁타점 -5247
▁강등 -5248
▁모노 -5249
▁히로시마 -5250
레이크 -5251
▁간격 -5252
▁부드 -5253
▁종전 -5254
▁진동 -5255
▁코너 -5256
▁훌륭 -5257
▁관객 -5258
▁석방 -5259
▁펄 -5260
▁기병 -5261
▁문재 -5262
▁존슨 -5263
▁뚜렷 -5264
▁이어서 -5265
▁그리스어 -5266
▁계수 -5267
▁타카 -5268
▁대변 -5269
▁감옥 -5270
▁박근 -5271
▁부품 -5272
▁클래스 -5273
▁금강 -5274
▁멸종 -5275
▁미카 -5276
▁꺼 -5277
▁명시 -5278
▁사신 -5279
▁원조 -5280
느님 -5281
all -5282
▁목포 -5283
▁ST -5284
▁후퇴 -5285
▁아비 -5286
▁하느님 -5287
▁자유주의 -5288
▁하사 -5289
게이 -5290
▁cod -5291
▁놀라 -5292
▁폭풍 -5293
▁타원 -5294
AM -5295
▁무늬 -5296
▁심리학 -5297
▁1921 -5298
▁장점 -5299
▁구리 -5300
▁대결 -5301
▁배웠 -5302
나르 -5303
▁해협 -5304
▁버지 -5305
▁An -5306
▁176 -5307
▁250 -5308
▁교도 -5309
▁좌파 -5310
▁커다란 -5311
▁숙종 -5312
▁그래프 -5313
▁가구 -5314
▁지휘관 -5315
▁윤리 -5316
▁캠프 -5317
▁킬로 -5318
▁아이스 -5319
▁지칭 -5320
▁수비수 -5321
▁물려 -5322
▁공룡 -5323
▁기생 -5324
▁유발 -5325
▁마그 -5326
▁목숨 -5327
▁동성애 -5328
▁유대인 -5329
ang -5330
널드 -5331
▁일환 -5332
▁토너먼트 -5333
▁덕분 -5334
▁코트 -5335
▁하버 -5336
▁스트라이 -5337
▁필라 -5338
여서 -5339
▁단장 -5340
▁첫째 -5341
▁1929 -5342
▁닮 -5343
둥이 -5344
▁연호 -5345
▁착용 -5346
▁빗 -5347
▁공세 -5348
▁소요 -5349
▁성명 -5350
▁김대중 -5351
▁트랜스 -5352
▁강전 -5353
▁칙 -5354
▁조문 -5355
▁약탈 -5356
시스트 -5357
▁극복 -5358
▁특허 -5359
▁집필 -5360
▁수반 -5361
▁바이올 -5362
수량 -5363
▁비즈 -5364
▁아틀 -5365
▁05 -5366
▁사관 -5367
▁스테이션 -5368
▁운동가 -5369
▁자이언츠 -5370
▁캡 -5371
▁드리 -5372
▁키스 -5373
▁쯤 -5374
▁도메 -5375
▁는다고 -5376
▁기갑 -5377
▁연상 -5378
▁y -5379
▁부작 -5380
▁곰 -5381
▁평론가 -5382
▁1923 -5383
▁동반 -5384
▁1925 -5385
▁빠지 -5386
▁공국 -5387
▁그럼 -5388
▁조화 -5389
산물 -5390
▁크레 -5391
투아 -5392
▁첸 -5393
▁갤럭 -5394
▁매니 -5395
▁의석 -5396
▁잠재 -5397
밀리 -5398
▁라트 -5399
▁건담 -5400
▁인터페이스 -5401
▁롬 -5402
미아 -5403
▁성직자 -5404
▁험 -5405
▁연평균 -5406
▁삼각 -5407
▁북아메리카 -5408
▁고고 -5409
▁번지 -5410
ss -5411
▁협약 -5412
▁가끔 -5413
▁입사 -5414
▁비틀 -5415
▁램 -5416
▁섬유 -5417
클린 -5418
▁도호 -5419
▁지부 -5420
▁과일 -5421
▁발휘 -5422
▁어두 -5423
▁딱 -5424
▁요원 -5425
▁이수 -5426
▁플로리다 -5427
무게 -5428
▁몸무게 -5429
▁살아남 -5430
▁장갑 -5431
▁추대 -5432
▁갤럭시 -5433
▁원장 -5434
▁전한 -5435
▁틱 -5436
▁근로 -5437
▁연계 -5438
▁불화 -5439
▁영감 -5440
▁임신 -5441
타카 -5442
▁관리자 -5443
▁AC -5444
▁모로 -5445
▁발렌 -5446
▁샤를 -5447
▁압축 -5448
▁07 -5449
▁중립 -5450
▁무너 -5451
▁영혼 -5452
▁타입 -5453
▁북서쪽 -5454
▁지역구 -5455
▁디오 -5456
▁추락 -5457
▁선교사 -5458
▁웨일스 -5459
▁우드 -5460
▁대한제국 -5461
▁똑같 -5462
▁트레이 -5463
▁비하 -5464
▁시게 -5465
ity -5466
▁지질 -5467
▁카페 -5468
대문 -5469
마이 -5470
▁모험 -5471
카스 -5472
베이스 -5473
▁고분 -5474
▁유성 -5475
▁진술 -5476
▁남아메리카 -5477
▁갱 -5478
▁영광 -5479
추어 -5480
▁사당 -5481
▁삭제 -5482
▁단선 -5483
▁유비 -5484
▁일자 -5485
▁박근혜 -5486
키스 -5487
▁이조 -5488
▁망원경 -5489
▁박스 -5490
▁드러나 -5491
▁캘리포니아주 -5492
▁데리 -5493
▁수직 -5494
▁진흥 -5495
▁레벨 -5496
▁페루 -5497
▁161 -5498
▁돌아갔 -5499
▁리스트 -5500
▁하와이 -5501
▁서인 -5502
▁채권 -5503
▁종로 -5504
▁북극 -5505
▁미분 -5506
▁필름 -5507
▁결심 -5508
▁압도 -5509
▁철저 -5510
▁제약 -5511
▁다이묘 -5512
▁기관차 -5513
▁돌파 -5514
▁모시 -5515
▁그려져 -5516
▁SC -5517
▁그랜드 -5518
▁사거리 -5519
▁저널 -5520
▁민속 -5521
▁부탁 -5522
▁준우 -5523
▁변신 -5524
▁향토 -5525
▁홀로 -5526
ff -5527
▁설비 -5528
▁유가 -5529
▁카자 -5530
▁EP -5531
▁주류 -5532
보이 -5533
▁복구 -5534
▁빅토리아 -5535
▁파운드 -5536
▁교과 -5537
▁청동 -5538
부사 -5539
▁성씨 -5540
▁도마뱀 -5541
슬리 -5542
▁중시 -5543
▁피트 -5544
▁175 -5545
▁넘겨 -5546
▁프로세서 -5547
▁1922 -5548
▁바오 -5549
▁codice -5550
▁무릎 -5551
▁수장 -5552
▁트럼 -5553
▁삼각형 -5554
▁나서 -5555
▁부유 -5556
▁여인 -5557
▁문인 -5558
▁레이블 -5559
▁엽 -5560
행성 -5561
즈키 -5562
▁각자 -5563
▁틸 -5564
▁빨간 -5565
▁아기 -5566
▁떼 -5567
▁평생 -5568
▁이날 -5569
▁화가 -5570
▁de -5571
▁서적 -5572
▁프레임 -5573
▁명사 -5574
▁쓰러 -5575
일본 -5576
▁My -5577
▁고서 -5578
▁모래 -5579
▁중구 -5580
애나 -5581
▁칼리 -5582
▁엘리자베스 -5583
▁인천광역시 -5584
▁규슈 -5585
▁유역 -5586
▁윤치 -5587
▁음모 -5588
▁버지니아 -5589
▁고안 -5590
▁가톨릭교회 -5591
▁투구 -5592
▁루트비히 -5593
▁공격수 -5594
▁지연 -5595
▁1912 -5596
▁일어난다 -5597
▁토벌 -5598
▁황태 -5599
▁굽 -5600
▁유용 -5601
▁직위 -5602
▁리치 -5603
▁직선 -5604
▁파트너 -5605
▁도어 -5606
▁표지 -5607
오리 -5608
프란 -5609
▁최상 -5610
▁KT -5611
▁WW -5612
▁노무 -5613
▁라마 -5614
▁아과 -5615
▁왕가 -5616
▁국민당 -5617
메니아 -5618
▁교차로 -5619
▁Love -5620
▁죠 -5621
니즘 -5622
▁164 -5623
▁자치구 -5624
▁무산 -5625
▁무인 -5626
▁노비 -5627
양군 -5628
▁고르 -5629
▁베토 -5630
▁수상자 -5631
▁구미 -5632
▁네이션 -5633
눅스 -5634
▁글씨 -5635
▁인력 -5636
▁간섭 -5637
▁어워드 -5638
▁Go -5639
▁봉사 -5640
▁문법 -5641
▁패턴 -5642
▁넬 -5643
▁왈 -5644
ong -5645
▁올린 -5646
▁들어서 -5647
▁사토 -5648
▁상처 -5649
▁영조 -5650
▁포유 -5651
▁동일본 -5652
▁퍼시 -5653
타운 -5654
▁"" -5655
▁납치 -5656
▁리눅스 -5657
▁소설가 -5658
▁아르메니아 -5659
▁침해 -5660
▁블라디 -5661
▁1908 -5662
▁남겨 -5663
멘트 -5664
▁모니 -5665
▁릭 -5666
▁SM -5667
▁MV -5668
라이터 -5669
▁지중해 -5670
▁아마추어 -5671
▁벨라 -5672
▁장사 -5673
▁주사 -5674
▁행해 -5675
▁목조 -5676
▁경유 -5677
▁랭킹 -5678
▁자책 -5679
▁호조 -5680
▁1906 -5681
▁실점 -5682
▁사촌 -5683
야수 -5684
▁연령 -5685
▁건축물 -5686
▁보통학교 -5687
▁연소 -5688
▁이종 -5689
▁스케이팅 -5690
▁06 -5691
▁돼지 -5692
▁옮기 -5693
up -5694
▁교역 -5695
▁전향 -5696
보살 -5697
▁태자 -5698
▁토르 -5699
▁베타 -5700
멘터리 -5701
▁제주도 -5702
지마 -5703
▁남동쪽 -5704
▁1917 -5705
슬로 -5706
▁아울 -5707
▁과도 -5708
▁마카 -5709
▁가해 -5710
▁배상 -5711
사관 -5712
▁플레 -5713
▁관하 -5714
▁마라 -5715
▁적응 -5716
도니아 -5717
▁준우승 -5718
ip -5719
▁매각 -5720
▁띤 -5721
▁삽입 -5722
▁수지 -5723
▁히가시 -5724
▁싫 -5725
▁정자 -5726
▁낸다 -5727
▁1927 -5728
▁시아 -5729
▁크림 -5730
▁적어도 -5731
▁커피 -5732
▁다양체 -5733
▁에스파 -5734
▁JR -5735
▁들여 -5736
▁조명 -5737
ant -5738
▁육성 -5739
▁시상식 -5740
▁전승 -5741
▁통로 -5742
ld -5743
▁명문 -5744
▁안양 -5745
▁출현 -5746
IS -5747
▁우익 -5748
란다 -5749
스팅 -5750
▁03 -5751
▁쇠퇴 -5752
▁시집 -5753
▁앨런 -5754
▁이토 -5755
▁북동쪽 -5756
▁1907 -5757
▁모듈 -5758
▁사라지 -5759
▁우루 -5760
▁유인 -5761
▁굿 -5762
ED -5763
▁정서 -5764
▁몬테 -5765
▁스와 -5766
▁낼 -5767
▁세워진 -5768
▁과장 -5769
▁배급 -5770
▁인자 -5771
▁전작 -5772
▁호르 -5773
OM -5774
▁대행 -5775
▁보좌 -5776
▁렉 -5777
▁외계 -5778
▁탐험 -5779
▁BBC -5780
▁베토벤 -5781
영상 -5782
▁석조 -5783
▁럭 -5784
▁옹호 -5785
▁아무런 -5786
▁노인 -5787
▁색상 -5788
▁다큐멘터리 -5789
▁진지 -5790
▁별로 -5791
▁흙 -5792
▁종족 -5793
▁창간 -5794
▁폐기 -5795
▁표본 -5796
▁부동산 -5797
▁1926 -5798
▁밀라노 -5799
▁우크라이나 -5800
▁관중 -5801
▁아가 -5802
▁체인 -5803
몬드 -5804
이즈 -5805
▁항목 -5806
▁산타 -5807
▁단행 -5808
▁의병 -5809
▁앱 -5810
▁SN -5811
▁협의회 -5812
▁때로 -5813
▁산악 -5814
▁호남 -5815
▁데려 -5816
▁자문 -5817
▁포크 -5818
▁맞춰 -5819
▁걷 -5820
▁왕립 -5821
▁슐 -5822
▁지름 -5823
av -5824
▁탑승 -5825
▁168 -5826
▁상하이 -5827
▁동아시아 -5828
생물 -5829
페이지 -5830
▁송라이터 -5831
▁He -5832
다니 -5833
어트 -5834
티움 -5835
▁무선 -5836
▁문하 -5837
▁대교 -5838
▁해설 -5839
▁유입 -5840
▁수감 -5841
스토 -5842
▁내장 -5843
▁노조 -5844
▁선제 -5845
▁연금 -5846
▁겨우 -5847
▁PD -5848
▁안보 -5849
▁패러 -5850
▁여서 -5851
▁자전거 -5852
▁급속 -5853
▁상영 -5854
▁세조 -5855
▁묘지 -5856
▁비전 -5857
ind -5858
▁연고지 -5859
슬라 -5860
▁스틸 -5861
▁디즈니 -5862
런트 -5863
▁사료 -5864
▁헤드 -5865
▁찌 -5866
튜브 -5867
▁기아 -5868
다이라 -5869
▁162 -5870
▁꾸준히 -5871
▁하천 -5872
▁NHK -5873
▁기압 -5874
▁에릭 -5875
▁좌익 -5876
▁166 -5877
▁이어져 -5878
로프 -5879
▁기종 -5880
▁동사 -5881
▁합계 -5882
▁레이다 -5883
▁최우수 -5884
▁1905 -5885
ame -5886
▁정사 -5887
긴다 -5888
▁홈페이지 -5889
AC -5890
▁제후 -5891
▁기름 -5892
▁원로 -5893
se -5894
▁콩고 -5895
▁유튜브 -5896
다른 -5897
▁오리지 -5898
▁민족주의 -5899
텐도 -5900
▁닌텐도 -5901
▁룩 -5902
▁대조 -5903
▁엄마 -5904
▁시에 -5905
▁예외 -5906
▁유신 -5907
▁기하학 -5908
▁비평가 -5909
▁Sp -5910
▁|| -5911
▁칭하 -5912
▁비단 -5913
▁딴 -5914
▁151 -5915
▁독일어 -5916
▁문화유산 -5917
브스 -5918
세스 -5919
페인 -5920
▁그쳤 -5921
▁버그 -5922
총장 -5923
▁소니 -5924
▁가르치 -5925
▁사이클 -5926
▁조선인 -5927
▁뚫 -5928
▁증기 -5929
▁늘어나 -5930
▁스승 -5931
▁해진 -5932
▁색깔 -5933
▁줬 -5934
▁시외 -5935
▁펼치 -5936
▁흥미 -5937
▁가쓰 -5938
▁주말 -5939
▁모집 -5940
▁품질 -5941
▁곧바로 -5942
ry -5943
▁트럭 -5944
▁요미 -5945
▁데이터베이스 -5946
ES -5947
▁수천 -5948
▁158 -5949
▁목격 -5950
▁참조 -5951
▁칩 -5952
▁수명 -5953
▁역과 -5954
▁운명 -5955
플레이 -5956
▁스페셜 -5957
▁리듬 -5958
▁리얼 -5959
▁셋째 -5960
▁드래곤 -5961
나카 -5962
▁구마 -5963
▁선진 -5964
▁악장 -5965
▁전해진다 -5966
▁마일 -5967
▁커뮤니티 -5968
무네 -5969
▁상소 -5970
▁아크 -5971
▁쥬 -5972
스케 -5973
▁원산 -5974
ith -5975
▁광역 -5976
▁문과 -5977
스티벌 -5978
▁정류장 -5979
▁크리스토 -5980
▁지바 -5981
▁유고슬 -5982
▁유고슬라비아 -5983
엘라 -5984
▁나폴리 -5985
▁유닛 -5986
▁랴 -5987
▁거둔 -5988
▁대안 -5989
▁반환 -5990
▁페스티벌 -5991
▁02 -5992
▁점성 -5993
▁협의 -5994
▁십자군 -5995
▁라이온 -5996
▁옛날 -5997
▁이오 -5998
▁주거 -5999
▁주한 -6000
ort -6001
▁가미 -6002
▁도리 -6003
▁신비 -6004
▁심하 -6005
▁야생 -6006
▁입증 -6007
▁자바 -6008
▁주의자 -6009
▁일행 -6010
▁할리 -6011
▁라이벌 -6012
▁방안 -6013
▁남서쪽 -6014
▁수수 -6015
▁주파 -6016
▁레이스 -6017
▁이리 -6018
▁푸른 -6019
▁플루 -6020
▁도심 -6021
▁무관 -6022
▁입문 -6023
ok -6024
▁기단 -6025
▁되찾 -6026
▁토니 -6027
▁브라이언 -6028
▁기점 -6029
▁스피드 -6030
프란시스코 -6031
▁거친 -6032
▁오디션 -6033
▁일으킨 -6034
▁운반 -6035
▁향년 -6036
▁샌프란시스코 -6037
▁재무 -6038
▁특급 -6039
▁기용 -6040
▁인텔 -6041
으므로 -6042
▁동치 -6043
▁사면 -6044
▁베이스볼 -6045
▁사직 -6046
▁적색 -6047
▁안드로이드 -6048
▁이루어진다 -6049
▁배제 -6050
▁한나라 -6051
해군 -6052
▁디자이너 -6053
▁챌 -6054
▁쿠르 -6055
▁한나라당 -6056
▁서북 -6057
▁연주자 -6058
▁콜롬비아 -6059
회의 -6060
▁출판사 -6061
▁걸려 -6062
▁단층 -6063
▁기념물 -6064
▁동영상 -6065
▁미네 -6066
▁미만 -6067
▁인치 -6068
프스 -6069
▁마스 -6070
▁우르 -6071
▁케이블 -6072
▁렌즈 -6073
▁붙잡 -6074
▁와카 -6075
▁드러내 -6076
▁마케도니아 -6077
▁가하 -6078
▁정교 -6079
▁초래 -6080
▁당사자 -6081
루살 -6082
▁묘소 -6083
▁오리지널 -6084
▁분배 -6085
▁직장 -6086
▁1904 -6087
▁다녔 -6088
▁신임 -6089
▁출산 -6090
▁평소 -6091
▁프랜 -6092
▁그럼에도 -6093
▁복제 -6094
▁시달 -6095
루살렘 -6096
▁지휘자 -6097
▁련 -6098
▁개수 -6099
▁폭스 -6100
▁석탑 -6101
▁알라 -6102
▁살펴 -6103
▁나타난 -6104
▁부패 -6105
▁예술가 -6106
▁스테이지 -6107
▁콘스탄티노 -6108
▁템 -6109
▁왕족 -6110
▁긴급 -6111
▁사로 -6112
▁예언 -6113
▁165 -6114
▁관장 -6115
▁서경 -6116
프라 -6117
▁교전 -6118
▁단종 -6119
▁용기 -6120
▁진도 -6121
▁기재 -6122
▁쓴다 -6123
▁의거 -6124
▁Un -6125
▁좌석 -6126
▁파생 -6127
▁걸리 -6128
▁센트럴 -6129
▁마쓰다이라 -6130
▁모순 -6131
▁가게 -6132
▁상무 -6133
▁Wh -6134
▁급행 -6135
▁자사 -6136
▁신하 -6137
▁판타지 -6138
▁내륙 -6139
▁아도 -6140
▁트레 -6141
▁154 -6142
교육 -6143
▁여동생 -6144
ob -6145
▁계단 -6146
리케이션 -6147
ord -6148
문학 -6149
▁수면 -6150
▁오타 -6151
▁합작 -6152
▁비즈니스 -6153
▁Se -6154
▁동전 -6155
▁무신 -6156
▁무슬 -6157
▁파나 -6158
▁예루살렘 -6159
▁권고 -6160
qu -6161
▁받침 -6162
▁드림 -6163
터스 -6164
▁사르 -6165
▁압박 -6166
▁용산 -6167
▁두려워 -6168
▁봐 -6169
▁옌 -6170
▁만난 -6171
▁신용 -6172
▁163 -6173
페이 -6174
▁156 -6175
▁스펙트 -6176
▁바이올린 -6177
▁정계 -6178
▁가득 -6179
▁항일 -6180
▁연애 -6181
가스 -6182
▁도메인 -6183
▁무슬림 -6184
▁링크 -6185
▁DJ -6186
▁167 -6187
모니 -6188
우옌 -6189
▁사범 -6190
▁무라 -6191
▁그랑 -6192
▁크리스티 -6193
▁스쿨 -6194
디스 -6195
▁SF -6196
▁선보였 -6197
▁여신 -6198
▁스펙트럼 -6199
▁상임 -6200
▁리투아 -6201
▁리투아니아 -6202
▁얼음 -6203
▁진상 -6204
▁두드 -6205
▁퍼져 -6206
ate -6207
▁마쳤 -6208
▁호환 -6209
▁훼손 -6210
경기 -6211
▁회원국 -6212
▁부리 -6213
▁끼리 -6214
▁머물렀 -6215
▁900 -6216
▁AM -6217
▁대단 -6218
▁밀접 -6219
랑이 -6220
▁전염 -6221
식물 -6222
▁부수 -6223
▁타마 -6224
▁말라 -6225
▁이지 -6226
PS -6227
▁비로 -6228
▁서울시 -6229
▁조국 -6230
▁충남 -6231
▁이명박 -6232
▁자회사 -6233
▁한양 -6234
카르 -6235
▁참판 -6236
▁스마트폰 -6237
아지 -6238
▁조류 -6239
▁노무현 -6240
▁장편 -6241
▁게시 -6242
▁챌린 -6243
▁팅 -6244
▁번식 -6245
▁고립 -6246
▁바그 -6247
껍질 -6248
▁니스 -6249
▁발효 -6250
▁우지 -6251
▁자마 -6252
▁과제 -6253
▁어항 -6254
▁뛰어나 -6255
▁분지 -6256
▁선사 -6257
▁친정 -6258
▁혜성 -6259
▁비잔티움 -6260
▁샹 -6261
▁미얀 -6262
▁지주 -6263
리크 -6264
▁애국 -6265
▁싸웠 -6266
▁샬 -6267
▁좋아하 -6268
▁착륙 -6269
▁쇼군 -6270
▁와중 -6271
▁지장 -6272
▁일요일 -6273
▁교섭 -6274
▁오다 -6275
킨스 -6276
▁오케스트라 -6277
IC -6278
▁주립 -6279
▁예능 -6280
▁식사 -6281
▁피렌 -6282
▁댐 -6283
길이 -6284
▁UN -6285
▁시체 -6286
▁포맷 -6287
커스 -6288
▁성종 -6289
▁차관 -6290
▁139 -6291
▁서브 -6292
▁파동 -6293
잡이 -6294
▁농도 -6295
▁진나라 -6296
▁벌어지 -6297
▁저기 -6298
▁피스 -6299
▁사리 -6300
▁알바니아 -6301
▁구장 -6302
▁아베 -6303
▁융합 -6304
마치 -6305
▁선두 -6306
▁최신 -6307
▁요크 -6308
럼비아 -6309
▁행정부 -6310
▁부흥 -6311
▁AS -6312
▁대령 -6313
▁하트 -6314
▁145 -6315
▁디비전 -6316
로디 -6317
예프 -6318
▁쿠스 -6319
▁낱 -6320
▁소나 -6321
ET -6322
▁바티 -6323
▁사인 -6324
▁월간 -6325
▁기타리스트 -6326
▁잊 -6327
▁강연 -6328
▁심한 -6329
부인 -6330
▁발족 -6331
▁용량 -6332
▁거인 -6333
▁야기 -6334
ast -6335
▁공과 -6336
▁위주 -6337
▁벌어졌 -6338
▁아이디 -6339
▁보전 -6340
▁하드웨어 -6341
▁충성 -6342
▁사라졌 -6343
▁주머니 -6344
▁전이 -6345
▁투명 -6346
▁개발자 -6347
▁관찰사 -6348
▁킬로미터 -6349
▁학파 -6350
▁해인 -6351
▁마리오 -6352
▁빨리 -6353
▁점유 -6354
▁간접 -6355
▁브라우 -6356
▁착수 -6357
▁MVP -6358
▁부통령 -6359
▁스트리트 -6360
DP -6361
들리 -6362
▁번주 -6363
▁깔 -6364
▁고조 -6365
▁임상 -6366
▁HIV -6367
▁아이디어 -6368
▁굉 -6369
▁부도 -6370
▁아세 -6371
▁몸길이 -6372
▁피렌체 -6373
▁부자 -6374
▁중국어 -6375
▁사사 -6376
▁전임 -6377
▁제네 -6378
▁응우옌 -6379
▁푼 -6380
▁김동 -6381
▁페어 -6382
랑크 -6383
▁관광객 -6384
▁마케팅 -6385
▁미나미 -6386
▁알렸 -6387
▁전지 -6388
▁측근 -6389
수아 -6390
▁마산 -6391
▁규명 -6392
▁배정 -6393
데이트 -6394
▁던지 -6395
▁완화 -6396
if -6397
▁하노 -6398
▁정벌 -6399
▁업데이트 -6400
▁부시 -6401
▁전두 -6402
▁전류 -6403
▁이에 -6404
▁1896 -6405
▁권유 -6406
트니 -6407
▁맥스 -6408
▁차체 -6409
아리 -6410
▁성공회 -6411
레이터 -6412
▁피에르 -6413
ive -6414
▁경선 -6415
▁아울러 -6416
주곡 -6417
ack -6418
▁DS -6419
▁공용 -6420
▁사바 -6421
▁다이아 -6422
▁귀환 -6423
▁중도 -6424
▁형법 -6425
란트 -6426
트롤 -6427
▁제의 -6428
▁여덟 -6429
▁들어간 -6430
IT -6431
균관 -6432
▁공전 -6433
▁출구 -6434
▁로빈 -6435
ure -6436
▁트윈 -6437
리티 -6438
▁뱅크 -6439
▁스콧 -6440
▁구동 -6441
▁친선 -6442
▁붓 -6443
▁짙 -6444
▁연수 -6445
▁존경 -6446
▁게이트 -6447
▁IP -6448
▁성벽 -6449
▁젖 -6450
▁들어와 -6451
악기 -6452
▁중독 -6453
▁스타크래프트 -6454
로운 -6455
▁검증 -6456
▁174 -6457
▁세례 -6458
▁수학자 -6459
▁디젤 -6460
▁석탄 -6461
▁오렌 -6462
▁달아 -6463
▁마운 -6464
▁붙이 -6465
▁청와 -6466
▁152 -6467
▁요미우리 -6468
▁애플리케이션 -6469
루미 -6470
▁관습 -6471
▁노동조합 -6472
▁다룬 -6473
운서 -6474
츠키 -6475
▁수산 -6476
▁시라 -6477
▁우즈 -6478
▁지각 -6479
▁플라스 -6480
▁5000 -6481
▁옐 -6482
▁미하 -6483
▁조용 -6484
ock -6485
▁서열 -6486
▁실용 -6487
▁정찰 -6488
iv -6489
▁인과 -6490
▁피난 -6491
문관 -6492
▁변동 -6493
▁아나운서 -6494
▁시드니 -6495
▁찾아가 -6496
▁청와대 -6497
▁메디 -6498
▁전장 -6499
▁소송법 -6500
▁테일러 -6501
▁사명 -6502
▁쇼핑 -6503
결승 -6504
나와 -6505
▁157 -6506
▁서일본 -6507
▁리오 -6508
▁행진 -6509
▁뷔 -6510
▁자면 -6511
▁전진 -6512
토미 -6513
▁얼마나 -6514
▁전문학교 -6515
▁Ar -6516
▁테오 -6517
▁꼴 -6518
▁밀양 -6519
▁장성 -6520
▁한강 -6521
▁해전 -6522
ck -6523
폴리스 -6524
▁금성 -6525
▁루수 -6526
▁규격 -6527
▁빌헬 -6528
▁자율 -6529
▁준공 -6530
▁퇴각 -6531
▁한화 -6532
▁호평 -6533
▁곁 -6534
▁룬 -6535
▁쏟 -6536
▁수신 -6537
▁고사 -6538
▁상상 -6539
▁프로세스 -6540
▁고개 -6541
▁염색 -6542
▁좌표 -6543
▁뿔 -6544
▁번뇌 -6545
▁신전 -6546
▁미스터 -6547
▁어릴 -6548
▁하버드 -6549
▁적대 -6550
▁책봉 -6551
▁회수 -6552
▁가질 -6553
▁구제 -6554
▁보드 -6555
▁관현 -6556
▁급진 -6557
가루 -6558
▁연구자 -6559
▁저기압 -6560
▁판매량 -6561
▁관념 -6562
▁신칸 -6563
▁이슈 -6564
▁물러나 -6565
▁성균관 -6566
▁취약 -6567
▁가즈 -6568
외선 -6569
▁백신 -6570
▁장인 -6571
▁카시 -6572
▁자손 -6573
▁흥행 -6574
산군 -6575
▁무효 -6576
▁복소 -6577
▁비극 -6578
▁지분 -6579
트랙 -6580
▁해임 -6581
원숭이 -6582
▁MP -6583
▁몰락 -6584
▁소금 -6585
▁이순 -6586
수수 -6587
전자 -6588
▁응답 -6589
▁제휴 -6590
니스트 -6591
▁연루 -6592
▁국어 -6593
▁문재인 -6594
▁상류 -6595
▁할당 -6596
▁125 -6597
▁j -6598
▁메가 -6599
▁식당 -6600
▁WWE -6601
▁휩 -6602
카드 -6603
포스 -6604
하르트 -6605
▁146 -6606
▁서독 -6607
▁악마 -6608
▁통행 -6609
▁쇄 -6610
▁에티 -6611
▁천문학 -6612
악단 -6613
▁김용 -6614
▁105 -6615
▁1500 -6616
▁니아 -6617
▁마찰 -6618
혁명 -6619
▁소총 -6620
▁승차 -6621
▁카나 -6622
▁히스 -6623
메르 -6624
▁문제점 -6625
자와 -6626
▁흩 -6627
▁비아 -6628
▁파스 -6629
▁패전 -6630
▁히라 -6631
▁남양 -6632
▁박영 -6633
▁남인 -6634
▁믿음 -6635
▁여수 -6636
▁자고 -6637
▁창업 -6638
▁충족 -6639
▁나미 -6640
▁로고 -6641
▁루터 -6642
▁3000 -6643
▁동남아시아 -6644
▁매출 -6645
▁강사 -6646
▁술탄 -6647
12 -6648
▁마오 -6649
▁유출 -6650
▁저택 -6651
▁외무 -6652
▁우정 -6653
▁1911 -6654
▁이노 -6655
▁착공 -6656
▁노드 -6657
▁소지 -6658
ime -6659
▁윌슨 -6660
▁가라 -6661
▁자책점 -6662
▁서서 -6663
▁됐으며 -6664
▁곳곳 -6665
▁민국 -6666
고속도로 -6667
▁이복 -6668
▁조언 -6669
▁신칸센 -6670
▁성전 -6671
▁153 -6672
▁지지자 -6673
▁얇 -6674
▁나열 -6675
▁원나라 -6676
▁소닉 -6677
▁떨어졌 -6678
▁항공모 -6679
▁프로토콜 -6680
라트 -6681
일드 -6682
▁단원 -6683
▁하마 -6684
▁고원 -6685
▁내내 -6686
▁소관 -6687
▁청사 -6688
▁PS -6689
▁여래 -6690
▁소재지 -6691
▁석가 -6692
▁일렉 -6693
one -6694
▁순천 -6695
▁이이 -6696
서양 -6697
▁디비 -6698
▁중점 -6699
▁지목 -6700
▁Le -6701
▁과목 -6702
▁매개 -6703
▁빌헬름 -6704
▁사지 -6705
▁카트 -6706
▁봤 -6707
▁회견 -6708
▁희극 -6709
▁예배 -6710
제프 -6711
▁MC -6712
▁못해 -6713
▁유언 -6714
▁103 -6715
▁고무 -6716
▁환원 -6717
▁시외버스 -6718
▁힌두 -6719
▁폴리스 -6720
▁아즈 -6721
▁강수량 -6722
▁눈물 -6723
▁증후 -6724
▁환상 -6725
▁두드러 -6726
네이 -6727
▁동위 -6728
▁우주선 -6729
▁배구 -6730
토시 -6731
▁조르 -6732
▁편곡 -6733
▁셈 -6734
▁없애 -6735
대군 -6736
▁따위 -6737
▁와인 -6738
팩트 -6739
▁마천 -6740
▁특유 -6741
▁회계 -6742
▁성모 -6743
▁중장 -6744
▁보잉 -6745
▁후자 -6746
▁Pro -6747
▁연인 -6748
▁이글 -6749
▁카자흐 -6750
▁미얀마 -6751
▁떠난 -6752
▁비틀즈 -6753
▁법령 -6754
▁주권 -6755
▁천사 -6756
▁ISO -6757
▁사로잡 -6758
▁참가자 -6759
▁공자 -6760
▁오클 -6761
▁개업 -6762
▁취재 -6763
▁포장 -6764
▁일관 -6765
▁한데 -6766
▁고베 -6767
델피아 -6768
▁필라델피아 -6769
▁여의 -6770
▁진리 -6771
▁기장 -6772
▁클린 -6773
▁매사 -6774
▁채무 -6775
어리 -6776
▁겸임 -6777
▁반격 -6778
▁제트 -6779
▁공략 -6780
▁선원 -6781
▁해역 -6782
▁닭 -6783
▁친척 -6784
ML -6785
▁공인 -6786
▁별개 -6787
즈카 -6788
▁버튼 -6789
노리 -6790
▁시립 -6791
▁우편 -6792
▁점프 -6793
AP -6794
기니 -6795
▁근접 -6796
▁굵 -6797
▁나리 -6798
▁최적 -6799
▁오렌지 -6800
OC -6801
▁패스 -6802
▁삿 -6803
▁각기 -6804
▁상자 -6805
▁내지 -6806
▁155 -6807
▁출입구 -6808
받침 -6809
▁약한 -6810
▁중종 -6811
▁추모 -6812
▁대답 -6813
▁각본가 -6814
▁회화 -6815
▁토크 -6816
▁독립운동가 -6817
▁보충 -6818
▁여진 -6819
▁테스 -6820
▁협동 -6821
마사 -6822
▁격렬 -6823
▁아군 -6824
동물 -6825
▁밭 -6826
▁게재 -6827
▁허브 -6828
▁발해 -6829
▁모으 -6830
▁인격 -6831
▁카타 -6832
▁얘 -6833
▁나고 -6834
▁유격 -6835
▁이원 -6836
▁주파수 -6837
▁유해 -6838
▁동등 -6839
▁정치가 -6840
▁Bo -6841
▁위장 -6842
▁컨트롤 -6843
노프 -6844
시온 -6845
▁사가 -6846
▁인형 -6847
▁별자리 -6848
te -6849
▁법무 -6850
소스 -6851
▁담배 -6852
▁사물 -6853
▁실종 -6854
▁민영 -6855
▁앞면 -6856
▁증후군 -6857
▁이인 -6858
▁항공모함 -6859
▁생일 -6860
▁토리 -6861
▁포수 -6862
▁108 -6863
▁갓 -6864
▁리메 -6865
▁미소 -6866
▁성주 -6867
▁이영 -6868
▁즐기 -6869
▁북동부 -6870
▁매력 -6871
▁평행 -6872
▁이바 -6873
▁합법 -6874
▁금액 -6875
▁유교 -6876
▁컸 -6877
▁오디오 -6878
▁레전 -6879
▁민사 -6880
▁거슬러 -6881
▁토요일 -6882
▁감지 -6883
▁두산 -6884
▁영동 -6885
▁트라이 -6886
▁Con -6887
▁일찍이 -6888
때로 -6889
리언 -6890
플러 -6891
▁아바 -6892
▁하얀 -6893
▁룰 -6894
▁자발 -6895
Pa -6896
▁베르크 -6897
▁스파이 -6898
▁히데요시 -6899
▁양상 -6900
▁아리스 -6901
▁서해 -6902
▁외곽 -6903
▁개찰구 -6904
▁사우디아 -6905
▁건의 -6906
▁스터 -6907
▁전두환 -6908
▁준결승 -6909
산면 -6910
상스 -6911
▁서서히 -6912
▁어두운 -6913
▁마친 -6914
▁하우 -6915
▁펴 -6916
▁상대방 -6917
io -6918
▁고체 -6919
▁박탈 -6920
▁상부 -6921
▁가르침 -6922
▁승무원 -6923
항공 -6924
▁일족 -6925
▁에디 -6926
▁이사장 -6927
▁퍼시픽 -6928
ber -6929
▁아케 -6930
▁시청자 -6931
▁교장 -6932
▁화살 -6933
산리 -6934
▁때때로 -6935
▁에이스 -6936
▁헐 -6937
▁야간 -6938
▁추격 -6939
▁김영삼 -6940
▁브래 -6941
▁입상 -6942
▁트럼프 -6943
▁드라이브 -6944
▁크리스마스 -6945
▁전례 -6946
▁나고야 -6947
▁꾀 -6948
▁세균 -6949
▁앙리 -6950
▁호세 -6951
▁생명체 -6952
▁하인리히 -6953
베이터 -6954
▁상장 -6955
▁IT -6956
▁무려 -6957
러미 -6958
▁홍수 -6959
▁튼 -6960
▁해운 -6961
▁아우구 -6962
▁1909 -6963
퍼니 -6964
화점 -6965
▁고발 -6966
▁교단 -6967
▁만세 -6968
▁궁정 -6969
▁남긴 -6970
▁전함 -6971
▁외국어 -6972
▁대주교 -6973
▁이슬람교 -6974
▁기금 -6975
▁사다 -6976
▁물자 -6977
▁부착 -6978
▁캠페인 -6979
가타 -6980
▁128 -6981
▁149 -6982
▁레이저 -6983
▁옴 -6984
▁골프 -6985
▁긴장 -6986
▁톈 -6987
▁102 -6988
▁대군 -6989
▁수성 -6990
▁운동장 -6991
모어 -6992
▁명의 -6993
▁복장 -6994
▁전도 -6995
▁콜라 -6996
▁트위 -6997
▁향교 -6998
▁보스니아 -6999
칠리아 -7000
▁사용자 -7001
구장 -7002
▁정밀 -7003
▁# -7004
▁메타 -7005
▁트루 -7006
▁물러났 -7007
▁자마자 -7008
▁연도 -7009
▁호칭 -7010
라미 -7011
▁고가 -7012
▁짜리 -7013
▁기다리 -7014
▁제작자 -7015
▁끊임 -7016
▁배틀 -7017
라이트 -7018
▁피고 -7019
▁존중 -7020
▁건축가 -7021
▁대외 -7022
▁안장 -7023
▁집계 -7024
▁치세 -7025
▁르네상스 -7026
▁슬라 -7027
▁후안 -7028
▁중국인 -7029
▁지나치 -7030
람회 -7031
▁어드 -7032
▁남한 -7033
▁중재 -7034
▁안드레 -7035
▁최저 -7036
▁에스파냐 -7037
▁발원 -7038
▁텍스트 -7039
▁사우디아라비아 -7040
ge -7041
트릭 -7042
▁주지사 -7043
▁전대 -7044
▁직책 -7045
▁계절 -7046
▁송나라 -7047
▁발현 -7048
▁쉐 -7049
먼드 -7050
age -7051
▁차남 -7052
붙이 -7053
▁셸 -7054
다드 -7055
▁여주 -7056
▁Bl -7057
▁자유당 -7058
▁섭취 -7059
▁시오 -7060
▁팽창 -7061
▁포괄 -7062
▁네이버 -7063
생활 -7064
iz -7065
▁방침 -7066
▁세미 -7067
▁최소한 -7068
집합 -7069
▁단기 -7070
▁사절 -7071
▁키프 -7072
▁레전드 -7073
▁강경 -7074
▁패하 -7075
백과 -7076
▁문양 -7077
▁향후 -7078
▁손가락 -7079
▁아미타 -7080
▁$ -7081
▁상세 -7082
▁초창 -7083
▁향한 -7084
▁둥근 -7085
▁사이버 -7086
▁대니 -7087
▁에우 -7088
▁원자로 -7089
▁포도주 -7090
▁턱 -7091
▁낙선 -7092
▁수평 -7093
▁굉장 -7094
▁다중 -7095
▁원하 -7096
차례 -7097
▁토스 -7098
▁프랭크 -7099
▁청장 -7100
▁촉구 -7101
우라 -7102
▁갑작 -7103
▁객관 -7104
▁고래 -7105
▁끌어 -7106
AD -7107
▁팔레스 -7108
▁충주 -7109
▁캄보 -7110
▁탐지 -7111
▁건너가 -7112
사기 -7113
▁147 -7114
▁유니폼 -7115
▁룽 -7116
▁로프 -7117
▁조반 -7118
▁태생 -7119
▁수군 -7120
▁그랑프리 -7121
▁127 -7122
▁단점 -7123
▁블루스 -7124
▁동독 -7125
▁죽였 -7126
▁토마 -7127
▁CPU -7128
▁명목 -7129
▁볼리 -7130
▁속성 -7131
▁경부 -7132
수엘라 -7133
▁딩 -7134
리즘 -7135
태우 -7136
▁기수 -7137
▁스릴 -7138
▁노란색 -7139
▁1915 -7140
▁진군 -7141
▁아미노 -7142
▁엘리베이터 -7143
▁초연 -7144
▁캐스팅 -7145
▁뢰 -7146
▁무죄 -7147
▁겔 -7148
행위 -7149
▁왜성 -7150
▁케네 -7151
▁171 -7152
▁음원 -7153
노부 -7154
▁버린 -7155
▁숭배 -7156
▁입체 -7157
▁주축 -7158
▁취지 -7159
▁하이드 -7160
▁컬러 -7161
▁로맨스 -7162
▁역명 -7163
▁협조 -7164
▁1913 -7165
▁윌리엄스 -7166
sp -7167
다고 -7168
▁침몰 -7169
보기 -7170
▁난민 -7171
▁달린 -7172
orld -7173
▁북방 -7174
▁심의 -7175
▁알코 -7176
▁뉘 -7177
▁오키나와 -7178
▁마비 -7179
▁북구 -7180
▁황해 -7181
▁상당수 -7182
▁이어받 -7183
▁엔지 -7184
▁제곱 -7185
▁유소년 -7186
▁따뜻 -7187
▁라파 -7188
▁원고 -7189
▁추증 -7190
▁후일 -7191
▁천문학자 -7192
▁베네수엘라 -7193
▁부천 -7194
▁투르크 -7195
▁동당 -7196
▁가져왔 -7197
▁언제나 -7198
ik -7199
▁광년 -7200
서리 -7201
창군 -7202
▁김재 -7203
▁신흥 -7204
▁마하 -7205
▁부과 -7206
▁재미 -7207
▁문학상 -7208
▁수동 -7209
▁옥스 -7210
▁추상 -7211
▁테니스 -7212
▁동년 -7213
▁분광 -7214
▁출토 -7215
시티 -7216
▁도라 -7217
▁위키백과 -7218
▁센서 -7219
▁보리 -7220
▁창건 -7221
▁코프 -7222
▁닿 -7223
▁김수 -7224
▁이민자 -7225
▁초창기 -7226
▁둘레 -7227
▁미쳤 -7228
▁타르 -7229
▁서사 -7230
▁이틀 -7231
▁조리 -7232
▁전한다 -7233
▁팜 -7234
▁대포 -7235
▁동래 -7236
▁태수 -7237
기지 -7238
▁강과 -7239
▁기습 -7240
▁버려 -7241
▁어업 -7242
▁GT -7243
▁든지 -7244
▁169 -7245
▁김진 -7246
▁수렴 -7247
▁시그 -7248
▁탈환 -7249
▁개미 -7250
▁머신 -7251
자치도 -7252
▁제주특별 -7253
▁제주특별자치도 -7254
▁창시 -7255
▁가르쳤 -7256
▁병역 -7257
▁원반 -7258
▁라이언 -7259
포구 -7260
▁수령 -7261
▁CE -7262
명사전 -7263
▁디스플레이 -7264
▁대역 -7265
▁바흐 -7266
▁스파르타 -7267
▁넨 -7268
▁휠 -7269
▁종결 -7270
▁청원 -7271
크리트 -7272
▁1895 -7273
▁정말 -7274
▁SP -7275
▁광부 -7276
▁모스 -7277
▁유수 -7278
▁hPa -7279
▁무제 -7280
▁인재 -7281
▁카탈 -7282
▁프레스 -7283
▁나가사키 -7284
▁리메이크 -7285
▁걱 -7286
▁링컨 -7287
▁아폴 -7288
▁총선거 -7289
▁al -7290
▁대처 -7291
▁대제 -7292
▁141 -7293
▁한동안 -7294
▁팔레스타인 -7295
석기 -7296
▁남원 -7297
▁다녀 -7298
▁유연 -7299
▁초상화 -7300
평군 -7301
포트 -7302
▁통칭 -7303
▁효력 -7304
▁계몽 -7305
▁멈추 -7306
▁적자 -7307
▁풀려 -7308
▁아사히 -7309
▁반박 -7310
▁주차 -7311
▁둘러싼 -7312
▁언론인 -7313
▁거느리 -7314
MS -7315
▁동력 -7316
▁법제 -7317
와라 -7318
▁비문 -7319
▁시공 -7320
박쥐 -7321
▁국사 -7322
▁135 -7323
▁다운로드 -7324
▁Tr -7325
▁부른 -7326
▁총괄 -7327
▁신세 -7328
▁북서부 -7329
▁섭정 -7330
공신 -7331
▁고백 -7332
▁나주 -7333
▁삼진 -7334
네스코 -7335
▁하부 -7336
▁후세 -7337
▁온천 -7338
▁탤 -7339
벌레 -7340
무기 -7341
ust -7342
▁소실 -7343
▁양주 -7344
▁111 -7345
▁번영 -7346
그라드 -7347
▁수용소 -7348
▁김태 -7349
자스 -7350
▁서머 -7351
▁도호쿠 -7352
▁십자가 -7353
▁자기장 -7354
▁바실 -7355
▁중순 -7356
▁차기 -7357
▁풋볼 -7358
▁지냈으며 -7359
ep -7360
선거 -7361
▁신중 -7362
▁이진 -7363
▁대위 -7364
▁개관 -7365
▁귀중 -7366
▁저명 -7367
▁문화방송 -7368
▁여겼 -7369
▁해병대 -7370
▁어스 -7371
▁영리 -7372
▁서울대 -7373
▁캄보디아 -7374
▁144 -7375
▁더글 -7376
▁후대 -7377
▁원내 -7378
▁명백 -7379
▁날짜 -7380
▁내외 -7381
▁오빠 -7382
▁첨가 -7383
▁스핀 -7384
▁자랐 -7385
▁풍경 -7386
▁께서 -7387
▁폐위 -7388
▁조달 -7389
▁스티브 -7390
▁그로 -7391
▁김포 -7392
▁식별 -7393
▁휴식 -7394
▁함유 -7395
▁병조 -7396
▁걱정 -7397
▁며칠 -7398
▁중소 -7399
▁연세대 -7400
▁기요 -7401
▁두루 -7402
▁정전 -7403
▁파업 -7404
▁리버풀 -7405
▁전성기 -7406
▁컴퍼니 -7407
▁당일 -7408
▁써서 -7409
▁불편 -7410
▁장미 -7411
▁아레나 -7412
int -7413
▁정무 -7414
▁제수 -7415
▁충실 -7416
▁평야 -7417
▁It -7418
▁교원 -7419
▁무상 -7420
▁이광 -7421
누엘 -7422
▁119 -7423
▁지나가 -7424
▁컬럼비아 -7425
▁소환 -7426
▁스릴러 -7427
▁꽤 -7428
▁캉 -7429
▁천도 -7430
키지 -7431
▁TH -7432
▁고인 -7433
▁공채 -7434
▁관통 -7435
▁드럼 -7436
▁에다 -7437
▁편리 -7438
▁신학교 -7439
▁우연히 -7440
▁바꿔 -7441
▁총사 -7442
▁다니엘 -7443
릴라 -7444
▁CO -7445
▁매카 -7446
▁교양 -7447
▁버린다 -7448
▁케네디 -7449
▁간호 -7450
▁고민 -7451
트리올 -7452
▁몬트리올 -7453
▁카이사르 -7454
▁드라 -7455
▁모방 -7456
▁북위 -7457
▁위임 -7458
▁인산 -7459
▁172 -7460
▁도스 -7461
▁언더 -7462
▁별칭 -7463
▁사회학 -7464
EN -7465
▁룡 -7466
▁선구 -7467
▁요르 -7468
▁총대 -7469
GC -7470
리에 -7471
말라 -7472
▁유니버 -7473
푸스 -7474
▁겸하 -7475
▁휴전 -7476
▁그렸 -7477
▁덤 -7478
시로 -7479
▁아종 -7480
▁해수 -7481
▁관람 -7482
▁엔지니어 -7483
ib -7484
▁루시 -7485
▁테레 -7486
▁신학자 -7487
▁이글스 -7488
▁리어 -7489
▁바치 -7490
▁106 -7491
▁왓 -7492
▁가벼 -7493
▁껍질 -7494
▁미주 -7495
▁연패 -7496
▁넘어가 -7497
▁니콜라 -7498
▁베드 -7499
▁평일 -7500
▁바퀴 -7501
▁선종 -7502
▁스러 -7503
▁의상 -7504
▁장안 -7505
▁증진 -7506
▁진짜 -7507
▁평범 -7508
▁친일인 -7509
▁유네스코 -7510
▁친일인명사전 -7511
그로 -7512
▁미즈 -7513
▁세계관 -7514
▁스페이스 -7515
ome -7516
▁묘역 -7517
▁보완 -7518
▁쇼트 -7519
▁신기 -7520
▁애덤 -7521
▁아틀레 -7522
▁한성부 -7523
ian -7524
▁공모 -7525
▁좌절 -7526
▁아이템 -7527
니치 -7528
라리 -7529
▁김상 -7530
▁실린 -7531
▁카리브 -7532
ude -7533
▁중량 -7534
▁초과 -7535
▁표명 -7536
져서 -7537
▁서남 -7538
▁장난 -7539
케이션 -7540
▁도주 -7541
▁몰려 -7542
▁공직 -7543
▁누군 -7544
▁아벨 -7545
▁장려 -7546
▁느낀 -7547
▁미토 -7548
▁소통 -7549
▁승점 -7550
▁슈트 -7551
▁영남 -7552
▁항소 -7553
▁케이스 -7554
▁콘크리트 -7555
▁멋 -7556
▁도왔 -7557
▁마인 -7558
▁어요 -7559
▁제갈 -7560
▁프랑수아 -7561
▁콰 -7562
▁고수 -7563
▁열대 -7564
▁치열 -7565
▁들어온 -7566
▁마츠 -7567
▁지혜 -7568
▁들어왔 -7569
▁에스토 -7570
▁잦 -7571
▁쿤 -7572
▁훔 -7573
▁바라보 -7574
▁We -7575
▁등재 -7576
▁방패 -7577
▁돌연 -7578
▁배신 -7579
▁쓰인 -7580
▁차종 -7581
▁해변 -7582
▁아이슬 -7583
▁생전 -7584
▁포격 -7585
▁일어날 -7586
▁책임자 -7587
▁정렬 -7588
▁쫓겨 -7589
▁탱크 -7590
▁그루 -7591
▁낱말 -7592
▁외교관 -7593
ere -7594
▁지폐 -7595
▁충북 -7596
▁역설 -7597
내셔널 -7598
주의자 -7599
▁인터내셔널 -7600
▁닷 -7601
▁우울 -7602
▁일화 -7603
▁전압 -7604
루션 -7605
블로 -7606
세츠 -7607
페르 -7608
▁영장 -7609
▁합창 -7610
선스 -7611
▁입지 -7612
실록 -7613
▁공단 -7614
▁양도 -7615
▁투르 -7616
▁매사추 -7617
▁황태자 -7618
치오 -7619
ire -7620
▁불명 -7621
▁쉬운 -7622
▁일조 -7623
▁단식 -7624
▁발트 -7625
▁상서 -7626
▁에버 -7627
▁공의회 -7628
▁매사추세츠 -7629
▁부채 -7630
▁업계 -7631
▁청하 -7632
▁퍼센트 -7633
▁아이슬란드 -7634
▁대웅 -7635
▁신속 -7636
▁암석 -7637
▁호위 -7638
▁우라늄 -7639
▁중추원 -7640
▁기어 -7641
나리 -7642
▁냄 -7643
유행 -7644
▁시나리오 -7645
▁밟 -7646
▁나스 -7647
▁부재 -7648
라이더 -7649
▁구이 -7650
▁레바 -7651
▁소유자 -7652
▁협주곡 -7653
▁도르 -7654
오피아 -7655
▁에티오피아 -7656
▁도루 -7657
▁탈당 -7658
ace -7659
▁교외 -7660
▁친왕 -7661
▁무거운 -7662
▁오노 -7663
▁오비 -7664
▁스페인어 -7665
▁에스토니아 -7666
▁시흥 -7667
▁실전 -7668
▁여지 -7669
▁위탁 -7670
▁호프 -7671
ment -7672
▁오세 -7673
▁인연 -7674
pe -7675
▁고령 -7676
▁마약 -7677
▁지능 -7678
▁횟 -7679
▁기인 -7680
▁김기 -7681
▁난다 -7682
▁봉쇄 -7683
▁어울 -7684
▁닝 -7685
▁로열 -7686
▁상담 -7687
▁육지 -7688
▁중심부 -7689
▁라이선스 -7690
▁햇 -7691
▁서정 -7692
▁물리학자 -7693
▁창고 -7694
▁평택 -7695
리케인 -7696
ide -7697
▁바리 -7698
▁보일 -7699
▁해소 -7700
▁리비아 -7701
▁슬로바키아 -7702
마드 -7703
▁통근 -7704
▁파장 -7705
▁시선 -7706
▁즈음 -7707
▁나쁜 -7708
▁숨겨 -7709
▁오사 -7710
▁대전광역시 -7711
▁돌리 -7712
▁허리케인 -7713
▁현금 -7714
바이잔 -7715
▁148 -7716
▁전라도 -7717
야시 -7718
▁병행 -7719
▁사슬 -7720
▁하락 -7721
▁할리우드 -7722
의자 -7723
▁격투 -7724
▁신생 -7725
▁애틀 -7726
▁페르난 -7727
석탑 -7728
▁의뢰 -7729
하면 -7730
▁NBA -7731
▁끓 -7732
▁벗어 -7733
▁호기 -7734
층석탑 -7735
▁1916 -7736
▁바뀐 -7737
▁이사회 -7738
중국 -7739
▁내린 -7740
▁추세 -7741
▁치즈 -7742
▁136 -7743
▁아제르 -7744
▁스튜어트 -7745
▁부적 -7746
제리 -7747
▁바닷 -7748
▁결혼식 -7749
▁극동 -7750
▁낭만 -7751
▁바른 -7752
▁순회 -7753
▁마이너 -7754
▁실시간 -7755
▁아제르바이잔 -7756
▁HT -7757
▁TO -7758
▁빠졌 -7759
▁추출 -7760
▁배터리 -7761
▁앓 -7762
승지 -7763
▁닛폰 -7764
▁특집 -7765
▁막내 -7766
▁서재 -7767
위원 -7768
▁성운 -7769
▁입당 -7770
▁우루과이 -7771
▁끌려 -7772
▁허리 -7773
지리아 -7774
▁급격히 -7775
▁파이어 -7776
▁나이지리아 -7777
▁동상 -7778
▁조연 -7779
▁말리 -7780
▁명제 -7781
▁사헌 -7782
▁우세 -7783
▁솜 -7784
▁격퇴 -7785
▁IBM -7786
▁네이션스 -7787
IM -7788
▁얘기 -7789
▁주행 -7790
▁작센 -7791
▁세션 -7792
바다 -7793
▁바스 -7794
▁아마도 -7795
▁DC -7796
▁구도 -7797
▁다항 -7798
▁산다 -7799
▁산림 -7800
▁원숭이 -7801
▁되게 -7802
▁신탁 -7803
▁실장 -7804
▁내려가 -7805
▁패키지 -7806
▁국무총리 -7807
▁전념 -7808
시피 -7809
▁의약 -7810
▁거론 -7811
▁실리 -7812
▁첼시 -7813
▁쌍둥이 -7814
▁데이비스 -7815
▁시초 -7816
▁유동 -7817
▁138 -7818
▁노부나가 -7819
▁깨달 -7820
▁수습 -7821
▁워드 -7822
▁한지 -7823
람쥐 -7824
▁가동 -7825
▁개그 -7826
▁박해 -7827
▁저하 -7828
▁중위 -7829
▁포터 -7830
▁현종 -7831
▁솟 -7832
▁구릉 -7833
▁안성 -7834
▁한스 -7835
▁딕 -7836
▁면허 -7837
▁모른다 -7838
▁객체 -7839
▁고소 -7840
▁반감 -7841
▁신규 -7842
▁백색 -7843
▁회고 -7844
▁리우스 -7845
▁페르디 -7846
▁내보 -7847
▁약칭 -7848
▁평원 -7849
▁백화점 -7850
▁치러진 -7851
▁구호 -7852
▁극히 -7853
▁지류 -7854
▁브라우저 -7855
▁실려 -7856
▁자아 -7857
▁사헌부 -7858
cl -7859
▁경연 -7860
▁분당 -7861
▁전했 -7862
▁후방 -7863
▁리틀 -7864
▁치명 -7865
▁la -7866
▁신한 -7867
어버 -7868
▁레논 -7869
▁구조물 -7870
▁시칠리아 -7871
리니 -7872
타로 -7873
▁거제 -7874
▁시즈 -7875
▁이세 -7876
▁해밀 -7877
▁붙였 -7878
▁잡아 -7879
▁지선 -7880
▁탐구 -7881
▁360 -7882
▁펌 -7883
▁성숙 -7884
▁냉각 -7885
▁나타낼 -7886
▁후쿠시마 -7887
▁상공 -7888
▁여겨졌 -7889
▁영의정 -7890
▁거행 -7891
▁중성자 -7892
▁뭉 -7893
타나 -7894
▁고성 -7895
▁토성 -7896
▁환영 -7897
드리아 -7898
▁도미 -7899
▁재위 -7900
양함 -7901
▁최악 -7902
▁그날 -7903
▁춘천 -7904
▁104 -7905
▁최상위 -7906
토모 -7907
▁복선 -7908
▁한쪽 -7909
▁할지 -7910
▁아부 -7911
▁오바 -7912
▁이를 -7913
▁바이오 -7914
브레 -7915
▁LP -7916
▁가면 -7917
▁생식 -7918
대신 -7919
▁결선 -7920
래스카 -7921
▁게르만 -7922
▁다스리 -7923
▁라이브러리 -7924
아이 -7925
▁재현 -7926
▁택시 -7927
▁해적 -7928
여래 -7929
▁혈통 -7930
▁반도체 -7931
▁라트비아 -7932
스틴 -7933
▁En -7934
▁감리 -7935
▁그램 -7936
▁임용 -7937
▁갑작스 -7938
곡리 -7939
▁춘추 -7940
▁새겨져 -7941
▁동점 -7942
▁리라 -7943
▁비시 -7944
▁차장 -7945
▁횟수 -7946
베르토 -7947
▁성체 -7948
▁장학 -7949
▁정한 -7950
▁피에 -7951
마쓰 -7952
▁도장 -7953
▁보인 -7954
▁트래 -7955
회장 -7956
▁송시 -7957
▁주가 -7958
▁애틀랜 -7959
▁테이블 -7960
▁릉 -7961
데시 -7962
타고 -7963
▁가짜 -7964
▁반경 -7965
▁어휘 -7966
▁모니터 -7967
은색 -7968
▁우위 -7969
ark -7970
▁고치 -7971
▁제독 -7972
▁스트레스 -7973
▁미라 -7974
▁왜냐 -7975
▁오피스 -7976
▁휴스턴 -7977
▁나비 -7978
▁잔류 -7979
▁주름 -7980
▁109 -7981
▁Pr -7982
푸르트 -7983
▁개원 -7984
▁축하 -7985
하시 -7986
▁매달 -7987
▁행적 -7988
▁목판 -7989
▁힘입 -7990
▁방송사 -7991
▁별다른 -7992
▁하워드 -7993
▁스톡 -7994
▁현저 -7995
▁123 -7996
▁부당 -7997
▁몰아 -7998
▁이케 -7999
▁정점 -8000
▁칼라 -8001
▁대학생 -8002
▁호랑이 -8003
▁견제 -8004
▁교황청 -8005
▁치아 -8006
▁통증 -8007
리안 -8008
▁억압 -8009
▁대표작 -8010
▁성취 -8011
▁폭동 -8012
▁사우루스 -8013
▁아홉 -8014
▁코무네 -8015
▁공수 -8016
▁육체 -8017
▁주주 -8018
▁공산주의자 -8019
고쿠 -8020
▁열정 -8021
▁야구장 -8022
차기 -8023
▁바나 -8024
▁비리 -8025
▁소매 -8026
▁여당 -8027
▁한인 -8028
더슨 -8029
란히 -8030
포드 -8031
▁공천 -8032
▁루프 -8033
▁이식 -8034
▁매입 -8035
▁민회 -8036
▁눌 -8037
▁고장 -8038
▁타이거즈 -8039
▁순교 -8040
▁아담 -8041
▁적당 -8042
▁축적 -8043
▁펜실 -8044
▁연합회 -8045
베이니아 -8046
▁펜실베이니아 -8047
랜트 -8048
▁NC -8049
▁시바 -8050
▁일러 -8051
▁명령어 -8052
▁모이 -8053
▁벌금 -8054
▁인플 -8055
은이 -8056
헤이 -8057
▁143 -8058
▁카자흐스탄 -8059
▁나눌 -8060
▁노바 -8061
▁못할 -8062
▁터치 -8063
▁종로구 -8064
▁AK -8065
▁요하 -8066
▁응원 -8067
▁주역 -8068
▁처녀 -8069
▁AR -8070
▁경관 -8071
▁광물 -8072
▁암시 -8073
글리 -8074
▁너비 -8075
▁분비 -8076
▁팔라 -8077
▁분기점 -8078
법인 -8079
▁동아일보 -8080
▁상점 -8081
▁가죽 -8082
▁수련 -8083
▁덧붙여 -8084
▁리우 -8085
▁산란 -8086
▁부르크 -8087
바시 -8088
▁다발 -8089
▁베스 -8090
▁청춘 -8091
▁관해서 -8092
▁관해 -8093
▁기적 -8094
▁성사 -8095
▁신조 -8096
▁오해 -8097
▁돋 -8098
▁롤링 -8099
▁사모 -8100
▁이화 -8101
▁폭행 -8102
▁해명 -8103
▁상단 -8104
▁이윤 -8105
▁CS -8106
▁존속 -8107
▁증대 -8108
▁피츠 -8109
▁이에야스 -8110
▁팡 -8111
▁목재 -8112
▁신주 -8113
▁염기 -8114
▁토모 -8115
▁소나타 -8116
▁히메 -8117
AL -8118
▁자민 -8119
▁제프 -8120
▁출처 -8121
▁마야 -8122
▁비자 -8123
▁차이점 -8124
▁플라이 -8125
▁근교 -8126
▁상반 -8127
▁신념 -8128
▁킥 -8129
▁CC -8130
▁아예 -8131
▁col -8132
▁그동안 -8133
▁유로파 -8134
▁조선일보 -8135
▁다이아몬드 -8136
▁김경 -8137
▁블라디미르 -8138
산동 -8139
▁만남 -8140
▁컴파 -8141
▁펑크 -8142
▁경상도 -8143
▁엿 -8144
ile -8145
▁규범 -8146
▁살리 -8147
▁남동부 -8148
▁블로그 -8149
▁맵 -8150
▁광학 -8151
▁모았 -8152
▁누군가 -8153
▁박람회 -8154
▁생산량 -8155
▁관구 -8156
▁유죄 -8157
▁음료 -8158
▁통영 -8159
▁부설 -8160
▁늘어났 -8161
▁래퍼 -8162
▁법조 -8163
▁드문 -8164
▁시골 -8165
▁알코올 -8166
기업 -8167
▁무지 -8168
▁상용 -8169
▁운하 -8170
▁충전 -8171
▁친일파 -8172
▁쳤 -8173
▁나트 -8174
브리지 -8175
권자 -8176
ies -8177
▁원했 -8178
▁헤라 -8179
▁Op -8180
▁부제 -8181
▁이소 -8182
▁화해 -8183
▁태양계 -8184
▁갇 -8185
▁황실 -8186
▁누가 -8187
▁누이 -8188
▁보석 -8189
▁설탕 -8190
▁카롤 -8191
▁달했 -8192
▁뜨거운 -8193
▁끄 -8194
▁적분 -8195
▁단단 -8196
▁깨닫 -8197
▁사육 -8198
▁이타 -8199
▁티스 -8200
▁흠 -8201
▁동국 -8202
비나 -8203
살이 -8204
▁상사 -8205
▁확신 -8206
▁조세 -8207
▁비유 -8208
▁라오스 -8209
▁왜냐하면 -8210
레기 -8211
▁떨어 -8212
▁공관 -8213
▁공습 -8214
▁공익 -8215
▁경찰청 -8216
▁베어스 -8217
▁협박 -8218
▁히사 -8219
▁브라더스 -8220
xt -8221
▁누나 -8222
▁126 -8223
▁중의원 -8224
▁속했 -8225
▁신민 -8226
▁112 -8227
▁CON -8228
▁트위터 -8229
▁카를로스 -8230
도리 -8231
▁언니 -8232
▁이순신 -8233
▁장거리 -8234
▁대폭 -8235
▁마디 -8236
▁시베리아 -8237
▁레일 -8238
▁품종 -8239
▁후한 -8240
▁루이지 -8241
수리 -8242
ite -8243
▁미르 -8244
▁시어 -8245
▁어원 -8246
▁굉장히 -8247
▁구축함 -8248
▁이산화 -8249
▁트윈스 -8250
▁국소 -8251
▁후사 -8252
▁107 -8253
▁빠진 -8254
▁RNA -8255
▁키프로스 -8256
▁수법 -8257
▁우유 -8258
▁거북 -8259
▁드러났 -8260
▁왜곡 -8261
▁이긴 -8262
▁법무부 -8263
▁사업자 -8264
▁창원시 -8265
▁Te -8266
▁경보 -8267
▁구출 -8268
▁우호 -8269
▁제재 -8270
▁허위 -8271
▁범인 -8272
▁헤비 -8273
▁삼층석탑 -8274
▁is -8275
▁우승자 -8276
▁조종사 -8277
거진 -8278
▁신선 -8279
▁교과서 -8280
▁플러스 -8281
▁받아들였 -8282
▁가군 -8283
▁아랍어 -8284
고래 -8285
▁당주 -8286
▁성단 -8287
▁세라 -8288
▁입원 -8289
▁117 -8290
▁맥락 -8291
▁여파 -8292
▁옆면 -8293
▁할머니 -8294
▁곡인 -8295
▁느껴 -8296
▁몰리 -8297
▁소셜 -8298
▁실체 -8299
▁탐사선 -8300
스부르크 -8301
랑카 -8302
▁몰래 -8303
▁송시열 -8304
▁보증 -8305
▁천장 -8306
▁포럼 -8307
▁줄무늬 -8308
도바 -8309
▁근원 -8310
▁그만두 -8311
ft -8312
▁살아가 -8313
▁거울 -8314
▁나르 -8315
▁맥주 -8316
▁빌려 -8317
▁지평 -8318
▁핸드 -8319
▁연쇄 -8320
▁인문 -8321
▁대웅전 -8322
▁동문 -8323
▁생겨났 -8324
▁결함 -8325
▁드로 -8326
▁소원 -8327
▁담긴 -8328
▁퐁 -8329
▁네스 -8330
▁빈곤 -8331
▁키우 -8332
갈색 -8333
다지 -8334
▁평의회 -8335
▁도마뱀붙이 -8336
▁이경 -8337
▁인체 -8338
▁릿 -8339
▁담겨 -8340
▁희생자 -8341
▁SE -8342
▁교정 -8343
▁일방 -8344
▁350 -8345
▁물리치 -8346
▁가마쿠라 -8347
▁내려오 -8348
▁다룬다 -8349
▁일반인 -8350
▁제니 -8351
▁찾아볼 -8352
▁화장실 -8353
▁신약 -8354
▁com -8355
▁통틀 -8356
▁을지 -8357
▁제대 -8358
▁탐색 -8359
▁양키스 -8360
▁날씨 -8361
▁성별 -8362
▁테이프 -8363
▁데모 -8364
▁드레 -8365
▁이브 -8366
▁해고 -8367
ound -8368
▁121 -8369
시타 -8370
▁기다 -8371
▁샘플 -8372
▁아카데미상 -8373
▁만일 -8374
▁후궁 -8375
▁고속도 -8376
▁왔으며 -8377
끼리 -8378
▁진급 -8379
▁빨간색 -8380
▁삼성전자 -8381
▁CF -8382
▁173 -8383
승부 -8384
▁펠리 -8385
▁필터 -8386
▁개교 -8387
▁결코 -8388
▁철회 -8389
▁137 -8390
▁바오로 -8391
▁전자기 -8392
무스 -8393
▁승계 -8394
ath -8395
▁요동 -8396
▁맘 -8397
조부 -8398
지붕 -8399
▁띤다 -8400
▁양측 -8401
▁연합국 -8402
의장 -8403
ond -8404
▁나눠 -8405
▁비르 -8406
▁포병 -8407
▁근로자 -8408
▁킴 -8409
연합 -8410
▁주이 -8411
▁지미 -8412
▁물려받 -8413
▁가축 -8414
▁거쳤 -8415
▁방화 -8416
▁라이너 -8417
▁필리프 -8418
OL -8419
▁문예 -8420
▁진공 -8421
▁1894 -8422
▁구해 -8423
▁일가 -8424
▁헥 -8425
▁궁극 -8426
▁뒤집 -8427
▁왕복 -8428
▁투옥 -8429
▁힘든 -8430
게이머 -8431
▁수용체 -8432
▁총독부 -8433
▁프로게이머 -8434
ory -8435
▁바우 -8436
▁서진 -8437
마루 -8438
▁가장자리 -8439
▁문구 -8440
베니아 -8441
▁다크 -8442
▁무어 -8443
▁워터 -8444
▁최강 -8445
▁떠올 -8446
▁세속 -8447
▁태권 -8448
▁미션 -8449
▁수색 -8450
크라 -8451
man -8452
▁칭찬 -8453
▁113 -8454
수소 -8455
▁레온 -8456
그레이드 -8457
▁클라우드 -8458
▁붐 -8459
규모 -8460
▁공민 -8461
▁믹스 -8462
▁슬로베니아 -8463
대기 -8464
▁공방 -8465
▁크리스토퍼 -8466
나스 -8467
▁핵무기 -8468
▁극심 -8469
▁서민 -8470
▁도미니 -8471
▁업그레이드 -8472
▁IM -8473
▁요건 -8474
▁뒷면 -8475
▁용병 -8476
▁일컬 -8477
▁멜로디 -8478
ov -8479
▁농림 -8480
▁유년 -8481
▁카카 -8482
▁게스트 -8483
▁대의원 -8484
▁주어지 -8485
▁LC -8486
▁적도 -8487
▁즉각 -8488
▁바티칸 -8489
▁최대한 -8490
▁땃 -8491
단체 -8492
톨레 -8493
▁대피 -8494
로이 -8495
▁계정 -8496
▁그냥 -8497
▁브로드 -8498
▁알제리 -8499
번스 -8500
▁성도 -8501
▁치안 -8502
▁곤란 -8503
▁로이 -8504
▁신시 -8505
▁공백 -8506
▁군정 -8507
▁둥지 -8508
▁더니 -8509
▁상해 -8510
▁하동 -8511
▁코스타 -8512
▁강서 -8513
▁124 -8514
▁먼지 -8515
▁혈관 -8516
셰비 -8517
▁". -8518
▁미키 -8519
▁초월 -8520
▁타당 -8521
퍼런스 -8522
iver -8523
▁프랑크푸르트 -8524
▁김현 -8525
▁미루 -8526
▁게이지 -8527
▁부딪 -8528
▁독일인 -8529
▁개종 -8530
▁캐시 -8531
▁땄 -8532
▁모친 -8533
▁제인 -8534
▁몬스터 -8535
▁시뮬 -8536
▁국내외 -8537
▁z -8538
아프리카 -8539
▁On -8540
▁횡단 -8541
▁륙 -8542
mer -8543
▁관음 -8544
▁판본 -8545
▁탤런트 -8546
박스 -8547
▁로우 -8548
▁서초 -8549
▁항쟁 -8550
▁야마토 -8551
▁갈릴 -8552
▁스캔 -8553
▁구절 -8554
로니 -8555
블리 -8556
▁내정 -8557
▁상표 -8558
▁성문 -8559
▁욕구 -8560
▁피오 -8561
▁자연수 -8562
▁고고학 -8563
▁World -8564
▁커뮤니케이션 -8565
▁be -8566
▁배후 -8567
▁붙인 -8568
▁가루 -8569
▁말씀 -8570
▁일생 -8571
▁제압 -8572
▁학계 -8573
▁오리콘 -8574
▁돌격 -8575
린스 -8576
▁SU -8577
▁야쿠 -8578
▁디렉 -8579
▁원전 -8580
▁자선 -8581
▁자오 -8582
▁초록 -8583
대원군 -8584
▁김정일 -8585
▁이어진다 -8586
▁감자 -8587
▁예조 -8588
▁남서부 -8589
▁양호 -8590
▁유저 -8591
▁체크 -8592
▁검찰청 -8593
▁베네딕 -8594
▁영산 -8595
▁아랫 -8596
▁풍자 -8597
▁침투 -8598
▁New -8599
▁CR -8600
▁기질 -8601
▁1890 -8602
▁들어간다 -8603
▁므 -8604
ich -8605
▁옵션 -8606
▁우파 -8607
▁자비 -8608
▁분명히 -8609
▁소규모 -8610
줄기 -8611
▁그치 -8612
▁브리지 -8613
▁라이온즈 -8614
축구 -8615
▁데르 -8616
▁러시 -8617
▁맑 -8618
▁시위대 -8619
▁윤치호 -8620
드르 -8621
▁오라 -8622
▁정세 -8623
▁평정 -8624
▁오프닝 -8625
▁고쳐 -8626
▁조부 -8627
▁따른다 -8628
▁발라 -8629
▁베니 -8630
▁선비 -8631
▁연이 -8632
▁114 -8633
▁냉전 -8634
▁이준 -8635
▁팔리 -8636
▁사상자 -8637
▁대거 -8638
▁에미 -8639
▁안토니오 -8640
▁땃쥐 -8641
▁슨 -8642
▁EC -8643
▁과반 -8644
▁그대 -8645
▁김규 -8646
▁시정 -8647
▁징계 -8648
프레스 -8649
▁자택 -8650
▁기업인 -8651
▁알루미 -8652
▁깎 -8653
▁대명 -8654
▁매매 -8655
▁구스타 -8656
▁사쿠라 -8657
▁증손 -8658
▁미노 -8659
▁정주 -8660
▁블랙홀 -8661
▁컷 -8662
▁방사선 -8663
▁빔 -8664
▁어긋 -8665
▁어미 -8666
▁원로원 -8667
IP -8668
렉스 -8669
▁관세 -8670
▁내주 -8671
▁봉건 -8672
▁연승 -8673
▁가드 -8674
▁군중 -8675
▁이남 -8676
▁흔하 -8677
▁118 -8678
ign -8679
▁심해 -8680
▁지침 -8681
▁태극 -8682
▁드라이버 -8683
ial -8684
▁구와 -8685
▁은데 -8686
▁히어로즈 -8687
▁괴물 -8688
▁파인 -8689
타리오 -8690
▁일리노 -8691
▁파이널 -8692
러드 -8693
조건 -8694
▁경신 -8695
▁대부 -8696
▁만료 -8697
▁이드 -8698
▁주부 -8699
▁퍼지 -8700
지스 -8701
▁악단 -8702
▁예시 -8703
▁요정 -8704
▁매니저 -8705
▁도청 -8706
▁자음 -8707
▁크리스티안 -8708
▁뉴턴 -8709
▁답변 -8710
▁비로소 -8711
▁플래시 -8712
▁1898 -8713
▁일리노이 -8714
▁나올 -8715
▁세이브 -8716
▁줄여서 -8717
▁승부차기 -8718
▁Sc -8719
▁재상 -8720
▁프로덕 -8721
▁벵 -8722
▁본국 -8723
▁서자 -8724
▁용이 -8725
▁학명 -8726
▁경찰관 -8727
▁공감 -8728
▁인명 -8729
▁중형 -8730
▁진사 -8731
▁체스 -8732
▁115 -8733
▁파란색 -8734
저지 -8735
▁공조 -8736
▁체조 -8737
▁미하일 -8738
hn -8739
▁스칼 -8740
▁럼 -8741
황후 -8742
▁반해 -8743
▁종착 -8744
▁디비시온 -8745
▁SD -8746
▁하르 -8747
▁통치자 -8748
▁트로이 -8749
▁로그 -8750
▁이끈 -8751
닐라 -8752
▁지인 -8753
교도 -8754
▁순조 -8755
▁우측 -8756
▁헬리 -8757
벨트 -8758
▁동정 -8759
▁변이 -8760
▁극장판 -8761
▁우즈베 -8762
하루 -8763
▁였음 -8764
▁전년 -8765
▁컨셉 -8766
▁어렸 -8767
▁키르 -8768
▁반지름 -8769
▁봉안 -8770
▁한족 -8771
▁희귀 -8772
▁계열사 -8773
▁남구 -8774
▁밀집 -8775
▁축출 -8776
▁무승부 -8777
▁앵글 -8778
▁직면 -8779
▁모로코 -8780
▁기각 -8781
▁카우 -8782
▁레바논 -8783
▁챌린지 -8784
▁극작 -8785
▁하프 -8786
▁뉴저지 -8787
▁시가지 -8788
▁` -8789
▁커널 -8790
▁웨스턴 -8791
▁왕세 -8792
▁외모 -8793
▁통보 -8794
▁셨 -8795
▁팰 -8796
▁JT -8797
▁남미 -8798
문트 -8799
▁가옥 -8800
▁무성 -8801
▁대변인 -8802
마이오스 -8803
바닥 -8804
보르 -8805
▁선도 -8806
▁외야수 -8807
▁날아 -8808
▁취업 -8809
▁필사 -8810
▁헬기 -8811
▁혜택 -8812
▁그레고 -8813
기념 -8814
▁기증 -8815
▁나눈 -8816
▁소모 -8817
▁성리학 -8818
▁체코슬로 -8819
▁체코슬로바키아 -8820
▁말미 -8821
▁정변 -8822
▁패럴 -8823
▁광해군 -8824
▁달한다 -8825
▁연예인 -8826
▁닦 -8827
▁부스 -8828
▁케냐 -8829
▁GS -8830
▁사위 -8831
▁129 -8832
▁범유행 -8833
타니 -8834
▁센티 -8835
▁살펴보 -8836
▁젊은이 -8837
레타 -8838
▁켈리 -8839
▁렐 -8840
▁믹 -8841
아키 -8842
▁코카 -8843
▁개막전 -8844
▁실망 -8845
▁웹툰 -8846
▁폭넓 -8847
▁핑크 -8848
▁학업 -8849
▁어려워 -8850
쟁이 -8851
▁GP -8852
▁맏 -8853
먼스 -8854
미사 -8855
히코 -8856
▁뇌물 -8857
▁마력 -8858
▁비주 -8859
▁의약품 -8860
▁옳 -8861
▁글루 -8862
▁러셀 -8863
▁맥도 -8864
▁종속 -8865
▁캔자스 -8866
▁꿀 -8867
rom -8868
▁미세 -8869
▁종래 -8870
▁중산 -8871
▁천재 -8872
▁쾌속 -8873
▁알루미늄 -8874
▁리뷰 -8875
▁지우 -8876
▁척추 -8877
▁구할 -8878
▁숙청 -8879
▁승자 -8880
▁총사령 -8881
▁스타리그 -8882
개미 -8883
▁호출 -8884
▁마운트 -8885
▁예하 -8886
▁커지 -8887
▁케빈 -8888
타리 -8889
▁끼쳤 -8890
▁바빌 -8891
▁발급 -8892
▁어른 -8893
▁재혼 -8894
▁첨단 -8895
▁회관 -8896
▁쯔 -8897
레아 -8898
▁남작 -8899
▁로비 -8900
▁재선 -8901
▁황족 -8902
▁끌어들 -8903
▁퉁 -8904
온다 -8905
▁서신 -8906
▁유라 -8907
▁퇴임 -8908
▁벨라루스 -8909
▁Ne -8910
▁창출 -8911
ph -8912
▁사간 -8913
▁화력 -8914
니까 -8915
▁밝기 -8916
▁흔들 -8917
▁확실히 -8918
그리 -8919
속기 -8920
▁괘 -8921
치기 -8922
▁벽돌 -8923
▁예고 -8924
▁적혀 -8925
▁카디 -8926
▁토미 -8927
▁기술자 -8928
▁스크립 -8929
▁장례식 -8930
방송공사 -8931
TS -8932
▁웬 -8933
▁각도 -8934
▁III -8935
▁스트리 -8936
▁오오 -8937
▁유방 -8938
▁흔한 -8939
우트 -8940
▁생체 -8941
▁옹립 -8942
▁전속 -8943
▁중공 -8944
▁파산 -8945
▁형조 -8946
▁조지프 -8947
천리 -8948
▁난징 -8949
▁부피 -8950
▁양반 -8951
▁응시 -8952
느러미 -8953
▁142 -8954
▁무명 -8955
▁임원 -8956
▁브리튼 -8957
▁등기 -8958
▁바꾼 -8959
▁채워 -8960
▁토양 -8961
▁1899 -8962
▁감행 -8963
▁워크 -8964
▁부여받 -8965
▁월요일 -8966
▁천문대 -8967
▁타임스 -8968
테르부르크 -8969
▁대패 -8970
화물 -8971
▁관제 -8972
▁미들 -8973
▁뒷받침 -8974
▁레슬링 -8975
▁세이부 -8976
▁마르티 -8977
▁청주시 -8978
▁프란츠 -8979
▁콕 -8980
urn -8981
▁워너 -8982
▁케임 -8983
▁플라스틱 -8984
시즘 -8985
▁대치 -8986
▁컴백 -8987
▁토끼 -8988
▁폭포 -8989
진군 -8990
포로 -8991
▁저주 -8992
셰비키 -8993
▁더글러스 -8994
코딩 -8995
▁구경 -8996
▁무함 -8997
▁발병 -8998
▁배수 -8999
▁설화 -9000
▁성폭 -9001
▁소생 -9002
▁학기 -9003
▁ch -9004
▁리프 -9005
▁모나 -9006
▁싸이 -9007
▁지출 -9008
롤라이나 -9009
▁얹 -9010
▁힌두교 -9011
▁CJ -9012
▁룩셈 -9013
▁시범 -9014
▁에밀 -9015
▁유진 -9016
▁총칭 -9017
▁축물 -9018
▁프로덕션 -9019
▁룩셈부르크 -9020
로우 -9021
토르 -9022
함수 -9023
▁자크 -9024
▁정려 -9025
▁사본 -9026
▁오크 -9027
▁청산 -9028
▁대서양 -9029
틱스 -9030
▁화상 -9031
▁화자 -9032
▁거래소 -9033
▁스즈키 -9034
럴드 -9035
▁신원 -9036
▁안테 -9037
▁페널 -9038
ction -9039
▁설교 -9040
▁지옥 -9041
▁혼동 -9042
▁발리 -9043
▁희곡 -9044
▁1902 -9045
▁만성 -9046
▁원천 -9047
▁광주광역시 -9048
▁가야 -9049
▁동네 -9050
▁왼손 -9051
파이어 -9052
▁금요일 -9053
▁잃어버 -9054
▁온타리오 -9055
▁걸렸 -9056
▁던져 -9057
▁운수 -9058
▁부의장 -9059
브르 -9060
▁중복 -9061
▁Man -9062
▁그래미 -9063
두리 -9064
ens -9065
▁공적 -9066
▁극한 -9067
▁벨트 -9068
▁ID -9069
▁광둥 -9070
▁명종 -9071
▁의자 -9072
▁피신 -9073
▁프톨레 -9074
▁프톨레마이오스 -9075
덩이 -9076
▁늘리 -9077
▁플랫폼 -9078
▁끊임없이 -9079
▁썬 -9080
올라 -9081
▁보위 -9082
▁위쪽 -9083
lan -9084
▁독서 -9085
▁물품 -9086
▁병기 -9087
▁스턴 -9088
MA -9089
타주 -9090
▁정성 -9091
▁피겨 -9092
▁그릇 -9093
▁기차 -9094
▁니코 -9095
▁혐오 -9096
▁연산자 -9097
▁키보드 -9098
▁쟈 -9099
▁대성당 -9100
pp -9101
▁우체 -9102
▁체류 -9103
▁가벼운 -9104
▁바깥쪽 -9105
▁아리아 -9106
▁지식인 -9107
샤바 -9108
▁표적 -9109
▁도카이 -9110
▁수분 -9111
▁머무르 -9112
▁연꽃 -9113
▁포획 -9114
▁'' -9115
▁느꼈 -9116
▁발기 -9117
▁서류 -9118
▁감마 -9119
▁강변 -9120
▁단절 -9121
▁부를 -9122
▁채소 -9123
▁코시 -9124
▁BS -9125
▁대손 -9126
▁시코 -9127
▁영등 -9128
▁원종 -9129
▁의의 -9130
▁가까워 -9131
▁갈수록 -9132
글라 -9133
▁마녀 -9134
▁기사단 -9135
▁선배 -9136
▁시가 -9137
▁가신 -9138
▁간선 -9139
▁게리 -9140
▁캐서 -9141
▁태그 -9142
TA -9143
▁국영 -9144
▁로라 -9145
▁사슴 -9146
▁코끼리 -9147
▁외관 -9148
▁촉매 -9149
▁하단 -9150
▁개소 -9151
▁따온 -9152
▁탄도 -9153
▁비석 -9154
▁참의 -9155
▁고양시 -9156
▁아돌프 -9157
lic -9158
▁깃발 -9159
▁동행 -9160
▁밍 -9161
▁영문 -9162
▁함정 -9163
▁이관 -9164
▁주조 -9165
▁제네바 -9166
▁마스크 -9167
▁보이스 -9168
▁비행장 -9169
나우 -9170
▁버드 -9171
▁교통국 -9172
▁페르디난 -9173
▁기니 -9174
▁나갈 -9175
폴리 -9176
▁유체 -9177
크로 -9178
▁정적 -9179
▁부회장 -9180
▁소나무 -9181
▁빌라 -9182
▁한테 -9183
▁헌신 -9184
▁매카트니 -9185
▁김창 -9186
▁단축 -9187
▁대합 -9188
▁매수 -9189
▁울프 -9190
▁강동 -9191
▁김지 -9192
▁생생 -9193
▁선행 -9194
▁정동 -9195
▁이용자 -9196
TC -9197
▁얽 -9198
카가 -9199
▁둥글 -9200
▁수확 -9201
▁입성 -9202
▁스위치 -9203
▁제국주의 -9204
그룹 -9205
▁단의 -9206
▁들이 -9207
▁오를 -9208
▁익스프레스 -9209
▁겁 -9210
국사 -9211
▁둔다 -9212
▁드러머 -9213
▁동학 -9214
▁스폰 -9215
▁토착종 -9216
▁몫 -9217
ary -9218
▁광대 -9219
▁광명 -9220
▁부가 -9221
▁아산 -9222
▁해밀턴 -9223
out -9224
▁가환 -9225
▁간토 -9226
▁쌓았 -9227
▁압둘 -9228
▁이겼 -9229
▁폭격기 -9230
▁초신 -9231
▁당한다 -9232
▁서유럽 -9233
▁고아 -9234
▁역량 -9235
▁이단 -9236
▁화강 -9237
▁경성부 -9238
▁포켓몬스터 -9239
▁면제 -9240
▁색채 -9241
▁직결 -9242
▁아이오 -9243
▁호르몬 -9244
▁1901 -9245
▁러시아어 -9246
구르 -9247
▁세비 -9248
▁약자 -9249
▁어류 -9250
▁입국 -9251
▁일으킬 -9252
▁코믹스 -9253
▁브뤼 -9254
▁이건 -9255
▁일산 -9256
▁채우 -9257
▁부작용 -9258
짓점 -9259
ert -9260
▁공리 -9261
▁생략 -9262
▁성지 -9263
▁습지 -9264
▁열도 -9265
▁조립 -9266
▁사이토 -9267
▁트리플 -9268
▁나노 -9269
▁민감 -9270
▁복용 -9271
▁축조 -9272
▁꼭짓점 -9273
테인 -9274
ach -9275
▁경과 -9276
▁본문 -9277
▁퀘벡 -9278
▁쓰촨 -9279
▁전방 -9280
피어 -9281
▁보트 -9282
▁여운 -9283
▁임관 -9284
▁No -9285
▁갱신 -9286
▁소시 -9287
▁크롬 -9288
▁어려서 -9289
타임 -9290
▁체르 -9291
▁알렉산드르 -9292
▁울산광역시 -9293
모스 -9294
▁권총 -9295
▁염증 -9296
그라 -9297
▁날카 -9298
▁코코 -9299
▁특권 -9300
▁패했 -9301
▁표방 -9302
▁하치 -9303
▁그다지 -9304
▁연기자 -9305
▁다항식 -9306
▁삿포로 -9307
▁영국인 -9308
미트 -9309
▁즐겨 -9310
ys -9311
디나 -9312
▁기숙 -9313
▁수축 -9314
▁입각 -9315
▁자작 -9316
▁정립 -9317
▁정문 -9318
▁체중 -9319
▁커스 -9320
▁아시카가 -9321
▁렘 -9322
▁염색체 -9323
자르 -9324
▁동조 -9325
▁무궁 -9326
▁불꽃 -9327
▁바이킹 -9328
▁점성술 -9329
루아 -9330
일으 -9331
▁검열 -9332
▁손꼽 -9333
▁실버 -9334
▁현은 -9335
▁불러일으 -9336
▁쿄 -9337
▁MB -9338
▁보복 -9339
▁잡혀 -9340
▁카미 -9341
▁간단히 -9342
LS -9343
▁낫 -9344
▁괴롭 -9345
▁김제 -9346
▁누적 -9347
▁서문 -9348
▁원료 -9349
▁차르 -9350
▁천하 -9351
파르 -9352
▁엔딩 -9353
IG -9354
▁이현 -9355
▁사회당 -9356
▁옥스퍼드 -9357
LE -9358
링턴 -9359
▁두께 -9360
▁박지 -9361
▁제치 -9362
▁페니 -9363
▁134 -9364
▁고산 -9365
▁공고 -9366
▁선동 -9367
▁조수 -9368
▁토기 -9369
▁패한 -9370
▁학대 -9371
▁개인전 -9372
▁조이 -9373
▁호모 -9374
레슬링 -9375
▁광저우 -9376
▁장기간 -9377
▁케임브리지 -9378
▁보헤 -9379
▁슈팅 -9380
▁카프 -9381
▁요르단 -9382
▁크레이 -9383
▁} -9384
▁례 -9385
▁대두 -9386
▁어뢰 -9387
▁원본 -9388
▁쓰레기 -9389
▁무함마드 -9390
▁아라비아 -9391
▁시네 -9392
▁하비 -9393
▁KIA -9394
▁파이터 -9395
▁푸에르 -9396
▁분수 -9397
▁불신 -9398
▁토요 -9399
베트남 -9400
▁모서리 -9401
▁마우 -9402
▁상금 -9403
▁스님 -9404
▁연봉 -9405
노미야 -9406
▁갈리아 -9407
▁대구광역시 -9408
ug -9409
기스 -9410
대장 -9411
펜하 -9412
▁독성 -9413
▁동이 -9414
▁삼촌 -9415
▁주된 -9416
▁All -9417
▁공예 -9418
▁레즈 -9419
▁소말 -9420
▁THE -9421
▁노태우 -9422
▁사업가 -9423
▁1903 -9424
▁공명 -9425
▁좌측 -9426
▁가역 -9427
▁명하 -9428
▁섹스 -9429
▁전염병 -9430
▁정해진 -9431
▁아리스토 -9432
▁극대 -9433
▁루타 -9434
▁산출 -9435
▁직경 -9436
ase -9437
▁남매 -9438
▁미륵 -9439
▁패널 -9440
클레스 -9441
▁트로피 -9442
▁피고인 -9443
▁1884 -9444
▁프로레슬링 -9445
카미 -9446
▁개화 -9447
▁군산 -9448
▁기르 -9449
▁패밀리 -9450
▁페널티 -9451
▁아인슈타인 -9452
▁Gr -9453
▁회상 -9454
▁One -9455
▁당연히 -9456
▁노보 -9457
▁모은 -9458
▁오쿠 -9459
▁미시시피 -9460
▁타케 -9461
▁홈구장 -9462
아웃 -9463
테르담 -9464
▁신도비 -9465
리코 -9466
정리 -9467
▁교대 -9468
라이어 -9469
▁만주국 -9470
▁이성계 -9471
▁지도부 -9472
▁엇 -9473
사리 -9474
카타 -9475
▁다마 -9476
▁아브 -9477
▁들어갈 -9478
▁쓰시마 -9479
▁알렉산드리아 -9480
처스 -9481
퀘어 -9482
▁강간 -9483
▁구형 -9484
▁어둠 -9485
▁이병 -9486
▁차가 -9487
▁언어학 -9488
▁EX -9489
▁메커 -9490
▁정선 -9491
▁중령 -9492
▁터보 -9493
올로 -9494
▁라그 -9495
▁퇴역 -9496
▁하리 -9497
▁관광지 -9498
▁잘라 -9499
▁뮤지션 -9500
▁로저 -9501
▁쥐과 -9502
ke -9503
▁AN -9504
▁스텔 -9505
▁표기법 -9506
▁에콰 -9507
▁질소 -9508
▁드레스 -9509
▁프레드 -9510
▁에콰도르 -9511
▁도널드 -9512
▁검출 -9513
▁니콜라이 -9514
▁군함 -9515
▁벌인 -9516
▁클라이 -9517
히토 -9518
▁강대 -9519
▁이태 -9520
▁조형 -9521
▁퇴적 -9522
▁함선 -9523
▁아폴로 -9524
▁야마구치 -9525
▁Cl -9526
▁갈래 -9527
▁실재 -9528
▁전위 -9529
▁제로 -9530
▁지녔 -9531
▁헌정 -9532
▁방글라 -9533
▁충청도 -9534
▁방글라데시 -9535
도스 -9536
▁비타 -9537
▁히타 -9538
▁1800 -9539
▁도요토미 -9540
고스 -9541
텍처 -9542
▁구스 -9543
▁기분 -9544
▁우치 -9545
▁파병 -9546
▁되돌아 -9547
▁아키텍처 -9548
▁LA -9549
▁공황 -9550
▁대문 -9551
▁따왔 -9552
▁더욱이 -9553
▁슬라브 -9554
▁조반니 -9555
▁발렌시아 -9556
▁실무 -9557
▁원더 -9558
▁꼭대기 -9559
▁프란체 -9560
▁물가 -9561
▁우회 -9562
▁농부 -9563
▁뒤쪽 -9564
▁복합체 -9565
▁히로시 -9566
▁륜 -9567
▁경작 -9568
▁반공 -9569
▁마르틴 -9570
라이언트 -9571
▁김홍 -9572
▁인질 -9573
▁정유 -9574
▁무너지 -9575
간지 -9576
그레 -9577
▁곡물 -9578
▁다름 -9579
▁도선 -9580
▁비뉴 -9581
▁의결 -9582
▁장벽 -9583
사이드 -9584
테이션 -9585
▁마르코 -9586
▁불린 -9587
▁하차 -9588
▁거짓말 -9589
▁클라이언트 -9590
방울 -9591
▁건륭 -9592
▁단면 -9593
▁달걀 -9594
▁마키 -9595
▁상고 -9596
▁득표율 -9597
▁삼국지 -9598
▁컨트리 -9599
▁진전 -9600
▁카사 -9601
사우 -9602
▁까닭 -9603
▁당수 -9604
▁발칸 -9605
▁철폐 -9606
▁회피 -9607
▁기념관 -9608
▁콤팩트 -9609
▁돌기 -9610
▁해남 -9611
니시 -9612
ree -9613
▁싸워 -9614
▁토시 -9615
▁간신 -9616
▁흥선 -9617
▁소방서 -9618
▁기념비 -9619
▁아나키 -9620
▁총대주교 -9621
▁가오 -9622
▁리만 -9623
▁밝힌 -9624
▁상가 -9625
▁선우 -9626
▁전복 -9627
▁리더십 -9628
▁밀란 -9629
▁방사성 -9630
▁분출 -9631
▁염소 -9632
▁용서 -9633
▁유부 -9634
▁가브리 -9635
▁상경 -9636
▁소행성 -9637
▁올라간다 -9638
▁일렉트로 -9639
▁감안 -9640
▁강희 -9641
▁무슨 -9642
▁전구 -9643
▁소수자 -9644
가르 -9645
개골 -9646
▁맞붙 -9647
▁분량 -9648
▁창녕 -9649
▁취항 -9650
▁코믹 -9651
▁활주 -9652
▁에디션 -9653
▁카를로 -9654
▁북아프리카 -9655
▁IN -9656
▁가려 -9657
▁경인 -9658
가와현 -9659
▁모리스 -9660
▁메커니즘 -9661
▁팟 -9662
불교 -9663
산맥 -9664
하키 -9665
▁권장 -9666
▁기슭 -9667
▁살라 -9668
▁안경 -9669
▁우물 -9670
▁자형 -9671
▁남동생 -9672
▁가산 -9673
▁궁중 -9674
▁냄새 -9675
▁상응 -9676
▁중앙아시아 -9677
▁CN -9678
▁복소수 -9679
▁부드러운 -9680
▁발령 -9681
▁불타 -9682
▁시야 -9683
▁신축 -9684
▁이룬 -9685
▁이북 -9686
▁정화 -9687
▁민간인 -9688
▁해진다 -9689
▁with -9690
▁그레이트 -9691
ass -9692
▁깨끗 -9693
▁상트 -9694
▁교도소 -9695
▁스토어 -9696
▁견인 -9697
▁데카 -9698
▁세바 -9699
▁현감 -9700
▁다케다 -9701
▁등용 -9702
▁러스 -9703
▁모모 -9704
▁소자 -9705
▁쑤 -9706
▁관절 -9707
▁대출 -9708
▁반군 -9709
▁수목 -9710
▁한층 -9711
▁거주지 -9712
▁기관총 -9713
▁뉴욕주 -9714
▁와일드 -9715
▁으려고 -9716
▁볼리비아 -9717
▁찐 -9718
▁Br -9719
▁막스 -9720
▁116 -9721
▁220 -9722
▁오사카부 -9723
▁페이스북 -9724
구역 -9725
act -9726
▁침체 -9727
▁새겨진 -9728
▁아미노산 -9729
▁씌 -9730
▁브란 -9731
▁세키 -9732
▁시킴 -9733
▁몰아내 -9734
▁일자리 -9735
곡동 -9736
사업 -9737
▁각색 -9738
▁기저 -9739
▁준주 -9740
▁폭로 -9741
▁프론 -9742
번뇌 -9743
▁Ad -9744
▁농사 -9745
▁홍문관 -9746
▁1897 -9747
▁낙동 -9748
▁평창 -9749
▁전시회 -9750
파리 -9751
▁가계 -9752
▁상법 -9753
▁추첨 -9754
▁후작 -9755
▁포스터 -9756
11 -9757
▁교량 -9758
▁일파 -9759
▁장자 -9760
▁일부분 -9761
▁가의 -9762
▁취미 -9763
쿠버 -9764
▁요약 -9765
▁스트라이크 -9766
▁한국방송공사 -9767
▁가열 -9768
▁반전 -9769
▁샌드 -9770
▁심화 -9771
▁강남구 -9772
▁보성 -9773
▁절단 -9774
▁티코 -9775
▁버클리 -9776
▁마가 -9777
▁캐서린 -9778
pt -9779
▁안산 -9780
▁태백 -9781
▁효고 -9782
ream -9783
▁마카오 -9784
▁방송인 -9785
▁지지율 -9786
▁카스티 -9787
역학 -9788
▁라오 -9789
▁마니 -9790
▁1860 -9791
▁구약 -9792
▁느리 -9793
▁델타 -9794
▁리조 -9795
▁오로 -9796
▁올드 -9797
▁추론 -9798
▁시켰으며 -9799
▁앰 -9800
▁홉 -9801
▁네오 -9802
▁음향 -9803
▁접수 -9804
▁교육청 -9805
▁데스크 -9806
▁생겨나 -9807
▁겐지 -9808
▁나루 -9809
▁민정 -9810
▁아소 -9811
▁체력 -9812
▁효종 -9813
▁그려진 -9814
▁격차 -9815
▁넘기 -9816
▁다를 -9817
▁마블 -9818
▁연대기 -9819
바른 -9820
버리 -9821
벤처 -9822
▁;& -9823
▁델라 -9824
▁르노 -9825
▁북경 -9826
▁사살 -9827
▁어드벤처 -9828
▁GO -9829
▁공약 -9830
▁배우자 -9831
▁이주하 -9832
▁장제 -9833
▁적군 -9834
▁찰리 -9835
▁타우 -9836
▁휴가 -9837
▁바르샤바 -9838
▁Ex -9839
▁수료 -9840
▁온대 -9841
▁아름답 -9842
▁알프레 -9843
▁글래 -9844
▁대관 -9845
▁서리 -9846
▁저렴 -9847
▁확진 -9848
▁줘 -9849
▁Is -9850
기념물 -9851
▁샌디 -9852
▁애리 -9853
▁전산 -9854
▁카타르 -9855
▁후반기 -9856
나드 -9857
푸아 -9858
▁랍 -9859
▁특색 -9860
▁122 -9861
▁청색 -9862
▁합당 -9863
▁중공업 -9864
▁스크립트 -9865
캐롤라이나 -9866
피언 -9867
▁공손 -9868
▁메라 -9869
▁중원 -9870
▁집결 -9871
▁쿠니 -9872
▁돌입 -9873
▁청소 -9874
▁카즈 -9875
▁게릴라 -9876
▁경제학자 -9877
▁안드레아 -9878
포터 -9879
▁거처 -9880
▁이반 -9881
▁사카이 -9882
츠크 -9883
▁가가 -9884
▁거뒀 -9885
▁리히 -9886
▁떡 -9887
▁석불 -9888
▁수중 -9889
스카르 -9890
▁가져오 -9891
▁미네소 -9892
산성 -9893
▁두꺼 -9894
▁석회 -9895
▁세네 -9896
▁신정 -9897
▁짐작 -9898
▁타협 -9899
반구 -9900
부리 -9901
퍼슨 -9902
▁아닐 -9903
▁전격 -9904
▁마라톤 -9905
▁모티브 -9906
▁솔루션 -9907
▁마당 -9908
▁이빨 -9909
▁쥐속 -9910
▁2022 -9911
▁버마 -9912
▁종파 -9913
푸르 -9914
▁갑옷 -9915
▁막시 -9916
▁브룩 -9917
▁소행 -9918
▁입주 -9919
▁클라크 -9920
▁보강 -9921
▁새로이 -9922
▁스퀘어 -9923
▁유닉스 -9924
으니 -9925
▁고토 -9926
▁실적 -9927
▁안치 -9928
▁나간다 -9929
▁1880 -9930
▁마애 -9931
▁벽화 -9932
▁봉해 -9933
▁인테르 -9934
▁였으므로 -9935
▁과실 -9936
▁동형 -9937
▁약하 -9938
▁피치 -9939
▁두개골 -9940
▁상트페 -9941
▁아마존 -9942
▁상트페테르부르크 -9943
콥터 -9944
▁루크 -9945
▁신동 -9946
▁창의 -9947
▁호응 -9948
▁화순 -9949
▁정경 -9950
▁옥수수 -9951
▁그레고리오 -9952
▁무로 -9953
▁윤보 -9954
▁나란히 -9955
▁유대교 -9956
▁뻔 -9957
▁다툼 -9958
▁모용 -9959
▁무술 -9960
▁사적 -9961
▁con -9962
▁갤러리 -9963
▁설립자 -9964
▁BM -9965
▁메릴 -9966
▁빈도 -9967
▁진해 -9968
▁흥선대원군 -9969
ii -9970
▁엮 -9971
▁강철 -9972
▁선장 -9973
▁연동 -9974
▁종말 -9975
▁그리스인 -9976
▁군청 -9977
▁종점 -9978
▁팔레 -9979
▁확고 -9980
▁유정 -9981
▁지켰 -9982
▁쳐들 -9983
▁출석 -9984
▁호쿠 -9985
▁NGC -9986
▁공용어 -9987
▁진행자 -9988
▁파라과이 -9989
▁따랐 -9990
▁복권 -9991
▁용암 -9992
▁이언 -9993
▁133 -9994
▁극작가 -9995
▁셜 -9996
▁극도 -9997
▁급수 -9998
▁열심 -9999
▁을까 -10000
▁조인 -10001
▁옮겨졌 -10002
▁노이 -10003
▁장원 -10004
▁콘테 -10005
▁함양 -10006
▁함부르크 -10007
기구 -10008
네시 -10009
▁기성 -10010
▁어로 -10011
▁입양 -10012
▁경쟁력 -10013
▁제작사 -10014
▁무스 -10015
▁어리 -10016
▁예명 -10017
▁일괄 -10018
▁제리 -10019
▁제왕 -10020
▁그림자 -10021
▁붙여진 -10022
▁이동하 -10023
나미 -10024
▁살려 -10025
▁소령 -10026
▁야시 -10027
▁연못 -10028
▁자결 -10029
▁추종 -10030
▁키예프 -10031
▁그렇지만 -10032
니지 -10033
타케 -10034
iss -10035
▁등극 -10036
▁번성 -10037
▁수녀 -10038
▁가네 -10039
▁도사 -10040
▁진료 -10041
▁디트로 -10042
▁디트로이트 -10043
ake -10044
▁가볍 -10045
▁스노 -10046
▁오락 -10047
▁이장 -10048
자치시 -10049
사관학교 -10050
▁천연기념물 -10051
▁특별자치시 -10052
own -10053
▁빛나 -10054
▁왕정 -10055
▁치른 -10056
▁프렌 -10057
▁교육부 -10058
▁준결승전 -10059
▁프랭클린 -10060
▁블리 -10061
▁유령 -10062
케이 -10063
▁타지 -10064
▁명분 -10065
▁몽고 -10066
▁숙주 -10067
▁심야 -10068
몰로지 -10069
▁Mus -10070
▁엘리트 -10071
▁덮여 -10072
▁주어진다 -10073
▁프롤 -10074
▁CBS -10075
▁앞장 -10076
▁CEO -10077
▁아래쪽 -10078
▁일러스트 -10079
▁국유 -10080
▁스로 -10081
▁이규 -10082
▁이데 -10083
▁평민 -10084
▁미생물 -10085
▁사무총장 -10086
▁된다면 -10087
▁법정동 -10088
▁낚 -10089
▁우상 -10090
▁원격 -10091
▁위생 -10092
▁탁월 -10093
▁무궁화 -10094
▁넌 -10095
▁ES -10096
▁미셸 -10097
▁수년 -10098
▁아치 -10099
▁이득 -10100
▁파우 -10101
▁위나라 -10102
▁장흥 -10103
▁GDP -10104
▁포도당 -10105
▁애틀랜타 -10106
세기 -10107
▁고추 -10108
▁반역 -10109
▁온갖 -10110
▁재난 -10111
▁조계 -10112
▁칼뱅 -10113
▁펜싱 -10114
▁그레고리 -10115
뜨렸 -10116
▁강풍 -10117
▁농어 -10118
▁듀얼 -10119
▁자카 -10120
▁타석 -10121
▁헬륨 -10122
▁대사헌 -10123
▁앨리스 -10124
▁문경 -10125
▁겉보기 -10126
▁기상청 -10127
▁열린다 -10128
▁동성애자 -10129
미스 -10130
▁개항 -10131
▁들려 -10132
▁자생 -10133
▁결핍 -10134
▁무조건 -10135
▁스트라이커 -10136
▁섀 -10137
clude -10138
▁스리랑카 -10139
▁툰 -10140
그래 -10141
멘스 -10142
타마 -10143
old -10144
▁감동 -10145
▁도우 -10146
▁속편 -10147
▁132 -10148
Hz -10149
UR -10150
▁김민 -10151
▁빈번 -10152
▁정인 -10153
▁지청 -10154
끄러운 -10155
▁지방산 -10156
▁니카 -10157
▁워치 -10158
▁진수 -10159
▁후진 -10160
▁대성전 -10161
HO -10162
▁더비 -10163
▁유스 -10164
▁주지 -10165
림픽 -10166
버러 -10167
원장 -10168
▁자르 -10169
▁재해 -10170
▁정관 -10171
▁시뮬레이션 -10172
▁샐 -10173
에미 -10174
▁동요 -10175
▁듀오 -10176
▁상연 -10177
▁수심 -10178
▁대지진 -10179
▁아니하 -10180
▁애칭 -10181
▁총무 -10182
▁글로브 -10183
▁인프라 -10184
▁삼국사기 -10185
위성 -10186
▁광양 -10187
▁동참 -10188
▁아데 -10189
▁파이프 -10190
헌영 -10191
▁결제 -10192
▁리모 -10193
▁기병대 -10194
▁마우스 -10195
스기 -10196
▁++ -10197
▁베른 -10198
▁울리 -10199
미즈 -10200
▁시종 -10201
▁불행 -10202
▁인디애나 -10203
메다 -10204
▁초원 -10205
▁호족 -10206
▁슛 -10207
거래 -10208
운다 -10209
ork -10210
▁NE -10211
▁속주 -10212
▁조병 -10213
▁현직 -10214
▁맹세 -10215
▁주화 -10216
GA -10217
▁현행 -10218
바야시 -10219
▁마다가 -10220
▁자세히 -10221
렉션 -10222
▁격자 -10223
▁닫힌 -10224
▁대국 -10225
▁모인 -10226
▁하고 -10227
ix -10228
▁른 -10229
▁헛 -10230
파크 -10231
▁발각 -10232
▁신상 -10233
▁암흑 -10234
▁La -10235
▁극락 -10236
▁낮추 -10237
▁상기 -10238
▁미주리 -10239
▁세워져 -10240
▁요제프 -10241
▁통틀어 -10242
▁보헤미아 -10243
▁쾰 -10244
▁vs -10245
▁브랜 -10246
ence -10247
▁농산물 -10248
▁kt -10249
▁or -10250
▁호의 -10251
벨라 -10252
할시 -10253
▁가타 -10254
▁복음서 -10255
▁국수 -10256
▁둘러싸여 -10257
변이 -10258
천사 -10259
해튼 -10260
ick -10261
▁요법 -10262
위원회 -10263
▁돌연변이 -10264
▁패럴림픽 -10265
▁Ro -10266
▁파문 -10267
▁pro -10268
▁단과 -10269
▁대본 -10270
▁피로 -10271
▁해부 -10272
▁붙여졌 -10273
▁볼셰비키 -10274
() -10275
lo -10276
▁공표 -10277
▁대각 -10278
▁현황 -10279
▁감금 -10280
▁김옥 -10281
▁루비 -10282
▁의과 -10283
▁초고 -10284
▁평안남도 -10285
마리 -10286
어질 -10287
▁공파 -10288
▁청자 -10289
▁투항 -10290
▁김병 -10291
▁밀러 -10292
▁세손 -10293
▁시리 -10294
▁우체국 -10295
▁활주로 -10296
라기 -10297
루냐 -10298
▁낙하 -10299
▁메일 -10300
▁아빠 -10301
▁저격 -10302
▁올바른 -10303
▁1870 -10304
▁합스부르크 -10305
테면 -10306
▁소울 -10307
▁후속작 -10308
▁이를테면 -10309
▁뾰 -10310
▁앗 -10311
▁양육 -10312
▁입수 -10313
▁매거진 -10314
▁댓 -10315
▁만년 -10316
▁생계 -10317
▁장대 -10318
▁재질 -10319
▁총기 -10320
▁황도 -10321
CAF -10322
▁서장 -10323
▁포고 -10324
▁소피아 -10325
▁오로지 -10326
▁PR -10327
▁페로 -10328
▁표창 -10329
브리아 -10330
▁우아 -10331
▁이븐 -10332
▁정국 -10333
▁제너 -10334
▁Mar -10335
▁NAS -10336
▁모터스 -10337
▁창시자 -10338
▁숀 -10339
▁관동 -10340
▁난이 -10341
▁단행본 -10342
▁대장군 -10343
다르 -10344
삭스 -10345
▁호리 -10346
ance -10347
▁아스널 -10348
▁중앙부 -10349
▁타이베이 -10350
▁계시 -10351
▁돌출 -10352
▁리터 -10353
▁비늘 -10354
▁시국 -10355
▁애리조 -10356
▁평안북도 -10357
플로 -10358
홀름 -10359
▁To -10360
▁내면 -10361
▁말년 -10362
▁머스 -10363
▁부조 -10364
▁왜구 -10365
▁1885 -10366
▁앞쪽 -10367
▁450 -10368
▁꼽힌다 -10369
▁선보이 -10370
▁우즈베키스탄 -10371
▁엥 -10372
▁전날 -10373
▁활발히 -10374
▁un -10375
▁감수 -10376
▁국악 -10377
▁청동기 -10378
▁1871 -10379
▁프랜시스 -10380
EM -10381
공산 -10382
▁DM -10383
▁로페 -10384
▁배속 -10385
▁복식 -10386
▁성령 -10387
▁중상 -10388
▁제조업 -10389
▁아이스하키 -10390
▁마르크스주의 -10391
▁아쿠 -10392
▁원심 -10393
▁Ph -10394
▁지로 -10395
테리아 -10396
십자 -10397
▁국당 -10398
▁벤치 -10399
▁세븐 -10400
▁신종 -10401
▁비주얼 -10402
▁수염 -10403
▁일리 -10404
▁퇴장 -10405
▁USS -10406
▁로렌스 -10407
▁짱 -10408
쩌둥 -10409
▁카바 -10410
▁마오쩌둥 -10411
▁줄어 -10412
▁편집자 -10413
▁1600 -10414
▁쿡 -10415
지오 -10416
▁리바 -10417
▁매직 -10418
▁반성 -10419
▁중생 -10420
▁다람쥐 -10421
▁알래스카 -10422
ection -10423
ear -10424
irl -10425
▁미친 -10426
▁증인 -10427
▁참사 -10428
▁빅토르 -10429
▁맷 -10430
제이 -10431
티시 -10432
▁경질 -10433
▁볼프 -10434
▁유러 -10435
▁케라 -10436
▁푸르 -10437
타이드 -10438
▁일으킨다 -10439
▁콘스탄티노폴리스 -10440
▁수교 -10441
▁지성 -10442
▁흉노 -10443
▁앤더슨 -10444
▁프레이 -10445
▁감싸 -10446
▁자칭 -10447
▁휴게 -10448
▁양성자 -10449
▁유러피언 -10450
▁내성 -10451
▁콜레 -10452
▁티켓 -10453
lass -10454
▁내무부 -10455
▁자란다 -10456
▁오클랜드 -10457
▁올랐으며 -10458
▁관행 -10459
▁반하 -10460
▁시애 -10461
▁카터 -10462
▁즘 -10463
▁유료 -10464
▁이양 -10465
▁줄여 -10466
▁화랑 -10467
▁only -10468
▁로리 -10469
▁수다 -10470
▁스태 -10471
▁요지 -10472
▁위스 -10473
▁청룡 -10474
▁마닐라 -10475
▁센고쿠 -10476
▁수원시 -10477
▁1200 -10478
ild -10479
▁끝났 -10480
▁바디 -10481
▁수인 -10482
▁테일 -10483
▁박헌영 -10484
▁반란군 -10485
으로 -10486
테쓰 -10487
▁냐는 -10488
▁온다 -10489
▁이완 -10490
▁240 -10491
파이 -10492
▁루카 -10493
▁시달리 -10494
▁알렉스 -10495
▁잡아먹 -10496
▁파나마 -10497
▁갈리 -10498
▁걸린 -10499
▁당내 -10500
▁불어 -10501
▁장단 -10502
▁제동 -10503
▁중서 -10504
▁친분 -10505
▁해저 -10506
▁쉴 -10507
▁GN -10508
▁능선 -10509
▁민요 -10510
▁역도 -10511
▁조광 -10512
텔레스 -10513
▁케이프 -10514
▁봉수 -10515
▁이룩 -10516
▁지오 -10517
▁다나카 -10518
▁프로리그 -10519
▁SL -10520
▁개개 -10521
▁려던 -10522
▁부각 -10523
▁성실 -10524
▁이모 -10525
▁이방 -10526
▁탑신 -10527
▁김정은 -10528
▁역사가 -10529
관리 -10530
▁카니 -10531
▁예정자 -10532
라고 -10533
▁전단 -10534
▁부원군 -10535
▁시애틀 -10536
▁왕세자 -10537
▁다투 -10538
▁무척 -10539
▁플랜 -10540
▁오른손 -10541
▁윤보선 -10542
▁마다가스카르 -10543
▁멍 -10544
▁분과 -10545
▁재외 -10546
▁초빙 -10547
▁출가 -10548
▁부드럽 -10549
체고 -10550
▁교실 -10551
▁구니 -10552
▁남용 -10553
▁상급 -10554
▁김규식 -10555
▁실험실 -10556
▁앤드루 -10557
체고비나 -10558
맥스 -10559
▁궁궐 -10560
▁몸통 -10561
▁섬세 -10562
▁넘어갔 -10563
▁프라하 -10564
▁하노이 -10565
지기 -10566
▁조례 -10567
▁AD -10568
▁정제 -10569
▁맨해튼 -10570
▁아무것 -10571
▁아리스토텔레스 -10572
▁사쿠 -10573
▁구마모토 -10574
컨대 -10575
▁리비 -10576
▁생선 -10577
▁시중 -10578
▁통역 -10579
▁공민왕 -10580
▁루돌프 -10581
▁해리슨 -10582
▁바트 -10583
▁미군정 -10584
메스 -10585
ans -10586
▁송도 -10587
▁징병 -10588
▁총애 -10589
▁동물원 -10590
▁재활 -10591
▁차용 -10592
▁창문 -10593
OV -10594
면체 -10595
▁관문 -10596
▁글러 -10597
▁오미 -10598
▁지쿠 -10599
▁동대문 -10600
사상 -10601
▁경희 -10602
▁서산 -10603
▁헬리콥터 -10604
드슨 -10605
천면 -10606
▁고쿠 -10607
▁돌보 -10608
▁칼럼 -10609
▁호크 -10610
▁대대로 -10611
▁각성 -10612
▁개헌 -10613
▁경시 -10614
▁국보 -10615
▁실존 -10616
▁신문사 -10617
▁위너스 -10618
▁러시아인 -10619
▁괄 -10620
코토 -10621
▁Sy -10622
▁농경 -10623
▁배려 -10624
▁줄거리 -10625
▁독창 -10626
▁처하 -10627
▁퍼포 -10628
▁EBS -10629
▁나타냈 -10630
▁크라이 -10631
ivers -10632
▁CM -10633
▁남산 -10634
▁커플 -10635
▁퍼스 -10636
▁함자 -10637
▁경영자 -10638
▁리조트 -10639
▁어려웠 -10640
▁유권자 -10641
무소 -10642
▁독도 -10643
▁수필 -10644
▁성남시 -10645
▁퍼포먼스 -10646
▁얕 -10647
▁뾰족 -10648
▁시합 -10649
▁약혼 -10650
▁포착 -10651
▁유치원 -10652
어사 -10653
ype -10654
▁구청 -10655
▁하반 -10656
▁화기 -10657
▁제퍼슨 -10658
▁싣 -10659
▁남해 -10660
▁에프 -10661
▁동유럽 -10662
▁뉴클 -10663
▁칙령 -10664
▁해져 -10665
▁퍼스트 -10666
▁브레이크 -10667
▁총통 -10668
▁테라 -10669
▁클레이 -10670
▁클린턴 -10671
▁경호 -10672
▁드미 -10673
▁는다면 -10674
include -10675
▁파도 -10676
▁학설 -10677
▁MTV -10678
▁사각형 -10679
▁올림피아 -10680
ish -10681
▁김원 -10682
▁통용 -10683
▁하류 -10684
▁가져온 -10685
▁브루스 -10686
▁서재필 -10687
▁선거법 -10688
▁솔로몬 -10689
▁시노 -10690
▁안녕 -10691
▁효자 -10692
▁레이크 -10693
▁해리스 -10694
▁모의 -10695
▁유혹 -10696
▁카지 -10697
▁스테파 -10698
▁가늘 -10699
▁마차 -10700
▁모호 -10701
▁욕망 -10702
GM -10703
▁보라 -10704
▁산호 -10705
▁스가 -10706
▁어쩔 -10707
▁주임 -10708
▁주입 -10709
▁내려졌 -10710
▁Jo -10711
▁나우 -10712
▁연한 -10713
토랑 -10714
▁": -10715
▁신발 -10716
▁씨앗 -10717
▁전래 -10718
▁절망 -10719
▁레스토랑 -10720
▁관청 -10721
▁광도 -10722
▁일당 -10723
▁케인 -10724
▁하키 -10725
▁화엄 -10726
▁케플러 -10727
▁자제 -10728
▁허정 -10729
▁자치체 -10730
▁총사령관 -10731
원수 -10732
oun -10733
▁NT -10734
▁보로 -10735
▁성화 -10736
▁시부 -10737
▁평형 -10738
▁대합실 -10739
▁예수회 -10740
에스 -10741
지르 -10742
▁나인 -10743
▁보행 -10744
▁수양 -10745
▁천왕 -10746
OD -10747
통일 -10748
▁실정 -10749
▁카테 -10750
▁트릭 -10751
▁호스 -10752
▁분류군 -10753
▁함경남도 -10754
▁이렇 -10755
▁아키라 -10756
▁예선전 -10757
▁요시다 -10758
fe -10759
▁@ -10760
히트 -10761
▁로버 -10762
▁보낸다 -10763
AF -10764
신문 -10765
아나 -10766
▁만장 -10767
▁메뉴 -10768
▁무실 -10769
▁찬사 -10770
▁포식 -10771
▁비밀리 -10772
▁ex -10773
▁라서 -10774
▁분파 -10775
정원 -10776
▁마술 -10777
▁전무 -10778
▁제물 -10779
▁긴테쓰 -10780
▁소음 -10781
▁침묵 -10782
▁검정 -10783
▁폭파 -10784
▁향했 -10785
▁정의당 -10786
환경 -10787
are -10788
▁가솔 -10789
▁메카 -10790
▁박종 -10791
▁이점 -10792
▁테리 -10793
▁내야수 -10794
▁방어선 -10795
군다 -10796
창호 -10797
▁고든 -10798
▁리보 -10799
▁보수당 -10800
바흐 -10801
▁sc -10802
▁다테 -10803
▁당연 -10804
▁맞대 -10805
▁이겨 -10806
▁플라톤 -10807
려서 -10808
▁도둑 -10809
▁블레 -10810
▁원통 -10811
▁뉴클레오 -10812
▁네이션스컵 -10813
▁벅 -10814
▁샀 -10815
▁라자 -10816
▁문고 -10817
▁시몬 -10818
▁다저스 -10819
▁비타민 -10820
▁색소 -10821
▁신지 -10822
▁서대문 -10823
▁아키타 -10824
▁올라갔 -10825
▁스톡홀름 -10826
▁본성 -10827
▁어군 -10828
▁엄밀 -10829
▁천국 -10830
▁캐롤 -10831
▁컴퓨팅 -10832
▁넷째 -10833
▁마셜 -10834
▁블로 -10835
▁카피 -10836
ical -10837
▁ABC -10838
▁바이트 -10839
▁알프스 -10840
등식 -10841
▁수복 -10842
▁그래도 -10843
▁드루 -10844
▁전담 -10845
▁강령 -10846
▁김유 -10847
▁영유 -10848
▁타스 -10849
▁파손 -10850
▁개구리 -10851
▁쓰여진 -10852
▁유아기 -10853
메드 -10854
lat -10855
▁도교 -10856
▁방콕 -10857
▁자치주 -10858
▁친위대 -10859
▁와이번스 -10860
▁동로 -10861
▁리베 -10862
▁묘비 -10863
▁나트륨 -10864
▁오리온 -10865
▁프린스 -10866
▁소극 -10867
▁소중 -10868
▁웨인 -10869
▁찬양 -10870
▁황소 -10871
▁스폰서 -10872
IR -10873
TP -10874
라니 -10875
암동 -10876
▁노론 -10877
▁대북 -10878
▁릴리 -10879
▁한미 -10880
▁북아일랜드 -10881
EG -10882
▁넘치 -10883
▁리사 -10884
▁모어 -10885
▁백두 -10886
▁우림 -10887
▁리프트 -10888
▁멧 -10889
매매 -10890
▁선천 -10891
▁스텝 -10892
▁럭비 -10893
▁모셔 -10894
▁불변 -10895
▁실권 -10896
▁추이 -10897
▁치과 -10898
▁마천루 -10899
▁투자자 -10900
▁아름다움 -10901
▁피아니스트 -10902
▁구실 -10903
▁마켓 -10904
▁왕권 -10905
▁장시 -10906
▁채취 -10907
▁천거 -10908
▁ATP -10909
▁대원군 -10910
▁로드리 -10911
▁가브리엘 -10912
▁DD -10913
▁슬픔 -10914
▁포토 -10915
질러 -10916
▁CH -10917
▁Fr -10918
▁화약 -10919
▁피라미 -10920
대표 -10921
▁AV -10922
▁사방 -10923
▁상행 -10924
▁야드 -10925
▁야전 -10926
▁와라 -10927
▁퇴직 -10928
▁헬싱 -10929
▁마누엘 -10930
▁결별 -10931
▁구내 -10932
▁국공 -10933
▁벤처 -10934
▁톈진 -10935
▁합친 -10936
▁연산군 -10937
▁토스카 -10938
▁튀르크 -10939
▁구두 -10940
▁담보 -10941
▁로크 -10942
▁정거 -10943
▁210 -10944
▁동시대 -10945
덴부르크 -10946
▁삼존 -10947
▁슬하 -10948
▁이의 -10949
▁특전 -10950
▁선구자 -10951
▁용인시 -10952
▁연극배우 -10953
지능 -10954
▁감찰 -10955
▁제노 -10956
▁쾰른 -10957
▁정부군 -10958
▁화강암 -10959
▁인공지능 -10960
▁적외선 -10961
▁콘테스트 -10962
FL -10963
놀이 -10964
▁간첩 -10965
▁스칸 -10966
▁안드 -10967
▁여유 -10968
▁져서 -10969
▁가이드 -10970
▁유격수 -10971
티넘 -10972
▁Ma -10973
▁방치 -10974
▁약사 -10975
▁어는 -10976
▁차출 -10977
▁아나톨 -10978
▁플래티넘 -10979
▁헤르체고비나 -10980
ey -10981
언스 -10982
▁pr -10983
▁별세 -10984
▁즐길 -10985
▁알파벳 -10986
▁주차장 -10987
▁프레데 -10988
대교 -10989
러지 -10990
▁강렬 -10991
▁위그 -10992
▁잇따 -10993
▁펌프 -10994
ica -10995
▁마에 -10996
▁유선 -10997
▁중퇴 -10998
▁이뤄졌 -10999
EL -11000
▁가락 -11001
▁왕건 -11002
▁준수 -11003
▁목요일 -11004
사고 -11005
▁본작 -11006
▁켈트 -11007
▁오바마 -11008
▁딥 -11009
수스 -11010
▁그저 -11011
▁죽인 -11012
▁경전철 -11013
▁나타낸 -11014
▁두려움 -11015
들여 -11016
▁러서 -11017
▁로얄 -11018
▁리본 -11019
▁불참 -11020
▁삼림 -11021
▁종식 -11022
▁추리 -11023
▁he -11024
▁공존 -11025
▁봉화 -11026
▁실록 -11027
▁어찌 -11028
▁임정 -11029
▁칸국 -11030
▁안테나 -11031
▁초신성 -11032
▁1889 -11033
▁모하 -11034
▁아날 -11035
▁유목 -11036
▁기관지 -11037
▁스카우트 -11038
클레 -11039
▁강해 -11040
▁밸리 -11041
▁취했 -11042
▁말미암 -11043
▁엔트리 -11044
60 -11045
▁김형 -11046
▁끼치 -11047
▁마땅 -11048
▁반포 -11049
▁영정 -11050
▁요충 -11051
▁이송 -11052
▁직통 -11053
▁늙 -11054
난성 -11055
소통 -11056
천동 -11057
▁갈아 -11058
▁건전 -11059
▁벌여 -11060
▁산성 -11061
▁여권 -11062
▁영예 -11063
▁예약 -11064
▁전전 -11065
▁집정 -11066
▁처지 -11067
▁플리 -11068
▁하시 -11069
공산당 -11070
와라노 -11071
▁메이커 -11072
▁아이폰 -11073
▁후지와라노 -11074
▁가맹 -11075
▁사역 -11076
▁송신 -11077
▁중합 -11078
▁형질 -11079
▁밴쿠버 -11080
▁고속버스 -11081
부로 -11082
▁로트 -11083
▁모금 -11084
▁정형 -11085
▁패트릭 -11086
▁다윈 -11087
▁대영 -11088
▁베트 -11089
▁드디어 -11090
▁열심히 -11091
▁타이어 -11092
충류 -11093
▁겹쳐 -11094
▁자란 -11095
▁절정 -11096
▁투여 -11097
▁피지 -11098
테이너 -11099
▁비엔 -11100
▁호대 -11101
▁간신히 -11102
▁찾아내 -11103
▁의사소통 -11104
▁불량 -11105
▁사설 -11106
▁연말 -11107
▁캐리 -11108
▁똑같이 -11109
▁타이거스 -11110
▁So -11111
▁감성 -11112
▁니혼 -11113
▁열강 -11114
▁의류 -11115
▁판례 -11116
▁휩쓸 -11117
▁소말리아 -11118
▁극우 -11119
▁비야 -11120
▁나아 -11121
▁매트 -11122
▁바꿨 -11123
▁종자 -11124
▁주계 -11125
▁For -11126
▁메디치 -11127
▁스트로 -11128
▁악보 -11129
▁발라드 -11130
▁사라진 -11131
▁챙 -11132
위안 -11133
▁감상 -11134
▁김준 -11135
▁미수 -11136
▁작물 -11137
▁지자 -11138
▁쿠퍼 -11139
▁낙동강 -11140
▁로마인 -11141
▁혀 -11142
▁격리 -11143
▁라리 -11144
▁수락 -11145
▁애정 -11146
▁중수 -11147
▁힘썼 -11148
추부사 -11149
▁엣 -11150
바나 -11151
▁사탕 -11152
▁시크 -11153
▁정작 -11154
블랜드 -11155
▁CONCA -11156
카리 -11157
휴일 -11158
▁사서 -11159
▁삼중 -11160
▁생존자 -11161
다운 -11162
부르 -11163
▁생긴다 -11164
▁JTBC -11165
bo -11166
가미 -11167
유예 -11168
▁의령 -11169
▁후배 -11170
▁Live -11171
▁프란체스코 -11172
▁CONCACAF -11173
▁무형 -11174
▁원군 -11175
▁센티미터 -11176
▁금호 -11177
▁서임 -11178
▁정읍 -11179
▁들어올 -11180
▁클리블랜드 -11181
▁고쳤 -11182
▁목회 -11183
▁하야 -11184
▁나카무라 -11185
sh -11186
망디 -11187
▁도피 -11188
▁메소 -11189
▁모색 -11190
▁잠정 -11191
▁정종 -11192
▁제명 -11193
▁징수 -11194
▁미야자키 -11195
▁훙 -11196
▁앙골 -11197
▁요격 -11198
▁고딕 -11199
▁비추 -11200
▁은거 -11201
▁프랑스인 -11202
▁공소 -11203
▁반기 -11204
캐슬 -11205
▁기이 -11206
▁내걸 -11207
▁Sou -11208
▁카카오 -11209
에미리트 -11210
▁아랍에미리트 -11211
풀이 -11212
▁가도 -11213
▁백과 -11214
▁송출 -11215
▁페트 -11216
마르크 -11217
바이트 -11218
▁놀라운 -11219
▁뛰어났 -11220
▁시네마 -11221
IL -11222
란토 -11223
프로 -11224
▁금산 -11225
▁볼트 -11226
▁레이싱 -11227
▁장학금 -11228
▁가나가와현 -11229
▁깜 -11230
▁싼 -11231
▁비준 -11232
▁습윤 -11233
도르프 -11234
▁드러냈 -11235
▁여배우 -11236
▁카탈루냐 -11237
▁자유민주당 -11238
▁김명 -11239
▁연정 -11240
▁유의 -11241
▁치환 -11242
▁트렌 -11243
▁피라미드 -11244
EE -11245
▁리옹 -11246
▁성곽 -11247
▁익숙 -11248
하이오 -11249
▁오하이오 -11250
말로 -11251
▁EU -11252
▁노면 -11253
▁모욕 -11254
▁서태 -11255
▁유희 -11256
▁평평 -11257
▁광복군 -11258
▁교통부 -11259
tern -11260
▁Com -11261
▁가솔린 -11262
▁에이즈 -11263
화문 -11264
▁벨리 -11265
▁미야기 -11266
▁Time -11267
에몽 -11268
ood -11269
▁격추 -11270
▁무네 -11271
▁자서 -11272
▁검은색 -11273
▁레이더 -11274
▁순종 -11275
▁한중 -11276
▁항만 -11277
▁Col -11278
▁캅 -11279
대사 -11280
▁거미 -11281
▁김광 -11282
▁베어 -11283
▁워커 -11284
▁마이어 -11285
▁유니버설 -11286
ost -11287
▁"& -11288
▁GB -11289
▁귀신 -11290
▁양심 -11291
▁AKB -11292
▁스타트 -11293
▁츄 -11294
▁수로 -11295
▁암스 -11296
▁여고 -11297
▁탄약 -11298
▁int -11299
▁기숙사 -11300
▁1848 -11301
▁Part -11302
자루 -11303
▁급여 -11304
▁때려 -11305
▁매킨 -11306
▁문집 -11307
▁뉴캐슬 -11308
▁토리노 -11309
▁어시스트 -11310
나마 -11311
현동 -11312
▁바지 -11313
▁여사 -11314
▁추억 -11315
▁라이더 -11316
▁레이트 -11317
▁프랑스령 -11318
워하 -11319
▁느린 -11320
▁무과 -11321
▁천주 -11322
▁티아 -11323
▁우루스 -11324
▁사쓰 -11325
▁최진 -11326
▁포털 -11327
▁도래 -11328
▁줄리 -11329
▁한림 -11330
▁해태 -11331
▁브레이 -11332
▁여의도 -11333
row -11334
▁꼽히 -11335
▁추력 -11336
▁해피 -11337
▁시켜서 -11338
▁프란치 -11339
거스 -11340
▁사민 -11341
▁오만 -11342
▁명확히 -11343
▁바그너 -11344
▁국한 -11345
▁공휴일 -11346
▁대리인 -11347
브로 -11348
애미 -11349
의사 -11350
▁재팬 -11351
▁파란 -11352
span -11353
▁부총리 -11354
▁졌으나 -11355
▁지상파 -11356
▁마이애미 -11357
지부 -11358
▁TR -11359
▁가혹 -11360
▁걸어 -11361
▁댄서 -11362
▁맞춘 -11363
▁워즈 -11364
▁하행 -11365
나오 -11366
워서 -11367
▁모건 -11368
▁토트 -11369
▁해독 -11370
▁지배자 -11371
▁튀니지 -11372
▁onlyinclude -11373
uc -11374
정동 -11375
ous -11376
▁남군 -11377
▁볼로 -11378
▁재일 -11379
▁절벽 -11380
▁어긋나 -11381
lay -11382
▁공성 -11383
▁누렸 -11384
▁비정 -11385
▁우한 -11386
▁종군 -11387
▁코리 -11388
프랑크 -11389
▁정치학 -11390
▁카스티야 -11391
▁공대 -11392
▁라르 -11393
▁셀레 -11394
▁총격 -11395
▁대니얼 -11396
▁섰 -11397
▁굴절 -11398
▁방대 -11399
▁병자 -11400
▁업자 -11401
▁클라우 -11402
orn -11403
▁EM -11404
▁무안 -11405
▁비토 -11406
▁산둥 -11407
▁안개 -11408
▁클러 -11409
▁정거장 -11410
▁보령 -11411
▁부합 -11412
▁유식 -11413
▁특화 -11414
▁고인돌 -11415
▁법원장 -11416
▁일본국 -11417
▁Your -11418
▁대승불교 -11419
▁보수주의 -11420
▁로키 -11421
▁비대 -11422
파니아 -11423
▁페트로 -11424
▁교의 -11425
▁든다 -11426
▁바꿀 -11427
▁음절 -11428
▁합치 -11429
페스트 -11430
▁대단히 -11431
▁이뤄지 -11432
지아 -11433
▁경복 -11434
▁다치 -11435
▁제위 -11436
▁치카 -11437
▁국제법 -11438
▁대법관 -11439
▁마법사 -11440
관계 -11441
▁리카 -11442
▁선봉 -11443
▁설문 -11444
▁신곡 -11445
▁관현악단 -11446
ows -11447
▁랴오 -11448
▁부평 -11449
▁선명 -11450
▁인칭 -11451
olog -11452
▁SNS -11453
메니 -11454
ann -11455
▁가쿠 -11456
▁김인 -11457
▁단결 -11458
▁그랜트 -11459
▁시코쿠 -11460
▁아이즈 -11461
▁모라 -11462
▁모빌 -11463
▁문단 -11464
▁커서 -11465
▁시멘트 -11466
▁시켜야 -11467
▁맬 -11468
▁사수 -11469
▁숙부 -11470
해살이 -11471
▁NASA -11472
▁고로 -11473
▁류큐 -11474
▁마테 -11475
▁용액 -11476
▁Bla -11477
▁OST -11478
▁저지대 -11479
▁하노버 -11480
az -11481
▁대마 -11482
▁지법 -11483
▁케르 -11484
▁제우스 -11485
aw -11486
거지 -11487
▁BC -11488
▁거란 -11489
▁공영 -11490
▁소외 -11491
▁연립 -11492
▁항체 -11493
▁131 -11494
OP -11495
▁댈 -11496
▁찔 -11497
▁동산 -11498
▁사림 -11499
▁진로 -11500
메이카 -11501
▁대나무 -11502
▁방사능 -11503
▁카메룬 -11504
▁자메이카 -11505
▁줄기세포 -11506
▁메스 -11507
▁오디 -11508
▁평지 -11509
▁황색 -11510
▁API -11511
▁정보원 -11512
서스 -11513
▁검거 -11514
▁동진 -11515
▁서귀 -11516
▁초콜 -11517
▁명소 -11518
클리드 -11519
▁1883 -11520
▁레드삭스 -11521
틀리 -11522
▁GM -11523
▁도키 -11524
▁모범 -11525
▁안방 -11526
▁재편 -11527
▁적료 -11528
▁점포 -11529
▁접한 -11530
▁영화상 -11531
▁줄리아 -11532
▁쾨 -11533
▁국교 -11534
▁전보 -11535
▁항우 -11536
▁형벌 -11537
▁뛰어들 -11538
▁욱 -11539
▁at -11540
▁종양 -11541
▁최선 -11542
빌라이 -11543
▁ref -11544
▁부상자 -11545
칼리 -11546
▁가중 -11547
▁글꼴 -11548
▁남방 -11549
▁속력 -11550
▁연희 -11551
▁외치 -11552
▁지석 -11553
▁팔렸 -11554
▁라파엘 -11555
▁제이슨 -11556
▁다듬 -11557
▁다우 -11558
▁실증 -11559
▁편견 -11560
▁혼다 -11561
▁가져다 -11562
▁패러디 -11563
▁그라운드 -11564
▁골격 -11565
▁기와 -11566
▁녹화 -11567
▁중엽 -11568
▁하코 -11569
레스트 -11570
▁쳐들어 -11571
히사 -11572
▁기해 -11573
▁도박 -11574
▁바쳤 -11575
▁절감 -11576
른스트 -11577
▁달라지 -11578
▁노르망디 -11579
▁녕 -11580
시노 -11581
▁가토 -11582
▁수식 -11583
▁응급 -11584
▁평판 -11585
▁한신 -11586
네그로 -11587
▁곶 -11588
용차 -11589
▁고생 -11590
▁관상 -11591
▁라디 -11592
▁봉인 -11593
▁부다 -11594
▁카네 -11595
▁홀리 -11596
▁비서관 -11597
▁교향악단 -11598
▁기세 -11599
▁무작 -11600
▁탄자 -11601
▁파일럿 -11602
▁판소리 -11603
▁선대 -11604
▁u -11605
▁촛 -11606
합성 -11607
▁계주 -11608
▁밀어 -11609
▁산요 -11610
▁은혜 -11611
▁코소 -11612
▁타락 -11613
▁연구회 -11614
▁대좌 -11615
▁삽화 -11616
▁송파 -11617
▁식스 -11618
▁쌍대 -11619
▁경위 -11620
▁유우 -11621
▁큐브 -11622
▁에스페 -11623
▁체인지 -11624
▁해상도 -11625
▁텍사스주 -11626
80 -11627
▁간략 -11628
▁기량 -11629
▁리즈 -11630
▁야외 -11631
▁열전 -11632
▁피리 -11633
▁고분군 -11634
▁tv -11635
▁공무 -11636
▁근사 -11637
▁꿈꾸 -11638
▁나간 -11639
▁라바 -11640
▁약해 -11641
▁유공 -11642
▁조교 -11643
▁예컨대 -11644
▁흐른다 -11645
▁중소기업 -11646
들이 -11647
센스 -11648
제품 -11649
▁라기 -11650
▁모세 -11651
▁온난 -11652
▁이터 -11653
▁자명 -11654
▁콘솔 -11655
▁가우 -11656
▁너머 -11657
▁발상 -11658
▁병마 -11659
▁이회 -11660
▁하남 -11661
▁프로그래머 -11662
▁단군 -11663
▁리마 -11664
▁세습 -11665
▁위로 -11666
▁지극 -11667
▁카마 -11668
▁연장전 -11669
▁뫼 -11670
▁걸쳐서 -11671
▁니키 -11672
▁달랐 -11673
▁우산 -11674
▁유생 -11675
▁에이전 -11676
▁위구르 -11677
돌이 -11678
▁Ge -11679
▁고의 -11680
▁배분 -11681
▁수위 -11682
▁월터 -11683
▁달아났 -11684
▁쿠빌라이 -11685
▁간사 -11686
▁단속 -11687
▁도네 -11688
▁램프 -11689
▁상어 -11690
▁엔드 -11691
▁요절 -11692
▁전반기 -11693
▁토마토 -11694
▁안나 -11695
▁해치 -11696
▁이용객 -11697
▁잃어버린 -11698
ink -11699
▁관례 -11700
▁부왕 -11701
▁사학 -11702
▁학력 -11703
▁함량 -11704
▁만화가 -11705
▁봇 -11706
워스 -11707
치히 -11708
ern -11709
▁고마 -11710
▁고흥 -11711
▁국외 -11712
▁권역 -11713
▁북군 -11714
▁다이어 -11715
▁해안선 -11716
▁1882 -11717
에고 -11718
▁단정 -11719
▁부교 -11720
▁성동 -11721
▁요양 -11722
▁야마가타 -11723
▁RP -11724
▁군데 -11725
▁왕궁 -11726
▁친족 -11727
▁330 -11728
▁Day -11729
▁통신사 -11730
▁Wind -11731
40 -11732
CC -11733
▁콥 -11734
버른 -11735
프턴 -11736
▁내일 -11737
▁루키 -11738
▁주선 -11739
▁거성 -11740
▁고노 -11741
▁기전 -11742
▁동포 -11743
▁맞춤 -11744
▁보루 -11745
▁스루 -11746
▁유서 -11747
▁헬레 -11748
스트리 -11749
▁슈퍼컵 -11750
▁올리브 -11751
▁관계없이 -11752
토프 -11753
포시 -11754
▁덮개 -11755
▁세련 -11756
▁내세우 -11757
▁너무나 -11758
▁급증 -11759
▁위조 -11760
▁파벌 -11761
▁단체전 -11762
▁대표자 -11763
▁스칼라 -11764
▁아이언 -11765
▁원산지 -11766
▁가고 -11767
▁관악 -11768
▁느낄 -11769
▁받들 -11770
▁범행 -11771
▁정월 -11772
▁국정원 -11773
▁데니스 -11774
▁필립스 -11775
II -11776
교통 -11777
여객 -11778
▁RS -11779
▁SA -11780
▁새우 -11781
▁씨족 -11782
▁자수 -11783
▁장덕 -11784
▁조셉 -11785
▁공화정 -11786
▁카스트 -11787
▁아날로그 -11788
▁몹 -11789
서니 -11790
오르크 -11791
▁레오폴 -11792
▁결사 -11793
▁배달 -11794
▁타수 -11795
▁부르주 -11796
▁선진국 -11797
▁Girl -11798
나갔 -11799
▁여도 -11800
▁직속 -11801
▁플러 -11802
▁미토콘 -11803
▁영원히 -11804
▁미토콘드리아 -11805
▁FK -11806
▁묻혔 -11807
▁산시 -11808
▁시안 -11809
▁우시 -11810
▁정정 -11811
▁주창 -11812
▁최영 -11813
▁표정 -11814
▁미스터리 -11815
▁성원 -11816
▁세요 -11817
▁옮긴 -11818
▁제천 -11819
▁Sch -11820
▁강당 -11821
▁강행 -11822
▁상록 -11823
▁아유 -11824
▁재래 -11825
▁지르 -11826
▁태후 -11827
▁항원 -11828
▁남하 -11829
▁몰타 -11830
▁사영 -11831
도라 -11832
팡이 -11833
▁그릴 -11834
▁아목 -11835
▁염려 -11836
▁형편 -11837
▁군사력 -11838
▁북유럽 -11839
▁비해서 -11840
▁중공군 -11841
▁지닌다 -11842
▁4000 -11843
▁관목 -11844
▁협업 -11845
▁노벨상 -11846
▁무실점 -11847
▁생겨난 -11848
▁해운대 -11849
▁시즈오카 -11850
▁넬슨 -11851
▁랭크 -11852
▁맡기 -11853
▁양보 -11854
▁진한 -11855
▁경주시 -11856
▁어울리 -11857
▁브루클린 -11858
▁신입 -11859
▁외래 -11860
▁잠깐 -11861
▁천수 -11862
▁테네시 -11863
▁호스트 -11864
▁괌 -11865
▁냥 -11866
▁딜런 -11867
▁발동 -11868
▁서면 -11869
▁조슈 -11870
▁독수리 -11871
▁안티오 -11872
게스 -11873
▁규탄 -11874
▁사치 -11875
▁앞선 -11876
▁정은 -11877
▁콜럼 -11878
▁파푸아 -11879
▁타일 -11880
▁떠오르 -11881
▁줌 -11882
▁쪼 -11883
본부 -11884
▁놓인 -11885
▁보름 -11886
▁빙하 -11887
▁소프 -11888
▁일각 -11889
▁만난다 -11890
▁우의정 -11891
▁지붕돌 -11892
▁파시즘 -11893
▁휴게소 -11894
데라 -11895
▁우월 -11896
▁제단 -11897
▁키워 -11898
▁급속히 -11899
▁사업소 -11900
▁제갈량 -11901
▁1868 -11902
US -11903
융합 -11904
▁단말 -11905
▁영덕 -11906
티모어 -11907
▁대상자 -11908
▁베이커 -11909
▁산티아 -11910
▁알아보 -11911
▁치러졌 -11912
OT -11913
▁노사 -11914
▁사안 -11915
▁하의 -11916
▁회귀 -11917
▁new -11918
▁멜버른 -11919
▁메릴랜드 -11920
▁뇨 -11921
▁대인 -11922
▁뒤이 -11923
▁라미 -11924
▁번창 -11925
▁종영 -11926
▁라인업 -11927
▁컨테이너 -11928
▁쩐 -11929
지리 -11930
▁OB -11931
▁Or -11932
▁과테 -11933
▁수열 -11934
▁할인 -11935
▁후예 -11936
스탄불 -11937
▁접어들 -11938
▁과테말라 -11939
▁유클리드 -11940
▁이스탄불 -11941
oll -11942
▁거세 -11943
▁고트 -11944
▁족보 -11945
▁LED -11946
▁핵융합 -11947
▁사이타마 -11948
▁대도 -11949
▁오아 -11950
▁전수 -11951
▁스캔들 -11952
▁요충지 -11953
▁이바지 -11954
▁컨트롤러 -11955
협회 -11956
▁객차 -11957
▁동적 -11958
▁어파 -11959
▁출자 -11960
▁피핀 -11961
▁앙골라 -11962
▁오스틴 -11963
▁몬테네그로 -11964
▁사회민주당 -11965
▁교부 -11966
▁군벌 -11967
▁외형 -11968
▁증폭 -11969
▁청계 -11970
▁사운드트랙 -11971
▁찢 -11972
▁농지 -11973
▁저조 -11974
▁피할 -11975
▁렛 -11976
▁샨 -11977
▁무서 -11978
▁았었 -11979
▁영월 -11980
▁법관 -11981
▁절제 -11982
▁충렬 -11983
▁리믹스 -11984
▁좌의정 -11985
▁프랜차 -11986
▁장병 -11987
▁성산 -11988
▁위력 -11989
▁잔인 -11990
▁기념일 -11991
▁폐기물 -11992
▁노후 -11993
▁라카 -11994
▁사천 -11995
▁우왕 -11996
▁초안 -11997
▁켄트 -11998
▁항로 -11999
펜하겐 -12000
▁코펜하겐 -12001
히드 -12002
▁러일 -12003
▁복종 -12004
▁영암 -12005
▁위촉 -12006
▁증오 -12007
▁주계열 -12008
▁커리어 -12009
▁베르나르 -12010
▁야마모토 -12011
▁교직 -12012
▁버터 -12013
▁안무 -12014
▁호아 -12015
웨이트 -12016
▁게끔 -12017
▁금전 -12018
▁밀레 -12019
▁사비 -12020
▁은신 -12021
▁차선 -12022
▁청도 -12023
▁흩어져 -12024
▁아케이드 -12025
▁요하네스 -12026
내리 -12027
▁부파 -12028
▁스콜 -12029
▁양수 -12030
▁320 -12031
▁히브리 -12032
▁프란시스코 -12033
바오 -12034
▁끝날 -12035
▁출동 -12036
▁타리 -12037
▁프랜차이즈 -12038
▁colspan -12039
▁동향 -12040
▁새긴 -12041
▁성악 -12042
▁식용 -12043
▁외과 -12044
▁이메 -12045
▁주심 -12046
▁카세 -12047
▁피드 -12048
▁헌장 -12049
▁수요일 -12050
▁신주쿠 -12051
▁암스테르담 -12052
▁고온 -12053
▁도상 -12054
▁우연 -12055
▁정몽 -12056
▁치유 -12057
▁공안 -12058
▁꾀하 -12059
▁내분 -12060
▁네티 -12061
▁분단 -12062
▁종신 -12063
▁피우 -12064
▁김옥균 -12065
▁떠난다 -12066
▁사이먼 -12067
▁슌 -12068
공주 -12069
호란 -12070
▁대청 -12071
▁매리 -12072
▁위함 -12073
▁준장 -12074
▁추서 -12075
▁자서전 -12076
▁DF -12077
▁능동 -12078
▁대덕 -12079
▁배리 -12080
▁슈테 -12081
▁습관 -12082
▁시비 -12083
▁이항 -12084
▁치하 -12085
▁end -12086
▁동맹국 -12087
디나비아 -12088
▁게오르크 -12089
▁니콜라스 -12090
▁스칸디나비아 -12091
▁분사 -12092
▁상국 -12093
▁소아 -12094
▁카툰 -12095
▁컨설 -12096
▁효고현 -12097
▁여성주의 -12098
우에 -12099
익스 -12100
▁고이 -12101
▁긴밀 -12102
▁순차 -12103
▁전세 -12104
▁첼로 -12105
▁그만큼 -12106
걸이 -12107
▁국철 -12108
▁바울 -12109
▁양대 -12110
▁자재 -12111
▁정령 -12112
▁축산 -12113
토리코 -12114
▁오일러 -12115
▁산티아고 -12116
RT -12117
▁김윤 -12118
▁조영 -12119
▁직행 -12120
▁톰슨 -12121
▁서해안 -12122
▁철저히 -12123
▁육군사관학교 -12124
▁놈 -12125
꼬리 -12126
▁by -12127
▁거지 -12128
▁모차 -12129
▁무언 -12130
▁샤프 -12131
▁압록 -12132
▁전락 -12133
▁결과물 -12134
amp -12135
gin -12136
▁당할 -12137
▁문종 -12138
▁서주 -12139
▁데이브 -12140
▁헤이안 -12141
▁에른스트 -12142
▁쿠웨이트 -12143
니파 -12144
▁김선 -12145
▁노아 -12146
▁점거 -12147
▁정했 -12148
▁차츰 -12149
▁타로 -12150
▁한번 -12151
▁함흥 -12152
▁브뤼셀 -12153
▁서사시 -12154
▁늪 -12155
셀러 -12156
▁었었 -12157
▁칭송 -12158
▁280 -12159
▁로마자 -12160
▁시트콤 -12161
▁루이지애나 -12162
▁코스타리카 -12163
독립 -12164
웍스 -12165
▁정반 -12166
▁주성 -12167
▁퍼즐 -12168
▁발전기 -12169
▁위안부 -12170
▁텔레콤 -12171
▁내무 -12172
▁브릿 -12173
▁아흐 -12174
▁가라앉 -12175
▁어웨이 -12176
▁윗부분 -12177
▁장로교 -12178
▁푸에르토리코 -12179
LA -12180
▁고집 -12181
▁문무 -12182
▁원활 -12183
▁전학 -12184
▁짐승 -12185
▁천천 -12186
▁흡사 -12187
▁법조인 -12188
▁천안시 -12189
▁결핵 -12190
▁김승 -12191
▁리코 -12192
▁박성 -12193
▁보여준 -12194
▁펠릭스 -12195
▁포르노 -12196
▁화장품 -12197
▁함경북도 -12198
▁촐 -12199
계승 -12200
▁높여 -12201
▁정재 -12202
▁피크 -12203
▁후유 -12204
▁203 -12205
▁IOC -12206
▁나타날 -12207
▁유학자 -12208
▁1893 -12209
▁각료 -12210
▁격려 -12211
▁데드 -12212
▁백악 -12213
▁소대 -12214
▁수량 -12215
▁유족 -12216
▁척도 -12217
▁편향 -12218
▁부르고 -12219
▁갯 -12220
▁리튬 -12221
▁앤디 -12222
▁온화 -12223
▁천마 -12224
▁축전 -12225
▁충무 -12226
▁폐렴 -12227
▁학장 -12228
▁트리오 -12229
▁복음주의 -12230
OW -12231
게임 -12232
▁Fe -12233
▁과시 -12234
▁레프 -12235
▁박상 -12236
▁배드 -12237
▁생리 -12238
▁접종 -12239
▁집착 -12240
▁코네 -12241
▁탈취 -12242
▁천천히 -12243
북구 -12244
업자 -12245
▁기쁨 -12246
▁대종 -12247
▁배양 -12248
▁이아 -12249
▁측량 -12250
▁민병대 -12251
퍼레이션 -12252
▁가했 -12253
▁영천 -12254
▁우두 -12255
▁데일리 -12256
▁가고시마 -12257
gr -12258
세유 -12259
ung -12260
▁높였 -12261
▁서스 -12262
▁선인 -12263
▁아드 -12264
▁자진 -12265
라이드 -12266
▁교육자 -12267
▁이탈리아어 -12268
▁막판 -12269
▁이황 -12270
▁해왕 -12271
▁마이크로 -12272
▁탄자니아 -12273
▁톡 -12274
▁Mo -12275
▁NP -12276
▁숨기 -12277
▁조니 -12278
▁조제 -12279
▁도자기 -12280
▁로베르 -12281
▁해안가 -12282
상시 -12283
화학 -12284
les -12285
▁le -12286
▁심포 -12287
▁하타 -12288
▁헤로 -12289
▁동맹군 -12290
▁갚 -12291
▁간직 -12292
▁김치 -12293
▁서초구 -12294
▁Rock -12295
티에 -12296
▁도출 -12297
▁취한 -12298
▁하급 -12299
로이드 -12300
▁관우 -12301
▁애인 -12302
▁헌터 -12303
▁흥분 -12304
▁노미야 -12305
▁왔으나 -12306
▁초콜릿 -12307
eth -12308
▁관성 -12309
▁김천 -12310
▁도이 -12311
▁미성 -12312
▁심상 -12313
▁톱니 -12314
▁아라곤 -12315
▁후쿠오카현 -12316
들러 -12317
몬트 -12318
비크 -12319
▁금동 -12320
▁불경 -12321
▁유영 -12322
▁한문 -12323
▁한큐 -12324
▁도로는 -12325
▁유적지 -12326
익스피어 -12327
▁Comp -12328
▁핏 -12329
▁공양 -12330
▁구금 -12331
▁림프 -12332
▁보낼 -12333
▁칼슘 -12334
▁컬렉션 -12335
▁플랑크 -12336
▁셰익스피어 -12337
▁기뻐 -12338
▁심부 -12339
▁점검 -12340
▁주세 -12341
루이스 -12342
▁고려대 -12343
▁비스타 -12344
▁마타 -12345
▁전미 -12346
▁녹색당 -12347
▁레인저스 -12348
▁아츠 -12349
▁조롱 -12350
▁합하 -12351
▁지켜보 -12352
▁케이크 -12353
▁픽처스 -12354
▁Univers -12355
▁Am -12356
▁견고 -12357
▁바비 -12358
▁버섯 -12359
▁불사 -12360
▁강화도 -12361
▁글래스 -12362
▁스포르 -12363
▁미나모토 -12364
▁부르고뉴 -12365
나기 -12366
oth -12367
▁귀속 -12368
▁라흐 -12369
▁오하 -12370
▁장녀 -12371
▁현판 -12372
▁다면서 -12373
▁다스렸 -12374
▁도야마 -12375
▁사상가 -12376
▁우울증 -12377
▁상관없이 -12378
▁구독 -12379
▁까마 -12380
▁명인 -12381
▁물결 -12382
▁미아 -12383
▁버러 -12384
▁소사 -12385
▁아메 -12386
▁에마 -12387
▁TBS -12388
▁밝혀진 -12389
▁서바이 -12390
▁AB -12391
▁대주 -12392
▁배역 -12393
▁스런 -12394
▁시속 -12395
▁에로 -12396
▁페더 -12397
▁휘말 -12398
▁Rec -12399
▁불계승 -12400
▁러시아군 -12401
▁겹치 -12402
▁노랑 -12403
▁반동 -12404
▁월트 -12405
▁휴양 -12406
▁게오르 -12407
▁로스쿨 -12408
▁발사체 -12409
▁순양함 -12410
▁인공위성 -12411
레드 -12412
태평 -12413
▁구치 -12414
▁구한 -12415
▁라즈 -12416
▁무단 -12417
▁발목 -12418
▁상정 -12419
▁도카이도 -12420
트르 -12421
▁마트 -12422
▁심문 -12423
▁재차 -12424
▁내린다 -12425
▁참모총장 -12426
▁낚시 -12427
▁미츠 -12428
▁청량 -12429
▁특사 -12430
▁황산 -12431
▁230 -12432
▁끝냈 -12433
▁대접 -12434
▁달라진다 -12435
▁매끄러운 -12436
폭탄 -12437
▁Do -12438
▁노프 -12439
▁에바 -12440
▁베르타 -12441
▁프리스 -12442
▁from -12443
▁플로리다주 -12444
▁핼 -12445
▁연회 -12446
▁이우 -12447
▁침례 -12448
▁파편 -12449
▁GNU -12450
▁들어섰 -12451
▁스탠리 -12452
▁가르시아 -12453
▁가와사키 -12454
▁에스페란토 -12455
▁Sup -12456
▁국제선 -12457
▁기업가 -12458
▁둘러싸인 -12459
▁마르세유 -12460
▁율리우스 -12461
국적 -12462
그마 -12463
바리 -12464
▁강진 -12465
▁나뭇 -12466
▁당뇨 -12467
▁슈타 -12468
▁용품 -12469
▁평안도 -12470
▁프로모 -12471
ublic -12472
▁뮐 -12473
헤드 -12474
▁대진 -12475
▁라가 -12476
▁스투 -12477
▁유포 -12478
▁이범 -12479
▁수차례 -12480
▁중앙은행 -12481
▁가부 -12482
▁대차 -12483
▁동종 -12484
▁운임 -12485
▁취해 -12486
▁향기 -12487
민스터 -12488
▁로빈슨 -12489
▁지바현 -12490
▁펠리페 -12491
▁1888 -12492
▁Su -12493
▁리차 -12494
▁산수 -12495
▁소용 -12496
▁재발 -12497
▁철강 -12498
▁피사 -12499
▁수나라 -12500
▁조선왕 -12501
▁박테리아 -12502
▁IV -12503
▁견디 -12504
▁사커 -12505
▁스킴 -12506
▁애초 -12507
▁울릉 -12508
▁웃음 -12509
▁제창 -12510
▁페오 -12511
유사 -12512
▁제철 -12513
▁카야 -12514
▁하이퍼 -12515
▁허드슨 -12516
▁1892 -12517
▁네모 -12518
▁배기 -12519
▁청송 -12520
▁다이빙 -12521
▁로이드 -12522
▁이바라 -12523
▁노스캐롤라이나 -12524
둘기 -12525
▁닉슨 -12526
▁명부 -12527
▁장래 -12528
▁재앙 -12529
▁경계선 -12530
▁사간원 -12531
▁세네갈 -12532
▁쇠고기 -12533
▁CG -12534
▁Sw -12535
▁무르 -12536
▁소동 -12537
▁시우 -12538
▁주먹 -12539
▁터지 -12540
▁Car -12541
▁덧붙였 -12542
▁세비야 -12543
▁케이트 -12544
AI -12545
▁공법 -12546
▁납부 -12547
▁데미 -12548
▁메틸 -12549
▁유무 -12550
연수 -12551
▁백자 -12552
▁아와 -12553
▁원유 -12554
▁활동가 -12555
▁우에스기 -12556
▁푹 -12557
티노 -12558
홍색 -12559
▁고스 -12560
▁마요 -12561
▁붕어 -12562
▁사변 -12563
▁사키 -12564
▁하구 -12565
▁애덤스 -12566
▁절도사 -12567
AE -12568
▁ar -12569
▁강성 -12570
▁공시 -12571
▁모던 -12572
▁순례 -12573
▁시문 -12574
▁어의 -12575
▁옥타 -12576
▁입헌 -12577
▁관현악 -12578
▁소학교 -12579
▁굶 -12580
▁과연 -12581
▁과잉 -12582
▁새뮤 -12583
▁펠트 -12584
로니아 -12585
▁스탠드 -12586
▁차세대 -12587
▁낙양 -12588
▁면모 -12589
▁온건 -12590
▁위계 -12591
▁레이디 -12592
▁뱃 -12593
철수 -12594
▁맥아 -12595
▁반주 -12596
▁이봉 -12597
미디어 -12598
▁공방전 -12599
▁대명사 -12600
▁대전차 -12601
▁산스크 -12602
▁산스크리트 -12603
▁펩 -12604
사태 -12605
암리 -12606
▁미식 -12607
▁일진 -12608
▁자립 -12609
▁코사 -12610
▁고려사 -12611
▁논리학 -12612
▁다카라 -12613
▁대공국 -12614
▁더블린 -12615
▁스테판 -12616
▁앤서니 -12617
▁알렉산드로스 -12618
▁씻 -12619
네트 -12620
▁농축 -12621
▁미미 -12622
▁세레 -12623
▁자코 -12624
▁직계 -12625
▁하임 -12626
▁해병 -12627
▁아브라 -12628
▁지리학 -12629
▁1876 -12630
자동 -12631
▁IR -12632
▁계량 -12633
▁니켈 -12634
▁산청 -12635
▁문자열 -12636
▁사절단 -12637
▁후원자 -12638
▁프린스턴 -12639
▁대금 -12640
▁으리 -12641
▁도르트 -12642
▁볼로냐 -12643
▁성매매 -12644
▁데스크톱 -12645
▁겟 -12646
▁펫 -12647
보리 -12648
클라 -12649
▁당황 -12650
▁죄수 -12651
▁중고 -12652
▁북조선 -12653
▁올리버 -12654
▁전주시 -12655
▁카운트 -12656
ah -12657
▁생모 -12658
▁선양 -12659
▁USB -12660
▁사단장 -12661
▁wh -12662
▁댓글 -12663
▁두각 -12664
▁이산 -12665
▁채색 -12666
▁아무리 -12667
▁집행유예 -12668
▁프레임워크 -12669
로쿠 -12670
▁거룩 -12671
▁단조 -12672
▁로브 -12673
▁부양 -12674
▁손녀 -12675
▁수력 -12676
▁수하 -12677
▁정진 -12678
▁조개 -12679
▁통폐 -12680
▁풍습 -12681
▁Gre -12682
▁브래드 -12683
▁1866 -12684
▁페르난도 -12685
▁베이시스트 -12686
▁간혹 -12687
▁깃털 -12688
▁발의 -12689
▁완도 -12690
▁축성 -12691
▁토이 -12692
리카락 -12693
▁보좌관 -12694
▁1886 -12695
▁머리카락 -12696
▁가면라이더 -12697
▁덱 -12698
▁물류 -12699
▁복싱 -12700
▁알폰 -12701
▁에반 -12702
▁이호 -12703
▁전권 -12704
▁포탄 -12705
▁260 -12706
▁덩어리 -12707
광성 -12708
▁부류 -12709
▁송환 -12710
▁약점 -12711
▁유능 -12712
▁카레 -12713
▁퍼졌 -12714
▁서기관 -12715
▁으려는 -12716
▁프란치스코 -12717
네임 -12718
▁군관 -12719
▁라드 -12720
▁아디 -12721
▁조현 -12722
▁파파 -12723
르타뉴 -12724
▁게시판 -12725
▁장제스 -12726
▁베네딕토 -12727
▁브르타뉴 -12728
너드 -12729
뮬러 -12730
코르 -12731
▁나름 -12732
▁너스 -12733
▁번갈 -12734
▁앨리 -12735
▁조소 -12736
▁교구장 -12737
▁생리학 -12738
▁조나라 -12739
▁인플레이션 -12740
▁꽂 -12741
▁거스 -12742
▁도성 -12743
▁베일 -12744
▁엘런 -12745
▁저우 -12746
▁즐거 -12747
▁스테인 -12748
▁Tour -12749
EST -12750
▁이니 -12751
▁합천 -12752
▁270 -12753
▁구스타프 -12754
분열 -12755
▁co -12756
▁마린 -12757
▁바시 -12758
▁박수 -12759
▁본체 -12760
▁얼룩 -12761
▁접해 -12762
▁펀드 -12763
▁바이어 -12764
▁코소보 -12765
▁웨스트민스터 -12766
라호 -12767
▁몰랐 -12768
▁신진 -12769
▁필하 -12770
▁독립군 -12771
▁베이비 -12772
▁이즈미 -12773
▁페미니 -12774
▁해결책 -12775
▁돌아다니 -12776
▁드미트리 -12777
▁구르 -12778
▁무수 -12779
▁서예 -12780
▁원상 -12781
▁유다 -12782
▁강서구 -12783
▁민영화 -12784
꿈치 -12785
레시 -12786
▁긴키 -12787
▁배척 -12788
▁임계 -12789
▁초전 -12790
▁파커 -12791
▁행방 -12792
▁새뮤얼 -12793
▁통폐합 -12794
큐어 -12795
▁거칠 -12796
▁도약 -12797
▁악곡 -12798
▁제르 -12799
▁역사학 -12800
▁용의자 -12801
▁마르쿠스 -12802
▁카르타고 -12803
쓰기 -12804
ron -12805
▁도하 -12806
▁출혈 -12807
▁현과 -12808
▁간사이 -12809
▁서포터 -12810
▁주니치 -12811
▁1887 -12812
▁모차르트 -12813
우회 -12814
직경 -12815
▁경무 -12816
▁마나 -12817
▁빅뱅 -12818
▁산물 -12819
▁중개 -12820
▁지면 -12821
▁퇴위 -12822
▁경영학 -12823
▁바람직 -12824
▁보살상 -12825
▁삼각주 -12826
짜기 -12827
▁KB -12828
▁ML -12829
▁광선 -12830
▁위패 -12831
▁음운 -12832
▁타구 -12833
▁프루 -12834
▁금나라 -12835
▁시직경 -12836
▁이어주 -12837
▁장난감 -12838
▁1861 -12839
▁프리미엄 -12840
▁펭 -12841
▁도제 -12842
▁박자 -12843
▁배운 -12844
▁아자 -12845
▁여타 -12846
▁포츠 -12847
▁피어 -12848
land -12849
▁사쓰마 -12850
▁브리티시 -12851
슈타 -12852
▁급히 -12853
▁놓이 -12854
▁동창 -12855
▁레트 -12856
▁습득 -12857
▁오지 -12858
▁유전학 -12859
▁집정관 -12860
▁축구팀 -12861
▁화요일 -12862
▁가로지르 -12863
ave -12864
▁비지 -12865
▁슬램 -12866
▁근거지 -12867
▁Dream -12868
19 -12869
왕후 -12870
ble -12871
▁라니 -12872
▁성기 -12873
▁에두 -12874
▁위시 -12875
▁지아 -12876
▁페스 -12877
▁클레멘스 -12878
하임 -12879
▁Up -12880
▁갖춰 -12881
▁고창 -12882
▁마구 -12883
▁오산 -12884
▁유머 -12885
▁편안 -12886
▁Wii -12887
른베르크 -12888
▁재단법인 -12889
▁지나간다 -12890
▁싹 -12891
제비 -12892
▁가닥 -12893
▁무자 -12894
▁자궁 -12895
▁펠로 -12896
▁달아나 -12897
▁장애물 -12898
▁도미니카 -12899
▁볼티모어 -12900
▁세분 -12901
▁코호 -12902
▁특기 -12903
▁홈경기 -12904
▁Life -12905
동자 -12906
비안 -12907
▁SV -12908
▁몰두 -12909
▁여건 -12910
▁해냈 -12911
▁알아내 -12912
▁1864 -12913
▁it -12914
▁버크 -12915
▁부름 -12916
▁올레 -12917
▁정예 -12918
▁직사 -12919
▁천지 -12920
▁형용 -12921
▁환관 -12922
▁단거리 -12923
▁부분군 -12924
코타 -12925
▁라시 -12926
▁유타 -12927
▁죽임 -12928
DA -12929
▁돗 -12930
▁뭐 -12931
ult -12932
▁레버 -12933
▁외환 -12934
▁익명 -12935
▁촛불 -12936
▁포화 -12937
▁당선자 -12938
▁다행 -12939
▁오대 -12940
▁자릿 -12941
▁뛰어넘 -12942
▁황해도 -12943
▁만점 -12944
▁불분 -12945
▁사내 -12946
▁파직 -12947
▁신세계 -12948
▁코스트 -12949
▁후세인 -12950
▁나마 -12951
▁만날 -12952
▁모국 -12953
▁모닝 -12954
▁양현 -12955
▁완결 -12956
▁깁 -12957
▁교지 -12958
▁기밀 -12959
▁내포 -12960
▁수이 -12961
▁바로크 -12962
▁1850 -12963
▁석가모니 -12964
열차 -12965
▁왕관 -12966
▁장전 -12967
▁전과 -12968
솔리니 -12969
▁공연장 -12970
▁데이빗 -12971
린트 -12972
▁RT -12973
▁발톱 -12974
▁세무 -12975
▁오메 -12976
▁네티즌 -12977
▁보안법 -12978
▁음악원 -12979
▁좌표계 -12980
▁프랑코 -12981
▁스트리밍 -12982
예술 -12983
▁SH -12984
▁경건 -12985
▁뒤늦 -12986
▁섞여 -12987
▁재결 -12988
▁증세 -12989
▁개정안 -12990
▁백악기 -12991
▁재판부 -12992
▁카이로 -12993
즐리 -12994
콘신 -12995
▁구문 -12996
▁리트 -12997
▁스모 -12998
▁승단 -12999
▁혼혈 -13000
▁홍성 -13001
▁내보내 -13002
▁위스콘신 -13003
디슨 -13004
▁복위 -13005
▁실각 -13006
▁예의 -13007
▁잔디 -13008
▁치우 -13009
▁토목 -13010
▁가해자 -13011
▁노동력 -13012
▁모나코 -13013
▁TC -13014
▁근래 -13015
▁이력 -13016
▁홈즈 -13017
▁두려워하 -13018
▁다카라즈카 -13019
▁눈치 -13020
▁홀딩 -13021
▁인해서 -13022
ition -13023
▁남베트남 -13024
▁렙 -13025
니오 -13026
▁평탄 -13027
▁히토 -13028
▁도라에몽 -13029
ational -13030
orm -13031
▁라라 -13032
▁암모 -13033
▁응하 -13034
▁접합 -13035
▁보너스 -13036
▁주나라 -13037
▁토트넘 -13038
▁마을버스 -13039
플린 -13040
▁객원 -13041
▁공판 -13042
▁쓰루 -13043
▁열려 -13044
▁오일 -13045
▁처해 -13046
▁허블 -13047
라호마 -13048
▁재판관 -13049
▁컨텐츠 -13050
▁Music -13051
▁오클라호마 -13052
▁계보 -13053
▁관내 -13054
▁군세 -13055
▁승지 -13056
▁왕성 -13057
▁추존 -13058
▁평했 -13059
▁사나이 -13060
▁생성물 -13061
▁1881 -13062
EP -13063
▁쑨 -13064
▁쥘 -13065
▁AG -13066
▁헌납 -13067
▁흘리 -13068
바도르 -13069
▁아카이 -13070
▁1830 -13071
▁헤라클레스 -13072
브웨 -13073
ton -13074
▁강세 -13075
▁구례 -13076
▁도산 -13077
▁워킹 -13078
▁이별 -13079
▁쿼크 -13080
▁푸아 -13081
▁참의원 -13082
▁행정동 -13083
▁루스벨트 -13084
▁리에 -13085
▁전리 -13086
▁조심 -13087
▁짐바 -13088
▁패권 -13089
▁유니버스 -13090
▁매진 -13091
▁방공 -13092
▁백업 -13093
▁삼척 -13094
▁알맞 -13095
▁잠실 -13096
▁침대 -13097
▁황자 -13098
▁미네소타 -13099
▁크리에이 -13100
다오 -13101
▁en -13102
▁if -13103
▁말단 -13104
▁민물 -13105
▁선율 -13106
▁요괴 -13107
▁정황 -13108
▁끝난다 -13109
▁대표단 -13110
▁압록강 -13111
▁요금소 -13112
▁날카로운 -13113
▁남송 -13114
▁남조 -13115
▁산기 -13116
▁재벌 -13117
▁차수 -13118
▁카와 -13119
▁필연 -13120
▁관련자 -13121
▁대교구 -13122
▁무작위 -13123
두르 -13124
▁구획 -13125
▁기통 -13126
▁승하 -13127
▁아타 -13128
▁여학생 -13129
▁트레이닝 -13130
▁DR -13131
▁괘불 -13132
▁모신 -13133
▁목욕 -13134
▁배트 -13135
▁판관 -13136
▁갔으며 -13137
▁합창단 -13138
▁복직 -13139
▁세간 -13140
▁자판 -13141
▁로맨틱 -13142
▁야구단 -13143
▁외무부 -13144
▁1872 -13145
▁낭만주의 -13146
▁컴파일러 -13147
렌스 -13148
▁경도 -13149
▁러닝 -13150
▁마티 -13151
▁생도 -13152
▁소라 -13153
▁전교 -13154
▁태우 -13155
▁해석학 -13156
▁화성시 -13157
뛰기 -13158
화경 -13159
▁Ed -13160
▁경매 -13161
▁관용 -13162
▁닛산 -13163
▁다비 -13164
▁동차 -13165
▁벌레 -13166
▁뷰티 -13167
▁스윙 -13168
▁아다 -13169
▁아편 -13170
▁오우 -13171
▁종업 -13172
▁현미 -13173
ject -13174
▁까마귀 -13175
▁반대파 -13176
▁대한항공 -13177
▁오스트리 -13178
▁발자 -13179
▁발포 -13180
▁스몰 -13181
▁신봉 -13182
▁조경 -13183
▁흑백 -13184
▁마르셀 -13185
라이어티 -13186
아메리카 -13187
▁버라이어티 -13188
타입 -13189
평리 -13190
▁XP -13191
▁대강 -13192
▁별장 -13193
▁이누 -13194
▁익산 -13195
▁코난 -13196
▁iOS -13197
▁도망치 -13198
▁부르주아 -13199
▁등등 -13200
▁미상 -13201
▁뽑혔 -13202
▁스기 -13203
▁죽여 -13204
▁콘티 -13205
▁로니 -13206
▁묻혀 -13207
▁삭스 -13208
▁지경 -13209
▁쿠로 -13210
▁투하 -13211
▁파기 -13212
▁파주 -13213
▁헤일 -13214
▁감리교 -13215
▁불분명 -13216
▁이메일 -13217
러진 -13218
▁기고 -13219
▁레비 -13220
▁시원 -13221
▁용사 -13222
▁다비드 -13223
▁세르게이 -13224
▁이시카와 -13225
께끼 -13226
ION -13227
▁금고 -13228
▁베풀 -13229
▁부전 -13230
▁양면 -13231
▁의례 -13232
▁파열 -13233
▁750 -13234
▁선제골 -13235
▁피닉스 -13236
▁수수께끼 -13237
덕왕 -13238
▁교제 -13239
▁루나 -13240
▁여호 -13241
▁팔작 -13242
▁헤어 -13243
▁다시금 -13244
▁무솔리니 -13245
리야 -13246
림사 -13247
비오 -13248
▁an -13249
▁고모 -13250
▁김희 -13251
▁당진 -13252
▁매스 -13253
▁야망 -13254
▁종묘 -13255
▁중랑 -13256
▁트란 -13257
▁햇빛 -13258
슬라프 -13259
▁라치오 -13260
▁롬바르 -13261
▁범죄자 -13262
▁전해졌 -13263
▁Open -13264
▁엡 -13265
바인 -13266
▁꼬마 -13267
▁두어 -13268
▁배아 -13269
▁상한 -13270
▁애슬 -13271
▁열릴 -13272
▁원동 -13273
▁이례 -13274
▁진흙 -13275
▁친밀 -13276
브리드 -13277
태평양 -13278
▁난이도 -13279
▁도르트문트 -13280
나파 -13281
루크 -13282
▁교동 -13283
▁레아 -13284
▁애완 -13285
▁이은 -13286
▁청문 -13287
▁켄터 -13288
▁농어촌 -13289
▁라이스 -13290
▁화학자 -13291
▁대중교통 -13292
▁유라시아 -13293
달마 -13294
쿠니 -13295
▁BL -13296
▁몸돌 -13297
▁승상 -13298
▁양조 -13299
▁어우 -13300
▁주고 -13301
▁Don -13302
▁기획사 -13303
▁모멘트 -13304
느리 -13305
번에 -13306
클럽 -13307
▁당과 -13308
▁미칠 -13309
▁배향 -13310
▁복역 -13311
▁앞세 -13312
▁캐피 -13313
▁걸린다 -13314
▁아이콘 -13315
▁te -13316
▁그란 -13317
▁반죽 -13318
▁변종 -13319
▁브렌 -13320
▁샤이 -13321
▁음주 -13322
▁인위 -13323
▁센다이 -13324
▁하얀색 -13325
▁부다페스트 -13326
▁Ab -13327
▁경량 -13328
▁단국 -13329
▁도봉 -13330
▁섬기 -13331
▁의용 -13332
▁페라 -13333
▁개체군 -13334
▁였음을 -13335
▁청년회 -13336
▁초록색 -13337
▁호크스 -13338
데자 -13339
ics -13340
▁리브 -13341
▁조시 -13342
▁취향 -13343
▁타임즈 -13344
데자네이 -13345
▁1865 -13346
▁하이브리드 -13347
▁쵸 -13348
더지 -13349
리드 -13350
▁Sm -13351
▁구슬 -13352
▁닌자 -13353
▁모란 -13354
▁발산 -13355
▁사나 -13356
▁살짝 -13357
▁순항 -13358
▁왓슨 -13359
▁탄산 -13360
▁허목 -13361
리아스 -13362
▁격투기 -13363
▁승용차 -13364
▁유전체 -13365
ru -13366
▁넥센 -13367
▁머무 -13368
▁부실 -13369
▁인제 -13370
▁장쑤 -13371
▁통지 -13372
변속기 -13373
올로기 -13374
▁파충류 -13375
▁1863 -13376
▁이데올로기 -13377
▁감추 -13378
▁엘라 -13379
▁열렬 -13380
▁일지 -13381
▁작년 -13382
▁계승자 -13383
▁세군다 -13384
▁폼페이 -13385
매김 -13386
ier -13387
▁가두 -13388
▁가든 -13389
▁대의 -13390
▁맡겼 -13391
▁보정 -13392
▁슈고 -13393
▁오트 -13394
▁휩싸 -13395
▁경복궁 -13396
▁그나마 -13397
▁박영효 -13398
▁탐험가 -13399
워즈 -13400
▁가독 -13401
▁거꾸 -13402
▁옹주 -13403
▁티모 -13404
▁무언가 -13405
▁밀가루 -13406
▁시간대 -13407
▁이뤄진 -13408
▁작품상 -13409
리쿠 -13410
지로 -13411
▁과다 -13412
▁납작 -13413
▁내재 -13414
▁뒤따 -13415
▁입시 -13416
▁토로 -13417
▁한창 -13418
▁항아리 -13419
▁1873 -13420
▁"- -13421
▁AL -13422
▁병단 -13423
▁비싼 -13424
▁처방 -13425
▁충당 -13426
▁피카 -13427
▁안산시 -13428
▁챌린저 -13429
▁반항 -13430
▁봉황 -13431
▁조공 -13432
▁편제 -13433
▁피셔 -13434
▁고성군 -13435
▁승정원 -13436
단위 -13437
▁덴쇼 -13438
▁조장 -13439
▁코마 -13440
▁우간다 -13441
▁1891 -13442
▁Good -13443
▁HTML -13444
▁교통사고 -13445
▁오카야마 -13446
데자네이루 -13447
▁Night -13448
▁리우데자네이루 -13449
▁대목 -13450
▁박진 -13451
▁잡히 -13452
▁직관 -13453
▁클릭 -13454
▁킹스 -13455
▁탐정 -13456
▁포대 -13457
▁발기인 -13458
▁아닌가 -13459
▁제프리 -13460
▁공군기지 -13461
▁자리매김 -13462
친왕 -13463
ool -13464
▁가비 -13465
▁고난 -13466
▁볼넷 -13467
▁유니언 -13468
▁걸작 -13469
▁경지 -13470
▁곡면 -13471
▁메츠 -13472
▁부추 -13473
▁야심 -13474
▁요즘 -13475
▁정명 -13476
▁진이 -13477
▁태아 -13478
▁계좌 -13479
▁곱셈 -13480
▁어선 -13481
▁어촌 -13482
▁착취 -13483
▁공식전 -13484
▁공통점 -13485
▁앤드류 -13486
▁베스트셀러 -13487
▁샵 -13488
거나 -13489
훈장 -13490
▁경마 -13491
▁굴복 -13492
▁란스 -13493
▁루즈 -13494
▁머니 -13495
▁모함 -13496
▁신대 -13497
▁이야 -13498
▁재고 -13499
▁페인 -13500
▁아이디얼 -13501
▁괜 -13502
미쓰 -13503
참찬 -13504
쿠르 -13505
▁법전 -13506
▁입술 -13507
▁철종 -13508
▁촉발 -13509
▁해킹 -13510
▁두꺼운 -13511
▁따라가 -13512
▁조선소 -13513
▁켄터키 -13514
▁구강 -13515
▁미인 -13516
▁반점 -13517
▁픽셀 -13518
▁ret -13519
▁국민회 -13520
▁발가락 -13521
▁여진족 -13522
▁시진 -13523
▁완비 -13524
▁자켓 -13525
▁와이드 -13526
▁짐바브웨 -13527
TE -13528
UC -13529
▁꿰 -13530
타스 -13531
ise -13532
▁-- -13533
▁과격 -13534
▁여대 -13535
▁카슈 -13536
이스케 -13537
▁벗어난 -13538
▁수시로 -13539
▁세계유산 -13540
바지 -13541
che -13542
▁쇼크 -13543
▁적발 -13544
▁필두 -13545
▁후미 -13546
▁제너럴 -13547
▁두드러지 -13548
QL -13549
▁나탈 -13550
▁상파 -13551
▁위법 -13552
▁다국적 -13553
▁받침돌 -13554
▁자유형 -13555
▁테무르 -13556
▁극찬 -13557
▁단자 -13558
▁마모 -13559
▁세단 -13560
▁튼튼 -13561
▁합금 -13562
▁가리켜 -13563
▁포항시 -13564
ai -13565
▁NS -13566
▁계엄 -13567
▁도도 -13568
▁리자 -13569
▁매립 -13570
▁분경 -13571
▁불로 -13572
▁유태 -13573
▁최장 -13574
▁코뮌 -13575
▁혈압 -13576
플렉스 -13577
▁IMF -13578
▁몰도바 -13579
▁시티즌 -13580
▁PM -13581
▁국호 -13582
▁라크 -13583
▁매도 -13584
▁소작 -13585
▁외상 -13586
▁용감 -13587
▁주저 -13588
부아르 -13589
stem -13590
▁노르드 -13591
▁릴레이 -13592
▁백악관 -13593
▁종업원 -13594
▁온타리오주 -13595
NG -13596
동맹 -13597
▁당당 -13598
▁더러 -13599
▁등단 -13600
▁리키 -13601
레타리아 -13602
▁프롤레타리아 -13603
레반 -13604
무제 -13605
▁구시 -13606
▁신의 -13607
▁오즈 -13608
▁키즈 -13609
▁Can -13610
ode -13611
▁MA -13612
▁병과 -13613
▁원한 -13614
▁체내 -13615
▁해시 -13616
▁캐스트 -13617
▁야쿠르트 -13618
▁Black -13619
▁콧 -13620
성경 -13621
▁나빠 -13622
▁무고 -13623
▁성가 -13624
▁에치 -13625
▁연행 -13626
▁하스 -13627
▁거꾸로 -13628
▁다마스 -13629
▁하반기 -13630
▁무로마치 -13631
▁팔작지붕 -13632
세다 -13633
▁간판 -13634
▁교서 -13635
▁노란 -13636
▁베라 -13637
▁산책 -13638
▁앞둔 -13639
▁연화 -13640
▁을사 -13641
▁헌병 -13642
▁현무 -13643
합중국 -13644
▁슬로건 -13645
▁믈 -13646
상어 -13647
으면 -13648
킨슨 -13649
▁네임 -13650
▁서위 -13651
▁서지 -13652
▁양궁 -13653
▁양양 -13654
▁조준 -13655
▁650 -13656
▁김성수 -13657
▁크루즈 -13658
▁트로트 -13659
70 -13660
▁샴 -13661
▁파랑 -13662
ower -13663
▁연주회 -13664
▁씬 -13665
▁기운 -13666
▁증강 -13667
▁증발 -13668
▁채굴 -13669
▁커졌 -13670
선거구 -13671
▁반정부 -13672
▁용산구 -13673
▁지자체 -13674
▁삼국유사 -13675
▁스테이트 -13676
▁이바라키 -13677
▁페르디난트 -13678
▁버펄 -13679
▁황폐 -13680
▁조선왕조 -13681
▁피츠버그 -13682
▁강호 -13683
▁광배 -13684
▁농성 -13685
▁다닌 -13686
▁앵커 -13687
▁우마 -13688
▁이강 -13689
▁550 -13690
▁section -13691
▁qu -13692
▁문정 -13693
▁부에 -13694
▁연달 -13695
▁전멸 -13696
▁진원 -13697
▁토록 -13698
▁토유 -13699
▁취리히 -13700
▁1867 -13701
▁국부 -13702
▁터빈 -13703
▁패해 -13704
타나베 -13705
▁705 -13706
▁Let -13707
▁미카엘 -13708
▁아비달마 -13709
▁심정 -13710
▁아델 -13711
▁진언 -13712
▁타도 -13713
▁갈라져 -13714
▁거쳐서 -13715
▁스코어 -13716
▁앨버트 -13717
▁자외선 -13718
▁1862 -13719
단지 -13720
티야 -13721
ank -13722
▁군자 -13723
▁대담 -13724
▁독주 -13725
▁무도 -13726
▁사교 -13727
▁송진 -13728
▁열쇠 -13729
▁캐논 -13730
▁q -13731
고르 -13732
대전 -13733
진구 -13734
펠러 -13735
▁El -13736
▁들리 -13737
▁사하 -13738
▁산신 -13739
▁접전 -13740
스코트 -13741
▁숨겨진 -13742
▁스테이 -13743
▁AI -13744
▁MM -13745
▁경은 -13746
▁국력 -13747
▁모반 -13748
▁조어 -13749
▁현도 -13750
▁활자 -13751
▁경희대 -13752
▁광업 -13753
▁예종 -13754
드라마 -13755
▁미친다 -13756
▁엑스포 -13757
▁아오모리 -13758
▁이노우에 -13759
▁코호몰로지 -13760
▁광자 -13761
▁사드 -13762
▁엇갈 -13763
▁조서 -13764
▁투신 -13765
▁노르만 -13766
▁언론사 -13767
해살이풀 -13768
▁미합중국 -13769
▁라이프치히 -13770
▁챈 -13771
방군 -13772
정사 -13773
활약 -13774
▁루피 -13775
▁북벌 -13776
▁스킬 -13777
▁오름 -13778
▁위헌 -13779
▁잔존 -13780
▁저축 -13781
ings -13782
▁손잡이 -13783
▁알폰소 -13784
곡면 -13785
포타 -13786
▁수퍼 -13787
▁처장 -13788
▁흡연 -13789
▁MSL -13790
▁갈라지 -13791
▁움직일 -13792
▁다이노스 -13793
렐라 -13794
▁AU -13795
▁간결 -13796
▁에겐 -13797
▁이선 -13798
▁체하 -13799
▁맹활약 -13800
▁증조부 -13801
▁프로모션 -13802
▁Ac -13803
▁걸프 -13804
▁도발 -13805
▁서한 -13806
▁완수 -13807
▁용해 -13808
▁유구 -13809
▁증식 -13810
▁지탱 -13811
세우스 -13812
▁변광성 -13813
▁타이탄 -13814
중추부사 -13815
▁국민학교 -13816
▁썩 -13817
조리 -13818
▁꺼내 -13819
▁노브 -13820
▁양군 -13821
▁코모 -13822
▁표절 -13823
▁가르쳐 -13824
▁연출가 -13825
▁페드로 -13826
포타미아 -13827
▁6000 -13828
▁사이타마현 -13829
▁메소포타미아 -13830
DS -13831
▁됩 -13832
▁던졌 -13833
▁상선 -13834
▁오보 -13835
▁장신 -13836
▁지그 -13837
▁낡 -13838
▁LS -13839
▁변증 -13840
▁보직 -13841
▁옥시 -13842
▁유망 -13843
▁임하 -13844
절도사 -13845
▁건륭제 -13846
▁캣 -13847
비언 -13848
▁UC -13849
▁기묘 -13850
▁논하 -13851
▁변모 -13852
▁새겼 -13853
▁성수 -13854
▁처한 -13855
▁횡령 -13856
▁레인저 -13857
▁사무국 -13858
▁사보이 -13859
인구 -13860
lar -13861
▁번개 -13862
▁캐치 -13863
▁신한은행 -13864
센터 -13865
▁꽃잎 -13866
▁꾸며 -13867
▁신해 -13868
▁쿠라 -13869
▁티저 -13870
▁푸드 -13871
▁해지 -13872
▁-& -13873
▁온두 -13874
▁유림 -13875
▁자행 -13876
▁조석 -13877
▁키릴 -13878
▁감염증 -13879
▁대리석 -13880
▁편집장 -13881
▁온두라스 -13882
▁궐 -13883
북면 -13884
위치 -13885
▁고찰 -13886
▁나사 -13887
▁충칭 -13888
▁키로 -13889
▁기원후 -13890
▁라면서 -13891
▁신기록 -13892
▁일본식 -13893
▁저지른 -13894
▁출입문 -13895
▁행해졌 -13896
디언 -13897
사화 -13898
▁구부 -13899
▁그럴 -13900
▁무사히 -13901
▁1878 -13902
▁고등학생 -13903
▁미나모토노 -13904
▁비스마르크 -13905
ky -13906
▁동자 -13907
▁세토 -13908
▁엘레 -13909
▁작중 -13910
▁절약 -13911
▁참패 -13912
▁하중 -13913
▁치료제 -13914
▁협동조합 -13915
tr -13916
젤로 -13917
▁건널 -13918
▁버진 -13919
▁직교 -13920
▁차림 -13921
▁취할 -13922
▁표출 -13923
▁회유 -13924
rist -13925
▁웨이브 -13926
▁자릿수 -13927
▁타타르 -13928
▁팍 -13929
퉁이 -13930
할린 -13931
▁내란 -13932
▁동탁 -13933
▁스톰 -13934
▁아지 -13935
▁줄일 -13936
▁경쟁자 -13937
▁제조사 -13938
▁프로테 -13939
▁밋 -13940
▁당파 -13941
▁완만 -13942
▁지린 -13943
▁충신 -13944
▁행군 -13945
▁Ser -13946
▁마그네 -13947
▁부여군 -13948
▁컴파일 -13949
ta -13950
구나 -13951
▁Qu -13952
▁떠날 -13953
▁시역 -13954
▁자부 -13955
▁정박 -13956
▁필명 -13957
▁주고받 -13958
▁백과사전 -13959
ee -13960
끄러 -13961
▁가극 -13962
▁국인 -13963
▁급성 -13964
▁옥천 -13965
▁적정 -13966
▁중용 -13967
▁후드 -13968
▁히노 -13969
hem -13970
▁바쿠 -13971
▁보류 -13972
▁시르 -13973
▁청각 -13974
▁HMS -13975
▁사대부 -13976
▁입법부 -13977
▁프리츠 -13978
▁해부학 -13979
빌리 -13980
일치 -13981
▁Ag -13982
▁벵골 -13983
▁봉하 -13984
▁생길 -13985
▁손님 -13986
▁이끼 -13987
▁점진 -13988
플로러 -13989
▁외교부 -13990
▁홀딩스 -13991
▁익스플로러 -13992
산부 -13993
시게 -13994
▁고국 -13995
▁괄호 -13996
▁구아 -13997
▁다량 -13998
▁라다 -13999
▁서거 -14000
▁영사 -14001
▁지체 -14002
▁현악 -14003
시아드 -14004
▁And -14005
▁불가피 -14006
▁이성질 -14007
▁인지도 -14008
▁플러그 -14009
내티 -14010
▁길드 -14011
▁부군 -14012
▁수당 -14013
▁일설 -14014
▁잉크 -14015
▁저해 -14016
▁직물 -14017
▁참수 -14018
▁토라 -14019
▁뉴기니 -14020
▁유엔군 -14021
▁스케이트 -14022
▁신시내티 -14023
▁유니버시아드 -14024
▁삐 -14025
▁킷 -14026
니티 -14027
▁북대 -14028
▁스에 -14029
▁일선 -14030
▁폴라 -14031
▁행보 -14032
▁802 -14033
▁액세스 -14034
▁영유권 -14035
▁이브스 -14036
▁1869 -14037
▁프라이즈 -14038
▁일리노이주 -14039
▁팻 -14040
▁매슈 -14041
▁서점 -14042
▁솔라 -14043
▁수급 -14044
▁수레 -14045
▁유화 -14046
▁지문 -14047
▁집어 -14048
뉴기니 -14049
▁수비대 -14050
▁특별법 -14051
사우루스 -14052
▁글로브상 -14053
▁요리토모 -14054
▁밧 -14055
다발 -14056
루엔 -14057
▁과자 -14058
▁길러 -14059
▁버티 -14060
▁잔해 -14061
▁피처 -14062
▁골짜기 -14063
▁베르나 -14064
▁제작진 -14065
▁플루토 -14066
▁핵분열 -14067
▁후지와라 -14068
마디 -14069
벤션 -14070
▁SO -14071
▁개기 -14072
▁넘겼 -14073
▁부두 -14074
▁상의 -14075
▁애기 -14076
▁다가오 -14077
▁봉우리 -14078
▁업로드 -14079
▁줄어든 -14080
뜨려 -14081
▁tr -14082
▁객실 -14083
▁근방 -14084
▁기조 -14085
▁대타 -14086
▁몸체 -14087
▁소피 -14088
▁아뢰 -14089
▁육식 -14090
▁이목 -14091
▁팔린 -14092
▁마포구 -14093
▁변한다 -14094
▁사생활 -14095
▁와세다 -14096
▁와타나베 -14097
▁코퍼레이션 -14098
정보 -14099
▁가방 -14100
▁강우 -14101
▁박원 -14102
▁방위군 -14103
▁쿠르드 -14104
누마 -14105
질렀 -14106
▁용수 -14107
▁추후 -14108
▁됩니다 -14109
▁며느리 -14110
▁아이젠 -14111
▁포뮬러 -14112
▁스파이더 -14113
▁프랑스와 -14114
▁모티 -14115
▁민심 -14116
▁저그 -14117
▁헤더 -14118
▁내세웠 -14119
▁수도회 -14120
▁페르미 -14121
셔주 -14122
▁내림 -14123
▁자정 -14124
▁칭했 -14125
▁포천 -14126
▁원자핵 -14127
▁Song -14128
▁아우구스 -14129
ae -14130
▁로시 -14131
▁면직 -14132
▁부풀 -14133
▁시시 -14134
▁토키 -14135
가르트 -14136
▁1840 -14137
▁낯 -14138
▁다목 -14139
▁포탑 -14140
▁하라 -14141
▁형주 -14142
스타인 -14143
▁기동전 -14144
▁1592 -14145
▁키르기스 -14146
노르 -14147
▁글렌 -14148
▁멋진 -14149
▁무비 -14150
▁무색 -14151
▁반입 -14152
▁변질 -14153
▁자처 -14154
▁텍스 -14155
▁패킷 -14156
▁강력히 -14157
▁사라져 -14158
▁명성황후 -14159
▁린다 -14160
▁목동 -14161
▁성품 -14162
▁오자 -14163
▁축일 -14164
▁치사 -14165
▁콜드 -14166
▁연예계 -14167
▁오스카 -14168
▁장로회 -14169
▁프라임 -14170
▁데카르트 -14171
▁친선경기 -14172
▁탬 -14173
르바 -14174
▁고을 -14175
▁귀인 -14176
▁부관 -14177
▁숙소 -14178
▁절친 -14179
▁항생 -14180
▁516 -14181
▁바닷물 -14182
▁밝혀져 -14183
▁안동시 -14184
▁팔꿈치 -14185
▁PL -14186
▁그랬 -14187
▁그물 -14188
▁금색 -14189
▁냐고 -14190
▁다닐 -14191
▁단서 -14192
▁벤츠 -14193
▁소박 -14194
▁수증 -14195
▁위도 -14196
▁생화학 -14197
▁둠 -14198
▁벳 -14199
암사 -14200
▁AA -14201
▁가곡 -14202
▁단역 -14203
▁빈민 -14204
▁사귀 -14205
▁사소 -14206
▁컴필 -14207
ount -14208
▁운동량 -14209
▁인코딩 -14210
▁매킨토시 -14211
▁사이언스 -14212
▁컴필레이션 -14213
▁끔 -14214
▁겨루 -14215
▁사부 -14216
▁위즈 -14217
▁입히 -14218
▁헤겔 -14219
▁금강산 -14220
▁목적지 -14221
▁파시스트 -14222
자원 -14223
티컷 -14224
▁거사 -14225
▁괜찮 -14226
▁논산 -14227
▁자취 -14228
▁출국 -14229
▁포자 -14230
▁도망쳤 -14231
▁로타르 -14232
▁부등식 -14233
▁여객기 -14234
▁운전자 -14235
▁유년기 -14236
▁코네티컷 -14237
▁크리스티나 -14238
수염 -14239
찬성 -14240
▁RC -14241
▁넘버 -14242
▁분별 -14243
▁상식 -14244
▁최하 -14245
▁풀리 -14246
▁지하역 -14247
pr -14248
구스 -14249
▁국세 -14250
▁렉스 -14251
▁영미 -14252
▁처치 -14253
▁추축 -14254
▁쿼터 -14255
▁하수 -14256
▁Mon -14257
▁맥아더 -14258
작전 -14259
ade -14260
per -14261
▁공상 -14262
▁날려 -14263
▁빅터 -14264
▁수만 -14265
▁인승 -14266
▁자루 -14267
▁튜브 -14268
▁패망 -14269
▁채권자 -14270
▁패스트 -14271
▁로드리게스 -14272
▁랙 -14273
▁내려와 -14274
▁네이트 -14275
▁예언자 -14276
▁레지스터 -14277
▁마스코트 -14278
▁아나키스트 -14279
ata -14280
▁고제 -14281
▁마레 -14282
▁병풍 -14283
▁악명 -14284
▁암수 -14285
▁영수 -14286
▁이거 -14287
▁천상 -14288
▁캐슬 -14289
▁휘발 -14290
▁끌어올 -14291
▁힐베르트 -14292
▁Heart -14293
▁아나톨리아 -14294
▁닉스 -14295
▁다쓰 -14296
▁아어 -14297
▁어사 -14298
▁펼친 -14299
▁과반수 -14300
▁시니어 -14301
▁파주시 -14302
▁여우원숭이 -14303
블릿 -14304
▁거창 -14305
▁블러 -14306
▁양파 -14307
▁유자 -14308
▁구단주 -14309
▁머물러 -14310
크라테스 -14311
▁심리학자 -14312
▁me -14313
▁농가 -14314
▁디나 -14315
▁자질 -14316
▁댈러스 -14317
▁에이전트 -14318
▁볶 -14319
효소 -14320
▁Pe -14321
▁강인 -14322
▁능가 -14323
▁반론 -14324
▁성대 -14325
▁유이 -14326
▁출세 -14327
▁글러브 -14328
▁창립자 -14329
▁찾아와 -14330
▁return -14331
▁KN -14332
▁ab -14333
▁규율 -14334
▁란트 -14335
▁루도 -14336
▁백조 -14337
▁삭감 -14338
▁심소 -14339
▁아쉬 -14340
▁염화 -14341
▁중견 -14342
▁청취 -14343
▁세미나 -14344
▁스트림 -14345
▁정해져 -14346
▁준다는 -14347
▁차가운 -14348
▁필사본 -14349
▁지장보살 -14350
90 -14351
세르 -14352
히메 -14353
▁DB -14354
▁Gl -14355
▁계룡 -14356
▁국화 -14357
▁늘려 -14358
▁발착 -14359
▁에트 -14360
▁오도 -14361
▁유골 -14362
▁입출 -14363
▁관심사 -14364
▁적십자 -14365
▁종착역 -14366
▁테크놀 -14367
▁히타치 -14368
▁8000 -14369
선언 -14370
전선 -14371
테랑 -14372
▁겸직 -14373
▁문중 -14374
▁시찰 -14375
▁실상 -14376
▁연해 -14377
▁워스 -14378
▁초음 -14379
▁탁구 -14380
▁흥원 -14381
이치로 -14382
▁나치오 -14383
▁내세워 -14384
▁떨어진다 -14385
히데 -14386
ium -14387
▁미학 -14388
▁사주 -14389
▁쌍성 -14390
▁의주 -14391
▁이카 -14392
▁지요 -14393
▁비둘기 -14394
▁Windows -14395
▁펜실베이니아주 -14396
수단 -14397
▁변혁 -14398
▁스택 -14399
▁이심 -14400
▁임종 -14401
▁직렬 -14402
▁친한 -14403
▁페레 -14404
▁지질학 -14405
▁고등교육 -14406
▁와카야마 -14407
▁권익 -14408
▁김연 -14409
▁라프 -14410
▁상과 -14411
▁온실 -14412
▁왜군 -14413
▁피살 -14414
▁담당자 -14415
▁보유자 -14416
▁크메르 -14417
▁남아시아 -14418
▁영등포구 -14419
▁세인트루이스 -14420
▁여포 -14421
▁오시 -14422
▁퀴즈 -14423
▁어도비 -14424
▁올라오 -14425
▁지나친 -14426
▁한다며 -14427
▁그린란드 -14428
IX -14429
던트 -14430
조사 -14431
▁기행 -14432
▁바보 -14433
▁바인 -14434
▁베오 -14435
▁사와 -14436
▁설리 -14437
▁연중 -14438
▁외면 -14439
▁질투 -14440
▁안창호 -14441
▁피의자 -14442
▁1875 -14443
IF -14444
▁As -14445
▁걸음 -14446
▁뉴런 -14447
▁니케 -14448
▁몹시 -14449
▁윤휴 -14450
▁은밀 -14451
▁의복 -14452
▁정오 -14453
▁침식 -14454
▁호그 -14455
▁치료법 -14456
▁토요타 -14457
구니 -14458
넌트 -14459
욕장 -14460
▁Aw -14461
▁다룰 -14462
▁디바 -14463
▁막강 -14464
▁볼록 -14465
▁불려 -14466
▁숙련 -14467
▁잠입 -14468
▁예비역 -14469
놀드 -14470
링겐 -14471
테이 -14472
▁에리 -14473
▁외척 -14474
▁조비 -14475
▁호른 -14476
▁시미즈 -14477
▁진주시 -14478
▁헤르만 -14479
계사 -14480
로움 -14481
▁동호 -14482
▁변해 -14483
▁열세 -14484
▁위크 -14485
▁Out -14486
▁집단군 -14487
▁풀려났 -14488
▁강습 -14489
▁교훈 -14490
▁면담 -14491
▁사각 -14492
▁상동 -14493
▁착각 -14494
▁친화 -14495
▁컵스 -14496
▁키드 -14497
▁키리 -14498
▁해트 -14499
▁모자이크 -14500
날레 -14501
보당 -14502
▁교파 -14503
▁미지 -14504
▁오마 -14505
▁유카 -14506
▁준동 -14507
▁콜린 -14508
▁KTX -14509
▁고문서 -14510
▁나리타 -14511
▁노현 -14512
▁불복 -14513
▁웍스 -14514
▁출품 -14515
▁Gen -14516
▁강대국 -14517
▁보리스 -14518
▁이와테 -14519
▁알프레드 -14520
▁뉘른베르크 -14521
▁랠 -14522
기즈 -14523
▁기린 -14524
▁독살 -14525
▁방울 -14526
▁어부 -14527
▁예프 -14528
▁타나 -14529
▁폐허 -14530
▁혼잡 -14531
세데스 -14532
▁이랜드 -14533
▁학술지 -14534
▁회고록 -14535
▁근본번뇌 -14536
기아 -14537
탄두 -14538
▁도적 -14539
▁비키 -14540
▁이길 -14541
▁인먼 -14542
▁표제 -14543
▁게임기 -14544
▁사이즈 -14545
▁종사자 -14546
▁친환경 -14547
▁표트르 -14548
▁메르세데스 -14549
▁문체 -14550
▁슈투 -14551
▁여럿 -14552
▁원단 -14553
▁의정 -14554
▁일명 -14555
▁징집 -14556
▁철자 -14557
▁일부러 -14558
사유 -14559
이에 -14560
son -14561
▁VS -14562
▁노원 -14563
▁선상 -14564
▁야수 -14565
▁최남 -14566
▁취직 -14567
레이트 -14568
▁클리어 -14569
▁페널티킥 -14570
itt -14571
▁김두 -14572
▁로사 -14573
▁목장 -14574
▁생원 -14575
▁셔틀 -14576
▁순식 -14577
▁한민 -14578
▁리스본 -14579
▁남양주시 -14580
▁sh -14581
▁용지 -14582
▁절충 -14583
▁첩보 -14584
▁터너 -14585
▁380 -14586
▁컨벤션 -14587
▁안드로메다 -14588
BI -14589
날드 -14590
세서 -14591
▁기한 -14592
▁다자 -14593
▁서약 -14594
▁월화 -14595
▁텐서 -14596
에이고 -14597
▁AMD -14598
▁데이트 -14599
▁돌고래 -14600
▁매디슨 -14601
▁함경도 -14602
▁샌디에이고 -14603
▁달콤 -14604
▁리크 -14605
▁에레 -14606
▁율법 -14607
▁의성 -14608
▁이희 -14609
▁집전 -14610
▁차명 -14611
록대부 -14612
▁송파구 -14613
▁테오도 -14614
▁통도사 -14615
▁땀 -14616
▁니까 -14617
▁성행 -14618
▁실명 -14619
▁아노 -14620
▁태안 -14621
▁성폭행 -14622
▁스케치 -14623
▁스피커 -14624
▁칭기즈 -14625
▁타일러 -14626
▁몽고메리 -14627
▁병자호란 -14628
▁브란덴부르크 -14629
▁뵈 -14630
▁날리 -14631
▁로큰 -14632
▁특공 -14633
▁강희제 -14634
▁돌아갈 -14635
▁아세틸 -14636
▁통신망 -14637
▁파라오 -14638
PA -14639
방향 -14640
ale -14641
▁TS -14642
▁문관 -14643
▁버트 -14644
▁비료 -14645
▁싫어 -14646
▁쏟아 -14647
▁예식 -14648
▁왕래 -14649
▁활기 -14650
▁북극점 -14651
▁쇼핑몰 -14652
▁이사벨 -14653
▁장갑차 -14654
▁중앙선 -14655
▁채무자 -14656
▁클레어 -14657
▁항공대 -14658
더링 -14659
어류 -14660
▁격하 -14661
▁금정 -14662
▁기판 -14663
▁단양 -14664
▁선체 -14665
▁안중 -14666
▁일차 -14667
▁타쿠 -14668
▁획기 -14669
able -14670
▁레스터 -14671
▁베르트 -14672
▁부적절 -14673
▁신석기 -14674
▁크라운 -14675
▁포르투갈어 -14676
은사 -14677
▁바늘 -14678
▁배반 -14679
▁상반기 -14680
▁슈타인 -14681
▁코트디 -14682
▁코트디부아르 -14683
▁싯 -14684
알라 -14685
엽수 -14686
▁극소 -14687
▁생쥐 -14688
▁정언 -14689
▁체로 -14690
▁환율 -14691
▁가환환 -14692
▁광둥성 -14693
▁다이쇼 -14694
▁로큰롤 -14695
부대 -14696
▁KO -14697
▁결전 -14698
▁구루 -14699
▁레몬 -14700
▁명상 -14701
▁슬리 -14702
▁양지 -14703
▁영락 -14704
▁원효 -14705
해방군 -14706
▁꽃차례 -14707
▁달린다 -14708
▁연속극 -14709
▁프론트 -14710
▁쇼트트랙 -14711
▁바빌로니아 -14712
▁인민해방군 -14713
ng -14714
세키 -14715
윽고 -14716
▁동거 -14717
▁서당 -14718
▁세일 -14719
▁술라 -14720
▁칸트 -14721
▁포인 -14722
▁로버츠 -14723
▁야마다 -14724
▁이윽고 -14725
▁파스칼 -14726
▁가세 -14727
▁교관 -14728
▁라울 -14729
▁실렸 -14730
▁야권 -14731
▁"() -14732
▁아리랑 -14733
▁저널리스트 -14734
UN -14735
두사 -14736
르카 -14737
몽골 -14738
시대 -14739
▁교화 -14740
▁기공 -14741
▁이질 -14742
▁장정 -14743
▁중일 -14744
▁출격 -14745
▁되풀이 -14746
▁바나나 -14747
▁벙 -14748
▁구세 -14749
▁기마 -14750
▁박재 -14751
▁방호 -14752
▁수역 -14753
▁스펜 -14754
▁실은 -14755
▁안식 -14756
▁안톤 -14757
▁애착 -14758
▁비단털 -14759
▁최성기 -14760
▁펼쳐져 -14761
▁오프라인 -14762
촌리 -14763
▁거머 -14764
▁경의 -14765
▁구타 -14766
▁로바 -14767
▁모체 -14768
▁모피 -14769
▁보우 -14770
▁엔젤 -14771
▁지치 -14772
▁찌르 -14773
루엔자 -14774
▁Par -14775
▁됐으나 -14776
▁보호법 -14777
스코리아 -14778
▁비단털쥐 -14779
▁보컬리스트 -14780
박사 -14781
▁가모 -14782
▁수마 -14783
▁수은 -14784
▁염두 -14785
▁자장 -14786
▁치킨 -14787
▁케리 -14788
▁헤센 -14789
▁반감기 -14790
▁순식간 -14791
데기 -14792
우주 -14793
▁가명 -14794
▁문수 -14795
▁배워 -14796
▁샤르 -14797
▁잉카 -14798
▁대항전 -14799
▁정치국 -14800
▁흔들리 -14801
▁WC -14802
▁골라 -14803
▁기미 -14804
▁나쁘 -14805
▁래리 -14806
▁보그 -14807
▁열악 -14808
▁위트 -14809
▁정에 -14810
▁205 -14811
▁맥스웰 -14812
▁선거인 -14813
▁썼으며 -14814
▁University -14815
▁금환 -14816
▁노라 -14817
▁망치 -14818
▁모사 -14819
▁에코 -14820
▁이룰 -14821
▁이홍 -14822
▁708 -14823
▁개그맨 -14824
▁데뷔작 -14825
▁사학자 -14826
▁관음보살 -14827
▁텅 -14828
보내 -14829
연구 -14830
행파 -14831
▁묶여 -14832
▁배당 -14833
▁서클 -14834
▁아끼 -14835
▁향신 -14836
▁후루 -14837
very -14838
▁터뜨리 -14839
▁합성어 -14840
▁형용사 -14841
▁라이베리아 -14842
▁탭 -14843
▁경순 -14844
▁대류 -14845
▁동군 -14846
▁무능 -14847
▁실사 -14848
▁야코 -14849
▁NBC -14850
▁Vol -14851
▁스케줄 -14852
건설 -14853
▁규약 -14854
▁재화 -14855
▁정칙 -14856
▁ATC -14857
▁보조금 -14858
▁아우구스투스 -14859
▁At -14860
▁경종 -14861
▁월남 -14862
▁빼앗기 -14863
▁사할린 -14864
▁콘라트 -14865
▁통계청 -14866
양이 -14867
▁cc -14868
▁라벨 -14869
▁미첼 -14870
▁복부 -14871
▁시의 -14872
▁안심 -14873
▁안팎 -14874
▁외손 -14875
▁집사 -14876
▁한겨 -14877
▁해질 -14878
▁슈미트 -14879
▁못했으며 -14880
르산 -14881
쿠사 -14882
▁거시 -14883
▁데일 -14884
▁베티 -14885
▁불쾌 -14886
▁불태 -14887
▁외할 -14888
▁조봉 -14889
▁타시 -14890
▁캐스터 -14891
▁테두리 -14892
▁엑스박스 -14893
▁인플루엔자 -14894
▁잼 -14895
▁GR -14896
▁군복 -14897
▁등산 -14898
▁뮐러 -14899
▁박용 -14900
▁양서 -14901
▁올릴 -14902
▁치마 -14903
▁김해시 -14904
▁물려주 -14905
▁조선공산당 -14906
▁JC -14907
▁빨라 -14908
▁상계 -14909
▁서안 -14910
▁싱크 -14911
▁아연 -14912
▁안기 -14913
▁양극 -14914
▁235 -14915
▁가이아 -14916
▁name -14917
▁로베르토 -14918
▁맴 -14919
라르 -14920
anc -14921
▁남단 -14922
▁신병 -14923
▁웨어 -14924
▁자위 -14925
▁재보 -14926
▁정글 -14927
▁족장 -14928
▁초계 -14929
▁칼륨 -14930
▁토피 -14931
▁후이 -14932
▁다녀왔 -14933
▁시마즈 -14934
▁썰 -14935
루즈 -14936
모음 -14937
보라 -14938
주크 -14939
▁가뭄 -14940
▁나기 -14941
▁맡겨 -14942
▁비옥 -14943
▁손목 -14944
▁실효 -14945
▁외삼 -14946
▁차오 -14947
▁DOS -14948
▁스케일 -14949
▁호흡기 -14950
▁가졌으며 -14951
▁그레이엄 -14952
화당 -14953
net -14954
ody -14955
▁골절 -14956
▁균일 -14957
▁에노 -14958
▁자키 -14959
▁줄곧 -14960
▁축복 -14961
▁포니 -14962
▁풀백 -14963
▁호로 -14964
폴리탄 -14965
▁tvN -14966
▁안양시 -14967
▁오르간 -14968
▁메트로폴리탄 -14969
▁뜰 -14970
▁퀄 -14971
사와 -14972
황색 -14973
IVE -14974
▁고층 -14975
▁노카 -14976
▁마흐 -14977
▁베크 -14978
▁세스 -14979
▁솜씨 -14980
▁이달 -14981
▁젠더 -14982
▁키트 -14983
▁패치 -14984
▁하산 -14985
▁화승 -14986
▁반대편 -14987
▁자격증 -14988
▁전해져 -14989
▁뤄 -14990
▁기스 -14991
▁놓치 -14992
▁라지 -14993
▁사미 -14994
▁석기 -14995
▁창구 -14996
▁쳐서 -14997
▁리차드 -14998
▁지하철역 -14999
▁셴 -15000
열대 -15001
▁경화 -15002
▁나한 -15003
▁리나 -15004
▁바니 -15005
▁유충 -15006
▁잔혹 -15007
▁정승 -15008
▁코바 -15009
▁통솔 -15010
▁화원 -15011
▁간호사 -15012
▁남극점 -15013
▁동아리 -15014
▁사무관 -15015
▁서스펜 -15016
▁손꼽히 -15017
▁열역학 -15018
▁조각상 -15019
▁1874 -15020
▁This -15021
▁우두머리 -15022
벌리 -15023
▁결말 -15024
▁버니 -15025
▁병렬 -15026
▁싸울 -15027
▁안겨 -15028
▁일간 -15029
▁일삼 -15030
▁카로 -15031
▁확충 -15032
▁교육감 -15033
▁카디널 -15034
▁한겨레 -15035
▁브로드웨이 -15036
에쓰 -15037
▁가온 -15038
▁시제 -15039
▁잔여 -15040
▁쫓아 -15041
▁침범 -15042
▁로페스 -15043
▁신호장 -15044
▁해준다 -15045
▁가로질러 -15046
▁일렉트릭 -15047
18 -15048
so -15049
큐슈 -15050
▁무가 -15051
▁부엌 -15052
▁소양 -15053
▁요직 -15054
▁종가 -15055
▁키타 -15056
진보당 -15057
▁거주자 -15058
▁당뇨병 -15059
▁시달렸 -15060
▁알렉산데르 -15061
악산 -15062
ATO -15063
▁내릴 -15064
▁발판 -15065
▁소론 -15066
▁양평 -15067
▁코로 -15068
▁향수 -15069
▁조각가 -15070
▁천도교 -15071
▁미스코리아 -15072
▁낭비 -15073
▁뉴멕 -15074
▁마늘 -15075
▁석권 -15076
▁악당 -15077
▁은폐 -15078
▁일주 -15079
▁품목 -15080
▁협곡 -15081
▁라스트 -15082
▁시그마 -15083
▁재미있 -15084
▁뉴멕시코 -15085
▁슈퍼스타 -15086
▁중앙아메리카 -15087
▁파푸아뉴기니 -15088
▁동백 -15089
▁리시 -15090
▁몰수 -15091
▁숙박 -15092
▁잉여 -15093
▁칠성 -15094
▁공주시 -15095
▁무지개 -15096
▁오아시스 -15097
▁컨퍼런스 -15098
텐셜 -15099
▁떨쳤 -15100
▁리타 -15101
▁무예 -15102
▁볼드 -15103
▁빌드 -15104
▁산조 -15105
▁중남 -15106
▁한복 -15107
▁홍익 -15108
스크림 -15109
▁가요제 -15110
▁책임지 -15111
▁바그다드 -15112
▁스틸러스 -15113
▁유가행파 -15114
▁콘퍼런스 -15115
시험 -15116
신저 -15117
▁다쿠 -15118
▁발작 -15119
▁산문 -15120
▁이색 -15121
▁재회 -15122
야누스 -15123
▁성폭력 -15124
▁저스틴 -15125
▁호소카와 -15126
ala -15127
▁강국 -15128
▁맞물 -15129
올리언 -15130
▁아놀드 -15131
▁트레일 -15132
▁항공편 -15133
프랑 -15134
▁sp -15135
▁끼친 -15136
▁레나 -15137
▁메모 -15138
▁받치 -15139
▁싸운 -15140
▁코크 -15141
▁판명 -15142
▁하지 -15143
▁204 -15144
▁동남쪽 -15145
▁청문회 -15146
▁퍼텐셜 -15147
▁트라야누스 -15148
징어 -15149
▁나일 -15150
▁넷플 -15151
▁라플 -15152
▁쓰일 -15153
▁읍성 -15154
▁인스 -15155
▁조동 -15156
▁쿠마 -15157
▁셀주크 -15158
▁올라와 -15159
▁클로드 -15160
▁넷플릭스 -15161
▁벚 -15162
▁강좌 -15163
▁격전 -15164
▁델리 -15165
▁묘호 -15166
▁미겔 -15167
▁인성 -15168
▁주군 -15169
▁학당 -15170
▁대수학 -15171
▁에스컬 -15172
▁휴대폰 -15173
▁1877 -15174
▁바이마르 -15175
▁에스컬레이터 -15176
me -15177
▁띈 -15178
▁되살 -15179
▁사중 -15180
▁송이 -15181
▁앨라 -15182
▁옥사 -15183
▁캠벨 -15184
▁행선 -15185
▁Bab -15186
▁게임즈 -15187
▁아우르 -15188
▁앞바다 -15189
▁지리산 -15190
▁핸드볼 -15191
▁후쿠이 -15192
▁콜럼버스 -15193
▁SR -15194
▁YG -15195
▁감축 -15196
▁공문 -15197
▁모치 -15198
▁법규 -15199
▁우니 -15200
▁이문 -15201
▁클랜 -15202
▁화염 -15203
▁참전하 -15204
▁뉴올리언 -15205
ax -15206
co -15207
소문 -15208
▁AE -15209
▁단발 -15210
▁복속 -15211
▁선단 -15212
▁에페 -15213
▁프레슬리 -15214
▁서아프리카 -15215
더릭 -15216
비에 -15217
▁너희 -15218
▁도형 -15219
▁민원 -15220
▁앞뒤 -15221
▁애드 -15222
▁예금 -15223
▁출사 -15224
▁퇴진 -15225
▁화음 -15226
▁루이즈 -15227
▁물러난 -15228
▁여운형 -15229
▁중거리 -15230
▁포식자 -15231
▁허베이 -15232
▁7000 -15233
au -15234
yn -15235
▁곤살 -15236
▁북측 -15237
▁엄지 -15238
▁예멘 -15239
▁지크 -15240
▁교육학 -15241
▁사하라 -15242
▁Best -15243
▁쿰 -15244
▁탔 -15245
민당 -15246
운수 -15247
▁처마 -15248
▁Her -15249
▁대사간 -15250
▁수백만 -15251
▁원주시 -15252
▁한국군 -15253
범죄 -15254
▁AF -15255
▁아킬 -15256
▁양천 -15257
▁전조 -15258
▁지령 -15259
▁총영 -15260
▁탄수 -15261
▁CIA -15262
▁비잔틴 -15263
▁컨설팅 -15264
▁멀티미디어 -15265
▁켜 -15266
ash -15267
oid -15268
▁고승 -15269
▁돌렸 -15270
▁무주 -15271
▁본존 -15272
▁블랑 -15273
▁승낙 -15274
▁의제 -15275
▁재물 -15276
▁추운 -15277
▁518 -15278
▁공학자 -15279
▁스타드 -15280
▁콘티넨 -15281
▁갈릴레오 -15282
▁레닌주의 -15283
GB -15284
▁툼 -15285
계약 -15286
네르 -15287
▁김우 -15288
▁나투 -15289
▁두뇌 -15290
▁소인 -15291
▁에볼 -15292
▁요가 -15293
▁APG -15294
▁오릭스 -15295
바드 -15296
혈구 -15297
▁결장 -15298
▁경내 -15299
▁바야 -15300
▁바투 -15301
▁밸브 -15302
▁산체 -15303
▁순찰 -15304
▁시발 -15305
▁우표 -15306
▁제지 -15307
▁토바 -15308
▁브리스 -15309
▁외계인 -15310
▁클러스터 -15311
ps -15312
▁얄 -15313
뜨린 -15314
양구 -15315
일기 -15316
ose -15317
▁로망 -15318
▁바쳐 -15319
▁박찬 -15320
▁상환 -15321
▁추계 -15322
▁1859 -15323
변수 -15324
ict -15325
▁et -15326
▁도읍 -15327
▁방학 -15328
▁소주 -15329
▁인계 -15330
▁카일 -15331
▁코린 -15332
▁하층 -15333
▁부르봉 -15334
▁연방군 -15335
▁콜린스 -15336
▁1700 -15337
▁만장일치 -15338
▁사무라이 -15339
22 -15340
▁곡식 -15341
▁변론 -15342
▁사연 -15343
▁소르 -15344
▁숙명 -15345
▁승률 -15346
▁억울 -15347
▁원사 -15348
▁유창 -15349
▁통찰 -15350
▁강화군 -15351
▁Hell -15352
▁갑작스럽 -15353
▁다카하시 -15354
▁플루토늄 -15355
▁했으므로 -15356
HC -15357
장사 -15358
피크 -15359
▁대입 -15360
▁라임 -15361
▁문물 -15362
▁스펙 -15363
▁오구 -15364
▁앙드레 -15365
▁캄파니아 -15366
14 -15367
의식 -15368
▁도안 -15369
▁뒤덮 -15370
▁맹렬 -15371
▁완장 -15372
▁경부선 -15373
▁곧이어 -15374
▁엘비스 -15375
▁뜬 -15376
▁켐 -15377
제철 -15378
▁가선 -15379
▁경합 -15380
▁관아 -15381
▁문맥 -15382
▁오니 -15383
▁자성 -15384
▁퇴치 -15385
▁후회 -15386
▁가져가 -15387
▁현미경 -15388
▁메모리얼 -15389
▁과세 -15390
▁뚜껑 -15391
▁레크 -15392
▁보어 -15393
▁불릴 -15394
▁사병 -15395
▁산재 -15396
▁상감 -15397
▁이씨 -15398
▁난쟁이 -15399
▁루카스 -15400
▁이주민 -15401
▁클레오 -15402
▁스테파노 -15403
▁랏 -15404
남면 -15405
다보 -15406
무장 -15407
토크 -15408
▁결여 -15409
▁미켈 -15410
▁비싸 -15411
▁제비 -15412
▁타선 -15413
▁625 -15414
▁게이밍 -15415
▁전시관 -15416
▁챠 -15417
배마 -15418
▁KS -15419
▁se -15420
▁구가 -15421
▁니즈 -15422
▁두르 -15423
▁서품 -15424
▁스플 -15425
▁중건 -15426
▁라이센스 -15427
▁앨라배마 -15428
▁샷 -15429
▁us -15430
▁도부 -15431
▁만류 -15432
▁미트 -15433
▁서체 -15434
▁선과 -15435
▁여정 -15436
▁요도 -15437
▁원문 -15438
▁개화파 -15439
▁억제제 -15440
▁오리엔 -15441
▁울트라 -15442
▁혼합물 -15443
▁프리큐어 -15444
▁짚 -15445
형제 -15446
▁네브 -15447
▁매기 -15448
▁블룸 -15449
▁투사 -15450
▁펭귄 -15451
▁플랑 -15452
▁길거리 -15453
▁사다리 -15454
▁아키텐 -15455
▁아파치 -15456
▁이론가 -15457
▁이케다 -15458
▁인류학 -15459
▁멱 -15460
EEE -15461
▁리안 -15462
▁명왕 -15463
▁적법 -15464
▁태화 -15465
▁셰퍼드 -15466
▁순천시 -15467
▁튀어나 -15468
13 -15469
15 -15470
동원 -15471
▁구전 -15472
▁모교 -15473
▁부식 -15474
▁결의안 -15475
▁안철수 -15476
▁찾아오 -15477
데일 -15478
마을 -15479
▁공병 -15480
▁반달 -15481
▁왕당 -15482
▁미트라 -15483
▁우에노 -15484
▁뮈 -15485
▁웜 -15486
나시 -15487
로트 -15488
▁관위 -15489
▁백운 -15490
▁북인 -15491
▁율리 -15492
▁자갈 -15493
▁평하 -15494
▁푸젠 -15495
▁함장 -15496
▁후견 -15497
▁미야기현 -15498
▁소아시아 -15499
▁자이언트 -15500
▁자카르타 -15501
▁테크놀로지 -15502
▁뉴클레오타이드 -15503
과학 -15504
매기 -15505
완다 -15506
투리 -15507
▁어지 -15508
▁원만 -15509
▁원점 -15510
▁전범 -15511
▁전서 -15512
▁츠카 -15513
▁제니퍼 -15514
▁출장소 -15515
▁카리스 -15516
▁핵탄두 -15517
VA -15518
주석 -15519
▁군기 -15520
▁롤러 -15521
▁바젤 -15522
▁베다 -15523
▁알로 -15524
▁화소 -15525
▁가치관 -15526
▁서태지 -15527
▁트레인 -15528
▁크리스틴 -15529
재판 -15530
크리 -15531
티지 -15532
uck -15533
▁근간 -15534
▁무공 -15535
▁발터 -15536
▁일면 -15537
▁타파 -15538
reak -15539
▁미성년 -15540
▁빈센트 -15541
▁빌바오 -15542
▁아드리아 -15543
▁^ -15544
들였 -15545
▁미러 -15546
▁백지 -15547
▁이만 -15548
▁헬스 -15549
▁후면 -15550
▁직사각 -15551
▁페스트 -15552
장조 -15553
▁거병 -15554
▁다윗 -15555
▁레티 -15556
▁속국 -15557
▁아누 -15558
▁이창 -15559
▁장경 -15560
▁예문관 -15561
▁환승역 -15562
▁세웠으며 -15563
▁아이스크림 -15564
de -15565
둘러 -15566
▁관군 -15567
▁문건 -15568
▁산남 -15569
▁왕명 -15570
▁진심 -15571
▁처칠 -15572
▁테헤 -15573
▁희미 -15574
▁목표물 -15575
▁선제후 -15576
▁출판물 -15577
▁탈레반 -15578
▁IEEE -15579
▁서바이벌 -15580
▁어라 -15581
▁오인 -15582
▁자백 -15583
▁피자 -15584
▁로저스 -15585
▁바스크 -15586
▁순교자 -15587
▁실린더 -15588
▁케이드 -15589
▁카디널스 -15590
HL -15591
소니 -15592
▁공석 -15593
▁김학 -15594
▁도끼 -15595
▁로보 -15596
▁사산 -15597
▁산술 -15598
▁용맹 -15599
▁정청 -15600
▁주포 -15601
▁총감 -15602
▁퇴출 -15603
▁호투 -15604
▁홀수 -15605
▁회차 -15606
▁기념장 -15607
▁쓰촨성 -15608
▁엄청나 -15609
스톤 -15610
조류 -15611
▁경원 -15612
▁논증 -15613
▁로코 -15614
▁리언 -15615
▁발광 -15616
▁수주 -15617
▁자네 -15618
▁하후 -15619
▁호화 -15620
▁340 -15621
▁아이치 -15622
▁이치현 -15623
▁저질렀 -15624
▁정착지 -15625
▁통계학 -15626
▁아미타불 -15627
나주 -15628
주사 -15629
▁뉴잉 -15630
▁로디 -15631
▁상층 -15632
▁안주 -15633
▁코이 -15634
▁튜링 -15635
▁특명 -15636
▁대제학 -15637
▁마코토 -15638
▁아스카 -15639
▁고바야시 -15640
oo -15641
ail -15642
▁FF -15643
▁갇혀 -15644
▁달력 -15645
▁오와 -15646
▁으러 -15647
▁조회 -15648
▁화풍 -15649
하마드 -15650
▁정해졌 -15651
▁Star -15652
고사 -15653
스퍼 -15654
패드 -15655
▁개경 -15656
▁발진 -15657
▁섹션 -15658
▁청정 -15659
▁교황령 -15660
▁대혁명 -15661
▁로스트 -15662
▁볼프강 -15663
▁향신료 -15664
▁오토바이 -15665
▁as -15666
▁교인 -15667
▁넓혀 -15668
▁넓히 -15669
▁담양 -15670
▁보국 -15671
▁보디 -15672
▁상설 -15673
▁수프 -15674
▁진천 -15675
▁타밀 -15676
▁통감 -15677
게이트 -15678
▁디에고 -15679
▁레이건 -15680
▁아니면 -15681
▁해인사 -15682
▁콘스탄티누스 -15683
▁펙 -15684
▁금관 -15685
▁놓였 -15686
▁도매 -15687
▁세제 -15688
▁유틸 -15689
▁의인 -15690
▁전봉 -15691
▁호적 -15692
▁310 -15693
▁떠올랐 -15694
▁지석묘 -15695
▁국가원수 -15696
▁두드러진 -15697
▁유틸리티 -15698
▁사생 -15699
▁사탄 -15700
▁수문 -15701
▁양동 -15702
▁잡힌 -15703
▁정역 -15704
▁지검 -15705
▁폐차 -15706
▁Sun -15707
▁개척자 -15708
▁국내선 -15709
▁오슬로 -15710
▁원정대 -15711
▁이광수 -15712
▁매사추세츠주 -15713
버터 -15714
팩스 -15715
▁구라 -15716
▁나바 -15717
▁동급 -15718
▁두터 -15719
▁젤리 -15720
▁짝수 -15721
▁터스 -15722
▁허물 -15723
▁중앙일보 -15724
▁뽀 -15725
▁DO -15726
▁거문 -15727
▁멜라 -15728
▁베가 -15729
▁부락 -15730
▁소서 -15731
▁손수 -15732
▁입찰 -15733
▁추장 -15734
▁커브 -15735
▁you -15736
▁가우스 -15737
▁개막식 -15738
▁대관식 -15739
▁대대장 -15740
▁브레멘 -15741
▁스러워 -15742
▁Super -15743
플레 -15744
▁my -15745
▁김도 -15746
▁김주 -15747
▁비어 -15748
▁선별 -15749
▁센타 -15750
▁수구 -15751
▁어학 -15752
▁지날 -15753
▁호이 -15754
▁슈투트 -15755
▁여러분 -15756
▁슈투트가르트 -15757
댓값 -15758
바퀴 -15759
▁교감 -15760
▁근세 -15761
▁모션 -15762
▁아칸 -15763
▁템플 -15764
▁흐트 -15765
▁209 -15766
▁리바이 -15767
▁무사시 -15768
▁에이브 -15769
▁울주군 -15770
▁조르주 -15771
▁1812 -15772
구미 -15773
vel -15774
▁과달 -15775
▁무위 -15776
▁시력 -15777
▁은지 -15778
▁평방 -15779
▁무신론 -15780
▁바빌론 -15781
▁셀레우 -15782
▁자본가 -15783
▁뉴잉글랜드 -15784
학파 -15785
▁강유 -15786
▁무찌 -15787
▁배타 -15788
▁산정 -15789
▁추밀 -15790
▁충동 -15791
▁바뀐다 -15792
▁그래픽스 -15793
▁명륜 -15794
▁빨강 -15795
▁속초 -15796
▁카파 -15797
▁토프 -15798
▁피그 -15799
▁하강 -15800
▁항문 -15801
▁황위 -15802
▁에세이 -15803
▁윤치영 -15804
▁모니터링 -15805
▁유니코드 -15806
▁안토니우스 -15807
▁후쿠시마현 -15808
초프 -15809
▁ad -15810
▁걸스 -15811
▁로컬 -15812
▁루드 -15813
▁메드 -15814
▁박경 -15815
▁세밀 -15816
▁장지 -15817
▁정실 -15818
▁한하 -15819
▁해커 -15820
▁자오선 -15821
▁자치현 -15822
▁클라리 -15823
▁Soul -15824
▁아이파크 -15825
TF -15826
iel -15827
▁Kn -15828
▁근위 -15829
▁김덕 -15830
▁나시 -15831
▁닷컴 -15832
▁당상 -15833
▁산인 -15834
▁성조 -15835
▁죽일 -15836
▁르완다 -15837
▁송진우 -15838
▁에이지 -15839
▁북대서양 -15840
▁서비스업 -15841
▁선거관리 -15842
▁무형문화재 -15843
▁선거관리위원회 -15844
티어 -15845
▁Tw -15846
▁과감 -15847
▁맞배 -15848
▁수질 -15849
▁스쿼 -15850
▁안면 -15851
▁장강 -15852
▁조던 -15853
▁지카 -15854
▁탄두 -15855
▁호국 -15856
하우스 -15857
▁206 -15858
▁물리쳤 -15859
▁삼거리 -15860
▁주거지 -15861
▁알렉세이 -15862
▁Christ -15863
▁규합 -15864
▁루손 -15865
▁의논 -15866
▁점토 -15867
시아키 -15868
▁단말기 -15869
▁여수시 -15870
▁음식점 -15871
▁접미사 -15872
▁조광조 -15873
▁한자어 -15874
▁ICBM -15875
▁John -15876
▁름 -15877
그램 -15878
라는 -15879
▁논평 -15880
▁로런 -15881
▁슬러 -15882
▁주유 -15883
▁천자 -15884
▁코우 -15885
▁타라 -15886
▁풀이 -15887
59 -15888
네오 -15889
디드 -15890
샤오 -15891
▁고후 -15892
▁그늘 -15893
▁끔찍 -15894
▁매듭 -15895
▁산동 -15896
▁아호 -15897
▁위축 -15898
▁잡혔 -15899
▁카보 -15900
▁콘스 -15901
▁기울이 -15902
▁연대장 -15903
▁주제가 -15904
▁1879 -15905
▁막시밀리 -15906
▁ON -15907
▁교재 -15908
▁귀순 -15909
▁금천 -15910
▁니치 -15911
▁도자 -15912
▁동맥 -15913
▁로지 -15914
▁무진 -15915
▁법상 -15916
▁익히 -15917
▁투니 -15918
공화당 -15919
▁개개인 -15920
▁록히드 -15921
▁민주공화당 -15922
gh -15923
▁쏜 -15924
▁쑹 -15925
버라 -15926
ute -15927
▁Mi -15928
▁개표 -15929
▁샤오 -15930
▁영도 -15931
▁장이 -15932
▁철기 -15933
▁춘계 -15934
▁베르사유 -15935
TR -15936
도감 -15937
탄올 -15938
▁IF -15939
▁Mr -15940
▁구비 -15941
▁노마 -15942
▁눌러 -15943
▁집적 -15944
▁747 -15945
▁기생충 -15946
▁레코딩 -15947
▁로널드 -15948
▁보이즈 -15949
▁안데스 -15950
▁치른다 -15951
▁건국훈장 -15952
▁아브라함 -15953
▁궈 -15954
▁썸 -15955
면적 -15956
여지 -15957
▁가창 -15958
▁버밍 -15959
▁범람 -15960
▁수라 -15961
▁스완 -15962
▁폐하 -15963
▁포상 -15964
▁휴일 -15965
라이스 -15966
▁고지대 -15967
▁슈트라 -15968
▁의병장 -15969
▁테헤란 -15970
▁파르마 -15971
EA -15972
▁떠돌 -15973
▁방탄 -15974
▁변성 -15975
▁소량 -15976
▁양원 -15977
▁양정 -15978
▁유세 -15979
▁전열 -15980
▁차역 -15981
▁청일 -15982
▁초식 -15983
▁카토 -15984
▁콜론 -15985
▁그러면 -15986
▁도망쳐 -15987
▁사우디 -15988
▁석회암 -15989
▁에다가 -15990
▁리바운드 -15991
레앙 -15992
방스 -15993
▁관개 -15994
▁꾸몄 -15995
▁농담 -15996
▁동대 -15997
▁우기 -15998
▁카펠 -15999
▁택하 -16000
▁끌려가 -16001
▁백두산 -16002
▁붙잡혀 -16003
▁조봉암 -16004
▁파르티아 -16005
▁슈트라우스 -16006
▁일렉트로닉 -16007
태자 -16008
▁김시 -16009
▁단수 -16010
▁당장 -16011
▁듀스 -16012
▁딱딱 -16013
▁부기 -16014
▁상이 -16015
▁아람 -16016
▁양념 -16017
▁울루 -16018
▁유보 -16019
▁자각 -16020
▁정맥 -16021
▁체질 -16022
▁독재자 -16023
▁바닷가 -16024
▁카지노 -16025
▁태어날 -16026
▁피어스 -16027
나들 -16028
▁HP -16029
▁공경 -16030
▁도파 -16031
▁리퍼 -16032
▁불문 -16033
▁예보 -16034
▁자석 -16035
▁풍요 -16036
▁제이크 -16037
분투 -16038
블릭 -16039
슐리 -16040
▁노역 -16041
▁대방 -16042
▁대여 -16043
▁모태 -16044
▁빛깔 -16045
▁소포 -16046
▁실베 -16047
▁용역 -16048
▁유계 -16049
▁유상 -16050
▁임실 -16051
▁해주 -16052
▁des -16053
▁게이오 -16054
▁태블릿 -16055
▁뜯 -16056
▁군마 -16057
▁부화 -16058
▁이코 -16059
▁일보 -16060
▁죄인 -16061
▁중등 -16062
▁초회 -16063
▁쿠시 -16064
▁420 -16065
▁기울였 -16066
▁뉴올리언스 -16067
OK -16068
네프 -16069
화산 -16070
▁감당 -16071
▁게놈 -16072
▁대등 -16073
▁사스 -16074
▁수족 -16075
▁차차 -16076
로세서 -16077
▁CoA -16078
▁라그랑 -16079
▁펼쳐진 -16080
▁불러일으켰 -16081
반정 -16082
정변 -16083
▁기권 -16084
▁능숙 -16085
▁두부 -16086
▁무겁 -16087
▁불능 -16088
▁상회 -16089
▁스킨 -16090
▁영종 -16091
▁조우 -16092
▁촐라 -16093
▁현수 -16094
▁App -16095
▁리그컵 -16096
▁변호인 -16097
▁사가미 -16098
▁암스트 -16099
▁여행자 -16100
▁영사관 -16101
▁즐거움 -16102
▁최진실 -16103
▁트리스 -16104
▁드러난다 -16105
신보 -16106
▁국문 -16107
▁사체 -16108
▁사파 -16109
▁온전 -16110
▁적힌 -16111
▁최용 -16112
▁클럭 -16113
▁Str -16114
▁아이작 -16115
리아누스 -16116
▁당했으며 -16117
▁불법행위 -16118
▁강가 -16119
▁말려 -16120
▁아요 -16121
▁애호 -16122
▁열람 -16123
▁유민 -16124
▁전곡 -16125
▁제고 -16126
레틱스 -16127
▁국방군 -16128
▁애슬레틱스 -16129
▁Record -16130
▁반납 -16131
▁변함 -16132
▁스텐 -16133
▁인삼 -16134
▁컬링 -16135
▁호시 -16136
연맹 -16137
의금 -16138
자드 -16139
VID -16140
▁광시 -16141
▁남경 -16142
▁두스 -16143
▁카다 -16144
▁글리제 -16145
▁본거지 -16146
▁여주인 -16147
▁테크노 -16148
▁원종공신 -16149
▁꽝 -16150
▁쿵 -16151
ull -16152
▁Gu -16153
▁권투 -16154
▁노엘 -16155
▁도나 -16156
▁머큐 -16157
▁보아 -16158
▁인척 -16159
▁자존 -16160
▁후추 -16161
▁440 -16162
▁니가타 -16163
▁수영장 -16164
▁알칼리 -16165
▁인산화 -16166
▁사이클론 -16167
산업 -16168
▁수아 -16169
▁왕좌 -16170
▁접목 -16171
▁항전 -16172
▁군주제 -16173
▁엘리엇 -16174
▁오메가 -16175
▁올라왔 -16176
▁유기체 -16177
▁조용히 -16178
▁주머니쥐 -16179
▁퀼 -16180
러져 -16181
링크 -16182
수지 -16183
▁레저 -16184
▁성자 -16185
▁소진 -16186
▁유관 -16187
▁입혔 -16188
▁증축 -16189
▁체리 -16190
▁커리 -16191
▁투기 -16192
▁들어선 -16193
▁야구부 -16194
▁지극히 -16195
▁페르시 -16196
▁아우구스트 -16197
선교 -16198
장군 -16199
▁시타 -16200
▁역동 -16201
▁제방 -16202
▁트림 -16203
▁공성전 -16204
▁엘리스 -16205
▁잠비아 -16206
▁2500 -16207
▁엔지니어링 -16208
티보 -16209
▁"| -16210
▁PA -16211
▁부트 -16212
▁압수 -16213
▁이한 -16214
▁할구 -16215
▁Per -16216
▁광합성 -16217
▁매니아 -16218
▁바실리 -16219
▁양산시 -16220
▁항생제 -16221
▁print -16222
▁다마스쿠스 -16223
가요 -16224
▁강했 -16225
▁금기 -16226
▁라쿠 -16227
▁세울 -16228
▁양구 -16229
▁왕녀 -16230
▁왕릉 -16231
▁요셉 -16232
▁용문 -16233
▁이석 -16234
▁폴로 -16235
▁환산 -16236
로그램 -16237
▁합병증 -16238
▁타지키스탄 -16239
▁public -16240
길준 -16241
덕궁 -16242
▁CA -16243
▁궁주 -16244
▁동두 -16245
▁리지 -16246
▁무패 -16247
▁미타 -16248
▁신익 -16249
▁안락 -16250
▁앙상 -16251
▁열거 -16252
▁쿠루 -16253
▁화이 -16254
▁256 -16255
▁스위트 -16256
▁실리콘 -16257
▁영화관 -16258
▁이회창 -16259
▁제시카 -16260
▁춘천시 -16261
▁플래닛 -16262
▁이루어질 -16263
▁헬레니즘 -16264
니에 -16265
대비 -16266
▁po -16267
▁리노 -16268
▁망가 -16269
▁매복 -16270
▁종실 -16271
▁탈피 -16272
▁투병 -16273
리오스 -16274
▁Hot -16275
▁엔리케 -16276
▁오토모 -16277
▁페이퍼 -16278
▁호기심 -16279
▁대법원장 -16280
▁균등 -16281
▁날렸 -16282
▁따지 -16283
▁작자 -16284
▁콜리 -16285
▁파고 -16286
▁되돌려 -16287
▁바레인 -16288
▁허버트 -16289
바이러스 -16290
레미 -16291
발트 -16292
일체 -16293
황제 -16294
▁nm -16295
▁나토 -16296
▁마거 -16297
▁명동 -16298
▁문어 -16299
▁성현 -16300
▁연하 -16301
▁은평 -16302
▁정직 -16303
▁퀸스 -16304
▁행운 -16305
▁라고도 -16306
▁산투스 -16307
▁습니까 -16308
▁카스텔 -16309
▁판매고 -16310
무지 -16311
자나 -16312
▁ER -16313
▁고요 -16314
▁광동 -16315
▁내시 -16316
▁담수 -16317
▁바바 -16318
▁북마 -16319
▁섞인 -16320
▁시영 -16321
▁아루 -16322
▁워낙 -16323
▁이설 -16324
▁버스터 -16325
▁왕당파 -16326
16 -16327
25 -16328
ty -16329
▁앳 -16330
데오 -16331
빨리 -16332
▁고독 -16333
▁교학 -16334
▁사목 -16335
▁식이 -16336
▁향로 -16337
▁환초 -16338
▁기본법 -16339
▁날아가 -16340
▁오우치 -16341
▁접근성 -16342
▁초고층 -16343
▁짠 -16344
쿠치 -16345
▁가결 -16346
▁득실 -16347
▁셔츠 -16348
▁실책 -16349
▁중신 -16350
▁즐겼 -16351
▁코니 -16352
▁호찌 -16353
▁Win -16354
▁고다이 -16355
▁비행사 -16356
▁시에라 -16357
▁캅카스 -16358
▁천문단위 -16359
▁크리스탈 -16360
높이 -16361
▁군도 -16362
▁담임 -16363
▁성형 -16364
▁접시 -16365
▁코인 -16366
▁킬러 -16367
▁패자 -16368
▁돌아간다 -16369
다임 -16370
ual -16371
▁바타 -16372
▁반향 -16373
▁석재 -16374
▁성교 -16375
▁우타 -16376
▁카츠 -16377
고로드 -16378
▁랴오닝 -16379
▁생산자 -16380
▁재결합 -16381
는점 -16382
자락 -16383
포리 -16384
▁금리 -16385
▁깊숙 -16386
▁동률 -16387
▁아역 -16388
▁여관 -16389
▁오차 -16390
▁피질 -16391
ogle -16392
▁남북조 -16393
▁토론회 -16394
▁후유증 -16395
▁Ke -16396
▁강자 -16397
▁내기 -16398
▁노골 -16399
▁농협 -16400
▁동체 -16401
▁따돌 -16402
▁미녀 -16403
▁유미 -16404
▁즉흥 -16405
▁칠곡 -16406
▁거느렸 -16407
▁냈으며 -16408
▁렌더링 -16409
▁이세이 -16410
▁프리드 -16411
스틱 -16412
울루 -16413
▁HS -16414
▁mu -16415
▁교명 -16416
▁느슨 -16417
▁멘델 -16418
▁반정 -16419
▁브이 -16420
▁침수 -16421
▁할로 -16422
▁힐스 -16423
▁911 -16424
▁브루노 -16425
▁예비군 -16426
▁예수교 -16427
▁요나라 -16428
▁웨슬리 -16429
▁을수록 -16430
▁주둔지 -16431
▁리치먼드 -16432
▁패러다임 -16433
커우 -16434
▁기피 -16435
▁대용 -16436
▁라사 -16437
▁변한 -16438
▁스팀 -16439
▁쌍용 -16440
▁지브 -16441
▁사무엘 -16442
▁스텔스 -16443
▁알베르 -16444
▁압둘라 -16445
▁잠재력 -16446
▁조연상 -16447
▁1789 -16448
▁1801 -16449
▁Back -16450
▁캥 -16451
불명 -16452
▁간지 -16453
▁관저 -16454
▁도화 -16455
▁마른 -16456
▁사조 -16457
▁아님 -16458
▁악어 -16459
▁응력 -16460
▁이보 -16461
▁정중 -16462
▁코일 -16463
그래피 -16464
▁208 -16465
▁베이직 -16466
▁제주시 -16467
▁후반전 -16468
▁플랑드르 -16469
무트 -16470
스텐 -16471
▁NM -16472
▁군림 -16473
▁봉분 -16474
▁부안 -16475
▁아구 -16476
▁유독 -16477
▁진성 -16478
▁초석 -16479
▁탄력 -16480
던지기 -16481
▁다행히 -16482
▁오이타 -16483
▁기타큐슈 -16484
▁아미타여래 -16485
▁뭔 -16486
▁강타 -16487
▁솔직 -16488
▁시온 -16489
▁우디 -16490
▁조율 -16491
▁트램 -16492
▁광주시 -16493
▁방법론 -16494
▁유도탄 -16495
▁조제프 -16496
▁Kore -16497
▁ㅣ -16498
▁쐐 -16499
▁귀여 -16500
▁누마 -16501
▁소노 -16502
▁히코 -16503
프리드 -16504
▁길버트 -16505
▁넘어서 -16506
▁유길준 -16507
▁1400 -16508
▁암스트롱 -16509
▁포틀랜드 -16510
▁쏠 -16511
RNA -16512
▁Fl -16513
▁KD -16514
▁겨냥 -16515
▁구애 -16516
▁군량 -16517
▁로만 -16518
▁엿볼 -16519
▁원곡 -16520
▁머큐리 -16521
▁폼페이우스 -16522
평면 -16523
▁신천 -16524
▁쐐기 -16525
▁아로 -16526
▁악의 -16527
▁총생 -16528
▁폐교 -16529
▁네바다 -16530
▁아르테 -16531
ll -16532
득점 -16533
▁MD -16534
▁균열 -16535
▁모였 -16536
▁변했 -16537
▁성부 -16538
▁세타 -16539
▁에픽 -16540
▁청중 -16541
▁MIT -16542
▁디아스 -16543
▁브릿지 -16544
▁영문학 -16545
▁영장류 -16546
▁인문학 -16547
▁NATO -16548
▁독립선언 -16549
인산 -16550
▁가전 -16551
▁교란 -16552
▁궁수 -16553
▁기일 -16554
▁면하 -16555
▁안시 -16556
▁애프 -16557
▁영성 -16558
▁윤곽 -16559
▁이크 -16560
▁파피 -16561
▁Get -16562
▁동일시 -16563
▁마운틴 -16564
▁브루크 -16565
▁사망률 -16566
▁사천왕 -16567
▁앙상블 -16568
▁유물론 -16569
▁지배했 -16570
▁드래곤즈 -16571
▁뿜 -16572
제사 -16573
▁NL -16574
▁갑신 -16575
▁거품 -16576
▁고는 -16577
▁이가 -16578
▁책정 -16579
▁첫날 -16580
lect -16581
▁370 -16582
▁내몽골 -16583
▁로런스 -16584
▁붉은색 -16585
▁선수상 -16586
▁스태프 -16587
▁남한산성 -16588
▁비로자나 -16589
ox -16590
이상 -16591
▁NA -16592
▁국산 -16593
▁변천 -16594
▁오웬 -16595
▁중학 -16596
▁채집 -16597
▁총국 -16598
▁급속도 -16599
▁마거릿 -16600
▁선보인 -16601
▁킵 -16602
라과 -16603
▁구명 -16604
▁깨지 -16605
▁다채 -16606
▁발열 -16607
▁약품 -16608
▁열기 -16609
▁유감 -16610
▁장차 -16611
▁만주족 -16612
▁양평군 -16613
▁이유로 -16614
▁추축국 -16615
▁트럼펫 -16616
▁Baby -16617
▁미식축구 -16618
▁생물학자 -16619
▁가령 -16620
▁격화 -16621
▁극회 -16622
▁청군 -16623
▁최순 -16624
▁출정 -16625
▁트론 -16626
ames -16627
▁225 -16628
▁오른다 -16629
▁펼쳐지 -16630
▁시킨다는 -16631
▁프린세스 -16632
▁Intern -16633
▁렬 -16634
남동 -16635
든가 -16636
ove -16637
▁나날 -16638
▁만물 -16639
▁미디 -16640
▁수표 -16641
▁어둡 -16642
▁예편 -16643
▁유재 -16644
▁제타 -16645
▁코디 -16646
▁호전 -16647
▁나와서 -16648
▁클라인 -16649
▁항공우주 -16650
YP -16651
모닉 -16652
▁관원 -16653
▁먼로 -16654
▁미로 -16655
▁민선 -16656
▁박태 -16657
▁승선 -16658
▁신궁 -16659
▁안건 -16660
▁장승 -16661
▁지킬 -16662
▁커넥 -16663
▁코딩 -16664
▁탄성 -16665
▁현관 -16666
▁후난 -16667
▁흑색 -16668
▁Mag -16669
▁디렉터 -16670
▁부천시 -16671
▁요시카 -16672
ology -16673
▁리하르트 -16674
▁탄수화물 -16675
▁해수욕장 -16676
▁셀레우코스 -16677
GO -16678
레븐 -16679
파니 -16680
▁Cr -16681
▁격침 -16682
▁고관 -16683
▁도식 -16684
▁생포 -16685
▁오랑 -16686
▁제헌 -16687
▁카인 -16688
▁행한 -16689
▁황하 -16690
▁남아공 -16691
▁메신저 -16692
▁오리건 -16693
▁와이어 -16694
▁행해진 -16695
▁이리하여 -16696
▁이마가와 -16697
▁둑 -16698
▁강구 -16699
▁공훈 -16700
▁교내 -16701
▁군위 -16702
▁김장 -16703
▁노름 -16704
▁다라 -16705
▁명장 -16706
▁무소 -16707
▁소마 -16708
▁승마 -16709
▁야만 -16710
▁유익 -16711
▁의대 -16712
▁지회 -16713
▁치밀 -16714
▁타키 -16715
▁하세 -16716
▁미요시 -16717
▁방문객 -16718
▁부사장 -16719
ature -16720
▁레오나르 -16721
▁트로츠키 -16722
▁안티오키아 -16723
피카 -16724
▁가변 -16725
▁듀엣 -16726
▁버거 -16727
▁아쉽 -16728
▁조엘 -16729
▁진위 -16730
▁호지 -16731
▁기네스 -16732
▁나카노 -16733
▁베테랑 -16734
▁해수면 -16735
▁니카라과 -16736
▁로베르트 -16737
▁서귀포시 -16738
백색 -16739
훈련 -16740
let -16741
▁공평 -16742
▁배지 -16743
▁사일 -16744
▁출항 -16745
▁캔터 -16746
▁캡틴 -16747
▁케로 -16748
▁통킹 -16749
▁효성 -16750
▁콜라보 -16751
그라운드 -16752
▁소크라테스 -16753
능력 -16754
스레 -16755
투르 -16756
▁결렬 -16757
▁결투 -16758
▁명중 -16759
▁무쓰 -16760
▁초판 -16761
▁친히 -16762
▁탄광 -16763
▁흉내 -16764
피에르 -16765
▁고스트 -16766
▁블러드 -16767
▁시나노 -16768
▁태양광 -16769
▁돼지고기 -16770
▁에두아르 -16771
▁베오그라드 -16772
17 -16773
무실 -16774
박이 -16775
심원 -16776
▁BO -16777
▁그간 -16778
▁누에 -16779
▁니트 -16780
▁대소 -16781
▁무루 -16782
▁비방 -16783
▁생장 -16784
▁수화 -16785
▁약수 -16786
▁양위 -16787
▁직각 -16788
▁총수 -16789
▁화교 -16790
스트림 -16791
inal -16792
▁리카르 -16793
경찰 -16794
메랄 -16795
enn -16796
▁개축 -16797
▁굳이 -16798
▁던전 -16799
▁서곡 -16800
▁알마 -16801
▁카노 -16802
▁풍기 -16803
▁피시 -16804
▁Way -16805
▁신안군 -16806
▁올라갈 -16807
▁주세페 -16808
▁프레더릭 -16809
TN -16810
락부 -16811
처럼 -16812
▁MR -16813
▁건네 -16814
▁결단 -16815
▁경산 -16816
▁공지 -16817
▁비긴 -16818
▁사옥 -16819
▁외가 -16820
▁주스 -16821
▁출병 -16822
▁한꺼 -16823
▁합장 -16824
코비치 -16825
▁다카시 -16826
▁범어사 -16827
▁사법부 -16828
▁스트라 -16829
▁아열대 -16830
▁페라리 -16831
▁함부로 -16832
▁한꺼번에 -16833
가키 -16834
금속 -16835
▁BB -16836
▁고취 -16837
▁꾸미 -16838
▁끼워 -16839
▁도보 -16840
▁라테 -16841
▁베아 -16842
▁불길 -16843
▁인노 -16844
▁천태 -16845
▁카불 -16846
▁파출 -16847
▁두더지 -16848
▁알아차 -16849
▁어드밴 -16850
▁이치로 -16851
▁태극기 -16852
▁항소심 -16853
▁혈액형 -16854
▁게오르기 -16855
▁나왔으며 -16856
UM -16857
ors -16858
▁개리 -16859
▁레반 -16860
▁매튜 -16861
▁증류 -16862
▁철근 -16863
▁춘향 -16864
▁하츠 -16865
▁효모 -16866
▁흡입 -16867
▁207 -16868
▁GPS -16869
▁Res -16870
▁강릉시 -16871
▁김종직 -16872
▁나눈다 -16873
▁알레산 -16874
▁굴욕 -16875
▁깁슨 -16876
▁레르 -16877
▁봉헌 -16878
▁연어 -16879
▁윈드 -16880
▁잔치 -16881
▁재심 -16882
말라야 -16883
▁내려갔 -16884
▁스펜서 -16885
▁시아파 -16886
▁리얼리티 -16887
▁아르바이트 -16888
갱이 -16889
▁내역 -16890
▁에인 -16891
▁운석 -16892
▁조너 -16893
▁폭주 -16894
▁동북부 -16895
▁무정부 -16896
▁일제히 -16897
▁정몽주 -16898
의금부사 -16899
▁1815 -16900
▁1820 -16901
▁서대문구 -16902
즈미 -16903
▁DA -16904
▁결실 -16905
▁미추 -16906
▁벗겨 -16907
▁베컴 -16908
▁사계 -16909
▁살레 -16910
▁시편 -16911
▁이구 -16912
▁365 -16913
▁사이다 -16914
▁이지스 -16915
▁조합원 -16916
▁직할시 -16917
▁체육회 -16918
▁선거인단 -16919
▁이오니아 -16920
덱스 -16921
월드 -16922
현실 -16923
app -16924
▁결집 -16925
▁기형 -16926
▁내게 -16927
▁도량 -16928
▁맞닿 -16929
▁북송 -16930
▁습도 -16931
▁에든 -16932
▁키치 -16933
▁국무부 -16934
▁페레스 -16935
노스아이 -16936
▁Amer -16937
▁에든버러 -16938
노스아이레스 -16939
▁부에노스아이레스 -16940
광사 -16941
나비 -16942
시카 -16943
▁"' -16944
▁Dr -16945
▁OK -16946
▁노하 -16947
▁박동 -16948
▁설과 -16949
▁세도 -16950
▁천적 -16951
▁치루 -16952
▁타오 -16953
▁토의 -16954
▁퇴계 -16955
▁풋살 -16956
▁필로 -16957
▁핼리 -16958
스티안 -16959
▁돌아올 -16960
▁Cent -16961
▁카롤루스 -16962
▁공보 -16963
▁산마 -16964
▁술집 -16965
▁신안 -16966
▁좌랑 -16967
▁허구 -16968
이즈미 -16969
▁유명세 -16970
▁지방도 -16971
▁프린터 -16972
▁라이온스 -16973
▁히말라야 -16974
24 -16975
끄럽 -16976
▁담장 -16977
▁변조 -16978
▁해머 -16979
레이즈 -16980
▁감마선 -16981
▁노무라 -16982
▁일진회 -16983
▁진정한 -16984
▁유럽연합 -16985
▁욘 -16986
ret -16987
▁김은 -16988
▁더라 -16989
▁로제 -16990
▁모잠 -16991
▁서역 -16992
▁시성 -16993
▁양분 -16994
▁천리 -16995
▁충고 -16996
▁표어 -16997
ange -16998
▁리그전 -16999
▁모터쇼 -17000
▁야행성 -17001
▁연습생 -17002
▁오징어 -17003
▁전동기 -17004
▁제품군 -17005
▁후베이 -17006
▁모잠비크 -17007
로프로세서 -17008
▁레닌그라드 -17009
▁막시밀리안 -17010
▁마이크로프로세서 -17011
▁훅 -17012
오드 -17013
ina -17014
▁격상 -17015
▁마취 -17016
▁만수 -17017
▁봐야 -17018
▁분담 -17019
▁스틱 -17020
▁으뜸 -17021
▁전극 -17022
▁조나 -17023
▁쿠사 -17024
▁학도 -17025
▁한라 -17026
▁호박 -17027
▁힘쓰 -17028
ater -17029
▁농민군 -17030
▁도나우 -17031
▁혁명가 -17032
▁사라진다 -17033
FS -17034
▁김석 -17035
▁살피 -17036
▁센다 -17037
▁영위 -17038
▁지반 -17039
▁테살 -17040
▁트롤 -17041
▁피쳐 -17042
▁도망가 -17043
▁저지르 -17044
▁System -17045
마니 -17046
▁리서 -17047
▁본능 -17048
▁본진 -17049
▁시차 -17050
▁어인 -17051
▁월경 -17052
▁장서 -17053
▁청했 -17054
▁디나모 -17055
▁조병옥 -17056
▁지포스 -17057
▁1858 -17058
▁고고학자 -17059
▁마쓰모토 -17060
▁알베르트 -17061
▁알렉산드라 -17062
▁갸 -17063
다스 -17064
비츠 -17065
▁갑오 -17066
▁경구 -17067
▁기욤 -17068
▁데니 -17069
▁모질 -17070
▁세실 -17071
▁위태 -17072
▁융기 -17073
▁이부 -17074
▁펜스 -17075
▁모델링 -17076
▁아드리 -17077
▁연금술 -17078
▁지팡이 -17079
▁합쳐져 -17080
za -17081
베인 -17082
▁SW -17083
▁노총 -17084
▁달마 -17085
▁당사 -17086
▁디펜 -17087
▁마초 -17088
▁슐레 -17089
▁실태 -17090
▁이삭 -17091
▁출루 -17092
▁퍼플 -17093
▁허들 -17094
▁형광 -17095
지먼트 -17096
▁선데이 -17097
▁유공자 -17098
▁중심핵 -17099
▁쫓겨나 -17100
▁모노이드 -17101
▁프로방스 -17102
▁매니지먼트 -17103
거루 -17104
▁광서 -17105
▁만연 -17106
▁사보 -17107
▁사악 -17108
▁성찬 -17109
▁소정 -17110
▁소켓 -17111
▁쓰리 -17112
▁자막 -17113
▁직류 -17114
▁코넬 -17115
▁탈리 -17116
▁전망대 -17117
▁총생산 -17118
▁오스트로 -17119
쓰네 -17120
ons -17121
▁능하 -17122
▁미완 -17123
▁벅스 -17124
▁아토 -17125
▁이게 -17126
▁장론 -17127
▁종단 -17128
▁특혜 -17129
▁Int -17130
▁Mac -17131
▁가디언 -17132
▁모조리 -17133
▁민의원 -17134
▁적절히 -17135
▁마그네슘 -17136
니츠 -17137
입자 -17138
퍼트 -17139
ley -17140
▁견지 -17141
▁급사 -17142
▁기주 -17143
▁도난 -17144
▁매질 -17145
▁엠마 -17146
▁옵티 -17147
▁위배 -17148
▁지뢰 -17149
▁특위 -17150
▁합산 -17151
▁라이드 -17152
▁스와프 -17153
▁신익희 -17154
▁안티고 -17155
▁조너선 -17156
▁크레타 -17157
▁파블로 -17158
▁알베르토 -17159
▁이성질체 -17160
▁필하모닉 -17161
▁폴리네시아 -17162
토바 -17163
▁'- -17164
▁갈비 -17165
▁관대 -17166
▁궁내 -17167
▁기민 -17168
▁녹말 -17169
▁새해 -17170
▁선서 -17171
▁육박 -17172
▁음양 -17173
▁커져 -17174
▁콘셉 -17175
▁하카 -17176
▁대학살 -17177
▁도치기 -17178
▁제노바 -17179
▁즐거운 -17180
▁class -17181
ux -17182
던스 -17183
동리 -17184
▁납품 -17185
▁더빙 -17186
▁던진 -17187
▁에뮬 -17188
▁전액 -17189
▁정현 -17190
▁좌천 -17191
▁창씨 -17192
▁태상 -17193
▁테드 -17194
ions -17195
▁Tra -17196
▁광화문 -17197
▁군산시 -17198
▁내려온 -17199
▁분홍색 -17200
▁필리스 -17201
▁합쳐서 -17202
▁맞배지붕 -17203
▁천연가스 -17204
▁기교 -17205
▁기근 -17206
▁니라 -17207
▁수강 -17208
▁완산 -17209
▁이철 -17210
▁장택 -17211
▁재주 -17212
▁정공 -17213
▁포섭 -17214
▁프록 -17215
▁핑계 -17216
▁USA -17217
▁관찰자 -17218
▁노트북 -17219
▁마에다 -17220
▁봉수대 -17221
▁시게루 -17222
▁High -17223
실험 -17224
정제 -17225
▁낙태 -17226
▁남궁 -17227
▁농작 -17228
▁늘렸 -17229
▁니체 -17230
▁덕수 -17231
▁소탕 -17232
▁수선 -17233
▁의왕 -17234
▁토드 -17235
▁펠레 -17236
▁그리드 -17237
▁마피아 -17238
▁무너져 -17239
▁베일리 -17240
▁유성구 -17241
▁포인터 -17242
▁갑작스런 -17243
▁무궁화호 -17244
▁엎 -17245
라나 -17246
사랑 -17247
코인 -17248
att -17249
▁NX -17250
▁대정 -17251
▁마도 -17252
▁안재 -17253
▁정과 -17254
▁진구 -17255
▁푸틴 -17256
▁Not -17257
▁막아내 -17258
▁목포시 -17259
▁전철역 -17260
▁평상시 -17261
▁받아들일 -17262
▁서프랑크 -17263
▁조선왕조실록 -17264
싸움 -17265
컨드 -17266
▁고택 -17267
▁독실 -17268
▁동티 -17269
▁마틸 -17270
▁말소 -17271
▁총살 -17272
지스터 -17273
▁평의원 -17274
▁1300 -17275
▁1814 -17276
테일 -17277
▁SG -17278
▁기악 -17279
▁모를 -17280
▁미자 -17281
▁민가 -17282
▁벨벳 -17283
▁선지 -17284
▁성제 -17285
▁손쉽 -17286
▁아말 -17287
▁알렌 -17288
▁예일 -17289
▁음역 -17290
▁증원 -17291
▁콤비 -17292
▁패퇴 -17293
▁비올라 -17294
▁트랜싯 -17295
▁티무르 -17296
▁플래그 -17297
▁피드백 -17298
▁동아프리카 -17299
▁클라이맥스 -17300
▁귤 -17301
촌동 -17302
토쿠 -17303
▁공해 -17304
▁로타 -17305
▁마고 -17306
▁마신 -17307
▁문성 -17308
▁어쨌 -17309
▁우도 -17310
▁유승 -17311
▁제보 -17312
▁틈타 -17313
▁헬렌 -17314
▁휴먼 -17315
▁MHz -17316
▁거머쥐 -17317
▁수도사 -17318
▁쌍방울 -17319
▁What -17320
▁type -17321
▁돌아와서 -17322
당류 -17323
랭크 -17324
재단 -17325
ART -17326
▁고갈 -17327
▁군비 -17328
▁급기 -17329
▁보육 -17330
▁비욘 -17331
▁소치 -17332
▁아픔 -17333
▁우이 -17334
▁이덕 -17335
▁주상 -17336
▁키아 -17337
▁키웠 -17338
▁건너편 -17339
▁맞대결 -17340
▁미우라 -17341
▁성명서 -17342
▁보호구역 -17343
▁트랜지스터 -17344
기둥 -17345
자유 -17346
▁Of -17347
▁RA -17348
▁목화 -17349
▁비호 -17350
▁스팅 -17351
▁아약 -17352
▁애매 -17353
▁전집 -17354
▁퀘이 -17355
▁흥덕 -17356
▁IEC -17357
▁건널목 -17358
▁겨울철 -17359
▁깨달음 -17360
▁세컨드 -17361
▁그래미상 -17362
BN -17363
거성 -17364
데냐 -17365
마일 -17366
▁구석 -17367
▁보카 -17368
▁완주 -17369
▁이뤘 -17370
▁전란 -17371
▁증직 -17372
▁쿠리 -17373
▁홍천 -17374
▁290 -17375
▁수증기 -17376
▁액티브 -17377
▁오나라 -17378
▁우승컵 -17379
▁충주시 -17380
▁커티스 -17381
▁평택시 -17382
▁사르데냐 -17383
▁산업단지 -17384
▁토스카나 -17385
▁Google -17386
림동 -17387
민정 -17388
어냈 -17389
▁로어 -17390
▁면은 -17391
▁수의 -17392
▁스쿠 -17393
▁슬퍼 -17394
▁신관 -17395
▁우대 -17396
▁진하 -17397
▁총액 -17398
▁한가 -17399
▁War -17400
▁어려울 -17401
▁여긴다 -17402
▁연구실 -17403
▁재빨리 -17404
▁주교좌 -17405
▁준다고 -17406
▁한정판 -17407
▁혁명군 -17408
▁1795 -17409
▁암모니아 -17410
▁크리스천 -17411
▁kW -17412
▁규장 -17413
▁미에 -17414
▁바사 -17415
▁부탄 -17416
▁석등 -17417
▁윗면 -17418
▁이다 -17419
▁포진 -17420
정보부 -17421
▁가져갔 -17422
▁라쿠텐 -17423
▁성북구 -17424
▁올라온 -17425
▁패트리 -17426
▁FS -17427
▁견훤 -17428
▁군집 -17429
▁레미 -17430
▁려다 -17431
▁바하 -17432
▁북상 -17433
▁어쩌 -17434
▁열망 -17435
▁옥상 -17436
▁정일 -17437
▁캐럴 -17438
▁할양 -17439
▁헤임 -17440
씨식물 -17441
▁MLB -17442
▁WHO -17443
▁니스트 -17444
▁프렌즈 -17445
▁석가여래 -17446
ger -17447
▁리온 -17448
▁멘토 -17449
▁선회 -17450
▁실크 -17451
▁앨버 -17452
▁열풍 -17453
▁지층 -17454
▁직권 -17455
▁초당 -17456
▁페데 -17457
▁헨드 -17458
▁혼돈 -17459
▁훈족 -17460
▁LCK -17461
▁고조선 -17462
▁미시간 -17463
▁아약스 -17464
▁포스코 -17465
▁프리킥 -17466
살바도르 -17467
▁보였으나 -17468
▁부위원장 -17469
▁샌드위치 -17470
▁그리스도인 -17471
구멍 -17472
전차 -17473
▁구자 -17474
▁도표 -17475
▁루지 -17476
▁암초 -17477
▁에린 -17478
▁켈빈 -17479
▁사이공 -17480
▁통신부 -17481
▁트루먼 -17482
▁플라자 -17483
▁다리우스 -17484
▁플레이스 -17485
▁윔 -17486
식스 -17487
회원 -17488
▁군락 -17489
▁발췌 -17490
▁세베 -17491
▁스톨 -17492
▁아랑 -17493
▁원생 -17494
▁포교 -17495
▁Dis -17496
▁국문학 -17497
▁돌아간 -17498
▁리포트 -17499
▁무너졌 -17500
▁원정군 -17501
▁익산시 -17502
▁정확도 -17503
▁프로이트 -17504
ye -17505
▁밈 -17506
alk -17507
▁PH -17508
▁감기 -17509
▁괴뢰 -17510
▁데인 -17511
▁도정 -17512
▁리츠 -17513
▁매춘 -17514
▁본초 -17515
▁에런 -17516
▁인대 -17517
▁장조 -17518
▁패드 -17519
▁850 -17520
▁TBC -17521
▁대항해 -17522
▁바로잡 -17523
▁홉킨스 -17524
▁With -17525
▁렝 -17526
▁모식 -17527
▁몬태 -17528
▁부녀 -17529
▁약학 -17530
▁우사 -17531
▁이효 -17532
▁블루어 -17533
▁창업자 -17534
▁디렉터리 -17535
yle -17536
▁고해 -17537
▁로동 -17538
▁미숙 -17539
▁브람 -17540
▁쇠약 -17541
▁얼터 -17542
▁웅진 -17543
▁풍수 -17544
▁480 -17545
▁남조선 -17546
▁드러난 -17547
▁선언문 -17548
▁스타즈 -17549
▁창덕궁 -17550
▁하모니 -17551
▁받아들인 -17552
▁카테고리 -17553
▁뱌 -17554
부미 -17555
enc -17556
▁광택 -17557
▁나눔 -17558
▁보훈 -17559
▁줄였 -17560
▁코지 -17561
▁토비 -17562
▁학급 -17563
▁함의 -17564
주니어 -17565
▁남해군 -17566
▁로렌초 -17567
▁보행자 -17568
▁스레드 -17569
▁타블로 -17570
▁합천군 -17571
▁수마트라 -17572
NT -17573
▁켓 -17574
니코 -17575
▁머피 -17576
▁보궐 -17577
▁아핀 -17578
▁유원 -17579
▁종친 -17580
디우스 -17581
▁Art -17582
▁찾아왔 -17583
▁안드레이 -17584
건적 -17585
레프 -17586
팽이 -17587
▁당명 -17588
▁랜덤 -17589
▁미코 -17590
▁반야 -17591
▁어딘 -17592
▁웰스 -17593
▁유시 -17594
▁장준 -17595
▁착한 -17596
▁천정 -17597
▁첨부 -17598
▁헤지 -17599
▁헬로 -17600
▁공직자 -17601
▁돋보이 -17602
▁등록금 -17603
▁에히메 -17604
▁페테르 -17605
▁헬싱키 -17606
▁사탕수수 -17607
▁아틀레틱 -17608
▁요시아키 -17609
▁COVID -17610
▁그리스도교 -17611
쳐서 -17612
카라 -17613
▁Di -17614
▁경이 -17615
▁굶주 -17616
▁김세 -17617
▁니나 -17618
▁불평 -17619
▁승전 -17620
▁차분 -17621
▁효용 -17622
▁238 -17623
▁개최지 -17624
▁북반구 -17625
▁지방관 -17626
▁충렬왕 -17627
▁Blue -17628
▁드레이크 -17629
글러 -17630
▁간디 -17631
▁감탄 -17632
▁교묘 -17633
▁국지 -17634
▁권하 -17635
▁소도 -17636
▁숭실 -17637
▁씨름 -17638
▁연유 -17639
▁영재 -17640
▁원술 -17641
▁윈터 -17642
▁팀장 -17643
▁평신 -17644
IO -17645
블린 -17646
하스 -17647
▁각광 -17648
▁걸치 -17649
▁고운 -17650
▁논설 -17651
▁덩굴 -17652
▁데쓰 -17653
▁맛있 -17654
▁설사 -17655
▁언젠 -17656
▁엄정 -17657
플레잉 -17658
ough -17659
▁남반구 -17660
▁빅토리 -17661
▁손바닥 -17662
▁스타인 -17663
▁쓰여졌 -17664
▁학생회 -17665
▁가나자와 -17666
▁롤플레잉 -17667
▁자연주의 -17668
▁꼼 -17669
▁먀 -17670
▁골수 -17671
▁구토 -17672
▁남포 -17673
▁민권 -17674
▁박승 -17675
▁버시 -17676
▁세탁 -17677
▁율령 -17678
▁존엄 -17679
가하라 -17680
▁넥스트 -17681
▁보호관 -17682
▁빼앗겼 -17683
▁산체스 -17684
▁안데르 -17685
▁1793 -17686
▁이베리아 -17687
뉴스 -17688
전쟁 -17689
천국 -17690
▁기시 -17691
▁노화 -17692
▁당분 -17693
▁리저 -17694
▁수렵 -17695
▁와해 -17696
▁이트 -17697
▁장항 -17698
▁정여 -17699
▁판다 -17700
네소스 -17701
▁공기업 -17702
▁여객선 -17703
▁이완용 -17704
▁아나키즘 -17705
▁자유민주 -17706
▁중앙정보부 -17707
UI -17708
ING -17709
▁교주 -17710
▁데메 -17711
▁묘법 -17712
▁신구 -17713
▁역모 -17714
▁쿠릴 -17715
▁하디 -17716
독립당 -17717
▁데려가 -17718
▁보라색 -17719
▁수번뇌 -17720
▁에밀리 -17721
▁유격대 -17722
▁취약점 -17723
▁페인트 -17724
▁한국독립당 -17725
▁키르기스스탄 -17726
▁낀 -17727
que -17728
▁ED -17729
▁Vf -17730
▁갤러 -17731
▁과부 -17732
▁괴멸 -17733
▁국과 -17734
▁내구 -17735
▁만기 -17736
▁멜론 -17737
▁몸집 -17738
▁보츠 -17739
▁서강 -17740
▁올랭 -17741
▁용접 -17742
▁정병 -17743
▁직함 -17744
▁페터 -17745
▁하순 -17746
다람쥐 -17747
연화경 -17748
▁Rev -17749
▁기뻐하 -17750
▁문하시 -17751
▁크라스 -17752
스트리트 -17753
▁1846 -17754
▁MPEG -17755
▁물리학상 -17756
▁에드먼드 -17757
26 -17758
메트 -17759
적분 -17760
OVE -17761
▁구룡 -17762
▁대뇌 -17763
▁무당 -17764
▁미묘 -17765
▁민생 -17766
▁오호 -17767
▁윤원 -17768
▁이국 -17769
▁천구 -17770
웨스트 -17771
▁노르트 -17772
▁아산시 -17773
▁아칸소 -17774
▁지난해 -17775
▁1839 -17776
▁브루나이 -17777
든지 -17778
르모 -17779
바람 -17780
운전 -17781
ump -17782
▁다지 -17783
▁새기 -17784
▁서보 -17785
▁참배 -17786
▁펀치 -17787
비우스 -17788
시우스 -17789
▁농작물 -17790
▁메이트 -17791
▁엉덩이 -17792
▁윤리학 -17793
▁이브라 -17794
▁중서부 -17795
▁기념사업 -17796
▁어드밴스 -17797
▁하시모토 -17798
▁넉 -17799
▁'. -17800
▁경멸 -17801
▁느라 -17802
▁니콘 -17803
▁말린 -17804
▁억류 -17805
▁월북 -17806
▁인출 -17807
▁총체 -17808
▁퇴단 -17809
▁가입자 -17810
▁버나드 -17811
▁베드로 -17812
▁변속기 -17813
▁시어터 -17814
▁추밀원 -17815
▁1854 -17816
▁time -17817
▁여주인공 -17818
▁자동변속기 -17819
▁뚱 -17820
나물 -17821
대성 -17822
래시 -17823
스테 -17824
파스 -17825
▁귀양 -17826
▁낙타 -17827
▁산불 -17828
▁성내 -17829
▁순정 -17830
▁추위 -17831
▁표결 -17832
▁학창 -17833
슬라브 -17834
▁LCD -17835
▁국무원 -17836
▁배수량 -17837
▁아테나 -17838
▁외무성 -17839
▁체스터 -17840
▁최하위 -17841
▁테트라 -17842
▁히로부미 -17843
▁시즈오카현 -17844
▁아오모리현 -17845
질량 -17846
der -17847
▁걸맞 -17848
▁공덕 -17849
▁구인 -17850
▁깜짝 -17851
▁도색 -17852
▁망루 -17853
▁박기 -17854
▁사흘 -17855
▁솔트 -17856
▁준하 -17857
▁해자 -17858
▁상속인 -17859
▁후임자 -17860
▁초등학생 -17861
▁촘 -17862
후이 -17863
▁갑각 -17864
▁게일 -17865
▁군국 -17866
▁독소 -17867
▁심플 -17868
▁윤석 -17869
▁이견 -17870
▁이형 -17871
▁인신 -17872
▁존상 -17873
▁쪼개 -17874
▁치중 -17875
▁케도 -17876
▁클루 -17877
▁휘트 -17878
티우스 -17879
▁건너갔 -17880
▁기부금 -17881
▁아쿠아 -17882
▁알레르 -17883
▁전기장 -17884
▁황태후 -17885
▁기독교인 -17886
▁이해관계 -17887
▁뺏 -17888
모자 -17889
재란 -17890
▁개전 -17891
▁마는 -17892
▁범용 -17893
▁본당 -17894
▁부윤 -17895
▁심근 -17896
▁정강 -17897
▁톨킨 -17898
▁현충 -17899
니다드 -17900
학생회 -17901
▁214 -17902
▁737 -17903
▁대머리 -17904
▁러서는 -17905
▁상대론 -17906
▁시공간 -17907
▁하카타 -17908
▁정유재란 -17909
▁트리니다드 -17910
▁중앙아프리카 -17911
우어 -17912
▁고하 -17913
▁내수 -17914
▁디디 -17915
▁루머 -17916
▁방조 -17917
▁분양 -17918
▁아민 -17919
▁여과 -17920
▁유폐 -17921
▁칼레 -17922
▁특례 -17923
▁환기 -17924
코스트 -17925
▁가시마 -17926
▁분류학 -17927
▁산둥성 -17928
▁절대로 -17929
▁지난다 -17930
▁키워드 -17931
▁파트리 -17932
▁팩토리 -17933
▁평화상 -17934
▁마음대로 -17935
▁언어학자 -17936
▁총학생회 -17937
고트 -17938
패스 -17939
▁가니 -17940
▁걸로 -17941
▁교포 -17942
▁미모 -17943
▁바일 -17944
▁박인 -17945
▁야로 -17946
▁찬탈 -17947
▁파드 -17948
▁필기 -17949
▁후시 -17950
▁낙하산 -17951
▁향한다 -17952
총리대신 -17953
▁끌어들이 -17954
▁미성년자 -17955
▁세키가하라 -17956
▁내각총리대신 -17957
BT -17958
▁두껍 -17959
▁등대 -17960
▁라몬 -17961
▁매번 -17962
▁매월 -17963
▁박준 -17964
▁브론 -17965
▁비참 -17966
▁상작 -17967
▁석상 -17968
▁손책 -17969
▁오닐 -17970
▁오딘 -17971
▁웅장 -17972
▁종주 -17973
▁코레 -17974
캐스트 -17975
쿠스틱 -17976
▁COM -17977
▁Min -17978
▁경비대 -17979
▁돗토리 -17980
▁보나파 -17981
▁조계종 -17982
▁증명서 -17983
▁비지니스 -17984
▁어쿠스틱 -17985
▁보나파르트 -17986
▁돛 -17987
▁BR -17988
▁마한 -17989
▁상투 -17990
▁새턴 -17991
▁수류 -17992
▁어이 -17993
▁육아 -17994
▁장령 -17995
▁치가 -17996
▁페드 -17997
▁화북 -17998
프랑스 -17999
▁안중근 -18000
▁에리크 -18001
▁1849 -18002
▁Beat -18003
▁소용돌이 -18004
▁플로이드 -18005
▁퓌 -18006
▁ME -18007
▁광경 -18008
▁단성 -18009
▁분장 -18010
▁소홀 -18011
▁시경 -18012
▁제식 -18013
▁제학 -18014
▁팬아 -18015
▁교토부 -18016
▁북극해 -18017
▁비행대 -18018
▁갈릴레이 -18019
▁공화주의 -18020
▁비트코인 -18021
▁견습 -18022
▁고압 -18023
▁디온 -18024
▁바덴 -18025
▁베버 -18026
▁비크 -18027
▁사죄 -18028
▁시주 -18029
▁실로 -18030
▁유품 -18031
▁적재 -18032
▁태세 -18033
▁페가 -18034
▁갖가지 -18035
▁데포르 -18036
▁초대칭 -18037
▁파출소 -18038
▁하이든 -18039
▁1856 -18040
▁오브젝트 -18041
▁페더레이션 -18042
28 -18043
▁럴 -18044
담회 -18045
사회 -18046
탐정 -18047
▁간염 -18048
▁계투 -18049
▁낯선 -18050
▁담론 -18051
▁북해 -18052
▁분쇄 -18053
▁신작 -18054
▁악역 -18055
▁인피 -18056
▁팔려 -18057
▁해일 -18058
▁현령 -18059
직할시 -18060
▁건국대 -18061
▁구청장 -18062
▁나가노 -18063
▁쓰여져 -18064
▁델라웨어 -18065
HD -18066
▁깡 -18067
▁쥔 -18068
누아 -18069
렁이 -18070
▁낙랑 -18071
▁남로 -18072
▁모기 -18073
▁반열 -18074
▁본디 -18075
▁소란 -18076
▁수배 -18077
▁엠블 -18078
▁예속 -18079
▁우동 -18080
▁이안 -18081
▁철원 -18082
▁트러 -18083
▁틀리 -18084
▁아가씨 -18085
▁찬드라 -18086
▁포위전 -18087
▁노동자당 -18088
▁네덜란드어 -18089
러기 -18090
리가 -18091
오린 -18092
정권 -18093
호르 -18094
호프 -18095
▁대세 -18096
▁배설 -18097
▁변방 -18098
▁봉작 -18099
▁역습 -18100
▁연임 -18101
▁오기 -18102
▁웨일 -18103
▁으론 -18104
▁파격 -18105
타니아 -18106
atch -18107
▁430 -18108
▁교직원 -18109
▁식물원 -18110
▁어리석 -18111
▁취한다 -18112
▁해럴드 -18113
베이거스 -18114
▁캐나다인 -18115
▁크레이그 -18116
▁하이웨이 -18117
23 -18118
섬유 -18119
케스 -18120
▁반려 -18121
▁요아 -18122
▁적성 -18123
▁추궁 -18124
▁헤엄 -18125
▁화전 -18126
▁효능 -18127
▁언젠가 -18128
▁장택상 -18129
▁1851 -18130
▁빠져나가 -18131
▁스탠퍼드 -18132
▁캔자스시티 -18133
▁라스베이거스 -18134
OU -18135
▁녜 -18136
개혁 -18137
려야 -18138
체어 -18139
▁단호 -18140
▁드니 -18141
▁라티 -18142
▁마자 -18143
▁만국 -18144
▁메사 -18145
▁밀스 -18146
▁볼륨 -18147
▁유장 -18148
▁잇달 -18149
▁조승 -18150
▁촌은 -18151
▁치수 -18152
▁태워 -18153
▁한서 -18154
리어스 -18155
▁419 -18156
▁감염자 -18157
▁다이나 -18158
▁참모장 -18159
▁상파울루 -18160
▁차량기지 -18161
니크 -18162
▁PP -18163
▁간장 -18164
▁낙엽 -18165
▁셔먼 -18166
▁쌓여 -18167
▁원성 -18168
▁윤영 -18169
▁친절 -18170
▁후백 -18171
트로피 -18172
▁FBI -18173
▁Top -18174
▁디스코 -18175
▁레인보 -18176
▁바란다 -18177
▁벤피카 -18178
▁보르도 -18179
▁입출력 -18180
▁집어넣 -18181
▁테이크 -18182
▁투데이 -18183
▁사보이아 -18184
▁크리에이티브 -18185
처리 -18186
▁계란 -18187
▁김문 -18188
▁단사 -18189
▁도독 -18190
▁상체 -18191
▁수서 -18192
▁심슨 -18193
▁알비 -18194
▁외동 -18195
▁노스케 -18196
▁다닌다 -18197
▁레이어 -18198
▁오비탈 -18199
▁진보당 -18200
▁하동군 -18201
츠부르크 -18202
▁블레이드 -18203
▁스티븐스 -18204
▁오하이오주 -18205
86 -18206
▁힉 -18207
전기 -18208
하늘 -18209
ery -18210
▁결탁 -18211
▁경색 -18212
▁국면 -18213
▁대광 -18214
▁빌미 -18215
▁서천 -18216
▁쇼팽 -18217
▁아모 -18218
▁언약 -18219
▁정시 -18220
▁주경 -18221
▁착안 -18222
▁헐리 -18223
▁히다 -18224
고양이 -18225
▁공사관 -18226
▁기념식 -18227
▁시부야 -18228
▁애벌레 -18229
▁잇따라 -18230
▁캥거루 -18231
▁핵폭탄 -18232
▁1855 -18233
▁1857 -18234
▁서스펜션 -18235
▁정사각형 -18236
▁폴란드인 -18237
▁프란시스 -18238
왕국 -18239
천년 -18240
투안 -18241
▁TG -18242
▁대열 -18243
▁랜디 -18244
▁명주 -18245
▁보문 -18246
▁분개 -18247
▁생가 -18248
▁여생 -18249
▁욕설 -18250
▁조력 -18251
▁카잔 -18252
▁페티 -18253
▁한참 -18254
▁Med -18255
▁대주주 -18256
▁배트맨 -18257
▁상세히 -18258
▁세운다 -18259
▁수산물 -18260
▁작사가 -18261
▁휠체어 -18262
▁갑신정변 -18263
▁다이스케 -18264
깨비 -18265
봉사 -18266
산읍 -18267
일라 -18268
카테 -18269
▁거액 -18270
▁발송 -18271
▁벽면 -18272
▁타고 -18273
▁현명 -18274
cess -18275
▁모여서 -18276
▁베르디 -18277
▁봉사자 -18278
▁서북쪽 -18279
▁수수료 -18280
▁일간지 -18281
▁행정관 -18282
▁반공주의 -18283
▁열렸으며 -18284
▁민족주의자 -18285
▁뛴 -18286
바꿈 -18287
하르 -18288
▁YM -18289
▁권세 -18290
▁맛보 -18291
▁무왕 -18292
▁비이 -18293
▁서상 -18294
▁성채 -18295
▁수훈 -18296
▁어기 -18297
▁쟁점 -18298
▁주치 -18299
▁캔디 -18300
▁핵산 -18301
icro -18302
▁211 -18303
▁Pop -18304
▁구미시 -18305
▁글리코 -18306
▁시흥시 -18307
▁들어와서 -18308
▁여러해살이풀 -18309
▁좡 -18310
▁정년 -18311
▁택지 -18312
▁포구 -18313
콥스키 -18314
▁301 -18315
▁웨이트 -18316
▁제이스 -18317
▁지평선 -18318
▁쫓아내 -18319
▁포천시 -18320
▁데포르티보 -18321
댄스 -18322
테른 -18323
▁롤리 -18324
▁몰라 -18325
▁압송 -18326
▁잊혀 -18327
▁체첸 -18328
▁친목 -18329
▁템포 -18330
▁해금 -18331
▁동의어 -18332
▁시우바 -18333
▁은하단 -18334
▁저작물 -18335
▁펠로폰 -18336
▁포브스 -18337
▁Will -18338
▁불렀으며 -18339
▁이와테현 -18340
▁병마절도사 -18341
▁펠로폰네소스 -18342
레토 -18343
버거 -18344
버드 -18345
서구 -18346
소득 -18347
재기 -18348
증권 -18349
지대 -18350
▁까다 -18351
▁버퍼 -18352
▁셀룰 -18353
▁소망 -18354
▁신영 -18355
▁인테 -18356
▁폰트 -18357
루리아 -18358
▁223 -18359
▁무서운 -18360
▁변증법 -18361
▁컨디션 -18362
메니스탄 -18363
▁서아시아 -18364
▁투르크메니스탄 -18365
흐트 -18366
▁돌핀 -18367
▁변장 -18368
▁살림 -18369
▁수스 -18370
▁슬픈 -18371
▁실습 -18372
▁외벽 -18373
▁이로 -18374
▁이학 -18375
▁임베 -18376
▁지소 -18377
▁크세 -18378
▁탄원 -18379
▁팔자 -18380
▁그로스 -18381
▁려다가 -18382
▁스나이 -18383
▁카운터 -18384
▁헤이스 -18385
▁임베디드 -18386
쇼프 -18387
연대 -18388
▁CL -18389
▁간파 -18390
▁노회 -18391
▁대적 -18392
▁만리 -18393
▁벚꽃 -18394
▁액수 -18395
▁찬스 -18396
▁히나 -18397
▁NAD -18398
▁나주시 -18399
▁비엔나 -18400
▁좋아했 -18401
▁1776 -18402
▁Free -18403
▁엔트로피 -18404
니엄 -18405
▁급습 -18406
▁박격 -18407
▁성간 -18408
▁슈바 -18409
▁장구 -18410
▁한도 -18411
▁회부 -18412
▁오카다 -18413
▁핵실험 -18414
▁클라리넷 -18415
▁통합진보당 -18416
로아 -18417
ont -18418
▁FR -18419
▁IA -18420
▁고증 -18421
▁노다 -18422
▁미안 -18423
▁신명 -18424
▁알론 -18425
▁열반 -18426
▁원제 -18427
▁율곡 -18428
▁음경 -18429
▁지병 -18430
▁카렐 -18431
▁퇴사 -18432
▁항모 -18433
시오날 -18434
▁대각선 -18435
▁찾아온 -18436
타고라스 -18437
▁나시오날 -18438
▁올랐으나 -18439
▁플루오린 -18440
day -18441
▁골목 -18442
▁구운 -18443
▁김한 -18444
▁방한 -18445
▁버릴 -18446
▁이공 -18447
▁지남 -18448
▁현청 -18449
▁다면체 -18450
▁보니파 -18451
▁수송기 -18452
▁하이델 -18453
▁가까스로 -18454
▁무라카미 -18455
▁미주리주 -18456
▁원내대표 -18457
27 -18458
스탕 -18459
▁당기 -18460
▁버즈 -18461
▁요네 -18462
▁조식 -18463
▁총알 -18464
▁코민 -18465
▁현생 -18466
▁독립국 -18467
▁루터교 -18468
▁마그마 -18469
▁바이스 -18470
▁형무소 -18471
▁사카모토 -18472
▁태평천국 -18473
광선 -18474
▁UR -18475
▁과업 -18476
▁끊이 -18477
▁뇌졸 -18478
▁대흥 -18479
▁문교 -18480
▁부총 -18481
▁센스 -18482
▁윤선 -18483
▁잠복 -18484
노벨라 -18485
중국해 -18486
▁거제시 -18487
▁레너드 -18488
▁병원체 -18489
▁이범석 -18490
▁올랭피크 -18491
▁그레고리력 -18492
▁텔레노벨라 -18493
활성 -18494
▁개요 -18495
▁금광 -18496
▁사극 -18497
▁상시 -18498
▁와트 -18499
▁재원 -18500
▁중첩 -18501
▁호가 -18502
▁급기야 -18503
▁새천년 -18504
▁아세트 -18505
모습 -18506
볼트 -18507
평가 -18508
aut -18509
▁MW -18510
▁누각 -18511
▁라데 -18512
▁비기 -18513
▁서던 -18514
▁양손 -18515
▁여긴 -18516
▁입안 -18517
▁조참 -18518
▁지어 -18519
▁지워 -18520
궐선거 -18521
레시브 -18522
▁XML -18523
▁가까웠 -18524
▁가속기 -18525
▁달라이 -18526
▁동북쪽 -18527
▁이어질 -18528
▁청교도 -18529
▁출생지 -18530
▁클라라 -18531
▁재보궐선거 -18532
▁캄파니아주 -18533
▁프로그레시브 -18534
돼지 -18535
▁Po -18536
▁누락 -18537
▁땅콩 -18538
▁몬트 -18539
▁산탄 -18540
▁성추 -18541
▁심신 -18542
▁영아 -18543
▁원가 -18544
▁장타 -18545
▁준위 -18546
▁케니 -18547
▁표했 -18548
▁다시피 -18549
▁모티프 -18550
▁비정규 -18551
▁서둘러 -18552
▁국민회의 -18553
29 -18554
ma -18555
가야 -18556
를린 -18557
쿠젠 -18558
its -18559
▁로로 -18560
▁맞섰 -18561
▁명지 -18562
▁미움 -18563
▁반가 -18564
▁이연 -18565
▁천명 -18566
▁타현 -18567
▁퇴화 -18568
▁혹독 -18569
▁김종필 -18570
▁마인드 -18571
▁심포니 -18572
▁영등포 -18573
▁영산회 -18574
▁청구인 -18575
▁피에트로 -18576
▁10000 -18577
▁레오나르도 -18578
마타 -18579
▁ne -18580
▁간소 -18581
▁계파 -18582
▁괴팅 -18583
▁교복 -18584
▁국고 -18585
▁기물 -18586
▁미망 -18587
▁발주 -18588
▁방수 -18589
▁본기 -18590
▁시왕 -18591
▁안다 -18592
▁역행 -18593
▁음란 -18594
▁지단 -18595
▁직제 -18596
▁진안 -18597
▁파사 -18598
▁표상 -18599
▁하쿠 -18600
▁합체 -18601
▁가로막 -18602
▁베르그 -18603
▁원한다 -18604
▁묘법연화경 -18605
▁쉰 -18606
연료 -18607
저민 -18608
▁CV -18609
▁각별 -18610
▁로젠 -18611
▁만다 -18612
▁사성 -18613
▁셰이 -18614
▁수잔 -18615
▁연좌 -18616
▁최경 -18617
▁화신 -18618
들랜드 -18619
▁Bro -18620
▁End -18621
▁del -18622
▁단기간 -18623
▁메이플 -18624
▁버려진 -18625
▁베리아 -18626
▁벤저민 -18627
▁사모아 -18628
▁쓰러져 -18629
▁에인절 -18630
▁황도대 -18631
▁조기어류 -18632
▁네브래스카 -18633
페리 -18634
▁가메 -18635
▁감명 -18636
▁국채 -18637
▁세브 -18638
▁습성 -18639
▁어필 -18640
▁처했 -18641
▁치이 -18642
▁홀드 -18643
메네스 -18644
메데스 -18645
▁215 -18646
▁샘플링 -18647
▁서기장 -18648
▁팰리스 -18649
▁포위망 -18650
개발 -18651
▁로미 -18652
▁반일 -18653
▁체임 -18654
▁콘월 -18655
▁포에 -18656
irst -18657
▁Big -18658
▁DFB -18659
니발 -18660
슐린 -18661
▁나나 -18662
▁대양 -18663
▁배영 -18664
▁세가 -18665
▁에나 -18666
▁점하 -18667
▁편하 -18668
▁포탈 -18669
▁퓨전 -18670
▁황보 -18671
▁논산시 -18672
▁돌려주 -18673
▁리서치 -18674
▁크리켓 -18675
▁캔터베리 -18676
BL -18677
계리 -18678
급시 -18679
미치 -18680
에리 -18681
▁DL -18682
▁공녀 -18683
▁노미 -18684
▁로자 -18685
▁밑면 -18686
▁부이 -18687
▁생사 -18688
▁우문 -18689
▁청화 -18690
▁포즈 -18691
▁픽업 -18692
▁게이츠 -18693
▁서남쪽 -18694
▁특공대 -18695
▁돌아온다 -18696
▁미시간주 -18697
▁스포르팅 -18698
▁코미디언 -18699
▁포레스트 -18700
빼미 -18701
▁개간 -18702
▁노먼 -18703
▁니즘 -18704
▁독감 -18705
▁린드 -18706
▁마마 -18707
▁미팅 -18708
▁어진 -18709
▁열광 -18710
▁요세 -18711
▁장보 -18712
▁정철 -18713
▁주둥 -18714
▁타가 -18715
▁문화사 -18716
▁부제학 -18717
▁떨어뜨리 -18718
▁begin -18719
▁WH -18720
▁달렸 -18721
▁라비 -18722
▁레베 -18723
▁몰입 -18724
▁시로 -18725
▁원화 -18726
▁위드 -18727
▁코다 -18728
▁틈새 -18729
▁미카사 -18730
▁브레인 -18731
▁엑스선 -18732
▁프리랜 -18733
▁해설자 -18734
HS -18735
br -18736
▁큼 -18737
연의 -18738
지않 -18739
코바 -18740
▁가인 -18741
▁메콩 -18742
▁브롱 -18743
▁살상 -18744
▁서드 -18745
▁서킷 -18746
▁실드 -18747
▁연천 -18748
▁위아 -18749
▁유즈 -18750
▁정약 -18751
▁징후 -18752
▁추석 -18753
▁한방 -18754
더니즘 -18755
▁239 -18756
▁경기력 -18757
▁구석기 -18758
▁부활절 -18759
▁서로마 -18760
▁월리스 -18761
▁전년도 -18762
▁특이점 -18763
▁후반부 -18764
▁언더그라운드 -18765
▁다의 -18766
▁루소 -18767
▁우메 -18768
▁전갈 -18769
▁접착 -18770
▁정파 -18771
▁주어 -18772
▁질레 -18773
▁쿠키 -18774
▁패주 -18775
▁계약금 -18776
▁기장군 -18777
▁목걸이 -18778
▁보호자 -18779
▁수메르 -18780
▁1792 -18781
▁소선거구 -18782
▁HK -18783
▁경수 -18784
▁경치 -18785
▁낭독 -18786
▁내쫓 -18787
▁딸린 -18788
▁래스 -18789
▁비슈 -18790
▁시동 -18791
▁창안 -18792
▁촌락 -18793
▁칸타 -18794
▁픽션 -18795
▁510 -18796
▁계약서 -18797
▁권력자 -18798
▁사중주 -18799
▁유니온 -18800
▁젬 -18801
보스 -18802
aff -18803
oss -18804
▁KC -18805
▁녀석 -18806
▁루아 -18807
▁시암 -18808
▁아그 -18809
▁우랄 -18810
▁종택 -18811
▁청탁 -18812
▁평년 -18813
▁향리 -18814
▁호치 -18815
파트라 -18816
▁BMW -18817
▁브리트 -18818
▁사생아 -18819
▁Mnet -18820
▁Rain -18821
▁프라이스 -18822
▁클레오파트라 -18823
▁까치 -18824
▁덤불 -18825
▁도기 -18826
▁듀크 -18827
▁명절 -18828
▁부원 -18829
▁세관 -18830
▁위니 -18831
▁유실 -18832
▁제반 -18833
▁즐겁 -18834
▁틀림 -18835
▁Des -18836
▁앞장섰 -18837
▁동대문구 -18838
▁모하메드 -18839
▁아틀라스 -18840
▁프로토타입 -18841
▁감히 -18842
▁귀납 -18843
▁금화 -18844
▁대검 -18845
▁덧셈 -18846
▁돼서 -18847
▁시료 -18848
▁안상 -18849
▁영연 -18850
▁욕심 -18851
▁이족 -18852
▁제향 -18853
▁커트 -18854
▁set -18855
▁게이머 -18856
▁미술가 -18857
▁브람스 -18858
▁외삼촌 -18859
▁재정난 -18860
▁퍼펙트 -18861
▁1853 -18862
▁void -18863
▁알레르기 -18864
▁플레이트 -18865
▁슈퍼주니어 -18866
▁독신 -18867
▁비츠 -18868
▁성년 -18869
▁예천 -18870
▁정량 -18871
▁함안 -18872
▁과선교 -18873
▁목격자 -18874
▁정말로 -18875
[...]
