[PAD]
[UNK]
[BOS]
[EOS]
[CLS]
[SEP]
[MASK]
▁▃
▁ㅇ
▁ㅇㅡ
▁하
ㄷㅏ
▁.
▁ㅇㅔ
▁ㄱ
▁이
▁ㅇㅡㄹ
ㅡㄴ
ㄴㅡㄴ
▁ㄷㅏ
▁ㅇㅢ
▁ㄴㅡㄴ
▁ᆫ
▁ㄹ
▁,
▁ㅇㅓ
▁ㅇㅏ
▁ㅇㅡㄴ
▁1
ㅅㅓ
ㅡㄹ
▁되
▁ㅇㅣ
▁ㄹㅡㄹ
▁ㅇㅓㅆ
▁ㄱㅗ
▁년
▁ㅇㅡㄹㅗ
▁ㅇㅔㅅㅓ
▁2
▁있
▁ㅇㅏㅆ
▁대
▁ㄹㅗ
▁ㄱㅏ
▁사
▁지
▁그
ㅁㅕ
▁일
▁시
▁ㄷ
▁ㅇㅕ
▁ᆫㄷㅏ
▁들
▁ㄱㅘ
▁수
▁가
▁기
▁전
ㅈㅣ
▁적
▁아
▁20
▁ㅇㅘ
▁ㄷㅗ
▁월
▁주
▁제
▁ㅁㅕ
▁19
▁다
▁ᆯ
▁정
▁자
▁중
▁위
▁인
▁ㅇㅕㅆ
▁공
▁보
▁세
▁경
▁것
▁ㅈㅣ
▁개
▁부
▁ㄹㅏ
▁ㄱㅣ
▁오
▁유
▁3
▁"
▁조
▁나
▁등
▁ㄱㅔ
▁스
▁선
▁성
▁미
▁동
▁연
▁마
▁상
▁소
▁모
▁한
▁고
▁비
▁ㅇㅡㅁㅕ
▁영
▁의
▁구
▁국
▁도
ㄱㅗ
▁발
▁여
▁서
▁201
▁'
ㅁㅏ
ㅓㄴ
▁4
▁후
▁관
▁명
ㅁㅏㄴ
▁신
▁만
▁프
▁5
▁때
▁ㅁㅕㄴ
▁200
▁장
▁-
▁방
▁ㄷㅓㄴ
▁바
▁교
▁리
▁해
▁문
▁역
▁내
▁차
ㅌㅓ
ㅂㅜ
ㅂㅜㅌㅓ
▁당
▁무
▁우
▁원
▁통
▁계
▁현
▁남
▁군
▁노
▁포
▁분
▁어
▁6
▁또
▁화
▁않
▁거
ㄲㅏ
▁학
▁생
▁ㄲㅏ
▁작
▁ㄲㅏㅈㅣ
▁같
▁결
▁강
▁출
ㄱㅔ
▁파
▁ㅇㅔㄱㅔ
▁받
▁대하
▁진
▁크
▁단
▁7
▁번
▁최
▁반
▁10
▁불
▁8
▁알
▁데
▁위하
▁호
▁두
▁회
▁배
▁ㅈㅣㅁㅏㄴ
▁안
▁카
▁실
▁형
▁초
▁말
ㄴㅏ
▁따
▁예
▁에
▁재
▁ㅂㅜㅌㅓ
▁없
▁로
▁타
ㄷㅔ
▁사용
▁9
▁미국
▁종
▁ㄹㅏㄱㅗ
▁라
▁이후
▁ㄹㅏㄴㅡㄴ
▁요
▁함
▁설
▁과
ㅈㅏ
▁특
▁ㅁㅕㄴㅅㅓ
▁일본
▁코
▁ㄴㅡㄴㄷㅔ
▁산
▁운
▁권
▁감
▁독
▁레
▁활
▁추
▁베
▁행
▁ㅈㅏ
▁왕
▁피
민국
▁김
▁그리
▁지역
▁음
▁더
▁양
▁대한
▁199
▁ㅇㅡㄴㅏ
▁매
▁다음
▁민
▁평
▁태
▁많
▁입
▁12
▁따르
▁건
▁대한민국
▁참
▁간
▁18
▁및
▁경기
▁승
▁가지
▁열
▁ㄷㅏㄱㅗ
▁목
▁대학
▁다른
▁;
▁의하
리아
00
▁프로
▁드
▁총
▁속
▁ㅁㅏㄴ
스트
▁북
or
▁S
▁집
▁법
▁11
▁때문
▁시작
▁트
▁체
▁각
▁물
▁외
▁달
▁변
▁천
▁시키
▁메
▁임
▁직
▁표
▁올
▁처
▁ᄆ
▁토
▁그러
▁본
▁사람
▁&
▁점
▁쓰
▁저
▁함께
▁A
▁또한
어지
▁팀
▁박
어나
▁치
▁투
▁선수
▁청
▁한국
▁항
▁ㅇㅏㅅㅓ
▁브
▁)
▁세계
▁사이
▁영화
▁버
▁광
▁새
▁자신
▁약
la
▁C
▁게
▁M
▁경우
▁통하
▁용
▁판
▁ㄴㅏ
▁f
▁디
▁T
▁축
▁현재
▁기록
▁F
▁복
▁하나
▁야
▁국가
▁아니
시아
▁존
▁네
▁이름
▁198
▁ㄷㅏㄴㅡㄴ
▁편
▁당시
▁가장
▁확
▁삼
▁위치
▁_
▁보이
▁활동
▁조선
▁학교
▁뒤
▁철
▁만들
주의
▁리그
▁그러나
▁필
▁(
▁15
▁ㅇㅣㄴㅏ
▁살
▁ㄴ
▁금
▁for
▁페
▁증
▁합
▁째
▁루
mu
▁플
▁백
▁테
▁심
▁창
mula
▁애
▁언
▁formula
ㄱㅏ
▁식
▁16
▁대표
레이
▁연구
▁병
▁못
▁근
▁또는
▁프랑
▁그리고
▁/
▁황
▁사회
▁돌
▁m
▁규
▁0
▁D
▁충
▁17
▁시즌
▁패
▁ㅇㅓㅅㅓ
▁순
▁첫
▁]
▁[
ㅇㅑ
▁197
▁B
▁완
▁히
랜드
▁이루
▁못하
▁높
▁다시
▁중국
▁알리
▁협
▁길
▁서울
▁클
▁정부
▁프랑스
▁ㅂ
학교
▁영국
▁K
▁채
▁I
▁:
▁시대
▁ㄴㅡㄴㄷㅏ
▁키
▁도시
▁k
▁포함
▁여러
▁뜻
▁196
▁은
▁전쟁
▁14
▁아이
▁독일
ㄹㅗ
▁ㄹㅗㅅㅓ
▁면
▁죽
er
▁문화
▁대회
▁~
▁g
▁취
▁배우
▁13
▁축구
▁위원
▁별
▁허
▁가능
▁모두
▁P
▁ㅅㅓ
▁ㄷㅏㄱㅏ
▁동안
▁뉴
in
▁ㅂㅗ
▁모든
▁ㅂㅗㄷㅏ
▁이상
▁친
▁손
▁곡
▁감독
▁정치
▁194
▁환
▁일부
▁방송
▁l
▁석
▁문제
▁처음
▁대학교
▁개발
▁지방
▁L
▁제작
▁%
▁구성
▁검
▁캐
▁인하
▁국제
▁러
▁농
라이
▁터
▁사건
▁골
▁니
▁세기
▁끝
▁시간
▁논
▁이용
▁일반
▁씨
▁부르
▁존재
▁ㄱㅓㄴ
▁향
▁G
▁작품
▁게임
▁밀
▁날
▁정도
▁운동
▁폭
▁주장
▁급
▁역사
▁gt
▁나오
ㄹㅗㄱ
▁곳
▁N
▁관계
▁즉
▁앞
▁ㅅ
▁섬
니아
▁인구
▁티
on
▁효
▁195
▁교육
▁음악
▁km
▁접
▁ㄱㅓㄴㅏ
▁나타
▁중심
▁ㄹㅕ
▁lt
▁육
▁이러
▁맡
리스
▁U
▁극
▁귀
▁30
▁쿠
▁R
▁절
▁맞
▁선거
▁경제
▁블
부분
▁발견
통령
▁전투
▁민주
▁담
▁H
화국
▁봉
▁ㄷㅗㄹㅗㄱ
▁발표
▁글
▁갖
▁홍
▁E
▁측
▁기술
▁누
▁올림
▁막
▁암
▁아들
이스
▁책
▁우승
▁ㄹㅗㅂㅜㅌㅓ
▁2010
▁공격
▁엔
▁대통령
▁들어
▁대부분
▁잘
▁영향
▁사망
▁올림픽
an
▁걸
▁케
▁ㅇㅡㅁ
▁질
▁결과
▁헤
000
▁불리
▁여기
▁밝
▁슈
▁열리
▁송
▁새롭
▁라이
▁지원
▁앨
▁프로그
리카
▁193
▁과정
▁잡
▁발생
▁의미
▁관련
▁참여
▁중앙
▁유럽
▁업
▁진행
▁최초
▁c
▁머
란드
▁얻
▁범
20
▁준
▁25
▁고등
▁부분
ㅆㅓ
▁독립
▁특히
▁자유
ㅓㄹ
▁태어나
▁결정
지만
▁제국
▁세우
▁구조
▁다양
▁설립
▁팔
▁당하
▁설치
▁속하
버지
▁초등
▁형태
▁폐
나라
▁발매
▁상태
▁ᆫㄷㅏㄴㅡㄴ
ㅁㅕㄴ
▁악
▁탄
▁탈
▁W
▁벌
▁소속
▁온
▁좌
▁러시아
▁2008
▁이전
▁사실
▁하지만
▁좋
▁침
▁21
▁그녀
▁일어나
우스
▁센
▁줄
▁스타
▁르
▁커
디오
▁같이
▁로마
▁ㅇㅡㄹㅗㅅㅓ
▁폴
▁이것
▁여성
▁인민
▁주로
▁프로그램
▁나라
▁타이
▁생각
▁ㅇㅏㅇㅑ
▁필요
▁갈
▁2012
▁2011
▁출신
▁혼
▁싱
▁참가
▁이탈
▁관리
▁조직
▁기준
▁100
▁보내
▁운영
▁위원회
en
▁2009
▁오르
▁중요
▁여자
▁윤
▁생산
▁2007
▁계획
▁기관
▁2014
▁t
▁행정
▁등장
▁상대
▁정보
▁이르
▁음반
▁계속
▁성공
▁바이
▁지정
▁데이
▁a
▁매우
▁지나
▁국민
▁콘
▁데뷔
▁넘
▁2013
▁해당
▁O
▁밝히
he
▁레이
▁철도
▁아버지
▁과학
ㄷㅗ
▁칼
스터
▁고려
▁대전
▁이탈리아
리즈
▁발전
▁몇
▁주요
프트
▁자리
▁사업
▁191
▁시스
ㅓㄹㅓ
▁묘
▁ㅊ
▁찾
▁와
▁23
▁24
▁지내
ㅡㄹㅗ
▁000
▁억
▁차지
ar
▁방법
▁2015
ㅓㄹㅓㅁ
▁ㅊㅓㄹㅓㅁ
남도
▁2018
▁헌
라마
▁월드
▁앨범
▁얼
▁2016
▁능
레스
▁최고
▁그룹
▁쇼
▁돌아
▁인도
▁빌
▁결국
▁후보
▁마이
▁아래
▁출연
르크
▁관하
▁시리즈
이션
▁엘
▁J
▁전체
▁생활
es
▁떨
▁고등학교
▁22
▁빠
▁이루어지
▁회사
▁한편
▁2006
▁이유
이트
▁우리
▁내용
▁그리스
FA
▁192
▁ᆫㄷㅏㄱㅗ
▁거치
▁격
비아
▁나가
▁층
▁제공
▁연합
▁스페
▁풍
▁방식
▁힘
▁인간
▁의원
▁2017
▁공식
운데
▁많이
▁인터
▁항공
▁시기
▁컴
▁역할
▁희
▁몸
▁잠
▁가운데
▁드라마
▁군사
▁조사
▁시스템
▁초기
▁워
▁출전
▁유명
▁거의
▁ㄹㅏㄴ
▁제도
▁반대
▁기업
▁민족
▁놓
▁류
▁나타나
▁s
▁ㅇㅡㄹㅗㅆㅓ
▁퍼
▁쓰이
▁지구
▁둘
▁교회
▁푸
▁가리
▁텔
▁색
▁수상
▁떠
▁대신
▁달리
▁유지
비스
▁평가
▁표현
▁울
▁분류
▁ㅇㅡㄹㅗㅂㅜㅌㅓ
▁26
▁몰
ㄹㅏ
▁올리
ㄴㅣ
▁대상
▁홈
▁!
▁특별
▁동시
▁녹
▁언어
▁기능
▁현대
▁규모
at
▁공개
▁프리
▁응
▁모습
▁마지
▁28
▁ㅇㅑ
▁이미
▁자연
▁노동
▁졸
▁각각
▁연결
▁웨
야기
▁개인
▁승리
▁ㅇㅓㅇㅑ
▁들어가
▁27
▁이론
▁전하
▁2019
▁뛰
▁인정
▁붙
▁단체
▁지도
▁진출
▁ㅅㅣ
▁브라
북도
▁임명
▁핵
▁마지막
▁2005
▁V
▁떨어지
▁2000
▁시장
▁목적
머니
▁수도
▁시절
▁아르
▁전문
▁메이
▁상황
▁정의
▁경상
▁정책
▁멀
▁난
▁눈
▁너
▁기간
▁목록
▁족
▁직접
▁산업
ic
▁이야기
▁먹
▁서로
al
스크
▁압
▁혁
▁야구
▁계약
▁오스트
▁밴
▁기원
▁슬
▁추가
▁건설
BS
▁공동
▁ㅁ
▁모델
▁2004
▁ㅇㅡㅁㅕㄴ
▁콜
▁개최
▁샤
▁FC
▁건물
▁플레이
▁공간
▁경찰
▁망
▁형성
▁50
▁활약
▁결혼
▁거리
ㄴㅣㄷㅏ
▁스페인
▁자동
▁부산
▁그것
▁31
▁훈
▁29
학자
▁졸업
▁변화
▁노래
▁사상
▁교수
▁칸
▁변경
▁b
으키
▁ㄴㅣ
▁국회
▁TV
▁뿐
▁인물
is
▁나이
▁마을
▁완전
re
▁공화국
it
▁다르
▁텔레
▁궁
▁벨
▁비롯
▁190
▁사랑
▁흐
▁노선
▁낮
▁역시
▁인민공
▁휴
▁인민공화국
비전
▁2020
▁느
▁학생
▁ㅏ
▁중학교
▁지지
ou
▁맥
▁실제
▁보통
▁최대
▁만나
이드
▁서비스
▁요구
▁볼
▁따라
▁지금
▁견
▁잉
▁탑
대로
▁보호
▁전국
프리카
▁싸
▁일으키
▁소설
▁의회
▁ㄱㅔㅆ
▁우주
▁중화
▁딸
▁겸
▁실시
▁없이
▁지하
▁기본
▁혹
▁황제
▁자기
역시
▁판매
▁다이
운드
▁가수
▁전통
▁싱글
▁비판
르트
▁밴드
▁높이
▁원래
▁옥
▁차이
▁기반
▁엄
▁ㅁㅏ
▁떠나
▁퇴
▁론
▁종교
너지
▁2002
▁어떤
▁세력
▁경기도
▁내리
▁버리
▁탐
로스
▁40
▁자료
▁소련
스탄
▁이끌
▁수행
▁환경
▁2003
▁가리키
▁기타
▁회의
▁센터
▁모양
▁전기
▁풀
▁월드컵
▁운행
▁시설
▁부대
▁밖
▁도쿄
▁전자
▁나타내
▁특징
러스
▁공연
▁그래
나다
▁걸치
▁교황
▁기념
▁컵
▁승강
▁분야
▁뮤
▁설명
▁명칭
▁예술
▁이동
▁기독
▁통합
le
▁텔레비전
▁작업
mp
▁남자
▁연방
▁도입
▁염
▁동물
▁득
▁구역
▁행동
▁따라서
▁선정
▁숙
▁전라
▁애니
▁바로
▁군대
스타
▁능력
들이
▁작용
▁가족
▁넓
▁남쪽
▁출시
▁소프트
▁할
▁증가
▁확인
▁방향
▁북쪽
▁기존
▁지휘
▁행위
▁제외
▁문학
▁=
▁교통
▁차량
▁이때
▁기독교
▁옮
의원
▁착
▁작가
▁비슷
▁사고
▁형식
▁국내
▁클럽
▁십
▁어머니
▁ㅁㅡㄹㅗ
▁윌
▁혁명
▁강하
▁도로
▁작곡
▁마르
▁빈
▁그렇
▁지배
▁효과
▁낙
▁역임
▁태양
▁승강장
▁몽
▁캐나다
▁왕국
▁유일
▁거두
▁컴퓨
▁FI
▁과거
▁열차
▁옮기
▁사무
▁챔
▁이적
▁갑
BC
▁협회
▁혹은
▁남부
리오
▁추정
▁흥
▁비교
▁뉴욕
▁베이
▁솔
▁생기
▁공산
▁흔
▁정당
자리
▁갖추
▁담당
▁이어지
▁육군
▁이사
▁시민
▁동일
▁주변
▁획
▁런
▁늘
▁1990
▁2001
▁홀
▁즈
▁적용
▁동쪽
▁인기
▁장관
▁대사
▁물리
▁스포
▁넣
▁스트
▁챔피
▁X
▁세포
▁윈
▁쪽
▁건축
▁예정
▁사단
▁공사
▁p
▁데이터
▁구간
▁개념
▁곧
▁상당
▁성장
▁ᆫㄷㅔ
▁마음
▁컴퓨터
▁조지
▁오늘
▁징
▁차례
▁크기
드리
▁품
▁서쪽
▁에너지
▁189
▁버스
▁돈
▁맨
▁멤
▁비하
▁흑
▁충청
▁바르
▁바꾸
이지
▁어리
▁치르
▁록
▁액
▁칭
▁작전
▁땅
▁자체
▁민주주의
▁조건
▁어느
▁실패
▁연기
▁디자
ㅓㅆ
▁잔
▁반응
▁율
▁이런
▁덕
▁돌아오
▁선언
▁FIFA
▁이어
▁d
▁연주
▁버전
▁종류
▁부족
▁특정
▁움
▁쉽
▁피해
▁컨
▁애니메
▁페르
가지
▁국립
▁연속
▁ㅁㅏㄷㅏ
▁익
▁방영
카이
▁쌍
▁대체
▁선택
el
▁공항
▁규정
▁해군
▁다루
▁대구
▁고대
거리
et
라지
▁내부
버스
▁체제
▁멤버
▁조약
▁속도
▁북부
▁결승
▁수록
루스
▁기원전
▁정신
▁명령
▁아시아
▁연대
▁선출
▁헌법
글랜드
▁애니메이션
▁ㄴㅡㄴㅈㅣ
▁쥐
▁왜
▁크리스
▁인천
▁휘
▁포르
▁옛
▁가치
▁개혁
▁단계
ion
▁영어
웨어
▁최종
▁물질
▁친구
▁자치
▁달러
ing
▁최근
▁나누
▁설계
▁분석
▁밤
▁척
▁가깝
▁ᆫㅈㅣ
▁의사
▁출판
▁비행
트남
▁강화
▁평균
시마
아가
▁1999
▁더욱
▁지명
▁소비
▁로스
▁체계
▁롭
널리
▁술
ol
라스
▁표준
▁배치
▁법원
메리카
▁1998
▁잉글랜드
▁집단
▁ㄹㅓ
▁머리
▁치료
▁남기
▁Y
▁북한
▁팬
▁관심
▁언급
▁씩
▁개월
▁획득
▁cm
21
▁부문
▁o
▁파이
▁하이
▁겨
▁헬
▁분리
▁현상
▁함수
▁먼
▁하계
▁지속
▁ㅇㅣㄹㅏ
▁1980
▁엔진
▁유사
▁부상
▁공원
▁실험
▁파리
▁맺
▁조정
▁벤
▁60
▁스테
스코
▁처리
▁스포츠
▁확장
▁선발
▁지니
▁베르
리지
▁마치
▁대중
▁제품
▁입단
▁관할
▁35
▁챔피언
▁소유
▁마리
▁공립
▁통일
▁빠르
▁목표
▁장군
▁어렵
▁도움
▁시도
▁요소
▁이해
▁재판
▁자동차
▁문자
▁주도
▁꽃
디어
▁요시
▁에스
▁향하
▁정규
▁mm
▁나무
▁외국
▁점령
▁거주
▁ㄱㅗㅈㅏ
▁후반
▁구단
▁주인
▁기사
▁편성
▁바뀌
▁시험
▁미치
▁원자
▁네덜
▁네덜란드
▁주민
▁학자
▁괴
▁잃
▁n
▁가르
▁행사
▁ㄹㅕㄱㅗ
광역시
▁앤
▁책임
▁통신
▁스럽
▁사령
▁결합
▁동맹
▁일종
▁안정
▁혈
▁끌
▁투표
▁웹
▁고속
▁수준
▁알렉
▁잇
▁불교
▁예선
▁앙
om
▁깊
▁길이
▁장치
▁언론
▁개봉
▁끝나
▁모르
야마
나무
▁아프리카
젝트
▁불구
▁1997
▁디자인
▁문서
▁본선
▁준비
▁정하
▁광주
▁촉
▁칠
일랜드
▁방문
▁ᄇ
▁베트남
▁사진
▁캠
▁신문
▁빛
▁가문
▁ㄱㅜ
▁다니
▁유전
▁정권
메달
st
▁가정
▁정확
▁구분
▁폴란드
▁1996
▁경험
▁The
▁제조
▁드러
▁그림
▁성적
▁1995
▁믿
▁요리
▁비디오
▁평화
▁핀
▁용어
▁amp
▁오늘날
▁부인
▁원인
▁통과
▁정리
▁32
▁부여
▁70
▁일제
▁값
▁찬
▁아직
▁왕조
▁프로젝트
특별
▁아마
▁ㄷㅏㅁㅕㄴ
▁추진
▁런던
▁ㄹㅕㄴㅡㄴ
▁병원
▁덴
스로
▁이곳
▁방어
▁깨
ㅇㅓㅆ
▁은퇴
▁올라
▁종합
▁널리
▁신라
▁멸
스턴
▁프레
▁해석
인트
▁슈퍼
▁ㅇㅡㅁㅡㄹㅗ
▁500
▁통치
▁영역
▁습
▁경쟁
▁폐지
▁끼
▁이듬
▁몬
▁인터넷
▁입장
▁민주당
▁경영
▁훈련
▁발달
웨이
▁미사
▁노력
▁보도
▁제주
▁츠
아들이
▁파괴
▁the
▁총리
▁제안
▁죽이
▁면적
레일
▁주제
am
▁주연
▁기여
▁부정
▁80
▁회장
▁만화
▁미술
▁접하
▁모으
▁번호
▁서부
▁유래
▁놀
▁이듬해
▁그런
▁지키
▁완전히
▁도서
▁야마
▁188
▁국회의원
▁경기장
리트
▁생물
▁남성
▁식민
▁빅
▁연맹
▁UE
▁요청
▁자주
라인
▁경계
▁동부
▁정상
▁궤
▁투수
▁법률
▁+
▁폰
▁ㄹㅜ
▁벌이
il
▁1994
▁행성
▁1970
▁ㅅㅡ
▁나뉘
▁무기
▁UEFA
▁수용
▁금지
▁돕
▁소재
▁등록
▁움직
▁삼성
▁인식
톨릭
▁연구소
▁제한
▁펼
ac
▁바탕
▁링
▁무대
▁라디오
▁지진
▁ㅅㅡㅂ
▁철학
▁영토
머지
▁꼬
▁외교
▁강원
▁나머지
▁발사
▁아시
▁박물
▁노르
▁접근
▁지대
▁ㅓ
▁반면
▁ᄇㄴㅣㄷㅏ
▁빠지
▁KBS
▁스스로
▁조각
▁업무
▁거부
▁더불
▁린
▁오래
▁표기
▁뉴스
▁뇌
▁정식
▁다리
▁돌아가
▁마찬
▁마찬가지
▁아일랜드
▁결성
▁오스
▁벽
▁받아들이
▁서식
▁필리
▁붙이
▁상호
▁1992
▁은행
▁펜
▁굴
▁다수
요일
▁짧
▁기초
▁45
▁가톨릭
▁공작
▁의식
▁소리
▁보수
▁논란
▁아카
▁복귀
▁박사
임스
▁주의
▁ㅕ
ro
▁이렇
▁득점
▁이기
▁바다
▁스웨
▁임시
▁성격
▁트리
▁수학
시코
▁장애
▁36
▁실제로
▁of
ed
모토
▁윌리
▁지도자
▁ㄹㅗㅆㅓ
▁해결
▁그대로
▁장소
▁브라질
▁초대
▁총선
워드
▁검사
▁박물관
▁에이
▁마이크
▁유로
▁이스
▁스위
▁패배
▁긴
▁여행
▁느끼
트리
▁강력
▁카드
▁표시
▁여름
▁차원
▁식물
▁집합
▁묘사
▁화학
▁오브
▁기구
▁ㅅㅡㅂㄴㅣㄷㅏ
▁제시
▁1960
▁계열
▁관측
ig
▁인사
▁이외
▁단순
▁연극
▁차트
▁안전
▁1991
▁유니
토리
▁뛰어나
▁스웨덴
▁활용
로나
▁권력
▁무역
▁곤
▁멕
▁디지
▁파일
▁회원
▁꾸
▁싸우
▁오스트리아
▁개국
▁히로
부르크
▁자라
▁기계
▁1993
▁형제
▁근처
레일리아
▁33
▁먼저
▁캐릭
▁취하
▁보다
▁반란
▁조성
▁지적
▁아무
▁소프트웨어
▁중간
▁붕
▁분포
▁ㅇㅏㄷㅗ
▁위험
▁중단
▁흡
배우
베이
▁세대
▁발행
▁일정
▁시행
▁도착
▁량
트로
▁기자
▁스코
▁스튜
▁협력
▁띠
특별시
▁여객
od
버트
▁서울특별시
▁사이트
사카
▁다만
▁윈도
▁단어
▁캐릭터
▁하루
주시
▁해안
▁지하철
▁186
▁죽음
▁",
▁렌
ve
니스
▁파견
워크
▁수많
▁들어오
▁세상
▁ᆫㄱㅏ
▁코드
▁연장
▁죄
as
▁혜
▁순위
▁내려
▁태평
▁다카
▁내각
▁공장
▁전시
▁오스트레일리아
▁투자
▁본부
▁경상남도
▁삶
▁겪
나이
▁후기
지션
▁감소
▁혐
▁생성
▁카이
▁번역
▁케이
▁근거
소년
▁뮤직
▁윌리엄
▁제기
▁옹
▁확대
▁경상북도
▁ㅇㅣㄹㅏㄱㅗ
▁네트
▁귀족
▁지상
▁보유
▁듣
▁지식
▁유형
▁보존
▁양식
▁?
▁균
▁관광
▁위기
무원
▁1988
▁구하
▁동생
▁멜
▁달성
▁상징
▁숨
▁187
▁촬
▁유대
▁전략
▁멕시코
▁극장
▁캘
▁수사
▁촌
▁h
▁원소
▁당선
ㅜㄴ
▁상업
▁완성
▁유리
▁성립
▁근무
▁디지털
▁영상
▁학위
▁대응
▁짓
▁단위
▁34
▁특수
▁이렇게
▁계승
▁체포
▁촬영
▁이슬
티아
▁옆
▁님
▁흐르
▁발매되
▁나중
▁몇몇
▁수비
▁식민지
▁체결
아내
▁38
▁권리
▁코치
id
▁전달
▁이집
▁마사
회사
▁이집트
▁ㅇㅗ
▁싶
▁알렉산
가리
▁생명
▁듀
▁벌어지
▁90
▁국왕
가와
▁종목
아시아
▁걸리
▁ㄷㅐ
▁맹
▁낳
▁시티
▁아내
▁판단
▁미래
▁직후
▁승격
▁톤
▁헨
▁타이틀
▁1989
▁이주
▁크로
▁관찰
▁주식
모리
▁시청
▁률
▁측정
▁펼치
▁틀
▁대륙
▁도서관
▁개통
▁미군
▁2021
▁소수
▁맞추
▁젊
▁즐
▁48
ec
▁밑
▁자본
▁동계
▁엘리
▁전환
▁채널
us
▁세르
▁홍콩
▁설정
▁스키
▁정치인
▁문화재
▁라인
NA
▁ㄷㅐㄹㅗ
▁얼마
▁쌓
▁개정
▁특성
▁새로
and
▁포르투
▁',
▁납
▁시위
▁의견
▁텍
▁미사일
▁신경
▁종료
ㅇㅔ
▁취임
▁상하
▁제정
▁지위
▁달하
▁기획
▁1950
▁|
▁300
▁주어지
▁후쿠
▁은하
▁본관
▁결승전
▁천황
▁사회주의
▁교체
▁전차
▁청년
▁헝
디아
스티
▁MBC
▁답
▁범죄
▁주인공
코드
▁ㅇㅡㅁㅕㄴㅅㅓ
▁출생
▁ㅃ
▁아키
▁제임스
▁e
▁예수
ad
▁주목
▁충돌
▁셀
▁해외
▁빼
▁ㅃㅜㄴ
▁소개
▁수정
▁계산
▁전라남도
▁녹음
▁장기
▁춘
▁ㅇㅏㅆㅇㅓㅆ
교회
▁벗
▁바이러스
▁비용
▁스티
▁1945
▁개선
▁음식
▁즉위
▁본래
▁모이
▁남북
전히
▁비밀
▁소장
▁자격
리학
▁공부
▁카운
▁건강
▁합류
▁건너
ent
▁계기
▁공급
▁이래
▁부모
▁펠
▁네트워크
▁만드
▁배경
스카
▁체육
▁궤도
▁에드
▁제거
▁시내
▁인근
50
▁털
▁원정
▁셰
▁누구
▁컬
▁홈런
▁각종
▁ㅏㅆ
▁오후
▁거대
▁작성
▁물론
▁감염
▁명예
▁공군
▁신학
▁자원
▁입학
▁집중
▁왼
▁가입
▁읽
▁국경
▁피아
보이
▁군인
▁가격
▁베네
▁객
▁전사
▁천문
▁성우
▁병력
베르
▁명단
▁통제
▁저항
▁울산
▁포지션
▁이슬람
티나
▁강조
▁줄이
▁아우
▁농업
▁신호
▁찰
▁측면
피아
리포
▁소송
▁기후
▁인수
▁질량
▁만약
▁학문
▁실행
▁St
▁터미
▁블랙
▁병사
▁세이
▁플로
▁던
▁나서
▁콩
▁피하
▁오른
ot
▁터키
도로
▁태평양
▁강원도
▁기회
니어
▁너무
▁겨울
▁최소
▁약간
▁증명
▁정착
▁변호
▁x
▁비트
▁엑
▁이번
▁잎
▁광고
▁미디어
▁쉬
▁무장
동안
▁노동자
▁외부
▁마리아
un
▁환자
▁해방
▁몽골
▁37
ow
▁쇠
▁국방
▁in
▁편집
▁터미널
▁마쓰
▁제목
▁사라지
철도
▁바라
▁냉
▁무렵
스키
▁지점
▁전반
▁도중
▁표면
▁바람
▁밀도
▁ㄹㅣ
▁금융
▁라운드
▁마련
▁혐의
▁ᆫㄷㅏㅁㅕㄴ
▁허용
▁유도
▁1987
오카
▁가스
▁충분
▁카르
▁빨
소리
▁그해
▁재산
▁힐
▁학년
▁루이
▁여전히
▁합병
▁인디
▁ㅕㅅㅓ
▁윈도우
▁래
▁충청남도
▁전력
▁민간
▁오사카
▁고전
▁꼬리
▁재직
▁숲
▁포르투갈
▁영화배우
▁양성
▁전역
▁가져
▁뒷
▁현실
▁등급
▁w
마크
▁킹
▁헝가리
▁41
▁선수단
▁령
▁오리
드로
▁붕괴
▁후지
▁재정
▁라이브
▁계급
▁행하
▁51
▁1986
▁공주
▁동료
▁공공
▁강제
ur
▁보고
▁1984
▁이하
▁적극
▁엔터
▁위원장
▁캘리포
▁스튜디오
▁ㄷㅡ
▁승인
▁봄
▁위협
▁전선
▁대대
▁군주
▁조치
▁대수
▁근대
▁구축
▁온도
▁롤
▁샌
▁수입
▁범위
▁유엔
▁업체
▁둥
▁임무
▁이제
▁꿈
▁이미지
▁점차
▁클라
▁논문
▁출발
▁캘리포니아
▁위성
▁경력
▁교사
▁양자
▁대학원
▁고구
▁원칙
▁공산당
▁다섯
▁항상
▁전개
▁거래
▁핀란드
▁확보
▁채택
▁성인
▁토론
▁수단
러지
▁잭
▁회복
▁필리핀
▁올라가
▁공업
마스
▁섭
▁앞서
▁수립
▁증거
▁ㄷㅡㄴ
▁강의
▁잡지
▁아시안
테르
ㅇㅛ
▁드래
▁남아
주교
ch
▁첨
▁39
▁남편
▁400
▁개편
▁매년
▁얼굴
▁합의
▁그래서
▁스파
▁기지
▁만족
▁선생
▁일원
▁의료
▁사례
▁어떻
고리
바이
▁시인
▁폭발
▁나카
▁앞두
▁부근
▁스위스
▁이스라
▁모스크
▁간주
▁1985
▁붉
▁장비
▁64
▁욕
▁이승
▁대형
로드
▁끊
▁종종
▁튀
▁ㄹㅏㅁㅕ
데미
▁아름
▁대기
▁군단
▁토지
▁둘러
▁스리
다리
▁경주
▁장면
▁불가
ir
▁아주
ay
▁뜨
▁규칙
▁이스라엘
▁분자
▁종이
▁경향
▁항성
▁어린
▁움직이
▁게이
▁II
▁ㅏㅅㅓ
ut
▁수원
▁까
▁기대
▁낭
▁조합
▁캄
백질
▁아랍
키아
▁해체
▁귀국
▁맛
▁심하
▁진화
▁ㅇㅔㄱㅔㅅㅓ
고기
▁탑재
▁확실
▁저지
um
▁그곳
▁레코드
▁강점
레이드
우드
▁대장
▁기억
▁43
▁아카데미
▁서양
▁향상
▁br
▁짐
▁장식
▁신화
▁평양
어들
▁아나
▁스피
▁좀
▁클래
▁투어
▁고양
▁아메리카
im
▁변하
▁청소년
▁침공
▁란
▁보장
▁융
▁의학
▁아름답
▁박쥐
▁42
▁청나라
▁만큼
요시
▁폼
▁고구려
▁사후
▁새기
▁랭
오스
▁불과
▁카운티
▁남동
▁선고
▁보병
▁메이저
▁가로
▁자금
▁켄
▁가사
▁에피
▁카메
보드
네스
▁성과
▁잠시
ver
▁소년
▁신설
▁스타일
▁감정
▁나치
▁이끄
라비아
▁독자
▁1982
▁고문
▁단백질
▁만주
타인
▁55
▁살해
▁우선
에르
▁중화민국
▁숭
▁라틴
▁단지
▁우수
▁확정
무르
▁편입
▁합치
▁ㅂㅏ
▁스카
라노
▁철도역
틀랜드
▁함대
▁신앙
▁복잡
▁지시
네시아
▁스케
▁광역시
▁나폴
▁비율
▁차별
▁의장
▁삭
▁예상
▁덴마크
▁1983
▁왕위
다이
▁44
▁i
▁태풍
▁세종
▁재단
▁마크
▁창설
▁구체
▁온라인
누스
일러
▁법인
▁LG
▁고향
▁전화
▁검찰
▁공유
뜨리
▁성당
▁전설
FC
▁동의
▁역대
▁짜
▁브리
▁선거구
▁참석
▁대립
▁반도
▁보급
▁솔로
▁판결
트라
▁육상
▁47
▁킬
▁삼국
▁묻
▁가하
ㅓㄹㅏ
▁브랜드
▁하늘
운동
▁둘러싸
▁수출
▁유학
뿌리
싱턴
▁듯
▁고정
의회
▁노예
▁ㄴㅑ
이크
▁저장
비드
▁협상
▁핵심
▁후손
▁집행
▁카를
▁애플
▁헤이
▁본격
없이
▁75
하라
▁보안
▁무엇
▁강점기
▁180
▁오픈
▁산맥
▁184
오프
▁초반
▁탄생
▁자세
▁Z
▁ㅈ
▁마드리
▁회전
▁대비
▁중반
▁대항
▁사전
▁암살
셔널
반도
원군
▁숫
각형
▁주교
▁옷
▁연고
▁이성
문화
▁로버트
▁1972
▁마드리드
▁아르헨
▁베이스
▁법칙
▁플랫
▁권한
▁전혀
리스트
▁어린이
▁켈
▁프란
소드
▁공학
▁단일
▁전용
▁46
▁이익
▁사우
▁순서
▁의무
▁1920
▁공기
▁말기
바르
▁이란
▁베를
▁직원
▁조금
▁아르헨티나
▁인상
레이션
▁유적
▁요한
▁시각
▁공포
▁수여
▁중심지
▁운전
CA
터리
▁가르치
▁ㄷㅓㄹㅏ
▁1979
▁별도
▁ㄹㅏㅁㅕㄴ
▁사항
▁아스
▁아미
▁비난
▁흔히
▁모리
▁덮
▁보조
▁스크
▁잘못
▁효소
▁전라북도
▁원주
▁상품
▁워싱턴
▁밀리
▁협정
▁글로
▁롯
▁전후
▁아파
▁변호사
▁을
▁CD
▁kg
▁기하
▁관료
▁통계
▁파크
▁인권
▁창조
▁방면
▁우크
정부
퍼드
▁1930
▁작곡가
ra
▁마시
▁투입
▁레드
▁소식
▁장착
▁In
▁1981
▁저서
▁금메달
▁심각
▁넘어
▁셋
무라
▁현장
▁1973
▁항복
▁정복
▁아침
▁놓이
▁150
▁하드
▁훨
▁호텔
▁공무원
▁벡
▁엠
사키
▁중세
10
퍼스
▁ㄴㄷㅏ
▁니콜
▁본인
▁갈등
▁헨리
▁ㄷㅡㅅ
▁오히
▁교류
▁공화
▁공산주의
▁건국
▁물러
▁오른쪽
▁교토
▁노스
▁훨씬
▁마이클
▁어떻게
os
▁요새
▁논의
겨나
▁중부
▁성경
▁출마
▁코미
▁오랜
▁v
▁김정
리어
▁무리
▁산하
▁빙
▁택
▁플레이어
▁뿌리
▁건조
▁유전자
▁한때
▁세인트
▁왼쪽
▁플라
▁인정받
▁인류
▁패하
▁연합군
▁오토
▁형사
▁추측
▁ㄹㅏㅇ
▁창립
▁서기
▁방출
▁금속
▁로드
▁1940
30
▁베이징
▁아프
▁투쟁
▁성질
▁원작
▁예산
▁주위
▁드러나
▁1974
▁태국
▁찍
▁185
BO
▁릴
▁노르웨이
em
일보
▁에피소드
▁북서
▁벗어나
▁에어
▁복합
▁제자
▁탁
▁군수
▁사령관
▁사태
▁코스
ter
▁효율
▁플레이오프
▁운용
▁모스크바
▁오전
▁논쟁
▁멸망
▁절대
▁반복
▁입자
▁정비
▁SBS
▁집안
▁뽑
▁구별
▁전철
▁제출
카와
▁스코틀랜드
▁노부
▁해양
▁가져오
▁합성
▁1948
▁메시
▁숫자
▁인종
▁사법
▁주기
▁연산
▁포위
▁거절
▁미니
▁블루
▁흡수
듀서
▁54
▁프로듀서
▁퍼지
머스
▁각본
붙이
▁중대
▁오히려
▁출장
▁1968
아오
▁인조
▁댄
▁연관
▁빌리
▁원리
▁델
▁마침
▁인공
▁목사
▁활발
▁1976
▁시점
▁웨스트
▁베를린
▁슬로
▁수송
도르
▁포기
▁경성
▁해상
▁신체
▁개시
▁소녀
▁전공
▁이민
▁북동
▁출입
▁건립
▁취급
▁인터뷰
▁넘기
▁주전
▁ㅂㅏㄲ
▁ㅂㅏㄲㅇㅔ
▁보스
▁우스
▁1975
▁즐기
▁프라
▁음력
▁읍
▁명성
▁사령부
▁디스
▁고용
▁실리
▁히데
데스
op
▁국도
▁던지
▁축제
▁동원
▁파라
▁취득
▁트랙
▁분쟁
▁활성
나이티
▁농민
▁주택
▁영화제
▁ㄹㅏㄷㅗ
시스
▁안타
▁장악
▁봉하
▁비록
▁유나이티
▁신성
▁1978
▁1971
▁56
▁구속
▁총독
▁갤
▁국장
▁미드
▁ㅇㅓㄷㅗ
ag
▁진보
▁일치
▁보컬
▁텐
▁견해
▁고유
▁소스
▁전부
▁1963
서트
에트
▁끝내
▁52
라크
산시
▁북아
▁불법
▁유물
▁직전
▁부활
▁49
▁후원
▁늘어나
▁관점
▁보험
▁하위
▁한자
▁자이
▁대리
▁코미디
▁ㄷㅓㄹㅏㄷㅗ
▁폭력
▁65
▁연료
▁정체
키스탄
▁포도
▁교차
▁학습
▁편지
비치
▁주관
▁도달
▁혼란
▁여객철도
▁타이완
▁닌
▁약속
▁수술
ce
▁상당히
메리
세이
▁철수
▁스미
▁항공기
▁아테
▁1969
▁관직
▁시리아
▁천체
▁179
▁Q
▁누리
▁반영
▁여부
▁한국어
기에
▁직업
▁물러나
릭스
▁하나님
젤레스
▁고종
▁선교
자기
쿠라
ㅇㅣ
▁본사
▁수집
▁그리스도
▁임금
▁백제
▁미나
▁명명
▁00
▁모시
▁장교
▁브레
리케
▁상륙
▁제어
▁넷
▁팝
▁데이비드
▁의존
▁논리
▁ㄷㅏㅁㅕ
▁테러
▁성능
어스
▁1946
▁주간
▁대화
▁보관
▁아사
▁화물
▁심리
▁백작
▁일대
▁부임
▁영업
▁학술
▁프리미
▁톰
▁폴리
공항
OS
▁콘서트
▁소방
▁주식회사
▁도구
▁불상
▁해산
▁좁
▁십자
▁교환
▁정지
▁53
▁전파
▁개체
▁연재
▁프로세
▁허가
▁나아가
▁스마
▁하우스
▁전문가
▁자살
▁제일
▁코로나
▁박정
미터
▁김영
oc
▁반발
▁1964
▁정원
▁대략
▁핑
▁그런데
▁방사
▁영향력
▁간단
▁판서
▁니시
▁충청북도
▁살인
▁헤르
▁거기
▁진입
▁고리
▁화성
▁상승
▁보건
▁먹이
▁원하
▁재료
▁공통
▁베스트
▁드리
▁리스
병대
▁학부
▁미터
▁소비에트
▁겐
▁신분
▁US
▁벨기에
▁항구
▁포트
이어
▁피아노
▁서버
▁영입
▁스프
▁약하
▁승진
▁and
▁국제공항
▁사장
ri
▁가을
▁학원
▁지붕
▁파트
▁꼭
▁인도네시아
▁부장
▁58
▁외국인
▁그레
▁진압
▁기도
▁학회
▁99
▁1000
▁시호
노스
▁ㄹㅔ
▁질병
▁루이스
▁도망
▁랜
▁사운드
▁횡
▁발언
▁스토
▁다스
▁구성원
▁브루
하마
오르
▁아라
▁탈출
▁현역
▁콤
▁창단
▁누르
▁머무르
▁공동체
▁주년
▁참전
▁채용
▁식품
▁트랜
▁계통
▁복무
▁닥
▁그치
▁변환
▁리더
▁한반도
▁탈락
▁감사
▁응용
▁픽
▁임대
▁PC
▁의도
▁쫓
▁통상
저우
▁1977
▁합격
▁요코
▁모드
▁장수
▁벼
▁작사
▁임의
▁민법
천군
▁고도
다가
아버지
▁망명
▁조작
▁친일
▁포로
▁문헌
▁신청
▁위반
▁말레이
▁SK
▁페이
▁롯데
▁화면
▁1949
▁로스앤
▁로스앤젤레스
성군
▁마케
▁띄
▁에도
▁문장
▁트라
▁방송국
▁부부
▁라이트
프리
▁동남
▁저작
▁탄소
▁학과
igh
▁FA
▁이치
문화재
▁ㅋ
▁트로
▁변형
▁배출
▁88
▁분열
▁선조
▁연출
▁수영
▁예측
▁절차
▁1962
▁청구
▁캠퍼스
▁상원
정식
▁수소
려움
▁엑스
▁자녀
▁요인
▁..
▁시카
▁메모리
▁주둔
▁62
▁칭하
ation
▁조절
▁코파
▁신인
▁레오
▁1967
▁전동
▁이중
드시
▁레스
▁큐
▁기호
▁선전
▁정기
▁막부
▁흉
▁화재
타르
▁서원
▁처형
카이도
▁국무
▁로켓
▁출간
▁등지
▁r
▁수리
페라
▁호수
크스
▁이승만
로그
천시
▁57
▁광장
▁실수
▁황금
▁남서
▁방지
▁증상
▁기법
▁이시
▁힘들
▁동작
▁어떠
▁취소
▁오스만
▁루트
▁카메라
▁왕자
▁지급
▁흑인
▁연안
▁동성
▁앵
▁선보이
▁생존
▁You
▁장르
▁콘스탄
라드
브리
▁개조
▁서구
▁예비
▁ㄴㅡㄴㄱㅏ
▁현지
▁Ch
▁롱
포르
▁히트
▁위상
▁늦
▁고지
▁좌우
▁반드시
▁농구
▁기체
▁여단
아나
▁희망
▁전주
▁임진
▁고치
▁진주
▁천연
▁공정
▁제대로
▁크리
▁일본군
▁맞서
▁무덤
▁181
▁터널
▁톱
▁노리
▁동아
▁도전
▁전면
▁분명
▁싸움
▁코르
▁맞이
▁파악
방송
▁ㅇㅡㄹㅕ
▁둘째
▁스탠
▁전형
▁1966
▁특이
▁압력
nd
▁묵
▁이온
▁%,
▁녹색
▁흘
▁66
라이언
▁독특
▁그레이
▁글자
▁미국인
▁독립운동
▁경로
▁리처
▁바둑
▁매일
▁법정
▁노벨
▁엄청
이치
▁드물
▁꺾
▁해리
▁1965
▁방정식
▁돌리
▁에르
▁KBO
▁목소리
▁68
▁부사
▁타임
▁183
티브
▁아리
▁유기
▁물체
▁성향
▁인지
더스
▁신뢰
▁체코
▁덧
▁지리
▁개신
▁가시
▁동기
▁61
▁클레
▁어디
▁알렉산드
▁우려
▁일식
▁분해
▁묶
▁처벌
▁밥
치아
ST
베스
에이
▁간행
▁일찍
▁퀸
▁유행
▁김일
▁타격
르타
▁찰스
▁분할
▁홋
▁방해
▁실질
▁화산
▁완료
▁추구
▁풍부
▁웅
▁내전
▁나들
바라
▁사립
▁손자
▁범주
▁나들목
질랜드
▁찌
▁평등
▁뉴질랜드
▁순환
▁아파트
▁아동
▁1961
▁삽
▁대개
▁복지
먼트
▁별명
▁희생
▁갈색
▁마르크
▁빼앗
▁플래
ER
▁비평
▁오프
▁800
art
▁부진
▁흰
▁곱
▁최다
▁마침내
▁가까
▁분기
ice
▁리가
▁시조
▁집권
▁파르
▁가상
▁600
▁점점
▁전원
▁창원
▁한정
▁시드
▁엄청나
▁사냥
▁86
▁첼
▁기둥
▁모형
▁구현
ON
▁대법
▁한계
▁판사
▁120
▁근본
▁완공
▁IS
▁벡터
유럽
▁테이
▁메리
다르
텐츠
▁훗
▁바치
▁부하
▁중기
▁명확
▁ㅇㅡㄴㅣ
▁웨이
▁사임
투스
▁프린
▁스토리
▁의지
▁충격
▁확산
▁일본인
▁교향
▁날개
▁분위
▁들어서
est
▁오페라
틀러
▁무게
피스
▁사원
은행
▁출범
▁사형
▁1919
▁대공
▁물리학
▁단독
ia
▁사마
▁re
▁호주
▁레인
▁캔
▁닛
디션
▁마법
▁명나라
▁뚜
▁상위
▁이자
▁드러내
▁가나
▁통산
▁알파
▁제이
▁적절
ap
▁렀
▁훌
▁의혹
▁연구원
▁98
TV
▁편찬
▁악화
▁서명
▁1944
▁모토
▁영웅
▁의심
▁당초
▁유치
▁조종
▁굽
세우
사스
나가
▁넓이
▁인접
▁무시
▁문명
▁키우
▁발굴
ak
라이나
▁도쿠
▁인증
▁회담
▁포인트
▁샘
▁모임
▁연간
▁추천
▁함락
▁곽
▁저술
▁사실상
▁쏘
▁생겨나
사자
▁자극
▁광복
▁각지
▁카라
▁접촉
▁개입
▁징역
▁동서
▁고속도로
▁기리
▁득표
▁프리미어
▁포항
▁1941
▁63
▁홍보
아보
▁독일군
▁사정
▁진정
▁순수
▁순간
우리
▁세르비아
▁그때
▁골든
▁드라이
연히
▁95
▁악기
▁기온
AR
▁멘
▁기기
▁올해
▁루스
▁개막
▁탐사
▁뮤지
▁오랫
▁구원
▁74
▁여론
▁학살
▁공로
▁DNA
▁등판
▁임기
민주
숭이
▁바위
버그
▁시카고
▁59
▁언제
▁경전
▁꼽
▁성분
▁178
▁행렬
학생
▁한국인
믹스
▁이닝
▁팽
▁Lo
▁변수
▁락
▁그라
▁추산
무부
▁수석
▁실현
▁앤드
▁태도
▁백성
▁예전
ct
▁닉
일리
▁공헌
▁입법
▁보고서
대부
▁네이
▁자전
▁확률
▁훗날
▁오랫동안
▁아티
▁양쪽
▁스마트
▁혼합
▁줄어들
▁감시
▁페르시아
▁춤
▁심사
▁튜
▁1958
▁프로그래
▁미쓰
▁방위
▁매장
▁IC
▁균형
ul
▁뱅
▁특별시
러리
리히
▁1947
▁왕실
▁에드워드
▁피터
▁리처드
▁출력
▁160
▁to
▁침략
▁82
▁영지
코스
▁개신교
▁원형
▁커뮤
▁;/
ㅡㅁ
▁신부
▁조별
▁줄기
▁대량
▁다케
▁저녁
▁76
▁경남
▁분위기
▁단편
▁1956
▁시사
▁멀리
▁안토
▁프라이
이너
▁승객
▁72
▁여왕
▁팔리
▁텍사스
▁랜드
▁승부
▁그래픽
▁ㅇㅔㅅㅓㅂㅜㅌㅓ
▁SS
▁제사
▁이라크
▁권위
▁고르
▁발발
▁무사
▁대선
▁미야
▁가와
▁아이돌
▁기울
▁타자
▁흐름
▁안동
▁커뮤니
▁ㄲ
ie
▁재건
▁작위
▁동명
▁마무
▁프랑크
▁점수
▁바깥
▁확립
▁교구
▁복원
▁데스
▁앉
리노
▁77
▁참고
▁석유
▁일상
▁입력
▁과학자
▁비치
▁1939
▁테스트
▁섞
▁원수
▁긍
▁잠수
▁67
▁축구단
메리칸
레나
▁폭탄
▁Th
▁리버
▁수익
▁시상
▁침입
▁민중
▁어깨
▁겹
▁도요
▁비상
▁복수
▁포켓
▁타워
▁당국
ud
▁신자
▁복음
▁기소
▁병합
▁일시
▁사자
▁AFC
▁브라운
▁자식
▁한글
일스
▁시마
▁재배
▁주최
ly
▁더블
레옹
▁본질
▁혁신
og
▁부지
▁다운
▁도모
▁대왕
메이
▁신고
▁정수
▁연예
마르
▁빅토
▁심지
▁가공
▁계층
▁보물
▁나폴레옹
▁덜
▁85
▁대성
▁동양
에른
ist
▁가량
▁사제
▁지형
▁내셔널
▁끼치
▁1954
th
▁공중
▁가담
▁평안
▁암호
▁창작
이센
▁힌
▁파워
▁훈장
마니아
▁ㄴㅔ
▁빌보드
레인
▁국기
▁거듭
▁우라
▁깃
▁인쇄
▁구글
▁폐쇄
▁후계
▁쌀
▁그렇게
왜란
▁노출
▁임진왜란
▁산화
아티아
▁크로아티아
AS
▁고기
▁참모
▁평론
▁움직임
ight
▁1952
▁총회
▁들이
▁가설
▁급제
▁비서
▁탱
▁력
▁세리
아지
▁다소
▁보살
▁73
▁가이
▁실력
▁아테네
▁고통
▁전신
▁조조
▁오가
▁발음
▁바닥
▁박정희
▁대지
▁채우
▁후속
▁스타디
▁동방
조합
▁보상
▁ㅇㅜ
▁오카
▁라스
▁람
▁96
▁상관
느리
▁따로
▁타운
▁*
▁탈퇴
아하
▁81
▁뮤지컬
필더
▁뷰
▁수도원
▁절반
▁행복
▁미드필더
▁무한
▁그만
▁셔
바로
▁Al
AT
▁국정
▁비례
▁뤼
▁장남
▁인용
▁78
▁청주
▁개설
▁로봇
▁김대
▁피해자
시오
▁재학
▁화이트
▁좋아하
▁도덕
▁센트
▁가까이
▁전투기
▁ᆯㅈㅣ
▁안드로
▁심장
▁이혼
▁소득
▁화장
▁젠
▁김성
▁하인
▁뮌
▁중력
▁전남
▁불만
▁아트
너스
▁전직
▁손상
▁여섯
▁천안
체스터
의정
▁바이에른
▁보르
타이
▁살리
▁산소
▁지향
▁처하
▁202
▁NH
▁지사
▁1959
▁국군
▁생물학
▁포스트
하여
▁177
▁교리
▁붓
▁빌딩
▁레알
▁블라
ess
▁질환
▁주력
▁윗
▁당나라
▁사무소
▁Li
▁백만
자치
BA
▁작동
▁문신
인물
▁ㄴㅡㄴㄷㅏㄴㅡㄴ
토스
▁검토
▁상역
▁콘스탄티
▁녀
▁인생
▁71
▁포스
▁부담
▁관여
▁와이
▁황후
직자
▁91
▁AT
▁패션
▁피부
▁화합
▁사우스
▁기상
▁마무리
▁총장
▁DV
▁호소
▁선박
클리
▁ㄹㅣㅇ
▁메시지
▁일컫
▁신사
▁유통
세포
▁결론
▁;,
▁상실
▁가마
▁사유
▁액션
▁승려
▁설득
▁아웃
▁1942
▁하원
▁가슴
가락
▁골드
▁의대
쿠스
스트라
▁약물
▁개방
▁심지어
▁역학
▁혼인
▁오직
▁프로이센
▁결의
▁페이지
▁수요
▁처분
▁내려오
▁분노
▁글로벌
▁ㅇㅕㅇㅑ
▁햄
▁동해
▁조카
▁모바
▁모터
▁좌상
▁규제
▁김일성
▁연습
▁적합
▁디스크
▁가요
▁매체
▁위키
▁넘어가
▁그린
▁87
미야
▁이명
IV
ub
▁왕비
▁구매
▁진단
▁1943
▁st
▁선임
▁심판
▁159
▁ㅎ
▁통화
▁위대
▁부산광역시
▁개성
▁1955
▁홋카이도
가니
▁말레이시아
▁야스
▁원년
드리히
▁서식지
▁잭슨
▁발탁
▁억제
▁지나가
▁스타디움
IA
▁1953
▁소멸
▁쿠데
▁\
▁드래프트
▁퀴
▁일기
▁예방
▁프랭
▁테크
▁주석
▁왕후
▁크루
▁1936
▁긍정
▁무료
히로
▁싱가
▁싱가포르
▁음악가
미르
▁AP
▁어려움
▁톨
ab
▁84
▁사도
▁프리드리히
▁필드
▁700
▁일체
▁사격
▁사무실
▁일본어
▁자이언
▁진영
▁나쁘
▁폭격
▁유형문화재
▁카스
▁티베
▁힙
▁태조
▁여우
▁굳
▁즉시
▁유고
▁조지아
▁루마니아
▁궁전
▁이와
▁정차
▁모바일
▁대책
▁타인
▁리드
▁불안
▁인원
▁천주교
데이
▁쾌
▁디아
▁세자
▁쿠데타
▁1910
▁기동
주군
유산
▁창당
▁시나
▁후쿠오카
버리
▁크로스
ine
▁김종
▁전동차
▁깊이
▁전북
▁히틀러
▁스티븐
▁막대
▁사라
▁연설
▁대체로
▁Re
▁ㅈㅏㄴㅡㄴ
▁닫
▁에서
▁몰리
▁학사
▁개칭
▁딜
▁상속
▁오이
올리
▁구입
▁전당
구리
▁97
란색
▁남아프리카
▁1957
▁챔피언십
▁아메리칸
▁강릉
▁진격
▁딘
▁원주민
▁알고리
우치
달리
ㅜㄹㅗㄱ
▁요금
구치
▁독재
▁본명
베르트
ew
▁자국
▁조상
▁콘텐츠
독부
▁발명
▁추방
▁타이거
▁초점
▁대우
▁필수
▁휴대
머리
▁늘리
▁생태
▁스미스
▁광범
▁부동
▁검색
▁1914
▁흔하
▁수호
▁메이지
원경
▁69
▁음성
▁전송
▁세트
▁동북
▁사과
▁담기
▁느낌
▁이즈
▁테마
미니
▁사기
▁알고리즘
▁기다리
▁92
▁덩
▁렀다
ue
▁="
▁이마
▁급격
▁천만
▁주소
▁인디언
▁포켓몬
시스코
▁신장
▁도마
▁수업
▁토론토
▁알바
▁신도
다랗
▁빚
▁업적
▁후임
▁클로
▁1900
▁1938
▁불가리아
▁미리
▁최우
▁림
▁코리아
▁핫
▁세부
▁랑
▁연락
▁잡히
▁완벽
▁이내
▁섹
▁서술
래프트
▁끌어
▁상인
▁똑
▁부위
▁펑
▁미술관
지사
▁게다가
▁전술
▁석사
EC
▁스탈
▁화려
▁스프링
자키
▁고급
▁유효
▁다스리
▁주니어
▁101
▁배포
비히
▁라이프
▁고시
▁ㄹㅕㅁㅕㄴ
▁ㄲㅔ
▁노트
▁바르셀
▁닥터
▁바르셀로나
▁언덕
▁재즈
▁늑
▁해발
▁HD
총리
▁영양
▁오키
다니
▁숨기
▁01
▁안드
▁물건
▁라틴어
▁립
로지
▁연평
▁1918
▁암컷
리그
▁선형
▁각국
▁윙
▁소비자
▁마르크스
▁소형
▁마스터
산화
▁개량
▁DVD
▁션
▁웰
▁랩
▁등장인물
▁질문
총독부
▁조선총독부
▁ㄷㅡㅅㅇㅣ
▁풋
▁1951
▁실천
▁유산
▁내놓
▁일련
▁저자
▁백인
▁손실
▁시내버스
▁상주
▁1932
제국
▁고위
▁언스
BM
▁집회
▁운항
▁화석
▁사퇴
▁on
▁반사
여금
▁게르
▁{
▁계곡
▁추기
▁1937
▁알레
▁감각
▁국적
▁정교회
▁메달
▁갑자기
무늬
▁경비
▁블록
▁영주
▁미스
▁ㄴㅡㄴㅑ
▁미시
▁번지
▁주체
▁개별
▁짝
▁프랑스군
▁말리
▁격파
▁만든
▁설치류
▁선포
▁진학
▁차단
가시
▁흰색
민주당
▁상수
▁대만
▁의문
▁마틴
▁용인
▁첩
▁고객
▁부친
▁방언
▁둥글
▁엘리자
필드
▁자본주의
펙트
▁89
▁광범위
▁1935
▁환승
▁이웃
▁올스타
ect
▁실업
▁182
▁넥
▁우크라
▁재개
▁거짓
▁찬성
▁후계자
▁분교
▁타율
▁칭호
▁화제
▁ㄱㅗㄴ
▁이스트
▁비스
▁비행기
▁93
▁사찰
▁크라
▁트레이드
사전
▁뮌헨
바키아
▁로렌
▁당원
▁중추
▁경제학
▁수치
ㅅㅜㄹㅗㄱ
▁Be
▁퀘
▁구상
▁베리
▁항의
▁추기경
동생
▁되돌
브라
▁기부
▁고양이
▁싱어
▁커버
▁데리
▁항공사
▁탄압
▁면역
▁사양
▁수백
▁파티
▁질서
▁발간
▁꾸준
▁체험
▁촉진
▁증언
▁허락
▁회로
▁겉
▁분화
▁최후
▁자산
▁클리
▁반지
▁남녀
▁법학
▁이념
▁웃
▁화폐
▁목성
▁푸르
▁마주
▁양산
▁구멍
▁쿨
▁곡선
▁마루
▁공신
런스
▁소문
▁시트
센트
▁OS
▁영원
▁아티스트
▁성남
다수
저스
▁소화
▁클래식
ore
슈타인
▁덧붙이
▁ㅇㅓㅇㅛ
▁시모
▁습격
▁대법원
▁94
▁FM
▁1933
▁가속
▁극단
▁소위
▁물고기
▁개척
▁내세우
▁잠수함
▁보편
▁탕
▁티베트
리우스
▁강남
▁소집
▁툴
▁수십
▁축소
IN
our
▁지수
▁탄핵
▁쿼
리나
▁1928
▁선호
▁아오
▁운송
▁펴
▁유배
▁CP
돼지
▁군부
도사
▁원시
▁동화
▁경사
▁영구
▁동경
▁프랑스어
▁팩
▁태종
▁혼자
▁1924
▁전적
▁조항
▁하여금
▁핸
ell
▁시신
▁료
▁약화
▁충분히
▁어둡
▁콜로
▁ㅈㅗ
▁상대식
공사
▁누스
▁지불
▁칠레
▁무너지
프레
▁국토
▁대로
▁용도
▁주일
려가
▁79
▁개명
른바
▁간부
▁틈
ㅊㅏ
▁당신
▁ㅈㅗㅊㅏ
▁세월
▁익스
▁정면
▁그리하여
▁멈
▁뼈
▁사막
▁조기
▁걷
▁댄스
▁이행
▁전망
▁직무
▁김해
▁메트로
▁발레
▁이른바
닉스
▁재능
들리
▁09
벤트
▁토대
▁따오
▁정통
▁콜롬
▁회색
▁펀
▁110
▁지나치
▁개장
▁프로그래밍
▁형상
슬링
▁입대
사이
▁실내
▁대칭
▁토마스
end
▁ㅎㅏ
▁러브
▁종사
▁열매
▁액체
▁의정부
▁이재
티스
▁합동
▁동굴
▁존스
▁브로
▁구름
▁파키스탄
▁04
▁반하
▁토착
▁오버
▁진실
코프
▁가난
▁지중
▁쟁
▁170
▁법안
▁손해
▁매치
▁단순히
▁판정
ill
▁초상
▁원자력
▁무용
어도
베리아
ain
▁총재
▁수컷
▁해제
▁안토니
ID
▁플로리
▁08
▁베네치아
▁뻗
과이
▁고교
▁정류
▁하와
▁자르
▁흔적
▁퓨
▁대승
▁자랑
▁Co
▁ㅓㅆ
▁재생
▁틴
테스
▁무력
▁개찰
ㅋㅡㅁ
▁당대
▁부리
▁세로
▁유아
ers
▁멀티
▁부속
▁엄격
▁스카이
▁안티
▁늑대
▁우에
▁프로토
▁룸
▁전제
▁경북
▁스톤
▁사이드
▁인민군
▁83
▁경고
▁주문
▁안쪽
▁오케
▁부서
▁서방
▁불러
▁로즈
▁힙합
▁장로
▁배열
▁비잔
▁오류
▁지표
페이스
▁다큐
▁일단
▁벼슬
▁주재
데르
▁강도
▁함경
▁혈액
▁국방부
▁레닌
ard
▁쌓이
▁분산
▁메탈
▁양국
▁평면
▁페리
▁경찰서
▁스크린
▁맡기
▁할아버지
▁한성
▁호흡
고속
▁대가
▁아프가니
▁강요
어로
▁마감
▁성서
▁중동
▁선로
▁1934
조선
▁대원
▁편의
▁동지
▁메르
▁이벤트
▁추적
▁ㅁㅏㄴㅋㅡㅁ
▁MS
▁거스
AN
▁주자
야스
▁De
▁철거
▁요코하마
▁빵
▁중지
▁대사관
▁닐
▁탓
▁자매
키퍼
▁농장
▁포드
▁찾아가
▁입구
▁골키퍼
유키
▁구사
▁느리
▁보스턴
▁놀이
▁판타
▁히어로
세대
▁근육
▁북미
▁장례
▁투스
▁스케이
사르
▁ㄱㅣㅇㅔ
▁노동당
▁스탈린
▁떼
▁광산
▁동구
▁거느리
레오
워하
▁봉기
아르
▁멈추
▁유키
▁쿠바
▁본토
▁현존
▁Me
▁130
▁대동
▁정확히
▁토머스
▁가볍
▁글리
▁동메달
▁정조
드라
즈니
▁카리
베르크
▁나이트
공업
▁뱀
▁거점
▁은메달
▁도쿠가와
▁밸
제르
▁코어
▁140
▁젤
▁남극
▁항해
▁아프가니스탄
▁접속
ne
▁식량
▁선물
▁부처
▁사카
▁시계
▁레지
▁야당
▁사망자
▁철학자
▁페이스
▁복사
▁중계
▁돔
하이
▁Sh
▁내려가
▁알렉산더
▁테르
▁새끼
▁김구
▁필립
▁대다수
▁초청
▁발전소
레아
보내
▁중성
▁모자
▁칼리지
▁재판소
▁맨체스터
위대
성기
▁곤충
▁농촌
▁안내
▁매주
▁관계자
돌프
▁독점
▁특별히
▁건너가
안군
▁화합물
▁증권
므로
▁th
OR
▁구로
▁로맨
▁새벽
▁역전
▁교향곡
크래프트
▁1931
▁세금
▁토너
▁르네
▁훼
▁구리
▁위안
▁유력
▁재임
▁겸하
▁풍속
▁오염
▁강등
▁커다랗
▁생애
▁휘하
▁체육관
▁타카
▁부호
▁아비
▁일곱
▁파울
베리
▁간격
▁존슨
▁펄
▁그러므로
▁금강
▁멸종
▁부드
▁그리스어
▁히로시마
▁종전
▁이정
▁계수
▁석방
▁물리치
▁목포
▁클래스
▁명시
▁진동
▁부품
▁달라지
▁cod
▁기병
▁모노
▁ㄷㅜ
▁기르
▁대변
▁비중
all
▁뚜렷
▁코너
게이
▁훌륭
▁자유주의
▁감옥
▁관객
▁미카
▁타원
▁무늬
▁타점
▁합리
▁ST
▁버지
레이크
▁찾아오
▁1921
▁하사
▁원조
▁176
▁An
AM
나르
▁해협
▁꾼
▁킬로
▁좌파
▁도망치
밀리
▁250
▁숙종
▁아이스
▁심리학
▁그래프
▁가구
▁기생
▁장점
느님
▁지휘관
▁마그
▁지칭
▁캠프
▁하버
ang
▁교도
▁수비수
▁하느님
▁연호
▁유발
▁공룡
▁1929
▁코트
널드
▁박근
▁후퇴
▁윤리
▁필라
▁스트라이
▁트랜스
▁토너먼트
▁특허
▁동성애
▁부드럽
둥이
▁닮
수량
▁소요
▁조문
▁폭풍
▁유대인
▁비즈
▁목숨
▁빗
▁강전
▁아틀
▁사관
▁스테이션
▁무겁
▁문재
▁운동가
▁단장
▁도메
▁수반
▁일환
▁집필
▁착용
▁올라오
▁성명
▁공세
▁대결
▁캡
▁05
▁칙
▁덕분
▁비틀
▁키스
▁y
▁첫째
▁기갑
시스트
▁극복
▁자이언츠
▁갤럭
▁다다
▁약탈
▁1925
▁라트
▁부작
▁마라
▁1923
투아
▁연상
▁김대중
산물
▁인터페이스
▁쯤
▁동반
▁살아
▁연평균
▁평론가
▁롬
▁첸
슬리
ss
미아
▁입사
▁삼각
▁조화
▁건담
▁공국
▁지부
▁잠재
▁매니
▁북아메리카
▁ㄴㅡㄴㄷㅏㄱㅗ
▁도호
▁갤럭시
▁성직자
▁협약
▁고고
▁과일
▁플로리다
무게
▁몸무게
▁추대
마이
▁가끔
▁압축
▁AC
▁요원
▁원장
▁틱
▁섬유
▁장갑
타카
▁의석
▁샤를
▁연계
▁07
▁딱
▁관리자
클린
▁북서쪽
▁대한제국
ity
▁발렌
▁며
▁불화
▁시게
▁램
베이스
▁추락
▁웨일스
▁남아메리카
▁유성
▁임신
▁단선
▁유비
▁얀
카스
▁영감
▁이수
▁우드
▁ㅇㅛ
▁캘리포니아주
▁ㅅㅠ
▁모험
▁사당
▁선교사
대문
▁발휘
▁영혼
추어
▁망원경
▁근로
▁미분
▁트레이
▁중립
▁카페
▁타입
▁페루
▁살아남
▁갱
키스
▁ㅋㅜ
▁북극
▁주사
▁161
▁박스
▁하와이
▁진흥
▁고분
▁필름
▁리스트
▁SC
▁삭제
▁수직
▁진술
▁다이묘
▁똑같
▁서인
▁종로
▁모로
▁일자
▁향토
▁지역구
▁민속
▁기관차
▁레벨
▁사거리
▁동인
▁채권
▁꼽히
▁영광
▁준우
▁카자
ff
▁그랜드
▁도마뱀
▁빅토리아
▁압도
▁codice
▁결심
▁제약
ㅅㅣ
▁1922
▁복구
▁EP
▁모음
▁삼각형
▁돌파
▁청동
▁프로세서
즈키
행성
▁변신
▁유가
▁교과
▁박근혜
▁파운드
▁홀로
▁문인
▁175
▁이조
▁엽
▁성씨
▁청하
▁레이블
▁de
▁칼리
▁수장
▁철저
▁명사
▁주류
▁중시
▁곰
▁화가
▁부탁
일본
▁바오
▁윤치
▁평생
▁루트비히
▁버지니아
▁ㅇㅣㄹㅏㄴ
▁틸
▁무릎
▁중구
▁피트
애나
▁때로
▁규슈
▁모래
▁프레임
오리
▁서적
▁My
▁부유
▁인천광역시
▁가톨릭교회
▁엘리자베스
▁공격수
▁각자
▁없애
▁투구
▁고안
▁부수
▁유역
▁1912
▁둔
▁여인
▁이날
▁토벌
▁표지
▁황태
▁직선
▁직위
▁최상
▁트럼
▁리치
▁교차로
▁설비
▁아과
▁지연
프란
▁유용
태우
▁음모
▁자치구
양군
▁왕가
▁파트너
메니아
▁164
▁국민당
▁수상자
▁글씨
니즘
▁구미
▁KT
▁동일본
눅스
부사
▁문법
▁아기
▁네이션
▁Love
▁사토
▁포유
ㅈㅓ
▁무산
▁크레
▁왈
▁Go
▁봉사
▁퍼시
▁노무
▁도어
▁벨라
▁블라디
ong
▁리눅스
▁""
타운
▁소설가
▁1908
▁영조
▁간섭
▁납치
멘트
▁아르메니아
라이터
▁목조
▁지중해
▁1906
야수
▁노비
▁모니
▁보통학교
▁경유
▁무인
▁릭
▁상처
▁인력
up
▁랭킹
▁돼지
▁어워드
▁아마추어
▁06
보살
▁건축물
▁패턴
▁사촌
▁자책
▁베타
▁장사
▁태자
▁토르
▁MV
▁마카
▁침해
▁남동쪽
▁SM
▁플레
▁교역
▁스케이팅
▁연소
▁1917
ip
▁연령
▁이종
멘터리
▁히가시
아리
▁베토
▁정자
▁준우승
▁다양체
사관
▁전향
▁제주도
▁호조
▁크림
슬로
▁1927
▁JR
▁과도
도니아
▁배상
▁에스파
▁적응
▁커피
IS
ld
▁삽입
▁모듈
마치
▁앨런
▁이토
▁통로
▁안양
▁03
▁명문
▁북동쪽
▁매각
▁적어도
▁조명
ant
▁우익
▁굿
▁호르
▁배급
▁스와
▁육성
▁BBC
▁시상식
▁과장
▁몬테
▁수지
▁전승
▁탐험
▁1907
OM
▁싫
다드
▁우크라이나
▁출현
▁석조
▁럭
▁대행
▁보좌
▁창간
▁1926
영상
▁라우
▁쇠퇴
▁시아
▁인자
▁전작
▁외계
▁흙
스팅
▁유인
▁정서
▁옹호
▁리아
▁옵
▁밀라노
▁산악
▁시집
▁항목
ED
▁산타
▁다큐멘터리
▁노인
▁앱
▁폐기
▁부동산
▁SN
▁색상
▁별로
▁체인
▁상하이
▁협의회
▁표본
몬드
▁대교
▁문하
▁의병
▁슐
▁단행
▁커지
▁송라이터
생물
▁왕립
av
▁관중
▁자문
이즈
▁168
▁탑승
▁포크
▁렉
▁험
스토
▁사신
▁종족
▁해설
페이지
▁자전거
▁He
▁지름
티움
▁수감
▁동아시아
▁무선
▁묘지
▁세조
▁유입
슬라
▁비전
▁호남
다이라
▁연고지
▁패러
▁PD
▁머물
▁상영
▁ㅁㅏㅈㅓ
▁꺼
ind
▁디즈니
▁아가
▁NHK
▁베토벤
런트
▁내장
▁꾸미
▁노조
▁스틸
▁1905
▁놀라
▁동사
로프
▁실점
▁아무런
튜브
▁사료
▁166
텐도
▁닌텐도
▁레이다
se
▁콩고
▁하천
▁162
▁기종
▁선제
▁좌익
ame
▁||
▁시에
▁에릭
▁오리지
▁최우수
AC
▁급속
▁합계
▁룩
▁겨우
▁진지
▁산지
▁안보
▁제후
▁문화유산
▁홈페이지
▁다가
▁연금
▁엄마
▁유튜브
▁물려
▁정사
▁기름
▁독일어
▁민족주의
세스
▁Sp
▁버그
브스
▁아울
▁151
▁비평가
▁비단
▁기하학
▁꾸준히
▁헤드
▁유신
▁묻히
▁원로
페인
총장
▁시외
▁예외
▁데이터베이스
▁주말
▁가쓰
▁대조
▁역과
▁참조
▁엉
▁사이클
ry
려나
ES
▁바이올
▁ㄴㄷㅏㄱㅗ
▁스승
▁우르
▁158
▁조선인
나카
무네
▁수명
▁증기
▁정류장
▁요미
▁트럭
▁드래곤
▁색깔
플레이
▁스페셜
▁품질
▁목격
▁상소
▁크리스토
지마
어트
ith
▁지바
▁아크
▁원산
▁리듬
▁모집
▁수천
▁커뮤니티
▁점성
▁나폴리
▁도리
▁곧바로
스케
ort
▁광역
▁선진
▁바라보
▁뚫
▁마일
▁셋째
▁주거
▁칩
▁문과
▁유고슬
▁유고슬라비아
▁기압
▁반환
▁주의자
▁자바
▁남서쪽
▁02
▁리얼
▁악장
▁라마
▁신비
▁흥미
엘라
▁대안
▁야생
▁주파
스티벌
▁할리
▁라이온
▁가미
▁옛날
▁플루
▁라이벌
▁수수
▁조르
▁레이스
▁페스티벌
잡히
▁향년
▁무관
▁빨리
▁입문
▁브라이언
ok
▁유닛
▁협의
▁사리
▁이오
▁이리
▁특급
▁베이스볼
▁구마
▁기점
▁토니
▁방안
▁인텔
▁도심
▁운명
▁운반
프란시스코
▁동치
▁십자군
▁안드로이드
▁재무
▁주한
▁샌프란시스코
▁입증
▁스피드
▁소니
▁사직
▁되찾
▁일행
▁기념물
▁단층
▁쿠르
▁디자이너
▁콜롬비아
▁오디션
▁한나라
▁미네
프스
▁적색
회의
▁사면
▁서북
▁한나라당
▁동영상
▁와카
해군
▁기용
▁렌즈
▁묘소
▁오리지널
▁마스
▁부시
▁1904
▁석탑
▁프랜
▁미만
▁저지르
▁직장
▁출산
▁출판사
▁연주자
▁마케도니아
▁케이블
▁날리
▁배제
▁정교
▁지휘자
▁알라
▁인치
▁개수
▁분배
▁신임
▁평소
▁복제
▁서경
▁왕족
▁진도
▁초래
▁템
루살
쳐지
▁관장
▁마쓰다이라
▁165
▁Un
▁예술가
루살렘
▁교전
▁급행
▁상무
▁파생
▁아서
▁의거
▁센트럴
▁챌
프라
▁사로
▁부패
▁154
▁스테이지
▁예언
▁기재
▁판타지
리케이션
▁WW
▁용기
▁긴급
▁계단
▁내륙
▁자사
▁동전
▁폭스
▁무신
▁비즈니스
▁콘스탄티노
ob
▁수면
ord
▁단종
▁오타
▁파나
▁당사자
▁Se
▁Wh
▁받침
▁합작
▁모순
qu
▁신하
▁좌석
▁여동생
터스
▁가게
▁사르
▁입히
▁권고
▁트레
▁156
▁겹치
▁163
▁도메인
문학
▁용산
모니
▁연애
▁167
▁사범
▁예루살렘
▁SF
▁링크
▁항일
▁스펙트
가스
▁신용
디스
우옌
▁무슬
▁DJ
▁압박
ate
▁리투아
▁리투아니아
▁스쿨
▁그랑
▁진상
▁정계
▁바이올린
▁크리스티
▁상임
▁여신
▁호환
▁타마
▁스펙트럼
식물
▁가득
PS
교육
▁끼리
▁900
▁무슬림
▁회원국
경기
▁AM
▁충남
▁아인
▁스마트폰
카르
페이
려오
▁밀접
▁자회사
▁발효
▁분지
▁어항
▁조류
▁챌린
▁한양
▁혜성
▁깔
▁니스
▁이지
▁우지
▁전염
껍질
▁비로
▁선사
지르
▁장편
▁서울시
▁번식
▁샹
▁게시
▁대단
▁미얀
▁바그
▁착륙
▁시달리
▁지주
▁씌
▁조국
길이
▁무라
▁오다
▁포맷
▁피렌
▁훼손
▁비잔티움
IC
▁팅
▁교섭
▁주립
▁지장
▁친정
커스
킨스
▁우루
▁일요일
▁고립
▁ㄹㅏㄱ
▁노무현
▁끄
▁애국
▁얼음
▁서브
랑이
▁UN
▁피스
▁진나라
▁식사
▁예능
▁오케스트라
▁ㅇㅓㅆㅇㅓㅆ
▁쇼군
▁농도
▁ᆯㅅㅜㄹㅗㄱ
잡이
▁요크
럼비아
▁아베
▁융합
▁최신
▁139
▁옌
▁AS
▁기아
예프
▁이명박
▁낱
▁구장
▁행정부
▁유하
▁과제
▁대령
▁참판
▁하트
▁알바니아
▁바티
▁아이디
부인
▁와중
ET
▁성종
▁시체
▁하드웨어
▁브라우
▁부흥
▁개발자
▁월간
▁차관
▁쿠스
▁145
▁주머니
▁킬로미터
▁기타리스트
▁강연
▁소나
▁용량
▁디비전
▁마리오
ast
▁뜨겁
▁선두
▁전이
로디
▁공과
▁발족
▁번주
▁지질
▁ㄱㅗㅅㅓ
▁투명
▁부통령
DP
▁파동
▁스트리트
▁학파
▁몸길이
▁피렌체
▁부자
▁임상
▁미나미
▁해인
▁보전
▁위주
▁관광객
▁야기
▁아세
▁페어
▁중국어
▁응우옌
수아
데이트
▁부도
▁규명
▁김동
▁저기
▁착수
▁고조
▁충성
▁잊
▁MVP
▁업데이트
▁거인
▁배정
▁전지
▁관찰사
▁마케팅
▁사사
▁전임
▁성공회
▁아이디어
▁간접
▁이에
레이터
if
▁1896
랑크
▁디오
▁마산
▁정벌
▁HIV
▁거스르
▁피에르
▁굉
▁넬
▁DS
▁사바
▁제네
▁측근
▁공용
트니
▁전류
▁하노
ack
▁형법
ive
▁맥스
▁공전
▁전두
▁점유
▁귀환
▁권유
▁로빈
▁완화
▁스콧
ure
어내
▁여덟
▁출구
▁짙
▁IP
▁경선
▁중도
IT
▁보드
▁차체
트롤
▁제의
란트
▁중독
▁젖
▁친선
▁게이트
▁수학자
▁둘러싸이
▁연수
▁스타크래프트
악기
▁성벽
▁애플리케이션
▁요미우리
▁샬
▁턴
▁히라
▁174
균관
▁152
운서
▁미하
▁옐
▁트윈
리티
ock
▁서열
▁아나운서
루미
▁마운
▁수산
▁우즈
▁살아가
▁5000
iv
▁플라스
▁관습
▁소송법
▁오렌
▁시드니
▁테일러
▁구동
▁세례
▁지각
주곡
▁검증
▁노동조합
▁메디
▁존경
▁서일본
▁석탄
▁정찰
▁조용
▁피난
▁뱅크
▁쇼핑
결승
▁157
▁Ar
토미
▁전문학교
▁으
▁변동
▁사명
▁뷔
▁장성
▁련
▁밀양
츠키
▁규격
▁금성
▁사인
▁실용
ck
▁전장
▁행진
▁꼴
▁곁
▁번뇌
▁전진
▁한화
▁프로세스
▁인과
▁수신
▁좌표
▁청와
▁한강
문관
▁루수
▁하버드
▁고개
▁디젤
▁준공
▁얼마나
▁신칸
▁빌헬
▁테오
▁미스터
▁책봉
▁청와대
가루
▁백신
▁카나
▁기울이
▁염색
▁자율
▁ㅈㅏㅁㅕㄴ
사기
▁급진
폴리스
▁다이아
▁복소
▁이슈
▁해전
▁킨
▁관현
▁신전
▁여의
▁장인
▁퇴각
▁호평
▁뿔
▁가즈
▁구제
원숭이
▁취약
외선
▁회수
▁상상
▁힘쓰
▁j
포스
▁국어
▁카시
▁MP
▁메가
▁적대
▁해임
▁자손
▁할당
▁성균관
전자
▁아울러
산군
니스트
▁연구자
끄럽
▁관념
▁흥행
▁판매량
카드
▁쏟
▁105
자와
▁몰락
▁무효
▁비극
▁연루
▁제휴
▁소총
▁식당
악단
▁소금
▁통행
하르트
트랙
▁따위
▁상류
▁히스
▁125
▁지분
▁승차
▁이순
▁146
▁1500
수수
혁명
▁남양
▁박영
▁파스
▁남인
▁적히
▁천문학
▁쥬
▁서독
▁여수
▁김용
▁루터
▁악마
▁응답
▁달아나
▁1911
▁이노
▁쳐
▁강사
▁술탄
12
▁휩
▁흩
▁나미
▁윌슨
▁착공
▁저기압
▁3000
▁들리
▁에티
▁창업
▁패전
▁동남아시아
▁마찰
▁외무
▁신칸센
ime
▁두드
▁두르
▁유출
▁쇄
▁이복
▁끈
▁우정
▁153
▁문제점
▁자책점
▁민국
▁성전
고속도로
▁나열
▁원나라
메르
▁마오
▁충족
▁프로토콜
라트
▁노드
▁믿음
▁여래
▁얇
▁매출
▁소관
▁저택
▁석가
▁소닉
▁아니하
▁항공모
▁하마
one
▁고원
▁곳곳
▁사지
▁순천
▁갈라지
▁PS
▁소재지
▁Le
▁디비
▁과목
▁조언
▁청사
일드
▁일렉
▁시외버스
▁단원
▁로고
▁카트
서양
제프
▁매개
▁희극
▁배구
▁서서
▁예배
▁이이
▁강수량
▁문재인
▁유언
▁증후
▁103
▁우주선
▁내내
▁동위
▁마천
팩트
▁아즈
▁폴리스
▁중점
▁지목
▁소지
▁떠오르
▁빌헬름
▁지지자
대군
▁비아
네이
▁보잉
▁환원
▁힌두
▁ISO
▁이글
▁Pro
▁찾아보
▁카자흐
토시
▁고무
▁환상
펴보
▁회견
▁살펴보
▁미얀마
▁고베
▁중장
▁천사
▁클린
▁MC
▁주권
▁특유
델피아
▁필라델피아
▁연인
▁회계
▁개업
▁공자
▁매사
▁눈물
▁법령
▁취재
▁편곡
▁셈
▁매기
▁선원
▁오클
ML
▁시립
▁비틀즈
AP
노리
▁기장
▁포장
▁해역
▁제트
▁후자
▁참가자
기니
노프
▁성모
▁나리
즈카
▁출입구
▁굵
▁155
▁겸임
▁공인
▁각본가
어리
▁친척
▁삿
▁중종
OC
▁닭
▁별개
▁일관
▁최적
▁진리
▁근접
▁터지
▁독립운동가
▁반격
마사
▁토크
▁협동
▁각기
▁공략
▁우편
▁보충
받침
▁카타
▁버튼
▁추모
시온
▁회화
▁오렌지
▁주파수
▁사가
▁와인
▁유해
▁점프
▁정치가
te
▁밭
▁앞면
▁별자리
▁증후군
동물
소스
▁이원
▁토리
▁허브
리크
▁게재
▁상자
▁격렬
▁법무
▁위장
▁유격
▁포수
▁108
▁이어서
▁항공모함
▁패스
▁빼앗기
▁동등
▁리메
▁민영
▁성주
▁생일
▁오키나
▁Bo
▁북동부
▁두드러지
▁미소
▁태우
▁컨트롤
▁사물
▁인형
▁트라이
▁실종
▁영동
▁이바
▁가라
▁아군
▁평행
▁두산
▁Con
▁개찰구
▁오디오
▁토요일
산면
▁나고
▁대답
▁유교
▁채무
▁담배
▁민사
▁아바
▁인격
▁합법
▁베르크
▁ㅇㅏㄹㅏ
플러
▁매력
▁감지
▁일찍이
▁사우디아
▁이인
▁룰
때로
▁레전
▁지우
▁테스
▁준결승
▁금액
▁미루
▁서해
▁하우
▁승무원
▁스파이
산리
io
▁내지
▁상부
▁외곽
▁아리스
상스
▁퍼시픽
▁히데요시
▁에디
▁일족
ber
▁고체
▁야간
▁양상
▁나고야
▁건의
▁교장
▁에우
▁자발
▁하인리히
▁이영
▁입상
▁박탈
▁스터
▁아케
▁화살
▁이사장
▁전두환
▁IT
베이터
▁상대방
▁드라이브
러미
▁브래
▁전례
▁에이스
▁해운
▁때때로
▁크리스마스
▁갓
▁상장
▁세균
▁꾀
▁얘
▁호세
▁앙리
▁생명체
▁서서히
▁1909
▁교단
▁섞이
▁외국어
가타
항공
화점
▁사다
▁트럼프
퍼니
▁싸이
▁대주교
▁시청자
▁ㅈㅏㄱㅗ
▁이슬람교
▁추격
▁김영삼
▁아우구
▁만세
▁149
▁128
▁캠페인
▁궁정
▁기금
▁복장
Pa
▁톈
▁부착
▁102
▁맵
▁콜라
▁향교
▁보스니아
모어
▁홍수
▁메타
▁물자
▁명의
▁무려
▁수성
▁연도
람회
▁고발
▁그만두
▁사용자
▁시라
▁전도
▁건축가
라이트
칠리아
▁제작자
▁안장
▁운동장
구장
▁골프
▁대군
▁#
▁치세
▁가르침
▁ㅈㅏㅁㅏ
▁배틀
▁어드
▁트위
▁호칭
▁후안
▁고가
▁짜리
▁트루
▁펼쳐지
▁발원
▁정밀
▁최저
▁르네상스
▁사우디아라비아
ge
age
▁긴장
▁대외
▁주지사
▁텍스트
▁에스파냐
▁집계
▁차남
먼드
▁계절
▁남한
▁발현
트릭
▁슬라
▁직책
▁셸
라미
▁전대
iz
집합
▁쉐
백과
▁여주
▁키프
▁중재
▁중국인
▁아미타
▁ㅈㅏㅁㅏㅈㅏ
▁$
▁Bl
▁섭취
▁존중
▁사이버
▁문양
▁네이버
▁자유당
▁송나라
▁세미
▁흘러
▁ㅇㅓㄷㅏ
▁포도주
나리
▁대니
▁시오
▁팽창
▁포괄
▁ᆯㄲㅏ
▁턱
▁원자로
▁피고
▁초창
▁향후
▁고래
▁레이저
▁강경
▁다중
▁리오
AD
▁며칠
▁상세
▁룽
▁단기
▁레전드
언스
▁넓히
▁조반
▁팔레스
▁청장
▁충주
▁최소한
생활
차례
▁조리
▁뽑히
▁사절
▁수평
▁태생
▁토마
▁127
▁탐지
▁블루스
▁로프
▁보리
▁CPU
▁노란색
▁댐
▁여진
▁아미노
▁고사
▁스릴
▁손가락
▁프랭크
▁왜성
▁토스
▁그랑프리
▁경부
▁147
▁엘리베이터
▁수군
▁1915
▁갑작
▁굉장
▁단점
▁방침
▁기수
▁볼리
▁케네
▁속성
▁역명
▁명목
▁하이드
sp
서리
울리
노부
▁객관
▁무죄
수엘라
▁난민
▁메인
▁동독
▁초연
▁로맨스
▁겔
▁1913
▁딩
▁알코
▁캄보
행위
▁촉구
▁마비
▁전함
orld
▁제곱
▁추증
▁황해
▁숭배
우라
▁북구
▁주축
▁171
▁동당
▁진군
▁취지
▁유소년
▁부천
▁오키나와
라리
▁윌리엄스
▁라파
▁낙선
▁입체
▁협조
▁후일
▁이어받
▁캐스팅
▁북방
▁분광
▁심의
▁테니스
▁위키백과
ik
▁음원
▁천문학자
두르
창군
▁따뜻
▁신흥
▁김재
▁동년
▁둘레
▁침몰
▁문학상
▁상당수
▁유니폼
▁베네수엘라
▁광년
▁김수
▁투르크
▁동래
▁부과
▁창건
기지
▁마하
▁출토
▁타르
▁추상
시티
▁태수
▁강과
▁낮추
▁대포
▁옥스
▁시그
▁초창기
▁개미
▁컬러
▁닿
▁팜
▁서사
▁재미
▁창시
▁센서
명사전
자치도
▁제주특별
▁제주특별자치도
▁원고
▁원반
▁언제나
포구
▁대역
▁이민자
▁수령
▁GT
▁수렴
▁이틀
▁169
▁CE
▁병역
▁카탈
▁코프
▁탈환
▁1895
▁수동
크리트
▁스파르타
▁어업
▁디스플레이
▁나가사키
▁바흐
▁al
▁머신
▁남원
▁링컨
▁무제
▁리메이크
▁딴
평군
▁SP
▁프레스
여지
▁내주
▁울리
▁WWE
▁기습
▁아폴
▁통칭
▁141
▁총선거
▁팔레스타인
▁모스
▁ㅇㅔㄷㅏ
▁광부
박쥐
▁쓰러지
▁인재
▁아사히
▁김진
▁흩어지
포트
▁Tr
▁동력
▁법제
▁종결
▁언론인
▁대처
▁유수
▁총괄
네스코
▁135
▁나주
▁적자
MS
공신
▁국사
▁주차
▁하부
▁ㄹㅐ
▁때리
▁비문
▁찾아내
▁다운로드
벌레
▁유연
▁초상화
▁한동안
▁엔지
▁온천
▁북서부
무기
그라드
▁탤
▁섭정
▁도호쿠
▁자기장
▁걱
보기
▁풋볼
ust
자스
▁계몽
▁소실
▁수용소
석기
▁대제
▁양주
▁문화방송
▁시공
▁ㄷㅡㄴㅈㅣ
와라
▁서머
▁신세
▁이진
▁후세
▁111
ep
▁해병대
▁어스
▁효력
▁144
선거
▁정말
▁청원
▁개관
▁귀중
▁반박
▁고백
▁끊임
▁나르
▁서울대
▁번영
▁후대
▁영리
▁저명
▁차기
▁더글
▁신중
▁중순
▁오빠
▁바실
▁몰아내
▁hPa
▁김태
▁김포
▁면하
▁스핀
▁스티브
▁폐위
▁함유
▁식별
▁첨가
▁풍경
▁아레나
▁대위
▁십자가
▁큰
int
▁장미
▁연세대
▁제수
▁기요
▁내외
▁평야
▁119
▁스릴러
▁컬럼비아
누엘
▁두루
▁무상
▁정전
▁리버풀
▁컴퍼니
▁파업
▁휴식
▁TH
▁공채
▁날짜
▁정무
▁조달
▁천도
▁캄보디아
▁인산
▁It
▁불편
▁신학교
▁이광
트리올
▁다니엘
▁케네디
▁몬트리올
▁도스
▁언더
따르
▁매카
▁별칭
키지
▁삼진
▁충실
▁172
▁교양
▁드럼
▁원내
▁CO
▁간호
▁아종
▁요르
▁중소
▁편리
GC
푸스
▁소환
EN
▁관통
▁총사
▁유니버
▁걱정
▁루시
▁병조
▁전성기
▁평일
▁꽤
시로
▁북위
▁사회학
▁우연히
▁친일인
▁친일인명사전
ib
▁룡
▁이글스
▁유네스코
▁껍질
▁명백
▁묘역
▁신기
▁장안
▁신학자
▁교원
▁선구
▁애덤
▁106
릴라
▁미주
▁바퀴
▁평하
▁니콜라
▁아틀레
▁페르난
스럽
ome
▁총대
▁테레
▁카리브
▁ㄲㅔㅅㅓ
▁베드
▁선종
▁해수
▁휴전
▁엔지니어
ian
ude
▁덤
그로
▁당일
▁위임
▁스페이스
니치
▁관람
▁리어
▁모방
▁아벨
▁공모
▁중량
▁김상
▁의상
▁고민
▁제갈
▁증진
▁공직
▁미즈
▁연패
케이션
▁프랑수아
▁슈트
▁승점
▁콰
▁초과
▁표명
▁콘크리트
▁등재
▁평범
▁아이슬
▁We
▁도주
▁보완
▁서남
▁알아
▁좌절
▁지혜
▁세계관
▁에스토
▁한성부
▁마츠
▁낱말
▁미토
▁정렬
▁지폐
▁소통
▁쇼트
▁생전
▁장려
내셔널
▁아이템
▁인터내셔널
▁멋
세츠
▁마인
▁열대
페르
ere
▁충북
▁케이스
선스
▁진짜
▁해변
▁잦
▁훔
▁돌연
▁방패
▁책임자
말라
▁영남
▁매사추
▁우울
▁전압
▁고수
▁배신
▁일화
▁합창
▁외교관
▁매사추세츠
▁대웅
▁상서
▁아이슬란드
블로
▁그루
▁탱크
주의자
▁우라늄
▁공단
▁중추원
치오
▁단식
ire
▁발트
▁암석
▁양도
▁황태자
루션
실록
▁치열
▁불명
▁일조
▁입지
▁투르
유행
▁도라
▁요하
▁포격
라이더
▁나스
▁바리
▁공의회
▁역설
▁부채
▁시흥
▁퍼센트
▁스페인어
▁교외
▁구이
▁다치
▁영장
ment
▁소유자
pe
ace
▁레바
▁호위
▁도르
▁도루
▁호프
▁시나리오
▁에스토니아
▁라이선스
▁횟
▁기어
▁신속
▁상담
▁실전
▁내려지
▁카이사르
▁장난
▁괴롭
▁에버
▁친왕
야시
▁로열
▁업계
▁조이
▁서정
▁통근
▁닝
ide
▁평택
▁밟
▁쿤
▁오사
▁김기
▁오세
마드
▁인연
▁중심부
▁물리학자
▁고령
▁사슬
▁오비
▁육지
▁창고
▁친하
▁대전광역시
석탑
▁견디
▁마약
▁봉쇄
▁오노
▁항소
오피아
층석탑
▁에티오피아
▁푼
▁애틀
▁기인
▁여지
▁차종
▁리비아
▁어쩌
▁치즈
리케인
바이잔
▁148
▁덮이
▁시선
▁즈음
▁현금
▁할리우드
▁전라도
▁슬로바키아
▁부재
▁탈당
▁1916
▁가로지르
제리
▁HT
▁협주곡
▁허리케인
▁신생
▁지능
▁136
▁끓
▁격투
▁파장
▁마이너
▁스튜어트
▁닛폰
▁해소
▁NBA
▁아제르
▁극동
▁의뢰
▁실시간
중국
▁병행
▁서재
▁그로
▁바닷
▁순회
▁얘기
▁위탁
지리아
▁나이지리아
▁TO
▁아드
▁네이션스
▁아제르바이잔
위원
▁낭만
▁성운
▁흘리
▁파이어
IM
▁추출
▁하락
▁IBM
아이
▁동상
▁입당
▁조연
▁갈리
▁명제
▁원숭이
▁이사회
하면
▁기단
▁다항
▁작센
▁솜
▁앓
▁동이
▁바스
▁산림
▁추세
▁특집
▁호기
▁결혼식
▁배터리
시피
▁막내
▁알아내
의자
▁부적
▁허리
▁라이언
바다
▁노부나가
▁시초
▁워드
▁의약
▁급격히
람쥐
▁우루과이
▁쌍둥이
▁국무총리
▁패키지
▁ㄷㅚ
▁구릉
▁안성
▁138
▁구도
▁DC
▁세션
▁신탁
▁약칭
▁전념
▁한스
▁실장
▁평원
▁브라우저
▁닷
▁니아
▁되게
▁사헌
▁유동
▁면허
▁반감
▁지류
▁데이비스
cl
▁솟
▁가동
▁격퇴
▁아마도
▁딕
▁구호
▁중위
▁현종
▁페르디
▁리틀
▁저하
▁주행
▁리우스
▁백화점
▁박해
▁섬기
▁해밀
타로
▁거론
▁백색
▁수습
▁신한
▁우세
▁회고
▁거제
▁경연
▁분당
▁시즈
▁후쿠시마
나오
▁la
▁객체
▁돌려
▁첼시
▁지선
▁360
▁구조물
파르
▁레논
▁신규
▁안기
▁이세
승지
▁개그
▁토성
▁고성
▁치명
▁중성자
▁시칠리아
▁상공
▁극히
▁오바
▁포터
▁거행
▁재위
▁춘천
▁바이오
▁영의정
▁ㅇㅓㄹㅏ
토모
▁최상위
▁뭉
타나
▁복선
▁라이브러리
여래
▁결선
▁고소
▁냉각
▁성숙
▁탐구
▁104
거지
▁익히
래스카
▁사헌부
▁어울리
▁도미
▁생식
▁외치
▁라트비아
▁깨달
▁아부
곡리
▁피에
마쓰
▁릉
대신
▁En
▁가면
▁한쪽
▁횟수
▁LP
▁감리
▁트래
▁펌
▁그램
▁도장
▁장학
▁애틀랜
▁비시
▁후방
▁게르만
양함
▁송시
▁어휘
▁임용
▁택시
▁오피스
▁랄
▁해적
▁혈통
▁테이블
리에
브레
ark
▁나비
▁돌보
▁모니터
▁혀
▁주가
▁춘추
리니
▁주름
은색
▁109
하시
▁성체
▁제독
▁차장
회장
▁그날
▁행적
▁환영
▁반도체
▁Pr
▁개원
▁고인
▁목판
▁스톡
▁재현
▁최악
▁잔류
어버리
▁스트레스
▁교황청
데시
▁ㅅㅗ
▁데모
▁비리
▁이케
▁칼라
▁방송사
▁별다르
▁올바르
▁123
베르토
▁ㄹㅏㄹ
▁코무네
타고
▁가짜
▁정점
▁휴스턴
▁대학생
▁뢰
▁옴
▁우위
▁반경
▁공수
▁동점
▁축하
▁대표작
▁하워드
더슨
▁아홉
고쿠
▁민회
▁바나
▁소매
▁햇
▁왜냐
▁통증
푸르트
▁억압
▁부당
▁펜실
▁폭동
베이니아
▁공산주의자
▁펜실베이니아
▁견제
▁명령어
▁매입
▁현저
ㄷㅓㄴ
▁루프
▁성취
포드
헤이
▁시바
▁인플
▁적당
▁종로구
▁타이거즈
▁순교
▁연하
▁AK
▁고장
▁광물
▁주주
▁한인
▁힘입
▁헐
란히
▁분비
▁아담
▁143
▁분기점
▁연합회
▁카자흐스탄
▁터치
▁야구장
▁너비
▁노바
차기
▁NC
▁벌금
▁주역
랜트
▁열정
▁AR
▁경관
▁여당
▁처녀
바시
▁다발
▁상점
▁수련
▁청춘
법인
▁리우
▁산란
▁신조
▁육체
▁동아일보
은이
▁누이
▁상단
▁이식
▁베스
▁사모
▁부르크
▁호랑이
▁이화
▁축적
글리
▁암시
▁팡
▁유한
▁토모
▁히메
AL
▁CS
▁염기
▁존속
▁피츠
▁이에야스
▁돋
▁성사
▁신주
▁제하
▁출처
▁마야
▁응원
▁col
▁롤링
▁비자
산동
▁컴파
▁팔라
▁자민
▁제프
▁박람회
ile
▁근교
▁블라디미르
▁휠
▁CC
▁목재
▁남동부
▁펑크
▁소나타
▁플라이
▁관구
▁통영
▁왓
▁에미
▁오해
▁폭행
▁김경
러스트
스틴
▁해명
▁룬
▁래퍼
▁비싸
▁음료
▁이윤
브리지
▁알코올
▁아예
▁유로파
▁친일파
▁다이아몬드
▁기적
▁부설
▁상반
▁차이점
▁경상도
▁태양계
▁계시
▁광학
▁블로그
▁갈라
▁법조
▁설탕
▁보석
▁상용
▁티스
▁Op
▁나트
▁적분
ies
▁운하
▁충전
▁황실
▁가죽
▁놀랍
▁시골
▁유죄
비나
▁조선일보
면체
살이
▁다녀
▁사육
▁신념
▁생산량
▁킥
▁규범
▁지르
▁그동안
▁내보내
라클
▁다투
xt
기업
▁만남
▁이타
▁증대
▁CON
▁말라
▁무지
▁경찰청
▁흠
▁동국
▁카롤
▁중의원
▁라오스
▁베어스
▁브라더스
도리
▁공익
▁단단
▁112
▁공습
▁히사
▁RNA
▁국소
▁빨간
▁합하
나스
▁부제
▁상사
▁어원
▁키프로스
▁거칠
▁107
▁공관
▁미르
▁시베리아
▁갇
ite
▁시어
▁우유
▁사업자
▁공천
▁비유
▁구축함
▁루이지
▁트윈스
▁삼층석탑
▁후사
▁깨닫
▁누나
▁레일
▁126
▁장거리
▁창원시
권자
▁가군
▁아랍어
▁우승자
▁is
▁신민
▁조세
고래
▁Te
▁발해
▁언니
▁카를로스
▁당주
▁성단
▁수법
▁옆면
▁트위터
▁거북
▁왜냐하면
도바
▁협박
▁확신
▁이산화
레기
스부르크
▁사우루스
▁이순신
▁줄무늬
▁신선
▁품종
▁탐사선
랑카
▁소셜
▁송시열
▁범인
▁헤비
▁117
▁교과서
▁대웅전
ft
▁맥락
▁구출
▁맥주
▁굉장히
▁조종사
▁플러스
지붕
▁대폭
▁실체
▁여파
▁연쇄
▁제재
▁동문
▁천장
▁할머니
▁도마뱀붙이
▁퐁
수리
▁왜곡
▁포럼
갈색
▁허위
▁드로
▁핸드
▁법무부
▁갇히
▁풀리
▁평의회
▁근원
▁네스
▁뉘
▁교정
▁소원
▁지평
▁우호
▁SE
▁마디
▁경보
▁꾀하
▁입원
▁제니
▁곡인
▁이경
▁피우
▁빈곤
▁인체
▁희생자
▁가마쿠라
▁아카데미상
▁인문
▁임하
다지
▁양키스
▁다지
▁고속도
▁빨간색
▁날씨
▁탐색
▁121
▁350
▁화장실
ath
▁몰래
▁줄리
▁진급
▁진하
▁com
▁신약
▁전자기
무스
조부
▁세라
▁펠리
▁137
▁일반인
▁통틀
▁필터
▁173
▁바오로
▁삼성전자
의장
▁거울
▁요동
▁제대
ound
ond
▁이브
▁연합국
▁필리프
▁CF
▁비르
▁일방
▁테이프
▁킴
시타
▁가축
OL
▁방화
▁후궁
▁성별
▁ㄴㅗ
▁문예
▁해고
▁수용체
▁맘
연합
▁결함
▁불타
▁샘플
▁라이너
▁총독부
▁1894
마루
승부
ㄷㅡㄴ
게이머
▁프로게이머
ory
▁승계
▁자아
▁주이
▁냄
▁양측
▁왕복
▁포병
▁물려받
▁헥
▁워터
▁엿
수소
▁믹스
베니아
▁113
▁가장자리
▁클라우드
끼리
▁다크
▁태권
▁개교
▁지미
▁진공
▁택하
▁철회
▁근로자
▁크리스토퍼
대기
▁만일
▁아야
▁핵무기
그레이드
▁궁극
▁레온
▁투옥
ov
▁놓치
▁문구
▁세속
▁수색
▁슬로베니아
▁땃
▁대의원
▁바티칸
▁브로드
▁업그레이드
▁드레
▁미션
▁적도
▁낫
▁뒷면
▁붐
단체
▁극심
▁뒤집
▁보증
▁화해
man
▁공민
▁공방
▁둥지
▁일가
▁알제리
번스
▁계정
▁대피
▁바우
▁가져가
로이
▁로이
▁서민
▁도미니
규모
▁코스타
톨레
▁최강
▁치안
그리
▁비추
▁혈관
▁농림
▁성도
▁유년
▁하동
크라
▁무어
▁용병
아키
▁먼지
▁게스트
▁몬스터
▁캐시
▁ㅓㅅㅓ
▁z
▁LC
▁강서
▁서진
▁제인
iver
▁124
▁멜로디
▁최대한
셰비
▁On
▁개종
▁결코
퍼런스
▁IM
▁신시
▁칭찬
▁게이지
아프리카
▁관음
▁군정
▁시뮬
▁즉각
▁판본
▁독일인
▁".
▁로우
▁공백
▁횡단
▁자연수
▁탤런트
▁명하
▁국내외
박스
▁be
▁모친
▁카카
▁타당
▁륙
▁김현
▁상표
▁두껍
▁스캔
mer
▁가루
▁넘치
▁성문
▁야마토
블리
▁그냥
대원군
▁World
▁쑤
로니
▁그대
▁피오
▁남서부
▁곤란
▁구절
▁서초
▁고고학
▁커뮤니케이션
▁제치
▁체크
▁학계
▁김정일
린스
▁닫히
▁초록
▁프랑크푸르트
▁내정
▁미키
▁욕구
▁항쟁
▁SU
▁일생
▁베네딕
▁CR
▁감자
▁디렉
▁야쿠
▁양호
▁1890
▁아랫
▁원전
▁풍자
▁New
▁영산
▁데르
▁우파
▁초월
ich
▁브리지
드르
▁러시
▁자선
▁오리콘
▁윤치호
줄기
축구
▁어미
▁배후
▁유저
▁검찰청
▁114
▁돌격
▁발리
▁땃쥐
▁자비
▁조부
▁시위대
▁오프닝
▁이거
▁제압
▁라이온즈
▁맑
▁부딪
▁선비
▁평정
프레스
▁기질
▁정세
▁침투
▁기업인
▁김규
▁소규모
▁안토니오
▁ㄷㅣ
▁미노
▁베니
▁이소
▁자오
▁다녀오
▁EC
▁대명
▁정주
▁므
▁증손
▁구스타
▁이준
▁분명히
▁과반
▁사상자
▁냉전
▁떨치
▁자택
▁알루미
▁알아보
ial
▁다가오
▁옵션
타리오
렉스
▁구와
▁어긋
▁지침
▁118
▁깎
러드
▁관세
▁자음
▁일리노
▁드라이버
IP
▁예조
▁블랙홀
▁히어로즈
▁가드
▁악단
▁이남
▁파이널
▁ㅇㅡㄹㅈㅣ
▁시정
▁이드
▁플래시
▁군중
▁대거
▁학명
▁일리노이
▁만료
▁징계
▁프로덕
▁도청
▁빛나
▁대부
▁서자
▁연이
▁예시
▁주부
▁미하일
▁파란색
▁Sc
▁말씀
▁원로원
▁풀려나
▁1898
ign
▁봉건
▁스칼
▁체스
▁체조
▁크리스티안
▁요정
▁종착
▁디비시온
hn
황후
▁재상
▁저널
▁하르
▁115
▁매니저
▁경신
▁괴물
▁연승
▁태극
▁용이
▁진사
▁경찰관
▁극장판
▁트로이
▁빔
▁컷
▁헬리
▁갑작스럽
▁인명
▁벵
하루
▁순조
▁지인
닐라
▁남구
▁봉안
▁중형
▁방사선
▁비로소
▁승부차기
저지
▁모로코
▁반지름
▁통치자
교도
▁우측
▁계열사
▁우즈베
▁뭐
벨트
히코
▁로그
조건
▁커널
▁두려
▁시가지
고스
아먹
▁SD
▁밀집
▁세이브
▁챌린지
지스
▁카우
▁희귀
▁앵글
▁헬기
▁ㅋㅔ
▁공조
▁남미
▁축출
▁키르
▁레바논
▁웨스턴
▁공감
▁매매
▁본국
▁필사
▁외야수
▁무성
기념
▁가옥
▁극작
▁비기
▁선도
▁패럴
보르
▁변이
▁GS
▁동정
▁전년
▁무승부
▁범유행
▁`
▁센티
마이오스
▁JT
▁통보
▁129
▁뉴저지
▁성리학
타니
▁직면
▁하프
▁부스
▁소모
▁웹툰
▁케냐
▁쫓겨나
▁렐
▁GP
▁답변
▁모나
▁사위
▁정변
▁컨셉
부리
▁외모
▁취업
▁켈리
▁혜택
▁대변인
▁캉
▁기증
▁왕세
▁그레고
▁글루
▁핑크
▁기각
▁뉴턴
▁천하
▁맏
바닥
▁의약품
타리
rom
▁코카
▁광해군
▁스타리그
▁럼
▁믹
개미
▁비주
▁개막전
▁캔자스
▁ㅌ
미사
▁젊은이
▁폭넓
▁체코슬로
▁체코슬로바키아
▁말미
▁숙청
▁쯔
▁러셀
▁예하
▁중산
▁쾌속
▁한족
▁닦
▁ㅕㅆ
▁미세
▁재혼
▁학업
▁벨라루스
레타
문트
▁맥도
▁발급
▁종속
▁황족
▁알루미늄
▁Ne
▁뇌물
▁첨단
▁연예인
▁ㅇㅡㄴㄷㅔ
▁호출
▁회관
▁마운트
▁괘
▁퉁
쟁이
▁리뷰
▁바빌
▁승자
▁퇴임
▁옳
▁스크립
▁총사령
▁밝기
▁빌라
방송공사
▁ㄷㅓㄴㅣ
먼스
▁로비
▁오오
▁스트리
▁장례식
느러미
▁터뜨리
ph
▁벽돌
▁요건
▁III
▁중공
▁창출
▁천재
▁조지프
▁종래
▁척추
▁천문대
▁끌어들이
▁남작
▁무명
▁1899
▁웬
수록
우트
천리
▁부피
▁재선
▁카디
▁월요일
▁감싸
▁서신
▁실망
▁어른
▁142
▁난징
TS
슬러
▁각도
▁기차
▁유라
▁일컬
▁케빈
▁넘어서
▁레슬링
▁부여받
▁생체
▁양반
▁응시
▁임원
▁케임
▁화력
▁브리튼
▁옹립
▁워너
▁토끼
▁토양
▁세이부
▁청주시
테르부르크
▁콕
▁배수
▁어긋나
▁두려워하
진군
urn
▁토미
▁폭포
▁기술자
화물
▁예고
코딩
▁룩셈
▁발병
▁설화
▁워크
▁관제
▁유방
▁저주
▁전속
롤라이나
▁프로덕션
▁룩셈부르크
포로
▁대치
▁대패
▁소생
▁총칭
▁축물
▁마르티
▁사쿠라
▁플라스틱
▁얹
함수
▁구경
▁리프
▁마력
▁무함
셰비키
▁더글러스
▁미들
▁사간
▁성폭
▁하얗
▁학기
▁뒷받침
▁타임스
▁확실히
▁사본
▁자크
▁정려
▁파산
ction
틱스
▁유진
▁대서양
▁스즈키
▁힌두교
로우
토르
▁거래소
▁프란츠
시즘
▁안테
▁광주광역시
도스
럴드
▁CJ
▁온타리오
▁감행
▁오크
파이어
▁ch
▁시범
▁금요일
▁부의장
▁1902
▁만성
▁혼동
브르
▁컴백
▁ID
▁가야
▁왼손
▁중복
▁지옥
▁지출
덩이
▁거세
▁보위
▁화상
▁플랫폼
ens
▁공적
▁광둥
▁연산자
▁잃어버리
▁등기
▁명종
MA
타주
▁동네
▁발기
pp
두리
▁독서
▁신원
▁운수
▁의자
▁찌르
▁Man
▁도카이
▁우체
▁화자
▁대성당
▁키보드
▁프톨레
▁프톨레마이오스
▁병기
▁연꽃
▁위쪽
▁지치
lan
▁설교
▁수분
▁그래미
▁''
▁니코
▁채소
▁피겨
▁원천
▁기사단
▁붙잡히
▁시코
▁청산
▁코시
▁형조
치기
▁물품
▁피신
▁지식인
▁그릇
▁대손
▁영등
▁바깥쪽
TA
▁강변
▁드림
▁스턴
▁아리아
▁사슴
▁체류
▁희곡
▁마녀
▁시가
▁원종
▁지켜
▁촉매
▁탄도
▁포획
▁감마
▁페널
샤바
lic
▁개소
▁게리
▁국영
▁비석
▁표적
▁뛰어
▁서류
▁하단
▁고양시
▁아돌프
▁벨트
▁교통국
▁비행장
▁끊임없이
▁BS
▁버드
▁선배
▁외관
▁정성
폴리
▁갈수록
크로
▁깃발
▁영문
▁참의
▁흔들리
▁단절
▁대합
▁간선
▁기니
▁정적
▁소나무
▁밍
글라
▁강동
▁마스크
▁춥
▁동행
▁생생
▁유체
▁페르디난
국사
▁의의
▁익스프레스
TC
▁얽
▁김지
▁습지
▁토착종
▁단축
▁스폰
▁주조
▁드러머
▁가환
▁동학
▁응하
▁해밀턴
▁매카트니
카가
▁김창
▁울프
▁혐오
▁ㅇㅡㄹㅕㄱㅗ
▁몫
ary
▁광명
▁단의
▁아산
▁입성
▁경성부
▁부회장
▁이용자
▁코끼리
▁서리
▁압둘
▁함정
▁스위치
▁제국주의
▁포켓몬스터
ㅌㅔ
▁제네바
▁코믹스
▁호르몬
▁선행
▁세비
▁화강
▁ㅎㅏㄴ
▁러시아어
구르
그룹
▁브뤼
▁수확
▁헌신
▁사이토
히토
▁공리
▁직결
▁폭격기
▁1901
ach
▁광대
▁본문
▁어류
▁정동
▁초신
▁보이스
▁간토
▁나노
▁아이오
▁여운
▁이단
속기
테인
▁ㅈㅛ
▁고아
▁복용
out
▁생략
▁소시
▁열도
▁축조
▁색채
▁약자
ert
▁쓰촨
▁알렉산드르
▁No
▁부가
▁일산
▁임관
▁퀘벡
▁울산광역시
▁입국
▁서유럽
짓점
피어
▁논하
▁면제
▁민감
▁보트
▁역량
▁염증
▁다항식
▁부작용
▁ㅎㅏㄴㅌㅔ
모스
▁코코
▁꼭짓점
미트
▁조립
▁하치
디나
▁권총
▁매수
▁수축
▁체르
▁현은
▁연기자
자르
▁바이킹
▁삿포로
▁렘
▁갱신
▁경과
▁무궁
▁자작
▁영국인
▁점성술
▁쿄
▁성지
▁손꼽
▁정문
▁체중
▁커스
▁아시카가
▁기숙
▁드라
▁표방
나우
루아
타임
▁서문
▁카미
LE
▁날카
▁보복
▁주되
▁치아
▁갈릴
▁이현
▁사회당
IG
링턴
▁MB
▁엔딩
▁크롬
▁간단히
▁그다지
ys
▁고산
▁실버
▁입각
▁정립
LS
▁전방
▁페니
▁검열
▁동조
▁특권
▁134
▁염색체
▁케임브리지
▁누적
▁버티
▁토기
일으키
▁불러일으키
▁례
▁아라비아
▁}
▁두께
▁조수
레슬링
▁광저우
▁푸에르
▁대구광역시
▁호모
노미야
▁요르단
▁장기간
ug
▁썰
▁보헤
▁스님
▁차르
▁크레이
▁옥스퍼드
그라
내리
▁김제
▁분수
▁원료
베트남
▁파이터
▁가역
▁상금
▁학대
▁트리플
▁무함마드
▁캐서
▁태그
▁KIA
펜하
▁독성
▁사업가
▁남매
▁THE
▁모서리
ase
▁대두
▁마우
▁미륵
▁박지
▁연봉
카미
▁시리
▁오쿠
▁갈리아
사리
▁원본
▁카프
▁All
▁미시시피
기스
▁공명
▁삼촌
▁직경
▁토요
▁쓰레기
▁지켜보
▁1903
▁프로레슬링
정리
▁레즈
▁불꽃
▁섹스
▁1884
▁Gr
▁ㅅㅑ
▁공예
▁노보
▁다마
▁소말
▁아브
▁만주국
▁신도비
대장
▁공고
▁불신
▁개인전
▁홈구장
▁쟈
퀘어
▁극대
▁산출
▁좌측
테르담
▁One
▁언어학
▁아인슈타인
▁이병
▁퇴역
▁관광지
▁이성계
▁교대
▁구형
▁라그
▁선동
▁쥐과
▁패널
▁하리
▁훔치
처스
▁강간
▁트로피
▁표기법
▁아리스토
▁EX
▁중령
▁하비
ke
카타
▁로저
▁이관
▁쓰시마
▁전염병
▁알렉산드리아
아웃
▁AN
▁개화
▁군산
▁슈팅
▁질소
▁니콜라이
▁루타
▁에콰
▁노태우
▁에콰도르
▁메커
▁타케
▁회상
▁도널드
▁어둠
ㅡㄹㅏ
▁패밀리
▁야마구치
▁정선
▁날카롭
▁피고인
텍처
▁Cl
▁퇴적
▁아키텍처
▁릿
▁아폴로
▁클라이
▁비타
▁스텔
▁히타
▁당연히
▁구스
▁꼭대기
▁도요토미
▁어뢰
▁제로
▁헌정
▁조반니
▁프란체
▁발렌시아
▁대문
▁우치
▁드레스
▁충청도
푸르
▁검출
▁뮤지션
▁복합체
▁깨지
▁페널티
▁1800
▁LA
▁공황
▁마키
▁실재
▁지도부
올로
▁비뉴
▁마르틴
방울
▁군함
▁어찌
▁정유
▁조형
▁함선
▁콤팩트
리코
▁달걀
▁뒤쪽
▁실무
▁철폐
▁삼국지
라이언트
그레
▁원더
라이어
▁마르코
▁히로시
ree
▁의결
▁해남
▁소방서
▁슬라브
▁곡물
▁기분
▁농부
▁당수
▁이태
▁장벽
▁터보
▁흥선
테이션
▁기념관
▁방글라
▁프레드
▁방글라데시
▁클라이언트
▁반공
▁발칸
▁전위
▁가오
▁토시
사이드
▁강대
▁까닭
▁도선
▁선우
▁인질
니시
▁경작
▁내걸
▁염소
▁유부
▁소행성
나미
▁강희
▁우회
▁카사
▁기념비
▁더욱이
▁카를로
간지
▁건륭
▁김홍
▁단면
▁묶이
▁밀란
▁분출
▁상가
▁하차
가와현
▁방사성
▁일렉트로
▁북아프리카
아들
▁경인
가르
▁자형
▁코믹
▁팟
▁물가
▁상경
▁전복
▁복소수
불교
▁로라
▁분량
▁에밀
▁우물
▁전구
▁활주
네마
▁IN
▁남동생
▁with
▁팰
산맥
▁기슭
▁진전
▁리더십
▁소수자
▁가브리
하키
▁권장
▁모모
▁발령
▁상응
▁현감
▁뉴욕주
▁다케다
▁스토어
▁그레이트
▁총대주교
개골
▁가산
▁파병
▁기관총
▁모리스
▁메커니즘
▁오사카부
▁궁중
▁상트
▁세바
▁수목
▁회피
▁아미노산
act
▁감안
▁냄새
▁중앙아시아
▁러스
▁브란
▁취항
▁220
구역
번뇌
ass
▁미라
▁116
▁거짓말
▁견인
▁관절
▁막스
▁세키
▁용서
▁창녕
▁에디션
▁Ad
▁대출
▁후작
▁교도소
▁아나키
11
▁Br
▁교량
▁등용
▁이북
▁준주
▁민간인
▁전시회
곡동
▁소자
▁안경
사우
▁CN
▁반군
▁신축
▁정화
▁추첨
▁거주지
▁각색
▁기저
▁맞붙
▁평창
▁와일드
▁포스터
▁ㅇㅡㄹㄲㅏ
▁한국방송공사
사업
▁농사
▁돌기
▁보성
▁되돌리
▁캐서린
▁1897
▁볼리비아
▁가계
▁장자
▁티코
▁컨트리
▁페이스북
pt
▁가열
▁낙동
▁상법
▁시야
▁취미
▁효고
▁간신
▁무슨
▁샌드
▁요약
▁마카오
▁스트라이크
▁강남구
▁방송인
▁버클리
▁일자리
역학
쿠버
▁갈래
▁델타
▁안산
▁절단
▁침체
▁태백
▁폭로
ream
▁일부분
▁카스티
▁일파
▁한층
▁교육청
▁데스크
▁1860
▁홉
▁반전
▁상고
▁아소
▁효종
벤처
▁깨끗
▁델라
▁올드
▁어드벤처
▁꿀
▁르노
▁오로
▁배우자
▁GO
▁마블
▁데카
▁마니
▁사살
▁연대기
파리
▁나루
▁리조
▁음향
▁확진
▁득표율
▁이주하
▁장제
▁휴가
기념물
▁가의
▁수료
▁알프레
▁고이
▁타우
▁쓸
▁Is
▁구약
▁마가
▁홍문관
▁Ex
▁네오
▁전산
▁접수
▁ㄴㅈㅣ
▁엇
▁대관
▁저렴
▁추론
▁스크립트
▁;&
▁공손
▁민정
▁심화
▁청색
▁카즈
▁카타르
▁샌디
▁체력
▁쿠니
캐롤라이나
▁앰
▁리히
▁북경
▁안치
▁사카이
▁경제학자
▁석불
스카르
▁122
츠크
▁가신
▁중공업
나드
▁글래
▁미네소
▁바르샤바
▁이반
▁쥐속
▁타지
▁모티브
▁떡
반구
▁적군
산성
▁이빨
▁안드레아
▁유닉스
도비
퍼슨
포터
▁소행
▁중원
▁2022
▁마애
▁석회
▁수중
▁입주
▁전격
▁집결
▁스퀘어
▁후반기
▁동형
▁막시
▁살피
▁게릴라
▁아마존
▁죠
▁타협
▁클라크
▁버마
▁종파
▁화순
▁갑옷
▁윤보
▁짐작
▁치우
▁합당
콥터
▁고토
▁브룩
▁솔루션
▁인테르
▁지지율
푸아
▁모용
▁특색
▁상트페
▁상트페테르부르크
ii
▁돌입
▁보강
▁신정
▁찰리
▁흥선대원군
▁무술
▁사적
▁창의
▁con
▁설립자
▁군청
▁메릴
▁세네
▁신동
▁종점
▁청소
▁공용어
▁1880
거진
▁애리
▁호쿠
▁NGC
▁급수
▁리만
▁갤러리
▁두개골
▁그리스인
▁눕
▁BM
▁강철
▁격차
▁과실
▁무로
▁정경
▁옥수수
▁유대교
▁감추
▁메라
▁용암
▁마라톤
▁새로이
네시
▁마당
▁빈도
▁유정
▁쳐들
▁호응
▁나란히
▁손꼽히
▁진행자
▁셜
▁어로
▁예명
▁장원
▁제작사
▁엮
▁공약
▁벽화
▁제리
▁콘테
▁함양
▁133
▁키예프
▁돌아다니
▁함부르크
▁그레고리오
▁실적
리즘
iss
▁루크
▁복권
▁이장
▁종말
▁처지
▁극작가
▁천연기념물
▁가네
▁노이
▁스노
▁추리
▁괴롭히
▁붙여지
▁기성
▁번성
▁이언
▁입양
▁자결
▁뻔
니지
타케
ake
▁ㄷㅔ
▁소령
▁일괄
▁프렌
▁확고
▁파라과이
기구
▁제왕
▁팔레
own
▁등극
▁선장
몰로지
▁디트로
▁이동하
▁디트로이트
▁가가
▁블리
▁왕정
▁출석
자치시
▁그림자
사관학교
▁특별자치시
▁연동
▁연못
▁그렇지만
케이
▁사쿠
▁준결승전
▁ᆫㄷㅏㅁㅕ
리안
▁수녀
▁심야
어뜨리
▁Mus
▁극도
▁몽고
▁이규
▁교육부
▁법정동
▁일러스트
▁오지
▁유령
▁랍
▁진료
▁경쟁력
▁무궁화
▁오락
▁즐겁
▁추종
▁평민
▁CBS
▁포도당
▁조계
▁펜싱
▁랴
▁농어
▁장흥
▁헬륨
▁미생물
▁고추
▁열심
▁CEO
▁GDP
▁아래쪽
▁그레고리
▁애틀랜타
▁무스
▁파우
▁위나라
▁사무총장
▁국유
▁명분
▁자생
▁자카
▁엘리트
▁낚
▁ES
▁스로
▁우상
▁겉보기
clude
▁싣
▁개항
▁도사
▁문경
▁아치
▁위생
▁앨리스
▁미셸
▁숙주
▁탁월
▁132
▁지방산
미스
▁수년
▁프랭클린
그래
타마
해지
▁니카
▁이득
▁칼뱅
▁주지
▁지청
▁스리랑카
▁스트라이커
HO
림픽
원장
old
▁결핍
▁듀얼
▁수심
▁진수
UR
▁유스
▁이데
▁정인
▁총무
▁대성전
멘스
▁더비
▁반역
Hz
▁툰
세기
▁재난
▁프롤
▁동성애자
▁섀
▁감동
▁까지
▁아데
▁앞장
▁글로브
▁인프라
▁시뮬레이션
에미
헌영
▁듀오
▁리모
▁++
▁광양
▁동요
▁애칭
▁삼국사기
위성
▁빈번
▁상연
▁정관
ㄴㅣㄲㅏ
▁인디애나
스기
▁대지진
▁결제
▁김민
미즈
▁NE
▁ㄹㅑ
▁꿈꾸
▁원격
▁초원
▁온갖
▁워치
바야시
▁마다가
ork
▁주화
▁해치
버러
▁격자
▁속편
▁조병
▁파이프
▁극락
▁베른
▁속이
▁무조건
ix
▁동참
▁시종
▁타석
▁마우스
거래
렉션
▁브랜
▁현직
▁호족
▁기상청
▁미주리
▁쾰
벨라
파크
▁강풍
▁복음서
▁요제프
GA
메다
▁or
▁재해
ㅇㅗ
▁현행
ence
▁국수
▁대사헌
▁보헤미아
▁패럴림픽
▁막히
▁상기
▁속주
▁pro
해튼
▁대국
▁현황
▁농산물
▁자세히
()
lo
천사
▁가타
▁김옥
▁신상
▁암흑
▁호리
▁저널리
▁대각
▁두렵
▁발각
▁요법
위원회
▁ㅎㅏㄱㅗ
러피
▁Ro
▁단과
▁맹세
▁청자
▁우체국
▁평안남도
▁kt
▁빠져
▁숨지
▁통틀어
루냐
ick
▁라오
▁피로
▁볼셰비키
▁무르
▁불행
▁투항
▁파문
마리
변이
▁후속작
▁돌연변이
▁합스부르크
▁슛
CAF
▁La
▁총기
▁호의
▁활주로
를테
▁PR
▁낙하
▁페로
▁황도
를테면
▁1870
▁이를테면
▁감금
▁공파
▁세손
▁해부
▁뾰
▁재질
▁초고
▁헛
▁공표
▁밀러
▁아빠
▁의과
▁장대
브리아
▁Mar
▁단행본
▁매거진
▁평안북도
▁숀
라기
▁서장
▁소울
▁표창
▁중앙부
▁창시자
삭스
홀름
▁관동
▁만년
▁생계
▁왜구
▁저격
▁모터스
▁트리니
▁우아
▁정국
▁To
▁시국
▁제너
▁타이베이
▁댓
▁DM
▁말년
▁따라가
▁매끄럽
▁소피아
플로
할시
▁루비
▁머스
▁양육
ance
▁450
▁NAS
공산
▁김병
▁복식
▁아쿠
▁청동기
▁1885
▁프랜시스
EM
▁엥
▁돌출
▁맞대
▁비늘
▁이븐
▁입수
▁대장군
▁애리조
▁국악
▁로페
▁배속
▁기병대
▁아스널
▁오로지
▁우즈베키스탄
▁른
▁Ph
▁포고
▁USS
▁1871
▁짱
▁앞쪽
▁리터
▁세븐
▁카바
▁비주얼
ection
▁아이스하키
십자
▁성령
▁수염
▁틀리
▁다람쥐
▁활발히
▁알래스카
티시
ear
▁un
▁난이
▁신종
타이드
테리아
▁로렌스
▁전날
▁앤더슨
▁1600
▁마르크스주의
제이
▁이모
▁중생
▁휩쓸
▁양성자
▁프레이
▁쿡
▁참사
▁맷
▁감수
lass
▁내면
▁차리
▁휴게
러피언
▁내무부
▁편집자
▁only
▁오클랜드
▁벤치
▁카터
▁경질
▁로리
▁요지
▁원심
▁중상
▁흉노
▁빅토르
틀리
ild
▁내성
▁매직
▁위스
▁이양
▁센고쿠
▁수원시
▁유러피언
▁부조
▁시애
▁자칭
▁박헌영
▁1200
쩌둥
irl
▁테일
▁퇴장
▁끌려가
▁파나마
▁마오쩌둥
▁능선
▁릴리
▁오라
▁유료
▁청룡
테쓰
▁역도
▁화랑
▁마닐라
▁케이프
돌리
▁GN
▁관행
▁봉수
▁중서
▁지성
▁콜레
▁해저
▁루카
▁반성
▁볼프
▁장단
▁탑신
▁예정자
▁잡아먹
▁조광
어오
▁수인
▁친분
▁240
▁윤보선
▁마다가스카르
▁즘
▁민요
▁바디
▁케라
▁반란군
체고
파이
▁리바
▁재외
▁카니
▁티켓
▁김정은
체고비나
▁SL
▁구니
▁출가
▁김규식
▁불태우
▁교실
▁스태
▁플랜
▁다나카
▁부원군
▁시애틀
▁오른손
▁이방
▁증인
▁실험실
올라
▁국당
▁빨갛
▁성실
▁구마모토
관리
맥스
▁vs
▁조례
▁초빙
▁알렉스
▁앤드루
▁프로리그
▁콘스탄티노폴리스
▁당내
▁생선
▁맨해튼
▁역사가
▁해리슨
▁ㄹㅕㄷㅓㄴ
▁수교
텔레스
▁프라하
▁AD
▁정제
▁제동
▁파인
OV
▁서산
▁지쿠
▁통역
▁제조업
메스
▁관문
▁리비
▁시중
▁이완
▁징병
천면
▁궁궐
▁무척
▁상급
▁송도
▁재활
▁동물원
▁미군정
▁헬리콥터
코토
▁Sy
▁개헌
▁경시
▁섬세
▁루돌프
▁왕세자
ans
▁경희
▁몸통
▁부각
▁함자
ivers
▁ㄴㅑㄴㅡㄴ
▁괄
지로
▁국보
▁남용
▁오미
▁허드
▁공민왕
▁고쿠
▁겁
ype
▁CM
▁남산
▁뾰족
▁창문
▁호크
▁대대로
▁동대문
▁성남시
▁신문사
▁하노이
▁아리스토텔레스
무소
▁이룩
▁커플
▁EBS
▁아무것
▁제퍼슨
사상
▁구청
▁분과
▁차용
▁한하
어사
▁줄거리
▁개개
▁총통
include
▁얕
▁남해
▁뉴클
▁드미
▁바트
▁위너스
▁클레이
▁클린턴
▁경영자
▁리조트
▁러시아인
▁ㅌㅣ
▁각성
▁농경
▁에프
▁총애
▁동유럽
▁사각형
▁서재필
ish
▁배려
▁카지
▁칼럼
▁화기
▁레이크
▁솔로몬
▁퍼스트
▁김원
▁통용
컨대
▁가늘
▁시합
▁하반
▁크라이
▁안녕
▁주임
▁퍼스
▁MTV
▁":
▁산호
▁시노
▁학설
▁선거법
▁나우
▁수필
▁약혼
▁하키
▁화엄
라니
▁나선
▁씨앗
▁포착
▁효자
▁자치체
▁해리스
GM
▁독창
▁지오
▁대합실
▁브루스
▁브레이크
oun
▁NT
▁보로
▁스가
▁주입
▁퍼포
▁케플러
▁관청
▁광도
▁모의
▁실존
▁천왕
▁허정
▁올림피아
에스
▁시부
▁하류
▁퍼포먼스
▁함경남도
▁ㄴㅡㄴㄷㅏㅁㅕㄴ
▁모호
▁진해
▁아키라
▁@
원수
▁독도
▁성화
▁수양
▁전래
▁차갑
▁칙령
▁예선전
RA
▁유혹
▁일당
▁ㄹㅣㄹㅏ
▁Jo
▁ex
▁들여
▁메뉴
▁자제
▁파도
▁스테파
▁요시다
▁유치원
▁총사령관
OD
fe
토랑
▁보라
▁분류군
▁레스토랑
▁경호
▁반기
▁지로
▁케인
▁테라
▁검정
▁로버
▁평형
▁내야수
▁데려오
▁멍
정원
▁극한
▁메카
▁트릭
▁긴테쓰
▁비밀리
▁유권자
ey
통일
▁다테
▁마차
▁분파
▁카테
▁호스
▁예수회
▁sc
▁만장
▁욕망
▁네이션스컵
▁리보
▁문고
▁보행
▁신발
▁전무
▁제물
히트
▁찬사
▁테리
▁아키타
▁어군
▁메이커
▁뉴클레오
▁스톡홀름
바흐
신문
창호
▁블로
▁실정
ical
▁뛰어들
▁비타민
▁알프스
등식
▁카피
▁컴퓨팅
환경
▁마술
▁원통
▁서대문
▁캐롤
▁벅
lat
▁포식
▁김유
▁소음
▁타스
▁보수당
▁자치주
▁플라톤
러브
▁드루
▁매리
▁박종
▁엄밀
▁이점
▁절망
▁개구리
▁다저스
▁오리온
TP
▁도교
▁스폰서
▁친위대
EG
▁넷째
▁도둑
▁마셜
▁묘비
▁방콕
▁블레
▁수복
▁프론
▁유아기
▁와이번스
암동
▁강령
▁리베
▁바이트
▁방어선
▁프린스
▁ㅇㅏㅇㅛ
▁모어
▁색소
▁ABC
▁마천루
메드
▁고든
▁본성
▁북아일랜드
▁럭비
▁천국
▁치과
▁파손
▁홀리
▁황소
▁ATP
▁멧
▁CH
▁DD
▁나인
▁불변
▁웨인
▁장시
▁전담
▁로드리
▁투자자
▁샐
▁천거
▁헬싱
▁나트륨
▁대원군
▁정의당
▁AV
▁구내
▁구실
▁노론
▁동로
▁일리
▁추이
▁톈진
▁폭파
▁피라미
▁피아니스트
▁마켓
▁무실
▁상행
▁실권
▁야드
▁포토
덴부르크
▁벤처
▁시몬
▁연산군
매매
▁당연
▁침묵
▁210
▁마누엘
▁연극배우
▁대본
▁리사
▁소극
▁영유
▁정거
▁ㄹㅏㅅㅓ
▁Fr
▁삼존
▁선천
▁쾰른
▁정부군
▁튀르크
▁콘테스트
▁국공
▁슬하
▁제노
▁찬양
▁퇴직
▁화약
▁용인시
▁화강암
▁헤르체고비나
군다
are
▁스텝
▁적외선
▁토스카
▁가브리엘
놀이
대교
부르
▁pr
▁소중
▁야전
▁약사
▁왕권
▁특전
▁앞장서
▁책임지
▁프레데
FL
티넘
▁백두
▁스칸
▁선구자
▁알파벳
▁주차장
▁플래티넘
ica
▁결별
▁마에
▁아나톨
EL
▁Ma
▁본작
▁사방
▁여유
▁중퇴
▁목요일
▁오바마
▁가솔
▁따지
▁이의
▁차출
▁채취
▁가이드
▁경전철
▁유격수
사고
수스
▁동시대
▁별세
▁부치
▁위그
▁he
▁리본
▁유선
▁준수
대표
▁감찰
▁대북
▁로크
▁뭉치
▁방치
▁봉화
▁1889
▁ㄹㅕㄷㅏ
▁가락
▁담보
▁밸리
▁삼림
▁영정
▁한미
▁안테나
말리
▁반포
▁아날
▁요충
공산당
▁리프트
난성
▁가맹
▁강렬
▁송신
▁슬픔
▁임정
▁모하
▁새우
▁종식
▁초신성
▁고속버스
▁스카우트
클레
▁실록
▁사로잡
60
소통
천동
▁불참
▁여권
▁유목
▁켈트
▁아이폰
▁잇따르
▁베트
▁우림
▁직통
▁하시
▁호대
▁기관지
▁패트릭
▁공존
▁딥
충류
▁비엔
▁중합
▁투여
▁갈아
▁정형
테이너
▁늙
▁So
▁대영
▁아끼
▁전전
▁도망가
▁밴쿠버
▁의사소통
▁간첩
▁니혼
▁산성
▁영예
▁왕건
▁의류
▁이송
▁주계
▁칸국
▁엔트리
카리
▁구르
▁능하
▁다윈
▁모금
▁불량
▁야시
▁집정
▁말미암
▁타이거스
▁구두
와라노
▁후지와라노
▁건전
▁김형
▁연말
▁메디치
▁CONCA
부로
위안
▁매트
▁미수
▁비야
▁사설
▁시크
▁플리
▁접어들
▁떨어뜨리
▁감상
▁중수
▁치루
▁판례
▁펌프
▁감성
▁격리
▁받치
▁예약
▁작물
▁절정
▁종자
▁형질
▁For
▁두려움
▁타이어
▁Live
▁CONCACAF
드레
▁그저
▁로트
▁열강
▁인가
▁피지
▁똑같이
▁센티미터
AF
바나
▁권하
▁김준
▁사서
▁지자
▁프란체스코
▁금호
▁라자
▁서임
▁수락
▁정읍
▁로마인
▁소말리아
▁라리
▁무형
▁의령
▁후배
▁ㅓㅇㅑ
▁낙동강
▁발라드
sh
▁앙골
▁JTBC
▁훙
▁원군
▁캐리
▁생존자
▁미야자키
▁마땅
▁사탕
▁애정
▁정종
▁하야
▁드디어
bo
▁극우
▁사역
▁쿠퍼
▁열심히
휴일
▁메소
▁목회
▁은거
블랜드
▁시네마
▁챙
란토
유예
▁가도
▁백과
▁스트로
▁가나가와현
망디
▁잠정
▁정작
▁제명
▁Sou
▁레이싱
▁나카무라
▁카탈루냐
가미
프로
▁기이
▁도피
▁송출
도르프
캐슬
▁고딕
▁리옹
▁징수
▁치환
에미리트
▁자유민주당
▁아랍에미리트
지기
▁공소
▁금산
▁바지
▁습윤
▁요격
바이트
▁장학금
▁피라미드
▁클리블랜드
EE
▁모색
▁연정
IL
▁가두
tern
▁간신히
▁미야기
▁볼트
▁유의
하이오
▁여배우
▁오하이오
▁프랑스인
▁비준
▁트렌
마르크
▁캅
▁로얄
▁평평
추부사
▁Com
지능
▁GB
▁거미
▁유희
▁AKB
▁광복군
▁교통부
▁유니버설
▁인공지능
▁김명
▁벨리
▁순종
▁항만
▁int
간다
대사
자루
ood
▁"&
▁당기
▁무네
▁악보
▁워커
▁검은색
▁카카오
▁츄
▁격추
▁삼중
▁Col
▁레이트
▁마이어
▁Part
▁깜
풀이
현동
ost
▁성곽
▁여고
▁자서
▁에이즈
▁Time
▁EU
▁무과
▁암스
▁1848
▁수로
▁페트
찌르
▁모욕
▁문집
▁사쓰
▁서태
▁뉴캐슬
▁토리노
나마
▁익숙
▁추력
▁탄약
▁티아
▁한림
▁한중
▁기숙사
▁레이더
화문
▁추억
에몽
row
▁포털
▁해태
span
거스
지부
▁부총리
▁급여
▁댄서
▁여의도
▁onlyinclude
▁재팬
▁하행
▁해피
uc
애미
정동
▁김광
▁오만
프랑크
▁공휴일
▁마이애미
의사
▁라이더
▁부딪히
▁브레이
▁튀니지
▁도래
▁라르
▁매킨
▁볼로
▁양심
▁여사
▁토트
▁바그너
▁프랑스령
lay
▁남군
▁셀레
▁우한
▁종군
▁지상파
▁카스티야
▁병자
▁보령
▁재일
▁절벽
▁조인
▁해독
▁대니얼
▁무찌르
▁스타트
▁어시스트
ous
▁공대
▁국한
▁워즈
▁특화
▁고인돌
▁대리인
▁클라우
▁프란치
▁대승불교
▁사민
▁유식
▁음절
▁우루스
▁일본국
▁정거장
▁페트로
▁가혹
▁교의
▁모건
▁비토
▁천주
페스트
▁무안
▁산둥
▁업자
▁코리
▁국제법
▁법원장
▁정치학
▁치카
파니아
ows
▁EM
▁방대
olog
▁지배자
메니
orn
▁굴절
▁인칭
▁제위
▁총격
▁클러
▁SNS
▁시멘트
▁시코쿠
▁관현악단
▁랴오
▁리카
▁비대
▁안개
해살이
▁그랜트
▁마법사
▁명확히
▁아이즈
▁공성
▁로키
▁비정
▁보수주의
▁가쿠
▁단결
▁마테
▁부평
▁Bla
▁숙부
▁케르
▁가솔린
▁하노버
브로
히사
ann
▁경복
▁선명
▁항체
▁저지대
▁제우스
▁카메룬
OP
▁거란
▁문단
▁최진
메이카
▁API
▁자메이카
▁줄기세포
az
도라
▁김인
▁사수
▁신곡
▁용액
▁평지
▁황색
▁Your
▁류큐
▁명소
▁연립
▁오디
클리드
▁131
▁대단히
▁부다
드리아
서스
▁BC
▁귀신
▁대마
▁몰아
▁부합
▁안방
▁대나무
▁정보원
▁헤어지
▁NASA
▁at
▁메일
▁베어
▁서귀
▁설문
▁점포
▁지법
▁대법관
▁레드삭스
▁고로
▁도키
▁선봉
▁적료
▁쪼
▁쾨
▁검거
▁글꼴
▁동산
빌라이
▁ref
▁욱
▁모범
▁모빌
▁종양
▁하코
▁항우
관계
칼리
▁메스
▁재편
▁전한
시노
▁속력
▁응급
른스트
▁제이슨
▁1883
▁녕
▁공영
▁기와
▁사림
▁지석
▁패러디
▁곶
으로
▁골격
▁남방
▁초콜
▁혼다
▁OST
▁영화상
▁동진
▁소외
▁전보
네그로
레스트
▁라파엘
▁u
▁계주
▁관상
▁기세
▁다툼
▁수식
▁연희
▁중엽
▁한신
▁방사능
▁줄리아
지아
▁다듬
▁무작
▁탄자
▁날아가
▁ㄹㅏㄱㅣ
▁그라운드
▁녹화
▁식스
▁진로
▁노르망디
▁텍사스주
▁본뜨
▁부상자
▁판소리
▁교향악단
▁대좌
▁도박
▁쌍대
▁코소
▁큐브
▁형벌
▁비서관
80
▁GM
▁경위
▁실증
▁피리
▁연구회
▁간략
▁근사
▁봉인
▁삽화
▁유공
▁이터
▁평판
▁tv
▁가우
▁가토
▁병마
▁산요
▁자명
▁에스페
▁해상도
▁공무
▁라바
▁타락
▁하남
▁프로그래머
▁뫼
▁리즈
▁야외
▁유우
▁절감
▁카네
▁카마
▁편견
▁꺼내
▁리마
▁온난
▁은혜
▁조교
▁최선
▁고분군
센스
▁가중
▁우산
▁에이전
▁위구르
▁파일럿
▁촛
▁Ge
▁니키
▁단군
▁송파
▁콘솔
▁이용객
▁체인지
▁토마토
▁쿠빌라이
합성
▁노면
▁발상
▁상어
▁열전
▁요절
▁만화가
▁ㄴㄷㅏㅁㅕㄴ
용차
▁고생
▁월터
ern
▁라디
▁받들
▁야마가타
▁RP
▁기량
▁부왕
▁성동
▁안나
▁유생
▁함량
▁후진
▁해안선
▁콥
제품
▁고흥
▁권역
▁수위
▁1882
▁봇
버른
▁관례
▁북군
▁스루
▁엔드
▁친족
▁학력
▁Day
▁Wind
40
▁고노
▁국교
▁국외
▁모세
▁범하
▁세습
▁위로
워스
프턴
▁간사
▁거성
▁기전
스트리
▁슈퍼컵
▁스칼라
▁연장전
▁원산지
▁중소기업
II
포시
▁고의
▁덮개
▁루키
▁헬레
▁다이어
▁예컨대
▁올리브
▁통신사
에고
ink
▁RS
▁SA
▁가고
▁무섭
▁아이언
CC
돌이
▁몰타
토프
▁내일
▁단정
▁배분
▁왕궁
▁유서
▁주선
▁데니스
치히
▁정월
▁조셉
▁미토콘
▁전반기
▁사로잡히
▁아날로그
▁미토콘드리아
교통
여객
▁FK
▁보루
▁우시
▁지극
다운
▁ㅅㅕ
▁멋지
▁수다
▁요양
▁이회
▁파벌
▁플러
오르크
▁330
▁공화정
▁카스트
▁관계없이
RT
▁장덕
▁직속
▁항원
▁단체전
▁대표자
▁앗
▁관악
▁도네
▁자수
▁Sch
▁강당
▁결사
▁급증
▁단속
▁부교
▁붙잡
▁사영
▁세련
▁아목
▁제천
갈리
▁관목
▁램프
▁상록
▁정정
▁선진국
▁해운대
▁미스터리
▁동포
▁씨족
▁타수
▁국정원
▁중공군
데라
▁배달
▁성원
▁시안
▁위조
▁재래
▁노벨상
▁ㅇㅡㄹㅣ
▁브루클린
▁시즈오카
▁몹
서니
▁딜런
▁사학
▁최영
▁협업
▁경주시
▁영원히
▁테네시
▁호스트
▁산시
▁외래
▁조슈
▁주창
▁후예
▁4000
▁정은
▁Girl
게스
▁랭크
▁베풀
▁어기
▁염려
▁북유럽
▁지붕돌
▁파푸아
▁필립스
본부
팡이
▁부르주
▁사업소
▁제갈량
▁휴게소
▁보름
▁레오폴
▁안티오
▁ㅇㅕㅅㅓ
▁넬슨
▁빙하
▁사치
▁소프
▁제단
▁천수
▁콜럼
▁new
▁베이커
▁괌
▁단말
▁영덕
▁잠깐
▁군사력
▁너무나
▁대상자
▁멜버른
융합
▁규탄
▁남하
▁발동
▁수열
▁표정
▁산티아
▁메릴랜드
▁유클리드
▁컨테이너
US
▁라미
▁번창
▁서면
▁선대
스탄불
▁1868
▁이스탄불
OT
▁Or
▁범행
▁얽히
▁일각
▁형편
▁회귀
▁OB
▁과테
▁밝혀
▁양보
▁어파
▁할인
▁앙골라
▁요충지
▁과테말라
▁컨트롤러
▁냥
ㄷㅐ
▁대인
▁종영
▁태후
▁피핀
티모어
▁핵융합
▁사이타마
oll
▁군벌
▁사안
▁신입
▁사회민주당
▁동적
▁스캔들
▁오스틴
▁몬테네그로
▁급속히
▁노사
▁전수
▁라인업
▁우의정
▁겨루
▁충렬
▁파시즘
해자
▁농지
▁이바지
협회
▁객차
▁고트
▁사천
▁우월
펜하겐
▁밝혀내
▁주계열
▁폐기물
▁코펜하겐
▁노후
▁뒤이
▁버터
▁트이
▁기념일
▁프랜차
▁영월
▁오아
▁청도
히드
▁강행
▁배리
▁법관
▁장병
▁하의
웨이트
▁데려가
지리
▁부파
▁성산
▁영암
▁초안
▁항로
▁아케이드
▁사운드트랙
▁colspan
▁교직
▁너머
▁다우
▁우왕
▁위촉
▁저조
▁독수리
▁무실점
▁커리어
▁히브리
당기
▁러일
▁식용
▁카세
▁320
▁LED
▁ㅅㅕㄴ
▁신주쿠
▁요하네스
▁프란시스코
▁양수
▁외과
▁외형
▁차선
ㄲㅡㅁ
▁김옥균
▁베르나르
▁ㄱㅔㄲㅡㅁ
▁찢
▁대청
▁사비
▁아유
▁이메
▁절제
▁청계
▁사이먼
▁좌의정
호란
▁교부
▁망치
▁복종
▁추서
▁피드
▁헌장
▁수요일
▁야마모토
▁암스테르담
▁프랜차이즈
▁밀레
▁은신
▁족보
▁종신
▁준장
▁증폭
▁카툰
▁end
공주
우에
▁대덕
▁상국
▁소아
▁안무
▁치유
▁타리
▁효고현
바오
▁거처
▁끊기
▁우연
▁증오
▁치하
▁리믹스
디나비아
▁스칸디나비아
▁렛
▁슌
▁고온
▁금전
▁내분
▁대도
▁도상
▁스콜
▁위력
▁이항
▁정령
▁컨설
▁오일러
▁게오르크
▁DF
▁성악
▁시비
▁직행
▁출동
토리코
▁니콜라스
▁여성주의
꼬리
▁네티
▁샤프
▁양대
▁전세
▁조영
▁타일
▁피치
▁자서전
▁산티아고
걸이
gin
▁순차
▁슈테
▁자재
▁축산
▁출자
▁데이브
▁서해안
▁에른스트
amp
▁by
▁공안
▁국철
▁노아
▁동향
▁분사
▁습관
▁타로
아다니
▁로마자
▁브뤼셀
▁헤이안
▁쿠웨이트
▁놈
익스
▁TR
▁압록
▁코스타리카
▁능동
▁문종
▁정몽
ㄹㅏㄷㅗ
▁육군사관학교
LA
단지
▁김윤
▁아흐
▁첼로
▁어웨이
▁천안시
니파
려들
셀러
어넣
▁거지
▁김선
▁리코
▁바울
▁시트콤
▁함경북도
▁푸에르토리코
계승
웍스
▁잔인
▁정반
▁호아
▁결과물
▁발전기
▁법조인
▁각료
▁모차
▁브릿
▁주성
▁주심
▁퍼즐
▁함흥
▁280
▁그만큼
▁윗부분
▁텔레콤
aw
▁갯
▁결핵
▁긴밀
▁내무
▁데드
▁라카
▁서주
▁켄트
▁동맹국
▁서사시
▁위안부
▁유학자
▁복음주의
▁맬
▁온화
▁천마
▁칭송
▁코네
▁피크
▁포르노
▁화장품
▁루이지애나
▁늪
▁수량
▁이아
▁전락
▁점거
▁짐승
▁폐렴
▁펠릭스
▁문무
▁박성
▁백악
▁이우
▁전학
▁측량
▁편향
▁흡사
▁203
▁IOC
▁장로교
▁1893
북구
▁Fe
▁김승
▁리튬
▁배드
▁유족
▁정재
▁차츰
▁톰슨
▁학장
▁후유
▁가고시마
gr
▁영천
▁원활
▁척도
▁한번
퍼레이션
▁이탈리아어
게임
나기
▁이황
▁집착
▁천천
▁축전
▁해왕
▁철저히
OW
세유
▁le
▁배양
▁생리
▁심포
▁하타
▁가라앉
▁교육자
▁민병대
▁부르고
▁해안가
▁탄자니아
▁고집
▁선인
▁소대
▁조제
▁트리오
▁마이크로
les
▁Mo
▁분단
▁접종
▁충무
로이드
▁도자기
▁로베르
독립
상시
ung
▁관우
▁레프
▁우두
라이드
▁데일리
화학
▁김치
▁도우
▁천천히
▁Rock
몬트
▁격려
▁금동
▁대종
▁톱니
▁하급
▁헤로
▁노미야
▁서초구
▁아라곤
▁유적지
▁Comp
▁톡
▁간직
▁림프
▁박상
▁조니
▁한문
▁후쿠오카현
▁NP
▁과시
▁관성
▁김천
▁한큐
▁비스타
▁아우르
▁불경
▁앤디
▁자진
▁주세
▁탈취
▁헌터
▁녹색당
티에
eth
▁마타
▁미성
▁칼슘
▁동맹군
▁컬렉션
▁플랑크
▁덥
레드
▁서스
▁아츠
▁전미
▁Univers
▁핏
▁버섯
▁애인
▁장녀
▁Car
업자
▁끓이
▁도출
▁심부
▁강화도
▁도야마
▁스포르
익스피어
▁레인저스
▁갚
▁버러
▁아메
▁에마
▁불계승
▁픽처스
▁미나모토
▁셰익스피어
들러
▁격하
▁구금
▁노랑
▁라흐
▁사귀
▁오하
루이스
▁TBS
▁ㄹㅓㄴ
▁초콜릿
▁촐
▁Am
▁도이
▁막판
▁시속
▁심상
▁발사체
▁우울증
▁케이크
▁도카이도
IR
▁공양
▁라즈
▁바비
▁휴양
▁명인
▁소사
▁Rec
▁게오르
▁참모총장
oth
▁굳히
▁까마
▁미츠
▁비지
▁월트
▁점검
▁페더
▁황산
▁후하
▁고려대
▁로스쿨
▁부르고뉴
태평
▁AB
▁기쁨
▁에로
▁현판
▁230
▁순양함
▁인공위성
▁반동
▁유영
▁카레
▁GNU
▁베르타
▁스탠리
▁from
▁에스페란토
▁플로리다주
트르
폭탄
▁구치
▁대차
▁Sup
▁글래스
▁상관없이
▁핼
국적
▁강진
▁낚시
▁노프
▁당뇨
▁대주
▁배역
▁상정
▁조롱
▁특사
▁물려주
▁가와사키
▁견고
▁귀속
▁무단
▁사상가
▁서바이
ublic
▁가르시아
▁러시아군
▁구독
▁마트
▁심문
▁용품
▁운임
▁향기
민스터
▁ㄹㅏㅁ
▁밀려나
▁마르세유
▁중앙은행
▁슈타
▁이범
▁청량
▁파편
▁로빈슨
▁지바현
▁프리스
▁Do
▁미아
▁발목
▁스킴
▁피사
▁흥분
▁휘말리
▁IV
▁가부
▁대진
▁스투
▁재차
▁기업가
▁수나라
그마
바리
▁꾸리
▁끼우
▁동종
▁배기
▁청송
▁1888
유사
헤드
▁네모
▁대접
▁울릉
▁유포
▁쇠고기
▁펠리페
▁율리우스
▁Su
▁시우
▁페오
▁이바라
▁노스캐롤라이나
▁닉슨
▁명부
▁온대
▁ㄹㄹㅏ
▁경계선
▁세비야
▁수차례
▁하이퍼
▁매달
▁물결
▁백자
▁성기
▁국제선
▁로이드
▁ㄷㅏㅁㅕㄴㅅㅓ
둘기
▁리차
▁사커
▁아와
▁카야
▁애덤스
▁1892
▁박테리아
▁Sw
▁붕어
▁사키
▁산수
▁웃음
▁재발
▁지난
▁다이빙
▁케이트
▁평안도
▁허드슨
▁깁
▁푹
▁ar
▁데미
▁메틸
▁시문
▁입헌
▁제철
▁쫓아내
▁우에스기
▁공법
▁사변
▁어의
▁에바
▁유무
▁제창
▁프로모
연수
홍색
▁이봉
▁주먹
▁펠트
▁대전차
▁산스크
▁소학교
▁자라나
▁절도사
▁산스크리트
▁납부
▁모던
▁새뮤
▁연회
▁원유
▁코사
▁다카라
▁활동가
AI
▁고스
▁나뭇
▁낙양
▁농축
▁재앙
▁조선왕
▁펩
자동
▁계량
▁미식
▁산청
미디어
▁대공국
▁대명사
▁문자열
▁ㅇㅡㄹㅏ
▁ㅇㅡㄹㅕㄴㅡㄴ
AE
비크
암리
▁강성
▁군데
▁옥타
▁위계
▁자립
▁해병
▁볼로냐
▁스탠드
▁스테판
▁아브라
▁차세대
다오
티노
▁공시
▁니켈
▁라드
▁순례
▁자코
▁공방전
▁관현악
▁데스크톱
▁소동
▁필하
▁하임
▁더블린
▁레이디
▁지리학
▁1876
보리
▁wh
▁선양
▁애초
▁직계
▁논리학
▁북조선
▁사간원
▁굶
▁씻
사태
▁CG
▁불사
▁생모
▁장래
▁중고
▁침례
로니아
▁USB
▁세네갈
▁앤서니
▁후원자
네트
▁완도
▁조개
▁축성
▁고려사
▁성매매
▁페르난도
▁프레임워크
ah
▁맥아
▁반주
▁복싱
▁손녀
▁이나
▁토이
▁통폐
▁사단장
▁올리버
▁1866
▁가면라이더
▁뱃
▁노랗
▁이산
▁ㅇㅡㅅㅣ
▁알렉산드로스
광성
▁간혹
▁로브
▁세레
▁소용
▁알폰
▁채색
▁전주시
▁1886
▁베네딕토
▁프린스턴
너드
로쿠
▁대금
▁미미
▁발의
▁수력
▁전권
▁정진
▁포탄
르타뉴
▁260
▁사절단
▁서기관
▁헤라클
▁브르타뉴
▁펫
▁군관
▁두각
▁송환
▁Gre
▁보좌관
▁덱
다보
뮬러
▁거룩
▁면모
▁부양
▁죄수
▁파파
▁펴내
▁장제스
네임
분열
▁저우
▁교구장
▁도르트
▁구스타프
▁베이시스트
▁웨스트민스터
EST
▁co
▁당황
▁댓글
▁아디
▁앨리
▁조소
▁풍습
▁생리학
▁이즈미
▁카운트
▁집행유예
▁인플레이션
철수
▁너스
▁바시
▁번갈
▁비우
▁살라
▁원상
리카락
▁게시판
▁브래드
▁조나라
▁드미트리
▁머리카락
▁얼룩
▁잘리
▁덩어리
▁바이어
▁꽂
▁뮐
큐어
▁과연
▁마린
▁부류
▁유능
▁임계
▁초전
▁파커
▁펀드
▁합천
▁민영화
▁코소보
레시
코르
▁서예
▁신진
▁약점
▁에리
▁270
▁새뮤얼
▁스테인
▁통폐합
▁페미니
▁Tour
직경
▁긴키
▁단조
▁마나
▁본체
▁엘런
▁현과
▁간사이
우회
ron
▁깃털
▁위패
▁이호
▁조현
▁퇴위
▁경영학
▁독립군
▁시직경
▁프란치스코
▁펭
▁경무
▁나름
▁도성
▁도약
▁아자
▁유다
▁보살상
▁삼각주
▁1887
▁브리티시
▁도하
▁수하
▁음운
▁일진
▁제르
▁포츠
▁프루
꿈치
▁모라
▁박수
▁산물
▁표하
▁강서구
▁금나라
▁사쓰마
▁서포터
▁역사학
▁주니치
▁축구팀
▁마르쿠스
ble
러뜨리
라호
슈타
쓰기
▁동창
▁박자
land
▁Wii
▁근거지
▁이어주
▁화요일
지오
ave
▁ML
▁고창
▁도제
▁망하
▁물류
▁배척
▁중개
▁출혈
▁편안
▁행방
▁도미니카
왕후
▁KB
▁Up
▁무수
▁악곡
▁여타
▁오산
▁자궁
▁코호
▁타구
▁펠로
▁용의자
▁유전학
▁1861
▁모차르트
▁프리미엄
▁Dream
비안
제비
클라
하임
▁과잉
▁레트
▁지아
19
▁단거리
▁베이비
▁부분군
▁쏟아지
▁Life
▁재단법인
코타
▁it
▁올레
▁유머
▁유타
▁직사
▁해결책
▁클레멘스
▁버크
▁형용
짜기
▁SV
▁광선
▁급히
▁습득
▁집정관
▁1864
▁볼티모어
▁불러들이
▁세분
▁신세계
라르
▁가닥
▁슬램
▁특기
▁아무리
▁모닝
▁수이
▁오대
▁완결
▁장애물
▁황해도
▁석가모니
▁카르타고
ult
▁기밀
▁불분
▁왕관
▁위시
▁익명
솔리니
▁후세인
DA
▁몰두
▁장전
▁천지
▁환관
▁당선자
▁데이빗
▁홈경기
▁SH
▁교지
▁모국
▁사하
▁세무
▁아쉽
▁오메
▁외환
▁정예
▁공연장
▁바로크
▁음악원
▁좌표계
▁프랑코
▁스트리밍
콘신
▁구문
▁꺼리
▁라시
▁마구
▁빅뱅
▁사내
▁슬프
▁승단
▁양현
▁뛰어넘
▁백악기
▁코스트
▁위스콘신
즐리
플린
▁내포
▁리트
▁에두
▁페스
▁1850
▁싹
디슨
▁RT
▁경건
▁지면
▁포화
▁다카라즈카
동자
열차
▁TC
▁ㄴㅛ
▁철강
▁혼혈
▁홀딩
▁다행
▁무자
▁발톱
▁촛불
▁파직
▁홍성
▁남베트남
▁레버
▁실각
▁여건
▁착하
▁평탄
▁개정안
▁모나코
ational
▁렙
orm
▁만점
▁복위
▁암모
▁허블
▁네티즌
▁휘두르
ition
▁마을버스
▁고모
▁스모
▁어우
▁오일
▁잔디
▁추존
▁카이로
▁컨텐츠
▁1881
EP
▁승하
▁증세
▁보너스
▁토트넘
▁건네
▁공판
▁에반
▁접합
▁쿼크
▁토목
▁푸아
▁하얀
▁히토
바도르
▁바람직
▁생성물
▁참의원
▁행정동
브웨
▁워킹
▁자릿
▁홈즈
▁가해자
▁사나이
▁Music
니오
▁구례
▁리에
▁백업
▁부풀
▁예의
▁재결
▁짐바
▁노동력
▁보안법
▁사들이
▁재판관
▁if
▁객원
▁군세
▁근래
▁도산
▁마요
▁요금소
ton
▁en
▁관내
▁삼척
▁쓰루
▁황자
▁아카이
▁재판부
▁미네소타
예술
▁AG
▁구획
▁눈치
▁요괴
▁잠실
▁차수
▁카와
▁대교구
▁대표단
▁1830
▁루스벨트
▁크리에이
▁계보
▁괘불
▁뒤늦
▁방공
▁침대
▁무작위
▁유니버스
▁돗
린트
▁고하
▁남조
▁더하
▁매진
▁민물
▁아타
▁왕성
▁이력
▁자판
라호마
▁압록강
▁주나라
른베르크
▁오클라호마
렌스
▁산기
▁승지
▁헌납
▁로맨틱
▁합창단
▁도라에몽
▁컴파일러
뛰기
▁강세
▁목욕
▁뷰티
▁전리
▁판관
▁관련자
▁외무부
▁장난감
▁닛산
▁동차
▁말단
▁오우
▁패권
▁편하
▁화성시
아메리카
▁소라
▁이별
▁익산
▁재벌
▁전교
▁코난
ject
▁iOS
▁XP
▁관용
▁러닝
▁벌레
▁세간
▁스몰
▁이누
▁현미
▁마르셀
▁야구단
화경
▁경도
▁스기
▁아편
▁쿠로
▁돋보이
라이어티
▁버라이어티
▁헤라클레스
▁Ed
▁다비
▁미상
▁발포
▁별장
▁정황
▁파주
▁까마귀
▁반대파
▁여학생
▁1872
평리
▁경매
▁남송
▁부전
▁스윙
▁엿보
▁감리교
▁해석학
▁세르게이
ION
▁딸리
▁시원
▁알맞
▁조심
▁종업
▁찍히
▁파열
▁팔작
▁ㄴㄷㅔ
▁불분명
▁이메일
▁낭만주의
▁무솔리니
▁이시카와
▁꿰
▁an
▁신봉
▁챙기
▁라치오
▁Open
▁트레이닝
께끼
림사
비오
타입
▁금고
▁기고
▁김희
▁당진
▁등등
▁레비
▁발자
▁배트
▁삭스
▁의례
▁조경
▁흑백
슬라프
▁피닉스
▁수수께끼
▁루나
▁마티
▁애슬
▁체하
▁농어촌
달마
▁몸돌
▁양조
▁용사
▁이은
▁켄터
▁트란
▁750
▁다비드
▁라이스
▁모멘트
▁베일
▁복직
▁승상
▁여호
▁인제
▁종묘
▁중랑
브리드
▁롬바르
▁유라시아
▁엡
나파
덕왕
▁BL
▁te
▁교동
▁꼬마
▁양면
▁필연
태평양
▁대중교통
▁대한항공
▁교제
▁기통
▁두어
▁야망
▁원동
▁의용
▁주고
▁콘티
ㅌㅇㅣ
▁범죄자
▁센다이
▁ㄱㅏㅌㅇㅣ
▁부다페스트
어드
▁그란
▁선율
▁음주
▁청년회
▁부르주아
더지
데자
ics
▁경량
▁레아
▁모란
▁변종
▁샤이
▁진흙
▁캐피
▁햇빛
▁허목
▁Don
▁아이콘
▁초록색
▁하얀색
▁화학자
데자네이
ru
쿠니
▁도봉
▁발산
▁복역
▁브렌
▁오스트리
▁튼
번에
클럽
▁메우
▁발하
▁생도
▁지경
▁친밀
▁격투기
▁세군다
▁호크스
▁하이브리드
ier
▁가든
▁탄산
▁ㅇㅡㄹㅣㄹㅏ
▁Sm
▁넥센
▁대강
▁반죽
▁순항
▁오트
▁이례
▁장쑤
▁투하
▁티모
▁계승자
▁다시금
▁파충류
▁1863
▁도르트문트
바인
▁Ab
▁가독
▁배향
▁보정
▁슈고
▁옹주
▁작품상
▁탐험가
▁1865
▁"-
▁납작
▁당과
▁매스
▁파기
리아스
▁개체군
▁밀가루
▁박영효
▁항아리
매김
워즈
▁과다
▁닌자
▁단국
▁봉황
▁피셔
▁휩싸
▁기획사
▁시간대
▁타임즈
▁쵸
리쿠
▁덴쇼
▁이니
▁작년
▁편제
▁피카
▁난이도
▁HTML
▁교통사고
단위
루크
▁왓슨
▁코마
▁탐정
▁페라
▁앞세우
▁유전체
▁챌린저
▁공군기지
데자네이루
▁리우데자네이루
▁거꾸
▁조공
▁청문
▁클릭
▁고성군
▁승정원
▁1891
▁오카야마
▁Night
친왕
▁살짝
▁잠기
▁조시
▁발기인
▁우간다
리야
ode
▁곱셈
▁대의
▁어촌
▁경복궁
▁유니언
ool
▁AL
▁곡면
▁란스
▁처방
▁취향
▁아이디얼
▁자리매김
▁경마
▁고난
▁구슬
▁메츠
▁애완
▁태아
▁안산시
▁1873
미쓰
훈장
▁대목
▁미인
▁법전
▁철종
▁포대
▁한창
▁ret
▁선제골
▁앤드류
▁여진족
▁조선소
▁켄터키
▁쩔
▁박진
▁완비
▁요즘
▁직관
올로기
▁베스트셀러
▁이데올로기
TE
쿠르
▁경지
▁벌리
▁열렬
▁조장
▁카슈
▁킹스
▁승용차
▁세계유산
▁짐바브웨
타스
ise
▁굴복
▁내재
▁두텁
▁루즈
▁배아
▁충당
▁픽셀
▁해킹
▁와이드
QL
UC
▁--
▁고마
▁구강
▁반점
▁쇼크
▁입시
▁재고
▁정명
▁후미
▁다국적
▁받침돌
▁수시로
▁자유형
▁려
스레
▁계좌
▁상파
▁시진
▁어는
▁여대
이스케
▁단자
▁리브
▁부실
▁부추
▁코뮌
▁혈압
▁몰도바
▁발가락
▁포항시
ai
▁PM
▁걸작
▁도도
▁매립
▁모함
▁촉발
▁노르드
▁릴레이
▁ㅇㅕㄷㅗ
▁온타리오주
▁샨
린더
▁NS
▁기쁘
▁마모
▁공통점
▁그나마
▁제너럴
▁테무르
동맹
che
▁과격
▁리키
▁비키
▁자켓
▁착취
▁필두
stem
▁국민회
▁MA
▁급하
▁등단
▁반항
▁신대
▁외상
▁위법
▁토로
▁튼튼
플렉스
▁시티즌
▁샵
레반
▁볼넷
▁입술
▁합금
▁매달리
▁백악관
▁제프리
▁팔작지붕
▁Black
무제
▁계엄
▁리자
▁신의
▁야심
▁헤어
▁현무
부아르
합중국
▁괜
▁국호
▁양궁
▁인위
▁최장
▁통지
▁페인
▁하스
▁Can
▁공식전
▁슬로건
▁종업원
▁야쿠르트
성경
▁교서
▁극찬
▁라크
▁분경
▁불로
▁유태
▁해시
▁김성수
70
바지
세다
▁당당
▁라면
▁에치
▁연화
▁적발
▁조준
▁체내
▁키즈
ower
▁Good
NG
▁믈
▁켜
킨슨
▁간판
▁병단
▁서위
▁아뢰
▁용감
▁스테이트
▁구시
▁버펄
▁산책
▁거꾸로
▁삼국유사
▁이바라키
▁section
▁콧
▁광배
▁네임
▁병과
▁소작
▁양양
▁을사
▁이강
▁토유
▁헌병
선거구
▁550
▁다마스
▁트로트
▁무로마치
▁머니
▁문정
▁부에
▁우마
▁파랑
타나베
▁하반기
▁아비달마
▁피츠버그
상어
▁qu
▁증강
▁터빈
▁705
▁Let
▁댈
▁나탈
▁무고
▁아델
▁앵커
▁연행
▁주저
▁캐논
▁지자체
▁취리히
▁1862
▁페르디난트
▁q
티야
펠러
▁산신
▁오즈
▁흔들
▁반정부
▁캐스트
▁1867
▁El
▁MM
▁국부
▁무도
▁진언
▁진원
▁채굴
▁피어
▁현도
스코트
▁650
▁앨버트
▁폼페이
▁삐
진구
ank
▁독주
▁모반
▁서지
▁황폐
드라마
▁크루즈
▁아오모리
▁이노우에
▁코호몰로지
▁광자
▁농성
▁맞춤
▁타도
▁미카엘
▁스테이
레타리아
해살이풀
▁미합중국
▁프롤레타리아
대전
방군
정사
▁AI
▁경은
▁조어
▁증발
▁해지
▁IMF
▁연주회
▁용산구
▁자외선
▁온건
▁투신
▁활자
ings
▁스코어
▁알폰소
곡면
▁가비
▁북벌
▁세단
▁송진
▁수퍼
▁열쇠
▁전멸
▁흡연
▁경희대
▁서두르
조리
▁대담
▁사교
▁심정
세우스
▁변광성
▁증조부
리언
▁스킬
▁손잡이
▁언론사
▁엑스포
▁조선왕조
포타
▁AU
▁광업
▁완수
▁잔존
▁조서
▁국민학교
DS
고르
▁노브
▁연달
▁증식
절도사
▁사이타마현
투르
활약
▁Ac
▁군자
▁양군
▁예종
▁옥시
▁유구
▁접전
▁사보이
▁연출가
▁타이탄
▁캣
렐라
참찬
▁걸프
▁엘라
▁MSL
▁레인저
포타미아
▁신한은행
▁메소포타미아
센터
▁LS
▁UC
▁보직
▁장신
▁저축
▁쿠라
▁노르만
▁맹활약
▁6000
▁빠져나가
▁라이프치히
▁썩
▁기묘
▁성수
▁씌우
▁온두
▁위헌
▁처치
▁캐치
▁코모
▁키릴
▁페드로
▁온두라스
북면
lar
▁치이
▁푸드
▁횡령
▁곁들이
▁대리석
▁사무국
비언
인구
▁국력
▁꽃잎
▁나사
▁처장
▁감염증
▁일본식
▁출입문
▁편집장
▁궐
▁낡
▁-&
▁간결
▁상선
▁서한
▁충칭
▁기원후
▁다이노스
디언
▁변증
▁엘레
▁오보
▁조석
▁협동조합
tr
ㄹㅜ
▁강호
▁동탁
▁버진
▁세토
▁신해
▁1878
▁미나모토노
ky
할린
▁루피
▁유림
▁유망
▁차림
▁마그네
▁부여군
▁신기록
▁치료제
▁컴파일
▁타타르
중추부사
▁프로모션
▁밋
사화
위치
▁Qu
▁동자
▁변모
▁스톰
▁시역
▁작중
rist
▁갈아타
▁건륭제
▁웨이브
▁백과사전
▁샴
젤로
▁ㅁㅗ
▁당파
▁도발
▁매도
▁번개
▁자행
▁지그
▁지탱
▁직교
▁필명
▁Ser
▁제조사
ta
퉁이
hem
▁가극
▁고찰
▁무너
▁사드
▁옥천
▁절약
▁참패
▁사대부
▁프리츠
▁되돌아가
▁무너뜨리
▁뵈
▁완만
▁이끼
▁표출
플로러
▁주고받
▁홀딩스
▁익스플로러
▁팍
시게
▁괄호
▁자부
▁중용
▁충신
▁하중
▁HMS
▁이성질
▁고등학생
▁비스마르크
빌리
▁개기
▁국인
▁급성
▁회유
▁후드
▁입법부
▁프로테
▁DR
▁바쿠
▁지린
▁히노
▁802
▁And
▁경쟁자
▁뉴기니
▁무사히
▁플러그
ee
▁ㅣ
▁킷
▁팻
산부
▁가물
▁다량
▁라다
▁부군
▁시르
▁영사
▁일설
▁적정
▁청각
▁행군
▁글로브상
▁스케이트
▁요리토모
▁프라이즈
▁일리노이주
루엔
일치
▁길드
▁보류
▁참수
뉴기니
▁액세스
▁플루토
▁핵분열
다발
벤션
▁매슈
▁손님
▁스에
▁정박
▁널
▁밧
▁부두
▁애기
▁용해
▁육식
▁일선
▁직물
변속기
시아드
▁해부학
▁와타나베
다스
▁tr
▁과자
▁서점
▁소피
▁잉크
▁저해
▁점진
▁와세다
▁이브스
▁1869
▁유니버시아드
▁ㄹㅏㅁㅕㄴㅅㅓ
▁Ag
▁수레
▁피처
▁마포구
▁불가피
▁업로드
▁자릿수
▁특별법
▁포뮬러
누마
▁고국
▁몸체
▁현악
▁페르미
▁코퍼레이션
내티
셔주
▁객실
▁북대
▁수급
▁방위군
▁봉우리
▁수비대
▁외교부
▁쿠르드
▁ㅇㅡㄹㅓ
▁신시내티
▁근방
▁면직
▁벵골
▁솔라
▁잔해
▁아이젠
▁원자핵
▁그거
▁기조
▁다목
▁맛보
▁지체
▁추후
▁표절
▁형주
ㅓㄴㅏ
▁베르나
▁인지도
▁제작진
▁키르기스
▁후지와라
ae
정보
▁SO
▁무비
▁서거
▁패킷
▁포천
▁포탑
▁행보
▁썬
▁대타
▁로시
▁용수
▁텍스
▁기동전
▁1592
▁명성황후
▁강우
▁모티
▁목동
▁박원
▁항생
▁사생활
▁안동시
▁영유권
▁장로회
마디
▁고을
▁성품
▁오자
▁유화
▁축일
▁골짜기
▁수도회
▁스파이더
▁친선경기
▁AA
▁반입
▁부관
▁시시
▁이목
스타인
ount
▁운동량
▁인코딩
▁프라임
▁탬
노르
▁무색
▁사부
▁수당
▁위도
▁자처
▁토라
▁생화학
▁오스카
암사
티컷
▁글렌
▁금색
▁논산
▁빈민
▁쫓기
▁치사
▁콜드
▁포자
▁헤더
▁부등식
▁유엔군
▁코네티컷
세르
▁그물
▁민심
▁상의
▁컴필
▁로타르
▁며느리
▁목적지
▁연예계
▁지하역
▁Song
▁컴필레이션
▁크리스티나
수염
▁국세
▁내란
▁사소
▁소박
▁자정
▁토키
가르트
▁금강산
▁여객기
▁팔꿈치
▁1840
자원
▁PL
▁숙소
▁위즈
▁절친
▁바닷물
▁파시스트
▁프랑스와
BI
▁낯
네르
작전
▁단역
▁린다
▁빅터
▁폴라
▁516
▁Mon
▁리차드
▁ㄴㅑㄱㅗ
ata
▁RC
▁가방
▁지문
▁출국
▁헤겔
▁강력히
▁네이트
▁유년기
▁마스코트
▁힐베르트
▁로드리게스
구스
▁가곡
▁귀인
▁분별
▁아어
▁암수
▁캐슬
▁쿼터
▁아우구스
▁여우원숭이
pr
per
▁닉스
▁변질
▁추축
▁티저
▁풍기
▁하수
▁레지스터
▁랙
블릿
ade
▁me
▁고제
▁디나
▁벤츠
▁병풍
▁자루
▁자취
▁튜브
▁하라
▁헤일
▁사이언스
▁에이전트
▁볶
효소
▁공상
▁넘버
▁다쓰
▁단서
▁상식
▁휘발
▁과반수
▁시니어
▁창립자
▁심리학자
▁Heart
▁아나톨리아
▁return
▁KN
▁바쁘
▁블러
▁심소
▁영수
▁유이
▁최하
▁패망
▁떠올리
▁패스트
▁필사본
▁벳
부시
히메
▁거창
▁국화
▁백조
▁영미
▁유자
▁입출
ㅇㅡㄴ
▁그래도
▁글러브
▁종착역
▁히타치
▁매킨토시
▁지장보살
▁Pe
▁ab
▁계룡
▁성가
▁수만
▁자질
▁천상
▁출세
▁탁구
이치로
▁맥아더
▁휩싸이
90
찬성
▁란트
▁발착
▁성대
▁워스
▁유골
▁전단
▁구단주
▁테크놀
▁파주시
사우루스
▁펜실베이니아주
테랑
▁괜찮
▁렉스
▁염화
▁나치오
▁스트림
▁예언자
▁와카야마
▁Windows
날드
ium
▁농가
▁쌍성
▁이카
▁뒤따르
▁8000
히데
▁거사
▁겸직
▁끌리
▁라라
▁미학
▁악명
▁여포
▁보유자
▁세미나
▁어도비
▁적십자
▁그린란드
IX
▁강인
▁권익
▁능가
▁라프
▁상과
▁스택
▁온실
▁청취
▁퀴즈
▁비둘기
▁엇갈리
▁지질학
▁ㄴㅣㄲㅏ
▁ㄹㅏㅇㅜ
▁영등포구
어하
전선
▁Gl
▁베오
▁실상
▁오시
▁윤휴
▁페레
▁흥원
▁관심사
▁남아시아
넌트
선언
▁바보
▁바인
▁에트
▁의주
▁중견
▁초음
▁하구
크라테스
▁알프레드
▁아나키스트
▁세인트루이스
IF
욕장
▁규율
▁기행
▁문중
▁반론
▁의복
▁조비
▁댈러스
▁1875
던트
▁As
▁뉴런
▁박히
▁시찰
▁연중
▁피살
▁시미즈
▁운전자
▁데카르트
계사
테이
▁동호
▁왜군
▁임종
▁저그
▁Out
▁채권자
▁헤르만
▁되돌아오
링겐
수단
▁상동
▁숙련
▁준동
▁침식
▁고문서
▁안창호
▁진주시
▁집단군
▁Aw
▁노현
▁삭감
▁유카
▁이심
▁나리타
▁이와테
▁모자이크
▁강습
▁니케
▁다름
▁들르
▁볼록
▁사각
▁신지
▁외척
▁콜린
▁담당자
▁보리스
▁근본번뇌
기즈
탄두
▁도적
▁독살
▁마레
▁양파
▁은밀
▁직렬
▁질투
▁친화
▁안타깝
구니
기아
▁뒤지
▁디바
▁웍스
▁징집
▁키리
▁표제
▁토요타
▁회고록
어가
▁귀엽
▁기린
▁몹시
▁미지
▁수증
▁호른
▁Gen
▁예비역
▁치료법
▁고등교육
이에
itt
▁VS
▁김연
▁설리
▁아다
▁예프
▁원단
▁철자
▁최남
▁타나
▁호그
▁게임기
▁사이즈
▁표트르
▁남양주시
보당
사유
▁걸음
▁교파
▁노원
▁선상
▁여럿
▁용지
▁위크
▁이선
▁잠입
▁정오
▁파랗
▁한민
▁혼잡
레이트
▁KTX
▁친환경
▁컨벤션
뻐하
son
▁김두
▁로사
▁문체
▁어사
▁월화
▁일명
▁텐서
▁해트
▁AMD
▁기뻐하
▁리스본
▁매디슨
▁일부러
▁학술지
▁DB
▁sh
▁교훈
▁면담
▁방울
▁셔틀
▁이희
▁인승
▁컵스
▁키드
▁돌고래
날레
▁다자
▁변혁
▁열세
▁의정
▁절충
▁착각
▁출품
▁통도사
▁피의자
▁뉘른베르크
▁브란덴부르크
▁막강
▁목장
▁생원
▁첩보
세데스
▁아세틸
▁칭기즈
▁파라오
▁함경도
▁병자호란
▁쳐들어오
▁땀
놀드
세서
▁닥치
▁달콤
▁서약
▁아노
▁에레
▁외면
▁취직
▁터너
▁강희제
▁북극점
▁장갑차
▁몽고메리
▁메르세데스
▁눌
더링
어류
조사
▁기운
▁단양
▁리크
▁문관
▁순식
▁어부
▁집전
▁타쿠
에이고
▁강대국
▁테오도
▁샌디에이고
▁포르투갈어
PA
방향
은사
▁금정
▁비료
▁선체
▁슈투
▁안중
▁야수
▁레스터
▁이사벨
▁크메르
알라
엽수
▁TS
▁로큰
▁바늘
▁배반
▁아지
▁의성
▁태안
able
▁380
▁가환환
▁광둥성
▁다이쇼
▁성폭행
▁통신망
▁항공대
▁구루
▁생쥐
▁실명
▁체로
▁특공
해방군
▁꽃차례
▁데이트
▁슈타인
▁스케치
▁연속극
▁클리어
▁인민해방군
▁디디
▁버트
▁서당
▁원효
록대부
▁야마다
▁중앙선
▁안드로메다
▁교관
▁양지
▁포인
▁"()
▁송파구
▁신석기
▁이랜드
▁저널리스트
두사
부대
ale
▁기판
▁레몬
▁율법
▁즐거
▁폐허
▁로큰롤
▁바나나
▁베르트
▁부적절
▁쇼핑몰
▁스피커
▁종사자
▁코트디
▁클레어
▁행해지
▁페널티킥
▁코트디부아르
ng
세키
▁모질
▁방호
▁세일
▁예식
▁왕래
▁인먼
▁로버츠
▁비단털
▁싫어하
▁크라운
몽골
촌리
▁KO
▁감기
▁동거
▁라울
▁로바
▁성행
▁애착
▁영락
▁칸트
루엔자
▁Par
▁아리랑
스코리아
▁비단털쥐
▁오프라인
▁기공
▁명상
▁슬리
▁일차
▁반감기
▁상반기
▁파스칼
르카
▁교화
▁래리
▁수마
▁술라
▁스펜
▁안식
▁자장
▁마주치
▁프론트
▁끌어올리
▁바빌로니아
니에
우주
크리
▁가모
▁기마
▁모피
▁수은
▁실은
▁헤센
▁환율
▁활기
▁ㄹㅗㄹ
▁맥스웰
▁정치국
▁WC
▁결전
▁구아
▁금환
▁보그
▁보우
▁야권
▁장정
▁정에
▁중일
▁708
▁선거인
▁University
UN
데기
박사
시대
행파
▁극소
▁모사
▁사주
▁서클
▁엔젤
▁이홍
▁잉카
▁향신
▁대항전
▁형용사
▁관음보살
▁보컬리스트
▁가세
▁모체
▁문수
▁위트
▁출격
▁205
▁Vol
▁건너오
▁라이베리아
▁탭
▁가명
▁거머
▁구세
▁동군
▁정언
▁정칙
▁후루
▁ATC
▁데뷔작
▁보호법
▁합성어
건설
▁At
▁규약
▁야코
▁열악
▁순식간
▁콘라트
▁벙
▁경순
▁경의
▁라벨
▁샤르
▁실사
▁이질
▁획기
▁되풀이
▁보조금
▁사할린
▁싯
연구
▁데일
▁로니
▁복부
▁조봉
▁집사
very
▁ᄇㅅㅣ
▁통계청
▁쇼트트랙
▁엑스박스
▁인플루엔자
쿠사
▁미첼
▁ㄷㅏㄴ
▁사학자
▁슈미트
▁캐스터
▁조선공산당
▁텅
윽고
▁JC
▁경종
▁구타
▁기미
▁박용
▁박재
▁외손
▁월남
▁치마
▁NBC
▁김해시
▁이윽고
▁IR
▁금하
▁배당
▁베티
▁불쾌
▁상계
▁시의
▁아연
▁안톤
▁에코
▁염두
▁외할
▁토피
▁235
▁개그맨
▁스케줄
▁시마즈
▁name
▁로베르토
루즈
모음
벌리
양이
▁군복
▁등산
▁자위
▁초계
▁후한
▁DOS
▁가이아
▁호흡기
▁엣
▁서안
▁수역
▁양극
▁양서
▁에노
▁자키
▁재화
▁칼륨
▁호로
폴리탄
▁메트로폴리탄
사와
▁남단
▁내림
▁노카
▁비옥
▁정글
▁풀백
co
▁뤄
▁골절
▁나기
▁마흐
▁사미
▁안팎
▁외삼
▁우기
▁하산
▁후이
▁스케일
▁최성기
▁그레이엄
▁셴
화당
▁리나
▁불복
▁석기
▁솜씨
▁신병
▁유충
▁족장
▁타시
▁tvN
▁남극점
▁자격증
▁테두리
▁지하철역
▁랠
▁cc
▁경화
▁대류
▁라가
▁무능
▁병렬
▁안심
▁웨어
▁케리
▁코바
▁포니
▁화승
▁브로드웨이
에쓰
황색
▁실효
▁재보
▁카로
▁한겨
▁사무관
▁열역학
▁조각상
▁채무자
▁우두머리
so
그램
보라
큐슈
▁띄우
▁버니
▁종가
▁통솔
▁간호사
▁당뇨병
▁로페스
▁안드레
18
르산
▁가뭄
▁균일
▁나한
▁세스
▁소론
▁오마
▁축복
▁패치
▁반대편
▁안양시
▁천도교
▁This
▁미스코리아
▁아우구스투스
▁맴
IVE
▁결말
▁고층
▁뉴멕
▁부엌
▁요직
▁이달
▁일간
▁창구
▁키타
▁키트
▁협곡
▁화원
▁동아리
▁시그마
▁신호장
▁뉴멕시코
▁중앙아메리카
yn
▁잼
▁동백
▁리시
▁무가
▁시제
▁양평
▁정승
▁줄곧
▁공주시
▁파푸아뉴기니
나들
열대
텐셜
ATO
▁마늘
▁무예
▁산조
▁악당
▁은폐
▁일주
▁칠성
▁침범
스크림
▁거주자
▁조각가
▁카디널
▁유가행파
▁일삼
▁잔혹
▁확충
▁다가가
▁라스트
▁스틸러스
신저
악산
주크
ala
▁기스
▁숙박
▁중남
▁한복
▁홍익
▁교육감
▁무지개
▁트레일
▁1874
▁일렉트릭
▁sp
▁ㅅㅏ
▁기닿
▁다쿠
▁몰수
▁이색
진보당
▁재미있
▁퍼텐셜
▁컨퍼런스
시험
▁넷플
▁레나
▁발작
▁베크
▁잔여
▁성폭력
▁저스틴
▁넷플릭스
▁콘퍼런스
징어
net
▁메모
▁묘호
▁빌드
▁판명
▁향수
▁가요제
▁동남쪽
▁에스컬
▁클로드
▁한겨레
▁항공편
▁휴대폰
▁바그다드
▁호소카와
▁알렉산데르
▁에스컬레이터
프랑
▁가온
▁라플
▁송이
▁읍성
▁인스
▁젠더
▁조동
▁캠벨
▁학당
▁204
▁대수학
▁서스펜
▁앞바다
▁후쿠이
▁벚
운수
▁낭비
▁미겔
▁발판
▁소양
▁손목
▁싱크
▁이문
▁잉여
▁쿠마
▁게임즈
▁지리산
▁1877
▁ᆫㄷㅏㄴ
▁바이마르
▁퀄
소문
ody
▁리타
▁맞물
▁옥사
▁품목
야누스
▁뉴올리
▁오르간
▁프레슬리
ax
me
▁흐리
▁여운형
▁기울어지
▁슈퍼스타
▁콜럼버스
anc
▁단발
▁애드
▁점하
▁차명
▁코크
▁루이즈
▁사하라
▁참전하
▁7000
▁오아시스
▁트라야누스
더릭
▁SR
▁강좌
▁사중
▁상한
▁예멘
▁주군
▁코로
▁하지
▁허베이
▁서아프리카
▁격전
▁복속
▁산문
▁선단
▁에페
▁재회
▁차오
▁클랜
▁탄수
▁원주시
▁멀티미디어
민당
ash
oid
▁도형
▁아킬
▁행선
어나오
▁Bab
▁공학자
▁돌려보내
▁쿰
▁AF
▁GR
▁강국
▁그립
▁델리
▁민원
▁본존
▁앞뒤
▁양천
▁APG
▁중거리
▁핸드볼
GB
au
혈구
▁그르
▁두뇌
▁모치
▁무주
▁바니
▁석권
▁순찰
▁엄지
▁출사
▁토바
▁화염
▁컨설팅
▁Best
높이
바드
양구
ose
▁경내
▁고승
▁곤살
▁너희
▁바야
▁전조
▁지령
▁지크
▁처마
▁총영
▁추계
▁518
▁교육학
▁브리스
▁수백만
▁클러스터
ps
▁툼
변수
▁et
▁깔리
▁우표
▁인성
▁카일
▁퇴진
▁Her
▁비잔틴
▁셀주크
▁스타드
▁아놀드
▁콜린스
일기
▁나일
▁로망
▁산체
▁요가
▁부르봉
▁플루토늄
22
계약
를레
비에
▁노하
▁밸브
▁시발
▁에볼
▁오구
▁오릭스
▁청문회
▁한국군
▁갈릴레오
▁다카하시
14
피크
ict
▁건지
▁결장
▁공문
▁뮐러
▁블랑
▁숙명
▁예금
▁코린
▁만장일치
▁캄파니아
범죄
▁AE
▁가선
▁감축
▁거시
▁도안
▁라임
▁소르
▁소인
▁소주
▁유창
▁인계
▁자성
▁제지
▁강화군
▁경부선
▁엘비스
▁포식자
▁1859
▁ㅁㅓ
▁관아
▁나투
▁문맥
▁방학
▁벗기
▁상감
▁승률
▁완장
▁1700
▁Hell
▁메모리얼
남면
토크
▁YG
▁도읍
▁레크
▁사연
▁원사
▁앙드레
▁레닌주의
▁스테파노
▁KS
▁곡식
▁대입
▁뚜껑
▁중건
▁CIA
▁거머쥐
▁곧이어
▁전시관
▁콘티넨
▁현미경
▁사무라이
▁us
▁니즈
▁문물
▁볼드
▁북측
▁사병
▁산재
▁선과
▁스펙
▁요도
▁원문
▁율리
▁재물
▁루카스
▁외계인
▁프리큐어
장사
제철
형제
▁되살
▁미켈
▁미트
▁서체
▁스플
▁의제
▁퇴치
▁펭귄
▁아파치
▁연방군
▁클레오
▁혼합물
▁도부
▁뒤덮
▁명왕
▁법규
▁이씨
▁태화
▁플랑
▁게이밍
▁사다리
▁아키텐
▁오리엔
▁인류학
13
15
▁켐
EEE
▁네브
▁서품
▁쓰리
▁억울
▁통찰
▁화음
▁개화파
▁돌려주
▁울트라
▁라이센스
▁쓰러뜨리
란다
▁과세
▁리안
▁제비
▁허물
▁625
▁셰퍼드
▁우에노
나시
데일
로트
무장
▁공병
▁구가
▁맹렬
▁모교
▁부식
▁블룸
▁투사
▁순천시
▁이론가
▁이케다
▁미야기현
▁자이언트
▁자카르타
고사
마을
매기
완다
▁전범
▁푸젠
▁함장
▁달려가
▁억제제
▁핵탄두
▁테크놀로지
▁뉴클레오타이드
VA
▁멱
주석
▁se
▁경합
▁롤러
▁바투
▁앨라
▁화소
▁대사간
▁제니퍼
투리
▁구전
▁만지
▁바젤
▁백운
▁왕당
▁전서
▁후회
▁서태지
▁^
▁웜
▁챠
uck
▁김우
▁만류
▁베다
▁원점
▁츠카
▁하층
▁가치관
▁빌바오
▁이주민
▁출장소
▁뮈
동원
버터
▁박찬
▁발터
▁상환
▁원만
▁일어
▁길거리
▁직사각
▁환승역
▁아드리아
▁아이스크림
de
▁거병
▁관위
▁레티
▁산남
▁아누
▁후견
▁난쟁이
▁불러오
▁소아시아
▁크리스틴
과학
재판
▁결여
▁무공
▁속국
▁자갈
▁적법
▁결의안
▁목표물
▁미성년
▁바스크
▁선제후
▁카리스
▁IEEE
HC
HL
▁샷
나주
▁군기
▁사와
▁여정
▁총감
▁피자
reak
▁기념장
▁쓰촨성
▁출판물
▁탈레반
▁트레인
▁튀어나오
▁긋
▁끔
장조
▁근간
▁다윗
▁덮치
▁로코
▁백지
▁변론
▁왕명
▁이창
▁정청
▁주포
▁테헤
▁후면
▁순교자
▁아이치
▁이치현
조류
주사
▁로보
▁리언
▁발광
▁보어
▁북인
▁사산
▁산술
▁코이
▁하후
▁회차
▁희미
▁340
▁통계학
▁고바야시
oo
▁짚
스톤
티지
ail
▁FF
▁경원
▁수주
▁오와
▁자백
▁조회
▁튜링
▁특명
▁로저스
▁마코토
▁미트라
▁케이드
▁서바이벌
▁아미타불
르바
어놓
패드
▁김학
▁뉴잉
▁도끼
▁알로
▁용맹
▁자네
▁빈센트
▁실린더
▁향신료
▁as
▁개경
▁관군
▁논증
▁달력
▁담양
▁로디
▁승낙
▁이만
▁일면
▁장경
▁대혁명
▁볼프강
▁Star
▁카디널스
ㄱㅜ
의식
▁섹션
▁안주
▁전봉
▁진천
▁청정
▁헬스
▁화풍
게이트
▁레이건
▁지석묘
▁펙
ㅇㅏ
스퍼
▁발진
▁보국
▁양동
▁오인
▁유틸
▁정역
▁퇴출
▁폐차
▁헤라
▁Sun
▁로스트
▁안철수
▁이광수
▁정착지
▁해인사
▁국가원수
▁유틸리티
▁매사추세츠주
▁공석
▁도매
▁문건
▁미러
▁보디
▁상설
▁어선
▁홀수
하마드
▁교황령
▁오슬로
▁거문
▁금관
▁나바
▁베가
▁사생
▁상층
▁수프
▁우니
▁입찰
▁젤리
▁진심
▁310
▁가우스
▁개척자
ㄱㅓㄴㅏ
▁오토바이
▁Super
팩스
플레
▁구라
▁부락
▁세제
▁손수
▁추장
▁타파
▁통감
▁개막식
▁예문관
▁페스트
▁어우러지
댓값
소니
▁my
▁떠돌
▁아칸
▁호화
떨어지
▁울주군
▁원정대
▁얄
배마
▁교감
▁사탄
▁연해
▁짝수
▁커브
▁타밀
▁평방
▁폐하
▁209
▁국내선
▁디에고
▁아니면
▁아스카
▁앨라배마
구미
바퀴
vel
▁교인
▁멜라
▁모션
▁어학
▁추밀
▁템플
▁you
▁무신론
▁바빌론
▁브레멘
학파
▁과달
▁김도
▁김주
▁수문
▁시력
▁대관식
▁셀레우
▁윤치영
▁그래픽스
▁유니코드
▁뉴잉글랜드
▁후쿠시마현
▁콘스탄티누스
▁ad
▁근세
▁늦추
▁뚫리
▁명륜
▁산정
▁토프
▁항문
▁대대장
▁대제학
▁에이브
▁자오선
▁자치현
▁1812
▁뽀
iel
▁닷컴
▁산인
▁속초
▁정실
▁타선
▁르완다
▁송진우
▁Soul
▁중앙일보
TF
▁DO
▁강유
▁동급
▁로컬
▁맞배
▁박경
▁선별
▁성조
▁수라
▁의인
▁지카
▁충동
▁탄두
▁피그
▁삼거리
▁에이지
구나
초프
티어
▁Kn
▁김덕
▁루드
▁메드
▁장강
▁지검
▁터스
▁호국
▁206
▁한자어
▁ICBM
▁모니터링
▁알렉세이
▁무형문화재
▁근위
▁나시
▁로런
▁센타
▁수구
▁안면
▁어지
▁장지
▁호이
▁단말기
▁에세이
▁음식점
▁자본가
▁접미사
▁조광조
▁주거지
▁선거관리
▁아이파크
▁선거관리위원회
59
▁름
▁루손
▁산동
▁아호
▁풀이
▁슈투트
▁여수시
▁John
▁Christ
▁슈투트가르트
샤오
▁동맥
▁마다
▁무위
▁무진
▁빨강
▁손쉽
▁수질
▁스쿼
▁이건
▁점토
▁주유
▁코우
▁투니
하우스
▁서비스업
▁안토니우스
▁쑹
디드
▁Mi
▁Tw
▁금천
▁도자
▁법상
▁샤오
▁의논
▁장이
▁조던
▁쪼개
▁황위
시아키
▁조르주
▁주제가
네오
도감
ute
▁IF
▁ON
▁걸스
▁매듭
▁배타
▁세밀
▁연대장
▁북대서양
면적
탄올
▁교재
▁집적
▁천자
▁춘계
▁카보
공화당
▁747
▁기생충
▁록히드
▁안데스
▁1879
▁건국훈장
▁막시밀리
▁베르사유
▁민주공화당
EA
gh
버라
▁귀순
▁그늘
▁당상
▁변성
▁솔리
▁차역
▁철기
▁초식
▁콘스
▁콜론
▁포상
▁해주
▁로널드
▁ㄴㅏㅁㅏ
▁아브라함
▁과감
▁구비
▁규합
▁로지
▁버밍
▁범람
▁양원
▁하강
▁보이즈
▁조봉암
▁파르마
태자
▁스완
▁정맥
▁카토
라이스
▁고지대
▁레코딩
▁석회암
▁의병장
▁카지노
▁테헤란
▁피어스
무지
방스
▁HP
▁슬러
▁아람
▁영도
▁청일
▁카펠
▁바닷가
▁제이크
▁일렉트로닉
슐리
▁Mr
▁고후
▁공경
▁논평
▁니치
▁대방
▁도파
▁딱딱
▁양념
▁울루
▁위축
▁백두산
▁사우디
▁여러분
▁끔찍
▁동대
▁유계
▁임실
▁자석
▁초회
▁해커
▁호투
▁휴일
▁개개인
▁게이오
▁독재자
▁태블릿
▁ㅇㅔㄷㅏㄱㅏ
OK
▁관개
▁농담
▁듀스
▁리퍼
▁부기
▁CoA
▁des
▁뉴올리언스
RI
네프
분투
화산
▁대여
▁모태
▁유세
▁이코
▁풍요
▁App
▁라그랑
▁리그컵
▁여행자
블릭
▁국문
▁노역
▁소량
▁소포
▁수족
▁원한
▁유보
▁일보
▁카파
▁쿠시
▁호적
로세서
▁420
▁무사시
▁아이작
▁가창
▁군마
▁노마
▁단수
▁두부
▁방탄
▁부화
▁불문
▁사파
▁양정
▁영종
▁예보
▁클럭
▁리바이
▁사가미
리아누스
신보
정변
▁능숙
▁비오
▁상이
▁스킨
▁스텐
▁전열
▁컬링
▁호시
레틱스
▁그러면
▁암스트
▁애슬레틱스
연맹
▁기권
▁낯설
▁두스
▁반납
▁보아
▁불능
▁빛깔
▁용역
▁조우
▁카다
▁글리제
▁썸
▁개표
▁권투
▁끊이
▁머큐
▁반달
▁열람
▁유상
▁차차
▁최용
▁현수
를레앙
▁Str
▁국방군
▁니가타
▁변호인
▁영사관
▁인산화
▁트리스
▁원종공신
▁파르티아
▁꽝
▁Gu
▁강가
▁인삼
▁중등
▁오메가
▁테크노
▁주머니쥐
▁Record
링크
반정
ull
▁김시
▁인척
▁자각
▁처칠
▁체리
▁알칼리
▁들어올리
▁쿵
산업
VID
▁감당
▁애호
▁후추
▁440
▁클라리
▁아우구스트
▁퀼
박이
자드
장군
▁"|
▁PA
▁광시
▁대등
▁부트
▁수아
▁시타
▁잇달
▁제고
▁타라
▁할구
▁수영장
▁잠비아
▁항생제
▁print
▁ᆯㅈㅣㄹㅏㄷㅗ
티보
▁게놈
▁남경
▁도나
▁동하
▁용문
▁유민
▁군주제
▁본거지
▁엘리엇
▁유기체
▁타지키스탄
▁public
▁뜯
선교
▁당장
▁성자
▁신익
▁실베
▁압수
▁왕녀
▁커리
▁폴로
▁항전
▁Per
▁바실리
▁스위트
▁야구부
▁여주인
▁조용히
▁즐거움
▁불법행위
▁쑨
길준
덕궁
수지
▁po
▁궁주
▁금기
▁미타
▁소진
▁아로
▁전곡
▁접목
▁투병
▁실리콘
▁엘리스
▁오토모
▁합병증
대비
▁노엘
▁리노
▁사체
▁상회
▁앉히
▁앙상
▁역동
▁이석
▁자존
▁제방
▁종실
▁쿠루
▁투기
▁환산
▁페이퍼
▁허버트
▁리바운드
▁엔지니어링
▁ㅇㅡㄹㅅㅜㄹㅗㄱ
▁CA
▁nm
▁나토
▁동두
▁라쿠
▁성현
▁열거
▁유관
▁은평
▁이한
▁증축
▁화이
▁흐트
▁Hot
▁ㄹㄹㅗ
▁공성전
▁산투스
▁슈트라
▁양산시
▁엔리케
▁영화관
바이러스
▁헬레니즘
레미
자나
▁균등
▁명동
▁무패
▁문어
▁사나
▁아루
▁퀸스
로그램
▁바레인
▁부추기
▁제시카
▁카스텔
▁2500
25
데오
황제
▁교학
▁그릴
▁기시
▁담수
▁리지
▁마거
▁북마
▁시영
▁식이
▁온전
▁왕좌
▁요셉
▁콜리
▁파고
▁환초
▁256
▁살아오
▁오우치
▁대법원장
▁다마스쿠스
▁슈트라우스
쿠치
▁매복
▁바바
▁이설
▁코니
ㄹㄹㅗ
▁고다이
▁기본법
▁부서지
▁시에라
▁캅카스
▁플래닛
▁천문단위
ㅁㅏㄹㄹㅗ
ty
발트
▁내시
▁사목
▁접시
▁중신
▁코인
▁Win
▁맞물리
▁비행사
▁초고층
16
일체
ual
▁군도
▁사스
▁정직
▁헐리
고로드
▁ㅁㅓㄴ
▁버스터
▁왕당파
포리
▁광동
▁성교
▁성형
▁우타
▁탈피
▁향로
ogle
▁광합성
▁랴오닝
▁부러지
▁접근성
▁페르시
▁사이클론
▁크리스탈
▁동체
▁셔츠
▁아역
▁왕릉
▁유미
▁카츠
▁피질
▁호찌
▁렌더링
▁지극히
▁최진실
빨리
스틱
▁고독
▁반정
▁반향
▁오차
▁패자
▁힐스
▁예수교
▁이세이
▁프리드
울루
자락
▁가결
▁교명
▁농협
▁라사
▁석재
▁실책
▁양구
▁행운
▁깨어나
▁남북조
▁매니아
▁브루노
▁요나라
▁리치먼드
▁캥
다임
커우
▁Ke
▁금리
▁깊숙
▁담임
▁바타
▁응력
그래피
▁예비군
▁제주시
▁조연상
▁주둔지
▁1789
▁HS
▁아구
▁체질
▁코일
▁킬러
던지기
▁208
▁베이직
▁춘천시
▁기타큐슈
▁플랑드르
▁아미타여래
무트
▁NM
▁녹이
▁득실
▁미녀
▁봉분
▁부안
▁여관
▁예쁘
▁워낙
▁이보
▁칠곡
▁트램
▁생산자
▁오이타
▁유도탄
▁토론회
▁호기심
▁후유증
▁1801
▁Back
는점
▁mu
▁노골
▁느슨
▁스팀
▁시온
▁즉흥
▁지브
▁촐라
▁할로
프리드
▁911
▁사무엘
▁스텔스
▁웨슬리
▁조제프
▁패러다임
불명
RNA
▁강타
▁곱하
▁기피
▁유독
▁히코
▁머큐리
▁유길준
▁잠재력
▁재결합
▁1400
▁Kore
▁포틀랜드
▁ㅅㅡㅂㄴㅣㄲㅏ
▁둠
평면
▁강자
▁사조
▁소노
▁총생
▁폐교
▁다행히
▁아르테
ll
▁기한
▁내기
▁누마
▁멘델
▁신천
▁쌍용
▁악어
▁전과
▁정중
▁준하
▁진성
▁초석
▁침수
리오스
▁네바다
▁들여오
▁불거지
▁이회창
▁판매고
▁암스트롱
인산
▁Fl
▁MD
▁동률
▁안시
▁영성
▁원곡
▁작자
▁치밀
▁Get
▁MIT
▁길버트
▁사천왕
▁영문학
▁ㄹㅏㄴㅣ
제사
▁KD
▁구애
▁대용
▁에픽
▁이크
▁치킨
▁파피
▁광주시
▁디아스
▁로런스
▁사망률
▁지배하
▁남한산성
▁비로자나
로움
스텐
▁겨냥
▁교란
▁국산
▁군량
▁애프
▁윤곽
▁조율
▁중학
▁탄력
▁브릿지
▁앙상블
▁NATO
ox
▁NL
▁오웬
▁청중
▁370
▁ㅇㅗㅂ
▁내몽골
▁마거릿
▁방법론
▁브루크
▁양평군
▁영장류
▁유물론
▁쐐
▁킵
라과
▁NA
▁가전
▁갑신
▁거품
▁구부
▁군림
▁기일
▁발열
▁약품
▁채집
▁첫날
ames
▁생물학자
▁프린세스
▁궁수
▁균열
▁변천
▁총국
▁225
▁마운틴
▁붉은색
▁드래곤즈
▁미식축구
▁Intern
▁렬
이상
▁관저
▁구명
▁도화
▁레저
▁미로
▁신궁
▁쐐기
▁악의
lect
▁Mag
▁급속도
▁동일시
▁선수상
▁독립선언
▁탄수화물
▁항공우주
모닉
▁극회
▁먼로
▁미디
▁민선
▁승선
▁예편
▁우디
▁출정
▁카인
▁흘러가
ology
▁이마가와
▁해수욕장
GO
▁관원
▁성부
▁세타
▁승마
▁안건
▁얼리
▁장승
▁제헌
▁커넥
▁코딩
▁타키
▁탄성
▁트론
▁하세
▁현관
▁후난
▁남아공
▁디렉터
▁메신저
▁알베르
▁오리건
▁추축국
▁후반전
▁리하르트
▁셀레우코스
YP
▁가변
▁노름
▁로만
▁무소
▁솔직
▁유재
▁책정
▁코디
▁호지
▁방문객
▁요시카
▁ㄱㅗㄴㅡㄴ
의금
피카
let
▁군위
▁다채
▁만물
▁열기
▁제타
▁나카노
▁부천시
▁와이어
▁작아지
▁클라인
그라운드
ature
▁Baby
▁니카라과
▁트로츠키
▁나날
▁무쓰
▁생포
▁오랑
▁유익
▁장차
▁지회
▁캡틴
▁케로
▁호전
피에르
▁미요시
▁베테랑
▁부사장
▁레오나르
▁서귀포시
▁안티오키아
17
▁갸
▁뿜
레븐
백색
파니
ove
▁누에
▁니트
▁무루
▁진위
▁최순
▁캔터
▁효성
▁시나노
▁콜라보
▁태양광
▁돼지고기
▁에두아르
▁베오그라드
남동
능력
득점
▁격화
▁사일
▁안락
▁황하
▁흉내
▁거듭나
▁블러드
▁신안군
▁이유로
경찰
락부
무실
enn
▁가령
▁고관
▁공훈
▁리라
▁생장
▁소마
▁주스
▁초판
▁친히
▁탄광
코비치
▁기네스
▁범어사
▁스태프
▁주세페
심원
차리
▁BB
▁BO
▁Cr
▁강구
▁박태
▁베아
▁불길
▁서곡
▁외가
▁조엘
▁카노
▁카불
▁파출
▁피시
▁합장
inal
▁고스트
▁다카시
▁두더지
▁리카르
▁페라리
▁게오르기
▁프레더릭
UM
▁씬
ors
▁개축
▁경산
▁고취
▁김장
▁대소
▁도보
▁레반
▁매튜
▁비방
▁사옥
▁수화
▁출항
스트림
▁GPS
▁강릉시
▁만주족
▁타일러
▁로베르트
▁개리
▁공지
▁도식
▁명장
▁연어
▁유감
▁천태
▁철근
▁출병
▁포메
▁효모
말라야
▁Res
▁김종직
▁압둘라
▁이치로
▁인문학
▁혈액형
TN
▁결투
▁깁슨
▁듀엣
▁라테
▁브이
▁야만
▁약수
▁틈타
▁하츠
▁흡입
▁Way
▁스트라
▁해수면
▁이리하여
금속
메랄
훈련
▁DA
▁공평
▁레르
▁봉헌
▁잔치
▁조너
▁폭주
▁한꺼
▁207
▁365
▁알레산
▁체육회
▁태극기
▁서대문구
▁선거인단
▁한꺼번에
갱이
덱스
▁교내
▁굳이
▁기형
▁미끄
▁베라
▁베컴
▁알마
▁운석
▁직각
▁춘향
▁키치
▁동북부
▁스펜서
▁아열대
▁이지스
▁Amer
광사
즈미
▁명중
▁미추
▁살레
▁양위
▁증류
▁천적
▁통킹
▁풋살
▁흑색
▁일제히
노스아이
▁1815
▁1820
▁아르바이트
노스아이레스
▁부에노스아이레스
▁둑
마니
시카
app
▁OK
▁결렬
▁도량
▁맞닿
▁박동
▁설과
▁신안
▁핼리
▁화교
스티안
이즈미
▁무정부
▁어드밴
▁지방도
▁페레스
▁프린터
▁히말라야
▁소크라테스
24
▁공보
▁그간
▁북송
▁사계
▁세도
▁습도
▁에든
▁청군
▁감마선
▁노무라
▁조합원
▁Cent
▁에든버러
FS
처럼
▁격침
▁결단
▁내역
▁비이
▁시성
▁인노
▁총수
▁퇴계
▁야행성
▁라이온스
▁리얼리티
▁레닌그라드
▁낸
가요
나비
오드
월드
ina
▁담장
▁모잠
▁변조
▁시편
▁전극
▁죄인
▁한라
▁호박
ange
▁국무부
▁농민군
▁사법부
▁오징어
▁전동기
▁함부로
▁모잠비크
현실
▁던전
▁만수
▁서역
▁술집
▁표어
▁해머
ater
▁ㄱㅜㄴ
▁시아파
▁제품군
▁후베이
로프로세서
▁System
▁마이크로프로세서
▁Dr
▁격상
▁김석
▁스틱
▁양분
▁월경
▁천리
▁필로
▁도나우
▁디나모
▁리그전
▁유명세
▁정몽주
▁지포스
▁트럼펫
▁마쓰모토
▁결실
▁굴욕
▁김은
▁담그
▁데니
▁로제
▁부이
▁에다
▁윈드
▁토하
▁트롤
레이즈
어들이
▁조병옥
▁알베르트
▁유럽연합
▁카롤루스
▁막시밀리안
니츠
▁SW
▁마취
▁세실
▁에인
▁재심
▁지반
▁트림
▁피쳐
▁허들
▁넘어지
▁아드리
▁모노이드
▁이오니아
▁알렉산드라
▁폼페이우스
za
▁앳
거루
▁결집
▁노총
▁당사
▁리서
▁마초
▁소켓
▁어인
▁위태
▁으뜸
▁조나
▁직류
▁쿠사
▁학도
▁유공자
▁전망대
▁총생산
▁1858
▁알아차리
▁오스트로
쓰네
▁"'
▁미완
▁본진
▁산마
▁성내
▁아토
▁융기
▁장론
▁장서
▁좌랑
▁코넬
▁모델링
▁혁명가
▁마그네슘
▁프로방스
ret
▁갑오
▁기주
▁달마
▁벅스
▁성찬
▁슐레
▁영위
▁옵티
▁이구
▁충고
▁탈리
▁특위
▁펜스
▁Mac
▁신익희
▁연습생
▁일진회
▁파블로
▁ㄴㅡㄹㅏ
▁고고학자
▁이성질체
▁챈
비츠
입자
▁'-
▁갈비
▁경구
▁녹말
▁배지
▁분담
▁하카
▁해내
▁가디언
▁민의원
▁조너선
▁필하모닉
▁class
▁폴리네시아
동리
러기
토바
ons
▁기욤
▁납품
▁본능
▁소정
▁에뮬
▁엠마
▁자막
▁창씨
▁테살
▁특혜
▁형광
▁날아오
▁도치기
▁제노바
▁중심핵
▁맞배지붕
가라
▁더빙
▁디펜
▁만연
▁사보
▁완산
▁장택
▁좌천
▁지뢰
▁합산
지먼트
ions
▁라이드
▁마에다
▁봉수대
▁지팡이
▁크레타
▁필리스
▁천연가스
▁매니지먼트
ley
▁의왕
▁이삭
▁이철
▁태상
▁토의
▁군산시
▁그리드
▁선데이
▁포인터
▁무궁화호
▁써
코인
▁낙태
▁농작
▁달래
▁상해
▁선서
▁소탕
▁육박
▁재주
▁종단
▁출루
▁Tra
▁노트북
▁목포시
▁분홍색
▁스와프
▁시게루
▁유성구
▁적절히
▁전철역
▁항소심
▁서프랑크
att
▁고택
▁광서
▁기민
▁동티
▁새해
▁수강
▁정공
▁진구
▁콘셉
▁토드
▁펠레
▁포섭
▁푸틴
▁Int
▁USA
▁넘어오
▁대학살
▁모터쇼
▁평의원
▁1814
라나
▁SG
▁급사
▁대정
▁도난
▁매질
▁모여
▁사악
▁수선
▁실태
▁아말
▁Not
▁ㄱㅔㅅ
▁안티고
▁트랜싯
▁동아프리카
ux
사랑
정제
▁견지
▁궁내
▁기교
▁남궁
▁니체
▁로타
▁마도
▁성제
▁안재
▁정현
▁테드
▁헬렌
▁쌍방울
▁평상시
▁type
▁귤
당류
촌동
컨드
테일
▁말소
▁문성
▁미자
▁벨벳
▁위배
▁정과
▁총살
▁모조리
▁비올라
▁직할시
▁1300
널목
실험
자유
토쿠
ART
▁귀하
▁덕수
▁독실
▁민가
▁음양
▁음역
▁핑계
▁헤지
▁흥덕
▁IEC
▁MHz
▁건너편
▁건널목
▁피드백
▁High
NT
거성
싸움
재단
▁Of
▁아약
▁이덕
▁전집
▁증직
▁키아
▁튀기
▁휴먼
▁겨울철
▁수도사
▁충주시
▁보호구역
▁산업단지
▁알베르토
▁클라이맥스
▁Google
BN
▁엎
기둥
림동
▁기근
▁마틸
▁소치
▁우도
▁콤비
▁퍼플
▁War
▁광화문
▁깨달음
▁마피아
▁미우라
▁밀어내
▁연구실
▁오나라
▁티무르
▁평택시
니코
랭크
마일
▁kW
▁바사
▁버거
▁부탄
▁석등
▁시차
▁신관
▁전액
▁퀘이
▁맞대결
▁성북구
▁세컨드
▁액티브
▁플래그
▁What
▁암모니아
데냐
민정
▁간지
▁견훤
▁고갈
▁미에
▁비호
▁윗면
▁유승
▁전란
▁제보
▁주상
▁캐럴
▁헤임
▁홍천
씨식물
▁WHO
▁니스트
▁막아내
▁패트리
▁프렌즈
▁그래미상
▁사르데냐
▁석가여래
ㄷㅡㄴㄱㅏ
▁고요
▁공해
▁군비
▁군집
▁라지
▁레미
▁목화
▁스팅
▁애쓰
▁증원
▁쿠리
▁진정하
▁한정판
살바도르
▁1795
▁부위원장
▁ᄇㄴㅣㄲㅏ
▁조선왕조실록
▁규장
▁바하
▁보카
▁열망
▁예일
▁완주
▁패퇴
▁페데
▁헨드
▁미시간
▁아약스
▁혁명군
▁플레이스
퍼트
회원
ger
▁FS
▁군락
▁도표
▁수의
▁스쿠
▁우대
▁지층
▁포진
정보부
▁290
▁LCK
▁국문학
▁라쿠텐
▁성명서
▁연금술
▁우승컵
▁익산시
▁통신부
▁플라자
▁다리우스
▁토스카나
▁밈
▁윔
베인
식스
전차
▁루지
▁리츠
▁발췌
▁보육
▁본초
▁애매
▁원생
▁초당
▁재빨리
구멍
alk
▁PH
▁멘토
▁스톨
▁암초
▁약학
▁에런
▁우사
▁춤추
▁패드
▁TBC
▁블루어
▁주교좌
▁커티스
▁With
▁디렉터리
▁샌드위치
▁크리스천
▁구석
▁도정
▁로동
▁로어
▁브람
▁아난
▁앨버
▁인대
▁잊히
▁정일
▁켈빈
▁프록
▁할양
▁허구
▁혼돈
지스터
▁MLB
▁관찰자
▁홉킨스
ye
▁렝
부미
▁RA
▁북상
▁얼터
▁총액
▁코지
▁Dis
▁로렌초
▁스레드
▁원정군
▁창덕궁
▁하모니
▁켓
고나
yle
▁모식
▁몬태
▁보훈
▁비욘
▁실크
▁아랑
▁아핀
▁열풍
▁포교
디우스
▁480
▁ㅇㅓㅇ
▁남조선
▁리포트
▁선언문
▁수마트라
▁ㅁㅕㄴㅇㅡㄴ
▁쥘
건적
라도
카라
▁부녀
▁아픔
▁알렌
▁에린
▁장준
▁함의
▁헬로
▁850
▁Art
▁남해군
▁대항해
▁스타즈
▁에히메
▁창업자
▁트루먼
▁헬싱키
의금부사
▁안드레이
▁프로이트
▁트랜지스터
▁괴뢰
▁당명
▁매춘
▁보궐
▁선회
▁세베
▁우이
▁웰스
▁종친
▁풍수
▁238
▁북반구
▁정확도
▁합천군
▁아틀레틱
▁그리스도인
스테
팽이
enc
▁급기
▁김세
▁니나
▁미숙
▁반야
▁숭실
▁천정
주니어
▁고조선
▁보행자
▁드레이크
▁관대
▁광택
▁데쓰
▁승전
▁영재
▁옥상
▁유원
▁장조
▁토비
▁평신
▁훈족
플레잉
▁ㄷㅔㄴ
▁개최지
▁충렬왕
▁페테르
▁프리킥
▁가나자와
▁롤플레잉
레프
▁논설
▁덩굴
▁랜덤
▁버시
▁연유
▁윈터
▁첨부
가하라
ough
▁빅토리
▁요시아키
▁COVID
▁Di
▁각광
▁구토
▁기악
▁머피
▁비어
▁직권
▁팀장
▁남반구
▁보호관
▁안데르
▁지방관
▁Blue
UI
렁이
▁경이
▁교주
▁노화
▁더럽
▁민권
▁박승
▁웅진
▁장항
▁정여
네소스
▁공직자
▁수번뇌
▁타블로
▁포스코
▁1793
▁ㄷㅡㄹㅏ
▁카테고리
▁그리스도교
▁키르기스스탄
던스
천국
▁골수
▁국지
▁굶주
▁보츠
▁불평
▁서강
▁소도
▁효용
다람쥐
▁Rev
▁바로잡
▁사이공
▁산체스
▁스타인
▁이완용
▁취약점
▁크라스
▁1846
▁MPEG
▁사탕수수
▁이베리아
메트
블린
적분
que
▁ㄲㅗ
▁구룡
▁대뇌
▁데메
▁리저
▁묘법
▁쇠약
▁수렵
▁신구
▁올랭
▁율령
▁이트
▁정병
▁차분
▁천구
▁공기업
▁노르트
▁문하시
▁보라색
▁아산시
▁아칸소
▁페인트
▁물리학상
▁브루나이
26
▁뱌
ING
OVE
▁ED
▁괴멸
▁구자
▁멜론
▁미코
▁서보
▁설사
▁용접
▁쿠릴
▁하순
연화경
웨스트
▁돌아서
▁등록금
▁유격대
▁학생회
▁1839
▁에드먼드
▁자유민주
▁중앙정보부
ump
▁갤러
▁국과
▁남포
▁니콘
▁당분
▁맛있
▁역모
▁오호
▁와해
▁월북
▁직함
▁페터
▁학급
▁농작물
▁손바닥
▁엉덩이
▁추밀원
▁time
▁하시모토
뉴스
르모
전쟁
파스
▁'.
▁간디
▁과부
▁만기
▁무당
▁이효
▁퇴단
비우스
슬라브
시우스
▁배수량
▁시어터
▁여객선
▁중서부
▁1854
▁히로부미
▁시즈오카현
▁아오모리현
나물
바람
▁NX
▁ㄱㅓ
▁공덕
▁교묘
▁산불
▁삼키
▁순정
▁이국
▁국무원
▁아테나
▁에밀리
▁테트라
▁아나키즘
IO
▁꼼
▁훅
고트
운전
질량
▁MT
▁감탄
▁갑각
▁낙타
▁독소
▁몸집
▁유시
▁존상
▁펀치
▁표결
▁해자
▁휘트
▁베드로
▁아쿠아
▁전기장
▁촘
래시
der
▁Vf
▁걸맞
▁게일
▁군국
▁도색
▁망루
▁미묘
▁본당
▁부윤
▁심근
▁심플
▁엄정
▁정강
▁총체
▁추위
▁학창
▁737
▁대머리
▁외무성
▁체스터
▁트리니다드
▁중앙아프리카
모자
▁경멸
▁윤원
▁클루
▁현충
티우스
▁214
▁가시마
▁가입자
▁버나드
▁상대론
▁수증기
▁알레르
▁기념사업
▁언어학자
▁초등학생
대성
재란
후이
▁바일
▁범용
▁분양
▁세탁
▁아민
▁억류
▁베일리
▁분류학
▁산둥성
▁이브라
▁파트리
▁팩토리
총리대신
▁기독교인
▁어드밴스
▁자연주의
▁정유재란
▁세키가하라
▁내각총리대신
▁뚱
패스
▁구인
▁방조
▁손책
▁솔트
▁여과
▁인신
▁필기
▁환기
▁COM
▁기부금
▁윤리학
▁조계종
▁최하위
▁평화상
▁하카타
▁후임자
스트리트
▁비지니스
▁여주인공
▁등대
▁마한
▁야로
▁이형
▁인출
▁잠들
▁칼레
▁Min
▁메이트
▁안중근
▁키워드
▁황태후
▁개전
▁내구
▁박준
▁브론
▁상작
▁이부
▁제식
▁참배
▁코레
▁페드
학생회
▁LCD
▁교토부
▁낙하산
▁비행대
▁갈릴레이
▁비트코인
우어
▁ME
▁ㅇㅠ
▁고압
▁디온
▁라몬
▁루머
▁매번
▁박기
▁비크
▁상투
▁석상
▁오닐
▁오딘
▁유폐
▁찬탈
▁치중
▁특례
▁팬아
▁페가
▁후시
독립당
▁ㄴㄱㅏ
▁경비대
▁돗토리
▁보나파
▁북극해
▁증명서
▁초대칭
▁파출소
▁1849
▁공화주의
▁미성년자
▁오브젝트
▁총학생회
▁ㅁㅏㄴㅡㄴ
▁보나파르트
▁한국독립당
28
▁돛
▁퓌
탐정
▁간염
▁베버
▁북해
▁새턴
▁수표
▁이견
▁종주
▁파드
▁하디
캐스트
프랑스
▁넥스트
▁데포르
▁델라웨어
▁플로이드
▁넉
▁견습
▁교포
▁낙랑
▁내수
▁매월
▁바덴
▁시경
▁시주
▁웅장
▁존엄
▁화북
▁가파르
▁구청장
▁나가노
▁시공간
▁지난해
▁1856
▁Beat
▁네덜란드어
HD
사회
정권
호프
▁계투
▁광경
▁귀양
▁깜짝
▁남로
▁미모
▁분장
▁수류
▁신작
▁어이
▁오기
▁우동
▁웨일
▁육아
▁인피
▁장령
▁철원
▁태세
직할시
코스트
쿠스틱
▁변속기
▁식물원
▁에리크
베이거스
▁어쿠스틱
누아
▁분쇄
▁소란
▁이안
▁적재
atch
▁장택상
▁절대로
▁포위전
▁하이든
▁1851
▁크레이그
▁하이웨이
▁라스베이거스
23
▁깡
▁줌
담회
오린
케스
호르
▁만국
▁밀스
▁변방
▁본디
▁사죄
▁사흘
▁소홀
▁씨름
▁요아
▁해일
▁헤엄
타니아
▁430
▁감염자
▁스탠퍼드
▁페더레이션
OU
체어
▁낙엽
▁모기
▁민생
▁배설
▁비참
▁실로
▁연임
▁예속
▁유장
▁윤영
▁촌은
▁419
▁갖가지
▁건국대
▁교직원
▁디스코
▁레인보
▁입출력
▁해럴드
▁마음대로
▁사보이아
▁상파울루
▁이해관계
▁차량기지
▁PP
▁도독
▁셔먼
▁수배
▁효능
▁후백
▁벤피카
▁보르도
▁참모장
▁스티븐스
▁캐나다인
▁캔자스시티
86
▁럴
처리
▁김문
▁단사
▁라티
▁볼륨
▁상체
▁서천
▁수서
▁원성
▁주경
▁추궁
▁FBI
▁Top
▁다이나
▁어리석
▁진보당
▁찬드라
▁캥거루
▁하동군
▁1855
▁1857
▁블레이드
▁소용돌이
▁오하이오주
개혁
하늘
▁계란
▁대세
▁메사
▁보문
▁생가
▁쇼팽
▁알비
▁톨킨
▁현령
▁상속인
▁시부야
▁애벌레
▁핵폭탄
▁크리에이티브
산읍
섬유
▁간장
▁경색
▁적성
▁한서
▁서북쪽
▁수산물
▁휠체어
▁노동자당
봉사
하르
▁결탁
▁단성
▁담론
▁반려
▁벽면
▁서상
▁수훈
▁정시
▁착안
▁카잔
트로피
cess
icro
▁공사관
▁글리코
▁기념식
▁시흥시
▁아가씨
▁오비탈
▁작사가
▁폴란드인
▁여러해살이풀
▁뺏
▁좡
▁힉
버거
ery
▁봉작
▁아모
▁엠블
▁여생
▁외동
▁캔디
고양이
콥스키
▁301
▁Med
▁구미시
▁노스케
▁테이크
▁포천시
▁갑신정변
▁다이스케
▁정사각형
▁프란시스
BT
깨비
댄스
카테
▁단호
▁분개
▁압송
▁제학
▁체첸
▁치수
▁페티
▁베르디
▁봉사자
▁시우바
▁지평선
▁투데이
▁포브스
츠부르크
▁이와테현
▁데포르티보
▁민족주의자
▁병마절도사
서구
일라
재기
천년
▁YM
▁대광
▁신영
▁심슨
▁정년
▁주치
▁핵산
▁211
▁223
▁대주주
▁상세히
▁수수료
▁올라서
▁일간지
▁펠로폰
ㅇㅣㄷㅏ
메니스탄
▁반공주의
▁펠로폰네소스
▁투르크메니스탄
전기
▁TG
▁국면
▁롤리
▁명주
▁버퍼
▁셀룰
▁악역
▁유품
▁임베
▁팔자
▁해금
▁동의어
▁은하단
▁저작물
▁임베디드
레토
테른
▁CL
▁거액
▁랜디
▁조력
▁지소
▁크세
▁탄원
▁택지
▁포구
▁NAD
▁Pop
▁나주시
▁비엔나
▁집어넣
▁헤이스
니엄
증권
흐트
▁반열
▁성간
▁성채
▁소망
▁수스
▁실습
▁역습
▁외벽
▁욕설
▁이학
▁쟁점
▁친절
▁폰트
▁현명
▁화전
▁히나
▁그로스
▁카운터
▁Free
▁Will
쇼프
ont
▁IA
▁권세
▁노회
▁만리
▁무왕
▁박격
▁벚꽃
▁슈바
▁원제
▁음경
▁인테
▁지병
▁카렐
▁대각선
▁모자라
▁1776
▁서아시아
▁ㄹㅕㄷㅏㄱㅏ
로아
day
▁돌핀
▁변장
▁빌미
▁열반
▁현청
▁늘어지
▁보니파
▁컨디션
▁행정관
▁서스펜션
니크
▁고증
▁대적
▁요네
▁율곡
▁읽히
▁조식
▁친목
▁템포
▁파격
▁루터교
▁마그마
▁배트맨
▁수송기
▁제이스
타고라스
▁무라카미
▁사카모토
▁플루오린
광선
소득
스탕
왕국
지대
▁CT
▁대흥
▁코민
▁퇴사
▁한참
노벨라
루리아
시오날
▁레너드
▁모여들
▁바이스
▁변증법
▁하이델
▁형무소
▁나시오날
▁미주리주
▁엔트로피
▁그레고리력
▁텔레노벨라
27
바꿈
▁간파
▁급습
▁방한
▁선하
▁윤선
▁장구
▁타오
▁다면체
▁병원체
▁아세트
▁오카다
▁웨이트
▁이범석
▁핵실험
▁올랭피크
▁태평천국
볼트
투안
하스
▁골목
▁금광
▁까다
▁뇌졸
▁문교
▁미안
▁부총
▁서던
▁알론
▁언약
▁중첩
▁회부
▁XML
▁가속기
▁달라이
▁클라라
▁캄파니아주
가야
연대
▁개요
▁발송
▁센스
▁오도
▁항모
▁현생
리어스
▁독립국
▁뽑아내
▁스나이
▁통합진보당
ma
모습
▁MW
▁누각
▁땅콩
▁살림
▁상시
▁성추
▁액수
▁잠복
▁타현
▁한도
레시브
▁거제시
▁동북쪽
▁심포니
▁영산회
▁청구인
▁출생지
▁가까스로
▁국민회의
▁10000
▁프로그레시브
29
고도
를린
마타
▁Po
▁ne
▁괴팅
▁김한
▁버즈
▁양손
▁윤석
▁진안
▁찬스
▁퇴화
▁하쿠
▁호가
중국해
▁베르그
▁청교도
▁타고나
버드
▁간소
▁누락
▁로젠
▁마고
▁산탄
▁셰이
▁시왕
▁연좌
▁이로
▁히다
▁del
▁김종필
▁마인드
▁새천년
▁영등포
▁황도대
▁조기어류
▁피에트로
▁레오나르도
연료
▁가메
▁교복
▁국채
▁듯이
▁로로
▁명지
▁미망
▁미움
▁사극
▁심신
▁역행
▁와트
▁장타
▁최경
▁합체
들랜드
▁Bro
▁굳어지
▁사모아
▁서기장
▁어지럽
▁묘법연화경
저민
활성
its
▁각별
▁과업
▁기물
▁대열
▁몬트
▁사성
▁수잔
▁입안
▁질리
▁총알
▁혹독
▁홀드
irst
▁메이플
▁벤저민
▁샘플링
▁네브래스카
슐린
쿠젠
페리
평가
aut
▁로미
▁본기
▁습성
▁에나
▁이연
▁직제
▁케니
▁화신
궐선거
▁가로막
▁논산시
▁모티프
▁크리켓
▁원내대표
▁재보궐선거
급시
미치
▁BR
▁CV
▁감명
▁공녀
▁발주
▁비비
▁음란
▁재원
▁청화
▁콘월
▁파사
▁포에
▁Big
▁End
▁단기간
▁베리아
▁서남쪽
▁팰리스
ㅔㄴ
개발
▁ER
▁나나
▁노미
▁독감
▁마마
▁밑면
▁반일
▁배영
▁신명
▁요세
▁우문
▁정철
▁주둥
▁포탈
▁퓨전
▁215
▁ㄴㅗㄹㅏ
▁ㅇㅣㅇㅑ
▁미시간주
▁스포르팅
▁캔터베리
▁코미디언
▁begin
▁DL
▁경치
▁대양
▁로자
▁린드
▁세브
▁시로
▁언젠
▁원가
▁이공
▁장보
▁지단
▁천명
메데스
▁리서치
▁치우치
빼미
연의
▁노먼
▁레베
▁브롱
▁위드
▁유즈
▁준위
메네스
▁DFB
▁빠뜨리
▁언젠가
▁엑스선
▁프리랜
▁해설자
▁포레스트
▁언더그라운드
BL
니발
▁개간
▁다의
▁라비
▁생사
▁우메
▁원화
더니즘
▁239
▁레이어
▁문화사
▁비정규
▁특공대
▁포위망
ㅍㅣ
▁미팅
▁방수
▁서킷
▁어필
▁연천
▁위아
▁징후
▁체임
▁쿠키
▁틈새
▁픽업
▁510
▁기장군
▁살아나
▁유니온
ㅅㅣㅍㅣ
▁ㄷㅏㅅㅣㅍㅣ
HS
▁젬
가키
계리
코바
aff
▁HK
▁KC
▁SI
▁WH
▁낭독
▁루아
▁열광
▁전갈
▁종택
▁질레
▁창안
▁코다
▁평년
▁픽션
▁구석기
▁에인절
▁특이점
▁1792
▁프라이스
보스
▁가인
▁국고
▁니즘
▁듀크
▁서드
▁실드
▁아그
▁위니
▁조참
▁칸타
▁한방
▁황보
파트라
▁BMW
▁권력자
▁급기야
▁목걸이
▁월리스
▁전년도
▁소선거구
▁아틀라스
▁자동변속기
▁클레오파트라
br
▁까치
▁녀석
▁덧셈
▁도기
▁몰입
▁부원
▁살상
▁시료
▁시암
▁안상
▁영아
▁접착
▁정파
▁촌락
▁포즈
▁set
▁계약서
▁까다롭
▁부활절
▁브람스
▁사생아
▁void
▁ㅇㅣㄹㅜ
oss
▁내쫓
▁덤불
▁루소
▁메콩
▁명절
▁비슈
▁우랄
▁정약
▁제향
▁추석
▁패주
▁표상
▁함안
▁향리
▁Des
▁게이츠
▁과선교
▁서로마
▁Rain
▁프로토타입
▁랏
루이
삼문
지않
▁RE
▁경수
▁매드
▁바크
▁버락
▁세관
▁예천
▁유실
▁호엔
▁계약금
▁목격자
▁사중주
▁성추행
▁수메르
▁표준어
▁1853
▁알레르기
ㄷㅡㄴㅈㅣ
버섯
▁ㄴㅜ
▁감히
▁난간
▁동복
▁마자
▁상피
▁시구
▁시동
▁양력
▁영연
▁오쓰
▁최북
너티브
덜랜드
▁ㅇㅜㅁ
▁다다르
▁미술가
▁부제학
▁외삼촌
▁파이브
▁동대문구
▁클라리넷
▁얼터너티브
▁엘살바도르
▁JP
▁do
▁가평
▁그려
▁금화
▁다라
▁도고
▁박중
▁산토
▁성년
▁아속
▁티르
▁ㅇㅏㄴ
▁게이머
▁경기력
▁레일리
▁브레인
▁시설물
▁퍼뜨리
▁Show
▁모하메드
▁슈퍼주니어
막염
이인
행사
▁구급
▁모후
▁스커
▁으로
▁입적
▁자락
▁정량
▁청탁
▁탄환
▁튀르
▁홍백
▁꽃받침
▁무안군
▁무인역
▁미카사
▁퍼펙트
▁프레디
▁프로파
▁후반부
▁1791
▁1852
▁ㅅㅗㅅㅓ
▁권위주의
▁사다하루
▁속씨식물
▁크래프트
▁퓰
그림
서면
▁독신
▁밥상
▁방과
▁비츠
▁상권
▁시판
▁실화
▁아쓰
▁일람
▁절멸
▁조승
▁최치
핵생물
▁TOP
▁버밍엄
▁보호자
▁아르카
▁요리사
▁중생대
▁도네츠크
경궁
노동
바타
vis
▁교우
▁수전
▁오에
▁잠그
▁카쿠
▁캄포
▁커트
▁회중
▁따돌리
▁성동구
▁지도력
▁호위함
▁LIVE
▁인테리어
▁옅
얼빈
타라
IDS
oup
▁갑판
▁노던
▁도금
▁메트
▁부름
▁북제
▁비고
▁사구
▁셰프
▁숙성
▁약정
▁욕심
▁제반
▁후신
제르맹
▁끊어지
▁레프트
▁점성가
ement
▁Mnet
▁플레이트
be
하워
▁FN
▁관서
▁귀납
▁근연
▁래스
▁만다
▁박인
▁수첩
▁식료
▁실황
▁에타
▁연작
▁장영
▁제법
▁착오
▁플뢰
▁212
▁233
▁그려지
▁양서류
▁재정난
▁벌어들이
▁퍼레이드
▁아이젠하워
▁테러리스트
▁잣
팔렌
▁구보
▁능통
▁불황
▁색인
▁성하
▁신재
▁우쓰
▁케스
▁해동
즐랜드
▁동인도
▁분화구
▁에르난
▁잎자루
▁다운타운
▁빽
▁찻
노헤
티드
▁EN
▁FX
▁국물
▁대검
▁영세
▁장터
▁히브
▁ㄴㄷㅐ
▁검사장
▁유목민
▁음악회
▁정말로
▁황갈색
▁1847
▁Like
▁도쿠시마
▁생제르맹
▁퀸즐랜드
▁필리포스
▁히로시마현
▁뚝
▁강물
▁벨레
▁서하
▁수온
▁여태
▁원망
▁차가
▁친숙
▁팔각
▁호치
▁희박
▁개찰기
▁게이초
▁세례명
▁앵글로
▁조나단
▁지원자
▁LOVE
▁루키우스
▁뱀파이어
개명
에어
하트
▁EF
▁고타
▁귀향
▁독려
▁라벤
▁매너
▁수찬
▁슬럼
▁신숙
▁쑨원
▁예견
▁완투
▁요트
▁월급
▁윤상
▁은둔
▁이족
▁청진
▁상류층
▁이스턴
▁재판장
▁중학생
▁현악기
▁경향신문
▁천주교회
▁롬바르디아
▁콘스탄티노플
▁고작
▁김호
▁망상
▁보두
▁수뇌
▁출소
▁김포시
▁릴리스
▁옹진군
▁이베이
▁저술가
▁최적화
▁퀘스트
▁레인보우
▁시트르산
▁옥타비아
▁프리랜서
▁OC
▁mg
▁가봉
▁경감
▁계파
▁과천
▁기노
▁마로
▁밀턴
▁버블
▁섬멸
▁세가
▁안젤
▁야채
▁여야
▁영해
▁음색
▁이계
▁제각
▁쿠페
▁포리
▁호감
하이머
▁관악구
▁다각형
▁올빼미
▁인슐린
▁핵연료
▁옵티머스
▁은행나무
▁버지니아주
▁즌
방식
오세
▁NK
▁UK
▁고질
▁공물
▁관사
▁기치
▁마누
▁만찬
▁약국
▁유위
▁음소
▁점심
▁주술
▁초중
▁황성
▁회군
리오카
▁강아지
▁명백히
▁부끄럽
▁생태학
▁유학생
▁똥
▁젓
랄라
비어
way
▁구면
▁남짓
▁마조
▁불펜
▁수난
▁연사
▁조만
▁최재
▁품계
▁호러
자위대
▁221
▁Bar
▁Red
▁가오슝
▁레슬리
▁레오니
▁브룩스
▁세일러
▁중대장
▁편의점
▁한마디
▁현저히
▁Sound
▁안티고노스
▁뿌
귀비
야구
▁es
▁계명
▁나팔
▁냉동
▁미신
▁미일
▁발화
▁서간
▁송금
▁쓰가
▁차드
▁회기
ouse
▁Sec
▁뇌졸중
▁좀처럼
▁탈수소
▁하얼빈
▁Over
▁가이우스
▁Light
WS
▁읊
▁골자
▁궁금
▁대파
▁라피
▁명품
▁발라
▁보현
▁선방
▁스벤
▁연일
▁왈라
▁우성
▁주어
▁진과
▁콕스
▁푸시
▁혈청
▁리히텐
▁미망인
▁에버턴
브레히트
▁1100
▁Sing
▁브래들리
▁창씨개명
▁카리브해
▁콘티넨털
워키
▁나츠
▁따내
▁부응
▁슬롯
▁커크
▁클론
▁231
▁세포막
▁정보국
▁1844
▁동명이인
색슨
▁ac
▁낙인
▁동족
▁삼가
▁수작
▁슬퍼
▁신빙
▁오목
▁외화
▁크릭
대주의
하이드
ason
▁Eng
▁배상금
▁여름철
▁피스톤
▁요코스카
▁앵글로색슨
▁즙
옹주
▁갑상
▁굴리
▁베레
▁식년
▁신예
▁안구
▁앙주
▁울음
▁유주
▁이등
▁자력
▁정구
▁쾌락
▁파니
▁한류
▁후각
▁산화물
▁수류탄
▁계몽주의
▁곤살레스
▁랜드마크
aj
거슨
프슨
▁JS
▁간편
▁고부
▁과수
▁다키
▁색조
▁아워
▁오경
▁이면
▁재야
▁지드
▁하체
▁학점
▁갑각류
▁경영진
▁사이다
▁참가국
▁카이저
▁플랜트
▁하루카
▁사회단체
▁민속문화재
니언
루트
타바
▁RO
▁TA
▁강수
▁균류
▁마왕
▁미오
▁박주
▁아론
▁요안
▁유루
▁취락
▁토토
▁티나
▁필살
▁Net
▁박격포
▁현급시
▁1837
▁포리스트
▁삼국지연의
시간
iet
▁강압
▁동천
▁부결
▁북단
▁삼부
▁실바
▁이도
▁해류
▁베이컨
▁예배당
▁정착민
▁프로필
▁오를레앙
▁알레산드로
▁광종
▁맨틀
▁비약
▁숙고
▁운문
▁원판
▁정연
▁체온
▁390
▁반대쪽
▁브리트
▁정찰기
▁조교수
▁시라카와
▁아시리아
오밍
red
▁계략
▁궤멸
▁디어
▁선승
▁카오
▁테츠
▁판별
베를린
▁가야금
▁비스트
▁유가족
▁자신감
▁콘셉트
▁화순군
▁네덜란드인
▁꽁
승람
임수
코로
쿠로
헤치
▁RD
▁고해
▁그람
▁레딧
▁만경
▁면접
▁봉산
▁수유
▁업소
▁오니
▁오데
▁쟁취
▁합방
▁흡혈
슈타트
클레스
▁Har
▁목판본
▁서산시
▁후견인
▁뜰
보레
소시
슈티
ana
▁Pa
▁걸즈
▁교착
▁미약
▁벙커
▁우미
▁적시
▁청렴
▁코노
정대부
▁228
▁미스트
▁밀워키
▁슬퍼하
▁제작소
▁평창군
▁개인주의
▁북베트남
▁오렌지색
실론
▁김응
▁노시
▁도핑
▁바예
▁반민
▁비명
▁송병
▁여순
▁유흥
▁치타
▁친형
▁패미
▁한옥
▁혹평
▁히치
자동차
▁도지사
▁독립성
▁발자국
▁프런트
▁해적단
개석
호크
▁ro
▁나방
▁담화
▁상석
▁성녀
▁성왕
▁아만
▁아저
▁영흥
▁익주
▁장엄
▁주앙
▁토사
▁폐간
▁군단장
▁나뭇잎
▁이준용
HT
부스
▁노년
▁다방
▁반증
▁생김
▁성직
▁아레
▁알현
▁예우
▁윤회
▁의금
▁주청
▁총지
▁티에
echn
▁fun
▁노원구
▁명륜당
▁모국어
▁발명가
▁부사관
▁브리즈
▁비대칭
▁아저씨
▁연장선
▁최남단
▁케네스
▁1836
▁스테레오
▁트레이너
99
ech
ric
▁MX
▁ㅅㅔ
▁거장
▁건안
▁로랑
▁반원
▁약제
▁열등
▁일직
▁정태
▁증서
▁초보
▁추월
▁칼초
▁타코
▁호라
▁홍대
노세키
▁더구나
▁멤피스
▁버틀러
▁최치원
▁테레사
▁항저우
▁환경부
▁저널리즘
▁경학
▁고군
▁노숙
▁방전
▁소변
▁슈가
▁연마
▁영하
▁외젠
▁유예
▁키노
▁트랩
▁판도
▁226
▁950
▁로스터
▁유리수
▁Road
▁고속철도
▁글래스고
▁요시노부
▁FR
▁개년
▁고즈
▁길목
▁마태
▁본적
▁북면
▁빈약
▁스털
▁습하
▁제례
▁청풍
▁탄화
▁혼용
▁007
▁에리트
▁예카테
▁요시노
▁처해지
데하이드
▁팁
상도
치카
ven
▁HE
▁ㅁㅑ
▁군현
▁말러
▁무방
▁문부
▁북진
▁서동
▁일신
▁정순
▁중흥
▁지터
▁프롬
▁경작지
▁공로자
▁동식물
▁마리나
▁스타스
▁스턴트
▁앞당기
▁울릉도
▁자연사
▁증손자
▁취임식
▁헤아리
▁모모야마
▁프라이드
▁마르티네스
▁녜
회로
▁그랜
▁난사
▁만능
▁소토
▁아명
▁악하
▁어음
▁엘프
▁여가
▁워런
▁이천
▁이프
▁익사
▁전광
▁주살
▁출진
▁포사
▁폭우
니우스
▁LTE
▁Sum
▁도깨비
▁무척추
▁비디아
▁알론소
▁연천군
▁헤이룽
▁1794
▁구스타브
▁Hello
▁알브레히트
ner
▁Af
▁OF
▁냉방
▁냉정
▁메로
▁반구
▁셀러
▁소단
▁증산
▁척수
▁출근
vent
▁520
▁간행물
▁관동군
▁관리국
▁알렉시
▁윈스턴
코프스키
▁CCTV
▁코르테스
▁비로자나불
▁피타고라스
▁욘
시설
▁가자
▁난자
▁녹스
▁독단
▁망막
▁물의
▁병영
▁섭씨
▁셀프
▁야르
▁용매
▁이매
▁일류
▁전폭
▁졸리
▁척탄
▁카멜
▁코라
▁헌제
▁홍명
소시엄
▁315
▁757
▁게임스
▁밀양시
▁비서실
▁아타리
▁에스테
▁원통형
▁정규군
▁밀리미터
▁컨소시엄
▁페미니즘
젤란
▁XX
▁el
▁거물
▁고드
▁낸시
▁매표
▁상도
▁선더
▁성충
▁예리
▁재귀
▁조위
▁짝짓
▁타국
▁편모
▁217
▁640
▁720
▁베르너
▁성범죄
▁오미야
▁ㄷㅣㅇㅗ
▁쉘
교동
성이
전력
제곱
ism
▁각인
▁관공
▁굽히
▁기만
▁도노
▁비니
▁선지
▁설법
▁쇼니
▁심층
▁썬더
▁우화
▁장현
▁좁히
▁풍토
▁Sci
▁군사령
▁농경지
▁드래건
▁콩쿠르
▁블리자드
▁콘스탄틴
07
기술
영향
조작
bum
▁고어
▁랭커
▁러더
▁선덕
▁속죄
▁오거
▁이각
▁자급
▁전황
▁접경
▁집약
▁투영
▁함평
▁화사
바이크
사이클
▁거문고
▁호찌민
ution
▁1806
yl
▁GL
▁낙농
▁라운
▁레고
▁린치
▁보사
▁빼내
▁성희
▁숙의
▁슈뢰
▁우부
▁조모
미사일
ator
ital
▁SQL
▁고창군
▁슐레스
▁인피니
▁허난성
▁Stud
▁리히텐슈타인
ㄹㅣ
셔스
여왕
테롤
피오
▁PK
▁강판
▁내사
▁덴버
▁리턴
▁마포
▁벨로
▁욕계
▁우트
▁임업
▁잔당
▁주시
국민당
컨트리
▁Boy
▁문화원
▁배포판
▁본회의
▁시크릿
▁야구팀
▁퍼블릭
▁매트릭스
▁카리스마
▁팬아메리칸
▁콘스탄티노스
IE
루프
서기
자재
▁IB
▁OP
▁단판
▁명맥
▁박제
▁방랑
▁산간
▁액정
▁여장
▁은사
▁지에
▁티노
▁RPG
▁규장각
▁다이너
▁불명예
▁스코트
▁신인왕
▁지린성
▁우리나라
▁크로스컨트리
도체
▁EV
▁GD
▁가니
▁공회
▁낙향
▁단련
▁돈녕
▁라코
▁박세
▁살롱
▁선무
▁송정
▁스즈
▁오정
▁타계
▁후학
민정음
▁예산군
▁제작비
▁집합론
▁파헤치
▁플라스마
▁딤
생명
우병
장자
▁김나
▁노다
▁불순
▁승천
▁아의
▁암벽
▁여전
▁이근
▁치역
▁칼빈
▁테베
▁토우
▁610
▁기후현
▁끊임없
▁위클리
▁Play
▁근본주의
▁승부조작
▁애기박쥐
▁프레데리크
08
▁쁘
▁웁
곡선
링거
시계
▁각오
▁결속
▁낙원
▁노량
▁도큐
▁만두
▁만석
▁부마
▁사표
▁스퍼
▁시술
▁외전
▁이교
▁이발
▁주필
▁케어
▁키시
▁합전
▁ㅁㅗㄴ
▁니케아
▁에볼라
▁연주가
▁옆구리
▁이교도
▁조선조
▁징병제
▁교섭단체
▁ㅇㅡㄴㅈㅣ
▁세르비아인
바스
외과
이나
젠더
ony
▁군용
▁김만
▁니컬
▁동결
▁리부
▁서광
▁숙이
▁옴니
▁인회
▁주니
▁주방
▁체격
▁추봉
▁토고
▁해구
▁회랑
클랜드
▁드나들
▁수호자
▁완주군
▁족제비
▁코코넛
▁후쿠다
▁1842
▁산마리노
▁에트루리아
uk
요리
▁관방
▁급부
▁김부
▁대축
▁모레
▁보비
▁샬럿
▁서라
▁순창
▁오성
▁위선
▁이륙
▁중사
▁집현
▁파벨
▁폐단
▁허영
스타파
oney
▁wid
▁부딪치
▁오보에
▁윈난성
▁헤이그
▁1796
▁ㄱㅜㄴㅏ
▁레오폴트
▁매일신보
▁훈민정음
MP
사병
▁궁지
▁비닐
▁사세
▁수생
▁윤봉
▁이대
▁인솔
▁자의
▁자폐
▁전륜
▁절연
▁절터
▁정설
▁주안
▁책판
▁카밀
▁캡슐
▁탈선
▁편수
▁닭고기
▁발행인
▁테슬라
▁흰개미
▁1798
▁이스마일
를로
▁개회
▁데시
▁마현
▁민자
▁상향
▁쇼난
▁쓸모
▁양부
▁제스
▁종과
▁채팅
▁철제
▁표범
▁한진
사와라
▁마티아
▁스털링
▁아즈치
▁에탄올
▁연구관
▁임팩트
▁2030
▁라플라스
▁에드워즈
▁코민테른
▁페르난데스
고시
처분
▁구식
▁김혜
▁밀교
▁사시
▁아쉬
▁위문
▁치소
▁켈러
▁후생
▁후왕
▁희소
▁경제력
▁끌어내
▁웰링턴
▁인구수
▁1832
▁블레이크
더기
전리
화가
▁노획
▁동태
▁릭스
▁문묘
▁백국
▁에게
▁의화
▁인현
▁저압
▁차후
▁헌종
port
▁라이터
▁술탄국
▁최북단
▁충실히
▁포워드
돈나
동면
시프
타야
하나
▁UR
▁금상
▁내밀
▁네프
▁돌풍
▁미용
▁밀착
▁부록
▁성급
▁소각
▁신간
▁염료
▁진양
▁투고
▁푸른
▁ROM
▁남양주
▁문학사
▁사사키
▁상나라
▁생산력
▁영화사
▁자치령
▁쿠르트
▁후백제
▁스위프트
▁오가사와라
▁얌
▁옙
ush
▁간청
▁동과
▁동면
▁번번
▁알토
▁애도
▁유혈
▁장부
▁조그
▁증여
▁최충
▁815
▁공모전
▁스톤스
▁엄격히
▁온전히
▁이주한
▁애틀랜틱
▁슐레스비히
▁뺨
▁젯
▁칵
공원
눌프
들레
▁국명
▁깔끔
▁누설
▁반유
▁병인
▁복고
▁소경
▁열중
▁인장
▁전경
▁조미
▁치앙
▁탐욕
▁표류
▁학제
▁한산
▁히바
▁Rem
▁나가토
▁단체장
▁앞부분
▁연해주
▁오와리
여지승람
▁King
▁그레이스
▁아르눌프
야르
ady
▁대일
▁딸기
▁방황
▁번복
▁수능
▁일구
▁전소
▁전해
▁정희
▁하향
▁학비
▁호송
▁보두앵
▁설리번
▁아랍인
▁안성시
▁인터랙
▁하코다
▁소선거구제
04
뿔소
lex
▁ᆫㄷ
▁도감
▁래드
▁럭키
▁밤중
▁방계
▁불멸
▁선풍
▁습기
▁신현
▁애너
▁양재
▁인턴
▁정토
▁철교
▁철권
▁편차
form
▁222
▁EMI
▁NHL
▁감독상
▁엄밀히
▁에르빈
▁주간지
▁주황색
▁학부모
▁헥타르
▁That
▁레즈비언
▁마우리아
▁맥도널드
▁지느러미
▁헤이룽장
▁Colle
군가
플리
▁구국
▁누비
▁도합
▁로메
▁명은
▁암술
▁유추
▁의종
▁태사
▁토레
orce
▁대문자
▁되살리
▁문학가
▁미즈노
▁좌찬성
▁해산물
▁상륙작전
▁외할아버지
농사
▁기흥
▁마저
▁묵시
▁물병
▁벤자
▁수륙
▁외출
▁찬가
▁참봉
▁출제
▁피노
▁...
▁각운동
▁고분자
▁귀족원
▁미완성
▁아이유
▁이시다
▁재정부
▁플루트
▁아이패드
▁프레드릭
공간
급수
테아
▁기함
▁누벨
▁대면
▁실물
▁질산
▁침전
▁펄스
스토크
이스터
▁min
▁메이어
▁명탐정
▁생김새
▁완도군
▁전투력
▁트래픽
▁한니발
▁마이니치
▁모노레일
▁이오시프
UT
무덤
밍고
▁간간
▁구어
▁두만
▁반장
▁사향
▁왜적
▁유유
▁정산
▁232
▁Met
▁글리세
▁누군가
▁도승지
▁비행단
▁오시마
▁전사자
▁참정권
▁철원군
▁카네기
▁코러스
▁1790
▁브라이언트
▁경부고속도로
YS
병원
체인
iew
▁박현
▁상온
▁소드
▁의리
▁철로
▁페퍼
유철도
▁660
▁김유신
▁소시지
▁앙코르
▁원동력
▁의성군
▁조직원
▁트랜스젠더
▁일본국유철도
국수
평동
▁관철
▁도립
▁수개
▁야후
▁어판
▁연성
▁의외
▁종일
▁지토
▁참호
▁티오
▁폐막
raph
▁Bad
▁not
▁글라스
▁다섯째
▁수감자
▁해남군
▁1810
▁ㄷㅓㄹㅓ
▁시스템즈
▁멩
상가
차크
케인
▁no
▁고금
▁공생
▁괴산
▁노포
▁명회
▁방비
▁빌레
▁수계
▁아강
▁아코
▁알카
▁잡음
▁절도
▁처단
▁피르
▁필적
▁현안
▁264
▁가부장
▁도리어
▁돌아보
▁사림파
▁실종자
▁잉글리
▁콜레스
▁라그랑주
▁브루크너
sc
연장
영화
▁간통
▁김소
▁마수
▁보손
▁비핵
▁승탑
▁일례
▁임사
▁존호
▁파가
▁파샤
▁화친
껍데기
수산부
연수원
▁216
▁괴팅겐
▁구독자
▁박지원
▁아즈마
▁테크니
▁포터블
▁1831
▁사법연수원
▁프로테스탄
af
▁엷
누르
대왕
▁노토
▁다롄
▁시메
▁유약
▁평사
▁현내
▁황궁
▁후버
▁흐루
▁선발전
▁자위대
▁제이미
▁창세기
▁각운동량
▁다다요시
▁어니스트
▁이끌어내
▁총영사관
▁우쓰노미야
▁노스캐롤라이나주
레도
루브
치니
▁pH
▁극좌
▁디시
▁레퍼
▁루브
▁삼남
▁성호
▁속현
▁승소
▁윤지
▁전량
▁주공
▁지루
▁초본
▁촉한
레이스
메이트
사우스
▁Are
▁눈부시
▁다름없
▁도요타
▁미시마
▁비핵화
▁오리올
▁유망주
▁정나라
▁코페르
▁타이밍
▁휴양지
컬럼비아
▁that
▁다카마쓰
▁스트라스
▁width
▁알렉산드로
▁브리티시컬럼비아
날두
도나
라프
트론
elf
▁국자
▁기틀
▁레흐
▁명창
▁불도
▁선왕
▁소감
▁신년
▁신변
▁어쨌
▁자객
▁조산
▁짜이
▁초조
▁총합
▁최규
그래프
▁Run
▁달팽이
▁독립당
▁레인지
▁아소카
▁애슐리
▁이와키
▁주둥이
▁지원금
▁척탄병
▁퍼거슨
▁피난민
▁밀레니엄
▁인사이드
▁align
▁횃
가슴
마켓
에즈
오버
키타
IST
▁군무
▁당부
▁루르
▁배럴
▁살균
▁아도
▁중문
▁코흐
▁피플
▁한지
스트로
▁460
▁RCA
▁생산지
▁예비치
▁울타리
▁은평구
▁정반대
▁호날두
▁호프만
▁Great
▁사회주의자
▁콜레스테롤
pm
▁깅
슬란
추리
폭스
ane
▁교두
▁김봉
▁박차
▁방형
▁분실
▁빽빽
▁서훈
▁오두
▁지파
▁청두
▁투과
▁달성군
▁오로라
▁제사장
▁클리프
▁워싱턴주
WA
누이
장어
▁we
▁근해
▁꾸짖
▁남문
▁설가
▁성층
▁수제
▁양시
▁어셈
▁장진
▁키요
▁하일
▁항거
▁노동부
▁다케시
▁로런츠
▁부스터
▁진동수
▁요시히로
▁호몰로지
▁노브고로드
▁숄
묘지
바노
테리
▁나자
▁노릇
▁로펌
▁린네
▁북로
▁승패
▁양당
▁차질
▁쿼드
▁클락
▁틀림
▁가극단
▁의금부
▁지휘봉
▁합법화
▁나가사키현
▁무척추동물
09
▁쉼
▁핍
렉트
ama
▁EL
▁광석
▁몰살
▁신디
▁엣지
▁엥겔
▁여류
▁영일
▁옐친
▁중주
▁파노
▁Cor
▁복잡도
▁슈바르
▁레퍼토리
▁Every
▁모터사이클
넬리
리가
우마
▁MR
▁극성
▁당도
▁덕흥
▁머무
▁변제
▁비사
▁석호
▁오수
▁윈저
▁유색
▁임차
▁티니
▁파월
▁판권
▁410
▁군주국
▁귀퉁이
▁법학자
▁애프터
▁테크닉
▁1841
▁요시타카
KA
▁꿇
▁갈레
▁고비
▁남측
▁봉승
▁생후
▁원예
▁정장
▁회합
▁후스
▁고르바
▁안후이
▁야나기
▁엡실론
▁일레븐
▁케이지
▁터키어
▁this
▁ㄴㅣㄹㅏ
▁브리트니
▁스토리지
▁스파이크
▁Project
▁캇
권력
려주
물질
살라
상부
테크
▁가위
▁견주
▁군왕
▁김보
▁린턴
▁마더
▁멜리
▁색슨
▁쌍방
▁열린
▁일지
▁제군
▁친필
▁침착
▁커비
▁핸들
▁호골
tain
▁가속도
▁리오스
▁버펄로
▁보성군
▁앙투안
▁인더스
▁칭다오
▁토착민
▁통영시
스티누스
▁Inst
▁호쿠리쿠
넬라
복음
카레
틸렌
ene
▁FL
▁곤도
▁난방
▁맬컴
▁발단
▁북조
▁분대
▁색계
▁선법
▁실격
▁심볼
▁안달
▁야인
▁연골
▁정대
▁청조
▁타사
거래소
▁UAE
▁김천시
▁서양식
▁프로페
▁고이즈미
▁멕시코시티
▁베른하르트
▁School
숭아
ney
uth
▁Je
▁UI
▁교위
▁누명
▁다원
▁라부
▁안트
▁애버
▁양전
▁양제
▁울림
▁조예
▁휘그
라이즈
▁YTN
▁보이저
▁위아래
▁음식물
▁1843
lement
▁귄
퓨터
ize
ott
▁계책
▁만과
▁몽케
▁본드
▁사멸
▁송강
▁엘튼
▁위엄
▁이따
▁전군
▁전처
▁체이
▁타다
▁판각
웨일스
▁구로다
▁인도인
▁진흥왕
▁집현전
▁총동원
▁탈바꿈
▁가선대부
▁아나스타
▁고르바초프
▁ha
▁각계
▁궤간
▁매핑
▁석학
▁시퀀
▁신창
▁어가
▁원균
▁유모
▁입교
▁정랑
▁진관
▁코팅
▁키미
▁튜버
▁파탄
ript
▁강진군
▁몰아넣
▁반다이
▁벤자민
▁소방관
▁차이나
▁뉴사우스
▁미끄러지
▁뉴사우스웨일스
▁웸
미드
퇴근
ins
▁감로
▁김효
▁노블
▁니르
▁도지
▁셰리
▁수월
▁신촌
▁어간
▁업종
▁연체
▁윤종
▁은상
▁자상
▁장력
▁전횡
▁처남
르트르
▁234
▁공예품
▁로망스
▁밤하늘
▁양주군
▁에이미
▁케로로
길동
단조
티엄
▁궁예
▁동음
▁레게
▁레니
▁미혼
▁성찰
▁신파
▁아일
▁연선
▁차우
▁체의
▁통사
▁페론
▁프시
▁허무
▁213
▁Rad
▁미야코
▁펜티엄
▁고다이고
▁남태평양
▁찔
북동
장식
▁개폐
▁뒤편
▁리빙
▁매료
▁보은
▁불허
▁사네
▁수혈
▁신데
▁에니
▁임지
▁장직
▁주오
▁찬반
▁처우
▁총력
▁퍼드
▁험하
▁key
▁거주민
▁구로구
▁남원시
▁미나토
▁설계자
▁애스턴
▁제이콥
▁호르헤
▁맥도날드
▁비정규직
▁오카자키
ㄹㅕ
뉴얼
로리
말로
웨시
▁가노
▁결부
▁고우
▁꼭두
▁넥슨
▁데인
▁마의
▁보답
▁사족
▁수완
▁예제
▁울진
라리온
▁GPU
▁광명시
▁마애불
▁만화책
▁명명법
▁생물체
▁서보장
▁송광사
▁주택지
▁1804
▁술라웨시
▁score
▁안드레아스
▁옥타비아누스
경제
키르
티니
rag
▁Im
▁up
▁구파
▁국판
▁도민
▁도조
▁머릿
▁연필
▁재량
▁텐트
▁홍주
▁255
▁Web
▁강동구
▁기술력
▁김제시
▁버몬트
▁보이콧
▁1809
▁더글라스
▁원더러스
▁20120
▁농어촌버스
▁시에라리온
▁샛
노신
마뉴
사촌
암면
조치
푸라
▁간헐
▁권선
▁권영
▁만력
▁밀어
▁반가
▁배송
▁법당
▁아포
▁에렌
▁옐로
▁온양
▁총상
▁특파
▁판문
▁허니
▁219
▁Mod
▁라이히
▁리스크
▁뱅크스
▁샐러드
▁양주시
▁프렌치
▁1623
▁1783
▁샤를마뉴
▁신데렐라
▁카슈미르
▁코페르니
▁트랜스포
SI
eng
▁근심
▁금품
▁급유
▁난입
▁남명
▁드롭
▁산학
▁석물
▁수기
▁스메
▁야자
▁탈옥
▁파멸
▁하룻
▁함포
▁EOS
▁val
▁출퇴근
▁편집기
▁1805
▁가시광선
민턴
중미
▁DP
▁겸손
▁꺾이
▁마네
▁메기
▁발데
▁선주
▁우의
▁유람
▁유복
▁지세
▁총관
▁담양군
▁북중미
▁비트겐
▁설득력
▁신숙주
▁진도군
▁1819
▁1835
▁궁수자리
▁와이파이
▁허베이성
▁오키나와현
▁비트겐슈타인
EX
가쿠
더드
무드
사지
▁nt
▁무적
▁분립
▁산군
▁외세
▁전법
▁취역
▁탁발
▁탄탄
▁홍준
▁환생
atic
▁Rob
▁감염병
▁그리핀
▁부대원
▁사토시
▁알아채
▁초능력
▁하룻밤
▁홋스퍼
라이언스
▁1813
▁헤르베르트
05
▁큼
생기
에타
rop
▁ㅅㅛ
▁박철
▁비안
▁야노
▁외롭
▁조희
▁회생
▁Sub
▁마돈나
▁바이든
▁시어도
▁파올로
▁1799
▁1821
▁매개변수
▁클라우스
▁퀵
룩스
▁고주
▁금주
▁길쭉
▁농악
▁단념
▁돌진
▁라빈
▁레노
▁마역
▁문답
▁배재
▁보태
▁비탈
▁생부
▁순치
▁쟁탈
▁공포증
▁미소녀
▁안기부
▁유태인
▁줄리엣
▁하야시
▁1803
▁배드민턴
▁시어도어
▁하비에르
▁애리조나주
▁ㅆ
등기
런드
청정
▁도당
▁레터
▁민병
▁보주
▁부역
▁셀라
▁수미
▁수험
▁암반
▁유랑
▁이변
▁정열
▁정운
▁조안
▁증설
▁지국
▁최승
레우스
▁관광업
▁구조대
▁메이크
▁방문자
▁스포트
▁장시간
▁전쟁터
▁지구대
▁파스타
▁형이상
▁디바이스
▁프로펠러
▁스파이더맨
▁쉴
▁쎄
룬궁
야카
엄경
코어
▁UF
▁네온
▁대간
▁루빈
▁명기
▁바드
▁박희
▁본점
▁사노
▁신드
▁와시
▁장본
▁재기
▁주루
▁창사
▁캐스
▁티미
▁포지
▁하랄
▁호우
그레브
▁막바지
▁밑부분
▁비무장
▁상주시
▁영동군
▁카세트
▁키루스
▁파룬궁
▁플뢰레
▁다이렉트
▁슈바르츠
▁슬라이드
▁아사쿠라
▁자그레브
▁크리스토프
na
광석
블러
입상
춘기
ams
▁am
▁계면
▁광원
▁리포
▁무학
▁보천
▁불의
▁선산
▁성시
▁실라
▁연례
▁오존
▁조차
▁지망
▁지요
▁축약
▁친교
▁카도
▁타니
▁혼슈
▁275
▁Ind
▁시스터
▁훈련소
▁소프라노
ations
▁인터랙티브
롤터
조약
▁Mc
▁UP
▁간척
▁교신
▁다승
▁돌방
▁병리
▁서영
▁소부
▁순국
▁순사
▁원대
▁저마
▁진봉
▁크래
▁파머
▁혈연
▁히포
즈버그
▁번역본
▁소시에
▁아이비
▁주사위
▁ㄴㅣㅇㅏ
▁법무법인
▁신약성경
▁와이오밍
▁전자기파
▁지브롤터
난히
노지
바야
▁기류
▁레디
▁리호
▁마유
▁밀로
▁서군
▁송영
▁심혈
▁쓰키
▁엘렌
▁여흥
▁유쾌
▁인맥
드랑이
▁ARM
▁Off
▁구락부
▁멧돼지
▁브란트
▁얼스터
▁함양군
▁YMCA
▁구마모토현
▁뎀
함대
erm
▁격돌
▁겸비
▁데릭
▁매화
▁버디
▁신겐
▁애비
▁음극
▁조밀
▁조운
▁참새
▁충절
▁Bel
▁She
▁레이드
▁번역가
▁아프간
▁에드윈
▁이끌리
▁저수지
▁마스터스
UL
▁넵
로메
봉산
oph
▁RF
▁VV
▁결점
▁고서
▁근친
▁농노
▁다호
▁민진
▁부계
▁성상
▁섹시
▁속박
▁수차
▁왕전
▁주정
▁총신
▁커맨
▁탈라
▁혼재
복지부
▁FTA
▁과도기
▁기울기
▁두드리
▁지원군
▁1845
▁영지주의
▁킬로그램
▁플러그인
▁20100
럭스
시효
▁MY
▁WK
▁각서
▁격분
▁나크
▁나포
▁만호
▁망가
▁배합
▁성유
▁세세
▁아령
▁양공
▁원뿔
▁유병
▁임성
▁중류
▁클립
적으로
▁OEC
▁근거리
▁로열스
▁양방향
▁웸블리
▁제후국
▁출연진
▁칼리파
▁혁명당
▁호스팅
▁나카지마
▁코르도바
▁해양수산부
NS
미츠
▁김익
▁데루
▁로잔
▁리티
▁무마
▁분투
▁산도
▁육류
▁일광
▁중창
▁지산
▁청천
▁체사
▁파면
▁교회법
▁모리슨
▁발레리
▁베니스
▁불안감
▁연나라
▁오마르
▁창녕군
▁파르티
▁피루브
▁휘트니
▁Down
▁HTTP
▁루즈벨트
▁인기가요
▁증권거래소
▁페미니스트
we
두스
칼라
▁KR
▁다나
▁무오
▁밀정
▁반탁
▁비법
▁비장
▁산양
▁스무
▁시군
▁완충
▁응고
▁재가
▁저당
▁종용
▁탱화
▁헌트
▁횃불
프리트
▁금산군
▁기쿠치
▁디지몬
▁레이터
▁바울로
▁사회부
▁음성군
▁출발점
▁퇴적물
▁에인절스
▁핵미사일
▁평양직할시
▁댁
▁펨
가이
레알
비노
콘티
▁강탈
▁경직
▁괴테
▁구지
▁군소
▁눈앞
▁만네
▁밀크
▁왕망
▁유린
▁인방
▁임박
▁중년
▁질의
▁청양
티나무
atur
▁영암군
▁오쿠보
▁요시오
▁우참찬
▁현무암
▁흑사병
▁에마누엘
▁엠파이어
▁전체주의
▁카스트로
▁트리니티
▁미네소타주
▁에리트레아
xy
렌츠
별초
보전
▁EA
▁Em
▁가꾸
▁공제
▁광무
▁금오
▁남진
▁랄프
▁목도
▁무녀
▁미쿠
▁상보
▁우등
▁전령
▁행법
▁활력
▁라이즈
▁마우리
▁블레어
▁크레인
▁파이낸
▁주계열성
▁헴
네세
혈병
▁결번
▁노팅
▁바레
▁변의
▁세그
▁섹터
▁스물
▁아문
▁앤젤
▁오코
▁원지
▁진남
▁진폭
▁타트
▁퍼부
▁포프
▁OVA
▁모기업
▁사마의
▁사바나
▁사춘기
▁이즈모
▁작용소
▁정읍시
▁칼데라
▁파이썬
▁화물선
보스토크
▁Just
▁스트로스
▁가고시마현
▁금메달리스트
▁블라디보스토크
03
곡사
아노
▁거르
▁견과
▁루가
▁순절
▁앵무
▁양사
▁요나
▁원추
▁윙스
▁유례
▁전각
▁카렌
가르드
▁노나라
▁도에이
▁동반자
▁산사태
▁자존심
▁마츠모토
▁비스콘티
▁야마구치현
▁International
▁윅
마트
▁궁녀
▁도체
▁동관
▁모계
▁목축
▁시보
▁예거
▁오드
▁옥중
▁절개
▁팔로
▁한수
▁황조
▁회가
▁are
▁경순왕
▁고구마
▁끝마치
▁로도스
▁브리핑
▁색소폰
▁수행원
▁아르마
▁오사무
▁완성도
▁크롬웰
▁1775
▁아랫부분
▁얼라이언스
▁이탈리아인
▁코페르니쿠스
▁쏠
▁팥
러니
타기
▁GE
▁Sk
▁ㅇㅞ
▁계림
▁미케
▁본가
▁야오
▁역법
▁오귀
▁은색
▁지와
▁친근
▁투라
▁프티
▁Act
▁Ste
▁거창군
▁다이라
▁득점자
▁메이드
▁몰려들
▁빌리지
▁의석수
▁전임자
▁점령지
▁토레스
▁1802
▁마사히로
▁스포르차
▁아케메네스
예보
ues
▁게코
▁구레
▁김순
▁랭스
▁마두
▁미화
▁분청
▁산현
▁시랑
▁아방
▁유현
▁전태
▁정미
▁주법
▁푸트
세이돈
▁227
▁POS
▁간담회
▁결론지
▁고생물
▁담아내
▁문교부
▁사이키
▁서커스
▁수공업
▁식료품
▁친동생
▁트렌드
▁학년도
▁OECD
▁중합효소
▁포세이돈
▁피루브산
▁Korea
▁소시에다드
06
닥치
만금
벌린
air
▁VR
▁단테
▁메노
▁백금
▁병장
▁용자
▁은총
▁입선
▁자가
▁자모
▁정육
▁집시
▁추도
어머니
▁BSD
▁Che
▁ver
▁새만금
▁아르타
▁어쨌든
▁푸른색
▁홍준표
▁어린아이
▁Micro
레마
쿼이
튠즈
▁기로
▁미역
▁밀수
▁오피
▁이쿠
▁주동
▁직구
▁크누
▁피력
▁햇볕
▁흑자
▁218
▁Ang
▁수니파
▁아무르
▁영연방
▁음악상
▁전반전
▁전환점
▁1824
▁느티나무
▁아이튠즈
▁페가수스
▁Award
▁Power
게니
슈빌
에다
클로
▁DE
▁기즈
▁드론
▁마드
▁문공
▁압승
▁에그
▁에베
▁이분
▁중군
▁측도
▁한일
▁Inc
▁노키아
▁메이슨
▁박원순
▁세이버
▁스텔라
▁에이커
▁중국식
▁지원병
▁세그먼트
▁엑스트라
▁켄터키주
▁흘러내리
▁ㅇㅣㅇㅑㅁㅏㄹㄹㅗ
▁웡
궤도
신기
요크
튿날
▁강민
▁넓적
▁선분
▁오언
▁완행
▁장충
▁주미
▁차내
▁취입
▁투아
▁하녀
▁한눈
▁How
▁Who
▁마사카
▁몽골족
▁비욘세
▁애호가
▁에스터
▁올라프
▁전산망
▁징역형
▁태권도
aster
ittle
▁1808
▁9000
▁comp
▁수양대군
▁야마시타
▁야마자키
▁오스트로네시아
MC
▁줍
▁콴
ㅇㅘ
놀룰
파업
riv
▁고보
▁굴곡
▁금당
▁나베
▁데어
▁라브
▁민첩
▁상아
▁어종
▁우먼
▁원당
▁원순
▁자일
▁장방
▁특진
▁행태
놀룰루
샤오핑
ates
▁224
▁316
▁325
▁껍데기
▁동작구
▁매크로
▁문인석
▁바르트
▁보령시
▁생산물
▁쌍계사
▁중견수
▁중앙당
▁차일드
▁청년단
▁피에로
▁1807
▁1834
▁개혁주의
▁덩샤오핑
▁에스파뇰
▁호놀룰루
러햄
아비
▁Bu
▁감속
▁러너
▁미처
▁빗대
▁신당
▁어퍼
▁엄호
▁옥고
▁이륜
▁주박
▁추앙
▁판독
▁해면
▁해법
▁화의
▁305
▁불어넣
▁에이드
▁총파업
▁동프랑크
▁요시쓰네
▁이사벨라
▁ㄴㅡㄴㅑㄱㅗ
▁아르메니아인
oud
▁TF
▁기예
▁누드
▁들판
▁상학
▁스이
▁여종
▁유파
▁타치
오피스
▁512
▁CNN
▁노선도
▁밀리언
▁에리히
▁이영호
▁이튿날
▁피어슨
▁함안군
▁헤비급
티아누스
irect
▁AIDS
▁ᄇㅅㅣㅇㅗ
▁뭄
란도
릅쓰
▁기약
▁명곡
▁복건
▁시연
▁양치
▁작화
▁접대
▁정석
▁제원
▁찬송
▁티어
리스토
▁253
▁501
▁고흥군
▁공격력
▁남대문
▁노이즈
▁호나우
▁2023
▁마리우스
▁췌
기름
리시
사쿠
인자
▁계모
▁급식
▁김택
▁나혜
▁돌궐
▁라데
▁문란
▁문항
▁미티
▁발부
▁빌럼
▁석축
▁수려
▁쉬르
▁야산
▁입회
▁책상
▁키라
▁파란
▁괴산군
▁마쓰이
▁무릅쓰
▁무용가
▁발사대
▁안보리
▁여호와
▁유타카
▁체이스
▁평양성
▁확고히
▁아오야마
▁에이브러햄
기군
마당
촌면
ava
▁DX
▁OR
▁구기
▁남만
▁다각
▁대보
▁덩치
▁뒷날
▁보가
▁섀도
▁성결
▁소하
▁완패
▁특산
▁후천
샘프턴
▁니제르
▁덕양구
▁마산시
▁미하엘
▁스피릿
▁스피어
▁아오이
▁짝사랑
▁홍성군
▁휘발유
▁ㄹㅣㅇㅗ
MI
▁간쑤
▁귀박
▁노우
▁뒤셀
▁랜스
▁말갈
▁반월
▁소급
▁신보
▁아수
▁의향
▁이비
▁투척
▁포체
▁해롭
▁행주
▁호에
트리스
▁303
▁940
▁경사면
▁관람객
▁교통량
▁눈치채
▁무제한
▁미코토
▁보상금
▁빼어나
▁웨이크
▁Fire
▁비상사태
▁콤플렉스
▁행방불명
▁뒤셀도르프
▁반유대주의
TR
▁씹
분별
와르
▁냉장
▁쓰쿠
▁오위
▁우여
▁응축
▁이과
▁장유
▁카고
▁행차
▁기업체
▁매출액
▁세포질
▁쉐보레
▁외래어
▁하르트
▁Game
▁말레이어
du
▁텃
도어
랜도
바사
ape
▁Mk
▁눈길
▁백석
▁삼위
▁생년
▁세드
▁세차
▁송준
▁약체
▁지온
▁진왕
▁평온
▁합세
▁환호
간지주
다나오
▁Tim
▁all
▁보내오
▁유키오
▁팬클럽
▁합중국
▁당간지주
▁페니키아
▁홀로코스트
▁힝
문왕
정책
▁가압
▁강박
▁구드
▁김좌
▁다짐
▁시급
▁영창
▁이숙
▁폐암
▁황룡
▁후두
룸푸르
ster
▁ㄴㅏㅁ
▁감사원
▁폭발물
▁삼위일체
▁라이프니츠
▁스트라스부르
시장
진법
▁공구
▁도저
▁박명
▁반칙
▁봉선
▁부령
▁산세
▁소조
▁시련
▁쓰시
▁알프
▁웨딩
▁윔블
▁제석
▁처참
▁키보
▁탑비
▁터리
▁777
▁Ass
▁par
▁대장경
▁미카와
▁바나흐
▁발상지
▁수녀원
▁수족관
▁위안스
▁케이시
▁테레비
▁힐러리
▁아라카와
▁카롤링거
▁Dance
▁트랜스포머
▁ㅇㅡㄹㅏㄱㅗ
룬디
멘토
지우
햄프
▁TP
▁가내
▁가석
▁고단
▁드와
▁로카
▁민방
▁불발
▁상쇄
▁속기
▁원호
▁위세
▁음각
▁장화
▁전치
▁커밍
▁코토
▁토구
▁판교
▁패소
▁헤딩
리스타
▁Hol
▁강우량
▁경사지
▁교차점
▁그레그
▁당분간
▁보수파
▁부산물
▁스테로이드
▁항공우주국
CO
TO
베그
비시
정지
카쓰
▁감영
▁고레
▁공위
▁남코
▁단락
▁막말
▁백마
▁소공
▁소현
▁손오
▁인어
▁조망
▁체구
▁충정
▁컴포
▁태클
▁티그
▁헬멧
오스트
헌대부
▁Pre
▁국경선
▁뉴햄프
▁루도비
▁모니카
▁비키니
▁신생아
▁완벽히
▁윔블던
▁조사단
▁회의소
▁Mark
▁우르바노
▁하코다테
▁시모노세키
▁잘츠부르크
45
bs
▁내통
▁리온
▁미구
▁백범
▁유황
▁편평
▁하토
ield
▁Dav
▁이동식
▁철도선
▁타악기
▁하남시
▁러더퍼드
▁레버쿠젠
▁리카르도
▁포츠머스
▁프로테스탄트
미분
정기
호텔
ARD
▁감형
▁다로
▁달인
▁동주
▁명실
▁볼가
▁석굴
▁역간
▁예장
▁오페
▁음수
▁칸토
▁코덱
▁코비
▁특보
▁티비
▁포티
게임넷
▁Air
▁KAI
▁나바라
▁밸런스
▁상거래
▁상상력
▁아비뇽
▁악영향
▁안재홍
▁케이티
▁플레어
▁1392
▁신비주의
▁온게임넷
오스트레일리아
zy
▁쭉
고백
바겐
하리
학사
▁LD
▁경쾌
▁노섬
▁대연
▁데크
▁명망
▁반투
▁방목
▁영제
▁와다
▁자니
▁전영
▁책자
▁카누
▁쿠프
▁홍진
▁마인츠
▁사브르
▁아폴론
▁앨리슨
▁올랜도
▁원거리
▁행진곡
▁허정숙
▁사고방식
▁신앙고백
▁인조반정
▁등지느러미
▁보건복지부
▁보니파시오
▁위안스카이
▁Records
냅스
바트
터우
▁납북
▁면화
▁승화
▁심취
▁육조
▁최국
▁카베
▁토후
▁퇴학
▁포경
▁피파
▁해탈
▁999
▁Now
▁Pol
▁긴꼬리
▁눈동자
▁동구권
▁모음곡
▁복숭아
▁스턴스
▁시냅스
▁에테르
▁옥타브
▁집대성
▁찢어지
▁청계천
▁1597
▁스피어스
▁시리우스
래곤
타일
▁IL
▁가만
▁각하
▁관부
▁굴뚝
▁근현
▁나침
▁내과
▁다트
▁단풍
▁당산
▁두아
▁마정
▁무아
▁문리
▁벌써
▁병들
▁소이
▁수모
▁완강
▁정다
▁치부
▁퀴어
▁해충
노스케
아가라
ited
▁401
▁530
▁net
▁ㅇㅏㅅ
▁나혜석
▁두만강
▁리소스
▁마사키
▁보병대
▁에드거
▁윤선도
▁의용군
▁추진력
▁카오스
▁1833
▁ㄹㅏㄱㅜ
▁구약성경
▁그리피스
▁나이아가라
곡절
케라
▁di
▁대시
▁더그
▁도맡
▁성역
▁아머
▁용법
▁응집
▁지프
▁초인
▁최성
▁테너
▁판무
▁학식
그러지
로니카
▁Und
▁계획안
▁바바라
▁조그맣
▁코나미
▁표준시
너리
니히
마침
비르
자브
저기
정신
춘추
코더
ari
▁김남
▁나니
▁록맨
▁묶음
▁병참
▁봉천
▁세아
▁입방
▁잡종
▁지기
▁집게
▁헬라
▁힉스
▁Tri
▁리저브
▁에릭슨
▁자부심
▁접두사
▁지배층
▁초음파
▁툴루즈
▁홍천군
▁바티스타
▁아이오딘
▁차이콥스키
▁욜
공격
발라
원사
▁군역
▁꾸란
▁레우
▁만인
▁식읍
▁원초
▁입석
▁접견
▁진법
▁진평
▁천성
▁트립
ning
ring
▁237
▁Cal
▁공양왕
▁때마침
▁마쓰다
▁마틸다
▁일어서
▁파이트
▁1787
▁우여곡절
▁크리스털
▁젝
관총
준호
토끼
통감
▁고환
▁소국
▁우가
▁육사
▁제논
▁초급
▁평단
▁호분
▁횡포
ther
▁AEK
▁Ver
▁가나안
▁가평군
▁계엄령
▁니코스
▁데이먼
▁산기슭
▁아라키
▁아우디
▁중랑장
▁청도군
▁1816
▁1818
▁Real
▁아세트산
▁파이어폭스
▁긁
이츠
▁고귀
▁말엽
▁명작
▁미그
▁베넷
▁봉토
▁사선
▁삼매
▁순응
▁재실
▁조중
▁좌완
▁중경
▁최윤
▁캐머
▁항법
레슈티
▁244
▁540
▁RFC
▁개정판
▁깨뜨리
▁말라위
▁미워하
▁소유주
▁아라이
▁유미르
▁카톨릭
▁태그팀
▁다이라노
▁블루투스
▁스키타이
▁텀
네일
징금
카시
▁MK
▁ㅅㅖ
▁고차
▁기라
▁도총
▁마름
▁법대
▁벤투
▁브렛
▁양명
▁우암
▁전업
▁포이
▁회동
▁공학부
▁로미오
▁미에현
▁인디아
▁펀자브
▁프레시
other
▁거듭제곱
▁다이오드
▁트라우마
▁파이터스
▁파트너십
▁Again
▁하이델베르크
무로
수사
슈나
mas
▁gr
▁길가
▁리허
▁방직
▁변태
▁산후
▁앤트
▁저온
▁정혜
▁총명
▁풀럼
▁풍미
▁환각
ated
▁265
▁560
▁Fre
▁Mer
▁교두보
▁글쓰기
▁뒤덮이
▁박중양
▁부산시
▁성행위
▁속임수
▁지하수
▁캐롤라
▁킵차크
▁프로스
ME
▁꽉
▁봅
▁툭
구동
권법
와트
포도
▁난부
▁루벤
▁망설
▁맞먹
▁반년
▁볼링
▁생육
▁선화
▁속곡
▁수탈
▁시세
▁아퀴
▁어제
▁정우
▁킬리
▁풍산
▁풍선
▁한상
▁가석방
▁가와치
▁극소수
▁대동강
▁명목상
▁세바스
▁알파인
▁에이트
▁에치젠
▁차라리
▁프리덤
보르기니
▁대통령령
▁여기저기
GE
ㅏㅇ
계선
네즈
저리
주제
톱스
플라
▁난해
▁달라
▁반시
▁발문
▁성안
▁소제
▁양털
▁외피
▁이서
▁칸나
▁칼날
▁321
▁ㅋㅏㅇ
▁레이테
▁방어력
▁의사당
▁콜레라
▁히데키
케라톱스
▁사쿠라이
▁오스카르
▁형이상학
▁Never
▁람보르기니
▁셉
레네
미나
▁;"
▁OG
▁RX
▁간극
▁게양
▁겐지
▁고명
▁고영
▁김철
▁대례
▁데프
▁레브
▁문의
▁사철
▁성심
▁수박
▁수세
▁스탬
▁시한
▁실링
▁심복
▁잡스
▁재림
▁전초
▁조짐
▁천억
▁팬텀
▁포용
▁헌팅
▁효행
루시아
소년단
▁680
▁강경파
▁건드리
▁걸어가
▁기록물
▁달서구
▁리처즈
▁베로나
▁유배지
▁청량리
▁후시미
▁중앙유럽
▁뻘
부패
양동
질기
ATA
▁Si
▁개천
▁고야
▁교배
▁낙관
▁눈금
▁더미
▁명승
▁묵살
▁뮤즈
▁선적
▁순화
▁유토
▁코메
▁코칭
▁풍력
▁호두
▁회남
▁후량
▁SUV
▁김원봉
▁나침반
▁남해안
▁단양군
▁바르톨
▁부안군
▁직선제
▁체로키
▁칠곡군
▁Home
▁카를로만
any
vil
▁OH
▁객사
▁고상
▁동리
▁만행
▁백련
▁샤먼
▁스탄
▁시녀
▁식단
▁양각
▁엄중
▁요사
▁유표
▁저상
▁진중
▁팀원
▁풀밭
ling
▁262
▁imp
▁대국민
▁모닝구
▁상록수
▁수산화
▁엘리사
▁의령군
▁정약용
▁홍백가
▁화학식
▁마사유키
▁부정부패
▁프레이저
▁히타이트
▁20200
▁프로페셔널
▁ㄴㅡㄴㅑㄴㅡㄴ
DR
ek
▁가출
▁근소
▁농심
▁데라
▁돌이
▁마샬
▁문호
▁바루
▁박은
▁병부
▁사돈
▁우레
▁이충
▁인내
▁정광
▁철새
▁치솟
▁태위
▁파급
▁필즈
▁행각
티스트
평대군
▁245
▁263
▁DMB
▁불명확
▁안도라
▁우메다
▁이따금
▁정선군
▁줄어드
▁초나라
▁Jour
▁레이아웃
▁브롱크스
▁스탠다드
▁파르티잔
보쿠
샤르
쓰키
전동
카즈
ook
▁간택
▁눈썹
▁독학
▁레위
▁모면
▁박문
▁외양
▁원류
▁장도
▁판화
▁풍화
▁혼수
컴퓨터
▁ㅇㅜㄹ
▁골프장
▁관공서
▁레슬러
▁빚어지
▁성장률
▁수신기
▁시행령
▁원작자
▁존스턴
▁카다피
▁학술원
▁휘어지
▁그라나다
▁아카이브
▁인도주의
▁제네시스
gy
▁눔
▁찜
inc
▁Ig
▁KF
▁기뢰
▁기복
▁다인
▁대홍
▁도트
▁메탄
▁버금
▁변명
▁산초
▁속명
▁신수
▁아보
▁악용
▁이두
▁인왕
▁자파
▁진무
▁채식
▁통학
▁학관
▁311
▁org
▁끈질기
▁머레이
▁신뢰도
▁아브루
▁여학교
▁옹정제
▁이주해
▁조선족
▁2600
▁마르코스
▁솅
다우
디트
OCA
▁Wr
▁고루
▁번가
▁비각
▁악몽
▁양태
▁일축
▁토막
▁퓨처
노비치
▁UTC
▁대마도
▁드레이
▁마일스
▁스노우
▁유기물
▁재방송
▁적혈구
▁항구역
Force
▁라치오주
▁메달리스트
콜라
▁군내
▁군의
▁금발
▁사담
▁영공
▁크론
▁편대
▁폐업
▁휴고
▁out
▁마운드
▁비행선
▁스파크
▁여고생
▁자주포
▁정신병
▁페라라
▁국민정부
▁시라쿠사
▁플리머스
▁뽕
변사
시니
저트
터슨
히라
▁PV
▁강기
▁모씨
▁분구
▁스매
▁역적
▁온몸
▁위급
▁일요
▁임영
▁찔리
▁타개
▁포커
▁피코
트리아
ival
▁386
▁대륙군
▁로이스
▁산청군
▁수성구
▁시바타
▁야마노
▁역무원
▁이제동
▁잠자리
▁좌참찬
▁1763
▁1778
▁교통수단
▁레이더스
▁버펄로스
▁스포츠카
도전
셀라
추얼
▁공론
▁궁핍
▁기제
▁대첩
▁딱정
▁람다
▁물량
▁방파
▁본대
▁볼레
▁분신
▁소가
▁수조
▁식생
▁식수
▁신격
▁신춘
▁양왕
▁연혁
▁월계
▁캡콤
▁티탄
▁팬덤
▁헤스
▁Ber
▁Soc
▁남북한
▁대사성
▁문학부
▁사이고
▁슬럼프
▁시간표
▁에반스
▁진보신
▁후지타
ouble
▁Moon
▁스탠더드
▁앨프리드
▁연꽃무늬
▁해발고도
lt
리처
발디
전설
카쿠
ely
raw
▁경국
▁관립
▁김화
▁노자
▁닛코
▁도원
▁리쿠
▁비버
▁소명
▁속출
▁습작
▁원광
▁제복
▁진자
▁최단
▁폴드
▁Fri
▁구례군
▁기관사
▁내슈빌
▁문무왕
▁미란다
▁보일러
▁브라만
▁수페르
▁아르키
▁야전군
▁이동한
▁조소앙
▁1780
▁Type
▁left
▁머리장식
▁트라키아
▁파피루스
▁평화통일
▁폭스바겐
애자
이시
츠만
통제
▁고라
▁교각
▁김미
▁다정
▁달빛
▁맹자
▁박병
▁배차
▁비에
▁셜록
▁심도
▁양질
▁에토
▁역인
▁유괴
▁장주
▁저희
▁전근
▁제청
▁즉석
▁징발
▁현자
▁휴지
▁Pet
▁마땅히
▁시작점
▁적갈색
▁조슈아
▁진안군
▁진행하
▁플레밍
▁Summer
▁아르키메데스
전서
▁랜더
▁부쿠
▁성혼
▁엽록
▁월등
▁총탄
▁캐넌
▁코요
▁티타
▁푸앵
▁호부
▁흥국
플러스
▁Die
▁경덕왕
▁고메스
▁반혁명
▁수뇌부
▁이자겸
▁한국전력
▁부쿠레슈티
르템
이동
케로
▁BJ
▁Hz
▁UD
▁갈대
▁동선
▁매시
▁반짝
▁사누
▁사샤
▁사피
▁소신
▁수체
▁시디
▁신식
▁오퍼
▁오행
▁옮겨
▁외야
▁잉어
▁진산
▁참관
▁한학
▁Sil
▁Swe
▁mod
▁동역학
▁보살피
▁부룬디
▁사라이
▁아우렐
▁억지로
▁카트린
▁City
▁모리오카
▁사라예보
르템베르크
빠르
슬론
지드
하타
▁그분
▁레자
▁범종
▁빙판
▁수재
▁약어
▁유량
▁장막
▁조아
애슬론
커버리
클라베
▁def
▁겉모습
▁더욱더
▁레이첼
▁아바스
▁엠블럼
▁연기력
▁영천시
▁코르넬
▁퓨처스
▁헤엄치
▁훈련장
▁1817
▁딱정벌레
▁카를루스
▁콘클라베
포화
▁-.
▁국권
▁누아
▁동그
▁드니
▁미달
▁빙상
▁성군
▁수혜
▁시치
▁엘람
▁외직
▁우뚝
▁유르
▁육안
▁음계
▁이극
▁통수
▁학무
▁허나
apan
▁313
▁Fun
▁광산구
▁노이만
▁레이철
▁매장량
▁비활성
▁세르비
▁손오공
▁애니콜
▁옥개석
▁특산물
▁헬레나
▁1453
▁1825
▁나카가와
▁랭커스터
▁말라리아
▁사실주의
▁카트리지
yr
극장
베쓰
신론
중앙
페어
lin
▁관입
▁단추
▁대월
▁명료
▁무굴
▁병세
▁승무
▁신토
▁열혈
▁장공
▁재킷
▁지네
▁철갑
차일드
▁Vis
▁강연회
▁동인지
▁무안타
▁바하마
▁웨일즈
▁재계약
▁최우선
▁클레르
▁무라야마
▁스웨덴어
▁한국은행
▁헤르메스
간드
강도
뚜기
찰사
코이
펠트
▁NO
▁Sn
▁과대
▁관인
▁기오
▁남도
▁닐스
▁다산
▁던스
▁망라
▁비구
▁빈혈
▁석실
▁승문
▁오고
▁우방
▁장동
▁제패
▁클랩
▁호메
▁호종
▁훈구
곰자리
▁MLS
▁구사론
▁리버스
▁무자비
▁쇼펜하
▁아스타
▁연수구
▁채플린
▁탈리아
▁플레인
▁Enter
▁쇼펜하우어
▁페널티킥을
▁우크라이나인
덕리
델라
레즈
스프
err
ino
▁납세
▁노령
▁대림
▁미호
▁사문
▁산개
▁셰르
▁스냅
▁외우
▁원구
▁이권
▁팰컨
ican
▁980
▁고려인
▁광양시
▁금정구
▁도봉구
▁레지옹
▁사진가
▁수집가
▁외조부
▁조그마
▁집합체
▁쿠알라
▁합격자
▁열린집합
▁하드코어
▁Album
▁방탄소년단
▁쿠알라룸푸르
▁뮬
각시
충사
▁곡사
▁광릉
▁도내
▁마장
▁백합
▁비바
▁서유
▁심경
▁야나
▁양기
▁에지
▁영가
▁응모
▁의전
▁잔재
▁정액
▁케토
▁코즈
▁폐비
▁핀치
본주의
work
▁노르딕
▁도저히
▁동남아
▁모듈러
▁영광군
▁자연히
▁Team
▁분리주의
▁코린토스
▁테네시주
▁호메로스
▁Techn
▁크로스오버
yp
그너
나잇
슈트
자카
치산
티콘
포동
ope
▁KM
▁김신
▁니더
▁루도
▁망토
▁셔터
▁손잡
▁쇄신
▁양광
▁우로
▁워렌
▁워프
▁재키
▁출몰
▁충선
itch
reet
▁ㅇㅔㅅ
▁고쿠라
▁금지법
▁김홍집
▁리누스
▁마사코
▁미술사
▁백혈병
▁셰필드
▁소장품
▁순환선
▁스티커
▁신조어
▁아이누
▁요크셔
▁원피스
▁장덕수
▁참으로
▁마사무네
▁문하시중
▁비토리오
▁흐루쇼프
▁사우스캐롤라이나
▁홑
바위
스름
ves
▁근절
▁동궁
▁아밀
▁염전
▁예민
▁용모
▁원어
▁전등
▁준용
▁콥트
▁푸코
▁한탄
▁황기
연구소
▁Cre
▁관측자
▁광무제
▁워터스
▁의화단
▁충성심
▁1788
▁초전도체
▁판타스틱
▁아우구스티누스
무진
일점
팔로
▁MI
▁fe
▁가용
▁강정
▁검역
▁꺼지
▁난폭
▁남강
▁네버
▁디랙
▁반송
▁상전
▁성신
▁소우
▁약초
▁이요
▁초구
▁편도
▁항변
▁회자
▁네모나
▁도로시
▁부총재
▁사업비
▁시마네
▁아리마
▁에디터
▁잡아내
▁전봉준
▁조선어
▁카이두
▁코발트
▁퍼킨스
▁황금기
축구협회
▁1593
▁브리즈번
▁포항제철
▁First
▁앨라배마주
▁Little
▁대한축구협회
록색
화사
▁AW
▁Sa
▁개역
▁갯벌
▁격노
▁경왕
▁고품
▁오현
▁조원
▁주현
▁질주
▁침실
▁칩셋
▁태정
▁품류
도토스
메이슨
무스메
▁.."
▁기동성
▁뒷부분
▁레트로
▁로버스
▁시나이
▁실비아
▁아리안
▁장본인
▁컨셉트
▁필살기
▁해왕성
▁1828
▁무스타파
▁민다나오
▁이브라힘
▁모닝구무스메
럽트
ird
ler
▁HR
▁VL
▁기득
▁녹훈
▁누출
▁마제
▁먹히
▁무정
▁미흡
▁보크
▁비신
▁악행
▁압류
▁용담
▁이그
▁한영
▁후주
▁흑연
▁힘차
▁860
▁관측소
▁나이토
▁런타임
▁록펠러
▁매표소
▁사냥개
▁서천군
▁수사관
▁신해철
▁에디슨
▁이방인
▁무한도전
▁세종실록
▁히로유키
▁자유주의자
▁쉰
메인
첼로
ars
▁고착
▁단언
▁더듬
▁도일
▁앙헬
▁역관
▁역병
▁오동
▁울라
▁임재
▁지안
▁타바
▁테루
▁표고
바니아
▁극락전
▁나오키
▁따라오
▁마젤란
▁미도리
▁보호령
▁빙그레
▁사이코
▁삼별초
▁안세이
▁진사시
▁초이스
▁구부러지
▁모더니즘
▁물병자리
▁펩타이드
게르
다라
임새
장성
패닉
환국
ike
▁Nt
▁간절
▁경당
▁계비
▁교상
▁당면
▁로슈
▁미우
▁바카
▁방진
▁브록
▁뼈대
▁송수
▁시럽
▁신나
▁아달
▁어귀
▁원각
▁원경
▁인목
▁종반
▁주걱
▁참되
▁960
▁꽃가루
▁나루토
▁미켈란
▁법상종
▁성희롱
▁신경망
▁이규완
▁이스터
▁장신구
▁제미니
▁퓰리처
▁휘그당
▁Happ
▁SEED
▁다이애나
▁모리셔스
▁모하마드
▁이집트인
▁한국일보
▁헐리우드
▁히스패닉
▁주간고속도로
출마
▁공범
▁굳건
▁노기
▁다뉴
▁도프
▁동강
▁리뉴
▁리디
▁민스
▁불연
▁속옷
▁안도
▁알콜
▁엄하
▁에비
▁열녀
▁우와
▁장마
▁저승
▁전편
▁카가
▁통가
▁티티
▁하대
▁하목
▁혜왕
ress
▁333
▁몽골어
▁베이시
▁시퀀스
▁에미상
▁일라이
▁정상부
▁파티마
▁헤이케
▁인터럽트
▁Stage
▁수페르리가
ha
개토
지상
코니
▁경리
▁굴드
▁금방
▁낙점
▁뒤섞
▁빈스
▁살포
▁울창
▁인트
▁자영
▁중진
▁지라
▁진달
▁천진
▁큼직
▁혈전
▁황주
▁힐튼
리아노
▁Dig
▁산리쿠
▁수호신
▁수호이
▁적시타
▁클로즈
▁탐험대
▁패미컴
▁프랑켄
▁피오나
▁1797
▁로트링겐
▁스타트업
▁인디애나주
▁새천년민주당
▁안드로메다자리
ts
베다
하치
▁If
▁기침
▁남대
▁대박
▁레몽
▁로더
▁마미
▁불운
▁비웃
▁알란
▁역경
▁연경
▁연접
▁예기
▁의열
▁잉태
▁좡족
▁코먼
머니즘
스티스
카이치
▁관박쥐
▁남동구
▁내려놓
▁메소드
▁선인장
▁섬네일
▁슬라이
▁양성소
▁저소득
▁주제곡
▁지표면
▁캐머런
▁크랭크
▁특파원
▁포르쉐
▁1838
▁에너지원
▁집적회로
소프
켄지
키리
털루
oom
▁교민
▁루앙
▁만루
▁명랑
▁산발
▁소학
▁안국
▁정준
▁제회
▁종위
▁탐라
▁퇴거
자유당
파고스
▁229
▁POP
▁가처분
▁광개토
▁동두천
▁무분별
▁베니토
▁수십만
▁영양분
▁차베스
▁포병대
▁피그미
▁항등식
▁황무지
▁1636
▁Hist
▁국제기구
▁이로쿼이
▁민주자유당
▁예카테리나
▁히스파니아
ze
▁된
관광
롤라
리프
자료
umb
▁OL
▁ㅈㅜ
▁검교
▁구주
▁규소
▁다드
▁단부
▁신광
▁신승
▁올가
▁왕상
▁원세
▁질타
▁콜트
▁파시
▁편광
군주제
▁갑상선
▁고용주
▁도파민
▁바이런
▁사투리
▁스크롤
▁초거성
▁페드루
▁표지판
▁poem
▁나카모리
▁보호관찰
▁차가타이
▁크로노스
시드
지움
ECT
▁ed
▁굴착
▁기내
▁도면
▁말뚝
▁무령
▁법치
▁복도
▁사별
▁수고
▁시일
▁신랑
▁오레
▁은닉
▁이라
▁찬미
▁찰나
▁초각
▁한우
스탕스
▁공문서
▁마사토
▁브라이
▁송준길
▁역전승
▁청취자
▁트레이시
▁트레일러
▁헝가리인
▁레지스탕스
▁프리스타일
PG
폭력
▁갈망
▁강태
▁기꺼
▁락스
▁물들
▁박순
▁베인
▁보소
▁볼라
▁슈만
▁아슈
▁영내
▁용두
▁용호
▁일약
▁직역
▁최동
▁편년
▁피델
▁허적
▁호구
▁황화
▁Pla
▁Tom
▁가쓰라
▁경산시
▁경호원
▁공작원
▁노비타
▁대표부
▁리베라
▁리허설
▁사육신
▁진천군
수염박쥐
▁2024
▁야마나시
▁미시시피주
▁페르세우스
현리
▁MO
▁곡성
▁내연
▁능률
▁니노
▁범퍼
▁신증
▁어근
▁연제
▁열병
▁유임
▁증보
▁초명
▁평시
▁화단
▁남수단
▁서귀포
▁수에즈
▁카르타
▁1777
▁대학원생
yc
▁쑥
덕사
ris
▁MG
▁ㅎㅣ
▁고맙
▁고졸
▁구소
▁금과
▁듀이
▁바벨
▁반미
▁부츠
▁북주
▁순열
▁약재
▁어진
▁종별
▁주종
삼각형
▁249
▁323
▁AES
▁MBN
▁SAR
▁경사각
▁마술사
▁미추홀
▁민스크
▁스코프
▁털어놓
▁화엄경
슈바이크
▁Plan
▁다치바나
▁레이먼드
▁로테이션
▁스케이프
▁노스웨스트
▁미켈란젤로
PN
가치
무사
워싸
의어
천후
텍스
▁ph
▁광교
▁구균
▁난바
▁남면
▁무량
▁방역
▁석장
▁애용
▁용납
▁유종
▁인동
▁처자
▁태실
▁학상
▁항등
▁황토
야말로
▁TNA
▁갈라타
▁김정희
▁도플러
▁에워싸
▁영주시
▁웹스터
▁총감독
▁회색빛
▁히메지
▁Conc
▁김나지움
▁네이티브
▁드레스덴
▁마티아스
▁브라이트
▁플랑크톤
▁솔트레이크
▁브라운슈바이크
림리
마에
착륙
get
▁구한
▁니어
▁동질
▁멀린
▁물음
▁볼턴
▁사공
▁소품
▁잔기
▁죄목
▁캘빈
▁판다
▁페달
uman
▁266
▁PSP
▁관리법
▁기꺼이
▁나아지
▁말버러
▁발트해
▁보급품
▁서울역
▁예천군
▁유력자
▁정여립
▁캐피탈
▁코스닥
▁크루스
▁토후국
▁편집국
▁호남선
▁나뭇가지
▁테마파크
▁right
▁아일랜드어
빌라
포츠
els
uro
▁DT
▁공비
▁내해
▁도킹
▁메토
▁모성
▁붓다
▁비누
▁성나
▁양해
▁유두
▁인두
▁임오
▁질감
▁쾌적
▁파로
▁파타
ross
▁810
▁der
▁기무라
▁다뉴브
▁들려주
▁메디아
▁신간회
▁온건파
▁의정서
▁텅스텐
▁하인츠
▁나가오카
▁브리타니아
▁콜라보레이션
▁씽
덕면
렁크
소녀
태영
▁Ap
▁검단
▁난소
▁만슈
▁모유
▁법사
▁본받
▁분분
▁애쉬
▁외장
▁장명
▁칙서
▁카구
▁파치
▁하한
ㄱㅜㄴ
▁353
▁공격자
▁구매자
▁근연종
▁너구리
▁미노루
▁미술품
▁법무관
▁불어나
▁오베르
▁워털루
▁은하수
▁일대기
▁재통일
ative
▁Gold
▁문화재청
▁선덜랜드
▁디스커버리
▁왁
르담
사장
켤레
키치
▁Km
▁급감
▁도가
▁로직
▁루니
▁루미
▁비앙
▁빗물
▁선군
▁세터
▁순방
▁암사
▁원안
▁은화
▁읍내
▁쟁이
▁창법
▁풍성
▁화나
엽수림
혁명당
▁May
▁ㅇㅓㄴ
▁금지령
▁라이징
▁레반트
▁셰이크
▁연합체
▁외손자
▁우분투
▁이니셜
▁전람회
▁조건부
▁지멘스
▁허스트
▁노트르담
▁모리타니
▁아브루초
▁하나하나
▁윗수염박쥐
▁판의금부사
▁function
▁쩌
랜즈
ero
▁TE
▁Vo
▁ㅆㅣ
▁극하
▁뉴펀
▁니우
▁대불
▁도인
▁류성
▁면도
▁법의
▁서른
▁서화
▁선량
▁안수
▁위화
▁의탁
▁일일
▁천인
▁추수
▁한기
▁협연
바라기
ific
▁306
▁570
▁Sky
▁var
▁갈매기
▁관중석
▁부평구
▁소작농
▁진주성
▁코베인
▁펌웨어
▁main
▁가와카미
▁삼성그룹
▁카나리아
▁Gener
▁뉴펀들랜드
케르
티르
후미
▁Pi
▁고봉
▁과소
▁국학
▁마노
▁말레
▁분가
▁비소
▁섭동
▁엉뚱
▁에덴
▁조강
▁징용
▁태즈
▁하네
▁회령
▁회송
▁효시
▁훌린
디비시
베르데
스카야
line
▁257
▁광주군
▁긴장감
▁대구경
▁대역폭
▁로베스
▁발원문
▁세기말
▁스토크
▁아가미
▁윤원형
▁자본금
▁조언자
▁주원장
▁춘추관
▁테이트
▁평신도
▁홍건적
▁1784
▁팔레르모
▁에레디비시
▁ㄷㅏㄱㅓㄴㅏ
▁로베스피에르
▁럽
걸스
라티
링스
언군
ACK
AND
▁so
▁군공
▁대산
▁드가
▁등식
▁리야
▁막론
▁방아
▁백남
▁북문
▁삼도
▁스틴
▁에센
▁연명
▁원외
▁월성
▁진시
▁커튼
▁콘도
▁페소
▁평영
orth
▁TCP
▁라벤나
▁미크로
▁수자원
▁신대륙
▁은밀히
▁이승훈
▁이시이
▁인도양
▁조이스
▁페르마
▁1826
▁니가타현
▁드래건스
▁매리너스
▁블록체인
▁패러데이
▁위스콘신주
WC
에나
▁더더
▁두목
▁랄리
▁사복
▁이응
▁이춘
▁장석
▁최인
▁최정
▁화구
▁GHz
▁RAM
▁군포시
▁마커스
▁마테오
▁미적분
▁수출입
▁양양군
▁운전사
▁위스키
▁재조합
▁저압부
▁충선왕
▁하이데
▁Char
▁ISIL
▁옥스포드
▁카탈로그
▁콜로라도
▁Class
▁하이라이트
야식
첼리
쿠마
ful
▁간언
▁고뇌
▁당구
▁성탄
▁신령
▁심재
▁액자
▁어마
▁어벤
▁이다
▁이혜
▁재조
▁접히
▁지간
▁치매
▁토치
▁273
▁404
▁620
▁630
▁STX
▁Vir
▁app
▁과학부
▁관습법
▁군자금
▁부지사
▁슈바벤
▁시프트
▁아르민
▁에일리
▁워크스
▁통일부
▁TOUR
▁에노모토
▁영산회상
▁찾아다니
디크
부치
엔드
왕도
▁경공
▁군악
▁기절
▁대권
▁라키
▁링고
▁배서
▁변위
▁삼보
▁상비
▁성토
▁수납
▁슈마
▁야역
▁오족
▁인화
▁절실
▁천공
▁천호
▁측실
▁토종
▁파블
▁파비
▁함축
▁헥사
▁환공
세서리
▁But
▁God
▁겨울잠
▁노후화
▁드레드
▁맘루크
▁생방송
▁시집가
▁애국심
▁유스티
▁장흥군
▁주자학
▁참석자
▁트렁크
▁More
▁part
▁고전주의
▁이복동생
▁하마마쓰
▁갈라파고스
▁메릴랜드주
놀즈
밍턴
▁Da
▁Rh
▁날로
▁레그
▁룬드
▁말투
▁번사
▁보타
▁봉신
▁상산
▁석좌
▁스탭
▁야유
▁이찬
▁저런
▁절이
▁질책
▁초순
▁코아
▁퍼트
▁화평
▁힘러
▁구릉지
▁대마초
▁릴리즈
▁마오리
▁몰려오
▁문하생
▁배심원
▁부조리
▁불신임
▁세르히
▁스피너
▁실력자
▁야코프
▁은언군
▁자아내
▁저항성
▁하리마
▁휩쓸리
▁1680
▁전용도로
▁아일랜드인
olution
티늄
ren
▁BP
▁가람
▁건기
▁곡률
▁교목
▁구심
▁늘이
▁로쿠
▁비관
▁사색
▁수르
▁수안
▁양모
▁여리
▁옥산
▁좌초
▁튀김
▁향유
▁허셜
▁호드
▁군부인
▁그로브
▁리디아
▁벨리즈
▁아메리
▁연면적
▁정치범
▁제트기
▁중남부
▁포츠담
itude
▁Dark
▁나미비아
▁에히메현
▁Japan
▁미크로네시아
▁갠
녜스
장이
포항
ius
▁Sl
▁건반
▁경장
▁광천
▁데비
▁부아
▁세나
▁세인
▁얽매
▁여중
▁요요
▁인포
▁장연
▁저빌
▁정릉
▁정호
▁코보
메이커
▁880
▁NGO
▁ㅁㅔㄴ
▁감독관
▁국세청
▁볼거리
▁수필가
▁요아힘
▁음악인
▁정복자
▁제럴드
▁중앙동
▁키케로
▁혼마루
▁희극인
umber
▁Long
▁다카사키
▁언더우드
▁페데리코
▁해바라기
▁흘러나오
▁민코프스키
▁솥
새우
성장
▁교점
▁궁도
▁귀부
▁날조
▁뒤쫓
▁랠리
▁레코
▁변주
▁상군
▁설날
▁성황
▁아계
▁왼발
▁췌장
▁특검
▁패닉
▁한결
▁화정
▁회선
▁Fla
▁SNK
▁bes
▁남학생
▁닉네임
▁몽구스
▁봉화군
▁양천구
▁의왕시
▁재래식
▁지치부
▁천태종
▁카이퍼
▁현대식
▁활화산
▁소방본부
▁아키타현
▁적십자사
▁크리슈나
GS
▁댕
▁밉
▁찹
데나
사항
▁px
▁경서
▁리토
▁불우
▁시무
▁염원
▁오펜
▁완봉
▁이음
▁재거
▁정평
▁팩터
▁폰티
▁풍조
less
▁236
▁계산기
▁고속철
▁곰팡이
▁구덩이
▁내버리
▁대방광
▁마니아
▁메네스
▁벨라스
▁상징물
▁선교회
▁셀틱스
▁아루바
▁영남대
▁인덱스
▁토바고
▁파울리
▁페트라
▁헨리크
▁8859
▁국민은행
▁잉글리시
▁진핵생물
▁다이어그램
▁ㅇㅡㄹㅕㅁㅕㄴ
무역
연사
즈다
찰청
타자
테로
▁KP
▁__
▁nd
▁갑과
▁내년
▁노고
▁노정
▁대식
▁미제
▁방산
▁병설
▁봉투
▁안료
▁야고
▁언양
▁오치
▁우현
▁이가
▁인부
▁입궁
▁정창
▁페놀
▁하퍼
▁호도
▁후크
▁ㅏㅇㅑ
▁기차역
▁리포터
▁미국식
▁사령탑
▁소득세
▁아메바
▁이와타
▁이코마
▁제천시
투아네트
▁Fall
▁Year
▁대검찰청
▁테크니컬
▁페르미온
▁Stand
to
가드
모트
발리
산역
소네
쓰카
임자
지방
era
led
▁광기
▁구정
▁로건
▁비티
▁수론
▁심해
▁악사
▁연변
▁재적
▁적국
▁주례
▁진부
▁체급
▁최창
▁켤레
▁퀴리
▁폴더
▁피보
▁하청
▁한두
▁헬름
▁화천
프레임
▁304
▁Aut
▁경영난
▁광진구
▁뒷다리
▁마가렛
▁버금가
▁부풀리
▁아카시
▁앙카라
▁재빠르
▁정류소
▁제레미
▁파이퍼
▁현충원
프레이즈
▁로테르담
▁석불입상
▁시마네현
▁체임벌린
▁Beaut
▁Group
나크
득이
▁고함
▁납득
▁대작
▁도니
▁독보
▁들뜨
▁똑똑
▁안현
▁위인
▁작별
▁접영
▁정촌
▁최익
▁타슈
▁터전
▁파평
▁폭설
▁항암
▁환수
네이터
ople
▁공로상
▁공손찬
▁리아스
▁마이트
▁명부전
▁무한히
▁문화상
▁스트링
▁주동자
▁충무공
▁카니발
▁프리즘
▁1822
▁그야말로
▁남중국해
▁레이놀즈
▁아킬레스
▁Girls
▁카운트다운
험자
▁OM
▁ㄷㅓ
▁가례
▁금석
▁기년
▁마담
▁멸치
▁배교
▁북청
▁분묘
▁사타
▁산국
▁샤크
▁시복
▁아탈
▁용골
▁우고
▁융성
▁절기
▁청백
▁프릴
▁한시
▁확증
▁415
▁470
▁Bus
▁OFC
▁res
▁기동대
▁도전자
▁로리타
▁루시아
▁르베그
▁반대자
▁신의주
▁일반직
▁중심가
▁튀링겐
▁파열음
▁홍길동
▁1620
▁마라도나
▁스티븐슨
▁전통문화
▁표현주의
▁Sweet
댑터
소수
와프
운사
▁CI
▁LL
▁게스
▁곧장
▁남이
▁네빌
▁농수
▁뇌터
▁도의
▁레토
▁사경
▁아센
▁에머
▁음파
▁제과
▁청대
▁탈영
▁해마
달레나
에이터
▁247
▁GUI
▁고릴라
▁관리인
▁데미지
▁불포화
▁삼척시
▁신중도
▁안무가
▁어댑터
▁의료진
▁주성분
▁지리지
▁콜로니
▁풀타임
▁후원회
iness
▁1660
▁1811
▁날아다니
▁비엔날레
▁아유타야
▁요시미쓰
▁크리스트
▁푸앵카레
▁앙투아네트
AX
강원
르겐
메데
음악
체계
키오
▁감귤
▁검진
▁기모
▁남초
▁머드
▁밧줄
▁병약
▁본위
▁부석
▁순진
▁스스
▁시들
▁알자
▁약관
▁연개
▁우당
▁의기
▁잡이
▁조프
▁직할
▁체액
▁출하
▁태고
▁허벅
슬레이
▁Bra
▁MGM
▁UFC
▁군부대
▁로고스
▁변경백
▁비슈누
▁서라벌
▁태안군
▁하루히
▁하행선
▁ㅈㅣㅇㅛ
▁포클랜드
깨우
사토
▁면세
▁묵인
▁백상
▁번안
▁벌목
▁본과
▁봉급
▁북키
▁산대
▁소다
▁양안
▁이괄
▁적립
▁치바
▁카포
▁쿼리
▁토큰
▁파수
▁폭락
▁플롯
▁후카
텐디크
▁Ret
▁광우병
▁데이비
▁성주군
▁세미놀
▁승문원
▁실업자
▁외로움
▁우주국
▁조로아
▁캐리어
lease
▁LGBT
▁Roll
▁보르네오
▁헨드릭스
▁White
▁그로텐디크
▁Direct
디니
무이
배상
차오
토닌
asy
▁각막
▁강론
▁강선
▁고자
▁김안
▁내력
▁노라
▁노크
▁몬티
▁백양
▁아톰
▁약소
▁와우
▁웨버
▁일절
▁자드
▁전가
▁토가
▁티토
▁피임
▁후송
디스트
▁345
▁런던탑
▁매개체
▁메디컬
▁방어전
▁사나다
▁수세기
▁은신처
▁이데아
▁일일이
▁자작곡
▁출입국
▁파이리
▁헬무트
▁로버트슨
▁캔자스주
▁크리스티아
▁프리메이슨
fr
▁놉
▁렴
시안
이라
▁KL
▁교조
▁내선
▁단총
▁박창
▁비드
▁상술
▁선착
▁양준
▁언행
▁웅변
▁은유
▁전생
▁절지
▁채드
▁초간
▁태원
레인지
예비치
▁SHO
▁누리꾼
▁법주사
▁부코바
▁수행자
▁시발점
▁신고식
▁알레포
▁암살자
▁오세아
▁우거지
▁이사금
▁임진강
▁정무직
▁패터슨
▁플라잉
▁플렉스
▁1610
▁Miss
▁마요르카
▁볼리바르
▁오카모토
▁헤로도토스
▁Christmas
거북
문제
통신
판윤
ald
erv
▁Fi
▁가트
▁공진
▁루주
▁미마
▁불선
▁소독
▁소성
▁스톱
▁아롱
▁오션
▁용융
▁초승
▁행상
▁화분
▁히우
▁710
▁Cry
▁갈루아
▁개혁가
▁능력자
▁다득점
▁다비트
▁달려오
▁망설이
▁비변사
▁산호초
▁스트롱
▁스트립
▁영월군
▁유스케
▁저마다
▁청송군
▁칼리프
▁피아트
▁1770
▁가니메데
▁꼭두각시
▁사다리꼴
▁스탠포드
▁스프린트
▁해운대구
▁한성부판윤
▁하드리아누스
gg
렌트
산염
좌상
▁능히
▁다임
▁무반
▁민트
▁방광
▁사재
▁쇄도
▁스치
▁씨방
▁원담
▁육영
▁자퇴
▁죄책
순양함
테우스
▁거북이
▁괘불탱
▁나이츠
▁넥서스
▁발표회
▁식물학
▁울진군
▁유의미
▁체세포
▁루도비코
▁슬라이더
▁오리건주
▁지주회사
▁컴포넌트
▁ㅇㅕㅆㅇㅓㅆ
가나
대상
뎅이
종합
타다
▁검소
▁기력
▁라타
▁룰라
▁링스
▁무모
▁물산
▁배스
▁배추
▁부로
▁비파
▁스필
▁어택
▁엑소
▁완승
▁입건
▁조진
▁진종
▁첨탑
▁페미
▁한나
▁형평
▁효령
▁243
▁나이키
▁바우어
▁분석가
▁수송선
▁시흥군
▁쑤저우
▁오다큐
▁포커스
▁프로메
▁히라이
▁미쓰나리
▁아뢰야식
▁포메이션
▁해군기지
디브
예트
nal
▁공역
▁근신
▁기입
▁난시
▁라싱
▁말살
▁문맹
▁비노
▁수보
▁순무
▁에콜
▁역수
▁유향
▁일인
▁작은
▁조업
▁충만
▁판시
▁피레
▁흥업
메랄드
▁마린스
▁목적물
▁불가침
▁이스타
▁인천시
▁일깨우
▁임실군
▁주둔군
▁카시오
▁클랜시
▁클랩튼
▁페루자
▁험프리
니아누스
▁1604
▁마쓰야마
▁소행성대
▁에메랄드
▁Elect
▁크리에이터
sy
떡잎
랴쿠
청사
태후
▁AH
▁공교
▁덴분
▁매혹
▁맥라
▁목초
▁백스
▁별시
▁봄바
▁북두
▁분말
▁상봉
▁스컬
▁신채
▁액면
▁어순
▁의관
▁자화
▁중임
▁차인
▁토번
▁통설
▁통째
▁팬터
▁후륜
▁Mat
▁pop
▁ㅇㅏㅇ
▁김종서
▁끓는점
▁대구시
▁동해안
▁물방울
▁블랙번
▁얽매이
▁위그노
▁이방원
▁자연법
▁제이컵
▁졸업식
▁최고봉
▁카디프
▁크로마
▁하우젠
▁헤럴드
▁탄화수소
▁ㅇㅣㄹㅏㅇ
▁에르난데스
▁이바라키현
▁GeForce
CE
노미
사의
소송
엑스
잭션
fin
▁Ca
▁HM
▁Tu
▁거동
▁메티
▁명신
▁무디
▁문선
▁선국
▁엘베
▁이징
▁조간
▁페름
▁화법
토니오
oman
▁간사장
▁더더욱
▁데이지
▁동음이
▁모회사
▁시그널
▁인스트
▁재건축
▁전시실
▁참나무
▁최신형
▁코카인
▁특별상
▁홀랜드
▁확장팩
▁3500
▁Comm
▁나카소네
▁요시노리
▁타카하시
▁트랜잭션
88
mb
뮤다
워프
▁Na
▁고신
▁귀도
▁나그
▁네리
▁다도
▁등각
▁디리
▁로아
▁사포
▁양화
▁오모
▁키츠
▁하양
레흐트
▁930
▁NCA
▁경시청
▁동호회
▁로비치
▁마르키
▁마자르
▁무용수
▁버뮤다
▁수사학
▁영양소
▁오랜만
▁우익수
▁유원지
▁이동해
▁전리품
▁중남미
▁초음속
▁출루율
▁침례교
▁카펠라
▁한림원
▁ㄴㅏㅇㅛ
▁ㄹㅏㅇㅑ
▁드래곤볼
▁봅슬레이
▁석불좌상
▁스테파니
▁오피스텔
bc
ka
닝스
렐리
민관
조프
▁Us
▁계양
▁교세
▁군체
▁그렉
▁만회
▁방망
▁성금
▁스팟
▁외지
▁육신
▁장호
▁점막
▁정각
▁주당
▁질식
▁카제
▁탄창
▁탱고
▁표수
▁플린
▁혈당
▁호성
▁Mem
▁mac
▁굶주리
▁드래그
▁마르텔
▁부적합
▁시리얼
▁재경기
▁전교조
▁중시조
▁쥐라기
▁카메오
▁통감부
▁IDOL
▁맞아들이
▁아흐마드
▁에이로쿠
▁중심주의
▁통정대부
▁캐치프레이즈
ml
▁깍
군트
규어
록스
세나
진흥
텔라
트만
BSD
▁QS
▁고케
▁귀의
▁낙후
▁답습
▁뜻밖
▁방재
▁샤론
▁서얼
▁스펠
▁양복
▁요일
▁우량
▁초토
▁크롤
▁테디
▁특무
▁팔달
▁푸이
▁피격
▁허준
▁협찬
▁후아
즈베리
ents
▁달리기
▁로지스
▁몰디브
▁배급사
▁빈번히
▁아그리
▁에어컨
▁중합체
▁지하실
▁통행료
▁호시노
▁부르군트
▁아드리안
▁지그문트
▁핀란드어
▁겟
▁폄
다주
디시
밴드
▁LM
▁괴담
▁기선
▁낙성
▁대함
▁두건
▁램지
▁몸소
▁봉행
▁에라
▁옷감
▁웨스
▁종성
▁중정
▁증조
▁카게
▁파베
롭스크
부쿠로
aven
ible
▁공급원
▁랜더스
▁브라흐
▁비스듬
▁이홍장
▁인디펜
▁인텔리
▁타이타
▁1519
▁1829
▁고생물학
▁약사여래
▁파우스트
▁세바스티안
▁파이프라인
▁플루오린화
▁프라이부르크
▁ㄸ
더미
아과
아스
팬지
▁ㅊㅣ
▁공허
▁군장
▁목련
▁사저
▁성비
▁소추
▁손견
▁신혼
▁왕사
▁유코
▁자회
▁징시
▁초의
▁코피
▁티크
▁표식
▁회개
illa
▁286
▁307
▁DDR
▁노히트
▁디오니
▁맥라렌
▁메콩강
▁미즈키
▁백혈구
▁법률가
▁설계도
▁아스트
▁유난히
▁장성군
▁통찰력
▁플리트
▁히카리
▁1827
▁chem
▁네바다주
▁니코니코
▁롯데월드
▁조지아주
▁Staff
▁Story
▁Under
▁Young
▁Season
▁일러스트레이터
KO
▁숯
고원
스컵
und
▁UH
▁가늠
▁검문
▁고다
▁고배
▁대잠
▁데바
▁도드
▁바브
▁방벽
▁신심
▁영안
▁완구
▁음표
▁저속
▁정민
▁청혼
▁체신
▁태인
▁하숙
▁홍영
마리아
▁고케닌
▁공백기
▁김성근
▁도호부
▁레시피
▁레이지
▁마르타
▁사마르
▁세이프
▁수리남
▁에리카
▁엘레나
▁초승달
▁침팬지
▁클로버
▁파비아
▁판문점
▁헤이시
▁후보자
▁Kiss
▁STER
▁갑오개혁
▁고스란히
▁달마티아
▁ᄇㅅㅣㄷㅏ
▁안티오코스
▁위트레흐트
▁챔피언스컵
▁젼
쓰구
이행
콜리
▁Er
▁검술
▁녹지
▁도살
▁라나
▁배격
▁백군
▁벌집
▁베츠
▁불기
▁상량
▁손톱
▁아헨
▁역원
▁완치
▁잡식
▁저리
▁창극
▁청담
▁충적
▁피쉬
▁핑거
▁휴스
▁246
▁Sur
▁UFO
▁길들이
▁다이요
▁드리블
▁링네임
▁반역자
▁보험료
▁부주석
▁분당선
▁생활비
▁스쿼드
▁연수원
▁영락제
▁커플링
▁콜롬비
▁흥덕구
▁BEST
▁char
▁리처드슨
▁상무위원
▁알카에다
▁어셈블리
▁올림푸스
▁자연환경
▁이슬람교도
▁유스티니아누스
▁American
li
▁싼
글러
처치
▁거류
▁교로
▁낭트
▁내뿜
▁동중
▁론도
▁매클
▁실외
▁양봉
▁와의
▁원회
▁정묘
▁제강
▁친위
▁파지
▁후국
사무소
▁TTC
▁공격기
▁권위자
▁목욕탕
▁발루아
▁우에다
▁전도사
▁존재감
▁청양군
▁흘러드
▁1823
▁디아블로
▁아데노신
▁익스트림
▁칼뱅주의
▁Child
▁카트라이더
▁캬
구로
십리
코지
하드
▁GA
▁격납
▁난류
▁목과
▁서프
▁석주
▁알랭
▁양키
▁유허
▁제호
▁천둥
▁흑해
바르드
프로스
▁251
▁288
▁302
▁EXO
▁근위대
▁레드불
▁문화부
▁분류법
▁색다르
▁세라믹
▁수개월
▁시끄럽
▁아미르
▁아쉬움
▁옥천군
▁장애인
떡잎식물
르크세스
▁1018
▁1598
▁실증주의
▁안드레스
▁황소자리
▁크세르크세스
▁럿
▁숍
▁츨
사위
헤르
▁뉴딜
▁레빈
▁매점
▁백기
▁병상
▁불어
▁석성
▁아덴
▁왜관
▁채찍
▁킹덤
▁폐포
▁피폐
▁홍가
▁화형
▁285
▁Lee
▁PCI
▁map
▁뉴타운
▁당진시
▁버팔로
▁베르토
▁사타케
▁아르투
▁여행기
▁유리창
▁자연석
▁장수군
▁횡성군
축구연맹
▁Spec
▁동부승지
▁자동차도
▁대하드라마
▁스테인리스
▁젱
더넷
도치
드기
롭스
▁JO
▁ㅈㅠ
▁골대
▁단가
▁레진
▁목공
▁반승
▁부토
▁서무
▁소호
▁스캐
▁시화
▁암행
▁염분
▁영인
▁전우
▁전패
▁조도
▁출원
▁쾌거
▁히든
▁242
▁615
▁메이든
▁반자동
▁복사본
▁소유스
▁아세안
▁이고르
▁이더넷
▁지상군
▁진달래
▁카시니
▁판무관
▁1689
▁1750
▁Inter
VF
딩턴
bit
mun
▁jp
▁개점
▁갤리
▁국조
▁나눗
▁단형
▁록과
▁말초
▁베텔
▁스맥
▁실기
▁암묵
▁오군
▁원죄
▁위서
▁일찌
▁집요
▁최현
▁츠나
▁칭화
▁히젠
스턴트
▁GSL
▁LNG
▁Val
▁겐로쿠
▁동래구
▁성악가
▁신천지
▁유사시
▁이나바
▁장방형
▁제곱근
▁주택가
▁확장자
▁mark
▁분청사기
▁요시모토
▁요한네스
▁주니어스
▁핼리팩스
▁호나우두
▁ㄱㅓㄷㅡㄴ
▁에뮬레이터
31
by
▁궈
자매
▁공언
▁기거
▁기우
▁농상
▁로토
▁반디
▁반부
▁삼색
▁쇼어
▁수크
▁식욕
▁신월
▁쌍극
▁아깝
▁앙겔
▁이쪽
▁임직
▁잎겨
▁적위
▁차고
▁참지
▁태초
▁통달
▁특질
▁피복
▁580
▁고기압
▁나눗셈
▁메이스
▁베르겐
▁불국사
▁성전환
▁처인구
▁총인구
▁틀림없
▁한국사
▁협력자
▁후이족
▁Last
▁구이저우
▁기요모리
▁뉴저지주
▁하세가와
▁하토야마
▁헤이세이
▁Party
▁잎겨드랑이
▁넛
겨지
나디
▁고흐
▁광의
▁금수
▁대운
▁도바
▁루블
▁리전
▁막심
▁반출
▁빈부
▁생강
▁샤흐
▁수운
▁시추
▁식초
▁예니
▁예지
▁요로
▁용강
▁우발
▁의창
▁작풍
▁접점
▁조양
▁지롱
▁충효
▁카산
▁크렘
▁희종
나이더
다이스
절제사
soft
▁Cap
▁dis
▁교육법
▁니시노
▁대축일
▁디제이
▁로이터
▁분당구
▁상층부
▁알렉상
▁중립국
▁쥐아과
▁1774
▁마르코프
▁스나이퍼
▁스타워즈
▁아칸소주
▁오리온스
▁해방전선
▁style
▁조로아스터
▁ㄷㅓㄹㅏㅁㅕㄴ
▁National
96
델리
▁CW
▁당근
▁메흐
▁면책
▁배위
▁부차
▁상형
▁샤토
▁연의
▁연전
▁재촉
▁주리
▁주영
▁진척
▁촘촘
▁치프
▁컬럼
▁해답
▁해미
▁협공
▁후금
베스트
ends
▁URL
▁곡성군
▁역사관
▁전화기
▁정의역
▁최고점
▁커맨드
▁투성이
▁도치기현
▁마르티노
▁바르바로
▁테오도시우스
UB
▁뤽
ㄹㅐ
장치
▁-"
▁값싸
▁경련
▁고심
▁나돌
▁더러
▁데빌
▁두들
▁레테
▁부팅
▁빅스
▁사루
▁세심
▁수각
▁슬립
▁아커
▁악성
▁이왕
▁주범
▁차녀
▁택배
▁펜타
▁평점
▁하도
빌리시
▁JYP
▁고이치
▁따라잡
▁로그인
▁미라이
▁버추얼
▁법체계
▁상당구
▁신정부
▁엄정화
▁오스본
▁윤봉길
▁퀘벡주
▁테일즈
▁피터슨
▁Take
▁트빌리시
ms
분리
비지
▁강주
▁강직
▁건재
▁교습
▁남사
▁닫힌
▁리의
▁막사
▁비축
▁산골
▁생동
▁숙적
▁시프
▁암각
▁이티
▁임수
▁자강
▁조스
▁중턱
▁캘러
▁캘리
▁토와
▁편이
▁후불
▁휴즈
망원경
의사당
gram
ould
▁252
▁295
▁403
▁Son
▁per
▁그라드
▁라이플
▁볼프스
▁세자빈
▁소비량
▁아사노
▁알자스
▁에라스
▁윌리암
▁이기붕
▁지급시
▁집행부
▁커스텀
▁플라워
▁1603
▁1617
▁1624
▁Come
▁ㅎㅏㄱㅜ
▁간선도로
▁바이너리
▁이와쿠라
▁인스턴트
▁중성자별
▁남해고속도로
▁륭
소나
쿠프
틸라
lus
oon
▁CB
▁각칙
▁고슴
▁과당
▁군축
▁남우
▁넬리
▁노장
▁대미
▁들키
▁롬멜
▁물망
▁박노
▁벤조
▁삼지
▁석고
▁아웅
▁악수
▁오무
▁우바
▁원환
▁정안
▁정윤
▁천동
▁한가
▁행의
▁혜종
▁후부
벌랜드
arth
▁910
▁고조부
▁대유행
▁도함수
▁미라클
▁빨치산
▁오세훈
▁적당히
▁종교인
▁평가전
예술종합
ATION
▁Want
▁무하마드
▁베트남어
▁스맥다운
▁스테이크
▁올리비아
▁큰곰자리
▁color
▁북키프로스
예술종합학교
▁한국예술종합학교
▁잿
루치
막이
몬테
펄스
▁NR
▁각류
▁경미
▁러쉬
▁벤트
▁보닌
▁보부
▁소의
▁양립
▁어획
▁장판
▁종인
▁트렉
▁행장
▁호퍼
레이저
▁274
▁670
▁add
▁가만히
▁리에주
▁세이지
▁신이치
▁알타이
▁야마나
▁에나쓰
▁키르케
▁킹스턴
▁트러스
▁헤르츠
▁Core
▁고슴도치
▁바이올리
▁아이러니
▁아이치현
▁액세서리
▁외무대신
▁케이블카
▁크라쿠프
▁There
▁이케부쿠로
▁바이올리니스트
ki
▁헵
로빈
바니
사람
신경
츠카
흥사
▁HC
▁결산
▁꿀벌
▁남정
▁네발
▁대모
▁도굴
▁도수
▁루체
▁멸하
▁솅겐
▁실학
▁실형
▁여산
▁연원
▁육로
▁윤정
▁참회
▁통풍
▁품위
▁할레
▁현세
▁호군
▁PHP
▁강북구
▁갤러거
▁고품질
▁관리원
▁남다르
▁베르가
▁사업장
▁신속히
▁에가와
▁응원가
▁이름나
▁재규어
▁제자리
▁지부장
▁최강전
▁뒤떨어지
▁페르디난도
▁ㅇㅡㄴㅣㄲㅏ
48
UE
yo
▁뽐
멜로
박해
삼국
임관
ISC
▁Oh
▁가운
▁기화
▁남연
▁뇌전
▁대호
▁밀폐
▁상좌
▁소백
▁수달
▁스베
▁시해
▁영변
▁예스
▁오송
▁완고
▁유마
▁천일
▁케미
▁풍년
▁하진
▁화차
rown
▁ITV
▁Que
▁Som
▁구치소
▁기술원
▁루치아
▁리간드
▁물러가
▁발원지
▁살인범
▁서태후
▁소대장
▁솔리드
▁요시마
▁유위법
▁이용해
▁주체사상
▁코네티컷주
DC
노바
셔츠
아치
▁IG
▁결절
▁권상
▁김책
▁내심
▁놀리
▁대당
▁대추
▁도농
▁류지
▁석관
▁성무
▁슈리
▁예부
▁외측
▁전립
▁차륜
▁철조
▁청서
▁팽팽
▁펀딩
▁포물
▁경전선
▁공고히
▁구부리
▁맞춤법
▁매카시
▁문경시
▁새마을
▁소문자
▁수없이
▁수용액
▁앞다리
▁에미넴
▁에번스
▁지대공
▁축구장
▁코뿔소
▁트란실
▁티라노
▁프리마
▁한양대
▁Club
▁나카야마
▁베네딕트
▁중선거구
▁팟캐스트
▁국회의사당
▁와카야마현
▁트란실바니아
▁퀀
경사
ada
▁RB
▁광구
▁교행
▁남침
▁바움
▁변절
▁비가
▁사암
▁산전
▁샬롯
▁스팸
▁유경
▁자마
▁자임
▁진경
▁최명
▁코브
▁풍물
▁황진
리스크
사회당
▁248
▁고아원
▁기흥구
▁리어스
▁무색계
▁무한대
▁문학관
▁받침대
▁발사기
▁부유층
▁클레멘
▁후쿠치
▁1650
▁Boys
▁Park
▁long
▁오리엔트
▁전기철도
▁볼프스부르크
미도
예스
토키
▁*/
▁감바
▁게티
▁관보
▁글라
▁금연
▁김무
▁남중
▁답사
▁대격
▁디미
▁라싸
▁레시
▁리세
▁린스
▁멸시
▁민수
▁변함
▁비결
▁샐리
▁설파
▁이피
▁장문
▁청해
▁친부
▁쿠즈
▁파마
스코샤
▁USD
▁동급생
▁로터리
▁슈테판
▁스테드
▁알버트
▁오른팔
▁오야마
▁완전열
안토니오
erson
▁1080
▁1758
▁스페인인
▁절지동물
▁처녀자리
▁코스모스
▁호그와트
▁Radio
▁독립선언서
▁우주망원경
▁룹
대리
덕동
문예
웰스
의지
혀가
▁가재
▁감도
▁기강
▁꼬이
▁랠프
▁레슨
▁리암
▁밤낮
▁분동
▁비나
▁사행
▁수형
▁스나
▁실러
▁심청
▁잠자
▁장손
▁증득
▁체전
▁치키
▁탐진
▁폐선
iano
▁308
▁346
▁경전차
▁고령군
▁그라스
▁남북국
▁다방면
▁도시락
▁리버티
▁매뉴얼
▁목적어
▁미네랄
▁보건부
▁비너스
▁오라클
▁월간지
▁이세민
▁전용선
▁컨버터
▁허벅지
▁회사법
오세티야
▁가이드라인
▁노바스코샤
▁박스오피스
ex
레트
반응
숨에
요스
총사
lad
▁건원
▁국을
▁권속
▁당인
▁도브
▁딱히
▁또래
▁바주
▁박규
▁사대
▁속속
▁신야
▁신오
▁야훼
▁예브
▁예테
▁옹기
▁왜건
▁요는
▁익룡
▁자포
▁토속
▁혈장
▁훌라
드리치
클레어
iter
obal
ters
▁312
▁PSV
▁과천시
▁단숨에
▁달라붙
▁돌핀스
▁몬태나
▁산토스
▁상행선
▁순서수
▁스플릿
▁신청서
▁인버터
▁장보고
▁축전기
▁클로스
▁헌병대
▁2025
▁미야모토
▁브레스트
▁슈퍼마켓
▁신춘문예
▁예테보리
▁오디세이
▁전륜구동
▁크레이지
▁ㅓㅆㅇㅓㅆ
▁스프링필드
46
VE
긴스
슨스
시기
SQL
con
oul
▁나로
▁듀란
▁산로
▁산모
▁안지
▁왜소
▁정위
▁제제
▁청어
▁체형
▁초라
▁최연
▁치욕
▁컬트
▁탈북
▁MiG
▁und
▁대공포
▁망가지
▁사용법
▁소화기
▁승강기
▁신고전
▁아와지
▁알바로
▁오타쿠
▁잡혀가
▁직제학
▁채권법
▁최충헌
▁화산재
▁훈련기
▁1786
▁마이너스
▁남오세티야
▁알렉상드르
대륙
돋움
물관
아라
울림
fer
rib
▁gl
▁결방
▁금은
▁동고
▁미남
▁사납
▁시파
▁예절
▁유탄
▁조군
▁조음
▁청국
iful
▁269
▁318
▁가드너
▁구리시
▁녹는점
▁부총장
▁상대편
▁서강대
▁아래층
▁아바타
▁어쩌면
▁엿보이
▁와이즈
▁이치카
▁제러미
▁죄책감
▁코브라
▁톰프슨
▁회의실
▁1413
▁1781
▁NCAA
▁PROD
▁우즈베크
▁David
▁보수주의자
▁오카야마현
LD
▁뜸
교구
던지
라다
참모
▁UM
▁개구
▁경동
▁고경
▁괴인
▁김이
▁넉넉
▁라만
▁미정
▁병무
▁봉지
▁비엘
▁상냥
▁선례
▁선망
▁성관
▁성터
▁순결
▁아고
▁아길
▁알선
▁애들
▁역내
▁외성
▁요란
▁재치
▁정영
▁캄차
▁퇴원
▁팬더
▁협소
▁휘장
▁고려조
▁구속력
▁구한말
▁나무과
▁당상관
▁라이어
▁로페즈
▁샌더스
▁스키장
▁시에나
▁아오키
▁조에쓰
▁지휘부
▁철광석
▁표시기
▁헨더슨
▁휴식기
ember
▁1785
▁temp
▁will
▁드와이트
▁아시아나
▁차례차례
▁청소년기
▁입헌군주제
▁레트로바이러스
▁께
성사
ube
▁BA
▁관등
▁관작
▁군포
▁권신
▁녹차
▁대남
▁물색
▁배선
▁병용
▁불공
▁붐비
▁서도
▁스도
▁스푸
▁시지
▁십육
▁에브
▁임씨
▁작정
▁종시
▁킬링
▁회도
▁241
▁276
▁299
▁490
▁OBS
▁TNT
▁감비아
▁건축학
▁고위직
▁도로망
▁드리스
▁문제삼
▁법화경
▁부산항
▁사야카
▁사유지
▁수영복
▁알레한
▁오두막
▁옮겨가
▁체르노
▁총연장
▁추징금
▁함평군
▁형태학
▁1506
▁Band
▁ㄷㅏㄴㅣ
▁니시무라
▁리얼리즘
▁안달루시아
▁카보베르데
▁ㄹㅅㅜㄹㅗㄱ
▁ㅅㅓㅂㅜㅌㅓ
▁아시아나항공
▁하우스도르프
35
▁숱
다코
100
▁교유
▁귀결
▁김중
▁나경
▁다빈
▁단맛
▁동단
▁뒷산
▁망고
▁맞은
▁문익
▁변칙
▁분전
▁서수
▁순경
▁어법
▁여제
▁일소
▁자구
▁탁자
▁태산
▁토륨
▁트릴
▁팔츠
▁하바
▁해달
▁헤밍
▁호앙
로니키
평장사
▁581
▁970
▁가창력
▁고위급
▁둘러보
▁모퉁이
▁바이크
▁발돋움
▁볼츠만
▁서고트
▁스콜라
▁제니스
▁지배력
▁총면적
▁치타스
▁타오르
▁파도바
▁피난처
earch
▁1618
▁Mach
▁ㄹㅣㅇㅏ
▁테살로니키
렉틱
벨리
윳값
이익
킹엄
▁==
▁강산
▁굽타
▁노모
▁목수
▁방편
▁백선
▁백호
▁베시
▁서성
▁성소
▁슐츠
▁신태
▁실세
▁위정
▁입소
▁전연
▁타츠
▁파테
▁포카
▁퐁텐
▁혈중
▁호자
▁홀트
▁히가
리아나
▁258
▁525
▁Sal
▁가로채
▁고윳값
▁뒤섞이
▁득표자
▁보은군
▁불출마
▁사라왁
▁요시키
▁이상재
▁지요다
▁탈북자
▁하지메
▁흥천사
▁1614
▁마쓰마에
▁미네르바
▁슈베르트
▁심플렉틱
▁요구사항
▁트리오스
▁에마누엘레
▁루이지애나주
VB
게티
▁Hy
▁JK
▁Kh
▁간과
▁강신
▁강착
▁공납
▁군법
▁군신
▁노런
▁매키
▁법명
▁비견
▁석영
▁셜리
▁얼티
▁예르
▁유조
▁일전
▁접두
▁정방
▁첨사
▁허수
▁화질
▁회이
▁희석
▁254
▁GTX
▁바스티
▁부득이
▁사부로
▁생명력
▁수출품
▁스쿼시
▁아토스
▁오로치
▁자유시
▁파슨스
▁한라산
▁한자음
▁1590
▁독립신문
▁서베를린
▁프레스코
▁플로렌스
▁형제자매
▁오세아니아
▁동지중추부사
▁자유민주연합
공연
열왕
체육
▁개창
▁관복
▁구진
▁금욕
▁맞히
▁몸값
▁무례
▁미개
▁번트
▁소질
▁신일
▁양곤
▁양말
▁예매
▁외주
▁용성
▁위례
▁위층
▁이롭
▁전상
▁초속
▁촉탁
▁폭정
▁학산
▁행실
▁협시
▁홀름
가사키
izza
▁279
▁324
▁730
▁경비원
▁돌출부
▁마그나
▁사누키
▁선전관
▁시구르
▁여행객
▁저고리
▁주고쿠
▁체사레
▁퍼블리
▁편집인
▁필리포
▁히다카
▁News
▁도미니크
▁순회공연
▁요시마사
▁파이낸셜
▁필라멘트
▁히로히토
▁와일드카드
▁ㄹㅣㄹㅏㄴㅡㄴ
청년
호쿠
ift
▁GC
▁TW
▁가칭
▁내막
▁대야
▁레기
▁망각
▁면밀
▁무연
▁무치
▁문왕
▁문희
▁부검
▁비숍
▁사에
▁선의
▁섬진
▁셰어
▁아귀
▁엑셀
▁오너
▁좌안
▁지마
▁행세
▁혈증
▁형량
▁후나
수수색
야구장
폴리오
▁Ext
▁JAP
▁KNN
▁나세르
▁나탈리
▁누에바
▁다무라
▁메구미
▁병리학
▁삽입곡
▁승하차
▁신채호
▁충실하
▁라인란트
▁새마을호
▁시구르드
▁압수수색
▁인류학자
▁폴란드어
▁동음이의어
LO
레르
시리
을리
▁FP
▁국책
▁단바
▁동초
▁본연
▁사외
▁섭외
▁셀틱
▁소상
▁송사
▁아전
▁앰프
▁영묘
▁오소
▁와타
▁유후
▁장계
▁정법
▁정씨
▁조피
▁혼례
레이라
ache
▁870
▁cle
▁게시물
▁김장생
▁동화사
▁막대기
▁밑바닥
▁방화벽
▁영상물
▁오마이
▁유프라
▁장학생
▁출신자
▁컴팩트
▁코시모
▁크누트
▁cent
▁text
▁야마우치
▁유한회사
▁트러스트
▁Trans
▁유프라테스
▁PRODUC
▁셍
벡스
소닉
ets
irc
▁LE
▁가다
▁각급
▁강병
▁경조
▁니티
▁대내
▁라모
▁랍비
▁로베
▁만민
▁몸담
▁반스
▁시이
▁어려
▁연남
▁오븐
▁조속
▁징조
▁천민
▁출옥
▁코언
▁폴스
▁피침
▁해골
▁혹시
▁화족
베르투
안데르
프스키
ious
▁293
▁TBN
▁ㄹㅣㄴ
▁갈고리
▁경유지
▁맞은편
▁물리량
▁상공업
▁생산품
▁성삼문
▁아카드
▁엥겔스
▁칭하이
▁테라스
▁투수진
▁파이팅
▁햄버거
▁행렬식
▁0000
▁1609
▁NADP
▁로체스터
▁스키피오
▁왼손잡이
▁Songs
▁포트폴리오
감치
딩거
레로
버시
소총
양성
ERT
INE
uss
▁격변
▁난항
▁당해
▁미비
▁보필
▁불쌍
▁브룬
▁비화
▁상왕
▁쇠락
▁썸머
▁어서
▁올슨
▁유어
▁음대
▁전능
▁정가
▁조재
▁코만
▁피폭
▁한식
▁허균
▁호안
▁황국
▁회절
▁히에
ving
▁272
▁335
▁351
▁CSS
▁Del
▁HBO
▁Kid
▁maj
▁경의선
▁경찰대
▁네우스
▁사마소
▁아담스
▁위르겐
▁일개미
▁최익현
press
▁Mind
▁over
▁다이어트
▁슈나이더
▁암행어사
▁코카서스
▁하치노헤
pl
서관
실린
조각
▁;-
▁OO
▁개울
▁구포
▁다낭
▁대천
▁마호
▁무속
▁믈라
▁베릴
▁비보
▁소래
▁수피
▁유속
▁잠식
▁제소
▁중증
▁참파
▁최병
▁히키
쿠츠크
ider
ruct
▁421
▁990
▁GPL
▁VfL
▁가마터
▁간쑤성
▁내용물
▁노이드
▁다라니
▁동북아
▁디나르
▁봉은사
▁부녀자
▁아이다
▁이그나
▁작업장
▁저격수
▁조리법
▁주모자
▁지배인
▁흡혈귀
▁히로키
▁막내아들
▁소프트볼
▁오이라트
▁인문주의
▁Count
▁이르쿠츠크
▁페르디난드
SS
▁옻
▁푀
네사
숙왕
에프
프먼
sch
▁감격
▁강계
▁드골
▁무임
▁미연
▁봉양
▁산산
▁석패
▁소바
▁신교
▁아체
▁알류
▁알스
▁야즈
▁에딘
▁외인
▁위수
▁유류
▁유순
▁이야
▁장형
▁젊음
▁정간
▁주보
▁찬란
▁홍조
스토이
▁Fly
▁Mad
▁김연아
▁대륙성
▁살라딘
▁아즈텍
▁운전석
▁제라드
▁충숙왕
▁탐지기
다코타주
▁1718
▁Work
▁공동묘지
▁부분집합
▁IDOLM
HA
보트
센테
여름
호테
▁경정
▁계측
▁골반
▁극진
▁기염
▁남안
▁료마
▁몽테
▁바가
▁방주
▁부곡
▁수일
▁신랄
▁어구
▁외르
▁일문
▁장어
▁장재
▁쟁의
▁징벌
▁체가
▁탈린
▁통곡
▁향사
▁후렴
▁405
▁BGM
▁Say
▁괴로움
▁나오미
▁레베카
▁미유키
▁변주곡
▁세계사
▁수출국
▁실내악
▁오티스
▁옹호자
▁유제품
▁자가용
▁재처리
▁조만식
▁주유소
▁줄리안
▁콘트라
▁크리크
▁태양풍
▁폭발력
▁허가서
▁헤일리
▁화천군
▁Hard
▁마사요시
▁중등학교
▁통근열차
▁티베트족
▁프레데릭
78
▁묀
▁튕
사슬
팔트
110
mus
▁국원
▁굴지
▁기문
▁논어
▁데브
▁두근
▁라세
▁런닝
▁루디
▁명과
▁무종
▁박선
▁변인
▁삭과
▁산천
▁샌타
▁석비
▁성진
▁양민
▁운트
▁인덕
▁일회
▁임천
▁적설
▁제전
▁중핵
▁직간
▁창가
▁크립
▁타결
▁타히
▁펄프
▁히카
드로스
▁Dec
▁Lin
▁고유종
▁공대공
▁데이즈
▁딜레마
▁사리탑
▁사무처
▁실학자
▁유방암
▁작용기
▁제닝스
▁제철소
▁좌익수
▁형태소
▁1050
▁경국대전
▁군사령관
▁두루마리
▁따라다니
▁베이루트
▁시나가와
▁애너하임
▁코르시카
ga
ti
▁넋
▁헹
그란
동국
제도
포이
▁HN
▁TT
▁군영
▁김근
▁남평
▁노퍽
▁볶음
▁소꿉
▁손발
▁수해
▁아네
▁연약
▁영릉
▁오더
▁오야
▁이여
▁임자
▁장내
▁정이
▁지의
▁채광
▁측선
▁카푸
▁코타
▁타령
▁팍스
▁푸리
▁필러
▁핍박
▁항속
▁행크
▁홍종
▁황우
소수점
아비브
▁Mot
▁김좌진
▁노하우
▁마르스
▁번식기
▁부교수
▁세자르
▁순례자
▁순창군
▁이산해
▁챈들러
▁캔버라
▁크로우
▁포유류
▁풀어내
▁히데오
지느러미
cript
▁백조자리
▁수아레스
▁슬라브족
▁지명타자
▁티베리우스
▁프라이버시
▁클라우디우스
▁롄
▁챕
를리
뭉치
충제
▁WA
▁XL
▁건수
▁고니
▁극본
▁닐슨
▁다미
▁단파
▁된장
▁딜러
▁랩퍼
▁린지
▁마코
▁매상
▁문동
▁미공
▁부성
▁뽐내
▁상복
▁시전
▁죄악
▁처소
▁최루
▁쿠엔
▁터프
▁필치
▁헤매
▁혈류
▁환멸
다코타
대표제
▁공화제
▁다카오
▁사계절
▁삼총사
▁성장기
▁식별자
▁신분증
▁아스투
▁애국자
▁지휘권
▁피오르
▁회의장
▁Feel
▁사르트르
▁선덕여왕
▁저스티스
▁쳐들어가
▁코먼웰스
▁텔아비브
▁하이패스
▁ㅇㅓㄴㅡㄴ
▁아스투리아스
▁딛
▁슝
뱅이
애플
용수
121
▁공증
▁권제
▁노로
▁니조
▁로터
▁만만
▁백서
▁버들
▁삼청
▁서포
▁심성
▁안영
▁야영
▁양승
▁영당
▁영생
▁위너
▁이본
▁쿠타
▁키티
▁판자
▁프랫
▁험준
▁형세
▁환대
▁황인
▁힐데
박물관
베이라
사이저
▁Cat
▁Max
▁급성장
▁노래방
▁대장균
▁도이치
▁만토바
▁아라시
▁오모리
▁조직법
▁진출권
▁페넌트
▁프로비
안데르탈
▁비행대대
▁JAPAN
▁네안데르탈
▁올림피아드
III
▁BE
▁강림
▁공청
▁구개
▁김관
▁남위
▁루마
▁모지
▁사동
▁성좌
▁소연
▁송곳
▁아악
▁우계
▁위암
▁존자
▁직급
▁진저
▁천궁
▁타가
▁투리
▁판과
▁풀러
▁플립
▁하로
▁항고
▁혜공
▁금천구
▁깊숙이
▁드웨이
▁로스엔
▁말린스
▁무령왕
▁부수찬
▁북극성
▁브렌트
▁산화제
▁신호기
▁엔리코
▁영덕군
▁오랑캐
▁쟁탈전
▁지방선
▁퀘이사
▁파이크
▁cont
▁끌어당기
▁불가사의
▁페르소나
▁라디에이터
▁아방가르드
▁팬터그래프
▁로스엔젤레스
▁트리케라톱스
내기
사드
전지
카인
ola
▁군제
▁깃들
▁낙마
▁명정
▁발성
▁변국
▁본원
▁뻗치
▁서핑
▁숭상
▁어거
▁어색
▁여느
▁오파
▁운남
▁원론
▁원부
▁응징
▁일로
▁임치
▁자경
▁장가
▁조커
▁종중
▁주서
▁집산
▁탈주
▁해식
르트헤
시아스
지원군
ular
▁Mil
▁rem
▁고니시
▁기계식
▁다빈치
▁뒤집히
▁아람어
▁에비스
▁음모론
▁임산부
▁캄차카
bject
▁1644
▁Only
▁글리세롤
▁기독교도
▁제곱미터
▁신시사이저
▁인민지원군
▁크라이슬러
FF
▁듬
▁솝
내면
르노
어마
조림
참배
ury
▁갑사
▁거버
▁공여
▁다그
▁돌림
▁르비
▁마쿠
▁매국
▁베링
▁분홍
▁스지
▁시책
▁안사
▁엔도
▁울버
▁장량
▁직영
▁천보
▁철인
▁초유
▁촌의
▁최유
▁출고
▁칠리
▁흉년
프레드
ense
▁MBA
▁경마장
▁기계어
▁다이시
▁다카다
▁덮개돌
▁수산업
▁스크리
▁애국가
▁유행어
▁이바르
▁이사국
▁이시영
▁작곡자
▁태양신
▁훈련원
젠테이션
▁손해배상
▁신사참배
▁일찌감치
▁자유로이
▁퓰리처상
▁바르톨로메
▁꿩
▁쌈
ray
▁ㄸㅏ
▁가택
▁광운
▁디모
▁래피
▁맹주
▁모독
▁물어
▁반목
▁불빛
▁섬인
▁셋쓰
▁악셀
▁음정
▁의안
▁자자
▁적개
▁쥬얼
▁첨지
▁초프
▁칼데
▁팬택
▁268
▁WOR
▁노량진
▁디저트
▁메시아
▁사업단
▁앨릭스
▁영업소
▁왈라비
▁창업주
▁타카시
▁해파리
렌부르크
▁1648
▁메인보드
▁아스팔트
▁안토니우
▁인피니티
▁자유자재
▁테오도르
▁베스트팔렌
▁월스트리트
▁Microsoft
▁탠
교사
순환
은하
▁go
▁ll
▁가경
▁고법
▁곤잘
▁나물
▁너클
▁뉴먼
▁랑고
▁문전
▁미도
▁번진
▁송치
▁신통
▁앤티
▁어차
▁에러
▁에크
▁연비
▁염오
▁전야
▁천식
▁최면
▁카슨
▁타타
▁포그
플라이
▁jpg
▁공급자
▁다이스
▁대성공
▁동해선
▁루브르
▁리아노
▁만하임
▁미니애
▁베릴륨
▁우편물
▁윌리스
지상주의
▁1637
▁When
▁밀어붙이
▁봄바디어
▁후쿠야마
▁랑고바르드
▁바르바로사
▁부동소수점
▁미니애폴리스
GL
▁숏
ㅕㅇ
귀족
러시
리얼
ENT
ily
put
▁공저
▁낭인
▁매그
▁문산
▁반다
▁반찬
▁백수
▁보나
▁비음
▁서호
▁성리
▁소천
▁심벌
▁영접
▁영통
▁예문
▁우구
▁우생
▁웬디
▁을과
▁인양
▁자우
▁재검
▁조난
▁조쉬
▁참혹
▁초소
▁추돌
▁쿠도
▁퇴폐
▁학예
▁휴학
▁780
▁NFL
▁Reg
▁Two
▁log
▁각본상
▁경쟁사
▁나치스
▁덕수궁
▁못지않
▁묘지명
▁미쓰이
▁보르자
▁부시장
▁사용량
▁사우드
▁세계인
▁웨이드
▁응답자
▁전문점
▁집무실
▁피카르
▁하시바
▁햄스터
ㅓㄴㅕㅇ
타르코스
▁글로리아
▁윈체스터
▁체르노빌
▁Break
▁major
▁뉴멕시코주
▁파라다이스
▁Street
▁넌
가족
달라
불화
▁Hi
▁거침
▁딕슨
▁무이
▁밴더
▁불그
▁사량
▁사만
▁시현
▁신평
▁전분
▁조디
▁타역
▁템스
▁플란
▁혜화
▁호저
▁호황
▁회심
▁노팅엄
▁다카기
▁대용량
▁마도카
▁보관소
▁서정시
▁선댄스
▁쇼헤이
▁스토아
▁이마트
▁제물포
▁중원소
▁창경궁
▁카라스
▁파킨슨
▁함재기
▁행선지
▁활기차
▁1605
▁Perf
▁에스메랄
▁에픽하이
▁초등학교
알데하이드
▁덕흥대원군
▁애들레이드
▁클라우디오
▁패트리어트
▁Instit
▁오클라호마주
▁늄
같이
공단
비트
IME
▁KA
▁검지
▁권기
▁리도
▁몽키
▁배쪽
▁사투
▁심기
▁심양
▁아멘
▁정답
▁종손
▁초성
▁최태
▁쿨라
▁포시
▁화포
네이도
상가상
▁261
▁707
▁Bet
▁Key
▁one
▁경공업
▁구세주
▁돌이키
▁사마시
▁살인죄
▁샤프트
▁심상정
▁의열단
▁틀어지
▁판매자
▁하이트
▁FIBA
▁설상가상
▁셀룰로스
▁에밀리아
▁연합뉴스
▁예브게니
▁카타리나
▁토네이도
▁톱니바퀴
▁샌안토니오
▁지중추부사
무리
벤토
uch
▁Cy
▁고음
▁난동
▁디노
▁랑선
▁밀직
▁분고
▁생합
▁실례
▁야곱
▁어와
▁여분
▁열흘
▁오웰
▁육수
▁장윤
▁전계
▁지스
▁창호
▁토호
▁트롬
▁틸라
▁한발
▁합주
▁홈스
스티니
아지에
edia
▁EFL
▁Hel
▁TOK
▁간간히
▁노리오
▁니시오
▁스폰지
▁시황제
▁엘레오
▁여단장
▁인제군
▁칵테일
▁폭풍우
▁피터스
숭록대부
onder
▁1760
▁Here
▁가져다주
▁동물학자
▁마법소녀
▁베네벤토
▁브레이커
▁신증동국
▁신해혁명
▁오르내리
▁현대그룹
▁워크래프트
▁신증동국여지승람
궐기
나귀
웨인
지도
턴트
ula
une
▁각주
▁감실
▁덩이
▁라멘
▁박형
▁복리
▁스켈
▁알트
▁압구
▁어질
▁여공
▁윤기
▁재연
▁적진
▁점근
▁추크
▁친자
▁켄지
▁콜먼
▁튕기
▁하북
▁협성
▁황혼
글로빈
주머니
▁284
▁단단히
▁도리아
▁마키노
▁부교리
▁총궐기
▁카르텔
▁카자크
▁호치민
▁후원금
▁히카루
▁베르베르
▁사라고사
▁세르히오
▁슈뢰딩거
▁조선귀족
▁라부아지에
OX
SA
go
배기
사건
잔디
후보
oot
▁걸림
▁계위
▁계유
▁꼭지
▁네로
▁노련
▁다당
▁동광
▁리놀
▁무심
▁사오
▁산역
▁석판
▁수액
▁스오
▁장산
▁장한
▁재계
▁정한
▁지노
▁치치
▁파조
▁흑점
▁힐드
부인과
아오르
▁259
▁475
▁AAA
▁Thr
▁과수원
▁그림책
▁김덕령
▁마찰음
▁뭄바이
▁상속자
▁쌍극자
▁애플렉
▁이심률
▁적어지
▁증기선
▁키치너
▁표준궤
▁현대사
▁현대인
자치단체
▁Some
▁고해상도
▁메가데스
르트헤이트
▁라디오헤드
▁서울특별시장
▁아파르트헤이트
러우
뮤직
바루
치현
하탄
PER
▁MF
▁곤경
▁골문
▁그제
▁단막
▁메클
▁면회
▁바츠
▁버릇
▁보른
▁분견
▁붕당
▁상궁
▁샤워
▁선녀
▁소거
▁속리
▁야크
▁외딴
▁위관
▁위저
▁윤두
▁이신
▁일격
▁입점
▁자꾸
▁적기
▁정력
▁처사
▁청학
▁초저
▁총열
▁충원
▁카티
▁튜더
▁포춘
▁현손
▁호노
▁흑룡
모비치
▁CGV
▁was
▁ᆯㄹㅏ
▁군위군
▁나카쓰
▁네이선
▁다코타
▁돌려받
▁바누아
▁바운드
▁사이비
▁쇼토쿠
▁울리히
▁대프랑스
▁수소폭탄
▁아시아인
▁컨설턴트
▁테레지아
▁수동변속기
▁메클렌부르크
▁PRODUCE
oy
▁꼰
기성
날리
제트
▁BN
▁게으
▁나흘
▁농약
▁동역
▁떠들
▁르망
▁리엄
▁반자
▁번스
▁상중
▁쏠리
▁역부
▁원폭
▁전의
▁전출
▁종수
▁태반
▁패튼
▁폭도
▁헤즈
▁홍차
▁황새
▁317
▁840
▁OEM
▁WWF
▁건축사
▁교수진
▁궁내부
▁나한상
▁냉장고
▁다케오
▁라운지
▁맡아보
▁명문가
▁모리타
▁무인기
▁사라센
▁사파리
▁소리치
▁슈퍼맨
▁아키코
▁양산박
▁에드먼
▁원자재
▁유인원
▁인증서
▁중력장
▁철자법
▁최고령
▁프리즈
프라데시
▁Face
▁만리장성
▁사단법인
▁자격정지
▁하타모토
▁while
▁통일민주당
▁Beautiful
43
my
▁랫
▁좇
남북
방위
의동
이터
테론
▁Bi
▁Ju
▁고액
▁노반
▁다기
▁단신
▁디언
▁디프
▁명군
▁별거
▁양인
▁외조
▁우키
▁임피
▁재수
▁점액
▁챔프
▁침탈
▁행랑
▁혼성
▁화보
alth
▁326
▁331
▁라일리
▁리보솜
▁면역계
▁불기소
▁사과문
▁사자상
▁새크라
▁엎드리
▁역전사
▁장준하
▁카르멘
▁컬리지
▁태백시
▁행정학
ather
▁1492
▁1759
▁군국주의
▁돗토리현
▁프로스트
▁새크라멘토
▁땡
어붙
여대
크롬
▁FE
▁거위
▁고미
▁고현
▁귀비
▁꽃피
▁덕성
▁뒤바
▁뒷발
▁부강
▁비올
▁서대
▁서현
▁시몽
▁실과
▁악취
▁어빙
▁연두
▁왕도
▁육계
▁윤동
▁윤성
▁중편
▁천시
▁첨정
▁트윗
▁평강
▁폐번
▁향약
▁현주
코스터
▁277
▁375
▁485
▁SSG
▁fis
▁걸림돌
▁기관포
▁더블유
▁불순물
▁수목원
▁스카웃
▁십진법
▁연구가
▁연방제
▁이창호
▁편미분
비르스크
▁다카히로
▁마흐무드
▁아퀴나스
▁폐번치현
▁푸에르토
▁롤러코스터
▁애니메이터
▁Concert
ba
▁든
▁볏
▁햐
메탈
배추
양요
표범
▁권능
▁김사
▁눈여
▁눌리
▁라베
▁로커
▁목관
▁미끼
▁미덕
▁벌거
▁불륜
▁불시
▁산면
▁산부
▁선악
▁수꽃
▁수포
▁시효
▁식인
▁신제
▁위독
▁유호
▁재지
▁점자
▁제롬
▁초지
▁쿠파
▁펠라
▁폐사
▁폐색
▁핸콕
▁황희
▁740
▁830
▁Got
▁KOF
▁건조물
▁고장나
▁기념탑
▁니코틴
▁대화재
▁망주석
▁무수히
▁묵시록
▁번호판
▁빙하기
▁생식기
▁순전히
▁스타니
▁운전대
▁전보국
▁티투스
anger
▁1779
▁나무껍질
▁다이나믹
▁마리아나
▁머라이어
▁시어머니
▁올림포스
▁임상시험
▁콜론타이
▁수군절도사
▁키르케고르
▁념
▁몯
▁쭈
▁흄
국영
다비
웅렬
als
ita
▁cl
▁감면
▁격식
▁교편
▁구술
▁귀가
▁나하
▁다부
▁밋밋
▁발차
▁보시
▁본교
▁서운
▁선문
▁소보
▁식도
▁양감
▁여명
▁오줌
▁오테
▁용군
▁윤용
▁조윤
▁종회
▁좌도
▁집터
▁창제
▁치경
▁페닐
▁홉스
▁히고
군다나
▁760
▁개혁파
▁계양구
▁관절염
▁기억력
▁다르마
▁매도인
▁산책로
▁상장군
▁서포트
▁스티스
▁암트랙
▁쫓아가
▁충격파
▁페렌츠
▁페메니
▁1782
▁들이닥치
▁라파예트
▁비야레알
▁아우크스
▁장로교회
▁자유민주주의
▁아우크스부르크
▁브리티시컬럼비아주
▁사우스캐롤라이나주
바바
밸리
사다
음계
헨글
ume
▁KV
▁경운
▁내비
▁도너
▁도처
▁매지
▁민란
▁보덕
▁술부
▁스핑
▁신서
▁앗딘
▁어용
▁온돌
▁원역
▁일용
▁일월
▁입항
▁장생
▁칠드
▁콩트
▁홍경
▁환도
▁휴직
▁힘겹
나파소
▁328
▁NET
▁SIG
▁김택용
▁라우터
▁리버럴
▁리오넬
▁매립지
▁묀헨글
▁바버라
▁베티스
▁부르키
▁빼돌리
▁생원시
▁세레스
▁이코스
▁재무부
▁치료사
라트바흐
▁Mart
▁ㄹㅏㅇㅣ
▁더군다나
▁발렌타인
▁아흐메드
▁양아버지
▁House
▁올리베이라
▁부르키나파소
▁묀헨글라트바흐
런즈
중심
집행
치슨
120
ERS
box
ste
▁견도
▁괴한
▁낙서
▁단죄
▁달구
▁더디
▁두꺼
▁딜리
▁로웰
▁목종
▁밍크
▁선관
▁송가
▁수림
▁술어
▁숱하
▁요람
▁주희
▁친서
▁호서
▁황동
▁브레스
▁상승세
▁소인수
▁애버딘
▁얼어붙
▁외동딸
▁외아들
▁우스터
▁장타율
▁전국구
▁코스모
▁킴벌리
▁플로우
▁하늘색
▁하타케
▁흥국사
▁1526
▁1772
▁Fore
▁From
▁동두천시
▁비토리아
▁캐롤라인
▁힌덴부르크
▁룻
▁져
시키
ael
▁IQ
▁bl
▁mi
▁가덕
▁경악
▁금세
▁나체
▁다와
▁동제
▁레츠
▁무니
▁문민
▁바부
▁사액
▁상리
▁성욕
▁쑤이
▁연단
▁예과
▁우금
▁우노
▁우베
▁우어
▁우장
▁자칫
▁정략
▁튀코
▁폐수
▁학내
▁흥사
대장경
디푸스
▁ICT
▁고양군
▁나오토
▁루아르
▁마리안
▁보안관
▁블라인
▁생활상
▁스마일
▁스타킹
▁안식일
▁얼티밋
▁우치다
▁지부티
▁찬송가
▁청원군
▁출산율
▁훈구파
브리아기
▁Mich
▁SLBM
▁요르요스
▁Happy
▁디오니소스
▁오이디푸스
85
dy
▁큘
결핵
켄트
토무
ICE
ini
uff
▁-,
▁BD
▁BY
▁가급
▁계율
▁근년
▁내국
▁당쟁
▁대곡
▁도회
▁동갑
▁무언
▁백설
▁베나
▁봉래
▁북스
▁분하
▁샤우
▁송대
▁수병
▁알츠
▁연군
▁우다
▁육전
▁인준
▁일국
▁잡아
▁재밌
▁재사
▁파키
▁폐역
▁피조
▁한명
▁항이
데우스
▁경수로
▁그라프
▁뉴포트
▁대덕구
▁라우팅
▁류성룡
▁벼농사
▁아다치
▁예술인
▁이동성
▁접두어
▁천연두
▁트레블
▁폐막식
▁1580
▁1627
▁어마어마
▁에일리언
▁프레스턴
▁피에몬테
▁하이드로
▁브래드퍼드
▁알츠하이머
▁오브라이언
St
모프
미어
음기
칠성
콜로
혜진
ASS
ule
▁간경
▁감무
▁강지
▁결석
▁교미
▁국령
▁국전
▁김완
▁노랫
▁다층
▁동탄
▁럭스
▁별동
▁부국
▁분관
▁블럭
▁사발
▁오역
▁울주
▁주형
▁카펜
▁퀄컴
▁토포
▁한랭
▁황정
▁후설
노이드
돌리드
라노스
재판소
lish
▁267
▁게리온
▁고속화
▁당나귀
▁대동맥
▁들어맞
▁마이티
▁메르켈
▁뮌스터
▁베르니
▁불변량
▁사형수
▁수문장
▁에어백
▁원세훈
▁원자량
▁이착륙
▁인형극
▁전문지
▁진공관
▁크리티
▁티셔츠
▁히파르
▁Java
▁니컬러스
▁도야마현
▁마이스터
▁Apple
▁바야돌리드
▁키보디스트
▁히파르코스
▁Entertain
결사
소자
재지
▁강현
▁건주
▁그럼
▁노상
▁닛타
▁단청
▁등반
▁디즈
▁라보
▁마기
▁보례
▁소파
▁식구
▁양이
▁어두
▁연가
▁오순
▁유노
▁윤증
▁음서
▁이무
▁접선
▁증시
▁지모
▁청라
▁첼리
▁쿠미
손가락
ware
▁357
▁395
▁계절풍
▁도코로
▁동해시
▁드레퓌
▁
▃
ㅇ
ㅡ
ㄴ
ㅏ
ㄹ
하
ㄷ
이
ㅔ
ㅓ
ㅗ
ㄱ
.
ㅢ
ᆫ
ㅆ
,
ㅣ
1
리
지
ㅕ
0
사
ㅅ
대
시
스
되
2
기
년
ㅘ
ㅁ
가
있
수
아
일
자
그
전
국
정
9
주
나
인
제
도
부
들
성
장
ㅈ
구
상
적
어
동
로
르
라
3
위
다
오
원
공
선
트
보
우
드
마
5
치
조
중
의
4
한
8
화
월
미
고
경
학
비
소
유
교
세
6
신
ᆯ
문
7
서
개
계
명
역
회
연
것
후
관
등
모
영
프
용
발
군
무
산
타
당
크
"
작
민
내
방
니
단
레
재
여
카
e
러
만
해
통
음
바
반
분
안
생
a
포
거
차
체
행
키
진
간
호
식
o
노
파
현
남
t
물
히
과
양
'
본
출
r
종
ㅂ
요
두
m
때
속
실
루
토
ㅜ
임
l
데
결
형
터
강
설
코
표
i
-
각
법
초
디
운
승
배
n
태
업
독
에
ㅌ
직
버
함
건
래
입
피
력
S
합
점
불
ㄲ
A
매
최
예
번
또
않
받
야
C
티
베
천
같
권
메
약
브
추
말
알
면
왕
목
격
심
립
u
감
록
판
s
투
청
더
금
북
항
활
없
달
네
평
따
저
열
외
집
특
언
즈
석
편
복
테
향
T
류
병
F
처
광
변
른
령
B
M
족
페
게
I
근
황
름
급
란
람
축
총
쓰
존
랑
송
많
능
c
김
박
술
질
론
참
철
쪽
f
별
g
살
D
울
준
환
증
및
악
올
창
P
품
E
절
;
애
곡
육
료
쿠
백
d
h
플
새
망
은
돌
글
순
&
필
ㅑ
확
머
량
려
ᄆ
림
께
패
규
팀
색
N
극
너
탈
범
쟁
케
견
)
클
련
삼
k
O
L
랜
탄
와
R
째
충
K
린
막
봉
손
책
접
p
럽
날
_
퍼
완
G
츠
뒤
못
협
(
담
션
밀
V
길
누
채
런
블
는
/
골
녀
측
혼
온
취
벌
든
험
즌
귀
암
곳
H
찰
할
허
슬
워
앙
웨
[
U
]
씨
y
친
첫
슈
뉴
습
칭
높
침
효
커
:
획
널
죽
롭
뜻
응
착
난
락
희
엔
례
센
폭
검
징
잡
~
논
득
b
캐
농
헌
픽
갈
틀
엘
섬
홍
움
풍
퇴
택
폴
%
좌
W
층
폐
싱
끝
헤
압
념
덕
느
앞
맞
즉
혁
윤
걸
맡
턴
율
슨
늘
릭
익
얼
갖
텔
염
찬
램
v
묘
팔
컵
벨
콘
엄
잘
링
궁
빌
맹
렌
줄
균
몇
흥
밝
억
훈
휘
앨
객
푸
옥
을
칼
으
칸
먼
델
얻
콜
빈
맥
흐
숙
J
쇼
괴
넘
좋
끼
뷔
샤
몰
싸
ㅊ
핵
붙
찾
w
끌
빠
볼
템
놓
X
쥐
률
굴
컴
액
탑
떠
룹
욕
혹
꾸
갑
잠
롯
죄
십
칙
덴
떨
둘
몬
렇
힘
던
촌
벽
척
풀
먹
몸
졸
략
렉
잉
핀
벤
맨
휴
틴
몽
녹
잔
!
뛰
눈
홈
털
멀
뮤
컬
폰
륙
밴
렵
탁
겨
탕
둥
답
혜
멸
솔
톤
Y
홀
혈
x
윈
팅
넷
셀
돈
겸
컨
낮
뿐
칠
쿄
딸
를
롤
탐
텐
님
톨
퓨
헨
럼
욱
촉
곤
낙
떤
콩
넓
꽃
앤
릴
펜
밖
왜
랙
섭
뇌
렬
붕
킹
읍
옹
=
덜
튜
깨
융
흔
넣
춘
놀
윌
슷
셔
옮
젤
듬
닝
헬
빛
짓
흑
챔
쉽
땅
곧
쌍
딩
멘
켓
즘
팬
뜨
큐
멤
쇄
룡
듀
밤
릉
값
닉
깝
웅
뢰
옛
흡
랭
튼
쉬
납
잇
짜
닌
씩
롱
ㅛ
젠
맺
랫
젝
닥
숭
겐
뉘
ㅐ
궤
뀌
z
펠
멜
숨
빙
섯
+
깊
웃
잃
까
끄
웹
꼬
핑
캠
|
즐
ᄇ
킨
틱
셰
밍
빅
믿
텍
뷰
찍
긴
덤
엽
냐
잎
돕
랍
펼
틸
멕
띠
쇠
곱
럭
롬
짧
폼
삭
켈
첨
릿
혐
Z
빨
?
켄
듣
낭
져
삶
겪
딘
촬
럴
혀
찌
캘
힐
컷
Q
둔
콤
옆
빼
밑
벗
싶
낳
엇
첩
곽
쌓
꿈
젊
셜
짐
킬
룩
옷
냥
헝
ㅃ
큼
냉
닛
ㅋ
톱
맛
읽
엑
믹
왼
겁
퀴
븐
벡
숲
튀
얀
잭
봄
묵
쿨
뱅
셋
샌
뒷
닐
캄
랄
괄
넬
붉
떻
엠
둑
끊
뿌
좀
웰
앗
첼
슴
덮
늄
밥
씬
쳐
톰
묻
듯
앵
탱
팽
팩
뤼
픈
쁘
녕
숫
뱀
늬
짝
흘
j
렐
댄
캔
셈
렴
쾌
춤
훨
꼽
옌
팝
륨
깔
쫓
겔
횡
닫
뽑
늦
샘
렘
갤
뼈
룸
덩
앉
랗
꼭
흉
펴
벼
좁
륜
햄
룬
봇
멍
펙
뚜
깃
굽
딕
윗
탠
퀸
랩
띄
륭
므
빗
힌
딜
퀘
겹
궐
첸
덧
쿼
슐
윙
뮌
듭
삽
꺾
q
쏘
긍
홋
셉
껍
묶
펄
렛
펑
흰
꼴
쌀
훌
훗
섞
붓
녁
툰
*
렀
넥
돔
꺼
펀
끔
\
밭
ㅠ
깥
섹
곰
셸
빵
낌
툴
닷
콧
똑
ㅎ
톡
딱
갱
뿔
훼
팡
쩌
컫
늑
닭
풋
{
킷
틈
콕
콰
맷
핸
콥
힙
굳
흙
룽
룰
뮬
떼
빚
핫
엉
둡
킴
넌
꾼
며
킥
벳
큰
멈
밸
돼
닿
굿
겉
턱
걷
럿
샹
퉁
왈
쑤
뻗
캡
홉
탓
볍
끈
렷
쓸
눅
닮
쯤
샬
쉐
릇
굉
릎
뚫
듈
옵
랴
켜
칩
싫
웬
앱
뇨
놈
퐁
툼
긋
갓
낱
슘
젖
씌
푼
흠
챌
삿
톈
쥬
딴
엣
펌
맵
쿤
쯔
걱
솟
넨
#
옐
팜
륵
ㅚ
솜
얄
댐
렁
잊
덟
짙
멋
곁
돋
헐
탤
쏟
$
떡
휩
흩
얇
밟
굵
핍
덱
뚝
뭉
꾀
텀
둠
얘
훔
끓
댓
맘
캉
옴
밋
햇
괘
빔
촨
꽤
왓
잦
픔
펫
횟
앓
붐
벅
슭
벵
싯
낫
멧
휠
눌
}
엿
꿀
짱
팟
냄
헥
갇
츄
씀
샨
땃
죠
딪
튬
깎
곶
맑
얹
몫
`
얗
닦
텝
눕
뭐
뭇
걀
썰
팍
맏
옳
얽
캅
윅
끗
춥
엥
슛
쟈
랏
쭉
뻔
앰
뱃
핏
팰
듐
뚱
낚
깐
믈
갛
캣
챙
훙
촐
엮
귤
넛
헛
쾰
숀
귄
뫼
섀
싣
쿡
썬
렝
@
찮
뭄
욘
뾰
탬
갯
푹
싹
셴
뮈
삐
얕
녜
딥
덥
샐
깜
돗
줌
웍
렙
펩
낸
늙
딧
써
슌
탭
꽂
샵
쾨
볶
쪼
뇽
깁
갚
펭
꽝
껏
촛
몹
썩
뻐
퀼
췌
냅
늪
짚
괌
큘
짖
츰
즙
숍
찢
엡
훤
쿰
맬
롄
룻
뵈
빽
텁
퓌
넉
뜸
쁨
핼
씻
뿜
뮐
굶
잼
젯
젓
쵸
릅
잣
똥
퀄
쩔
촘
벚
슝
뤄
샴
팻
꿰
샷
퓰
뜯
밧
벙
껑
엎
땀
멩
궈
윽
켐
댕
괜
댈
욤
튠
텅
츨
낡
뽀
낯
킵
꼼
뇰
깅
밈
캇
멱
뎀
퀀
좡
^
쑹
맴
랠
뜰
챠
팎
뮴
헴
엌
웜
딤
쿵
썸
팥
뱌
캥
칫
왁
꽁
솥
갸
댁
ㅍ
쑨
윔
챈
옙
뎅
쉘
훅
쐐
젬
앳
퍽
얌
넴
쉰
욜
깡
맣
칵
뽕
돛
콴
쑥
ㅖ
쥘
툭
줍
쩍
놉
눔
힉
찻
뺏
쎄
찜
룀
ㅞ
팁
웁
캬
옅
늠
찔
읊
맙
볕
쭈
뺨
겟
샛
썹
딛
넵
쉴
팸
퀵
븀
숄
쏠
엷
쨌
텡
쉼
횃
핌
꿇
쌈
웸
젼
펨
웡
텃
힝
씹
튿
춧
텟
싼
된
땡
뻘
씽
댑
봅
긁
깍
휼
꽉
눗
솅
꺽
뱉
솝
냇
홑
갠
폄
뎃
뎬
밉
뤽
윳
쥔
귈
켤
젱
꼰
됭
숯
쭤
뢴
찹
뜩
륀
꿩
ㄸ
쩡
숏
탸
짤
잿
륄
푀
쌔
헵
뽐
컹
숱
꿉
셍
잖
볜
헹
굼
볏
옻
빡
튕
묄
묀
넋
랸
얏
챕
땜
흄
낵
녘
좇
첵
껌
햐
몯
꿋
뷸
밌
놋
냑
쩐
줏
핥
갬
뻣
짠
헷
챗
짬
셤
탯
썽
쳇
쥰
툇
짊
됨
쟝
똘
탉
넝
덫
눙
갭
겜
닙
넙
쿱
췬
괭
쇤
젭
쭝
훠
쨩
쓴
귓
뷜
솽
콸
튤
껴
닳
꾹
긱
앎
윕
둬
폿
헉
뜬
섣
벰
쏙
몐
궂
팹
뚤
셩
욧
ㄶ
쬐
찐
깟
놔
햅
늉
돤
펍
쳅
톳
뷴
괵
숟
뗏
숑
믐
왑
껄
잰
끽
푈
냘
닻
솁
뵐
쳄
겅
듄
쁠
쥴
왐
긔
톄
힛
꿍
먀
갉
욥
꼿
샥
옇
묽
챤
넹
뻑
칡
샅
쩨
쳉
뺄
뺑
웩
껀
셧
뵤
왠
켁
퓸
죤
휨
뭍
륌
꽈
껫
뎁
쭐
떳
섐
쫄
댜
됴
팃
뻬
낼
줘
빳
휫
뜀
틋
쾡
빻
윰
윷
쾅
퍄
땔
뵙
츤
녓
잽
뢸
웻
틔
솀
씁
켕
퉈
섕
찧
홰
믄
쫑
멎
냠
좨
퓔
퀜
쉔
훑
웽
녠
켠
갔
꽌
깻
띵
빤
둣
뵘
햘
쉥
쟌
튈
꿔
뼛
졍
쯩
뷧
빕
쿈
깽
쏭
쇳
얍
ㅒ
겊
뎨
땋
홧
졔
짭
뱁
찡
꽹
먄
롼
섶
쿳
봐
젋
멥
삯
옘
줴
틍
혓
겼
헙
듸
뻥
궬
뒬
똔
쭌
켑
뒹
쌩
삵
쫒
묠
읏
푄
낟
뎐
붑
찟
룅
룔
씰
낏
뷘
뿍
쳔
큅
큔
씸
쏴
깬
띤
묜
녤
떫
굄
뚬
었
ㅉ
쑈
엾
뇬
뽁
숩
읫
폽
쏨
젹
쇽
큄
툐
툠
갗
겡
닢
벋
쉿
컥
뉼
숴
츈
쮸
툽
듦
똠
횔
ㅝ
붇
얉
뿡
낄
쐬
졈
귬
룝
퇘
퇼
믜
뱐
퓐
빰
쌤
툉
푯
띔
섄
쏜
졀
짢
펏
뒨
뽈
솎
옝
쯕
촙
밂
쇨
좆
륑
벱
큉
겋
뮨
슥
싀
쾃
틂
갹
궉
셱
숌
낑
멓
웠
튄
낀
넒
릏
캑
짇
덞
떵
짦
큇
ㅟ
녯
쓱
욀
츳
캴
텨
뭔
뱡
였
훵
뗀
뼉
삥
얭
뵬
쌕
옭
쨍
ᆼ
덛
뿅
춰
긷
샾
쌉
썻
왔
쨋
쩜
쫀
퀠
틉
꾐
묑
뺌
죈
죌
퇀
푁
햏
걔
끙
뚠
횬
휙
껩
꿎
뎡
딨
몌
귿
됸
땝
맟
묏
벧
볘
븓
븡
잌
젔
쳥
캰
쿌
큥
냔
븨
샙
웟
푤
흭
곪
랖
솃
쉑
쪄
곗
랼
뼘
솨
앏
았
윾
ㅄ
굠
땁
떰
쏸
왬
챵
놘
돝
똣
랐
싁
졉
텬
꺅
뤠
슙
읒
잴
졌
쳬
쳰
걍
겍
꾜
륍
뭣
슉
큭
킁
퇸
퍌
꽥
밞
킈
궃
귐
덖
릐
섈
쉭
쌋
좐
죗
짹
춉
췐
곬
굣
귁
끎
녈
닑
닯
엳
읗
쟉
쩧
챨
췰
쿽
탼
풰
ㅙ
겯
냣
됙
뜷
롹
몆
밎
뱟
뽄
삑
옯
츌
했
햔
뀨
뉵
뉸
댠
믯
붸
쀼
쌰
읕
읖
쟤
찿
켸
햑
흗
괸
궨
녬
늡
뎌
듕
똬
솬
슯
읻
죡
쵤
춍
튐
핬
혠
훕
긑
늴
댱
돐
먁
셕
셥
왝
윁
읔
쥣
즁
쫌
틑
퍈
휀
괼
굘
뇩
뒴
떱
룟
왱
좃
즛
쨈
쨔
쫙
찝
쾍
튱
ㄺ
ㄼ
꿘
뀍
녑
됀
묫
믕
섧
섰
쎌
읓
졘
쳡
햣
겻
곯
궜
낢
밪
볓
뺀
뺐
삘
슾
옉
짯
쩬
쮠
챡
캪
텽
ㄳ
ㄻ
ㅀ
걲
뙈
뚧
륏
륩
맻
벛
섥
앝
엹
읃
잍
잛
쭘
쯧
촤
퀑
큠
튁
푠
횐

ㄿ
꺄
꼍
녔
뇸
뉙
뙤
뜽
뢱
밷
뻰
삔
솓
썅
쎅
쒸
욺
윱
짼
촹
츔
퀌
턔
풂
햠
휜
ㄽ
겇
꼳
눞
늣
딫
땐
맽
뱔
섁
슁
쏱
엤
왹
욍
읜
읺
짫
첬
츼
픙
ㄵ
ㄾ
귑
껸
꽛
눼
닏
뎜
될
듧
묭
묾
뵨
븜
빋
빱
뺘
쁜
삳
얶
엊
옜
왯
욷
읠
졋
죔
쨘
쭙
쮜
켯
콀
쾬
쿙
푕
휭
갣
겿
꿕
낻
뉻
닸
덪
돟
둗
듁
땟
뚯
띡
띨
랬
렫
렸
롐
룐
멉
벴
쌘
쏫
얆
얾
욋
웤
잏
잗
쫏
챰
쳑
컁
켬
콱
큽
탘
퍙
픠
햤
횻
곂
곈
곷
괏
깯
깸
꽅
꾿
넗
뉨
늗
닜
닺
됩
땨
땸
떄
뙡
랟
럇
룁
몃
뭏
볻
봔
븍
뺴
뻴
섿
슽
쌴
씼
엶
옫
옸
쟐
좔
짔
쩝
쬼
쯘
챱
촥
쵹
쵼
춋
쾀
톺
톼
퐝
혤
훽
걈
겆
곙
굥
깆
깩
꽆
꾕
넀
넢
넫
녇
닽
댛
덨
뎰
됫
둏
뗑
럄
롸
뢨
먈
멂
몔
뫃
뮹
믓
믾
뷁
빝
샇
쇵
싻
쎙
쑜
욈
읆
쟂
쟙
젇
쩽
찓
쳘
쳣
춈
츅
츙
콛
콬
퀍
탙
텦
툿
튽
폘
햗
헿
홤
홥
횰
횽
휑
흝
흫
힁
ᄀ
갂
갘
걑
걺
곌
괂
깉
꺠
껭
껶
꽦
꾄
꿏
뀀
났
넖
녣
놰
뇻
늇
덝
뎍
뎦
돴
됄
됮
둄
뒸
듫
떽
뗴
띱
럅
렢
롈
뤀
뤗
륻
몄
뫄
밣
붘
뷕
븥
빎
뽓
뿟
삠
삡
삮
샏
섓
셖
솦
솻
쇘
숰
숳
쉉
쉡
쎔
쓔
앟
앧
얖
얺
엜
엵
욌
욯
윶
읭
읳
읹
쟘
졜
졷
좽
줫
쥠
쩄
쩰
쫜
쬔
쬬
찣
챦
쵝
츕
츩
콮
퀭
툥
튝
푱
풉
퓬
핟
핮
핶
핻
홛
홱
횄
횩
훍
훓
훝
흿
갃
걋
겂
겣
곅
곘
굑
굔
궅
귝
깂
깢
깹
껙
껼
꼇
꼐
꽐
끕
냡
넎
넡
넶
녝
뇔
뉫
늚
댤
덣
뎠
돎
돚
돵
돽
됏
둰
둴
둿
뒁
뒈
뒥
뒫
듥
딷
뗌
뗘
똫
뙨
뛔
뜌
띳
랒
럐
럔
렜
렡
롑
롓
뤌
맄
맆
맜
먗
먿
몀
몴
뫙
뭅
뭘
뭰
뮝
믏
믠
밒
밨
밫
밯
뱆
뱜
벉
봍
봘
뵉
뵷
붏
붖
붛
붜
붴
뷋
뺩
뺵
뼁
뼤
삣
삻
샂
샊
섦
셑
쇗
숡
숸
슼
싈
싰
싲
싾
쎕
쎴
쏩
쏳
쐇
쑴
쒜
쓿
씃
씉
앃
앋
얅
엩
옄
옰
옲
옺
왰
윘
윟
읅
읶
읿
잋
잩
젣
젿
죰
죵
줓
쥭
즤
짗
쨉
쩸
쫃
쫍
춴
췅
칲
칳
캌
캭
컈
켙
콙
퀏
킼
턀
텉
텥
톹
퇌
퇻
퉤
틧
팈
팯
퍅
퍠
폅
폔
폳
퐈
푣
풜
핔
핳
햊
햋
혔
혿
홅
홯
횓
횢
휄
휏
힜
갅
갆
갊
갋
갌
갍
갎
갏
갞
갟
갡
갢
갥
갦
갧
갨
갩
갪
갫
갮
갰
갲
갳
갴
갵
갶
갷
갺
갻
갽
갾
갿
걁
걂
걃
걄
걅
걆
걇
걉
걊
걌
걎
걏
걐
걒
걓
걕
걖
걗
걙
걚
걛
걝
걞
걟
걠
걡
걢
걣
걤
걥
걦
걧
걨
걩
걪
걫
걬
걭
걮
걯
걳
걵
걶
걹
걻
걼
걽
걾
걿
겈
겎
겏
겑
겒
겓
겕
겖
겘
겙
겚
겛
겞
겢
겤
겥
겦
겧
겫
겭
겮
겱
겲
겳
겴
겵
겶
겷
겺
겾
곀
곃
곆
곇
곉
곊
곋
곍
곎
곏
곐
곑
곒
곓
곔
곕
곖
곚
곛
곜
곝
곲
곹
곺
괁
괍
괕
괗
괠
굇
굦
굻
궇
궎
궘
궝
궡
궷
귯
긆
긜
긧
긪
긾
깄
깋
깓
깖
꺌
껠
껬
꼈
꼮
꾈
꿧
뀜
끟
낛
낣
낲
냤
넁
넏
넑
넚
넞
녋
녙
놃
놧
놩
뇍
뇓
뇜
눋
눝
뉩
늅
늏
늕
늩
늰
늿
닁
닞
닟
닠
댇
댔
댚
댝
댸
덙
덯
뎗
뎝
돇
돍
돓
돰
됍
됢
됰
됼
둉
둙
둚
둟
둧
뒵
듲
듳
듹
듼
딀
딈
딭
딯
딲
땍
땽
떘
떙
떢
떥
떦
떪
떯
뗄
뗼
뚷
뚸
뚼
뜁
띁
띅
랃
랓
랕
랛
랢
랰
랲
럈
럘
럻
렃
렆
렗
렠
렣
롣
롲
뢀
뢉
룍
룧
룯
뤈
뤘
뤨
뤰
뤳
뤵
륐
륫
륱
륽
릌
릍
릘
릫
릳
맀
맃
맊
맍
맔
맕
맗
맠
맢
먓
먕
먘
먾
멏
멪
멵
몊
몪
뫂
뫈
뫔
묺
뭌
뭴
믁
밚
밠
밬
뱍
뱓
벏
벐
벓
벹
볃
볈
볿
봋
봌
봣
봥
뵛
뵝
붊
붔
붠
붵
뷀
뷃
뷤
븃
븕
븝
븟
빍
빧
빩
뺙
뺬
뺸
뺼
뻠
뻡
뻤
뻩
뻼
뽝
뿗
뿝
쀍
쁭
삜
샆
샞
섊
섡
섨
섵
섷
셒
솏
솑
쇡
쇰
숔
숖
숮
쉅
쉠
슢
슦
슳
싄
싡
싦
싪
싵
싿
쌁
썊
썪
쎗
쎼
쎾
쐉
쐑
쐼
쑷
쓘
씜
앀
앆
앖
앚
앛
앹
앾
얂
얃
얊
얜
얨
엗
엪
옂
옏
옽
옾
왘
왙
왤
왿
욨
욽
욿
웆
웇
웑
웝
윋
윥
읂
읇
읋
읐
읙
읟
읷
잂
잆
잙
잚
잧
잨
쟃
쟇
쟬
젃
젆
젏
젗
젲
젵
졩
졶
좍
좧
죕
죳
줃
줜
줼
쥉
쥤
쥥
쥼
쥿
즑
즞
짎
짛
짥
쨜
쨤
쩟
쩩
쩹
쩻
쪗
쪤
쫗
쫘
쭁
찯
챂
첟
첯
첲
쳠
쳤
촏
촣
쵀
쵣
춛
춝
춟
춭
췍
췡
췩
췽
츹
칯
칱
캎
캿
컅
컺
켰
켱
켼
콭
쾁
쾩
쾻
쾽
쿸
쿹
퀩
퀫
큎
큣
큹
킄
킌
킽
탇
탣
탶
턚
텛
텤
텰
텸
텻
텼
툅
툘
툱
퉜
튭
튻
틜
틩
팉
팑
팠
팤
팦
퍁
펲
폏
폶
퐃
퐅
퐌
퐷
푓
푝
픅
픝
픞
핃
핓
핝
핞
핢
핦
핧
핱
