[UNK]	0
[CLS]	1
[SEP]	2
[PAD]	3
[MASK]	4
!	5
"	6
#	7
$	8
%	9
&	10
'	11
(	12
)	13
*	14
+	15
,	16
-	17
.	18
/	19
0	20
1	21
2	22
3	23
4	24
5	25
6	26
7	27
8	28
9	29
:	30
;	31
<	32
=	33
>	34
?	35
@	36
A	37
B	38
C	39
D	40
E	41
F	42
G	43
H	44
I	45
J	46
K	47
L	48
M	49
N	50
O	51
P	52
Q	53
R	54
S	55
T	56
U	57
V	58
W	59
X	60
Y	61
Z	62
[	63
\	64
]	65
^	66
_	67
`	68
a	69
b	70
c	71
d	72
e	73
f	74
g	75
h	76
i	77
j	78
k	79
l	80
m	81
n	82
o	83
p	84
q	85
r	86
s	87
t	88
u	89
v	90
w	91
x	92
y	93
z	94
{	95
|	96
}	97
~	98
	99
ᄀ	100
ᄁ	101
ᄂ	102
ᄃ	103
ᄄ	104
ᄅ	105
ᄆ	106
ᄇ	107
ᄈ	108
ᄉ	109
ᄊ	110
ᄋ	111
ᄌ	112
ᄍ	113
ᄎ	114
ᄏ	115
ᄐ	116
ᄑ	117
ᄒ	118
ᅡ	119
ᅢ	120
ᅣ	121
ᅤ	122
ᅥ	123
ᅦ	124
ᅧ	125
ᅨ	126
ᅩ	127
ᅪ	128
ᅫ	129
ᅬ	130
ᅭ	131
ᅮ	132
ᅯ	133
ᅰ	134
ᅱ	135
ᅲ	136
ᅳ	137
ᅴ	138
ᅵ	139
ᆨ	140
ᆩ	141
ᆪ	142
ᆫ	143
ᆬ	144
ᆭ	145
ᆮ	146
ᆯ	147
ᆰ	148
ᆱ	149
ᆲ	150
ᆳ	151
ᆴ	152
ᆵ	153
ᆶ	154
ᆷ	155
ᆸ	156
ᆹ	157
ᆺ	158
ᆻ	159
ᆼ	160
ᆽ	161
ᆾ	162
ᆿ	163
ᇀ	164
ᇁ	165
ᇂ	166
ㄱ	167
ㄲ	168
ㄳ	169
ㄴ	170
ㄵ	171
ㄶ	172
ㄷ	173
ㄸ	174
ㄹ	175
ㄺ	176
ㄻ	177
ㄼ	178
ㄽ	179
ㄾ	180
ㄿ	181
ㅀ	182
ㅁ	183
ㅂ	184
ㅃ	185
ㅄ	186
ㅅ	187
ㅆ	188
ㅇ	189
ㅈ	190
ㅉ	191
ㅊ	192
ㅋ	193
ㅌ	194
ㅍ	195
ㅎ	196
ㅏ	197
ㅐ	198
ㅑ	199
ㅒ	200
ㅓ	201
ㅔ	202
ㅕ	203
ㅖ	204
ㅗ	205
ㅘ	206
ㅙ	207
ㅚ	208
ㅛ	209
ㅜ	210
ㅝ	211
ㅞ	212
ㅟ	213
ㅠ	214
ㅡ	215
ㅢ	216
ㅣ	217
가	218
간	219
감	220
갑	221
갓	222
갔	223
강	224
같	225
개	226
거	227
건	228
걸	229
것	230
겄	231
게	232
겐	233
겟	234
겠	235
겨	236
곈	237
고	238
곡	239
곤	240
곰	241
곳	242
공	243
과	244
관	245
괴	246
교	247
구	248
군	249
굽	250
규	251
그	252
근	253
금	254
긋	255
긔	256
기	257
긴	258
길	259
까	260
깐	261
깝	262
깨	263
꺼	264
껀	265
껄	266
께	267
껭	268
껴	269
꼐	270
꼬	271
꾸	272
꿔	273
끄	274
끔	275
끼	276
나	277
난	278
남	279
내	280
냐	281
냔	282
냥	283
냬	284
냰	285
너	286
넌	287
네	288
넨	289
녀	290
녕	291
녜	292
노	293
논	294
놋	295
농	296
뇌	297
뇨	298
누	299
눈	300
느	301
는	302
늘	303
늠	304
능	305
늬	306
늰	307
니	308
닌	309
닛	310
닝	311
다	312
단	313
달	314
담	315
답	316
닷	317
당	318
대	319
댄	320
댑	321
댔	322
댜	323
더	324
던	325
덜	326
덧	327
덩	328
데	329
덴	330
뎁	331
뎌	332
도	333
돗	334
동	335
돠	336
되	337
두	338
둔	339
둥	340
뒈	341
드	342
득	343
든	344
들	345
듯	346
등	347
듸	348
디	349
딘	350
딩	351
따	352
떼	353
라	354
락	355
란	356
랄	357
람	358
랍	359
랏	360
랑	361
래	362
랜	363
랠	364
랩	365
랬	366
랴	367
랸	368
러	369
런	370
럴	371
럼	372
레	373
려	374
련	375
렴	376
렵	377
렷	378
렸	379
례	380
로	381
록	382
롤	383
롯	384
롱	385
롸	386
뢰	387
료	388
루	389
룩	390
류	391
르	392
른	393
를	394
리	395
린	396
릴	397
릿	398
링	399
마	400
만	401
많	402
말	403
망	404
매	405
맨	406
맹	407
먀	408
머	409
먼	410
멍	411
메	412
멘	413
며	414
면	415
모	416
목	417
몬	418
무	419
문	420
뭇	421
므	422
믄	423
미	424
민	425
바	426
밖	427
배	428
백	429
밲	430
버	431
벼	432
보	433
부	434
분	435
비	436
빈	437
뿐	438
사	439
살	440
삼	441
삽	442
상	443
새	444
샤	445
샨	446
샬	447
샴	448
샷	449
서	450
선	451
성	452
세	453
셔	454
션	455
셧	456
셨	457
셰	458
소	459
손	460
솝	461
송	462
쇠	463
쇼	464
숌	465
수	466
쉐	467
쉬	468
슈	469
스	470
슨	471
슴	472
습	473
시	474
신	475
실	476
심	477
십	478
싸	479
써	480
쎄	481
쏘	482
쏜	483
쑤	484
씨	485
씩	486
아	487
악	488
안	489
압	490
앗	491
았	492
앙	493
애	494
앱	495
앳	496
앴	497
야	498
약	499
얀	500
얄	501
얌	502
얏	503
얐	504
양	505
얘	506
얫	507
어	508
억	509
언	510
얼	511
엄	512
없	513
엇	514
었	515
엉	516
엊	517
에	518
엣	519
여	520
연	521
염	522
엿	523
였	524
영	525
예	526
옛	527
오	528
옥	529
온	530
올	531
옵	532
옷	533
와	534
완	535
왇	536
외	537
요	538
욘	539
욜	540
욤	541
욧	542
용	543
우	544
운	545
울	546
움	547
워	548
원	549
웓	550
월	551
웨	552
웬	553
웰	554
위	555
유	556
윤	557
윰	558
으	559
은	560
을	561
음	562
읍	563
응	564
의	565
이	566
인	567
일	568
잇	569
있	570
잉	571
자	572
작	573
잔	574
잖	575
잘	576
잡	577
장	578
재	579
쟈	580
쟛	581
쟤	582
저	583
정	584
제	585
젠	586
져	587
조	588
좁	589
좋	590
죠	591
죵	592
주	593
쥬	594
즈	595
즉	596
지	597
직	598
진	599
징	600
쩌	601
찌	602
차	603
처	604
치	605
침	606
카	607
캉	608
캤	609
커	610
케	611
코	612
쿠	613
큼	614
키	615
타	616
터	617
텀	618
텅	619
테	620
텨	621
투	622
튼	623
티	624
파	625
프	626
피	627
하	628
한	629
허	630
헌	631
혀	632
히	633
##a	634
##l	635
##e	636
##t	637
##ᅦ	638
##ᆫ	639
##ᄌ	640
##ᅳ	641
##ᄑ	642
##ᅭ	643
##ᄀ	644
##ᅵ	645
##ᄉ	646
##ᆼ	647
##ᄋ	648
##ᅡ	649
##ᅮ	650
##ᆺ	651
##ᅥ	652
##ᄃ	653
##ᆨ	654
##ᄆ	655
##ᆯ	656
##ᅩ	657
##ᆷ	658
##ᅢ	659
##ᅯ	660
##ᄅ	661
##ᆸ	662
##ᄒ	663
##ᅱ	664
##ᄏ	665
##4	666
##0	667
##G	668
##m	669
##S	670
##p	671
##o	672
##u	673
##r	674
##ᄇ	675
##ᅧ	676
##ᅪ	677
##7	678
##8	679
##ᄎ	680
##ᄂ	681
##n	682
##b	683
##ᄐ	684
##ᅲ	685
##ᆹ	686
##D	687
##ᅴ	688
##ᄊ	689
##i	690
##c	691
##g	692
##k	693
##y	694
##ᅣ	695
##ᅨ	696
##ᆾ	697
##"	698
##x	699
##s	700
##h	701
##ᅬ	702
##M	703
##L	704
##X	705
##V	706
##j	707
##ᄍ	708
##d	709
##ᆽ	710
##ᇁ	711
##ᄁ	712
##ᆭ	713
##ᆩ	714
##ᇀ	715
##w	716
##f	717
##U	718
##T	719
##I	720
##N	721
##O	722
##ᆮ	723
##3	724
##5	725
##ᄄ	726
##W	727
##ᆲ	728
##ᅫ	729
##6	730
##9	731
##C	732
##F	733
##v	734
##1	735
##2	736
##ᄈ	737
##P	738
##H	739
##K	740
##E	741
##z	742
##B	743
##A	744
##ᅰ	745
##q	746
##Z	747
##J	748
##ᇂ	749
##Y	750
##Q	751
##ᆰ	752
##R	753
##ㅟ	754
##ㅅ	755
##ㅘ	756
##ㅇ	757
##ᆳ	758
##ᆿ	759
##ᆻ	760
##;	761
##'	762
##ㄴ	763
##ㅣ	764
##ㄼ	765
##ㄻ	766
##ᅤ	767
##ㄷ	768
##까	769
##요	770
##ㅠ	771
##-	772
##=	773
##ㅈ	774
##ㄱ	775
##ㄹ	776
##ᆪ	777
##%	778
##)	779
##ㅔ	780
##ᆶ	781
##ㅗ	782
##ㅋ	783
##ㅂ	784
##ㅖ	785
##ㄳ	786
##?	787
##,	788
##ㅁ	789
##오	790
##ㅎ	791
##ㅑ	792
##ㅀ	793
##ᆱ	794
##&	795
##ㄸ	796
##럼	797
##*	798
##ㅐ	799
##ㅄ	800
##는	801
##데	802
##ᆴ	803
##ㅏ	804
##ㅊ	805
##[	806
##께	807
##ㅡ	808
##라	809
##우	810
##.	811
##]	812
##ㅓ	813
##!	814
##ㄽ	815
##ㅕ	816
##<	817
##ᆬ	818
##ㅍ	819
##ㅌ	820
##ㅝ	821
##대	822
##~	823
##:	824
##ㄾ	825
##ㅞ	826
##ㅜ	827
##ᆵ	828
###	829
##ㅒ	830
##ㅚ	831
##ㄿ	832
##지	833
##이	834
##/	835
##\	836
##ㅆ	837
##_	838
##목	839
##에	840
##서	841
##ㅢ	842
##ㄲ	843
##며	844
##ㅙ	845
##군	846
##다	847
##기	848
##바	849
##}	850
##{	851
##^	852
##면	853
##은	854
##|	855
##ㄶ	856
##고	857
##냐	858
##려	859
##@	860
##+	861
##>	862
##$	863
##래	864
##나	865
##랏	866
##로	867
##ㅛ	868
##ㄺ	869
##텨	870
##느	871
##겠	872
##소	873
##`	874
##더	875
##네	876
##구	877
##아	878
##니	879
##ㄵ	880
##ㅉ	881
##저	882
##잖	883
##료	884
##말	885
##락	886
##즉	887
##든	888
##(	889
##게	890
##문	891
##뎌	892
##가	893
##예	894
##야	895
##듯	896
##셰	897
##단	898
##직	899
##수	900
##룩	901
##겨	902
##깐	903
##여	904
##던	905
##머	906
##만	907
##두	908
##랑	909
##끼	910
##뎁	911
##쇼	912
##므	913
##랍	914
##잉	915
##도	916
##ㅃ	917
##거	918
##란	919
##사	920
##랄	921
##뇨	922
##세	923
##시	924
##유	925
##새	926
##쏘	927
##신	928
##강	929
##디	930
##었	931
##리	932
##큼	933
##어	934
##걸	935
##마	936
##랬	937
##죠	938
##믄	939
##레	940
##길	941
##진	942
##러	943
##와	944
##치	945
##티	946
##멍	947
##테	948
##꼬	949
##당	950
##교	951
##메	952
##댔	953
##누	954
##렵	955
##둥	956
##건	957
##꾸	958
##규	959
##뿐	960
##담	961
##런	962
##개	963
##벼	964
##먼	965
##감	966
##언	967
##정	968
##들	969
##키	970
##멘	971
##드	972
##선	973
##댜	974
##랴	975
##등	976
##냔	977
##를	978
##십	979
##손	980
##슈	981
##녀	982
##비	983
##안	984
##곤	985
##욧	986
##껄	987
##옵	988
##되	989
##케	990
##매	991
##써	992
##스	993
##련	994
##자	995
##미	996
##닌	997
##난	998
##잇	999
##텀	1000
##샤	1001
##셨	1002
##꺼	1003
##제	1004
##습	1005
##늘	1006
##릴	1007
##씨	1008
##	1009
##카	1010
##달	1011
##셔	1012
##루	1013
##실	1014
##그	1015
##외	1016
##따	1017
##르	1018
##록	1019
##커	1020
##녕	1021
##온	1022
##럴	1023
##껴	1024
##근	1025
##슨	1026
##용	1027
##넌	1028
##무	1029
##장	1030
##쟈	1031
##캤	1032
##노	1033
##렷	1034
##갑	1035
##쏜	1036
##답	1037
##엇	1038
##금	1039
##동	1040
##덴	1041
##염	1042
##댄	1043
##웨	1044
##렴	1045
##덩	1046
##롱	1047
##숌	1048
##워	1049
##공	1050
##곳	1051
##많	1052
##끔	1053
##부	1054
##터	1055
##하	1056
##람	1057
##간	1058
##놋	1059
##프	1060
##모	1061
##피	1062
##깨	1063
##쥬	1064
##주	1065
##겐	1066
##성	1067
##보	1068
##찌	1069
##밖	1070
##침	1071
##차	1072
##냥	1073
##넨	1074
##굽	1075
##듸	1076
##위	1077
##망	1078
##셧	1079
##옷	1080
##파	1081
##쇠	1082
##으	1083
##타	1084
##꿔	1085
##껀	1086
##텅	1087
##른	1088
##빈	1089
##져	1090
##압	1091
##논	1092
##재	1093
##닛	1094
##싸	1095
##양	1096
##쿠	1097
##작	1098
##랜	1099
##징	1100
##투	1101
##돠	1102
하	1103
이	1104
##ᅡᆼ	1105
##이	1106
##ᅡᆫ	1107
##ᅥᆫ	1108
##리	1109
##ᅩᆼ	1110
##ᅧᆫ	1111
##ᅧᆼ	1112
##ᅥᆼ	1113
##ᅳᆯ	1114
##ᅡᆯ	1115
##ᅮᆫ	1116
##시	1117
##지	1118
##스	1119
##ᅡᆨ	1120
시	1121
##ᅩᆨ	1122
##하	1123
아	1124
되	1125
있	1126
##ᅮᆯ	1127
그	1128
##ᅧᆨ	1129
지	1130
거	1131
가	1132
에서	1133
##ᅥᆨ	1134
주	1135
##기	1136
으로	1137
ᆫ다	1138
사	1139
##ᅩᆫ	1140
##ᅳᆼ	1141
##어	1142
들	1143
##르	1144
어	1145
##ᅢᆼ	1146
수	1147
##가	1148
##구	1149
대	1150
##드	1151
나	1152
##나	1153
##라	1154
마	1155
기	1156
##로	1157
보	1158
것	1159
##사	1160
##ᅥᆯ	1161
##ᅦ이	1162
##ᅯᆫ	1163
##우	1164
##트	1165
자	1166
일	1167
##ᅥᆷ	1168
모	1169
다	1170
##대	1171
##장	1172
##도	1173
##치	1174
##자	1175
적	1176
전	1177
##ᅧᆯ	1178
##니	1179
##요	1180
##그	1181
오	1182
년	1183
##미	1184
##주	1185
##ᅪᆫ	1186
##수	1187
##전	1188
##정	1189
##아	1190
##러	1191
##오	1192
바	1193
##인	1194
스	1195
20	1196
부	1197
미	1198
정	1199
##상	1200
상	1201
##ᅣᆼ	1202
유	1203
조	1204
##히	1205
화	1206
##화	1207
##ᅢᆨ	1208
때	1209
##부	1210
##국	1211
##키	1212
공	1213
##제	1214
비	1215
구	1216
경	1217
##용	1218
위	1219
인	1220
제	1221
##고	1222
##력	1223
##ᅯᆯ	1224
##신	1225
##성	1226
중	1227
##문	1228
한	1229
고	1230
##마	1231
차	1232
도	1233
무	1234
##동	1235
##원	1236
##ᅳᆷ	1237
지만	1238
소	1239
##타	1240
##래	1241
없	1242
성	1243
등	1244
##ᅥᆸ	1245
않	1246
##격	1247
노	1248
##터	1249
여	1250
에게	1251
월	1252
세	1253
##비	1254
##ᅳᆨ	1255
만	1256
##간	1257
개	1258
##다	1259
##거	1260
201	1261
##유	1262
내	1263
##즈	1264
##소	1265
##티	1266
##보	1267
##ᅦᆫ	1268
##체	1269
타	1270
피	1271
##ᅦᆯ	1272
##무	1273
##명	1274
##크	1275
동	1276
##작	1277
추	1278
방	1279
##야	1280
연	1281
##일	1282
##위	1283
장	1284
말	1285
후	1286
영	1287
##카	1288
선	1289
발	1290
당	1291
##계	1292
##ᅪᆼ	1293
##서	1294
생	1295
신	1296
##선	1297
우	1298
##공	1299
는데	1300
##재	1301
안	1302
##식	1303
요	1304
치	1305
##ᆯ리	1306
##후	1307
드	1308
##만	1309
##학	1310
##루	1311
##의	1312
##교	1313
버	1314
리	1315
카	1316
##들	1317
19	1318
까지	1319
서	1320
##프	1321
의	1322
아서	1323
##당	1324
때문	1325
##모	1326
##회	1327
최	1328
##00	1329
강	1330
##디	1331
##단	1332
##실	1333
##물	1334
##음	1335
##역	1336
##행	1337
##내	1338
해	1339
아니	1340
##중	1341
크	1342
##피	1343
##능	1344
##바	1345
##속	1346
##토	1347
##조	1348
회	1349
##차	1350
##버	1351
##한	1352
포	1353
라고	1354
원	1355
파	1356
라는	1357
더	1358
##ᅵᆷ	1359
명	1360
##레	1361
불	1362
문	1363
배	1364
##ᅡᆯ리	1365
##과	1366
실	1367
##반	1368
많	1369
결	1370
데	1371
같	1372
##람	1373
진	1374
매	1375
##점	1376
다고	1377
나오	1378
##분	1379
##산	1380
으며	1381
관	1382
특	1383
호	1384
면서	1385
##생	1386
프	1387
##군	1388
##연	1389
반	1390
패	1391
##려	1392
단	1393
##관	1394
##레이	1395
보이	1396
초	1397
##노	1398
##호	1399
##두	1400
야	1401
##세	1402
코	1403
##진	1404
##코	1405
##각	1406
계	1407
작	1408
그리	1409
그러	1410
10	1411
경우	1412
##ᅳᆫ	1413
역	1414
쓰	1415
##본	1416
##안	1417
남	1418
분	1419
두	1420
##방	1421
받	1422
어서	1423
번	1424
사용	1425
다르	1426
로	1427
##영	1428
##태	1429
다는	1430
##급	1431
##면	1432
##류	1433
처	1434
출	1435
##민	1436
##경	1437
현	1438
라	1439
이후	1440
##포	1441
자신	1442
에	1443
국	1444
##해	1445
##저	1446
못	1447
따	1448
##법	1449
레	1450
알	1451
물	1452
공격	1453
##파	1454
또	1455
##런	1456
##매	1457
##브	1458
##발	1459
저	1460
##종	1461
예	1462
감	1463
##금	1464
##업	1465
애	1466
좋	1467
##름	1468
##통	1469
점	1470
통	1471
사람	1472
재	1473
위하	1474
편	1475
##추	1476
##적	1477
캐	1478
##스트	1479
대하	1480
##판	1481
입	1482
부터	1483
##양	1484
##습	1485
##ᅮᆷ	1486
##승	1487
##록	1488
##술	1489
함	1490
##투	1491
##테	1492
교	1493
김	1494
##개	1495
##직	1496
정도	1497
설	1498
형	1499
##건	1500
너	1501
##론	1502
##ᅦ임	1503
##료	1504
참	1505
시키	1506
##준	1507
가능	1508
##데	1509
##션	1510
다른	1511
##여	1512
평	1513
##녀	1514
외	1515
본	1516
##입	1517
##심	1518
메	1519
##운	1520
12	1521
권	1522
못하	1523
으나	1524
##표	1525
이나	1526
학	1527
죽	1528
200	1529
등장	1530
과	1531
디	1532
##족	1533
승	1534
는다	1535
뒤	1536
플	1537
11	1538
보다	1539
##량	1540
속	1541
종	1542
그리고	1543
##어지	1544
버리	1545
트	1546
키	1547
아이	1548
##너	1549
##츠	1550
..	1551
확	1552
##석	1553
직	1554
가지	1555
##형	1556
##약	1557
##설	1558
용	1559
만들	1560
##령	1561
맞	1562
심	1563
변	1564
경기	1565
##출	1566
##청	1567
하나	1568
##황	1569
잘	1570
##er	1571
토	1572
##복	1573
##현	1574
끄	1575
##더	1576
사실	1577
돌	1578
##랑	1579
##병	1580
게임	1581
다가	1582
##합	1583
##릭	1584
히	1585
행	1586
##것	1587
##련	1588
채	1589
##란	1590
##향	1591
살	1592
박	1593
##외	1594
##망	1595
달	1596
운	1597
##품	1598
활	1599
##번	1600
##게	1601
##배	1602
군	1603
##언	1604
##께	1605
##절	1606
약	1607
높	1608
시작	1609
필	1610
목	1611
일본	1612
##머	1613
모습	1614
##니다	1615
각	1616
체	1617
이름	1618
함께	1619
##네	1620
양	1621
##환	1622
##든	1623
집	1624
한국	1625
새	1626
건	1627
##ᅳᆯ리	1628
사이	1629
##천	1630
따르	1631
##스터	1632
##등	1633
표	1634
##울	1635
상대	1636
##어나	1637
존	1638
##지만	1639
15	1640
투	1641
언	1642
네	1643
##독	1644
##임	1645
태	1646
이상	1647
거나	1648
팀	1649
##초	1650
##송	1651
##in	1652
으면	1653
##목	1654
열	1655
루	1656
독	1657
하지만	1658
문제	1659
순	1660
생각	1661
증	1662
힘	1663
##쿠	1664
별	1665
프로	1666
또한	1667
##즌	1668
시간	1669
##립	1670
손	1671
##ᆯ라	1672
완	1673
총	1674
##년	1675
##메	1676
끝	1677
##쪽	1678
판	1679
가장	1680
##막	1681
##학교	1682
##험	1683
##감	1684
들어	1685
##ᅵᆨ	1686
##결	1687
효	1688
다시	1689
잡	1690
##대로	1691
막	1692
음	1693
##럽	1694
왕	1695
근	1696
##색	1697
##락	1698
ᆫ데	1699
##말	1700
당시	1701
천	1702
간	1703
아야	1704
듯	1705
##편	1706
캐릭	1707
처럼	1708
##라이	1709
항	1710
18	1711
당하	1712
및	1713
##on	1714
##살	1715
##탄	1716
캐릭터	1717
스키	1718
##퍼	1719
ᆫ지	1720
##벨	1721
플레이	1722
폭	1723
##남	1724
모두	1725
##근	1726
베	1727
싸	1728
브	1729
##왕	1730
먹	1731
능	1732
##악	1733
그렇	1734
##케	1735
아도	1736
시즌	1737
빠	1738
##예	1739
##담	1740
##곡	1741
##질	1742
삼	1743
##ᅧᆸ	1744
상황	1745
복	1746
모든	1747
##패	1748
##에	1749
광	1750
결국	1751
추가	1752
느	1753
##an	1754
##ᆫ드	1755
##미지	1756
16	1757
누	1758
##or	1759
##강	1760
충	1761
임	1762
##항	1763
앞	1764
현재	1765
테	1766
##글	1767
##함	1768
상태	1769
터	1770
##처	1771
##집	1772
길	1773
##쟁	1774
날	1775
많이	1776
병	1777
ᆫ다는	1778
통하	1779
넘	1780
##때	1781
30	1782
그러나	1783
다만	1784
금	1785
##워	1786
다음	1787
스킬	1788
존재	1789
전투	1790
친	1791
얼	1792
검	1793
눈	1794
13	1795
##택	1796
미국	1797
능력	1798
악	1799
##범	1800
합	1801
블	1802
##접	1803
여기	1804
##커	1805
식	1806
첫	1807
##존	1808
카드	1809
머	1810
산	1811
##받	1812
14	1813
##냥	1814
민	1815
백	1816
199	1817
세계	1818
##규	1819
매우	1820
선수	1821
허	1822
##없	1823
##견	1824
커	1825
효과	1826
##ar	1827
##리즈	1828
취	1829
##ᅱᆸ	1830
##움	1831
라이	1832
바ᄁ	1833
레이	1834
이러	1835
##ᅥᆯ어지	1836
17	1837
얻	1838
##열	1839
##와	1840
그런	1841
슈	1842
달리	1843
상당	1844
ᄇ니다	1845
##ᅮᆼ	1846
##거리	1847
##he	1848
##박	1849
황	1850
##득	1851
째	1852
##at	1853
찾	1854
##템	1855
##별	1856
뜨	1857
##베	1858
인하	1859
지역	1860
이유	1861
물론	1862
##씨	1863
어ᄄ	1864
이용	1865
북	1866
절	1867
의하	1868
여러	1869
처음	1870
기록	1871
다면	1872
##달	1873
##은	1874
엄	1875
괴	1876
극	1877
놓	1878
레벨	1879
100	1880
엔	1881
업	1882
##틀	1883
이것	1884
이런	1885
필요	1886
##널	1887
##창	1888
창	1889
실제	1890
자체	1891
시리즈	1892
곳	1893
##페	1894
부르	1895
청	1896
25	1897
올리	1898
해당	1899
일반	1900
##느	1901
그래	1902
##끼	1903
##광	1904
##ᅧᆾ	1905
##날	1906
들어가	1907
클	1908
줄	1909
ᆫ다고	1910
##플	1911
##으	1912
어야	1913
돌아	1914
니	1915
모르	1916
난	1917
##부분	1918
##변	1919
##애	1920
역시	1921
골	1922
주인	1923
거의	1924
게	1925
기술	1926
페	1927
바로	1928
은	1929
##착	1930
##순	1931
팬	1932
##en	1933
마법	1934
##철	1935
곡	1936
특히	1937
꼬	1938
영화	1939
##활	1940
##난	1941
잠	1942
##칭	1943
쿠	1944
탈	1945
##권	1946
2017	1947
##블	1948
무기	1949
기본	1950
철	1951
혼	1952
##롭	1953
##야기	1954
##육	1955
##ᅦ이지	1956
즉	1957
관련	1958
붙	1959
##백	1960
##ou	1961
아무	1962
환	1963
귀	1964
2018	1965
##불	1966
진행	1967
같이	1968
티	1969
##괴	1970
##ᆨ스	1971
##시아	1972
방송	1973
유니	1974
##례	1975
##까	1976
##극	1977
마지	1978
이야기	1979
는지	1980
스타	1981
##월	1982
##되	1983
##찰	1984
##돌	1985
##린	1986
나가	1987
겨	1988
피해	1989
##턴	1990
##리스	1991
##혼	1992
규	1993
좀	1994
범	1995
##ᅦ인	1996
위치	1997
##찬	1998
밝	1999
##가지	2000
류	2001
방어	2002
싶	2003
알리	2004
제작	2005
##희	2006
부분	2007
사건	2008
대부분	2009
와	2010
##al	2011
작품	2012
담	2013
마지막	2014
증가	2015
본인	2016
##ᆯ러	2017
뿐	2018
2019	2019
법	2020
일부	2021
계속	2022
인간	2023
ᆫ가	2024
자기	2025
비스	2026
##렵	2027
지나	2028
21	2029
##ᇂ게	2030
떨어지	2031
접	2032
걸	2033
둘	2034
축	2035
##리아	2036
##증	2037
몇	2038
##es	2039
몸	2040
서울	2041
워	2042
생기	2043
##률	2044
2016	2045
쉽	2046
국가	2047
50	2048
참고	2049
##팀	2050
주인공	2051
##탈	2052
준	2053
급	2054
맡	2055
풀	2056
우리	2057
내용	2058
엘	2059
활동	2060
##벤	2061
##전히	2062
##온	2063
##응	2064
넣	2065
그냥	2066
##누	2067
중국	2068
##벌	2069
탄	2070
어도	2071
이전	2072
비슷	2073
어느	2074
##ᅦ이스	2075
으니	2076
면	2077
암	2078
##귀	2079
##축	2080
##림	2081
##맨	2082
##징	2083
지금	2084
비하	2085
격	2086
라면	2087
강하	2088
##북	2089
##평	2090
대신	2091
##토리	2092
22	2093
벌	2094
타이	2095
성공	2096
오르	2097
만나	2098
수준	2099
흐	2100
이루	2101
낮	2102
##슬	2103
밝히	2104
습니다	2105
뛰	2106
감독	2107
떠	2108
##ᆷ버	2109
까	2110
헤	2111
도록	2112
그녀	2113
##율	2114
198	2115
상당히	2116
##몬	2117
24	2118
##책	2119
대한	2120
올라	2121
##ᆯ로	2122
##민국	2123
덕	2124
웨	2125
최대	2126
##랴	2127
대표	2128
러	2129
이동	2130
없이	2131
##할	2132
기준	2133
홍	2134
##같	2135
짜	2136
##굴	2137
배우	2138
스ᄐ	2139
공격력	2140
질	2141
몬	2142
논	2143
너무	2144
##략	2145
##it	2146
희	2147
므로	2148
제외	2149
##봉	2150
멀	2151
##버지	2152
빠르	2153
##슨	2154
인물	2155
죽이	2156
##총	2157
팔	2158
의미	2159
울	2160
그대로	2161
글	2162
##라지	2163
나타	2164
리그	2165
결과	2166
실제로	2167
##메이	2168
로서	2169
직접	2170
2015	2171
23	2172
대한민국	2173
##큼	2174
어렵	2175
소속	2176
원래	2177
##획	2178
나이	2179
##앙	2180
전체	2181
홈	2182
##을	2183
이미	2184
평가	2185
마다	2186
밀	2187
승리	2188
보내	2189
##부터	2190
그것	2191
##잡	2192
언급	2193
##념	2194
체력	2195
자리	2196
동안	2197
##ing	2198
애니	2199
##ᆷ피	2200
##팅	2201
##딩	2202
##st	2203
육	2204
##클	2205
전쟁	2206
갖	2207
##le	2208
시절	2209
래	2210
##닝	2211
##ic	2212
메이	2213
관계	2214
몰	2215
40	2216
싸우	2217
마음	2218
뉴	2219
설정	2220
ᆫ다면	2221
씩	2222
도시	2223
##측	2224
##짜	2225
향	2226
##늘	2227
##re	2228
님	2229
멤버	2230
과거	2231
영상	2232
##주의	2233
유저	2234
##운드	2235
망	2236
지원	2237
가까	2238
데미지	2239
##욱	2240
선택	2241
묘	2242
문서	2243
##침	2244
유닛	2245
샤	2246
깨	2247
불리	2248
발매	2249
##랜드	2250
온	2251
듣	2252
머리	2253
포함	2254
몬스터	2255
끝나	2256
##dd	2257
휴	2258
성우	2259
갈	2260
여자	2261
왜	2262
뜻	2263
슬	2264
뭐	2265
##델	2266
개발	2267
##폭	2268
##웅	2269
빼	2270
어ᄍ	2271
엄청	2272
##는	2273
퍼	2274
힘들	2275
컨	2276
설명	2277
##렌	2278
던	2279
##등학교	2280
##갑	2281
##먹	2282
방법	2283
출연	2284
##필	2285
쪽	2286
바뀌	2287
##켓	2288
플레이어	2289
책	2290
차이	2291
아버지	2292
최고	2293
연구	2294
보스	2295
우승	2296
##컬	2297
기사	2298
혹	2299
##밀	2300
##우스	2301
##웨	2302
유명	2303
##염	2304
여성	2305
스럽	2306
##캐	2307
공식	2308
2014	2309
##골	2310
압	2311
##확	2312
장면	2313
협	2314
침	2315
봉	2316
##없이	2317
속도	2318
##검	2319
사망	2320
영향	2321
어떠	2322
꽤	2323
##덕	2324
##ᅦ이트	2325
##얼	2326
##슈	2327
발생	2328
답	2329
이때	2330
##훈	2331
려고	2332
조금	2333
드라	2334
사랑	2335
프랑	2336
26	2337
##스타	2338
돈	2339
##손	2340
##ff	2341
갑	2342
##ᅦ일	2343
000	2344
주장	2345
일어나	2346
주로	2347
##벽	2348
남자	2349
28	2350
##센	2351
측	2352
오래	2353
프리	2354
빠지	2355
인터	2356
전부	2357
층	2358
##머니	2359
##el	2360
아이템	2361
27	2362
##곤	2363
초반	2364
걸리	2365
출신	2366
##am	2367
제대로	2368
농	2369
운영	2370
##랙	2371
동시	2372
31	2373
자주	2374
결정	2375
아직	2376
중요	2377
##쁘	2378
나타나	2379
마이	2380
the	2381
##벤트	2382
정보	2383
공개	2384
만큼	2385
서로	2386
또는	2387
버전	2388
최종	2389
##풍	2390
새롭	2391
강화	2392
친구	2393
대상	2394
독일	2395
학교	2396
##아가	2397
탑	2398
구성	2399
학생	2400
궁	2401
유지	2402
최초	2403
쏘	2404
노래	2405
송	2406
##뜨	2407
##om	2408
##객	2409
##프트	2410
역사	2411
소리	2412
강력	2413
역할	2414
다니	2415
파괴	2416
억	2417
사회	2418
이벤트	2419
정말	2420
쇼	2421
##버스	2422
누구	2423
그런데	2424
##다가	2425
기존	2426
##새	2427
##채	2428
##이도	2429
쓰이	2430
찍	2431
파이	2432
아래	2433
스토리	2434
영국	2435
##ᅩᆸ	2436
다이	2437
비교	2438
마찬	2439
마찬가지	2440
##ᆫ스	2441
칼	2442
느끼	2443
##휘	2444
##la	2445
형태	2446
어떤	2447
석	2448
라도	2449
##퇴	2450
바람	2451
당연	2452
끼	2453
소환	2454
엄청나	2455
##is	2456
후반	2457
인기	2458
보통	2459
회복	2460
이기	2461
변경	2462
##충	2463
##그래	2464
##효	2465
##ᆼ크	2466
대사	2467
밖	2468
늘	2469
착	2470
2013	2471
##억	2472
오히	2473
대로	2474
바꾸	2475
##샤	2476
조선	2477
특성	2478
정신	2479
슈퍼	2480
오히려	2481
##시간	2482
폐	2483
거리	2484
정치	2485
섬	2486
##혀	2487
##라도	2488
방식	2489
먼	2490
가깝	2491
푸	2492
197	2493
##룡	2494
드래	2495
월드	2496
음악	2497
이번	2498
발견	2499
29	2500
##너지	2501
이제	2502
사라지	2503
##옥	2504
##협	2505
##나라	2506
게다가	2507
32	2508
아들	2509
##동안	2510
##숙	2511
자유	2512
##et	2513
##답	2514
끌	2515
00	2516
색	2517
마리	2518
##트리	2519
성능	2520
잔	2521
프랑스	2522
좌	2523
행동	2524
##킹	2525
특수	2526
확률	2527
성격	2528
유일	2529
활약	2530
맞추	2531
##지어	2532
##ol	2533
2012	2534
일단	2535
하이	2536
모양	2537
##있	2538
스ᄑ	2539
##ion	2540
##럼	2541
씨	2542
확인	2543
아예	2544
시스	2545
구하	2546
##디오	2547
##레이드	2548
##레스	2549
##ᆨ트	2550
따라	2551
앨	2552
이렇게	2553
##쓰	2554
올	2555
부족	2556
##ᅢᆼ크	2557
차지	2558
윤	2559
정부	2560
바이	2561
입장	2562
노선	2563
##엘	2564
에피	2565
내리	2566
흔	2567
##소리	2568
숨	2569
##멸	2570
##ᆼ글	2571
흑	2572
돌아오	2573
심지어	2574
주변	2575
모드	2576
먼저	2577
들어오	2578
콘	2579
##곳	2580
영웅	2581
수록	2582
##롯	2583
##니아	2584
##링	2585
풍	2586
발동	2587
휘	2588
어리	2589
2010	2590
거기	2591
##져	2592
볼	2593
뽑	2594
과정	2595
##엇	2596
어요	2597
반대	2598
녹	2599
##싸	2600
완전히	2601
드러	2602
##쉬	2603
움	2604
생산	2605
##ᅩᆾ	2606
##ow	2607
##그램	2608
개인	2609
응	2610
60	2611
##통령	2612
대회	2613
빛	2614
##nd	2615
적용	2616
km	2617
##익	2618
##탁	2619
##로스	2620
모델	2621
잃	2622
##20	2623
획	2624
##il	2625
제국	2626
##뢰	2627
##ig	2628
떠나	2629
으로서	2630
##압	2631
속성	2632
어디	2633
##ed	2634
시스템	2635
##균	2636
대학	2637
그래서	2638
난이도	2639
##ᆼ장	2640
득	2641
##리카	2642
한번	2643
##룹	2644
라며	2645
혹은	2646
35	2647
지키	2648
자세	2649
##뷔	2650
##넷	2651
##메이션	2652
실패	2653
##튼	2654
전혀	2655
##먼	2656
돌아가	2657
차량	2658
장비	2659
##이드	2660
##웃	2661
감소	2662
원작	2663
패배	2664
##스크	2665
덕분	2666
현대	2667
국내	2668
데이	2669
사진	2670
##럭	2671
얼굴	2672
##욕	2673
TV	2674
##파이	2675
건물	2676
동일	2677
대통령	2678
짓	2679
##소드	2680
##나마	2681
얼마	2682
열리	2683
초기	2684
더라도	2685
도움	2686
##리그	2687
무엇	2688
날리	2689
마을	2690
중심	2691
앨범	2692
우주	2693
맵	2694
##어가	2695
지속	2696
##ac	2697
데뷔	2698
##as	2699
##죄	2700
오브	2701
인정	2702
표현	2703
모으	2704
##참	2705
애니메이션	2706
##BS	2707
출시	2708
참여	2709
하루	2710
나라	2711
버스	2712
196	2713
액	2714
굉장	2715
획득	2716
물리	2717
그렇게	2718
of	2719
2011	2720
밖에	2721
작중	2722
시대	2723
계획	2724
##스티	2725
꾸	2726
세트	2727
##아내	2728
설치	2729
다양	2730
요구	2731
순간	2732
반응	2733
##비스	2734
견	2735
##텐	2736
안되	2737
##놓	2738
클리	2739
Lv	2740
정확	2741
기능	2742
##못	2743
자동	2744
##궁	2745
##탕	2746
##들이	2747
움직	2748
기억	2749
발표	2750
축구	2751
##므로	2752
드라마	2753
선발	2754
훈	2755
올라가	2756
시점	2757
##ve	2758
그나마	2759
##밍	2760
영어	2761
라인	2762
아마	2763
아군	2764
##길	2765
##혁	2766
담당	2767
명칭	2768
##이트	2769
##대학교	2770
##뷰	2771
롭	2772
상승	2773
츠	2774
으므로	2775
##른	2776
판매	2777
##컵	2778
다며	2779
작가	2780
시기	2781
센	2782
중앙	2783
맨	2784
퇴	2785
진출	2786
01	2787
그림	2788
세우	2789
경찰	2790
았었	2791
##속도	2792
The	2793
조건	2794
##갈	2795
가격	2796
맥	2797
뮤	2798
##찮	2799
컴	2800
특징	2801
려는	2802
땅	2803
##덤	2804
##뜨리	2805
##씬	2806
##맹	2807
상위	2808
수비	2809
대체	2810
##특	2811
대전	2812
##ot	2813
고려	2814
한테	2815
지구	2816
관리	2817
조차	2818
남기	2819
확실	2820
드래곤	2821
아주	2822
##위기	2823
참가	2824
500	2825
에피소드	2826
로부터	2827
##혹	2828
졸	2829
##볼	2830
이거	2831
어머니	2832
세이	2833
지니	2834
80	2835
밀리	2836
##폰	2837
단계	2838
2000	2839
어떻게	2840
항목	2841
##취	2842
딸	2843
헌	2844
핵	2845
실력	2846
라서	2847
##끔	2848
미치	2849
##빈	2850
믿	2851
##으키	2852
##콘	2853
아르	2854
딱	2855
더욱	2856
묘사	2857
피하	2858
활용	2859
이ᄁ	2860
던지	2861
##섭	2862
연기	2863
경험	2864
각각	2865
##ad	2866
37	2867
처리	2868
밤	2869
러시아	2870
##액	2871
패치	2872
비판	2873
낙	2874
심하	2875
45	2876
후보	2877
가족	2878
만화	2879
폭발	2880
회사	2881
펼	2882
##인트	2883
##ᆷ피언	2884
문화	2885
굉장히	2886
세대	2887
##완	2888
묻	2889
케	2890
디자	2891
이미지	2892
결혼	2893
교육	2894
##스로	2895
이어지	2896
구조	2897
진짜	2898
헬	2899
##뉴	2900
찌	2901
프로그램	2902
내려	2903
##혜	2904
라운드	2905
##위원	2906
위험	2907
챔피언	2908
##큐	2909
습	2910
탐	2911
단순	2912
선거	2913
턴	2914
약하	2915
여담	2916
숙	2917
이루어지	2918
발사	2919
혼자	2920
참조	2921
무시	2922
오리	2923
다루	2924
##친	2925
꿈	2926
ᆯ지	2927
St	2928
##칙	2929
##라인	2930
목적	2931
술	2932
히로	2933
현실	2934
##아오	2935
준비	2936
주요	2937
194	2938
꺼	2939
민주	2940
크리스	2941
기간	2942
불구	2943
거치	2944
스피	2945
##머지	2946
##암	2947
사실상	2948
나쁘	2949
나머지	2950
일으키	2951
마스터	2952
대미지	2953
방영	2954
옆	2955
제공	2956
##튜	2957
삼성	2958
계약	2959
약간	2960
쿨	2961
율	2962
##혈	2963
나무	2964
웃	2965
시청	2966
##id	2967
부산	2968
70	2969
중간	2970
##닥	2971
괘	2972
뛰어나	2973
##다리	2974
##알	2975
##리오	2976
##보이	2977
##척	2978
시도	2979
퀘	2980
패턴	2981
훨	2982
09	2983
방향	2984
논란	2985
일정	2986
##엄	2987
##ay	2988
지하	2989
범위	2990
동료	2991
유럽	2992
##닉	2993
듀	2994
##렉	2995
여전히	2996
연속	2997
당연히	2998
돕	2999
한정	3000
스트	3001
90	3002
으면서	3003
흡	3004
소모	3005
칸	3006
한편	3007
이해	3008
분위기	3009
성장	3010
아프	3011
훨씬	3012
FC	3013
##ER	3014
##짝	3015
죄	3016
유리	3017
그룹	3018
빌	3019
국민	3020
세기	3021
싫	3022
보호	3023
얘	3024
할	3025
특별	3026
노리	3027
론	3028
즐	3029
파워	3030
학년	3031
흥	3032
##드리	3033
##러지	3034
그래도	3035
##인물	3036
블랙	3037
mm	3038
기대	3039
바라	3040
클래	3041
읽	3042
02	3043
2009	3044
03	3045
익	3046
괜	3047
똑	3048
##ch	3049
딜	3050
어두	3051
가져	3052
조합	3053
향하	3054
잘못	3055
운동	3056
굴	3057
자연	3058
##륙	3059
300	3060
맛	3061
가리	3062
##짓	3063
##ᆫ쪽	3064
출전	3065
##낌	3066
경제	3067
기타	3068
생명	3069
디자인	3070
최근	3071
##엔	3072
기에	3073
싸움	3074
##틴	3075
해결	3076
취급	3077
##us	3078
48	3079
브라	3080
도망	3081
##ir	3082
짧	3083
자면	3084
스테이지	3085
ᆯ까	3086
##티브	3087
국제	3088
부상	3089
쉬	3090
그거	3091
성적	3092
태어나	3093
부대	3094
률	3095
오프	3096
05	3097
곧	3098
##봇	3099
195	3100
33	3101
사고	3102
연결	3103
for	3104
지방	3105
##뮤	3106
이르	3107
2008	3108
##자기	3109
생활	3110
의견	3111
예정	3112
욕	3113
규모	3114
##삼	3115
덱	3116
36	3117
추정	3118
운행	3119
주의	3120
##빠	3121
08	3122
##ᅡᆯ리아	3123
순위	3124
빈	3125
변하	3126
수정	3127
##둥	3128
벗	3129
타입	3130
즈	3131
종류	3132
마치	3133
플래	3134
07	3135
##ur	3136
끊	3137
벨	3138
인구	3139
충분	3140
거대	3141
언제	3142
움직이	3143
트위	3144
방면	3145
스스로	3146
구간	3147
올라오	3148
죽음	3149
대화	3150
아이돌	3151
수상	3152
펼치	3153
염	3154
넘어가	3155
나중	3156
##흐	3157
야구	3158
조직	3159
안정	3160
속하	3161
전용	3162
##듀	3163
세력	3164
표기	3165
터지	3166
변화	3167
나누	3168
느낌	3169
쌍	3170
지도	3171
벽	3172
HP	3173
당신	3174
##쉽	3175
장착	3176
벌어지	3177
미션	3178
##ᆩ이	3179
퀘스트	3180
도중	3181
절대	3182
전문	3183
##텔	3184
비롯	3185
등급	3186
##..	3187
##od	3188
탓	3189
세상	3190
##지션	3191
케이	3192
폴	3193
만드	3194
06	3195
항공	3196
만큼	3197
붙이	3198
달성	3199
##BC	3200
직업	3201
벌이	3202
뚜	3203
##너스	3204
안타	3205
##흥	3206
특정	3207
지내	3208
일행	3209
관하	3210
엔딩	3211
th	3212
부활	3213
털	3214
##능력	3215
굳	3216
##im	3217
##란드	3218
##비아	3219
##겨	3220
독립	3221
포인트	3222
##롤	3223
튀	3224
##촌	3225
무장	3226
##십	3227
발전	3228
종료	3229
지지	3230
##폐	3231
수도	3232
근접	3233
전하	3234
더불	3235
졸업	3236
##허	3237
넓	3238
관심	3239
##층	3240
방어력	3241
04	3242
만약	3243
##붙	3244
포켓	3245
##어들	3246
##톤	3247
##최	3248
##렬	3249
##나이	3250
##겁	3251
##다니	3252
반면	3253
미사	3254
따라서	3255
##un	3256
##ut	3257
SK	3258
번역	3259
싱글	3260
제목	3261
보상	3262
엔진	3263
##데이트	3264
소설	3265
척	3266
##꾸	3267
거두	3268
내부	3269
칭	3270
에너지	3271
##던	3272
목소리	3273
투수	3274
##좌	3275
남성	3276
2007	3277
##즘	3278
력	3279
##탑	3280
you	3281
업데이트	3282
배틀	3283
##쇄	3284
배경	3285
똑같	3286
빅	3287
##윤	3288
무리	3289
가끔	3290
정상	3291
저지	3292
##디어	3293
미래	3294
어찌	3295
##싱	3296
트리	3297
충격	3298
34	3299
##정도	3300
##카이	3301
돌리	3302
##엽	3303
타격	3304
##라고	3305
가스	3306
계열	3307
득점	3308
전설	3309
정체	3310
오늘	3311
옥	3312
##리어	3313
뒷	3314
비행	3315
지휘	3316
목표	3317
##게임	3318
황제	3319
덤	3320
공중	3321
최소	3322
그만	3323
항상	3324
분노	3325
##ro	3326
배치	3327
각성	3328
셈	3329
##칸	3330
공연	3331
아키	3332
콤	3333
예상	3334
##러스	3335
스페	3336
조사	3337
##팔	3338
##끄	3339
등장인물	3340
소재	3341
이어	3342
으려	3343
##묘	3344
마저	3345
북한	3346
##공격	3347
위기	3348
으로써	3349
전국	3350
##헌	3351
정식	3352
얘기	3353
넘기	3354
생존	3355
##대학	3356
##조건	3357
로마	3358
이끌	3359
늘어나	3360
전작	3361
포켓몬	3362
군사	3363
스포	3364
신경	3365
냉	3366
##ag	3367
##igh	3368
38	3369
##나가	3370
##빙	3371
높이	3372
##ver	3373
작곡	3374
애초	3375
ᆯ로	3376
지정	3377
괜찮	3378
##ec	3379
가르	3380
버프	3381
인터뷰	3382
cm	3383
##르크	3384
시전	3385
듯이	3386
자랑	3387
쌓	3388
지상	3389
엘리	3390
기관	3391
75	3392
스태	3393
##쿄	3394
결승	3395
점수	3396
각종	3397
다리	3398
크리	3399
악마	3400
품	3401
요소	3402
전사	3403
삭	3404
건설	3405
분류	3406
##ent	3407
2006	3408
부여	3409
##시마	3410
인도	3411
과학	3412
##시스	3413
##멘	3414
소녀	3415
꽃	3416
스코	3417
##ᅪᆯ	3418
멸	3419
##탈리아	3420
##야마	3421
교체	3422
##르트	3423
55	3424
요리	3425
재미	3426
전기	3427
##낙	3428
카이	3429
연출	3430
##운데	3431
정하	3432
이외	3433
in	3434
##걸	3435
무대	3436
전차	3437
놀라	3438
##스키	3439
전반	3440
##학생	3441
193	3442
하늘	3443
레어	3444
정작	3445
##셉	3446
옛	3447
수치	3448
##ak	3449
클리어	3450
확정	3451
##ᆷ픽	3452
##자리	3453
별로	3454
니까	3455
맹	3456
작전	3457
드러나	3458
에이	3459
##밥	3460
홈런	3461
갖추	3462
개념	3463
##푸	3464
행정	3465
아카	3466
##회의	3467
훈련	3468
소개	3469
건담	3470
링크	3471
야마	3472
살리	3473
바다	3474
따로	3475
2020	3476
제일	3477
##쇼	3478
to	3479
##um	3480
타카	3481
종족	3482
외국	3483
이적	3484
##무리	3485
군대	3486
##로드	3487
갑자기	3488
찬	3489
##젝트	3490
변신	3491
',	3492
깊	3493
스ᄏ	3494
나름	3495
##셀	3496
##루스	3497
제한	3498
단점	3499
이탈리아	3500
기업	3501
솔	3502
##화국	3503
바르	3504
완전	3505
누르	3506
##파트	3507
##븐	3508
장소	3509
vs	3510
크기	3511
인천	3512
기계	3513
##맞	3514
명령	3515
냐고	3516
혀	3517
비밀	3518
##앗	3519
##타임	3520
##아들이	3521
서비스	3522
##시대	3523
##어로	3524
랜	3525
노력	3526
어쩌	3527
근처	3528
놀	3529
기체	3530
평균	3531
동물	3532
가수	3533
납	3534
##홍	3535
파티	3536
수행	3537
포지션	3538
사냥	3539
띄	3540
녀	3541
느리	3542
작업	3543
보유	3544
압도	3545
표시	3546
다크	3547
##ST	3548
##모토	3549
기동	3550
집중	3551
특이	3552
옮	3553
연합	3554
옷	3555
화력	3556
##em	3557
##ub	3558
겸	3559
##돈	3560
시장	3561
끝내	3562
징	3563
##맥	3564
병력	3565
이하	3566
런	3567
롯	3568
사업	3569
설립	3570
이쪽	3571
##니스	3572
잠시	3573
린	3574
옵	3575
기회	3576
##풀	3577
부모	3578
부정	3579
기반	3580
공간	3581
더니	3582
본래	3583
필드	3584
혈	3585
파일	3586
경쟁	3587
##쳐	3588
치명	3589
##올리	3590
빨	3591
판단	3592
가운데	3593
카운	3594
##ᅪᆯ영	3595
무슨	3596
감정	3597
직전	3598
##000	3599
##퓨	3600
##카드	3601
목록	3602
이닝	3603
나서	3604
물건	3605
의외	3606
##바이	3607
##라스	3608
떨	3609
ㅏㅆ	3610
인식	3611
고양	3612
단어	3613
스위	3614
겪	3615
코미	3616
##젤	3617
켄	3618
##ᆨ시	3619
상관	3620
탈출	3621
월드컵	3622
판정	3623
사례	3624
크로	3625
옮기	3626
큐	3627
쯤	3628
기다리	3629
소련	3630
주문	3631
밑	3632
##요일	3633
##이치	3634
던전	3635
##째	3636
2005	3637
주제	3638
효율	3639
차원	3640
##빌	3641
##펜	3642
포기	3643
잇	3644
새로	3645
제거	3646
정리	3647
##찍	3648
가문	3649
앞서	3650
키우	3651
##딜	3652
페이	3653
##역시	3654
임무	3655
##ight	3656
진화	3657
42	3658
마르	3659
퀴	3660
려면	3661
다수	3662
대구	3663
위력	3664
도전	3665
뇌	3666
41	3667
##고등학교	3668
도입	3669
때리	3670
라이브	3671
##ᆺ수	3672
##세계	3673
도쿄	3674
##팩	3675
##죽	3676
강제	3677
##몽	3678
별명	3679
원인	3680
중반	3681
호선	3682
정의	3683
##러스트	3684
레드	3685
완성	3686
제품	3687
##그레이드	3688
##셜	3689
발언	3690
고정	3691
스타일	3692
##털	3693
39	3694
지배	3695
##기사	3696
##섯	3697
받아들이	3698
##드시	3699
숨기	3700
유사	3701
촬영	3702
르	3703
에게서	3704
##레인	3705
2004	3706
킹	3707
골드	3708
무려	3709
복귀	3710
##숨	3711
동생	3712
사이트	3713
시험	3714
어둠	3715
##대표	3716
연습	3717
##롱	3718
직후	3719
분명	3720
붉	3721
인사	3722
도착	3723
EX	3724
버티	3725
모이	3726
##ᅦ이션	3727
LG	3728
역대	3729
전개	3730
은데	3731
쫓	3732
삭제	3733
으로부터	3734
접근	3735
ㅓㅆ	3736
입히	3737
##몰	3738
몽	3739
요시	3740
꼭	3741
사정	3742
마시	3743
해군	3744
랭크	3745
현상	3746
추천	3747
##ce	3748
예전	3749
왕국	3750
정규	3751
살아	3752
음식	3753
확장	3754
교수	3755
회피	3756
아스	3757
빨리	3758
마나	3759
해외	3760
##AR	3761
안전	3762
홀	3763
##많	3764
업그레이드	3765
책임	3766
오버	3767
드리	3768
##덴	3769
병사	3770
이곳	3771
##픽	3772
코스	3773
반드시	3774
##os	3775
줄이	3776
##ᆯ레	3777
꾼	3778
일러스트	3779
웹	3780
##줄	3781
조종	3782
유튜	3783
록	3784
완벽	3785
자원	3786
부탁	3787
점프	3788
십	3789
저항	3790
44	3791
타이틀	3792
##방송	3793
##ri	3794
올림픽	3795
롯데	3796
뿌	3797
도로	3798
극장	3799
고대	3800
##AN	3801
장점	3802
파트	3803
심각	3804
##첩	3805
잡히	3806
비용	3807
캠	3808
탈락	3809
차전	3810
##찌	3811
우선	3812
##ula	3813
Ch	3814
##무라	3815
인터넷	3816
아내	3817
##ON	3818
의사	3819
신체	3820
##몇	3821
##하나	3822
통합	3823
아라	3824
언어	3825
##셔	3826
리더	3827
추측	3828
공동	3829
##대전	3830
전력	3831
의원	3832
##아하	3833
No	3834
전략	3835
미니	3836
늦	3837
##ap	3838
##꽃	3839
43	3840
주민	3841
치료	3842
99	3843
이라고	3844
실험	3845
환경	3846
##넘	3847
놈	3848
몇몇	3849
의식	3850
연장	3851
히어로	3852
##트라	3853
마무리	3854
벤	3855
연재	3856
합류	3857
##and	3858
구매	3859
2002	3860
소유	3861
##ᆨ정	3862
짐	3863
st	3864
복수	3865
##버리	3866
##크래	3867
점점	3868
즐기	3869
다소	3870
살인	3871
장갑	3872
##ᅳᆯ린	3873
사격	3874
최강	3875
낫	3876
##ᅦᆯ레	3877
form	3878
철도	3879
대기	3880
종교	3881
사기	3882
##빛	3883
##광역시	3884
전자	3885
그야	3886
화면	3887
취하	3888
##듬	3889
수많	3890
마법사	3891
틀	3892
기념	3893
구분	3894
좋아하	3895
공포	3896
티어	3897
kg	3898
##논	3899
곤	3900
종종	3901
47	3902
자마	3903
46	3904
개최	3905
51	3906
##ᅳᆯ링	3907
191	3908
##아이	3909
사거리	3910
마사	3911
##아보	3912
암살	3913
걱정	3914
가치	3915
formula	3916
평범	3917
닥	3918
##콩	3919
##말로	3920
##퓨터	3921
쥬	3922
전통	3923
가사	3924
##ᅮᆨ	3925
사무	3926
붕	3927
자마자	3928
형식	3929
KBS	3930
##무기	3931
개봉	3932
아쉽	3933
부하	3934
그야말로	3935
##ᆯ리스	3936
스티	3937
##아지	3938
##스케	3939
그리스	3940
개월	3941
채우	3942
선정	3943
녀석	3944
사상	3945
스페인	3946
여행	3947
##ter	3948
떡	3949
##위원회	3950
팩	3951
콜	3952
워낙	3953
아무리	3954
뻔	3955
##선수	3956
다행	3957
미드	3958
고자	3959
##오르	3960
베이	3961
루트	3962
##메라	3963
and	3964
픽	3965
요청	3966
펜	3967
미사일	3968
한계	3969
프로젝트	3970
##깨	3971
무조건	3972
본격	3973
정당	3974
정확히	3975
대중	3976
냐는	3977
##퀴	3978
한글	3979
##ul	3980
개그	3981
MA	3982
맺	3983
평소	3984
영혼	3985
실점	3986
밴드	3987
시청자	3988
거부	3989
비중	3990
굳이	3991
##IN	3992
##운동	3993
지적	3994
무한	3995
##시장	3996
공주	3997
옵션	3998
1000	3999
##수록	4000
##스토	4001
로봇	4002
덜	4003
2003	4004
데이터	4005
모자	4006
##모리	4007
줄어들	4008
하드	4009
##ᆺ자	4010
컴퓨터	4011
젊	4012
충분히	4013
스토	4014
고르	4015
##op	4016
위협	4017
투입	4018
상징	4019
버그	4020
네이	4021
는가	4022
멋	4023
##오스	4024
##니티	4025
##관계	4026
시설	4027
히트	4028
##쿠라	4029
##사이	4030
달러	4031
도망치	4032
연주	4033
행위	4034
##잔	4035
범죄	4036
##ck	4037
##드로	4038
선언	4039
대형	4040
불가	4041
%,	4042
명중	4043
##폼	4044
실수	4045
쓸	4046
설계	4047
폭탄	4048
콤보	4049
150	4050
##핑	4051
형제	4052
65	4053
특유	4054
##FA	4055
대결	4056
언론	4057
##ation	4058
원정	4059
해석	4060
선생	4061
성향	4062
조작	4063
운용	4064
##꺼	4065
희생	4066
##정부	4067
시민	4068
빙	4069
MBC	4070
##ᆯ링	4071
광주	4072
스포츠	4073
SP	4074
##ᆫ만	4075
행사	4076
이사	4077
##려가	4078
전원	4079
일종	4080
인상	4081
대응	4082
보조	4083
##ra	4084
192	4085
보병	4086
태양	4087
봉인	4088
##남도	4089
광고	4090
행성	4091
잊	4092
##다르	4093
잭	4094
뚫	4095
##페이지	4096
##이상	4097
나이트	4098
멜	4099
얼마나	4100
개조	4101
가면	4102
벗어나	4103
오리지	4104
단지	4105
깔	4106
64	4107
##세이	4108
대로	4109
##컨	4110
##멀	4111
II	4112
통과	4113
그때	4114
로써	4115
마력	4116
##경기	4117
드러내	4118
차례	4119
##동생	4120
##기관	4121
롤	4122
##미널	4123
와중	4124
##머리	4125
앙	4126
란	4127
구단	4128
##특별	4129
보너스	4130
노트	4131
빼앗	4132
간단	4133
단체	4134
점령	4135
시나	4136
을지	4137
프로듀	4138
소비	4139
경기도	4140
##려오	4141
ㅏ서	4142
치르	4143
육군	4144
화염	4145
##웨이	4146
흉	4147
발음	4148
생성	4149
숲	4150
서술	4151
뿌리	4152
가하	4153
##옷	4154
하야	4155
근데	4156
52	4157
방문	4158
혁	4159
셋	4160
클럽	4161
앉	4162
합치	4163
컬	4164
쥐	4165
서버	4166
##릿	4167
유튜브	4168
닌	4169
조정	4170
##플레이	4171
렌	4172
장르	4173
##라이더	4174
##텐츠	4175
불과	4176
긴	4177
의도	4178
재료	4179
투표	4180
##ᅧ보	4181
소년	4182
금지	4183
반복	4184
You	4185
##마스	4186
가정	4187
의지	4188
정책	4189
함정	4190
지명	4191
트레이	4192
한국어	4193
는다는	4194
년대	4195
저격	4196
영입	4197
디지	4198
400	4199
최후	4200
캡	4201
보컬	4202
분리	4203
초대	4204
에어	4205
제안	4206
##랄	4207
보다	4208
따지	4209
채널	4210
##art	4211
원하	4212
##님	4213
박사	4214
##교육	4215
##ᆯ린	4216
##시브	4217
무사	4218
그저	4219
대비	4220
##지역	4221
##춘	4222
사태	4223
##런스	4224
편성	4225
여름	4226
외모	4227
##덜	4228
가져오	4229
고양이	4230
VS	4231
장기	4232
일차	4233
음반	4234
후속	4235
센터	4236
찾아오	4237
##도우	4238
##부대	4239
##솔	4240
##학자	4241
소식	4242
##랗	4243
49	4244
두번	4245
숫자	4246
스카	4247
흡수	4248
##뇌	4249
적극	4250
먹이	4251
느냐	4252
목숨	4253
엠	4254
탱	4255
지나가	4256
독자	4257
AP	4258
56	4259
눈물	4260
공략	4261
진입	4262
장난	4263
패러	4264
모험	4265
바닥	4266
블루	4267
##센터	4268
은퇴	4269
적절	4270
데스	4271
##사카	4272
오토	4273
생물	4274
왼쪽	4275
괴물	4276
셰	4277
##드라	4278
##달리	4279
##랜	4280
군단	4281
주력	4282
2001	4283
혐	4284
오오	4285
뉴스	4286
고등학교	4287
대학교	4288
##마트	4289
컨셉	4290
거짓	4291
아름	4292
택	4293
저지르	4294
살아남	4295
기자	4296
스테	4297
ᆫ지라	4298
흐르	4299
의심	4300
확보	4301
자료	4302
서브	4303
전화	4304
53	4305
약점	4306
노동	4307
원거리	4308
54	4309
개선	4310
코드	4311
필살	4312
제도	4313
오리지널	4314
...	4315
사과	4316
형성	4317
##콤	4318
##휴	4319
##ᅢᆼ기	4320
대단	4321
쓰러지	4322
관통	4323
단순히	4324
In	4325
PC	4326
겹	4327
걸치	4328
교통	4329
대장	4330
##어내	4331
##따	4332
다운	4333
##읍	4334
수호	4335
저주	4336
전술	4337
황금	4338
미리	4339
페르	4340
계기	4341
만원	4342
마침	4343
멘	4344
##핀	4345
촉	4346
브레이	4347
들이	4348
잘하	4349
##텀	4350
밥	4351
부수	4352
##헤	4353
##나미	4354
질문	4355
##즈키	4356
조각	4357
칠	4358
닮	4359
구축	4360
착용	4361
꾸준	4362
85	4363
상대방	4364
##스코	4365
##녕	4366
작성	4367
인류	4368
시티	4369
솔로	4370
유도	4371
풀리	4372
밸	4373
##나다	4374
훌	4375
##ia	4376
타임	4377
으	4378
##로우	4379
멈	4380
1990	4381
루이	4382
방해	4383
##렐	4384
기원	4385
집단	4386
##문화	4387
##깐	4388
비난	4389
삼국	4390
역전	4391
##ill	4392
##다이	4393
##워드	4394
스크	4395
##무원	4396
전환	4397
편하	4398
아프리카	4399
습격	4400
필수	4401
경상	4402
열차	4403
##팬	4404
##ie	4405
##전자	4406
##냐	4407
선보이	4408
승부	4409
족	4410
라디오	4411
##소년	4412
걷	4413
##레이션	4414
규정	4415
##북도	4416
##ᆸ터	4417
홈페이지	4418
데리	4419
##RA	4420
진정	4421
ST	4422
실시	4423
라이트	4424
##회사	4425
##젠	4426
##딘	4427
##IA	4428
삶	4429
클래스	4430
공부	4431
확실히	4432
회전	4433
유우	4434
모티브	4435
아름답	4436
무력	4437
##베이	4438
감안	4439
들리	4440
190	4441
##ik	4442
##전사	4443
엄마	4444
번호	4445
경계	4446
##쥐	4447
##케이	4448
수원	4449
등록	4450
##를	4451
##릉	4452
병원	4453
완료	4454
##쇠	4455
편집	4456
##렛	4457
어느정도	4458
남편	4459
힐	4460
비고	4461
테이	4462
승강	4463
아나	4464
##영상	4465
표정	4466
무섭	4467
쿨타임	4468
임명	4469
멈추	4470
지나치	4471
기지	4472
오른쪽	4473
비트	4474
딱히	4475
행복	4476
##술사	4477
허용	4478
본선	4479
친하	4480
희망	4481
죠	4482
##울리	4483
사장	4484
##붙이	4485
59	4486
##연히	4487
방패	4488
상처	4489
더블	4490
바탕	4491
코스트	4492
당장	4493
좁	4494
의문	4495
##ᆷ프	4496
태도	4497
유키	4498
고통	4499
엑	4500
탑재	4501
유래	4502
장군	4503
에이스	4504
##뉘	4505
##ab	4506
아시아	4507
고유	4508
인지	4509
날아가	4510
기점	4511
이스	4512
평화	4513
국회의	4514
비싸	4515
갤러	4516
스파이	4517
그레이	4518
##아리	4519
처치	4520
날개	4521
분야	4522
120	4523
선물	4524
빌리	4525
제압	4526
58	4527
민주당	4528
트랙	4529
대답	4530
##피아	4531
성인	4532
아요	4533
을까	4534
제시	4535
멸망	4536
하위	4537
챙기	4538
꼽	4539
##흑	4540
##est	4541
##크래프트	4542
가슴	4543
##대회	4544
주목	4545
57	4546
수리	4547
꺼내	4548
잠깐	4549
자라	4550
레인	4551
후지	4552
아웃	4553
##th	4554
MP	4555
중단	4556
갈리	4557
마크	4558
##홀	4559
##꼬	4560
##all	4561
로드	4562
이론	4563
탯	4564
멀티	4565
어라	4566
나뉘	4567
##놈	4568
퍼지	4569
##ea	4570
##어스	4571
거주	4572
사령	4573
66	4574
##터리	4575
한화	4576
95	4577
궤	4578
측면	4579
사항	4580
##라이트	4581
회장	4582
당선	4583
혜	4584
꼴	4585
윈	4586
가ᄇ	4587
검사	4588
시나리오	4589
주도	4590
멀리	4591
겨우	4592
포르	4593
##디아	4594
뮤직	4595
내려가	4596
다가	4597
##킨	4598
액션	4599
##소녀	4600
##전쟁	4601
눈치	4602
투자	4603
프레이	4604
년간	4605
주연	4606
공화국	4607
##헨	4608
##럴	4609
동맹	4610
뉴욕	4611
에다	4612
보급	4613
일본어	4614
##철도	4615
달라지	4616
약속	4617
Sh	4618
학원	4619
ᆯ수록	4620
##촉	4621
링	4622
우수	4623
교회	4624
보수	4625
앤	4626
테마	4627
드라이	4628
테러	4629
##나무	4630
텔레	4631
낳	4632
Lo	4633
온라인	4634
늘리	4635
##ct	4636
궁극	4637
시체	4638
가볍	4639
최악	4640
ddd	4641
on	4642
나타내	4643
조지	4644
카운터	4645
##라리	4646
1999	4647
망하	4648
##하라	4649
트래	4650
Re	4651
##피스	4652
자이	4653
가져가	4654
순서	4655
떼	4656
위주	4657
##섬	4658
배신	4659
좀비	4660
종합	4661
##륭	4662
대놓	4663
##초등학교	4664
해제	4665
견제	4666
컵	4667
소울	4668
가드	4669
포스	4670
110	4671
리어	4672
##바로	4673
함대	4674
##ddd	4675
dddddd	4676
보도	4677
Sp	4678
1998	4679
##두르	4680
현장	4681
오후	4682
##밀리	4683
카메라	4684
##타로	4685
##AL	4686
코너	4687
##어리	4688
산업	4689
지식	4690
##트로	4691
##오리	4692
계산	4693
엉	4694
연계	4695
핵심	4696
베이스	4697
##지원	4698
최대한	4699
##니어	4700
쿄	4701
살해	4702
나카	4703
ㅓ서	4704
##값	4705
##AT	4706
62	4707
##리트	4708
##PS	4709
디스	4710
예선	4711
귀족	4712
##워하	4713
해금	4714
국회의원	4715
폰	4716
직원	4717
제로	4718
인원	4719
료	4720
필살기	4721
중화	4722
덩	4723
틈	4724
##OR	4725
전장	4726
##렘	4727
##토스	4728
진실	4729
##VE	4730
콩	4731
귀엽	4732
외부	4733
분석	4734
거절	4735
퓨	4736
국가대표	4737
드물	4738
건너	4739
##유키	4740
이치	4741
특기	4742
쓰러	4743
이성	4744
##고기	4745
##주시	4746
유용	4747
##보스	4748
출생	4749
SS	4750
용병	4751
제조	4752
가르치	4753
SBS	4754
어울리	4755
소프트	4756
출발	4757
통일	4758
시내	4759
니코	4760
상하	4761
수사	4762
증거	4763
개편	4764
춤	4765
부리	4766
인형	4767
##맛	4768
애매	4769
는다고	4770
##들리	4771
기분	4772
부담	4773
##라우	4774
##시즌	4775
널	4776
##칼	4777
고서	4778
##ate	4779
지옥	4780
광역	4781
##아나	4782
##선거	4783
레이저	4784
뱀	4785
극장판	4786
흔히	4787
##ess	4788
##스카	4789
##사키	4790
커뮤	4791
겨울	4792
안하	4793
Th	4794
##ell	4795
##번호	4796
61	4797
##래도	4798
게이	4799
세계관	4800
갱	4801
불명	4802
어린	4803
민족	4804
##ard	4805
76	4806
한자	4807
##컷	4808
진영	4809
타자	4810
어떻	4811
##오프	4812
끼리	4813
단독	4814
자살	4815
영역	4816
타이밍	4817
##ang	4818
얼음	4819
버튼	4820
피해자	4821
발휘	4822
아무래도	4823
스트리	4824
서울특별	4825
겹치	4826
##IC	4827
카즈	4828
자동차	4829
##민주	4830
크로스	4831
##다수	4832
레전	4833
##바람	4834
##연구	4835
아침	4836
오스트	4837
홍콩	4838
##ue	4839
조준	4840
무게	4841
고급	4842
순수	4843
##기술	4844
##렴	4845
##ant	4846
플라	4847
##ack	4848
비록	4849
##대장	4850
##츠키	4851
공통	4852
##칠	4853
##ers	4854
부진	4855
패시브	4856
Al	4857
NP	4858
코치	4859
77	4860
댓	4861
장전	4862
케이스	4863
소수	4864
##ine	4865
로켓	4866
88	4867
두산	4868
1997	4869
구입	4870
72	4871
반란	4872
##서관	4873
##생활	4874
##심히	4875
브랜드	4876
여왕	4877
##나오	4878
자고	4879
##가락	4880
템	4881
탑승	4882
충돌	4883
한명	4884
혼란	4885
스피드	4886
몰리	4887
텐	4888
상자	4889
후반부	4890
막히	4891
통신	4892
장치	4893
기획	4894
기절	4895
만족	4896
##시티	4897
서울특별시	4898
##툰	4899
문자	4900
내주	4901
협력	4902
외치	4903
인생	4904
파악	4905
##브리	4906
군인	4907
삽	4908
넥	4909
탄생	4910
끌어	4911
롱	4912
테크	4913
아오	4914
꾸준히	4915
왕자	4916
게이지	4917
생일	4918
판타	4919
BG	4920
ㅕ서	4921
우려	4922
##디션	4923
근거	4924
##웨어	4925
##둑	4926
어그	4927
##ok	4928
##샷	4929
##OS	4930
코어	4931
부인	4932
##납	4933
안습	4934
##갖	4935
업무	4936
닥터	4937
무너지	4938
실질	4939
##멍	4940
##붕	4941
##팡	4942
##트롤	4943
카페	4944
관광	4945
##자키	4946
be	4947
납치	4948
강조	4949
##포트	4950
등등	4951
373	4952
FI	4953
채용	4954
반영	4955
붕괴	4956
융	4957
공산	4958
더하	4959
스프	4960
톤	4961
게시	4962
or	4963
##카와	4964
자르	4965
위키	4966
돌격	4967
미군	4968
98	4969
fff	4970
프레	4971
아메	4972
훌륭	4973
온갖	4974
쏟	4975
##융	4976
쳐	4977
듀얼	4978
CD	4979
장수	4980
##노스	4981
gt	4982
마이크	4983
엑스	4984
대공	4985
아라	4986
점차	4987
마왕	4988
##돌리	4989
맡기	4990
##리티	4991
##릇	4992
##ive	4993
밸런스	4994
수단	4995
랜덤	4996
##파이어	4997
스킨	4998
없애	4999
600	5000
반격	5001
자격	5002
패러디	5003
##상태	5004
주어지	5005
##메달	5006
##컴	5007
##사건	5008
용도	5009
댄스	5010
경향	5011
값	5012
홍보	5013
쪼	5014
필리	5015
구역	5016
지하철	5017
공군	5018
##도시	5019
대다수	5020
울트라	5021
찾아가	5022
내놓	5023
공항	5024
1996	5025
##정보	5026
##켄	5027
설득	5028
위원	5029
권력	5030
어차	5031
살짝	5032
제주	5033
입학	5034
고민	5035
어차피	5036
주년	5037
##ast	5038
##셰	5039
가로	5040
언니	5041
승강장	5042
지시	5043
PS	5044
돌파	5045
##옹	5046
표준	5047
##세우	5048
##AS	5049
가까이	5050
체제	5051
##다지	5052
대놓고	5053
1995	5054
지급	5055
아야	5056
커버	5057
영원	5058
화살	5059
실행	5060
감염	5061
아사	5062
가입	5063
또다	5064
적당	5065
대륙	5066
입수	5067
브라질	5068
충전	5069
##중학교	5070
응원	5071
작사	5072
ㅓ야	5073
##오카	5074
베르	5075
제기	5076
##uby	5077
",	5078
캐나다	5079
집안	5080
##ED	5081
##은행	5082
##가능	5083
미야	5084
##tt	5085
봄	5086
당황	5087
갤러리	5088
68	5089
즉시	5090
##ee	5091
##로그	5092
내려오	5093
이렇	5094
자식	5095
은근	5096
lt	5097
800	5098
불안	5099
신화	5100
열심히	5101
##삭	5102
연방	5103
##교통	5104
스페셜	5105
뒤집	5106
별도	5107
체인	5108
여러가지	5109
여부	5110
오프닝	5111
신뢰	5112
##농	5113
폐지	5114
##시지	5115
북미	5116
매치	5117
63	5118
증명	5119
밟	5120
1980	5121
명예	5122
유형	5123
경력	5124
##묵	5125
##아먹	5126
돌진	5127
정령	5128
##친구	5129
한때	5130
##찾	5131
##ong	5132
보물	5133
##호사	5134
##AM	5135
ruby	5136
빵	5137
괴롭	5138
단일	5139
##독교	5140
도구	5141
아리	5142
운명	5143
이승	5144
찌르	5145
가면라이더	5146
후쿠	5147
모션	5148
마련	5149
균	5150
에스	5151
##ort	5152
김성	5153
선배	5154
이슬	5155
흘리	5156
##레기	5157
군주	5158
라이벌	5159
교환	5160
##ᆮ히	5161
비율	5162
##데스	5163
덮	5164
카르	5165
계승	5166
싱	5167
마녀	5168
##덩	5169
룰	5170
##트남	5171
##관리	5172
랭	5173
댓글	5174
##효과	5175
##ith	5176
근무	5177
횟수	5178
##스트라	5179
재생	5180
오해	5181
경유	5182
중계	5183
71	5184
##if	5185
##아버지	5186
74	5187
습득	5188
드랍	5189
수입	5190
주전	5191
함선	5192
쿼	5193
불만	5194
정말로	5195
내내	5196
##ly	5197
트위터	5198
##스탄	5199
커뮤니티	5200
##비전	5201
##미야	5202
조조	5203
시행	5204
##fff	5205
....	5206
MV	5207
##ld	5208
하수	5209
원수	5210
전라	5211
재판	5212
장식	5213
마츠	5214
##히로	5215
그곳	5216
몹	5217
##ᆯ릭	5218
갓	5219
73	5220
67	5221
고속	5222
셔	5223
ffffff	5224
혁명	5225
고전	5226
그라	5227
##타이	5228
레전드	5229
박살	5230
오픈	5231
알렉	5232
주위	5233
절반	5234
가리키	5235
추진	5236
##티컬	5237
격투	5238
지우	5239
##가스	5240
딜러	5241
짜리	5242
남부	5243
메이저	5244
##렁	5245
아우	5246
붙잡	5247
닿	5248
울산	5249
##빵	5250
컨트롤	5251
##보내	5252
외국인	5253
심장	5254
단위	5255
별개	5256
##겨나	5257
계급	5258
취소	5259
NC	5260
처하	5261
##ain	5262
일대	5263
##ist	5264
96	5265
##공사	5266
민간	5267
파이터	5268
지ᄏ	5269
회의	5270
덴	5271
등판	5272
암흑	5273
1994	5274
##ind	5275
소문	5276
옹	5277
##데이	5278
가득	5279
늑	5280
##시안	5281
##보드	5282
재능	5283
TH	5284
정권	5285
북쪽	5286
##ᆨ터	5287
그다지	5288
스파	5289
연예	5290
쌓이	5291
크루	5292
안드로	5293
예술	5294
감사	5295
##서트	5296
마주	5297
180	5298
고치	5299
닉	5300
공유	5301
해방	5302
##퍼스	5303
쇠	5304
아티	5305
피해량	5306
격파	5307
퀄	5308
##기간	5309
지점	5310
남쪽	5311
AC	5312
건강	5313
##지컬	5314
문명	5315
그동안	5316
스트라이	5317
외교	5318
##ᆷ치	5319
와이	5320
스코어	5321
##럿	5322
##베르	5323
81	5324
AT	5325
파리	5326
헤이	5327
네이버	5328
장애	5329
초월	5330
강원	5331
##가와	5332
사운드	5333
핀	5334
든지	5335
튜	5336
발매되	5337
공작	5338
일부러	5339
그만큼	5340
결승전	5341
다행히	5342
차별	5343
전방	5344
##per	5345
##바르	5346
로스	5347
임시	5348
압박	5349
잉	5350
##가리	5351
소멸	5352
널리	5353
전달	5354
##아웃	5355
하트	5356
##ps	5357
##구역	5358
##톱	5359
기독교	5360
화장	5361
공장	5362
레오	5363
##EN	5364
##워크	5365
##랭	5366
입단	5367
##티나	5368
문제점	5369
##버트	5370
흔하	5371
쓰러뜨리	5372
따오	5373
그림자	5374
적히	5375
깃	5376
텍	5377
##깝	5378
카나	5379
고기	5380
지켜보	5381
피아	5382
판타지	5383
타점	5384
##식간	5385
공사	5386
무적	5387
따위	5388
맞서	5389
화려	5390
##EC	5391
물러	5392
자는	5393
헤드	5394
치명타	5395
갑옷	5396
##마을	5397
78	5398
브리	5399
91	5400
스튜	5401
##거나	5402
프로듀서	5403
##OL	5404
거래	5405
갈등	5406
유비	5407
말리	5408
순식간	5409
본명	5410
지형	5411
여동생	5412
무난	5413
공기	5414
오로	5415
##ew	5416
제이	5417
여론	5418
건축	5419
선호	5420
##때문	5421
일상	5422
##ᅫ지	5423
컨텐츠	5424
연사	5425
시야	5426
폭풍	5427
짝	5428
여신	5429
드립	5430
써	5431
84	5432
CP	5433
##투스	5434
##모드	5435
##ᆼ이	5436
##탐	5437
체육	5438
컷	5439
최상	5440
체포	5441
사단	5442
패스	5443
러브	5444
##넣	5445
##LC	5446
##멜	5447
관객	5448
me	5449
미스	5450
##ry	5451
크리티컬	5452
##일랜드	5453
오랜	5454
첫번	5455
드디어	5456
유로	5457
전투력	5458
##려움	5459
수있	5460
체계	5461
가토	5462
82	5463
##타인	5464
불꽃	5465
바라보	5466
자치	5467
페이스	5468
삼진	5469
용어	5470
##lo	5471
전역	5472
추적	5473
##껏	5474
복잡	5475
##둔	5476
무지	5477
섭	5478
매력	5479
늑대	5480
##영화	5481
97	5482
파이널	5483
##레이터	5484
대만	5485
사쿠라	5486
한국인	5487
아무런	5488
##펠	5489
##사항	5490
경영	5491
##덜란드	5492
전함	5493
낭	5494
86	5495
도달	5496
락	5497
##프로	5498
고향	5499
영토	5500
맞이	5501
상향	5502
무르	5503
##어오	5504
대원	5505
파견	5506
##공항	5507
##ᆷ새	5508
빔	5509
폭주	5510
해설	5511
##레나	5512
##ᆯ리아	5513
##병대	5514
떡밥	5515
작동	5516
폼	5517
##둥이	5518
##셋	5519
사전	5520
동원	5521
네덜란드	5522
페이지	5523
트로	5524
##모로	5525
it	5526
푸르	5527
변형	5528
현지	5529
셀	5530
69	5531
##어버리	5532
다시	5533
다시피	5534
한방	5535
몰래	5536
추락	5537
화이트	5538
인수	5539
요새	5540
덧	5541
그치	5542
수용	5543
조용	5544
연관	5545
아무것	5546
쿠로	5547
수학	5548
참전	5549
프라	5550
개통	5551
is	5552
메탈	5553
##믹	5554
오류	5555
추격	5556
NPC	5557
출판	5558
막장	5559
달하	5560
생명력	5561
출현	5562
##IT	5563
상품	5564
충청	5565
교황	5566
일제	5567
##바일	5568
##동차	5569
작용	5570
둘러	5571
파라	5572
돌아다니	5573
매일	5574
##고리	5575
만든	5576
틀리	5577
프리미	5578
US	5579
##과학	5580
##아파트	5581
##디언	5582
해체	5583
메가	5584
박스	5585
향상	5586
경험치	5587
MS	5588
통제	5589
중학교	5590
복장	5591
##더스	5592
신인	5593
까다	5594
놓치	5595
나루	5596
낚	5597
리버	5598
An	5599
옛날	5600
구현	5601
왕조	5602
##마이	5603
##윈	5604
녹음	5605
동쪽	5606
아파트	5607
입력	5608
##어도	5609
김정	5610
이시	5611
북부	5612
##티드	5613
알아	5614
##먼트	5615
##깔	5616
굽	5617
##ᆼ글랜드	5618
조성	5619
##ust	5620
오빠	5621
서부	5622
환상	5623
교사	5624
스마트	5625
##교회	5626
베트남	5627
가이	5628
신규	5629
크레	5630
수업	5631
예외	5632
언제나	5633
보정	5634
환자	5635
노출	5636
긍	5637
##국가	5638
범인	5639
기초	5640
250	5641
종점	5642
총기	5643
KT	5644
##네이	5645
##티아	5646
출장	5647
연애	5648
스카이	5649
구체	5650
##연합	5651
##50	5652
##니까	5653
되찾	5654
##뜩	5655
메타	5656
일원	5657
##단체	5658
##수록	5659
회원	5660
에드	5661
토모	5662
인근	5663
심리	5664
##구리	5665
묶	5666
타워	5667
시각	5668
편지	5669
##병원	5670
영문	5671
##시타	5672
갤	5673
##츄	5674
여러모로	5675
신고	5676
##류장	5677
189	5678
대립	5679
쓰레기	5680
거짓말	5681
수요	5682
제자	5683
한마	5684
##ᅢᆼ이	5685
##요시	5686
쿠키	5687
##과정	5688
보장	5689
신라	5690
마인	5691
사토	5692
의상	5693
불편	5694
불과하	5695
신청	5696
전형	5697
##릭스	5698
연락	5699
##리스트	5700
기어	5701
어깨	5702
수집	5703
202	5704
접하	5705
편의	5706
신분	5707
1992	5708
##전차	5709
팝	5710
##야구	5711
##사기	5712
평타	5713
전면	5714
유희	5715
양산	5716
무료	5717
##조리	5718
##킥	5719
창작	5720
천사	5721
차단	5722
서쪽	5723
마리아	5724
신성	5725
기여	5726
92	5727
##흡	5728
##BO	5729
검색	5730
##ore	5731
키리	5732
##저히	5733
모바일	5734
부품	5735
##버프	5736
영업	5737
이중	5738
Ar	5739
반지	5740
##펙트	5741
띄우	5742
노예	5743
겉	5744
대체로	5745
세월	5746
동부	5747
전직	5748
진지	5749
반발	5750
학살	5751
묵	5752
자이언	5753
83	5754
감시	5755
##핵	5756
고생	5757
이날	5758
마리오	5759
주먹	5760
성과	5761
심판	5762
탁	5763
##륜	5764
폴란드	5765
대량	5766
Te	5767
구속	5768
호평	5769
##조사	5770
상상	5771
제하	5772
89	5773
대우	5774
잖아	5775
##좋	5776
제작진	5777
하고	5778
블록	5779
클로	5780
내구	5781
##FF	5782
101	5783
휘두르	5784
기기	5785
93	5786
반하	5787
정지	5788
##라크	5789
1993	5790
##일드	5791
다섯	5792
##사고	5793
제법	5794
출처	5795
무효	5796
승격	5797
De	5798
프린	5799
MAX	5800
테스트	5801
콘서트	5802
침공	5803
식물	5804
기습	5805
##성기	5806
뼈	5807
닌자	5808
동영상	5809
이득	5810
윌리	5811
한타	5812
94	5813
스폰	5814
랩	5815
이랑	5816
잉글랜드	5817
그래픽	5818
이래	5819
##프리	5820
쉐	5821
더빙	5822
##시설	5823
창조	5824
코믹스	5825
보석	5826
잠수	5827
경기장	5828
com	5829
맘	5830
79	5831
적어도	5832
알파	5833
##빨	5834
마도	5835
멋지	5836
연상	5837
지도자	5838
은하	5839
##ᆨ시코	5840
요즘	5841
폭력	5842
조심	5843
##FC	5844
저장	5845
꼬리	5846
실드	5847
re	5848
이리	5849
동방	5850
##땅	5851
합격	5852
##구치	5853
겐	5854
다이아	5855
찰	5856
니시	5857
##쩡	5858
비디오	5859
다면서	5860
87	5861
##란색	5862
엔터	5863
##쌍	5864
메카	5865
##스팅	5866
극단	5867
##사업	5868
볼넷	5869
헌터	5870
##가미	5871
글로	5872
하수인	5873
공급	5874
마이클	5875
통상	5876
노멀	5877
박근	5878
뛰어	5879
길이	5880
음성	5881
##사자	5882
똑같이	5883
##그라	5884
##페인	5885
스펙	5886
구출	5887
##one	5888
대략	5889
훔치	5890
On	5891
시위	5892
##닫	5893
파일럿	5894
##로나	5895
이재	5896
교전	5897
회차	5898
##닛	5899
밴	5900
##그룹	5901
종이	5902
후기	5903
##공원	5904
전투기	5905
동작	5906
##se	5907
런던	5908
어지	5909
##ip	5910
경비	5911
결성	5912
##활동	5913
##김	5914
합성	5915
토론	5916
상점	5917
지휘관	5918
사령관	5919
##AC	5920
유령	5921
국립	5922
어째	5923
도망가	5924
##코드	5925
AI	5926
DJ	5927
물질	5928
고용	5929
어드	5930
##RE	5931
익숙	5932
운전	5933
아크	5934
아머	5935
바보	5936
이슬람	5937
웨이	5938
같이	5939
었었	5940
헨	5941
서양	5942
수영	5943
##ere	5944
스웨	5945
##창기	5946
나아가	5947
탄약	5948
킬	5949
젠	5950
득표	5951
동네	5952
##PG	5953
폭격	5954
갤럭	5955
소화	5956
퀸	5957
##널티	5958
BGM	5959
프레임	5960
MC	5961
회수	5962
인공	5963
곰	5964
신경쓰	5965
장관	5966
어둡	5967
SN	5968
사마	5969
경고	5970
이내	5971
활성	5972
##넬	5973
콜라	5974
##의원	5975
의혹	5976
##렉스	5977
묻히	5978
법률	5979
샷	5980
##쾌	5981
##ity	5982
썰	5983
불법	5984
권총	5985
냐며	5986
##바라	5987
##ath	5988
태우	5989
조절	5990
##녁	5991
##블리	5992
규칙	5993
조치	5994
플레이오프	5995
디지털	5996
전적	5997
##미스	5998
홀로	5999
겁	6000
##스킬	6001
라이더	6002
동기	6003
유행	6004
수송	6005
김영	6006
들어서	6007
으니까	6008
호감	6009
##마루	6010
부문	6011
간부	6012
투구	6013
##공화국	6014
문장	6015
FIFA	6016
요괴	6017
##사회	6018
지르	6019
##인민	6020
##마법	6021
려다	6022
웬만	6023
##부장	6024
##end	6025
제임	6026
##테르	6027
##부르크	6028
결론	6029
##끄럽	6030
1991	6031
칼리	6032
이명	6033
모리	6034
터키	6035
취임	6036
불러	6037
빛나	6038
움직임	6039
자매	6040
##스턴	6041
원소	6042
다하	6043
매니	6044
앞두	6045
글자	6046
멕시코	6047
곧바로	6048
저그	6049
##슬리	6050
제어	6051
!!	6052
가톨릭	6053
##메이크	6054
펀	6055
탱커	6056
실리	6057
정면	6058
아기	6059
엘프	6060
쾌	6061
틱	6062
찾아보	6063
일시	6064
포탑	6065
여유	6066
특화	6067
진심	6068
너무나	6069
키스	6070
##대사	6071
THE	6072
##그마	6073
700	6074
FA	6075
예측	6076
메인	6077
문학	6078
##장치	6079
##배우	6080
오랫	6081
가시	6082
박정	6083
소닉	6084
절망	6085
##놀	6086
타케	6087
소드	6088
신문	6089
흥행	6090
수술	6091
ㅕㅆ	6092
도발	6093
전공	6094
구원	6095
의무	6096
신호	6097
근육	6098
착각	6099
정복	6100
사자	6101
총리	6102
시드	6103
끼치	6104
1988	6105
유대	6106
##지방	6107
제임스	6108
개정	6109
MVP	6110
외계	6111
듯이	6112
리메이크	6113
##둘	6114
국방	6115
아끼	6116
토크	6117
요정	6118
캔	6119
연대	6120
개체	6121
떠오르	6122
육성	6123
넘치	6124
##타자	6125
브루	6126
그대	6127
##지마	6128
초창기	6129
객	6130
좌우	6131
고백	6132
출력	6133
##가드	6134
소형	6135
##레드	6136
깎	6137
##네스	6138
강철	6139
파이어	6140
여지	6141
팀원	6142
차라리	6143
번개	6144
##커스	6145
Ro	6146
물러나	6147
긍정	6148
##OT	6149
인정받	6150
베스트	6151
잦	6152
피부	6153
초등학교	6154
인연	6155
목격	6156
예비	6157
파트너	6158
샘	6159
정착	6160
##행위	6161
##ᆸ스	6162
##아시아	6163
챕터	6164
탱크	6165
연도	6166
아일랜드	6167
요코	6168
CC	6169
에서부터	6170
계정	6171
어린이	6172
상호	6173
앵	6174
##그리	6175
##팩트	6176
바치	6177
플랫	6178
##속도로	6179
##닌	6180
Wh	6181
타이거	6182
블러	6183
핫	6184
전시	6185
발달	6186
위장	6187
안드로이드	6188
카미	6189
##작용	6190
영향력	6191
섞	6192
켜	6193
이주	6194
길드	6195
는다면	6196
빗	6197
예고	6198
AK	6199
묘지	6200
식민	6201
신설	6202
슬롯	6203
세이브	6204
##지로	6205
히데	6206
내장	6207
대항	6208
헌법	6209
떠올리	6210
##세스	6211
미츠	6212
##자드	6213
##마크	6214
몰아	6215
곁	6216
차트	6217
블리	6218
박근혜	6219
##ect	6220
오스	6221
각자	6222
##티스	6223
DLC	6224
오사카	6225
하필	6226
깨지	6227
대폭	6228
명중률	6229
htt	6230
라면서	6231
고문	6232
Se	6233
##포터	6234
##카리	6235
1970	6236
코인	6237
##평가	6238
청년	6239
사양	6240
예능	6241
농구	6242
갤럭시	6243
##잡이	6244
양쪽	6245
후속작	6246
으려고	6247
##터스	6248
##브라	6249
최소한	6250
Le	6251
마침내	6252
##죠	6253
호주	6254
수록곡	6255
분기	6256
의뢰	6257
아바	6258
##저스	6259
어다	6260
훗	6261
챠	6262
꺾	6263
'.	6264
본작	6265
강의	6266
##도르	6267
게스트	6268
악역	6269
관할	6270
##위키	6271
##대상	6272
주간	6273
전후	6274
협박	6275
콜로	6276
현역	6277
##시리즈	6278
누적	6279
국왕	6280
##이즈	6281
공지	6282
저녁	6283
He	6284
용사	6285
##케이드	6286
인증	6287
##시오	6288
##무장	6289
오랫동안	6290
##미니	6291
세르	6292
그럼	6293
PD	6294
막차	6295
골든	6296
루타	6297
안내	6298
##age	6299
신기	6300
##IS	6301
##의회	6302
아빠	6303
미카	6304
우리나라	6305
기원전	6306
부서	6307
al	6308
첨	6309
일자	6310
역임	6311
##테이	6312
넷	6313
방출	6314
의존	6315
구멍	6316
육체	6317
가속	6318
괴롭히	6319
##나카	6320
전선	6321
메모리	6322
카오스	6323
적대	6324
분량	6325
어쨌	6326
세종	6327
##랭크	6328
##지대	6329
kt	6330
감옥	6331
부부	6332
망치	6333
##어나오	6334
올해	6335
##무르	6336
마구	6337
연인	6338
##에이	6339
장교	6340
Go	6341
다가오	6342
##필드	6343
터치	6344
Me	6345
이지	6346
원자	6347
##앞	6348
간혹	6349
비행기	6350
장악	6351
이끄	6352
##박스	6353
오늘날	6354
요원	6355
명성	6356
년만	6357
강남	6358
실버	6359
##겐	6360
노부	6361
빌드	6362
개방	6363
주말	6364
##몸	6365
일본군	6366
융합	6367
카라	6368
##물관	6369
ᆫ다며	6370
썩	6371
예쁘	6372
앱	6373
깜	6374
정치인	6375
놀랍	6376
노르	6377
##워치	6378
GT	6379
처벌	6380
가량	6381
대처	6382
오가	6383
출마	6384
김태	6385
왼	6386
1989	6387
형사	6388
KIA	6389
투어	6390
떨어	6391
안티	6392
써먹	6393
놓이	6394
은행	6395
지능	6396
##og	6397
포스트	6398
바위	6399
##ake	6400
##몬드	6401
##ide	6402
##ᆷ없	6403
배트	6404
##쿨	6405
상당수	6406
한동안	6407
빡	6408
트레이드	6409
개성	6410
이집	6411
스튜디오	6412
희귀	6413
외형	6414
재미있	6415
##가시	6416
춘	6417
오전	6418
전문가	6419
먹히	6420
##OM	6421
Be	6422
십자	6423
My	6424
무덤	6425
화제	6426
피격	6427
WW	6428
패하	6429
커지	6430
##경찰	6431
호텔	6432
사제	6433
오른	6434
준수	6435
이즈	6436
대지	6437
##덱	6438
접촉	6439
##타입	6440
환승	6441
섞이	6442
부위	6443
의료	6444
130	6445
##제국	6446
꼽히	6447
갇히	6448
환영	6449
고교	6450
둘째	6451
윌리엄	6452
##려주	6453
소원	6454
뺏	6455
흠	6456
고마	6457
담기	6458
샌	6459
포르투	6460
대표팀	6461
횡	6462
씌	6463
AR	6464
##틱	6465
가게	6466
빚	6467
##ss	6468
룬	6469
펠	6470
허리	6471
SC	6472
이집트	6473
##ark	6474
최다	6475
합의	6476
소총	6477
오스트리아	6478
플로	6479
초간	6480
섀	6481
인조	6482
##우드	6483
##ime	6484
깨닫	6485
##ire	6486
따라가	6487
SM	6488
멍	6489
편곡	6490
선전	6491
##천시	6492
##치기	6493
##문제	6494
정류장	6495
##ᅦ인트	6496
국회	6497
수련	6498
188	6499
##말리	6500
논리	6501
웹툰	6502
으러	6503
wh	6504
아니면	6505
116	6506
확대	6507
손가락	6508
알렉산	6509
뜬	6510
구도	6511
전진	6512
핸드	6513
my	6514
Su	6515
문재	6516
##네임	6517
##ES	6518
##듭	6519
은근히	6520
전신	6521
삼국지	6522
##누스	6523
넉	6524
SD	6525
귀신	6526
어른	6527
ㅓ도	6528
##노우	6529
##마리	6530
알아보	6531
상업	6532
##산업	6533
흐름	6534
##ID	6535
입구	6536
극복	6537
##안타	6538
고등	6539
성립	6540
소지	6541
태그	6542
소중	6543
치우	6544
권리	6545
대개	6546
더더	6547
연타	6548
Tr	6549
아가	6550
미디어	6551
뭉	6552
는지라	6553
스웨덴	6554
국가대표팀	6555
청소년	6556
##닉스	6557
##ite	6558
정글	6559
새벽	6560
팔리	6561
접속	6562
수수	6563
##던가	6564
독특	6565
##리안	6566
별다르	6567
고구	6568
익히	6569
튀어나오	6570
##다랗	6571
변호사	6572
무렵	6573
할아버지	6574
부디	6575
##덩이	6576
무겁	6577
##맨드	6578
일격	6579
모모	6580
유이	6581
뻐	6582
축제	6583
태평	6584
##룸	6585
조언	6586
굴리	6587
수십	6588
라이프	6589
160	6590
##ound	6591
블레이드	6592
리치	6593
작곡가	6594
편입	6595
연극	6596
멀쩡	6597
SR	6598
페이즈	6599
칭하	6600
##iv	6601
동의	6602
일찍	6603
바이러스	6604
일일	6605
더더욱	6606
HD	6607
''	6608
##플리	6609
팬덤	6610
브레이크	6611
차리	6612
퀄리티	6613
평가받	6614
##쳐지	6615
빼앗기	6616
병기	6617
까다롭	6618
##스틱	6619
음원	6620
보안	6621
##눈	6622
혐의	6623
원본	6624
블로그	6625
##협회	6626
##큐어	6627
카타	6628
시즈	6629
##iz	6630
##OP	6631
바이오	6632
##ge	6633
한마디	6634
훗날	6635
권한	6636
##일러	6637
위상	6638
기사단	6639
##쩍	6640
허나	6641
랭킹	6642
윌	6643
검찰	6644
첫차	6645
돼지	6646
적군	6647
##게이	6648
절대로	6649
IC	6650
대가	6651
##항공	6652
##속성	6653
클래식	6654
손해	6655
살아가	6656
챔피언스	6657
##지구	6658
주식	6659
사카	6660
식사	6661
##OW	6662
메리	6663
대충	6664
구나	6665
##시로	6666
보관	6667
##스톤	6668
면역	6669
##주인	6670
합체	6671
증언	6672
대리	6673
##사관	6674
주포	6675
##잠	6676
뜯	6677
처형	6678
갈수록	6679
죄다	6680
##감독	6681
각본	6682
시선	6683
적응	6684
하얗	6685
##리얼	6686
계단	6687
한쪽	6688
무릎	6689
미술	6690
네임	6691
##아프	6692
참석	6693
금속	6694
##ᆼ기	6695
리듬	6696
꽂	6697
공공	6698
매직	6699
과연	6700
아트	6701
흘	6702
결코	6703
모자라	6704
험	6705
개시	6706
우위	6707
마이너	6708
##사령	6709
한참	6710
내성	6711
개입	6712
##무시	6713
##머스	6714
결합	6715
##코토	6716
누나	6717
전철	6718
스승	6719
후방	6720
미소	6721
기적	6722
##리코	6723
##법원	6724
량	6725
##LL	6726
시계	6727
둔	6728
스톰	6729
해안	6730
토르	6731
##ome	6732
사도	6733
활발	6734
동화	6735
지진	6736
정수	6737
헤비	6738
브로	6739
천재	6740
수익	6741
슈팅	6742
다음날	6743
##크로	6744
Gr	6745
##공학	6746
불교	6747
##갛	6748
첼	6749
연구소	6750
데이비	6751
해상	6752
##튀	6753
##고속	6754
경기력	6755
신세	6756
내세우	6757
핑	6758
크리스마스	6759
##전대	6760
치유	6761
with	6762
우연히	6763
김민	6764
사이즈	6765
원칙	6766
##BA	6767
유물	6768
최종보스	6769
##지사	6770
루시	6771
디버프	6772
털리	6773
이영	6774
컬러	6775
##UN	6776
루수	6777
캐스팅	6778
자금	6779
보고	6780
유치	6781
캠페인	6782
커맨드	6783
개막	6784
통치	6785
##키아	6786
연료	6787
김종	6788
오래되	6789
스타크래프트	6790
사막	6791
세포	6792
데려오	6793
이민	6794
비추	6795
##범위	6796
위대	6797
##싸움	6798
보라	6799
선출	6800
IS	6801
지위	6802
투명	6803
칭찬	6804
의회	6805
게이트	6806
인지도	6807
결말	6808
회상	6809
메뉴	6810
오카	6811
충성	6812
이자	6813
##비치	6814
전성기	6815
이글	6816
##일보	6817
해적	6818
##양함	6819
1987	6820
##데미	6821
플랫폼	6822
추가바람	6823
de	6824
업체	6825
녹색	6826
전멸	6827
BE	6828
흔들리	6829
##우리	6830
##방식	6831
px	6832
정찰	6833
열쇠	6834
어지간	6835
140	6836
김동	6837
나치	6838
정비	6839
이정	6840
##타카	6841
눈치채	6842
느라	6843
##MA	6844
구사	6845
미나	6846
Pr	6847
도서관	6848
흔적	6849
삐	6850
거인	6851
네오	6852
이식	6853
데모	6854
상태이상	6855
신비	6856
##ord	6857
무작	6858
Love	6859
방사	6860
##어서	6861
상급	6862
어쨌든	6863
자국	6864
오직	6865
띠	6866
새기	6867
일반인	6868
더라	6869
호위	6870
웃음	6871
주기	6872
##ud	6873
아미	6874
어마	6875
취미	6876
작화	6877
##주의자	6878
구경	6879
##쥬	6880
고수	6881
펴	6882
지속시간	6883
##짱	6884
제정	6885
대대	6886
농담	6887
후계	6888
프리큐어	6889
##뒤	6890
안경	6891
어려움	6892
포트	6893
ch	6894
헛	6895
레이드	6896
날짜	6897
##콜	6898
화성	6899
사이드	6900
도주	6901
##멘트	6902
으시	6903
챌린	6904
행적	6905
해리	6906
패션	6907
모래	6908
본체	6909
회말	6910
개량	6911
##ᆯ라이	6912
불타	6913
##mp	6914
##주민	6915
고스트	6916
매년	6917
##사람	6918
모조리	6919
##첨	6920
거점	6921
##블린	6922
하락	6923
##10	6924
사후	6925
당일	6926
##뜻	6927
생존자	6928
##ame	6929
윙	6930
UE	6931
##반도	6932
아이스	6933
##ance	6934
시달리	6935
톰	6936
개수	6937
헝	6938
의대	6939
SKT	6940
##ax	6941
켈	6942
남북	6943
네트	6944
흥미	6945
둥	6946
##밤	6947
코코	6948
상성	6949
로그	6950
진보	6951
##빌리	6952
코우	6953
자세히	6954
동굴	6955
an	6956
##려나	6957
스마트폰	6958
JR	6959
가짜	6960
##ure	6961
기울	6962
일본인	6963
##ix	6964
900	6965
기ᄈ	6966
##회장	6967
GS	6968
관중	6969
기르	6970
##시스트	6971
##문학	6972
메르	6973
##기업	6974
##ick	6975
##mer	6976
비례	6977
누리	6978
채택	6979
##ᆫ지	6980
일방	6981
덧붙이	6982
##스ᄐ	6983
국적	6984
개혁	6985
캡틴	6986
식량	6987
##ice	6988
포격	6989
아티스트	6990
##클리	6991
예시	6992
임대	6993
가을	6994
스프링	6995
뮈	6996
업적	6997
재현	6998
##힐	6999
##our	7000
화학	7001
##자치	7002
##음악	7003
Bo	7004
행하	7005
유나이	7006
유니폼	7007
##월드	7008
궤도	7009
귀찮	7010
방지	7011
바까	7012
기용	7013
울리	7014
바깥	7015
잘못되	7016
영구	7017
집어	7018
피아노	7019
##아다니	7020
생겨나	7021
며	7022
승점	7023
리미	7024
연패	7025
스톤	7026
신부	7027
EP	7028
노인	7029
##랑이	7030
식민지	7031
##버스터	7032
소속사	7033
추구	7034
곽	7035
1986	7036
협상	7037
##위대	7038
거듭	7039
몽골	7040
##곱	7041
##지르	7042
날아오	7043
볼트	7044
미안	7045
자리잡	7046
##인민공화국	7047
잠재	7048
자극	7049
할머니	7050
##투수	7051
사형	7052
선택지	7053
1960	7054
단편	7055
특집	7056
##역사	7057
OST	7058
양성	7059
##올	7060
무방	7061
신앙	7062
##류탄	7063
저작	7064
스탠	7065
잡지	7066
디아	7067
이익	7068
빨갛	7069
KO	7070
##{{	7071
##헬	7072
Un	7073
예수	7074
제갈	7075
취향	7076
공원	7077
종목	7078
##차량	7079
쌍둥이	7080
중장	7081
간신	7082
숭	7083
##룩	7084
스턴	7085
##프레	7086
라이온	7087
Ex	7088
##얄	7089
프라이	7090
아즈	7091
##시험	7092
을	7093
비주	7094
출입	7095
제작자	7096
일치	7097
리드	7098
기병	7099
소장	7100
넥센	7101
소위	7102
##개발	7103
잘리	7104
명확	7105
##AD	7106
정원	7107
##qu	7108
##리온	7109
타인	7110
전주	7111
##캔	7112
##페이	7113
무역	7114
강요	7115
어택	7116
몰락	7117
포항	7118
나포	7119
야스	7120
##럼프	7121
예산	7122
포로	7123
그러니	7124
호수	7125
##듈	7126
캐리	7127
초보	7128
##oc	7129
다치	7130
총선	7131
##캠	7132
씹	7133
사신	7134
{{{	7135
부자	7136
안타깝	7137
판매량	7138
콜라보	7139
유희왕	7140
즐겁	7141
##처리	7142
그만두	7143
막대	7144
사우	7145
##80	7146
레이스	7147
타락	7148
조약	7149
##우승	7150
##폴	7151
가상	7152
킥	7153
실망	7154
터뜨리	7155
GB	7156
##학원	7157
크라	7158
재산	7159
색깔	7160
곡명	7161
##ᆫ색	7162
찾아내	7163
##라엘	7164
둘러싸	7165
UEFA	7166
##센트	7167
연승	7168
단단	7169
화물	7170
세이버	7171
##레벨	7172
깔끔	7173
기도	7174
즉위	7175
##병기	7176
등지	7177
휴대	7178
유나이티드	7179
DS	7180
##도로	7181
귀환	7182
비상	7183
186	7184
##거지	7185
##own	7186
sh	7187
##ys	7188
##딧	7189
##작전	7190
백성	7191
##맵	7192
너희	7193
신장	7194
포르투갈	7195
챔피언십	7196
아마도	7197
CPU	7198
미루	7199
중독	7200
색상	7201
##버전	7202
게시판	7203
ᄇ시	7204
명단	7205
찢	7206
아카데미	7207
베네	7208
항복	7209
##든가	7210
##괄	7211
##수사	7212
공성	7213
##ber	7214
식당	7215
고구려	7216
외전	7217
미스터	7218
사라	7219
김재	7220
다지	7221
강원도	7222
통산	7223
인격	7224
##테일	7225
유적	7226
칭호	7227
항공기	7228
돋	7229
조별	7230
적합	7231
We	7232
AM	7233
구석	7234
##늬	7235
##슬러	7236
##라노	7237
커다랗	7238
##교사	7239
아쿠	7240
로고	7241
교장	7242
중대	7243
타율	7244
대선	7245
김대	7246
105	7247
하단	7248
흘러	7249
새끼	7250
건조	7251
##av	7252
##OC	7253
##로디	7254
일명	7255
수장	7256
오타	7257
유효	7258
탈퇴	7259
교류	7260
체크	7261
끊기	7262
##old	7263
##뛰	7264
커리어	7265
포위	7266
커피	7267
탄창	7268
시내버스	7269
.."	7270
레알	7271
타수	7272
로즈	7273
인치	7274
고작	7275
개국	7276
델	7277
짱	7278
CF	7279
흑인	7280
마키	7281
눕	7282
면모	7283
주사	7284
공무원	7285
반사	7286
박히	7287
LI	7288
추억	7289
측정	7290
뽀	7291
그러니까	7292
##orld	7293
예언	7294
나무위키	7295
이수	7296
포수	7297
라인업	7298
기종	7299
후술	7300
자폭	7301
트라이	7302
기생	7303
히어로즈	7304
휴식	7305
지대	7306
상술	7307
적당히	7308
##드리드	7309
아저	7310
##레어	7311
다름없	7312
렙	7313
용기	7314
꾸미	7315
##학과	7316
##시절	7317
저런	7318
배터리	7319
화장실	7320
사유	7321
마약	7322
일기	7323
고맙	7324
메시지	7325
##쓸	7326
##니시	7327
마비	7328
과목	7329
카트	7330
##라드	7331
실전	7332
##여자	7333
면적	7334
데드	7335
승객	7336
라스	7337
남녀	7338
다스	7339
성남	7340
##고지	7341
1984	7342
##같이	7343
깡	7344
아메리카	7345
형상	7346
차이점	7347
선고	7348
주소	7349
어이	7350
##ont	7351
1985	7352
더럽	7353
반동	7354
미라	7355
최신	7356
국경	7357
철수	7358
닭	7359
##려들	7360
##로봇	7361
##버그	7362
아랍	7363
매니저	7364
근본	7365
##포르	7366
187	7367
##즐	7368
싱크	7369
보존	7370
도적	7371
##번트	7372
SH	7373
##어마	7374
시노	7375
추종	7376
##유럽	7377
##베스	7378
##라이언	7379
##엣	7380
##졸	7381
증오	7382
피터	7383
3000	7384
승률	7385
용서	7386
럭	7387
강도	7388
매장	7389
한글판	7390
소프트웨어	7391
##렙	7392
##축구	7393
하차	7394
##폭탄	7395
AD	7396
##ies	7397
떨어뜨리	7398
LC	7399
사정거리	7400
DF	7401
급격	7402
입지	7403
서포터	7404
아서	7405
유통	7406
만명	7407
후원	7408
또다시	7409
이슈	7410
##에르	7411
초코	7412
마드리드	7413
치루	7414
lo	7415
서구	7416
KBO	7417
본사	7418
관람	7419
도끼	7420
부각	7421
미묘	7422
톱	7423
영주	7424
연예인	7425
시너지	7426
##동물	7427
담배	7428
후배	7429
아르헨	7430
크리스탈	7431
토끼	7432
생략	7433
쓸모	7434
아이콘	7435
##통신	7436
집행	7437
휩	7438
잠수함	7439
루카	7440
후손	7441
데려가	7442
액티브	7443
It	7444
부지	7445
##ᆫ트	7446
##lay	7447
주역	7448
네요	7449
자전	7450
XX	7451
중첩	7452
이스라엘	7453
왕위	7454
아테	7455
허락	7456
##여객	7457
들키	7458
그랜드	7459
천만	7460
저렴	7461
##비디오	7462
이마	7463
중립	7464
마린	7465
##기지	7466
##본부	7467
언더	7468
##사무	7469
기아	7470
동성	7471
오랜만	7472
뜬금	7473
네트워크	7474
파크	7475
##경제	7476
상단	7477
구글	7478
기량	7479
낚시	7480
튕기	7481
##하면	7482
펑	7483
총알	7484
##크라	7485
클랜	7486
간신히	7487
아케이드	7488
음모	7489
공세	7490
##OD	7491
##킷	7492
신사	7493
무척	7494
MF	7495
##걸이	7496
숙련	7497
수류탄	7498
방어구	7499
##슬링	7500
발행	7501
마술	7502
##US	7503
구르	7504
서식	7505
글로벌	7506
부딪	7507
배차	7508
생년	7509
취약	7510
##뚱	7511
관측	7512
##모스	7513
##산시	7514
엔터테	7515
##라기	7516
상인	7517
터미널	7518
뻗	7519
해피	7520
텔레비전	7521
고리	7522
알아내	7523
물리치	7524
##펀	7525
혹시	7526
마주치	7527
흡혈	7528
CV	7529
가만	7530
회초	7531
에리	7532
##카오	7533
블러드	7534
##다운	7535
벼	7536
자막	7537
상실	7538
맛있	7539
아이언	7540
WWE	7541
창원	7542
행보	7543
대수	7544
윗	7545
곤란	7546
일족	7547
##인간	7548
.....	7549
소라	7550
학자	7551
##PM	7552
법정	7553
놀이	7554
##키스	7555
##ann	7556
##늄	7557
관찰	7558
공룡	7559
논의	7560
지경	7561
##잘	7562
바퀴	7563
금융	7564
머무르	7565
사귀	7566
##사이드	7567
트랜스	7568
##포스	7569
조이	7570
스페이스	7571
NE	7572
수출	7573
아르헨티나	7574
애정	7575
어마어마	7576
재정	7577
SE	7578
자본	7579
##ᅦ이징	7580
강등	7581
아시안	7582
이란	7583
고위	7584
##타운	7585
##40	7586
곳곳	7587
거미	7588
오버워치	7589
##사랑	7590
잡아먹	7591
##마스터	7592
125	7593
##pe	7594
뿔	7595
텍스트	7596
타마	7597
##30	7598
##태우	7599
오크	7600
깨어나	7601
##탱	7602
인종	7603
잡아내	7604
##디스	7605
간접	7606
공방	7607
내보내	7608
관점	7609
자이언츠	7610
일레	7611
침략	7612
경상북도	7613
##체육	7614
결심	7615
스트라이크	7616
철학	7617
촌	7618
##딱	7619
똥	7620
##아키	7621
문구	7622
차기	7623
격추	7624
##ᆫ가	7625
단장	7626
토벌	7627
쟈	7628
##sh	7629
유학	7630
라기	7631
##노트	7632
시마	7633
표지	7634
your	7635
##하마	7636
##그나	7637
되돌리	7638
산하	7639
##전기	7640
##불명	7641
악당	7642
놀리	7643
던지	7644
기숙	7645
헤어지	7646
하루카	7647
저러	7648
##NA	7649
위반	7650
중세	7651
##벅	7652
소스	7653
##기구	7654
##신교	7655
낮추	7656
가동	7657
상관없	7658
##픔	7659
멘탈	7660
앨리스	7661
슈트	7662
김현	7663
찍히	7664
정화	7665
슛	7666
평생	7667
상영	7668
얻어	7669
엿	7670
약화	7671
##VD	7672
정차	7673
냄새	7674
연합군	7675
CJ	7676
연금	7677
미터	7678
메달	7679
AS	7680
안기	7681
곱	7682
충실	7683
타선	7684
이혼	7685
드라이브	7686
언덕	7687
금방	7688
쿼터	7689
파츠	7690
거울	7691
##어하	7692
드래프트	7693
##갈리	7694
##벌레	7695
이탈	7696
DE	7697
엘리트	7698
##월일	7699
##승부	7700
동인	7701
리스	7702
와타	7703
간주	7704
##싱턴	7705
##도리	7706
서서	7707
##ng	7708
보호막	7709
강자	7710
##io	7711
붓	7712
##베리	7713
성별	7714
초록	7715
문재인	7716
배포	7717
##나리	7718
##사이트	7719
침입	7720
백제	7721
뽑히	7722
흩	7723
빠져	7724
##텍	7725
상기	7726
긴장	7727
묘하	7728
스팀	7729
제작사	7730
반전	7731
존재감	7732
인민	7733
다카	7734
호기	7735
주둔	7736
본부	7737
내전	7738
##검사	7739
상세	7740
로우	7741
야생	7742
기관총	7743
마법소녀	7744
복구	7745
##너먼트	7746
;&	7747
엮이	7748
백작	7749
##바닥	7750
정기	7751
해치	7752
##공간	7753
언젠가	7754
제출	7755
티켓	7756
판결	7757
폐쇄	7758
루나	7759
##oo	7760
양자	7761
제약	7762
에요	7763
화재	7764
##팡이	7765
동양	7766
천안	7767
레이더	7768
균형	7769
지불	7770
모시	7771
후계자	7772
재밌	7773
악명	7774
짜증	7775
옳	7776
170	7777
뮤직비디오	7778
Pro	7779
이듬	7780
##누리	7781
##끈	7782
조연	7783
끈	7784
엑스트라	7785
로버트	7786
부적	7787
##터미널	7788
은신	7789
##히코	7790
잔뜩	7791
심사	7792
표면	7793
두개	7794
전세계	7795
펀치	7796
유력	7797
뱅	7798
불사	7799
에르	7800
지뢰	7801
##열차	7802
##하르트	7803
##ᅪᆨ	7804
저택	7805
##ave	7806
##전선	7807
뮤지컬	7808
##바나	7809
##포인트	7810
훼	7811
백인	7812
업로드	7813
변환	7814
에다가	7815
답변	7816
구리	7817
프로필	7818
쏟아지	7819
휘말리	7820
바리	7821
경주	7822
행운	7823
매체	7824
##LE	7825
##구장	7826
뱀파이어	7827
소유자	7828
프란	7829
인용	7830
LV	7831
계통	7832
합병	7833
윈도우	7834
##훈련	7835
위성	7836
심심	7837
딴	7838
끔	7839
맥스	7840
that	7841
##운서	7842
뜨겁	7843
본관	7844
천하	7845
체결	7846
UP	7847
해명	7848
##방향	7849
프로토스	7850
릴리	7851
태평양	7852
정황	7853
난입	7854
생년월일	7855
부임	7856
##방어	7857
분명히	7858
왈	7859
세인트	7860
뷰	7861
코리아	7862
창단	7863
유독	7864
##ION	7865
임신	7866
사쿠	7867
라인전	7868
동점	7869
##주교	7870
헨리	7871
건드리	7872
노동자	7873
금메달	7874
상관없이	7875
오라	7876
캐논	7877
##ream	7878
선두	7879
히나	7880
우라	7881
보완	7882
카스	7883
려던	7884
ED	7885
1500	7886
구축함	7887
호칭	7888
괴수	7889
견디	7890
마루	7891
EN	7892
정예	7893
다니	7894
잃어버리	7895
용인	7896
디지몬	7897
펄	7898
내지	7899
와일드	7900
펫	7901
수백	7902
한나라	7903
공허	7904
대인	7905
말투	7906
악화	7907
서번트	7908
쭉	7909
이듬해	7910
항의	7911
해골	7912
다이아몬드	7913
외계인	7914
미쿠	7915
하향	7916
전승	7917
개설	7918
##부로	7919
준우승	7920
##마르	7921
##ond	7922
찬스	7923
1982	7924
전파	7925
영광	7926
호흡	7927
어뢰	7928
->	7929
펌	7930
살ᄑ	7931
스케	7932
굿	7933
팽	7934
선거구	7935
여우	7936
살펴보	7937
발렌	7938
##가루	7939
유발	7940
스테이	7941
끔찍	7942
통계	7943
##윙	7944
착하	7945
경로	7946
##뚜	7947
##iss	7948
파르	7949
Com	7950
머신	7951
5000	7952
애플	7953
딜링	7954
##사리	7955
도루	7956
##곽	7957
왠지	7958
칼날	7959
삽입	7960
##국제	7961
턱	7962
##체제	7963
뛰어넘	7964
##띠	7965
기믹	7966
실종	7967
창설	7968
##하시	7969
막내	7970
지치	7971
민첩	7972
스크린	7973
돌입	7974
루비	7975
부드	7976
##재판	7977
##웰	7978
##군다	7979
##레인저	7980
##슈타인	7981
참가자	7982
유인	7983
아저씨	7984
혐오	7985
호환	7986
플라이	7987
인디	7988
간격	7989
존경	7990
그렇지만	7991
수호자	7992
##밭	7993
##드레	7994
##대원	7995
##중간	7996
집착	7997
걸맞	7998
여객	7999
사살	8000
##블로	8001
성질	8002
##마치	8003
1950	8004
법원	8005
도박	8006
##드립	8007
시상	8008
##르타	8009
##IP	8010
##11	8011
청소	8012
정통	8013
##또	8014
채팅	8015
기숙사	8016
단축	8017
토너먼트	8018
##잉	8019
허가	8020
트럭	8021
사원	8022
반박	8023
경남	8024
##전투	8025
아츠	8026
##틀리	8027
익스	8028
수면	8029
주차	8030
배트맨	8031
##중앙	8032
드럼	8033
미키	8034
##니카	8035
##즈마	8036
닫	8037
깔리	8038
1983	8039
감추	8040
우정	8041
전북	8042
##60	8043
이종	8044
##ian	8045
##뚝	8046
??	8047
by	8048
동명	8049
시원	8050
킨	8051
아나운서	8052
##다보	8053
##룬	8054
he	8055
디젤	8056
싫어하	8057
##스럽	8058
##쟁이	8059
드라이버	8060
모노	8061
사용자	8062
세븐	8063
께서	8064
부드럽	8065
기상	8066
분쟁	8067
##디움	8068
무라	8069
문단	8070
요약	8071
버스터	8072
첩	8073
기름	8074
##레이크	8075
##ᆺ갈리	8076
칩	8077
퇴장	8078
철저	8079
진압	8080
라틴	8081
용량	8082
BL	8083
##장비	8084
물고기	8085
건국	8086
탄환	8087
##ᆺ카	8088
덩치	8089
##파크	8090
분신	8091
&#	8092
완결	8093
##페이스	8094
##고속도로	8095
작년	8096
자녀	8097
입대	8098
go	8099
플래시	8100
웅	8101
##토미	8102
전제	8103
불펜	8104
그럭	8105
발리	8106
중력	8107
탐험	8108
관계자	8109
빅토	8110
##저럭	8111
##홈	8112
경상남도	8113
아포	8114
공정	8115
카와	8116
만남	8117
##겹	8118
시라	8119
샌드	8120
트럼프	8121
리뷰	8122
##밋	8123
갑작	8124
선제	8125
##언스	8126
헐	8127
분열	8128
##런트	8129
펼쳐지	8130
스위스	8131
##세서	8132
스텔	8133
##ᆺ집	8134
##앤	8135
그럭저럭	8136
오디션	8137
배정	8138
중형	8139
웃기	8140
제트	8141
##Hz	8142
##노리	8143
안녕	8144
##TV	8145
아틀	8146
노벨	8147
이토	8148
헝가리	8149
미만	8150
국군	8151
로이	8152
적중	8153
##후반	8154
아키라	8155
##틀러	8156
아동	8157
학과	8158
사이버	8159
평양	8160
##퀘	8161
웬	8162
나츠	8163
유격	8164
벌레	8165
호소	8166
##꼽	8167
##세대	8168
이와	8169
더이상	8170
##유닛	8171
##ory	8172
소속팀	8173
깨달	8174
축복	8175
로얄	8176
##TE	8177
고지	8178
피안타	8179
구름	8180
태국	8181
##ace	8182
##코어	8183
단행	8184
손상	8185
##rom	8186
또다른	8187
##키지	8188
신전	8189
##밖	8190
웨스트	8191
Co	8192
##칼리	8193
봇	8194
유전자	8195
리타	8196
두르	8197
무관	8198
인질	8199
Bl	8200
##동자	8201
스트레스	8202
배역	8203
##텐도	8204
##켈	8205
코르	8206
도둑	8207
;&#	8208
뿜	8209
휘하	8210
기운	8211
비주얼	8212
닛	8213
어필	8214
##필더	8215
야수	8216
대거	8217
마디	8218
고도	8219
하이퍼	8220
DVD	8221
침묵	8222
##정책	8223
Br	8224
감각	8225
안전하	8226
워싱턴	8227
급하	8228
교차	8229
토니	8230
트레	8231
어그로	8232
발굴	8233
학력	8234
##먼스	8235
##야수	8236
##키퍼	8237
스위치	8238
##ᆺ지	8239
##끝	8240
기동성	8241
드롭	8242
승자	8243
##계열	8244
옹호	8245
꼼	8246
트리플	8247
진학	8248
미네	8249
속이	8250
위안	8251
커플	8252
상식	8253
근거리	8254
Or	8255
##화점	8256
주자	8257
##패스	8258
본진	8259
암시	8260
커녕	8261
갈아	8262
영어판	8263
##겸	8264
##oth	8265
공격속도	8266
부스터	8267
안나	8268
##ows	8269
두들	8270
##데드	8271
결투	8272
무시무시	8273
크림	8274
장거리	8275
솔직	8276
##코스	8277
레지	8278
##셔널	8279
##MP	8280
동남	8281
블라	8282
재단	8283
처지	8284
##미르	8285
요인	8286
카를	8287
지라	8288
##우치	8289
신나	8290
날카	8291
##사거리	8292
세부	8293
삼각	8294
미드필더	8295
##스틴	8296
이펙트	8297
간단히	8298
비치	8299
팬텀	8300
##돌이	8301
##투표	8302
##차기	8303
후퇴	8304
파동	8305
철거	8306
##벳	8307
협회	8308
감지	8309
시신	8310
싹	8311
##TS	8312
시카	8313
보스전	8314
밀어	8315
망가지	8316
함수	8317
할인	8318
관리자	8319
무작위	8320
치즈	8321
우에	8322
큐브	8323
공산당	8324
그린	8325
요금	8326
차체	8327
동급	8328
##ᆺ이	8329
기둥	8330
출격	8331
##틸	8332
##제도	8333
##워즈	8334
##예술	8335
괜히	8336
한반도	8337
열매	8338
##IG	8339
스틸	8340
논문	8341
힐러	8342
개발자	8343
##틀랜드	8344
##단지	8345
항구	8346
CG	8347
바쁘	8348
하우스	8349
무사히	8350
##aw	8351
##이동	8352
185	8353
##륨	8354
날카롭	8355
발매일	8356
올스타	8357
고개	8358
##조직	8359
기재	8360
파편	8361
##공업	8362
최상위	8363
독일군	8364
##기어	8365
마감	8366
수능	8367
실책	8368
간간	8369
##마츠	8370
야마토	8371
##군다나	8372
##페라	8373
끼우	8374
연습생	8375
즉사	8376
과도	8377
국정	8378
##ale	8379
SNS	8380
보충	8381
꿀	8382
##지수	8383
아쉬	8384
마블	8385
지칭	8386
##뱅	8387
힙	8388
부근	8389
원리	8390
PV	8391
파생	8392
##즈니	8393
에서	8394
타쿠	8395
장탄	8396
록맨	8397
논쟁	8398
##ike	8399
##자동차	8400
온도	8401
마일	8402
특별히	8403
마케	8404
더군다나	8405
##겔	8406
약탈	8407
상륙	8408
기세	8409
영원히	8410
개별	8411
람	8412
1945	8413
후자	8414
소요	8415
증상	8416
유성	8417
Cl	8418
성당	8419
임기	8420
인피	8421
선행	8422
페이스북	8423
구미	8424
For	8425
무인	8426
##자와	8427
진주	8428
대치	8429
자전거	8430
막판	8431
##하루	8432
내일	8433
무산	8434
피우	8435
축하	8436
퍼포	8437
젤	8438
루이스	8439
RPG	8440
오키	8441
##사우	8442
부장	8443
학문	8444
왜냐	8445
테일	8446
매번	8447
안양	8448
세계대전	8449
모토	8450
흰색	8451
##OU	8452
여러분	8453
##뮬	8454
방송국	8455
##메가	8456
Dr	8457
##지만	8458
##라이드	8459
만주	8460
유산	8461
데이비드	8462
랜드	8463
툴	8464
요한	8465
첼시	8466
##하이	8467
암살자	8468
서서히	8469
엑시	8470
배출	8471
##ep	8472
##종합	8473
어빌리	8474
중복	8475
신도	8476
출루	8477
소음	8478
중시	8479
##기록	8480
에그	8481
선조	8482
##irl	8483
동경	8484
악몽	8485
##man	8486
임팩트	8487
근대	8488
주류	8489
최적	8490
중국어	8491
##ach	8492
영지	8493
##ile	8494
##든지	8495
175	8496
썬	8497
에반	8498
1981	8499
Sc	8500
BB	8501
우세	8502
##부인	8503
수비력	8504
조리	8505
OP	8506
슬프	8507
줍	8508
승인	8509
시크	8510
102	8511
과장	8512
교과	8513
그날	8514
교실	8515
스즈	8516
117	8517
필리핀	8518
신발	8519
##히트	8520
부착	8521
골키퍼	8522
세번	8523
코미디	8524
##톡	8525
베이징	8526
싸이	8527
##지아	8528
##12	8529
Team	8530
106	8531
만일	8532
노스	8533
##ᆯ러스	8534
끌려가	8535
멜로디	8536
미즈	8537
이브	8538
프리미엄	8539
과학자	8540
##VA	8541
수명	8542
##네시아	8543
LA	8544
사사	8545
일당	8546
플래그	8547
##ink	8548
Sk	8549
지리	8550
##이어	8551
잠입	8552
며칠	8553
고객	8554
##늦	8555
브라운	8556
의외로	8557
Mo	8558
금액	8559
##앉	8560
페널티	8561
ᆯ게	8562
꿰	8563
복무	8564
주니어	8565
##타마	8566
GP	8567
악기	8568
마다	8569
감싸	8570
그레	8571
권위	8572
가만히	8573
교토	8574
라면	8575
헬기	8576
프로토	8577
챌린지	8578
라이플	8579
##므	8580
##어놓	8581
코난	8582
안개	8583
천연	8584
DD	8585
복제	8586
위원회	8587
115	8588
ᄇ시오	8589
권장	8590
김경	8591
연맹	8592
베타	8593
퍼포먼스	8594
물량	8595
##ᆯ로그	8596
미나미	8597
##법인	8598
구별	8599
청와	8600
닌텐도	8601
카츠	8602
##사스	8603
여야	8604
스트리트	8605
원형	8606
질병	8607
굵	8608
공용	8609
소방	8610
조기	8611
진격	8612
잠들	8613
장인	8614
##모함	8615
##ial	8616
해킹	8617
전망	8618
FM	8619
##피해	8620
가라	8621
##크스	8622
건네	8623
##렐라	8624
##오루	8625
##ish	8626
가방	8627
언데드	8628
귀국	8629
몫	8630
##클럽	8631
대조	8632
SU	8633
여인	8634
1979	8635
부실	8636
엘리자	8637
가공	8638
냐면	8639
규격	8640
청와대	8641
개신교	8642
좌석	8643
UN	8644
디스크	8645
##의식	8646
파란색	8647
##아트	8648
직장	8649
타석	8650
만만	8651
최우	8652
응용	8653
선임	8654
오스만	8655
당대	8656
한두	8657
에릭	8658
쟁	8659
억지로	8660
김진	8661
법칙	8662
한일	8663
육상	8664
시그	8665
억제	8666
##우라	8667
##루미	8668
새누리	8669
합계	8670
프렌	8671
뽑아내	8672
인권	8673
##ower	8674
취득	8675
신입	8676
학부	8677
가루	8678
##튬	8679
다가가	8680
통화	8681
왜곡	8682
양상	8683
행방	8684
지팡이	8685
##슬라	8686
우르	8687
궁금	8688
여자친구	8689
##하하	8690
입주	8691
이웃	8692
가디언	8693
##저리	8694
##II	8695
치킨	8696
아이러	8697
더러	8698
##바야	8699
Bla	8700
사립	8701
시리아	8702
패널	8703
독재	8704
긴급	8705
명백	8706
##키리	8707
일화	8708
방치	8709
제독	8710
회색	8711
김상	8712
콘텐츠	8713
체험	8714
연령	8715
계시	8716
##뇨	8717
이터	8718
후임	8719
시비	8720
야간	8721
대단히	8722
혼돈	8723
마물	8724
기갑	8725
프리미어	8726
가죽	8727
공백	8728
즈음	8729
##GE	8730
##우트	8731
캐스터	8732
동계	8733
##여행	8734
##ᅡᆯ린	8735
벙	8736
오마	8737
양식	8738
야구장	8739
출구	8740
##계획	8741
헤어	8742
해내	8743
강점	8744
원조	8745
##핏	8746
하츠	8747
이란	8748
##공주	8749
고장	8750
##호환	8751
수동	8752
부동	8753
변수	8754
주관	8755
수급	8756
김기	8757
##계약	8758
CH	8759
일람	8760
전무	8761
##조합	8762
경직	8763
we	8764
임금	8765
확산	8766
재회	8767
구슬	8768
클릭	8769
부서지	8770
모스크	8771
끊임	8772
공수	8773
BS	8774
##IM	8775
Ne	8776
처참	8777
##!!	8778
감동	8779
Star	8780
뒤지	8781
관여	8782
여학생	8783
마우스	8784
모로	8785
##체스터	8786
##나이트	8787
평점	8788
발목	8789
코멘트	8790
##업체	8791
시합	8792
부산광역시	8793
##ᆻ다	8794
오염	8795
데이트	8796
기후	8797
슬로	8798
질리	8799
##뎀	8800
조상	8801
##딕	8802
독점	8803
비웃	8804
##저기	8805
돌연	8806
##천군	8807
전라남도	8808
##포드	8809
포켓몬스터	8810
PR	8811
기동전사	8812
비비	8813
미국인	8814
##차례	8815
장신	8816
ID	8817
##렉션	8818
##노선	8819
사법	8820
호랑이	8821
사이코	8822
질투	8823
타이거즈	8824
조롱	8825
스파이더	8826
화산	8827
##베이터	8828
나비	8829
통틀	8830
##만화	8831
대포	8832
##번에	8833
나나	8834
가요	8835
Wind	8836
공화	8837
기쁘	8838
##전설	8839
ᆫ데다	8840
에디	8841
##어드	8842
안좋	8843
감상	8844
350	8845
스와	8846
##카락	8847
깜짝	8848
생명체	8849
##99	8850
일본판	8851
##소설	8852
임의	8853
내각	8854
##툴	8855
공립	8856
교도	8857
손오	8858
엄격	8859
택하	8860
과제	8861
up	8862
##민족	8863
평일	8864
우주선	8865
카운트	8866
##야스	8867
커스	8868
리오	8869
##로이드	8870
풍부	8871
피닉스	8872
분당	8873
소송	8874
폭행	8875
출간	8876
청주	8877
개장	8878
LP	8879
등번호	8880
함께하	8881
##자료	8882
마스크	8883
유언	8884
DC	8885
##쿠스	8886
솜	8887
제네	8888
승무원	8889
파멸	8890
노바	8891
War	8892
격차	8893
##배치	8894
캘리	8895
분해	8896
fe	8897
And	8898
약물	8899
전남	8900
복원	8901
##궐	8902
##사단	8903
체감	8904
##래시	8905
신자	8906
어떻게들	8907
남매	8908
서포트	8909
##구미	8910
배달	8911
상한	8912
##세력	8913
카구	8914
머리카락	8915
정발	8916
도저히	8917
##ass	8918
##껍	8919
테라	8920
어드벤	8921
뚫리	8922
만지	8923
##티어	8924
추방	8925
##구조	8926
토지	8927
손실	8928
##멧	8929
##레오	8930
라이온즈	8931
뒤늦	8932
##ms	8933
##me	8934
모험가	8935
성경	8936
원더	8937
360	8938
##리나	8939
Man	8940
치열	8941
오로지	8942
메이플	8943
아레나	8944
장미	8945
재학	8946
112	8947
투사	8948
바르셀	8949
조용히	8950
고소	8951
배급	8952
나노	8953
특전	8954
극도	8955
##전문	8956
마코토	8957
##정치	8958
##gh	8959
구성원	8960
중량	8961
따뜻	8962
사용시	8963
이라크	8964
리버풀	8965
뭉치	8966
에픽	8967
조명	8968
##CG	8969
천년	8970
시인	8971
로빈	8972
##기능	8973
다운로드	8974
##진영	8975
세라	8976
108	8977
##모델	8978
폴리	8979
All	8980
박물관	8981
유기	8982
나마	8983
말ᄊ	8984
스탠드	8985
인력	8986
집합	8987
그중	8988
AKB	8989
##ᆫ헨	8990
권유	8991
##아프리카	8992
디즈니	8993
소용	8994
캠프	8995
##tle	8996
##pp	8997
##ble	8998
분포	8999
##amp	9000
##업자	9001
묶이	9002
일요일	9003
경북	9004
중순	9005
##스테	9006
반감	9007
넘버	9008
스펠	9009
##를린	9010
바르셀로나	9011
##려받	9012
##ft	9013
##좀	9014
충청남도	9015
서클	9016
마냥	9017
하마	9018
패전	9019
고블린	9020
추리	9021
##천사	9022
창고	9023
안쪽	9024
야쿠	9025
##바지	9026
상하이	9027
해산	9028
증폭	9029
자비	9030
지목	9031
##소총	9032
단종	9033
103	9034
합리	9035
극중	9036
수월	9037
##데타	9038
루머	9039
붙잡히	9040
비유	9041
트위치	9042
자꾸	9043
출범	9044
축소	9045
##yle	9046
딜레이	9047
루피	9048
##70	9049
인방	9050
##센스	9051
##ous	9052
폐기	9053
##몹	9054
학기	9055
당사자	9056
##코치	9057
##포니아	9058
어시스트	9059
기력	9060
막아내	9061
조우	9062
##상황	9063
세금	9064
수직	9065
타츠	9066
##now	9067
##제한	9068
릭	9069
##atch	9070
##후보	9071
서머	9072
##sp	9073
전대	9074
보이스	9075
##혁명	9076
##케이션	9077
킬러	9078
넘어지	9079
One	9080
넘어서	9081
투척	9082
Mar	9083
램	9084
본토	9085
집권	9086
불행	9087
##orm	9088
기묘	9089
##스티벌	9090
전당	9091
장사	9092
얻어맞	9093
벌리	9094
##차이	9095
수색	9096
폭파	9097
New	9098
To	9099
오이	9100
##수리	9101
학습	9102
ON	9103
##민주당	9104
여파	9105
직선	9106
승진	9107
##히토	9108
퍼부	9109
세팅	9110
##방법	9111
원딜	9112
키타	9113
주최	9114
##란히	9115
김용	9116
ex	9117
무승부	9118
핑크	9119
##사격	9120
세뇌	9121
패키지	9122
꼬이	9123
낙선	9124
대기시간	9125
나루토	9126
짤	9127
IN	9128
순환	9129
범죄자	9130
막상	9131
##간격	9132
던가	9133
BR	9134
모집	9135
농업	9136
경악	9137
Part	9138
##미터	9139
물체	9140
절차	9141
후회	9142
유의	9143
##킬	9144
KR	9145
부딪히	9146
반짝	9147
수석	9148
리얼	9149
가난	9150
두렵	9151
##닐	9152
배제	9153
Gam	9154
이나	9155
##레인지	9156
채보	9157
##테스	9158
##어트	9159
살아나	9160
##흔	9161
##코프	9162
##모어	9163
SF	9164
실현	9165
토요일	9166
비명	9167
국당	9168
유출	9169
##팽	9170
까이	9171
하나하나	9172
복선	9173
##ING	9174
당당	9175
광산	9176
함락	9177
수립	9178
##토니	9179
극히	9180
헤르	9181
집어넣	9182
CS	9183
##반기	9184
블래	9185
리스트	9186
우호	9187
ᆫ다거나	9188
##비용	9189
엄밀	9190
워커	9191
좌절	9192
##부지	9193
손자	9194
##위원장	9195
포드	9196
잠실	9197
비극	9198
우월	9199
파울	9200
결전	9201
우익	9202
산탄	9203
선사	9204
풋	9205
##라이즈	9206
복합	9207
##장갑	9208
##생기	9209
이라	9210
##ment	9211
핸	9212
PP	9213
하여	9214
쵸	9215
유재	9216
해병대	9217
명목	9218
엎	9219
실시간	9220
##ae	9221
토큰	9222
이동속도	9223
와카	9224
중동	9225
##관광	9226
무술	9227
수비수	9228
인접	9229
##64	9230
자책	9231
128	9232
지향	9233
빨간	9234
장탄수	9235
배려	9236
나요	9237
나르	9238
늙	9239
한국판	9240
##자체	9241
동아리	9242
##ase	9243
기호	9244
하인	9245
지연	9246
레코드	9247
스티븐	9248
마땅	9249
메이드	9250
##ree	9251
##카미	9252
조커	9253
중화민국	9254
쌀	9255
##아들	9256
쳐들	9257
유망	9258
택시	9259
생전	9260
되돌	9261
안심	9262
##라이브	9263
닉네임	9264
분산	9265
피트	9266
할로	9267
##ᆯ드	9268
수염	9269
달려가	9270
김해	9271
신속	9272
동반	9273
짐작	9274
히틀러	9275
철권	9276
불량	9277
짙	9278
의자	9279
엔드	9280
En	9281
루크	9282
##놀이	9283
태풍	9284
울프	9285
서울시	9286
제갈량	9287
##장면	9288
크레딧	9289
끓	9290
때려	9291
드루	9292
##느리	9293
##게이트	9294
슈퍼로봇	9295
사회주의	9296
양손	9297
캠퍼스	9298
연산	9299
확장팩	9300
네티	9301
1978	9302
기부	9303
1973	9304
ᄇ니까	9305
챔	9306
각오	9307
상담	9308
주택	9309
비틀	9310
웨이브	9311
JT	9312
##헤이	9313
함부로	9314
각지	9315
날씨	9316
여섯	9317
암호	9318
레스	9319
기뻐	9320
역습	9321
히메	9322
바론	9323
##트론	9324
기뻐하	9325
합동	9326
유니크	9327
어쩌면	9328
184	9329
근원	9330
##az	9331
조카	9332
돌보	9333
튼	9334
케인	9335
##릴	9336
##도라	9337
엔젤	9338
##bo	9339
거론	9340
처분	9341
센스	9342
##버드	9343
제치	9344
벤치	9345
동해	9346
트라	9347
##키스탄	9348
댄	9349
그외	9350
##왜	9351
첫째	9352
##깨비	9353
공격수	9354
아가씨	9355
스타디움	9356
저하	9357
보라색	9358
뜬금없이	9359
##리우스	9360
AN	9361
오락	9362
유전	9363
얽	9364
알바	9365
호남	9366
딘	9367
World	9368
##ason	9369
구장	9370
호불	9371
중후반	9372
##AY	9373
111	9374
매출	9375
방탄	9376
박살내	9377
수습	9378
체중	9379
얀	9380
220	9381
이글스	9382
도시철도	9383
힙합	9384
##데레	9385
오브젝트	9386
##iki	9387
고증	9388
호불호	9389
명의	9390
캐시	9391
##슴	9392
여럿	9393
교단	9394
183	9395
##저우	9396
사인	9397
대성	9398
말레이	9399
배드	9400
공업	9401
샷건	9402
젖	9403
썬더	9404
퇴각	9405
##딸	9406
거칠	9407
짐승	9408
여전	9409
트라우	9410
난사	9411
JP	9412
시상식	9413
스캔	9414
혈액	9415
사무실	9416
낙하	9417
##ᆯ릿	9418
##낭	9419
깊이	9420
여의	9421
유미	9422
온천	9423
##르드	9424
원시	9425
카자	9426
사키	9427
중상	9428
##아아	9429
여기저기	9430
##ear	9431
So	9432
사야	9433
거든	9434
##실점	9435
##뤼	9436
##성군	9437
추세	9438
검술	9439
조회	9440
네티즌	9441
마계	9442
##규모	9443
공인	9444
##hen	9445
##지기	9446
흡사	9447
갈색	9448
캘리포니아	9449
빨간색	9450
조르	9451
스나이	9452
240	9453
##장군	9454
##나기	9455
빠져나가	9456
꼬마	9457
##아치	9458
노란색	9459
하계	9460
동서	9461
##운트	9462
##그러	9463
찬성	9464
탐사	9465
막강	9466
##MS	9467
##생명	9468
##곰	9469
명문	9470
날뛰	9471
sp	9472
평하	9473
장난감	9474
##이너	9475
심의	9476
보드	9477
모니	9478
##스타일	9479
네임드	9480
##스토리	9481
전날	9482
##사르	9483
##are	9484
시공	9485
##기에	9486
맥주	9487
프린세스	9488
노조	9489
려다가	9490
FW	9491
토우	9492
장례	9493
공감	9494
우유	9495
포장	9496
밀어내	9497
두들기	9498
트루	9499
츄	9500
##스레	9501
케이블	9502
차갑	9503
##추어	9504
토미	9505
장로	9506
하프	9507
GO	9508
체인지	9509
호시	9510
골렘	9511
퍼즐	9512
이모	9513
올드	9514
ᆯ려	9515
히가시	9516
포획	9517
##직자	9518
견해	9519
할리	9520
유혹	9521
아베	9522
터널	9523
샤이	9524
매주	9525
인자	9526
원문	9527
##신문	9528
키보드	9529
베를린	9530
알라	9531
강렬	9532
경호	9533
세리	9534
연봉	9535
스미스	9536
##가다	9537
번지	9538
타이탄	9539
훈장	9540
개척	9541
핀란드	9542
드론	9543
1974	9544
구조물	9545
가두	9546
모듈	9547
돋보이	9548
스쿨	9549
이세	9550
감수	9551
인재	9552
오메가	9553
뮌헨	9554
스코틀랜드	9555
마스	9556
tv	9557
프랑스어	9558
사로	9559
통로	9560
포스터	9561
당기	9562
##쏘	9563
물품	9564
마냥	9565
일가	9566
베테	9567
그랑	9568
아이러니	9569
베어스	9570
마오	9571
트라우마	9572
고로	9573
##환경	9574
##반대	9575
트로피	9576
후반기	9577
##플링	9578
벨트	9579
http	9580
우측	9581
트레이너	9582
##범죄	9583
##주인공	9584
진상	9585
주행	9586
김준	9587
1972	9588
책임지	9589
다투	9590
##러브	9591
신용	9592
조선시대	9593
키미	9594
끌리	9595
보건	9596
워프	9597
##90	9598
##ven	9599
성씨	9600
소니	9601
##ife	9602
시종	9603
완공	9604
토마	9605
흔들	9606
전락	9607
통칭	9608
말기	9609
##츠카	9610
https	9611
##의자	9612
##스트로	9613
사퇴	9614
위로	9615
결혼식	9616
토대	9617
##건설	9618
서바이	9619
튼튼	9620
진급	9621
배수	9622
원곡	9623
허무	9624
##ade	9625
가담	9626
혜택	9627
왕실	9628
왕복	9629
##크리	9630
학생회	9631
##AP	9632
코트	9633
##맥스	9634
##상자	9635
Wi	9636
강경	9637
##연구소	9638
체육관	9639
도라	9640
밀려나	9641
이순	9642
신데	9643
트리거	9644
트윈스	9645
콘솔	9646
로맨	9647
중지	9648
##차리	9649
##머신	9650
시카고	9651
이경	9652
##구간	9653
홀리	9654
스즈키	9655
##요소	9656
##미사	9657
##무부	9658
행정구역	9659
대령	9660
##뱃	9661
잭슨	9662
나아지	9663
연쇄	9664
##요원	9665
동행	9666
쓸데	9667
##act	9668
MB	9669
##버스터미널	9670
베리	9671
~!	9672
##ai	9673
##게이머	9674
##ank	9675
##gin	9676
도마	9677
중부	9678
##라라	9679
적자	9680
덴마크	9681
드로우	9682
%/	9683
산타	9684
유입	9685
##소수	9686
박살나	9687
포스트시즌	9688
do	9689
압력	9690
바둑	9691
센서	9692
##aby	9693
시바	9694
흙	9695
최저	9696
버섯	9697
목사	9698
천천	9699
아바타	9700
리즈	9701
부작용	9702
국도	9703
재개	9704
인도네시아	9705
104	9706
한창	9707
라니	9708
##도사	9709
##out	9710
수여	9711
단행본	9712
##탈리	9713
##아메	9714
탐정	9715
##캐릭	9716
사악	9717
청나라	9718
스텝	9719
상주	9720
Fate	9721
시로	9722
no	9723
이점	9724
타일	9725
영감	9726
교복	9727
소재지	9728
코믹	9729
손꼽	9730
대시	9731
##선생	9732
히든	9733
백업	9734
##산역	9735
이누	9736
##무스	9737
실내	9738
패밀리	9739
렌즈	9740
갚	9741
##에른	9742
##타리	9743
##퍼드	9744
##아라	9745
캄	9746
손쉽	9747
넘어오	9748
깎이	9749
제물	9750
김일	9751
##보호	9752
워크래프트	9753
1975	9754
배차간격	9755
민주주의	9756
프로듀스	9757
##명사	9758
비기	9759
대책	9760
##lect	9761
##그르	9762
어벤	9763
트레일러	9764
알레	9765
LIVE	9766
간간히	9767
도덕	9768
기수	9769
##저런	9770
넉백	9771
크라이	9772
123	9773
징역	9774
설령	9775
리처	9776
세월호	9777
신데렐라	9778
##페르	9779
##높	9780
##므로	9781
쿠데타	9782
##보우	9783
탐색	9784
##총장	9785
끊임없이	9786
##ET	9787
포탄	9788
을수록	9789
등극	9790
범용	9791
입자	9792
침대	9793
##미아	9794
년도	9795
해양	9796
##oll	9797
전동차	9798
약자	9799
실상	9800
NH	9801
페스티벌	9802
저자	9803
끌어들이	9804
##바야시	9805
반도	9806
입문	9807
일주	9808
관통력	9809
##른바	9810
##UM	9811
대타	9812
알렉스	9813
##툼	9814
Up	9815
##루션	9816
##더라	9817
OS	9818
이른바	9819
업계	9820
장애물	9821
1976	9822
##액션	9823
##탐정	9824
노무	9825
필요없	9826
여타	9827
##사우루스	9828
are	9829
마피아	9830
재직	9831
그레이트	9832
레온	9833
전향	9834
스타리그	9835
신중	9836
우치	9837
아비	9838
III	9839
##ork	9840
다스리	9841
성실	9842
이런저런	9843
우승자	9844
오우	9845
토키	9846
##타르	9847
원주민	9848
노르웨이	9849
소금	9850
이어받	9851
최선	9852
섀도우	9853
창문	9854
그러므로	9855
깃발	9856
룸	9857
듀오	9858
Do	9859
##ary	9860
##첸	9861
##에어	9862
콤비	9863
잊히	9864
왼손	9865
##소스	9866
딸리	9867
벨기에	9868
커스텀	9869
##램	9870
장성	9871
Oh	9872
거북	9873
공통점	9874
왜냐하면	9875
아스카	9876
부재	9877
##way	9878
##치아	9879
침투	9880
##시기	9881
카더라	9882
신선	9883
이병	9884
일간	9885
디시	9886
캐치	9887
츠바	9888
119	9889
끌어올리	9890
밀도	9891
따라오	9892
전격	9893
초등	9894
후일	9895
참모	9896
브라이언	9897
맞붙	9898
게리	9899
##넌	9900
##조선	9901
불태우	9902
해머	9903
특급	9904
##ey	9905
관우	9906
##ich	9907
모스크바	9908
이현	9909
동력	9910
사로잡	9911
##께끼	9912
135	9913
스트라이커	9914
109	9915
##ᅦ이슨	9916
베테랑	9917
김수	9918
토리	9919
시호	9920
엔지	9921
올바르	9922
슬라	9923
수수께끼	9924
장남	9925
승차	9926
ES	9927
##프라	9928
발명	9929
##조각	9930
박정희	9931
주교	9932
강릉	9933
Mk	9934
##대교	9935
아이디어	9936
으려는	9937
비전	9938
##장애	9939
##생물	9940
##대기	9941
##세기	9942
왕비	9943
꽉	9944
##상시	9945
탄핵	9946
중화인민공화국	9947
초인	9948
중고	9949
변동	9950
이대	9951
확신	9952
잔인	9953
우스	9954
##으로	9955
보험	9956
아시	9957
##요리	9958
콘스탄	9959
##햄	9960
탕	9961
복사	9962
바이에른	9963
소통	9964
##뱀	9965
꿈꾸	9966
입증	9967
Ad	9968
계수	9969
사천	9970
능력자	9971
당초	9972
다큐	9973
기구	9974
페미니	9975
단발	9976
손오공	9977
lv	9978
형편	9979
한나라당	9980
대학원	9981
프라임	9982
재건	9983
땅볼	9984
유연	9985
클라우	9986
리플	9987
피로	9988
코스튬	9989
all	9990
스핀	9991
Day	9992
##체계	9993
드림	9994
패널티	9995
규제	9996
포즈	9997
토시	9998
##레일리아	9999
##물리	10000
잎	10001
명분	10002
##드래	10003
친절	10004
##끗	10005
AFC	10006
와이번	10007
##루트	10008
##제이	10009
유망주	10010
##다드	10011
구동	10012
##흉	10013
##이치로	10014
보스턴	10015
전송	10016
광선	10017
고종	10018
##무지	10019
##군가	10020
점유	10021
중위	10022
후미	10023
##란트	10024
위엄	10025
부유	10026
nd	10027
천천히	10028
우울	10029
##변이	10030
실은	10031
굴욕	10032
##pt	10033
고는	10034
182	10035
##대문	10036
어드벤처	10037
##orn	10038
흩어지	10039
오더	10040
초상	10041
고무	10042
폭스	10043
대전차	10044
선수단	10045
슈퍼로봇대전	10046
바니	10047
크레이	10048
대접	10049
소대	10050
##렇	10051
갑작스럽	10052
모니터	10053
##시피	10054
##통합	10055
쇼핑	10056
중거리	10057
선장	10058
스피릿	10059
상무	10060
억원	10061
나폴레	10062
강간	10063
##셈	10064
조종사	10065
##가포르	10066
쇼크	10067
글씨	10068
레인저	10069
근접전	10070
랑	10071
##춤	10072
도트	10073
양반	10074
토요	10075
##사장	10076
주일	10077
프로게이머	10078
어색	10079
리카	10080
친분	10081
구상	10082
##운수	10083
클론	10084
중심지	10085
충족	10086
사이클	10087
##ᆺ카이도	10088
수하	10089
휴가	10090
##토시	10091
##ᆺ불	10092
121	10093
케빈	10094
삼성전자	10095
취업	10096
##지능	10097
오페라	10098
센트	10099
릴	10100
초콜릿	10101
영양	10102
일곱	10103
브레	10104
1971	10105
싱가포르	10106
##올림픽	10107
햄	10108
Windows	10109
나폴레옹	10110
홋카이도	10111
##사령관	10112
항해	10113
광물	10114
##나베	10115
FF	10116
라그나	10117
뉘	10118
토마스	10119
달아나	10120
방송사	10121
대동	10122
얇	10123
광장	10124
검토	10125
##첼	10126
소련군	10127
머물	10128
긁	10129
145	10130
열정	10131
개교	10132
우회	10133
##세포	10134
107	10135
##모노	10136
##부키	10137
##ᆺ빛	10138
일관	10139
바지	10140
무공	10141
레벨업	10142
어나	10143
##로마	10144
유료	10145
하급	10146
검열	10147
세로	10148
="	10149
마틴	10150
RA	10151
붐	10152
광기	10153
##마사	10154
독일어	10155
강전	10156
비서	10157
도쿠	10158
강림	10159
까마	10160
구독	10161
무지막	10162
1977	10163
##바시	10164
파밍	10165
엑시즈	10166
##ah	10167
##써	10168
##EM	10169
##민주주의	10170
단검	10171
기울이	10172
동전	10173
##연맹	10174
렉	10175
선박	10176
까지	10177
##구청	10178
맹세	10179
DP	10180
천황	10181
##뉴스	10182
##바이트	10183
으라고	10184
쫓겨나	10185
산맥	10186
하이라이트	10187
공헌	10188
잉여	10189
ML	10190
##노동	10191
씌우	10192
발레	10193
##렌지	10194
사촌	10195
출산	10196
AA	10197
터트리	10198
망명	10199
연설	10200
의학	10201
손님	10202
엘리베이터	10203
##very	10204
스마	10205
##론가	10206
무지막지	10207
##이사	10208
모임	10209
##네마	10210
표절	10211
부패	10212
##uck	10213
결제	10214
게이머	10215
##테이션	10216
총합	10217
그후	10218
발판	10219
봉쇄	10220
임진	10221
엔트리	10222
보좌	10223
타이틀곡	10224
탭	10225
##불가	10226
극대	10227
누군가	10228
##떨어지	10229
흑역사	10230
##라미	10231
현금	10232
관료	10233
##복지	10234
자제	10235
##꿈	10236
##렷	10237
황후	10238
고집	10239
해병	10240
대왕	10241
여포	10242
레일	10243
찰스	10244
겸하	10245
ne	10246
여서	10247
##사용	10248
국제공항	10249
IT	10250
##글링	10251
성배	10252
이대로	10253
본질	10254
##뉴얼	10255
경연	10256
지역구	10257
소모량	10258
김포	10259
br	10260
##긋	10261
감탄	10262
##ph	10263
##모습	10264
Sw	10265
에이지	10266
DPS	10267
지붕	10268
포도	10269
BPM	10270
도깨비	10271
농장	10272
디펜	10273
JTBC	10274
##정지	10275
창립	10276
자존	10277
제왕	10278
대변	10279
210	10280
토하	10281
휠	10282
##궤	10283
평행	10284
조국	10285
간섭	10286
전라북도	10287
인게임	10288
178	10289
멍청	10290
##이스	10291
떨치	10292
질서	10293
##ero	10294
페어	10295
화해	10296
지인	10297
##성능	10298
스태프	10299
##이크	10300
몸통	10301
프로리그	10302
1969	10303
면하	10304
113	10305
인칭	10306
카리스	10307
그릇	10308
".	10309
리틀	10310
대박	10311
안동	10312
##플러스	10313
트릭	10314
카메	10315
##바스	10316
오스트레일리아	10317
노무현	10318
무실점	10319
##ool	10320
껍	10321
토트	10322
외우	10323
압축	10324
와인	10325
##랩	10326
천장	10327
##서스	10328
로리	10329
음료	10330
레이블	10331
165	10332
리처드	10333
동아	10334
스포일러	10335
##왕국	10336
1968	10337
##이나	10338
품질	10339
##ᆺ속	10340
유격수	10341
1963	10342
바나	10343
손꼽히	10344
일리	10345
철저히	10346
##ical	10347
맨체스터	10348
메카닉	10349
##오버	10350
스티브	10351
히라	10352
쨩	10353
분대	10354
##지점	10355
여러번	10356
힘입	10357
불쌍	10358
중점	10359
민중	10360
주축	10361
역량	10362
김유	10363
NBA	10364
시골	10365
체코	10366
냉정	10367
카카오	10368
혈통	10369
##urn	10370
꺼리	10371
큰	10372
태클	10373
디자이너	10374
##ype	10375
Ph	10376
##지오	10377
##ARD	10378
안나오	10379
##앨	10380
인천광역시	10381
##방울	10382
고고	10383
Con	10384
앤드	10385
홀드	10386
2021	10387
정석	10388
파랗	10389
페르시아	10390
슬픔	10391
##깃	10392
어ᄊ	10393
##anc	10394
마그	10395
블리자드	10396
아깝	10397
변태	10398
걸즈	10399
##슛	10400
우루	10401
군수	10402
춥	10403
임하	10404
##즈카	10405
에드워드	10406
##넛	10407
##대왕	10408
수인	10409
나리	10410
##거래	10411
##ᆺ말	10412
매니아	10413
코토	10414
이오	10415
병역	10416
조화	10417
트롤	10418
정사	10419
{{{#	10420
은지	10421
##작가	10422
블로	10423
히로시	10424
광경	10425
변이	10426
드레	10427
동정	10428
##은색	10429
스플	10430
155	10431
박지	10432
도장	10433
신동	10434
파티원	10435
##빡	10436
실체	10437
타운	10438
입사	10439
마라	10440
스미	10441
존중	10442
운송	10443
제재	10444
##리칸	10445
시뮬	10446
Cr	10447
##아스	10448
##ung	10449
출혈	10450
에버	10451
닥치	10452
엄연히	10453
위원장	10454
사우스	10455
열혈	10456
날아다니	10457
이라도	10458
호의	10459
의장	10460
명시	10461
김승	10462
물어	10463
OVA	10464
##조작	10465
답답	10466
울트라맨	10467
변장	10468
##태자	10469
션	10470
예약	10471
방위	10472
국어	10473
이소	10474
종결	10475
##세트	10476
마유	10477
122	10478
Qu	10479
납득	10480
연간	10481
초능력	10482
모순	10483
애쉬	10484
##티노	10485
서울대학교	10486
조별리그	10487
##드컵	10488
말씀	10489
##아메리카	10490
Station	10491
##소나	10492
단원	10493
181	10494
주체	10495
개명	10496
사리	10497
한가	10498
##저항	10499
##행정	10500
매드	10501
##미나	10502
TVA	10503
압권	10504
훼손	10505
너머	10506
스택	10507
##히메	10508
모형	10509
광명	10510
##속기	10511
144	10512
결계	10513
시게	10514
마산	10515
주사위	10516
##빗	10517
초청	10518
파도	10519
카지	10520
얼티	10521
명명	10522
뻥	10523
##위치	10524
이단	10525
미궁	10526
수천	10527
시사	10528
브래	10529
스폰서	10530
드레스	10531
보편	10532
LO	10533
애니판	10534
오지	10535
미미	10536
스노우	10537
존스	10538
엔지니어	10539
프로레	10540
엘리자베스	10541
##ww	10542
질량	10543
##떼	10544
하스	10545
아인	10546
청구	10547
KOF	10548
기차	10549
주목받	10550
소집	10551
강민	10552
절친	10553
촉수	10554
해소	10555
##끼리	10556
헷갈리	10557
강호	10558
금강	10559
##앨범	10560
제노	10561
플러스	10562
아오이	10563
##iver	10564
데빌	10565
오죽	10566
치안	10567
##판정	10568
친척	10569
챔피언스리그	10570
아지	10571
장타	10572
읍	10573
##텍스	10574
at	10575
솟	10576
##렉터	10577
메이지	10578
프로그래	10579
애칭	10580
##떡	10581
이원	10582
지분	10583
방심	10584
작정	10585
사투	10586
##철수	10587
쓰리	10588
##사무소	10589
셔틀	10590
투쟁	10591
##DD	10592
토스	10593
에로	10594
그립	10595
152	10596
덤비	10597
마에	10598
가설	10599
타구	10600
테이블	10601
화상	10602
박성	10603
어이없	10604
패자	10605
드래곤볼	10606
love	10607
지력	10608
##멘터리	10609
##주자	10610
##모션	10611
이틀	10612
##ens	10613
프랜	10614
과자	10615
일렉트	10616
좌측	10617
##뿌	10618
강사	10619
이명박	10620
퍼스트	10621
좌익	10622
##노스케	10623
일주일	10624
##ᆼ크스	10625
as	10626
이동속	10627
민간인	10628
쫒	10629
신학	10630
롤드컵	10631
교리	10632
편리	10633
##시스코	10634
##ost	10635
##중심	10636
사연	10637
##얀	10638
기하	10639
재앙	10640
스크래	10641
신하	10642
향후	10643
##드러지	10644
생체	10645
TR	10646
자칭	10647
##네이션	10648
##샵	10649
어나더	10650
테츠	10651
포터	10652
항공모함	10653
직책	10654
액체	10655
턴간	10656
부속	10657
도색	10658
빌딩	10659
마술사	10660
매각	10661
114	10662
미성	10663
멋대로	10664
엄밀히	10665
낭비	10666
일커	10667
검증	10668
##마니아	10669
유니버스	10670
##ence	10671
앓	10672
용암	10673
1930	10674
스쿼	10675
일컫	10676
##트랙	10677
인스타	10678
wiki	10679
아마추어	10680
그로	10681
학위	10682
지혜	10683
과일	10684
##운동장	10685
##려워하	10686
IM	10687
##nt	10688
시간대	10689
##산동	10690
마음대로	10691
사명	10692
##극장	10693
엽	10694
녹화	10695
변명	10696
아스트	10697
발발	10698
이태	10699
나미	10700
백만	10701
선진	10702
디바	10703
초록색	10704
사무라이	10705
##과이	10706
##비행	10707
from	10708
로보	10709
##ise	10710
외곽	10711
노가다	10712
습니까	10713
##젤레스	10714
에미	10715
의정부	10716
스리	10717
##int	10718
닦	10719
모델링	10720
##쉐	10721
우연	10722
히카	10723
돌연변이	10724
옥상	10725
완화	10726
몰살	10727
이케	10728
라이언	10729
알아채	10730
돔	10731
1920	10732
작위	10733
신지	10734
정성	10735
##상가	10736
둘다	10737
젤리	10738
라스트	10739
##동맹	10740
179	10741
분할	10742
시조	10743
##기스	10744
##하여	10745
선회	10746
!"	10747
실사	10748
성분	10749
달려들	10750
텍사스	10751
##AK	10752
매달리	10753
석유	10754
죄책	10755
##돌프	10756
잘못하	10757
이이	10758
원피스	10759
씨앗	10760
통째	10761
##국민	10762
인공지능	10763
##스크림	10764
Super	10765
##의사	10766
총독	10767
MG	10768
국토	10769
Fr	10770
1940	10771
BJ	10772
##인드	10773
can	10774
##시민	10775
##oy	10776
엉망	10777
##바다	10778
코노	10779
바디	10780
아자	10781
고등학생	10782
##엔딩	10783
불참	10784
버스트	10785
##진호	10786
집계	10787
유엔	10788
아쿠아	10789
슈퍼맨	10790
제주도	10791
www	10792
##ign	10793
정반대	10794
CM	10795
거스	10796
몇번	10797
미오	10798
침몰	10799
적절히	10800
한국시리즈	10801
리스크	10802
기본기	10803
##르도	10804
정신력	10805
에도	10806
##ans	10807
아담	10808
자아	10809
어설	10810
계층	10811
이어서	10812
유튜버	10813
177	10814
은폐	10815
##뱅크	10816
발탁	10817
비스트	10818
아처	10819
##도전	10820
중구	10821
으라	10822
피카	10823
##시스템	10824
##아머	10825
중원	10826
죄책감	10827
##벼	10828
목걸이	10829
##수단	10830
저기	10831
최종전	10832
어스	10833
##가수	10834
##ug	10835
전생	10836
Dream	10837
들여	10838
##쭉	10839
탄압	10840
덮치	10841
식품	10842
다거나	10843
##가요	10844
실용	10845
남동생	10846
혼인	10847
스카우트	10848
124	10849
추후	10850
뚜렷	10851
1967	10852
상사	10853
때로	10854
다시금	10855
이타	10856
총장	10857
착륙	10858
억울	10859
좀더	10860
참사	10861
그해	10862
오른손	10863
##물질	10864
127	10865
원숭이	10866
오노	10867
##직원	10868
USB	10869
감당	10870
흘러가	10871
챔프	10872
아무튼	10873
아리아	10874
격려	10875
극한	10876
대구광역시	10877
뛰어들	10878
지장	10879
인벤	10880
안무	10881
##인사	10882
발키리	10883
갱신	10884
수위	10885
##보병	10886
인성	10887
슬리	10888
this	10889
##케인	10890
##IR	10891
##캠퍼스	10892
##대신	10893
오렌지	10894
##질랜드	10895
##등급	10896
1200	10897
텔	10898
최순	10899
##공장	10900
아스날	10901
##vel	10902
수감	10903
퀵	10904
블레이	10905
##엘라	10906
##워프	10907
450	10908
만능	10909
##레이트	10910
##슐	10911
무용	10912
투기	10913
연전	10914
리퍼	10915
##쿤	10916
도심	10917
저서	10918
##차별	10919
원전	10920
동성애	10921
빈도	10922
중국인	10923
용이	10924
대위	10925
구형	10926
더빙판	10927
고아	10928
민감	10929
문양	10930
마케팅	10931
내버리	10932
히로시마	10933
욕설	10934
각인	10935
ERA	10936
##ode	10937
비우	10938
폭격기	10939
곤충	10940
신곡	10941
##이후	10942
##결과	10943
##uk	10944
##대학원	10945
##VER	10946
컴백	10947
분홍	10948
이노	10949
이세계	10950
##틈	10951
##매치	10952
##시청	10953
##고생	10954
유탄	10955
발각	10956
이별	10957
Fl	10958
사직	10959
##고사	10960
트윈	10961
산소	10962
Pl	10963
망토	10964
풍기	10965
조차	10966
천명	10967
냥	10968
표적	10969
##치오	10970
잔혹	10971
##말로	10972
##부르	10973
메시	10974
무지개	10975
물려받	10976
Ver	10977
마하	10978
상금	10979
제니	10980
소비자	10981
박수	10982
성전	10983
##엠	10984
##젼	10985
##부리	10986
공속	10987
시크릿	10988
녹이	10989
##베트	10990
내외	10991
CE	10992
진에어	10993
믹스	10994
뉴질랜드	10995
관장	10996
전이	10997
왕족	10998
키라	10999
합작	11000
그러면	11001
터보	11002
스컬	11003
정밀	11004
이온	11005
오다	11006
급격히	11007
##베르크	11008
애완	11009
궁극기	11010
가구	11011
시외	11012
뺏기	11013
얹	11014
진동	11015
게끔	11016
##모르	11017
EC	11018
특공	11019
마찰	11020
취재	11021
다비	11022
발급	11023
리모	11024
EXP	11025
카리스마	11026
아사히	11027
클린	11028
결의	11029
##하우스	11030
용자	11031
##도서관	11032
엘레	11033
style	11034
시트	11035
미르	11036
에디션	11037
지오	11038
##사진	11039
이윤	11040
##파티	11041
##클린	11042
미노	11043
가이드	11044
서방	11045
유재석	11046
씻	11047
초점	11048
정점	11049
실존	11050
##테크	11051
##당초	11052
일체	11053
리나	11054
맞히	11055
대세	11056
##ier	11057
얽히	11058
경사	11059
도약	11060
카테	11061
꾀	11062
부스트	11063
면허	11064
개구리	11065
측근	11066
호러	11067
##카스	11068
스케일	11069
코스프레	11070
방사능	11071
독립운동	11072
김구	11073
##보기	11074
신한	11075
네크로	11076
경부	11077
Sch	11078
##도어	11079
격렬	11080
앗	11081
선포	11082
##와라	11083
Girl	11084
Season	11085
두드러지	11086
오죽하	11087
대차	11088
##우주	11089
군요	11090
명나라	11091
골프	11092
##먹이	11093
1962	11094
##앵	11095
##ash	11096
IP	11097
만점	11098
협조	11099
지루	11100
포탈	11101
유우키	11102
아이디	11103
ar	11104
맨유	11105
메이저리그	11106
잔류	11107
La	11108
농민	11109
그루	11110
후쿠오카	11111
DM	11112
##일본	11113
##쑤	11114
##학부	11115
청춘	11116
둠	11117
헬멧	11118
카일	11119
##기준	11120
연소	11121
NO	11122
미러	11123
162	11124
롬	11125
##빼	11126
약혼	11127
피지컬	11128
선동	11129
이빨	11130
황당	11131
절벽	11132
tr	11133
서명	11134
118	11135
자네	11136
페어리	11137
##폭력	11138
##박물관	11139
팡	11140
연동	11141
리라	11142
궁합	11143
반성	11144
WC	11145
##군주	11146
##살리	11147
수신	11148
이놈	11149
이사장	11150
한양	11151
불러오	11152
호드	11153
##reat	11154
1966	11155
##IX	11156
##순위	11157
정규시즌	11158
종전	11159
친애	11160
메일	11161
흡혈귀	11162
##뼈	11163
선로	11164
기질	11165
부시	11166
##노미야	11167
##로프	11168
벙커	11169
고립	11170
##자원	11171
##헤드	11172
기동력	11173
유카	11174
잠기	11175
##ib	11176
복지	11177
혁신	11178
벗기	11179
젬	11180
미정	11181
##왕후	11182
자존심	11183
##장소	11184
점심	11185
에메	11186
중견	11187
철도역	11188
한하	11189
314	11190
돌려주	11191
벌써	11192
러시	11193
오퍼	11194
부작	11195
기리	11196
지선	11197
생김새	11198
유진	11199
##usic	11200
##훼	11201
모욕	11202
Max	11203
위쪽	11204
질주	11205
흥분	11206
일조	11207
정조	11208
반역	11209
거세	11210
웰	11211
사수	11212
사방	11213
대피	11214
##밴드	11215
춤추	11216
스매	11217
##구니	11218
##베리아	11219
고난	11220
##무늬	11221
750	11222
모종	11223
레이디	11224
하사	11225
요미	11226
할로윈	11227
징계	11228
##팍	11229
##백질	11230
##당기	11231
예의	11232
1964	11233
마야	11234
유아	11235
부천	11236
##백과	11237
디스플레이	11238
##트릭	11239
미인	11240
쉴드	11241
로렌	11242
국방부	11243
##듣	11244
##제품	11245
주석	11246
래퍼	11247
##시고	11248
리본	11249
그간	11250
한강	11251
정문	11252
부러지	11253
한꺼	11254
월간	11255
##금지	11256
##딴	11257
Vol	11258
TS	11259
금요일	11260
가위	11261
수중	11262
이용자	11263
DNA	11264
##국어	11265
문신	11266
망설	11267
침착	11268
스파이더맨	11269
다니엘	11270
##세지	11271
기소	11272
토트넘	11273
파운드	11274
##그레	11275
집회	11276
사치	11277
교과서	11278
스나이퍼	11279
필름	11280
Ed	11281
##전력	11282
화폐	11283
##캐릭터	11284
루프	11285
리코	11286
각도	11287
##}}	11288
에밀리	11289
--	11290
빙결	11291
강대	11292
리사	11293
##ose	11294
ld	11295
그쪽	11296
서류	11297
##넨	11298
##대체	11299
아유	11300
천상	11301
서열	11302
교역	11303
우두	11304
카운티	11305
##바퀴	11306
탱킹	11307
##니즘	11308
건지	11309
이야	11310
##도스	11311
적시타	11312
AV	11313
자이언트	11314
##토르	11315
갈라지	11316
##드라마	11317
능가	11318
한꺼번에	11319
모터	11320
아케	11321
두려워하	11322
옴	11323
부동산	11324
##데미지	11325
노랗	11326
김주	11327
방안	11328
원로	11329
amp	11330
소생	11331
자율	11332
Col	11333
##니스트	11334
서적	11335
김지	11336
종로	11337
##플러	11338
여자아이	11339
블럭	11340
##te	11341
트윗	11342
so	11343
리프	11344
기껏	11345
통솔	11346
현자	11347
GM	11348
경성	11349
중소	11350
서기	11351
HE	11352
오만	11353
홈경기	11354
도감	11355
##해자	11356
진단	11357
여태	11358
선원	11359
극심	11360
##ail	11361
욕망	11362
##msys	11363
부끄럽	11364
아랫	11365
영국군	11366
유고	11367
츠키	11368
##ition	11369
ldmsys	11370
불길	11371
내셔널	11372
섬기	11373
사물	11374
모음	11375
##발전	11376
남동	11377
테마곡	11378
함장	11379
애인	11380
샤오	11381
##녹	11382
출판사	11383
학급	11384
서울대	11385
평등	11386
환생	11387
다녀	11388
rd	11389
##시내	11390
왕가	11391
탈환	11392
숙소	11393
룩	11394
감자	11395
썸	11396
골치	11397
Night	11398
##현상	11399
태생	11400
충청북도	11401
##안전	11402
##우지	11403
바텀	11404
##공개	11405
판사	11406
BC	11407
연이	11408
혼합	11409
##들목	11410
초과	11411
워리어	11412
상냥	11413
학년도	11414
키요	11415
직위	11416
not	11417
특수능력	11418
##자카	11419
스탈린	11420
##오피스	11421
##챠	11422
필사	11423
알렉산드	11424
재즈	11425
닐	11426
카네	11427
계절	11428
##기념	11429
고인	11430
줄기	11431
말레이시아	11432
제의	11433
##IL	11434
달려오	11435
협동	11436
김광	11437
학대	11438
##타니	11439
공대	11440
소나	11441
프론	11442
메트로	11443
앨런	11444
아마존	11445
퍽	11446
중간중간	11447
항공사	11448
##ild	11449
유니콘	11450
암컷	11451
뻔하	11452
168	11453
하여금	11454
정그르	11455
한정판	11456
강인	11457
##베르트	11458
##파일	11459
Let	11460
탈취	11461
유메	11462
##ᆼ가	11463
청하	11464
##정당	11465
##아니	11466
살인사건	11467
저글링	11468
등재	11469
소소	11470
과시	11471
페르소나	11472
인텔	11473
##사령부	11474
뤼	11475
안쓰	11476
월호	11477
ᆯ래	11478
깨끗	11479
보강	11480
##바루	11481
급행	11482
얼라이	11483
병행	11484
시범	11485
##ody	11486
프로야구	11487
탐지	11488
유동	11489
돌려	11490
스텟	11491
랄	11492
남양	11493
관직	11494
Black	11495
간판	11496
##프란	11497
법인	11498
159	11499
오토바이	11500
##수라	11501
각국	11502
##다스	11503
뚱	11504
요격	11505
입원	11506
시온	11507
일환	11508
##수준	11509
존슨	11510
희생자	11511
퇴치	11512
##톨	11513
지지율	11514
이행	11515
##가족	11516
도서	11517
박쥐	11518
BD	11519
##해군	11520
요코하마	11521
대검	11522
굶	11523
케이크	11524
전지	11525
카피	11526
##본인	11527
보고서	11528
재배	11529
뻘	11530
##항목	11531
라인하르트	11532
리버스	11533
##짤	11534
문화재	11535
도배	11536
만렙	11537
##등록	11538
##베이스	11539
이념	11540
연고	11541
윤리	11542
맛보	11543
##파리	11544
팔라	11545
##총리	11546
브론	11547
이승만	11548
로키	11549
라틴어	11550
##바리	11551
출동	11552
마도카	11553
어원	11554
동구	11555
노부나가	11556
빅토리아	11557
승패	11558
매그	11559
1948	11560
디아블로	11561
mar	11562
##ough	11563
부친	11564
##수수	11565
삼키	11566
오케	11567
##각형	11568
종영	11569
야당	11570
원판	11571
중재	11572
집필	11573
이천	11574
AF	11575
욕심	11576
##볼트	11577
MM	11578
포션	11579
챔스	11580
히드라	11581
1944	11582
신작	11583
아무렇	11584
##룰	11585
1965	11586
부채	11587
OG	11588
열대	11589
##33	11590
두껍	11591
##지도	11592
아리스	11593
교도소	11594
##폴리스	11595
로스앤	11596
팔레	11597
인쇄	11598
##통수	11599
검정	11600
클레	11601
퍼펙트	11602
전담	11603
포착	11604
엉덩이	11605
##재료	11606
팁	11607
##ㅋㅋ	11608
##카라	11609
RE	11610
배구	11611
협정	11612
##뿔	11613
무능	11614
와이번스	11615
오니	11616
눈앞	11617
프랑크	11618
로스앤젤레스	11619
피자	11620
4000	11621
도대체	11622
##보라	11623
어제	11624
아메리칸	11625
섭취	11626
밀리언	11627
미소녀	11628
애용	11629
쇄	11630
Op	11631
##실장	11632
신생	11633
##이센	11634
어서	11635
##gr	11636
##기병	11637
##결정	11638
대니	11639
성사	11640
김치	11641
피난	11642
진술	11643
본능	11644
##와이	11645
성벽	11646
멸종	11647
객관	11648
##데르	11649
##aster	11650
포크	11651
레이싱	11652
ㅔ요	11653
외야수	11654
지크	11655
아니하	11656
아카네	11657
내밀	11658
점검	11659
##삐	11660
##app	11661
안토니	11662
평상시	11663
사이토	11664
##orts	11665
##리건	11666
##펄	11667
이계	11668
목포	11669
##퍼니	11670
빌보드	11671
펭	11672
쿄코	11673
해운	11674
디오	11675
레나	11676
##은이	11677
목욕	11678
그란	11679
주저	11680
해전	11681
다케	11682
괴인	11683
##uc	11684
##제스	11685
스텔스	11686
인피니티	11687
소득	11688
사용가능	11689
국무	11690
테니스	11691
조립	11692
팅	11693
1946	11694
##연대	11695
##회담	11696
유스	11697
계곡	11698
크래	11699
물자	11700
화석	11701
동북	11702
그리핀	11703
걸어가	11704
로비	11705
##서비스	11706
레버	11707
세르비아	11708
화신	11709
##스코트	11710
PK	11711
##작업	11712
학사	11713
성명	11714
맑	11715
##예선	11716
흑막	11717
##메스	11718
대학생	11719
난민	11720
성지	11721
타로	11722
##삼거리	11723
원한	11724
##어택	11725
수성	11726
##CE	11727
박자	11728
##소문	11729
울음	11730
페리	11731
대승	11732
최상급	11733
독백	11734
##ject	11735
달콤	11736
en	11737
드워프	11738
그리스도	11739
##펑	11740
##OO	11741
강동	11742
역명	11743
EXT	11744
부제	11745
제발	11746
##애나	11747
폭로	11748
##개혁	11749
츤	11750
..?	11751
스타워즈	11752
##확률	11753
김대중	11754
##ari	11755
##뮤직	11756
math	11757
##스티스	11758
컨디션	11759
나이프	11760
프랭크	11761
##팟	11762
평택	11763
믿음	11764
블라디	11765
무신	11766
민폐	11767
##행성	11768
단백질	11769
le	11770
AL	11771
테란	11772
약체	11773
##숲	11774
장판	11775
CR	11776
과금	11777
금발	11778
순간이동	11779
세자	11780
덥	11781
카시	11782
아쉬움	11783
아울	11784
다큐멘터리	11785
편의점	11786
그림체	11787
##마당	11788
어드배	11789
##형제	11790
휴대폰	11791
EZ	11792
낯	11793
확립	11794
필라	11795
아르바이트	11796
두려움	11797
펌프	11798
알렉산더	11799
점멸	11800
수컷	11801
스타트	11802
놔	11803
와타나베	11804
바쿠	11805
전임	11806
메디	11807
##iel	11808
게르	11809
에코	11810
떠돌	11811
도미	11812
아슬	11813
리바	11814
라이너	11815
궁전	11816
사임	11817
유머	11818
##공단	11819
적이	11820
##래스	11821
로스트	11822
가오	11823
테오	11824
한신	11825
마인드	11826
151	11827
##국장	11828
분배	11829
##장고	11830
남학생	11831
뺘	11832
옐로	11833
개막전	11834
##형태	11835
138	11836
꺼지	11837
얄	11838
두루	11839
권하	11840
뭐하	11841
Gu	11842
출석	11843
장본인	11844
가마	11845
으려면	11846
평판	11847
한대	11848
SA	11849
립	11850
스카웃	11851
던지라	11852
숙청	11853
타치	11854
##부족	11855
격퇴	11856
##어인	11857
조회수	11858
##주군	11859
남한	11860
320	11861
172	11862
회복량	11863
##젤리	11864
##무네	11865
직행	11866
모나	11867
##교수	11868
동아시아	11869
GSL	11870
가해자	11871
조수	11872
라라	11873
이쿠	11874
마쓰	11875
신념	11876
플레	11877
득표율	11878
눈동자	11879
년전	11880
무도	11881
막부	11882
철갑	11883
##테스트	11884
##TA	11885
##성이	11886
순천	11887
우즈	11888
퀴즈	11889
배후	11890
주입	11891
얼리	11892
자사	11893
개업	11894
ATK	11895
가령	11896
##ats	11897
호크	11898
단자	11899
##ye	11900
해변	11901
툭	11902
살아오	11903
고사	11904
메이커	11905
고의	11906
단서	11907
무한도전	11908
축구선수	11909
점하	11910
타카하시	11911
EU	11912
##eah	11913
고가	11914
##회관	11915
천국	11916
##인원	11917
315	11918
시련	11919
혼혈	11920
1961	11921
##그라운드	11922
빡치	11923
늪	11924
평론가	11925
##따르	11926
오비	11927
GD	11928
코끼리	11929
티저	11930
최순실	11931
대안	11932
어벤져	11933
얌	11934
##문서	11935
TOP	11936
Mag	11937
158	11938
동상	11939
둥글	11940
기인	11941
##순환	11942
내정	11943
캣	11944
주머니	11945
##돔	11946
추모	11947
##슈트	11948
##무대	11949
얼티밋	11950
강서	11951
그리하여	11952
란스	11953
CL	11954
##모니	11955
하지	11956
탁월	11957
정답	11958
큐어	11959
찔리	11960
##콕	11961
마타	11962
항성	11963
뾰	11964
##꿉	11965
##카페	11966
강아지	11967
변호	11968
배리	11969
방언	11970
AB	11971
##카타	11972
영화제	11973
NT	11974
섬멸	11975
##캣	11976
데미	11977
대면	11978
경찰서	11979
##박사	11980
관광객	11981
ver	11982
사나	11983
건너가	11984
##로소	11985
오공	11986
##재단	11987
응답	11988
##모양	11989
여수	11990
UC	11991
##oh	11992
치고	11993
##eth	11994
악행	11995
호리	11996
투고	11997
엠블	11998
어기	11999
##재기	12000
다녀오	12001
비단	12002
도리	12003
셜	12004
##ron	12005
사가	12006
둥지	12007
하느	12008
##상승	12009
##회복	12010
박스오피스	12011
관계없이	12012
퓨전	12013
찬양	12014
충고	12015
베이비	12016
소꿉	12017
중도	12018
짜증나	12019
##ings	12020
파고	12021
공명	12022
##고래	12023
##미즈	12024
##시키	12025
리믹스	12026
이순신	12027
우승팀	12028
##풀이	12029
경전	12030
##홈런	12031
노릇	12032
조항	12033
공학	12034
독보	12035
시아	12036
스쿼드	12037
쿠바	12038
뒤쪽	12039
공산주의	12040
루마니아	12041
광복	12042
##빨리	12043
##강화	12044
쯔	12045
자작	12046
176	12047
유즈	12048
총선거	12049
마을버스	12050
결과물	12051
천지	12052
그랑프리	12053
데몬	12054
단역	12055
##정식	12056
병살	12057
클라	12058
will	12059
다저스	12060
##무이	12061
카사	12062
섬광	12063
저승	12064
Is	12065
ME	12066
갸	12067
감성	12068
성대	12069
바이킹	12070
구로	12071
흉내	12072
솔저	12073
마저	12074
김병	12075
##inal	12076
유치원	12077
##==	12078
126	12079
용산	12080
##네트	12081
상대팀	12082
##주로	12083
폴아웃	12084
1949	12085
지면	12086
유마	12087
십자군	12088
모빌	12089
예고편	12090
고이	12091
김일성	12092
##플렉스	12093
완벽히	12094
Am	12095
반경	12096
사관	12097
##과대학	12098
렉스	12099
##활약	12100
##내리	12101
김윤	12102
과격	12103
피스	12104
후면	12105
10000	12106
응급	12107
하느님	12108
김씨	12109
도요	12110
Don	12111
우두머리	12112
##박이	12113
균열	12114
학술	12115
전두	12116
##순양함	12117
##ult	12118
##스테이션	12119
국장	12120
미녀	12121
계략	12122
친일	12123
비리	12124
소마	12125
김성근	12126
고속도로	12127
무녀	12128
일각	12129
##숭	12130
154	12131
상시	12132
봉사	12133
like	12134
LE	12135
##부문	12136
수확	12137
거꾸	12138
이광	12139
후유	12140
접수	12141
공국	12142
헤라	12143
WH	12144
이니	12145
보루	12146
흉악	12147
##던지	12148
몸매	12149
{{{-	12150
KB	12151
간파	12152
##고스	12153
트랩	12154
연수	12155
깃털	12156
Time	12157
생태	12158
무늬	12159
132	12160
##MAN	12161
건립	12162
끌어내	12163
##티지	12164
충남	12165
물약	12166
##잎	12167
##덕션	12168
사슬	12169
##자책	12170
어긋	12171
주황	12172
이래저	12173
사망자	12174
삽질	12175
카레	12176
##행동	12177
##퉁	12178
관문	12179
표하	12180
고발	12181
빗나가	12182
신조	12183
반기	12184
타키	12185
##스타인	12186
new	12187
킷	12188
절단	12189
브레이커	12190
세컨	12191
강타	12192
##리스크	12193
군부	12194
##서쪽	12195
##포머	12196
표기법	12197
아테나	12198
응시	12199
##13	12200
컬렉션	12201
서바이벌	12202
쫓기	12203
##ᆨ션	12204
크로아	12205
이용객	12206
쑤	12207
##리스타	12208
##과제	12209
지수	12210
은메달	12211
이리저리	12212
이래저래	12213
##일기	12214
218	12215
오세	12216
라이트닝	12217
손목	12218
역시나	12219
피오	12220
Mi	12221
주식회사	12222
감금	12223
완성도	12224
##GA	12225
##턱	12226
##교차	12227
풀려나	12228
##타스	12229
지상역	12230
##ov	12231
##니코	12232
니콜라	12233
##oul	12234
시어	12235
좌파	12236
급식	12237
##아르	12238
로열	12239
##하임	12240
어찌되	12241
안보	12242
##18	12243
호응	12244
##꼴	12245
##니버스	12246
인채	12247
사일	12248
보복	12249
두뇌	12250
브레이브	12251
##슬림	12252
이영호	12253
거듭하	12254
어느새	12255
짝사랑	12256
양심	12257
##ob	12258
##ᆯ렛	12259
당나라	12260
##처럼	12261
코로나	12262
스터	12263
야망	12264
거지	12265
성직자	12266
신임	12267
수라	12268
과언	12269
서리	12270
##ould	12271
후쿠시마	12272
동메달	12273
마르크	12274
스윙	12275
##맷	12276
##방지	12277
으리	12278
156	12279
드루이드	12280
##루기	12281
##혐	12282
유능	12283
..!	12284
iOS	12285
안드레	12286
승려	12287
##조정	12288
통행	12289
마족	12290
순양함	12291
##셉트	12292
통틀어	12293
Ser	12294
불상	12295
벡터	12296
one	12297
164	12298
##alk	12299
예방	12300
나들목	12301
정우	12302
##결승	12303
핑계	12304
천문	12305
##교도	12306
##tern	12307
레시피	12308
승급	12309
슬라이드	12310
장신구	12311
##yn	12312
139	12313
##던지	12314
나란히	12315
분자	12316
렀다	12317
##돼지	12318
유카리	12319
ᆫ가요	12320
이나마	12321
##15	12322
블랙홀	12323
후반전	12324
원주	12325
몰려오	12326
##미사일	12327
##up	12328
선봉	12329
153	12330
주술	12331
##마드	12332
Gaming	12333
자력	12334
고시	12335
충격파	12336
##뚫	12337
성숙	12338
##reak	12339
##웬	12340
맷집	12341
실적	12342
##엔진	12343
오키나	12344
김두	12345
##티넘	12346
놔두	12347
거꾸로	12348
엮	12349
##der	12350
하츠네	12351
불화	12352
##플라이	12353
벨라	12354
##able	12355
GK	12356
나열	12357
##영웅	12358
교향	12359
근로	12360
고통받	12361
하나님	12362
사이타마	12363
엉뚱	12364
밈	12365
ᆫ듯	12366
츠쿠	12367
열세	12368
능하	12369
##테오	12370
프로이센	12371
로제	12372
신상	12373
전염	12374
무슬림	12375
초등학생	12376
합법	12377
이그	12378
지각	12379
##동기	12380
크롬	12381
카토	12382
148	12383
삿	12384
##곧	12385
필두	12386
쿠라	12387
##무게	12388
우미	12389
컴뱃	12390
유해	12391
김선	12392
면제	12393
샤를	12394
Car	12395
미세	12396
최하	12397
##귄	12398
##ions	12399
맞먹	12400
리볼	12401
##널드	12402
##뿜	12403
##쵸	12404
##민주주의인민공화국	12405
가히	12406
##자재	12407
커플링	12408
차분	12409
저격수	12410
제조사	12411
상의	12412
땡	12413
연달	12414
##공연	12415
석사	12416
하드웨어	12417
창당	12418
Your	12419
초반부	12420
스톡	12421
재질	12422
버드	12423
167	12424
##뱉	12425
ᆫ단	12426
코디	12427
윈드	12428
셋째	12429
##닷	12430
203	12431
스네이	12432
##출연	12433
맞대	12434
몰아넣	12435
마당	12436
풍경	12437
##생산	12438
어긋나	12439
##멤버	12440
하비	12441
천체	12442
쫓아내	12443
##프란시스코	12444
취지	12445
조선민주주의인민공화국	12446
년동안	12447
##사상	12448
SSR	12449
통보	12450
크로아티아	12451
벌금	12452
##PA	12453
공격시	12454
메리트	12455
##메이트	12456
##요미	12457
루리	12458
1958	12459
##노프	12460
조던	12461
여주인공	12462
상원	12463
데뷔전	12464
제너	12465
1941	12466
대등	12467
딕	12468
지배자	12469
한층	12470
##운전	12471
운반	12472
174	12473
동등	12474
포텐	12475
난리	12476
자산	12477
타르	12478
##ull	12479
숙련도	12480
##웹	12481
레슬링	12482
황혼	12483
생각나	12484
##ᆯ리언	12485
주파	12486
영화배우	12487
##덮	12488
섹시	12489
평창	12490
##쟈	12491
##글리	12492
세키	12493
주유	12494
##비시	12495
se	12496
시간동안	12497
천주교	12498
전학	12499
##단계	12500
##껑	12501
Min	12502
동년	12503
테크닉	12504
최우수	12505
##니혼	12506
##랄드	12507
##날두	12508
브라우	12509
코파	12510
심정	12511
샌프란시스코	12512
앞세우	12513
##횟수	12514
시끄럽	12515
이진	12516
RO	12517
142	12518
아수라	12519
##목록	12520
사령부	12521
태조	12522
병과	12523
세례	12524
라마	12525
휴스턴	12526
뱅가드	12527
기법	12528
LTE	12529
##보험	12530
극초	12531
행진	12532
냉장고	12533
토론토	12534
문법	12535
도모	12536
##옌	12537
헤드샷	12538
키르	12539
딜량	12540
떨구	12541
지로	12542
가브리	12543
달인	12544
##러그	12545
스케줄	12546
칼라	12547
163	12548
빈약	12549
과감	12550
쳐들어오	12551
사야카	12552
##차원	12553
깨우	12554
스페인어	12555
창작물	12556
시네마	12557
타당	12558
타이어	12559
맹활약	12560
모의	12561
내면	12562
가라앉	12563
집사	12564
절정	12565
##ube	12566
리부	12567
봉하	12568
##ECT	12569
야마모토	12570
혼동	12571
##서버	12572
1954	12573
제자리	12574
무선	12575
BGA	12576
##라가	12577
염두	12578
상속	12579
연고지	12580
라비	12581
일련	12582
글리	12583
##시드	12584
마미	12585
간지	12586
디비전	12587
콜롬	12588
##ll	12589
have	12590
마스코트	12591
월요일	12592
pr	12593
벅	12594
능숙	12595
넬	12596
무색	12597
연구원	12598
out	12599
이만	12600
상부	12601
만년	12602
들르	12603
벚	12604
굳히	12605
졸업식	12606
##립트	12607
어빌리티	12608
로맨스	12609
지지자	12610
매트	12611
짬	12612
부가	12613
클레이	12614
##구나	12615
##스트림	12616
고우	12617
노비	12618
른	12619
##드래곤	12620
##ICE	12621
마수	12622
전례	12623
이오리	12624
##전트	12625
국기	12626
메모	12627
##로로	12628
범하	12629
패왕	12630
NM	12631
지성	12632
밀어붙이	12633
공로	12634
투사체	12635
정서	12636
유신	12637
앞면	12638
레인보우	12639
##유리	12640
비자	12641
143	12642
오즈	12643
137	12644
##미츠	12645
비오	12646
혼다	12647
##득점	12648
공교	12649
해고	12650
##투아	12651
방침	12652
망설이	12653
쟁이	12654
##문자	12655
##코미	12656
찰나	12657
노골	12658
스탭	12659
초상화	12660
포병	12661
##너뜨리	12662
이인	12663
고추	12664
##정권	12665
무너뜨리	12666
##파워	12667
만장	12668
약칭	12669
하나같이	12670
사탕	12671
##튠	12672
꼴찌	12673
구제	12674
영등	12675
스케이	12676
쿤	12677
매기	12678
##배차	12679
313	12680
영문명	12681
대역	12682
##에트	12683
사소	12684
부처	12685
공짜	12686
환호	12687
대외	12688
따내	12689
한달	12690
워터	12691
##홉	12692
Sum	12693
쳐다보	12694
솔직히	12695
무죄	12696
혹평	12697
스마일	12698
일베	12699
단련	12700
다지만	12701
배율	12702
##메이커	12703
##보그	12704
테리	12705
스피어	12706
능력치	12707
장례식	12708
##갱	12709
오로치	12710
득표수	12711
접전	12712
소꿉친구	12713
톡	12714
##유저	12715
국민당	12716
풍선	12717
년식	12718
강수	12719
인체	12720
HS	12721
##거스	12722
카렌	12723
운동장	12724
박종	12725
ALL	12726
##더슨	12727
##엉	12728
내뱉	12729
캡슐	12730
하도	12731
무궁	12732
CN	12733
##부시	12734
IV	12735
운수사	12736
##악기	12737
음향	12738
주술사	12739
1943	12740
230	12741
본편	12742
스모	12743
카오루	12744
##쿠리	12745
재수	12746
전반기	12747
고래	12748
박탈	12749
아테네	12750
리볼버	12751
북동	12752
평균자책	12753
설마	12754
외국어	12755
알아차리	12756
광주광역시	12757
바비	12758
맥락	12759
##레아	12760
인과	12761
이션	12762
반란군	12763
##미디어	12764
157	12765
크라운	12766
제사	12767
톨	12768
몰아내	12769
침해	12770
잘생기	12771
확고	12772
칠레	12773
133	12774
ᆯ까요	12775
##ᅨᆫ	12776
##FL	12777
##원수	12778
궁수	12779
##넉	12780
##여부	12781
인스타그램	12782
빙의	12783
##관련	12784
오리온	12785
황실	12786
갈구	12787
##제르	12788
연막	12789
설탕	12790
플레이버	12791
스칼	12792
슬슬	12793
외관	12794
un	12795
재벌	12796
##ᆷ마	12797
146	12798
루스	12799
##드리히	12800
수아	12801
모에	12802
129	12803
상어	12804
해역	12805
극악	12806
갈기	12807
딥	12808
##단총	12809
##타우	12810
000000	12811
센트럴	12812
1942	12813
맹독	12814
진하	12815
부스	12816
##반신	12817
##STER	12818
##문화재	12819
##돌파	12820
종말	12821
173	12822
프레스	12823
거스르	12824
##수아	12825
광범위	12826
BO	12827
시모	12828
의의	12829
별칭	12830
전법	12831
우드	12832
힌	12833
##세자	12834
##통일	12835
얼라이언스	12836
음력	12837
스트리머	12838
시뮬레이션	12839
##더링	12840
스타즈	12841
죄수	12842
염색	12843
레이븐	12844
후대	12845
격하	12846
대목	12847
사무소	12848
제인	12849
미남	12850
오딘	12851
##제작	12852
제대	12853
펑크	12854
제프	12855
히사	12856
기관포	12857
가나	12858
진로	12859
클리셰	12860
번식	12861
가로막	12862
margin	12863
극우	12864
know	12865
##셸	12866
발현	12867
테일즈	12868
율리	12869
##왜란	12870
##카즈	12871
보직	12872
플라스틱	12873
유타	12874
제지	12875
원화	12876
앞뒤	12877
운수사명	12878
##MAX	12879
공손	12880
set	12881
지극	12882
##동원	12883
##DX	12884
공동체	12885
구독자	12886
##하트	12887
개판	12888
프로덕션	12889
명사	12890
나카무라	12891
##갸	12892
##티콘	12893
몸무게	12894
미호	12895
##워커	12896
아그	12897
사내	12898
이준	12899
해태	12900
OF	12901
원자력	12902
##잭	12903
시초	12904
화기	12905
박명	12906
##에몽	12907
기쁨	12908
힌트	12909
136	12910
Play	12911
호날두	12912
볼드	12913
##쫓	12914
야만	12915
레이지	12916
구호	12917
폐허	12918
BT	12919
기관단총	12920
숭배	12921
끝장	12922
##무실	12923
양국	12924
##ica	12925
CB	12926
플레임	12927
##che	12928
태권	12929
비참	12930
번갈	12931
멘붕	12932
Of	12933
끓이	12934
##ock	12935
출제	12936
##집단	12937
난투	12938
##권자	12939
##벨트	12940
As	12941
la	12942
년차	12943
잔해	12944
##사태	12945
##YP	12946
지사	12947
빈번	12948
중반부	12949
Red	12950
남미	12951
라크	12952
오바	12953
Type	12954
인명	12955
BM	12956
오른팔	12957
강탈	12958
일러스트레이터	12959
##14	12960
##플로	12961
히카루	12962
이방	12963
##점수	12964
중급	12965
생애	12966
키노	12967
애쓰	12968
##호쿠	12969
강습	12970
##개인	12971
공모	12972
##쿠로	12973
정전	12974
149	12975
다만	12976
원년	12977
스파크	12978
레스토	12979
달래	12980
루터	12981
줄리	12982
무단	12983
발하	12984
전속	12985
탄막	12986
페미니즘	12987
박해	12988
청룡	12989
##프레스	12990
저조	12991
꾸리	12992
표창	12993
텔레포트	12994
대법원	12995
정준	12996
랜서	12997
대패	12998
한손	12999
리뉴얼	13000
운영체제	13001
델타	13002
시오	13003
테레	13004
넓히	13005
BA	13006
공습	13007
##ict	13008
시흥	13009
##테츠	13010
##17	13011
기술력	13012
마카	13013
134	13014
카테고리	13015
하후	13016
연안	13017
림	13018
군복	13019
신관	13020
손잡이	13021
1900	13022
##받침	13023
크리스티	13024
차대전	13025
1956	13026
금고	13027
오케스트라	13028
##이름	13029
##리학	13030
##중국	13031
오키나와	13032
발톱	13033
##지않	13034
맞물리	13035
##파괴	13036
쿵	13037
모든것	13038
TP	13039
처녀	13040
라이센스	13041
##피어	13042
럭키	13043
때려잡	13044
바티	13045
수영복	13046
껍질	13047
얼터	13048
DI	13049
##ster	13050
노말	13051
겟	13052
거느리	13053
바이올리	13054
##ange	13055
##ater	13056
마모	13057
노아	13058
EV	13059
##차이즈	13060
핏	13061
먼지	13062
십자가	13063
산탄총	13064
취급받	13065
럼	13066
타고	13067
이스트	13068
비꼬	13069
상위호환	13070
진짜로	13071
##박히	13072
우크라	13073
##빌딩	13074
방화	13075
앵커	13076
해상도	13077
High	13078
##긴	13079
##글라스	13080
##브레	13081
##운영	13082
루키	13083
호출	13084
잠그	13085
##세서리	13086
##ons	13087
프레데	13088
사와	13089
리셋	13090
##서부	13091
가혹	13092
##사와	13093
까마귀	13094
프로레슬링	13095
##함대	13096
전수	13097
##입구	13098
##처스	13099
pro	13100
레오나	13101
조력	13102
역대급	13103
스기	13104
##펫	13105
콰	13106
##발리	13107
브랜	13108
##정리	13109
##소송	13110
공격기	13111
친정	13112
서치	13113
##연구원	13114
미끼	13115
장벽	13116
##참모	13117
러쉬	13118
직무	13119
프로스트	13120
제이슨	13121
##에스	13122
feat	13123
하치	13124
여장	13125
TE	13126
이호	13127
밀라	13128
불쾌	13129
브루스	13130
아이폰	13131
인터페이스	13132
닫히	13133
삼촌	13134
플래티넘	13135
이때문	13136
위시	13137
성기사	13138
한발	13139
NEW	13140
##딜러	13141
심히	13142
##메르	13143
한가지	13144
추출	13145
태종	13146
김천	13147
수시로	13148
원망	13149
일삼	13150
##싸이	13151
##ple	13152
##메인	13153
테이프	13154
망상	13155
전두환	13156
나락	13157
오디오	13158
저항력	13159
아래쪽	13160
어찌보	13161
수령	13162
므	13163
임진왜란	13164
%.	13165
영등포	13166
박영	13167
미식	13168
로그인	13169
어느날	13170
파괴력	13171
트렌	13172
147	13173
보르	13174
책상	13175
이즈미	13176
안철수	13177
##더기	13178
천공	13179
우기	13180
너클	13181
지난	13182
비로소	13183
Light	13184
김도	13185
스바루	13186
오역	13187
자부	13188
감기	13189
트레이닝	13190
포맷	13191
크로우	13192
경질	13193
##브리드	13194
이력	13195
채찍	13196
AE	13197
##빔	13198
##화학	13199
문헌	13200
외면	13201
280	13202
싣	13203
수소	13204
##인형	13205
원내	13206
길가	13207
당국	13208
##국제공항	13209
퇴역	13210
세일러	13211
덩어리	13212
파랑	13213
2500	13214
##경기장	13215
##숍	13216
킴	13217
드라	13218
찰리	13219
MO	13220
팬티	13221
슌	13222
GHz	13223
##실험	13224
##곡동	13225
퍼시	13226
Gen	13227
복도	13228
##타워	13229
상대식	13230
알프	13231
222	13232
뮤지션	13233
##to	13234
##ᆺ대	13235
CO	13236
무수	13237
카리	13238
의아	13239
##에로	13240
폐선	13241
배우자	13242
증기	13243
배신자	13244
##넘기	13245
##두리	13246
다짐	13247
사당	13248
입국	13249
~"	13250
연말	13251
워너	13252
초래	13253
바나나	13254
##러블	13255
1939	13256
순정	13257
범주	13258
편견	13259
불리우	13260
메구미	13261
최정	13262
해독	13263
발전소	13264
증인	13265
##CC	13266
was	13267
What	13268
심야	13269
남아	13270
씬	13271
하지메	13272
굴러	13273
사료	13274
미쓰	13275
김연	13276
미도리	13277
유선	13278
사천왕	13279
##며	13280
법안	13281
요미우리	13282
따라잡	13283
자회사	13284
치카	13285
보잉	13286
제우스	13287
감행	13288
양대	13289
##주택	13290
바닷	13291
##니스탄	13292
주고	13293
신세계	13294
Kor	13295
저스티스	13296
샹	13297
166	13298
라든가	13299
음색	13300
두명	13301
##안군	13302
데스티	13303
목재	13304
도우	13305
##유지	13306
1959	13307
지요	13308
수상자	13309
##ics	13310
1936	13311
불가리아	13312
오프라인	13313
순찰	13314
페이크	13315
긋	13316
특수부대	13317
연기력	13318
차림	13319
파스	13320
입시	13321
개그맨	13322
##특별자치	13323
멀리서	13324
물어보	13325
##패드	13326
깃들	13327
##용차	13328
##ACK	13329
Heart	13330
지미	13331
크리스토	13332
청원	13333
흑마법	13334
Tw	13335
##대부	13336
제리	13337
단기	13338
타우	13339
##les	13340
심화	13341
프로그래밍	13342
무자	13343
##ᆯ리티	13344
도쿠가와	13345
LOVE	13346
경지	13347
반론	13348
북구	13349
정교회	13350
oh	13351
수지	13352
공자	13353
1955	13354
GPU	13355
일산	13356
테일러	13357
영남	13358
##ex	13359
드리블	13360
용의자	13361
##파이트	13362
거르	13363
##체인	13364
##BM	13365
한성	13366
##어붙	13367
##노카	13368
전광	13369
만루	13370
케리건	13371
##칸센	13372
직통	13373
트랜스포머	13374
##힘	13375
퍼붓	13376
##레일	13377
##바위	13378
진도	13379
NHK	13380
AG	13381
어벤져스	13382
레스토랑	13383
어레인지	13384
##사전	13385
배속	13386
재임	13387
낡	13388
##레티	13389
##조치	13390
냉기	13391
팩션	13392
##터널	13393
투성이	13394
브레스	13395
명탐정	13396
퍼센트	13397
바이크	13398
##누르	13399
##빠르	13400
Mr	13401
마르코	13402
사육	13403
##윽	13404
치바	13405
그리드	13406
숙주	13407
착지	13408
슬라임	13409
격리	13410
어린아이	13411
Blo	13412
롤링	13413
페르난	13414
미숙	13415
종사	13416
둘러싸이	13417
메세지	13418
PL	13419
준공	13420
##당시	13421
체격	13422
타이완	13423
여단	13424
##기획	13425
겨루	13426
탈당	13427
##lass	13428
미스터리	13429
프랜차이즈	13430
한복	13431
더구나	13432
주되	13433
##행사	13434
아아	13435
달라	13436
이데	13437
고음	13438
무명	13439
일어	13440
뒷면	13441
##16	13442
무식	13443
##메다	13444
강세	13445
##아슬	13446
##프라이즈	13447
틀어	13448
##플라	13449
FPS	13450
협의	13451
보살	13452
패스트	13453
아이스크림	13454
MK	13455
##연방	13456
방벽	13457
##해방	13458
세컨드	13459
##AND	13460
##귤러	13461
고스	13462
콘셉트	13463
TO	13464
번타자	13465
정신나가	13466
교대	13467
유대인	13468
아랑	13469
회담	13470
##자동	13471
아슬아슬	13472
이과	13473
쇼트	13474
팟	13475
전열	13476
##니트	13477
Par	13478
소령	13479
하이브리드	13480
남자친구	13481
미아	13482
쫓아가	13483
현직	13484
##nder	13485
땀	13486
생선	13487
교통사고	13488
##볼루션	13489
1952	13490
##실력	13491
미모	13492
진리	13493
time	13494
운항	13495
직격	13496
엘더	13497
항모	13498
이동력	13499
인구수	13500
주차장	13501
##고시	13502
전반전	13503
되살리	13504
##인구	13505
정교	13506
##사냥	13507
뇌물	13508
하하	13509
준결승	13510
술집	13511
ll	13512
330	13513
스콧	13514
##문트	13515
최대치	13516
##기인	13517
내뿜	13518
반군	13519
하반기	13520
지표	13521
쿠니	13522
270	13523
##성장	13524
신칸센	13525
웨일	13526
찌질	13527
##포츠	13528
동사	13529
한해	13530
##ors	13531
Fe	13532
스트리밍	13533
얼어붙	13534
표식	13535
야마다	13536
통증	13537
##메일	13538
모양새	13539
카즈야	13540
##ME	13541
가르침	13542
접어들	13543
애국	13544
파손	13545
##나스	13546
##건물	13547
안습하	13548
LED	13549
자질	13550
##규어	13551
사나이	13552
회계	13553
시집	13554
##자이	13555
몹시	13556
광대	13557
경선	13558
##무진	13559
입양	13560
둘이	13561
허브	13562
쿠마	13563
휴게	13564
진형	13565
##청장	13566
웜	13567
##티오	13568
심상	13569
뚝	13570
##미션	13571
더욱이	13572
서민	13573
교정	13574
미들	13575
1947	13576
GTA	13577
멋있	13578
파격	13579
아카이	13580
두근	13581
바그	13582
##포로	13583
#!	13584
죠죠	13585
##체육관	13586
방공	13587
리가	13588
파문	13589
225	13590
덕후	13591
비키	13592
##리다	13593
현존	13594
##모자	13595
Good	13596
후루	13597
응하	13598
##무사	13599
오타쿠	13600
적재	13601
특훈	13602
마기	13603
##노이	13604
##캐스트	13605
##팝	13606
윈터	13607
신주	13608
##퍼트	13609
소리치	13610
##펀치	13611
갯수	13612
리자	13613
함성	13614
넉넉	13615
말년	13616
부당	13617
골목	13618
##폴리	13619
테러리스트	13620
##코인	13621
##대륙	13622
양측	13623
파키스탄	13624
재빨리	13625
##산물	13626
섹스	13627
우산	13628
##두사	13629
Per	13630
백화점	13631
헐크	13632
제단	13633
평안	13634
위키백과	13635
자각	13636
공존	13637
##황후	13638
쐐	13639
ᆯ라	13640
서두르	13641
스내	13642
공격받	13643
저희	13644
##려보	13645
##개조	13646
마마	13647
##카제	13648
##투르	13649
쓰러트리	13650
다중	13651
우물	13652
##툭	13653
에메랄드	13654
뱉	13655
박상	13656
다이노스	13657
테크노	13658
기행	13659
카를로스	13660
얕	13661
사랑받	13662
핸드폰	13663
냉동	13664
자칫	13665
볶	13666
카이저	13667
##니치	13668
무비	13669
프리드리히	13670
서해	13671
##메어	13672
책략	13673
월등	13674
애틀	13675
하행	13676
발간	13677
야전	13678
맷	13679
##캠프	13680
여배우	13681
SL	13682
짤리	13683
프랑스군	13684
am	13685
##HT	13686
사지	13687
스치	13688
나인	13689
담임	13690
정형	13691
소설가	13692
##브로	13693
##주리	13694
로테이션	13695
털어놓	13696
##장관	13697
##카시	13698
상쇄	13699
소규모	13700
라파	13701
##통제	13702
워크	13703
버블	13704
츠카	13705
적색	13706
260	13707
장원	13708
수도원	13709
##eep	13710
개미	13711
급히	13712
발렌타인	13713
1800	13714
악곡	13715
##강점	13716
다면	13717
이드	13718
메우	13719
##찌르	13720
MSL	13721
미하	13722
##클릭	13723
##파라	13724
하와이	13725
차이나	13726
저거	13727
히나타	13728
##군단	13729
##백화점	13730
꿇	13731
후드	13732
레이어	13733
헬리코	13734
꼼수	13735
군림	13736
라이즈	13737
웨인	13738
1919	13739
##충전	13740
복용	13741
호투	13742
아타	13743
엄폐	13744
단식	13745
##레스트	13746
분쇄	13747
##흘	13748
장편	13749
IIDX	13750
몰아붙이	13751
##바키아	13752
잡몹	13753
##캐슬	13754
##저드	13755
##얼리	13756
서태	13757
중학생	13758
자켓	13759
여캐	13760
##ott	13761
##현우	13762
##진화	13763
Kn	13764
ab	13765
차용	13766
두목	13767
몇년	13768
필립	13769
실력자	13770
0900	13771
Li	13772
일례	13773
ㅓㅆ었	13774
##똑	13775
미유키	13776
지부	13777
솔라	13778
##사정	13779
동조	13780
배리어	13781
쳐내	13782
EBS	13783
눈빛	13784
초중	13785
군데	13786
꿰뚫	13787
카이사르	13788
벚꽃	13789
wid	13790
채취	13791
되게	13792
직속	13793
시시	13794
대행	13795
Wii	13796
유지비	13797
휴먼	13798
이례	13799
##장난	13800
두가지	13801
심연	13802
레슨	13803
ᆯ려고	13804
프로토타입	13805
##앙스	13806
전국동	13807
원장	13808
보디	13809
앤디	13810
추궁	13811
간호사	13812
##리오스	13813
화약	13814
시가지	13815
인문	13816
로저	13817
This	13818
ㅏ야	13819
훈훈	13820
모던	13821
##일으키	13822
프롤로그	13823
ᆯ지라도	13824
양보	13825
길거리	13826
징크스	13827
즉각	13828
본가	13829
##IV	13830
##프레이	13831
유방	13832
도어	13833
컴퍼니	13834
산악	13835
더라면	13836
Baby	13837
##25	13838
안성	13839
##IK	13840
중성	13841
타고나	13842
화소	13843
공천	13844
##단위	13845
앰	13846
라던가	13847
재활	13848
유니온	13849
그라운드	13850
##anna	13851
쐐기	13852
미끄	13853
출고	13854
##푸르	13855
치마	13856
##테라	13857
단선	13858
냉각	13859
스크롤	13860
유벤	13861
넥스	13862
김원	13863
병종	13864
기함	13865
셰이	13866
츤데레	13867
HARD	13868
Sm	13869
소매	13870
사투리	13871
실정	13872
트릴	13873
요르	13874
증발	13875
럴	13876
ONE	13877
소노	13878
##부사	13879
멧	13880
##갤러	13881
더미	13882
불평	13883
유코	13884
히데요시	13885
떄	13886
##니발	13887
결정전	13888
바닐라	13889
부류	13890
방울	13891
산화	13892
1953	13893
리터	13894
##폭풍	13895
##등장	13896
##화면	13897
무고	13898
웨폰	13899
지문	13900
##용사	13901
##델피아	13902
교훈	13903
에필로그	13904
근력	13905
베기	13906
상행	13907
믹	13908
적립	13909
탄탄	13910
라구	13911
무사시	13912
GN	13913
유승	13914
1938	13915
##웨이트	13916
##사실	13917
따돌리	13918
##other	13919
필라델피아	13920
스파이크	13921
템포	13922
##강점기	13923
복음	13924
리부트	13925
##럭스	13926
Rock	13927
이화	13928
클러	13929
원작자	13930
단말	13931
169	13932
us	13933
##겜	13934
랜스	13935
##채널	13936
##19	13937
비아	13938
운석	13939
구절	13940
차일드	13941
발라드	13942
아르메	13943
프로세서	13944
##플리케이션	13945
에레	13946
선형	13947
관절	13948
오클	13949
격침	13950
다이스케	13951
##아주	13952
줄어드	13953
그런것	13954
거품	13955
배열	13956
교내	13957
방어막	13958
말소	13959
550	13960
##쿠니	13961
부흥	13962
야외	13963
범행	13964
고산	13965
홈즈	13966
동이	13967
인디언	13968
뫼	13969
허위	13970
면접	13971
정계	13972
리바운드	13973
##토리얼	13974
릴리스	13975
첫날	13976
width	13977
일품	13978
신흥	13979
참으로	13980
##icro	13981
Live	13982
에바	13983
박용	13984
##살인	13985
양호	13986
##방위	13987
상호작용	13988
태극	13989
헬리콥터	13990
##리지	13991
요우	13992
멜론	13993
밍	13994
##서기	13995
받치	13996
밀어주	13997
악령	13998
피드	13999
파이트	14000
러닝	14001
엘리스	14002
##전공	14003
##정신	14004
Ac	14005
팜	14006
축적	14007
왕관	14008
퉁	14009
노트북	14010
죄송	14011
런처	14012
겔	14013
##따위	14014
온몸	14015
이카	14016
##ins	14017
뉘앙스	14018
후안	14019
##심장	14020
##시계	14021
##그대로	14022
육지	14023
실천	14024
꽁	14025
##oss	14026
성균	14027
오락실	14028
유배	14029
##ru	14030
DB	14031
패닉	14032
본의	14033
물리학	14034
대중교통	14035
##자유	14036
영동	14037
토비	14038
우파	14039
호세	14040
고든	14041
물가	14042
희대	14043
밀레	14044
##차지	14045
##던트	14046
말미	14047
실로	14048
프랭	14049
책정	14050
시가	14051
뎀	14052
좁히	14053
화내	14054
##ᆯ로지	14055
수평	14056
불문	14057
멀티플레이	14058
##회견	14059
술탄	14060
일일이	14061
연금술사	14062
자루	14063
존대	14064
가이아	14065
cc	14066
주거	14067
키드	14068
황태자	14069
##하드	14070
장안	14071
카게	14072
##멋	14073
수용소	14074
##부상	14075
발칸	14076
지그	14077
연세	14078
트러블	14079
##시지방	14080
밀치	14081
OK	14082
##gain	14083
필터	14084
##ction	14085
Blue	14086
쏠	14087
쇠퇴	14088
뽐	14089
Dark	14090
##EL	14091
비즈	14092
베스	14093
1957	14094
잊어버리	14095
##시지방선거	14096
호구	14097
브라더스	14098
정체불명	14099
가창	14100
##정원	14101
일제강점기	14102
KTX	14103
##리가	14104
제보	14105
##현진	14106
##킨스	14107
경쟁자	14108
페이커	14109
갈아타	14110
영화관	14111
윌슨	14112
##로이	14113
살피	14114
난무	14115
부여받	14116
##0000	14117
은혜	14118
그레이드	14119
냅	14120
원활	14121
""	14122
직결	14123
##걀	14124
##분야	14125
남작	14126
방호	14127
##퀄	14128
페이트	14129
렛	14130
속박	14131
##가치	14132
의석	14133
우루과이	14134
뚜껑	14135
할리우드	14136
장풍	14137
사탄	14138
Champ	14139
방송인	14140
로컬	14141
석방	14142
##네이터	14143
도라에몽	14144
미라이	14145
##na	14146
파이프	14147
진정하	14148
RC	14149
중기	14150
유니버	14151
상공	14152
박재	14153
Im	14154
동호	14155
##가이	14156
Sun	14157
##ood	14158
탄소	14159
도시락	14160
##agon	14161
원흉	14162
##UT	14163
##어쓰	14164
전국동시지방선거	14165
성수	14166
포니	14167
르네	14168
요하	14169
++	14170
##피드	14171
장제스	14172
저술	14173
OCG	14174
우천	14175
음주	14176
진수	14177
켄지	14178
Can	14179
북극	14180
##테이너	14181
주무기	14182
##쩌	14183
안그러	14184
하시	14185
시부	14186
가축	14187
빠뜨리	14188
쫓아오	14189
Bat	14190
깨알	14191
유비트	14192
MHz	14193
back	14194
##미치	14195
모친	14196
열악	14197
옥타	14198
동지	14199
슬퍼	14200
##ky	14201
누명	14202
화염방	14203
DR	14204
공신	14205
실루	14206
용감	14207
205	14208
플레이스테이션	14209
질풍	14210
신병	14211
펭귄	14212
탯이	14213
넘사	14214
푹	14215
쓸데없이	14216
버릇	14217
좌표	14218
팀명	14219
기술자	14220
쥰	14221
파벌	14222
특이사항	14223
김명	14224
이창	14225
농사	14226
##판매	14227
권능	14228
갈라	14229
요시다	14230
어워드	14231
채집	14232
멘트	14233
바이올린	14234
강팀	14235
독서	14236
브론즈	14237
아까	14238
##크리트	14239
na	14240
플랜	14241
##프터	14242
미니언	14243
주고받	14244
미성년	14245
연루	14246
깽	14247
##휴일	14248
Summer	14249
달라붙	14250
호박	14251
##자치단체	14252
RP	14253
반장	14254
이질	14255
본성	14256
##이자	14257
흠좀	14258
우편	14259
구타	14260
튜토리얼	14261
##ty	14262
불러일으키	14263
교육과정	14264
하부	14265
찢어지	14266
클라우드	14267
한국군	14268
##irst	14269
분홍색	14270
오시	14271
게시물	14272
이속	14273
한미	14274
무제한	14275
식스	14276
성비	14277
제작비	14278
정재	14279
장동	14280
편안	14281
##DS	14282
포식	14283
반짝이	14284
야심	14285
자발	14286
넘사벽	14287
##아래	14288
바바	14289
발차기	14290
첩보	14291
한탄	14292
##내용	14293
##르기	14294
##슬로	14295
니코니코	14296
슈가	14297
##연기	14298
##ady	14299
타카시	14300
게릴라	14301
텅	14302
카우	14303
진행자	14304
##구단	14305
##베르토	14306
##land	14307
천마	14308
Korea	14309
##때로	14310
헌신	14311
짚	14312
공약	14313
쥬얼	14314
흠좀무	14315
솔리	14316
시구	14317
Music	14318
사족	14319
##석민	14320
기괴	14321
소실	14322
엿보	14323
말아먹	14324
양키스	14325
왓	14326
마트	14327
회로	14328
돌아보	14329
아르카	14330
밀집	14331
유라	14332
유로파	14333
빅토르	14334
모범	14335
요리사	14336
충북	14337
사안	14338
슬라이	14339
유유	14340
##캡	14341
##공신	14342
아울러	14343
자처	14344
프린스	14345
##그라드	14346
아루	14347
부관	14348
히카리	14349
##부장관	14350
BEMAN	14351
리키	14352
왕좌	14353
자손	14354
레이첼	14355
매달	14356
저것	14357
어미	14358
1914	14359
바오	14360
롤러	14361
선우	14362
유나	14363
줄줄	14364
반환	14365
호르	14366
##블릿	14367
대전광역시	14368
개칭	14369
동족	14370
##징어	14371
기자회견	14372
결함	14373
하워드	14374
BEMANI	14375
##다카	14376
금색	14377
유정	14378
제구	14379
빼내	14380
요시노	14381
웹사이트	14382
##OID	14383
늦추	14384
넥서스	14385
평균자책점	14386
##예프	14387
Fire	14388
##동네	14389
반대편	14390
파워업	14391
시외버스	14392
##밑	14393
카디	14394
나레이션	14395
설상가	14396
해운대	14397
악의	14398
설상가상	14399
소비에트	14400
##라이어	14401
레바	14402
##뿌리	14403
유벤투스	14404
후예	14405
##테나	14406
블래스터	14407
OB	14408
리리	14409
카타르	14410
덜하	14411
홀딩	14412
now	14413
타나카	14414
남발	14415
가의	14416
##푼	14417
신수	14418
안산	14419
필연	14420
일레븐	14421
표본	14422
유난	14423
민정	14424
650	14425
에스파	14426
스파르타	14427
세레	14428
반항	14429
대군	14430
합하	14431
##커녕	14432
이복	14433
지름	14434
나폴리	14435
대진	14436
말그대로	14437
##듈럼	14438
데스티니	14439
##나드	14440
##츠나	14441
교양	14442
전전	14443
함재기	14444
친목	14445
킹덤	14446
211	14447
나사	14448
연하	14449
##주공	14450
만회	14451
아이리스	14452
총격	14453
밭	14454
환수	14455
##히사	14456
##저것	14457
펜듈럼	14458
##싹	14459
슬퍼하	14460
간호	14461
##콤보	14462
호기심	14463
##ium	14464
유영	14465
프로모션	14466
윌리엄스	14467
법학	14468
휩싸이	14469
##블레이드	14470
##고야	14471
버터	14472
##차트	14473
로스터	14474
여권	14475
##갤	14476
센티	14477
잠재력	14478
##뿐	14479
목동	14480
##폭행	14481
사모	14482
미로	14483
##진흥	14484
##빠지	14485
카마	14486
회귀	14487
싱어	14488
GG	14489
후타	14490
아이유	14491
야마구치	14492
Life	14493
CA	14494
이도	14495
보트	14496
동래	14497
걸음	14498
불신	14499
힘쓰	14500
##데시	14501
##준표	14502
봉기	14503
스토커	14504
기피	14505
회고	14506
3164	14507
##ush	14508
대마	14509
경제학	14510
첨단	14511
특이점	14512
##비어	14513
진나라	14514
대국	14515
뒤통수	14516
농락	14517
서독	14518
원천	14519
STR	14520
베지	14521
루이지	14522
##자르	14523
저주받	14524
뷔	14525
입법	14526
주파수	14527
##기야	14528
장갑차	14529
춘천	14530
부원	14531
여관	14532
조준경	14533
대표작	14534
주심	14535
##테리	14536
Ma	14537
##순간	14538
##ount	14539
콜롬비아	14540
후궁	14541
피에르	14542
중년	14543
만행	14544
어설프	14545
파산	14546
##파르	14547
플로리다	14548
형편없	14549
빈틈	14550
##ᅥᆫ지	14551
창시	14552
스콜	14553
가성	14554
But	14555
리우	14556
박찬	14557
1951	14558
생산량	14559
디스하	14560
##기리	14561
목적지	14562
까닭	14563
강행	14564
일렉트로	14565
쪼개	14566
베네치아	14567
Just	14568
동요	14569
베일	14570
별점	14571
204	14572
조직원	14573
##수정	14574
여정	14575
동로마	14576
당주	14577
아이작	14578
선곡	14579
##크라이	14580
##산화	14581
라우	14582
##못하	14583
서초	14584
백신	14585
뭔	14586
수식	14587
스크립트	14588
##불능	14589
똑똑	14590
태자	14591
성균관	14592
진행중	14593
농촌	14594
체형	14595
귀하	14596
##뽕	14597
진구	14598
칙	14599
깡패	14600
개개인	14601
일본식	14602
염려	14603
선제골	14604
적성	14605
등교	14606
##지리	14607
DX	14608
##CH	14609
오마주	14610
혜성	14611
지극히	14612
사로잡히	14613
##니르	14614
발광	14615
북방	14616
박명수	14617
마초	14618
##의학	14619
특허	14620
Ste	14621
복면	14622
장학	14623
자본주의	14624
하우	14625
올스타전	14626
day	14627
박경	14628
Sy	14629
##ger	14630
레이너	14631
귀중	14632
해적단	14633
독수리	14634
냉전	14635
감전	14636
##청년	14637
캔디	14638
구마	14639
##횡	14640
이것저것	14641
##흙	14642
로저스	14643
총괄	14644
##빅	14645
##퍼런스	14646
생물학	14647
FFF	14648
인어	14649
대대로	14650
정립	14651
베이스볼	14652
하스스톤	14653
pt	14654
열등	14655
한숨	14656
대각	14657
지상파	14658
진군	14659
Dance	14660
디렉터	14661
쓸어버리	14662
헥	14663
감히	14664
나이트메어	14665
선방	14666
첸	14667
이반	14668
##트롤러	14669
피카츄	14670
FB	14671
험하	14672
##장이	14673
준하	14674
Gold	14675
리아	14676
끼어들	14677
전자기	14678
수수료	14679
산책	14680
현상금	14681
개연	14682
CON	14683
마요	14684
중추	14685
새우	14686
##초교	14687
##퀘스트	14688
##수원	14689
송출	14690
행방불명	14691
##마침	14692
분장	14693
아토	14694
가급	14695
마운드	14696
기온	14697
네놈	14698
##베기	14699
Grand	14700
청산	14701
츠바사	14702
선대	14703
남극	14704
주황색	14705
이은	14706
실루엣	14707
Pre	14708
##ᆯ럿	14709
콕	14710
암울	14711
젤다	14712
Ev	14713
히스	14714
오피	14715
사슴	14716
1600	14717
구단주	14718
미즈키	14719
명곡	14720
VOC	14721
설화	14722
달걀	14723
##ne	14724
##ally	14725
##서리	14726
HK	14727
##ution	14728
가미	14729
증가량	14730
계란	14731
계열사	14732
핸들	14733
전세	14734
힐링	14735
LCK	14736
차후	14737
파우	14738
마신	14739
대쉬	14740
입체	14741
경감	14742
##지휘	14743
##켜	14744
따라다니	14745
사르	14746
난감	14747
##양군	14748
플루	14749
##하우	14750
경과	14751
커트	14752
##pr	14753
엇	14754
망원	14755
일진	14756
홍성	14757
괴상	14758
##리히	14759
밧	14760
괴력	14761
고조	14762
밀란	14763
##경찰서	14764
심사위원	14765
메이플스토리	14766
스이	14767
가브리엘	14768
광전사	14769
슬레이	14770
이적료	14771
도전과제	14772
이용해	14773
세세	14774
스킵	14775
우타	14776
천원	14777
get	14778
아델	14779
사범	14780
내걸	14781
##스크롤	14782
##제일	14783
주가	14784
렘	14785
심문	14786
##가타	14787
박진	14788
##후군	14789
##얼거리	14790
스윕	14791
라임	14792
루미	14793
고분	14794
월급	14795
자격증	14796
TW	14797
Over	14798
논하	14799
선고받	14800
시타	14801
##천동	14802
##체국	14803
도검	14804
석상	14805
대사관	14806
로이드	14807
신정	14808
기타리스트	14809
이노우	14810
구두	14811
##패턴	14812
1937	14813
인트	14814
에우	14815
체스	14816
##드릭	14817
습관	14818
교시	14819
마주하	14820
##ator	14821
아프가	14822
ARM	14823
플레어	14824
##치료	14825
때마침	14826
고질	14827
더비	14828
##니클	14829
##식품	14830
사역	14831
소우	14832
꽂히	14833
목요일	14834
카이토	14835
일어서	14836
beat	14837
오쿠	14838
외롭	14839
홍진호	14840
오리진	14841
부호	14842
수녀	14843
잖	14844
애드	14845
정의당	14846
해치우	14847
광속	14848
편찬	14849
내수	14850
동탁	14851
폭동	14852
##신기	14853
UF	14854
ᆫ들	14855
##조약	14856
출근	14857
손톱	14858
##엎	14859
고토	14860
진성	14861
##취소	14862
##스퍼	14863
DJMAX	14864
페루	14865
##air	14866
수강	14867
예지	14868
Sec	14869
선구	14870
총재	14871
음악가	14872
카르마	14873
접점	14874
개인전	14875
우마	14876
총열	14877
석탄	14878
##걸음	14879
화나	14880
다이너	14881
마차	14882
tvN	14883
공익	14884
시중	14885
어리석	14886
차선	14887
은밀	14888
일절	14889
북한군	14890
속력	14891
리쿠	14892
완구	14893
처절	14894
출연진	14895
##십자	14896
기성	14897
유무	14898
프리미어리그	14899
차관	14900
아홉	14901
우지	14902
호프	14903
셀레	14904
남아프리카	14905
출중	14906
러셀	14907
열기	14908
열람	14909
그런거	14910
교섭	14911
피고	14912
예언자	14913
##젯	14914
추기	14915
뽐내	14916
주한	14917
BBC	14918
임원	14919
뒤덮	14920
##유산	14921
출루율	14922
Out	14923
##마시	14924
지중	14925
조원	14926
##공격력	14927
부사관	14928
김형	14929
느니	14930
##링크	14931
입힙	14932
코바야시	14933
수락	14934
최영	14935
##서린	14936
헤매	14937
비타	14938
실업	14939
##페어	14940
맨손	14941
포효	14942
##inc	14943
금호	14944
##듯	14945
##ᆷ없이	14946
소피아	14947
괄	14948
리츠	14949
치트	14950
우습	14951
슬로우	14952
그려	14953
##매매	14954
간략	14955
##대군	14956
이변	14957
딱딱	14958
투하	14959
코마	14960
##꿈치	14961
수복	14962
금화	14963
##작품	14964
안면	14965
고령	14966
##함수	14967
##헬름	14968
##재판소	14969
##격포	14970
단속	14971
수량	14972
신축	14973
커비	14974
모닝	14975
검은색	14976
아프가니스탄	14977
El	14978
노엘	14979
Dis	14980
but	14981
Win	14982
##아서	14983
클라이	14984
프리즘	14985
기복	14986
유틸	14987
파장	14988
유난히	14989
##더스트	14990
보우	14991
##거장	14992
안가	14993
VOCAL	14994
##르바	14995
수요일	14996
아줌마	14997
##삭스	14998
##실리	14999
##...	15000
군함	15001
창업	15002
되살	15003
##라비아	15004
야기	15005
점거	15006
천계	15007
ᆫ다던가	15008
스냅	15009
저렇게	15010
새누리당	15011
키즈	15012
한스	15013
사이보그	15014
쫄	15015
##ART	15016
라이드	15017
항아리	15018
제다이	15019
UI	15020
시몬	15021
##셔츠	15022
##ᆺ테	15023
백색	15024
하원	15025
용맹	15026
##전함	15027
자신감	15028
##use	15029
스틱	15030
사스케	15031
세션	15032
외래	15033
##터지	15034
이정도	15035
스텔라	15036
켈리	15037
sc	15038
6000	15039
향기	15040
성도	15041
Mon	15042
##로크	15043
김두한	15044
##벡	15045
이에	15046
제휴	15047
##나가와	15048
이형	15049
아부	15050
호전	15051
수험	15052
##담당	15053
퇴출	15054
HG	15055
모리스	15056
워낙에	15057
노려보	15058
자진	15059
##파니	15060
끝날	15061
미지	15062
오래전	15063
##ring	15064
##여지	15065
##병력	15066
조영	15067
배송	15068
킬로	15069
픽업	15070
##XT	15071
카인	15072
man	15073
~~	15074
##LS	15075
##덟	15076
천둥	15077
전년	15078
Af	15079
딸기	15080
아드	15081
접근성	15082
실명	15083
평원	15084
전도	15085
평민	15086
하의	15087
곡선	15088
예명	15089
완수	15090
정동	15091
컨트롤러	15092
Power	15093
후딜	15094
##매니아	15095
차남	15096
슈퍼아머	15097
루팡	15098
##나르	15099
##경영	15100
변질	15101
뺨	15102
탐구	15103
헤어스타일	15104
만료	15105
##ina	15106
##퀸	15107
몇개	15108
리바이	15109
Res	15110
하리	15111
때때로	15112
마니	15113
부과	15114
동문	15115
##역학	15116
해임	15117
매수	15118
스토어	15119
##하늘	15120
아이오	15121
##소프트	15122
장기간	15123
중견수	15124
치이	15125
극초반	15126
경희	15127
고자	15128
##설정	15129
380	15130
위나라	15131
내야수	15132
달빛	15133
##콜라	15134
퀄컴	15135
At	15136
판권	15137
토오	15138
히토	15139
어쌔	15140
정벌	15141
못지않	15142
##내기	15143
질환	15144
경매	15145
영리	15146
##금융	15147
OPS	15148
##라트	15149
연회	15150
푼	15151
}}}	15152
전리	15153
단정	15154
듀크	15155
허공	15156
무상	15157
학점	15158
256	15159
속공	15160
태블릿	15161
사출	15162
혈액형	15163
대인배	15164
SCP	15165
NG	15166
분화	15167
딩	15168
런닝	15169
성형	15170
연발	15171
러너	15172
북미판	15173
가소	15174
방과	15175
안치	15176
##모사	15177
##타케	15178
신원	15179
노래방	15180
무스	15181
대공포	15182
##상대	15183
명대사	15184
Fem	15185
쩔	15186
여당	15187
회오리	15188
아카리	15189
스캔들	15190
물들	15191
이성계	15192
##봄	15193
스피커	15194
마누	15195
##식물	15196
적발	15197
이동하	15198
##퇴근	15199
섬세	15200
부평	15201
##광장	15202
캐서린	15203
토마토	15204
이야말로	15205
혹사	15206
일보	15207
세조	15208
##구스	15209
콘크리트	15210
동참	15211
##캐리	15212
맏	15213
##ittle	15214
조제	15215
##신경	15216
기합	15217
볼프	15218
회심	15219
원고	15220
sm	15221
가와	15222
인종차별	15223
직역	15224
##변경	15225
단숨	15226
스커	15227
뱅크	15228
입성	15229
김영삼	15230
##데기	15231
앙리	15232
Fi	15233
MR	15234
파수	15235
투기장	15236
매진	15237
라미	15238
김택	15239
MX	15240
##기시	15241
시치	15242
##보도	15243
하드코어	15244
동갑	15245
베니	15246
어쌔신	15247
각기	15248
영조	15249
자취	15250
플레이어블	15251
고베	15252
##회전	15253
##클레스	15254
옵티	15255
##수치	15256
노블	15257
교향곡	15258
가급적	15259
한도	15260
Sing	15261
##좌석	15262
윈스	15263
##셀러	15264
줌	15265
1910	15266
FL	15267
행정부	15268
##쏠	15269
##ᆺ잎	15270
존속	15271
거니	15272
고안	15273
단숨에	15274
아이언맨	15275
##ERO	15276
설계도	15277
SG	15278
케이지	15279
조그마	15280
문어	15281
##de	15282
카지노	15283
스팅	15284
망령	15285
경찰관	15286
##be	15287
##출력	15288
gr	15289
##나시	15290
##교자	15291
통용	15292
스네이크	15293
지주	15294
쎄	15295
빅뱅	15296
##ello	15297
건재	15298
젊은이	15299
애교	15300
세미	15301
타치바나	15302
근성	15303
러시아어	15304
매너	15305
어우	15306
대본	15307
할당	15308
MT	15309
부추	15310
미수	15311
아르메니아	15312
부리그	15313
배기	15314
승천	15315
##reen	15316
SV	15317
악하	15318
##비우스	15319
##ual	15320
타국	15321
집중력	15322
##고쿠	15323
호무	15324
상류	15325
악용	15326
조력자	15327
미사키	15328
포토	15329
궁지	15330
IG	15331
##슬롯	15332
넥슨	15333
##리아스	15334
볼륨	15335
파업	15336
강연	15337
뒤이	15338
크리에이	15339
적진	15340
괴리	15341
##선언	15342
김정은	15343
##날드	15344
절규	15345
##탱크	15346
부도	15347
상표	15348
입술	15349
마에다	15350
반부	15351
허구	15352
오아	15353
스완	15354
오인	15355
내구력	15356
나고야	15357
학계	15358
강성	15359
아멜	15360
병합	15361
피치	15362
분만	15363
##리어스	15364
매개	15365
색채	15366
궤적	15367
##산군	15368
사찰	15369
막바지	15370
낙인	15371
MLB	15372
그닥	15373
##황제	15374
##기동	15375
Pv	15376
오피스	15377
소동	15378
건전	15379
Rem	15380
다기	15381
라지만	15382
저상	15383
노조미	15384
프렌즈	15385
이안	15386
성서	15387
우상	15388
줄거리	15389
퇴사	15390
소환수	15391
광탈	15392
군사력	15393
돌격소총	15394
중전차	15395
##방면	15396
영미	15397
##공무원	15398
표방	15399
고장나	15400
##단장	15401
슈퍼스타	15402
Ep	15403
가뜩	15404
당첨	15405
코스타	15406
네타	15407
선인	15408
샐러	15409
##ational	15410
모스	15411
##교차로	15412
유포	15413
999	15414
##기계	15415
현황	15416
피드백	15417
##괘	15418
투신	15419
##긍	15420
거제	15421
##체스	15422
스태미	15423
돌려보내	15424
원격	15425
##riend	15426
##노르	15427
경기수	15428
##af	15429
##의장	15430
##ars	15431
꺾이	15432
사사키	15433
##bs	15434
하위호환	15435
어퍼	15436
욱	15437
팀장	15438
##질기	15439
Vo	15440
무궁화	15441
##가르드	15442
##IE	15443
정렬	15444
연예계	15445
둘러보	15446
보구	15447
깊숙	15448
한모	15449
가뜩이나	15450
돌아서	15451
##보살	15452
채소	15453
##패치	15454
정확도	15455
##어먹	15456
##파치	15457
실장	15458
초당	15459
급기야	15460
억지	15461
미시	15462
고려대학교	15463
가명	15464
쾨	15465
##ivers	15466
베토	15467
주방	15468
자유자재	15469
소용돌이	15470
임관	15471
루카스	15472
##인식	15473
드라큐	15474
히토미	15475
악어	15476
홍준표	15477
##고르	15478
##외선	15479
##목적	15480
##한정	15481
##교환	15482
투니버스	15483
##되게	15484
태그팀	15485
아폴로	15486
고릴라	15487
VOCALOID	15488
##무트	15489
인벤토리	15490
동체	15491
제후	15492
서울역	15493
고양시	15494
IDOL	15495
악랄	15496
그려지	15497
풍자	15498
##녀석	15499
숀	15500
##렉트	15501
발악	15502
##로리	15503
Leg	15504
King	15505
카오리	15506
##노기	15507
클립	15508
맥도	15509
추기경	15510
##평군	15511
소절	15512
##분석	15513
관동	15514
폭딜	15515
펠리	15516
동인지	15517
HT	15518
YOU	15519
김희	15520
격전	15521
BF	15522
세탁	15523
분경	15524
튜닝	15525
just	15526
출몰	15527
선발투수	15528
##맨더	15529
##산면	15530
##라이터	15531
깽판	15532
초선	15533
상용	15534
샘플	15535
##준비	15536
평정	15537
크루즈	15538
에이전트	15539
##릿지	15540
쏠쏠	15541
버젼	15542
샤워	15543
##리조	15544
제라	15545
집결	15546
극소수	15547
거주지	15548
되살아나	15549
##송이	15550
##SS	15551
모호	15552
피라미	15553
왠만	15554
School	15555
##MC	15556
##계승	15557
모방	15558
기스	15559
콤보가	15560
Miss	15561
속편	15562
CEO	15563
##러리	15564
1935	15565
끈질기	15566
##장교	15567
##라이프	15568
수비진	15569
네코	15570
##atic	15571
##콰	15572
경량	15573
샤프	15574
UFC	15575
광신	15576
##라이너	15577
Rec	15578
GR	15579
##비트	15580
정자	15581
비장	15582
합창	15583
방어선	15584
스플리	15585
##페스트	15586
서정	15587
what	15588
극딜	15589
나이츠	15590
허리케인	15591
???	15592
전과	15593
기이	15594
스타팅	15595
뒷받침	15596
1918	15597
##미술	15598
##ern	15599
새로이	15600
참패	15601
밀접	15602
오로라	15603
##itch	15604
치명상	15605
##산리	15606
이치고	15607
최초수록	15608
결장	15609
##ts	15610
네모	15611
쿠파	15612
철회	15613
STER	15614
##전일	15615
무빙	15616
1934	15617
카에	15618
사위	15619
차종	15620
코타로	15621
Che	15622
페인	15623
도도	15624
서킷	15625
김창	15626
##제리	15627
코이	15628
131	15629
##무니	15630
마가	15631
##넥	15632
철갑탄	15633
부럽	15634
반갑	15635
ADV	15636
'''	15637
동계올림픽	15638
팍	15639
인맥	15640
재난	15641
수원시	15642
레닌	15643
뷰티	15644
방금	15645
##부수	15646
연호	15647
이누야	15648
공방전	15649
발상	15650
당분	15651
우아	15652
광저우	15653
##르노	15654
한심	15655
피처	15656
무효화	15657
인내	15658
핵무기	15659
차장	15660
##후미	15661
운운	15662
천적	15663
##살렘	15664
창의	15665
End	15666
운영진	15667
##대비	15668
조폭	15669
예배	15670
반다이	15671
클레어	15672
VR	15673
다다르	15674
역병	15675
##rain	15676
응원가	15677
조교	15678
Ge	15679
쓸모없	15680
Di	15681
개발사	15682
한가운데	15683
아몬	15684
##도구	15685
##디스크	15686
생산력	15687
미야자키	15688
##정관	15689
캐리어	15690
득실	15691
제시카	15692
가호	15693
탄도	15694
화자	15695
도리어	15696
##에너지	15697
표출	15698
퓨어	15699
Air	15700
밉	15701
##비언	15702
행렬	15703
자주포	15704
##크라이나	15705
##tr	15706
코카	15707
살상	15708
니나	15709
타다	15710
##루살렘	15711
##서야	15712
함경	15713
눈ᄊ	15714
굴복	15715
솜씨	15716
##주카	15717
여고생	15718
소피	15719
기획사	15720
불러들이	15721
별자리	15722
##고등	15723
알고리	15724
경유지	15725
조류	15726
단골	15727
로브	15728
경신	15729
맨시티	15730
전교	15731
##니지	15732
일자리	15733
매칭	15734
##류소	15735
##oot	15736
Mod	15737
방황	15738
든	15739
줄곧	15740
뒤틀리	15741
올라서	15742
일개	15743
로만	15744
추대	15745
if	15746
트로이	15747
유토	15748
##파이터	15749
콜드	15750
마르크스	15751
발사기	15752
빨강	15753
요동	15754
레이나	15755
기미	15756
키사	15757
양파	15758
무성	15759
리턴	15760
추첨	15761
멀쩡히	15762
소극	15763
뒤집히	15764
세간	15765
게임기	15766
양주	15767
청색	15768
국정원	15769
키워드	15770
마이너스	15771
##구멍	15772
보증	15773
##전이	15774
정명	15775
여진	15776
그리스어	15777
카가미	15778
못쓰	15779
야쿠자	15780
실무	15781
친선	15782
아포칼리	15783
이노우에	15784
가득하	15785
화합	15786
##ren	15787
에일리언	15788
발전기	15789
메르세	15790
##변속기	15791
무언	15792
서장	15793
토로	15794
드라큘라	15795
한중	15796
타케시	15797
레아	15798
탈리	15799
억압	15800
##처분	15801
##방패	15802
col	15803
##학회	15804
상임	15805
노이즈	15806
##비안	15807
디디	15808
작별	15809
흑백	15810
자판	15811
엄지	15812
공고	15813
##UE	15814
위탁	15815
##려드	15816
EMP	15817
욕하	15818
상반기	15819
소서	15820
권고	15821
우크라이나	15822
##플레	15823
소진	15824
취직	15825
카즈마	15826
불로	15827
##55	15828
쇼군	15829
알고리즘	15830
##보정	15831
장타율	15832
부풀	15833
우츠	15834
PVP	15835
부식	15836
명령어	15837
##끌	15838
교관	15839
흐리	15840
솔로몬	15841
샴	15842
##UR	15843
훅	15844
임상	15845
카스미	15846
독성	15847
벽돌	15848
도피	15849
한몫	15850
사쿠라이	15851
옵티머스	15852
레몬	15853
방정식	15854
넓이	15855
##걸리	15856
##rist	15857
night	15858
스티커	15859
동창	15860
민원	15861
이문	15862
미성년자	15863
##ony	15864
##일리	15865
##카운트	15866
강유	15867
여론조사	15868
##ma	15869
점사	15870
Sound	15871
서사	15872
##변화	15873
국산	15874
POP	15875
예리	15876
##쿠마	15877
##수엘라	15878
느냐는	15879
어드밴스	15880
빌라	15881
도미니	15882
Hy	15883
예루살렘	15884
청주시	15885
##영역	15886
##이야기	15887
토오루	15888
강판	15889
비즈니스	15890
##정동	15891
##필살	15892
배상	15893
##쯔	15894
카부	15895
스타크	15896
무작정	15897
시드니	15898
수고	15899
만류	15900
피겨	15901
##반응	15902
수준급	15903
뛰쳐	15904
##의정	15905
왕궁	15906
직관	15907
착수	15908
하세	15909
블루스	15910
워드	15911
##블랜드	15912
홈구장	15913
##스부르크	15914
각색	15915
##요금	15916
성문	15917
진가	15918
서원	15919
랜턴	15920
블래스트	15921
블라디미르	15922
##폭격	15923
성채	15924
불멸	15925
##진행	15926
토이	15927
##어찌	15928
##iew	15929
##수입	15930
지휘자	15931
킹스	15932
주범	15933
토착	15934
안도	15935
DO	15936
그놈	15937
메꾸	15938
송도	15939
##눕	15940
스퀘	15941
신체능력	15942
포워드	15943
챌린저	15944
볼리	15945
##샘	15946
메르세데스	15947
don	15948
##ope	15949
##준혁	15950
사사구	15951
##축제	15952
좌익수	15953
MASTER	15954
작아지	15955
공휴일	15956
빼돌리	15957
##호도	15958
분전	15959
출퇴근	15960
한국전쟁	15961
소녀시대	15962
상장	15963
##바인	15964
간선	15965
치사	15966
포트리스	15967
##큰	15968
글렌	15969
##밟	15970
##암동	15971
MD	15972
EM	15973
자크	15974
프로듀싱	15975
정세	15976
코지	15977
##투자	15978
##ana	15979
직업군	15980
디펜스	15981
나날	15982
인테르	15983
여러개	15984
##장판	15985
징징	15986
령	15987
##정역	15988
소설판	15989
##블루	15990
골리	15991
나기사	15992
과부	15993
##atale	15994
건축물	15995
##고교	15996
민법	15997
법무	15998
에이미	15999
연금술	16000
미스트	16001
티베트	16002
견인	16003
##화기	16004
개관	16005
카탈	16006
하야토	16007
미코토	16008
##해머	16009
##도니아	16010
설비	16011
##낮	16012
일쑤	16013
유소년	16014
사극	16015
애틀랜	16016
으리라	16017
미끄러지	16018
굳어지	16019
화요일	16020
일부분	16021
레즈	16022
퓨리	16023
Femme	16024
현명	16025
##oon	16026
사다	16027
제멋	16028
기관차	16029
조지아	16030
단조	16031
##카쿠	16032
##리츠	16033
합당	16034
빈사	16035
조운	16036
##핸드	16037
오일	16038
베토벤	16039
이씨	16040
##비키	16041
의거	16042
똘	16043
섭외	16044
자민	16045
손아	16046
SO	16047
중앙선	16048
Cat	16049
스위트	16050
드릴	16051
안토니오	16052
way	16053
##여자고등학교	16054
정유	16055
노숙	16056
총애	16057
길들이	16058
과학기술	16059
정인	16060
공지사항	16061
고독	16062
##ox	16063
신디	16064
BAS	16065
살인마	16066
##유기	16067
##실록	16068
어찌어찌	16069
대출	16070
##ield	16071
반말	16072
사이좋	16073
천도	16074
손바닥	16075
기술배치	16076
여의도	16077
유목	16078
선공	16079
##덩어리	16080
##명령	16081
금전	16082
마사키	16083
들려오	16084
실황	16085
bl	16086
흡연	16087
진흙	16088
단절	16089
얼핏	16090
##22	16091
숙이	16092
연구실	16093
애당초	16094
파고들	16095
사우디아	16096
학번	16097
##레이스	16098
EA	16099
1100	16100
국력	16101
레스터	16102
궁병	16103
이윽	16104
미지수	16105
##뽀	16106
티아	16107
채굴	16108
회복력	16109
극찬	16110
스퀘어	16111
1932	16112
창원시	16113
겨누	16114
이누야샤	16115
WE	16116
자잘	16117
함포	16118
언행	16119
##에고	16120
친밀	16121
##뭉	16122
타협	16123
서인	16124
##olog	16125
도사	16126
해리스	16127
##각시	16128
군산	16129
즐거	16130
1931	16131
비례대표	16132
1933	16133
XP	16134
베네수엘라	16135
##거진	16136
역설	16137
엣지	16138
##투어	16139
데이비스	16140
보답	16141
복종	16142
겉보기	16143
사에	16144
##연상	16145
팔라딘	16146
양팀	16147
댐	16148
이윽고	16149
성추	16150
병장	16151
내려지	16152
셰프	16153
카린	16154
확연히	16155
되돌아가	16156
##화문	16157
걸작	16158
##사의	16159
연구자	16160
가치관	16161
누이	16162
아치	16163
재혼	16164
학업	16165
효력	16166
로프	16167
화가	16168
##코르	16169
##흥민	16170
후일담	16171
등산	16172
##레타	16173
##Fatale	16174
그래프	16175
대파	16176
자바	16177
FemmeFatale	16178
해커	16179
복싱	16180
##시카	16181
방학	16182
With	16183
든가	16184
Hard	16185
콜로니	16186
Run	16187
다던가	16188
자연스레	16189
서북	16190
황족	16191
전리품	16192
##격투	16193
크립	16194
교란	16195
육식	16196
잔디	16197
금성	16198
##수지	16199
##언정	16200
후후	16201
컨테이너	16202
XXX	16203
지중해	16204
병살타	16205
렐	16206
다나카	16207
##화력	16208
프랑켄	16209
그제	16210
초토	16211
쿠르	16212
링컨	16213
회화	16214
##레즈	16215
##쿠버	16216
오너	16217
몬테	16218
카구라	16219
CT	16220
김전일	16221
##구나	16222
체리	16223
비판받	16224
성폭행	16225
##분해	16226
악장	16227
마모루	16228
##AA	16229
마티	16230
피곤	16231
직감	16232
말장난	16233
연의	16234
양도	16235
콘티	16236
##튀기	16237
##ᆺ거리	16238
##꿀	16239
보태	16240
위화	16241
##날리	16242
대두	16243
엇갈리	16244
소심	16245
후유증	16246
낯설	16247
오디	16248
빅터	16249
##스쿨	16250
##소개	16251
백미	16252
매복	16253
340	16254
도전자	16255
실험실	16256
고폭탄	16257
리안	16258
허세	16259
욕구	16260
Not	16261
흑화	16262
오재	16263
급속	16264
미셸	16265
##자스	16266
##업무	16267
술법	16268
쾌속	16269
벼슬	16270
튀기	16271
클리블랜드	16272
탈옥	16273
차세대	16274
효과음	16275
아벨	16276
서드	16277
App	16278
##먼드	16279
##elf	16280
경쟁력	16281
Rev	16282
##똥	16283
테르	16284
##텁	16285
성기	16286
앨리	16287
##ouse	16288
칭송	16289
제정신	16290
오징어	16291
진료	16292
RS	16293
##평균	16294
무찌르	16295
아즈사	16296
행태	16297
1928	16298
설득력	16299
사우디아라비아	16300
조형	16301
신이치	16302
자문	16303
##게리온	16304
폭발물	16305
214	16306
매스	16307
손녀	16308
갈리아	16309
##퐁	16310
가솔린	16311
본디	16312
총탄	16313
CCTV	16314
기간동안	16315
아이즈	16316
기마	16317
배분	16318
RG	16319
자유주의	16320
셜록	16321
전념	16322
##우먼	16323
키리토	16324
고원	16325
브레인	16326
재사용	16327
##ᆷ돌	16328
전태	16329
본국	16330
환각	16331
조선일보	16332
dis	16333
경인	16334
히노	16335
다단	16336
장병	16337
사면	16338
씁	16339
중심부	16340
도널드	16341
진작	16342
##비오	16343
다정	16344
숏	16345
유교	16346
육박	16347
##디자	16348
Da	16349
##투사	16350
##박쥐	16351
자가	16352
동봉	16353
##광고	16354
마징가	16355
브라더	16356
든든	16357
압살	16358
유한	16359
손흥민	16360
들이대	16361
##고로	16362
피츠	16363
카노	16364
하쿠	16365
징병	16366
첨가	16367
##75	16368
피라미드	16369
VIP	16370
##넓	16371
##바ᄁ	16372
첫사랑	16373
청량	16374
치중	16375
캡콤	16376
아티팩트	16377
뾰족	16378
##마니	16379
추적자	16380
##훈장	16381
쓸데없	16382
연세대학교	16383
양현	16384
평면	16385
게재	16386
장래	16387
자카	16388
##종합운동장	16389
세일	16390
충성심	16391
SHOW	16392
피신	16393
입맛	16394
설레	16395
스케이팅	16396
바주카	16397
좀처럼	16398
세나	16399
리베	16400
추석	16401
##떨	16402
애완동물	16403
북유럽	16404
리온	16405
강적	16406
횡단	16407
듀엣	16408
##전환	16409
두부	16410
##완성	16411
잠복	16412
가출	16413
조달	16414
토머스	16415
민족주의	16416
아역	16417
한조	16418
##블러	16419
결별	16420
네메	16421
UM	16422
##미코	16423
원호	16424
##라면	16425
##보건	16426
의욕	16427
증원	16428
앞마당	16429
##둘기	16430
반칙	16431
예술가	16432
Elect	16433
악수	16434
두께	16435
성공회	16436
스테이터스	16437
폴더	16438
##테인	16439
꾀하	16440
마음껏	16441
꼭두	16442
순진	16443
시에	16444
성모	16445
임창	16446
RAW	16447
걸어오	16448
사마의	16449
물려주	16450
재고	16451
사용법	16452
순조	16453
시궁	16454
번영	16455
텀	16456
넵	16457
스펙트	16458
공성전	16459
어처	16460
선체	16461
호노카	16462
크로니클	16463
윈스턴	16464
햇	16465
데이브	16466
난전	16467
광양	16468
교차로	16469
아지트	16470
기장	16471
패기	16472
허영	16473
co	16474
##ORE	16475
흑마법사	16476
빌미	16477
##컨대	16478
Ke	16479
141	16480
실험체	16481
She	16482
미라클	16483
살라	16484
310	16485
리플렉	16486
##공작	16487
병영	16488
에반게리온	16489
대용	16490
##배틀	16491
학창	16492
온화	16493
족장	16494
생사	16495
김혜	16496
8000	16497
하코	16498
##여고	16499
토탈	16500
여사	16501
##당하	16502
안보이	16503
스매시	16504
오스카	16505
현행	16506
농어	16507
##we	16508
오의	16509
리마스터	16510
##ecial	16511
아이카	16512
간행	16513
##푸스	16514
##레미	16515
시그마	16516
울산광역시	16517
무소	16518
팔찌	16519
임요	16520
도르트	16521
##메탈	16522
건의	16523
혼종	16524
패미	16525
구급	16526
워즈	16527
망가	16528
불가사의	16529
리에	16530
Get	16531
레지스	16532
연희	16533
아종	16534
정은	16535
##스톨	16536
##지부	16537
도호쿠	16538
저번	16539
변종	16540
초식	16541
스플래시	16542
존댓말	16543
이선	16544
김세	16545
##슘	16546
저격총	16547
입학식	16548
버거	16549
라이징	16550
##오우	16551
유하	16552
입당	16553
액세서리	16554
양념	16555
늘어지	16556
덫	16557
남구	16558
브뤼	16559
송구	16560
##asy	16561
전편	16562
##시온	16563
아포칼립스	16564
대부	16565
점포	16566
승계	16567
##ane	16568
동대문	16569
라거나	16570
##코올	16571
로딩	16572
랩터	16573
부화	16574
##66	16575
승부차기	16576
새해	16577
박격포	16578
미니게임	16579
틀어지	16580
서식지	16581
리모데	16582
사과문	16583
폭사	16584
앞쪽	16585
넘쳐	16586
##its	16587
패트릭	16588
DT	16589
##대대	16590
표명	16591
Ang	16592
유감	16593
여덟	16594
칼럼	16595
콜라보레이션	16596
무자비	16597
world	16598
##보리	16599
퍼뜨리	16600
제이크	16601
##엔터	16602
플래닛	16603
코토리	16604
포털	16605
완전체	16606
##틀링	16607
##28	16608
##병호	16609
에리카	16610
##명칭	16611
어처구니	16612
그르	16613
임요환	16614
대잠	16615
타노스	16616
껄	16617
이동기	16618
왼팔	16619
##과목	16620
외출	16621
그밖	16622
커먼	16623
안장	16624
시위대	16625
##현장	16626
##짜기	16627
1924	16628
불사조	16629
채팅창	16630
식신	16631
작살	16632
애플리케이션	16633
메테오	16634
뵈	16635
울음소리	16636
대상자	16637
조율	16638
##꼬리	16639
선진국	16640
불어	16641
white	16642
##로즈	16643
##제트	16644
바스	16645
카무이	16646
##증가	16647
이신	16648
민병대	16649
480	16650
호로	16651
##학위	16652
재위	16653
공중전	16654
##해제	16655
봉황	16656
##쌀	16657
열받	16658
악세	16659
득점자	16660
당당히	16661
이우	16662
##루루	16663
파인	16664
계보	16665
##감소	16666
속삭	16667
사이퍼	16668
시애	16669
인프라	16670
##무역	16671
##EX	16672
##수도	16673
느냐고	16674
임시정부	16675
##콥	16676
##깊	16677
##브스	16678
탐욕	16679
염소	16680
##ze	16681
해수	16682
부합	16683
##윈드	16684
틴	16685
빡세	16686
SW	16687
예비군	16688
전류	16689
프런트	16690
앞장	16691
풀백	16692
007	16693
휴일	16694
진공	16695
부추기	16696
잼	16697
가까스로	16698
까먹	16699
##토모	16700
책임자	16701
0000	16702
Cy	16703
##신청	16704
##태수	16705
마커	16706
향수	16707
엑소	16708
본문	16709
그전	16710
자위대	16711
프레디	16712
##로트	16713
내륙	16714
황무지	16715
오리콘	16716
주작	16717
보리	16718
정적	16719
레귤러	16720
콘스탄티노	16721
상정	16722
##굽	16723
기밀	16724
##윗	16725
되돌아오	16726
댄서	16727
거물	16728
서남	16729
모터스	16730
섹	16731
ᆫ다면서	16732
자니	16733
정장	16734
##양이	16735
탤	16736
백호	16737
##저트	16738
비정	16739
버닝	16740
##러미	16741
서진	16742
성역	16743
su	16744
야하	16745
손수	16746
##ness	16747
##마켓	16748
볼텍스	16749
##어가드	16750
지망	16751
중령	16752
720	16753
##아일랜드	16754
제멋대로	16755
만세	16756
폭포	16757
기타사항	16758
촉진	16759
아픔	16760
의병	16761
밀라노	16762
픽시	16763
스튜어트	16764
처단	16765
Song	16766
Big	16767
쑥	16768
흘러나오	16769
아론	16770
Comm	16771
##키타	16772
대강	16773
##바디	16774
##쿵	16775
섬유	16776
격돌	16777
센터백	16778
이분	16779
공채	16780
유년	16781
베어	16782
삿포로	16783
##24	16784
##장구	16785
섬식	16786
Back	16787
드라군	16788
쉐도우	16789
풋볼	16790
##인사이드	16791
담당자	16792
##표기	16793
##appy	16794
420	16795
##버섯	16796
##치카	16797
부회장	16798
##트로이트	16799
데이빗	16800
의미심장	16801
협약	16802
Arm	16803
코이치	16804
휩쓸	16805
##루미늄	16806
스칼렛	16807
추산	16808
탄종	16809
니트	16810
류현진	16811
셀프	16812
도르트문트	16813
시애틀	16814
발렌시아	16815
##제어	16816
##더미	16817
송파	16818
소감	16819
우익수	16820
재선	16821
낙원	16822
##병사	16823
스테이션	16824
상위항목	16825
설사	16826
마포	16827
디트로이트	16828
송병	16829
임페	16830
신주쿠	16831
토라	16832
엑셀	16833
이장	16834
삼각형	16835
빌헬름	16836
팔꿈치	16837
그레이스	16838
여도	16839
안중	16840
초고	16841
##ny	16842
촉구	16843
##의료	16844
##운행	16845
##잼	16846
사이오	16847
램프	16848
국무총리	16849
##펙	16850
##판사	16851
다이어트	16852
대한항공	16853
다다	16854
연주자	16855
##러시	16856
로드리	16857
박주	16858
유명세	16859
오버로드	16860
유쾌	16861
관습	16862
닉스	16863
##ke	16864
##평화	16865
##쓸리	16866
##스태	16867
토막	16868
민국	16869
여주	16870
스크래치	16871
플라즈마	16872
사다리	16873
##룽	16874
Order	16875
##마키	16876
성주	16877
##노코	16878
황자	16879
늘어놓	16880
##디우스	16881
##RAM	16882
##슬라비아	16883
##sc	16884
##협정	16885
수군	16886
##보상	16887
두텁	16888
제식	16889
호스트	16890
괴로	16891
1929	16892
클로즈	16893
##보트	16894
박준	16895
으라는	16896
##울프	16897
떠들	16898
1911	16899
목성	16900
방영일	16901
시저	16902
방대	16903
##고개	16904
선비	16905
헤딩	16906
서재	16907
착공	16908
이제동	16909
로마자	16910
자라나	16911
사각	16912
Skill	16913
대담	16914
무림	16915
히로유키	16916
겸임	16917
비약	16918
와우	16919
휴게소	16920
총통	16921
광석	16922
빡빡	16923
유죄	16924
포르노	16925
시전자	16926
##킴	16927
##서울	16928
망자	16929
휩쓸리	16930
협곡	16931
삽화	16932
법정동	16933
한개	16934
위도우	16935
암석	16936
베지터	16937
초사이	16938
con	16939
미련	16940
>,	16941
##35	16942
명작	16943
##멘탈	16944
KS	16945
샌디	16946
유고슬라비아	16947
##누이	16948
경위	16949
환사	16950
##자금	16951
##정류장	16952
##픈	16953
증세	16954
목표물	16955
##chor	16956
##소통	16957
씁쓸	16958
TB	16959
군중	16960
김제	16961
제국군	16962
지온	16963
##네이도	16964
거듭나	16965
##곡리	16966
조장	16967
##실히	16968
기요	16969
레기	16970
유추	16971
정규군	16972
디테일	16973
UR	16974
##애미	16975
상권	16976
##소모	16977
석궁	16978
케네	16979
1925	16980
안드로메다	16981
##보수	16982
Every	16983
차출	16984
백합	16985
김준호	16986
커브	16987
##위성	16988
리조	16989
사토시	16990
##학습	16991
##블랑	16992
##키치	16993
##소재	16994
##무로	16995
##let	16996
사상자	16997
임용	16998
태연	16999
격노	17000
듀티	17001
애시	17002
출입구	17003
대각선	17004
대머리	17005
가왕	17006
버금	17007
에덴	17008
##느니	17009
사설	17010
쿠사	17011
폿	17012
배지	17013
PSP	17014
평행세계	17015
cl	17016
당분간	17017
동점골	17018
저널	17019
시리	17020
##종료	17021
베이더	17022
선천	17023
##UC	17024
##라시	17025
추이	17026
홍대	17027
##뜯	17028
##AG	17029
마더	17030
꼭대기	17031
##가르	17032
상회	17033
윤종	17034
이관	17035
나나미	17036
상대편	17037
난폭	17038
##눅스	17039
That	17040
위즈	17041
##쿠사	17042
##겨지	17043
셸	17044
김정일	17045
자택	17046
시노부	17047
로망	17048
파이터즈	17049
##비히	17050
드레드	17051
박세	17052
양아치	17053
샵	17054
1917	17055
내년	17056
사교	17057
기병대	17058
프리즈	17059
아이리	17060
난해	17061
포커	17062
##코딩	17063
qu	17064
208	17065
알루미늄	17066
충주	17067
시안	17068
대관	17069
단테	17070
키트	17071
독재자	17072
##티티	17073
패드	17074
판도라	17075
헌데	17076
바하	17077
석화	17078
이에야스	17079
##주곡	17080
큐베	17081
당원	17082
스패	17083
안드	17084
내려놓	17085
한인	17086
졸개	17087
가차	17088
연비	17089
쇼핑몰	17090
프랭클린	17091
선도	17092
서커스	17093
난동	17094
te	17095
마운트	17096
스폰지	17097
온전히	17098
##기기	17099
기각	17100
비석	17101
노기	17102
TCG	17103
##비지	17104
스탠다드	17105
아다	17106
제스	17107
벌칙	17108
크루세이	17109
##바흐	17110
두드리	17111
콧	17112
##그러지	17113
펄스	17114
자부심	17115
212	17116
르노	17117
음양	17118
마는	17119
서부터	17120
시스터	17121
거슬리	17122
수다	17123
적정	17124
##소환	17125
##프리트	17126
캐슬	17127
조세	17128
##줄기	17129
텔레콤	17130
과실	17131
##출신	17132
마그마	17133
선교사	17134
서면	17135
이의	17136
환원	17137
마이애미	17138
중간보스	17139
##융합	17140
성체	17141
괴도	17142
농부	17143
동물원	17144
성추행	17145
세이부	17146
포대	17147
시즈카	17148
##bps	17149
듀얼리	17150
갱킹	17151
Des	17152
총사령관	17153
리액션	17154
Har	17155
##ert	17156
비밀리	17157
주성	17158
대명사	17159
뱃	17160
##천역	17161
갈고리	17162
동거	17163
인기있	17164
동남아시아	17165
정현	17166
단거리	17167
교감	17168
##버릇	17169
단신	17170
나츠미	17171
매출액	17172
##점프	17173
##독립	17174
##ious	17175
노이	17176
##피탈	17177
강당	17178
토네이도	17179
숙종	17180
해설위원	17181
자아내	17182
콩고	17183
FX	17184
보행	17185
상경	17186
열풍	17187
171	17188
##ᆷ비	17189
##ient	17190
대여	17191
올라타	17192
NL	17193
Top	17194
동국	17195
끊이	17196
아스타	17197
가물	17198
235	17199
간식	17200
##폭발	17201
##net	17202
##노키	17203
다툼	17204
서경	17205
불운	17206
방영분	17207
아야카	17208
흑마	17209
수렴	17210
벵	17211
공영	17212
문과	17213
식별	17214
토요타	17215
GL	17216
웨일스	17217
일직	17218
샤아	17219
강남구	17220
분수	17221
유행어	17222
초사이어인	17223
지독	17224
##프로그램	17225
이마트	17226
정제	17227
양동	17228
침식	17229
850	17230
##라이언트	17231
타쿠미	17232
영락	17233
최면	17234
Tri	17235
##카이저	17236
역전승	17237
##콜로	17238
##기둥	17239
EXH	17240
구자	17241
느긋	17242
왕따	17243
나기	17244
##장수	17245
안제	17246
##ret	17247
##누마	17248
행정동	17249
크리스토퍼	17250
255	17251
내기	17252
조선인	17253
1927	17254
어중간	17255
중얼거리	17256
##방학	17257
키메라	17258
##약품	17259
FR	17260
##복무	17261
##페스	17262
##탈출	17263
리프트	17264
올리버	17265
##ideo	17266
배틀그라운드	17267
블레이즈	17268
개종	17269
내역	17270
스케치	17271
NS	17272
년작	17273
조슈	17274
##공영	17275
속옷	17276
..'	17277
배척	17278
##토록	17279
합산	17280
야구선수	17281
후렴	17282
##진구	17283
일찍이	17284
##시트	17285
태고	17286
영화판	17287
서스	17288
능동	17289
발산	17290
##줌	17291
집정관	17292
짤방	17293
포화	17294
캉	17295
비행선	17296
신한은행	17297
가산	17298
들려주	17299
어휘	17300
##석기	17301
서문	17302
##pl	17303
대칭	17304
모건	17305
알코올	17306
교주	17307
##엔드	17308
RF	17309
퇴근	17310
왕건	17311
츠카사	17312
##olution	17313
튜너	17314
도마뱀	17315
Amer	17316
수주	17317
리눅스	17318
는군	17319
##성향	17320
##나단	17321
##현동	17322
경이	17323
현대자동차	17324
##투아니아	17325
##동강	17326
프리스트	17327
와일드카드	17328
떨어트리	17329
어지간히	17330
오나라	17331
결승골	17332
##나우	17333
##경비	17334
교육부	17335
Em	17336
내심	17337
원산	17338
206	17339
줄리아	17340
##바이러스	17341
디스코	17342
심플	17343
늑대인간	17344
포럼	17345
특출	17346
남원	17347
마츠모토	17348
조인	17349
##즈미	17350
하타	17351
도청	17352
리포트	17353
해밀	17354
발매국가	17355
쏠리	17356
대표이사	17357
잔당	17358
자며	17359
애틀랜타	17360
활주로	17361
클라이언트	17362
PO	17363
##정의	17364
DEF	17365
##즐리	17366
##IST	17367
##나들	17368
세균	17369
직계	17370
LCD	17371
툰	17372
이승엽	17373
off	17374
구애	17375
게임즈	17376
##왕조	17377
##악단	17378
뻥튀기	17379
##상스	17380
한지	17381
##co	17382
크로노	17383
##천지	17384
##협력	17385
낭만	17386
작화감독	17387
무협	17388
사구	17389
##ERS	17390
화수	17391
##비나	17392
##코트	17393
샤크	17394
글러브	17395
##공군	17396
축구단	17397
##지방법원	17398
소인	17399
리투아니아	17400
시한	17401
모빌슈트	17402
햇빛	17403
##노벨	17404
소량	17405
야구부	17406
세스	17407
자연수	17408
스님	17409
신민	17410
신종	17411
퍼시픽	17412
나이지	17413
333	17414
각본가	17415
용인시	17416
전염병	17417
Act	17418
터미	17419
##메랑	17420
##기체	17421
##준호	17422
투구수	17423
켄이치	17424
UFO	17425
이목	17426
성남시	17427
오바마	17428
공직	17429
해협	17430
##특기	17431
##갓	17432
209	17433
##고도	17434
##더리	17435
어비스	17436
수레	17437
에보	17438
항우	17439
일지	17440
잘되	17441
알파벳	17442
비늘	17443
장녀	17444
[...]
