[UNK]
[CLS]
[SEP]
[PAD]
[MASK]
!
"
#
$
%
&
'
(
)
*
+
,
-
.
/
0
1
2
3
4
5
6
7
8
9
:
;
<
=
>
?
@
A
B
C
D
E
F
G
H
I
J
K
L
M
N
O
P
Q
R
S
T
U
V
W
X
Y
Z
[
\
]
^
_
`
a
b
c
d
e
f
g
h
i
j
k
l
m
n
o
p
q
r
s
t
u
v
w
x
y
z
{
|
}
~

ᄀ
ᄁ
ᄂ
ᄃ
ᄄ
ᄅ
ᄆ
ᄇ
ᄈ
ᄉ
ᄊ
ᄋ
ᄌ
ᄍ
ᄎ
ᄏ
ᄐ
ᄑ
ᄒ
ᅡ
ᅢ
ᅣ
ᅤ
ᅥ
ᅦ
ᅧ
ᅨ
ᅩ
ᅪ
ᅫ
ᅬ
ᅭ
ᅮ
ᅯ
ᅰ
ᅱ
ᅲ
ᅳ
ᅴ
ᅵ
ᆨ
ᆩ
ᆪ
ᆫ
ᆬ
ᆭ
ᆮ
ᆯ
ᆰ
ᆱ
ᆲ
ᆳ
ᆴ
ᆵ
ᆶ
ᆷ
ᆸ
ᆹ
ᆺ
ᆻ
ᆼ
ᆽ
ᆾ
ᆿ
ᇀ
ᇁ
ᇂ
ㄱ
ㄲ
ㄳ
ㄴ
ㄵ
ㄶ
ㄷ
ㄸ
ㄹ
ㄺ
ㄻ
ㄼ
ㄽ
ㄾ
ㄿ
ㅀ
ㅁ
ㅂ
ㅃ
ㅄ
ㅅ
ㅆ
ㅇ
ㅈ
ㅉ
ㅊ
ㅋ
ㅌ
ㅍ
ㅎ
ㅏ
ㅐ
ㅑ
ㅒ
ㅓ
ㅔ
ㅕ
ㅖ
ㅗ
ㅘ
ㅙ
ㅚ
ㅛ
ㅜ
ㅝ
ㅞ
ㅟ
ㅠ
ㅡ
ㅢ
ㅣ
##A
##T
##S
##F
##C
##r
##e
##s
##k
##y
##ᅩ
##ᄋ
##ᅯ
##ᆫ
##ᄉ
##ᅡ
##ᆨ
##ᄒ
##t
##o
##p
##i
##a
##g
##l
##u
##W
##V
##ᅥ
##ᆸ
##ᄃ
##ᆼ
##I
##N
##R
##ᅧ
##ᆯ
##ᅵ
##ᄏ
##ᅮ
##ᄅ
##ᅦ
##ᅳ
##E
##B
##H
##U
##ᄇ
##ᆶ
##m
##d
##ᄁ
##ㅈ
##ᄂ
##ᄆ
##ᄀ
##D
##ᅣ
##0
##8
##9
##3
##6
##5
##7
##ᆷ
##ᄐ
##n
##h
##1
##b
##Y
##L
##c
##ᅴ
##ᇂ
##w
##f
##v
##ᅬ
##ᅪ
##ᅭ
##2
##ᆪ
##ᅢ
##ᆺ
##ᄌ
##q
##P
##ᄑ
##%
##~
##ᆾ
##Q
##ᅲ
##4
##ᄎ
##ᅱ
##X
##J
##z
##M
##O
##"
##|
##ᇀ
##x
##ㅒ
##ㅀ
##G
##ㅢ
##ㄱ
##ᅨ
##j
##K
##.
##?
##ᄈ
##ᆽ
##,
##ㅉ
##ᄄ
##ㅔ
##ㄻ
##ᆮ
##;
##ㅠ
##ㄾ
##ᆴ
##Z
##ㅌ
##ㅂ
##ᆭ
##!
##ᆰ
##ᆲ
##ᆻ
##ㅖ
##ㄳ
##ᅤ
##ᄍ
##ᅰ
##ᆹ
##<
##-
##{
##ᅫ
##ㅁ
##&
##ᄊ
##ㅚ
##ㄴ
##=
##ㅇ
##ᇁ
##_
##ᆬ
##ㅣ
##ㅋ
##ㅅ
##ᆿ
##ᆵ
##ㄽ
##ㅟ
##ㄹ
##`
##>
##ㅏ
##ㄵ
##^
##'
##/
##ㅡ
##ㅞ
##ᆩ
##ㅓ
##ㄶ
##ᆱ
##ㅍ
##\
##ㅎ
##ㅝ
##ㄲ
##(
##+
##@
##:
##ㅜ
##ㅐ
##ㅕ
##*
##ㅙ
##ㄺ
##ㅗ
##ㄷ
##ㅘ
##ᆳ
##[
##}
###
##ㅄ
##ㅛ
##ㅊ
##$
##ㄼ
##)
##ㄸ
##]
##ㅑ
##ㅆ
##ㄿ
##ㅃ
##
이
##ᅳᆫ
##ᅳᆯ
하
다
아
에
는
어
가
의
##ᅡᆫ
##이
##ᅡᆼ
##ᅥᆫ
을
##ᅧᆫ
##서
##ᅳᄅ
고
지
##ᅧᆼ
##리
##지
도
##ᅮᆫ
##다
를
은
시
##시
##ᅥᆼ
기
##스
##하
##ᅩᆼ
##ᅡᆯ
되
##ᅳ로
로
##ᅩᆨ
있
##ᅮᆯ
거
었
주
##ᅧᆨ
사
에서
##ᅡᆨ
으로
ᆫ다
보
##기
##나
##ᅳᆼ
았
나
##ᅥᆨ
##어
과
대
들
자
##가
마
수
##고
##ᅢᆼ
##ᅩᆫ
라
##ᅮᆨ
게
그
것
##도
##ᅥᆷ
일
##르
여
와
##라
모
##ᅯᆫ
##니
전
##드
##우
##ᅥᆯ
##사
##로
오
적
부
##장
##치
##요
바
면
##자
##대
##만
년
##트
##ᅦ이
만
스
##ᅳᆷ
미
정
화
조
##미
##화
##ᅧᆯ
상
유
##수
20
##인
##정
##아
##오
##ᅣᆼ
그ᄅ
공
비
##터
##는
##주
때
##상
##전
##ᅢᆨ
##히
위
##ᆫᄀ
중
경
##데
제
으
##게
##용
차
##력
##제
##키
##ᅥᆸ
##부
##ᅯᆯ
소
무
노
##성
##ᆯ리
없
##신
##ᅳᆨ
인
등
##문
성
세
##야
지만
##면
며
않
##마
##원
월
##과
에게
##동
##구
개
던
서
구
한
##격
타
##국
##타
리
내
201
동
피
장
##ᅵᆷ
방
선
##거
연
##비
후
##유
영
##ᅡ지
우
카
말
##러
요
발
##체
당
생
버
##소
안
야
##작
##간
더
치
는데
##무
##명
##래
##며
신
추
원
파
처
포
##일
##ᅳ리
회
##그
때문
명
##재
19
까지
강
아서
##보
해
##식
##들
##위
데
##티
##의
최
##00
문
##당
##후
매
아니
같
배
##카
##크
실
##음
번
##선
라고
받
##물
불
라는
##행
호
코
##교
##실
##즈
##능
레
결
##내
##학
##단
##역
##회
반
초
진
패
많
특
##디
나오
##한
##피
다고
역
작
##람
##모
##속
##토
##ᅦᆯ
으며
##임
계
##버
면서
드
##ᅦᆫ
단
##차
##려
##반
보이
##공
##점
분
##프
남
##루
##분
##계
##조
##산
국
그러
두
##생
경우
10
어서
##각
##록
니
##두
사용
현
출
##본
크
쓰
다는
물
공격
관
##연
##중
저
이후
그리
##진
##호
캐
예
##류
##태
자신
교
##안
알
못
감
학
통
점
재
##저
또
였
애
##관
편
##세
따
##른
##군
좋
##영
##ᅳᆯᄅ
사람
##코
##노
디
키
##해
입
##름
위하
##바
##금
정도
대하
##방
##법
##ᅮᆷ
##발
메
##적
##종
속
너
군
부터
형
함
설
##업
##습
##통
김
##포
참
가능
##승
외
##양
평
##ᅳ라
토
시키
##ᆫ국
##술
##매
다른
음
종
##브
##준
보다
##료
##파
##테
권
이나
승
12
##직
##와
##녀
##건
으나
죽
가지
##심
팀
##레
200
뒤
등장
##스트
직
살
##션
##투
는다
##입
본
아이
##론
11
히
루
##민
##표
용
그리고
판
버리
##경
##어지
확
하나
체
게임
시ᄌ
네
행
경기
변
운
심
돌
##운
..
잘
맞
##급
다가
만들
##판
##여
못하
박
끄
##약
채
##족
건
##er
##개
##석
사실
달
활
투
집
시간
##황
##령
##형
##량
##너
##설
##든
목
듯
양
##련
약
필
##출
각
날
##합
높
사이
##께
##향
테
##청
시작
표
##에
##추
##품
##현
일본
새
##복
##더
이상
##망
모습
이름
왕
##니다
##런
##것
태
간
##ᅳᆯ리
##츠
함께
존
순
##언
려
##외
##까
##지만
따르
##ᅳᆯ레이
베
상대
프로
##ᆨ터
독
증
한국
##어나
문제
15
다시
##울
거나
##머
병
천
##네
##란
총
손
잡
##환
##in
으면
효
하지만
터
##ᆯ라
능
##스터
티
생각
별
힘
##독
캐리
##럼
끝
겠
아야
##송
막
또한
##병
항
##ᅳ래
##목
인ᄀ
폭
##천
스키
가장
복
들어
근
광
##배
##험
식
당시
##대로
시즌
플레이
누
삼
완
ᆫ데
먹
##막
처럼
싸
캐릭터
당하
및
18
씨
검
##on
능력
산
##랑
스ᄐ
ᆫ지
##년
##락
모두
아도
상황
백
충
쿠
##색
상태
열
길
그렇
임
레이
##쪽
머
##ᆫ계
##ᅧᆸ
##말
모든
##감
##퍼
추가
금
결국
##립
라이
슈
앞
러
세계
##악
커
선수
##an
##초
##담
16
##벨
##or
##ᆫ드
스킬
카드
곡
느
##미지
##살
##탄
업
##결
얼
현재
##등
##ᅳᆸ
##케
합
##쿠
넘
악
##편
다만
많이
##쟁
ᆫ다는
통하
##메
전투
쉬
효과
##남
다음
30
##근
민
급
그러나
눈
존재
##함
지역
##질
13
미국
취
시리
여기
언
첫
허
##항
청
##접
##냥
14
페
199
매우
트
##예
법
황
##ar
창
##택
이ᄇ
습
이러
달리
##ᅥᆯ어지
북
절
17
##절
극
##존
대학
##견
얻
그런
엔
골
##처
상당
ᄇ니다
레벨
뜨
##패
기록
##범
##ᅮᆼ
##he
시리즈
찾
째
스타
괴
##at
프ᄅ
이유
인하
철
기술
##움
##집
뿐
다면
물론
무기
바ᄁ
엄
##득
어ᄄ
그래
이용
##강
의하
여러
##왕
올리
처음
놓
난
자체
##커
부르
팬
방송
곳
100
이것
이런
같이
탈
##별
필요
영화
줄
##템
워
실제
##ᆨ스
##워
##널
해당
25
들어가
마법
모르
##은
주인
귀
꼬
##ᅳ러
##열
일반
##탈
ᆫ다고
##끼
어야
돌아
규
거의
역시
바로
리그
학교
혼
범
##거리
나가
잠
사건
##ᅳᆯ래
##큼
##곡
##en
다르
이야
특히
관련
유니
기본
##달
##느
2017
붙
##ᅦ인
##착
##박
즉
부분
란
##규
위치
피해
류
진행
##ou
겨
래
아무
방어
격
2018
밖
탄
##칭
이야기
빠
##부분
축
대표
담
냐
##창
마지
국가
좀
는지
없이
##례
제작
찌
##찰
활동
인간
##난
팔
싶
동안
##육
밝
작품
알리
걸
웨
글
증가
##때
##변
둘
##페
##괴
풀
##틀
몬
대부분
준
##롭
쉽
샤
##al
접
비스
마지막
본인
##찬
몸
자기
##ᆯ러
##ᅳ레
2019
지나
##ᅳ레이
일부
##혼
헤
계속
ᆫ가
##활
##글
##렵
##시아
떨어지
21
암
생기
서울
##ᇂ게
블
라면
우리
몇
내용
만큼
##es
##극
##권
주인공
벌
넣
##률
2016
덕
감독
##희
참고
속도
##ᅳ럽
관계
50
##철
##애
##순
어도
##월
맡
##전히
메이
중국
##없
대신
##ᆫ구
##슨
수준
이전
그냥
##베
##으
타이
##날
쪽
비슷
어느
나이
으니
##징
##리아
전쟁
비하
지금
까
##ᆫ급
환
강하
희
##턴
##응
만나
성공
22
스토
질
울
낮
기준
홍
뛰
논
도시
밝히
인물
이루
짜
습니다
멀
떠
##ᅦ이션
##불
배우
도록
협
##벌
198
상당히
공격력
그녀
자리
대한
24
##율
최대
##돌
기사
올라
마다
##랴
##민국
프리
결과
##온
홈
지원
##ᆷ버
그대로
평가
시절
밀
친
##증
너무
빠르
육
뉴
##ᅦᆫ트
##략
제외
보스
므로
##it
죽이
몰
연구
##씨
온
##버지
의미
망
##할
나타
실제로
##ᆯ로
##축
##백
로서
측
이미
소속
##북
봉
승리
칼
직접
##블
전체
2015
##책
영상
대한민국
보내
향
23
어렵
원래
유닛
퍼
체력
##귀
여자
##을
##부터
##굴
언급
그것
대로
##획
드라
##념
묘
개발
데미지
##광
멤버
##ing
유저
갖
##ᅦ이지
##st
맨
##le
플
머리
##학교
##ic
휴
이동
##가지
##앙
슬
마음
설정
##라지
40
싸우
정보
책
##라이
##다가
ᆫ다면
씩
문서
방법
컨
선택
애니
차이
깨
님
##re
##ᆷ피
##늘
과거
##ᆫ경
쇼
##찌
가까
몬스터
듣
##운드
센
츠
왜
불리
##평
출연
성우
송
##몬
친구
포함
파이
소리
##욱
돈
침
##dd
빼
석
##닝
농
갑
뜻
뭐
압
크리
탑
거리
든
##짜
대상
##누
설명
엄청
혹
사회
##총
바람
플레이어
장면
##딩
힘들
마리
우승
최고
다니
여성
##봉
버전
사랑
##ᅦ이스
링
어리
바뀌
답
아버지
##웅
갈
##침
마이
동시
공식
##팅
유명
시대
스럽
2014
##켓
발생
##슬
영향
사망
주로
어떠
꽤
즈
대회
려고
프랑
##주의
남자
궁
층
색
결정
조금
발매
26
주장
출신
아이템
##ff
초반
000
역사
걸리
섬
나라
빠지
인터
일어나
학생
전부
버스
##ᅦ일
공개
28
푸
##쉬
운영
서로
유지
콘
오르
오래
스토리
##밀
##el
27
대사
구성
스ᄑ
##염
##갑
파괴
제대로
##am
정부
스ᄏ
방식
음악
쏘
강화
자주
31
중요
아직
후반
이때
##쁘
모드
나타나
또는
노래
월드
the
정치
##델
과정
형태
최종
새롭
독일
역할
억
시스
끼
좌
휘
최초
대전
##벽
딜
르
착
뽀
찍
##필
쓰이
##플
이벤트
##라도
엘
누구
##ᆫ스
##om
##머니
강력
아래
정말
변경
회복
케
움
##얼
##먹
##확
기존
##곤
싱
바이
볼
잔
그런데
##잡
##럽
##우스
영국
라도
보통
드래
비교
느끼
##아가
##ᅡᆯ리
폐
마찬
마찬가지
이기
소환
##la
어떤
조선
##었
##ᅦ이트
정신
먼
당연
##측
특성
인기
##is
엄청나
성능
##컬
늘
확률
속성
마을
##프트
##번
행동
##이도
##훈
바꾸
앨
2013
다이
슈퍼
오히
노선
모양
##덕
이제
오히려
올
##ᅳ루
클리
풍
##풍
가깝
자유
아들
##맨
교육
197
발견
##트리
차량
##억
라인
##퇴
##휘
짓
29
사라지
수록
끌
##너지
게다가
술
32
하이
부족
특수
##et
이번
00
대학교
확인
성격
끝나
내리
문화
프랑스
트리
윤
유일
활약
차지
##손
흑
##ol
2012
장비
관리
##써
##ion
##혀
아예
##ᅳ라이
영웅
응
일단
입장
구하
녹
액
생산
맞추
따라
시스템
빛
이렇게
##지어
제국
흔
맵
훈
숨
##폭
고등
뽑
##웨
##림
##숙
돌아오
에피
들어오
먼저
심지어
득
프로ᄀ
##ᅦ임
경찰
반대
##답
##디오
계획
주변
거기
운동
2010
데이
앨범
##던
자동
어요
##골
획
완전히
조건
드러
우주
기간
##엇
##ᅢᆼ크
##새
애니ᄆ
난이도
사진
부대
##옥
적용
발동
개인
기능
##ow
지구
뮤
건물
60
감소
위원
잃
##nd
km
##멸
##20
축구
자세
에이
##통령
블ᄅ
##il
떠나
##ig
##므로
어디
그루
중심
으로서
모델
##ed
##튼
실패
견
지키
그래서
##져
##곳
혹은
중앙
던지
선거
라며
드리
현대
35
회사
덕분
##ᆼ장
돌아가
초기
세트
##ᅩᆾ
전혀
얼굴
##롯
##먼
작가
바다
시기
듀
표현
국내
##탁
원작
##충
민주
대통령
패배
##클
##웃
물리
처리
데ᄇ
순간
TV
열리
크로
하루
동일
모으
곤
지속
드라마
반응
지방
##익
무엇
얼마
##뢰
날리
##버스
도움
더라도
인정
참여
맥
기관
출시
##ᅳ램
애니메이션
##니아
칸
명칭
##ac
판매
담당
데뷔
##as
오브
##엘
꾸
##없이
퇴
##BS
##압
정확
##나마
요구
획득
196
땅
##룡
굉장
생활
그렇게
of
헌
시점
컴
2011
설치
밖에
작중
넘어
다양
발표
##슈
트ᄅ
후보
##ᆫ과
게이
##객
그룹
상승
##끔
##아내
진출
선발
아군
구조
기억
롭
항목
Lv
영어
클
만화
가격
움직
탐
단계
족
##소드
그림
밤
특별
##들이
올라가
마스터
실력
##ve
그나마
##놓
핵
랑
으므로
세이
##죄
량
##싸
##균
조차
아마
다며
턴
##스ᄐ
세우
이거
01
##욕
드래곤
야구
빌
킹
##채
았었
졸
시장
덱
맛
수비
낙
The
미치
죠
가족
사고
##비스
아주
범위
##찮
특징
밀리
연기
##넷
려는
##소리
경제
시청
방향
##뜨리
대체
딸
오리
패치
##ᆨ트
경험
계약
고려
퀘
프
##ot
남기
한테
숙
지니
벨
확실
참가
국제
딱
디자
에피소드
500
발사
세대
어머니
폭발
묘사
아르
로부터
##스티
##덤
주의
프로그램
고등학교
80
무시
믿
활용
2000
굴
어떻게
피하
라서
상위
결혼
##ᆫ격
##이드
##으키
비판
목적
##효
더욱
준비
유리
##탕
##못
중간
나무
##밍
심하
각각
##ad
쿨
보호
37
러시아
45
펼
묻
챔피
버프
##맹
이ᄁ
클ᄅ
런
라운드
굉장히
이미지
##렌
패턴
##인트
히로
##혹
이어지
위험
##스타
진짜
국민
옆
참조
내려
빈
꿈
대미지
생명
조직
조사
죄
단순
혼자
듯이
싸움
과학
여담
약하
어ᄍ
이루어지
꺼
전하
나쁘
스피
타입
다루
##뷰
흡
##드리
염
소모
세력
현실
파워
St
안타
ᆯ지
시도
노리
제공
##씬
욕
주요
가리
구간
흥
율
194
불구
거치
할
전문
지하
유럽
일으키
연속
웃
##칙
부산
세기
##머지
나머지
순위
논란
돕
조합
한정
포인트
괘
사실상
헬
린
케이
약간
##아오
클래
동료
##id
70
뛰어나
분위
성장
훨
##스크
09
##궁
##갈
##섭
##ay
##스로
무장
여전히
바라
디자인
##냐
징
즐
분위기
당연히
취급
항공
출전
아라
##트로
90
이해
으면서
론
학년
얘
일정
규모
##린
등급
##혁
싫
훨씬
FC
##ER
지도
투수
소설
한편
예정
운행
블랙
성적
##협
##나라
인구
읽
부상
쌍
기대
자연
옥
엔딩
기타
익
그래도
마치
삼성
벽
폴
계열
mm
똑
02
괜
해결
2009
03
사업
가져
##ch
스테이지
향하
센터
##킹
어두
기에
##혜
방면
연결
미션
300
콤
플래
가스
엘리
방영
최근
의견
튀
##낌
연합
수정
##짝
짧
##us
48
변화
도망
종류
자면
##ir
##빈
ᆯ까
그거
이탈
곧
표기
잘못
률
칭
전용
태어나
배치
##받
05
털
195
추정
33
이르
for
터지
퀘스트
2008
이라
탓
발전
##다리
벗
##척
소녀
##프리
##혈
36
##엄
##폰
08
대화
변하
거대
정상
직업
##완
끊
안정
척
07
움직이
##ur
도중
언제
죽음
엔진
충분
올라오
스스로
큐
종료
##ᅳ르
작전
##참
넘어가
##티브
##파이
스카
수상
챔피언
펼치
세상
품
나중
옵
##둥
십
붙이
##같
독립
일행
비행
쓰러
요소
##샤
나누
##ᅳ레이드
캠
느낌
속하
##볼
##취
수도
마저
녀
당신
##검
HP
굳
벌어지
벌이
로보
##액
보상
에너지
##륙
##ᆩ이
지내
방어력
무리
달성
비롯
전설
팩
##..
공연
##od
미사
만드
06
력
동물
솔
배틀
##BC
부활
특정
관하
장착
훈련
절대
렌
th
##센
지지
졸업
##텐
철도
전기
다리
요리
##자기
##im
기업
##암
위기
포켓
##길
넓
지휘
행정
싱글
번역
번호
근접
더불
제목
돌리
점수
건설
빨
04
만약
관심
틀
아이돌
으ᄅ
미래
##어들
황제
내부
스페
남성
##렬
스코
반면
따라서
득점
##un
충격
##ut
신경
##겁
SK
시험
전차
##뉴
군사
목소리
가르
거두
##틴
##ᆯ레
목표
삭
홈런
소재
인사
덤
뚜
전사
2007
크리스
##데이트
업데이트
정체
바르
멸
브
you
공간
##지션
똑같
가끔
저지
무대
카이
픽
어찌
시설
놀
사이트
타격
셈
로마
오늘
34
뒷
꽃
##인물
##즘
##컵
##흥
배경
쥬
빅
링크
랜
지정
장소
각성
전작
찬
마르
서비스
공중
##트라
빙
최소
##큐
항상
부여
##다니
##ro
냉
교체
그만
파티
##닉
전국
맹
분노
베이
##폐
생존
으려
작곡
혀
북한
얘기
넘기
등장인물
켄
정식
예상
##수록
스포
자랑
##알
의원
으로써
작업
높이
##란드
록
##붙
도로
잉
포켓몬
사냥
##디어
##쇄
분류
종족
벤
늘어나
이끌
##엽
##층
인도
악마
##ag
##igh
소개
야마
##ᅳᆯ레
38
##너스
올림피
아키
쌓
겸
##ver
##레이
단체
혈
애초
제한
인터뷰
괜찮
ᆯ로
가수
필드
##ec
##리스
홀
결승
##동안
cm
판정
롯
기계
이어
클리어
75
연출
목록
각종
외국
하늘
컵
이외
타카
명령
한ᄀ
정하
##ent
##ᅪᆯ
2006
제일
초등
기체
병력
지상
깊
카운
재미
로봇
개념
스타일
아카
##보이
트위
가운
55
페이
놀라
전반
확정
기동
in
##콘
교통
옛
션
정작
옷
##꾸
##촌
193
##허
건담
레어
비용
퀴
별로
파일
왼
##ak
료
##이트
화력
장갑
올림픽
수행
브ᄅ
몽
니까
군대
드러나
사항
가운데
갖추
표시
크기
##뮤
따로
인식
시티
행위
사격
수치
경쟁
2020
사거리
납
to
##um
브라
##최
누르
##쉽
기반
변신
갑자기
저항
감정
',
##쿄
나름
포지션
비밀
잇
##젝트
진화
이탈리아
완전
평균
뇌
왕국
단점
보유
집중
살리
인천
스티
코미
교수
##셉
근처
##짓
통합
기회
병원
vs
폰
직전
던전
노력
특이
냐고
임무
띄
##아들이
##러스
의식
자원
전자
##쓰
느리
어쩌
국회
설립
탈출
스태
놈
##화국
정의
오버
쯤
압도
##ST
오른
혁
레인
##빠
이닝
옮
월드컵
부모
촬
단어
때리
부정
환경
##em
##앗
고양
마시
현상
##ub
정리
사례
잠시
떨
사정
##비아
판단
효율
시전
다크
제품
이쪽
##겨
더니
##튜
펜
밑
극장
치명
스위
본래
아파
##ᆯ링
라이브
##낙
나서
주제
##말로
무슨
촬영
##000
삭제
신ᄀ
붕
##리오
사무
의외
주문
위원회
전력
가문
ㅏㅆ
##윤
상관
겪
동생
##븐
고속
컬
##어로
원인
대구
##묘
여행
물건
옮기
주민
지배
제거
발언
강제
키우
##헌
소련
연습
치료
병사
포기
위력
요시
롤
도전
##무리
전개
2005
##르트
아스
기다리
이하
골드
역대
책임
새로
해군
##째
중학교
기념
##요일
도입
정책
앞서
완성
웹
오스
복귀
##싱
실험
##ight
화면
42
##렉
려면
유사
고정
도쿄
공주
살인
루트
의사
모이
음식
41
##학생
##랜드
##좌
노트
##야마
별명
파트
차원
직후
선생
끝내
이적
뿌
히어로
레드
불가
##링
다수
셋
버티
##ᆯ린
사기
중반
##ᅳ림
멘
39
받아들이
잡히
##섯
티어
전략
숨기
어둠
에게서
분명
밴드
마나
붉
공동
도착
2004
히트
무려
미니
쫓
꼭
##모토
가치
##특
접근
언어
녀석
짐
제도
일러
EX
LG
은데
빌리
정당
컴ᄑ
으로부터
회피
텔
ㅓㅆ
추천
타임
조종
고자
나이트
정규
텐
사상
대기
브리
점프
예전
반드
##ce
살아
확장
아파트
신체
빨리
##숨
셰
##그레이드
업그레이드
쥐
마사
구매
##AR
줄이
연장
롯데
리더
자료
시민
로드
랭크
이곳
반드시
폭탄
##os
투표
탈락
꾼
타이틀
인터넷
##밥
장치
부탁
##프리카
앙
학원
단지
완벽
라이트
미사일
종교
##리어
44
##찍
우선
##ri
소유
형식
해외
고대
닌
낫
##시마
##AN
구역
장점
사령
##친
최강
힐
심각
산업
##듀
아내
##벤
##ula
Ch
금지
늦
##ON
수마
##셀
##역시
탱
추측
버그
실시
No
자마
위키
마무리
##ap
43
99
이라고
대장
##홍
##몇
클럽
몇몇
공포
가사
##나이
하드
##ᆨ정
노동
콜
##and
2002
연재
흐
##걸
이사
구분
복수
취하
st
##ᅳᆯ랜드
검사
범죄
톤
합류
점점
덜
달러
즐기
브래
서버
가드
다소
조정
##아하
요청
로스
행사
##이치
차례
드로
form
옵션
##탑
떡
##ᆫ간
재료
보병
그야
밥
##ᅳᆯ린
조작
선정
선언
수많
마법사
##텔
전통
택
교회
잭
입히
타자
걱정
프로젝트
kg
##쳐
그리스
종종
개그
47
스포츠
46
##빙
데이터
51
191
##첩
좋아하
컴퓨
개월
암살
부하
##듬
광고
형제
열차
formula
채우
템
##르크
성향
##ᆨ시
대중
개최
##십
평범
폼
자마자
KBS
코스
##ᆯ리스
아쉽
##조건
숲
그야말로
실점
포스
모자
한계
스페인
구단
고르
칠
##죽
채널
##맞
뻔
대결
설계
##ter
거부
언론
##버리
코드
아무리
보조
##아보
워낙
디스
생물
다행
통신
##맥
비중
전화
종합
행성
기지
컴퓨터
민족
멜
##털
and
##셜
맺
한글
무한
투입
개봉
해석
##럭
값
무조건
캡
##아지
본격
영혼
블루
정확히
뉴스
연주
냐는
굳이
운용
트로
##ul
MA
평소
실수
엑스
회장
원정
광주
##덴
##IN
지적
박사
##ᆸ히
소년
##타임
##ᆺ자
지명
와중
##무라
인상
1000
위협
2003
줄어들
##ᆯ리아
미드
멋
##ᅳᆯ링
젊
회의
상징
충분히
##꽃
##op
등록
##몽
##ᆺ수
는가
사태
집단
대형
가정
대응
대비
쓸
보너스
터미
아웃
카메
자동차
소비
앤
엠
##ck
전원
공사
보컬
##라인
체제
페르
시청자
%,
다운
데스
뚫
태양
##되
특유
희생
150
오프
조각
먹이
##드로
개조
가면
무사
65
##FA
혐
샷
군단
##ation
빵
편성
뿌리
네이
도망치
봉인
깔
을지
리어
여름
MBC
마력
흉
##니스
SP
통과
##ᆫ만
일종
##스케
기자
떠오
##ra
##려가
트레이
일러스트
192
잊
육군
프레
##콩
##펜
혜
발음
##자리
장군
##꼬
공항
##돈
##녕
생성
벗어나
얼마나
##의원
시나
분리
##셔
로써
방문
64
오리지
##있
II
##오스
##젤
가하
드러내
##ᅦ이크
##꺼
고양이
하야
촉
장르
동맹
빼앗
장기
간단
함정
##줄
반복
##칸
ㅏ서
서술
##튜브
튜
소식
앉
의도
##려오
##넘
아프
사쿠
분야
디지
근데
갤러
52
가ᄇ
불과
##깨
합치
전환
유튜브
랭
바닥
영입
안전
경기도
그때
치르
브레이
괴물
저격
제안
##텐츠
흡수
데리
점령
You
##ᅧ보
의지
##깐
밸
윈
는다는
예선
그라
##리카
초대
루이
필살
최후
##니티
따지
400
##시스
개선
공략
유도
화염
##남도
##빛
락
숫자
독자
오토
전술
##art
코치
미리
그저
방해
##님
주력
원하
액션
확보
외모
##ᆫ광
인원
가져오
평화
매일
트래
##풀
진입
터미널
이론
규정
관통
VS
클래스
수사
라디오
찾아오
장난
##런스
넥
49
들리
##나가
이치
투자
##빌
느냐
승부
컨셉
##니까
눈물
체육
목숨
형성
지나가
적극
패러
인류
##ᅳ레스
방패
AP
56
상자
비트
##핑
음반
몹
모험
시내
사과
아름
겹
왼쪽
부수
적절
흐르
한국어
계기
보도
2001
함대
구축
떼
서브
##동생
거짓
저지르
##팔
##엔
##ᆫ공
랍
살아남
의심
ᆫ지라
파라
약점
##롱
챙
쳐
예술
공화국
들이
역전
##ᅳᆺ
궤
인형
##퀴
기원
53
오리지널
54
비디오
##페이지
작성
자라
완료
##모리
...
공부
##논
수리
은퇴
솔로
코어
회전
쓰러지
단순히
풀리
닉
대단
질문
In
걸치
PC
편집
황금
닮
끌어
민주당
마침
뮤직
훌
날개
##ᅳ래프트
##바이
핑
홈페이지
덩
착용
필수
##시브
트랙
상대방
멈
보수
꾸준
85
해제
오ᄑ
##옷
##삼
##토리
엄마
아프리카
드라이
경상
##ia
사단
습격
장관
편하
1990
현장
사장
비난
포르
희망
코스트
##흐
걷
원거리
##ill
스트리
청소
수원
##ie
재판
선보이
분석
하위
카페
명중
테러
에스
아시아
퓨
진정
더블
무력
선물
##RA
인지
성인
수호
ST
어라
##로드
삶
##덜
모티브
##IA
비고
스파이
콩
확실히
랄
아름답
행복
경계
부리
저주
감안
중단
태도
##몰
가슴
190
##ik
마크
카즈
임명
남편
공원
기획
꼴
##라스
쿄
에이스
지식
관광
##나다
표정
허용
승강
스마
쿨타임
장애
무섭
수단
지나치
오른쪽
탑재
바탕
본선
멈추
딱히
제시
친하
상처
소프트
주도
##무원
당장
59
망하
롱
##연히
처치
##북도
의문
영역
유래
기점
유우
테마
소울
고통
테크
리스
보급
미야
##ab
컷
베르
직원
불명
날아가
비싸
아요
돌파
##울리
기어
멀티
##ᆫ관
베이스
위주
##닥
갈리
작용
고유
##루스
주목
제압
대답
챙기
120
58
##워드
##뉘
잠깐
##마스
주연
을까
카운터
여부
엉
제기
순서
측면
꺼내
체계
도서
##춘
##est
멀리
탯
57
후지
업무
우수
진영
박스
부인
##th
텔레
MP
퍼지
문명
텍
카메라
패스
횟수
드립
후속
멸망
통일
온라인
##all
버튼
공장
낳
시나리오
지점
거주
케이스
갱
관ᄀ
귀족
나뉘
##ea
66
95
셔
코너
문자
당선
고서
##ᆸ터
##쇠
내려가
##뇌
겨우
협력
특기
차별
##푸
계산
소수
펀
지옥
댓
눈치
약속
듀얼
널
삼국
최악
브로
건너
춤
뉴욕
달라지
테이
에어
Sh
시체
연계
조지
##잔
ᆯ수록
딜러
##머리
은행
##붙이
뱀
##로스
크로스
Lo
블레이
##ct
늘리
살해
가볍
ddd
나타내
유키
on
개편
상하
오후
가져가
1999
##다르
융
Re
붕괴
배신
제로
틈
가로
게시
대놓
자격
혁명
자치
매치
웨이
군주
부담
##픽
##라이더
110
덴
##ddd
ㅓ서
dddddd
Sp
자이
컨트로
미스
게이지
1998
##랄
##AL
해금
겨울
국회의원
어울리
견제
증거
레이저
외부
##핀
최대한
군인
장전
교사
필살기
##AT
62
출발
진실
제조
자살
핵심
##PS
##레이션
정권
##워하
어린
대원
##륭
여왕
전장
드물
궁극
미군
##OR
중화
균
연방
용병
##니어
마왕
아메
섭
로켓
귀엽
##릉
니코
아침
댄스
옹
##VE
거절
충전
##아리
룰
한화
타이밍
출생
봄
가르치
유용
공산
##드라
체인
SS
일본어
기분
##쇼
SBS
미나
이성
나카
커뮤
조준
##달리
만족
충돌
고급
브랜드
도구
단위
취소
블로
애매
는다고
스피드
부진
##를
거래
넷
##ate
스킨
##사카
##라리
수학
흔히
##ess
피해자
##컨
극장판
Th
##터리
##ell
카르
61
토스
반란
제주
무게
##광역시
발휘
세계관
얼음
##ard
##킨
##읍
76
교환
플라
##래도
끼리
어떻
장수
파악
##멘
후반부
자고
##ang
단독
마츠
아무래도
겹치
인생
모션
레전
홍콩
막히
패시브
공통
##IC
스파
##톤
근무
판타
삽
##ue
자르
신화
비록
격투
아머
##레스
한자
우려
##ant
하트
##ack
순수
몰리
##ers
따위
프라
피아
Al
NP
77
##두르
구입
정령
파이터
##ine
88
공군
1997
##다수
운전
72
등등
혼란
쿼
계급
자식
가입
수입
##하라
스코어
닥터
##심히
빔
내주
회수
##어내
권력
경력
본부
핀
채용
지시
##세이
공작
근거
젠
커버
탄생
개시
생일
밸런스
해방
비율
누리
##흑
외치
쪼
기절
##촉
건강
지하철
##아나
언니
##웨이
용도
갓
남부
꾸준히
##가락
병기
모리
표준
갤러리
BG
ㅕ서
타워
에리
실질
돌격
지대
##ok
좁
##OS
##스탄
납치
증명
메리
스테
아사
협회
반영
홍보
지급
##피아
무너지
##둑
대공
강조
긴
잖
입학
be
오오
업체
##멀
불안
말리
랜덤
373
FI
노르
윙
유형
왕자
외교
요원
##디션
경영
or
온가
##유키
대륙
감염
경향
쏟
98
제이
fff
온갖
훌륭
광역
감사
페이스
CD
gt
연대
마녀
트라
실행
맡기
장식
##솔
문학
##ive
패러디
##젠
울트라
기독
서포
덮
스펙
메탈
물질
600
원수
주어지
아리
없애
ㅓ야
내놓
입단
##오리
재생
가까이
##헨
##크래프트
아나
스페셜
화살
추진
주년
어차
찾아가
집안
내내
설득
대다수
계승
1996
찌르
선배
정지
승강장
살짝
사카
어차피
부문
폐지
##ast
캐나다
##고기
PS
고기
##AS
영원
와이
대놓고
##들리
이슬
신문
##어리
1995
베트
밟
짜리
보물
낭
적당
지우
브라지
크루
##메달
킥
오류
신뢰
사전
##바로
##멍
이렇
연예
작사
즉시
기기
흘리
##즈키
##uby
",
전선
당황
##ED
미소
내려오
함선
괴롭
##tt
##휴
##다지
고민
68
뒤집
페이지
##ee
폭풍
쇠
브라질
등판
은근
스트라이
lt
오픈
800
소문
짝
헤이
탑승
헤드
명예
열심히
상품
화장
입수
레전드
오프닝
필리
별도
갑옷
경유
심리
시행
파리
경기장
령
단일
##거나
63
##시오
마이크
의회
##렴
1980
변호
통제
마련
라스
늑
랩
##아먹
##카와
공유
댓글
반격
##ong
틱
##AM
ruby
운명
가면라이더
정류
응원
캔
##세우
레오
후쿠
한때
커뮤니티
신청
쓰레
트위터
격파
라이벌
사령관
##ort
김성
그레이
주전
갤
고전
기독교
출판
공기
습득
이승
##웨어
가이
##납
컨트롤
중계
깃
편의
퀄
##ith
하수
수업
심장
##랗
오해
처하
불만
신고
마인
마주
두산
울산
71
##if
74
관객
외국인
##ᆮ히
카나
정말로
보정
푸르
주위
##ly
러브
##fff
건축
##아버지
##나무
##피스
출장
##트ᄅ
....
용어
MV
랜드
##ld
그곳
전달
닿
73
여론
셀
67
메이저
ffffff
민간
사운드
절반
조치
묵
가리키
##티컬
고치
지형
가토
갈등
##딘
여신
##도우
붙잡
임시
무적
##ᆯ릭
##학자
재능
챠
가득
아오
요새
전함
전공
##겨나
둥
압박
NC
##ain
리버
별개
엔터
초월
##ist
96
카라
알렉
쌓이
오로
종점
연구소
네이버
##묵
##쥐
스튜
1994
##ind
안드로
북쪽
전형
추적
팝
메가
TH
그다지
메타
신세
시각
아시
지ᄏ
180
탁
##ᆷ프
컨텐츠
남쪽
##돌리
제하
무르
늑대
보장
발매되
이란
써
AC
돌진
##크리
시야
소멸
##서트
판타지
쉐
81
AT
##팩
결승전
전시
널리
클라
타점
든지
다행히
파이어
곰
일부러
무지
##럿
##따
##per
동기
##더스
불꽃
그만큼
##가와
따오
동네
환자
##듀서
프로듀서
##ps
강원
##지컬
##EN
서부
여동생
문제점
흔하
적히
화려
화이트
##츠키
쓰러뜨리
그림자
께
선호
왕조
동원
이마
폭력
##놈
상향
아티
우스
지켜보
파이널
물러
회원
대만
##깝
뛰어
본명
치명타
유비
유로
북부
맞서
아가
##EC
자는
신라
소드
78
잉ᄀ
클로
##툰
##식간
91
##크로
맘
##OL
##콤
수요
순식간
##어스
연상
무난
##텀
종이
##ew
도서관
##ᅫ지
##ᅥᆷ프
향상
전역
메시
매력
학과
차트
전적
틀리
변형
##캐
엑
최상
헨
전방
부품
##팡
성과
지르
84
CP
체포
영토
일상
수집
크리티컬
암흑
전투력
게이트
##사키
코믹스
테스트
시드
팅
영업
##LC
##ᆷ치
킬
마술
me
인수
아우
토모
##ry
수용
조절
저런
##ᅥᆼ이
파견
플로
드디어
오랜
현지
폭격
복잡
학살
유전
복장
##려움
오빠
82
대우
바라보
떡밥
릭
##lo
입력
구현
편지
##껏
##융
개통
생명력
호환
키리
97
니시
추락
신인
사자
천사
도달
아무런
고향
콜라
동부
닌자
사토
토리
네덜
청년
네덜란드
86
##찾
창작
반지
밴
경비
점차
작동
맞이
콘서트
연관
프레임
교황
##일랜드
한국인
쓰레기
수송
출현
노예
그치
스톤
기초
바이오
낚
덧
짱
모바
추격
해설
아트
it
해체
69
객
##퍼스
다시피
몰래
달하
##어버리
조용
구도
충청
묶
##ᅦᆯ라
의상
심판
엘프
##밀리
간격
공급
녹음
##노스
키스
나루
##ᅳ름
is
주먹
아무것
##모로
##히로
식물
막장
시위
조성
NPC
겟
##ᆷ새
##헤
프리미
전투기
조조
퀸
사쿠라
둘러
##IT
제자
연사
마스
##둥이
돌아다니
수술
무효
썰
스마트
연애
검색
슬롯
실드
만든
##ᆫ트
감시
##타로
스카이
레스
US
그래픽
일제
블록
꼬리
##오프
아이스
법원
동쪽
##특별
찰
마리오
경험치
구체
MS
##ᅦ이터
고교
룬
옛날
놓치
까다
알아
##오카
An
통상
총기
김정
뼈
##보내
범인
룡
구속
긍
베트남
라이더
진지
##ust
마리아
신분
대립
신규
장교
은하
연락
카미
어깨
국립
예외
##주시
쿠키
앵
250
KT
강의
##어도
인근
춘
입구
탱크
##칠
지도자
신성
뷰
다섯
차단
규칙
글자
##50
되찾
불편
대대
##뜩
메카
이랑
디아
마도
평타
창조
요정
언제나
바보
박살
코인
##ᆼ이
안습
총선
유희
모바일
동작
##도로
토론
후기
전라
##비전
##홀
여러모로
환상
189
거짓말
##디아
노출
이리
기여
의료
##파이어
권총
세월
이래
소총
##럴
접하
이득
에드
농구
어택
##즌
##자키
일원
자이언
무료
신호
가시
블레이드
202
서쪽
##영상
이날
1992
##버트
부위
굽
출처
음성
정복
개혁
미술
폭주
극단
잠수
고생
##깔
띄우
92
##옹
헌터
##BO
##ore
##ᅢᆼ이
##저히
간부
겉
Ar
참전
##레나
반발
전직
교전
고용
투어
대체로
양산
일자
보석
고문
폴란드
대량
연도
상점
83
하고
글로
렙
라이프
제법
호평
상상
제어
사마
동영상
길이
수영
마루
정류장
승격
전대
Te
출력
소화
##보드
겐
사양
##ᆸ스
합격
89
기습
잖아
휘두르
터치
##FF
101
93
1993
공학
잉글랜드
반하
지휘관
북미
De
MAX
제작진
태우
기병
윌리
촌
##렘
득표
중대
쟈
94
요괴
합성
미디어
##크스
깎
다이아
머신
환승
인증
##다이
법률
##타인
com
79
끼치
메인
적어도
샘
탄약
브루
조심
가량
박근
런던
##일드
회차
구출
띠
매니
요즘
탱커
##FC
파일럿
의혹
##ᆨ시코
원소
re
활성
동방
유령
포탑
하수인
노멀
삼진
침공
믹
다면서
분기
87
디지털
의무
이재
마이클
##란색
톱
개정
서양
멋지
알파
가톨릭
묘지
인공
가게
홀로
볼넷
훔치
이슬람
똑같이
네임
첨
사이드
가속
결성
##one
실리
예비
단ᄀ
대략
스웨
학자
On
이자
히데
블러
패널
##쩡
경고
레인저
##우드
계정
보고
##폼
##se
축제
리아
##ip
쾌
헌법
전면
이내
아일랜드
##둔
##AC
부부
AI
앱
DJ
특화
##RE
익숙
용사
상호
어지
캐스
나아가
블리
횡
었었
이시
갤럭
##ere
##먼트
문장
그로
바이러스
메모리
도망가
워치
근육
대항
람
불법
넘치
##PG
##닫
어째
BGM
MC
슛
플레이오프
베스트
어둡
오가
SN
자매
유행
묻히
한방
개체
켜
##ity
도발
##리티
냐며
쿠로
타케
어린이
##붕
들어서
##ath
고지
김영
삐
##녁
핫
##창기
보안
핸드
육성
##조리
##넣
예측
빛나
예고
신기
소닉
빗
제임
자금
갤럭시
총리
루시
으니까
겁
일시
##컷
슈트
스크리
검찰
취임
멕시코
형사
FIFA
터키
마냥
정면
결론
사제
길드
##브리
##end
국방
웬만
차리
리스트
대리
스톰
고백
1991
##끄럽
루타
구멍
파크
식사
움직임
불러
마구
아기
리치
세이브
스미
호텔
곧바로
##컴
레이스
상업
앞두
이명
감옥
여유
!!
##펙트
저장
번개
절망
찾아보
개방
제임스
부서
진심
원자
투구
사이즈
구원
대가
유대
볼트
초창기
여지
플랫
세르
THE
700
타마
FA
##고리
피부
너무나
바위
배차
##륜
##워크
##요시
박정
청소년
오랫
팀원
흥행
둔
ㅕㅆ
강철
럭
바치
카타
리ᄆ
콜로
착각
좌우
##특별시
전철
1988
파트너
발달
##티나
세포
리메이크
MVP
소형
아끼
##페인
처벌
그동안
서울특별시
이즈
떠오르
현역
레이드
##구리
신설
긍정
##ᅳ러지
아빠
##쾌
주식
융합
##데스
훗
##네스
주간
망치
외계
##로나
분량
차라리
프라이
정착
Ro
위장
물러나
잦
미카
##OT
인정받
돼지
반사
챕터
합의
##디언
드ᄅ
랭킹
내성
인미
##성기
식민
봇
목격
인연
누적
커지
사우
협박
전문가
내장
장악
단장
게스트
의뢰
화학
빌드
알레
에다
CC
방지
에서부터
포스트
펠
곁
섞
브레이크
잡지
박근혜
Wh
대지
해병
영향력
공지
크라
논리
방출
안드로이드
동의
태그
국왕
방사
는다면
AK
##삭
시즈
깨지
타이거
먹히
조약
뭉
각자
그대
꺾
몰아
떠올리
요코
배트
한번
룸
괴롭히
관할
저녁
펴
지능
##ect
멍
DLC
골든
야스
하필
국군
칭하
htt
라면서
대폭
Se
1970
흠
의존
최소한
양쪽
놀이
아크
으려고
호주
손가락
토르
Le
악역
마침내
스프리
스턴
스리
동화
연맹
과목
변호사
실버
공무원
유치
'.
이지
후속작
막차
기구
수련
수수
본작
그럼
무역
소지
섞이
He
면역
소원
보관
오랫동안
무덤
PD
빡
샌
##톱
##age
오사카
웹툰
주말
역임
##IS
귀신
육체
연인
기원전
al
혐의
해리
스튜디오
썩
내구
명중률
확대
재산
카오스
접촉
호감
어쨌
불교
노부
다가오
적대
kt
##구치
##잡이
대처
깜
네트
명성
플라이
써먹
강남
태평
익스
계단
올해
전후
비행기
Go
연료
예능
정비
Me
오카
출마
통치
씌
간혹
슈팅
딘
테일
윌
팔리
오늘날
합체
트레이드
화제
##트리아
컬러
모모
예쁘
정치인
마키
부장
정원
섀
칼리
퀄리티
흐름
개성
츄
ᆫ다며
소장
로즈
리드
시마
안내
놀랍
학부
오전
게시판
뺏
GT
놓이
준수
휴대
접속
저그
더라
수익
권리
1989
떨어
KIA
권한
빚
특집
패하
연극
##og
외형
금융
##ake
##ide
##어나오
박물
하우스
험
선전
허리
김태
새벽
##오르
고마
상당수
윌리엄
톰
##OM
Be
피격
이집
My
초간
주기
카스
이집트
WW
무렵
따라가
공공
##미야
뻐
##흡
누나
담기
굴리
환영
편곡
페이즈
일기
130
최다
둘째
시계
금속
포르투
갇히
꼽히
소스
알아보
##려주
나치
넉
AR
메르
##ss
고구
원칙
킨
##바라
##윈
결합
SC
##ark
림
##ime
숭
깨닫
연타
##ire
알렉산
할아버지
치우
SM
편입
식당
리얼
유물
개입
한동안
문재
캠퍼스
기도
인조
매직
어른
뜬
렛
##세스
웅
주사
거인
188
전신
으러
소중
아니면
극복
wh
116
블로그
시선
성립
영문
바리
##칼
##듭
my
Su
딩
##ES
정찰
사도
은근히
회상
헤비
정글
기사단
##스턴
SD
협상
ㅓ도
아바
캐스팅
메뉴
궤도
흘
뜯
스웨덴
지진
##ID
##그마
시내버스
##셰
팬덤
Tr
음원
부디
유이
는지라
대개
작곡가
손해
데모
##ite
##던가
익히
대충
구나
튀어나오
독특
재단
수십
동굴
브레
전진
트레
##다랗
우위
더더
별다르
안티
복무
##아시아
무겁
보라
고수
민주주의
용기
우라
식량
##부르크
털리
트럭
160
뱅
젤
교차
종목
이익
해안
##회사
처형
##ound
##맨드
조언
일찍
멀쩡
SR
클래식
과제
리듬
이끄
세이버
드레
위상
##iv
원본
더더욱
##ᆺ지
HD
''
##가스
커맨드
펀치
신비
빼앗기
##베르
타인
박물관
까다롭
##미니
힙
신부
##가미
##iz
##OP
삼국지
##쳐지
훗날
##ge
##마디
증언
해적
머무
천재
멘탈
날짜
허나
절대로
적군
##가리
IC
자국
마비
꽂
일격
살아가
신앙
위원장
구사
##OW
갈수록
노인
재미있
각본
무릎
코우
중독
하얗
느라
##큐어
##가시
기적
재정
죄다
세종
주포
집행
양성
슬로
스승
철학
하락
참석
마이너
지위
##바르
고리
캠페인
과연
비례
정수
호수
예산
결코
모자라
국적
적응
패션
호위
교류
관중
크리스마스
작화
##렛
한참
탄창
깡
매체
##팀
이중
##덩이
##LL
열쇠
안경
히메
##ome
활발
시아
데이비
경기력
Gr
##갛
##쩍
펫
내세우
원주
어다
선출
투명
십자
툴
##테르
해상
바퀴
with
냥
우연히
김종
루수
체크
##BA
희귀
명단
비추
녹색
##프레
##UN
충성
구리
화성
##리그
진보
곽
미안
스타크래프트
으라
왈
피스
##ᆫ교
데려오
##슬리
새기
이영
칭찬
개수
사막
개막
첫차
주일
##리스트
##플레이
##아웃
결말
IS
위대
행적
헝
전성기
##몬드
미츠
모래
렉
제정
의대
당일
기르
인지도
흔적
1987
상급
기종
챌린
흔들리
후방
업적
오스트리아
de
미터
강점
BE
px
임대
상성
140
##ᆫ군
##스키
농담
어지간
김동
포로
웃음
##ᆫ지
사유
계통
##핵
대수
켈
##블리
도우
##MA
Pr
버스터
재현
대학원
취미
면적
무작
매년
##ord
스프링
어쨌든
Love
비상
오직
토끼
어려움
체육관
클릭
안ᄀ
##려나
울리
심사
##ud
일반인
포항
##스라
고스트
피니
펑
개량
사후
신장
거점
프리큐어
세인
첼
생존자
유적
이정
##값
남북
어마
강도
헛
기아
자책
과장
새끼
ch
본체
으시
모조리
##양함
자본
자극
괴수
예수
이주
##코드
부지
닥
가을
##mp
사라
##케이
파츠
##사자
화물
##데미
스탠
##10
로우
부작
저작
전멸
##일러
돋
##ame
맥스
기용
소위
UE
선고
##멜
##ance
아메리카
캡틴
시달리
연금
추구
기울
아티스트
SKT
##ax
##카드
클레
미라
인격
흥미
자세히
an
##치기
가짜
출입
행하
##ᆼ기
판매량
JR
공세
##ure
아카데미
뮈
유나이
유니폼
꽈
불타
##ix
기ᄈ
900
일치
차기
GS
승점
채택
포격
##뜻
공룡
일방
단편
유나이티
취향
아미
##ick
소송
##mer
스마트폰
도주
포드
덧붙이
탈퇴
코코
부자
일본인
##ice
막대
사형
무라
연패
##지로
할머니
기량
색깔
타율
칩
피아노
##깥
바깥
로고
귀찮
##our
제작자
로그
잘리
한마디
Bo
유통
건조
코리아
상실
타선
화장실
드라이브
구경
후계
생겨나
영구
치유
아즈
##이즈
집어
라이온
몽골
측정
EP
닭
노벨
##나미
식민지
내지
비주
##아다니
미루
요금
햄
##시로
##맛
자전
보존
1986
거듭
##시타
날아오
다름
선택지
##룩
쌍둥이
인민공
초코
잠재
1960
아이콘
가요
OST
상인
무방
커피
레디
찢
빨갛
##켄
쵸
훼
강요
##코토
레이더
메시지
인민공화국
KO
##{{
Un
간신
언스
초보
##고속
이슈
통산
사신
팽
동력
가상
고도
박히
릴
Ex
포수
어드
가루
김민
##티아
신사
도끼
##얄
넥센
조연
색상
등지
피터
다치
##AD
캐논
명확
오타
##듈
몰락
연승
##qu
주택
화재
사원
여객
##멘트
루카
교장
네트워크
주소
조이
타락
곡명
귀환
##스트레이
##oc
어스
베네
냄새
안타깝
{{{
외전
즐겁
콜라보
구르
##반도
유희왕
모토
나포
터뜨리
제갈
실망
판결
##80
이브
소라
##시스트
남녀
칭호
##카리
GB
대선
찾아내
담배
경로
##ᆫ색
수장
둘러싸
##러지
UEFA
마린
##스틱
항공기
펄
이터
스페이스
광역시
핏
위반
레알
깔끔
매니저
비치
포르투갈
DS
고구려
타수
연합군
186
##own
그레
sh
이민
##ys
반동
아마도
##그리
라인업
CPU
##노우
혐오
##나카
브라이
교실
스터
영주
##플레
그만두
항복
법인
백성
##든가
너희
관찰
오라
복지
뿔
타운
잠수함
##ber
미스터
단단
비서
주역
주자
적합
캠프
벼
배터리
쟁
스와
낚시
매장
수류
시노
거미
We
관람
붓
##ᅳ란
AM
릿
커다랗
예시
유효
강원도
##렁
커리어
드래프트
##괄
순환
데드
흘러
히어로즈
##저스
105
끊기
벌레
공성
공업
##av
아쿠
##OC
트라이
흑인
하단
인치
유학
##쌍
이스라
읍
##데이
승객
고개
##old
예언
용량
##정부
김재
동성
.."
고작
본사
##땅
상단
##큰
승률
국경
##일보
##지마
추억
소프트웨어
CF
면모
천만
마약
엿
포위
튕기
휴식
서구
티켓
꾸미
관측
LI
철수
수출
일대
플리
그러니까
첩
##긋
##orld
##랑이
플레
도적
곤란
중립
자폭
카운트
생략
개국
표지
적당히
##섬
수류탄
인디
립
터널
상술
##곱
턱
변환
음모
조별
클랜
마드리
기생
좌석
허가
합병
다름없
블라
베리
##ᆫ결
추종
##위대
형상
윗
고맙
소대
대인
곱
사이버
실전
##늬
##김
치루
정기
후술
아랍
문구
김대
내전
마드리드
통계
1984
디스크
더럽
보험
발리
인종
차이점
메달
마디
##머스
프린
##ont
1985
글로벌
연예인
근본
최신
복구
##려들
지경
언더
액티브
웬
입지
사명
타로
187
서포터
증오
SH
지뢰
후손
함수
이스라엘
스트라이크
후배
용서
아시안
에르
구석
성남
오크
3000
똥
사정거리
위성
일족
시너지
꼽
크리스탈
오마
떨어뜨리
AD
##ies
허락
LC
기숙
고위
더러
스틸
DF
급격
자막
그랜드
즉위
모노
끈
휩
리타
숙련
논의
하차
전주
부각
텔레비전
공방
lo
KBO
행보
어뢰
미묘
경주
굿
이수
토벌
들키
쓸모
모니
감각
##죠
발행
해피
데려가
네요
##타이
언덕
서식
It
왕위
##lay
연령
특전
얀
XX
준우
중첩
태평양
부딪
뻗
취약
가만
뜬금
구글
후원
게리
오랜만
제약
쿼터
블러드
루나
##어마
아츠
노동자
##ᆯ드
무척
정화
침략
저렴
간신히
##자드
총알
기관총
##OD
침입
##하면
눈치채
##쓸
세븐
MF
루비
간접
일본군
생년
파르
##US
아르헨
방어구
히나
워커
흡혈
분쟁
씹
법정
입대
알아내
제트
헬기
학습
혹시
##겐
균형
전이
드럼
놀리
맛있
가동
찍히
아테
CV
##말리
사귀
이스
진압
강자
다지
카카
산하
WWE
.....
##PM
아르헨티나
##ann
잡아먹
곳곳
찬스
공용
텍스트
소방
평생
양자
머무르
여우
##넬
분열
네오
NE
아이언
SE
어마어마
주차
트랜스
모시
드롭
자이언츠
크ᄅ
##40
관점
중세
구슬
신전
동인
약화
악당
금방
정차
아포
나리
125
##pe
##첨
깨어나
저러
이토
잡아내
거울
##30
##뚱
포트
애정
부적
지리
페널
결심
경상북도
딜링
반전
제작사
격추
옳
내보내
제출
상기
##네임
성당
앨리스
##sh
크레
라기
연고
보호막
your
이혼
되돌리
통화
크림
스팀
노스
가라
토너
##NA
호흡
표면
폐쇄
코르
##배우
뎀
사령부
아저
금액
##블린
인민
결전
구축함
엘리트
아저씨
간주
##마크
히토
악화
저택
보완
뮤지컬
##픔
미즈
창원
구름
이식
리온
##크라
인권
얻어
스캐
지라
뽑히
충실
##VD
채팅
스크린
헤어지
썬
불사
CJ
김현
선거구
착하
멜로
AS
용인
상관없
##츄
더군
##눈
참모
전파
초록
열매
갈라
주둔
##라이트
지불
DE
인용
하루카
유력
##은행
암시
대왕
천안
##ᆯ라이
##ng
프란
##io
긴장
정예
##키아
교과
분해
물리치
##올리
##천시
묘하
해치
흩
빠져
토니
딴
동양
유발
문재인
서서
보건
존재감
헨리
성별
공정
##뛰
우에
##셋
경남
체결
릴리
로리
시인
남아
배포
학력
상세
소유자
낮추
##ᆫ가
엮이
수석
커플
후계자
;&
악기
끔
언젠가
답변
드라이버
마주치
걸어
짜증
상영
시라
##oo
토너먼트
에요
원리
수호자
안기
재밌
도둑
전승
로이
엑스트라
악명
행운
호기
개설
로버트
170
이듬
##뜨
도박
Pro
리오
구미
본관
천하
뜨겁
업로드
잔뜩
미쿠
기인
선두
견디
기숙사
##틱
##싱턴
##월일
##ave
씬
뱀파이어
양식
실종
쏟아지
교도
중량
에다가
지팡
##포트
요인
테라
백인
##걸이
쭉
탐험
##LE
정황
부임
임신
난입
중력
아동
처분
대책
임금
동점
##스럽
비아
LV
관리자
캐스터
미키
디지몬
큐브
심심
##번트
건드리
만남
방송국
that
논문
야생
칼날
UP
항의
관계자
생년월일
해명
백작
시카
유독
탄환
분명히
##센트
베타
##우마
호칭
##슬링
복합
##베이
도루
서번트
카와
닫
금메달
말투
윈도우
##ION
동명
은신
생명체
조리
진주
문단
자녀
##ream
와일드
할인
법칙
수백
가방
패키
##엣
다이아몬드
려던
발렌
ED
1500
여야
단축
뿜
절차
모데
정통
잃어버리
EN
해골
분신
외계인
무관
영광
기상
루이스
운동장
하향
지치
온도
시합
라틴
이듬해
주술
닛
분대
인력
프로필
리뷰
##ond
##릿
창고
1982
##스틴
->
##드레
딜레이
부스터
##펴보
살펴보
이온
##갈리
끔찍
##어하
광장
로얄
기름
플래시
그르
도라
미네
##팩트
##iss
Com
5000
왠지
막내
사살
부ᄃ
의학
기둥
헐
장시
창설
뛰어넘
보드
전동
니스
레지
건국
성질
전북
밍
셜
##메이
한쪽
유인
공허
체험
레딧
장인
부사
퇴장
그렇지만
물고기
유격
존경
집착
민첩
커녕
##태우
두르
울프
우정
##운서
삽입
디젤
##탐
아나운서
걸맞
상식
##에르
참가자
아키라
승자
1950
##즐
공산당
##카이
##IP
##ᅳᆯ란
##11
깔리
창단
요약
휘말리
시상
감지
시원
작년
진학
시공
모터
솜
조기
증상
그램
전제
마블
독재
수면
감추
##다나
1983
하츠
애플
의장
불펜
##60
학기
출구
##ian
복제
??
by
그린
##비치
##소녀
부드럽
오디션
##도르
he
싫어하
나츠
웨스트
샌드
우르
유산
께서
힐러
비전
덩치
##커스
##이어
철저
선제
헤어
발굴
가공
BL
하이퍼
단원
투스
스위스
유전자
##ᆺ갈리
스폰
&#
반박
##유럽
go
그럭
엔젤
트럼프
맷
여주
항구
탕
타석
리스크
미만
##세대
돌입
##저럭
웃기
안녕
갑작
코트
중형
스쿨
사인
콘텐츠
##티스
스위치
펼쳐지
꼼
비주얼
꿀
다카
그럭저럭
싹
사법
주니어
##쟁이
노바
##팬
기운
##Hz
슬래
통로
##베스
준우승
배정
##TV
돔
수명
##던지
마스크
사용자
대거
어필
이드
출격
휘하
기재
라니
상륙
라이플
##게임
논쟁
웨이브
럼
눕
나마
정교
이펙트
본진
단행
대조
자전거
앗
가죽
##투스
배트맨
보충
토마
팟
##ory
딕
신도
깨달
트루
처지
훈장
호소
##TE
##우리
시리아
회담
식품
스트레스
격차
속이
국장
축복
빅토
인질
백제
##ace
##rom
코미디
Co
##올
##늄
##세서
실책
##틀러
폴리
근대
완결
위안
Bl
옹호
학문
파편
##카이도
태국
케인
평양
지사
공화
히라
유기
싸이
마우스
##레이터
;&#
경전
공립
##누스
갈아
워싱턴
팬텀
오키
트리플
부근
적중
DVD
##필더
##필드
승인
미드필더
Br
원문
토지
침묵
소음
피우
마케
메이드
##부로
소요
기갑
기동성
##끈
경직
플래그
Or
##무시
중국어
세부
##뚝
##oth
두들
와타
근거리
뱅크
치킨
축하
배출
##ows
내각
막판
결투
경상남도
신나
보이스
##산시
복선
오염
솔직
파동
방위
##MP
연습생
마감
부실
동계
남매
리카
수능
디즈
내일
삼각
루스
간단히
##ᅲᆷ
오니
차체
과학자
급하
후퇴
동급
튼
기후
##잠
고객
임기
날카
##TS
철거
줍
밀어
센스
넘버
##빵
슬라이
우세
##먼스
헝가리
무작위
수급
망가지
왜곡
무인
상담
학위
손상
롬
카를
##화점
국정
노조
한반도
괜히
지향
규격
스케
영지
##IG
장거리
바쁘
##든지
##ᆫ들
야수
안개
##셔널
램
CG
약탈
이글
마법소녀
일당
##다보
중시
기세
하마
질리
##주교
무사히
##그나
##aw
##스리
끼우
선행
185
##하마
토크
라라
요한
유성
날카롭
##텐도
닌텐도
패키지
##그라
##에이
최상위
##딱
멜로디
장탄
킬러
싱크
과도
시신
콰
##포르
미나미
##경기
야구장
##몸
간간
신발
대포
세인트
양상
##ᆻ다
록맨
성전
##ale
SNS
출루
즈음
카츠
프리미엄
지칭
외과
타쿠
그날
골키
변수
개발자
##아키
PV
스트리트
주류
##ike
대치
독일군
개별
뭉치
페이스북
후자
##하시
무산
특별히
더군다나
여러분
영원히
임팩트
장사
사키
##밋
전망
초인
1945
##틀랜드
입주
Cl
챌린지
물체
집권
##아이
벙
##겹
업계
바디
농업
모로
For
무시무시
군수
부착
원조
흰색
데이비드
동남
##야수
암살자
첼시
매번
RPG
나미
틸
왜냐
청주
만주
계시
##OU
중복
브라운
시비
##자와
Dr
질병
오이
손실
야마토
최적
악몽
##바닥
서서히
필리핀
##ep
선조
취득
##irl
##man
피트
##우치
폭행
핑크
동아리
##ach
##ile
175
동경
수비력
리프
1981
슬프
Sc
인방
BB
호랑이
##여객
골키퍼
OP
부동
해양
올스타
서클
어이
여인
구별
102
##공항
잠입
사리
헤르
117
지팡이
##ᆯ레스
꿰
나르
이와
고장
진격
인피
파생
##12
Team
106
며칠
배역
끌려가
잎
교토
룩
##VA
LA
몫
해킹
물량
##철도
##ink
플러스
Sk
선임
일람
제독
상한
리라
델
퍼포
의외로
사회주의
굵
##둘
Mo
체인지
퍼포먼스
ᆯ게
감싸
페널티
직장
GP
합계
권위
중장
가만히
국당
기호
##데드
레코드
공수
청와
DD
마물
틴
무술
ᄇ시오
115
댄
응용
##어놓
메이커
김경
해내
세팅
사립
캐릭
데이트
코난
팡
원형
제네
이웃
평점
이종
약물
가디언
기동전
주행
귀국
언데드
신입
최우
연산
##ial
스펠
FM
##승부
나비
풋
청와대
건네
은지
밀도
투쟁
캄
개장
##토스
##킥
##ish
엘리자
장로
국어
당대
에릭
SU
파란색
1979
서기
냐면
후임
여전
에디
긴급
집합
UN
라우
##슴
만만
웰
배달
엔드
카트
징역
챔피언십
억지로
스파이더
프로토
포즈
오스만
선사
테츠
합리
쇼핑
##앉
개신교
분포
권장
뽑아내
김상
기장
행방
추방
##ower
택시
저하
천연
다가가
박지
공백
회색
감동
##네시아
안양
전무
해산
일화
궁금
##뇨
프리미어
연구원
독점
증폭
##플리
신자
수동
즉사
모스크
확산
##II
명의
관여
야간
Bla
면허
주관
교단
여학생
공인
방치
재회
임의
모집
폐기
유미
듀오
##하르트
빌딩
##오루
대단히
조상
혼돈
잠들
라이너
만일
명백
##GE
전남
썬더
##블로
프레이
코멘트
##ᆯ로그
감상
아레나
캘리
바둑
성경
렌즈
쌀
##운동
버섯
사무소
택하
CH
매출
도마
##늦
분당
we
캐치
고블린
자비
피닉스
스즈
끊임
발목
토시
돌연
BS
##IM
출간
조명
타이거즈
장미
처참
Ne
추리
##!!
불량
Star
##콜
벨트
오메
부서지
광산
닐
깜짝
광선
뒤지
승무원
김기
전라남도
구성원
드루
포켓몬스터
비웃
##벌레
스테이
세리
시트
상관없이
복원
뚫리
PR
해머
우월
고소
실장
ID
##언스
우주선
고로
##벳
질투
히가시
목사
쿠라
스타디
되게
우유
통틀
하인
평일
만지
계수
간호
기쁘
지연
난사
와카
##번에
##히코
배급
##쿠라
Wind
미국인
버드
수색
화산
벌리
##라기
350
라이온즈
닝
유출
협정
##느리
##99
유언
##벅
파이트
수립
탐정
엄격
시외
조롱
up
풍부
무스
##전자
붐
스탠드
짤
자꾸
운수
서포트
LP
재학
파멸
심의
DC
골렘
한두
우익
##카락
국무
산맥
War
##잘
머리카락
메이플
fe
체감
And
정발
뤼
시바
의자
호시
젤리
검술
온천
##체스터
도저히
##ass
슬리
텟
당사자
청구
치열
나기
모험가
말ᄊ
합동
육상
토미
##타카
알라
포장
치즈
국제공항
뒤늦
사이코
##ms
반부
##me
키타
시사
중지
360
스텝
Man
레일
소용
실내
이라크
오로지
다운로드
본토
##춤
112
마코토
권유
축소
기력
로빈
특급
조용히
극도
에픽
아쉬
규제
디즈니
승진
배수
##gh
따뜻
트릭
우치
##CG
세라
낙하
비명
루머
##브라
##가드
108
루크
##도리
##뮬
러시
All
페리
묶이
AKB
나노
티아
##tle
하계
니아
##pp
##ble
##amp
충청남도
반감
아지
톨
범죄자
지인
바르셀
루피
오락
출범
바르셀로나
##를린
비유
우즈
##ft
지목
여섯
수직
베이징
안쪽
토큰
##농
탐지
단종
오우
##ᆯ러스
기리
뮌
일요일
103
프렌
수월
려다
경북
세금
폭파
황후
능력자
전당
##궐
##슬라
붙잡히
협의
바니
꼬이
크리스티
리즈
어시스트
##yle
스타디움
서머
##70
실은
이글스
여파
##ous
중순
물품
직선
막아내
##려받
미르
실현
배제
조우
##사이
모임
##now
베테
##atch
##sp
신학
넘어지
리버풀
카구
불행
분산
##틀리
##졸
##튀
부딪히
당당
조커
One
넘어서
타르
아가씨
다스
Mar
에미
모듈
##orm
수염
미미
생전
손자
드림
김해
평론
얻어맞
프래
캐시
토키
유의
신용
김진
New
To
##뚜
ON
명문
퍼부
엑시
거북
기묘
추세
드론
바론
여고
무승부
조르
ex
체중
막상
낙선
##스티벌
나루토
나요
진상
페스티벌
수비수
IN
경악
살아나
토요일
던가
BR
맥주
하프
##민주
천문
까이
Part
스미스
수습
엽
태풍
가난
더빙
채보
KR
기수
##나오
##구나
두렵
마카
연봉
함락
김용
Gam
할로
##쿨
강등
##렐라
파울
비극
센서
강사
시로
알바
되살
SF
주최
후회
패전
힙합
홋
##ING
대성
극히
##슬러
집어넣
잠실
비틀
산탄
고속도로
CS
좌절
대시
적자
ᆫ다거나
엄밀
국판
듀스
명목
까마
배려
동반
팁
타일
둠
엎
끓
훼손
꽉
인접
유망
노가
실시간
개척
코마
##ment
철권
리가
기부
PP
##방송
에로
에반
사무실
##ae
바스
소니
빨간
도리
반짝
케이블
야쿠
주체
늙
##64
원시
하여
128
뻥
스티븐
압력
상반
고증
모스
장탄수
꼬마
캣
##더라
샤이
젖
스테이션
##불명
유재
스핀
혜택
투척
도장
신속
포탄
닉네임
바지
인자
##ase
혈액
쳐들
호남
중화민국
##사기
배드
코믹
우드
농장
마땅
아이러
각지
##ree
장성
다투
이타
##앤
되돌
##사리
재개
조카
역습
주교
걸즈
고시
음료
유니크
휴가
벤치
히틀러
##잎
반도
##밭
암호
쇼크
구조물
달려가
짙
##저리
구장
날씨
샷건
때려
변동
번지
총장
En
캘리포
##킷
네티
쿤
확장팩
퍼즐
얽
##노리
##어트
제갈량
그라운드
시상식
짐작
1978
인과
질서
1973
ᄇ니까
오페
근원
챔
믹스
레온
JT
함부로
트로피
해병대
동해
##ᅥ하
기뻐하
어쩌면
184
사퇴
거론
오브젝트
##렐
##az
##거지
여의
##듯
##bo
대행
캘리포니아
보라색
슬라
제치
찬성
라즈
첫째
갈색
짐승
AN
상사
가담
깊이
베기
각오
인재
##버그
##토니
##앞
##놀
사로
World
##ason
양손
구동
##AY
111
##러그
##케이션
그랑
샵
쿠데
220
여럿
안심
호불
##iki
호불호
퇴각
무용
백화점
껍
최저
##베리
혁신
거칠
사야
공감
갚
183
크레이
강림
##구장
메트로
키보드
정반
##돌이
결제
지수
##키스탄
킷
##클ᄅ
감수
JP
##저기
오더
카리
포스터
##테이
돌보
동서
프린세스
말기
트레이너
진급
거든
마계
전날
계층
베어스
리미
고무
할리
네티즌
원더
알렉스
시그
동아
##라드
##ear
So
중동
경호
빨간색
나스
대령
특별시
피로
동행
산타
흡사
##hen
후반기
하하
빠져나가
##끗
장례
##클리
셔틀
노란색
##스트라
여기저기
중부
장난감
마오
240
평하
흔들
사관
막강
타이탄
수지
비비
리처
##MS
뜬금없이
신선
##ᆯ릿
당기
sp
세뇌
핀란드
학생회
가두
##키스
아베
##are
휠
포획
드레스
밀어내
견해
려다가
FW
베를린
탐색
두들기
헬리
차갑
여서
요미
##빨
보좌
유혹
GO
깎이
매주
선수단
날뛰
##릇
양반
교복
패밀리
유입
봉쇄
국도
ᆯ려
페어
영감
우호
강렬
원곡
스코틀랜드
연쇄
뮌헨
상주
입자
##직자
케이드
##차기
1974
돋보이
워크
방송사
무공
문화재
프랑스어
생체
끌리
재건
tv
클론
우측
박쥐
소재지
트라우마
마일
비기
도어
역명
점유
운송
토대
렐
##이너
콤비
방탄
경찰서
아이러니
드로우
##케이드
위로
왕실
결계
김준
와인
서바이
잭슨
후미
흙
박살나
약자
신중
공격수
무실
결혼식
부시
세로
##ᆺ불
http
수여
##하나
침대
지부
1972
연금술
##기에
복사
##90
##ven
래퍼
트윈스
##ife
포터
##아치
관료
화폐
제물
도덕
전락
비스트
집회
기스
통칭
바나
https
##싸움
윈드
쇄
로이드
완공
튼튼
트랩
첸
토하
##ade
허무
장판
프라임
순양함
엔지
리안
홀리
밀려나
##AP
Wi
취업
##베이터
역량
디시
스즈키
선장
소금
콘솔
폭스
탐사
##박스
라마
세자
덴마크
영양
출혈
##펠
강경
디오
우회
쓸데
##껍
빈도
탭
나아지
##act
도감
MB
##웰
글씨
~!
##데레
##ai
대타
일곱
홀드
##ank
아바타
##깨비
##gin
도트
연설
이순
억제
여단
간섭
%/
관통력
상무
공대
낭비
do
코스ᄐ
단행본
##aby
히든
루프
부작용
노무
메이지
오노
모형
신데
창문
104
영화제
청나라
승차
##out
전동차
인도네시아
책임지
소통
법무
Fate
no
트레일러
##흔
전격
침투
성씨
술사
손꼬
재직
태클
오지
페미니
워크래프트
하스
넘어오
제니
당초
매니아
한창
다큐
커스ᄐ
1975
쿠데타
커스텀
라크
마피아
##lect
시카고
신데렐라
실상
히로시
LIVE
간간히
부재
##트리스
##른바
형편
백업
제재
파밍
페인
123
설령
손오
출산
라가
우루
성실
손쉽
깃발
끊임없이
##ET
범용
##에른
##우트
딸리
공산주의
장애물
을수록
스나이
##드ᄅ
경연
강간
김일
스트라이커
##oll
큰
NH
우승자
끌어들이
김지
전향
소득
##륨
시호
스타리그
검증
조종사
##UM
##모스
토요
중점
Up
이른바
품질
왕비
OS
노르웨이
여타
카자
1976
라스트
are
근접전
소나
말레이
클라이
변이
항해
외곽
III
##ork
렉스
##천군
크라이
다스리
스피릿
파도
성분
강릉
최선
원주민
정석
마산
사악
사사
대접
혈통
##렷
섀도우
모니터
그러므로
##추어
발명
따라오
판사
유료
##바야
Do
단기
##ary
이어받
하급
구상
특공
선박
리코
리모
카더라
Oh
제왕
공통점
왜냐하면
검열
##닌
광물
##way
하반
티스
전생
왼손
포도
스텔
##페이
끌어올리
뉘
##루션
동전
입문
119
##와라
키라
브라이언
유연
트리거
벨기에
천천
##스톤
중상
맞붙
명분
자네
탄핵
##ey
##ich
명사
공헌
고종
장남
전송
원장
사로잡
##께끼
135
수수께끼
급행
소모량
중심지
109
단검
##슈타인
##모함
초콜릿
중고
김수
박정희
미지
바이에른
초상
우울
코스튬
중기
지선
##저우
##타입
ES
중위
트롤
확신
대변
##으로
##플링
올바르
Mk
공단
입증
으려는
베테랑
일체
한나라
모스크바
잔인
##능력
##키리
한나라당
관우
벅
이스트
엘리베이터
검토
오페라
시모
저자
수인
마틴
시게
Ad
잉여
예약
시온
단발
조국
부패
질주
친절
불태우
손오공
대법
아이디어
lv
부유
땅볼
##샷
대동
메일
긁
꿈꾸
힌
##벤처
교리
all
##동자
Day
어드벤처
씌우
강호
발판
보스턴
아스카
성배
##헬
터스
유망주
천황
콘스탄
AFC
##어드
케빈
시외버스
곡인
스태프
도쿠
부속
퀵
##스레
이병
스트로
##다운
천천히
nd
체코
버스트
렘
압축
##하루
충족
학사
##지르
##pt
고는
182
##orn
##크림
과자
카카오
흩어지
이현
메리트
비리
니혼
카시
굴욕
구독
무제
##넌
도깨비
그릇
갑작스럽
쓰리
##ᅦ이머
프로게이머
분할
올드
동정
손님
오메가
강전
화상
군부
자제
연수
나폴레
루마
토마스
아아
친분
어색
후일
대박
지붕
히스
위엄
민중
싱가
싱가포르
항공모함
에버
디자이너
기하
평등
마트
##가루
기차
존스
121
홋카이도
치카
미궁
레이디
이모
나폴레옹
마운
지력
##스트레일리아
고고
삼성전자
라그나
1971
쯔
땡
일관
발레
머니
Windows
##톡
##의자
##네마
왕복
얇
레이블
박살내
와이번
달아나
FF
이오
동구
테이블
폭격기
스택
너머
에이지
머물
145
사체
사촌
극대
##네이
107
맹세
디펜
망명
##ᆯ프
톡
="
이경
현금
RA
기울이
열정
이틀
찰스
엑시즈
광기
합작
1977
진에
점검
강점기
지오
대전차
##ah
김포
엔트리
##EM
터트리
##루미
그립
하이라이트
카리스
여포
질량
유탄
창립
쫓겨나
DP
변태
종결
썸
##사스
원숭이
후드
촉수
으라고
하사
작위
##군가
마타
ML
고집
AA
퍼스트
##very
##ᅳ롤
신동
자율
리퍼
##uck
화해
저기
마술사
일가
보고서
리틀
조화
재배
존중
누군가
본질
그레이트
독일어
##렇
##첼
표절
##막지
사족
무지막지
챔프
춥
총합
오렌
외우
원전
츠카
ne
천장
잊히
선교
이대로
IT
공신
평행
엔지니어
보르
구로
br
석유
쳐들어
중거리
자존
감탄
브라더스
이이
전라북도
피카
##ph
Sw
DPS
젬
자책점
면하
BPM
게이머
JTBC
소집
정사
지분
##아들
진단
물자
란스
210
스포일러
김유
메카닉
카마
봉사
노무현
연간
해소
178
인칭
카레
##ero
꺼리
몸통
스가
1969
떨치
과일
##자치
113
유가
쿠스
스티브
관장
리처드
".
대위
유격수
어나
교과서
파랗
무실점
교차로
##ool
타구
사수
서적
동속
검정
노가다
165
##바나
오스트레일리아
광명
브레이커
마유
1968
하치
맨체스터
동대
솟
1963
냉정
데빌
주식회사
임하
철저히
##ical
총독
토트
쨩
불쌍
빙판
명시
출판사
시골
손꼽히
NBA
부원
프랜
러스
힘입
입사
필름
주축
장타
##urn
부산광역시
아깝
가구
착륙
##퍼드
겜
백만
##ype
다니엘
Ph
병역
블리자드
탄압
실체
슬픔
##ARD
부천
Con
2021
말씀
에드워드
아ᄐ
윤리
모순
##anc
주사위
호의
##센스
스노우
매각
##ᆺ속
고아
광경
마당
지장
깨끗
유치원
터보
미오
매드
섹
불능
##프라
마인드
닦
스폰서
페스
목걸이
지로
카지
{{{#
어벤
전지
부스트
라이언
##은색
155
서열
레이어
완화
겸하
지혜
제리
용산
Cr
변장
##ung
참사
평론가
엄연히
줄기
유니버스
날아다니
이라도
내버리
물어
멍청
OVA
수천
김승
울트라맨
크래
답답
##멧
명명
우타
문양
나나
하나하나
보편
개명
122
Qu
서류
트윗
상금
납득
미러
엘레
초청
워프
##항공
배구
모델링
씨앗
외국어
평상
시뮬
Station
181
레인지
프로그래
##업자
압권
TVA
이노
뚜렷
치안
##지아
열혈
가설
중구
144
정문
난무
친척
##테일
진동
펠리
취재
닥치
집계
디바
중원
박수
엘리자베스
##소년
본능
수위
##시피
LO
발키리
고사
향후
##ww
앓
절친
좌익
KOF
재앙
일리
철갑
마케팅
자산
서명
주석
리나
헷갈리
성명
클린
오죽
우연
녹화
고등학생
##끼리
이케
##iver
도심
케이크
애칭
무늬
##잉
초능력
##부지
비우
소생
작정
어나더
at
패자
서방
쫒
쿵
국토
햇
사연
사직
시조
덤비
##DD
신하
곤충
어이없
152
서울대
일렉
아리아
테스
시어
드래곤볼
유아
용암
골프
love
##쥬
결의
로프
아마추어
경부
실용
액체
학대
##마르
실사
##폭탄
##ens
경사
산소
국방부
정성
발발
호크
멋대로
자사
쿠니
마그
표적
츠바
as
워터
편리
벙커
사우스
좌측
플ᄅ
##ost
스카우트
민간인
도색
##이동
TR
이태
##드러지
자칭
##ᆫ즈
##테이션
자아
침몰
114
엄밀히
##ᆺ말
워즈
마하
주머니
사투
일커
마음대로
스케일
이소
##워즈
##ence
1930
일컫
다케
##흉
라이즈
거지
wiki
몰살
##마리
박성
롤러
만점
인성
미성
##려워하
IM
##nt
변명
##밤
의정부
이대
직책
##띠
때로
##마루
##켈
개교
초록색
망토
알아채
개구리
##변이
돌연변이
from
초점
항모
##ise
루리
옥상
습니까
각도
코토
각인
법사
웜
##int
리본
##시스코
##이나
기질
파운드
모음
텍사스
이누
신지
1920
##리나
원피스
템플
마모
아자
스컬
179
방학
포크
##뱅
만능
이념
고의
정밀
달려들
!"
발급
##AK
유스
통째
풍기
죄책
등극
학급
##타운
Super
이원
포탈
매달리
에디션
MG
##하여
비키
Fr
격려
1940
이명박
BJ
can
이어서
##oy
##지능
로라
용자
인공지능
임진
동성애
조항
아담
방심
포병
슈퍼맨
미인
혼인
정신력
이빨
www
##ign
발탁
##떨어지
##젤레스
적절히
CM
선동
오렌지
엉망
관직
종영
##클레
##카르
인벤
연전
##ans
극한
협동
바쿠
177
북아
마찰
안동
기소
대역
멧
제사
들여
남동생
##레인
죄책감
소비자
##과이
튜버
에도
추후
네이션
리사
호러
##ug
포착
최순
Dream
헬멧
펌프
풍선
##팽
정반대
트릴
부러지
갯
게르
다거나
##바이트
장벽
##바야시
아케이드
공속
감당
덮치
124
은폐
##전차
블럭
##이치로
억울
1967
##야스
금강
농민
선로
너스
저서
닷
##베트
커스
갱신
이진
고가
원로
반경
127
다시금
아이디
##글링
마에
USB
흘러가
킴
유진
그해
아무튼
오른손
교역
타츠
협조
페어리
뛰어들
정점
오다
용이
씻
도약
예의
##트론
##짱
아사히
부동산
아쿠아
신곡
해운
시오
this
##IR
내기
다비
시시
##나베
##뒤
페르시아
펭
1200
퍽
중국인
##코트
##vel
분홍
트윈
대차
쉴드
타치
마라
450
잔혹
시타
고발
맞히
카운티
부채
연동
왕족
##이크
기본기
사나
녹이
피오
##철수
욕설
독립운동
ᆫ데다
##셈
##질랜드
컴백
##지사
ERA
##ode
군요
시크리
민감
유카
뉴질랜드
출동
교도소
초과
크래프트
아메리
누스
절벽
##툼
선원
카테
##uk
옴
##VER
지역구
##빡
비단
##쭉
호드
시크릿
네크로
수신
수감
무도
후쿠오카
사방
어ᄊ
침착
사무라이
서리
Fl
발각
방침
스토어
밭
감자
덩어리
Pl
후유
회관
청춘
우마
대세
뺏기
툰
물려받
팔라
젼
보강
Ver
스로
련
대피
베스
##역사
연이
##나기
제의
CE
##생활
얹
그러면
쿠마
구형
급격히
키미
스케이
##바지
강민
게끔
EC
종전
철도역
진에어
부스
디스플레이
EXP
##텍
연소
카리스마
재즈
style
내외
함장
측근
얽히
##민주당
발전소
방사능
##헤이
스탈리
로렌
꾀
스쿼
코스프레
코노
애인
가마
실존
그란
선포
아울
레나
유재석
##ier
마야
아랫
##블ᄅ
신한
궁합
가위
퇴치
반성
판도
아비
강대
현자
카쿠
리바
격렬
기법
분자
워리어
Sch
가오
예방
김구
잔류
나인
##페이스
##구미
Girl
당국
Season
두드러지
사물
##뱃
인문
##틈
1962
##ash
징계
IP
오퍼
러쉬
이윤
미아
박자
##속기
왕가
문신
##렉션
ar
자이언트
근로
La
이놈
DM
모욕
전담
화기
약혼
강타
NO
겔
반역
162
흡혈귀
카피
유동
이단
선지
정조
흑마
tr
사치
중견
118
종로
흥분
왕후
##공사
친애
지루
비오
화석
WC
시종
점심
쿠바
퀴즈
쿠리
불러오
고립
피자
제주도
벗기
노아
기동력
카네
분배
##reat
1966
##IX
아처
넬
벨라
유우키
잠기
돌려주
타리
이용자
명나라
위쪽
부가
레이싱
단백
##ib
황당
타이어
경성
계곡
벌써
이행
##꿈
김치
314
자존심
학술
##치아
##뱀
생김새
제노
##슐
스나이퍼
한하
태생
탈환
##usic
월간
Max
##끄
##사랑
중소
피지컬
남동
##탐정
우두
관문
스모
##시고
실적
로스트
모나
한양
망설
##딸
750
입시
##방울
1964
##폴
바시
토우
건지
금요일
대검
노랗
뚱
고인
골치
그간
팔레
안무
능가
적시타
불길
##수리
스프
Vol
TS
사와
뱅가드
숙소
소서
유고
##트릭
DNA
그쪽
여태
정전
토트넘
라미
오케
내셔널
얼티
##프로
급속
스파이더맨
Ed
아오이
천상
##}}
--
궁전
시범
중재
요격
호리
##ose
ld
사지
할로윈
통솔
레아
모종
칼라
성사
대학생
코파
중도
나이프
사슬
탈취
스피어
진술
스타즈
##트럴
갈라지
로키
AV
존슨
부끄럽
에메
까마귀
직위
한꺼
치이
섬기
한꺼번에
##닛
소소
우지
입원
두려워하
괴인
과시
나이츠
##보기
황태
도르
amp
욕망
계절
##렙
발하
불참
##서스
##시대
청하
Col
거세
혼합
##부키
##킬
##te
야당
so
생태
기껏
##미터
오만
학년도
항공사
GM
비자
저글링
점멸
HE
건너가
질환
미정
##사르
마기
일지
극심
뷔
다녀
##ail
##msys
페르소
##ition
ldmsys
원판
간판
케리
모빌
테리
천국
충청북도
스탭
이별
테르
도대
필사
얼리
과금
욱
rd
보로
박진
Night
각국
잼
##구니
욕심
BC
차장
히드라
얄
마르코
상냥
나들
강인
not
조립
레버
##우라
시안
회로
##당초
앨런
미녀
고추
헤라
나들목
스타트
리버스
##워프
##IL
달려오
이사장
김주
뻘
아케
단자
스매
승패
지지율
##랭
요코하마
암컷
공국
##당기
##히토
##ild
##무지
얌
하여금
168
일일
김광
페르소나
오토바이
Let
수소
툭
안토니
지크
물약
도미
쑤
병행
희생자
디아블로
고이
오사
키요
하지
학회
피난
ᆯ래
##티노
단백질
굶
상부
난민
스크롤
##ody
돌려
로비
바텀
만렙
테니스
갸
등재
목욕
##깃
사탕
빙결
Black
어원
펑크
##바리
159
들르
일환
코끼리
밀리언
신작
무녀
스윙
##세지
이승만
미노
도배
퍼펙트
BD
토라
평택
춤추
말레이시아
라인하르트
부처
아마존
일어
인쇄
리자
내밀
여주인
사이클
해변
##진호
##클린
해역
오즈
파고
아인
신생
화신
금발
무지개
부친
환생
가이드
대니
둥지
덥
##빗
삿
마도카
가해
파스
##딴
직행
1948
mar
스트ᄅ
##ough
마쓰
응답
해전
발사기
아메리칸
국기
##브로
진흥
엉덩이
맑
##롤
삼키
AF
##톨
늪
MM
절단
1944
미소녀
세례
아무렇
도대체
모의
무능
1965
성벽
OG
부제
히사
##33
##모습
명장
쿠르
두껍
맛보
##타리
유머
중공
일조
로스앤
로스앤젤레스
퓨전
스텔스
섬멸
노부나가
충남
석사
유엔
방언
프랑크
회계
간지
불상
스쿼드
노릇
아카네
##멘터리
주저
RE
섭취
울음
와이번스
수중
아유
수아
약체
필라
4000
눈앞
Op
##gr
데몬
일명
대국
조수
좌파
전임
빅토리아
사임
카일
고래
동상
집필
객관
출석
##aster
ㅔ요
사르
접수
빌보드
##스르
공교
외야수
##app
마을버스
그리스도
메디
##orts
평상시
목포
확립
두루
비평
인피니티
이나마
선회
사이토
대안
##성군
그리핀
뾰
대승
##겔
연세대
성지
유메
##uc
보살
##ᆫ규
뺘
쿄코
베이비
이카
##벼
꺼지
사천
교향
에코
드워프
애용
혼혈
1946
걸어가
##고속도로
십자군
아수
##스트로
신관
##은이
아니하
공동체
워드
이계
주공
PK
다큐멘터리
주입
##ᅩᆯ
어제
##시티
루미
장본
해고
알렉산더
이니
무자
옐로
서울시
최상급
보우
컨디션
츤
그랑프리
코레
동북
놔
위시
휴게
스카웃
김대중
##CE
이무
주파
챔스
제발
스기
셀레
##ject
대면
en
편의점
스타워즈
껍질
평판
교대
##OO
EXT
##ᆸ트
탄소
침해
..?
카토
블라디
득표율
비로
가령
##ari
단련
줄리
폭로
프랭크
math
낯
믿음
카게
아리스
자력
컴뱃
전도
방안
댐
면제
수컷
퍼시
##긋나
민폐
##랜
집사
엇
le
휴대폰
AL
리리
흑막
라비
진도
테이프
우미
CR
독백
정답
아쉬움
크롬
히로시마
솔저
정서
숙청
소마
섬광
아르바이트
EZ
리프트
두려움
막부
##프란
성대
뻔하
리부
타우
##각형
와타나베
구호
달콤
원한
밈
큐어
경제학
항성
##스카
원자력
##iel
감성
떠돌
팜
단서
강동
지각
냉장
남학생
공명
##퍼니
관광객
##미르
151
홈경기
##리얼
둥글
찬양
하와
보복
격퇴
138
Gu
신념
스틱
배리
신조
으려면
SA
던지라
가해자
장본인
티저
광복
남양
개업
320
하도
172
GSL
눈동자
은메달
적이
##애나
점하
타카하시
권하
정우
휴먼
벡터
수성
##오피스
상시
남한
가이아
##TA
김병
천주교
ATK
살아오
##ats
순천
불화
##도전
##ye
지면
의의
강아지
어벤져
단역
보직
우기
EU
##eah
##바람
클레이
동아시아
##디스
개막전
자루
주한
315
수라
시네마
1961
##총장
천지
##부인
컬렉션
노비
풍경
GD
서바이벌
일각
배후
테레
걸음
##중간
얼티밋
투고
##운수
고난
트이
TOP
Mag
오공
158
균열
동사
어기
대교
찔리
내정
그리하여
라이드
샹
CL
표기법
트러
상원
재질
도스
##다드
탁월
다녀오
깃털
흑역사
카사
손잡이
가왕
악행
캡슐
무한도전
##맨스
통보
##이센
마미
무신
스톡
시련
추모
스칼
로맨스
AB
민병
NT
##쑤
물리학
##꿉
여수
치고
ver
리믹스
수확
로제
카이저
흉내
스파크
동메달
내면
일산
숭배
나란
루마니아
UC
##oh
##eth
이순신
충고
표식
##ron
동이
박스오피스
소꿉
쿠사
으리
슬라이드
제대
##성이
독보
결과물
병살
금고
##ings
아이즈
주차장
이호
김일성
히카
청사
유마
구제
아스트
##내리
##메리카
사범
신상
제인
어판
이세
볶
매그
그레이드
건립
레이지
176
공로
도요
컴퍼니
방정
크라운
다저스
딥
삽질
지미
will
간파
운반
펌
Is
ME
재수
예고편
리플레
테오
보가
겨루
##짤
##떡
직무
##느님
##로우
병과
계략
저항력
테란
호응
발톱
##inal
궁수
군데
심정
##==
126
차림
신임
1949
오로치
로크
정의당
마수
안드레
랴
주의자
Am
과격
대명
완벽히
하느님
자작
기온
폴아웃
승려
상어
친일
우두머리
이점
10000
식스
몸매
보루
Don
문법
팍
감금
유라
서원
타스
갈기
##ult
크로우
라이트닝
무선
바이킹
응급
코로나
테크노
154
사망자
like
레시피
LE
패왕
세르비아
총사
쫓기
흉악
WH
방울
스치
맷집
{{{-
KB
뒤쪽
풀려나
Time
리볼
132
##총리
##MAN
주황
##핏
전법
총선거
법안
유해
드루이드
무비
도사
긋
웨폰
거꾸
김성근
표하
습하
짬
레슬링
##러브
센트럴
아테나
new
##넛
##덕션
성폭
##런트
##빨리
성직자
강서
##13
멸종
응시
##저래
스크래
지배자
##마치
빗나가
이즈미
강습
천체
스파르
저승
이래저래
반기
218
완성도
이용객
테크닉
이리저리
르노
Mi
피드
장신구
##GA
니트
로열
코디
떨구
국민당
난리
##ov
취지
##oul
슌
퉁
급식
충격파
##18
상의
라이징
##낭
##곰
손목
하우
선봉
리츠
##조합
이영호
탐구
유신
노라
키노
당나라
짝사랑
더미
지터
##ob
제너
핑계
태조
전염
리우스
야망
미남
프린스
##나르
과언
블랙홀
트론
유능
후반전
어드배
고조
##ould
이쿠
행진
##전사
통틀어
156
##보우
마가
..!
iOS
##트랙
무궁
Ser
마마
##친구
뢰
one
카제
164
##alk
버거
미세
진하
##렉터
##처럼
엮
##tern
##yn
재벌
##레븐
숙련도
139
배율
나란히
필두
김윤
렀다
모에
##활약
보트
놔두
얼라이
ᆫ가요
유카리
##15
능하
몰려오
시간대
이인
##up
##라미
구청
153
조던
매기
하츠네
아호
먼지
벚
교정
저격수
Gaming
하나님
##reak
무슬리
반장
콜롬
감기
공격기
거꾸로
커플링
무슬림
양심
합법
초등학생
나열
김두
이광
##고사
##der
##able
GK
오키나
하드웨어
동지
##ᆼ가
샤를
##제스
접전
ᆫ듯
리터
전두
청장
엉뚱
하비
성숙
세미
최하
스탈린
후면
누이
지성
상공
오바
148
디비전
가히
신주
Car
맞먹
##ions
##ᅮᆨ스
허브
인천광역시
##사고
연달
탄막
범하
실업
셋째
니콜라
##엘라
스케줄
표창
동등
Your
얼라이언스
마티
타키
단의
벌금
주유
##문화
167
ᆫ단
볼드
고우
김선
냉장고
스마일
쟁이
##널드
대등
맞대
203
북서
봉하
배열
달인
지표
몰아넣
##바스
쫓아내
황혼
프로덕션
어긋나
##쿠스
애국
데미
SSR
창작물
##타니
##백과
##주의자
##PA
사료
무색
1958
브라우
가나
1941
음향
174
오역
주술사
야마모토
승급
##왜
영화배우
##ull
휴스턴
도모
##시다
공모
무죄
갈구
꾸리
사야카
##프란시스코
샌프란시스코
어그
전례
라틴어
##재기
진로
##뼈
##스텔
종말
여주인공
se
유타
타당
아수라
노하
동년
시끄럽
##뱉
Min
설탕
법학
깨우
버블
번식
##ᅰ어
처녀
앞세우
무안
RO
##셉트
시뮬레이션
142
자키
##니코
밀라
통행
지지자
바이크
##상가
LTE
광범
레이븐
##차리
굳히
영등
##껑
문헌
일러스트레이
사내
헤드샷
빈약
인명
##타르
염색
스페인어
쳐들어오
카인
주가
순간이동
##무네
163
혼동
코프
원화
런처
과감
박탈
가라앉
한층
##기업
배상
수령
맹활약
토비
레인보우
##넨
생각나
득실
이오리
차일드
프로이센
##ube
##ECT
일련
러너
비즈
아슬
마스코트
꼴찌
1954
우편
염두
BGA
레바
리볼버
##아티아
제자리
졸업식
크로아티아
강수
월요일
네스
안보
##ll
전학
have
애완
플레임
후쿠시마
사가
pr
태권
회견
##보라
맥락
제지
콜레
단식
찰나
설마
황실
out
레슨
절정
음력
밀레
오리온
수하
##퉁
기관포
페미니즘
대목
연막
능숙
른
발현
대외
득표수
크리스토
장례식
상속
약칭
이만
##스티스
##ICE
##랄드
내ᄈ
스캔
초상화
환호
카렌
안제
단총
연고지
사소
NM
복음
토론토
대군
파우
143
밀어붙이
137
공고
인텔
대법원
죄수
부호
##물리
앞면
당원
미트
한강
무너
무너뜨리
##크리트
소우
따내
시흥
너클
오피
릴리스
##로그
방벽
공짜
쳐다보
투사
##베르트
창당
313
현직
노골
격하
혹평
Sum
##겸
무단
솔직히
망설이
##바루
평창
다지만
흐리
내뱉
한정판
소꿉친구
사당
박종
펙
양국
빙의
북동
차분
왓
HS
인체
외관
ALL
플라스틱
오비
경찰청
꿇
가미
자포
두뇌
무식
CN
IV
추출
##ᅳ레이크
랜서
이력
##귄
치마
##소수
베어
1943
십자가
230
이준
전반기
앵커
반란군
알아차리
바티
오딘
아테네
태자
뮤지션
##대사
델타
지요
북구
순찰
맹독
남미
난투
오케스트라
프로스트
기술력
푼
우산
157
관계없이
해상도
몰아내
##모어
강탈
오쿠
극악
브레스
133
숙주
ᆯ까요
##FL
기이
슬슬
키드
공자
거스르
바비
미시
갈리아
오프라
un
출제
146
팬티
129
##박이
극우
뚝
잔해
윈터
확고
구독자
세키
##더슨
000000
플레이버
1942
광범위
별칭
지극
프레스
##곧
청룡
화약
##STER
비참
제프
173
시에
나카무라
카오루
BO
워너
##결승
미하
종사
설비
진구
##탱
박명
달래
힌트
키즈
##ᆺ대
경선
##드리히
채찍
여장
리뉴
리셋
##천사
기쁨
클리셰
원년
폐허
margin
##맷
섹스
실바
수영복
know
서치
카테고리
오디오
연안
멘붕
전수
해태
##무게
호출
텔레포트
몸무게
후대
칠레
폴리스
팀장
##MAX
끓이
set
##무이
방화
##DX
나락
생물학
##룬
청원
##날두
OF
호날두
통증
기행
공습
공천
136
Play
##블레
리베
생애
BT
사나이
##믹
팩션
파랑
시초
##ica
정교회
CB
##che
체스
##소총
Of
서장
애쉬
태종
##ock
히카루
우크라
라시
번갈
포니
미모
##생기
얼터
As
la
개판
##풀이
망상
##YP
증기
제조사
메세지
빈번
저조
Red
아노
##회장
럭키
Type
BM
하의
##제국
양대
##14
불문
##산역
오른팔
애쓰
일러스트레이터
잠그
조력
심화
복도
클라우드
149
버터
대패
정준
바인
혼다
라이센스
우파
박영
브루스
친정
산탄총
##에몽
##전설
치바
교육청
유선
바나나
때려잡
##ᅨᆫ
트랜스포
넓히
킬로
샤오
BA
성규
포맷
오키나와
##ict
미끼
범주
##17
라파
스ᄂ
심야
134
1900
슬라임
마니
1956
미숙
인터페이스
미도리
맞물리
경지
해독
##지않
가의
스나
TP
입국
전류
냉동
가혹
지주
진리
목재
DI
##ster
레슬러
신세계
책상
공손
퍼센트
##ange
나사
##ater
대사관
EV
개미
부흥
운항
가로막
거느리
밧
깡패
뫼
진짜로
##티넘
김천
플래티넘
슈가
바그
비꼬
왕관
High
태미
##이스
슬램
사일
##ons
캇
##모니
##뿔
무수
구마
##메라
로그인
자부
열세
파손
심히
파괴력
트레이닝
제이슨
장갑차
pro
중후
앞뒤
##레슬링
오세
땀
분쇄
달라
교양
스매시
불쾌
초래
개개
자켓
무명
feat
진형
요우
입법
TE
찰리
원망
프로그래밍
NEW
미들
수시로
섹시
외면
프로레슬링
페이크
재림
슬러그
축구단
##왜란
악곡
임진왜란
##ple
보디
증인
중급
열기
랜스
싱어
경질
칙
방정식
퇴역
쇼트
사천왕
전두환
##넉
지난
스바루
##콕
시집
주고
모어
%.
뒷면
콕
##슬란
싣
연말
##니스트
147
스팅
공과
져
골목
비로소
Light
##차례
아래쪽
패스트
닫히
미식
박해
호프
##나리
자회사
퓨처
상대식
심상
클러
AE
생선
안철수
앰
꽁
##주군
##무늬
폐선
280
세일러
배우자
실로
##세서리
최정
엄폐
2500
ᆯ라
소령
##카미
제우스
헐크
##바다
하지메
가브리
저스티스
드리블
오프라인
MO
수용소
선인
GHz
철갑탄
##텍스
착지
직통
##ᆫ티
메구미
Gen
아랑
웨일
옌
관절
222
나뭇
차관
마켓
토막
##to
CO
의아
격리
테일러
히나타
##구역
편견
##토랑
##니즘
##의회
실천
레스토랑
##에트
굴러
플루
따라잡
~"
수다
더구나
보잉
세츠
##툴
강세
수상자
1939
음색
불리우
##더기
배속
김연
##CC
개그맨
was
라임
파이프
What
제단
소행
미쓰
메테
플랜
면접
꼼수
템포
감행
레규
프로세서
배신자
용의자
##산동
복용
##고래
거르
Kor
##지오
166
라든가
로지
미호
증권
고음
원종
연기력
1959
##컨드
물어보
반론
도쿠가와
지문
##ics
1936
타고
야전
프랜차
명탐정
세컨드
동조
섬유
인트
소설가
롤링
일삼
냉기
두목
##사관
신칸
준공
술집
하후
탈당
우물
재임
##ACK
화소
Heart
율리
##투아
산화
러닝
레프
공영
Tw
유즈
종착
조교
소노
스콧
프랜차이즈
##les
플로리
케리건
미수
내역
역학
LOVE
필터
웨인
oh
1955
GPU
삼촌
미스터리
##ex
##사와
기피
뱃
병종
##BM
이아
트랜스포머
모함
##어붙
어벤져스
퍼붓
랙
체격
아이스크림
지그
거니
펭귄
낡
투신
NHK
AG
##쫓
하카
투성이
에그
##데르
반환
아이폰
찌질
전광
성기
위키백과
어린아이
Mr
파문
##니스탄
신칸센
책략
동문
루키
콘셉트
토가
채취
사모
기술자
Blo
동호
재활
둘러싸이
PL
하이브리
경보
호무
속편
영등포
참으로
이방
시가
그제
물가
야마다
하이브리드
##lass
전열
테일즈
가르침
##브러
솔라
장학
##16
인구수
푹
특훈
부도
##테스
응하
냉각
봉기
##드리아
레귤러
자질
반군
FPS
주되
랏
틀어
MK
##AND
깃들
부당
##두리
##무실
준결승
장편
방호
TO
스트리밍
최대치
쫓아가
방송인
좌표
##권자
마의
##아슬
아슬아슬
##ᅣᆯ
하리
말년
Par
라구
보행
정형
##전트
소사
메우
##nder
##플러스
##규모
인사이드
스크립트
로테이션
모던
1952
쐐
패드
상행
time
포식
뇌물
적립
서민
수량
가와
소시
소매
##교통
악하
전반전
공존
범행
ll
330
되살리
수도원
내뿜
라바
##더링
하반기
엣지
##좀
270
사슴
캔디
카즈야
##ors
Fe
##볼루션
교통사고
륙
패닉
얼어붙
노래방
도청
##ME
단과
도호
더하
접어들
표본
죠죠
신수
쥰
김도
LED
카니
정계
불가리아
경과
오타쿠
속력
유대인
서해
몹시
스텔라
페니
담임
직속
중년
어미
뱉
끝장
스윕
카우
캐슬
태극
여배우
순정
뚜껑
매지
입양
에메랄드
발라드
멋있
교섭
테러리스트
함성
우체
파키스탄
출고
디렉터
1947
GTA
파격
동로
원고
##단지
저거
필립
춘천
#!
솜씨
##대기
이에
225
평안
모양새
Good
얕
두근
##콥터
전속
르네
거품
심문
박상
맴
방공
직격
##트라이
상쇄
스퀘어
짤리
영동
우상
곡선
재빨리
저희
사교
무고
##테리
발간
현존
세스
Per
##뿌
유지비
적색
현황
서두르
따돌리
다이노스
프리드리히
사투리
##딕
핸드폰
쓰러트리
멜론
##ᆫ각
##수수
바닷
##스타인
영남
로저
자각
##려보
순교
광대
쥬얼
배리어
호구
호스
단말
자칫
산악
하행
##글라스
오락실
##무기
시가지
스파이크
프랑스군
마초
카를로스
베일
월등
신흥
벚꽃
다기
어워드
##ᆺ집
##파리
앤디
SL
am
##HT
사탄
텀
넉넉
성서
털어놓
석상
발렌타인
쎄
하시
신병
보리
적재
레즈
260
스내
급히
마신
라프
##eep
우천
1800
격전
선진
래스터
쏠
유나
바닐라
요미우리
유니콘
미유키
##윽
MSL
##뚫
메이트
타이완
더욱이
##프ᄅ
선우
구절
부관
1919
리바운드
홀딩
본의
줌
호투
실력자
브이
휩싸
IIDX
몰아붙이
고산
##ᆯ리언
하라
호박
새우
부사관
공약
추궁
중학생
불신
아홉
##ott
브랜
블래
받치
원내
호르
즉각
프로모
심연
질풍
비타
간호사
야만
기함
상용
차용
핸들
미티
Kn
쳐내
ab
정정
상장
신정
달ᄀ
일례
유니온
0900
퐁
남작
군림
소실
징크스
Li
로스터
ㅓㅆ었
눈빛
이례
시부
꿰뚫
증발
카이사르
부류
냅
선형
유방
장원
운석
##메다
EBS
단정
고분
적성
다중
카탈
wid
브레인
유정
포워드
프로토타입
Wii
##문트
에바
ᆯ려고
츤데레
텅
##수아
타고나
도시락
##메스
최우수
프롤로그
소리치
This
근력
안성
ㅏ야
호그
드레드
훈훈
미로
설화
여관
성비
ᆯ지라도
하와이
악령
조준경
##산물
축적
픽셀
##IV
길거리
헬리콥터
구타
##자동
유무
양보
지름
유승
회귀
더라면
Baby
##25
##IK
소규모
본가
카디
라던가
후루
망원
남서
##anna
허위
격투기
기관차
##두사
##파크
루루
자본주의
깽
교훈
트러블
실정
진수
제보
페르난
전산
농사
켈리
정재
습관
HARD
Sm
바오
불평
미ᄁ
존대
일레븐
럴
ONE
스토커
탄탄
동요
떄
충북
서정
유코
빈틈
히데요시
루터
킹덤
1953
대중교통
스콜
에필로그
서태
자문
게임즈
밀집
중성
샤워
##델피아
필라델피아
GN
##포드
민정
##넘기
1938
리키
심리학
##other
총괄
관념
원작자
Rock
송출
격침
##행위
첫날
169
프렌즈
us
회화
단속
줄어드
##19
박용
청산
석방
구두
##바키아
빌라
##세포
미팅
책정
독서
뽐
리부트
550
야외
만료
만루
자격증
##똑
##앙스
총회
장풍
width
선대
고토
말미
양측
파벌
수수료
##팍
수평
##icro
Live
밀어주
##케인
고든
수복
요시다
일품
리조
김원
생산량
병장
라나
노트북
Ac
##토르
특이점
온몸
유유
술탄
뉘앙스
보증
##ins
죄송
내수
황태자
여권
히카리
멀리서
리우
##ᆷ마
할리우드
##oss
미니언
##ru
DB
희대
결사
연금술사
##크라이
동래
그리드
대마
##하이
좁히
미라이
결함
페이커
##미스
레이트
여당
니카
가창
왕좌
독수리
우가
장동
핸
완구
의석
교내
혜성
에밀리
##받침
하부
성수
헥
글리
유배
협약
##노스케
자니
요하
윌슨
쇠퇴
나고
cc
고스
살피
교시
은혜
후안
홈즈
OK
연의
호세
##gain
##ction
Blue
##턱
정체불명
경쟁자
잊어버리
Dark
##EL
버릇
누명
재위
1957
배송
도라에몽
사안
제작비
고성
체형
KTX
원활
가축
갈아타
초교
##플리케이션
우루과이
대진
오리진
아르카
무사시
저술
메모
라오
서대
텍스
##0000
짚
""
전세
보구
켄지
방과
게시물
토마토
자크
편안
셰프
진행자
천마
강팀
로브
주거
로컬
Champ
자발
말소
환수
더비
##툭
말아먹
비토
예배
소비에트
속박
수강
특허
포대
으리라
원흉
격기
경순
##na
발차기
분기점
RC
오시
편찬
피에
빠뜨리
Im
주파수
실루
유비트
분장
Sun
##ood
첨단
##agon
쫓아오
브론즈
##UT
캐스트
유로파
진군
진정하
##자재
타다
트로이
게릴라
탯이
##그루
넥서스
바이올린
++
##어쓰
친목
OCG
모친
##ᆯ리티
닉스
돌아보
Can
직결
일일이
장제스
##통수
블레
스케이팅
포럼
프랭
리액
아까
랩터
Bat
해적단
선곡
깨알
상가
##스티니
수녀
MHz
back
타카시
환사
자손
슬퍼
니나
요리사
##ky
북극
연루
코즈
DR
유영
205
##토리얼
쓸데없이
##훼
재무
센티
클립
##버드
매달
찢어지
경감
미성년
통수
용감
기획사
키트
마차
정동
본성
튜토리얼
이창
##놀이
주고받
달라붙
na
박재
미즈키
열람
열악
무제한
기성
수식
불어
후지와라
데스티니
##꼴
Summer
대출
금색
RP
##코스
단선
권능
모범
니코니코
##일으키
요시노
##ty
불러일으키
플레어
김명
##irst
셰이
분홍색
야마구치
##사벽
넘사벽
배기
매수
명곡
##DS
민영
야심
농촌
당주
살상
연하
브레이브
##기지
자판
산책
빅토르
저것
도검
##ady
##코프
목동
양키스
##무소
야시
##land
Korea
밀치
흠좀
흠좀무
대대로
Music
탄도
원천
헌신
##소스
제스
피치
중추
항아리
창세
동족
하워드
##박히
비시
강유
스파르타
##듣
그래프
서초
아울러
오디
##드립
남발
##드르
자처
레이첼
레이너
휴게소
함재기
엘리스
발광
##저드
소극
BEMAN
타나카
세레
라트
루이지
병합
급기
줄줄
1914
행렬
어느새
라드
아제
개칭
토이
노동당
코지
계란
프리즘
도마뱀
무진
귀하
안산
합하
카타르
기괴
슈터
필연
빼내
베이스볼
험하
강행
반대편
잠재력
셸
합당
임원
##누르
BEMANI
장안
파산
실무
##현우
악의
만행
화내
일렉트로
엿보
##OID
감전
토로
루팡
나레이션
Fire
##석민
무상
다이스케
설상가
리턴
윌리엄스
프로모션
설상가상
제휴
##현진
금호
글래
##마당
인어
성모
재난
OB
now
쪼개
학점
쩔
교관
솔리
김형
댄서
##숍
성균관
##커녕
밀란
유난
650
야기
하원
살인마
##셸
##니시
음악가
힐링
정벌
펜듈
펜듈럼
창업
##킨스
조직원
211
주심
실습
손톱
목적지
마운트
화합
대각
문고
북방
입체
이질
위탁
복면
아타
총격
후궁
슬퍼하
시코
악어
차선
포토
##ium
지온
광속
##곡동
청동
호기심
여정
평원
달걀
휩싸이
정립
폭동
늦추
쐐기
친화
세션
농락
##테이너
후예
귀중
듀크
치사
##쉐
피에르
GG
점사
Life
CA
서독
뒤통수
진나라
##혁명
계열사
가성
육지
사다
3164
##즈카
##ush
냉전
해수
STR
고령
재판소
로코
##메어
양호
퓨리
##기사
소동
한발
반항
실명
문어
성도
박찬
Ma
분화
피카츄
##ount
##ᆯ럿
스냅
마요
어설프
가급
모닝
스캔들
까닭
But
숙이
세탁
리엘
염려
별점
1951
동탁
호노
Just
##프스
똑똑
어퍼
로저스
증가량
풍속
204
##멋
뭔
자수
총재
프런
한탄
돌이
숀
코리
진성
투니
월급
내륙
동체
준하
##ᅥᆫ지
대상자
쓸어버리
페루
창시
네이트
진료
스킵
아토
선제골
연회
불로
##따르
DX
##CH
나이트메어
고속도
지극히
네코
대공포
사로잡히
시몬
플로리다
선방
Ste
##때로
끌어내
이복
우아
day
레기
##년기
향기
한숨
Sy
##ger
##르기
프로리그
사면
박경
##퍼런스
FFF
하타
pt
남극
감히
개개인
##덮
Dance
##주리
에스파
사찰
강연
캐리어
마운드
드릴
박명수
일본식
공익
개연
해임
행방불명
끼어들
츠바사
파장
출근
##저것
이것저것
할당
현상금
FB
상표
야드
한도
발칸
Gold
여친
홍성
석탄
나폴리
CON
지상파
실루엣
국산
호로
Grand
주황색
적료
네놈
이노우
스퍼
##블릿
스완
서지
테루
##아라
지휘자
Pre
오의
회고
저상
Ev
민법
##티콘
기복
음주
1600
콘티
신대
광전사
VOC
구단주
블루스
효소
##ne
암울
##ally
HK
아프가
채집
##ution
이속
망가
괄
시간표
LCK
따라다니
예언자
성체
슬로우
대주
아르메
기타리스트
##준표
괴상
차후
괴력
아줌마
난감
##pr
지중
화자
번트
일식
대표작
피고
관동
스네이크
##트니
##징어
영진
매너
##빼
전교
접점
구급
파수
파업
열등
수락
반짝이
get
통신사
##힐
세일
카이토
부여받
사우루스
화나
##마침
논하
샘플
##클럽
외롭
다짐
내걸
##그룹
##미즈
TW
Over
##궤
대본
##보그
##얼거리
케이지
목요일
코다
군복
이변
콘크리트
꽂히
부평
교직
투하
셉
1937
카르마
램프
##사이드
리마
##ator
훅
브란
ARM
추기
매스
포효
호쿠
경찰관
정확도
아틀레
정세
정자
신축
때마침
딸기
##룸
beat
젝
##장난
해치우
출루율
미사키
출연진
소피아
고질
전리
박치기
애시
러셀
합창
일어서
한스
가브리엘
아이유
쫄
매출액
무궁화
UF
##체스
변질
ᆫ들
외래
금화
차종
샐러
##베르토
리에
부과
선구
뷰티
홍진호
DJMAX
서인
##봇
행정부
예지
회오리
##air
각기
클레어
자진
연발
Sec
코바야시
비장
어리석
##그레
##ᅥ리
남아프리카
일진
퇴출
등교
tvN
픽업
대부
챌린저
처절
시치
크루즈
대쉬
일절
최영
##네이터
##얀
개인전
베네치아
코카
백신
세세
파인
고요
##토시
##르드
출중
##삐
피츠
아카리
##엎
교향곡
아프가니스탄
##나드
그려
BBC
동창
Out
캉
지침
조영
커비
영리
사극
접근성
느니
고릴라
한성
마누
태수
우습
신원
만세
쾨
뺨
##inc
광부
점거
간선
상류
##히트
헤매
회심
간략
경매
뽐내
수험
경희
코요
딱딱
검은색
이은
##아스
##축구
##장이
체이
영조
완수
##언트
밋
부대원
스피커
컨트롤러
##로이드
풍자
##ᆯ렛
##츠카
달빛
샨
상체
리티
다이너
양주
El
Dis
but
아드
책임자
Win
가소
전년
##흙
미판
사이보그
##꿈치
케이트
사스케
강판
유난히
에티
##동원
타니
상하이
수요일
저렇게
VOCAL
조형
##펑
군함
베이더
총열
빅뱅
은밀
캐서
##...
뒤덮
이용해
리플렉
용맹
천공
##라노
후문
ᆫ다던가
계좌
콜드
콜롬비아
##바시
##휴일
총사령
연구실
소수자
##ART
백색
촉진
##펄
천둥
카구라
미술관
UI
소감
잔디
##use
평민
벵
바우
라자
고속버스
몬테
sc
케로
정크
6000
##앵
런닝
##수스
미코토
못지않
자신감
여더
조제
##터스
Mon
장신
예명
스플리
혹사
노려보
##베이스
기밀
웨어
HG
워낙에
제다이
김두한
##칼리
영장
##ring
##쩌
성형
안면
슬ᄅ
민원
앙리
중견수
판권
##XT
페이트
##로니
man
차남
비즈니스
~~
##LS
매칭
이야말로
레이나
Af
조류
역과
오인
이동하
퓨어
레몬
권고
장기간
비요
카가미
힘쓰
우와
Power
막아
태블릿
학계
다툼
대문
함포
샴
사출
##여지
##ina
##대교
튜닝
Res
애드
철회
정렬
매개
스님
샤프
##관총
체리
집결
임관
우체국
내야수
아폴로
뽕
정거
소절
형편없
망령
380
퀄컴
매진
발전기
기합
At
호전
도피
섀도
리전
무효화
##소문
건전
OPS
패미
베인
}}}
바주
##ᅡᆼ스
피스트
혈액형
지자
퇴사
경쟁력
여덟
노엘
256
키무라
입술
추첨
나고야
직구
똘
SCP
NG
욕구
캐서린
유서
전전
이성계
조달
제라
Fem
강성
금성
국사
##범죄
당첨
저리
자취
베니
때때로
동갑
카지노
##하하
공휴일
동참
속공
##포스
##스ᄅ
농협
섬세
볼리
아카이
존속
볼륨
##맥스
맏
페가
타치바나
##ᅢ신
총탄
김영삼
어쌔신
자카
립스
코시
증후
##ittle
무빙
타국
영미
쑥
적발
sm
경량
##베리아
##아르
초고
유포
김택
Fi
서사
MR
옵티
오징어
직역
제르
무소
색채
성역
아르메니아
MX
##심장
악용
채소
명대사
페더
궤적
가호
방어선
집중력
여사
내구력
공성전
부추
건재
화가
허공
가급적
여진
코이
대인배
Sing
카노
조력자
조그마
낙인
거제
본국
##부시
##베르크
1910
FL
##숨에
단숨에
노기
마에다
아부
장병
저널
##ERO
츠나
SG
카즈마
##싹
##de
##긴
광탈
##be
넥슨
피드백
gr
궁지
##페르
횡단
고안
러시아어
젊은이
허구
##흘
부식
갈래
##ello
이우
베토
괴리
공방전
재고
##트릭스
정거장
사육
타나
MT
가명
태세
##reen
SV
쿠루
##ual
피라미
김정은
억지
피처
창의
비니
승천
IG
적진
생산력
족장
견인
세조
##대부
예장
근성
로사
무전
증세
튀기
##라비아
막바지
기미
복싱
서진
절규
##ᅳ레이트
정명
##코어
줄거리
돌격소총
뒤이
통용
군사력
소용돌이
하임
노이즈
휴전
주재
MLB
##바퀴
동인지
데우스
Pv
모방
포지
꺾이
디펜스
후후
Rem
라지만
돌아서
맥도
건축물
서킷
표방
에우
##프레스
윈스
카오리
Ep
가뜩
친선
추적자
역병
##ational
원격
999
연예계
대파
타시
군기
##ᆫ근
돌려보내
어인
수군
##riend
##af
발상
아이작
히토미
##ars
카바
파이브
##bs
신주쿠
리트
두부
설계도
결장
출몰
루카스
Vo
소진
깊숙
카에
둘러보
##IE
가뜩이나
초당
슈퍼스타
므
정은
홍준표
##해군
양파
모호
스타팅
이선
발악
급기야
숏
##ivers
주방
##퇴근
수비진
증후군
노드
테이크
네모
폭포
트렌
자유자재
길들이
인벤토리
조폭
이화
VOCALOID
##ᅳᆯ랜
양현
IDOL
그려지
리쿠
악랄
꽝
초선
오로라
판서
럼블
포트리스
##르르
박격
고양시
Leg
King
수원시
상임
블래스트
##에이터
중전차
애교
고원
연호
김희
풋볼
베가
부럽
##회의
미야자키
##돌프
마이어
병단
실황
깽판
HT
핵무기
YOU
BF
강변
자유주의
벽돌
just
시스터
히노
이치고
무림
아몬
##쏠
제시카
태그팀
엄지
에이전트
상회
##외선
물들
표출
세나
징징
쏠쏠
분경
응원가
코타로
추기경
콘테
억압
##SS
일자리
School
##MC
지령
신시
왠만
운운
Miss
선도
##클레스
김창
마테
CEO
키사
랜턴
1935
팔찌
##atic
간행
##질기
밉
인맥
UFC
진가
Rec
레니
삼거리
GR
대제
끈질기
##일본
바루
유토
what
사사키
배분
수고
옥타
츠루
고베
재사
경유지
???
##니클
##카즈
스티커
##토미
극소수
뒷받침
밀접
1918
치명상
##ern
소피
##첸
티베트
마르크스
다단
자바
벅스
포고
##itch
코스타
조지아
당분
알고리
이노우에
##ts
장타율
빨강
베드
STER
별자리
1934
운동가
반갑
레스터
본디
Che
허리케인
쿠파
131
창병
##브레
아이언맨
되살아나
하르
스타크
ADV
파파
'''
기마
일보
국력
손아
임상
이과
아의
##연합
##사전
여고생
플래닛
어드밴스
평면
게임기
천도
##셔츠
고폭탄
아다
End
퍼시픽
프론트
유하
방금
자주포
천적
##날드
시중
로만
VR
##rain
Ge
Di
피겨
쿠시
##큘라
이가
위나라
함경
도리어
인내
독성
어우
Air
쇼군
뵈
##tr
단골
포레
마이너스
데카
편대
세간
디에
##ᆺ이
불러들이
##서야
과부
남구
##투르
방황
미스트
##루살
군산
사하
새로이
대명사
무성
입성
메라
고어
##루살렘
넓이
노조미
도도
명령어
성문
알고리즘
헬스
##oot
Mod
한심
줄곧
마사키
올라서
##노미야
글러브
사부
군벌
if
전편
정유
여도
종일
마이트
야쿠자
그리스어
단조
교주
인프라
걸작
멀쩡히
뒤집히
자민
표명
예술가
실험실
안나
정인
##재판
무언
흡연
교란
##어먹
##의사
초사
드라큘라
서드
취직
위즈
포털
##ren
마커
피리
굴복
피코
에일리언
뇨
박주
착수
남용
관악
시립
경신
송도
솔로몬
col
담당자
킹스
요건
광신
욕하
##같이
체질
금전
작별
단절
타케시
샤크
덫
첨가
##UE
메스
악장
카로
상반기
EMP
아이리스
##크라이나
우크라이나
지망
##려드
카스미
##55
##쿠로
예비군
부풀
집정
##콰
예루살렘
해운대
여의도
저격총
PVP
천계
디디
왕궁
시드니
##긍
관제
이치로
학번
##UR
옵티머스
원호
휴일
##데아
제후
성추
초원
로딩
추이
토오루
광석
미성년자
만류
##rist
night
주범
비늘
매사
진흙
손녀
타노스
도미니
##ony
##ma
청색
카린
Sound
토착
사쿠라이
POP
느냐는
Hy
지기
염소
키워드
회복력
화요일
총대
##중국
##드래
양도
제식
뛰쳐
배지
##사우
문과
정중
연희
광저우
하세
불멸
메꾸
컨테이너
백합
해커
무작정
부치
##세데스
김전
메르세데스
##iew
쿠노
요동
고독
괴담
아역
프런트
거주지
DO
유소년
출퇴근
상수
리노
군중
블라디미르
진작
연구자
팔라딘
작아지
don
한모
##ope
벼슬
행태
좌익수
유교
##데기
양면
##시계
조운
##ᅳᆯ래시
MASTER
빼돌리
노숙
대칭
오너
현명
요르
아산
노이
성채
애ᄐ
모터스
바주카
잉크
##수엘라
법무부
인테르
발트
신디
민족주의
시한
MD
눈ᄊ
고려대
EM
ㅋㅋ
나날
유수
직관
징병
##ana
유목
손바닥
미끄러지
반다이
커리
아야카
게리온
후유증
빌헬
툼
먹방
##atale
##리히
기와
##어찌
드라군
##즈루
선비
카트리
골리
애틀랜
과실
카무이
제멋
교육부
조장
데이비스
##던트
스코프
프레데
##메인
하야토
굳어지
##교육
퍼스
Femme
##oon
베토벤
청량
로망
사업자
샬
콜로니
효력
그닥
기한
SO
Cat
사에
시그마
칼럼
way
황족
##패스
액셀
명작
이마트
##ox
농어
BAS
이안
의거
빈사
어찌어찌
레이터
무어
##ield
대용
재팬
언행
마도사
라지
브라더
금기
들려오
일부분
득점자
경인
피어
박준
사우디아
##천동
얼핏
bl
내려지
##클랜드
학업
텔레콤
섭외
가치관
##22
애당초
티코
애프
베르크
파고들
##덩
다나카
베네수엘라
역설
##먹이
EA
미토
##노이
1100
수산
매복
##안군
우시
소심
펄스
쟁탈
##무장
1932
##야샤
타협
설레
극찬
스위트
이누야샤
WE
생사
흑백
경장
알코
각색
한몫
보태
성주
즐거
##의정
활주
친밀
##olog
알프레
트림
1931
그놈
피라미드
광학
1933
XP
수준급
민국
링컨
해인
초토
선체
아루
택배
미지수
대잠
보답
총통
폴더
겉보기
친위대
이윽
사바
이윽고
증원
껄
재혼
##언정
확연히
##튠
로드리
패기
되돌아가
양념
창원시
일쑤
클리ᄇ
브릿지
조율
중앙선
광주광역시
강적
##변속기
스루
##무스
##Fatale
전리품
조선일보
##맨더
FemmeFatale
대두
With
반말
든가
병살타
Hard
자연스레
Run
다던가
스테이트
사위
빅터
효과음
위화
카도
외출
안토니오
다정
마모루
건의
시력
미타
바하
##퀄
피곤
참패
##돼지
XXX
자잘
쾌속
지중해
다인
김전일
부회장
마징가
추석
두께
임용
복종
CT
가든
칭송
##제이
##AA
연비
인테
후타
탈옥
번영
##쿠버
낯설
엇갈리
수작
무찌
성폭행
미디
340
토머스
부화
클리블랜드
Not
정장
겨누
중령
커브
전념
폭발물
진공
탤
봉황
이스터
App
카가
직감
신이치
셜록
가솔린
안테
승기
넵
손흥
##elf
Rev
슈타인
가산
여건
##암동
입맛
추대
니콜
##ouse
도전자
RS
설득력
말장난
프랑켄
소이
살라
1928
##선거
제정신
214
캡콤
##사의
기병대
CCTV
식신
스폰지
동봉
송구
흑화
압살
아그
RG
충주
환원
무찌르
도널드
호대
토탈
성공회
셀프
제이스
##웬
dis
##라이어
씁
부츠
명인
채무
##저트
술법
예리
키퍼
악세
난전
Da
바늘
치중
꼭두
미셸
환각
체조
게재
손흥민
사용법
무의
든든
쓸모없
들이대
박격포
외무
듀엣
아지트
서문
##ᆨ션
송이
쇼핑몰
##75
VIP
가출
뾰족
##텁
##무니
장래
시동
조세
쓸데없
이ᄆ
의병
페로
접시
안도
서식지
순진
##레이드
##그러지
육식
충성심
키리토
마포
경위
##투수
SHOW
피신
좀처럼
미라클
유감
##거진
쇼코
재사용
종자
재해
바이스
카세
협곡
반칙
스왑
분사
고장나
마작
삼각형
메테오
##아아
서면
광양
도호쿠
##니치
안치
완전체
공채
위생
선발투수
##마사
아종
변종
아즈사
##득점
상권
선진국
진과
릉
걸어오
사우디아라비아
UM
시궁
계보
육박
Elect
하코
임창
아치
관습
마음껏
꾀하
사각
서북
기만
물려주
윈스턴
시구
허세
RAW
어처
북유럽
온화
##츠루
바흐
트린
시위대
리포트
초식
##방향
빌미
혼종
불가사의
폭사
co
##ORE
미츠루
Ke
141
She
학창
웨이트
310
##컨대
대강
동국
##슬로
뒤틀리
만회
사마의
순조
호노카
체가
8000
제비
모라
잠복
스플래시
##투표
결별
격돌
프레디
작살
액세서리
##we
저번
##ecial
##쿤
가가
과다
최전
석궁
버지
홈구장
백미
도르트
동물원
에리카
연주자
현행
제구
향수
입학식
늘어지
구자
철학자
사과문
패트릭
벡
대여
Get
낙원
입당
김혜
협의회
사다리
존댓말
앞쪽
발산
렴
만두
퍼뜨리
수법
정적
뮬
##조각
탄종
풀백
오미
단테
대관
##요환
홍대
틀어지
가물
본문
##asy
제이크
기요
호스트
##ane
하이드
포르노
라거나
##66
수렴
승부차기
콜라보레이션
불사조
레고
앨리
넘쳐
샌디
##ᆺ거리
평정
##its
DT
Ang
스크래치
애플리케이션
world
상정
##미아
블레이즈
사설
치아
##28
비석
임요환
수레
와우
정제
어처구니
비정
오리콘
시엘
##치오
콧
무자비
1924
정류소
##미사
열풍
까먹
타라
김인
유죄
왼팔
##히사
최면
white
크로니클
당당히
듀티
엑소
480
스튜어트
대담
김세
속삭
송병
설사
학파
식별
소인
베라
##짜기
기각
##먼드
순교자
차세대
강당
볼텍스
거물
분수
##EX
양동
재선
느냐고
촉구
제이드
안장
##ze
밸리
손수
SW
영분
알루미
앞장
침체
007
##용차
원동
가까스로
밀라노
박병
수배
더스트
0000
Cy
다이브
한조
대전광역시
탐욕
추산
시애
부합
아픔
부추기
하드코어
틀림
영락
헤딩
네메
정시
ᆫ다면서
되돌아오
선공
##원수
열받
##크로스
대변인
니키
스칼렛
##무진
##포로
우익수
콘스탄티노
su
##ness
망원경
난동
베른
720
주주
사이퍼
가네
기총
착공
플랫폼
어비스
전태
에덴
타지
Song
##지대
목성
프리즈
흘러나오
Big
다이어트
거스
애리
Comm
시저
호조
휩쓸
나지
발렌시아
국무총리
##24
자위대
비약
편제
합방
Back
선명
##인간
처단
클로즈
동포
##appy
주작
데이빗
도르트문트
420
폿
팔꿈치
강남구
정무
Arm
류현진
##매매
마더
##도니아
선교사
##즈마
시애틀
의미심장
디트로
디트로이트
서점
교구
광화
검찰청
빌헬름
유한
레트
커먼
승계
품종
황자
화수
삽화
##스란
매트
방대
망자
익스프레스
##ny
유쾌
김미
출입구
화장품
이산
격노
동대문
코이치
##제리
대한항공
오버로드
매거진
조선인
자라나
항로
목표물
##ke
교감
##벨트
##평가
리젠
랫
히로유키
특권
창출
Order
유명세
##제품
괴로
늘어놓
두텁
##RAM
##부리
##마이
##sc
신민
##슬라비아
유고슬라비아
##바ᄁ
적정
##부대
1929
떠들
으라는
대각선
##모자
바바
룽
1911
##픈
부두
##틱스
빡빡
마고
민병대
카야
포화
역기
로마자
와이드
후일담
알루미늄
대장군
Skill
리액션
게ᄋ
기라
젤다
스케치
미련
나우
단신
센트
전복
##쓸리
꼭대기
서재
정현
송파
휩쓸리
방랑
야하
##네트
커네
인디언
con
주군
>,
##35
이따
김준호
대머리
법령
국수
KS
플러그
에니
배척
유추
선천
벌칙
집정관
독재자
서커스
농부
##chor
스탠다드
웨일스
주성
매입
씁쓸
TB
나주
##평군
케네
프리스트
리조트
태연
사이오
##그램
퇴근
안드로메다
산지
첩보
아벨
허영
클락
차출
인즈
UR
발효
겸임
1925
시즈카
아론
문의
열전
가제
지아
Every
페인트
사토시
자택
브뤼
과반
행선
캬
##느니
좀비
##let
토네이
토네이도
세균
버금
노후
새해
수분
일직
토의
졸개
무협
정규군
김정일
연기자
즘
##실히
당분간
오재
보유자
PSP
cl
듬
다라
##발리
투르
서경
윤종
크루세이
##카스
분교
##각시
##드릭
국정원
조회
디테일
입상
병영
장단
난폭
##UC
모티
경이
내년
태고
##AG
양아치
##예프
운전자
##니트
짤방
영화판
석화
리히
That
구이
##파니
비행선
##빠르
사상자
나나미
위조
알코올
어휘
가즈
속옷
총사령관
상대편
마늘
수반
왕녀
난해
1917
성추행
커터
##자카
성취
느긋
qu
208
화랑
해협
빡세
이에야스
활주로
간식
내려놓
##눅스
동거
가차
단거리
##양군
지독
전염병
생리
치타
##패드
추월
##작전
##타자
합산
조비
노랑
##페스트
심포
헌데
공병
괴도
상경
갈고리
펜스
선발전
프랭클린
##폴리스
te
지체
온전히
라운
춘추
자석
마장
TCG
인민군
신종
##비우스
시노부
비숍
샤아
복권
홍수
자부심
단말기
개화
박세
숙종
거슬리
212
켄타
마는
서부터
츠카사
리눅스
공직
출세
역전승
해저
마그마
원산
비욘
##정역
카트라이
##애미
세이부
##나가와
관광지
유행어
##bps
Des
스트라
올라타
마이애미
이어인
동남아시아
대적
교재
제멋대로
Har
##운전
위임
##바위
##ert
갑판
교원
비밀리
콩고
초급
잔당
토요타
##ious
##정동
불운
낭만
나츠미
##끝
FX
등산
영기
171
##ient
라이터
NL
Top
앞마당
끊이
왕따
##옌
게이밍
타쿠미
구세
항쟁
235
튜너
자아내
##괘
모건
요일
##단체
올리버
침식
체이스
##net
판본
연방군
채굴
크롤
능동
##모사
스펙터
GL
아델
파열
자의
영창
개종
850
유체
Tri
누마
##위치
심부
법조
의리
##비히
EXH
##유산
크리스토퍼
중얼거리
야채
##노기
##ret
사절
255
이제동
1927
조슈
FR
이관
조인
농도
##ideo
눌
후작
NS
..'
패거리
악보
리오스
오드
어중간
일선
직계
키메라
푸드
쏠리
마츠모토
관대
근래
가변
플레이트
##튀기
들려주
장녀
레이크
일찍이
비대
백악
법정동
클라이언트
##넓
##ᆫ곡
구치
래스
##pl
뻥튀기
주임
RF
한가
해밀
줄리아
알아듣
##호도
##olution
떨어트리
##둘기
신한은행
Amer
골대
헌병
는군
공전
중산
와일드카드
미완
내심
최진
매트릭스
어로
쉘
어지간히
햇빛
왕건
##토록
Em
초동
용품
206
스플릿
##주곡
투기
트리오
연평
특출
유니버
이의
상고
이승엽
애틀랜타
와이어
부메
인스
나탈
자며
안중
PO
텐션
##ᆼ크
유세
DEF
드레이크
##IST
모기
##겨지
LCD
작렬
##자스
off
##스트ᄅ
삿포로
럽
##나들
##co
경호원
##버릇
소량
리브
##ERS
서스
각본가
버디
오아
정직
가메
##비언
바트
리바이
사역
면은
커트
성남시
알파벳
중공업
구애
이지스
우로
벨벳
켄이치
333
거듭나
게르만
장학금
쭈
주스
유민
Act
프라이즈
기통
사비
##니지
요지
진해
UFO
부메랑
요크
원제
##ᆷ비
가쿠
정경
후려
드리프트
##인드
치부
데뷔작
209
무로
두드리
카터
메아리
버니
청주시
##ful
##밟
엘런
##mania
ve
판도라
에프
절묘
데이브
부딪치
290
Pe
##라이터
지바
kn
기겁
LS
케르
우메
메소
줄줄이
꼭두각시
##르바
남원
이신
피크
##츠라
작물
무난히
튜브
KG
##노프
코지마
저렇
여리
리투아
햄버
토템
암석
리투아니아
동선
##피어
정종
소아
소음기
##ner
##ham
##고쿠
뇌격
TD
형법
##사우루스
특공대
토와
##틀링
주름
푸른
인기투표
Bar
Fre
215
받침
진전
고모
선풍
##어들이
친근
오바마
파드
가창력
트레이서
데프
##힘
성녀
외야
단단히
##캐슬
세단
치밀
Ext
##로프
소중히
##조선
비틀즈
루즈
런닝맨
AMD
시정
이민자
##슘
시궁창
가로지르
자드
God
자연수
데일리
Str
1926
생계
통역
데스크
희미
송곳
나루호도
되려
레미
다이묘
항우
뉴캐슬
브로드
독립운동가
##숭
##ning
동산
GDP
괴멸
탈리
나가사키
브라우저
때우
Hot
팩토리
Bea
재상
가중
Ab
경관
밀러
##ERT
STAR
##캐스트
오마주
규명
RAM
anchor
덩크
위화감
우투
어린애
마드
음양
##ump
아우구
샤이닝
가세
##서리
클라우
나츠키
Char
노사
항소
전폭
성종
##렉트
자정
보전
고스란
고스란히
김제
러블리
버금가
'-
케네디
다구
ᆯ지도
##ward
레비
심심찮
마카오
Met
Rain
심슨
시발
##day
정진
점포
Sil
소셜
초중
every
주시
대의
서남
중소기업
마천
공시
최성
헛소리
ᆯ게요
알맞
##ATION
위인
인장
갭
데이즈
FN
##여행
금하
경상도
무심
아이리
랄까
탄수
제레
평지
오일
최적화
동유럽
간장
산호
시르
투여
**
뮤즈
만화가
해결책
수리검
영재
체류
want
이시다
성령
로페
##상스
이목
재화
FE
이분
White
##88
비하인드
Inf
옥스
헤라클레스
로버
##곡리
랜디
찬사
최우선
신촌
1400
단다
헌납
yout
세무
팔레스타인
채권
##트럼
셔츠
경의
심플
미얀
인피니트
##트림
##하늘
기판
대리인
수주
ᄇ시다
문호
##매니아
카자흐
제각
발도
십상
##내기
바사
수료
유우야
이송
본ᄀ
계승자
사생활
젯
코나미
KD
포이
로니
명품
북두
루드
충동
성동
바람직
선하
군단장
수영장
안테나
조승
세토
현수
역관
앤더슨
퀑
김태균
down
최재
긴장감
more
탬
멸자
과잉
황무지
오덕
May
빈스
불분
버지니아
길목
애리조
##대표
건너편
##리안
정연
207
마케도니아
그물
키바
감속
스트레이트
이치카
Pop
잔여
한인
찾아다니
IDOLM
다이렉트
주부
도보
개틀링
권역
##살이
오퍼레이터
발령
로로
##푸스
##ᆯ트
여행자
근로자
Master
청문
주권
장막
저스틴
내무
##소통
흑룡
배럴
터무니
대한제국
##대군
의류
휘둘
##켜
의사소통
하렘
##son
지자체
코로
한결
창세기
하데스
편집자
분과
영국인
며느리
##드래곤
투항
##뮤직
##au
부녀
서울역
유부
##ANC
체로
PA
외교관
자음
우사
##oud
과하
농어촌
냐면서
병맛
박기
머들
볼프
심리전
##트르
##ves
아르테
익명
사단장
##지리아
단연
감도
나이지리아
포유
##피탈
몸체
앞장서
Game
시크
대입
초연
숙명
나기사
##밖
공석
불분명
##엠
이범
이라든가
무언가
지갑
대도
##실록
노동조합
멧돼지
무법
사시
여객철도
OR
사병
##밑
촛불
플라워
전과
로자
스펙트럼
나시
는데도
충실히
수년
##뚤
수뇌
안식
분전
161
경희대
미분
##마츠
they
끝판
감시자
##지물
1922
사카모토
##ift
경시
티탄
송라이터
행동력
몰아치
뛰어다니
여대
체급
란트
보단
만화책
재빠르
##블랑
리비아
엠파이어
##ship
즉석
전용기
명확히
서유럽
호타
스패
##ape
애프터
COM
동독
너구리
쿠미
라데
유시
제품군
##부짖
성검
울부짖
중심부
Are
한중
카에데
신령
##감치
랄프
GAM
기공
그토록
##원군
##갱
오반
공적
##찌감치
피고인
조로
치세
체르
미하일
##떼
들통
경합
리언
1923
##ᅪᆫ
열렬
슬레이
지출
체내
세츠나
TN
행각
WAR
기생충
국물
절약
역전패
간편
터리
1921
고갈
자재
구만
##현동
TG
외래어
스노
김택용
##lock
좌석버스
아란
레베
##ᆺ빛
불가피
카트라이더
크러
차마
반자동
##그로
메커
산출
##꿀
요양
몸집
트레인
Bu
맞춤
민지
가야
무네
Bra
##또
ᆫ대
나데
520
후하
only
시세
로미
언론사
마오쩌
마오쩌둥
##ien
뿜어내
마우
##도사
멱
시프트
익스트림
천문학
Yeah
부설
명하
버즈
경전철
마비노기
애덤
DA
아만
체하
의약
단번에
ㅏ요
##less
필기
준장
쿼드
오스카
이장
비둘기
##ize
##교도
특색
news
학부모
소망
짓밟
크림슨
##산면
말라
폐하
도타
순순
##뿌리
##zy
음식점
루시퍼
Cont
##LD
마취
완패
절감
##니케이션
메이크
이트
솔리드
피니시
리시
헤더
성급
피버
커뮤니케이션
오스틴
pl
티나
터미네이터
걸스
신공
하얀색
등용
제네시스
##EE
프란츠
##형제
캐로
탤런트
밴시
예하
산산
Hea
창간
서약
케어
트레버
##돔
##플러
기린
욘
제명
치소
인분
##45
월터
르네상스
임페
항속
장대
활기
##led
##고루
유스케
##omb
일갈
섹터
강령
전투원
자치구
아세
당근
포괄
극동
궁정
##준호
비범
붙여지
콘테스트
일생
영화관
남아공
다마
구스타
설문
무패
급여
붉은색
종로구
운임
##똥
간첩
##도스
구비
치키
급제
##렁이
위태
독설
포진
독도
단간
##기어
댈러스
출생지
재차
##ited
Project
교직원
##HD
##법인
그지
락스
팀킬
헤지
온게임
온게임넷
##마드
와타루
7000
세련
리포
배고
##람쥐
민속
##문화재
노마
은가
복부
Joh
회자
##조작
다이스
##ALL
Off
자위
온전
Battle
불허
##마트
이상민
TEC
응징
생포
힘겹
붕대
1912
읊
척하
TF
노스케
불안감
플라잉
정선
선상
이유로
멀린
스릴러
다트
우동
메츠
계약자
순순히
팰
백지
##ita
승부조작
유다
빼놓
다이빙
눈부시
발자
회유
이어폰
##준혁
JC
##소타
성유
선별
Open
##ORM
톡톡
##ton
원상
반죽
태후
DDR
~'
정국
협공
조나
성품
빵빵
##29
이로
노브
순차
천연가스
wiz
칸나
Sky
돌풍
지못
지못미
패미컴
##낮
우이
Moon
나뭇잎
조니
전투복
브리핑
##장구
휘둘리
헤일
번거
......
조부
##웹
221
##ENT
날아오르
BASIC
이석
연장전
노원
기염
알비
관건
미네소타
소주
##선스
일직선
777
얀데레
##메르
스몰
맞대결
good
##23
스켈
카르타
힌두
저력
타츠야
라리
전라도
하늘색
##row
##27
레코
1300
아쉬워하
##촬
야자
섭정
꼼짝
##슬란드
외침
짤막
매도
급진
##개골
아틀
네타
##푼
차크라
카즈키
감염자
Like
다듬
##com
##위원
남짓
내려찍
아이슬란드
체구
머스
무모
성원
마코
라이선스
청취
초회
수족
WCS
##ling
벌어들이
라든지
소탕
희박
경비원
김현수
Special
##즐리
엠블ᄅ
화속
2022
조개
오모
음란
순항
흉터
여느
성가시
갱단
마자
졸지
##의지
beatmania
니즘
방어전
개드립
##타기
네메시스
Bad
류지
눈썹
탈탈
##클라
도메인
노프
샌드박스
아틀라스
재주
비서관
강호동
##교회
짊
톱니
누락
검거
관현
이나즈마
막말
둔화
낙하산
중사
음모론
루리웹
경영학
디에고
하천
TT
티셔츠
탈주
일정량
산체스
업자
악인
이북
릭스
통학
데이터베이스
Soul
합금
바이올렛
##일관
파병
치과
백수
쪽지
다이크
넵튠
밝혀
추위
부상자
팽창
졸리
Med
코팅
뭣
사납
파나
세이지
는구나
##rop
멕
미달
모치
주립
급상
ᆫ다든가
탈것
프라이드
성범죄
특촬
착취
원로원
사죄
##브러리
타가
벤츠
브래드
사오
213
드래곤즈
##방식
##더리
##미리
임프
거창
반대쪽
##어내리
이천
##ᆫ강
이시카와
크레이지
막아서
지폐
마호
호라이
진행하
##UB
칠흑
연화
박태
서스펜
형벌
end
Po
##vent
마사무네
앵글
티타
Hey
over
정관
피쳐
눕히
환불
생방송
대지진
FBI
##산리
픽처
이메일
##line
일간
##ute
Now
WOR
무당
일파
조현
반납
자기장
Dragon
성희
Bur
여하
223
찜
##play
유노
빽
죄인
명백히
our
사카이
##xt
파기
폴라
철벽
275
바래
밀양
스피리
밸브
가주
해프
드미
히코
햄버거
전갈
어우러지
메커니즘
이도
벨리
스탠딩
바실리
부통령
##드류
baby
관용
막스
자자
파괴자
정부군
##가요
래쉬
##stem
001
밝혀내
니즈
#,
울버
이바
신봉
##oney
세속
옥수수
Eng
에테르
미유
양지
장동민
넘쳐나
거머
매점
순례
이끌리
버퍼
치히로
대장장이
##관계
미카엘
베풀
fl
성운
반달
왕립
급습
##맵
햐
원나라
##뜸
1907
##방사기
헬로
화염방사기
하시모토
##96
만장
연성
민심
팬클럽
스탠스
수차례
폭군
자선
일찌감치
구루
본드
액트
ac
신탁
쌔
영령
손책
깁
에로게
비행장
개관
아카기
Way
레닌
##소니
쩌
코브라
일개
올리브
##아내리
제너럴
민사
세비
급증
강서구
인승
결선
##규어
##두근
종속
슬쩍
노보
Alb
##FFF
조원
##IGHT
골리앗
결단
외환
패권
수당
##미츠
타오르
원어
일컬
##eng
설립자
써니
해프닝
수납
엠마
##닥치
see
라이브러리
마리사
볼일
겸비
1905
관전
황소
암기
펠트
미처
케니
카논
연대기
행군
테슬라
##벅지
새신
포자
디비
설교
마레
##lt
문성
승하
럭스
껴
수퍼
번번
참모총장
##파르
제국주의
구스
티모
갈아입
DAY
튀김
러시아군
아득
골짜기
빈센트
뒤쳐지
태백
슬라이딩
##나우
Int
송신
365
고하
Cent
오주
조문
방관
린다
max
레그
악질
속사
##ᆯ린더
미나토
Comp
현무
증진
향년
초전
전령
일괄
쓸쓸
희생양
Match
모리스
부기
트리스
앤드류
타케루
##툭튀
##시즘
##라트
선글라스
본거
##홍철
박민
골고루
##영향
수송선
모로코
코일
료마
클로버
Ass
##ᆺ소리
거행
극성
샤르
갑툭튀
216
대구광역시
최형
두개골
백두
##26
지탱
보급품
바깥쪽
##짖
제드
변모
블루투스
반주
총구
명장면
검출
구라
탄두
"'
사생
미용
하남
거니와
물음
아이오
Yes
불거지
초필
충무
욕먹
템플러
##드루
자결
명실
데니스
밴쿠버
본거지
##건설
##스탕스
370
레지스탕스
좆
왕성
언락
아데
다량
동아일보
마공
막론
내리치
리더십
say
시베리아
블랑
NAS
최하위
여명
행세
Fla
증강
사업가
레프트
right
알제리
이남
자판기
복식
스투
메두사
재규어
변함
이문
매지컬
격납
암흑기
재발
사주
서유
푸른색
수속
라일
미공
덕택
정대
##독부
정주
토토
만년
코칭
kr
매매
양육
##열차
크루세이더
홰
소란
경전차
ᆫ다든지
해발
마르티
텐더
세레나
한복
##ude
교제
##혀가
포상
메르시
##맹이
전위
CIA
##원지
잡혀가
##천리
장기전
Ook
##내셔널
부르크
인터내셔널
라파엘
사파이어
##디우스
샬로
좌완
거머쥐
광동
하버드
미코
PvP
포레스트
이달
한미
##ata
잠식
레오나
##ᆺ밤
베이커
SUP
에어컨
에노
해지
아츠시
사서
토사
왕세
구실
드래그
##큐버스
케로로
리벤
오카다
##뜯
수혜
슬러
시오리
아날
사력
공안
폐위
시연
사드
선역
Last
엘라
잘생기
몽땅
XY
쌩
에러
호우
총애
상승세
시종일관
우즈베
짊어지
거미줄
덤벼
동맹군
IF
보호자
날라
척추
##부르
밀가루
이터널
##게이
화판
개찰
장담
TWICE
무안타
란다
결투장
현질
누님
부전
처방
어지럽
##ius
북서쪽
쟁탈전
거유
명왕
래리
크로노스
헤븐
카메오
소름
쿠퍼
화질
명은
자멸
급상승
아랍어
플레인
##고스
야구단
도입부
440
가신
공중전
막시
미약
나카노
##III
##red
부적절
수뇌부
배반
유족
인제
마운틴
##나시
적기
굉
난장
카멜
자치령
하반신
멜리
네로
기어이
간직
의존도
추상
##오피아
순삭
에티오피아
아디
팰리스
이강
불발
Core
쌈
BRV
부러
##ets
젓
퇴임
자백
크리에이터
정보원
지도부
콜리
##공주
잽
한국군
Mir
Show
##76
##ated
시라이
정윤
보이드
there
납품
스맥
좌상
발병
##매치
##ara
두각
왕정
철퇴
관세
츠바키
감찰
본뜨
석가
배급사
최장
돌기
필승
원반
예매
국내외
스맥다운
오피스
쌍용
비잔
혼나
Nor
데스매치
1908
편도
개리
리비
조선소
원성
##cl
프론티
백룡
센트리
엎드리
사이먼
깜빡
피칭
신약
아이젠
##가타
장려
베레
his
아리사
HOT
정몽
##부수
프론티어
무서
우대
크리드
##데라
례
박차
소모품
##브ᄅ
파비
떨리
MI
수전
동하
저축
횡령
승낙
또래
로맨
보름
시어터
##늠
악수
얌전
바이퍼
퇴마
##44
보좌관
대북
##페어
견고
묵직
테츠야
판과
적도
호화
특출나
pe
##천역
아레스
가넷
오보
micro
신격
자가
필적
퍼트
잔재
##지리
바운드
슬로건
성단
##일기
솔루션
물류
엘소드
모탈
위아
##ely
##클론
수박
연못
반려
tw
승승
원자로
통근
몰입
##ᆫ권
노태우
##산군
무방비
Mark
문인
투석
쿠도
이를
시녀
컨퍼런스
저항군
신빙
전문학교
오산
비운
##테면
변속기
미얀마
노획
소나무
커맨더
얼룩
If
##이즈미
이를테면
##UST
제복
충공
##거스
슬래시
근위
컬링
비열
다크니스
에어리어
각별
Art
뜬공
지명타자
Best
First
##임수
##영수
이니셜
혈관
팝픈
팝픈뮤직
쿠폰
RPM
수제
허술
##시장
##디난
난쟁이
스케이트
이탈리아어
Sur
블리츠
서태지
got
남산
##KO
오클랜드
##무르
김소
뛰어내리
터프
악영향
삼국사기
호르몬
ᆫ답
How
가늠
맨날
그제서야
바드
첨부
액수
재미없
크리스티안
who
##트루
시미즈
츠치
틈새
잠자
##OCK
용왕
id
##카지
부피
허벅지
##꼼
식인
여운
인플레
큰일
부토
칼리지
들여오
-.
직면
베아
통찰
금서
Sl
어선
고뇌
베끼
열광
Christ
언론인
##85
Ap
##멈
카프
히이
적시
근방
219
##INE
이대호
위안부
이형
피그
감마
분출
##니르
간절
연합국
후리
파주
##ᆯ리온
이규
압둘
빈곤
가르시아
중론
페달
훈련소
구미호
##ga
아스타
발해
푸쉬
알몸
프리드
후카
웨딩
자유당
##udio
해밀턴
어쩌다
틀어막
낱
##ERF
문관
무리수
평의회
머릿속
토코
한족
시리우스
비타민
린치
Down
소폭
다이어
복각
난징
급속도
RED
중화기
FFFFFF
임페리얼
저음
폰트
남친
후려치
곧장
책봉
Never
NA
##푸르트
동급생
추론
##ric
유창
민트
Sam
키치
투르크
950
벼락
전황
##지기
오자
섣
Tour
약수
겉모습
마키나
말살
파탄
끊어지
feel
화전
군세
송병구
백과
밤중
##짚
뛰어오르
##work
Free
NAT
어웨이
티거
활약상
##통일
이조
하이브
540
클럭
아유미
##ther
시커
나오키
금곡
골수
##ley
덩달
닛산
퍼니
주루
마토
내쫓
소홀
용인시
고고학
매그넘
##캣
활발히
화룡
ᆫ데다가
Na
시술
단타
김호
미워하
Side
질질
전우
검도
뚱뚱
대나무
동결
장자
##세우스
##ux
##깽
롤리
재래
GX
화끈
416
GPS
미움
Magic
병신
환산
옵스
##NG
##HC
##메이션
전쟁터
##럴드
하쿠
카츠키
독단
중의원
분비
키쿠
##ᆷ핑
일기토
나리타
그분
제동
사쿠야
궤멸
사복
영수
이롭
##다듬
선후
나선
##erm
미니게임
동성애자
yeah
##hy
김신
투수진
페이퍼
엑셀
인테리어
아로
Track
##폴리
몸싸움
##황후
전패
세가
##요리
정치가
미완성
서동
판명
##사람
투표율
외장
곡사
유역
허니
탐험가
페미니스트
이반
엄폐물
트라웃
덮이
개더링
다채
패트리
형주
지석
통영
Sim
그러다가
정승
토바
##사관학교
동남아
갑주
개헌
9000
직진
창시자
상서
배틀필드
정착지
로토
픽처스
지하실
시속
KN
##총독부
조선총독부
전곡
검색어
아재
진범
페라리
케미
해설자
체크카드
KCC
라르
스커
공민
내공
경비병
엠블럼
다발
끝없이
글ᄊ
톰슨
제곱
알프레드
거액
마크로스
충원
윤성
태양계
신년
##ird
KA
공연장
랍시고
바그너
##가르드
마라톤
한눈
앉히
Pol
##러기
페드로
면도
야말로
적어지
##뭉
포식자
girl
사학
오레
스쿠
성희롱
City
보리스
프리킥
노선도
PM
##전쟁
##생물
조공
빅토리
화보
##월드
걷어
대영
오데
245
조짐
드러머
오아시스
Happy
앤드
스턴트
방망
공황
불계
대구경
성시
Party
톈
##고생
참수
##BOX
##이인
절제
축출
##삭스
밧줄
광화문
충공깽
우여
포섭
슬립
Edition
두근두근
##UL
##덱스
가무
현종
지상군
이쁘
리제
김한
잠정
##rew
족보
끌어오
플랑
쿡
김하
야마자키
Perf
메탈기어
AW
##니컬
초계
올레
험악
##21
곁들이
재결
골절
노블
능욕
평준
##소년단
비룡
야인
##슬쩍
090
짱구
캄보
라카
오도
멘토
##UK
청문회
어려
라다
카르텔
의뢰인
Cap
버겁
낙동
##플렉스
BP
YG
넷째
쥬라기
Fall
234
숙지
고아원
굴러가
di
깍
신천
이츠키
물결
샬롯
##ᆺ코
Final
실감
천왕
##ᆼ스
초딩
엑스맨
콩두
옴니
아와
코러스
약사
##aka
선율
##코스터
벤트
로어
아날로그
RT
그리폰
끌어당기
##yes
##엉
퍼플
수사관
##카지마
life
치프
EB
박병호
차우
허다
삽입곡
롤러코스터
토우마
주지
온건
애니메이터
226
싱크로
Will
##ris
##블렘
난장판
우디
풀이
249
알바니아
거라
엠블렘
주화
로스쿨
다비드
##프레이
야스오
동명이인
미식축구
##로이
아야노
송나라
규율
판단력
마사토
포구
즐거움
라티
부우
출국
이어주
로렌스
블로킹
PT
하키
세바스
부록
스트림
안톤
악평
위닝
방사선
안젤리
##분투
##젓
##레톤
망각
꾹
##오버
카툰
호각
소방서
업종
북동쪽
##쌀
넬슨
도봉
바알
사냥터
소나타
티라노
방탄소년단
만성
백병
Angel
호라이즌
생식
토카
##핍
우선시
메가트론
켈트
RX
저명
스켈레톤
소양
카자마
관현악
야구부
유승민
분양
Stage
Net
Spring
make
흡입
##게스
효용
이룩
적과
물러서
겁쟁이
숫
클라크
니퍼
김시
재보
##que
맥시
##arius
SEED
우먼
217
최원
보이즈
곧이어
함유
스테이크
짜이
오리지날
WHIP
상소
슈리
퇴직
410
카츠라
컬럼
##하임
신태
점치
배수량
김은
다그
##데오
방영일
BMW
시프
증대
어시
엘더스
제주특별
##자치도
제주특별자치도
##거래
##ONE
경순양함
카라스
##재욱
재일
인삼
##tain
동률
##곡절
흉기
사적
속주
린이
플랜트
Boy
보성
##부사
볼티
Club
생몰
예민
우여곡절
루돌프
##ision
##헤치
자행
에이미
웍스
디바이
그레이브
애시당초
하강
##럭스
##높
반도체
괄호
기교
전자기
호족
디럭스
표준어
샌드위치
ff
도래
귤
슬라이더
발사체
다다르
경부선
##글리
요가
##모델
1906
월등히
장지
228
ABC
BW
사요
소품
Come
Great
혼잡
피노
##str
RR
미상
남인
233
압승
빨아들이
옅
매료
산전
중순양함
레바논
향토
##네이션
라이토
잔존
계약서
##폴트
홉
최연
애니플러스
가맹
익산
##95
##스코
한승
Cor
경멸
파커
초라
캠핑
마석
토드
받아치
내용물
##ASS
도네
검기
억양
아돌프
루기
##ader
칼질
##ama
혈압
##하니
차오르
교무실
##OWN
궁궐
치토
옥타브
유상
고철
미도
과열
동그라
##ague
이보
기념일
발기
잡아
소대장
악단
양말
##블루
여중
독살
티르
##신기
part
수만
##레즈
캄보디아
##쑥
골격
철자
용호
중대장
미네랄
Class
미우
황폐
트렌드
##ause
타원
별거
진기
##팔로
예컨대
##IME
편애
224
흥하
IMF
평이
초구
천진
잔소리
파라오
Break
MY
스팟
Fly
포커
투영
속임수
약품
375
##ross
텐트
황색
##ival
연마
실탄
취항
역전재판
사우디
has
아르타
SKE
엘릭
im
Legend
다다
염동
발열
##보살
설진
친왕
##걸음
바티칸
피파
발포
항일
목조
자릿수
cont
서주
산림
Little
하자드
PH
##츰
구가
##해야
버크
티격
길래
경대
##바인
인원수
강대국
##ism
사이비
퍼블리
센고쿠
##83
임재
들어올리
##ᅳᆯ렌
환율
최형우
신진
aqu
기증
하인리히
##와르
허약
복수심
힘내
머독
청자
시부야
기압
신승
문경
조각상
위저드
셰리
교화
띵
젠지
자서
시우
##장치
레볼루션
##관리
양방향
광폭
##아오르
Girls
##그러
북벌
코퍼
틀림없
우등
용납
##att
##꼽
Univers
클러치
발족
코우지
##뻔
##모트
집요
만우
##테라
예비역
황해
##레인저
##IVE
코바
##날리
낙서
거든요
만악
보스니아
RB
세터
어설트
는커녕
세계수
Swe
구식
##erry
수송기
'~
ER
##불리
NFL
교황청
고참
서산
키사라기
정찰기
승용차
##슐리
회원국
fr
코요미
##대왕
공평
초음
는다며
사춘
뮐러
김구라
시급
보그
파워레인저
강정
John
EXO
조동
프랑크푸르트
은색
아누
모금
APC
윤종신
폭언
수목
심복
##트리올
치하
김규
숨결
##네즈
연합회
##르슈
##ᆯ로지
어르
빙글
대주교
전주시
##도어
스트레인
카자흐스탄
겨냥
몬트리올
never
에마
출진
301
음료수
아소
녹스
레인저스
셔먼
스틸러스
비방
벳
##교사
코미디언
모차
박원
포메이션
출연자
글래스
비야
팻
마이티
남아메리카
우왕
##uch
목장
증표
냉혹
again
초심
천자
성우진
바이트
만우절
로젠
야나기
##매김
순회
##플레이션
평야
heart
이바라
##구멍
##티티
Gl
후사
해부
허물
몰두
추축
내비치
##보스
##피온
치솟
우려먹
자객
자리매김
켓
컵스
미스테리
CGV
개전
박하
오거
호위함
위아래
광해군
열대
돗
오정
크로스오버
스테판
시메
227
하동
폭넓
##ords
PRO
조그맣
헌트
Mem
Take
호문
러스트
이면
매끄럽
악연
하로
##시온
##전함
호모
착안
올인
마사히로
도요토미
봄버
히다
레이카
##충류
램지
히브리
성소
##서니
국보
폄
사츠키
콴
사춘기
무예
헤엄
노홍철
실록
담보
##샤인
TBS
명지
쇼타
조슈아
강국
390
1913
악세사리
대기실
누비
비평가
em
헤이세이
에버튼
린드
통폐
건축가
기울어지
미공개
뺑
보류
지원군
##람회
눈보라
볶음
한판
원사
인계
모자이크
코만
낙양
라몬
512
교묘
##마니
숨지
화성시
##미트
니르
괴이
윤영
##ubl
강희
화합물
##지우
라이엇
우울증
제때
요령
매튜
슴
1909
건대
차고
오우거
북위
은신처
레티
휴지
루시안
캔자스
프렌드
##베트남
땜
동탄
##조림
##칼리버
징집
##란트
비견
지식인
파지
제천
프로토콜
ㅕ야
생생
미시마
##스타일
##트레
이여
반공
숙박
고야
sk
브리지
정설
줄무늬
서신
점성
편향
에라
대련
임정
1915
마방
스미레
이리스
교명
정치력
알라딘
하모니
중종
남동쪽
##포동
은빛
011
무함
인턴
토치
xx
##스부르크
계엄
갈비
유권자
##body
정근
다나
Cry
mA
뻔뻔
의약품
오승
오컬
큐트
저상버스
Hol
가온
도가
정민
1700
타쿠야
의결
근황
##정리
오베
각광
맹렬
북아메리카
대니얼
반입
나오미
##토모
##ital
견습
김종국
외지
유키노
흑색
뜬금없
크류
모하
철혈
제네레이션
에디터
대성공
사칭
총수
##apan
스냅드래곤
수첩
ㅏ라
뜻밖
종파
돌변
품목
##주니어
##세움
재기
##말라
쌍검
##빠지
원가
맹수
정명훈
분파
활력
식용
시티즌
시칠리아
##스기
위드
페가수스
애착
양양
ISO
##ᆷ없이
내분
뜯어
코니
##츠리
개표
##iny
시트콤
크리스티나
울산광역시
모사
EPL
껌
뜸
얍
건너오
타도
쿄스케
##넌트
나크
껄끄럽
##제프
거래소
##리즘
백스
ad
반쪽
푸시
##ura
##전대
더듬
투덜
폐업
##뉴스
OO
컴파
##시간
주선
예거
서대문
통폐합
나성
전압
비터
##상부
##ople
기권
카오
둔기
아틀란
재계
##ler
키시
##cy
걷어차
김종민
귀속
숙제
빈민
##마을
here
폐인
##REME
Ho
간과
##ᅳ러미
오컬트
Gal
##ᅥᆯ트
꼬시
DSP
도맡
오사무
어썰트
담원
뉴타입
밤새
틈타
Sn
억누르
클레멘
1904
##DDR
니콜라스
오현
##펠러
문예
이븐
올려
관람객
크레인
747
코네
꼬박
스스
Ind
OM
거침
무마
Mbps
##라이어티
ᆫ답시고
HR
~?
경복
버라이어티
##oun
표류
슬로바키아
기금
둘째치
bb
브록
정박
쾌락
펠릭스
남서쪽
군청
##ino
데미안
바닷가
전조
인기가요
##훈련
##irect
소외
손발
김장
naver
매크로
어려우
MUS
에너
\]
동자
릴레이
##78
내레이션
야요
합숙
공소
풀타임
기념관
##TH
##IO
##메이트
##팽이
시제
요르단
일면
엄연
카즈미
GTX
도넛
자물
식구
입점
확진
펩
모용
상층
231
다이노
우스개
단결
세이야
체이서
성북
테드
역도
잔치
##십자
##헤드
설리
##길이
##떠
전광판
고온
방아
떠나가
벗겨지
오라클
FO
루가
극하
트리니티
여차
노미야
증식
추격전
|[
우즈베키스탄
Real
프레데터
aquarius
사고방식
1916
##가키
일전
##벡
자물쇠
Rad
선샤인
마스터즈
##aker
bo
운하
무트
NORM
조경
상역
252
SMG
when
지효
##소연
류우
급감
뱌
튀르크
어진
환장
흰
꽃잎
당부
금세
진중
단호
가비
##후미
완주
올림
타카히로
사각형
인가
라이덴
섬뜩
염증
경비대
닛폰
Sou
##AE
##by
그늘
강급
컬트
실물
암묵
교통부
역적
238
짝퉁
서바이버
닷컴
##그래
트롤링
프레드
##식물
특혜
나카지마
서강
백종
아라시
선단
장시간
부ᄁ
gu
주지사
그딴
노노
수학자
let
##ᆺ값
툭하면
Aut
##lex
순전히
아오키
##UD
중용
NORMAL
친일파
코스모스
이동기
When
구기
이따금
야요이
조만
질책
협주곡
신뢰도
유괴
신해
아이파크
430
##줄기
any
##유예
돌려받
샛
주변인
데이지
가도
계주
기대감
다리우스
지저
닳
가락
주조
뿌요
비어
Park
만신
손길
명심
Single
##BY
##바뀌
무함마드
뒤바뀌
새턴
이코
애꾸
##너드
고체
수없이
똑바로
로켓단
##드라인
공모전
##36
조건부
세이프
하가
웨스턴
담그
츳코
성매매
##노트
카니발
송곳니
싯
불러내
Who
샤이니
Esp
등기
독소
엑스포
나츠메
고영
EXTREME
멱살
play
마커스
트랜
##lection
노미
근교
##onder
뒤서
머큐
그랜
PG
공표
신노스케
Hi
마일리
##anger
웬디
##진우
##gy
스타킹
숙적
타사
집게
폭투
금정
걔
방주
영도
롱주
탁구
깐
##48
실컷
양분
매춘
농성
도키
향신
브리튼
하르트
우의
테디
원정대
냅다
피렌
선량
출토
가계
차차
타카오
##나타
카디널
고군
##사노
사이다
Feel
퍼레이드
안주
달려드
래빗
min
일루
##설수
육신
이크
카모
##ᅳ레드
뭉개
##닷
공구
기념비
Du
레타
##raft
펠레
Album
Je
가늘
무례
그랜트
mAh
엣
수양
루팅
합격자
버팔로
JYP
을시
광란
프리퀄
알렉산드로
북아프리카
무서워하
명제
어쩐지
뜯어내
##RO
로더
여제
전범
파헤치
##ONG
서슴
동맹국
아틀란티스
하즈
개요
진명
한국식
백웅
팔다리
Cal
Mix
낙사
ap
개머리
금단
사무총장
아카이브
우터
동시대
hp
데르
des
차츰
##방지
기형
타깃
스프레이
Inv
플리트
즌
홍익
파충류
격분
업소
서스펜션
자오
부대장
하야테
##게이트
지평
분실
분광
팽팽
##로니카
치요
신스
열강
코비
레베카
##산부
풍습
SNK
서라
키네
외동
##98
포커스
계책
코스모
##ya
주점
이효
탄산
red
WWF
Ret
방콕
완승
츠네
Hero
음파
박동
Kim
도면
테두리
규슈
주유소
야유
수식어
##타마
연정
광년
##비슷
앙상
우치하
베가스
조반
프로테
##태격
쿠보
티격태격
항공대
##ations
실권
재편
투지
Ult
은혼
놀러
짓거리
근육질
껍데기
QP
판다
236
##혐
##뽀
대첩
공문
저질
이광수
킬로미터
##공격
텝
넥스트
사보
감격
##ouble
코라
플롯
다테
##다주
##제비
굳건
단국
껴안
모차르트
##뮬러
대서
면담
공무
작자
슈테
계몽
##ball
성물
서큐버스
눈길
Blood
소자
코아
##병기
뒤집어쓰
##뇽
라디
관내
윤석민
Fun
some
은근슬쩍
역행
대장간
##떨
음절
어떡
STA
KE
장민
배당
속출
경제력
자습
평온
불계승
장문
지원자
카스티
국지
나자
요절
##나르도
어정
##정사
통통
엄하
##uture
피시
Sol
이서
리플
크래시
공예
별장
난데
루트비히
수비대
를르슈
치환
터너
보크
오기
##eck
아구
성화
탄력
##vil
콜린
총무
보살피
라이스
독일인
need
이라든지
엥
원안
윤지
Sweet
로아
##더미
010
격납고
지네
수트
##eek
승승장구
매혹
악재
다람쥐
##사태
변기
##ocal
KBL
Ag
뒤떨어지
##ather
스콜피온
앞부분
잭스
시게루
Val
진ᄀ
원료
코타
##배기
일렉트릭
스무
##숲
제련
Tech
횃불
화순
중수
열화
자서전
##TC
피통
요요
혹독
돌고래
천안시
유니버설
이견
피어스
신야
##푸르
사타
265
홀수
햄튼
지질
사념
실격
반열
실린더
마리나
##볼트
된
보아
CBS
들이닥치
꼼꼼
잘나
워스
기시
조련
유품
스트롱
결번
이베
하룻밤
##구르
투자자
넷플리
넷플릭스
정액
강북
희소
금천
앙쥬
개머리판
Say
왕권
밝기
##HN
한류
내신
료코
주둔지
로드리게스
조례
스펜
이완
루디
USS
전면전
돌이키
피쉬
순종
##날레
##암리
끌어안
##ANCED
##틀린
자일
재탕
##arth
셧
3500
쟤
거처
초밥
봉건
비화
한없이
치어리
명계
격변
제이코
클라라
나돌
이언
가열
불륜
이윤열
아멜
설날
청량리
최승
##피드
Def
캅
야가미
복판
##onna
눈여
교육감
510
Space
바카
언뜻
도카이
호크스
802
왼발
컷인
야권
다케다
홍차
기색
장이
난도
232
맥도날드
이다
사루
손대
충당
몽환
로밍
스메
정신병
흑발
매카
반년
##34
말뚝
사이클론
them
대항전
노련
제이미
Beat
##뚜기
레터
##태인
비지
최준
##바탕
##ours
옐로우
조시
후추
앞머리
이불
특별자치
노리코
빙하
특별자치시
공판
경계선
사들이
오소
하루히
예선전
르블랑
자그마
상디
댁
국한
기니
염기
시영
히타
굴림
페르디난
일제히
풀어내
her
다르크
훌쩍
산산조각
레이브
대항해
쓸리
이연
한문
기껏해야
메기
판례
타이베이
로빈슨
가우스
##사무소
명절
##티시
변칙
##ena
빗대
실기
##hammer
작센
##더스트
위그
WORLD
##뽕
렬
엽기
태반
대덕
수교
원군
히로미
알렌
변속
640
안즈
후진
프랑켄슈타인
내던지
번성
Orig
영정
컨버
##ames
제각각
클리프
ADVANCED
꼬맹이
딱지
쥴
메모리얼
부포
직사
희한
몰아가
인위
랠리
내려치
GC
미우라
공식전
우라늄
하네
애호
카리브
서초구
마니아
그레이스
향신료
만연
내치
팔아먹
견주
족족
세카
파미
##출력
총체
이부키
##지부
스캇
통솔력
##와일
얼른
Dest
##걱
나니
월트
파라과이
Mac
##토니아
이리야
세습
##매기
스트링
불명예
##콧
마음먹
레드삭스
LCS
다던
##세요
칼데아
##ement
##thing
히데키
##게일
엘사
사일런트
외할
굴절
이국
고라
연막탄
신영
Zero
레테
황녀
!!!
LOL
홍련
##rough
##aid
발진
##노부
코피
순화
밀리터리
##로리
속죄
##욕장
세네
##츈
##ways
동떨어지
장영
아라비아
##투사
병풍
밀짚
젠더
GOT
분단
슈타
결속
##입구역
밀수
자하
포박
프로세스
한테서
분담
독창
포뮬러
신재
카나코
고딕
번쩍
트란
Story
타타
장발
종업
무궁화호
황룡
워킹
셴
강지
305
푸딩
강좌
폭죽
덴마
파피
##알라
교량
형용
심해
찬란
첩자
무토
편차
325
들이받
she
쇼우
##프로스
PERF
길가
클라이맥스
Home
##DER
모란
유린
아스가르드
##우옌
##UG
##느러미
피의자
공격진
프리랜
프리랜서
##ta
##눌
고프
연장선
한라
분하
아드리
역마
이모티콘
##ano
뫼비우스
와해
수로
수렵
안영
실비아
살포
파이팅
##마르크
우소
다는데
철구
디스코
-!
마즈
깨뜨리
##une
정근우
자초
라키
뒤따르
등록금
쿠루미
열도
러프
동일본
##so
다의
##경민
불어넣
KC
조병
##뉴얼
주저앉
달랑
더욱더
##테르담
부어
정변
겐지
##브론
머큐리
Ry
##그ᄅ
대방
브리스
권력자
##ait
웅장
쿠즈
##ANG
NASA
##묻
심볼
에인
에비
전구
떠넘기
봉투
갉
간수
잠자리
금빛
왕세자
고비
은둔
상병
관례
못생기
뒤엎
통치자
특례
교외
몰려들
피아니스트
동호회
IBM
가희
쏙
의과
수기
폐교
마르셀
호루스
##조사
조나단
Japan
##데시
유가족
Stri
인플레이션
짭
질럿
조라
교포
포세이
분지
물어뜯
포세이돈
##닿
비르
읽히
미야코
방수
셰퍼드
아라이
소굴
왓슨
기폭
인신
리얼리티
김건
섬머
로건
우니
친숙
땅굴
##self
행정동
##ᅪᆨ
포츈
##신문
김우
##err
수모
묵묵
피스톨
차오
메사
사회학
선호도
MAD
##끌
인디애나
아키타
이사벨
마츠다
굶주리
기조
반신
다이애나
클레오
에지
고척
마개
직렬
각주
괴로워하
치아키
##bal
짠
고압
마구잡이
오줌
Hel
함부르크
중앙일보
붕어
위축
독주
딜런
피렌체
엑스칼리버
Lee
칵
##ASY
치우치
Fight
남코
스에
종식
돼지고기
##ML
유흥
토성
이슬람교
생소
국외
재킷
아이덴
아이덴티티
Bro
Gun
bit
에볼루션
강과
현저히
사이키
허정
람보
강민호
우한
발랄
줄리엣
기하학
괴짜
미니건
단수
절실
##ands
드로이드
동백
신예
디나
양천
클로이
문화유산
Young
BLACK
##jo
##르바이
장화
마네
증차
페라
##arm
아키코
납부
셀렉
##르바이잔
소고
##카타
앞당기
니콜라이
가요제
AAA
ph
##TER
에리스
토모코
여객기
항만
묘소
캡쳐
Wanna
Champion
발자국
사옥
위계
간담
한겨
노무라
셀러
알려주
앳
##65
##위성
SUV
##ᅥᆼ크
경산
##iful
로미오
수프
기로
타코
Pla
일회
에그맨
총점
##light
비들
국문
갈망
동향
판교
229
243
##osh
포터블
노지
뜯기
아제르바이잔
가우
개인차
이클리
클래시
이클립스
카밀
##elie
##위원회
무리뉴
수호신
페널티가
옐
스탠리
바가지
단도
감명
승선
경기관총
급소
조성주
DL
##팝
대물
야오
리디
660
이브스
##회전
##그럽
737
불굴
Storm
아오바
김학
뒤쫓
about
컬럼비아
클로드
지마
용족
급수
블러디
박진영
케일
노화
없음
육아
##ortex
유희열
펌웨어
NXT
최민
존기
이하일
메릴
과부하
안대
워페어
방탄복
DIO
마성
동강
공격대
아사쿠라
표지판
얌전히
이건
어항
##리학
625
##진구
이케다
MIX
상반신
볼티모어
Pa
루시아
익사
Kill
가닥
중남
패트
슬하
신교
EL
IEM
바바리
정가
돌출
담장
잔잔
경원
바퀴벌레
미적
엘더
지방도
정상급
피츠버그
##깊
마로
##ᆯ림
김홍
##eter
티오
정훈
##보레
직종
봉화
560
##니발
##수원
##틸
Jo
TC
황산
노우
요법
마르크
비닐
터빈
충신
sec
시그널
SUPER
노을
##lease
;/
옹립
한신
천리
결정력
##덕이
하야시
##브르
바운
래더
약혼자
동두
파오
넛
2400
정준하
Friend
백호
자연히
속아
권혁
##벌이
타케우치
##산성
저속
##바꿈
콜로세움
힛
심영
사토미
XBOX
다분
프라모델
불량배
양현종
아귀
##다이스
주리
본대
건달
혹시나
목욕탕
컨트리
맥크리
심부름
Line
목격자
칩셋
태극기
##ume
Warhammer
자동변속기
헐리
공조
게이츠
공용어
명동
##ines
264
##센터
##77
마담
##윤수
블룸
There
이매
망신
낙태
국악
프로페
클린턴
응우옌
자상
정오
벽화
분대장
볼프강
##ATE
여군
FS
현악
사이렌
임종
come
하오
오하
주제가
미행
조예
티비
their
구매자
조종당
##OK
의인
유주
##현수
국공
청각
클러스터
##나크
나오토
##ene
##드런
거란
##학생회
신문사
모색
아카시
플린
요나
디언
래디
포도주
미츠키
니스트
포이즌
고트
침범
밑바닥
가뭄
##ral
하구
도하
League
사이코패스
페르난도
체코슬로
체코슬로바키아
도핑
노장
계룡
그리워하
투혼
핑거
전시회
스도
##비어
치료제
로디
학명
ATM
놀림
지겹
##얹
끼얹
가차없이
밀짚모자
res
사오리
노하우
백종원
프리티
소각
##노세
EXTRA
도살
징수
##샤바
Road
가장자리
황인
Apple
ma
##ᆯ론
입각
Green
쿠페
슬럼프
들어맞
지니어스
765
쾌적
대격
전경
초신
라오스
##리카와
구룡
파나마
포신
덤블
원만
##란다
부착물
힌두교
평시
헬싱
히키
피콜로
성산
당내
관행
커밍
이재명
##자락
백설
곡물
집어던지
사파
매뉴얼
한큐
양의지
##플라이
파운
얏
##티지
요네
호적
##zz
연행
##라잇
헤비급
##ODE
##ᆺ감
무구
버들
과거사
우에노
나즈
##릭
명실상부
##und
어머
##무로
루니
리빌
장정
샤인
Intern
도지
서자
선더
볼리비아
##ᆸ실
##ORA
순발
효자
두어
몸값
세리카
GE
체면
303
관리인
글로브
##수아비
가관
허수아비
노어
##에스
251
리차
총학생회
거주민
아코
은인
안파
교활
트와일
러시아인
데스노트
트와일라잇
유파
제타
디셉
사이킥
Death
화이
성의
##utiful
컬쳐
탈락자
순발력
Tom
모성
케이스케
살벌
거들
참치
종사자
net
들러
공의회
뱃지
창법
백마
덜하
##ha
연두
합스부르크
Dead
양정
룰렛
노기자카
르브론
호시노
사벨
##인더
구레
단층
티아라
슬라브
코퍼레이션
고쿠
실례
어야지
타이가
##VEL
NATO
AO
SB
보헤
253
상록
색소
장난치
장작
연어
프로그래머
늄
궁예
받들
청혼
외상
양재
##백호
##ible
피셔
슈퍼주니어
##PN
황천
##페르노
남방
국영
병자
316
정신기
하피
뒤돌
##동물
건만
완투
피지
신룡
##INAL
부팅
인페르노
코만도
살육
근친
스텐
알렉산드르
모조
모태
전보
237
가격대
Champions
제아
김남
##에리
죠셉
NV
민수
한나
##레오
완력
대대장
안팎
사변
Del
##대장
불곰
##창민
긍지
1896
미나모토
스코어링
-,
노다
레진
연구회
원내대표
스트레인지
지간
펑펑
타츠미
원동력
바사라
로맨틱
."
공양
성자
##베다
프리덤
239
개찰구
소니아
반반
니지
##rol
글루
TEAM
##펀
김응
##송이
뎁
##독스
탐지기
대함
허접
궁중
후타바
##AF
원대
양평
##마이트
피르
##펫
환기
냉철
지난해
조계
판독
사토루
입찰
씨름
구내
스타더스트
페널티킥
##기둥
##츠미
맨서
드래건
액스
살인범
앙상블
Mal
Que
거하
##END
보람
친족
모니카
삭스
내포
니까요
460
유티
인대
앤서니
디스트로
허드
한니발
크랭크
어정쩡
라울
고창
김문
항전
제니퍼
이방원
남대
분식
##해머
군포
##썩
나토
샘플링
hats
발당
해트
##루냐
쿠토
뛰쳐나가
하세가와
눌리
<<
유네스
##가짐
중앙아시아
##꼬리
한겨레
미역
유이치
##신저
사나다
명치
브룩
분투
종회
양조
환관
연산군
라벨
저편
아이카
프롬
루시우
##췌
느와르
김상수
물리학자
디스트로이어
비나
##uss
아사미
##OUR
성계
성악
범퇴
##총사
거북이
비호
보위
##키오
충이
이회
EXPERT
##84
한수
농어촌버스
##즉
은총
비료
베로니카
사카키
폐기물
끝마치
레츠
##성장
촉매
펀드
전산망
가발
##oup
신검
두루마리
DH
##vy
원통
애원
레이서
##융합
보안관
물방울
천성
바로잡
##할시
돌발
OC
의기
노티
팥
천수
충청도
힐러리
스노우볼
파우스트
어류
슐
핵융합
Full
문파
계투
하나같이
중퇴
번들
##ental
낙동강
도자기
Pass
코쿠
아이코
효고
광교
옆집
핍
혐한
헤드폰
과대
니라
헤카
아놀드
름
유투
파란
조준기
##대상
다이너마이트
필리프
깨달음
빙글빙
hatsan
XC
골문
웬리
덤벼들
1895
이타치
##??
김보
빙글빙글
수이
혈연
의구
풍미
##잖
곧잘
에델
속국
혼내
픽션
TSM
아르테미스
##아프
서커
짜장
쌍방울
레전더리
##ᅢᆨ스
무법자
안락
번화
페퍼
석탑
##ily
##우먼
비누
다급
자궁
명상
통장
올림피아
위크
짝수
훤
호도
손잡
백악관
프랑스인
아키야마
호가
위용
시즈쿠
왕창
협업
낙타
레일건
Tra
큼
이큐
떠다니
##aser
WCW
모선
당진
니티
흑기사
Games
모나코
발주
포옹
##보잡
들어주
브렛
안건
시빌
파스타
칠곡
엔도
##ground
아서스
패럴
듣보잡
폭락
흉노
패러독스
부양
##훤
도화
##빔
##워지
그렌
포제
스타터
242
##퐁
남해
탈바꿈
숙부
어부
얼라
##OSS
시진
시브
조셉
태아
501
태권도
##짐
럿
황재
팬더
선점
명맥
통조림
##리아스
징벌
Set
퀀
우루스
불어나
244
##에이고
샌디에이고
농림
잠재우
차르
호라
느슨
아키텍
##ᆺ자루
선구자
아키텍처
미화
냄비
휘발
히로키
떄문
스니
##페리
설치류
차징
니케
##UND
left
와라
아우라
스레드
나약
파치
타이머
##퓨
사샤
청계
샤먼
리어스
하체
요술
##awn
알마
산란
공산주의자
FT
##간다
남궁
송지
뼈아프
MAN
아샤
후원자
탈영
왜구
적외선
##볶이
와이파이
반대파
랜드마크
##ormal
OT
비문
Pack
모서리
감리
샬럿
앤트
유형문화재
유대교
GAME
의구심
per
린스
안산시
쾰
난데없이
IR
도류
프루
##스티아
카이바
뿌리치
가위바위
가위바위보
SKY
MUSIC
방아쇠
##86
##ttack
파라다이스
메이크업
약초
##밍고
사냥감
권속
알렉산드리아
바오로
훈련장
위법
연장자
##74
보육
메이스
Mad
##ᅴ우
##사상
원점
##ᅳ라드
대통령령
마츠리
##IDE
라피
개소
sw
##이라
신의
하산
풍요
##ISS
연꽃
구덩이
탑승자
속초
유구
##gg
사스
방전
입석
고귀
그릴
##ider
아우르
백병전
군용
무기고
아그니
어업
객차
##하키
경화
이비
라쿠
보통학교
볼링
부잣집
글렌
역부
재우
울릉
공포증
이시스
오트
양팔
괴뢰
##ᆫ그라드
위너스
승마
행크
530
무의미
베티
탄자
선거법
쁘
대림
박람회
##드라이
부조리
항마
레이팅
##절로
성폭력
딤
서귀
##윗
최유
취역
##폭풍
고구마
짬뽕
지단
사구
스구
양수
pop
장진
소림
플루토
Ah
모국
##야구
안방
프랑코
자급
개원
두세
우리나라
잇따르
long
##꽁
북경
퓨처스
##티움
쉐보레
##빼미
세분
출소
##다이라
예견
##세인
뉴비
##leep
이동한
##OWER
역장
특검
네기
라이저
바르샤바
윤상
환술
압수
어르신
246
츠지
헌정
재판부
wanna
##전력
촉한
블리치
비겁
위급
선취
##ouch
SDRAM
요제프
구축전차
콘스탄티
##화물
실세
into
촌장
아즈텍
켄트
##코르
살림
실크
핵폭탄
##ESS
승자전
##프리트
Bet
Long
소프
규범
크리스틴
진풍
참호
쳇
내비
미겔
요코야마
김광현
경주시
왜냐면
op
기약
만담
변조
심도
분당선
제위
저절로
쳐들어가
거시
판넬
##onic
##스텐
##솥
신학교
##코리아
노카
동복
김봉
태초
254
치어리더
척도
호타루
주춤
신변
초빙
다우
유공
문하
고층
승조
석조
##ience
어감
불상사
빠져나오
거너
강압
증축
금물
갑작스레
Tem
블링
발작
델라
켐
단기간
유목민
시디
##마음
윈도
동방신기
드럼매니아
약탈자
로트
문건
반찬
코드네임
##ology
배고프
세르게이
다자
초조
니어
복서
고글
재량
워해머
##워키
울타리
바닥나
##yo
브금
트로트
재생성
GU
##고르
커널
페러
밀크
위선
뒷담
##니엄
경도
규탄
##퀸
사운드트랙
신세기
코사
재물
군장
구세주
기일
자이로
##덩어리
은평
중전
##reet
Step
Glo
한국사
##바라기
디바이스
크툴
텃
모모코
크툴루
MTV
바벨
알버트
릴리즈
NR
미흡
삼가
##지부지
박건
흐지부지
오토봇
벨라루스
타오
##임새
남다르
사이타마
종업원
윤회
오피셜
영덕
너비
##찔
##ᅳ라이즈
been
카나타
NMB
;,
Dem
방한
묘비
##웨이트
빨래
겁먹
폄하
자경
후세
콥
려나
카미조
NCT
쏴
##도시
진이
1080
##저곳
삼총사
이곳저곳
##자위대
봉지
방망이
고군분투
통지
기업인
watch
##괭이
##ting
자대
##버섯
비스마르크
연장포
##box
조끼
서투르
굽히
황궁
##iet
이블
헤치
마일리지
오두
등대
민망
배틀로
Ele
에콰
빗자루
난간
USA
맹독충
에콰도르
야미
AH
##메트
##꼬박
크라이시스
꼬박꼬박
마부
요도
디어
금상
248
휴양
##ots
알래
쿠사나기
##get
도산
외화
##illa
##꺼이
스크랩
그지없
쾰른
성불
애벌레
친부
크레용
Brave
구위
지드
호밍
레토
##네시
수완
##비지
신천지
nm
라멘
실재
진위
학군
카나메
프라이스
유적지
비주류
##br
하운드
오성
##자유
만물
총검
동진
카루
지금껏
뛰어가
보옥
맨손
콜트
카미야
유네스코
TRA
##셀러
VI
bla
안구
사채
국교
엄호
브루노
Level
##흠
소관
불시
싸그리
거리낌
야쿠르트
쫒아
##za
쿠웨이트
적의
피사
Chap
666
해안가
Her
##이야
시발점
다물
정산
감축
##본부
박승
306
액자
우에다
디멘
가져다주
기아스
디멘션
##32
노년
스테미
다승
로메
안착
데비
레퀴
##저지
달력
손질
단군
##ander
제조업
박지성
알래스카
nb
넋
질타
박찬호
차질
속칭
연구생
케이티
ATP
구청장
에뮬
톡톡히
ㅓ요
##ᅪᆼ
번복
##GP
조미
눈알
큐라
수두
##국수
System
도난
허준
스톨
내림
코코로
Cortex
금수
도우미
양복
##글라
신인왕
Call
반디
페미
285
프랑수아
올빼미
포르쉐
유키코
Key
이홍
수세
##너티브
총칭
얼터너티브
이신형
화살표
사카가미
##mas
##노버
방향키
졸지에
선착
근소
김재환
투옥
법제
귀걸이
##풋
Spe
MOV
벌집
##슬ᄅ
말버릇
흥국
신혼
설원
극명
녕
뉴저지
에스토니아
충실하
오랑
포천
문무
남색
외로
표범
타카미
미소년
Ant
샐러드
레너드
##IAL
##체어
블로우
반역자
Direct
세밀
시험장
대금
부끄러
위스
코그
20000
해리슨
공손찬
커튼
Stand
적잖
서든
쿠지
불릿
오구
야마시타
매리
##햄
까칠
아모
오열
경음
ah
주특
계양
LPDDR
주특기
Mil
##블러
멸시
요시카
나코
포톤
순양
토리노
성대모사
단추
##enn
떡볶이
휠체어
GA
위스키
외주
인조인간
달구
변호인
가샤
자형
스필
지만은
야루
쟝
주희
크나크
넘어뜨리
Cha
외교부
po
이세이
하교
가람
와드
요충
손견
##ense
팍팍
추력
해남
##함수
Mer
이스탄
서고
이스탄불
##94
##드기
소거
곡괭이
뉴턴
몽키
밀레니엄
어쿠
중랑
월화
##천년
음주운전
##WAR
발버
##말리아
습지
잠잠
도로시
미야모토
소송법
의복
선술
애슐리
편파
이상일
스톱
##OTH
North
##ied
과묵
247
재수없
Eur
다네
엑스박스
##ka
가타
기꺼이
번역본
포스코
에토
##궂
굼
새천년
블랭크
카디널스
수병
비관
인술
구와
잠적
##나멀
마귀
동면
머나멀
##효과
전기톱
모의고사
et
역이
메즈
맥아
디바인
Gener
아브
구작
##차원
LB
유년기
브라이트
에인절
사계
980
시라이시
어의
구토
키쿠치
Die
LM
화교
take
아발
남주
재결합
역부족
다이나
도인
특무
송정
BMS
시경
차명
다짜
##고짜
교배
크루저
##뚤어지
다짜고짜
파출
몰아주
EASY
나래
전고
활로
산성
##프레소
무라카미
정품
성행
말려들
262
한자어
쿼터백
에스파냐
color
레논
종양
밀워키
프로파
헤엄치
리세
명언
호신
보컬로이드
그렉
유토피아
유틸리티
##ᆼ아
##ILL
요금제
##ki
직설
##베니아
동차
메로
마츠이
HKT
수진
둘레
이산화
모여
리만
연휴
단락
리그베다
아브라
무가
심경
농경
##미사일
스펜서
시이
쇄도
TECHN
조광
권투
판자
레이코
걸어다니
Mel
Mnet
무형
신명
패망
혼용
##드라마
##뿐
발성
박석민
부적합
던데
회식
결정타
린네
미주
철제
헤르메스
비잔티움
키프로스
종반
##ove
카빈
본점
##쓸이
Hell
발단
바야
후크
##윅
수조
알트
Heaven
##my
나연
약국
슬로베니아
전근
옆구리
구원자
마누엘
함량
토기
센다이
##원장
현관
승수
총신
망언
쿠우
실증
렴구
서귀포
어학
근위대
유유히
외로움
심기
콘스
##렌스
필립스
김연아
은어
로베르토
나진
축전
##샹
모면
##ents
앤드루
Port
UK
엔리
을까요
레오나르도
이양
공범
장창
애기
외견
짧아지
470
쉼
관련자
아미타
열등감
##로트
음역
무기력
간결
서ᄑ
마땅히
cr
하층
셔터
##St
##도현
백발
##누마
##go
308
무용지물
데일
세손
순번
상류층
문체
노이드
가로채
쓰레기통
비키니
680
알아주
뒤섞이
엘렌
공물
기념물
아람
홈플러스
제퍼
##갈색
시멘트
현세
바이어
##ember
대법관
결집
##바흐
##에타
수학여행
후지타
건국대
의왕
##구려
jp
요마
펜타
성가
아이린
소켓
룰루
미켈
##화당
버나
최용
숄
Shad
김유진
다방
한기
점장
부담감
핸디
명랑
탈피
객실
라트비아
번작
환상향
송파구
어쿠스틱
에미야
오션
케이틀린
이마이
재판관
시공간
레퀴엠
절판
이희
선종
맛집
유의미
도안
절도
말썽
겨자
##umb
이륙
토모야
모교
키예프
##합중국
##껄
구판
용접
혼수
ROX
대의원
메이슨
천차
##ince
서해안
Hello
탄피
스칸
아키하
생물체
##IF
본업
착시
경쾌
##워커
dr
적국
해바라기
니치
하락세
배달부
QS
어윤수
결핍
!!"
비행단
묵시
KGC
우후
당뇨
리벤지
일침
추앙
Rep
볼드모트
직급
##경찰
베누
손색
##yr
색적
911
위니
영사
군량
징표
구인
문정
필명
##트륨
카트리지
Lun
인시
종용
레이다
덩굴
미네르바
팟캐스트
##add
숨통
황금기
단축키
치즈루
관성
커크
##uth
적나라
야사
양날
아이스하키
구스타프
일병
제츠
##루이
관상
침수
모레
##va
솔러
노역
산물
켄시로
산업단지
미합중국
북아일랜드
사이퍼즈
드레이
도굴
오나라
영산
##파치
둔갑
##생명
박인
엘다
자명
전권
월광
신창
병음
노르망
인공위성
마진
용시
304
스타스
##ection
샤우
241
카카오톡
에보
경마
리지
케이타
오와
동위
카푸
템페스트
만인
상동
호아
부사장
구마모토
헤임
카키
강시
디셉티콘
##39
정신줄
밤하늘
##ures
사무엘
시즈오카
ᆯ세
최태
신경전
쟈니
오지환
위압
##iri
서일본
야타
강가
에스프레소
##녹
강기
##사슬
조디
군정
김강
증설
난관
브렌
김성현
RGB
##일치
##바드
네버
스카이워커
한술
##ility
퀼
Fil
##ates
희극
김기태
Network
##보리
알폰
도부
버저
원서
디폴트
Inc
헤이즈
1899
Cup
##ELL
영천
문항
##irc
진홍
슬기
유리창
맹장
데인
가옥
대열
타무라
저스트
로이스
망가뜨리
Mach
ser
확충
ㅋㅋㅋ
날라가
Esports
중파
역순
길티
타카기
연평균
인척
역동
캘리포니아주
이덕
ZZ
이나바
##테르부르크
##고로
라칸
참신
##aph
쾌감
아즈마
미륵
University
##WA
##펙터
미츠루기
한림
311
##ometh
##십리
선동열
기나
내란
순하
조종석
환승역
그레고리
Again
구명
동치
처장
호송
후쿠다
##벙
구구
앰프
이용규
울림
아약
ᆯ지언정
관구
매화
불빛
빙그레
##튬
노량
인더스
개중
##razy
look
아캄
##궐선거
재보궐선거
rem
자속
본심
벤처
몽고
김해시
마샤
##미디어
##조부
##ORPG
브랜든
상아
마이스터
##ᆷ돌
세주
맨몸
##사병
제라드
사냥개
소행성
##닭
퇴화
EE
게오르
칸자키
싹쓸이
하디
전소
펜싱
샌즈
로바
노쇠
건방지
문학상
세비야
##부상
기동대
거주자
미노루
타란
풍성
미니맵
철폐
번역가
울버린
##어머니
군자
##atter
영등포구
어는
윳
##위안
이용한
Only
실화
몸길이
짜내
집행유예
무스메
##ᅳᆯ렉스
컴플렉스
카르타고
Burst
bet
궐
디온
소용없
주니치
파시즘
해롭
별반
mg
놋
노하라
변방
뒷부분
아나스타
##bit
사미
##hem
##집합
LPL
Dig
아린
은화
##태현
판타스틱
수축
인산
헬레나
모세
비축
블라인
우스갯소리
##윙
##ᆨ스피어
셔플
에밀리아
신차
반포
홍문
방위군
백조
##AKA
셰익스피어
소고기
리토
장흥
몬스터즈
Days
미어
##공화당
양궁
##플로
민주공화당
패자전
오심
패티
담담
웅진
관음
네이션스
##pm
##보트
도레
부조
비등
알리스타
키아
마르세
꿍
##뱅이
고찰
##전생
##해지
콤플렉스
여신전생
##ether
무수히
패퇴
스터디
간담회
로케
내지르
MiG
##TN
우진
파가
따름
디저트
잡음
사업소
Winter
##ips
안ᄃ
최단
점프ᄅ
점프력
모독
##우로스
싸구려
제이콥
리옹
영월
초안
기나길
능통
힘드
숟
##에나
섣불리
도란
알로
튀니지
대소
자립
자림
think
브루클린
천문학자
지코
302
랜딩
합성수
LF
여래
유화
레반
죄악
nbsp
수난
트립
stay
##LA
##플린
윽
장윤
불의
에스퍼
깨물
은지원
해수욕장
Gh
낌
필멸
토리코
시들
신통
머피
##평동
손아귀
"...
라흐
##더지
마음가짐
박용택
걸림돌
Jack
##uj
##갱이
##영웅
귀가
##ids
IB
이름값
슈우
온의
이공
고졸
시국
바빌
그리스인
율리우스
손아섭
아약스
구설수
디노
태사
아리마
안양시
##cess
어김
오유
##제르
방청
메신저
야코
뒤흔
아이비
문화방송
##imes
##unk
INT
로군
##기수
암스
##샵
앙고
에레
키타로
군마
육탄
신음
송광
시설물
잡아먹히
Va
수갑
스크림
##걸스
두꺼
격발
##하고
원심
Sports
name
스사노
##als
타마키
복음서
피에로
라사
버트
바꿔
푸에르
노동력
사인회
차근
뒷모습
미카도
꾸짖
신형
외양
좌천
자장
원투
흉부
1903
틀어박히
수도사
룩셈
비정규
전액
윅
범퍼
굵직
##톨레
##진보
음질
골머리
빙빙
보조금
Inter
WA
들뜨
산요
복숭아
룩셈부르크
유예
##코인
서프라이즈
수회
체자
DEX
도원
##일비
학설
권수
간사이
송창
따라붙
제리코
티타늄
Kar
뻑
부의
테레비
공관
##산업
드링크
믿기
##uman
630
쿠미코
가고
기승
고동
##진창
레일리
두들겨
Knight
House
대망
데어
마르틴
카가미네
쑨
대참
속속
##커버리
##그라운드
엘레나
출입문
##룰
2100
색기
##ᆯ라이나
사생아
부트
필리스
노르망디
프로펠러
오릭스
보수당
music
에루
발췌
주박
##ald
아일
전업
칠드런
##XX
말단
오사카부
대모
적분
해마
불씨
누드
Wr
만수
구금
##orce
푸틴
관중석
이너
화풍
올라프
드미트리
##치히
창건
푸치
코너킥
쇠사슬
##ved
작품상
빼먹
토목
논산
행선지
강구
갖가지
착탄
##팔구
종신
수잔
저버리
오른발
북동부
도태
유폐
당과
잔상
슈퍼볼
크랙
원체
십중
안드레아스
GF
세타
번외
##해하
그람
십중팔구
타일러
유골
승화
##ico
계약금
렌더링
겸손
플릭
붉히
사선
불경
케냐
##혜진
시니어
iP
##37
적장
제패
산드라
개당
##거슨
둘러대
웰스
에인절스
헌팅
일그러지
근간
##폭력
개인기
##isode
파밀리아
어다가
자야
분개
키카
아인슈타인
카탈루냐
조만간
Snow
니깐
종래
선데이
##양이
렀
##emy
네온
눈매
윤보
##REAM
엉망진창
CLG
초토화
바로크
포르투갈어
와다
전서
##레로
무한히
다이나미
올가
다이나믹
More
천년기
철판
꼰
##르도
유세이
장료
증정
나가토
속마음
토레스
착오
염라
##VEN
도교
##기념
##공업
종군
쿠르드
##IKA
성조
파천
편집장
백두산
바크
캐쉬
탈모
샌드백
초판
##적으로
미국식
##눕
오토메
베르나
NCR
오키타
플러그인
아레
게일
잡담
이사회
사나에
##거시
후우
마포구
제레미
##lin
After
##31
순천시
웨스
객원
타이거스
수은
전단
리허
##겨우
경부고속도로
객체
에반스
출항
달팽이
티온
획기
공민왕
어김없이
##진보당
were
##사업
내력
뜻대로
덮개
탐험대
공백기
카이지
히데오
은지라
이프
도선
중증
처자
##리아나
선승
오펜
나이스
SSD
광명시
핸들링
요시코
mod
의성
산동
다이버
Ice
한바탕
영의정
##내티
홀로그램
신시내티
##BE
기물
침략자
##ella
##국적
안상
김동현
남양주시
딛
길동
##림동
##갈이
나뭇가지
##테인
서건
시식
일류
서현
구약
컨설
깡통
Year
키르
속수
760
공기업
배틀로얄
미마
럭비
기뢰
발화
투게
질소
%]
가나가와
위구르
교의
김무
온리
아나키
묵인
영화상
##글러브
골든글러브
송시
정치학
조승우
리크
귀인
보령
타파
아이샤
990
장로회
학장
아이패드
용역
그래미
염원
아머드
xC
하청
네프
보드게임
주이
영통
555
##수단
승산
##ori
##헐
파프
사이조
귀도
데릭
봄이
근거지
##카르타
현혹
접착
까치
석판
처칠
뺨치
발버둥
##fl
도합
보어
빈자리
마사유키
뿅
번번히
이바라키
하복
아과
미개
팝콘
진구지
비이
총살
심포니
악녀
투게더
이징
##구석
찝
밀착
##촌동
메피스
권법
백상
##oph
쟁취
렐름
him
장만
They
Lost
마그네
아톰
보일러
연필
##세어
전처
정호
유타카
토양
황건
칼로리
960
우르스
공화정
강수량
와스
유에
PPV
라모스
##72
정태
항문
헤일로
##어처
방글라
우버
저우
미니어처
핫토리
방글라데시
맥스웰
중성자
~.
2200
케스
윤치
하야미
부천시
구부
음표
영예
빠름
야만인
game
수순
놓아
마이크로
섹션
열폭
비웃음
날렵
Arc
매월
##피디아
재방송
삼척
즈이
트랭크
떠도
TA
소파
##현실
황도
##꾼
하진
보나
공파
히터
농산물
생활관
공생
위키피디아
##프레이즈
책임감
사유리
Under
대작
요스케
반증
알론
##덕지
주택가
최경
맘대로
험난
점원
박제
##마이오스
##기니
##othing
##남동
295
부지기수
수문
##딜
투창
독사
병실
죠타
리차드
바빌론
면세
통곡
##륵
킬링
굴곡
Rob
합세
404
610
우에스기
면회
실각
Cur
호이
##zer
에르난
소시지
Mc
갈아엎
영력
카메룬
사마귀
프린터
대전차포
dream
##만화
후견
초유
프리츠
퍼거슨
네이밍
Imp
일신
관청
##....
놀래
자가용
##촨
아편
헬레
포르테
정공
제이나
Gra
##치우
상응
몰이
컬처
침입자
역이용
카봇
580
바닷물
##ving
Anim
정복자
동양인
png
무투
##호마
축물
특별법
교통국
VC
용문
##ITE
펠리페
모루
##자마
미스틱
강우
세바스찬
삭감
질투심
MMORPG
쑹
도출
도무지
주세
간사
조선왕
관심사
##YS
Why
간간이
##컥
신기록
흩뿌리
블라인드
주상
명색
봉신
stop
강승
퍼블
마유미
테레사
수두룩
보더
##ARK
하류
도용
공언
##ᆺ가
당도
독신
로시
장보
승전
단체전
##캐피탈
피날레
뱃속
남하
재야
천정
포그
top
880
##order
Kiss
걍
자만
채색
이리나
자타
405
콜럼
탯은
강의실
어드밴티
##omething
어드밴티지
다희
가독
수심
야크
이라던가
캐치프레이즈
마조
구걸
원탑
해답
##천면
Spir
소질
색다르
##ᆺ가루
무참
체육복
짖
기모
장터
문선
브렉
Enter
대천사
##랑카
##그라들
##92
애비
002
살라딘
##fore
연무
브론
Secret
비너스
##테라스
박한
##베로스
쭉쭉
vol
기고
산재
기흥
공상
김범
풍신
소말리아
머스키
여하튼
##WS
대종
266
김대엽
파출소
자갈
즉흥
혁명군
##82
전래
체온
시뮬레이터
모녀
판인
남양주
거장
##차림
형체
태화
언리얼
난이
온통
##INK
미야기
##쿨루스
##ᆯ리니
결여
초소
속기
외인
현대캐피탈
여력
파주시
490
HL
사울
Ann
war
위세
루갈
박현
왕도
##ANCE
ACT
크라켄
중기관총
소미
사이언스
포스팅
갉아먹
TL
불복
##ury
튠
아리랑
로카
저쪽
달리기
혈전
쿠로사키
기민
##부림
애니맥스
away
중무장
개기
매듭
혈족
쑤시
##광이
유리카
마사시
흐ᄐ
아오야마
FINAL
blo
##구름
아마테라스
Pan
수시
제철
변덕
건과
길쭉
미제
파이크
블레이크
쇠약
쟁쟁
서영
양세
겨우겨우
악귀
습성
의논
광신도
나팔
부자연
일주
오닐
박성준
오거리
머슬
하이스
매그너스
속삭임
쿠가
가젯
마킹
카시오
말다
그래피
윤정
##mon
##중심
본연
박형
##시아키
Roy
##터지
성욕
퇴진
##URE
상선
단면
카밀라
SNH
Dan
베이시스트
425
Reg
합성어
김주찬
알렉산드로스
만찬
1890
마제
생도
폐차
아나토
톱니바퀴
가부
정읍
레저
드나들
독고
독실
초심자
IZ
##Pa
일구
미노리
##일체
##활성
가톨릭교회
Hun
Sal
동당
명소
강남역
blue
JB
속보
##병원
Remix
스러
코마츠
ed
의역
연옥
특대
뚜벅
시계탑
Normal
light
일색
##미온
타노
데저트
트렁크
햄스터
찢기
##반짝
세이렌
무더기
성룡
반짝반짝
서건창
Vir
유모
##부진
반월
강력히
아키토
##aking
부엌
비일비
통나무
##코지
끝장내
비일비재
전일
발가락
천룡
악취
넥타이
개정안
더럽히
민영화
From
되풀이
얼떨
Plus
쇼트트랙
속삭이
Micro
해리스
문도
실태
현저
다이고
응모
기저
열중
우주인
피부색
위너
입김
훈련병
장조
발터
올리비아
토론회
지민
로하
글라스
플라자
BEST
일일히
요충지
견훤
API
엎치
엎어지
str
무효표
display
변함없
Nat
영종
트램
폭염
탄식
로마인
##스턴트
노틸러스
타루
연격
신타로
초장
080
마사루
밥상
고분군
GRE
해결사
용산구
지름길
검문
상급자
America
had
한진
킵
앵무
실과
##esh
이그
사산
인스턴트
영유
포티
퇴학
베이컨
##뚝뚝
HA
캐롤
##저버
짤짤
두꺼비
Easy
리알
##코타
옵저버
##엔드
사치코
PERFECT
add
지스
무표
##굽
도련
345
당파
원탁
뒤편
##ᆸ쓰
고심
은거
명수
스페이
점령지
By
LR
##ney
무뚝뚝
공격자
무릅쓰
작명
##공원
##불복
005
JAP
과천
##라면
플로우
강진
결탁
긴토
시코쿠
을래
마두
화사
비법
방진
재력
복불복
혼잣말
부풀리
로터스
우방
##급수
엘리엇
##듐
Dri
상봉
창녕
Band
유병
##바겐
납작
패스트볼
총대주교
형용사
검투사
진풍경
소정
스테레오
##GO
지프
함양
박소
글로리
수서
질색
당선자
크래쉬
심신
항시
자작곡
XI
##38
하긴
식칼
칠성
더글라스
국과
Ob
손패
Ha
경치
능선
색감
810
정파
##파시
드리스
배신감
브레멘
퍼스널
##erson
소방관
288
동그랗
대보
발암
##손자
안티오
모뎀
##씌우
경례
재촉
긴밀
활기차
허드슨
##차근
달마
잡아가
청순
##OLD
차근차근
현란
산적
레이더스
대학살
Wol
##con
518
경복궁
스테인
퀘이크
##페리온
페네
한동
출품
##연의
유니코드
들여다보
도미니카
동학
사이언
기대치
da
수긍
일판
시마즈
준결승전
레코딩
##무책
참혹
영애
문희
코앞
진시
토에이
루주
임창용
PTS
고해
##히드
야지
##무트
식이
송은
272
휘감
Fant
오치
내쉬
권영
볼거리
MSI
GIR
##기구
수훈
15000
미치광이
리아스
Series
사본
사흘
모기업
학실
아키오
유키오
연명
땅콩
숱
정미
무턱
##모으
택지
범람
이해도
쉔
780
##테이커
would
##게티
권선
담아내
##스탱
명종
평가전
고려사
신분증
AJ
##감독
bu
모지
##orry
##메드
신학자
근현
미스코리아
유혈
##순환
언더테이커
모닝구
Video
재조
570
돛
영연
별세
##협회
두건
막사
드래고
##반구
오가타
미혼
재경기
탐사선
GEN
소스케
상층부
##나스
평평
##ublic
단언
녹아내리
고루
판박이
법규
840
기프트
소다
명부
초승
드가
보주
폼페이
##도르프
번화가
특강
식단
걸레
중개
스커트
편히
액세스
MED
고강
미자
왕래
차량기지
1901
##블레스
하퍼
텔레파시
기득
아이치
박헌
태안
##wn
유야
탐탁
##idae
마상
려니
병법
탈진
척탄
가인
게인
리니어
회랑
힘차
꽃피
코우타
에고
석재
머스킷
PE
동형
당수
재외
아라타
둔하
대주자
다목
창구
##길동
OGN
메피스토
번뇌
레거시
주제곡
극단주의
속수무책
부총리
키보
국제선
MOD
민요
숟가락
af
변화구
쥐어
보건소
승룡
만장일치
진통
재연
용신
1860
함교
멀록
불타오르
지청
쓰다듬
401
연합뉴스
지선버스
오재원
가고시마
다재
##키치
286
GIT
복량
근사
##ato
미사토
코스타리카
UB
조쉬
노토
영영
##피오
SPEC
서연
비스타
까맣
마노
오오타
중공군
톈진
캘
응수
지구력
JK
xB
사커
박희
비트코인
Force
##높이
##타니아
맹공
칵테일
##케이크
##지옥
화분
문화사
ACE
##ITY
저기압
결점
절멸
이경규
매개체
인양
후부키
홍명
마나카
페르시
심상정
주문서
SHD
카카시
하노이
지노
작성자
춘천시
의수
명함
토도
역사학
1898
지안
주정
치수
신현
레이튼
스파이럴
니퍼트
카코
물의
##ATA
ro
##MI
장현
금주
창조주
용기사
##덱
용지
산토스
321
사민
난조
공학부
중독자
플랭크
고드
정열
분분
순이
천명
##쿠사
민선
299
스포츠카
하노버
##ison
아랑전설
가망
타쿠마
사황
##마키
당직
##외과
독하
동호인
장검
국철
윗부분
##미안
동거리
누설
센토
##umber
깔보
위문
예감
!!!!
트렉
STAGE
620
행지
번호판
제네바
##hn
도나
찡
##TLE
고저
파마
RES
모니터링
편법
##파르트
픽시
1902
과반수
Div
안데르
용돈
알레르기
##현희
슈마
싸늘
기계식
발송
죽전
호문쿨루스
상국
히트맨
FK
기단
##만별
폭우
ㅕ야지
천차만별
무턱대
기전
화단
##메리
퍼트리
후지와라노
Lu
아냐
아흐
##기스
구획
쇠고기
어쨌거나
본전
허점
캥
##디나
메오
GITAD
##댕
##다발
체의
금광
몸소
우노
총력
향교
출자
이해관계
EF
##아부
##득이
##권력
논외
영웅전설
차례차례
삼국지연의
하하하
한지
검법
헥터
재계약
질식
와시
제논
두더지
페트로
1897
KV
발군
정윤종
짤짤이
##루가
##석희
치에
몽둥이
구수
후한
야키
##BT
완장
무신론
##트페
상트페
##벗
이동해
영업소
MOVIE
부의장
상트페테르부르크
바짝
조엘
##즙
파티마
프란치
아자르
도성
바레
ᆫ다던지
뎃
플라스
퀘벡
먹잇감
Ta
##기리
레기온
무표정
고국
자생
312
##샘
린코
셋쇼
셋쇼마루
점막
JAPAN
성신
개소리
타순
출정
##벌리
Future
췌
오븐
타개
접목
##tm
##핑크
폭스바겐
나성범
세네갈
die
불스
준이치
357
유도탄
boy
자퇴
불패
링고
블랙리스트
ZERO
거진
화원
건들
쏟아부
힘껏
##amb
than
조선왕조
820
##비행
천호
얀다
로데
비드
결방
음식물
묵묵히
pre
수저
한상
엘튼
녹슬
국방군
총독부
##넨탈
신안
계파
용광
건반
북서부
하코다
장단점
곡사포
쿰
아네
FD
노면
채광
307
밥값
355
출장소
리허설
녜
Here
처우
호머
##방위
엉터리
Fin
el
다느니
수거
비안
진언
행정학
디아스
수아레스
Championship
너트
Aq
꾸역
무턱대고
cod
이랜드
##다능
케라
벽면
종착역
영암
스리랑카
다재다능
박철
막대기
블라드
발의
der
역세
웨이드
면사무소
유자
발사관
##irth
카우보이
이한
##어가
전량
피안
휴재
왈츠
could
오대
중학
산티아
##read
335
International
가트
거만
자우
연약
안달
원단
##hed
마르세유
유년
광자
쿠타
##강하
네이비
소인수
##나츠
##해튼
2600
무인역
제끼
교부
직함
청도
빠트리
까발리
##odu
코즈믹
초승달
기내
일축
##브스
몬드
##acy
선후배
Queen
##ror
퇴원
1894
##46
반문
간헐
경작
망나
Exper
이수근
프란시스
모티프
김하성
황재균
새천년민주당
기류
만하
화승
프톨레
프톨레마이오스
소변
애도
만주국
잣대
오ᄅ
리자드
##분별
페트
드라고
스물
직경
복역
말다툼
조나라
멩스
GITADORA
##아떨어지
리콜
계급장
섬광탄
자조
일수
리저
해파리
급강하
리포터
맞닿
양덕
뛰쳐나오
다레
최지
청라
묶음
나지완
##무쌍
코볼트
열연
쉽사리
메인보드
적재량
최전방
로또
추태
대성당
셔틀버스
power
주신
만기
역공
교파
심층
트럼
테크니컬
Pat
특사
알람
매킨
##진영
육수
왜건
을지언정
첼로
엔지니어링
Old
채식
태엽
증명서
셀카
관찰사
산티아고
마동
youtu
자코
호른
아마노
##테크
황야
숙성
독립군
시비르
how
는데요
옷차림
##ctor
페르난데스
중남미
Ill
앙코르
##맞춤
묵시록
다윗
지략
ᆫ다던
노론
##두고
끼이
이경우
안드레아
##드름
여과
상이
호두
루이즈
아케치
FOR
떡칠
Mor
라메
전학생
금나라
경찰차
시에라
##마다
후열
##unch
##RC
##ᅳ렁
벤자
강경파
##화기
세공
Look
BLUE
##스트롱
##iw
오수
오르페
710
Work
꼬꼬
틈틈
아나킨
유시민
pla
미신
데바
달달
황급
봉우리
##icle
옥토
카이로
테크놀로지
접대
지지부진
수백만
##iant
하울
거구
파이어볼
VT
야포
강백호
사회당
최연성
오영
##노르
용모
고함
도수
본기
포항시
##덥
토레
로도스
피력
우키
플러
컨벤
이제야
##아프리카
강물
핵전쟁
합창단
##꿍
마아
모카
JD
호연
도카이도
원주시
애런
애증
메이든
횡포
##티아스
보보
유례
암스트롱
미생물
호쾌
손승
아야메
시리얼
정찰병
아우구스
카츠라기
Er
Fore
Give
##고양이
##ces
선녀
코린
##핀스
크레이그
##ᆷ스
이근
세실
토아
통행료
내무부
청취자
비활성
장강
포포
국세
폭약
세이라
##QU
주안
이봉
유실
무분별
배양
화포
리빙
왕전
##메탈
플라톤
Dyn
츠요시
공리
방통
효종
걸프
나루미
Cla
자카르타
마셜
맨해튼
##LY
##cal
미첼
심취
궁녀
##otion
프랜시스
문종
##els
클라인
갱생
피난민
Aqours
Ber
##su
후세인
##달프
김민철
핥
일라이
오클라
장승
애너
##적거리
각하
탈레
오클라호마
##WC
마그나
스털
을려
##킴
강풍
국부
한국전력
고의로
##레일
문수
346
전화기
276
칸국
빌리지
의용
여실히
배낭
베리아
급조
음악중심
션트
스탬프
보컬리스트
구미시
er
법관
##브리지
Dav
##크레
주괴
자해
번안
##프스키
영화사
치매
알프스
백석
##불사
송환
전국구
맹주
콜렉션
오웬
##면체
타미
함종
대표자
성리학
##글러스
구조대
케이코
낱말
리거
코랄
메들리
##파트라
##에미리
아득히
클레오파트라
총액
게으르
퍼니셔
와트
진사
홍지
칸트
놀이터
아랍에미리
아랍에미리트
공직자
원초
강박
##ask
##엉이
더글러스
청부
##혜원
브리오
##ender
에밀
유관
피타
속내
조선족
하이트
더라고
페일
찹
발라
뒷목
만다
##박사
##ami
황금색
여수시
##스름
제수
동귀
술래
추축국
이철
##가나
속곡
에이핑크
절로
ARC
Plan
np
즙
##시원
마중
마오카
식감
휴고
##sy
라타
지원금
RNG
요직
충만
캐롤라
사조
히미
온천욕
루미너스
이그니스
Fort
미요시
방독
##와트
양민
필로
금연
슈이치
아우디
TFT
키네시스
카다
더디
결렬
김밥
소비량
TBD
이설
학관
달서
광주시
동해선
Player
구급차
개항
볼로
러커
CI
큐티
sy
지브리
친동생
그레이엄
넘버링
##대신
파훼
교신
쿠쿠
글꼴
육군사관학교
발명품
##원숭이
See
##진군
우레
말싸움
단가
출가
롭스
high
치욕
델리
나가노
애드온
전태양
간토
페페
##ular
효도
큐리
지지층
타임스
부비
##여래
##elieve
PTSD
비교적
안젤라
초신성
모여들
괌
세심
국유
슈츠
##재주
접선
##젠더
art
MH
리파
반야
베이직
모모카
가마쿠라
WIN
##주석
한껏
관철
항체
프라하
##SH
##사탕
예식
디그
변론
낙점
펀딩
고흥
연중
포츠
##예스
얽매
Sub
치치
반향
메트
##테리아
철인
침실
선제공격
인내심
고상
도그
카톡
스타인
아폴론
hPa
상습
언어학
직장인
Ever
##ᆯ리우스
주성욱
컨벤션
배회
흥덕
우치다
INF
오두막
남경
##뿔소
치닫
매물
쾌거
스털링
Dec
시일
최종병기
Another
시바타
Make
Squ
670
##캡
이정훈
사노
우성
기어코
무쌍
선의
무전기
##tus
##EP
##쏘
펀트
신해철
무드
쿠와
258
이승기
IOC
슬링
최동
진열
덴오
Wonder
안마
완치
트랙터
카나에
샌더스
CU
ml
독스
조석
##ICK
비취
분탕
룻
골밑
웡
격상
감독관
707
940
페티
론도
970
말미암
어메이
지검
##대원군
히치
257
야마가타
미카사
오블리
실마리
판별
터틀
승하차
벤자민
가쓰
성호
본즈
Roll
rec
##버무리
##itt
385
포위망
##거미
에드가
정실
화음
서운
선악
예금
중생
히요리
열망
##덴부르크
its
광둥
얼버무리
ㅏㅆ었
카를로
상계
장합
프리스
밀폐
APK
##호크
하양
잡졸
박지원
장항
독음
키리시마
끊임없
무진장
깁슨
##부치
자유민주
흐트러지
나트륨
수혈
군국
은하영웅
기상청
츳코미
은하영웅전설
후시
##ddy
솟아오르
부차
##비티
용액
배웅
꿋
##쓰기
여객선
낌새
노블레스
동군
연유
탈리스
뉴올리
##ᆺ수염
##그라드
Ben
기입
설명서
맹목
브롤
얼떨결
유원지
신참
심재
석회
263
찬탈
알론소
데꿀
규합
코스케
비올레
데꿀멍
San
다키
아누비스
송은범
중일
죽창
아타리
파사
궁이
바이저
##맞추
탯을
소매치기
건너뛰
후륜
류큐
##지먼트
레브
철강
아르마
매니지먼트
간소
울트론
##OME
##고치
발걸음
필하
민자
콘도
각성기
왼손잡이
##도바
성왕
외벽
커티스
##93
대혁명
소르
파즈
김갑
극회
아주머니
525
org
헛되
하녀
가전
길리
파로
탈의
곤도
LoL
세미나
징병제
Card
##vice
만리
##버른
삼림
상륙작전
양부
라이오
팬서
##곡역
즉발
bbq
서툴
구릉
학우
##저찌
김부
##포인트
떠돌이
어찌저찌
이승현
Sea
##가야
무루
이슈타르
무도회
##미남
류노스케
블락
딴지
##side
모체
단시간
낙후
##ellow
알아들
구문
요루
파블로
김포시
된장
아워
영차
알베르토
궁을
타카야마
오야
장도
포틀랜드
토종
덜덜
일리노이
평택시
들러붙
암스테르담
비결
##실신
금동
에리나
오블리비언
Ko
내막
방종
추진력
hello
으세요
액정
Mind
이교도
승리자
전임자
지산
자메이
세제
요시히로
프레이야
아리스토
자메이카
과외
##유리
판테
브래들리
매사추
##세츠
군도
##any
##hes
잔느
미치루
떡실신
방사성
##ava
총격전
대꾸
조난
호나우
##민턴
헤아리
수리비
BY
글레이
유표
리서
스토크
우승컵
좌회전
데프콘
필리아
전문점
%~
버마
##카운
잉카
매사추세츠
##실베이
학도
펜실베이
한양대
펜실베이니아
세바
방계
발끈
##피언
##츠크
마다가스
송금
듀란
기네스
사무국
불도
백야
사대부
##카가
스푼
##ote
##PGA
##네이루
매카트니
노먼
단맛
시스터즈
포가
죠니
즐비
배드민턴
AGE
##크루
주현
##가르트
당혹
종언
삼중
클라리
유리코
##셰비
팔레트
오퍼레이션
칙령
경의선
비정규직
문대
국내선
730
로페즈
Pal
##form
방귀
니시노
유즈키
##빅
진루
캐넌
황선
273
이시이
자청
소박
데코
참판
산정
급속히
Ra
메드
조직력
소화기
실리콘
모처럼
부름
장렬
영판
나나세
지난번
야인시대
꿋꾸
영생
양해
독침
##막이
산군
맥기
칭기
폭주족
아미노
곶
후신
국면
시보
수표
세시
시작점
병아리
-'
이펙터
양각
##reas
고사하고
전미
성년
운동회
흥선
리딩
야영
링크스
통신망
대참사
에린
도지사
생쥐
마르스
투표수
star
그로기
under
원유
부러뜨리
뱌쿠
판테온
##ican
이즈모
ᆯ려면
서예
다양체
youtube
SPECIAL
황급히
##ih
에두
소연
반일
루아
##ories
골판
불꽃놀이
디펜더
시어머니
이색
도형
일설
오호
역인
독기
얻어먹
##니파
요란
김석
왜성
연예대상
푸르지오
오시리스
##YY
미비
9999
카타리나
Beautiful
컴파일
HIV
인파
##마차
코딩
아르고
맥아더
Emp
고룡
사피
본교
김사
쥬리
뒤덮이
정영
구야
캐럴
##oto
True
GSM
볼드체
회고록
구시
장구
라이어
친아버지
소유주
공대공
대양
대죄
호미
##몬트
##ffer
yul
##기름
유강
제프리
격자
크론
멜버른
피로도
YTN
종국
##레마
청담
벌벌
마리카
##필레이션
컴필레이션
배너
코소
다윈
시이나
402
gonna
오송
태커
애니멀
벨로
유사시
미즈노
애호가
유랑
소티
교인
복속
핀치
리버티
숱하
어메이징
에테
수의
소치
연립
버로우
온난
동일시
전반부
거룩
민회
그루브
웅덩이
##ollow
{{{#!
Electr
KM
어니스트
주영
##요한
프리트
클루
글쎄
고착
선미
##토프
잉어
토미노
다마스
다국적
상도
뽀삐
구박
카산
관입
##iness
국민회
소문나
앵그리
리라는
칭기즈
피어나
324
흠집
Id
ep
마안
##처리
나탈리
정색
맞아떨어지
스위칭
지저분
입소
##라이즈
유우나
MSM
Trans
##미나
930
SI
정찬
정략
등짝
건륭
쫓아다니
경영자
트라이얼
##슬레
은커녕
미형
양학
##북자
마틸
스팸
회생
집시
벌점
##ific
커넥트
조연상
기척
팀워크
독가스
283
가르드
트레이스
TOUR
위업
크로즈
김민성
군부대
시판
미스티
등신
두고
뽀뽀
민경
비슈
타의
##재호
총동원
##난방
##ister
에른
마요이
맞춤법
손익
##얗
포세
검진
혹자
마리코
흥원
유희관
라이프치히
리플레이
동티
결판
마나미
SSS
시타델
두고두고
급사
Bus
아연
최현
켄치
주마
해괴
타이트
##달리스트
여태껏
차우찬
방독면
로커
##토메
석권
##press
행진곡
사표
참회
영웅전
헬렌
리오넬
##scape
284
386
멍청이
##상하
국호
백동
##워스
멜라
플로어
##쯔
##민정
네드
스타드
도플
피폭
##락스
플라밍고
김유신
으뜸
카본
진주시
넘나들
희석
261
벅차
박원순
하물
##자원
픽스
004
Shadow
VF
추증
반점
##드레드
꿀리
비비안
리븐
선례
##ress
지류
##해방
엄친
##ada
정준영
밋밋
오락가락
-.-
Av
VOD
소국
극락
령우
렐리아
초석
종주
##현상
흔드
클로즈업
##태자
Arch
상세히
알비온
아니마
결산
아스널
불로불사
OFF
이학
이딴
로다
##당당
니다
##onight
유충
후폭풍
금괴
sky
아스트라
파니
숙달
Dep
배타
##las
발표회
시흥시
깊숙히
정년
무위
개근
백승
윤서
마사미
햇살
박보
##bow
보시
엘자
아라키
정몽주
YES
원킬
##컬레이터
에스컬레이터
테이머
염색체
일렉트로닉
##afe
du
더치
남군
##amage
##스티안
이지선
송시열
이등
오르내리
보호법
돌림
##금속
종단
용법
가루다
플릿
프란시스코
여진족
번거롭
투석기
여간
물들이
헤로
피플
추하
대서양
TECHNIKA
직권
##ives
Ve
구력
산스
비행사
김동준
##oid
현은
터득
러버
황위
Two
방랑자
아만다
한식
항법
##APP
##쿵
277
의례
##디슨
##토크
쓰시마
케이이치
##큘
무한대
밟히
Ka
did
조아
유루
근본주의
인민해방
인민해방군
영상물
으르렁
경쟁사
이정현
Hz
퓌
비엔
앞날
커서
사쿠마
##닥뜨리
개척자
라쿠텐
Fro
##나물
축구팀
Chapter
Tur
시테
시럽
감화
##뎅이
내통
폴로
레노
맞닥뜨리
보디가드
이택
##어사
성교
추악
항변
##MM
야성
해일
우림
##누이
바렛
야후
후지이
살생
묘역
맨션
강화도
015
##캉
고관
조서
노포
월경
관저
용검
양준혁
##ᆸ스키
수동변속기
비빔
파급
파스칼
##잭
부영
정병
진천
주창
판국
요시유키
김태원
호수비
베네딕
재조명
독려
##쿠젠
스핑
아발론
하기
추존
##ini
Intel
지양
습기
전군
남송
순혈
스테파
870
안일
병들
323
율법
Leader
신동엽
전의
키코
인문학
금산
4500
##맡
코에이
양키
민가
통합진보당
하후돈
티라노사우루스
920
TK
타바
타블로
디안
완충
꼬드기
딜레마
화염병
베스트셀러
부지런
Vi
군가
하루하루
Head
Cost
KK
상전
강신
덴버
크리스티아
사가라
불고기
난타
프리스타일
테마파크
오디세이
##쓰럽
동종
##회원
커세어
덜렁
주구장
CHA
노원구
주구장창
UD
아탈
전상
빅스
총평
민주자유
멸칭
이종범
##갱어
쌤
도플갱어
민주자유당
##ja
##비안
핵미사일
려는데
전망대
신우
왕릉
악동
창녀
희곡
뻔히
캔자스시티
##AMP
동갑내기
리보
피살
무심코
셧아웃
프란치스코
생모
키오
귄
나잇
료타
Christmas
Earth
##97
파쿠
보패
형광
금사
##골목
아시카가
친선경기
Silver
Burn
##무사
양극
이범호
갔다
미학
군의
294
##먼지
특촬물
갔다오
NBC
##제철
추신
발사대
대문자
옴니버스
Tok
이왕
에무
비서실
miss
대청
잿
녹턴
현대인
##샨
마닐라
Global
##CO
황보
레즈비언
내시
히데아키
공수부대
영락없
Double
모피
우러
척탄병
수액
소체
북스
레스큐
동력원
리츠코
강정호
.?
세피
씨족
냉소
HERO
work
아드리아
##디트
베오
##ones
러일
274
Street
다운타운
신일본
세기말
리턴즈
킬리
효능
뉴올리언스
##Boy
##꽝
가꾸
##시설
위례
영하
데포르
##티엄
변변
끝자락
악세서리
펜티엄
Hand
JO
완행
##친왕
Want
XL
다든가
학비
메노
코코아
원산지
휘발유
##ASH
트랜스젠더
이끼
리의
포인
##ery
식탁
고우키
터무니없
하찮
글귀
##베라
050
Cloud
하물며
다현
자시
버클리
예보
여성향
003
중흥
선덕
타카다
2800
창립자
무반
타령
누에
Reb
냅두
===
네츠
증류
LD
어태
노크
리무진
반다
267
무한정
수색대
랴오
Techn
미발
경춘
각개
담화
노르드
거침없이
##상어
한일
동고
##보성
##바꾸
농지
338
리미터
착실
##충전
소지품
##껍질
지크프리트
##앵글
코메
감차
농가
아케미
메디치
##KE
나침
무디
백정
아웃사이
EDG
아웃사이더
김나
병마
라이노
쇼타로
치진
박력
빼어나
롯데월드
천문대
big
모질
##미널
내키
피스톤
왜군
##aint
아츠코
미케
##부쿠로
선왕
외판
지법
치곤
ind
음독
박선
머금
친히
널널
김정우
##ii
교도관
##카이저
##port
##ues
아트로
미주리
등불
신드
##홈
준말
캠벨
렌지
젊음
보헤미아
오차
정월
##타스
리퀴
파시스트
재충전
김풍
곰팡
세인트루
동대구
맥시멈
Hal
이능
로엔
현과
##코비치
경차
연작
황교
오르간
어가
강석
번주
순욱
법대
271
브루드
PART
##츠로
대웅
미온
영식
궁사
268
명목상
법조인
얽매이
기침
사간
실효
아유무
미확
단풍
츠노
##67
여초
복직
샤드
키릴
트라이앵글
조군
중간중간
스즈카
##OTHER
MOM
맞은
논평
세르히
##전등
재원
##ating
유일무이
through
Thank
제퍼슨
##ken
하버
불후
##탄두
##쿠르
할퀴
의무병
싸이코
헉
##거품
켄신
화물선
하이스쿨
##gen
나일
정단
성나
야고
해동
참배
경기병
임성
경제학자
꽁꽁
부득이
효성
전란
바네
##쿠보
케이프
모터쇼
찻
아야네
어림
바티스타
Second
점성술
Oper
권세
##천후
금제
거성
수풀
베히
수원역
라던지
부군
조전
영연방
Pur
위자
곡식
관계없
성장기
타임즈
맞은편
##팜
임박
블럼
체인지업
플란
몰카
마츠오카
신앙심
마쿠
Studio
415
Cho
안치홍
##하타
표차
항렬
순양전함
박대
루시드
TUN
수스
반미
응원단
풀어놓
고지대
DREAM
치장
베일리
신겐
##HS
로터
##aa
오선
해법
##iko
헤이안
카스티야
중문
혈투
수건
청정
환시
정의감
Vita
##YO
장부
핏줄
##bert
서강대
give
박이
답니다
무지하
야쿠모
통찰력
MAR
소이치로
서른
반정부
액터
초음파
AU
노시
475
주사기
che
##KA
시현
리암
코야마
휘장
수력
뭇
유럽연합
퇴계
값싸
퀸시
주거지
관서
딧
287
징조
헥토르
##꼭
자스
카림
탄성
Hor
##jor
이발
학당
빵집
##사건
문득
산개
끌려오
엘리시
치료법
Group
Electrical
Water
병조
폴드
codice
RW
갬
부산시
앙드레
모텔
조민
##화학
교문
귀순
##딩크
Qual
외딴
스테파니
LIG
바꿔치기
라네
마천루
시무
자파
당사
최수
##발트
촉발
1880
서사시
가평
바키
성좌
손주
괴한
헬름
아차
##나도
자외선
천인
머스탱
모이라
대마초
Sign
XG
필중
레이프
블로거
석가모니
문산
실프
현충
쇠뇌
배재
##던스
불사신
##ael
파이퍼
스위프트
맴돌
트럼펫
매섭
##oman
프로그레
수집가
짜장면
##도록
우완
경향신문
곱하
이웃집
리네
##홀름
다항
기우
개의
##stal
암살단
뼈대
거실
무속
##쿠니
다이몬
Gre
XIII
##랙
이찬
잡이
##lad
자유도
##꾸역
먀
아슈
라엘
호동
악순환
이태양
꾸역꾸역
Vers
피넛
부녀자
##ior
조식
노자
패튼
##토쿠
톳
별빛
홀더
닭고기
기하급수
수줍
Jr
Wel
비버
끌어내리
Radio
떄문에
HC
아낌
연시
신오
백혈
국민정부
녹색당
다로
몰타
too
롯데마트
태양광
황건적
연신
요셉
히딩크
날조
기능사
이효리
나방
츠키
318
##꾸러기
Bill
데크
뻗치
지하철역
개정판
오명
공덕
##개발
청송
에이즈
##ANT
카스가
원더걸스
나경
대식
피조
740
가나가와현
이부
금리
작업장
+,
상환
코모
현도
##imate
오프사이드
휴식기
##니카
전회
포용
포교
자유투
레인즈
프로그레시브
피나
송영
##기아
변국
완파
침례
넥톤
폭풍우
조리개
모비스
축약
핏빛
##uz
국명
하이데
##미경
##막히
친자
육손
켄타로
디스토
의문점
##ipp
노량진
시역
##하트
##대전
소타
노구
##왕후
Right
##만장
서천
본색
꼬치
샤라
Know
모더
소독
서핑
메뚜기
Cross
##uff
타에
##호테
오리아나
그러다
류중
묘호
키리코
플랑크
Speed
는다거나
티라
309
590
이병규
##셰비키
이레
여몽
중보
성심
애드립
절기
몽크
마틸다
조소
Original
Sin
상작
유급
히지
압구
##ters
대주주
마무
일장
단두
##포츠
식욕
송강
스티어
DOS
캐터
병무
윤석
양산시
세리아
알토
알콜
플로라
탈레반
세하
네빌
달렉
투병
쇼고
휘어지
##axy
run
말벌
##챙이
가뿐
교동
##usion
으려다
스모크
##레프
호그와트
정강
##비나
음유
흑자
##이스트
##세르크
##애자
타이라
옆면
마세
##roid
모자르
초대장
END
god
##come
화풀이
중서
첫눈
밸류
대원군
카게야마
나침반
TM
##수선
강현
아야세
탐내
read
남동부
조타
매립
묵살
Where
막심
슈퍼컵
국제법
리베로
이방인
Episode
#==
케임
##당선
Extra
시진핑
##뮈
##마켓
부르주
정우람
카탈로그
도저
##부아르
친형
미치코
지와
월남
개역
포에
황성
259
조지프
유러
TRPG
Ki
바타
신랑
급부상
kW
##크ᄅ
##쩔
고승
대작전
비위
안재
알렉세이
호흡기
자폐
인코
입안
##바오
스탈
샤론
기념품
두근거리
VOL
배꼽
현수막
장권
연선
안쓰럽
라일라
##ative
질기
빠짐없이
pack
수려
소하
요트
보상금
타케다
끈끈
##겹살
치토세
South
노회
머리띠
김성주
일기장
일회용
video
보훈
픽시브
해적선
모노레일
아트록스
##live
원석
문물
저수
반지름
Lab
##68
공론
문맥
호건
디나모
Ju
하중
동태
네스트
슈미트
전사자
힐데
Born
유장
칫
관리국
지구인
야마노
채무자
유러피언
공법
##키드
노도
성내
불출
##버스터
별관
삼겹살
씹히
쩔쩔
little
size
인건
리시버
야노
김효
청록
##북면
중요도
브라보
물러가
와카야마
불시착
Mill
Us
지병
##젤로
혹성
Shin
잡아당기
Land
신계
신판
역경
축산
##UMI
최전선
더위
친딸
팝업
Pres
유라시아
COL
전말
신궁
살인자
Walk
기정사
들먹이
역겹
김옥
환전
282
정규직
집단군
프레시
신조어
기정사실
조진
티엘
오카야마
굴러다니
노총
원샷
배영수
검단
##stic
POWER
TNA
하아
우도
결실
##창호
꼰대
진우
역수
##저냥
느닷
오오츠카
탁자
뷰어
##차지
기말
무득점
개사
니켈
직류
누카
휴학
나카타
할로우
Rel
외고
승상
정상인
춘향
로버츠
##ji
스컴
류중일
FP
도매
대손
탈선
##펜하
해산물
PRE
이스타
전뇌
슈투
마사코
효고현
Some
유종
물병
수호천사
하후연
이마스
도이
도킹
라브
장어
##받아치
취약점
Mid
##ks
가나다
확연
투아
##벼락
문호준
htm
유생
답장
기모노
friend
부심
발원
향로
니시무라
오카베
히다카
샐리
준코
주먹밥
흉내내
인덕
명회
실베
Chall
노벨상
적출
프로즌
펜던트
##마타
009
그레고
피폐
외삼
##과학
강태
숍
아키모토
제제
장태
호퍼
점퍼
종장
파이로
퇴위
조중
저전
317
이성열
알렉산드라
may
##yl
안목
양승
약관
중앙부
블리스
김재호
와카바
SoC
론드
사대
레더
스탄
마사오
바운스
후렴
그냥저냥
홍시
민병헌
청동기
Iron
##**
민스
혹한
아우구스투스
세인트루이스
도다
바일
KL
발길
속어
이동국
##웃음
마르쿠스
연주회
##셔리
Ref
동질
##바도르
식수
백금
올랜
런들
럭셔리
라던
콧수염
남베트남
##ora
낙오
옥시
##깍
부왕
##정보
골자
##트라인
##akes
West
car
다든지
##고시
동과
##유사
버틀러
재지
아오모리
승조원
믈
상심
포우
강선
역주
티티
279
창업주
미추
승단
십이
Forever
골판지
로치
수경
298
##깨우
네덜란드어
##다임
리도
자유민주당
아라드
꼭지
청소부
이카리
거사
부다
##슈타
카즈토
카와이
##자치단체
짜르
수혜자
성토
카스트
존엄
근절
패러다임
##REAK
턱없이
black
##vin
장차
난방
일깨우
선양
이봐
##풍선
핸드볼
##here
기가
나위
외신
##hel
탈북자
댄싱
File
VV
하태
정희
코보
계명
폐렴
가입자
##aeb
장원준
이혜
##퉁이
순애
손재주
길버트
칼초
츠츠
하라다
처박히
명반
문지기
##공학
##aki
아프간
저작물
이회창
하코다테
Dynam
나베
불순
청탁
칸타
int
룸메이트
세르히오
위헌
매몰
패링
교통카드
##IZ
전병
폐역
항공편
융통
찰지
카운트다운
##FE
시의
급박
곤잘
빨아먹
라운지
부엉이
공권력
##ese
##raw
주치
그레인
성정
걸출
아르토
협력자
기급
유달리
성찬
스기타
people
##부패
개굴
데블
헌제
##HO
바케
부정부패
WBC
느림
채영
COST
##of
##ault
현생
속담
##평리
제스처
##큘럼
고배
356
훌린
선인장
해시
갈매기
278
어벤저스
오승환
모랄
위도
##유희
호실
붙들
##라시
인편
신보
캐피탈
키라리
귀여
##볕
신대륙
도당
임지
센텀
전근대
Ray
고열
제미니
구파
남초
갈레
다이쇼
020
ha
mind
파쇄
김도우
##셔스
comp
드락
Circ
이족
전희
인부
렉터
##바바
함흥
테트리스
289
윤희
##edia
올랜도
Lord
##IVER
##버러
씽
깨부수
탐방
쾌활
컨버터
##퀀
##티에
참작
정전식
리니
##네그로
단체장
커리큘럼
경시청
촘
보이콧
루도
급작
미에
메키
극작
전가
물기
하루나
##돈나
수십만
미라쥬
이데아
에어로
대들
그럴
협소
=,
비무장
##주얼
김천시
용가
심성
Prot
사법부
림프
동음
레게
증서
2300
신분당선
다와
숯
조규
소신
테트라
검수
금강산
보름달
ElectricalBoy
Award
수현
고명
고노
사륜
폭장
칼집
크로마
카이사
지배하
소대원
아키하바라
뒤흔들
NFC
##사메
일본도
LT
체스터
듄
아킬레스
##삼키
미군정
Collection
대항해시대
에르난데스
아나톨리아
다혈
##연기
악성
삑
이와타
선지자
##꺽
##cc
##와키
히마
남서부
옥스퍼드
Pet
sl
츠구미
미하엘
박민우
미확인
OL
##뿍
타테
후마
##실험
차이나
쇼지
sur
장모
게임차
매니악
사형수
미성숙
소풍
스토킹
월계
원균
캐주얼
##날린
910
집어삼키
##드레날린
Gar
방도
버질
남장
참새
히비
조인성
라치오
위배
산양
벤제
##승지
백모
##맞이
안무가
아랑곳
로랑
경종
키츠
속셈
외질
008
실패작
1889
알베르
하이드라
가디
시미
##수소
##처치
269
솔트
냉면
오파
총기류
JS
가레스
위연
입담
판치
이베이
한성부
학동
##텔레스
들판
차인
슈와
##라도나
##끓
하카타
앵무새
병약
황충
굴하
룩스
스완지
텃밭
그럴싸
mon
건널
나이키
나이토
브리기
건널목
##사쿠
장마
식초
플레이스
def
지존
정용
상명
카잔
카락스
치비
재치
망정
책사
핵탄두
작사가
TER
노니
물거품
쿠소
엄정
마쓰다이라
LH
##냉
초롱
아마게
펜리
APEX
후쿠오카현
mag
##쭈
소코
컴팩
경영진
레버쿠젠
벤제마
Wild
고액
집념
빙자
핀잔
Plat
시퀀
극치
돈독
지휘부
아리스토텔레스
Ze
박시
혼령
온실
링링
교육학
리카르도
군의관
구강
압록
다혈질
##ios
메르스
이케부쿠로
형량
##andy
스핑크스
하즈키
입헌
DRA
도재욱
보면
조총
에이리
골목길
지느러미
예절
##제트
산신
스턴스
지회
강병
탈리아
선취점
##uh
##행성
##멜로
바레인
리호
내리막
벼랑
백과사전
홍천
마음속
가속도
쥐어짜
은닉
유두
##들레
코크
예우
##놀림
권외
금관
궁기
폭발력
토모미
##이야기
##공산
급전
휴즈
백자
##이어티
이로하
||
주나라
마론
라피스
##개토
순경
독약
민물
296
리서치
fire
##LV
그나
##닉스
치노
초성
브뤼셀
히이라기
도탄
서너
명가
##공신
곡예
득점력
##킨슨
주먹질
간청
곤봉
444
니시키
##메이커
후견인
에른스트
RK
마스터스
둔감
오카자키
아드레날린
부축
비행대
ass
리튬
채태인
급급
답하
배기량
##일점
##ouri
EXE
콤비네이션
음양사
자영
스네이
당구
혹여
##빽
에트
로한
민호
용기병
1870
스톡홀름
슈가맨
소사이어티
의태
구포
프리깃
순정만화
로베르
화강
호지
돌격대
김유정
한데
안위
감점
##lear
보수주의
미적분
저마다
직각
양질
스타이
협찬
다이어리
운전석
리벨리온
바움
##데자
차역
국화
##파인더
광개토
호소다
일과
방조
니모
국가원수
띄어쓰
감염증
\[
닷지
##인명
인회
레우스
외가
트집
품위
오스트리
빽빽
Lim
지탄
보관소
##ISE
fun
일말
쓰촨
앙헬
690
imp
##스톱
국고
del
font
고세이
1884
에디슨
Ban
빌더
자료실
MCU
백운
행정관
리자몽
##뷔
은발
적수
정모
지어
명과
##노동
##불교
박정현
전준
##아채
위버
데우
##물질
체벌
몸담
낚아채
리우데자
외동딸
피조물
리우데자네이루
자괴
현우
닉슨
IL
하소연
조재
산역
단두대
TJ
제창
코츠
384
리스본
##동사
스카프
시아파
읍내
시찰
소바
서성
피디
초속
006
삼성그룹
브리기테
Hall
면전
파하
281
충전기
측정기
토벌전
폴리곤
오현민
Mich
WD
wr
##xy
용수
still
지리산
사이좋
Bon
상큼
토고
광원
297
헬륨
카즈오
코노미
Vf
##ᆺ물
리소스
코뿔소
##두라스
군무
육전
온두라스
앙숙
와이즈
##istory
루스벨트
##심원
EG
KAC
구전
신마
코오
스포르
여호
부응
Child
관악구
##히메
푸아
##드롬
CONC
몬테네그로
Jump
구심
영과
데니
레이즈
토모에
미시시피
에타
공보
장경
아야지
임파
옥황
336
포니테일
Round
몰수
옥좌
멤
##폭스
기슭
사부로
우표
##받이
##푸리
하여튼
서한
장고
교우
손전등
히로아키
만신창
대권
만치
무주
Mart
Nav
Wo
파레
쿨러
카산드라
##ba
배설
증산
##ising
베르나르
히라가나
ft
팩터
랜더
샐러리
듬뿍
HAPP
전입
스몬
홍설
윤하
Guard
##궈
##리지
아무로
격화
웨슬리
롤스터
베르디
박해민
Eyes
##uel
아틀리
과소
포춘
강룡
그리움
##cept
요금소
수필
##추리
브리타니아
모래시계
내디
##태평
770
레스테
약혼녀
센티넬
전년도
애덤스
박건우
##TO
비보
음직
빛깔
레드불
꿰차
요오
워렌
헤비메탈
하등
도일
유현
북측
Dist
지에
조스
##힌
카발
군소
씨스타
##잔치
동반자
조안
입금
##츠바
온과
##찌개
농축
네이마르
투덜거리
경춘선
Bas
이지만
##스토
적설
합전
츠시
##땀
Rh
우타이
쿠다
앞바다
대법원장
##ᆫ시
도축
수화
경무
##타리오
음차
30000
잇달
엿보이
Ball
##ever
세군
보이저
메구
식히
봉선
##reme
컵라면
히토시
sub
아보
공제
무왕
데자
역린
음악실
아울렛
낚이
하이바라
생활비
##oke
##뇰
RD
##토무
독식
삼지
where
플렉스
어조
유리아
후쿠이
페르디난트
케임브리지
tell
뤄
대야
와리오
##비에
환하
아마미
라세
만월
##아넘기
요츠바
니이
독학
녹아들
프시
콘스탄티노폴리스
Royal
의향
적병
수족관
OH
전초
포경
호죠
##여왕
319
고춧가루
GDI
으레
노파
창백
휴머
익스플로
서장훈
나탈리아
익스플로러
par
비탄
종시
폭렬
에이트
옮겨
유키나
기선
무희
노상
행패
합본
골인
거상
낙엽
Inst
삼국유사
빚어지
흐릿
스벤
안부
##호란
종북
투데이
팔콘
떠맡
품격
에뮬레이터
흥선대원군
가논
주무
코버
예프
##inity
산불
권위주의
LEVEL
파우더
American
two
온건파
##ker
도큐
라플
화법
장량
목판
홍백
할애
##푸드
깁스
제원
밥줄
##56
##cer
아라곤
##똘
핵실험
부여군
켜지
후훗
이티
마역
타크
파스텔
반투
대합실
양력
휘청
RM
가파르
노로
우현
용마
##캐로
마스미
내동
신월
양구
새뮤
티미
교육자
미덕
리링
생화학
난항
잔나
860
##찜
록스
로베르트
무브
##ᆯ리스크
배짱
강동구
간선버스
오벨리스크
송창식
합참
책자
고환
커쇼
##쿠마
페레
철조
마사지
열람실
VO
에렌
와전
안지
김철
석양
##캐롤라이나
tri
##하우스
리피
리그컵
결정체
326
Style
헐리우드
라그
히루
천거
김재현
Parad
sing
스며
번즈
머릿수
익룡
산청
406
입장권
##닥거리
항해사
언동
어리둥
어리둥절
##타나
팀플레이
박은
##ddle
어퍼컷
둑
종가
##추얼
##스트림
벤쳐
성전환
들끓
제군
동공
카포
카파
도미노
제니스
외식
네즈
Luc
정청
안시
야라
호국
저해
쿠치
열거
블린
##대성
알베르트
그래비티
##acle
보안법
마가렛
관현악단
가곡
##가면
##산맥
평형
덕아웃
##제일
잡다
##를로
수감자
고출력
도토리
오목
##역학
##vers
요시키
호쿠토
##ugh
##BL
##akao
스테파노
Fa
코고로
산수
충렬
292
젓가락
올려놓
first
보노
피라
요이치
신랄
심수
레이건
접히
참모장
##ㅋㅋ
카고
살의
Stop
숭실
화정
차녀
ᆫ데요
real
아지므로
무브먼트
##기병
##빌라이
포부
디브
꽃미남
얕보
진서
타카유키
비올라
욱일기
마샬
padd
대당
##ᆯ리나
인품
광휘
NEXT
닛타
만무
넘나드
덕수
피오나
사디
장외
장년
초이스
약소
함경남도
영능
보내오
Bell
HO
등부
브로드웨이
유공자
가모
재석
##alth
이치노세
친환경
~!!
신족
롤백
##르츠
2030
신이치로
흑사병
사우론
바네사
타박
루츠
커즈
교통수단
자책골
중재자
고물
##자루
비수
리니지
임산부
##ᆫ스키
찬반
영남대
##73
노안
베개
##배추
##악단
지상주의
곰팡이
하일
보궐
마돈나
육사
크로커
##샤오
벤투
##걸리
삥
칼리스타
시한부
OUT
이간
##나항공
미연
선라이즈
니시오
아시아나항공
Cast
돌프
앞발
언저리
1885
##즈미
##민당
##덧
헷
풍족
람다
곤잘레스
펜리르
사하라
적벽
영걸
엉성
양성소
홀딩스
##ule
MSX
2023
명문가
제노스
##른베르크
군관
##락부
극비
##글거리
대졸
엔드게임
Golden
꺄
폭정
와일리
배합
레카
군비
Alex
기간제
촬영장
해적판
라미아
알폰소
Our
은사
드니
##핸드
##rie
겹쳐지
exp
##trl
서유기
박헌영
자구
수포
소희
모리슨
장타력
VII
순결
##ᆫ구동
스스무
시퀀스
공해
루브
망전
바쿠간
섬멸전
##43
작열
니노
교가
3200
STX
모우
카요
설욕
외톨
프리뷰
힐다
네이팜
스파게티
글로리아
ref
떠돌아다니
이씨
##스태
노와
찬물
Far
##ᆼ굴
아뢰
##ᆫ견
남우
천억
금품
매킨토시
느닷없이
FU
암드
then
재판장
묠
##ᆷ픽
##슝
얄짤
얄짤없
HMS
테네시
퇴적
##갈기
느릿
스트릭
카미유
Dear
잽싸
##min
##이시
성진
##랜더
##이츠
요시아키
불우
대표단
늘이
기관지
익주
모리타
이주민
카세트
서당
##타주
##유행
문턱
코스터
##디부아르
판금
##석탑
베츠
축조
친위
김영철
멍하니
코트디부아르
Flash
손승락
지피
1001
##슛
졸전
육탄전
가브
##데우스
우시오
호성
식료
갑각
아킬레
##ARE
##눈물
파피루스
?"
고바야시
폐해
셰필드
하수구
유성구
강릉시
가맹점
애꿎
조반니
아산시
은유
레비아
교지
페그
국민학교
위기감
##층석탑
연대장
이지영
레비아탄
rpm
아서라도
군신
토호
약학
요시타카
무인기
Mini
수나라
중신
장서
활짝
##애플
울먹이
##ᆷ피스
Stars
키노시타
시망
##시험
##인구
레이버
악덕
역사가
연주가
##ought
전유
군체
아라카와
카시와
수성구
새뮤얼
Code
내다보
분별
난바
에스페
허리띠
김수현
설레발
이츠카
지소
최충
애절
##ᅳ랜드
세계사
일단락
트레저
성전사
고을
대란
라헬
정판
화형
선화
##바이크
GOLD
MIN
영세
카슈
논술
상점가
황교안
Attack
라간
말풍선
종편
간디
페스트
회사원
남녀공학
함의
철창
트리스탄
뮤츠
대관식
콘스탄티노플
윤성환
컨설팅
전등
왕왕
류승
샤프트
정조준
html
고티
나영
대연
##파스
덕양
##iter
온타리오
##랄라
오카모토
##ucky
other
##ko
##por
##ᆺ사
이데오
형질
총상
깨우치
갈증
블록버스터
must
song
##GN
장충
더그
겸직
레지스
휴게실
##ternal
디비시온
Ti
Ur
영제
원당
배팅
불합
레다
취침
엔투스
705
오버래
##피카
예종
##천하
간절히
염라대왕
pp
~,
뜰
##AV
집무실
헬리오스
ret
로킹
연개
예멘
증감
칼슘
343
공사장
BAT
단짝
염보성
도민
자업자
자업자득
bec
구례
실신
토니아
탄광
##amu
서양인
Rap
기주
815
사마소
##ᆯ리즘
피눈물
##orrow
늘어
미야비
생몰년
사이타마현
의형제
릴리아
투시
830
Mob
background
아탈란
공터
인덱스
##문고
성관
발드
채권자
양아버지
총학
쿠르트
잦아지
Ven
WOW
##kn
주니
##주머니
안가
뉴타운
아카바
부르주아
로큰
여분
상연
##소디
야근
##탈출
답례
##못하
419
삼국전
그리스도교
Engine
padding
app
노모
노점
출도
캐내
점착
병동
책장
아키즈키
533
고고학자
NTR
친일인명
성북구
친일인명사전
도제
애와
군산시
##예술
벌목
야구팬
331
트래비스
나나코
이택근
act
##bat
파내
빈유
조용필
PVE
##gar
명기
485
쥬스
hellojo
##po
가용
무카이
선입
산둥
난국
히타치
우솝
나단
수구
매국
음악회
휙
계산기
line
##under
타계
291
패럴리
지반
중의
송승
구자욱
TNT
모치즈키
Chaos
이바지
##eca
검사장
평안북도
;;
Yo
##Force
마라도나
모드레드
행실
허스키
##패닉
어딨
염주
클로저
히스패닉
크리스티아누
##리쿠
코에
역자
변성
허기
극렬
곤살
무소속
탈리야
소홀히
break
이요
마정
타전
영자
니토
홍길동
퇴색
뒷골목
오피스텔
깅
##치산
유익
터로
절충
##박쥐
흔쾌
렌치
뒷이야기
록키
가역
요기
용례
완다
미카미
여차하면
HYP
##땡
정평
안타까
갈림
Princ
박주영
Fair
버나드
멤피스
npc
차수
서막
양배추
철기
담론
꿈속
##ORY
##그래피
레모
국소
판문
크리에이
국민은행
실종자
##uke
컴팩트
크리에이티브
GUMI
##도그
집안일
히메네스
하하하하
되도록
사철
부이
미라지
내재
##레온
준주
322
요격기
쁘띠
아하
포리
쉬프
##케이트
의정
모략
세크
##루크
기타프리
빗발
always
기타프릭스
Wave
곤경
도륙
잿빛
킬라
조선왕조실록
Got
##42
오에
료우
435
중추원
아방
아칸
정순
난립
보병대
##셔닝
아사노
낭독
캣츠
포지셔닝
LW
원이
참견
양주시
쿠션
어대
절박
케모
border
fall
##자르
노이어
개점
매디슨
번리
천신
커드
쬐
몸부림
타이르
351
겁나
비대칭
애완견
CAN
DG
부랴
레퍼
간만
빛내
Galaxy
OZ
성냥
불변
표제
북송
브리티시
하비에르
가와사키
소포
노심
네리
충칭
러니
중국식
망고
랩소디
##olding
EVER
아난
비공
군락
혼신
도독
매터
호통
체공
삼보
친아들
##ᆯ로기
성동구
가부장
이데올로기
DN
오존
포카
문전
잡스
갖은
좌지우
##USH
좌지우지
Tell
free
사용량
급유
페터
787
렛츠
성상
메다
팔콤
야구팀
##채기
콩트
우스꽝
MID
북해
스탑
505
##ITION
게스
히바
403
516
과감히
상파
간다르
준위
##ᆫ곽
로리콘
간다르바
##sung
최윤
남도
342
후지모토
펠로
Face
어렴
특명
황정
드리우
신경질
방문객
주종
상쾌
이브라
찌푸리
색인
##ota
탯에
훼이크
흩날리
##드랑
ESC
영유권
히지카타
지고
수증
무쇠
구지
도로공사
도레미
방청객
Ak
##ᆻ다가
나트
오답
루퍼
열량
쑨원
'"
##후무
##려먹
##연구
다니까
전무후무
사절단
유민상
로큰롤
live
신구
##고비나
##체고비나
##레알
히가
412
개최지
선제후
추신수
find
거병
우발
니트로
검객
평안남도
모씨
목도
눈덩이
봉승
상영관
연제
박광
퇴보
ACL
뿔뿔
lea
화백
소냐
명군
##영화
아리안
아카데미상
##aeboo
라벤
비술
성덕
음정
샤나
트래픽
학살자
갈림길
##sm
가결
은의
적개
##전드
리시브
영매
번뜩
본방
스트레
골동
볼셰비키
Dawn
##/-
성군
##피크
설산
음각
습도
##훈장
515
가독성
Ros
시문
라보
등수
##itter
콜린스
다리아
사그라들
적반
교보
곡도
에어리얼
스테로이드
재정부
dark
노코
박서
Caeboo
mp
##cat
시물
네라
새하
베르트
슈티
앞길
395
랄라
키라라
이지훈
나치오
골칫거리
후루카와
year
ㅠㅠ
어버
왕십리
백기
억류
밀림
내려앉
쑥대
und
##하장
형평
손보
텍스처
유영혁
은평구
ROCK
##려내
남만
두리
독차지
Adren
project
비사
신스케
단판
엇비슷
안중근
경품
항생
극진
렌트
상상력
쟌
마르크스주의
IX
##ᆸ니다
사속
자학
적폐
복병
홍석
328
이끌어내
show
Element
##dom
투박
앞지르
##극상
##꽂
##pha
제너레이션
흔쾌히
Pri
버벅
세계선
떠나보내
빅리그
나카야마
김정민
함경북도
군국주의
포인터
WS
##라토
후각
웁
##omet
응축
야스히로
쟁점
##스윙
장광
연세
카멜레온
Tig
##ique
##사유
역효과
식충
산도
블레어
리퀴드
kill
##사항
지상전
옥타비아
Crazy
이직
##러레이터
치기
##그네
##enz
암약
깨트리
현대차
사우전드
액셀러레이터
도살자
은월
더니만
##ript
MBT
이코마
패럴림픽
선과
##즈컨
1850
제트기
당뇨병
Lady
RNA
다빈
사만
사별
윔
한시
장석
최병
캐럿
절개
환희
마리우스
블리즈컨
숙련자
아킬레우스
GV
이권
나바
세레스
##의식
손등
스트립
뜯어먹
고성능
핍박
레퍼토리
LUK
##HA
형무소
프로야구
외삼촌
팽이
정일
타니아
북로
감소량
##ima
고속철도
공주시
외할아버지
ND
이동식
스펀지
눈여기
##닐
참관
내려다보
재건축
##뻑
사아
자성
경은
소작
야훼
아야코
쌍방
얹히
스파르탄
선풍기
이매진
가타카
민생
##abe
잣
라쿤
성행위
카ᄑ
하이네
언어유희
토스카
카와사키
아낌없이
Away
과세
찬드라
사오토메
안드레이
오스트
솥
선식
신석
풍조
김종필
슬리퍼
시가전
파인애플
FTA
계진
혈청
HAPPY
##스태프
주얼
##렉스
503
타카라
항공전
inline
옷장
솟구치
##카운터
새하얗
##파람
퀘이
원정군
공작원
무라사키
이스즈
head
마일즈
지부장
케르베로스
아퀴
도노
내보이
멥
밤낮
통계학
##ruct
최준석
class
##소득
##티넨탈
선수상
컨티넨탈
399
대미
화웨이
무츠키
식판
금새
침울
타입문
Point
이항
의술
정봉
비클
문답
배영
안타까워하
##GM
국인
페이탈
기부금
서대문구
#.
##FS
모코
유학생
플립
##새끼
흐트
쿠로다
박정석
Block
##iam
##iec
윤곽
덮밥
Missouri
던컨
당해
파타
재심
돈벌이
오리사
한남
팔아넘기
클링
짜릿
거제시
Armor
Train
하바
관공
일차
비만
연임
치켜
매표
##급부
샐
벡스
지리학
도야마
##만큼
설전
허탈
철원
##ffect
반대급부
해안선
이만수
구치소
바바라
헛스윙
이호준
인카운터
피즈
생각없이
괴성
까스
5500
과도기
##뿌요
Evil
신태일
뿌요뿌요
"~
부검
바스트
유림
현기
##중력
아이라
소방차
다카하시
툭툭
TIME
목회
검호
난파
낙관
가라테
가이드북
묠니르
Bul
##만고
외척
##런타인
밸런타인
부담없이
뉘른베르크
BN
call
차도
강재
청천
부산대
맺히
지우개
들여보내
폭소
허망
HTML
서랍
Low
노루
체념
잇세
추노
활자
송현
낙랑
나무라
현지인
응급실
Ring
장호
회송
심지
범상
밀키
경성부
##47
고충
소학교
세관
숙녀
컨셉트
##팔이
이준석
진시황
Wal
ever
조잡
개심
터닝
플레잉
백련
류세이
가오슝
메디컬
Hon
하숙
에스텔
카베
##통행
친모
##unt
코칭스태프
파올로
Lea
문부
배성
레조
양서
070
아키히토
##apon
이시하라
고위직
호크아이
카시와기
"-
##mar
이채
레이아웃
라일리
부탄
##트가르트
장유
외대
아야토
홍주
슈투트가르트
Count
GBA
반시
진부
349
섭리
훙
박문
윤용
전시관
마다가스카르
##붐
##보르
청양
칼레
겨울철
헨더슨
오비완
XM
hel
이두
##지휘
버추얼
신드롬
##은성
##ste
##uts
무참히
##묻히
파묻히
패주
군종
금남
난처
서로마
기관사
염구
배틀러
브로커
지형지물
연산자
대국민
win
테임
마경
최인
##세다
얼추
최신작
부평구
핸디캡
차태현
달성군
뇌신
##IDIA
구로구
도니
필히
백귀
브리즈
오동
소카
매미
##내미
점토
선거관리
익산시
안정환
아자젤
선거관리위원회
Vis
##gu
타이푼
##comm
콜럼버스
하극상
기막히
만석
성황
리신
낸시
해경
군악
환마
##oday
쾅
이와테
미세먼지
적반하장
성간
세그
개고생
존칭
잡아오
##악산
341
처사
회선
##롄
떠안
하이드로
드러눕
##earch
TI
적십자
502
신호장
##트라이트
##NER
거포
비조
니카이도
터전
##팔트
서양식
칼리파
아틀리에
가렌
왁
정육
성탄
릴라
##버니
예기
##페아
should
비아냥
시원찮
정성훈
쿠니오
미란다
평신
##난만
##ᆫ스케
스자
폭뢰
뉴이스트
땅바닥
마시멜로
광역버스
슬림
##ubeat
##랭이
##다스
오행
교구장
편승
히포
손석희
스포트라이트
오버히트
경보병
##라마
오작
우메다
역모
특수전
미카즈키
영문학
DIS
도금
타비
해충
음침
복위
웬만큼
Bang
##토리코
이재원
사세
후송
청렴
경전선
스트로스
천진난만
주워
수유
노즈
아스팔트
떡하니
사카타
공공연
Son
상극
먹거리
무라타
해왕
혈기
이소룡
무솔리니
괴로움
성시경
고성군
경산시
성부
번역기
재단법인
Fest
스ᄅ
##87
독과
민진
헤메
수도회
뒷문
출입국
Pf
##브라이
기신
돌핀스
##era
떠받
판매고
기억나
아나스타샤
푸에르토리코
Lin
아류
##무가
태왕
완봉
353
할배
뜯어보
Machine
세그먼트
도파
강화군
사업장
신청서
보관함
야간전
영수증
뒷담화
유약
알테
카이리
MAG
다그치
국문학
카시오페아
mac
부고
반가
염화
##암역
이자벨
집행자
##berg
Jun
PUB
##ᆼ클
##mo
왔다가
비츠
요람
신림
##분해
새미
삼미
쿠엔
임수
접종
##aken
헤르만
왔다갔다
##89
##죽이
스칸디나
스칸디나비아
수선
일인
리야
네거
티타임
##트롤
인코딩
고담
리샤
호되
칼뱅
프로페서
연두색
부로
훈독
폼페이우스
Jin
매운
재봉
천주
금과
르마
숨어들
코코넛
스타스크림
키요시
아이튜
철근
착실히
이치현
아이튠즈
eyes
고각
보검
##티보
반목
왕징
입장료
죠지
United
대판
수역
##소프트
나카가와
##시네마
부교
이승환
그로스
SideM
재래식
그레고리오
keep
##hone
다원
기출
유원
##성어
관두
팔랑
아마데우스
찬밥
쿵푸
노비타
David
역주행
##넴
헤헤
명성황후
섀시
숄더
포물
니화
악사
안전장치
가로우
ZEX
무정부
방선
아르티
030
소개팅
핫도그
세실리아
보두
자지
오물
인비
패딩
점액
외도
헌혈
둥둥
깎아내리
터키어
동두천
만신창이
벌처
1871
에스페란
SAM
마창
코사카
외편
이름표
창천
다이얼
293
##겨보
코덱
##모르
단죄
송수
극작가
Honey
view
니엘
재작
송하
이재용
협동조합
고단
경미
노히트
후치
김덕
참의원
MIT
}{
##lish
최규
음운
풍운
##나잇
카도카와
허영무
!'
##ole
나체
생수
야로
신서
##교동
입회
옥천
이명기
PASS
Please
인드라
세도
나오코
키야마
광무
빙고
김명운
뵙
##핌
미진
상법
훑
우트
요긴
베데스
접합
프티
막시밀리
베데스다
##ca
강퇴
심시티
임계
눈뜨
SPOT
윙크
빠져들
##anced
사발
단파
##매장
루치아
이블린
기억력
꿀벌
브라우닝
SY
바토리
방비
호스팅
Lie
완강
구종
##캅
북대
녹차
오리엔
뷰티풀
임동
민나
허허
술자리
택틱스
신기루
스프링필드
이민호
출고가
타나토스
광동어
불합격
##63
도겸
토야마
최신형
IW
##멜라
서안
타타르
##비츠
강용
극상
##지방
키호
류이치
Yout
관군
균등
해독제
고카이저
##르겐
미레이
12000
용해
검지
판매자
찝찌
고득점
자프
완도
꼬집
##RAS
혁명가
라라라
헤르체고비나
연수원
보르도
찝찝
##sw
공경
원스
앙심
Kh
RTS
에치
##서기
비노
비앙
한영
단양
재가
덕선
Box
요하네스
HYPER
수재
유학자
개런
##코로
눈꽃
취사
MBN
압록강
와치
입부
##ener
하이스트
##몽골
에리코
성곽
시사회
도미닉
병무청
전준우
##41
비프
넴
복고
접두사
쇼팽
##idge
도가니
대뜸
면목
소명
구국
배추
종과
티파니
번역자
클린업
Wall
##키호테
우군
발신
돈키호테
455
뒷심
압박감
마스다
댄디
퉁퉁
bad
트윙클
와세다
##붓
원예
존나
브링
고현
라니까
비준
엄중
Log
##크라테스
골프장
아미노산
창피
팔달
다이치
##ira
##콘서트
jubeat
거금
갤리
운전사
토모카즈
무등
발부
코이즈미
라이카
삭발
1888
진경
일렬
동수
슈퍼카
아파치
네크론
Asia
적법
회군
1111
벌크
살인죄
패스트푸드
그레이브즈
NVIDIA
에헤
사니
오드리
##투리
타이베리
휘파람
그럴싸하
타이베리움
디오스
토프
권익
삼양
뇌전
PSY
교향악단
고난도
스구루
Mat
상해
신아
앰버
직할시
심혈
백경
벵거
home
##OB
바젤
노에
한별
패니
##금니
##멓
커넥션
모하메드
##ook
바스크
위촉
##RS
서럽
손짓
삼위
##함대
염체
얻어터지
##체스코
승소
허경민
범실
알리사
예수회
김민우
중장거리
김선빈
모반
세차
서빙
근세
전기철도
아리엘
NX
경리
무우
매시
관도
프로메
루이지애나
포가튼
바텐
미후
소오
티안
으려던
##트럭
대교구
대생
미조
비티
현시
누아
##ident
기욤
##gn
아웅
고은
실에
외박
털털
337
쿠로사와
응급처치
Kr
UL
##선언
##연장
대리석
삼위일체
Tim
##가을
수륙
##성사
랑그리
##cho
486
##브리아
jpg
유강남
코소보
랑그릿사
##곶
애드리
외눈
하루미
찬가
인도인
발할라
Tor
Wake
바울
연심
훔
절도사
마음씨
낙뢰
##멘토
조리법
시원시원
발명가
##태평양
##쿼
에세이
여가
발루
레리
잔기
Sa
정철
개경
데메
레라
##테우스
최고령
기업가
이재호
Sword
무정
타잔
완만
이대형
부채꼴
Bal
사헌
##장소
건장
##ᆫ들러
우월주의
이병렬
용광로
block
##ᅳ럼
기근
경색
으으
##민호
행인
삼층석탑
지배인
클라우스
기품
일순
문중
호오
북상
피노키오
fuck
##뜰
엠버
전능
문란
종묘
아이바
나타샤
료스케
start
옹주
지껄
노진
카론
야르
용하
낙법
Alt
EDGE
코토미
Ham
##브롤
인솔
챔버
양평군
울분
네이션스컵
상비
유폭
초절
붙히
##착륙
찌들
##orean
PX
한잔
해주
급성장
훈족
##ACE
김광석
Youtube
쫙
모병
리메
요안
##모음
예린
##린내
Book
>>
DU
제과
영성
태산
누더기
멸치
inf
셰어
CDMA
쩔쩔매
고학
유착
비뉴
소도
세베
카무
호호
키친
광운
##amond
true
다드
동글
##모비스
오래가
현대모비스
요시오
이천수
SUN
Tit
##식스
렝가
양원
슈즈
봉천
연락처
넘버원
경단
본판
루지
이가라시
마름
학벌
창업자
하이에나
421
스네이프
이운
사림
위클리
따스
탄지
##aper
상한선
흥국생명
Deep
Five
우열
불새
살살
징후
수용체
여전사
크랩
양천구
##ua
에페
감독상
프리징
비트매니아
going
지석진
Touch
##모닉
식기
윤동
죄목
PSG
Any
개막식
리모컨
팰컨
미나모토노
앙골라
Spirit
의령
사파리
연연
연초
코헤이
감량
##여대
332
캡처
히라노
카츠미
낭떠
애국심
지껄이
낭떠러지
염력
쌍욕
롤랜드
상품권
SNL
프란체스코
박종훈
Paul
Adreno
VP
알카
타이치
아라라
우회전
사성
젝스
막무가
질감
윤호
쿨라
헤이븐
젝스키스
막무가내
예스
예문
EXID
동작구
변함없이
UAE
의제
주원
352
Stud
여름철
##iving
필하모닉
fight
kHz
의경
상현
풀럼
견학
Stay
KING
결석
분가
골반
육안
369
다던지
연혁
메시아
봉안
브로스
##ECTION
부다페스트
사헌부
ET
유압
드웨이
건내
유우코
놓아주
레시
커트라인
워록
걸이
정신없이
놀려먹
종교인
GeForce
플랑드르
PUBG
쿠빌라이
켄터
연출가
에스파다
면세점
사레
설과
막걸리
즛
르망
하이엔드
하이랜더
##roy
ESPN
아브라함
##nam
##OG
어금니
부역
##두스
교통량
천하제일
비슈누
가타카나
turn
아성
##르모
미각
현주
혼재
팔뚝
낮잠
느냐며
Shift
지파
라테
디미
##덜랜드
신속히
울릉도
Dom
##CS
시차
##어씌우
패도
##퀘
부락
답습
클레멘스
SEC
아스톤
대정
그웬
패인
싸잡
마지마
맛없
반딧불
송광민
유색
루소
태상
비슷비슷
사상가
파베
재소
편중
김관
IA
노현
변혁
##스타파
##iano
코다마
에노시마
아드리안
SAS
모후
호빵
묘기
멸하
Offic
마르티네스
HM
들락
##소이
룹
##갤
향연
1887
Monster
대용량
시무라
후아
영체
청중
##reeca
##dden
##lash
노르만
만주족
아전
동중
참담
##ination
냉방
으니까요
엄격히
펌핑
스케치북
개콘
##곡면
364
511
Jour
Men
수질
전인
동천
남문
##복지부
공군기지
렉서스
아수라장
##시게
티치
신권
넷마
언더그라운드
끈적
##문드
변절
##메즈
워든
롯데시네마
KOO
흘러내리
##르기니
로나
서산시
##뭇
레콘
입소문
대마도
로사리오
금기시
람보르기니
교목
디아나
##ergy
요구사항
Exp
박지훈
가재
##도치
장희
연식
추서
초면
진법
메롱
올랭
토마호크
샤를로트
막아주
Perfect
Sat
이키
허당
381
심리학자
2025
적개심
Bel
est
자칼
##카테
호재
루블
프로브
별의
궁리
전차포
바르바
소수점
Revolution
East
Name
번창
창가
제작소
##orning
유한준
Samsung
펜타곤
빗발치
##ns
우화
범블
옥션
Mov
##ension
SFC
어군
야동
##룽
저놈
##누키
발레리
오리온스
Ghost
넨
고타
히페리온
족쇄
에스테
추장
팸
표어
모국어
화강암
SOL
하미
로타
나찰
전현
군위
멀미
들이밀
별의별
Mom
rad
사문
율리아
공력
우르르
점진
##onely
신용카드
##제르맹
고슴
##국사
접미사
콩쿠르
윙스
늑대인간
뷸라
이질감
##르기스
고슴도치
##청역
[...]
