[PAD]	0
[UNK]	0
[BOS]	0
[EOS]	0
[CLS]	0
[SEP]	0
[MASK]	0
▁▃	-0
▁ㅇ	-1
▁ㄱ	-2
▁ㄷ	-3
▁ㅎ	-4
▁ㅇㅣ	-5
▁ㅈ	-6
▁ㅅ	-7
▁ㄴ	-8
▁ㅇㅡ	-9
▁ㅎㅏ	-10
▁.	-11
▁ㄷㅏ	-12
▁ㅂ	-13
▁ㅇㅔ	-14
ㅡㄴ	-15
▁ㅁ	-16
▁ㄹ	-17
⊸⊸	-18
▁⊸⊸	-19
▁ㅇㅢ	-20
▁ㄴㅡㄴ	-21
▁ㅇㅏ	-22
ㅕㄴ	-23
ㅓㄴ	-24
ㅡㄹ	-25
ㅏㅇ	-26
ㅏㄴ	-27
▁ㅇㅓ	-28
▁,	-29
ㅗㅇ	-30
▁ㅇㅡㄹ	-31
ㅅㅓ	-32
ㅇㅣ	-33
▁ㅊ	-34
ㅕㅇ	-35
▁ㄱㅏ	-36
ㄹㅗ	-37
ㄹㅣ	-38
▁ㅇㅡㄴ	-39
ㅜㄴ	-40
▁ㅈㅣ	-41
▁ㅍ	-42
▁ㄱㅗ	-43
ㅎㅏ	-44
▁1	-45
ㅓㅇ	-46
ㅈㅣ	-47
▁ㄷㅚ	-48
ㅅㅣ	-49
▁ㄹㅡㄹ	-50
ㅜㄱ	-51
▁ㅅㅣ	-52
▁ㅇㅕ	-53
ㅅㅡ	-54
▁ㅇㅓㅆ	-55
▁ㅌ	-56
▁ㄴㅕㄴ	-57
ㅗㄱ	-58
▁ㄹㅗ	-59
▁ㄱㅣ	-60
▁ㄱㅘ	-61
▁2	-62
ㄷㅏ	-63
▁ㄷㅐ	-64
▁ㅇㅣㅆ	-65
ㅜㄹ	-66
▁ㅅㅏ	-67
▁ㅇㅏㅆ	-68
▁ㅈㅜ	-69
ㅏㄹ	-70
▁ㄱㅡ	-71
▁ㅋ	-72
ㅏㄱ	-73
▁ㄷㅗ	-74
ㅡㅇ	-75
ㄴㅏ	-76
ㅓㄱ	-77
ㅐㅇ	-78
ㄱㅣ	-79
ㅝㄴ	-80
▁ㅇㅣㄹ	-81
ㄹㅡ	-82
ㅗㄴ	-83
ㅇㅓ	-84
▁ㅇㅘ	-85
ㄴㄷㅏ	-86
▁ㄸ	-87
ㅅㅏ	-88
ㄱㅜㄱ	-89
ㄹㅏ	-90
ㅕㄱ	-91
▁ㄱㅓ	-92
▁ㅅㅜ	-93
▁ㄷㅡㄹ	-94
▁ㄴㅏ	-95
▁ㅈㅏ	-96
ㄷㅗ	-97
ㄱㅏ	-98
▁ㅈㅓㄴ	-99
▁ㅁㅣ	-100
ㅈㅏ	-101
ㅊㅣ	-102
▁20	-103
ㅓㄹ	-104
▁ㅈㅓㄱ	-105
ㅝㄹ	-106
▁ㅂㅜ	-107
ㄱㅗ	-108
ㅎㅘ	-109
ㄷㅡ	-110
ㅌㅡ	-111
ㅇㅏ	-112
ㅁㅣ	-113
ㅇㅛ	-114
▁ㅇㅝㄹ	-115
ㅂㅜ	-116
ㅈㅏㅇ	-117
ㅈㅜ	-118
▁ㅈㅔ	-119
▁ㅁㅏ	-120
▁19	-121
ㅈㅓㅇ	-122
▁ㅇㅗ	-123
ㅑㅇ	-124
ㅓㅁ	-125
▁ㄹㅏ	-126
▁ㅂㅗ	-127
ㄷㅐ	-128
▁ㅈㅓㅇ	-129
▁ㅇㅟ	-130
ㅅㅜ	-131
▁ㅇㅠ	-132
▁ㅎㅘ	-133
ㄱㅜ	-134
▁ㅈㅜㅇ	-135
ㅕㄹ	-136
▁ㅅㅔ	-137
ㅇㅜ	-138
ㅇㅝㄴ	-139
▁ㅇㅣㄴ	-140
ㅇㅣㄴ	-141
ㅐㄱ	-142
▁ㅂㅏ	-143
▁ㄱㅗㅇ	-144
▁ㄱㅐ	-145
▁ㅈㅗ	-146
▁ㅇㅕㅆ	-147
ㅓㅂ	-148
ㅅㅓㅇ	-149
▁ㄱㅕㅇ	-150
ㅈㅓㄴ	-151
▁ㄱㅔ	-152
ㅅㅏㅇ	-153
ㅈㅔ	-154
▁ㅁㅗ	-155
ㄱㅘ	-156
ㅌㅓ	-157
ㄴㅣ	-158
ㄷㅗㅇ	-159
▁ㄱㅓㅅ	-160
▁3	-161
ㄱㅡ	-162
ㅎㅏㄱ	-163
▁ㅂㅣ	-164
ㄹㄹㅣ	-165
▁ㅅㅡ	-166
▁"	-167
ㅇㅛㅇ	-168
ㅎㅚ	-169
▁ㅅㅓㄴ	-170
▁ㄷㅡㅇ	-171
▁ㄱㅜ	-172
▁ㅅㅓㅇ	-173
▁ㄲ	-174
▁ㅊㅏ	-175
ㄱㅛ	-176
▁ㅅㅗ	-177
▁ㅇㅕㄴ	-178
▁ㅁㅏㄴ	-179
▁ㄷㅗㅇ	-180
ㄹㅓ	-181
▁ㅅㅓ	-182
ㄹㅔ	-183
ㄹㅐ	-184
▁ㅅㅏㅇ	-185
▁ㅎㅏㄴ	-186
ㄴㅡㄴ	-187
▁ㅁㅕ	-188
▁ㅇㅕㅇ	-189
ㅁㅕ	-190
▁ㄱㅜㄱ	-191
ㅂㅣ	-192
ㅁㅏ	-193
ㅋㅣ	-194
▁ㅂㅏㄹ	-195
ㄱㅖ	-196
ㅇㅗ	-197
▁201	-198
ㅅㅓㄴ	-199
ㅁㅜㄴ	-200
▁ㅁㅕㄴ	-201
ㅡㅁ	-202
ㅇㅢ	-203
▁ㄴㅗ	-204
ㅅㅏㄴ	-205
ㅁㅣㄴ	-206
ㅇㅕㄱ	-207
ㅎㅏㄴ	-208
ㅇㅠ	-209
ㅡㄱ	-210
▁4	-211
ㅌㅏ	-212
ㅇㅑ	-213
ㅇㅣㄹ	-214
▁'	-215
ㅅㅣㄴ	-216
ㄷㅔ	-217
▁ㅎㅜ	-218
▁ㄱㅘㄴ	-219
▁ㄹㅣ	-220
▁ㅁㅕㅇ	-221
ㅁㅏㄴ	-222
ㅅㅗ	-223
▁ㅅㅣㄴ	-224
▁ㅍㅡ	-225
▁ㅇㅕㄱ	-226
▁5	-227
ㅅㅣㄱ	-228
▁200	-229
ㅇㅡㅁ	-230
▁-	-231
ㅊㅔ	-232
▁ㄸㅐ	-233
ㅈㅐ	-234
▁ㅈㅏㅇ	-235
▁ㅍㅗ	-236
▁ㅂㅏㅇ	-237
ㅁㅕㅇ	-238
ㅋㅡ	-239
▁ㅇㅜ	-240
ㄹㅜ	-241
▁ㅎㅐ	-242
ㅇㅟ	-243
ㅎㅣ	-244
ㅈㅗ	-245
▁ㄱㅛ	-246
▁ㅇㅛ	-247
ㄱㅔ	-248
▁ㄷㅓㄴ	-249
▁ㅁㅜㄴ	-250
▁ㅁㅜ	-251
ㅋㅏ	-252
ㄱㅜㄴ	-253
ㄷㅏㄴ	-254
ㅈㅏㄱ	-255
ㅎㅜ	-256
▁ㄴㅐ	-257
ㄱㅘㄴ	-258
▁ㅅㅐㅇ	-259
ㄱㅏㄴ	-260
▁ㅆ	-261
ㅎㅐㅇ	-262
ㄹㅕㄱ	-263
▁ㅍㅣ	-264
ㅌㅣ	-265
▁ㅎㅗ	-266
▁ㅎㅕㄴ	-267
▁ㅇㅝㄴ	-268
ㄱㅗㅇ	-269
▁ㄷㅏㅇ	-270
ㅍㅡ	-271
▁ㅌㅗㅇ	-272
ㄱㅓ	-273
ㅁㅜㄹ	-274
ㅁㅜ	-275
ㅂㅗ	-276
▁ㄱㅖ	-277
▁ㄴㅏㅁ	-278
▁ㅂㅜㄴ	-279
▁ㄱㅜㄴ	-280
ㄹㅗㄱ	-281
▁ㅊㅣ	-282
ㅂㅗㄴ	-283
▁ㅂㅐ	-284
▁6	-285
▁ㅇㅑ	-286
▁ㅎㅏㄱ	-287
▁ㄲㅏ	-288
ㅌㅗ	-289
ㄷㅏㅇ	-290
ㅇㅓㅂ	-291
▁ㅍㅏ	-292
▁ㄸㅗ	-293
▁ㅈㅏㄱ	-294
▁ㅌㅏ	-295
▁ㄷㅔ	-296
▁ㅊㅜ	-297
▁ㅊㅜㄹ	-298
▁ㄱㅏㅌ	-299
▁ㅇㅏㄶ	-300
ㅇㅏㄴ	-301
ㅍㅣ	-302
▁ㄱㅏㅇ	-303
▁ㄱㅕㄹ	-304
▁ㅎㅚ	-305
ㅂㅏㄴ	-306
▁ㅈㅣㄴ	-307
ㄷㅣ	-308
▁ㅋㅡ	-309
ㅁㅕㄴ	-310
▁ㅊㅓ	-311
ㄹㅠ	-312
ㄴㅐ	-313
ㅇㅑㅇ	-314
▁7	-315
▁ㄷㅏㄴ	-316
▁ㅇㅖ	-317
ㅅㅔ	-318
▁ㅂㅓㄴ	-319
▁ㅂㅏㄷ	-320
ㅅㅗㄱ	-321
▁ㅊㅚ	-322
▁10	-323
▁8	-324
▁ㄷㅜ	-325
ㅇㅣㅁ	-326
▁ㅂㅏㄴ	-327
ㄹㅣㅂ	-328
▁ㅋㅏ	-329
▁ㅂㅜㄹ	-330
ㅎㅗ	-331
ㅍㅗ	-332
ㄷㅡㄹ	-333
▁ㅊㅗ	-334
ㅂㅏㅇ	-335
▁ㅂㅔ	-336
ㄱㅕㅇ	-337
▁ㅋㅗ	-338
ㅍㅛ	-339
▁ㅇㅏㄴ	-340
▁ㅎㅕㅇ	-341
ㅁㅗ	-342
ㅅㅐㅇ	-343
▁ㅈㅐ	-344
▁ㄸㅏ	-345
ㅌㅗㅇ	-346
ㅈㅣㄴ	-347
▁ㅁㅏㄹ	-348
ㅋㅗ	-349
▁ㅅㅣㄹ	-350
ㅂㅜㄴ	-351
▁ㄹㅔ	-352
▁ㅁㅐ	-353
ㅂㅏ	-354
ㅇㅕㅇ	-355
ㅈㅗㅇ	-356
▁ㅌㅣ	-357
▁ㅈㅗㅇ	-358
▁9	-359
ㄱㅕㄱ	-360
▁ㅇㅓㅄ	-361
ㅇㅕㄴ	-362
▁ㅇㅡㅁ	-363
▁ㅌㅡㄱ	-364
▁ㅅㅓㄹ	-365
ㅌㅔ	-366
ㅈㅡ	-367
ㅂㅓㅂ	-368
ㄱㅏㄱ	-369
ㅈㅓㄱ	-370
▁ㅁㅔ	-371
ㅎㅐ	-372
▁ㅎㅏㅁ	-373
ㄷㅜ	-374
ㅂㅓ	-375
ㅎㅏㅂ	-376
▁ㅇㅣㄹㅂㅗㄴ	-377
ㅊㅏ	-378
ㄹㅡㄴ	-379
ㅇㅘ	-380
▁ㅇㅜㄴ	-381
▁ㅉ	-382
▁ㅅㅏㄴ	-383
ㅂㅏㄹ	-384
▁ㄷㅓ	-385
ㅍㅜ	-386
ㄹㅡㅁ	-387
ㅁㅣㄴㄱㅜㄱ	-388
ㅍㅏ	-389
▁ㅁㅕㄴㅅㅓ	-390
ㄴㅗ	-391
▁ㄷㅡ	-392
▁ㅎㅐㅇ	-393
▁ㅎㅘㄹ	-394
ㄹㅏㄴ	-395
▁ㄱㅝㄴ	-396
▁ㅌㅐ	-397
ㄹㅕㅇ	-398
ㄹㅕ	-399
ㅇㅕ	-400
▁ㄱㅏㅁ	-401
ㅇㅔ	-402
▁ㄷㅗㄱ	-403
▁ㅇㅐ	-404
ㅈㅣㄱ	-405
ㅎㅏㄴㅁㅣㄴㄱㅜㄱ	-406
▁ㄴㅡㄴㄷㅔ	-407
ㄹㅏㅇ	-408
▁ㅇㅘㅇ	-409
ㅅㅓㄹ	-410
ㄹㅏㅁ	-411
▁ㄱㅣㅁ	-412
▁199	-413
ㅅㅡㅇ	-414
ㅌㅐ	-415
▁ㅇㅑㅇ	-416
▁ㅍㅕㅇ	-417
▁ㅁㅣㅊ	-418
▁ㅁㅣㄴ	-419
ㄹㅛ	-420
▁ㄱㅓㄴ	-421
▁12	-422
▁ㅊㅏㅁ	-423
▁ㅇㅣㅂ	-424
ㅈㅓㅁ	-425
▁ㅌㅔ	-426
▁18	-427
▁ㅁㅗㄱ	-428
ㅈㅗㄱ	-429
ㅁㅔ	-430
ㅅㅣㄹ	-431
▁ㅁㅏㄶ	-432
▁ㅇㅏㄹ	-433
▁ㄱㅕㅇㄱㅣ	-434
▁ㄱㅏㄴ	-435
▁ㅅㅡㅇ	-436
ㅈㅜㅇ	-437
▁ㅇㅚ	-438
ㅅㅜㄹ	-439
ㄴㅕ	-440
ㅎㅏㄱㄱㅛ	-441
ㄴㅔ	-442
ㅂㅔ	-443
▁ㅌㅗ	-444
00	-445
▁;	-446
or	-447
▁ㅅㅗㄱ	-448
▁ㅊㅔ	-449
ㅎㅕㅇ	-450
▁ㅊㅗㅇ	-451
ㅊㅜㄹ	-452
ㅉㅗㄱ	-453
▁S	-454
▁ㅂㅜㄱ	-455
ㅇㅜㄴ	-456
▁ㅈㅓ	-457
ㄹㅗㄴ	-458
ㄱㅓㄴ	-459
ㅇㅑㄱ	-460
ㄴㅏㅁ	-461
ㅎㅕㄴ	-462
ㄷㅗㄱ	-463
ㅅㅣㅁ	-464
ㅂㅡ	-465
ㅅㅓㄱ	-466
▁ㅎㅣ	-467
▁11	-468
▁ㅂㅓㅂ	-469
▁ㅈㅣㅂ	-470
▁ㅌㅡ	-471
ㄷㅡㅇ	-472
ㅎㅑㅇ	-473
▁ㅃ	-474
▁ㄱㅏㄱ	-475
▁ㅂㅕㄴ	-476
▁ㅇㅣㅁ	-477
ㅁㅐ	-478
▁ㄷㅣ	-479
▁ㅊㅓㄴ	-480
ㄴㅡㅇ	-481
▁ㅍㅛ	-482
ㅊㅓㄴ	-483
▁ㅅㅐ	-484
ㅍㅜㅁ	-485
▁ㅁㅜㄹ	-486
ㅇㅣㅂ	-487
▁ㄴㅔ	-488
▁ㅈㅣㄱ	-489
ㄱㅡㅁ	-490
▁ㅂㅓ	-491
▁ㅂㅗㄴ	-492
▁ㅍㅔ	-493
▁A	-494
▁ㅅㅓㄴㅅㅜ	-495
ㄴㄷㅡ	-496
▁ㄴㅣ	-497
▁&	-498
ㅅㅗㅇ	-499
▁ㅆㅡ	-500
▁ㅌㅣㅁ	-501
ㄲㅔ	-502
▁)	-503
▁ᄆ	-504
ㅇㅜㄹ	-505
▁ㅎㅏㄴㄱㅜㄱ	-506
ㅍㅏㄴ	-507
▁ㅂㅏㄱ	-508
▁ㅌㅜ	-509
▁ㅈㅓㅁ	-510
▁ㅎㅏㅁㄲㅔ	-511
la	-512
▁ㅊㅓㅇ	-513
▁ㅇㅕㅇㅎㅘ	-514
▁ㅎㅏㅇ	-515
▁ㅂㅡ	-516
ㄹㅑㅇ	-517
▁ㄹㅜ	-518
▁ㄱㅘㅇ	-519
ㅈㅐㅇ	-520
▁C	-521
ㅌㅜ	-522
▁f	-523
ㄹㅕㄴ	-524
▁ㅇㅑㄱ	-525
▁M	-526
ㄱㅐ	-527
ㅈㅣㄹ	-528
▁ㅇㅛㅇ	-529
ㄱㅡㅂ	-530
▁T	-531
▁ㅊㅜㄱ	-532
ㅊㅓㅇ	-533
▁ㅎㅕㄴㅈㅐ	-534
▁ㄱㅜㄱㄱㅏ	-535
▁F	-536
ㅊㅜ	-537
ㅇㅓㄴ	-538
▁ㄱㅕㅇㅇㅜ	-539
ㄹㅓㅂ	-540
▁ㅍㅏㄴ	-541
ㅕㅂ	-542
▁ㅂㅗㄱ	-543
▁ㅌㅗㅇㅎㅏ	-544
ㅎㅏㅁ	-545
ㅁㅏㅇ	-546
▁_	-547
ㅍㅔ	-548
ㅈㅜㄴ	-549
▁198	-550
▁ㅎㅘㄹㄷㅗㅇ	-551
▁ㄷㅟ	-552
▁ㅍㅕㄴ	-553
ㄹㄹㅏ	-554
▁ㅅㅏㅁ	-555
▁ㅈㅗㄴ	-556
ㅊㅗ	-557
▁(	-558
ㅎㅏㅇ	-559
▁ㅋㅐ	-560
▁ㅋㅣ	-561
ㅇㅏㄱ	-562
▁ㅎㅏㄱㄱㅛ	-563
▁for	-564
▁ㅎㅘㄱ	-565
▁ㅊㅐ	-566
ㄴㅕㄴ	-567
▁ㅊㅓㄹ	-568
mu	-569
▁ㅍㅐ	-570
ㅋㅔ	-571
ㄱㅕㄹ	-572
▁ㄷㅏㅇㅅㅣ	-573
ㅈㅓㄹ	-574
▁15	-575
ㄱㅏㅇ	-576
▁ㄱㅠ	-577
mula	-578
▁formula	-579
ㅅㅕㄴ	-580
ㅂㅕㅇ	-581
▁ㅁㅏㄴㄷㅡㄹ	-582
▁ㅍㅡㄹ	-583
▁ㄱㅡㅁ	-584
ㄴㅓ	-585
ㅂㅐ	-586
▁ㅈㅡㅇ	-587
▁ㅇㅕㄹ	-588
ㄹㄹㅔ	-589
▁ㅇㅕㄱㅅㅏ	-590
▁ㅎㅏㅂ	-591
▁ㅉㅐ	-592
▁ㅂㅐㄱ	-593
▁ㅊㅏㅇ	-594
ㅇㅐ	-595
▁ㅇㅓㄴ	-596
ㅁㅗㄱ	-597
▁ㅅㅣㄱ	-598
ㄱㅕㄴ	-599
▁ㅅㅣㅁ	-600
ㅍㅕㄴ	-601
ㅈㅓ	-602
▁16	-603
▁/	-604
▁ㅍㅜ	-605
ㅂㅕㄹ	-606
▁ㅇㅕㄴㄱㅜ	-607
ㅅㅐㄱ	-608
▁ㄱㅡㄴ	-609
ㅂㅗㄱ	-610
▁ㄷㅏㄹ	-611
▁ㅂㅕㅇ	-612
ㅈㅡㄴ	-613
ㅊㅡ	-614
ㅇㅠㄱ	-615
▁m	-616
ㅋㅜ	-617
▁D	-618
ㄷㅡㄴ	-619
▁ㅅㅏㄹ	-620
ㅎㅘㄴ	-621
▁0	-622
▁ㅎㅘㅇ	-623
▁ㄸㅡ	-624
▁ㅇㅗㄹㄹㅣ	-625
▁ㄹㅓ	-626
ㅎㅘㅇ	-627
▁ㅁㅗㅅ	-628
ㄱㅡㄴ	-629
▁17	-630
▁ㅊㅜㅇ	-631
ㅎㅓㅁ	-632
▁ㅅㅜㄴ	-633
ㅂㅜㄱ	-634
▁ㅋㅡㄹ	-635
▁B	-636
▁197	-637
▁ㅎㅔ	-638
ㄱㅝㄴ	-639
▁ㅆㅣ	-640
ㅏㄹㄹㅣ	-641
ㅁㅓ	-642
▁ㅊㅓㅅ	-643
ㅇㅚ	-644
▁:	-645
▁ㅈㅜㅇㄱㅜㄱ	-646
▁ㅇㅏㄹㄹㅣ	-647
▁K	-648
▁I	-649
ㄱㅠ	-650
ㄱㅡㄹ	-651
▁]	-652
ㅁㅍㅣ	-653
▁[	-654
ㅇㅘㅇ	-655
▁ㅇㅘㄴ	-656
▁ㅎㅕㅂ	-657
ㄷㅏㄹ	-658
▁ㄴㅗㅍ	-659
▁ㄱㅣㄹ	-660
ㄹㅏㅇㅅㅡ	-661
▁ㄸㅡㅅ	-662
▁ㄷㅗㄹ	-663
▁k	-664
▁ㅇㅕㅇㄱㅜㄱ	-665
ㄷㅓ	-666
▁ㅈㅓㅇㅂㅜ	-667
ㄱㅗㄱ	-668
ㄹㅐㄴㄷㅡ	-669
▁ㅁㅗㅅㅎㅏ	-670
▁ㅍㅣㄹ	-671
▁ㄴㅡㄴㄷㅏ	-672
▁ㅁㅜㄴㅎㅘ	-673
ㅂㅓㅁ	-674
▁196	-675
ㄱㅘㅇ	-676
▁14	-677
▁ㅈㅓㄴㅈㅐㅇ	-678
▁~	-679
ㅊㅏㄹ	-680
▁ㅊㅜㄱㄱㅜ	-681
▁ㄲㅡ	-682
ㅈㅣㅂ	-683
er	-684
ㄹㅖ	-685
ㄹㅓㄴ	-686
ㄹㅣㄴ	-687
ㅍㅓ	-688
▁ㅂㅕㄹ	-689
▁ㅋㅔ	-690
▁ㄴㅓ	-691
▁ㄷㅗㄱㅇㅣㄹ	-692
▁P	-693
▁ㄴㅠ	-694
▁13	-695
▁g	-696
in	-697
▁ㅎㅓ	-698
▁ㅈㅜㄱ	-699
▁ㅊㅟ	-700
▁ㅈㅓㅇㅊㅣ	-701
▁ㅂㅏㅇㅅㅗㅇ	-702
ㅌㅏㄴ	-703
▁ㄱㅗㄱ	-704
ㄱㅓㅅ	-705
ㅇㅏㅇ	-706
ㄹㅏㄱ	-707
▁ㅎㅘㄴ	-708
▁ㄱㅏㅁㄷㅗㄱ	-709
▁194	-710
▁ㅊㅣㄴ	-711
ㅇㅕㄹ	-712
ㄱㅡㄱ	-713
▁L	-714
ㄹㄹㅗ	-715
▁ㅅㅗㄴ	-716
▁ㄷㅗㅇㅇㅏㄴ	-717
▁l	-718
▁ㅅㅓㄱ	-719
▁ㅇㅣㄹㅂㅜ	-720
ㅈㅗㄴ	-721
ㅊㅜㄱ	-722
▁ㄱㅜㄱㅈㅔ	-723
▁ㄴㅗㄴ	-724
▁ㅁㅜㄴㅈㅔ	-725
ㄹㅣㅁ	-726
ㅊㅣㅇ	-727
ㅇㅖ	-728
ㅅㅡㅂ	-729
▁ㅌㅓ	-730
ㄴㅓㄹ	-731
ㅎㅏㄹ	-732
ㅍㅕㅇ	-733
▁ㄱㅓㅁ	-734
▁ㄴㅗㅇ	-735
▁ㅈㅏㄱㅍㅜㅁ	-736
ㅇㅡㄴ	-737
ㅊㅓㄹ	-738
▁G	-739
▁ㅇㅣㄹㅂㅏㄴ	-740
▁ㅇㅣㄴㄱㅜ	-741
▁%	-742
▁ㅋㅜ	-743
ㅇㅞ	-744
ㄴㅕㅁ	-745
▁ㅇㅣㄴㅎㅏ	-746
▁ㅅㅠ	-747
ㅈㅣㅇ	-748
▁ㄱㅘㄴㄱㅖ	-749
▁N	-750
ㅇㅡ	-751
ㄱㅏㅁ	-752
▁ㅇㅜㄴㄷㅗㅇ	-753
▁ㅈㅗㄴㅈㅐ	-754
ㄹㅓㅁ	-755
▁ㅎㅑㅇ	-756
▁ㄱㅗㄹ	-757
on	-758
ㅊㅓ	-759
▁ㅅㅓㅁ	-760
ㅎㅚㄱ	-761
▁ㄱㅡㅂ	-762
▁ㄲㅡㅌ	-763
▁km	-764
▁gt	-765
▁195	-766
▁ㅍㅗㄱ	-767
▁ㅎㅛ	-768
▁U	-769
▁ㄱㅗㅅ	-770
▁ㅇㅠㄱ	-771
▁ㅈㅓㅇㄷㅗ	-772
▁ㅇㅡㅁㅇㅏㄱ	-773
ㅅㅏㄹ	-774
▁ㄱㅕ	-775
▁ㅈㅡㄱ	-776
▁ㅈㅓㅂ	-777
ㄹㅗㅂ	-778
▁R	-779
▁ㅇㅞ	-780
ㅌㅐㄱ	-781
▁ㄱㅟ	-782
ㅌㅡㄹ	-783
▁lt	-784
ㅂㅗㅇ	-785
▁ㅁㅏㅌ	-786
▁ㅅㅓㄴㄱㅓ	-787
▁ㄱㅕㅇㅈㅔ	-788
▁ㅇㅏㅍ	-789
ㅅㅡㄴ	-790
ㅂㅕㄴ	-791
▁ㅈㅜㅇㅅㅣㅁ	-792
ㄱㅅㅡ	-793
ㅅㅡㄹ	-794
ㅎㅘㄹ	-795
▁H	-796
▁30	-797
▁ㅂㅡㄹ	-798
▁E	-799
ㅊㅏㅇ	-800
▁ㅈㅓㄴㅌㅜ	-801
▁ㄱㅡㄱ	-802
▁ㄴㅜ	-803
▁ㄴㅏㄹ	-804
ㅁㅏㄱ	-805
ㅌㅓㄴ	-806
▁ㅂㅏㄹㄱㅕㄴ	-807
▁ㄹㅕ	-808
▁ㅈㅓㄹ	-809
ㅊㅐㄱ	-810
ㅁㅍㅣㄱ	-811
▁ㅂㅗㅇ	-812
▁ㅎㅗㅇ	-813
▁ㄱㅡㄹ	-814
▁ㄷㅏㅁ	-815
ㅈㅡㅇ	-816
ㅌㅗㅇㄹㅕㅇ	-817
▁ㅂㅏㄹㅍㅛ	-818
▁ㅇㅏㅁ	-819
▁2010	-820
▁ㅁㅏㅈ	-821
▁ㅇㅗㄹㄹㅣㅁㅍㅣㄱ	-822
▁ㅁㅣㄴㅈㅜ	-823
▁ㄱㅏㅈ	-824
ㅋㅓ	-825
▁ㅊㅡㄱ	-826
ㄹㅐㅁ	-827
ㅊㅏㄱ	-828
ㅇㅝ	-829
an	-830
▁ㅊㅐㄱ	-831
▁ㅁㅏㄱ	-832
▁ㅇㅕㅇㅎㅑㅇ	-833
▁ㅈㅜㄹ	-834
▁ㄱㅕㄹㄱㅘ	-835
▁ㅅㅗㅇ	-836
▁ㅂㅜㄹㄹㅣ	-837
▁ㅇㅕㄹㄹㅣ	-838
000	-839
ㅇㄱㅡㄹ	-840
▁ㅇㅔㄴ	-841
▁ㅁㅓ	-842
▁ㄱㅘㄴㄹㅕㄴ	-843
ㅈㅓㅂ	-844
▁193	-845
▁ㄷㅡㄹㅇㅓ	-846
▁ㄱㅗㅇㄱㅕㄱ	-847
▁ㅇㅓㅂ	-848
▁c	-849
▁ㅊㅏㅁㅇㅕ	-850
▁ㅎㅐㅇㅈㅓㅇ	-851
▁ㄹㅠ	-852
20	-853
ㅅㅜㄴ	-854
▁ㅈㅜㅇㅇㅏㅇ	-855
▁ㅈㅏㄹ	-856
ㅎㅗㄴ	-857
ㅆㅡ	-858
▁ㅈㅣㄴㅎㅐㅇ	-859
▁ㅂㅏㄺ	-860
▁ㅈㅏㅂ	-861
▁ㅂㅏㄹㅅㅐㅇ	-862
▁ㅈㅣㄹ	-863
ㄹㅏㄴㄷㅡ	-864
▁ㅈㅜㄴ	-865
▁ㅂㅓㅁ	-866
▁ㅅㅓㄹㄹㅣㅂ	-867
▁25	-868
▁ㄷㅗㄱㄹㅣㅂ	-869
▁ㅅㅗㄱㅎㅏ	-870
ㅇㅗㄴ	-871
▁ㅂㅏㄹㅁㅐ	-872
▁ㅅㅓㄹㅊㅣ	-873
▁ㅎㅕㅇㅌㅐ	-874
ㅇㅡㅇ	-875
▁2008	-876
▁ㅍㅖ	-877
▁W	-878
ㄷㅡㄱ	-879
▁ㅎㅡ	-880
▁ㅋㅓ	-881
ㅂㅐㄱ	-882
▁ㅇㅓㄷ	-883
▁ㅁㅣㄹ	-884
▁ㅇㅗㄴ	-885
ㅍㅐ	-886
▁ㅌㅏㄴ	-887
ㅆㅓ	-888
▁ㅈㅘ	-889
ㄴㅏㄴ	-890
▁ㅌㅡㄱㅎㅣ	-891
▁21	-892
▁ㅇㅐㄹ	-893
▁ㄱㅕㄹㅈㅓㅇ	-894
ㅓㄹㅇㅓ	-895
ㅇㅜㅁ	-896
ㄴㅜ	-897
▁ㅇㅏㄱ	-898
ㅂㅓㄹ	-899
ㅂㅜㄹ	-900
▁ㄹㅡ	-901
ㅇㅝㄴㅎㅚ	-902
ㅌㅏㄹㄹㅣ	-903
▁ㅅㅏㅇㅌㅐ	-904
▁ㅅㅔㄴ	-905
▁ㅊㅏㅁㄱㅏ	-906
ㄷㅏㅁ	-907
▁ㄱㅏㅌㅇㅣ	-908
ㄴㅏㄹ	-909
ㅇㅝㄹ	-910
▁2012	-911
▁ㅇㅣㄴㅁㅣㄴ	-912
▁2011	-913
▁ㅇㅣㄹㅇㅓ	-914
▁ㄷㅏㅇㅎㅏ	-915
▁ㅈㅓㅇㅂㅗ	-916
▁ㄲㅗ	-917
ㅍㅡㄹ	-918
▁ㅊㅣㅁ	-919
▁ㅇㅜㄴㅇㅕㅇ	-920
▁ㄷㅡㅇㅈㅏㅇ	-921
▁ㅊㅜㄹㅅㅣㄴ	-922
en	-923
▁ㅈㅗㅎ	-924
▁2007	-925
▁ㄱㅘㄴㄹㅣ	-926
▁2009	-927
▁2014	-928
ㅋㅡㄹ	-929
▁t	-930
ㅅㅗㄴ	-931
ㅂㅡㄹ	-932
ㅂㅏㄱ	-933
▁ㅎㅗㄴ	-934
▁ㅌㅏㄹ	-935
▁100	-936
ㅂㅟ	-937
ㄷㅗㄹ	-938
▁ㅇㅠㄴ	-939
ㅌㅚ	-940
▁ㅇㅡㅁㅂㅏㄴ	-941
▁a	-942
▁ㄹㅏㄴ	-943
▁ㅅㅐㅇㅅㅏㄴ	-944
▁ㅊㅓㄹㄷㅗ	-945
▁ㅍㅣㄹㅇㅛ	-946
ㄷㅓㄱ	-947
▁O	-948
▁2013	-949
▁ㅅㅐㅇㅇㅐ	-950
ㅎㅢ	-951
▁ㅅㅛ	-952
▁ㅈㅜㅇㅇㅛ	-953
ㅇㅡㄹ	-954
ㅅㅠ	-955
▁ㅋㅗㄴ	-956
▁ㅍㅏㄹ	-957
he	-958
▁ㅎㅢ	-959
▁ㅅㅐㅇㄱㅏㄱ	-960
ㄱㅐㄱ	-961
ㄹㅜㅂ	-962
ㄴㅅㅡ	-963
ㅁㅐㅇ	-964
▁ㅅㅏㅇㄷㅐ	-965
ㄴㅏㅁㄷㅗ	-966
ㄲㅏ	-967
ㅌㅔㅁ	-968
▁2015	-969
▁ㅁㅛ	-970
▁2018	-971
▁ㄴㅡ	-972
ㄱㅠㄴ	-973
▁ㅅㅐㅇㅎㅘㄹ	-974
▁ㄱㅜㄱㅁㅣㄴ	-975
▁23	-976
ar	-977
▁2016	-978
▁ㅅㅓㅇㄱㅗㅇ	-979
▁ㅅㅑ	-980
▁191	-981
ㅊㅏㄴ	-982
▁24	-983
▁ㅂㅏㅇㅂㅓㅂ	-984
▁ㅂㅏㄹㅈㅓㄴ	-985
ㄸㅐ	-986
▁ㄴㅓㅁ	-987
ㄷㅔㄹ	-988
▁ㅊㅜㄹㅇㅕㄴ	-989
▁ㄱㅓㄹ	-990
ㅊㅡㄱ	-991
▁000	-992
▁ㅇㅝㄹㄷㅡ	-993
▁ㅂㅏㄺㅎㅣ	-994
▁J	-995
▁ㅎㅓㄴ	-996
ㄷㅡㅇㅎㅏㄱㄱㅛ	-997
▁ㅇㅣㄴㄷㅗ	-998
▁ㅁㅕㅊ	-999
es	-1000
▁ㅇㅐㄹㅂㅓㅁ	-1001
▁ㅇㅝ	-1002
▁ㅇㅓㄱ	-1003
▁ㅃㅜㄴ	-1004
▁ㄴㅡㅇ	-1005
▁ㅆㅏ	-1006
▁2006	-1007
ㅇㅠㄹ	-1008
▁ㅂㅜㄴㄹㅠ	-1009
▁ㅊㅏㅈ	-1010
▁22	-1011
FA	-1012
ㄴㅡㄹ	-1013
ㄹㅑ	-1014
▁ㄱㅗㅇㅎㅘ	-1015
ㅇㅏㅁ	-1016
▁2017	-1017
ㅇㅣㄱ	-1018
▁ㅍㅡㄹㄹㅔ	-1019
▁192	-1020
▁ㅂㅏㅇㅅㅣㄱ	-1021
▁ㅍㅕㅇㄱㅏ	-1022
ㅊㅚ	-1023
▁ㅊㅡㅇ	-1024
▁ㅈㅓㄴㅊㅔ	-1025
▁ㄱㅘㄴㅎㅏ	-1026
▁ㅈㅓㅇㅇㅢ	-1027
▁ㄹㅐ	-1028
▁ㅎㅏㅇㄱㅗㅇ	-1029
ㅊㅣㅁ	-1030
▁ㅋㅓㅁ	-1031
▁ㅇㅣㄴㅌㅓ	-1032
▁ㅁㅗㄱㄹㅗㄱ	-1033
▁ㄱㅗㅇㅅㅣㄱ	-1034
▁ㄷㅗㄹㅇㅏ	-1035
▁ㅃㅏ	-1036
▁ㅇㅓㄹ	-1037
ㄱㅟ	-1038
▁ㅇㅕㄴㅎㅏㅂ	-1039
ㅇㅜㄴㄷㅔ	-1040
▁ㅊㅜㄹㅈㅓㄴ	-1041
▁ㅍㅜㅇ	-1042
▁s	-1043
▁ㄱㅕㄱ	-1044
ㄹㅓㅎ	-1045
ㄹㅑㄱ	-1046
▁ㅁㅏㄶㅇㅣ	-1047
▁ㅎㅠ	-1048
▁ㅇㅓㄴㅇㅓ	-1049
▁ㅁㅗㅁ	-1050
▁ㅎㅏㄴㅍㅕㄴ	-1051
ㅎㅏㄱㅈㅏ	-1052
▁ㅇㅕㄱㅎㅏㄹ	-1053
▁ㅁㅣㄴㅈㅗㄱ	-1054
ㅎㅓㄴ	-1055
▁ㄱㅜㄴㅅㅏ	-1056
▁ㅅㅐㄱ	-1057
▁ㅈㅏㅁ	-1058
▁ㅍㅓ	-1059
▁ㅇㅜㄹ	-1060
▁ㄱㅕㄹㄱㅜㄱ	-1061
▁ㅇㅣㄴㄱㅏㄴ	-1062
ㄲㅣ	-1063
▁!	-1064
at	-1065
ㄴㅡ	-1066
▁ㅎㅣㅁ	-1067
ㅊㅣㄱ	-1068
▁ㅎㅕㄴㄷㅐ	-1069
▁ㅇㅡㅇ	-1070
▁2019	-1071
▁26	-1072
▁ㄷㅏㄹㄹㅣ	-1073
▁ㅂㅏㄴㄷㅐ	-1074
▁ㄷㅜㄹ	-1075
▁ㅌㅡㄱㅂㅕㄹ	-1076
▁ㄴㅗㅎ	-1077
ㅇㅕㅁ	-1078
▁ㄴㅗㄱ	-1079
ㅌㅏㄹ	-1080
▁ㅇㅕㄴㄱㅕㄹ	-1081
▁ㅌㅡㄱㅈㅣㅇ	-1082
▁28	-1083
ㅂㅜㄱㄷㅗ	-1084
ㅎㅔ	-1085
▁27	-1086
ㅆㅣ	-1087
▁ㄸㅓㄹㅇㅓ	-1088
▁ㄱㅗㅇㄱㅐ	-1089
▁ㅂㅓㄹ	-1090
▁2005	-1091
▁V	-1092
ㅎㅕㄱ	-1093
▁ㅎㅗㅁ	-1094
ㅁㅣㄹ	-1095
▁ㄸㅓ	-1096
▁ㄱㅕㅇㅅㅏㅇ	-1097
▁2000	-1098
▁ㄷㅏㄴㅊㅔ	-1099
▁ㄱㅏㄱㄱㅏㄱ	-1100
ㅇㅏㅂ	-1101
ㅎㅟ	-1102
ㄹㅣㄱ	-1103
▁ㅈㅓㄴㅎㅏ	-1104
▁ㅎㅐㄱ	-1105
ㅁㅓㄴ	-1106
▁ㄷㅗㅇㅅㅣ	-1107
▁ㄸㅟ	-1108
▁ㅈㅗㄹ	-1109
ic	-1110
▁ㅅㅏㄴㅇㅓㅂ	-1111
▁ㅇㅣㄴㅁㅜㄹ	-1112
ㅍㅜㅇ	-1113
▁ㅅㅟ	-1114
▁ㅂㅜㅌ	-1115
▁ㅈㅣㄴㅊㅜㄹ	-1116
▁ㅈㅗㄱ	-1117
ㅁㅏㄹ	-1118
al	-1119
ㅊㅗㅇ	-1120
▁ㅇㅣㅁㅁㅕㅇ	-1121
▁ㅁㅗㄱㅈㅓㄱ	-1122
ㅂㅓㄴ	-1123
ㄱㅗㄹ	-1124
ㄴㅈㅣ	-1125
ㅋㅓㅂ	-1126
▁ㅈㅓㄴㅁㅜㄴ	-1127
ㅍㅣㄹ	-1128
▁ㄴㅏㄴ	-1129
ㅇㅛㄱ	-1130
ㅎㅡㅇ	-1131
▁ㅈㅓㅇㅊㅐㄱ	-1132
▁ㅁㅓㄹ	-1133
▁FC	-1134
BS	-1135
▁2004	-1136
▁ㅇㅣㄴㅈㅓㅇ	-1137
▁ㅁㅓㄱ	-1138
▁ㅂㅏㄲ	-1139
▁ㄱㅏㄹ	-1140
▁ㄱㅗㅇㄱㅏㄴ	-1141
▁ㅍㅗㄹ	-1142
ㅌㅣㄴ	-1143
▁ㅅㅡㅇㄹㅣ	-1144
▁ㅋㅏㄹ	-1145
▁ㄱㅓㄴㅅㅓㄹ	-1146
▁TV	-1147
▁ㅅㅡㄹ	-1148
ㄱㅚ	-1149
▁ㅎㅕㄱ	-1150
▁ㄱㅓㄴㅁㅜㄹ	-1151
▁ㅌㅔㄹㄹㅔ	-1152
ㅂㄴㅣ	-1153
▁b	-1154
ㄹㅕㅂ	-1155
ㅊㅜㅇ	-1156
▁ㄴㅜㄴ	-1157
ㄱㅗㅇㅎㅘ	-1158
▁ㅈㅣㄱㅈㅓㅂ	-1159
▁ㅁㅏㅇ	-1160
▁ㄱㅕㅇㄹㅕㄱ	-1161
▁ㄱㅗㅇㄷㅗㅇ	-1162
ㄹㅣㅇ	-1163
▁31	-1164
▁50	-1165
▁ㅎㅘㄹㅇㅑㄱ	-1166
ㄹㅠㄹ	-1167
▁ㅇㅏㅂ	-1168
is	-1169
▁ㄱㅕㄹㅎㅗㄴ	-1170
▁ㅈㅗㄹㅇㅓㅂ	-1171
▁ㅅㅏㅇㅎㅘㅇ	-1172
it	-1173
ㄹㅠㄱ	-1174
ㄹㅗㅅ	-1175
▁ㅋㅏㄴ	-1176
▁ㄱㅕㅇㅊㅏㄹ	-1177
re	-1178
▁ㄱㅜㄱㅎㅚ	-1179
▁29	-1180
▁ㅎㅕㅇㅅㅓㅇ	-1181
▁ㅂㅕㄴㄱㅕㅇ	-1182
▁ㅎㅜㄴ	-1183
ㅊㅡㅇ	-1184
ㅅㅔㄴ	-1185
▁2020	-1186
▁ㅇㅣㄴㅁㅣㄴㄱㅗㅇㅎㅘ	-1187
ㄷㅓㄴ	-1188
▁ㅋㅡㄹㄹㅓㅂ	-1189
▁ㅇㅗㄹ	-1190
▁ㅈㅜㅇㅎㅏㄱㄱㅛ	-1191
ㅇㅓㅁ	-1192
ㄱㅗㅅ	-1193
▁ㅂㅕㄴㅎㅘ	-1194
ㅇㅔㄹ	-1195
▁190	-1196
ㄹㅡㄹ	-1197
ㄲㅜ	-1198
ou	-1199
ㄹㄹㅓ	-1200
▁ㄱㅜㅇ	-1201
▁ㅇㅘㄴㅈㅓㄴ	-1202
ㄹㅔㄴ	-1203
ㅎㅡ	-1204
▁ㅁㅐㄱ	-1205
▁ㅌㅏㅂ	-1206
ㅇㅕㄱㅅㅣ	-1207
ㅋㅛ	-1208
▁ㅈㅜㅇㅎㅘ	-1209
▁ㄴㅏㅈ	-1210
▁ㅎㅏㄱㅅㅐㅇ	-1211
ㅇㅜㄴㄷㅡ	-1212
▁ㅁㅗㄹ	-1213
ㄱㅌㅡ	-1214
ㄱㅜㄹ	-1215
▁ㅈㅓㄴㄱㅜㄱ	-1216
ㅌㅣㅇ	-1217
▁ㄱㅕㄴ	-1218
▁ㅇㅜㄴㅎㅐㅇ	-1219
▁ㄱㅕㅁ	-1220
ㄱㅏㄹ	-1221
▁ㅅㅣㄹㅈㅔ	-1222
▁ㄹㅗㄴ	-1223
ㄹㅐㄴ	-1224
▁ㅅㅣㄹㅅㅣ	-1225
▁ㅅㅣㅇㄱㅡㄹ	-1226
▁ㅇㅕㄱㅅㅣ	-1227
▁ㅅㅡㅇㄱㅏㅇ	-1228
▁ㅇㅗㄱ	-1229
▁ㅁㅕㅇㅊㅣㅇ	-1230
ㅌㅏㅇ	-1231
▁2002	-1232
▁ㅂㅐㄴㄷㅡ	-1233
ㄱㅜㅇ	-1234
▁ㅇㅝㄴㄹㅐ	-1235
▁ㅈㅗㅇㄱㅛ	-1236
▁ㅌㅏㅁ	-1237
▁ㄴㅗㅍㅇㅣ	-1238
▁ㅍㅏㄴㅁㅐ	-1239
▁ㅁㅏㄴㄴㅏ	-1240
▁ㅎㅗㄱ	-1241
▁ㅇㅣㄹㅇㅡ	-1242
▁ㅈㅓㄴㅌㅗㅇ	-1243
▁ㅌㅚ	-1244
▁ㅅㅔㄴㅌㅓ	-1245
▁ㅂㅣㄹ	-1246
ㅎㅘㄱ	-1247
▁2003	-1248
▁ㄸㅏㄹ	-1249
ㅂㅣㄴ	-1250
▁ㅎㅘㅇㅈㅔ	-1251
▁ㅁㅠ	-1252
▁40	-1253
▁ㅈㅓㄴㄱㅣ	-1254
▁ㅎㅘㄴㄱㅕㅇ	-1255
▁ㅋㅓㅂ	-1256
▁=	-1257
ㅅㅐ	-1258
▁ㅇㅓㅄㅇㅣ	-1259
ㅊㅗㄴ	-1260
ㅈㅚ	-1261
▁ㅇㅓㅁ	-1262
mp	-1263
le	-1264
▁ㅁㅡ	-1265
▁ㅈㅓㄴㅈㅏ	-1266
ㅇㅗㄱ	-1267
▁ㅂㅜㄴㅇㅑ	-1268
ㄹㅐㄱ	-1269
ㄸㅓㄴ	-1270
ㅍㅠ	-1271
▁ㅈㅓㄴㄹㅏ	-1272
▁ㅅㅡㅇㄱㅏㅇㅈㅏㅇ	-1273
▁ㅍㅜㄹ	-1274
▁ㄴㅏㅁㅈㅏ	-1275
ㄲㅡㄹ	-1276
ㅌㅡㄱ	-1277
▁ㅅㅓㄹㅁㅕㅇ	-1278
▁ㄷㅗㅇㅁㅜㄹ	-1279
▁ㅎㅟ	-1280
▁ㄱㅗㅇㅇㅕㄴ	-1281
ㅇㅜㄱ	-1282
▁ㅇㅕㅁ	-1283
▁ㄱㅓㄹㅊㅣ	-1284
▁ㅇㅕㄴㅂㅏㅇ	-1285
▁ㄲㅜ	-1286
▁ㅅㅓㄴㅈㅓㅇ	-1287
▁ㄱㅔㅆ	-1288
ㄹㅕㄹ	-1289
ㅈㅟ	-1290
▁ㅊㅜㄹㅅㅣ	-1291
▁ㅈㅏㄱㅇㅛㅇ	-1292
ㅅㅜㄱ	-1293
▁ㅉㅏ	-1294
▁ㄴㅏㅁㅉㅗㄱ	-1295
▁ㅅㅜㄱ	-1296
▁ㅂㅜㄱㅉㅗㄱ	-1297
ㄷㅗㅇㅊㅏ	-1298
▁ㅁㅜㄴㅎㅏㄱ	-1299
ㄴㅠ	-1300
▁ㅌㅗㅇㅎㅏㅂ	-1301
▁ㅈㅏㄱㅇㅓㅂ	-1302
ㅎㅜㄴ	-1303
▁ㄴㅓㄼ	-1304
ㅌㅏㄱ	-1305
▁ㅇㅕㄱㅇㅣㅁ	-1306
ㄴㄷㅔ	-1307
▁ㅇㅕㄹㅊㅏ	-1308
ㅎㅛ	-1309
▁ㅎㅕㅇㅅㅣㄱ	-1310
▁ㅂㅏㅇㅎㅑㅇ	-1311
▁FI	-1312
▁ㅋㅓㅁㅍㅠ	-1313
ㄹㅔㄱ	-1314
▁ㅅㅣㅂ	-1315
▁ㅎㅐㅇㄷㅗㅇ	-1316
ㅂㅔㄹ	-1317
ㅇㅔㄴ	-1318
ㅈㅏㅂ	-1319
ㄷㅗㄱㄱㅛ	-1320
▁ㅈㅏㄱㄱㅏ	-1321
▁ㄱㅜㄱㄴㅐ	-1322
▁ㄴㅡㅇㄹㅕㄱ	-1323
▁ㅈㅏㄱㄱㅗㄱ	-1324
▁ㅊㅏㄱ	-1325
ㅅㅡㅅ	-1326
▁ㅈㅡㅇㄱㅏ	-1327
▁ㄹㅓㄴ	-1328
▁ㅈㅗㅇㄹㅠ	-1329
▁ㅇㅗㄻ	-1330
▁ㅎㅕㄱㅁㅕㅇ	-1331
ㅇㅘㄴ	-1332
ㅎㅕㅂ	-1333
▁ㅁㅗㅇ	-1334
▁ㅎㅘㄱㅇㅣㄴ	-1335
▁ㅎㅐㅇㅇㅟ	-1336
BC	-1337
ㅁㅂㅓ	-1338
▁ㅈㅡ	-1339
ㅁㅗㄴ	-1340
ㄴㅔㅅ	-1341
▁ㄷㅡㄱ	-1342
▁ㅎㅕㅂㅎㅚ	-1343
▁ㅇㅘㅇㄱㅜㄱ	-1344
▁ㄴㅏㄱ	-1345
ㅌㅓㄹ	-1346
▁ㄱㅜㄴㄷㅐ	-1347
ㄷㅡㄹㅇㅣ	-1348
ㅅㅣㅇ	-1349
▁ㄹㅣㅇ	-1350
ㄷㅡㅁ	-1351
▁ㅇㅗㄻㄱㅣ	-1352
▁ㄴㅏㅁㅂㅜ	-1353
▁X	-1354
ㅂㅕㄱ	-1355
▁ㅎㅡㅇ	-1356
▁p	-1357
▁ㅅㅐㅇㄱㅣ	-1358
ㅋㅓㄹ	-1359
▁ㄱㅓㄴㅊㅜㄱ	-1360
▁2001	-1361
▁ㅇㅠㄱㄱㅜㄴ	-1362
▁ㅎㅗㄱㅇㅡㄴ	-1363
▁1990	-1364
ㄷㅔㄴ	-1365
▁ㅁㅜㄹㄹㅣ	-1366
▁ㄱㅏㅇㅎㅏ	-1367
▁ㄱㅏㅈㅊㅜ	-1368
▁ㄷㅏㅁㄷㅏㅇ	-1369
▁ㄷㅗㅇㅉㅗㄱ	-1370
▁ㄷㅗㅇㅇㅣㄹ	-1371
ㅌㅠ	-1372
▁ㅂㅣㄴ	-1373
▁ㅎㅡㄴ	-1374
ㅋㅔㅅ	-1375
▁ㅂㅏㄴㅇㅡㅇ	-1376
▁ㅊㅜㅇㅊㅓㅇ	-1377
▁ㅈㅏㅇㄱㅘㄴ	-1378
▁ㄱㅏㅂ	-1379
ㅇㅣㄹㄹㅣ	-1380
▁ㄱㅗㅇㅅㅏ	-1381
▁ㅅㅓㅇㅈㅏㅇ	-1382
▁ㅎㅚㄱ	-1383
▁ㅊㅐㅁㅍㅣ	-1384
▁ㅈㅓㅇㄷㅏㅇ	-1385
ㅊㅐ	-1386
▁189	-1387
▁ㄱㅗㅇㅅㅏㄴ	-1388
▁ㅈㅟ	-1389
ㅁㅐㄱ	-1390
ㅋㅏㄴ	-1391
▁ㄹㅗㄱ	-1392
▁ㅇㅣㄴㄱㅣ	-1393
▁ㅂㅏㅇㅇㅕㅇ	-1394
▁ㅍㅜㅁ	-1395
▁d	-1396
▁ㅂㅗㄹ	-1397
▁FIFA	-1398
ㅌㅔㄴ	-1399
▁ㅇㅐㄱ	-1400
▁ㄴㅡㄹ	-1401
▁ㅈㅓㄱㅇㅛㅇ	-1402
ㄷㅜㅇ	-1403
▁ㄴㅓㅎ	-1404
ㅈㅘ	-1405
ㅓㄹㄹㅣ	-1406
▁ㄱㅗㅇㅎㅏㅇ	-1407
▁ㅁㅐㄴ	-1408
ㅂㅏㄷ	-1409
▁ㅈㅣㅇ	-1410
▁ㄱㅚ	-1411
▁ㄱㅜㄱㄹㅣㅂ	-1412
▁ㅎㅡㄱ	-1413
▁ㅉㅗㄱ	-1414
▁ㅊㅣㅇ	-1415
▁ㅆㅏㅇ	-1416
▁ㅋㅓㄴ	-1417
▁ㅈㅏㄱㅈㅓㄴ	-1418
el	-1419
et	-1420
ㅇㅐㄱ	-1421
▁ㅈㅏㄴ	-1422
▁ㅍㅣㄹㄹㅣ	-1423
▁ㄷㅓㄱ	-1424
▁ㅌㅡㄱㅈㅓㅇ	-1425
▁ㅇㅜㅁ	-1426
▁ㄸㅏㅇ	-1427
ㄴㅣㅇ	-1428
ㅊㅟ	-1429
ㅈㅡㅁ	-1430
▁ㅅㅏㅇㄷㅏㅇ	-1431
▁ㅇㅟㄴ	-1432
▁ㄱㅘㄴㅎㅏㄹ	-1433
▁ㅇㅣㅂㄷㅏㄴ	-1434
ion	-1435
▁ㄷㅗㄴ	-1436
▁ㅁㅔㅁㅂㅓ	-1437
ㅁㅡ	-1438
▁ㅅㅓㄴㅊㅜㄹ	-1439
ㄲㅏㅂ	-1440
▁ㄱㅗㄷ	-1441
▁ㄱㅕㄹㅅㅡㅇ	-1442
▁ㅇㅕㄴㄱㅣ	-1443
ㄴㅑ	-1444
ㅇㅝㄴㅈㅓㄴ	-1445
▁ㅇㅕㅇㅇㅓ	-1446
▁ㅂㅜㄱㅂㅜ	-1447
▁ㅅㅓㄴㅇㅓㄴ	-1448
ㄷㅣㅇ	-1449
▁ㅅㅗㄱㄷㅗ	-1450
▁ㅇㅕㄴㅅㅗㄱ	-1451
▁ㅎㅓㄴㅂㅓㅂ	-1452
▁ㅇㅕㄴㅈㅜ	-1453
▁ㅅㅣㄹㅍㅐ	-1454
▁ㅎㅏㅁㅅㅜ	-1455
▁ㅇㅣㄴㅊㅓㄴ	-1456
21	-1457
▁ㅅㅓㄹㄱㅖ	-1458
ㅇㄱㅡㄹㄹㅐㄴㄷㅡ	-1459
ing	-1460
▁ㅅㅟㅂ	-1461
▁ㅇㅖㅅ	-1462
▁ㅅㅓㄴㅌㅐㄱ	-1463
▁ㅇㅕㄴㄷㅐ	-1464
▁ㄷㅏㄴㄱㅖ	-1465
ㅍㅣㄴ	-1466
ol	-1467
▁ㅂㅔㄹ	-1468
▁1999	-1469
▁ㅊㅜㄹㅍㅏㄴ	-1470
ㅌㅔㄹ	-1471
▁ㅁㅜㄹㅈㅣㄹ	-1472
▁ㅇㅙ	-1473
▁ㄱㅗㅇㅇㅝㄴ	-1474
ㅇㅓㄹ	-1475
▁ㅂㅜㄴㅅㅓㄱ	-1476
▁1998	-1477
▁ㄱㅗㅇㄹㅣㅂ	-1478
▁ㄷㅏㄹㄹㅓ	-1479
ㄹㅡㅇ	-1480
▁ㅍㅕㅇㄱㅠㄴ	-1481
▁cm	-1482
▁ㅊㅓㄱ	-1483
▁ㅁㅕㅇㄹㅕㅇ	-1484
▁o	-1485
▁Y	-1486
ㄹㅛㅇ	-1487
▁ㅂㅏㅁ	-1488
ㄱㅣㄹ	-1489
▁ㄴㅗㄴㄹㅏㄴ	-1490
▁ㅈㅓㅇㅅㅣㄴ	-1491
▁ㅁㅜㄴㅈㅏ	-1492
ㄷㅓㄹ	-1493
▁ㅇㅣㅇㄱㅡㄹㄹㅐㄴㄷㅡ	-1494
ㅍㅖ	-1495
ㅌㅗㄴ	-1496
▁ㅅㅜㄹ	-1497
▁ㅅㅣㅇ	-1498
▁1980	-1499
▁ㅊㅣㄴㄱㅜ	-1500
ㅅㅕ	-1501
▁ㅁㅓㄴ	-1502
ㄹㅚ	-1503
ㅊㅓㄱ	-1504
▁ㄱㅏㅇㅎㅘ	-1505
▁ㄴㅡㄴㅈㅣ	-1506
▁ㅎㅘㄱㅈㅏㅇ	-1507
ㄷㅏㅂ	-1508
▁ㅂㅜㄴㄹㅣ	-1509
▁ㄲㅗㅊ	-1510
▁35	-1511
▁ㅂㅜㄱㅎㅏㄴ	-1512
▁60	-1513
▁ㅎㅚㄱㄷㅡㄱ	-1514
▁mm	-1515
▁ㅆㅣㄱ	-1516
ㅌㅡㄴ	-1517
▁n	-1518
ㄱㅘㅇㅇㅕㄱㅅㅣ	-1519
ㅅㅙ	-1520
▁ㅍㅕㄴㅅㅓㅇ	-1521
ㅍㅗㄴ	-1522
▁ㅇㅝㄴㅈㅏ	-1523
▁ㅂㅓㅂㅇㅝㄴ	-1524
▁ㅈㅣㅂㄷㅏㄴ	-1525
▁ㅍㅐㄴ	-1526
▁ㄹㅗㅂ	-1527
▁ㅇㅞㅂ	-1528
▁ㅂㅗㄴㅅㅓㄴ	-1529
▁ㅈㅓㅇㄱㅠ	-1530
ㅉㅐ	-1531
ㄹㅐㅅ	-1532
▁ㅅㅣㄹㅎㅓㅁ	-1533
▁ㄴㅏㅁㄱㅣ	-1534
▁ㅎㅕㄴㅅㅏㅇ	-1535
ㅅㅑ	-1536
▁ㅇㅣㄹㅈㅗㅇ	-1537
▁ㅇㅔㄴㅈㅣㄴ	-1538
▁ㅇㅓㄴㄱㅡㅂ	-1539
▁ㄱㅗㄴ	-1540
▁ㅅㅓㄴㅂㅏㄹ	-1541
▁ㅁㅗㄱㅍㅛ	-1542
ㅇㅠㄴ	-1543
▁ㅌㅗㅇㅇㅣㄹ	-1544
▁ㅂㅜㄹㄱㅛ	-1545
▁ㅇㅡㄴㅌㅚ	-1546
▁ㅌㅗㅇㅅㅣㄴ	-1547
ㅅㅓㅅ	-1548
om	-1549
ㅇㅡㅂ	-1550
ㄲㅟ	-1551
▁ㄱㅣㄹㅇㅣ	-1552
▁ㅁㅐㅈ	-1553
▁ㅂㅔㄴ	-1554
▁ㅇㅛㅇㅇㅓ	-1555
ㅎㅖ	-1556
▁ㅇㅏㅇ	-1557
▁ㄱㅘㄴㅅㅣㅁ	-1558
ㅈㅔㄱㅌㅡ	-1559
ㄷㅓㄹㄹㅏㄴㄷㅡ	-1560
▁ㅈㅏㅇㅊㅣ	-1561
▁ㅋㅐㅁ	-1562
▁ㅈㅏㅇㄱㅜㄴ	-1563
▁ㅎㅐㅇㅅㅏ	-1564
▁1997	-1565
ㅆㅏ	-1566
▁ㅁㅜㄴㅅㅓ	-1567
▁ㄷㅔㄴ	-1568
ㅇㅣㄹㄹㅐㄴㄷㅡ	-1569
ㄷㅚ	-1570
▁ㄱㅘㅇㅈㅜ	-1571
▁ㅇㅣㅅ	-1572
▁ㄱㅕㄹㅎㅏㅂ	-1573
st	-1574
ㄲㅗ	-1575
▁ㅂㅜㄴㅍㅗ	-1576
▁ㅎㅏㄹ	-1577
▁ㅈㅓㅇㄹㅣ	-1578
▁ㅎㅏㄱㅈㅏ	-1579
ㅁㅛ	-1580
▁ㅇㅝㄴㅇㅣㄴ	-1581
▁ㅁㅗㄴ	-1582
ㄱㅏㅂ	-1583
▁ㅎㅕㄹ	-1584
▁ㅅㅖ	-1585
▁ㅈㅓㅁㄹㅕㅇ	-1586
▁ㅇㅔㄹ	-1587
ㅌㅡㄱㅂㅕㄹ	-1588
▁ㅇㅓㄴㄹㅗㄴ	-1589
▁amp	-1590
▁1995	-1591
▁1996	-1592
▁ㅇㅠㄹ	-1593
ㅕㅁ	-1594
ㅂㅔㄴ	-1595
▁ㅇㅏㄴㅈㅓㅇ	-1596
▁ㄷㅗㅇㅁㅐㅇ	-1597
▁ㅉㅣ	-1598
▁32	-1599
ㅌㅗㄹㄹㅣ	-1600
▁ㅇㅣㄹㅈㅔ	-1601
▁The	-1602
▁ㅊㅗㄱ	-1603
▁ㅅㅣㄴㅁㅜㄴ	-1604
▁ㅎㅑㅇㅎㅏ	-1605
▁ㄱㅏㅄ	-1606
▁ㅁㅕㄴㅈㅓㄱ	-1607
▁ㅅㅓㅇㅈㅓㄱ	-1608
▁ㅇㅣㅀ	-1609
▁ㅈㅓㅇㅎㅏ	-1610
▁70	-1611
▁ㅈㅜㄴㅂㅣ	-1612
▁ㅁㅏㄴㅎㅘ	-1613
ㅎㅓ	-1614
ㄹㅓㅎㄱㅔ	-1615
▁ㄱㅣㅍ	-1616
▁ㅇㅘㅇㅈㅗ	-1617
▁ㅊㅐㄱㅇㅣㅁ	-1618
▁ㅂㅏㅇㅁㅜㄴ	-1619
▁ㅂㅣㅊ	-1620
▁ㅌㅗㅇㄱㅘ	-1621
▁ㅍㅗㄹㄹㅏㄴㄷㅡ	-1622
▁ㅈㅗㅇㅎㅏㅂ	-1623
ㅇㅣㄴㅌㅡ	-1624
▁ㄲㅡㄹ	-1625
▁ㅍㅣㄴ	-1626
▁ㅁㅕㄹ	-1627
▁ㅅㅡㅂ	-1628
ㄲㅡ	-1629
▁ㄲㅡㅌㄴㅏ	-1630
am	-1631
ㅋㅠ	-1632
ㄴㅡㄹㄴㅏㄹ	-1633
▁ㅈㅓㅇㅎㅘㄱ	-1634
▁ㅈㅓㅇㄱㅝㄴ	-1635
▁ㄹㅓㄴㄷㅓㄴ	-1636
▁ㄴㅓㄹㄹㅣ	-1637
▁ㅂㅓㄴㅎㅗ	-1638
▁ㅂㅕㅇㅇㅝㄴ	-1639
▁the	-1640
ㄱㅅㅣ	-1641
▁ㅍㅕㅇㅎㅘ	-1642
▁500	-1643
▁ㅈㅓㅂㅎㅏ	-1644
▁ㄲㅣ	-1645
▁ㅅㅣㄴㄹㅏ	-1646
ㄴㅟ	-1647
▁ㅅㅏㅁㅅㅓㅇ	-1648
ㅅㅣㅂ	-1649
▁ㅊㅗㅇㄹㅣ	-1650
▁+	-1651
▁80	-1652
▁UE	-1653
▁ㅇㅔㄹㄹㅣ	-1654
▁ㅊㅡ	-1655
▁ㄱㅞ	-1656
▁ㅊㅏㄴ	-1657
▁ㅅㅐㅇㅁㅜㄹ	-1658
▁ㄱㅕㅇㅎㅓㅁ	-1659
▁ㄷㅡㅅ	-1660
▁ㅌㅗㅇㅊㅣ	-1661
il	-1662
▁ㅇㅕㄴㅁㅐㅇ	-1663
ㅇㅓㅆ	-1664
▁ㄱㅕㅇㅇㅕㅇ	-1665
▁ㅎㅜㄴㄹㅕㄴ	-1666
▁ㅇㅕㅇㅇㅕㄱ	-1667
▁188	-1668
▁ㅇㅗㄹㄹㅏ	-1669
ㅊㅣㄴ	-1670
▁ㄱㅕㅇㅈㅐㅇ	-1671
ㄸㅓ	-1672
▁1994	-1673
▁UEFA	-1674
▁ㅎㅗㄹ	-1675
▁ㅂㅏㄹㅅㅏ	-1676
▁ㅂㅏㄱㅁㅜㄹ	-1677
▁ㄷㅗㅇㅂㅜ	-1678
▁ㅎㅐㅇㅅㅓㅇ	-1679
▁ㅂㅜㄹㄱㅜ	-1680
▁ㅂㅏㅇㅇㅓ	-1681
ㅋㅗㅇ	-1682
▁ㄷㅡㅇㄹㅗㄱ	-1683
▁ㄱㅏㅇㅇㅝㄴ	-1684
ac	-1685
▁ㄱㅕㅇㄱㅖ	-1686
▁ㅍㅗㄴ	-1687
▁ㄲㅐ	-1688
▁1970	-1689
▁ㅂㅓㅂㄹㅠㄹ	-1690
▁ㅇㅏㄹㄹㅔㄱ	-1691
ㄷㅡㅁㅎㅐ	-1692
▁KBS	-1693
▁ㅂㅗㄱㄱㅟ	-1694
▁ㅁㅣㄷ	-1695
ㅎㅔㄴ	-1696
▁ㅅㅣㄱㅁㅣㄴ	-1697
ㅁㅣㅇ	-1698
▁ㅇㅣㄱ	-1699
▁ㄴㅏㅁㅅㅓㅇ	-1700
ㅇㅣㅁㅅㅡ	-1701
▁ㅂㅏㄹㄷㅏㄹ	-1702
▁ㅈㅓㅇㅅㅏㅇ	-1703
ro	-1704
▁ㄱㅕㄹㅅㅓㅇ	-1705
▁ㅋㅡㄹㄹㅏ	-1706
▁ㅂㅣㄱ	-1707
ㅌㅗㄹㄹㅣㄱ	-1708
▁ㄴㅚ	-1709
▁ㅇㅓㅂㅁㅜ	-1710
▁1992	-1711
ㅉㅣ	-1712
▁ㄱㅡㅁㅈㅣ	-1713
▁ㅇㅣㅂㅈㅏㅇ	-1714
▁ㅈㅣㅂㅎㅏㅂ	-1715
▁ㅈㅓㅇㅅㅣㄱ	-1716
▁ㅂㅏㄱㅁㅜㄹㄱㅘㄴ	-1717
▁ㅊㅓㄹㅎㅏㄱ	-1718
ed	-1719
▁ㅇㅘㄴㅈㅓㄴㅎㅣ	-1720
ㄴㅣㅁ	-1721
▁45	-1722
▁ㅈㅓㅂㄱㅡㄴ	-1723
▁ㅇㅟㄹㄹㅣ	-1724
▁ㅈㅜㄱㅇㅣ	-1725
ㅅㅏㅁ	-1726
▁ㅂㅕㄱ	-1727
▁ㅇㅡㄴㅎㅐㅇ	-1728
▁ㅂㅜㅌㅇㅣ	-1729
▁ㅇㅣㄴㅅㅣㄱ	-1730
▁ㅇㅣㅁㅅㅣ	-1731
▁ㄷㅗㅂ	-1732
ㅅㅓㅂ	-1733
▁of	-1734
▁36	-1735
▁ㅇㅕㅇㅌㅗ	-1736
ㄸㅡ	-1737
ㅁㅔㄴ	-1738
ㄷㅠ	-1739
▁ㅈㅏㅇㅇㅐ	-1740
ㅋㅡㅁ	-1741
ㅋㅣㅇ	-1742
▁ㅉㅏㄼ	-1743
▁ㄱㅗㅇㅈㅏㄱ	-1744
ㅊㅏㄴㄱㅏ	-1745
▁ㄱㅜㄹ	-1746
ㅁㅕㄹ	-1747
▁ㅂㅏㄱㅅㅏ	-1748
ig	-1749
▁ㅂㅓㄹㅇㅣ	-1750
▁ㅅㅜㄴㅇㅟ	-1751
ㅂㅗㄹ	-1752
▁ㅍㅕㄹ	-1753
ㅌㅏㅂ	-1754
ㅇㅠㅇ	-1755
ㄹㄹㅣㄴ	-1756
▁ㅇㅜㅁㅈㅣㄱ	-1757
▁ㅅㅓㅇㄱㅕㄱ	-1758
ㄴㄱㅏ	-1759
▁ㅅㅏㅇㅎㅗ	-1760
▁ㄱㅘㄴㄱㅘㅇ	-1761
▁ㅈㅏㅇㅅㅗ	-1762
▁ㄱㅘㄴㅊㅡㄱ	-1763
▁ㅅㅣㄱㅁㅜㄹ	-1764
▁1991	-1765
▁ㅇㅕㄴㄱㅡㄱ	-1766
▁ㅂㅏㄴㅁㅕㄴ	-1767
▁ㄱㅓㅁㅅㅏ	-1768
ㅎㅗㄱ	-1769
ㅇㅜㅇ	-1770
ㅁㅠ	-1771
▁1960	-1772
▁ㅎㅘㄹㅇㅛㅇ	-1773
ㄹㅣㄱㅌㅓ	-1774
ㅌㅡㄱㅂㅕㄹㅅㅣ	-1775
▁1993	-1776
ㅇㅜㄹㅌㅡㄱㅂㅕㄹㅅㅣ	-1777
▁ㅍㅔㄴ	-1778
▁ㅈㅜㄱㅇㅡㅁ	-1779
▁ㅂㅏㄷㅇㅏ	-1780
▁ㅍㅡㄹㄹㅏ	-1781
od	-1782
ㅍㅗㄱ	-1783
▁33	-1784
▁ㄷㅡㄱㅈㅓㅁ	-1785
▁ㅂㅏㄹㅎㅐㅇ	-1786
ㅈㅏㄴ	-1787
▁ㅇㅟㄴㄷㅗ	-1788
▁ㅇㅏㄴㅈㅓㄴ	-1789
▁ㅊㅏㅈㅇㅏ	-1790
ㅁㅕㄴㅅㅓ	-1791
▁ㄱㅕㅇㅅㅏㅇㄴㅏㅁㄷㅗ	-1792
▁ㄸㅣ	-1793
ㅎㅗㅇ	-1794
ㄱㅜㄱㅇㅣㄴ	-1795
▁ㅂㅜㅇ	-1796
▁ㅇㅣㄹㅈㅓㅇ	-1797
▁ㅅㅡㅂㄴㅣ	-1798
▁ㄷㅏㄴㅅㅜㄴ	-1799
▁ㄱㅡㄴㅊㅓ	-1800
▁ㄱㅣㄴ	-1801
▁ㄹㅑㅇ	-1802
▁ㄱㅕㅇㅅㅏㅇㅂㅜㄱㄷㅗ	-1803
▁ㅈㅜㅇㄱㅏㄴ	-1804
as	-1805
▁ㅂㅓㄴㅇㅕㄱ	-1806
ㅅㅗㄱㄷㅗ	-1807
▁ㅇㅣㄴㅅㅏ	-1808
▁ㅈㅓㄴㅅㅣ	-1809
ve	-1810
▁ㅋㅟ	-1811
▁ㅎㅡㅂ	-1812
▁ㄷㅏㄴㅇㅓ	-1813
▁ㅎㅕㅇㅈㅔ	-1814
ㅋㅗㄴ	-1815
▁186	-1816
ㄷㅓㅁ	-1817
ㄱㅌㅓ	-1818
▁ㅊㅗㅇㅅㅓㄴ	-1819
▁ㅅㅐㅇㅅㅓㅇ	-1820
▁ㅈㅜㅇㄷㅏㄴ	-1821
▁ㅎㅖ	-1822
▁ㄱㅡㄴㄱㅓ	-1823
▁ㅂㅗㄴㅂㅜ	-1824
▁ㅎㅕㅂㄹㅕㄱ	-1825
▁ㅂㅏㄴㄹㅏㄴ	-1826
▁ㄱㅏㅇㄹㅕㄱ	-1827
▁ㄱㅝㄴㄹㅕㄱ	-1828
▁ㅅㅏㄻ	-1829
ㅇㅝㄴㅈㅏㅇ	-1830
▁ㅇㅝㄴㅅㅗ	-1831
▁ㅈㅗㅇㅁㅗㄱ	-1832
▁ㅊㅜㄹㅅㅐㅇ	-1833
▁ㅁㅔㄱㅅㅣ	-1834
▁ㅅㅏㅇㅈㅣㅇ	-1835
▁ㅅㅓㅇㄹㅣㅂ	-1836
▁ㄱㅡㄱㅈㅏㅇ	-1837
▁ㅇㅕㄴㅈㅏㅇ	-1838
ㄱㅕ	-1839
▁ㅊㅗㄴ	-1840
▁1988	-1841
ㅘㄹ	-1842
ㅈㅓㄴㅈㅏ	-1843
▁ㄱㅗㅇㅈㅏㅇ	-1844
▁",	-1845
▁ㅇㅑㅇㅅㅣㄱ	-1846
▁2021	-1847
ㄱㅗㄴ	-1848
▁ㅁㅏㅈㅊㅜ	-1849
▁ㅇㅗㅇ	-1850
▁ㅂㅗㄴㄱㅘㄴ	-1851
▁ㅅㅏㅇㅇㅓㅂ	-1852
ㅁㅏㄶ	-1853
▁ㅁㅓㄴㅈㅓ	-1854
▁ㄷㅏㄴㅇㅟ	-1855
ㅇㅏㄹ	-1856
▁187	-1857
▁ㅎㅏㄱㅇㅟ	-1858
▁ㄹㅔㄴ	-1859
▁ㄷㅗㅇㅅㅐㅇ	-1860
▁ㅇㅕㅇㅅㅏㅇ	-1861
▁ㄱㅡㄴㅁㅜ	-1862
▁ㅊㅘㄹ	-1863
▁ㅁㅏㄴㅋㅡㅁ	-1864
▁ㄱㅏㅁㅅㅗ	-1865
▁ㅌㅡㄱㅅㅜ	-1866
id	-1867
▁ㅌㅡㄱㅅㅓㅇ	-1868
▁ㅈㅚ	-1869
ㅇㅓㄱ	-1870
▁ㄱㅠㄴ	-1871
▁ㅅㅡㅇㄱㅕㄱ	-1872
ㅇㅓㅄ	-1873
▁ㄷㅠ	-1874
▁34	-1875
▁ㅎㅘㄱㄷㅐ	-1876
▁e	-1877
ㅇㅣㄴㄱㅗㅇ	-1878
ㅁㅗㅇ	-1879
▁ㅎㅕㅁ	-1880
▁38	-1881
▁ㄷㅗㅇㄱㅖ	-1882
▁48	-1883
ㅎㅕㄹ	-1884
▁ㅇㅕㅍ	-1885
ㅇㅜㅅ	-1886
▁ㅈㅓㄴㄹㅑㄱ	-1887
▁ㅊㅘㄹㅇㅕㅇ	-1888
▁ㅂㅓㄹㅇㅓ	-1889
▁1989	-1890
▁ㄹㅠㄹ	-1891
▁ㄷㅏㄹㅅㅓㅇ	-1892
▁ㅎㅗㅇㅋㅗㅇ	-1893
▁ㄱㅕㄲ	-1894
ㅍㅕㅇㅇㅑㅇ	-1895
▁90	-1896
▁ㅌㅗㄴ	-1897
ec	-1898
▁ㅇㅘㄴㅅㅓㅇ	-1899
▁ㅅㅜㅁ	-1900
and	-1901
▁ㅇㅏㄹㄹㅔㄱㅅㅏㄴ	-1902
us	-1903
▁ㄱㅜㄱㅇㅘㅇ	-1904
▁ㅅㅓㄹㅈㅓㅇ	-1905
ㅈㅣㅂㅌㅡ	-1906
▁1950	-1907
▁ㅅㅣㄱㅁㅣㄴㅈㅣ	-1908
▁?	-1909
▁ㅊㅡㄱㅈㅓㅇ	-1910
▁ㄱㅓㄹㄹㅣ	-1911
▁ㄱㅕㄹㅅㅡㅇㅈㅓㄴ	-1912
▁h	-1913
▁ㅈㅣㅅ	-1914
ㅍㅜㄹ	-1915
▁ㄹㅣㄴ	-1916
▁ㅅㅓㅇㅇㅜ	-1917
▁ㅈㅓㄻ	-1918
▁ㅊㅓㅇㄴㅕㄴ	-1919
▁ㅈㅣㄱㅎㅜ	-1920
▁ㄷㅏㅇㅅㅓㄴ	-1921
▁ㄴㅣㅁ	-1922
ㅈㅕ	-1923
▁ㄱㅝㄴㄹㅣ	-1924
▁ㅈㅓㄴㄷㅏㄹ	-1925
ㄷㅗㅇㅈㅏ	-1926
▁ㅁㅕㅇㄷㅏㄴ	-1927
ㅁㅕㅊ	-1928
▁ㅁㅕㅊㅁㅕㅊ	-1929
▁ㅃㅐ	-1930
▁ㄷㅡㄷ	-1931
ad	-1932
▁ㅅㅐㅇㅁㅕㅇ	-1933
▁ㅊㅣㄹ	-1934
▁ㅇㅡㅁㅅㅣㄱ	-1935
▁ㅈㅡㄱㅇㅟ	-1936
ㅐㅇㅋㅡ	-1937
▁ㅋㅗㄹ	-1938
▁ㅅㅏㅇㅎㅏ	-1939
ent	-1940
▁ㅈㅡㄹ	-1941
▁MBC	-1942
▁ㅁㅐㅇ	-1943
▁ㅅㅣㄴㄱㅕㅇ	-1944
▁ㅈㅗㅇㄹㅛ	-1945
▁ㅁㅣㅌ	-1946
▁ㄴㅏㅎ	-1947
▁ㅇㅡㄴㅎㅏ	-1948
NA	-1949
ㄹㅗㅇ	-1950
▁|	-1951
ㅈㅔㄴ	-1952
▁ㅊㅜㄴ	-1953
▁ㅈㅓㄴㅎㅘㄴ	-1954
▁300	-1955
▁ㄴㅏㅂ	-1956
▁ㅆㅏㅎ	-1957
▁ㅂㅓㅁㅈㅚ	-1958
▁ㅂㅡㄹㄹㅜ	-1959
ㅎㅐㄱ	-1960
▁ㄴㅗㄱㅇㅡㅁ	-1961
ㅊㅜㄴ	-1962
▁1945	-1963
▁ㄱㅘㄴㅊㅏㄹ	-1964
▁',	-1965
▁ㅌㅡㄹ	-1966
▁ㅍㅕㄹㅊㅣ	-1967
▁ㄴㅏㅁㅂㅜㄱ	-1968
▁ㅎㅓㅇ	-1969
▁ㅈㅓㄴㅊㅏ	-1970
ㅇㅕㅂ	-1971
ㅂㅠ	-1972
▁ㅍㅏㄴㄷㅏㄴ	-1973
▁ㅊㅓㅇㅅㅗ	-1974
50	-1975
▁ㄷㅏㄹㅎㅏ	-1976
▁ㄱㅕㅇㅈㅜ	-1977
▁ㄱㅓㄴㄱㅏㅇ	-1978
▁ㅁㅕㅇㅇㅖ	-1979
▁ㅊㅜㅇㄷㅗㄹ	-1980
▁ㄱㅏㅁㅇㅕㅁ	-1981
▁ㄱㅗㅇㄱㅜㄴ	-1982
▁x	-1983
▁ㅇㅣㄴㄱㅡㄴ	-1984
▁ㄱㅗㅇㄱㅡㅂ	-1985
ㅊㅓㄹㄷㅗ	-1986
ㅇㅣㄹㄹㅓ	-1987
▁ㅍㅗㄹㄹㅣ	-1988
▁ㅇㅜㄹㅅㅏㄴ	-1989
▁ㅅㅣㅍ	-1990
ㅂㅡㄴ	-1991
▁ㅊㅓㄴㅁㅜㄴ	-1992
ㅁㅐㄴ	-1993
▁ㅈㅏㅇㄱㅣ	-1994
▁ㅂㅗㄴㄹㅐ	-1995
▁ㄱㅗㅇㅂㅜ	-1996
▁ㅇㅣㄴㄷㅣ	-1997
▁ㄴㅗㅇㅇㅓㅂ	-1998
▁ㄱㅗㅇㅈㅜ	-1999
▁ㅁㅏㄴㄷㅡ	-2000
▁ㄴㅏㅁㅇㅏ	-2001
▁ㅇㅏㅆㅇㅓㅆ	-2002
▁ㅅㅚ	-2003
▁ㅅㅣㄴㅎㅏㄱ	-2004
ㅇㅗㅇ	-2005
▁ㅇㅣㅂㅎㅏㄱ	-2006
▁St	-2007
▁ㅇㅐㄴ	-2008
ㄹㅓㄱ	-2009
▁ㄱㅏㅇㅇㅝㄴㄷㅗ	-2010
▁ㅅㅣㄴㅎㅗ	-2011
▁ㅈㅏㄱㅅㅓㅇ	-2012
▁ㅎㅏㅂㄹㅠ	-2013
▁ㄱㅜㄴㅇㅣㄴ	-2014
ot	-2015
▁ㄷㅏㅂ	-2016
▁ㅈㅣㄹㄹㅑㅇ	-2017
▁ㅎㅔㄹ	-2018
▁ㅊㅓㄴㅎㅘㅇ	-2019
▁ㅇㅣㄴㅅㅜ	-2020
▁ㅇㅓㄹㅁㅏ	-2021
▁ㅈㅡㅇㅁㅕㅇ	-2022
▁ㅋㅗㅇ	-2023
▁ㄱㅜㄱㄱㅕㅇ	-2024
ㅂㅜㅇ	-2025
▁in	-2026
▁ㅇㅣㅍ	-2027
▁ㅎㅔㄴ	-2028
▁ㅅㅣㅁㄹㅣ	-2029
▁ㅇㅚㄴ	-2030
▁ㅇㅝㄴㅈㅓㅇ	-2031
▁ㄱㅐㄱ	-2032
ㅅㅡㄹㄹㅏㅁ	-2033
ㄴㅣㄴ	-2034
▁ㄱㅏㄱㅈㅗㅇ	-2035
un	-2036
▁ㅂㅡㄹㄹㅐㄱ	-2037
▁ㅍㅡㄹㄹㅗ	-2038
▁ㄱㅓㄴㄴㅓ	-2039
▁ㅈㅓㄴㅅㅏ	-2040
▁ㅎㅏㄱㅁㅜㄴ	-2041
▁ㄹㅏㅇ	-2042
▁ㅅㅣㄹㅎㅐㅇ	-2043
▁ㅇㅣㄺ	-2044
▁ㅋㅓㄹ	-2045
ㅋㅐ	-2046
ㅊㅏㅁ	-2047
▁ㅈㅜㄹㅇㅣ	-2048
▁ㅁㅣㄹㄷㅗ	-2049
ow	-2050
ㅅㅟ	-2051
ㅌㅣㄱ	-2052
▁ㅋㅐㄹㄹㅣ	-2053
▁ㅊㅜㅇㅊㅓㅇㄴㅏㅁㄷㅗ	-2054
▁ㅍㅕㄴㅈㅣㅂ	-2055
▁37	-2056
▁ㅇㅏㄴㄷㅡ	-2057
ㅎㅏㄱㅇㅝㄴ	-2058
ㄹㅏㅂ	-2059
ㄷㅏㄱ	-2060
▁w	-2061
▁ㅈㅓㅇㅊㅏㄱ	-2062
▁ㅌㅓㄹ	-2063
▁ㅂㅓㅅ	-2064
▁ㅈㅣㅂㅈㅜㅇ	-2065
▁ㄱㅜㄱㅂㅏㅇ	-2066
▁ㅊㅡㄱㅁㅕㄴ	-2067
▁ㅇㅑㅇㅈㅏ	-2068
▁ㄱㅘㅇㄱㅗ	-2069
ㅈㅓㄴㅎㅣ	-2070
▁ㅁㅏㄴㅇㅑㄱ	-2071
▁ㅁㅗㅇㄱㅗㄹ	-2072
ra	-2073
▁ㄱㅡㅁㅇㅠㅇ	-2074
ㅅㅛ	-2075
▁1987	-2076
▁ㄷㅡㅇㄱㅡㅂ	-2077
▁ㅎㅏㅂㅂㅕㅇ	-2078
▁ㅇㅑㄱㄱㅏㄴ	-2079
▁ㅂㅕㄴㅎㅗ	-2080
▁ㄴㅐㅇ	-2081
▁ㅌㅗㅇㅈㅔ	-2082
▁ㅋㅣㅇ	-2083
ㄹㅓㄹ	-2084
▁ㅁㅜㄹㄹㅗㄴ	-2085
ㄱㅔㄴ	-2086
▁ㅅㅜㅍ	-2087
▁ㅅㅓㅇㄱㅘ	-2088
▁1984	-2089
ㅂㅣㄹ	-2090
ㅋㅓㅅ	-2091
▁ㅎㅗㅁㄹㅓㄴ	-2092
▁1986	-2093
▁ㅂㅕㅇㄹㅕㄱ	-2094
▁41	-2095
▁ㅎㅏㄱㄴㅕㄴ	-2096
▁ㅅㅓㅇㅈㅣㄹ	-2097
ㅅㅕㄹ	-2098
▁ㅇㅑㅇㅅㅓㅇ	-2099
▁ㅈㅓㄴㄹㅕㄱ	-2100
▁ㅅㅗㄹ	-2101
▁51	-2102
▁ㅇㅔㄴㅌㅓ	-2103
▁ㄹㅕㅇ	-2104
▁ㅈㅓㄴㄱㅐ	-2105
▁ㅂㅜㅇㄱㅚ	-2106
ㅂㅜㅌ	-2107
ㄷㅗㅇㅇㅏㄴ	-2108
ㅋㅣㄴ	-2109
▁ㅎㅘㄴㅈㅏ	-2110
ch	-2111
▁ㄱㅗㅇㄱㅗㅇ	-2112
ㅁㅗㅅ	-2113
▁ㄷㅗㅇㅇㅏ	-2114
▁ㅇㅓㅂㅊㅔ	-2115
▁ㅍㅣㄴㄹㅏㄴㄷㅡ	-2116
▁ㅌㅟ	-2117
▁ㄱㅏㅇㅈㅗ	-2118
ㄴㅣㄱ	-2119
▁ㅈㅓㄴㅇㅕㄱ	-2120
▁ㄱㅡㄴㄷㅐ	-2121
▁ㅁㅣㄴㄱㅏㄴ	-2122
ur	-2123
▁ㅂㅕㅇㅅㅏ	-2124
ㅍㅣㄱ	-2125
▁ㅎㅓㅇㄱㅏ	-2126
▁ㄱㅜㄴㅈㅜ	-2127
ㅊㅗㄱ	-2128
▁ㄷㅟㅅ	-2129
▁ㅎㅕㅁㅇㅢ	-2130
▁ㅇㅣㅁㅁㅜ	-2131
▁ㅂㅗㅁ	-2132
ㅍㅔㄴ	-2133
▁ㅂㅓㅁㅇㅟ	-2134
ㄴㅑㅇ	-2135
▁ㄱㅏㅇㅈㅓㅁ	-2136
ㄴㅚ	-2137
ㅅㅓㅁ	-2138
▁II	-2139
▁ㅇㅗㄴㄷㅗ	-2140
▁ㅈㅏㅇㅂㅣ	-2141
▁ㅋㅡㄹㄹㅐ	-2142
▁ㅈㅏㅂㅈㅣ	-2143
▁ㅅㅓㅇㅇㅣㄴ	-2144
▁ㅊㅓㅁ	-2145
ㅍㅣㅇ	-2146
ㅕㅅㅓ	-2147
ㄹㅣㅅ	-2148
▁64	-2149
▁ㅎㅐㅇㅎㅏ	-2150
▁39	-2151
▁ㅈㅓㄴㅂㅏㄴ	-2152
▁1985	-2153
▁ㅌㅗㅇㄱㅖ	-2154
▁ㄸㅜ	-2155
▁ㅅㅡㅇㅇㅣㄴ	-2156
▁ㄱㅏㅇㅈㅔ	-2157
▁i	-2158
▁ㅇㅝㄴㅊㅣㄱ	-2159
▁ㅇㅕㄱㄷㅐ	-2160
▁ㅈㅗㅇㅇㅣ	-2161
▁ㅅㅓㄴㅅㅐㅇ	-2162
ㅅㅔㄹ	-2163
▁400	-2164
▁ㄱㅏㅇㅇㅢ	-2165
ut	-2166
▁ㅅㅓㅂ	-2167
▁ㅈㅓㄴㅅㅓㄴ	-2168
▁ㄱㅗㅇㅁㅜ	-2169
▁ㄱㅗㅇㅇㅓㅂ	-2170
▁ㅊㅜㅇㅂㅜㄴ	-2171
▁ㅅㅣㄴㅎㅘ	-2172
ㄷㅎㅣ	-2173
▁ㅎㅏㅇㅅㅏㅇ	-2174
▁ㅎㅏㅇㅅㅓㅇ	-2175
▁ㅈㅓㄱㄱㅡㄱ	-2176
▁ㅂㅏㄱㅈㅟ	-2177
▁ㅇㅣㄹㅇㅝㄴ	-2178
▁ㅈㅜㄹㄱㅓ	-2179
ㅇㅜㄴㅌㅣ	-2180
▁ㄴㅗㄴㅁㅜㄴ	-2181
ㅉㅏ	-2182
ㅈㅣㅅ	-2183
▁ㄲㅜㅁ	-2184
ㅂㅎㅣ	-2185
um	-2186
▁ㅊㅜㄹㅂㅏㄹ	-2187
▁ㄱㅗㅇㅅㅏㄴㄷㅏㅇ	-2188
ㅎㅕ	-2189
▁ㅁㅏㄴㅈㅗㄱ	-2190
▁br	-2191
ㄹㅕㅇㄱㅘㄴ	-2192
▁ㅎㅕㄴㅅㅣㄹ	-2193
▁ㅂㅜㄺ	-2194
ㅈㅓㅇㅂㅜ	-2195
▁ㄴㅏㅁㅍㅕㄴ	-2196
ㅅㅏㅇㅈㅏ	-2197
▁ㄷㅗㅇㄹㅛ	-2198
▁ㅁㅏㅅ	-2199
▁ㅅㅏㅁㄱㅜㄱ	-2200
▁ㅍㅗㄱㅂㅏㄹ	-2201
▁ㅈㅣㄴㅎㅘ	-2202
▁ㅂㅜㄹㄱㅏ	-2203
ㅇㅓㅅ	-2204
▁ㅈㅐㄱ	-2205
▁ㄱㅏㄴㅈㅜ	-2206
▁ㅌㅏㅂㅈㅐ	-2207
▁43	-2208
▁ㅇㅓㄹㄱㅜㄹ	-2209
▁ㅇㅏㅍㄷㅜ	-2210
▁ㅈㅗㅇㅈㅗㅇ	-2211
▁ㅂㅜㄴㅈㅏ	-2212
ㅇㅝㄴㄱㅜㄴ	-2213
ㅂㅐㄱㅈㅣㄹ	-2214
▁ㅋㅏㄹㄹㅣ	-2215
▁ㅈㅡㅇㄱㅓ	-2216
▁ㅎㅘㄱㅂㅗ	-2217
▁v	-2218
ㄴㅗㄴ	-2219
▁LG	-2220
▁ㄷㅜㄹㄹㅓ	-2221
▁ㅇㅛㄱ	-2222
▁ㄴㅏㅁㄷㅗㅇ	-2223
▁ㅃㅜ	-2224
▁42	-2225
▁ㅇㅝㄴㅈㅜ	-2226
▁ㄴㅏㅇ	-2227
▁ㄲㅓ	-2228
▁ㅍㅕㅇㅇㅑㅇ	-2229
▁ㄱㅘㅇㅇㅕㄱㅅㅣ	-2230
ㅏㅅㅓ	-2231
▁ㅋㅏㅁ	-2232
▁ㄱㅜㄴㄷㅏㄴ	-2233
ㄱㅓㅂ	-2234
▁ㅈㅓㅁㅊㅏ	-2235
▁1982	-2236
▁ㄷㅡㄴ	-2237
▁ㅊㅏㄹ	-2238
▁ㅍㅗㅁ	-2239
FC	-2240
▁ㄱㅏㅇㅈㅓㅁㄱㅣ	-2241
ㅇㅜㄴㄷㅗㅇ	-2242
ㄴㅠㅁ	-2243
▁ㅅㅣㄴㅅㅓㄹ	-2244
ㅍㅡㄴ	-2245
im	-2246
▁55	-2247
ir	-2248
▁ㅎㅏㅂㅇㅢ	-2249
ㅅㅡㅁ	-2250
▁ㄷㅔㄴㅁㅏ	-2251
▁ㅇㅠㅇ	-2252
▁ㅇㅗㄴㄹㅏ	-2253
▁ㅈㅓㄴㅅㅓㄹ	-2254
▁ㅈㅣㅁ	-2255
▁ㅈㅏㅇㅅㅣㄱ	-2256
▁ㄲㅡㄶ	-2257
▁ㅎㅑㅇㅅㅏㅇ	-2258
▁ㅇㅜㅁㅈㅣㄱㅇㅣ	-2259
ㄷㅜㄱ	-2260
ㅌㅡㄹㄹㅐㄴㄷㅡ	-2261
ㅂㅅㅡ	-2262
▁ㅇㅏㅍㅅㅓ	-2263
ㄹㅗㄹ	-2264
▁ㄱㅕㅇㅎㅑㅇ	-2265
▁ㅍㅕㄴㅇㅣㅂ	-2266
ㅍㅗㄹㄹㅣ	-2267
▁ㅊㅓㅇㄴㅏ	-2268
▁1983	-2269
▁ㄷㅏㄴㅂㅐㄱㅈㅣㄹ	-2270
ㅋㅗㄹ	-2271
▁ㅊㅏㅇㅅㅓㄹ	-2272
ㅇㅐㄴ	-2273
▁ㅈㅏㅇㅁㅕㄴ	-2274
▁ㅅㅜㅇ	-2275
▁ㅆㅗ	-2276
▁ㅊㅣㅁㄱㅗㅇ	-2277
▁ㅁㅏㄴㅈㅜ	-2278
ㄹㅡㅁㄷㅏㅂ	-2279
▁ㅅㅣㅁㅎㅏ	-2280
ㅂㅣㅇ	-2281
▁ㅂㅓㅂㅇㅣㄴ	-2282
▁ㅇㅠㄱㅅㅏㅇ	-2283
ㅁㅜㄴㅎㅘ	-2284
ㄱㅓㅁ	-2285
▁44	-2286
▁ㅎㅏㅂㅊㅣ	-2287
▁Z	-2288
▁ㅋㅗㄹㄹㅗ	-2289
▁ㅎㅘㄱㅅㅣㄹ	-2290
ㅋㅓㄴ	-2291
▁47	-2292
▁ㄴㅑ	-2293
CA	-2294
▁ㄷㅏㄴㅈㅣ	-2295
▁ㅇㅘㅇㅇㅟ	-2296
▁ㅅㅜㄴㅅㅓ	-2297
ㄸㅓㅎ	-2298
▁ㅈㅗㅁ	-2299
▁ㅂㅕㄴㅎㅏ	-2300
▁ㅃㅗ	-2301
ㅅㅜㅇ	-2302
▁ㅅㅗㄹㄹㅗ	-2303
▁ㅅㅏㄹㅎㅐ	-2304
▁ㅌㅏㄴㅅㅐㅇ	-2305
ㅎㅏㄱㅅㅐㅇ	-2306
▁ㅅㅣㄴㅇㅏㅇ	-2307
ay	-2308
▁ㄱㅗㅇㅇㅠ	-2309
▁ㄷㅗㄱㅈㅏ	-2310
▁ㅎㅣㄹ	-2311
▁ㅈㅓㄴㅎㅘ	-2312
▁CD	-2313
ㅎㅠ	-2314
▁75	-2315
ㄴㅢ	-2316
▁ㅅㅓㅇㄷㅏㅇ	-2317
▁ㅈㅏㅁㅅㅣ	-2318
ㅅㅖ	-2319
ㅅㅣㅇㅌㅓㄴ	-2320
▁ㅅㅓㄴㄱㅗ	-2321
▁ㅂㅏㄴㄷㅗ	-2322
▁ㅅㅏㄴㅁㅐㄱ	-2323
ㄱㅏㄱㅎㅕㅇ	-2324
▁ㄹㅗㅅ	-2325
▁ㅎㅏㅁㄷㅐ	-2326
ver	-2327
▁ㄱㅘㄴㄹㅛ	-2328
▁ㅍㅡㄹㄹㅐㅅ	-2329
▁ㅂㅗㄱㅈㅏㅂ	-2330
▁ㅂㅓㅂㅊㅣㄱ	-2331
▁ㅈㅓㄴㅇㅛㅇ	-2332
▁ㄱㅗㅇㅎㅏㄱ	-2333
▁ㅇㅏㅁㅅㅏㄹ	-2334
▁ㅎㅘㄱㅈㅓㅇ	-2335
▁ㄴㅗㄹ	-2336
▁ㅇㅕㄴㄱㅗ	-2337
▁1972	-2338
ㅅㅈㅏ	-2339
ㄱㅗㅂ	-2340
ㄹㅏㅇㅋㅡ	-2341
▁ㅈㅓㄴㅎㅜ	-2342
▁ㄴㅡㄹㅇㅓ	-2343
▁ㅍㅏㄴㄱㅕㄹ	-2344
▁184	-2345
▁ㅁㅏㄹㄱㅣ	-2346
ㄹㅣㄴㅇㅣ	-2347
▁46	-2348
▁ㅂㅣㄹㄹㅣ	-2349
ㄷㅜㄴ	-2350
▁180	-2351
▁ㅅㅐㄴ	-2352
▁ㄱㅡㄹㄹㅗ	-2353
▁ㅎㅐㄱㅅㅣㅁ	-2354
ㅎㅔㄴㅌㅣ	-2355
▁ㄱㅏㅁㅈㅓㅇ	-2356
ㅈㅔㄹ	-2357
▁ㅈㅓㄹㄷㅐ	-2358
▁ㅈㅜㅇㅂㅏㄴ	-2359
▁ㅈㅜㅇㅅㅣㅁㅈㅣ	-2360
ㅇㅗㄹ	-2361
▁ㅂㅜㄹㄱㅘ	-2362
▁ㄴㅗㄴㄹㅣ	-2363
▁1979	-2364
▁ㄴㅓㅁㅇㅓ	-2365
▁ㅊㅏㅁㅅㅓㄱ	-2366
▁ㄷㅗㅇㅇㅢ	-2367
ㄹㅡㄹㄹㅣㄴ	-2368
ㅂㅏㄴㄷㅗ	-2369
▁1920	-2370
▁ㅈㅣㅂㅎㅐㅇ	-2371
ㄲㅗㅊ	-2372
ㄹㅕㅇㅂㅜ	-2373
▁ㅁㅣㄹㄹㅣ	-2374
▁kg	-2375
ㅊㅣㄹ	-2376
▁ㅂㅕㄹㄷㅗ	-2377
▁In	-2378
▁ㅅㅣㄹㄹㅣ	-2379
10	-2380
▁ㅎㅡㄴㅎㅣ	-2381
▁ㅇㅕㄴㅅㅏㄴ	-2382
▁ㄷㅏㄴㅇㅣㄹ	-2383
▁ㅋㅔㄴ	-2384
ㄷㅗㄴ	-2385
▁ㅂㅗㄴㄱㅕㄱ	-2386
▁ㅈㅜㅇㅅㅔ	-2387
▁ㄱㅗㅇㄱㅣ	-2388
ㄱㅘㄹ	-2389
▁ㅅㅏㅇㅍㅜㅁ	-2390
▁1981	-2391
▁ㄱㅡㅁㅁㅔ	-2392
▁ㅂㅏㅇㅁㅕㄴ	-2393
▁ㄱㅗㅇㅍㅗ	-2394
▁ㄱㅓㅁㅊㅏㄹ	-2395
▁ㄱㅝㄴㅎㅏㄴ	-2396
ㅋㅏㄹ	-2397
▁ㄱㅓㄴㄱㅜㄱ	-2398
▁1973	-2399
▁ㅅㅏㄹㅇㅏ	-2400
ㄹㅜㄱ	-2401
BO	-2402
▁1930	-2403
▁ㅎㅕㅂㅅㅏㅇ	-2404
▁ㅊㅏㅇㄹㅣㅂ	-2405
▁ㅅㅏㄴㅎㅏ	-2406
▁ㅇㅝㄴㅈㅏㄱ	-2407
▁ㄷㅓㅍ	-2408
▁ㅎㅕㅂㅈㅓㅇ	-2409
▁ㅈㅣㄱㅇㅝㄴ	-2410
em	-2411
os	-2412
ㅎㅗㄹ	-2413
ㅅㅏㄴㅅㅣ	-2414
▁ㅇㅝㄴㄹㅣ	-2415
▁ㅈㅏㄱㄱㅗㄱㄱㅏ	-2416
▁ㅇㅣㄴㄱㅝㄴ	-2417
▁ㅈㅓㄴㅊㅓㄹ	-2418
ㅁㅗㄹ	-2419
▁150	-2420
▁ㄱㅓㄴㅈㅗ	-2421
▁ㅈㅜㅇㅂㅜ	-2422
▁ㄱㅣㅁㅈㅓㅇ	-2423
ter	-2424
ㄹㅠㅁ	-2425
▁ㅇㅜㄴㅇㅛㅇ	-2426
ㄹㅕㅁ	-2427
▁ㅈㅓㅇㄱㅛ	-2428
▁ㅎㅏㅂㅅㅓㅇ	-2429
▁ㅌㅔㄱ	-2430
▁ㅉㅗ	-2431
▁ㅈㅓㄴㅈㅜ	-2432
30	-2433
▁ㅂㅗㄱㅎㅏㅂ	-2434
▁ㅌㅐㄱ	-2435
▁ㅂㅣㅇ	-2436
ㅇㅓㅄㅇㅣ	-2437
ㄹㅣㄹ	-2438
▁ㅅㅔㅅ	-2439
▁1974	-2440
▁ㄱㅜㄴㅅㅜ	-2441
▁ㅇㅣㄴㅅㅏㅇ	-2442
ㄷㅣㄴ	-2443
▁ㄱㅡㅁㅅㅗㄱ	-2444
ㅆㅣㄴ	-2445
ㄴㅕㅇ	-2446
▁ㅎㅕㅇㅅㅏ	-2447
ㅈㅔㄹㄹㅔ	-2448
▁ㅇㅗㅅ	-2449
▁ㅇㅡㅂ	-2450
▁1940	-2451
ㄹㅡㄴㅉㅗㄱ	-2452
▁ㅋㅡㄹㄹㅔ	-2453
▁ㄱㅏㄱㅂㅗㄴ	-2454
▁ㅂㅜㄱㅅㅓ	-2455
▁ㄹㅐㅇ	-2456
▁ㄴㅗㅎㅇㅣ	-2457
▁ㅈㅏㅇㅊㅏㄱ	-2458
▁ㅎㅔㄴㄹㅣ	-2459
▁ㅎㅕㄴㅈㅏㅇ	-2460
▁ㅇㅔㅁ	-2461
▁ㅈㅓㅇㅂㅗㄱ	-2462
▁ㅊㅏㅇㅈㅗ	-2463
▁ㅅㅓㅇㄱㅕㅇ	-2464
▁185	-2465
▁ㄱㅏㄹㄷㅡㅇ	-2466
▁ㅇㅚㄴㅉㅗㄱ	-2467
▁ㅇㅣㄴㅈㅗ	-2468
ㅇㅏㅅ	-2469
ㅉㅣㄱ	-2470
▁ㅎㅏㄴㄸㅐ	-2471
▁ㄱㅜㄱㄷㅗ	-2472
▁ㅌㅏㄱ	-2473
▁SBS	-2474
▁ㅇㅣㄴㄱㅗㅇ	-2475
▁ㅈㅏㄹㅁㅗㅅ	-2476
▁ㅇㅣㅇ	-2477
▁ㄴㅗㄴㅈㅐㅇ	-2478
▁ㅁㅕㄹㅁㅏㅇ	-2479
▁ㅎㅏㄴㄱㅜㄱㅇㅓ	-2480
ㄱㅐㄱㅊㅓㄹㄷㅗ	-2481
▁1968	-2482
▁ㅊㅜㄱㅈㅔ	-2483
▁ㅎㅏㅇㅂㅗㄱ	-2484
▁54	-2485
▁ㅂㅏㅇㅊㅜㄹ	-2486
▁1948	-2487
▁ㅇㅣㄴㄹㅠ	-2488
▁1976	-2489
ㅃㅡ	-2490
▁ㅈㅓㅇㅂㅣ	-2491
ㅇㅣㅇ	-2492
▁ㅅㅜㅅㅈㅏ	-2493
▁ㄱㅓㄴㄹㅣㅂ	-2494
▁ㅇㅣㄴㅈㅓㅇㅂㅏㄷ	-2495
▁ㅈㅓㄴㅎㅕ	-2496
▁ㅊㅜㄹㅇㅣㅂ	-2497
▁ㅊㅜㄹㅈㅏㅇ	-2498
ㄲㅐ	-2499
▁ㄱㅕㅇㅅㅓㅇ	-2500
▁ㅇㅡㅁㄹㅕㄱ	-2501
▁ㅅㅡㄹㄹㅗ	-2502
▁ㅇㅔㄱㅅㅡ	-2503
▁ㅇㅡㅇㅇㅛㅇ	-2504
ㅇㅣㄹㅂㅗ	-2505
▁ㄱㅗㅇㅅㅏㄴㅈㅜ	-2506
op	-2507
▁ㅇㅣㅂㅈㅏ	-2508
▁ㅅㅓㄴㄱㅛ	-2509
▁ㅎㅏㄴㅈㅏ	-2510
▁ㅁㅜㄹㄹㅓ	-2511
▁ㅈㅣㄴㅈㅜ	-2512
▁1975	-2513
▁ㅂㅗㅇㅎㅏ	-2514
ㅍㅡㄹㄹㅔ	-2515
ag	-2516
▁ㅂㅜㄱㄷㅗㅇ	-2517
▁ㅇㅣㄴㅈㅗㅇ	-2518
▁ㅈㅓㄴㄱㅗㅇ	-2519
ㅍㅏㄹ	-2520
▁Q	-2521
▁ㅅㅏㄱ	-2522
▁ㅎㅡㅂㅅㅜ	-2523
▁ㅅㅣㄴㅊㅔ	-2524
▁ㅎㅝㄹ	-2525
▁ㄴㅗㄴㅇㅢ	-2526
▁ㅅㅣㅁㄱㅏㄱ	-2527
▁ㅁㅔㄹ	-2528
ㅊㅓㅂ	-2529
ㄹㅏㄹ	-2530
▁ㅂㅜㄱㅇㅏ	-2531
▁ㅈㅣㅂㅇㅏㄴ	-2532
▁56	-2533
▁1978	-2534
▁ㅊㅓㅇㅈㅜ	-2535
▁ㅁㅕㅇㅁㅕㅇ	-2536
▁ㅋㅐㅁㅍㅓ	-2537
▁ㅎㅏㄱㅅㅡㅂ	-2538
▁ㄱㅜㄱㅈㅏㅇ	-2539
▁ㅇㅕㄴㄱㅘㄴ	-2540
▁ㅉㅣㄱ	-2541
▁1963	-2542
ㅅㅓㅇㅇㅝㄴ	-2543
▁ㅇㅕㄴㅎㅏㅂㄱㅜㄴ	-2544
▁ㅎㅝㄹㅆㅣㄴ	-2545
▁ㅁㅗㄱㅅㅏ	-2546
▁ㅌㅔㄴ	-2547
▁ㅂㅗㄴㅇㅣㄴ	-2548
▁ㅂㅗㄴㅅㅏ	-2549
ㅁㅍㅡ	-2550
▁ㅁㅟ	-2551
▁ㅂㅏㄴㅂㅗㄱ	-2552
▁ㅂㅜㄴㅈㅐㅇ	-2553
▁00	-2554
▁1971	-2555
▁52	-2556
▁ㄱㅜㄱㅁㅜ	-2557
▁ㅁㅕㅇㅅㅓㅇ	-2558
▁ㅎㅘㄹㅅㅓㅇ	-2559
▁65	-2560
ㅅㅓㅇㄱㅜㄴ	-2561
▁ㅊㅓㄴㅊㅔ	-2562
ㅇㅐㄴㅈㅔㄹㄹㅔ	-2563
OS	-2564
ㄹㄹㅣㅇ	-2565
ce	-2566
▁ㄱㅘㄴㅈㅣㄱ	-2567
▁ㅇㅟㄹ	-2568
▁ㅊㅗㅇㄷㅗㄱ	-2569
▁ㅈㅡㄹㄱㅣ	-2570
▁ㄴㅣㄴ	-2571
▁ㅊㅜㄹㅁㅏ	-2572
▁ㅅㅓㅇㄴㅡㅇ	-2573
▁49	-2574
ㅈㅓㅇㅅㅣㄱ	-2575
▁ㅇㅕㄴㅈㅐ	-2576
▁ㅁㅜㄴㅎㅓㄴ	-2577
ㅅㅣㄱㅈㅣ	-2578
ㄱㅗㅇㅎㅏㅇ	-2579
▁ㅂㅕ	-2580
▁ㄹㅛ	-2581
▁ㅁㅓㄱㅇㅣ	-2582
▁ㅈㅜㅇㄷㅐ	-2583
▁ㅇㅕㄴㄹㅛ	-2584
▁ㄴㅔㅅ	-2585
▁ㅊㅜㅇㅊㅓㅇㅂㅜㄱㄷㅗ	-2586
ㅂㅜㅌㅇㅣ	-2587
▁ㅋㅠ	-2588
▁ㅎㅘㄹㅂㅏㄹ	-2589
▁ㅁㅏㄹㄹㅔ	-2590
▁ㅈㅡㅇㅅㅏㅇ	-2591
▁ㅂㅓㅅㅇㅓ	-2592
▁ㅋㅗㄴㅅㅡ	-2593
▁ㅎㅏㄱㅅㅜㄹ	-2594
▁ㅇㅕㅇㅇㅓㅂ	-2595
▁179	-2596
▁ㄷㅓㄴㅈㅣ	-2597
ㄸㅓㅎㄱㅔ	-2598
ㄹㅏㅎ	-2599
ㅅㅣㄱㅎㅚ	-2600
▁ㅎㅏㅇㄱㅗㅇㄱㅣ	-2601
▁1969	-2602
▁ㄱㅕㄴㅎㅐ	-2603
ㅅㅡㄹㄹㅏ	-2604
ㅂㅕㅇㄷㅐ	-2605
▁ㅇㅣㄹㄷㅐ	-2606
▁ㅎㅏㄱㅂㅜ	-2607
▁ㅂㅜㄹㅅㅏㅇ	-2608
ㄴㅗㅎ	-2609
▁ㅈㅓㅇㅇㅝㄴ	-2610
▁ㅈㅣㄴㅂㅗ	-2611
▁ㅈㅣㄱㅇㅓㅂ	-2612
▁ㄹㅗㅅㄷㅔ	-2613
▁53	-2614
▁ㅎㅏㅇㄱㅜ	-2615
ㅁㅂㅣ	-2616
▁ㄴㅗㅇㅁㅣㄴ	-2617
▁1946	-2618
ri	-2619
oc	-2620
▁ㅂㅏㅇㅅㅏ	-2621
▁ㅇㅣㄹㅊㅣ	-2622
▁ㄱㅘㄴㅈㅓㅁ	-2623
▁ㅂㅕㄴㅎㅘㄴ	-2624
▁ㅈㅏㅇㅇㅏㄱ	-2625
▁ㅂㅜㄹㅂㅓㅂ	-2626
▁US	-2627
▁ㅈㅓㄴㅂㅜ	-2628
▁ㄷㅗㅇㅇㅝㄴ	-2629
▁ㅇㅜㄴㅈㅓㄴ	-2630
▁ㄴㅓㅁㄱㅣ	-2631
▁ㅈㅣㄱㅈㅓㄴ	-2632
▁ㅈㅓㅇㅊㅔ	-2633
ㅋㅟ	-2634
▁1964	-2635
▁SK	-2636
▁and	-2637
▁ㅂㅏㄱㅈㅓㅇ	-2638
▁ㅍㅣㅇ	-2639
▁ㅅㅣㄴㅅㅓㅇ	-2640
ㄴㅗㅇ	-2641
▁PC	-2642
▁ㅈㅓㄴㅍㅏ	-2643
▁ㅂㅐㄱㅈㅔ	-2644
▁ㅎㅏㄱㅇㅝㄴ	-2645
▁ㅋㅗㄴㅅㅓ	-2646
▁ㅍㅗㄱㄹㅕㄱ	-2647
ㅊㅓㄴㄱㅜㄴ	-2648
▁ㅈㅏㅇㄱㅛ	-2649
▁ㅅㅣㄱㅍㅜㅁ	-2650
▁ㅂㅐㄱㅈㅏㄱ	-2651
ㄱㅓㄹ	-2652
▁ㅂㅔㄹㄱㅣ	-2653
▁ㅎㅏㄱㅎㅚ	-2654
▁58	-2655
▁ㅁㅣㄴㅂㅓㅂ	-2656
▁ㅃㅏㄹ	-2657
▁ㅁㅏㅇㅁㅕㅇ	-2658
▁ㅇㅣㅁㄱㅡㅁ	-2659
▁ㅊㅏㅇㄷㅏㄴ	-2660
▁ㅂㅏㅇㅅㅗㅇㄱㅜㄱ	-2661
▁ㅈㅏㄱㅅㅏ	-2662
▁ㅅㅐㅇㅌㅐ	-2663
▁ㅇㅏㄹㄹㅔ	-2664
▁ㅁㅜㄴㅈㅏㅇ	-2665
▁ㅇㅏㄴㅌㅏ	-2666
▁ㅇㅣㅁㅇㅢ	-2667
▁ㅈㅓㅇㅈㅣ	-2668
▁ㅈㅣㄹㅂㅕㅇ	-2669
▁ㅊㅣㄴㅇㅣㄹ	-2670
ㅈㅜㄹ	-2671
▁ㄱㅏㄴㄷㅏㄴ	-2672
ㄹㅠㄴ	-2673
▁ㅂㅕㄴㅎㅕㅇ	-2674
ㄴㅏㅂ	-2675
▁ㅂㅏㄴㅇㅕㅇ	-2676
▁1977	-2677
▁ㅇㅣㅁㄷㅐ	-2678
▁ㅎㅗㄴㄹㅏㄴ	-2679
▁ㅅㅏㄹㅇㅣㄴ	-2680
▁ㅊㅓㄹㅅㅜ	-2681
▁ㅎㅚㅇ	-2682
ㅁㅣㄹㄹㅣ	-2683
▁ㄱㅗㅇㅌㅗㅇ	-2684
igh	-2685
▁ㄹㅏㄱ	-2686
▁ㅂㅗㄱㅁㅜ	-2687
▁ㅅㅏㅇㄷㅏㅇㅎㅣ	-2688
ㅇㅑㄴ	-2689
▁ㅈㅓㄴㅁㅜㄴㄱㅏ	-2690
▁ㅎㅕㅂㅇㅢ	-2691
▁88	-2692
▁ㅅㅡㅇㅈㅣㄴ	-2693
▁ㅌㅗㅇㅅㅏㅇ	-2694
ation	-2695
▁ㅊㅏㅁㅈㅓㄴ	-2696
▁ㅎㅏㄱㄱㅘ	-2697
▁99	-2698
▁ㄱㅣㅁㅇㅕㅇ	-2699
▁1000	-2700
ㅋㅗㄹㄹㅏ	-2701
▁ㅌㅡㄱㅇㅣ	-2702
▁ㅍㅕㄴㅈㅣ	-2703
▁ㄲㅗㄱ	-2704
▁ㅇㅏㄹㄹㅔㄱㅅㅏㄴㄷㅡ	-2705
▁ㄷㅗㅇㄴㅏㅁ	-2706
▁ㄷㅗㄱㄹㅣㅂㅇㅜㄴㄷㅗㅇ	-2707
▁ㅍㅏㅂ	-2708
▁ㄲㅡㅌㄴㅐ	-2709
▁ㅂㅏㅇㅈㅓㅇㅅㅣㄱ	-2710
ㅊㅓㄴㅅㅣ	-2711
▁ㄷㅗㅇㅈㅏㄱ	-2712
▁ㅅㅣㄴㅂㅜㄴ	-2713
▁ㅅㅓㄴㅈㅗ	-2714
▁ㅎㅏㅂㄱㅕㄱ	-2715
▁ㅂㅏㄲㅇㅔ	-2716
▁ㅈㅏㅇㅅㅜ	-2717
▁..	-2718
▁1949	-2719
▁ㅊㅏㅁㄱㅗ	-2720
▁ㅈㅣㄴㅇㅏㅂ	-2721
▁ㅈㅣㄴㅇㅣㅂ	-2722
▁62	-2723
▁ㄴㅗㅇㄱㅜ	-2724
▁ㅅㅣㅂㅈㅏ	-2725
▁ㅇㅏㄹㅇㅏ	-2726
▁ㅇㅣㅁㅈㅣㄴ	-2727
▁1962	-2728
▁ㅇㅑㄱㅅㅗㄱ	-2729
▁ㅈㅓㅇㄱㅣ	-2730
▁ㅌㅏㄴㅅㅗ	-2731
▁FA	-2732
▁ㅅㅔㄹ	-2733
▁57	-2734
▁1967	-2735
▁ㄱㅗㅇㄷㅗㅇㅊㅔ	-2736
▁ㅎㅕㄴㅇㅕㄱ	-2737
▁ㅇㅕㅇㅎㅑㅇㄹㅕㄱ	-2738
ㅈㅜㄱ	-2739
▁ㅇㅕㄴㅊㅜㄹ	-2740
▁ㄴㅏㅁㅅㅓ	-2741
▁ㅊㅓㄴㅇㅕㄴ	-2742
▁ㅂㅏㄴㅂㅏㄹ	-2743
▁ㅎㅏㄴㅂㅏㄴㄷㅗ	-2744
▁r	-2745
▁ㅊㅣㅇㅎㅏ	-2746
▁ㅅㅏㅇㅇㅝㄴ	-2747
▁Ch	-2748
▁ㄱㅘㅇㅈㅏㅇ	-2749
▁ㅅㅏㅇㄹㅠㄱ	-2750
▁ㅊㅜㄹㄱㅏㄴ	-2751
▁ㅇㅕㄴㅇㅏㄴ	-2752
▁ㄹㅗㅇ	-2753
▁KBO	-2754
ㅂㅏㅇㅅㅗㅇ	-2755
▁ㅈㅓㄹㅊㅏ	-2756
▁ㅌㅗㅁ	-2757
▁ㅊㅏㄹㅅㅡ	-2758
▁ㅅㅣㄹㅅㅜ	-2759
nd	-2760
▁ㄹㅐㄴ	-2761
▁ㅇㅐㅇ	-2762
▁ㄱㅕㅇㄹㅗ	-2763
▁ㅎㅘㅇㄱㅡㅁ	-2764
▁ㅇㅑㄱㅎㅏ	-2765
▁ㅅㅏㅇㅅㅡㅇ	-2766
▁ㅇㅣㄹㅅㅣㄱ	-2767
ㅇㅣㄴㅁㅜㄹ	-2768
▁ㅇㅕㅇㅇㅣㅂ	-2769
ㄲㅇㅣ	-2770
▁You	-2771
▁ㅂㅓㅁㅈㅜ	-2772
ST	-2773
▁ㄷㅡㅇㅈㅣ	-2774
▁ㅈㅏㅇㄹㅡ	-2775
▁ㄸㅢ	-2776
ㅁㅓㄴㅌㅡ	-2777
▁ㅂㅡㄹㄹㅏ	-2778
▁ㅎㅠㅇ	-2779
▁ㄱㅗㅂ	-2780
▁ㅂㅜㄴㅇㅕㄹ	-2781
▁ㄱㅡㄹㅈㅏ	-2782
▁ㅂㅔㄱㅌㅓ	-2783
▁ㅌㅏㄹㅊㅜㄹ	-2784
▁ㄷㅗㅇㅅㅓㅇ	-2785
▁ㅍㅣㄱ	-2786
▁66	-2787
▁ㅇㅝㄴㅎㅏ	-2788
▁ㅅㅣㄴㅊㅓㅇ	-2789
▁ㅂㅏㄹㅇㅓㄴ	-2790
ON	-2791
▁ㅇㅘㅇㅈㅏ	-2792
▁ㅍㅡㄹㄹㅐ	-2793
▁ㅎㅗㅅ	-2794
▁ㅊㅓㅇㄱㅜ	-2795
▁ㅅㅣㄴㅇㅣㄴ	-2796
▁181	-2797
ㅅㅡㅇㅁㅏㄴ	-2798
▁68	-2799
▁ㅌㅏㄹㄹㅏㄱ	-2800
ER	-2801
ㄷㅡㄹㅁㅗㄱ	-2802
▁ㄱㅏㄴㅎㅐㅇ	-2803
▁ㅂㅏㅇㅈㅣ	-2804
▁ㅊㅓㄴㅈㅜ	-2805
▁ㄱㅏㅁㅅㅏ	-2806
▁ㅎㅕㄴㅈㅣ	-2807
ice	-2808
▁ㅌㅠ	-2809
▁1966	-2810
▁1965	-2811
▁ㄴㅗㄱㅅㅐㄱ	-2812
▁ㅂㅏㄴㄷㅡ	-2813
▁61	-2814
▁ㄹㅏㅁ	-2815
▁ㅈㅗㅂ	-2816
▁ㅉㅗㅊ	-2817
▁ㅁㅏㄱㅂㅜ	-2818
▁ㄱㅗㅇㅈㅓㅇ	-2819
▁ㅅㅐㅇㅈㅗㄴ	-2820
▁ㅂㅕㄹㅁㅕㅇ	-2821
▁ㅅㅏㅂ	-2822
▁ㅇㅣㄹㅂㅗㄴㄱㅜㄴ	-2823
▁ㅂㅓㅂㅈㅓㅇ	-2824
▁ㄹㅟ	-2825
ㄹㅓㄴㄷㅔ	-2826
▁ㅅㅓㄴㅈㅓㄴ	-2827
▁ㄷㅗㄹㄹㅣ	-2828
▁ㄷㅜㄹㅉㅐ	-2829
▁ㅈㅜㅇㄱㅣ	-2830
▁ㄱㅏㄹㅅㅐㄱ	-2831
▁ㅁㅜㄱ	-2832
▁IS	-2833
art	-2834
▁ㅂㅜㄴㅎㅐ	-2835
▁ㅍㅏㄴㅅㅓ	-2836
▁ㅅㅗㄴㅈㅏ	-2837
▁%,	-2838
ㅈㅣㄹㄹㅐㄴㄷㅡ	-2839
▁ㄱㅏㄹㄹㅣ	-2840
▁183	-2841
▁ㅅㅜㄴㅎㅘㄴ	-2842
▁ㄹㅗㄹ	-2843
▁ㅂㅣㄱㅌㅗ	-2844
▁ㄱㅘㅇㅂㅗㄱ	-2845
▁ㄹㅣㅇㅋㅡ	-2846
▁ㅈㅓㄴㅁㅕㄴ	-2847
▁ㅈㅓㄴㅎㅕㅇ	-2848
▁ㄴㅓㄼㅇㅣ	-2849
▁ㅂㅜㄴㅎㅏㄹ	-2850
▁ㅂㅗㄱㅈㅣ	-2851
ㅌㅣㄹ	-2852
▁ㅂㅏㅂ	-2853
▁ㅂㅜㄴㄱㅣ	-2854
▁ㅎㅡㄱㅇㅣㄴ	-2855
ㅎㅕㅇㅁㅜㄴㅎㅘ	-2856
ㅌㅔㄴㅊㅡ	-2857
▁ㅇㅏㄹㅍㅏ	-2858
▁1961	-2859
▁ㅅㅓㄴㅂㅗ	-2860
▁ㅇㅘㄴㄱㅗㅇ	-2861
▁re	-2862
▁ㅁㅜㄹㅊㅔ	-2863
ㄷㅡㅂ	-2864
▁ㅇㅓㄴㅈㅔ	-2865
ap	-2866
▁ㅅㅕㄴ	-2867
▁ㄷㅗㄱㅌㅡㄱ	-2868
est	-2869
▁ㅇㅘㄴㄹㅛ	-2870
▁ㅋㅡㄹㄹㅗ	-2871
▁86	-2872
▁800	-2873
▁ㅇㅜㅇ	-2874
▁ㅇㅣㄹㅉㅣㄱ	-2875
ak	-2876
▁ㄷㅓㅅ	-2877
▁ㄱㅣㅁㅇㅣㄹ	-2878
▁ㅇㅏㅂㄹㅕㄱ	-2879
▁ㄱㅔㄴ	-2880
▁ㅎㅡㄹ	-2881
▁600	-2882
AR	-2883
▁ㅇㅣㄴㅈㅓㅂ	-2884
▁ㅇㅣㄴㅈㅣ	-2885
▁ㄴㅣㅅ	-2886
▁ㅌㅏㅁㅅㅏ	-2887
▁ㅎㅣㅁㄷㅡㄹ	-2888
▁ㅊㅏㅇㅇㅝㄴ	-2889
▁ㅇㅣㄴㅈㅡㅇ	-2890
ㄹㅐㅇ	-2891
▁ㅅㅣㄴㄹㅚ	-2892
▁ㄷㅗㅇㄱㅣ	-2893
ㅇㅟㄴ	-2894
▁ㅎㅏㄴㅈㅓㅇ	-2895
▁120	-2896
▁ㅁㅏㅈㅅㅓ	-2897
▁ㅇㅐㄴㄷㅡ	-2898
▁ㅋㅡㄹㄹㅣ	-2899
▁ㅍㅕㄴㅊㅏㄴ	-2900
▁ㅈㅣㅂㄱㅝㄴ	-2901
▁ㅎㅐㅇㄹㅕㄹ	-2902
▁ㅅㅓㅇㅂㅜㄴ	-2903
ㅇㅡㄴㅎㅐㅇ	-2904
ia	-2905
▁ㄷㅡㅇㅈㅏㅇㅇㅣㄴㅁㅜㄹ	-2906
▁ㄴㅡㅈ	-2907
▁ㅅㅓㅇㅎㅑㅇ	-2908
ㅌㅡㄹㄹㅓ	-2909
▁ㅎㅢㄴ	-2910
▁ㅋㅐㄴ	-2911
ㅅㅣㄴㄱㅛ	-2912
▁ㅎㅘㄱㅅㅏㄴ	-2913
▁ㄴㅏㄹㄱㅐ	-2914
▁ㅍㅜㅇㅂㅜ	-2915
▁ㅎㅏㄴㄱㅖ	-2916
ㅂㅣㅊ	-2917
▁98	-2918
ㅊㅕ	-2919
ㅋㅜㄹ	-2920
▁ㅂㅕㄴㅅㅜ	-2921
ct	-2922
ㅇㅙ	-2923
▁ㅊㅜㄹㅂㅓㅁ	-2924
▁ㅍㅕㅇㄷㅡㅇ	-2925
▁ㅁㅗㄱㅅㅗ	-2926
▁IC	-2927
▁ㅂㅏㄹㄱㅜㄹ	-2928
ㅁㅣㄴㅈㅜ	-2929
TV	-2930
▁ㄴㅡㄴㄱㅏ	-2931
▁ㅇㅣㄹㅂㅗㄴㅇㅣㄴ	-2932
▁63	-2933
▁ㅅㅣㄹㅈㅣㄹ	-2934
▁ㅈㅜㄹㅇㅓ	-2935
▁ㅇㅕㄴㄱㅏㄴ	-2936
▁ㅈㅓㄴㅇㅝㄴ	-2937
▁ㅌㅗㅇㅅㅏㄴ	-2938
▁ㅅㅏㅇㅇㅟ	-2939
▁ㄱㅘㄱ	-2940
ㅅㅣㄹㅅㅏㅇ	-2941
▁1944	-2942
▁ㅁㅏㅈㅇㅣ	-2943
▁ㅁㅕㅇㄴㅏ	-2944
▁1919	-2945
▁ㄷㅗㅇㅅㅓ	-2946
▁ㄱㅕㅇㅈㅓㄴ	-2947
▁95	-2948
ㅅㅜㅇㅇㅣ	-2949
ㄲㅡㅁ	-2950
▁ㅌㅡㄱㅂㅕㄹㅅㅣ	-2951
▁;/	-2952
▁ㄱㅗㅇㄹㅗ	-2953
ㅋㅓㅁ	-2954
▁ㅎㅗㅇㅂㅗ	-2955
▁ㅎㅘㄱㄹㅠㄹ	-2956
▁ㅂㅜㄴㅁㅕㅇ	-2957
og	-2958
▁ㅍㅏㄴㅅㅏ	-2959
ㅍㅡㄹㄹㅣ	-2960
▁59	-2961
▁ㄹㅐㄴㄷㅡ	-2962
▁ㅂㅏㅇㅎㅐ	-2963
▁ㅅㅏㄹㄹㅣ	-2964
▁74	-2965
▁82	-2966
▁1941	-2967
▁ㅇㅕㅇㅇㅜㅇ	-2968
ㄹㅏㄴㅅㅣ	-2969
ㄹㅠㅇ	-2970
ㅍㅗㄹㄹㅔ	-2971
▁ㄱㅗㄹㄷㅡㄴ	-2972
ㄷㅏㄹㄹㅣ	-2973
▁ㅌㅔㄱㅅㅏ	-2974
▁SS	-2975
▁ㅅㅐㅁ	-2976
ㅇㅕㄴㅎㅣ	-2977
▁ㅁㅕㅇㅎㅘㄱ	-2978
ㅂㅗㅅ	-2979
▁ㅇㅓㅁㅊㅓㅇ	-2980
▁ㄱㅡㄴㅂㅗㄴ	-2981
▁ㅇㅏㄱㄱㅣ	-2982
▁ㅇㅣㅁㄱㅣ	-2983
ul	-2984
▁ㅁㅜㄴㅁㅕㅇ	-2985
▁ㅇㅣㅂㄹㅕㄱ	-2986
▁ㅈㅜㄹㄱㅣ	-2987
ㄴㅕㄱ	-2988
ㄹㅗㅁ	-2989
▁ㅊㅜㄹㄹㅕㄱ	-2990
▁ㄷㅏㄴㄷㅗㄱ	-2991
▁ㄱㅡㅂㅈㅔ	-2992
▁ㅇㅏㄴㄷㅗㅇ	-2993
▁to	-2994
▁ㅎㅜㅅ	-2995
ㅅㅗㄹ	-2996
▁178	-2997
▁ㄱㅏㄱㅈㅣ	-2998
▁1958	-2999
▁ㄷㅏㅇㅊㅗ	-3000
▁ㅎㅗㄴㅎㅏㅂ	-3001
▁ㄱㅗㅇㅎㅓㄴ	-3002
ㄴㅓㅁ	-3003
▁ㅍㅏㄹㄹㅣ	-3004
▁76	-3005
▁ㅎㅏㄱㅅㅏㄹ	-3006
▁AFC	-3007
ㄴㅛ	-3008
▁ㅈㅓㅇㅅㅜ	-3009
▁72	-3010
ㅋㅡㄹㄹㅔ	-3011
▁ㄷㅗㅇㅁㅕㅇ	-3012
▁1947	-3013
▁ㅅㅣㅁㅅㅏ	-3014
▁ㅇㅣㅂㅂㅓㅂ	-3015
ㅅㅔㅁ	-3016
▁ㅈㅓㄱㅈㅓㄹ	-3017
▁ㅂㅠ	-3018
▁ㅎㅏㄴㄱㅜㄱㅇㅣㄴ	-3019
▁ㄹㅓㅆ	-3020
▁ㅈㅏㄱㅇㅟ	-3021
▁ㅊㅜㅇㄱㅕㄱ	-3022
▁ㅅㅐㅇㄱㅕ	-3023
▁ㅇㅗㄹㅎㅐ	-3024
▁77	-3025
ㅅㅔㅂ	-3026
▁ㅎㅏㄴㄱㅡㄹ	-3027
ㅇㅑㅇㅇㅣ	-3028
▁ㅇㅝㄴㅎㅕㅇ	-3029
ew	-3030
▁1956	-3031
ud	-3032
▁ㄱㅕㅇㄴㅏㅁ	-3033
▁ㅂㅏㅇㅇㅟ	-3034
▁ㅅㅡㅇㄱㅐㄱ	-3035
ㅋㅗㅁ	-3036
▁DNA	-3037
▁ㅅㅜㄴㅅㅜ	-3038
▁ㅇㅏㄱㅎㅘ	-3039
▁ㄷㅏㄴㅍㅕㄴ	-3040
▁ㅈㅓㅂㅊㅗㄱ	-3041
ㅇㅣㄹㅅㅡ	-3042
▁ㅋㅗㅁ	-3043
▁ㅈㅏㅁㅅㅜ	-3044
▁ㅂㅗㄱㅇㅝㄴ	-3045
▁ㅇㅣㅁㅈㅣㄴㅇㅙ	-3046
▁ㅇㅑㅇㅉㅗㄱ	-3047
▁67	-3048
ly	-3049
▁ㄱㅜㄱㄱㅣ	-3050
th	-3051
▁ㅅㅔㄴㅌㅡ	-3052
▁ㅇㅏㅁㅎㅗ	-3053
▁ㅈㅓㅁㅈㅓㅁ	-3054
▁ㅎㅏㅁㄹㅏㄱ	-3055
▁ㄷㅏㄹㄹㅏ	-3056
▁ㅇㅓㅁㅊㅓㅇㄴㅏ	-3057
ㅊㅣㅁㄴㅐ	-3058
▁ㄷㅏㅇㄴㅏ	-3059
▁160	-3060
▁ㅈㅣㅇㅇㅕㄱ	-3061
▁ㅍㅐㅇ	-3062
ㄴㅣㅅ	-3063
▁ㅈㅓㅁㅅㅜ	-3064
▁ㅂㅏㄹㅇㅡㅁ	-3065
▁ㄱㅏㅁㅅㅣ	-3066
▁Th	-3067
IA	-3068
▁1939	-3069
▁DV	-3070
▁ㅂㅕㅇㅎㅏㅂ	-3071
▁ㅎㅜㄴㅈㅏㅇ	-3072
▁85	-3073
ist	-3074
▁ㅂㅜㄴㅇㅟ	-3075
▁ㅇㅘㅇㅅㅣㄹ	-3076
▁ㄴㅕ	-3077
ight	-3078
▁ㅎㅘㄴㅅㅡㅇ	-3079
▁Lo	-3080
▁ㅅㅕ	-3081
▁*	-3082
ㅎㅡㅂ	-3083
▁ㅁㅔㄴ	-3084
▁ㅅㅣㄹㅎㅕㄴ	-3085
▁ㅎㅜㄹ	-3086
▁ㄷㅜㅇ	-3087
▁ㅇㅣㄴㅅㅙ	-3088
▁ㅊㅜㅁ	-3089
▁ㅂㅏㄹㅂㅏㄹ	-3090
▁ㅇㅕㄴㅇㅖ	-3091
▁ㅂㅐㄱㅅㅓㅇ	-3092
ㄹㅐㅅㄷㅗㅇㅇㅏㄴ	-3093
AS	-3094
▁ㅇㅓㅂㅈㅓㄱ	-3095
ㄴㅕㅁㅁㅜㄹ	-3096
▁1954	-3097
▁ㅎㅜㅅㄴㅏㄹ	-3098
▁ㅅㅏㅇㅈㅜ	-3099
▁ㅈㅣㄴㅈㅓㅇ	-3100
▁ㅍㅗㄱㅌㅏㄴ	-3101
▁ㅍㅕㅇㅇㅏㄴ	-3102
▁ㅆㅏㄹ	-3103
▁ㅅㅏㄴㅎㅘ	-3104
▁ㄷㅗㅇㅇㅑㅇ	-3105
▁ㅇㅝㄴㅅㅜ	-3106
▁ㅁㅓㄹㄹㅣ	-3107
▁ㄱㅠㄴㅎㅕㅇ	-3108
ㅃㅏ	-3109
▁ㅅㅏㅇㅇㅕㄱ	-3110
AT	-3111
▁73	-3112
▁Li	-3113
▁ㅅㅓㄱㅇㅠ	-3114
ㄴㅗㄹ	-3115
▁ㄷㅡㅇㅍㅏㄴ	-3116
▁202	-3117
▁ㅅㅣㄴㅂㅜ	-3118
▁ㅇㅕㅇㅈㅣ	-3119
ㄱㅝㄹ	-3120
▁ㄷㅗㄱㅇㅣㄹㄱㅜㄴ	-3121
▁ㅈㅣㄴㄷㅏㄴ	-3122
ㄲㅏㅌ	-3123
▁ㄱㅣㅅ	-3124
▁ㄱㅏㄹㄹㅏ	-3125
▁1952	-3126
▁ㅊㅏㅇㅈㅏㄱ	-3127
▁ㅇㅏㄴㅌㅗ	-3128
ㅁㅓㄱ	-3129
▁ㅇㅣㄹㅅㅏㅇ	-3130
▁ㅂㅗㄱㅇㅡㅁ	-3131
▁ㅊㅣㅁㅇㅣㅂ	-3132
▁ㄲㅓㄲ	-3133
▁ㅂㅗㄱㅅㅜ	-3134
▁ㄱㅕㅂ	-3135
▁96	-3136
ㄹㄹㅓㄴ	-3137
▁ㅋㅟㄴ	-3138
▁ㅇㅣㄹㅈㅏ	-3139
▁ㅁㅜㄴㅅㅣㄴ	-3140
▁ㅂㅣㄹㅂㅗ	-3141
▁ㅎㅘㄱㄹㅣㅂ	-3142
▁78	-3143
▁ㅊㅏㅁㅁㅗ	-3144
▁ㄱㅗㅇㅈㅜㅇ	-3145
▁ㅅㅜㄴㄱㅏㄴ	-3146
ㄹㅡㄹㄹㅗ	-3147
ess	-3148
▁81	-3149
▁ㅇㅣㄹㅅㅣ	-3150
▁ㅂㅏㄱㅈㅓㅇㅎㅢ	-3151
▁ㄱㅡㅇ	-3152
ㅋㅡㄹㄹㅣ	-3153
▁ㅅㅐㅇㅁㅜㄹㅎㅏㄱ	-3154
▁ㅎㅕㄱㅅㅣㄴ	-3155
▁Al	-3156
▁ㅊㅣㅁㄹㅑㄱ	-3157
▁ㅈㅓㄴㅅㅣㄴ	-3158
▁ㅈㅗㅇㅅㅏ	-3159
ㅁㅓㅇ	-3160
BA	-3161
▁ㅁㅣㄴㅈㅜㅇ	-3162
▁ㄴㅗㄹㄹㅏ	-3163
▁ㅈㅏㅇㄴㅏㅁ	-3164
▁ㅂㅣㄹㄷㅣㅇ	-3165
ㅍㅣㄹㄷㅓ	-3166
▁ㄱㅝㄴㅇㅟ	-3167
▁ㅇㅣㄹㅋㅓ	-3168
▁ㅇㅣㄹㅋㅓㄷ	-3169
▁ㅅㅡㅇㅂㅜ	-3170
▁ㅊㅓㄴㅇㅏㄴ	-3171
▁ㄹㅕㄱ	-3172
▁ㄷㅗㅇㅂㅏㅇ	-3173
▁ㅇㅏㄹㅂㅏ	-3174
▁71	-3175
▁AT	-3176
▁ㅎㅘㅇㅎㅜ	-3177
▁\	-3178
▁ㅈㅓㄴㅈㅣㄱ	-3179
▁ㄷㅓㄹ	-3180
▁ㅊㅗㅇㅎㅚ	-3181
▁ㅍㅕㅇㄹㅗㄴ	-3182
▁ㅇㅏㄵ	-3183
▁NH	-3184
▁ㅇㅕㄱㅎㅏㄱ	-3185
▁ㅎㅗㅅㅋㅏ	-3186
▁ㅈㅜㅇㄹㅕㄱ	-3187
▁ㅅㅣㄴㅈㅏ	-3188
▁ㄷㅏㅇㄱㅜㄱ	-3189
▁ㅈㅓㄴㄴㅏㅁ	-3190
▁ㄱㅜㅂ	-3191
▁91	-3192
▁st	-3193
▁ㅇㅐㄱㅅㅕㄴ	-3194
▁AP	-3195
▁1959	-3196
▁ㄱㅗㄹㄷㅡ	-3197
▁ㅂㅜㅅ	-3198
▁ㅇㅏㄹㄱㅗ	-3199
ㅎㅐㅇㄱㅣ	-3200
▁ㅅㅣㄴㄱㅗ	-3201
▁ㅈㅣㄹㅎㅘㄴ	-3202
ㅅㅏㄴㅁㅜㄹ	-3203
▁ㄷㅗㅇㅎㅐ	-3204
▁ㅌㅏㄹㅌㅚ	-3205
ㅅㅏㄴㄱㅘㅇㅇㅕㄱㅅㅣ	-3206
ㄹㅈㅣ	-3207
▁ㅈㅏㄱㄷㅗㅇ	-3208
ㅇㅛㅇㅈㅏ	-3209
ub	-3210
▁ㅂㅗㄴㅈㅣㄹ	-3211
▁ㅇㅣㄴㅇㅛㅇ	-3212
ㅖㄴ	-3213
▁ㅅㅡㅇㄹㅕ	-3214
▁177	-3215
▁ㅇㅟㅅ	-3216
▁ㅇㅑㄱㅁㅜㄹ	-3217
▁ㅎㅗㄴㅇㅣㄴ	-3218
▁ㅈㅗㅎㅇㅏ	-3219
▁ㅎㅐㅇㅂㅗㄱ	-3220
ㅅㅔㄹㄹㅗ	-3221
▁ㅅㅣㄴㅅㅏ	-3222
ㄹㅗㄴㅌㅗ	-3223
▁ㅇㅣㄴㅅㅐㅇ	-3224
ㅅㅏㄱ	-3225
▁ㅇㅣㄹㅂㅗㄴㅇㅓ	-3226
▁ㅇㅣㄴㅇㅝㄴ	-3227
▁ㅇㅘㅇㅂㅣ	-3228
▁87	-3229
▁ㅅㅣㅇㄱㅏ	-3230
▁ㅇㅘㅇㅎㅜ	-3231
▁ㅈㅓㅇㅊㅏ	-3232
▁ㄱㅜㄱㄱㅜㄴ	-3233
▁1942	-3234
▁ㅅㅣㅁㅈㅏㅇ	-3235
▁ㅈㅓㄹㅂㅏㄴ	-3236
▁ㅍㅠ	-3237
▁ㄷㅡㄹㅇㅣ	-3238
▁ㅅㅏㄴㅅㅗ	-3239
ㅅㅜㄹㄱㅘㄴ	-3240
▁ㅈㅓㄴㄷㅏㅇ	-3241
▁ㅂㅐㄱㅁㅏㄴ	-3242
▁ㅅㅣㄹㄹㅕㄱ	-3243
▁159	-3244
▁ㅅㅏㅇㄱㅘㄴ	-3245
▁ㅇㅕㅇㅈㅜ	-3246
ab	-3247
▁ㅅㅗㄴㅅㅏㅇ	-3248
▁ㅈㅓㄴㄷㅗㅇㅊㅏ	-3249
▁84	-3250
▁ㅊㅏㅇㄷㅏㅇ	-3251
▁ㅌㅗㅇㅎㅘ	-3252
ㅇㅓㅂㅈㅏ	-3253
ㅇㅗㄹㄹㅣ	-3254
▁1955	-3255
▁ㄱㅣㅁㅅㅓㅇ	-3256
▁1953	-3257
▁DVD	-3258
▁ㅅㅓㄴㅂㅏㄱ	-3259
▁1900	-3260
▁1943	-3261
▁1936	-3262
▁ㅍㅣㄹㄷㅡ	-3263
▁ㅅㅣㅁㅍㅏㄴ	-3264
▁ㅇㅝㄴㄴㅕㄴ	-3265
▁ㅂㅓㅂㅁㅜ	-3266
▁ㄱㅘㄴㅇㅕ	-3267
ine	-3268
▁ㄱㅏㅇㄹㅡㅇ	-3269
▁ㅇㅡㅁㅅㅓㅇ	-3270
▁ㅈㅔㄴ	-3271
IV	-3272
▁700	-3273
▁ㅇㅣㄹㅊㅔ	-3274
▁ㅂㅗㄴㅁㅕㅇ	-3275
▁ㅇㅜㅁㅈㅣㄱㅇㅣㅁ	-3276
▁Re	-3277
▁="	-3278
ㄴㅎㅔㄴ	-3279
▁ㄱㅜㄱㅈㅓㅇ	-3280
▁ㅅㅓㄴㅇㅣㅁ	-3281
▁ㅇㅡㅁㅇㅏㄱㄱㅏ	-3282
▁ㅈㅓㄴㅂㅜㄱ	-3283
▁ㅎㅏㄱㅅㅏ	-3284
ㅅㄱㅏ	-3285
ㄷㅗㄱㅂㅜ	-3286
▁ㅅㅣㅁㅈㅣ	-3287
▁ㅊㅗㅇㅈㅏㅇ	-3288
▁ㄱㅕㄹㅇㅢ	-3289
▁ㅎㅣㅂ	-3290
▁ㄱㅣㅁㅇㅣㄹㅅㅓㅇ	-3291
▁1910	-3292
▁ㅂㅏㄹㅌㅏㄱ	-3293
▁ㄱㅣㅁㄷㅐ	-3294
▁ㄱㅣㅁㅈㅗㅇ	-3295
▁ㅋㅗㄴㅌㅔㄴㅊㅡ	-3296
ㅌㅏㄴㅌㅣ	-3297
▁ㅈㅓㄱㅎㅏㅂ	-3298
ㄸㅏ	-3299
ㅇㅓㄴㅅㅣㅂ	-3300
▁ㅇㅛㅇㄷㅗ	-3301
▁ㅅㅓㄴㅎㅕㅇ	-3302
▁ㄷㅡㅅㅇㅣ	-3303
▁ㅇㅣㄹㄱㅣ	-3304
ㄹㅏㄴㅅㅐㄱ	-3305
▁1957	-3306
EC	-3307
▁ㄱㅓㅁㅅㅐㄱ	-3308
▁ㄱㅕㄹㄹㅗㄴ	-3309
▁ㅇㅕㄴㅅㅡㅂ	-3310
▁ㅋㅙ	-3311
▁ㅈㅓㄴㅅㅗㅇ	-3312
▁1914	-3313
ㅈㅣㄱㅈㅏ	-3314
▁69	-3315
▁ㅇㅕㅇㅇㅑㅇ	-3316
▁ㄷㅣㄴ	-3317
ㅋㅔㅅㅁㅗㄴ	-3318
ue	-3319
▁HD	-3320
▁ㅅㅏㅇㅅㅣㄹ	-3321
▁97	-3322
ㄲㅣㅁ	-3323
ㅇㅞㄹ	-3324
ㄹㅜㄴ	-3325
▁ㅇㅣㄱㅅㅡ	-3326
ㅅㅜㄹㄱㅏ	-3327
▁ㅂㅏㄹㅁㅕㅇ	-3328
ㅍㅗㄹ	-3329
▁ㄷㅡㄱㅍㅛ	-3330
▁ㅁㅜㄷ	-3331
▁01	-3332
▁ㅇㅓㄱㅈㅔ	-3333
ㅇㅝㄴㄱㅕㅇ	-3334
ie	-3335
▁ㄱㅓㅁㅌㅗ	-3336
▁{	-3337
▁ㅌㅗㅂ	-3338
▁ㅅㅏㅇㅅㅜ	-3339
▁ㄱㅜㅇㅈㅓㄴ	-3340
ㄹㅔㅁ	-3341
▁ㅇㅕㄴㅍㅕㅇ	-3342
▁101	-3343
▁ㅈㅗㄴㅅㅡ	-3344
▁ㄷㅗㅇㅂㅜㄱ	-3345
▁92	-3346
▁ㄱㅡㅇㅈㅓㅇ	-3347
▁ㅅㅓㄱㅅㅏ	-3348
▁ㅎㅡㄴㅎㅏ	-3349
▁ㄲㅔ	-3350
▁ㅂㅏㅇㅇㅓㄴ	-3351
▁ㅂㅜㄹㅁㅏㄴ	-3352
ㅅㅓㄴㅊㅗㅇ	-3353
▁ㅅㅏㅇㅅㅗㄱ	-3354
BM	-3355
▁ㅍㅜㅅ	-3356
ㅌㅣㅁ	-3357
▁ㅎㅣㄴ	-3358
▁ㅅㅣㄴㄷㅗ	-3359
▁ㅍㅗㄱㄱㅕㄱ	-3360
ㅍㅗㅁ	-3361
ㅅㅓㄴㅊㅗㅇㄷㅗㄱㅂㅜ	-3362
ㅈㅡㄹ	-3363
▁ㅂㅜㄴㄱㅛ	-3364
▁1938	-3365
▁ㅅㅣㄴㅈㅏㅇ	-3366
▁ㄷㅓㅇ	-3367
▁ㅈㅐㄱㅅㅡㄴ	-3368
▁;,	-3369
ㅍㅐㄱ	-3370
ㅇㅖㄴ	-3371
ect	-3372
▁ㅍㅓㅇ	-3373
▁ㄱㅏㄱㄱㅜㄱ	-3374
ㅊㅗㅇㄹㅣ	-3375
▁ㅇㅟㅇ	-3376
▁ㅁㅏㄹㄹㅣ	-3377
▁on	-3378
▁ㅃㅓ	-3379
▁ㅅㅣㅇㅇㅓ	-3380
▁ㅋㅞ	-3381
▁ㄱㅣㅍㅇㅣ	-3382
▁ㅎㅏㅅ	-3383
ㅂㅐㅁ	-3384
▁ㅍㅣㄹㅅㅜ	-3385
▁ㅃㅗㅂ	-3386
▁ㅁㅗㄹㄹㅣ	-3387
▁ㅇㅜㄴㅎㅏㅇ	-3388
▁ㅋㅓㄴㅌㅡ	-3389
ㄲㅏㄹ	-3390
▁ㅈㅣㄴㅇㅕㅇ	-3391
▁ㅂㅡㄹㄹㅗㄱ	-3392
▁ㅂㅜㄴㄴㅗ	-3393
▁ㅊㅓㄴㅁㅏㄴ	-3394
▁ㅅㅓㄹㄷㅡㄱ	-3395
▁1951	-3396
▁ㅈㅡㄱㅅㅣ	-3397
▁ㅋㅔㄹ	-3398
▁1932	-3399
▁ㅇㅗㄹㅅㅡ	-3400
▁ㄷㅗㄱㅈㅐ	-3401
▁ㅂㅏㄴㅅㅏ	-3402
▁ㄱㅜㄱㅈㅓㄱ	-3403
ㅅㅏㄴㅎㅘ	-3404
ㅌㅣㄴㅇㅓ	-3405
▁ㅇㅓㄴㅅㅡ	-3406
▁ㅇㅓㄴㄷㅓㄱ	-3407
▁ㄱㅏㅂㅈㅏ	-3408
▁ㄱㅘㅇㅂㅓㅁ	-3409
ㅍㅔㄱㅌㅡ	-3410
▁ㅇㅛㅇㅇㅣㄴ	-3411
▁1918	-3412
▁ㅂㅏㄹㄹㅔ	-3413
▁ㄷㅏㅁㄱㅣ	-3414
▁89	-3415
▁OS	-3416
▁ㅈㅜㅇㅊㅜ	-3417
IN	-3418
▁ㅁㅏㄱㄷㅐ	-3419
▁ㅋㅝ	-3420
▁ㄱㅗㅇㅅㅣㄴ	-3421
▁ㅇㅕㄴㅅㅓㄹ	-3422
ers	-3423
▁1935	-3424
▁ㅇㅠㄴㄹㅣ	-3425
▁ㅂㅜㄹㅇㅏㄴ	-3426
▁ㄹㅓㅆㄷㅏ	-3427
▁1937	-3428
▁FM	-3429
▁ㅋㅣㄹㄹㅗ	-3430
▁ㅁㅟㄴㅎㅔㄴ	-3431
ㄱㅗㅇㅅㅏ	-3432
▁ㄴㅣㄱ	-3433
▁ㄴㅡㄹㄹㅣ	-3434
▁ㅇㅏㅁㅋㅓㅅ	-3435
ㄱㅘㄱ	-3436
▁ㅎㅢㄴㅅㅐㄱ	-3437
▁ㅁㅕㄴㅇㅕㄱ	-3438
▁ㅂㅜㄴㅎㅘ	-3439
▁ㄱㅗㄱㅅㅓㄴ	-3440
▁ㅇㅕㄴㄹㅏㄱ	-3441
▁93	-3442
▁ㅉㅏㄱ	-3443
▁Be	-3444
▁ㅊㅓㅂ	-3445
▁ㅂㅓㄴㅈㅣ	-3446
▁ㅁㅜㄹㄱㅗ	-3447
▁ㅍㅏㄹㄹㅔ	-3448
▁ㅈㅓㅇㄹㅠ	-3449
▁ㄷㅜㅇㄱㅡㄹ	-3450
ㅂㅔㄴㅌㅡ	-3451
ㅂㅗㄴㅈㅜ	-3452
▁ㅊㅣㅇㅎㅗ	-3453
▁ㅂㅏㄹㄱㅏㄴ	-3454
ore	-3455
▁ㅅㅓㅇㄴㅏㅁ	-3456
ㅌㅐㄴ	-3457
▁ㄱㅕㅇㅂㅣ	-3458
▁ㅁㅏㄴㄷㅡㄴ	-3459
▁ㅈㅓㄴㅅㅜㄹ	-3460
▁ㅈㅏㅂㅎㅣ	-3461
▁182	-3462
▁ㅅㅣㄹㅊㅓㄴ	-3463
▁ㅌㅏㅇ	-3464
▁ㅂㅓㅂㅎㅏㄱ	-3465
▁ㅍㅐㄱ	-3466
▁ㅎㅏㅇㄱㅗㅇㅅㅏ	-3467
▁ㅇㅣㄹㄹㅕㄴ	-3468
ㅁㅏㅇㅈㅏ	-3469
▁ㅅㅏㅇㅇㅣㄴ	-3470
ㅅㅔㄴㅌㅡ	-3471
▁ㅇㅑㅇㅅㅏㄴ	-3472
▁ㅂㅏㄴㅈㅣ	-3473
▁94	-3474
ㄴㅣㄱㅅㅡ	-3475
▁ㅈㅣㄴㅎㅏㄱ	-3476
end	-3477
▁ㅅㅗㄴㅅㅣㄹ	-3478
▁ㄱㅓㅌ	-3479
▁ㅂㅣㅈ	-3480
▁ㅅㅜㅁㄱㅣ	-3481
▁ㅈㅣㄴㄱㅕㄱ	-3482
▁1928	-3483
▁CP	-3484
▁ㅋㅜㄹ	-3485
▁ㅁㅗㄱㅅㅓㅇ	-3486
▁ㄱㅡㅂㄱㅕㄱ	-3487
▁ㄴㅏㅁㄴㅕ	-3488
▁ㄸㅗㄱ	-3489
ㄹㄹㅔㄴ	-3490
▁ㅂㅐㄱㅇㅣㄴ	-3491
ell	-3492
ㅅㅡㄹㄹㅣㅇ	-3493
ㄷㅗㅇㅅㅐㅇ	-3494
our	-3495
▁ㅁㅓㄹㅌㅣ	-3496
▁ㅇㅘㄴㅂㅕㄱ	-3497
ㅍㅏㄴㅅㅗ	-3498
▁ㄷㅗㅇㄱㅕㅇ	-3499
▁ㄷㅗㅇㅎㅘ	-3500
ID	-3501
▁ㅌㅜㄹ	-3502
▁1933	-3503
▁09	-3504
▁ㄱㅏㅇㄴㅏㅁ	-3505
▁ㅈㅓㄴㅁㅏㅇ	-3506
▁04	-3507
▁ㄱㅘㅇㅂㅓㅁㅇㅟ	-3508
▁ㅇㅕㅇㄱㅜ	-3509
▁ㅊㅣㄹㄹㅔ	-3510
▁ㅌㅏㄴㅇㅏㅂ	-3511
▁ㅇㅕㄹㅁㅐ	-3512
▁79	-3513
▁ㄲㅡㄹㅇㅓ	-3514
▁ㅊㅏㄴㅅㅓㅇ	-3515
▁ㅎㅐㅇㅈㅓㄱ	-3516
ㅌㅗㅂ	-3517
ㄷㅜㅂ	-3518
▁ㄹㅐㅂ	-3519
ㄷㅗㅇㅈㅗ	-3520
▁ㄱㅕㅇㅅㅏ	-3521
▁ㅁㅜㄹㄱㅓㄴ	-3522
▁1924	-3523
ㅅㅜㅁ	-3524
▁ㅂㅗㅇㅅㅏ	-3525
ㅍㅣㄹㄷㅡ	-3526
ㅌㅜㄴ	-3527
▁ㅅㅓㄴㅍㅗ	-3528
▁ㄷㅏㅇㅇㅝㄴ	-3529
▁110	-3530
▁ㅍㅕㅇㅁㅕㄴ	-3531
▁ㅅㅡㄹㄹㅏ	-3532
▁ㅈㅓㄴㅈㅓㄱ	-3533
▁08	-3534
ain	-3535
▁ㄷㅗㅇㄱㅜㄹ	-3536
ㅇㅣㅍ	-3537
▁ㅇㅝㄴㅅㅣ	-3538
ㄴㅔㄹ	-3539
ㅁㅕㅇㅅㅏ	-3540
▁ㄱㅕㄱㅍㅏ	-3541
▁ㅈㅣㄹㅁㅜㄴ	-3542
▁ㅊㅗㄱㅈㅣㄴ	-3543
▁ㅈㅣㅂㅎㅚ	-3544
AN	-3545
▁ㅇㅜㄴㅅㅗㅇ	-3546
▁ㅃㅕ	-3547
▁ㅁㅜㄲ	-3548
▁ㅅㅣㄹㄴㅐ	-3549
ㅌㅗㄹㄹㅣㄱㄱㅛ	-3550
ㅉㅓ	-3551
▁ㅍㅏㄴㅌㅏ	-3552
ㄹㅟ	-3553
ㄹㅣㄴㅅㅡ	-3554
ill	-3555
ㄱㅔㄹ	-3556
ㅜㄱㅅㅡ	-3557
▁ㅇㅏㄴㅌㅣ	-3558
▁ㅍㅓㄴ	-3559
▁ㄱㅣㅁㅎㅐ	-3560
▁ㄱㅏㅁㄱㅏㄱ	-3561
▁83	-3562
▁ㅇㅣㄹㄹㅣ	-3563
▁MS	-3564
▁ㅇㅣㅂㄷㅐ	-3565
▁ㅌㅏㄴㅎㅐㄱ	-3566
▁Co	-3567
▁ㄷㅐㄴㅅㅡ	-3568
ㅇㅓㄴㅊㅡ	-3569
▁ㄴㅗㄹㅇㅣ	-3570
▁ㄷㅗㅇㅈㅣ	-3571
▁ㅎㅏㅇㅇㅢ	-3572
▁ㄱㅐㄹ	-3573
▁ㄹㅣㅂ	-3574
▁ㅊㅜㄱㅅㅗ	-3575
ard	-3576
▁ㄱㅜㄴㅂㅜ	-3577
▁ㄴㅏㅁㄱㅡㄱ	-3578
ㅇㅑㅇㅅㅣ	-3579
▁ㅇㅗㅂ	-3580
▁ㅅㅓㄴㄹㅗ	-3581
▁ㅈㅐㅇ	-3582
▁ㅇㅕㅇㅇㅝㄴ	-3583
▁ㅍㅕ	-3584
▁ㅌㅣㄴ	-3585
▁ㄱㅡㄱㄷㅏㄴ	-3586
ㅎㅏㅂㅁㅜㄹ	-3587
▁ㄱㅜㄱㅌㅗ	-3588
ㄷㅗㅇㄷㅏㅇ	-3589
▁ㅎㅏㅁㄱㅕㅇ	-3590
▁ㅇㅜㅅ	-3591
▁170	-3592
▁ㅃㅏㅇ	-3593
▁ㅎㅣㅂㅎㅏㅂ	-3594
▁ㄸㅔ	-3595
▁ㄷㅗㅇㅁㅔ	-3596
▁ㅊㅗㅇㅈㅐ	-3597
▁De	-3598
▁ㄱㅏㄴㅂㅜ	-3599
▁ㅁㅣㄹㄹㅏ	-3600
▁ㅈㅓㅇㅁㅕㄴ	-3601
▁ㅅㅡㅂㄱㅕㄱ	-3602
ㄹㅐㄴㅅㅡ	-3603
▁ㄴㅡㄱ	-3604
▁ㅎㅏㄹㅇㅏ	-3605
▁ㅈㅡㅇㅇㅓㄴ	-3606
▁ㅍㅕㄴㅇㅢ	-3607
▁ㅈㅓㅂㅅㅗㄱ	-3608
▁ㅇㅡㄴㅁㅔ	-3609
ㅇㅏㄴㄱㅜㄴ	-3610
▁ㄱㅏㅇㅈㅓㄴ	-3611
▁ㅅㅓㄴㅎㅗ	-3612
▁1934	-3613
▁ㄱㅕㅇㅂㅜㄱ	-3614
OR	-3615
▁th	-3616
▁ㅂㅏㄹㅈㅓㄴㅅㅗ	-3617
▁ㅂㅐㄴ	-3618
▁ㄱㅕㅇㅊㅏㄹㅅㅓ	-3619
▁ㄹㅏㄹ	-3620
▁ㅈㅜㅇㄷㅗㅇ	-3621
▁cod	-3622
▁ㅊㅓㄹㄱㅓ	-3623
AM	-3624
▁ㅂㅔㄹㄹㅏ	-3625
▁ㄷㅓㅅㅂㅜㅌㅇㅣ	-3626
▁ㄱㅗㄴㅊㅜㅇ	-3627
▁ㅈㅏㅇㅈㅓㅁ	-3628
▁ㅎㅕㅇㅅㅏㅇ	-3629
▁ㅃㅓㄷ	-3630
▁ㅈㅣㄹㅅㅓ	-3631
▁130	-3632
ㅇㅑㅇㄱㅜㄴ	-3633
▁ㄷㅗㅇㄱㅜ	-3634
▁ST	-3635
▁ㅈㅜㅇㄱㅖ	-3636
▁ㄱㅜㄱㅂㅏㅇㅂㅜ	-3637
▁ㅈㅏㅇㄹㅗ	-3638
▁ㅌㅔㄹ	-3639
▁ㅅㅓㅇㅅㅓ	-3640
▁140	-3641
ㅍㅕㅇㄱㅏ	-3642
▁ㅎㅡㄴㅈㅓㄱ	-3643
▁ㅇㅓㅇ	-3644
▁ㅈㅣㄱㅁㅜ	-3645
ne	-3646
ㅋㅗㅅ	-3647
▁ㄹㅜㅁ	-3648
▁ㅇㅐㄱㅊㅔ	-3649
▁ㅈㅏㅇㄹㅖ	-3650
ㄷㅡㄹㄹㅣ	-3651
ㄴㅓㄴ	-3652
▁ㄱㅘㅇㅅㅏㄴ	-3653
▁Sh	-3654
▁ㅇㅕㄴㅎㅗ	-3655
▁ㅈㅓㅇㅈㅗ	-3656
ㄱㅗㅇㅇㅓㅂ	-3657
ㅇㅠㄱㄱㅘㄴ	-3658
▁ㅇㅏㄴㅉㅗㄱ	-3659
▁ㅍㅏㄴㅈㅓㅇ	-3660
ㅇㅑㅇㅊㅔ	-3661
▁ㄱㅡㄹㄹㅣ	-3662
▁ㅈㅓㅇㅌㅗㅇ	-3663
▁ㅇㅣㅂㄱㅜ	-3664
▁ㅎㅏㅂㄷㅗㅇ	-3665
▁ㅇㅏㄹㄹㅔㄱㅅㅏㄴㄷㅓ	-3666
ㅎㅔㄹ	-3667
▁ㅂㅗㅇㄱㅣ	-3668
▁ㅂㅗㄱㅅㅏ	-3669
ㅁㅜㄱ	-3670
▁ㅎㅗㄴㅈㅏ	-3671
▁ㄷㅏㄱㅌㅓ	-3672
▁ㅈㅜㅇㅅㅓㅇ	-3673
▁ㅎㅕㄴㅈㅗㄴ	-3674
▁ㄷㅏㅇㄷㅐ	-3675
▁ㅇㅏㄴㄴㅐ	-3676
▁ㄱㅡㅁㄱㅏㅇ	-3677
▁ㅁㅕㄹㅈㅗㅇ	-3678
▁Me	-3679
▁ㄱㅡㄴㅇㅠㄱ	-3680
▁ㅎㅏㄴㅅㅓㅇ	-3681
▁ㄴㅗㅇㅈㅏㅇ	-3682
▁ㄱㅏㅇㄷㅗ	-3683
▁ㅎㅕㄹㅇㅐㄱ	-3684
ㅎㅏㄴㅈㅔ	-3685
▁ㅈㅜㄹㄹㅣ	-3686
▁ㅂㅓㅂㅇㅏㄴ	-3687
▁ㅂㅜㄱㅁㅣ	-3688
▁ㅈㅡㅇㄱㅝㄴ	-3689
▁ㅈㅠ	-3690
▁ㅅㅣㄹㅇㅓㅂ	-3691
▁ㅂㅐㅁ	-3692
▁1931	-3693
all	-3694
▁ㅁㅓㅁ	-3695
▁ㅆㅏㅎㅇㅣ	-3696
▁ㄷㅏㄴㅅㅜㄴㅎㅣ	-3697
▁ㅌㅡㄱㅎㅓ	-3698
▁ㄱㅣㅁㄱㅜ	-3699
▁ㅁㅜㄴㅂㅓㅂ	-3700
▁ㅂㅡㄹㄹㅗ	-3701
▁ㅈㅜㅇㅈㅣ	-3702
ㅋㅣㅅ	-3703
▁ㄴㅣㄹ	-3704
▁ㅁㅐㄴㅊㅔ	-3705
▁ㅂㅗㄴㅌㅗ	-3706
▁ㄹㅑ	-3707
▁ㅈㅗㅇㅈㅓㄴ	-3708
▁y	-3709
▁ㅂㅏㄴㅎㅏ	-3710
▁ㅍㅔㄹㄹㅣ	-3711
▁ㄱㅗㄹㅋㅣ	-3712
▁05	-3713
▁An	-3714
▁ㄱㅐㄹㄹㅓㄱ	-3715
▁ㅌㅡㅁ	-3716
▁ㅇㅕㄴㅍㅕㅇㄱㅠㄴ	-3717
▁ㅍㅓㄹ	-3718
▁ㄱㅏㅇㄷㅡㅇ	-3719
▁ㅍㅣㄹㄹㅏ	-3720
ㄷㅣㄱ	-3721
▁ㅇㅣㅂㅅㅏ	-3722
▁SC	-3723
ㅌㅗㄱ	-3724
▁ㅊㅜㅇㅂㅜㄴㅎㅣ	-3725
▁ㅅㅓㅇㅆㅣ	-3726
▁ㅅㅏㅁㄱㅏㄱ	-3727
▁ㅎㅏㄹㄹㅣ	-3728
▁ㄷㅏㅇㅅㅣㄴ	-3729
ㄱㅜㄱㅇㅓ	-3730
ㅘㄴ	-3731
▁ㅈㅓㅇㅎㅘㄱㅎㅣ	-3732
ㅂㅐㅇ	-3733
▁ㅁㅗㄱㅍㅗ	-3734
▁ㅇㅓㅁㄱㅕㄱ	-3735
▁ㅊㅓㄹㅎㅏㄱㅈㅏ	-3736
ㅋㅔㄹ	-3737
▁ㄷㅏㄴㅅㅓㄴ	-3738
▁ㅎㅐㅁ	-3739
▁ㄱㅏㄴㄱㅕㄱ	-3740
▁ㄱㅐㄹㄹㅓㄱㅅㅣ	-3741
ss	-3742
▁ㅈㅣㄴㅅㅣㄹ	-3743
▁ㅂㅏㄱㅅㅡ	-3744
▁ㅌㅗㄹ	-3745
▁ㅅㅜㄱㅈㅗㅇ	-3746
ang	-3747
▁ㅅㅓㄴㅁㅜㄹ	-3748
▁ㄷㅗㅁ	-3749
▁07	-3750
▁ㄱㅓㄷ	-3751
ㅅㅏㄴㄱㅜㄴ	-3752
ㄱㅏㅌ	-3753
ㅅㅡㅇㅈㅏ	-3754
▁ㅁㅗㄹㅇㅏ	-3755
▁ㅈㅓㄴㅈㅔ	-3756
▁ㅇㅜㄴㄷㅗㅇㄱㅏ	-3757
ㄹㅡㄴㅂㅏ	-3758
▁codice	-3759
▁ㅇㅣㄹㄹㅔ	-3760
ity	-3761
▁176	-3762
▁1929	-3763
ㄷㅗㄹㅍㅡ	-3764
▁ㅇㅑㅇㅈㅜ	-3765
▁250	-3766
▁ㅂㅡㄹㄹㅔ	-3767
▁ㅅㅓㄱㅂㅏㅇ	-3768
▁ㅇㅣㄹㄱㅗㅂ	-3769
▁ㅁㅗㅁㅁㅜ	-3770
▁1921	-3771
ㅅㅚ	-3772
ㅂㅕㅂ	-3773
ㄷㅜㅇㅇㅣ	-3774
▁ㅌㅔㄱㅅㅡ	-3775
▁ㅎㅏㅇㅎㅐ	-3776
ㅇㅓㄴㅅㅡ	-3777
▁ㅁㅕㅇㅅㅏ	-3778
▁ㅁㅣㄴㅅㅗㄱ	-3779
▁ㅂㅜㄴㅅㅏㄴ	-3780
▁ㅎㅞ	-3781
▁ㅇㅏㄹㅍㅡ	-3782
▁ㅈㅣㄴㅎㅡㅇ	-3783
ㅇㅣㄹㅂㅗㄴ	-3784
▁ㅎㅑㅇㅌㅗ	-3785
▁ㅇㅣㄴㅁㅣㄴㄱㅜㄴ	-3786
ㄴㅓㄹㄷㅡ	-3787
ㅅㅏㅇㅅㅣㄱ	-3788
ㅋㅡㄹㄹㅣㄴ	-3789
ㄱㅘㄴㅊㅏ	-3790
▁ㅍㅔㄹ	-3791
▁ㅇㅏㅂㅊㅜㄱ	-3792
▁ㄱㅕㅇㅇㅠ	-3793
▁ㅈㅗㄴㅅㅡㄴ	-3794
ㄹㅕㅅ	-3795
▁1925	-3796
▁ㅇㅑㅇㄱㅜㄱ	-3797
▁ㅌㅡㄱㅂㅕㄹㅎㅣ	-3798
▁ㄱㅗㅇㄹㅛㅇ	-3799
▁AC	-3800
▁ㄷㅏㄻ	-3801
▁ㅌㅣㄱ	-3802
▁ㄷㅗㅇㅇㅣㄹㅂㅗㄴ	-3803
▁ㅁㅕㅇㅅㅣ	-3804
▁ㅇㅑㄴ	-3805
▁ㅋㅐㅁㅍㅡ	-3806
▁ㅋㅗㄹㄹㅗㅁㅂㅣ	-3807
ㄴㅜㄱㅅㅡ	-3808
▁ㅈㅣㅂㅍㅣㄹ	-3809
ㅉㅏㄱ	-3810
▁ㅌㅏㅅ	-3811
▁ㄴㅗㅇㅊㅗㄴ	-3812
▁ㅎㅕㅂㅇㅑㄱ	-3813
▁ㅅㅣㄱㄹㅑㅇ	-3814
ㅅㅓㄹㄱㅏ	-3815
▁ㅁㅏㅌㄱㅣ	-3816
▁ㄱㅗㅁ	-3817
▁ㅂㅜㄹㄹㅓ	-3818
ㅈㅏㅇㄱㅜㄴ	-3819
▁1923	-3820
ㅅㅓㅇㄱㅣ	-3821
ff	-3822
▁ㅇㅕㄴㄱㅖ	-3823
ㅎㅐㅇㅅㅓㅇ	-3824
▁ㄱㅕㅇㄱㅗ	-3825
▁ㅅㅗㄴㅎㅐ	-3826
▁ㅅㅏㅁㄱㅏㄱㅎㅕㅇ	-3827
▁ㅅㅗㅇㄹㅏ	-3828
▁ㄱㅓㄴㄷㅏㅁ	-3829
▁ㅂㅜㄱㄱㅡㄱ	-3830
▁ㅂㅜㄹㅎㅘ	-3831
▁ㅅㅏㅇㅁㅜ	-3832
▁ㄷㅏㅇㅅㅏ	-3833
▁ㅍㅡㄹㄹㅓ	-3834
▁ㅎㅗㄹㄹㅗ	-3835
▁ㅊㅏㄱㅇㅛㅇ	-3836
▁ㅁㅓㅁㅊㅜ	-3837
▁ㅍㅣㄹㄹㅡㅁ	-3838
▁ㄱㅗㅇㄱㅜㄱ	-3839
▁ㅇㅣㄹㄷㅏㄴ	-3840
ㅅㅐㅇㅎㅘㄹ	-3841
▁ㄹㅗㅁ	-3842
▁ㅈㅓㄱㅇㅓ	-3843
▁ㄷㅔㄹ	-3844
▁ㄷㅗㄱㅈㅓㅁ	-3845
▁ㅇㅝㄴㅈㅗ	-3846
▁EP	-3847
▁ㅇㅣㄴㅊㅓㄴㄱㅘㅇㅇㅕㄱㅅㅣ	-3848
ㅌㅏㄹㄹㅣㄴ	-3849
▁ㄱㅓㄴㅊㅜㄱㅁㅜㄹ	-3850
▁ㅇㅠㄴㅊㅣ	-3851
▁ㅅㅓㅁㅇㅠ	-3852
▁ㅊㅓㅇㄷㅗㅇ	-3853
▁ㄲㅜㄴ	-3854
ㅂㅏㄴㄱㅣ	-3855
▁ㄷㅗㅇㅂㅏㄴ	-3856
▁ㅇㅣㄹㅎㅘㄴ	-3857
▁ㅈㅜㅇㄱㅜ	-3858
▁ㄷㅏㄴㅈㅏㅇ	-3859
▁ㅇㅝㄴㅈㅏㅇ	-3860
▁ㅅㅓㅇㅁㅕㅇ	-3861
ㅅㅡㄹㄹㅣ	-3862
▁ㅈㅗㅇㄹㅗ	-3863
▁ㅊㅣㄱ	-3864
▁de	-3865
ㅁㅔㄴㅌㅡ	-3866
▁ㅇㅣㄹㅇㅛ	-3867
▁ㅅㅞ	-3868
ㅈㅓㄴㄱㅓ	-3869
▁ㄱㅏㅇㅇㅛ	-3870
ㄹㅓㄴㅅㅡ	-3871
▁ㄱㅏㅁㅇㅗㄱ	-3872
▁ㅅㅓㄹㅂㅣ	-3873
up	-3874
▁JR	-3875
▁ㄱㅡㄹㅆㅣ	-3876
IS	-3877
ㅎㅑㅇㄱㅗㄱ	-3878
▁ㅁㅜㄴㅇㅣㄴ	-3879
▁ㄹㅐㅇㅋㅣㅇ	-3880
▁ㅇㅑㄱㅎㅘ	-3881
ㄹㅔㅅ	-3882
▁ㅁㅗㄱㅈㅗ	-3883
▁161	-3884
▁My	-3885
▁ㅎㅏㄴㄴㅏ	-3886
▁ㅊㅔㄴ	-3887
▁ㄷㅜㄴ	-3888
▁1922	-3889
▁ㅇㅣㅁㅅㅣㄴ	-3890
▁ㅇㅞㄹ	-3891
▁03	-3892
▁ㅊㅓㅅㅉㅐ	-3893
▁ㄷㅗㅇㅇㅣㄴ	-3894
▁ㅈㅏㅇㄱㅏㅂ	-3895
OM	-3896
▁1912	-3897
▁ㄱㅕㅁㅎㅏ	-3898
▁ㄴㅡㄱㄷㅐ	-3899
▁ㅁㅏㅇㅇㅝㄴㄱㅕㅇ	-3900
▁06	-3901
▁Go	-3902
▁ㄱㅐㅇ	-3903
▁ㄱㅏㅇㅅㅜ	-3904
▁ㅂㅗㄱㄱㅜ	-3905
▁175	-3906
▁ㄸㅏㄱ	-3907
▁ㅇㅕㄱㅈㅓㄴ	-3908
▁ㅇㅕㅂ	-3909
▁ㄷㅗㅇㅅㅓㅇㅇㅐ	-3910
▁ㅇㅕㄴㅅㅏㅇ	-3911
▁ㅈㅏㅁㅈㅐ	-3912
▁ㅈㅜㄴㅇㅜ	-3913
ip	-3914
▁ㄷㅗㅇㅅㅏ	-3915
▁""	-3916
▁ㅎㅘㅇㅌㅐ	-3917
ㅌㅗㅇㅎㅏㄱㄱㅛ	-3918
▁ㅅㅏㄴㅌㅏ	-3919
ㅊㅓㅁ	-3920
▁ㅋㅐㅂ	-3921
▁ㅍㅕㅇㄹㅗㄴㄱㅏ	-3922
ong	-3923
▁ㅊㅏㅁㅈㅗ	-3924
▁SM	-3925
ㅅㅐㅇㅁㅜㄹ	-3926
▁ㅂㅕㄴㅅㅣㄴ	-3927
▁ㅈㅣㄱㅅㅓㄴ	-3928
ㅁㅔㄴㅌㅓ	-3929
▁ㄱㅘㄴㄱㅐㄱ	-3930
▁ㄲㅗㅂㅎㅣ	-3931
ㄷㅗㅇㅅㅏㄴ	-3932
▁ㅈㅣㄴㄷㅗㅇ	-3933
▁ㄷㅙ	-3934
▁ㅅㅓㄱㅈㅗ	-3935
▁ㅂㅏㄹㄹㅔㄴ	-3936
▁ㅊㅜㅇㅈㅜ	-3937
ld	-3938
▁KT	-3939
▁1906	-3940
▁ㅈㅓㅇㅈㅏ	-3941
▁ㄱㅡㄴㄹㅗ	-3942
▁ㅇㅕㅇㄱㅘㅇ	-3943
▁ㅁㅗㄴㅌㅔ	-3944
▁ㅈㅜㅇㄹㅣㅂ	-3945
▁ㅌㅏㅁㅎㅓㅁ	-3946
▁ㅁㅗㄱㅅㅜㅁ	-3947
▁ㅇㅕㄴㄹㅕㅇ	-3948
▁ㄴㅏㅁㄷㅗㅇㅉㅗㄱ	-3949
▁164	-3950
▁ㄹㅓㄱ	-3951
▁1908	-3952
ㄹㅣㄱㅅㅡ	-3953
▁ㅍㅗㄱㅍㅜㅇ	-3954
▁ㅎㅏㅇㅁㅗㄱ	-3955
▁||	-3956
▁ㅅㅏㄱㅈㅔ	-3957
▁ㅈㅜㅇㅇㅏㅇㅇㅏ	-3958
▁ㅇㅕㅇㅈㅗ	-3959
▁ㅎㅏㅂㄹㅣ	-3960
▁ㄱㅗㅇㅅㅔ	-3961
ㅁㅣㄱㅅㅡ	-3962
ㄹㅡㅅ	-3963
AC	-3964
▁ㅇㅕㅇㄱㅏㅁ	-3965
ED	-3966
▁ㅇㅘㅇㄱㅏ	-3967
▁ㅍㅕㅇㅅㅐㅇ	-3968
▁Love	-3969
ㅁㅏㅇㅊㅣ	-3970
▁ㄱㅡㄱㅂㅗㄱ	-3971
ㅁㅏㅈ	-3972
ㅇㅕㅇㅅㅏㅇ	-3973
▁ㅇㅑㄱㅌㅏㄹ	-3974
▁ㅊㅏㅇㄱㅏㄴ	-3975
av	-3976
▁ㅇㅕㄴㅅㅗ	-3977
▁ㅅㅏㅂㅇㅣㅂ	-3978
ant	-3979
▁ㅇㅏㄱㅈㅏㅇ	-3980
▁ㅅㅏㄴㅈㅣ	-3981
▁ㄱㅗㅇㄱㅕㄱㅅㅜ	-3982
▁ㅈㅏㅇㅅㅏ	-3983
ㅅㅓㄴㅇㅣㄴ	-3984
▁ㅂㅜㄱㄷㅗㅇㅉㅗㄱ	-3985
▁ㅁㅜㄴㅎㅏ	-3986
▁ㅅㅏㄴㅇㅏㄱ	-3987
▁ㅎㅜㄹㄹㅠㅇ	-3988
▁ㅂㅣㅅ	-3989
▁ㅇㅣㄴㅈㅏ	-3990
▁ㅉㅡㅁ	-3991
▁ㅂㅕㄴㄷㅗㅇ	-3992
▁ㅎㅕㄴㅎㅘㅇ	-3993
ㅈㅜㅇㅎㅐ	-3994
▁ㅅㅐㄱㅅㅏㅇ	-3995
ㅁㅏㄹㄹㅣ	-3996
▁ㄷㅏㄴㅎㅐㅇ	-3997
▁ㅌㅗㅇㄹㅗ	-3998
▁1907	-3999
▁ㅅㅓㅇㅈㅣㄱㅈㅏ	-4000
ㅇㅝㄴㄱㅜㄱ	-4001
▁ㅂㅏㄱㄱㅡㄴ	-4002
▁ㄱㅜㅅ	-4003
▁1927	-4004
▁ㅇㅣㅂㅁㅜㄴ	-4005
▁ㅇㅕㄱㄱㅘ	-4006
▁ㄴㅔㄱ	-4007
▁ㅊㅓㅇㅎㅏ	-4008
ame	-4009
ㄴㅏㄱ	-4010
▁ㅂㅐㅇㅋㅡ	-4011
▁ㅌㅡㄱㄱㅡㅂ	-4012
ㄷㅗㄹㄹㅣ	-4013
▁ㅈㅜㅇㅅㅣ	-4014
▁BBC	-4015
▁ㅈㅛ	-4016
▁ㅎㅏㅂㄱㅖ	-4017
▁SN	-4018
ㅌㅔㄴㄷㅗ	-4019
ㅌㅔㄱ	-4020
▁NHK	-4021
▁ㅇㅡㅁㅁㅗ	-4022
▁ㄴㅣㄴㅌㅔㄴㄷㅗ	-4023
▁ㄷㅗㅇㄴㅏㅁㅇㅏ	-4024
se	-4025
▁ㅁㅕㅇㅁㅜㄴ	-4026
▁He	-4027
ㅂㅔㅅ	-4028
▁ㅈㅣㄴㄷㅗ	-4029
▁1917	-4030
▁ㅋㅗㅇㄱㅗ	-4031
ㅅㅡㄹㄹㅗ	-4032
▁ㄷㅗㅇㅊㅣ	-4033
▁ㄴㅏㅂㅊㅣ	-4034
▁ㅇㅕㅇㅎㅗㄴ	-4035
▁ㅈㅓㄴㅎㅑㅇ	-4036
▁ㅈㅗㅇㅈㅗㄱ	-4037
ㅁㅐㅅ	-4038
▁1926	-4039
▁ㄷㅓㄱㅂㅜㄴ	-4040
ort	-4041
▁ㅈㅓㄴㅈㅏㄱ	-4042
▁ㅂㅟ	-4043
ㅇㅔㄹㄹㅏ	-4044
▁ㅅㅏㅇㅇㅕㅇ	-4045
▁ㅇㅣㄴㄹㅕㄱ	-4046
▁ㅈㅓㅇㅅㅏ	-4047
ind	-4048
ㄹㅡㅍ	-4049
▁ㅎㅡㄺ	-4050
▁ㄷㅗㄹㅍㅏ	-4051
▁ㅈㅣㄱㅇㅟ	-4052
▁PD	-4053
▁ㅂㅏㄹㅎㅟ	-4054
▁MV	-4055
ㄷㅜㄹ	-4056
ㅇㅕㄴㅅㅜ	-4057
▁ㅈㅓㄴㅅㅡㅇ	-4058
ㅁㅗㄴㄷㅡ	-4059
▁ㅊㅔㄹ	-4060
▁ㄸㅗㄱㄱㅏㅌ	-4061
▁ㅊㅣㅁㅎㅐ	-4062
▁ㄷㅗㄱㅇㅣㄹㅇㅓ	-4063
▁ㅇㅐㅂ	-4064
▁ㅍㅡㄹㄹㅜ	-4065
ㅇㅜㄹㄹㅣ	-4066
▁02	-4067
▁ㅇㅘㅇㄹㅣㅂ	-4068
▁ㄱㅘㅇㅇㅕㄱ	-4069
ES	-4070
ith	-4071
▁ㅇㅠㄱㅅㅓㅇ	-4072
▁ㄱㅜㄱㅁㅣㄴㄷㅏㅇ	-4073
▁ㅇㅝㄴㅅㅏㄴ	-4074
▁ㅈㅣㄴㅅㅜㄹ	-4075
▁Sp	-4076
ㄴㅏㅇ	-4077
▁ㅁㅗㄴㅌㅡ	-4078
ry	-4079
▁ㄷㅏㄴㅊㅡㅇ	-4080
▁ㄱㅡㅂㅎㅐㅇ	-4081
ㄹㅐㅇㅋㅡ	-4082
▁ㅇㅐㄹㄹㅣ	-4083
▁ㅇㅏㄹㄹㅏ	-4084
ㅂㅓㅂㅇㅝㄴ	-4085
▁ㅈㅓㄱㅇㅡㅇ	-4086
ㅇㅓㄴㅌㅡ	-4087
▁ㅇㅓㅄㅇㅐ	-4088
ok	-4089
▁ㄱㅏㄱㅈㅏ	-4090
▁ㄷㅗㅇㅈㅓㄴ	-4091
▁ㅈㅓㅇㅅㅓ	-4092
▁ㅅㅓㄱㅌㅏㅂ	-4093
▁ㅇㅕㄱㅁㅕㅇ	-4094
▁151	-4095
▁168	-4096
▁ㅎㅑㅇㄴㅕㄴ	-4097
▁1905	-4098
ㅇㅕㄱㄱㅜ	-4099
▁ㅈㅡㅇㄱㅣ	-4100
▁ㅎㅗㅁㅍㅔ	-4101
▁ㅇㅐㄹㄹㅓㄴ	-4102
▁ㅍㅜㅁㅈㅣㄹ	-4103
▁162	-4104
▁158	-4105
ㅂㅏㄹㅈㅏ	-4106
▁ㄹㅔㄴㅈㅡ	-4107
▁166	-4108
ㅊㅗㅇㅈㅏㅇ	-4109
ㄱㅡㄹㄹㅏ	-4110
▁ㅅㅐㄴㅍㅡ	-4111
ㄹㅅㅜ	-4112
▁ㄱㅏㄴㅅㅓㅂ	-4113
▁ㅎㅏㄴㅎㅘ	-4114
▁ㄱㅕㄹㅅㅣㅁ	-4115
▁ㄹㅣㅁ	-4116
▁ㄷㅗㅇㅇㅕㅇㅅㅏㅇ	-4117
▁ㅁㅜㄷㅎㅣ	-4118
▁ㅂㅕㄹㄹㅗ	-4119
▁ㅅㅏㅇㅅㅔ	-4120
▁ㅁㅜㄴㅈㅐ	-4121
▁ㅊㅣㅂ	-4122
▁ㅇㅏㅂㄷㅗ	-4123
▁ㅅㅏㅇㅅㅗ	-4124
▁ㅊㅜㄹㅎㅕㄴ	-4125
▁ㅂㅓㄴㅈㅜ	-4126
ㄹㅗㄹㄹㅏ	-4127
▁ㅁㅜㄴㄱㅘ	-4128
ㅇㅜㄴㅌㅡ	-4129
▁IP	-4130
▁ㄹㅣㄱ	-4131
▁Un	-4132
▁ㅅㅐㄱㄲㅏㄹ	-4133
▁ㅂㅏㄱㄱㅡㄴㅎㅖ	-4134
▁ㅇㅗㅇㅎㅗ	-4135
▁ㅅㅓㄴㅅㅏ	-4136
▁ㅊㅜㄹㅅㅏㄴ	-4137
ate	-4138
ord	-4139
▁1904	-4140
▁ㅇㅓㅁㅁㅏ	-4141
▁ㅈㅣㅂㄱㅖ	-4142
qu	-4143
▁ㅂㅏㄴㅎㅘㄴ	-4144
▁ㄱㅘㄴㅈㅏㅇ	-4145
▁ㅅㅣㅀ	-4146
▁ㅈㅓㅁㅅㅓㅇ	-4147
ㅇㅣㄴㄹㅣ	-4148
▁Se	-4149
ob	-4150
▁ㅂㅏㄷㅊㅣㅁ	-4151
▁ㅈㅓㅇㄱㅖ	-4152
IC	-4153
ㅁㅣㄱ	-4154
▁ㄱㅘㄴㅈㅜㅇ	-4155
▁ㅇㅛㅇㅅㅏㄴ	-4156
▁ㅇㅣㅁㅅㅏㅇ	-4157
▁SF	-4158
▁ㅅㅔㅅㅉㅐ	-4159
▁ㅇㅏㄴㅂㅗ	-4160
▁ㅇㅕㄴㄱㅡㅁ	-4161
▁ㄱㅜㄷ	-4162
▁ㅁㅜㄹㄹㅕ	-4163
ㄱㅕㄹㅅㅡㅇ	-4164
▁ㅅㅏㅇㅊㅓ	-4165
▁ㅎㅓㅁ	-4166
▁ㅅㅓㅇㅈㅜ	-4167
▁ㅈㅓㄱㅅㅐㄱ	-4168
ㄲㅓ	-4169
▁Wh	-4170
▁165	-4171
▁ㅊㅜㄹㅍㅏㄴㅅㅏ	-4172
▁ㄱㅙ	-4173
▁ㄹㅚ	-4174
▁ㅂㅗㄱㅈㅔ	-4175
▁ㅇㅕㄴㅇㅐ	-4176
▁ㅅㅣㄴㅂㅣ	-4177
ㅊㅏㅈ	-4178
ㄱㅣㄹㅇㅣ	-4179
▁ㅇㅖㅅㄴㅏㄹ	-4180
ㅍㅔㄹ	-4181
▁ㅇㅘㅇㅈㅗㄱ	-4182
▁ㅁㅣㄴㅈㅗㄱㅈㅜ	-4183
▁ㄷㅐㄴ	-4184
ㅈㅜㄴㅎㅣ	-4185
▁ㅊㅓㄹㅈㅓ	-4186
▁ㅅㅓㄴㅈㅣㄴ	-4187
ㅇㅜㄴㅅㅓ	-4188
▁154	-4189
▁ㅍㅗㄱㅅㅡ	-4190
ㅁㅜㄴㅎㅏㄱ	-4191
▁AS	-4192
▁ㄸㅓㄹ	-4193
▁AM	-4194
ㅇㅈㅏㅇ	-4195
▁ㅅㅡㅇㅁㅜ	-4196
▁ㅈㅣㄴㅈㅣ	-4197
▁ㅎㅏㅂㅈㅏㄱ	-4198
ㅌㅐㅇ	-4199
ㄹㅓㅁㅂㅣ	-4200
▁156	-4201
▁ㄹㅜㄱ	-4202
▁ㅎㅏㄴㅇㅑㅇ	-4203
▁ㅎㅏㅇㅇㅣㄹ	-4204
▁ㅍㅜㅇㅅㅗㄱ	-4205
▁ㅂㅜㄴㅈㅣ	-4206
ㄹㅓㅁㅍㅡ	-4207
▁ㅈㅣㄱㅈㅏㅇ	-4208
ET	-4209
ㅋㅔㄴ	-4210
▁ㅂㅏㄹㅎㅛ	-4211
▁ㅊㅜㅇㄴㅏㅁ	-4212
▁ㅇㅝㄴㄹㅗ	-4213
▁163	-4214
▁ㅈㅏㅇㅍㅕㄴ	-4215
▁ㅂㅗㄱㅅㅗ	-4216
ㅍㅡㄹㄹㅓ	-4217
▁DJ	-4218
▁900	-4219
▁ㅁㅗㅁㄱㅣㄹㅇㅣ	-4220
▁167	-4221
ast	-4222
▁ㅂㅜㄴㅂㅐ	-4223
▁ㅇㅜㄴㅂㅏㄴ	-4224
▁ㅇㅜㄴㅁㅕㅇ	-4225
▁ㅎㅡㅇㅁㅣ	-4226
▁ㄱㅣㄴㄱㅡㅂ	-4227
▁ㄴㅏㅌ	-4228
▁ㅌㅣㅇ	-4229
▁DS	-4230
ㄹㅏㅇㅇㅣ	-4231
▁ㅂㅓㄴㅅㅣㄱ	-4232
ㅈㅗㄹ	-4233
▁ㅊㅏㄱㄹㅠㄱ	-4234
▁ㅅㅣㄴㅇㅛㅇ	-4235
▁ㅌㅔㅁ	-4236
▁ㅇㅛㅇㄹㅑㅇ	-4237
▁ㅅㅓㅇㄱㅗㅇㅎㅚ	-4238
ㅅㅏㄴㄹㅣ	-4239
ㅅㅗㅇㅂㅓㅂ	-4240
PS	-4241
▁139	-4242
▁ㅅㅏㅇㅇㅣㅁ	-4243
▁ㅁㅗㄱㄱㅕㄱ	-4244
ㄱㅕㅇㄱㅣ	-4245
▁ㅂㅏㅇㅇㅏㄴ	-4246
▁ㄹㅕㄴ	-4247
▁ㅇㅓㅂㄷㅔ	-4248
▁ㅇㅣㄴㅊㅣ	-4249
▁ㄱㅗㅇㅇㅛㅇ	-4250
▁ㅅㅑㅇ	-4251
▁ㅅㅣㄴㅎㅏ	-4252
ㅅㅣㄱㅁㅜㄹ	-4253
▁ㅇㅡㅇㅇㅜ	-4254
▁ㄱㅘㄴㄱㅘㅇㄱㅐㄱ	-4255
▁ㅈㅓㄴㅇㅕㅁ	-4256
ㅋㅣㄴㅅㅡ	-4257
▁ㅈㅜㅇㄱㅜㄱㅇㅓ	-4258
▁ㅈㅣㄴㅅㅏㅇ	-4259
if	-4260
ㅅㅏㄹㄹㅔㅁ	-4261
▁ㄷㅏㄴㅈㅗㅇ	-4262
▁ㅅㅓㅇㅈㅗㅇ	-4263
▁ㅈㅣㄴㄴㅏ	-4264
▁ㄸㅜㅀ	-4265
AD	-4266
▁ㅂㅏㄹㅈㅗㄱ	-4267
▁ㅇㅝㄹㄱㅏㄴ	-4268
ㄴㅣㄹ	-4269
▁ㅍㅕㅇㅇㅢ	-4270
▁145	-4271
▁ㅇㅛㅇㄱㅣ	-4272
ㄹㅏㄴㅌㅡ	-4273
ㅈㅏㅂㅇㅣ	-4274
▁ㅍㅕㅇㅅㅗ	-4275
▁ㅆㅜ	-4276
ㄱㅣㅁ	-4277
▁ㅂㅐㄱㅅㅣㄴ	-4278
ㅓㅂㅈㅣㄹ	-4279
ㅋㅙ	-4280
ure	-4281
▁ㅈㅓㅇㅂㅓㄹ	-4282
▁UN	-4283
▁ㄱㅝㄴㄱㅗ	-4284
▁ㅈㅓㄴㅈㅣ	-4285
IT	-4286
▁1896	-4287
▁ㄱㅕㅂㅊㅣ	-4288
▁ㅊㅜㄹㄱㅜ	-4289
ㅇㅣㄹㄷㅡ	-4290
ㅅㅏㄴㅁㅕㄴ	-4291
ㅇㅓㅂㄱㅏ	-4292
ㅅㅡㄹㄹㅣㅁ	-4293
ㅍㅐㅇ	-4294
ㄹㅔㄴㅊㅔ	-4295
▁ㅎㅕㅇㅂㅓㅂ	-4296
▁ㄱㅗㅇㄱㅘ	-4297
▁ㅃㅏㄹㄹㅣ	-4298
ㅁㅜㄴㄱㅘㄴ	-4299
▁ㅊㅣㄴㅈㅓㅇ	-4300
ㅈㅏㅂㅎㅣ	-4301
ㅅㅠㅁ	-4302
▁ㅅㅓㄴㅈㅔ	-4303
▁ㅅㅣㄴㅋㅏㄴ	-4304
▁ㅅㅣㄱㅅㅏ	-4305
ㄴㄷㅡㄹ	-4306
ive	-4307
▁ㄱㅗㄷㅂㅏ	-4308
▁ㄴㅗㅇㄷㅗ	-4309
ㅇㅜㄹㅅㅣ	-4310
▁ㅊㅣㄴㅅㅓㄴ	-4311
▁ㅊㅐㄱㅂㅗㅇ	-4312
▁ㅈㅓㄴㅇㅣ	-4313
▁ㅊㅏㅁㅇㅢ	-4314
iv	-4315
▁ㅋㅚ	-4316
▁ㄱㅣㅁㄷㅗㅇ	-4317
▁ㅇㅣㄹㅎㅐㅇ	-4318
▁j	-4319
▁ㄱㅏㅇㅇㅕㄴ	-4320
▁ㄱㅗㅇㅈㅓㄴ	-4321
▁ㅅㅣㄴㅇㅣㅁ	-4322
▁ㅎㅐㅇㅈㅓㅇㅂㅜ	-4323
▁ㅈㅜㅇㄷㅗ	-4324
ack	-4325
ㅇㅗㄹㄹㅣㄴ	-4326
▁ㅂㅓㄴㄴㅚ	-4327
▁ㄷㅗㄱㄹㅣㅂㅇㅜㄴㄷㅗㅇㄱㅏ	-4328
ㄲㅗㄹ	-4329
12	-4330
ㄸㅡㅅ	-4331
ㅃㅕ	-4332
ock	-4333
▁ㄷㅗㅇㅇㅟ	-4334
▁ㅇㅕㄴㅅㅜ	-4335
▁ㅇㅣㅂㅈㅡㅇ	-4336
ㄷㅓㄼ	-4337
▁ㅈㅓㄴㄷㅗ	-4338
▁ㅌㅏㅂㅅㅡㅇ	-4339
▁ㅌㅗㅇㅎㅐㅇ	-4340
ck	-4341
▁Ar	-4342
ㅇㅗㅅ	-4343
ㄱㅝㄴㅈㅏ	-4344
▁ㄴㅏㄹㄹㅣ	-4345
▁ㅈㅓㄴㄹㅠ	-4346
▁ㅇㅓㄹㅇㅡㅁ	-4347
▁ㅁㅣㄹㅈㅓㅂ	-4348
▁ㅇㅓㅆㅇㅓㅆ	-4349
▁ㅅㅣㄴㅋㅏㄴㅅㅔㄴ	-4350
▁ㅈㅜㄴㄱㅗㅇ	-4351
▁ㅈㅜㄴㄱㅕㄹㅅㅡㅇ	-4352
▁ㅇㅠㄹㄹㅣ	-4353
▁ㅇㅣㅂㅎㅣ	-4354
ㅇㅝㄴㅅㅜㅇㅇㅣ	-4355
ML	-4356
▁ㅈㅓㅁㅇㅠ	-4357
ㅂㅏㅂ	-4358
▁ㅇㅠㅇㅎㅏㅂ	-4359
▁5000	-4360
ㅍㅐㄱㅌㅡ	-4361
▁ㄱㅏㄴㅈㅓㅂ	-4362
▁174	-4363
ㄱㅠㄴㄱㅘㄴ	-4364
▁ㅎㅏㄱㅍㅏ	-4365
▁ㄱㅕㅇㅅㅓㄴ	-4366
▁ㅎㅏㄴㄱㅏㅇ	-4367
▁ㅌㅓㄴ	-4368
ㅇㅜㄹㄹㅓ	-4369
ㅁㅔㄹ	-4370
▁ㅆㅢ	-4371
▁ㄲㅗㄹ	-4372
▁ㅁㅗㄹㄹㅏㄱ	-4373
▁ㄱㅡㅁㅅㅓㅇ	-4374
▁ISO	-4375
▁ㄹㅣㄹㄹㅣ	-4376
▁ㅇㅜㄹㄹㅣ	-4377
▁ㅁㅐㄱㅅㅡ	-4378
▁157	-4379
ㅅㅏㅇㅎㅘ	-4380
▁MP	-4381
ㄱㅡㄹㅅㅡ	-4382
ㅇㅏㄱㄱㅣ	-4383
ㅇㅑㄴㅁㅏ	-4384
▁ㄴㅏㅁㅇㅑㅇ	-4385
▁ㅈㅓㅇㅊㅏㄹ	-4386
▁ㄱㅜㄱㅇㅓ	-4387
▁ㅇㅣㄴㅌㅔㄹ	-4388
ㅓㅇㅇㅣ	-4389
▁ㅈㅓㄴㅁㅜㄴㅎㅏㄱㄱㅛ	-4390
▁152	-4391
▁ㅊㅜㄹㅇㅣㅂㄱㅜ	-4392
▁ㅅㅡㅇㅊㅏ	-4393
▁ㅈㅓㄴㅇㅣㅁ	-4394
▁ㅊㅡㄱㄱㅡㄴ	-4395
▁ㅈㅜㅇㄷㅗㄱ	-4396
▁ㅈㅣㅌ	-4397
ㅊㅓㅇㅈㅏ	-4398
▁WW	-4399
▁146	-4400
▁ㅎㅏㄹㄷㅏㅇ	-4401
ime	-4402
AP	-4403
▁Pro	-4404
▁ㅂㅏㄱㅇㅕㅇ	-4405
▁MVP	-4406
▁ㅈㅓㅈ	-4407
▁ㅇㅕㅁㅅㅐㄱ	-4408
▁ㅈㅏㅇㅅㅓㅇ	-4409
▁PS	-4410
▁ㅅㅣㄱㄷㅏㅇ	-4411
ㅋㅗㄱ	-4412
▁ㄱㅏㄱㅂㅗㄴㄱㅏ	-4413
▁ㅅㅓㅇㄱㅠㄴㄱㅘㄴ	-4414
▁ㅈㅡㅇㅎㅜ	-4415
ㅅㅕㄴㅅㅡ	-4416
▁Le	-4417
▁ㅎㅏㅇㄱㅗㅇㅁㅗ	-4418
▁ㅇㅣㄹㅎㅘ	-4419
▁HIV	-4420
▁ㅊㅓㅇㅅㅏ	-4421
ㅊㅏㅇㄱㅣ	-4422
▁ㅇㅘㄴㅎㅘ	-4423
one	-4424
▁ㅅㅓㄱㅌㅏㄴ	-4425
▁ㅊㅓㄴㅁㅜㄴㅎㅏㄱ	-4426
▁125	-4427
▁ㅇㅔㄱ	-4428
▁ㅊㅏㄱㅅㅜ	-4429
▁ㅊㅏㄱㄱㅗㅇ	-4430
▁105	-4431
ㅎㅕㄱㅁㅕㅇ	-4432
▁ㄴㅏㅁㅇㅣㄴ	-4433
▁ㄱㅘㄴㅅㅡㅂ	-4434
ㄹㅔㄹ	-4435
▁ㅅㅜㄴㅊㅓㄴ	-4436
▁ㅇㅕㄴㅎㅕㄱ	-4437
▁ㅇㅝㄴㄴㅏ	-4438
ㅇㅣㄴㅈㅣ	-4439
▁ㄷㅏㅁㅂㅐ	-4440
▁ㅅㅓㅇㅂㅕㄱ	-4441
▁ㅅㅣㄹㅈㅓㅁ	-4442
ㅇㅣㄴㅈㅓ	-4443
▁ㄱㅏㅇㅅㅏ	-4444
▁ㄱㅣㅁㅇㅛㅇ	-4445
▁ㅎㅡㅇㅎㅐㅇ	-4446
ㄹㅔㄴㅈㅣ	-4447
ㅁㅕㅇㅂㅏㄱ	-4448
▁ㄱㅘㄴㅊㅏㄹㅅㅏ	-4449
▁ㅇㅖㄴ	-4450
▁ㅅㅣㄹㅇㅛㅇ	-4451
▁ㅇㅣㅈ	-4452
ㅈㅏㄴㅌㅣ	-4453
ㄷㅠㄹ	-4454
▁ㄱㅕㅌ	-4455
ㄷㅔㄹㅍㅣ	-4456
▁ㅅㅓㄴㄷㅜ	-4457
▁ㄱㅓㅁㅈㅡㅇ	-4458
▁1500	-4459
ㅇㅏㄱㄷㅏㄴ	-4460
▁ㅅㅣㄴㅈㅓㄴ	-4461
▁ㅊㅏㅁㅍㅏㄴ	-4462
▁ㄲㅡㄴ	-4463
▁ㅇㅏㅍㅁㅕㄴ	-4464
▁ㅅㅓㄱㄱㅏ	-4465
▁ㅇㅣㄴㄱㅘ	-4466
▁#	-4467
ㄹㅐㄴㅅㅣ	-4468
ㅊㅏㄹㄱㅜ	-4469
▁ㅈㅏㅇㅇㅣㄴ	-4470
te	-4471
▁MC	-4472
ㅂㅅㅣ	-4473
▁ㄷㅏㄺ	-4474
OC	-4475
▁1911	-4476
▁ㅂㅕㄹㅈㅏ	-4477
▁ㅇㅏㅂㅂㅏㄱ	-4478
ㅈㅣㅂㅎㅏㅂ	-4479
▁ㅎㅣㅁㅆㅡ	-4480
▁ㅇㅟㄹㅅㅡㄴ	-4481
▁ㄱㅗㅇㅈㅏ	-4482
▁ㅈㅏㅂㅇㅏ	-4483
▁ㅈㅜㅇㅈㅗㅇ	-4484
▁ㅂㅣㄹㅎㅔㄹ	-4485
▁3000	-4486
▁ㅅㅣㅁㅇㅢ	-4487
▁ㅎㅐㅇㅈㅣㄴ	-4488
ㅁㅊㅣ	-4489
pe	-4490
▁ㄱㅝㄴㅇㅠ	-4491
▁153	-4492
▁ㅊㅓㄴㅅㅏ	-4493
▁ㅎㅘㄴㅇㅝㄴ	-4494
▁ㄱㅜㄺ	-4495
▁ㅅㅏㅇㄹㅠ	-4496
ㅅㅓㅇㅈㅓㄴ	-4497
▁ㄱㅘㄴㅎㅕㄴ	-4498
▁ㅇㅣㄹㄹㅔㄱㅌㅡ	-4499
io	-4500
▁ㅃㅜㄹ	-4501
▁ㅈㅓㄴㅈㅣㄴ	-4502
▁ㅈㅜㅇㅈㅓㅁ	-4503
▁ㅇㅑㄼ	-4504
ㄹㅔㄴㅅㅡ	-4505
▁ㅊㅜㅇㅅㅓㅇ	-4506
▁Con	-4507
▁ㄱㅕㅁㅇㅣㅁ	-4508
▁ㄷㅏㄴㅈㅓㅁ	-4509
▁ㄱㅡㅂㅈㅣㄴ	-4510
▁ㅈㅓㄴㅈㅏㅇ	-4511
▁ㅎㅑㅇㄱㅛ	-4512
▁ㄷㅏㄴㅇㅝㄴ	-4513
▁103	-4514
▁ㅇㅣㄴㅌㅔ	-4515
▁ㅁㅣㄴㄱㅜㄱ	-4516
▁ㅂㅜㄱㄷㅗㅇㅂㅜ	-4517
▁ㅍㅕㄴㄱㅗㄱ	-4518
▁ㅇㅕㄴㄷㅗ	-4519
▁ㅇㅕㄴㄹㅜ	-4520
▁ㅅㅜㄹㅌㅏㄴ	-4521
▁IT	-4522
ㄷㅗㅇㅁㅜㄹ	-4523
▁ㅈㅗㄴㄱㅕㅇ	-4524
ㄹㅡㄱ	-4525
▁ㅈㅓㄱㅎㅣ	-4526
▁ㅈㅓㅁㅍㅡ	-4527
▁ㅇㅕㄴㅇㅣㄴ	-4528
ㅅㅈㅣ	-4529
ㅇㅜㄹㅇㅣ	-4530
ㅈㅏㄱㅈㅏ	-4531
ㅈㅏㅇㅈㅏ	-4532
▁ㅅㅙ	-4533
▁ㅇㅕㅇㄷㅗㅇ	-4534
ㅂㅐㄱㄱㅘ	-4535
▁ㅇㅣㄴㅎㅕㅇ	-4536
▁155	-4537
▁ㅎㅣㄴㄷㅜ	-4538
▁ㅅㅓㅇㅈㅓㄴ	-4539
▁ㅁㅣㄴㅅㅏ	-4540
▁ㅇㅡㅇㄷㅏㅂ	-4541
▁ㅂㅏㅌ	-4542
ㄴㅔㄴ	-4543
▁ㅇㅏㄱㅁㅏ	-4544
▁ㅍㅕㅇㅎㅐㅇ	-4545
▁ㅋㅗㄹㄹㅏ	-4546
▁ㅌㅐㅇ	-4547
▁Bo	-4548
▁ㅊㅣㄴㅊㅓㄱ	-4549
▁128	-4550
▁108	-4551
▁ㅅㅓㅇㅁㅗ	-4552
▁ㄱㅗㅇㅇㅣㄴ	-4553
▁ㅊㅜㅇㅈㅗㄱ	-4554
ㅅㅏㅇㅅㅡ	-4555
▁ㅁㅣㄴㅇㅕㅇ	-4556
▁ㅈㅜㅇㅈㅏㅇ	-4557
ber	-4558
▁ㅇㅏㄴㅈㅏㅇ	-4559
▁ㅋㅓㅁㅍㅓ	-4560
ㅁㅅㅐ	-4561
▁ㅅㅐㅇㅇㅣㄹ	-4562
ㅈㅓㄴㄷㅡ	-4563
ㅇㅝㄴㅅㅣ	-4564
▁ㄴㅏㄹㅇㅏ	-4565
▁ㄱㅡㄴㅈㅓㅂ	-4566
ㅋㅡㄹㄹㅏ	-4567
▁ㅂㅏㄹㅇㅝㄴ	-4568
▁$	-4569
ㅁㅏㄴㄷㅜ	-4570
▁ㅂㅗㄱㅈㅏㅇ	-4571
iz	-4572
ㅇㅛㅇㅅㅗ	-4573
▁ㅌㅖㄴ	-4574
▁ㅂㅣㄹㅎㅔㄹㄹㅡㅁ	-4575
ge	-4576
▁ㄹㅜㄹ	-4577
▁ㅈㅓㄴㄷㅜ	-4578
▁ㅂㅓㅂㄹㅕㅇ	-4579
ㅊㅐㄱㅈㅓㅁ	-4580
age	-4581
ㅍㅏㅇ	-4582
▁ㅊㅕ	-4583
▁ㅋㅘ	-4584
▁1909	-4585
▁ㅎㅗㅇㅅㅜ	-4586
▁ㅎㅡㅌ	-4587
ㄹㅏㅁㅎㅚ	-4588
▁ㄷㅏㄹㅇㅏ	-4589
▁ㄷㅡㄹㄹㅣ	-4590
▁ㅎㅘㄴㅅㅏㅇ	-4591
▁ㅈㅓㄱㄷㅐ	-4592
▁102	-4593
▁GT	-4594
▁ㅅㅏㅇㅈㅏ	-4595
▁ㄹㅜㅇ	-4596
▁ㅋㅣㄴ	-4597
▁ㅈㅣㄴㄹㅣ	-4598
▁Bl	-4599
▁ㅇㅕㄴㅅㅔ	-4600
▁ㅋㅐㅁㅍㅔ	-4601
ㅅㅡㄹㄹㅏㅁㄱㅛ	-4602
▁ㅈㅓㄴㄹㅖ	-4603
▁ㅂㅕㄹㄱㅐ	-4604
▁ㄱㅗㅅㄱㅗㅅ	-4605
▁149	-4606
ㅌㅡㄹㅈㅡ	-4607
▁ㅌㅡㄱㅇㅠ	-4608
sp	-4609
▁ㅇㅣㄹㅅㅐㅇ	-4610
▁ㄱㅕㄹㅅㅓㄴ	-4611
▁ㅇㅜㄴㄷㅗㅇㅈㅏㅇ	-4612
DP	-4613
▁ㅁㅣㄷㅇㅡㅁ	-4614
▁ㅅㅏㅇㅅㅏㅇ	-4615
▁ㄱㅏㅅ	-4616
▁ㄱㅏㅁㅈㅣ	-4617
▁ㄱㅓㄴㅇㅢ	-4618
ㅁㅐㄴㅅㅡ	-4619
ㅂㅜㄴㄱㅜㄴ	-4620
▁ㅂㅜㄴㄱㅘㅇ	-4621
ㅌㅡㄱㅂㅕㄹㅈㅏ	-4622
▁ㄱㅓㄴㅊㅜㄱㄱㅏ	-4623
▁ㅊㅓㅇㅇㅘ	-4624
ㄹㄲㅏ	-4625
orld	-4626
▁ㄱㅏㄱㄱㅣ	-4627
ㄹㅏㅇㅍㅡ	-4628
▁CPU	-4629
ㅈㅗㅇㅅㅏ	-4630
▁ㅇㅣㄹㅉㅣㄱㅇㅣ	-4631
ㅍㅕ	-4632
▁ㅁㅐㅂ	-4633
▁ㅇㅏㅇㄹㅣ	-4634
ㅂㅏㄷㅊㅣㅁ	-4635
▁ㄷㅗㅇㄷㅏㅇ	-4636
▁ㅅㅏㅇㅂㅜ	-4637
▁ㄴㅜㄴㅁㅜㄹ	-4638
▁ㄷㅗㅇㄷㅡㅇ	-4639
▁ㄱㅕㅇㅂㅜ	-4640
▁ㅋㅗㄹㄹㅔ	-4641
▁ㄱㅘㄴㄴㅕㅁ	-4642
▁ㅂㅗㄹㄹㅣ	-4643
ㅁㅓㄴㄷㅡ	-4644
▁ㅈㅓㄴㄷㅐ	-4645
▁ㅇㅣㅂㅅㅏㅇ	-4646
▁ㄱㅗㄹㅍㅡ	-4647
▁ㅇㅣㄴㄱㅕㄱ	-4648
ㄱㅜㄱㅈㅜ	-4649
ㅂㅏㄱㅈㅟ	-4650
▁ㄷㅜㄹㄹㅔ	-4651
▁ㅅㅏㄹㅍㅕ	-4652
▁ㅎㅘㅇㅎㅐ	-4653
ㅊㅏㅇㄱㅜㄴ	-4654
EN	-4655
▁ㅊㅏㅇㄱㅓㄴ	-4656
▁ㅆㅗㄷ	-4657
ㅁㅠㄹㄹㅔ	-4658
▁ㅇㅣㄹㅈㅗㄱ	-4659
▁ㅁㅕㅇㅇㅢ	-4660
▁ㄱㅘㅇㄴㅕㄴ	-4661
▁ㅅㅐㅇㅁㅕㅇㅊㅔ	-4662
▁SP	-4663
▁ㅌㅏㅁㅈㅣ	-4664
▁ㅇㅗㄴㅊㅓㄴ	-4665
ㅌㅡㄹㄹㅔ	-4666
▁147	-4667
▁ㅁㅜㄴㅇㅑㅇ	-4668
▁ㅇㅓㄴㄹㅗㄴㅇㅣㄴ	-4669
▁ㅅㅏㅅ	-4670
▁ㄱㅗㅇㄹㅑㄱ	-4671
▁ㅁㅜㄴㅎㅏㄱㅅㅏㅇ	-4672
ㄴㅕㄴㄱㅣ	-4673
ㅂㅡㄹㄹㅗ	-4674
▁ㅎㅑㅇㅎㅜ	-4675
▁ㅂㅏㄱㅌㅏㄹ	-4676
▁ㅇㅑㅇㅅㅏㅇ	-4677
▁ㅂㅏㄹㅎㅕㄴ	-4678
▁ㅌㅗㅇㅊㅣㅇ	-4679
ㅍㅕㅇㄱㅜㄴ	-4680
▁al	-4681
▁ㅂㅜㄱㄱㅜ	-4682
▁ㅅㅓㄴㅇㅝㄴ	-4683
▁ㅅㅗㄱㅅㅓㅇ	-4684
ㅎㅏㅇㄱㅗㅇ	-4685
▁ㅈㅣㄱㅊㅐㄱ	-4686
▁ㅋㅏㄹㄹㅏ	-4687
▁171	-4688
▁ㄹㅣㄹ	-4689
▁ㅅㅔㄴㅅㅓ	-4690
▁ㅈㅓㅇㅁㅜ	-4691
ㅇㅓㅁㅅㅡ	-4692
ㅇㅏㅅㄱㅣ	-4693
ㄱㅗㅇㅅㅣㄴ	-4694
ㅇㅟㄴㅅㅡ	-4695
▁ㄱㅏㅇㄱㅘ	-4696
▁ㅅㅔㅁ	-4697
▁ㄱㅘㅇㅂㅜ	-4698
▁ㄷㅗㅇㄹㅐ	-4699
▁ㅋㅏㅁㅂㅗ	-4700
▁ㅇㅣㄹㄱㅘㄴ	-4701
▁1915	-4702
ㅊㅣㄹㄹㅣ	-4703
▁ㅍㅜㅅㅂㅗㄹ	-4704
IM	-4705
ik	-4706
▁ㅈㅓㄱㅈㅏ	-4707
▁127	-4708
▁ㅈㅏㅇㅁㅣ	-4709
GC	-4710
▁ㅇㅣㅂㅊㅔ	-4711
▁ㅊㅓㅇㅈㅏㅇ	-4712
▁ㅎㅟㅂ	-4713
▁1913	-4714
int	-4715
ㅅㅓㄱㄱㅣ	-4716
▁ㅂㅕㄹㅊㅣㅇ	-4717
ㅂㅓㄹㄹㅔ	-4718
▁ㅇㅏㄹㅋㅗ	-4719
▁ㄴㅏㅁㅎㅏㄴ	-4720
▁Tr	-4721
▁ㅎㅏㅂㅂㅓㅂ	-4722
▁ㄱㅕㅇㄱㅘ	-4723
▁ㅂㅓㅂㅈㅔ	-4724
▁ㅈㅜㅇㄱㅜㄱㅇㅣㄴ	-4725
▁ㅅㅓㄲㅇㅣ	-4726
▁ㅊㅜㄹㅌㅗ	-4727
▁ㅇㅒ	-4728
ㅇㅜㄴㄹㅗ	-4729
▁ㅅㅣㄹㅈㅗㅇ	-4730
▁1895	-4731
▁ㅇㅝㄴㅂㅏㄴ	-4732
▁ㅈㅓㅇㅁㅣㄹ	-4733
▁141	-4734
▁ㄷㅐㅁ	-4735
▁ㅂㅜㄱㅂㅏㅇ	-4736
▁ㄱㅣㅁㅅㅜ	-4737
▁ㅅㅓㅂㅊㅟ	-4738
ㅅㅓㄴㄷㅐ	-4739
▁ㅋㅓㄹㄹㅓ	-4740
▁ㅅㅣㄴㅎㅡㅇ	-4741
ㅂㅣㅅ	-4742
▁ㅅㅓㄲ	-4743
▁ㅁㅣㄴㅎㅚ	-4744
ㅂㅏㅌ	-4745
▁ㄷㅏㄴㄱㅣ	-4746
ㅈㅏㅁ	-4747
ㅅㅖㄹ	-4748
ㅋㅘ	-4749
▁ㄱㅣㅁㅈㅐ	-4750
ㅇㅣㄴㅁㅕㅇㅅㅏ	-4751
▁ㅊㅣㄴㅇㅣㄹㅇㅣㄴㅁㅕㅇㅅㅏ	-4752
▁ㅂㅜㄱㅇㅟ	-4753
▁ㄱㅡㅁㅇㅐㄱ	-4754
▁ㄲㅚ	-4755
▁ㄸㅏㄴ	-4756
▁ㅇㅏㄹㅂㅔ	-4757
ust	-4758
▁CO	-4759
ㅎㅐㅇㅇㅟ	-4760
▁ㅂㅕㅇㅇㅕㄱ	-4761
▁ㄱㅜㄱㅅㅏ	-4762
ㄷㅏㄷ	-4763
▁ㅇㅏㄴㅇㅑㅇ	-4764
▁ㅍㅏㅁ	-4765
▁ㅍㅕㄹㅊㅕ	-4766
▁ㄷㅣㅇ	-4767
▁ㅂㅐㄱㅎㅘ	-4768
▁ㅅㅣㄴㅅㅔ	-4769
▁ㅊㅏㅇㅅㅣ	-4770
▁ㅍㅣㄹㄹㅣㅂ	-4771
ㅅㅓㄴㅅㅡ	-4772
▁ㅇㅗㄱㅅㅡ	-4773
▁144	-4774
▁TH	-4775
▁ㄱㅏㄴㅅㅏ	-4776
▁ㄱㅣㅁㅍㅗ	-4777
▁119	-4778
ㄹㅏㅇㅅㅜ	-4779
▁ㅅㅗㄴㄱㅏ	-4780
▁ㅅㅗㅇㄴㅏ	-4781
▁ㅎㅡㄹㄹㅓ	-4782
▁ㅍㅕㅇㅇㅣㄹ	-4783
▁NC	-4784
▁TO	-4785
▁135	-4786
▁ㄱㅜㅇㅈㅓㅇ	-4787
▁ㅊㅓㄴㅁㅜㄴㅎㅏㄱㅈㅏ	-4788
ude	-4789
▁111	-4790
▁ㄱㅗㅇㅊㅐ	-4791
▁ㅇㅑㅇㅋㅣ	-4792
ㅂㅌㅓ	-4793
▁ㄱㅣㅁㅈㅣㄴ	-4794
▁ㅂㅏㄴㄱㅕㄱ	-4795
ㅅㅅㅜ	-4796
▁ㅈㅓㅇㄹㅕㄹ	-4797
▁169	-4798
▁ㄱㅐㄹㄹㅓ	-4799
▁ㄱㅗㅇㅇㅢ	-4800
▁ㅁㅏㄴㅅㅔ	-4801
▁ㄱㅏㅇㄱㅕㅇ	-4802
▁ㅃㅗㅂㅎㅣ	-4803
▁ㅊㅓㄴㄷㅗ	-4804
▁ㄷㅗㅇㄷㅗㄱ	-4805
ㅇㅐㅇ	-4806
▁ㅅㅣㄱㅂㅕㄹ	-4807
▁ㅊㅗㅇㅅㅓㄴㄱㅓ	-4808
ep	-4809
ib	-4810
ㄹㅣㄹㄹㅓ	-4811
▁ㅈㅜㅇㅈㅐ	-4812
ㅅㅏㄴㄷㅗㅇ	-4813
▁ㄱㅣㅁㅇㅕㅇㅅㅏㅁ	-4814
ㅅㅓㄴㄱㅓ	-4815
▁ㅅㅐㅇㄹㅣ	-4816
▁ㅍㅐㅇㅊㅏㅇ	-4817
▁ㅋㅓㄹㄹㅓㅁㅂㅣ	-4818
▁ㄱㅣㅁㅌㅐ	-4819
▁ㅌㅓㄱ	-4820
▁ㅇㅣㄴㅈㅐ	-4821
▁ㅊㅣㅁㅁㅗㄹ	-4822
▁ㅋㅏㅇ	-4823
▁ㅇㅔㄴㅈㅣ	-4824
▁ㅁㅕㅇㅁㅗㄱ	-4825
▁ㅅㅓㅂㅈㅓㅇ	-4826
▁HT	-4827
▁ㅊㅗㅇㄱㅘㄹ	-4828
▁ㄷㅗㅇㄷㅐ	-4829
ㅅㅡㄹㄹㅏㄴㄷㅡ	-4830
▁ㅇㅕㅇㄹㅣ	-4831
▁ㅊㅓㅁㄱㅏ	-4832
▁ㅅㅣㄹㅈㅓㄴ	-4833
▁ㅈㅓㄴㅎㅏㅁ	-4834
ㅁㅣㄴㅈㅏ	-4835
▁ㅂㅏㄹㅌㅡ	-4836
▁ㄷㅗㅇㄴㅕㄴ	-4837
▁ㄴㅏㄴㅁㅣㄴ	-4838
▁ㅍㅜㅇㄱㅕㅇ	-4839
▁ㄱㅘㄴㄱㅜ	-4840
▁ㄷㅏㄷㅎㅣ	-4841
▁ㅋㅗㄴㅋㅡ	-4842
▁We	-4843
▁ㅈㅏㅇㅎㅏㄱ	-4844
▁ㄹㅛㅇ	-4845
ㅇㅜㄹㄷㅐ	-4846
ㅈㅓㄴㄱㅘㅇㅇㅕㄱㅅㅣ	-4847
ㄱㅡㄹㄹㅓ	-4848
▁ㄱㅕㄱㄹㅕㄹ	-4849
ㅇㅣㄴㅇㅓ	-4850
▁ㄱㅗㅇㅈㅣㄱ	-4851
▁172	-4852
ㅁㅏㄹㄹㅏ	-4853
▁ㄱㅘㄴㄹㅏㅁ	-4854
▁ㄷㅡㅇㅈㅐ	-4855
▁ㅅㅜㅇㅂㅐ	-4856
▁ㅍㅕㅇㅇㅑ	-4857
▁ㅇㅡㅁㅇㅝㄴ	-4858
MS	-4859
ㅇㅇㅣ	-4860
▁ㄷㅓㅁ	-4861
▁ㅋㅡㄴ	-4862
ㅅㅓㄱㅌㅏㅂ	-4863
▁ㄱㅣㄴㅈㅏㅇ	-4864
ome	-4865
▁106	-4866
▁ㄴㅏㅌㅁㅏㄹ	-4867
ㅊㅡㅇㅅㅓㄱㅌㅏㅂ	-4868
▁ㅊㅜㅇㅂㅜㄱ	-4869
▁ㅈㅓㄴㅅㅓㅇㄱㅣ	-4870
▁ㅎㅔㄹㄹㅣ	-4871
▁ㄷㅗㅇㄹㅕㄱ	-4872
▁ㅈㅓㄴㅇㅏㅂ	-4873
▁ㅈㅓㅇㅈㅓㄴ	-4874
▁ㅁㅜㄹㅈㅏ	-4875
▁ㅅㅣㄴㅎㅏㄱㄱㅛ	-4876
ment	-4877
ㅊㅔㄴ	-4878
▁ㅌㅗㅇㄱㅡㄴ	-4879
▁ㅈㅜㅇㄹㅑㅇ	-4880
▁CE	-4881
▁ㄷㅏㅎ	-4882
▁ㄴㅓㄼㅎㅣ	-4883
ire	-4884
▁ㅈㅜㅇㅅㅗ	-4885
ㅓㄱㅈㅓㅇ	-4886
▁ㅂㅏㅇㅊㅣㅁ	-4887
▁ㅍㅕㅇㅌㅐㄱ	-4888
▁ㅇㅓㄴㄷㅓ	-4889
▁ㅍㅏㄹㄹㅏ	-4890
ㅅㅣㄹㄹㅣ	-4891
▁ㅈㅗㄴㅈㅜㅇ	-4892
▁ㅋㅡㄹㄹㅣㄴ	-4893
▁ㅎㅏㅁㅂㅜ	-4894
▁ㅍㅕㄴㄹㅣ	-4895
▁ㅊㅓㅇㅇㅝㄴ	-4896
ㅁㅕㄴㅊㅔ	-4897
▁ㅅㅏㅇㅅㅓ	-4898
ㅋㅣㅁ	-4899
▁ㄴㅏㄹㅉㅏ	-4900
▁ㄴㅏㅈㅊㅜ	-4901
▁ㄱㅗㅇㄷㅏㄴ	-4902
▁ㅈㅗㅇㄱㅕㄹ	-4903
ian	-4904
▁ㅁㅔㄹㄹㅗ	-4905
▁It	-4906
▁ㅎㅕㅂㅈㅜ	-4907
▁ㅇㅘㄹ	-4908
▁ㅈㅏㅇㅇㅏㄴ	-4909
▁ㄷㅏㄴㅅㅣㄱ	-4910
▁ㅅㅣㄴㄱㅣ	-4911
▁ㅊㅜㄹㅊㅓ	-4912
ide	-4913
▁ㅅㅓㄴㄱㅜ	-4914
▁ㅅㅓㄴㅈㅗㅇ	-4915
▁ㅎㅕㅂㅈㅗ	-4916
▁ㄱㅏㅂㅈㅏㄱ	-4917
▁ㅅㅏㅇㄷㅏㅇㅅㅜ	-4918
ㅂㅓㄴㅅㅡ	-4919
▁ㅂㅏㅇㅍㅐ	-4920
ace	-4921
▁ㅎㅏㄴㄷㅗㅇㅇㅏㄴ	-4922
ere	-4923
▁ㄱㅏㄴㅎㅗ	-4924
ㄹㅏㅁㅈㅟ	-4925
▁ㄱㅗㅇㅁㅗ	-4926
▁ㅎㅏㅁㅇㅠ	-4927
ㄴㅓㄹㄹㅣ	-4928
▁ㅅㅣㄴㅈㅜㅇ	-4929
▁ㅇㅑㄱㅊㅣㅇ	-4930
ㅅㅣㄹㄹㅗㄱ	-4931
ㅈㅜㅇㄱㅜㄱ	-4932
cl	-4933
ㅎㅐㅇㅈㅏ	-4934
▁ㅅㅏㅁㄱㅜㄱㅈㅣ	-4935
▁ㄷㅗㅇㅁㅜㄴ	-4936
▁ㅈㅡㅇㅈㅣㄴ	-4937
▁ㄴㅣㅇ	-4938
▁ㄹㅣㅇㅋㅓㄴ	-4939
▁ㅇㅣㄴㅅㅏㄴ	-4940
▁ㅌㅡㄱㅈㅣㅂ	-4941
▁ㄲㅓㅂㅈㅣㄹ	-4942
▁ㅈㅓㄱㅂㅜㄴ	-4943
ㅇㅗㄴㅈㅡ	-4944
▁ㅂㅓㄴㅇㅕㅇ	-4945
▁ㅅㅏㅇㅈㅏㅇ	-4946
▁ㄲㅙ	-4947
▁NBA	-4948
ㅅㅡㅇㅈㅣ	-4949
▁ㄱㅕㅇㅂㅗ	-4950
▁ㄴㅏㄱㅅㅓㄴ	-4951
▁ㄱㅚㅇㅈㅏㅇ	-4952
▁ㅇㅣㄴㅇㅕㄴ	-4953
▁ㅅㅣㄴㅎㅏㄱㅈㅏ	-4954
▁ㄱㅕㄱㅌㅜ	-4955
▁ㅊㅔㄹㅅㅣ	-4956
▁ㅅㅓㅇㄹㅣ	-4957
▁ㅇㅏㄴㅅㅓㅇ	-4958
▁ㅌㅏㄹㅎㅘㄴ	-4959
▁ㅊㅗㄱㄱㅜ	-4960
▁ㅊㅗㅇㅅㅏ	-4961
▁ㅎㅡㅌㅇㅓ	-4962
▁ㅇㅕㅇㅇㅢ	-4963
▁ㄴㅣㅅㅍㅗㄴ	-4964
▁ㄱㅐㄱㅊㅔ	-4965
▁ㄱㅡㅂㅅㅗㄱ	-4966
ㄱㅞ	-4967
▁CON	-4968
▁IBM	-4969
▁ㅁㅕㅇㅈㅔ	-4970
▁ㄷㅗㅇㅇㅣ	-4971
▁ㅅㅐㅇㅈㅓㄴ	-4972
▁ㅈㅜㅇㅇㅢ	-4973
▁⊸	-4974
▁ㄱㅣㅁㅅㅏㅇ	-4975
▁ㅂㅜㄹㅍㅕㄴ	-4976
▁".	-4977
ㄱㅗㄱㄹㅣ	-4978
▁ㅇㅝㄴㄱㅗ	-4979
ㄱㅏㄴㅈㅣ	-4980
▁ㅇㅕㄱㅅㅓㄹ	-4981
▁ㅊㅗㅇㄷㅐ	-4982
▁ㄷㅗㅇㅅㅏㅇ	-4983
▁ㅇㅏㅁㅅㅓㄱ	-4984
▁ㅈㅔㄹ	-4985
▁ㄱㅘㄴㅌㅗㅇ	-4986
▁ㅅㅓㅇㅇㅜㄴ	-4987
▁ㅁㅕㅇㄹㅕㅇㅇㅓ	-4988
ㅌㅡㄹㄹㅐㄴ	-4989
▁ㅁㅣㄹㅇㅑㅇ	-4990
▁ㅋㅜㄴ	-4991
ㄷㅗㄹㅇㅏ	-4992
▁ㅎㅕ	-4993
▁ㄱㅕㅇㅇㅕㄴ	-4994
▁ㅅㅏㄴㄹㅣㅁ	-4995
▁ㄹㅡㅇ	-4996
▁ㅂㅜㄴㄷㅏㅇ	-4997
▁ㅆㅏㅇㄷㅜㅇㅇㅣ	-4998
▁ㅁㅕㄴㅎㅏ	-4999
▁la	-5000
▁ㄲㅡㅀ	-5001
▁ㅊㅐㄱㅇㅣㅁㅈㅏ	-5002
ㄱㅕㅁ	-5003
▁ㅅㅜㄴㅎㅚ	-5004
▁148	-5005
▁ㅅㅓㅁㄱㅣ	-5006
▁ㅈㅏㅇㄴㅏㄴ	-5007
▁ㅎㅏㄴㅅㅡ	-5008
▁ㅅㅡㅇㅈㅓㅁ	-5009
▁136	-5010
ㅈㅓㅇㅈㅏ	-5011
▁ㅇㅝㄴㄴㅐ	-5012
▁ㅇㅠㄱㅈㅣ	-5013
▁ㅈㅜㅇㅅㅜㄴ	-5014
▁DC	-5015
ㅌㅗㄹ	-5016
▁ㅈㅜㅇㅅㅣㅁㅂㅜ	-5017
▁ㅎㅏㄴㅅㅓㅇㅂㅜ	-5018
ㄸㅜ	-5019
▁138	-5020
▁ㅅㅐㅇㅅㅣㄱ	-5021
▁En	-5022
ㅅㅡㄺ	-5023
▁ㅁㅗㄱㅍㅏㄴ	-5024
ㄹㅏㅇㅋㅏ	-5025
▁ㅂㅜㄹㅁㅕㅇ	-5026
▁ㅎㅕㄴㄱㅡㅁ	-5027
▁CS	-5028
ㄱㅡㅅ	-5029
▁ㅇㅓㅂㄱㅖ	-5030
ㅇㅜㅇㅈㅓㄴ	-5031
▁ㅇㅕㄹㄷㅐ	-5032
▁ㄱㅐㄱㄱㅘㄴ	-5033
▁AK	-5034
ㅅㅏㅇㅇㅟ	-5035
▁ㅈㅣㄴㄱㅜㄴ	-5036
▁ㅂㅕㅇㅈㅗ	-5037
▁1916	-5038
▁ㅅㅣㄴㅅㅐㅇ	-5039
ㅍㅐㄴ	-5040
▁ㅍㅡㄹㄹㅣ	-5041
▁ㅇㅕㅇㄴㅏㅁ	-5042
▁ㅇㅣㅂㄷㅏㅇ	-5043
▁ㅇㅝㄴㅅㅜㅇㅇㅣ	-5044
ㄹㅣㄹㄹㅏ	-5045
▁ㅊㅜㄴㅊㅜ	-5046
▁ㅌㅐㄱㅅㅣ	-5047
▁ㅌㅐㅇㅋㅡ	-5048
▁ㅈㅏㅇㄹㅕ	-5049
▁ㅋㅓㅁㅍㅏ	-5050
▁ㅍㅕㅇㅂㅓㅁ	-5051
▁AR	-5052
▁ㄷㅓㅍㅇㅣ	-5053
▁ㅊㅜㄴㅊㅓㄴ	-5054
ㅅㅏㄹㅇㅣ	-5055
▁ㅈㅜㅇㅅㅓㅇㅈㅏ	-5056
▁ㅅㅣㄴㅅㅣ	-5057
▁ㅍㅕㅇㅇㅝㄴ	-5058
▁ㄴㅏㅁㅎㅐ	-5059
▁ㅂㅗㄱㅅㅓㄴ	-5060
▁ㅅㅏㅇㄷㅏㅁ	-5061
▁ㅎㅕㄴㅈㅗㅇ	-5062
▁360	-5063
▁ㅍㅜㄴ	-5064
▁ㅇㅕㄴㅎㅏㅂㅎㅚ	-5065
ㄴㅜㄴ	-5066
▁ㅍㅓㅁ	-5067
▁ㅈㅜㅇㅇㅟ	-5068
ㅊㅘㄴ	-5069
ㅂㅡㄹㄹㅣ	-5070
▁ㅇㅣㄹㅈㅗ	-5071
▁ㅂㅏㄴㅂㅏㄱ	-5072
▁ㄱㅏㅁㄹㅣ	-5073
▁ㅁㅏㄱㄴㅐ	-5074
▁ㄷㅗㄹㅇㅕㄴ	-5075
▁ㅊㅜㅇㅅㅣㄹ	-5076
▁104	-5077
▁ㅅㅗㅅ	-5078
ㅋㅡㄹㄹㅐㄴㄷㅡ	-5079
▁ㅅㅏㄴㄹㅏㄴ	-5080
▁ㅈㅏㄱㅅㅔㄴ	-5081
ㅌㅜㅁ	-5082
AL	-5083
ark	-5084
▁ㄱㅡㄱㄷㅗㅇ	-5085
▁ㅍㅏㅇ	-5086
▁ㅈㅏㅈ	-5087
▁ㅇㅕㄴㅍㅐ	-5088
▁ㅎㅏㅂㅊㅏㅇ	-5089
▁col	-5090
ㅅㅗㄱㄱㅣ	-5091
▁ㅇㅗㅁ	-5092
▁ㅇㅑㅇㄷㅗ	-5093
▁109	-5094
▁ㅊㅏㅇㄱㅗ	-5095
▁ㄷㅡㄴㅈㅣ	-5096
▁ㅁㅕㄴㅎㅓ	-5097
▁ㅇㅕㅇㅈㅏㅇ	-5098
▁ㅂㅏㄴㄱㅏㅁ	-5099
▁ㅂㅐㄱㅅㅐㄱ	-5100
▁ㅅㅗㅁ	-5101
▁ㄱㅜㄱㅅㅗ	-5102
▁ㄴㅐㅇㄱㅏㄱ	-5103
ㅌㅏㅁ	-5104
▁ㅅㅣㄴㅈㅜ	-5105
▁ㅇㅣㅂㅈㅣ	-5106
ile	-5107
▁143	-5108
▁ㄷㅏㅇㅇㅣㄹ	-5109
▁ㅇㅏㅁㅅㅡ	-5110
ㅇㅣㅁㅈㅡ	-5111
▁ㅅㅏㅇㄱㅗㅇ	-5112
▁ㅈㅓㄴㄴㅕㅁ	-5113
▁Op	-5114
▁123	-5115
▁ㅇㅔㄴㅌㅡ	-5116
▁ㄱㅕㅇㄱㅘㄴ	-5117
▁CC	-5118
ㅅㅔㅅ	-5119
▁ㅅㅜㄴㄱㅛ	-5120
▁ㅂㅕㅇㅎㅐㅇ	-5121
▁ㄱㅣㅁㄱㅣ	-5122
▁ㅅㅗㅇㅅㅣ	-5123
▁ㅁㅗㄴㅅㅡ	-5124
▁ㅂㅓㅂㅈㅗ	-5125
▁ㅇㅔㄹㄹㅔ	-5126
ㅂㅓㅂㅇㅣㄴ	-5127
▁ㅊㅣㄴㅎㅏ	-5128
▁ㅍㅕㅇㅎㅏ	-5129
ㄹㅏㅂㅇㅓ	-5130
▁ㅇㅣㄱㅎㅣ	-5131
▁ㄱㅗㅇㄱㅘㄴ	-5132
ㅌㅓㅁ	-5133
ㅅㅣㄹㅂㅔ	-5134
ㄱㅘㄴㅊㅗㅇ	-5135
▁ㅈㅏㅇㄱㅓ	-5136
▁ㅎㅚㅅㅅㅜ	-5137
▁ㅊㅓㅇㅊㅜㄴ	-5138
ㅍㅡㅁ	-5139
▁ㄱㅡㅁㅇㅛ	-5140
▁ㅁㅏㄹㄹㅏ	-5141
ㅇㅡㄴㅅㅐㄱ	-5142
xt	-5143
▁ㅁㅜㅇ	-5144
▁ㅇㅡㅇㅇㅝㄴ	-5145
▁ㅂㅏㅇㅅㅗㅇㅅㅏ	-5146
▁ㅍㅔㄴㅅㅣㄹㅂㅔ	-5147
▁ㅅㅏㅁㅊㅡㅇㅅㅓㄱㅌㅏㅂ	-5148
▁ㅇㅡㅁㄹㅛ	-5149
▁ㄴㅏㅇㅁㅏㄴ	-5150
▁ㅅㅣㄴㅅㅗㄱ	-5151
▁ㄱㅕㄹㅎㅗㄴㅅㅣㄱ	-5152
▁ㅇㅏㄹㅈㅔ	-5153
ㄲㅓㅂ	-5154
▁LP	-5155
▁is	-5156
▁WWE	-5157
▁ㄲㅡㄶㅇㅣㅁ	-5158
▁ㄱㅕㄴㄷㅣ	-5159
▁ㅂㅏㄱㅎㅐ	-5160
▁ㅇㅕㄴㅎㅏ	-5161
▁ㄱㅓㄱㅈㅓㅇ	-5162
▁ㅂㅗㅇㅅㅙ	-5163
▁ㅇㅕㅍㅁㅕㄴ	-5164
▁ㄷㅏㄷ	-5165
▁ㄴㅏㅁㄷㅗㅇㅂㅜ	-5166
ft	-5167
▁ㅂㅜㄴㅂㅣ	-5168
ㅈㅓㅇㄹㅣ	-5169
ㅎㅓㄴㅂㅜ	-5170
▁ㅇㅑㄱㄹㅕㄱ	-5171
▁ㅂㅏㄹㄹㅏ	-5172
▁ㅅㅣㄴㅈㅗ	-5173
ㅇㅣㄴㅈㅓㄴ	-5174
▁ㅇㅣㅁㅇㅛㅇ	-5175
▁ㅂㅏㄼ	-5176
▁ㅅㅣㄴㄱㅠ	-5177
▁ㅅㅏㅇㅇㅛㅇ	-5178
▁ㅊㅣㄴㅇㅘㅇ	-5179
▁ㅌㅗㅇㅇㅕㅇ	-5180
ㅈㅣㅁ	-5181
▁ㅈㅓㅇㅈㅜ	-5182
▁ㅅㅣㄹㅈㅏㅇ	-5183
▁ㅂㅏㄱㄹㅏㅁㅎㅚ	-5184
ㅇㅝㄴㅅㅜ	-5185
▁ㅊㅜㅇㅈㅓㄴ	-5186
ite	-5187
▁SE	-5188
▁ㅅㅣㄴㅎㅏㄴ	-5189
ㅑㄹ	-5190
▁ㅇㅏㅀ	-5191
ㄹㅐㄴㅌㅡ	-5192
ㅇㅑㅇㄱㅖ	-5193
▁ㄱㅘㅇㅁㅜㄹ	-5194
▁ㄹㅜㄴ	-5195
▁ㅅㅏㅇㅈㅓㅁ	-5196
▁ㅌㅏㄹㄷㅏㅇ	-5197
▁ㅎㅕㄹㅌㅗㅇ	-5198
▁ㅍㅜㅁㅈㅗㅇ	-5199
▁ㅇㅗㄹㅂㅏ	-5200
ㅈㅏㅇㅅㅣㄹ	-5201
▁ㅇㅏㄹㄹㅜ	-5202
▁ㄱㅘㅇㅎㅏㄱ	-5203
▁ㅎㅏㄴㅉㅗㄱ	-5204
▁ㅈㅣㄴㅉㅏ	-5205
ㅇㅑㅇㅎㅏㅁ	-5206
▁ㅊㅣㄴㅇㅣㄹㅍㅏ	-5207
▁ㄱㅗㅇㅅㅜ	-5208
▁ㅅㅓㅇㄷㅏㄴ	-5209
ㅎㅗㅂ	-5210
▁ㅌㅣㄹ	-5211
▁ㅈㅏㄴㄹㅠ	-5212
▁ㅅㅣㄴㅌㅏㄱ	-5213
▁ㄷㅏㅅ	-5214
ㅇㅓㅂㅇㅣㄴ	-5215
▁ㅍㅣㄹㅌㅓ	-5216
ㅅㅏㅇㄷㅗ	-5217
▁ㅁㅣㄱㅅㅡ	-5218
▁ㅅㅏㅇㄷㅏㄴ	-5219
▁ㅁㅕㅇㅂㅐㄱ	-5220
▁ㅃㅏㄹㄱㅏㄴ	-5221
▁ㅅㅏㅁㅈㅣㄴ	-5222
ㄴㅓㄼ	-5223
▁ㅍㅓㅇㅋㅡ	-5224
▁ㅎㅏㅇㅅㅗ	-5225
▁ㅌㅗㅇㅈㅡㅇ	-5226
▁ㄱㅡㄱㅈㅏㅇㅍㅏㄴ	-5227
▁ㅅㅓㄹㅌㅏㅇ	-5228
OL	-5229
▁ㄸㅏㅅ	-5230
ㅍㅗㄹㄹㅗ	-5231
▁ㅇㅕㅁㄱㅣ	-5232
▁ㅁㅏㄴㄴㅏㅁ	-5233
▁ㄱㅕㅇㅅㅏㅇㄷㅗ	-5234
▁112	-5235
▁ㄱㅕㄱㅌㅚ	-5236
ㅎㅘㅇㅊㅓㅇ	-5237
ㅍㅣㅂ	-5238
▁107	-5239
ㅇㅝㄴㅈㅏ	-5240
▁ㅁㅐㄱㅈㅜ	-5241
▁ㅁㅗㄱㅈㅐ	-5242
ㅂㅏㅇㅅㅓ	-5243
▁ㅇㅜㄴㅎㅏ	-5244
▁ㅎㅡㄹㄹㅣ	-5245
ㅍㅓㄹ	-5246
▁ㅂㅓㅁㅇㅠ	-5247
▁ㅈㅓㅇㅁㅏㄹ	-5248
ㅅㅐㅇㅈㅏ	-5249
ㅎㅡㄹ	-5250
▁ㅁㅚ	-5251
▁ㅍㅗㄱㄷㅗㅇ	-5252
▁Te	-5253
▁126	-5254
▁ㅈㅜㄹㅁㅜ	-5255
▁com	-5256
ㅍㅡㄹㄹㅏ	-5257
▁ㄷㅏㅇㅈㅜ	-5258
▁ㅌㅏㅁㄱㅜ	-5259
ㄱㅏㄹㅅㅐㄱ	-5260
▁ㅂㅔㄹㄹㅣ	-5261
▁ㅇㅕㄴㅅㅙ	-5262
▁ㄹㅗㄹㄹㅣㅇ	-5263
▁ㅅㅓㅇㅅㅜㄱ	-5264
▁ㅅㅣㄴㅇㅑㄱ	-5265
ies	-5266
▁117	-5267
ㅈㅏㄱㅇㅛㅇ	-5268
ound	-5269
▁ㅂㅣㄹㄹㅏ	-5270
▁ㄱㅕㅇㅊㅏㄹㅊㅓㅇ	-5271
ㅌㅡㄹㄹㅣ	-5272
▁ㄱㅡㄴㄱㅛ	-5273
▁ㄱㅗㅇㅇㅣㄱ	-5274
▁ㄷㅗㅇㄱㅜㄱ	-5275
▁ㄷㅗㄹㄹㅕ	-5276
▁ㅊㅜㄱㅎㅏ	-5277
ㅅㅓㄴㅇㅣㄹㅂㅗ	-5278
▁ㅅㅣㄴㅁㅣㄴ	-5279
▁CF	-5280
▁ㄴㅏㄹㅆㅣ	-5281
▁ㅇㅓㅂㄱㅡ	-5282
ㅊㅜㄱㅎㅏㅁ	-5283
▁ㅅㅣㄴㄴㅕㅁ	-5284
▁113	-5285
▁ㅋㅣㅁ	-5286
▁ㅅㅓㅇㅊㅔ	-5287
▁ㅇㅣㄴㅊㅔ	-5288
ㄷㅗㅇㄹㅕㄱ	-5289
▁ㅈㅗㄴㅅㅗㄱ	-5290
▁ㅂㅏㄹㄹㅣ	-5291
▁ㅎㅐㄱㅁㅜ	-5292
▁ㅇㅡㄹㅈㅣ	-5293
▁ㅈㅓㅇㅈㅓㅁ	-5294
▁ㅅㅐㅇㅅㅏㄴㄹㅑㅇ	-5295
ㅆㅜ	-5296
▁KIA	-5297
▁ㅎㅏㄴㅇㅣㄴ	-5298
▁ㅃㅏㄹㄱㅏㄴㅅㅐㄱ	-5299
▁z	-5300
▁Pr	-5301
▁ㄴㅔㄹ	-5302
ㅇㅡㄴㅇㅣ	-5303
ㅅㅜㄴㅅㅣㄴ	-5304
ath	-5305
▁ㄷㅗㄹㅂㅗ	-5306
▁ㅎㅏㅂㅎㅏ	-5307
▁ㄱㅣㅁㄱㅕㅇ	-5308
▁ㅈㅓㄱㄷㅏㅇ	-5309
ㅊㅔㄹ	-5310
ㅋㅞ	-5311
▁ㅎㅐㅅ	-5312
▁ㄱㅘㅇㅎㅐ	-5313
▁ㅋㅗㄹㄹㅣ	-5314
▁ㄱㅡㅂㄱㅕㄱㅎㅣ	-5315
ond	-5316
ov	-5317
ㅋㅕ	-5318
▁ㄴㅗㅇㄹㅣㅁ	-5319
▁137	-5320
▁ㅁㅏㄹㄴㅕㄴ	-5321
▁CR	-5322
▁be	-5323
ㅇㅔㅅ	-5324
▁ㅇㅏㄴㄱㅣ	-5325
ory	-5326
ㄴㅗㅁ	-5327
▁ㄱㅡㄱㅎㅣ	-5328
▁ㄸㅏㅅㅈㅟ	-5329
▁ㅅㅓㅇㅊㅟ	-5330
▁ㅌㅏㅁㅅㅐㄱ	-5331
ㅂㅔㄱ	-5332
▁RNA	-5333
▁ㅎㅐㄴㄷㅡ	-5334
▁ㅊㅏㅇㅇㅓㅂ	-5335
▁ㅅㅏㅁㅅㅓㅇㅈㅓㄴㅈㅏ	-5336
▁ㅍㅗㅇ	-5337
▁ㅎㅡㅁ	-5338
▁ㅌㅐㄹㄹㅓㄴ	-5339
ㅂㅐㅁㅂㅜㅌㅇㅣ	-5340
▁1894	-5341
ㄹㅏㄴㅎㅣ	-5342
▁ㅊㅏㅇㅇㅝㄴㅅㅣ	-5343
▁ㅂㅏㅇㅎㅘ	-5344
▁ㅇㅘㅇㅂㅗㄱ	-5345
▁ㅇㅣㄴㅁㅕㅇ	-5346
▁ㄲㅏㄹ	-5347
ㄷㅏㄴㅊㅔ	-5348
▁ㄱㅘㄴㅇㅡㅁ	-5349
▁ㅍㅏㄴㅂㅗㄴ	-5350
▁ㅌㅐㄹㄹㅓㄴㅌㅡ	-5351
▁ㄷㅗㄷ	-5352
▁ㅇㅘㅅ	-5353
▁ㄱㅏㅇㅅㅓ	-5354
▁ㄱㅏㅂㅈㅏㄱㅅㅡ	-5355
MA	-5356
▁ㄴㅟ	-5357
▁173	-5358
▁ㅂㅕㄹㄷㅏ	-5359
▁ㅅㅐㅁㅍㅡㄹ	-5360
▁ㅎㅘㅇㅅㅣㄹ	-5361
ㅅㅓㅇㄷㅏㅇ	-5362
▁ㅊㅜㄱㅈㅓㄱ	-5363
▁ㅈㅓㄱㄷㅗ	-5364
▁ㄱㅔㄹ	-5365
ㅇㅕㄴㅎㅏㅂ	-5366
ㅌㅠㅁ	-5367
▁121	-5368
▁ㅇㅓㄴㄴㅣ	-5369
▁ㅇㅕㅇㅅㅏㄴ	-5370
▁ㅊㅗㅇㄷㅗㄱㅂㅜ	-5371
▁ㅎㅘㄴㅇㅕㅇ	-5372
▁ㅂㅓㄹㄱㅡㅁ	-5373
ㅇㅕㄹㅅㅏ	-5374
▁ㅈㅑ	-5375
ㄹㅜㅁ	-5376
▁ㅅㅏㅇㅅㅏ	-5377
▁ㅇㅓㄱㅇㅏㅂ	-5378
▁ㅋㅣㄱ	-5379
ㅎㅏㅁㅅㅜ	-5380
▁ㅊㅐㄹㄹㅣ	-5381
▁ㄷㅟㅅㅁㅕㄴ	-5382
▁ㅅㅓㅇㅂㅕㄹ	-5383
iver	-5384
▁ㅁㅏㄹㅆ	-5385
▁ㅍㅜㄹㄹㅣ	-5386
▁ㅎㅚㅇㄷㅏㄴ	-5387
▁ㅇㅣㄴㅁㅜㄴ	-5388
▁Am	-5389
ㅇㅛㅇㅊㅔ	-5390
ㅈㅜㄹㄱㅣ	-5391
▁ㅍㅗㄱㅎㅐㅇ	-5392
▁350	-5393
▁ㄹㅠㄱ	-5394
▁World	-5395
ㅂㅏㄱㅅㅡ	-5396
▁ㅅㅡㅇㄱㅖ	-5397
▁ㅊㅓㄴㅈㅏㅇ	-5398
▁ㅈㅡㅇㅅㅗㄴ	-5399
▁ㄴㅐㅇㅈㅓㄴ	-5400
▁ㅈㅣㄴㄱㅡㅂ	-5401
▁SD	-5402
▁ㅅㅓㅇㅅㅏ	-5403
▁ㅈㅣㄴㄱㅗㅇ	-5404
▁ㅇㅣㄹㅂㅏㄴㅇㅣㄴ	-5405
▁New	-5406
▁ㅎㅏㄱㅁㅕㅇ	-5407
▁ㄱㅗㅇㅅㅡㅂ	-5408
ial	-5409
ign	-5410
ㅎㅏㅇㅅㅣㄱ	-5411
▁ㄷㅏㄴㄷㅏㄴ	-5412
▁ㅊㅐㄹㄹㅣㄴㅈㅣ	-5413
▁ㅅㅏㅇㅍㅛ	-5414
▁GP	-5415
▁ㅂㅓㅁㅇㅣㄴ	-5416
▁ㄱㅏㅁㅈㅏ	-5417
▁ㅎㅕㄴㅈㅓ	-5418
▁114	-5419
▁ㄱㅕㄴㅈㅔ	-5420
▁ㅇㅣㅁㅎㅏ	-5421
▁ㄱㅡㄴㅇㅝㄴ	-5422
▁ㅅㅣㄴㅅㅓㄴ	-5423
▁ㅅㅖㄹ	-5424
▁ㅇㅣㅂㅇㅝㄴ	-5425
▁On	-5426
▁Sc	-5427
▁ㄱㅗㅇㅁㅣㄴ	-5428
▁ㅇㅕㄹㅈㅓㅇ	-5429
▁ㄷㅣㄱ	-5430
ㅎㅘㅇㅎㅜ	-5431
▁ㅁㅓㄴㅈㅣ	-5432
▁ㅅㅓㅇㄷㅗ	-5433
▁ㅇㅑㅇㅎㅗ	-5434
▁EC	-5435
▁ㄱㅣㅁㅈㅓㅇㅇㅣㄹ	-5436
▁124	-5437
ㄷㅓㄱㅅㅕㄴ	-5438
ㅇㅑㄱㅍㅜㅁ	-5439
ㅅㅟㅂ	-5440
▁ㅇㅝㄹㅇㅛ	-5441
▁ㅇㅠㄱㅊㅔ	-5442
▁ㅇㅣㄹㄱㅏ	-5443
man	-5444
ㄸㅜㄱ	-5445
▁118	-5446
▁ㄷㅜㅇㅈㅣ	-5447
ㅋㅝ	-5448
ㄹㅣㅂㅌㅡ	-5449
▁ㅁㅜㄴㅇㅖ	-5450
▁ㅁㅐㄱㄹㅏㄱ	-5451
lic	-5452
▁SU	-5453
▁III	-5454
▁ㅈㅗㅇㅊㅏㄱ	-5455
▁GS	-5456
ㅊㅜㄱㄱㅜ	-5457
IP	-5458
▁ㅁㅏㅁ	-5459
hn	-5460
▁ㄹㅐㅁ	-5461
▁ㄱㅜㄴㅈㅓㅇ	-5462
ㄱㅏㅄ	-5463
▁ㅂㅏㄹㅎㅐ	-5464
ㅅㅂㅜㄹ	-5465
▁ㄱㅗㄱㅇㅣㄴ	-5466
▁ㅎㅣㅁㅇㅣㅂ	-5467
▁ㅅㅓㄴㅂㅣ	-5468
▁ㅎㅏㄹㅁㅓ	-5469
▁ㅇㅏㅁㅅㅣ	-5470
▁ㅇㅝㄴㄷㅓ	-5471
▁ㅇㅕㄴㅅㅏㄴㅈㅏ	-5472
▁ㅇㅕㅅ	-5473
ㅅㅜㄹㅈㅏ	-5474
▁ㅁㅜㄴㄱㅜ	-5475
▁ㅋㅐㄴㅈㅏ	-5476
▁ㅅㅓㅇㅁㅜㄴ	-5477
▁ㅅㅣㄹㅊㅔ	-5478
▁ㅎㅏㄱㄱㅖ	-5479
▁ㅎㅕㄹㄱㅘㄴ	-5480
▁ㅇㅞㅂㅌㅜㄴ	-5481
▁ㅈㅣㄴㅎㅏ	-5482
ㅇㅣㅁㅂㅡ	-5483
▁ㅈㅡㅇㄷㅐ	-5484
ㅅㅓㅇㄱㅖ	-5485
▁ㄴㅏㅁㅇㅝㄴ	-5486
▁ㅌㅗㅇㅌㅡㄹ	-5487
ㅌㅗㅁ	-5488
▁1890	-5489
ㅅㅡㄹㄹㅓ	-5490
▁ㅈㅣㄴㅅㅏ	-5491
▁ㄴㅏㅁㄱㅜ	-5492
▁ㅅㅓㄹㅎㅘ	-5493
▁ㄱㅣㅁㅎㅕㄴ	-5494
ㅇㅑㅎ	-5495
▁ㅂㅜㄹㅌㅏ	-5496
▁ㅇㅜㄴㅅㅜ	-5497
▁ㅇㅝㄴㅈㅓㄴ	-5498
ㅂㅏㅇㅅㅗㅇㄱㅗㅇㅅㅏ	-5499
ㄷㅏㄺ	-5500
ㅆㅏㅇ	-5501
▁ㄱㅗㅇㅂㅏㅇ	-5502
ㅅㄱㅏㅄ	-5503
▁ㅇㅏㄱㄷㅏㄴ	-5504
▁ㅎㅏㅇㅈㅐㅇ	-5505
▁ㅍㅜㅇㅈㅏ	-5506
▁ㅈㅓㅇㅂㅕㄴ	-5507
ㅊㅓㄴㄹㅣ	-5508
▁ㅂㅗㄹㅍㅡ	-5509
▁ㄷㅗㄱㅇㅣㄹㅇㅣㄴ	-5510
ㄱㅗㅇㅈㅜ	-5511
▁ㄹㅣㅅ	-5512
▁ㅎㅔㄹㄱㅣ	-5513
▁ㄱㅗㅇㅂㅐㄱ	-5514
ㅃㅜㄹ	-5515
ㅋㅏㄹㄹㅏ	-5516
▁ㄱㅣㅁㄱㅠ	-5517
▁ㅋㅛ	-5518
ㅎㅐㅇㅅㅏ	-5519
▁ㅁㅏㄺ	-5520
TS	-5521
▁ㅉㅡ	-5522
▁ㄴㅗㄹㄹㅏㅂ	-5523
▁115	-5524
ㅌㅗㄹㄹㅔ	-5525
ㅂㅕㄴㅇㅣㄴ	-5526
▁1898	-5527
▁ㅍㅗㄱㅍㅗ	-5528
▁ㅅㅒ	-5529
ㅌㅗㅇㄱㅜㄱ	-5530
▁ㅇㅗㅂㅅㅕㄴ	-5531
▁ㅇㅛㅇㅂㅕㅇ	-5532
▁ㅎㅕㅂㅂㅏㄱ	-5533
▁ㅇㅕㄴㅎㅏㅂㄱㅜㄱ	-5534
▁ㄴㅏㅅ	-5535
ㅎㅏㅁㅁㅏ	-5536
▁ㅇㅗㄴㅌㅏ	-5537
▁ㅂㅗㅇㅇㅏㄴ	-5538
▁ㅂㅣㄴㄱㅗㄴ	-5539
▁129	-5540
ction	-5541
▁ㅇㅘㅇㅅㅔ	-5542
ㅈㅏㅇㅍㅜㅁ	-5543
ㅇㅠㄱㅂㅜ	-5544
ㅇㅣㄴㅅㅡ	-5545
▁ㅍㅕㅇㅈㅓㅇ	-5546
ㄴㅣㄹㄹㅏ	-5547
ㄹㅏㄴㅊㅡ	-5548
▁ㅈㅓㅇㄹㅕ	-5549
ㅂㅡㄹㄹㅣㄴ	-5550
rom	-5551
urn	-5552
▁ㄱㅘㄴㅈㅔ	-5553
▁ㅁㅏㄷ	-5554
▁ㄴㅏㅁㅁㅣ	-5555
▁ㅋㅔㄹㄹㅣ	-5556
▁vs	-5557
ㄷㅣㅈ	-5558
▁ㅇㅕㅇㅅㅏ	-5559
▁ㄱㅓㅁㅊㅏㄹㅊㅓㅇ	-5560
pp	-5561
▁ㅅㅜㄱㅊㅓㅇ	-5562
▁1899	-5563
▁ㅅㅓㄴㄷㅗ	-5564
▁ㅅㅔㄴㅌㅣ	-5565
▁ㅇㅣㄴㅅㅡ	-5566
ㅈㅣㄴㄱㅜㄴ	-5567
▁ㄱㅡㄱㅈㅏㄱ	-5568
▁ㅊㅓㄹㅎㅚ	-5569
▁ID	-5570
▁ㄱㅚㅇㅈㅏㅇㅎㅣ	-5571
TC	-5572
▁142	-5573
▁ㄱㅕㄹㅎㅏㅁ	-5574
▁ㅊㅓㄴㅁㅜㄴㄷㅐ	-5575
▁BS	-5576
▁ch	-5577
▁ㅊㅗㅇㅊㅣㅇ	-5578
▁ㄱㅣㅁㅈㅣ	-5579
ㅊㅏㄱㅈㅗㅇ	-5580
▁ㄱㅡㄱㅅㅣㅁ	-5581
Pa	-5582
ert	-5583
▁ㅅㅐㅇㅊㅔ	-5584
▁ㅅㅡㅇㅈㅏ	-5585
ㅇㅣㅆ	-5586
▁ㅁㅏㄴㄹㅛ	-5587
▁ㅅㅔㄹㄹㅔ	-5588
▁ㄷㅗㅇㅈㅓㅁ	-5589
ph	-5590
▁LC	-5591
▁ㄱㅘㅇㅈㅓ	-5592
▁ㅇㅑㅇㅊㅡㄱ	-5593
▁ㅂㅏㄺㄱㅣ	-5594
▁ㅊㅣㄴㅇㅟ	-5595
ㄹㅣㅁㅈㅏ	-5596
▁ㅌㅜㅇ	-5597
▁ㅂㅏㄹㅂㅕㅇ	-5598
▁ㄱㅘㄴㅅㅔ	-5599
▁ㅊㅜㄱㅁㅜㄹ	-5600
▁ㅎㅏㄱㅇㅓㅂ	-5601
ㅎㅐㅇㅈㅏㅇ	-5602
▁ㅇㅣㄹㅂㅏㅇ	-5603
▁ㅎㅘㄱㅅㅣㄴ	-5604
▁Ne	-5605
▁ㅂㅔㅇ	-5606
▁ㅂㅕㄴㅇㅣ	-5607
ㅁㅣㄹㅌㅓㄴ	-5608
▁ㅊㅜㄱㅊㅜㄹ	-5609
▁CJ	-5610
ㅈㅓㄴㅊㅏ	-5611
▁ㅇㅡㄴㄷㅔ	-5612
▁ㅊㅓㅁㄷㅏㄴ	-5613
▁ㅎㅘㅇㅈㅗㄱ	-5614
▁ㅂㅡㄹㄹㅐㄱㅎㅗㄹ	-5615
▁ㅅㅜㄴㅈㅗ	-5616
▁ㅍㅣㅇㅋㅡ	-5617
ㅈㅓㄱㅈㅣ	-5618
▁ㅂㅏㄴㄱㅕㅇ	-5619
▁ㄱㅏㄷㅎㅣ	-5620
▁ㅁㅕㅇㅎㅏ	-5621
ㅌㅣㄱㅅㅡ	-5622
▁ㄹㅓㅁ	-5623
▁ㄴㅓㅁㅊㅣ	-5624
▁ㅂㅏㄹㄱㅣ	-5625
▁ㅁㅕㅇㅈㅗㅇ	-5626
▁ㅋㅗㄱ	-5627
ㅇㅣㄴㅅㅠ	-5628
▁ㄱㅘㄴㄱㅘㅇㅈㅣ	-5629
▁ㄱㅗㅇㄹㅣ	-5630
▁ㅇㅛㄱㄱㅜ	-5631
▁ㅈㅓㅇㅅㅔ	-5632
▁ㅎㅔㄹㄹㅔ	-5633
▁ㅁㅐㄱㄷㅗ	-5634
▁ㅁㅗㄹㄹㅐ	-5635
▁ㄹㅔㄱ	-5636
TA	-5637
ich	-5638
▁ㄷㅗㄱㅅㅓ	-5639
▁ㅂㅣㅊㄴㅏ	-5640
ㄹㅓㅇ	-5641
ㅂㅏㄴㄴㅣ	-5642
ㅅㅡㅇㅂㅜ	-5643
▁ㄱㅕㅇㅅㅣㄴ	-5644
▁ㅂㅐㅇ	-5645
ㅁㅗㄹㄹㅗ	-5646
ㅈㅐㅇㅇㅣ	-5647
ㅌㅔㄱㅊㅓ	-5648
▁ㄱㅡㄹㄹㅜ	-5649
▁ㅅㅣㄹㅂㅓ	-5650
▁ㄱㅜㅇㄱㅡㄱ	-5651
▁ㅎㅗㄴㄷㅗㅇ	-5652
ary	-5653
▁ㅋㅓㄴㅅㅔㅂ	-5654
ㅇㅑㄹ	-5655
▁Man	-5656
ㄱㅜㄱㅅㅏ	-5657
▁ㅂㅡㄹㄹㅣ	-5658
▁ㄱㅗㄴㄹㅏㄴ	-5659
▁ㄷㅗㅇㅎㅏㄱ	-5660
lan	-5661
ㅁㅜㄴㅌㅡ	-5662
▁ㅇㅛㅇㅇㅣ	-5663
▁ㅍㅜㄹㄹㅕ	-5664
▁ㄱㅘㅇㄷㅜㅇ	-5665
ens	-5666
▁1902	-5667
▁ㅌㅐㄱㅎㅏ	-5668
▁ㅇㅕㄴㄲㅗㅊ	-5669
▁ㅊㅣㅁㅌㅜ	-5670
▁ㅂㅗㄴㅁㅜㄴ	-5671
▁`	-5672
ㅇㅛㄱㅈㅜ	-5673
▁ㅇㅣㅁㅇㅝㄴ	-5674
▁ㅊㅓㄱㅊㅜ	-5675
▁ㄷㅗㄱㅅㅓㅇ	-5676
▁ㅍㅡㄹㄹㅐㅅㅍㅗㅁ	-5677
▁ㄱㅏㅇㄷㅗㅇ	-5678
▁ㅇㅐㅇㄱㅡㄹ	-5679
ㅎㅡㅇㄱㅜㄴ	-5680
▁ㅁㅏㄴㅅㅓㅇ	-5681
▁ㅅㅡㅂㅈㅣ	-5682
▁ㄴㅏㄴㅈㅣㅇ	-5683
ype	-5684
▁ㅁㅣㅇ	-5685
▁ㄱㅏㅁㅁㅏ	-5686
▁ㅌㅏㄴㄷㅗ	-5687
▁ㄱㅕㅇㅊㅏㄹㄱㅘㄴ	-5688
ㅓㅅㅓ	-5689
▁ㅍㅣㄹㅅㅏ	-5690
ㅁㅓㄴㅅㅡ	-5691
▁ㅂㅕㄱㄷㅗㄹ	-5692
▁ㅈㅜㅇㅅㅏㄴ	-5693
▁ㅇㅜㄹㅅㅏㄴㄱㅘㅇㅇㅕㄱㅅㅣ	-5694
▁ㄴㅗㅎㅊㅣ	-5695
▁ㅋㅓㅅ	-5696
▁ㅇㅏㄴㅌㅔ	-5697
▁ㅇㅡㅇㅅㅣ	-5698
ㅈㅣㅅㅈㅓㅁ	-5699
▁ㅇㅑㅇㅂㅏㄴ	-5700
▁ㄲㅗㄱㅈㅣㅅㅈㅓㅁ	-5701
LE	-5702
▁ㅍㅏㄴㄹㅖ	-5703
ㄷㅗㅇㄱㅏㅇ	-5704
▁ㅁㅣㄹㅈㅣㅂ	-5705
▁ㅅㅏㅇㄱㅡㅁ	-5706
▁ㅍㅗㄱㄴㅓㄼ	-5707
▁ㅈㅡㄱㄱㅏㄱ	-5708
▁ㄱㅏㄴㅅㅓㄴ	-5709
▁ㅇㅝㄴㅈㅗㅇ	-5710
▁ㅈㅜㅇㅂㅗㄱ	-5711
▁ㅊㅓㄴㅎㅏ	-5712
▁IM	-5713
ㅅㅏㅇㄱㅏ	-5714
▁ㄸㅓㄹㅊㅣ	-5715
▁ㄷㅗㄹㄱㅕㄱ	-5716
▁ㄱㅏㅁㅆㅏ	-5717
LS	-5718
▁ㅇㅕㅇㄷㅡㅇ	-5719
▁''	-5720
ㅅㅔㅁㅂㅜ	-5721
▁ㅇㅣㄹㅋㅓㄹ	-5722
▁ㅎㅕㄴㅇㅡㄴ	-5723
▁ㄹㅜㄱㅅㅔㅁㅂㅜ	-5724
ㅁㅟ	-5725
▁ㅁㅣㄱ	-5726
▁ㅇㅓㅅ	-5727
ㄹㅏㄴㅊㅔ	-5728
ㄹㅓㄹㄷㅡ	-5729
ㄹㅜㄹ	-5730
▁ㅂㅣㅁ	-5731
▁ㄱㅗㅇㅈㅓㄱ	-5732
▁ㅇㅗㅇㄹㅣㅂ	-5733
ach	-5734
▁ㅂㅏㄹㄱㅡㅂ	-5735
▁ㅇㅕㅇㅁㅜㄴ	-5736
ㅋㅔㅅㅁㅗㄴㅅㅡ	-5737
▁No	-5738
▁ㄹㅖ	-5739
▁ㅎㅔㄱ	-5740
ㅂㅔㄹㄹㅏ	-5741
▁ㄷㅗㅇㅈㅓㅇ	-5742
▁ㄱㅕㅇㅅㅓㅇㅂㅜ	-5743
▁ㅈㅣㅇㄱㅖ	-5744
▁}	-5745
ㄱㅡㅅㄴㅏ	-5746
▁ㅁㅏㄴㅇㅣㄹ	-5747
▁ㅅㅓㅇㅍㅗㄱ	-5748
▁ㅅㅣㄴㅇㅝㄴ	-5749
▁ㅂㅕㅇㄱㅣ	-5750
▁ㅂㅗㄴㄱㅜㄱ	-5751
▁ㅈㅓㄴㅅㅗㄱ	-5752
ㅆㅡㄹ	-5753
▁ㅎㅏㄱㄱㅣ	-5754
▁ㅈㅓㄴㄴㅕㄴ	-5755
▁ㅈㅓㄻㅇㅡㄴㅇㅣ	-5756
▁ㄱㅏㄱㄷㅗ	-5757
▁JT	-5758
ㅂㅔㄹㅌㅡ	-5759
▁ㅈㅗㅇㅅㅗㄱ	-5760
IG	-5761
ㅍㅔㄴㅎㅏ	-5762
▁ㅇㅕㄹㄷㅗ	-5763
ㅅㅁㅜㄹ	-5764
▁ㄱㅜㄱㅇㅕㅇ	-5765
▁AN	-5766
ㅋㅡㄴ	-5767
▁ㅇㅑㄱㅈㅏ	-5768
▁ㄱㅏㅇㅂㅕㄴ	-5769
▁ㅇㅔㄴㄷㅣㅇ	-5770
ㅂㅓㄴㄴㅚ	-5771
▁ㅉㅗㅊㄱㅕ	-5772
ㅎㅣㄹ	-5773
▁ㅂㅔㄹㅌㅡ	-5774
▁ㅂㅏㅇㅅㅗㅇㅇㅣㄴ	-5775
▁ㅇㅓㄵ	-5776
▁ㅊㅗㄱㅁㅐ	-5777
▁ㅋㅗㅁㅍㅐㄱㅌㅡ	-5778
▁ㅅㅏㅅㅍㅗ	-5779
▁ㅊㅜㄱㅈㅗ	-5780
▁ㅊㅣㅇㅊㅏㄴ	-5781
▁ㄱㅗㅇㅈㅗ	-5782
▁ㅁㅏㄹㅁㅣ	-5783
▁ㄱㅣㅅㅂㅏㄹ	-5784
▁ㅅㅐㅇㄹㅑㄱ	-5785
▁ㅅㅐㅇㅅㅐㅇ	-5786
11	-5787
▁kt	-5788
ㄴㄷㅏㄹ	-5789
▁ㅈㅜㄴㄱㅕㄹㅅㅡㅇㅈㅓㄴ	-5790
▁1901	-5791
ㄱㅑㄹ	-5792
ㄷㅜㅁ	-5793
▁THE	-5794
▁ㅈㅓㅇㅈㅓㄱ	-5795
ㅋㅏㄹㄹㅣ	-5796
▁ㅇㅚㄴㅅㅗㄴ	-5797
▁MB	-5798
▁ㅇㅐㄹㅂㅓ	-5799
ug	-5800
▁ㅅㅐㄴㄷㅡ	-5801
▁ㄷㅏㄴㅊㅜㄱ	-5802
ㅁㅏㄱㅈㅓㄴ	-5803
▁ㅈㅓㅇㅁㅜㄴ	-5804
▁ㅂㅜㄴㅅㅜ	-5805
out	-5806
ㄷㅓㅇㅇㅣ	-5807
▁ㅇㅕㅁㅈㅡㅇ	-5808
ys	-5809
▁ㅇㅗㄱㅅㅜ	-5810
▁ㅇㅕㄴㅅㅡㅇ	-5811
▁ㅇㅝㄴㅊㅓㄴ	-5812
▁ㅌㅏㄹㄹㅣ	-5813
▁ㅈㅣㄱㄱㅕㄹ	-5814
▁EX	-5815
▁134	-5816
▁ㅇㅞㄴ	-5817
▁ㅊㅜㅂ	-5818
ㅋㅗㄹㄹㅣ	-5819
▁ㄱㅗㅇㅇㅖ	-5820
▁ㅇㅣㄹㄹㅓ	-5821
▁ㅁㅏㄹㅆㅡㅁ	-5822
▁ㅈㅓㅇㅅㅓㄴ	-5823
▁ㅈㅜㅇㅎㅕㅇ	-5824
▁GO	-5825
▁ㅆㅓㄹ	-5826
ㅂㅜㄹㄱㅛ	-5827
▁ㅇㅜㄹㅍㅡ	-5828
▁ㄱㅗㅇㄱㅏㅁ	-5829
▁ㅈㅓㅁㅅㅓㅇㅅㅜㄹ	-5830
▁ㅂㅏㄹㄹㅔㄴㅅㅣ	-5831
ase	-5832
ㄲㅏㅌㅉㅗㄱ	-5833
▁ㄱㅣㅁㅈㅔ	-5834
▁ㄴㅏㅁㅈㅗ	-5835
▁ㅌㅗㅇㅂㅗ	-5836
▁ㄱㅘㅇㅁㅕㅇ	-5837
▁ㄷㅏㄱ	-5838
▁ㅁㅗㄳ	-5839
▁ㅎㅗㅁㄱㅜ	-5840
▁ㅂㅗㄱㅇㅛㅇ	-5841
▁ㄲㅗㅂ	-5842
ㅋㅣㄱ	-5843
ㅂㅣㄹㄹㅏ	-5844
▁ㄷㅗㅇㄴㅔ	-5845
▁ㅂㅜㄹㄲㅗㅊ	-5846
▁ㅇㅏㅂㄷㅜㄹ	-5847
ㄷㅗㅇㄱㅣ	-5848
▁ㄱㅡㅂㅅㅜ	-5849
ㄴㅕㅁㄱㅘㄴ	-5850
▁ㅊㅏㅇㅊㅜㄹ	-5851
▁ㅎㅏㄴㅈㅗㄱ	-5852
▁IN	-5853
▁ㅎㅏㅁㅈㅓㅇ	-5854
▁ㄷㅏㄲ	-5855
▁ㅇㅏㅅ	-5856
▁ㄷㅏㄴㅇㅢ	-5857
▁1903	-5858
▁ㄷㅔㄹㄹㅏ	-5859
▁ㅊㅓㄴㅈㅐ	-5860
▁ㅂㅗㅇㄱㅓㄴ	-5861
▁ㅈㅓㅇㅅㅓㅇ	-5862
▁ㅅㅔㄱㅅㅡ	-5863
▁ㅈㅜㅇㅅㅜ	-5864
▁ㅊㅗㅇㅁㅜ	-5865
▁ㅇㅣㅁㄱㅘㄴ	-5866
▁ㅈㅓㄴㅇㅟ	-5867
▁ㅈㅓㅇㅇㅠ	-5868
▁ㅈㅜㅇㄱㅗㅇ	-5869
pt	-5870
▁ㄱㅗㅇㅁㅕㅇ	-5871
ree	-5872
▁ㅇㅕㄴㅇㅣ	-5873
▁ㄱㅣㅁㅊㅏㅇ	-5874
▁ㅂㅗㄱㅎㅏㅂㅊㅔ	-5875
▁ㅂㅜㄱㅈㅗ	-5876
▁ㅅㅓㅇㅈㅣ	-5877
▁ㄷㅏㄹㄱㅑㄹ	-5878
▁ㅈㅓㄹㄷㅗ	-5879
▁ㅅㅣㄹㅈㅓㄱ	-5880
▁ㅇㅕㅁㅅㅐㄱㅊㅔ	-5881
▁ㅁㅝ	-5882
ㄸㅏㄹ	-5883
▁ㄱㅕㄹㅋㅗ	-5884
▁ㅇㅣㅀㅇㅓ	-5885
▁ㄱㅝㄴㅊㅗㅇ	-5886
▁ㄷㅏㅂㅂㅕㄴ	-5887
▁ㅇㅣㅂㄱㅜㄱ	-5888
ㄴㅏㄴㄷㅗ	-5889
ㅇㅕㄱㅎㅏㄱ	-5890
ㅎㅡㄱ	-5891
▁ㅈㅜㄴㅈㅜ	-5892
▁1884	-5893
▁ㅅㅗㄴㄲㅗ	-5894
▁ㄷㅗㅇㅎㅕㅇ	-5895
▁ㄱㅏㄴㄷㅏㄴㅎㅣ	-5896
▁Ad	-5897
▁One	-5898
▁ㄱㅓㅁㅊㅜㄹ	-5899
ke	-5900
▁with	-5901
▁ㄷㅏㄴㅁㅕㄴ	-5902
▁Cl	-5903
▁ㅅㅐㄴㄷㅣ	-5904
▁ㅍㅏㅅ	-5905
▁ㄴㅏㅁㅈㅏㄱ	-5906
▁ㅈㅣㄱㅁㅕㄴ	-5907
▁ㄱㅡㄱㄷㅐ	-5908
▁ㄱㅓㅁㅇㅕㄹ	-5909
▁ㅂㅜㄴㅁㅕㅇㅎㅣ	-5910
▁ㅍㅗㄱㄱㅕㄱㄱㅣ	-5911
▁All	-5912
ㄱㅗㄱㄷㅗㅇ	-5913
▁Gr	-5914
ㄴㅕㅁㅂㅣ	-5915
▁ㄹㅔㅁ	-5916
▁ㄱㅏㄴㅌㅗ	-5917
▁ㅂㅏㄱㅈㅣ	-5918
▁ㅊㅏㅇㄴㅕㅇ	-5919
▁ㅂㅏㅇㄱㅡㄹㄹㅏ	-5920
ㅁㅏㅅ	-5921
▁ㅇㅓㄺ	-5922
ㅊㅓㄴㅅㅏ	-5923
▁ㄱㅏㄱㅅㅐㄱ	-5924
▁ㅅㅓㄴㅎㅐㅇ	-5925
▁LA	-5926
▁1800	-5927
▁ㅁㅕㄴㅈㅔ	-5928
▁ㅅㅓㄴㅇㅜ	-5929
▁ㅇㅕㅁㅅㅗ	-5930
▁ㄴㅏㅁㅁㅐ	-5931
▁ㄱㅕㅇㅇㅣㄴ	-5932
▁ㄱㅜㄴㅅㅏㄴ	-5933
▁ㅅㅏㅇㅇㅡㅇ	-5934
▁hPa	-5935
▁ㅈㅣㄱㄱㅕㅇ	-5936
▁ㄷㅏㄴㅎㅐㅇㅂㅗㄴ	-5937
▁ㅂㅡㄹㄹㅓ	-5938
▁ㅇㅕㄱㄹㅑㅇ	-5939
▁ㅇㅝㄴㅂㅗㄴ	-5940
CAF	-5941
▁ㅁㅜㄹㅍㅜㅁ	-5942
act	-5943
▁ㅅㅏㅇㅌㅡ	-5944
ㅈㅓㅇㄷㅗㅇ	-5945
▁ㄷㅏㄴㅈㅓㄹ	-5946
▁ㅅㅓㄱㅂㅜㄹ	-5947
▁ㅅㅏㄴㅊㅜㄹ	-5948
▁ㄱㅘㅇㄷㅐ	-5949
▁ㄷㅔㄹㅌㅏ	-5950
ㅅㅣㄱㅇㅣㄴ	-5951
▁ㅊㅓㄴㅇㅕㄴㄱㅣ	-5952
▁ㅈㅣㄴㅎㅐㅇㅈㅏ	-5953
ㅈㅏㄱㅈㅣ	-5954
▁ㄱㅐㅇㅅㅣㄴ	-5955
ㄷㅏㅎ	-5956
ㄴㅓㅎ	-5957
▁ㄲㅜㄹ	-5958
ㅅㅏㄴㅁㅐㄱ	-5959
▁116	-5960
▁ㅇㅝㄴㄹㅛ	-5961
▁ㅇㅣㄹㅅㅏㄴ	-5962
▁ㅇㅗㅀ	-5963
▁ㅎㅟㄹ	-5964
▁ㄷㅟㅅㅂㅏㄷㅊㅣㅁ	-5965
▁++	-5966
▁ㅅㅓㄴㅂㅐ	-5967
▁ㅈㅓㄴㄱㅜ	-5968
▁ㅂㅜㅌㅈㅏㅂㅎㅣ	-5969
ㄹㅔㄱㅌㅓ	-5970
▁ㄱㅣㅁㅎㅗㅇ	-5971
▁ㅈㅣㄹㅅㅗ	-5972
▁ㅋㅓㅁㅂㅐㄱ	-5973
▁ㅎㅕㄴㄱㅏㅁ	-5974
ㅂㅔㄴㅊㅓ	-5975
ㅅㅏㄴㅅㅓㅇ	-5976
ㅇㅠㄱㅊㅓㅇ	-5977
▁ㅂㅜㄴㅊㅜㄹ	-5978
▁ㄷㅏㅇㅅㅜ	-5979
ㅎㅣㅁ	-5980
▁NGC	-5981
▁ㄱㅘㄴㅈㅓㄹ	-5982
▁ㄱㅝㄴㅈㅏㅇ	-5983
▁ㅇㅣㅂㅅㅓㅇ	-5984
▁ㅊㅜㅇㅊㅓㅇㄷㅗ	-5985
ㄷㅡㅇㅎㅏㄱㅅㅐㅇ	-5986
▁ㅂㅓㅂㅈㅓㅇㄷㅗㅇ	-5987
▁CN	-5988
▁ㄲㅗㄱㄷㅐ	-5989
▁2022	-5990
ㄱㅕㄱㅅㅜ	-5991
ass	-5992
▁con	-5993
▁ㅎㅘㄹㅈㅜ	-5994
▁ㅁㅣㄴㄱㅏㅁ	-5995
▁ㅅㅏㅇㄱㅏ	-5996
▁ㅋㅗㄴㅌㅔ	-5997
ㄲㅡㅅ	-5998
ㅅㅓㅇㅈㅜ	-5999
▁ㄱㅏㄹㅅㅜ	-6000
▁ㅅㅗㄹㄹㅜ	-6001
ㅅㅓㄴㅇㅘㅇ	-6002
▁ㄱㅜㄴㅈㅜㅇ	-6003
▁ㄱㅜㄴㅎㅏㅁ	-6004
▁ㅈㅓㄴㅇㅕㅁㅂㅕㅇ	-6005
▁ㄱㅜㅇㅈㅜㅇ	-6006
▁Ex	-6007
ream	-6008
▁ㅊㅓㄹㅍㅖ	-6009
▁Br	-6010
▁ㅍㅕㅇㅊㅏㅇ	-6011
▁ㅎㅘㄱㅅㅣㄹㅎㅣ	-6012
▁1860	-6013
▁ㄴㅏㅁㄷㅗㅇㅅㅐㅇ	-6014
▁ㅈㅓㅇㄹㅣㅂ	-6015
▁ㅍㅔㄴㅅㅣㅇ	-6016
ㅁㅜㄴㅅㅓ	-6017
ㅂㅏㄴㄱㅜ	-6018
▁ㅇㅗㄹㄷㅡ	-6019
▁ㅈㅗㅇㄹㅐ	-6020
▁ㅇㅕㅇㄱㅜㄱㅇㅣㄴ	-6021
▁ㅅㅣㄹㅁㅜ	-6022
▁ㅅㅏㅇㅂㅓㅂ	-6023
▁ㅈㅜㅇㄹㅕㅇ	-6024
▁ㅎㅡㄴㄷㅡㄹㄹㅣ	-6025
▁ㄱㅗㅇㅇㅛㅇㅇㅓ	-6026
▁ㅌㅡㄱㅂㅕㄹㅈㅏ	-6027
▁ㅉㅗㅊㅇㅏ	-6028
▁122	-6029
▁ㄸㅓㄱ	-6030
▁ㄴㅗㅇㅂㅜ	-6031
▁ㅈㅣㄴㄹㅛ	-6032
▁ㄱㅏㅇㄱㅏㄴ	-6033
▁ㅈㅗㅇㅈㅓㅁ	-6034
▁ㅎㅘㄱㅈㅣㄴ	-6035
▁ㅈㅓㅇㄷㅗㅇ	-6036
▁ㅂㅜㄴㄹㅑㅇ	-6037
▁ㅅㅐㄱㅊㅐ	-6038
ㅂㅏㅇㅅㅏㄴ	-6039
▁ㅈㅏㅇㅂㅕㄱ	-6040
clude	-6041
▁1897	-6042
▁ㄷㅗㅇㅈㅗ	-6043
▁ㄱㅜㄴㅊㅓㅇ	-6044
ii	-6045
▁ㅇㅕㄴㅂㅗㅇ	-6046
▁ㅊㅓㅇㅅㅏㄴ	-6047
▁;&	-6048
▁DM	-6049
ㄷㅠㅁ	-6050
▁220	-6051
▁ㅇㅐㄴㄷㅓ	-6052
ㅂㅏㅇㅇㅜㄹ	-6053
▁ㄱㅗㄱㅁㅜㄹ	-6054
▁ㄱㅏㅇㄴㅏㅁㄱㅜ	-6055
ㅌㅣㄹㄹㅣ	-6056
▁ㅇㅡㅇㅎㅏ	-6057
▁ㅂㅏㄹㄹㅕㅇ	-6058
▁ㅅㅏㅁㅊㅗㄴ	-6059
▁ㅅㅣㄴㅊㅜㄱ	-6060
▁ㅈㅓㄴㅅㅏㄴ	-6061
▁ㄱㅡㄹㄹㅐ	-6062
▁ㅇㅛㅇㅇㅏㅁ	-6063
▁Is	-6064
▁ㅌㅡㄱㄱㅝㄴ	-6065
ㄹㅓㄹㄹㅣ	-6066
▁ㄷㅡㅇㄱㅣ	-6067
▁ㅎㅓㄴㅈㅓㅇ	-6068
ㅌㅡㄹㄹㅐㄴㅌㅏ	-6069
▁ㄴㅛ	-6070
▁ㄱㅗㅇㄱㅗ	-6071
▁ㅇㅣㅂㅈㅜ	-6072
▁ㅇㅏㄴㄱㅕㅇ	-6073
ㅃㅏㄹ	-6074
▁ㅇㅣㅂㄱㅏㄱ	-6075
▁133	-6076
ㅈㅏㄱㅅㅏ	-6077
ㅌㅔㄹㄹㅔ	-6078
▁ㄴㅏㄹㅋㅏ	-6079
▁ㄱㅏㅁㅎㅐㅇ	-6080
▁ㅈㅓㄴㅂㅗㄱ	-6081
▁ㅇㅕㅇㄷㅡㅇㅍㅗ	-6082
▁ㅅㅓㄹㄱㅛ	-6083
▁ㅈㅗㅇㅍㅏ	-6084
▁ㅎㅕㅁㅇㅗ	-6085
▁ㅎㅏㅁㅇㅑㅇ	-6086
▁ㅇㅣㄹㅍㅏ	-6087
ㅇㅛㅇㄱㅐㄱ	-6088
GA	-6089
ake	-6090
▁ㄱㅏㄹㄹㅐ	-6091
▁ㄱㅕㄱㅈㅏ	-6092
▁ㅅㅏㅇㄱㅗ	-6093
▁ㅇㅏㄴㅊㅣ	-6094
▁ㅎㅗㄹㄹㅣ	-6095
▁ㅁㅜㄴㄱㅕㅇ	-6096
▁ㅈㅜㅇㄱㅗㅇㅇㅓㅂ	-6097
iss	-6098
▁ㅋㅣㄹ	-6099
▁ㅅㅣㄹㅁㅏㅇ	-6100
▁ㅇㅏㄴㅅㅏㄴ	-6101
▁ㅇㅣㄹㄱㅘㄹ	-6102
HO	-6103
▁ㅂㅏㄹㅋㅏㄴ	-6104
▁ㄱㅗㅇㅎㅘㅇ	-6105
▁ㄷㅡㅇㅇㅛㅇ	-6106
▁ㅌㅡㄱㅅㅐㄱ	-6107
▁ㅂㅣㄴㄷㅗ	-6108
ㅋㅗㅂㅌㅓ	-6109
▁ㅇㅠㄴㅂㅗ	-6110
▁BM	-6111
▁ㅅㅏㅇㄱㅕㅇ	-6112
▁ㅇㅡㅁㅎㅑㅇ	-6113
▁ㅎㅏㅁㅅㅓㄴ	-6114
▁ㄴㅗㄴㅎㅏ	-6115
▁ㅈㅏㅇㅈㅏ	-6116
▁ㅈㅓㄹㄷㅏㄴ	-6117
▁ㅁㅏㄱㅅㅡ	-6118
▁ㅂㅕㄱㅎㅘ	-6119
▁ㅎㅕㅇㅈㅗ	-6120
▁ㅂㅗㄱㄱㅝㄴ	-6121
▁ㅂㅜㄹㅅㅣㄴ	-6122
▁ㅅㅣㄴㄷㅗㅇ	-6123
▁ㄴㅏㅁㅇㅑㅇㅈㅜ	-6124
▁ㄹㅏㅂ	-6125
▁ㄴㅗㅇㅇㅓ	-6126
▁ㅂㅏㄴㅈㅓㄴ	-6127
▁ㅅㅓㄹㄹㅣㅂㅈㅏ	-6128
ㅇㅏㄵ	-6129
▁ㅅㅕㄹ	-6130
UR	-6131
ㄱㅏㅎ	-6132
ㅇㅗㄹㄹㅗ	-6133
▁ㅈㅓㄴㅂㅏㅇ	-6134
▁ㅎㅓㄴㅅㅣㄴ	-6135
▁ㄷㅣㄹ	-6136
▁ㅇㅑㄱㅅㅏ	-6137
▁ㅎㅡㅇㅅㅓㄴㄷㅐ	-6138
▁ㄱㅓㅌㅂㅗ	-6139
▁ㅅㅓㄱㅎㅚ	-6140
▁ㄱㅡㄱㄹㅏㄱ	-6141
▁ㅅㅜㄱㅂㅜ	-6142
▁ㄱㅏㅇㄷㅐ	-6143
▁ㅁㅜㄲㅇㅣ	-6144
▁ㅈㅓㅇㅎㅘ	-6145
ㅅㅗㄱㅈㅏㄱ	-6146
▁ㄱㅕㄴㅇㅣㄴ	-6147
▁1880	-6148
▁CBS	-6149
ㅂㅓㅂㅅㅏ	-6150
▁ㄴㅐㅁㅅㅐ	-6151
▁ㅈㅣㄴㅅㅜ	-6152
ㄱㅘㄴㅎㅏㄱㄱㅛ	-6153
lo	-6154
own	-6155
ㄹㅓㅅ	-6156
▁ㅁㅗㄱㅇㅛ	-6157
ㅈㅓㅇㅇㅝㄴ	-6158
▁ㅅㅗㄱㅍㅕㄴ	-6159
ork	-6160
▁or	-6161
ㄱㅜㅇㅎㅘ	-6162
ㅅㅡㄹㄹㅔ	-6163
ㅘㅇ	-6164
▁ㄱㅏㅇㅊㅓㄹ	-6165
▁ㅇㅣㄴㅈㅣㄹ	-6166
ㅇㅟㅇ	-6167
ㅍㅡㄹㄹㅗ	-6168
▁ㅁㅣㄹㄹㅓ	-6169
▁ㅎㅏㄱㄷㅐ	-6170
▁ㅇㅝㄴㄱㅕㄱ	-6171
▁ㄱㅜㄱㅁㅣㄴㅎㅚ	-6172
▁ㄱㅡㄱㅈㅏㄱㄱㅏ	-6173
Hz	-6174
▁ES	-6175
▁PR	-6176
ㅇㅣㄹㅇㅡ	-6177
▁ㅎㅕㅂㄷㅗㅇ	-6178
ㄹㅓㄹㄹㅣㅁㅍㅣㄱ	-6179
▁pro	-6180
▁ㅂㅜㅌㅇㅕ	-6181
ㅅㅓㄴㅈㅓㄴ	-6182
▁ㅂㅏㄴㄱㅜㄴ	-6183
▁ㄴㅗㅇㅅㅏ	-6184
▁ㅇㅕㄴㄷㅗㅇ	-6185
▁ㅎㅔㄹㄹㅠㅁ	-6186
▁ㄷㅗㄹㄱㅣ	-6187
▁ㅅㅣㅁㅇㅑ	-6188
▁ㅊㅓㅇㅈㅏ	-6189
▁ㅇㅣㅂㅇㅑㅇ	-6190
▁ㅊㅓㅇㅅㅐㄱ	-6191
▁ㄱㅕㄹㅈㅔ	-6192
▁ㅁㅜㄹㄱㅏ	-6193
▁ㅎㅏㅁㅈㅏ	-6194
ㄷㅡㅇㅅㅣㄱ	-6195
ㅈㅣㄱㅇㅝㄴ	-6196
old	-6197
▁ㄱㅕㅇㅇㅟ	-6198
▁ㅂㅗㄹㅅㅖ	-6199
▁ㅈㅏㅇㅈㅔ	-6200
ㄷㅗㅇㄱㅜㄴ	-6201
▁ㅅㅓㄴㄷㅗㅇ	-6202
▁ㅇㅗㄹㄹㅣㅁㅍㅣ	-6203
▁ㄲㅡㄶㅇㅣㅁㅇㅓㅄㅇㅣ	-6204
()	-6205
▁ㄱㅗㅇㅅㅗㄴ	-6206
▁ㅈㅗㅇㅁㅏㄹ	-6207
ㅌㅔㅂ	-6208
▁ㅂㅜㅁ	-6209
▁ㅎㅜㅁㅊㅣ	-6210
▁ㅁㅣㄴㄱㅏㄴㅇㅣㄴ	-6211
▁ㅈㅏㅇㄷㅏㄴ	-6212
▁Ro	-6213
▁ㅉㅏㅇ	-6214
▁ㄱㅜㄱㅅㅜ	-6215
▁ㅎㅏㄴㅌㅔ	-6216
▁ㅁㅣㄴㅈㅓㅇ	-6217
▁ㅇㅘㅇㅈㅓㅇ	-6218
▁ㅅㅗㄴㄲㅗㅂㅎㅣ	-6219
ㅇㅣㅂㅈㅏ	-6220
ection	-6221
▁ㅂㅜㄹㅇㅓ	-6222
▁ㅅㅣㄹㅈㅐ	-6223
▁ㅂㅜㄱㄱㅕㅇ	-6224
▁GDP	-6225
▁ㅁㅏㄱㅅㅣ	-6226
ㅎㅗㄹㄹㅡㅁ	-6227
▁ㅇㅕㄴㅁㅗㅅ	-6228
ㄱㅗㅁ	-6229
▁ㅂㅕㅇㅁㅏ	-6230
▁ㄱㅕㄹㅍㅣㅂ	-6231
▁ㅌㅜㄴ	-6232
▁ㅂㅜㄴㅍㅏ	-6233
ㄱㅗㅇㅅㅏㄴ	-6234
▁only	-6235
▁ㅈㅓㅇㄱㅕㅇ	-6236
▁ㄴㅏㄲ	-6237
▁ㅇㅏㄴㄷㅔ	-6238
▁ㅎㅘㅇㄷㅗ	-6239
ㅊㅓㄴㅁㅕㄴ	-6240
ㄷㅗㅇㅎㅏ	-6241
▁ㅈㅣㄴㅈㅓㄴ	-6242
▁ㅎㅏㄱㄹㅕㄱ	-6243
ㅎㅏㄹㅅㅣ	-6244
▁ㅈㅓㅂㅅㅜ	-6245
ㄷㅗㅁ	-6246
▁132	-6247
▁ㅅㅓㄴㄷㅐ	-6248
▁ㅂㅗㄱㅅㅣㄱ	-6249
▁ㅈㅜㅇㅇㅝㄴ	-6250
▁NE	-6251
ix	-6252
▁ㅃㅛ	-6253
ㅋㅣㄹ	-6254
▁ㅂㅔㄱ	-6255
▁ㄱㅜㄱㅇㅏㄱ	-6256
▁ㅊㅓㅇㄷㅗㅇㄱㅣ	-6257
▁ㅁㅐㄴㅎㅐ	-6258
ㅅㅣㄴㅅㅓㅇ	-6259
▁ㄱㅗㅇㅇㅑㄱ	-6260
▁ㅁㅏㄴㄴㅕㄴ	-6261
ick	-6262
▁ㅊㅣㅁㅊㅔ	-6263
▁SL	-6264
▁Mus	-6265
▁USS	-6266
ㅇㅓㅂㅅㅗ	-6267
▁ㅇㅕㄱㄷㅗ	-6268
▁GN	-6269
ㅁㅔㄴㅅㅡ	-6270
ㅈㅓㄴㄱㅣ	-6271
▁ㅁㅗㅇㄱㅗ	-6272
▁ㅅㅏㄴㅌㅣ	-6273
▁ㅅㅜㄱㅈㅜ	-6274
▁ㅊㅗㅇㄱㅣ	-6275
ㄷㅏㄴㅈㅏㅇ	-6276
▁ㄱㅣㅁㅁㅣㄴ	-6277
▁ㅈㅓㄴㄱㅕㄱ	-6278
▁Ph	-6279
ㅎㅡㄴ	-6280
▁ㅊㅏㅇㅇㅢ	-6281
▁ㅊㅏㄹㄹㅣ	-6282
▁ㅂㅓㄴㅅㅓㅇ	-6283
▁ㄱㅏㅁㅇㅏㄴ	-6284
▁ㄱㅣㅁㅇㅗㄱ	-6285
▁ㅍㅕㅇㅇㅏㄴㅂㅜㄱㄷㅗ	-6286
▁ㅁㅣㄹㄹㅏㄴ	-6287
▁ㅂㅗㅇㅅㅜ	-6288
lass	-6289
▁ㅁㅏㅈㅂㅜㅌ	-6290
▁ㅅㅏㅁㄱㅜㄱㅅㅏ	-6291
▁ㄲㅏㄲ	-6292
ㅇㅣㄹㅈㅡ	-6293
▁ㅇㅣㄴㅍㅡ	-6294
▁ㅍㅕㅇㅇㅏㄴㄴㅏㅁㄷㅗ	-6295
▁ㅈㅏㅇㅇㅝㄴ	-6296
ence	-6297
ild	-6298
ㄱㅘㄴㄹㅣ	-6299
▁La	-6300
▁ㅍㅗㄱㄹㅗ	-6301
▁EBS	-6302
▁ㄷㅏㄴㄱㅘ	-6303
ㄸㅟ	-6304
▁ㅅㅣㄴㅅㅏㅇ	-6305
ㄹㅡㄹㅌㅔ	-6306
▁ㅅㅔㄴㄱㅗ	-6307
▁ㅈㅣㅁㅈㅏㄱ	-6308
▁un	-6309
▁CONCA	-6310
▁ㅇㅏㅇㄱㅗ	-6311
▁ㅈㅓㅇㄱㅜㄱ	-6312
▁AD	-6313
ㄸㅏㅇ	-6314
ㅅㅜㄹㅅㅏ	-6315
ㅅㅣㅂㅈㅏ	-6316
▁ㅈㅜㅇㅅㅐㅇ	-6317
ㅇㅟㅅ	-6318
▁ㅈㅏㅇㄷㅐ	-6319
ㄹㅗㄱㅅㅐㄱ	-6320
▁CONCACAF	-6321
OV	-6322
ear	-6323
▁ex	-6324
▁ㄴㅗㅇㅅㅏㄴㅁㅜㄹ	-6325
ance	-6326
▁ㅅㅏㄹㅍㅣ	-6327
include	-6328
▁ㅎㅏㅂㄷㅏㅇ	-6329
▁ㄱㅗㅇㅍㅏ	-6330
▁ㅇㅡㄹㄲㅏ	-6331
▁ㄱㅓㄴㄹㅠㅇ	-6332
▁@	-6333
▁ㅇㅑㅇㅅㅓㅇㅈㅏ	-6334
▁ㄱㅕㅇㅈㅐㅇㄹㅕㄱ	-6335
▁NAS	-6336
ㄱㅜㄱㅁㅣㄴ	-6337
▁ㄹㅡㄴ	-6338
▁1885	-6339
▁ㄷㅗㅇㅎㅐㅇ	-6340
▁ㅎㅕㄴㅈㅣㄱ	-6341
ㅎㅓㄴㅇㅕㅇ	-6342
▁ㄱㅏㅂㅇㅗㅅ	-6343
▁ㅎㅗㅇㅁㅜㄴㄱㅘㄴ	-6344
▁To	-6345
ㅁㅓㄹ	-6346
▁450	-6347
▁ㅆㅡㄹ	-6348
ㅅㅏㅇㅅㅣ	-6349
▁ㅌㅏㅂㅅㅣㄴ	-6350
▁Sy	-6351
▁ㄱㅜㄱㅂㅗ	-6352
▁ㅁㅜㄴㄱㅗ	-6353
▁ㅅㅣㅁㅎㅘ	-6354
ㄴㅕㅁㅇㅣㄹ	-6355
ㅎㅏㅂㅅㅣㄹ	-6356
▁ㅎㅕㄴㅎㅐㅇ	-6357
ㅍㅗㄴㅅㅓ	-6358
ㅈㅣㅅㅁㅏㄹ	-6359
EM	-6360
▁ㄷㅐㅅ	-6361
▁ㅈㅜㅇㅅㅓ	-6362
ㄹㅡㄴㅅㅗㄴ	-6363
▁ㅈㅜㅇㅇㅏㅇㅂㅜ	-6364
ㄹㅐㅇㅋㅡㄹㄹㅣㄴ	-6365
GM	-6366
▁240	-6367
ㅇㅣㄴㅅㅏ	-6368
▁ㄴㅏㅁㅅㅏㄴ	-6369
TP	-6370
▁CEO	-6371
▁ㅁㅐㅅ	-6372
▁ㅈㅣㅂㄱㅕㄹ	-6373
▁ㅌㅏㄱㅇㅝㄹ	-6374
▁ㄷㅗㅇㅇㅛ	-6375
▁ㅂㅜㄹㅅㅏ	-6376
▁ㅈㅡㄹㄱㅓㅂ	-6377
▁":	-6378
▁ㅇㅏㄹㄹㅐ	-6379
▁ㅇㅛㅇㅅㅓ	-6380
▁Mar	-6381
ㄹㅗㅂㅎㅣ	-6382
▁ㅅㅐㅇㅅㅓㄴ	-6383
▁CM	-6384
▁1871	-6385
▁ㄲㅡㄹㄹㅕ	-6386
▁ㅅㅜㅁㅈㅣ	-6387
OD	-6388
▁ㅊㅓㅇㄹㅛㅇ	-6389
▁ㅁㅕㅇㅅㅗ	-6390
▁ㅇㅏㅁㅎㅡㄱ	-6391
▁ㅎㅏㄴㅊㅡㅇ	-6392
▁ㄱㅜㄱㅇㅠ	-6393
▁ㅋㅣㅇㅅㅡ	-6394
▁ㅂㅗㄱㅇㅡㅁㅅㅓ	-6395
▁ㅅㅑㄹ	-6396
▁ㅅㅣㄷ	-6397
ivers	-6398
▁ㅂㅏㄴㅇㅕㄱ	-6399
▁ㅍㅕㅇㅁㅣㄴ	-6400
ans	-6401
▁sc	-6402
ㄱㅅㅕㄴ	-6403
▁1200	-6404
▁1870	-6405
ㅇㅣㄴㄷㅡ	-6406
▁ㅅㅏㅇㄱㅣ	-6407
▁ㅅㅣㄴㅈㅗㅇ	-6408
▁ㅊㅜㄹㅅㅓㄱ	-6409
▁ㄷㅗㅇㅁㅜㄹㅇㅝㄴ	-6410
▁ㅋㅜㄱ	-6411
▁1600	-6412
▁ㄷㅗㅇㅇㅠ	-6413
AF	-6414
ㅁㅜㄴㅈㅏ	-6415
ㅅㅏㄱㅅㅡ	-6416
▁ㅅㅗㅇㄷㅗ	-6417
▁ㄱㅡㄱㅎㅏㄴ	-6418
ㅈㅏㄱㅁㅜㄹ	-6419
ㅌㅓㄱ	-6420
ㅇㅜㄱㅇㅣ	-6421
▁ㄱㅣㅁㅂㅕㅇ	-6422
▁ㄷㅡㅇㄱㅡㄱ	-6423
EG	-6424
▁ㅅㅣㄴㅈㅓㅇ	-6425
▁ㅇㅏㅍㅉㅗㄱ	-6426
ㅅㅗㄱㅂㅓ	-6427
▁ㄴㅏㄱㅎㅏ	-6428
▁ㅂㅏㄹㄱㅏㄱ	-6429
▁ㅅㅓㅇㄴㅏㅁㅅㅣ	-6430
ish	-6431
ㄱㅏㅈ	-6432
▁ㄱㅘㄹ	-6433
▁ㄱㅏㅁㅊㅜ	-6434
▁ㄲㅜㅁㄲㅜ	-6435
ㄷㅏㄴㅂㅓㅂㅇㅣㄴ	-6436
▁ㅈㅡㅁ	-6437
ㅇㅓㄴㅈㅏ	-6438
▁ㅈㅓㅇㅈㅔ	-6439
▁ㅍㅕㄴㅈㅣㅂㅈㅏ	-6440
▁ㄴㅏㄴㅇㅣ	-6441
▁ㄹㅓㄱㅂㅣ	-6442
▁ㅍㅕㄴㅈㅔ	-6443
▁ㅈㅓㄴㅎㅏㄴ	-6444
▁ㅅㅏㅇㅇㅕㄴ	-6445
ㅌㅗㄱㅎㅗㄹㄹㅡㅁ	-6446
▁ㅂㅐㄴㅋㅜ	-6447
▁ㄱㅓㅁㅈㅓㅇ	-6448
▁ㄱㅘㄴㅁㅜㄴ	-6449
▁ㅈㅓㄱㄱㅜㄴ	-6450
▁ㄷㅏㅇㅇㅕㄴㅎㅣ	-6451
▁ㄱㅗㅇㅍㅛ	-6452
▁ㄱㅜㅇㄱㅝㄹ	-6453
ㅇㅔㅁ	-6454
▁ㅊㅜㄹㄱㅏ	-6455
▁ㅎㅏㅂㅅㅡ	-6456
▁ㄷㅗㄹㅇㅣㅂ	-6457
▁ㅃㅏㄹㄱㅏㅎ	-6458
ㄱㅏㅇㅇㅏㅁ	-6459
▁ㅅㅓㄴㅈㅏㅇ	-6460
▁ㅈㅓㅇㄱㅘㄴ	-6461
▁ㄱㅕㅇㅎㅢ	-6462
ㅊㅓㄴㄷㅗㅇ	-6463
▁ㅇㅏㅍㅈㅏㅇ	-6464
▁ㅎㅏㅁㄱㅕㅇㄴㅏㅁㄷㅗ	-6465
oun	-6466
▁ㄴㅡㅇㅅㅓㄴ	-6467
ㄹㅓㅎㅈㅣ	-6468
▁ㅅㅓㅇㄹㅕㅇ	-6469
▁ㅌㅡㄱㅈㅓㄴ	-6470
▁DD	-6471
▁NT	-6472
ㅇㅣㅅ	-6473
▁ㅅㅛㄴ	-6474
▁ㄱㅡㄴㅅㅏ	-6475
▁ㅁㅣㄴㅇㅛ	-6476
▁ㅁㅗㅁㅌㅗㅇ	-6477
▁CH	-6478
▁ㄷㅗㄹㅊㅜㄹ	-6479
ㅈㅓㅇㅅㅏ	-6480
▁ㅅㅏㄴㅎㅗ	-6481
▁ㅅㅗㄱㅈㅜ	-6482
▁ㅈㅣㄴㅎㅐ	-6483
ㅅㅡㅇㅂㅜㄹㄱㅛ	-6484
▁ㄱㅏㄹㄹㅣㄹㄹㅔ	-6485
▁ㄱㅣㅁㅈㅓㅇㅇㅡㄴ	-6486
▁ㄱㅏㅇㅎㅢ	-6487
▁ㄷㅏㄹㄹㅕ	-6488
▁ㄱㅗㅇㅊㅓㄴ	-6489
ㅇㅗㄹㄹㅏ	-6490
▁ㅂㅜㄴㄱㅘ	-6491
▁ㅍㅕㅇㅎㅕㅇ	-6492
EL	-6493
ㅈㅜㅇㅊㅜ	-6494
▁ㄱㅘㅇㄷㅗ	-6495
▁ㅅㅗㄱㅇㅣ	-6496
ㄱㅜㄴㅈㅓㅇ	-6497
▁ㅂㅣㄴㅂㅓㄴ	-6498
IR	-6499
ㅂㅕㄴㅇㅣ	-6500
ㅅㅓㅇㅅㅣ	-6501
▁ㅇㅣㅂㅅㅜ	-6502
▁ㅂㅏㄱㅎㅓㄴㅇㅕㅇ	-6503
▁ㄷㅗㄹㅇㅕㄴㅂㅕㄴㅇㅣ	-6504
fe	-6505
are	-6506
▁ㅇㅕㄴㄱㅡㄱㅂㅐ	-6507
▁ㅇㅏㄹㄹㅔㄱㅅㅡ	-6508
lat	-6509
▁ㅊㅏㅁㅅㅏ	-6510
▁ㅈㅣㅇㅂㅕㅇ	-6511
▁ㅃㅓㄴ	-6512
▁ㅇㅑㅌ	-6513
▁ㅎㅠㅇㄴㅗ	-6514
ㅎㅘㄴㄱㅕㅇ	-6515
▁ㅌㅗㅇㅌㅡㄹㅇㅓ	-6516
▁ㅅㅣㄹㅎㅓㅁㅅㅣㄹ	-6517
▁210	-6518
ㅎㅐㅇㅅㅓㄴ	-6519
▁ㄱㅏㄴㅅㅣㄴ	-6520
▁ㄱㅏㅇㄹㅕㅇ	-6521
▁ㅎㅏㄱㅅㅓㄹ	-6522
ㅁㅜㄴㄱㅜ	-6523
ㅇㅠㄱㅈㅏ	-6524
ㅅㅏㄴㅇㅓㅂ	-6525
▁ㅇㅏㄴㄴㅕㅇ	-6526
▁ㄱㅗㅇㅁㅣㄴㅇㅘㅇ	-6527
▁ㅁㅓㅇ	-6528
ㅊㅓㄴㄹㅜ	-6529
▁ㄱㅏㅁㄷㅗㅇ	-6530
ical	-6531
▁ㅁㅕㅇㅂㅜㄴ	-6532
▁ㅌㅗㅇㅇㅕㄱ	-6533
▁ㅇㅛㅇㅇㅣㄴㅅㅣ	-6534
ㅊㅏㅇㅎㅗ	-6535
▁ㄱㅡㄱㄷㅗ	-6536
ㅇㅏㅁㄷㅗㅇ	-6537
▁ㄱㅘㄴㅊㅓㅇ	-6538
▁ㅅㅏㅁㅈㅗㄴ	-6539
▁ㅇㅕㄹㅅㅣㅁ	-6540
▁AV	-6541
ㅁㅗㅇㅈㅜ	-6542
▁ㄱㅕㅇㅅㅣ	-6543
▁ㄱㅏㅁㄱㅡㅁ	-6544
▁ㄱㅣㅁㅇㅝㄴ	-6545
▁ㄷㅗㅇㅊㅏㅁ	-6546
▁ㅅㅏㅇㄱㅡㅂ	-6547
▁ㅇㅕㅇㅇㅖ	-6548
irl	-6549
▁ㅋㅏㄹㄹㅓㅁ	-6550
▁ㅌㅗㅇㅇㅛㅇ	-6551
▁ㅅㅣㄴㅁㅜㄴㅅㅏ	-6552
60	-6553
FL	-6554
ㄹㅏㅇㅋㅗ	-6555
ㅌㅗㅇㅇㅣㄹ	-6556
▁ㅇㅗㄴㄱㅏㅈ	-6557
▁ㄱㅣㄴㅌㅔ	-6558
▁ㅇㅐㄱㅅㅔ	-6559
▁ㅈㅡㅇㅈㅗ	-6560
▁ㅅㅓㅇㅎㅘ	-6561
▁Jo	-6562
ㄹㄹㅡㄴ	-6563
▁ㅂㅗㅇㅎㅘ	-6564
▁ㅎㅔㄹㅅㅣㅇ	-6565
▁pr	-6566
▁ㄷㅗㄱㄷㅗ	-6567
▁ㅎㅘㄹㅂㅏㄹㅎㅣ	-6568
▁he	-6569
ㅂㅏㅁ	-6570
ㅁㅐㄱㅅㅡ	-6571
▁ㅂㅔㄴㅊㅣ	-6572
▁ㅅㅏㄹㄹㅏ	-6573
▁ㅈㅓㄴㄹㅐ	-6574
▁ㅂㅏㅇㅋㅗㄱ	-6575
▁ㅍㅡㄹㄹㅐㄴ	-6576
ㄴㅗㄹㅇㅣ	-6577
ㅇㅜㄴㄷㅐ	-6578
▁ㄱㅗㅇㅎㅠ	-6579
▁ㅁㅣㄹㄹㅕ	-6580
▁ㅅㅐㅇㄱㅖ	-6581
ㄴㅏㄴㅅㅓㅇ	-6582
ㅎㅕㄴㄷㅗㅇ	-6583
▁ㄴㅗㅇㄱㅕㅇ	-6584
▁ㅂㅜㄹㅂㅕㄴ	-6585
▁ㅂㅜㄹㅎㅐㅇ	-6586
▁ㅅㅗㅇㅅㅣㄴ	-6587
▁ㅇㅡㅁㅇㅜㄴ	-6588
▁ㅂㅐㄱㄷㅜ	-6589
▁ㅅㅓㅁㅅㅔ	-6590
▁ㄱㅏㄱㅅㅓㅇ	-6591
▁ㅊㅣㄴㅂㅜㄴ	-6592
ㅌㅏㄹㄹㅜ	-6593
▁ㅎㅘㄱㄱㅗ	-6594
▁ㄱㅕㅇㅈㅓㄴㅊㅓㄹ	-6595
▁ㄱㅣㅁㅇㅠ	-6596
▁ㅁㅐㅇㅅㅔ	-6597
▁ㅌㅡㄹㄹㅣ	-6598
EE	-6599
ㄹㅏㄴㅌㅗ	-6600
▁ㅈㅓㅇㄱㅓ	-6601
▁ㅎㅘㅇㅅㅗ	-6602
▁ㅇㅕㅇㅈㅓㅇ	-6603
▁ㅈㅓㄴㄴㅏㄹ	-6604
▁ㅋㅏㄹㅂㅐㅇ	-6605
ㅂㅡㄹㄹㅐㄴㄷㅡ	-6606
▁ㄱㅏㅁㅅㅜ	-6607
▁ㅂㅕㄹㅅㅔ	-6608
▁Ma	-6609
▁ㅁㅏㅈㄷㅐ	-6610
ㅈㅓㅇㅇㅏㄴ	-6611
▁ㅅㅣㄴㅂㅏㄹ	-6612
ㅊㅏㄶ	-6613
▁ㅂㅗㄹㄹㅗ	-6614
▁ㅇㅝㄴㅌㅗㅇ	-6615
▁ㅊㅗㅇㅇㅐ	-6616
▁ㅊㅏㅇㅁㅜㄴ	-6617
▁ㅊㅓㄴㅇㅘㅇ	-6618
▁ㅊㅗㅇㅌㅗㅇ	-6619
▁AKB	-6620
▁ㅂㅔㄴㅊㅓ	-6621
▁ㅋㅡㄹㄹㅣㄴㅌㅓㄴ	-6622
▁ㄴㅔㅅㅉㅐ	-6623
▁ㅂㅗㄴㅈㅏㄱ	-6624
▁ㅇㅔㅇ	-6625
▁ㅈㅓㅇㅇㅡㅂ	-6626
ㅇㅓㄹㄹㅣ	-6627
▁ㅂㅐㄹㄹㅣ	-6628
▁ㅅㅐㄱㅅㅗ	-6629
▁ㅊㅓㄴㄱㅓ	-6630
▁ㅍㅔㄹㄹㅗ	-6631
▁ㄴㅏㅁㅇㅛㅇ	-6632
▁ㅈㅡㅇㅇㅣㄴ	-6633
▁ㅂㅏㄱㅈㅗㅇ	-6634
▁ㅅㅣㄹㅈㅗㄴ	-6635
▁ㅇㅝㄴㅅㅣㅁ	-6636
▁ㅇㅣㄹㄷㅏㅇ	-6637
▁ㅋㅏㄴㄱㅜㄱ	-6638
▁ㅌㅖㄴㅈㅣㄴ	-6639
▁TR	-6640
▁ㅁㅔㅅ	-6641
▁ㅈㅓㅂㅇㅓ	-6642
▁ㅅㅡㅂㅇㅠㄴ	-6643
▁int	-6644
▁ㅅㅓㄴㅊㅓㄴ	-6645
ica	-6646
▁ㄹㅔㄹ	-6647
▁ㅎㅓㅅ	-6648
▁ㅋㅓㄴㅌㅔ	-6649
▁ㅎㅏㄴㅎㅏ	-6650
▁ㄱㅜㄱㄱㅗㅇ	-6651
▁ㅅㅗㅇㅊㅜㄹ	-6652
▁ㅇㅑㄱㅎㅗㄴ	-6653
▁ㅈㅓㅇㅈㅗㅇ	-6654
▁ㅂㅓㄱ	-6655
▁ㄷㅏㅇㄴㅐ	-6656
▁ㄱㅣㅁㅎㅕㅇ	-6657
▁ㅈㅏㅇㅅㅣ	-6658
ey	-6659
▁ㅂㅚ	-6660
▁ㅆㅏㅇㄷㅐ	-6661
▁ㅂㅗㅅ	-6662
▁Live	-6663
ㄱㅘㄴㅈㅣ	-6664
▁ㄱㅜㄱㄱㅛ	-6665
▁ㅇㅏㄴㄴㅏ	-6666
▁ㅂㅏㄴㅅㅓㅇ	-6667
▁ㅂㅏㄴㄹㅏㄴㄱㅜㄴ	-6668
▁Fr	-6669
▁ㅊㅠ	-6670
▁ㅇㅕㄴㅅㅏㄴㄱㅜㄴ	-6671
IL	-6672
span	-6673
▁ABC	-6674
▁ㅍㅣㄱㅊㅓ	-6675
ㅅㅣㄴㅁㅜㄴ	-6676
▁ㄱㅘㄴㅎㅐㅇ	-6677
ㄱㅜㄴㄷㅏ	-6678
ㅂㅜㄱㄱㅜ	-6679
▁onlyinclude	-6680
ㅍㅓㅇ	-6681
ㅅㅏㅇㅍㅏ	-6682
▁ㅇㅡㄴㄱㅓ	-6683
▁ㅊㅣㄱㄹㅕㅇ	-6684
ㅁㅏㅇㄱㅏ	-6685
bo	-6686
ost	-6687
tern	-6688
▁ㅅㅡㄹㅎㅏ	-6689
▁ㅈㅜㅇㅌㅚ	-6690
▁ㅇㅜㄴㅇㅣㅁ	-6691
▁ㅇㅣㄹㅂㅗㄴㄱㅜㄱ	-6692
ㄹㅗㄹㄹㅓ	-6693
▁ㅂㅐㄱㄱㅘ	-6694
▁ㅈㅓㄱㅇㅚ	-6695
▁ㄷㅗㅇㅎㅑㅇ	-6696
▁ㅈㅣㄱㅌㅗㅇ	-6697
▁1889	-6698
▁JTBC	-6699
▁ㄱㅕㅇㅈㅣㄹ	-6700
▁API	-6701
ㄹㅔㄱㅅㅕㄴ	-6702
▁ㅇㅓㅁㅁㅣㄹ	-6703
▁ㅈㅓㄴㄷㅏㅁ	-6704
▁Com	-6705
▁ㅋㅚㄹㄹㅡㄴ	-6706
ㅅㅣㄴㄹㅗㄴ	-6707
▁ㅅㅓㅇㅅㅣㄹ	-6708
▁ㅈㅜㅇㅎㅏㅂ	-6709
ㄱㅗㅇㅅㅏㄴㄷㅏㅇ	-6710
ㅊㅜㅇㄹㅠ	-6711
▁ㅅㅏㄴㅅㅓㅇ	-6712
▁ㅅㅏㅁㄹㅣㅁ	-6713
ㄹㅜㅇ	-6714
ㅅㅓㅇㄱㅜ	-6715
▁ㄱㅕㅇㅎㅗ	-6716
▁ㅁㅏㄱㅎㅣ	-6717
▁ㅁㅜㄴㅈㅣㅂ	-6718
sh	-6719
ㅂㅣㄹㄹㅣ	-6720
▁ㅎㅏㄴㅁㅣ	-6721
▁ㅇㅡㅁㅈㅓㄹ	-6722
▁GB	-6723
ㄱㅡㄹㄹㅣ	-6724
▁ㅂㅏㄴㅍㅗ	-6725
▁ㅂㅕㅇㅈㅏ	-6726
▁ㅈㅜㅇㅅㅏㅇ	-6727
▁ㅊㅓㄴㄱㅜㄱ	-6728
▁ㅎㅏㅇㅁㅏㄴ	-6729
▁So	-6730
ㄴㅓㄹㅌㅣ	-6731
▁ㄱㅡㄹㄹㅏ	-6732
▁ㅁㅜㅇㅊㅣ	-6733
▁ㅇㅕㅅㅂㅗ	-6734
▁ㄱㅡㄹㄲㅗㄹ	-6735
▁ㄱㅡㅁㅅㅏㄴ	-6736
▁OST	-6737
▁For	-6738
ㅅㅜㄱㅅㅏ	-6739
▁ㅋㅔㄹㅌㅡ	-6740
▁ㅍㅓㅁㅍㅡ	-6741
ㅇㅣㄴㄷㅗㄹ	-6742
▁ㅅㅣㄹㄹㅗㄱ	-6743
ous	-6744
▁ATP	-6745
▁Col	-6746
▁MTV	-6747
▁Part	-6748
▁ㅅㅏㅂㅎㅘ	-6749
▁ㅇㅝㄹㅌㅓ	-6750
ㅂㅏㅇㄱㅜㄴ	-6751
ㅎㅏㅂㅅㅓㅇ	-6752
▁ㄱㅕㄹㅂㅕㄹ	-6753
▁ㅈㅓㅇㅎㅕㅇ	-6754
▁ㄱㅏㄹㅇㅏ	-6755
▁ㅇㅗㄹㄹㅔ	-6756
▁ㅁㅏㄴㅈㅏㅇ	-6757
▁u	-6758
ㄹㅣㄴㅌㅡ	-6759
▁ㄱㅕㄱㅊㅏ	-6760
▁ㅈㅓㄴㅁㅜ	-6761
▁ㅇㅣㄴㅊㅣㅇ	-6762
ㅐㅇㅇㅣ	-6763
▁ㄴㅡㅇㅎㅏ	-6764
▁ㅈㅗㅇㅈㅏ	-6765
▁ㅅㅏㅁㅈㅜㅇ	-6766
▁ㄷㅣㅂ	-6767
▁ㅂㅏㄴㄱㅣ	-6768
▁ㅂㅗㄹㅌㅡ	-6769
▁ㄷㅗㄱㅊㅏㅇ	-6770
▁ㅅㅓㅇㄱㅘㄱ	-6771
▁ㄱㅣㅁㅈㅜㄴ	-6772
▁ㅎㅏㄴㄹㅣㅁ	-6773
ㄹㅡㄴㅅㅡ	-6774
▁ㅂㅏㄱㅌㅔ	-6775
▁ㅊㅣㄴㅈㅗㄱ	-6776
▁ㅂㅐㄹ	-6777
▁ㅈㅜㄴㅅㅜ	-6778
▁ㅅㅣㄹㄱㅝㄴ	-6779
▁ㅇㅣㅁㅈㅓㅇ	-6780
▁ㅎㅟㅂㅆㅡㄹ	-6781
ㄱㅣㅅ	-6782
▁ㄱㅗㅇㄷㅐ	-6783
ㅌㅓㄴㅌㅡ	-6784
▁ㄷㅐㄴㅅㅓ	-6785
row	-6786
▁ㅂㅏㄷㅊㅣ	-6787
▁ㅈㅗㅇㅅㅣㄱ	-6788
ㄴㅏㄹㄹㅗ	-6789
▁ㅇㅕㅇㅇㅠ	-6790
CC	-6791
ows	-6792
▁Time	-6793
ㄱㅏㄴㄷㅏ	-6794
▁ㄷㅡㄹㅇㅕ	-6795
▁ㅇㅣㄴㄱㅏ	-6796
▁ㅅㅣㄹㅈㅓㅇ	-6797
▁ㅂㅜㄹㅌㅐ	-6798
lay	-6799
▁ㅇㅘㄴㅈㅜ	-6800
▁ㅎㅏㄴㅈㅜㅇ	-6801
▁ㅈㅏㄱㅁㅜㄹ	-6802
▁Sou	-6803
▁ㄱㅕㄱㄹㅣ	-6804
▁ㅂㅜㄹㅊㅏㅁ	-6805
▁ㅈㅓㄴㅅㅔ	-6806
ㅈㅓㅇㄱㅘㄴ	-6807
▁ㄱㅘㅇㅂㅗㄱㄱㅜㄴ	-6808
ood	-6809
OP	-6810
uc	-6811
▁ㅅㅠㄹㄹㅔ	-6812
▁at	-6813
ㄲㅏㄴ	-6814
ㅍㅇㅣ	-6815
▁ㄱㅗㅈ	-6816
▁ㄴㅜㅂ	-6817
▁ㄱㅗㅇㅇㅕㅇ	-6818
▁ㅇㅛㄱㅁㅏㅇ	-6819
ㅈㅓㄴㅊㅔ	-6820
▁ㅁㅗㄱㅎㅚ	-6821
▁ㅌㅡㄱㅎㅘ	-6822
▁ㄱㅏㅁㅊㅏㄹ	-6823
▁ㄱㅗㅇㅈㅗㄴ	-6824
▁ㅊㅣㅁㅁㅜㄱ	-6825
▁ㅎㅏㄴㅅㅣㄴ	-6826
▁ㄱㅕㅇㅇㅕㅇㅈㅏ	-6827
▁ㄱㅓㅁㅇㅡㄴㅅㅐㄱ	-6828
▁"&	-6829
▁ㄴㅕㅇ	-6830
az	-6831
ㅂㅔㄹㅅㅏㅇ	-6832
▁ㄱㅣㅁㅁㅕㅇ	-6833
▁ㅇㅘㅇㄱㅝㄴ	-6834
▁ㅇㅡㅇㄱㅡㅂ	-6835
▁EM	-6836
▁ㅊㅐㄱㅇㅣㅁㅈㅣ	-6837
ㅅㅏㄴㄷㅡ	-6838
▁ㄱㅕㅇㅂㅗㄱ	-6839
▁ㅂㅜㄹㄹㅑㅇ	-6840
▁ㄱㅓㅂ	-6841
▁ㅂㅏㅇㅊㅣ	-6842
▁ㅇㅣㄴㄱㅗㅇㅈㅣ	-6843
▁131	-6844
ㅌㅗㅇㅂㅜ	-6845
ㅁㅣㅅ	-6846
ㅅㅔㄴㅅㅡ	-6847
▁ㄹㅣㄹㄹㅔ	-6848
▁ㅅㅜㄴㅈㅗㅇ	-6849
▁ㅇㅏㅍㅈㅏㅇㅅㅓ	-6850
ㅇㅣㄹㄹㅗ	-6851
▁ㅇㅕㄴㅎㅚ	-6852
▁ㄱㅜㄹㅈㅓㄹ	-6853
▁EU	-6854
▁ㅈㅓㄴㅈㅓㄴ	-6855
▁ㅈㅏㅇㅎㅏㄱㄱㅡㅁ	-6856
▁ㅅㅡㄹㅍㅡㅁ	-6857
▁ㅇㅕㄴㅁㅏㄹ	-6858
▁ㅇㅝㄴㄱㅜㄴ	-6859
▁ㅈㅓㄹㅁㅏㅇ	-6860
▁ㅈㅗㅇㄱㅜㄴ	-6861
olog	-6862
▁ㅊㅏㄴㅅㅏ	-6863
ㅈㅓㄴㅎㅏㄱ	-6864
▁ㅇㅕㄲ	-6865
ㄹㅏㅂㅇㅔ	-6866
ㅇㅜㄹㄹㅜ	-6867
ern	-6868
▁ㅁㅔㄹㅂㅓ	-6869
▁ㅅㅏㄴㅅㅣ	-6870
▁ㅈㅣㅇㅅㅜ	-6871
▁ㅋㅡㄹㄹㅓ	-6872
▁ㅍㅗㄱㅍㅏ	-6873
▁ㅌㅡㄴ	-6874
▁Wind	-6875
▁ㅎㅏㅇㅊㅔ	-6876
ㅁㅏㄱㅅㅣㄱ	-6877
▁ㅊㅏㄴㅇㅑㅇ	-6878
80	-6879
▁ㅅㅠㅅ	-6880
ㅅㅏㅇㅊㅓㅇ	-6881
▁RS	-6882
▁ㅌㅏㄴㅈㅏ	-6883
▁ㅍㅕㅇㅈㅣ	-6884
▁ㅈㅓㅇㅇㅣㄴ	-6885
▁ㅇㅝㄴㅅㅏㄴㅈㅣ	-6886
▁ㄱㅏㄴㅊㅓㅂ	-6887
▁ㅎㅓㄹ	-6888
ㅈㅓㄴㅌㅡ	-6889
ㅋㅓㄴㄷㅐ	-6890
ㄷㅗㅇㅅㅓㅇ	-6891
▁ㄱㅏㄴㄹㅑㄱ	-6892
▁ㄱㅜㄱㄷㅏㅇ	-6893
▁ㄷㅗㅇㅈㅣㄴ	-6894
▁ㅍㅕㅇㅍㅕㅇ	-6895
▁ㅎㅕㅇㅈㅣㄹ	-6896
ann	-6897
▁ㄱㅡㄱㅇㅜ	-6898
▁FK	-6899
▁ㅇㅛㅇㅇㅢ	-6900
▁ㅍㅏㄴㅅㅗ	-6901
▁ㅅㅏㄴㄷㅜㅇ	-6902
▁ㅈㅏㅁㅈㅓㅇ	-6903
▁BC	-6904
ㅍㅓㄴ	-6905
▁ㅇㅜㄱ	-6906
▁ㄱㅓㄴㅈㅓㄴ	-6907
▁ㄴㅏㅁㅂㅏㅇ	-6908
▁ㅎㅘㅇㅅㅐㄱ	-6909
ㅂㅓㅂㄱㅘㄴ	-6910
ㄸㅣ	-6911
▁Bla	-6912
▁ㅎㅓㄴㅌㅓ	-6913
▁ㅇㅕㄴㅈㅓㅇ	-6914
▁ㅎㅜㅇ	-6915
▁ㄷㅏㅇㄱㅣ	-6916
▁ㅁㅣㄹㄹㅔ	-6917
▁ㅅㅓㅇㄷㅗㅇ	-6918
▁ㅈㅓㅇㅇㅡㄴ	-6919
▁Sch	-6920
▁ㅅㅏㄴㅅㅡ	-6921
▁ㅇㅔㄴㄷㅡ	-6922
▁ㄷㅏㄴㄱㅜㄴ	-6923
▁ㅅㅏㅇㄹㅗㄱ	-6924
▁RP	-6925
▁ㅁㅗㄹㅌㅏ	-6926
▁ㄱㅣㅁㄱㅘㅇ	-6927
40	-6928
▁ㅎㅗㅂ	-6929
▁1848	-6930
▁ㄱㅏㅁㅅㅏㅇ	-6931
▁new	-6932
ㅂㅏㅇㄱㅘㄴ	-6933
▁ㄷㅗㅇㅅㅏㄴ	-6934
ink	-6935
▁tv	-6936
▁ㄷㅓㅍㄱㅐ	-6937
▁ㅂㅗㄴㅅㅓㅇ	-6938
▁ㅇㅛㅇㅇㅐㄱ	-6939
▁ㅈㅓㅇㅂㅏㄴ	-6940
ㅎㅐㅁ	-6941
▁ㅈㅣㄴㄹㅗ	-6942
▁ㅎㅗㄴㄷㅏ	-6943
▁ㅇㅗㄴㄴㅏㄴ	-6944
▁ㄱㅕㄱㅊㅜ	-6945
▁ㅅㅏㄴㅇㅛ	-6946
▁ㅇㅑㅇㅅㅜ	-6947
ㅂㅜㅇㄷㅗㄹ	-6948
▁ㅅㅐㅇㅈㅗㄴㅈㅏ	-6949
▁NASA	-6950
▁ㄴㅏㄲㅅㅣ	-6951
▁ㄱㅘㄴㅎㅕㄴㅇㅏㄱㄷㅏㄴ	-6952
▁ㅂㅗㄴㄸㅡ	-6953
▁ㅈㅓㄱㄹㅛ	-6954
II	-6955
orn	-6956
▁Ge	-6957
▁ㅇㅕㄴㅎㅢ	-6958
ㄱㅏㄹㄹㅑㅇ	-6959
▁ㄱㅏㅁㅅㅓㅇ	-6960
▁ㄱㅘㄴㅁㅗㄱ	-6961
▁ㄱㅝㄴㅇㅕㄱ	-6962
▁Your	-6963
▁ㅇㅣㅅㄸㅏ	-6964
▁ㄴㅡㄺ	-6965
▁ㄱㅗㅇㅅㅗ	-6966
▁ㄷㅗㅇㄹㅗ	-6967
OT	-6968
▁ㅋㅏㅂ	-6969
▁ㄱㅜㄱㅇㅚ	-6970
▁ㅅㅣㄱㅅㅡ	-6971
▁ㅇㅏㄱㅂㅗ	-6972
ㅁㅏㅇㄷㅣ	-6973
▁ㅈㅓㄹㅈㅓㅇ	-6974
▁ㄱㅡㅂㅇㅕ	-6975
▁ㅁㅜㄴㄷㅏㄴ	-6976
▁ㅅㅣㄱㅇㅛㅇ	-6977
ㅃㅜ	-6978
▁end	-6979
ㄱㅗㅇㄱㅏㄴ	-6980
▁ㄱㅣㅁㅇㅣㄴ	-6981
▁ㅅㅓㄴㅁㅕㅇ	-6982
ㄷㅟ	-6983
▁1883	-6984
ㅁㅣㄴㅅㅡ	-6985
▁ㄱㅡㅁㅎㅗ	-6986
▁ㅎㅏㄹㅇㅣㄴ	-6987
▁ref	-6988
ㅇㅣㄹㄹㅓㅅ	-6989
▁ㄴㅏㅁㄱㅜㄴ	-6990
▁ㄷㅏㅇㅇㅕㄴ	-6991
▁ㅇㅏㄴㅂㅏㅇ	-6992
▁colspan	-6993
▁ㄴㅏㄱㄷㅗㅇㄱㅏㅇ	-6994
▁ㅌㅏㄴㅇㅑㄱ	-6995
▁ㄴㅗㄱㅎㅘ	-6996
▁ㄷㅗㄱㅅㅜ	-6997
▁ㅈㅓㅁㅍㅗ	-6998
ㅈㅏㄹ	-6999
ㅁㅐㄴㅌㅣㄱ	-7000
▁ㅍㅕㅇㅍㅏㄴ	-7001
▁SNS	-7002
ㄷㅗㄹㅇㅣ	-7003
▁ㄱㅓㅁㄱㅓ	-7004
▁OB	-7005
ㄷㅏㄴㅇㅟ	-7006
▁ㅅㅑㄴ	-7007
▁ㅊㅓㅇㄷㅗ	-7008
▁ㄱㅏㅇㄹㅕㄹ	-7009
▁ㅇㅑㅇㅇㅠㄱ	-7010
▁ㅇㅕㄴㄹㅣㅂ	-7011
ㄷㅡㄹㅇㅓ	-7012
▁ㄱㅘㄴㅇㅏㄱ	-7013
▁ㅇㅑㅇㅅㅣㅁ	-7014
▁ㅇㅕㅇㄷㅓㄱ	-7015
▁ㅎㅏㅁㄹㅑㅇ	-7016
ㅎㅑㅇㅇㅏㄱㄷㅏㄴ	-7017
ㄱㅏㄹㄹㅣ	-7018
ㅊㅜㅇㅈㅣ	-7019
▁ㅈㅓㄹㅂㅕㄱ	-7020
▁ㅈㅗㅇㅇㅕㅇ	-7021
ㄷㅏㄴㅎㅣ	-7022
ㅇㅏㄴㅅㅓㄴ	-7023
▁ㄷㅗㅇㅈㅓㄱ	-7024
▁ㄲㅏㅁ	-7025
▁ㅅㅓㄹㅁㅜㄴ	-7026
▁ㅈㅓㅂㅈㅗㅇ	-7027
▁ㅋㅗㄴㅅㅗㄹ	-7028
▁ㅂㅓㄴㅊㅏㅇ	-7029
▁1882	-7030
▁ㅅㅗㅇㅍㅏ	-7031
▁ㅇㅏㄴㄱㅐ	-7032
ㅌㅏㄴㅂㅜㄹ	-7033
▁ㅂㅓㅂㅇㅝㄴㅈㅏㅇ	-7034
▁ㄱㅝㄴㅎㅏ	-7035
ㅈㅓㄴㅅㅓㄴ	-7036
US	-7037
▁Or	-7038
ㄷㅣㅈㅎㅣ	-7039
▁ㄱㅏㅇㄷㅏㅇ	-7040
▁ㅎㅕㅂㅇㅓㅂ	-7041
▁ㅎㅕㅇㅂㅓㄹ	-7042
ㄹㅐㄴㅊㅏ	-7043
▁ㅂㅏㅇㄷㅐ	-7044
▁ㅇㅕㅇㅇㅝㄹ	-7045
▁ㅊㅓㄴㅅㅜ	-7046
▁ㅇㅕㅇㅇㅏㅁ	-7047
▁ㅊㅗㅇㄱㅕㄱ	-7048
▁ㅂㅜㄴㅅㅏ	-7049
▁ㅇㅘㅇㄱㅓㄴ	-7050
▁ㅇㅏㅇㄱㅗㄹㄹㅏ	-7051
▁SA	-7052
▁Day	-7053
ㅂㅣㄴㅅㅡㄴ	-7054
ㅇㅠㅇㅎㅏㅂ	-7055
▁ㄷㅏㄴㄱㅕㄹ	-7056
▁ㅋㅗㄹㄹㅓㅁ	-7057
ㅂㅗㄴㅂㅜ	-7058
▁ㅎㅏㅇㅇㅝㄴ	-7059
▁ㄸㅗㄱㄱㅏㅌㅇㅣ	-7060
RT	-7061
amp	-7062
▁ㅂㅜㄹㄱㅖ	-7063
▁ㄱㅗㄹㄱㅕㄱ	-7064
▁ㅊㅜㅇㄹㅕㄹ	-7065
ㅓㅇㅑ	-7066
▁ㅇㅔㄴㄹㅣ	-7067
ㅋㅐㄴㄷㅡㄹ	-7068
▁ㄴㅔㄹㅅㅡㄴ	-7069
▁ㅇㅕㄹㅈㅓㄴ	-7070
▁ㅈㅗㅇㅇㅑㅇ	-7071
gin	-7072
▁DF	-7073
▁ㅎㅐㄱㅇㅠㅇㅎㅏㅂ	-7074
ㅍㅜㄹㅇㅣ	-7075
ㄹㅓㄴㅌㅡ	-7076
ㄹㅔㄹㄹㅣ	-7077
▁ㄷㅏㄴㅅㅗㄱ	-7078
▁ㅇㅕㄹㄱㅏㅇ	-7079
19	-7080
gr	-7081
▁ㅇㅓㅂㅈㅏ	-7082
▁ㅇㅕㄴㅎㅘ	-7083
▁ㅈㅓㄹㄱㅏㅁ	-7084
▁ㅈㅓㅇㅇㅝㄹ	-7085
▁ㅍㅣㄹㄹㅣㅂㅅㅡ	-7086
ㄷㅡㅇㄱㅛ	-7087
▁ㅈㅗㄱㅂㅗ	-7088
▁ㅊㅓㄴㅁㅏ	-7089
OW	-7090
▁330	-7091
▁ㅎㅏㅇㄹㅗ	-7092
▁ㅈㅣㄱㅅㅗㄱ	-7093
ㄹㅐㅂ	-7094
▁ㅅㅠㄹ	-7095
ㅇㅛㅇㅅㅜ	-7096
▁ㅅㅓㄴㅂㅗㅇ	-7097
▁ㅁㅕㅇㅎㅘㄱㅎㅣ	-7098
▁by	-7099
▁4000	-7100
▁ㅇㅕㄹㅅㅣㅁㅎㅣ	-7101
▁ㄱㅘㄴㄹㅖ	-7102
▁ㅅㅏㅇㅇㅓ	-7103
▁ㅁㅜㄴㅈㅗㅇ	-7104
▁ㅋㅓㄴㅅㅓㄹ	-7105
▁GM	-7106
ㅇㅞㄴ	-7107
▁ㅂㅣㅇㅎㅏ	-7108
▁ㅈㅓㄴㅂㅗ	-7109
▁ㄱㅜㄱㅎㅏㄴ	-7110
▁ㅅㅓㅇㅅㅏㄴ	-7111
▁ㅈㅜㅇㅇㅕㅂ	-7112
ㄹㅣㄹㄹㅐㄴㄷㅡ	-7113
▁ㅂㅏㄷㄷㅡㄹ	-7114
▁ㅇㅕㅇㅊㅓㄴ	-7115
▁ㅊㅐㅇ	-7116
ㅈㅔㄹㄹㅗ	-7117
▁ㅂㅜㄱㅇㅠ	-7118
▁ㅈㅓㅇㄹㅕㅇ	-7119
▁ㅌㅗㅇㅅㅣㄴㅅㅏ	-7120
▁320	-7121
▁ㄷㅏㄴㅁㅏㄹ	-7122
▁ㅂㅏㄹㅅㅏㅇ	-7123
ㅁㅏㄴㅋㅡㅁ	-7124
▁ㅅㅗㄱㄹㅕㄱ	-7125
▁ㅊㅓㄴㅇㅏㄴㅅㅣ	-7126
ㄴㅔㄹㄹㅣ	-7127
▁ㅂㅏㄹㅈㅓㄴㄱㅣ	-7128
ㅍㅕㅇㄹㅣ	-7129
▁ㄱㅜㄴㅂㅓㄹ	-7130
ㄴㅓㅅ	-7131
▁203	-7132
▁ㄱㅡㅁㄷㅗㅇ	-7133
▁ㅇㅘㅇㄱㅜㅇ	-7134
▁1868	-7135
ㄱㅘㄴㄱㅖ	-7136
▁ㅎㅏㅇㅇㅜ	-7137
ㅇㅜㄹㅈㅡㅇ	-7138
▁ㄱㅘㄴㅅㅏㅇ	-7139
▁ㅅㅣㄴㄱㅗㄱ	-7140
▁ㅈㅗㅇㅅㅣㄴ	-7141
▁GNU	-7142
ㅁㅗㄴㅌㅡ	-7143
ㅇㅏㄴㅂㅜ	-7144
ㅇㅣㄴㅇㅓㅂ	-7145
▁ㄱㅣㅁㅇㅗㄱㄱㅠㄴ	-7146
▁Fe	-7147
ㅈㅣㄴㅇㅜ	-7148
▁ㄹㅐㅇㅋㅡ	-7149
ㅊㅓㄴㅇㅘㅇ	-7150
▁ㄷㅣㄹㄹㅓㄴ	-7151
oll	-7152
▁le	-7153
ㄷㅓㄴㅈㅣ	-7154
ㅋㅗㄴㄷㅡ	-7155
▁ㄱㅐㄱㅊㅏ	-7156
ㄱㅏㄴㄷㅐ	-7157
ㅍㅏㅇㅇㅣ	-7158
▁ㅊㅡㄱㄹㅑㅇ	-7159
▁ㅎㅏㅁㅎㅡㅇ	-7160
ㅇㅟㄱ	-7161
▁ㅅㅣㄹㅈㅡㅇ	-7162
ung	-7163
▁NP	-7164
ㅉㅜㄱ	-7165
▁ㄲㅡㅀㅇㅣ	-7166
▁ㅊㅜㅇㅁㅜ	-7167
▁ㅂㅗㅇㅇㅣㄴ	-7168
▁ㅈㅓㅇㅈㅏㄱ	-7169
▁ㄱㅣㅁㅊㅣ	-7170
▁ㄱㅏㅇㅍㅜㅇ	-7171
ㅈㅏㄱㅇㅟ	-7172
▁ㅇㅡㄴㅎㅖ	-7173
▁ㄱㅕㄹㅎㅐㄱ	-7174
▁ㅂㅓㅂㄱㅘㄴ	-7175
▁ㅈㅓㅇㅈㅓㅇ	-7176
▁ㅈㅣㄱㅎㅐㅇ	-7177
ㄷㅏㄴㅈㅣ	-7178
ㄷㅓㅁㅅㅡ	-7179
ㅇㅕㄴㅇㅢ	-7180
▁ㅂㅜㄴㄷㅏㄴ	-7181
▁ㅇㅠㄱㄱㅜㄴㅅㅏ	-7182
▁AB	-7183
ㅇㅛㅇㅊㅏ	-7184
▁ㄱㅣㅁㅅㅓㄴ	-7185
▁TBS	-7186
▁ㅌㅗㄱ	-7187
ublic	-7188
ㅎㅕㅂㅎㅚ	-7189
ㄷㅗㅇㅁㅕㄴ	-7190
ㅅㅏㅇㄱㅡㅁ	-7191
▁ㅈㅡㅇㅍㅗㄱ	-7192
▁ㅎㅓㄴㅈㅏㅇ	-7193
ㄹㅏㄴㅊㅣ	-7194
▁ㄴㅗㅇㅈㅣ	-7195
▁ㅈㅓㄴㅁㅣ	-7196
▁ㅂㅗㄱㅇㅡㅁㅈㅜ	-7197
ㅍㅗㄱㅌㅏㄴ	-7198
▁ㄷㅏㄴㅈㅓㅇ	-7199
▁ㄴㅏㅁㅎㅏ	-7200
LA	-7201
▁IV	-7202
▁Rec	-7203
▁1893	-7204
▁ㅂㅜㄹㄱㅕㅇ	-7205
▁ㅇㅣㄱㅅㅜㄱ	-7206
▁ㅎㅏㅁㄱㅕㅇㅂㅜㄱㄷㅗ	-7207
▁LED	-7208
▁ㄱㅕㄹㅅㅏ	-7209
ㄸㅏㄱ	-7210
ㅂㅣㄹㄹㅗ	-7211
▁ㄱㅡㅂㅈㅡㅇ	-7212
▁Univers	-7213
▁ㅈㅓㄴㅂㅏㄴㄱㅣ	-7214
ㅈㅜㅇㄱㅛ	-7215
▁ㄱㅣㅁㅊㅓㄴ	-7216
▁ㄴㅡㅇㄷㅗㅇ	-7217
▁ㅍㅕㄴㄱㅕㄴ	-7218
▁Comp	-7219
▁ㄱㅘㄴㅇㅜ	-7220
▁ㅎㅏㄴㅋㅠ	-7221
▁ㅇㅡㄴㅅㅣㄴ	-7222
▁ㄹㅔㅅ	-7223
▁ㅅㅓㅇㅇㅝㄴ	-7224
ㅇㅣㅁㅇㅝ	-7225
▁ㅊㅓㄱㄷㅗ	-7226
▁ㅊㅓㅇㄱㅖ	-7227
▁ㄱㅣㅁㅇㅠㄴ	-7228
▁ㅂㅓㅁㅎㅐㅇ	-7229
▁ㅂㅜㄱㄱㅜㄴ	-7230
▁ㅇㅣㄴㄱㅗㅇㅇㅟ	-7231
ㅎㅏㄱㅂㅜ	-7232
▁ㅎㅕㄴㅍㅏㄴ	-7233
▁ㅍㅔㄹㄹㅣㄱㅅㅡ	-7234
▁Mo	-7235
ㄱㅓㄹㅇㅣ	-7236
ㅁㅕㄴㄹㅏ	-7237
ㄹㅕㅇㄱㅜㄴ	-7238
▁ㅅㅣㄴㅇㅣㅂ	-7239
▁ㅊㅓㅇㅅㅗㅇ	-7240
▁Sup	-7241
▁ㅅㅏㄴㅅㅜ	-7242
▁ㅂㅏㄱㅅㅏㅇ	-7243
▁Girl	-7244
▁ㄱㅏㄱㄹㅛ	-7245
▁ㅌㅏㄹㄹㅔ	-7246
▁ㄱㅜㄱㅊㅓㄹ	-7247
les	-7248
▁Su	-7249
▁ㅇㅓㄺㅎㅣ	-7250
▁ㅍㅡㄹㄹㅏㅇㅋㅡ	-7251
▁ㄴㅑㅇ	-7252
▁Rock	-7253
oth	-7254
▁ㅈㅏㅇㄴㅕ	-7255
ㅋㅗㄹㄹㅣㅅ	-7256
▁ㄴㅗㄱㅅㅐㄱㄷㅏㅇ	-7257
AI	-7258
▁ㅂㅐㄱㅈㅏ	-7259
▁ㅅㅜㄴㅊㅏ	-7260
▁ㄱㅏㅇㅈㅣㄴ	-7261
▁ㅅㅏㅇㄱㅜㄱ	-7262
▁ㅈㅜㄴㅈㅏㅇ	-7263
▁ㅎㅏㄱㅈㅏㅇ	-7264
▁ㄱㅗㅇㄱㅜㄴㄱㅣ	-7265
▁ㅎㅐㄴ	-7266
ㅇㅣㄱㅅㅡ	-7267
▁ㄷㅗㅇㅍㅗ	-7268
▁ㅇㅜㄹㅈㅜ	-7269
▁ㅅㅓㄴㅇㅣㄴ	-7270
▁ㅊㅜㄹㅈㅏ	-7271
▁ㄱㅣㅁㅅㅡㅇ	-7272
▁ㅂㅏㄱㅅㅓㅇ	-7273
▁ㅊㅓㅇㄹㅑㅇ	-7274
▁ㅋㅏㄹㅅㅠㅁ	-7275
▁ㅅㅓㄴㅈㅣㄴㄱㅜㄱ	-7276
▁ㅋㅓㄹㄹㅔㄱㅅㅕㄴ	-7277
eth	-7278
▁IOC	-7279
▁ㄷㅓㅂ	-7280
ㅋㅏㄴㄷㅣ	-7281
▁ㅅㅣㅁㅍㅗ	-7282
▁ㅇㅣㄴㅋㅗ	-7283
▁ㅂㅐㄱㅇㅏㄱ	-7284
▁ㅎㅘㅇㅅㅏㄴ	-7285
▁IR	-7286
▁ㅅㅏㄴㅌㅗ	-7287
▁ㅇㅘㄴㄷㅗ	-7288
▁ㅈㅓㄴㄱㅛ	-7289
▁ar	-7290
ㅃㅏㅇ	-7291
▁from	-7292
ㅅㅏㄹㅅㅏㅇ	-7293
▁ㅅㅏㄴㅊㅓㅇ	-7294
▁ㅈㅏㅇㅂㅕㅇ	-7295
▁ㄷㅏㅇㄴㅛ	-7296
▁ㅈㅏㅇㅎㅡㅇ	-7297
▁ㅇㅏㅂㄹㅗㄱ	-7298
ㅁㅏㄹㄹㅗ	-7299
▁ㅂㅏㄺㅎㅕ	-7300
▁ㅂㅗㄱㅅㅣㅇ	-7301
▁ㅅㅓㅇㅇㅏㄱ	-7302
▁ㅈㅓㄴㅎㅏㄱ	-7303
▁ㅈㅜㅇㅇㅏㅇㅇㅡㄴㅎㅐㅇ	-7304
ㄱㅡㅁㅅㅗ	-7305
ㅌㅣㄹㄹㅓ	-7306
▁ㄷㅏㅁㅂㅗ	-7307
▁ㅇㅝㄹㅌㅡ	-7308
▁ㄱㅗㅇㅇㅑㅇ	-7309
▁ㅎㅕㅇㅇㅛㅇ	-7310
▁ㅁㅓㅅㅈㅣ	-7311
▁ㅁㅜㄴㅁㅜ	-7312
▁ㅇㅑㅇㄷㅐ	-7313
▁ㅇㅟㅅㅂㅜ	-7314
▁ㅇㅛㅇㅍㅜㅁ	-7315
▁ㅇㅜㄹㄹㅡㅇ	-7316
▁ㄱㅏㄴㅅㅣㄴㅎㅣ	-7317
▁ㅈㅓㄴㅅㅜ	-7318
▁280	-7319
ㄴㅓㄹㅅㅡ	-7320
ㅅㅓㄴㄷㅗ	-7321
▁ㄲㅡㄶㄱㅣ	-7322
▁ㅇㅗㄴㅎㅘ	-7323
▁ㅌㅡㄱㄱㅣ	-7324
ㅅㅣㄹㅈㅓㅁ	-7325
ㅈㅣㄱㄱㅕㅇ	-7326
▁ㄴㅔㄱㅅㅔㄴ	-7327
▁ㅌㅗㅁㅅㅡㄴ	-7328
▁co	-7329
▁wh	-7330
ㅂㅔㄹㄹㅣ	-7331
▁ㅈㅏㅇㄷㅓㄱ	-7332
▁230	-7333
ㄹㅜㄱㅅㅡ	-7334
ㅅㅔㄹㄹㅓ	-7335
▁ㅈㅓㅁㄱㅓ	-7336
▁ㅈㅓㅇㅈㅐ	-7337
▁ㅍㅗㄹㄹㅏ	-7338
▁ㄷㅗㅇㅈㅗㅇ	-7339
▁ㅂㅕㄴㅈㅗㅇ	-7340
▁ㄱㅘㅁ	-7341
ㅇㅡㄹㅂㅓ	-7342
ㄱㅜㄱㅈㅓㄱ	-7343
▁ㅈㅜㅇㄱㅗㅇㄱㅜㄴ	-7344
▁CG	-7345
▁Sw	-7346
▁1892	-7347
ㅌㅐㄴㄹㅣ	-7348
▁ㅎㅑㅇㄱㅣ	-7349
ron	-7350
▁ㅍㅔㅅ	-7351
ㅅㅓㄱㅎㅏㄱ	-7352
▁ㅈㅏㅁㄲㅏㄴ	-7353
EST	-7354
ㅇㅏㄴㄱㅏ	-7355
ㅈㅏㅇㅅㅏ	-7356
▁ㄱㅣㄴㅋㅣ	-7357
ㄱㅘㅇㅅㅓㅇ	-7358
ㅌㅗㅇㅅㅏ	-7359
▁ㅋㅏㅁㅍㅏ	-7360
▁ㅊㅜㄹㄷㅗㅇ	-7361
▁1888	-7362
ㅇㅏㅁㄹㅣ	-7363
▁ㄱㅡㄴㅇㅟ	-7364
aw	-7365
▁ㄴㅡㅍ	-7366
▁ㅇㅣㅁㄱㅖ	-7367
▁ㅈㅜㅇㄱㅗ	-7368
▁ㅋㅔㄴㅌㅡ	-7369
▁ㄴㅗㅇㅊㅜㄱ	-7370
▁ㅇㅣㅂㅎㅓㄴ	-7371
AE	-7372
▁SH	-7373
▁ㅇㅐㄴㅅㅓ	-7374
▁ㅎㅡㅂㅅㅏ	-7375
▁ㄱㅗㅇㅂㅓㅂ	-7376
▁ㅎㅏㄴㅁㅜㄴ	-7377
▁ㅎㅏㅂㅊㅓㄴ	-7378
▁ㅂㅗㄹㅌㅣ	-7379
▁ㅅㅣㅁㅂㅜ	-7380
▁ㅆㅗㄷㅇㅏ	-7381
ㄷㅗㄱㄹㅣㅂ	-7382
▁ㅇㅣㄹㄱㅏㄱ	-7383
▁ㄱㅡㅂㅅㅗㄱㅎㅣ	-7384
▁ㄹㅣㅁㅍㅡ	-7385
▁ㅇㅣㄴㅈㅔ	-7386
ㅋㅡㄹㄹㅗ	-7387
▁ㅁㅕㅇㅂㅜ	-7388
▁ㅈㅓㄹㅈㅔ	-7389
ㅎㅗㅇㅅㅐㄱ	-7390
▁ㄱㅗㅇㅇㅏㄴ	-7391
▁ㅅㅡㅂㄱㅘㄴ	-7392
▁ㅇㅕㄴㅈㅏㅇㅈㅓㄴ	-7393
▁ㄱㅡㅁㄴㅏ	-7394
▁ㅅㅓㄴㅇㅑㅇ	-7395
▁ㅇㅕㅇㅇㅝㄴㅎㅣ	-7396
▁ㅇㅣㄴㅍㅡㄹㄹㅔ	-7397
▁ㅇㅔㄹㄹㅏ	-7398
ㄱㅗㅇㄱㅜㄱ	-7399
▁ㅊㅣㅇㅅㅗㅇ	-7400
▁SV	-7401
▁USB	-7402
▁ㄱㅡㅁㅈㅓㄴ	-7403
▁KB	-7404
▁ㅍㅔㅇ	-7405
ㄹㅡㄹㄹㅔ	-7406
▁ㄱㅕㅇㅁㅜ	-7407
▁ㅈㅣㄱㄱㅖ	-7408
ㅎㅡㄺ	-7409
▁ㅇㅖㄹ	-7410
▁ㄱㅗㅇㅅㅣ	-7411
ㄷㅗㅇㅈㅓㄴ	-7412
▁ㅅㅡㅇㄷㅏㄴ	-7413
ㄴㅜㄹ	-7414
ㅍㅗㅇ	-7415
ㄷㅏㄹㅁㅏ	-7416
mer	-7417
▁ㅇㅏㄴㅁㅜ	-7418
ㄹㄹㅣㄴㅈㅓ	-7419
▁ㄱㅕㅇㅇㅕㅇㅎㅏㄱ	-7420
▁Car	-7421
▁ㄱㅏㄴㅈㅣㄱ	-7422
▁ㅅㅏㅁㄱㅏㄱㅈㅜ	-7423
ㅅㄷㅐ	-7424
land	-7425
▁ㅅㅓㅇㅁㅐ	-7426
▁ㅍㅓㄴㄷㅡ	-7427
▁ㅂㅏㄹㄷㅗㅇ	-7428
ble	-7429
ㄱㅡㅁㅂㅜ	-7430
▁ㅁㅣㄹㅇㅓ	-7431
▁ㅊㅔㄹㄹㅗ	-7432
▁270	-7433
▁Gre	-7434
▁ㄴㅗㅁ	-7435
▁ㅌㅗㅇㅍㅖ	-7436
▁ㅅㅜㄴㅇㅑㅇㅎㅏㅁ	-7437
▁ㅉㅣㅈ	-7438
ition	-7439
▁Open	-7440
ㄷㅗㅇㄹㅣ	-7441
▁ㅂㅏㄹㅈㅏ	-7442
▁ㅇㅕㅁㄹㅕ	-7443
▁ㅈㅣㅁㅂㅏ	-7444
▁ㅌㅗㅂㄴㅣ	-7445
▁ㅍㅔㄹㅌㅡ	-7446
ㅂㅜㄴㅇㅕㄹ	-7447
▁Do	-7448
ㄱㅘㅇㅅㅜ	-7449
▁ㅂㅏㄹㅎㅏ	-7450
▁ㅈㅏㄴㅇㅣㄴ	-7451
▁ㄱㅗㅇㅂㅏㅇㅈㅓㄴ	-7452
ㄷㅣㄹ	-7453
ㅇㅘㅇㅎㅜ	-7454
▁ㅇㅐㄴㄷㅣ	-7455
▁ㅊㅣㅁㄹㅖ	-7456
▁ㅂㅜㅌㅈㅏㅂ	-7457
▁ㅇㅏㄱㄱㅗㄱ	-7458
▁ㅍㅕㄴㅎㅑㅇ	-7459
ㄴㅛㅇ	-7460
▁ㄹㅔㅂ	-7461
ㅇㅣㄴㅊㅡ	-7462
▁ㄷㅏㄴㄱㅓ	-7463
▁ㅅㅗㄴㄴㅕ	-7464
▁ㅊㅜㄱㅅㅓㅇ	-7465
ㄷㅏㅇㄱㅣ	-7466
▁RT	-7467
▁Wii	-7468
ㅇㅝㄴㅅㅏ	-7469
ah	-7470
▁ㄷㅗㅇㅊㅏ	-7471
▁ㅈㅣㄱㅅㅏ	-7472
▁ㅎㅐㅇㅈㅓㅇㄷㅗㅇ	-7473
▁if	-7474
▁ㅍㅜㅇㅅㅡㅂ	-7475
DA	-7476
ㅅㅞ	-7477
▁ㅇㅑㅇㅈㅗ	-7478
▁ㅋㅗㄴㄹㅏ	-7479
▁ㅌㅏㄹㅊㅟ	-7480
▁ㅎㅕㅇㅍㅕㄴ	-7481
▁ㅋㅓㄴㅌㅔㄴㅊㅡ	-7482
▁AG	-7483
▁260	-7484
▁1876	-7485
ㅌㅐㄴㄷㅡ	-7486
▁ㅎㅕㄴㄱㅘ	-7487
▁ㅊㅜㄹㅎㅕㄹ	-7488
▁ML	-7489
ㄷㅣㅇㅅㅡ	-7490
▁ㅅㅓㅇㄱㅣ	-7491
▁ㄱㅏㄴㅎㅗㄱ	-7492
ㄲㅓㅅ	-7493
▁ㄱㅕㄱㅎㅏ	-7494
▁ㄱㅜㄴㄷㅔ	-7495
▁ㅅㅐㅇㅁㅗ	-7496
▁ㄴㅏㄱㅇㅑㅇ	-7497
▁ㅅㅣㄴㅈㅣㄴ	-7498
▁TC	-7499
▁it	-7500
ㅇㅗㄴㅅㅡ	-7501
▁ㅅㅔㄴㄷㅏ	-7502
▁ㅁㅏㅇㅊㅣ	-7503
▁ㅂㅓㅁㅎㅏ	-7504
▁ㄱㅗㅂㅅㅔㅁ	-7505
▁ㄱㅜㄴㄱㅘㄴ	-7506
▁ㅂㅏㄴㄷㅗㅇ	-7507
▁ㅈㅡㅇㅇㅗ	-7508
▁ㅎㅗㅇㅅㅓㅇ	-7509
ㅍㅔㅅ	-7510
▁ㅇㅘㄴㄱㅕㄹ	-7511
▁ㅇㅝㄴㅎㅘㄹ	-7512
▁ㅈㅣㅂㅊㅏㄱ	-7513
▁ㅊㅓㄴㅊㅓㄴ	-7514
ㅇㅕㄹㅊㅏ	-7515
▁ㅇㅑㅇㅂㅗ	-7516
▁Up	-7517
ject	-7518
ㅇㅣㄴㄱㅜ	-7519
ㅈㅡㄹㄹㅣ	-7520
▁ㄸㅏㄹㄹㅣ	-7521
▁ㅂㅓㄹㄹㅔ	-7522
▁ㅊㅛ	-7523
▁ㄱㅔㅅ	-7524
▁Dream	-7525
▁ㅂㅗㄱㅈㅗㅇ	-7526
▁ㅈㅓㄴㄱㅝㄴ	-7527
▁ㅈㅓㅁㄱㅓㅁ	-7528
▁ㅍㅕㅇㅌㅏㄴ	-7529
▁ㄷㅗㄱㄹㅣㅂㄱㅜㄴ	-7530
ult	-7531
▁1864	-7532
▁1886	-7533
▁Life	-7534
ㄴㅏㄴㄷㅔ	-7535
▁ㄱㅘㅇㅇㅑㅇ	-7536
▁ㅊㅓㄴㅊㅓㄴㅎㅣ	-7537
▁ㅍㅕㅇㅇㅏㄴㄷㅗ	-7538
▁ㅂㅏㄹㄱㅏ	-7539
TE	-7540
ION	-7541
▁Ed	-7542
ㅍㅣㄹㄹㅔ	-7543
▁ㅇㅝㄴㅇㅠ	-7544
▁ㅇㅏㄹㅍㅗㄴ	-7545
▁ㅇㅓㄹㄹㅜㄱ	-7546
▁ㅂㅐㄱㅇㅏㄱㄱㅣ	-7547
▁HTML	-7548
▁ㄷㅓㅇㅇㅓ	-7549
▁ㅈㅏㄹㄹㅣ	-7550
▁ㅇㅣㄹㅈㅣㄴ	-7551
▁1866	-7552
▁ㅂㅗㄴㅊㅔ	-7553
▁ㄹㅗㅁㅂㅏ	-7554
▁ㅅㅏㅁㅊㅓㄱ	-7555
▁ㅈㅣㅁㅅㅡㅇ	-7556
▁ㄷㅗㅇㅁㅐㅇㄱㅜㄱ	-7557
▁ㅅㅏㅇㄱㅘㄴㅇㅓㅄㅇㅣ	-7558
orm	-7559
▁ㅎㅘㄹㄷㅗㅇㄱㅏ	-7560
▁ㄱㅜㄱㅈㅓㅇㅇㅝㄴ	-7561
▁ㄱㅡㄹㄹㅓ	-7562
▁ㅇㅣㄱㅅㅏㄴ	-7563
▁BL	-7564
ㅁㅜㅅ	-7565
▁ㅆㅣㅅ	-7566
▁ㅅㅡㅇㅎㅏ	-7567
▁ㄱㅗㄱㅁㅕㄴ	-7568
▁ㄱㅗㅇㅇㅕㄴㅈㅏㅇ	-7569
▁ㄴㅏㅁㅂㅔ	-7570
▁ㅅㅜㄴㄹㅖ	-7571
▁ㅅㅏㅇㅂㅏㄴ	-7572
▁1887	-7573
ㅍㅏㄴㄱㅘㄴ	-7574
▁ㄷㅗㅇㅊㅏㅇ	-7575
▁ㅅㅣㄹㄱㅏㄱ	-7576
▁ㅁㅣㄴㅂㅕㅇㄷㅐ	-7577
QL	-7578
ㅉㅡ	-7579
▁ㄱㅐㅅ	-7580
ㄸㅓㄱ	-7581
ㅊㅡㅁ	-7582
ational	-7583
▁ㄱㅏㅇㅅㅓㅇ	-7584
▁ㅁㅣㄴㅁㅜㄹ	-7585
▁ㅎㅏㄴㅂㅓㄴ	-7586
▁an	-7587
▁te	-7588
▁ㄹㅐㅁㅍㅡ	-7589
ㅍㅡㄹㄹㅣㄴ	-7590
▁ㅁㅗㅁㄷㅗㄹ	-7591
▁ㅂㅓㄴㄱㅏㄹ	-7592
▁ㅅㅐㅇㅅㅓㅇㅁㅜㄹ	-7593
▁ㅋㅐㅅ	-7594
ㄷㅜㄹㄱㅣ	-7595
ㅇㅣㄴㅂㅗ	-7596
▁ㄱㅕㄴㄱㅗ	-7597
▁ㅂㅜㅇㅇㅓ	-7598
▁ㅊㅏㅁㅅㅜ	-7599
▁ㅈㅜㅇㄱㅐ	-7600
▁ㄱㅣㄴㅁㅣㄹ	-7601
▁ㄷㅏㅇㅈㅣㄴ	-7602
▁ㄷㅐㅅㄱㅡㄹ	-7603
▁ㅁㅜㄹㄱㅕㄹ	-7604
▁ㅈㅏㄱㅈㅜㅇ	-7605
▁iOS	-7606
ㄹㅣㅁㅅㅏ	-7607
▁ㅅㅗㄹㄹㅏ	-7608
▁ㅈㅏㄴㄷㅣ	-7609
▁ㄱㅏㅇㅎㅐㅇ	-7610
▁ㅂㅏㅇㄱㅗㅇ	-7611
▁ㅅㅏㅇㅈㅓㅇ	-7612
▁ㅅㅣㅁㅁㅜㄴ	-7613
▁ㅁㅣㄴㅇㅕㅇㅎㅘ	-7614
ics	-7615
▁XP	-7616
▁ㅋㅐㄹ	-7617
▁1861	-7618
ㄱㅡㅂㅅㅣ	-7619
ㅅㅏㅇㅅㅏ	-7620
▁ㅁㅜㄹㄹㅠ	-7621
▁ㅇㅏㅁㅁㅗ	-7622
▁ㅇㅣㄱㅁㅕㅇ	-7623
▁ㄱㅣㅅㅌㅓㄹ	-7624
▁ㅅㅣㅁㅅㅏㅇ	-7625
▁ㅈㅏㅇㅈㅓㄴ	-7626
▁ㅃㅣ	-7627
ㅍㅓㄹㄹㅗ	-7628
▁ㄱㅘㄴㄴㅐ	-7629
▁ㅁㅗㄹㄷㅗ	-7630
▁ㅁㅗㄹㄹㅕ	-7631
▁ㅈㅏㅇㄹㅐ	-7632
▁ㅊㅓㄴㅈㅣ	-7633
▁ㅂㅏㄹㅌㅗㅂ	-7634
ode	-7635
▁ㅋㅣㅅ	-7636
▁ㅂㅗㅇㅇㅜ	-7637
ton	-7638
▁1850	-7639
▁ㅌㅡㄱㅅㅏ	-7640
ㄱㅏㄴㅇㅝㄴ	-7641
ㅋㅗㄴㅅㅣㄴ	-7642
▁ret	-7643
▁ㅍㅣㅅ	-7644
▁1881	-7645
ㅅㅏㄴㄷㅐ	-7646
▁ㅈㅓㄴㄹㅏㄱ	-7647
▁en	-7648
ㄷㅣㄱㅌㅗ	-7649
▁ㄱㅏㅇㅅㅔ	-7650
▁ㄴㅏㅂㅂㅜ	-7651
▁ㄷㅗㄷㅂㅗ	-7652
▁ㅇㅗㅇㅈㅜ	-7653
▁ㅈㅡㅇㅅㅔ	-7654
▁ㅇㅑㅇㄱㅜㅇ	-7655
▁ㅎㅡㅇㅂㅜㄴ	-7656
ㅅㅣㄴㄹㅛ	-7657
▁ㅅㅏㄴㅁㅏ	-7658
ru	-7659
▁ㅂㅗㄱㅇㅟ	-7660
▁ㄱㅐㄱㅇㅝㄴ	-7661
▁ㄱㅘㄴㅎㅕㄴㅇㅏㄱ	-7662
ㅃㅡㅁ	-7663
stem	-7664
▁Tour	-7665
ㄴㅗㄹㄹㅗ	-7666
▁ㅂㅏㄱㅈㅏ	-7667
▁ㅍㅣㄹㅎㅏ	-7668
ㅇㅑㄴㅅㅐㄱ	-7669
▁ㅂㅐㄱㅇㅓㅂ	-7670
▁ㅅㅡㅇㅅㅏㅇ	-7671
▁ㅇㅜㅅㅇㅡㅁ	-7672
▁"-	-7673
▁ㅁㅔㄹㄹㅏ	-7674
▁ㅇㅘㄴㅂㅣ	-7675
▁ㅎㅕㄴㅁㅣ	-7676
▁ㅈㅏㅁㅅㅣㄹ	-7677
▁ㅊㅓㅇㄴㅕㄴㅎㅚ	-7678
EP	-7679
▁ㄱㅏㅍ	-7680
▁ㅇㅏㅂㅅㅜ	-7681
▁ㅎㅕㄴㅁㅜ	-7682
▁ㅂㅜㄹㅂㅜㄴ	-7683
UC	-7684
ave	-7685
▁Music	-7686
▁ㅇㅛㅇㅅㅏ	-7687
ㄷㅓㄱㅇㅘㅇ	-7688
▁ㅎㅐㅇㅂㅏㅇ	-7689
▁ㅈㅏㅇㄴㅏㄴㄱㅏㅁ	-7690
▁ㅁㅕㄴㅁㅗ	-7691
▁ㄴㅣㄱㅅㅡㄴ	-7692
▁ㄷㅏㄴㄱㅜㄱ	-7693
▁ㅂㅜㄱㅂㅓㄹ	-7694
▁ㅂㅏㄷㅊㅣㅁㄷㅗㄹ	-7695
▁MA	-7696
ㅅㅗㄹㄹㅣ	-7697
▁ㅇㅐㅇㅋㅓ	-7698
▁ㅇㅗㄴㄷㅐ	-7699
▁ㅅㅗㅇㅎㅘㄴ	-7700
▁ㅈㅜㅇㄹㅏㅇ	-7701
▁ㅍㅣㄱㅅㅔㄹ	-7702
▁NS	-7703
▁ㄱㅕㄱㄹㅕ	-7704
▁ㄱㅣㅁㅎㅢ	-7705
▁ㅁㅣㄹㄱㅏ	-7706
▁ㅇㅘㅇㄱㅘㄴ	-7707
▁ㅌㅏㅁㅈㅓㅇ	-7708
▁ㅍㅏㄴㄱㅘㄴ	-7709
▁ㅎㅘㄴㄱㅘㄴ	-7710
ㄱㅣㄴ	-7711
ㅊㅜㅁ	-7712
▁750	-7713
ㅅㅗㄹㄹㅣㄴ	-7714
ㅎㅜㄴㅈㅏㅇ	-7715
▁ㅅㅜㄴㅎㅏㅇ	-7716
▁ㅇㅝㄴㅅㅏㅇ	-7717
▁ㄲㅗㅈ	-7718
▁ㅂㅏㄱㅅㅜ	-7719
▁ㅋㅔㄴㅌㅓ	-7720
▁ㅅㅡㄹㄹㅐㅁ	-7721
ㅈㅣㄴㄱㅜ	-7722
▁ㄱㅘㅇㅇㅓㅂ	-7723
▁ㅂㅏㄹㅅㅏㄴ	-7724
▁ㅇㅑㅇㅎㅕㄴ	-7725
▁ㅊㅓㄹㄱㅏㅇ	-7726
▁ㅊㅓㄹㅈㅗㅇ	-7727
▁ㅍㅜㄱ	-7728
▁1872	-7729
▁ㄱㅕㅇㄷㅗ	-7730
▁ㅅㅏㅇㅍㅏ	-7731
▁ㅅㅣㅇㅋㅡ	-7732
▁ㅇㅡㅁㅈㅜ	-7733
ㅅㅓㅇㄱㅕㅇ	-7734
▁ㄱㅘㅇㅅㅓㄴ	-7735
▁ㅁㅏㄹㄷㅏㄴ	-7736
▁ㅂㅏㄹㅁㅗㄱ	-7737
▁ㅂㅏㄱㅇㅕㅇㅎㅛ	-7738
▁ㅎㅗㅁㄱㅕㅇㄱㅣ	-7739
ㅁㅗㅁ	-7740
▁ㄴㅣㄴㅈㅏ	-7741
▁ㅇㅖㄹㄹㅗ	-7742
▁ㄴㅣㅅㅅㅏㄴ	-7743
▁ㅅㅡㅂㄷㅡㄱ	-7744
▁section	-7745
▁ㅌㅏㅁㅎㅓㅁㄱㅏ	-7746
▁ㅍㅏㄹㅈㅏㄱㅈㅣ	-7747
ier	-7748
ㅁㅟㄴ	-7749
ㅇㅣㅁㅈㅏ	-7750
▁ㅈㅏㅇㅆㅜ	-7751
ㅈㅣㄴㅈㅗㄱ	-7752
ㅋㅡㄹㄹㅓㅂ	-7753
▁ㄴㅏㅁㅅㅗㅇ	-7754
▁ㅂㅗㅇㅎㅘㅇ	-7755
▁ㅎㅡㄱㅂㅐㄱ	-7756
▁DR	-7757
▁MM	-7758
ㅋㅓㄹㄹㅣ	-7759
▁ㄱㅜㄷㅎㅣ	-7760
▁ㅂㅏㄹㅇㅢ	-7761
▁ㅅㅏㄴㄱㅣ	-7762
▁ㅎㅏㅇㅇㅏ	-7763
70	-7764
▁ㄱㅜㄻ	-7765
ㅈㅓㅇㄱㅜ	-7766
▁ㄱㅕㅇㅁㅏ	-7767
▁ㄷㅗㄹㄱㅗ	-7768
▁ㄹㅏㄴㅅㅡ	-7769
▁ㅋㅗㄴㅌㅣ	-7770
▁ㄱㅕㅇㄹㅑㅇ	-7771
▁ㄷㅡㅇㄷㅏㄴ	-7772
▁ㅁㅏㄱㅍㅏㄴ	-7773
▁ㅅㅏㄴㅁㅜㄹ	-7774
▁ㅌㅏㄴㅅㅏㄴ	-7775
▁Sm	-7776
ㅎㅏㅇㅅㅣ	-7777
▁ㄱㅡㄴㄹㅐ	-7778
ㅈㅓㄹㄷㅏㄴ	-7779
ool	-7780
▁1830	-7781
▁1863	-7782
▁ㅅㅏㄱㅅㅡ	-7783
▁ㅅㅐㅇㅎㅘ	-7784
ㅁㅠㄹㄹㅓ	-7785
▁Night	-7786
▁ㄷㅏㄴㅈㅗ	-7787
▁ㅈㅓㄴㄹㅣ	-7788
▁ㅊㅏㄱㅎㅏ	-7789
▁ㅋㅡㄹㄹㅣㄱ	-7790
▁ㅇㅡㅁㅇㅏㄱㅇㅝㄴ	-7791
NG	-7792
▁--	-7793
ㅇㅠㄱㅎㅚ	-7794
ㅈㅓㄹㄷㅗ	-7795
▁ㄱㅘㅇㅈㅏ	-7796
▁ㅂㅏㄴㅈㅜㄱ	-7797
▁AL	-7798
ㅅㅓㄴㅅㅗ	-7799
▁ㅈㅓㅂㅎㅏㅂ	-7800
▁ㄷㅏㄴㅈㅏ	-7801
▁ㅂㅏㄴㄷㅏ	-7802
ㄱㅕㄹㅊㅐㄱ	-7803
▁ㄱㅗㅇㅍㅏㄴ	-7804
▁ㅍㅕㄴㅇㅏㄴ	-7805
▁ㄱㅕㅇㅂㅗㄱㄱㅜㅇ	-7806
ise	-7807
▁-&	-7808
▁705	-7809
▁ㅇㅡㄹㅅㅏ	-7810
ㅍㅡㄹㄹㅔㄱㅅㅡ	-7811
▁ㅉㅓㄹ	-7812
▁ㅂㅓㅁㅇㅓ	-7813
▁ㅈㅣㄱㄱㅛ	-7814
▁ㄱㅘㄴㄹㅕㄴㅈㅏ	-7815
▁ㅇㅏㅂㄹㅗㄱㄱㅏㅇ	-7816
▁ㅈㅏㄱㅍㅜㅁㅅㅏㅇ	-7817
▁ㄱㅘㅇㅂㅐ	-7818
▁ㅁㅏㅇㅎㅏ	-7819
▁ㅇㅏㄴㅅㅏㄴㅅㅣ	-7820
ㄴㅗㄱ	-7821
ㄴㅡㅈ	-7822
▁ㅅㅣㅁㅅㅗ	-7823
▁ㅂㅏㄴㅈㅓㅁ	-7824
▁qu	-7825
▁ㅂㅏㄴㅈㅜ	-7826
▁ㅇㅔㄹㅂㅣ	-7827
DS	-7828
▁Don	-7829
▁1865	-7830
▁ㄷㅔㄹㄹㅣ	-7831
▁ㅈㅗㅇㅁㅛ	-7832
▁ㅊㅣㅁㄷㅐ	-7833
▁ㅂㅗㄱㅇㅕㄱ	-7834
▁Ab	-7835
ㅅㅣㄴㄱㅣ	-7836
ㄲㅜㅁㅊㅣ	-7837
▁ㄷㅔㄴㅅㅛ	-7838
▁ㄷㅗㅇㅈㅏ	-7839
▁ㅎㅕㄴㄷㅗ	-7840
▁ㄱㅘㄴㅇㅛㅇ	-7841
ai	-7842
▁q	-7843
▁AI	-7844
ower	-7845
▁ㅋㅗㅂ	-7846
ㅇㅝㄴㅈㅣ	-7847
ㄱㅗㄱㅁㅕㄴ	-7848
ㅅㅓㅇㅈㅣㄹ	-7849
▁ㅂㅜㄹㅂㅜㄴㅁㅕㅇ	-7850
ㅎㅞ	-7851
▁ㅁㅡㄹ	-7852
▁1891	-7853
▁ㅁㅏㅈㅊㅜㅁ	-7854
▁ㅂㅗㄱㅈㅣㄱ	-7855
▁ㅎㅗㄴㅎㅕㄹ	-7856
▁ㄷㅗㅇㅁㅐㅇㄱㅜㄴ	-7857
▁ㄱㅜㄱㅎㅗ	-7858
▁ㅅㅡㄹㅍㅡ	-7859
▁ㅇㅑㄱㅈㅓㅁ	-7860
▁ㅎㅏㅂㅊㅏㅇㄷㅏㄴ	-7861
▁ㅅㅑㅂ	-7862
▁Good	-7863
ㅅㅔㄴㅌㅓ	-7864
▁ㄱㅕㅇㄱㅓㄴ	-7865
▁ㅁㅗㄱㅇㅛㄱ	-7866
▁ㅎㅐㅅㅂㅣㅊ	-7867
▁802	-7868
▁ㅎㅘㄹㅈㅏ	-7869
▁ㄱㅘㄹㅎㅗ	-7870
▁ㅅㅣㄴㄷㅐ	-7871
▁ㅁㅜㄴㅈㅓㅇ	-7872
ㅁㅂㅏ	-7873
ㄹㅏㅇㄷㅡ	-7874
ㅎㅚㄱㅅㅏ	-7875
ㅊㅣㄴㅇㅘㅇ	-7876
▁ㅂㅕㄹㅈㅏㅇ	-7877
▁ㅇㅑㅇㅁㅕㄴ	-7878
▁ㅈㅓㅇㅈㅣㄴ	-7879
ㄴㅏㄴㅌㅡ	-7880
▁ㅎㅗㅁㅈㅡ	-7881
▁ㅊㅗㅅㅂㅜㄹ	-7882
▁ㅎㅕㅂㄷㅗㅇㅈㅗ	-7883
▁ㅅㅡㅇㅈㅓㅇㅇㅝㄴ	-7884
ㅌㅓㅂ	-7885
▁1873	-7886
▁Black	-7887
▁ㅁㅏㅇㄱㅏ	-7888
▁ㅅㅐㅇㄷㅗ	-7889
▁ㅅㅏㅇㅎㅐㅇ	-7890
▁Qu	-7891
▁ㄴㅏㅂㅈㅏㄱ	-7892
▁ㅂㅓㅂㅈㅓㄴ	-7893
▁ㄷㅗㅅ	-7894
ㅅㅏㅇㅇㅓ	-7895
▁ㄱㅓㄹㅍㅡ	-7896
▁ㄱㅜㄱㅎㅘ	-7897
▁ㅎㅣㄹㅂㅔ	-7898
ㄱㅘㄴㅅㅣㄱ	-7899
ㄹㄹㅣㄴㄷㅓ	-7900
▁ㅅㅏㄴㅊㅐㄱ	-7901
▁ㅇㅣㅂㅅㅣ	-7902
▁ㅂㅕㄴㄱㅘㅇㅅㅓㅇ	-7903
▁ㄱㅡㅁㄱㅗ	-7904
▁ㅁㅐㄱㅇㅏ	-7905
▁ㅈㅓㅇㅇㅖ	-7906
▁AU	-7907
▁550	-7908
▁Can	-7909
ㅅㅓㄴㅇㅘㅇㅈㅗ	-7910
▁ㄱㅏㅁㅇㅕㅁㅈㅡㅇ	-7911
hem	-7912
ㅎㅡㅁ	-7913
▁ㅅㅑㅁ	-7914
▁ㅇㅗㄴㄷㅜ	-7915
▁ㅇㅔㄹㄹㅓㄴ	-7916
▁ㅇㅕㄴㅊㅜㄹㄱㅏ	-7917
ky	-7918
▁NAD	-7919
ㅇㅕㅇㅅㅏ	-7920
▁ㄱㅜㄴㅈㅏ	-7921
▁ㅇㅗㄱㅅㅣ	-7922
▁ㅎㅕㄹㅇㅏㅂ	-7923
▁ㄲㅞ	-7924
▁ㅂㅕㅇㄱㅘ	-7925
▁ㅇㅛㅇㅅㅏㄴㄱㅜ	-7926
ㅋㅣㄴㅌㅗ	-7927
▁ㄱㅏㄱㅈㅜ	-7928
▁ㅍㅕㄴㅎㅏ	-7929
ta	-7930
ㅅㅐㅁ	-7931
ings	-7932
▁ㅅㅗㄹㄹㅣ	-7933
▁ㅌㅗㅇㄷㅗ	-7934
▁ㅇㅏㄹㅁㅏㅈ	-7935
ㄷㅔㄴㅂㅜ	-7936
ㄹㅡㄴㅂㅔ	-7937
ㅈㅓㅇㄱㅣ	-7938
▁ㅇㅕㅁㅎㅘ	-7939
ㄷㅗㅇㅁㅐㅇ	-7940
▁ㅂㅜㄱㄷㅐ	-7941
▁ㅉㅣㄱㅎㅣ	-7942
ㅂㅜㄱㅁㅕㄴ	-7943
ㅇㅕㅇㅈㅏㅇ	-7944
▁ㄴㅏㅇㅁㅏㄴㅈㅜ	-7945
▁ㅅㅏㅁㄱㅜㄱㅇㅠ	-7946
ㅌㅜㅇ	-7947
ㅈㅏㅇㅈㅗ	-7948
▁ㄴㅔㄱㅅㅡ	-7949
▁ㅅㅓㅇㄱㅏ	-7950
▁ㅇㅘㅇㅅㅓㅇ	-7951
▁ㅊㅓㅇㅁㅜㄴ	-7952
▁ㅎㅡㅂㅇㅕㄴ	-7953
▁ㄱㅣㅁㅅㅓㅇㅅㅜ	-7954
lar	-7955
ㅋㅣㄴㅅㅡㄴ	-7956
▁ㅎㅏㅂㄱㅡㅁ	-7957
ㅉㅗ	-7958
▁El	-7959
▁650	-7960
▁Ser	-7961
ank	-7962
▁Ac	-7963
▁And	-7964
ㅍㅏㄴㅂㅜ	-7965
▁ㅎㅗㄹㄷㅣㅇㅅㅡ	-7966
▁ㄱㅜㄱㅁㅣㄴㅎㅏㄱㄱㅛ	-7967
▁PM	-7968
ㅍㅣㄱㅅㅡ	-7969
▁UC	-7970
ㅎㅡㅂㄱㅣ	-7971
▁ㅅㅓㅇㅅㅜ	-7972
▁ㄷㅗㅇㅌㅏㄱ	-7973
ㅎㅏㅂㅈㅜㅇㄱㅜㄱ	-7974
tr	-7975
▁RC	-7976
▁Let	-7977
▁1867	-7978
ㅅㅏㄴㅂㅜ	-7979
▁ㅁㅣㄴㅅㅡ	-7980
▁ㄱㅘㄴㅅㅓㅇ	-7981
▁ㅅㅗㄴㅈㅏㅂㅇㅣ	-7982
▁ㅇㅏㄴㄷㅗㅇㅅㅣ	-7983
▁ㄲㅗㅊㅇㅣㅍ	-7984
▁ㅁㅏㄴㅈㅓㅁ	-7985
▁ㅂㅜㄴㅂㅕㄹ	-7986
▁ㅇㅑㅇㅇㅑㅇ	-7987
▁ㅇㅗㄱㅊㅓㄴ	-7988
▁ㄷㅏㅇㅅㅓㄴㅈㅏ	-7989
▁ㅂㅐㄱㅇㅏㄱㄱㅘㄴ	-7990
▁ㅇㅣㄹㅂㅗㄴㅅㅣㄱ	-7991
ㄱㅟㄴ	-7992
▁ㄱㅕㅇㅁㅐ	-7993
ㅃㅓ	-7994
▁ㅆㅏㄱ	-7995
▁ㅌㅏㄱㄱㅜ	-7996
ee	-7997
▁LS	-7998
▁ㅋㅕ	-7999
ㄹㅣㅅㅅㅜ	-8000
ㅌㅏㄴㄷㅜ	-8001
▁ㄷㅗㄱㅈㅜ	-8002
▁ㅅㅜㄹㄹㅏ	-8003
ㅂㅔㄴㅅㅕㄴ	-8004
▁ㅁㅕㅇㅅㅓㅇㅎㅘㅇㅎㅜ	-8005
ㄷㅡㄹㄹㅔ	-8006
ㄹㅔㄹㄹㅏ	-8007
▁ㄱㅡㅂㅎㅣ	-8008
▁ㅅㅏㄴㅅㅣㄴ	-8009
ㄲㅡㄴ	-8010
▁ㅇㅐㅁ	-8011
▁6000	-8012
▁ㅅㅣㄴㅇㅢ	-8013
▁ㅌㅔㄴㅅㅓ	-8014
▁ㅈㅣㄴㅇㅓㄴ	-8015
▁ㅈㅣㅂㅈㅓㅇㄱㅘㄴ	-8016
rist	-8017
▁ㅁㅗㄹㄷㅜ	-8018
ㅂㅡㄹㄹㅣㅅ	-8019
▁ㅇㅑㅇㅈㅣ	-8020
▁ㅊㅜㅇㅅㅣㄴ	-8021
▁ㅎㅓㄴㄴㅏㅂ	-8022
▁ㅊㅜㄹㅇㅣㅂㅁㅜㄴ	-8023
ㅅㅏㄹㄹㅣ	-8024
▁ㅅㅡㅇㅈㅣ	-8025
ㅇㅏㄴㅂㅓㅂ	-8026
▁ㅇㅣㅂㅊㅜㄹ	-8027
▁ㅈㅗㅇㅇㅓㅂ	-8028
▁ㅍㅕㄴㅈㅣㅂㅈㅏㅇ	-8029
▁ㄱㅡㄴㅂㅗㄴㅂㅓㄴㄴㅚ	-8030
▁Ag	-8031
▁ㅆㅓㄴ	-8032
▁ㅍㅐㅅ	-8033
▁return	-8034
▁ㅅㅣㄴㅂㅗㅇ	-8035
ㅎㅏㄴㅎㅏㅇㄱㅗㅇ	-8036
▁KN	-8037
▁1862	-8038
▁ㅊㅜㅇㅊㅣㅇ	-8039
▁ㅇㅣㅂㅂㅓㅂㅂㅜ	-8040
▁ㄱㅗㅇㅌㅗㅇㅈㅓㅁ	-8041
▁AA	-8042
▁HMS	-8043
ㅈㅓㅇㅂㅗ	-8044
ㅋㅡㄹㄹㅗㄴ	-8045
▁ㅈㅓㄱㅂㅏㄹ	-8046
▁ㅊㅐㄹㄹㅣㄴㅈㅓ	-8047
ㅅㅓㄹㅁㅜㄹ	-8048
ㅇㅓㅁㄱㅕㅇ	-8049
▁ㄱㅡㅂㅅㅓㅇ	-8050
▁ㅈㅜㄴㄷㅗㅇ	-8051
▁ㄱㅕㅌㄷㅡㄹㅇㅣ	-8052
▁ㅈㅣㅂㅎㅐㅇㅇㅠ	-8053
ㅌㅟ	-8054
▁tr	-8055
ㅇㅏㅁㅅㅏ	-8056
ㅌㅜㅇㅇㅣ	-8057
▁ㅅㅓㅇㅍㅜㅁ	-8058
▁ㅅㅡㅂㅅㅓㅇ	-8059
▁ㅈㅓㄹㅇㅑㄱ	-8060
▁ㅈㅓㅇㅎㅘㅇ	-8061
▁ㅈㅡㅇㅅㅣㄱ	-8062
▁ㅈㅣㄴㅎㅡㄺ	-8063
▁ㅊㅓㅇㄱㅏㄱ	-8064
▁ㅍㅏㄱ	-8065
▁1878	-8066
ㄹㅗㄹㄹㅔ	-8067
ㅇㅝㄴㅎㅜ	-8068
▁ㄱㅕㅇㅈㅣ	-8069
▁ㅊㅜㄱㅅㅏㄴ	-8070
▁ㅌㅡㄴㅌㅡㄴ	-8071
▁ㅍㅣㄹㅁㅕㅇ	-8072
▁ㄴㅣㄱㅅㅡ	-8073
▁ㅎㅕㅇㅈㅜ	-8074
▁ㅈㅏㄱㄴㅕㄴ	-8075
▁ㅈㅏㅇㅅㅣㄴ	-8076
▁ㅂㅏㄴㅈㅓㅇㅂㅜ	-8077
▁ㅎㅐㄱㅂㅜㄴㅇㅕㄹ	-8078
pr	-8079
▁me	-8080
▁1869	-8081
ㅍㅔㄹㄹㅓ	-8082
▁ㅂㅏㄹㅍㅗ	-8083
▁ㄱㅐㄱㅅㅣㄹ	-8084
▁ㅇㅜㄴㄷㅗㅇㄹㅑㅇ	-8085
▁ㄴㅓㅁㅂㅓ	-8086
▁ㅂㅓㄹㄹㅣ	-8087
▁ㅊㅣㅇㄱㅣ	-8088
▁ㅎㅏㄴㅊㅏㅇ	-8089
90	-8090
▁ㄱㅝㄹ	-8091
ㅌㅔㄹㄹㅏ	-8092
▁ㅇㅣㅂㅅㅜㄹ	-8093
▁ㅇㅏㄹㅍㅗㄴㅅㅗ	-8094
▁ㄱㅜㄱㅂㅜ	-8095
▁ㄷㅐㄹㄹㅓ	-8096
▁ㅇㅏㄴㄷㅗ	-8097
ㅁㅕㄴㅈㅓㄱ	-8098
ㅎㅘㄴㅎㅘㄴ	-8099
▁ㄴㅗㄴㅅㅏㄴ	-8100
▁ㄷㅡㅇㄷㅡㅇ	-8101
▁ㅇㅑㅇㄱㅜㄴ	-8102
ade	-8103
▁SO	-8104
ㅂㅓㄴㅇㅔ	-8105
ㅅㅣㄴㅈㅏ	-8106
▁ㅈㅏㅁㄱㅣ	-8107
▁ㄱㅏㄴㅍㅏㄴ	-8108
▁ㄱㅕㅇㅇㅡㄴ	-8109
▁DB	-8110
▁ㅋㅗㄹㄷㅡ	-8111
▁ㅇㅣㄹㅅㅓㄹ	-8112
IF	-8113
▁VS	-8114
▁ㅂㅗㄲ	-8115
▁ㄴㅏㅁㄷㅐ	-8116
▁ㅅㅣㄴㅈㅣ	-8117
▁ㅍㅣㄹㄷㅜ	-8118
ㄹㅏㅁㅈㅣㄱ	-8119
▁ㄷㅏㅇㅎㅘㅇ	-8120
▁ㅊㅜㅇㄷㅏㅇ	-8121
▁ab	-8122
▁ㄹㅐㄱ	-8123
▁1592	-8124
ㅍㅕㅇㄱㅜ	-8125
▁ㅂㅔㄹㄹㅔ	-8126
▁ㅇㅜㄹㅌㅡ	-8127
ㅇㅣㄹㅅㅣㄴ	-8128
▁ㅂㅣㄱㅂㅐㅇ	-8129
▁ㅈㅓㅇㅁㅕㅇ	-8130
IX	-8131
▁MSL	-8132
▁ㄴㅜㄴㅊㅣ	-8133
▁ㅅㅏㅇㅇㅢ	-8134
▁ㅇㅕㅇㅁㅣ	-8135
▁ㅊㅓㄹㅈㅏ	-8136
▁ㄱㅓㄹㅈㅏㄱ	-8137
▁ㅈㅓㅇㅊㅣㄱ	-8138
▁ㅎㅏㅇㅅㅐㅇ	-8139
▁Mon	-8140
ㅈㅏㅇㅂㅗ	-8141
▁ㅇㅏㅇㅌㅜ	-8142
▁ㅇㅣㅇㅋㅡ	-8143
ae	-8144
che	-8145
ㄱㅕㅂ	-8146
ount	-8147
▁ㅇㅓㅂㄹㅗ	-8148
▁ㅇㅛㅇㅅㅜ	-8149
▁ㅇㅛㅇㅎㅐ	-8150
▁ㄱㅏㄴㄱㅕㄹ	-8151
▁ㅅㅏㄹㅉㅏㄱ	-8152
▁ㅊㅣㄴㅅㅓㄴㄱㅕㅇㄱㅣ	-8153
▁ㄴㅓㄹ	-8154
ㅂㅕㅇㅈㅏㅇ	-8155
ㅈㅣㄹㅎㅏㄱ	-8156
▁ㅈㅓㄴㄷㅏㄴ	-8157
▁Windows	-8158
▁ㅈㅗㅇㅊㅏㄱㅇㅕㄱ	-8159
▁ㅇㅗㄱㅅㅏ	-8160
▁ㅇㅝㄱㅅㅡ	-8161
▁ㅇㅘㄴㅁㅏㄴ	-8162
▁ㅈㅣㄱㄱㅘㄴ	-8163
ㅂㅕ	-8164
per	-8165
ㄲㅓㅇ	-8166
ㅌㅡㄹㄹㅏ	-8167
ㅇㅛㄱㅈㅏㅇ	-8168
▁ㄱㅜㄱㅇㅣㄴ	-8169
▁ㅂㅕㅇㅍㅜㅇ	-8170
▁ㅇㅘㅅㅅㅡㄴ	-8171
▁ㅊㅣㄴㅁㅣㄹ	-8172
▁ㅎㅕㅇㅇㅛㅇㅅㅏ	-8173
▁516	-8174
▁ㄷㅏㅇㄱㅘ	-8175
▁ㅂㅓㄴㄱㅐ	-8176
▁ㅈㅡㅇㅂㅏㄹ	-8177
▁ㄱㅘㅇㅁㅜ	-8178
ㅇㅣㄴㅅㅏㄴ	-8179
ㅈㅏㅇㄱㅕㅇ	-8180
▁ㄷㅏㅇㄷㅏㅇ	-8181
▁ㅇㅛㅇㄱㅏㅁ	-8182
▁ㅈㅡㅇㄱㅏㅇ	-8183
ㄹㅣㄴㄹㅏㄴㄷㅡ	-8184
▁ㅋㅓㅁㅍㅣㄹㄹㅔ	-8185
ㅊㅗㄴㄹㅣ	-8186
▁ㄱㅕㅇㅈㅏㄱ	-8187
ata	-8188
▁sh	-8189
ㅍㅔㄱ	-8190
▁AMD	-8191
▁ㅈㅔㄹㄹㅣ	-8192
▁ㅌㅗㅇㅈㅣ	-8193
▁ㅂㅏㄴㄹㅗㄴ	-8194
▁ㅈㅓㄱㅈㅓㅇ	-8195
▁ㅊㅜㄱㅇㅣㄹ	-8196
▁ㅊㅏㅇㄹㅣㅂㅈㅏ	-8197
▁ㅅㅏㅇㄱㅘ	-8198
▁ㄷㅏㄴㅇㅕㄱ	-8199
▁ㄱㅡㅁㄱㅏㅇㅅㅏㄴ	-8200
▁ㅅㅣㄴㅎㅏㄴㅇㅡㄴㅎㅐㅇ	-8201
▁ㄱㅏㅇㅎㅗ	-8202
▁ㄱㅜㄴㅅㅔ	-8203
▁ㅇㅠㄱㅅㅣㄱ	-8204
▁ㅎㅓㄴㅂㅕㅇ	-8205
ㅉㅗㅊ	-8206
ㄹㅡㄹㄹㅣ	-8207
ㅇㅣㄹㄹㅏ	-8208
▁ㅂㅣㄱㅌㅓ	-8209
▁ㅊㅐㅇㄱㅣ	-8210
▁ㄱㅡㄹㄹㅔㄴ	-8211
▁ㅇㅕㄴㅈㅜㅇ	-8212
ium	-8213
▁As	-8214
ㄱㅏㄹㅇㅓ	-8215
ㄹㅔㄴㅌㅡ	-8216
▁ㅂㅏㄹㅊㅏㄱ	-8217
▁ㅆㅏㅇㅅㅓㅇ	-8218
▁ㅇㅗㄴㄱㅓㄴ	-8219
▁Pe	-8220
▁ㄱㅗㄹㅉㅏ	-8221
▁ㄹㅔㄱㅅㅡ	-8222
▁ㅇㅓㄴㄹㅗㄴㅅㅏ	-8223
▁ㅎㅘㅇㅈㅏ	-8224
▁ㅍㅣㄹㅇㅕㄴ	-8225
▁Aw	-8226
▁ㄱㅘㅇㅎㅘ	-8227
▁ㄷㅏㅇㅍㅏ	-8228
▁ㅊㅜㄹㅅㅔ	-8229
▁ㅁㅕㄴㅈㅣㄱ	-8230
▁ㅂㅜㄴㄱㅕㅇ	-8231
▁ㅎㅚㅇㄹㅕㅇ	-8232
▁ㅂㅜㄱㄱㅡㄱㅈㅓㅁ	-8233
▁ㄹㅣㄴㄷㅏ	-8234
▁ㅇㅏㅍㅂㅏ	-8235
▁ㅇㅏㅍㅅㅔ	-8236
▁ㄱㅡㄴㅂㅏㅇ	-8237
▁ㅈㅏㄴㅈㅗㄴ	-8238
ㅈㅓㅇㅈㅣ	-8239
▁Heart	-8240
▁ㅂㅏㄱㅈㅣㄴ	-8241
▁ㅎㅡㅇㅇㅝㄴ	-8242
▁ㅈㅗㅇㅇㅓㅂㅇㅝㄴ	-8243
ale	-8244
▁ㄱㅡㅂㅎㅏ	-8245
▁ㅇㅣㄴㅇㅟ	-8246
▁ㅂㅏㄱㅇㅝㄴ	-8247
▁ㅇㅕㄹㄹㅕㄹ	-8248
ㄱㅘㅇㅈㅗ	-8249
ㅎㅏㄱㅅㅏ	-8250
▁ㅇㅣㄴㅁㅣㄴㅎㅐ	-8251
▁ㄱㅓㄴㄴㅔ	-8252
▁ㄷㅗㅇㄱㅓ	-8253
▁ㅁㅗㅁㅊㅔ	-8254
▁ㅇㅐㄱㅌㅣ	-8255
▁ㅇㅕㄹㅅㅚ	-8256
ㅈㅏㄱㅈㅣㄴ	-8257
▁ㅊㅗㄱㅂㅏㄹ	-8258
▁ㅋㅓㄴㅂㅔㄴㅅㅕㄴ	-8259
UN	-8260
▁Gl	-8261
▁PL	-8262
able	-8263
ㄹㅔㄴㅈㅡ	-8264
ㅎㅐㅇㅍㅏ	-8265
▁ㄱㅏㅇㅇㅜ	-8266
▁ㅂㅜㄱㅁㅏ	-8267
▁ㅇㅘㄴㅅㅜ	-8268
▁ㅇㅝㄹㅎㅘ	-8269
▁ㅊㅓㅇㅊㅟ	-8270
▁ㅍㅜㅇㄱㅣ	-8271
ㄷㅏㄴㅌㅓㄹ	-8272
ㅈㅏㄱㅈㅓㄴ	-8273
▁ㅈㅣㄱㅁㅜㄹ	-8274
▁Out	-8275
▁ㅅㅠㄴ	-8276
▁Song	-8277
▁ㅂㅕㅇㄹㅣ	-8278
▁ㅅㅣㄴㅎㅐ	-8279
▁ㅍㅗㅁㅍㅔ	-8280
▁ㄱㅡㅁㅅㅐㄱ	-8281
▁ㅎㅡㄴㄷㅡㄹ	-8282
ㄷㅏㄴㅌㅓㄹㅈㅟ	-8283
▁ㅅㅣㄴㅅㅓㄱㄱㅣ	-8284
▁IMF	-8285
▁ㄲㅗㅊㅊㅏ	-8286
▁ㅋㅓㅂㅅㅡ	-8287
▁ㅎㅏㄹㄹㅗ	-8288
VA	-8289
▁8000	-8290
ㄱㅐㄱㄱㅣ	-8291
▁ㅁㅜㄴㅈㅜㅇ	-8292
▁ㅇㅗㄴㅅㅣㄹ	-8293
ㅂㅌㅏ	-8294
ㅇㅣㅁㅅㅐ	-8295
▁ㅂㅜㄹㄹㅗ	-8296
▁ㄷㅏㄴㅇㅑㅇ	-8297
▁ㅊㅜㄹㄱㅜㄱ	-8298
▁ㅂㅏㄴㄱㅏㅁㄱㅣ	-8299
▁ㅎㅏㅂㅅㅓㅇㅇㅓ	-8300
▁708	-8301
ㄷㅏㄴㅈㅜ	-8302
ㅍㅡㄹㄹㅜ	-8303
▁ㄱㅣㄹㄷㅡ	-8304
▁ㄷㅗㅇㅎㅗ	-8305
▁ㅅㅓㅇㄱㅛ	-8306
▁ㅅㅡㄹㄹㅣ	-8307
▁ㅇㅠㄴㅎㅠ	-8308
ㅇㅠㄱㅎㅏㄱ	-8309
▁ㅅㅗㄴㄴㅣㅁ	-8310
▁ㅇㅕㄴㅎㅐㅇ	-8311
▁ㅅㅡㅇㅇㅛㅇㅊㅏ	-8312
▁ㅎㅏㅇㄱㅗㅇㄷㅐ	-8313
ㄴㅕㅁㅈㅏㅇ	-8314
▁ㅂㅔㅇㄱㅗㄹ	-8315
▁ㅈㅜㅇㅇㅛㅇ	-8316
▁ㄱㅙㄴ	-8317
▁1840	-8318
▁ㅇㅝㄴㅎㅛ	-8319
▁ㅌㅡㄱㅂㅕㄹㅂㅓㅂ	-8320
ㄴㅏㄹㄹㅔ	-8321
ㄹㅗㄴㄱㅏ	-8322
ㅂㅏㄱㅅㅏ	-8323
▁ㅊㅏㄱㅊㅟ	-8324
▁ㄱㅜㄹㅂㅗㄱ	-8325
▁ㅇㅏㄴㅊㅏㅇㅎㅗ	-8326
▁ㅈㅓㄱㅅㅣㅂㅈㅏ	-8327
▁JC	-8328
ㅌㅔㄴㅅㅕㄹ	-8329
▁ㄷㅡㅇㅅㅏㄴ	-8330
▁ㅈㅓㄴㅁㅕㄹ	-8331
▁DOS	-8332
▁ㅁㅐㄹ	-8333
ㄷㅓㄴㅌㅡ	-8334
▁ㅅㅓㅇㄷㅐ	-8335
▁ㅅㅣㄹㅅㅏ	-8336
▁ㅇㅏㅁㅅㅜ	-8337
▁ㅎㅘㄴㅇㅠㄹ	-8338
▁ㅊㅑ	-8339
▁Vol	-8340
ㅁㅜㄴㅅㅏ	-8341
▁ㅇㅗㄱㅌㅏ	-8342
▁ㄷㅗㄱㅅㅏㄹ	-8343
▁ㅂㅏㄴㅎㅏㅇ	-8344
▁ㄱㅕㅇㅈㅐㅇㅈㅏ	-8345
itt	-8346
▁"()	-8347
ㅇㅕㄴㅅㅏ	-8348
ㅇㅣㅁㄱㅣ	-8349
▁ㄱㅣㅁㄷㅜ	-8350
▁ㄴㅗㅇㄱㅏ	-8351
▁ㅁㅗㄱㅈㅓㄱㅈㅣ	-8352
▁ㅇㅓㅅㄱㅏㄹㄹㅣ	-8353
▁ㄱㅗㅇㅅㅣㄱㅈㅓㄴ	-8354
ng	-8355
▁ㅂㅐㅅ	-8356
▁ㅇㅑㅇㅍㅏ	-8357
▁ㄱㅡㅁㅎㅘㄴ	-8358
▁ㅅㅓㅇㅍㅗㄱㅎㅐㅇ	-8359
ㅅㅑㄴ	-8360
ㅂㅓㄹㄹㅣ	-8361
▁ㅂㅣㄴㅁㅣㄴ	-8362
▁ㅇㅔㄴㅈㅔㄹ	-8363
▁ㅇㅝㄴㅁㅜㄴ	-8364
▁ㅈㅓㄹㅊㅣㄴ	-8365
▁Par	-8366
ㅇㅏㄹㄹㅏ	-8367
ㅇㅔㄴㅈㅏ	-8368
ㅊㅓㅇㅅㅏ	-8369
▁ㅈㅓㅇㅇㅔ	-8370
▁ㅎㅘㅇㅍㅖ	-8371
ㅊㅓㄹㅇㅕㄱ	-8372
ㅍㅕㅇㅁㅕㄴ	-8373
▁ㅂㅗㄹㄹㅗㄱ	-8374
▁235	-8375
▁380	-8376
▁ㄱㅣㅂ	-8377
ㅇㅣㄹㅊㅣ	-8378
▁ㅂㅕㄴㅁㅗ	-8379
▁ㅅㅓㄹㄹㅣ	-8380
ㅍㅣㅇㅁㅗㄹ	-8381
▁ㅋㅗㄹㄹㅣㄴ	-8382
▁ㅇㅕㄴㅅㅗㄱㄱㅡㄱ	-8383
▁KTX	-8384
▁ㅁㅣㅅ	-8385
▁ㅅㅐㅇㅈㅟ	-8386
▁ㅈㅏㄴㅎㅐ	-8387
ㅎㅘㄹㅇㅑㄱ	-8388
▁ㅇㅗㄹㄹㅣㅁ	-8389
▁ㅈㅓㅁㅈㅣㄴ	-8390
▁ㅈㅓㅇㅂㅏㄱ	-8391
▁ㄴㅏㅁㄱㅡㄱㅈㅓㅁ	-8392
son	-8393
▁Gen	-8394
ㄹㅗㄱㄷㅐ	-8395
ㅂㅏㅇㅎㅑㅇ	-8396
▁ㄱㅗㅇㅅㅏㅇ	-8397
▁ㅅㅏㅇㅅㅓㄴ	-8398
▁ㅇㅣㅁㅈㅗㅇ	-8399
▁ㅊㅣㄴㅎㅘㄴㄱㅕㅇ	-8400
18	-8401
ㄷㅣㅅ	-8402
▁1875	-8403
▁ㅇㅏㄴㅈㅜㅇ	-8404
▁ㅎㅗㄴㅈㅏㅂ	-8405
▁ㄱㅘㅇㄷㅜㅇㅅㅓㅇ	-8406
▁ㅁㅐㅇㅎㅘㄹㅇㅑㄱ	-8407
▁TS	-8408
▁ATC	-8409
ㅇㅣㄹㄱㅣ	-8410
ㄹㅣㅇㄱㅔㄴ	-8411
▁ㄱㅕㅁㅈㅣㄱ	-8412
▁ㄱㅡㄱㅊㅏㄴ	-8413
▁ㅅㅓㄴㅅㅏㅇ	-8414
▁ㄹㅏㄴㅌㅡ	-8415
ㄷㅏㅅㅁㅜㄹ	-8416
▁ㅁㅗㄱㅈㅏㅇ	-8417
▁ㄱㅘㄴㅇㅡㅁㅂㅗ	-8418
so	-8419
ㅂㅕㄴㅅㅜ	-8420
ㅇㅕㅂㅅㅜ	-8421
ㅇㅡㄴㅅㅏ	-8422
ㅇㅣㄴㅈㅜ	-8423
▁ㅅㅏㅇㄱㅖ	-8424
▁ㅇㅕㅇㅅㅜ	-8425
▁ㅂㅕㅇㄹㅕㄹ	-8426
▁ㅈㅜㅇㅇㅣㄹ	-8427
▁ㅎㅕㄴㅇㅏㄱ	-8428
BI	-8429
ㅅㅑㅇ	-8430
ㄷㅔㄹㄹㅣ	-8431
ㄹㅗㄴㅌㅡ	-8432
▁ㅁㅜㄴㅅㅜ	-8433
▁ㄱㅝㄴㅇㅣㄱ	-8434
▁ㅇㅕㄴㄷㅏㄹ	-8435
ㄴㅏㄹㄷㅡ	-8436
ㄴㅓㄴㅌㅡ	-8437
▁ㅇㅣㅇㅇㅕ	-8438
▁ㅂㅗㄹㄴㅔㅅ	-8439
▁ㅇㅣㄹㅅㅓㄴ	-8440
▁WC	-8441
▁ㅆㅓㄱ	-8442
ㄴㄷㅏㄴ	-8443
ㅇㅑㅇㄱㅜ	-8444
ㅊㅓㄹㅅㅜ	-8445
▁ㅈㅣㅂㅇㅓ	-8446
ㅎㅏㄹㄹㅣㄴ	-8447
ㅎㅏㅇㅈㅓㄴ	-8448
▁ㅇㅑㅇㅍㅕㅇ	-8449
▁ㅇㅝㄴㄷㅏㄴ	-8450
▁University	-8451
ㅎㅕㄴㅈㅜ	-8452
ㅊㅏㄴㅅㅓㅇ	-8453
▁ㅈㅜㅇㅇㅏㅇㅅㅓㄴ	-8454
▁ㅌㅗㅇㅅㅣㄴㅁㅏㅇ	-8455
▁ㅂㅔㄴㅊㅡ	-8456
▁ㅇㅛㅇㅈㅣ	-8457
▁ㅈㅓㄴㅈㅗ	-8458
▁ㄷㅏㄹㅋㅗㅁ	-8459
▁ㅎㅏㅁㄱㅕㅇㄷㅗ	-8460
▁At	-8461
▁ㄴㅏㄺ	-8462
▁ㅂㅏㅅ	-8463
▁ㅂㅔㅅ	-8464
ㅂㅏㄴㅅㅜ	-8465
ㅈㅓㄴㄷㅗ	-8466
▁ㄱㅡㄱㅅㅗ	-8467
▁ㅂㅐㄱㅈㅗ	-8468
▁ㅇㅕㄹㄱㅣ	-8469
▁ㅎㅟㅂㅆㅏ	-8470
▁ㅎㅐㄱㅌㅏㄴㄷㅜ	-8471
13	-8472
ㅁㅠㅁ	-8473
▁205	-8474
▁NBC	-8475
ㅌㅔㄹㅅㅡ	-8476
▁ㅋㅗㄴㅍㅓ	-8477
ㄱㅕㄱㅈㅡㅇ	-8478
▁ㅇㅕㄹㅇㅕㄱㅎㅏㄱ	-8479
ala	-8480
▁GR	-8481
▁ㄱㅕㅇㅅㅜㄴ	-8482
▁ㅂㅏㅇㅇㅜㄹ	-8483
▁ㅇㅏㄹㄹㅔㄱㅅㅔ	-8484
yn	-8485
▁ㄴㅜㄹ	-8486
▁ㄱㅜㄱㅅㅔ	-8487
▁ㅁㅜㄴㅊㅔ	-8488
ㅅㅣㄴㅈㅓㅇ	-8489
▁ㄱㅏㅇㅅㅡㅂ	-8490
▁ㄷㅗㅇㅂㅐㄱ	-8491
IVE	-8492
oid	-8493
ㄱㅗㄷ	-8494
ㄹㅏㄴㄷㅏ	-8495
ㅇㅜㄴㅅㅜ	-8496
▁ㅁㅏㅅㅂㅗ	-8497
▁ㅈㅗㅇㄱㅏ	-8498
▁ㅎㅐㅇㅎㅐ	-8499
ㄱㅓㄴㅅㅓㄹ	-8500
▁ㅊㅜㄹㅍㅜㅁ	-8501
ㄹㅔㄴㄷㅡ	-8502
▁ㅂㅏㅇㅎㅗ	-8503
▁ㅌㅏㄴㄷㅜ	-8504
ㅇㅛㅇㄹㅑㅇ	-8505
▁ㄱㅏㅇㅇㅣㄴ	-8506
ㅍㅡㄹㄹㅣㄱㅅㅡ	-8507
▁ㄴㅔㅅㅍㅡㄹㄹㅣㄱㅅㅡ	-8508
14	-8509
15	-8510
ㅁㅕㅇㅅㅔ	-8511
▁ㅅㅓㄱㄱㅣ	-8512
ㅅㅓㄴㅇㅓㄴ	-8513
▁ㅈㅏㅇㄱㅏㅂㅊㅏ	-8514
ㅈㅣㅇㅇㅓ	-8515
▁Dra	-8516
▁ㅁㅕㄱ	-8517
▁ㅅㅑㅅ	-8518
▁ㅌㅓㅇ	-8519
▁name	-8520
ㅋㅓㄹㄹㅔ	-8521
▁ㅋㅟㄴㅅㅡ	-8522
ax	-8523
▁APG	-8524
▁ㅊㅏㅇㄱㅜ	-8525
▁ㅊㅜㄹㅅㅏ	-8526
▁ㄱㅘㄴㄷㅗㅇ	-8527
▁ㅇㅝㄹㄴㅏㅁ	-8528
▁ㄹㅝ	-8529
▁ㅂㅓㅇ	-8530
▁Hell	-8531
▁ㅇㅕㅇㄹㅏㄱ	-8532
▁ㅈㅓㅇㄱㅡㄹ	-8533
22	-8534
ㄴㅏㅁㅁㅕㄴ	-8535
▁ㅎㅏㄴㅁㅣㄴ	-8536
▁ㄱㅗㅇㅎㅏㄱㅈㅏ	-8537
co	-8538
▁tvN	-8539
▁ㅇㅝㄹㄹㅣ	-8540
ㅁㅗㅇㄱㅗㄹ	-8541
▁ㄱㅜㄱㄹㅕㄱ	-8542
▁ㅇㅣㄹㅁㅕㅇ	-8543
▁ㅂㅣㄹㄷㅡ	-8544
▁ㅇㅏㄹㄹㅗ	-8545
ㅎㅏㄱㅅㅏㅇ	-8546
▁ㅅㅓㄴㅇㅠㄹ	-8547
▁sp	-8548
▁ㄱㅕㅇㅎㅘ	-8549
▁ㅂㅣㄹㅂㅏ	-8550
ㄱㅏㄱㅅㅏㅇ	-8551
▁ㅈㅣㅂㅈㅓㄴ	-8552
▁ㅎㅐㅇㄱㅜㄴ	-8553
▁ㅂㅓㅈ	-8554
▁ㅊㅣㄴㅎㅘ	-8555
▁ㅊㅣㅁㅅㅣㄱ	-8556
ㄹㅏㄴㄷㅔㄴㅂㅜ	-8557
ㅇㅕㄴㄱㅜ	-8558
▁ㅈㅓㅂㄷㅜ	-8559
ㄷㅗㅇㅇㅝㄴ	-8560
ㅅㅏㅇㅎㅏㄱ	-8561
ㅇㅠㄱㄱㅏㅁ	-8562
▁ㅅㅣㄹㅁㅕㅇ	-8563
▁ㅇㅡㅂㅅㅓㅇ	-8564
▁ㅇㅣㄴㅍㅡㄹㄹㅜ	-8565
PA	-8566
▁ㅅㅖㄴ	-8567
▁ㅌㅐㅂ	-8568
▁ㅎㅐㅇㅂㅗ	-8569
▁ㄴㅏㅁㄷㅏㄴ	-8570
▁ㅎㅏㄱㅅㅜㄹㅈㅣ	-8571
ㅅㅓㄴㄱㅗㅇㅅㅏㄴㄷㅏㅇ	-8572
▁KS	-8573
ㅁㅜㄹㄹㅣ	-8574
▁ㄱㅡㄴㅅㅔ	-8575
▁ㄴㅗㅇㅅㅓㅇ	-8576
▁ㅁㅕㅇㅅㅏㅇ	-8577
▁ㅁㅕㅇㅇㅣㄴ	-8578
▁ㅈㅜㅇㄴㅏㅁ	-8579
▁ㅍㅏㄹㄲㅜㅁㅊㅣ	-8580
ATO	-8581
▁ㅈㅓㄱㅅㅣ	-8582
▁ㅊㅓㄴㄹㅣ	-8583
▁ㅌㅏㄹㅅㅜ	-8584
▁ㅁㅜㄴㄱㅘㄴ	-8585
▁ㅈㅣㄱㄹㅕㄹ	-8586
▁ㅊㅣㄹㅅㅓㅇ	-8587
▁ㅇㅏㄴㅇㅑㅇㅅㅣ	-8588
EEE	-8589
▁ㅊㅓㅂㅂㅗ	-8590
ㅇㅏㄱㅅㅏㄴ	-8591
▁ㅅㅏㅇㅂㅏㄴㄱㅣ	-8592
▁us	-8593
▁ㄴㅏㅊ	-8594
▁ㄹㅗㄹㄹㅓ	-8595
▁ㅅㅏㄹㄹㅔ	-8596
ㄱㅝㄴㅂㅓㅂ	-8597
▁KO	-8598
▁ㅈㅏㅁㅂㅣ	-8599
▁ㅊㅏㅁㅍㅐ	-8600
▁ㅌㅏㄴㅅㅜ	-8601
▁ㅇㅡㄴㅁㅣㄹ	-8602
▁ㅎㅏㄱㄷㅏㅇ	-8603
▁ㅎㅗㅇㅇㅣㄱ	-8604
▁ㅇㅜㄴㅈㅓㄴㅈㅏ	-8605
▁ㅋㅗㄹㄹㅓㅁㅂㅓ	-8606
▁ㄷㅗㅇㄴㅏㅁㅉㅗㄱ	-8607
GB	-8608
▁ㄷㅏㄴㅅㅓ	-8609
▁ㄹㅐㄴㄷㅓ	-8610
▁ㅇㅣㄹㅈㅜ	-8611
▁ㄱㅕㅇㅈㅗㅇ	-8612
▁ㅅㅏㅇㅅㅣㄱ	-8613
▁ㅇㅏㄴㅅㅣㄱ	-8614
▁ㅈㅓㅇㅅㅡㅇ	-8615
▁ㅍㅜㅁㅁㅗㄱ	-8616
▁ㅅㅗㅇㅇㅣ	-8617
ㅋㅡㄴㄹㅗㄹ	-8618
▁ㅁㅣㄴㅅㅣㅁ	-8619
ㅌㅜㄹ	-8620
▁1874	-8621
ㅇㅕㄹㄷㅐ	-8622
▁ㅅㅣㅀㅇㅓ	-8623
▁ㅇㅏㄴㅈㅜ	-8624
ㅎㅘㅇㅅㅐㄱ	-8625
▁ㄷㅏㄴㅂㅏㄹ	-8626
▁ㅂㅕㄴㅊㅓㄴ	-8627
▁ㅅㅜㄱㅂㅏㄱ	-8628
ㅎㅕㅇㅈㅔ	-8629
▁ㅇㅣㄴㅅㅡㅇ	-8630
▁ㅈㅣㅇㅈㅣㅂ	-8631
▁ㅋㅏㄹㄹㅠㅁ	-8632
▁ㄷㅏㅁㄷㅏㅇㅈㅏ	-8633
▁ㅋㅓㄴㅅㅓㄹㅌㅣㅇ	-8634
ㅇㅜㄹㄹㅗ	-8635
▁ㄱㅏㅁㄱㅣ	-8636
▁ㅅㅓㄴㅊㅔ	-8637
▁ㅅㅜㄱㅅㅗ	-8638
▁ㅇㅣㄴㅁㅓㄴ	-8639
▁ㅈㅓㅇㅇㅕㄱ	-8640
ash	-8641
ㅇㅓㅋ	-8642
▁ㄴㅡㅇㄱㅏ	-8643
▁ㅈㅔㄴㄷㅓ	-8644
ㄴㄷㅐ	-8645
ㅎㅚㅇ	-8646
▁IEEE	-8647
▁ㅇㅣㄹㅊㅏ	-8648
▁ㄱㅙㄴㅊㅏㄶ	-8649
▁ㅅㅏㄴㅅㅜㄹ	-8650
▁ㅋㅐㅁㅂㅔㄹ	-8651
▁ㅈㅣㅂㄷㅏㄴㄱㅜㄴ	-8652
ㄴㅖ	-8653
▁204	-8654
▁ㅈㅓㅂㅁㅣ	-8655
▁ㅈㅡㄹㄱㅓ	-8656
▁ㅋㅓㄴㅍㅓ	-8657
▁ㅂㅕㄴㅈㅡㅇ	-8658
▁ㅅㅏㄴㄴㅏㅁ	-8659
▁ㅅㅜㄱㄹㅕㄴ	-8660
▁ㅇㅏㄱㅁㅕㅇ	-8661
▁ㅈㅓㄹㅊㅜㅇ	-8662
▁ㅊㅜㄹㅍㅏㄴㅁㅜㄹ	-8663
▁This	-8664
ㅇㅕㄴㅈㅜ	-8665
▁ㅇㅑㅇㅅㅓ	-8666
▁ㅇㅘㅇㄹㅐ	-8667
▁ㅈㅓㅇㅇㅗ	-8668
ㅈㅣㅈ	-8669
▁ㄱㅓㄹㅇㅡㅁ	-8670
HL	-8671
au	-8672
ㄹㅗㄹㄹㅣ	-8673
▁ㄱㅕㅇㄴㅐ	-8674
▁ㄷㅡㄹㄹㅡ	-8675
▁ㅉㅗㅊㄱㅣ	-8676
▁^	-8677
▁et	-8678
▁ㅈㅜㅇㄱㅓ	-8679
ㅍㅕㅇㅅㅓㄴ	-8680
▁ㅎㅏㅇㄱㅗㅇㅍㅕㄴ	-8681
▁ad	-8682
▁ㅇㅝㄴㅅㅏ	-8683
ㅈㅓㄱㅈㅓㄹ	-8684
▁ㅈㅜㅇㄱㅕㄴ	-8685
▁ㅍㅜㄹㅂㅐㄱ	-8686
ㅁㅜㅁ	-8687
▁Best	-8688
ㄱㅏㄱㄱㅏ	-8689
▁ㅅㅓㄴㄱㅘ	-8690
▁ㅋㅏㄹㄷㅔ	-8691
▁ㄱㅗㄴㅅㅏㄹ	-8692
▁ㅌㅔㅁㅍㅡㄹ	-8693
ps	-8694
ㅅㅣㄴㅈㅓ	-8695
▁ㅈㅣㅂㅅㅏ	-8696
▁ㅇㅑㅇㅊㅓㄴ	-8697
▁ㅈㅜㅇㄱㅓㄴ	-8698
▁ㅊㅏㄱㄱㅏㄱ	-8699
TF	-8700
ict	-8701
▁AF	-8702
▁SR	-8703
ㅁㅜㄹㅅㅓㄴ	-8704
▁ㅎㅘㄴㅅㅡㅇㅇㅕㄱ	-8705
▁Mi	-8706
▁ㅅㅓㅇㅎㅐㅇ	-8707
ㄹㅖㄴ	-8708
ㅁㅔㄱㅅㅣ	-8709
▁ㅁㅣㄴㅇㅢ	-8710
▁ㅅㅏㄴㅈㅗ	-8711
▁ㅈㅣㄹㄹㅣ	-8712
ㅇㅝㄴㄱㅡㅁ	-8713
▁ㄱㅗㄹㅈㅓㄹ	-8714
▁ㅁㅜㄴㅁㅐㄱ	-8715
▁ㅇㅣㄹㄱㅏㄴ	-8716
▁ㅎㅐㅇㅅㅓㄴ	-8717
▁ㄱㅏㅇㄹㅕㄱㅎㅣ	-8718
▁se	-8719
▁ㅁㅐㅁ	-8720
ㅈㅣㄴㅂㅗ	-8721
ㅈㅣㅂㄱㅏ	-8722
ㄴㅡㄴㅈㅓㅁ	-8723
ㅊㅘㄴㅅㅓㅇ	-8724
▁ㄷㅏㅁㅇㅑㅇ	-8725
▁ㅁㅕㅇㅇㅘㅇ	-8726
▁ㅂㅗㄴㅈㅗㄴ	-8727
▁ㅅㅏㄱㄱㅏㅁ	-8728
▁ㅅㅏㅇㄱㅏㅁ	-8729
▁ㄱㅘㄴㅅㅣㅁㅅㅏ	-8730
▁ㅊㅜㄹㅈㅏㅇㅅㅗ	-8731
▁ㅅㅣㅅ	-8732
ㅅㅏㅇㅈㅜ	-8733
▁ㅂㅏㄱㅈㅐ	-8734
▁ㅅㅏㅁㄱㅓ	-8735
▁ㅇㅣㅇㅋㅏ	-8736
▁ㅍㅣㄹㄹㅗ	-8737
ㅅㅏㅁㅁㅜㄴ	-8738
▁ㄱㅜㄴㅂㅗㄱ	-8739
▁ㅇㅏㄴㅌㅗㄴ	-8740
▁ㅎㅑㅇㅅㅣㄴㄹㅛ	-8741
▁ㄱㅘㄴㅇㅏ	-8742
▁ㅍㅏㄴㄷㅗ	-8743
ㅇㅘㄴㅇㅛㅇ	-8744
▁ㄱㅕㄹㅁㅏㄹ	-8745
▁ㅅㅜㄴㅊㅓㄴㅅㅣ	-8746
▁ㅊㅏㅁㅈㅓㄴㅎㅏ	-8747
ㅈㅓㅇㄷㅐ	-8748
▁ㅂㅓㅂㄱㅠ	-8749
▁ㅅㅓㅇㅈㅗ	-8750
▁ㅅㅡㄹㄹㅓ	-8751
▁ㅌㅡㄱㄱㅗㅇ	-8752
▁ㅎㅕㅂㄱㅗㄱ	-8753
ose	-8754
ㅅㅠㄹ	-8755
very	-8756
ㅅㅓㄱㅁㅛ	-8757
▁ㄱㅕㄹㅈㅓㄴ	-8758
▁Bab	-8759
▁ㅅㅏㅇㅎㅏㄴ	-8760
▁ㅊㅜㄱㅂㅗㄱ	-8761
▁ㅎㅏㄴㅂㅗㄱ	-8762
ody	-8763
▁ㅋㅝㄹ	-8764
▁7000	-8765
▁ㄱㅏㅇㅈㅘ	-8766
▁ㄱㅕㅇㅇㅢ	-8767
▁ㅅㅣㄹㅎㅛ	-8768
▁ㅍㅗㄹㄹㅗ	-8769
▁ㅅㅣㄹㅇㅡㄴ	-8770
▁ㅈㅏㅁㅇㅣㅂ	-8771
me	-8772
anc	-8773
▁ㄹㅏㅅ	-8774
ㅋㅗㅂㅅㅡ	-8775
▁ㅇㅏㄴㅍㅏ	-8776
▁ㅇㅏㅇㄷㅡ	-8777
▁ㅈㅣㄴㅇㅟ	-8778
▁ㄱㅏㄹㄹㅔ	-8779
▁ㅅㅏㄴㅊㅔ	-8780
ㅇㅔㄴㄱㅜㄴ	-8781
▁ㅈㅗㄱㅈㅏㅇ	-8782
▁ㅈㅣㄴㅊㅓㄴ	-8783
59	-8784
ail	-8785
▁ㅇㅝㅁ	-8786
▁1877	-8787
ㄱㅕㄱㄷㅐ	-8788
ㄱㅗㅇㅈㅏ	-8789
ㅅㅣㄱㅅㅡ	-8790
▁ㅅㅗㅁㅆㅣ	-8791
▁ㄴㅗㄴㅈㅡㅇ	-8792
▁ㅁㅏㄱㄱㅏㅇ	-8793
▁ㅂㅏㄱㅇㅛㅇ	-8794
▁FF	-8795
ㄱㅘㄴㅅㅏ	-8796
de	-8797
oo	-8798
▁AE	-8799
reak	-8800
ㄴㅗㅍㅇㅣ	-8801
ㄴㅣㄴㄱㅡ	-8802
▁ㅎㅏㄴㄱㅕ	-8803
▁ㅂㅏㄴㄱㅗㅇ	-8804
▁ㅅㅣㄴㅂㅕㅇ	-8805
▁ㄴㅏㄴㅈㅐㅇㅇㅣ	-8806
ㅋㅐㄴ	-8807
▁209	-8808
▁ㄲㅡㄹㄹㅣ	-8809
▁ㅂㅗㄱㅂㅜ	-8810
▁ㅅㅏㄴㅈㅐ	-8811
▁ㅇㅕㅁㄷㅜ	-8812
▁ㅁㅜㄴㅁㅜㄹ	-8813
▁ㅂㅕㄴㅎㅕㄱ	-8814
▁ㅅㅜㄱㅁㅕㅇ	-8815
▁ㅇㅏㄱㄷㅏㅇ	-8816
▁ㅌㅡㄱㅁㅕㅇ	-8817
▁ㅋㅗㄹㄹㅣㄴㅅㅡ	-8818
TR	-8819
▁as	-8820
▁App	-8821
ㅅㅏㄴㄱㅣ	-8822
▁ㄹㅗㄹㄹㅣ	-8823
▁ㅇㅡㄴㅍㅖ	-8824
▁ㄱㅠㄴㅇㅣㄹ	-8825
▁ㅂㅏㄹㅈㅏㄱ	-8826
▁ㅂㅐㄱㅇㅜㄴ	-8827
▁ㅇㅑㅇㄱㅡㄱ	-8828
▁ㅈㅓㅂㅈㅓㄴ	-8829
uck	-8830
▁ICBM	-8831
▁Super	-8832
▁ㄱㅡㅁㅎㅏ	-8833
▁ㅁㅕㅇㄹㅠㄴ	-8834
OK	-8835
net	-8836
ㅇㅛㄴ	-8837
▁ㅈㅐㅁ	-8838
▁ㅁㅏㅈㅂㅐ	-8839
▁ㅈㅣㄹㅌㅜ	-8840
ㅂㅐㄱㅁㅏㄴ	-8841
▁ㅂㅣㄴㅅㅔㄴㅌㅡ	-8842
▁ㅌㅐㅁ	-8843
ㅅㅐㅇㅅㅏㄴ	-8844
ㅈㅓㅇㄴㅏㄴ	-8845
▁ㄱㅣㅁㅇㅕㄴ	-8846
▁ㅂㅐㄱㅎㅕㄹ	-8847
▁ㅇㅘㄴㅈㅏㅇ	-8848
▁ㅍㅔㅇㄱㅟㄴ	-8849
ㅇㅡㄱ	-8850
▁CIA	-8851
ㄹㅣㄴㅌㅓ	-8852
ㅋㅣㄹㄹㅔ	-8853
▁ㅁㅏㄱㅇㅏ	-8854
▁ㅎㅗㄹㅅㅜ	-8855
▁ㅇㅏㄴㅅㅣㅁ	-8856
▁ㅈㅓㄴㅂㅓㅁ	-8857
ㅂㅣㄴㅅㅡ	-8858
ㅅㅣㄱㅈㅏ	-8859
▁ㅁㅔㄹㄹㅣ	-8860
▁ㅅㅏㄴㅌㅜ	-8861
▁ㅇㅓㄹㄹㅏ	-8862
▁ㅈㅏㄴㅇㅕ	-8863
▁ㅂㅗㄱㅅㅗㄱ	-8864
▁ㅈㅏㅇㄱㅕㅇ	-8865
▁ㅌㅗㅇㅅㅗㄹ	-8866
ㅂㅓㅁㅈㅚ	-8867
▁ㅂㅔㄹㄹㅗ	-8868
▁ㅇㅘㅇㅁㅕㅇ	-8869
▁ㅇㅣㄴㅅㅓㅇ	-8870
ㄷㅡㄹㄹㅐㄴㄷㅡ	-8871
▁ㄱㅑ	-8872
▁ㅂㅐㄹㅂㅡ	-8873
▁ㅂㅜㄹㅋㅙ	-8874
▁ㅇㅏㅍㄷㅟ	-8875
▁ㅈㅏㅇㅈㅣ	-8876
▁ㅁㅕㄴㄷㅏㅁ	-8877
▁ㅂㅏㅇㅎㅏㄱ	-8878
▁ㅇㅠㄹㅂㅓㅂ	-8879
ㅅㅣㄴㅈㅓㅇㅂㅕㄴ	-8880
▁ㅎㅏㅂㅂㅕㅇㅈㅡㅇ	-8881
▁206	-8882
▁ㄱㅣㅁㄷㅗ	-8883
▁ㄱㅣㅁㅈㅜ	-8884
▁ㅉㅏㄱㅅㅜ	-8885
▁ㅂㅕㅇㄷㅏㄴ	-8886
16	-8887
vel	-8888
▁Her	-8889
ㅇㅘㄴㄷㅏ	-8890
▁ㅇㅐㄹㄹㅏ	-8891
▁ㅎㅏㄹㄱㅜ	-8892
▁ㅈㅏㄴㅎㅗㄱ	-8893
▁ㅈㅓㄴㅂㅗㅇ	-8894
▁ㅇㅏㄹㄹㅔㄱㅅㅏㄴㄷㅔ	-8895
EA	-8896
▁ㅍㅟ	-8897
▁310	-8898
▁1859	-8899
▁ㅂㅕㄴㅅㅓㅇ	-8900
▁ㅅㅡㅇㄹㅠㄹ	-8901
▁ㅇㅏㄴㅍㅏㄲ	-8902
▁ㅊㅜㄹㄱㅕㄱ	-8903
▁my	-8904
▁1700	-8905
▁ㄹㅔㄴㄷㅓ	-8906
▁ㅂㅏㄱㅎㅣ	-8907
▁ㄱㅏㅁㅊㅜㄱ	-8908
▁ㅅㅓㄴㄷㅏㄴ	-8909
▁ㅅㅔㄱㅅㅕㄴ	-8910
▁ㅊㅓㄴㅅㅏㅇ	-8911
ㅍㅏㄱ	-8912
▁518	-8913
▁ㅋㅜㅁ	-8914
▁ㅅㅏㄴㄹㅣ	-8915
▁ㅅㅏㅇㅅㅓㄹ	-8916
17	-8917
ㅍㅏㅂ	-8918
▁Sun	-8919
ㅅㅣㄹㅈㅜ	-8920
▁ㅅㅗㄱㅊㅗ	-8921
▁ㅂㅜㄱㅇㅣㄴ	-8922
▁ㅈㅓㅇㅊㅓㅇ	-8923
▁ㄱㅓㄴㄱㅜㄱㅎㅜㄴㅈㅏㅇ	-8924
▁Kn	-8925
▁ㅁㅗㄹㅅㅜ	-8926
▁ㅇㅣㄴㄱㅖ	-8927
▁ㅈㅓㄴㅅㅓ	-8928
▁ㅎㅔㄹㅅㅡ	-8929
▁ㅂㅏㄴㅈㅓㅇ	-8930
▁ㅂㅏㄹㄱㅘㅇ	-8931
▁ㅃㅏㄹㄱㅏㅇ	-8932
▁ㅇㅕㄹㅇㅏㄱ	-8933
▁ㅊㅣㅁㅂㅓㅁ	-8934
▁ㅋㅓㄹㄹㅣㅇ	-8935
▁ㅎㅏㅁㅈㅏㅇ	-8936
▁340	-8937
ㄹㅣㅅㅈㅣ	-8938
ㅂㅜㄴㅈㅏ	-8939
ㅅㅓㄴㄱㅛ	-8940
ㅇㅝㄴㄱㅜ	-8941
▁ㅂㅗㄴㅎㅚ	-8942
▁ㅎㅏㄹㄹㅔ	-8943
▁ㅎㅑㅇㅅㅜ	-8944
▁ㅎㅘㄹㄱㅣ	-8945
▁ㄷㅗㅇㄱㅜㄴ	-8946
ㅈㅓㅇㅈㅔ	-8947
▁ㅁㅗㅂㅅㅣ	-8948
▁ㅂㅐㄱㅈㅣ	-8949
ㅁㅣㄴㅈㅓㅇ	-8950
▁ㄱㅕㅇㅇㅝㄴ	-8951
▁Soul	-8952
▁ㅅㅔㄴㅌㅏ	-8953
▁ㅊㅓㄹㄱㅣ	-8954
▁ㅍㅣㄹㄱㅣ	-8955
ㅂㅣㄹㄹㅗㄴ	-8956
ㅅㅓㅇㄴㅕㄴ	-8957
▁ㅈㅏㅇㅈㅓㅇ	-8958
▁ㅎㅏㄱㅊㅏㅇ	-8959
▁ㅎㅘㄱㅊㅜㅇ	-8960
▁ㄱㅓㄴㄹㅠㅇㅈㅔ	-8961
▁IF	-8962
▁ON	-8963
▁625	-8964
▁Star	-8965
ㄱㅘㅇㅅㅏ	-8966
▁ㄷㅏㄱㅊㅣ	-8967
ㄱㅕㄹㅎㅏㅂ	-8968
▁ㄱㅗㄱㅅㅣㄱ	-8969
▁ㅂㅏㄱㅊㅏㄴ	-8970
▁ㅈㅓㄱㅂㅓㅂ	-8971
▁ㅈㅜㄹㄱㅗㄷ	-8972
▁ㅋㅗㄹㄹㅗㄴ	-8973
▁ㅎㅗㄴㅎㅏㅂㅁㅜㄹ	-8974
HC	-8975
▁HP	-8976
ㄹㅡㅂ	-8977
▁you	-8978
▁ㅇㅜㄹㄹㅜ	-8979
▁ㅎㅣㄹㅅㅡ	-8980
▁ㅇㅘㅇㄷㅏㅇ	-8981
▁ㅍㅏㄴㅁㅕㅇ	-8982
▁ㅅㅗㅇㅈㅣㄴㅇㅜ	-8983
▁ㅊㅓㅇㅁㅜㄴㅎㅚ	-8984
▁cc	-8985
▁des	-8986
ㄱㅓㄴㅂㅜ	-8987
ㅂㅏㅇㅅㅡ	-8988
▁ㅅㅏㄴㅈㅓㅇ	-8989
▁ㅈㅓㅇㅅㅣㄹ	-8990
▁ㅇㅡㅁㅅㅣㄱㅈㅓㅁ	-8991
ray	-8992
▁"|	-8993
ㅋㅗㄹㄹㅗ	-8994
▁print	-8995
▁ㅎㅚㄱㄱㅣ	-8996
ㅅㅗㄱㅊㅓㄹㄷㅗ	-8997
▁ㅊㅗㅇㅇㅕㅇㅅㅏ	-8998
▁PA	-8999
▁ㄲㅘㅇ	-9000
ㅇㅜㄹㅇㅓ	-9001
ㅇㅜㄴㅎㅕㅇ	-9002
▁public	-9003
▁ㅅㅏㄴㅁㅜㄴ	-9004
▁ㅅㅏㄴㅇㅣㄴ	-9005
▁ㅈㅓㅇㅇㅓㄴ	-9006
▁ㅊㅗㅇㄱㅏㅁ	-9007
▁ㅍㅕㅇㅂㅏㅇ	-9008
ㅇㅓㅂㅊㅔ	-9009
▁ㄱㅗㄷㅇㅣ	-9010
ㅅㅓㅇㅁㅕㄴ	-9011
▁ㅅㅗㄴㅁㅗㄱ	-9012
▁ㅇㅣㅂㅊㅏㄹ	-9013
▁ㅅㅓㅇㅍㅗㄱㄹㅕㄱ	-9014
▁ㄱㅘㄴㄱㅜㄴ	-9015
▁ㄱㅡㅁㅊㅓㄴ	-9016
▁ㅁㅣㄴㅇㅝㄴ	-9017
▁ㅅㅗㄱㄱㅜㄱ	-9018
▁ㅇㅣㅁㅅㅣㄹ	-9019
▁ㅊㅜㄱㅈㅓㄴ	-9020
gh	-9021
ute	-9022
▁po	-9023
ㅍㅜㄴ	-9024
ㄹㅔㄴㅊㅡ	-9025
ㅂㅜㄴㅌㅜ	-9026
▁ㅂㅗㄹㄷㅡ	-9027
▁ㅇㅓㅁㅈㅣ	-9028
ㅂㅏㄴㅈㅓㅇ	-9029
▁ㄱㅗㅇㅂㅕㅇ	-9030
▁ㄱㅣㅁㄷㅓㄱ	-9031
▁ㅂㅏㄴㅇㅣㅂ	-9032
▁ㅅㅜㄴㅅㅣㄱ	-9033
▁ㅅㅣㄹㄹㅣㄴㄷㅓ	-9034
ㅂㅣㄱ	-9035
▁ㅆㅜㅇ	-9036
▁ㅍㅔㄱ	-9037
ㄹㅗㅂㅅㅡ	-9038
ㅅㅠㄹㄹㅣ	-9039
▁ㅇㅕㅇㄷㅗ	-9040
ㅇㅣㄴㅌㅓ	-9041
▁Christ	-9042
▁ㅂㅏㄹㅈㅣㄴ	-9043
▁ㅂㅜㄱㅊㅡㄱ	-9044
▁ㅇㅣㄹㅅㅏㅁ	-9045
ㅃㅐ	-9046
ㅍㅓㅁ	-9047
▁ㄸㅏㅁ	-9048
▁ㄱㅜㅇㅈㅜ	-9049
ㅈㅏㄴㅌㅣㄴ	-9050
▁ㅅㅜㄴㅊㅏㄹ	-9051
▁ㅇㅕㅇㅈㅗㅇ	-9052
▁ㄷㅏㄴㅁㅏㄹㄱㅣ	-9053
▁ㅇㅏㄹㄹㅔㄱㅅㅣ	-9054
▁1879	-9055
▁ㄱㅓㄴㅈㅣ	-9056
ㅊㅏㅁㅊㅏㄴ	-9057
▁ㅈㅣㅂㅈㅓㄱ	-9058
▁ㅈㅓㅇㅊㅏㄱㅈㅣ	-9059
ㅊㅓㄱㅈㅏ	-9060
▁ㄱㅣㄹㄱㅓ	-9061
▁ㅂㅏㄹㅌㅓ	-9062
▁ㅇㅏㄹㅈㅏ	-9063
▁ㅇㅟㄴㅌㅓ	-9064
ㅅㅐㅇㅊㅜㅇ	-9065
ㅇㄱㅡㄹㄹㅣ	-9066
▁ㄱㅕㄱㅈㅓㄴ	-9067
▁ㅇㅝㄴㅈㅓㅁ	-9068
▁ㅁㅏㄴㅈㅏㅇㅇㅣㄹㅊㅣ	-9069
▁ㅇㅝㄴㅈㅗㅇㄱㅗㅇㅅㅣㄴ	-9070
▁Tw	-9071
▁1812	-9072
▁ㄱㅘㄴㅇㅟ	-9073
▁ㄱㅜㄴㅍㅗ	-9074
▁ㄹㅗㄱㅎㅣ	-9075
▁ㅇㅕㄹㅅㅔ	-9076
▁ㅈㅓㅁㅌㅗ	-9077
▁Record	-9078
▁ㄱㅣㅁㅎㅏㄱ	-9079
▁ㄷㅏㅅㅋㅓㅁ	-9080
▁ㅂㅓㅂㅅㅏㅇ	-9081
▁ㅇㅕㄴㅂㅏㅇㄱㅜㄴ	-9082
ual	-9083
▁ER	-9084
▁KD	-9085
ogle	-9086
▁ㄱㅗㅇㄱㅛ	-9087
▁ㄲㅏㄹㄹㅣ	-9088
ㅂㅗㅇㅇㅏㅁ	-9089
▁ㅋㅡㄹㄹㅓㄱ	-9090
▁ㅎㅏㄴㄱㅜㄱㄱㅜㄴ	-9091
▁Per	-9092
▁ㄱㅝㄴㅌㅜ	-9093
▁ㅋㅣㄹㄹㅓ	-9094
ㅌㅏㄴㅇㅗㄹ	-9095
ㅍㅡㄹㄹㅔㄱ	-9096
▁ㄱㅏㅇㄱㅜㄱ	-9097
▁ㅎㅘㄴㅅㅏㄴ	-9098
ull	-9099
▁DO	-9100
▁Win	-9101
▁ㄱㅣㅁㅅㅣ	-9102
▁ㄴㅏㅇㅂㅣ	-9103
▁ㅅㅣㄹㅂㅔ	-9104
▁ㅇㅏㄹㅁㅏ	-9105
▁ㅋㅏㄴㅌㅡ	-9106
ㅅㅣㅁㅇㅝㄴ	-9107
▁ㅈㅏㅇㄱㅏㅇ	-9108
▁420	-9109
ㄴㅡㅇㄹㅕㄱ	-9110
▁ㅊㅓㄴㅈㅓㄱ	-9111
▁ㄴㅏㅁㅂㅜㄱㅈㅗ	-9112
▁NM	-9113
ㅇㅓㅇ	-9114
▁ㅋㅜㅇ	-9115
ㄹㅣㄴㅅㅔ	-9116
▁ㅇㅡㄴㅈㅣ	-9117
▁ㅎㅕㄴㅅㅜ	-9118
ㄷㅏㅅ	-9119
ㅂㅡㄴㅅㅡ	-9120
ㅇㅣㄱㅅㅜ	-9121
▁ㄱㅘㄴㄱㅐ	-9122
▁ㅎㅔㄹㄹㅗ	-9123
▁ㄷㅏㄹㄹㅕㄱ	-9124
▁ㅂㅏㄹㅍㅏㄴ	-9125
▁ㅂㅕㄴㅈㅣㄹ	-9126
▁ㅅㅣㄴㅇㅣㄱ	-9127
▁ㅇㅣㄴㅊㅓㄱ	-9128
VID	-9129
ㄹㅣㅇㅋㅡ	-9130
ㅎㅏㄱㅍㅏ	-9131
▁ㄱㅘㅇㅅㅣ	-9132
▁ㄱㅜㄴㅁㅏ	-9133
▁ㅎㅘㄴㅊㅗ	-9134
▁ㄱㅡㄴㄱㅏㄴ	-9135
▁ㄹㅡㅁ	-9136
▁John	-9137
▁ㅌㅜㄹㄹㅜ	-9138
ㅅㅏㄴㅇㅕㄱ	-9139
▁ㅇㅝㄴㅈㅓㅇㄷㅐ	-9140
25	-9141
iel	-9142
▁Gu	-9143
ㅇㅕㅇㅎㅗ	-9144
ㅎㅏㄹㅇㅏ	-9145
ㅂㅡㄹㄹㅣㄱ	-9146
ㅇㅕㄴㅁㅐㅇ	-9147
▁ㅁㅗㄱㄷㅗㅇ	-9148
▁ㅇㅏㄴㅁㅕㄴ	-9149
▁ㅇㅑㅇㅇㅝㄴ	-9150
▁ㄱㅡㅁㄱㅣ	-9151
▁ㅅㅗㄴㅅㅜ	-9152
▁ㅅㅣㄱㅇㅣ	-9153
▁ㅅㅜㄴㅅㅣㄱㄱㅏㄴ	-9154
▁ㄱㅜㄴㄱㅣ	-9155
▁ㅁㅟㄹㄹㅓ	-9156
▁ㅂㅓㅅㄱㅣ	-9157
▁ㅅㅣㄹㅂㅣ	-9158
▁ㅈㅏㅁㅈㅏ	-9159
▁ㅅㅓㅇㅎㅕㄴ	-9160
ㄱㅜㅅ	-9161
ㄹㅡㄹㄹㅜ	-9162
▁ㅁㅏㄴㅈㅣ	-9163
▁ㅇㅑㅇㄱㅜ	-9164
▁ㅅㅓㄱㄱㅝㄴ	-9165
▁ㅊㅓㄴㅁㅜㄴㄷㅏㄴㅇㅟ	-9166
YP	-9167
▁HS	-9168
ㅍㅕㅇㄷㅗㅇ	-9169
▁ㅂㅏㄱㄱㅕㅇ	-9170
▁ㅊㅓㅇㅇㅣㄹ	-9171
ㄹㅜㅅ	-9172
▁256	-9173
ㄷㅏㅅㄱㅏ	-9174
▁ㅁㅣㄴㄷㅏ	-9175
▁ㅅㅓㄴㅂㅕㄹ	-9176
▁ㅈㅜㅇㅇㅏㅇㅇㅣㄹㅂㅗ	-9177
ll	-9178
▁Mr	-9179
ㅎㅝㄴ	-9180
▁ㅁㅏㄴㄹㅠ	-9181
▁ㅅㅏㄴㅅㅏ	-9182
▁ㅊㅓㅇㄱㅛ	-9183
ㄷㅗㅇㅅㅣㄱ	-9184
▁ㅂㅏㅇㅌㅏㄴ	-9185
▁ㅇㅝㄴㅁㅏㄴ	-9186
▁ㅌㅗㅇㄱㅏㅁ	-9187
▁MD	-9188
ㅅㅛㅂ	-9189
▁ㄱㅣㅁㅇㅜ	-9190
▁ㅇㅕㄴㅎㅐ	-9191
▁YG	-9192
▁ㅁㅑ	-9193
▁ㅇㅔㅅ	-9194
▁ㅈㅣㅍ	-9195
ㅈㅜㅇㅈㅜ	-9196
▁ㄷㅏㅁㅅㅜ	-9197
ㄱㅡㄱㅈㅏㅇ	-9198
▁ㄴㅏㅁㄱㅕㅇ	-9199
▁ㄷㅗㅇㅁㅐㄱ	-9200
▁ㅅㅏㅇㄷㅗㅇ	-9201
▁ㅅㅓㅇㅎㅕㅇ	-9202
▁mu	-9203
ㄸㅜㅇ	-9204
▁ㅇㅐㅅ	-9205
ㅅㅓㅅㅉㅐ	-9206
▁ㄷㅗㅇㅎㅏ	-9207
▁ㅇㅣㄹㅂㅗ	-9208
▁ㅍㅜㄹㅇㅣ	-9209
ㄴㅕㄴㄷㅏㄴ	-9210
▁ㄱㅗㅇㄱㅕㅇ	-9211
▁ㅂㅕㄴㄹㅗㄴ	-9212
▁ㅅㅏㅇㅎㅘㄴ	-9213
▁208	-9214
▁CoA	-9215
ㅇㅣㄴㅈㅡ	-9216
▁ㄱㅡㄱㅎㅚ	-9217
ㅍㅜㅁㄱㅜㄴ	-9218
▁ㄱㅕㄹㅈㅏㅇ	-9219
▁ㅇㅓㄱㅇㅜㄹ	-9220
▁ㅍㅐㄹ	-9221
ㅇㅡㄱㄱㅗ	-9222
▁ㅅㅣㅁㅈㅓㅇ	-9223
▁ㅇㅑㅇㅅㅏㄴㅅㅣ	-9224
▁'.	-9225
ㅂㅏㄱㅇㅣ	-9226
▁ㄱㅜㄴㄷㅗ	-9227
▁ㅁㅜㄴㅇㅓ	-9228
▁ㅇㅣㄴㄷㅓ	-9229
ㅁㅏㅇㄹㅠㄹ	-9230
▁ㄴㅗㅇㅎㅕㅂ	-9231
▁ㅁㅜㄴㄱㅓㄴ	-9232
ㅅㅓㅇㅈㅣㄹㅊㅔ	-9233
▁Str	-9234
▁ㅆㅓㅁ	-9235
ㄷㅗㅇㅅㅏ	-9236
ㅇㅕㄴㅎㅘ	-9237
▁ㅈㅓㅁㅎㅏ	-9238
▁ㄱㅗㅇㅅㅓㄱ	-9239
▁ㅊㅗㅇㄱㅜㄱ	-9240
ㅂㅏㄹㄹㅣ	-9241
▁ㅁㅏㄴㄷㅏ	-9242
▁ㅈㅏㅇㅇㅣ	-9243
ㄷㅓㄱㄱㅜㅇ	-9244
▁ㅎㅏㅇㅅㅐㅇㅈㅔ	-9245
▁ㄱㅘㅇㅎㅏㅂㅅㅓㅇ	-9246
▁ㅈㅓㅂㄱㅡㄴㅅㅓㅇ	-9247
▁ㄱㅗㅂㅎㅏ	-9248
ㄷㅗㅇㅂㅕㄴ	-9249
ㅂㅗㄴㅂㅓㅂ	-9250
▁ㅂㅓㅁㄹㅏㅁ	-9251
▁ㅇㅑㅇㅈㅓㅇ	-9252
▁ㅇㅣㄹㅁㅕㄴ	-9253
▁ㄱㅓㄹㅅㅡ	-9254
▁ㅇㅏㄴㅅㅣ	-9255
ㅊㅜㄱㄱㅜㄱ	-9256
▁Intern	-9257
▁ㅂㅏㄴㄴㅏㅂ	-9258
▁ㅇㅡㅇㄹㅕㄱ	-9259
▁ㅇㅣㄴㅅㅏㅁ	-9260
▁ㅈㅓㅇㅁㅐㄱ	-9261
▁ㅊㅜㄴㅊㅓㄴㅅㅣ	-9262
▁nm	-9263
lect	-9264
▁ㅆㅜㄴ	-9265
▁Kore	-9266
▁ㅅㅓㅇㄴㅐ	-9267
ㄱㅣㄹㅈㅜㄴ	-9268
ㅂㅕㅇㅇㅗㄱ	-9269
ㅇㅜㄴㅌㅣㄴ	-9270
▁DA	-9271
ㄴㅣㄴㅈㅜ	-9272
ㄷㅔㄱㅅㅡ	-9273
▁ㄷㅏㄴㅅㅜ	-9274
▁ㄷㅗㅇㄷㅜ	-9275
▁ㅇㅘㅇㄴㅕ	-9276
▁ㅊㅓㄴㅈㅏ	-9277
▁ㄷㅗㅇㄱㅡㅂ	-9278
▁ㅇㅛㅇㅁㅐㅇ	-9279
▁ㅇㅑㅇㅍㅕㅇㄱㅜㄴ	-9280
ㅇㅣㅇㄱㅡㄹㄹㅐㄴㄷㅡ	-9281
▁ㅋㅏㄹㄹㅔ	-9282
ㄴㅏㅁㄷㅗㅇ	-9283
ㅎㅘㅇㄹㅕㅇ	-9284
▁ㅈㅏㅇㅅㅡㅇ	-9285
▁ㅌㅗㅇㅊㅏㄹ	-9286
▁ㅇㅕㅇㅁㅜㄴㅎㅏㄱ	-9287
▁ㄱㅡㅅ	-9288
ㄷㅔㄹㄹㅏ	-9289
▁ㄱㅣㄹㅂㅓ	-9290
▁ㅇㅏㅇㅅㅏㅇ	-9291
▁ㄱㅜㄱㅂㅏㅇㄱㅜㄴ	-9292
▁BO	-9293
ames	-9294
ㄱㅗㄴㅈㅡ	-9295
ㅇㅣㄹㅊㅔ	-9296
▁ㅅㅔㄹㅈㅜ	-9297
▁ㅊㅜㄴㄱㅖ	-9298
▁ㅂㅗㅇㅂㅜㄴ	-9299
▁ㅊㅣㄹㄱㅗㄱ	-9300
▁ㄱㅗㅇㅅㅓㅇㅈㅓㄴ	-9301
▁ㄹㅕㄹ	-9302
ㅂㅏㅇㄷㅗ	-9303
▁ㅂㅏㄹㄹㅜ	-9304
▁ㅅㅐㄹㄹㅓ	-9305
▁ㄱㅠㄴㄷㅡㅇ	-9306
▁ㄷㅏㅇㅅㅏㅇ	-9307
▁ㅁㅣㄴㅅㅓㄴ	-9308
▁ㅅㅏㅇㅊㅡㅇ	-9309
▁ㅊㅜㅇㄷㅗㅇ	-9310
ㅅㅣㄱㅊㅜㄱㄱㅜ	-9311
ove	-9312
▁Fl	-9313
▁370	-9314
ㅂㅓㅂㅂㅜ	-9315
▁ㄱㅓㄹㅇㅓ	-9316
▁ㅍㅔㄹㄹㅔ	-9317
▁ㅎㅑㅇㄹㅗ	-9318
ㅂㅓㅁㅅㅓㄱ	-9319
▁ㅈㅏㅇㄹㅗㄴ	-9320
▁ㅊㅗㅇㅅㅐㅇㅅㅏㄴ	-9321
ox	-9322
▁225	-9323
ㅌㅗㅇㅅㅜ	-9324
▁ㅋㅏㅂㅋㅏ	-9325
▁ㅂㅜㄹㅁㅜㄴ	-9326
▁ㅂㅣㅊㄲㅏㄹ	-9327
▁ㅇㅘㅇㄹㅡㅇ	-9328
▁ㅍㅜㅅㅅㅏㄹ	-9329
ty	-9330
ㄴㅕㅁㅅㅏ	-9331
ㅂㅏㄹㅌㅡ	-9332
▁ㅁㅏㄴㅅㅜ	-9333
▁ㅅㅡㅇㅁㅏ	-9334
▁ㅇㅕㄹㄱㅓ	-9335
▁ㅇㅗㅁㄴㅣ	-9336
▁ㅋㅗㅁㅂㅣ	-9337
ㄴㅏㅁㅅㅓㄴ	-9338
ㅅㅡㅇㅎㅜㄴ	-9339
ㅇㅣㄴㄷㅏㄴ	-9340
▁ㄱㅕㅇㅎㅏㅂ	-9341
▁ㅈㅗㅇㅅㅣㄹ	-9342
ors	-9343
▁ㅋㅐㅇ	-9344
▁NATO	-9345
▁ㄱㅏㅇㅇㅠ	-9346
▁ㅊㅓㄹㄱㅡㄴ	-9347
▁ㅎㅏㅇㄱㅗㅇㅇㅜ	-9348
▁SG	-9349
ㅂㅓㄱ	-9350
▁440	-9351
ature	-9352
▁2500	-9353
▁ㄷㅓㅍㅊㅣ	-9354
▁ㅅㅏㅇㅇㅣ	-9355
ㅈㅓㄴㄹㅕㄱ	-9356
▁System	-9357
▁ㄱㅡㅁㄱㅘㄴ	-9358
▁ㅈㅡㅇㅊㅜㄱ	-9359
▁ㅈㅣㄴㅇㅝㄴ	-9360
24	-9361
UM	-9362
ㄸㅡㅁ	-9363
▁ㅌㅜㅁ	-9364
▁ㄱㅏㅇㄱㅏ	-9365
▁ㅊㅓㄴㅌㅐ	-9366
▁ㅇㅑㅇㄴㅕㅁ	-9367
▁ㄷㅔㄱ	-9368
ㅎㅘㅇㅈㅔ	-9369
▁ㄱㅘㄴㅈㅓ	-9370
▁ㄱㅜㄴㅇㅟ	-9371
ㄹㅐㄴㅅㅣㅅ	-9372
ㅅㅜㄹㅍㅜㅁ	-9373
ㅊㅓㅇㅈㅏㅇ	-9374
▁ㄴㅗㅇㄷㅏㅁ	-9375
▁747	-9376
▁Mag	-9377
▁ㄱㅕㄹㅇㅕ	-9378
▁ㄷㅗㅇㅊㅔ	-9379
ㄱㅡㄱㄷㅏㄴ	-9380
ㅇㅕㄴㅅㅏㅇ	-9381
▁ㄸㅏㄱㄸㅏㄱ	-9382
▁ㅇㅕㄹㄹㅏㅁ	-9383
▁ㅊㅓㅇㅈㅓㅇ	-9384
▁ㅇㅏㄹㅋㅏㄹㄹㅣ	-9385
▁ㅇㅘㅇㄷㅏㅇㅍㅏ	-9386
▁ㅈㅓㄴㅁㅏㅇㄷㅐ	-9387
▁ㅅㅣㄴㅇㅏㄴㄱㅜㄴ	-9388
▁ㄴㅖ	-9389
▁ㄸㅜㅀㄹㅣ	-9390
▁ㅂㅏㄴㅎㅑㅇ	-9391
▁ㅂㅜㄹㅂㅗㄱ	-9392
▁ㅇㅝㄴㅎㅏㄴ	-9393
▁Get	-9394
▁Hot	-9395
ㄷㅜㄴㅈㅣ	-9396
ㅎㅏㅂㅇㅝㄴ	-9397
▁ㄱㅜㄱㅁㅜㄴ	-9398
▁ㅂㅏㄴㄷㅏㄹ	-9399
▁ㅅㅣㄴㅊㅓㄴ	-9400
▁ㅈㅓㄴㄷㅗㅇ	-9401
ㄷㅗㅇㅂㅕㄴㅅㅗㄱㄱㅣ	-9402
▁SW	-9403
ㅇㅛㅁ	-9404
▁Dis	-9405
▁1400	-9406
▁ㅇㅡㄹㅅㅜ	-9407
▁ㅈㅓㅂㅅㅣ	-9408
▁ㅎㅔㄴㄷㅡ	-9409
▁ㅇㅑㄱㅍㅜㅁ	-9410
ㄴㅈㅣㅂㅎㅏㅂ	-9411
ㅍㅐㄱㅅㅡ	-9412
▁ㅁㅓㄴㄹㅗ	-9413
▁ㅇㅑㄱㅅㅜ	-9414
▁ㅍㅜㅇㅇㅛ	-9415
▁ㅎㅓㄹㄹㅣ	-9416
ㅅㅡㄹㄹㅗㄴ	-9417
ㅇㅑㅇㄱㅘㅇ	-9418
▁ㅂㅏㄹㅇㅕㄹ	-9419
▁ㅇㅝㄴㄱㅗㄱ	-9420
▁ㅎㅕㄴㄱㅘㄴ	-9421
▁ㄱㅏㅇㄹㅡㅇㅅㅣ	-9422
BN	-9423
▁GPS	-9424
▁ㅋㅣㅂ	-9425
ㄹㄹㅣㅁ	-9426
▁Back	-9427
▁ㅂㅓㄱㅅㅡ	-9428
▁ㄱㅘㄴㅇㅝㄴ	-9429
▁ㅇㅕㅇㅅㅓㅇ	-9430
▁ㅈㅣㄴㅅㅓㅇ	-9431
▁ㄱㅣㅁㅈㅗㅇㅈㅣㄱ	-9432
▁ㅎㅏㄴㅈㅓㅇㅍㅏㄴ	-9433
za	-9434
ㄷㅙ	-9435
▁CA	-9436
▁365	-9437
▁ㅇㅔㅂ	-9438
▁ㄱㅜㅇㅅㅜ	-9439
▁ㅂㅕㄴㅈㅗ	-9440
▁ㅇㅝㄹㄱㅕㅇ	-9441
▁ㅈㅓㄴㄱㅗㄱ	-9442
▁ㅌㅏㄴㅅㅓㅇ	-9443
▁ㅎㅏㅇㅁㅜㄴ	-9444
▁ㅎㅕㄹㅇㅐㄱㅎㅕㅇ	-9445
▁207	-9446
▁MIT	-9447
ㅍㅔㄴㅅㅓ	-9448
▁class	-9449
▁ㅇㅘㄴㅅㅏㄴ	-9450
▁ㅇㅏㅂㄷㅜㄹㄹㅏ	-9451
ART	-9452
RNA	-9453
let	-9454
▁1801	-9455
▁Type	-9456
ㅅㅓㄴㅅㅏ	-9457
▁ㅁㅔㄴㅌㅗ	-9458
▁ㄷㅗㅇㅂㅜㄱㅂㅜ	-9459
▁ㄴㅏㅁㅎㅏㄴㅅㅏㄴㅅㅓㅇ	-9460
GO	-9461
app	-9462
ery	-9463
▁'-	-9464
▁911	-9465
▁IEC	-9466
▁ㅂㅗㄴㄱㅓ	-9467
▁ㅅㅐㅇㄱㅏ	-9468
▁ㅅㅓㄱㅈㅐ	-9469
▁ㅇㅣㄴㅅㅏㄴㅎㅘ	-9470
▁ㅈㅓㄴㄷㅗㅇㄱㅣ	-9471
▁ㅇㅏㅇㅅㅏㅇㅂㅡㄹ	-9472
FS	-9473
▁PH	-9474
ology	-9475
▁1789	-9476
▁type	-9477
ㄷㅡㄴㅂㅓ	-9478
ㄹㅗㄱㅅㅣ	-9479
▁ㅇㅘㅇㅈㅘ	-9480
▁ㅊㅏㅇㅆㅣ	-9481
ㅍㅕㅇㅊㅓㄴ	-9482
ㅎㅜㄴㄹㅕㄴ	-9483
▁ㅁㅕㅇㄷㅗㅇ	-9484
▁FS	-9485
▁ㅎㅏㅁㅇㅢ	-9486
ㅅㅏㄴㅇㅡㅂ	-9487
▁ㅇㅜㄴㅅㅓㄱ	-9488
▁ㅅㅓㅇㅈㅏ	-9489
▁ㅇㅕㄴㅇㅓ	-9490
ㄹㅣㅁㄷㅗㅇ	-9491
▁ㄱㅣㅁㅈㅏㅇ	-9492
▁ㄴㅗㄱㅁㅏㄹ	-9493
▁ㅅㅣㄴㄱㅜㅇ	-9494
▁ㅈㅓㄴㄱㅡㄱ	-9495
▁ㅋㅐㅂㅌㅣㄴ	-9496
▁ㅌㅏㄴㄱㅘㅇ	-9497
▁ㅎㅏㅂㅈㅏㅇ	-9498
▁ㅂㅏㅇㅁㅜㄴㄱㅐㄱ	-9499
▁Cent	-9500
ㄹㅏㄱㅂㅜ	-9501
▁ㅂㅜㄱㅅㅗㅇ	-9502
▁ㅇㅏㄴㄹㅏㄱ	-9503
▁ㅎㅏㅇㅈㅓㄴ	-9504
▁ㅅㅐㅇㅁㅜㄹㅎㅏㄱㅈㅏ	-9505
▁ㅇㅓㄹㄹㅣ	-9506
▁ㅇㅗㅂㅌㅣ	-9507
▁ㅅㅗㄴㅅㅟㅂ	-9508
▁ㅇㅛㅇㅇㅕㄱ	-9509
▁OK	-9510
ㄸㅓㄹㅇㅓ	-9511
ㄹㅑㅇㄱㅣ	-9512
▁ㅂㅣㄹㄹㅔ	-9513
▁ㅈㅓㅇㅇㅜ	-9514
▁ㅋㅐㄴㅌㅓ	-9515
▁ㅋㅡㄹㄹㅜ	-9516
ㅂㅐㄱㅅㅐㄱ	-9517
▁ㄱㅣㅁㅇㅡㄴ	-9518
▁ㄷㅓㄴㅈㅓㄴ	-9519
inal	-9520
▁Res	-9521
▁Baby	-9522
ㅂㅗㄴㄱㅏ	-9523
▁ㅂㅏㄴㅈㅏ	-9524
▁ㅅㅓㅇㅈㅔ	-9525
▁ㅇㅏㄹㅂㅣ	-9526
▁ㅈㅏㅇㅅㅓ	-9527
▁ㅎㅘㅇㅇㅟ	-9528
▁ㅁㅐㅇㄹㅕㄹ	-9529
▁ㅅㅣㄴㅇㅣㄱㅎㅢ	-9530
▁ㅇㅕㅇㅈㅏㅇㄹㅠ	-9531
ㅊㅞ	-9532
enn	-9533
ons	-9534
▁TOP	-9535
▁War	-9536
ㅊㅜㄹㅅㅗ	-9537
ㄹㅣㅇㅌㅓㄴ	-9538
ㅊㅗㄴㄷㅗㅇ	-9539
▁Google	-9540
▁ㅇㅕㄱㄷㅗㅇ	-9541
▁ㅈㅓㅂㅁㅗㄱ	-9542
▁ㅈㅓㄴㅊㅓㄹㅇㅕㄱ	-9543
▁ㄲㅡㅁ	-9544
ㅅㅏㄹㅍㅣ	-9545
▁ㅂㅜㄹㅂㅓㅂㅎㅐㅇㅇㅟ	-9546
▁Ke	-9547
▁Amer	-9548
▁ㄷㅓㄱㅅㅜ	-9549
▁ㄱㅗㅇㅎㅜㄴ	-9550
▁ㅅㅓㄱㄷㅡㅇ	-9551
ina	-9552
ㄴㅛㄹ	-9553
▁Mac	-9554
▁Tra	-9555
ㄷㅏㅇㄹㅠ	-9556
ㄷㅓㄱㄱㅜ	-9557
ㅈㅏㅁㅂㅣ	-9558
ㅋㅓㄴㄷㅡ	-9559
ㅌㅓㄴㅅㅡ	-9560
▁ㄲㅡㄶㅇㅣ	-9561
▁ㄷㅗㅇㅍㅡ	-9562
▁ㅇㅏㄱㅇㅓ	-9563
▁ㅈㅜㄴㅎㅏ	-9564
ㄱㅕㅇㅊㅏㄹ	-9565
▁ㄱㅜㄱㅅㅏㄴ	-9566
▁ㄴㅗㄴㅍㅕㅇ	-9567
▁ㅇㅑㅇㄷㅗㅇ	-9568
▁ㅇㅗㄴㅈㅓㄴ	-9569
▁ㅈㅣㄱㅎㅏㄹㅅㅣ	-9570
▁ㅂㅜㄺㅇㅡㄴㅅㅐㄱ	-9571
ux	-9572
▁Cr	-9573
▁WHO	-9574
▁ㅆㅣㄴ	-9575
▁1815	-9576
ㅇㅝㄹㄷㅡ	-9577
▁ㄴㅏㅁㅍㅗ	-9578
▁ㅂㅏㄱㅌㅐ	-9579
▁ㅅㅡㅂㄷㅗ	-9580
▁ㅈㅣㄱㄹㅠ	-9581
▁ㅅㅣㄴㅇㅏㄴ	-9582
▁Dr	-9583
▁ㄷㅜㅁ	-9584
▁ㅂㅓㅂㅎㅘ	-9585
▁ㄴㅏㅊㅅㅓㄹ	-9586
▁ㄴㅡㅇㅅㅜㄱ	-9587
▁ㅇㅛㅇㅈㅓㅂ	-9588
▁ㅈㅜㅇㅅㅣㄴ	-9589
▁ㅈㅡㅇㅈㅣㄱ	-9590
▁ㅅㅐㅇㅅㅏㄴㅈㅏ	-9591
▁ㅂㅏㅇㅂㅓㅂㄹㅗㄴ	-9592
▁ㅂㅑ	-9593
ange	-9594
▁ㅍㅐㄴㅇㅏ	-9595
▁ㄱㅏㅁㄷㅏㅇ	-9596
▁ㅈㅣㄴㅅㅣㅁ	-9597
ㅈㅓㄴㄹㅣ	-9598
▁ㅁㅕㅇㅈㅜ	-9599
▁ㅂㅕㄴㅈㅜ	-9600
▁ㅇㅑㅇㅇㅟ	-9601
▁ㅊㅏㄴㄷㅡ	-9602
ㄴㅓㄹㅁㅗㄱ	-9603
▁ㄷㅏㅁㅇㅣㅁ	-9604
▁ㅈㅓㄴㅇㅕㄹ	-9605
▁ㄱㅜㄴㅅㅏㄴㅅㅣ	-9606
▁ㄱㅓㄴㄴㅓㄹㅁㅗㄱ	-9607
ㅇㅏㅍ	-9608
ㅇㅜㄴㅌㅓ	-9609
ㅈㅡㅇㄱㅣ	-9610
▁ㄴㅡㅈㅊㅜ	-9611
▁ㅇㅔㅁㅁㅏ	-9612
▁ㅋㅐㄴㄷㅣ	-9613
▁ㅎㅏㄴㄹㅏ	-9614
ㅅㅣㄹㅎㅓㅁ	-9615
▁ㄷㅏㅁㅈㅏㅇ	-9616
▁ㅁㅏㅈㄷㅏㅎ	-9617
▁ㅂㅜㄹㄴㅡㅇ	-9618
▁ㅆㅏㅇㅇㅛㅇ	-9619
▁ㅅㅓㅇㅂㅜㄱㄱㅜ	-9620
▁ㅎㅕㄱㅁㅕㅇㄱㅏ	-9621
ㅂㅓㅂㅇㅝㄴㅈㅏㅇ	-9622
ㅁㅔㅅ	-9623
ㅈㅔㄹㄹㅣ	-9624
▁ㅅㅏㅇㅎㅚ	-9625
▁ㅇㅟㄴㅅㅡ	-9626
▁ㅈㅣㄴㄱㅜ	-9627
ㅂㅜㄹㅁㅕㅇ	-9628
ㅇㅑㄱㅈㅓㅁ	-9629
ㅈㅓㄱㅂㅜㄴ	-9630
▁ㅎㅡㅂㅇㅣㅂ	-9631
▁ㄷㅗㄱㄹㅣㅂㅅㅓㄴㅇㅓㄴ	-9632
yle	-9633
ㄷㅔㄱ	-9634
ㄴㅗㄹㄷㅡ	-9635
▁ㄱㅗㄴㄷㅗ	-9636
▁ㄴㅗㄱㅇㅣ	-9637
▁ㅂㅗㄴㅊㅗ	-9638
▁ㅅㅔㄹㄹㅓ	-9639
▁ㅈㅏㄴㅊㅣ	-9640
▁ㅈㅡㅇㄹㅠ	-9641
▁ㅈㅣㄱㄱㅏㄱ	-9642
ㅅㅠㅇ	-9643
▁USA	-9644
ㄷㅓㄴㅅㅡ	-9645
ㅅㅏㄹㅂㅏ	-9646
▁ㅈㅣㅇㅎㅜ	-9647
▁ㄱㅕㅇㅅㅏㄴ	-9648
▁ㅇㅏㄴㄱㅓㄴ	-9649
▁ㅇㅣㅅㄷㅏㄹ	-9650
▁ㅊㅜㄹㅈㅓㅇ	-9651
▁ㄷㅗㅇㅇㅣㄹㅅㅣ	-9652
▁ㅅㅐㅇㄱㅣㅁㅅㅐ	-9653
▁ㅆㅙ	-9654
ater	-9655
▁1858	-9656
ㅇㅑㄱㅅㅓ	-9657
ㅈㅓㅇㄱㅠ	-9658
▁ㄱㅡㅁㄹㅣ	-9659
▁ㅈㅏㄱㅈㅏ	-9660
▁ㅈㅓㄴㄱㅘ	-9661
▁ㅊㅣㅁㅅㅜ	-9662
ㅈㅣㄹㄹㅑㅇ	-9663
▁ㅈㅓㅇㅈㅜㅇ	-9664
▁ㅎㅡㄱㅅㅐㄱ	-9665
▁ㅈㅓㅇㅁㅗㅇㅈㅜ	-9666
UI	-9667
▁238	-9668
▁Int	-9669
ㄹㅏㄹㄷㅡ	-9670
▁ㄱㅏㄴㅈㅣ	-9671
▁ㅅㅓㄴㅅㅓ	-9672
▁ㅇㅏㅁㅊㅗ	-9673
▁ㅎㅠㅇㄴㅐ	-9674
ㄷㅔㄹㄹㅣㅇ	-9675
▁ㅎㅐㅇㅇㅜㄴ	-9676
▁ㅂㅜㄴㅎㅗㅇㅅㅐㄱ	-9677
IO	-9678
TN	-9679
▁Not	-9680
▁ㄸㅡㄷ	-9681
ㄱㅡㄱㅎㅣ	-9682
▁ㄱㅏㅇㅈㅏ	-9683
▁ㅅㅓㄹㄱㅘ	-9684
▁ㅇㅏㄴㅈㅐ	-9685
▁ㅇㅕㅇㅈㅐ	-9686
▁ㅈㅓㅇㄱㅘ	-9687
▁ㅈㅓㅇㅇㅕ	-9688
ㄱㅡㅁㅅㅗㄱ	-9689
▁ㄴㅏㅁㄱㅜㅇ	-9690
▁ㅅㅡㅇㅅㅓㄴ	-9691
▁ㅈㅓㅇㅈㅣㄱ	-9692
▁ㅈㅗㅇㄷㅏㄴ	-9693
▁EN	-9694
▁ㅆㅓ	-9695
▁ㅊㅏㅇㅅㅔ	-9696
▁ㅂㅐㄹㄹㅓㄴ	-9697
▁ㅈㅓㅇㅎㅕㄴ	-9698
▁ㅎㅕㅇㄱㅘㅇ	-9699
ions	-9700
▁ㄷㅏㅁㄱㅡ	-9701
▁ㅁㅗㄱㅎㅘ	-9702
▁ㅍㅐㄹㄹㅣ	-9703
▁ㅎㅘㅇㅎㅏ	-9704
▁ㅅㅐㅇㅈㅏㅇ	-9705
23	-9706
26	-9707
ret	-9708
▁ㅇㅛㄴ	-9709
▁ㄱㅜㅇㄴㅐ	-9710
▁ㅋㅏㅁㅍㅗ	-9711
▁ㅎㅐㄹㄹㅣ	-9712
▁ㅇㅣㄹㄹㅏㅁ	-9713
▁ㅊㅜㄹㅂㅕㅇ	-9714
▁BB	-9715
▁TBC	-9716
▁MPEG	-9717
ㄱㅐㅇㅇㅣ	-9718
▁ㄱㅏㅂㅇㅗ	-9719
▁ㄱㅠㄴㅇㅕㄹ	-9720
▁ㅁㅕㅇㅈㅏㅇ	-9721
▁ㅇㅟㅅㅁㅕㄴ	-9722
▁ㅇㅠㄴㄱㅘㄱ	-9723
▁ㅇㅡㅁㅇㅕㄱ	-9724
▁ㅈㅓㄴㅈㅣㅂ	-9725
▁ㅌㅏㄴㄹㅕㄱ	-9726
▁ㅇㅣㄹㅈㅣㄴㅎㅚ	-9727
▁ㅎㅏㄱㅅㅐㅇㅎㅚ	-9728
▁ㅇㅣㄴㅁㅜㄴㅎㅏㄱ	-9729
▁ㄱㅏㅂㅅㅣㄴㅈㅓㅇㅂㅕㄴ	-9730
▁MHz	-9731
ㅈㅓㄴㅈㅜ	-9732
ㅌㅏㄹㄹㅗ	-9733
▁ㄱㅣㅁㅅㅔ	-9734
▁ㅌㅏㄹㅍㅣ	-9735
ㅎㅏㄱㅅㅏㄹ	-9736
▁ㄱㅕㄱㅊㅣㅁ	-9737
▁ㅂㅔㄹㅂㅔㅅ	-9738
▁ㅅㅡㅇㄴㅏㄱ	-9739
▁ㅅㅣㄹㅅㅏㅇ	-9740
▁ㅊㅓㅅㄴㅏㄹ	-9741
▁ㅍㅡㄹㄹㅏㅇㄷㅡ	-9742
▁kW	-9743
▁COM	-9744
▁What	-9745
▁ㄱㅏㅇㅌㅏ	-9746
▁ㄱㅕㅇㄱㅜ	-9747
▁ㄱㅗㅇㅂㅗ	-9748
▁ㅂㅏㄹㅊㅞ	-9749
ㄱㅗㅇㅇㅝㄴ	-9750
▁ㅇㅝㄴㅅㅐㅇ	-9751
▁ㅈㅓㅇㅇㅣㄹ	-9752
▁ㅋㅗㄴㅅㅔㅂ	-9753
▁MR	-9754
ㅋㅗㅂ	-9755
ㅂㅏㄴㅂㅜ	-9756
▁ㄱㅗㅇㅈㅣ	-9757
▁ㅊㅣㄴㅎㅣ	-9758
▁ㅌㅡㄱㅇㅟ	-9759
▁ㅍㅗㄱㅈㅜ	-9760
▁ㅍㅜㅇㅅㅜ	-9761
ㄱㅏㄱㅅㅓㄴ	-9762
ㅅㅓㅇㄷㅗㅇ	-9763
ㅇㅡㅁㅅㅗㄱ	-9764
▁ㅈㅡㄱㅎㅡㅇ	-9765
▁ㅊㅐㄱㅈㅓㅇ	-9766
▁ㅌㅗㅇㅋㅣㅇ	-9767
▁ㅇㅣㄱㅅㅏㄴㅅㅣ	-9768
▁ㅎㅔㄹㅅㅣㅇㅋㅣ	-9769
ㅊㅠ	-9770
▁Vf	-9771
▁Way	-9772
▁High	-9773
ㄱㅏㄴㅈㅜ	-9774
▁ㅂㅏㄴㅇㅑ	-9775
▁ㅈㅏㄱㅇㅏ	-9776
▁ㅈㅏㅇㅈㅜㄴ	-9777
▁ㅈㅓㅇㄱㅗㅇ	-9778
ㅂㅓㅂㅇㅕㄴㅎㅘ	-9779
▁ㅍㅕㅇㅌㅐㄱㅅㅣ	-9780
▁ㅅㅏㄴㅇㅓㅂㄷㅏㄴㅈㅣ	-9781
ye	-9782
ㅈㅜㅁ	-9783
▁ㅋㅔㅅ	-9784
▁time	-9785
ㄱㅡㄱㄱㅣ	-9786
ㄹㅔㄴㅊㅗ	-9787
▁COVID	-9788
▁ㄱㅏㅇㄱㅜ	-9789
▁ㅇㅑㅇㅊㅣ	-9790
ㄹㅓㅁㅍㅔㅅ	-9791
▁ㅁㅕㄴㅇㅡㄴ	-9792
▁ㅂㅏㄱㄷㅗㅇ	-9793
ㄷㅡㅂㄴㅏ	-9794
▁ㅂㅏㄹㄷㅔ	-9795
▁ㅅㅏㅇㅎㅐ	-9796
▁ㄷㅓㅇㄱㅜㄹ	-9797
▁ㅂㅗㅇㅎㅓㄴ	-9798
▁ㄴㅏㅁㅂㅏㄴㄱㅜ	-9799
▁ㅎㅏㅂㅊㅓㄴㄱㅜㄴ	-9800
▁1820	-9801
▁ㅅㅓㄴㄷㅔ	-9802
▁ㅇㅕㄱㅁㅜ	-9803
▁ㅎㅘㄴㄱㅣ	-9804
ㄷㅡㄱㅈㅓㅁ	-9805
▁ㅎㅗㅇㅊㅓㄴ	-9806
28	-9807
▁ED	-9808
ㄹㅏㅅ	-9809
▁ㄷㅜㄱ	-9810
▁1300	-9811
ㅎㅐㅇㅇㅓ	-9812
▁ㄱㅏㄹㅂㅣ	-9813
▁ㄷㅗㅇㅌㅣ	-9814
▁ㅅㅏㅇㅌㅜ	-9815
▁ㅇㅓㄹㅅㅡ	-9816
▁ㅇㅣㄹㄹㅏ	-9817
▁ㄱㅘㅇㄷㅗㅇ	-9818
▁ㅁㅏㅈㅁㅜㄹㄹㅣ	-9819
▁ㄴㅗㅇㅁㅣㄴㄱㅜㄴ	-9820
▁ㅇㅣㅂㅊㅜㄹㄹㅕㄱ	-9821
ING	-9822
att	-9823
enc	-9824
ㅋㅜㄴ	-9825
ㅁㅜㄴㄱㅗ	-9826
▁ㄷㅏㄹㅁㅏ	-9827
▁ㄱㅕㄱㅅㅏㅇ	-9828
▁ㄱㅘㅇㅌㅐㄱ	-9829
▁ㄷㅗㅇㄹㅠㄹ	-9830
ley	-9831
▁RA	-9832
▁223	-9833
▁Blue	-9834
ㄹㅐㄴㅈㅣ	-9835
ㅎㅏㅇㅎㅐ	-9836
▁ㄷㅏㄴㅅㅏ	-9837
ㅌㅣㄹㄹㅔㄴ	-9838
▁ㄱㅣㅁㅅㅓㄱ	-9839
▁Of	-9840
▁With	-9841
▁ㄴㅏㅁㅌㅐ	-9842
▁ㅁㅣㄴㄱㅏ	-9843
▁ㅅㅐㅇㅍㅗ	-9844
▁ㅇㅏㄵㅎㅣ	-9845
▁ㅇㅞㄹㅅㅡ	-9846
▁ㅊㅜㄴㅎㅑㅇ	-9847
▁ㅍㅕㅇㅅㅏㅇㅅㅣ	-9848
▁ㄱㅜㄱㅁㅜㄴㅎㅏㄱ	-9849
▁290	-9850
▁ㄱㅗㅇㅎㅐ	-9851
▁ㅎㅏㄱㄷㅗ	-9852
▁ㄱㅜㄴㄹㅣㅁ	-9853
▁ㅂㅜㄱㅂㅏㄴㄱㅜ	-9854
▁MLB	-9855
▁1814	-9856
▁ㄱㅗㄹㅅㅜ	-9857
ㅅㅏㅁㅊㅗㄴ	-9858
▁ㄱㅣㅍㅅㅜㄱ	-9859
▁ㅁㅏㄴㅁㅜㄹ	-9860
▁ㅂㅕㅇㅇㅣㄴ	-9861
▁ㅊㅏㅇㅇㅓㅂㅈㅏ	-9862
der	-9863
▁480	-9864
ㅂㅗㄹㄹㅏ	-9865
ㅂㅏㄴㅈㅓㄴ	-9866
ㅌㅏㅁㅈㅓㅇ	-9867
▁ㅋㅔㄹㅂㅣㄴ	-9868
▁ㅎㅗㅂㅋㅣㄴㅅㅡ	-9869
▁ㅅㅏㄴㄷㅜㅇㅅㅓㅇ	-9870
OVE	-9871
▁737	-9872
ㅇㅔㄹㄹㅔ	-9873
▁ㅇㅏㄱㅇㅢ	-9874
▁ㅇㅠㅇㄱㅣ	-9875
▁ㄱㅜㄴㄹㅏㄱ	-9876
▁ㅊㅜㄹㅎㅏㅇ	-9877
▁BR	-9878
ㄹㅗㄹㄹㅜ	-9879
ㅂㅏㄴㅌㅡ	-9880
▁ㅅㅣㄴㅇㅣ	-9881
▁ㄱㅣㅂㅅㅡㄴ	-9882
▁ㄹㅗㄹㅍㅡㄹㄹㅔ	-9883
▁ㅊㅓㄴㅇㅕㄴㄱㅏ	-9884
▁ㅌㅗㅇㅅㅣㄴㅂㅜ	-9885
▁KC	-9886
ough	-9887
▁850	-9888
▁1795	-9889
ㄹㅣㅇㅅㅡ	-9890
ㅇㅑㅇㅈㅣ	-9891
▁ㄷㅗㅅㅌㅗ	-9892
▁ㄱㅏㄴㅇㅕㅁ	-9893
▁ㅅㅏㅇㅈㅏㄱ	-9894
▁ㅈㅏㅇㅌㅐㄱ	-9895
▁NL	-9896
▁214	-9897
▁Art	-9898
▁ㅃㅜㅁ	-9899
ㄷㅗㄱㅈㅏ	-9900
ㄹㅗㄴㅎㅚ	-9901
ㅅㅣㄴㄷㅗ	-9902
ㅎㅐㅇㅎㅣ	-9903
▁ㅅㅣㄹㅋㅡ	-9904
▁ㅍㅐㄱㅌㅗ	-9905
ㅊㅜㄹㅇㅐㄱ	-9906
▁ㄱㅕㄹㄹㅕㄹ	-9907
▁ㄷㅡㄱㅅㅣㄹ	-9908
▁ㅁㅕㅇㅈㅜㅇ	-9909
▁ㅅㅜㄹㅈㅣㅂ	-9910
▁ㅈㅣㄱㅎㅏㅁ	-9911
▁ㅎㅏㅂㅅㅏㄴ	-9912
ump	-9913
▁ㅋㅗㅅ	-9914
ㄹㅐㅇㅍㅣ	-9915
▁ㅅㅣㄴㄱㅜ	-9916
▁ㅅㅣㄴㄱㅘㄴ	-9917
▁ㅈㅓㄴㄹㅏㄴ	-9918
▁ㅎㅔㄹㄹㅔㄴ	-9919
▁ㅇㅗㄹㄹㅐㅇㅍㅣ	-9920
▁ㅈㅓㅇㅎㅘㄱㄷㅗ	-9921
ㄹㅓㅂㅇㅕㄴㅎㅏㅂ	-9922
▁ME	-9923
▁1846	-9924
ㅇㅑㄱㅅㅡ	-9925
ㅇㅛㅇㅎㅣ	-9926
▁ㅇㅣㄴㄴㅗ	-9927
▁ㅊㅗㅇㅅㅜ	-9928
▁ㄱㅗㅇㄷㅓㄱ	-9929
▁ㅂㅗㄴㄷㅏㅇ	-9930
▁ㅅㅗㄴㅊㅐㄱ	-9931
alk	-9932
ㅎㅐㅇㄷㅐ	-9933
▁ㅁㅗㄴㅌㅐ	-9934
▁ㅇㅓㄹㅌㅓ	-9935
ㄱㅓㄴㅈㅓㄱ	-9936
▁ㄹㅐㄴㄷㅓㅁ	-9937
▁ㅈㅐㅇㅈㅓㅁ	-9938
▁ㅊㅗㄴㅇㅡㄴ	-9939
ㄱㅏㄱㅊㅗㅇㄹㅣ	-9940
▁ㅊㅏㅇㄷㅓㄱㄱㅜㅇ	-9941
▁Min	-9942
ㅇㅛㅇㄱㅣ	-9943
▁ㄱㅡㅂㅅㅏ	-9944
▁ㅅㅓㅇㅂㅜ	-9945
ㄷㅏㄹㅇㅡㅁ	-9946
▁ㅅㅜㄴㅈㅓㅇ	-9947
▁ㅇㅑㄱㅎㅏㄱ	-9948
▁ㅂㅏㄹㄹㅔㄴㅌㅣ	-9949
▁ㅅㅓㄴㅇㅓㄴㅁㅜㄴ	-9950
ㅇㅣㄴㅈㅏ	-9951
▁ㅇㅟㄴㄷㅡ	-9952
▁ㅂㅜㄹㄱㅣㄹ	-9953
▁ㅇㅣㄴㅅㅣㄴ	-9954
▁ㅈㅗㄴㅅㅏㅇ	-9955
▁ㅊㅓㅇㅈㅜㅇ	-9956
▁ㅇㅕㄴㅅㅡㅂㅅㅐㅇ	-9957
▁ㅊㅜㅇㄹㅕㄹㅇㅘㅇ	-9958
▁Mic	-9959
ㅂㅐㄴㅅㅡ	-9960
ㅍㅐㅇㅇㅣ	-9961
▁ㅍㅗㄴㅌㅡ	-9962
ㄱㅐㄱㅅㅓㄴ	-9963
ㅅㅡㅇㅋㅓㅂ	-9964
ㅇㅜㄴㅈㅓㄴ	-9965
ㅇㅜㄹㅊㅓㄹ	-9966
▁ㄲㅡㅁㅉㅣㄱ	-9967
ㄹㅓㅇㅇㅣ	-9968
ㅇㅣㄴㅅㅜ	-9969
ㅋㅏㄴㅅㅗ	-9970
▁ㄷㅡㅇㄷㅐ	-9971
▁ㅁㅣㄹㅅㅡ	-9972
▁ㅂㅜㄹㄱㅓ	-9973
▁ㅅㅗㄹㅌㅡ	-9974
▁ㅇㅕㅇㅇㅟ	-9975
▁ㅈㅏㅇㅈㅗ	-9976
▁ㅋㅣㄹㄹㅣ	-9977
▁ㄱㅓㄴㄱㅜㄱㄷㅐ	-9978
▁ㅎㅐㄱㅍㅗㄱㅌㅏㄴ	-9979
29	-9980
▁"'	-9981
▁Di	-9982
ㄴㅏㅈ	-9983
▁ㄱㅕㄹㅌㅜ	-9984
▁ㄱㅜㄴㅂㅣ	-9985
▁ㅇㅕㄱㅁㅗ	-9986
▁ㅎㅏㄴㄲㅓ	-9987
▁ㅎㅏㄴㅅㅓ	-9988
▁ㅎㅗㄴㅁㅏ	-9989
▁ㄱㅜㄴㄹㅑㅇ	-9990
▁ㄷㅏㅇㅈㅏㅇ	-9991
▁ㄷㅓㅅㅅㅔㅁ	-9992
▁ㅈㅏㅇㅎㅏㅇ	-9993
ㅈㅣㄱㅎㅏㄹㅅㅣ	-9994
▁ㅎㅕㄱㅁㅕㅇㄱㅜㄴ	-9995
ㅌㅠㄴ	-9996
atch	-9997
▁Rev	-9998
ㅌㅏㅇㅅㅜ	-9999
▁ㄷㅗㄱㅅㅗ	-10000
▁ㅂㅔㄴㅍㅣ	-10001
▁ㅊㅓㅁㅂㅜ	-10002
▁ㅅㅜㅇㅅㅣㄹ	-10003
▁ㅇㅝㄹㅂㅜㄱ	-10004
▁ㅈㅜㅇㅅㅣㅁㅎㅐㄱ	-10005
▁IA	-10006
ㅃㅏㄹㄹㅣ	-10007
▁ㄱㅘㅇㅅㅓ	-10008
▁ㅇㅣㅁㅂㅔ	-10009
▁ㄱㅏㄴㅈㅏㅇ	-10010
▁ㅂㅓㅁㅇㅛㅇ	-10011
▁ㅂㅜㄴㄷㅏㅁ	-10012
▁ㅅㅓㅇㅊㅏㄴ	-10013
▁ㅊㅗㅇㅅㅏㄹ	-10014
▁ㄱㅡㅂㅅㅗㄱㄷㅗ	-10015
ger	-10016
▁TG	-10017
ㅅㅓㄹㅈㅏ	-10018
▁ㅇㅣㄴㄷㅐ	-10019
▁ㅌㅡㄱㅎㅖ	-10020
ㅈㅓㄴㅈㅐㅇ	-10021
▁ㄷㅏㅇㅁㅕㅇ	-10022
▁ㅁㅕㅇㅁㅕㅇㅂㅓㅂ	-10023
▁ㅅㅣㄱㅁㅜㄹㅇㅝㄴ	-10024
86	-10025
▁UR	-10026
▁ㅈㅘㅇ	-10027
▁ㄱㅜㄱㄱㅘ	-10028
▁ㅂㅜㄴㄷㅐ	-10029
▁ㅈㅏㅇㅊㅏ	-10030
ㅁㅜㄹㄹㅗㄴ	-10031
▁ㅂㅗㄹㄹㅠㅁ	-10032
▁ㅈㅓㅇㄱㅏㅇ	-10033
27	-10034
▁ㄱㅠㄹ	-10035
▁ㅇㅑㄹ	-10036
ㄹㅔㄴㅊㅣ	-10037
ㅋㅓㄴㅌㅡ	-10038
▁ㅍㅔㄴㅅㅡ	-10039
▁ㅁㅏㅅㅇㅣㅆ	-10040
▁ㅂㅏㄱㅅㅡㅇ	-10041
▁ㅎㅕㄴㅊㅜㅇ	-10042
▁ㅂㅜㄱㄱㅡㄱㅎㅐ	-10043
▁DL	-10044
cess	-10045
ㅂㅗㄱㅈㅣ	-10046
▁ㄱㅕㄱㅎㅘ	-10047
▁ㅌㅡㅁㅌㅏ	-10048
ㅇㅝㄴㅎㅕㅇ	-10049
▁ㅁㅔㄹㄹㅗㄴ	-10050
▁ㅅㅏㄴㄷㅗㅇ	-10051
▁ㅇㅏㄹㄹㅔㄴ	-10052
▁ㅇㅠㄹㄹㅕㅇ	-10053
▁ㅈㅗㅇㅊㅣㄴ	-10054
HD	-10055
oup	-10056
que	-10057
▁CL	-10058
▁LCD	-10059
▁Free	-10060
ㅎㅓㅁㅈㅏ	-10061
▁ㄹㅐㄴㄷㅣ	-10062
▁ㅂㅏㄱㄱㅣ	-10063
▁ㅅㅣㄴㄴㅏ	-10064
▁ㅇㅣㄴㅍㅣ	-10065
▁ㅈㅓㅇㅅㅣ	-10066
▁ㅊㅓㄴㅈㅓㅇ	-10067
▁ㅊㅗㅇㅇㅐㄱ	-10068
OU	-10069
▁301	-10070
ㅂㅗㅇㅅㅏ	-10071
▁ㅁㅏㅇㄹㅜ	-10072
▁ㄴㅏㄱㅇㅕㅂ	-10073
▁ㄴㅏㅂㅍㅜㅁ	-10074
▁ㅅㅓㅇㄱㅏㄴ	-10075
▁ㅈㅓㄱㅈㅓㄹㅎㅣ	-10076
▁XML	-10077
▁ㅁㅕㅇㅈㅣ	-10078
▁ㅇㅡㅁㄱㅕㅇ	-10079
▁ㄱㅘㄴㅊㅏㄹㅈㅏ	-10080
▁ㅇㅝㄴㅈㅓㅇㄱㅜㄴ	-10081
▁FR	-10082
ㅅㅓㅇㄹㅣ	-10083
▁ㄱㅏㄴㄷㅣ	-10084
▁ㄱㅜㄱㅈㅣ	-10085
▁ㅂㅏㅇㅈㅗ	-10086
▁ㅂㅜㄱㅎㅐ	-10087
▁ㅅㅣㄹㅌㅐ	-10088
▁ㅇㅠㄱㅇㅏ	-10089
▁ㅇㅣㅈㅎㅣ	-10090
ㅇㅣㄴㅇㅕㄱ	-10091
▁ㄱㅕㄹㄷㅏㄴ	-10092
▁ㄷㅗㄱㅅㅣㄹ	-10093
▁ㅅㅗㄹㅈㅣㄱ	-10094
▁ㅅㅣㅁㄱㅡㄴ	-10095
▁ㅇㅡㅁㅇㅑㅇ	-10096
▁ㅎㅐㄴㄷㅡㄹ	-10097
▁ㅎㅕㄴㄹㅕㅇ	-10098
▁ㅎㅙ	-10099
▁211	-10100
▁Top	-10101
▁ㅁㅓㅅ	-10102
▁ㅊㅗㅁ	-10103
▁1851	-10104
▁ㅇㅐㄹㅍㅡ	-10105
▁ㅇㅕㄴㅇㅠ	-10106
▁ㅇㅕㅇㅎㅐ	-10107
▁ㅌㅡㄱㄹㅖ	-10108
▁ㅍㅏㄹㅈㅏ	-10109
ㄴㅕㅁㅅㅣㄱ	-10110
ㅇㅠㄱㅅㅣㄴ	-10111
▁ㄴㅗㄴㅅㅓㄹ	-10112
▁ㅁㅣㄴㄱㅝㄴ	-10113
▁ㅂㅗㅇㅈㅏㄱ	-10114
▁ㅂㅡㄹㄹㅏㅇ	-10115
▁ne	-10116
▁ㄱㅏㅂㄱㅏㄱ	-10117
▁ㅂㅏㄱㅈㅜㄴ	-10118
▁ㅇㅕㄹㅂㅏㄴ	-10119
▁ㅈㅓㅇㅂㅕㅇ	-10120
▁ㅊㅓㄹㅇㅝㄴ	-10121
▁ㅎㅏㄱㄱㅡㅂ	-10122
▁HK	-10123
▁1793	-10124
ㅈㅏㅇㄱㅗ	-10125
ㅎㅡㅇㅅㅏ	-10126
▁ㄴㅏㄱㅌㅐ	-10127
▁ㄷㅏㅁㅎㅘ	-10128
▁ㅈㅗㄹㄹㅣ	-10129
▁ㄱㅕㄹㅅㅣㄹ	-10130
▁ㅂㅗㄴㅈㅣㄴ	-10131
▁ㅇㅑㅇㅂㅜㄴ	-10132
▁ㅇㅏㄴㅈㅜㅇㄱㅡㄴ	-10133
▁ㅇㅓㄱㅈㅣ	-10134
ㅇㅑㄱㄱㅡㅁ	-10135
▁ㄱㅏㄱㄱㅘㅇ	-10136
▁ㅂㅗㄴㄴㅡㅇ	-10137
▁ㅅㅣㄴㅈㅏㄱ	-10138
▁ㅇㅜㅇㅈㅣㄴ	-10139
ㅎㅏㄱㅅㅐㅇㅎㅚ	-10140
▁ㅅㅓㅇㅁㅕㅇㅅㅓ	-10141
▁ㅇㅕㅇㅅㅏㄴㅎㅚ	-10142
ㅁㅏㅌ	-10143
▁ㅅㅏㅁㅋㅣ	-10144
▁ㅇㅝㄴㅈㅔ	-10145
▁ㅍㅓㄴㅊㅣ	-10146
▁ㅎㅗㄴㄷㅗㄴ	-10147
ㅅㅓㅇㄴㅕㄴㅈㅏ	-10148
▁ㅂㅕㅇㅇㅝㄴㅊㅔ	-10149
ㅁㅏㅎ	-10150
ㅎㅣㄴ	-10151
▁1854	-10152
▁1856	-10153
▁Beat	-10154
ㄷㅡㄹㄹㅓ	-10155
ㅇㅕㄴㄹㅛ	-10156
▁ㅂㅓㅈㄲㅗㅊ	-10157
▁ㅎㅐㄱㅅㅏㄴ	-10158
▁ㅆㅏㅇㅂㅏㅇㅇㅜㄹ	-10159
▁Med	-10160
▁set	-10161
▁1839	-10162
ㅅㅗㄴㅈㅏ	-10163
▁ㅊㅓㄴㄱㅜ	-10164
ㅈㅏㅇㄱㅏㄱ	-10165
ㅈㅣㄴㅅㅣㄹ	-10166
▁ㄱㅜㄴㅈㅣㅂ	-10167
▁ㅁㅏㄴㄱㅜㄱ	-10168
▁ㅇㅠㄱㅂㅏㄱ	-10169
▁ㅎㅕㄴㅊㅓㅇ	-10170
▁ㅇㅓㅇㄷㅓㅇㅇㅣ	-10171
▁ㅎㅐㄱㅅㅣㄹㅎㅓㅁ	-10172
▁ㅈㅜㅇㅇㅏㅇㅈㅓㅇㅂㅗ	-10173
ㄹㅕㄱㅈㅏ	-10174
ㅈㅜㄴㅇㅓ	-10175
▁ㄱㅘㄴㄷㅐ	-10176
▁ㄱㅜㄴㅁㅜ	-10177
▁ㄷㅗㅇㄱㅗ	-10178
▁ㅂㅏㄴㄹㅕ	-10179
▁ㅊㅜㅁㅊㅜ	-10180
ㅅㅏㅇㅎㅕㄴ	-10181
▁ㅇㅠㄴㅇㅕㅇ	-10182
ont	-10183
ㄱㅗㅈ	-10184
▁419	-10185
▁ㅇㅡㅁㅅㅗ	-10186
▁ㅈㅣㄹㄹㅔ	-10187
▁ㅊㅜㅇㄱㅗ	-10188
ㅇㅕㄹㅅㅓㅇ	-10189
▁ㄴㅏㄱㄹㅏㅇ	-10190
▁ㅇㅔㅁㅂㅡㄹ	-10191
▁ㅇㅕㄴㅇㅣㅁ	-10192
▁ㅍㅣㄱㅅㅕㄴ	-10193
ㅍㅕㅇㅊㅓㄴㄱㅜㄱ	-10194
▁ㄴㅗㅇㅈㅏㄱㅁㅜㄹ	-10195
▁233	-10196
▁430	-10197
▁1849	-10198
▁10000	-10199
▁ㅋㅐㅇㄱㅓ	-10200
▁ㅌㅐㄱㅈㅣ	-10201
▁ㄱㅗㅇㅍㅕㅇ	-10202
▁ㅅㅣㅁㅅㅡㄴ	-10203
▁ㅇㅗㄱㅅㅏㅇ	-10204
BT	-10205
▁JP	-10206
ㅆㅏㄹ	-10207
ㄱㅝㄴㄷㅗ	-10208
ㅎㅡㅇㅅㅣ	-10209
▁ㄱㅜㄷㅇㅣ	-10210
▁ㅇㅠㄹㄱㅗㄱ	-10211
▁ㅈㅣㄴㅇㅏㄴ	-10212
▁ㅊㅏㄴㅌㅏㄹ	-10213
ㅇㅛㅇㄷㅗㄹㅇㅣ	-10214
▁ㄷㅗㅊ	-10215
▁1855	-10216
ㄹㅏㄴㄷㅔ	-10217
▁begin	-10218
▁ㅇㅑㄱㅈㅔ	-10219
▁ㅇㅣㄴㅊㅜㄹ	-10220
▁ㄹㅔㅇ	-10221
ㄹㅏㄹㄹㅏ	-10222
▁ㄴㅏㅁㄹㅗ	-10223
▁ㅅㅔㄴㅅㅡ	-10224
ma	-10225
▁Po	-10226
ㄴㅐㅇ	-10227
▁ㄹㅓㄹ	-10228
▁void	-10229
▁ㅁㅏㄴㄹㅣ	-10230
▁ㅅㅏㅇㅊㅔ	-10231
▁ㅍㅣㅇㄱㅖ	-10232
ㅈㅣㄴㅂㅓㅂ	-10233
▁ㅈㅡㅇㅇㅝㄴ	-10234
▁MW	-10235
ㅁㅂㅡㄹ	-10236
ㅇㅑㅇㅅㅜ	-10237
▁ㅂㅗㄴㄷㅣ	-10238
▁ㅅㅏㄴㅂㅜ	-10239
▁ㅈㅓㅇㄱㅜ	-10240
▁ㅎㅟㄹㅊㅔ	-10241
▁ㅂㅏㄹㄷㅏㄴ	-10242
ㅅㅓㅇㅇㅐ	-10243
ㅇㅕㅇㅅㅜ	-10244
▁ㄱㅕㅇㅅㅜ	-10245
▁ㄱㅣㅁㅁㅜㄴ	-10246
▁ㅁㅗㅁㅈㅣㅂ	-10247
▁ㅈㅗㅇㅌㅐㄱ	-10248
▁ㅌㅗㄹㅋㅣㄴ	-10249
▁ㅌㅣㅁㅈㅏㅇ	-10250
day	-10251
▁ㄲㅏㅇ	-10252
▁ㄱㅕㅇㅊㅣ	-10253
▁ㅁㅏㄴㄱㅣ	-10254
▁ㅅㅓㅇㅊㅜ	-10255
▁ㅈㅓㄱㅈㅐ	-10256
▁ㅈㅗㅇㅈㅜ	-10257
ㅂㅜㄱㅉㅗㄱ	-10258
▁ㄱㅕㄹㅈㅣㅂ	-10259
▁ㅅㅡㅇㅈㅓㄴ	-10260
▁ㅈㅏㅁㅂㅗㄱ	-10261
▁NX	-10262
ㅅㅗㅇㄱㅣ	-10263
ㅎㅏㄴㄷㅗ	-10264
▁ㅅㅓㄴㅎㅚ	-10265
▁ㅅㅓㄹㅅㅏ	-10266
▁ㅅㅣㄴㄱㅛ	-10267
▁ㅇㅔㄹㅍㅡ	-10268
▁ㅊㅜㄹㄹㅜ	-10269
▁ㅋㅐㄴㅂㅓ	-10270
ㅈㅏㅇㅅㅓㅇ	-10271
▁ㅂㅕㄴㅂㅏㅇ	-10272
▁ㅇㅕㄴㅊㅓㄴ	-10273
▁FX	-10274
irst	-10275
▁ㅇㅓㅍ	-10276
▁ㄱㅗㅇㄴㅕ	-10277
▁ㄹㅣㄴㄷㅡ	-10278
▁ㄷㅗㄱㄱㅏㅁ	-10279
▁ㄸㅏㅇㅋㅗㅇ	-10280
▁ㅂㅕㄱㅁㅕㄴ	-10281
▁ㅂㅜㄴㅇㅑㅇ	-10282
▁ㅅㅓㄱㅅㅏㅇ	-10283
▁ㅇㅕㄹㅍㅜㅇ	-10284
▁ㅍㅕㅇㄴㅕㄴ	-10285
ㅇㅣㄹㅅㅣㄴㅂㅗ	-10286
▁ㅊㅜㄹㅅㅐㅇㅈㅣ	-10287
▁PP	-10288
ㅂㅓㅅ	-10289
▁239	-10290
▁Bro	-10291
ㅌㅐㄴㅍㅓ	-10292
▁ㄱㅕㄴㅈㅣ	-10293
▁ㅅㅗㄴㅂㅏ	-10294
▁ㅎㅕㅇㅁㅜ	-10295
ㅇㅘㅇㄱㅜㄱ	-10296
▁ㅇㅛㄱㅅㅓㄹ	-10297
▁ㅈㅓㄴㅇㅐㄱ	-10298
▁ㅊㅣㄴㅁㅗㄱ	-10299
▁ㄱㅏㅁㅇㅕㅁㅈㅏ	-10300
BL	-10301
aff	-10302
▁YM	-10303
▁FBI	-10304
ㄹㅏㅁㅅㅡ	-10305
ㅅㅓㅁㅇㅠ	-10306
ㅈㅏㄱㅅㅗ	-10307
▁ㄴㅏㄱㅌㅏ	-10308
▁ㅁㅗㄱㄷㅗ	-10309
▁ㅂㅗㄴㄱㅣ	-10310
▁ㅊㅏㅁㅂㅐ	-10311
▁ㅊㅓㅇㅎㅘ	-10312
▁ㅎㅘㅇㅂㅗ	-10313
▁ㄱㅕㄴㅅㅡㅂ	-10314
▁ㅂㅏㄱㄱㅕㄱ	-10315
▁ㅂㅜㄱㅅㅏㅇ	-10316
▁ㅎㅏㄹㅇㅑㅇ	-10317
▁End	-10318
ㄷㅗㅇㄷㅐ	-10319
▁ㄷㅡㄹㄹㅕ	-10320
▁ㅅㅐㅇㅈㅔ	-10321
▁ㅅㅣㄹㄹㅏ	-10322
▁ㅇㅝㄴㄱㅏ	-10323
▁ㄷㅏㅇㅂㅜㄴ	-10324
▁ㅈㅏㅇㄹㅕㅇ	-10325
▁ㅊㅓㅇㄱㅜㄴ	-10326
ㄷㅗㄱㄹㅣㅂㄷㅏㅇ	-10327
▁ㅎㅏㄴㄱㅜㄱㄷㅗㄱㄹㅣㅂㄷㅏㅇ	-10328
▁RE	-10329
ㅅㅗㅁ	-10330
ㅈㅐㄱ	-10331
▁1857	-10332
ㅊㅏㄹㄱㅣ	-10333
▁ㅅㅣㄹㄹㅗ	-10334
aut	-10335
▁FN	-10336
▁Big	-10337
▁ㄴㅓㄱ	-10338
ement	-10339
ㅂㅡㄹㄹㅔ	-10340
▁ㅇㅣㄴㅌㅡ	-10341
▁ㅅㅣㄹㅊㅐㄱ	-10342
▁ㅇㅓㄴㅇㅑㄱ	-10343
▁ㅇㅕㄱㅎㅐㅇ	-10344
▁ㄴㅗㄴㅅㅏㄴㅅㅣ	-10345
▁ㅈㅏㅇㅌㅐㄱㅅㅏㅇ	-10346
▁SI	-10347
▁215	-10348
▁LIVE	-10349
ㅇㅕㄴㄷㅐ	-10350
▁ㄷㅏㄹㄹㅐ	-10351
▁ㅁㅏㄹㅅㅗ	-10352
▁ㅂㅜㄴㅅㅙ	-10353
▁ㅅㅑㄹㄹㅓ	-10354
▁ㅁㅏㄴㅇㅕㄴ	-10355
▁ㅁㅜㄴㅅㅓㅇ	-10356
▁ㅈㅜㅇㅊㅓㅂ	-10357
▁ㅈㅣㄱㄱㅝㄴ	-10358
▁ㅎㅏㅁㅇㅏㄴ	-10359
HS	-10360
▁RD	-10361
▁TN	-10362
ㅂㅗㄹㅌㅡ	-10363
ㅎㅏㅇㅈㅔ	-10364
▁ㅇㅛㅇㅈㅏ	-10365
▁ㅍㅜㄹㅇㅓ	-10366
▁ㄱㅕㅇㅅㅐㄱ	-10367
▁ㄷㅗㅇㅂㅜㄱㅉㅗㄱ	-10368
▁Rain	-10369
ㅍㅗㄴㄴㅔ	-10370
▁ㅂㅏㄹㅎㅘ	-10371
▁ㅇㅕㄴㅈㅘ	-10372
ㄱㅘㅇㅅㅓㄴ	-10373
▁ㄱㅜㄹㅇㅛㄱ	-10374
▁ㄱㅣㅁㅎㅏㄴ	-10375
▁ㅈㅓㅇㅊㅓㄹ	-10376
▁ㄲㅗㅊㅂㅏㄷㅊㅣㅁ	-10377
▁ㅅㅐㅁㅍㅡㄹㄹㅣㅇ	-10378
▁ㅁㅣㄴㅅㅗㄱㅁㅜㄴㅎㅘ	-10379
▁do	-10380
ㄷㅗㄷ	-10381
▁510	-10382
▁ㄸㅜㅇ	-10383
ㅇㅔㄴㄴㅏ	-10384
ㅈㅓㄴㅅㅣ	-10385
▁ㅂㅔㄴㅈㅓ	-10386
▁ㅇㅓㄱㄹㅠ	-10387
▁ㅈㅏㅇㄱㅜ	-10388
ㅂㅗㅇㅅㅏㄴ	-10389
ㅅㅣㄴㄱㅏㅁ	-10390
ㅊㅓㄴㄴㅕㄴ	-10391
▁ㅁㅣㅌㅁㅕㄴ	-10392
▁ㅂㅏㅇㅎㅏㄴ	-10393
▁ㅅㅏㄴㅂㅜㄹ	-10394
▁ㅇㅝㄴㅅㅓㅇ	-10395
ㅈㅡㄹㄹㅐㄴㄷㅡ	-10396
its	-10397
ㅎㅠㅇ	-10398
▁ㅅㅏㅇㅍㅣ	-10399
▁ㅅㅐㅇㅅㅏ	-10400
▁ㅈㅜㄴㅇㅟ	-10401
▁ㄷㅓㅁㅂㅜㄹ	-10402
▁ㅂㅏㅂㅅㅏㅇ	-10403
▁ㅅㅏㄴㅌㅏㄴ	-10404
▁ㅈㅡㅇㅁㅕㅇㅅㅓ	-10405
▁ㅋㅟㄴㅈㅡㄹㄹㅐㄴㄷㅡ	-10406
▁ㅅㅜㅅ	-10407
▁Will	-10408
ㄱㅕㅇㄱㅜㅇ	-10409
ㄴㅏㅁㅉㅗㄱ	-10410
▁ㄱㅓㄹㅁㅏㅈ	-10411
▁ㅇㅕㄹㅁㅏㅇ	-10412
▁ㅈㅓㅇㅇㅑㄱ	-10413
▁ㄷㅗㅇㅁㅕㅇㅇㅣ	-10414
▁ㄱㅣㅁㅈㅗㅇㅍㅣㄹ	-10415
br	-10416
vis	-10417
▁Des	-10418
ㄹㅔㄱㅌㅡ	-10419
▁ㄱㅜㄱㅊㅐ	-10420
▁ㅅㅗㄱㅆㅣ	-10421
ㄴㅏㅁㄱㅜㄴ	-10422
▁ㄱㅕㄹㅌㅏㄱ	-10423
▁ㅇㅞㄹㄹㅣㅇ	-10424
▁ㅊㅏㄱㅇㅏㄴ	-10425
▁ㅇㅔㄹㅅㅏㄹㅂㅏ	-10426
▁WH	-10427
▁es	-10428
ㅈㅣㄴㄱㅣ	-10429
▁ㅅㅏㅇㅅㅣ	-10430
ㅁㅣㅇㅇㅓㅁ	-10431
ㅇㅣㄴㅈㅓㄹ	-10432
▁ㅈㅏㅁㄷㅡㄹ	-10433
▁ㄱㅗㅇㅈㅣㄱㅈㅏ	-10434
▁ㅊㅗㅇㅎㅏㄱㅅㅐㅇㅎㅚ	-10435
WS	-10436
ㅈㅣㄴㅎㅗ	-10437
▁Hello	-10438
▁ㄱㅕㅇㅇㅣ	-10439
▁ㄱㅜㄻㅈㅜ	-10440
▁ㅅㅓㄴㄷㅓ	-10441
▁ㅇㅣㄺㅎㅣ	-10442
▁ㅋㅓㄴㄷㅣ	-10443
▁ㅍㅡㄹㄹㅚ	-10444
ㅇㅝㄴㄷㅗㅇ	-10445
▁ㄱㅏㅁㅌㅏㄴ	-10446
▁ㅇㅏㅂㅅㅗㅇ	-10447
▁ㅅㅓㅇㄷㅗㅇㄱㅜ	-10448
▁ㅈㅣㄴㅈㅓㅇㅎㅏ	-10449
▁ㅎㅐㄱㅇㅕㄴㄹㅛ	-10450
ㅎㅐㄱㅅㅐㅇㅁㅜㄹ	-10451
▁NK	-10452
▁BMW	-10453
▁ㅅㅣㄴㅈㅐ	-10454
▁ㅈㅗㄴㅎㅗ	-10455
▁ㅋㅏㄴㅌㅏ	-10456
▁MX	-10457
▁OC	-10458
ㅅㅐㅇㅇㅏ	-10459
▁ㅁㅜㄴㄱㅛ	-10460
▁ㅊㅗㅇㅊㅔ	-10461
▁ㅋㅗㄴㅌㅡ	-10462
▁ㅎㅏㅇㅁㅗ	-10463
ㅁㅏㄱㅇㅕㅁ	-10464
ㅇㅓㄹㅂㅣㄴ	-10465
ㅈㅡㅇㄱㅝㄴ	-10466
▁ㅂㅜㄴㅈㅏㅇ	-10467
▁ㅅㅏㄹㄹㅣㅁ	-10468
▁ㅅㅣㄹㅅㅡㅂ	-10469
▁ㅇㅣㅂㅈㅓㄱ	-10470
▁ㄷㅗㄱㄹㅣㅂㄱㅜㄱ	-10471
▁ㅅㅏㅇㅅㅗㄱㅇㅣㄴ	-10472
▁ㅍㅚ	-10473
ㅇㅜㄴㅌㅏ	-10474
▁ㄱㅏㄴㅅㅗ	-10475
▁ㄱㅝㄴㅅㅔ	-10476
▁ㅇㅣㅍㅈㅏ	-10477
▁ㅊㅗㄹㄹㅏ	-10478
ㅇㅝㄴㅂㅕㅇ	-10479
▁ㄱㅕㅇㅁㅕㄹ	-10480
▁ㄷㅏㅁㄹㅗㄴ	-10481
▁ㅁㅕㅇㅈㅓㄹ	-10482
▁ㅅㅣㅁㅅㅣㄴ	-10483
▁ㅎㅗㅇㅂㅐㄱ	-10484
▁ㅇㅣㄹㄱㅏㄴㅈㅣ	-10485
▁ㅈㅜㅇㅅㅐㅇㄷㅐ	-10486
be	-10487
▁1776	-10488
▁ㄱㅡㅁㅎㅘ	-10489
▁ㅂㅏㄹㅈㅜ	-10490
▁ㅂㅏㅇㅅㅜ	-10491
▁ㅇㅘㄹㄹㅏ	-10492
▁ㅈㅏㅇㅂㅗ	-10493
▁ㅌㅏㄴㅎㅘ	-10494
▁ㅂㅏㄴㅇㅣㄹ	-10495
▁ㅇㅏㄱㅇㅕㄱ	-10496
▁ㅈㅓㅇㄴㅕㄴ	-10497
▁ㄱㅜㄱㅁㅣㄴㅈㅜ	-10498
▁ㅎㅘㅇㄱㅏㄹㅅㅐㄱ	-10499
▁CT	-10500
ㅎㅓㄹ	-10501
▁Net	-10502
▁LOVE	-10503
▁Road	-10504
▁ㅋㅏㄹㄹㅗ	-10505
ㄱㅗㄱㅅㅓㄴ	-10506
ㅅㅏㅇㅎㅜㄴ	-10507
ㅈㅜㄴㅇㅛㅇ	-10508
▁ㅅㅐㄱㅇㅣㄴ	-10509
▁ㅅㅣㄴㅁㅕㅇ	-10510
▁ㅈㅗㄴㅇㅓㅁ	-10511
▁ㅁㅗㄱㄱㅓㄹㅇㅣ	-10512
ㄷㅓㅇ	-10513
ouse	-10514
▁LTE	-10515
▁ㅋㅟㄹ	-10516
ㄴㅏㄴㅎㅐ	-10517
▁ㅂㅜㄱㅈㅔ	-10518
▁ㅅㅏㄹㅂㅏ	-10519
▁ㅈㅓㅇㅍㅏ	-10520
▁ㅎㅏㅂㅊㅔ	-10521
▁ㅇㅑㅇㄹㅕㄱ	-10522
▁ㅋㅡㄹㄹㅗㄴ	-10523
▁ㅎㅏㄴㅂㅏㅇ	-10524
▁ㄷㅗㅇㅂㅜㄱㅇㅏ	-10525
▁ㅎㅕㄴㄱㅡㅂㅅㅣ	-10526
▁ㄷㅡㅇㄹㅗㄱㄱㅡㅁ	-10527
ㄴㅅㅣ	-10528
ㅆㅓㄴ	-10529
▁del	-10530
ㅅㅣㄱㅅㅓㅇ	-10531
▁ㅂㅕㄴㅈㅏㅇ	-10532
▁ㅇㅕㅇㅇㅕㄴ	-10533
▁ㅂㅏㄴㄱㅗㅇㅈㅜ	-10534
▁Pop	-10535
▁fun	-10536
▁1792	-10537
ㄷㅡㄴㅈㅣ	-10538
▁ㅇㅏㄴㄱㅜ	-10539
▁ㄷㅗㅇㅂㅗㄱ	-10540
▁ㅇㅡㅁㄹㅏㄴ	-10541
▁EF	-10542
▁1791	-10543
▁ㅂㅏㅇㄱㅘ	-10544
▁ㅇㅗㄹㅃㅐ	-10545
ㅍㅏㄹㄹㅔㄴ	-10546
▁ㄱㅡㄴㅇㅕㄴ	-10547
▁ㅂㅜㄹㅍㅕㅇ	-10548
▁ㅈㅓㄹㅁㅕㄹ	-10549
▁ㅊㅣㄴㅈㅓㄹ	-10550
▁ㅌㅏㄴㅎㅘㄴ	-10551
▁ㅇㅏㄴㅊㅓㄹㅅㅜ	-10552
▁DFB	-10553
▁1852	-10554
▁ㅁㅏㄴㄷㅜ	-10555
▁ㅈㅣㄱㅈㅔ	-10556
▁ㅍㅜㅁㄱㅖ	-10557
▁ㄱㅗㄹㅁㅗㄱ	-10558
▁ㅅㅣㄴㅅㅜㄱ	-10559
▁ㅇㅜㅇㅈㅏㅇ	-10560
▁ㅋㅗㄴㅇㅝㄹ	-10561
▁Red	-10562
▁ㄱㅓㄹㅈㅡ	-10563
▁ㅇㅡㄴㅅㅏ	-10564
ㄷㅗㅇㅁㅐㄱ	-10565
▁ㄱㅏㄱㅂㅕㄹ	-10566
▁ㄱㅕㄴㅎㅝㄴ	-10567
▁ㅇㅣㅁㅇㅓㅂ	-10568
ㄷㅓㄹㄹㅐㄴㄷㅡ	-10569
▁ㅇㅡㄴㅎㅐㅇㄴㅏ	-10570
▁mg	-10571
▁ㄱㅏㄹㄹㅜ	-10572
▁ㄱㅘㄴㅅㅏ	-10573
▁ㅅㅣㄹㄷㅡ	-10574
▁ㅇㅕㅇㅇㅏ	-10575
▁ㅋㅗㄴㄷㅗ	-10576
ㅂㅏㅇㅅㅣㄱ	-10577
ㅇㅛㅇㅅㅓㅇ	-10578
ㅊㅏㄹㅇㅡㅁ	-10579
ㅎㅘㄹㅅㅓㅇ	-10580
▁ㅂㅏㄹㅅㅗㅇ	-10581
▁ㅎㅏㅂㅂㅏㅇ	-10582
▁ㄱㅏㄴㅎㅐㅇㅁㅜㄹ	-10583
▁JS	-10584
ㅇㄱㅣ	-10585
▁ㅈㅡㅂ	-10586
ㅍㅗㄹㅌㅡ	-10587
▁ㅁㅣㄹㅇㅝ	-10588
▁ㅂㅓㄴㅅㅡ	-10589
▁ㅅㅣㄹㅎㅘ	-10590
ㅈㅓㅇㄱㅝㄴ	-10591
▁ㅂㅗㅇㅅㅏㄴ	-10592
▁ㅅㅜㄱㅅㅓㅇ	-10593
▁ㅊㅜㄹㅇㅕㄴㅈㅣㄴ	-10594
IE	-10595
▁212	-10596
▁Eng	-10597
▁ㅋㅔㅁ	-10598
▁Show	-10599
▁ㅅㅏㅁㅂㅜ	-10600
▁ㅈㅏㅇㅌㅓ	-10601
▁ㅈㅗㄱㅈㅔ	-10602
▁ㅌㅏㄹㄹㅏ	-10603
▁ㅎㅏㄴㅁㅏ	-10604
ㅂㅜㄱㄷㅏㄴ	-10605
ㅅㅠㄹㄹㅣㄴ	-10606
▁ㄱㅜㄱㅁㅜㄹ	-10607
▁ㄴㅏㄴㄱㅏㄴ	-10608
▁ㅅㅔㄹㄹㅜㄹ	-10609
▁ㅎㅕㄴㅅㅐㅇ	-10610
▁ㅎㅐㅇㅈㅓㅇㄱㅘㄴ	-10611
▁ㅌㅗㅇㅎㅏㅂㅈㅣㄴㅂㅗ	-10612
oss	-10613
▁228	-10614
▁231	-10615
▁ㄱㅜㄹㄹㅣ	-10616
▁ㅇㅏㄴㅎㅜ	-10617
▁ㅎㅗㄹㄷㅡ	-10618
ㅍㅏㄴㅈㅏㅇ	-10619
ㅅㅓㅂㄷㅏㄴㅊㅔ	-10620
▁ㄱㅗㄴㅅㅏㄹㄹㅔ	-10621
ㅁㅣㄴㅈㅓㅇㅇㅡㅁ	-10622
07	-10623
▁TA	-10624
▁ㄱㅏㅈㄱㅏ	-10625
▁ㅅㅏㄴㄷㅡ	-10626
▁ㅇㅏㄴㅅㅔ	-10627
▁ㅋㅗㄱㅅㅡ	-10628
ㅅㅜㄴㄱㅜㄴ	-10629
▁ㅂㅕㄴㅅㅗㄱㄱㅣ	-10630
▁ㅈㅣㅂㅎㅏㅂㄹㅗㄴ	-10631
aj	-10632
▁ㄲㅘ	-10633
▁221	-10634
▁Bar	-10635
ㅌㅐㄱㅈㅣ	-10636
▁ㄱㅘㄴㅅㅓ	-10637
▁ㅂㅏㄱㅈㅜㅇ	-10638
▁ㅈㅓㄴㄱㅏㄹ	-10639
▁ㅊㅏㅇㅇㅏㄴ	-10640
99	-10641
▁UK	-10642
▁ro	-10643
▁1853	-10644
▁Over	-10645
ㄷㅏㅁㅎㅚ	-10646
ㅇㅗㅇㅈㅜ	-10647
▁Light	-10648
▁ㅅㅣㄱㄹㅛ	-10649
▁ㅅㅣㄹㅂㅏ	-10650
▁ㅇㅑㅇㅂㅜ	-10651
ㅈㅓㅇㅅㅜㄱ	-10652
▁ㅅㅓㄴㅅㅡㅇ	-10653
▁ㅈㅓㅇㅊㅏㄹㄱㅣ	-10654
▁ㅁㅕㅇㄹㅠㄴㄷㅏㅇ	-10655
▁Sec	-10656
ㄹㅏㅇㅈㅜ	-10657
ㄹㅐㄴㅅㅓ	-10658
ㅈㅓㄴㅎㅏ	-10659
▁ㄱㅡㅂㄱㅣ	-10660
▁ㄷㅔㄴㅂㅓ	-10661
▁ㅇㅝㄴㅎㅘ	-10662
▁ㅋㅏㄹㅊㅗ	-10663
ㄴㅔㄴㅌㅓㄹ	-10664
ㅈㅓㄴㄱㅜㄴ	-10665
ㅍㅔㄴㅅㅕㄴ	-10666
▁ㄱㅡㅁㄱㅘㅇ	-10667
▁ㅅㅣㄹㅎㅘㅇ	-10668
▁ㅎㅜㄴㅁㅣㄴㅈㅓㅇㅇㅡㅁ	-10669
08	-10670
▁ㅃㅐㄱ	-10671
ㅈㅓㄱㅎㅘ	-10672
▁ㅂㅜㄱㄷㅏㄴ	-10673
▁ㅇㅡㄴㄷㅜㄴ	-10674
▁ㅈㅏㅇㅇㅕㅇ	-10675
▁ㅎㅕㄴㅁㅕㅇ	-10676
ㅇㅏㄶ	-10677
ason	-10678
▁Har	-10679
▁SQL	-10680
▁ㅇㅕㅌ	-10681
▁1847	-10682
ㅂㅗㄹㄹㅜ	-10683
▁ㄴㅏㅁㅅㅜ	-10684
▁ㅅㅓㅇㅊㅐ	-10685
ㅂㅐㄱㅅㅏㄴ	-10686
▁ㅁㅕㅇㅍㅜㅁ	-10687
▁ㅇㅕㄴㅈㅏㄱ	-10688
▁ㅁㅗㄱㄱㅕㄱㅈㅏ	-10689
▁ㄷㅗㅇㅅㅣㄱㅁㅜㄹ	-10690
▁ac	-10691
ㅈㅡㅂ	-10692
▁ㄸㅜㄱ	-10693
▁1100	-10694
ㅇㅡㅁㄷㅐ	-10695
▁ㅂㅜㄱㄹㅗ	-10696
▁ㄱㅏㅂㅅㅏㅇ	-10697
▁ㅁㅏㄴㄱㅕㅇ	-10698
▁ㅇㅑㄱㄱㅜㄱ	-10699
▁ㄱㅘㄴㅇㅏㄱㄱㅜ	-10700
▁ㅁㅗㄱㅍㅏㄴㅂㅗㄴ	-10701
red	-10702
ㄲㅜㅁ	-10703
echn	-10704
▁ㄸㅗㅇ	-10705
▁ㅁㅣㅁ	-10706
▁ㄱㅣㅁㅎㅗ	-10707
▁ㅂㅜㄴㄱㅐ	-10708
▁ㅅㅓㅇㅎㅏ	-10709
▁ㅇㅝㄴㄱㅣ	-10710
▁ㅎㅕㄴㄴㅐ	-10711
▁ㅂㅏㄴㅇㅕㄹ	-10712
▁ㅅㅏㅇㄱㅝㄴ	-10713
▁ㅅㅡㄹㄹㅗㅅ	-10714
▁ㅇㅗㅇㅈㅣㄴㄱㅜㄴ	-10715
HT	-10716
▁ㄱㅠㄴㄹㅠ	-10717
▁ㅇㅣㄱㅈㅜ	-10718
ㄴㅏㅁㄷㅏㄴ	-10719
ㅅㅣㄹㄹㅗㄴ	-10720
▁ㄴㅡㅇㅌㅗㅇ	-10721
▁ㅎㅕㄹㅊㅓㅇ	-10722
ㅌㅔㄴㅅㅠ	-10723
▁Sound	-10724
▁ㅁㅣㄹㄹㅗ	-10725
▁ㅂㅏㄴㄷㅣ	-10726
▁ㅇㅕㄴㅅㅏ	-10727
▁ㅈㅏㅁㄱㅡ	-10728
▁ㅂㅏㄱㅇㅣㄴ	-10729
▁ㅂㅏㄴㅁㅣㄴ	-10730
▁ㅇㅠㄴㅅㅓㄱ	-10731
▁ㅍㅣㄱㅇㅓㅂ	-10732
iet	-10733
way	-10734
▁757	-10735
▁ㄱㅏㅇㅇㅏ	-10736
▁ㅅㅏㅁㄱㅏ	-10737
▁ㅅㅓㅇㅎㅗ	-10738
▁ㅇㅏㅇㅋㅏ	-10739
▁ㅈㅏㅇㅌㅏ	-10740
▁ㅌㅔㅁㅍㅗ	-10741
ㅈㅏㅇㅅㅣㄱ	-10742
▁ㅁㅣㄹㅌㅓㄴ	-10743
▁ㅂㅜㄱㅁㅕㄴ	-10744
▁ㅅㅣㄱㄴㅕㄴ	-10745
▁ㅍㅏㄴㅂㅕㄹ	-10746
▁ㅍㅡㄹㄹㅐㄴㅌㅡ	-10747
▁el	-10748
ㄱㅜㅂ	-10749
ator	-10750
▁ㄲㅗㅁ	-10751
ㅂㅐㄱㅈㅔ	-10752
ㅌㅗㄴㅅㅡ	-10753
▁ㄱㅏㄴㅍㅏ	-10754
▁ㅂㅓㅇㅋㅓ	-10755
▁ㅇㅏㄹㅋㅏ	-10756
ㅌㅗㅇㄹㅑㅇ	-10757
▁ㄱㅘㅇㄱㅕㅇ	-10758
▁ㄱㅜㄱㅁㅕㅇ	-10759
▁ㅇㅓㄴㅈㅔㄴㄱㅏ	-10760
▁ㅈㅡㅇㅅㅗㄴㅈㅏ	-10761
▁ㅌㅣㅂ	-10762
▁1844	-10763
▁ㄲㅡㄶㅇㅓ	-10764
ㄲㅓㅂㅈㅣㄹ	-10765
ㅈㅗㄹㅈㅜㅇ	-10766
▁ㄴㅏㅇㄷㅗㄱ	-10767
▁ㅆㅜㄴㅇㅝㄴ	-10768
▁ㅎㅏㄴㅇㅗㄱ	-10769
▁ㅎㅡㅂㅎㅕㄹ	-10770
▁ㅇㅕㄴㅊㅓㄴㄱㅜㄴ	-10771
▁ㅈㅜㅇㅎㅏㄱㅅㅐㅇ	-10772
▁ㅍㅕㅇㅊㅏㅇㄱㅜㄴ	-10773
▁Sum	-10774
ㄱㅏㅁㅈㅏ	-10775
ㅇㅣㄴㅎㅚ	-10776
ㅈㅓㅇㅈㅜ	-10777
▁ㄱㅔㄴㅈㅣ	-10778
▁ㅂㅜㄱㅂㅔ	-10779
▁ㅅㅏㅇㄷㅗ	-10780
▁ㅇㅕㅇㅅㅔ	-10781
▁ㅎㅏㅇㅈㅓ	-10782
▁ㅎㅗㅇㄷㅐ	-10783
ㄷㅏㅇㄷㅗㅇ	-10784
▁ㄱㅜㄱㅁㅕㄴ	-10785
▁ㄲㅏㅁㅉㅏㄱ	-10786
▁ㅊㅗㄴㄹㅏㄱ	-10787
▁ㅊㅗㅇㅇㅏㄹ	-10788
▁ㅎㅏㄱㅈㅓㅁ	-10789
▁ㅎㅏㅂㅈㅓㄴ	-10790
▁ㅂㅏㄱㄱㅕㄱㅍㅗ	-10791
▁ㅂㅗㄱㅈㅏㅂㄷㅗ	-10792
▁min	-10793
▁ㅌㅡㅁㅅㅐ	-10794
▁ㅎㅏㄴㄷㅗ	-10795
ㅁㅗㄱㅁㅣㄴ	-10796
ㅇㅘㄴㅅㅓㅇ	-10797
ㅇㅣㅁㅅㅣㄱ	-10798
▁ㄱㅡㅂㅅㅡㅂ	-10799
▁ㅅㅣㄴㅇㅕㅇ	-10800
▁ㅇㅕㄴㅇㅣㄹ	-10801
▁ㄱㅏㅂㄱㅏㄱㄹㅠ	-10802
IDS	-10803
▁HE	-10804
ㅇㅔㄴㅌㅡ	-10805
ㅌㅗㅇㅈㅔ	-10806
▁ㄱㅜㄷㅇㅓ	-10807
▁ㅍㅕㅇㅅㅏ	-10808
ㅁㅏㅇㅇㅣㄴ	-10809
▁ㅁㅏㅇㅅㅏㅇ	-10810
▁ㅅㅏㄹㅅㅏㅇ	-10811
▁ㅇㅏㄹㄹㅗㄴ	-10812
▁ㅈㅓㅂㅊㅏㄱ	-10813
04	-10814
ner	-10815
▁CV	-10816
ㅋㅐㅅ	-10817
ㅂㅏㄹㄱㅗ	-10818
▁ㅁㅔㅁㅍㅣ	-10819
▁ㅆㅓㄴㄷㅓ	-10820
▁ㅍㅏㄹㄹㅗ	-10821
ㅈㅗㄱㅇㅝㄴ	-10822
ㅈㅣㄴㅇㅕㅇ	-10823
▁ㄴㅏㄱㄴㅗㅇ	-10824
▁ㅅㅓㅇㄴㅕㄴ	-10825
ㅈㅜㅇㄱㅜㄱㅎㅐ	-10826
▁ㅂㅏㄹㅁㅕㅇㄱㅏ	-10827
▁EV	-10828
▁OF	-10829
ㄱㅡㅇ	-10830
ㅂㅜㅅ	-10831
port	-10832
▁217	-10833
▁ㅇㅐㄱㅅㅜ	-10834
▁ㅇㅠㄴㅎㅚ	-10835
ㅎㅘㄹㅈㅓㄹ	-10836
▁ㄱㅏㄴㅍㅕㄴ	-10837
▁ㄱㅓㄴㅇㅏㄴ	-10838
▁ㅁㅏㅇㅁㅏㄱ	-10839
▁ㅅㅜㄴㅊㅏㅇ	-10840
▁ㅈㅓㅇㄹㅑㅇ	-10841
▁ㅊㅐㄱㅍㅏㄴ	-10842
ㄱㅝㄹㅅㅓㄴㄱㅓ	-10843
▁ㄱㅝㄴㄹㅕㄱㅈㅏ	-10844
▁ㅁㅣㄹㅇㅑㅇㅅㅣ	-10845
▁ㅋㅗㄴㅅㅔㅂㅌㅡ	-10846
ric	-10847
ven	-10848
ital	-10849
vent	-10850
▁1837	-10851
ㄹㅣㄹㄹㅣ	-10852
▁ㅂㅣㄹㅁㅣ	-10853
▁ㅅㅓㄴㅎㅏ	-10854
▁ㅇㅛㄱㄱㅖ	-10855
▁ㅎㅣㄹㄹㅓ	-10856
ㅁㅜㄴㅈㅓㅁ	-10857
ㅅㅡㅇㄹㅏㅁ	-10858
▁ㅂㅏㅇㅈㅓㄴ	-10859
▁ㅅㅣㄴㅎㅕㄴ	-10860
▁ㅇㅐㄱㅈㅓㅇ	-10861
▁ㅇㅠㄴㅂㅗㅇ	-10862
▁ㅇㅡㅁㅇㅏㄱㅎㅚ	-10863
yl	-10864
▁Af	-10865
ㅉㅏㅇ	-10866
ㅌㅡㅁ	-10867
▁ㅊㅏㅅ	-10868
ㅇㅑㅇㄷㅐ	-10869
ㅈㅔㄴㄷㅓ	-10870
▁ㅁㅜㄴㅂㅜ	-10871
▁ㅅㅐㄱㅈㅗ	-10872
▁ㅊㅏㄱㅇㅗ	-10873
▁ㅊㅓㄱㅅㅜ	-10874
ㅎㅐㅇㄷㅏㄴ	-10875
▁ㅇㅣㅂㅇㅏㄴ	-10876
▁ㅊㅓㄴㅁㅕㅇ	-10877
▁ㅍㅏㄹㄱㅏㄱ	-10878
▁ㅇㅐㅇㄱㅡㄹㄹㅗ	-10879
▁ㅈㅓㄴㄴㅕㄴㄷㅗ	-10880
orce	-10881
ㅈㅔㄴㅎㅏ	-10882
▁ㄹㅗㄹㅅㅡ	-10883
▁ㅊㅜㄹㅅㅗ	-10884
ㄹㅡㅁㅊㅓㄹ	-10885
▁ㄱㅏㅇㅁㅜㄹ	-10886
▁ㅅㅐㅇㅇㅝㄴ	-10887
▁ㅌㅏㄴㅇㅝㄴ	-10888
ㄱㅜㄱㅁㅣㄴㄷㅏㅇ	-10889
▁RO	-10890
▁007	-10891
▁315	-10892
▁RPG	-10893
▁wid	-10894
▁Like	-10895
ㄷㅡㄴㄱㅏ	-10896
▁ㅂㅏㄱㅈㅔ	-10897
▁ㅈㅓㄴㅊㅓ	-10898
ㄱㅕㄴㅇㅣㄴ	-10899
ㅇㅑㅇㅅㅓㅇ	-10900
ㅈㅓㅇㅅㅣㄴ	-10901
▁ㅅㅓㄹㅂㅓㅂ	-10902
▁ㅇㅝㄴㅍㅏㄴ	-10903
▁ㅈㅓㄱㅅㅓㅇ	-10904
▁ㅇㅜㄹㄹㅡㅇㄷㅗ	-10905
▁ㅌㅡㄱㄱㅗㅇㄷㅐ	-10906
▁ㅇㅣㄴㅅㅠㄹㄹㅣㄴ	-10907
▁Pa	-10908
▁520	-10909
ution	-10910
▁1794	-10911
▁ㄱㅗㅇㅎㅚ	-10912
▁ㅅㅜㄱㅇㅢ	-10913
▁ㅅㅣㄴㅇㅖ	-10914
ㅅㅜㄹㅇㅝㄴ	-10915
▁ㅅㅏㅇㅅㅓㄱ	-10916
▁ㅅㅗㅇㄱㅡㅁ	-10917
▁ㅅㅗㅇㅂㅕㅇ	-10918
▁ㅅㅣㄴㄱㅏㄴ	-10919
▁ㅈㅣㅂㅎㅕㄴ	-10920
▁ㅊㅓㄱㅌㅏㄴ	-10921
ana	-10922
ㅅㅖㄴ	-10923
▁ㅃㅐㅅ	-10924
▁CCTV	-10925
▁ㅈㅓㄹㅌㅓ	-10926
09	-10927
ㄱㅝ	-10928
ism	-10929
ㄹㅔㅇ	-10930
▁226	-10931
▁OVA	-10932
▁ㅈㅔㅁ	-10933
▁Mnet	-10934
▁ㄴㅏㄴㅅㅏ	-10935
▁ㄹㅏㅁㅂㅗ	-10936
▁ㅇㅏㄹㅌㅏ	-10937
▁ㅈㅣㄴㄱㅘ	-10938
▁ㅎㅓㄴㅈㅔ	-10939
ㄹㅣㄴㅅㅓㅇ	-10940
▁ㄱㅘㅇㅈㅗㅇ	-10941
▁ㄱㅣㅁㅇㅡㅇ	-10942
▁ㅅㅗㅇㅈㅓㅇ	-10943
▁ㅅㅡㅇㅌㅏㅂ	-10944
▁ㅎㅏㅁㅍㅕㅇ	-10945
▁ㅇㅣㅁㅍㅐㄱㅌㅡ	-10946
▁ㅇㅣㄹㅂㅗㄴㄱㅜㄱㅇㅠ	-10947
▁KR	-10948
▁ㅈㅡㄴ	-10949
ㄹㅕㅇㅅㅣ	-10950
ㅊㅓㄱㅊㅜ	-10951
▁ㅇㅑㅇㅈㅐ	-10952
▁ㅍㅕㄴㅁㅗ	-10953
▁ㅇㅓㅁㅈㅓㅇ	-10954
▁ㅊㅣㄴㅎㅕㅇ	-10955
▁ㅈㅣㅇㅂㅕㅇㅈㅔ	-10956
uk	-10957
▁Sci	-10958
▁ㅇㅓㅂㅅㅗ	-10959
▁ㅇㅣㄱㅅㅏ	-10960
▁ㅋㅓㄴㅅㅗ	-10961
ㅅㅐㅇㅁㅕㅇ	-10962
ㅈㅔㄹㄹㅏㄴ	-10963
▁ㄱㅘㄴㄱㅗㅇ	-10964
▁ㄱㅜㄴㅎㅕㄴ	-10965
▁ㅁㅏㄴㅊㅏㄴ	-10966
▁ㅁㅗㄹㅇㅣㅂ	-10967
▁ㅈㅓㅇㅅㅜㄴ	-10968
▁ㄱㅜㄴㄷㅏㄴㅈㅏㅇ	-10969
MP	-10970
▁IB	-10971
▁OP	-10972
▁ㅅㅔㄱ	-10973
ㅍㅣㄹㄱㅏ	-10974
▁ㅂㅏㄴㄱㅜ	-10975
▁ㅂㅐㅁㅍㅏ	-10976
▁ㅅㅓㄴㅁㅜ	-10977
▁ㅅㅡㄹㄹㅔ	-10978
▁ㅅㅡㅂㅎㅏ	-10979
▁ㅎㅏㄴㄹㅠ	-10980
ㄹㅜㅇㅈㅏㅇ	-10981
▁ㄷㅏㄴㅍㅏㄴ	-10982
▁ㅂㅏㅇㄹㅏㅇ	-10983
▁ㅇㅏㅁㅂㅕㄱ	-10984
▁ㅇㅡㅁㅅㅐㄱ	-10985
▁ㅊㅓㅇㄹㅕㅁ	-10986
▁ㄷㅗㅇㅇㅣㄴㄷㅗ	-10987
▁ㅃㅡ	-10988
▁ㅇㅜㅂ	-10989
▁1836	-10990
ㄷㅗㅇㅅㅗ	-10991
ㄹㅏㄴㄷㅗ	-10992
ㄹㅐㄱㅌㅣ	-10993
▁ㅁㅜㄴㅁㅛ	-10994
▁ㅈㅜㅇㅅㅏ	-10995
▁ㅋㅜㄹㄹㅣ	-10996
▁ㄱㅏㅂㅍㅏㄴ	-10997
ㅈㅗㅇㅅㅣㄹㄹㅗㄱ	-10998
▁ㅇㅟㄴㄴㅏㄴㅅㅓㅇ	-10999
bum	-11000
ㄱㅏㅇㄷㅐ	-11001
ㄱㅜㄱㄱㅏ	-11002
▁ㅂㅏㄱㅅㅔ	-11003
▁ㅅㅔㄹㅍㅡ	-11004
▁ㅈㅜㅇㅈㅜ	-11005
▁ㅎㅑㅇㄹㅣ	-11006
▁ㄱㅣㅁㅁㅏㄴ	-11007
▁ㅁㅏㄴㄴㅡㅇ	-11008
▁ㅅㅑㄹㄹㅓㅅ	-11009
▁ㅊㅗㄱㅎㅏㄴ	-11010
▁ㅎㅏㄴㅊㅏㅁ	-11011
▁ㅁㅕㅇㅌㅏㅁㅈㅓㅇ	-11012
YS	-11013
▁XX	-11014
▁ㅋㅏㄱ	-11015
▁Stud	-11016
ㅅㅐㄱㅅㅡㄴ	-11017
▁ㅁㅔㄴㄷㅔㄹ	-11018
▁ㅂㅏㄴㅈㅡㅇ	-11019
▁ㅇㅣㄹㅈㅣㄱ	-11020
▁ㅊㅣㄴㅅㅜㄱ	-11021
▁ㅍㅣㄹㅅㅏㄹ	-11022
▁MT	-11023
oney	-11024
▁610	-11025
ㄱㅡㅂㅅㅜ	-11026
ㄹㅏㄴㅅㅡ	-11027
ㅍㅔㄴㅅㅡ	-11028
▁ㄹㅓㄱㅋㅣ	-11029
▁ㄷㅗㅇㅈㅗㄱ	-11030
▁ㅅㅓㄴㄷㅓㄱ	-11031
▁ㅅㅣㅁㅊㅡㅇ	-11032
▁ㅇㅝㄹㄱㅡㅂ	-11033
▁ㅎㅗㄱㄷㅗㄱ	-11034
ㄸㅔ	-11035
ㅊㅡㄹ	-11036
ㄱㅜㄱㅅㅜ	-11037
▁ㄷㅏㄴㅎㅗ	-11038
▁ㅆㅏㅇㄱㅖ	-11039
▁ㅇㅏㅇㅈㅜ	-11040
▁ㅇㅕㅁㄹㅛ	-11041
▁ㅇㅕㅇㅎㅏ	-11042
▁ㅇㅛㅇㅁㅐ	-11043
▁ㄴㅏㄱㅎㅑㅇ	-11044
▁ㅂㅐㄱㄱㅜㄱ	-11045
▁ㅅㅓㅇㅊㅜㅇ	-11046
▁ㅇㅝㄴㅌㅗㅇㅎㅕㅇ	-11047
▁ㄱㅕㅇㅎㅑㅇㅅㅣㄴㅁㅜㄴ	-11048
▁720	-11049
▁ㄲㅗㅇ	-11050
▁ㅈㅔㅅ	-11051
ㄷㅣㅈㅊㅣ	-11052
▁ㄸㅏㄹㄱㅣ	-11053
▁ㅍㅕㄴㅅㅜ	-11054
ㅈㅜㅇㅅㅓㅇ	-11055
ㅌㅣㅇㄱㅔㄴ	-11056
▁ㅁㅏㄴㅅㅓㄱ	-11057
▁ㅇㅏㅁㅅㅜㄹ	-11058
▁ㅈㅓㄴㄱㅘㅇ	-11059
▁ㅈㅓㅂㄱㅕㅇ	-11060
▁ㅈㅓㅁㅅㅓㅇㄱㅏ	-11061
IST	-11062
ㅁㅏㅇㅅㅡ	-11063
ㅇㅕㅇㅎㅘ	-11064
▁ㅇㅡㅂㄴㅐ	-11065
▁ㅊㅗㅇㅈㅣ	-11066
▁ㅎㅗㅅㅅㅡ	-11067
▁ㄱㅡㅁㅅㅏㅇ	-11068
▁ㄱㅣㄹㅁㅗㄱ	-11069
▁ㅂㅜㄹㅎㅘㅇ	-11070
▁ㅇㅜㄹㅇㅡㅁ	-11071
▁ㅈㅓㅁㅅㅣㅁ	-11072
▁ㅊㅓㅇㅌㅏㄱ	-11073
▁ㄱㅏㄱㅇㅜㄴㄷㅗㅇ	-11074
ony	-11075
▁no	-11076
▁ㄸㅡㄹ	-11077
▁Play	-11078
▁ㅅㅓㅂㅆㅣ	-11079
▁ㅅㅓㅇㄴㅕ	-11080
▁ㅅㅡㄹㅍㅓ	-11081
▁ㅈㅓㅇㅎㅢ	-11082
▁ㅊㅓㄹㅈㅔ	-11083
ㅂㅕㅇㅇㅝㄴ	-11084
▁ㅅㅏㄴㄱㅏㄴ	-11085
▁ㅎㅏㄴㅅㅏㄴ	-11086
▁ㄴㅗㅇㄱㅕㅇㅈㅣ	-11087
▁ㅅㅓㅇㅂㅓㅁㅈㅚ	-11088
▁ㅎㅕㄴㅇㅏㄱㄱㅣ	-11089
▁ㄱㅘㄴㄱㅘㅇㅇㅓㅂ	-11090
05	-11091
▁222	-11092
ㄷㅏㄹㄹㅏ	-11093
ㅅㅓㄴㅈㅗ	-11094
▁ㅇㅣㅇㄱㅡㄹㄹㅣ	-11095
▁ㅈㅓㅇㅊㅏㄱㅁㅣㄴ	-11096
ㅈㅏㄱㅂㅣ	-11097
▁ㄴㅐㄴㅅㅣ	-11098
▁ㄴㅗㄱㅅㅡ	-11099
▁ㅁㅣㄹㄱㅛ	-11100
▁ㅇㅔㅁㅍㅏ	-11101
▁ㅇㅣㅁㅅㅏ	-11102
▁ㅈㅗㅇㄱㅘ	-11103
▁ㅍㅕㄴㄷㅗ	-11104
▁ㅅㅓㅁㅁㅕㄹ	-11105
▁ㅇㅞㄹㄹㅣㅇㅌㅓㄴ	-11106
ㅑㅁ	-11107
▁234	-11108
▁ㄴㅏㄴㅈㅏ	-11109
▁ㅍㅓㄹㅅㅡ	-11110
ㄹㅗㄹㄹㅣㅇ	-11111
ㅁㅣㄴㅌㅓㄴ	-11112
▁ㄱㅗㅇㅅㅐㅇ	-11113
▁ㅊㅏㅁㅂㅗㅇ	-11114
▁ㅋㅐㅂㅅㅠㄹ	-11115
▁ㅌㅏㄹㅅㅓㄴ	-11116
▁ㅁㅜㄴㅎㅏㄱㄱㅏ	-11117
▁ㅇㅏㄴㅅㅓㅇㅅㅣ	-11118
▁ㅎㅘㄴㄱㅕㅇㅂㅜ	-11119
KA	-11120
▁ROM	-11121
▁not	-11122
ㄱㅏㄱㅎㅘ	-11123
ㄷㅏㄴㅈㅗ	-11124
ㅊㅗㄴㅂㅓ	-11125
ㅍㅗㄱㅅㅡ	-11126
▁width	-11127
▁ㄷㅗㄱㄹㅕ	-11128
▁ㄹㅐㅇㅋㅓ	-11129
▁ㅁㅜㄴㅈㅣ	-11130
▁ㅇㅗㄱㄱㅐ	-11131
▁ㅇㅣㄴㅎㅚ	-11132
▁ㅋㅔㄹㄹㅓ	-11133
ㅅㅏㅇㄱㅜㄴ	-11134
ㅇㅕㅇㅂㅗㄱ	-11135
▁ㄱㅜㅇㄱㅡㅁ	-11136
▁ㅂㅕㅇㅇㅕㅇ	-11137
▁ㅇㅕㄴㅈㅏㅇㅅㅓㄴ	-11138
form	-11139
▁232	-11140
▁Sing	-11141
ㄹㅛㅇㅅㅏ	-11142
▁align	-11143
▁ㄱㅜㄱㄱㅗ	-11144
▁ㅁㅣㄴㅈㅏ	-11145
▁ㅃㅗㅂㅇㅏ	-11146
▁ㅅㅐㄱㄱㅖ	-11147
▁ㅇㅏㄴㅌㅡ	-11148
▁ㅎㅏㄱㅈㅔ	-11149
▁ㄱㅘㄴㅂㅏㅇ	-11150
▁ㄱㅜㄱㅍㅏㄴ	-11151
▁ㅈㅣㄴㅇㅑㅇ	-11152
ush	-11153
ㅋㅝㄴ	-11154
▁390	-11155
▁2030	-11156
ㅌㅔㅁㅈㅡ	-11157
▁ㄷㅏㄺㄱㅗ	-11158
▁ㅁㅏㄹㄹㅓ	-11159
ㅌㅓㄹㄹㅣㅇ	-11160
▁ㅁㅕㅇㅇㅡㄴ	-11161
▁ㅈㅓㄹㅇㅕㄴ	-11162
▁ㅊㅓㅇㅈㅣㄴ	-11163
▁ㄱㅕㅇㅈㅏㄱㅈㅣ	-11164
▁ㄱㅏㄱㅇㅜㄴㄷㅗㅇㄹㅑㅇ	-11165
ㅅㅑㄹ	-11166
▁ㅇㅡㄿ	-11167
▁1806	-11168
▁ㄱㅡㄱㅈㅘ	-11169
▁ㅇㅕㄴㅁㅏ	-11170
▁ㅇㅟㄴㅈㅓ	-11171
▁ㅈㅓㅇㅌㅐ	-11172
ㅌㅏㄴㅌㅣㄴ	-11173
▁ㄴㅐㅇㅂㅏㅇ	-11174
▁ㄷㅗㄱㅅㅣㄴ	-11175
▁ㅁㅜㄴㅎㅏㄱㅅㅏ	-11176
UT	-11177
sc	-11178
▁UI	-11179
▁ㅎㅜㄱ	-11180
▁that	-11181
ㄹㅣㅁㅍㅏ	-11182
ㅅㅓㅇㅅㅏ	-11183
ㅈㅜㄴㅎㅗ	-11184
ㅎㅐㅁㅍㅡ	-11185
▁ㄱㅣㅁㄴㅏ	-11186
▁ㄱㅣㅁㅂㅗ	-11187
▁ㅍㅕㄴㅊㅏ	-11188
▁ㄱㅏㅁㅁㅕㅇ	-11189
▁ㄴㅏㅁㅈㅣㅅ	-11190
▁ㅊㅣㅁㅈㅓㄴ	-11191
▁ㄱㅘㄴㄷㅗㅇㄱㅜㄴ	-11192
af	-11193
ㄹㅍㅡ	-11194
ript	-11195
▁1842	-11196
▁King	-11197
▁this	-11198
ㅂㅏㄹㄹㅏ	-11199
ㅅㅓㅇㅇㅣ	-11200
▁ㅅㅐㄴㅌㅏ	-11201
▁ㅅㅜㄱㄱㅗ	-11202
▁ㅇㅣㄹㄹㅠ	-11203
ㅁㅜㅅㅇㅣㅍ	-11204
ㅁㅣㄹㅇㅝㄴ	-11205
▁ㄷㅗㄴㄴㅕㅇ	-11206
▁ㅇㅕㄴㅅㅓㄴ	-11207
▁ㅅㅐㅇㅅㅏㄴㅈㅣ	-11208
ㅅㅐㅇㅁㅜㄹㅎㅏㄱ	-11209
WA	-11210
raph	-11211
▁Rem	-11212
ㅅㅏㄹㄹㅏ	-11213
▁Colle	-11214
▁ㄷㅏㄹㅅㅓ	-11215
▁ㄷㅗㅇㄱㅘ	-11216
▁ㅅㅏㄴㄷㅗ	-11217
▁ㅇㅏㄹㅌㅗ	-11218
▁ㅈㅓㅇㅌㅗ	-11219
▁ㅈㅡㅇㅅㅓ	-11220
▁ㅌㅗㅇㅅㅏ	-11221
▁ㅍㅜㅇㅌㅗ	-11222
▁ㅎㅗㅇㅈㅜ	-11223
▁ㄱㅏㅇㅇㅏㅂ	-11224
▁ㄴㅏㄱㅇㅣㄴ	-11225
▁ㅇㅛㄱㅅㅣㅁ	-11226
▁ㅇㅝㄴㅁㅏㅇ	-11227
▁ㅈㅓㅇㅅㅓㄹ	-11228
▁ㅋㅏㄹㅂㅣㄴ	-11229
ㅋㅓㄹㄹㅓㅁㅂㅣ	-11230
▁ㅅㅜㄹㅌㅏㄴㄱㅜㄱ	-11231
▁ㅊㅓㄹㅇㅝㄴㄱㅜㄴ	-11232
▁PK	-11233
▁we	-11234
▁216	-11235
▁That	-11236
▁ㄱㅏㅁㅎㅣ	-11237
▁ㄱㅣㅁㅎㅖ	-11238
▁ㅂㅏㅇㄱㅖ	-11239
▁ㅇㅑㅇㅅㅣ	-11240
ㅍㅡㄹㄹㅣㅇ	-11241
▁ㅇㅕㄴㅅㅓㅇ	-11242
▁ㅊㅜㄹㄱㅡㄴ	-11243
ㅌㅡㄹㄹㅐㄴㅌㅣㄱ	-11244
▁ㄷㅏㄹㅅㅓㅇㄱㅜㄴ	-11245
ㄱㅠㄹ	-11246
▁Boy	-11247
▁ㄱㅜㄱㅈㅏ	-11248
▁ㅇㅘㄴㅌㅜ	-11249
▁ㅈㅓㅇㅎㅚ	-11250
▁ㅊㅏㄴㄱㅏ	-11251
ㅇㅕㄴㅈㅏㅇ	-11252
▁ㅁㅕㅇㅊㅏㅇ	-11253
▁ㅂㅓㅂㅎㅏㄱㅈㅏ	-11254
ㅉㅓㄱ	-11255
▁LCK	-11256
ㄴㅔㄹㄹㅏ	-11257
ㄹㅡㄴㅎㅏ	-11258
▁ㄱㅣㅁㅅㅗ	-11259
▁ㅅㅓㄴㅈㅣ	-11260
▁ㅅㅓㄹㄱㅏ	-11261
▁ㅅㅣㄴㄷㅣ	-11262
▁ㅊㅓㅇㄷㅜ	-11263
▁ㅋㅗㅇㅋㅜ	-11264
▁ㅅㅓㄴㅍㅜㅇ	-11265
▁ㅅㅣㅁㅂㅗㄹ	-11266
▁ㄱㅡㄴㅂㅗㄴㅈㅜ	-11267
▁ㅍㅕㄴㅈㅣㅂㄱㅣ	-11268
ㄱㅙ	-11269
▁950	-11270
▁ㄷㅣㅁ	-11271
ㅇㅣㅁㅅㅜ	-11272
ㅌㅔㄱㅅㅡ	-11273
lement	-11274
▁ㄱㅏㄹㅁㅐ	-11275
▁ㄹㅣㄴㅊㅣ	-11276
▁ㅂㅔㄴㅈㅏ	-11277
▁ㅊㅓㄹㄹㅗ	-11278
▁ㅍㅔㄴㅌㅣ	-11279
ㅂㅜㄹㅌㅐㅇ	-11280
▁ㄹㅣㄴㅌㅓㄴ	-11281
▁ㅇㅕㄱㅅㅡㅂ	-11282
▁ㅇㅕㄹㄱㅘㅇ	-11283
▁Project	-11284
ㄴㅐㅂ	-11285
▁Web	-11286
ㅂㅕㅇㅈㅏ	-11287
▁Great	-11288
▁ㅂㅜㄹㄷㅗ	-11289
▁ㅇㅕㅍㄱㅜ	-11290
▁ㅈㅓㄴㅎㅐ	-11291
▁ㄴㅏㅁㅁㅜㄴ	-11292
▁ㅅㅏㄹㄱㅠㄴ	-11293
▁ㅇㅣㄴㅈㅏㅇ	-11294
▁ㅉㅏㄱㅈㅣㅅ	-11295
ㅅㅣㅇㅌㅓㄴㅈㅜ	-11296
▁ㅂㅕㄴㅈㅡㅇㅂㅓㅂ	-11297
▁GL	-11298
▁UF	-11299
▁815	-11300
▁GPU	-11301
▁1790	-11302
▁1796	-11303
▁ㄱㅜㅂㅎㅣ	-11304
▁ㄹㅣㄱㅅㅡ	-11305
▁ㅅㅡㅂㄱㅣ	-11306
▁ㅇㅔㅅㅈㅣ	-11307
▁ㅇㅣㄹㄱㅜ	-11308
▁ㅎㅏㄴㅈㅣ	-11309
ㅊㅗㅇㄱㅘㄴ	-11310
▁ㅅㅣㄴㄴㅕㄴ	-11311
▁ㅇㅣㄴㅎㅕㄴ	-11312
iew	-11313
lex	-11314
▁FL	-11315
▁pH	-11316
▁660	-11317
▁ㅋㅏㅅ	-11318
ㄹㅓㄱㅅㅡ	-11319
ㅇㅛㅇㅈㅜ	-11320
ㅇㅣㄴㄷㅓ	-11321
ㅈㅏㅇㅅㅜ	-11322
▁ㅂㅏㄴㅇㅠ	-11323
▁ㅅㅓㄱㅎㅗ	-11324
▁ㅇㅠㄴㅈㅣ	-11325
▁ㅎㅏㄱㅂㅣ	-11326
▁ㅅㅓㅇㅊㅡㅇ	-11327
▁ㄱㅕㅇㅇㅕㅇㅈㅣㄴ	-11328
EX	-11329
SI	-11330
▁EL	-11331
▁Run	-11332
▁key	-11333
▁ㅋㅟㄱ	-11334
▁1832	-11335
▁Inst	-11336
ㄴㅏㄹㄹㅣ	-11337
ㅁㅣㄴㅌㅔ	-11338
▁score	-11339
▁ㄱㅗㄹㅈㅏ	-11340
▁ㅁㅏㄴㅎㅏ	-11341
▁ㅂㅏㄱㅈㅜ	-11342
▁ㅅㅓㅇㅎㅢ	-11343
▁ㅇㅑㅇㅇㅏ	-11344
▁ㅇㅝㄴㅇㅖ	-11345
▁ㅍㅗㄱㅇㅜ	-11346
▁ㅎㅔㄹㄹㅏ	-11347
▁ㄷㅗㅇㅇㅡㅁ	-11348
▁ㅁㅕㄴㅈㅓㅂ	-11349
▁ㅅㅓㄴㅂㅓㅂ	-11350
▁ㅅㅓㅇㅈㅣㄱ	-11351
▁ㅈㅓㄴㅎㅘㅇ	-11352
▁ㅊㅓㅇㅍㅜㅇ	-11353
▁ㅍㅏㄴㄱㅏㄱ	-11354
▁ㄱㅏㅇㅈㅣㄴㄱㅜㄴ	-11355
▁ㅊㅓㄱㅌㅏㄴㅂㅕㅇ	-11356
ize	-11357
tain	-11358
▁460	-11359
ㅌㅗㄹㄹㅗ	-11360
▁ㄹㅣㄴㅅㅡ	-11361
▁ㅅㅗㄱㅈㅚ	-11362
▁ㅅㅣㄴㅍㅏ	-11363
▁ㅈㅓㄴㅅㅗ	-11364
▁ㅍㅠㄹㄹㅣ	-11365
▁ㅈㅓㄴㅍㅗㄱ	-11366
▁ㅈㅡㅇㅅㅏㄴ	-11367
▁ㅇㅏㅍㄷㅏㅇㄱㅣ	-11368
▁ㅈㅣㅂㅎㅕㄴㅈㅓㄴ	-11369
rop	-11370
▁-.	-11371
ㅁㅡㄹ	-11372
▁...	-11373
▁EOS	-11374
▁1810	-11375
ㄹㅗㅇㅋㅡ	-11376
▁20120	-11377
▁ㄱㅏㅁㄹㅗ	-11378
▁ㅁㅜㄱㅅㅣ	-11379
▁ㅁㅜㄹㅇㅢ	-11380
▁ㅈㅐㅇㅊㅟ	-11381
ㄹㅏㅂㅇㅣㄴ	-11382
ㅈㅓㄴㄷㅗㅇ	-11383
▁ㅈㅓㄴㄹㅑㅇ	-11384
▁ㅈㅜㅇㅎㅡㅇ	-11385
▁ㅎㅜㄴㅈㅗㄱ	-11386
▁ㄱㅏㅁㄷㅗㄱㅅㅏㅇ	-11387
elf	-11388
ㄸㅏㄴ	-11389
ㅈㅔㅅ	-11390
▁264	-11391
▁1798	-11392
ㅇㅣㄴㄱㅘ	-11393
ㅎㅕㄱㅈㅜ	-11394
▁ㅂㅐㄱㅅㅡ	-11395
▁ㅂㅗㄹㄹㅏ	-11396
▁ㅈㅏㅇㅁㅏ	-11397
▁ㅈㅓㅇㄴㅏ	-11398
▁ㅊㅜㄹㅈㅔ	-11399
ㅇㅣㅂㅅㅏㅇ	-11400
▁ㄴㅔㄱㅅㅡㄴ	-11401
▁ㅅㅏㅁㄴㅏㅁ	-11402
▁ㅅㅓㅇㅇㅘㅇ	-11403
▁ㅅㅗㄱㅎㅕㄴ	-11404
▁ㅈㅓㄴㄱㅕㅇ	-11405
▁ㅊㅣㄴㅍㅣㄹ	-11406
▁up	-11407
ㅍㅓㄱ	-11408
▁640	-11409
▁Cor	-11410
▁ㅊㅓㄹㄱㅛ	-11411
ㅇㅏㅁㅁㅕㄴ	-11412
▁ㄱㅏㄴㅌㅗㅇ	-11413
▁ㄱㅕㅇㄱㅏㅁ	-11414
▁ㅈㅏㄴㄷㅏㅇ	-11415
▁ㅊㅜㄱㅇㅑㄱ	-11416
▁ㅇㅓㅁㅁㅣㄹㅎㅣ	-11417
▁ㅈㅏㄱㅇㅛㅇㅅㅗ	-11418
ady	-11419
ane	-11420
ㄱㅓㄱ	-11421
ㄱㅚㅇ	-11422
▁410	-11423
▁Are	-11424
ㄱㅜㄱㄷㅐ	-11425
ㅋㅓㄹㄹㅓ	-11426
▁ㅂㅗㄱㄱㅗ	-11427
▁ㅅㅓㅇㅅㅣ	-11428
▁ㅎㅔㄱㅌㅏ	-11429
ㅇㅑㅇㅅㅣㄱ	-11430
▁ㅅㅣㄴㅂㅣㅇ	-11431
▁ㅅㅣㄴㅊㅏㅇ	-11432
▁ㅇㅏㄴㄷㅏㄹ	-11433
▁ㅋㅡㄹㄹㅣㅂ	-11434
▁ㅎㅓㄴㅈㅗㅇ	-11435
▁ㄱㅣㅁㅊㅓㄴㅅㅣ	-11436
▁GD	-11437
▁Mk	-11438
▁nt	-11439
▁Met	-11440
▁Mod	-11441
▁val	-11442
ㅂㅡㄹㄹㅓ	-11443
▁ㅇㅏㅍㅂㅜ	-11444
ㅇㅑㅇㄷㅗㅇ	-11445
▁ㄱㅗㅇㅁㅜㄹ	-11446
▁ㅂㅣㄴㅇㅑㄱ	-11447
▁ㅇㅕㄹㄷㅡㅇ	-11448
▁ㅇㅕㅇㅇㅣㄹ	-11449
▁ㄴㅏㅁㅇㅝㄴㅅㅣ	-11450
▁ㄷㅏㅁㅇㅑㅇㄱㅜㄴ	-11451
atic	-11452
▁NHL	-11453
▁Rad	-11454
▁Sub	-11455
ㅁㅣㄹㄹㅏ	-11456
▁Every	-11457
▁ㅇㅝㄴㅊㅜ	-11458
ㄹㅣㄱㅅㅡㄴ	-11459
▁ㄷㅏㄴㄹㅕㄴ	-11460
▁ㅁㅕㅇㅁㅐㄱ	-11461
▁ㅂㅡㄹㄹㅜㅁ	-11462
▁ㅅㅏㄴㅎㅏㄱ	-11463
▁ㅈㅏㅇㅇㅓㅁ	-11464
▁ㅊㅗㅇㅎㅏㅂ	-11465
▁ㄱㅏㅁㅇㅕㅁㅂㅕㅇ	-11466
▁ㅂㅏㄹㅎㅐㅇㅇㅣㄴ	-11467
▁ㅅㅣㄴㅇㅣㄴㅇㅘㅇ	-11468
▁ㅇㅔㅂㅅㅣㄹㄹㅗㄴ	-11469
▁am	-11470
▁213	-11471
ㄷㅗㅇㅂㅜ	-11472
ㄹㅓㄴㅊㅡ	-11473
▁ㅁㅕㅇㅎㅚ	-11474
▁ㅇㅕㄴㄴㅏ	-11475
▁ㅎㅐㅁㅍㅡ	-11476
▁ㄱㅘㅇㅅㅓㄱ	-11477
▁ㅅㅓㅇㄱㅡㅂ	-11478
▁ㅇㅏㄹㅎㅕㄴ	-11479
▁ㅎㅏㄱㄴㅕㄴㄷㅗ	-11480
▁ㅊㅏㅁㅈㅓㅇㄱㅝㄴ	-11481
pm	-11482
ㅍㅟ	-11483
ene	-11484
ott	-11485
▁ㅈㅜㅁ	-11486
ㅈㅏㅇㅇㅓ	-11487
ㅈㅜㅇㅁㅣ	-11488
▁ㄷㅏㄴㅂㅏ	-11489
▁ㄹㅣㄴㄴㅔ	-11490
▁ㅇㅏㄱㅎㅏ	-11491
▁ㅇㅣㅁㅈㅣ	-11492
▁ㅈㅏㅇㅂㅜ	-11493
▁ㅌㅡㄹㅇㅓ	-11494
▁ㅇㅑㅇㅅㅗㄴ	-11495
▁ㅈㅣㄹㅅㅏㄴ	-11496
▁ㄱㅏㅇㄷㅗㅇㄱㅜ	-11497
▁ㅂㅜㄱㅈㅜㅇㅁㅣ	-11498
▁ㅌㅗㅇㅇㅕㅇㅅㅣ	-11499
▁ㅅㅓㄴㅂㅏㄹㅈㅓㄴ	-11500
ney	-11501
uth	-11502
▁ㅆㅔ	-11503
▁219	-11504
▁255	-11505
▁EMI	-11506
▁UAE	-11507
▁ㅇㅕㄼ	-11508
ㅋㅏㄹㄹㅔ	-11509
ㅍㅔㄹㅌㅡ	-11510
▁ㄱㅡㄴㅎㅐ	-11511
▁ㄱㅡㅂㅇㅠ	-11512
▁ㅁㅏㄴㄱㅘ	-11513
▁School	-11514
▁ㅂㅓㅂㄷㅏㅇ	-11515
▁ㅂㅜㄱㅈㅣㄴ	-11516
▁ㅇㅜㄹㅈㅣㄴ	-11517
▁ㅊㅜㄹㅈㅣㄴ	-11518
▁ㄷㅏㄹㅍㅐㅇㅇㅣ	-11519
▁ㄷㅡㄱㅈㅓㅁㅈㅏ	-11520
ㅃㅐㄱ	-11521
ㅆㅓㅂ	-11522
▁ARM	-11523
▁DMB	-11524
▁1831	-11525
▁ㅁㅗㅇㅋㅔ	-11526
▁ㅇㅣㅂㄱㅛ	-11527
▁ㅈㅡㅇㅇㅕ	-11528
▁ㅋㅓㅁㅍㅗ	-11529
▁ㄱㅕㄹㅂㅓㄴ	-11530
▁ㄷㅗㅇㄱㅘㄴ	-11531
▁ㄷㅗㅇㅁㅕㄴ	-11532
▁ㅂㅜㄹㅍㅔㄴ	-11533
▁ㅅㅏㅇㅇㅗㄴ	-11534
▁UP	-11535
▁Bad	-11536
▁ㄱㅡㅁㅇㅗ	-11537
▁ㄱㅣㅁㅂㅜ	-11538
▁ㄷㅣㄹㄹㅔ	-11539
▁ㅇㅣㄹㅈㅣ	-11540
▁ㅊㅣㅇㄷㅏ	-11541
▁ㄱㅡㄱㅅㅓㅇ	-11542
▁ㄱㅣㅁㅂㅗㅇ	-11543
▁ㄷㅗㄹㅂㅏㅇ	-11544
▁ㅃㅐㄱㅃㅐㄱ	-11545
▁ㅅㅓㄱㅁㅜㄹ	-11546
▁ㅅㅓㄱㅎㅏㄱ	-11547
▁ㅈㅓㅇㅈㅏㅇ	-11548
▁ㅈㅣㄴㅂㅗㅇ	-11549
▁ㄷㅗㄱㄹㅣㅂㄷㅏㅇ	-11550
▁ㅈㅣㄴㅎㅡㅇㅇㅘㅇ	-11551
▁ㅅㅏㅇㄹㅠㄱㅈㅏㄱㅈㅓㄴ	-11552
eng	-11553
▁DP	-11554
ㅆㅇㅓㅆ	-11555
ㄹㅡㄹㅁㅏ	-11556
ㅇㅛㅇㄱㅏ	-11557
▁ㄴㅜㄴㅂㅜ	-11558
▁ㅂㅏㅁㅎㅏ	-11559
▁ㅅㅓㄴㅎㅘ	-11560
▁ㅁㅐㄴㅌㅡㄹ	-11561
▁ㅂㅜㄹㅅㅜㄴ	-11562
▁ㅇㅣㄴㅌㅓㄴ	-11563
▁ㅍㅣㄹㅈㅓㄱ	-11564
▁ㅊㅜㅇㅅㅣㄹㅎㅣ	-11565
▁ㅎㅏㅂㅂㅓㅂㅎㅘ	-11566
▁ㅂㅓㄴㅇㅕㄱㅂㅗㄴ	-11567
ama	-11568
ins	-11569
▁ㅎㅜㅁ	-11570
ㄴㅗㅇㅅㅏ	-11571
▁20100	-11572
▁ㅇㅏㄹㅂㅡ	-11573
▁ㅇㅝㄴㅈㅣ	-11574
▁ㅈㅓㅂㄷㅐ	-11575
▁ㄴㅏㄴㅂㅏㅇ	-11576
▁ㄴㅐㅇㄷㅗㅇ	-11577
▁ㅅㅏㄴㄱㅜㄴ	-11578
▁MY	-11579
▁VV	-11580
ㅂㅠㅁ	-11581
▁ㅇㅑㅁ	-11582
ㅎㅏㅁㄷㅐ	-11583
▁ㅅㅣㄴㄷㅡ	-11584
▁ㅇㅜㄹㅌㅏ	-11585
▁ㅂㅜㄹㅁㅕㄹ	-11586
▁ㅅㅏㄹㄹㅗㅇ	-11587
▁ㅅㅓㄴㅇㅘㅇ	-11588
▁ㅇㅏㄴㅅㅏㅇ	-11589
▁ㅇㅣㄴㅅㅗㄹ	-11590
▁ㅎㅗㄴㅇㅛㅇ	-11591
06	-11592
UL	-11593
▁RCA	-11594
ㄹㅐㄴㄷㅗ	-11595
ㅍㅏㄹㄹㅗ	-11596
▁ㅊㅏㅁㅅㅐ	-11597
▁ㅎㅏㄴㄴㅣ	-11598
▁ㅂㅏㅇㅎㅕㅇ	-11599
▁ㅈㅗㅇㅇㅣㄹ	-11600
▁ㅈㅣㅂㅇㅑㄱ	-11601
▁ㅂㅓㄴㅇㅕㄱㄱㅏ	-11602
▁ㅅㅗㅇㄱㅘㅇㅅㅏ	-11603
▁ㅅㅣㄴㅅㅜㄱㅈㅜ	-11604
▁HTTP	-11605
ㅅㅜㅇㅇㅏ	-11606
▁ㅇㅏㅇㅋㅗ	-11607
▁ㅇㅕㄴㅊㅔ	-11608
▁ㅌㅔㄴㅌㅡ	-11609
ㅂㅜㄱㄷㅗㅇ	-11610
▁ㄱㅏㄴㄱㅏㄴ	-11611
▁ㄱㅡㄴㅎㅕㄴ	-11612
▁ㅅㅣㄹㅁㅜㄹ	-11613
▁ㅇㅏㅁㅂㅏㄴ	-11614
▁ㅇㅑㄱㅈㅓㅇ	-11615
▁ㅇㅕㄴㄱㅗㄹ	-11616
▁ㅇㅛㅇㅁㅜㄴ	-11617
▁ㅈㅓㅇㅅㅏㄴ	-11618
▁ㅍㅏㄴㄱㅝㄴ	-11619
▁ㅂㅜㄹㅁㅕㅇㅇㅖ	-11620
▁ㅇㅏㄹㄹㅗㄴㅅㅗ	-11621
▁ㅇㅕㅇㄷㅗㅇㄱㅜㄴ	-11622
ㅅㅐㅇㄱㅣ	-11623
ㅅㅓㄱㅅㅜ	-11624
▁ㄷㅗㅇㅌㅐ	-11625
▁ㅂㅐㄱㅁㅏ	-11626
▁ㅇㅝㄴㅂㅜ	-11627
▁ㅈㅓㅇㄷㅐ	-11628
▁ㅊㅡㄱㄷㅗ	-11629
▁ㄱㅘㅇㅇㅝㄴ	-11630
▁ㅁㅣㄹㅊㅏㄱ	-11631
▁ㅇㅔㄹㅌㅡㄴ	-11632
▁ㅇㅛㅇㅂㅓㅂ	-11633
▁ㅈㅏㅇㅎㅕㄴ	-11634
▁ㅈㅓㄴㅎㅚㅇ	-11635
▁ㅊㅓㄹㄱㅝㄴ	-11636
▁ㅌㅏㅁㅇㅛㄱ	-11637
▁ㅇㅗㄴㅈㅓㄴㅎㅣ	-11638
ams	-11639
▁Inc	-11640
▁1841	-11641
ㄱㅗㄱㅅㅏ	-11642
ㅈㅜㄴㅅㅣ	-11643
▁ㄱㅏㄱㄱㅖ	-11644
▁ㅍㅏㄴㄱㅛ	-11645
ㅈㅓㄱㄷㅏㄴ	-11646
▁ㅅㅣㄹㄱㅕㄱ	-11647
▁ㅇㅓㅂㅈㅗㅇ	-11648
▁ㅇㅝㄴㄱㅠㄴ	-11649
▁ㅋㅡㄹㄹㅏㄱ	-11650
▁ㅈㅓㅇㅁㅏㄹㄹㅗ	-11651
▁Im	-11652
▁Je	-11653
▁BSD	-11654
▁YTN	-11655
▁ㅅㅐㅅ	-11656
ㄹㅗㄹㅌㅓ	-11657
ㅂㅏㅇㅇㅟ	-11658
▁ㅁㅕㅇㄱㅣ	-11659
ㄷㅓㄱㅁㅕㄴ	-11660
ㅇㅣㄴㅇㅣㄴ	-11661
▁ㄱㅏㄱㅇㅣㄴ	-11662
▁ㄱㅡㄴㅊㅣㄴ	-11663
▁ㅂㅏㄴㅈㅏㅇ	-11664
▁ㅇㅝㄴㅅㅜㄴ	-11665
▁ㅌㅏㄱㅂㅏㄹ	-11666
▁ㅎㅕㄱㅁㅕㅇㄷㅏㅇ	-11667
▁WK	-11668
▁ㅍㅏㅌ	-11669
▁1809	-11670
▁1843	-11671
ㅅㅏㄹㄹㅗ	-11672
ㅇㅕㄹㅅㅡ	-11673
▁ㅅㅔㄹㄹㅏ	-11674
▁ㅇㅏㄹㄷㅔ	-11675
▁ㅇㅑㅇㅅㅏ	-11676
▁ㅌㅐㅇㅎㅘ	-11677
▁ㅅㅏㄴㅇㅑㅇ	-11678
▁ㅈㅏㅇㅈㅣㄱ	-11679
▁ㅂㅏㅇㅁㅜㄴㅈㅏ	-11680
▁ㅇㅡㄴㅍㅕㅇㄱㅜ	-11681
▁ㄷㅗㄱㄹㅣㅂㅅㅓㅇ	-11682
▁ㅎㅏㅁㅇㅑㅇㄱㅜㄴ	-11683
▁ㅍㅕㅇㅇㅑㅇㅈㅣㄱㅎㅏㄹㅅㅣ	-11684
NS	-11685
erm	-11686
ㅋㅏㅇ	-11687
▁227	-11688
▁ㄱㅟㄴ	-11689
▁ㅁㅣㄹㅋㅡ	-11690
▁ㅂㅏㅇㅂㅣ	-11691
▁ㅂㅓㄴㅅㅏ	-11692
▁ㅂㅣㅈㅇㅓ	-11693
▁ㅅㅜㄱㅇㅣ	-11694
▁ㅇㅑㅇㅈㅔ	-11695
▁ㅈㅓㅇㅁㅣ	-11696
ㄱㅘㅇㅅㅓㄱ	-11697
▁ㅇㅠㄴㅈㅗㅇ	-11698
▁ㅎㅘㅇㄱㅜㅇ	-11699
▁ㅇㅡㅁㅅㅣㄱㅁㅜㄹ	-11700
03	-11701
xy	-11702
ava	-11703
ㄴㅏㄴㄷㅡ	-11704
▁ㅈㅏㄹㅊㅡ	-11705
▁ㅈㅗㅁㅊㅓ	-11706
▁ㅎㅗㄴㅅㅠ	-11707
ㅊㅓㅇㅈㅓㅇ	-11708
▁ㄱㅕㄹㅅㅗㄱ	-11709
▁ㅂㅏㅇㅎㅘㅇ	-11710
▁ㅅㅣㄴㅊㅗㄴ	-11711
▁ㅇㅣㄹㄱㅘㅇ	-11712
▁ㅊㅓㅇㅊㅓㄴ	-11713
▁ㅊㅜㅇㅈㅓㄹ	-11714
▁ㅎㅘㅇㅅㅓㅇ	-11715
▁ㅇㅡㅁㅅㅓㅇㄱㅜㄴ	-11716
du	-11717
oph	-11718
▁EA	-11719
ㄲㅜㄴ	-11720
▁Rob	-11721
▁ㄱㅣㅇ	-11722
▁ㅃㅑㅁ	-11723
▁1821	-11724
ㅎㅏㄹㅁㅓ	-11725
ations	-11726
▁ㅎㅘㅇㅎㅘ	-11727
ㅁㅜㄹㅈㅣㄹ	-11728
▁ㅂㅓㄴㅂㅓㄴ	-11729
▁ㅅㅓㄴㅅㅏㄴ	-11730
▁ㅎㅗㄱㅍㅕㅇ	-11731
▁ㅁㅕㅇㅂㅐㄱㅎㅣ	-11732
▁ㅈㅓㅇㅇㅡㅂㅅㅣ	-11733
▁ㅈㅡㅇㄱㅝㄴㄱㅓ	-11734
▁ㄲㅡㄶㅇㅣㅁㅇㅓㅄ	-11735
▁ㅊㅏㅇㄴㅕㅇㄱㅜㄴ	-11736
na	-11737
▁GE	-11738
▁Blu	-11739
▁Off	-11740
ㅂㅡㄹㄹㅏ	-11741
ㅊㅜㄴㄱㅣ	-11742
ㅋㅔㄹㄹㅔ	-11743
▁ㅂㅏㄴㄱㅏ	-11744
▁ㅎㅘㅇㅈㅜ	-11745
ㄴㅏㄴㅁㅣㄴ	-11746
ㅂㅗㄱㅇㅡㅁ	-11747
ㅊㅏㄱㅁㅣㄴ	-11748
▁ㄱㅏㄴㅎㅓㄹ	-11749
▁ㅁㅐㄹㅋㅓㅁ	-11750
▁ㅂㅗㄴㅈㅓㅁ	-11751
▁ㅅㅡㅇㅊㅓㄴ	-11752
▁ㅈㅏㅇㄹㅕㄱ	-11753
▁ㅈㅐㅇㅌㅏㄹ	-11754
▁ㅈㅓㅇㄹㅏㅇ	-11755
ㅂㅓㅂㅇㅕㄴㅅㅜ	-11756
▁ㄱㅡㅁㅅㅏㄴㄱㅜㄴ	-11757
ech	-11758
▁Game	-11759
▁ㅅㅏㅇㄴㅏ	-11760
▁ㅇㅣㄹㄱㅐ	-11761
▁ㅊㅓㅇㅈㅗ	-11762
▁ㅎㅓㅁㅍㅡ	-11763
▁ㄷㅗㅇㄱㅕㄹ	-11764
▁ㅅㅏㅇㅎㅑㅇ	-11765
▁ㅅㅣㄴㅇㅑㄱㅅㅓㅇㄱㅕㅇ	-11766
▁OR	-11767
▁VR	-11768
▁ㅅㅟㅁ	-11769
▁ㅇㅝㅇ	-11770
ㄹㅐㄴㅈㅡ	-11771
▁Micro	-11772
▁ㄱㅜㅇㅈㅣ	-11773
▁ㅅㅐㅇㅂㅜ	-11774
▁ㅇㅏㄹㅂㅓ	-11775
▁ㅇㅗㄹㄱㅏ	-11776
▁ㅇㅝㄴㄷㅐ	-11777
▁ㅇㅣㄹㄹㅖ	-11778
▁ㅊㅜㄹㅌㅚ	-11779
ㅇㅏㄴㅁㅕㄴ	-11780
ㅈㅓㅇㅍㅏㄴ	-11781
▁ㄴㅗㅇㅇㅏㄱ	-11782
▁ㅂㅜㄴㅅㅣㄹ	-11783
▁ㅆㅏㅇㅂㅏㅇ	-11784
▁ㅇㅘㅇㅈㅓㄴ	-11785
▁ㅇㅝㄴㅃㅜㄹ	-11786
▁ㅊㅗㅇㄷㅗㅇㅇㅝㄴ	-11787
▁Sk	-11788
▁ㅉㅜ	-11789
▁1783	-11790
▁ㄹㅐㅇㅅㅡ	-11791
▁ㅁㅣㅌㅂㅜ	-11792
▁ㅇㅕㄴㄹㅖ	-11793
▁ㅊㅏㅁㅎㅗ	-11794
ㄱㅜㄱㅈㅏㅇ	-11795
ㄹㅜㄴㄱㅜㅇ	-11796
ㅇㅛㅇㅂㅓㅂ	-11797
▁ㄴㅐㅇㅈㅓㅇ	-11798
▁ㅊㅗㅇㄱㅘㄴ	-11799
▁International	-11800
▁Mc	-11801
ㅇㅣㄴㄱㅣ	-11802
▁ㅈㅣㅂㄷㅐ	-11803
▁ㅎㅐㄱㅁㅣ	-11804
ㅇㅕㅇㅎㅑㅇ	-11805
▁ㄲㅏㄹㄲㅡㅁ	-11806
▁ㅊㅗㅇㅅㅏㅇ	-11807
ㅈㅛ	-11808
▁275	-11809
ㅁㅣㅇㄱㅗ	-11810
▁ㄱㅕㄴㄱㅘ	-11811
▁ㄷㅓㄴㅅㅡ	-11812
▁ㄱㅜㄴㅇㅘㅇ	-11813
▁ㅁㅣㄴㅈㅣㄴ	-11814
▁ㅊㅏㄴㅂㅏㄴ	-11815
▁ㅇㅑㅇㅂㅏㅇㅎㅑㅇ	-11816
ㄹㅚㅁ	-11817
▁ㅇㅞㅁ	-11818
▁1799	-11819
▁comp	-11820
▁ㄱㅡㅁㅈㅜ	-11821
▁ㄱㅣㅁㅎㅛ	-11822
▁ㅂㅏㄱㅊㅏ	-11823
ㄱㅝㄴㄹㅕㄱ	-11824
▁ㅇㅔㄹㄹㅔㄴ	-11825
▁ㅇㅓㅁㄱㅕㄱㅎㅣ	-11826
▁ㅈㅜㅇㅎㅏㅂㅎㅛ	-11827
▁ㄱㅕㅇㅅㅜㄴㅇㅘㅇ	-11828
▁ㅇㅕㅇㅇㅏㅁㄱㅜㄴ	-11829
▁316	-11830
▁POS	-11831
▁ㅋㅡㅁ	-11832
▁1623	-11833
▁1819	-11834
▁1835	-11835
ㄱㅜㄴㄱㅣ	-11836
ㄲㅡㄹㅇㅓ	-11837
ㄷㅓㄱㄹㅣ	-11838
ㅎㅐㄱㅎㅘ	-11839
▁Award	-11840
▁ㄱㅡㅂㅂㅜ	-11841
▁ㄴㅏㅁㅋㅗ	-11842
▁ㅂㅗㄴㄷㅡ	-11843
▁ㅅㅔㄱㅌㅓ	-11844
▁ㅈㅏㅇㅇㅠ	-11845
▁ㅋㅏㄴㅌㅗ	-11846
▁ㅌㅏㅂㅂㅣ	-11847
▁ㅌㅗㅇㄱㅏ	-11848
▁ㅎㅏㄴㅅㅜ	-11849
▁ㅎㅕㅇㅇㅣ	-11850
▁ㅎㅡㄱㅅㅏ	-11851
▁ㅅㅓㅇㅅㅏㅇ	-11852
▁ㅇㅕㄴㅍㅣㄹ	-11853
▁RF	-11854
▁par	-11855
ㄴㄷㅔㄴ	-11856
irect	-11857
▁1803	-11858
▁1813	-11859
ㄹㅜㄹㄹㅜ	-11860
▁Korea	-11861
▁ㅁㅔㅅㄷㅙ	-11862
▁ㅅㅣㄴㄷㅔ	-11863
▁ㅎㅓㄴㅌㅡ	-11864
ㄱㅡㄱㅇㅣㄴ	-11865
▁ㄱㅣㄹㅉㅜㄱ	-11866
▁ㅇㅘㄴㅊㅜㅇ	-11867
▁ㅎㅙㅅㅂㅜㄹ	-11868
ㄴㅗㄹㄹㅜㄹㄹㅜ	-11869
▁ㄱㅘㅇㅁㅕㅇㅅㅣ	-11870
45	-11871
we	-11872
air	-11873
▁Ste	-11874
ㄷㄴㅏㄹ	-11875
▁1845	-11876
ㄱㅔㄴㅅㅠ	-11877
▁ㄱㅜㄴㅅㅗ	-11878
▁ㄷㅏㅇㄷㅗ	-11879
▁ㅅㅜㄴㅅㅏ	-11880
▁ㅇㅡㅇㄱㅗ	-11881
▁ㅊㅗㅇㅅㅓ	-11882
ㅅㅡㄹㄹㅏㄴ	-11883
▁ㄱㅝㄴㅅㅓㄴ	-11884
▁ㅁㅗㄹㅅㅏㄹ	-11885
▁ㅅㅓㄴㅂㅏㅇ	-11886
▁ㅇㅡㄴㅅㅏㅇ	-11887
▁ㅈㅜㅇㅁㅜㄴ	-11888
ㅇㅣㄴㅈㅓㄹㅅㅡ	-11889
▁ㅈㅓㅇㅂㅏㄴㄷㅐ	-11890
▁ㅈㅣㄴㄷㅗㅇㅅㅜ	-11891
▁ㅌㅡㄱㅅㅏㄴㅁㅜㄹ	-11892
▁Down	-11893
ㅎㅓㄴㄷㅐ	-11894
▁ㅂㅔㄴㅌㅜ	-11895
▁ㅅㅏㅇㄱㅓ	-11896
▁ㅅㅐㅇㅎㅜ	-11897
▁ㅅㅡㅇㅅㅗ	-11898
▁ㅌㅡㄱㅍㅏ	-11899
ㅈㅜㄴㄱㅕㅇ	-11900
ㅎㅏㄱㅅㅣㄱ	-11901
▁ㅁㅣㄹㅈㅓㅇ	-11902
▁ㅅㅐㄱㅅㅡㄴ	-11903
▁ㅇㅗㄴㅇㅑㅇ	-11904
▁ㅊㅣㄴㄷㅗㅇㅅㅐㅇ	-11905
DR	-11906
▁Act	-11907
▁FTA	-11908
▁She	-11909
▁1804	-11910
ㅌㅏㄴㅌㅡ	-11911
▁ㄱㅐㄱㅅㅏ	-11912
▁ㅅㅓㅇㅇㅠ	-11913
▁ㅎㅏㅇㄱㅓ	-11914
▁ㅎㅐㅇㅈㅜ	-11915
ㅅㅣㄴㄱㅕㅇ	-11916
ㅊㅗㄴㅁㅕㄴ	-11917
▁ㄱㅏㄴㅊㅓㄱ	-11918
▁ㄴㅏㅁㅊㅡㄱ	-11919
▁ㅂㅓㄴㅂㅗㄱ	-11920
▁ㅈㅓㅇㅇㅠㄱ	-11921
▁ㅊㅗㅇㄹㅕㄱ	-11922
▁ㅌㅡㄱㅅㅏㄴ	-11923
▁ㅎㅐㅇㅂㅓㅂ	-11924
▁ㄷㅓㄱㅇㅑㅇㄱㅜ	-11925
riv	-11926
aster	-11927
▁2023	-11928
▁ㄱㅓㅌㅁㅗ	-11929
▁ㄱㅕㄴㅈㅜ	-11930
▁ㄲㅗㄱㄷㅜ	-11931
▁ㄱㅘㄴㅊㅓㄹ	-11932
▁ㄴㅏㅁㅁㅕㅇ	-11933
▁ㅅㅏㄴㅎㅕㄴ	-11934
▁ㅅㅣㄴㅂㅕㄴ	-11935
▁ㅇㅜㄹㄹㅣㅁ	-11936
▁ㅈㅣㄴㅍㅗㄱ	-11937
▁ㄷㅗㅇㅂㅏㄴㅈㅏ	-11938
ates	-11939
▁are	-11940
▁1802	-11941
ㅃㅜㄹㅅㅗ	-11942
▁Power	-11943
▁ㅅㅣㄴㅌㅗ	-11944
▁ㅆㅡㄹㅁㅗ	-11945
ㅁㅏㄴㄱㅡㅁ	-11946
ㅍㅡㄹㄹㅣㅅ	-11947
▁ㄱㅡㅁㄷㅏㅇ	-11948
▁ㅇㅑㅇㄱㅗㅇ	-11949
▁ㅇㅗㄱㅈㅜㅇ	-11950
▁ㅊㅓㅇㅇㅑㅇ	-11951
▁DX	-11952
▁218	-11953
ㄴㅜㄹㅍㅡ	-11954
▁ㅁㅣㄹㅅㅜ	-11955
▁ㅅㅣㄴㅂㅗ	-11956
▁ㅇㅠㄱㄹㅠ	-11957
▁ㅇㅠㄱㅈㅗ	-11958
▁ㅈㅗㅂㅎㅣ	-11959
▁ㅊㅏㅇㅅㅏ	-11960
ㅅㅓㅇㄹㅛㅇ	-11961
▁ㅂㅏㄴㅌㅏㄱ	-11962
▁ㅈㅓㅇㅇㅜㄴ	-11963
▁ㄷㅏㅇㄱㅏㄴㅈㅣ	-11964
MI	-11965
▁777	-11966
ㄱㅜㄴㄱㅏ	-11967
ㄷㅡㅂㅈㅔ	-11968
▁ㄱㅏㄱㅇㅗ	-11969
▁ㅁㅏㄴㅎㅗ	-11970
ㄷㅗㅇㄱㅜㄱ	-11971
ㅈㅓㅇㅊㅐㄱ	-11972
▁ㅂㅏㅁㅈㅜㅇ	-11973
▁ㅅㅣㄱㅅㅐㅇ	-11974
▁ㅎㅘㄴㅅㅐㅇ	-11975
▁ㅎㅜㄴㄹㅕㄴㅅㅗ	-11976
TO	-11977
▁501	-11978
▁Che	-11979
ㅁㅏㅇㅈㅜ	-11980
ㅇㅡㅁㅍㅏ	-11981
ㅍㅕㅇㄷㅐ	-11982
▁ㄱㅜㅇㄴㅕ	-11983
▁ㅁㅏㅈㅇㅏ	-11984
▁ㅂㅕㄴㅇㅢ	-11985
▁ㅎㅗㅇㅁㅜ	-11986
ㄱㅕㄱㅈㅓㄴ	-11987
ㅁㅜㄴㅇㅘㅇ	-11988
▁ㄹㅗㄱㅁㅐㄴ	-11989
▁ㅅㅓㄴㅂㅜㄴ	-11990
▁ㅅㅜㄴㄱㅜㄱ	-11991
▁ㅇㅔㅇㄱㅔㄹ	-11992
▁ㅇㅡㄴㅅㅐㄱ	-11993
▁ㅇㅡㅁㄱㅡㄱ	-11994
▁ㅎㅗㅇㅅㅓㅇㄱㅜㄴ	-11995
▁Bel	-11996
▁OEC	-11997
▁all	-11998
▁ㅋㅘㄴ	-11999
▁1824	-12000
▁ㄱㅏㄴㅆㅜ	-12001
▁ㅅㅓㄴㅈㅜ	-12002
▁ㅎㅗㄴㅈㅐ	-12003
ㅅㅜㄹㄹㅕㄱ	-12004
ㅊㅓㄴㅇㅡㅂ	-12005
▁ㄱㅏㅁㅇㅕㅇ	-12006
▁ㅅㅐㅇㄴㅕㄴ	-12007
▁ㅎㅕㄴㅇㅏㄴ	-12008
ㅂㅕㅌ	-12009
▁512	-12010
▁Ang	-12011
ittle	-12012
▁YMCA	-12013
ㅅㅐㅁㅍㅡ	-12014
▁ㄷㅗㅇㅇㅜ	-12015
▁ㅂㅓㅂㅈㅜ	-12016
▁ㅊㅔㄹㄹㅣ	-12017
▁ㅎㅏㅁㅍㅗ	-12018
ㄷㅗㅇㅈㅣㄴ	-12019
▁ㄱㅏㅁㅅㅗㄱ	-12020
▁ㄷㅗㄱㄷㅏㄴ	-12021
▁ㅅㅣㅁㅎㅕㄹ	-12022
▁ㅇㅕㄱㅂㅓㅂ	-12023
▁ㅇㅣㄴㅁㅐㄱ	-12024
▁ㅇㅗㄹㄹㅐㄴㄷㅗ	-12025
ARD	-12026
▁ㅊㅞ	-12027
▁ㅎㅔㅁ	-12028
▁1805	-12029
ㄱㅕㅇㅈㅔ	-12030
▁ㄱㅗㅇㄱㅜ	-12031
▁ㄷㅏㄴㅌㅔ	-12032
▁ㅅㅡㅇㅍㅐ	-12033
▁ㅇㅟㅇㅅㅡ	-12034
▁ㅇㅡㅁㅅㅜ	-12035
▁ㅎㅓㅁㅎㅏ	-12036
▁ㅇㅣㅂㅅㅓㄴ	-12037
▁ㅈㅓㄴㄱㅜㄴ	-12038
▁ㅈㅡㅇㅅㅓㄹ	-12039
▁ㅊㅗㅇㅅㅣㄴ	-12040
▁ㅈㅓㄴㅈㅐㅇㅌㅓ	-12041
▁ㅈㅓㄴㅅㅏㄴㅁㅏㅇ	-12042
▁ㅊㅓㅇㄴㅕㄴㄷㅏㄴ	-12043
▁ㅋㅗㅁㅍㅡㄹㄹㅔㄱㅅㅡ	-12044
ape	-12045
▁ha	-12046
▁237	-12047
▁325	-12048
▁Ind	-12049
▁ㄲㅓㅂ	-12050
▁Just	-12051
ㅇㅏㄴㅅㅡ	-12052
▁ㅅㅜㄴㅊㅣ	-12053
▁ㅇㅕㅇㅈㅔ	-12054
▁ㅇㅣㄴㅇㅓ	-12055
▁ㅇㅣㅂㅅㅗ	-12056
▁ㅈㅏㄱㅎㅘ	-12057
▁ㅈㅓㅇㄷㅏ	-12058
▁ㅌㅏㄹㅂㅏ	-12059
▁ㅎㅢㄴㄱㅐ	-12060
▁ㄱㅕㅁㅅㅗㄴ	-12061
▁ㄴㅓㄼㅈㅓㄱ	-12062
▁ㄷㅏㄴㄴㅕㅁ	-12063
▁ㄷㅗㄹㅈㅣㄴ	-12064
▁ㅁㅜㄴㄷㅏㅂ	-12065
▁ㅂㅏㄱㅊㅓㄹ	-12066
▁ㅂㅐㄱㄱㅡㅁ	-12067
▁ㅂㅜㄴㄹㅣㅂ	-12068
▁ㅇㅠㄴㅅㅏㅇ	-12069
▁ㅊㅣㅁㅊㅏㄱ	-12070
▁ㄷㅗㅇㅈㅏㄱㄱㅜ	-12071
▁ㅅㅐㅇㅁㅜㄹㅊㅔ	-12072
▁ㅁㅜㄴㅇㅣㄴㅅㅓㄱ	-12073
▁Em	-12074
▁401	-12075
▁ㄷㅐㄱ	-12076
ㄹㅜㄴㄷㅣ	-12077
▁ㄹㅏㄹㅍㅡ	-12078
▁ㄹㅗㄱㅅㅡ	-12079
▁ㅁㅏㄴㄴㅔ	-12080
▁ㅂㅗㄹㄱㅏ	-12081
▁ㅈㅏㅇㅁㅗ	-12082
▁ㅈㅓㄹㄱㅐ	-12083
▁ㅈㅜㅇㄹㅠ	-12084
▁ㅊㅏㄴㅅㅡ	-12085
ㄹㅡㄴㅅㅐㄱ	-12086
▁ㄱㅡㄴㅅㅣㅁ	-12087
▁ㅅㅣㄴㄱㅔㄴ	-12088
▁ㅈㅏㅇㅊㅜㅇ	-12089
▁ㅅㅣㄴㅅㅐㅇㅇㅏ	-12090
▁ㅇㅕㅇㅇㅕㄴㅂㅏㅇ	-12091
▁ㅇㅝㄴㄷㅗㅇㄹㅕㄱ	-12092
▁ㅍㅗㄱㅂㅏㄹㅁㅜㄹ	-12093
▁ㅎㅏㅁㅇㅏㄴㄱㅜㄴ	-12094
ㄱㅐㅇ	-12095
ㄹㅐㅅㅂㅜ	-12096
▁ㄱㅣㄴㄲㅗ	-12097
▁ㄱㅣㅁㅈㅘ	-12098
▁ㅂㅗㄴㄱㅏ	-12099
▁ㄱㅏㄴㅊㅓㅇ	-12100
▁ㅅㅓㅇㄱㅕㄹ	-12101
▁ㅇㅘㅇㅁㅏㅇ	-12102
▁ㅈㅏㅇㅂㅏㅇ	-12103
▁ㅎㅏㄴㅈㅣㄴ	-12104
▁ㅎㅕㄹㅇㅕㄴ	-12105
▁ㅎㅗㅇㅁㅕㅇ	-12106
ster	-12107
▁303	-12108
▁305	-12109
▁9000	-12110
ㄴㅏㅁㅅㅣ	-12111
▁ㄱㅏㄱㅅㅓ	-12112
▁ㄷㅏㅇㅂㅜ	-12113
ㄱㅓㄴㅊㅜㄱ	-12114
ㅎㅐㅇㅇㅝㄴ	-12115
▁ㅅㅗㅇㅈㅜㄴ	-12116
▁ㅇㅣㄴㅂㅏㅇ	-12117
▁ㅈㅏㅂㅇㅡㅁ	-12118
▁ㅎㅏㄴㄴㅜㄴ	-12119
▁ㅈㅓㄴㅇㅛㅇㄷㅗ	-12120
CO	-12121
▁244	-12122
▁Pre	-12123
▁Tim	-12124
▁1775	-12125
ㄹㅣㄴㅌㅗ	-12126
▁ㄴㅓㅁㄴㅏ	-12127
▁ㄷㅗㅇㅈㅜ	-12128
▁ㄹㅏㄹㄹㅣ	-12129
▁ㅅㅏㅇㅇㅏ	-12130
▁ㅇㅜㄹㄹㅏ	-12131
▁ㅈㅓㄴㅊㅣ	-12132
▁ㄷㅗㄹㅍㅜㅇ	-12133
▁ㄷㅗㅇㅊㅓㄴ	-12134
▁ㅇㅕㅇㅎㅡㅇ	-12135
▁ㅈㅜㅇㅊㅏㅇ	-12136
▁ㅇㅞㅁㅂㅡㄹㄹㅣ	-12137
▁ㅎㅏㅂㅈㅜㅇㄱㅜㄱ	-12138
▁TP	-12139
▁RFC	-12140
▁Who	-12141
▁ㅂㅗㅂ	-12142
▁ㅅㅛㄹ	-12143
ㅇㅜㄹㄱㅣ	-12144
▁ㅁㅏㄱㅂㅏ	-12145
▁ㅅㅏㅁㅁㅐ	-12146
▁ㅅㅏㅇㅂㅗ	-12147
▁ㅇㅐㅇㅁㅜ	-12148
▁ㅇㅡㅇㅁㅗ	-12149
ㅈㅗㄱㄱㅘㄴ	-12150
▁ㄱㅜㄹㄱㅗㄱ	-12151
▁ㄱㅣㅁㅇㅣㄱ	-12152
▁ㄱㅣㅁㅌㅐㄱ	-12153
▁ㅁㅕㅇㅅㅡㅇ	-12154
▁ㅈㅓㄴㄹㅠㄴ	-12155
GE	-12156
ME	-12157
ari	-12158
▁TF	-12159
▁di	-12160
▁1808	-12161
▁OECD	-12162
▁ㅂㅏㄴㅅㅣ	-12163
▁ㅂㅜㄹㅇㅢ	-12164
▁ㅅㅏㄴㄴㅗ	-12165
▁ㅅㅗㄴㅇㅗ	-12166
▁ㅇㅛㅇㄷㅜ	-12167
▁ㅇㅣㄴㅂㅓ	-12168
▁ㅈㅓㄴㅌㅐ	-12169
ㅁㅏㄴㄱㅏㅇ	-12170
▁ㄱㅡㅁㅍㅜㅁ	-12171
▁ㄱㅣㅁㅅㅜㄴ	-12172
▁ㄷㅏㄴㅍㅜㅇ	-12173
▁ㅇㅡㅁㄱㅏㄱ	-12174
▁ㅈㅓㅇㅅㅓㄱ	-12175
▁ㅍㅐㄴㅋㅡㄹㄹㅓㅂ	-12176
▁ㅎㅏㅇㄷㅡㅇㅅㅣㄱ	-12177
ㄲㅜㄹ	-12178
▁CNN	-12179
▁Tri	-12180
▁ㅁㅔㄱ	-12181
▁ㅍㅣㅂ	-12182
▁1392	-12183
ㄷㅓㄱㅅㅏ	-12184
▁ㄹㅐㄴㅅㅡ	-12185
▁ㅂㅏㄱㅎㅢ	-12186
▁ㅂㅗㅁㅂㅏ	-12187
▁ㅅㅏㄴㅅㅔ	-12188
▁ㅇㅝㄴㄱㅓ	-12189
▁ㅇㅡㄹㅁㅣ	-12190
▁ㅈㅗㅇㅈㅗ	-12191
▁ㅍㅏㄴㅁㅜ	-12192
▁ㄱㅕㅇㅈㅣㄱ	-12193
▁ㅁㅏㄴㄹㅕㄱ	-12194
▁ㅂㅏㄴㅇㅝㄹ	-12195
▁ㅇㅖㄹㅊㅣㄴ	-12196
▁ㅈㅏㅂㅈㅗㅇ	-12197
▁ㅈㅓㄴㄱㅏㄱ	-12198
▁ㅈㅓㄴㅂㅓㅂ	-12199
▁Records	-12200
▁ㅇㅠㄴㅅㅓㄴㄷㅗ	-12201
ATA	-12202
oud	-12203
ther	-12204
▁Dav	-12205
▁Und	-12206
▁1807	-12207
▁ㄱㅗㅇㅈㅔ	-12208
▁ㅂㅗㄹㄱㅓ	-12209
▁ㅇㅣㄴㅎㅘ	-12210
ㄱㅗㅂㄱㅡㄴ	-12211
▁ㄱㅏㅇㅁㅣㄴ	-12212
▁ㅁㅗㄱㅊㅜㄱ	-12213
▁ㅁㅜㄴㄱㅗㅇ	-12214
▁ㅁㅣㄴㅂㅕㅇ	-12215
▁ㅂㅗㄱㄱㅓㄴ	-12216
▁ㅅㅓㄱㅊㅜㄱ	-12217
▁Bu	-12218
▁LD	-12219
▁Ass	-12220
▁How	-12221
▁KAI	-12222
▁Mark	-12223
ㅂㅏㄹㅇㅠ	-12224
ㅂㅗㅇㄱㅜ	-12225
ㅅㅔㄹㄷㅗ	-12226
ㅎㅕㄴㄹㅣ	-12227
▁ㄱㅜㄴㄴㅐ	-12228
ㄹㅗㅁㅇㅞㄹ	-12229
ㅇㅣㅁㄱㅘㄴ	-12230
ㅈㅓㄱㅁㅜㄹ	-12231
▁ㅅㅓㄱㄱㅜㄹ	-12232
▁ㅇㅑㅇㄷㅏㅇ	-12233
▁ㅈㅏㅇㅂㅗㄴ	-12234
▁ㅈㅜㅇㄴㅕㄴ	-12235
ㅇㅔㄴㄴㅏㄹㄹㅔ	-12236
▁KF	-12237
▁253	-12238
▁321	-12239
▁999	-12240
▁ㄱㅘㄴㅇㅣㅂ	-12241
▁ㅁㅕㅇㄱㅗㄱ	-12242
▁ㅂㅏㄱㅁㅕㅇ	-12243
▁ㅂㅐㄱㅂㅓㅁ	-12244
▁ㅇㅕㅇㅊㅏㅇ	-12245
▁ㅂㅏㄹㅅㅏㅇㅈㅣ	-12246
▁ㅈㅜㅇㄱㅜㄱㅅㅣㄱ	-12247
▁ㅈㅜㅇㄹㅏㅇㅈㅏㅇ	-12248
ited	-12249
▁224	-12250
▁net	-12251
▁Real	-12252
ㅍㅔㄹㄹㅣ	-12253
▁ㄲㅓㅂㄷㅔ	-12254
▁ㄲㅡㅌㅁㅏ	-12255
▁ㄴㅏㄴㅂㅜ	-12256
▁ㄷㅏㅁㅇㅏ	-12257
▁ㅎㅘㅇㅁㅜ	-12258
▁ㄱㅕㄹㅈㅓㅁ	-12259
▁ㄱㅜㄴㅇㅕㄱ	-12260
▁ㄷㅏㄹㅇㅣㄴ	-12261
▁ㄷㅗㄹㄱㅝㄹ	-12262
▁ㅂㅕㅇㅈㅏㅇ	-12263
▁ㅅㅓㅇㅊㅏㄹ	-12264
▁ㅁㅗㅇㄱㅗㄹㅈㅗㄱ	-12265
▁IL	-12266
ring	-12267
▁Air	-12268
▁Fre	-12269
▁1834	-12270
▁Fire	-12271
ㅅㅔㄹㄹㅏ	-12272
▁Dance	-12273
▁ㄱㅕㅁㅂㅣ	-12274
▁ㄱㅜㅇㅇㅖ	-12275
▁ㄴㅏㄴㅂㅏ	-12276
▁ㅅㅐㄴㄷㅓ	-12277
ㄴㄷㅡㄹㄹㅓ	-12278
ㄷㅐㅅㄱㅏㅄ	-12279
▁ㄴㅏㅂㅂㅜㄱ	-12280
▁ㅅㅗㅇㅇㅕㅇ	-12281
ㄱㅓㄴㅂㅗㄱㅈㅣ	-12282
ㄹㅗㄹㄹㅣㅇㄱㅓ	-12283
▁ㅅㅏㅇㄹㅗㄱㅅㅜ	-12284
▁ㅅㅣㄹㅈㅗㅇㅈㅏ	-12285
▁ㅈㅜㅇㅇㅏㅇㄷㅏㅇ	-12286
▁ㅈㅣㅇㅇㅕㄱㅎㅕㅇ	-12287
▁MK	-12288
ㅅㅗㅅ	-12289
▁Hol	-12290
Force	-12291
ㄱㅓㄴㅈㅜ	-12292
ㅋㅗㄴㅌㅣ	-12293
▁20200	-12294
▁ㅅㅗㄱㄱㅣ	-12295
▁ㅈㅗㅇㅈㅣ	-12296
▁ㅊㅣㄴㄱㅛ	-12297
▁ㅌㅣㄹㄹㅣ	-12298
▁ㅍㅔㄹㄹㅏ	-12299
▁ㄱㅝㄴㅇㅕㅇ	-12300
▁ㅂㅏㅇㅁㅗㄱ	-12301
▁ㅇㅕㄱㄱㅏㄴ	-12302
▁ㅊㅜㅇㅈㅓㅇ	-12303
▁ㄱㅘㄴㄹㅏㅁㄱㅐㄱ	-12304
▁ㅅㅐㅇㅅㅏㄴㄹㅕㄱ	-12305
▁ㅎㅐㅇㅈㅣㄴㄱㅗㄱ	-12306
▁ㅎㅗㅇㅊㅓㄴㄱㅜㄴ	-12307
▁DE	-12308
▁263	-12309
▁940	-12310
▁Draw	-12311
ㄱㅏㄱㅅㅏ	-12312
▁ㅁㅏㄹㅂㅓ	-12313
▁ㅂㅜㄴㅌㅜ	-12314
▁ㅅㅣㄴㅅㅜ	-12315
▁ㅉㅏㄱㅅㅏ	-12316
▁ㅍㅗㄴㅌㅣ	-12317
▁ㅎㅗㅇㅈㅗ	-12318
▁ㅎㅘㅇㅈㅗ	-12319
ㅂㅓㄹㄹㅣㄴ	-12320
▁ㄴㅏㄴㅇㅣㅂ	-12321
▁ㅂㅗㅇㅅㅡㅇ	-12322
▁ㅎㅘㄹㄹㅕㄱ	-12323
▁ㄱㅜㄱㄱㅕㅇㅅㅓㄴ	-12324
atur	-12325
▁Cal	-12326
▁ㅅㅞㄹ	-12327
ㅅㅂㅣㅊ	-12328
▁1597	-12329
ㄴㅏㄹㄷㅜ	-12330
ㅌㅠㄴㅈㅡ	-12331
▁ㄱㅣㄹㄱㅏ	-12332
▁ㄲㅓㄲㅇㅣ	-12333
ㄹㅜㅅㅂㅏㅁ	-12334
ㅂㅜㄴㅂㅕㄹ	-12335
ㅅㅓㄴㅈㅗㄱ	-12336
ㅇㅡㅁㄱㅗㄱ	-12337
▁ㅅㅜㄴㅈㅓㄹ	-12338
▁ㅌㅏㄴㅌㅏㄴ	-12339
▁ㅍㅐㄴㄷㅓㅁ	-12340
▁ㅍㅜㅇㅅㅏㄴ	-12341
▁ㅅㅣㄴㅇㅏㅇㄱㅗ	-12342
▁ㅈㅓㅁㄹㅕㅇㅈㅣ	-12343
▁OG	-12344
ㅊㅣㅅ	-12345
▁UTC	-12346
▁imp	-12347
other	-12348
ㄷㅠㄹㄹㅓ	-12349
ㄹㅣㄴㅇㅏ	-12350
ㅌㅔㄹㄹㅣ	-12351
▁ㄷㅏㅇㄱㅜ	-12352
▁ㅂㅗㄹㄹㅔ	-12353
▁ㅈㅓㅇㅎㅖ	-12354
▁ㅈㅣㄴㅇㅔ	-12355
▁ㄱㅏㅇㅍㅏㄴ	-12356
▁ㄷㅟㅅㄴㅏㄹ	-12357
▁ㅁㅜㄲㅇㅡㅁ	-12358
▁ㅁㅜㄴㄹㅏㄴ	-12359
▁ㅂㅗㄹㄹㅣㅇ	-12360
▁ㅊㅣㅂㅅㅔㅅ	-12361
▁ㅌㅡㄱㅈㅣㄴ	-12362
▁ㅍㅕㄴㅍㅕㅇ	-12363
OCA	-12364
▁KM	-12365
▁245	-12366
▁Pol	-12367
▁org	-12368
ㄲㅡㄹㄹㅣ	-12369
▁ㄹㅏㄱㅅㅡ	-12370
▁ㅅㅏㅁㅇㅟ	-12371
▁ㅍㅜㅁㄹㅠ	-12372
ㄹㅏㅇㅋㅔㄴ	-12373
ㄹㅡㅁㅇㅓㅄ	-12374
ㅁㅜㄴㅇㅝㄴ	-12375
▁ㄴㅏㅁㅁㅏㄴ	-12376
▁ㅇㅕㄹㅈㅜㅇ	-12377
▁ㅈㅣㄴㅇㅘㅇ	-12378
▁ㄱㅗㅇㅇㅑㅇㅇㅘㅇ	-12379
ook	-12380
ㅉㅐㅆ	-12381
ㅌㅖㄴ	-12382
ated	-12383
ning	-12384
▁265	-12385
▁AEK	-12386
ㅁㅔㄹㄹㅗ	-12387
ㅈㅣㄴㄱㅏ	-12388
▁ㄱㅘㅇㄱㅛ	-12389
▁ㅇㅣㅂㅎㅚ	-12390
▁ㅈㅏㅇㅎㅘ	-12391
▁ㅊㅗㅇㅍㅏ	-12392
▁ㅎㅐㅇㅊㅏ	-12393
▁ㅇㅘㄴㅅㅓㅇㄷㅗ	-12394
bs	-12395
zy	-12396
▁530	-12397
▁ㅉㅣㅁ	-12398
ㄴㅐㅂㅅㅡ	-12399
▁ㄱㅕㄹㅂㅜ	-12400
▁ㄴㅏㅁㅈㅣㄴ	-12401
▁ㅁㅣㄴㅊㅓㅂ	-12402
▁ㅈㅓㄴㄹㅕㅇ	-12403
▁ㅍㅜㄹㅂㅏㅌ	-12404
▁ㅎㅐㅅㅂㅕㅌ	-12405
▁ㅎㅗㅇㅂㅐㄱㄱㅏ	-12406
ㅇㅑㄱㅅㅓㅇㄱㅕㅇ	-12407
▁ㄱㅗㅇㄱㅕㄱㄹㅕㄱ	-12408
▁;"	-12409
▁PV	-12410
▁Si	-12411
▁540	-12412
▁Vis	-12413
ㄴㅏㄴㅎㅣ	-12414
ㄴㅣㅇㄱㅜ	-12415
ㅈㅓㅇㅎㅢ	-12416
▁ㅁㅜㄴㄹㅣ	-12417
▁ㅇㅐㄴㅌㅡ	-12418
▁ㅈㅏㅇㄷㅗ	-12419
▁ㅋㅓㄴㅂㅓ	-12420
▁ㄱㅏㅇㅂㅏㄱ	-12421
▁ㅇㅟㅁㅂㅡㄹ	-12422
▁ㅈㅣㄴㅂㅓㅂ	-12423
▁ㅊㅏㄴㅅㅗㅇ	-12424
▁ㅈㅓㄴㅇㅣㅁㅈㅏ	-12425
▁ㄷㅏㄴㅇㅑㅇㄱㅜㄴ	-12426
▁ㅇㅡㅁㅇㅏㄱㅅㅏㅇ	-12427
lt	-12428
mas	-12429
ㅆㄷㅏ	-12430
ㅋㅟㄴ	-12431
ㄹㅜㅁㅍㅜ	-12432
ㅌㅐㄴㄷㅓ	-12433
▁ㅅㅏㄴㅎㅜ	-12434
▁ㅇㅗㄴㄱㅔ	-12435
ㅅㅏㄴㅎㅏㅇ	-12436
ㅇㅣㅁㄴㅔㅅ	-12437
▁ㅂㅏㄹㅁㅜㄴ	-12438
▁ㅇㅑㅇㅌㅓㄹ	-12439
▁ㅇㅡㅇㅊㅜㄱ	-12440
▁ㅇㅣㅂㅅㅓㄱ	-12441
▁ㅍㅐㄴㅌㅓㅁ	-12442
ㄷㅐㅇ	-12443
▁ㄲㅜㅀ	-12444
▁ㅁㅔㅇ	-12445
▁AIDS	-12446
ㄹㅓㅂㅌㅡ	-12447
ㄹㅔㄴㅌㅣ	-12448
ㅁㅗㄱㄱㅜ	-12449
ㅈㅏㅇㅇㅣ	-12450
ㅌㅔㅁㅂㅔ	-12451
▁ㄱㅣㅁㅎㅘ	-12452
▁ㅈㅣㄴㅈㅓ	-12453
▁ㅈㅣㅂㅅㅣ	-12454
▁ㅋㅓㄹㄹㅣ	-12455
▁ㅍㅜㅇㅎㅘ	-12456
ㅈㅏㅇㄹㅑㅇ	-12457
▁ㅅㅓㅇㅇㅕㄱ	-12458
▁ㅅㅗㄱㅂㅏㄱ	-12459
▁ㅅㅣㄱㄷㅏㄴ	-12460
▁ㅈㅜㅇㄱㅕㅇ	-12461
▁ㅈㅜㅇㄱㅜㄴ	-12462
▁ㅌㅡㄹㄹㅣㅁ	-12463
▁ㅍㅜㄹㄹㅓㅁ	-12464
▁ㅎㅏㄱㄱㅘㄴ	-12465
▁ㄱㅘㄴㄱㅗㅇㅅㅓ	-12466
▁ㅂㅗㄱㅅㅜㅇㅇㅏ	-12467
▁ㅇㅟㅁㅂㅡㄹㄷㅓㄴ	-12468
▁Ig	-12469
▁311	-12470
▁Mer	-12471
▁def	-12472
▁ㅅㅖㅇ	-12473
▁City	-12474
ㅋㅓㅁㅍㅠ	-12475
▁ㅂㅕㅇㅂㅜ	-12476
▁ㅇㅏㄴㅅㅗ	-12477
▁ㅇㅑㄱㅇㅓ	-12478
▁ㅇㅔㄴㅅㅣ	-12479
▁ㅇㅝㄴㅎㅗ	-12480
▁ㅇㅝㄹㄱㅖ	-12481
▁ㅎㅡㄱㅈㅏ	-12482
▁ㄷㅡㄹㅍㅏㄴ	-12483
▁ㄸㅏㄱㅈㅓㅇ	-12484
▁ㅁㅜㄴㅎㅏㅇ	-12485
▁ㅇㅑㅇㄱㅏㄱ	-12486
▁ㅈㅓㄴㅇㅕㅇ	-12487
▁ㅈㅣㄴㄴㅏㅁ	-12488
▁ㅍㅏㄴㄷㅗㄱ	-12489
▁ㄴㅜㄴㄷㅗㅇㅈㅏ	-12490
▁ㅂㅏㄱㅇㅝㄴㅅㅜㄴ	-12491
▁ㅈㅓㅇㅇㅑㄱㅇㅛㅇ	-12492
▁ㅇㅕㄹㄹㅣㄴㅈㅣㅂㅎㅏㅂ	-12493
▁ㅎㅐㅇㅂㅏㅇㅂㅜㄹㅁㅕㅇ	-12494
AV	-12495
▁HR	-12496
ㅂㅏㄲ	-12497
ield	-12498
▁left	-12499
ㅁㅔㄴㅌㅗ	-12500
ㅅㅡㅇㅎㅢ	-12501
ㅍㅣㄴㅅㅡ	-12502
▁ㄱㅣㅁㅁㅣ	-12503
▁ㄴㅣㅅㅋㅗ	-12504
▁ㄷㅓㅇㅊㅣ	-12505
▁ㅂㅏㄴㅌㅜ	-12506
▁ㅌㅡㄱㅂㅗ	-12507
▁ㅁㅣㄴㅅㅐㅇ	-12508
▁ㅅㅣㄱㅇㅡㅂ	-12509
▁ㅅㅣㄹㄹㅣㅇ	-12510
▁ㅈㅓㅇㅇㅕㄴ	-12511
▁ㅎㅔㄹㅁㅔㅅ	-12512
▁ㄷㅗㅇㅇㅕㄱㅎㅏㄱ	-12513
▁BJ	-12514
ㄴㅔㅁ	-12515
▁386	-12516
▁Now	-12517
▁mod	-12518
▁ㅅㅔㅂ	-12519
▁Jour	-12520
ㅍㅔㄹㄹㅏ	-12521
ㅍㅜㄹㄹㅣ	-12522
▁Again	-12523
▁ㅁㅕㄴㅎㅘ	-12524
▁ㅅㅏㄴㅊㅗ	-12525
▁ㅅㅏㅇㅅㅙ	-12526
▁ㅅㅑㄹㄹㅗ	-12527
▁ㅅㅡㄹㄹㅐ	-12528
▁ㅇㅗㄱㄱㅗ	-12529
▁ㅇㅠㄱㅅㅏ	-12530
▁ㅋㅣㅂㅊㅏ	-12531
ㅂㅕㅇㅊㅓㄹ	-12532
ㅈㅗㄴㅅㅣㅁ	-12533
▁ㄱㅕㄱㄷㅗㄹ	-12534
▁ㅈㅓㄱㅎㅕㄹ	-12535
▁ㅇㅕㄴㄲㅗㅊㅁㅜ	-12536
▁ㅅㅓㄹㄷㅡㄱㄹㅕㄱ	-12537
▁ㅈㅓㅇㅅㅓㄴㄱㅜㄴ	-12538
▁ㅊㅣㄹㄱㅗㄱㄱㅜㄴ	-12539
any	-12540
▁out	-12541
▁ㅈㅜㅂ	-12542
▁2600	-12543
ㄱㅗㅇㅍㅗ	-12544
▁ㄱㅘㄴㅂㅜ	-12545
▁ㅂㅜㄹㅎㅓ	-12546
▁ㅅㅔㄱㅅㅣ	-12547
▁ㅅㅡㅇㅎㅘ	-12548
▁ㅊㅓㄹㅅㅐ	-12549
ㅅㅓㄱㅂㅏㅇ	-12550
▁ㅇㅑㅇㅇㅘㅇ	-12551
▁ㅈㅓㄴㅇㅓㅂ	-12552
▁ㅈㅣㄴㅍㅕㅇ	-12553
▁ㄷㅗㅇㅇㅣㄴㅈㅣ	-12554
▁ㅌㅗㅇㅎㅐㅇㄹㅛ	-12555
▁ㅅㅏㄴㅊㅓㅇㄱㅜㄴ	-12556
▁ㅌㅓㅁ	-12557
ㅅㅓㅇㅂㅜ	-12558
▁ㄱㅏㄹㄱㅗ	-12559
▁ㄱㅏㄹㄷㅐ	-12560
▁ㄷㅗㅇㄹㅣ	-12561
▁ㄹㅓㄴㅌㅏ	-12562
▁ㅂㅣㅅㄷㅐ	-12563
▁ㅅㅜㄴㅎㅘ	-12564
▁ㅇㅣㅇㅇㅓ	-12565
▁ㅈㅏㅇㅈㅜ	-12566
▁ㅈㅣㄴㅁㅜ	-12567
▁ㅈㅣㄹㅇㅢ	-12568
ㅌㅗㅇㄱㅏㅁ	-12569
▁ㄱㅏㅇㅌㅏㄹ	-12570
▁ㅂㅗㅇㅊㅓㄴ	-12571
▁ㅅㅓㅇㅅㅣㅁ	-12572
▁ㅇㅡㄴㅊㅗㅇ	-12573
▁ㅇㅡㅇㅈㅣㅂ	-12574
▁ㅂㅐㄹㄹㅓㄴㅅㅡ	-12575
gy	-12576
▁UD	-12577
ㄴㅓㄱ	-12578
ㄸㅗㅇ	-12579
▁Home	-12580
ㄱㅏㄴㅍㅛ	-12581
ㄱㅗㅁㅈㅏ	-12582
▁ㄷㅓㅇㅅㅑ	-12583
▁ㅂㅏㄹㅂㅜ	-12584
▁ㅂㅓㅂㄷㅐ	-12585
▁ㅂㅜㄴㄱㅜ	-12586
▁ㅇㅏㄴㅅㅏ	-12587
▁ㅇㅣㅁㅊㅏ	-12588
▁ㅈㅣㄱㄱㅜ	-12589
▁ㅈㅣㄴㅈㅏ	-12590
▁ㅍㅜㅇㅁㅣ	-12591
▁ㅍㅣㄹㅈㅡ	-12592
ㅇㅓㅁㄹㅕㅇ	-12593
▁ㄱㅏㄴㅌㅐㄱ	-12594
▁ㄷㅏㄴㅅㅓㅇ	-12595
▁ㅂㅏㄱㅇㅡㄴ	-12596
▁ㅂㅏㄱㅎㅕㄴ	-12597
▁ㅇㅔㄹㄹㅏㅁ	-12598
▁ㅇㅣㄹㅅㅣㄴ	-12599
▁ㅈㅜㅇㅎㅏㄱ	-12600
▁ㅊㅐㄱㅅㅏㅇ	-12601
▁ㅋㅐㅂㅋㅗㅁ	-12602
▁ㅌㅏㄹㅇㅗㄱ	-12603
▁ㅁㅕㅇㅁㅗㄱㅅㅏㅇ	-12604
▁ㅊㅜㄹㅂㅏㄹㅈㅓㅁ	-12605
▁ㄸㅏㄱㅈㅓㅇㅂㅓㄹㄹㅔ	-12606
▁gr	-12607
▁ㅉㅓ	-12608
ㄹㄷㅡ	-12609
work	-12610
▁ㅈㅏㅅ	-12611
▁1833	-12612
▁ㅇㅝㄴㅍㅣ	-12613
▁ㅋㅏㄴㄴㅏ	-12614
ㄷㅗㅇㅎㅏㄴ	-12615
▁ㄷㅏㅇㅅㅏㄴ	-12616
▁ㅁㅏㄹㄱㅏㄹ	-12617
▁ㅈㅗㅇㅇㅛㅇ	-12618
▁ㅎㅓㄴㅌㅣㅇ	-12619
▁ㄱㅗㅇㅎㅏㄱㅂㅜ	-12620
▁ㅇㅕㅇㅊㅓㄴㅅㅣ	-12621
▁NO	-12622
▁Ber	-12623
▁1787	-12624
ㄱㅏㄴㄷㅡ	-12625
ㄷㅔㄴㅇㅓ	-12626
▁ㄲㅗㅊㄱㅏ	-12627
▁ㅂㅕㄴㅌㅐ	-12628
▁ㅊㅐㄱㅈㅏ	-12629
▁ㅍㅓㄴㅈㅏ	-12630
▁ㅎㅐㅇㅋㅡ	-12631
ㅈㅣㄴㄷㅗㅇ	-12632
ㅎㅚㄱㅇㅏㄴ	-12633
▁ㄷㅏㄴㄹㅏㄱ	-12634
▁ㅅㅓㅇㅎㅗㄴ	-12635
▁ㅅㅗㄱㅁㅕㅇ	-12636
▁ㅂㅏㄱㅈㅜㅇㅇㅑㅇ	-12637
▁ㅈㅓㄱㄱㅏㄹㅅㅐㄱ	-12638
▁ㅈㅣㄴㅇㅏㄴㄱㅜㄴ	-12639
▁AW	-12640
▁OH	-12641
▁Sn	-12642
▁680	-12643
▁Fri	-12644
▁Fun	-12645
▁ㅈㅟㄹ	-12646
▁1816	-12647
▁1818	-12648
ㅈㅓㄹㅈㅔ	-12649
ㅌㅣㄹㄷㅏ	-12650
▁ㅎㅐㅇㅌㅐ	-12651
ㅈㅣㄴㄹㅕㄱ	-12652
ㅌㅡㄷㄴㅏㄹ	-12653
▁ㅂㅜㄹㅂㅏㄹ	-12654
▁ㅂㅣㅇㅍㅏㄴ	-12655
▁ㅊㅗㅇㅁㅕㅇ	-12656
▁ㅍㅜㅇㄹㅕㄱ	-12657
▁ㅎㅏㄴㅅㅏㅇ	-12658
▁ㅎㅏㅇㅂㅓㅂ	-12659
▁ㅇㅝㄴㅈㅏㄱㅈㅏ	-12660
▁ㅊㅓㅇㄹㅑㅇㄹㅣ	-12661
yp	-12662
lin	-12663
▁Ver	-12664
▁ㄴㅜㅁ	-12665
▁ㅃㅗㅇ	-12666
ㅅㅔㄴㅌㅣ	-12667
ㅇㅝㄹㅈㅜ	-12668
▁ㄱㅏㅇㅌㅐ	-12669
▁ㅂㅕㄴㅈㅔ	-12670
▁ㅈㅓㄴㅊㅗ	-12671
▁ㄱㅏㅁㅎㅕㅇ	-12672
▁ㄱㅡㅂㅅㅣㄱ	-12673
▁ㄴㅜㄴㅇㅏㅍ	-12674
▁ㅇㅣㄴㅇㅘㅇ	-12675
▁ㅍㅜㅇㅅㅓㄴ	-12676
inc	-12677
ㄹㅡㅂㅆㅡ	-12678
▁Techn	-12679
▁ㄱㅏㄱㅎㅏ	-12680
▁ㅉㅣㅈㅇㅓ	-12681
ㅇㅕㄴㅅㅓㄱ	-12682
▁ㄷㅏㄹㅂㅣㅊ	-12683
▁ㅅㅓㅇㅇㅏㄴ	-12684
▁ㅇㅑㅇㅁㅕㅇ	-12685
▁ㅇㅝㄴㄱㅘㅇ	-12686
▁ㅈㅓㅇㅇㅕㄹ	-12687
MC	-12688
ek	-12689
vil	-12690
▁Wr	-12691
itch	-12692
ling	-12693
▁560	-12694
▁Die	-12695
ouble	-12696
ㄱㅏㅇㄷㅗ	-12697
▁ㄱㅜㄹㄸㅜㄱ	-12698
▁ㅎㅏㄴㅎㅏㄱ	-12699
▁ㅅㅓㅇㅎㅐㅇㅇㅟ	-12700
▁ㅈㅜㅇㅇㅏㅇㅇㅠ	-12701
apan	-12702
ress	-12703
▁ㅎㅣㅇ	-12704
ㅁㅐㄴㄷㅡ	-12705
▁ㅍㅏㄴㅎㅘ	-12706
▁ㅎㅣㄱㅅㅡ	-12707
ㄷㅗㄱㅅㅓㅇ	-12708
ㅍㅗㄹㄹㅗㄴ	-12709
ㅎㅐㅇㄹㅕㅇ	-12710
▁ㅂㅏㅇㅈㅣㄴ	-12711
▁ㅂㅕㅇㅊㅏㅁ	-12712
▁ㅂㅣㄹㄹㅓㅁ	-12713
▁ㄱㅡㄱㄹㅏㄱㅈㅓㄴ	-12714
▁ㄱㅣㅁㅇㅝㄴㅂㅗㅇ	-12715
▁ㅇㅡㅁㅇㅜㄴㄹㅗㄴ	-12716
▁ㅈㅓㄴㅎㅘㄴㅈㅓㅁ	-12717
▁ㅍㅕㅇㅇㅑㅇㅅㅓㅇ	-12718
▁262	-12719
▁MLS	-12720
ㅊㅜㅇㅅㅏ	-12721
▁ㄴㅣㄹㅅㅡ	-12722
▁ㅅㅏㄴㄱㅐ	-12723
ㅇㅘㅇㅅㅓㅇ	-12724
▁ㄱㅣㅁㄴㅏㅁ	-12725
▁ㅁㅕㅇㅈㅏㄱ	-12726
▁ㅂㅏㄴㄴㅕㄴ	-12727
▁ㅇㅣㅂㅂㅏㅇ	-12728
▁ㅊㅓㄹㄱㅏㅂ	-12729
▁ㅊㅣㄴㄱㅡㄴ	-12730
▁ㅋㅡㄹㄹㅐㄴ	-12731
▁ㅍㅐㄹㅋㅓㄴ	-12732
▁ㄱㅘㅇㅅㅏㄴㄱㅜ	-12733
▁ㄱㅕㅇㄷㅓㄱㅇㅘㅇ	-12734
▁ㅂㅜㄹㅁㅕㅇㅎㅘㄱ	-12735
▁Hz	-12736
▁Nt	-12737
ㄷㅓㅍ	-12738
ㅋㅏㅁ	-12739
▁333	-12740
ㅇㅏㄴㄷㅔ	-12741
ㅇㅜㄴㅅㅏ	-12742
ㅇㅣㄴㅎㅏ	-12743
ㅈㅓㄱㅇㅡ	-12744
ㅌㅐㄴㄷㅏ	-12745
▁ㅈㅣㅂㄱㅔ	-12746
▁ㅎㅏㅂㅅㅔ	-12747
ㅅㅓㅇㅇㅣㄴ	-12748
ㅈㅓㄴㅊㅜㄱ	-12749
▁ㄱㅏㄴㄱㅡㄱ	-12750
▁ㄱㅕㅇㅇㅘㅇ	-12751
▁ㄴㅜㄴㄱㅣㄹ	-12752
▁ㅅㅕㄹㄹㅗㄱ	-12753
▁ㅅㅡㅂㅈㅏㄱ	-12754
▁ㅈㅏㅇㄱㅗㅇ	-12755
▁ㅈㅏㅇㄷㅗㅇ	-12756
▁ㅁㅗㅇㄱㅗㄹㅇㅓ	-12757
▁ㅁㅜㄴㅎㅏㄱㅂㅜ	-12758
ㅌㅗㅇㄹㅕㅇㄹㅕㅇ	-12759
▁ㅇㅕㅇㄱㅘㅇㄱㅜㄴ	-12760
ㅍㅣㅅ	-12761
reet	-12762
▁Soc	-12763
▁Enter	-12764
▁Group	-12765
▁ㄱㅡㄹㅆㅡ	-12766
▁ㅁㅜㄴㅇㅢ	-12767
▁ㅂㅓㅂㅅㅏ	-12768
▁ㄴㅏㄱㅇㅝㄴ	-12769
▁ㅂㅏㅇㅈㅣㄱ	-12770
▁ㅂㅕㅇㄷㅡㄹ	-12771
▁ㅂㅣㅇㅅㅏㅇ	-12772
▁ㅅㅣㅁㅂㅗㄱ	-12773
▁ㅇㅕㄱㅇㅣㄴ	-12774
▁ㅇㅣㅁㅂㅏㄱ	-12775
▁ㅍㅕㅇㅇㅗㄴ	-12776
▁ㄱㅜㄱㅁㅣㄴㄷㅐ	-12777
▁ㅎㅏㄱㅅㅜㄹㅇㅝㄴ	-12778
▁fe	-12779
▁ㄱㅝ	-12780
ㅂㅌㅣ	-12781
▁Swe	-12782
▁ㅃㅓㄹ	-12783
ㅕㄹㄹㅔ	-12784
▁Moon	-12785
ㄷㅏㄱㅊㅣ	-12786
ㅂㅏㄹㄷㅣ	-12787
▁ㄷㅏㄴㄷㅏ	-12788
▁ㄷㅗㅇㄱㅡ	-12789
▁ㅁㅐㄱㄹㅏ	-12790
▁ㅂㅏㅇㅍㅏ	-12791
▁ㅅㅣㅁㄷㅗ	-12792
▁ㅇㅛㅇㅁㅗ	-12793
▁ㅈㅓㅁㅈㅏ	-12794
▁ㅎㅏㄱㅁㅜ	-12795
▁ㄴㅜㄴㅆㅓㅂ	-12796
▁ㅁㅏㄹㅇㅕㅂ	-12797
▁ㅂㅐㄱㄹㅕㄴ	-12798
▁ㅅㅏㅇㅈㅓㄴ	-12799
▁ㅎㅏㄱㅅㅣㄱ	-12800
▁ㅅㅓㅇㅈㅏㅇㄹㅠㄹ	-12801
▁ㅅㅣㄴㄱㅕㅇㅁㅏㅇ	-12802
ㅌㅐㅂ	-12803
▁Cre	-12804
▁PSP	-12805
▁ㅆㅣㅂ	-12806
▁Team	-12807
ㄱㅕㄹㅅㅏ	-12808
ㄷㅔㄹㅂㅔ	-12809
ㅅㅏㅇㅂㅜ	-12810
▁ㄱㅣㅁㅅㅏ	-12811
▁ㅁㅗㅇㅋㅣ	-12812
▁ㅂㅏㄹㅊㅏ	-12813
▁ㅇㅕㅇㄱㅏ	-12814
▁ㅇㅝㄴㄹㅠ	-12815
ㄱㅘㄴㅊㅏㄹ	-12816
ㅂㅜㄴㅂㅓㅂ	-12817
▁ㄱㅡㅁㅈㅓㅇ	-12818
▁ㅂㅐㄱㅎㅏㅂ	-12819
▁ㅂㅗㄴㅈㅓㄱ	-12820
▁ㅇㅣㅁㅇㅕㅇ	-12821
▁ㅎㅐㅇㄱㅏㄱ	-12822
▁ㄱㅏㄴㄷㅏㅁㅎㅚ	-12823
▁ㄱㅘㅇㅇㅑㅇㅅㅣ	-12824
▁ㅈㅣㄱㅅㅓㄴㅈㅔ	-12825
▁ㅎㅘㅇㄱㅡㅁㄱㅣ	-12826
▁ㅂㅓㅂㅅㅏㅇㅈㅗㅇ	-12827
▁ㅇㅔㅁㅂㅡㄹㄹㅓㅁ	-12828
ㄴㅜㅅ	-12829
▁SAR	-12830
▁ㄴㅔㅂ	-12831
ㄱㅏㄴㄱㅗ	-12832
ㅌㅓㄹㄹㅜ	-12833
▁ㄱㅕㅇㅋㅙ	-12834
▁ㄴㅏㄴㅎㅐ	-12835
▁ㅂㅗㄹㅅㅡ	-12836
▁ㅅㅣㄱㅅㅜ	-12837
▁ㅇㅓㅁㅎㅗ	-12838
▁ㅎㅏㄴㅇㅜ	-12839
ㄹㅗㄱㅁㅜㄹ	-12840
ㅈㅏㄱㅈㅓㅁ	-12841
ㅈㅜㅇㅇㅏㅇ	-12842
▁ㄱㅐㅅㅂㅓㄹ	-12843
▁ㅁㅏㄱㅁㅏㄹ	-12844
▁ㅂㅣㄴㅎㅕㄹ	-12845
▁ㅇㅠㄱㅇㅏㄴ	-12846
▁ㅈㅣㄴㅅㅏㄴ	-12847
▁ㅌㅗㅇㅎㅏㄱ	-12848
▁ㅍㅕㅇㄷㅏㄴ	-12849
▁ㅎㅡㄱㅇㅕㄴ	-12850
▁ㅎㅡㅇㄱㅜㄱ	-12851
ㅝㅇ	-12852
▁VL	-12853
ㅈㅓㅅ	-12854
▁313	-12855
▁ㄱㅡㄺ	-12856
▁1780	-12857
▁poem	-12858
ㄹㅣㅁㄹㅣ	-12859
▁First	-12860
▁Stage	-12861
▁ㅁㅗㅇㄱㅜ	-12862
▁ㅇㅝㄴㅊㅗ	-12863
▁ㅈㅣㅂㅁㅜ	-12864
▁ㅍㅗㄹㄷㅡ	-12865
▁ㅅㅣㄴㅊㅜㄴ	-12866
▁ㅇㅛㅇㄷㅏㅁ	-12867
▁ㅇㅝㄴㄱㅕㅇ	-12868
▁ㅈㅓㅇㅇㅐㄱ	-12869
▁ㅊㅓㄴㅅㅓㅇ	-12870
▁ㄱㅕㄹㄹㅗㄴㅈㅣ	-12871
▁ㅎㅜㄴㄹㅕㄴㅈㅏㅇ	-12872
▁ㅎㅏㄴㄱㅜㄱㅈㅓㄴㄹㅕㄱ	-12873
ㄸㅗㄱ	-12874
ival	-12875
▁1763	-12876
▁1817	-12877
▁SEED	-12878
▁ㅁㅐㅇㅈㅏ	-12879
▁ㅂㅓㄴㄱㅏ	-12880
▁ㅅㅣㄹㅁㅏ	-12881
▁ㅇㅑㅇㅌㅐ	-12882
▁ㅇㅕㄴㅈㅔ	-12883
▁ㅇㅝㄴㅇㅓ	-12884
▁ㅎㅗㄴㅅㅜ	-12885
ㄹㅠㄱㄱㅜㄴ	-12886
▁ㄱㅕㄱㅂㅜㄴ	-12887
▁ㅇㅜㄴㅁㅜㄴ	-12888
▁ㅈㅓㄴㅍㅕㄴ	-12889
▁ㅈㅘㅇㅈㅗㄱ	-12890
▁ㅎㅏㄴㅇㅣㄹ	-12891
▁ㅎㅏㅇㄷㅡㅇ	-12892
▁ㅎㅘㄴㄱㅏㄱ	-12893
▁ㄱㅏㅇㄱㅕㅇㅍㅏ	-12894
▁ㅇㅘㄴㅂㅕㄱㅎㅣ	-12895
▁ㄷㅏㅇㅂㅜㄴㄱㅏㄴ	-12896
PG	-12897
ㅃㅣ	-12898
ope	-12899
▁Sil	-12900
▁ㅉㅜㄱ	-12901
▁1453	-12902
▁1778	-12903
ㄸㅏㅇㅎㅣ	-12904
ㅂㅏㄴㅅㅡ	-12905
ㅂㅕㄴㅅㅏ	-12906
ㅊㅗㅇㅈㅐ	-12907
▁ㄹㅏㅁㄷㅏ	-12908
▁ㅁㅣㅌㅂㅏ	-12909
▁ㅇㅝㄴㄱㅜ	-12910
▁ㅍㅕㄴㄷㅐ	-12911
▁ㅎㅘㄴㅎㅗ	-12912
ㄱㅗㅇㄱㅕㄱ	-12913
ㄹㅛㅇㅅㅏㄴ	-12914
ㅈㅏㄱㄴㅗㅇ	-12915
▁ㄷㅗㅇㄱㅜㅇ	-12916
▁ㅂㅏㄴㅅㅗㅇ	-12917
▁ㅇㅕㅂㄹㅗㄱ	-12918
▁ㅈㅓㅇㅁㅗㅇ	-12919
▁ㅈㅗㅇㅂㅕㄹ	-12920
ㅇㅕㅁㅂㅏㄱㅈㅟ	-12921
▁ㄱㅘㄴㅂㅏㄱㅈㅟ	-12922
▁ㅈㅜㅇㄱㅕㄴㅅㅜ	-12923
▁ㅂㅜㄹㅇㅏㄴㄱㅏㅁ	-12924
▁ㅅㅓㄴㅇㅣㄴㅈㅏㅇ	-12925
ino	-12926
oom	-12927
▁ㄷㅚㄴ	-12928
▁ㅌㅜㄱ	-12929
ㄹㅔㄴㅂㅜ	-12930
ㅊㅔㄹㄹㅣ	-12931
▁Album	-12932
▁ㄱㅗㄱㅅㅏ	-12933
▁ㅅㅓㅁㄴㅔ	-12934
▁ㅇㅕㄹㄴㅕ	-12935
▁ㅈㅗㅇㅇㅟ	-12936
▁ㅋㅗㅂㅌㅡ	-12937
▁ㅌㅓㅇㅅㅡ	-12938
▁ㅎㅚㅇㅍㅗ	-12939
ㅂㅏㅇㄱㅘㅇ	-12940
ㅅㅣㄴㅎㅕㅇ	-12941
ㅇㅣㄹㅈㅓㅁ	-12942
▁ㄱㅓㅁㅇㅕㄱ	-12943
▁ㄱㅜㄱㄱㅝㄴ	-12944
▁ㄴㅜㄴㄱㅡㅁ	-12945
▁ㄷㅗㄱㅎㅏㄱ	-12946
▁ㅅㅣㄴㅅㅣㄱ	-12947
▁ㅇㅣㄴㅁㅗㄱ	-12948
▁ㅈㅣㄴㄷㅏㄹ	-12949
▁ㄱㅡㅁㅈㅓㅇㄱㅜ	-12950
▁ㅂㅏㅇㅌㅏㄴㅅㅗ	-12951
ves	-12952
▁ed	-12953
ㄲㅘㅇ	-12954
ican	-12955
▁Dig	-12956
▁ㄲㅘㄱ	-12957
▁1825	-12958
▁Happ	-12959
▁ㅅㅣㄹㄹㅔ	-12960
▁ㅍㅓㅁㅇㅞ	-12961
ㅅㅏㅇㄱㅡㅂ	-12962
▁ㅅㅓㅇㄱㅜㄴ	-12963
▁ㅅㅣㅁㄱㅕㅇ	-12964
▁ㅈㅡㄱㅅㅓㄱ	-12965
▁ㅊㅓㄴㅇㅓㄱ	-12966
▁ㅋㅏㄹㄴㅏㄹ	-12967
▁ㅇㅡㅇㅇㅝㄴㄱㅏ	-12968
▁ㅈㅣㅂㅈㅓㄱㅎㅚ	-12969
▁ㅂㅐㄱㅎㅕㄹㅂㅕㅇ	-12970
ze	-12971
▁ㅎㅗㅌ	-12972
▁2024	-12973
▁part	-12974
ㄱㅓㄴㅅㅡ	-12975
ㄴㅑㅇㄱㅐ	-12976
ㅈㅓㄴㅅㅓ	-12977
ㅊㅏㄹㅅㅏ	-12978
▁ㄱㅗㅇㅇㅟ	-12979
▁ㄱㅣㄹㄹㅣ	-12980
▁ㅁㅣㄴㅋㅗ	-12981
▁ㅅㅓㅇㄴㅏ	-12982
▁ㅅㅗㅇㅅㅜ	-12983
ㅅㅓㅇㅂㅜㄴ	-12984
▁Little	-12985
▁ㄱㅗㄱㅅㅓㅇ	-12986
▁ㄱㅘㄴㄹㅣㅂ	-12987
▁ㅂㅓㅁㅈㅗㅇ	-12988
▁ㅅㅏㅇㅎㅏㄱ	-12989
▁ㅅㅗㄱㄱㅗㄱ	-12990
▁ㅇㅜㄹㅊㅏㅇ	-12991
▁ㅈㅓㄴㄷㅡㅇ	-12992
▁ㅋㅡㄹㄹㅐㅂ	-12993
▁ㅍㅕㄴㄱㅘㅇ	-12994
▁ㅁㅜㄹㅂㅕㅇㅈㅏ	-12995
▁ㅅㅓㅇㅈㅏㅇㄱㅣ	-12996
▁ㅇㅑㅇㅅㅓㅇㅅㅗ	-12997
▁ㅈㅓㄱㅎㅕㄹㄱㅜ	-12998
RA	-12999
ha	-13000
▁229	-13001
▁323	-13002
▁Pet	-13003
▁1593	-13004
ㄱㅏㄱㄱㅣ	-13005
ㄷㅓㅍㅇㅣ	-13006
ㄷㅗㄴㄴㅏ	-13007
ㄹㅓㄴㄷㅡ	-13008
▁ㄱㅜㄴㅇㅢ	-13009
▁ㄴㅏㅂㅅㅔ	-13010
▁ㅂㅗㅇㅌㅗ	-13011
▁ㅇㅑㅇㅎㅘ	-13012
ㅇㅛㅇㄱㅜㄴ	-13013
ㅇㅜㄹㅇㅕㄱ	-13014
▁ㄴㅗㄱㅎㅜㄴ	-13015
▁ㅂㅏㄱㅅㅜㄴ	-13016
▁ㅇㅣㅁㅅㅓㅇ	-13017
▁ㅎㅗㅇㅈㅜㄴ	-13018
▁ㅅㅣㄴㄱㅏㄴㅎㅚ	-13019
▁ㅅㅐㅇㅅㅏㄴㅁㅜㄹ	-13020
yc	-13021
yr	-13022
ely	-13023
ike	-13024
▁TCP	-13025
▁var	-13026
ㄱㅜㄴㅈㅜ	-13027
ㅋㅝㄴㅅㅡ	-13028
▁ㅇㅑㅇㄱㅣ	-13029
▁ㅌㅗㅇㅅㅜ	-13030
ㅅㅓㅇㅈㅏㅇ	-13031
▁ㅅㅓㄴㅈㅓㄱ	-13032
▁ㅇㅑㅇㄱㅘㅇ	-13033
▁ㅇㅕㄹㅎㅕㄹ	-13034
▁ㅇㅕㅇㄱㅗㅇ	-13035
▁ㅈㅓㄴㄱㅡㄴ	-13036
▁function	-13037
▁ㄱㅘㄴㅊㅡㄱㅈㅏ	-13038
▁ㄱㅣㅁㅈㅓㅇㅎㅢ	-13039
ts	-13040
ECT	-13041
get	-13042
ler	-13043
▁ㅈㅓㅅ	-13044
▁1788	-13045
▁ㄴㅗㄱㅈㅗ	-13046
▁ㅇㅟㅅㅅㅜ	-13047
ㅈㅏㅇㅇㅏㅁ	-13048
ㅈㅓㄴㅅㅓㄹ	-13049
ㅌㅡㄹㄹㅏㄴ	-13050
▁Summer	-13051
▁ㄱㅣㅁㅊㅓㄹ	-13052
▁ㄷㅗㅇㅅㅓㄴ	-13053
▁ㅅㅣㄴㄱㅕㄱ	-13054
▁ㅇㅑㅇㅈㅣㄹ	-13055
▁ㄱㅏㅇㅇㅕㄴㅎㅚ	-13056
▁ㄱㅘㄴㅊㅡㄱㅅㅗ	-13057
▁ㅈㅓㅇㅅㅏㅇㅂㅜ	-13058
▁ㅋㅗㄴㅋㅡㄹㄹㅏ	-13059
▁ㄱㅣㅁㅎㅗㅇㅈㅣㅂ	-13060
AND	-13061
ESA	-13062
ird	-13063
ㄴㅡㅁ	-13064
uman	-13065
▁OFC	-13066
▁RAM	-13067
ㅅㅓㄴㅇㅓ	-13068
ㅇㅓㅂㅂㅣ	-13069
▁ㄱㅘㅇㄱㅐ	-13070
▁ㄴㅏㅁㄷㅗ	-13071
▁ㄴㅗㅇㄴㅗ	-13072
▁ㅁㅜㄴㅎㅗ	-13073
▁ㅂㅜㄱㅈㅜ	-13074
▁ㅅㅣㅁㅊㅟ	-13075
▁ㅇㅗㄻㄱㅕ	-13076
▁ㅇㅛㅇㅎㅗ	-13077
▁ㅇㅞㅂㅅㅡ	-13078
ㄱㅗㄱㅈㅓㄹ	-13079
ㅊㅣㅁㅂㅏㄴ	-13080
▁ㅅㅓㅇㅅㅣㄴ	-13081
▁ㅇㅘㄴㄱㅏㅇ	-13082
▁ㅅㅗㄱㅇㅣㅁㅅㅜ	-13083
▁ㅅㅗㅇㅈㅜㄴㄱㅣㄹ	-13084
▁MI	-13085
▁TE	-13086
▁MBN	-13087
▁main	-13088
▁ㅎㅘㄹㅎㅘ	-13089
ㅇㅕㄹㅇㅡㅁ	-13090
▁ㄱㅗㅇㄹㅗㄴ	-13091
▁ㅂㅏㄴㅊㅣㄱ	-13092
▁ㅅㅓㅂㄷㅗㅇ	-13093
▁ㅇㅕㄴㄱㅕㅇ	-13094
▁ㅊㅏㅁㄱㅘㄴ	-13095
▁ㅂㅏㄴㅎㅕㄱㅁㅕㅇ	-13096
err	-13097
▁MO	-13098
▁OL	-13099
▁RX	-13100
▁960	-13101
ㅇㅑㄱㅈㅏ	-13102
▁ㅁㅏㄱㅅㅏ	-13103
▁ㅅㅔㄹㄹㅣ	-13104
▁ㅇㅣㅁㅇㅗ	-13105
▁ㅈㅜㄴㅇㅣ	-13106
▁ㅈㅡㅇㅂㅗ	-13107
▁ㅋㅕㄹㄹㅔ	-13108
▁ㅎㅜㄴㄱㅜ	-13109
▁ㄴㅏㄱㄱㅘㄴ	-13110
▁ㅎㅏㄱㅅㅏㅇ	-13111
▁ㄱㅕㅇㅅㅏㄴㅅㅣ	-13112
▁ㄴㅏㅁㄷㅗㅇㄱㅜ	-13113
▁ㅅㅏㅇㅈㅣㅇㅁㅜㄹ	-13114
▁ㅅㅜㄴㅎㅘㄴㅅㅓㄴ	-13115
▁ㅈㅓㄴㅂㅗㅇㅈㅜㄴ	-13116
▁ㅈㅣㄴㅊㅓㄴㄱㅜㄴ	-13117
▁ㄱㅜㄱㅁㅣㄴㅈㅓㅇㅂㅜ	-13118
▁353	-13119
▁Sky	-13120
ㅁㅜㅅㄱㅏ	-13121
ㅈㅣㄹㄱㅣ	-13122
▁right	-13123
▁ㅁㅐㄱㄱㅡ	-13124
▁ㅂㅕㅇㅅㅔ	-13125
▁ㅂㅣㅇㄱㅡ	-13126
▁ㅇㅑㄱㅊㅗ	-13127
▁ㅇㅡㅁㄱㅖ	-13128
ㅂㅏㅇㅇㅝㄴ	-13129
ㅅㅐㄱㅂㅣㅊ	-13130
ㅉㅐㅆㄷㅡㄴ	-13131
▁ㄱㅕㅇㄷㅏㅇ	-13132
▁ㅁㅏㄴㅎㅐㅇ	-13133
▁ㅁㅏㄹㄸㅜㄱ	-13134
▁ㅌㅣㅁㅇㅝㄴ	-13135
▁ㅍㅕㅇㅇㅕㅇ	-13136
▁ㅈㅏㅇㄷㅓㄱㅅㅜ	-13137
▁ㅈㅣㅂㅎㅏㅂㅊㅔ	-13138
▁ㅎㅏㅂㄱㅕㄱㅈㅏ	-13139
▁ㅅㅏㅇㅅㅏㅇㄹㅕㄱ	-13140
▁ㅇㅏㄱㅇㅕㅇㅎㅑㅇ	-13141
▁ㅈㅜㅇㅇㅏㅇㄷㅗㅇ	-13142
ACK	-13143
▁If	-13144
▁MG	-13145
ㅂㅣㅁ	-13146
▁860	-13147
▁Plan	-13148
ㅇㅏㄴㅌㅏ	-13149
ㅇㅜㄴㅅㅠ	-13150
ㅎㅏㄱㅎㅚ	-13151
▁Never	-13152
▁ㄷㅏㄴㅂㅜ	-13153
▁ㅂㅏㄴㅈㅔ	-13154
▁ㅇㅘㄴㅍㅐ	-13155
ㄱㅣㄹㄷㅗㅇ	-13156
▁ㄱㅜㄹㅊㅏㄱ	-13157
▁ㅂㅐㄱㅅㅓㄱ	-13158
▁ㅅㅜㄴㅇㅡㅇ	-13159
▁ㅇㅏㄱㅇㅛㅇ	-13160
▁ㅇㅕㄱㅈㅓㄱ	-13161
▁ㅇㅕㄴㅈㅓㅂ	-13162
▁ㅈㅏㅇㅁㅏㄱ	-13163
▁ㅊㅗㅇㅌㅏㄴ	-13164
▁ㅍㅕㄴㄴㅕㄴ	-13165
▁ㅍㅡㄹㄹㅗㅅ	-13166
▁1797	-13167
▁1828	-13168
ㅅㅏㅇㄱㅜ	-13169
ㅋㅔㄴㅈㅣ	-13170
▁ㅁㅏㅇㄹㅏ	-13171
▁ㅂㅜㅅㄷㅏ	-13172
▁ㅎㅘㅇㅌㅗ	-13173
ㅁㅣㅇㅌㅓㄴ	-13174
▁ㄷㅗㅇㄱㅏㅇ	-13175
▁ㅁㅏㄴㅇㅣㄴ	-13176
▁ㅂㅏㄴㅉㅏㄱ	-13177
▁ㅂㅜㄹㅇㅕㄴ	-13178
▁ㅅㅣㄴㅈㅡㅇ	-13179
▁ㅇㅏㄹㄹㅏㄴ	-13180
▁ㅇㅘㅇㅅㅏㅇ	-13181
▁ㅈㅓㅇㅈㅜㄴ	-13182
▁ㅅㅏㅁㅅㅓㅇㄱㅡ	-13183
▁ㅈㅣㄴㅎㅐㅇㅎㅏ	-13184
▁ㄱㅏㅂㅅㅏㅇㅅㅓㄴ	-13185
ero	-13186
uro	-13187
▁Sa	-13188
▁273	-13189
▁810	-13190
▁POP	-13191
▁Pla	-13192
▁Tom	-13193
▁Hist	-13194
ㅇㅏㄴㄷㅐ	-13195
ㅇㅓㅁㅊㅣ	-13196
ㅇㅔㄴㄷㅡ	-13197
ㅊㅜㄴㅊㅜ	-13198
ㅎㅏㄴㄴㅏ	-13199
ㅎㅘㄴㅈㅏ	-13200
▁ㄱㅏㅇㄱㅣ	-13201
▁ㄱㅓㄴㄷㅡ	-13202
▁ㅁㅏㅇㅌㅗ	-13203
▁ㅂㅓㅂㅇㅢ	-13204
▁ㅂㅜㄴㄱㅏ	-13205
▁ㅇㅑㄱㅊㅔ	-13206
▁ㅅㅓㄱㅅㅣㄹ	-13207
▁ㅇㅓㅁㅈㅜㅇ	-13208
▁ㅈㅓㅂㄱㅕㄴ	-13209
▁ㅅㅡㄹㄹㅓㅁㅍㅡ	-13210
ㅂㅐㄱㅅㅏㄴㅁㅐㄱ	-13211
ars	-13212
era	-13213
umb	-13214
▁so	-13215
ific	-13216
▁SUV	-13217
▁1636	-13218
▁1838	-13219
ㅅㅏㅇㄱㅣ	-13220
ㅅㅓㅇㅊㅔ	-13221
▁ㄷㅏㄴㅊㅜ	-13222
▁ㄹㅜㄴㄷㅡ	-13223
▁ㄹㅣㅂㅅㅡ	-13224
▁ㅊㅏㅁㄴㅏ	-13225
▁ㅌㅏㅁㄹㅏ	-13226
▁ㅍㅕㅇㅅㅣ	-13227
▁ㅍㅣㄴㅊㅣ	-13228
ㅁㅏㄴㅈㅗㄱ	-13229
ㅊㅏㄱㄹㅠㄱ	-13230
▁ㄱㅕㅇㅎㅏㄱ	-13231
▁ㄱㅜㅇㅍㅣㅂ	-13232
▁ㄴㅏㅁㅁㅕㄴ	-13233
▁ㄲㅡㄴㅈㅣㄹㄱㅣ	-13234
▁ㅈㅏㅇㅅㅣㄴㄱㅜ	-13235
▁ㅌㅏㅁㅎㅓㅁㄷㅐ	-13236
▁ㄴㅏㅁㅂㅜㄱㅎㅏㄴ	-13237
▁ㅇㅕㅇㅇㅑㅇㅂㅜㄴ	-13238
▁ㅈㅏㅇㅎㅡㅇㄱㅜㄴ	-13239
▁ㅅㅓㄴㄷㅓㄹㄹㅐㄴㄷㅡ	-13240
ISC	-13241
▁Ap	-13242
▁DT	-13243
▁Da	-13244
▁Vo	-13245
▁257	-13246
▁306	-13247
▁app	-13248
▁Conc	-13249
▁ㅅㅏㄹㅍㅗ	-13250
ㄱㅘㄴㄱㅘㅇ	-13251
▁ㄱㅓㅁㄷㅏㄴ	-13252
▁ㄱㅘㅇㄹㅡㅇ	-13253
▁ㄴㅗㅇㅅㅣㅁ	-13254
▁ㅇㅏㄱㅁㅗㅇ	-13255
▁ㅇㅏㄴㄱㅜㄱ	-13256
▁ㅇㅕㄱㄱㅘㄴ	-13257
▁ㅇㅕㅁㅈㅓㄴ	-13258
▁ㅇㅝㄴㄷㅏㅇ	-13259
▁ㅇㅣㄴㄷㅔㄱㅅㅡ	-13260
▁ㅎㅗㅇㅈㅜㄴㅍㅛ	-13261
▁ㄱㅗㅇㅈㅏㄱㅇㅝㄴ	-13262
▁ㅎㅏㄴㄱㅜㄱㅇㅣㄹㅂㅗ	-13263
▁ㅎㅏㄴㄱㅜㄱㅇㅡㄴㅎㅐㅇ	-13264
ris	-13265
▁ph	-13266
▁266	-13267
▁980	-13268
▁May	-13269
▁ㅆㅣㅇ	-13270
ㅂㅕㄹㅊㅗ	-13271
ㅅㅡㅇㅎㅗ	-13272
ㅎㅏㄴㄷㅐ	-13273
▁ㄴㅏㄴㅅㅗ	-13274
▁ㄷㅗㄹㅇㅣ	-13275
▁ㅂㅓㅂㅊㅣ	-13276
▁ㅂㅣㄴㅅㅡ	-13277
▁ㅇㅏㅁㅅㅏ	-13278
▁ㅍㅗㄹㄷㅓ	-13279
▁ㄱㅡㅁㅂㅏㄹ	-13280
▁ㅁㅏㅈㅁㅓㄱ	-13281
▁ㅇㅕㄱㄱㅕㅇ	-13282
▁ㅈㅏㅇㅁㅕㅇ	-13283
▁ㅈㅣㄱㅇㅕㄱ	-13284
▁ㅈㅣㄴㅈㅜㅇ	-13285
▁ㅋㅡㅁㅈㅣㄱ	-13286
▁ㄹㅗㄱㅍㅔㄹㄹㅓ	-13287
▁ㄱㅡㄴㅇㅕㄴㅈㅗㅇ	-13288
▁ㅊㅜㅇㅅㅓㄴㅇㅘㅇ	-13289
▁Tu	-13290
ross	-13291
▁Gold	-13292
ㄱㅏㄹㄹㅗ	-13293
ㄷㅡㅇㄱㅣ	-13294
ㅇㅘㅇㄷㅗ	-13295
ㅈㅓㅇㅅㅓ	-13296
▁ㅈㅓㄴㅇㅜ	-13297
▁ㅊㅏㅁㅇㅡ	-13298
▁ㅊㅣㄴㅇㅏ	-13299
▁ㅍㅏㄴㅇㅢ	-13300
▁ㅎㅏㅁㅈㅐ	-13301
ㄱㅡㅂㅍㅜㅁ	-13302
▁ㅁㅜㄱㅅㅏㄹ	-13303
▁ㅅㅏㅇㅅㅏㄴ	-13304
▁ㅇㅏㄱㅎㅐㅇ	-13305
▁ㅇㅗㄱㅅㅏㄴ	-13306
▁ㅈㅣㅇㅂㅏㄹ	-13307
▁ㅊㅜㄹㅁㅗㄹ	-13308
▁ㅂㅡㄹㄹㅗㄱㅊㅔ	-13309
▁Pi	-13310
▁__	-13311
▁249	-13312
▁bes	-13313
▁der	-13314
▁ㄹㅓㅂ	-13315
▁8859	-13316
ㄱㅏㄱㅅㅣ	-13317
ㄷㅏㄹㄹㅔ	-13318
ㄹㅗㄱㅅㅡ	-13319
ㅂㅏㄹㄹㅔ	-13320
ㅇㅏㄹㄷㅔ	-13321
▁ㄴㅏㅁㅅㅏ	-13322
▁ㅂㅕㄴㅇㅟ	-13323
▁ㅈㅏㄴㅈㅐ	-13324
▁ㅍㅐㄱㅌㅓ	-13325
▁ㅎㅘㅇㄱㅣ	-13326
ㄱㅕㅇㅅㅓㄱ	-13327
ㅅㅓㄴㅁㅜㄴ	-13328
ㅇㅑㅇㅇㅣㄴ	-13329
ㅎㅏㅇㅅㅓㅇ	-13330
▁ㄴㅏㄱㅈㅓㅁ	-13331
▁ㅁㅏㅇㅅㅓㄹ	-13332
▁ㅁㅕㅇㄹㅏㅇ	-13333
▁ㅅㅓㄱㅈㅏㅇ	-13334
▁ㅈㅓㅇㄹㅡㅇ	-13335
▁ㅈㅜㄴㅇㅛㅇ	-13336
▁ㅋㅐㄹㅂㅣㄴ	-13337
▁ㅈㅓㄴㄹㅏㅁㅎㅚ	-13338
▁KP	-13339
▁px	-13340
▁236	-13341
▁1777	-13342
ㅌㅗㅂㅅㅡ	-13343
▁ㄴㅔㄹㄹㅣ	-13344
▁ㅂㅏㅇㅇㅏ	-13345
▁ㅅㅏㅁㄷㅗ	-13346
▁ㄱㅘㄴㅇㅣㄴ	-13347
▁ㅁㅜㄹㄹㅑㅇ	-13348
▁ㅈㅓㅇㄱㅘㅇ	-13349
▁ㅈㅣㄹㄱㅏㅁ	-13350
ㅎㅏㄴㅊㅜㄱㄱㅜ	-13351
ㅎㅕㄱㅁㅕㅇㄷㅏㅇ	-13352
▁KL	-13353
ㅅㅣㅅ	-13354
▁.."	-13355
▁STX	-13356
ㄹㄹㅔㅅ	-13357
umber	-13358
ㅌㅔㄴㄷㅣ	-13359
▁ㅂㅗㄹㅊㅡ	-13360
▁ㅇㅏㄴㄹㅛ	-13361
▁ㅇㅑㄱㅈㅐ	-13362
ㅅㅜㄹㅇㅣㄴ	-13363
olution	-13364
▁ㅂㅜㄱㅁㅜㄴ	-13365
▁ㅇㅕㄴㅂㅏㅇㅈㅜ	-13366
▁ㄱㅜㄱㅁㅣㄴㅇㅡㄴㅎㅐㅇ	-13367
GS	-13368
▁CW	-13369
▁OM	-13370
▁404	-13371
▁880	-13372
▁Aut	-13373
▁ESP	-13374
▁GHz	-13375
▁Nor	-13376
▁res	-13377
▁ㄹㅕㅁ	-13378
▁ㅌㅓㅅ	-13379
ㅅㅈㅣㅂ	-13380
itude	-13381
ㄷㅡㄱㅅㅔ	-13382
ㄹㅡㅇㅈㅣ	-13383
▁ㄷㅟㅅㅂㅜ	-13384
▁ㅋㅗㄹㅌㅡ	-13385
ㅂㅗㄴㄱㅡㅁ	-13386
ㅇㅕㄱㅍㅗㄱ	-13387
▁ㄱㅗㅇㅂㅓㅁ	-13388
▁ㅅㅜㄴㅇㅕㄹ	-13389
▁ㅇㅣㅂㄱㅜㅇ	-13390
▁ㅈㅓㅇㅊㅗㄴ	-13391
▁ㅈㅜㅇㄴㅏㅁㅂㅜ	-13392
▁ㅎㅘㄱㅈㅏㅇㅍㅐㄱ	-13393
ren	-13394
ㄷㅔㅁ	-13395
▁But	-13396
▁SHO	-13397
▁SNK	-13398
ㅅㅏㄴㅈㅗ	-13399
ㅅㅔㄹㄹㅣ	-13400
▁Class	-13401
▁ㄱㅘㅇㅇㅜ	-13402
▁ㅁㅕㄴㄷㅗ	-13403
▁ㅇㅣㄴㄴㅐ	-13404
▁ㅈㅓㄹㄱㅣ	-13405
ㅇㅝㄴㄹㅗㄴ	-13406
▁ㅅㅗㄱㅇㅗㅅ	-13407
▁ㅇㅓㄴㅇㅑㅇ	-13408
▁ㅇㅕㄴㅇㅝㄴ	-13409
▁ㅎㅏㄴㅌㅏㄴ	-13410
ㅋㅗㄴㅅㅣㄴㅈㅜ	-13411
▁ㅅㅔㄹㅌㅣㄱㅅㅡ	-13412
▁ㅇㅑㅇㅇㅑㅇㄱㅜㄴ	-13413
▁ㅇㅕㄴㅁㅕㄴㅈㅓㄱ	-13414
▁ㅅㅓㄱㅂㅜㄹㅇㅣㅂㅅㅏㅇ	-13415
to	-13416
▁Fi	-13417
▁ㅋㅑ	-13418
▁ㄱㅓㄴㄱㅣ	-13419
▁ㄱㅡㄹㄹㅔ	-13420
▁ㅁㅣㄴㅌㅡ	-13421
▁ㅇㅓㅁㅎㅏ	-13422
▁ㅍㅔㄴㅌㅏ	-13423
▁ㅍㅔㅂㅌㅏ	-13424
ㅇㅜㄹㅈㅏㅁ	-13425
ㅋㅔㄹㄹㅏㄴ	-13426
▁ㄱㅣㅁㅅㅣㄴ	-13427
▁ㅂㅏㅇㅅㅏㄴ	-13428
▁ㅂㅕㄴㅁㅕㅇ	-13429
▁ㅇㅝㄹㄷㅡㅇ	-13430
▁ㅎㅘㄴㄱㅗㅇ	-13431
▁ㅍㅣㄹㅅㅏㄹㄱㅣ	-13432
▁ㅊㅗㅇㄱㅏㅁㄷㅗㄱ	-13433
els	-13434
ㅅㅔㄱ	-13435
▁620	-13436
▁GUI	-13437
▁Ret	-13438
ㅇㅐㅇㅋㅏ	-13439
ㅎㅕㄴㅇㅜ	-13440
▁ㅁㅗㄴㅌㅣ	-13441
▁ㅅㅏㅁㅂㅗ	-13442
▁ㅈㅣㄴㅅㅣ	-13443
ㅂㅏㅇㅈㅓㅇ	-13444
ㅈㅓㄴㅇㅕㄱ	-13445
▁ㄱㅡㄴㅈㅓㄹ	-13446
▁ㅂㅜㄹㅅㅓㄴ	-13447
▁ㅅㅗㄴㅈㅏㅂ	-13448
▁ㅅㅣㄴㄹㅕㅇ	-13449
▁ㅇㅗㄴㅁㅗㅁ	-13450
▁ㅈㅏㅇㅇㅕㄴ	-13451
ㅂㅏㅇㅂㅗㄴㅂㅜ	-13452
▁ㅂㅗㅂㅅㅡㄹㄹㅔ	-13453
▁ㅇㅠㄴㅇㅝㄴㅎㅕㅇ	-13454
ㅍㅓㄴㄷㅡㄹㄹㅐㄴㄷㅡ	-13455
BSD	-13456
ㅁㅐㅂ	-13457
ㅂㅗㅁ	-13458
less	-13459
▁710	-13460
▁Fla	-13461
▁Vir	-13462
ative	-13463
▁1784	-13464
▁ISIL	-13465
ㄹㅣㄴㅎㅘ	-13466
ㅅㅏㅇㅎㅏ	-13467
▁Gener	-13468
▁Japan	-13469
▁ㄱㅗㅇㅂㅣ	-13470
▁ㄴㅔㄱㅅㅓ	-13471
▁ㅅㅏㅁㅈㅣ	-13472
▁ㅇㅏㄴㅁㅏ	-13473
▁ㅇㅣㄴㅍㅗ	-13474
ㅂㅏㅇㅇㅣㄴ	-13475
ㅈㅓㄴㅈㅡㅇ	-13476
▁ㄴㅏㅁㄱㅏㅇ	-13477
▁ㅇㅣㄴㄷㅗㅇ	-13478
▁ㅎㅣㄹㅌㅡㄴ	-13479
▁ㅅㅔㄹㄹㅜㄹㄹㅗ	-13480
▁ㅂㅏㄹㅇㅝㄴㅁㅜㄴ	-13481
ㅊㅓㄴㄴㅕㄴㅁㅣㄴㅈㅜ	-13482
▁Rh	-13483
▁570	-13484
▁ㅊㅏㅂ	-13485
ㄴㅗㄹㅈㅡ	-13486
ㄷㅐㅂㅌㅓ	-13487
ㅇㅜㄴㅅㅡ	-13488
▁ㄱㅐㄹㄹㅣ	-13489
▁ㄱㅓㅁㄱㅛ	-13490
▁ㅂㅓㄹㅆㅓ	-13491
▁ㅇㅛㅇㅈㅜ	-13492
▁ㅈㅓㅇㅎㅗ	-13493
▁ㅉㅣㄹㄹㅣ	-13494
▁ㅋㅗㅇㅋㅗ	-13495
ㄱㅗㄴㅂㅗㄹ	-13496
ㅅㅣㅁㄹㅠㄹ	-13497
▁Direct	-13498
▁ㅂㅏㄱㅁㅜㄴ	-13499
▁ㅂㅜㄱㅊㅓㅇ	-13500
▁ㅇㅝㄴㅇㅏㄴ	-13501
▁ㅇㅡㄴㄴㅣㄱ	-13502
▁ㅅㅏㅁㅊㅓㄱㅅㅣ	-13503
ㅍㅏㅅ	-13504
▁UFO	-13505
▁ㄱㅜㅇㄷㅗ	-13506
▁ㄱㅡㄱㅎㅏ	-13507
▁ㄴㅏㅁㅇㅣ	-13508
▁ㄴㅗㄱㅈㅣ	-13509
▁ㄴㅗㅇㅅㅜ	-13510
▁ㅂㅜㄱㅋㅣ	-13511
▁ㅂㅜㄹㅇㅜ	-13512
▁ㅅㅓㄱㅈㅘ	-13513
▁ㅈㅏㅂㅅㅡ	-13514
▁ㅊㅓㄴㅎㅗ	-13515
ㄴㅜㅅㅅㅔㅁ	-13516
▁ㄱㅗㄱㄹㅠㄹ	-13517
▁ㄱㅗㅇㅅㅓㅇ	-13518
▁ㅂㅜㄴㅂㅜㄴ	-13519
▁ㅇㅏㅂㅅㅡㅇ	-13520
▁ㅊㅓㄴㄱㅗㅇ	-13521
▁ㅊㅓㄴㅈㅣㄴ	-13522
▁ㅈㅣㄴㅎㅐㄱㅅㅐㅇㅁㅜㄹ	-13523
ius	-13524
▁BP	-13525
▁nd	-13526
line	-13527
ople	-13528
▁ㅆㅜㄱ	-13529
▁TOUR	-13530
ㅁㅜㄴㅇㅖ	-13531
▁ㄱㅔㄴㅌㅏ	-13532
▁ㄱㅡㅁㄱㅘ	-13533
▁ㄴㅏㅁㅊㅗ	-13534
▁ㅁㅏㅁㄹㅜ	-13535
▁ㅁㅕㅇㄹㅛ	-13536
▁ㅂㅗㄴㄷㅐ	-13537
▁ㅅㅗㅇㅅㅏ	-13538
▁ㅈㅓㄹㅇㅣ	-13539
ㄱㅏㅇㅇㅝㄴ	-13540
ㄷㅓㄱㄷㅗㅇ	-13541
ㄹㅕㅇㅌㅏㅂ	-13542
ㅊㅜㄹㅇㅣㅂ	-13543
▁ㅅㅓㅇㅌㅏㄴ	-13544
▁GeForce	-13545
▁ㅇㅗㄴㄱㅓㄴㅍㅏ	-13546
ful	-13547
ㅁㅜㅇ	-13548
ㅂㅐㅅ	-13549
▁243	-13550
▁630	-13551
▁PHP	-13552
▁Year	-13553
ㅇㅏㄴㅌㅗ	-13554
ㅇㅘㅇㅅㅣ	-13555
▁ㄱㅣㅁㅇㅣ	-13556
▁ㄹㅐㄹㄹㅣ	-13557
▁ㅅㅏㄴㄷㅐ	-13558
▁ㅇㅕㄴㅇㅢ	-13559
▁ㅍㅏㄴㄷㅏ	-13560
ㄱㅓㅁㅊㅏㄹ	-13561
ㅅㅏㄴㅇㅕㅁ	-13562
ㅅㅗㄱㅊㅓㄹ	-13563
ㅈㅓㅇㅎㅏㄱ	-13564
▁ㅁㅜㄹㄷㅡㄹ	-13565
▁ㅇㅛㅇㄱㅗㄹ	-13566
▁ㅎㅏㅇㅇㅏㅁ	-13567
▁ㅈㅜㅇㅅㅣㅁㅈㅜ	-13568
▁ㄱㅗㅇㄱㅡㅂㅇㅝㄴ	-13569
▁ㄱㅘㄴㅅㅡㅂㅂㅓㅂ	-13570
▁ㅇㅣㄹㅂㅏㄴㅈㅣㄱ	-13571
▁ㅈㅓㄴㅂㅏㄴㅈㅓㄴ	-13572
▁Bus	-13573
▁Long	-13574
ㄱㅡㅂㅅㅏ	-13575
ㅁㅜㄴㅈㅔ	-13576
ㅇㅔㄹㄹㅣ	-13577
ㅈㅏㅇㄱㅣ	-13578
▁ㅂㅏㄴㅁㅣ	-13579
▁ㅇㅑㅇㅎㅐ	-13580
▁ㅇㅣㅁㅈㅐ	-13581
▁ㅇㅣㅁㅍㅔ	-13582
ㅇㅓㄴㄱㅜㄴ	-13583
ㅇㅣㄹㄹㅣㅇ	-13584
▁ㄷㅓㄱㅎㅡㅇ	-13585
▁ㄷㅡㅇㅅㅣㄱ	-13586
▁ㅂㅏㄱㅂㅕㅇ	-13587
▁ㄱㅗㅇㄱㅕㄱㅈㅏ	-13588
▁ㄱㅗㅇㅁㅜㄴㅅㅓ	-13589
▁ㅇㅕㅇㄴㅏㅁㄷㅐ	-13590
ㅇㅕㄴㅎㅘㄴㄱㅕㅇ	-13591
CE	-13592
▁Km	-13593
▁Sl	-13594
ㄱㅣㅇ	-13595
▁mac	-13596
iness	-13597
ㅇㅛㄴㅅㅔ	-13598
▁ㅇㅏㅂㄹㅠ	-13599
▁ㅇㅝㄴㅅㅔ	-13600
▁ㅇㅡㄴㅎㅘ	-13601
▁ㅈㅣㄹㅈㅜ	-13602
▁ㅎㅜㄹㄹㅣ	-13603
ㄷㅜㄴㄱㅜㄴ	-13604
ㅁㅜㄴㅈㅏㅇ	-13605
ㅅㅣㅂㅁㅏㄴ	-13606
ㅇㅣㄴㅇㅝㄴ	-13607
ㅈㅏㅇㄱㅘㄴ	-13608
ㅈㅓㅇㅎㅕㄴ	-13609
▁ㄱㅜㄴㄱㅗㅇ	-13610
▁ㄷㅡㅇㄱㅏㄱ	-13611
▁ㅈㅓㅇㅊㅏㅇ	-13612
▁ㅊㅣㅁㅅㅣㄹ	-13613
▁ㅎㅕㅂㅇㅕㄴ	-13614
ㅅㅔㅁㅂㅡㄹㄹㅣ	-13615
▁ㅅㅣㄴㅈㅜㅇㄷㅗ	-13616
▁ㅇㅑㅇㅊㅓㄴㄱㅜ	-13617
▁ㅈㅏㅇㅂㅗㄴㅇㅣㄴ	-13618
▁ㅈㅓㄴㅌㅗㅇㅁㅜㄴㅎㅘ	-13619
ㄲㅗㄱ	-13620
▁304	-13621
▁Bra	-13622
▁ㅇㅟㄱ	-13623
ㅎㅘㄴㄱㅣ	-13624
▁Beaut	-13625
▁ㄱㅕㅇㅅㅓ	-13626
▁ㄱㅡㄴㅅㅗ	-13627
▁ㅈㅏㅂㅇㅣ	-13628
▁ㅍㅏㄴㅅㅣ	-13629
▁ㅎㅕㄴㅈㅏ	-13630
ㅇㅣㄴㅅㅓㄱ	-13631
ㅈㅓㅇㅎㅘㄴ	-13632
ㅍㅗㄱㄹㅕㄱ	-13633
▁ㅂㅗㄴㅂㅏㄷ	-13634
▁ㅇㅕㄴㅎㅏㅂㅊㅔ	-13635
ㅋㅔㄹㄹㅏㄴㅈㅔㄹㄹㅗ	-13636
ㄲㅡㅌ	-13637
▁470	-13638
▁Char	-13639
ㅁㅔㄹㄹㅣ	-13640
ㅂㅏㄴㅌㅔ	-13641
▁ㄴㅏㄹㄹㅗ	-13642
▁ㅂㅏㅇㅈㅐ	-13643
▁ㅇㅏㄱㅅㅏ	-13644
▁ㅇㅐㄱㅈㅏ	-13645
▁ㅎㅔㄹㅁㅜ	-13646
ㅇㅡㄴㄱㅜㄴ	-13647
ㅇㅣㄴㅅㅓㅇ	-13648
▁ㄷㅏㅇㅁㅕㄴ	-13649
▁ㅂㅗㅇㅅㅣㄴ	-13650
▁ㅅㅐㅇㄱㅏㅇ	-13651
▁ㅅㅓㄴㅊㅏㄱ	-13652
▁ㅅㅓㄹㄴㅏㄹ	-13653
▁ㅇㅝㄴㅎㅘㄴ	-13654
▁ㅇㅣㄹㅇㅑㄱ	-13655
▁ㅈㅓㅂㅇㅕㅇ	-13656
▁ㅊㅓㅇㅂㅐㄱ	-13657
▁ㅅㅓㄱㅂㅜㄹㅈㅘ	-13658
ㄸㅗ	-13659
▁NGO	-13660
▁Dark	-13661
ㅂㅜㄱㅇㅣ	-13662
▁ㄴㅏㄴㅅㅣ	-13663
▁ㅁㅐㄱㅅㅣ	-13664
▁ㅁㅓㄱㅎㅣ	-13665
▁ㅂㅓㅂㅊㅔ	-13666
▁ㅇㅛㅇㅎㅘ	-13667
▁ㅊㅏㄹㄴㅏ	-13668
▁ㅊㅜㄹㅎㅏ	-13669
▁ㅎㅔㄱㅅㅏ	-13670
ㄸㅓㄱㅇㅣㅍ	-13671
ㅁㅏㄴㅅㅣㄱ	-13672
▁ㄱㅜㄱㅎㅏㄱ	-13673
▁ㅂㅕㅇㅅㅓㄹ	-13674
▁ㅅㅏㅇㄱㅜㄴ	-13675
▁ㅅㅣㄴㄹㅏㅇ	-13676
▁ㅊㅓㄴㅇㅣㄴ	-13677
▁ㅍㅜㅇㅅㅓㅇ	-13678
▁ㅎㅏㅇㅂㅕㄴ	-13679
▁ㅇㅗㅇㅈㅓㅇㅈㅔ	-13680
▁ㅈㅜㅇㅅㅣㅁㄱㅏ	-13681
▁ㅍㅡㄹㄹㅔㄱㅅㅡ	-13682
ㅂㅗㄱㄷㅗㅇㅅㅐㅇ	-13683
▁ㅇㅡㄴㅇㅓㄴㄱㅜㄴ	-13684
▁345	-13685
▁415	-13686
▁God	-13687
▁1826	-13688
▁Miss	-13689
ㅎㅏㄴㅎㅣ	-13690
▁Elect	-13691
▁Stand	-13692
▁White	-13693
▁ㄱㅕㅇㄹㅣ	-13694
▁ㅂㅔㄴㅌㅡ	-13695
▁ㅇㅏㄴㅅㅜ	-13696
▁ㅇㅔㄱㅅㅗ	-13697
ㄹㅐㄴㅈㅐㄱ	-13698
ㅂㅏㅇㅁㅕㄴ	-13699
ㅂㅡㄴㅅㅡㄴ	-13700
ㅎㅡㅇㄷㅗㅇ	-13701
▁ㄱㅏㄴㅈㅓㄹ	-13702
▁ㄱㅕㅇㅈㅏㅇ	-13703
▁ㄴㅏㄴㅍㅗㄱ	-13704
▁ㅅㅏㄴㅂㅏㄹ	-13705
▁ㅇㅠㅇㅅㅓㅇ	-13706
▁ㅈㅏㅇㅅㅓㄱ	-13707
▁ㅈㅜㅇㅈㅣㄴ	-13708
ㄹㅐㄴㅈㅐㄱㅅㅕㄴ	-13709
▁ㄴㅏㅁㅎㅏㄱㅅㅐㅇ	-13710
▁ㅎㅕㄴㅊㅜㅇㅇㅝㄴ	-13711
▁AH	-13712
ㅋㅏㅂ	-13713
▁MGM	-13714
▁Comm	-13715
▁IDOL	-13716
ㄱㅡㅁㄱㅏ	-13717
ㄹㅓㅂㅎㅣ	-13718
ㅈㅗㅇㄱㅛ	-13719
ㅊㅓㄴㅎㅜ	-13720
ㅊㅔㄹㄹㅗ	-13721
▁Sweet	-13722
▁ㄱㅏㄴㅇㅣ	-13723
▁ㄹㅣㅇㅅㅡ	-13724
▁ㅂㅜㄴㅁㅛ	-13725
▁ㅇㅣㄴㄷㅜ	-13726
▁ㅇㅣㅇㅌㅐ	-13727
▁ㅊㅏㄴㅁㅣ	-13728
▁ㅊㅣㄱㅅㅓ	-13729
ㅅㅗㅇㅅㅓㄴ	-13730
ㅊㅓㄴㅇㅕㄱ	-13731
▁ㄱㅏㄱㅁㅏㄱ	-13732
▁ㄱㅏㅁㄱㅠㄹ	-13733
▁ㄱㅡㅁㅂㅏㅇ	-13734
▁ㅅㅓㄴㄱㅜㄴ	-13735
▁ㅊㅗㅇㄱㅕㅇ	-13736
▁ㄷㅗㅇㅇㅡㅁㅇㅣ	-13737
▁ㅊㅜㄱㅈㅓㄴㄱㅣ	-13738
▁ㅅㅡㅇㅁㅜㄴㅇㅝㄴ	-13739
ml	-13740
▁LL	-13741
▁More	-13742
▁ㅅㅓㅇㅌㅗ	-13743
▁ㅈㅐㅇㅇㅣ	-13744
▁ㅈㅣㄴㅂㅜ	-13745
▁ㅊㅓㅇㄷㅐ	-13746
▁ㅋㅐㄹㄹㅓ	-13747
ㅅㅡㅇㅎㅘㄴ	-13748
ㅈㅣㄴㅎㅡㅇ	-13749
▁ㅂㅣㅅㅁㅜㄹ	-13750
▁ㅅㅗㄱㅊㅜㄹ	-13751
▁ㅇㅕㄱㅂㅕㅇ	-13752
▁ㅇㅕㄹㅂㅕㅇ	-13753
▁ㅈㅣㅇㅇㅛㅇ	-13754
▁ㅊㅡㄱㅅㅣㄹ	-13755
▁ㅎㅏㅁㅊㅜㄱ	-13756
▁ㅎㅐㅇㅅㅏㅇ	-13757
▁ㄱㅗㅁㅍㅏㅇㅇㅣ	-13758
▁ㄱㅘㅇㅈㅣㄴㄱㅜ	-13759
▁ㅎㅘㄱㅈㅏㅇㅈㅏ	-13760
bc	-13761
▁ㅎㅑ	-13762
▁UFC	-13763
▁STER	-13764
▁ㄱㅜㄹㄷㅡ	-13765
▁ㄴㅏㄹㅈㅗ	-13766
▁ㅁㅏㄹㅌㅜ	-13767
▁ㅁㅕㄴㅅㅔ	-13768
▁ㅁㅕㄹㅊㅣ	-13769
▁ㅂㅜㄱㄷㅜ	-13770
▁ㅅㅏㄴㅈㅏ	-13771
▁ㅅㅜㄴㅁㅜ	-13772
▁ㅅㅣㅁㅎㅐ	-13773
ㅇㅡㅁㅇㅏㄱ	-13774
ㅈㅗㅇㅎㅏㅂ	-13775
▁ㄱㅗㅇㅇㅕㄱ	-13776
▁ㅂㅏㅇㅇㅕㄱ	-13777
▁ㅇㅏㄹㅋㅗㄹ	-13778
▁ㅋㅓㄴㅅㅔㅂㅌㅡ	-13779
▁ㅎㅗㅇㄱㅓㄴㅈㅓㄱ	-13780
89	-13781
gg	-13782
fin	-13783
▁HM	-13784
▁JO	-13785
▁ㅅㅗㅌ	-13786
ㅁㄷㅗㄹ	-13787
▁Fall	-13788
ㅁㅗㄹㄹㅔ	-13789
ㅂㅏㅇㄱㅏ	-13790
▁Staff	-13791
▁ㅂㅗㄱㄷㅗ	-13792
▁ㅇㅝㄴㅇㅚ	-13793
▁ㅋㅝㄹㄹㅣ	-13794
ㅅㅗㄱㄹㅕㄱ	-13795
▁ㄱㅡㅂㄱㅏㅁ	-13796
▁ㅈㅣㄴㅈㅗㅇ	-13797
▁ㅋㅣㅇㄷㅓㅁ	-13798
▁ㅇㅕㅇㅇㅑㅇㅅㅗ	-13799
▁ㅁㅜㄹㅂㅏㅇㅇㅜㄹ	-13800
▁ㅇㅜㄹㅈㅣㄴㄱㅜㄴ	-13801
▁ㅊㅓㅇㅅㅗㅇㄱㅜㄴ	-13802
83	-13803
fr	-13804
▁NCA	-13805
▁ㅇㅛㄹ	-13806
ㄱㅜㄱㅅㅣㄱ	-13807
▁ㅂㅏㅇㄱㅘㅇ	-13808
▁ㅅㅗㅇㄱㅏㅇ	-13809
▁ㅈㅓㅇㄱㅏㄱ	-13810
▁ㅈㅗㅇㅂㅏㄴ	-13811
▁ㅈㅗㅇㅅㅓㅇ	-13812
▁ㄱㅗㅇㄱㅕㄱㄱㅣ	-13813
▁ㅎㅗㄹㄹㅐㄴㄷㅡ	-13814
▁ㅇㅕㅇㅇㅝㄹㄱㅜㄴ	-13815
▁ㅇㅣㅁㅅㅣㄹㄱㅜㄴ	-13816
▁ㅈㅗㄹㅇㅓㅂㅅㅣㄱ	-13817
▁ㅊㅜㄹㅇㅣㅂㄱㅜㄱ	-13818
▁ㅊㅜㅇㅅㅓㅇㅅㅣㅁ	-13819
▁ㅎㅏㄴㄹㅣㅁㅇㅝㄴ	-13820
mb	-13821
erv	-13822
nal	-13823
▁UH	-13824
▁Cry	-13825
▁1811	-13826
ㅁㅕㅇㅌㅏ	-13827
ㅂㅐㅇㅋㅡ	-13828
▁ㄱㅘㅇㄱㅣ	-13829
▁ㄴㅣㄱㄴㅔ	-13830
▁ㅁㅗㄹㄷㅣ	-13831
▁ㅇㅘㄴㄱㅜ	-13832
▁ㅈㅏㄴㄱㅣ	-13833
▁ㅈㅓㅂㅎㅣ	-13834
ㄷㅗㅇㅂㅓㅂ	-13835
▁ㄱㅏㄴㅇㅓㄴ	-13836
▁ㄷㅏㄴㅊㅗㅇ	-13837
▁ㄷㅗㅇㅈㅣㄹ	-13838
▁ㅂㅐㄱㄴㅏㅁ	-13839
▁ㅍㅏㄹㄷㅏㄹ	-13840
▁ㅅㅣㄹㄹㅕㄱㅈㅏ	-13841
▁ㅈㅣㄴㄷㅏㄹㄹㅐ	-13842
▁ㅈㅏㅇㅅㅓㅇㄱㅜㄴ	-13843
ㅋㅏㅅ	-13844
▁DDR	-13845
▁Mat	-13846
▁ㅅㅛㅂ	-13847
ㅅㅏㅇㅈㅐ	-13848
▁ㅂㅓㄴㅎㅘ	-13849
▁ㅅㅏㅇㅂㅣ	-13850
▁ㅅㅣㄹㅇㅚ	-13851
▁ㅈㅏㅇㅎㅗ	-13852
▁ㅈㅣㅇㅅㅣ	-13853
ㅋㅗㅇㄱㅏㅇ	-13854
ㅎㅘㄴㄱㅜㄱ	-13855
▁ㅂㅜㄴㅁㅏㄹ	-13856
▁ㅅㅓㄴㄹㅑㅇ	-13857
▁ㅅㅗㄴㄱㅕㄴ	-13858
▁ㅇㅛㅇㄴㅏㅂ	-13859
▁ㅇㅛㅇㅇㅠㅇ	-13860
▁ㅈㅏㄱㅇㅡㄴ	-13861
▁ㅈㅓㅇㅁㅣㄴ	-13862
▁ㅂㅕㄴㄱㅕㅇㅂㅐㄱ	-13863
▁ㅂㅜㄹㅅㅣㄴㅇㅣㅁ	-13864
DC	-13865
bit	-13866
led	-13867
▁Er	-13868
ㅆㅏㄱ	-13869
aven	-13870
▁286	-13871
▁Mem	-13872
▁TNA	-13873
▁Roll	-13874
▁char	-13875
ㅂㅔㄴㄴㅏ	-13876
▁ㄷㅏㄴㅍㅏ	-13877
▁ㄹㅏㄴㄷㅏ	-13878
▁ㅅㅣㄴㅇㅑ	-13879
▁ㅇㅞㄴㄷㅣ	-13880
ㅅㅡㅇㅁㅣㄴ	-13881
▁ㄱㅓㅁㅈㅣㄴ	-13882
▁ㅁㅕㅇㅁㅏㅇ	-13883
▁ㅁㅜㄹㅅㅏㄴ	-13884
▁ㅅㅏㅁㅅㅐㄱ	-13885
▁ㅊㅏㅇㅂㅓㅂ	-13886
▁ㅌㅏㄴㅊㅏㅇ	-13887
▁ㅎㅔㄹㄹㅡㅁ	-13888
▁ㅇㅡㄴㅁㅣㄹㅎㅣ	-13889
▁Christmas	-13890
▁ㅇㅡㅁㅇㅏㄱㅇㅣㄴ	-13891
▁ㅋㅡㄹㄹㅐㅂㅌㅡㄴ	-13892
ㄸㅓㄱㅇㅣㅍㅅㅣㄱㅁㅜㄹ	-13893
85	-13894
▁Ca	-13895
ible	-13896
▁247	-13897
ㅇㅌㅓㄴ	-13898
▁mark	-13899
ㅂㅜㄴㄹㅣ	-13900
ㅅㅓㅇㅇㅜ	-13901
ㅌㅐㄴㅍㅗ	-13902
▁Girls	-13903
▁ㄱㅏㅂㄱㅘ	-13904
▁ㄷㅗㅇㅈㅔ	-13905
▁ㅂㅕㄹㅅㅣ	-13906
▁ㅇㅕㅇㄴㅐ	-13907
▁ㅎㅘㄴㅅㅜ	-13908
ㅇㅏㄴㄱㅜㄱ	-13909
▁ㅂㅏㄴㅅㅡㅇ	-13910
▁ㅅㅓㅇㅎㅘㅇ	-13911
▁ㅇㅏㄴㅎㅕㄴ	-13912
▁ㅇㅐㄱㅁㅕㄴ	-13913
▁ㅇㅑㅇㅇㅏㄴ	-13914
▁ㅇㅕㄱㅇㅝㄴ	-13915
▁ㅊㅓㅁㅌㅏㅂ	-13916
▁ㅂㅜㄴㅊㅓㅇㅅㅏ	-13917
▁ㅇㅗㄹㄹㅣㅁㅍㅜ	-13918
ka	-13919
con	-13920
ㅁㅏㅂ	-13921
illa	-13922
▁map	-13923
▁1680	-13924
▁LGBT	-13925
ㄴㅏㅁㅇㅓ	-13926
ㄹㅡㄴㅈㅜ	-13927
ㅅㅏㄴㅅㅗ	-13928
ㅈㅓㄴㅅㅏ	-13929
ㅈㅓㄴㅍㅏ	-13930
▁Under	-13931
▁ㄱㅜㄱㅈㅗ	-13932
▁ㄴㅡㄹㅇㅣ	-13933
▁ㅂㅗㄴㄱㅘ	-13934
▁ㅅㅣㄴㅊㅐ	-13935
▁ㅇㅏㄹㅋㅔ	-13936
▁ㅇㅝㄹㅅㅡ	-13937
▁ㅎㅣㅁㄹㅓ	-13938
ㄴㅔㄴㅌㅏㄹ	-13939
▁ㄷㅏㄴㅎㅕㅇ	-13940
▁ㅂㅏㄱㅊㅏㅇ	-13941
▁ㅂㅜㄹㅇㅜㄴ	-13942
▁ㅇㅓㄴㅎㅐㅇ	-13943
▁ㅈㅣㄱㅎㅏㄹ	-13944
▁ㅌㅡㄱㄱㅓㅁ	-13945
▁ㅎㅕㅂㅊㅏㄴ	-13946
▁ㅎㅡㅇㅇㅓㅂ	-13947
▁ㅇㅜㄴㅈㅓㄴㅅㅏ	-13948
▁ㄱㅘㄴㅈㅜㅇㅅㅓㄱ	-13949
▁ㅅㅣㄱㅁㅜㄹㅎㅏㄱ	-13950
▁ㅌㅡㄱㅂㅕㄹㅅㅏㅇ	-13951
ki	-13952
soft	-13953
▁302	-13954
▁Lee	-13955
▁PCI	-13956
▁pop	-13957
▁ㅁㅣㅂ	-13958
▁style	-13959
▁ㄷㅟㅅㄷㅏ	-13960
▁ㄹㅣㅇㄱㅗ	-13961
▁ㅂㅗㄴㅇㅟ	-13962
▁ㅂㅜㄹㄱㅣ	-13963
▁ㅇㅑㅇㅁㅗ	-13964
▁ㅇㅣㄴㅂㅜ	-13965
▁ㅍㅐㄴㅌㅓ	-13966
ㅈㅣㅇㄱㅡㅁ	-13967
▁ㄴㅡㅇㄹㅠㄹ	-13968
▁ㅂㅐㄱㅇㅑㅇ	-13969
▁ㅅㅏㄴㄱㅜㄱ	-13970
▁ㅅㅜㄴㅂㅏㅇ	-13971
▁ㅇㅕㄴㅂㅕㄴ	-13972
ㅎㅐㅇㅅㅓㅇㄷㅐ	-13973
▁ㅈㅓㅇㅂㅗㄱㅈㅏ	-13974
▁ㅊㅏㅁㅅㅓㄱㅈㅏ	-13975
asy	-13976
▁QS	-13977
▁Us	-13978
▁jp	-13979
▁GSL	-13980
▁1620	-13981
ㄱㅜㄴㅌㅡ	-13982
ㅂㅏㄱㅎㅐ	-13983
ㅂㅐㄴㄷㅡ	-13984
ㅂㅜㄴㅂㅣ	-13985
ㅂㅡㄹㅋㅏ	-13986
▁ㄱㅕㄱㄴㅗ	-13987
▁ㅇㅏㄱㅌㅣ	-13988
▁ㅇㅕㄴㅂㅗ	-13989
▁ㅇㅡㅁㅍㅏ	-13990
▁ㅈㅓㄹㅈㅣ	-13991
▁ㅈㅓㅇㅁㅛ	-13992
▁ㅊㅣㄹㄹㅣ	-13993
▁ㅋㅔㄴㅌㅏ	-13994
▁ㅁㅓㄹㄹㅣㄴ	-13995
▁ㅁㅗㄱㄹㅕㄴ	-13996
▁ㅂㅓㄹㅁㅗㄱ	-13997
▁ㅅㅣㄴㅅㅣㅁ	-13998
▁ㅇㅐㄴㅈㅔㄹ	-13999
▁ㅇㅑㄱㄱㅘㄴ	-14000
▁ㅈㅓㅇㅍㅕㅇ	-14001
▁ㅍㅡㄹㄹㅣㄴ	-14002
▁ㄴㅡㅇㄹㅕㄱㅈㅏ	-14003
▁ㅈㅜㅇㄴㅏㅁㅁㅣ	-14004
▁ㅊㅗㅇㅇㅣㄴㄱㅜ	-14005
ㄱㅓㅁㅊㅏㄹㅊㅓㅇ	-14006
▁ㄱㅏㅁㄷㅗㄱㄱㅘㄴ	-14007
▁ㅂㅜㄴㄷㅏㅇㅅㅓㄴ	-14008
▁ㅇㅠㄴㅂㅗㅇㄱㅣㄹ	-14009
ents	-14010
gram	-14011
▁LNG	-14012
▁URL	-14013
▁ㄲㅏㄱ	-14014
▁ㅊㅡㄹ	-14015
ㄷㅔㅇㅇㅣ	-14016
ㅁㅕㅇㄷㅗ	-14017
ㅅㅓㅇㄷㅐ	-14018
ㅇㅜㄱㄷㅓ	-14019
ㅇㅣㄹㅇㅣ	-14020
ㅈㅔㄹㄹㅏ	-14021
▁ㄷㅡㄹㄸㅡ	-14022
▁ㅇㅘㅇㅅㅏ	-14023
▁ㅌㅗㄹㄹㅔ	-14024
▁ㅎㅡㄱㄱㅣ	-14025
▁ㅎㅣㅁㅊㅏ	-14026
ㅇㅝㄹㄷㅗㅇ	-14027
▁ㄷㅔㄴㅂㅜㄴ	-14028
▁ㅎㅗㅇㅇㅕㅇ	-14029
▁ㅇㅗㄱㅊㅓㄴㄱㅜㄴ	-14030
▁ㅇㅘㄴㅈㅓㄴㅇㅕㄹ	-14031
gon	-14032
uss	-14033
ㅁㅏㅁ	-14034
▁dis	-14035
▁1822	-14036
ㄹㅓㅇㅋㅡ	-14037
ㅎㅏㄱㄱㅣ	-14038
ㅎㅡㅇㄱㅜ	-14039
▁Inter	-14040
▁Young	-14041
▁ㅁㅗㄱㅊㅗ	-14042
▁ㅅㅓㅇㅂㅣ	-14043
▁ㅇㅓㄺㅁㅐ	-14044
▁ㅇㅣㅍㄱㅕ	-14045
▁ㅍㅣㅇㄱㅓ	-14046
ㅁㅜㄹㄱㅘㄴ	-14047
ㅅㅗㄱㅅㅓㄴ	-14048
▁ㅂㅗㄹㅌㅓㄴ	-14049
▁ㅅㅏㅇㄹㅑㅇ	-14050
▁ㅇㅛㅇㄱㅏㅇ	-14051
▁ㅈㅏㅇㅍㅏㄴ	-14052
▁ㅍㅗㄱㅅㅓㄹ	-14053
▁ㅌㅗㅇㅇㅣㄹㅂㅜ	-14054
ㅅㅜㄴㅇㅑㅇㅎㅏㅁ	-14055
ㅇㅣㅁㅂㅓㄹㄹㅣㄴ	-14056
▁ㄱㅕㅇㅇㅕㅇㄴㅏㄴ	-14057
▁ㅅㅐㅇㅂㅏㅇㅅㅗㅇ	-14058
▁ㅇㅣㅁㅈㅣㄴㄱㅏㅇ	-14059
▁CI	-14060
▁246	-14061
▁TTC	-14062
ㄹㅡㄱㅅㅏ	-14063
ㅇㅣㄴㅎㅗ	-14064
ㅈㅣㄴㅅㅜ	-14065
ㅌㅏㅇㅅㅡ	-14066
▁Story	-14067
▁ㅁㅏㄴㄹㅜ	-14068
▁ㅅㅏㅇㅈㅘ	-14069
▁ㅇㅏㄹㅅㅡ	-14070
▁ㅋㅗㅁㅍㅡ	-14071
▁ㅍㅏㅅㅋㅐ	-14072
ㄱㅜㄱㅅㅣㅁ	-14073
▁Season	-14074
▁ㄱㅏㄹㅁㅏㅇ	-14075
▁ㅇㅕㄴㅁㅕㅇ	-14076
▁ㅈㅜㅇㅈㅓㅇ	-14077
▁ㅊㅏㅇㄱㅡㄱ	-14078
▁ㅎㅕㄹㄷㅏㅇ	-14079
▁ㄱㅣㅁㅈㅗㅇㅅㅓ	-14080
▁ㅅㅓㅇㅇㅏㄱㄱㅏ	-14081
▁ㅋㅡㄴㄱㅗㅁㅈㅏ	-14082
▁ㅌㅗㅇㅈㅓㅇㄷㅐ	-14083
▁ㅈㅓㄴㅇㅛㅇㅅㅓㄴ	-14084
li	-14085
SQL	-14086
▁Na	-14087
ㄴㄷㅣ	-14088
ㅅㅜㅍ	-14089
oman	-14090
▁251	-14091
▁307	-14092
▁403	-14093
▁PSV	-14094
▁Sur	-14095
▁ㅆㅏㄴ	-14096
lease	-14097
▁1018	-14098
▁1660	-14099
▁1770	-14100
ㄱㅕㅇㅅㅏ	-14101
ㄱㅣㄴㅅㅡ	-14102
ㅊㅜㄹㅁㅏ	-14103
▁ㄹㅐㅁㅈㅣ	-14104
▁ㅁㅜㅁㅂㅏ	-14105
▁ㅌㅓㄹㅇㅓ	-14106
▁ㅎㅏㄴㅅㅣ	-14107
▁ㅆㅏㅇㄱㅡㄱ	-14108
▁ㅇㅕㅆㅇㅓㅆ	-14109
▁ㅋㅣㄹㄹㅣㅇ	-14110
▁ㅎㅏㄴㄱㅕㄹ	-14111
by	-14112
ms	-14113
ㅆㅗ	-14114
mun	-14115
▁CB	-14116
▁Son	-14117
▁add	-14118
▁Spec	-14119
ㅁㅣㄹㄹㅗ	-14120
▁color	-14121
▁ㄴㅗㄹㄹㅣ	-14122
▁ㅅㅣㄹㄱㅣ	-14123
▁ㅅㅣㅁㅈㅐ	-14124
▁ㅎㅑㅇㅇㅠ	-14125
ㄱㅘㄴㅈㅏㅇ	-14126
▁ㄱㅏㅇㅈㅓㅇ	-14127
▁ㄱㅗㅇㅈㅣㄴ	-14128
▁ㅁㅜㄴㅁㅐㅇ	-14129
▁ㅂㅕㅇㅇㅑㄱ	-14130
▁ㅇㅑㅇㅂㅗㅇ	-14131
▁ㅇㅕㅁㅇㅝㄴ	-14132
▁ㅇㅕㅇㅇㅏㄴ	-14133
▁ㅇㅣㄹㅇㅣㄴ	-14134
▁ㅈㅣㄴㄱㅘㄴ	-14135
▁ㅌㅏㄹㅇㅕㅇ	-14136
▁ㄷㅏㅇㅈㅣㄴㅅㅣ	-14137
▁ㅊㅓㅇㄴㅕㄴㄱㅣ	-14138
▁ㅍㅕㅇㅅㅣㄴㄷㅗ	-14139
▁ㅁㅏㅈㅊㅜㅁㅂㅓㅂ	-14140
UB	-14141
VF	-14142
▁285	-14143
▁per	-14144
▁BEST	-14145
▁chem	-14146
ㅅㅏㅇㄷㅡ	-14147
ㅇㅝㄴㄹㅣ	-14148
ㅍㅗㄹㄷㅡ	-14149
▁ㄱㅔㄴㄹㅗ	-14150
▁ㅂㅜㄹㅍㅗ	-14151
▁ㅂㅣㄱㅅㅡ	-14152
▁ㅅㅏㅇㄹㅣ	-14153
▁ㅅㅗㅅㅇㅏ	-14154
ㅈㅏㄱㄱㅗㄱ	-14155
▁ㄱㅏㅇㄹㅗㄴ	-14156
▁ㄱㅜㄴㅇㅏㄱ	-14157
▁ㅁㅕㅇㅅㅣㄴ	-14158
▁ㅈㅜㅇㅇㅣㅁ	-14159
▁ㅂㅜㄴㄷㅏㅇㄱㅜ	-14160
▁ㅇㅣㄴㅊㅓㄴㅅㅣ	-14161
▁ㄴㅏㅁㅂㅜㄱㄱㅜㄱ	-14162
▁ㅁㅜㄴㅎㅏㄱㄱㅘㄴ	-14163
▁ㅂㅡㄹㄹㅐㄱㅂㅓㄴ	-14164
▁ㅇㅕㄴㄱㅡㅁㅅㅜㄹ	-14165
▁ㅎㅚㅇㅅㅓㅇㄱㅜㄴ	-14166
UE	-14167
ald	-14168
und	-14169
▁RB	-14170
▁1604	-14171
ㅅㅏㄴㅅㅏ	-14172
ㅅㅡㅁㄷㅗ	-14173
ㅎㅕㄱㄱㅏ	-14174
▁ㄴㅏㅇㅌㅡ	-14175
▁ㅁㅕㅇㄷㅐ	-14176
▁ㅂㅏㄴㅂㅜ	-14177
▁ㅎㅏㄴㄱㅏ	-14178
ㅅㅏㅁㄱㅜㄱ	-14179
ㅇㅠㄱㅈㅏㅇ	-14180
ㅇㅣㄴㅅㅓㄴ	-14181
ㅎㅏㄴㅅㅏㅇ	-14182
ㅎㅕㅇㅁㅜㄹ	-14183
▁ㄱㅜㄷㄱㅓㄴ	-14184
▁ㄴㅗㅇㅅㅏㅇ	-14185
▁ㄷㅏㄴㅇㅓㄴ	-14186
▁ㅅㅡㄹㄹㅣㅂ	-14187
▁ㅇㅝㄹㅅㅓㅇ	-14188
▁ㅇㅣㅂㄱㅓㄴ	-14189
▁ㅊㅓㅇㄷㅏㅁ	-14190
▁ㅌㅗㅇㄱㅏㅁㅂㅜ	-14191
ㅍㅡㄹㄹㅔㄱㅌㅣㄱ	-14192
▁ㅅㅏㅂㅇㅣㅂㄱㅗㄱ	-14193
▁ㅅㅓㅇㅈㅓㄴㅎㅘㄴ	-14194
▁ㅅㅣㅁㅍㅡㄹㄹㅔㄱㅌㅣㄱ	-14195
oon	-14196
ㄹㄹㅜ	-14197
▁274	-14198
ㄹㅡㅁㄴㅏ	-14199
ㅂㅔㄱㅈㅜ	-14200
ㅍㅓㄹㅅㅡ	-14201
▁ㄱㅘㅇㅇㅢ	-14202
▁ㄱㅡㅁㅅㅜ	-14203
▁ㅂㅗㅇㅌㅜ	-14204
▁ㅅㅏㄴㄹㅗ	-14205
▁ㅊㅏㅁㄷㅚ	-14206
▁ㅊㅜㅇㅎㅛ	-14207
▁ㅎㅐㅁㅂㅓ	-14208
ㄷㅣㅇㅌㅓㄴ	-14209
ㅇㅠㅅㄱㅏㅄ	-14210
▁ㄱㅓㄴㅇㅝㄴ	-14211
▁ㄷㅏㅇㄱㅡㄴ	-14212
▁ㅁㅏㄱㄹㅗㄴ	-14213
▁ㅁㅜㄱㅇㅣㄴ	-14214
▁ㅅㅓㄴㄱㅜㄱ	-14215
▁ㅈㅓㅇㅇㅠㄴ	-14216
▁ㅎㅏㄴㅇㅕㅇ	-14217
▁ㅂㅐㄱㅎㅕㄹㄱㅜ	-14218
▁ㅂㅜㄹㄱㅜㄱㅅㅏ	-14219
▁ㄱㅗㅇㅅㅗㄴㅊㅏㄴ	-14220
100	-14221
▁242	-14222
▁580	-14223
▁ㄷㅔㅁ	-14224
▁ㅅㅜㅊ	-14225
▁ㅈㅔㅇ	-14226
▁1519	-14227
▁Kiss	-14228
▁Last	-14229
ㄱㅕㄴㄷㅐ	-14230
ㅅㅏㄴㅈㅣ	-14231
ㅇㅞㄹㅅㅡ	-14232
ㅎㅕㅇㅅㅜ	-14233
▁ㄱㅓㅁㅅㅗ	-14234
▁ㄴㅗㅇㄱㅣ	-14235
▁ㅂㅔㄴㄷㅓ	-14236
▁ㅅㅓㄱㅈㅜ	-14237
ㅇㅣㄱㅎㅕㄴ	-14238
▁ㄱㅓㅁㅅㅜㄹ	-14239
▁ㄴㅏㅁㅇㅕㄴ	-14240
▁ㅂㅓㄴㅇㅏㄴ	-14241
▁ㅅㅣㄴㄱㅘㅇ	-14242
▁ㅇㅕㅇㅇㅣㄴ	-14243
▁ㅇㅗㅅㄱㅏㅁ	-14244
▁ㅈㅓㄱㄹㅣㅂ	-14245
▁American	-14246
▁ㄱㅗㅇㅂㅐㄱㄱㅣ	-14247
▁ㅂㅏㄹㅇㅝㄴㅈㅣ	-14248
▁ㅇㅣㄴㅌㅔㄹㄹㅣ	-14249
▁ㅈㅏㄱㅇㅛㅇㄱㅣ	-14250
▁ㅎㅏㄴㄱㅜㄱㅅㅏ	-14251
ㅅㅏㅁㄱㅏㄱㅎㅕㅇ	-14252
ㅎㅏㄱㅇㅝㄴㅅㅐㅇ	-14253
▁ㄱㅣㄴㅈㅏㅇㄱㅏㅁ	-14254
96	-14255
WC	-14256
ex	-14257
▁*/	-14258
▁HC	-14259
ends	-14260
izza	-14261
▁252	-14262
▁288	-14263
▁ㅈㅕㄴ	-14264
ㅅㅣㄹㅎㅣ	-14265
ㅊㅗㅇㅂㅜ	-14266
▁ㅅㅣㄴㅇㅗ	-14267
▁ㅇㅔㄴㄷㅗ	-14268
▁ㅇㅡㄴㅇㅠ	-14269
▁ㅈㅓㄴㄱㅏ	-14270
▁ㅊㅓㄴㅂㅜ	-14271
▁ㅌㅐㅇㄱㅗ	-14272
ㄱㅏㅇㅈㅓㄴ	-14273
ㅂㅏㄴㅇㅡㅇ	-14274
ㅂㅗㅇㄷㅗㅇ	-14275
ㅇㅓㅂㅈㅏㅇ	-14276
ㅌㅗㅇㅅㅣㄴ	-14277
▁ㄱㅕㄱㄴㅏㅂ	-14278
▁ㄸㅗㄱㄸㅗㄱ	-14279
▁ㅂㅗㅇㅎㅐㅇ	-14280
▁ㅇㅣㄹㅈㅓㄹ	-14281
▁ㅈㅜㅇㅌㅓㄱ	-14282
▁ㅌㅏㅁㅈㅣㄴ	-14283
▁ㄷㅗㄹㅍㅣㄴㅅㅡ	-14284
▁ㄲㅡㅀㄴㅡㄴㅈㅓㅁ	-14285
▁gl	-14286
ㅅㅗㅌ	-14287
▁ㅋㅝㄴ	-14288
ㅁㅏㄴㄷㅏ	-14289
ㅁㅗㄴㅌㅔ	-14290
ㅅㅐㄱㄱㅖ	-14291
▁ㄴㅏㄴㄹㅠ	-14292
▁ㄴㅡㅇㅎㅣ	-14293
▁ㄹㅗㄴㄷㅗ	-14294
▁ㅁㅏㄹㅊㅗ	-14295
▁ㅁㅐㄱㅂㅔ	-14296
▁ㅂㅔㄹㄹㅓ	-14297
▁ㅌㅗㅇㅉㅐ	-14298
ㄱㅕㅇㅇㅝㄴ	-14299
ㅂㅏㄹㅈㅓㅁ	-14300
▁ㄱㅏㄱㅊㅣㄱ	-14301
▁ㄱㅕㄹㅂㅏㅇ	-14302
▁ㄷㅗㅇㅈㅜㅇ	-14303
▁ㅂㅓㄹㅈㅣㅂ	-14304
▁ㅅㅖㅇㄱㅔㄴ	-14305
▁ㅈㅓㄴㅅㅐㅇ	-14306
▁ㄱㅣㄹㄷㅡㄹㅇㅣ	-14307
▁ㅁㅗㄱㅈㅓㄱㅇㅓ	-14308
▁ㅇㅡㄴㅅㅣㄴㅊㅓ	-14309
▁ㅎㅡㅇㄷㅓㄱㄱㅜ	-14310
▁ㅎㅐㅇㄹㅕㄹㅅㅣㄱ	-14311
ENT	-14312
▁346	-14313
▁1829	-14314
▁2025	-14315
ㄹㅣㄹㄹㅗ	-14316
ㅂㅏㅇㄷㅐ	-14317
ㅇㅔㄱㅅㅡ	-14318
▁ㄹㅜㄹㄹㅏ	-14319
▁ㅇㅕㄱㅅㅜ	-14320
▁ㅊㅓㅇㅅㅓ	-14321
ㅁㅣㄴㄱㅘㄴ	-14322
ㅊㅜㅇㅎㅓㄴ	-14323
▁ㅂㅗㅇㄱㅡㅂ	-14324
▁ㅅㅏㅇㅅㅜㄹ	-14325
▁ㅅㅣㅂㅇㅠㄱ	-14326
▁ㅇㅓㅇㄸㅜㅇ	-14327
▁ㅇㅕㅇㅂㅕㄴ	-14328
▁ㅋㅗㄹㄹㅗㅁ	-14329
▁ㅍㅕㅇㅈㅓㅁ	-14330
▁ㅂㅜㄴㅅㅓㄱㄱㅏ	-14331
▁ㅈㅜㅇㅅㅓㄴㄱㅓ	-14332
▁ㅎㅏㄴㄱㅜㄱㅇㅖ	-14333
▁ㅎㅘㄹㅇㅕㅂㅅㅜ	-14334
▁ㅎㅟㅂㅆㅡㄹㄹㅣ	-14335
ㅅㅜㄹㅈㅗㅇㅎㅏㅂ	-14336
▁ㅊㅓㅇㅇㅑㅇㄱㅜㄴ	-14337
▁ㅇㅏㄹㄹㅔㄱㅅㅏㅇㄷㅡ	-14338
ㅅㅜㄹㅈㅗㅇㅎㅏㅂㅎㅏㄱㄱㅛ	-14339
oul	-14340
▁JK	-14341
iter	-14342
▁930	-14343
▁1823	-14344
▁3500	-14345
ㅁㅏㄴㅎㅣ	-14346
ㅇㅜㄴㅈㅣ	-14347
▁Child	-14348
▁ㄱㅕㅇㅈㅗ	-14349
▁ㄱㅗㅇㅎㅓ	-14350
▁ㄹㅗㄱㄱㅘ	-14351
▁ㅈㅣㄹㅌㅏ	-14352
▁ㅊㅏㅁㅈㅣ	-14353
ㅅㅡㅇㄷㅏㄹ	-14354
ㅇㅑㅇㅁㅕㄴ	-14355
ㅊㅜㄱㅇㅣㄹ	-14356
▁ㄱㅕㅇㄱㅗㅇ	-14357
▁ㅁㅜㄹㅇㅡㅁ	-14358
▁ㅂㅜㄴㅅㅣㄴ	-14359
▁ㅌㅗㅇㄷㅏㄹ	-14360
▁ㅎㅘㄱㅈㅡㅇ	-14361
▁ㅈㅜㅇㅎㅏㅂㅊㅔ	-14362
▁ㄴㅏㅁㅈㅜㅇㄱㅜㄱㅎㅐ	-14363
yo	-14364
ㅇㅘㄱ	-14365
ould	-14366
▁615	-14367
▁EXO	-14368
▁1598	-14369
▁1610	-14370
▁long	-14371
▁temp	-14372
ㄱㅓㄹㅅㅡ	-14373
ㅅㅣㄹㅂㅏ	-14374
ㅌㅐㄱㄱㅏ	-14375
ㅍㅔㄱㅌㅓ	-14376
▁Party	-14377
▁ㅂㅔㄴㅈㅗ	-14378
▁ㅅㅐㄹㄹㅣ	-14379
▁ㅇㅏㄴㅈㅣ	-14380
▁ㅇㅡㅁㅍㅛ	-14381
▁ㅊㅐㅁㅂㅓ	-14382
▁ㅊㅓㅁㅈㅣ	-14383
▁ㅎㅔㄴㄷㅓ	-14384
▁ㅇㅏㄹㄹㅐㅇ	-14385
▁ㅇㅑㅇㄹㅣㅂ	-14386
▁ㅋㅓㄹㄹㅓㅁ	-14387
▁ㅌㅏㄹㅂㅜㄱ	-14388
▁ㅅㅏㅇㄷㅏㅇㄱㅜ	-14389
▁ㅇㅏㄴㄷㅏㄹㄹㅜ	-14390
ube	-14391
▁FP	-14392
▁GA	-14393
rown	-14394
▁Val	-14395
ATION	-14396
ㄴㅏㅁㄱㅗ	-14397
ㄹㅐㄱㅅㅡ	-14398
ㅁㅏㄴㄷㅗ	-14399
ㅋㅓㅅㅈㅜ	-14400
▁ㄹㅣㅇㄴㅔ	-14401
▁ㅂㅏㄱㄴㅗ	-14402
▁ㅇㅔㄹㅂㅔ	-14403
▁ㅍㅜㄹㅌㅏ	-14404
▁ㅎㅏㄴㄱㅣ	-14405
▁ㅎㅏㄴㄷㅜ	-14406
ㄹㅠㄱㅅㅓㅇ	-14407
ㅊㅐㄱㄱㅏㅁ	-14408
ㅋㅣㄱㅇㅡㄹ	-14409
ㅎㅏㄴㅁㅏㄹ	-14410
▁ㄱㅏㅇㅅㅏㄴ	-14411
▁ㄱㅜㄴㅈㅏㅇ	-14412
▁ㅅㅜㄴㅈㅣㄴ	-14413
▁ㅇㅣㄹㅊㅜㄱ	-14414
▁ㅈㅓㅁㅁㅏㄱ	-14415
▁ㅊㅓㄴㄷㅜㅇ	-14416
▁ㅌㅗㅇㅅㅓㄹ	-14417
▁ㄱㅏㄴㅅㅓㄴㄷㅗ	-14418
▁ㅁㅜㄴㄱㅕㅇㅅㅣ	-14419
▁ㅂㅏㄴㅇㅕㄱㅈㅏ	-14420
▁ㅇㅕㅇㄹㅏㄱㅈㅔ	-14421
▁ㅎㅜㄴㄹㅕㄴㄱㅣ	-14422
▁ㅈㅏㅇㅂㅏㅇㅎㅕㅇ	-14423
46	-14424
lus	-14425
iano	-14426
▁324	-14427
▁Cap	-14428
erson	-14429
▁1827	-14430
▁Core	-14431
▁ㄱㅏㅁㅂㅣ	-14432
▁ㅁㅔㄴㄷㅔ	-14433
▁ㅁㅗㄱㄱㅘ	-14434
▁ㅂㅏㄴㅅㅡ	-14435
▁ㅅㅣㄱㅊㅗ	-14436
▁ㅇㅘㄴㅊㅣ	-14437
▁ㅈㅓㅇㅇㅟ	-14438
▁ㅌㅐㄱㅂㅐ	-14439
▁ㅎㅗㅇㄱㅏ	-14440
▁ㅎㅜㄹㄹㅏ	-14441
ㅈㅗㅇㅅㅓㄱ	-14442
▁ㅇㅏㄱㅅㅓㅇ	-14443
▁ㅊㅓㄴㄷㅗㅇ	-14444
▁ㄱㅗㄱㅅㅓㅇㄱㅜㄴ	-14445
31	-14446
GL	-14447
SS	-14448
▁312	-14449
▁OBS	-14450
▁ㅁㅠㄹ	-14451
▁1689	-14452
▁PROD	-14453
ㄱㅡㅂㅈㅏ	-14454
▁ㄱㅏㅁㅂㅏ	-14455
▁ㄷㅔㄱㅅㅡ	-14456
▁ㅁㅕㅇㄱㅘ	-14457
▁ㅁㅗㄴㅌㅏ	-14458
▁ㅁㅣㄹㅍㅖ	-14459
▁ㅅㅓㅇㅁㅜ	-14460
▁ㅇㅣㅁㅆㅣ	-14461
▁ㅌㅡㄱㅁㅜ	-14462
▁ㅍㅏㄴㅈㅏ	-14463
ㅅㅏㄴㅂㅓㅂ	-14464
ㅇㅣㄹㄷㅗㅇ	-14465
ㅇㅣㅂㄱㅜㄱ	-14466
ㅈㅓㄱㅎㅏㅂ	-14467
ㅎㅐㅇㅈㅓㅇ	-14468
▁ㄱㅏㅇㅈㅣㄱ	-14469
▁ㄱㅗㅇㅁㅜㄴ	-14470
▁ㄱㅡㄴㅅㅣㄴ	-14471
▁ㄷㅏㅂㅅㅡㅂ	-14472
▁ㅅㅗㄴㅌㅗㅂ	-14473
▁ㅈㅏㅇㅅㅗㄴ	-14474
▁ㅈㅣㄹㅊㅐㄱ	-14475
ㄹㅣㅇㅍㅣㄹㄷㅡ	-14476
▁ㅇㅏㅁㅅㅏㄹㅈㅏ	-14477
▁ㅈㅜㅇㄹㅣㅂㄱㅜㄱ	-14478
▁ㅍㅏㄴㅁㅜㄴㅈㅓㅁ	-14479
ada	-14480
rib	-14481
ㄴㅡㄱ	-14482
ㅃㅜㅁ	-14483
ㅊㅗㅁ	-14484
arth	-14485
▁670	-14486
▁910	-14487
▁ㄴㅓㄴ	-14488
▁ㅍㅔㅁ	-14489
ㅅㅏㄴㅈㅐ	-14490
ㅇㅣㄹㄹㅔ	-14491
▁Radio	-14492
▁ㄱㅘㅇㄱㅜ	-14493
▁ㅁㅏㅇㅈㅜ	-14494
▁ㅂㅏㄱㄷㅐ	-14495
▁ㅇㅓㄹㅌㅣ	-14496
▁ㅇㅕㄴㄱㅐ	-14497
▁ㅈㅗㅇㅅㅗ	-14498
▁ㅋㅏㅁㅊㅏ	-14499
▁ㅎㅏㄴㅇㅢ	-14500
▁ㄱㅣㅁㅊㅐㄱ	-14501
▁ㅁㅕㄴㅊㅐㄱ	-14502
▁ㅁㅗㄱㄱㅗㅇ	-14503
▁ㅁㅜㄴㅅㅓㄴ	-14504
▁ㅅㅓㄱㄱㅘㄴ	-14505
▁ㅅㅣㄱㅇㅛㄱ	-14506
▁ㅈㅏㄱㅍㅜㅇ	-14507
▁ㅎㅕㅇㅍㅕㅇ	-14508
▁ㄱㅏㅇㅂㅜㄱㄱㅜ	-14509
▁ㅂㅓㅂㄹㅠㄹㄱㅏ	-14510
▁ㅎㅕㅂㄹㅕㄱㅈㅏ	-14511
▁ㅎㅏㅁㅍㅕㅇㄱㅜㄴ	-14512
ㅉㅜ	-14513
lad	-14514
▁GTX	-14515
▁NCAA	-14516
ㅅㅡㄴㅅㅡ	-14517
▁ㄷㅗㄱㅂㅗ	-14518
▁ㅂㅐㄱㄱㅣ	-14519
▁ㅇㅑㅇㄱㅗ	-14520
▁ㅊㅓㅇㅎㅐ	-14521
▁ㅍㅗㄹㅅㅡ	-14522
ㅇㅛㅇㅁㅜㄹ	-14523
ㅊㅏㅇㄷㅗㅇ	-14524
ㅎㅕㄴㅅㅏㅇ	-14525
▁ㄱㅏㅇㅅㅓㄴ	-14526
▁ㅈㅓㄱㄱㅜㄱ	-14527
▁ㅅㅣㄱㅂㅕㄹㅈㅏ	-14528
▁ㅋㅓㅁㅍㅐㄱㅌㅡ	-14529
▁ㅌㅏㄹㅂㅜㄱㅈㅏ	-14530
▁ㅎㅏㄴㅇㅑㅇㄷㅐ	-14531
▁ㄱㅕㅇㅈㅓㄴㅅㅓㄴ	-14532
▁ㅅㅏㅇㅎㅐㅇㅅㅓㄴ	-14533
KO	-14534
▁-"	-14535
▁GC	-14536
▁254	-14537
▁cle	-14538
▁ㄹㅓㅅ	-14539
▁ㅁㅔㅁ	-14540
▁1617	-14541
▁1624	-14542
▁1774	-14543
▁will	-14544
ㄷㅡㅁㅇㅣ	-14545
ㅅㅗㄱㅎㅘ	-14546
ㅎㅏㄴㅊㅔ	-14547
▁Trans	-14548
▁ㄱㅏㄱㄹㅠ	-14549
▁ㄷㅏㄴㅅㅣ	-14550
▁ㅁㅏㅇㄱㅗ	-14551
▁ㅇㅕㄴㅍㅛ	-14552
▁ㅍㅜㅇㅈㅗ	-14553
▁ㅎㅡㄱㅎㅐ	-14554
ㄹㅐㄴㅁㅏㄴ	-14555
ㅂㅏㅇㅅㅓㄴ	-14556
ㅈㅣㅂㄷㅏㄴ	-14557
▁ㄷㅏㄴㅁㅏㅅ	-14558
▁ㅂㅏㄴㅊㅜㄹ	-14559
▁ㅂㅏㅅㅈㅜㄹ	-14560
▁ㅅㅏㄴㄱㅗㄹ	-14561
▁ㅅㅣㄱㅅㅓㅇ	-14562
▁ㅎㅐㅇㅈㅏㅇ	-14563
▁National	-14564
▁ㅇㅣㄹㅇㅣㄹㅇㅣ	-14565
▁==	-14566
▁Hi	-14567
▁IG	-14568
▁Oh	-14569
obal	-14570
▁248	-14571
▁276	-14572
▁295	-14573
▁KNN	-14574
▁1413	-14575
ㄱㅡㄹㄹㅗ	-14576
ㅂㅔㄴㅌㅗ	-14577
ㅅㅣㅂㄹㅣ	-14578
ㅇㅡㄴㅎㅏ	-14579
▁ㄱㅏㅇㄱㅖ	-14580
▁ㅊㅏㅁㅎㅚ	-14581
▁ㅊㅓㄹㅈㅗ	-14582
▁ㅎㅘㅇㅇㅜ	-14583
ㅇㅏㄴㄱㅕㅇ	-14584
ㅇㅠㄱㅂㅓㅂ	-14585
▁ㄱㅣㅁㅈㅜㅇ	-14586
▁ㄴㅏㅁㅈㅜㅇ	-14587
▁ㅅㅣㅁㅊㅓㅇ	-14588
▁ㅇㅑㅇㅂㅗㄱ	-14589
▁ㅇㅕㅁㅂㅜㄴ	-14590
▁ㅊㅓㄴㅇㅣㄹ	-14591
▁ㅊㅗㅁㅊㅗㅁ	-14592
▁ㅎㅏㄱㅅㅏㄴ	-14593
▁ㅎㅕㄹㅈㅡㅇ	-14594
▁ㅅㅣㄹㅈㅡㅇㅈㅜ	-14595
LD	-14596
ERT	-14597
fer	-14598
▁Hy	-14599
▁JA	-14600
▁CSS	-14601
▁MiG	-14602
▁Som	-14603
ㄴㅣㅇㅅㅡ	-14604
ㅁㅏㄱㅇㅣ	-14605
ㅋㅏㄹㄹㅗ	-14606
▁David	-14607
▁ㄱㅘㄴㅂㅗ	-14608
▁ㅇㅣㄹㄲㅐ	-14609
ㄱㅗㅇㅇㅕㄴ	-14610
ㅇㅑㅇㅍㅜㅇ	-14611
ㅇㅛㅇㅇㅐㄱ	-14612
ㅈㅏㅇㄱㅜㄱ	-14613
▁ㄱㅓㅁㅁㅜㄴ	-14614
▁ㄲㅜㄹㅂㅓㄹ	-14615
▁ㅂㅏㅇㅂㅕㄱ	-14616
▁ㅂㅕㄴㅈㅓㄹ	-14617
▁ㅅㅓㅇㄱㅡㅁ	-14618
▁ㅎㅗㄹㄹㅡㅁ	-14619
ㅂㅏㅇㅈㅓㄴㅅㅓㄴ	-14620
▁ㅇㅕㄱㅈㅓㄴㅅㅡㅇ	-14621
▁ㅇㅣㅂㅎㅓㄴㄱㅜㄴㅈㅜ	-14622
▁NR	-14623
ㅂㅏㄼ	-14624
ㅍㅜㅅ	-14625
▁308	-14626
▁BGM	-14627
ㄴㅅㅕㄹ	-14628
▁0000	-14629
▁1750	-14630
▁News	-14631
▁Park	-14632
ㄱㅡㅁㅈㅏ	-14633
▁ㅁㅗㄱㅊㅏ	-14634
▁ㅁㅗㅁㅅㅗ	-14635
▁ㅇㅝㄴㅎㅚ	-14636
▁ㅎㅐㅇㅇㅢ	-14637
ㅎㅗㅇㅈㅏㅇ	-14638
▁ㄱㅗㄷㅈㅏㅇ	-14639
▁ㄱㅘㅇㅊㅓㄴ	-14640
▁ㅁㅏㄹㅅㅏㄹ	-14641
▁ㅂㅓㅂㅁㅕㅇ	-14642
▁ㅈㅏㄱㅂㅕㄹ	-14643
▁ㅈㅏㅇㅁㅜㄴ	-14644
▁ㅊㅓㅇㅎㅗㄴ	-14645
▁ㅍㅓㄴㄷㅣㅇ	-14646
▁ㅅㅣㄱㅁㅣㄴㅈㅜ	-14647
▁ㅇㅝㄹㄱㅏㄴㅈㅣ	-14648
▁ㅋㅏㄹㅂㅐㅇㅈㅜ	-14649
▁ㅊㅗㅇㅁㅕㄴㅈㅓㄱ	-14650
ift	-14651
raw	-14652
▁Kh	-14653
▁TW	-14654
ㅍㅐㅁ	-14655
ㅎㅔㅁ	-14656
ache	-14657
iful	-14658
▁241	-14659
▁581	-14660
▁VfL	-14661
▁ㄹㅠㅇ	-14662
cript	-14663
ember	-14664
press	-14665
▁Come	-14666
ㅅㅣㄱㅈㅜ	-14667
ㅎㅏㄴㄷㅡ	-14668
▁ㄴㅏㅁㄷㅏ	-14669
▁ㄴㅗㄱㅊㅏ	-14670
▁ㄷㅗㅇㅊㅗ	-14671
▁ㅁㅏㄴㅌㅗ	-14672
▁ㅅㅓㅇㅌㅓ	-14673
▁ㅇㅑㄱㅅㅗ	-14674
▁ㅈㅓㄱㅇㅟ	-14675
▁ㅌㅗㅁㅍㅡ	-14676
ㅈㅡㅇㅇㅣㄴ	-14677
ㅎㅏㄱㄷㅗㅇ	-14678
▁ㅇㅑㅇㅈㅜㄴ	-14679
▁ㅈㅗㅇㅇㅣㄴ	-14680
▁ㅈㅡㅇㄷㅡㄱ	-14681
▁ㅊㅜㄹㅇㅝㄴ	-14682
▁ㅁㅏㄹㄹㅣㄴㅅㅡ	-14683
▁ㅅㅣㄴㅊㅜㄴㅁㅜㄴㅇㅖ	-14684
mus	-14685
▁;-	-14686
ㅏㅇㅑ	-14687
ider	-14688
ruct	-14689
ters	-14690
▁269	-14691
▁299	-14692
▁SSG	-14693
▁maj	-14694
▁ㄴㅓㅅ	-14695
▁ㅍㅕㅁ	-14696
▁1758	-14697
▁Mach	-14698
▁cent	-14699
▁text	-14700
ㄱㅗㅂㅁㅣ	-14701
▁There	-14702
▁ㄱㅏㅇㅈㅜ	-14703
▁ㅁㅕㄴㅅㅏ	-14704
▁ㅅㅣㄹㄹㅜ	-14705
▁ㅇㅕㄱㅅㅔ	-14706
ㅅㅣㄴㄷㅗㅇ	-14707
ㅈㅜㅇㄹㅕㄱ	-14708
ㅋㅣㅇㅇㅓㅁ	-14709
▁PRODUC	-14710
▁ㄱㅜㄴㅊㅜㄱ	-14711
▁ㄱㅝㄴㅅㅣㄴ	-14712
▁ㄴㅏㅂㄷㅡㄱ	-14713
▁ㅂㅏㄴㅇㅝㄴ	-14714
▁ㅅㅔㄹㅌㅣㄱ	-14715
▁ㅅㅣㄴㅎㅗㄴ	-14716
▁ㅇㅑㅇㄱㅗㄴ	-14717
▁ㅇㅚㄴㅂㅏㄹ	-14718
▁ㅈㅓㄴㄹㅣㅂ	-14719
▁ㅈㅣㄹㅅㅣㄱ	-14720
ㅁㅏㅇㅇㅝㄴㄱㅕㅇ	-14721
▁ㅅㅓㅇㅅㅏㅁㅁㅜㄴ	-14722
LO	-14723
▁279	-14724
▁318	-14725
▁Del	-14726
▁JYP	-14727
earch	-14728
ㄱㅜㄱㅈㅏ	-14729
ㄷㅗㅇㅎㅐ	-14730
ㅎㅏㄴㄴㅔ	-14731
▁IDOLM	-14732
▁ㄷㅏㄴㄱㅏ	-14733
▁ㅃㅏㄹㅊㅣ	-14734
▁ㅅㅐㄱㄷㅏ	-14735
▁ㅇㅘㅇㄷㅐ	-14736
ㅇㅣㄹㄱㅏㅇ	-14737
▁ㄱㅓㄴㅂㅏㄴ	-14738
▁ㅂㅕㅇㅅㅏㅇ	-14739
▁ㅂㅗㅇㅅㅓㄴ	-14740
▁ㅇㅏㅇㅎㅔㄹ	-14741
▁ㅇㅘㄴㅂㅗㅇ	-14742
▁ㅈㅓㅁㄱㅡㄴ	-14743
▁ㅍㅗㄱㄹㅏㄱ	-14744
▁ㅍㅜㅇㄴㅕㄴ	-14745
ㅍㅕㅇㅈㅏㅇㅅㅏ	-14746
▁ㅂㅣㄴㅂㅓㄴㅎㅣ	-14747
▁ㅅㅏㅇㅊㅡㅇㅂㅜ	-14748
▁ㅅㅣㄴㅊㅓㄴㅈㅣ	-14749
▁ㅁㅗㄱㅇㅛㄱㅌㅏㅇ	-14750
sy	-14751
110	-14752
▁293	-14753
▁Ext	-14754
▁GPL	-14755
▁Que	-14756
▁und	-14757
▁1080	-14758
▁over	-14759
ㄷㅗㅇㅎㅘ	-14760
ㄷㅣㄱㅌㅡ	-14761
ㅂㅏㄹㄹㅜ	-14762
ㅂㅔㄱㅅㅡ	-14763
ㅅㅏㄴㅎㅐ	-14764
ㅍㅐㄴㅈㅣ	-14765
▁ㄴㅏㄱㅎㅜ	-14766
▁ㅁㅡㄹㄹㅏ	-14767
▁ㅅㅏㄴㅁㅗ	-14768
▁ㅅㅣㄴㅅㅡ	-14769
▁ㅇㅏㄹㅌㅡ	-14770
▁ㅇㅗㅇㄱㅣ	-14771
▁ㅌㅔㄹㅇㅏ	-14772
▁ㅍㅐㄴㄷㅓ	-14773
▁ㅎㅕㄴㅅㅔ	-14774
▁ㅎㅣㄹㄷㅔ	-14775
ㅍㅜㅁㅈㅣㄹ	-14776
▁ㅂㅐㄱㅅㅏㅇ	-14777
▁ㅇㅕㅇㄹㅡㅇ	-14778
▁ㅍㅜㅇㅁㅜㄹ	-14779
ㅁㅓㄴㅇㅞㄹㅅㅡ	-14780
▁ㅅㅓㄴㅈㅓㄴㄱㅘㄴ	-14781
VB	-14782
▁LE	-14783
ㅁㅔㅇ	-14784
▁Mot	-14785
▁TBN	-14786
bject	-14787
▁1603	-14788
▁Take	-14789
ㄷㅏㅇㅅㅓ	-14790
ㄷㅣㅇㄱㅓ	-14791
ㅂㅓㄴㅌㅡ	-14792
▁ㄱㅣㅁㅁㅜ	-14793
▁ㄷㅏㄹㄹㅔ	-14794
▁ㅇㅕㄱㄴㅐ	-14795
▁ㅈㅓㄴㅍㅐ	-14796
▁ㅍㅐㄱㅅㅡ	-14797
ㄴㅐㄴㅅㅕㄹ	-14798
▁ㄷㅗㅇㄷㅏㄴ	-14799
▁ㅂㅐㄱㅅㅓㄴ	-14800
▁ㅂㅓㄴㅈㅣㄴ	-14801
ㄹㅏㄴㅅㅣㄹㅂㅏ	-14802
▁ㅁㅏㅇㅅㅓㄹㅇㅣ	-14803
▁ㅈㅣㅂㅎㅐㅇㅂㅜ	-14804
▁ㅊㅣㅁㅍㅐㄴㅈㅣ	-14805
▁ㅊㅗㅇㅇㅕㄴㅈㅏㅇ	-14806
HA	-14807
INE	-14808
ets	-14809
ㅍㅏㅁ	-14810
▁ㄸㅡㅁ	-14811
▁1506	-14812
▁ㄱㅏㅄㅆㅏ	-14813
▁ㄴㅗㄱㅇㅏ	-14814
▁ㅂㅜㅁㅂㅣ	-14815
▁ㅅㅏㄱㄱㅘ	-14816
▁ㅅㅕㄹㄹㅣ	-14817
▁ㅇㅝㄴㅈㅚ	-14818
ㅇㅕㄴㅂㅓㅂ	-14819
ㅎㅐㅇㄱㅐㄱ	-14820
▁ㄷㅟㅅㅅㅏㄴ	-14821
▁ㄸㅡㅅㅂㅏㄲ	-14822
▁ㅁㅜㄴㅇㅣㄱ	-14823
▁ㅅㅓㄱㅇㅕㅇ	-14824
▁ㅇㅘㄴㅅㅡㅇ	-14825
▁ㅎㅏㄴㅅㅣㄱ	-14826
▁ㄱㅣㅁㅈㅏㅇㅅㅐㅇ	-14827
▁BA	-14828
▁335	-14829
▁405	-14830
▁ITV	-14831
▁Lin	-14832
▁ㄹㅜㅂ	-14833
ㄹㅏㅇㅅㅣ	-14834
ㅂㅜㄴㅅㅜ	-14835
▁Songs	-14836
▁ㅇㅜㄴㅈㅜ	-14837
▁ㅈㅏㅇㅇㅓ	-14838
▁ㅋㅔㄴㅈㅣ	-14839
▁ㅌㅏㄱㅈㅏ	-14840
▁ㅍㅏㄴㄱㅘ	-14841
ㄹㅡㄴㅍㅏㄹ	-14842
▁ㄴㅏㅁㅈㅓㅇ	-14843
▁ㅁㅏㄱㅅㅣㅁ	-14844
▁ㅁㅣㄴㅂㅏㅇ	-14845
▁ㅂㅕㄴㅊㅣㄱ	-14846
▁ㅅㅏㄴㅊㅓㄴ	-14847
▁ㅇㅏㄹㅅㅓㄴ	-14848
▁ㅇㅜㅇㅂㅕㄴ	-14849
▁ㅈㅓㄴㅇㅕㄴ	-14850
▁ㄱㅕㅇㅈㅓㄴㅊㅏ	-14851
▁ㅅㅣㄴㅈㅓㅇㅂㅜ	-14852
▁ㅅㅣㄹㅇㅓㅂㅈㅏ	-14853
ㅂㅜㄴㅈㅣㅂㅎㅏㅂ	-14854
▁ㅅㅏㄹㅇㅣㄴㅂㅓㅁ	-14855
▁ㅇㅕㅇㅅㅏㅇㅁㅜㄹ	-14856
ga	-14857
▁BN	-14858
▁272	-14859
▁351	-14860
▁490	-14861
▁525	-14862
▁1618	-14863
▁1786	-14864
▁Work	-14865
ㅂㅓㅂㅅㅗ	-14866
ㅂㅣㄴㅊㅣ	-14867
ㅊㅜㄱㅈㅔ	-14868
ㅍㅏㄹㅌㅡ	-14869
▁ㄹㅣㄴㅈㅣ	-14870
▁ㅂㅐㄱㅎㅗ	-14871
▁ㅂㅓㅁㅍㅓ	-14872
▁ㅅㅏㄹㄹㅗ	-14873
▁ㅅㅣㄴㅅㅓ	-14874
▁ㅅㅣㄴㅌㅐ	-14875
▁ㅈㅓㅇㅇㅣ	-14876
ㅇㅓㅂㄷㅏㄴ	-14877
▁ㄱㅕㄹㅈㅓㄹ	-14878
▁ㅁㅜㄹㅁㅏㅇ	-14879
▁ㅂㅗㄲㅇㅡㅁ	-14880
▁ㅂㅜㄴㄷㅗㅇ	-14881
▁ㅅㅓㅇㄱㅘㄴ	-14882
▁ㅅㅏㅁㅂㅕㄹㅊㅗ	-14883
▁ㅎㅡㅂㅎㅕㄹㄱㅟ	-14884
▁ㅊㅜㄹㅅㅏㄴㅇㅠㄹ	-14885
▁ㄷㅗㄱㄹㅣㅂㅅㅣㄴㅁㅜㄴ	-14886
▁TT	-14887
▁JAP	-14888
▁TNT	-14889
▁Club	-14890
ㅇㅕㅇㅎㅢ	-14891
▁ㅁㅕㄹㅎㅏ	-14892
▁ㅂㅏㄱㄱㅠ	-14893
▁ㅅㅣㄹㄹㅓ	-14894
▁ㅈㅏㅇㄴㅐ	-14895
▁ㅊㅣㄴㅂㅜ	-14896
▁ㅎㅗㄴㄹㅖ	-14897
ㄱㅗㅇㅈㅓㅇ	-14898
ㅅㅜㄱㅇㅘㅇ	-14899
ㅅㅡㅇㅇㅕㅂ	-14900
ㅎㅕㄴㅅㅣㄱ	-14901
▁ㄱㅕㅇㄹㅕㄴ	-14902
▁ㄱㅝㄴㅅㅗㄱ	-14903
▁ㄱㅡㅁㅇㅕㄴ	-14904
▁ㅅㅏㅇㅇㅘㅇ	-14905
▁ㅅㅐㅇㄷㅗㅇ	-14906
▁ㅅㅓㄴㅁㅏㅇ	-14907
▁ㅇㅏㅁㅁㅜㄱ	-14908
▁ㅇㅣㅁㅊㅓㄴ	-14909
ㅂㅓㄹㄹㅐㄴㄷㅡ	-14910
▁ㅅㅐㄴㅇㅏㄴㅌㅗ	-14911
▁ㄷㅗㅇㄱㅡㅂㅅㅐㅇ	-14912
▁ㅈㅏㅇㅎㅏㄱㅅㅐㅇ	-14913
▁ㅊㅜㅇㅅㅜㄱㅇㅘㅇ	-14914
▁ㅇㅚㄴㅅㅗㄴㅈㅏㅂㅇㅣ	-14915
▁421	-14916
▁USD	-14917
▁rem	-14918
▁1050	-14919
▁1718	-14920
▁cont	-14921
ㄱㅜㄴㅅㅏ	-14922
ㅈㅏㅇㄱㅛ	-14923
▁ㄷㅔㄹㄹㅗ	-14924
▁ㅇㅏㅍㄷㅏ	-14925
▁ㅇㅕㄴㄱㅏ	-14926
▁ㅇㅕㅇㅁㅛ	-14927
▁ㅇㅜㄴㅌㅡ	-14928
▁ㅇㅣㄹㄹㅜ	-14929
▁ㅈㅏㅇㅈㅐ	-14930
▁ㅈㅓㅇㄱㅏ	-14931
▁ㅈㅓㅇㅆㅣ	-14932
▁ㅍㅏㄹㅁㅏ	-14933
ㅈㅜㅇㅅㅣㅁ	-14934
▁ㄱㅗㅇㄴㅏㅂ	-14935
▁ㄱㅜㄱㅇㅡㄹ	-14936
▁ㄱㅜㄴㄱㅜㄱ	-14937
▁ㅊㅜㅇㅁㅏㄴ	-14938
▁ㅌㅏㄹㄹㅣㄴ	-14939
▁ㅍㅐㄴㅌㅐㄱ	-14940
▁ㄱㅡㄴㅎㅕㄴㄷㅐ	-14941
▁ㅎㅓㄴㅂㅕㅇㄷㅐ	-14942
▁Microsoft	-14943
35	-14944
121	-14945
▁go	-14946
ious	-14947
▁HBO	-14948
▁1614	-14949
▁1650	-14950
▁Band	-14951
ㄱㅓㄹㄹㅣ	-14952
ㄱㅕㄱㄱㅣ	-14953
ㅂㅓㄱㅈㅣ	-14954
ㅂㅡㄹㅇㅠ	-14955
ㅊㅗㅇㅅㅏ	-14956
▁ㄷㅏㅂㅅㅏ	-14957
▁ㅂㅜㄹㄱㅡ	-14958
▁ㅋㅓㄹㅌㅡ	-14959
▁ㅎㅕㅂㅅㅗ	-14960
▁ㅎㅕㅂㅅㅣ	-14961
▁ㅎㅗㄹㅌㅡ	-14962
ㅈㅓㅇㅁㅣㄴ	-14963
▁ㅁㅏㅈㅇㅡㄴ	-14964
▁ㅂㅏㅇㅍㅕㄴ	-14965
▁ㅂㅐㄱㄱㅜㄴ	-14966
▁ㅇㅕㅇㅌㅗㅇ	-14967
▁ㅇㅣㄱㄹㅛㅇ	-14968
▁ㅈㅜㅇㅈㅡㅇ	-14969
▁ㄱㅗㅇㄷㅗㅇㅁㅛ	-14970
▁ㅈㅗㅇㅁㅗㄱㅂㅕㄹ	-14971
pl	-14972
ㄲㅜㅂ	-14973
ㄸㅡㄱ	-14974
▁WOR	-14975
ㄹㅔㄱㅅㅡ	-14976
ㅇㅑㅇㄹㅣ	-14977
ㅈㅏㅇㅈㅣ	-14978
▁ㄱㅝㄴㅈㅔ	-14979
▁ㄴㅏㅁㅇㅜ	-14980
▁ㄹㅏㅂㅂㅣ	-14981
▁ㅂㅜㄱㅅㅡ	-14982
▁ㅅㅠㄹㅊㅡ	-14983
▁ㅇㅣㅁㅈㅏ	-14984
▁ㅎㅣㄴㄷㅣ	-14985
ㅇㅣㅁㄷㅏㅇ	-14986
▁ㅊㅓㄹㅇㅣㄴ	-14987
▁ㅌㅗㅇㅍㅜㅇ	-14988
ㅇㅣㄴㄹㅏㄴㅌㅡ	-14989
▁ㅅㅐㅇㅎㅘㄹㅂㅣ	-14990
▁ㅊㅓㄹㄱㅘㅇㅅㅓㄱ	-14991
▁ㅌㅗㅇㄱㅡㄴㅇㅕㄹㅊㅏ	-14992
IME	-14993
▁XL	-14994
▁Fly	-14995
▁ㅅㅗㅂ	-14996
▁1785	-14997
▁Boys	-14998
▁NADP	-14999
ㅇㅕㅇㄱㅜ	-15000
▁ㄹㅐㄹㅍㅡ	-15001
▁ㄹㅗㄹㄹㅏ	-15002
▁ㅅㅓㄹㅍㅏ	-15003
▁ㅇㅏㄹㄱㅏ	-15004
▁ㅊㅓㅁㅅㅏ	-15005
▁ㅋㅜㄹㄹㅏ	-15006
▁ㅂㅕㅇㅇㅛㅇ	-15007
▁ㅅㅏㅇㅎㅕㅇ	-15008
▁ㅅㅜㄴㄱㅕㄹ	-15009
▁ㅈㅜㅇㅎㅐㄱ	-15010
▁ㅈㅣㄴㄱㅕㅇ	-15011
▁ㅊㅡㄱㅅㅓㄴ	-15012
▁ㅎㅘㅇㅈㅣㄴ	-15013
▁ㄴㅗㄱㄴㅡㄴㅈㅓㅁ	-15014
▁ㅅㅜㄴㅊㅏㅇㄱㅜㄴ	-15015
▁ㅍㅕㄴㅈㅣㅂㅇㅣㄴ	-15016
PER	-15017
▁BD	-15018
▁KA	-15019
▁LM	-15020
▁730	-15021
▁ㄱㅚㅇ	-15022
ㅇㅛㅇㅎㅐ	-15023
ㅇㅡㅁㄱㅣ	-15024
▁ㄱㅏㅁㄷㅗ	-15025
▁ㅅㅣㄴㅇㅏ	-15026
▁ㅈㅗㅇㅅㅜ	-15027
▁ㅍㅕㄴㅁㅣ	-15028
▁ㅍㅕㄴㅇㅣ	-15029
ㄷㅗㄷㅇㅜㅁ	-15030
ㅅㅣㄹㄹㅣㄴ	-15031
ㅇㅓㄴㅈㅏㅇ	-15032
ㅇㅕㄹㅇㅘㅇ	-15033
ㅇㅕㅇㅎㅜㄴ	-15034
ㅇㅣㄹㄹㅓㄴ	-15035
▁ㅁㅕㅇㅈㅓㅇ	-15036
▁ㅁㅜㄴㄷㅗㅇ	-15037
▁ㅁㅜㄴㅇㅘㅇ	-15038
▁ㅅㅐㅇㅇㅠㄱ	-15039
▁ㅅㅐㅇㅎㅏㅂ	-15040
▁ㅅㅑㄹㄹㅗㅅ	-15041
▁ㅇㅠㄱㅅㅣㄴ	-15042
▁ㅊㅓㄴㄱㅜㅇ	-15043
▁ㅌㅡㄱㅈㅣㄹ	-15044
▁ㅎㅘㅇㄱㅜㄱ	-15045
▁ㅇㅕㅇㅇㅓㅂㅅㅗ	-15046
▁ㅇㅣㅁㅅㅏㄴㅂㅜ	-15047
▁ㄱㅓㄴㅊㅜㄱㅎㅏㄱ	-15048
▁ㄱㅣㅁㅅㅓㅇㄱㅡㄴ	-15049
▁ㅍㅗㄱㅂㅏㄹㄹㅕㄱ	-15050
48	-15051
ICA	-15052
put	-15053
▁UM	-15054
▁870	-15055
▁Mad	-15056
▁Max	-15057
▁jpg	-15058
▁ㄹㅖㄴ	-15059
▁ㅃㅗㅁ	-15060
ㄹㅏㅇㅊㅐ	-15061
ㅁㅜㅇㅊㅣ	-15062
ㅅㅏㅇㄷㅐ	-15063
ㅈㅏㅇㅊㅣ	-15064
ㅊㅜㅇㅈㅔ	-15065
▁major	-15066
▁ㄱㅜㄹㅈㅣ	-15067
▁ㄴㅏㅁㅈㅔ	-15068
▁ㄷㅡㄹㅋㅣ	-15069
▁ㅅㅏㅇㅈㅣ	-15070
▁ㅈㅏㅇㄱㅖ	-15071
▁ㅋㅏㄱㅌㅔ	-15072
ㅇㅜㄹㄹㅣㅁ	-15073
▁ㄱㅗㅇㅇㅓㄴ	-15074
▁ㄱㅘㄴㅈㅏㄱ	-15075
▁ㄱㅜㄱㅇㅝㄴ	-15076
▁ㅂㅏㄱㅅㅓㄴ	-15077
▁ㅅㅣㄴㅇㅣㄹ	-15078
▁ㄱㅕㅇㅊㅏㄹㄷㅐ	-15079
▁ㅈㅓㄱㄷㅏㅇㅎㅣ	-15080
▁ㅊㅜㄹㅅㅣㄴㅈㅏ	-15081
▁ㅂㅜㄱㄱㅡㄱㅅㅓㅇ	-15082
▁ㅅㅐㅇㅅㅏㄴㅍㅜㅁ	-15083
▁ㅌㅗㅇㅊㅏㄹㄹㅕㄱ	-15084
ti	-15085
III	-15086
▁HN	-15087
▁MF	-15088
ving	-15089
▁258	-15090
▁Mind	-15091
▁Want	-15092
ㅅㅔㄴㅌㅔ	-15093
▁ㄴㅏㅁㅇㅟ	-15094
▁ㅁㅗㄱㅅㅜ	-15095
▁ㅂㅗㅇㅈㅣ	-15096
▁ㅅㅓㄴㄴㅕ	-15097
▁ㅅㅣㄹㅅㅔ	-15098
▁ㅇㅠㄱㄹㅗ	-15099
▁ㅇㅣㄹㄹㅗ	-15100
▁ㅊㅓㅇㅇㅓ	-15101
▁ㅊㅗㄴㅇㅢ	-15102
▁ㅍㅔㅂㅅㅣ	-15103
ㄱㅕㄹㄱㅝㄴ	-15104
▁ㅅㅓㅁㅈㅣㄴ	-15105
▁ㅅㅜㄱㅈㅓㄱ	-15106
▁ㅈㅓㅂㅈㅓㅁ	-15107
▁ㅈㅣㄴㅊㅓㄱ	-15108
▁ㅍㅡㄹㄹㅣㅂ	-15109
▁ㄷㅓㄱㅎㅡㅇㄷㅐ	-15110
▁ㅂㅏㄷㅊㅣㅁㄷㅐ	-15111
▁ㅁㅏㅈㅇㅡㄴㅍㅕㄴ	-15112
▁ㅈㅓㄴㅁㅜㄴㅈㅓㅁ	-15113
▁Cat	-15114
▁Dec	-15115
▁Kid	-15116
▁Say	-15117
▁log	-15118
ㄷㅡㄱㅇㅣ	-15119
ㄷㅡㅇㅇㅓ	-15120
ㅈㅓㄴㅈㅔ	-15121
ㅎㅏㄴㅎㅚ	-15122
▁ㄱㅕㅇㅁㅣ	-15123
▁ㄴㅗㄴㅇㅓ	-15124
▁ㅁㅏㄴㅎㅚ	-15125
▁ㅂㅐㄱㅅㅓ	-15126
▁ㅅㅓㄱㅂㅣ	-15127
▁ㅅㅓㄴㅇㅢ	-15128
▁ㅅㅓㅇㅅㅗ	-15129
▁ㅇㅏㄱㅅㅜ	-15130
▁ㅈㅏㅇㄱㅏ	-15131
▁ㅊㅏㅁㅍㅏ	-15132
ㄱㅗㅇㄷㅏㄴ	-15133
ㅁㅐㅇㄱㅜㄱ	-15134
▁ㄱㅏㄱㄱㅡㅂ	-15135
▁ㄱㅏㅁㅅㅣㄹ	-15136
▁ㄱㅜㄱㅊㅐㄱ	-15137
▁ㄴㅏㅁㅇㅏㄴ	-15138
▁ㅅㅜㄴㄱㅕㅇ	-15139
▁ㅇㅕㅇㄷㅏㅇ	-15140
▁ㅌㅗㅇㄱㅗㄱ	-15141
▁ㅎㅕㄹㅈㅓㄴ	-15142
▁ㅂㅏㄹㄷㅗㄷㅇㅜㅁ	-15143
▁OO	-15144
▁EFL	-15145
▁NFL	-15146
ㄴㅏㄴㅊㅓ	-15147
ㅍㅣㅇㅋㅡ	-15148
▁Count	-15149
▁ㅁㅕㄹㅅㅣ	-15150
▁ㅁㅗㄱㅁㅏ	-15151
▁ㅁㅗㅇㅌㅔ	-15152
▁ㅈㅏㅂㅎㅕ	-15153
▁ㅊㅏㅇㅎㅗ	-15154
▁ㅊㅓㄴㅂㅗ	-15155
▁ㅍㅏㄱㅅㅡ	-15156
▁ㅍㅜㄹㄹㅓ	-15157
▁ㅍㅜㅁㅇㅟ	-15158
ㅅㅓㅇㅇㅡㅁ	-15159
▁Street	-15160
▁ㄱㅗㄴㅈㅏㄹ	-15161
▁ㄱㅘㄴㄷㅡㅇ	-15162
▁ㄱㅜㄴㅅㅣㄴ	-15163
▁ㄴㅏㅁㅍㅕㅇ	-15164
▁ㅅㅏㄴㅈㅓㄴ	-15165
▁ㅅㅓㄱㅅㅓㅇ	-15166
▁ㅅㅓㅁㅇㅣㄴ	-15167
▁ㅅㅣㄹㅎㅕㅇ	-15168
▁ㅅㅣㅁㅅㅓㅇ	-15169
▁ㅇㅑㅇㅁㅏㄹ	-15170
▁ㅈㅏㅇㅎㅕㅇ	-15171
▁ㅇㅣㄴㅈㅡㅇㅅㅓ	-15172
FF	-15173
ㅁㅚ	-15174
sch	-15175
▁TOK	-15176
▁ㅅㅠㅇ	-15177
ㄴㅔㄱㅌㅓ	-15178
ㄹㅣㅂㅅㅡ	-15179
ㅂㅐㅇㅇㅣ	-15180
ersion	-15181
▁JAPAN	-15182
▁ㄱㅏㄴㅅㅔ	-15183
▁ㄱㅡㅁㅅㅔ	-15184
▁ㅇㅣㅁㅍㅣ	-15185
▁ㅈㅓㄴㄱㅖ	-15186
▁ㅌㅜㄹㄹㅏ	-15187
▁ㅎㅏㅂㅈㅜ	-15188
▁ㅎㅐㅁㅅㅡ	-15189
▁ㅎㅑㅇㅅㅏ	-15190
ㅅㅡㄹㄹㅣㄴ	-15191
▁ㄱㅘㄴㅂㅗㄱ	-15192
▁ㄱㅜㄴㅇㅕㅇ	-15193
▁ㅁㅏㄴㅁㅣㄴ	-15194
▁ㅂㅏㄴㅊㅏㄴ	-15195
▁ㅅㅣㅁㅂㅓㄹ	-15196
▁ㅇㅜㄴㄴㅏㅁ	-15197
▁ㅈㅏㅇㅅㅏㄴ	-15198
▁ㅈㅓㅇㅂㅏㅇ	-15199
▁ㅈㅓㅇㅂㅓㅂ	-15200
▁ㅈㅗㅇㅈㅜㅇ	-15201
▁ㅎㅐㅇㅅㅣㄹ	-15202
▁ㅎㅕㄹㅈㅜㅇ	-15203
▁ㄱㅓㄴㅊㅜㄱㅅㅏ	-15204
▁ㅅㅓㄴㄷㅓㄱㅇㅕ	-15205
▁ㅅㅣㄴㅅㅗㄱㅎㅣ	-15206
▁ㅅㅣㄴㅊㅓㅇㅅㅓ	-15207
▁ㅇㅐㄹㄹㅣㄱㅅㅡ	-15208
▁ㅅㅣㅂㅈㅣㄴㅂㅓㅂ	-15209
▁ㅈㅓㅇㅅㅣㄴㅂㅕㅇ	-15210
▁mi	-15211
▁Sal	-15212
▁one	-15213
▁1781	-15214
▁Feel	-15215
▁Hard	-15216
▁Perf	-15217
ㅇㅔㄴㅌㅔ	-15218
ㅇㅣㄴㅇㅐ	-15219
▁ㄱㅓㄴㄷㅐ	-15220
▁ㄴㅏㅁㅇㅗ	-15221
▁ㅁㅏㅈㅎㅣ	-15222
▁ㅇㅏㅁㅌㅡ	-15223
▁ㅇㅠㄱㅅㅜ	-15224
▁ㅇㅡㅁㄷㅐ	-15225
▁ㅇㅣㅁㅎㅐ	-15226
▁ㅈㅣㅂㅇㅛ	-15227
▁ㅊㅜㄹㄱㅗ	-15228
ㄱㅏㄱㄱㅏㄱ	-15229
ㅂㅏㅇㅇㅏㅁ	-15230
ㅌㅗㅇㅁㅏㅇ	-15231
▁ㄱㅕㅇㄷㅗㅇ	-15232
▁ㄱㅜㄴㅂㅓㅂ	-15233
▁ㄴㅏㅇㅇㅣㄴ	-15234
▁ㄷㅗㄹㄹㅣㅁ	-15235
▁ㄷㅗㅇㄱㅘㅇ	-15236
▁ㄹㅗㅁㅁㅔㄹ	-15237
▁ㅂㅜㄴㅎㅗㅇ	-15238
▁ㅂㅜㅇㄷㅏㅇ	-15239
▁ㅅㅏㅇㄴㅑㅇ	-15240
▁ㅇㅑㅇㅁㅣㄴ	-15241
▁ㅇㅗㄹㅅㅡㄴ	-15242
▁ㅊㅓㄴㅁㅣㄴ	-15243
▁ㅊㅓㄴㅅㅣㄱ	-15244
▁ㅂㅗㅇㅇㅡㄴㅅㅏ	-15245
▁ㅆㅏㅇㄱㅡㄱㅈㅏ	-15246
▁ㅊㅏㅇㄱㅕㅇㄱㅜㅇ	-15247
▁ㄷㅗㄱㄹㅣㅂㅅㅓㄴㅇㅓㄴㅅㅓ	-15248
une	-15249
▁Cy	-15250
ㅎㅠㄹ	-15251
edia	-15252
ular	-15253
▁259	-15254
▁ㅆㅏㅁ	-15255
ㅈㅏㄴㄷㅣ	-15256
▁while	-15257
▁ㄱㅏㅂㅅㅏ	-15258
▁ㄱㅜㄴㅈㅔ	-15259
▁ㄴㅏㄴㅊㅗ	-15260
▁ㅂㅣㄴㅂㅜ	-15261
▁ㅅㅓㄱㄱㅗ	-15262
▁ㅇㅕㅁㅇㅗ	-15263
▁ㅇㅠㄱㄱㅖ	-15264
▁ㅈㅓㄴㅇㅢ	-15265
▁ㅍㅏㄹㅊㅡ	-15266
▁ㅍㅗㄴㅌㅔ	-15267
ㅈㅏㅇㄱㅠㄴ	-15268
ㅈㅣㄱㅂㅓㅂ	-15269
ㅌㅣㅇㅇㅓㅁ	-15270
▁ㄱㅕㅇㅈㅓㅇ	-15271
▁ㄴㅓㄱㄴㅓㄱ	-15272
▁ㅁㅗㅁㄷㅏㅁ	-15273
▁ㅂㅏㅁㄴㅏㅈ	-15274
▁ㅅㅏㅇㅂㅗㄱ	-15275
▁ㅅㅣㅁㅇㅑㅇ	-15276
▁ㅇㅕㅇㅅㅐㅇ	-15277
▁ㅇㅣㄴㄷㅓㄱ	-15278
▁ㅇㅣㄴㅇㅑㅇ	-15279
▁ㅈㅓㅇㄱㅏㄴ	-15280
▁ㅊㅗㅇㅇㅕㄹ	-15281
▁ㅊㅜㄹㅇㅗㄱ	-15282
▁ㅎㅗㅇㅈㅗㅇ	-15283
ㅋㅡㄹㄹㅔㄴㅂㅜ	-15284
▁ㅅㅣㄹㅎㅏㄱㅈㅏ	-15285
▁ㅇㅏㅁㅎㅐㅇㅇㅓ	-15286
ㅂㅏㄱㅁㅜㄹㄱㅘㄴ	-15287
▁ㅈㅐㅇㅌㅏㄹㅈㅓㄴ	-15288
oot	-15289
ula	-15290
▁was	-15291
▁1590	-15292
ㄷㅏㅁㅅㅡ	-15293
ㅇㅣㄴㅎㅘ	-15294
▁ㄷㅗㅇㄷㅗ	-15295
▁ㅍㅓㄹㅍㅡ	-15296
▁Instit	-15297
▁ㅁㅣㄹㅈㅣㄱ	-15298
▁ㅇㅔㄱㅅㅔㄹ	-15299
▁ㅈㅏㅇㅇㅠㄴ	-15300
▁ㅈㅣㅇㅂㅓㄹ	-15301
ㅅㅜㅇㄹㅗㄱㄷㅐ	-15302
▁ㄱㅡㅁㅊㅓㄴㄱㅜ	-15303
▁ㅈㅜㅇㄹㅕㄱㅈㅏㅇ	-15304
▁ㅎㅜㄴㄹㅕㄴㅇㅝㄴ	-15305
SA	-15306
▁BE	-15307
▁cl	-15308
ㅇㅘㄹ	-15309
ense	-15310
▁fis	-15311
▁ㄴㅓㄳ	-15312
ㅈㅓㅇㄱㅓ	-15313
ㅈㅓㅇㅅㅣ	-15314
▁Break	-15315
▁ㄱㅓㅁㅈㅣ	-15316
▁ㄱㅔㄴㄴㅏ	-15317
▁ㄹㅐㅂㅍㅓ	-15318
▁ㅂㅐㄴㄷㅓ	-15319
▁ㅂㅕㅇㅁㅜ	-15320
▁ㅃㅏㄹㅇㅏ	-15321
▁ㅅㅗㄱㄹㅣ	-15322
▁ㅇㅛㅇㄹㅖ	-15323
▁ㅇㅟㄴㅊㅔ	-15324
▁ㅊㅏㅇㄱㅏ	-15325
▁ㅊㅣㅇㅎㅘ	-15326
▁ㅎㅘㅇㅅㅏ	-15327
ㅇㅕㄹㄷㅏㄴ	-15328
▁ㄴㅣㄹㅅㅡㄴ	-15329
▁ㅁㅏㅇㄱㅏㄱ	-15330
▁ㅊㅗㄱㅌㅏㄱ	-15331
▁PRODUCE	-15332
▁ㅅㅏㄴㅊㅐㄱㄹㅗ	-15333
▁ㅊㅏㅇㅇㅓㅂㅈㅜ	-15334
▁ㄱㅡㅂㅅㅓㅇㅈㅏㅇ	-15335
ㄱㅜㄱㅅㅜㅇㄹㅗㄱㄷㅐ	-15336
ily	-15337
uch	-15338
▁IQ	-15339
▁NA	-15340
▁317	-15341
▁780	-15342
▁AAA	-15343
▁ㄷㅡㅁ	-15344
▁ㅅㅔㅇ	-15345
▁FIBA	-15346
▁Java	-15347
▁When	-15348
ㅂㅜㄹㅎㅘ	-15349
ㅅㅔㄴㅈㅜ	-15350
ㅈㅏㅇㄴㅏ	-15351
ㅈㅓㄴㅈㅣ	-15352
▁Apple	-15353
▁ㄱㅓㄴㅅㅜ	-15354
▁ㄷㅏㅇㅎㅐ	-15355
▁ㅂㅓㄹㄱㅓ	-15356
▁ㅇㅖㅂㅅㅡ	-15357
▁ㅈㅗㅇㅅㅣ	-15358
▁ㅍㅣㄹㅊㅣ	-15359
▁ㅎㅏㄴㅎㅐ	-15360
▁ㅎㅡㅇㅅㅏ	-15361
▁ㅎㅣㄹㄹㅣ	-15362
ㄴㅕㅁㅌㅏㅂ	-15363
ㄹㅕㅇㅇㅘㅇ	-15364
ㅎㅕㄴㅈㅣㄴ	-15365
▁ㄱㅏㅇㄹㅣㅁ	-15366
▁ㄱㅡㅁㅇㅡㄴ	-15367
▁ㄱㅣㅁㄱㅡㄴ	-15368
▁ㄴㅏㅁㅊㅣㅁ	-15369
▁ㅂㅏㅇㅁㅏㅇ	-15370
▁ㅂㅗㄴㅇㅕㄴ	-15371
▁ㅂㅜㄴㄱㅘㄴ	-15372
▁ㅇㅕㄴㅈㅓㄴ	-15373
▁ㅋㅗㄹㅁㅓㄴ	-15374
▁ㅍㅗㄱㅈㅓㅇ	-15375
▁ㄱㅕㅇㄱㅜㄱㄷㅐ	-15376
▁ㄱㅕㅇㅈㅐㅇㅅㅏ	-15377
▁ㅇㅗㄹㄹㅣㅁㅍㅗ	-15378
▁ㅇㅣㅁㅅㅏㅇㅅㅣ	-15379
▁ㅂㅜㄹㅂㅕㄴㄹㅑㅇ	-15380
▁ㅇㅕㅇㄷㅓㄱㄱㅜㄴ	-15381
▁ㄷㅗㅇㅁㅜㄹㅎㅏㄱㅈㅏ	-15382
▁284	-15383
▁328	-15384
▁830	-15385
▁DNS	-15386
▁MBA	-15387
▁ㄲㅗㄴ	-15388
▁ㄲㅝㅇ	-15389
▁ㅁㅗㄷ	-15390
▁SLBM	-15391
ㅁㅜㄹㅍㅗ	-15392
ㅅㅐㅇㄷㅐ	-15393
▁ㄱㅗㅇㅈㅓ	-15394
▁ㅂㅏㄴㄱㅡ	-15395
▁ㅅㅣㄴㅌㅏ	-15396
▁ㅇㅏㅂㄱㅜ	-15397
▁ㅇㅐㄴㅌㅣ	-15398
▁ㅇㅐㅁㅍㅡ	-15399
▁ㅇㅜㄹㅂㅓ	-15400
▁ㅇㅣㄹㅎㅚ	-15401
ㅅㅓㄴㅇㅣㅁ	-15402
ㅇㅑㅇㅅㅣㄴ	-15403
ㅊㅜㄹㅍㅜㅁ	-15404
▁ㄱㅡㄱㅈㅣㄴ	-15405
▁ㅂㅜㄹㅆㅏㅇ	-15406
▁ㅅㅏㄴㅁㅕㄴ	-15407
▁ㅈㅣㄱㄱㅡㅂ	-15408
▁ㅈㅣㄱㅇㅕㅇ	-15409
▁ㅎㅕㄴㅅㅗㄴ	-15410
▁ㄱㅗㅇㄱㅡㅂㅈㅏ	-15411
oy	-15412
▁Ju	-15413
▁277	-15414
▁Reg	-15415
▁Two	-15416
▁ㄴㅕㅁ	-15417
▁ㄴㅠㅁ	-15418
ㄱㅘㄴㅅㅗ	-15419
ㅅㅏㄴㄱㅏ	-15420
ㅅㅏㄴㅈㅏ	-15421
ㅇㅏㄴㄹㅣ	-15422
ㅈㅔㄴㅂㅔ	-15423
▁ㅁㅣㄴㅅㅜ	-15424
▁ㅂㅏㅇㅈㅜ	-15425
▁ㅂㅐㄱㅅㅜ	-15426
▁ㅅㅏㅁㄱㅖ	-15427
▁ㅇㅏㄹㄹㅠ	-15428
▁ㅈㅐㅇㅇㅢ	-15429
▁ㅊㅏㅇㅈㅔ	-15430
▁ㅎㅕㄹㄹㅠ	-15431
▁ㅎㅘㅇㅎㅢ	-15432
ㅍㅕㄴㅁㅜㄹ	-15433
▁ㅁㅚㄴㅎㅔㄴ	-15434
▁ㅅㅏㄴㅇㅕㄱ	-15435
▁ㅅㅓㄱㅍㅏㄴ	-15436
▁ㅇㅝㄴㄷㅏㅁ	-15437
▁ㅈㅓㅇㅎㅏㄴ	-15438
▁ㅍㅕㅇㄱㅏㅇ	-15439
▁ㅎㅏㅇㅅㅗㄱ	-15440
▁ㅎㅓㅁㅈㅜㄴ	-15441
▁ㅎㅕㅂㄱㅗㅇ	-15442
▁ㅎㅕㅇㄹㅑㅇ	-15443
ㄷㅗㅇㄱㅜㄱㅇㅕ	-15444
ㅇㅔㄴㅈㅔㄹㄹㅔ	-15445
▁ㅎㅐㅇㅅㅓㄴㅈㅣ	-15446
▁ㄷㅏㅇㅅㅏㅇㄱㅘㄴ	-15447
▁ㅈㅣㄴㅊㅜㄹㄱㅝㄴ	-15448
▁ㅁㅚㄴㅎㅔㄴㄱㅡㄹㄹㅏ	-15449
▁ㅈㅜㅇㄷㅡㅇㅎㅏㄱㄱㅛ	-15450
▁ㅅㅣㄴㅈㅡㅇㄷㅗㅇㄱㅜㄱㅇㅕ	-15451
43	-15452
ICE	-15453
ola	-15454
▁BY	-15455
▁KV	-15456
▁268	-15457
▁840	-15458
▁NET	-15459
▁SIG	-15460
▁ㄹㅐㅅ	-15461
▁Only	-15462
ㄷㅡㅇㄱㅗ	-15463
ㅈㅔㄴㅌㅔ	-15464
ㅊㅓㄹㅅㅗ	-15465
▁macOS	-15466
▁ㄴㅏㄱㅁㅏ	-15467
▁ㄴㅏㄱㅅㅓ	-15468
▁ㄷㅣㄹㄹㅣ	-15469
▁ㅂㅓㄴㅌㅡ	-15470
▁ㅅㅜㄴㅇㅣ	-15471
▁ㅅㅣㄴㅈㅔ	-15472
▁ㅈㅣㅂㅌㅓ	-15473
▁ㅎㅗㅁㅅㅡ	-15474
ㄹㅣㄹㄹㅠㅁ	-15475
ㅁㅜㄴㄷㅗㅇ	-15476
ㅇㅕㅇㄷㅗㅇ	-15477
▁ㄱㅡㄱㅂㅗㄴ	-15478
▁ㄴㅗㅇㅇㅑㄱ	-15479
▁ㄷㅣㄱㅅㅡㄴ	-15480
▁ㅂㅏㄹㅅㅓㅇ	-15481
▁ㅅㅗㄱㅅㅗㄱ	-15482
▁ㅇㅕㄱㅅㅏㅁ	-15483
▁ㅇㅕㄴㅇㅑㄱ	-15484
▁ㅇㅗㄴㄷㅗㄹ	-15485
▁ㅎㅑㅇㅇㅑㄱ	-15486
▁ㅎㅕㄹㅈㅏㅇ	-15487
ㅅㅣㄴㄹㅗㄴㅈㅏ	-15488
▁ㅅㅓㄴㄷㅐㄴㅅㅡ	-15489
▁ㅈㅏㄱㄱㅗㄱㅈㅏ	-15490
▁ㅊㅐㄴㄷㅡㄹㄹㅓ	-15491
▁ㅋㅗㄹㄹㅗㄴㅌㅏ	-15492
▁ㅋㅡㄹㄹㅐㄴㅅㅣ	-15493
▁ㅈㅏㄱㅇㅓㅂㅈㅏㅇ	-15494
OX	-15495
irc	-15496
▁326	-15497
▁475	-15498
▁767	-15499
▁Bet	-15500
▁lib	-15501
ㄹㅗㄹㄹㅗ	-15502
ㅅㅓㄲㅇㅣ	-15503
ㅅㅓㄴㄱㅟ	-15504
ㅇㅏㅂㅂㅜ	-15505
▁ㄱㅓㄴㅈㅐ	-15506
▁ㄱㅜㄴㅊㅔ	-15507
▁ㄱㅜㅂㅌㅏ	-15508
▁ㄱㅡㄱㅈㅣ	-15509
▁ㅂㅜㄴㄱㅗ	-15510
▁ㅅㅓㅇㅈㅘ	-15511
▁ㅇㅣㄹㅅㅗ	-15512
▁ㅈㅡㅇㅅㅣ	-15513
▁ㅊㅓㅇㄹㅏ	-15514
▁ㅎㅗㅂㅅㅡ	-15515
▁ㅎㅘㅇㅅㅐ	-15516
ㄱㅕㅇㄷㅏㄴ	-15517
[...]
