▁▃ -0
▁ㅇ -1
▁ㄱ -2
▁ㄷ -3
▁ㅇㅣ -4
▁ㅎ -5
▁ㅈ -6
▁ㅅ -7
▁ㄴ -8
ㅡㄴ -9
ㅡㄹ -10
▁ㅎㅏ -11
▁ㅁ -12
⊸⊸ -13
▁⊸⊸ -14
▁ㅂ -15
▁ㄹ -16
▁. -17
▁ㅇㅏ -18
▁ㄷㅏ -19
▁ㅇㅔ -20
▁ㄴㅡㄴ -21
▁ㅇㅓ -22
▁ㄱㅏ -23
ㅇㅣ -24
ㅏㄴ -25
ㅏㅇ -26
▁ㅇㅢ -27
ㅓㄴ -28
▁ㅇㅡㄹ -29
ㅕㄴ -30
ㅅㅓ -31
▁ㅊ -32
▁ㄱㅗ -33
ㄹㅣ -34
▁, -35
ㄹㅗ -36
▁ㅈㅣ -37
▁ㅍ -38
ㅕㅇ -39
ㅈㅣ -40
▁ㄷㅗ -41
ㄷㅏ -42
ㅜㄴ -43
▁ㄹㅡㄹ -44
▁ㅅㅣ -45
▁ㅌ -46
▁ㅇㅡㄴ -47
▁ㅇㅡ -48
ㅅㅣ -49
▁ㄱㅣ -50
ㅓㅇ -51
▁ㅋ -52
ㅅㅡ -53
▁1 -54
ㅏㄹ -55
ㅗㅇ -56
ㅏㄱ -57
▁ㄱㅓ -58
▁ㄹㅗ -59
ㅜㄹ -60
▁ㅇㅣㅆ -61
▁ㄷㅚ -62
▁ㄱㅡ -63
ㅕㄱ -64
▁2 -65
▁ㅈㅜ -66
▁ㅂㅗ -67
ㅎㅏ -68
▁ㅇㅓㅆ -69
▁ㅅㅏ -70
ㄴㄷㅏ -71
ㅗㄱ -72
ㄱㅣ -73
▁ㄴㅏ -74
ㄴㅏ -75
▁ㄸ -76
ㅇㅓ -77
ㅡㅇ -78
ㅓㄱ -79
▁ㅇㅏㅆ -80
ㄱㅏ -81
▁ㅈㅏ -82
▁ㅁㅏ -83
▁ㄷㅡㄹ -84
▁ㄷㅐ -85
▁ㄱㅘ -86
▁ㅅㅜ -87
ㄱㅗ -88
ㅐㅇ -89
▁ㄹㅏ -90
ㄹㅏ -91
▁ㄱㅔ -92
▁ㄱㅓㅅ -93
▁ㅁㅗ -94
ㄷㅗ -95
ㅓㅁ -96
ㅜㄱ -97
ㄹㅡ -98
ㄴㅣ -99
ㄷㅡ -100
▁ㅇㅣㄹ -101
▁ㅇㅘ -102
▁ㅈㅓㄴ -103
ㅝㄴ -104
ㅗㄴ -105
ㅇㅜ -106
ㅌㅡ -107
ㅓㄹ -108
▁ㅇㅕ -109
ㅇㅛ -110
▁- -111
ㅅㅏ -112
▁ㅇㅗ -113
▁ㅅㅡ -114
▁ㅁㅕㄴ -115
ㅈㅏㅇ -116
▁ㄲ -117
▁ㅂㅏ -118
▁ㅂㅜ -119
ㅊㅣ -120
▁ㅈㅓㄱ -121
ㅁㅏㄴ -122
ㅈㅏ -123
▁ㅁㅏㄴ -124
ㄷㅐ -125
▁3 -126
ㅇㅣㄴ -127
ㄹㅓ -128
▁ㅎㅘ -129
▁ㅈㅓㅇ -130
▁ㅁㅣ -131
▁ㅈㅗ -132
▁ㅅㅏㅇ -133
ㅕㄹ -134
ㅁㅣ -135
ㅇㅗ -136
ㅎㅘ -137
▁ㅇㅠ -138
ㅅㅜ -139
▁20 -140
▁ㅂㅣ -141
▁ㄸㅐ -142
ㅈㅓㅇ -143
ㅌㅓ -144
▁' -145
ㅑㅇ -146
▁ㄱㅗㅇ -147
▁ㄴㅕㄴ -148
ㄴㅡㄴ -149
ㅇㅏ -150
ㅎㅣ -151
▁: -152
ㄱㅡ -153
ㅅㅏㅇ -154
ㄷㅔ -155
ㅈㅓㄴ -156
ㅐㄱ -157
ㅈㅜ -158
▁ㅈㅔ -159
ㄱㅔ -160
▁ㅇㅟ -161
▁ㄱㅕㅇ -162
▁ㅇㅣㄴ -163
ㄹㅕㄱ -164
▁ㅈㅜㅇ -165
▁ㅎㅏㄴ -166
▁ㅊㅏ -167
ㅋㅣ -168
ㅇㅛㅇ -169
▁ㅅㅗ -170
▁ㅁㅜ -171
▁ㅆ -172
ㅈㅔ -173
▁ㅇㅓㅄ -174
▁ㄴㅗ -175
ㅅㅣㄴ -176
ㄱㅜㄱ -177
ㅁㅕㄴ -178
▁4 -179
▁ㅅㅔ -180
ㄹㄹㅣ -181
ㅁㅜㄴ -182
ㅅㅓㅇ -183
▁ㅅㅓㅇ -184
ㅂㅜ -185
ㄱㅜ -186
▁ㄷㅡㅇ -187
ㅇㅑ -188
ㄱㅕㄱ -189
ㅝㄹ -190
ㄹㅔ -191
▁ㄱㅐ -192
▁ㅇㅏㄶ -193
ㄹㅐ -194
ㅁㅏ -195
▁ㅁㅕ -196
ㄱㅘ -197
ㅡㄱ -198
▁5 -199
▁ㄷㅓㄴ -200
▁ㅌㅏ -201
ㅌㅏ -202
▁ㅅㅓ -203
ㄷㅗㅇ -204
▁0 -205
ㅇㅝㄴ -206
▁ㄹㅣ -207
▁ㄱㅜ -208
ㅓㅂ -209
▁ㄴㅐ -210
▁ㄷㅡ -211
▁" -212
▁ㅇㅝㄹ -213
ㅡㅁ -214
▁ㅍㅣ -215
▁201 -216
▁ㅈㅏㅇ -217
ㄱㅏㄴ -218
▁/ -219
▁ㅂㅏㅇ -220
ㄱㅓ -221
▁ㅋㅏ -222
▁ㄷㅗㅇ -223
ㅂㅣ -224
▁ㄹㅔ -225
▁ㅅㅓㄴ -226
ㅣㅁ -227
▁ㅁㅏㄹ -228
▁ㅇㅜ -229
▁ㅇㅕㄴ -230
▁ㅂㅓ -231
ㅇㅠ -232
▁ㅎㅜ -233
▁ㅇㅛ -234
▁ㅇㅏㄴ -235
▁ㅇㅕㅇ -236
▁ㅅㅣㄴ -237
▁ㅃ -238
ㅇㅣㄹ -239
▁ㄲㅏ -240
▁ㅅㅐㅇ -241
ㅊㅔ -242
▁ㄷㅏㅇ -243
▁ㅇㅑ -244
▁ㄷㅓ -245
▁ㅂㅏㄹ -246
ㅅㅗ -247
▁ㄷㅔ -248
ㅈㅏㄱ -249
▁ㅊㅣ -250
▁ㄴㅡㄴㄷㅔ -251
ㅋㅡ -252
ㅁㅕㅇ -253
ㅁㅜ -254
▁ㅊㅜ -255
▁ㅍㅏ -256
▁6 -257
▁ㅋㅡ -258
▁ㅎㅚ -259
▁ㅇㅝㄴ -260
▁ㅊㅓ -261
▁ㅍㅗ -262
ㅂㅗ -263
▁ㄱㅏㅇ -264
ㄱㅖ -265
▁10 -266
▁ㅁㅕㅇ -267
ㅈㅐ -268
ㄷㅡㄹ -269
ㅌㅣ -270
▁ㅊㅚ -271
▁ㅎㅐ -272
▁ㅁㅐ -273
▁ㅉ -274
ㅁㅕ -275
ㅇㅟ -276
ㅅㅣㄱ -277
▁ㅁㅜㄴ -278
▁ㅅㅣㄹ -279
▁ㅂㅐ -280
ㄷㅏㅇ -281
ㅋㅏ -282
ㅈㅡ -283
ㄹㅜ -284
▁ㅋㅗ -285
▁ㅂㅓㄴ -286
ㅎㅜ -287
ㅇㅣㅁ -288
▁7 -289
▁ㄱㅏㅌ -290
ㅁㅜㄹ -291
ㄴㅡㅇ -292
ㅅㅣㄹ -293
▁ㅍㅐ -294
▁ㄷㅏㄴ -295
ㅇㅢ -296
ㅍㅡ -297
▁ㅎㅗ -298
▁ㅂㅜㄹ -299
▁ㅈㅣㄴ -300
▁! -301
▁ㄱㅘㄴ -302
▁ㅂㅏㄷ -303
▁S -304
▁ㅌㅡㄱ -305
▁ㅁㅔ -306
ㅇㅡㅁ -307
▁8 -308
ㅎㅐㅇ -309
▁ㅊㅗ -310
▁ㅁㅏㄶ -311
ㄹㅕ -312
ㄹㅏㅁ -313
▁ㄱㅕㄹ -314
ㅅㅓㄴ -315
ㄴㅐ -316
▁ㅂㅏㄴ -317
ㄷㅣ -318
ㅍㅣ -319
ㅁㅗ -320
ㄷㅏㄴ -321
▁ㅈㅏㄱ -322
ㅂㅓ -323
▁ㅍㅡ -324
ㅌㅗ -325
ㄱㅗㅇ -326
ㄱㅛ -327
ㅅㅗㄱ -328
ㅇㅕㄱ -329
ㅊㅏ -330
▁ㅇㅕㄱ -331
▁ㅆㅡ -332
ㅈㅓㅁ -333
▁19 -334
▁ㅁㅕㄴㅅㅓ -335
ㅅㅔ -336
ㅂㅏㄴ -337
▁ㄱㅖ -338
▁9 -339
▁ㄱㅕㅇㅇㅜ -340
▁ㄴㅣ -341
ㅌㅔ -342
ㅂㅜㄴ -343
ㅎㅏㄱ -344
ㅎㅏㄴ -345
▁ㄱㅗㅇㄱㅕㄱ -346
▁ㅂㅜㄴ -347
ㅅㅐㅇ -348
ㅎㅚ -349
▁ㄴㅏㅁ -350
ㅈㅗ -351
ㄱㅏㄱ -352
▁ㄷㅜ -353
ㄹㅗㄱ -354
ㅈㅜㅇ -355
ㄷㅜ -356
▁ㅋㅐ -357
▁A -358
▁ㅁㅜㄹ -359
▁ㅈㅓ -360
▁ㅊㅜㄹ -361
ㅂㅗㄴ -362
ㅇㅕㄴ -363
ㅈㅣㄴ -364
▁ㄱㅜㄱ -365
▁ㅁㅗㅅ -366
ㅈㅓ -367
ㅅㅏㄴ -368
▁ㅎㅕㄴ -369
ㅔㄹ -370
ㅌㅐ -371
▁ㅈㅗㅎ -372
ㅎㅗ -373
▁M -374
▁ㅇㅏㄹ -375
▁ㅈㅓㅁ -376
▁ㅍㅕㄴ -377
ㄹㅠ -378
▁ㅇㅐ -379
ㄹㅓㄴ -380
▁% -381
▁ㄱㅏㅁ -382
▁ㅇㅖ -383
▁ㅋㅣ -384
▁ㅌㅡ -385
▁ㅈㅐ -386
▁ㄸㅏ -387
ㄱㅘㄴ -388
▁ㄷㅣ -389
▁ㅎㅏㄱ -390
ㄴㅗ -391
ㅇㅕㅇ -392
ㄱㅡㅂ -393
▁ㄱㅛ -394
ㄹㅡㅁ -395
▁ㅈㅓㅇㄷㅗ -396
ㅇㅏㄴ -397
ㅋㅗ -398
ㄹㅡㄴ -399
▁ㄴㅓ -400
ㄱㅡㅁ -401
▁ㅌㅗㅇ -402
ㅂㅡ -403
▁C -404
ㅈㅓㄱ -405
ㄱㅜㄴ -406
▁ㅇㅣㅂ -407
ㅂㅏ -408
▁ㄸㅗ -409
▁ㅅㅗㄱ -410
ㅅㅡㅂ -411
ㅎㅐ -412
ㅂㅓㅂ -413
ㅜㅁ -414
ㅂㅏㄹ -415
ㄱㅕㅇ -416
▁ㅍㅡㄹ -417
▁B -418
▁T -419
▁ㄱㅣㅁ -420
ㅈㅗㅇ -421
▁ㅅㅓㄹ -422
ㅂㅏㅇ -423
▁ㅊㅏㅁ -424
ㅁㅣㄴ -425
▁ㅂㅗㄴ -426
▁ㄴㅔ -427
▁ㅎㅕㅇ -428
▁ㅌㅗ -429
▁ㅇㅚ -430
▁ㅎㅏㅁ -431
▁ㅍㅕㅇ -432
ㅔㄴ -433
▁ㄷㅡㅇㅈㅏㅇ -434
ㅌㅗㅇ -435
ㅅㅡㅇ -436
ㅁㅐ -437
▁~ -438
▁ᄆ -439
▁D -440
ㄹㅗㄴ -441
ㅅㅜㄹ -442
ㅈㅜㄴ -443
ㅍㅗ -444
▁+ -445
ㅇㅓㅂ -446
▁ㄱㅜㄴ -447
▁? -448
ㅅㅕㄴ -449
▁ㅇㅡㅁ -450
▁ㅈㅜㄱ -451
▁ㅈㅗㅇ -452
▁12 -453
ㄱㅓㄴ -454
ㄹㅛ -455
▁ㅊㅔ -456
▁ㅅㅡㅇ -457
ㅍㅏ -458
ㅇㅑㅇ -459
▁ㄱㅝㄴ -460
▁ㅎㅣ -461
▁ㄴㅡㄴㄷㅏ -462
▁ㅅㅏㄹ -463
ㅌㅜ -464
▁ㅌㅣㅁ -465
ㄴㅕ -466
▁ㄹㅜ -467
ㅇㅘ -468
▁.. -469
ㅈㅣㄱ -470
er -471
▁ㄷㅟ -472
▁ㅈㅣㄱ -473
▁200 -474
▁11 -475
▁ㅇㅛㅇ -476
ㅅㅣㅁ -477
▁L -478
▁ㅍㅏㄴ -479
ㅇㅣㅂ -480
ㄱㅐ -481
00 -482
▁ㅌㅔ -483
▁ㅈㅏㄹ -484
▁ㄷㅗㄹ -485
▁ㅁㅏㅈ -486
▁ㅎㅘㄱ -487
▁ㅅㅣㅁ -488
▁ㅎㅐㅇ -489
ㅇㅜㄴ -490
ㄹㅓㅎ -491
▁ㄱㅕㅇㄱㅣ -492
▁ㅂㅕㄴ -493
in -494
▁ㄲㅡ -495
ㅍㅏㄴ -496
▁ㅂㅏㄱ -497
▁ㅁㅗㅅㅎㅏ -498
▁ㄷㅡㅅ -499
▁ㅂㅔ -500
▁ㅁㅏㄴㄷㅡㄹ -501
▁ㅊㅐ -502
ㅂㄴㅣ -503
▁ㅇㅜㄴ -504
▁F -505
ㅍㅛ -506
▁P -507
ㄹㅣㄱ -508
ㅎㅘㅇ -509
▁ㄷㅏㄹ -510
ㄹㅕㄴ -511
▁ㅌㅜ -512
ㅅㅓㄱ -513
ㅇㅑㄱ -514
▁ㅇㅕㅆ -515
ㅈㅗㄱ -516
ㄴㅓ -517
ㄹㅏㅇ -518
▁ㄴㅏㄹ -519
▁ㅍㅣㄹ -520
ㅊㅡ -521
▁ㄱㅓㄴ -522
ㅇㅕ -523
ㄷㅡㄴ -524
ㅎㅕㅇ -525
ㄹㅑㅇ -526
▁ㅁㅗㄱ -527
ㄷㅓ -528
ㄹㅓㅁ -529
ㅇㅔ -530
▁ㅈㅣㅂ -531
ㅅㅓㄹ -532
▁ㄴㅗㅍ -533
▁ㄱㅏㄴ -534
▁ㅇㅑㄱ -535
ㄲㅏ -536
▁G -537
▁ㅎㅘㄹ -538
ㅂㅗㄱ -539
ㄱㅓㅅ -540
ㄹㅕㅇ -541
ㅁㅔ -542
ㅊㅓㅇ -543
ㄴㅈㅣ -544
ㅊㅜ -545
▁ㄱㅏㄱ -546
▁ㅇㅓㄴ -547
▁ㅍㅛ -548
▁ㅅㅜㄴ -549
ㅍㅜㅁ -550
▁ㅅㅏㅇㄷㅐ -551
▁ㅇㅑㅇ -552
ㅁㅏㅇ -553
▁E -554
▁ㄹㅕ -555
ㄹㅏㄴ -556
ㅊㅜㄹ -557
ㅈㅓㄹ -558
ㅎㅕㄴ -559
ㅎㅑㅇ -560
an -561
ㄲㅔ -562
▁ㄴㅡㅇ -563
ㅇㅚ -564
ㄴㅔ -565
▁ㅅㅐ -566
ㄹㄹㅏ -567
▁ㅎㅛ -568
▁ㅁㅜㄴㅈㅔ -569
ㅇㅓㄴ -570
▁ㅈㅗㄴ -571
on -572
▁15 -573
ㅎㅏㅂ -574
▁ㅈㅏㅂ -575
▁ㅌㅓ -576
▁ㅇㅣㄹㅂㅗㄴ -577
▁ㅎㅏㅁㄲㅔ -578
▁ㅍㅔ -579
▁ㅌㅣ -580
▁ㅎㅣㅁ -581
▁ㅇㅘㅇ -582
▁ㅅㅗㄴ -583
▁ㅌㅐ -584
ㅁㅓ -585
ㅎㅘㄴ -586
▁ㅈㅡㅇ -587
▁ㅅㅐㅇㄱㅏㄱ -588
▁ㄱㅔㅆ -589
▁ㅂㅕㅇ -590
ㅡㄹㄹㅣ -591
▁ㅂㅕㄹ -592
▁ㄴㅡ -593
▁ㅍㅡㄹㄹㅔ -594
▁ㅎㅏㄴㄱㅜㄱ -595
▁# -596
▁H -597
ㅈㅡㄴ -598
▁ㅂㅡ -599
ㅇㅜㄹ -600
▁ㅁㅏㄱ -601
▁R -602
▁ㅊㅓㄴ -603
▁K -604
ㄴㄷㅔ -605
▁ㅍㅗㄱ -606
▁ㄲㅡㅌ -607
ㄹㅣㄱㅌㅓ -608
▁ㅇㅘㄴ -609
ㅁㅗㄱ -610
▁ㄴㅡㅇㄹㅕㄱ -611
ㅋㅣㄹ -612
▁ㄷㅡㄹㅇㅓ -613
▁t -614
ㅂㅕㅇ -615
▁ㅊㅗㅇ -616
▁ㄷㅗㄱ -617
▁I -618
▁ㅁㅓㄱ -619
▁N -620
ㅋㅔ -621
▁ㄴㅜ -622
▁ㅆㅏ -623
▁ㅎㅏㅇ -624
ㅎㅓㅁ -625
ㅅㅗㅇ -626
ㄷㅗㄱ -627
▁ㄱㅡㄴ -628
▁ㄱㅘㅇ -629
▁ㅋㅜ -630
ㅊㅓㄴ -631
ㅁㅏㄱ -632
ㅂㅐ -633
▁ㅂㅗㄱ -634
▁ㅅㅣㄱ -635
▁ㅃㅏ -636
▁m -637
▁ㄷㅏㅇㅎㅏ -638
ㄹㅏㄱ -639
▁ㅅㅏㅇㅎㅘㅇ -640
▁ㄱㅓㅁ -641
▁ㅂㅡㄹ -642
▁ㅅㅏㅁ -643
or -644
ㅂㅔㄹ -645
ㄹㅓㅂ -646
ㅍㅔ -647
ㅁㅏㄹ -648
▁ㅅㅏㅇㅌㅐ -649
▁ㅆㅣ -650
ㄷㅏㅁ -651
▁ㄷㅏㅇㅅㅣ -652
▁ㅁㅓ -653
▁ㅋㅓ -654
ㄴㅕㄴ -655
▁ㅅㅠ -656
ㅍㅓ -657
ar -658
▁ㄱㅕㄹㄱㅜㄱ -659
ㄱㅏㅁ -660
▁ㄱㅣㄹ -661
▁ㅂㅐㄱ -662
▁ㅊㅜㅇ -663
ㅅㅐㄱ -664
▁ㅇㅓㄹ -665
ㅅㅏㄹ -666
▁ㄱㅗㄱ -667
▁ㅇㅓㅂ -668
ㄴㄷㅡ -669
▁ㅇㅏㅍ -670
ㄴㅅㅡ -671
▁ㅇㅕㄹ -672
▁18 -673
▁16 -674
▁ㅇㅏㄱ -675
ㅌㅏㄴ -676
ㄱㅡㄴ -677
▁ㄹㅓ -678
▁ㅊㅣㄴ -679
ㄱㅕㄹ -680
▁ㄴㅓㅁ -681
▁ㅅㅟ -682
▁ㄱㅡㅁ -683
▁ㅁㅏㄶㅇㅣ -684
▁ㄴㅜㄴ -685
▁O -686
ㄹㅣㅂ -687
ㅋㅜ -688
▁ㅈㅓㄴㅌㅜ -689
▁30 -690
ㅕㅂ -691
ㄴㅑㅇ -692
at -693
ㅓㄹㅇㅓ -694
▁ㅁㅣㅊ -695
ㅇㅏㄱ -696
▁ㅇㅣㅁ -697
▁ㄱㅡㅂ -698
▁ㅅㅏㄴ -699
ㅊㅗ -700
▁13 -701
▁ㅅㅓㄴㅅㅜ -702
▁s -703
he -704
ㅈㅣㄹ -705
▁] -706
▁W -707
▁ㅎㅏㅂ -708
ㅍㅕㄴ -709
▁ㅈㅗㄴㅈㅐ -710
▁ㅁㅣㄴ -711
ㅉㅗㄱ -712
▁14 -713
ㅌㅐㄱ -714
▁ㅎㅕㄴㅈㅐ -715
▁[ -716
ㄷㅡㅇ -717
ㅈㅓㅂ -718
▁ㅊㅟ -719
▁ㅎㅓ -720
▁ㄱㅚ -721
▁ㄷㅏㄹㄹㅣ -722
▁ㅅㅏㅇㄷㅏㅇ -723
ㅎㅏㅁ -724
ㅇㅖ -725
ㅈㅐㅇ -726
▁ㅋㅡㄹ -727
▁ㅁㅜㄹㄹㅗㄴ -728
ㄴㅏㅁ -729
▁ㅈㅓㄹ -730
▁ㅊㅓㅅ -731
▁ㅌㅗㅇㅎㅏ -732
▁ㄱㅡㄱ -733
en -734
▁ㅇㅓㅁ -735
ㅎㅏㅇ -736
ㅊㅓ -737
▁c -738
ㅍㅐ -739
▁ㅊㅏㅈ -740
▁ㅇㅓㄷ -741
▁ㅎㅘㅇ -742
▁17 -743
▁ㅍㅐㄴ -744
▁ㄴㅏㄴ -745
▁ㅇㅔㄴ -746
ㅈㅗㄴ -747
ㄹㅣㅁ -748
▁ㅋㅔ -749
▁ㄱㅗㄹ -750
▁ㅊㅏㅇ -751
ㄱㅡㄹ -752
▁ㅃㅜㄴ -753
▁100 -754
ㅂㅓㅁ -755
▁ㅇㅝ -756
▁00 -757
ㅇㅜㅁ -758
ㄷㅡㄱ -759
ㅌㅔㅁ -760
▁ㅅㅣㄹㅈㅔ -761
▁ㅊㅓㅇ -762
▁ㄴㅗㅎ -763
ㅜㅇ -764
▁ㅈㅜㄹ -765
ㅋㅓ -766
ㄱㅅㅡ -767
ㄱㅏㅇ -768
▁25 -769
▁ㄱㅘㄴㄹㅕㄴ -770
ou -771
ㄹㄹㅗ -772
▁ㄱㅏㅌㅇㅣ -773
▁ㅌㅏㄹ -774
▁ㅇㅣㄴㅎㅏ -775
ㅈㅣㅂ -776
▁V -777
al -778
ㄲㅣ -779
ㅇㅝ -780
ㄱㅕㄴ -781
▁ㅍㅣㄹㅇㅛ -782
▁ㄸㅡ -783
ㄱㅠ -784
▁U -785
ㅇㅘㅇ -786
▁ㅂㅏㅇㅅㅗㅇ -787
▁ㄲㅗ -788
ㅂㅕㄹ -789
▁ㅇㅕㄱㅅㅣ -790
ㄴㅓㄹ -791
▁ㅂㅓㅂ -792
▁ㅊㅓㄹ -793
▁ㄱㅟ -794
ㄴㅡ -795
▁ㄱㅗㅅ -796
▁ㅂㅏㅇㅇㅓ -797
ㅋㅡㅁ -798
▁ㅇㅣㄹㅂㅏㄴ -799
▁ㄷㅗㄹㅇㅏ -800
▁ㅉㅐ -801
ㅌㅏㄹ -802
▁ㅎㅘㄴ -803
▁ㅈㅏㅁ -804
ㅇㅡㄴ -805
▁ㅎㅔ -806
ㄱㅗㄱ -807
▁2017 -808
ㅇㅕㄹ -809
▁ㅇㅗㄹㄹㅣ -810
▁199 -811
ㄴㄱㅏ -812
▁ㄴㅑ -813
▁ㅂㅜㄱ -814
▁ㅂㅓㅁ -815
ㅎㅏㄱㄱㅛ -816
ㅂㅓㄴ -817
▁ㄹㅐ -818
▁ㅈㅗㅁ -819
ㅌㅡㄹ -820
▁ㅎㅗㄴ -821
▁2018 -822
▁ㅂㅜㅌ -823
▁ㄹㅠ -824
ㅂㅏㄱ -825
▁ㅉㅣ -826
▁ㄹㅏㄴ -827
▁ㄱㅕㄱ -828
▁ㄴㅡㄴㅈㅣ -829
▁ㅌㅡㄱㅎㅣ -830
▁ㅌㅏㄴ -831
▁ㅂㅏㄲ -832
ㅊㅣㅇ -833
▁ㅅㅣㅍ -834
ㅇㅡ -835
▁ㅇㅓㅄㅇㅣ -836
▁ㄸㅓㄹㅇㅓ -837
▁k -838
▁ㅈㅣㄴㅎㅐㅇ -839
es -840
ㅊㅏㄱ -841
▁ㅇㅕㅇㅎㅘ -842
▁ㅎㅏㄱㄱㅛ -843
▁ㅂㅗㄴㅇㅣㄴ -844
▁ㅇㅣㄴㄱㅏㄴ -845
▁ㄱㅡㄹ -846
ㄹㅓㅎㄱㅔ -847
ㅇㅣㄴㄱㅗㅇ -848
ㅊㅏㅇ -849
▁ㅊㅏㅁㄱㅗ -850
▁ㄷㅜㄹ -851
▁2019 -852
▁ㅈㅡㅇㄱㅏ -853
▁ㅍㅜㄹ -854
▁ㅈㅡㄱ -855
▁ㅅㅟㅂ -856
▁ㄱㅠ -857
it -858
▁ㅅㅑ -859
ㄱㅚ -860
ㄹㅗㅂ -861
▁ㄱㅕ -862
▁ㄷㅏㅁ -863
ㄴㅏㄴ -864
▁ㅍㅏㄹ -865
▁ㄱㅓㄹ -866
ㅂㅕㄴ -867
▁ㅁㅏㄴㅋㅡㅁ -868
▁ㅇㅞ -869
ㄸㅐ -870
▁ㅅㅗㄱㄷㅗ -871
▁ㅅㅐㅇㄱㅣ -872
▁ㅁㅗㅁ -873
▁ㅈㅜㄴ -874
▁ㅈㅏㄱㅍㅜㅁ -875
▁21 -876
ㅊㅏㄴ -877
▁ㄷㅓㄱ -878
▁50 -879
ㅈㅣㅇ -880
▁X -881
▁ㅂㅏㄺ -882
ㄹㅕㅂ -883
ㄹㅖ -884
ㄷㅏㄹ -885
▁ㄴㅓㅎ -886
▁2016 -887
ㅇㅓㅄ -888
ㅎㅢ -889
ㄹㅠㄹ -890
ㅂㅔ -891
▁ㅅㅡㅂㄴㅣ -892
ㄹㅣㄴ -893
ㅎㅗㄴ -894
ㅌㅓㄴ -895
▁ㄱㅗㅇㄱㅕㄱㄹㅕㄱ -896
ㅊㅏㄹ -897
ㅎㅘㄹ -898
▁ㅇㅣㄴㅁㅜㄹ -899
▁ㅈㅓㅂ -900
▁& -901
is -902
ㅅㅡㅅ -903
ㅇㅠㄱ -904
re -905
▁ㅇㅏㅁ -906
▁ㅁㅕㅊ -907
ㄱㅝㄴ -908
▁ㅉㅗㄱ -909
ㅈㅓㄴㅎㅣ -910
ㄹㄹㅓ -911
▁ㅂㅓㄹ -912
ㅂㅡㄹ -913
▁w -914
▁ㄷㅗㅇㅇㅏㄴ -915
ㅇㅐ -916
▁ㅇㅣㄹㅂㅜ -917
▁22 -918
▁ㄱㅜㄱㄱㅏ -919
ㅇㅝㄹ -920
le -921
ㅊㅓㄹ -922
▁ㄱㅏㅇㅎㅏ -923
▁ㅎㅡ -924
ㄴㅣㅅ -925
▁ㅎㅗㅁ -926
ㅅㅜㄴ -927
▁ㅇㅜㄹ -928
▁ㅅㅏㅇㄷㅏㅇㅎㅣ -929
▁ㅍㅕㅇㄱㅏ -930
▁ㅇㅏㄹㄹㅣ -931
▁ㅊㅜㄱ -932
▁ㅎㅢ -933
▁ㅅㅡㄹ -934
ㅂㅔㄴ -935
▁ㅎㅘㄹㄷㅗㅇ -936
▁ㄱㅘㄴㄱㅖ -937
▁ㅁㅏㄴㄴㅏ -938
▁ㅉㅏ -939
ㄱㅘㅇ -940
▁ㄴㅏㅈ -941
▁ㅇㅕㅇㅅㅏㅇ -942
▁J -943
ㄴㅏㄹ -944
▁d -945
▁ㅁㅓㄹ -946
ㄱㅡㄱ -947
ㅅㅡㄴ -948
▁ㅇㅗㄹㄹㅏ -949
ㅁㅂㅓ -950
▁24 -951
▁ㄱㅏㅁㄷㅗㄱ -952
▁ㄸㅟ -953
▁ㅁㅏㅌ -954
▁ㅁㅜㄴㅅㅓ -955
▁ㅁㅡ -956
ㄲㅜ -957
▁ㅅㅓㅇㄱㅗㅇ -958
ㅇㅡㅇ -959
▁ㄸㅓ -960
ㄹㅑ -961
▁ㅈㅜㄱㅇㅣ -962
ㅂㅜㄹ -963
▁ㅎㅗㅇ -964
ㄷㅗㄹ -965
ing -966
ic -967
▁ㅈㅣㄹ -968
ㅂㅓㄹ -969
▁ㅊㅡ -970
▁f -971
▁ㅂㅏㄺㅎㅣ -972
ㅍㅡㄹ -973
ㅇㅠㄹ -974
▁ㅁㅏㅇ -975
▁ㅈㅜㅇㄱㅜㄱ -976
ㅇㅗㄴ -977
▁ㅁㅗㄹ -978
ㄹㅑㄱ -979
▁ㅁㅗㄴㅅㅡ -980
as -981
ㅆㅣ -982
▁ㅅㅓㄹㅈㅓㅇ -983
▁b -984
▁ㄱㅕㄹㄱㅘ -985
▁ㄴㅗㄴ -986
▁ㅈㅓㅇㅂㅗ -987
▁ㅈㅓㄴㅈㅐㅇ -988
▁ㅅㅡㅇㄹㅣ -989
▁ㅁㅣㄹ -990
ㄱㅟ -991
▁23 -992
▁2015 -993
▁ㅁㅔㅁㅂㅓ -994
▁ㅇㅓㄴㄱㅡㅂ -995
▁ㅁㅐㄴ -996
▁ㄴㅣㅁ -997
ㄱㅜㄹ -998
▁ㅍㅓ -999
▁ㅇㅝㄴㄹㅐ -1000
▁ㅇㅗㄴ -1001
▁ㅋㅏㄹ -1002
▁40 -1003
▁ㅈㅣㄱㅈㅓㅂ -1004
▁ㅁㅝ -1005
ㅈㅡㅇ -1006
▁ㅅㅓㅇㅇㅜ -1007
▁ㅅㅓㄹㅁㅕㅇ -1008
▁ㄹㅣㅇ -1009
▁ㅇㅠㄱ -1010
▁ㅋㅓㄴ -1011
▁ㅅㅓㄴㅌㅐㄱ -1012
▁ㅈㅓㄴㅊㅔ -1013
ㅂㅐㄱ -1014
ㅇㅡㄹ -1015
▁ㄲㅐ -1016
ㅉㅣ -1017
▁a -1018
▁ㅆㅣㄱ -1019
ㅇㅜㄴㄷㅡ -1020
ㅁㅗㄴ -1021
▁ㄷㅡㄷ -1022
ㅉㅏ -1023
▁ㅁㅛ -1024
▁ㅎㅠ -1025
ㅇㅜㅇ -1026
▁ㅎㅕㅂ -1027
▁ㅇㅙ -1028
ㅎㅏㄹ -1029
▁< -1030
▁ㅂㅗㅇ -1031
▁ㄴㅠ -1032
▁ㅃㅐ -1033
▁ㅇㅓㅁㅊㅓㅇ -1034
ㄴㅣㅇ -1035
▁ㅊㅣㄴㄱㅜ -1036
▁ㅂㅏㅇㅂㅓㅂ -1037
▁ㄷㅡㄴ -1038
▁ㅎㅣㅁㄷㅡㄹ -1039
▁) -1040
▁ㅊㅡㄱ -1041
ㄷㅣㅇ -1042
▁ㅈㅏㅇㅁㅕㄴ -1043
▁ㅅㅛ -1044
ㅊㅐㄱ -1045
▁ㅊㅜㄹㅇㅕㄴ -1046
▁ㄱㅏㅂ -1047
▁ㅈㅡ -1048
ㄴㅡㄹ -1049
ㅊㅜㄱ -1050
ㅇㅜㄱ -1051
▁ㄷㅗㄴ -1052
▁ㄷㅏㅂ -1053
om -1054
ㄲㅟ -1055
▁p -1056
▁ㄲㅙ -1057
am -1058
▁ㅌㅏㅂ -1059
▁h -1060
ㅋㅔㅅ -1061
▁ㅎㅑㅇ -1062
ㅊㅗㅇ -1063
ㅎㅚㄱ -1064
ㅂㅜㄱ -1065
ㄸㅓ -1066
▁ㅎㅗㄱ -1067
ㄲㅏㅂ -1068
▁ㄱㅗㅇㅅㅣㄱ -1069
▁ㅇㅏㅂ -1070
ㄴㅕㅁ -1071
ㅌㅣㅇ -1072
ㅅㅡㄹ -1073
▁ㅅㅗㅇ -1074
▁ㄱㅏㅈ -1075
▁198 -1076
el -1077
ㅅㅟ -1078
▁ㅊㅐㄱ -1079
▁ㅈㅓㄴㅂㅜ -1080
ㅂㅔㄴㅌㅡ -1081
▁ㄱㅏㄹ -1082
▁o -1083
▁ㅇㅕㄴㄱㅜ -1084
▁ㅊㅣㅁ -1085
ㅍㅕㅇ -1086
▁ㄱㅓㄹㄹㅣ -1087
▁ㄴㅏㅁㅈㅏ -1088
ㄱㅏㅂ -1089
▁ㅅㅗㄱㅅㅓㅇ -1090
ㅇㅏㅇ -1091
▁26 -1092
ㅃㅡ -1093
ㄴㅜ -1094
▁ㄱㅜㅇ -1095
▁ㄷㅣㄹ -1096
▁2014 -1097
▁ㅆㅗ -1098
▁ㄷㅗㅇㅅㅣ -1099
▁n -1100
ㅊㅣㅁ -1101
▁ㅂㅜㄹㄹㅣ -1102
▁ㄱㅏㅇㅎㅘ -1103
▁ㅇㅕㄱㅅㅏ -1104
▁ㅈㅓㅇㅁㅏㄹ -1105
ㅍㅣㄹ -1106
▁ㅊㅡㅇ -1107
▁28 -1108
ㄹㅐㄱ -1109
▁ㅃㅗ -1110
ㄱㅗㄴ -1111
▁ㅅㅐㄱ -1112
ㅂㅗㅇ -1113
ㅋㅓㄹ -1114
▁ㅅㅓㅇㄴㅡㅇ -1115
▁ㅉㅣㄱ -1116
▁ㅎㅏㄱㅅㅐㅇ -1117
▁the -1118
▁27 -1119
ㅁㅓㄱ -1120
▁ㅇㅜㄴㅇㅕㅇ -1121
▁ㅅㅓㄱ -1122
▁ㄷㅏㅇㅇㅕㄴ -1123
▁31 -1124
▁= -1125
▁ㅊㅜㄹㅅㅣㄴ -1126
▁ㅅㅔㄴ -1127
▁ㄲㅣ -1128
▁ㅇㅔㄹ -1129
▁ㄴㅗㅇ -1130
ㅇㅓㄹ -1131
ㅁㅕㄴㅅㅓ -1132
ㄹㅓㄴㄷㅔ -1133
▁ㅍㅜ -1134
▁ㅌㅡㄱㅅㅓㅇ -1135
▁ㅇㅣㄹㅇㅓ -1136
ㅡㄹㅇㅓ -1137
▁ㅇㅣㄴㅌㅓ -1138
ㅁㅣㄹ -1139
▁ㄱㅏㅇㄹㅕㄱ -1140
ㅇㅕㅁ -1141
▁ㅎㅟ -1142
ㅂㅕㄱ -1143
▁ㄱㅗㅇㄱㅐ -1144
▁ㅎㅘㄱㄹㅠㄹ -1145
ㅎㅜㄴ -1146
▁ㅇㅓㅁㅊㅓㅇㄴㅏ -1147
ㅁㅍㅣ -1148
▁ㅋㅗㄴ -1149
▁ㅊㅏㄱ -1150
▁ㅂㅗㄹ -1151
▁ㅇㅜㅁ -1152
▁ㅈㅏㄴ -1153
ㄹㅐㄴㄷㅡ -1154
▁ㅂㅏㄹㅁㅐ -1155
ol -1156
ㅁㅐㄴ -1157
▁ㅂㅏㅇㅅㅣㄱ -1158
▁ㅂㅏㄹㅅㅐㅇ -1159
▁000 -1160
ㅊㅏㄴㄱㅏ -1161
▁ㅈㅓㅇㅅㅣㄴ -1162
▁ㅌㅡㄱㅅㅜ -1163
▁ㄱㅕㄹㅈㅓㅇ -1164
▁ㅇㅕㅇㅎㅑㅇ -1165
ㅇㅓㅆ -1166
▁ㅇㅝㄹㄷㅡ -1167
ion -1168
et -1169
ㅎㅘㄱ -1170
ㅈㅏㅂ -1171
▁ㅂㅕㄴㄱㅕㅇ -1172
▁ㅈㅏㅇㅂㅣ -1173
▁ㅇㅕㅇㅇㅜㅇ -1174
ㄸㅓㅎ -1175
ㄸㅡ -1176
ㅋㅡㄹ -1177
▁ㅁㅓㄴ -1178
ac -1179
▁ㅃㅏㄹ -1180
▁ㄹㅡ -1181
▁ㅇㅕㄱㅎㅏㄹ -1182
▁ㅇㅣㄴㄱㅣ -1183
ㄷㅔㄹ -1184
▁ㄸㅡㅅ -1185
▁ㅈㅏㄱㅈㅜㅇ -1186
ㅇㅓㄱ -1187
▁32 -1188
▁ㅇㅓㄱ -1189
▁ㄴㅏㄴㅇㅣ -1190
▁ㅁㅐㅂ -1191
▁ㅈㅣㅅ -1192
▁ㅈㅜㅇㅇㅛ -1193
▁ㅈㅘ -1194
ㄸㅓㄴ -1195
▁ㅎㅕㅇㅌㅐ -1196
▁ㅅㅓㅁ -1197
▁Y -1198
▁ㅅㅜㄹ -1199
▁ㅇㅣㄹㄷㅏㄴ -1200
▁ㅅㅓㅇㄱㅕㄱ -1201
▁ㅅㅣㅇ -1202
▁ㅎㅐㅇㄷㅗㅇ -1203
il -1204
us -1205
▁29 -1206
▁ㅎㅡㄱ -1207
▁ㅇㅗㄹ -1208
▁ㅇㅐㄱ -1209
ig -1210
▁v -1211
▁ㅅㅣㅁㅈㅣ -1212
ow -1213
▁ㅇㅡㅁㅇㅏㄱ -1214
ㅍㅜㅇ -1215
ㅎㅕ -1216
▁ㅃㅗㅂ -1217
ㄱㅐㄱ -1218
ㅍㅗㄱ -1219
ed -1220
▁2013 -1221
ㅁㅣㄴㄱㅜㄱ -1222
▁ㄲㅡㅌㄴㅏ -1223
▁ㅁㅏㅈㅊㅜ -1224
▁ㅂㅣㅊ -1225
▁ㅂㅏㄹㄷㅗㅇ -1226
▁ㅅㅜㅁ -1227
ㅊㅡㄱ -1228
▁ㅇㅣㅂㅈㅏㅇ -1229
▁ㅊㅏㅈㅇㅏ -1230
▁ㅍㅜㅇ -1231
ㄷㅏㅂ -1232
ㅐㅇㅋㅡ -1233
▁ㅍㅖ -1234
ㄷㅓㄱ -1235
▁ㅎㅘㄱㅇㅣㄴ -1236
▁l -1237
▁ㅇㅐㄹ -1238
ㅎㅟ -1239
▁ㄴㅓㅁㅇㅓ -1240
▁ㅁㅓㄴㅈㅓ -1241
ㅇㅓㅅ -1242
▁ㅇㅠㄴ -1243
▁ㅈㅓㅇㅊㅣ -1244
▁ㅎㅚㄱ -1245
▁x -1246
▁ㅎㅡㄴ -1247
▁ㅇㅡㅇ -1248
▁60 -1249
ㅅㅜㄱ -1250
▁ㅎㅏㅇㅁㅗㄱ -1251
▁ㅎㅘㄹㅇㅑㄱ -1252
▁ㅁㅠ -1253
▁ㅎㅜㄴ -1254
▁ㅇㅝㄴㅈㅏㄱ -1255
▁ㄷㅓㄱㅂㅜㄴ -1256
▁35 -1257
▁ㄷㅡㄱ -1258
ㅇㅈㅏㅇ -1259
▁ㅋㅡㄹㄹㅣ -1260
ㅌㅚ -1261
▁ㄴㅗㄱ -1262
▁ㅇㅘㄴㅈㅓㄴㅎㅣ -1263
▁ㄷㅓㄴㅈㅣ -1264
ㅁㅕㄹ -1265
ㅎㅏㄴㅁㅣㄴㄱㅜㄱ -1266
id -1267
▁Lv -1268
▁ㄱㅏㅁㅅㅗ -1269
ㄹㅐㅁ -1270
ㅇㅣㄴㅌㅡ -1271
ㅇㅗㄱ -1272
ㅅㅐ -1273
▁ㄷㅠ -1274
▁ㄷㅗㄱㅇㅣㄹ -1275
▁ㅅㅜㄴㄱㅏㄴ -1276
▁ㅁㅕㅇㅊㅣㅇ -1277
ay -1278
ㅌㅡㄴ -1279
ㅈㅕ -1280
▁ㄴㅏㄹㄹㅣ -1281
▁ㅇㅓㄹㄱㅜㄹ -1282
▁ㅈㅓㄴㅎㅕ -1283
▁2012 -1284
ad -1285
▁ㄱㅘㄴㄹㅣ -1286
▁ㄱㅕㅇㅊㅏㄹ -1287
▁ㅇㅣㅀ -1288
▁ㅌㅡㄱㅈㅣㅇ -1289
▁01 -1290
ㅁㅡ -1291
ㅇㅜㅅ -1292
▁ㅈㅓㄱㅇㅛㅇ -1293
ㅗㅊ -1294
ㄹㅚ -1295
ㅅㅗㄴ -1296
▁ㅇㅕㅇㅇㅓ -1297
▁ㄱㅚㅇㅈㅏㅇ -1298
ㄷㅓㄴ -1299
▁r -1300
ㄹㅐㄴ -1301
▁ㅈㅓㅇㅂㅜ -1302
ㄱㅌㅡ -1303
▁of -1304
▁ㅅㅣㄹㅍㅐ -1305
ㄱㅗㄹ -1306
▁ㄱㅗㄴ -1307
ㅇㅓㅄㅇㅣ -1308
▁ㅈㅛ -1309
▁ㅇㅓㄹㅁㅏ -1310
▁ㅇㅐㄹㅂㅓㅁ -1311
▁ㅅㅐㅇㅅㅏㄴ -1312
ot -1313
▁ㄱㅓㄴㅁㅜㄹ -1314
ㄲㅡㅁ -1315
ㄹㅛㅇ -1316
ve -1317
and -1318
▁ㄱㅕㄴ -1319
▁ㅎㅗㄱㅇㅡㄴ -1320
▁ㅂㅏㄲㅇㅔ -1321
▁ㅅㅏㅇㅅㅡㅇ -1322
ㅌㅏㄱ -1323
▁ㄱㅜㄱㄴㅐ -1324
▁ㅈㅏㄱㄱㅏ -1325
▁ㅌㅓㄴ -1326
▁TV -1327
▁ㅎㅚㄱㄷㅡㄱ -1328
▁ㅂㅏㄹㄱㅕㄴ -1329
▁ㄲㅜ -1330
▁ㅅㅣㄹㄹㅕㄱ -1331
▁ㅁㅜㄹㄹㅣ -1332
▁ㅂㅏㄴㅇㅡㅇ -1333
ㄹㅓㄱ -1334
▁y -1335
▁ㅋㅞ -1336
ㅊㅏㄶ -1337
▁ㅈㅓㅇㅎㅘㄱ -1338
▁ㄷㅔㄱ -1339
ㅁㅓㄴ -1340
▁ㅊㅏㅁㅈㅗ -1341
▁ㅁㅏㄴㅎㅘ -1342
▁ㅇㅕㅇㄱㅜㄱ -1343
▁ㄷㅗㅇㅇㅣㄹ -1344
▁ㅎㅕㄴㄷㅐ -1345
▁ㅋㅣㅇ -1346
20 -1347
ㅊㅜㅇ -1348
▁ㅅㅓㄴㅂㅏㄹ -1349
ㅆㅓ -1350
▁ㄹㅏㅇ -1351
ㄴㅗㅎ -1352
ㄹㅗㅅ -1353
▁ㅂㅏㄴㄷㅐ -1354
ㄱㅗㅅ -1355
▁ㅋㅏㄴ -1356
▁ㅁㅏㅅ -1357
▁ㄷㅏㅁㄷㅏㅇ -1358
▁ㅅㅡㅂ -1359
ch -1360
▁ㄸㅏㅇ -1361
▁ㅊㅜㄹㅅㅣ -1362
▁ㅎㅏㄴㅌㅔ -1363
▁ㅁㅐㄱ -1364
▁ㄸㅏㄹ -1365
▁ㅋㅜㄹ -1366
▁ㄹㅑㅇ -1367
▁ㄷㅏㄴㄱㅖ -1368
▁ㅂㅏㅁ -1369
▁ㅇㅜㅁㅈㅣㄱ -1370
▁ㄸㅏㄱ -1371
▁ㄹㅗㅂ -1372
un -1373
▁ㅁㅣㄹㄹㅣ -1374
▁ㅍㅏㄴㅁㅐ -1375
ㅌㅠ -1376
▁ㅂㅓㅁㅇㅟ -1377
▁ㅌㅚ -1378
▁37 -1379
ㅇㅣㄱ -1380
▁The -1381
ㅇㅔㄹ -1382
▁2010 -1383
▁ㅇㅏㅆㅇㅓㅆ -1384
ㄹㅈㅣ -1385
BS -1386
ㅇㅞ -1387
▁g -1388
▁ㅌㅏㅁ -1389
▁ㅍㅗㄱㅂㅏㄹ -1390
▁ㅅㅏㅇㅇㅟ -1391
▁ㅁㅜㄴㅎㅘ -1392
ㄹㅜㅂ -1393
▁ㄷㅡㅇㄱㅡㅂ -1394
ㅆㅏ -1395
▁ㅎㅘㄱㅅㅣㄹ -1396
▁80 -1397
ㄸㅓㅎㄱㅔ -1398
▁ㅈㅓㄹㄷㅐ -1399
ㄱㅏㄹ -1400
▁500 -1401
▁ㅈㅣㄴㅉㅏ -1402
ㄷㅓㅁ -1403
▁ㄱㅚㅇㅈㅏㅇㅎㅣ -1404
ㅁㅗㅅ -1405
▁St -1406
▁ㅇㅣㄴㅈㅓㅇ -1407
▁45 -1408
▁ㄱㅕㅇㅎㅓㅁ -1409
ㅊㅐ -1410
▁ㅂㅏㄹㅅㅏ -1411
ㄱㅠㄴ -1412
ㄷㅡㄹㅇㅣ -1413
ER -1414
▁ㅅㅐㅇㅎㅘㄹ -1415
▁ㅋㅓㅁ -1416
ㄱㅓㅁ -1417
▁09 -1418
▁ㄴㅏㄱ -1419
▁ㄱㅜㄹ -1420
▁ㅂㅣㄹ -1421
▁* -1422
ㅇㅏㅂ -1423
▁ㅅㅣㅁㅎㅏ -1424
▁ㅈㅗㄱ -1425
▁ㅌㅡㄱㅂㅕㄹ -1426
▁ㅎㅘㄹㅇㅛㅇ -1427
ㅈㅚ -1428
ㄹㅔㄴ -1429
▁ㅂㅔㄹ -1430
▁ㅈㅜㅇㅇㅏㅇ -1431
▁ㅎㅗㄴㅈㅏ -1432
ㅂㅟ -1433
▁ㅇㅕㄴㄱㅣ -1434
▁ㅁㅜㄷ -1435
ㄴㅔㅅ -1436
▁ㅎㅓㄴ -1437
▁02 -1438
▁ㅂㅏㅇㅎㅑㅇ -1439
▁03 -1440
dd -1441
▁ㄷㅡㅅㅇㅣ -1442
▁197 -1443
▁ㅈㅣㄴㅊㅜㄹ -1444
ㅍㅗㄴ -1445
ㄹㅏㅇㅅㅡ -1446
▁ㅇㅜㄴㄷㅗㅇ -1447
▁ㄴㅏㅁㄱㅣ -1448
▁km -1449
ㅁㅣㅇ -1450
▁ㅎㅏㄴㅈㅓㅇ -1451
▁ㅍㅕㄹ -1452
▁ㅈㅜㅇㄱㅏㄴ -1453
▁ㅁㅣㄷ -1454
▁ㄲㅜㅁ -1455
▁ㄱㅙ -1456
▁ㅇㅜㅅ -1457
▁ㅅㅜㄱ -1458
ㅌㅏㅇ -1459
▁ㅅㅐㅇㅁㅕㅇ -1460
ㅇㅣㄴㅁㅜㄹ -1461
▁ㅈㅜㄴㅂㅣ -1462
▁ㅇㅑㄱㅎㅏ -1463
ㅅㅣㄹㅅㅏㅇ -1464
▁ㅎㅐㄱ -1465
ㅅㅠ -1466
▁2011 -1467
▁ㅇㅔㄴㄷㅣㅇ -1468
▁ㄷㅏㅇㅇㅕㄴㅎㅣ -1469
ㅇㅛㄱ -1470
ㅎㅛ -1471
▁ㅅㅓㄴㄱㅓ -1472
▁ㅇㅏㄴㅌㅏ -1473
ff -1474
▁ㅇㅕㅍ -1475
▁ㅎㅕㄴㅅㅣㄹ -1476
ㅎㅗㄱ -1477
ㅂㅠ -1478
▁ㄲㅓ -1479
▁ㄷㅡㅇㅈㅏㅇㅇㅣㄴㅁㅜㄹ -1480
▁ㄴㅗㄴㄹㅏㄴ -1481
▁ㅈㅚ -1482
▁ㅇㅛㄱ -1483
ir -1484
▁05 -1485
ㅆㅣㄴ -1486
▁ㅅㅜㄴㅇㅟ -1487
ㅌㅗㅇㄹㅕㅇ -1488
▁ㅇㅒ -1489
ㄷㅡㅇㅎㅏㄱㄱㅛ -1490
▁ㅎㅡㅂ -1491
▁ㅅㅣㅀ -1492
▁ㅂㅜㄴㅇㅟ -1493
▁ㄹㅓㄴ -1494
▁Z -1495
▁ㅁㅣㄴㅈㅜ -1496
▁ㄱㅙㄴ -1497
os -1498
▁( -1499
▁ㅎㅔㄹ -1500
▁ㄷㅏㄴㅅㅜㄴ -1501
▁ㅊㅐㅁㅍㅣ -1502
▁ㅊㅏㅁㅇㅕ -1503
▁08 -1504
▁70 -1505
▁90 -1506
▁ㅂㅡㄹㄹㅐㄱ -1507
▁ㅎㅏㄱㄴㅕㄴ -1508
▁ㄷㅗㅇㄹㅛ -1509
▁ㅎㅝㄹ -1510
▁07 -1511
im -1512
▁ㅂㅣㄴ -1513
▁ㅇㅑㄱㄱㅏㄴ -1514
ㄱㅜㅇ -1515
▁ㅈㅜㅇㅅㅣㅁ -1516
▁ㄹㅣㅇㅋㅡ -1517
ㄹㄲㅏ -1518
ㄹㅣㅇ -1519
▁... -1520
▁ㅇㅠㄹ -1521
▁ㅈㅣㄱㅇㅓㅂ -1522
▁ㅇㅕㄹㄹㅣ -1523
▁ㄸㅗㄱ -1524
ㅉㅏㄱ -1525
ㅅㅓㅂ -1526
▁ㅎㅡㅇ -1527
▁ㅅㅓㄹㅊㅣ -1528
▁ㅎㅏㄹ -1529
▁ㅋㅗㅁ -1530
▁48 -1531
▁ㅎㅝㄹㅆㅣㄴ -1532
▁ㄱㅕㄹㅎㅗㄴ -1533
▁ㄷㅗㅂ -1534
▁ㅈㅡㄹ -1535
▁HP -1536
▁ㅈㅗㄹ -1537
▁ㅇㅕㅁ -1538
▁ㄲㅡㄹ -1539
ter -1540
▁ㅈㅓㄴㅇㅛㅇ -1541
▁ㅂㅜㄹㄱㅜ -1542
▁ㅂㅏㅇㅁㅕㄴ -1543
▁06 -1544
▁ㅅㅏㄹㅇㅏ -1545
ㄲㅣㅁ -1546
▁ㅋㅠ -1547
▁ㅇㅣㄺ -1548
▁ㅅㅓㅇㅈㅓㄱ -1549
▁2000 -1550
▁ㅊㅜㄱㄱㅜ -1551
▁ㅇㅣㄹㅈㅓㅇ -1552
▁mm -1553
▁ㅁㅗㄱㅈㅓㄱ -1554
▁ㅌㅏㅅ -1555
ㄷㅏㄱ -1556
▁300 -1557
▁ㅇㅕㄴㅅㅗㄱ -1558
▁33 -1559
▁ㄹㅣㄴ -1560
ㅋㅣㅇ -1561
▁ㅌㅟ -1562
ur -1563
▁ㅇㅣㄱ -1564
▁ㅈㅣㅇ -1565
▁ㅇㅗㅂ -1566
▁ㅆㅏㅇ -1567
▁ㅅㅓㅇㅈㅏㅇ -1568
▁04 -1569
▁ㄹㅠㄹ -1570
▁ㅂㅕㄱ -1571
▁ㅈㅏㄹㅁㅗㅅ -1572
▁ㅅㅏㅁㅅㅓㅇ -1573
ㅎㅖ -1574
▁ㅇㅔㄹㄹㅣ -1575
▁36 -1576
▁ㅈㅗㅇㄹㅠ -1577
ㄴㅑ -1578
▁ㄱㅏㄱㄱㅏㄱ -1579
▁ㅇㅓㄴㅈㅔ -1580
▁e -1581
▁ㅍㅐㄱ -1582
▁ㄷㅏㅇㅅㅣㄴ -1583
▁ㅊㅏㅁㄱㅏ -1584
▁ㅇㅣㄹㅎㅐㅇ -1585
od -1586
▁ㄹㅕㄱ -1587
ㄱㅏㅌ -1588
ㅎㅕㄱ -1589
ㅎㅕㄹ -1590
▁ㅂㅏㄹㅍㅛ -1591
▁th -1592
▁ㄴㅕ -1593
▁ㅈㅓㄴㅅㅓㄹ -1594
▁ㅂㅕㄴㅎㅏ -1595
ㅌㅣㄴ -1596
ag -1597
▁ㄴㅡㄹㅇㅓ -1598
▁ㅈㅓㄴㅁㅜㄴ -1599
▁ㅉㅏㄼ -1600
▁you -1601
▁ㅇㅣㄹㅇㅡ -1602
▁ㅍㅕㄹㅊㅣ -1603
ㅎㅕㅂ -1604
▁ㄱㅜㄷ -1605
▁ㅂㅓㅅ -1606
▁ㅂㅏㅇㅇㅕㅇ -1607
▁ㅂㅓㄹㅇㅓ -1608
▁ㄹㅗㄴ -1609
▁ㄲㅡㄶ -1610
ㅇㅐㄱ -1611
▁ㅇㅜㅁㅈㅣㄱㅇㅣ -1612
▁ㅈㅗㅇㅈㅗㄱ -1613
ㄹㄹㅔ -1614
▁ㅅㅔㄴㅌㅓ -1615
ㅊㅏㅁ -1616
ㅉㅐ -1617
▁ㅎㅑㅇㅎㅏ -1618
ㅂㅣㄴ -1619
▁ㅇㅗㄱ -1620
ㅁㅐㅇ -1621
▁ㅈㅗㅇㄹㅛ -1622
ㅊㅣㄱ -1623
▁ㅇㅜㄴㅎㅐㅇ -1624
▁ㅈㅜㄱㅇㅡㅁ -1625
▁ㅈㅓㄴㅎㅏ -1626
▁ㅊㅜㅇㅂㅜㄴ -1627
▁ㄱㅡㄴㅈㅓㅂ -1628
ㄲㅇㅣ -1629
▁ㄱㅏㄱㅅㅓㅇ -1630
▁FC -1631
ub -1632
▁ㅍㅣㄱ -1633
▁ㅋㅐㅁ -1634
ㅌㅔㄴ -1635
ㅂㅗㄹ -1636
▁ㅈㅏㅇㅊㅏㄱ -1637
▁ㅊㅣㅇ -1638
▁ㄱㅜㄱㅁㅣㄴ -1639
▁ㅅㅏㄱ -1640
ㅂㅗㅅ -1641
ㅊㅓㄱ -1642
▁ㅊㅓㄱ -1643
ㅇㅣㄹㄹㅓ -1644
ㅅㅑ -1645
▁ㅈㅠ -1646
ㄱㅌㅓ -1647
▁ㄷㅓㅁ -1648
▁ㅇㅏㄴㅈㅓㅇ -1649
▁ㅇㅓㅂㄷㅔ -1650
▁ㅈㅓㅁㅅㅜ -1651
▁ㅅㅗㄹ -1652
▁ㄱㅕㅇㅈㅔ -1653
▁cm -1654
▁SK -1655
▁ㅎㅏㅇㄱㅗㅇ -1656
igh -1657
▁ㅇㅔㄴㅈㅣㄴ -1658
▁ㅊㅜㅇㄱㅕㄱ -1659
▁ㅂㅜㅌㅇㅣ -1660
▁ㄷㅏㄹㅅㅓㅇ -1661
▁ㄷㅗㄹㄹㅣ -1662
▁ㅈㅓㅇㅅㅏㅇ -1663
▁ㄱㅗㄷ -1664
ㅇㅘㄴ -1665
ㅋㅣㄴ -1666
ㅇㅓㅁ -1667
▁ㅍㅗㄹ -1668
▁ㅁㅏㄴㄷㅡ -1669
▁ㅂㅓㄴㅎㅗ -1670
ㅂㅏㄷ -1671
▁ㅈㅏㄱㅈㅓㄴ -1672
▁ㅋㅔㄴ -1673
ver -1674
▁ㅁㅗㄱㅅㅗ -1675
▁ㅂㅓㄴㅇㅕㄱ -1676
▁ㅅㅔㅁ -1677
▁ㄸㅗㄱㄱㅏㅌ -1678
▁ㄴㅏㄹㅇㅏ -1679
▁ㅈㅓㅇㅊㅔ -1680
ak -1681
ent -1682
▁ㅁㅗㄱㄹㅗㄱ -1683
ㅋㅔㅅㅁㅗㄴ -1684
ㄷㅜㅇ -1685
▁ㄹㅔㄴ -1686
▁196 -1687
▁ㄴㅏㅁㅅㅓㅇ -1688
▁34 -1689
ㄱㅓㅂ -1690
▁ㅍㅜㅁ -1691
▁ㅈㅓㄴㅈㅏㄱ -1692
▁ㅎㅜㄴㄹㅕㄴ -1693
▁ㅂㅓㄹㅇㅣ -1694
ㄹㅗㄹ -1695
▁ㅈㅓㄴㅊㅏ -1696
ㅅㅔㄴ -1697
▁ㅊㅜㄹㅈㅓㄴ -1698
▁ㅅㅣㅂ -1699
▁ㅇㅏㄱㅁㅏ -1700
▁ㅈㅓㄴㅅㅏ -1701
▁ㄱㅗㅇㅈㅜㅇ -1702
▁ㄴㅗㄹ -1703
▁ㅂㅣㅇ -1704
▁ㅌㅓㄹ -1705
▁ㅁㅏㄴㅇㅑㄱ -1706
▁ㅍㅡㄹㄹㅐ -1707
▁ㄸㅜ -1708
▁ㅂㅜㄴㄴㅗ -1709
▁ㅋㅡㄹㄹㅐ -1710
▁ㄱㅙㄴㅊㅏㄶ -1711
ㅊㅟ -1712
▁ㅂㅕㄴㅎㅘ -1713
▁ㄹㅐㄴ -1714
▁ㅅㅐㅇㅈㅗㄴ -1715
▁ㅎㅕㄹ -1716
▁ㅎㅗㅁㄹㅓㄴ -1717
ㄱㅣㄹ -1718
ㄲㅡ -1719
▁ㅅㅣㄴㄱㅕㅇ -1720
▁ㄷㅗㅇㅁㅜㄹ -1721
um -1722
▁ㅇㅣㄴㅅㅏ -1723
▁ㄷㅡㄱㅈㅓㅁ -1724
▁ㄷㅟㅅ -1725
ㅌㅗㄴ -1726
ㄴㅣㄱ -1727
BC -1728
▁ㅅㅕㄴ -1729
▁ㅇㅕㄴㄱㅕㄹ -1730
▁ㄷㅏㄴㅈㅓㅁ -1731
▁75 -1732
▁ㅍㅣㄹㄷㅡ -1733
ㅋㅠ -1734
ut -1735
▁ㅂㅣㄱ -1736
ㅇㅠㄴ -1737
▁ㅎㅏㄴㅍㅕㄴ -1738
▁ㄱㅜㄱㅈㅔ -1739
▁ㅈㅏㅇㄱㅏㅂ -1740
▁ㄱㅓㄴㄷㅏㅁ -1741
▁ㄴㅐㅇ -1742
▁ㅌㅡㄱㅈㅓㅇ -1743
▁ㅂㅔㄴ -1744
▁ㅂㅏㄴㅁㅕㄴ -1745
▁ㅇㅕㄴㅎㅏㅂ -1746
ec -1747
▁ㄹㅛ -1748
▁ㅈㅓㄴㄱㅣ -1749
▁vs -1750
▁ㅍㅏㄴㅈㅓㅇ -1751
▁38 -1752
ㅉㅓ -1753
▁ㅈㅏㅇㅅㅗ -1754
▁in -1755
ㅇㅕㅂ -1756
▁ㄴㅓㅁㄱㅣ -1757
▁ㄱㅗㅇㅇㅕㄴ -1758
▁ㅁㅐㅇ -1759
▁ㄹㅗㅅ -1760
▁ㅅㅣㅇㄱㅡㄹ -1761
▁ㅎㅏㅇㅅㅏㅇ -1762
▁ㅁㅕㄹ -1763
▁ㅁㅗㄱㅍㅛ -1764
▁ㅈㅓㅇㅈㅏㄱ -1765
▁ㅇㅕㄴㅊㅜㄹ -1766
ㅇㅏㄹ -1767
▁ㄱㅘㄴㅅㅣㅁ -1768
▁55 -1769
▁ㄲㅗㅊ -1770
▁2009 -1771
▁ㄷㅓㄴㅈㅓㄴ -1772
ㅃㅏ -1773
ㅂㅜㅌ -1774
▁ㅂㅕㄹㄹㅗ -1775
▁ㄴㅗㄹㄹㅏ -1776
ㄷㅗㅇㅇㅏㄴ -1777
▁ㅊㅏㄴ -1778
▁Q -1779
▁ㅊㅓㄹㄷㅗ -1780
▁to -1781
▁ㅂㅕㄴㅅㅣㄴ -1782
ㄴㅠ -1783
ro -1784
ST -1785
▁ㄴㅗㅁ -1786
ㄹㅠㄱ -1787
ㅅㅟㅂ -1788
ㄹㅕㄹ -1789
ㅈㅡㅁ -1790
▁ㄴㅓㄼ -1791
▁ㅇㅏㄹㅇㅏ -1792
▁ㅈㅓㅇㅅㅣㄱ -1793
ㅎㅏㄱㅅㅐㅇ -1794
▁ㅎㅕ -1795
▁ㅈㅏㄱㄱㅗㄱ -1796
ㅋㅗㄴ -1797
▁ㄱㅕㄹㅅㅡㅇ -1798
▁ㅇㅗㅅ -1799
▁_ -1800
▁ㄱㅏㅂㅈㅏ -1801
▁ㅎㅗㄹ -1802
▁ㅆㅏㅎ -1803
ㅘㄹ -1804
▁ㄱㅏㄱㅈㅗㅇ -1805
▁ㅌㅡㄹ -1806
▁ㅎㅘㅇㅈㅔ -1807
▁ㅎㅘㄱㅈㅓㅇ -1808
▁ㅈㅗㄹㅇㅓㅂ -1809
▁ㅋㅟ -1810
ㅍㅖ -1811
▁ㄹㅗㄱ -1812
▁ㅇㅣㄹㄹㅓ -1813
▁ㅂㅕㅇㄹㅕㄱ -1814
▁ㅌㅡㄱㅇㅣ -1815
▁ㅈㅓㄴㅂㅏㄴ -1816
ㅅㅔㅂ -1817
▁ㅈㅣㄴㅎㅘ -1818
▁ㄲㅏㄹ -1819
▁ㅂㅜㄱㅎㅏㄴ -1820
ㅅㅙ -1821
▁ㅅㅏㄹㄹㅣ -1822
▁ㅂㅏㄹㅈㅓㄴ -1823
ㅇㅏㅁ -1824
ㅁㅠ -1825
▁ㅇㅚㄴ -1826
▁ㄱㅓㄴㅅㅓㄹ -1827
▁ㅉㅡㅁ -1828
▁ㅇㅏㅂㄷㅗ -1829
ㅈㅣㅅ -1830
ㅎㅓ -1831
ㅌㅔㄹ -1832
em -1833
ㅁㅏㄹㄹㅗ -1834
▁EX -1835
ㅂㅡㄴ -1836
▁2008 -1837
▁ㅇㅕㄱㄷㅐ -1838
▁ㄱㅏㅁㅈㅓㅇ -1839
▁ㅌㅏㄹㅊㅜㄹ -1840
▁ㅅㅏㄱㅈㅔ -1841
▁ㅈㅣㄱㅈㅓㄴ -1842
ight -1843
▁ㄸㅢ -1844
▁ㅇㅣㅁㅁㅜ -1845
▁ㄴㅏㅂ -1846
ㄴㅏㄱ -1847
▁ㄱㅗㄹㄷㅡ -1848
▁ㅌㅔㄴ -1849
AN -1850
▁ㅈㅓㅇㅎㅏ -1851
ㄷㅜㅁ -1852
▁ㅈㅣㅂㅈㅜㅇ -1853
ㅇㅏㅅ -1854
ㅎㅡㅇ -1855
▁ㅈㅓㅁㅍㅡ -1856
▁ㄱㅣㅍ -1857
AR -1858
ㄲㅡㄹ -1859
▁ㅇㅣㅇ -1860
▁ㅈㅓㄴㄱㅜㄱ -1861
▁ㅇㅣㄴㄱㅜ -1862
▁ㅅㅏㅇㄱㅘㄴ -1863
ㄹㄹㅣㅇ -1864
▁ㅁㅕㅇㄹㅕㅇ -1865
▁ㅂㅜㄴㄹㅠ -1866
▁ㅈㅏㄱㅇㅓㅂ -1867
▁ㄴㅚ -1868
▁ㄹㅐㅇㅋㅡ -1869
▁ㅇㅘㄴㅈㅓㄴ -1870
▁ㅇㅣㄴㅅㅣㄱ -1871
ㅈㅔㄱㅌㅡ -1872
▁ㅇㅕㄴㅅㅡㅂ -1873
▁ㄱㅗㅇㄱㅏㄴ -1874
▁ㅁㅜㄹㄱㅓㄴ -1875
▁ㄹㅗㄹ -1876
ap -1877
▁ㄱㅘㄴㅎㅏ -1878
▁ㅈㅏㅁㅅㅣ -1879
▁ㅇㅣㅅ -1880
ㄱㅕ -1881
▁ㄱㅕㅇㅈㅐㅇ -1882
▁ㄱㅡㄱㅈㅏㅇ -1883
▁ㅇㅖㅅ -1884
▁42 -1885
▁ㅈㅏㅇㅈㅓㅁ -1886
▁ㄴㅗㅍㅇㅣ -1887
ㅋㅓㅂ -1888
ON -1889
▁41 -1890
▁ㅋㅓㄹ -1891
ㅊㅣㄴ -1892
▁ㅂㅕㄹㅁㅕㅇ -1893
▁ㅋㅓㅂ -1894
▁ㄱㅜㄴㅅㅏ -1895
▁ㅊㅘㄹ -1896
▁ㅍㅗㄴ -1897
▁ㅇㅓㅂㄱㅡ -1898
▁ㅎㅐㅇㅈㅓㅇ -1899
▁ㄷㅏㄴㅇㅓ -1900
▁ㅂㅣㄹㄹㅣ -1901
▁ㅁㅗㄴ -1902
▁ㅂㅕㅇㅇㅝㄴ -1903
▁ㄱㅡㄴㅊㅓ -1904
▁ㅁㅗㅇ -1905
▁ㅋㅝ -1906
▁ㅇㅣㄴㅊㅓㄴ -1907
▁194 -1908
▁No -1909
▁ㅂㅏㄹㅇㅓㄴ -1910
▁ㅂㅜㄹㄱㅏ -1911
▁ㅈㅓㄴㄹㅕㄱ -1912
▁ㅇㅡㄴㄷㅔ -1913
▁ㅅㅏㄹㅇㅣㄴ -1914
▁39 -1915
▁ㅍㅡㄹㄹㅏ -1916
▁ㅍㅔㄴ -1917
▁ㄲㅜㄴ -1918
▁Ch -1919
ㅊㅗㄴ -1920
▁ㅈㅓㄴㄱㅐ -1921
▁ㅅㅜㅁㄱㅣ -1922
ㄹㅣㅅ -1923
▁ㅈㅓㄴㅈㅏ -1924
ㅂㅏㅂ -1925
▁ㅅㅣㄴㅊㅔ -1926
▁ㅈㅓㅇㄹㅣ -1927
▁> -1928
▁', -1929
▁ㄱㅕㅁ -1930
▁ㅍㅏㄴㄷㅏㄴ -1931
▁ㄱㅏㅇㅈㅔ -1932
ㅂㅓㅂㅅㅏ -1933
▁ㅊㅘㄹㅇㅕㅇ -1934
▁ㅁㅣㅌ -1935
▁ㅂㅗㄴㄹㅐ -1936
▁ㅈㅏㅂㅎㅣ -1937
ul -1938
▁ㄴㅏㅅ -1939
ㄹㅔㄱ -1940
▁kg -1941
▁ㅂㅏㄷㅇㅏ -1942
▁ㅂㅜㅇ -1943
▁ㅃㅜ -1944
▁st -1945
▁44 -1946
▁ㄱㅗㅇㅈㅜ -1947
▁ㅃㅏㄹㄹㅣ -1948
▁ㅅㅔㅅ -1949
▁ㅂㅕㅇㅅㅏ -1950
▁ㅅㅓㄴㅅㅐㅇ -1951
ce -1952
ik -1953
▁ㄷㅗㄱㄹㅣㅂ -1954
▁2020 -1955
▁; -1956
▁ㅁㅔㄴ -1957
▁ㅇㅘㅇㄱㅜㄱ -1958
ㅊㅡㅇ -1959
▁ㅂㅜㄴㅁㅕㅇ -1960
▁ㄲㅡㅌㄴㅐ -1961
▁ㅎㅏㄱㅇㅝㄴ -1962
▁ㄱㅏㅈㅊㅜ -1963
▁ㅎㅗㅁㅍㅔ -1964
▁ㅍㅕㅇㄱㅠㄴ -1965
▁ㅍㅗㄱㅌㅏㄴ -1966
000 -1967
▁ㄲㅗㄱ -1968
ㅅㅜㅁ -1969
▁99 -1970
▁ㄱㅜㄴㄷㅐ -1971
▁ㄷㅗㅇㅅㅐㅇ -1972
▁ㅉㅗㅊ -1973
ㅎㅡ -1974
▁ㄹㅗㅅㄷㅔ -1975
▁ㅅㅗㄱㅎㅏ -1976
▁LG -1977
▁ㅈㅜㅇㅂㅏㄴ -1978
▁ㅇㅏㅍㅅㅓ -1979
▁ㄴㅣㄴ -1980
▁ㅂㅜㄺ -1981
ㅌㅏㄹㄹㅣ -1982
▁ㅈㅣㅁ -1983
▁ㅎㅐㅇㅇㅟ -1984
▁ㄷㅏㄴㅊㅔ -1985
▁ㅇㅡㅁㅅㅣㄱ -1986
▁ㅌㅐㅇ -1987
▁ㄱㅕㄲ -1988
▁ㄸㅓㄱ -1989
▁ㅇㅞㅂ -1990
▁ㅇㅘㄴㅂㅕㄱ -1991
▁ㅇㅗㅂㅅㅕㄴ -1992
▁2007 -1993
▁ㅎㅕㄴㅅㅏㅇ -1994
▁ㅂㅏㄴㄷㅡ -1995
▁195 -1996
ㄱㅓㄹ -1997
all -1998
ㅅㅡㅁ -1999
▁43 -2000
▁ㅌㅏㄹㄹㅏㄱ -2001
▁ㅇㅝㄴㅇㅣㄴ -2002
ㄱㅈㅓㅇ -2003
▁ㅇㅘㄴㅅㅓㅇ -2004
▁ㅈㅜㄹㅇㅓ -2005
IN -2006
ㅋㅛ -2007
▁ㅌㅗㅇㅎㅏㅂ -2008
ㅁㅛ -2009
▁ㄴㅡㄹ -2010
ㄷㅗㅇㅊㅏ -2011
ㄹㅏㄴㄷㅡ -2012
▁ㅈㅓㄴㄹㅑㄱ -2013
▁ㅈㅣㄱㅎㅜ -2014
▁MA -2015
▁ㅂㅗㄱㄱㅟ -2016
▁ㄷㅏㄴㅈㅣ -2017
▁ㅌㅔㅁ -2018
▁ㅎㅘㄴㄱㅕㅇ -2019
nd -2020
ㅉㅣㄱ -2021
▁ㅂㅗㄱㅅㅜ -2022
▁ㅎㅣㄹ -2023
▁ㄱㅘㅇㅇㅕㄱ -2024
▁ㄴㅡㅈ -2025
▁ㄱㅓㄱㅈㅓㅇ -2026
▁ㅇㅕㄴㅈㅐ -2027
▁ㅇㅣㄴㄷㅗ -2028
▁ㅎㅏㄴㄱㅡㄹ -2029
▁46 -2030
▁47 -2031
ㅊㅓㅂ -2032
▁ㅈㅓㅇㄱㅠ -2033
▁ㅂㅏㅂ -2034
▁ㅇㅕㄴㅈㅏㅇ -2035
▁2006 -2036
▁ㅇㅣㅂㅎㅣ -2037
▁ㅅㅣㅁㄱㅏㄱ -2038
▁ㅍㅕㅇㅂㅓㅁ -2039
▁ㅇㅗㄻ -2040
▁ㅈㅜㄹㅇㅣ -2041
▁ㅊㅐㄱㅇㅣㅁ -2042
▁ㅃㅓㄴ -2043
▁ㄱㅗㅇㅍㅗ -2044
▁ㄷㅓㄹ -2045
▁ㅅㅣㄹㅎㅓㅁ -2046
th -2047
▁ㅈㅓㅁㅈㅓㅁ -2048
▁ㅅㅑㅅ -2049
▁51 -2050
ㅁㅔㄴ -2051
▁ㅋㅐㅂ -2052
ㅅㅣㅇ -2053
▁ㄱㅜㄷㅇㅣ -2054
ㅊㅕ -2055
tt -2056
▁ㅅㅏㅇㅅㅔ -2057
▁ㅌㅐㄱ -2058
ㅅㅓㅅ -2059
▁ㅍㅣㄹㅅㅏㄹ -2060
▁ㅍㅗㅁ -2061
▁ㅅㅖ -2062
▁ㅈㅓㅂㄱㅡㄴ -2063
▁ㅅㅓㅇㅎㅑㅇ -2064
▁ㅈㅗㅎㅇㅏ -2065
▁ㅈㅡㄹㄱㅣ -2066
▁ㅈㅜㅇㅎㅏㄱㄱㅛ -2067
ㅎㅗㅇ -2068
▁ㅅㅣㄹㅈㅓㅁ -2069
▁ㅎㅏㄴㄱㅖ -2070
ㅁㅏㅈ -2071
op -2072
▁ㅋㅗㄹ -2073
▁ㅇㅕㅇㅎㅗㄴ -2074
ㅊㅓㅇㅈㅏ -2075
ㅇㅜㄴㄷㅔ -2076
ㄷㅠ -2077
▁ㅇㅔㄱㅅㅡ -2078
▁ㅈㅐㄱ -2079
ㅈㅘ -2080
▁ㅌㅗㄴ -2081
▁SP -2082
▁ㄱㅜㄱㅎㅚ -2083
▁ㅁㅓㅅ -2084
st -2085
▁ㅈㅓㅇㅎㅘㄱㅎㅣ -2086
▁ㅇㅏㅁㅅㅏㄹ -2087
ㅈㅜㄱ -2088
ㅌㅏㅂ -2089
▁ㅇㅏㅇ -2090
ㅂㅣㅇ -2091
▁ㅎㅏㅁㅈㅓㅇ -2092
▁ㅍㅕㅇㅅㅗ -2093
▁ㅈㅓㅇㅇㅢ -2094
▁ㅇㅗㄻㄱㅣ -2095
ation -2096
▁ㄱㅘㅇㄱㅗ -2097
ㅍㅣㄱ -2098
▁ㅈㅏㅇㄹㅡ -2099
▁ㅎㅕㄱ -2100
ra -2101
▁ㅂㅓㅁㅈㅚ -2102
▁ㅂㅗㅇㅇㅣㄴ -2103
▁ㅅㅜㅍ -2104
ㅇㅑㅇㅇㅣ -2105
▁1000 -2106
ack -2107
▁ㅈㅓㄴㅎㅘ -2108
▁ㅎㅘㄱㅈㅏㅇ -2109
ia -2110
▁ㅇㅜㄴㅇㅛㅇ -2111
▁ㅎㅏㅂㄹㅠ -2112
▁ㄱㅗㅇㄹㅑㄱ -2113
▁ㅈㅏㅇㅊㅣ -2114
▁and -2115
▁ㅃㅏㅇ -2116
ㅁㅕㅊ -2117
ㅅㅕㄹ -2118
▁ㅁㅕㅊㅁㅕㅊ -2119
▁ㄱㅓㅁㅅㅏ -2120
ㄲㅗㅊ -2121
oc -2122
▁ㄱㅡㅁㅈㅣ -2123
ㅇㅗㄹㄹㅣ -2124
ㅊㅚ -2125
▁ㅈㅗㅇㅈㅗㅇ -2126
▁150 -2127
▁ㅊㅜㅇㅂㅜㄴㅎㅣ -2128
▁ㅈㅓㅇㄷㅏㅇ -2129
▁65 -2130
▁ㅇㅡㄹㅈㅣ -2131
▁ㅅㅣㄹㅅㅜ -2132
▁ㅈㅟ -2133
▁ㅌㅡㄱㅇㅠ -2134
▁ㅊㅣㄹ -2135
▁ㄸㅜㅀ -2136
ㅡㄹㄹㅣㅇ -2137
▁ㄱㅡㄴㄷㅔ -2138
▁ㄱㅐㄹㄹㅓ -2139
ㅇㅣㅆ -2140
▁ㅇㅣㅈ -2141
▁ㅋㅡㄹㄹㅓㅂ -2142
ㅁㅏㅇㅊㅣ -2143
▁VS -2144
▁ㅂㅡㄹㄹㅜ -2145
▁ㅇㅔㅁ -2146
ㅍㅔㄴ -2147
▁ㅂㅗㄴㄱㅕㄱ -2148
ㄹㅗㅇ -2149
ㅂㅎㅣ -2150
▁ㄴㅡㄴㄱㅏ -2151
ㅅㅈㅏ -2152
▁ㅈㅓㄴㅇㅝㄴ -2153
▁ㅈㅗㅇㄱㅛ -2154
▁ㅎㅕㅇㅈㅔ -2155
ie -2156
ㅁㅏㄶ -2157
ill -2158
▁ㅂㅐㄹ -2159
▁ㅎㅐㅇㅅㅏ -2160
ㅈㅔㄹ -2161
▁ㅇㅣㄴㅅㅏㅇ -2162
ㄲㅏㄴ -2163
ㄴㅕㅇ -2164
ㅌㅡㄱ -2165
ㄲㅓ -2166
▁ㅂㅏㄹㅇㅡㅁ -2167
▁ㅎㅠㅇ -2168
▁%, -2169
▁ㅅㅏㅇㅈㅣㅇ -2170
▁2005 -2171
▁52 -2172
▁ㅇㅝㄴㅈㅓㅇ -2173
▁KBS -2174
▁ㅈㅗㅇㅎㅏㅂ -2175
▁II -2176
▁ㅂㅐㄴㄷㅡ -2177
▁ㅂㅡㄹㄹㅔ -2178
art -2179
▁ㅌㅠ -2180
▁ㅁㅓㄱㅇㅣ -2181
▁64 -2182
▁ㄱㅜㄴㄷㅏㄴ -2183
ㅁㅗㅇ -2184
ㅍㅠ -2185
▁ㄱㅏㄹㄹㅣ -2186
ㅌㅔㄴㅊㅡ -2187
ㅅㅣㅂ -2188
ㅎㅓㄴ -2189
▁ㅂㅏㅇㅍㅐ -2190
▁ㅇㅣㄴㅇㅝㄴ -2191
▁ㄷㅏㄹㄹㅏ -2192
ㅌㅓㄹ -2193
▁ㅅㅐㅇㅁㅜㄹ -2194
▁ㅂㅜㄹㅁㅕㅇ -2195
▁ㅇㅣㄹㅂㅗㄴㅇㅓ -2196
▁ㅈㅏㅇㄴㅏㄴ -2197
▁ㅎㅕㅇㅅㅣㄱ -2198
ㄷㅗㄴ -2199
ㄴㅓㅁ -2200
▁ㅇㅑㄱㅈㅓㅁ -2201
▁ㄱㅘㄴㅌㅗㅇ -2202
▁ㅋㅓㄴㅅㅔㅂ -2203
ㅈㅜㄹ -2204
▁ㅁㅗㅂ -2205
ㄲㅗ -2206
▁ㄱㅘㅇㅈㅜ -2207
▁ㄷㅏㄹㄹㅓ -2208
▁You -2209
▁ㅎㅐㅇㅅㅓㅇ -2210
ㄹㅓㄴㅅㅡ -2211
ㅂㅣㅊ -2212
▁2004 -2213
▁ㅇㅏㄵ -2214
▁ㄴㅜㄴㅁㅜㄹ -2215
ri -2216
▁ㅈㅓㅇㅊㅐㄱ -2217
▁ㅈㅓㄴㅅㅜㄹ -2218
▁ㅅㅏㅇㅈㅏ -2219
▁ㅌㅗㅇㅅㅣㄴ -2220
▁ㄴㅣㄱ -2221
ㅁㅐㄱ -2222
uby -2223
▁ㅂㅓㅅㅇㅓ -2224
▁ㅇㅐㄱㅅㅕㄴ -2225
▁ㅂㅏㄱㅅㅏ -2226
ab -2227
▁49 -2228
▁ㄷㅡㄹㄹㅣ -2229
▁ㅈㅓㄻ -2230
RA -2231
▁ㄹㅏㄱ -2232
▁AP -2233
▁ㅁㅕㅇㅈㅜㅇ -2234
▁ㅂㅏㄴㅂㅗㄱ -2235
▁ㄱㅏㄴㄷㅏㄴ -2236
▁ㄹㅐㅇ -2237
▁ㅇㅝㄴㄱㅓ -2238
▁ㅇㅣㄴㅎㅕㅇ -2239
ㄲㅐ -2240
▁56 -2241
▁ㅋㅜㄹㅌㅏ -2242
▁ㄹㅏㅂ -2243
est -2244
▁ST -2245
ㄱㅅㅣ -2246
▁ㄸㅔ -2247
ㅇㅝㄴㅎㅚ -2248
▁ㅊㅐㅇ -2249
▁400 -2250
▁ruby -2251
▁ㄷㅡㅇㄹㅗㄱ -2252
▁ㄱㅡㄴㄱㅓ -2253
▁ㅇㅕㅇㅇㅣㅂ -2254
▁ㄱㅗㅇㄷㅗㅇ -2255
▁MBC -2256
ㅍㅣㅇ -2257
▁ㅆㅡㄹ -2258
▁ㅇㅓㄴㄹㅗㄴ -2259
▁ㄱㅏㅄ -2260
▁ㅇㅕㄹㅊㅏ -2261
▁In -2262
▁dd -2263
▁ㅁㅗㄱㅅㅜㅁ -2264
▁ㅋㅛ -2265
▁ㅇㅞㄴ -2266
ㅡㄹㄹㅣㄴ -2267
ttp -2268
AL -2269
ㅇㅜㄴㅌㅓ -2270
▁http -2271
▁ㅅㅓㄴㅇㅓㄴ -2272
▁85 -2273
ㅇㅗㅅ -2274
▁ㅎㅏㄴㄱㅜㄱㅇㅓ -2275
ㅍㅏㄹ -2276
▁ㅎㅕㅁ -2277
ㅋㅟ -2278
▁ㅇㅓㄴㅇㅓ -2279
ㅌㅓㅁ -2280
▁ㅍㅜㄹㄹㅣ -2281
▁ㅎㅖ -2282
▁ㅎㅡㅂㅅㅜ -2283
▁ㅅㅓㄹㄱㅖ -2284
ㅅㅅㅜ -2285
▁ㅅㅡㅇㅂㅜ -2286
▁ㅂㅏㅇㅎㅐ -2287
▁ㅇㅕㄱㅈㅓㄴ -2288
▁ㅌㅐㅅ -2289
▁193 -2290
▁53 -2291
ㅋㅐ -2292
▁ㅍㅕㄴㅎㅏ -2293
▁54 -2294
▁2002 -2295
▁ㅇㅓㅁㅁㅏ -2296
ㅆㅡ -2297
ㄷㅡㅁ -2298
▁ㅇㅗㄹㄹㅣㅁㅍㅣ -2299
▁ㅇㅕㄴㄱㅖ -2300
ㅍㅣㄴ -2301
▁ㅁㅏㅇㅎㅏ -2302
▁ㅅㅜㅅㅈㅏ -2303
▁ㅋㅡㄹㄹㅏ -2304
▁ㅋㅓㅁㅍㅠ -2305
▁ㅍㅠ -2306
▁ㅍㅣㄹㅅㅏㄹㄱㅣ -2307
▁ㅎㅏㅂㅊㅣ -2308
▁ㄷㅏㄻ -2309
▁ㅊㅕ -2310
▁ㅇㅝㄴㅎㅏ -2311
ㅏㅅㅓ -2312
▁ㅈㅏㅂㅇㅏ -2313
▁ㅈㅣㄴㅇㅣㅂ -2314
▁ㅂㅜㄹㄱㅘ -2315
▁ㄱㅕㅂ -2316
▁ㄹㅏㄹ -2317
ㅇㅕㄴㅎㅣ -2318
▁ㅎㅘㅇㄱㅡㅁ -2319
ㅋㅗㅇ -2320
▁PC -2321
ㄹㅏㅎ -2322
▁ㅇㅘㄴㄹㅛ -2323
▁ㅁㅐㅈ -2324
▁ㅈㅣㄹㅁㅜㄴ -2325
▁ㅈㅏㅇㄱㅣ -2326
▁ㅌㅔㄹ -2327
▁ㅅㅏㄴㅇㅓㅂ -2328
▁ㅅㅐㅇㅅㅓㅇ -2329
▁ㅊㅏㄱㅇㅛㅇ -2330
▁ㅈㅓㄱㅈㅓㄹ -2331
▁ㄷㅓㅇ -2332
▁Sh -2333
ㄷㅔㄴ -2334
▁ㄱㅗㅇㅎㅘ -2335
▁ㄷㅏㄴㅅㅜㄴㅎㅣ -2336
ㄷㅗㅇㅅㅐㅇ -2337
▁ㅍㅣㅇ -2338
▁ㄷㅡㄹㅇㅣ -2339
dddd -2340
▁ㄴㅏㄹㄱㅐ -2341
▁dddddd -2342
▁ㅁㅓㅁ -2343
▁ㅍㅣㄹㅅㅜ -2344
▁ㄸㅏㄱㅎㅣ -2345
▁ㅅㅣㄹㅅㅣ -2346
▁ㅋㅓㅅ -2347
▁ㄷㅗㄱㅈㅏ -2348
▁ㄲㅡㄹㅇㅓ -2349
▁ㅍㅕㄴㅅㅓㅇ -2350
ㅂㅣㄹ -2351
▁ff -2352
▁ㅅㅓㄴㅈㅓㅇ -2353
▁ㅇㅣㄴㄹㅠ -2354
▁ㅎㅐㅇㅈㅓㄱ -2355
▁ㅅㅓㄴㅁㅜㄹ -2356
▁ㅎㅘㄱㅅㅣㄹㅎㅣ -2357
up -2358
▁ㅅㅡㅂㄱㅕㄱ -2359
▁ㄴㅔㄱ -2360
▁ㅈㅓㄴㅎㅘㄴ -2361
▁ㅇㅕㄴㅈㅜ -2362
▁ㄱㅏㅁㅇㅏㄴ -2363
ㅋㅏㄴ -2364
▁ㄷㅏㅇㅈㅏㅇ -2365
▁ㅎㅜㄹ -2366
ㄴㅗㄴ -2367
▁ㅇㅚㄴㅉㅗㄱ -2368
▁ㅌㅡㄱㄱㅣ -2369
ㄴㅣㅁ -2370
▁ㅂㅏㄱㅅㅡ -2371
▁ㄲㅗㄹ -2372
▁ㄱㅓㄷ -2373
▁ㅈㅣㅂㄷㅏㄴ -2374
▁ㅎㅏㅁㄷㅐ -2375
▁ㅅㅗㄹㄹㅗ -2376
▁ㅇㅏㄴㅈㅓㄴ -2377
ㅌㅣㄱ -2378
▁re -2379
▁i -2380
▁59 -2381
▁ㄱㅣㄴ -2382
▁ㅈㅏㅁㄲㅏㄴ -2383
ㅍㅜㄹ -2384
▁ㅎㅘㄱㅂㅗ -2385
▁MP -2386
▁ㅎㅐㅇㅂㅗㄱ -2387
ㅂㅌㅓ -2388
▁ㄱㅕㅇㄹㅕㄱ -2389
VE -2390
ㄱㅜㄱㅇㅣㄴ -2391
▁ㄷㅗㄹㅍㅏ -2392
▁ㅊㅣㄴㅎㅏ -2393
ㅅㅕ -2394
▁ㅊㅐㅇㄱㅣ -2395
▁ㅅㅓㄹㄹㅣㅂ -2396
▁ㅌㅗㅇㄱㅘ -2397
▁Re -2398
▁ㅇㅡㄹㄲㅏ -2399
▁ㅇㅗㄹㄹㅣㅁㅍㅣㄱ -2400
▁ㅈㅏㅇㄱㅜㄴ -2401
▁ㅇㅣㄹㅈㅗㅇ -2402
ate -2403
▁ㅈㅣㄴㅈㅓㅇ -2404
▁ㅈㅓㄴㅌㅗㅇ -2405
▁Sp -2406
ㅁㅣㄱㅅㅡ -2407
▁58 -2408
▁ㅇㅏㄴㄷㅡ -2409
▁ㅋㅓㄴㅌㅡ -2410
▁ㅁㅓㅁㅊㅜ -2411
▁ㅅㅏㅇㅊㅓ -2412
ard -2413
▁ㅅㅓㄴㅂㅗ -2414
▁ㅁㅓㄹㅌㅣ -2415
ㅊㅣㄹ -2416
▁ㅈㅓㄱㄱㅡㄱ -2417
▁ㅎㅚㅅㅅㅜ -2418
▁ㄱㅗㅇㅎㅏㅇ -2419
▁120 -2420
ㅁㅗㄹ -2421
▁ㄱㅗㅇㅅㅏ -2422
▁ㅇㅣㄴㅈㅣ -2423
AT -2424
▁ㅊㅗㄱ -2425
ㄷㅚ -2426
▁ㄷㅣㄹㄹㅓ -2427
▁ㅍㅕㄴㅈㅣㅂ -2428
▁ㄸㅓㄹ -2429
▁ㅂㅏㅇㅁㅜㄴ -2430
ang -2431
OR -2432
▁ㅁㅜㄴㅁㅕㅇ -2433
ㅇㅜㄹㄹㅣ -2434
▁57 -2435
▁ㅍㅓㄴ -2436
▁ㄴㅜㄴㅊㅣ -2437
▁ㄹㅗㅇ -2438
▁ㅎㅕㄴㅈㅏㅇ -2439
▁66 -2440
▁95 -2441
▁ㅇㅓㅇ -2442
▁ㄷㅗㅇㅁㅐㅇ -2443
▁ㄷㅐㅅ -2444
ㅁㅓㄹ -2445
▁2003 -2446
ㄹㅏㄹ -2447
▁ㅈㅏㄱㅅㅓㅇ -2448
▁ㅈㅣㄴㅇㅕㅇ -2449
▁ㅋㅗㅇ -2450
▁ㅈㅓㄴㅈㅏㅇ -2451
▁ㅂㅐㅁ -2452
▁ㄱㅐㅇ -2453
▁ㅂㅜㄴㄹㅣ -2454
▁ㅈㅏㅇㅈㅓㄴ -2455
▁ㅎㅏㄴㅈㅏ -2456
ㅅㅚ -2457
IA -2458
▁ㅇㅠㄱㄱㅜㄴ -2459
▁ㅇㅜㄹㅌㅡ -2460
▁ㅅㅕ -2461
▁ㄱㅗㅇㅂㅜ -2462
ㅅㅏㅁ -2463
▁ㅅㅏㅁㄱㅜㄱ -2464
ㄹㅡㅁㄷㅏㅂ -2465
PS -2466
▁ㄱㅞ -2467
▁ㅊㅓㅇㅅㅗ -2468
▁ㅇㅐㄴ -2469
▁be -2470
ess -2471
ok -2472
ant -2473
▁ㅍㅕㅇㅎㅘ -2474
▁Bl -2475
ㄹㅡㄴㅉㅗㄱ -2476
▁BG -2477
▁110 -2478
▁ㅅㅓㅇㅇㅣㄴ -2479
ㄹㅣㄹ -2480
▁ㅁㅓㄹㄹㅣ -2481
ㄹㅅㅜ -2482
▁ㄱㅕㄴㅈㅔ -2483
▁on -2484
▁ㄹㅜㄹ -2485
▁ㅇㅛㅇㅂㅕㅇ -2486
▁ㅈㅓㅁㄹㅕㅇ -2487
▁ㄱㅜㅇㄱㅡㄱ -2488
▁ㅌㅏㅂㅈㅐ -2489
ell -2490
▁ㅇㅟㄴ -2491
▁ㄱㅡㄱㅈㅏㅇㅍㅏㄴ -2492
▁ㅊㅜㅁ -2493
IC -2494
▁SS -2495
ㅂㅕㅂ -2496
▁or -2497
ㅇㅔㄴ -2498
▁ㅈㅣㄴㅅㅣㄹ -2499
ㅓㅅㅓ -2500
ct -2501
▁ㅊㅜㅇㅈㅓㄴ -2502
▁62 -2503
▁ㅈㅣㄱㅇㅝㄴ -2504
▁ㄴㅏㅁㅍㅕㄴ -2505
▁373 -2506
▁ㄱㅘㄴㄱㅘㅇ -2507
ue -2508
ㅌㅣㅁ -2509
ine -2510
▁ㅈㅓㅇㄹㅕㅇ -2511
▁ㅈㅏㄶ -2512
ㅂㅏㄴㅂㅜ -2513
▁ㅅㅜㄴㅅㅓ -2514
▁ㅇㅡㄴㅌㅚ -2515
▁ㄷㅐㄴㅅㅡ -2516
▁ㅂㅡㄹㄹㅗ -2517
▁ㅇㅗㄴㄹㅏ -2518
▁ㅌㅡㅁ -2519
▁ㅎㅏㄴㅎㅘ -2520
▁.... -2521
▁ㄴㅡㄹㄹㅣ -2522
▁NP -2523
▁ㅁㅕㄹㅁㅏㅇ -2524
▁Al -2525
▁ㄱㅕㄱㅌㅜ -2526
▁ㅂㅐㄹㄹㅓㄴㅅㅡ -2527
ㅇㅣㄴㅈㅣ -2528
ㅊㅜㄴ -2529
▁ㅇㅑㄱㅅㅗㄱ -2530
ist -2531
▁ㅇㅓㄹㅇㅡㅁ -2532
▁76 -2533
▁Th -2534
ore -2535
ove -2536
ㅎㅡㄱ -2537
▁ㄱㅏㅅ -2538
▁com -2539
▁ㄷㅡㅇㄷㅡㅇ -2540
▁ㅂㅣㅁ -2541
▁ㅁㅏㄱㅎㅣ -2542
ㅁㅏㄴㅋㅡㅁ -2543
▁77 -2544
▁ㄷㅗㄹㄱㅕㄱ -2545
▁ㅇㅠㅇ -2546
▁61 -2547
▁{ -2548
▁ㅅㅏㄻ -2549
▁ㅅㅐㅇㅇㅣㄹ -2550
▁⊸ -2551
ㄴㅚ -2552
▁ㅍㅏㄴㅌㅏ -2553
ㅍㅡㄴ -2554
▁ㅂㅗㄴㅅㅓㄴ -2555
ort -2556
▁ㅂㅕㅇㄱㅣ -2557
▁88 -2558
ㅁㅕㅇㅌㅏ -2559
▁ㅉㅗ -2560
▁72 -2561
ㅂㅜㅌㅇㅣ -2562
▁ㅈㅜㅇㄷㅏㄴ -2563
ㅁㅕㄴㄹㅏ -2564
▁ㄹㅐㄴㄷㅓㅁ -2565
▁ㅊㅡㄱㅁㅕㄴ -2566
▁ㅈㅏㅇㅇㅐ -2567
▁ㅂㅜㄴㅇㅑ -2568
ㅅㅣㅁㅎㅣ -2569
▁} -2570
ㄹㅠㅇ -2571
▁ㅊㅑ -2572
▁2001 -2573
▁ㄱㅕㅂㅊㅣ -2574
▁ㅇㅓㄴㄴㅣ -2575
▁ㄷㅏㄱㅌㅓ -2576
▁ㄷㅏㄹㄹㅕ -2577
▁ㅂㅏㄹㅎㅟ -2578
ㅈㅓㄴㅈㅏ -2579
ㅎㅔ -2580
▁ㄴㅔㅅ -2581
ㅋㅕ -2582
ive -2583
▁ㅇㅣㄴㅅㅐㅇ -2584
▁ㅇㅣㅂㅅㅜ -2585
ㄹㅓㄹ -2586
▁ㅅㅏㄹㅎㅐ -2587
▁ffff -2588
▁ㄱㅕㅇㄱㅖ -2589
ㅈㅓㄴㄷㅡ -2590
▁ㄱㅗㅇㅌㅗㅇ -2591
▁ㅅㅏㅂ -2592
ㄷㅏㄹㄹㅣ -2593
OS -2594
ong -2595
▁ㄱㅜㄴㅈㅜ -2596
▁ㄱㅗㅇㅇㅝㄴ -2597
▁ㄱㅜㄱㅈㅓㄱ -2598
▁SBS -2599
▁ㅁㅣㄴㅈㅗㄱ -2600
▁ㄱㅗㅇㅈㅏㅇ -2601
▁ㅅㅡㅇㄱㅏㅇ -2602
▁ffffff -2603
ers -2604
AM -2605
▁ㅈㅏㅇㅅㅜ -2606
▁ㅋㅣㄱ -2607
▁ㅇㅟㅇ -2608
▁ㅎㅐㄱㅅㅣㅁ -2609
ㄴㅗㅎㄱㅗ -2610
▁ㅇㅗㄴㄱㅏ -2611
▁PS -2612
ㄹㅕㅇㄱㅘㄴ -2613
▁ㅂㅜㅇㄱㅚ -2614
AS -2615
▁98 -2616
▁ㅁㅗㄹㄹㅣ -2617
ㄷㅓㄹ -2618
▁ㅇㅗㄴㄱㅏㅈ -2619
▁ㄴㅏㅎ -2620
▁ㄷㅏㄴㄷㅗㄱ -2621
▁191 -2622
ㅅㅛ -2623
▁ㅊㅜㄹㅅㅐㅇ -2624
▁ㅇㅛㅇㄷㅗ -2625
▁ㄱㅓㄴㄴㅓ -2626
▁ㄱㅏㅂㅇㅗㅅ -2627
▁ㅇㅕㅇㅇㅕㄱ -2628
ㄹㅐㅅ -2629
▁ㄷㅏㅇㅅㅓㄴ -2630
▁ㅋㅡㄹㄹㅗ -2631
▁ㅌㅏㄴㅅㅐㅇ -2632
▁ㅅㅏㄹㅉㅏㄱ -2633
▁ㅊㅜㄹㅂㅏㄹ -2634
▁ㅂㅗㅁ -2635
▁ㅎㅏㅁㅅㅓㄴ -2636
ED -2637
▁ㅇㅡㄴㄱㅡㄴ -2638
▁ㅅㅏㅇㅎㅏ -2639
ip -2640
▁ㄴㅏㅂㅊㅣ -2641
▁ㅂㅜㄴㅅㅓㄱ -2642
ㅈㅜㄴㅎㅣ -2643
▁ㅇㅡㄴㅎㅐㅇ -2644
▁ㅈㅏㄱㅅㅏ -2645
▁ㅅㅓㄴㅂㅐ -2646
ain -2647
▁ㅅㅜㄴㅅㅜ -2648
▁CD -2649
ㅈㅏㄴ -2650
▁ㅈㅡㅇㄱㅓ -2651
if -2652
▁600 -2653
▁ㅅㅡㅂㄷㅡㄱ -2654
ㅋㅏㄹ -2655
ㅍㅜ -2656
▁ㅅㅓㅂ -2657
▁ㅆㅗㄷ -2658
▁ㅎㅗㅇㅂㅗ -2659
▁ㅇㅓㅂㅁㅜ -2660
ㅇㅣㄹㄹㅣ -2661
▁ㅎㅕㅂㄹㅕㄱ -2662
ㅍㅡㄹㄹㅔ -2663
ee -2664
ㅓㅇㅑ -2665
ㄹㅡㄹ -2666
▁ㄷㅏㅇㅎㅘㅇ -2667
ㄹㅡㅅ -2668
▁ㅁㅗㄹㅇㅏ -2669
▁1990 -2670
▁ㄱㅜㄴㅇㅣㄴ -2671
ㄷㅡㄹㄹㅣ -2672
ㅋㅓㄴ -2673
▁| -2674
▁ㅎㅜㄹㄹㅠㅇ -2675
▁ㅁㅏㄹㄹㅣ -2676
EN -2677
▁ㅂㅏㄼ -2678
ㅅㅗㄹ -2679
▁ㅇㅕㄹㅅㅣㅁㅎㅣ -2680
ㅎㅏㄱㅈㅏ -2681
▁ㅈㅓㄱㄷㅏㅇ -2682
▁ㅍㅗㄱㅍㅜㅇ -2683
▁ㅅㅣㄴㅎㅘ -2684
▁ㄱㅕㅇㅇㅠ -2685
▁ㄷㅐㅅㄱㅡㄹ -2686
▁ㅇㅕㅇㅇㅝㄴ -2687
▁ㅇㅡㅇㅇㅝㄴ -2688
▁ㅎㅡㄴㅎㅣ -2689
▁MV -2690
▁ㅁㅏㅌㄱㅣ -2691
ㄴㅟ -2692
▁ㅇㅘㅇㅈㅏ -2693
▁ㅂㅜㄹㅇㅏㄴ -2694
▁63 -2695
▁ㅎㅡㄹㄹㅣ -2696
▁ㅇㅓㅄㅇㅐ -2697
▁ㅈㅓㅇㅁㅏㄹㄹㅗ -2698
ㅁㅣㄹㄹㅣ -2699
▁ㅁㅏㄴㅈㅗㄱ -2700
▁ㅌㅏㅂㅅㅡㅇ -2701
▁ㅌㅣㄱ -2702
▁ㅊㅜㄹㅊㅓ -2703
▁ㅈㅗㅇㅈㅓㅁ -2704
▁ㅈㅏㅇㄱㅘㄴ -2705
▁ㅎㅗㄴㄹㅏㄴ -2706
▁68 -2707
▁ㄱㅏㅁㅅㅏ -2708
ㅎㅐㅇㅎㅣ -2709
ith -2710
ld -2711
▁ㅂㅗㄴㅁㅕㅇ -2712
▁ㄹㅐㅂ -2713
▁ㅋㅓㄴㅌㅔㄴㅊㅡ -2714
ㅇㅣㄴㅈㅓ -2715
ly -2716
▁ㅅㅣㄹㅈㅣㄹ -2717
▁ㄷㅗㅇㅇㅏ -2718
▁ㅇㅜㄴㅁㅕㅇ -2719
ㄷㅜㄱ -2720
▁ㅂㅏㄴㄱㅕㄱ -2721
▁800 -2722
▁ㅈㅗㅂ -2723
▁ㄴㅡㄱ -2724
▁ㅇㅗㅇ -2725
▁71 -2726
▁ㅈㅜㅇㄱㅖ -2727
▁ㅈㅓㅇㄹㅠ -2728
ind -2729
▁ㄱㅣㅁㅅㅓㅇ -2730
▁ㅉㅏㄱ -2731
▁ㄱㅐㄹ -2732
ㅇㅟㄴ -2733
ㄹㅔㅁ -2734
▁ㄷㅗㄹㅈㅣㄴ -2735
▁ㄱㅠㄴ -2736
▁74 -2737
▁AC -2738
▁ㅈㅓㄴㄱㅗㅇ -2739
▁ㅈㅓㄴㅎㅏㅁ -2740
▁ㅇㅕㄴㄷㅗ -2741
▁ㄹㅐㄴㄷㅡ -2742
▁ㅇㅕㄴㅇㅖ -2743
OL -2744
ㅅㅔㄹ -2745
▁ㄱㅗㅇㄱㅜㄴ -2746
▁67 -2747
▁ㅅㅓㄹㄷㅡㄱ -2748
▁ㅂㅐㄴ -2749
▁ㅊㅏㄹ -2750
ew -2751
ㅍㅐㄱ -2752
▁ㅇㅣㄹㅈㅏ -2753
ㄹㅣㅁㅈㅏ -2754
▁ㅌㅗㅇㅇㅣㄹ -2755
▁ㅆㅓ -2756
▁ㅊㅜㅇㄷㅗㄹ -2757
▁ㅂㅏㄴㅇㅕㅇ -2758
▁ㅈㅡㄱㅅㅣ -2759
▁ㄷㅏㄴㅇㅟ -2760
ㅁㅓㅇ -2761
▁ㅋㅐㄴ -2762
ry -2763
▁ㅁㅜㄴㅈㅏ -2764
▁73 -2765
▁ㅂㅜㄹㄲㅗㅊ -2766
▁TH -2767
▁ㅍㅕㄴㅇㅢ -2768
▁ㅇㅏㄴㅅㅡㅂ -2769
▁ㄷㅔㄴ -2770
ast -2771
▁ㄷㅏㅎ -2772
▁96 -2773
▁ㅎㅗㅇㅋㅗㅇ -2774
▁ㅎㅏㄱㄱㅘ -2775
▁NC -2776
▁AT -2777
▁ㅇㅝㄴㅅㅜ -2778
▁ㄱㅓㄹㅊㅣ -2779
▁ㄷㅜㄹㄹㅓ -2780
▁me -2781
IT -2782
ㄴㅗㅁ -2783
ㅍㅔㄱ -2784
▁ㅅㅡㄹㄹㅗㅅ -2785
▁ㅅㅞ -2786
▁ㄸㅓㄱㅂㅏㅂ -2787
▁ㅅㅏㅇㅎㅑㅇ -2788
LC -2789
▁ㅅㅐㅇㅁㅕㅇㄹㅕㄱ -2790
▁ㅅㅣㄴㄹㅚ -2791
▁ㅈㅓㅇㅈㅣ -2792
▁ㄱㅕㄱㅍㅏ -2793
EC -2794
▁ㄴㅓㄹ -2795
▁81 -2796
▁ㄱㅘㄴㄱㅐㄱ -2797
ㄹㅓㅇ -2798
▁ㅅㅣㅁㅈㅏㅇ -2799
▁ㅇㅏㅁㅎㅡㄱ -2800
▁ㄱㅣㅅ -2801
▁ㅅㅣㄴㄱㅗ -2802
▁CP -2803
▁ㅅㅡㄹㄹㅏ -2804
▁ㄴㅣㄴㅈㅏ -2805
▁ㄱㅗㅁ -2806
ㄷㅗㄹㄹㅣ -2807
▁ㄷㅡㅇㅍㅏㄴ -2808
▁ㄷㅗㅇㄴㅔ -2809
▁ㄴㅡㄱㄷㅐ -2810
▁ㅁㅏㅁ -2811
▁ㅂㅜㅌㅈㅏㅂ -2812
▁j -2813
▁ㅇㅔㄹㅍㅡ -2814
FA -2815
ㄹㅡㅇ -2816
▁192 -2817
ㅍㅏㅇ -2818
▁1999 -2819
▁ㅇㅕㄴㅅㅏ -2820
▁ㅂㅕㄹㄱㅐ -2821
ㅁㅜㄱ -2822
▁ㄷㅓㅍ -2823
ㅊㅗㄱ -2824
ㅌㅗㅁ -2825
▁ㅋㅣㄹ -2826
▁ㅇㅏㅂㅂㅏㄱ -2827
▁ㅈㅣㅂㅇㅏㄴ -2828
▁NPC -2829
▁78 -2830
ㅅㅣㄱㄱㅏㄴ -2831
▁84 -2832
▁ㅂㅗㄴㅂㅜ -2833
▁ㄱㅡㄴㅁㅜ -2834
end -2835
▁ㄱㅓㄴㄱㅏㅇ -2836
▁ㅊㅏㅇㅈㅏㄱ -2837
▁ㅅㅜㄴㅅㅣㄱㄱㅏㄴ -2838
ㅁㅊㅣ -2839
▁91 -2840
▁ㅁㅏㄱㅈㅏㅇ -2841
▁ㅉㅏㅇ -2842
▁ㄷㅡㄴㅈㅣ -2843
▁ㅅㅣㄴㅅㅔ -2844
▁ㅂㅏㄴㄹㅏㄴ -2845
▁an -2846
▁ㅅㅣㄹㄷㅡ -2847
▁ㅇㅓㅂㅊㅔ -2848
▁ㄹㅛㅇ -2849
▁ㅈㅏㅇㅅㅣㄱ -2850
▁ㅍㅏㅂ -2851
ㄷㅎㅣ -2852
▁1998 -2853
▁ㅁㅜㄱ -2854
▁ㅂㅜㄹㅁㅏㄴ -2855
▁it -2856
▁ㅈㅓㄴㅈㅓㄱ -2857
▁ㅈㅔㄴ -2858
ㄴㅏㅂ -2859
▁ㅇㅣㅂㅎㅏㄱ -2860
▁!! -2861
▁ㄱㅕㅇㅎㅑㅇ -2862
▁ㅈㅡㅇㅁㅕㅇ -2863
▁ㅅㅔㄹ -2864
▁ㄱㅕㅇㅎㅓㅁㅊㅣ -2865
og -2866
▁ㅅㅏㅇㅍㅜㅁ -2867
▁ㅊㅓㄴㅅㅏ -2868
ㅎㅠ -2869
ㅅㅜㄹㅅㅏ -2870
ㅕㅅㅓ -2871
▁ㅎㅕㅇㅅㅓㅇ -2872
▁ㄴㅏㅇ -2873
▁An -2874
▁ㅆㅏㅎㅇㅣ -2875
▁ㅈㅓㄴㅂㅏㅇ -2876
▁ㅌㅡㄹㄹㅣ -2877
▁ㄴㅏㄲ -2878
ㄹㄹㅣㄴ -2879
ㅌㅜㄴ -2880
▁ㄱㅔㅅ -2881
ㅂㅅㅣ -2882
▁ㅋㅗㄹㄹㅏ -2883
ㅅㅗㄱㄷㅗ -2884
▁ㅈㅓㄱㅎㅣ -2885
▁ㅈㅓㄹㅂㅏㄴ -2886
ㄲㅓㅅ -2887
▁ㄹㅣㄱ -2888
▁97 -2889
▁ㅈㅓㅇㄱㅝㄴ -2890
▁ㄱㅏㅁㅇㅕㅁ -2891
▁ㅌㅣㅇ -2892
▁ㅇㅔㄱ -2893
▁ㄹㅜㄴ -2894
▁Ar -2895
▁ㅁㅔㄹ -2896
▁He -2897
ㄸㅏ -2898
ㄱㅘㅇㅇㅕㄱ -2899
▁ㄹㅕㅇ -2900
▁82 -2901
▁ㄱㅏㅇㅈㅗ -2902
▁69 -2903
▁ㄷㅏㄴㅇㅣㄹ -2904
▁ㅅㅓㄴㅎㅗ -2905
ㅈㅔㄴ -2906
▁ㅇㅕㄴㅅㅏㅇ -2907
▁ㅂㅗㄱㅈㅏㅇ -2908
▁ㅈㅏㄶㅇㅏ -2909
▁ㅂㅕㄹㄷㅗ -2910
▁ㅇㅔㄴㅌㅓ -2911
▁ㅈㅓㄴㅅㅓㄴ -2912
▁ㅈㅓㄱㅇㅓ -2913
ㄹㅕㅁ -2914
▁ㅈㅑ -2915
ㅍㅔㄱㅌㅡ -2916
▁is -2917
▁ㅅㅣㄹㅎㅐㅇ -2918
▁250 -2919
▁ㄱㅗㅇㄱㅣ -2920
ㅋㅗㅁ -2921
▁ㄱㅗㅇㅈㅏㄱ -2922
▁for -2923
▁ㅈㅏㄱㅇㅛㅇ -2924
▁ㅆㅓㄹ -2925
▁ㅍㅣㄹㄹㅣ -2926
ㄱㅘㅇㅇㅕㄱㅅㅣ -2927
▁ㅎㅏㄴㄸㅐ -2928
▁180 -2929
▁MAX -2930
▁ㅂㅏㄴㅈㅣ -2931
ㄷㅣㄴ -2932
▁86 -2933
▁ㅍㅕㅇㅌㅏ -2934
▁SN -2935
▁ㄱㅗㅇㅇㅠ -2936
▁190 -2937
▁ㅎㅓㄴㅌㅓ -2938
▁ㅎㅡㄴㅎㅏ -2939
▁ㄱㅝㄴㄹㅕㄱ -2940
▁ㅅㅚ -2941
▁ㄱㅏㄴㄱㅕㄱ -2942
▁ㅊㅜㄹㅎㅕㄴ -2943
▁ㅅㅣㄴㅊㅓㅇ -2944
▁ㅊㅗㅇㄱㅣ -2945
▁ㅈㅓㄴㅎㅕㅇ -2946
ㄸㅡㄱ -2947
▁ㅁㅗㄹㄹㅐ -2948
▁ㅌㅐㅇㅋㅡ -2949
▁ㅍㅣㄴ -2950
ㅁㅍㅡ -2951
▁ㅊㅜㄹㅈㅏㅇ -2952
ㅁㅅㅐ -2953
▁ㅂㅏㄱㅅㅏㄹ -2954
▁ㄲㅔ -2955
ㅇㅡㅂ -2956
ath -2957
▁ㅇㅜㄹㅅㅏㄴ -2958
▁ㅇㅕㄴㅇㅐ -2959
▁BGM -2960
ㅐㅇㅇㅣ -2961
▁ㄱㅕㅇㅅㅏㅇ -2962
▁ㅌㅏㄱ -2963
ㅎㅔㄴ -2964
▁ㅁㅕㅇㅇㅖ -2965
▁ㄱㅝㄴㅊㅗㅇ -2966
▁ㅂㅓㅁㅇㅣㄴ -2967
av -2968
▁ㄷㅗㅇㄱㅣ -2969
▁ㄱㅕㅇㅂㅣ -2970
RE -2971
▁ㅍㅗㄱㄱㅕㄱ -2972
▁1997 -2973
50 -2974
ㅊㅏㅈ -2975
▁De -2976
▁ㄱㅕㅇㅇㅕㅇ -2977
▁ㅅㅣㅁㄹㅣ -2978
▁Te -2979
▁ㅅㅣㄴㄱㅠ -2980
▁ㅍㅗㄱㅈㅜ -2981
▁ㅅㅣㅁㅍㅏㄴ -2982
▁ㄴㅗㅎㅊㅣ -2983
▁ㅂㅡㄹㄹㅗㄱ -2984
ㄷㅜㅇㅇㅣ -2985
▁ㅇㅜㄴㅈㅓㄴ -2986
▁ㅇㅕㅇㅇㅓㅂ -2987
ㅈㅣㅅㅁㅏㄹ -2988
▁ㄱㅏㄹㄷㅡㅇ -2989
▁MS -2990
se -2991
▁ㅂㅕㄴㅎㅗ -2992
▁ㅇㅣㄹㅅㅏㅇ -2993
▁ㅌㅏㄴㅇㅑㄱ -2994
one -2995
ㅂㅅㅡ -2996
▁ㅈㅓㄴㄷㅐ -2997
▁ㅎㅘㄴㅅㅏㅇ -2998
▁ㅎㅏㄱㅅㅏㄹ -2999
▁ㅌㅗㅇㅈㅔ -3000
▁ㅋㅟㄴ -3001
▁ㅂㅜㄱㅁㅣ -3002
▁ㄹㅔㅂ -3003
▁ㅅㅏㅇㅈㅓㅁ -3004
▁Be -3005
▁ㅇㅣㅂㄹㅕㄱ -3006
ㅍㅔㄹ -3007
▁ㅂㅕㄴㅎㅕㅇ -3008
ㄴㅏㅁㄷㅗ -3009
▁83 -3010
▁ㅍㅗㄱㄹㅕㄱ -3011
▁ㄷㅜㅇ -3012
▁ㅇㅖㅅㄴㅏㄹ -3013
▁ㅁㅏㄴㄷㅡㄴ -3014
▁ㅌㅐㅇㅋㅓ -3015
▁ㅁㅏㅈㅅㅓ -3016
▁ㅎㅕㄱㅁㅕㅇ -3017
▁ㅂㅜㄹㅍㅕㄴ -3018
ㅈㅏㄱㅈㅣㄴ -3019
▁ㅌㅗㅇㅅㅏㅇ -3020
▁ㅂㅡㄹㄹㅓ -3021
▁ㅈㅏㄱㄷㅗㅇ -3022
▁KT -3023
▁ㅁㅜㄲ -3024
ust -3025
▁92 -3026
▁ㅇㅛㅇㅅㅏ -3027
▁89 -3028
ㅇㅣㄹㄹㅓㅅ -3029
▁ㄷㅗㅇㅇㅝㄴ -3030
ㅇㅣㄹㄷㅡ -3031
▁ㅈㅣㄴㅈㅣ -3032
▁94 -3033
▁ㅅㅡㅇㄱㅏㅇㅈㅏㅇ -3034
▁ㅂㅠ -3035
▁ㅇㅕㄴㄷㅐ -3036
▁ㅁㅣㄹㅇㅓ -3037
▁ㅁㅣㄴㄱㅏㄴ -3038
▁ㅃㅕ -3039
▁ㅎㅕㄴㅈㅣ -3040
ide -3041
▁ㅎㅏㄴㄱㅜㄱㅇㅣㄴ -3042
▁ㅃㅣ -3043
▁ㄱㅓㅁㅅㅐㄱ -3044
▁79 -3045
▁ㅇㅐㅇ -3046
▁Le -3047
▁ㅇㅣㅂㄱㅜ -3048
ㅉㅓㅇ -3049
ㅋㅜㄹ -3050
▁ㅅㅣㄴㅇㅣㄴ -3051
▁Se -3052
ity -3053
▁93 -3054
▁ㅁㅓㅅㅈㅣ -3055
▁ㅁㅜㄹㄹㅓ -3056
▁ㄷㅗㅇㅇㅕㅇ -3057
▁ㅋㅗㄴㅅㅓ -3058
▁ㅅㅣㄴㅈㅏㅇ -3059
PG -3060
▁US -3061
▁ㄱㅏㅁㅅㅣ -3062
▁ㅁㅣㄱ -3063
▁ㅊㅐㅂㅌㅓ -3064
▁ㅍㅕㄴㅈㅣ -3065
▁ㅇㅡㅁㅂㅏㄴ -3066
▁ㄱㅡㅇ -3067
OT -3068
▁ㄲㅏㄲ -3069
▁ㄷㅗㅇㅂㅏㅇ -3070
ㄹㅔㅅ -3071
▁87 -3072
▁ㄷㅓㅅ -3073
▁ㄱㅗㅇㅅㅏㄴ -3074
▁ㅁㅏㅈㅇㅣ -3075
▁1996 -3076
▁101 -3077
▁ㄱㅗㅇㅎㅏㄱ -3078
▁ㅌㅔㄹㄹㅔ -3079
▁ㄷㅗㅇㅇㅕㅇㅅㅏㅇ -3080
▁ㅂㅡㄹㄹㅣ -3081
▁ㄱㅣㄹㄷㅡ -3082
▁ㅅㅏㅇㅅㅏㅇ -3083
▁ㅇㅕㄴㄹㅏㄱ -3084
▁ㅎㅏㄴㅂㅏㅇ -3085
▁AI -3086
▁ㅂㅗㄹㄴㅔㅅ -3087
▁ㅇㅛㅇㅇㅓ -3088
▁1995 -3089
ere -3090
▁DJ -3091
ㅂㅜㄱㄷㅗ -3092
▁MC -3093
▁ㅇㅡㅁㅅㅓㅇ -3094
AC -3095
▁ㅅㅠㅅ -3096
ㄷㅓㅇ -3097
▁ㅇㅕㄴㅂㅏㅇ -3098
▁ㄸㅗㄱㄱㅏㅌㅇㅣ -3099
▁ㄹㅣㄹㄹㅣ -3100
▁ㄱㅣㅁㅈㅓㅇ -3101
▁ㅌㅡㄱㅎㅘ -3102
▁On -3103
▁ㅎㅜㅁㅊㅣ -3104
age -3105
▁ㅂㅓㄴㄱㅐ -3106
▁ㅎㅡㅇㅎㅐㅇ -3107
▁ㅂㅗㄹㅌㅡ -3108
▁ㄱㅜㅂ -3109
▁ㅇㅕㄴㄱㅘㄴ -3110
▁ㄱㅏㅇㅊㅓㄹ -3111
▁ㅎㅐㄴㄷㅡ -3112
▁ㅈㅏㅁㅅㅜ -3113
▁ㅇㅣㄱㅅㅜㄱ -3114
▁ㅈㅗㅇㅇㅣ -3115
▁ㄱㅏㄴㅂㅜ -3116
▁ㄱㅕㄹㅅㅡㅇㅈㅓㄴ -3117
ㄲㅏㄹ -3118
▁ㄴㅗㅇㄱㅜ -3119
▁ㅅㅣㄴㅁㅜㄴ -3120
▁ㅋㅡㄹㄹㅔ -3121
ㅁㅏㅇㄱㅏ -3122
▁ㅋㅕ -3123
▁ㅈㅓㄴㄷㅏㄹ -3124
▁ㄱㅡㄱㄷㅏㄴ -3125
▁ㅅㅏㅁㅈㅣㄴ -3126
▁ㅅㅣㄴㅂㅜㄴ -3127
▁ㅎㅑㅇㅅㅏㅇ -3128
▁@ -3129
ㅇㅣㅇ -3130
▁ㄱㅓㅌ -3131
▁..... -3132
▁ㅈㅓㄴㅈㅣㄱ -3133
▁ㄱㅓㅂ -3134
▁ㅅㅣㄴㄱㅣ -3135
▁ㅇㅑㅇㅅㅏㄴ -3136
▁ㅍㅡㄹㄹㅗ -3137
ㅈㅓㄴㅊㅏ -3138
▁ㅊㅜㄹㄹㅕㄱ -3139
▁ㅂㅣㄹㄷㅡ -3140
▁ㅎㅘㄴㅈㅏ -3141
▁ㄴㅓㅁㅊㅣ -3142
▁ㅅㅣㄴㅅㅓㅇ -3143
ㄹㅠㄴ -3144
▁ㅂㅣㅊㄴㅏ -3145
▁ㅂㅏㄱㄱㅡㄴ -3146
▁ㅈㅏㅇㄱㅛ -3147
ㅌㅗㅂ -3148
▁ㅈㅓㄴㅇㅕㄱ -3149
▁ㅇㅐㅂ -3150
▁ㅂㅗㄱㅈㅏㅂ -3151
▁ㅌㅣㅁㅇㅝㄴ -3152
▁ㅈㅣㄴㅅㅣㅁ -3153
▁ㅎㅔㄴ -3154
ㅇㅇㅣ -3155
▁ㄷㅗㅇㅈㅏㄱ -3156
▁ㅎㅘㄴㅅㅡㅇ -3157
▁ㄱㅡㄹㅈㅏ -3158
▁ㅇㅣㅁㅁㅕㅇ -3159
▁ㅋㅙ -3160
▁ㄱㅐㄹㄹㅓㄱ -3161
qu -3162
▁px -3163
▁ㄷㅙ -3164
▁ㅂㅗㅅ -3165
ㅋㅓㅁ -3166
▁ㅇㅣㅂㄷㅏㄴ -3167
▁ㅅㅣㄹㅂㅓ -3168
ㅍㅗㅁ -3169
ㅂㅕㅇㄷㅐ -3170
▁ㅈㅓㄹㅁㅏㅇ -3171
▁DLC -3172
ood -3173
▁ㅅㅐㅁ -3174
▁ㅎㅗㄹㄹㅗ -3175
▁ㅅㅓㅇㄱㅘ -3176
▁AK -3177
▁ㅂㅏㄴㅎㅏ -3178
▁ㅅㅓㅇㅂㅕㄹ -3179
ㄴㅓㅎ -3180
▁ㅁㅏㅇㅊㅣ -3181
▁ㅇㅣㅁㅅㅣ -3182
ㅊㅏㅇㄱㅣ -3183
▁ㅁㅕㅇㅈㅜㅇㄹㅠㄹ -3184
▁THE -3185
▁ㅎㅏㅅ -3186
BO -3187
▁ㅊㅏㄱㄱㅏㄱ -3188
▁ㅊㅓㄹㅈㅓ -3189
▁ㅇㅏㄹㅍㅏ -3190
▁ㅇㅓㅆㅇㅓㅆ -3191
▁MVP -3192
▁ㅁㅏㄱㅊㅏ -3193
▁ㅈㅓㄴㅅㅣ -3194
▁ㄱㅡㄴㅇㅠㄱ -3195
▁ㄱㅐㄹㄹㅓㄱㅅㅣ -3196
▁ㄷㅡㄱㅍㅛ -3197
ㄹㅏㄴㅅㅐㄱ -3198
▁ㅇㅠㄱㅅㅓㅇ -3199
▁ㅁㅓㅇ -3200
ㅇㅜㄴㅌㅡ -3201
ㄷㅏㄷ -3202
▁Wh -3203
▁ㅈㅜㅇㅎㅘ -3204
IS -3205
are -3206
▁ㄱㅕㅇㄱㅗ -3207
PM -3208
▁CC -3209
▁ㅊㅏㅇㅈㅗ -3210
▁ㅇㅣㄴㅅㅜ -3211
▁ㅋㅝㄹㄹㅣ -3212
▁ㅇㅏㄹㄹㅔㄱ -3213
▁ㅃㅏㄱ -3214
ㅎㅗㄹ -3215
▁ㅊㅠ -3216
▁ㅇㅠㅇㅎㅏㅂ -3217
▁ㄱㅡㄹㄹㅗ -3218
▁ㄱㅗㅇㅈㅣ -3219
ㄹㄹㅣㄱ -3220
▁ㅂㅜㄴㄱㅣ -3221
▁ㅊㅏㅁㅈㅓㄴ -3222
▁1994 -3223
▁ㄱㅏㅇㅇㅝㄴ -3224
▁ㅁㅜㄹㅈㅣㄹ -3225
▁ㅇㅣㄴㅈㅡㅇ -3226
▁$ -3227
▁ㅂㅣㅅ -3228
▁ㄴㅏㅁㅂㅜ -3229
▁ㅇㅣㄴㅇㅕㄴ -3230
▁ㄹㅏㅁ -3231
▁ㅁㅜㄷㅎㅣ -3232
▁1980 -3233
▁ㄹㅓㄱ -3234
▁ㄴㅏㄹㅉㅏ -3235
▁ㅁㅓㄱㅎㅣ -3236
▁ㅎㅕㅂㅎㅚ -3237
▁ㅈㅓㅁㅊㅏ -3238
▁ㅅㅣㄱㅅㅏ -3239
OM -3240
▁ㅂㅜㄴㄹㅑㅇ -3241
ㅁㅣㄱ -3242
ob -3243
▁ㅊㅓㅇㄴㅕㄴ -3244
▁ㅇㅏㄱㅇㅕㄱ -3245
▁700 -3246
▁ㄷㅜㄴ -3247
▁ㄱㅐㄱ -3248
▁Tr -3249
ㄷㅜㅂ -3250
▁ㅎㅡㅁ -3251
▁ㅎㅏㅂㄱㅕㄱ -3252
▁ㅇㅞㄴㅁㅏㄴ -3253
ock -3254
▁ㅈㅓㅇㅂㅗㄱ -3255
▁ㅂㅏㄴㅂㅏㄹ -3256
▁ㅈㅜㅇㄷㅐ -3257
▁ㅎㅕㅂㅂㅏㄱ -3258
▁ㄱㅣㅁㅇㅕㅇ -3259
▁ㄴㅗㄱㅇㅡㅁ -3260
▁ㅎㅏㅂㅊㅔ -3261
ake -3262
▁ㄱㅏㅁㅇㅗㄱ -3263
ㅁㅓㄴㅌㅡ -3264
▁'' -3265
▁ㄱㅕㄹㄹㅗㄴ -3266
ect -3267
▁ㅊㅜㄴ -3268
our -3269
OW -3270
ㅇㅛㅇㅈㅏ -3271
▁ㄱㅗㄷㅂㅏ -3272
ㄹㅜㄱ -3273
▁ㅇㅏㄹㄹㅔ -3274
ass -3275
▁he -3276
ㄱㅘㄴㅊㅗㅇ -3277
ㅎㅐㅇㄱㅣ -3278
ㅉㅐㅆ -3279
oy -3280
▁ㅍㅔㄹ -3281
▁FI -3282
ㅇㅠㅇ -3283
▁ㅊㅜㄹㅍㅏㄴ -3284
ire -3285
ㅅㅏㄱ -3286
▁ㄱㅏㅇㅇㅢ -3287
▁ㅈㅏㅈ -3288
ㅂㅏㄴㄱㅣ -3289
▁ㅇㅞㅂㅌㅜㄴ -3290
ark -3291
ㅅㅗㄱㅈㅏㄱ -3292
▁ㅅㅏㅁㄱㅜㄱㅈㅣ -3293
▁ㅆㅓㄱ -3294
▁ㅈㅓㅇㅁㅕㄴ -3295
▁ㅎㅏㅂㅅㅓㅇ -3296
ㅋㅙ -3297
ㄹㅗㅂㅎㅣ -3298
ite -3299
ㅇㅑㅎ -3300
▁ㄹㅐㅇㅋㅣㅇ -3301
▁ㅊㅜㄱㅈㅔ -3302
▁ㅁㅜㄴㅈㅏㅇ -3303
▁ㄷㅗㅇㅎㅘ -3304
▁ㅁㅜㅇ -3305
▁ㅍㅕㄴㄱㅗㄱ -3306
ㄷㅗㅇㅈㅏ -3307
▁ㅂㅗㄴㅈㅏㄱ -3308
▁ㅅㅒ -3309
▁ㄱㅗㅇㄱㅡㅂ -3310
ㅅㅓㅇㄱㅣ -3311
▁ㄲㅏㅁ -3312
▁ㅂㅜㄹㄹㅓ -3313
ah -3314
▁ㅇㅣㄴㄱㅗㅇ -3315
▁ㄹㅔㅅ -3316
▁ㄷㅏㄴㅈㅏㅇ -3317
▁FA -3318
▁ㅎㅚㅇ -3319
▁SR -3320
▁wh -3321
▁ㄹㅜㅁ -3322
▁ㅈㅓㄴㅁㅕㄴ -3323
▁ㅅㅓㄲ -3324
▁ㅇㅡㄴㅎㅏ -3325
FC -3326
▁ㄱㅕㅌ -3327
ES -3328
▁kt -3329
▁Cl -3330
▁ㅉㅗㅊㅇㅏ -3331
▁AR -3332
▁ㅅㅗㄴㄱㅏ -3333
ㄴㅕㄱ -3334
▁ㅃㅐㅅ -3335
▁ㅍㅡㄹㄹㅐㅅ -3336
▁ㅌㅔㄱㅅㅡ -3337
▁ㅎㅘㄹㅅㅓㅇ -3338
▁ㅇㅐㄱㅌㅣ -3339
UN -3340
▁ㅅㅣㄹㄹㅣ -3341
▁ㄸㅡㄴ -3342
▁ㅅㅣㄴㅎㅗ -3343
ㅁㅐㄴㄷㅡ -3344
▁ㅇㅣㄹㅅㅣ -3345
▁ㅁㅗㄱㄱㅕㄱ -3346
▁ㅇㅜㅁㅈㅣㄱㅇㅣㅁ -3347
▁ㄴㅓㄱ -3348
▁ㅋㅓㄹㄹㅓ -3349
▁ㅇㅘㅇㅈㅗ -3350
▁GT -3351
▁ㅇㅕㄴㅌㅏ -3352
▁ㄱㅗㅇㅁㅜ -3353
iz -3354
ound -3355
▁ㅈㅓㄱㄱㅜㄴ -3356
▁ㄱㅘㄴㅈㅜㅇ -3357
▁ㄷㅏㄹㅎㅏ -3358
▁ㄱㅏㄴㅎㅗㄱ -3359
▁ㄱㅡㅇㅈㅓㅇ -3360
▁ㄱㅣㅁㅌㅐ -3361
▁ㅁㅜㄴㅎㅏㄱ -3362
▁ㅍㅐㄴㄷㅓㅁ -3363
ㄷㅓㄴㄱㅏ -3364
▁ㅇㅣㄹㅇㅝㄴ -3365
▁ㅂㅏㄱㄱㅡㄴㅎㅖ -3366
ime -3367
▁ㄱㅜㄹㄹㅣ -3368
▁ㅂㅏㄴㅅㅏ -3369
▁ㅈㅓㅇㄱㅡㄹ -3370
▁ㅅㅣㄱㅁㅜㄹ -3371
▁ㄴㅗㄹㅇㅣ -3372
ㅅㅏㅇㅈㅏ -3373
▁ㅇㅠㄱㅊㅔ -3374
▁my -3375
▁ㅅㅣㄴㄹㅏ -3376
▁ㅍㅓㄴㅊㅣ -3377
▁SD -3378
▁PD -3379
ㅇㅗㅇ -3380
▁ㄱㅣㅁㅁㅣㄴ -3381
▁ㅇㅕㄴㅇㅣㄴ -3382
▁ㅇㅡㄴㄱㅡㄴㅎㅣ -3383
LL -3384
▁ㅅㅏㅇㅅㅓㅇ -3385
▁Gr -3386
iv -3387
▁ㄴㅓㄹㄹㅣ -3388
▁ㅈㅜㄴㅅㅜ -3389
ㅈㅏㅂㅇㅣ -3390
▁SC -3391
ㅓㄷㅗ -3392
▁Me -3393
▁KIA -3394
▁ㅅㅓㄲㅇㅣ -3395
▁ㅇㅣㄴㄱㅡㄴ -3396
▁ㅂㅜㄹㅂㅓㅂ -3397
▁ㅇㅣㄹㄱㅕㄱ -3398
ㅌㅣㄹ -3399
ㅋㅗㄹ -3400
ID -3401
ㅈㅣㅁ -3402
▁ㄱㅏㄱㅈㅏ -3403
▁116 -3404
▁ㄷㅣㅇ -3405
▁ㅌㅡㄱㅈㅣㅂ -3406
▁ㅌㅓㄹㄹㅣ -3407
▁ㅈㅓㄴㅊㅓㄹ -3408
▁ㅎㅘㄴㅇㅕㅇ -3409
▁ㅇㅕㅇㅌㅗ -3410
▁ㄷㅗㅇㅂㅜ -3411
▁ㅂㅏㄱㅈㅓㅇ -3412
▁ㄱㅗㄱㅁㅕㅇ -3413
▁ㅇㅕㅇㅁㅜㄴ -3414
▁ㄱㅔㄴ -3415
▁ㄸㅡㄷ -3416
▁ㅈㅓㄱㄷㅐ -3417
▁ㄴㅗㄹㄹㅏㅂ -3418
▁ㅂㅐㅇ -3419
▁SM -3420
▁ㅁㅔㄴㅌㅏㄹ -3421
▁My -3422
▁ㅁㅓㄹㅉㅓㅇ -3423
ㄷㅜㄴ -3424
OP -3425
▁ㄱㅜㄱㄱㅜㄴ -3426
▁ㄱㅓㄴㅊㅜㄱ -3427
▁130 -3428
▁ㅎㅕㅇㅅㅏ -3429
▁ㄹㅣㅁ -3430
▁ㅇㅣㄱㅅㅡ -3431
▁ㅊㅣㅁㄱㅗㅇ -3432
▁ㅇㅝㄴㅂㅗㄴ -3433
ㄹㅣㄴㅇㅣ -3434
▁ㄴㅑㅇ -3435
ㅇㅝㄴㅈㅏㅇ -3436
▁ㄱㅏㅇㄴㅏㅁ -3437
▁ㅇㅏㄴㄴㅐ -3438
ㅇㅣㅁㅅㅡ -3439
▁ㅈㅓㅂㅅㅗㄱ -3440
▁ㅋㅐㅁㅍㅓ -3441
▁ㅌㅏㄴㅊㅏㅇ -3442
▁ㅎㅜㅅ -3443
▁Pr -3444
▁ㄱㅕㄹㅁㅏㄹ -3445
▁{{ -3446
▁ㅈㅔㄹ -3447
▁ㅋㅏㄹㄹㅣ -3448
▁ㅊㅓㅁ -3449
▁ㅈㅓㅇㅊㅏㄹ -3450
ge -3451
▁ㅁㅕㄴㅇㅕㄱ -3452
▁ㅆㅢ -3453
▁ㄲㅏㅇ -3454
▁ㄱㅗㄹㄷㅡㄴ -3455
▁ㄱㅏㄷㅎㅣ -3456
▁{{{ -3457
▁ㅍㅔㅅ -3458
▁ㅎㅓㅁ -3459
▁ㅇㅐㄹㄹㅣ -3460
▁ㅍㅕ -3461
▁https -3462
▁ㅎㅏㄱㅂㅜ -3463
▁ㅎㅕㄴㅇㅕㄱ -3464
▁BE -3465
▁ㅇㅡㅁㅇㅝㄴ -3466
▁ㅈㅏㄱㅎㅘ -3467
▁ㅅㅣㄱㄷㅏㅇ -3468
▁ㄷㅣㄴ -3469
ome -3470
ax -3471
ㅇㅣㄹㄹㅐㄴㄷㅡ -3472
▁ㅅㅏㅇㄷㅏㅇㅅㅜ -3473
▁ㅎㅏㄹㅇㅏ -3474
▁ㅇㅣㄹㄱㅣ -3475
ㄷㅓㄹㄹㅏㄴㄷㅡ -3476
▁DF -3477
ance -3478
▁ㅈㅓㄴㅁㅜㄴㄱㅏ -3479
▁ㅈㅓㄴㅈㅣㄴ -3480
uc -3481
▁ㄲㅗㅈ -3482
ㅅㅡㄹㄹㅏㅁ -3483
ㅇㅣㄴㅇㅓㅂ -3484
ick -3485
▁MF -3486
▁ㅇㅟㄹㄹㅣ -3487
▁ㅊㅓㄴㅈㅐ -3488
▁ㅎㅏㄴㄷㅗㅇㅇㅏㄴ -3489
ㅉㅓㄱ -3490
▁ㅋㅗㄹㄹㅗ -3491
▁ㅇㅕㄹㅅㅚ -3492
▁ㅎㅏㄴㅂㅓㄴ -3493
▁Pl -3494
▁ch -3495
ㄴㅣㄱㅅㅡ -3496
▁ㄱㅓㅁㅊㅏㄹ -3497
▁ㅎㅏㄴㅊㅏㅁ -3498
▁ㅊㅗㅇㅅㅓㄴ -3499
▁ㅂㅏㅇㅈㅣ -3500
▁ㅊㅓㅅㅊㅏ -3501
▁ㅎㅡㄹ -3502
▁HD -3503
ㅈㅏㅇㅅㅣㄹ -3504
▁ㅅㅡㅇㄱㅕㄱ -3505
10 -3506
▁ㄲㅓㄲ -3507
▁ㅊㅗㄴ -3508
▁\ -3509
▁ㅇㅛㅇㄱㅣ -3510
ix -3511
MA -3512
▁ㅊㅛ -3513
▁WW -3514
▁ㅇㅣㄱㅎㅣ -3515
ord -3516
▁ㅂㅏㅇㅅㅏ -3517
mer -3518
▁ㅁㅏㅇㄱㅏ -3519
▁?? -3520
▁ㅋㅣㄴ -3521
ㅁㅔㄹ -3522
▁ㅂㅕㄹㄷㅏ -3523
▁ㄷㅗㄹㄹㅕ -3524
▁ㅇㅏㄴㄱㅕㅇ -3525
▁ㅇㅑㅇㅉㅗㄱ -3526
▁ㅉㅏㄹ -3527
▁160 -3528
ure -3529
▁ㅎㅏㄴㅁㅏ -3530
▁ㄴㅗㅇㄷㅏㅁ -3531
ㄱㅏㅎ -3532
▁ㄹㅔㄱ -3533
ㅉㅐㅆㄷㅡㄴ -3534
▁ㄱㅏㄹㅅㅜ -3535
▁ㅋㅐㅁㅍㅔ -3536
▁GB -3537
ㄷㅓㅇㅇㅣ -3538
ㅈㅓㅇㄱㅓ -3539
▁ㅅㅣㄴㅂㅣ -3540
▁ㅋㅐㅂㅌㅣㄴ -3541
▁ㅍㅡㄹㄹㅓ -3542
▁ㅂㅣㅈ -3543
▁ㅅㅏㅇㄱㅡㅂ -3544
▁ㄲㅗㅂㅎㅣ -3545
▁ㄷㅗㅇㄱㅜㄹ -3546
▁ㅇㅜㅇ -3547
▁ㄱㅜㄱㅇㅓ -3548
▁ㅈㅓㄴㄹㅏ -3549
▁ㅇㅕㅇㅎㅑㅇㄹㅕㄱ -3550
ㅌㅡㄱㅂㅕㄹ -3551
▁with -3552
▁ㅁㅜㄴㅈㅐ -3553
▁OST -3554
▁ㅈㅣㅂㅇㅓ -3555
ㅊㅣㅁㄴㅐ -3556
▁ㅃㅓ -3557
▁1992 -3558
ㄹㅐㅅㄷㅗㅇㅇㅏㄴ -3559
ㄹㅣㄱㅅㅡ -3560
▁ㅇㅜㅅㅇㅡㅁ -3561
▁ㅂㅜㄱㅂㅜ -3562
▁ㅂㅏㅇㅊㅜㄹ -3563
ㄷㅗㄱㄱㅛ -3564
ㅂㅜㅇ -3565
▁ㄱㅣㅁㄷㅗㅇ -3566
▁1993 -3567
▁ㅍㅏㄹㄹㅣ -3568
▁KO -3569
ㅇㅏㅅㄱㅣ -3570
▁ㅇㅕㄴㄹㅛ -3571
ud -3572
▁ㅇㅗㄹㅎㅐ -3573
▁ㄹㅣㅅ -3574
▁ㅇㅏㄴㅌㅣ -3575
▁ㅊㅣㅇㅎㅏ -3576
▁ㅈㅏㅇㅇㅏㄱ -3577
ㄴㄷㅡㄹ -3578
▁ㅇㅝㄴㅅㅗ -3579
▁ㄱㅡㄱㅂㅗㄱ -3580
▁ㅈㅓㅂㅊㅗㄱ -3581
▁ㅈㅓㅇㅇㅝㄴ -3582
▁ㅋㅡㄹㄹㅣㄱ -3583
ㅇㅑㅇㅎㅏㅁ -3584
ㅌㅗㄹㄹㅣㄱ -3585
▁ㅈㅜㅇㄷㅗㄱ -3586
▁ㄱㅜㄱㅂㅏㅇ -3587
▁SKT -3588
▁ㄸㅣ -3589
▁ㅇㅣㄹㅈㅔ -3590
▁ㅇㅣㄴㅈㅓㅇㅂㅏㄷ -3591
▁ㄱㅕㄹㅋㅗ -3592
▁ㅇㅘㄹ -3593
▁ㅅㅣㄱㄹㅑㅇ -3594
▁ㅅㅓㄴㅌㅐㄱㅈㅣ -3595
ㅋㅓㅅ -3596
▁140 -3597
▁ㅅㅐㅇㅈㅗㄴㅈㅏ -3598
▁ㅌㅗㅁ -3599
ㅈㅟ -3600
▁Ex -3601
▁ㄷㅏㅁㄱㅣ -3602
▁ㅈㅓㄴㅅㅣㄴ -3603
ame -3604
80 -3605
ㅁㅔㄴㅌㅡ -3606
▁sh -3607
▁ㅎㅓㅅ -3608
▁ㅊㅣㅇㅊㅏㄴ -3609
▁ㅂㅗㄴㅊㅔ -3610
▁ㅅㅣㄴㅅㅓㄹ -3611
▁ㅇㅟㄹ -3612
▁ㅁㅔㄱㅅㅣ -3613
ㅇㅠㄱㄱㅘㄴ -3614
▁ㅈㅓㄴㅁㅕㄹ -3615
ㅎㅡㅂ -3616
▁JR -3617
▁ㅎㅡㄴㄷㅡㄹㄹㅣ -3618
AD -3619
ㅇㄱㅣ -3620
▁ㅈㅓㄴㅅㅓㅇㄱㅣ -3621
▁ㅅㅗㄴㅎㅐ -3622
▁", -3623
▁ㄴㅗㄴㄹㅣ -3624
▁ㅇㅏㅍㄷㅜ -3625
▁ㄷㅏㄱ -3626
ㅁㅗㄴㄷㅡ -3627
▁de -3628
▁IC -3629
ㄹㅡㅍ -3630
ost -3631
▁ㅇㅓㄱㅈㅣ -3632
▁ㅊㅜㅇㅅㅓㅇ -3633
ㅁㅏㅅ -3634
ㅈㅏㄱㅈㅏ -3635
out -3636
▁ㅈㅓㅇㅂㅣ -3637
▁ㄱㅣㅁㅈㅗㅇ -3638
▁ㄷㅗㅇㅇㅢ -3639
▁ㅌㅜㄹ -3640
ㅇㅣㄴㄷㅡ -3641
▁Love -3642
old -3643
▁ㅇㅣㄹㅂㅏㄴㅇㅣㄴ -3644
▁ㄲㅘ -3645
▁ㅂㅡㄹㄹㅏ -3646
▁ㅂㅜㄹㅌㅏ -3647
▁GS -3648
ㅈㅓㅇㅂㅜ -3649
▁ㄷㅏㅇㅇㅣㄹ -3650
▁ㅂㅏㄴㄷㅗㅇ -3651
▁ㅁㅕㅇㅅㅓㅇ -3652
ㅁㅏㅂ -3653
▁ㄷㅗㄷ -3654
▁900 -3655
▁ㅈㅓㄱㅇㅡㅇ -3656
▁Un -3657
▁ㅁㅐㄱㅅㅡ -3658
▁ㅊㅜㅇㅊㅓㅇ -3659
▁ㅈㅏㄱㄱㅗㄱㄱㅏ -3660
own -3661
▁ㅈㅡㅇㅇㅓㄴ -3662
▁ㅈㅏㄹㄹㅣ -3663
ㅇㅑㄹ -3664
▁ㄷㅜㄹㅉㅐ -3665
▁202 -3666
▁ㅈㅓㅂㅎㅏ -3667
▁ㅎㅏㅂㅇㅢ -3668
▁ㅂㅓㅂㄹㅠㄹ -3669
▁ㅌㅔㄱ -3670
▁ㅇㅓㅂㅈㅓㄱ -3671
▁ㅅㅓㄴㅈㅓㄴ -3672
▁ㅇㅜㄹㄹㅣ -3673
ㅃㅏㄹ -3674
▁ㅎㅏㄹㅁㅓ -3675
▁ㅌㅗㅂ -3676
▁ㅇㅕㄴㄱㅡㅁ -3677
ㅋㅔㄴ -3678
ㄲㅏㅌ -3679
▁ㅅㅣㄴㅂㅜ -3680
▁ㅎㅣㅂ -3681
▁ㅇㅝㄴㅈㅜ -3682
▁ㅉㅣㅈ -3683
▁ㅍㅣㅅ -3684
▁ㅃㅏㄹㄱㅏㅎ -3685
▁ㅅㅏㅇㅇㅓㅂ -3686
ㅁㅏㄴㄷㅜ -3687
▁ㅈㅏㅂㅈㅣ -3688
▁ㅍㅗㄹㄹㅏㄴㄷㅡ -3689
▁SH -3690
US -3691
▁ㄱㅘㄱ -3692
▁ㅂㅜㄱㅉㅗㄱ -3693
▁ㄴㅔㄱㅅㅔㄴ -3694
▁ㅈㅓㅇㅅㅜ -3695
▁LI -3696
ㄱㅕㄱㅅㅜ -3697
▁ㅇㅣㄹㅂㅏㅇ -3698
▁EP -3699
ㄷㅡㅂ -3700
▁ㄷㅏㄺ -3701
▁ㅂㅏㄱㅎㅣ -3702
▁ㅋㅔㄹ -3703
▁ㅈㅓㄴㅎㅜ -3704
▁ㅇㅣㄴㄷㅣ -3705
ㄷㅣㅅ -3706
ㄹㅗㅁ -3707
▁wik -3708
ave -3709
▁ㅂㅓㄹㄹㅔ -3710
▁ㅂㅗㄱㅁㅜ -3711
▁ㄲㅏㄹㄲㅡㅁ -3712
ㅂㅡㄹㄹㅣㄴ -3713
▁ㄸㅗㅇ -3714
▁ㅅㅐㄴ -3715
▁ㄴㅏㄲㅅㅣ -3716
▁ㅆㅏㅇㄷㅜㅇㅇㅣ -3717
▁ㅅㅡㅇㅈㅓㅁ -3718
▁ㅊㅜㄹㅁㅏ -3719
▁ㄱㅡㅁㅅㅗㄱ -3720
▁FF -3721
pe -3722
▁ㅍㅓㅇ -3723
▁IS -3724
ace -3725
▁ㄷㅣㄹㄹㅔ -3726
▁ㄱㅕㄹㅅㅓㅇ -3727
▁ㅈㅓㅇㅊㅏㄱ -3728
▁ㄴㅏㅁㅉㅗㄱ -3729
per -3730
▁ㅇㅣㄴㄱㅕㄱ -3731
▁ㅅㅣㅇㅋㅡ -3732
ㄱㅡㅅ -3733
▁ㅇㅣㄴㅈㅗ -3734
▁ㅎㅡㄴㅈㅓㄱ -3735
▁ㅇㅕㄴㅍㅐ -3736
▁ㅈㅡㄹㄱㅓㅂ -3737
▁XX -3738
▁ㄷㅗㅇㄹㅕㄱ -3739
ng -3740
▁ㅂㅓㅂㅇㅝㄴ -3741
ㄱㅡㄹㄹㅐㄴㄷㅡ -3742
ㅆㅏㅇ -3743
▁ㅈㅏㅁㅈㅐ -3744
▁ㄴㅐㅁㅅㅐ -3745
▁ㄷㅗㄱㅌㅡㄱ -3746
ice -3747
▁ㅎㅜㅅㄴㅏㄹ -3748
▁ㄱㅏㄴㅅㅣㄴ -3749
ㅈㅛ -3750
▁ㄴㅏㅁㄴㅕ -3751
▁1991 -3752
▁ㄱㅗㅇㅅㅓㅇ -3753
▁ㅊㅣㅂ -3754
ㅁㅏㄹㄹㅣ -3755
▁ㄱㅏㅇㄷㅗ -3756
▁ㅅㅏㅇㅎㅗ -3757
▁ㅁㅏㄱㅇㅏ -3758
▁ㅇㅣㄹㅉㅣㄱ -3759
ont -3760
▁ㅌㅟㅇㄱㅣ -3761
ㄸㅡㅅ -3762
ㄷㅡㄴㄱㅏ -3763
▁ㅇㅕㄴㅅㅡㅇ -3764
▁ㄴㅗㅎㅇㅣ -3765
▁CV -3766
▁ㅅㅡㄹㄹㅗ -3767
▁ㄱㅜㄱㄹㅣㅂ -3768
▁1988 -3769
ov -3770
▁ㄱㅗㅇㄹㅛㅇ -3771
▁ㅍㅗㄹㄹㅣ -3772
ㄹㅏㅇㅇㅣ -3773
▁AD -3774
▁ㅋㅡㄹㄹㅐㄴ -3775
▁CF -3776
▁ㅁㅗㄹㄹㅏㄱ -3777
▁We -3778
▁ㄱㅝㄴㅎㅏㄴ -3779
▁ㅈㅓㄴㅈㅜ -3780
OD -3781
ㄷㅠㄹ -3782
▁ㅊㅔㄹ -3783
▁ㅎㅐㅇㅂㅗ -3784
ㄹㅐㅇㅋㅡ -3785
▁ㄹㅓㄴㄷㅓㄴ -3786
▁ㅈㅓㄱㄷㅏㅇㅎㅣ -3787
▁ㄱㅏㄱㅂㅗㄴ -3788
▁ㅆㅗㄷㅇㅏ -3789
▁ㄱㅣㅁㅈㅐ -3790
▁ㅅㅣㄹㅁㅏㅇ -3791
▁ㅅㅏㅇㅅㅜㄹ -3792
▁ㅎㅡㅇㅁㅣ -3793
▁ㅅㅡㅇㄹㅠㄹ -3794
ㅎㅏㄱㅇㅝㄴ -3795
▁ㅅㅐㄱㄲㅏㄹ -3796
▁ㄱㅗㅇㅅㅔ -3797
▁ㅎㅕㅁㅇㅗ -3798
▁ㅂㅏㄹㄹㅣ -3799
▁ㅅㅜㄱㄹㅕㄴ -3800
▁105 -3801
▁ㅎㅕㄹㅇㅐㄱ -3802
▁AM -3803
▁ㄱㅘㅇㅇㅕㄱㅅㅣ -3804
▁ㄴㅗㄱㅅㅐㄱ -3805
▁ㅎㅐㅁ -3806
▁ㅅㅜㅇ -3807
▁ㄸㅡㄴㄱㅡㅁ -3808
ㅌㅗㄱ -3809
ㅅㅖ -3810
orld -3811
ㅈㅏㄱㅅㅏ -3812
ies -3813
ㄹㅡㅁㅇㅓㅄ -3814
▁ㅇㅣㄴㅁㅣㄴ -3815
▁ㄱㅣㄹㅇㅣ -3816
▁DS -3817
▁ㄲㅡㄶㄱㅣ -3818
▁ㅇㅣㄹㄹㅏㅁ -3819
▁.." -3820
ㄷㅏㄴㅎㅣ -3821
ann -3822
▁ㅎㅏㄱㄹㅕㄱ -3823
▁ㅅㅐㅇㄴㅕㄴ -3824
ㄹㅐㅂ -3825
ㅋㅡㄴ -3826
▁ㅅㅐㄱㅅㅏㅇ -3827
▁ㄱㅡㅁㅇㅠㅇ -3828
▁ㅇㅕㅇㄱㅜ -3829
▁ㄱㅜㄱㅇㅘㅇ -3830
▁ㅌㅡㄱㅈㅓㄴ -3831
▁SNS -3832
▁ㅁㅕㄴㅁㅗ -3833
▁ㄱㅘㄴㄹㅏㅁ -3834
▁ED -3835
▁ㅎㅡㅂㅎㅕㄹ -3836
OC -3837
▁ㅅㅣㅁㅅㅏ -3838
ㄷㅗㅇㅅㅓㅇ -3839
ㅌㅡㄱㅂㅕㄹㅅㅣ -3840
▁ㅆㅡㄹㅁㅗ -3841
▁ㅃㅜㄹ -3842
ㄹㅐㄴㅁㅏㄴ -3843
▁ㄷㅏㅁㅂㅐ -3844
▁ㄷㅡㄹㅋㅣ -3845
▁ㅍㅓㄹ -3846
▁ㅈㅡㅇㅇㅗ -3847
BA -3848
▁ㅆㅓㄴ -3849
▁ㅈㅜㅇㄹㅑㅇ -3850
ㅇㅜㄹㅌㅡㄱㅂㅕㄹㅅㅣ -3851
▁CPU -3852
▁ㅊㅣㅇㅎㅗ -3853
ㄸㅏㅇ -3854
▁ㅆㅣㅂ -3855
ㅊㅠ -3856
▁ㄱㅗㅇㄱㅗㅇ -3857
▁ㅅㅐㅇㄹㅑㄱ -3858
▁ㅇㅣㅇㄱㅡㄹㄹㅐㄴㄷㅡ -3859
▁ㅎㅗㄱㅅㅣ -3860
LE -3861
▁ㅁㅏㅅㅇㅣㅆ -3862
▁ㅈㅜㅇㅊㅓㅂ -3863
▁DE -3864
ㄷㅡㅇㅎㅏㄱㅅㅐㅇ -3865
▁ㅎㅕㅁㅇㅢ -3866
▁ㅁㅣㄴㅊㅓㅂ -3867
ㄱㅏㅄ -3868
▁ㅎㅞ -3869
▁ㅇㅕㄴㄹㅕㅇ -3870
▁ㅍㅕㄴㅇㅣㅂ -3871
▁ㅊㅗㅇㅇㅏㄹ -3872
▁ㅅㅣㅂㅈㅏ -3873
▁ㅇㅓㄴㄷㅓ -3874
▁ㅎㅕㅂㅅㅏㅇ -3875
▁ㄷㅓㅅㅂㅜㅌㅇㅣ -3876
▁ㅇㅕㅅ -3877
ㅂㅡㄹㄹㅣ -3878
▁ㅅㅏㅇㄷㅏㄴ -3879
▁LC -3880
▁ㅅㅣㄹㅈㅓㄴ -3881
▁ㅇㅕㅇㅈㅜ -3882
▁ㄷㅏㄴㅍㅕㄴ -3883
▁ㅅㅣㄴㅅㅏ -3884
▁ㅅㅏㅇㅇㅣㄴ -3885
▁ㄴㅗㄹㄹㅣ -3886
▁your -3887
▁ㄱㅗㄴㄹㅏㄴ -3888
▁ㅈㅓㅇㅎㅘ -3889
▁ㅊㅏㄴㅅㅡ -3890
ber -3891
▁ㅇㅛㅇㅅㅓ -3892
▁LV -3893
▁ㅁㅏㄱㄷㅐ -3894
▁NE -3895
▁ㄷㅣㄹㄹㅣㅇ -3896
▁ㄱㅏㅇㅇㅛ -3897
▁ㅈㅜㅇㄱㅜㄱㅇㅓ -3898
▁ㅍㅓㅁ -3899
ㄱㅣㅁ -3900
ㄹㅓㅁㅍㅡ -3901
▁ㅌㅏㄹㅌㅚ -3902
▁ㅇㅓㄴㅅㅡ -3903
ys -3904
▁ㅎㅡㄹㄹㅓ -3905
ㅅㅡㄹㄹㅣ -3906
▁189 -3907
▁ㄷㅗㅇㅉㅗㄱ -3908
▁ㅇㅣㅁㄷㅐ -3909
▁ㅁㅜㄴㄱㅜ -3910
ㄷㅣㅈ -3911
▁ㄱㅗㅇㅂㅏㅇ -3912
▁ㄱㅏㅇㅈㅏ -3913
▁ㅇㅛㅇㄹㅑㅇ -3914
▁SE -3915
▁ㅌㅓㄱ -3916
der -3917
▁ㅈㅐㅇ -3918
▁ㄱㅣㅁㅎㅕㄴ -3919
▁ㅇㅝㄴㅊㅣㄱ -3920
aw -3921
▁ㅋㅐㅁㅍㅡ -3922
ION -3923
▁ㅈㅣㄴㅂㅗ -3924
▁ㅇㅏㄱㄷㅏㅇ -3925
▁It -3926
▁ㄱㅡㅁㅂㅏㅇ -3927
▁ㅅㅏㅇㅅㅣㄹ -3928
▁ㅇㅣㄹㄹㅔ -3929
▁ㅊㅗㅇㄹㅣ -3930
ㅎㅓㅁㄱㅏ -3931
60 -3932
▁ㅅㅏㅇㄱㅘㄴㅇㅓㅄ -3933
oo -3934
▁ㅎㅏㄱㅈㅏ -3935
▁ㄲㅗㅂ -3936
ㄱㅏㄴㅎㅣ -3937
▁ㅈㅣㅂㅎㅐㅇ -3938
FF -3939
40 -3940
▁ㅇㅣㄴㅊㅣ -3941
▁EN -3942
▁ㄷㅔㅁ -3943
▁ㄱㅜㅅ -3944
▁BPM -3945
ㅆㅡㄹ -3946
▁ㅉㅣㄱㅎㅣ -3947
▁ㅇㅓㄷㅇㅓ -3948
ㅂㅓㄴㅌㅡ -3949
▁ㅇㅝㄴㅁㅜㄴ -3950
ike -3951
ream -3952
▁ㄱㅕㄹㅈㅓㄴ -3953
▁ㄱㅏㄴㅅㅣㄴㅎㅣ -3954
▁ㅇㅣㄹㅈㅗㄱ -3955
▁ㅂㅐㅁㅍㅏ -3956
ㄸㅜㅇ -3957
▁125 -3958
ㅌㅏㅁ -3959
▁1989 -3960
▁ㅎㅘㄹㅂㅏㄹ -3961
▁ㅍㅐㅇ -3962
▁ㅅㅣㄴㅇㅏㅇ -3963
▁ㅈㅜㅇㄹㅣㅂ -3964
▁ㅎㅔㄹㄱㅣ -3965
▁Com -3966
▁ㅇㅣㅂㅈㅣ -3967
▁ㅂㅗㄱㅈㅣ -3968
ory -3969
ㄹㅏㅂ -3970
▁ㅋㅏㄹㄴㅏㄹ -3971
▁3000 -3972
ㅇㅝㄹㅇㅣㄹ -3973
▁ㅊㅓㅂ -3974
▁PV -3975
▁ㅈㅓㅇㅇㅖ -3976
▁ww -3977
▁ㄲㅡㄴ -3978
▁ㅇㅏㄴㄴㅕㅇ -3979
▁UP -3980
ㅁㅣㅆ -3981
▁ㅎㅐㅇㅇㅜㄴ -3982
▁ㅇㅣㄹㅂㅗㄴㅇㅣㄴ -3983
iss -3984
ㄴㅔㄹ -3985
ㅍㅐㄱㅌㅡ -3986
▁ㅅㅐㅇㄴㅕㄴㅇㅝㄹㅇㅣㄹ -3987
▁ㅇㅕㄲㅇㅣ -3988
▁ㅂㅏㄴㅈㅓㄴ -3989
ㅍㅏㅇㅇㅣ -3990
▁ㅊㅏㄱㅎㅏ -3991
ㅊㅜㄱㅎㅏㅁ -3992
▁ㅇㅡㅁㅁㅗ -3993
▁ㅅㅜㄴㅎㅘㄴ -3994
▁ㅂㅣㄱㅌㅗ -3995
▁www -3996
▁ㅂㅜㄹㅅㅏ -3997
ㄹㅐㄴㅅㅡ -3998
▁ㄱㅕㄱㅊㅜ -3999
▁ㅈㅏㄴㄸㅡㄱ -4000
▁AS -4001
▁ㄱㅓㄴㄷㅡ -4002
▁ㅊㅏㅁㅅㅓㄱ -4003
▁ㄱㅗㅇㅎㅓ -4004
▁ㅎㅟㅂ -4005
▁ㅅㅐㅇㄱㅕ -4006
▁ㅇㅓㄴㅈㅔㄴㄱㅏ -4007
▁ㅇㅏㄹㄹㅔㄱㅅㅏㄴ -4008
▁ㄱㅓㄹㅇㅓ -4009
▁ㅅㅣㅁㅅㅣㅁ -4010
ㅅㅜㄱㅅㅏ -4011
▁-> -4012
ㄱㅓㄹㅇㅣ -4013
▁ㅅㅓㅇㄴㅏㅁ -4014
▁BL -4015
▁ㄱㅗㅇㅇㅛㅇ -4016
ㅈㅣㅂㅌㅡ -4017
▁ㄲㅡㅁ -4018
30 -4019
▁ㅂㅜㄴㅅㅣㄴ -4020
▁ㅂㅜㅅ -4021
▁that -4022
ian -4023
▁ㅂㅜㄴㄷㅐ -4024
chor -4025
▁ㅅㅏㅇㄱㅣ -4026
▁ㅈㅜㄴㅇㅜ -4027
▁ㅇㅗㅀ -4028
▁ㅌㅗㅇㅅㅏㄴ -4029
▁CJ -4030
▁ㅁㅟ -4031
▁ㅉㅜㄱ -4032
▁ㄴㅏㄴㅇㅣㅂ -4033
▁ㅁㅕㅇㄷㅏㄴ -4034
▁ㄱㅝㄴㄹㅣ -4035
▁ㅎㅘㄱㄷㅐ -4036
▁ㅌㅏㄴㅎㅘㄴ -4037
▁ㅊㅓㅇㅈㅜ -4038
▁ㅅㅣㄱㅁㅣㄴ -4039
▁Pro -4040
ㅇㅓㄴㅌㅡ -4041
▁ㅆㅣㄴ -4042
io -4043
▁ㅂㅗㄱㄱㅜ -4044
▁ㄱㅕㅇㄹㅗ -4045
▁ㅊㅜㄹㅇㅣㅂ -4046
▁ㅇㅡㄴㅅㅣㄴ -4047
▁ㅈㅗㅇㅁㅗㄱ -4048
▁ㅁㅏㄹㅌㅜ -4049
▁ㅅㅣㄴㅈㅓㄴ -4050
▁ㅇㅏㄱㅁㅕㅇ -4051
ㄴㅜㄴ -4052
▁1970 -4053
ㄴㅅㅐㄱ -4054
▁ㅇㅙㄴㅈㅣ -4055
▁ㄱㅓㄴㅈㅗ -4056
▁ㅇㅔㄴㅈㅔㄹ -4057
▁ㅊㅓㄴㅎㅏ -4058
▁ㅎㅕㅇㅅㅏㅇ -4059
▁ㄱㅏㄴㅈㅓㅂ -4060
▁ㅇㅏㅅ -4061
▁ㅁㅣㅇ -4062
▁ㅇㅓㅂㄹㅗ -4063
▁Fl -4064
ㅍㅡㅁ -4065
▁ㅂㅏㄹㄷㅏㄹ -4066
ㄸㅟ -4067
▁ㅇㅑㅇㅅㅓㅇ -4068
▁ㅇㅕㄴㅁㅐㅇ -4069
▁ㅊㅓㄴㅁㅏㄴ -4070
▁ㅇㅝㄴㅈㅏ -4071
▁ㄱㅣㅁㄷㅐ -4072
▁ㅁㅔㄹㄹㅗ -4073
▁ㅇㅣㄹㅊㅣ -4074
▁ㅈㅓㄱㅎㅏㅂ -4075
▁Br -4076
▁ㅁㅕㅇㅎㅘㄱ -4077
▁ㅈㅏㅇㅌㅏㄴ -4078
0000 -4079
▁ㅇㅟㅅ -4080
▁ㅃㅜㅁ -4081
▁ㅈㅓㄴㅇㅣ -4082
ㅅㅔㅅ -4083
▁ㅇㅕㄴㄱㅡㄱ -4084
▁ㅈㅓㅇㅎㅘㅇ -4085
▁anchor -4086
▁;& -4087
▁ㅎㅣㄴ -4088
ㅅㅡㅇㅈㅏ -4089
▁ㄲㅡㅁㅉㅣㄱ -4090
▁ㅍㅐㄴㅌㅓㅁ -4091
▁ㄱㅏㅇㅈㅓㅁ -4092
▁wiki -4093
▁WWE -4094
▁ㅎㅓㄴㅂㅓㅂ -4095
▁ㄱㅗㅅㄱㅗㅅ -4096
▁ㅅㅣㄹㅊㅐㄱ -4097
▁ㅇㅜㄹㅍㅡ -4098
IP -4099
ㄹㄷㅡ -4100
ㄹㅐㅇ -4101
ㄹㄱㅔ -4102
▁ㅎㅏㄹㅇㅣㄴ -4103
▁le -4104
▁&# -4105
▁ㅂㅐㄱㅅㅓㅇ -4106
▁170 -4107
▁ㅇㅜㅅㄱㅣ -4108
▁ㅅㅕㄹ -4109
▁ㅍㅕㅇㅅㅐㅇ -4110
▁Or -4111
▁ㅇㅏㅁㅅㅣ -4112
▁ㅁㅜㄴㄷㅏㄴ -4113
▁ㅅㅐㄴㄷㅡ -4114
ㅅㄱㅏㄹ -4115
UM -4116
IG -4117
▁ㅇㅜㄴㄷㅗㅇㅈㅏㅇ -4118
▁ㅎㅣㄹㄹㅓ -4119
VD -4120
ㄹㅓㅅ -4121
▁ㅇㅓㄴㄷㅓㄱ -4122
▁ㄷㅏㅂㅂㅕㄴ -4123
▁ㄷㅏㄴㅊㅜㄱ -4124
▁ㅊㅜㅇㅅㅣㄹ -4125
▁ㄱㅡㅁㅇㅐㄱ -4126
ㅊㅓㅁ -4127
ㄹㅓㄱㅈㅓ -4128
▁ㅁㅏㄴㄴㅏㅁ -4129
▁ㅅㅡㅇㄱㅐㄱ -4130
TE -4131
▁ㄱㅓㄹㅁㅏㅈ -4132
▁ㄸㅏㄴ -4133
▁by -4134
▁1987 -4135
▁ㄷㅓㅇㅊㅣ -4136
ㅈㅡㄹ -4137
▁ㄲㅡㄹㄹㅕ -4138
▁ㅃㅓㄷ -4139
▁ㅂㅏㄱㅁㅜㄹ -4140
▁ㅅㅣㄴㄴㅏ -4141
▁ㅂㅜㄹㅍㅔㄴ -4142
▁ㅃㅗㅂㅎㅣ -4143
ㄱㅔㄴ -4144
▁ㄱㅏㅁㄱㅏㄱ -4145
oth -4146
ㅇㅔㅅ -4147
ㅇㅓㄴㅊㅡ -4148
▁ㅅㅏㅇㅅㅣㄱ -4149
▁ㅎㅏㅇㄱㅗㅇㄱㅣ -4150
▁ㄷㅡㅇㅈㅣ -4151
▁Dr -4152
▁ㅅㅓㅇㄹㅣㅂ -4153
az -4154
ㅋㅣㅅ -4155
▁ㅇㅏㄴㄱㅣ -4156
▁ㄱㅕㅇㅈㅜ -4157
▁ㄲㅜㄹ -4158
▁ㅅㅡㅇㅈㅏ -4159
▁ㅊㅜㄹㄱㅕㄱ -4160
▁ㅅㅏㅇㅇㅕㅇ -4161
▁ㅇㅣㅀㅇㅓ -4162
ep -4163
▁ㄲㅗㅁ -4164
▁ㄱㅣㄴㅈㅏㅇ -4165
man -4166
▁ㄲㅏㄹㄹㅣ -4167
▁ㅎㅓㄹ -4168
▁ㅇㅣㅂㄷㅐ -4169
▁ㅊㅜㄱㅂㅗㄱ -4170
▁ㅋㅣㄹㄹㅓ -4171
▁ㄴㅓㅁㅂㅓ -4172
▁ㅅㅔㄴㅌㅡ -4173
▁ㅅㅓㄴㄱㅗ -4174
▁ㄹㅓㅁ -4175
▁ㄱㅕㄴㄷㅣ -4176
▁ㅈㅣㅂㅊㅏㄱ -4177
▁ㄱㅡㅂㄱㅕㄱ -4178
OU -4179
▁ㄹㅗㄱㅁㅐㄴ -4180
▁ㅎㅡㅌ -4181
ale -4182
▁;&# -4183
▁ㄱㅝㄴㅈㅏㅇ -4184
▁OP -4185
▁ㄷㅗㅇㅅㅓㅇ -4186
▁ㄷㅏㄷ -4187
▁ㅈㅏㄱㄴㅕㄴ -4188
▁ㅊㅏㅇㄱㅗ -4189
ㅂㅓㅂㅅㅗ -4190
▁ㄴㅏㅈㅊㅜ -4191
VA -4192
▁ㅅㅣㅀㅇㅓ -4193
▁ㅇㅣㄹㄷㅐ -4194
▁ㅈㅓㄱㅈㅜㅇ -4195
▁ㅍㅕㅇㅈㅓㅁ -4196
▁ㅁㅐㅅ -4197
▁ㅈㅣㄴㅈㅜ -4198
▁ㅂㅜㄴㅁㅕㅇㅎㅣ -4199
▁ㅎㅏㄴㅉㅗㄱ -4200
▁ㄱㅕㄹㅅㅣㅁ -4201
▁ㄱㅗㅂ -4202
ㅈㅏㅁ -4203
70 -4204
ach -4205
▁RPG -4206
ㅈㅐㅇㅇㅣ -4207
▁ㅅㅣㄹㅈㅗㅇ -4208
▁ㄱㅘㄴㅎㅏㄹ -4209
ㄱㅜㄴㄷㅏ -4210
▁ㄷㅗㅇㅈㅓㅁ -4211
▁ㅂㅕ -4212
arg -4213
▁ㅇㅕㄹㅁㅐ -4214
ㅇㅜㄴㅅㅓ -4215
▁1500 -4216
▁Sc -4217
▁ㅎㅏㄱㄱㅣ -4218
ook -4219
ㄹㅓㅎㅈㅣ -4220
▁ㅇㅛㅇㅇㅣㄴ -4221
▁ㅎㅡㄱㅇㅣㄴ -4222
▁ㅂㅗㄴㅈㅣㄴ -4223
▁ㅆㅏㄱ -4224
▁ㅈㅜㅇㅎㅕㅇ -4225
▁ㄱㅕㄹㅎㅏㅂ -4226
▁ㅇㅑㄱㅎㅘ -4227
ows -4228
▁ㄱㅕㄹㅌㅜ -4229
▁ㄱㅕㅇㅈㅣㄱ -4230
▁ㅂㅓㅂㅇㅣㄴ -4231
▁5000 -4232
▁ㅈㅓㅇㄱㅣ -4233
▁ㄱㅏㅁㅊㅜ -4234
▁ㄹㅣㄹ -4235
▁ㅍㅏㅅ -4236
▁ㅅㅗㅁ -4237
▁111 -4238
orm -4239
▁ㅈㅏㅇㄱㅓ -4240
▁ㄱㅙㄴㅎㅣ -4241
▁ㅁㅏㄱㄴㅐ -4242
ㅃㅏㅇ -4243
▁ㅅㅐㅇㅁㅕㅇㅊㅔ -4244
ㄲㅡㄴ -4245
▁ㅎㅓㅇ -4246
▁ㅁㅣㄱㅅㅡ -4247
▁ㅇㅏㅁㅅㅏㄹㅈㅏ -4248
ㄷㅓㄴㅈㅣ -4249
▁ㅅㅔㄴㅅㅡ -4250
ish -4251
ㅁㅏㄴㅎㅣ -4252
ky -4253
ㅍㅕ -4254
▁ㅇㅕㄴㅎㅏㅂㄱㅜㄴ -4255
▁Team -4256
▁ㅇㅏㄱㅁㅗㅇ -4257
▁ㅊㅓㄴㅇㅏㄴ -4258
▁KBO -4259
▁ㅇㅘㄴㄱㅕㄹ -4260
▁ㄱㅡㄴㅂㅗㄴ -4261
▁ㄷㅣㄱ -4262
▁}} -4263
▁ㅈㅓㅇㅊㅏ -4264
▁ㄱㅏㄹㅇㅏ -4265
▁ㅂㅕㄴㅎㅘㄴ -4266
ㄷㅗㅇㄹㅕㄱ -4267
▁ㅈㅜㅂ -4268
▁ㅂㅜㄹㄱㅛ -4269
▁ㅂㅗㄴㅅㅏ -4270
▁ㅅㅗㄹㅈㅣㄱ -4271
▁BB -4272
ㅍㅐㄴ -4273
▁ㅇㅔㄴㄷㅡ -4274
▁ㄴㅜㅂ -4275
ㅈㅏㄱㅇㅟ -4276
▁Go -4277
▁ㅅㅓㄴㄷㅜ -4278
▁ㅌㅗㅇㅎㅘ -4279
ae -4280
▁ㅊㅣㅁㄹㅑㄱ -4281
▁ㅇㅕㄴㅅㅡㅂㅅㅐㅇ -4282
▁ㅊㅣㅁㅁㅜㄱ -4283
▁ㅂㅏㄱㅁㅜㄹㄱㅘㄴ -4284
ㄹㅕㅇㅂㅜ -4285
GE -4286
▁ㅊㅣㅁㅇㅣㅂ -4287
ug -4288
Hz -4289
▁ㅈㅏㅇㅇㅣㄴ -4290
▁ㅂㅏㄹㄹㅔㄴ -4291
ade -4292
rom -4293
ㅇㅣㄹㅂㅗ -4294
▁ㄷㅗㅇㄱㅡㅂ -4295
ㅍㅡㄹㄹㅓ -4296
ㅁㅣㅅ -4297
ile -4298
▁ㄷㅗㄹㅇㅣㅂ -4299
▁ㅌㅗㅇㄱㅖ -4300
▁ㅁㅕㄴㅈㅓㄱ -4301
yle -4302
▁ㅍㅏㄴㄱㅕㄹ -4303
ㄷㅡㄴㅈㅣ -4304
▁ㅇㅏㄴㄱㅐ -4305
▁FIFA -4306
▁ㅊㅏㅁㅁㅗ -4307
▁ㅇㅕㅇㄱㅘㅇ -4308
ㅅㄱㅏㄹㄹㅣ -4309
ㅇㅟㅅ -4310
▁ㅇㅣㄹㅂㅗㄴㄱㅜㄴ -4311
▁ㅇㅣㅁㅍㅐㄱㅌㅡ -4312
▁ㅂㅓㅂㅈㅓㅇ -4313
▁ㅈㅣㄹㄹㅣ -4314
ash -4315
ower -4316
irl -4317
ink -4318
▁ㅊㅓㄹㅅㅜ -4319
▁1986 -4320
ㅂㅏㄴㄷㅗ -4321
▁ㅂㅓㅇ -4322
▁ㅊㅜㄹㄱㅜ -4323
ㄱㅘㄹ -4324
▁ㄱㅠㄴㅎㅕㅇ -4325
ㅌㅡㄹㄹㅓ -4326
▁ㅇㅣㅁㅅㅣㄴ -4327
▁ㅌㅗㅇㅊㅣ -4328
▁ㅇㅣㄴㅍㅣ -4329
▁ㅅㅏㄹㅍㅕ -4330
▁CH -4331
▁ㅇㅓㄴㄷㅔ -4332
TS -4333
▁ㄱㅏㅁㅈㅣ -4334
▁CG -4335
ㅇㅡㄴㅎㅐㅇ -4336
▁ㅁㅜㄹㄱㅗ -4337
▁ㅎㅏㅇㅂㅗㄱ -4338
atch -4339
▁ㅇㅡㅂ -4340
▁ㅅㅗㄱㅇㅣ -4341
▁ㄹㅣㅂ -4342
▁ㅇㅣㄴㅈㅣㄹ -4343
▁ㅇㅣㄴㅈㅗㅇ -4344
▁ㅇㅣㄴㄹㅕㄱ -4345
▁ㄱㅡㅂㅎㅏ -4346
▁ㅅㅣㄴㅂㅏㄹ -4347
▁ㅆㅓㄴㄷㅓ -4348
▁FW -4349
ㄹㄹㅣㄴㅈㅣ -4350
▁ㄱㅕㄱㅊㅏ -4351
▁ㅁㅏㄱㅍㅏㄴ -4352
▁we -4353
▁ㅅㅏㅂㅇㅣㅂ -4354
ㅅㅔㄴㅌㅡ -4355
▁ㅂㅏㄴㅂㅏㄱ -4356
▁ㅇㅣㄴㅂㅏㅇ -4357
ㄸㅏㄱ -4358
▁ㄴㅏㅁㅂㅜㄱ -4359
▁ㄷㅏㄴㅇㅝㄴ -4360
IM -4361
▁ㄱㅏㄹㄹㅏ -4362
▁ㅍㅣㅇㅋㅡ -4363
ㅎㅐㄱ -4364
▁ㅎㅏㅁㅂㅜ -4365
▁DD -4366
▁ㄱㅕㅇㄴㅏㅁ -4367
▁ㅊㅜㄹㄹㅜ -4368
ㅂㅏㄹㅈㅏ -4369
ㅅㅡㄹㄹㅣㅇ -4370
▁ㅊㅏㅇㅇㅝㄴ -4371
▁ㄹㅐㅁ -4372
▁ㅃㅗㅂㅇㅏ -4373
▁ㅎㅐㅇㅎㅏ -4374
ial -4375
ㅋㅔㅅㅁㅗㄴㅅㅡ -4376
sh -4377
▁ㅈㅗㄴㄱㅕㅇ -4378
▁ㅂㅐㄱㅇㅣㄴ -4379
CG -4380
▁ㅈㅓㄴㅅㅡㅇ -4381
▁ㄴㅏㅁㅁㅐ -4382
ㄱㅕㅂ -4383
▁ㅌㅔㅅ -4384
▁ㅁㅗㅇㄱㅗㄹ -4385
ㅅㅏㄴㅅㅣ -4386
▁ㅇㅕㅇㅇㅝㄴㅎㅣ -4387
ㅈㅓㄴㄱㅓ -4388
▁ㄱㅗㄹㄹㅔㅁ -4389
ㅁㅓㄴㅅㅡ -4390
ㅁㅗㅁ -4391
▁ㅊㅐㄹㄹㅣㄴㅈㅣ -4392
▁ㅇㅣㄴㅇㅛㅇ -4393
▁ㅂㅗㄱㅈㅔ -4394
▁ㄷㅗㅇㅇㅑㅇ -4395
▁ㅇㅣㄹㄷㅏㅇ -4396
▁ㄱㅣㅁㄱㅕㅇ -4397
ㄸㅜㄱ -4398
▁ID -4399
▁ㅂㅗㄱㅅㅓㄴ -4400
ㄴㅡㄹㄴㅏㄹ -4401
▁War -4402
▁ㅁㅗㄹㄹㅕ -4403
▁ㅌㅣㅂ -4404
▁ㄱㅜㄱㄷㅏㅇ -4405
▁ㅎㅏㄱㅅㅡㅂ -4406
▁ㄱㅏㅂㅈㅏㄱ -4407
ㅌㅠㅁ -4408
▁LA -4409
▁Star -4410
▁ㅁㅜㄹㄹㅑㅇ -4411
▁106 -4412
▁ㅈㅜㅇㅂㅗㄱ -4413
ㄹㅔㄹㄹㅏ -4414
▁ㅅㅡㄹㅍㅡ -4415
▁ㅍㅕㄹㅊㅕ -4416
▁up -4417
ㅍㅡㄹㄹㅣ -4418
▁ㅌㅏㅇ -4419
ㄱㅗㅂ -4420
▁ㄷㅗㅇㅁㅕㅇ -4421
▁ㄴㅏㄹㅋㅏ -4422
▁ㅈㅡㄱㅅㅏ -4423
▁ㄱㅏㄴㄷㅏㄴㅎㅣ -4424
▁ㅅㅓㄴㅎㅐㅇ -4425
ㄷㅗㅇㅈㅓㄴ -4426
ㅍㅣㄹㄷㅡ -4427
▁ㅊㅜㄱㅎㅏ -4428
▁ㅅㅏㅇㄷㅏㅁ -4429
ㄴㅢ -4430
▁ㅈㅏㅇㅅㅣㄴ -4431
▁ㅂㅜㄴㅇㅕㄹ -4432
▁ㅈㅓㅇㅌㅗㅇ -4433
▁ㅁㅜㅇㅊㅣ -4434
ㅌㅔㅂ -4435
ㅅㅓㅁ -4436
▁ㅈㅏㅁㅇㅣㅂ -4437
▁ㅈㅜㅇㄹㅕㄱ -4438
ㅊㅓㄴㅅㅣ -4439
▁ㅎㅗㄴㄷㅗㄴ -4440
▁ㄴㅣㄱㄴㅔ -4441
▁DVD -4442
▁ㅂㅏㅇㅇㅟ -4443
▁ㅌㅣㄹ -4444
▁PR -4445
▁115 -4446
▁ㅍㅏㅇ -4447
▁ㅈㅓㄴㅂㅜㄱ -4448
▁ㅎㅏㅇㅇㅢ -4449
▁ㄱㅗㅇㅇㅓㅂ -4450
▁ㄲㅞ -4451
▁ㅋㅘ -4452
▁ㅅㅓㄴㅈㅔ -4453
ㅈㅏㄹ -4454
▁ㅅㅏㅇㅎㅏㄴ -4455
▁ㅅㅡㅇㅁㅜ -4456
▁ON -4457
▁ㅇㅡㄴㅈㅣ -4458
▁ㅂㅔㄹㅌㅡ -4459
▁ㅈㅣㄴㅇㅏㅂ -4460
▁102 -4461
▁ㄷㅏㄴㅎㅐㅇ -4462
▁ㅇㅏㄱㄱㅣ -4463
ING -4464
▁ㅇㅔㄹㄹㅔ -4465
▁fe -4466
ous -4467
▁ㅇㅣㅂㅈㅜ -4468
▁For -4469
▁Ne -4470
▁ㅈㅏㅇㅌㅏㄴㅅㅜ -4471
▁And -4472
att -4473
▁ㅇㅏㄱㅎㅘ -4474
▁ㄷㅗㅁ -4475
amp -4476
▁ㄱㅜㅇㄱㅡㅁ -4477
▁ㅅㅓㅇㅈㅓㄴ -4478
▁ㅌㅡㄴ -4479
▁ㅋㅗㄴㅌㅔㄴㅊㅡ -4480
▁ㅇㅗㅇㅎㅗ -4481
▁ㄴㅣㅅ -4482
▁ㅌㅗㅇㄹㅗ -4483
▁}}} -4484
▁ㅈㅓㅇㅂㅏㄹ -4485
▁ㅂㅜㄴㅈㅐㅇ -4486
▁ㅈㅓㄴㅈㅔ -4487
▁ㅂㅏㄱㅈㅣ -4488
▁ㅅㅣㄴㅇㅣㅂ -4489
▁ㅈㅏㅁㄷㅡㄹ -4490
▁GP -4491
ㅆㄷㅏ -4492
▁ㅊㅔㄹㅅㅣ -4493
▁ㅊㅓㄹㅎㅏㄱ -4494
▁175 -4495
▁ㅈㅔㄹㄹㅣ -4496
▁ㅌㅏㅁㅈㅓㅇ -4497
▁Cr -4498
▁188 -4499
▁Wind -4500
▁ㄴㅗㄴㅇㅢ -4501
ㅅㅏㅇㅇㅟ -4502
▁ㄲㅏㅁㅉㅏㄱ -4503
ㅎㅔㄴㅌㅣ -4504
ㅌㅐㄴ -4505
▁1985 -4506
▁ㄱㅣㅁㅅㅏㅇ -4507
▁ㅎㅐㅇㅂㅏㅇ -4508
ㅇㅓㅂㅈㅏ -4509
▁ㅂㅜㄴㅎㅐ -4510
▁ㄱㅘㅇㅅㅓㄴ -4511
▁ㅁㅏㄴㅁㅏㄴ -4512
me -4513
ㄴㅓㄹㅌㅣ -4514
▁ㄱㅓㄴㄴㅔ -4515
▁ㅅㅏㄴㅎㅏ -4516
▁ㅂㅐㅇㅋㅡ -4517
▁bl -4518
▁ㅇㅑㅇㅅㅏㅇ -4519
▁ㅈㅣㄴㅎㅏㄱ -4520
AY -4521
ㅈㅗㄹ -4522
▁ㅈㅡㅇㅍㅗㄱ -4523
▁ㅈㅏㅇㅁㅣ -4524
ㅌㅔㄴㄷㅗ -4525
▁ㄴㅣㄴㅌㅔㄴㄷㅗ -4526
▁wid -4527
ms -4528
ㅋㅣㄱ -4529
▁ㄱㅏㅇㅇㅝㄴㄷㅗ -4530
ib -4531
64 -4532
▁ㄹㅗㅁ -4533
▁ㄱㅣㅁㅈㅣㄴ -4534
▁ㄷㅗㄱㅈㅐ -4535
▁ㄱㅘㄴㅈㅓㅁ -4536
▁ㄴㅏㄴㅅㅏ -4537
▁ㅍㅗㄱㅎㅐㅇ -4538
▁ㄱㅡㅁㅁㅔ -4539
ㅂㅓㄱ -4540
▁ㅂㅏㅇㅊㅣ -4541
▁al -4542
ㅂㅓㄹㄹㅔ -4543
ft -4544
▁ㅇㅓㅂㄱㅖ -4545
▁ㄱㅓㅁㅅㅜㄹ -4546
ㄷㅗㄹㅇㅏ -4547
now -4548
▁ㅎㅏㄴㄷㅜ -4549
▁ㄱㅗㅇㅅㅜ -4550
▁ㅈㅓㄴㅍㅏ -4551
▁ㅁㅏㄴㅈㅣ -4552
ㅇㅝㄴㅈㅓㄴ -4553
▁ㅈㅣㄹㅌㅜ -4554
▁ㅁㅗㄳ -4555
▁350 -4556
▁ㅈㅓㄴㅁㅜ -4557
▁width -4558
▁ㅌㅐㄱㅅㅣ -4559
▁ㄷㅏㅇㅅㅏ -4560
▁ㅈㅜㅇㅅㅔ -4561
▁ㅎㅜㄴㅈㅏㅇ -4562
ㅅㄱㅏ -4563
▁Gam -4564
ㅅㅡㅇㅂㅜ -4565
▁ㄱㅏㅁㅆㅏ -4566
▁ㄷㅏㄴㄷㅏㄴ -4567
▁ㅂㅜㄹㄹㅑㅇ -4568
MP -4569
▁PP -4570
ps -4571
▁ㄴㅏㅁㅇㅏ -4572
▁ㄸㅜㅀㄹㅣ -4573
▁ㅈㅜㄹㄹㅣ -4574
▁ㅊㅡㄱㅈㅓㅇ -4575
▁IN -4576
ㅌㅐㄴㄷㅡ -4577
▁ㅈㅜㅇㅈㅏㅇ -4578
▁ㅁㅕㄴㅎㅓ -4579
▁ㅂㅏㅇㅅㅗㅇㄱㅜㄱ -4580
▁BS -4581
ㅅㅓㅇㅇㅝㄴ -4582
▁ㅅㅣㄴㄷㅗ -4583
▁ㄱㅏㅁㄷㅗㅇ -4584
▁ㄱㅣㅁㄱㅣ -4585
▁ㄴㅡㅇㄹㅕㄱㅈㅏ -4586
▁ㅁㅣㄹㄹㅕ -4587
oll -4588
▁1984 -4589
▁ㅇㅑㄱㅌㅏㄹ -4590
ㅂㅡㄹㄹㅗ -4591
ㅍㅕㅇㅇㅑㅇ -4592
ㅅㅏㅇㅅㅣㄱ -4593
TV -4594
▁ㅇㅔㄱㅅㅣ -4595
pl -4596
▁BR -4597
▁Man -4598
▁ㅂㅏㄹㅁㅗㄱ -4599
12 -4600
ㄴㅡㅈ -4601
▁AKB -4602
▁ㄱㅏㅁㅅㅏㅇ -4603
▁ㅅㅏㄴㅌㅏㄴ -4604
▁ㄱㅜㄱㅍㅏㄴ -4605
▁ㄹㅜㄱ -4606
▁ㄷㅔㄹ -4607
ㅇㅟㅇ -4608
▁ㅇㅜㄴㅅㅜ -4609
ㅇㅏㄵ -4610
port -4611
ㅅㅣㄴㄱㅛ -4612
▁UN -4613
ㅂㅣㅅ -4614
▁ㄷㅜㅁ -4615
▁All -4616
▁ㄷㅐㄴ -4617
▁ㄴㅣㅇ -4618
▁ㄱㅘㅇㅈㅏㅇ -4619
▁ㅂㅓㄹㄹㅣ -4620
▁ㅇㅘㅇㅇㅟ -4621
ㅂㅓㄴㅇㅔ -4622
▁ㅅㅣㄱㅁㅣㄴㅈㅣ -4623
▁ㅅㅏㅇㄱㅘㄴㅇㅓㅄㅇㅣ -4624
▁ㄱㅗㅇㅈㅓㅇ -4625
▁ㅅㅑㅅㄱㅓㄴ -4626
ㅇㅛㅇㅎㅣ -4627
ㅇㅓㄴㅅㅡ -4628
▁ex -4629
▁ㅎㅕㄹㅇㅐㄱㅎㅕㅇ -4630
▁ㅇㅏㄹㄹㅏ -4631
▁ㅎㅏㄹㄹㅗ -4632
▁ㅂㅏㄴㅉㅏㄱ -4633
▁ㅇㅝㄴㄷㅓ -4634
▁ㄷㅓㄴㄱㅏ -4635
▁ㅊㅏㅇㄷㅏㄴ -4636
▁Part -4637
ㅅㅈㅣ -4638
▁ㅊㅓㄹㄱㅝㄴ -4639
▁SU -4640
▁112 -4641
ㄱㅣㅅ -4642
ㅇㅣㄹㅈㅡ -4643
ㄱㅕㅇㄱㅣ -4644
ㅃㅓ -4645
ㄸㅜ -4646
▁KR -4647
ㅇㅜㄴㄹㅗ -4648
ㅅㅇㅣ -4649
▁ㄱㅗㅇㅂㅐㄱ -4650
▁ㅁㅕㅇㅇㅢ -4651
▁En -4652
▁ㅇㅝㄴㄹㅣ -4653
▁ㅂㅜㄴㄷㅏㅇ -4654
▁ㄱㅏㄴㅎㅗ -4655
▁ㅂㅜㅁ -4656
▁ㅇㅣㄹㅎㅘ -4657
▁ㅈㅏㅇㅅㅏ -4658
▁ㅎㅏㄴㄴㅏ -4659
▁ㅁㅜㄹㄹㅕ -4660
ond -4661
▁ㅇㅕㄴㄱㅗ -4662
▁ㅌㅣㄴ -4663
▁ㅃㅓㅇ -4664
▁ㅊㅓㄹㄱㅓ -4665
▁ㅂㅐㄱㅈㅏㄱ -4666
▁DC -4667
▁ㄷㅗㄹㅇㅕㄴ -4668
ment -4669
▁ㅅㅣㄹㅈㅏㅇ -4670
▁LP -4671
▁ㅈㅜㅇㅅㅣ -4672
▁ㅋㅐㅅ -4673
▁Sup -4674
ㅅㅔㄹㄹㅗ -4675
▁ㄱㅜㄺ -4676
ㅍㅣㄹㄷㅓ -4677
▁ㅈㅜㄹㄱㅓ -4678
▁ㅈㅓㄹㅊㅏ -4679
▁Mar -4680
▁Fate -4681
▁ㅈㅓㄴㅁㅏㅇ -4682
▁108 -4683
ase -4684
▁ㅁㅏㄱㅅㅏㅇ -4685
▁ㅂㅏㄴㅂㅜ -4686
▁ㄱㅏㅂㅈㅏㄱㅅㅡ -4687
▁AN -4688
▁ㄱㅕㅇㅇㅏㄱ -4689
ㄷㅜㄹ -4690
ㄱㅡㄹㅅㅡ -4691
▁ㅇㅗㄴㅊㅓㄴ -4692
▁ㅎㅏㅂㅂㅕㅇ -4693
▁ㅂㅐㄱㅎㅘ -4694
▁ㅇㅞㄹ -4695
▁ㅌㅡㄱㄱㅡㅂ -4696
▁ㄱㅣㄴㄱㅡㅂ -4697
ㅇㅗㄴㅈㅡ -4698
ool -4699
▁ㅇㅝㄴㅈㅗ -4700
ㅌㅟ -4701
▁ㅅㅣㄱㅍㅜㅁ -4702
▁ㄱㅗㄹㅋㅣ -4703
▁ㅇㅣㄹㅇㅛ -4704
▁ㅇㅣㄴㄱㅝㄴ -4705
▁ㅍㅕㅇㅇㅣㄹ -4706
▁360 -4707
▁ㄴㅏㄱㅎㅏ -4708
▁117 -4709
▁ㅎㅏㅂㄱㅖ -4710
ㄱㅘㄱ -4711
▁ㅊㅓㅇㅇㅘ -4712
▁ㅅㅐㅇㅇㅐ -4713
▁ㄱㅓㄹㅈㅡ -4714
▁ㅅㅓㅇㄷㅏㅇ -4715
ㄹㅓㄴㅌㅡ -4716
ㄹㅔㄹ -4717
▁ㅂㅏㄹㄱㅜㄹ -4718
▁ㅇㅗㄹㅅㅡ -4719
▁ㅂㅗㄱㅎㅏㅂ -4720
▁ㅌㅐㄱㅎㅏ -4721
▁ㅅㅣㄹㅇㅡㄴ -4722
▁ㅋㅣㅅ -4723
▁ㅈㅣㄱㅈㅏㅇ -4724
▁ㅈㅓㄱㅅㅣ -4725
▁ㅇㅏㄴㅇㅑㅇ -4726
▁ㅈㅡㅇㅅㅏㅇ -4727
▁ㅇㅣㅁㄱㅡㅁ -4728
▁One -4729
▁GO -4730
▁ㄱㅏㅇㄹㅣㅁ -4731
ph -4732
▁ㅍㅗㄱㅍㅏ -4733
▁ㅁㅏㄴㅇㅣㄹ -4734
▁ㅎㅘㄱㅈㅏㅇㅍㅐㄱ -4735
ㄷㅗㄹㅇㅣ -4736
ㄹㅣㄴㅅㅔ -4737
▁ㅈㅏㅁㅅㅣㄹ -4738
▁ㄱㅗㅇㅇㅣㄴ -4739
▁ㄱㅜㄱㄱㅕㅇ -4740
▁ㄲㅘㄱ -4741
▁ㄷㅏㅇㄷㅏㅇ -4742
ree -4743
▁Oh -4744
▁ㅊㅐㅁ -4745
▁ㅁㅕㅇㅂㅐㄱ -4746
▁ㅅㅡㄹㄹㅣ -4747
▁ㅌㅡㄱㅂㅕㄹㅎㅣ -4748
▁ㅌㅗㅇㅌㅡㄹ -4749
▁ㅇㅕㄱㅅㅡㅂ -4750
▁ㅅㅓㄴㅅㅏ -4751
ㅋㅗㄹㄹㅣ -4752
▁ㅎㅔㄴㄹㅣ -4753
▁ㅎㅏㄱㅅㅐㅇㅎㅚ -4754
ㄷㅣㅈㅎㅣ -4755
▁ㅇㅑㅇㅈㅏ -4756
▁As -4757
▁ㄱㅡㄱㄷㅗ -4758
▁ㅇㅓㅍ -4759
ㅊㅜㅁ -4760
▁New -4761
ㅇㅗㄹ -4762
ㅋㅔㄹ -4763
▁ㅆㅡㄹㄷㅔ -4764
ason -4765
▁ㄲㅡㄶㅇㅣㅁ -4766
▁FM -4767
ㅂㅜㄹㅁㅕㅇ -4768
ㄷㅡㄹㄱㅣ -4769
▁ㄱㅘㄴㅊㅏㄹ -4770
▁ㄸㅡㄴㄱㅡㅁㅇㅓㅄㅇㅣ -4771
▁103 -4772
ai -4773
aby -4774
▁ㄹㅔㄴㅈㅡ -4775
ㄹㅣㄹㄹㅏ -4776
▁ㅅㅓㅇㅈㅣㄹ -4777
▁ㅁㅏㄹㅆ -4778
ㅂㅜㄹㅎㅗ -4779
▁ㅅㅜㄹㅅㅏ -4780
▁ㅅㅣㄹㅈㅗㄴ -4781
▁ㅎㅢㄴㅅㅐㄱ -4782
▁ㅇㅑㅇㅅㅗㄴ -4783
▁ㅁㅜㄲㅇㅣ -4784
▁ㅇㅏㄹㅂㅏ -4785
▁1960 -4786
▁ㄷㅗㅇㄱㅕㅇ -4787
▁ㅈㅏㅇㄹㅗ -4788
ㅂㅔㅅ -4789
▁220 -4790
ㅌㅡㄹㄹㅣ -4791
▁ㄱㅏㄱㅇㅗ -4792
▁CS -4793
▁JP -4794
▁ㅁㅜㄹㅍㅜㅁ -4795
▁ㄴㅣㄹ -4796
▁ㄱㅕㄹㄱㅖ -4797
ㅅㅡㄹㄹㅓ -4798
▁ㅇㅟㄴㄷㅗ -4799
▁un -4800
▁ㅎㅏㅇㄱㅜ -4801
▁ㅅㅑㅂ -4802
▁ㅅㅗㄴㅅㅏㅇ -4803
▁ㅅㅣㅁㅇㅢ -4804
ㅅㄷㅐ -4805
▁ㅇㅟㄴㄷㅡ -4806
▁ㅇㅕㄴㅂㅗㅇ -4807
▁z -4808
▁UE -4809
▁240 -4810
▁ㅂㅓㅂㅊㅣㄱ -4811
▁ㄱㅜㄱㅈㅓㅇ -4812
▁ㅇㅝㄴㄱㅗㄱ -4813
▁tv -4814
oon -4815
▁ㅈㅣㄴㄱㅕㄱ -4816
▁ㅍㅜㅅ -4817
▁ㅅㅗㄴㅅㅣㄹ -4818
▁128 -4819
▁ㅂㅜㅌㅈㅏㅂㅎㅣ -4820
90 -4821
▁ㅈㅓㅇㅂㅏㄴ -4822
▁ㄴㅡㄺ -4823
▁ㄱㅣㅁㅇㅛㅇ -4824
▁ㅎㅗㄹㄷㅡ -4825
ㅅㅣㅇㅌㅓㄴ -4826
MS -4827
▁ㄱㅓㄴㄱㅜㄱ -4828
▁ㄴㅏㄹㄸㅟ -4829
▁ㄱㅜㄱㅈㅏㅇ -4830
▁ㄱㅘㅇㅅㅏㄴ -4831
▁ㅅㅣㄴㅅㅓㄴ -4832
▁ㅇㅕㅇㅈㅣ -4833
▁ㅁㅐㄱㅈㅜ -4834
act -4835
▁ㅈㅡㄱㅇㅟ -4836
ㄱㅏㄹㄹㅑㅇ -4837
ox -4838
▁ㅇㅣㅁㄱㅣ -4839
ㅇㅏㅍ -4840
▁ㅇㅓㅁㅁㅣㄹ -4841
▁ㅈㅣㅁㅅㅡㅇ -4842
▁ㅈㅏㅇㅍㅏㄴ -4843
▁ㅈㅜㅇㅅㅜㄴ -4844
▁ㄷㅗㄷㅂㅗ -4845
hen -4846
▁ㄲㅏㄲㅇㅣ -4847
▁ㅋㅡㄹㄹㅗㄴ -4848
▁ㄷㅏㄴㄱㅣ -4849
▁ㅂㅏㄴㄱㅏㅁ -4850
ARD -4851
▁ㅎㅏㅂㄹㅣ -4852
▁ㅌㅏㅁㅈㅣ -4853
▁go -4854
▁ㅇㅏㄴㅅㅣㅁ -4855
ㄹㄹㅕ -4856
▁ㅂㅏㄱㅅㅏㄹㄴㅏ -4857
▁TVA -4858
▁ㄱㅏㄴㅈㅜ -4859
▁ㅅㅣㄴㄷㅔ -4860
▁ㅋㅜㄴ -4861
▁%/ -4862
▁ㅇㅏㄹㄹㅔㄱㅅㅡ -4863
▁ㄷㅗㄱㅈㅓㅁ -4864
ank -4865
▁ㅂㅐㄱㅈㅔ -4866
ㄱㅜㄱㅇㅓ -4867
▁ㄷㅏㅇㄷㅐ -4868
▁ㅎㅡㄴㄷㅡㄹ -4869
▁ㄱㅘㄴㅌㅗㅇㄹㅕㄱ -4870
▁ㅈㅏㅇㄴㅏㄴㄱㅏㅁ -4871
▁ㄷㅏㄴㄱㅓㅁ -4872
▁ㅂㅏㅇㅌㅏㄴ -4873
▁ㅅㅣㄴㅇㅛㅇ -4874
▁ㅅㅏㅇㄹㅠㄱ -4875
ich -4876
▁ㅅㅐㅇㅈㅓㄴ -4877
▁ㅂㅔㄴㅊㅣ -4878
▁ㄱㅣㅁㅈㅜㄴ -4879
ㄸㅓㄱ -4880
▁ㅋㅗㅁㅂㅣ -4881
▁World -4882
▁ㄴㅏㄹㅆㅣ -4883
▁1982 -4884
▁ㅅㅣㄴㅈㅏ -4885
▁JT -4886
▁ㄷㅏㄴㅈㅗㅇ -4887
ear -4888
▁ㅌㅡㄹㅇㅓ -4889
▁ㅃㅏㄹㄱㅏㄴ -4890
▁ㅌㅏㅁㅎㅓㅁ -4891
ife -4892
ㅇㅓㄴㅅㅣㅂ -4893
ary -4894
lect -4895
▁Mk -4896
▁ㅅㅣㄴㅅㅗㄱ -4897
▁ㅅㅗㄴㅇㅗ -4898
▁ㅇㅡㅁㄹㅛ -4899
▁ㅅㅓㄴㅇㅣㅁ -4900
▁ㄱㅝㄴㅇㅠ -4901
ㄹㅏㄴㅎㅣ -4902
▁ㅂㅕㄴㅅㅜ -4903
▁ㄷㅗㄱㅇㅣㄹㄱㅜㄴ -4904
▁ㄱㅏㅍ -4905
▁ㅅㅔㄴㅅㅓ -4906
▁ㅂㅏㅇㅅㅗㅇㅅㅏ -4907
▁ㄱㅡㄴㅇㅝㄴ -4908
▁ㅅㅜㄴㅇㅑㅇㅎㅏㅁ -4909
▁ㄱㅝㄴㅇㅟ -4910
▁ㄹㅔㄹ -4911
▁ㅁㅏㄱㄱㅏㅇ -4912
ㅈㅗㅇㅅㅏ -4913
▁ㅅㅡㄹㄹㅓ -4914
▁ㅅㅣㄹㄴㅐ -4915
uk -4916
AP -4917
▁all -4918
▁ㅅㅏㅇㅅㅏ -4919
ㅁㅠㄹㄹㅔ -4920
▁ㅎㅟㄹ -4921
▁ㄱㅕㅇㅎㅗ -4922
ET -4923
▁LIVE -4924
▁ㅇㅑㄱㅁㅜㄹ -4925
▁ㄲㅡㅀ -4926
ㄷㅡㄹㅇㅓ -4927
▁ㅈㅓㄴㅅㅐㅇ -4928
way -4929
▁SF -4930
▁ㅈㅣㅁㅈㅏㄱ -4931
▁ㅎㅗㄹㄹㅣ -4932
▁ㄱㅕㄹㅈㅔ -4933
▁ㅈㅓㄴㄴㅏㅁ -4934
▁ㅌㅐㅂ -4935
▁ㅇㅓㄺ -4936
▁ㄲㅡㄹㄹㅣ -4937
▁ㅎㅡㅂㅅㅏ -4938
ple -4939
▁185 -4940
▁ㅊㅣㅁㄷㅐ -4941
▁ㄱㅡㄱㅎㅣ -4942
▁Day -4943
ㄴㅛ -4944
▁ㄱㅣㅁㅎㅐ -4945
▁ㄱㅡㄴㅈㅓㅂㅈㅓㄴ -4946
▁Fr -4947
▁1983 -4948
▁ㄴㅗㄴㅈㅐㅇ -4949
▁ㄷㅏㅇㄱㅣ -4950
▁ㅇㅕㅂ -4951
▁ㅅㅓㄹㄹㅕㅇ -4952
ㅋㅗㄹㄹㅏ -4953
▁ㅈㅓㅇㅅㅓㄱ -4954
▁ㄴㅏㄱㅅㅓㄴ -4955
▁ㅈㅣㄴㅅㅏㅇ -4956
▁ㄱㅏㅁㅅㅜ -4957
▁ㄱㅕㅇㅂㅜㄱ -4958
▁ㄱㅏㅇㅅㅏ -4959
▁ㄷㅗㅇㅅㅗㄱ -4960
ㅂㅏㅌ -4961
▁are -4962
ㅅㅑㅅ -4963
▁ㅎㅏㅂㄷㅗㅇ -4964
▁ㅊㅏㅇㅅㅓㄹ -4965
▁ㄱㅏㄴㄱㅏㄴㅎㅣ -4966
▁119 -4967
▁ㅁㅜㄹㅊㅔ -4968
▁ㅇㅕㄱㅇㅣㅁ -4969
ype -4970
ens -4971
▁do -4972
▁nd -4973
▁DPS -4974
▁ㅈㅣㅂㄱㅝㄴ -4975
▁ㄴㅏㅇㅂㅣ -4976
▁ㅅㅓㅇㅂㅐ -4977
▁ㅇㅝㄴㅎㅕㅇ -4978
▁lv -4979
▁{{{# -4980
▁ㄹㅔㄱㅅㅡ -4981
▁ㅈㅓㄴㄴㅏㄹ -4982
▁ㅅㅓㄴㅈㅏㅇ -4983
▁ㅈㅓㄱㅈㅏ -4984
▁ㅇㅔㄴㅌㅡ -4985
aster -4986
▁MB -4987
▁ㅂㅓㅁㅇㅛㅇ -4988
▁ㅂㅣㄹㄷㅣㅇ -4989
orn -4990
ork -4991
▁ㅈㅓㅇㄱㅛ -4992
▁ㅁㅕㅇㅁㅗㄱ -4993
▁ㅌㅡㄴㅌㅡㄴ -4994
ㅈㅣㄱㅇㅝㄴ -4995
▁ㅌㅡㄱㄱㅗㅇ -4996
▁ㅊㅜㄹㅎㅕㄹ -4997
▁123 -4998
▁ㅇㅓㅁㄱㅕㄱ -4999
▁ㄷㅗㅇㄴㅏㅁ -5000
▁104 -5001
▁ㄱㅗㅇㄱㅏㅁ -5002
▁ㅂㅕㄴㅌㅐ -5003
▁ㅎㅏㄴㅂㅏㄴㄷㅗ -5004
▁ㅅㅏㅁㄱㅏㄱ -5005
▁ㅋㅗㄴㅅㅗㄹ -5006
11 -5007
ㅂㅗㄴㄱㅣ -5008
▁ㅈㅣㄹㅂㅕㅇ -5009
▁ㅅㅐㅇㅊㅔ -5010
▁ㅎㅔㄹㄹㅣ -5011
▁ㄸㅐㅇ -5012
▁ㅈㅣㄹㅈㅜ -5013
ans -5014
▁DP -5015
▁Ad -5016
▁Up -5017
▁ㅋㅟㄱ -5018
▁Wi -5019
▁109 -5020
▁ㄱㅏㅇㄹㅕㄹ -5021
ons -5022
▁ㅈㅓㅈ -5023
▁ㅂㅗㄱㅇㅝㄴ -5024
▁ㄷㅗㅇㅎㅐㅇ -5025
▁ㄱㅘㄴㅊㅡㄱ -5026
▁ㅇㅑㅇㅂㅏㄴ -5027
▁Sw -5028
ㄹㅗㄱㅅㅐㄱ -5029
▁ㅅㅣㄹㅅㅏㅇ -5030
▁AA -5031
▁ㅈㅣㄱㅅㅓㄴ -5032
▁ㅃㅏㄹㄱㅏㄴㅅㅐㄱ -5033
▁OVA -5034
▁ㄱㅗㅇㄷㅐ -5035
▁ㅌㅏㅁㅅㅐㄱ -5036
▁style -5037
▁ㅂㅗㄴㅌㅗ -5038
▁ㅌㅡㄱㅂㅕㄹㅅㅣ -5039
▁ㄷㅏㄴㅎㅐㅇㅂㅗㄴ -5040
ey -5041
▁ㅂㅜㄹㅎㅐㅇ -5042
▁ㅈㅣㄴㄱㅡㅂ -5043
▁ㅆㅏㄹ -5044
▁KOF -5045
▁ㅉㅑㅇ -5046
▁ㅇㅑㄱㅈㅏ -5047
▁ㅈㅓㄴㄹㅏㄱ -5048
▁ㅇㅣㄴㅈㅏ -5049
▁ㅈㅜㅇㅅㅏㅇ -5050
very -5051
▁sp -5052
▁ㄱㅘㄴㅇㅕ -5053
▁ㅅㅓㄴㅈㅗ -5054
▁ㅌㅗㄹ -5055
▁ㅅㅗㄴㅅㅟㅂ -5056
▁ㄱㅘㅇㄱㅣ -5057
▁ㅇㅡㄹㅅㅜ -5058
ㅎㅡㄴ -5059
▁ㅇㅕㄴㅅㅙ -5060
▁ES -5061
▁ㅇㅣㅇㅇㅕ -5062
NA -5063
ex -5064
ung -5065
▁ㄱㅜㄱㅁㅜ -5066
ㅈㅏㄱㅇㅛㅇ -5067
▁ㅊㅗㅇㅎㅏㅂ -5068
▁ㅂㅗㄴㄱㅘㄴ -5069
▁III -5070
ㄱㅗㅇㅎㅏㅇ -5071
▁ㅊㅣㄴㅈㅓㄹ -5072
ㅌㅗㄹ -5073
▁ㄸㅏㅇㅂㅗㄹ -5074
▁ㄴㅗㄴㅁㅜㄴ -5075
▁ㅎㅏㄴㅊㅏㅇ -5076
▁ㅈㅏㅇㅅㅓㅇ -5077
▁ㅇㅣㄴㅈㅐ -5078
▁ㅂㅐㄱㅇㅓㅂ -5079
▁ㄱㅜㄴㅅㅜ -5080
ㅂㅏㄱㅅㅡ -5081
▁ㅊㅗㄱㅅㅜ -5082
▁ㅈㅓㄴㄱㅕㄱ -5083
▁ㄱㅡㄺ -5084
▁UEFA -5085
ㅍㅗㄹㄹㅣ -5086
▁ㄷㅏㄴㅂㅏㄹ -5087
▁ㅁㅕㅇㅁㅜㄴ -5088
▁ㅍㅡㄹㄹㅣ -5089
▁ㅊㅜㄱㅅㅗ -5090
EM -5091
▁ㅇㅡㅇㅇㅛㅇ -5092
ㄴㅡㅇㄹㅕㄱ -5093
▁ㅈㅜㅇㅈㅣ -5094
▁ㅂㅓㄱ -5095
ㅅㅏㅇㅅㅣ -5096
▁ㅈㅜㅇㄱㅗ -5097
▁ㅎㅕㅇㅍㅕㄴ -5098
ㄹㅡㄹㄹㅗ -5099
▁ㅂㅏㄱㅅㅏㄹㄴㅐ -5100
▁ㄷㅗㄹㅂㅗ -5101
▁ㅅㅓㅇㅅㅣㄹ -5102
ㅇㅟㄴㅅㅡ -5103
▁ㅂㅕㄴㄷㅗㅇ -5104
▁RA -5105
▁ㅉㅡ -5106
▁!" -5107
▁ㄱㅏㅇㅎㅗ -5108
ll -5109
▁ㅇㅏㄴㅉㅗㄱ -5110
anc -5111
▁as -5112
▁ㅇㅕㄱㄹㅑㅇ -5113
▁ㅎㅘㄱㅅㅏㄴ -5114
ㅋㅝ -5115
▁ㄷㅏㄹㅇㅏ -5116
▁ㅊㅏㅇㅁㅜㄴ -5117
▁ㅈㅣㅌ -5118
AK -5119
▁ㅅㅏㅇㅈㅜ -5120
ㅅㅡㄹㄹㅏ -5121
▁ㅈㅣㅇㅇㅕㄱ -5122
▁ㄱㅔㅁ -5123
ㅁㅏㅇㅈㅜ -5124
▁Windows -5125
▁ㅇㅝㄴㅍㅣ -5126
ㄴㅠㅁ -5127
ㅋㅗㄹㄹㅣㅅ -5128
▁ㄸㅏㄹㄹㅣ -5129
▁ㅇㅕㄱㅁㅕㅇ -5130
▁ㅅㅏㄴㅌㅏ -5131
▁ㅆㅓㅁ -5132
▁ㅂㅣㄴㄷㅗ -5133
▁ㄱㅣㅅㅂㅏㄹ -5134
▁no -5135
▁ㄱㅗㅇㅌㅗㅇㅈㅓㅁ -5136
▁ㄱㅏㅇㄷㅡㅇ -5137
ㅅㅏㄴㅇㅕㄱ -5138
▁en -5139
▁ㅊㅓㄴㅇㅕㄴ -5140
▁ㅂㅜㄹㅆㅏㅇ -5141
▁ㅇㅗㄴㄷㅗ -5142
▁ㄱㅕㅇㅅㅏㅇㅂㅜㄱㄷㅗ -5143
▁ㅊㅐㄱㅇㅣㅁㅈㅣ -5144
▁ㄱㅜㄹㅇㅛㄱ -5145
▁ㄹㅏㄴㅅㅡ -5146
▁ㅂㅜㄴㅅㅏㄴ -5147
▁ㅎㅣㅂㅎㅏㅂ -5148
▁ㅇㅗㄹㄷㅡ -5149
▁ㅇㅓㄹㄹㅏ -5150
▁ㅅㅡㅇㅊㅏ -5151
ㅊㅣㅅ -5152
▁ㄲㅓㅂ -5153
▁ㅂㅗㅇㅅㅙ -5154
▁ㄴㅗㅇㅈㅏㅇ -5155
ero -5156
ㅁㅏㄱㅈㅣ -5157
argin -5158
35 -5159
▁ㅌㅗㅇㅊㅣㅇ -5160
▁ㅇㅔㄴㅈㅣ -5161
▁ㅇㅣㄹㄹㅣ -5162
ㅍㅡㄹㄹㅣㅇ -5163
▁ㅈㅓㄴㄷㅏㅇ -5164
▁ㄱㅘㄴㅇㅜ -5165
ㄱㅗㄴㅂㅗㄹ -5166
▁ㄷㅗㅇㅂㅏㄴ -5167
▁ㅈㅔㅁ -5168
▁187 -5169
oss -5170
▁ㅂㅏㄹㅍㅏㄴ -5171
▁ㅍㅕㅇㅎㅏ -5172
▁Ph -5173
▁So -5174
▁ㅈㅜㅇㄱㅓ -5175
▁Qu -5176
▁ㅅㅓㅇㅆㅣ -5177
▁LO -5178
ㅂㅔㄴㅊㅓ -5179
▁Station -5180
▁ㅂㅏㄹㅋㅣ -5181
▁ㅂㅏㄹㅎㅐㅇ -5182
▁ㄷㅔㄴㅁㅏ -5183
▁ㅊㅓㄴㅊㅓㄴ -5184
▁ㅊㅐㅁㅍㅡ -5185
▁ㅇㅝㄴㅅㅣ -5186
▁ㅅㅗㄴㄴㅣㅁ -5187
▁margin -5188
▁ㅈㅣㄴㅇㅔ -5189
▁ㅎㅏㄹㄹㅣ -5190
▁ㅂㅓㄴㅈㅣ -5191
▁ㄱㅕㄹㅎㅗㄴㅅㅣㄱ -5192
▁ㄱㅗㅇㅅㅏㄴㄷㅏㅇ -5193
▁ㄱㅡㅂㅎㅐㅇ -5194
▁ㅈㅏㄴㅇㅣㄴ -5195
▁ML -5196
▁ㅂㅣㅇㅍㅏㄴ -5197
▁135 -5198
ㄹㄹㅐ -5199
99 -5200
▁ㅁㅓㅇㅊㅓㅇ -5201
▁ㄱㅗㅇㄷㅏㄴ -5202
▁ㄱㅏㅇㄱㅏㄴ -5203
▁ㅌㅗㄱ -5204
▁ㄷㅗㅇㅇㅣㄴ -5205
pt -5206
▁ㅂㅕㄴㅇㅣ -5207
▁ㅅㅙ -5208
▁ㅍㅗㄱㅅㅡ -5209
▁ㅍㅕㅇㅇㅑㅇ -5210
▁210 -5211
▁ㅋㅡㄴ -5212
ㅈㅓㄴㅅㅏ -5213
▁121 -5214
▁ㅊㅣㅁㅌㅜ -5215
▁ㅅㅣㄴㅈㅜㅇ -5216
▁ㅎㅘㅇㅎㅜ -5217
▁ㅅㅗㄴㄲㅗ -5218
ise -5219
▁ㅇㅣㅈㅎㅣ -5220
▁ㄹㅟ -5221
▁ㄱㅓㅁㅇㅕㄹ -5222
▁ㄹㅔㅁ -5223
ㄱㅜㄴㄱㅏ -5224
ㅇㅣㄱㅅㅜ -5225
▁ㅋㅜㅇ -5226
▁ㅇㅣㄴㄱㅘ -5227
ical -5228
▁ㄱㅕㅇㅇㅕㄴ -5229
ㄹㅠㅁ -5230
▁107 -5231
▁ㅅㅓㄴㅊㅜㄹ -5232
ㅈㅠ -5233
▁ㅁㅗㄱㄱㅓㄹㅇㅣ -5234
▁ㅊㅓㄴㅊㅓㄴㅎㅣ -5235
▁ㅌㅡㄱㅎㅜㄴ -5236
▁ㅅㅣㄴㅈㅣ -5237
ㄱㅝㄹ -5238
▁Ver -5239
ㄴㅎㅔㄴ -5240
▁ㄱㅏㅇㅁㅣㄴ -5241
▁ㄴㅏㄴㅁㅜ -5242
▁ㄱㅣㅁㅅㅜ -5243
▁ㅇㅚㄴㅅㅗㄴ -5244
▁ㅇㅕㄹㅎㅕㄹ -5245
▁ㄱㅏㄴㅈㅣ -5246
▁1981 -5247
▁-- -5248
▁ㄲㅡㄶㅇㅣㅁㅇㅓㅄㅇㅣ -5249
▁ㄱㅏㅇㄱㅕㅇ -5250
▁ㅁㅜㄹㅇㅓ -5251
▁ㅅㅣㄴㄷㅗㅇ -5252
▁ㄲㅜㅁㄲㅜ -5253
ㅇㅣㄴㅂㅗ -5254
▁MG -5255
▁ㅂㅜㄹㅌㅐ -5256
▁ㅇㅣㄴㅊㅣㅇ -5257
▁ㄷㅓㅁㅂㅣ -5258
▁ㄱㅏㅁㅌㅏㄴ -5259
▁ㄱㅘㅇㅁㅜㄹ -5260
▁ㅁㅕㅇㅂㅜㄴ -5261
ㅁㅔㅅ -5262
▁pl -5263
▁ㄷㅏㅂㄷㅏㅂ -5264
▁ㄱㅣㅁㅈㅣ -5265
ign -5266
▁ㅈㅓㅁㄱㅓㅁ -5267
▁ㅎㅕㄹㅌㅗㅇ -5268
▁ㅇㅏㅂㄱㅝㄴ -5269
▁ㅎㅏㅇㄱㅗㅇㅁㅗ -5270
gh -5271
▁ㅎㅓㅇㄱㅏ -5272
ㅁㅣㄴㅈㅜ -5273
▁ㅊㅓㅅㅉㅐ -5274
▁ㅁㅏㅈㅂㅜㅌ -5275
▁ㅅㅓㄴㅈㅣㄴ -5276
▁ㄴㅐㅇㅈㅓㅇ -5277
ㄷㅔㄹㄹㅣㅇ -5278
▁ㄱㅕㅇㅊㅏㄹㅅㅓ -5279
▁ㅇㅓㅁㅇㅕㄴㅎㅣ -5280
▁love -5281
ㄴㅗㄹ -5282
▁ㅊㅔㄴ -5283
▁ㅈㅓㅁㅇㅠ -5284
▁ㄱㅣㅁㅅㅡㅇ -5285
▁ㄷㅗㅇㅎㅐ -5286
▁EC -5287
ㄴㅏㄴㅎㅣ -5288
▁ㅊㅜㄹㄱㅏㄴ -5289
▁ㅊㅓㄹㄱㅏㅂ -5290
▁ㅍㅕㅇㄹㅗㄴ -5291
▁ㄱㅗㅇㄱㅕㄱㅅㅜ -5292
▁ㅂㅗㄱㅅㅏ -5293
▁ㅎㅔㅅㄱㅏㄹㄹㅣ -5294
▁ㅎㅡㄺ -5295
▁ㅇㅛㅇㅈㅏ -5296
ㅅㅔㄴㅅㅡ -5297
▁ㅈㅜㅇㅇㅟ -5298
IR -5299
▁ㅇㅣㅁㅇㅢ -5300
▁ㅉㅗㅈ -5301
▁ㄴㅟ -5302
▁ㅁㅏㅇㅌㅗ -5303
▁ㅋㅡㄹㄹㅣㄴ -5304
▁TR -5305
▁ㅁㅐㅇㅅㅔ -5306
ail -5307
▁ㅍㅗㄱㄱㅕㄱㄱㅣ -5308
urn -5309
▁ㅊㅣㄴㅂㅜㄴ -5310
▁ㅈㅏㅇㅌㅏ -5311
▁ㅈㅜㅇㄷㅗㅇ -5312
▁math -5313
ㄸㅣ -5314
▁ㅋㅗㄴㅅㅡ -5315
▁ㄱㅣㅁㅇㅠ -5316
▁Sk -5317
ㄲㅓㅂ -5318
ㅅㅣㄹㅈㅓㅁ -5319
▁ㅂㅗㄴㄴㅡㅇ -5320
▁ㅇㅗㄹㅂㅏ -5321
▁ㅇㅕㄹㅈㅓㅇ -5322
▁ㅍㅜㅇㅂㅜ -5323
▁ㅈㅣㄹㅅㅓ -5324
▁186 -5325
▁ㅅㅣㄹㅅㅏ -5326
ㅊㅐㄱㄱㅏㅁ -5327
ence -5328
▁JTBC -5329
▁ㄴㅏㅂㄷㅡㄱ -5330
▁ㅇㅕㅇㄱㅏㅁ -5331
▁ㅅㅏㅇㅁㅜ -5332
▁ㅅㅟㄹㄷㅡ -5333
▁ㄷㅗㅇㅈㅓㅇ -5334
▁ㄱㅜㄴㅇㅛ -5335
▁To -5336
ㅊㅔㄹ -5337
▁ㅂㅜㄹㄴㅡㅇ -5338
▁ㅍㅡㄹㄹㅐㄴ -5339
▁ㄹㅗㄹㄹㅓ -5340
▁=" -5341
VER -5342
ㅌㅡㄹㄹㅐㄴㄷㅡ -5343
▁Super -5344
▁ㅂㅕㄴㅈㅏㅇ -5345
ㅍㅗㄴㅅㅓ -5346
▁122 -5347
ㄹㅏㄴㅅㅣ -5348
▁ㄱㅗㅇㅅㅗㄱ -5349
▁ㄱㅘㅇㄱㅕㅇ -5350
▁ㅊㅏㄴㅅㅓㅇ -5351
▁ㅇㅝㅁ -5352
▁ㅈㅓㅇㅅㅣㄴㄹㅕㄱ -5353
▁BJ -5354
▁ㅈㅏㄱㅈㅓㅇ -5355
▁ㄱㅘㅇㅁㅕㅇ -5356
▁ㅂㅓㅇㅋㅓ -5357
▁ㅎㅘㄱㅅㅣㄴ -5358
▁ㅁㅓㅅㄷㅐ -5359
▁Dream -5360
▁ㄱㅓㅁㅈㅓㅇ -5361
▁ㄱㅡㄴㄷㅐ -5362
▁ㄷㅏㅅ -5363
▁ㅇㅕㄴㅅㅏㄴ -5364
▁ㅂㅏㄱㅅㅜ -5365
▁ㅇㅣㄴㅂㅔㄴ -5366
▁ㅅㅏㅁㅅㅓㅇㅈㅓㄴㅈㅏ -5367
▁ㅁㅗㅁㅌㅗㅇ -5368
▁ㅅㅔㄱ -5369
▁ㅈㅜㅇㅈㅓㅁ -5370
▁ㄱㅡㄱㄷㅐ -5371
▁LE -5372
▁ㅈㅏㅇㄹㅖ -5373
▁1979 -5374
▁ㅊㅜㄹㅂㅓㅁ -5375
▁ㅇㅝㄴㅅㅜㅇㅇㅣ -5376
▁ㅂㅓㅂㅅㅏ -5377
ier -5378
▁ㅂㅏㄱㅅㅓㅇ -5379
ㅈㅜㅁ -5380
▁ㅂㅕㄴㅁㅕㅇ -5381
▁ㄱㅣㅁㅍㅗ -5382
ㅅㅣㄴㅈㅏ -5383
▁ㄷㅡㄹㄹㅕ -5384
▁ㅊㅗㅇㅈㅏㅇ -5385
ㄱㅡㄹㄹㅣㅇ -5386
ㄱㅡㄹㄹㅏ -5387
▁can -5388
▁EXP -5389
▁ㅇㅣㄹㄱㅏ -5390
▁ㅊㅜㅂ -5391
▁145 -5392
▁ㄱㅗㄱㅇㅣㄴ -5393
▁ㅎㅗㅅ -5394
▁ㅁㅣㄴㄱㅜㄱ -5395
▁ㅊㅓㅇㄱㅜ -5396
ble -5397
▁ㅊㅜㄹㅅㅏㄴ -5398
▁ㅁㅏㄴㄴㅡㅇ -5399
ㅇㅞㄹ -5400
ㅇㅣㅅ -5401
▁ㅍㅓㄱ -5402
▁ㅅㅡㄹㅍㅡㅁ -5403
▁ㅁㅏㄴㅈㅜ -5404
▁ㄷㅏㄱㅊㅣ -5405
▁ㅂㅡㄹㄹㅓㄱ -5406
▁ㅅㅣㄹㅎㅕㄴ -5407
IX -5408
▁ㅈㅗㄴㅅㅡ -5409
▁ㅊㅏㅇㅈㅏㄱㅁㅜㄹ -5410
oun -5411
ㄲㅡㅅ -5412
▁ㅂㅗㅇㅅㅏ -5413
▁NO -5414
▁ㅎㅔㄹㅁㅔㅅ -5415
ㅂㅏㅁ -5416
▁ㅂㅏㅇㅅㅣㅁ -5417
▁113 -5418
ㄴㅓㄴ -5419
▁ㅎㅏㄱㄱㅡㅂ -5420
▁ㅇㅏㅁㅎㅗ -5421
▁IM -5422
▁Ap -5423
ㅇㅕㄱㅅㅏ -5424
▁ㅍㅜㅇㅅㅓㄴ -5425
▁165 -5426
▁ㄱㅓㅁㅈㅡㅇ -5427
ㅎㅠㅇ -5428
iver -5429
▁1950 -5430
▁ㅇㅘㅇㅂㅗㄱ -5431
▁ㅇㅓㅇㅁㅏㅇ -5432
ott -5433
▁ㅁㅗㄹㅅㅏㄹ -5434
▁ㄱㅏㄱㅇㅣㄴ -5435
▁ㅇㅣㄴㅈㅓㅂ -5436
▁ㄱㅡㄹㅆㅣ -5437
▁ㅎㅏㅇㅁㅗ -5438
▁ㅅㅗㄴㅈㅏ -5439
▁ㅍㅔㅇ -5440
▁144 -5441
▁IT -5442
▁ㅁㅕㅇㅅㅏ -5443
▁ㅉㅗㅊㄱㅕ -5444
▁ㅂㅕㅇㅇㅕㄱ -5445
▁ㅇㅓㅁㅁㅣㄹㅎㅣ -5446
▁ㅇㅣㄴㅅㅓㅇ -5447
▁155 -5448
▁ㅇㅜㄴㅅㅗㅇ -5449
▁ATK -5450
▁ㅈㅓㄹㅊㅣㄴ -5451
▁at -5452
▁ㅇㅗㄱㅅㅏㅇ -5453
ㅍㅗㄹ -5454
▁ㄱㅏㄴㅅㅓㅂ -5455
▁CM -5456
▁ㅌㅗㅇㅉㅐ -5457
▁ㅅㅡㅇㅇㅣㄴ -5458
▁ㅋㅏㅁ -5459
▁ㄷㅗㅇㅈㅓㄴ -5460
▁ㅍㅜㅁㅈㅣㄹ -5461
▁ㅎㅕㄴㄱㅡㅁ -5462
▁ㅈㅕㄴ -5463
uck -5464
eah -5465
▁ㅂㅏㅇㅎㅏㄱ -5466
▁Max -5467
▁ㅇㅕㅇㅇㅑㅇ -5468
ㅈㅣㄴㅎㅗ -5469
▁ㅎㅡㅌㅇㅓ -5470
▁114 -5471
▁ㅇㅕㄴㅅㅜ -5472
▁ㅍㅔㄹㄹㅣ -5473
ㅇㅡㅁㄷㅐ -5474
ㅍㅗㄱㅌㅏㄴ -5475
▁ㅁㅗㄱㅅㅏ -5476
▁ㅇㅕㄴㅈㅓㄴ -5477
▁ㅊㅡㄴ -5478
▁ㄷㅗㄱㅇㅣㄹㅇㅓ -5479
▁ㅇㅣㄹㄱㅗㅂ -5480
ㄹㅔㄴㅈㅣ -5481
ㅉㅏㅇ -5482
▁ㅊㅓㄴㅈㅏㅇ -5483
▁ㅅㅏㅇㄱㅡㅁ -5484
▁BD -5485
ode -5486
ㅃㅏㄱ -5487
▁ㄱㅣㅍㅇㅣ -5488
▁ㅇㅣㅂㅁㅜㄴ -5489
▁ㅇㅑㅇㅅㅣㄱ -5490
▁ERA -5491
▁ㅈㅣㅂㅎㅚ -5492
▁ㅎㅏㅁㄹㅏㄱ -5493
▁ㅁㅣㄹㄹㅔ -5494
II -5495
oh -5496
▁this -5497
▁ㅇㅝㄴㅈㅓㄴ -5498
▁ㄷㅗㅇㄷㅐ -5499
▁ㅎㅕㄴㅈㅏ -5500
▁ㅁㅟㄴㅎㅔㄴ -5501
▁ㅂㅐㅇㄱㅏ -5502
ㅇㅣㄴㅎㅏ -5503
▁ㅎㅕㄱㅅㅣㄴ -5504
▁ㅂㅏㄹㄹㅔ -5505
▁ㅅㅡㅇㅈㅣㄴ -5506
ㅅㅗㄱㄱㅣ -5507
▁ㄱㅏㅁㅈㅏ -5508
ㅂㅐㅅ -5509
▁ㅇㅛㅇㅇㅏㅁ -5510
ㅇㅣㅁㅈㅡ -5511
▁ㅅㅓㅇㄱㅕㅇ -5512
▁ㅅㅗㄴㄲㅗㅂㅎㅣ -5513
▁ㅊㅏㅁㅅㅏ -5514
ㄴㅗㅇ -5515
▁ㅈㅓㄴㅎㅑㅇ -5516
▁ㅈㅓㅇㅁㅜㄴ -5517
▁ㅈㅗㅇㄱㅕㄹ -5518
▁ㅁㅔㅅ -5519
▁ㄱㅜㅇㅎㅏㅂ -5520
▁ㄷㅓㅍㅊㅣ -5521
▁ㄴㅗㄱㅎㅘ -5522
▁ㅅㅗㅅ -5523
▁750 -5524
▁ㅇㅝㄴㅈㅏㅇ -5525
▁..! -5526
▁ㅁㅏㅈㅎㅣ -5527
▁ㅊㅣㄴㅇㅐ -5528
▁ㅈㅓㄴㄷㅗㅇㅊㅏ -5529
ㅇㅜㄹㅇㅣ -5530
▁ㅁㅏㄴㅈㅓㅁ -5531
▁GK -5532
▁from -5533
▁ㅈㅓㅇㅂㅏㄴㄷㅐ -5534
▁HE -5535
ㅅㅂㅜㄹ -5536
▁ne -5537
▁ㅇㅑㄴ -5538
ㄸㅓㄹㅇㅓ -5539
▁ㅇㅡㄴㅍㅖ -5540
▁ㅍㅕㅇㅎㅐㅇ -5541
ㅂㅕㄴㅇㅣ -5542
▁ㄷㅗㄹㅇㅕㄴㅂㅕㄴㅇㅣ -5543
▁ㅎㅡㄱㅁㅏ -5544
▁ㅎㅕㅂㅇㅢ -5545
▁ㄸㅓㄹㅊㅣ -5546
▁??? -5547
▁ㅈㅐㄱㅅㅡㄴ -5548
bs -5549
int -5550
▁ㅁㅏㄹㅆㅡㅁ -5551
▁OS -5552
ㄷㅗㅇㅅㅏㄴ -5553
▁ㅎㅏㅇㅎㅐ -5554
▁ㅃㅐㅅㄱㅣ -5555
▁ㅍㅜㅇㄱㅣ -5556
▁ㅁㅏㄹㄹㅔ -5557
▁ㅅㅣㄹㅊㅔ -5558
▁ㅈㅓㄱㅈㅓㄹㅎㅣ -5559
ㅇㅜㄴㄷㅗㅇ -5560
▁ㅎㅡㅂㅎㅕㄹㄱㅟ -5561
▁450 -5562
▁ㅊㅜㅇㅈㅗㄱ -5563
▁tr -5564
▁NBA -5565
▁Season -5566
ㅎㅏㅇㄱㅗㅇ -5567
▁ㅈㅓㅇㅅㅓㅇ -5568
▁AB -5569
▁ㄷㅏㄲ -5570
ㅈㅣㄱㅈㅏ -5571
▁ㄷㅗㅇㅅㅓ -5572
▁ㅈㅗㅇㅇㅕㅇ -5573
▁ㅇㅣㅁㅎㅏ -5574
▁ㅎㅏㄱㅁㅜㄴ -5575
itt -5576
IL -5577
▁ㅈㅜㅇㅇㅝㄴ -5578
ㅊㅓㄹㄷㅗ -5579
ose -5580
▁ㅇㅛㄱㅅㅓㄹ -5581
▁ㅇㅣㄹㄱㅘㄴ -5582
▁new -5583
▁ㅇㅓㄹㅌㅣ -5584
ㄹㅔㅂ -5585
▁ㅎㅏㄱㄷㅐ -5586
▁ㅊㅣㅁㅊㅏㄱ -5587
▁{{{- -5588
▁ㅇㅓㄱㅇㅜㄹ -5589
ㅅㅁㅏㄹ -5590
▁ㅇㅣㅂㅈㅡㅇ -5591
▁EXT -5592
▁ㄱㅏㄱㅈㅣ -5593
▁ㅇㅑㄼ -5594
▁ㅂㅜㄴㅎㅗㅇ -5595
▁ㅎㅕㅂㅈㅓㅇ -5596
▁La -5597
▁ㅁㅜㄹㅈㅏ -5598
ㅈㅏㅇㄱㅗ -5599
ㅇㅝㄴㄱㅜㄴ -5600
▁ㅈㅗㄴㅈㅜㅇ -5601
▁Im -5602
▁ㄱㅏㅁㄷㅏㅇ -5603
▁EZ -5604
▁ㅈㅏㄴㅎㅗㄱ -5605
▁314 -5606
▁ㅎㅏㅁㅈㅏㅇ -5607
ㅌㅏㅁㅈㅓㅇ -5608
▁ㅁㅣㄹㄷㅗ -5609
ㄴㅣㄴ -5610
reat -5611
▁ㅎㅏㅂㅈㅏㄱ -5612
▁ㅂㅐㅅ -5613
ㅌㅐㅂ -5614
▁ㅌㅜㄴ -5615
ㄹㅔㄱㅅㅕㄴ -5616
▁ㄱㅏㅇㄹㅡㅇ -5617
▁ㄴㅗㄱㅇㅣ -5618
ㅇㅡㄴㅅㅐㄱ -5619
▁Con -5620
▁Vol -5621
ㅋㅡㄹㄹㅣ -5622
▁ㄱㅕㄱㄹㅕ -5623
▁ㄱㅏㄹㅅㅐㄱ -5624
▁124 -5625
▁ㅎㅏㄱㄴㅕㄴㄷㅗ -5626
▁ㅇㅣㄴㄱㅗㅇㅈㅣ -5627
▁ㅇㅕㄴㅅㅔ -5628
▁ㅍㅏㄹㄹㅏ -5629
▁Sch -5630
▁ㅅㅣㄴㄱㅗㄱ -5631
▁ㄱㅏㅇㅌㅏ -5632
ㅊㅓㄹㅅㅜ -5633
▁ㅇㅣㄴㅌㅔ -5634
▁ㅈㅓㅁㅁㅕㄹ -5635
▁Ed -5636
▁ㅍㅏㄴㄷㅗ -5637
▁ㄱㅡㄱㅎㅏㄴ -5638
▁rd -5639
▁ㅁㅕㄴㅎㅏ -5640
▁ㅅㅔㄹㄹㅔ -5641
▁ㅊㅜㄹㅍㅏㄴㅅㅏ -5642
▁ㅎㅐㅅ -5643
ube -5644
▁ㅎㅘㅇㄷㅏㅇ -5645
ㅉㅜㄱ -5646
▁Girl -5647
▁ㅁㅜㄹㅇㅑㄱ -5648
▁ㅈㅓㅁㅅㅣㅁ -5649
▁ㄱㅏㅇㅈㅓㄴ -5650
▁ㅁㅣㄴㄱㅏㄴㅇㅣㄴ -5651
▁ㅎㅣㅁㅇㅣㅂ -5652
▁ㅍㅓㅁㅍㅡ -5653
▁ㅇㅏㅂㄹㅕㄱ -5654
▁ㅈㅓㅇㅅㅏ -5655
▁ㅋㅏㄹㄹㅏ -5656
▁ld -5657
▁RE -5658
▁Night -5659
▁ㅈㅐㅁ -5660
ㅂㅏㅇㅅㅗㅇ -5661
▁USB -5662
▁183 -5663
▁ㅇㅏㅂㅊㅜㄱ -5664
ition -5665
ari -5666
▁ㄸㅜㅇ -5667
ㄱㅗㅇㅅㅏ -5668
usic -5669
▁ㅂㅓㄹㅆㅓ -5670
▁ㅅㅏㄴㅁㅐㄱ -5671
ㅆㅇㅓㅆ -5672
ㅅㅠㄹ -5673
msys -5674
▁ㅅㅐㅇㄱㅣㅁㅅㅐ -5675
▁ㄷㅗㅇㄱㅜ -5676
▁ㅂㅣㅇㄱㅕㄹ -5677
▁ldmsys -5678
▁ㅂㅓㅂㅁㅜ -5679
▁ㅆㅣㅅ -5680
▁ㅇㅣㄹㅈㅣ -5681
▁ㄱㅐㅅ -5682
▁152 -5683
ㅌㅡㅁ -5684
▁ㅁㅏㅇㅅㅓㄹ -5685
15 -5686
▁ㅂㅕㅇㅅㅏㄹ -5687
▁ㅈㅜㅇㄱㅕㄴ -5688
▁ㄱㅕㅇㅂㅜ -5689
ats -5690
ㅁㅂㅣ -5691
▁TS -5692
▁ㅊㅜㄹㄷㅗㅇ -5693
ㅈㅗㄴㅅㅣㅁ -5694
▁ㅇㅕㄴㅅㅓㄹ -5695
▁ㄱㅣㅁㅈㅜ -5696
▁..? -5697
▁ㄷㅓㅇㅇㅓ -5698
ㄹㅡㄴㅂㅏ -5699
ㄹㅡㄴㅅㅗㄴ -5700
ㅅㅏㅇㄱㅡㅂ -5701
▁ㅁㅏㄴㄹㅔㅂ -5702
▁1200 -5703
▁Black -5704
▁ㅈㅣㅂㄱㅖ -5705
▁BC -5706
ㅊㅐㄱㅈㅓㅁ -5707
▁ㄱㅡㅁㅇㅛ -5708
▁ㄱㅗㄹㅍㅡ -5709
▁182 -5710
▁ㅂㅏㄱㅈㅣㄴ -5711
ㅎㅔㄹ -5712
▁WC -5713
▁ㅈㅏㅇㅂㅕㄱ -5714
▁Bo -5715
▁ㄴㅗㅇㅇㅓㅂ -5716
▁NH -5717
13 -5718
▁ㄷㅡㄹㅇㅕ -5719
yn -5720
▁ver -5721
▁ㅁㅜㄴㅇㅑㅇ -5722
▁ㅅㅓㄴㄷㅗㅇ -5723
▁ㅊㅓㄴㅅㅏㅇ -5724
▁ㅇㅝㄴㅍㅏㄴ -5725
▁ㅌㅗㅇㅅㅗㄹ -5726
▁ㅇㅣㄹㄹㅔㄱㅌㅡ -5727
▁ㅈㅓㄹㅂㅕㄱ -5728
▁ㄷㅡㅇㄱㅡㄱ -5729
▁ㅇㅓㄱㅈㅔ -5730
▁ㄴㅏㅁㄷㅗㅇㅅㅐㅇ -5731
▁ㅇㅕㄴㄷㅗㅇ -5732
▁127 -5733
▁ㄱㅏㄱㄷㅗ -5734
ㅂㅕ -5735
▁ㅂㅜㄹㄱㅣㄹ -5736
▁ㄱㅑ -5737
▁ㅋㅣㅁ -5738
ㄷㅟ -5739
▁ㅅㅏㅇㄴㅑㅇ -5740
▁ㄱㅘㄴㅈㅏㅇ -5741
▁Let -5742
▁ㅂㅏㄱㅈㅏ -5743
▁not -5744
app -5745
ㅇㅜㄹㄷㅐ -5746
ㄷㅏㅇㅊㅗ -5747
▁ㅎㅕㄴㅎㅘㅇ -5748
ㅔㅇㅛ -5749
▁ㅂㅏㄹㅁㅕㅇ -5750
▁ㅇㅏㅀ -5751
▁ㅌㅏㄴㅎㅐㄱ -5752
▁ㅊㅐㅁㅅㅡ -5753
▁ㅅㅗㄹㅈㅓ -5754
▁DM -5755
▁MM -5756
ㄹㅜㅁ -5757
▁118 -5758
DD -5759
▁ㄴㅔㄹ -5760
▁ㅃㅓㄹ -5761
▁ㅇㅘㅇㅅㅣㄹ -5762
▁ㅂㅏㄹㄱㅡㅂ -5763
▁ㅇㅘㅇㅂㅣ -5764
ough -5765
▁ㅂㅓㅅㄱㅣ -5766
▁ㅅㅓㅁㄱㅘㅇ -5767
▁OG -5768
▁184 -5769
▁ㅎㅑㅇㅎㅜ -5770
▁ㅊㅏㄱㄹㅠㄱ -5771
ㅍㅐㅇ -5772
▁ㅈㅓㄴㄷㅏㅁ -5773
ㄱㅏㄴㄷㅐ -5774
▁SSR -5775
▁ㅎㅘㄴㅅㅐㅇ -5776
▁Am -5777
▁ㅎㅕㅂㄷㅗㅇ -5778
▁ㅎㅏㄱㅅㅏ -5779
gr -5780
▁Op -5781
▁ㅇㅓㄹㄹㅣ -5782
▁ㅅㅜㄱㅅㅗ -5783
▁ㅇㅣㅂㅅㅣ -5784
▁Str -5785
▁ㄱㅣㅁㄷㅗ -5786
ㅌㅔㄹㅅㅡ -5787
▁ㅂㅏㄴㅅㅓㅇ -5788
▁Col -5789
▁ㄱㅔㄹ -5790
▁AF -5791
ㅇㅕㅇㅎㅗ -5792
▁ㅇㅣㅍ -5793
▁ㅂㅏㄹㄹㅏ -5794
▁ㅈㅓㅇㅁㅣㄹ -5795
ye -5796
▁ㅎㅐㅇㅈㅣㄴ -5797
▁GM -5798
▁ㅊㅓㅇㅊㅜㄴ -5799
▁ㅇㅑㅁ -5800
▁ㅁㅣㄴㅍㅖ -5801
▁000000 -5802
ㄹㅡㄹㄹㅣㄴ -5803
▁ㅋㅓㅁㅂㅐㅅ -5804
▁ㅇㅛㅇㅇㅣ -5805
▁ㅍㅣㄹㄹㅡㅁ -5806
▁ㅇㅗㅁ -5807
▁ㅅㅣㄹㅇㅛㅇ -5808
▁ㅇㅛㄱㅅㅣㅁ -5809
▁ㅇㅓㄺㅎㅣ -5810
▁ㅇㅑㄹ -5811
▁Mag -5812
CE -5813
ㅇㅡㄹㅂㅓ -5814
▁ㅅㅓㄴㅂㅏㄱ -5815
▁ㅈㅏㅁㄱㅣ -5816
iel -5817
ㅎㅏㅇㄹㅕㄱ -5818
▁ㅅㅣㅇㄱㅏ -5819
▁ㄱㅏㅇㅇㅣㄴ -5820
▁ㅍㅕㄴㄹㅣ -5821
ㅎㅏㄴㄷㅗ -5822
▁ㅊㅜㅁㅊㅜ -5823
▁ㄱㅐㅇㅅㅣㄴ -5824
▁ㅊㅣㄴㅊㅓㄱ -5825
▁ㅅㅡㅇㅍㅐ -5826
▁ㄱㅡㅁㅂㅏㄹ -5827
▁ㅈㅣㄱㅊㅐㄱ -5828
▁ㄱㅣㅁㅊㅣ -5829
▁ㅌㅜㄱ -5830
▁ㄱㅓㄴㅈㅣ -5831
▁AV -5832
▁ㅇㅣㄹㅇㅣㄹ -5833
▁ㅎㅡㅇㅂㅜㄴ -5834
▁ㅌㅏㅁㅅㅏ -5835
▁1978 -5836
▁ㅂㅏㄹㄱㅏㄱ -5837
▁ㅇㅜㄱ -5838
ㄹㅕㅅ -5839
ㅂㅔㄴㅈㅕ -5840
ull -5841
vel -5842
▁ㅊㅣㅁㅁㅗㄹ -5843
▁ㅎㅏㄴㄲㅓ -5844
▁AL -5845
▁ㅈㅓㄴㅅㅗㅇ -5846
▁ㅍㅗㄹㅇㅏ -5847
▁ㅎㅗㅅㅋㅏ -5848
▁ㅅㅓㅁㅁㅕㄹ -5849
▁ㅇㅐㄱㅅㅔ -5850
▁ㅈㅓㄴㅈㅣ -5851
▁ㄱㅣㅁㄱㅘㅇ -5852
▁ㅇㅘㄴㅎㅘ -5853
▁ㄱㅕㅇㅈㅓㄴ -5854
▁ㅎㅡㄱㅇㅕㄱㅅㅏ -5855
▁ㅇㅏㄴㅁㅜ -5856
▁ㅅㅓㄴㅇㅝㄴ -5857
▁ㄴㅡㅇㄱㅏ -5858
▁ㄱㅜㄴㅂㅜ -5859
▁ㅇㅏㄹㄹㅔㄱㅅㅏㄴㄷㅡ -5860
▁ㅎㅡㄱㅁㅏㄱ -5861
▁ㅊㅓㄴㄱㅜㄱ -5862
ult -5863
▁ㅈㅓㅇㄷㅏㅂ -5864
▁ㅈㅜㅇㄱㅜ -5865
▁178 -5866
▁ㅅㅓㅇㅁㅕㅇ -5867
▁ㅋㅓㅁㅂㅐㄱ -5868
ㄸㅏㄴ -5869
▁CL -5870
able -5871
▁ㅁㅣㄴㄱㅏㅁ -5872
▁ㄱㅘㄴㅁㅜㄴ -5873
▁ㅂㅏㄴㄱㅕㅇ -5874
▁ㅇㅑㄱㅎㅗㄴ -5875
ㅋㅡㄹㄹㅔ -5876
▁1945 -5877
ject -5878
ㅌㅔㄱ -5879
▁ㅂㅏㄴㅇㅕㄱ -5880
▁ㅅㅣㄴㄱㅘㄴ -5881
▁ㅇㅕㄴㅇㅣ -5882
▁ㅇㅘㄴㄱㅗㅇ -5883
▁ㅇㅓㅇㄷㅓㅇㅇㅣ -5884
▁ㅇㅣㄴㅁㅜㄴ -5885
▁PK -5886
▁ㄷㅗㅇㄱㅖ -5887
ㅋㅞ -5888
▁CE -5889
▁ㄷㅡㅇㅈㅐ -5890
▁ㄱㅕㅇㅅㅏㅇㄴㅏㅁㄷㅗ -5891
18 -5892
▁Co -5893
▁ㅇㅣㄹㅊㅔ -5894
▁cl -5895
eth -5896
ㅌㅜㅁ -5897
▁ㄱㅏㅇㄷㅐ -5898
▁ㄱㅏㄴㅍㅏㄴ -5899
▁ㅈㅣㄱㅎㅐㅇ -5900
ㅂㅏㅇㅇㅜㄹ -5901
▁ㅅㅣㄴㅈㅏㄱ -5902
ㅍㅗㄹㄹㅔ -5903
ㅗㄹ -5904
▁ㄷㅗㄱㅂㅐㄱ -5905
▁ㅇㅜㄹㅇㅡㅁ -5906
▁ㄴㅘ -5907
MAN -5908
ㅌㅐㅇ -5909
▁ㅁㅏㅅㅂㅗ -5910
▁ㅇㅑㄱㅊㅔ -5911
▁ㅈㅏㅇㄴㅏㅁ -5912
▁ㅈㅓㅇㅈㅓㅁ -5913
▁ㅁㅕㅇㅈㅏㅇ -5914
▁ㅃㅓㄴㅎㅏ -5915
▁ㅌㅏㄹㅊㅟ -5916
▁ㄸㅡㄷㅇㅓ -5917
▁ㅅㅏㅁㅋㅣ -5918
▁ㅎㅏㅁㅅㅜ -5919
▁ㄴㅡㅍ -5920
▁ㄷㅏㄴㅈㅏ -5921
▁ㅂㅜㄹㅊㅏㅁ -5922
▁ㄴㅜㄴㅇㅏㅍ -5923
▁ㅇㅓㄵ -5924
▁ㅅㅣㄹㅈㅓㄱ -5925
▁Is -5926
▁Do -5927
▁ㄷㅡㄹㄹㅡ -5928
▁ㅁㅣㅁ -5929
▁TOP -5930
▁BO -5931
ild -5932
ㅋㅗㅅ -5933
▁ㅇㅣㅂㅅㅏ -5934
▁ㅂㅏㄱㅈㅓㅇㅎㅢ -5935
▁ㅎㅏㄴㅎㅏ -5936
▁ㅂㅜㄹㅇㅓ -5937
▁ㅁㅗㄱㅇㅛㄱ -5938
▁ㅇㅛㄱㅁㅏㅇ -5939
25 -5940
▁ㅅㅣㄴㅎㅏㄴ -5941
▁AFC -5942
▁ㅁㅐㄴㅊㅔ -5943
▁ㅃㅑ -5944
▁ㅅㅣㄴㅎㅏ -5945
▁4000 -5946
▁ㄴㅜㄴㄷㅗㅇㅈㅏ -5947
▁ㅍㅕㅇㅅㅏㅇㅅㅣ -5948
▁ㅅㅏㅂㅈㅣㄹ -5949
ㅅㅐㅇㅎㅘㄹ -5950
ㅉㅏㄹ -5951
▁ㄹㅕㄴ -5952
▁ㄱㅗㄴㅊㅜㅇ -5953
▁ㄱㅜㄻ -5954
ㄸㅏㄹ -5955
▁ㅈㅣㄴㄷㅗㅇ -5956
inal -5957
▁BGA -5958
ㄱㅕㄱㅈㅓㄴ -5959
▁ㄱㅗㅇㅅㅣㄴ -5960
▁ㅈㅣㅂㅅㅏ -5961
▁ㄱㅣㅁㅇㅣㄹ -5962
▁ㄴㅏㅁㅎㅏㄱㅅㅐㅇ -5963
▁ㅍㅕㅇㄹㅗㄴㄱㅏ -5964
▁ㅁㅐㅅㅈㅣㅂ -5965
▁SA -5966
▁ㅇㅖㄹㄹㅗ -5967
ㅈㅜㅇㄱㅏㄴ -5968
▁ㄷㅏㄴㄹㅕㄴ -5969
ㅇㅝㄴㅈㅏ -5970
▁ME -5971
ㅂㅜㅅ -5972
▁ㅈㅓㅇㅇㅜ -5973
▁Gaming -5974
▁ㄱㅓㅁㅌㅗ -5975
▁ㅈㅣㅇㄱㅖ -5976
ㅅㅏㅇㄱㅏ -5977
▁ㅈㅜㅇㅅㅗ -5978
▁CR -5979
▁320 -5980
▁1973 -5981
▁ㅋㅓㄴㄷㅣ -5982
▁ㅌㅏㄹㄹㅣ -5983
▁ㅅㅓㄴㅎㅚ -5984
▁ㅈㅏㅇㅂㅗㄴ -5985
▁ㅁㅕㅇㅅㅣ -5986
▁ㄷㅏㄹㅋㅗㅁ -5987
ings -5988
▁315 -5989
▁GSL -5990
▁ㅋㅐㅂㅅㅠㄹ -5991
▁ㅅㅓㅇㅂㅜㄴ -5992
ㅂㅓㄴㅅㅡ -5993
▁ㅅㅡㄹㄹㅐ -5994
▁ㅅㅜㄱㄹㅕㄴㄷㅗ -5995
▁Gl -5996
ㅇㅑㄴ -5997
▁ㅈㅏㅇㅅㅣㄴㄱㅜ -5998
▁ㅋㅓㄹㄹㅔㄱㅅㅕㄴ -5999
▁ㄷㅏㅇㅊㅗ -6000
DX -6001
▁ㅅㅣㄱㅅㅡ -6002
ㅇㅐㄴ -6003
TA -6004
▁ㅈㅜㅇㄱㅣ -6005
▁ㄷㅓㅂ -6006
▁ㄱㅏㅇㅇㅏ -6007
▁ㅎㅕㅂㅈㅗ -6008
▁Gu -6009
▁ㅇㅓㅅ -6010
▁ㅉㅏㅁ -6011
▁ㅈㅜㅇㄱㅜㄱㅇㅣㄴ -6012
ㄷㅏㅇㄱㅣ -6013
▁ㅈㅜㅇㄷㅗ -6014
▁ㅈㅜㅇㅂㅜ -6015
reak -6016
ㅌㅔㄹㄹㅏ -6017
ㄲㅜㅁ -6018
▁ㅇㅣㄹㅁㅕㅇ -6019
▁ㅁㅣㄴㅈㅜㅇ -6020
ㅁㅕㅇㅂㅏㄱ -6021
▁ㅈㅣㄴㄷㅏㄴ -6022
ㅅㅣㄴㄱㅏㅁ -6023
ㄲㅜㅂ -6024
▁ㄱㅜㅇㅅㅜ -6025
ron -6026
▁ㅈㅏㅇㅂㅗㄴㅇㅣㄴ -6027
▁ㅈㅏㄴㄹㅠ -6028
▁ㅋㅐㄹㄹㅣ -6029
▁ㅇㅐㄴㄷㅡ -6030
ㄴㄷㅡㅅ -6031
▁ㄱㅗㅇㄱㅛ -6032
ㅅㅏㅇㄷㅗ -6033
▁so -6034
▁ㅇㅏㄴㅌㅗ -6035
▁ㄱㅡㅁㄱㅏㅇ -6036
▁ㄱㅡㅂㅅㅣㄱ -6037
▁ㅂㅔㄹㄱㅣ -6038
ㅊㅓㄴㄱㅜㄴ -6039
▁ㄱㅡㅂㄱㅕㄱㅎㅣ -6040
▁ㅎㅏㄱㅇㅟ -6041
▁ㅂㅏㅌ -6042
▁ㅅㅏㅇㅅㅣ -6043
▁168 -6044
▁like -6045
▁ㄱㅜㄱㄷㅗ -6046
▁ㅍㅏㄴㅅㅏ -6047
▁ㅎㅗㄴㅎㅕㄹ -6048
▁ㄱㅕㅁㅎㅏ -6049
▁ㄴㅏㄴㄹㅣ -6050
▁ㄴㅏㅊ -6051
▁203 -6052
▁ㅉㅣㄹㄹㅣ -6053
▁ㅍㅕㅇㅌㅐㄱ -6054
▁ㅂㅏㅇㅊㅣㅁ -6055
ㄴㅣㄹㄹㅏ -6056
ㅇㅛㅇㄱㅐㄱ -6057
▁will -6058
▁ㄱㅗㅇㅎㅓㄴ -6059
ㄴㅡㄴㄷㅔ -6060
14 -6061
▁NM -6062
▁ㅇㅠㄴㄹㅣ -6063
▁ㅃㅛ -6064
▁ㅅㅓㅇㄷㅐ -6065
ㅅㅏㄴㄱㅘㅇㅇㅕㄱㅅㅣ -6066
▁ㅇㅏㄱㅎㅐㅇ -6067
ㅈㅣㅈ -6068
PA -6069
▁ㄱㅏㄹㄱㅣ -6070
▁ㅈㅐㅇㅇㅣ -6071
▁ㅁㅗㅁㅁㅐ -6072
▁ㅊㅓㄴㅈㅣ -6073
▁ㅅㅡㅇㄱㅡㅂ -6074
ㅅㅓㅇㅇㅣ -6075
ㅇㅜㄴㅅㅜ -6076
▁218 -6077
▁ㅎㅠㅇㅇㅏㄱ -6078
17 -6079
▁Min -6080
▁ㄱㅣㅁㅂㅕㅇ -6081
ㅂㅐㅇ -6082
▁ㄱㅠㄴㅇㅕㄹ -6083
▁ㄸㅓㄹㄱㅜ -6084
ㅅㅐㅇㅈㅏ -6085
▁ㅇㅝㄴㅎㅏㄴ -6086
▁ㅇㅑㅇㅇㅏ -6087
▁ㅈㅓㄱㅇㅣ -6088
▁ㄱㅜㄱㅌㅗ -6089
▁ㄷㅗㄱㅂㅗ -6090
ㅇㅝㄴㅅㅣ -6091
▁ㄷㅏㄴㅇㅕㄱ -6092
▁ㄷㅏㄴㅊㅗㅇ -6093
▁ㅊㅜㅇㅊㅓㅇㄴㅏㅁㄷㅗ -6094
▁ㄹㅓㄴㅊㅓ -6095
▁ㄱㅏㅇㄷㅗㅇ -6096
▁ㅎㅘㅇㅎㅗㄴ -6097
GA -6098
▁ㅌㅏㄴㅇㅏㅂ -6099
▁one -6100
▁10000 -6101
▁ㅅㅓㄹㅁㅏ -6102
▁ㅇㅠㄱㅅㅏㅇ -6103
▁ㅍㅣㄹㅅㅏ -6104
▁ㅆㅜ -6105
ECT -6106
▁ㅈㅓㄹㄷㅏㄴ -6107
▁ㅂㅣㅅㄴㅏ -6108
ㅌㅗㅇㅅㅜ -6109
▁ㅊㅜㅇㄱㅕㄱㅍㅏ -6110
▁ㄱㅕㅇㅅㅏ -6111
▁ㄱㅜㄱㅂㅏㅇㅂㅜ -6112
▁ㅁㅕㄴㅈㅔ -6113
ㅊㅓㄴㅇㅘㅇ -6114
ㄷㅗㅇㄱㅣ -6115
▁ㄷㅏㄴㅅㅓ -6116
ㅁㅏㅇㅈㅏ -6117
▁Ro -6118
▁iOS -6119
▁ㅌㅏㄴㅁㅏㄱ -6120
▁ㅈㅏㄱㅇㅟ -6121
▁ㅊㅏㄹㅅㅡ -6122
▁ㄱㅣㅁㅅㅓㅇㄱㅡㄴ -6123
▁RO -6124
ㄷㅗㄱㅈㅏ -6125
ICE -6126
▁ㅇㅣㄴㅁㅕㅇ -6127
▁na -6128
▁ㅅㅓㅇㅈㅣ -6129
▁ㄱㅕㄴㅎㅐ -6130
▁ㅇㅝㄴㄹㅗ -6131
ㄱㅏㄴㅍㅛ -6132
▁ㄱㅓㄹㅇㅡㅁ -6133
oul -6134
ㅍㅣㅅ -6135
▁ALL -6136
▁ㅇㅘㅇㅈㅗㄱ -6137
▁ㅇㅔㅁㅂㅡㄹ -6138
ㅌㅔㄱㅅㅡ -6139
MAX -6140
ould -6141
▁ㅅㅠㄴ -6142
▁ㅅㅡㅂㅎㅏ -6143
▁ㅈㅓㅇㅈㅓㄴ -6144
▁ㅂㅗㄲ -6145
▁1974 -6146
AND -6147
▁Play -6148
▁ㅎㅠㅇㄴㅐ -6149
▁ㅅㅓㅇㅅㅏ -6150
▁ㅇㅣㅂㅇㅝㄴ -6151
▁ㅍㅕㅇㅍㅏㄴ -6152
▁KB -6153
▁Red -6154
▁ㅈㅓㅁㅎㅏ -6155
▁ㅍㅓㅇㅋㅡ -6156
▁ㄲㅚ -6157
▁ㅇㅣㄴㅌㅡ -6158
▁Ser -6159
▁ㄱㅡㄱㅅㅣㅁ -6160
ㅍㅔㄱㅌㅓ -6161
▁Type -6162
▁ㅇㅘㄴㅂㅕㄱㅎㅣ -6163
ㅊㅣㄴㄱㅜ -6164
▁ㄷㅏㄹㅇㅣㄴ -6165
ody -6166
▁ㄱㅕㄱㄹㅕㄹ -6167
▁NT -6168
▁ㄱㅗㅇㄱㅕㄱㄱㅣ -6169
▁ㄱㅏㄴㅍㅏ -6170
▁ㄷㅜㅇㅈㅣ -6171
▁UC -6172
▁ㅋㅏㅅ -6173
▁ㅊㅜㄹㅅㅓㄱ -6174
▁ㅂㅏㄴㄷㅗ -6175
▁177 -6176
▁ㅂㅏㄴㅈㅏㅇ -6177
▁se -6178
▁Don -6179
▁ㅇㅐㄱㅊㅔ -6180
ions -6181
▁ㅂㅏㄹㅌㅗㅂ -6182
▁ㅌㅏㄹㅎㅘㄴ -6183
▁ㅈㅓㄴㅂㅓㅂ -6184
▁ㅅㅜㄴㄱㅏㄴㅇㅣ -6185
▁ㅊㅜㅇㄱㅗ -6186
▁ㅇㅕㄴㅁㅏㄱ -6187
▁ㄹㅐㄴㅅㅓ -6188
▁ㄱㅣㅅㅌㅓㄹ -6189
▁Car -6190
ㅂㅗㄹㅂㅓ -6191
▁ㄱㅏㅁㅅㅓㅇ -6192
▁ㄱㅏㅇㅅㅡㅂ -6193
▁ㅎㅏㄴㅇㅑㅇ -6194
▁ㄱㅏㄹㄱㅜ -6195
▁ㅂㅔㄹㄹㅏ -6196
▁ㅅㅓㄴㄹㅗ -6197
▁ㅅㅗㄴㅈㅏㅂㅇㅣ -6198
STER -6199
▁ㅈㅣㄴㅎㅕㅇ -6200
▁ㅅㅓㅁㄱㅣ -6201
▁ㅅㅏㅇㅇㅢ -6202
▁ㅁㅏㄺ -6203
▁ㅉㅏㄱㅅㅏ -6204
▁ㅎㅗㅁㄱㅕㅇㄱㅣ -6205
▁ㅊㅏㅁㅇㅡ -6206
▁ㅂㅓㅈ -6207
ㅁㅕㅇㅅㅜ -6208
ㅈㅏㅇㄱㅜㄴ -6209
▁ㅋㅝㄹ -6210
▁us -6211
ㄹㅏㅇㅋㅡ -6212
▁138 -6213
▁1975 -6214
▁ㅇㅣㄴㅅㅡ -6215
ㄹㅔㄴㄷㅡ -6216
▁ㄱㅡㅁㄱㅗ -6217
▁ㅇㅣㅂㅈㅏ -6218
▁ㅈㅜㅇㅈㅐ -6219
▁ㅈㅓㅂㅅㅜ -6220
▁ㅂㅕㅇㄱㅘ -6221
▁ㄱㅗㅇㅁㅕㅇ -6222
▁ㅁㅐㅇㄷㅗㄱ -6223
ㄷㅏㄺ -6224
▁ㅊㅡㄱㄱㅡㄴ -6225
▁Es -6226
▁ㄷㅗㅇㅅㅓㅇㅇㅐ -6227
ven -6228
16 -6229
▁ㅅㅏㅇㅇㅓ -6230
▁ㅌㅓㄹㅇㅓ -6231
alk -6232
▁ㅎㅗㄴㄷㅏ -6233
ㅇㅕㄴㅅㅜ -6234
▁ㅅㅓㄱㅇㅠ -6235
▁ㅅㅏㄴㅌㅏㄴㅊㅗㅇ -6236
▁ㄷㅣㅂ -6237
▁ㄴㅐㅇㅈㅏㅇㄱㅗ -6238
▁ㅊㅏㄴㅇㅑㅇ -6239
▁ㅇㅘㄴㅅㅓㅇㄷㅗ -6240
ㅇㅕㅇㅂㅗㄱ -6241
▁ㅅㅣㄹㅂㅏ -6242
▁ㅍㅏㄱ -6243
▁ㅅㅐㅇㄱㅏㄱㄴㅏ -6244
▁ㅈㅗㄹㅇㅓㅂㅅㅣㄱ -6245
▁ㅂㅏㅇㅇㅜㄹ -6246
▁ㅂㅐㄱㅁㅏㄴ -6247
ㅋㅐㄴ -6248
▁ㅇㅝㄴㅎㅘ -6249
▁Time -6250
▁ㅇㅘㅅ -6251
▁''' -6252
af -6253
ㄴㅓㅅ -6254
▁ㅂㅗㄴㅈㅣㄹ -6255
▁162 -6256
▁ㅇㅝㄹㄱㅏㄴ -6257
▁ㅇㅣㄹㄱㅏㄱ -6258
▁EU -6259
ㅂㅏㄴㅈㅓㄴ -6260
▁have -6261
▁126 -6262
te -6263
▁ㄱㅡㅅ -6264
▁ㄱㅣㅁㅇㅠㄴ -6265
▁ㅂㅜㄴㅎㅏㄹ -6266
ㅂㅐㅌ -6267
ㄷㅡㅁㅎㅐ -6268
▁ㅂㅣㅇㅇㅢ -6269
▁ㅇㅓㅇㄸㅜㅇ -6270
ㅁㅐㄱㅅㅡ -6271
▁ㅍㅕㅇㄷㅡㅇ -6272
ㅅㅏㄴㅁㅜㄹ -6273
▁WH -6274
▁ㅍㅣㅇㄱㅖ -6275
▁ㄱㅝㄴㅎㅏ -6276
▁ㄱㅣㅁㅅㅓㄴ -6277
▁ㅈㅗㅇㅅㅏ -6278
ics -6279
ㅇㅕㄱㄱㅜ -6280
▁ㄱㅣㅁㄷㅜ -6281
▁ㅅㅣㅁㅈㅓㅇ -6282
▁ㅅㅣㄴㅅㅐㅇ -6283
ㅃㅏㄹㄹㅣ -6284
▁ㅍㅗㄱㄹㅗ -6285
▁ㅇㅕㄴㅅㅗ -6286
▁ㅇㅘㅇㄱㅏ -6287
▁Sum -6288
ㄱㅘㄴㅍㅗ -6289
▁ㅁㅏㄹㄱㅣ -6290
ㄹㅜㄴ -6291
▁ㅇㅡㅇㄱㅡㅂ -6292
ㄹㅏㄹㄷㅡ -6293
▁ㄲㅗㄹㅉㅣ -6294
YP -6295
▁ㅅㅗㄴㅁㅗㄱ -6296
ㅍㅔㄴㅅㅡ -6297
ㄱㅗㅁ -6298
▁ㄱㅗㅇㅉㅏ -6299
▁ㅅㅗㄹㅈㅣㄱㅎㅣ -6300
▁ㅍㅔㄱ -6301
▁ㅇㅛㅇㅇㅢ -6302
▁ㅂㅕㅇㅎㅐㅇ -6303
▁ㅁㅏㅈㅁㅓㄱ -6304
▁ㅋㅓㅁㅍㅓ -6305
▁ㅈㅣㄱㅇㅟ -6306
▁ㄷㅗㅇㅅㅏㅇ -6307
▁~" -6308
▁ㅍㅐㄱㅅㅕㄴ -6309
ACK -6310
▁BT -6311
▁know -6312
▁ㅇㅏㄴㅈㅔ -6313
▁ㅁㅔㄴㅂㅜㅇ -6314
▁ㅉㅗㅊㄱㅣ -6315
▁ㅅㅣㄴㅅㅏㅇ -6316
▁out -6317
ㄱㅟㄴ -6318
▁oh -6319
▁ㄱㅣㅁㄱㅜ -6320
▁IIDX -6321
ㅇㅡㄴㅇㅣ -6322
▁CB -6323
▁BA -6324
▁ㅈㅗㅇㄹㅗ -6325
▁ㅂㅜㄴㅂㅐ -6326
▁ㅍㅐㄴㅌㅣ -6327
▁ㄴㅏㄴㅌㅜ -6328
▁ㅂㅏㅇㅂㅕㄱ -6329
▁ㅅㅡㄹㅅㅡㄹ -6330
▁ㅅㅣㄴㅇㅣ -6331
▁ㅍㅏㅁ -6332
▁ㅂㅟ -6333
▁ㅊㅡㄴㄷㅔ -6334
ㄴㅣㄹ -6335
▁1976 -6336
▁ㅅㅜㄱㅊㅓㅇ -6337
ㅅㅔㅂㅌㅡ -6338
▁ㄱㅜㄴㄷㅔ -6339
tern -6340
▁ㄱㅏㅁㄱㅣ -6341
ins -6342
▁Kore -6343
▁ㄱㅡㄱㅇㅏㄱ -6344
ict -6345
ㄱㅡㅅㄴㅏ -6346
ㄴㄷㅏㄴ -6347
▁313 -6348
▁ㅂㅗㄹㄷㅡ -6349
▁EV -6350
ㄲㅜㅂㅊㅣㄴㄱㅜ -6351
▁pr -6352
▁ㅂㅏㄹㅈㅓㄴㅅㅗ -6353
▁ㅅㅣㄴㅈㅗ -6354
ㄹㅗㄹㄹㅗ -6355
▁ㅎㅏㄴㅈㅓㅇㅍㅏㄴ -6356
▁LTE -6357
▁132 -6358
▁ㄴㅏㄴㅁㅣㄴ -6359
▁ㄱㅕㄹㅇㅢ -6360
▁!!! -6361
▁ㅅㅏㅇㅂㅜ -6362
ange -6363
ㅈㅓㄴㅅㅓㄹ -6364
▁ㅊㅏㄹㄴㅏ -6365
▁ㅇㅑㄱㅊㅣㅇ -6366
ater -6367
▁ㄹㅓㄱㅋㅣ -6368
▁ㅂㅣㄴㅇㅑㄱ -6369
▁Sun -6370
▁DI -6371
ㅇㅣㄴㅂㅐ -6372
▁1972 -6373
▁ㅈㅜㅇㅎㅜ -6374
▁ㄱㅡㄴㄹㅗ -6375
▁set -6376
ㅁㅏㅎ -6377
▁ㅋㅐㄴㄷㅣ -6378
ㅎㅕㄴㅇㅜ -6379
▁ㅂㅕㅇㅈㅗㅇ -6380
▁ㅂㅏㄴㄱㅣ -6381
▁ㅇㅕㄴㄱㅏㄴ -6382
▁ㅅㅓㄴㅂㅗㅇ -6383
▁ㅈㅗㅇㅈㅓㄴ -6384
▁ㅅㅏㄴㅅㅗ -6385
▁ㅈㅓㅂㅈㅓㄴ -6386
▁158 -6387
▁ㅎㅘㄴㅎㅗ -6388
▁ㄱㅏㅇㅌㅏㄹ -6389
▁feat -6390
▁ㅈㅣㄴㄹㅗ -6391
▁ㅌㅏㄱㅇㅝㄹ -6392
▁IP -6393
19 -6394
▁GD -6395
▁ㅈㅓㅇㅈㅜㄴ -6396
ㄷㅗㄹㅍㅡ -6397
ㄹㅏㅇㅍㅡ -6398
ㅁㅏㄱㅈㅓㄴ -6399
▁TP -6400
▁MO -6401
▁ㅇㅛㅇㅅㅏㄴ -6402
▁ㅇㅣㄹㅈㅗ -6403
▁1977 -6404
▁ㅎㅣㄴㅌㅡ -6405
▁ㅁㅕㅇㄷㅐ -6406
ㄹㅣㄴㅅㅡ -6407
ㅅㅣㄱㅎㅚ -6408
▁IV -6409
▁230 -6410
ㄱㅠㄹㄹㅓ -6411
▁ㅇㅡㅇㄷㅏㅂ -6412
▁ㅅㅣㄴㄴㅕㅁ -6413
▁ㄱㅘㄴㄹㅛ -6414
▁ㅂㅏㄴㄷㅏ -6415
▁High -6416
ㅇㅣㄹㄹㅏ -6417
▁ㅇㅏㄱㅅㅔ -6418
ㅎㅘㄹㅇㅑㄱ -6419
▁ㄸㅜㄱ -6420
▁ㄲㅏㅇㅍㅐ -6421
▁ㅇㅣㅁㅈㅣㄴ -6422
ㅇㅏㄶ -6423
▁172 -6424
ㅅㅜㄴㅅㅣㄴ -6425
▁ㅈㅜㅇㄱㅡㅂ -6426
▁HS -6427
▁ㄷㅐㅁ -6428
▁ㅍㅣㄹㄷㅜ -6429
▁ㅊㅜㅇㄴㅏㅁ -6430
▁ㅇㅝㄹㅇㅛ -6431
▁Light -6432
▁ㅇㅣㄹㅅㅏㄴ -6433
▁ㄹㅏㅅ -6434
▁ㅇㅐㄹㄹㅓㄴ -6435
▁ㄲㅓㅂㅈㅣㄹ -6436
▁ㅈㅜㄹㄱㅣ -6437
▁ㄱㅏㅁㄱㅡㅁ -6438
ㅌㅜㅇ -6439
ㅂㅐㅁ -6440
ㅈㅜㄴㄱㅕㅇ -6441
▁TE -6442
ㅊㅓㄴㅅㅏ -6443
▁ㅇㅏㄹㅍㅡ -6444
▁ㅎㅓㄹㅋㅡ -6445
che -6446
ME -6447
▁ㄲㅜㅀ -6448
▁ㅁㅏㅇㅅㅓㄹㅇㅣ -6449
▁ㅇㅑㅇㅅㅣㅁ -6450
▁ㅌㅜㅇ -6451
ㅎㅐㅇㅈㅏ -6452
▁133 -6453
▁ㅎㅗㄱㅍㅕㅇ -6454
▁ㅈㅓㅇㅈㅗ -6455
▁ㅅㅜㄴㅊㅓㄴ -6456
▁ㅂㅏㄱㅈㅟ -6457
▁ㅅㅓㅂㅊㅟ -6458
▁ㅇㅠㄹㄹㅣ -6459
▁LOVE -6460
ㅂㅕㄴㅇㅣㄴ -6461
▁ㄱㅗㅇㄱㅜㄱ -6462
▁ㄹㅐㄴㅅㅡ -6463
▁ㅋㅔㄴㅈㅣ -6464
▁ㅌㅣㅁㅈㅏㅇ -6465
▁Your -6466
▁ㄱㅐㄱㄱㅘㄴ -6467
▁ㅈㅣㄴㄱㅜ -6468
▁ㄴㅐㅇㄱㅣ -6469
ㅅㅜㄹㄹㅕㄱ -6470
▁ㄱㅏㅇㅅㅓ -6471
ㅆㅜ -6472
▁ㅇㅓㄹㅌㅓ -6473
▁ㅅㅜㄴㅊㅏㄹ -6474
ㅈㅗㅁ -6475
▁ㅈㅗㄴㅅㅡㄴ -6476
▁Tw -6477
▁ㅅㅣㄴㅎㅏㄱ -6478
ㄷㅓㄱㅅㅕㄴ -6479
▁ㅇㅕㄴㄷㅏㄹ -6480
▁la -6481
▁148 -6482
ㅂㅏㄱㅇㅣ -6483
▁ㅇㅟㄴㅌㅓ -6484
▁NEW -6485
▁ㅌㅗㅇㅂㅗ -6486
ㅅㅡㄹㅇㅏ -6487
▁ㅂㅏㄱㅈㅗㅇ -6488
▁ㅇㅐㅇㅋㅓ -6489
▁ㅇㅕㅅㅂㅗ -6490
ㅈㅏㄱㅂㅣ -6491
▁179 -6492
▁Mr -6493
▁ㅂㅗㄱㄷㅗ -6494
▁ㅇㅣㄹㅋㅓ -6495
▁ㅊㅜㄹㅈㅔ -6496
▁ㅎㅘㅇㅌㅐ -6497
▁ㅇㅣㄹㅋㅓㄷ -6498
ㄲㅓㅇ -6499
▁ㅁㅏㅇㅅㅏㅇ -6500
▁OF -6501
▁ㄴㅡㅇㅅㅜㄱ -6502
▁ㅁㅏㅇㅁㅕㅇ -6503
ica -6504
▁ㄱㅕㄱㅌㅚ -6505
ㅇㅣㄴㅇㅓ -6506
ㄹㅔㄱㅌㅓ -6507
▁ㄹㅣㅂㅅㅡ -6508
▁ㅇㅕㄲ -6509
▁ㅈㅕ -6510
▁ㅅㅓㅇㅂㅕㄱ -6511
ㄹㅡㄴㅍㅏㄹ -6512
▁Gen -6513
▁ㅈㅏㅇㄱㅏㅂㅊㅏ -6514
▁ㄱㅗㅇㅅㅏㄴㅈㅜ -6515
▁GTA -6516
ㅁㅐㄴㅅㅡ -6517
▁ㅅㅣㅁㅎㅣ -6518
▁ㅂㅏㄴㄹㅗㄴ -6519
▁ㅊㅓㅇㅎㅏ -6520
▁Mi -6521
IK -6522
ㅅㅐㅇㄱㅣ -6523
▁156 -6524
▁ㅈㅏㅁㄱㅡ -6525
▁Em -6526
▁am -6527
▁ㅍㅜㅇㄱㅕㅇ -6528
▁ㅅㅔㄱㅅㅣ -6529
ㄴㅏㄹㄷㅜ -6530
▁ㅇㅕㅁㄷㅜ -6531
▁154 -6532
▁ar -6533
▁ㅊㅓㄹㄱㅏㅂㅌㅏㄴ -6534
▁ㄲㅗㅁㅅㅜ -6535
▁ㅌㅏㅁㄱㅜ -6536
▁ㅈㅗㅇㅁㅏㄹ -6537
▁ㅈㅠㄴ -6538
▁ㅋㅗㄹㄹㅔ -6539
ors -6540
ㅅㅏㅇㅎㅘ -6541
▁Par -6542
ㅇㅠㄱㅊㅓㅇ -6543
▁ㅇㅙㄴ -6544
FL -6545
▁159 -6546
▁ㄴㅡㅇㅎㅏ -6547
▁ㅂㅏㄹㅊㅏ -6548
▁ㅇㅏㅍㅅㅔ -6549
▁ㅂㅏㅅ -6550
▁ㅈㅣㄴㅅㅜㄹ -6551
▁ㅁㅐㅇㅎㅘㄹㅇㅑㄱ -6552
ㅌㅜㄹ -6553
▁ㅊㅓㄴㅈㅜ -6554
▁ㅇㅡㅁㅎㅑㅇ -6555
▁176 -6556
▁ㅇㅑㅇㅋㅣ -6557
▁222 -6558
▁ㅈㅣㄴㅎㅡㅇ -6559
HT -6560
▁MK -6561
▁ㅇㅡㅇㅅㅣ -6562
▁ㅊㅏㄱㅈㅣ -6563
▁ㅇㅏㄴㄷㅗㅇ -6564
▁ㅈㅓㄴㅂㅏㄴㄱㅣ -6565
▁ㄱㅗㅇㄹㅣㅂ -6566
▁HARD -6567
▁ㅂㅜㄴㅅㅙ -6568
ㅁㅜㄹㄹㅣ -6569
▁ㅂㅏㄹㅌㅏㄱ -6570
▁1971 -6571
▁ㄷㅡㄱㅅㅣㄹ -6572
▁ㅈㅓㄴㅎㅏㄱ -6573
▁u -6574
▁ㅂㅡㄹㄹㅐㄱㅎㅗㄹ -6575
▁ㅂㅏㄹㅂㅏㄹ -6576
▁ㅅㅐㅇㅌㅐ -6577
▁ㄷㅏㄹㄹㅐ -6578
▁ㅍㅏㄹㄹㅔ -6579
▁ㅁㅣㄷㅇㅡㅁ -6580
▁ㄹㅡㄴ -6581
▁ㅇㅓㅁㅍㅖ -6582
▁129 -6583
▁ㅅㅓㅇㅍㅗㄱ -6584
▁ㅂㅓㅁㅎㅏ -6585
▁ㅁㅣㄹㅊㅣ -6586
▁ㅍㅔㅇㄱㅟㄴ -6587
▁ㅌㅗㅇㅌㅡㄹㅇㅓ -6588
▁173 -6589
▁OCG -6590
▁ㅎㅕㄴㅈㅣㄱ -6591
▁ㅍㅣㄴㄹㅏㄴㄷㅡ -6592
▁FPS -6593
ㅋㅡㄹㄹㅣㄴ -6594
▁ㅈㅓㄴㅇㅣㅁ -6595
▁ㄴㅏㅁㅇㅑㅇ -6596
▁ㄱㅜㄷㅎㅣ -6597
▁AE -6598
▁ㅊㅐㄱㅅㅏㅇ -6599
▁ㅌㅔㄱㅅㅏ -6600
▁153 -6601
▁ㄱㅜㄹㄹㅓ -6602
ㄱㅗㅇㅍㅗ -6603
ㄹㅔㄴㅈㅡ -6604
▁ㅁㅕㅇㅌㅏㅁㅈㅓㅇ -6605
▁PL -6606
▁was -6607
▁ㅇㅣㅈㅇㅓ -6608
▁ㅊㅓㄴㅁㅜㄴ -6609
CH -6610
▁ㅂㅏㄹㄹㅔㄴㅌㅏ -6611
▁ll -6612
ㅁㅔㄴㅌㅓ -6613
▁ㅈㅓㄴㄷㅗ -6614
ㅍㅣㄹㄹㅗ -6615
ㄱㅕㅁ -6616
▁ㄴㅏㅁㅎㅏㄴ -6617
▁ㅅㅣㄴㅈㅜ -6618
ㅌㅏㄹㄹㅣㄴ -6619
▁ㅅㅓㄴㅍㅗ -6620
▁ㅈㅏㅇㅈㅔ -6621
pr -6622
▁ㄲㅗㅇ -6623
▁ㅇㅔㄹㄷㅓ -6624
▁ㅈㅣㄹㅍㅜㅇ -6625
UT -6626
▁ㅅㅑㅇ -6627
▁137 -6628
▁Kn -6629
eep -6630
▁ㅁㅏㅈㄷㅐ -6631
▁ㅍㅜㄹㄹㅕ -6632
▁Of -6633
▁ㄴㅐㅇㄷㅗㅇ -6634
ㄹㅏㄱㅅㅣㄹ -6635
▁ㅈㅏㄴㅎㅐ -6636
▁ㅈㅓㄹㅈㅓㅇ -6637
▁~~ -6638
les -6639
▁What -6640
▁ㅊㅐㄱㄹㅑㄱ -6641
▁ㅇㅕㅇㄷㅡㅇ -6642
ㅇㅓㄴㅈㅏ -6643
▁GHz -6644
▁ㅁㅗㄱㅍㅗ -6645
▁ㅊㅓㅇㄹㅛㅇ -6646
▁ㅁㅓㅅㅇㅣㅆ -6647
▁ㅂㅜㄹㅁㅜㄴ -6648
▁ㄱㅗㄹㅊㅣ -6649
▁ㅋㅔㄴㅌㅏ -6650
ㅅㅓㅇㄱㅜㄴ -6651
ㅃㅡㅁ -6652
▁ㅁㅏㄹㅅㅗ -6653
ㅇㅜㄹㅅㅣ -6654
▁1969 -6655
▁ㅁㅓㄴㅈㅣ -6656
ㄱㅗㄷ -6657
ㄴㅓㄱ -6658
▁280 -6659
▁ㅈㅏㅇㅅㅣ -6660
ㅅㅔㅁ -6661
▁ㅊㅗㅇㅅㅏ -6662
▁ㄷㅔㄹㅌㅏ -6663
▁ㅅㅡㄹㄹㅐㅁ -6664
▁BM -6665
▁ㅅㅜㅇㅂㅐ -6666
▁ㅇㅓㄹㅇㅓ -6667
ㄹㅕㄱㅈㅏ -6668
ㄴㄷㅏㄹ -6669
▁ㅎㅗㄴㅇㅣㄴ -6670
▁174 -6671
▁ㅊㅗㅇㅅㅓㄴㄱㅓ -6672
▁225 -6673
▁ㅁㅕㄴㅈㅓㅂ -6674
▁ㅇㅔㅅㅈㅣ -6675
▁ㄱㅕㄱㅎㅏ -6676
▁ㄱㅕㅇㅂㅗ -6677
▁139 -6678
▁ㄱㅗㄹㅁㅗㄱ -6679
▁ㅈㅜㅇㄱㅗㅇ -6680
▁Per -6681
▁134 -6682
▁163 -6683
ㅂㅗㄹㄹㅜ -6684
▁ㅇㅝㄴㅁㅏㅇ -6685
▁167 -6686
▁ㅊㅓㅇㅅㅏ -6687
ㄴㅕㄴㄱㅣ -6688
▁ㄷㅗㅇㄴㅏㅁㅇㅏ -6689
▁ㅇㅕㄹㄱㅣ -6690
▁143 -6691
▁ㅅㅣㅁㅇㅕㄴ -6692
▁Fe -6693
▁ㅍㅣㄹㄹㅏ -6694
▁ㅇㅏㄱㄱㅗㄱ -6695
▁ㅉㅏㄹㄹㅣ -6696
ㅅㅏㄹㄹㅣ -6697
▁TO -6698
▁ㄷㅏㄴㅇㅢ -6699
▁GPU -6700
▁ㅂㅜㄴㅍㅗ -6701
▁Heart -6702
ㅇㅣㄹㅅㅡ -6703
▁ㅈㅣㄴㄷㅗ -6704
ㅂㅏㄴㅅㅣㄴ -6705
▁Good -6706
ㅊㅗㅇㅈㅏㅇ -6707
▁ㅈㅣㅇㅋㅡ -6708
ㄱㅔㄹ -6709
ㅋㅓㄴㄷㅡ -6710
▁ㅅㅣㄹㄹㅗ -6711
▁ㄲㅡㅌㅈㅏㅇ -6712
▁yout -6713
▁142 -6714
▁ㅈㅓㄴㄱㅘㅇ -6715
▁CO -6716
▁ㅎㅏㅁㅅㅓㅇ -6717
▁2500 -6718
agon -6719
▁ㅅㅣㄴㅅㅜ -6720
▁ㅇㅘㅇㅎㅜ -6721
ㅅㅏㄴㄷㅗㅇ -6722
▁ㅇㅘㅇㄱㅘㄴ -6723
▁ㅁㅏㅈㅁㅜㄹㄹㅣ -6724
▁ㄷㅗㄱㅅㅜ -6725
▁ㅈㅓㄴㅅㅜ -6726
ㅇㅟㅂ -6727
ert -6728
▁ㄱㅘㄴㄱㅘㅇㄱㅐㄱ -6729
▁ㅂㅏㄴㄹㅏㄴㄱㅜㄴ -6730
▁164 -6731
ㄱㅗㅇㅎㅘ -6732
▁ㅎㅏㅇㄱㅗㅇㅅㅏ -6733
▁ㅈㅏㅁㅈㅏ -6734
▁CN -6735
ㄷㅏㅅ -6736
▁beat -6737
▁ㄸㅏㅁ -6738
▁pro -6739
▁ㅂㅜㄹㅋㅙ -6740
▁ㄲㅡㅀㅇㅣ -6741
EL -6742
▁ㅈㅣㄴㅎㅏ -6743
▁ㅂㅏㄹㅎㅏ -6744
ㄹㅣㄴㅇㅏ -6745
▁ㄱㅜㄱㄱㅣ -6746
▁ㅅㅣㅁㅇㅑ -6747
▁ㅇㅐㅁ -6748
▁ㅆㅗㄹ -6749
▁ㅇㅡㅁㅅㅐㄱ -6750
▁ㅊㅓㅇㅈㅏㅇ -6751
▁ㅅㅓㄴㅇㅣㄴ -6752
▁ONE -6753
▁ㄱㅡㄱㅇㅜ -6754
▁ㅈㅣㄱㄱㅕㄱ -6755
▁ㄷㅗㅇㅅㅏ -6756
ㅈㅣㄹㄹㅐㄴㄷㅡ -6757
▁ㅇㅏㄱㄹㅕㅇ -6758
▁ㅈㅣㄱㅌㅗㅇ -6759
▁136 -6760
▁ㄷㅗㅇㅇㅣ -6761
▁ㅂㅐㅌ -6762
▁ㄱㅗㅇㄱㅗ -6763
▁ㄱㅣㅁㅊㅓㄴ -6764
ㅈㅗㅁㅁㅜ -6765
▁ㅎㅡㅁㅈㅗㅁㅁㅜ -6766
▁ㅂㅣㄹㅂㅗ -6767
▁ㅋㅗㄴㅅㅔㅂㅌㅡ -6768
▁ㅋㅣㅇㄷㅓㅁ -6769
▁ㅂㅓㅈㄲㅗㅊ -6770
▁Dark -6771
}} -6772
▁KC -6773
▁time -6774
▁ㅌㅔㅁㅍㅗ -6775
▁ㄲㅐㅇ -6776
▁ㅈㅓㄱㄹㅣㅂ -6777
▁ㅇㅏㄴㅊㅓㄹㅅㅜ -6778
▁ㅂㅏㅇㅇㅏㄴ -6779
▁ㄱㅣㅅㄷㅡㄹ -6780
▁ㄹㅐㄱ -6781
▁ㅈㅓㅂㅇㅓ -6782
▁ㅇㅣㄹㅎㅘㄴ -6783
ㅂㅐㄱㄱㅘ -6784
▁ㄱㅜㅇㅈㅓㄴ -6785
▁ㅇㅏㄹㄹㅔㄱㅅㅏㄴㄷㅓ -6786
ㄹㅣㅂㅌㅡ -6787
▁ㄱㅕㅇㅊㅏㄹㅊㅓㅇ -6788
▁ㅇㅏㅍㄷㅟ -6789
▁ㅎㅏㄴㅊㅡㅇ -6790
▁ㅇㅘㄴㄱㅜ -6791
▁ㄷㅗㅇㄱㅓ -6792
▁ㅂㅓㄴㄱㅏㄹ -6793
▁ㅆㅔ -6794
▁ㄱㅕㅇㅈㅣ -6795
▁ㅌㅓㅁ -6796
▁ㅎㅜㄴㅎㅜㄴ -6797
▁ㅁㅗㅁㅁㅜ -6798
▁1963 -6799
ㅃㅜㅁ -6800
▁157 -6801
▁ㅅㅜㄱㅈㅜ -6802
ㅇㅑㅇㅅㅐ -6803
ㅍㅏㄱ -6804
▁ㅈㅜㅇㅅㅣㅁㅈㅣ -6805
▁330 -6806
▁0900 -6807
▁ㅅㅜㄹㅈㅣㅂ -6808
other -6809
ㅍㅜㄹㅇㅣ -6810
ㄸㅜㅀ -6811
▁ㅇㅕㄴㅇㅢ -6812
iew -6813
▁ab -6814
▁ㅇㅕㄹㅅㅔ -6815
▁ㅎㅗㄴㄷㅗㅇ -6816
▁ㅊㅜㄹㄱㅗ -6817
ideo -6818
land -6819
ㅌㅠㄴ -6820
▁ㅁㅜㄴㅅㅣㄴ -6821
▁Sm -6822
▁ㄱㅡㄴㄹㅕㄱ -6823
▁ㅍㅜㄹㅇㅓ -6824
▁ㅂㅏㅇㅎㅗ -6825
▁ㄷㅏㅇㄴㅏ -6826
▁ㅈㅓㅇㅅㅓ -6827
▁ㅇㅑㅇㄷㅐ -6828
▁ㅈㅓㄴㅂㅏㄴㅈㅓㄴ -6829
▁ㅅㅜㄴㅈㅓㅇ -6830
▁ㄴㅜㄴㅂㅣㅊ -6831
ㅃㅜ -6832
air -6833
ㅈㅜㅇㄱㅛ -6834
▁ㅊㅏㅇㄹㅣㅂ -6835
▁Sl -6836
▁ㅇㅕㄴㄱㅡㅁㅅㅜㄹㅅㅏ -6837
ㅎㅕㄴㅈㅣㄴ -6838
▁1968 -6839
▁270 -6840
▁ㅅㅓㄹㅌㅏㅇ -6841
▁ㅅㅓㅇㅅㅜㄱ -6842
▁ㅆㅡㄹㅇㅓ -6843
▁ㅊㅜㄹㅇㅕㄴㅈㅣㄴ -6844
▁ㅅㅣㅁㅎㅘ -6845
▁ㅂㅗㄴㅇㅢ -6846
▁ㅈㅣㅂㅍㅣㄹ -6847
▁Blue -6848
▁ㅊㅣㅁㅎㅐ -6849
▁Baby -6850
▁ㄴㅗㅇㅁㅣㄴ -6851
ator -6852
ㅍㅡㄹㄹㅔㄱㅅㅡ -6853
▁AG -6854
ㅇㅗㄹㄹㅔ -6855
▁ㅉㅣㅈㅇㅓ -6856
▁...... -6857
oot -6858
▁ㄸㅒ -6859
▁ㅈㅓㄴㅇㅕㄹ -6860
▁ㅎㅘㄴㅅㅏ -6861
▁Ac -6862
anna -6863
▁ㅈㅏㅇㅍㅜㅇ -6864
ㅅㅜㄹㅈㅏ -6865
▁ㅅㅓㄴㄱㅛ -6866
▁ㅅㅗㄹㄹㅏ -6867
▁ㅈㅗㄴㄷㅐ -6868
▁ㄷㅗㅇㅎㅗ -6869
▁ㅊㅓㅇㄴㅏ -6870
▁ㅂㅏㄱㅅㅏㅇ -6871
▁ㅂㅓㄹㄱㅡㅁ -6872
▁ㄴㅐㅂ -6873
ush -6874
▁ㅅㅔㄱㅅㅡ -6875
▁ㅈㅣㅂㅎㅏㅂ -6876
▁ㅇㅕㄴㅎㅚ -6877
▁ㄷㅏㅁㅇㅣㅁ -6878
▁149 -6879
ㄹㅗㄴㅈㅡ -6880
▁ㅂㅏㅇㅇㅓㄴ -6881
▁ㅌㅐㅅㅇㅣ -6882
▁ㅎㅏㅁㅈㅐ -6883
▁ㅅㅣㅁㅅㅏㅇ -6884
▁ㅂㅏㅇㄱㅗㅇ -6885
▁ㄱㅏㅇㅅㅔ -6886
▁ㅇㅑㅇㅈㅜ -6887
▁ㅇㅏㄱㅎㅏ -6888
▁ㅆㅙ -6889
ㅇㅑㅇㅅㅣ -6890
▁ㄱㅏㄱㄱㅜㄱ -6891
ㅇㅔㄹㄹㅏ -6892
▁ㄴㅓㄱㄴㅓㄱ -6893
ㄹㅗㄹㄹㅓ -6894
▁ㄱㅣㅁㅇㅕㄴ -6895
▁ㄹㅚ -6896
▁146 -6897
▁ㅅㅏㅇㅅㅙ -6898
▁ㅁㅏㄹㅇㅏ -6899
▁ㅊㅗㅇㄷㅗㄱ -6900
▁ㅍㅜㄱ -6901
▁ㅈㅜㅇㄴㅕㄴ -6902
▁ㅎㅘㄱㄱㅗ -6903
▁Li -6904
▁ㅎㅘㅇㅅㅣㄹ -6905
▁OK -6906
▁Fire -6907
▁ㄱㅗㅇㅁㅗ -6908
▁ㅁㅔㄹㄹㅗㄴ -6909
ㅌㅣㄹㄹㅓ -6910
na -6911
▁ㄴㅏㅁㅁㅣ -6912
▁ㄱㅕㄱㅈㅓㄴ -6913
▁ㅇㅏㅁㅋㅓㅅ -6914
▁ㅊㅏㄹㄹㅣ -6915
▁ㅋㅡㄹㄹㅓ -6916
▁260 -6917
ㅈㅓㄴㅌㅡ -6918
▁ㄴㅏㄺ -6919
▁ㅈㅗㅇㅊㅏㄱ -6920
▁ㅇㅣㄹㅅㅏㅁ -6921
▁ㅈㅏㅇㄷㅗㅇ -6922
▁El -6923
ㅇㅡㄱ -6924
▁sm -6925
▁ㅇㅝㄹㄷㅡㅇ -6926
▁ㅂㅏㅇㅎㅘ -6927
▁ㄹㅓㄹ -6928
▁ㄱㅗㅇㅇㅕㅇ -6929
▁ㅂㅣㄴㅌㅡㅁ -6930
ㅌㅗㅇㅅㅏ -6931
▁ㅁㅏㄹㄴㅕㄴ -6932
▁ㅂㅕㅇㅈㅏㅇ -6933
▁ㄱㅕㅇㄱㅘ -6934
▁ㅅㅏㅅ -6935
ㄷㅏㄴㅈㅣ -6936
▁ㅅㅓㅇㄱㅏ -6937
▁Dis -6938
OID -6939
ㄹㅐㄴㅊㅏ -6940
▁ㅅㅏㅇㅈㅏㅇ -6941
▁ㄹㅑ -6942
▁ㅇㅣㄴㅊㅔ -6943
▁ㅁㅐㄱㄹㅏㄱ -6944
▁ㄹㅐㅂㅌㅓ -6945
ㅃㅐ -6946
ady -6947
ㅏㅇㅑ -6948
▁ㅈㅓㄱㅅㅓㅇ -6949
▁ㅇㅣㄹㅍㅜㅁ -6950
▁ㅅㅣㄹㄹㅕㄱㅈㅏ -6951
▁BEMAN -6952
▁ㅅㅏㅇㄱㅗㅇ -6953
ㄱㅣㄴ -6954
▁ㅈㅓㄱㅈㅐ -6955
▁kr -6956
ㄴㅓㅁㄱㅣ -6957
▁ㄱㅗㅇㅅㅗㄴ -6958
▁ㅎㅏㅂㅂㅓㅂ -6959
▁ㅅㅓㄱㅅㅏㅇ -6960
▁ㅈㅜㅇㅎㅏㄱㅅㅐㅇ -6961
▁ㅎㅐㄴㄷㅡㄹ -6962
▁ㅅㅣㄴㅂㅕㅇ -6963
▁ㅂㅕㄹㅊㅣㅇ -6964
▁ㅇㅜㄴㅂㅏㄴ -6965
▁ㅍㅕㄴㄱㅕㄴ -6966
▁DJMAX -6967
▁ㅅㅗㄱㄹㅕㄱ -6968
▁BEMANI -6969
▁ㅁㅜㄴㅂㅓㅂ -6970
▁ㄱㅕㄱㄱㅣ -6971
▁ㅅㅐㅇㅅㅓㄴ -6972
▁ㅇㅣㄴㅍㅡㄹㄹㅔ -6973
▁ㅁㅚ -6974
▁ㄷㅟㅅㅁㅕㄴ -6975
▁fl -6976
▁ㅂㅣㄴㅂㅓㄴ -6977
▁Champ -6978
ㅌㅓㄴㅌㅡ -6979
▁ㅅㅗㄱㄱㅗㅇ -6980
ㄸㅡㄱㅇㅣ -6981
▁ㅂㅜㄹㅎㅘ -6982
ㄴㅏㅇ -6983
▁ㅇㅕㄴㅁㅏㄹ -6984
ution -6985
▁ㅅㅓㅇㄱㅣ -6986
▁STR -6987
▁cc -6988
▁ㅂㅗㄴㄱㅏ -6989
ㄴㅔㄴ -6990
ㅇㅏㅇㅅㅡ -6991
▁ㅁㅕㅇㅁㅕㅇ -6992
ㅍㅡㄹㄹㅔㄱ -6993
▁ㄱㅕㄱㄹㅣ -6994
▁ㅅㅓㄹㄹㅔ -6995
▁ㅂㅏㄱㅁㅕㅇㅅㅜ -6996
▁Pre -6997
▁ㅌㅗㅇㅎㅐㅇ -6998
ㅃㅜㄹ -6999
▁ㅎㅏㅇㅇㅏ -7000
▁ㅂㅜㄱㄱㅜ -7001
ㄴㄷㅏㅁ -7002
▁ㄴㅓㅁㅅㅏ -7003
▁Ev -7004
▁205 -7005
▁1967 -7006
▁ㅁㅐㅁ -7007
ㅉㅗㅊ -7008
▁ㅅㅗㅁㅆㅣ -7009
▁ㅍㅕㅇㅊㅏㅇ -7010
▁ㅎㅐㄴ -7011
▁ㄷㅏㅇㄱㅜㄱ -7012
▁ㅇㅐㄴㄷㅣ -7013
▁DB -7014
ㄴㅐㅂ -7015
ㅆㅐ -7016
▁ㅈㅓㅇㅎㅕㅇ -7017
▁ㄷㅗㄱㄹㅣㅂㅇㅜㄴㄷㅗㅇ -7018
▁ㅅㅓㄴㄱㅗㄱ -7019
▁ㅇㅏㅍㅁㅕㄴ -7020
ㄸㅗㄱ -7021
▁ㅈㅡㅇㅇㅣㄴ -7022
▁ㄱㅕㅇㅈㅣㄹ -7023
▁ㅈㅓㄴㅇㅕㅁ -7024
▁ㅃㅗㅁ -7025
▁ㅇㅣㄹㄹㅖ -7026
▁ㅅㅣㄴㅇㅣㅁ -7027
▁ㅂㅏㄱㅇㅛㅇ -7028
ㅅㅓㄱㅁㅣㄴ -7029
▁ㅇㅝㄴㅎㅠㅇ -7030
▁ㄷㅏㄴㅅㅣㄱ -7031
▁550 -7032
ium -7033
▁RP -7034
▁GG -7035
ㅌㅜㄱ -7036
▁ㅅㅓㄱㅅㅏ -7037
▁ㅈㅣㄹㅎㅘㄴ -7038
▁ㅈㅓㅇㅈㅐ -7039
▁ㅇㅜㄴㅅㅓㄱ -7040
▁147 -7041
▁ㄷㅗㅇㄹㅗ -7042
▁ㄱㅘㅇㅈㅓㄴㅅㅏ -7043
▁ㄱㅏㅇㅈㅓㅁㄱㅣ -7044
▁Grand -7045
▁ㅁㅗㅂㅅㅣ -7046
▁ㅂㅡㄹㄹㅐ -7047
▁Rock -7048
▁ㅇㅝㄴㅈㅏㄱㅈㅏ -7049
▁ㅋㅗㄱ -7050
▁back -7051
▁ㄴㅔㄱㅅㅓ -7052
▁ㅂㅓㅁㅎㅐㅇ -7053
ㅁㅜㄴㅅㅓ -7054
▁ㅍㅜㄴ -7055
▁Summer -7056
ㄷㅠㄹㄹㅓㅁ -7057
▁ㅍㅔㄴㄷㅠㄹㄹㅓㅁ -7058
ㅇㅛㅇㅅㅗ -7059
▁ㅁㅝㄴ -7060
▁ㄷㅗㅇㄴㅕㄴ -7061
▁ㅇㅣㅂㄱㅜㄱ -7062
▁SCP -7063
▁211 -7064
gain -7065
▁ㄷㅗㅇㄷㅡㅇ -7066
ㅈㅏㅇㅇㅣ -7067
▁ㅈㅓㄴㄷㅜ -7068
▁ㅌㅏㄴㅌㅏㄴ -7069
▁ㅊㅗㅇㅍㅕㅇ -7070
▁now -7071
▁ㅈㅜㅁ -7072
▁ㅌㅗㅇㅅㅜ -7073
▁ㅂㅗㄱㅁㅕㄴ -7074
▁Over -7075
▁ㅁㅏㄴㄹㅜ -7076
▁ㅈㅓㄴㄹㅖ -7077
▁ㅇㅝㄴㅈㅗㅇ -7078
▁This -7079
▁ㄱㅗㅇㅅㅡㅂ -7080
ㅍㅕㅇㄱㅏ -7081
▁day -7082
▁ㄱㅜㄴㄹㅣㅁ -7083
▁ㅂㅕㄹㅈㅏ -7084
▁ㅇㅣㄴㅇㅓ -7085
▁ㅅㅣㄷ -7086
▁ㄱㅝㄴㄴㅡㅇ -7087
ㅍㅜㄴ -7088
▁ㄱㅏㅁㅈㅓㄴ -7089
▁ㅇㅡㄴㅁㅔ -7090
▁ㄱㅏㅇㅌㅣㅁ -7091
▁ㅎㅘㄴㅅㅜ -7092
ction -7093
▁ㅅㅣㅁㅁㅜㄴ -7094
▁ㅇㅕㅇㄷㅡㅇㅍㅗ -7095
▁ㄱㅡㄴㅇㅟ -7096
▁ㅌㅓㅇ -7097
ㄷㅡㄷ -7098
▁LED -7099
▁Dance -7100
▁ㅎㅣㄹㄹㅣㅇ -7101
▁But -7102
▁ㅅㅣㄹㄹㅜ -7103
▁ㅅㅗㄱㅂㅏㄱ -7104
▁ㅇㅗㄴㅁㅗㅁ -7105
▁ㅋㅡㄹㄹㅣㅂ -7106
▁ㅅㅏㄹㅇㅣㄴㅁㅏ -7107
▁ㅎㅏㄴㄱㅏㅇ -7108
ㅅㅡㅇㅁㅣㄴ -7109
▁ㅂㅏㅇㄱㅘ -7110
▁ㄱㅘㄴㅈㅓㄹ -7111
▁DR -7112
▁ㄱㅣㄹㄱㅓ -7113
▁ㅇㅕㅁㅅㅐㄱ -7114
▁ㄱㅘㅇㅅㅗㄱ -7115
▁ㄷㅗㅇㅂㅜㄱ -7116
▁ㅎㅗㄹㄷㅣㅇ -7117
ne -7118
irst -7119
▁ㅈㅓㅁㅅㅏ -7120
ㄱㅕㄹㅅㅡㅇ -7121
ㄷㅗㅇㅎㅏ -7122
▁VOC -7123
▁ㅍㅣㄱㅅㅔㄹ -7124
▁ㅂㅏㄱㅌㅏㄹ -7125
▁SL -7126
▁ㄱㅕㄱㅊㅣㅁ -7127
▁ㅈㅣㄱㅅㅗㄱ -7128
ㅈㅓㄱㄷㅏㄴ -7129
ㅈㅏㅂㅎㅣ -7130
▁ㅁㅜㄴㄱㅗ -7131
▁Wii -7132
▁ㅂㅜㄹㅍㅕㅇ -7133
▁ㅌㅗㅇㅈㅡㅇ -7134
▁ㅅㅗㄱㅍㅕㄴ -7135
▁ㄱㅗㅇㅊㅓㄴ -7136
▁ㅂㅏㄹㅎㅕㄴ -7137
▁MSL -7138
ount -7139
▁ㅂㅏㄱㅊㅏㄴ -7140
▁Ste -7141
ㅈㅔㄹㄹㅔ -7142
ㅅㅡㄹㄹㅣㅁ -7143
▁ㅂㅏㄱㅈㅐ -7144
▁ㄱㅕㅇㅅㅜㄴ -7145
▁ㅁㅗㄱㅈㅐ -7146
ㅅㅓㄹㄱㅏ -7147
▁Gold -7148
ㄱㅕㄱㅈㅡㅇ -7149
▁ㅇㅣㄴㅌㅔㄹ -7150
▁ㅅㅓㅇㅈㅣㄱㅈㅏ -7151
▁ㅁㅕㅇㄴㅏ -7152
▁ㅅㅓㅇㅂㅣ -7153
▁3164 -7154
▁HG -7155
ㅂㅏㄱㅎㅣ -7156
ㅋㅗㅂㅌㅓ -7157
▁ㅅㅏㅇㅎㅐㅇ -7158
▁DX -7159
▁Just -7160
▁ㄴㅣㄱㅅㅡ -7161
▁ㅇㅘㅇㅈㅘ -7162
▁ㄷㅗㅇㅁㅔ -7163
▁ㅅㅓㅇㅅㅜ -7164
▁ㅅㅔㅅㅉㅐ -7165
▁ㅊㅣㄴㅇㅟ -7166
▁ㄴㅏㅁㅂㅏㄹ -7167
▁ㅈㅜㄹㅈㅜㄹ -7168
let -7169
▁1966 -7170
▁ㅊㅓㅅㄴㅏㄹ -7171
▁ㄷㅏㄴㅁㅏㄹ -7172
▁HK -7173
ring -7174
▁ㄴㅗㅇㄹㅏㄱ -7175
ㅈㅜㅁㅁㅏ -7176
▁ㄱㅜㄱㅁㅣㄴㄷㅏㅇ -7177
▁ㄷㅗㅇㅈㅗ -7178
ㅃㅕ -7179
▁news -7180
▁ㅇㅣㄹㅇㅣㄹㅇㅣ -7181
▁FL -7182
ㅎㅚㄱㅅㅏ -7183
ㅅㅓㄹㅍㅡ -7184
▁ㅈㅗㅂㅎㅣ -7185
▁ㅂㅏㅇㅅㅗㅇㅇㅣㄴ -7186
▁ㅂㅏㄱㅊㅣ -7187
▁ㅈㅡㅇㅂㅏㄹ -7188
▁204 -7189
▁ㅊㅏㅇㅅㅔ -7190
ㄱㅓㅅㅈㅓ -7191
▁ㅅㅏㅁㅊㅗㄴ -7192
▁ㅁㅜㄹㄱㅏ -7193
▁ㅁㅕㄹㅈㅗㅇ -7194
▁ㅅㅗㄴㅌㅗㅂ -7195
▁ㅂㅕㄹㅈㅓㅁ -7196
eng -7197
▁DNA -7198
▁ㅂㅓㄴㅅㅣㄱ -7199
▁ㄷㅜㅇㄱㅡㄹ -7200
DS -7201
▁ㅅㅐㄴㅍㅡ -7202
ㅋㅣㅂ -7203
▁ㅂㅏㄱㅇㅕㅇ -7204
▁ㅎㅗㄴㅎㅏㅂ -7205
▁ㄱㅗㅇㅈㅗㄴ -7206
▁166 -7207
ㅂㅗㄱㄹㅕㄱ -7208
▁ㅎㅟㅂㅆㅏ -7209
▁ㄱㅕㅇㄱㅏㅁ -7210
▁ㅎㅏㄴㅅㅜㅁ -7211
ports -7212
▁TW -7213
▁ㅊㅐㄱㅈㅓㅇ -7214
▁ㅂㅗㄱㅇㅛㅇ -7215
▁ㄱㅡㅂㅎㅣ -7216
▁pt -7217
▁ㅊㅣㄴㅁㅗㄱ -7218
▁ㄱㅗㅇㅈㅏ -7219
▁ㅈㅓㅇㅈㅓㅇ -7220
▁ㄱㅡㄱㅅㅗ -7221
▁ㅈㅣㄱㅁㅜ -7222
▁Can -7223
▁ㄷㅗㅇㅈㅗㄱ -7224
▁Korea -7225
▁ㅈㅓㅇㅋㅡ -7226
▁ㅁㅕㅇㄱㅗㄱ -7227
▁ㅂㅏㄴㅉㅏㄱㅇㅣ -7228
▁ㅇㅣㄴㅅㅙ -7229
▁ㅇㅏㄱㅇㅓ -7230
▁ㄹㅗㄹㄹㅣㅇ -7231
ㄱㅏㄱㅎㅕㅇ -7232
▁ㄷㅏㄴㄱㅘ -7233
▁ㅎㅕㄴㅅㅏㅇㄱㅡㅁ -7234
▁FB -7235
▁CA -7236
ㅇㅣㄴㅈㅓㄴ -7237
ㅅㅣㄹㄹㅣ -7238
ina -7239
▁ㄹㅠㄱ -7240
▁VOCAL -7241
▁ㅅㅣㄹㅅㅡㅂ -7242
ally -7243
▁ㅍㅣㄹㅌㅓ -7244
▁ㅁㅏㄴㅎㅐㅇ -7245
▁ㅂㅏㄱㅎㅐ -7246
▁ㅅㅓㄹㅅㅏㅇㄱㅏ -7247
▁ㅈㅔㄱ -7248
▁KTX -7249
ERO -7250
▁ㅇㅑㅌ -7251
ㅓㄴㅈㅣ -7252
▁Sec -7253
▁ㅈㅏㅇㅇㅝㄴ -7254
▁ㅇㅏㄹㅂㅔ -7255
ㅎㅘㅇㅅㅐㄱ -7256
▁ㄱㅣㅁㅇㅝㄴ -7257
▁ㅇㅣㄴㅊㅓㄴㄱㅘㅇㅇㅕㄱㅅㅣ -7258
▁ㅂㅏㄴㄱㅜㄴ -7259
▁ㅎㅗㅇㅈㅣㄴㅎㅗ -7260
ㄹㄹㅣㄴㅈㅓ -7261
OO -7262
UR -7263
▁ㅈㅣㄴㅅㅜ -7264
▁650 -7265
▁ㅁㅜㄴㅇㅓ -7266
▁ㅅㅣㄴㅈㅓㅇ -7267
▁ㅅㅡㄹㅍㅓ -7268
▁MHz -7269
▁ㄴㅏㄴㄱㅏㅁ -7270
▁ㄱㅘㅇㄷㅐ -7271
▁ㅅㅗㄹㄹㅣ -7272
▁At -7273
▁Music -7274
▁++ -7275
▁EBS -7276
▁ㅂㅕㅇㅅㅏㄹㅌㅏ -7277
▁ㄸㅗㄱㄸㅗㄱ -7278
▁ㅅㅔㅂ -7279
ㄹㅏㄴㅌㅡ -7280
▁ㅅㅓㄴㅇㅜ -7281
▁ㅊㅓㄴㅁㅏ -7282
ㅑㄹ -7283
▁ㅂㅜㄴㅎㅗㅇㅅㅐㄱ -7284
ㅅㅓㅇㄴㅕㄴ -7285
▁ㅂㅏㄱㄱㅕㅇ -7286
▁Su -7287
▁ㅅㅏㄹㅅㅏㅇ -7288
▁ㅂㅜㄱㅇㅏ -7289
▁ㄱㅏㅁㅎㅐㅇ -7290
▁1962 -7291
▁Ep -7292
▁ㄱㅣㅁㅎㅕㅇ -7293
▁ㅈㅣㅍ -7294
▁ㅍㅗㅇ -7295
▁ㅇㅣㅂㅇㅑㅇ -7296
▁ㅎㅗㅁㅈㅡ -7297
▁ㅇㅕㄹㄹㅏㅁ -7298
▁ㅊㅗㅇㅇㅕㄹ -7299
▁ㅁㅏㅇㄹㅕㅇ -7300
▁ㄸㅏㄹㄱㅣ -7301
▁ㅅㅡㅂㄱㅘㄴ -7302
▁ㅇㅖㄴ -7303
▁ㅎㅏㄴㅂㅏㄹ -7304
▁Live -7305
▁ㅉㅗㄹ -7306
▁ㅃㅗㅇ -7307
▁ㅎㅏㄱㅈㅓㅁ -7308
▁get -7309
▁ㅈㅏㅇㅎㅏㄱ -7310
ART -7311
▁ㅇㅏㄱㅇㅢ -7312
▁Comm -7313
▁ㅊㅜㄴㅊㅓㄴ -7314
ㅅㅛㅂ -7315
▁ㅎㅓㅁㅎㅏ -7316
▁ㄷㅏㄴㅈㅓㅇ -7317
▁ㅈㅣㄴㄹㅣ -7318
▁GN -7319
ㄴㅓㄹㄷㅡ -7320
ㅇㅓㄹㄱㅓ -7321
▁ㄱㅘㄴㅈㅣㄱ -7322
▁ㄷㅏㄹㅂㅣㅊ -7323
▁ㅇㅑㅇㅂㅗ -7324
▁ㅇㅏㅁㅇㅜㄹ -7325
ㅈㅏㅇㄴㅏㄴ -7326
ㅊㅜㄹㅇㅐㄱ -7327
ㅈㅓㄱㅈㅏ -7328
▁ㅍㅏㄴㄱㅝㄴ -7329
ㅃㅣ -7330
use -7331
▁ㄷㅗㅇㅁㅜㄴ -7332
▁ㅂㅏㄹㄱㅘㅇ -7333
▁ㄱㅡㅁㅅㅐㄱ -7334
▁MX -7335
▁ㄷㅡㅇㄱㅛ -7336
▁ㄱㅏㅇㅅㅜ -7337
ㄹㄹㅓㅅ -7338
son -7339
ㅈㅓㅇㅅㅣㄴ -7340
▁ㄷㅗㄹㄱㅕㄱㅅㅗ -7341
▁UF -7342
ㄱㅜㄱㅈㅜ -7343
▁ㅊㅓㄴㄱㅗㅇ -7344
▁169 -7345
▁ㅇㅛㅇㄱㅏㅁ -7346
▁` -7347
▁ㅂㅏㄷㅊㅣ -7348
▁ㅇㅡㅇㅎㅏ -7349
▁ㅇㅕㄴㅂㅏㄹ -7350
▁man -7351
▁ㄸㅗㄹ -7352
▁1800 -7353
▁ㅇㅏㄴㅂㅗ -7354
▁BF -7355
▁ㅅㅏㄴㅊㅐㄱ -7356
ㅈㅓㅇㅅㅣㄱ -7357
▁ㅈㅣㄴㅅㅓㅇ -7358
▁gr -7359
▁ㄱㅕㅇㅈㅐㅇㅈㅏ -7360
▁ㅈㅓㄴㅅㅗㄱ -7361
ㅁㅜㄴㅌㅡ -7362
▁ㅎㅏㄴㅌㅏㄴ -7363
▁ㅊㅓㄴㄷㅜㅇ -7364
▁ㅁㅗㄱㄷㅗㅇ -7365
itch -7366
▁ㄷㅏㄴㅅㅗㄱ -7367
▁ㅋㅔㄹㄹㅣ -7368
tr -7369
▁ㅂㅣㄹㄹㅏ -7370
▁ㅂㅓㄴㅌㅡ -7371
▁ㅅㅣㄹㅇㅓㅂ -7372
▁but -7373
▁1944 -7374
▁ㄲㅗㅈㅎㅣ -7375
▁ㄷㅗㄹㅇㅣ -7376
▁ㅇㅕㅇㅈㅣㄴ -7377
reen -7378
▁GR -7379
== -7380
▁Res -7381
▁Power -7382
▁1940 -7383
▁Leg -7384
▁Af -7385
▁ㅇㅗㅂㅌㅣ -7386
attle -7387
▁ㄱㅡㅂㄱㅣ -7388
inn -7389
ㅎㅞ -7390
▁ㅅㅜㄱㅇㅣ -7391
ㅇㅓㅇ -7392
▁ㅂㅗㄹㅌㅔㄱㅅㅡ -7393
▁ㄷㅏㄷㅎㅣ -7394
▁ㄱㅕㄹㅅㅏ -7395
▁ㅂㅓㅂㅇㅏㄴ -7396
▁ㄴㅏㅁㅈㅏㄱ -7397
▁ㅎㅐㅇㅂㅏㅇㅂㅜㄹㅁㅕㅇ -7398
▁Hard -7399
▁ㅇㅡㄴㅎㅖ -7400
▁RC -7401
▁MR -7402
▁ㅅㅗㅇㅊㅜㄹ -7403
▁ㅇㅕㅇㄴㅏㅁ -7404
▁ㅇㅝㄹㄱㅡㅂ -7405
▁Pv -7406
▁ㅇㅕㄹㅇㅏㄱ -7407
ㅋㅗㄱ -7408
▁ㅈㅓㅂㅈㅓㅁ -7409
ㅁㅗㅅㅁㅣ -7410
▁ㄹㅓㄴㄴㅣㅇ -7411
▁ㅎㅗㄱㅅㅏ -7412
▁UI -7413
▁ㄱㅏㅁㅎㅣ -7414
▁ㄴㅓㄼㅎㅣ -7415
▁ㄱㅗㅇㅇㅑㄱ -7416
ㅈㅣㅇㅇㅓ -7417
ㅇㅛㅇㄷㅗㄹㅇㅣ -7418
ㄴㅗㄹㅇㅣ -7419
▁ㄴㅐㅇㄱㅏㄱ -7420
▁ㅈㅓㄴㅅㅏㄴ -7421
▁ㅈㅜㄴㄱㅕㄹㅅㅡㅇ -7422
▁ARM -7423
ㄴㅏㄱㅇㅔ -7424
▁ㄱㅕㅇㅅㅓㄴ -7425
ㄷㅗㅇㅇㅝㄴ -7426
▁ㅈㅣㄱㄱㅕㄹ -7427
▁Ma -7428
▁Sing -7429
▁ㅍㅕㄴㅇㅏㄴ -7430
▁Che -7431
▁ㅊㅜㄹㄱㅡㄴ -7432
▁ㅊㅜㄹㅈㅜㅇ -7433
75 -7434
▁Life -7435
ern -7436
▁ㅈㅣㄴㅎㅐㅇㅈㅏ -7437
▁co -7438
▁ㄷㅗㅇㅇㅛ -7439
ㄹㅔㄴㅅㅡ -7440
XT -7441
▁ㅈㅜㄴㄱㅗㅇ -7442
▁ㄷㅗㄱㅅㅓ -7443
▁ㄱㅗㅇㄱㅘ -7444
ㅈㅜㄴㅍㅛ -7445
▁Master -7446
▁ㅇㅡㅇㅇㅝㄴㄱㅏ -7447
▁ㅂㅜㄴㅈㅏㅇ -7448
TC -7449
▁ㅅㅓㄴㅂㅏㅇ -7450
▁ADV -7451
ㅁㅐㅅ -7452
ㄹㅗㄴㅌㅡ -7453
ars -7454
▁ㅅㅣㄹㅈㅓㅇ -7455
▁ㅎㅓㅅㅅㅗ -7456
▁ㅈㅓㅇㅎㅘㄱㄷㅗ -7457
▁im -7458
▁Rem -7459
▁ㅅㅐㄹㄹㅓ -7460
▁ㅅㅓㄹㅎㅘ -7461
ㄷㅡㄹㅁㅗㄱ -7462
▁VOCALOID -7463
asy -7464
▁ㅈㅓㄴㅅㅔ -7465
▁ㅌㅏㄹㄷㅏㅇ -7466
▁ㄱㅘㅇㅌㅏㄹ -7467
ㅇㅓㅍ -7468
▁ㅈㅣㅇㅈㅣㅇ -7469
to -7470
ㅌㅓㄱ -7471
▁LCK -7472
▁ㅎㅗㅇㅅㅓㅇ -7473
▁Lo -7474
ㅊㅗㅇㄹㅣ -7475
▁ㅎㅜㄱ -7476
▁ㄴㅗㅇㅅㅏ -7477
▁ㅎㅏㄴㄷㅗ -7478
rain -7479
ㅎㅐㅇㅇㅓ -7480
▁ㄷㅗㅇㅌㅏㄱ -7481
▁ㅎㅕㅇㅍㅕㄴㅇㅓㅄ -7482
ㅇㅜㄱㅇㅣ -7483
ㅇㅣㅍ -7484
ㅌㅡㄹㄹㅏ -7485
▁Fem -7486
▁ㅇㅝㄴㅎㅘㄹ -7487
▁ㄷㅗㅇㅊㅔ -7488
IE -7489
▁ㄱㅡㄹㄹㅏ -7490
▁1930 -7491
▁ㄷㅏㅇㅊㅓㅁ -7492
▁Out -7493
▁ㅎㅔㄱ -7494
UE -7495
▁ㅉㅓㄹ -7496
▁ㅊㅜㅇㅊㅓㅇㅂㅜㄱㄷㅗ -7497
▁ㄷㅗㅇㅈㅣ -7498
▁ㅍㅣㄱㅇㅓㅂ -7499
▁ㅈㅡㅇㄱㅣ -7500
▁ㅁㅣㄴㅈㅓㅇ -7501
ㅍㅡㄹㄹㅐ -7502
ana -7503
▁ㅇㅕㄹㄷㅡㅇ -7504
▁ㅅㅣㄹㅁㅕㅇ -7505
▁ㄱㅡㄴㅅㅓㅇ -7506
ㅅㅣㅁㅈㅏㅇ -7507
▁ㄷㅐㄴㅅㅓ -7508
▁ㅌㅔㅁㅍㅡㄹ -7509
▁ㄴㅗㅇㅎㅕㅂ -7510
▁ㄴㅡㅈㅊㅜ -7511
▁ㅁㅗㄱㅇㅛ -7512
▁ㅊㅏㅇㅂㅕㅇ -7513
ㄷㅏㄴㅈㅜ -7514
▁OPS -7515
▁ㄱㅡㅁㅎㅗ -7516
▁ㅇㅣㄹㅈㅓㄹ -7517
▁ㅃㅗㅁㄴㅐ -7518
▁ㅅㅔㄴㅌㅣ -7519
ㅅㅞ -7520
▁OB -7521
▁151 -7522
▁ㄱㅡㅁㅎㅘ -7523
cl -7524
▁ㅍㅣㄹㄹㅣㅂ -7525
▁ㄱㅏㄴㅅㅓㄴ -7526
ield -7527
ㅆㅏㄱ -7528
▁ㅊㅣㄴㅈㅓㅇ -7529
▁ㄷㅡㄱㅈㅓㅁㅈㅏ -7530
▁ㅇㅡㅁㅈㅜ -7531
▁ㅁㅗㄱㅈㅓㄱㅈㅣ -7532
▁999 -7533
▁ㅅㅓㄹㅂㅣ -7534
▁ㅅㅏㅇㅇㅛㅇ -7535
▁ㅎㅏㄱㅅㅜㄹ -7536
24 -7537
▁ㅃㅏㄹㅇㅏ -7538
▁End -7539
ㅁㅐㄴㄷㅓ -7540
▁ㅈㅜㄴㅎㅏ -7541
▁256 -7542
riend -7543
▁ㅋㅣㅇㅅㅡ -7544
ㄱㅡㄱㅎㅣ -7545
ㅇㅜㄴㅌㅣ -7546
▁ㅅㅓㄴㄷㅐ -7547
▁POP -7548
▁ㅍㅡㄹㄹㅜ -7549
▁Hell -7550
▁ㅁㅣㄹㄹㅏ -7551
ㅅㅈㅣㅂ -7552
▁ㅅㅓㅇㅇㅕㄱ -7553
▁ㅇㅣㄴㅂㅔㄴㅌㅗ -7554
▁ㅈㅜㅇㅈㅓㄴㅊㅏ -7555
▁ㄱㅜㄴㅂㅗㄱ -7556
▁ㅅㅣㄴㅋㅏㄴ -7557
▁ㅍㅏㄹㅉㅣ -7558
atic -7559
▁ㅅㅛㄴ -7560
▁1964 -7561
▁ㄷㅗㅇㄱㅏㅂ -7562
▁1965 -7563
▁just -7564
▁ㄲㅐㅇㅍㅏㄴ -7565
▁Fi -7566
ㅇㅛㅇㅎㅐ -7567
▁ㅈㅏㄴㄷㅣ -7568
ㅋㅡㄹㄹㅓㅂ -7569
ㅇㅜㄴㄷㅐ -7570
ㅈㅜㅇㅎㅣ -7571
▁ㄱㅏㄹㄱㅗ -7572
▁ㅁㅗㅅㅈㅣ -7573
▁ㅍㅣㄹㅇㅕㄴ -7574
ㅇㅓㄴㅁㅐㄴ -7575
▁ㄱㅣㅁㅇㅣㄹㅅㅓㅇ -7576
▁ㅅㅣㄴㅋㅏㄴㅅㅔㄴ -7577
▁ㅎㅏㅁㅍㅗ -7578
▁ㅂㅓㅂㅎㅏㄱ -7579
▁ㅂㅜㄹㄹㅗ -7580
▁"" -7581
▁ㅅㅣㄴㄷㅐ -7582
▁Miss -7583
▁ㅎㅘㄱㄹㅣㅂ -7584
▁PVP -7585
33 -7586
▁ㅅㅑㄴ -7587
▁ㅊㅜㅇㅂㅜㄱ -7588
▁sc -7589
ittle -7590
▁ㅅㅛㅅ -7591
▁ㅂㅗㄴㅅㅓㅇ -7592
▁ㅈㅓㄹㄱㅠ -7593
▁ㅋㅝㄹㅋㅓㅁ -7594
ㅈㅣㄴㅇㅕㅇ -7595
▁ㅂㅏㄹㅇㅏㄱ -7596
▁ㅎㅑㅇㄱㅣ -7597
ㅎㅗㅂ -7598
▁ㅃㅑㅁ -7599
▁Air -7600
▁night -7601
▁ㅅㅜㄴㄱㅛ -7602
▁ㅂㅏㄴㄱㅏㅂ -7603
▁q -7604
▁ㅆㅜㄱ -7605
ㅋㅐㄴㄷㅡㄹ -7606
▁SG -7607
▁ㅈㅣㅂㅈㅜㅇㄹㅕㄱ -7608
▁what -7609
ㄹㅟ -7610
▁ㅅㅏㅇㄱㅏ -7611
▁6000 -7612
▁ㅇㅕㅇㄷㅗㅇ -7613
LS -7614
▁ㅂㅏㄴㅎㅏㅇ -7615
▁ㄹㅏㄱㅅㅡ -7616
▁ㅈㅜㅇㄱㅕㄴㅅㅜ -7617
▁Vo -7618
▁380 -7619
▁ㄱㅣㅁㅌㅐㄱ -7620
ㄱㅡㅂㅈㅓㄱ -7621
▁ㄹㅓㅁㅂㅡㄹ -7622
ㅂㅡㄹㄹㅣㅅ -7623
▁ㄷㅏㄹㄱ -7624
▁ㅇㅏㄱㄹㅏㄹ -7625
▁ㅇㅣㄹㅂㅗㄴㅅㅣㄱ -7626
▁Hy -7627
▁ㄹㅐㄴㅌㅓㄴ -7628
▁ㅇㅕㄱㅂㅕㅇ -7629
▁ㅋㅗㄹㄷㅡ -7630
▁ㅈㅣㄱㅇㅕㄱ -7631
▁ㅎㅏㄱㅂㅓㄴ -7632
▁VR -7633
▁ㅅㅣㄴㅎㅡㅇ -7634
▁Mod -7635
▁ㅅㅗㄴㅇㅏ -7636
▁ㅊㅜㄹㅁㅗㄹ -7637
▁ㅇㅏㄴㅅㅓㅇ -7638
▁ㅈㅣㄱㄱㅜ -7639
▁EMP -7640
▁ㅂㅗㄹㄹㅠㅁ -7641
▁ㄱㅜㄱㅅㅏㄴ -7642
▁ㄴㅔㄱㅅㅡㄴ -7643
▁1920 -7644
ㅌㅣㄴㅇㅓ -7645
▁ㅅㅓㅇㅎㅕㅇ -7646
ㅆㅗㄹ -7647
▁ㅇㅑㅇㅊㅡㄱ -7648
▁ㅆㅗㄹㅆㅗㄹ -7649
▁ㅈㅡㄱㄱㅏㄱ -7650
28 -7651
▁YOU -7652
▁ㅅㅏㅇㅊㅔ -7653
▁ㅅㅡㅇㄹㅕ -7654
▁Di -7655
▁MT -7656
▁ㄱㅏㅇㅎㅐㅇ -7657
▁ㅊㅐㄹㄹㅣㄴㅈㅓ -7658
▁ㅈㅓㅂㄱㅡㄴㅅㅓㅇ -7659
▁ㄱㅏㅇㅍㅏㄴ -7660
ㄷㅓㅍ -7661
▁ㅈㅓㄴㅍㅗㄱ -7662
▁ㅎㅏㄴㅅㅣㅁ -7663
▁ㄱㅗㄹㄹㅣ -7664
▁ㅇㅕㄴㅂㅣ -7665
▁King -7666
▁Sy -7667
▁Ang -7668
▁ㅇㅣㅁㅇㅝㄴ -7669
▁XXX -7670
▁ㅊㅗㅇㅌㅏㄴ -7671
▁ㅅㅏㄹㅍㅣ -7672
▁EA -7673
▁ㅈㅣㄴㄹㅛ -7674
▁ㅇㅏㄱㅇㅛㅇ -7675
▁ㄱㅓㄴㅈㅐ -7676
▁ㅋㅗㄴㅌㅣ -7677
▁ㅅㅡㅇㅊㅓㄴ -7678
▁ㅇㅛㅇㅁㅐㅇ -7679
▁tvN -7680
▁ㅈㅓㄱㅈㅣㄴ -7681
ony -7682
ㅅㅜㅁㅇㅔ -7683
▁ㅂㅣㄴㅅㅏ -7684
▁ㄷㅏㄴㅅㅜㅁㅇㅔ -7685
▁IG -7686
▁ㅊㅓㅁㄷㅏㄴ -7687
▁ㅈㅓㄴㄹㅣ -7688
▁ㅁㅣㄹㅈㅣㅂ -7689
▁ㄴㅏㅁㄷㅗㅇ -7690
▁ㅂㅏㄱㄱㅕㄱ -7691
▁ㅁㅓㄱㅂㅏㅇ -7692
▁ㅁㅣㅅ -7693
▁ㅂㅓㄱㅅㅡ -7694
▁0000 -7695
ㅋㅠㄹㄹㅏ -7696
▁ㅂㅏㄴㅈㅏ -7697
▁ㄸㅏㄱㄸㅏㄱ -7698
▁ㅅㅐㅇㅅㅏㄴㄹㅕㄱ -7699
▁UFC -7700
ㄹㅡㄱ -7701
▁ㅇㅟㄴㅅㅡ -7702
▁ㅁㅣㄹㄹㅏㄴ -7703
▁ㄷㅗㅇㅇㅣㄴㅈㅣ -7704
▁ㅇㅙㄴㅁㅏㄴ -7705
▁ㄱㅣㅁㅁㅕㅇ -7706
▁ㅁㅏㄹㅁㅣ -7707
▁ㅇㅜㄴㅇㅜㄴ -7708
▁ㅈㅣㄴㄱㅏ -7709
▁ㄱㅣㄹㄷㅡㄹㅇㅣ -7710
▁ㅅㅑㅁ -7711
mania -7712
ㅈㅜㄴㅎㅗ -7713
▁ㅇㅏㄴㅅㅏㄴ -7714
▁STER -7715
ma -7716
ㄷㅣㄱ -7717
▁ㅇㅝㄴㄴㅐ -7718
▁ㅇㅡㄴㅁㅣㄹ -7719
▁ㅅㅣㄹㅎㅘㅇ -7720
ㅁㅕㅇㅅㅏㅇ -7721
▁ㅁㅏㄴㄹㅛ -7722
ㄱㅕㄱㅊㅗㅇ -7723
▁ㅇㅏㄴㅁㅕㄴ -7724
▁ㅁㅣㅂ -7725
▁Cy -7726
▁ㄷㅓㅊ -7727
▁ㅎㅏㄱㅎㅚ -7728
▁ㅇㅣㄹㅈㅣㄴ -7729
▁ㅅㅣㄴㅅㅣ -7730
ㄱㅗㄱㄷㅗㅇ -7731
▁ㄴㅏㄱㅇㅣㄴ -7732
▁ㅂㅕㄴㅈㅣㄹ -7733
▁Run -7734
▁1600 -7735
▁ㄱㅘㄴㄷㅗㅇ -7736
▁ㅂㅏㅇㄱㅡㅁ -7737
▁ㅁㅓㄹㅉㅓㅇㅎㅣ -7738
ㄷㅏㄴㅊㅔ -7739
▁IDOL -7740
▁ㅊㅓㄴㄱㅖ -7741
ㅅㅏㄹㅇㅏ -7742
▁ㅇㅝㄴㄱㅗ -7743
ㄷㅙ -7744
be -7745
ual -7746
▁ㅇㅕㅁㄹㅕ -7747
▁131 -7748
▁ㄱㅗㅇㅅㅓㅇㅈㅓㄴ -7749
ret -7750
▁ㅅㅐㅇㅅㅏㄴㄹㅑㅇ -7751
ㄱㅜㅇㅎㅘ -7752
ㅅㅡㅇㅁㅏㄴ -7753
▁ㅊㅜㄱㅈㅓㄱ -7754
▁ㅊㅓㅇㅅㅏㄴ -7755
▁ㅈㅏㅇㅍㅕㄴ -7756
▁SV -7757
ㅇㅕㄹㅅㅏ -7758
▁ㅁㅣㄴㅇㅝㄴ -7759
▁ㄱㅘㅇㅂㅗㄱ -7760
▁white -7761
▁ㅁㅏㄱㅂㅏ -7762
▁MLB -7763
▁UM -7764
▁ㄹㅐㅁㅍㅡ -7765
▁ㅂㅔㄱㅌㅓ -7766
▁ㅊㅣㄹㄹㅔ -7767
▁MASTER -7768
▁ㅈㅓㄴㄱㅛ -7769
▁ㅈㅓㄴㅍㅕㄴ -7770
ㅁㅕㅇㅅㅏ -7771
▁ㅂㅣㄱㅂㅐㅇ -7772
▁ㄹㅓㅆㄷㅏ -7773
▁don -7774
ecial -7775
▁ㄷㅏㄴㄱㅗㄹ -7776
▁ㅊㅓㅇㅇㅝㄴ -7777
ㅅㅏㅇㅍㅏ -7778
▁School -7779
▁ㅇㅝㄴㅎㅗ -7780
▁ㅇㅣㄴㅁㅐㄱ -7781
▁SO -7782
▁ㄷㅗㅇㅊㅏㅇ -7783
ㅈㅣㅇㄱㅏ -7784
ane -7785
▁ㅇㅣㅂㅎㅏㄱㅅㅣㄱ -7786
▁ㅁㅜㄹㄷㅡㄹ -7787
▁ㅌㅗㅇㅅㅣㄴㅅㅏ -7788
▁ㄱㅜㅇㅈㅣ -7789
▁ㅅㅣㄹㅁㅜ -7790
▁ㅇㅛㄱㅎㅏ -7791
ㅍㅗㄹㄹㅗ -7792
▁ㄱㅕㄹㅎㅏㅁ -7793
▁ㅂㅐㄱㅎㅏㅂ -7794
▁ㅇㅕㅇㅁㅣ -7795
▁ㅎㅡㄱㅎㅘ -7796
▁Rec -7797
▁ㄱㅕㅇㅁㅐ -7798
▁ㄲㅓㄲㅇㅣ -7799
ㅇㅛㅇㅂㅓㅂ -7800
ㅂㅓㅁㅈㅚ -7801
ㄱㅝㄴㅈㅏ -7802
▁ㅌㅏㄴㄷㅗ -7803
ㅈㅣㅂㅎㅣ -7804
▁ㄱㅏㅇㅅㅓㅇ -7805
▁ㄷㅏㄹㄱㅑㄹ -7806
▁ㅎㅗㅇㅈㅜㄴㅍㅛ -7807
▁ㅅㅖㄹ -7808
▁ㄱㅣㅁㅈㅓㄴ -7809
▁way -7810
▁ㅈㅡㅇㄱㅝㄴ -7811
▁ㅊㅣㄱ -7812
ㅈㅣㄹㄱㅣ -7813
▁Sound -7814
ope -7815
▁ㅉㅗㅈㅇㅏ -7816
▁ㄲㅡㄴㅈㅣㄹㄱㅣ -7817
▁Art -7818
▁ㄱㅣㅁㅎㅢ -7819
▁Arm -7820
▁ㅇㅣㄴㄴㅐ -7821
▁ㅎㅏㅂㄷㅏㅇ -7822
ㅇㅐㄱㅅㅕㄴ -7823
Fat -7824
▁Yeah -7825
▁ㅇㅣㄹㄹㅕㄴ -7826
▁ㅇㅘㄴㅅㅜ -7827
ㅈㅏㅇㅍㅜㅁ -7828
▁ㅍㅕㄴㄷㅐ -7829
ㄹㅗㄴㅌㅗ -7830
▁ㄱㅗㅇㄹㅗ -7831
▁ㅎㅓㄴㅅㅣㄴ -7832
ㅎㅐㅇㅇㅟ -7833
ㅎㅐㅇㅅㅓㄴ -7834
ㅂㅔㄹㄹㅣ -7835
elf -7836
ㅎㅡㄺ -7837
▁BAS -7838
▁ㄱㅏㅇㅈㅓㄱ -7839
ㅅㅗㄱㅂㅓ -7840
▁ㅈㅓㄱㄹㅛ -7841
▁EM -7842
ㅇㅠㄱㅂㅜ -7843
▁ㅂㅏㄱㅈㅜ -7844
▁ㄷㅗㅇㄹㅐ -7845
ision -7846
ㅇㅣㄹㅇㅡ -7847
ㅅㅡㅇㅇㅜ -7848
▁Femme -7849
ㅍㅓㅇ -7850
▁ㅈㅏㄱㅂㅕㄹ -7851
ㅇㅐㄴㅈㅔㄹㄹㅔ -7852
▁Rev -7853
▁1961 -7854
▁Cat -7855
▁ㅅㅏㄹㄹㅏ -7856
▁ㅇㅑㅇㄱㅜㄱ -7857
ㅇㅜㄹㄹㅓ -7858
▁ㄱㅘㄹ -7859
▁Ge -7860
▁WE -7861
▁VIP -7862
▁ㄱㅕㅇㅎㅢ -7863
▁ㄱㅏㄴㄹㅑㄱ -7864
▁ㅇㅝㄴㅊㅓㄴ -7865
ㅌㅣㄱㅅㅡ -7866
▁ㅊㅗㅇㄱㅘㄹ -7867
ㅍㅡㄹㄹㅏ -7868
▁ㅋㅔㄴㅇㅣ -7869
▁ㅂㅏㄹㅋㅏㄴ -7870
▁ㅂㅜㄹㅁㅕㄹ -7871
▁ㅅㅣㄴㄷㅣ -7872
▁ㄱㅣㅁㅈㅓㄴㅇㅣㄹ -7873
▁ㅇㅣㅂㅅㅜㄹ -7874
▁ㄱㅗㅇㅂㅏㅇㅈㅓㄴ -7875
▁ㄲㅘㅇ -7876
ㅂㅐㄴㅅㅡ -7877
▁DO -7878
▁ㅈㅣㄴㄴㅏ -7879
▁ㅃㅏㄹㄱㅏㅇ -7880
we -7881
ㅇㅣㄹㄷㅏㅁ -7882
▁ㅅㅜㄹㅂㅓㅂ -7883
ㅇㅣㄴㅈㅡ -7884
ㅆㅓㄹ -7885
▁ㅅㅣㄱㅅㅣㄴ -7886
ㅋㅝㄹ -7887
ㅈㅏㄱㅈㅓㅇ -7888
▁ㅅㅓㄱㄱㅜㅇ -7889
▁ㄱㅜㄴㄱㅣ -7890
▁ㅈㅗㄱㅈㅏㅇ -7891
▁ㅅㅏㅁㄱㅓ -7892
▁ㄱㅕㅇㄹㅑㅇ -7893
ㅅㅇㅣㅍ -7894
Fatale -7895
▁ㅂㅏㄹㅈㅓㄴㄱㅣ -7896
▁ㅇㅣㄹㅂㅗ -7897
▁FemmeFatale -7898
ㄲㅜㅁㅊㅣ -7899
ㄷㅏㄴㅈㅏㅇ -7900
▁ㅈㅣㄴㅈㅏㄱ -7901
str -7902
▁ㅂㅏㄴㅁㅏㄹ -7903
ational -7904
ㅇㅑㄱㅈㅏ -7905
ㄱㅏㅌㅇㅣ -7906
▁ㅎㅏㄴㅁㅗ -7907
▁ㅂㅏㅇㅎㅘㅇ -7908
▁ㅈㅓㅇㄱㅖ -7909
ouse -7910
▁dis -7911
▁ㄱㅕㅇㅅㅓㅇ -7912
SS -7913
▁ㅅㅓㅇㄷㅗ -7914
ㅅㅜㅇ -7915
▁ㅇㅕㄴㄱㅡㅁㅅㅜㄹ -7916
appy -7917
▁ㅇㅑㅇㅍㅏ -7918
▁ㅊㅜㅇㅈㅜ -7919
▁ㄲㅓㄹ -7920
▁NHK -7921
▁ㄱㅓㅁㅇㅡㄴㅅㅐㄱ -7922
▁ㅇㅓㄹㅍㅣㅅ -7923
AG -7924
▁ㅅㅓㅁㅇㅠ -7925
ORE -7926
▁ㅎㅔㄹㅅㅡ -7927
▁ㅎㅗㄴㅈㅗㅇ -7928
▁ㅋㅗㄹㄹㅗㅁㅂㅣ -7929
ㅇㅓㄴㅈㅓㅇ -7930
ㅋㅏㄹㄹㅔㅅ -7931
▁ㅂㅏㄴㅎㅘㄴ -7932
▁br -7933
▁ㅊㅏㅇㅇㅓㅂ -7934
▁ㄱㅘㅇㅅㅓㄱ -7935
▁ㅂㅕㅇㄷㅏㄴ -7936
ㅊㅜㄱㄱㅜ -7937
ㅇㅡㅁㄱㅣ -7938
ㅅㅡㅇㅎㅕㄴ -7939
▁Order -7940
ness -7941
▁1100 -7942
▁ㅅㅏㅇㅎㅚ -7943
ㅈㅜㄴㄱㅡㅂ -7944
▁ㄷㅏㅇㅇㅝㄴ -7945
ㅍㅡㄴㅁㅠ -7946
▁ㅍㅏㅂㅍㅡㄴㅁㅠ -7947
▁ㄴㅏㄴㅈㅓㄴ -7948
▁ㅈㅓㅁㄱㅓ -7949
▁ㅌㅐㄱㅂㅐ -7950
ㅁㅏㅌ -7951
▁MD -7952
▁ㅊㅓㄴㅈㅓㄱ -7953
ㅈㅓㅇㅇㅕㄱ -7954
ㅇㅕㄴㅅㅡ -7955
▁ㅅㅓㅇㅊㅐ -7956
ㅅㅣㄴㄱㅣ -7957
▁Elect -7958
▁ㅇㅓㅁㅈㅣ -7959
ㅎㅣㄹ -7960
▁ㄱㅣㅁㅎㅖ -7961
ㄹㅏㅇㅋㅔㄴ -7962
▁ㅇㅑㅇㅎㅕㄴ -7963
▁ㅈㅓㄱㅂㅏㄹ -7964
▁ㅍㅓㄹㅅㅡ -7965
▁ㅍㅗㄱㄷㅗㅇ -7966
▁^ -7967
ㅁㅓㄱㅇㅣ -7968
ㄷㅔㄹㅍㅣ -7969
▁ㅈㅓㅇㄹㅣㅂ -7970
▁ㅎㅏㄴㅁㅗㄳ -7971
▁ㅇㅘㄴㅈㅓㄴㅊㅔ -7972
▁ㄷㅏㅇㅈㅜ -7973
ㅅㅖㄹ -7974
▁ㅂㅏㄱㅈㅜㄴ -7975
ㅇㅘㅂ -7976
▁ㅈㅓㅇㅁㅕㅇ -7977
▁ㅈㅗㅇㅇㅣㄹ -7978
▁TCG -7979
inc -7980
▁ㄱㅣㅍㅅㅜㄱ -7981
▁ㅂㅜㄹㅅㅣㄴ -7982
▁EXH -7983
ㅅㅓㅇㄱㅖ -7984
ㅌㅏㄴㅌㅣ -7985
▁ㄷㅡㄴㄱㅏ -7986
▁ㅂㅗㄱㅅㅣㅇ -7987
ㅖㄴ -7988
▁ㄱㅗㅇㅎㅠ -7989
▁CON -7990
▁ㄱㅘㅇㅂㅓㅁ -7991
▁ㅁㅏㄹㅈㅏㅇㄴㅏㄴ -7992
▁ㅂㅗㄴㄷㅣ -7993
▁ㅈㅓㄱㅅㅐㄱ -7994
▁ㄱㅕㄹㅈㅏㅇ -7995
▁ㅅㅓㄴㅂㅏㄹㅌㅜ -7996
ㄴㅏㄹㄷㅡ -7997
▁ㅇㅜㄴㅎㅏㅇ -7998
▁world -7999
ㅅㅡㅇㅇㅕㅂ -8000
▁RG -8001
▁214 -8002
▁ㅇㅑㅇㅎㅗ -8003
▁ㅇㅣㄹㅆㅜ -8004
▁ㅂㅗㄹㅍㅡ -8005
▁ㅅㅐㅇㅅㅏ -8006
▁ㅇㅕㄴㅎㅏ -8007
▁ㄴㅐㅇㅈㅓㄴ -8008
▁She -8009
▁ㅆㅡㅂ -8010
▁ㅍㅗㄹㄷㅓ -8011
▁SHOW -8012
▁ㅅㅗㄴㅎㅡㅇ -8013
▁ㅈㅏㄱㅅㅏㄹ -8014
▁ㄴㅔㅂ -8015
▁ㄱㅏㅇㅇㅠ -8016
▁ㅈㅓㅇㅇㅡㄴ -8017
▁ㄷㅏㅇㅂㅜㄴ -8018
▁ㄱㅕㅇㅈㅏㅇ -8019
IV -8020
▁ㅎㅏㄴㅈㅗ -8021
day -8022
omb -8023
▁ㅈㅓㅇㄱㅓ -8024
▁1943 -8025
ㅍㅗㄴㅈㅣ -8026
▁ㅅㅏㄴㅇㅏㄱ -8027
its -8028
▁ㅅㅓㅇㅊㅜ -8029
▁ㅌㅏㄴㅈㅗㅇ -8030
ㅅㅜㄹㄱㅏ -8031
▁ㅎㅏㄴㅅㅡ -8032
▁ㅅㅐㅁㅍㅡㄹ -8033
▁ㅅㅡㅇㄱㅣ -8034
▁ㄱㅓㄴㅈㅓㄴ -8035
▁ㅇㅏㅂㅅㅏㄹ -8036
ㅇㅗㄹㄹㅣㄴ -8037
▁ㅇㅣㅁㅊㅏㅇ -8038
▁Da -8039
▁ㄱㅡㄹㄹㅓ -8040
▁ㅁㅐㄱㅅㅣ -8041
▁ㅅㅗㄱㅅㅏㄱ -8042
▁ㅇㅓㄴㅎㅐㅇ -8043
ㄹㅣㅅㅈㅣ -8044
▁ㅅㅗㄴㅎㅡㅇㅁㅣㄴ -8045
▁ap -8046
▁ㅅㅓㅂㅇㅚ -8047
ㅇㅣㄴㄱㅏㄴ -8048
▁ㅁㅕㅇㅈㅏㄱ -8049
▁ㅌㅏㄴㅅㅗ -8050
▁naver -8051
▁ㅅㅔㄹㅍㅡ -8052
▁** -8053
▁340 -8054
▁beatmania -8055
▁ㅎㅐㅇㅌㅐ -8056
▁1942 -8057
▁ㅈㅣㄱㄱㅏㅁ -8058
ham -8059
▁141 -8060
ㄱㅡㅇ -8061
▁ㅅㅏㅇㅅㅗㄱ -8062
ㅈㅓㅇㄱㅘㄴ -8063
▁ㅂㅏㄱㄱㅕㄱㅍㅗ -8064
▁ㅎㅘㄱㅇㅕㄴㅎㅣ -8065
ious -8066
▁ㅌㅜㅁ -8067
ㅅㅓㅇㄴㅕㄴㅈㅏ -8068
▁ㄱㅡㄹㄹㅐ -8069
▁ㅇㅔㄱㅅㅗ -8070
▁ㅈㅐㅇㅌㅏㄹ -8071
▁ㅍㅗㄱㅂㅏㄹㅁㅜㄹ -8072
▁ㅈㅗㅁㅂㅣ -8073
▁ㅇㅟㄹㅅㅡㄴ -8074
▁ㅎㅘㅇㅁㅜ -8075
▁ㅅㅣㄴㅅㅡ -8076
ㄱㅡㄹㄹㅓ -8077
▁ㅈㅗㄴㄷㅐㅅㅁㅏㄹ -8078
▁SW -8079
ㄹㅣㅅㅅㅜ -8080
▁ㅊㅜㄹㅌㅚ -8081
ㅍㅓㄹ -8082
▁ㄱㅗㅇㅇㅣㄱ -8083
ㅋㅏㄹㄹㅣ -8084
EX -8085
▁ㅎㅕㄴㅁㅕㅇ -8086
▁ㅈㅏㅇㅂㅕㅇ -8087
▁ㅋㅑ -8088
▁ㅇㅏㄴㄴㅏ -8089
ㅇㅣㄴㄱㅣ -8090
▁ㅈㅡㅇㅅㅔ -8091
▁te -8092
ㅇㅣㅁㄱㅣ -8093
▁ㅍㅗㄱㅅㅏ -8094
▁ㅊㅏㅇㄷㅏㅇ -8095
▁ㅅㅕㄹㄹㅗㄱ -8096
▁ㅅㅏㅇㄱㅝㄴ -8097
▁ㅅㅣㄴㅊㅜㄱ -8098
▁ㅎㅏㅂㅎㅏ -8099
▁Not -8100
▁ㅇㅗㄱㅌㅏ -8101
▁ㄱㅘㅇㅂㅓㅁㅇㅟ -8102
▁ㅈㅣㄴㄱㅜㄴ -8103
▁ㅇㅣㅂㅁㅏㅅ -8104
▁ㅋㅐㅂㅋㅗㅁ -8105
▁ㅎㅏㅂㅊㅏㅇ -8106
▁ㄱㅣㅁㅊㅏㅇ -8107
▁ㅍㅣㄱㅅㅣ -8108
▁ㄱㅜㄴㅎㅏㅁ -8109
▁ㄷㅗㅇㅂㅗㅇ -8110
▁ㅅㅜㄹㅌㅏㄴ -8111
ㅈㅓㅇㅎㅕㄴ -8112
aut -8113
ivers -8114
ㅂㅕㅇㅎㅗ -8115
▁ㅅㅗㅇㄱㅜ -8116
▁ㅅㅣㅇㅇㅓ -8117
▁ㅍㅗㅅ -8118
▁ㄷㅡㄴㄷㅡㄴ -8119
ㄷㅓㄴㅌㅡ -8120
▁ㄱㅜㄱㄹㅕㄱ -8121
▁DEF -8122
▁ㅋㅣㄹㄹㅗ -8123
▁ㅈㅏㅇㅇㅏㄴ -8124
▁Ke -8125
▁ㅁㅏㄱㅂㅜ -8126
ㅇㅓㅁㅅㅡ -8127
▁ㄱㅗㅇㄷㅗㅇㅊㅔ -8128
▁With -8129
27 -8130
▁ㅈㅣㄹㄹㅑㅇ -8131
▁ㅅㅏㅇㅂㅏㄴㄱㅣ -8132
▁RAW -8133
ERS -8134
23 -8135
ㅌㅡㄹㄹㅔ -8136
▁ㅁㅠㄹ -8137
▁Every -8138
ANC -8139
ㅇㅡㅁㄲㅓㅅ -8140
▁ㄹㅐㅅ -8141
olution -8142
ㅅㅏㅇㅁㅣㄴ -8143
▁ㄴㅡㄴㄱㅜㄴ -8144
▁ㅅㅏㅇㅍㅛ -8145
▁ㅅㅡㄹㄹㅔ -8146
▁ㅅㅗㄴㅂㅏ -8147
▁ㄲㅗㄱㄷㅜ -8148
▁ㅇㅣㅁㅇㅛ -8149
▁ㅈㅓㅇㅅㅔ -8150
▁ㅁㅏㅇㅈㅏ -8151
▁ㅈㅓㄴㅈㅓㄴ -8152
▁ㅌㅏㄹㅇㅗㄱ -8153
ㅇㅝㄴㅇㅕㄱ -8154
▁ㅇㅕㄹㅂㅏㄷ -8155
ㄱㅗㅇㄱㅕㄱ -8156
▁ㄱㅘㄴㄴㅕㅁ -8157
▁ㅈㅓㅇㅈㅏㅇ -8158
olog -8159
ㅁㅓㅅㄷㅐ -8160
45 -8161
▁ㄴㅓㅁㅊㅕ -8162
ㅈㅏㅇㄴㅏ -8163
▁ph -8164
▁ㄹㅕㅁ -8165
UC -8166
▁310 -8167
ㅎㅐㅇㅅㅏ -8168
▁ㅇㅚㄴㅍㅏㄹ -8169
▁ㅂㅐㄱㅁㅣ -8170
▁ㅍㅕㅇㅁㅣㄴ -8171
ㅋㅜㄴ -8172
▁ㄱㅣㅁㅈㅜㄴㅎㅗ -8173
▁ㅈㅣㄴㅈㅓㅇㅎㅏ -8174
▁ㅈㅣㅂㄱㅕㄹ -8175
▁ㄴㅗㄴㅎㅏ -8176
▁ㅇㅝㄴㅈㅔ -8177
▁ㅎㅘㄴㄱㅏㄱ -8178
ㄱㅘㄴㅊㅏ -8179
ㄱㅞ -8180
▁if -8181
▁ㅅㅜㄴㅈㅣㄴ -8182
▁Get -8183
▁ㅎㅓㄴㄷㅔ -8184
▁ㄱㅕㅇㅊㅏㄹㄱㅘㄴ -8185
▁Chr -8186
▁1946 -8187
▁ㄴㅏㄱㅇㅝㄴ -8188
29 -8189
▁EB -8190
▁007 -8191
▁ㅂㅜㄹㅅㅏㅇ -8192
66 -8193
▁ㅉㅏㄹㅂㅏㅇ -8194
▁FR -8195
▁CT -8196
▁ㄱㅣㅁㅈㅓㅇㅇㅡㄴ -8197
▁ㅂㅜㄴㄱㅕㅇ -8198
ㅇㅞㄴ -8199
▁ㄱㅣㅁㅅㅔ -8200
ely -8201
▁TB -8202
▁ㄴㅡㄴㄱㅜ -8203
▁ㅈㅜㄹㄱㅗㄷ -8204
ty -8205
▁Har -8206
▁ㅎㅡㅂㅇㅕㄴ -8207
▁Boy -8208
▁ㄱㅜㄷㅇㅓ -8209
ㅋㅣㄴㅅㅡ -8210
▁ㄴㅏㄹㄹㅏ -8211
▁ㅂㅏㄴㅊㅣㄱ -8212
▁ㄴㅗㄱㅇㅏ -8213
▁ㅇㅕㅇㄱㅣ -8214
▁ㅅㅣㄴㅇㅝㄴ -8215
▁ㅂㅔㅇ -8216
icro -8217
▁ㅃㅏㄱㅃㅏㄱ -8218
▁ㅌㅏㅁㅇㅛㄱ -8219
ny -8220
▁ㅋㅏㅇ -8221
▁1954 -8222
▁ㅈㅏㄱㅇㅏ -8223
▁ㄷㅏㅇㄷㅏㅇㅎㅣ -8224
▁ㅇㅕㄴㅎㅢ -8225
ㅅㅣㄴㅎㅕㅇ -8226
▁Skill -8227
▁ㄷㅏㅁㄷㅏㅇㅈㅏ -8228
▁ㅈㅜㅇㅇㅏㅇㅅㅓㄴ -8229
ters -8230
▁ㅎㅗㅇㄷㅐ -8231
▁720 -8232
▁ㅁㅣㄴㅇㅕㅇ -8233
ㅂㅏㄷㅊㅣㅁ -8234
▁Des -8235
▁ㄱㅡㅁㄱㅣ -8236
▁1958 -8237
▁ㅂㅏㄹㅅㅏㅇ -8238
▁ㅇㅠㄱㅈㅣ -8239
ㅇㅓㄹㄹㅣ -8240
▁>, -8241
▁ㅇㅕㅇㅂㅜㄴ -8242
▁Ab -8243
▁ㅁㅏㄴㄷㅜ -8244
▁ㅅㅓㅁㅅㅔ -8245
▁ㄱㅓㄹㅈㅏㄱ -8246
▁ㄱㅜㄹㅂㅗㄱ -8247
▁ㄱㅣㅁㅎㅏ -8248
▁ㅁㅏㄴㅅㅔ -8249
▁ㅈㅓㄴㅌㅐ -8250
▁ㅂㅜㄱㅂㅏㅇ -8251
▁ㄷㅏㄴㅅㅓㄴ -8252
▁ㅅㅓㄹㄷㅡㄱㄹㅕㄱ -8253
▁CCTV -8254
ㅇㅣㄹㄹㅗ -8255
▁ㄷㅏㄴㅌㅔ -8256
▁1941 -8257
▁ㅇㅣㄴㅈㅡ -8258
▁ㅈㅣㄴㅎㅡㄺ -8259
▁ㅈㅔㄹㄷㅏ -8260
▁171 -8261
▁=, -8262
ient -8263
ㅍㅡㄹㄹㅣㅅ -8264
▁ㄷㅏㄴㅈㅗ -8265
▁ㅁㅏㄴㄹㅠ -8266
▁480 -8267
▁ㅊㅜㅇㅅㅓㅇㅅㅣㅁ -8268
▁ㅍㅏㄹㅇㅏ -8269
▁ㅅㅐㅇㅁㅜㄹㅎㅏㄱ -8270
▁DA -8271
▁ㄴㅛ -8272
▁ㅅㅓㅇㅊㅔ -8273
▁ㅈㅗㄹㄱㅐ -8274
▁OO -8275
▁Big -8276
▁ㅇㅣㅇㅋㅡ -8277
▁ㅇㅑㅇㄴㅕㅁ -8278
▁id -8279
ㅆㅓㅂ -8280
▁1900 -8281
▁ㅅㅓㅇㄴㅕ -8282
▁PSP -8283
▁ㅅㅓㄱㅎㅘ -8284
▁ㅋㅗㅅ -8285
▁Tri -8286
▁ㅎㅕㅂㄱㅗㄱ -8287
▁ㅃㅏㄱㅅㅔ -8288
▁png -8289
ㄲㅗㄹ -8290
▁kn -8291
▁ㅇㅣㅁㄱㅘㄴ -8292
▁ㅂㅗㄱㅇㅡㅁ -8293
▁ㅅㅓㄴㄱㅗㅇ -8294
▁ㅋㅡㄹㄹㅏㄱ -8295
▁ㅇㅕㅁㅅㅗ -8296
▁181 -8297
▁8000 -8298
▁ㅂㅣㄱㅌㅓ -8299
▁ㄱㅕㅇㅈㅐㅇㄹㅕㄱ -8300
▁UR -8301
▁ㅍㅕㅇㅇㅝㄴ -8302
▁ㅈㅓㅇㄷㅗㅇ -8303
▁ㅁㅜㄴㅎㅓㄴ -8304
▁DT -8305
▁ㅁㅏㄴㅎㅚ -8306
▁ㅇㅣㅂㅊㅔ -8307
ful -8308
uch -8309
▁ㄷㅗㅇㅊㅏㅁ -8310
▁ㄱㅜㄴㅂㅓㄹ -8311
▁ㅆㅡㅂㅆㅡㄹ -8312
ㅌㅐㄴㄷㅏ -8313
▁ㅂㅗㅇㄱㅣ -8314
ㅇㅙ -8315
▁ㅇㅕㄴㅎㅕㄱ -8316
▁ㄱㅕㄱㄷㅗㄹ -8317
▁ㅇㅝㄴㄱㅕㄱ -8318
▁ㅊㅓㄴㅎㅘㅇ -8319
▁ㅊㅏㅇㅇㅢ -8320
▁ㅂㅏㅇㄹㅏㅇ -8321
▁Ext -8322
▁ㄴㅏㄴㄷㅗㅇ -8323
▁XP -8324
ㅅㅡㅇㅎㅘㄴ -8325
bl -8326
▁ㅅㅓㅇㅁㅗ -8327
▁ㄱㅕㄱㄴㅗ -8328
ㅇㅕㅇㅈㅏㅇ -8329
▁ㄱㅕㄴㅇㅣㄴ -8330
▁ㄴㅏㅊㅅㅓㄹ -8331
▁ㅅㅐㅇㅁㅗㄹ -8332
▁ㅈㅣㄱㄱㅘㄴ -8333
ㅈㅣㅂㅇㅓ -8334
▁ㅌㅗㅇㅇㅛㅇ -8335
▁RS -8336
ship -8337
▁ㅇㅝㄴㄴㅕㄴ -8338
85 -8339
▁ㅂㅗㅇㅎㅘㅇ -8340
▁ㅅㅓㅇㄱㅠㄴ -8341
▁ㅅㅓㄴㅊㅔ -8342
▁ㅅㅏㅇㅇㅝㄴ -8343
▁ㅂㅏㄱㅅㅔ -8344
ㅈㅜㅇㄱㅜㄱ -8345
▁ㅅㅗㅇㅇㅣ -8346
▁STAR -8347
▁ㄷㅏㄴㄷㅏ -8348
▁ㅇㅠㄴㅈㅗㅇ -8349
▁ㅅㅓㅇㄱㅠㄴㄱㅘㄴ -8350
▁ㅇㅑㅇㅁㅕㄴ -8351
▁1948 -8352
▁ㅎㅏㄱㅊㅏㅇ -8353
▁ㅂㅚ -8354
▁ㅂㅜㄴㅅㅏ -8355
▁ㅈㅏㅁㅂㅗㄱ -8356
▁ㄱㅏㄹㄹㅐ -8357
▁ㅅㅗㅇㅂㅕㅇ -8358
▁ㅇㅕㄱㄱㅣ -8359
▁ㅎㅡㄱㅂㅐㄱ -8360
▁qu -8361
▁ㅍㅜㅇㅈㅏ -8362
▁255 -8363
ㅈㅓㄴㄱㅣ -8364
▁Inf -8365
▁Bar -8366
▁Sil -8367
ㅇㅕㅇㅅㅜ -8368
▁ㅇㅣㅁㅍㅡ -8369
ㄱㅜㅇㅊㅏㅇ -8370
ㅇㅛㄴ -8371
▁ㅂㅓㄹㅊㅣㄱ -8372
▁KS -8373
▁ㄱㅜㄴㅅㅏㄴ -8374
▁ㅈㅡㄹㄱㅓ -8375
▁ㅊㅓㅇㄹㅑㅇ -8376
ㅊㅘㄹ -8377
▁ㅇㅘㅇㄱㅜㅇ -8378
▁ㅈㅓㄴㄴㅕㄴ -8379
▁OR -8380
▁White -8381
▁ㅅㅗㄴㄴㅕ -8382
▁Win -8383
▁Back -8384
▁ㅅㅗㅇㄷㅗ -8385
▁ㅈㅣㄴㄱㅘ -8386
▁ㅊㅏㅇㅅㅣ -8387
ump -8388
ㅁㅜㅅ -8389
co -8390
▁ㅈㅗㅁㅊㅓ -8391
▁ㅈㅏㄱㄹㅕㄹ -8392
▁ㅇㅘㅇㄸㅏ -8393
ㅎㅕㄱㅁㅕㅇ -8394
▁ㄴㅗㅇㅇㅓ -8395
▁ㅋㅗㄴㅋㅡ -8396
▁PO -8397
26 -8398
ift -8399
▁PM -8400
▁jp -8401
▁ㅉㅜ -8402
▁ㅇㅕㄴㄹㅜ -8403
▁ㄷㅏㄴㅅㅣㄴ -8404
▁Fre -8405
▁ㅈㅓㅂㅅㅣ -8406
▁ㅍㅗㄱㅍㅗ -8407
▁down -8408
ㅇㅣㄴㄷㅓ -8409
▁ㅋㅏㄴㄴㅏ -8410
▁ㅂㅏㄱㅁㅣㄴ -8411
▁ㄱㅏㄴㅅㅣㄱ -8412
▁ㅃㅓㅇㅌㅟ -8413
RAM -8414
▁NG -8415
▁420 -8416
ㅎㅡㄹ -8417
ㅈㅓㅇㅅㅏ -8418
ㅇㅡㄱㄱㅗ -8419
ㅌㅡㄹㄹㅣㅇ -8420
▁ㅌㅡㄱㅊㅘㄹ -8421
▁ㅅㅣㄹㅎㅓㅁㅅㅣㄹ -8422
▁ㅅㅐㄱㅊㅐ -8423
▁ㅎㅏㄱㄱㅖ -8424
ㅈㅓㅇㄷㅗㅇ -8425
▁ㅈㅓㅇㅇㅠ -8426
▁GL -8427
▁ㅋㅓㄴㅌㅔ -8428
▁215 -8429
▁ㄱㅡㅁㅈㅓㄴ -8430
▁ㅇㅏㅍㅁㅏ -8431
▁ㅁㅐㄱㄷㅗ -8432
ENT -8433
▁ㄱㅘㄴㅇㅏㄱ -8434
▁ㅁㅏㄷ -8435
▁ㅂㅐㄱㅅㅐㄱ -8436
▁ㅎㅚㅇㄷㅏㄴ -8437
▁ㅌㅔㄴㅅㅕㄴ -8438
▁FE -8439
▁off -8440
▁1949 -8441
ATION -8442
ㅇㅐㅇ -8443
▁ㅊㅣㄴㅁㅣㄹ -8444
▁every -8445
ㄱㅙ -8446
▁Met -8447
ㅊㅓㄴㄷㅗㅇ -8448
▁ㅇㅛㄱㄱㅜ -8449
▁ㅈㅜㅇㅇㅓㄹㄱㅓ -8450
edia -8451
▁ㄱㅏㅇㅂㅕㄴ -8452
▁ㅅㅣㄹㅊㅓㄴ -8453
ㅇㅓㄴㄱㅏ -8454
▁ㅋㅗㄴㅌㅔ -8455
ㅈㅗㅇㅇㅣㄹ -8456
ㅍㅣㅇㅁㅗㄹ -8457
ㅇㅜㄹㅇㅕㄱ -8458
▁Sky -8459
ㄷㅡㄱㅈㅓㅁ -8460
ㄱㅏㄱㅅㅣ -8461
▁ㅂㅣㄹㅁㅣ -8462
▁ㅅㅓㅇㅍㅗㄱㅎㅐㅇ -8463
▁Hey -8464
ㅂㅗㄴㅈㅜ -8465
▁ㅅㅓㅇㅅㅓ -8466
▁ㅅㅓㄴㄱㅜ -8467
▁ㅌㅡㄹㄹㅣㅁ -8468
▁CEO -8469
ㅌㅣㄹㄹㅣ -8470
▁ㅇㅕㄹㅍㅜㅇ -8471
▁ㅇㅣㄴㅈㅏㅇ -8472
▁ㅇㅏㄴㄷㅗ -8473
▁ㅇㅣㄴㅍㅡ -8474
▁ㅇㅠㄱㅂㅏㄱ -8475
▁ㅎㅏㄴㄱㅏ -8476
▁ㄷㅡㅁ -8477
▁ㅇㅑㅇㄷㅗㅇ -8478
ALL -8479
▁ㅂㅕㅇㅁㅏㅅ -8480
▁208 -8481
▁ㅎㅕㄴㅈㅗㄴ -8482
▁ㅂㅕㄴㅈㅗㅇ -8483
▁ㅁㅣㄴㅈㅗㄱㅈㅜ -8484
▁ㄹㅓㅂ -8485
▁ㄴㅏㅁㅇㅛㅇ -8486
▁ㄱㅘㅇㅂㅜ -8487
▁Act -8488
▁235 -8489
ERT -8490
▁UFO -8491
▁ㄷㅗㅇㅅㅓㄴ -8492
▁}{ -8493
▁FN -8494
ㅎㅏㄴㅎㅏㅇㄱㅗㅇ -8495
▁ㅇㅠㄱㅅㅣㄱ -8496
ㅇㅏㄴㄱㅜㄴ -8497
▁1936 -8498
▁ㅎㅑㅇㅅㅜ -8499
ㅇㅔㅁ -8500
ㅅㅓㄴㄷㅗ -8501
▁ㄹㅓㄴㄴㅣㅇㅁㅐㄴ -8502
▁333 -8503
▁ㅈㅓㅇㅎㅕㄴ -8504
▁ㄱㅐㅂ -8505
▁ㅅㅏㅂㅎㅘ -8506
BM -8507
oud -8508
▁ㅊㅜㄹㅅㅐㅇㅈㅣ -8509
▁ㅂㅕㅇㅇㅕㅇ -8510
▁ㅍㅕㄴㅈㅔ -8511
▁FX -8512
less -8513
ㅆㅡㄹㄹㅣ -8514
▁ve -8515
▁That -8516
▁ㅎㅟㅂㅆㅡㄹㄹㅣ -8517
▁ㄹㅏㄹㄲㅏ -8518
▁TD -8519
▁ㅇㅏㄹㄹㅜ -8520
▁ㅊㅓㄹㅎㅚ -8521
▁206 -8522
▁ㄷㅓㅇㅋㅡ -8523
ize -8524
▁NL -8525
ㅍㅣㅇㅋㅡ -8526
▁ㅎㅏㅂㅂㅏㅇ -8527
▁Song -8528
▁ㄴㅏㄴㅍㅗㄱ -8529
▁em -8530
▁ㅇㅏㄹㅂㅣ -8531
▁ㅈㅓㅇㅈㅏ -8532
▁ㅎㅏㅇㅅㅗㄱ -8533
▁ㄱㅡㄱㅊㅏㄴ -8534
ㄷㅗㅇㅂㅕㄴ -8535
95 -8536
▁ㅎㅔㄹㄹㅔ -8537
ㄷㅗㅇㅂㅕㄴㅅㅗㄱㄱㅣ -8538
▁con -8539
▁May -8540
▁ㅊㅏㅁㅍㅐ -8541
▁ㅅㅓㅇㅁㅜㄴ -8542
▁ㅅㅓㄹㅅㅏ -8543
ㄷㅣㅈㅊㅣ -8544
bps -8545
ㅂㅏㅇㅎㅑㅇ -8546
▁ㅁㅜㄴㅇㅢ -8547
▁ㄱㅕㅇㅇㅣㄴ -8548
▁ㅈㅓㄻㅇㅡㄴㅇㅣ -8549
▁ㅅㅗㄱㅇㅗㅅ -8550
▁161 -8551
▁ㅁㅕㄹㅈㅏ -8552
▁ㅇㅕㅇㄹㅣ -8553
▁ㅂㅗㄴㄱㅜㄱ -8554
▁ㅅㅞㄹ -8555
VEL -8556
▁ㅅㅓㅇㄱㅓㅁ -8557
▁ㄱㅘㅇㅈㅓ -8558
ㄱㅡㅂㅅㅏ -8559
ape -8560
▁ㅌㅣㅁㅋㅣㄹ -8561
▁850 -8562
UB -8563
▁GAM -8564
▁ㅇㅑㄴㄷㅔ -8565
▁want -8566
▁God -8567
ㅅㅓㄱㅂㅓ -8568
▁ㄲㅡㅌㅍㅏㄴ -8569
▁ㅍㅜㄹㅂㅐㄱ -8570
ㅁㅕㅇㅅㅔ -8571
ㅂㅓㅂㅇㅝㄴ -8572
ger -8573
▁ㅅㅗㅇㄱㅗㅅ -8574
▁ㅈㅓㅇㅂㅓㄹ -8575
▁ㅂㅐㄴㅅㅣ -8576
IST -8577
96 -8578
▁ㅈㅏㅇㄹㅐ -8579
ㅂㅏㅇㅅㅏ -8580
▁ㅂㅕㄱㄷㅗㄹ -8581
▁ㅅㅓㄴㅂㅏㄹㅈㅓㄴ -8582
▁Rain -8583
▁ㅂㅜㄱㄱㅡㄱ -8584
aka -8585
ㅂㅏㄹㄹㅣ -8586
▁RAM -8587
▁ㄷㅗㄱㅅㅓㅇ -8588
ㄱㅅㅕㄴ -8589
▁ㅇㅕㅇㅈㅏㅇ -8590
ita -8591
▁ㅇㅓㄴㄹㅏㄱ -8592
▁ㅅㅗㄴㅅㅜ -8593
▁ㄴㅏㅁㄱㅜ -8594
ㅅㅣㄹㅎㅣ -8595
▁ㅇㅕㅇㅊㅏㅇ -8596
▁ㅈㅣㅇㅂㅕㅇ -8597
▁ㅊㅓㅇㅅㅐㄱ -8598
ㄹㅣㄴㅇㅐ -8599
▁ㅂㅜㄱㄷㅜ -8600
▁290 -8601
▁ㅅㅓㅇㅈㅜ -8602
▁ㅂㅗㄱㅈㅗㅇ -8603
▁RF -8604
zy -8605
▁ㅅㅣㅁㅅㅣㅁㅊㅏㄶ -8606
▁Top -8607
ㄹㅓㄱㅅㅡ -8608
▁ㄴㅏㄴㅎㅐ -8609
▁ㄱㅘㅇㅅㅣㄴ -8610
▁ㅂㅜㄹㅇㅜㄴ -8611
▁ㅈㅓㅇㄹㅕㄹ -8612
▁ㄴㅔㄱㅅㅡ -8613
ㅈㅔㅅ -8614
▁ㄱㅕㅇㅇㅟ -8615
76 -8616
▁ㅅㅓㄴㄷㅗ -8617
ORM -8618
▁ㄷㅏㄴㄱㅏㄴ -8619
▁ㄷㅏㅇㅂㅜㄴㄱㅏㄴ -8620
▁ㅊㅣㄴㅇㅣㄹ -8621
▁." -8622
ㄲㅡㅌ -8623
▁ㅈㅗㅈ -8624
ㄱㅏㄱㅅㅓㄴ -8625
▁ㅋㅝㅇ -8626
▁more -8627
▁ㅇㅕㄹㅈㅓㄴ -8628
▁ㅈㅔㅅ -8629
rop -8630
▁ㅇㅜㄹㅂㅜ -8631
▁ㅌㅡㄱㅊㅜㄹ -8632
ㄱㅕㄱㄱㅣ -8633
▁ㅈㅓㄹㅁㅛ -8634
ㅇㅕㄴㅎㅏㅂ -8635
▁ㅈㅜㄹㅈㅜㄹㅇㅣ -8636
▁ㅅㅓㄱㅌㅏㄴ -8637
▁ㅋㅏㄹㄹㅓㅁ -8638
▁ㅊㅐㄱㅇㅣㅁㅈㅏ -8639
▁Pe -8640
▁WAR -8641
▁ㅈㅓㄴㅇㅛㅇㄱㅣ -8642
ㅇㅜㄴㅈㅓㄴ -8643
▁ㅂㅐㄹㄹㅣ -8644
▁1955 -8645
ㅇㅏㅁㄷㅗㅇ -8646
▁ㅎㅐㅁㅂㅓ -8647
▁ㅇㅕㄱㅎㅏㄱ -8648
▁ㅈㅗㄴㅅㅗㄱ -8649
▁Battle -8650
ㅌㅓㅂ -8651
▁ㄴㅏㅁㅇㅑㅇㅈㅜ -8652
▁ㅌㅡㄱㄱㅗㅇㄷㅐ -8653
ㅊㅏㅇㄹㅕㄱ -8654
IGHT -8655
▁ㅈㅓㄴㅇㅜ -8656
▁Moon -8657
▁ㅊㅣㅇㅅㅗㅇ -8658
ㅋㅘ -8659
ㅈㅏㄱㅈㅓㄴ -8660
▁ㅇㅕㄱㅈㅓㄴㅅㅡㅇ -8661
ㅊㅓㄴㅇㅕㄱ -8662
▁Game -8663
▁ㅈㅜㅇㅅㅓㅇ -8664
▁ㄱㅏㅂㅍㅏㄴ -8665
bo -8666
net -8667
ㅈㅜㄴㅎㅕㄱ -8668
ward -8669
▁ㅅㅑㄹ -8670
▁ㅇㅣㄹㅈㅣㄱ -8671
▁ㅎㅐㅇㄷㅗㅇㄹㅕㄱ -8672
ㄱㅕㅇㅁㅣㄴ -8673
ara -8674
▁ㅅㅓㄴㅍㅜㅇ -8675
▁TEC -8676
▁ㄱㅗㄱㅅㅓㄴ -8677
▁ㅊㅗㅇㅌㅗㅇ -8678
ㅇㅣㄴㅅㅡ -8679
▁ㅁㅏㅇㅇㅝㄴ -8680
row -8681
▁ㅆㅗㄹㄹㅣ -8682
OK -8683
▁ㅇㅕㅇㄹㅏㄱ -8684
com -8685
ㅇㅜㅅㅇㅡㅁ -8686
ㅂㅡㄹㄹㅐㄴㄷㅡ -8687
ren -8688
▁ㅇㅣㄴㅁㅣㄴㄱㅗㅇㅎㅘ -8689
▁ㄱㅗㄹㄷㅐ -8690
▁SUP -8691
ㅁㅜㄴㅈㅏ -8692
▁Dragon -8693
▁KG -8694
ㄸㅜㄹ -8695
▁ㄱㅕㅇㅇㅣ -8696
▁ㅅㅣㄴㄴㅗ -8697
▁212 -8698
▁ㅁㅣㄴㅈㅣ -8699
▁NS -8700
ㄸㅔ -8701
ㅂㅏㄼ -8702
▁max -8703
▁ㅈㅗㅇㅈㅏ -8704
▁ㄱㅣㅁㅇㅣㄴ -8705
▁ㅅㅣㅁㅍㅡㄹ -8706
▁LS -8707
▁ㅂㅜㄱㅇㅠ -8708
▁Bra -8709
▁ㅍㅐㄱㅌㅗ -8710
▁1959 -8711
▁ㄱㅏㅇㄷㅏㅇ -8712
▁ㅁㅗㄴㅌㅔ -8713
▁ㅂㅗㄴㅁㅜㄴ -8714
▁ㅎㅡㄱㄹㅛㅇ -8715
▁ㅇㅘㅇㄴㅕ -8716
ㅅㅓㅇㅈㅜ -8717
led -8718
▁ㄱㅡㄹㄹㅣ -8719
▁they -8720
▁LCD -8721
▁ㅁㅝㅅ -8722
ㅅㅗㄹㄹㅣㄴ -8723
ㅅㅏㅇㅎㅕㄴ -8724
▁Special -8725
ㄸㅗ -8726
▁ㄱㅣㅁㅎㅕㄴㅅㅜ -8727
▁ㄱㅘㄴㅈㅔ -8728
▁ㅎㅏㄹㄷㅏㅇ -8729
ㄹㅣㅁㅅㅡㄴ -8730
ㄱㅐㅇ -8731
▁ㅂㅗㄹㄹㅣ -8732
▁ㅅㅣㄹㅂㅣ -8733
▁ㅂㅏㄹㅅㅏㄴ -8734
▁ㄱㅘㅇㅎㅘ -8735
ㄴㅏㄴㄷㅗ -8736
▁ㅇㅏㅇㄹㅣ -8737
▁ㅎㅕㅂㄱㅗㅇ -8738
▁ㄱㅜㄱㅅㅏ -8739
▁ㅍㅔㄴㅅㅡ -8740
▁ㅈㅏㄴㄷㅏㅇ -8741
▁001 -8742
▁ㅇㅕㄴㅂㅏㅇㄱㅜㄴ -8743
▁ㅎㅐㄱㅁㅜ -8744
▁ㅇㅗㄴㅈㅓㄴㅎㅣ -8745
aven -8746
▁ㅇㅐㄴㄷㅓ -8747
▁ㅎㅔㄹㄹㅗ -8748
▁ㅂㅣㄴㅅㅡ -8749
▁1956 -8750
▁ㅈㅓㅇㅇㅣㄴ -8751
▁ㅎㅐㅇㅅㅓㄴ -8752
▁ㄷㅏㄴㄷㅏㄴㅎㅣ -8753
▁ㅎㅘㄹㅈㅜ -8754
▁ㄷㅟㅅㅂㅏㄷㅊㅣㅁ -8755
▁wiz -8756
▁Amer -8757
▁ㅌㅡㄱㅎㅓ -8758
LD -8759
▁ㄱㅏㅇㅇㅕㄴ -8760
▁Pop -8761
▁ㅂㅔㄹㅂㅔㅅ -8762
▁ㅈㅏㅇㅁㅏㄱ -8763
▁ㅎㅕㅂㅇㅑㄱ -8764
▁Track -8765
▁ㅅㅣㄴㄱㅗㅇ -8766
ㅏㅇㅛ -8767
▁ㄷㅡㅇㅅㅏㄴ -8768
▁DAY -8769
▁ㅆㅐ -8770
ㅋㅣㅁ -8771
▁tw -8772
▁ㅌㅏㄹㄱㅓㅅ -8773
▁ㅇㅣㄴㅂㅜㄴ -8774
▁ㅊㅣㄹㅎㅡㄱ -8775
▁FFFF -8776
▁ㅇㅗㄴㅎㅘ -8777
▁ㅅㅓㄱㅂㅏㅇ -8778
▁ㅇㅣㅂㅅㅓㅇ -8779
▁TG -8780
▁ㅋㅚ -8781
▁ㅇㅡㅁㅇㅑㅇ -8782
▁ㅎㅏㅂㅅㅏㄴ -8783
ㅂㅏㅇㅅㅣㄱ -8784
▁ㅂㅐㄱㅅㅣㄴ -8785
▁ㄹㅏㄹㅍㅡ -8786
▁ㅅㅓㄴㅈㅣㄴㄱㅜㄱ -8787
▁ㅋㅏㄹㄹㅗ -8788
▁ㅅㅣㄴㄹㅕㅇ -8789
▁ㅂㅏㄹㄱㅏㄴ -8790
▁Cont -8791
ㅇㅗㄹㄹㅔㅅ -8792
▁ㅊㅓㅂㅂㅗ -8793
▁1939 -8794
▁ㅁㅔㄹㄹㅣ -8795
▁ㅈㅓㄱㅈㅓㅇ -8796
▁ㄱㅕㅇㅅㅣㄴ -8797
ㅊㅔㄴ -8798
▁TN -8799
▁ㄷㅏㄴㅈㅓㄹ -8800
▁ㄱㅏㅁㄷㅗ -8801
ㄹㅔㄱㅌㅡ -8802
▁ㅇㅣㅁㅈㅣㄴㅇㅙ -8803
▁ㄱㅏㄱㄱㅣ -8804
▁ㅇㅔㅁㅍㅏ -8805
ㄱㅡㅂㅍㅜㅁ -8806
▁ㅃㅏㅇㅃㅏㅇ -8807
▁ㅇㅕㄱㄱㅘㄴ -8808
▁ㅁㅔㅅㄷㅙ -8809
▁ㅈㅔㄴㅈㅣ -8810
ㄲㅜㄹ -8811
play -8812
ㅈㅏㅇㄱㅜ -8813
▁ㅈㅡㅇㅎㅜ -8814
▁". -8815
ands -8816
▁Yes -8817
▁ㅁㅕㅇㄹㅕㅇㅇㅓ -8818
▁ㅍㅏㄹㄲㅜㅁㅊㅣ -8819
▁ㅈㅜㅇㅇㅢ -8820
▁207 -8821
34 -8822
▁ㅎㅘㅇㅈㅏ -8823
▁ㄷㅏㄴㄱㅓ -8824
▁baby -8825
▁COM -8826
ㅇㅣㅂㄱㅜ -8827
ㅈㅓㅇㅎㅗ -8828
▁ㄹㅐㄴㄷㅣ -8829
▁ㄷㅏㄴㅂㅐㄱ -8830
ㅇㅞㅂ -8831
▁ㄱㅘㄴㄷㅐ -8832
▁ㅍㅜㅅㅂㅗㄹ -8833
▁ㄷㅗㅇㅁㅜㄹㅇㅝㄴ -8834
▁ㅎㅟㅂㅆㅡㄹ -8835
▁ㄷㅏㄴㅁㅏㄹㄱㅣ -8836
ze -8837
ㅈㅜㄴㅅㅓㄱ -8838
▁ㅂㅜㄹㄱㅣ -8839
ㅈㅓㄱㅎㅘ -8840
▁ㄱㅓㅌㅂㅗ -8841
▁ㅂㅜㄴㅈㅏ -8842
▁520 -8843
ㅁㅣㅌ -8844
▁good -8845
▁ㄱㅏㄱㅅㅐㄱ -8846
▁ㅎㅕㄴㅈㅓ -8847
▁ㅇㅣㄴㅅㅣㄴ -8848
ㅌㅡㄹㅍㅣㄹㄷㅡ -8849
ien -8850
▁777 -8851
▁over -8852
▁ㅇㅕㅇㅈㅐ -8853
▁ㅂㅏㄱㄱㅣ -8854
▁ㅂㅜㅇㄷㅐ -8855
▁PA -8856
▁ㄱㅗㅇㅂㅕㅇ -8857
▁Hot -8858
ㅜㄹㄹㅣ -8859
▁ㄱㅡㅁㅅㅓㅇ -8860
ㅍㅜㅁㄱㅜㄴ -8861
ㄱㅡㅁㄱㅏ -8862
ㅇㅛㅇㅊㅏ -8863
▁BASIC -8864
▁ㄷㅡㄹㅌㅗㅇ -8865
ited -8866
▁ㅊㅓㄴㅊㅔ -8867
ㅇㅕㅁㅂㅏㅇㅅㅏ -8868
▁ㄴㅔㅂㅌㅠㄴ -8869
▁ㅅㅏㅇㅈㅓㅇ -8870
▁ㅊㅣㄴㄱㅡㄴ -8871
ㅂㅣㄱ -8872
▁ㅁㅜㄴㅎㅗ -8873
▁ㅇㅗㄱㅅㅜ -8874
▁ㅎㅏㅇㄹㅗ -8875
▁ㅊㅓㄹㅂㅕㄱ -8876
▁Mir -8877
▁ㅈㅣㅂㅈㅓㅇㄱㅘㄴ -8878
▁ㅅㅗㅇㅍㅏ -8879
▁ㄷㅏㄴㅇㅕㄴ -8880
▁..' -8881
▁IDOLM -8882
▁ㅅㅓㅇㄱㅡㅂ -8883
▁ㅈㅓㅇㅈㅔ -8884
▁ㅇㅡㄴㄱㅏ -8885
▁ㅎㅏㄴㄱㅕㄹ -8886
▁209 -8887
▁ㄷㅗㅇㅍㅗ -8888
▁ㅃㅜㅁㅇㅓ -8889
ㄷㅗㅇㄷㅏㅇ -8890
ㄸㅗㅇ -8891
▁ㄴㅜㄴㅂㅜ -8892
▁ㅅㅏㅇㄹㅠ -8893
▁ㅇㅏㄴㅌㅔ -8894
▁ㄱㅣㅁㅌㅐㄱㅇㅛㅇ -8895
ㄷㅜㄹㄱㅣ -8896
▁ㅂㅏㄹㅌㅡ -8897
▁Bur -8898
▁ㄱㅏㅁㅅㅗㄱ -8899
au -8900
▁~' -8901
▁ㅅㅜㄴㅅㅜㄴ -8902
▁ㅅㅣㅁㅅㅡㄴ -8903
▁ㅈㅏㅇㄷㅗㅇㅁㅣㄴ -8904
▁ㅅㅓㄴㅂㅣ -8905
▁col -8906
▁ㅈㅜㅇㄹㅕㅇ -8907
▁ㅅㅓㄴㅁㅕㅇ -8908
▁ㅇㅣㄹㄱㅏㄹ -8909
▁Project -8910
▁ㅇㅓㄱㅇㅏㅂ -8911
▁TF -8912
ㅂㅡㄹㄹㅏㅇ -8913
▁ㅁㅣㄴㅂㅕㅇㄷㅐ -8914
▁ㄱㅣㅁㅇㅕㅇㅅㅏㅁ -8915
▁ㅈㅓㄴㄹㅠ -8916
ㅌㅐㄴㄷㅣㅇ -8917
ㅂㅏㄲ -8918
▁Sur -8919
▁1400 -8920
▁ㄱㅏㄴㅈㅏㅇ -8921
▁ㄷㅏㅇㄱㅡㄴ -8922
▁ㅁㅕㅇㅇㅣㄴ -8923
▁ㅈㅡㅇㅇㅝㄴ -8924
▁ㅂㅏㄹㄷㅗ -8925
36 -8926
▁ㅅㅣㄴㅊㅗㄴ -8927
▁ㅈㅏㅇㄷㅏㄴ -8928
▁ㅈㅓㅇㅈㅣㄱ -8929
▁Off -8930
ㄹㅏㄴㅊㅡ -8931
ㄹㅗㄴㅌㅣ -8932
▁ㅂㅐㄱㅅㅜ -8933
▁ㅌㅏㄴㅅㅜ -8934
▁yeah -8935
▁ㄱㅣㄴㅈㅏㅇㄱㅏㅁ -8936
▁ㅎㅕㄴㅈㅣㄹ -8937
▁ㅎㅘㅇㅈㅗㄱ -8938
▁ㄱㅜㄴㅈㅜㅇ -8939
▁ㄲㅡㄶㅇㅣ -8940
▁ㅇㅜㄴㅈㅓㄴㅈㅏ -8941
ius -8942
▁ㅎㅐㅇㅈㅓㅇㅂㅜ -8943
▁ㅌㅗㄱㅌㅗㄱ -8944
▁ㅇㅕㄱㅈㅓㄴㅍㅐ -8945
▁ㄱㅜㄴㄷㅏㄴㅈㅏㅇ -8946
▁ㅈㅣㅅㅂㅏㄼ -8947
21 -8948
▁KD -8949
▁ㅊㅏㅇㅇㅝㄴㅅㅣ -8950
▁ㄱㅜㄻㅈㅜ -8951
▁ㅊㅣㅁㅅㅣㄱ -8952
▁ㄱㅕㄹㅂㅕㄹ -8953
▁ㅇㅣㅁㅍㅔ -8954
▁ㅊㅜㄹㅅㅔ -8955
▁FFFFFF -8956
▁Bad -8957
▁ㅌㅏㄹㅌㅏㄹ -8958
▁ㅅㅓㄴㅎㅕㅇ -8959
oney -8960
ㄴㅡㄹㅅㅐㄱ -8961
HD -8962
UK -8963
▁ㅅㅣㅁㅍㅗ -8964
▁ㅇㅏㄴㅊㅣ -8965
▁ㅊㅓㄴㄷㅗ -8966
ata -8967
ㄷㅜㄹㄹㅣ -8968
ㄱㅜㄱㅁㅣㄴ -8969
▁ㅇㅐㄱㅌㅡ -8970
AA -8971
ㅌㅐㄴㅅㅡ -8972
▁ㅂㅜㄴㅈㅓㄴ -8973
▁1938 -8974
▁WOR -8975
▁ㄱㅗㅇㅅㅓㄱ -8976
▁ㅇㅏㄴㅈㅜㅇ -8977
▁ㅈㅓㄴㄱㅏㄹ -8978
▁ㅌㅔㅁㅍㅡㄹㄹㅓ -8979
▁bo -8980
ㄹㅣㄴㅌㅡ -8981
▁ㅅㅜㄴㅅㅜㄴㅎㅣ -8982
ㄹㅓㅇㅇㅣ -8983
ㅍㅏㄴㅅㅗ -8984
▁ㅅㅏㄴㅎㅘ -8985
▁ㄱㅘㄴㄱㅓㄴ -8986
▁ㅈㅓㅇㅇㅕㄴ -8987
▁Po -8988
▁ㅇㅛㄴ -8989
▁ㅎㅏㄱㅇㅓㅂ -8990
▁Int -8991
▁ㄱㅣㅁㅅㅗ -8992
▁ㄱㅓㄹㅅㅡ -8993
ㅅㅏㅇㄱㅜㄴ -8994
▁ㅁㅕㅇㅍㅜㅁ -8995
ㄹㅏㄴㅌㅣ -8996
▁ac -8997
▁ㄱㅝㄴㄱㅗ -8998
▁ㅎㅑ -8999
INE -9000
▁ㄱㅗㄷㅇㅣ -9001
▁ㅂㅔㄱ -9002
vent -9003
▁ㅅㅔㄱㅌㅓ -9004
▁ㅁㅕㄴㅇㅡㄴ -9005
▁ㅅㅏㄴㅅㅏㄴ -9006
▁ㅎㅕㄴㅎㅐㅇ -9007
▁ㅇㅕㅇㄹㅕㅇ -9008
▁Are -9009
ㄱㅏㅁㅊㅣ -9010
▁ㅈㅗㄹㅈㅣ -9011
▁Ul -9012
▁ㄷㅏㄴㅂㅓㄴㅇㅔ -9013
▁DDR -9014
▁ㄲㅗㅁㅉㅏㄱ -9015
▁ㅇㅡㅇㅈㅣㅇ -9016
▁ㅅㅓㅇㅇㅠ -9017
▁ㅊㅗㅇㄱㅜ -9018
▁275 -9019
▁say -9020
▁WCS -9021
line -9022
▁ㅈㅜㄴㅇㅣ -9023
▁ㅈㅡㄱㅅㅓㄱ -9024
▁Ass -9025
▁ㅊㅓㄱㅎㅏ -9026
ㅈㅏㅇㅈㅏㅇㅇㅣ -9027
▁#, -9028
ㅋㅓㄴㄷㅐ -9029
▁JC -9030
▁ㅅㅐㄴㄷㅣ -9031
▁ㅇㅓㅅㄱㅏㄹㄹㅣ -9032
▁'- -9033
▁ㄱㅘㅇㅎㅏㄱ -9034
▁ㅆㅐㅇ -9035
▁ㅇㅘㄴㅈㅜ -9036
▁ㄱㅐㅇㄷㅏㄴ -9037
▁TWICE -9038
▁PvP -9039
ㄷㅡㅂㄴㅏ -9040
▁ㅅㅏㄴㅊㅔ -9041
▁ㅅㅣㄴㅎㅏㄴㅇㅡㄴㅎㅐㅇ -9042
▁org -9043
ㅎㅗㅇㅊㅓㄹ -9044
▁221 -9045
▁ㅇㅣㄹㄹㅜ -9046
▁ㅇㅛㅇㅍㅜㅁ -9047
ㅌㅜㄱㅌㅟ -9048
▁ㅎㅐㅇㄱㅏㄱ -9049
▁ㄹㅣㄱㅅㅡ -9050
UL -9051
▁ㄱㅓㄴㄹㅣㅂ -9052
▁ㅁㅓㄹㄹㅣㄴ -9053
ague -9054
▁ㅉㅗㄱㅈㅣ -9055
ㅌㅡㄹㄹㅐㄴ -9056
▁ㄹㅏㄴㅌㅡ -9057
▁ㅈㅡㅁ -9058
▁ㄱㅏㅂㅌㅜㄱㅌㅟ -9059
▁AMD -9060
▁ㅍㅗㄱㅌㅜ -9061
ㄷㅓㄼ -9062
▁ㅇㅔㄹㅅㅗ -9063
▁ㅁㅔㄱ -9064
ton -9065
▁Eng -9066
▁see -9067
▁ㅂㅓㄴㄱㅓ -9068
▁ㅉㅓ -9069
▁ㅍㅗㄱㄱㅜㄴ -9070
ㅋㅔㄹㄹㅔ -9071
▁Match -9072
▁ㅇㅣㄹㅉㅣ -9073
ck -9074
UST -9075
78 -9076
▁Char -9077
ㄱㅗㅇㅈㅜ -9078
▁ㄱㅣㄹㅁㅗㄱ -9079
▁ㅎㅣㅁㅆㅡ -9080
▁ㅎㅗㅁㄱㅜ -9081
▁ㅉㅏㄹㅁㅏㄱ -9082
▁ㄱㅕㅇㅈㅓㄴㅊㅏ -9083
▁ㄱㅜㄱㅅㅜ -9084
▁ㅇㅏㅍㅉㅗㄱ -9085
▁ㅈㅣㄴㄱㅗㅇ -9086
▁fr -9087
▁ㄹㅡㅇ -9088
ㅋㅡㄹㄹㅐㄴㄷㅡ -9089
ㄴㅏㄴㄷㅔ -9090
▁1952 -9091
▁ㅇㅜㄹㅂㅓ -9092
und -9093
ㄱㅕㄱㄷㅐ -9094
▁ㅎㅣㅁㄱㅕㅂ -9095
▁ㅂㅏㅇㄷㅐ -9096
▁ㅌㅏㄹㅈㅜ -9097
▁XY -9098
ㅍㅏㄴㄱㅣ -9099
▁Now -9100
▁ㅅㅡㄹㅉㅓㄱ -9101
▁RED -9102
▁ㅂㅗㄹㅇㅣㄹ -9103
erm -9104
ute -9105
▁ㅇㅣㄹㅅㅓㄴ -9106
ㅁㅣㄴㅎㅗ -9107
▁ㅇㅛㄱㅁㅓㄱ -9108
▁ㄱㅡㅁㄱㅗㄱ -9109
▁ㅈㅓㅇㅈㅜㅇ -9110
ㅅㅓㅇㅅㅣ -9111
▁ㅁㅜㄱㅈㅣㄱ -9112
▁ㅇㅣㄹㅈㅣㄱㅅㅓㄴ -9113
▁ㄱㅕㅇㅅㅣ -9114
ILL -9115
▁ㅌㅐㅁ -9116
ㅎㅏㅇㄱㅜㄴ -9117
▁ㅇㅣㄹㅈㅓㅇㄹㅑㅇ -9118
▁216 -9119
ㅁㅐㅇㅇㅣ -9120
▁ㄴㅗㅇㅊㅗㄴ -9121
▁Core -9122
▁ㅎㅠㅇㅌㅓ -9123
▁ㅎㅘㄴㅂㅜㄹ -9124
▁ㅅㅓㄴㅎㅏ -9125
▁ㅈㅓㅇㅈㅓㄱ -9126
▁right -9127
▁ㅎㅐㅅㅂㅣㅊ -9128
▁ㅁㅕㅇㅈㅏㅇㅁㅕㄴ -9129
▁ㅂㅏㄹㄹㅔㄴㅅㅣ -9130
▁Blood -9131
▁ㅇㅏㄱㅇㅣㄴ -9132
▁ㅎㅕㄴㅅㅜ -9133
▁ㄹㅓㄱㅅㅡ -9134
▁ㄴㅜㅂㅎㅣ -9135
red -9136
▁BW -9137
▁416 -9138
▁}}}} -9139
▁2021 -9140
▁ㅊㅜㅇㅅㅣㄹㅎㅣ -9141
hy -9142
▁213 -9143
▁Joh -9144
▁our -9145
ㅇㅝㄴㅅㅜ -9146
▁ㅂㅜㄴㅅㅜ -9147
▁ㅊㅜㅇㄷㅗㅇ -9148
▁ㅅㅜㄱㅁㅕㅇ -9149
ㄹㅗㄹㄹㅏ -9150
▁ㅅㅣㅁㅂㅜ -9151
▁ㄷㅗㅇㄱㅜㄱ -9152
▁}}}}}} -9153
ㅈㅓㅇㅎㅜㄴ -9154
▁BRV -9155
▁ㅈㅏㅇㄴㅕ -9156
▁Rob -9157
▁ㅊㅜㅇㄱㅗㅇ -9158
▁ㄱㅚㅇ -9159
ㅈㅗㅇㅅㅓㄱ -9160
▁ㅅㅗㄱㅅㅏ -9161
▁ㄱㅗㄹㄱㅗ -9162
▁ㅅㅓㄴㄱㅡㄹㄹㅏ -9163
▁ㅍㅕㅇㅇㅏㄴ -9164
▁ㄱㅜㄱㅁㅜㄹ -9165
▁ㄱㅏㄴㅍㅕㄴ -9166
ㅅㅗㅇㅅㅓㄴ -9167
55 -9168
▁ㅊㅗㅇㅎㅚ -9169
▁Ook -9170
▁ㄱㅜㄱㅈㅓㅇㅇㅝㄴ -9171
▁ㅇㅗㄴㄱㅔ -9172
ㅇㅣㅁㄴㅔㅅ -9173
▁BBC -9174
ism -9175
▁ㄴㅡㅇㄷㅗㅇ -9176
▁ㄱㅕㅇㅇㅢ -9177
▁ㄱㅘㄴㅈㅓㄴ -9178
▁ㅊㅣㄴㅅㅓㄴ -9179
▁ㅅㅓㄴㅊㅓㄴ -9180
▁ㅈㅣㄻ -9181
▁Last -9182
▁ㄷㅜㄴㅎㅘ -9183
▁1300 -9184
▁ㅈㅜㅇㅅㅏ -9185
ㄹㅜㅅ -9186
ㅅㅏㄴㄹㅣ -9187
▁ㅂㅕㅇㅅㅣㄴ -9188
▁1953 -9189
ㄴㅕㄴㄷㅏㄴ -9190
▁ㅍㅣㄹㄱㅣ -9191
▁ㄱㅡㅂㅅㅏㅇ -9192
▁cr -9193
III -9194
▁ㅊㅣㄴㅎㅘ -9195
▁ㄱㅏㅇㄴㅏㅁㄱㅜ -9196
▁ㄷㅗㄹㅍㅜㅇ -9197
OCK -9198
▁ㅇㅏㅍㅈㅏㅇ -9199
▁ㄲㅕ -9200
ㅇㅓㅂㄱㅏ -9201
▁ㄱㅡㄴㄹㅐ -9202
▁ㅇㅏㄱㅈㅣㄹ -9203
▁ㅍㅣㄹㅅㅡㅇ -9204
▁ㅊㅓㄴㄹㅣ -9205
▁ㅉㅣㅁ -9206
ㅅㅐㅇㅊㅜㅇ -9207
▁ㅇㅘㄴㅍㅐ -9208
▁ㅅㅜㄴㅅㅏㄱ -9209
▁ㄱㅓㅁㅊㅏㄹㅊㅓㅇ -9210
ㅈㅣㅍ -9211
▁ㅂㅔㄴㅌㅡ -9212
ㄴㅜㄱ -9213
ets -9214
▁ㅆㅡㄹㅆㅡㄹ -9215
▁ㅇㅏㄴㅅㅣㄱ -9216
▁ㄱㅕㅇㅇㅕㅇㅎㅏㄱ -9217
88 -9218
▁ㅈㅣㄱㄱㅖ -9219
ㅎㅕㄴㄷㅗㅇ -9220
▁ㅌㅗㅇㅎㅏㄱ -9221
▁ㅇㅏㅁㅎㅡㄱㄱㅣ -9222
▁ㄷㅏㄴㅂㅐㄱㅈㅣㄹ -9223
▁pe -9224
ㄴㅕㅁㅇㅣㄹ -9225
ㄱㅡㄴㄷㅜ -9226
ㅅㅓㄴㅇㅣㄹㅂㅗ -9227
▁ㅈㅓㄴㄱㅗ -9228
add -9229
▁ㅂㅐㄱㄹㅛㅇ -9230
▁ㅈㅣㄴㅎㅐ -9231
ㅅㅐㅇㅇㅑㅇ -9232
▁ㅊㅗㅇㄷㅐ -9233
▁ㄱㅡㄱㅅㅓㅇ -9234
▁ㄴㅜㄴㅆㅓㅂ -9235
OWN -9236
▁NA -9237
▁ㅇㅓㅂㅈㅗㅇ -9238
▁ㅇㅔㄹㄹㅓㄴ -9239
▁ㅇㅏㅁㄱㅣ -9240
ㅁㅜㅅㅇㅣㅍ -9241
ㅎㅕㅇㅇㅜ -9242
▁Magic -9243
▁ㅂㅏㄱㅌㅐ -9244
▁ㅍㅐㄴㅋㅡㄹㄹㅓㅂ -9245
ㅈㅏㅇㅍㅏㄴ -9246
▁ㅈㅐㅂ -9247
▁RR -9248
▁7000 -9249
▁ㅊㅣㅁㅊㅔ -9250
▁ㅍㅐㄹㄹㅣ -9251
ama -9252
ㄱㅗㄴㅈㅡ -9253
▁ㄴㅗㅇㅂㅜ -9254
▁ㅇㅑㅇㄷㅗ -9255
ㅁㅐㅂ -9256
ㅋㅐㅅ -9257
▁Like -9258
ㄱㅡㄹㄹㅣ -9259
ㅌㅏㄹㄱㅣ -9260
▁there -9261
▁ㄷㅓㅁㅂㅕ -9262
▁ㅇㅗㅁㄴㅣ -9263
▁HOT -9264
ㅅㅓㄴㄱㅓ -9265
▁Alb -9266
ㄲㅐㅇ -9267
▁ㅍㅜㅇㅅㅗㄱ -9268
▁ㅂㅜㄹㅇㅏㄴㄱㅏㅁ -9269
ㅁㅓㅁ -9270
▁ㅂㅏㅇㄱㅘㄴ -9271
ㄹㅐㅇㅋㅡㄹㄹㅣㄴ -9272
▁ㅊㅓㅁㄱㅏ -9273
▁ㄱㅡㅁㅎㅏ -9274
▁ㅂㅏㄴㄷㅏㄹ -9275
▁ㅂㅏㅇㅈㅓㅇㅅㅣㄱ -9276
▁ㅂㅜㄹㅎㅓ -9277
▁ㅁㅗㅇㄸㅏㅇ -9278
▁ㅇㅝㄴㅇㅓ -9279
▁ㅈㅏㄹㅅㅐㅇㄱㅣ -9280
▁Soul -9281
▁ㄱㅘㄴㄱㅘㅇㅈㅣ -9282
▁Happy -9283
▁ㅈㅗㄹㄹㅣ -9284
ther -9285
ㅌㅏㅇㅅㅡ -9286
▁ㅇㅏㄱㅂㅗ -9287
▁ㅋㅗㄴㄷㅗ -9288
▁ㅎㅗㄴㄴㅏ -9289
▁RPM -9290
▁ㄴㅏㅁㄱㅡㄱ -9291
▁ㄱㅝㄴㅇㅕㄱ -9292
▁ㅁㅗㅁㅈㅣㅂ -9293
▁ㅌㅐㄹ -9294
ㅅㅜㄹㄱㅘㄴ -9295
ader -9296
▁ㅆㅏㅁ -9297
▁ㅈㅓㅇㄷㅐ -9298
ㅅㅓㄹㅈㅏ -9299
▁ㅇㅝㄹㅌㅓ -9300
ㅎㅕㅇㅈㅔ -9301
▁ㅌㅔㄴㄷㅓ -9302
▁ㅅㅓㅇㄴㅏㅁㅅㅣ -9303
ERF -9304
ㅂㅡㄹㄹㅜ -9305
▁ㅂㅓㅁㅈㅜ -9306
▁ㅇㅡㅁㄹㅏㄴ -9307
▁ㅅㅜㄴㅈㅗ -9308
▁Nor -9309
▁ㅈㅏㄴㅇㅕ -9310
▁ㅅㅓㅇㄷㅗㅇ -9311
▁223 -9312
▁ㅈㅓㅇㅈㅗㅇ -9313
▁ㅅㅑㄹㄹㅗ -9314
▁ㅁㅏㄱㅁㅏㄹ -9315
▁ㅂㅗㄴㄷㅡ -9316
▁ㅋㅡㄴㅇㅣㄹ -9317
▁TT -9318
▁ㅊㅓㄹㅌㅚ -9319
▁ㅇㅣㅁㅇㅛㅇ -9320
▁ㅈㅓㄴㄱㅘ -9321
▁ㅂㅓㅂㅈㅓㅇㄷㅗㅇ -9322
▁ㅇㅕㄱㅅㅓㄹ -9323
▁his -9324
▁ㅇㅕㅇㅈㅗ -9325
▁ㄹㅏㄴㄷㅏ -9326
▁ㄲㅏㅁㅃㅏㄱ -9327
▁ㅅㅣㄴㅈㅗㅇ -9328
▁ㅇㅔㄱㅅㅔㄹ -9329
▁ㅇㅡㄿ -9330
▁ㅅㅏㅇㄱㅗ -9331
▁ㅈㅓㅇㅇㅠㄴ -9332
▁who -9333
▁ㅅㅓㄴㅇㅕㄱ -9334
▁Party -9335
▁ㅅㅏㅂㅇㅣㅂㄱㅗㄱ -9336
▁ㅁㅐㄴㄴㅏㄹ -9337
▁365 -9338
ocal -9339
▁net -9340
▁ㅂㅏㄱㅎㅏ -9341
ㅈㅗㅇㅇㅣㄹㄱㅘㄴ -9342
▁ㅁㅕㄱ -9343
ㅂㅓㄱㅈㅣ -9344
ㄸㅡㄷ -9345
▁watch -9346
▁ㅂㅐㄱㅈㅣ -9347
▁ㅊㅜㅇㄱㅗㅇㄲㅐㅇ -9348
▁got -9349
▁Side -9350
ㄱㅕㄹㅊㅐㄱ -9351
▁ㄹㅜㅇ -9352
ㅎㅑㅇㄱㅗㄱ -9353
▁ㅅㅣㄱㅇㅣㄴ -9354
▁GX -9355
ㅇㅣㅂㅂㅜ -9356
▁ㄴㅏㅁㅊㅣㄴ -9357
▁ㅅㅏㄴㅎㅗ -9358
▁ㄱㅏㅁㅇㅕㅁㅈㅏ -9359
▁ㄷㅗㅇㅁㅕㅇㅇㅣ -9360
▁ㅇㅡㅁㅅㅣㄱㅈㅓㅁ -9361
▁ㄱㅓㄷㅇㅓ -9362
▁1957 -9363
▁ㅇㅛㅇㅇㅘㅇ -9364
▁girl -9365
ㄱㅗㅇㄱㅐ -9366
▁ㅇㅕㄱㄱㅘ -9367
▁Sim -9368
▁ㅇㅕㄴㅅㅓㅇ -9369
▁ㅈㅏㅇㅎㅏㄱㄱㅡㅁ -9370
▁ㅅㅓㅇㅎㅢ -9371
▁ㅇㅏㅁㅅㅡ -9372
▁ㅂㅜㄺㅇㅡㄴㅅㅐㄱ -9373
uz -9374
ㅅㅣㄴㅈㅓㄴ -9375
▁ㄱㅗㅇㅈㅜㅇㅈㅓㄴ -9376
OWER -9377
▁Show -9378
▁ㄷㅓㄱㅌㅐㄱ -9379
▁ㅈㅏㅇㄷㅏㅁ -9380
▁ㅁㅣㄴㅌㅡ -9381
▁IF -9382
▁ㅇㅕㄴㅇㅏㄴ -9383
ga -9384
▁ㅈㅓㄱㄱㅣ -9385
▁ㅊㅓㅇㅁㅜㄴ -9386
▁ㅇㅑㅁㅈㅓㄴ -9387
▁ㅅㅓㅇㅂㅓㅁㅈㅚ -9388
▁ㄱㅕㅇㅎㅏㅂ -9389
▁Edition -9390
BOX -9391
▁Open -9392
ㅇㅣㄹㄱㅣ -9393
ONE -9394
▁feel -9395
ated -9396
▁ㅈㅣㄴㅎㅐㅇㅎㅏ -9397
▁ㄱㅕㄱㄴㅏㅂ -9398
▁ㄷㅗㅇㅅㅏㄴ -9399
▁ㄸㅡㄴㄱㅗㅇ -9400
▁ㄹㅣㅇㅋㅓㄴ -9401
▁ㅈㅐㅇㅌㅏㄹㅈㅓㄴ -9402
▁370 -9403
ㄹㅓㅂㅎㅣ -9404
▁ㅌㅡㄱㅊㅜㄹㄴㅏ -9405
ㄴㄷㅐ -9406
▁ㅈㅓㄴㅂㅗㄱ -9407
rew -9408
▁ㅈㅏㄱㅁㅜㄹ -9409
▁ㅍㅡㄹㄹㅐㅅㅍㅗㅁ -9410
84 -9411
ㅈㅗㄴㄷㅗ -9412
▁Cap -9413
▁ㄴㅡㅇㅇㅛㄱ -9414
▁Way -9415
▁ㅇㅏㄹㅋㅗ -9416
▁ㄱㅡㅂㅅㅏㅇㅅㅡㅇ -9417
▁Und -9418
▁ㅃㅐㄱ -9419
ㄹㅏㅁㅈㅣㄱ -9420
▁ㅁㅏㄴㅇㅏㄱ -9421
ASS -9422
▁ㅇㅘㅇㄱㅓㄴ -9423
▁ㅍㅕㅇㅈㅓㅇ -9424
ley -9425
amu -9426
▁Mark -9427
work -9428
▁ㅅㅣㄴㄴㅕㄴ -9429
▁ㄸㅓㄹㄹㅣ -9430
▁ㄱㅣㅁㅎㅗ -9431
▁ㅂㅕㄴㅎㅏㅁ -9432
▁ㅅㅓㄴㅈㅣ -9433
▁ㅂㅗㄱㄱㅝㄴ -9434
▁ㅍㅐㄹ -9435
▁ㅎㅘㄹㅇㅑㄱㅅㅏㅇ -9436
▁ㅊㅗㅇㅈㅐ -9437
▁ㅌㅡㄱㄱㅝㄴ -9438
ㄲㅡㄹㄹㅣ -9439
hammer -9440
ster -9441
▁ㄴㅏㅁㅈㅣㅅ -9442
▁ㄱㅡㄹㅆ -9443
▁ㅇㅔㅁㅁㅏ -9444
▁ㅈㅣㄻㅇㅓ -9445
▁ㅁㅗㅁㅊㅔ -9446
ird -9447
▁1947 -9448
▁ㅍㅏㄴㄷㅏ -9449
▁ㅈㅏㅁㅅㅣㄱ -9450
ㅇㅑㄱㅅㅓ -9451
▁ㅇㅏㄹㅁㅏㅈ -9452
▁Pol -9453
ㅇㅝㄴㅈㅣ -9454
▁Angel -9455
▁ㅁㅏㅈㅊㅜㅁ -9456
▁ㅇㅣㄱㅁㅕㅇ -9457
▁ㅅㅏㅇㅇㅣㅁ -9458
▁ㅈㅓㅇㄱㅕㅇ -9459
ㅅㅗㅅ -9460
▁ㄲㅗㄱㄷㅐ -9461
▁ㅇㅗㅂㅅㅡ -9462
▁ㅊㅜㄹㅇㅕㄴㅈㅏ -9463
ㄷㅗㅇㄷㅐ -9464
▁ㅊㅓㄴㅇㅕㄴㄱㅏ -9465
ㅂㅔㄹㅌㅡ -9466
▁ㅅㅐㅇㅍㅗ -9467
▁SKE -9468
ㅅㅂㅣㅊ -9469
ㅈㅣㄴㅇㅜ -9470
▁ㅈㅓㄴㄹㅕㅇ -9471
▁ㄷㅗㅇㅇㅠ -9472
▁ㅎㅏㅇㅇㅜ -9473
▁ㄱㅡㄴㅎㅘㅇ -9474
▁ㅈㅜㅇㅊㅜ -9475
▁FBI -9476
▁Val -9477
▁ㄱㅕㅇㅅㅜㄴㅇㅑㅇㅎㅏㅁ -9478
▁ㅅㅏㄴㅌㅗ -9479
▁Na -9480
ㅂㅏㅇㅂㅣ -9481
▁ㅎㅓㄴㄴㅏㅂ -9482
▁ㅎㅐㅇㅅㅔ -9483
▁ㅈㅓㄹㅇㅑㄱ -9484
▁ㅂㅏㅇㅇㅕㅇㅇㅣㄹ -9485
▁Comp -9486
▁micro -9487
▁ㅂㅜㄴㄱㅘ -9488
▁ㅌㅗㅇㅇㅕㄱ -9489
▁ㅁㅕㅇㅇㅡㄴ -9490
▁ㅂㅗㄱㄱㅏㄱ -9491
▁ㄷㅐㄹㄹㅓ -9492
IVE -9493
▁950 -9494
▁ㅇㅕㄱㅈㅓㄴㅈㅐ -9495
▁234 -9496
▁ㅁㅜㄴㅈㅣ -9497
▁ㅂㅗㅁㅂㅓ -9498
▁ㅅㅓㄴㅂㅕㄹ -9499
▁ㄱㅡㅁㅅㅓ -9500
▁ㄱㅗㅇㅅㅣ -9501
▁ㅎㅘㄹㄱㅣ -9502
▁ㅇㅣㅂㅂㅓㅂ -9503
▁ㅈㅓㅁㅍㅗ -9504
▁ㅁㅜㄹㅇㅡㅁ -9505
▁ㅅㅏㅇㄱㅕㅇ -9506
▁Stage -9507
▁ㅂㅗㄱㅂㅜ -9508
▁ㅊㅗㅅㅂㅜㄹ -9509
ㅌㅡㄹㄹㅐㄴㅌㅏ -9510
▁ㅇㅓㅍㄷㅡ -9511
▁ㅈㅏㅂㅎㅕ -9512
▁Fly -9513
▁ㄱㅏㄴㅅㅏ -9514
▁ㅇㅏㄹㅁㅗㅁ -9515
▁ㅅㅏㅇㅅㅡㅇㅅㅔ -9516
▁life -9517
▁ㅂㅜㄹㅂㅜㄴ -9518
▁ㅇㅑㅇㅍㅕㅇ -9519
▁ㅈㅓㄴㄴㅕㅁ -9520
▁249 -9521
74 -9522
ㄷㅏㄱㅊㅣ -9523
▁ㅂㅏㄱㅂㅕㅇㅎㅗ -9524
▁ㅇㅗㄴㅈㅓㄴ -9525
▁090 -9526
▁Fall -9527
▁ㅂㅓㄴㅇㅕㅇ -9528
▁ㅈㅓㄴㅇㅕㅁㅂㅕㅇ -9529
▁Legend -9530
▁First -9531
▁ㄱㅓㅁㄷㅗ -9532
▁ㄷㅏㄴㅌㅏ -9533
ㄹㅣㅅㅅㅗㄱ -9534
▁ㄹㅏㅂㅅㅣ -9535
▁ㅅㅣㅂㅅㅏㅇ -9536
▁219 -9537
▁ㅈㅜㅇㄱㅗㅇㅇㅓㅂ -9538
▁245 -9539
▁ㄱㅕㅁㅂㅣ -9540
▁ㅅㅡㅇㅅㅡㅇ -9541
▁ㅁㅏㄱㄹㅗㄴ -9542
▁ㅈㅜㅇㄹㅗㄴ -9543
stem -9544
▁ㅅㅣㄴㅁㅣㄴ -9545
ㅇㅜㄴㅌㅣㄴ -9546
ura -9547
▁ㄱㅓㅁㄱㅣ -9548
ㅅㅓㄹㅌㅡ -9549
▁ㅂㅜㄹㅂㅜㄴㅁㅕㅇ -9550
▁ㅇㅣㅁㅅㅏㅇ -9551
▁ㅈㅓㄴㄱㅕㅇ -9552
ㅁㅍㅣㅇ -9553
▁ㄱㅏㅂㅈㅜ -9554
▁ㅂㅣㄹㅎㅔㄹ -9555
▁ㅎㅙ -9556
▁ㅈㅣㄴㅂㅓㅁ -9557
▁Free -9558
▁Perf -9559
ㄱㅓㄴㅅㅓㄹ -9560
▁ㅈㅜㅇㅅㅜㄴㅇㅑㅇㅎㅏㅁ -9561
ㄹㅗㄹㄹㅣㅇ -9562
▁ㄱㅡㅂㅅㅡㅂ -9563
tm -9564
▁ㅍㅏㄴㄱㅘ -9565
▁ㄱㅡㅂㅅㅗㄱ -9566
▁ㄷㅓㅇㄷㅏㄹ -9567
▁ㄱㅕㅇㅈㅓㄴㅊㅓㄹ -9568
ㄹㅡㄴㅅㅐㄱ -9569
ㅅㅡㄹㅉㅓㄱ -9570
▁ㅅㅗㄴㅊㅐㄱ -9571
▁ㅁㅣㄹㄹㅓ -9572
▁Break -9573
▁ㄱㅓㅂㅈㅐㅇㅇㅣ -9574
▁540 -9575
▁Er -9576
udio -9577
ㅁㅏㄴㄷㅏ -9578
▁ㅈㅜㄴㅈㅏㅇ -9579
▁ㅈㅣㄹㅈㅣㄹ -9580
▁ㅊㅏㅁㅅㅜ -9581
▁ㅇㅓㄴㄹㅗㄴㅅㅏ -9582
▁ㅋㅗㅇㄷㅜ -9583
ㅁㅣㄴㅅㅜ -9584
ㅇㅣㄴㅅㅜ -9585
▁Class -9586
▁top -9587
▁How -9588
▁ㅁㅕㅇㅂㅐㄱㅎㅣ -9589
▁Final -9590
▁ㅍㅕㅇㅈㅣ -9591
▁ㅇㅜㄴㅇㅣㅁ -9592
▁ㅅㅗㅇㅂㅕㅇㄱㅜ -9593
ㅅㅓㄱㄱㅣ -9594
▁ㄱㅣㅁㅅㅣㄴ -9595
err -9596
▁ㅅㅓㄴㅅㅏㅇ -9597
ㄲㅗㅁ -9598
▁ㅁㅔㄴㅌㅗ -9599
▁ㅇㅕㄹㄹㅕㄹ -9600
▁ㅇㅏㄱㅅㅜ -9601
▁ㅆㅏㅇㅇㅛㅇ -9602
ling -9603
▁GDP -9604
▁ㅎㅏㄴㅅㅓㅇ -9605
▁If -9606
▁440 -9607
ㅋㅗㄹㄹㅗ -9608
▁ㅂㅓㅂㅈㅗ -9609
TH -9610
▁ㄹㅣㄴㄷㅏ -9611
yes -9612
ㅇㅑㅇㄱㅜㄴ -9613
▁Never -9614
▁ㅅㅣㄴㄱㅕㄱ -9615
ㅅㅋㅗ -9616
▁City -9617
ㅈㅡㄹㄹㅣ -9618
▁ㅁㅏㅇㄱㅏㄱ -9619
▁ㅇㅔㅁㅂㅡㄹㄹㅓㅁ -9620
▁ㅎㅣㅁㄴㅐ -9621
▁ㄸㅜㅇㄸㅜㅇ -9622
ㄱㅕㄹㅅㅏ -9623
▁ㅇㅑㅇㅈㅣ -9624
▁ㅈㅏㄴㅈㅐ -9625
▁Spring -9626
▁ㅊㅏㅇㅊㅜㄹ -9627
arius -9628
▁ㅂㅣㄴㅅㅔㄴㅌㅡ -9629
ㅇㅑㄴㅅㅐㄱ -9630
ux -9631
▁ㄱㅣㅁㅈㅓㅇㅇㅣㄹ -9632
▁ㅈㅜㅇㅍㅏ -9633
▁ㅂㅓㄴㅂㅓㄴ -9634
▁Cor -9635
▁ㄱㅓㅌㅁㅗ -9636
▁Down -9637
▁ㅂㅗㅇㅎㅏ -9638
▁ㅂㅔㄴㅊㅡ -9639
ㅇㅏㄴㅌㅏ -9640
▁ㅇㅔㄹㄹㅏ -9641
▁ㄷㅗㅇㄱㅡㅂㅅㅐㅇ -9642
AGE -9643
▁MAN -9644
▁224 -9645
▁ㄱㅣㅁㅈㅔ -9646
ㄴㅑㅇㅌㅓ -9647
ause -9648
▁ㅂㅏㄹㅈㅏ -9649
▁ㅍㅜㅁㅈㅗㅇ -9650
▁1951 -9651
▁ㅂㅜㄴㅎㅘ -9652
▁Mon -9653
▁AW -9654
▁ㅎㅏㄴㄱㅜㄱㄱㅜㄴ -9655
▁ㅇㅣㄹㄱㅐ -9656
ㅈㅓㄴㅅㅓㄴ -9657
▁ㅅㅣㄴㅌㅐ -9658
▁ㅇㅏㄴㅈㅔㄹㄹㅣ -9659
▁ㄴㅏㄴㅈㅏㅇㅍㅏㄴ -9660
▁PRO -9661
▁ㄸㅣㅇ -9662
▁ㄱㅘㅇㅍㅗㄱ -9663
▁ㅇㅐㄱㅅㅔㄹ -9664
▁ㅅㅓㄴㅎㅜ -9665
▁ㅅㅏㅅㅍㅗ -9666
▁ㅍㅗㄹㄹㅏ -9667
▁ㅅㅓㄷ -9668
tain -9669
▁sk -9670
▁ㅍㅕㄴㄷㅗ -9671
ㅇㅕㅇㅎㅑㅇ -9672
▁KCC -9673
▁ㅈㅣㄱㅈㅣㄴ -9674
▁cont -9675
▁GOT -9676
▁ㅎㅏㄴㅈㅜㅇ -9677
▁1914 -9678
▁ㅌㅏㄴㄷㅜ -9679
ㄸㅡㅁ -9680
REME -9681
▁ㅅㅓㅇㅍㅜㅁ -9682
ㅈㅓㄴㄱㅘㅇㅇㅕㄱㅅㅣ -9683
▁ㅇㅕㄴㅎㅗ -9684
▁BP -9685
▁ㅅㅡㅇㄱㅖ -9686
▁ㄲㅡㄶㅇㅓ -9687
ㅁㅜㅇ -9688
▁ㅂㅏㄴㄴㅏㅂ -9689
▁ㅅㅓㅇㄹㅕㅇ -9690
▁ㄲㅡㅌㅇㅓㅄㅇㅣ -9691
▁ㅈㅓㅇㅁㅜ -9692
▁ㅇㅔㅁㅂㅡㄹㄹㅔㅁ -9693
▁9000 -9694
▁ㅂㅜㄹㅂㅏㄹ -9695
IME -9696
▁ㅅㅜㄱㅈㅣ -9697
▁ㅇㅕㅁㄷㅗㅇ -9698
▁226 -9699
ㅏㄹㅏ -9700
▁ㅍㅏㄴㅂㅗㄴ -9701
▁ㅎㅐㅇㄱㅜㄴ -9702
▁ㅉㅏㅇㄱㅜ -9703
▁ㅊㅣㄴㅇㅏ -9704
▁ㄱㅓㄴㅊㅜㄱㅁㅜㄹ -9705
▁Sn -9706
raft -9707
▁ㅊㅓㅇㅊㅟ -9708
▁ㅇㅣㄴㅅㅡㅇ -9709
▁ㅎㅕㄴㅁㅜ -9710
ㄴㅡㅁ -9711
▁ㅂㅐㄹㅂㅡ -9712
▁ㅇㅏㄹㅌㅡ -9713
▁ㄱㅕㄹㄷㅏㄴ -9714
▁ㅅㅜㄴㅎㅏㅇ -9715
▁Swe -9716
erry -9717
▁end -9718
▁Mem -9719
ㅅㅓㅇㅁㅣㄴ -9720
▁ㅅㅣㄴㅂㅗㅇ -9721
▁ㅇㅔㄹㄹㅣㄱ -9722
▁ㅇㅣㅂㄷㅏㅇ -9723
iny -9724
▁"' -9725
▁ㄱㅗㄱㅅㅏ -9726
▁ㅁㅏㄹㅅㅏㄹ -9727
▁ㅇㅏㄱㅈㅏㅇ -9728
▁ㄱㅗㅇㅊㅐ -9729
▁ㅁㅣㄹㅈㅓㅂ -9730
▁ㅈㅓㅇㅅㅣ -9731
ㅍㅕㅇㄱㅠㄴ -9732
▁ㄲㅜㄱ -9733
▁make -9734
▁ㅋㅏㄹㄷㅔ -9735
▁ㅇㅏㄹㅂㅓ -9736
▁ㅇㅏㅂㅅㅜ -9737
ㅅㅡㅇㅎㅗ -9738
▁ㅎㅜㄴㄹㅕㄴㅅㅗ -9739
▁ㅁㅕㅇㅇㅘㅇ -9740
▁ㅅㅑㄹㄹㅗㅅ -9741
ㅇㅘㄴㅅㅓㅇ -9742
▁ㄱㅘㅇㄷㅗㅇ -9743
▁ㅂㅕㄴㅅㅗㄱㄱㅣ -9744
ㄱㅘㅇㅅㅜ -9745
▁ㅁㅗㅁㅆㅏ -9746
▁ㅅㅡㄹㄹㅣㅂ -9747
▁ㅅㅜㅁㄱㅕㄹ -9748
83 -9749
ㅈㅗㅇㅇㅝㄴ -9750
▁ㅃㅡ -9751
▁ㅎㅏㅂㄱㅡㅁ -9752
▁011 -9753
▁ㅂㅣㅇㄱㅡㄹ -9754
ㅆㅏㄹ -9755
▁ㅍㅕㅇㅈㅜㄴ -9756
▁1937 -9757
▁APC -9758
▁ㅋㅏㄹㅈㅣㄹ -9759
▁ㄱㅓㅁㅅㅐㄱㅇㅓ -9760
ㄹㅣㅇㅋㅡ -9761
de -9762
▁ㅍㅔㄹㅌㅡ -9763
▁ㅎㅓㅁㅇㅏㄱ -9764
▁ㅅㅐㅇㄱㅖ -9765
▁ㅂㅏㅇㅁㅏㅇ -9766
▁ㅂㅏㄴㅈㅜㄱ -9767
ival -9768
▁ㅇㅑㅂ -9769
ㅃㅓㄴ -9770
▁play -9771
ㅋㅡㄹㄹㅏ -9772
▁RX -9773
▁ㅊㅏㄱㅅㅜ -9774
ㅅㅏㄹㄹㅔㅁ -9775
ㄷㅗㅇㅈㅗ -9776
▁ㄹㅣㄴㅇㅣ -9777
▁ㄱㅣㅂ -9778
▁ㅁㅏㄴㅇㅜ -9779
ㄱㅓㄹㅇㅡㅁ -9780
▁ㅋㅐㅁㅍㅣㅇ -9781
▁ㅂㅏㄴㄹㅕ -9782
ㅅㅏㅇㅇㅣㄹ -9783
▁ㄱㅓㄴㅇㅢ -9784
▁ㄱㅏㅇㄹㅕㅇ -9785
▁ㅊㅏㄱㅊㅟ -9786
▁Christ -9787
▁ㅇㅑㅇㅁㅏㄹ -9788
ㄷㅡㅅ -9789
▁ㅈㅏㄴㅅㅗ -9790
▁ㄱㅏㄴㅈㅓㄹ -9791
▁PT -9792
▁ㅌㅗㅂㄴㅣ -9793
ㅅㅡㅇㅎㅜㄴ -9794
ATE -9795
▁part -9796
▁ㄱㅣㅁㅇㅡㄴ -9797
▁ㅇㅣㄹㅅㅐㅇ -9798
▁375 -9799
▁ㅆㅏㅇㄱㅓㅁ -9800
▁ㅍㅏㄴㄷㅏㄴㄹㅕㄱ -9801
RO -9802
▁ㄴㅓㅁㄴㅏ -9803
▁ㅁㅕㄴㄷㅗ -9804
▁ㅇㅠㄴㅈㅣ -9805
ㄱㅏㄱㄱㅏㄱ -9806
▁ㅅㅐㅇㅂㅏㅇㅅㅗㅇ -9807
▁ㅊㅜㄴㅊㅜ -9808
▁ㅂㅏㄱㅊㅏ -9809
ㅇㅗㄹㄹㅏ -9810
▁aqu -9811
ㅁㅓㄴㄷㅡ -9812
ㅎㅕㄴㅁㅣㄴ -9813
22 -9814
que -9815
▁ㅍㅕㄴㅇㅐ -9816
▁ㅎㅠㅇㄱㅣ -9817
▁233 -9818
▁ㅅㅓㅇㅅㅣ -9819
▁ㄱㅗㄹㅉㅏ -9820
▁ㅊㅏㄴㅅㅏ -9821
ㅍㅏㅅ -9822
ㅍㅏㄹㄹㅗ -9823
▁ㅇㅝㄴㅅㅏㅇ -9824
▁ㅋㅓㄹㄹㅣㅇ -9825
▁Hol -9826
▁Come -9827
ㅂㅏㅇㅈㅣ -9828
▁410 -9829
ㅆㅓㄹㅌㅡ -9830
ㄴㅓㄴㅌㅡ -9831
ㅇㅣㅁㅅㅜ -9832
▁ㅅㅓㅇㅇㅝㄴ -9833
▁EXTREME -9834
ONG -9835
▁again -9836
ㄹㄹㅣㄴㄷㅓ -9837
▁ㅊㅜㅇㅇㅝㄴ -9838
▁ㄷㅗㅇㄱㅡ -9839
▁ㄹㅗㄹㄹㅣ -9840
▁ㅇㅏㄱㅇㅕㅇㅎㅑㅇ -9841
ㅂㅕㅇㄱㅣ -9842
▁ㅇㅏㄱㅍㅕㅇ -9843
▁ㄱㅗㄷㅈㅏㅇ -9844
▁ㅎㅏㄴㅂㅗㄱ -9845
▁ㅂㅜㄹㄱㅓ -9846
▁ㄱㅣㅁㅎㅏㄴ -9847
▁Club -9848
lo -9849
▁KE -9850
idd -9851
▁ㄷㅗㄱㄷㅗ -9852
▁ㅅㅏㄴㄷㅡ -9853
ino -9854
▁ㅂㅜㄱㅅㅓ -9855
▁ㅍㅣㄹㅈㅓㄱ -9856
▁ㄲㅏㄱ -9857
erg -9858
▁ㄱㅡㅂㅇㅕ -9859
ㅊㅏㅇㅁㅣㄴ -9860
▁ㅅㅓㄹㅈㅣㄴ -9861
▁ㅈㅣㄴㅈㅓㄴ -9862
ㅈㅓㄴㅎㅏㅁ -9863
▁ㅅㅣㄱㅂㅕㄹ -9864
▁ㅅㅣㄹㅌㅏㄴ -9865
▁ㅈㅓㄴㅍㅐ -9866
▁ㅍㅕㄴㅈㅣㅂㅈㅏ -9867
▁MIX -9868
▁ㅂㅗㄴㄱㅓ -9869
▁hp -9870
▁ㅅㅜㄴㄹㅖ -9871
▁ㅇㅏㅍㅈㅏㅇㅅㅓ -9872
▁ㅁㅕㅇㅎㅘㄱㅎㅣ -9873
▁ㅎㅘㅇㅅㅗ -9874
▁ㅇㅝㄴㅅㅓㅇ -9875
ㅁㅐㄱㄷㅏ -9876
▁ㄷㅜㄴㄱㅣ -9877
▁ㅅㅡㅁ -9878
▁never -9879
▁Cry -9880
ㅈㅓㄴㄷㅓ -9881
▁ㅈㅓㄱㄱㅘ -9882
ya -9883
▁ㄱㅣㄹㄹㅐ -9884
▁ㄹㅣㄴㅊㅣ -9885
▁ㅎㅏㅇㅈㅐㅇ -9886
▁ㅈㅣㄴㄱㅣ -9887
▁ㅂㅐㄱㅂㅕㅇ -9888
▁ㄱㅣㅁㅈㅗㅇㄱㅜㄱ -9889
▁ㅍㅗㄴㅌㅡ -9890
ㄱㅘㄴㄱㅖ -9891
▁ㅅㅓㅇㅊㅟ -9892
ㅁㅜㄹㅅㅓㄴ -9893
ㅅㅏㅇㄱㅡㅁ -9894
▁ㅈㅓㄹㄱㅏㅁ -9895
▁ㅇㅏㄴㅈㅏㅇ -9896
▁SMG -9897
MC -9898
aker -9899
▁ㅅㅓㅇㅅㅗ -9900
ㅈㅓㅇㅁㅣㄴ -9901
▁ㅇㅣㄴㅇㅝㄴㅅㅜ -9902
▁xx -9903
▁WHIP -9904
▁heart -9905
▁ㅇㅡㅁㄹㅕㄱ -9906
▁ㄸㅐㅁ -9907
ㅋㅡㄹㄹㅗㄴ -9908
▁ㅈㅡㅇㅍㅛ -9909
▁ㅌㅡㅁㅅㅐ -9910
▁CIA -9911
▁ㅂㅏㅅㅈㅜㄹ -9912
▁ㅇㅣㅁㅈㅐ -9913
▁KA -9914
▁ㅈㅓㅁㅊㅣ -9915
▁ㄷㅗㅇㅌㅏㄴ -9916
▁has -9917
▁ㅅㅣㄴㄷㅡ -9918
ㅇㅛㅇㄹㅑㅇ -9919
ㅅㅏㄴㅁㅕㄴ -9920
BY -9921
▁ㅎㅘㄴㅇㅝㄴ -9922
▁ㄱㅘㄴㅇㅛㅇ -9923
ㄷㅡㄴㅇㅛ -9924
▁ㅂㅏㅁㅈㅜㅇ -9925
▁ㅈㅜㅇㅅㅏㄴ -9926
ㅂㅕㅇㅎㅓㄴ -9927
▁ㅅㅓㄹㅁㅜㄴ -9928
▁ㅅㅣㄹㄱㅏㅁ -9929
▁ㄷㅗㅇㄱㅕㄹ -9930
▁ㅅㅣㄴㅂㅣㅇ -9931
▁ㄱㅕㄱㅂㅕㄴ -9932
▁ㄱㅔㄴㅈㅣ -9933
▁ㅇㅗㄹㄱㅏ -9934
▁ㅎㅡㅇㅎㅏ -9935
▁ㅇㅠㄴㅈㅗㅇㅅㅣㄴ -9936
▁ㄹㅣㄹㄹㅔ -9937
▁di -9938
▁ㅇㅡㄴㅎㅗㄴ -9939
HN -9940
cy -9941
▁ㅇㅐㄱㅅㅡ -9942
ㄴㅏㄹㄹㅣ -9943
ㅇㅕㄹㅊㅏ -9944
▁ㄴㅜㄴㅂㅗ -9945
▁bb -9946
▁ㅁㅗㄹㅇㅣㅂ -9947
▁ㅃㅐㅇ -9948
▁only -9949
ㅇㅛㅇㅁㅜㄹ -9950
NG -9951
▁Will -9952
▁ㅅㅜㄴㅊㅏ -9953
▁ㅍㅕㅇㅇㅣ -9954
ㅇㅣㄹㅂㅗㄴ -9955
▁ㅁㅣㄴㅅㅣㅁ -9956
▁Ah -9957
▁PH -9958
▁ㄴㅏㅂㅍㅜㅁ -9959
anger -9960
ㅅㅓㅇㄱㅗㅇ -9961
▁NORM -9962
▁ㄱㅏㄴㅊㅓㅂ -9963
▁ㄸㅡㄴㄱㅡㅁㅇㅓㅄ -9964
▁\] -9965
▁1919 -9966
▁ㄱㅕㅇㄷㅐ -9967
▁ㅂㅗㄲㅇㅡㅁ -9968
▁ㅊㅜㅇㅁㅜ -9969
▁ㅇㅗㄹㅇㅣㄴ -9970
▁Girls -9971
ㅈㅓㄴㅈㅐㅇ -9972
▁ㅇㅛㅇㅎㅗ -9973
OUR -9974
▁ㅃㅓㄴㅃㅓㄴ -9975
▁ㅋㅓㄴㅍㅓ -9976
▁ㅈㅓㄴㅈㅐㅇㅌㅓ -9977
▁ㄱㅏㄱㅂㅕㄹ -9978
▁MY -9979
▁ㅈㅓㄴㅎㅘㅇ -9980
▁XC -9981
ORA -9982
ㅕㅇㅑ -9983
▁ㅇㅕㄹㄱㅘㅇ -9984
▁ㄱㅣㅁㅈㅗㅇㅁㅣㄴ -9985
ㅅㅓㄴㅅㅣ -9986
86 -9987
ument -9988
▁ㄷㅗㅇㅎㅏ -9989
onder -9990
▁ㅇㅡㅁㅇㅏㄱㄱㅏ -9991
▁NORMAL -9992
ㅈㅜㄴㄱㅣ -9993
▁here -9994
▁ㅊㅓㅁㅂㅜ -9995
▁ㅋㅓㄴㅂㅓ -9996
ㅆㅜㄱ -9997
▁ㅇㅕㅇㅅㅏ -9998
▁ㅇㅝㄹㄷㅡㅇㅎㅣ -9999
▁RB -10000
▁ㅅㅓㅇㄱㅗㅇㅎㅚ -10001
▁ㅉㅏㄱㅌㅜㅇ -10002
▁ㅊㅓㄴㅈㅣㄴ -10003
▁ㄴㅏㄴㅈㅐㅇㅇㅣ -10004
▁ㅈㅓㅇㄱㅡㄴ -10005
▁ㅇㅐㄱㅅㅜ -10006
▁Sol -10007
▁Great -10008
▁ㅇㅕㄴㅁㅏ -10009
▁ㅎㅘㄹㄹㅕㄱ -10010
ㅂㅜㄹㄹㅣ -10011
▁Best -10012
ball -10013
▁ㅈㅏㅇㄷㅐ -10014
▁ㅇㅕㄴㅈㅏㅇㅈㅓㄴ -10015
▁ㅎㅏㄴㅍㅏㄴ -10016
▁MUS -10017
▁ㅁㅜㄴㄱㅘ -10018
▁EXO -10019
▁SEED -10020
▁ㅂㅡㄹㄹㅏㅇ -10021
▁ㅇㅣㅂㅅㅏㅇ -10022
▁ㅂㅐㄱㅅㅡ -10023
▁ㅇㅕㄴㅎㅘ -10024
ㅅㅐㅇㅁㅜㄹ -10025
▁ㅇㅠㄴㅅㅓㅇ -10026
▁ㅈㅓㄴㅇㅟ -10027
ㅅㅣㄱㅊㅜㄱㄱㅜ -10028
osh -10029
ㅈㅓㄱㅈㅓㄹ -10030
▁ㅈㅡㅇㄱㅏㅇ -10031
▁ㅇㅏㄱㅇㅕㄴ -10032
▁ㅂㅜㄱㄷㅗㅇ -10033
▁ㅇㅓㄱㅇㅑㅇ -10034
ㅋㅗㄹㅍㅣ -10035
▁ㅎㅏㄴㄴㅜㄴ -10036
▁ㅊㅓㄹㅎㅕㄹ -10037
▁217 -10038
▁Net -10039
▁ㄴㅏㄱㅅㅓ -10040
▁ㅎㅘㄴㅅㅏㄴ -10041
UD -10042
ㄲㅗㅂ -10043
▁Ind -10044
▁ㄱㅠㄹ -10045
▁OM -10046
▁Dest -10047
ㅇㅝㄹㄷㅡ -10048
▁ㅇㅓㅂㅈㅏ -10049
▁ㅇㅣㄴㅈㅔ -10050
▁Little -10051
▁1911 -10052
▁ㅁㅜㄹㄹㅠ -10053
▁ㅇㅑㄱㅅㅜ -10054
▁ㅍㅡㄹㄹㅐㄴㅌㅡ -10055
▁ㅅㅡㅇㅎㅏ -10056
ㅈㅓㅇㄹㅣ -10057
▁ㅅㅏㄴㅈㅓㄴ -10058
light -10059
ㅈㅜㄴㅇㅓ -10060
▁ㅁㅐㄱㅋㅡ -10061
▁str -10062
▁ㅎㅢㄴ -10063
▁ㅂㅏㄹㄹㅕㅇ -10064
▁red -10065
▁ㅂㅕㄹㄱㅓ -10066
▁ㄴㅏㅇㅁㅏㄴ -10067
▁gu -10068
▁ㄱㅓㅁㄱㅓ -10069
▁ㅈㅓㄴㄱㅗㄱ -10070
ㅈㅓㄴㄹㅕㄱ -10071
ㅈㅏㅇㅊㅣ -10072
▁ㅇㅡㄴㅂㅣㅊ -10073
▁ㅇㅣㅂㅅㅗ -10074
▁ㅎㅗㅇㅅㅜ -10075
▁'~ -10076
▁KN -10077
▁ㅈㅓㅇㅅㅓㄴ -10078
ㄴㅓㄹㅅㅡ -10079
▁ㅅㅐㅇㄹㅣ -10080
ㅈㅓㄱㅈㅣ -10081
▁ㅌㅗㅇㅊㅏㄹ -10082
ㅅㅜㅍ -10083
ㅈㅓㅇㅇㅜ -10084
▁ㄷㅗㄱㄷㅏㄴ -10085
ㅇㅡㅁㅅㅗㄱ -10086
▁Take -10087
▁ㅇㅝㄴㅅㅏ -10088
▁228 -10089
▁ㄴㅐㅇㅎㅗㄱ -10090
▁ㄲㅓㄹㄲㅡ -10091
▁ㅍㅣㄱㅊㅓ -10092
▁ㅂㅕㄴㅁㅗ -10093
HC -10094
▁ㅋㅔㄴㅅㅣ -10095
▁let -10096
▁ㅁㅔㅇ -10097
ANCED -10098
▁ㅁㅐㅇㅅㅜ -10099
▁BMW -10100
▁ad -10101
▁Mix -10102
▁ㄱㅗㄹㅅㅜ -10103
▁FO -10104
ㄱㅏㄴㅇㅣ -10105
ㅅㅓㄴㅅㅗ -10106
▁Single -10107
▁ㄴㅡㄴㅋㅓ -10108
eek -10109
▁GPS -10110
ㄷㅔㄱㅅㅡ -10111
▁010 -10112
ASY -10113
▁Sam -10114
▁Inv -10115
ㅅㅓㅇㅇㅓ -10116
▁ㅈㅓㅇㅈㅜ -10117
▁NFL -10118
▁ㅇㅑㅇㅇㅢ -10119
ㅋㅔㅅㄷㅏㄴ -10120
▁ㅂㅜㅌㅇㅕ -10121
▁ㅅㅏㅇㅂㅏㄴ -10122
▁ㅇㅣㄱㅅㅏㄴ -10123
ㅂㅡㄹㄹㅔ -10124
▁ㅎㅘㄴㅈㅏㅇ -10125
▁ㅇㅕㅇㄱㅜㄱㅇㅣㄴ -10126
▁ㅇㅓㅄㅇㅡㅁ -10127
▁Ult -10128
▁ㅈㅓㅇㄱㅜㄱ -10129
▁ㅊㅜㄹㅇㅣㅂㄱㅜ -10130
▁CGV -10131
▁ㅎㅓㄴㅌㅡ -10132
▁ㅅㅡㅇㄴㅏㄱ -10133
▁ㅎㅕㅇㅂㅓㄹ -10134
▁301 -10135
▁Aut -10136
▁ㅂㅏㄺㅎㅕ -10137
▁ㄱㅘㅇㄹㅏㄴ -10138
▁ㅌㅡㄱㅅㅐㄱ -10139
▁ㅂㅐㄱㄷㅜ -10140
▁ㄱㅜㄹㄹㅣㅁ -10141
IO -10142
▁ㅂㅣㄹㅎㅔㄹㄹㅡㅁ -10143
ena -10144
94 -10145
ㄲㅗㄱ -10146
lex -10147
▁ㅅㅣㄴㅊㅓㄴ -10148
▁ㅂㅏㅇㅌㅏㄴㅅㅗ -10149
▁ㅂㅏㄴㅈㅜ -10150
▁ㅈㅣㅂㅇㅛ -10151
▁YG -10152
ㄴㅏㅈ -10153
▁ㅁㅕㅇㅈㅣ -10154
▁ㅁㅣㄹㄱㅏ -10155
uture -10156
ㄴㄷㅏㅂㅅㅣ -10157
▁ㄱㅒ -10158
⊸⊸⊸ -10159
ㅈㅏㅇㄱㅏㄴ -10160
▁ㄷㅏㅁㅇㅝㄴ -10161
▁252 -10162
▁ㄲㅓㅁ -10163
▁ㅊㅗㄱㅈㅣㄴ -10164
ㅋㅓㄹㅌㅡ -10165
▁EPL -10166
▁ㅍㅗㄱㅇㅓㄴ -10167
▁aquarius -10168
▁ㅊㅗㄱㄱㅜ -10169
▁ㅅㅗㄱㅇㅣㅁㅅㅜ -10170
▁ㅌㅗㅇㅅㅗㄹㄹㅕㄱ -10171
▁Real -10172
▁ㄱㅗㅇㅈㅣㄱ -10173
▁ㅇㅓㄹㄹㅜㄱ -10174
ㅅㅣㄱㅈㅏ -10175
▁ㄴㅗㄱㅅㅡ -10176
▁ㅎㅏㄴㄱㅜㄱㅅㅣㄱ -10177
ㅋㅏㅁ -10178
▁ADVANCED -10179
▁ㅇㅑㅅ -10180
▁mA -10181
ital -10182
▁512 -10183
ㄱㅗㄱㅈㅓㄹ -10184
▁|[ -10185
▁DSP -10186
▁Dec -10187
ㄴㅐㅂㄷㅡ -10188
▁Storm -10189
▁ㅇㅣㄹㄹㅏ -10190
▁ㅇㅘㅇㅅㅓㅇ -10191
98 -10192
▁ㅅㅣㄴㅇㅑ -10193
▁2022 -10194
▁ㅇㅗㄹㄹㅔ -10195
▁ㄴㅏㄴㄷㅗ -10196
▁ㅅㅓㅁㄸㅡㄱ -10197
ㅁㅏㄴㄷㅗ -10198
▁ㅂㅔㄹㄹㅣ -10199
▁ㅁㅜㄴㄱㅘㄴ -10200
ㅅㅏㅇㅂㅓ -10201
▁ㅎㅏㄱㅍㅏ -10202
ano -10203
▁ㅇㅞㄴㄷㅣ -10204
▁ㄱㅣㅁㅅㅣ -10205
▁ㅈㅓㅇㄱㅘㄴ -10206
▁ㅌㅡㄹㄹㅣㅁㅇㅓㅄ -10207
▁ㅌㅔㄴㅌㅡ -10208
▁ㅎㅚㅇㄹㅕㅇ -10209
▁any -10210
▁ㅇㅠㄴㅅㅓㄱㅁㅣㄴ -10211
ㄴㅓㄼ -10212
▁ㅇㅜㄴㄷㅗㅇㄱㅏ -10213
ㅃㅗ -10214
▁ㄴㅣㅅㅅㅏㄴ -10215
▁Med -10216
▁ㅅㅗㄴㄱㅣㄹ -10217
▁ㅊㅡㅅㅋㅗ -10218
▁ㅋㅔㅅ -10219
▁ㄱㅏㅇㄱㅡㅂ -10220
▁ㄱㅡㅂㅅㅗㄱㄷㅗ -10221
aid -10222
▁Def -10223
▁Gun -10224
ㄹㅏㅂㅇㅓ -10225
▁ㅈㅓㄹㄷㅗ -10226
▁htm -10227
ㄱㅗㅇㅎㅏㄱ -10228
▁ㄷㅡㅇㅇㅛㅇ -10229
ude -10230
▁ㄷㅗㅅ -10231
▁ㅈㅓㅇㅊㅏㄹㄱㅣ -10232
▁ㄷㅗㄱㅅㅓㄹ -10233
▁QP -10234
▁youtu -10235
▁ㄱㅕㅇㄱㅘㄴ -10236
▁ㅅㅓㄴㅅㅑ -10237
▁ㅈㅓㅇㅁㅗㅇ -10238
▁when -10239
▁ㄸㅗㄱㅂㅏ -10240
▁ㄷㅗㄹㅂㅕㄴ -10241
▁ㅊㅏㄱㄱㅗㅇ -10242
▁ㄱㅘㄴㅅㅡㅂ -10243
▁ㅈㅓㅇㅊㅏㄱㅈㅣ -10244
▁HR -10245
▁ㅅㅏㄴㅊㅜㄹ -10246
▁youtube -10247
▁ER -10248
▁Hero -10249
▁Rad -10250
▁ㅋㅡㄹㄹㅓㄱ -10251
▁Zero -10252
65 -10253
UG -10254
apan -10255
unt -10256
ㅊㅜㄴㄱㅣ -10257
▁ㄱㅗㅇㅇㅏㄴ -10258
32 -10259
ㅉㅓㄴㅈㅣ -10260
ning -10261
▁ㅇㅏㅂㅅㅡㅇ -10262
▁EXTRA -10263
▁ㄹㅣㄴㄷㅡ -10264
▁Cal -10265
▁ㄹㅐㅁㅈㅣ -10266
▁ㅇㅓㅁㅇㅕㄴ -10267
DDR -10268
ours -10269
▁ㅇㅏㅁㅅㅓㄱ -10270
▁ㅇㅡㄴㅅㅐㄱ -10271
▁ㅅㅗㅇㄱㅗㅅㄴㅣ -10272
arm -10273
ett -10274
ler -10275
▁ㅅㅣㄴㅈㅐ -10276
▁ㅇㅡㄴㅅㅣㄴㅊㅓ -10277
▁ㄱㅓㄴㄷㅐ -10278
▁ㄱㅡㅂㅈㅡㅇ -10279
▁ㅌㅜㄱㅎㅏ -10280
▁Warhammer -10281
ather -10282
ㅍㅗㄹㅌㅡ -10283
▁ㄷㅗㅇㅁㅐㅇㄱㅜㄴ -10284
▁390 -10285
▁ㅍㅜㄹㅇㅣ -10286
unk -10287
▁ㅋㅘㄴ -10288
▁ㄴㅐㅂㄷㅏ -10289
▁ㅌㅏㅁㅎㅓㅁㄱㅏ -10290
▁ㅈㅓㅇㅁㅕㅇㅎㅜㄴ -10291
ㄴㅗㅂㅅㅣ -10292
▁1934 -10293
▁Ry -10294
▁227 -10295
▁ㅂㅐㄱㅇㅏㄱ -10296
▁ㅊㅗㅇㅈㅓㅁ -10297
ㅂㅓㅂㅈㅏ -10298
▁ㄹㅗㅇㅈㅜ -10299
▁Ag -10300
▁Park -10301
▁ㅁㅏㄴㅈㅏㅇ -10302
▁ㅁㅕㄱㅅㅏㄹ -10303
▁ㄱㅗㅇㄱㅜ -10304
▁ㅁㅜㅇㄱㅐ -10305
▁ㅇㅡㄹㅅㅣ -10306
▁ㅅㅜㄱㅈㅔ -10307
ㅌㅡㄹㄹㅏㄴㅌㅣ -10308
▁ㅎㅏㅂㅅㅜㄱ -10309
▁ㅇㅛㅇㄴㅏㅂ -10310
▁Sweet -10311
lection -10312
irect -10313
▁!!!! -10314
▁ㅇㅝㄱㅅㅡ -10315
▁ㅂㅜㄴㅇㅑㅇ -10316
BE -10317
▁ㅇㅣㄴㅅㅏㅁ -10318
▁ㅊㅗㅇㄱㅕㄱ -10319
▁Mbps -10320
▁ㄸㅡㅅㅂㅏㄲ -10321
▁ㅅㅣㄹㅋㅓㅅ -10322
ㅎㅕㄴㅅㅜ -10323
une -10324
ㅋㅣㄹㄹㅔ -10325
▁BLACK -10326
▁ㅁㅣㅌㅂㅏ -10327
ㅍㅔㅅ -10328
▁John -10329
▁ㅂㅏㄴㅉㅗㄱ -10330
▁ㅎㅗㅇㄹㅕㄴ -10331
ㅅㅏㄹㅇㅣ -10332
ouble -10333
▁ㅅㅣㅁㅂㅗㄱ -10334
▁ㅇㅕㄴㅁㅏㄱㅌㅏㄴ -10335
ords -10336
▁op -10337
▁ㅇㅏㄴㅈㅡ -10338
▁Hel -10339
▁ㅇㅠㄴㅇㅕㅇ -10340
ople -10341
▁ㅁㅕㅇㅅㅣㅁ -10342
▁== -10343
▁ㄱㅗㅇㅈㅓㄱ -10344
▁ㅁㅗㅇㅎㅘㄴ -10345
▁Say -10346
▁min -10347
▁ㄹㅗㄹㅅㅡ -10348
▁ㅁㅏㄹㄹㅏ -10349
▁ㅇㅕㅇㅅㅜ -10350
▁Space -10351
▁ㅈㅣㅅㄱㅓ -10352
▁ㅇㅑㅇㅂㅏㅇㅎㅑㅇ -10353
▁Gal -10354
▁ㅌㅏㄱㄱㅜ -10355
ㅋㅏㅅ -10356
▁ㄲㅏㄴ -10357
▁ㅈㅣㄴㅁㅕㅇ -10358
ames -10359
ㅅㅗㅇㄱㅣ -10360
ㅁㅜㄹㅅㅚ -10361
▁ㅇㅗㄹㄹㅕ -10362
uct -10363
ㄴㅏㄹㄹㅗ -10364
▁ㅂㅐㄴㅋㅜ -10365
▁ㅇㅛㅇㅈㅗㄱ -10366
ㄱㅓㄴㅂㅜ -10367
ㅎㅐㅇㅅㅓㅇ -10368
▁ㄴㅏㄱㅅㅏ -10369
▁ㅇㅡㄴㄱㅡㄴㅅㅡㄹㅉㅓㄱ -10370
▁231 -10371
ㅅㅏㄴㄱㅜㄴ -10372
▁ㅋㅓㅅㅇㅣㄴ -10373
▁ㅍㅏㄴㅁㅕㅇ -10374
thing -10375
▁ㄱㅕㅇㅅㅏㅇㄷㅗ -10376
▁ㅅㅜㅅ -10377
▁ㅎㅡㄱㄱㅣ -10378
uff -10379
▁ㅇㅕㅌ -10380
▁Feel -10381
br -10382
▁PG -10383
▁ㅇㅏㄵㅎㅣ -10384
▁need -10385
▁ㄱㅡㄴㅂㅏㅇ -10386
▁ㅍㅕㅁ -10387
oj -10388
KO -10389
▁ㄱㅘㄴㄹㅏㅁㄱㅐㄱ -10390
▁ㅇㅑㄱㅍㅜㅁ -10391
▁Je -10392
oe -10393
ㅅㅡㄹㄹㅗ -10394
▁LEVEL -10395
TER -10396
▁ㅇㅏㄴㅌㅗㄴ -10397
▁HT -10398
▁ㄱㅏㄴㅈㅣㄱ -10399
▁ㅂㅏㅇㅈㅜ -10400
▁ㅂㅏㅁㅅㅐ -10401
▁ㄱㅡㅁㄷㅏㄴ -10402
▁ㅎㅏㅁㄱㅕㅇ -10403
END -10404
vil -10405
yr -10406
▁ㅈㅣㅂㄱㅔ -10407
▁ㅅㅓㄹㄹㅣㅂㅈㅏ -10408
▁ㅂㅐㄱㅇㅜㅇ -10409
▁ㅌㅔㅂ -10410
▁ㅅㅣㄱㄱㅜ -10411
▁ㅂㅓㅂㄹㅕㅇ -10412
ㅈㅓㅅ -10413
▁Kim -10414
▁ㄸㅡㅁ -10415
▁ㄱㅕㄴㄱㅗ -10416
▁ㄱㅕㅇㅁㅕㄹ -10417
▁ㅊㅜㄹㅈㅣㄴ -10418
ㅇㅕㅇㅎㅜㄴ -10419
ㅎㅐㅇㅈㅏㅇ -10420
▁mAh -10421
▁ㅇㅏㅇㅈㅠ -10422
▁ㅅㅗㄴㅂㅏㄹ -10423
▁ㅎㅐㅁㅌㅡㄴ -10424
▁ㅇㅐㅇㄱㅡㄹ -10425
ㅊㅓㄴㄹㅣ -10426
▁ㅈㅐㄱㅅㅡ -10427
▁Sport -10428
▁ㄴㅏㄴㄷㅔ -10429
▁ㅈㅓㅇㅈㅣㄴ -10430
ㅁㅜㄴㅎㅘ -10431
ㅂㅐㄴ -10432
▁ㅂㅕㅇㅎㅏㅂ -10433
▁JYP -10434
▁ㅇㅣㄹㄱㅏㄴ -10435
▁ㅊㅓㅇㅁㅜㄴㅎㅚ -10436
▁ㅅㅗㅅㅇㅏ -10437
ㅊㅏㄱㅁㅜㄹ -10438
▁them -10439
▁Ret -10440
ㄱㅗㄱㄹㅣ -10441
ㅂㅜㄴㅌㅜ -10442
ㅊㅠㄴ -10443
▁ㅁㅏㄱㅅㅡ -10444
▁some -10445
▁ㅂㅓㅅㄱㅕ -10446
▁ㅎㅡㄱㅂㅏㄹ -10447
▁ㅇㅣㅅㅅㅔ -10448
ㄱㅕㄱㅌㅐ -10449
▁ㄹㅡㄹㄹㅡ -10450
▁ㅂㅕㄴㄱㅣ -10451
ㅁㅣㄴㅊㅓㄹ -10452
▁Dem -10453
ㅅㅣㄴㄹㅛ -10454
▁ㅈㅒ -10455
▁ㅇㅓㄱㄴㅜ -10456
▁ㅍㅏㄹㄷㅏ -10457
▁ㅁㅕㅇㄱㅖ -10458
▁ㅈㅏㄹㄴㅏ -10459
▁ㄱㅕㅁㅇㅣㅁ -10460
▁ㄱㅗㄹㅈㅓㄹ -10461
▁ㅍㅕㅇㅁㅕㄴ -10462
▁ㅅㅓㅇㅁㅜㄹ -10463
▁GTX -10464
▁Sou -10465
▁ㅇㅏㄹㅈㅔ -10466
ㅅㅓㄹㅅㅜ -10467
▁ㅎㅕㅇㅈㅜ -10468
▁ㅁㅗㄴㅌㅡ -10469
▁ㄷㅗㅇㄹㅠㄹ -10470
▁Kill -10471
▁ㅋㅓㄹㅌㅡ -10472
▁ㅌㅗㅁㅅㅡㄴ -10473
▁Tour -10474
▁ㄴㅏㅁㅅㅏㄴ -10475
ㅇㅓㅂㅅㅗ -10476
▁ㅂㅏㄹㅇㅕㄹ -10477
ㅇㅏㄴㅂㅜ -10478
ㄹㅏㅇㅋㅔㄴㅅㅠ -10479
ODE -10480
▁ㄷㅏㅀ -10481
▁ㅈㅓㄴㄱㅘㅇㅍㅏㄴ -10482
▁ㅂㅏㅇㅇㅏ -10483
ㄷㅗㅇㅁㅜㄹ -10484
▁ㄱㅕㄴㅅㅡㅂ -10485
▁GC -10486
arth -10487
▁ㅇㅕㄱㅁㅏ -10488
ㅁㅏㄱㅎㅣ -10489
▁430 -10490
▁ㅌㅐㄹㄹㅓㄴㅌㅡ -10491
▁ㅁㅏㄴㄴㅕㄴ -10492
▁ㅇㅣㅂㅈㅓㅁ -10493
▁LOL -10494
▁ㅇㅝㄴㄱㅏ -10495
▁ㄱㅡㄴㅇㅠㄱㅈㅣㄹ -10496
▁ㅇㅔㄹㅅㅏ -10497
▁236 -10498
aser -10499
ㄱㅐㅅ -10500
▁KBL -10501
onna -10502
ㅅㅠㄹㄹㅣ -10503
ㅈㅜㅇㅎㅐ -10504
▁ㅊㅏㅁㅊㅣ -10505
▁ㅎㅏㄴㅈㅣ -10506
ner -10507
▁ㄱㅡㄱㅎㅏ -10508
▁ㅈㅓㅇㄱㅡㄴㅇㅜ -10509
▁ㅊㅓㄹㄱㅜ -10510
ㅇㅠㄴㅇㅕㄹ -10511
ㅃㅗㅇ -10512
▁Orig -10513
▁ㄱㅣㅁㅇㅜ -10514
▁ㄴㅗㄹㄹㅓ -10515
▁ㅇㅣㄴㅌㅓㄴ -10516
▁her -10517
ways -10518
▁ㄱㅏㄴㄱㅘ -10519
▁Beat -10520
▁ㅇㅕㄹㅎㅘ -10521
▁ㄱㅏㅁㅊㅏㄹ -10522
▁ㅁㅗㄱㅈㅏㅇ -10523
▁ㄷㅗㄹㄱㅗ -10524
ㄹㅓㅁㅁㅐ -10525
▁ㅂㅏㅇㅌㅏㄴㅂㅗㄱ -10526
ㅂㅗㄹㅌㅡ -10527
▁ㄱㅏㄹㅂㅣ -10528
▁ㄱㅕㄱㄴㅏㅂㄱㅗ -10529
ㄸㅓㄹ -10530
▁WORLD -10531
▁ㅇㅝㄴㅈㅓㅇㄷㅐ -10532
ㅇㅣㄹㄹㅓㄴㅌㅡ -10533
▁ㄱㅜㄴㅅㅔ -10534
▁ㅅㅏㅇㅂㅕㅇ -10535
▁265 -10536
▁ㅈㅣㄹㄹㅓㅅ -10537
▁ㅂㅔㅅ -10538
▁ㅅㅣㅅ -10539
ormal -10540
ㅅㅏㅇㅅㅡ -10541
▁ㅇㅣㄹㅍㅏ -10542
▁ㅌㅔㅁㅍㅔ -10543
▁NAS -10544
▁ㅅㅕㅅ -10545
ㅍㅐㅇㅇㅣ -10546
▁ㅈㅏㅇㅁㅜㄴ -10547
▁<< -10548
iful -10549
▁ㅎㅏㄴㅁㅣ -10550
ㅇㅕㅇㅈㅣㄴ -10551
▁ㅂㅗㄱㅅㅣㄱ -10552
▁PERF -10553
▁ㄱㅣㅁㄱㅓㄴ -10554
▁Luc -10555
▁ㅈㅠㄹ -10556
UND -10557
▁ㅌㅗㅇㅌㅗㅇ -10558
ㅁㅜㄴㅈㅓㅁ -10559
▁ㅂㅗㄴㄸㅡ -10560
▁ㅇㅣㄹㅈㅓㄴ -10561
▁3500 -10562
▁Story -10563
▁MAD -10564
44 -10565
▁When -10566
▁ㅊㅓㅇㄷㅗㅇ -10567
ㅅㅓㅇㅇㅐ -10568
▁ㅋㅜㄱ -10569
▁ㅇㅏㅍㅁㅓ -10570
▁ㅎㅏㅇㅅㅗ -10571
ㅘㄱ -10572
▁she -10573
▁Tech -10574
▁ㅈㅏㅇㅈㅣ -10575
▁ㄱㅗㅇㅍㅕㅇ -10576
▁ㅍㅕㄴㅊㅏㄴ -10577
ANG -10578
▁ㅂㅐㄱㄱㅘ -10579
▁ㅇㅑㄱㅅㅏ -10580
▁ㄱㅗㅇㅇㅕㄴㅈㅏㅇ -10581
▁ㅁㅏㄱㅅㅣ -10582
▁ㅍㅗㄱㅈㅜㄱ -10583
▁ㅎㅏㄴㅇㅣㄴ -10584
▁ㄱㅏㅇㅁㅣㄴㅎㅗ -10585
▁ㅉㅏㅂ -10586
ㅇㅜㄹㅈㅡㅇ -10587
▁ㅅㅜㄴㅈㅓㄴㅎㅣ -10588
▁WWF -10589
▁ㅆㅡㄹㄹㅣ -10590
ㅎㅕㅁ -10591
▁ㅅㅓㄴㅇㅠㄹ -10592
▁ㅈㅗㄱㅈㅗㄱ -10593
▁ㅊㅜㄹㄱㅜㄱ -10594
▁ㅎㅏㄴㅇㅓㅄㅇㅣ -10595
▁ㅅㅗㅇㅈㅣ -10596
▁ㅇㅗㄴㄱㅓㄴ -10597
▁ㅈㅓㅇㅅㅓㄹ -10598
▁ㅋㅗㅂ -10599
▁Album -10600
▁ㄸㅏㅇㄱㅜㄹ -10601
fl -10602
ations -10603
ㅁㅏㄴㅇㅣㄴ -10604
▁DIO -10605
▁Who -10606
▁ㅅㅏㅇㄷㅣ -10607
▁ㅂㅜㄹㄱㅜㄹ -10608
▁ㅎㅜㄹㅉㅓㄱ -10609
▁ㅅㅓㄴㄷㅓ -10610
▁ㅅㅗㄴㄷㅐ -10611
▁ㅅㅣㄴㅌㅏ -10612
▁ㅍㅜㄹㅌㅏ -10613
▁ㅇㅏㅁㅁㅜㄱ -10614
▁ㅍㅐㅅ -10615
▁GE -10616
ㄲㅓㅅㅎㅐ -10617
ㄹㅏㅁㅈㅟ -10618
▁ㄱㅡㅂㄱㅏㅁ -10619
▁ㅈㅓㅇㅈㅜㄴㅎㅏ -10620
ait -10621
▁Step -10622
▁ㅇㅓㄹㄹㅡㄴ -10623
▁ㅅㅣㄹㄱㅣ -10624
ㅂㅏㄹㄹㅕㄱ -10625
▁ㅅㅐㅅ -10626
39 -10627
ㅅㅣㄱㅇㅓ -10628
▁ㅅㅏㅁㄱㅜㄱㅅㅏ -10629
▁ㅈㅡㄴ -10630
▁ㄱㅕㅌㄷㅡㄹㅇㅣ -10631
ㅅㅣㄹㄹㅗㄱ -10632
▁ㅂㅓㄴㅉㅓㄱ -10633
ㅋㅗㅂ -10634
▁232 -10635
ㅌㅗㅇㅇㅣㄹ -10636
▁art -10637
▁ㄱㅡㅁㅅㅔ -10638
▁ㅇㅣㄴㅍㅏ -10639
ㅈㅏㅇㅈㅏ -10640
▁ㅇㅕㄱㅈㅓㄱ -10641
▁ㅁㅕㅇㅎㅏ -10642
▁ㅁㅐㄴㅅㅓ -10643
▁ㅅㅜㄱㅈㅓㄱ -10644
ㅇㅠㄴㅅㅜ -10645
▁ㅇㅡㅁㅍㅏ -10646
▁ㄱㅘㅇㅇㅑㅇ -10647
▁ㅎㅐㅇㄹㅕㄹ -10648
▁ㅎㅣㅅ -10649
▁Death -10650
▁ㄷㅏㄴㄷㅗ -10651
▁ㅅㅏㄴㅅㅏㄴㅈㅗ -10652
▁ㅇㅣㄴㅍㅔ -10653
▁ㅁㅜㄹㄱㅕㄹ -10654
▁sec -10655
ㅁㅣㄴㅈㅏ -10656
▁ㅇㅠㄱㅅㅣㄴ -10657
▁ㅇㅣㄹㄱㅘㄹ -10658
▁ㅎㅏㅇㅅㅓㅇ -10659
▁ㅇㅕㅂㄱㅣ -10660
▁ㅇㅓㄴㄸㅡㅅ -10661
▁ㅇㅗㄱㅅㅡ -10662
▁ㅈㅣㄴㅈㅜㅇ -10663
▁ㄱㅗㅇㄱㅕㄱㄷㅐ -10664
ㄱㅏㄱㅅㅏㅇ -10665
▁ㅊㅗㅇㅇㅐ -10666
▁ㅎㅗㅇㅊㅏ -10667
body -10668
▁ㄱㅘㄹㅎㅗ -10669
▁ㄷㅗㄱㅅㅏㄹ -10670
▁ㅂㅕㄴㅅㅗㄱ -10671
ㅅㅗㅇㅇㅣ -10672
▁ㄱㅡㅁㅂㅣㅊ -10673
▁ㅍㅡㄹㄹㅗㅅ -10674
▁1931 -10675
▁ㄱㅕㄹㅂㅓㄴ -10676
OSS -10677
▁about -10678
ㅇㅣㄹㄱㅓㄴ -10679
ㅅㅓㄴㅇㅣㄴ -10680
▁ㅂㅜㄹㄹㅠㄴ -10681
▁ㅅㅓㅁㅁㅓ -10682
▁ㅇㅑㅇㅇㅠㄱ -10683
ㅂㅏㄱㅅㅏ -10684
ㅅㅏㄴㄷㅐ -10685
ene -10686
▁ㅊㅓㄴㅈㅏ -10687
▁ㄴㅔㄹㅅㅡㄴ -10688
▁ㅁㅟㄹㄹㅓ -10689
▁ㅅㅡㅇㅅㅡㅇㅈㅏㅇㄱㅜ -10690
▁510 -10691
▁ㅎㅗㄴㅈㅏㅂ -10692
▁ㄹㅖ -10693
▁ㄴㅏㅁㅅㅓ -10694
▁ㅍㅕㅇㅇㅢ -10695
▁ㅇㅝㄴㅅㅏㄴ -10696
▁Champion -10697
ㅌㅡㄹㄹㅣㄴ -10698
uss -10699
▁1935 -10700
▁ㅅㅣㅁㅇㅕㅇ -10701
▁ㅊㅏㄱㅇㅏㄴ -10702
▁SNK -10703
ㄹㅐㄴㅌㅡ -10704
ㅅㅓㅇㄱㅜ -10705
▁ㅅㅏㅇㅅㅜ -10706
▁ㅎㅘㅇㄴㅕ -10707
▁ㅇㅑㅇㅎㅕㄴㅈㅗㅇ -10708
37 -10709
▁ㅇㅔㅅ -10710
▁ㅍㅏㄴㅌㅔ -10711
rough -10712
▁ㅇㅘㅇㅈㅓㅇ -10713
▁ㅊㅓㅂㅈㅏ -10714
ume -10715
AE -10716
▁ㅂㅑ -10717
▁ㅈㅗㄱㅂㅗ -10718
ㅅㅓㄹㅁㅜㄹ -10719
▁Line -10720
▁ㅈㅣㄹㅊㅐㄱ -10721
▁ㅊㅓㄹㅈㅏ -10722
IDE -10723
▁Tra -10724
▁1700 -10725
ㅇㅣㄴㄹㅣ -10726
▁ㄲㅗㅁㄲㅗㅁ -10727
▁ㅎㅘㄴㅇㅠㄹ -10728
▁ㅎㅡㄱㅅㅐㄱ -10729
▁come -10730
▁ㅋㅐㅂㅊㅕ -10731
▁ㄷㅏㅅㅋㅓㅁ -10732
ㅇㅜㄴㅅㅡ -10733
ㅇㅛㅇㅈㅣ -10734
▁LCS -10735
lease -10736
▁ㅇㅚㄴㅂㅏㄹ -10737
▁ㅈㅏㅇㅂㅏㄹ -10738
▁ㅅㅓㄴㄹㅑㅇ -10739
ㄴㅗㅍ -10740
▁XBOX -10741
▁ㄷㅗㅇㅈㅏ -10742
▁ㅁㅣㄹㅈㅣㅍ -10743
▁ㅈㅓㄴㅁㅕㄴㅈㅓㄴ -10744
▁Du -10745
▁ㅌㅏㄹㄹㅏㄱㅈㅏ -10746
▁ㅈㅗㄴㄱㅣ -10747
ESS -10748
orever -10749
▁ㅂㅕㄴㅊㅣㄱ -10750
▁Apple -10751
ㅈㅗㅇㅇㅜㄱ -10752
▁305 -10753
ㅇㅣㄴㅊㅡ -10754
ㅇㅣㄴㅎㅚ -10755
▁ㄸㅏㄱㅈㅣ -10756
self -10757
▁Bus -10758
▁ㄱㅏㅁㄱㅕㄱ -10759
ral -10760
▁TRA -10761
▁ㅎㅙㅅㅂㅜㄹ -10762
▁ㅂㅏㄱㅇㅝㄴ -10763
▁747 -10764
▁ㄷㅏㄹㄹㅏㅇ -10765
▁ㄷㅚㄴ -10766
▁ㄱㅝㄴㅎㅕㄱ -10767
▁238 -10768
▁ㅈㅡㅇㅊㅏ -10769
▁ㅅㅔㄹㄹㅔㄱ -10770
INAL -10771
▁ㄱㅡㅂㅅㅗ -10772
▁ㅅㅣㄹㅁㅜㄹ -10773
ㅇㅛㄱㅈㅏㅇ -10774
▁ㅇㅝㄴㅇㅏㄴ -10775
▁RT -10776
ㄷㅔㄴㅌㅣ -10777
▁ind -10778
▁ㄱㅜㄱㅈㅣ -10779
ㅂㅓㅂㅇㅣㄴ -10780
▁Electr -10781
▁ㅉㅏㄴ -10782
▁2400 -10783
ㅈㅓㅇㄱㅜ -10784
▁ㅁㅗㅅㅅㅐㅇㄱㅣ -10785
▁ㅇㅣㄹㅉㅣㄱㅇㅣ -10786
ㅈㅗㅇㄷㅏㅇ -10787
▁ㅇㅑㅁㅈㅓㄴㅎㅣ -10788
▁ㅎㅕㄹㅇㅏㅂ -10789
▁SB -10790
▁ㅍㅐㅇㅍㅐㅇ -10791
ㄱㅡㄴㄱㅓ -10792
elie -10793
▁ㅂㅐㄱㅎㅗ -10794
▁ㅎㅐㅇㅋㅡ -10795
▁ㅎㅏㅂㄱㅕㄱㅈㅏ -10796
▁ㄸㅡㄷㄱㅣ -10797
▁SUPER -10798
▁640 -10799
▁Green -10800
▁ㅈㅓㄹㅈㅔ -10801
▁ㅇㅘㄴㅅㅡㅇ -10802
▁ㅅㅓㄹㄴㅏㄹ -10803
▁Mal -10804
▁ㅎㅘㅇㅊㅓㄴ -10805
▁ㅂㅏㄹㅎㅛ -10806
ㅂㅏㅇㄱㅜㄴ -10807
▁ㄱㅗㅇㅈㅓㄴ -10808
ander -10809
▁ㅇㅏㄴㅇㅕㅇ -10810
▁ㅅㅏㅁㄱㅏㄱㅎㅕㅇ -10811
▁325 -10812
▁Dead -10813
▁ㅇㅏㄱㅈㅐ -10814
▁ㅈㅏㅇㅎㅘ -10815
ㄹㅡㅂ -10816
▁Tem -10817
autiful -10818
▁ㅊㅓㄴㅇㅘㅇ -10819
▁ㄱㅏㄱㅂㅗㄴㄱㅏ -10820
▁ㅁㅏㅇㅅㅣㄴ -10821
▁ㅅㅣㄴㄹㅛㅇ -10822
▁Pass -10823
▁ㅇㅣㄴㄱㅖ -10824
ines -10825
▁ㅈㅏㄴㅈㅗㄴ -10826
▁ㄷㅗㄱㄹㅣㅂㅇㅜㄴㄷㅗㅇㄱㅏ -10827
▁ㅇㅕㄴㅁㅗㅅ -10828
▁ㄱㅗㅇㄱㅕㄱㅈㅣㄴ -10829
▁ㅎㅘㅇㅍㅖ -10830
▁1910 -10831
▁NV -10832
▁ㄱㅏㄱㅈㅜ -10833
▁ㄱㅏㄴㅅㅜ -10834
▁Ant -10835
▁ㅂㅗㄹㅌㅣ -10836
ㅌㅡㄹㅈㅡ -10837
awn -10838
▁ㅍㅔㄹㄹㅔ -10839
ortex -10840
▁ㄷㅏㅇㅂㅜ -10841
▁ㅂㅐㄱㅁㅏ -10842
▁ㅊㅗㅇㅅㅜ -10843
ㅋㅡㄹㄹㅣㅂㅅㅡ -10844
ㅁㅣㄹㄹㅏ -10845
▁ㅈㅓㅇㅅㅣㄴㄱㅣ -10846
▁NAT -10847
▁IEM -10848
▁1918 -10849
▁ㅂㅜㄹㄱㅖ -10850
▁ㄲㅓㅂㄷㅔ -10851
ㅅㅡㄹㄹㅏㄴㄷㅡ -10852
▁Home -10853
▁EXPERT -10854
▁ㄱㅜㄷㄱㅓㄴ -10855
▁ㅆㅗㄱ -10856
ㅇㅣㄴㅊㅏ -10857
▁ㄱㅡㄱㄷㅗㅇ -10858
ㅁㅜㄷ -10859
ㅎㅜㄴㄹㅕㄴ -10860
▁ㅂㅗㄱㅍㅏㄴ -10861
▁Lee -10862
▁League -10863
▁ah -10864
▁da -10865
▁ㄱㅏㄱㄱㅘㅇ -10866
▁ㅇㅣㄹㅎㅚ -10867
▁ㅊㅓㅇㄹㅑㅇㄹㅣ -10868
▁EASY -10869
▁sw -10870
▁AAA -10871
▁ㅅㅣㅁㅎㅐ -10872
▁ㅇㅏㅇㅅㅏㅇ -10873
▁ㅂㅐㄱㅈㅗㅇㅇㅝㄴ -10874
▁ma -10875
▁Tom -10876
▁Wanna -10877
▁ㄱㅓㅁㅊㅜㄹ -10878
▁ㅅㅓㄹㄱㅛ -10879
▁ㅅㅗㄹㄹㅜ -10880
▁EL -10881
ㅍㅔㄹㄹㅓ -10882
▁ㄱㅏㄺ -10883
ily -10884
▁TEAM -10885
▁ㅋㅓㅂㅅㅡ -10886
▁ㅁㅓㅇㅎㅏ -10887
▁ㅋㅓㄹㅊㅕ -10888
▁ㅂㅜㄴㅅㅣㄹ -10889
▁ㅅㅜㄱㅂㅏㄱ -10890
▁ㅈㅜㅇㅅㅣㅁㅂㅜ -10891
▁ㅎㅗㅂ -10892
▁ㄱㅣㄹㄹㅣ -10893
▁Del -10894
ㅅㅏㄹㅍㅣ -10895
▁ㄹㅜㄹㄹㅔㅅ -10896
▁ㄷㅐㄱ -10897
▁ㅂㅜㄱㅂㅓㄹ -10898
▁!!" -10899
▁ㄹㅐㄹㄹㅣ -10900
▁Level -10901
ㅂㅐㄱㅎㅗ -10902
▁ㅁㅏㄹㄸㅜㄱ -10903
▁ㄱㅓㄴㄷㅏㄹ -10904
▁ㄴㅜㄴㅇㅕ -10905
▁ㅋㅗㅇㄱㅗ -10906
▁IMF -10907
▁ㄷㅏㄴㅎㅗ -10908
IAL -10909
▁ㅇㅏㄹㄹㅕ -10910
▁ㅁㅏㄹㅂㅓ -10911
▁ㅍㅕㅇㅇㅗㄴ -10912
eter -10913
▁ㄴㅓㅅ -10914
▁ㄱㅏㅇㄱㅜㄱ -10915
▁ㄷㅔㄹㄹㅣ -10916
▁ㄴㅜㄴㄱㅣㄹ -10917
▁ㅈㅓㅇㅎㅜㄴ -10918
▁ㅎㅘㅇㄹㅛㅇ -10919
ㄹㅡㄹㅌㅔ -10920
▁GAME -10921
▁ㅁㅐㅇㄹㅕㄹ -10922
ㄱㅗㅇㄱㅏㄴ -10923
ㅂㅓㄹㅇㅣ -10924
▁ㅇㅏㄴㄷㅐ -10925
▁Friend -10926
▁ㅁㅜㄱㅁㅜㄱ -10927
▁ㅈㅗㅇㅅㅗㄱ -10928
▁ㅍㅜㅁㅁㅗㄱ -10929
▁ㄴㅏㅁㅈㅜ -10930
▁ㄷㅗㄱㅅㅗ -10931
▁229 -10932
▁ㅇㅗㄹㄹㅣㅁ -10933
▁ㄷㅗㅇㄸㅓㄹㅇㅓ -10934
ISS -10935
▁ㅇㅛㅇㅇㅣㄴㅅㅣ -10936
▁ㄱㅕㄹㅈㅓㅇㄹㅕㄱ -10937
▁Cha -10938
▁ㅂㅏㄹㅍㅗ -10939
▁ㄱㅕㄱㅂㅜㄴ -10940
rol -10941
▁bit -10942
▁ㅂㅐㄱㅅㅓㄹ -10943
▁ㅅㅗㅇㅅㅣㄴ -10944
ible -10945
ider -10946
ㅇㅜㄹㅇㅓ -10947
▁ㅇㅓㅁㅎㅏ -10948
▁ㅈㅏㅇㄴㅏㄴㅊㅣ -10949
▁ㅈㅓㅇㅅㅣㄴㅂㅕㅇ -10950
▁244 -10951
ㅇㅛㅇㅅㅏ -10952
▁ㅋㅗㄹㄹㅣ -10953
▁ㅇㅓㄴㄹㅣ -10954
▁ㄷㅡㄷㅂㅗ -10955
▁Univers -10956
▁ㅂㅜㄹㄹㅑㅇㅂㅐ -10957
ouch -10958
▁BMS -10959
▁their -10960
▁ㅂㅏㄱㅈㅣㄴㅇㅕㅇ -10961
72 -10962
▁Mac -10963
ㅈㅏㄱㅂㅓㅂ -10964
▁ㄱㅗㄹㄱㅕㄱ -10965
▁ㅅㅣㄹㄱㅕㄱ -10966
▁ㅈㅓㅇㅇㅐㄱ -10967
▁hell -10968
ㅈㅣㅂㄱㅏ -10969
▁ㅂㅜㄴㅎㅏ -10970
▁ㅂㅜㄹㄱㅗㅁ -10971
▁ㅇㅘㄴㄹㅕㄱ -10972
31 -10973
ves -10974
onic -10975
▁Chap -10976
▁ㅅㅓㅇㄱㅖ -10977
▁ㅎㅕㄴㅅㅔ -10978
▁765 -10979
▁DL -10980
▁ㄹㅕㄹ -10981
▁Pack -10982
▁ㄷㅗㄹㄱㅣ -10983
▁ㅂㅣㄴㅁㅣㄴ -10984
▁ㅈㅏㅇㅇㅕㅇ -10985
▁AO -10986
▁ㅅㅗㄱㅊㅜㄹ -10987
▁ㅍㅣㅇㄱㅓ -10988
▁ㄱㅣㅁㅅㅏㅇㅅㅜ -10989
▁TBS -10990
ㄱㅘㄴㅎㅏㄱㄱㅛ -10991
ㅇㅕㅇㅇㅜㅇ -10992
my -10993
▁ㅇㅑㅇㅇㅑㅇ -10994
▁251 -10995
▁ㅂㅐㅅㅈㅣ -10996
▁ㅇㅕㅇㄷㅗ -10997
ㄹㅣㄹㄹㅓ -10998
ㅇㅑㄱㄱㅡㅁ -10999
▁ㄱㅏㅇㅂㅜㄱ -11000
▁ㅇㅣㄹㅋㅓㄹ -11001
▁ㄱㅕㄹㅅㅓㄴ -11002
oom -11003
▁ㅎㅏㄴㄹㅠ -11004
▁ㅂㅏㄹㄹㅏㄹ -11005
▁ㅇㅑㄱㅌㅏㄹㅈㅏ -11006
ㄲㅏㅌㅉㅗㄱ -11007
bsp -11008
▁ABC -11009
ㅇㅝㄴㄱㅡㅁ -11010
▁ㅍㅓㅇㅍㅓㅇ -11011
ㅅㅠㅁ -11012
▁NXT -11013
▁Japan -11014
▁ㄱㅘㅇㅎㅐ -11015
▁ㅇㅓㅂㅅㅗ -11016
ㄷㅗㄱㅅㅡ -11017
▁ㅂㅏㄱㄷㅗㅇ -11018
▁ㄴㅗㄹㄹㅣㅁ -11019
DER -11020
ㄱㅓㄱ -11021
▁ATM -11022
▁ㅂㅏㄴㅅㅣㄴ -11023
▁Young -11024
ㅇㅣㄴㅅㅓㅇ -11025
icle -11026
▁ㅌㅡㅁㅌㅏ -11027
▁ㅂㅣㅇㄱㅡㄹㅂㅣㅇ -11028
▁ㅅㅣㄴㄱㅓㅁ -11029
ㄷㅏㅅㄱㅏ -11030
ㅇㅗㄹㄹㅗ -11031
▁ㄱㅗㄴㄷㅗ -11032
▁ㅈㅏㅁㅈㅓㅇ -11033
▁ㅂㅣㅇㄱㅡㄹㅂㅣㅇㄱㅡㄹ -11034
ㅂㅏㅇㅅㅓ -11035
ubl -11036
alent -11037
ㅈㅏㅅㅈㅣㅂ -11038
▁ㅅㅡㅇㅇㅛㅇㅊㅏ -11039
▁ㅅㅏㄹㅂㅓㄹ -11040
▁ㄷㅔㅂ -11041
▁ㅎㅕㅁㅎㅏㄴ -11042
▁ㅅㅓㄹㄹㅣ -11043
▁ㅈㅣㅇㅈㅣㅂ -11044
▁ㅅㅜㄴㅂㅏㄹㄹㅕㄱ -11045
▁ㅌㅡㄱㅎㅖ -11046
▁ㅅㅣㄴㅈㅣㄴ -11047
▁ㅁㅣㄹㅈㅣㅍㅁㅗ -11048
▁hats -11049
▁ㅇㅏㄹㄱㅗ -11050
ㅈㅗㅇㅂㅓㅁ -11051
▁660 -11052
▁ㅋㅔㄹㅌㅡ -11053
▁Que -11054
▁Full -11055
▁nbsp -11056
ㄷㅡㄱㅎㅣ -11057
ement -11058
▁ㅈㅓㄴㅈㅗ -11059
▁ㅎㅗㅇㅇㅣㄱ -11060
ㄴㅔㄹㄹㅣ -11061
ㅅㅓㄴㅅㅡ -11062
ha -11063
ㄹㅔㄴㅌㅡ -11064
leep -11065
ㅌㅜㄹㄹㅜ -11066
ㄷㅔㅁ -11067
▁560 -11068
ㅇㅡㅁㅁㅓㄱ -11069
St -11070
▁res -11071
▁ㅇㅕㄱㅎㅐㅇ -11072
▁Champions -11073
ㅈㅣㄴㄱㅜ -11074
ㅂㅏㅇㄱㅘㄴ -11075
▁ㅂㅏㄴㅂㅏㄴ -11076
▁ㅂㅜㄴㅅㅣㄱ -11077
ㅍㅔㄴㅅㅕㄴ -11078
press -11079
▁ㄱㅣㅁㅈㅏㅇ -11080
▁ㅁㅣㄹㅅㅜ -11081
▁ㅈㅓㅇㄱㅏ -11082
▁ㅎㅕㅇㅂㅓㅂ -11083
▁.? -11084
▁264 -11085
▁ㅅㅐㅇㅅㅗ -11086
▁ㅇㅡㄴㅇㅣㄴ -11087
▁ㅎㅘㅇㅅㅐㄱ -11088
ㅇㅓㄵ -11089
ㅎㅏㅇㅎㅐ -11090
▁ㄱㅘㄴㅅㅔ -11091
▁ㅅㅏㄴㅈㅣ -11092
▁ㅊㅓㄱㅊㅜ -11093
▁ㅎㅘㅇㅈㅐ -11094
ㄹㅜㅅㅂㅏㅁ -11095
uj -11096
▁ㄱㅣㄹㄱㅏ -11097
OTH -11098
▁TSM -11099
▁ㅅㅣㄴㅎㅐ -11100
ㅍㅕㅇㄱㅜ -11101
▁ㄷㅗㅇㄷㅗㄱ -11102
▁ㄱㅡㅇㅈㅣ -11103
▁ㅅㅓㅇㅇㅢ -11104
▁ㅇㅏㄴㅈㅜ -11105
gg -11106
▁ㄱㅓㄴㅁㅏㄴ -11107
▁ㅅㅏㅇㅂㅏㄴㅅㅣㄴ -11108
▁des -11109
ㅈㅓㅇㅉㅓㅇ -11110
ㅅㅏㄴㄷㅡ -11111
▁ㄴㅏㅁㅋㅗ -11112
▁ㅅㅓㅇㅇㅜㄴ -11113
ㅊㅜㄱㅈㅓㄴㅊㅏ -11114
▁ㅂㅗㅇㅌㅜ -11115
▁ㅇㅞㄴㄹㅣ -11116
▁ㅂㅜㄴㅊㅜㄹ -11117
▁OT -11118
▁ㅂㅏㄴㄴㅕㄴ -11119
▁ㅈㅓㄹㅅㅣㄹ -11120
▁ㅎㅏㄴㅅㅡㅇ -11121
ots -11122
▁ㅇㅘㅇㅅㅔ -11123
▁ㅈㅏㄴㅈㅏㄴ -11124
38 -11125
▁hatsan -11126
IF -11127
ㅌㅡㄹㄹㅗ -11128
▁Ho -11129
▁ㅅㅣㅁㅂㅗㄹ -11130
ㅁㅣㄹㅌㅓㄴ -11131
▁ㅅㅏㅇㅊㅡㅇ -11132
▁ㅈㅏㅇㅈㅏ -11133
▁ㅎㅘㄴㅅㅜㄹ -11134
▁html -11135
▁ㅍㅏㄴㄱㅛ -11136
▁ㅅㅏㄹㅇㅠㄱ -11137
▁-, -11138
ㄱㅙㅇㅇㅣ -11139
▁237 -11140
ㄱㅝㄴㄷㅗ -11141
▁ㄴㅗㅇㄷㅗ -11142
▁ㅋㅏㄱ -11143
ㅓㅇㅛ -11144
▁ㅅㅗㄱㅇㅏ -11145
ㅁㅔㄴㅅㅕㄴ -11146
▁ㄱㅣㅁㅂㅗ -11147
ㄱㅘㄴㄹㅣ -11148
ㅅㅏㄴㅂㅜ -11149
▁ㅂㅏㄹㄷㅏㅇ -11150
▁GA -11151
ㄹㅗㄱㅅㅡ -11152
ㅅㅏㄱㅅㅡ -11153
▁ㅂㅓㅁㅌㅚ -11154
▁ㅅㅏㄹㅍㅗ -11155
▁ㅇㅏㅍㅂㅜ -11156
▁ㄴㅏㄴㅈㅣㅇ -11157
▁316 -11158
▁Ele -11159
▁20000 -11160
ㅍㅗㄱㅍㅜㅇ -11161
▁ㅂㅏㄱㄱㅓㄴ -11162
▁POWER -11163
▁ㄱㅏㅁㅁㅏ -11164
▁ㅇㅣㄹㅍㅕㅇㄱㅠㄴ -11165
▁ㅇㅕㄴㄷㅜ -11166
▁ㅈㅣㄱㅈㅗㅇ -11167
▁ㅁㅜㄴㅍㅏ -11168
▁ㅇㅔㄴㄷㅗ -11169
▁ㄷㅓㄹㅎㅏ -11170
▁ㅁㅕㅇㅊㅣ -11171
▁ㄱㅡㄴㅊㅣㄴ -11172
▁ㅊㅜㅇㅇㅣ -11173
▁ㄷㅏㅁㄱㅡ -11174
▁ㄱㅣㅁㄱㅘㅇㅎㅕㄴ -11175
ㅂㅜㄱㅇㅣ -11176
▁ㅎㅘㄹㅂㅏㄹㅎㅣ -11177
▁ㄴㅔㅅㅉㅐ -11178
▁ㅊㅔㅅ -11179
ㅅㅏㅇㅈㅜ -11180
▁ㅊㅏㄴㄹㅏㄴ -11181
▁ㄷㅏㄴㅊㅜㄱㅋㅣ -11182
▁ㅇㅑㄱㅎㅗㄴㅈㅏ -11183
▁Shad -11184
▁ㅂㅏㄴㅇㅣㅂ -11185
ㄹㅐㄴㅅㅓ -11186
▁ㄷㅡㄹㄹㅓ -11187
▁ㅇㅣㄹㅁㅕㄴ -11188
▁ㅈㅓㅇㅅㅏㅇㄱㅡㅂ -11189
▁ㅁㅗㅇㅋㅣ -11190
▁ㅁㅏㅇㅇㅝㄴㄱㅕㅇ -11191
▁ㅂㅣㅅㄷㅐ -11192
▁ㄲㅗㅊㅇㅣㅍ -11193
▁SUV -11194
▁ㄷㅓㅁㅂㅡㄹ -11195
▁ㅇㅑㅇㅂㅜㄴ -11196
▁ㅅㅐㄴㄷㅓ -11197
▁ㅅㅔㄹㄹㅓ -11198
▁DH -11199
ㅈㅏㄶ -11200
▁ㄱㅡㅁㅊㅓㄴ -11201
▁ㅇㅏㄹㅁㅏ -11202
▁ㄱㅣㅁㄴㅏㅁ -11203
▁boy -11204
▁Mad -11205
▁NMB -11206
▁1917 -11207
ㅅㅡㅇㅈㅜㄴ -11208
ㄷㅗㅇㄱㅏㅇ -11209
▁ㅍㅔㄹㄹㅣㄱㅅㅡ -11210
▁Att -11211
▁ㅅㅗㄱㅈㅚ -11212
▁ㄹㅏㅁㅂㅗ -11213
▁ㅎㅏㄴㄹㅏ -11214
▁ㅎㅡㅂㅇㅣㅂ -11215
▁ㅅㅓㄴㄷㅏㄴ -11216
▁ㅋㅗㄹㅌㅡ -11217
▁ㅂㅡㄹㄹㅜㅁ -11218
hn -11219
▁ㄱㅕㄹㅅㅗㄱ -11220
ㅅㅓㄴㅂㅓ -11221
▁ㄴㅠㅁ -11222
ground -11223
▁ㅁㅗㄱㅇㅛㄱㅌㅏㅇ -11224
▁Lun -11225
▁ㅇㅏㅂㄷㅜㄹ -11226
ㄱㅏㄴㅈㅔ -11227
▁254 -11228
ㄷㅓㄱㅇㅣ -11229
▁There -11230
▁ㅂㅏㄹㅂㅕㅇ -11231
▁MUSIC -11232
yo -11233
ㅊㅗㅇㅅㅏ -11234
▁ㅅㅣㄹㄹㅖ -11235
ㅂㅗㄲㅇㅣ -11236
ㅎㅣㅁ -11237
ㄹㅓㄹㄷㅡ -11238
ㅍㅕㅇㄷㅗㅇ -11239
▁Mil -11240
▁ㅇㅕㄴㅈㅏㅇㅍㅗ -11241
▁Mel -11242
▁ㅌㅗㅇㅈㅏㅇ -11243
▁1933 -11244
ㅇㅛㅇㄱㅠ -11245
ㅈㅏㅇㅊㅏㅇ -11246
▁ㅌㅡㄱㄹㅖ -11247
▁ESP -11248
▁ㅋㅡㄹㄹㅜ -11249
▁ㅍㅐㄴㄷㅓ -11250
▁ㅎㅏㄴㅁㅜㄴ -11251
ㅂㅕㅇㄱㅠ -11252
▁ㅈㅏㄱㅈㅏ -11253
ori -11254
ㄱㅣㅍ -11255
▁ㄱㅘㅇㄱㅛ -11256
▁ㄴㅔㅅㅍㅡㄹ -11257
▁ㄴㅔㅅㅍㅡㄹㄹㅣㄱㅅㅡ -11258
ㅆㅓㄱ -11259
▁HKT -11260
▁ㅁㅕㅇㅈㅓㄹ -11261
▁ㅇㅕㅍㅈㅣㅂ -11262
▁ㄴㅐㅇㅊㅓㄹ -11263
▁ㄱㅏㄹㅁㅏㅇ -11264
▁ㄱㅕㄴㅈㅜ -11265
▁ㅅㅔㄴㄱㅗ -11266
▁ㅃㅛㅇ -11267
▁ㅌㅗㅇㅍㅖ -11268
▁ㅎㅗㄴㄴㅐ -11269
▁ㄱㅗㄱㄱㅙㅇㅇㅣ -11270
▁ㄴㅔㄱㅌㅏ -11271
▁ㄱㅜㄱㅂㅗ -11272
ㅊㅡㅁ -11273
▁ㅉㅏㅁㅃㅗㅇ -11274
▁Hi -11275
▁Mer -11276
▁ㅇㅏㄹㄹㅔㄴ -11277
▁ㅎㅏㄴㄱㅜㄱㅅㅏ -11278
▁ㅁㅣㄴㅅㅜ -11279
ㅇㅠㄱㄱㅏㅁ -11280
▁ㄷㅗㅇㄱㅏㅇ -11281
▁ㅈㅑㅇ -11282
ㅇㅜㄱㄷㅓ -11283
▁ㅇㅣㄱㅅㅏ -11284
▁Pa -11285
ㅋㅏㅇ -11286
▁242 -11287
▁ㅎㅗㄱㄷㅗㄱ -11288
▁ㅁㅐㅇㄷㅗㄱㅊㅜㅇ -11289
▁ㅍㅓㅁㅇㅞ -11290
ㅎㅏㄱㅇㅕ -11291
▁ㅁㅗㄹㄷㅜ -11292
▁ㅅㅣㄴㅌㅏㄱ -11293
ㄷㅜㄴㅈㅣ -11294
▁ㅈㅡㅇㅅㅣㄱ -11295
▁ㅈㅓㄴㅂㅓㅁ -11296
▁ㅇㅘㅇㅊㅏㅇ -11297
▁ㅍㅏㄴㄴㅔㄹ -11298
▁ㅈㅏㅇㅈㅏㄱ -11299
▁ㅅㅓㅇㅂㅜㄱ -11300
ㅇㅏㄴㄱㅘㄴ -11301
ility -11302
▁ㅇㅡㄴㄷㅜㄴ -11303
▁ㅅㅓㄹㅇㅝㄴ -11304
▁ㅂㅜㄹㅁㅕㅇㅇㅖ -11305
▁ㅂㅜㄹㄹㅣㅅ -11306
▁ㅅㅣㄱㅇㅛㅇ -11307
▁ㄴㅏㄱㅇㅑㅇ -11308
ㅅㅐㅇㅅㅓㅇ -11309
▁Games -11310
▁ㄱㅜㅇㅈㅓㅇ -11311
▁Easy -11312
▁wanna -11313
▁ㅈㅓㄱㄷㅗ -11314
ㅍㅏㅂ -11315
▁ㅇㅐㄴㅌㅡ -11316
▁ㅈㅓㅇㅂㅏㄱ -11317
▁dr -11318
▁ㅈㅏㄴㅊㅣ -11319
▁ㅁㅜㄴㄱㅕㅇ -11320
▁ㅎㅏㄴㅈㅗㄱ -11321
▁ㅆㅘ -11322
▁246 -11323
▁left -11324
▁ㅎㅏㅇㅁㅏ -11325
▁ㅂㅏㄴㅇㅕㄹ -11326
82 -11327
▁ㄴㅏㅁㄷㅏ -11328
▁ㅋㅗㄹㄹㅣㄴ -11329
ison -11330
▁SKY -11331
ㅅㅓㅇㅎㅜㄴ -11332
▁ㅌㅏㄴㄹㅕㄱ -11333
▁ㅍㅕㄴㅎㅑㅇ -11334
▁Spe -11335
▁ㅊㅗㅇㅊㅔ -11336
▁ㅈㅣㅇㅂㅓㄹ -11337
avy -11338
▁EE -11339
ense -11340
▁ㅁㅏㄴㅅㅣㄴ -11341
ㅉㅣㄹ -11342
▁ㅇㅏㄹㅌㅔ -11343
▁ㄷㅓㄴㄷㅔ -11344
▁ㅍㅕㄴㅊㅏ -11345
▁ㅂㅏㄹㄷㅏㄴ -11346
▁ㅊㅣㅂㅅㅔㅅ -11347
ㄴㅏㄹㄹㅔ -11348
.. -11349
▁460 -11350
▁ㄷㅟㅅㄷㅏㅁ -11351
▁Road -11352
▁ㅅㅣㄴㅇㅑㄱ -11353
▁ㅊㅓㄹㅎㅏㄱㅈㅏ -11354
▁ㅎㅏㅇㄱㅗㅇㄷㅐ -11355
▁ㅂㅏㄱㅅㅗ -11356
▁ㅅㅓㅂㅈㅓㅇ -11357
▁ㅌㅗㅇㅈㅗ -11358
▁ㄱㅡㅁㅁㅜㄹ -11359
ㅅㅣㄹㅅㅏㅇㅂㅜ -11360
▁ㅁㅕㅇㅅㅣㄹㅅㅏㅇㅂㅜ -11361
ㅂㅏㅇㅇㅝㄴ -11362
▁ㄱㅗㅇㅁㅣㄴ -11363
▁ㄱㅗㅇㅎㅘㅇ -11364
▁per -11365
ㄹㅏㄴㄷㅏ -11366
▁VC -11367
▁ㅁㅏㄹㄹㅕ -11368
ㅎㅘㅇㅎㅜ -11369
▁ㅅㅣㄹㄹㅗㄱ -11370
▁Port -11371
ㄴㅜㄱㅅㅡ -11372
ㄹㅣㄴㅌㅓ -11373
▁ㄴㅐㅁㅂㅣ -11374
▁ㅇㅣㄴㄷㅓ -11375
▁ㅇㅣㄴㅅㅜㄹ -11376
ㅊㅗㄴㅂㅓ -11377
ㅊㅜㅇㄹㅠ -11378
▁ㅅㅐㄱㅈㅓㄱ -11379
▁ㅂㅓㄴㄷㅡㄹ -11380
!! -11381
▁ㄷㅗㅇㅂㅐㄱ -11382
▁1928 -11383
▁Brave -11384
▁737 -11385
▁ㅅㅣㄹㄹㅣㄴㄷㅓ -11386
mon -11387
92 -11388
ㅊㅏㅇㅅㅣㄱ -11389
ㅈㅡㄱ -11390
▁666 -11391
▁ㅁㅏㅈㅇㅏ -11392
▁ㅂㅡㄹㄹㅣㅇ -11393
▁ㅂㅣㅅㅈㅏ -11394
▁ㅇㅝㄴㄷㅐ -11395
▁ㅅㅓㅇㅈㅗㅇ -11396
▁ㅅㅓㄴㅊㅟ -11397
▁FT -11398
▁ㅇㅡㄱ -11399
▁ㅈㅣㄴㅍㅜㅇ -11400
▁ㅎㅕㄹㄱㅘㄴ -11401
▁ㅇㅔㄹㄷㅏ -11402
▁ㅇㅏㄹㄹㅔㄱㅅㅣ -11403
▁ㅅㅖㄴ -11404
▁ㅇㅕㄴㅈㅏㅇㅅㅓㄴ -11405
▁ㄷㅏㄴㄱㅜㄱ -11406
▁et -11407
▁php -11408
▁ㅇㅠㅅ -11409
▁ㅂㅏㅇㅅㅜ -11410
▁ㅇㅕㄱㅈㅏㅇ -11411
ㄱㅣㅅㄱㅓ -11412
▁ㄱㅓㅂㅁㅓㄱ -11413
▁ㅂㅏㄷㅊㅣㅁ -11414
▁Long -11415
▁501 -11416
▁namu -11417
ㄴㅑㅇㄱㅏㅁ -11418
▁Call -11419
▁ㄱㅜㅇㄱㅝㄹ -11420
▁Va -11421
ㅋㅓㄹㄹㅗ -11422
▁Esports -11423
▁Snow -11424
ㅂㅓㅇ -11425
▁ㅈㅜㅇㅇㅛㅇ -11426
▁FS -11427
▁ㅎㅗㄹㅅㅜ -11428
▁ㅈㅏㅇㅇㅣ -11429
oup -11430
▁ㅁㅗㅁㄱㅏㅄ -11431
ㄷㅏㄹㅂㅜ -11432
▁ㅌㅏㅂㅅㅡㅇㅈㅏ -11433
ㄲㅗㅇ -11434
▁ㅍㅏㅌ -11435
▁ㅎㅏㄴㅅㅣㄴ -11436
▁ㅁㅜㄹㅂㅏㅇㅇㅜㄹ -11437
▁ㅅㅗㄱㅈㅜ -11438
▁Bu -11439
▁243 -11440
▁been -11441
▁Key -11442
▁ㄱㅣㄹㅌㅣ -11443
▁ㅌㅏㄴㅅㅏㄴ -11444
▁ㄷㅡㅇㄹㅗㄱㄱㅡㅁ -11445
▁ㄷㅗㄹㅂㅏㄹ -11446
▁ㅇㅑㅇㅍㅏㄹ -11447
▁1932 -11448
▁ㅅㅡㄹㄹㅓㅁㅍㅡ -11449
▁Bet -11450
▁ㅋㅝㄴ -11451
box -11452
▁ㅇㅝㄹㄱㅘㅇ -11453
▁ㅇㅑㅇㅈㅐ -11454
▁530 -11455
▁ㅊㅓㅇㅈㅏ -11456
▁ㄱㅗㄷㅈㅏㄹ -11457
▁285 -11458
ㅂㅏㄱㄲㅗ -11459
▁ㅁㅏㄴㄷㅏㅁ -11460
▁Arc -11461
▁ㅍㅕㅇㅅㅣ -11462
▁ㅊㅓㄴㅇㅏㄴㅅㅣ -11463
▁1927 -11464
▁ㅇㅠㄴㅎㅚ -11465
▁ㄱㅕㅇㅅㅏㄴ -11466
▁ㅁㅕㅇㅇㅓㄴ -11467
▁ㅊㅗㅇㄱㅓㅁ -11468
▁ㄷㅗㅇㄷㅜ -11469
▁ㅊㅓㅇㅎㅗㄴ -11470
▁WCW -11471
▁ㅅㅏㄹㅇㅣㄴㅂㅓㅁ -11472
▁ㅋㅏㄴㅈㅏ -11473
ㄷㅗㅇㅇㅜㄱ -11474
▁ㅎㅑㅇㅅㅣㄴㄹㅛ -11475
▁ㅇㅡㄴㅇㅓ -11476
▁ㅂㅗㄴㄷㅐ -11477
▁ㄱㅝㄴㄹㅕㄱㅈㅏ -11478
ITE -11479
▁ㅎㅏㄴㅅㅜ -11480
▁ㅊㅓㄴㅁㅜㄴㅎㅏㄱ -11481
▁pop -11482
▁war -11483
▁ㄴㅜㄴㅇㅏㄹ -11484
▁ㅎㅝㄴ -11485
ㅊㅓㅇㅈㅏㅇ -11486
iri -11487
▁LB -11488
▁ㅇㅣㄹㄱㅡ -11489
▁ㅂㅜㄴㄷㅏㅇㅅㅓㄴ -11490
by -11491
▁Her -11492
▁802 -11493
▁1929 -11494
▁ㄱㅏㄴㄷㅏㅁ -11495
▁ㄴㅗㅇㅅㅓㅇ -11496
▁ㅂㅏㅇㅎㅑㅇㅋㅣ -11497
WAR -11498
ㅁㅠㄹㄹㅓ -11499
ㄴㅛㅇ -11500
▁ㄹㅓㅅ -11501
▁es -11502
▁ㅅㅜㄴㅇㅑㅇ -11503
▁ㅊㅣㄴㅅㅜㄱ -11504
▁ACT -11505
▁Secret -11506
▁ㅎㅏㄱㄱㅜㄴ -11507
enn -11508
▁ㄴㅜㄹㄹㅣ -11509
▁ㅁㅗㄱㄷㅗ -11510
▁ㅅㅣㄴㅇㅖ -11511
▁ㅁㅏㄴㅇㅕㄴ -11512
▁GIT -11513
ㄷㅓㅇㅇㅓ -11514
▁TECHN -11515
▁1925 -11516
▁ㅅㅓㅇㄷㅏㄴ -11517
▁ㅇㅕㄴㅎㅏㅂㄱㅜㄱ -11518
VEN -11519
ㅘㄴ -11520
▁ㅊㅏㅇㅂㅓㅂ -11521
▁ㅊㅗㄴㅈㅏㅇ -11522
▁ㅅㅐㅇㅁㅗㄹㄴㅕㄴ -11523
ㅈㅣㄴㄱㅣ -11524
▁ㅅㅣㄴㄱㅛ -11525
▁ㅇㅡㄴㅊㅗㅇ -11526
▁ㅂㅏㄱㅅㅓㄱㅁㅣㄴ -11527
ㅅㅣㅂㅈㅏ -11528
▁ㅂㅐㄱㅂㅕㅇㅈㅓㄴ -11529
LY -11530
als -11531
▁ㅎㅘㅇㅇㅣㄴ -11532
xt -11533
▁Kar -11534
▁NCT -11535
▁ㅇㅠㄱㅇㅏ -11536
▁Gh -11537
▁248 -11538
▁take -11539
▁ㅅㅡㅇㅈㅗ -11540
▁Knight -11541
▁into -11542
▁ㅂㅗㄱㅅㅓ -11543
▁ㅅㅓㄴㅈㅓㅁ -11544
▁ㅍㅏㄱㅍㅏㄱ -11545
▁ㅌㅗㅇㅇㅕㅇ -11546
▁ZZ -11547
▁ㅂㅜㄴㄷㅏㅁ -11548
▁ㅇㅜㅇㅈㅏㅇ -11549
▁ㅂㅏㄱㅊㅏㄴㅎㅗ -11550
▁OC -11551
▁VI -11552
ㅎㅏㅇㅈㅓㄴ -11553
ㄷㅏㄱㄴㅏ -11554
▁ㅇㅣㄺㅎㅣ -11555
▁ㅁㅐㄴㅅㅗㄴ -11556
▁ㅅㅏㅁㅊㅗㅇㅅㅏ -11557
▁GITAD -11558
▁ㅂㅕㅇㅍㅜㅇ -11559
▁ㅂㅜㄹㅅㅏㅇㅅㅏ -11560
▁LM -11561
▁ㄸㅓㄱㅂㅗㄲㅇㅣ -11562
▁ㅇㅏㅍㄷㅏㅇㄱㅣ -11563
▁jpg -11564
ember -11565
▁580 -11566
razy -11567
▁Bro -11568
▁SDRAM -11569
▁MI -11570
▁ㅈㅣㄱㅁㅕㄴ -11571
ㅂㅣㄴㅅㅡㄴ -11572
ㅎㅕㄴㅈㅜㄴ -11573
▁NR -11574
▁ㅇㅑㅇㅊㅓㄴ -11575
▁ROX -11576
ㅈㅓㄴㄷㅐ -11577
▁ㄷㅏㄴㅅㅜ -11578
ㅅㅓㅇㅇㅜㄱ -11579
▁ㅂㅏㄹㅎㅐ -11580
ㅎㅏㄱㅅㅐㅇㅎㅚ -11581
▁ㅂㅗㄹㄹㅣㅇ -11582
ㄱㅗㅅㅈㅓ -11583
▁ㅌㅗㅇㄱㅡㄴ -11584
▁625 -11585
ㄷㅗㅁ -11586
▁303 -11587
▁ㄱㅜㅁ -11588
GP -11589
ㅅㅣㄴㅈㅓㄴㅅㅐㅇ -11590
ㅇㅜㅅㅅㅏ -11591
ㅊㅏㅇㅎㅗ -11592
▁ㄱㅣㅁㅂㅗㅇ -11593
▁ㅁㅕㄴㄷㅏㅁ -11594
ugh -11595
▁VP -11596
AKA -11597
▁ㅁㅣㄹㅋㅡ -11598
▁Cortex -11599
▁ㅅㅣㄴㅇㅕㅇ -11600
ㅇㅏㄹㄹㅏ -11601
▁ㅂㅏㄹㅂㅓ -11602
▁LPDDR -11603
▁ㄱㅘㄴㄴㅐ -11604
▁ㅎㅓㄴㅂㅕㅇ -11605
▁ㄱㅏㅇㅈㅘ -11606
▁ㅂㅓㄴㅇㅚ -11607
▁ㅁㅗㄱㄱㅕㄱㅈㅏ -11608
▁ㅌㅗㄱㅌㅗㄱㅎㅣ -11609
ㅂㅔㄴㅈㅣ -11610
▁Hello -11611
▁Gener -11612
▁ㅅㅗㅇㄹㅏ -11613
▁ㅈㅔㄴㄷㅓ -11614
▁ㄱㅣㅁㅁㅜㄴ -11615
▁ㅂㅣㄴㄱㅗㄴ -11616
▁ㄱㅣㅁㅅㅓㅇㅎㅕㄴ -11617
isode -11618
ㄱㅡㅂㅎㅣ -11619
ㅌㅗㅇㅂㅜ -11620
▁ㄱㅣㅁㅎㅏㄱ -11621
▁ㅁㅏㅇㅇㅓㄴ -11622
▁ㄱㅕㄹㅈㅓㅇㅌㅏ -11623
▁ㄹㅜㄹㄹㅜ -11624
▁ㅎㅗㅁㅍㅡㄹㄹㅓ -11625
▁MOV -11626
ㅋㅓㄹㄹㅣ -11627
▁ㅂㅡㄹㄹㅐㅇㅋㅡ -11628
▁ㅈㅜㅇㅇㅏㅇㅇㅏ -11629
▁ㅂㅏㅇㅁㅏㅇㅇㅣ -11630
▁ㅇㅏㅇㅅㅏㅇㅂㅡㄹ -11631
▁long -11632
▁ㄱㅣㅁㄱㅏㅇ -11633
ied -11634
ㄹㅅㅔ -11635
▁ㄱㅕㅇㅂㅗㄱ -11636
▁ㅍㅣㅂ -11637
ㄱㅡㅁㅈㅔ -11638
▁ㄷㅗㄱㅈㅜ -11639
▁ㅅㅓㄴㅅㅜㄹ -11640
▁Days -11641
▁Stand -11642
▁ㅎㅣㄴㄷㅜ -11643
ether -11644
▁ㄱㅗㄹㅁㅜㄴ -11645
▁sl -11646
reet -11647
ㅁㅏㄴㅇㅡㄴ -11648
ㅈㅏㄱㅁㅜㄹ -11649
▁ㅇㅣㄹㅅㅣㄱ -11650
▁ㅊㅓㄴㅅㅓㅇ -11651
▁ㅈㅜㅇㅇㅏㅇㅇㅣㄹㅂㅗ -11652
▁ㄱㅝㄴㅅㅗㄱ -11653
▁ㅊㅗㅇㅎㅏㄱㅅㅐㅇㅎㅚ -11654
▁ㅈㅣㄴㅎㅗㅇ -11655
▁Fil -11656
▁ㅂㅓㄴㅎㅘ -11657
REAM -11658
ㅌㅡㄱㄱㅣ -11659
▁ㅈㅓㅁㅈㅏㅇ -11660
▁ㅈㅡㅇㅈㅣㄴ -11661
▁247 -11662
▁stay -11663
▁Trans -11664
▁Normal -11665
▁ㅅㅓㅇㅁㅐ -11666
▁ㅍㅏㄴㄷㅗㄱ -11667
uction -11668
▁ㅍㅐㅇㅊㅏㅇ -11669
▁GITADORA -11670
▁ㄷㅗㅇㅂㅏㅇㅅㅣㄴㄱㅣ -11671
▁ㄷㅏㅁㅂㅗ -11672
▁ㅂㅜㄴㅍㅏ -11673
▁ㅈㅓㄴㅅㅗ -11674
irc -11675
▁ㅇㅑㄱㅊㅗ -11676
▁ㄱㅏㅁㅁㅕㅇ -11677
▁ㅈㅓㅇㅅㅣㄴㅈㅜㄹ -11678
▁ㄹㅣㄴㅅㅡ -11679
ㅃㅜㄴ -11680
ㅇㅇㅏ -11681
ㄱㅜㅈ -11682
▁306 -11683
▁ㅎㅏㄴㄴㅣ -11684
▁ㄱㅣㅁㅇㅡㅇ -11685
▁Eur -11686
▁INT -11687
atter -11688
▁ㄱㅜㅇㅇㅖ -11689
▁ㅈㅓㄴㄷㅗㅇ -11690
ience -11691
▁ㅇㅕㄱㅇㅣ -11692
▁ㄱㅘㄴㅎㅕㄴ -11693
▁ㅇㅕㄴㅈㅏㅇㅈㅏ -11694
ㅆㅡㄹㅇㅣ -11695
▁ㅇㅘㄴㄱㅡㅂ -11696
ㄱㅡㅁㄲㅓㅅ -11697
▁ㄷㅏㄴㄱㅕㄹ -11698
ㅅㅣㄱㅈㅣ -11699
▁ㅈㅗㅇㅎㅚ -11700
▁game -11701
▁ㅅㅜㄴㅎㅘ -11702
▁ㅇㅕㄴㅇㅓ -11703
▁ㄱㅜㄴㅍㅗ -11704
▁ㄱㅡㄹㄹㅔ -11705
ㄹㅡㄴㅂㅏㄹ -11706
▁ㅁㅏㄴㅅㅓㅇ -11707
ㅂㅣㅁ -11708
▁ㅂㅣㅇㄱㅡ -11709
▁ㅍㅣㄱㅅㅕㄴ -11710
esh -11711
▁Jack -11712
ella -11713
▁ㅅㅣㄹㅅㅔ -11714
▁Cup -11715
▁ㅇㅐㅅ -11716
ㄹㅜㄱㅅㅡ -11717
▁North -11718
▁ㅌㅏㄹㅇㅕㅇ -11719
ka -11720
▁ㅇㅕㄱㅂㅜ -11721
ㅎㅓㅁㅈㅏㅇ -11722
▁ㅅㅓㅇㅂㅜㄹ -11723
▁color -11724
▁ㅈㅣㅇㅍㅛ -11725
▁ㅈㅓㅇㅍㅜㅁ -11726
▁239 -11727
▁ㅎㅜㄴㄹㅕㄴㅈㅏㅇ -11728
ㅅㅗㅌ -11729
▁ㅂㅐㄱㅂㅏㄹ -11730
48 -11731
ince -11732
▁Ins -11733
▁ㅃㅓㄱ -11734
ㄸㅜㄹㅇㅓ -11735
▁xC -11736
▁ㄹㅔㄴㄷㅓ -11737
▁ㅇㅑㅇㄴㅏㄹ -11738
▁ㅎㅘㄴㅅㅏㅇㅎㅑㅇ -11739
▁470 -11740
▁Only -11741
ㅂㅏㅇㄷㅗ -11742
ㅈㅓㄹㄹㅗ -11743
ㅅㅓㅇㅎㅑㅇ -11744
▁GU -11745
▁ㅈㅣㄴㅇㅣ -11746
ㄲㅓㄹ -11747
▁1926 -11748
▁ㅇㅑㅇㅈㅓㅇ -11749
▁ㅂㅕㄹㅈㅏㅇ -11750
▁ㅂㅏㄱㅇㅛㅇㅌㅐㄱ -11751
▁AH -11752
icon -11753
▁ㅂㅓㄴㅈㅏㄱ -11754
ㄷㅏㄹㅇㅡㅁ -11755
▁Direct -11756
▁ㄹㅏㅇㄱㅡ -11757
ㅅㅔㅂㅌㅣ -11758
▁ㅈㅓㄱㅇㅢ -11759
▁ㅈㅓㅇㅌㅐ -11760
ㅊㅜㄹㄹㅕㄱ -11761
▁ㅅㅗㄴㅈㅏㅂ -11762
▁ㅍㅜㅇㅅㅡㅂ -11763
ㅇㅏㅁㄹㅣ -11764
▁ㅍㅗㄱㄹㅏㄱ -11765
▁STAGE -11766
▁1080 -11767
▁ㅇㅘㄴㅌㅜ -11768
ㅇㅛㅇㅇㅓㅄ -11769
▁ㅅㅗㄱㅊㅣㅇ -11770
▁ㅇㅕㄹㄷㅡㅇㄱㅏㅁ -11771
ㄱㅏㅇㄷㅐ -11772
▁ㄱㅣㅁㄱㅠ -11773
▁ㅁㅣㄴㅁㅏㅇ -11774
▁ㅈㅏㅂㄷㅏㅁ -11775
ㅂㅓㅁㅅㅜ -11776
▁ㅍㅔㄴㅌㅏ -11777
▁rev -11778
▁ㅅㅜㄹㅈㅏ -11779
▁ㅍㅕㅁㅎㅏ -11780
▁TC -11781
▁bet -11782
ㅅㅓㄴㅈㅓㄴ -11783
▁look -11784
▁ㄴㅏㅁㅅㅐㄱ -11785
▁ser -11786
▁Ice -11787
▁ㄲㅡㅌㅁㅏ -11788
▁Mach -11789
▁ㅈㅓㄱㅈㅏㄶ -11790
▁Gra -11791
afe -11792
▁ㅇㅔㅇ -11793
▁1924 -11794
▁think -11795
▁ㄴㅏㅁㄱㅜㅇ -11796
▁Burst -11797
▁ㅇㅕㄴㅁㅜ -11798
▁ㅂㅏㄴㅊㅏㄴ -11799
▁ㅇㅣㄹㅂㅕㅇ -11800
ㄱㅡㄱㄱㅣ -11801
▁ㅂㅗㅇㅈㅣ -11802
▁308 -11803
▁ㄷㅏㅁㅈㅏㅇ -11804
ㅇㅟㄱ -11805
uman -11806
▁Som -11807
▁ㅎㅐㅁㅅㅡ -11808
ㄹㅐㄴㄷㅡㄴ -11809
▁ㅌㅡㄱㅂㅕㄹㅈㅏ -11810
▁ㅅㅐㄱㄱㅣ -11811
ㄲㅝ -11812
▁ㅊㅜㄱㅊㅜㄹ -11813
▁ㄹㅡㅁ -11814
▁ㄴㅏㅁㅎㅐ -11815
▁ㅅㅗㄹㄹㅓ -11816
▁ㅇㅣㄹㅊㅣㅁ -11817
▁ㅇㅕㅁㄹㅏ -11818
mas -11819
▁WA -11820
ㅋㅡㄹㄹㅗ -11821
▁ㅂㅜㄴㅌㅜ -11822
ㄹㅡㅁㄱㅏㅄ -11823
▁ㅅㅜㅁㅌㅗㅇ -11824
ㅁㅣㄴㅇㅜ -11825
▁ㄱㅗㅇㅅㅗ -11826
▁ㅅㅡㅇㅅㅓㄴ -11827
▁ㅈㅏㅇㅈㅣㄴ -11828
▁ㅈㅓㄴㅅㅏㄴㅁㅏㅇ -11829
▁ㄷㅏㄹㄱㅜ -11830
ㅇㅣㅁㅅㅐ -11831
▁ㄱㅜㄴㅈㅏㅇ -11832
▁SHD -11833
ㅅㅔㄴㅌㅓ -11834
▁ㅍㅜㅇㅁㅣ -11835
▁ㅎㅏㄴㅅㅜㄹ -11836
ELL -11837
▁iP -11838
▁ㄷㅣㅁ -11839
▁Intern -11840
ㄹㅏㅇㅋㅗ -11841
▁ㅁㅣㄴㅅㅏ -11842
ㅍㅜㅅ -11843
▁ㄴㅗㅅ -11844
ㅅㄱㅏㅁ -11845
▁ㅎㅐㄴㄷㅣ -11846
▁PPV -11847
▁ㅅㅜㄴㅂㅓㄴ -11848
▁ㅈㅣㄱㄹㅕㄹ -11849
emy -11850
▁ㄴㅏㄱㅌㅐ -11851
▁-. -11852
ㅊㅏㅁㅎㅣ -11853
▁ㅂㅏㄹㄱㅣ -11854
▁ㅅㅗㄴㅈㅣㄹ -11855
▁ㅇㅝㄴㄷㅗㅇㄹㅕㄱ -11856
▁262 -11857
▁ㄱㅏㅇㅎㅢ -11858
▁ㄱㅏㅇㅅㅣ -11859
▁ㅌㅡㄱㅁㅜ -11860
▁ㄱㅡㄱㅁㅕㅇ -11861
ㅁㅣㅇㄱㅗ -11862
▁ㄱㅓㄴㅂㅏㅇㅈㅣ -11863
▁980 -11864
▁ㅎㅕㄹㅇㅕㄴ -11865
IKA -11866
▁ㄷㅟㅅㅁㅗ -11867
ㄷㅣㄹ -11868
▁ㅈㅣㄱㅅㅏ -11869
ㅎㅘㅇㅊㅓㅇ -11870
ald -11871
▁USS -11872
▁241 -11873
▁MiG -11874
▁ㅅㅗㄹㅌㅡ -11875
ANCE -11876
ㄱㅜㄴㅂㅜㄴㅌㅜ -11877
▁ed -11878
▁ㅋㅏㅂ -11879
ㅅㅏㄹㅍㅛ -11880
▁ㄱㅜㄱㅇㅚ -11881
▁ㄱㅡㅁㅅㅜ -11882
▁ㄷㅗㅇㅁㅐㅇㄱㅜㄱ -11883
▁Ha -11884
▁ㅌㅡㄱㄱㅓㅁ -11885
ㅂㅣㄹㄹㅏ -11886
▁ㅇㅝㄴㅂㅏㄴ -11887
▁ㅈㅏㅁㅈㅓㄱ -11888
▁ㄱㅗㅇㅍㅏㄴ -11889
▁ㅇㅣㅂㅅㅓㄱ -11890
ㅌㅗㅇㄹㅕㅇㄹㅕㅇ -11891
▁ㅂㅜㄹㅅㅣ -11892
▁IR -11893
▁KGC -11894
ology -11895
▁ㄹㅕㅁㄱㅜ -11896
▁ㅍㅕㄴㅍㅏ -11897
▁ㅂㅓㄹㅈㅣㅂ -11898
ㄴㅗㄹㄷㅡ -11899
ㅂㅡㄹㄹㅓ -11900
ㄱㅗㅇㅇㅝㄴ -11901
▁ㅅㅜㄱㅈㅗㅇ -11902
▁ㅇㅏㄴㅊㅏㄱ -11903
▁ㅎㅐㄴㄷㅡㄹㄹㅣㅇ -11904
▁ㅎㅐㅇㅈㅓㅇㄷㅗㅇ -11905
URE -11906
▁ㅈㅓㄹㅍㅏㄴ -11907
ids -11908
▁ㅅㅡㄹㄱㅣ -11909
▁ㅈㅜㅇㄴㅏㅁ -11910
▁ㄱㅣㅁㄷㅗㅇㅎㅕㄴ -11911
ㅋㅟㄴ -11912
▁ㄱㅜㄴㅁㅜ -11913
▁ㄱㅣㄴㅌㅗ -11914
▁ㅂㅏㄹㅈㅣㄴ -11915
▁HA -11916
ㅎㅏㄴㅈㅔ -11917
▁ㅈㅏㅁㅈㅏㅁ -11918
ORPG -11919
▁ㅇㅣㄴㅁㅣㄴㄱㅜㄴ -11920
aph -11921
▁DEX -11922
ㄱㅐㅅㅅㅗ -11923
▁ㄱㅕㅇㅇㅡㅁ -11924
▁ㅊㅜㅇㄷㅏㅇ -11925
▁ㅍㅣㄹㅁㅕㄹ -11926
▁ㅎㅓㄹㄹㅣ -11927
▁Winter -11928
▁ㅈㅗㅇㅇㅓㅂ -11929
▁ㅌㅏㄴㅍㅣ -11930
▁ㅆㅏㄱㅆㅡㄹㅇㅣ -11931
▁304 -11932
▁ㄷㅗㅇㅂㅗㄱ -11933
▁ㅅㅣㄴㅎㅗㄴ -11934
ARK -11935
uth -11936
▁music -11937
▁ㄴㅏㄱㅌㅏ -11938
▁ㅇㅗㄹㅃㅐ -11939
▁ㅂㅣㅇㅎㅏ -11940
▁ㅅㅓㄴㅊㅏㄱ -11941
ㅇㅑㄱㅍㅜㅁ -11942
ates -11943
ㅅㅡㅇㄱㅣ -11944
▁680 -11945
▁ㅋㅡㅁ -11946
▁ㅇㅝㄴㅌㅜ -11947
▁ㅊㅓㄴㅊㅏ -11948
WA -11949
INK -11950
ㄱㅜㄱㅅㅜ -11951
▁ㅂㅗㄴㅇㅓㅂ -11952
▁ㅇㅏㄴㄱㅓㄴ -11953
▁ㅈㅣㄱㅅㅓㄹ -11954
▁ㅅㅣㄴㅊㅓㄴㅈㅣ -11955
▁ㅅㅣㅁㄷㅗ -11956
ㄷㅏㅁㄱㅏㅁ -11957
ㅈㅓㄴㅇㅕㄱ -11958
OLD -11959
▁ㄴㅓㄳ -11960
▁talent -11961
▁ㅂㅜㅇㅇㅓ -11962
▁ㅈㅏㅇㄹㅕ -11963
▁NATO -11964
▁ㅅㅜㅁㅈㅣ -11965
▁ㅇㅛㅇㄹㅖ -11966
▁ㅎㅏㄴㄱㅕ -11967
▁ㅎㅏㄴㄱㅣ -11968
▁ㅇㅘㅅㅅㅡㄴ -11969
▁311 -11970
▁ㅊㅣㄴㅂㅜ -11971
▁ㅎㅣㅁㄷㅡ -11972
ㄷㅗㅇㅎㅏㄴ -11973
▁ㅁㅐㄴㅁㅗㅁ -11974
▁ㅇㅕㄹㅍㅗㄱ -11975
oph -11976
▁Die -11977
▁ㄲㅜㅇ -11978
▁ㅌㅏㄹㅂㅏ -11979
▁253 -11980
▁ㄱㅏㅇㄱㅣ -11981
ㅇㅠㄱㅂㅗㄱ -11982
▁ㅅㅓㅇㅈㅏ -11983
▁ㅁㅏㅅㅈㅣㅂ -11984
ㅍㅓㄴ -11985
▁MOD -11986
▁ㅇㅕㄴㅎㅠ -11987
▁ㅂㅣㅇㅂㅣㅇ -11988
ㄹㅜㄹ -11989
▁ㄹㅔㅇ -11990
▁630 -11991
ㅇㅑㅇㄱㅖ -11992
▁ㄱㅜㄴㅊㅓㅇ -11993
67 -11994
▁ㅌㅖㄴ -11995
▁ㅇㅐㄱㅈㅏ -11996
▁ㄱㅡㅂㅈㅣㄴ -11997
▁ㅇㅕㄴㅎㅏㅂㅎㅚ -11998
▁002 -11999
▁ㅁㅏㄹㅆㅓㅇ -12000
▁ㅅㅑㄹㄹㅓㅅ -12001
▁ㅇㅕㄱㅅㅜㄴ -12002
tus -12003
▁Cur -12004
▁ㅊㅣㄹㄷㅡ -12005
▁ㄹㅔㄹㄹㅡㅁ -12006
▁302 -12007
ㄴㅑㅇㄱㅐ -12008
▁ㄷㅏㅇㅈㅣㄴ -12009
▁ㅌㅏㄹㅁㅗ -12010
ㅅㅏㅇㅎㅜㄴ -12011
ㅈㅣㄴㅊㅏㅇ -12012
▁ㅁㅣㄷㄱㅣ -12013
▁ㅅㅐㅁㅍㅡㄹㄹㅣㅇ -12014
▁Pan -12015
ㄱㅐㄱㄱㅣ -12016
▁ㅇㅏㄱㄷㅏㄴ -12017
▁ㅅㅐㄴㅈㅡ -12018
▁ㄱㅗㅇㅅㅗㄴㅊㅏㄴ -12019
▁HL -12020
ㅁㅜㅁ -12021
ㄹㅏㄱㅅㅔ -12022
▁ㅇㅕㄱㄷㅗ -12023
▁ㅎㅘㄴㄱㅣ -12024
▁LF -12025
▁ㄱㅗㅇㅅㅣㄱㅈㅓㄴ -12026
▁ㅂㅣㄴㅈㅏ -12027
▁fff -12028
ㄷㅡㄹㄱㅕ -12029
▁ㅂㅏㄴㅇㅕㄱㅈㅏ -12030
ㅇㅡㅁㄱㅏ -12031
▁ㅍㅏㅂㅋㅗㄴ -12032
▁ㅂㅕㄹㅂㅏㄴ -12033
▁ㅅㅗㄴㄱㅕㄴ -12034
▁ㅈㅜㅇㅈㅓㄴ -12035
▁ㅅㅐㅇㅎㅘㄹㄱㅘㄴ -12036
iki -12037
▁Sports -12038
▁Network -12039
▁ㅇㅑㅇㄱㅏㄱ -12040
▁ㅇㅓㅇㅁㅏㅇㅈㅣㄴㅊㅏㅇ -12041
▁ㅈㅓㄱㄴㅏ -12042
▁ㅇㅣㄴㄱㅏ -12043
▁ㅈㅏㅇㅊㅏㅇ -12044
▁ㅍㅡㄹㄹㅣㄱ -12045
▁CLG -12046
▁ㅇㅣㄴㄷㅐ -12047
▁ㅇㅣㄴㅇㅟ -12048
▁ㅅㅓㄷㅂㅜㄹㄹㅣ -12049
▁ㅅㅓㄴㄷㅗㅇㅇㅕㄹ -12050
▁ㅂㅕㅇㅇㅡㅁ -12051
▁ㅋㅓㅁㅍㅡㄹㄹㅔㄱㅅㅡ -12052
ㅁㅓㄱㅎㅣ -12053
▁Inc -12054
▁ㅊㅗㅇㅁㅜ -12055
▁ㄱㅜㄴㅇㅛㅇ -12056
▁ㅈㅏㄴㅅㅏㅇ -12057
▁ㅊㅣㄹㄱㅗㄱ -12058
▁ㅇㅜㄹㅌㅏ -12059
▁After -12060
▁SNH -12061
ㅅㅏㅇㅇㅜ -12062
▁ㄱㅡㅁㅅㅏㅇ -12063
▁ㅂㅜㄴㅂㅣ -12064
▁ㅊㅗㄱㅎㅏㄴ -12065
tor -12066
▁ㅎㅘㄹㄹㅗ -12067
ㅅㅡㅇㅇㅝㄴ -12068
▁ㅂㅗㄴㅅㅣㅁ -12069
▁ㅊㅏㄱㅌㅏㄴ -12070
▁ㄷㅡㅇㄷㅐ -12071
ki -12072
bit -12073
▁ㅌㅓㅅ -12074
ㅍㅏㄹㄱㅜ -12075
▁ㅅㅣㅁㄱㅣ -12076
▁ㅂㅏㅇㅈㅓㄴ -12077
▁ㅈㅓㅇㅇㅗ -12078
ures -12079
▁ㅁㅗㄱㅅㅓㅇ -12080
ㅊㅞ -12081
▁ㅁㅐㅇㅈㅏㅇ -12082
▁ㅅㅏㄴㄹㅣㅁ -12083
ㅇㅣㄹㅂㅣ -12084
▁ㅅㅣㅂㅈㅜㅇ -12085
▁760 -12086
▁ㅅㅜㄷ -12087
ㄴㅕㅁㄱㅘㄴ -12088
▁ㅅㅣㅂㅈㅜㅇㅍㅏㄹㄱㅜ -12089
ㅂㅏㄹㅈㅓㅁ -12090
▁ㅅㅗㄴㅅㅐㄱ -12091
ks -12092
▁away -12093
▁ㅊㅜㅇㅅㅣㄹㅎㅏ -12094
▁IZ -12095
▁ㅇㅑㅇㅂㅗㄱ -12096
za -12097
ㅂㅐㅇㅇㅣ -12098
▁ㅁㅕㄹㅅㅣ -12099
ㅂㅏㄴㅉㅏㄱ -12100
ㄴㅏㄴㅎㅐ -12101
▁dream -12102
▁ㅂㅏㄴㅉㅏㄱㅂㅏㄴㅉㅏㄱ -12103
▁ㄱㅑㅇ -12104
ami -12105
▁ㅋㅔㅁ -12106
▁ㅂㅏㅇㅋㅗㄱ -12107
ㄷㅗㅇㅅㅗ -12108
▁ㅅㅣㄹㅋㅡ -12109
▁ㅉㅏㄼㅇㅏ -12110
▁ㄱㅣㅁㅇㅕㄴㅇㅏ -12111
lin -12112
▁ㅊㅏㅁㅎㅗ -12113
▁ㅎㅏㄴㅂㅏ -12114
▁ㅈㅏㅇㅇㅠㄴ -12115
▁USA -12116
▁ㅌㅣㅁㅇㅝ -12117
▁ㅎㅘㅇㄱㅣ -12118
▁ㅈㅣㄱㄱㅡㅂ -12119
▁Reg -12120
▁ㅍㅜㅇㅅㅣㄴ -12121
▁Spir -12122
▁Lost -12123
uh -12124
▁ㅈㅗㅇㅍㅏ -12125
▁ㅈㅓㄴㄹㅠㄴ -12126
▁House -12127
▁ㅁㅕㅇㅁㅐㄱ -12128
▁GF -12129
▁ㅂㅗㄱㅅㅜㅇㅇㅏ -12130
▁ㅇㅓㅁㅎㅗ -12131
▁ㅎㅏㄱㅅㅣㄹ -12132
▁ㄱㅝㄴㅅㅜ -12133
▁ㅇㅠㄱㅌㅏㄴ -12134
▁NCR -12135
▁ㅅㅡㅇㅅㅜ -12136
ㄱㅓㄴㅊㅏㅇ -12137
▁Roy -12138
ㅍㅔㄴㄷㅓ -12139
▁ㅊㅏㄱㅅㅣ -12140
ㅈㅣㄹㄱㅏㅁ -12141
▁ㅇㅏㄴㄹㅏㄱ -12142
▁RES -12143
▁ㅉㅣㅂ -12144
ㅅㅣㄴㅈㅓ -12145
▁ㅇㅛㅇㅅㅣ -12146
unch -12147
▁ㅂㅜㄺㅎㅣ -12148
▁ㅇㅏㄱㄴㅕ -12149
ㅅㅣㅂㄹㅣ -12150
▁ㅇㅝㄹㅌㅡ -12151
▁Kiss -12152
▁Again -12153
▁ㄱㅕㄱㅂㅏㄹ -12154
▁ㄷㅜㄴㄱㅏㅂ -12155
▁ㅂㅏㄹㅈㅜ -12156
▁ㅇㅡㅁㅈㅓㄹ -12157
▁ㅊㅜㅇㅅㅣㄴ -12158
▁TL -12159
▁ㄱㅗㄹㅁㅓ -12160
▁ㅂㅓㄴㅇㅕㄱㅂㅗㄴ -12161
▁LPL -12162
GO -12163
▁blue -12164
▁005 -12165
▁ㅇㅝㄴㅊㅔ -12166
▁him -12167
▁2100 -12168
▁rem -12169
▁ㅃㅑㅁㅊㅣ -12170
▁Inter -12171
▁ㄷㅏㄴㅊㅜ -12172
▁ㅇㅝㄴㄴㅏ -12173
▁TA -12174
▁Dig -12175
▁ㅂㅏㄹㅅㅓㅇ -12176
▁ㅇㅕㅇㄹㅕㄱ -12177
▁ㄱㅘㅇㅅㅣㄴㄷㅗ -12178
▁ㅅㅜㄴㅎㅏ -12179
ato -12180
ㅅㅑㅂ -12181
▁ㅅㅗㄱㅅㅏㄱㅇㅣㅁ -12182
va -12183
▁ㅂㅗㅁㅇㅣ -12184
YS -12185
▁QS -12186
▁RGB -12187
▁ㅅㅛㄹ -12188
▁ㅇㅗㄴㄹㅣ -12189
ㅌㅡㄱㅂㅕㄹㅈㅏ -12190
▁ㄴㅏㅁㄷㅐ -12191
▁ㅊㅓㅇㄱㅏㄱ -12192
▁555 -12193
▁ㅆㅏㅇㅂㅏㅇㅇㅜㄹ -12194
▁ㅅㅣㄴㅊㅏ -12195
▁ㅇㅐㅁㅍㅡ -12196
ething -12197
▁MOM -12198
▁SPEC -12199
▁ㅁㅗㄱㅈㅗ -12200
▁Wol -12201
▁ㅅㅣㄴㅂㅕㄴ -12202
▁ㅊㅣㅁㅂㅓㅁ -12203
▁%] -12204
▁080 -12205
▁FINAL -12206
▁ㄱㅣㅁㅁㅣ -12207
▁ㅈㅣㄹㅌㅏ -12208
▁Fun -12209
ㅈㅓㅇㄱㅠ -12210
▁mod -12211
ㅍㅣㅂ -12212
▁ㅊㅜㄹㅅㅗ -12213
ㄱㅣㅁㅇㅓㅄㅇㅣ -12214
ㅋㅜㄹㄹㅜ -12215
▁light -12216
▁ㅈㅓㅇㅅㅏㄴ -12217
▁ㅇㅓㄴㄹㅗㄴㅇㅣㄴ -12218
▁ㅅㅣㄴㅇㅡㅁ -12219
▁Why -12220
ㄱㅕㅇㅇㅜ -12221
▁ㅅㅡㅇㅁㅏ -12222
▁ㅇㅕㄹㄱㅏㅇ -12223
▁ㅇㅜㄹㅅㅏㄴㄱㅘㅇㅇㅕㄱㅅㅣ -12224
QU -12225
▁Dan -12226
▁display -12227
▁ㅅㅜㄱㅂㅜ -12228
▁ㅇㅝㄴㅅㅓ -12229
▁ㅎㅠㅇㅂㅜ -12230
ㅅㅓㅇㅈㅏㅇ -12231
ㅁㅗㄱㅁㅣㄴ -12232
▁ㅇㅕㄴㄱㅕㄱ -12233
▁ㄲㅏㅇㅌㅗㅇ -12234
▁ㅈㅏㅇㄷㅏㄴㅈㅓㅁ -12235
▁were -12236
▁ㅅㅏㅁㄱㅏ -12237
▁ㅍㅏㅅㅋㅐ -12238
▁ㄱㅗㅇㅎㅏㄱㅂㅜ -12239
▁ㅅㅗㄱㅁㅏ -12240
▁ㅅㅐㅇㅅㅐㅇ -12241
WS -12242
▁ㄲㅗㄴ -12243
▁ㄱㅗㅇㅂㅓㅁ -12244
ㅅㅓㅇㄷㅗㅇ -12245
▁Tim -12246
▁ㅎㅘㅇㄱㅜㅇ -12247
▁ㄴㅜㄴㅁㅐ -12248
▁ㄷㅏㄹㄹㅕㄱ -12249
ㅈㅏㅇㅁㅕㄴ -12250
▁ㄷㅏㅁㄷㅏㅁ -12251
ㄸㅏㅇㅎㅣ -12252
ㅎㅐㅇㄷㅏㄴ -12253
▁ㄱㅜㄺㅈㅣㄱ -12254
▁ㅁㅕㅇㄹㅏㅇ -12255
▁ㅎㅏㅇㅈㅓㄴ -12256
▁stop -12257
ㅇㅓㅁㅊㅣ -12258
▁ㄹㅣㄴㄴㅔ -12259
▁ㅇㅡㄹㄹㅐ -12260
▁ㅈㅓㅂㄷㅜ -12261
▁JB -12262
ㅉㅐㅆㄱㅓ -12263
▁vol -12264
▁Anim -12265
▁ㅋㅓㄹㅊㅓ -12266
▁2200 -12267
▁ㅁㅗㄹㅇㅣ -12268
▁sup -12269
▁ㄹㅐㄴㄷㅣㅇ -12270
▁ㅂㅓㄴㅇㅕㄱㄱㅏ -12271
▁ㅇㅑㅇㅅㅔ -12272
▁ㅊㅓㄴㄴㅕㄴㄱㅣ -12273
pm -12274
▁ㅁㅓㄹㄹㅗㄱ -12275
▁ㅎㅕㄴㅈㅗㅇ -12276
▁Mo -12277
▁UK -12278
▁990 -12279
▁ㅅㅟㅁ -12280
▁ㅅㅏㅇㅅㅓ -12281
ㅈㅓㄱㅎㅏㅂ -12282
▁ㄴㅏㄴㄱㅘㄴ -12283
▁ㅅㅏㄹㄹㅣㅁ -12284
▁Dri -12285
order -12286
▁They -12287
ㅅㅓㄲㅇㅣ -12288
▁ㅅㅗㄱㅊㅗ -12289
▁Heaven -12290
TLE -12291
▁ㅂㅗㄴㅈㅓㅁ -12292
▁ㅇㅣㅂㅊㅏㄹ -12293
▁ㅊㅏㅁㅅㅣㄴ -12294
▁ㅊㅣㅁㄹㅑㄱㅈㅏ -12295
▁Cent -12296
▁ㅂㅏㄹㄱㅏ -12297
▁ㅁㅏㅁㄷㅐ -12298
▁ㅅㅓㅇㅎㅘ -12299
ITY -12300
ury -12301
▁Wr -12302
▁ㄱㅡㄴㅅㅗ -12303
▁ㅇㅏㄴㄱㅜ -12304
ㅋㅓㄱ -12305
▁ㅂㅏㅇㅎㅏㄴ -12306
▁ㅅㅜㄴㅈㅗㅇ -12307
▁ㅇㅡㅁㄷㅗㄱ -12308
▁ㅅㅓㄱㄱㅏ -12309
▁ㅅㅗㅇㅈㅓㅇ -12310
▁ㅇㅔㄹㄹㅔㄴ -12311
ㅈㅓㅇㅈㅣ -12312
ㅌㅐㄴㄹㅣ -12313
▁15000 -12314
ㄴㅔㄱㅌㅡ -12315
▁ㅅㅗㄱㄱㅜㄱ -12316
iet -12317
▁ㅁㅗㄴㄷㅡ -12318
▁ㅂㅜㄹㅂㅣㅊ -12319
▁299 -12320
▁System -12321
▁TM -12322
▁ㅇㅖㄹ -12323
▁gl -12324
▁add -12325
ㄷㅓㄱㅈㅣ -12326
▁ㅎㅏㅂㅅㅓㅇㅅㅜ -12327
▁ㄱㅜㄱㄱㅛ -12328
▁ㅎㅐㄱㅍㅗㄱㅌㅏㄴ -12329
aking -12330
▁ㅂㅜㄴㄷㅏㄴ -12331
▁ㅌㅐㅅㅇㅡㄴ -12332
▁ㅁㅜㄱㅅㅣ -12333
ㅊㅓㄴㄴㅕㄴ -12334
▁ㄲㅣㅁ -12335
ㅅㅣㄱㅇㅣㄴ -12336
ㅈㅓㅇㅇㅏㄴ -12337
idae -12338
▁ㅈㅏㅇㄹㅛ -12339
▁ㅋㅐㄴㅈㅏ -12340
▁ㅂㅏㅇㅊㅓㅇ -12341
acy -12342
ㅉㅏㄹㅇㅣ -12343
▁ㅅㅣㅁㄱㅕㅇ -12344
ㅎㅏㅁㅁㅏ -12345
ㅁㅜㄴㄱㅜ -12346
▁ㄱㅏㅇㅇㅏㅂ -12347
▁ㅈㅓㄴㄱㅡㄴ -12348
▁ㅉㅜㄱㅉㅜㄱ -12349
▁ㅌㅠㄴ -12350
▁ㅈㅣㄴㅇㅟ -12351
▁ㄱㅕㅇㅇㅝㄴ -12352
▁nm -12353
▁SSD -12354
▁Fant -12355
ㅈㅗㅇㅅㅜ -12356
▁Remix -12357
▁ㅎㅏㅅㅌㅗ -12358
ㅍㅕㅇㄱㅜㄴ -12359
▁ㅅㅣㄴㄱㅕㅇㅈㅓㄴ -12360
▁295 -12361
▁Sal -12362
▁ㄷㅓㅍㅇㅣ -12363
▁ㅁㅕㅇㅅㅏㅇ -12364
enter -12365
ㅇㅛㅇㅎㅏㄴ -12366
▁UB -12367
▁GEN -12368
▁ㄷㅗㄱㄱㅗ -12369
▁ㅇㅝㄴㅌㅏㅂ -12370
▁ㅅㅣㄴㅇㅣㄴㅇㅘㅇ -12371
ㄱㅘㅇㅇㅣ -12372
▁ㅅㅣㄹㄱㅝㄴ -12373
▁ㅎㅕㄴㅎㅗㄱ -12374
▁GRE -12375
▁ㅁㅕㄴㅅㅏ -12376
ㅁㅏㄴㄱㅏㄴ -12377
▁ㄱㅜㄹㅈㅓㄹ -12378
ㄲㅣㅁㅇㅓㅄㅇㅣ -12379
ㄹㅣㅁㄷㅗㅇ -12380
▁ㅊㅗㅇㅅㅣㄴ -12381
ㄱㅝㄹㅅㅓㄴㄱㅓ -12382
ㅍㅣㄹㄹㅣ -12383
▁ㅋㅟㄹ -12384
▁ㄱㅗㅇㅇㅖ -12385
▁ㅅㅐㅇㅅㅣㄱ -12386
▁ㄴㅗㄹㄹㅐ -12387
▁ㄷㅗㅇㅁㅕㄴ -12388
▁ㅉㅏㄱㅅㅜ -12389
othing -12390
▁ㄱㅕㅇㅎㅘ -12391
▁ㅅㅏㄴㅇㅓㅂㄷㅏㄴㅈㅣ -12392
cape -12393
▁MMORPG -12394
ㅂㅐㄴㅌㅣ -12395
▁ㅍㅏㄴㄹㅖ -12396
▁ㅂㅏㄱㅎㅏㄴ -12397
▁ㅇㅕㄴㅇㅗㄱ -12398
▁ㅇㅕㅇㅈㅓㅇ -12399
▁ㅅㅏㅇㅇㅏ -12400
ㄷㅡㄹㄹㅔ -12401
▁ㅇㅏㄴㅍㅏ -12402
▁ㅌㅡㄱㄷㅐ -12403
ㅁㅣㄴㅈㅓㅇ -12404
▁ㅂㅓㄴㅂㅗㄱ -12405
▁ㅈㅏㅇㅈㅓㅇ -12406
ㅁㅐㄴㅌㅣㄱ -12407
▁ㅇㅗㄴㅇㅢ -12408
▁ㄱㅣㄹㄷㅗㅇ -12409
▁ㄷㅣㄹㄹㅓㄴ -12410
46 -12411
▁266 -12412
ㅇㅣㄱㅅㅡ -12413
▁ㄱㅜㅂㅎㅣ -12414
▁ㄱㅜㄱㅎㅏㄴ -12415
▁ㄱㅗㅇㅍㅛ -12416
▁ㅇㅏㅇㅋㅗ -12417
77 -12418
▁PE -12419
▁405 -12420
▁ㅍㅜㅇㅇㅛ -12421
▁ㅇㅏㄴㅍㅏㄲ -12422
▁ㅂㅜㄹㅆㅣ -12423
▁ㄱㅝㄴㅂㅓㅂ -12424
▁mg -12425
▁ㄱㅓㅁㅌㅜ -12426
ㅇㅝㄴㅅㅓㄱ -12427
org -12428
▁ㄴㅏㅂㅂㅜ -12429
▁ㄷㅏㄴㄹㅏㄱ -12430
▁ㅇㅡㅁㅈㅣㄹ -12431
▁ㅈㅡㅇㅊㅜㄱ -12432
▁ㄱㅏㅇㄴㅏㅁㅇㅕㄱ -12433
▁425 -12434
▁ㅎㅘㄱㅈㅣㄴ -12435
▁ㄱㅓㄴㄱㅜㄱㄷㅐ -12436
ㅁㅏㄴㅎㅘ -12437
▁ㄱㅣㅁㅁㅜ -12438
▁ㅊㅓㄹㅈㅔ -12439
▁PERFECT -12440
▁ㅅㅗㄱㅅㅏㄱㅇㅣ -12441
ㅎㅝㄴ -12442
▁ZERO -12443
▁Series -12444
▁VF -12445
▁Force -12446
ㅂㅜㄹㅂㅗㄱ -12447
read -12448
▁Ann -12449
▁ㅎㅗㄴㅅㅜ -12450
ㅈㅓㅇㅇㅝㄴ -12451
▁ㅂㅗㄱㅂㅜㄹㅂㅗㄱ -12452
▁XI -12453
irth -12454
▁1922 -12455
▁ㄷㅗㄱㅅㅏ -12456
▁ㄴㅏㄴㄱㅏㄴ -12457
▁ㅅㅏㅇㄹㅗㄱ -12458
▁ㄱㅜㄱㄱㅗㅇ -12459
iw -12460
ㅅㅏㄴㅇㅓㅂ -12461
▁ㅁㅣㄴㅂㅓㅂ -12462
▁Vir -12463
▁ㅎㅐㅇㅅㅓㄴㅈㅣ -12464
▁ㅎㅘㅇㄱㅡㅁㄱㅣ -12465
▁ㄱㅡㅂㅅㅜ -12466
▁ㅎㅡㅌㅃㅜ -12467
▁ㅂㅏㄹㅇㅏㅁ -12468
▁ㅅㅣㄱㅋㅏㄹ -12469
hem -12470
▁ㅇㅣㄹㅇㅣㄹㅎㅣ -12471
▁ㅂㅏㄱㅅㅓㅇㅈㅜㄴ -12472
cess -12473
▁ㅁㅣㄹㅇㅝ -12474
▁ㅂㅕㄴㅈㅗ -12475
▁ㅎㅏㅇㅁㅏㄴ -12476
▁BLUE -12477
▁ㅇㅡㄹㄹㅕ -12478
▁ㅁㅕㅇㅅㅐㄱ -12479
▁ㅇㅝㄴㄱㅜㄴ -12480
ㅌㅏㄹㄹㅗ -12481
▁ㅅㅡㅇㅅㅏㄴ -12482
▁ㅇㅘㅇㄱㅝㄴ -12483
▁ㄱㅏㅇㅈㅣㄴ -12484
▁ㅅㅗㄱㅅㅜ -12485
▁ㅇㅑㄱㄱㅜㄱ -12486
▁Ta -12487
fore -12488
▁ㅇㅜㄹㄹㅣㅁ -12489
ㅅㅣㅁㅈㅏ -12490
▁ㅅㅔㄴㄷㅏ -12491
▁ㄷㅗㅇㅎㅑㅇ -12492
▁ㅅㅣㄴㅎㅕㅇ -12493
▁ㅎㅜㄴㄹㅕㄴㅂㅕㅇ -12494
▁490 -12495
▁af -12496
▁ㅇㅡㄴㅎㅘ -12497
▁ㅇㅟㄱ -12498
▁ㅅㅗㅇㅇㅡㄴ -12499
▁ㅅㅣㄴㅁㅕㅇ -12500
▁ㅈㅓㅇㅎㅗ -12501
▁ㅇㅣㄹㅍㅏㄴ -12502
▁ㅎㅗㄴㅈㅏㅅㅁㅏㄹ -12503
ㅍㅗㅇ -12504
orry -12505
ㅊㅣㄹㄹㅣ -12506
▁ㄱㅏㄹㅁㅐ -12507
SE -12508
▁GIR -12509
ㅂㅓㅂㅂㅜ -12510
▁ㄴㅏㄹㄹㅕㅂ -12511
▁ㅎㅘㅇㅅㅏㄴ -12512
▁ㄲㅡㅌㅈㅏㅇㄴㅐ -12513
ㅂㅏㄴㅅㅡ -12514
▁ㅁㅜㄴㅇㅖ -12515
▁ㅇㅏㄴㄷㅔ -12516
ㄴㅜㅂ -12517
▁ㅂㅏㅁㅎㅏ -12518
ㄱㅕㅇㄱㅠ -12519
ㄱㅓㄹㅅㅡ -12520
▁ㅈㅗㅇㅂㅏㄴ -12521
▁ㅍㅗㄱㄴㅓㄼ -12522
ㅘㅇ -12523
umb -12524
▁ㅈㅡㅇㄷㅐ -12525
ㄹㅡㅁㄱㅣㄹ -12526
▁ㄱㅡㄹㄹㅔㄴ -12527
▁ㅅㅣㄴㅌㅗㅇ -12528
▁Championship -12529
ㅇㅑㄴㅁㅏ -12530
▁ㅃㅏㄹㄹㅐ -12531
▁ㅇㅜㅇㅈㅣㄴ -12532
▁ㅅㅓㅁㄱㅘㅇㅌㅏㄴ -12533
▁NASA -12534
ㅇㅕㄴㅅㅓㅇ -12535
▁ㅅㅠㄹ -12536
ㄹㅏㄱㄱㅏ -12537
▁ㅁㅏㄴㅁㅜㄹ -12538
▁LR -12539
▁Future -12540
ICK -12541
▁ㅅㅞㄴ -12542
▁ㅁㅔㅇㅅㅡ -12543
ㅇㅣㄴㅈㅓㄹ -12544
▁ㄱㅓㅁㅂㅓㅂ -12545
ㅇㅣㅁㅈㅏ -12546
▁ㅅㅡㅇㄹㅛㅇ -12547
▁ㅇㅕㄴㅎㅐㅇ -12548
▁ㅍㅡㄹㄹㅐㅇㅋㅡ -12549
▁ㅇㅣㅁㅊㅏㅇㅇㅛㅇ -12550
▁ㅁㅣㄴㅅㅡ -12551
▁ㅈㅜㅇㅁㅜ -12552
▁ㄱㅏㄴㄱㅏㄴㅇㅣ -12553
▁ㄱㅕㅇㅋㅙ -12554
▁ㅇㅝㄴㅈㅓㅁ -12555
▁Plus -12556
▁ㅊㅣㅁㅇㅣㅂㅈㅏ -12557
ㅁㄷㅗㄹ -12558
▁ㅇㅏㄱㄱㅟ -12559
▁ㅈㅣㄹㅅㅐㄱ -12560
▁ㅇㅓㄹㄸㅓㄹ -12561
▁880 -12562
ㅇㅕㅇㅇㅜㅇㅈㅓㄴㅅㅓㄹ -12563
iant -12564
▁ㅈㅓㄱㄱㅜㄱ -12565
ㅎㅕㄴㅎㅢ -12566
▁ㅇㅏㄴㅁㅏ -12567
▁ㅇㅏㄹㄹㅗ -12568
▁ㅎㅏㄴㅋㅠ -12569
▁Set -12570
▁288 -12571
▁CBS -12572
▁ㅇㅓㅍㅇㅓ -12573
▁ㄱㅓㄹㄹㅣㅁㄷㅗㄹ -12574
▁Reb -12575
▁ㅁㅏㄴㅎㅏ -12576
ㅅㅓㅇㅂㅓㅁ -12577
▁ㅊㅓㄹㅍㅏㄴ -12578
▁Mc -12579
ㅇㅛㅇㅅㅜ -12580
▁ㄱㅘㄴㄹㅖ -12581
▁ㄴㅗㅎㅇㅏ -12582
▁ㅋㅣㄹㄹㅣㅇ -12583
TN -12584
▁Aq -12585
ㅎㅡㅁ -12586
otion -12587
▁More -12588
ㄱㅏㄹㅇㅣ -12589
▁ㅂㅕㅇㅅㅣㄹ -12590
▁ㅅㅓㅇㄹㅛㅇ -12591
▁ㅅㅣㄴㅊㅏㅇ -12592
▁960 -12593
ㄴㄷㅔㄹ -12594
▁MED -12595
ㅁㅜㅅㄱㅏ -12596
adding -12597
▁ㅅㅏㄱㅅㅡ -12598
ㅈㅏㅇㅅㅜ -12599
▁ㅋㅗㅁㅍㅡㄹㄹㅔㄱㅅㅡ -12600
HA -12601
HI -12602
▁ㅍㅜㅇㅅㅓㅇ -12603
▁ㅎㅗㄴㅇㅛㅇ -12604
▁ㅌㅏㅁㅎㅓㅁㄷㅐ -12605
ㅍㅔㄴㅅㅓ -12606
ㅅㅣㄴㅁㅜㄴ -12607
▁ㅋㅏㅁㅂㅗ -12608
ㄱㅜㄱㅅㅣㄱ -12609
ㅅㅡㄹㄹㅏㄴ -12610
▁ㅊㅏㅇㄱㅏㄴ -12611
▁ㄷㅏㄴㅅㅣ -12612
▁ㅇㅕㅇㅌㅗㅇ -12613
▁ㅉㅣㅇ -12614
ㄷㅗㅇㅇㅕㄱ -12615
▁ㅇㅏㄴㅅㅏㄴㅅㅣ -12616
▁ㅅㅣㄴㅇㅢ -12617
▁Mnet -12618
ㅅㅐㅇㅁㅕㅇ -12619
▁ㅍㅗㄱㅇㅕㅁ -12620
▁ㅈㅣㄴㅍㅜㅇㄱㅕㅇ -12621
ㄹㅑㅇㄱㅣ -12622
orce -12623
▁ㅎㅟㄹㅊㅔ -12624
▁ㅂㅗㄱㄹㅑㅇ -12625
▁ㅅㅣㄹㅎㅘ -12626
ㄷㅏㅇㅇㅕㄱ -12627
▁ㅁㅜㄴㅎㅏㅇ -12628
▁ㅂㅜㄴㄱㅛ -12629
▁ㄱㅗㅇㅁㅜㄹ -12630
▁ㅂㅗㅇㅎㅘ -12631
ㅎㅕㄴㅅㅏㅇ -12632
▁ㅈㅡㅇㅅㅓㄹ -12633
▁ㅇㅗㅂㅈㅓ -12634
ㅅㅣㄴㄹㅗㄴ -12635
ㄴㅕㅁㅂㅣ -12636
▁ㅇㅑㅇㅈㅗ -12637
▁ㅍㅏㄴㅂㅏㄱㅇㅣ -12638
▁ㄱㅓㄹㄹㅔ -12639
▁ㅎㅓㅁㄴㅏㄴ -12640
▁po -12641
▁ㅂㅓㅁㅍㅓ -12642
▁ㄱㅏㄺㅇㅏ -12643
▁ㄱㅏㅇㅈㅣ -12644
▁ㅅㅐㅇㅁㅜㄹㅊㅔ -12645
▁ㅂㅐㅅㅅㅗㄱ -12646
▁ㄸㅡㅅㄷㅐ -12647
79 -12648
els -12649
▁ㅎㅕㄴㄹㅏㄴ -12650
▁ㅅㅗㄴㅍㅐ -12651
▁ㅂㅕㄴㄷㅓㄱ -12652
▁ㅈㅓㄴㅇㅣㄹ -12653
▁ㅇㅣㄹㅅㅐㄱ -12654
▁ㅇㅕㅍㄱㅜ -12655
▁ㅈㅜㄹㅁㅜ -12656
aint -12657
▁610 -12658
▁ㅁㅕㅇㅅㅜ -12659
▁Video -12660
▁ㅇㅛㅇㅅㅣㄴ -12661
▁had -12662
ㅇㅣㄴㅎㅘ -12663
▁ㅈㅓㅁㅇㅝㄴ -12664
▁ㅎㅘㅇㄱㅓㄴ -12665
ㅅㅐㅇㅇㅏ -12666
▁would -12667
▁ㅂㅜㄹㅍㅐ -12668
▁ㅈㅏㅇㅂㅗ -12669
▁ㅎㅓㄴㅌㅣㅇ -12670
▁ㄷㅗㅇㅇㅑㅇㅇㅣㄴ -12671
▁ㄱㅗㄹㄷㅡㄴㄱㅡㄹㄹㅓ -12672
ㄲㅜㄴ -12673
▁ㅌㅡㄱㅊㅘㄹㅁㅜㄹ -12674
ents -12675
▁ㅅㅔㄹㅋㅏ -12676
ㅅㅓㄱㅈㅣㄴ -12677
ㅍㅕㅇㅇㅕㄱ -12678
▁ㅅㅓㄱㅍㅏㄴ -12679
▁ㅊㅓㄴㄹㅛㅇ -12680
▁ㅈㅏㅇㅈㅗ -12681
ㅆㅢ -12682
▁ㅇㅐㄴㅅㅓ -12683
▁ㄱㅗㅇㅇㅑㅇ -12684
▁ㅅㅗㄱㅅㅗㄱ -12685
ㄹㅏㄱㅅㅡ -12686
▁ISO -12687
ery -12688
▁ㄷㅟㅅㅂㅜ -12689
▁ㅉㅣㅈㄱㅣ -12690
▁ㅇㅕㅁㅈㅡㅇ -12691
▁ㅈㅏㅇㅁㅏㄴ -12692
ATA -12693
▁ㅈㅡㅇㅈㅓㅇ -12694
EP -12695
▁404 -12696
erson -12697
▁view -12698
▁ㅅㅓㅇㅍㅗㄱㄹㅕㄱ -12699
sy -12700
ㅅㅅㅗㄱ -12701
ottom -12702
▁ㄱㅜㄱㅁㅜㄴ -12703
▁ㅇㅕㄱㅈㅓㅇ -12704
▁ㄷㅏㄹㅍㅐㅇㅇㅣ -12705
▁ㅂㅓㄴㅂㅓㄴㅎㅣ -12706
▁PTS -12707
▁ㅇㅣㅂㄱㅣㅁ -12708
▁EXE -12709
▁Nat -12710
ㅇㅝㄴㄱㅜ -12711
▁ㄷㅡㄹㄸㅡ -12712
▁ㅇㅓㅍㅊㅣ -12713
ㄸㅜㄱㄸㅜㄱ -12714
▁ㅈㅏㄱㅁㅕㅇ -12715
▁ㅎㅡㅇㄱㅜㄱ -12716
con -12717
▁ㅊㅓㄴㅅㅜ -12718
ext -12719
▁ㄷㅓㅇㄱㅜㄹ -12720
ke -12721
▁ㅂㅏㄱㅎㅕㅇ -12722
▁ㅈㅗㅇㅇㅛㅇ -12723
▁FD -12724
roid -12725
ㅍㅗㄱㄹㅕㄱ -12726
▁ㅎㅏㅁㅈㅗㅇ -12727
ih -12728
▁345 -12729
▁ㅉㅏㄹㅉㅏㄹㅇㅣ -12730
▁ㅇㅑㅇㅅㅜ -12731
▁ㅇㅗㄴㅌㅗㅇ -12732
▁ㅈㅓㅇㅊㅏㄹㅂㅕㅇ -12733
▁ㄱㅓㄴㄱㅘ -12734
▁ㅅㅗㄱㅂㅗ -12735
▁ㅎㅔㄱㅌㅓ -12736
▁ㅈㅓㅇㅅㅡㅇ -12737
▁Kr -12738
▁ㅌㅏㄴㅅㅣㄱ -12739
▁911 -12740
ender -12741
▁1912 -12742
▁star -12743
ㅇㅣㄴㅅㅠ -12744
ㅇㅣㅂㅈㅏ -12745
▁board -12746
▁By -12747
▁ㅈㅣㅈ -12748
▁ㅁㅣㄴㅅㅗㄱ -12749
▁Squ -12750
▁ㅇㅛㅇㄱㅏ -12751
▁}}}}}}}} -12752
▁ㅈㅓㅇㅂㅗㄱㅈㅏ -12753
▁ㄷㅡㅇㄱㅣ -12754
▁ㅁㅕㄴㅅㅔ -12755
▁ㅇㅗㄱㅌㅗ -12756
▁OGN -12757
▁ㅇㅛㅇㅈㅓㅂ -12758
▁ㅈㅜㅇㅈㅡㅇ -12759
ta -12760
▁ㅈㅏㅇㄷㅗ -12761
▁ㅇㅕㄴㅈㅓㅇ -12762
▁ㅌㅗㅇㄱㅗㄱ -12763
ㄱㅡㄴㅊㅏ -12764
ula -12765
▁Ball -12766
▁ㄱㅘㄴㅎㅕㄴㅇㅏㄱ -12767
uit -12768
▁840 -12769
▁Card -12770
▁ㄴㅗㄴㅇㅚ -12771
▁ㅊㅓㅇㅅㅜㄴ -12772
ㅁㅜㄴㅋㅜㄹㄹㅜ -12773
▁ㅇㅕㅇㅇㅜㅇㅈㅓㄴㅅㅓㄹ -12774
▁ㅈㅓㄴㅁㅜㄴㅎㅏㄱㄱㅛ -12775
ㄹㄹㅣㅁ -12776
▁ㅅㅏㅇㄱㅡㅂㅈㅏ -12777
▁ㅂㅕㄴㅎㅏㅁㅇㅓㅄ -12778
▁ㄴㅏㅌ -12779
▁ㅍㅕㄴㅎㅣ -12780
▁MSI -12781
▁power -12782
▁Aqours -12783
▁ㅇㅝㄴㅌㅏㄱ -12784
▁Dyn -12785
▁ㄹㅣㄴㅋㅗ -12786
▁ㅍㅏㄴㅈㅏ -12787
▁ㅂㅗㅇㅅㅣㄴ -12788
▁ㅈㅓㅇㅇㅠㄴㅈㅗㅇ -12789
ㅇㅖㄴ -12790
▁Div -12791
ㅅㅓㄴㅇㅘㅇ -12792
▁ㅈㅐㅇㅈㅐㅇ -12793
▁ㅍㅏㄴㅇㅣㄴ -12794
▁272 -12795
▁780 -12796
▁810 -12797
ㅎㅡㄴㄷㅡㄹ -12798
LA -12799
▁TBD -12800
ㅍㅡㄹㄹㅗ -12801
ㄱㅕㄹㅎㅏㅂ -12802
▁xB -12803
▁ㅇㅝㄹㅎㅘ -12804
ㅈㅜㄴㅇㅕㅇ -12805
▁SPECIAL -12806
▁Year -12807
ㄹㅔㄹㄹㅣ -12808
ㅈㅓㄱㄱㅓ -12809
▁ㄱㅝㄴㅌㅜ -12810
ㅎㅜㅅ -12811
▁ㄷㅣㄷ -12812
ㅅㅏㄴㅎㅘ -12813
wn -12814
▁ㅅㅕㄴㅌㅡ -12815
▁ㅁㅏㄴㅇㅣㄴ -12816
▁ㅎㅕㄴㄱㅘㄴ -12817
▁%~ -12818
▁Band -12819
▁ㅈㅜㅇㅅㅜ -12820
▁IB -12821
▁ㅁㅜㄴㄱㅓㄴ -12822
▁ㅂㅏㄹㅈㅏㄱ -12823
▁JD -12824
▁ACE -12825
▁ARC -12826
ㄱㅓㄴㅅㅗ -12827
▁ㅅㅔㄴㅌㅗ -12828
▁ㅇㅡㅁㅍㅛ -12829
▁ㅇㅡㅇㅁㅗ -12830
▁1923 -12831
▁ㅋㅣㄹㄹㅣ -12832
▁ㄱㅘㄴㅈㅜㅇㅅㅓㄱ -12833
▁ㅂㅐㄱㅇㅏㄱㄱㅘㄴ -12834
▁video -12835
▁ㄱㅏㅇㅂㅐㄱㅎㅗ -12836
▁Lov -12837
▁ㄱㅗㅇㅂㅐㄱㄱㅣ -12838
▁Fort -12839
ㅌㅓㄱㄷㅐ -12840
▁ㄴㅏㅁㅂㅏㅇ -12841
▁ㅌㅏㄹㅈㅣㄴ -12842
▁ㅎㅘㄴㄱㅘㄴ -12843
ico -12844
▁820 -12845
▁pre -12846
▁Queen -12847
▁ㅁㅏㄴㅅㅜ -12848
▁ㅎㅐㅇㅈㅓㅇㅎㅏㄱ -12849
hes -12850
▁ㄲㅏㄹㅂㅗ -12851
▁ㅂㅏㄹㅎㅘ -12852
▁KV -12853
po -12854
ㄲㅜㅇ -12855
▁ㅊㅐㄱㅇㅣㅁㄱㅏㅁ -12856
▁AJ -12857
▁ㅍㅓㄴㄷㅡ -12858
▁ㄱㅏㄴㄷㅏㅁㅎㅚ -12859
▁Ever -12860
ㅅㅓㄱㅎㅢ -12861
▁ㅅㅗㄱㄱㅣ -12862
▁ㅅㅓㅇㅇㅏㄱ -12863
▁ㅇㅑㄴㄷㅏ -12864
▁Wonder -12865
▁ㄷㅗㄱㅊㅏㅇ -12866
▁ㅂㅗㄴㅈㅓㄴ -12867
▁America -12868
▁ㄱㅘㅇㅁㅕㅇㅅㅣ -12869
ㅂㅘ -12870
▁Mons -12871
▁ㅅㅜㄷㄱㅏ -12872
▁ㅈㅓㄴㅎㅏㄱㅅㅐㅇ -12873
▁ㅁㅜㄴㅅㅓㄴ -12874
▁ㅅㅏㄴㅈㅓㄱ -12875
▁ㅇㅘㅇㄹㅣㅂ -12876
▁ㅌㅡㄱㄱㅏㅇ -12877
▁ㅎㅕㄹㅈㅓㄴ -12878
ican -12879
▁Shadow -12880
▁ㅇㅡㅁㅇㅕㄱ -12881
▁Vers -12882
ㅇㅣㄴㅅㅣ -12883
▁ㅌㅗㅇㄴㅏ -12884
ㅅㅡㅇㅎㅢ -12885
ㅎㅏㄴㅎㅣ -12886
▁ㅂㅏㅂㄱㅏㅄ -12887
ㅂㅔㄱ -12888
▁INF -12889
▁ㅇㅘㅇㄷㅗ -12890
▁ㅎㅕㄹㅈㅗㄱ -12891
▁ㅇㅕㅇㅇㅐ -12892
▁ㅁㅕㄴㅎㅚ -12893
▁ㅂㅡㄹㄹㅐㄱㄹㅣ -12894
ㅈㅜㅂ -12895
▁ㅅㅔㅅㅅㅛ -12896
▁ㄷㅗㄱㅎㅏ -12897
▁ㅈㅓㄴㅇㅓㅂ -12898
▁321 -12899
▁Ill -12900
▁From -12901
ㅈㅗㅇㅂㅕㅇㄱㅣ -12902
▁Exper -12903
▁ㅅㅏㄴㅌㅣ -12904
▁ㅇㅏㅇㅌㅜ -12905
APP -12906
▁ㄸㅓㄱㅊㅣㄹ -12907
▁ㅈㅗㅇㅅㅣㄱ -12908
▁ㅎㅕㅇㅊㅔ -12909
▁ㄱㅓㄴㄷㅡㄹ -12910
▁ㅇㅛㅇㄷㅗㄴ -12911
▁ㄴㅗㄱㅅㅡㄹ -12912
▁ㅂㅕㅇㅈㅏ -12913
▁ㅎㅏㅁㅇㅠ -12914
73 -12915
▁ㅈㅜㄱㅊㅏㅇ -12916
93 -12917
▁ㅇㅗㄴㅊㅓㄴㅇㅛㄱ -12918
hed -12919
▁ㅈㅏㄱㅅㅓㅇㅈㅏ -12920
▁ㅇㅕㄱㅅㅔ -12921
ㄹㅏㅇㅈㅓㄴㅅㅓㄹ -12922
▁could -12923
▁ㅇㅐㅇㅁㅜ -12924
live -12925
▁ㅁㅏㅇㄴㅏ -12926
▁ㄱㅐㄹㄹㅣ -12927
▁355 -12928
▁570 -12929
▁padding -12930
ㄹㅓㅇㄱㅓ -12931
▁ㅅㅡㅇㅎㅘ -12932
▁ㅇㅕㅇㅇㅕㅇ -12933
▁}}}}}}}}} -12934
ㅂㅏㅇㅇㅟ -12935
▁ㅎㅔㄹㅅㅣㅇ -12936
▁ㅎㅏㅁㄱㅛ -12937
▁ㅂㅓㄴㅅㅓㅇ -12938
ㅁㅔㄹㄹㅣ -12939
▁ㅁㅜㄴㄷㅗ -12940
▁ㅇㅏㄱㅊㅟ -12941
▁ㅊㅣㄴㅇㅘㅇ -12942
▁JK -12943
▁1921 -12944
▁ㅁㅜㄴㅎㅢ -12945
▁ㅂㅜㄹㅇㅢ -12946
▁ㅁㅜㄱㅇㅣㄴ -12947
▁Chapter -12948
▁ㅁㅏㄱㅅㅏ -12949
▁Player -12950
▁how -12951
▁ㅎㅣㅁㄲㅓㅅ -12952
▁ㅊㅓㅇㄱㅖ -12953
▁ㅇㅜㄹㄹㅡㅇ -12954
ㅌㅐㄱㄱㅏ -12955
ㅎㅡㅇㄱㅜㄴ -12956
▁ㅂㅐㄱㅅㅏㅇ -12957
▁ㅈㅏㅂㅇㅡㅁ -12958
▁ㅇㅕㅁㅇㅝㄴ -12959
ask -12960
▁read -12961
▁ㅅㅣㄹㅍㅡ -12962
zer -12963
▁San -12964
ㅇㅏㄴㄱㅕㅇ -12965
▁Round -12966
la -12967
▁ㅅㅜㄴㅇㅣ -12968
ㅇㅓㅇㅇㅣ -12969
▁ㅂㅏㄱㅈㅔ -12970
▁ㄱㅜㄱㅇㅏㄱ -12971
▁ㅇㅕㄴㅍㅣㄹ -12972
▁TFT -12973
▁ㅎㅏㅇㅅㅣ -12974
▁than -12975
▁ㅇㅕㅇㄷㅓㄱ -12976
oto -12977
▁ㅇㅘㄹㅊㅡ -12978
▁ㅎㅘㅇㅇㅑ -12979
ㅇㅝㄴㄱㅜㄱ -12980
▁ㅈㅏㅇㄱㅓㅁ -12981
▁ㅇㅝㄴㅁㅏㄴ -12982
▁FOR -12983
ㅁㅏㄹㄹㅏ -12984
▁ㅍㅐㄴㅅㅓ -12985
▁ㄱㅕㅁㅅㅗㄴ -12986
ㅇㅣㄴㅈㅓㄹㅅㅡ -12987
▁Enter -12988
▁ㄱㅏㅁㅊㅜㄱ -12989
▁sky -12990
ㅇㅑㄱㅅㅡ -12991
▁ㅇㅣㄹㅅㅣㄴ -12992
▁UTC -12993
▁ㅁㅏㄹㄷㅏ -12994
ㅈㅜㅇㅅㅣㅁ -12995
ㅎㅘㄴㄱㅕㅇ -12996
▁ㄱㅣㅁㅂㅏㅂ -12997
▁ㅁㅐㅇㄱㅗㅇ -12998
▁620 -12999
▁ㄱㅜㄴㅈㅏ -13000
▁ㅇㅐㅇㄱㅡ -13001
▁ㄱㅕㄹㅈㅣㅂ -13002
▁ㄱㅣㅁㄱㅏㅂ -13003
aze -13004
▁1905 -13005
▁BEST -13006
ㄷㅗㅇㅎㅕㄴ -13007
▁ㅅㅓㄴㅅㅡㅇ -13008
▁ㅅㅓㅇㅇㅛㄱ -13009
▁Under -13010
▁ㅎㅕㅂㅈㅜ -13011
▁ㅇㅛㅇㄱㅘㅇ -13012
ㄹㅏㄴㄷㅗ -13013
ㅍㅜㄹㄹㅣ -13014
▁ㄹㅗㅂㅅㅡ -13015
▁ㄱㅕㅇㄷㅗ -13016
▁ㅍㅕㄴㅂㅓㅂ -13017
68 -13018
▁high -13019
ㄱㅕㅇㅈㅣ -13020
▁ㅈㅜㅇㄹㅏㅇ -13021
▁ㅎㅑㅇㄴㅕㄴ -13022
▁004 -13023
ollow -13024
ㄱㅡㅂㅈㅏㅇ -13025
▁ㄱㅣㅁㅎㅗㅇ -13026
▁ㅅㅐㄱㄱㅏㅁ -13027
▁ㅇㅏㄴㅇㅑㅇㅅㅣ -13028
▁EF -13029
▁JAP -13030
▁MOVIE -13031
ㅁㅏㄴㅂㅕㄹ -13032
▁ㄷㅔㄴㅇㅗ -13033
▁ㅋㅓㅁㅍㅏ -13034
▁ㄷㅔㅅ -13035
ㄱㅗㅇㅈㅏ -13036
▁ㄴㅡㅇㅌㅗㅇ -13037
▁ㄱㅡㄱㄷㅏㄴㅈㅜ -13038
amage -13039
ㅌㅡㄹㅂㅓ -13040
▁ㄴㅓㄼㅇㅣ -13041
▁ㅁㅜㄹㄱㅣ -13042
ㄷㅗㅇㅅㅣㄱ -13043
▁9999 -13044
▁ㅇㅜㄴㅎㅏ -13045
▁ㅋㅏㄱㅌㅔ -13046
▁ㅆㅐㅁ -13047
▁ㅅㅜㄹㄹㅐ -13048
▁ㄱㅕㅇㄹㅖ -13049
ㅎㅏㅂㅈㅜㅇㄱㅜㄱ -13050
▁ㅅㅡㄹㅎㅏ -13051
ㅇㅠㅇㅎㅏㅂ -13052
▁ㄷㅏㅇㄱㅜ -13053
▁ㅎㅐㄱㅇㅠㅇㅎㅏㅂ -13054
ㄷㅗㅇㅅㅏ -13055
▁ㅈㅗㅇㅇㅓㅂㅇㅝㄴ -13056
▁ㅈㅏㅅㄷㅐ -13057
▁ㅍㅔㄴㄹㅣ -13058
ㄱㅏㄹㅇㅓ -13059
▁ㄱㅜㄱㅁㅣㄴㅎㅚ -13060
▁Ben -13061
ㅌㅓㅇ -13062
▁Old -13063
▁ㅂㅏㅇㄷㅗㄱ -13064
▁ㅅㅏㅇㅂㅗㅇ -13065
obal -13066
▁312 -13067
▁710 -13068
ㅅㅏㄴㅅㅓㅇ -13069
▁ㄱㅣㅁㅁㅣㄴㅊㅓㄹ -13070
▁ㅇㅕㅇㅊㅏ -13071
amb -13072
▁335 -13073
▁ㅁㅓㄱㅇㅣㅅㄱㅏㅁ -13074
ㅅㅜㄴㅎㅘㄴ -13075
▁ㅇㅕㄹㄷㅐ -13076
▁ㅇㅣㄹㄹㅠ -13077
▁ㅈㅣㅇㅅㅜ -13078
▁ㄷㅟㅅㅁㅗㄱ -13079
▁ㅂㅏㄷㄷㅡㄹ -13080
▁ㅇㅕㅇㅇㅓㅂㅅㅗ -13081
▁np -13082
umber -13083
▁ㄷㅗㅇㄱㅟ -13084
▁ㅅㅐㄱㄷㅏ -13085
▁ㅎㅔㄱㅌㅗ -13086
▁AGE -13087
▁ㅂㅜㄹㅅㅡ -13088
▁ㅈㅓㄴㄱㅜ -13089
▁ㅅㅣㄹㄱㅘ -13090
▁ㅇㅝㄴㄹㅛ -13091
▁ㄱㅗㅇㅇㅓㄴ -13092
▁Ra -13093
ㅅㅑㅇ -13094
▁RNG -13095
▁ㅋㅔㄴㅌㅡ -13096
▁ㅇㅕㄴㅎㅏㅂㄴㅠ -13097
ada -13098
ㅈㅜㄹㄱㅣ -13099
▁ㄱㅗㅇㅇㅛㅇㅇㅓ -13100
ular -13101
▁ㅇㅣㄹㄱㅓ -13102
▁ㄷㅏㄹㄷㅏㄹ -13103
▁CU -13104
▁ㅅㅗㅇㄴㅏ -13105
▁ㄱㅗㅇㅅㅐㅇ -13106
ㅍㅏㄴㅂㅜ -13107
▁ㄱㅏㅇㄱㅏ -13108
▁ㄱㅣㅁㅅㅏ -13109
▁ㅅㅡㅂㅈㅣ -13110
▁Another -13111
▁ㄱㅏㄱㅅㅓㅇㄱㅣ -13112
▁Look -13113
▁ㅈㅏㅈㅇㅏ -13114
▁ㄱㅓㅁㅁㅜㄴ -13115
▁ㅅㅜㄴㅎㅚ -13116
▁ㅌㅏㄹㅍㅣ -13117
OME -13118
ney -13119
▁1907 -13120
▁ㅂㅗㄴㅈㅡ -13121
▁ㅅㅏㅇㅅㅗ -13122
▁ㅂㅕㅇㅂㅓㅂ -13123
▁ㅊㅣㄴㅈㅗㄱ -13124
▁ㅁㅗㅇㄷㅜㅇㅇㅣ -13125
▁ㄷㅜㄴㅎㅏ -13126
▁ㅂㅏㄱㅎㅢ -13127
ㅈㅏㄱㄱㅗㄱ -13128
▁ㅂㅕㄴㅂㅏㅇ -13129
▁ㅍㅓㄴㅌㅡ -13130
▁ㅁㅕㅇㅎㅏㅁ -13131
▁ㅋㅡㄹㄹㅣㄴㅌㅓㄴ -13132
▁WIN -13133
▁ㅂㅏㄹㄱㅜㄴ -13134
▁ㄱㅜㄴㅁㅏ -13135
▁ㅌㅏㅁㅌㅏㄱ -13136
▁ㅎㅏㄱㄱㅘㄴ -13137
▁401 -13138
▁ㅈㅣㄴㅅㅣ -13139
▁ㅊㅣㅁㅅㅜ -13140
▁ㅅㅗㅇㅇㅡㄴㅂㅓㅁ -13141
▁ㄷㅗㅇㅅㅜ -13142
UMI -13143
ㅇㅗㅁ -13144
▁ㅎㅏㄾ -13145
ㅇㅔㄴㄷㅡ -13146
ories -13147
▁ㅆㅣㅇ -13148
ㄱㅐㅇㅇㅓ -13149
ㄱㅐㅇㅇㅣ -13150
ㅍㅡㄹㄱㅐㅇㅇㅓ -13151
ora -13152
reas -13153
▁bbq -13154
ㄹㅓㅇㅋㅡ -13155
▁ㅇㅓㅇㅌㅓ -13156
▁ㄱㅕㅇㅊㅏㄹㅊㅏ -13157
▁ㅂㅗㄴㅇㅕㄴ -13158
▁ㅈㅜㅇㄷㅗㄱㅈㅏ -13159
▁ep -13160
▁Av -13161
▁ㅈㅓㅇㅁㅣ -13162
▁Plan -13163
ㄲㅜㄹㅁㅓㅇ -13164
▁ㄱㅐㅇㅅㅐㅇ -13165
▁ㅅㅗㅇㄱㅘㅇ -13166
RC -13167
▁ㄱㅡㄹㅆㅔ -13168
▁Work -13169
▁ㅈㅏㅂㅈㅗㄹ -13170
▁ㄱㅡㄴㄱㅛ -13171
▁ㄷㅡㅇㅉㅏㄱ -13172
▁ㅎㅏㄴㅈㅣㄴ -13173
▁die -13174
▁ㅍㅕㅇㅇㅑ -13175
▁ㅅㅣㄴㅂㅜㄴㅈㅡㅇ -13176
▁RM -13177
▁ㄷㅗㄱㅅㅡ -13178
▁CHA -13179
ㅈㅣㄴㅈㅏㅇ -13180
▁ㅂㅏㄴㅍㅗ -13181
▁ㅅㅣㄴㅁㅜㄴㅅㅏ -13182
ayer -13183
▁ㄱㅜㄴㄹㅑㅇ -13184
▁ㅎㅘㅇㅎㅐ -13185
ㄱㅕㅇㅊㅏㄹ -13186
▁ㅁㅜㄱㅁㅜㄱㅎㅣ -13187
▁Leader -13188
bow -13189
▁ㅇㅕㄱㄱㅗㅇ -13190
elieve -13191
▁ㅇㅑㅇㄷㅓㄱ -13192
ㅇㅘㄱ -13193
▁Tur -13194
▁Ka -13195
aki -13196
▁ㅊㅓㅇㄹㅏ -13197
▁ㄲㅗㅊㅍㅣ -13198
ㅂㅗㄴㅂㅜ -13199
▁ㅂㅜㄴㅌㅏㅇ -13200
ote -13201
ㄱㅏㅇㅎㅏ -13202
▁ㅌㅏㄴㅈㅏ -13203
ㅋㅜㅇ -13204
▁258 -13205
▁Pat -13206
▁Lu -13207
▁som -13208
ㅇㅡㄹㄹㅣ -13209
▁ㅆㅜㄴ -13210
▁ㅅㅐㄱㅅㅗ -13211
▁ㅇㅞㄹㅅㅡ -13212
▁ㅇㅡㅇㅅㅜ -13213
▁ㅅㅓㅇㅅㅏㄴ -13214
▁ㅊㅐㄱㅂㅗㅇ -13215
▁ㅅㅓㅇㅅㅣㄴ -13216
▁ㅎㅘㄴㅅㅡㅇㅇㅕㄱ -13217
ㅁㅏㅈㅊㅜㅁ -13218
▁SSS -13219
▁APK -13220
▁ㅂㅏㄺㄱㅣ -13221
▁ㅂㅏㄴㅇㅝㄹ -13222
ㅅㅏㄹㅈㅏ -13223
ㄷㅗㅇㅈㅜㄴ -13224
▁ㄱㅡㅂㄱㅏㅇㅎㅏ -13225
▁VT -13226
▁286 -13227
ㄹㅐㄱㅌㅓ -13228
▁ㅂㅔㄹㄹㅗ -13229
▁ㄷㅏㅇㅈㅣㄱ -13230
▁ㄷㅓㄹㄷㅓㄹ -13231
▁ㅊㅏㄱㅇㅗ -13232
▁PTSD -13233
ㅇㅠㄱㅎㅏㄱ -13234
ister -13235
▁ㅇㅣㄹㅅㅜ -13236
ㅌㅐㅁㅍㅡ -13237
ㅎㅕㄴㅈㅜ -13238
▁ㅇㅕㅇㅇㅜㅇㅈㅓㄴ -13239
ros -13240
▁ㅇㅏㄹㄹㅏㅁ -13241
▁ㅅㅓㄴㄷㅔ -13242
▁ㅌㅗㅇㅈㅣ -13243
▁ㅌㅏㄹㅇㅢ -13244
▁ㄱㅜㄹㄱㅗㄱ -13245
ㅅㅓㅇㅎㅗ -13246
▁ㅁㅏㄹㅆㅏ -13247
▁ㅈㅓㄴㅊㅓ -13248
ㄱㅗㄱㅇㅕㄱ -13249
▁ㅈㅓㅂㅊㅏㄱ -13250
▁ㅂㅐㄱㄷㅗ -13251
ㅇㅑㅇㅇㅣㄴ -13252
▁ㄴㅏㄱㄷㅗㅇㄱㅏㅇ -13253
▁ㄹㅣㅇㄱㅗ -13254
▁ㅂㅏㄹㅊㅞ -13255
▁050 -13256
▁ㅈㅡㄱㅂㅏㄹ -13257
▁ㅊㅏㅁㅎㅗㄱ -13258
▁ㅎㅏㅂㅅㅔ -13259
ㄴㅏㅁㄷㅗㅇ -13260
▁357 -13261
▁Pal -13262
▁ㅇㅓㄹㅂㅓ -13263
▁ㅇㅣㄴㅊㅓㄱ -13264
▁ㅇㅏㄴㅈㅔㄹㄹㅏ -13265
▁ml -13266
ㅎㅓㄹ -13267
▁Here -13268
ㅈㅓㅇㄱㅣ -13269
▁ㅇㅕㄱㄷㅗㅇ -13270
▁ㄱㅡㅂㅈㅗ -13271
▁ㅂㅏㅇㄱㅟ -13272
▁ㅅㅓㄴㄴㅕ -13273
▁ㅅㅟㅂㅅㅏ -13274
▁Mic -13275
iness -13276
ㄹㅐㄴㄷㅓ -13277
ㅎㅏㄹㅁㅓ -13278
▁ㄱㅡㄴㅎㅕㄴ -13279
▁ㅅㅓㅇㅎㅐㅇ -13280
▁University -13281
▁ㄷㅗㄹㅊㅜㄹ -13282
▁ㅅㅡㄹㄹㅣㅇ -13283
▁Arch -13284
▁ㄱㅐㄱㅊㅏ -13285
▁ㅂㅕㅇㅇㅏ -13286
▁ㅂㅏㄴㅁㅜㄴ -13287
▁ㅇㅡㅁㅇㅏㄱㅈㅜㅇㅅㅣㅁ -13288
▁See -13289
▁ㅎㅕㅂㅇㅓㅂ -13290
REAK -13291
ㅂㅔㄹㄹㅏ -13292
▁ㅂㅏㅇㅈㅣㄴ -13293
▁ㅂㅗㅇㄱㅓㄴ -13294
▁ㅈㅗㅇㅇㅓㄴ -13295
ㅅㅣㄹㅅㅣㄴ -13296
▁ㄷㅗㅇㅈㅣㄴ -13297
▁ㅌㅐㅅㅇㅡㄹ -13298
OTHER -13299
▁ㅁㅜㄴㅊㅔ -13300
▁ㅈㅐㅇㅊㅟ -13301
▁ㅂㅏㅇㅌㅗㅇ -13302
▁ㄸㅓㄱㅅㅣㄹㅅㅣㄴ -13303
IZ -13304
▁ㄴㅏㄴㅈㅗ -13305
▁YES -13306
▁ㄷㅗㄱㅇㅡㅁ -13307
▁Beautiful -13308
▁Sub -13309
ㄱㅏㄴㄷㅏ -13310
ㅂㅡㄴㅅㅡ -13311
▁ㅂㅗㄹㄱㅓ -13312
▁ㅊㅓㅇㅂㅜ -13313
▁ㅇㅠㄴㅅㅏㅇ -13314
ㄱㅡㅂㅅㅜ -13315
▁ㄱㅗㄹㅁㅣㅌ -13316
▁ㄱㅣㅁㅁㅣㄴㅅㅓㅇ -13317
ㅇㅕㄴㅇㅢ -13318
▁ㅁㅓㅇㅊㅓㅇㅇㅣ -13319
ㅅㅣㄱㄱㅏ -13320
▁ㅁㅣㄹㅊㅏㄱ -13321
▁ㅂㅜㄹㄱㅗ -13322
▁ㅅㅗㄱㄴㅐ -13323
▁ㅇㅕㄹㄷㅗ -13324
43 -13325
ㄴㅗㄱ -13326
▁ㄹㅜㅅ -13327
▁ㄱㅏㅇㄱㅜ -13328
▁ㄷㅗㄱㅇㅣㄹㅇㅣㄴ -13329
▁Give -13330
▁ㅅㅗㄴㅅㅡㅇ -13331
▁003 -13332
▁ㅈㅏㄴㄴㅡ -13333
▁ㄱㅗㅇㄱㅕㄱㅈㅏ -13334
▁ㅋㅗㄹㄹㅔㄱㅅㅕㄴ -13335
▁ㅇㅕㅇㅍㅏㄴ -13336
▁ㅂㅏㅇㄹㅏㅇㅈㅏ -13337
▁ㅎㅣㅁㅊㅏ -13338
▁ㅂㅡㄹㄹㅏㄱ -13339
▁ㅇㅓㄹㄸㅓㄹㄱㅕㄹ -13340
▁JAPAN -13341
▁ㅂㅐㄱㅈㅗ -13342
▁ㅈㅜㅇㅌㅚ -13343
▁its -13344
ㅊㅜㄹㅅㅗ -13345
▁Double -13346
▁ㅅㅣㅁㅅㅏㅇㅈㅓㅇ -13347
ror -13348
onight -13349
▁ㅈㅏㅇㅌㅓ -13350
▁ㅇㅣㄴㅇㅑㅇ -13351
▁ㅅㅜㅌ -13352
▁Oper -13353
▁ㄱㅐㄱㅅㅣㄹ -13354
▁ㄷㅗㄱㅊㅣㅁ -13355
ja -13356
▁OFF -13357
▁ㅅㅜㄴㅊㅓㄴㅅㅣ -13358
▁name -13359
ㅅㅣㄱㅁㅜㄹ -13360
KE -13361
▁under -13362
▁ㅁㅏㄴㅌㅏ -13363
▁ㅇㅑㅇㅎㅏㄱ -13364
▁Pur -13365
ㄱㅕㄱㅈㅏ -13366
ㅎㅏㄹㅅㅣ -13367
▁ㅊㅓㄱㅌㅏㄴ -13368
▁ㅎㅐㄱㅈㅓㄴㅈㅐㅇ -13369
▁670 -13370
▁ㅁㅜㄹㄱㅓ -13371
▁ㅂㅏㄹㄱㅓㄹㅇㅡㅁ -13372
ini -13373
ㄷㅏㅎ -13374
▁ㄴㅕㅇ -13375
ㅅㅏㅇㅎㅏ -13376
▁ㅇㅕㄴㅁㅕㅇ -13377
▁ㅍㅗㄱㅇㅑㄱ -13378
▁ㅇㅜㄴㄷㅗㅇㅎㅚ -13379
▁385 -13380
▁ㅎㅕㄴㅇㅏㄱ -13381
▁MAR -13382
▁ㅂㅐㄱㅇㅑ -13383
▁ㄱㅏㅈㄱㅏ -13384
▁HERO -13385
▁ㅅㅓㅇㄱㅛ -13386
▁ㅅㅏㅇㅊㅡㅇㅂㅜ -13387
▁ㅇㅕㄴㅅㅏㄴㄱㅜㄴ -13388
42 -13389
▁ㄷㅔㄱㅅㅡ -13390
▁ㄷㅗㅇㅊㅏ -13391
▁ㅇㅓㅁㅊㅣㄴ -13392
▁Ref -13393
▁ㅊㅣㄴㅇㅣㄹㅍㅏ -13394
▁ㅅㅣㄱㄱㅏㅁ -13395
▁ㅇㅣㅁㅈㅗㅇ -13396
▁ㅈㅓㄴㅂㅏㄴㅂㅜ -13397
RAS -13398
▁ㄲㅑ -13399
▁ㅅㅣㄴㅂㅗ -13400
▁ㅅㅣㄱㄷㅏㄴ -13401
▁Gre -13402
▁True -13403
▁yul -13404
ㅅㅡㄹㄹㅏㅁㄱㅛ -13405
89 -13406
▁ㅇㅠㄴㅅㅓ -13407
▁ㅂㅜㄱㅇㅟ -13408
▁307 -13409
▁Make -13410
▁ㅂㅏㄹㄲㅡㄴ -13411
▁ㅍㅣㄹㅁㅕㅇ -13412
any -13413
▁ㅊㅓㄴㅎㅗ -13414
▁ㅇㅏㄹㄹㅗㄴ -13415
ㅅㅔㄹㄹㅓ -13416
▁ㅊㅓㄱㄷㅗ -13417
▁ㄱㅝㄴㅅㅓㄴ -13418
▁ㅅㅣㄴㅊㅏㅁ -13419
▁ㅇㅐㄱㅌㅓ -13420
ellow -13421
▁gonna -13422
▁ㅂㅓㄹㅈㅓㅁ -13423
▁ㅎㅏㄴㄲㅓㅅ -13424
▁-.- -13425
▁Burn -13426
▁ㅇㅗㅅㅊㅏ -13427
▁ㄱㅏㄴㅎㅐㅇ -13428
▁ㄴㅗㄴㅅㅏㄴ -13429
ㅂㅜㄹㅅㅏ -13430
▁ㅂㅜㄴㄱㅐ -13431
▁ㅈㅏㄱㅍㅜㅁㅅㅏㅇ -13432
▁ㄲㅣㅁㅅㅐ -13433
▁ㄷㅏㅇㄷㅗ -13434
▁ㄷㅗㄱㅅㅣㄹ -13435
▁FFF -13436
ㅇㅑㅇㄱㅜ -13437
▁ㄸㅏㄴㅈㅣ -13438
▁ㅂㅏㅇㄷㅗㄱㅁㅕㄴ -13439
ㄱㅡㅂㅊㅏ -13440
ㅅㅡㅇㄷㅏㄹ -13441
▁MH -13442
▁ㅈㅓㄴㅇㅐㄱ -13443
ㅈㅓㄴㅂㅏㅇ -13444
▁Doc -13445
▁Mov -13446
▁Ve -13447
▁ㄱㅣㄹㅉㅜㄱ -13448
▁ㅇㅑㅇㄱㅜㅇ -13449
▁MSM -13450
▁ㅇㅝㄴㅌㅗㅇ -13451
▁TK -13452
▁2600 -13453
▁ㅈㅓㅇㄱㅗㅇ -13454
▁ㄷㅏㅇㄴㅐ -13455
▁ㅈㅗㅇㅊㅏㄱㅇㅕㄱ -13456
▁ㅈㅓㅂㄷㅐ -13457
▁ㄱㅓㄴㅂㅏㄴ -13458
▁ㄹㅔㄹㄹㅣ -13459
ㄷㅓㅂ -13460
▁ㄱㅣㅁㅍㅜㅇ -13461
▁ㅈㅓㅇㅇㅕㄹ -13462
▁ㅌㅡㅁㅌㅡㅁ -13463
▁ㅈㅓㅇㅈㅜㄴㅇㅕㅇ -13464
▁Hal -13465
ㅇㅕㅇㅁㅣㄴ -13466
▁ㄱㅡㅂㅅㅏ -13467
▁ㄷㅗㄱㄱㅣ -13468
▁ㅇㅛㅇㄱㅓㅁ -13469
▁ㅂㅕㄱㅎㅘ -13470
ㅅㅓㄴㅇㅕㅇ -13471
ANT -13472
ㅁㅏㄴㅅㅜ -13473
▁ㄹㅕㅇㅇㅜ -13474
▁ㄱㅘㄴㅎㅐㅇ -13475
ㅍㅏㄴㄱㅘㄴ -13476
▁ㅌㅗㅅ -13477
▁ㄱㅕㄹㅂㅏㅇ -13478
▁ㄱㅣㅁㄷㅗㅇㅈㅜㄴ -13479
▁BY -13480
▁ㅂㅏㄴㅈㅡㅇ -13481
▁ㅈㅓㅇㅂㅕㄴ -13482
▁ㅎㅘㄱㅊㅜㅇ -13483
▁ㅁㅜㄴㅁㅜ -13484
ㅅㅏㅇㅈㅓㄴ -13485
▁ㅊㅓㄴㅈㅓㅇ -13486
▁1916 -13487
▁miss -13488
ㄴㅣㅇㄱㅜ -13489
ㅊㅏㅁㅅㅏ -13490
ㅂㅏㄹㄹㅗㄴ -13491
▁did -13492
▁\[ -13493
ㅌㅏㄴㅂㅜㄹ -13494
▁ㅇㅛㅇㅁㅜㄴ -13495
ㄴㅔㄴㅌㅏㄹ -13496
▁ㅍㅗㄱㅈㅏㅇ -13497
ris -13498
▁ㅈㅏㅇㅎㅕㄴ -13499
▁ㅈㅣㄴㅌㅗㅇ -13500
▁Hor -13501
▁Mind -13502
▁ㅋㅔㄴㅊㅣ -13503
ㄴㅏㄴㅂㅓㄴ -13504
ㅍㅏㅁ -13505
▁ㄱㅕㅇㅁㅏ -13506
▁ㄱㅡㅁㅈㅜ -13507
▁Bon -13508
▁1913 -13509
ㅇㅡㄴㅅㅓㅇ -13510
▁ㅋㅚㄹ -13511
▁ㄷㅗㄱㄱㅏ -13512
▁ㅁㅐㄱㅇㅏ -13513
▁ㅎㅘㅇㄱㅡㅁㅅㅐㄱ -13514
ㅁㅕㅇㄱㅣ -13515
▁ㅈㅓㄹㄹㅗ -13516
▁707 -13517
ㅂㅓㅁㅎㅗ -13518
▁ㅇㅏㅍㅂㅏ -13519
▁ㅋㅓㄹㄹㅓㅁ -13520
andy -13521
▁TECHNIKA -13522
▁VO -13523
ㄱㅘㄴㅅㅣㄱ -13524
▁ㅊㅞ -13525
▁ㅎㅏㅂㅅㅡ -13526
▁525 -13527
▁ㅈㅓㄴㅅㅓ -13528
ㅂㅣㄹㄹㅗㄴ -13529
▁ㅂㅓㄹㅂㅓㄹ -13530
▁ㅇㅕㄹㅇㅕㄴ -13531
▁ㅈㅣㄹㅅㅣㄱ -13532
ives -13533
ㅍㅏㄴㅈㅣ -13534
▁ㄷㅏㄴㅇㅓㄴ -13535
▁ㅇㅝㄴㅋㅣㄹ -13536
▁ㅍㅣㅅㅂㅣㅊ -13537
▁ㅅㅓㄹㅁㅕㅇㅅㅓ -13538
▁ㅇㅣㄴㄱㅗㅇㅇㅟ -13539
Boy -13540
ava -13541
▁ㅁㅕㅇㄷㅗㅇ -13542
ㅎㅗㅁ -13543
▁ㅅㅓㅇㅈㅗ -13544
▁ㅈㅓㄱㅇㅚ -13545
▁ㄱㅓㄴㅊㅜㄱㄱㅏ -13546
▁ㅈㅓㅁㄹㅕㅇㅈㅣ -13547
ㄹㅜㅇ -13548
▁Head -13549
ipedia -13550
▁ㄱㅡㅂㅂㅜ -13551
▁ㄷㅏㄴㄱㅜㄴ -13552
▁ㅈㅓㄴㅇㅏㅂ -13553
ㅇㅣㄹㅊㅔ -13554
▁DREAM -13555
▁Roll -13556
ㅌㅡㄹㄱㅓ -13557
▁ㅇㅛㅇㄷㅜ -13558
▁ㅂㅏㅇㅈㅗㅇ -13559
▁OUT -13560
ㅇㅏㄴㄱㅏ -13561
▁ㅇㅏㄴㅂㅏㅇ -13562
▁ㅈㅓㅇㅊㅏㄴ -13563
▁mid -13564
ㅇㅣㄹㅊㅣ -13565
▁ㅁㅏㄴㅊㅏㄴ -13566
ㄷㅏㅇㄷㅏㅇ -13567
▁Silver -13568
▁ㄱㅏㄴㄱㅕㄹ -13569
▁ㅂㅜㄹㄲㅗㅊㄴㅗㄹㅇㅣ -13570
▁1915 -13571
▁ㄹㅔㄴㅈㅣ -13572
▁ㅇㅑㅇㅊㅣ -13573
ㅆㅗ -13574
▁ㄲㅜㅅ -13575
ㄹㅡㅂㅆㅡ -13576
▁ㅂㅏㄱㅊㅓㄹ -13577
▁970 -13578
▁ㅊㅏㅂ -13579
▁icon -13580
▁ㄲㅜㄹㄹㅣ -13581
▁ㅇㅕㄱㅅㅜ -13582
▁ㅍㅣㄱㅅㅡ -13583
▁ㅊㅗㅇㅅㅏㄹ -13584
ㄷㅔㅇㅇㅣ -13585
ㅈㅣㄴㅂㅗ -13586
ㅇㅏㅂㄱㅏㅁ -13587
ㅂㅓㅅ -13588
▁ㅅㅡㅇㅈㅓㄴ -13589
▁ㅊㅓㄹㅇㅣㄴ -13590
FE -13591
▁Shin -13592
olding -13593
▁ㅍㅏㄹㄹㅗ -13594
ㄱㅏㅁㄷㅗㄱ -13595
▁.! -13596
ㄴㅕㄴㅊㅡㅇ -13597
▁ㅂㅏㅂㅅㅏㅇ -13598
▁ㅇㅕㄴㅇㅑㄱ -13599
ㅎㅘㄹㅅㅓㅇ -13600
▁ㅈㅓㅇㅅㅐㄱ -13601
▁ㅊㅜㄹㅎㅏㅇ -13602
ㅈㅓㅇㅎㅘㄴ -13603
▁ㅇㅑㅇㅁㅣㄴ -13604
▁263 -13605
ㅅㅏㅇㄱㅣ -13606
▁ㅇㅏㄴㅈㅣ -13607
▁ㄸㅏㅇㅋㅗㅇ -13608
▁ㅆㅜㅇ -13609
ㅂㅕㅇㅇㅝㄴ -13610
era -13611
▁CI -13612
▁009 -13613
▁ㅇㅣㄹㄱㅜ -13614
▁ㄴㅣㅅㅍㅗㄴ -13615
▁XM -13616
vice -13617
▁ㅇㅠㄱㅅㅜ -13618
▁ㅎㅏㄹㅋㅟ -13619
▁ㅇㅕㄹㅈㅜㅇ -13620
▁Episode -13621
▁ㄱㅘㄴㄹㅕㄴㅈㅏ -13622
▁Imp -13623
▁ㅇㅔㄹㅈㅏ -13624
▁ㄷㅏㅇㅅㅓㄴㅈㅏ -13625
▁ㅂㅜㄴㅂㅜㄴ -13626
▁ㅇㅡㅁㄱㅏㄱ -13627
▁ㄱㅡㅁㄱㅚ -13628
▁ㅍㅣㄹㄹㅗ -13629
ㅎㅕㄴㅈㅓㅇ -13630
YO -13631
usion -13632
▁PART -13633
▁346 -13634
▁402 -13635
itter -13636
▁ㅅㅣㄴㅁㅏ -13637
▁ㅁㅣㄴㄱㅕㅇ -13638
▁ㅈㅓㅁㅁㅏㄱ -13639
▁ㅍㅣㄹㅈㅜㅇ -13640
▁el -13641
ㄷㅗㅇㄱㅜㄱ -13642
▁ㅂㅐㄱㅅㅓㄱ -13643
▁Second -13644
▁ㄷㅡㅇㅅㅣㄴ -13645
▁ㅅㅜㄴㅎㅕㄹ -13646
ㅎㅐㅁ -13647
▁ㅁㅗㅁㅅㅗ -13648
▁ㅎㅕㄱㅁㅕㅇㄱㅜㄴ -13649
▁870 -13650
▁4500 -13651
ㄹㅏㅁㅎㅚ -13652
▁ㅅㅡㅂㅅㅓㅇ -13653
▁Cost -13654
ㅇㅕㅇㅁㅜ -13655
ㅌㅓㄴㅈㅡ -13656
▁ㅈㅜㅇㄴㅏㅁㅁㅣ -13657
ㅎㅘㄱㅇㅣㄴ -13658
▁ㅈㅏㅇㅎㅏㅂ -13659
ㅊㅓㄴㄴㅕㄴㅁㅣㄴㅈㅜ -13660
ㄷㅡㄱㅇㅣ -13661
▁ㅎㅗㅇㅁㅕㅇ -13662
ㄷㅗㅇㅎㅐ -13663
▁ㅎㅜㄴㄷㅗㄱ -13664
▁276 -13665
▁283 -13666
ㅈㅓㄱㅂㅜㄴ -13667
▁ㄲㅜㅅㄲㅜ -13668
▁HC -13669
▁Sea -13670
▁ㄱㅝㄹ -13671
▁ㅈㅓㅇㅍㅏ -13672
▁ㅇㅚㄴㅅㅗㄴㅈㅏㅂㅇㅣ -13673
▁ㅅㅜㄴㅇㅑㅇㅈㅓㄴㅎㅏㅁ -13674
ㅋㅐㅂ -13675
▁ㅈㅣㄱㅈㅏㅇㅇㅣㄴ -13676
▁ㅎㅏㄴㄱㅜㄱㅈㅓㄴㄹㅕㄱ -13677
▁730 -13678
ㅇㅕㅁㅂㅕㅇ -13679
▁att -13680
▁ㅂㅏㄼㅎㅣ -13681
▁ㅅㅏㄴㄷㅗㅇ -13682
▁;; -13683
▁Speed -13684
▁ㄷㅏㄹㅁㅏ -13685
▁ㅅㅗㄴㅈㅐ -13686
▁ㅇㅕㅁㄱㅣ -13687
▁RW -13688
▁ㅈㅓㄴㄱㅜㄱㄱㅜ -13689
BT -13690
▁-' -13691
▁940 -13692
▁ㄱㅡㅁㅇㅕㄴ -13693
▁ㅎㅐㅅㅅㅏㄹ -13694
▁ㅈㅓㄴㅁㅜㄴㅈㅓㅁ -13695
ific -13696
▁ㄱㅡㅁㅅㅏ -13697
ㅊㅗㄴㄷㅗㅇ -13698
hel -13699
▁ㅁㅗㄱㅁㅏ -13700
▁ㅂㅏㄹㅌㅓ -13701
ㅈㅜㄴㅈㅓㅁ -13702
▁ㅅㅔㄱㅅㅕㄴ -13703
▁ㅋㅔㄴㅅㅣㄴ -13704
▁ㄱㅏㅇㅈㅓㅇㅎㅗ -13705
▁sy -13706
▁Fin -13707
▁ㅅㅓㅇㅈㅘ -13708
ㄱㅗㄹㅁㅗㄱ -13709
▁ㅇㅡㄴㅋㅓ -13710
▁ㅇㅏㄴㅆㅡ -13711
▁ㅇㅣㅇㅇㅓ -13712
▁ㅇㅕㅇㅊㅓㄴ -13713
▁ㅂㅏㄹㅁㅕㅇㅍㅜㅁ -13714
▁ㅍㅡㄹㄹㅣㅅ -13715
ㄴㅗㄹㄹㅗ -13716
▁LoL -13717
▁ㅎㅓㄱ -13718
ㅁㅗㅅㅎㅐ -13719
▁ㄷㅏㅁㅇㅏ -13720
go -13721
▁ㅂㅏㄹㄹㅗ -13722
▁ㄴㅏㅁㅇㅝㄴ -13723
ㄱㅡㄹㄱㅓ -13724
ken -13725
▁ㅋㅗㄴㅌㅡ -13726
▁ㄴㅗㄱㅌㅓㄴ -13727
▁Cloud -13728
▁ㅂㅔㄴㅈㅏ -13729
▁ㅈㅣㄴㄹㅜ -13730
▁ㅎㅓㅅㄷㅚ -13731
▁ㅎㅠㅇㄴㅗ -13732
▁ㅇㅕㅇㄹㅏㄱㅇㅓㅄ -13733
▁ㄱㅕㄹㅍㅏㄴ -13734
▁ㅎㅡㅁㅈㅣㅂ -13735
▁ㅍㅣㄹㄹㅣㅂㅅㅡ -13736
▁XG -13737
▁VOD -13738
ㅈㅓㄴㄷㅡㅇ -13739
▁ㄷㅡㅇㅂㅜㄹ -13740
▁ㅍㅏㄴㄱㅜㄱ -13741
71 -13742
ㄱㅜㅂ -13743
ㅈㅡㅂ -13744
▁ㄱㅗㄱㅁㅜㄹ -13745
▁015 -13746
▁920 -13747
▁Rep -13748
▁ㅂㅓㄱㅊㅏ -13749
▁ㅅㅣㅁㅈㅐ -13750
▁ㅂㅜㄱㅅㅡ -13751
ㅈㅣㄱㄹㅕㄱ -13752
▁ㅊㅗㅇㄹㅕㄱ -13753
▁ㅋㅚㄹㄹㅡㄴ -13754
▁ㅎㅏㅇㅁㅜㄴ -13755
ese -13756
▁ㄲㅗㄴㄷㅐ -13757
▁ㅃㅓㄴㅎㅣ -13758
▁ㄱㅡㄴㄱㅏㄴ -13759
ㄹㄹㅓㅁ -13760
▁ㅇㅕㅇㅇㅕㄴ -13761
▁ㅌㅏㄹㄹㅔ -13762
▁ㄱㅕㄹㅅㅏㄴ -13763
▁ㄴㅐㅂㄷㅜ -13764
▁ㅁㅐㅇㅈㅜ -13765
▁ㅂㅣㅈㅇㅓ -13766
▁TUN -13767
▁EDG -13768
▁Cross -13769
▁ㄱㅜㅇㅅㅏ -13770
▁ㄱㅕㄹㅈㅓㅁ -13771
ㅍㅐㅁ -13772
▁ㅇㅕㅇㅅㅣㄱ -13773
ㅍㅡㄹㄹㅣㄴ -13774
▁ㄱㅗㄹㅊㅣㅅ -13775
▁work -13776
ㅎㅡㅇㅅㅣ -13777
▁Thank -13778
▁index -13779
▁ㄱㅏㅁㅊㅏ -13780
▁ㅊㅏㄹㅈㅣ -13781
▁ㅅㅏㅇㅅㅡㅂ -13782
▁ㅌㅗㅇㅎㅐㅇㄹㅛ -13783
▁ㅎㅘㅇㄱㅡㅂㅎㅣ -13784
▁XIII -13785
ㅍㅣㄴㅅㅡ -13786
▁ㅅㅏㄴㅅㅏ -13787
▁ㅈㅏㅇㄹㅕㄹ -13788
▁Mid -13789
▁International -13790
▁Earth -13791
▁STAND -13792
▁ㄴㅏㄴㅌㅏ -13793
▁ㅁㅕㄹㅊㅣㅇ -13794
▁ㅇㅕㅇㅅㅐㅇ -13795
of -13796
▁ㅊㅣㅅ -13797
▁Sign -13798
▁ㅋㅐㅇ -13799
▁ㄹㅗㄴㄷㅗ -13800
▁KK -13801
▁der -13802
▁ㅅㅣㄴㅍㅏ -13803
▁261 -13804
▁ㄴㅓㄹㄴㅓㄹ -13805
▁ㅇㅛㅇㅇㅕㄱ -13806
▁big -13807
ㅂㅕㅇㅈㅐ -13808
▁inf -13809
ㄷㅏㅇㅅㅓㄴ -13810
ㅎㅕㄴㅅㅓㄱ -13811
▁ㅅㅏㄹㅅㅐㅇ -13812
▁ㅈㅓㅂㅅㅓㄴ -13813
ㅅㄱㅏㅄ -13814
▁ㅎㅏㄱㅇㅜ -13815
▁ㅈㅓㄴㄷㅏㄴ -13816
WC -13817
ㅅㅓㅇㅇㅕㄹ -13818
eck -13819
▁273 -13820
▁ㅎㅡㄱㅅㅏ -13821
▁ㄱㅜㅇㅇㅡㄹ -13822
ㅅㅐㄱㄷㅐ -13823
▁ㄷㅚㄴㅈㅏㅇ -13824
ㅁㅕㄴㅊㅔ -13825
ㅌㅗㄹㄹㅣ -13826
ㅅㅏㅇㅊㅓㄴ -13827
▁ㅁㅐㄱㄱㅣ -13828
▁ㅁㅕㅇㅈㅔ -13829
ㄱㅕㅇㅎㅘㄴ -13830
AMP -13831
▁ㄱㅕㅇㅊㅣ -13832
▁ㅍㅏㄴㅊㅣ -13833
▁ㅅㅣㅁㅅㅣㄴ -13834
▁ㅅㅣㄹㅌㅐ -13835
▁ㅇㅏㄱㄷㅗㅇ -13836
▁ㅇㅏㄹㅍㅗㄴ -13837
▁930 -13838
ating -13839
ought -13840
▁ㅈㅡㄹㅂㅣ -13841
▁ㄷㅗㅊ -13842
ㄴㅡㅇㅅㅏ -13843
▁END -13844
▁ㄷㅏㅂㄴㅣ -13845
▁ㅅㅣㄴㅇㅜ -13846
91 -13847
▁JO -13848
▁2800 -13849
ㅎㅏㄹㅇㅏ -13850
▁ㄱㅏㅆㄷㅏ -13851
▁ㄱㅏㅇㅅㅣㄴ -13852
▁ㄷㅓㅍㅇㅓ -13853
▁ㅂㅗㄴㄱㅛ -13854
▁ㅈㅣㄴㅇㅕㄹ -13855
▁ㅍㅓㄴㄷㅣㅇ -13856
rip -13857
▁ㅇㅏㄴㅇㅣㄹ -13858
▁ㅎㅏㄴㅇㅑㅇㄷㅐ -13859
▁ㅇㅝㅇ -13860
▁ㄱㅜㅇㅇㅣ -13861
ㄹㅏㄴㅊㅔ -13862
▁nhn -13863
▁Dav -13864
▁ㄷㅏㅇㄴㅛ -13865
▁ㅂㅏㄱㅂㅗ -13866
ㅇㅐㅇㄱㅡㄹ -13867
ㅎㅏㄴㅈㅓㅇ -13868
▁ㄱㅜㅇㅈㅜㅇ -13869
GHT -13870
ima -13871
▁VOL -13872
▁black -13873
ㄷㅗㅇㅈㅣㄴ -13874
▁ㅂㅓㄴㅇㅏㄴ -13875
▁ㄷㅏㅇㅎㅗㄱ -13876
▁ㅁㅐㅇㅁㅗㄱ -13877
arn -13878
▁Tok -13879
▁doc -13880
▁ㅌㅐㄱㅈㅣ -13881
HO -13882
imate -13883
ㅌㅔㄱㅊㅓ -13884
▁Water -13885
▁ㅇㅛㅇㅁㅗ -13886
▁ㄱㅡㅁㄱㅘㅇ -13887
▁ㅈㅓㄹㅁㅕㄹ -13888
ule -13889
ㅃㅜㄹㅅㅗ -13890
ㅂㅓㅂㄱㅘㄴ -13891
▁257 -13892
▁GSM -13893
▁ㅇㅣㅅㄸㅏ -13894
▁ㄷㅏㄴㄱㅏ -13895
▁ㄱㅣㅁㅈㅓㅇㅇㅜ -13896
▁ㅁㅗㄹㅋㅏ -13897
▁ㅅㅕㅅㅇㅏ -13898
▁ㅁㅜㄹㄷㅡㄹㅇㅣ -13899
ojo -13900
▁ㅈㅡㅅ -13901
▁ㅅㅓㄴㅇㅢ -13902
ㅅㅓㄴㅈㅗㄱ -13903
ㅎㅏㄱㅅㅏㄹ -13904
uts -13905
oman -13906
▁590 -13907
ㅁㅜㄴㅇㅔ -13908
▁30000 -13909
▁Rel -13910
▁bottom -13911
▁ㅁㅜㄲㅇㅡㅁ -13912
▁ㅂㅕㄹㄱㅘㄴ -13913
▁1909 -13914
▁ㅅㅓㄴㅇㅏㄱ -13915
▁ㅅㅜㄱㄷㅏㄹ -13916
▁ㅇㅕㅇㅈㅗㅇ -13917
▁ㅈㅗㅇㅇㅑㅇ -13918
▁COL -13919
ㅁㅔㄹㄹㅗ -13920
▁ㅎㅗㄴㅁㅏ -13921
▁ㅇㅜㅇㄷㅓㅇㅇㅣ -13922
BLE -13923
▁ㅁㅜㄴㄷㅐ -13924
ㅇㅝㄴㅈㅜㄴ -13925
▁ㅊㅗㅇㄱㅕㄱㅈㅓㄴ -13926
ault -13927
ㄴㅓㄹㄹㅣ -13928
ㅍㅗㄹㄹㅗㄴ -13929
▁ㄱㅕㄴㅎㅝㄴ -13930
▁ㅅㅣㄴㄷㅗㅇㅇㅕㅂ -13931
ㅁㅏㅈㅊㅜ -13932
ㄴㅏㄴㅂㅏㅇ -13933
▁ㄴㅏㅁㅇㅣㄴ -13934
▁ㅂㅕㄹㅂㅣㅊ -13935
KA -13936
▁ㄲㅗㅇㄲㅗㅇ -13937
▁Electrical -13938
CO -13939
▁bu -13940
▁Wel -13941
▁pack -13942
ㅊㅜㅇㅈㅓㄴ -13943
▁ㅅㅏㄴㅁㅜㄹ -13944
▁ㅊㅜㅇㅁㅏㄴ -13945
▁ㅊㅜㄹㅇㅣㅂㅁㅜㄴ -13946
▁1908 -13947
ㅅㅏㅇㅇㅓ -13948
▁ㅅㅗㄴㅇㅣㄱ -13949
▁ㅈㅜㄴㅁㅏㄹ -13950
41 -13951
▁give -13952
ㅁㅜㄴㄴㅏ -13953
▁ㄱㅏㄱㅎㅏ -13954
▁ㅅㅣㄴㅇㅗ -13955
▁ㄷㅗㅇㄹㅕㄱㅇㅝㄴ -13956
87 -13957
▁Pres -13958
▁Vita -13959
▁ㅅㅓㄴㅁㅣ -13960
▁ㄱㅏㄴㅎㅓㄹ -13961
▁ㅇㅔㄹㅌㅡㄴ -13962
▁ㅊㅓㅇㄷㅏㅁ -13963
ㅅㅣㅁㅋㅗ -13964
ㅈㅓㅇㅅㅜ -13965
▁Extra -13966
▁ㄱㅕㅇㅊㅏ -13967
▁ㄱㅏㅁㄷㅗㄱㄱㅘㄴ -13968
▁ㅁㅣㄴㅂㅕㅇㅎㅓㄴ -13969
▁ㅁㅗㅇㅋㅡ -13970
▁ㅅㅜㄴㅇㅜㄱ -13971
▁ㄷㅏㄹㅅㅓ -13972
▁ㄹㅗㄴㄷㅡ -13973
ㅎㅕㄴㅇㅕㄱ -13974
▁ㄱㅕㄹㅌㅏㄱ -13975
▁ㅈㅡㄱㅎㅡㅇ -13976
▁ㅇㅡㅁㅅㅣㄱㅁㅜㄹ -13977
▁ㅅㅏㅁㅊㅓㄱ -13978
▁Guard -13979
▁ㄱㅜㄴㄱㅏ -13980
▁Ki -13981
▁DIS -13982
▁Two -13983
▁ㅇㅣㄹㅈㅜ -13984
▁ㅅㅣㄴㅇㅏㄴ -13985
▁TRPG -13986
ㅇㅕㄱㄲㅜ -13987
▁ㅇㅝㄴㅊㅗ -13988
▁ㅅㅏㅇㄷㅗㅇ -13989
▁ㅇㅘㅇㅈㅓㄴ -13990
ㅈㅜㄴㅇㅜ -13991
▁ㅈㅓㄴㄱㅝㄴ -13992
▁ㅎㅏㄴㄹㅣㅁ -13993
▁ㅊㅜㄴㅊㅓㄴㅅㅣ -13994
▁too -13995
ㄱㅣㄹㄷㅗㅇ -13996
▁ㄴㅔㄱㅌㅗㄴ -13997
▁ㅎㅏㅇㄹㅕㄹ -13998
▁ㅎㅗㄱㅈㅏ -13999
ㄱㅝㄴㄹㅕㄱ -14000
▁ㅇㅏㅁㅅㅏㄹㄷㅏㄴ -14001
ㅂㅏㄴㅅㅜ -14002
▁KM -14003
ㄲㅏㄱ -14004
▁277 -14005
▁ㄱㅏㅇㅇㅜ -14006
▁ㅍㅗㄱㅇㅜ -14007
ㅅㅣㄱㅈㅏㅇ -14008
▁wikipedia -14009
63 -14010
ㅁㅜㄹㅁㅕ -14011
▁Ob -14012
▁Qual -14013
▁ㅂㅐㄱㄱㅣ -14014
▁ㅁㅐㄴㅅㅕㄴ -14015
▁ㄱㅜㄱㄱㅘ -14016
ㅁㅣㄴㅌㅓㄴ -14017
▁ㅎㅏㄱㅁㅕㅇ -14018
▁Id -14019
▁ㅌㅏㄹㄹㅗ -14020
▁ㅇㅕㅇㄱㅓㄹ -14021
▁ㅇㅕㅇㅇㅝㄹ -14022
▁ㅎㅚㅇㅍㅗ -14023
ㅂㅜㄴㅂㅕㄹ -14024
ㅅㅏㅇㅇㅜㄱ -14025
▁ㅁㅜㄹㅇㅢ -14026
▁ㅁㅣㄹㅍㅖ -14027
▁ㄱㅗㅇㅅㅏㅇ -14028
▁ㅂㅡㄹㄹㅓㅁ -14029
▁ㅇㅏㄴㄷㅏㄹ -14030
IVER -14031
come -14032
▁ㅅㅣㄴㅂㅜㄴㄷㅏㅇㅅㅓㄴ -14033
ㅅㅓㅇㅈㅐ -14034
▁ㅂㅏㄱㄹㅕㄱ -14035
▁Maj -14036
▁HAPP -14037
ㄹㅗㄴㅎㅚ -14038
ㅈㅣㄴㅍㅛ -14039
▁friend -14040
▁Prot -14041
▁ㄱㅜㅇㄴㅕ -14042
▁ㅅㅣㅁㅊㅡㅇ -14043
ㅊㅣㅁㅇㅓㅄㅇㅣ -14044
▁ㅇㅑㅇㅂㅜ -14045
▁ㅅㅣㅂㅇㅣ -14046
▁ㅇㅣㄹㅊㅜㄱ -14047
▁415 -14048
▁Chall -14049
▁through -14050
▁Ban -14051
ection -14052
▁Fight -14053
▁ㄱㅏㅇㅂㅏㄱ -14054
▁ㅇㅝㄴㅅㅑㅅ -14055
▁ㅊㅣㅁㅅㅣㄹ -14056
ㄷㅔㄱ -14057
▁ㄱㅏㄱㄱㅐ -14058
▁ㅅㅣㄹㅍㅣ -14059
▁ㄱㅏㅇㄱㅕㅇㅍㅏ -14060
▁ㅈㅐㅅ -14061
▁ㅋㅣㅂ -14062
97 -14063
▁ㅈㅗㅇㄱㅜㄱ -14064
▁ㅇㅏㄹㄹㅐ -14065
▁PRE -14066
ㄹㅏㅇㅋㅏ -14067
▁ㅅㅏㄴㅇㅛ -14068
ㅈㅓㄱㅅㅓㄴ -14069
▁ㅇㅕㄴㅅㅣ -14070
ues -14071
▁#== -14072
ㄱㅏㄴㅈㅣ -14073
▁ㅂㅕㄴㅂㅕㄴ -14074
▁ㅇㅏㄴㅅㅏㅇ -14075
ㅇㅓㅋ -14076
IUM -14077
▁Dynam -14078
▁ㅇㅏㄴㅈㅐ -14079
▁ㅇㅡㅁㅇㅠ -14080
▁ㅅㅏㅁㄱㅜㄱㅈㅓㄴ -14081
▁Jump -14082
▁ㅊㅜㅇㅊㅓㅇㄷㅗ -14083
▁910 -14084
▁ㅇㅕㅇㅅㅏㅇㅁㅜㄹ -14085
47 -14086
▁mag -14087
▁ㅈㅜㅇㅎㅏㄱ -14088
▁Original -14089
▁ㄱㅣㅍㅅㅜㄱㅎㅣ -14090
▁ㄷㅗㅇㄱㅏㅂㄴㅐ -14091
axy -14092
enc -14093
ota -14094
▁fire -14095
▁ㅇㅘㄴㅊㅣ -14096
ㅇㅣㄴㅇㅕㄱ -14097
ㅇㅣㄹㄹㅣㅇ -14098
▁271 -14099
▁Cho -14100
ㅁㅓㄴㅈㅣ -14101
▁ㅃㅣㄱ -14102
▁ㅎㅚㄱㄱㅣ -14103
▁MTV -14104
▁ㅂㅏㄱㅇㅣ -14105
▁ㅅㅗㄴㅈㅜ -14106
▁ㅂㅏㄱㄷㅐ -14107
▁XL -14108
▁ㄷㅣㅅ -14109
ㄷㅗㅇㅎㅘ -14110
ㅁㅏㄱㅇㅣ -14111
istory -14112
▁ㅂㅏㄴㄱㅗㅇ -14113
▁ㅍㅕㄴㅈㅣㅂㅈㅏㅇ -14114
▁ㅎㅡㄴㄷㅡ -14115
▁ㅂㅜㄱㄱㅕㅇ -14116
▁ㅍㅔㄴㄷㅓㄴㅌㅡ -14117
▁ㅋㅜㅁ -14118
▁ㅇㅗㅇㄹㅣㅂ -14119
▁ㅈㅏㄱㅅㅔㄴ -14120
▁Ray -14121
ㄹㅔㄴㅊㅣ -14122
▁ㄱㅣㅁㅅㅓㅇㅈㅜ -14123
ㅎㅏㄴㄷㅐ -14124
▁ㅎㅕㅇㅇㅛㅇㅅㅏ -14125
▁du -14126
▁ㅅㅏㄴㅈㅐ -14127
ㅍㅜㅇㅅㅓㄴ -14128
▁ATP -14129
▁ㅂㅗㄴㅅㅐㄱ -14130
▁ㅈㅓㄴㅁㅏㄹ -14131
▁Jr -14132
▁sur -14133
▁ㅅㅣㄱㅇㅣ -14134
▁ㅇㅓㄺㅁㅐ -14135
▁ㅇㅕㄴㅅㅣㄴ -14136
▁ㅎㅏㅁㄹㅑㅇ -14137
ved -14138
▁WD -14139
▁ㅅㅣㄹㅈㅡㅇ -14140
▁ㅇㅣㅂㄱㅏㄱ -14141
▁Hand -14142
▁ㅇㅏㅍㄴㅏㄹ -14143
▁ㅇㅡㅇㅇㅝㄴㄷㅏㄴ -14144
▁475 -14145
▁ㄷㅗㄹㄹㅣㅁ -14146
▁ㅎㅏㄴㅅㅣㄱ -14147
▁RK -14148
▁Sin -14149
▁ㄱㅗㅇㅈㅗ -14150
▁ㅈㅓㄴㄴㅚ -14151
▁ㄱㅕㅇㅊㅜㄴ -14152
▁ㄱㅣㅁㄴㅏ -14153
▁ㄱㅗㅇㅁㅜㄴ -14154
▁ㅈㅗㅇㅈㅏㅇ -14155
▁Forever -14156
▁ㅈㅜㅇㅂㅗ -14157
▁Street -14158
▁ㅇㅑㅇㅈㅜㄴㅎㅕㄱ -14159
ㅇㅕㅇㅈㅐ -14160
▁ㅊㅓㄴㅁㅕㅇ -14161
▁Intel -14162
▁little -14163
aeb -14164
ㄹㅏㄹㄹㅏ -14165
▁ro -14166
▁che -14167
ISE -14168
▁DRA -14169
▁ㄱㅏㄴㄷㅏ -14170
▁ㅊㅜㄹㅈㅏㅇㅅㅗ -14171
▁nic -14172
▁ㄱㅏㄴㅅㅓㄴㅂㅓ -14173
▁god -14174
▁ㅈㅡㅂ -14175
▁ㅇㅕㄱㄱㅕㅂ -14176
por -14177
akes -14178
▁ㅍㅣㄴㅊㅣ -14179
▁ㅅㅜㄱㅅㅓㅇ -14180
▁Ko -14181
▁518 -14182
▁Mill -14183
▁Parad -14184
▁ㅅㅣㅁㅊㅟ -14185
▁ㄱㅘㄴㅅㅓㅇ -14186
▁ㅈㅓㄴㄹㅑㅇ -14187
▁ㅈㅜㅇㅈㅗㅇ -14188
▁Cle -14189
ㄴㅑㅇㅈㅓ -14190
▁ㅅㅓㄱㅈㅐ -14191
▁ㄱㅕㄹㅇㅕ -14192
▁ㅅㅣㄹㅁㅏ -14193
ㅌㅓㄹㄹㅣㅇ -14194
▁ㅊㅏㅇㄴㅕ -14195
▁TJ -14196
▁ㅂㅏㄱㅁㅜ -14197
▁338 -14198
▁act -14199
▁ㅊㅏㅁㅎㅚ -14200
▁ㄱㅜㄱㅇㅕㅇ -14201
▁ㅎㅐㅇㅈㅣㄴㄱㅗㄱ -14202
▁020 -14203
▁Chaos -14204
ㅁㅣㄴㅅㅓㄱ -14205
▁ㅈㅣㅂㅎㅐㅇㅇㅠ -14206
▁323 -14207
▁ㄷㅏㄴㅁㅏㅅ -14208
over -14209
▁run -14210
ㅈㅜㅇㅇㅣㄹ -14211
▁ㄴㅏㄱㅈㅓㅁ -14212
▁ㅅㅗㄱㄱㅗㄱ -14213
▁ㅇㅝㄴㅅㅓㄱ -14214
▁ㄱㅘㅇㅇㅕㄱㅈㅏ -14215
▁ㅈㅏㅇㅇㅝㄴㅈㅜㄴ -14216
▁ㄴㅏㄱㅎㅜ -14217
▁ㅎㅣㄹㄷㅔ -14218
ㅈㅏㅇㅎㅜㄴ -14219
▁Lab -14220
▁ㄱㅡㄹㄹㅜ -14221
▁ㅆㅣㅂㅎㅣ -14222
▁ㅃㅏㅇㅈㅣㅂ -14223
▁ㅁㅣㄴㅅㅓㄴ -14224
▁ㅍㅣㅅㅈㅜㄹ -14225
▁Dep -14226
▁ㅂㅐㄹㄹㅠ -14227
▁ㅂㅏㄹㅅㅗㅇ -14228
▁Right -14229
ㅅㅏㅇㅇㅛㅇ -14230
oft -14231
▁ㄱㅏㅁㅎㅘ -14232
ㅁㅓㄱㅂㅏㅂ -14233
▁ㄱㅘㅇㄴㅕㄴ -14234
▁ㅊㅏㄱㅅㅣㄹ -14235
▁ㅈㅜㄴㅋㅗ -14236
▁Global -14237
▁Cast -14238
ㅈㅓㄱㅇㅡ -14239
▁ㅂㅔㄴㅊㅓ -14240
▁ㄷㅗㅇㅇㅡㅁ -14241
ㅉㅓㄹ -14242
▁Iron -14243
▁ㄱㅓㅁㅈㅣㄴ -14244
▁ㅇㅏㄹㅌㅏ -14245
▁ㅈㅏㅇㄱㅝㄴ -14246
▁COST -14247
under -14248
▁ㅈㅓㅇㄹㅑㄱ -14249
▁ㅂㅏㄱㅁㅣㄴㅇㅜ -14250
▁Ur -14251
▁ㅂㅣㄱㅅㅡ -14252
▁ㅇㅑㅌㅂㅗ -14253
▁ㅇㅣㄴㅍㅕㄴ -14254
▁ㅊㅣㄴㄷㅗㅇㅅㅐㅇ -14255
▁ㅂㅏㄱㄱㅓㄴㅇㅜ -14256
▁ㅁㅜㅅ -14257
▁ㅂㅗㄴㄱㅣ -14258
▁ㅁㅏㅈㅊㅜㅁㅂㅓㅂ -14259
▁282 -14260
ㄹㅏㄴㅊㅣ -14261
▁ㅈㅣㄴㅈㅓ -14262
ael -14263
▁lat -14264
ㅅㅏㅇㅅㅏ -14265
ㅈㅣㄴㄹㅕㄱ -14266
iko -14267
▁ㄱㅟㄴ -14268
inity -14269
▁ㄷㅗㄱㅅㅣㄴ -14270
▁ㅁㅣㄹㅇㅑㅇ -14271
▁ㅈㅜㅇㅇㅣㄹ -14272
▁cb -14273
ㅅㅣㄴㅅㅜ -14274
▁ㄱㅡㄹㄱㅟ -14275
▁ㅅㅜㅌㅎㅏ -14276
▁ㅎㅕㄹㅌㅜ -14277
▁ㅁㅏㄹㄷㅏㄴ -14278
▁ㄱㅡㅁㅈㅔ -14279
▁ㅅㅣㄱㅌㅏㄱ -14280
ㄹㄹㅔㅅ -14281
▁ㅎㅗㄹㄷㅓ -14282
▁ㅇㅑㅇㅎㅐ -14283
▁ㅂㅜㄴㄱㅘㅇ -14284
▁ㅊㅣㄹㅅㅓㅇ -14285
▁........ -14286
acle -14287
cept -14288
▁ㄷㅏㅇㄱㅘ -14289
▁ㅊㅗㄱㅁㅐ -14290
ㅈㅏㅇㅇㅕㄱ -14291
▁ㅎㅗㄱㅅㅓㅇ -14292
▁ㄱㅐㅁ -14293
ㅌㅐㄱㄱㅡㄴ -14294
▁Studio -14295
▁ㅂㅏㄹㅈㅗㄱ -14296
▁ㅎㅗㄱㅎㅏㄴ -14297
▁Christmas -14298
▁ㅈㅡㅇㅁㅕㅇㅅㅓ -14299
▁Circ -14300
▁324 -14301
▁ㅇㅠㄱㅅㅗㄴ -14302
▁ㅉㅓㄹㅉㅓㄹ -14303
▁ㅌㅡㄱㅂㅕㄹㅂㅓㅂ -14304
ㅅㅡㄹㄹㅔ -14305
ㄷㅏㄱㄸㅡ -14306
▁ㅎㅏㅂㅅㅓㅇㅇㅓ -14307
▁ㅇㅡㅁㅇㅏㄱㅅㅣㄹ -14308
ㅈㅗㅎ -14309
▁ㅅㅏㅇㄹㅠㄱㅈㅏㄱㅈㅓㄴ -14310
▁ㅂㅏㄹㄷㅡ -14311
▁ㅂㅓㅂㄱㅠ -14312
▁ㄱㅐㄱㅇㅝㄴ -14313
▁ㅎㅓㄴㅈㅓㅇ -14314
▁ㅁㅏㅈㄷㅏㄱㄸㅡ -14315
▁ㄲㅡㅌㅈㅏ -14316
▁ㅇㅛㅇㅁㅏ -14317
▁ㅈㅏㅇㅁㅏ -14318
ㄷㅡㅇㅂㅕㅇ -14319
ㅇㅜㅅㅈㅣㅂ -14320
HS -14321
▁ㅎㅗㅇㅅㅣ -14322
▁ㅁㅜㄴㄷㅡㄱ -14323
▁TER -14324
ㅇㅣㄹㅁㅜ -14325
▁ㅁㅣㅅㅁㅣㅅ -14326
pha -14327
ㄴㅏㄴㅁㅣㄴ -14328
▁ㅇㅕㄴㄲㅗㅊ -14329
▁sub -14330
▁ㄱㅓㄹㅍㅡ -14331
▁ㅈㅓㅇㄷㅏㄴ -14332
▁ㅈㅓㄴㅇㅢ -14333
▁ㅎㅘㄴㅅㅣ -14334
▁ㅂㅓㅁㄹㅏㅁ -14335
▁ㅍㅗㄱㄹㅕㄹ -14336
▁268 -14337
▁GUMI -14338
▁mind -14339
ㄷㅏㅅㅁㅜㄹ -14340
ㄷㅗㅇㅎㅜㄴ -14341
▁YTN -14342
ㅈㅔㄴㄷㅓ -14343
▁ㅈㅏㅇㅈㅐ -14344
▁ㄱㅏㅇㅁㅜㄹ -14345
▁ㄱㅘㄴㅅㅣㅁㅅㅏ -14346
▁ㅇㅡㅁㅇㅑㅇㅅㅏ -14347
yl -14348
▁ee -14349
▁309 -14350
ㅇㅕㄴㄱㅣ -14351
▁ㅂㅏㄹㄷㅔ -14352
▁ㅈㅏㅇㅌㅐ -14353
ㅅㅗㄱㅅㅓㄴ -14354
▁Lord -14355
▁ㅁㅏㄹㅂㅓㄹ -14356
▁ㅅㅏㄱㄱㅏㅁ -14357
▁ㅍㅏㄹㅋㅗㄴ -14358
▁ㅂㅜㄹㄷㅗ -14359
▁Walk -14360
▁size -14361
ㅉㅜ -14362
▁ㄴㅖ -14363
ㅇㅗㄴㅅㅡ -14364
▁ㄷㅏㄴㄷㅜ -14365
ipp -14366
▁ㅂㅜㄹㅎㅜ -14367
▁ㅈㅏㅇㅎㅏㅇ -14368
▁ㄷㅡㄹㅁㅓㄱㅇㅣ -14369
▁Plat -14370
▁ㅂㅕㄱㅁㅕㄴ -14371
▁006 -14372
ㅎㅕㅇㅊㅏ -14373
no -14374
▁?" -14375
▁ㄷㅔㄹㄹㅏ -14376
▁people -14377
▁Dist -14378
▁ㅁㅏㄴㄹㅣ -14379
▁ㅅㅓㅇㅎㅗ -14380
▁ㅈㅓㄴㅎㅢ -14381
▁740 -14382
▁ㄴㅏㄲㅇㅏ -14383
▁ㅂㅣㄴㅌㅣ -14384
ios -14385
▁ㄹㅓㄴㄷㅡㄹ -14386
▁ㄱㅗㄹㅍㅏㄴㅈㅣ -14387
▁ㅅㅜㄴㅇㅐ -14388
▁ㄹㅣㅇㄹㅣㅇ -14389
▁ㅈㅣㄱㅎㅏㅁ -14390
▁ElectricalBoy -14391
ㄱㅕㅂㅅㅏㄹ -14392
ba -14393
reme -14394
ㅈㅏㄱㅈㅓㅁ -14395
PGA -14396
▁may -14397
ㄷㅗㄱㅅㅓㅇ -14398
ㄱㅜㄱㅈㅓㄱ -14399
▁ㅇㅏㄱㅅㅜㄴㅎㅘㄴ -14400
▁File -14401
▁Hall -14402
▁ㅅㅏㄴㄷㅗ -14403
▁ㄷㅠㄴ -14404
▁Armor -14405
▁ㄱㅜㅇㄱㅣ -14406
▁ㅅㅏㅁㄱㅕㅂㅅㅏㄹ -14407
ㅅㅓㄱㅎㅕㄴ -14408
ㅈㅓㅇㅍㅏㄴ -14409
▁ㅂㅜㄹㅂㅗㄱ -14410
▁ㅈㅓㅇㅅㅏㅇㅇㅣㄴ -14411
▁294 -14412
▁ㄴㅐㅇㅅㅗ -14413
▁ㅂㅏㄴㅇㅑ -14414
▁ㅁㅐㅁㄷㅗㄹ -14415
▁ㅅㅣㄴㅇㅣㄹㅂㅗㄴ -14416
▁Bill -14417
ㅂㅏㄷㅇㅏ -14418
▁ㄱㅕㅇㅈㅐㅇㅅㅏ -14419
▁ㅈㅣㅇㅂㅕㅇㅈㅔ -14420
▁EG -14421
▁wr -14422
pect -14423
▁ㅅㅏㅇㅅㅓㄴ -14424
▁Ak -14425
▁ㅁㅣㄴㄴㅏ -14426
▁ㅂㅏㄱㅅㅣ -14427
▁Group -14428
▁ㅎㅏㄴㄷㅔ -14429
▁ㅅㅓㅇㅇㅘㅇ -14430
▁ㅎㅗㄴㄹㅕㅇ -14431
▁Where -14432
▁ㄱㅏㅇㅌㅐ -14433
▁Ven -14434
▁Ju -14435
ㅂㅜㄴㅎㅣ -14436
▁ㄱㅣㅁㅂㅜ -14437
ㅂㅏㅇㅇㅣㄴ -14438
▁ㅅㅔㄴㅌㅓㅁ -14439
▁ㅋㅟㄴㅅㅣ -14440
uke -14441
▁TOUR -14442
▁ㅊㅣㄴㄸㅏㄹ -14443
▁ㅊㅜㄹㅌㅗ -14444
▁ㅅㅓㅇㅈㅏㅇㄱㅣ -14445
ㄹㅣㄹㄹㅣ -14446
▁ㅊㅓㅅㄴㅜㄴ -14447
▁ㅍㅕㅇㅌㅐㄱㅅㅣ -14448
▁GOLD -14449
62 -14450
ㅎㅕㅇㅅㅜ -14451
▁Radio -14452
▁ㄱㅜㄱㅂㅏㅇㄱㅜㄴ -14453
▁ㄱㅗㅇㅇㅢ -14454
▁ㅇㅛㅇㅂㅓㅂ -14455
▁ㅅㅓㄴㄹㅖ -14456
▁ㄷㅐㄴㅅㅣㅇ -14457
▁PVE -14458
ㄹㅓㄹㅆㅏ -14459
▁ㄷㅟㅅㅇㅣ -14460
raw -14461
▁259 -14462
▁APEX -14463
ㅍㅣㄹㄹㅔ -14464
▁ㅁㅜㄴㅅㅜ -14465
▁ㅈㅓㅁㅍㅓ -14466
▁ㄱㅏㅇㄹㅛㅇ -14467
▁ㅁㅣㄴㅈㅏ -14468
ㅅㅓㄱㄱㅜ -14469
▁ㄴㅗㅇㄹㅣㅁ -14470
▁KAC -14471
▁NTR -14472
▁ㅈㅣㄹㄱㅣ -14473
▁ㄹㅜㄱㅅㅡ -14474
ㅅㅐㅁ -14475
▁ㅁㅏㄴㄱㅣ -14476
▁FP -14477
ㅊㅐㅇㅇㅣ -14478
ㅅㅓㅇㄴㅡㅇ -14479
▁ㄱㅘㄴㅊㅓㄹ -14480
▁ㅂㅜㄹㄱㅕㅇ -14481
▁Mor -14482
ㄱㅓㄹㄹㅣ -14483
▁ㅇㅠㄴㅎㅢ -14484
▁ㅈㅓㄴㅇㅣㅁㅈㅏ -14485
▁ㄷㅏㄹㄹㅔㄱ -14486
Lv -14487
▁008 -14488
ㅎㅕㅂㅎㅚ -14489
▁ㄱㅝㄴㅇㅚ -14490
▁ㅊㅜㄹㅍㅜㅁ -14491
ㄴㅏㄹㄹㅣㄴ -14492
ㄷㅏㄴㅂㅓㅂㅇㅣㄴ -14493
▁Collection -14494
▁ㄱㅘㅇㅎㅟ -14495
ㅅㅡㅇㅊㅓㄹ -14496
▁ㅅㅏㄴㅇㅕㄱ -14497
▁ㅇㅣㄹㅈㅏㅇ -14498
▁ㅎㅘㅇㄱㅓㄴㅈㅓㄱ -14499
ative -14500
▁Flash -14501
▁ㅎㅘㄴㅈㅓㄴ -14502
▁ㅈㅓㅇㅈㅓㄴㅅㅣㄱ -14503
ㅂㅜㄱㅈㅏ -14504
▁ㅅㅗㄴㅈㅓㄴㄷㅡㅇ -14505
▁Disc -14506
▁ㅎㅘㅇㄱㅛ -14507
▁ㅎㅘㅇㅂㅗ -14508
ㅊㅜㄱㄱㅜㄱ -14509
▁ㅎㅏㄱㅈㅏㅇ -14510
▁ㅈㅜㅇㄱㅏㄴㅈㅜㅇㄱㅏㄴ -14511
GN -14512
here -14513
▁ㅎㅔㅅ -14514
▁ㅅㅣㄴㅍㅏㄴ -14515
▁ins -14516
▁ㅇㅔㄴㄹㅣ -14517
▁ㅎㅔㄹㄹㅡㅁ -14518
▁+, -14519
▁Jo -14520
▁435 -14521
▁ㅅㅏㅇㄷㅗ -14522
XX -14523
▁Us -14524
ㅇㅕㅇㅈㅜㄴ -14525
▁ㅅㅏㅇㅈㅏㄱ -14526
▁318 -14527
ㅇㅣㅁㅊㅏ -14528
ior -14529
▁vlive -14530
ㅃㅜㄱ -14531
▁ㅋㅗㅅㅅㅜ -14532
▁ㅇㅡㄴㅂㅏㄹ -14533
▁ㅌㅏㅁㅂㅏㅇ -14534
▁ㅇㅛㅇㅅㅏㄴㄱㅜ -14535
▁Bell -14536
ㅊㅓㄴㅁㅕㄴ -14537
▁ㅁㅏㅇㅈㅓㅇ -14538
▁ㅅㅏㄴㄱㅜㄴ -14539
▁ㅊㅓㄱㅌㅏㄴㅂㅕㅇ -14540
OB -14541
▁ㅊㅏㅇㄱㅜ -14542
▁ㅇㅕㄱㅇㅣㄴ -14543
ㄱㅏㅇㅎㅗ -14544
▁ㄹㅓㄱㅅㅕ -14545
▁ㅂㅐㄱㅁㅗ -14546
▁ㅅㅏㅇㅈㅓㄴ -14547
▁287 -14548
ㅂㅔㄴㅈㅓ -14549
▁ㅇㅝㄴㄷㅏㄴ -14550
▁ㅈㅓㄻㅇㅡㅁ -14551
ㄷㅣㅇㅋㅡ -14552
ㅁㅏㅈㅇㅣ -14553
▁NFC -14554
▁SoC -14555
ㅇㅜㄴㅈㅣ -14556
▁ㄱㅘㄴㅇㅣㅂ -14557
▁ㅇㅕㄱㄹㅣㄴ -14558
▁ㅇㅏㄹㄹㅗㄴㅅㅗ -14559
ㄴㅗㅍㅇㅣ -14560
▁ㄷㅏㅇㅍㅏ -14561
▁ㅂㅏㅇㄱㅖ -14562
▁ㅅㅓㄴㄹㅏ -14563
▁ㅁㅏㄴㅈㅏㅇㅇㅣㄹㅊㅣ -14564
ji -14565
▁ㅍㅔㄹㄹㅏ -14566
ㅂㅓㄹㅈㅓㄴ -14567
▁ㄹㅓㅆ -14568
earch -14569
ㅁㅏㅇㄷㅣ -14570
▁ㅇㅕㄱㅈㅜ -14571
▁ㅌㅏㅁㄴㅐ -14572
ㅇㅣㄴㅅㅓㄴ -14573
eca -14574
ㄷㅓㅍㅇㅣ -14575
ㅋㅓㅇ -14576
▁IBM -14577
▁South -14578
▁ㄱㅗㅇㅍㅏ -14579
▁ㅅㅣㄹㄱㅏㄱ -14580
▁ㅅㅓㅁㅁㅕㄹㅈㅓㄴ -14581
▁ㅇㅠㄴㅅㅓㅇㅎㅘㄴ -14582
▁ㅅㅗㄱㄷㅏㅁ -14583
▁267 -14584
▁ㅍㅏㅂㅇㅓㅂ -14585
oke -14586
▁Want -14587
ㅋㅏㄹㄹㅏ -14588
▁Style -14589
▁ㄴㅏㄲㅇㅣ -14590
▁ㅈㅣㅂㅅㅣ -14591
▁font -14592
ㅋㅠㄹㄹㅓㅁ -14593
▁Attack -14594
ㄷㅓㄹㄱㅓ -14595
ㅇㅜㄴㄷㅓ -14596
▁ㅋㅓㄴㅅㅓㄹ -14597
ㅂㅐㄱㅁㅏㄴ -14598
▁ㅈㅓㄱㅈㅏㅇ -14599
▁Fa -14600
▁ㄲㅡㄴㄲㅡㄴ -14601
▁ㅅㅏㅇㅁㅕㅇ -14602
▁ㄲㅡㄶㅇㅣㅁㅇㅓㅄ -14603
▁284 -14604
ㅅㅏㅁㅋㅣ -14605
▁ㅇㅘㄴㅈㅏㅇ -14606
▁ㅍㅣㄴㅈㅏㄴ -14607
▁ㅈㅣㅂㄴㅕㅁ -14608
▁BAT -14609
ㅁㅓㄱㅈㅣㄹ -14610
▁289 -14611
▁West -14612
▁ㄱㅗㅇㅊㅏ -14613
▁ㅇㅛㅇㅈㅣ -14614
ㅁㅔㄹㄹㅔ -14615
ㅁㅣㄴㅅㅏㅇ -14616
▁Royal -14617
▁ㅎㅗㅇㅅㅓㄹ -14618
▁ㄱㅣㅁㅇㅣ -14619
▁ㅈㅣㄴㅇㅜ -14620
ㅅㅓㅇㅅㅜㄱ -14621
ㅇㅛㅇㅈㅜ -14622
▁ㅇㅣㄴㄱㅓㄴ -14623
▁ㅍㅏㄴㅂㅕㄹ -14624
▁ㅂㅏㄱㅇㅝㄴㅅㅜㄴ -14625
ief -14626
▁Rh -14627
apon -14628
ㄴㅕㅁㅍㅜㅁ -14629
▁ㅅㅗㅇㄱㅡㅁ -14630
▁ㅃㅣㅇ -14631
▁2300 -14632
▁ㄹㅜㅁㅁㅔ -14633
▁ㅅㅐㄹㄹㅣ -14634
▁ㄴㅐㅇㅁㅕㄴ -14635
bat -14636
ㅎㅏㅁㅅㅜ -14637
▁ㅎㅗㅇㅈㅣ -14638
▁ㅂㅏㅂㅈㅜㄹ -14639
▁ㄱㅏㅇㄹㅕㄱㅎㅣ -14640
▁ㅅㅜㄴㅈㅓㅇㅁㅏㄴㅎㅘ -14641
ㄲㅓㄱ -14642
ㅂㅓㄹㄹㅣ -14643
ㅈㅓㅇㅈㅏ -14644
ㅌㅓㄴㅅㅡ -14645
▁ㅇㅏㅂㄱㅜ -14646
▁ㅈㅣㅇㅈㅗ -14647
▁ㅎㅗㄱㅇㅕ -14648
▁ㅎㅏㅇㅇㅣㄹ -14649
▁NEXT -14650
▁still -14651
▁ㅊㅐㄱㅅㅏ -14652
▁ㅁㅏㅈㄷㅏㅎ -14653
▁real -14654
▁ㅈㅏㅂㅇㅣ -14655
ㄹㅑㅇㅈㅣㄴ -14656
kn -14657
▁ㄷㅜㄴㄱㅏㅁ -14658
▁ㅊㅗㅇㅇㅐㄱ -14659
ㄱㅐㄱㅅㅓㄴ -14660
▁ㅅㅣㄴㅇㅏㅇㅅㅣㅁ -14661
▁Pet -14662
▁ㅇㅘㄴㅍㅏ -14663
▁ㅇㅣㄹㄱㅘ -14664
ㅉㅡ -14665
comm -14666
▁ㅁㅜㄴㅈㅓㅇ -14667
▁ㄱㅗㅇㅈㅣㄱㅈㅏ -14668
TO -14669
▁Mob -14670
▁ㅂㅕㅇㅁㅜ -14671
▁ㅁㅜㄴㅅㅓㅇ -14672
▁ㅈㅓㅂㅁㅗㄱ -14673
ouri -14674
ㅊㅓㄴㅅㅜ -14675
▁class -14676
ㅊㅓㅇㅇㅕㄱ -14677
▁ㅅㅐㅇㄷㅗ -14678
ㄹㅡㅁㄷㅏㄹ -14679
▁ㄱㅕㄹㄹㅕㄹ -14680
▁ㅁㅜㄴㅇㅣㄴ -14681
▁ㅁㅜㄹㅂㅕㅇ -14682
▁ㅅㅏㅇㅋㅡㅁ -14683
▁ㅇㅐㄱㅈㅓㅇ -14684
▁Hz -14685
▁ㅅㅓㅇㄴㅏ -14686
▁ㅂㅣㄴㅇㅠ -14687
ORY -14688
▁ㄱㅕㅇㅁㅜ -14689
▁ㅎㅕㄴㅇㅜ -14690
ㅌㅏㄹㅊㅜㄹ -14691
ㅈㅣㅁㅇㅓㅄㅇㅣ -14692
cal -14693
▁386 -14694
▁ㅅㅣㄹㅈㅐ -14695
▁ㅅㅗㄴㅅㅡㅇㄹㅏㄱ -14696
ㅎㅕㄹㅈㅣㄹ -14697
ㅅㅏㄴㄱㅣ -14698
ㅇㅛㅇㅎㅗ -14699
▁ㅁㅏㄴㅇㅝㄹ -14700
▁ㅌㅓㄱㅇㅓㅄㅇㅣ -14701
▁MIN -14702
▁ass -14703
▁ㄱㅜㄴㅇㅢ -14704
▁274 -14705
▁Bas -14706
▁279 -14707
▁MCU -14708
▁ㅂㅗㅇㅇㅜ -14709
▁ㅈㅓㅇㅁㅗ -14710
▁ㅈㅏㄱㅇㅓㅂㅈㅏㅇ -14711
sw -14712
▁ㅅㅗㄱㅇㅓ -14713
▁ㅈㅏㅇㅇㅓ -14714
▁ㅍㅗㄱㅍㅜㅇㅇㅜ -14715
roy -14716
▁Know -14717
ㅅㅏㅇㅎㅗ -14718
▁ㄱㅡㄺㅇㅓ -14719
ㅇㅡㄴㅍㅕㄴ -14720
▁ㄴㅏㅂㅈㅏㄱ -14721
▁690 -14722
▁444 -14723
▁ㅅㅗㄱㅅㅔㅁ -14724
ㄴㅗㄹㄹㅣㅁ -14725
ㅈㅣㄴㅍㅣㅇ -14726
▁ㄱㅡㅁㅈㅓㅇ -14727
trl -14728
▁Rap -14729
▁Dear -14730
ateg -14731
▁car -14732
▁ㄷㅏㅅㅈㅣ -14733
▁ㅇㅣㅂㄷㅏㅁ -14734
▁Vi -14735
ones -14736
▁ㅁㅏㅈㅇㅡㄴㅍㅕㄴ -14737
** -14738
▁UD -14739
▁ㄹㅏㄹㄹㅏ -14740
▁ㅍㅗㄹㄷㅡ -14741
ㅇㅓㄴㅈㅏㅇ -14742
▁ㅎㅏㅇㅂㅕㄴ -14743
awa -14744
▁Golden -14745
▁ㅂㅔㄴㅈㅔ -14746
ㅂㅜㄴㄱㅜㄴ -14747
▁ㅎㅘㄱㅇㅕㄴ -14748
▁ㅎㅘㅇㅊㅜㅇ -14749
▁ㅇㅏㄴㅁㅗㄱ -14750
▁Pf -14751
ㅇㅣㄴㄱㅘ -14752
▁ㅈㅏㅂㅎㅘ -14753
▁ㅅㅏㅇㅅㅣㅁ -14754
ㅈㅐㄱ -14755
akao -14756
▁HAPPY -14757
▁ㄹㅔㄱㅌㅓ -14758
▁ㅇㅘㅇㄹㅐ -14759
▁tell -14760
ㅅㅓㅇㅇㅣㄴ -14761
▁Log -14762
ising -14763
▁ㅇㅣㄹㅁㅏㄹ -14764
▁278 -14765
▁ㅁㅣㄴㅎㅗ -14766
ㅂㅕㅇㄹㅕㄹ -14767
▁356 -14768
▁WOW -14769
▁ㄱㅡㄱㅎㅚ -14770
▁ㅇㅠㄴㅎㅏ -14771
▁ㅈㅏㄱㅇㅕㄹ -14772
▁HYP -14773
▁Tig -14774
▁Some -14775
▁ㄷㅓㅍㄱㅐ -14776
▁ㅅㅣㄴㄱㅖ -14777
▁ㅋㅜㄹㄹㅓ -14778
▁ㄱㅣㅂㅅㅡㄴ -14779
▁Gar -14780
▁Land -14781
▁ㄴㅏㅁㄷㅗ -14782
▁ㅁㅣㄹㅋㅣ -14783
▁ㅈㅏㅇㄱㅜ -14784
▁ㄱㅡㅁㄱㅘㄴ -14785
▁ㄷㅏㅂㅈㅏㅇ -14786
ㅌㅗㅇㅋㅏ -14787
▁ㄱㅕㅇㅂㅗㄱㄱㅜㅇ -14788
▁ㅈㅑㄴ -14789
▁sing -14790
▁song -14791
▁ㄴㅏㄱㅇㅗ -14792
▁ㅅㅗㅇㅊㅏㅇㅅㅣㄱ -14793
GM -14794
▁Born -14795
▁where -14796
▁ㄱㅡㄱㅊㅣ -14797
▁ㅅㅣㄱㅅㅜ -14798
▁ㄱㅗㄴㅂㅗㅇ -14799
▁ㄷㅏㄴㅍㅜㅇ -14800
▁ㅂㅏㄱㅈㅓㅇㅎㅕㄴ -14801
▁LD -14802
▁ㅋㅘㅇ -14803
▁ㅇㅡㅂㄴㅐ -14804
AV -14805
▁ㅈㅏㅇㄱㅏㅇ -14806
▁fall -14807
▁ㅇㅐㄹㅂㅓ -14808
▁ㄱㅗㄹㅁㅗㄱㄱㅣㄹ -14809
ㅇㅕㄴㅅㅏㅇ -14810
ㅊㅜㅅㄱㅏ -14811
▁ㅂㅜㅌㄷㅡㄹ -14812
▁281 -14813
▁Fair -14814
ㅇㅕㄴㅈㅜ -14815
▁ㄱㅏㄴㅅㅗ -14816
▁ㅂㅣㅇㅈㅏ -14817
▁ㄷㅡㅁㅃㅜㄱ -14818
▁ㅊㅏㄴㅌㅏㄹ -14819
▁ㅋㅏㄹㅈㅣㅂ -14820
▁FU -14821
▁KL -14822
▁ㅈㅓㅇㅇㅛㅇ -14823
▁ㅁㅏㄴㅅㅣㄴㅊㅏㅇ -14824
▁ㅇㅡㄴㄴㅣㄱ -14825
▁ㅇㅣㄴㄷㅓㄱ -14826
▁ㅁㅣㄴㅇㅕㅇㅎㅘ -14827
▁ㅌㅗㅇㅊㅏㄹㄹㅕㄱ -14828
ㅎㅏㅇㅅㅣ -14829
▁ㅇㅗㄱㅎㅘㅇ -14830
▁ㅋㅓㄴㅂㅔㄴ -14831
▁ㅎㅏㄴㅇㅣㄹ -14832
▁ㅎㅏㄱㄷㅗ -14833
▁ㅈㅓㅇㅁㅣㄴ -14834
ㄲㅘㅇ -14835
▁Mart -14836
▁ㅂㅏㅇㄷㅗ -14837
ㅇㅓㅂㅇㅣㄴ -14838
ㅊㅣㅇㅅㅡ -14839
ㅌㅏㄹㄹㅜ -14840
▁ㄱㅓㅂㄴㅏ -14841
▁ㅈㅏㄴㄴㅏ -14842
▁ㄱㅡㅂㅂㅏㄱ -14843
ARE -14844
ener -14845
ublic -14846
▁ㅅㅏㄹㅇㅣㄴㅈㅏ -14847
▁ㅂㅕㅇㄷㅡㄹ -14848
OG -14849
min -14850
▁WBC -14851
▁ㄹㅐㄴㄷㅓ -14852
▁ㅍㅗㅁㅍㅔ -14853
▁ㅂㅓㄴㅈㅡ -14854
▁ㅇㅏㅁㄷㅡ -14855
▁ㅁㅏㅇㅈㅓㄴ -14856
▁ㅈㅓㄱㅊㅜㄹ -14857
▁ㅊㅣㄴㅈㅏ -14858
mar -14859
▁ㄱㅕㄹㅍㅣㅂ -14860
▁ㅊㅗㅇㄷㅗㅇㅇㅝㄴ -14861
USH -14862
▁Eyes -14863
ㅂㅏㅇㄷㅐ -14864
ㄷㅗㅇㅁㅜㄹㅁㅜㄴ -14865
▁LH -14866
▁298 -14867
ㅅㅣㄱㄱㅣ -14868
▁ㅂㅔㄴㅊㅕ -14869
▁ㅃㅓㄷㅊㅣ -14870
▁ㅅㅣㄹㅂㅔ -14871
▁Ros -14872
▁ㅁㅛㄹ -14873
▁LT -14874
▁Alex -14875
ㄹㅣㅁㅅㅏ -14876
LV -14877
▁ft -14878
▁ㄱㅜㄱㅊㅓㄹ -14879
▁Android -14880
▁Wave -14881
▁ㄱㅏㅄㅆㅏ -14882
▁ㅅㅏㄹㅇㅢ -14883
▁ㅈㅗㄴㄴㅏ -14884
▁ㄱㅏㅇㅅㅓㄱ -14885
▁ㅂㅕㄴㄱㅜㄱ -14886
▁ㅅㅓㅇㄴㅕㄴ -14887
▁ㄱㅏㅁㅈㅓㅁ -14888
ㅇㅣㄴㅇㅐ -14889
▁ㅈㅗㅇㅈㅜ -14890
ㅊㅣㅁㅂㅏㄴ -14891
▁ㅇㅏㅇㅅㅜㄱ -14892
▁ㄱㅡㄴㅂㅗㄴㅈㅜ -14893
▁ㅇㅣㄹㅂㅗㄴㄷㅗ -14894
▁ㅌㅣㅁㅍㅡㄹㄹㅔ -14895
▁OL -14896
▁Mini -14897
ㅅㅗㄱㅊㅓㄹㄷㅗ -14898
▁VV -14899
ㅇㅡㅁㅍㅏ -14900
▁ㅋㅗㄹㄹㅓㅁ -14901
▁ㅎㅏㄱㅅㅏㄹㅈㅏ -14902
▁two -14903
▁ㅋㅓㅂㄹㅏ -14904
ㅌㅔㄱㅌㅓ -14905
▁ㅊㅏㅇㅊㅓㄴ -14906
ㅅㅗㅂ -14907
▁ㅅㅓㅇㅅㅣㅁ -14908
▁ㅁㅕㅇㅁㅗㄱㅅㅏㅇ -14909
▁ㅎㅐㄱㅁㅣ -14910
▁ㅇㅕㅇㄴㅡㅇ -14911
▁ㅂㅏㄴㅁㅣ -14912
▁ㄴㅏㅁㄱㅕㅇ -14913
▁List -14914
▁ㅈㅓㅁㅅㅓㅇ -14915
▁770 -14916
ㅇㅣㄹㄹㅣㄴ -14917
ㄸㅗㄹ -14918
ㅂㅏㄹㅇㅠ -14919
▁ㅁㅕㅇㅅㅗ -14920
▁ㄱㅓㄹㅊㅜㄹ -14921
▁ㅂㅏㄴㅇㅣㄹ -14922
ㄴㅜㄴㅁㅜㄹ -14923
▁ㄱㅡㄱㅂㅗㄴ -14924
▁ㅎㅔㄹㄹㅔㄴ -14925
ㄷㅏㄱㄱㅓ -14926
▁ㅅㅏㄴㄱㅐ -14927
ㅌㅣㄹㄷㅏ -14928
▁ㄱㅘㅇㅈㅏ -14929
▁ㄷㅗㄹㄱㅕㄱㄷㅐ -14930
▁ㅈㅓㄴㄱㅡㄴㄷㅐ -14931
▁ㅇㅗㄱㅈㅘ -14932
▁~, -14933
ㅇㅜㄹㄹㅗ -14934
▁ㅁㅏㄱㅅㅣㅁ -14935
▁ㅍㅔㄴㅅㅣㅇ -14936
▁ㅎㅡㅇㅇㅝㄴ -14937
ㅇㅣㄴㄱㅜ -14938
ㅊㅓㄴㅎㅜ -14939
ㄹㅏㅇㄱㅗㅅ -14940
ㅇㅜㄹㄹㅔㅅ -14941
▁first -14942
▁ㅁㅕㅇㄱㅏ -14943
▁ㅇㅕㄹㅁㅏㅇ -14944
▁ㅅㅏㅇㅈㅓㅁㄱㅏ -14945
▁269 -14946
ㅉㅏㄹㅇㅓㅄ -14947
▁ㅂㅕㄴㄹㅗㄴ -14948
▁ㅇㅠㅇㅌㅗㅇ -14949
▁ㅇㅑㄹㅉㅏㄹㅇㅓㅄ -14950
▁LW -14951
▁Stop -14952
▁ㅁㅕㅇㅂㅜ -14953
ㄷㅜㅇㅈㅓㄹ -14954
▁ㅇㅠㄱㅈㅓㄴ -14955
▁ㅎㅡㅇㄷㅓㄱ -14956
▁ㅂㅜㄱㄷㅗㅇㅉㅗㄱ -14957
▁dark -14958
ㅈㅏㄴㅊㅣ -14959
ira -14960
▁ㅇㅕㄴㅇㅠ -14961
ric -14962
▁ㅈㅓㄹㄱㅣ -14963
▁ㅅㅣㄴㅈㅗㄱ -14964
▁030 -14965
▁Wild -14966
▁ㄱㅣㅁㅎㅛ -14967
▁ㄹㅔㅅㅊㅡ -14968
▁ㅇㅘㄴㅊㅜㅇ -14969
▁bec -14970
▁ㅇㅕㅇㅎㅏ -14971
▁ㄱㅓㅁㄷㅏㄴ -14972
▁ㄹㅗㄹㅂㅐㄱ -14973
▁comp -14974
▁ㅈㅣㅂㅁㅜ -14975
▁ㅅㅓㄴㅇㅣㄴㅈㅏㅇ -14976
▁ㅇㅠㄱㅌㅏㄴㅈㅓㄴ -14977
▁Hun -14978
▁ㄷㅓㅍㅂㅏㅂ -14979
▁ㅈㅓㄱㅂㅏㄴ -14980
▁ㅊㅜㅇㅈㅓㄴㄱㅣ -14981
ㄸㅏㅁ -14982
alth -14983
ㅇㄱㅜㄹ -14984
ㅁㅕㅇㄷㅗ -14985
▁ㄱㅓㅁㅅㅜ -14986
▁Engine -14987
▁ㄱㅗㄴㅈㅏㄹ -14988
▁ㄲㅗㄱㅈㅣ -14989
▁ㄷㅔㄴㅂㅓ -14990
▁ㅇㅏㅇㄱㅗ -14991
▁ㅇㅠㄴㅂㅗ -14992
▁ㅋㅏㄴㅌㅡ -14993
▁ㅎㅣㄹㄷㅏ -14994
▁ㄱㅏㄴㅁㅏㄴ -14995
▁ㅅㅣㄱㅇㅛㄱ -14996
▁ㅈㅓㄴㄱㅜㄴ -14997
AF -14998
▁ㅂㅓㅂㄷㅐ -14999
▁ㅍㅗㄱㄹㅚ -15000
▁ㄱㅗㄹㅇㅣㄴ -15001
▁ㅎㅘㅇㅅㅓㄴ -15002
ㅅㅓㄴㅇㅘㅇㅈㅗ -15003
ASH -15004
▁ㅁㅕㄴㅈㅓㄴ -15005
▁ㅈㅗㅇㄱㅜㄴ -15006
▁ㅇㅕㄹㄹㅏㅁㅅㅣㄹ -15007
▁WS -15008
▁ㅈㅏㅇㄱㅗ -15009
▁ㄹㅔㄴㅊㅣ -15010
▁296 -15011
▁PSY -15012
▁kill -15013
ㅁㅕㄴㅈㅔ -15014
▁Stars -15015
▁Mich -15016
▁ㄴㅏㄹㅈㅗ -15017
▁ㅂㅏㄴㅎㅑㅇ -15018
▁ㅅㅣㄴㄱㅔㄴ -15019
▁Element -15020
▁ㅇㅕㅇㅇㅕㄴㅂㅏㅇ -15021
56 -15022
ㄱㅜㄴㅇㅛ -15023
▁ㅈㅜㅇㄱㅐ -15024
▁ㄱㅜㄱㅁㅕㄴ -15025
ㄹㅔㄱㅅㅡ -15026
▁ㅇㅡㅁㅊㅏ -15027
▁ㄱㅜㄱㅅㅔ -15028
▁ㅎㅏㅇㅂㅓㅂ -15029
▁mp -15030
ㅇㅜㄴㅌㅏ -15031
▁Crazy -15032
▁ㅈㅜㅇㅎㅡㅇ -15033
ㄲㅜㅈ -15034
▁ㅂㅣㄹㄷㅓ -15035
▁ㅊㅏㅇㅇㅓㅂㅈㅜ -15036
▁ㄱㅣㅁㅇㅕㅇㅊㅓㄹ -15037
▁336 -15038
▁ㅍㅔㄴㅌㅣ -15039
ㅈㅜㄴㅎㅕㅇ -15040
ㅊㅓㄴㅁㅏㄴ -15041
▁Ze -15042
▁ㅈㅔㄴㅌㅡ -15043
▁project -15044
▁ㄱㅕㄱㅅㅏㅇ -15045
▁ㄱㅡㅂㄱㅡㅂ -15046
▁npc -15047
▁ㄷㅓㄱㅇㅏ -15048
ㅇㅝㄹㅈㅜ -15049
ㅈㅜㅇㄹㅕㄱ -15050
▁ㅌㅓㅅㅂㅏㅌ -15051
▁ㅇㅜㄱㅇㅣㄹㄱㅣ -15052
▁399 -15053
▁ㄲㅗㅊㅁㅣ -15054
▁ㅌㅏㄱㅈㅏ -15055
ㄲㅓㅂㅈㅣㄹ -15056
▁ㄱㅗㅇㄱㅝㄴㄹㅕㄱ -15057
▁Evil -15058
▁ㅈㅐㅂㅆㅏ -15059
▁ㄱㅣㅇ -15060
▁ㅇㅣㅁㅍㅏ -15061
▁ㅇㅘㅇㅇㅘㅇ -15062
▁ㅎㅕㅂㄹㅕㄱㅈㅏ -15063
▁1906 -15064
ㅈㅗㅇㅎㅜㄴ -15065
▁always -15066
ㅇㅓㅂㅊㅔ -15067
▁ㅎㅏㄱㅅㅓㄹ -15068
▁ㅋㅓㄴㅂㅔㄴㅅㅕㄴ -15069
▁ㄹㅓㄱㅂㅣ -15070
▁ㅅㅡㅂㄱㅣ -15071
▁ㅈㅓㄱㅅㅜ -15072
▁ㅇㅡㄴㅇㅝㄹ -15073
▁ㅈㅓㅇㅍㅏㄴ -15074
mo -15075
orrow -15076
▁3200 -15077
▁PASS -15078
▁Princ -15079
▁ㅎㅏㄱㅂㅣ -15080
▁ㅍㅏㄴㄱㅡㅁ -15081
▁ㄷㅡㄱㅈㅓㅁㄹㅕㄱ -15082
▁>> -15083
▁ㅎㅘㄴㅎㅏ -15084
ㅍㅕㅇㅅㅓㄴ -15085
▁ㅈㅓㅇㅂㅕㅇ -15086
▁ㄱㅕㅇㅊㅜㄴㅅㅓㄴ -15087
▁def -15088
abe -15089
▁533 -15090
▁ㅁㅗㅇㄱㅗ -15091
▁ㅁㅜㄴㅅㅏㄴ -15092
▁ㅈㅣㄴㅇㅓㄴ -15093
ㅅㅓㅇㅇㅜ -15094
▁ㅇㅗㄴㄱㅘ -15095
▁ㅅㅓㅇㅈㅓㄴㅅㅏ -15096
▁ㄷㅟㅅㄱㅗㄹㅁㅗㄱ -15097
▁ㄱㅗㄱㅇㅖ -15098
▁ㅅㅣㄴㅇㅏ -15099
▁ㄱㅡㅂㅈㅏㄱ -15100
▁ㅇㅜㄹㅁㅓㄱㅇㅣ -15101
ㅎㅏㄴㅂㅜ -15102
▁ㅁㅏㄴㅁㅜ -15103
▁ㅂㅏㄹㄱㅣㄹ -15104
▁ㅅㅓㄴㄷㅓㄱ -15105
▁Yo -15106
ㅈㅓㄱㅍㅏㄴ -15107
▁ㄷㅗㄱㅇㅑㄱ -15108
▁ㅁㅕㅇㅂㅏㄴ -15109
ips -15110
▁ㅎㅟㄱ -15111
▁ㅈㅓㅇㄴㅕㄴ -15112
NER -15113
▁317 -15114
▁ㅇㅏㄴㅇㅟ -15115
▁ㅇㅕㄱㅁㅜ -15116
ㅇㅛㅇㅅㅣㄹ -15117
▁ㅈㅓㅇㅅㅣㄹ -15118
ㅉㅣㅁ -15119
▁hellojo -15120
▁ha -15121
▁pp -15122
ㄹㅐㄴㄷㅗ -15123
▁BREAK -15124
▁ㅁㅏㄴㅊㅣ -15125
▁ㅅㅓㄱㅇㅑㅇ -15126
▁ㅈㅓㄴㅁㅏㅇㄷㅐ -15127
▁ㄱㅜㄱㅁㅣㄴㅈㅓㅇㅂㅜ -15128
ㄲㅡㅀ -15129
▁show -15130
EZ -15131
▁VII -15132
▁ㅎㅘㄴㅁㅏ -15133
▁ㅂㅏㄱㅇㅡㄴ -15134
▁HO -15135
ㄱㅔㅅ -15136
▁MBT -15137
ㅇㅘㄴㅈㅣ -15138
▁ㅇㅐㄱㅅㅔㄹㄹㅓ -15139
▁292 -15140
▁ㅅㅛㅂ -15141
▁Dawn -15142
ㄱㅘㄴㅅㅗ -15143
▁Honey -15144
▁ㅊㅏㅁㅈㅏㄱ -15145
ㄷㅣㅆ -15146
▁ㅋㅐㅅㅊㅡ -15147
▁ㅎㅐㅇㅍㅐ -15148
ㅊㅓㄴㅎㅏ -15149
▁ㅇㅏㄹㅋㅗㄹ -15150
▁ㅊㅡㄱㅈㅓㅇㄱㅣ -15151
▁ever -15152
ㅎㅏㄱㅂㅜ -15153
cat -15154
rap -15155
▁ㅅㅐㄹ -15156
▁Sword -15157
▁ㅈㅓㅅㄱㅏ -15158
ㅌㅏㄹㄹㅏㄴ -15159
▁ㄷㅗㄱㅅㅣㄱ -15160
▁070 -15161
ㄹㅣㅅㅅㅏ -15162
ㅅㅕㄴㅅㅡ -15163
ination -15164
▁ㅅㅣㄴㄹㅏㅇ -15165
▁ㅇㅡㅁㅈㅣㄱ -15166
▁ㅂㅗㄱㅇㅡㅁㅅㅓ -15167
▁ㅁㅏㄹㅍㅜㅇㅅㅓㄴ -15168
▁ㄷㅗㅇㄱㅗ -15169
ㅅㅡㅇㅋㅓㅂ -15170
▁ㄱㅓㅁㄱㅐㄱ -15171
▁ㄴㅏㄴㄱㅜㄱ -15172
▁ㅇㅕㄱㄱㅕㅇ -15173
▁ㅈㅓㄱㅂㅕㅇ -15174
ㅈㅗㄱㅅㅜ -15175
ternal -15176
▁ㅊㅜㄱㅈㅓㄴ -15177
▁ㅌㅐㄱㅌㅣㄱㅅㅡ -15178
enz -15179
▁GDI -15180
▁ㄴㅏㅁㅎㅏ -15181
▁ㅇㅏㄱㄷㅓㄱ -15182
▁ㅊㅓㄹㅊㅏㅇ -15183
▁ㅋㅓㄹㄹㅓㅁㅂㅣ -15184
ㄷㅔㄹㄹㅣ -15185
▁ㄷㅗㅇㅌㅣ -15186
▁ㅅㅏㅇㄱㅖ -15187
▁ㅋㅣㄹㄹㅏ -15188
▁ㅈㅏㅂㄷㅏ -15189
▁ㅅㅜㄱㄹㅕㄴㅈㅏ -15190
▁319 -15191
▁Adren -15192
▁ㄱㅣㅂㅅㅡ -15193
▁ㄴㅏㅁㅊㅗ -15194
▁ㄷㅓㄹㄹㅓㅇ -15195
▁ㅎㅏㅂㅂㅗㄴ -15196
▁must -15197
▁ㅇㅕㅁㅂㅗ -15198
ole -15199
▁Our -15200
▁free -15201
ㄱㅏㄹㄱㅣ -15202
▁ㅇㅏㄴㅂㅜ -15203
ㄱㅡㄱㅅㅏㅇ -15204
ㅇㅕㅇㅅㅓㄱ -15205
ovideo -15206
▁50000 -15207
▁ㄱㅏㅇㅈㅐ -15208
▁ㄷㅡㅇㅂㅜ -15209
▁ㅇㅓㄴㅈㅓ -15210
▁ㅎㅡㅌㄴㅏㄹㄹㅣ -15211
▁nicovideo -15212
49 -15213
▁ND -15214
ㄱㅕㄴㅇㅣㄴ -15215
▁ㄱㅣㅁㅈㅓㅇㅁㅣㄴ -15216
ental -15217
▁1001 -15218
▁TIME -15219
ㅇㅕㅇㅎㅕㄱ -15220
▁ㅈㅜㅇㅁㅜㄴ -15221
▁ㅇㅣㅂㄱㅡㅁ -15222
▁ㅇㅑㄱㅎㅗㄴㄴㅕ -15223
▁ㅈㅗㅇㅂㅜㄱ -15224
▁ㄱㅕㄹㅈㅓㅇㅊㅔ -15225
▁DG -15226
▁IL -15227
ㄷㅏㅅㅇㅓㅄㅇㅣ -15228
▁ㅌㅗㅇㅎㅏㅂㅈㅣㄴㅂㅗ -15229
sm -15230
▁OZ -15231
ㅇㅕㄴㅈㅐ -15232
ㅊㅜㅇㅈㅣ -15233
▁ㅊㅜㄹㄷㅗ -15234
dom -15235
▁rpm -15236
▁ㄷㅗㄴㄷㅗㄱ -15237
▁ㅇㅣㅁㅂㅏㄱ -15238
▁ㄱㅗㄴㅈㅏㄹㄹㅔ -15239
▁ㅈㅓㄱㅂㅏㄴㅎㅏ -15240
▁Far -15241
▁aid -15242
▁ㅅㅓㄴㅇㅘㅇ -15243
▁CAN -15244
▁Lim -15245
▁ㄴㅏㄴㅂㅏ -15246
▁ㅇㅝㄴㅇㅣ -15247
ko -15248
ㅂㅡㄹㅂㅣ -15249
▁ㅇㅣㄱㄹㅛㅇ -15250
▁ㅂㅡㄹㄹㅗㄱㅂㅓ -15251
aken -15252
▁ㅇㅓㅇㅅㅓㅇ -15253
▁MID -15254
ㄴㅏㅁㅅㅓㄴ -15255
▁ㅅㅜㅊ -15256
▁505 -15257
▁ㄴㅗㄴㅅㅜㄹ -15258
ev -15259
▁12000 -15260
▁ㅂㅜㄹㅊㅜㄹ -15261
▁ㅊㅐㄱㅈㅏㅇ -15262
▁ㄷㅗㅇㅂㅜㄱㅇㅏ -15263
ts -15264
ㄱㅡㅁㅅㅗㄱ -15265
ashi -15266
▁ㄴㅏㅁㅈㅏㅇ -15267
▁ㅅㅣㅁㅅㅓㅇ -15268
▁ㅈㅗㄹㅈㅓㄴ -15269
ITION -15270
▁ㅅㅏㅇㅇㅣ -15271
▁Tit -15272
▁ㅇㅣㄴㅋㅗ -15273
▁ㄷㅗㄹㅍㅡ -15274
▁ㅇㅘㄴㄷㅏ -15275
▁Galaxy -15276
aeboo -15277
▁ㅇㅕㅇㅇㅖ -15278
▁ㅊㅣㅇㄱㅣ -15279
▁ㅌㅐㅅㅇㅔ -15280
▁ㅈㅐㅅㅂㅣㅊ -15281
▁ㅎㅏㄴㅅㅏㅇ -15282
▁EVER -15283
▁ㅇㅕㅁㄱㅜ -15284
uel -15285
IDIA -15286
▁Child -15287
▁border -15288
ㅅㅑㄹ -15289
ㅇㅕㅎ -15290
▁SPOT -15291
ㅎㅕㅇㅈㅣ -15292
▁ㅈㅏㅇㅅㅡㅇ -15293
▁412 -15294
ㄱㅕㅇㅇㅝㄴ -15295
▁ㅂㅐㄱㄱㅡㅁ -15296
▁ㅋㅓㅁㅍㅣㄹㄹㅔ -15297
▁LUK -15298
▁ZEX -15299
▁ㅁㅕㅇㄱㅘ -15300
▁ㅍㅗㄱㅅㅗ -15301
▁ㅊㅏㅁㅅㅐ -15302
▁ㅊㅏㅇㅂㅐㄱ -15303
▁Ham -15304
▁ㅇㅔㄴㄷㅓ -15305
▁ㅇㅕㅇㅁㅐ -15306
▁ㅇㅕㅇㅇㅏㅁ -15307
▁live -15308
▁ㅂㅣㄱㄹㅣ -15309
▁ㅈㅜㄱㅈㅓㄴ -15310
▁ㅈㅣㄱㄱㅝㄴ -15311
iter -15312
▁par -15313
ㅂㅏㄷㅇㅣ -15314
▁ㅂㅐㄱㄱㅟ -15315
▁ㅇㅕㄱㅈㅏ -15316
▁Caeboo -15317
gin -15318
▁406 -15319
ㄹㅗㄱㅅㅣ -15320
▁IX -15321
▁ㅇㅝㄴㄱㅣ -15322
▁ㅇㅕㄴㅈㅜㅇ -15323
▁830 -15324
▁ㄱㅘㄴㅅㅓ -15325
▁ㅂㅗㄴㅂㅏㅇ -15326
ㄷㅏㅇㄷㅗㅇ -15327
▁ㅎㅜㄹㄹㅣㄴ -15328
/- -15329
▁GV -15330
▁MSX -15331
▁ㅁㅛㄹㄴㅣ -15332
▁ㅈㅣㄴㅅㅓ -15333
▁ㅇㅑㄱㄱㅘㄴ -15334
▁ㅇㅝㄴㅅㅣㅁ -15335
▁ㅊㅏㄴㅁㅜㄹ -15336
▁ㅈㅓㅁㅊㅏㄱ -15337
ubeat -15338
▁break -15339
▁OH -15340
▁ㄱㅓㅁㅎㅗ -15341
▁ㄷㅗㄱㄹㅕ -15342
iec -15343
▁349 -15344
▁NBC -15345
▁Lady -15346
▁ㅇㅝㄹㄹㅣ -15347
ㄱㅗㅇㅇㅓㅂ -15348
▁Sa -15349
▁322 -15350
ㅅㅣㄱㅈㅜ -15351
▁other -15352
▁ㅌㅏㄹㅂㅜㄱㅈㅏ -15353
▁ㄷㅗㄴㄱㅏ -15354
▁ㅈㅓㄱㅍㅖ -15355
▁ㅍㅐㅇㅇㅣ -15356
ㅈㅓㄴㅈㅏㅇ -15357
▁ㅈㅓㄴㅈㅜㄴㅇㅜ -15358
▁Ring -15359
▁ㅈㅣㄴㅊㅓㄴ -15360
▁folding -15361
MR -15362
▁ㄱㅜㄴㄷㅗ -15363
▁ㅈㅏㅇㅂㅜ -15364
▁ㅍㅏㄹㅋㅗㅁ -15365
▁ㅍㅜㅁㄱㅕㄱ -15366
▁ㅇㅣㅂㅈㅏㅇㄱㅝㄴ -15367
▁342 -15368
▁ROCK -15369
▁ㄱㅔㄴㅌㅏ -15370
▁ㄱㅣㅁㅊㅓㄴㅅㅣ -15371
▁ㄴㅜㄴㄷㅓㅇㅇㅣ -15372
▁297 -15373
▁Hon -15374
▁ㅋㅏㄴㅌㅏ -15375
▁MAG -15376
▁ㅅㅜㅁㅇㅓ -15377
ㅇㅟㅇㅋㅡㄹ -15378
ㅇㅣㅂㅁㅜㄴ -15379
▁ㄱㅏㄹㅈㅡㅇ -15380
▁ㄱㅘㄴㅊㅓㅇ -15381
ㅁㅏㄱㅅㅣㄱ -15382
▁ㄱㅏㅇㅅㅓㄴ -15383
▁ㅇㅘㅇㄹㅡㅇ -15384
▁ESC -15385
▁blog -15386
▁find -15387
▁inline -15388
▁Bul -15389
▁ㄱㅡㅁㄴㅏ -15390
▁ㅊㅘㄹㅇㅕㅇㅈㅏㅇ -15391
▁ㅇㅕㅁㅈㅜ -15392
▁ㅇㅟㅇㅋㅡ -15393
ㅂㅐㄱㅅㅏㄴ -15394
▁ㄱㅏㄹㄹㅣㅁ -15395
▁ㅈㅗㅇㄷㅏㄴ -15396
▁ㄱㅣㅁㄱㅏㅂㅎㅘㄴ -15397
ears -15398
▁API -15399
▁ㄱㅜㄹㅎㅏ -15400
▁ㄹㅔㄴㅌㅡ -15401
▁ㄷㅗㅇㄱㅗㅇ -15402
▁ㅅㅓㄹㅅㅏㄴ -15403
▁ㅂㅜㄴㅈㅣ -15404
ㅇㅣㄴㅇㅝㄴ -15405
▁ㅊㅗㅇㅊㅣㅇ -15406
▁ㅇㅣㅇㅋㅏ -15407
▁revision -15408
▁ㅈㅓㅇㅅㅓㅇㅎㅜㄴ -15409
▁ㅂㅔㄱㅅㅡ -15410
▁ㅇㅓㄴㄷㅗㅇ -15411
▁!' -15412
▁TNA -15413
ffect -15414
▁ㄱㅡㅁㅅㅐ -15415
▁ㄲㅏㄲㅇㅏ -15416
▁ㅅㅛㄹㄷㅓ -15417
▁STANDARD -15418
ffer -15419
▁ㅊㅜㄱㅇㅑㄱ -15420
▁ㅇㅣㄴㅁㅜㄴㅎㅏㄱ -15421
▁Ber -15422
▁KING -15423
▁ㄹㅐㅂㅅㅗ -15424
▁ㅅㅣㄱㅊㅗ -15425
▁ㅇㅏㄹㅌㅗ -15426
▁ㄷㅗㅇㄱㅜㄴ -15427
▁ㄱㅏㄹㄹㅣㅁㄱㅣㄹ -15428
▁SY -15429
▁ㄷㅏㄺㄱㅗ -15430
▁ㅈㅏㅇㅇㅚ -15431
▁ㅈㅓㄴㄱㅏ -15432
ㅊㅏㅇㄱㅜㄴ -15433
▁ㅈㅓㄱㅂㅕㄱ -15434
▁ㅈㅓㄴㅇㅠ -15435
▁ㅂㅡㄹㄹㅣㄴ -15436
ua -15437
ㅅㅗㄴㅈㅏ -15438
▁ㄱㅜㄱㅂㅜ -15439
▁ㅎㅏㄹㅂㅐ -15440
▁ㅊㅏㅁㄱㅕㄴ -15441
81 -15442
▁860 -15443
▁then -15444
▁ㄱㅣㅁㅊㅓㄹ -15445
▁ㅅㅜㄴㄱㅕㅇ -15446
▁ㄱㅘㄴㅈㅓ -15447
ㅈㅓㅇㅎㅘ -15448
▁ㄱㅘㅇㄱㅐ -15449
▁ㅌㅏㄴㅈㅣ -15450
▁Wall -15451
▁ㅎㅑㅇㅌㅗ -15452
▁ㅁㅔㅁ -15453
▁ㄱㅜㄴㅅㅗ -15454
▁ㅇㅝㄹㄱㅖ -15455
▁ㅈㅡㅇㄹㅠ -15456
ㄱㅏㅇㄴㅏㅁ -15457
▁ㅅㅏㄴㄹㅏㄴ -15458
oro -15459
ㄷㅓㄴㅅㅡ -15460
▁HYPER -15461
alt -15462
ㅍㅕㅇㄹㅣ -15463
ension -15464
▁ㅎㅕㅂㅅㅗ -15465
▁ㅎㅗㄴㅅㅣㄴ -15466
▁Monster -15467
form -15468
▁291 -15469
▁515 -15470
▁ㅈㅡㅇㄱㅏㅁ -15471
▁ㄷㅗㅇㅇㅣㄹㅅㅣ -15472
▁ㅍㅟ -15473
oday -15474
▁ㄴㅏㅁㅍㅗ -15475
▁ㅇㅠㄴㄷㅗ -15476
▁ㅈㅏㅂㅅㅡ -15477
ㄷㅗㅇㄸㅏㄹ -15478
▁latest -15479
▁Missouri -15480
▁ㅈㅓㅇㅁㅗㅇㅈㅜ -15481
▁Hom -15482
▁ㅂㅓㄴㄹㅣ -15483
▁ㅇㅣㄴㅋㅏ -15484
▁ㅋㅓㄴㅅㅡ -15485
▁ㅍㅐㄱㅌㅓ -15486
▁ㅁㅜㄱㅅㅏㄹ -15487
▁ㅁㅣㄹㄹㅣㅁ -15488
cho -15489
▁ㄱㅏㅇㄱㅘ -15490
▁ㄴㅜㄴㄲㅗㅊ -15491
▁ㄱㅗㅇㅁㅣㄴㅇㅘㅇ -15492
BL -15493
▁ㅇㅣㄴㅂㅜ -15494
▁ㅇㅣㄹㄲㅐ -15495
▁ㅇㅏㅇㅎㅔㄹ -15496
▁article -15497
▁background -15498
▁Az -15499
ㅁㅗㄹㄹㅣ -15500
ㅊㅓㄱㅈㅏ -15501
▁Ghost -15502
▁ㄷㅡㅇㅅㅜ -15503
▁ㅎㅕㅇㄱㅘㅇ -15504
▁485 -15505
▁Mat -15506
ㄴㅏㄴㄷㅡ -15507
▁ㅅㅗㄴㅂㅗ -15508
▁ㅅㅏㅁㅈㅣ -15509
▁ㅅㅣㅁㅅㅜ -15510
▁ㄷㅗㄴㅂㅓㄹㅇㅣ -15511
▁Low -15512
▁ㅂㅓㄹㅊㅓ -15513
▁ㅅㅏㅇㅋㅙ -15514
▁ㅇㅓㅅㅂㅣ -15515
▁ㅂㅏㄹㅂㅏ -15516
▁ㅊㅓㅇㄷㅗ -15517
▁ㄱㅣㄴㅁㅣㄹ -15518
▁GBA -15519
▁ㄴㅣㅅㅌㅏ -15520
▁ㅂㅕㅇㄷㅗㅇ -15521
▁343 -15522
▁keep -15523
ㅇㅛㅇㅍㅣㄹ -15524
fr -15525
ㄹㅡㅁㅍㅛ -15526
▁ㅇㅣㅇㄱㅡ -15527
▁ㅋㅜㅇㅍㅜ -15528
▁ㅍㅡㄹㄹㅔㄱㅅㅡ -15529
▁ㄷㅗㄱㅊㅏ -15530
▁ㅅㅣㄹㄹㅕ -15531
▁ㅈㅓㅇㅎㅢ -15532
▁ㅎㅡㄱㅈㅏ -15533
URN -15534
ㄱㅣㄹㅇㅣ -15535
ㅅㅓㄴㅎㅗ -15536
ㅈㅣㄴㅎㅢ -15537
▁ㅅㅣㄴㅅㅡㅇ -15538
▁1903 -15539
ㄱㅡㅂㅈㅏ -15540
▁Block -15541
▁ㅂㅏㄱㅅㅓ -15542
▁ㅆㅜㄱㄷㅐ -15543
▁ㅎㅕㅂㅊㅏㄴ -15544
reeca -15545
▁1904 -15546
▁line -15547
▁ㅇㅕㄴㄱㅏ -15548
▁Strike -15549
▁ㅂㅏㄱㄹㅏㅁㅎㅚ -15550
▁Prod -15551
▁ㄱㅏㅁㄹㅣ -15552
▁ㄷㅐㄴㄷㅣ -15553
ㅇㅝㄹㄷㅗㅇ -15554
▁ㄱㅡㅂㅈㅓㄴ -15555
▁ㄷㅡㄹㄲㅡㅀ -15556
ㅅㅠㅅ -15557
amond -15558
ㅇㅣㄴㅌㅓ -15559
▁ㄱㅗㅇㄹㅗㄴ -15560
▁ㅇㅕㅇㅅㅏㄴ -15561
▁ㅌㅜㄱㅌㅜㄱ -15562
ㅁㅝ -15563
▁503 -15564
▁Bang -15565
▁Tell -15566
▁ㅁㅗㅁㅂㅜ -15567
▁ㅅㅣㄱㅎㅣ -15568
ㄱㅘㄴㅎㅏㅁ -15569
ㅌㅗㅇㅎㅐㅇ -15570
▁Ti -15571
▁ㅋㅐㄹ -15572
▁ㄱㅡㄴㅈㅓㄹ -15573
▁ㅂㅏㅇㅊㅓㅇㄱㅐㄱ -15574
▁ㅎㅏㅂㅊㅏㅇㄷㅏㄴ -15575
NO -15576
▁--- -15577
▁ㄷㅏㅁㅎㅘ -15578
▁ㅅㅓㅇㅌㅗ -15579
ㄱㅓㄴㅊㅜㄱ -15580
▁ㅎㅏㅂㅊㅏㅁ -15581
▁head -15582
▁ㅍㅗㄱㅂㅏㄹㄹㅕㄱ -15583
▁ㅎㅘㅇㄷㅗ -15584
▁ㅈㅗㅇㅍㅕㄴ -15585
▁ㅅㅏㄴㅇㅑㅇ -15586
▁ㅂㅓㄴㅇㅕㄱㄱㅣ -15587
▁ㅇㅗㄹㄹㅐㄴㄷㅗ -15588
▁ㄱㅕㅇㅎㅑㅇㅅㅣㄴㅁㅜㄴ -15589
hone -15590
▁ㄱㅏㅇㅌㅚ -15591
▁ㄴㅏㅁㅇㅜ -15592
▁ㅈㅏㅇㄱㅘㅇ -15593
ㅅㅑㄴ -15594
ㄱㅏㄴㅈㅓㄴ -15595
▁ㅍㅗㄹㄹㅗ -15596
▁ㅍㅜㅇㅇㅜㄴ -15597
YPE -15598
sung -15599
ㄷㅔㄹㄹㅏ -15600
▁ㅁㅣㄴㄱㅏ -15601
▁ㅎㅏㅅㄷㅗ -15602
▁ㅂㅗㄴㅍㅏㄴ -15603
▁ㅎㅕㅇㄹㅑㅇ -15604
▁American -15605
▁SUN -15606
▁jubeat -15607
▁ㅇㅕㄴㅈㅏㄱ -15608
lish -15609
▁call -15610
▁ㄴㅏㅁㅈㅗ -15611
▁ㄲㅜㅁㅅㅗㄱ -15612
ㄹㅐㄴㅅㅣ -15613
ㅍㅏㄹㅇㅣ -15614
▁NVIDIA -15615
▁ㅇㅣㄴㅁㅣㄴㅎㅐ -15616
▁Pri -15617
▁ㅇㅏㄱㅅㅓㅇ -15618
▁502 -15619
▁ㅇㅣㅁㅅㅜ -15620
ASE -15621
▁326 -15622
▁ㅇㅘㄱ -15623
▁ㅅㅐㅇㅈㅟ -15624
▁ㅈㅏㅇㄹㅑㅇ -15625
▁ㅇㅜㄴㅈㅓㄴㅅㅓㄱ -15626
▁ㅅㅓㅇㄹㅣ -15627
▁ㅇㅠㄴㅅㅓㄱ -15628
▁ㅎㅘㄹㅉㅏㄱ -15629
▁ㅁㅑ -15630
▁Stay -15631
▁ㅂㅕㅇㅇㅑㄱ -15632
▁Cam -15633
▁Jun -15634
▁CPLv -15635
▁eyes -15636
▁ㅁㅏㅇㄱㅗ -15637
▁ㅅㅓㅇㅈㅣㄴ -15638
▁ㅅㅣㄹㅅㅣㄴ -15639
▁ㄱㅘㅇㅇㅕㄱㅂㅓ -15640
▁Hyper -15641
▁ㄹㅗㄱㅋㅣ -15642
ㅈㅣㄴㅎㅕㄱ -15643
▁ㅂㅗㄱㅇㅕㄱ -15644
▁331 -15645
ique -15646
▁ㅅㅜㄱㄴㅕ -15647
ㄹㅓㅂㅇㅕㄴㅎㅏㅂ -15648
▁ㅇㅏㄴㅈㅓㅇㅎㅘㄴ -15649
eon -15650
ㅎㅏㅁㄷㅐ -15651
▁ㄱㅝㄴㅅㅔ -15652
ㅂㅏㅇㅊㅏ -15653
▁ㄱㅕㅂㅊㅕ -15654
ㅁㅜㄴㅈㅏㅇ -15655
▁ㄱㅣㅁㅁㅣㄴㅇㅜ -15656
▁ㅅㅓㄴㅍㅜㅇㄱㅣ -15657
ergy -15658
▁ㅎㅕㄴㅊㅜㅇ -15659
ㄱㅏㅁㅈㅏ -15660
▁ㄷㅜㅇㄷㅜㅇ -15661
▁ㅇㅕㄴㅅㅓㄴ -15662
▁should -15663
▁JS -15664
▁ㅉㅚ -15665
▁ㅍㅜㅁㅇㅟ -15666
▁ㅎㅏㄴㅂㅕㄹ -15667
▁ㅇㅘㅇㅅㅣㅂㄹㅣ -15668
▁5500 -15669
ㅈㅜㄱㅇㅣ -15670
▁ㄷㅏㅂㄹㅖ -15671
▁ㅂㅣㅇㄱㅗ -15672
▁ㅇㅡㄴㅇㅢ -15673
▁ㅂㅗㅇㅅㅓㄴ -15674
▁ㅇㅗㅅㅈㅏㅇ -15675
▁ㅇㅑㅇㅅㅏㄴㅅㅣ -15676
▁ㅇㅕㅇㅈㅏ -15677
▁ㅈㅓㄱㅅㅓㄹ -15678
▁ㄷㅟㅅㄷㅏㅁㅎㅘ -15679
gen -15680
itz -15681
▁Jin -15682
▁ㄷㅗㅇㅌㅐ -15683
▁ㅇㅓㄹㅊㅜ -15684
▁ㅇㅞㄴㅁㅏㄴㅋㅡㅁ -15685
▁ㄱㅗㅇㄷㅓㄱ -15686
▁ㅎㅏㄱㄷㅗㅇ -15687
ㅈㅗㅇㄱㅣ -15688
▁ㄸㅓㄱㅎㅏ -15689
▁ㅋㅐㄴㅂㅓ -15690
▁ㅎㅏㄹㅇㅐ -15691
▁ㅅㅣㄴㄱㅕㅇㅈㅣㄹ -15692
▁ㅈㅓㄴㄹㅐ -15693
▁ㄷㅏㄴㅉㅏㄱ -15694
▁ㅂㅏㄱㅈㅓㅇㅅㅓㄱ -15695
▁SI -15696
▁ㅊㅓㄹㅍㅖ -15697
ㅇㅑㅇㅅㅣㄱ -15698
▁FK -15699
▁Fn -15700
ㄷㅓㅅ -15701
▁ㄱㅡㄱㅂㅣ -15702
▁ㅇㅕㅇㄱㅘ -15703
▁ㄷㅓㄴㅋㅓㄴ -15704
▁ㅂㅏㄱㅅㅡㅇ -15705
ITH -15706
▁384 -15707
▁RTS -15708
▁ㅁㅔㅂ -15709
▁Gate -15710
▁bad -15711
ㅍㅓㄴㅈㅣ -15712
▁CHAOS -15713
▁ㅁㅜㄴㅎㅏ -15714
▁ㅂㅜㄹㅎㅏㅂ -15715
▁ㅇㅕㄴㅇㅕㄴ -15716
▁1899 -15717
ㅇㅠㄱㄷㅐ -15718
▁ㅎㅡㄴㅋㅙ -15719
▁ㅇㅡㅁㅊㅣㅁ -15720
▁ㄷㅗㄱㄹㅣㅂㄱㅜㄴ -15721
▁ㄱㅣㅁㅅㅓㄴㅂㅣㄴ -15722
ident -15723
ㅇㅝㄴㅊㅏㄶ -15724
▁ㅈㅣㅂㅎㅐㅇㅈㅏ -15725
▁"~ -15726
▁SideM -15727
▁ㅇㅟㅅㅂㅜ -15728
▁ㅇㅏㅍㄱㅣㄹ -15729
ㄷㅏㅁㅇㅓㅄㅇㅣ -15730
▁Box -15731
▁Train -15732
▁ㅍㅜㅇㅈㅗㄱ -15733
▁ㅈㅏㅇㅁㅗ -15734
ㅅㅣㅂㅁㅏㄴ -15735
ㅇㅛㅇㅈㅜㄴ -15736
▁ㅊㅓㄴㅇㅣㄴ -15737
▁ㅈㅣㅂㅇㅏㄴㅇㅣㄹ -15738
anced -15739
▁Face -15740
ㄱㅡㅂㅂㅜ -15741
▁Cytus -15742
▁ㅇㅜㄹㄹㅏ -15743
▁ㄱㅕㅇㅍㅜㅁ -15744
▁ㅇㅏㅁㅇㅑㄱ -15745
▁ㅊㅏㄴㅂㅏㅂ -15746
▁ㅇㅕㅇㄴㅏㅁㄷㅐ -15747
▁Shoot -15748
▁ㅂㅏㄹㅇㅢ -15749
▁351 -15750
ㅎㅐㅇㄷㅐ -15751
▁Point -15752
▁ㅅㅣㅁㅅㅣ -15753
▁ㅉㅣㅂㅉㅣ -15754
ㅅㅣㄴㅈㅏㄱ -15755
▁ㅅㅏㅇㄱㅜㄱ -15756
▁ㅊㅓㄴㅊㅣㅇ -15757
[...]
