[PAD]
[UNK]
[BOS]
[EOS]
[CLS]
[SEP]
[MASK]
▁1
▁2
▁이
▁분
▁분류
▁20
▁(
으로
에서
▁사
▁있
▁대
▁19
▁그
▁3
▁아
▁시
▁제
▁수
▁지
▁-
▁201
▁가
▁기
이다
▁전
()
▁하
었다
▁한
▁선
▁정
▁4
▁200
▁일
▁다
▁중
20
▁있다
▁영
▁공
▁경
▁5
▁주
했다
▁자
▁유
▁인
▁역
▁미
하였
19
▁동
▁부
▁마
▁오
하는
▁보
▁위
▁조
▁것
▁스
▁6
▁연
▁소
▁나
국의
▁개
학교
되었다
▁고
▁모
▁10
▁출
▁국
▁등
▁7
▁*
▁의
▁도
하고
▁여
▁서
▁비
▁8
▁신
▁구
하였다
▁세
er
하여
▁프
▁발
▁상
▁S
▁9
▁0
▁후
한다
▁성
으며
in
an
▁방
▁해
▁남
▁대한
on
▁~
▁선수
▁교
에는
▁199
▁관
▁김
▁M
▁장
▁우
▁배
▁12
▁무
▁때
▁C
▁작
▁바
▁11
▁A
▁최
▁T
▁영화
▁노
▁문
▁있는
▁리
▁포
▁진
▁현
▁만
부터
▁축
▁내
▁어
▁"
▁통
00
▁강
▁원
ar
▁에
지만
▁않
▁결
▁거
▁로
▁파
에게
or
▁F
되어
en
▁18
스트
▁축구
▁또
▁라
까지
▁불
▁생
▁사람
▁당
▁알
▁안
at
▁설
al
▁B
된다
▁198
▁단
▁실
▁P
▁카
▁반
▁계
▁예
▁명
적인
▁없
▁)
▁차
▁대한민
es
▁같
201
:19
200
적으로
▁D
▁재
▁타
리아
▁()
▁코
▁음
▁요
▁데
▁K
▁일본
▁두
레이
이라
▁함
▁참
▁사용
▁감
▁말
▁따
▁승
▁15
▁프로
▁특
▁받
he
▁L
▁초
▁(19
▁종
▁#
▁올
면서
▁군
들이
▁16
▁게
▁박
에서는
되었
▁및
▁이후
▁더
▁운
▁한다
.0
▁베
▁매
하기
ic
하게
▁드
▁건
대한
▁독
▁피
is
▁양
▁추
년에
▁본
▁행
it
들은
▁태
▁호
▁I
▁R
▁G
▁외
),
▁화
▁입
▁평
▁경기
등학교
▁크
▁t
▁14
▁17
▁197
▁산
▁13
▁메
BS
▁임
았다
▁변
주의
▁H
▁미국
▁회
▁왕
▁형
으나
시아
였다
▁활
▁과
▁목
▁N
▁철
▁레
▁배우
▁번
▁한국
▁E
▁많
▁열
▁,
▁되었다
▁총
대한민
▁민
▁적
▁은
▁북
▁그는
▁야
▁그리
▁토
▁위해
▁각
le
▁196
▁학
는데
▁표
▁지역
▁시작
▁같은
▁브
이며
들의
▁달
▁국가
들어
▁편
▁청
▁W
▁대한민국
스의
▁함께
▁간
▁디
ion
▁o
re
▁때문
대한민국의
▁이름
▁출생
▁새
랜드
▁직
▁애
▁되
▁사이
▁O
ro
들을
▁서울
▁천
us
▁따라
▁물
▁처
▁저
라이
▁광
▁:
▁항
▁경우
▁속
하며
18
▁다른
10
▁삼
▁자신
▁집
▁금
▁세계
대학교
▁30
▁체
하다
▁U
라는
▁투
▁약
▁기록
21
▁합
▁또한
▁출신
▁존
▁그러
▁s
ol
▁버
▁게임
세기
el
▁현재
as
▁다음
▁작품
▁히
▁트
하지
▁of
▁/
▁법
▁순
▁복
▁195
도의
라고
▁플
▁J
▁194
▁.
▁황
ing
▁페
▁25
▁2010
라마
▁점
▁네
▁필
▁백
▁창
▁하나
▁심
il
▁2012
▁방송
▁조선
▁2014
▁판
▁확
▁패
▁월
am
▁(201
▁당시
▁여자
위원
▁그의
▁감독
이나
기도
▁클
▁루
▁가장
▁아이
▁팀
et
▁2008
▁치
.1
에도
▁때문에
▁살
▁사망
▁2013
▁언
▁뒤
▁첫
▁2011
ch
있는
om
▁충
▁된다
▁증
▁2015
되는
▁2009
▁것을
▁21
ou
▁(,
▁프랑
▁못
▁용
▁2016
▁남자
▁완
▁위치
▁또는
▁의해
-1
▁취
▁는
▁리그
and
▁참가
리스
이지
리그
이스
▁(200
▁시즌
▁준
이트
▁24
리는
▁것으로
기를
▁대한민국의
▁그러나
▁병
▁활동
▁2018
▁23
▁돌
▁있으며
▁했다
림픽
일에
▁2017
BC
▁22
기에
▁테
▁있었다
▁것이
미국의
▁V
▁할
▁2007
▁근
니아
▁설립
▁친
▁그리고
시의
▁통해
졸업
▁음악
▁동문
▁권
일본
000
▁손
는다
디오
리를
▁죽
▁쓰
ac
▁뉴
.2
졌다
▁채
지는
대로
▁철도
ed
▁정치
▁2006
▁28
▁26
▁아니
id
▁포함
▁들어
▁홍
▁캐
▁2019
회의
텔레
이라고
▁m
비전
▁27
▁높
했고
▁우승
▁올림픽
이션
▁d
▁하는
▁다시
▁허
▁연구
▁이상
▁키
아있는
▁많은
▁프로그
▁193
되고
▁졸업
ig
▁것이다
▁사회
하면서
▁드라마
▁가지
▁식
.5
▁29
▁육
▁독일
▁대해
▁제작
사를
▁대학
▁전쟁
▁국제
▁the
▁중국
▁2005
▁텔레
▁수상
살아있는
ent
▁와
▁러
▁**
▁모두
15
▁모든
스터
나라
▁있었
▁블
도로
▁일부
리카
로서
▁송
▁온
▁f
▁여러
하였고
▁대표
이었다
▁2020
▁폐
개의
▁텔레비전
▁길
통령
▁규
16
▁2004
km
▁윤
▁환
um
▁큰
px
▁검
▁정부
스는
학자
▁프로그램
▁p
▁역사
ad
un
이자
고등학교
▁KBS
▁문화
st
리에
이고
▁위한
.3
▁도시
▁날
17
장을
상을
보다
ur
▁홈
이라는
▁미국의
▁공식
란드
대의
▁처음
12
▁c
(),
▁b
14
▁이용
▁선거
리가
▁섬
되었고
▁걸
위를
▁농
▁100
▁대회
▁끝
▁별
▁슈
성을
▁하였다
ation
▁프랑스
▁엔
▁대통령
군의
이는
지를
▁영국
▁2000
▁앞
▁가능
▁알려
▁자신의
자가
이었
특별
▁석
▁니
▁있어
▁헤
▁일반
▁31
▁협
▁The
기의
▁음반
▁발매
-0
거나
FA
▁개발
년대
대표
▁싱
▁구성
▁골
50
:201
▁앨
위원회
▁존재
ot
▁볼
시에
▁사건
인의
▁폭
▁이루
▁2003
▁설치
스타
▁등의
iv
리즈
년부터
▁맞
▁2002
▁담
▁논
▁대학교
▁밀
▁문제
탈리아
력을
대학
호선
▁시간
▁귀
민주
▁극
프트
▁맡
▁좋
▁즉
▁스타
▁나타
▁향
▁지방
▁소속
▁접
했으며
▁이어
▁(199
30
ag
▁교육
▁잘
▁글
▁케
▁1,
▁라이
▁진행
.4
▁누
▁FC
▁발표
ter
▁결과
jp
▁사랑
로운
▁+
▁전투
▁동안
났다
▁것은
▁관련
jpg
버지
부분
▁공격
▁번째
▁봉
▁곡
▁행정
리의
광역
▁가수
▁자유
▁타이
▁TV
▁등이
▁월드
▁하지만
ay
▁커
ir
im
▁쿠
13
▁없다
문화
▁갖
▁막
▁효
우스
비아
:200
.6
기가
하면
초등학교
▁관계
▁되어
▁중앙
번째
년에는
▁곳
방송
자의
▁범
▁애니
로부터
▁탈
em
▁이전
).
▁중심
▁줄
.7
,000
도록
시키
▁책
▁변경
▁출연
▁하고
▁등장
남도
.8
▁밝
--
▁마이
.9
▁St
▁발견
os
▁최초
들과
▁2001
▁태어
(19
▁데이
▁머
▁노래
▁등을
▁and
센터
▁Y
th
ec
▁MBC
기는
▁진출
▁경제
▁이는
▁발생
▁운영
ul
▁in
▁절
▁주장
ia
사가
▁갈
▁이러
명의
▁암
되었으며
▁독립
od
▁면
▁아들
메이션
사의
서는
▁레이
ap
▁이러한
▁그녀
▁지정
▁192
op
로는
와의
▁쇼
▁난
▁최고
▁지원
월에
11
정을
▁--
에서도
어진
▁이를
머니
공화
▁로마
레스
▁기술
했던
▁얻
구의
▁참여
▁철도역
▁영향
▁유럽
▁질
▁일본의
년까지
(,
▁터
르크
성이
▁된
▁러시아
▁의미
▁혼
야마
들에게
가지
▁대부분
▁대전
▁다음과
▁부산
▁애니메이션
▁인해
▁----
▁뜻
▁기준
카이
▁스페
▁득
▁악
리스트
▁50
TV
▁이에
렸다
▁그룹
스를
▁울
▁국가대표
하였으며
스크
▁잡
자를
▁수도
▁교수
▁탄
▁생각
▁엘
ut
:199
ers
니다
▁급
▁폴
▁기업
▁1999
학과
광역시
▁새로운
▁콘
이드
▁부분
▁1998
▁시대
▁찾
▁일어
▁필요
다는
▁사실
▁같이
40
▁민주
선의
운드
▁고려
▁침
80
원의
▁결정
중학교
▁아버지
도를
60
▁다양
▁특히
▁데뷔
oc
-2
ow
자로
북도
▁형태
▁X
▁야구
▁측
르는
▁만들어
▁앨범
▁칼
▁벌
▁프리
▁l
스템
므로
다고
자는
▁학교
▁시리즈
▁싱글
▁정보
▁항공
시마
▁빌
▁여성
▁40
▁이탈리아
▁돌아
▁없는
▁1996
과의
▁업
나다
▁구조
▁해당
서울
스가
▁받았다
거리
▁넘
부의
▁성공
▁경상
▁운동
▁들
▁팔
▁인터
▁모습
대를
인이
▁받아
인민
▁상태
▁노선
▁n
▁v
▁기타
ist
▁작곡
잉글
▁딸
▁브라
▁국민
학급
▁좌
▁컴
ov
▁위원
식을
25
▁190
처럼
버스
▁을
명을
으로서
▁이것
다가
피언
▁있고
▁현대
자인
기로
가와
▁이야
▁후보
▁운행
▁In
▁있던
▁워
▁1995
▁계속
▁잠
▁공동
▁헌
▁w
▁중요
▁1997
장이
운동
ce
▁매우
▁바이
요일
▁국가대표팀
▁가지고
일본의
▁주로
해서
▁뮤
에서의
되지
▁눈
ra
▁다이
연구
▁얼
▁SBS
쪽으로
▁마지
리오
▁플레이
잉글랜드
▁Ch
▁만들
영화
▁이유
▁생산
▁힘
ie
70
▁a
▁챔
명이
▁않았다
전을
▁내용
원전
48
og
▁조직
:20
페이지
교육
어로
▁배경
▁빠
▁역할
경기
▁소재
▁도쿄
▁떠
▁주요
art
2)
▁둘
네일
▁퍼
한국
드는
▁엄
수의
▁개최
▁건축
▁제공
▁1990
▁몇
르트
▁녹
▁인구
간의
▁아니라
▁FI
▁&
▁특별
▁챔피언
▁전체
▁상대
도가
▁마지막
▁출전
로스
왔다
▁몸
▁맥
▁결국
▁희
포츠
▁외국
23
▁티
▁계획
24
했지만
▁거주
리지
▁공화
▁않고
▁아래
▁능
▁풍
▁차지
▁월드컵
원을
▁않는다
일부터
성의
▁교통
89
운데
하자
음을
▁인물
시간
▁묘
프리카
▁떨
하기도
사로
동차
▁홈페이지
▁웹
▁열린
▁1994
▁모델
▁웨
▁관한
▁이미
스코
권을
ill
.)
▁밴
▁많이
화를
수를
나는
진다
▁콜
▁위치한
▁방법
▁소설
사는
▁추가
▁비고
▁아르
▁시스템
▁격
트로
▁방면
리고
▁결혼
인민공화
▁지하
▁몰
▁구간
장으로
▁하계
ess
냈다
▁연결
▁를
ri
▁휴
▁목록
▁응
35
▁어머니
▁샤
▁오스트
▁어린
▁유명
▁푸
사관
▁사업
▁하여
특별시
▁가운데
모토
igh
▁따르
가는
▁인도
달리스트
▁전국
▁한편
▁경기도
비스
점을
▁표현
▁다양한
▁2021
▁폐지
▁붙
,5
86
▁32
▁각각
▁189
▁공개
▁겸
▁대구
45
됐다
▁FIFA
▁슬
상의
으로써
▁보고
▁1992
▁같다
est
1)
ak
▁앤
▁너
하던
주시
▁나라
으로부터
▁생활
스탄
85
▁인천
러스
ine
▁기능
▁인정
했으나
이가
ab
▁1993
:18
▁유지
22
부에
▁높은
if
▁작은
▁먹
▁전라
원이
▁관리
ard
▁그리스
였던
인다
▁대신
제로
이의
▁뛰
전에
사카
▁거의
▁벨
▁35
▁언어
▁과정
력이
▁제국
▁시절
▁아시
▁않은
장은
87
▁남아
하려
▁정의
▁대상
▁지금
▁기간
촬영
▁오브
▁이동
37
▁임명
▁옥
이어
지의
▁직접
▁밤
▁이름을
36
▁취임
▁학생
ang
▁보여
▁배경으로
▁도로
▁작가
▁순위
수가
▁=
▁성우
▁명칭
▁지도
자와
26
27
ct
▁자연
나이
▁되는
▁경찰
군은
▁개인
▁색
▁압
▁상황
▁g
▁윌
도는
▁이루어
▁1991
84
일의
▁긴
all
▁e
▁k
해야
지에
▁선정
▁지구
선거
▁빈
▁훈
▁연도
▁평가
▁건물
사에
▁활약
드리
▁영향을
av
▁60
지고
▁편성
▁후에
세의
▁우리
있다
▁크리스
▁나오
웨어
29
장의
▁따라서
스로
▁1980
▁고등학교
▁느
▁싸
▁건설
인을
스와
▁본선
▁승강
▁않는
제를
▁갑
▁수록
대에
으로는
▁알려져
었고
▁탐
▁낮
ity
▁서로
▁촬영
ell
▁망
47
▁정치인
▁전문
군이
▁핵
트리
▁정당
▁..
▁방식
제가
▁예선
▁따르면
▁완전
▁개교
철도
▁그래
39
▁가족
린다
▁판매
▁그것
▁1988
▁슈퍼
년도
퓨터
먼트
시켰
▁친구
▁제외
▁노동
▁충청
프랑
▁기본
▁계약
▁...
2,
카와
지로
46
▁?
▁통합
▁퇴
부를
▁혹
▁동시에
ep
▁이사
위에
▁만든
하라
치는
▁기념
전에서
민주당
ng
75
독교
83
▁36
▁공연
▁과학
▁2,
▁탑
지방
단의
▁1987
▁스포츠
▁히로
▁정도
▁클럽
49
▁그가
▁연합
지가
▁마을
레일
기관
갔다
▁원래
▁군사
▁않았
▁이론
원으로
미디
▁동물
일까지
바이
▁인간
ub
▁1989
드의
ight
치를
▁발전
nd
▁육군
▁외국인
▁이적
▁출시
FC
▁여객
▁센
▁비디오
▁있는데
76
멤버
▁데이터
▁도입
▁가진
▁궁
▁역시
제의
▁착
▁아닌
▁낙
▁단체
른다
▁덕
드로
계를
▁중화
▁나가
▁실시
ip
▁국회의
▁솔
대회
크로
ong
▁베이
▁h
들에
▁뿐
▁비롯
90
▁연극
여자
섬네일
ST
▁일으
▁공간
스키
프로
▁야마
▁어떤
드라마
▁윈
정보
88
과학
1,
▁평균
▁민족
▁전기
▁최종
▁크게
▁놓
인은
▁제목
대가
사와
▁기관
정부
문을
자리
▁거쳐
▁33
주는
▁풀
▁말한다
▁중요한
▁사고
▁혁
▁팬
▁차량
되면서
▁보통
나무
ian
▁요구
장에
▁요시
임을
▁70
▁라디오
축구
EFA
▁뉴욕
스티
▁기원전
▁의한
오카
▁삼성
메리카
ae
▁담당
▁사이에
어를
원은
▁정책
79
▁광주
▁반대
ud
트의
▁연기
3)
▁기반
▁사진
스카
스테
▁환경
ob
▁사무
▁형성
소를
▁멤버
베이
▁우주
▁34
▁연속
ith
▁최초의
▁옮
▁염
▁개의
이를
65
▁수행
스턴
▁견
▁숙
일랜드
▁위하여
▁태어났다
▁산업
▁컨
▁하였
▁바로
서관
▁캐나다
▁45
▁국도
▁홀
장에서
ue
▁소프트
▁연주
하지만
이었던
덜란드
사업
▁있을
▁컴퓨터
▁전통
▁찾아
국민
수로
▁승리
트남
▁기존
▁이르
28
▁되고
34
▁1986
▁시작했다
▁최대
소년
▁마르
▁처음으로
▁여기
▁메이
▁결승
▁서울특별시
▁과거
our
▁열차
▁아시안
67
리아의
▁특징
명은
▁아시아
ort
▁달리
▁지나
▁보호
ant
▁역임
▁국내
▁역할을
드를
ew
▁만화
▁개통
트를
▁하이
▁초기
라인
▁런
군을
▁1985
▁1970
mm
부는
64
(200
라스
▁경기에서
중에
▁방향
:00
대는
하였으나
▁de
하는데
지털
▁연방
되며
공항
78
▁액
▁류
▁획
▁흑
up
▁국립
▁80
이기도
격을
▁적용
▁실패
▁혹은
▁피해
▁***
조선
▁될
▁종교
▁이야기
▁먼
서를
▁스페인
회를
▁Z
지역
▁비슷
정한
▁선발
▁칸
기술
▁익
▁오늘
▁부문
▁비판
▁선택
▁있다고
▁km
▁교황
69
사키
▁Al
▁사상
▁Q
▁주인
▁하며
▁방영
▁지휘
▁조지
마다
수는
▁이와
▁차트
체의
▁맨
▁꽃
▁그림
▁대하여
시대
물을
리와
시코
▁주변
년의
▁소련
▁초대
33
▁옛
혔다
▁1984
▁기독교
▁모양
▁어느
▁돈
하이
▁Th
라의
55
ive
KBS
▁확인
▁라는
▁씨
▁영어
68
▁부르
차로
▁설명
▁유일
▁덴
▁쌍
▁교장
동을
적을
속도로
▁헬
▁잔
으면
관리
ev
나의
▁이때
▁으로
..
▁이끌
▁39
이치
▁나이
▁입학
▁없이
사회
-19
▁몽
."
▁예정
베르
ack
▁받은
했는데
어는
▁비교
토리
동안
▁괴
▁록
우승
▁작업
▁분리
루스
웨이
74
과는
▁다카
조의
▁미술
▁예술
,0
▁흥
협회
▁잉글랜드
▁버전
▁아카
▁불가
▁밖
▁자기
rom
사이
ne
▁보내
예술
▁유니
cm
▁흔
▁표준
▁좋은
ran
▁좋아
ER
▁미국인
▁추정
의를
체를
▁스테
위로
▁마음
리학
▁빅
선을
▁겨
ry
▁프로젝
▁변화
▁디지털
라도
▁자신이
▁개시
사이트
▁강원
구역
▁떨어
톨릭
32
라운드
지원
성은
▁해외
ok
▁공항
르게
니스
하거나
쪽에
불어
▁형식
38
호를
▁아나
▁지배
▁1983
호로
▁상당
대상
▁태양
▁하루
▁일반적으로
▁아키
▁징
▁대체
정에
▁메달리스트
▁그를
스케
인민공화국
▁정규
▁후지
,9
(201
▁라고
나가
▁to
▁알렉
▁조사
▁규모
도우
▁늘
릭터
▁의원
▁UEFA
물관
ain
▁받고
▁증가
▁가까
▁이다
▁개업
▁명의
▁넓
▁시청
민주주의
웨덴
부르크
▁당선
▁중심으로
무를
▁받았
▁포르
무라
CA
▁시민
▁제주
▁1982
▁땅
리포
종의
▁시설
▁37
메이
▁있다는
▁휘
▁38
일을
▁획득
ON
▁문학
31
▁후반
▁자료
▁전자
▁1960
▁왜
▁에서
▁채널
io
군에
이지만
배우
아의
66
▁있지만
ib
▁엔진
▁II
▁소프트웨어
▁거주한
▁득점
▁뛰어
▁올라
스페
▁출판
▁이것은
▁분야
움을
▁Ar
▁프로듀
▁몬
▁넣
▁곧
포르
쳤다
59
정의
▁브라질
▁1981
ord
개월
▁동일
▁국회의원
▁이상의
워드
시즌
▁승격
▁밴드
ex
▁지지
워크
어가
시켰다
당의
77
▁아프리카
호는
인트
NA
▁소유
회사
4)
▁활동을
리로
▁칭
eg
▁잃
81
단을
▁뮤직
▁가리
▁캐릭터
메달
eb
▁후쿠
▁건축물
ff
▁준우승
▁때문이다
▁개봉
상이
멕시코
▁수상자
▁그녀는
▁종류
▁되었고
▁지하철
▁지상
▁칠
▁영국의
▁흐
▁조건
57
82
▁하다
▁유로
동에
.01
▁페르
▁for
치가
▁선수권
계의
▁더불어
▁바탕
스에
▁초등학교
▁Sp
ens
▁회사
ea
▁마사
어의
도에
체가
▁개념
은행
▁종합
기와
.07
대전
▁이런
▁핀
▁경영
ich
▁언론
했다고
▁최초로
▁이름은
▁파이
버트
▁프레
ast
▁벤
했을
▁공화국
▁두고
56
▁그린
연합
시킨
공사
▁있어서
▁찬
문학
▁식물
▁Un
교회
▁등에
세가
렇게
원에
▁1979
심을
▁on
▁아마
부가
▁효과
▁꿈
학년
▁북한
▁아내
▁이해
▁선출
스토
▁자동차
면에
▁정신
▁울산
▁사라
▁빛
▁네덜란드
▁영화이다
체육
▁보인다
▁관할
▁에이
▁센터
ert
ial
▁걸쳐
학생
-3
▁주민
▁가톨릭
▁펜
▁스트
▁앙
로나
성과
end
▁내려
▁서비스
시켜
▁오사카
난다
사단
문화재
▁모습을
The
58
▁명령
로의
▁베트남
세이
44
▁육상
▁통과
▁부족
▁비밀
▁케이
중앙
▁특수
정이
대한민국
:0
제는
▁공산
▁군인
프리
▁윌리
▁에너
ik
▁입단
▁An
테인
▁비행
▁뉴스
▁여름
▁1950
.03
겼다
리그의
ect
▁종료
▁최근
습니다
미국
시아의
▁하지
▁움
▁없었다
▁런던
렀다
▁헌법
▁조약
▁전에
:21
▁장관
▁구역
성에
▁구분
54
ont
▁엘리
▁어려
현의
▁선언
ge
73
▁교회
▁동생
▁대부분의
▁인터넷
PG
▁멀
▁강화
▁디자인
▁소비
세는
▁소재로
▁(20
▁구단
▁스튜
우수
ate
▁Sh
▁(1
▁기준으로
소가
▁스위
ary
마크
모리
▁90
▁Pro
▁자리
▁캠
▁제품
▁주연
년간
지션
BO
시키는
세를
▁등으로
가의
▁법률
▁오후
▁목표
시로
산업
트는
▁맺
▁폴란드
▁유형
▁나카
일에는
▁언급
▁오른
▁유사
72
구를
▁설립된
다이
▁나온
ust
임스
▁더욱
▁놀
71
▁명예
▁제한
피아
qu
적이
되었으나
▁제조
▁이유로
▁요리
▁품
▁바르
▁소개
▁영업
▁배우이다
▁깊
▁반응
▁에피
▁이름으로
63
디아
▁있었던
▁1973
43
부로
적은
▁경상북도
▁있게
▁55
▁웹사이트
▁은퇴
▁개칭
▁싶
▁실제
ory
한다는
데미
명으로
▁실험
▁분석
▁작사
키는
▁지속
▁지정되었다
▁믿
▁기획
▁편입
▁쓴
아이
▁여행
구에
ass
▁대중
▁1945
캘리포
▁코미디
▁확장
▁술
내는
주를
원에서
eat
해의
▁주인공
터테인
하도록
42
만을
비를
년을
▁고대
경제
치고
이란
▁베이스
▁알고
▁가문
▁Pr
▁종목
▁네이
ure
▁만나
▁경상남도
▁사용하는
▁49
▁설계
인가
▁계열
트워크
그룹
▁불구
캘리포니아
▁합계
철도의
▁프랑스의
▁1974
만이
ld
니어
41
▁부여
▁깨
▁3,
전자
▁혈
▁밝혔다
▁결성
지지
터테인먼트
소의
▁미래
▁승강장
▁통일
▁1978
이탈리아
AR
▁하나의
▁방문
▁널
▁아직
▁re
▁드러
▁그런
▁1972
차전
▁십
age
▁졸업식
▁신설
▁것이라고
▁st
함으로써
▁부인
ly
나라의
▁타이틀
▁블랙
▁블루
▁맡았다
uc
▁표시
▁그들의
▁점령
▁독일의
▁윌리엄
어서
▁at
자들은
▁끌
▁Com
평양
62
▁자주
▁나무
▁r
51
르의
▁황제
나미
▁현재의
▁숨
61
▁예를
데이
▁외교
로드
미야
리어
▁오스트레일
성군
▁올랐
▁춘
▁현재는
98
라노
hy
인으로
▁클래
▁우수
▁문화재
▁포함한
월부터
ey
▁하나이다
화가
르고
▁수용
▁물리
5)
▁시행
하마
▁로스
▁성장
레이션
자치
▁투수
금을
52
▁자치
▁중학교
▁말했다
시오
▁미사
▁바다
웠다
타이
지컬
ies
데스
의회
▁사이의
하의
▁당원
53
인데
▁사람이
▁연장
▁베르
▁움직
학적
AN
도시
투갈
미널
▁수비
6)
법을
천시
▁잇
골을
MBC
▁않아
었으며
▁세이
▁by
▁1971
▁일원
영어
▁멜
▁김영
▁국회
▁위에
ond
티아
기업
▁국제공항
티드
▁스웨덴
man
▁치료
▁정식
우리
코드
으므로
▁경험
롯데
▁위험
관은
▁지역의
▁정확
부문
▁1975
▁곤
조선의
디어
▁세포
▁집합
▁제국의
▁르
▁번역
▁배치
▁가르
ite
▁에피소
▁거두
▁시티
▁것에
▁알려진
OS
▁해군
▁바람
▁이곳
▁출장
▁발행
산시
자들이
▁중에
법인
▁48
▁공작
▁접근
▁카를
되기
▁사이트
▁불구하고
ide
▁1976
▁고양
▁폰
▁라이브
oh
▁불교
상에
▁의하여
▁남부
▁득표
▁달러
▁패배
▁버스
▁42
▁게이
국제
▁성격
요시
▁파리
▁살아
▁델
쿠라
▁아무
▁파괴
▁자동
▁정도로
브라
▁투표
~19
없이
▁1.
계에
▁등록
▁요청
▁이듬
감을
▁유래
▁이들은
▁봄
▁비해
▁성립
▁바뀌
▁제안
▁빨
점이
▁펼
간다
위의
▁최우수
▁세워
▁글로
인지
▁결합
▁남편
.12
▁프로듀서
▁편집
▁갖고
▁민주당
▁개편
▁복귀
들로
형을
정은
▁불리
▁지진
▁나머
ove
▁오리
▁아사
역을
▁제시
▁각본
▁LG
신을
▁엑
▁때까지
▁습
▁44
7)
단에
오프
식이
▁수준
남도의
▁추진
▁행동
▁삶
산을
▁의사
▁왕국
▁CD
▁스코
항공
▁마찬
▁경쟁
▁기여
▁조각
▁피아
▁회장
▁가능하다
직을
▁신인
▁1968
▁크로
▁쉽
▁잭
▁조성
▁그대로
▁마리
▁마찬가지
래프트
▁수원
▁중단
개발
티브
▁지난
라우
▁차례
▁작곡가
▁지명
소리
▁음악가
▁보유
▁500
▁1969
▁강력
▁43
▁촌
▁포지션
▁노르
▁이듬해
법원
상으로
▁촉
▁오래
▁대수
iz
주로
월에는
▁임시
▁오늘날
▁그녀의
▁짧
▁아침
체는
로그
▁완전히
▁있도록
▁궤
▁죽은
▁주의
▁박사
▁범죄
▁하나로
▁프로젝트
▁1977
▁왼
▁존재한다
ark
▁변호
▁전해
▁멸
▁1963
▁스스로
헝가
▁밝혀
나고
▁젊
▁특정
▁아일랜드
▁You
▁선수이다
▁선수로
다운
ish
IN
▁영토
상은
와는
▁시기
지에서
▁우승을
헨티
교통
▁보이
ug
▁SK
▁150
▁300
▁시험
관을
▁미상
▁전반
▁전라남도
▁이로
▁바탕으로
스에서
틀랜드
▁Bl
화의
낸다
마이
▁필리
▁꼬
▁교체
.06
시티
▁그들은
물의
▁회원
었던
AT
▁관광
▁처리
95
▁신문
▁네트워크
감독
셔널
.02
▁선생
▁링
▁널리
ace
▁중간
▁뇌
▁해결
마스
▁헨
▁기자
▁등과
경찰
▁부임
▁셀
▁상호
▁먼저
▁못했다
▁달성
고를
▁여겨
전의
▁발사
▁베스트
지도
만의
▁탈락
▁에드
즈의
▁41
▁상징
학을
프랑스의
▁의회
가를
▁기초
▁벽
SS
사무
▁제도
▁사용한다
ical
▁많다
▁천황
▁겨울
▁일제
▁린
보드
▁이주
▁홍콩
▁다니
일러
▁한국의
인민공화국의
▁흡
통신
▁속하는
▁국왕
무원
ind
선수
▁이승
ational
위가
▁들어가
▁제임스
자료
▁읽
▁합병
▁통산
▁년
▁스피
출연
▁없음
ment
면을
선이
▁식민
▁재판
▁1967
▁혜
▁윈도우
,6
▁최고의
▁가져
▁이스
▁유나이
(18
▁훈련
▁에어
▁건강
▁동계
▁알렉산
com
▁아름
▁청소년
규모
ph
▁원작
세계
▁근처
▁미니
▁%
ence
96
▁되었
▁장애
음악
파트
▁과정에서
▁비롯한
▁켄
▁개혁
▁사람들이
▁01
들도
일보
부산
▁물질
▁컬
이사
후의
▁생성
▁유명한
부장
▁멕시코
▁가정
▁내각
▁연출
▁즐
ear
▁해석
▁이외
▁강점
▁듀
로를
▁뮤지컬
▁체결
아시아
시설
ivers
▁안전
▁마쓰
시장
▁준공
▁파일
▁장소
(1
▁마드리
.10
받았다
천군
구가
▁에피소드
▁높이
▁단순
▁찰
력은
지게
▁상대로
▁때는
▁만에
▁발달
92
▁샌
▁경우가
▁보컬
▁금지
메리
인과
생활
▁강원도
ore
신의
▁46
러운
▁않다
▁대응
▁롯데
마트
▁스튜디오
▁스파
▁일을
위는
▁표기
▁공립
▁살해
기간
▁사용할
.11
mer
마을
▁도착
식의
▁부모
▁작용
지와
▁다르
▁전철
아가
▁던
경을
▁기록했다
ver
▁from
▁북부
ber
▁내부
▁붕
▁엔터테인먼트
민족
▁따른
▁1966
오는
▁꾸
▁방어
▁바꾸
▁유리
미터
oy
▁조선민주주의
우는
주의자
▁부정
▁있으나
▁보다
▁준비
▁1964
▁지역에
▁오스트리아
▁소녀
▁국방
▁혁명
▁47
동생
.5%
▁시대의
량이
▁1962
▁안정
우주
▁해안
▁팀의
▁맹
▁평화
▁전환
▁활용
하다가
▁적이
▁값
바라
트가
▁어린이
▁비슷한
▁죄
▁마이크로
▁x
▁반란
▁녹음
성우
3,
게임
▁나는
플레이
▁킹
미어
▁동부
▁군주
▁논란
▁파견
▁억
▁이란
▁Cl
▁기사
함을
▁세종
사령
▁다만
▁완성
▁64
▁전설
되기도
",
ile
▁역대
▁목적으로
94
▁경기장
▁이라는
▁180
▁시도
8)
▁둔
▁얼굴
▁Re
한다고
▁거부
▁완공
▁i
▁마찬가지로
단체
▁여기서
▁충청남도
▁불리는
준다
▁귀족
영국의
▁교차로
▁인수
▁납
시는
AM
▁래
▁남쪽
▁겪
...
ire
▁수영
자에
공업
▁듣
공원
많은
▁동맹
▁주도
orm
▁대륙
정책
저우
싱턴
히로
▁선거구
▁이집
▁댄
▁객
.3%
▁이시
구치
▁지냈다
▁(2009
단이
▁끝에
▁인한
하기로
aw
▁이들
▁아카데미
카이도
OR
▁에스
▁전주
운서
▁극장
.2%
und
▁하늘
▁레드
▁전시
▁근무
97
▁혐
▁미국에서
대학원
ice
소는
▁관련된
.4%
화된
메달리스트
▁굴
고속도로
과에
▁통치
te
.1%
SBS
▁가입
▁형사
▁김정
▁체포
라이나
▁셰
▁너무
▁가는
졌고
▁남북
▁왕조
자유
▁거리
AC
▁가능한
▁요코
국이
▁회의
▁새로
▁서부
현재
▁중국의
kg
자이
▁보수
▁1965
▁중에서
▁==
▁미드
행정
▁이름이
▁전달
ss
▁y
▁기억
▁모리
▁인구는
▁필요한
▁북쪽
▁위해서
▁못한
려고
나카
▁홈런
주교
했다는
.8%
▁협력
▁형태로
구는
량을
▁보존
.6%
에르
▁문서
드가
독일의
EC
▁것과
장과
▁오스트레일리아
브리
nt
유럽
▁친일
라비아
▁(2010
▁인민
,7
▁인디
▁규정
▁보도
▁츠
로로
▁위의
▁오르
▁강한
크의
.0%
▁트리
▁마이클
▁1948
▁소년
라엘
▁묘사
.9%
▁1961
-4
ost
▁관측
▁네이버
▁젊은
▁은행
▁밑
iss
▁부른다
ood
▁분포
▁수많은
하였는데
▁아나운서
▁것이었다
▁검은
▁미야
▁낳
▁대해서
.05
▁즉위
IA
.7%
▁대사
▁간의
▁오픈
▁항상
관이
▁이렇게
점으로
▁Sc
▁최소
메라
▁나머지
▁실행
군과
젤레스
3.
기원전
▁구성되어
99
▁다루
▁말을
▁코치
▁안에
▁출신의
▁유나이티드
▁New
하나
▁근거
▁전략
아르
▁작전
▁롤
명한
▁동료
케이
▁마리아
▁아우
들목
유키
▁옆
▁길이
왕의
형의
▁소장
▁벗
시를
중국
▁빼
▁유일한
ah
대와
▁경우에는
전쟁
인물
▁120
▁1949
테르
▁본래
치원
▁영역
▁매주
▁Pl
▁동쪽
▁이루어진
▁나들목
▁없어
▁있기
▁얼마
자키
단은
비드
자이다
IC
부인
▁쉬
▁51
으면서
▁남성
▁챔피언스
▁시인
소프트
▁오스
▁작성
▁만약
act
▁52
▁기계
▁생물
▁베네
▁경기를
레인
가로
JPG
AS
았고
▁제이
tern
▁포르투갈
:17
▁출발
북도의
▁감독의
▁75
▁연맹
▁아메리카
▁그렇
치의
▁율
▁일어나
her
▁니시
▁기재
▁아니다
▁개업한
▁뒷
▁사용된다
였고
▁1946
▁1954
롭게
olog
▁있지
▁계승
▁54
▁시작하였다
▁의하면
▁1958
▁인근
▁엄마
▁쌓
ee
▁대표적인
두고
시리즈
▁자이
▁터키
▁각종
▁구축
내고
▁컵
국유
▁함수
▁서식
93
ork
▁신라
▁제거
▁닛
orld
▁합류
▁냉
▁중의
▁정리
vN
▁떠나
▁제기
▁지역에서
-10
▁공포
▁브랜드
▁조정
사건
▁못하고
ix
▁충돌
▁떨어진
로가
르타
▁통신
력의
▁이번
▁인가
▁타카
권의
▁전용
만에
오스트
프가
▁일어난
▁이슬
▁지역을
▁편곡
공의
분에
세대
▁전차
▁음력
▁사령
분을
리트
본부
월까지
▁챔피언십
대구
리기
사에서
▁있었고
도와
▁그레이
▁(2
노동
이기
▁옮겨
평가
▁대해서는
안을
01
▁서쪽
▁1:
▁개정
▁좀
▁것도
▁나누
▁문자
▁유도
가타
어나
▁죽음
앤젤레스
ock
상과
▁뒤에
니아의
▁지적
▁선의
▁해체
▁세르
▁온라인
sv
▁with
산의
▁맛
시가
▁이라
점에서
▁사이에서
붉은
제국
▁낮은
▁픽
▁사망하였다
▁콩
▁상업
IV
전문
체국
▁학사
였으며
▁흰
ction
▁교토
▁촬영한
▁아이돌
:2010
▁유대
▁김성
▁인식
버그
이즈
▁그려
ick
트라
▁시장
▁대학원
▁오전
▁IS
학회
▁넘어
▁이라고
메리칸
▁척
▁검사
▁홍보
▁섬네일
▁몇몇
II
▁로버트
교도
▁Me
스크바
▁물론
▁겐
▁56
작용
기고
지마
잉글랜드의
▁참전
▁의견
▁1940
▁2.
더스
호가
az
▁승점
국민학교
▁감소
▁수학
라이언
▁보여주
▁정상
▁1955
▁제외한
▁직후
가이다
를린
,3
전이
화에
▁이래
▁숲
역으로
▁솔로
선거구
▁경계
키아
▁태풍
▁th
연상
▁탄생
▁힐
▁방송국
▁의미한다
력으로
.09
캐나다
▁전사
▁주목
▁협회
아버지
▁계산
▁알아
ft
▁옹
per
▁프란
▁사실을
▁가까운
해졌다
▁끼
추어
▁베이징
▁FA
▁승차
아프리카
전히
도르
비가
주에서
▁펠
▁호텔
경상
시키고
에게는
▁문제를
▁공급
▁마법
▁Part
성으로
▁일이
되자
▁My
▁설정
▁제작된
▁관계를
▁하기
▁플로
ern
타로
▁장군
하에
관으로
▁도서관
▁숫
▁히데
▁트랙
▁(2015
▁주어
▁1941
당은
▁제정
▁Love
되었던
기획
류의
▁만들었다
91
▁Mar
▁문제가
▁태평양
▁핀란드
▁플랫
svg
▁이용하여
▁시내
2.
▁허용
▁덴마크
▁조별
▁썼
ung
▁주식
▁스페셜
▁확대
▁엠
선은
▁만드는
▁서울대학교
▁갤
나와
▁자체
son
권이
▁주는
세에
가시
코의
▁65
▁수가
▁탑재
▁수정
비치
▁박정
▁재직
▁불린다
rop
Hz
▁어떻
▁이재
▁(2014
.04
산군
▁책임
문에
▁필리핀
▁정부는
▁아르헨티
▁단계
▁1930
sh
사인
리노
▁농구
메달을
▁53
▁광고
소에
실을
▁1956
▁텍
즈키
정치
▁신경
ann
복지
▁농업
▁집단
▁오토
터리
▁사용하여
▁Tr
▁레코드
▁(2013
조를
▁실제로
▁기능을
▁고향
▁400
▁골든
종합
▁곳에
▁선고
▁전라북도
▁수는
량의
▁시나
▁캘리포니아
과를
St
▁나중에
▁업무
▁1959
서트
개를
▁취급
▁불러
one
▁라인
병원
)(
▁집중
▁플레이오프
▁마크
▁분쟁
석을
▁스미
량은
서로
▁건너
▁AFC
식은
pt
▁서비
▁자신을
▁팝
▁만들어진
해를
적이고
▁박물관
ll
▁사람은
▁마드리드
▁*19
▁연예
▁총선
▁살인
퍼드
▁영화배우
신이
에이
▁스티
▁둘러
▁무장
▁평양
▁다섯
▁기존의
▁1944
▁저장
▁토론
▁(2011
▁무렵
▁(2012
▁카이
▁개선
▁주었다
▁미디어
바르
▁기록을
의로
▁애플
▁닥
의의
▁사는
▁부근
▁마련
동으로
▁통하여
-20
▁워싱턴
주군
▁행복
▁Br
▁어떻게
▁헤이
시스
▁인사
▁반면
▁피아노
▁민간
▁고정
▁화학
▁판단
▁스크
▁메이저
▁러브
▁낭
로마
▁붕괴
▁Ph
▁쪽
▁폭발
▁소방
▁톰
ica
▁고등
▁****
▁정부의
소수
In
,8
▁그래서
올림픽
▁Univers
-200
▁짐
▁김종
▁황금
사전
▁시각
광역시의
▁하드
▁삭
연구소
▁(2016
자동차
▁정치적
▁인생
(2
리나
▁Con
,4
연대
고로
▁나타나
네스
▁족
▁저항
▁되었으며
▁::
관계
물이
도쿄
▁US
▁1920
도서관
▁원자
▁올랐다
▁니콜
Ch
세포
▁부산광역시
가가
▁형제
교의
▁영상
키스탄
적으로는
질을
▁성인
리케
▁올해의
역이다
구로
학의
같은
▁대회에서
▁헝가
▁생활을
▁붉은
▁체계
▁보면
박물관
▁Col
구려
▁감염
▁홋
▁왔다
▁둥
▁(2008
기념
▁하자
▁유엔
▁이후에
▁공공
까지의
IS
타카
▁노력
호의
하시
ult
▁강조
▁끊
▁중화인민공화국
▁킬
일은
▁노부
안전
▁인하여
인도
▁1952
▁일반적인
▁청년
▁전투에서
▁출입
▁플랫폼
▁수립
▁경주
▁관찰
▁올리
VD
▁코파
아일랜드
▁트로
▁코드
했기
▁사회적
▁무역
쪽으로는
지기
▁머리
▁있었지만
ime
행을
▁장기
▁탁
▁나폴
▁NH
▁이스라엘
종이
▁루이
네시아
(15
▁위원회
우드
▁사용되는
레이드
자들의
▁구조를
EN
슈타
고등
▁FM
이던
int
지사
▁카드
▁관료
▁무기
▁모스크바
▁시청률
▁적극
▁(18
▁랭
▁힘을
▁확보
주가
▁인터뷰
면의
▁57
▁사용한
▁정보를
▁계약을
▁공유
BA
▁섭
▁쉽게
▁플라
졌으며
▁확정
▁밖에
소로
▁여전히
위원장
▁합격
▁대형
카고
중국의
▁이슬람
▁지리
프레
▁(2007
▁1951
▁포항
고속
테네
▁PC
▁이정
당한
▁유형문화재
질의
▁공격을
▁중화민
▁위치하고
밖에
ook
▁고속
조가
▁정착
▁몽골
입니다
▁58
▁액션
▁주말
▁하게
use
▁증거
▁위치해
▁He
프의
▁1000
▁이성
진을
▁렌
▁유키
보다는
ai
▁등장하는
▁왔
▁뿐만
▁원년
킨다
▁원정
파의
▁욕
동의
관의
▁충분
대신
▁아오
100
로도
▁시작한
▁곽
▁금융
▁장착
▁한나라
▁잠시
▁1938
▁공군
▁1953
ach
고려
▁털
▁1947
이와
당이
니는
▁사람의
머스
▁숭
받은
▁답
프는
부와
당을
조사
▁기후
▁사장
▁암살
▁태어난
▁장치
▁수여
▁듯
▁De
대에서
자에게
▁이루어져
국은
▁균
▁희망
ohn
▁스토
면이
▁채택
pl
▁강력한
하다고
TBC
경의
.08
연맹
▁한국어
▁쇠
▁사회주의
대사관
▁자리를
▁드래
시대의
▁나오는
)"
비의
▁프리미어
▁아주
▁1957
사랑
▁방식으로
▁에너지
ign
오리
▁흘
년대에
동이
▁창원
베이스
▁단편
▁챔피언스리그
▁행사
▁만족
▁발표했다
ics
로서의
네이
끄는
산리
조합
▁잘못
▁총리
▁Sch
▁불가능
▁부활
받아
인들이
단으로
▁여객철도
▁자격
▁한정
▁당시의
페라
▁옷
▁위협
력과
▁목적
▁체육
ier
▁전개
업을
비시
▁행성
▁측정
▁뛰어난
▁가격
▁그곳
▁묻
▁않을
▁재정
▁타고
▁찍
se
레나
문이
▁미드필
FM
▁유전
인천
▁석사
▁해방
론을
▁짓
리즘
▁===
▁라틴
시와
▁(2006
▁회복
았으며
타마
▁저녁
년과
노스
▁국무
▁받아들
IT
▁건국
▁루이스
▁요한
▁분할
▁수입
어도
소설
질랜드
ital
▁다운
▁통한
니의
▁도움
(16
▁아버
▁경향
부에서
▁미드필더
▁창설
▁조금
▁란
되었는데
are
▁조선민주주의인민공화국
▁보물
약을
마의
부작
▁하면서
▁아라
▁스탠
▁받는
▁종종
▁특집
07
▁때에는
▁승리를
디션
게이
분의
▁*201
▁노벨
▁매년
▁최다
▁외에도
▁전역
대사
▁보이는
▁떨어져
다른
릭스
아메리카
▁갖춘
▁공사
▁로드
소속
차를
▁비용
▁인간의
관광
▁동아
▁창립
▁관심을
▁사례
▁왼쪽
▁법정
▁지어
▁부터
까지는
land
리다
▁Te
자기
▁59
▁사운드
일로
▁속에
▁시기에
▁택
▁의료
▁날짜
▁경우도
▁샘
▁첨
▁등에서
▁원칙
▁1943
과대학
났으며
▁우선
▁속에서
▁중계
▁파워
인에
페르
▁뿌
▁나고
▁초반
ict
하려는
독일
▁그해
▁사후
ase
력에
▁(3
시스템
▁릴
▁타이완
▁사람을
▁DF
▁가을
▁브리
▁김동
▁은하
▁웨스트
공립
대장
▁아랍
old
리우스
▁자본
▁원주
▁팀은
▁베를린
-18
행위
▁잎
▁지식
▁공부
▁조합
idae
▁뽑
상에서
었으나
▁메인
▁보안
▁사람들은
▁이중
타르
▁Ex
-5
▁튀
조는
▁고전
▁인기
▁tvN
▁이집트
▁게스트
피스
해진
서울특별시
▁이탈리아의
▁세운
▁이제
▁화물
▁충청북도
~201
:15
법에
▁번호
▁배역
▁천안
▁66
▁피터
교수
▁매일
이탈리아의
라드
▁귀국
▁보조
▁변호사
▁아미
▁간주
▁고구려
▁계급
▁차이
라가
▁인원
마르
pr
▁삼국
▁리더
▁전혀
ink
▁우크
계획
▁까
사스
▁Man
▁현실
▁클래식
arl
▁짧은
▁데이비드
▁써
▁나와
▁에도
▁일종
▁플래
ax
고기
▁개신
▁시작되었다
▁World
▁도움을
▁도요
▁이하
에만
ext
▁본관은
▁나의
▁캄
▁경성
▁점차
족의
ID
▁등은
비는
형이
되었지만
▁비율
▁로맨
▁백작
▁자이언
신문
▁대장
▁벨기에
PS
▁1914
미의
▁무엇
▁클라
크래프트
품을
▁MF
서의
OM
▁스코틀랜드
▁내에서
▁오프
▁스프
ame
▁띠
▁약속
▁4,
▁고속도로
▁(2017
었는데
▁j
토니
극장
▁취득
▁뒤를
▁연재
▁미스터
▁헨리
▁내용을
▁행정구역
과정
"(
▁En
타를
▁가로
원의원
어스
▁인기를
▁이끄는
류를
▁용어
▁경남
▁이민
리히
심이
▁대상으로
▁성남
▁al
▁이전에
▁후손
서에
▁포지션은
▁셋
▁주간
▁침공
▁세인트
▁살고
▁파라
명이다
ata
▁시상
▁불과
▁복잡
▁투자
제에
주에
▁트랜
번의
(3
점에
:16
한국어
회장
▁증명
▁풋
▁개국
▁료
▁타이거
▁했지만
▁University
함에
▁아티
▁참여하였다
▁Wh
▁이것이
텐츠
타지
▁보는
▁의해서
▁캔
▁김태
▁가나
▁1939
투스
우라
▁소수
삼거리
드라
▁99
▁권한
하고자
▁앞두고
▁1942
원군
▁삽
ium
룬다
리언
세기에
야시
▁그레
▁Le
▁운전
너스
▁미사일
오스
▁개관
면에서
이었으나
▁본격
cl
프랑스
▁한다는
화로
09
▁대립
▁단일
▁사토
마루
▁77
ition
▁직원
▁(),
겠다고
스포츠
▁나서
▁임명되었다
umb
려는
▁슬로
▁오른쪽
었지만
▁역을
리안
디움
▁설치되어
스포
▁사용되었다
▁생명
화는
US
크는
▁09
▁더불어민주당
▁없고
없는
▁나뉘
▁단백
▁급제
▁주교
▁개봉한
▁레오
▁페이지
전은
▁참석
용으로
▁개최된
▁골드
▁판결
스럽
의원
ton
▁강점기의
▁집안
▁비교적
선에
▁과정을
▁동일한
보통
▁문신
베르크
▁형태의
다면
▁구성된
ath
▁수사
rist
▁갖추
▁임진
▁반복
산면
▁사실상
코스
▁서버
환경
▁근대
▁삼각
론가
▁되지
▁수출
▁정차
▁고유
▁대항
▁구체
▁대규모
▁아름다운
▁꼭
국가
시험
▁사립
미니
▁신성
ET
수와
▁MC
퍼스
amp
▁가와
▁있었으나
▁벡
차례
▁천문
았던
튜브
▁프로세
▁63
▁밥
▁영웅
▁층
rap
▁주장했다
무부
▁닥터
▁한다고
▁팀이
▁시간이
지구
▁기재된
ool
▁No
▁브루
▁코리아
당에
▁맡고
사우
▁때에
제작
훈장
▁독립운동
▁(2005
▁도중
net
련의
▁프린
특별자치
재판
▁되면서
국을
▁공주
체스터
▁이영
▁교사
▁보급
▁보건
▁재위
▁지금의
▁타임
스러운
▁핫
카드
▁역사상
년경
▁진입
▁글로벌
▁정도의
▁전공
▁이종
▁투입
▁중반
▁말레이
▁예산
▁테마
AP
치로
▁OST
05
▁덮
주년
▁외에
적이다
▁등장인물
드레
이에
▁랜
우고
▁자살
공학
▁수훈
▁바라
하려고
▁시대에
▁사항
▁손자
님의
▁알게
uk
▁이야기를
캐나다의
▁Or
▁장남
CD
ES
ina
▁도전
▁적은
▁운용
▁코로나
▁위반
시킬
▁강남
인들은
▁한번
▁러시아의
양군
▁했으나
▁포트
▁이기
▁한자
타운
더라도
▁테러
▁천체
▁있었으며
▁상하이
▁발매되었다
▁음식
▁안동
수록
아키
▁흔히
승을
▁융
~200
▁로스앤젤레스
▁물러
▁히로시마
▁벌어
▁포유
▁테이
▁다케
▁전후
권에
▁절대
▁양성
ree
▁탈출
▁만큼
전으로
색을
▁동작
▁저지
물로
▁일요일
▁대성
▁Sing
▁해리
▁오히
▁닌
전라
번호
-21
이었고
▁대기
▁알파
▁한때
▁헤르
▁발생한
문의
해도
▁완료
▁3.
▁내에
▁리처
▁해양
▁와이
▁카르
아서
▁사람들
08
통합
▁vs
국에
야수
▁기반으로
▁하는데
▁1919
ale
▁켈
▁위원장
▁큐
모델
일이
비디오
▁오카
▁예비
▁스카
▁후쿠오카
어와
▁앞서
▁68
▁72
우의
▁사법
orn
▁출마
▁도쿠
▁지도자
▁오랜
건설
▁도망
ED
신은
▁95
▁ch
(17
▁통계
바시
산동
▁시사
만큼
지면서
▁성적
▁특별한
.,
생물
받고
베스
▁이지
▁대표팀
▁추정된다
치아
▁자세
▁열대
▁건립
▁자는
▁그에
▁예상
인이다
점은
▁무덤
▁여객철도의
▁마케
▁Ed
ance
슨은
HE
▁지역은
ound
형은
))
에트
▁KT
▁핵심
AD
ild
▁파트
등을
▁SS
술을
▁등급
▁드라이
▁프라
▁62
▁지닌
▁퀸
ram
▁아스
▁포기
크스
▁얻었다
▁베이스볼
▁쫓
AL
BN
▁67
▁제출
에게서
▁비난
특별시의
리시
터스
▁Se
▁일본에서
원과
▁시간을
체에
▁집행
▁프랭
▁레인
▁생존
▁학습
▁라이트
야구
▁웃
필드
▁03.
씨의
도에서
▁태어나
▁1936
ru
▁고문
▁부상
▁야스
▁항복
▁횡
클리
▁유니버
▁거절
경영
▁콘서트
06
비아의
▁공화국의
▁세계에서
슬링
▁경기에
▁했고
▁대공
yn
▁정복
▁노예
진의
ubl
04
▁현재까지
▁포켓
▁화이트
뮤니
▁약간
▁입학식
보는
▁심각
yst
뉴욕
▁모험
보병
누스
▁흡수
자들
그래
▁있음
▁방출
여서
▁마이크로소프트
▁김대
03
▁프로그래
▁김민
▁출간
▁누구
▁팀을
▁시드
바일
▁그것은
:2014
▁확실
▁추측
▁남동
▁됐다
:1
▁김현
▁접속
▁세웠다
▁승인
▁해서
하다는
▁둘째
▁패션
▁역으로
▁축구단
일제
▁동남
▁가능성이
▁진주
▁스마트
▁(2019
령을
▁Be
▁병사
▁녹색
광주
▁자녀
▁합의
▁유명하다
이라고도
분이
▁레알
▁창조
년이
권은
검찰
▁내가
▁인공
체로
▁JTBC
▁레전
우치
▁멸망
▁이용해
ys
▁강제
▁하면
▁검찰
▁있었는데
▁보아
att
▁88
▁사단
▁스위스
▁5,
▁생긴
▁이즈
▁지낸
▁거대한
독립
▁훨
미가
스트라
▁리그의
▁개설
▁동해
▁정부가
▁됨
▁국경
▁점에서
,500
▁단독
▁토요일
▁앞에
결승
▁일정
▁시즌을
그램
▁공원
▁청주
오른
▁타워
▁서양
▁대비
▁어렵
포로
▁마침
▁올스타
자들을
▁해당하는
▁69
fer
▁ST
▁오히려
▁|
였으나
▁넓은
▁진보
▁주고
▁규칙
▁보잉
유산
경기에
기에는
보이
▁For
ron
▁고용
▁미치
▁브라운
▁빠져
▁투어
언을
호쿠
▁이익
▁이끌고
서가
▁위성
라고도
▁훨씬
▁빙
으로도
대대
▁다음은
▁전북
키의
▁직업
레오
거운
▁0.2
수에
증을
조판
▁드래곤
ox
▁바르셀
:2012
▁사건을
러시아의
4,
구와
▁로켓
▁신앙
▁Fl
▁싱어
▁콤
▁le
공화국
▁시카고
▁정지
▁결과를
회가
▁이후에는
당했다
▁스타디움
▁HD
버드
ash
▁되면
▁주재
▁부하
▁85
▁언제
▁스트리
▁변경되었다
▁(2000
▁머물
▁그것을
▁화가
▁취소
선으로
▁앵
▁잡지
▁조카
▁해설
02
ans
사거리
▁뉴질랜드
종은
▁어디
▁더블
▁핑
▁이수
▁구속
▁빠른
-8
▁철학
지며
▁무게
▁(2018
▁신호
▁61
트와
▁식민지
개가
판을
한국의
▁이용한
▁능력을
▁신청
▁학술
▁1937
▁Ad
▁상당히
▁대략
▁홋카이도
드시
▁발매일
▁스키
▁요새
▁때부터
조직
▁논쟁
▁생겨
학원
▁때의
▁처음에는
▁강의
▁그에게
▁오래된
▁북서
▁흉
out
▁보였다
▁응용
세와
▁차지했다
안군
▁스티븐
▁차이가
▁Is
▁빅토
미를
▁조종
▁찰스
▁사용하고
모를
보고
분교
기압
▁화성
▁계획을
▁장식
▁바둑
세대학교
조에
▁수집
▁라운드
:2000
장관
▁제어
▁부대
▁잉
▁구별
▁했으며
▁지니
▁발표한
대문
WE
▁등장한다
▁강릉
▁사망했다
▁중인
▁국가의
▁수송
▁방향으로
리게
▁거래
스테이션
▁페이스
▁전남
소에서
▁주관
가포르
▁소속으로
▁MV
ail
▁신축
▁제일
에른
▁변환
애니
바로
▁페이
▁법칙
마쓰
박쥐
슬러
가에
▁마츠
▁점을
▁이유는
:2008
▁서구
▁무소속
▁DVD
▁왕국의
▁상행
▁선교
▁한반
▁후속
BM
▁포함되어
▁하였고
▁리버
화한
▁득표율
▁회차
▁기상
▁김용
▁달라
▁활발
한의
usic
▁사랑을
▁질병
▁자이언츠
▁금속
우체국
▁메시
▁On
▁잡아
노미야
라이터
▁도달
학부
▁김해
▁1935
▁지급
료를
슬로
시킨다
▁다큐
군으로
법은
▁교환
▁지원을
▁웅
rans
▁간단
화와
▁미쓰
▁늦
▁통제
히는
isc
▁병원
▁천연
▁지키
TC
▁이른
▁Vol
▁불법
형으로
▁동의
▁뜨
▁붙여
차원
여자고등학교
▁얻어
▁통해서
igital
▁경기는
리코
▁벼
▁마치
▁반영
리지널
왕후
OV
▁화재
총독
적의
그리
▁의상
OL
씨는
이었으며
300
▁늘어
▁레전드
▁잇는
▁우크라이나
▁1934
▁장수
▁시에
▁안양
▁pro
산은
▁선수가
▁아틀
▁독자
▁미나
ology
▁순간
▁면적은
OC
개혁
▁임의의
▁받지
▁정기
▁깊은
▁*200
▁EP
▁엄청
년에서
▁두었다
▁국민의
▁요소
▁저술
▁분기
▁후에는
▁참조
▁KBO
OP
▁이르는
지자
회에
▁It
리티
▁김지
▁샤를
▁파크
카의
▁라이온
▁세부
▁터미널
▁연대
▁경북
▁작품을
장애
▁스케
▁그런데
▁76
▁kg
공주
▁하행
▁조작
▁주둔
▁96
켰다
티스
▁승객
오스트레일
▁회전
▁후기
렸고
▁산맥
ons
세로
▁지붕
▁배출
▁김진
▁98
▁IC
▁희생
▁나고야
▁요코하마
▁공을
▁복합
▁영입
▁전쟁이
식으로
작곡
스컵
우에
▁없다고
▁춤
ake
▁창단
인들의
▁며
▁김재
ise
▁동일본
▁포유류
▁뜻을
▁로봇
검찰청
▁기록한
일리
▁조선의
▁아사히
ome
▁남은
마치
yp
진흥
erv
▁(4
연구원
차가
▁가스
▁쥐
어들
쿠스
▁저작
르기
▁대결
둥이
미술
▁건조
시스코
▁청나라
▁출신으로
own
토의
▁3:
▁사우
석이
타의
ife
▁장교
즈니
▁재개
▁해산
▁아르헨티나
oll
▁지방의
▁기대
기록
-6
▁오오
▁보낸
▁상승
▁공통
yl
IM
▁갈라
▁핸
ism
▁크루
ii
리가의
▁스토리
▁개막
러리
릴러
▁반도
▁NHK
타나
파이
▁채용
영의
▁사랑의
▁중이다
▁(2004
▁화장
▁현역
▁향상
▁보병
곡리
▁등판
▁아티스트
동물
정으로
상태
▁미나미
▁아들이
▁비록
면은
▁반드시
누리
단계
월드
▁기록하였다
▁종로
▁다르다
▁전쟁을
iel
▁대리
▁북동
SL
▁수훈자
▁외부
▁프라이
왕이
▁중화민국
▁지켜
▁카메라
훗날
류가
▁뜻한다
▁위해서는
▁코너
▁길이는
▁제대로
▁명명
▁기술을
▁김일
▁(1999
로우
즈카
▁태국
▁리처드
▁인천광역시
▁것처럼
페이
오른쪽
▁주니어
▁내셔널
▁원소
▁가리킨다
▁징역
미는
▁아리
번째로
iet
▁이치
회에서
▁혼란
테이
▁성능
org
▁인도네시아
▁만주
방향
▁틀
▁거짓
니버스
▁오페라
▁읍
▁mm
▁유한
기상
즈는
▁이혼
%)
OT
겠다
뉴스
되면
▁부르는
안에
png
▁장악
▁상륙
▁참고
▁무한
▁소비에트
▁수상했다
▁넘는
▁곳에서
▁철도역이다
▁철학자
▁보장
법의
▁사건이
ple
▁쓰는
▁무사
-201
▁선보
▁콘스탄
▁빼앗
▁상품
▁남서
ations
▁보관
▁앤드
▁받는다
▁돌아가
프를
.25
전기
▁나이트
▁번째로
▁용인
▁보스
야의
▁기업인
운영
역이
사람
▁경우는
▁방법을
▁우에
▁단위
▁철도의
틀러
▁경유
▁다다
▁가게
비트
세요
작가
▁수석
▁뮌
산이
시청
디스
:30
인조
▁맞이
터를
▁FW
RE
▁쓸
박스
▁알바
출판
▁포켓몬
▁합성
▁히어로
▁CF
SP
▁중부
▁크기
▁1910
▁덧
▁임대
▁78
대교
▁출범
▁커뮤니
▁나타내는
사무소
▁97
▁양자
▁유튜브
▁추천
만원
▁받게
▁동원
▁나치
▁그래픽
▁댄스
▁명이
왜란
▁그와
▁개명
▁체제
OU
란색
▁JR
▁불명
▁결승전
▁의무
▁이것을
▁아들로
▁1933
▁프로그램을
음이
영상
▁한글
밀리
▁비트
:2016
▁효율
합니다
▁불안
ount
▁이전의
▁74
▁오다
KB
▁소리
보호
-11
보를
▁마스터
▁돼
커스
▁마지막으로
▁도와
▁의존
▁보냈다
▁승진
▁전파
▁인권
▁작품이다
▁힙
▁시의
기에서
론의
▁크로스
▁행위
▁꺾
eng
▁가서
가락
▁SF
▁발매된
▁영화제
▁서비스를
연히
오의
▁했던
개국
▁당초
▁느끼
▁쓰고
▁안내
▁계기로
▁유사한
▁평일
수원
▁시작으로
방을
뱅크
▁모토
▁피해를
:2006
▁발표하였다
가미
▁총독
▁쾌
▁스페인의
으니
form
소녀
▁시나리오
▁예측
▁블로그
▁1918
▁1932
▁논란이
국대학교
▁가이
▁역임했다
▁이명
▁개조
▁신사
row
▁분노
▁상위
▁아버지는
▁목포
▁동양
▁트레이
:2011
루수
▁노스
▁발견된
질이
▁PD
▁이뤄
연속
▁끝난
러시아
▁스릴러
▁각각의
▁공식적으로
-15
▁해상
▁00
▁멘
다리
▁싱어송
▁아이스
▁높아
▁받을
▁종류의
(4
성화
법이
▁풋볼
▁소재지
▁쓰인다
데르
▁웨이
수도
▁짝
KBO
▁마틴
.00
저스
-17
itt
▁잉글랜드의
ole
▁정비
▁판타지
▁잠수
▁방사
▁나온다
와이
진이
패를
▁내의
▁구현
이상
면으로
au
▁신뢰
▁연애
▁프로그램이다
▁문헌
▁제외하고
▁비례
▁1928
▁73
▁하우스
(5
닉스
▁AM
▁Cent
▁오리지널
▁중구
▁주택
▁김수
▁대사관
enn
▁시작하여
▁통상
시타
여객
마니아
▁비상
유의
미디어
▁개발한
▁헝가리
▁반발
루가
▁어떠
:2018
▁닛폰
▁싱어송라이터
고가
▁가치
▁신화
▁맡아
▁프로토
▁1931
:2015
▁사태
OW
문제
트랙
해군
▁지내
▁활동했다
▁All
▁리드
▁김기
▁한나라당
▁굿
▁체코
▁존재하는
▁동방
▁아야
▁묶
anc
▁대구광역시
보통학교
티노
(14
▁빠르게
미르
간에
료로
▁가슴
▁주최
▁메모리
▁대통령이
통을
▁프랑크
▁감사
▁데이터베이스
▁향해
▁미스
▁김씨
▁되자
▁죽었다
▁진압
등급
▁김상
종을
▁(2002
-12
▁이씨
국유철도의
▁그러한
▁목표로
총리
▁1/
▁코르
▁1924
처스
▁SM
▁진화
▁bar
베르트
TS
고의
▁매니
▁사전
베리
겠다는
ican
우주연상
▁Single
▁열렸다
▁Am
▁110
어버
▁시작한다
▁여기에
▁넷
뿐만
츠키
▁포도
▁이후로
▁유행
(6
▁스프링
주차
▁엑스
▁이사장
건을
▁가요
명과
무리
헤이
▁사용자
▁선거에서
▁(2003
▁대학교에서
교를
▁하나는
크를
▁해에
▁브레이
▁주연으로
▁깃
▁좁
▁롱
▁지냈
▁않았고
일스
ley
▁새겨
하였지만
에선
▁SC
▁다리
▁포위
▁에르
▁훌
인터
▁오키
▁가졌다
▁시위
▁평가를
▁Art
계약
▁치러
이닝
▁전직
명에
▁바이에른
회는
▁넥
▁모아
oot
음에도
루의
▁카운
▁전동차
▁벡터
구조
▁101
▁묵
워즈
▁정수
등의
▁속의
▁극장판
iew
▁않으며
마에
:10
▁아메리칸
절한
강의
▁루트
▁준결승
▁브레
▁지은
▁CP
등이
▁김경
▁그때
▁독특
제르
니치
▁말았다
▁71
▁간행
충청
▁일찍
-7
▁에드워드
실의
프라
▁테스트
▁여동생
내에
▁발굴
▁문화재자료
▁이은
▁텐
▁심리
▁알려졌다
토시
▁0.3
▁개원
▁실질
▁장비
▁Gr
▁구글
란드의
▁수학자
월의
▁이벤
▁사냥
ject
▁크레
port
개로
▁모여
irl
▁도모
곡을
부사
이센
키퍼
소수자
▁MVP
지인
ream
트릭
▁무대
▁월화
레옹
▁훈장
▁기구
수한
▁그렇게
▁미군
iam
▁되며
▁작품은
▁수도권
부터는
▁우리는
ower
부대
거래
▁소설가
스페인의
▁공업
▁무신
▁알리
페이스
히코
▁글을
▁사임
▁예수
▁운동을
동과
▁세상을
▁Digital
▁1929
선과
▁히트
▁속한다
▁명단
▁이룬다
▁궤도
▁제작한
▁환승
했었다
▁다수의
▁$
▁소송
▁갖는
▁분위
▁올려
▁감독이
▁z
▁La
ins
▁라이프
▁아테네
▁(2001
▁문제로
▁디스크
▁Go
믹스
enc
▁부장
▁엘리자
금의
플로
▁이름의
▁농민
▁디스
▁어워드
▁연산
▁화산
ode
▁사마
▁우려
만은
▁능력
▁여왕
중화
▁논의
▁펜싱
프란
▁중세
▁크라
▁썼다
▁세계의
▁조절
▁싫
니시
월호
▁닫
재를
클린
▁시즌에
▁뮌헨
▁파르
카타
▁포스트
▁부친
▁나이로
▁의정부
▁캡
-16
▁세력
▁첼
다의
▁자전
화학
펙트
▁유일하게
▁무시
▁것이며
▁Gu
▁고시
국장
▁Hist
▁이들의
▁파악
▁결방
▁노래를
▁카라
▁크리
ward
클럽
▁군대를
▁바뀌었다
▁79
▁멀리
▁일부를
▁시리즈의
비행
▁어떠한
▁박영
▁준다
럼비아
▁형태를
▁제공한다
병을
▁점점
▁타율
수이다
▁싱가포르
▁사용되고
▁크리스티
▁모바일
▁John
▁졸업생
보살
▁모양의
▁스틸
몰년
구리
▁or
방의
▁코스
▁재단
▁차별
공신
▁달려
▁길을
▁이세
라에
▁is
▁Press
oul
바의
서양
▁역이
파크
▁경우에
way
▁돕
▁예정이다
▁SP
▁문장
▁훗날
▁임진왜란
GB
▁두산
에서만
황후
▁혐의로
▁무인
▁과학자
수산
▁즈
▁시모
▁인종
▁받았고
▁안타
▁서일본
▁아이디
▁나타난다
▁스타크래프트
▁논문
▁그들이
▁동성
▁속도
▁평안
▁연습
▁정확한
으로서의
▁1923
▁1925
▁an
▁부속
▁클로
계가
ystem
유치원
▁골키퍼
▁감독을
온의
▁기원
▁쳐
기지
▁듣고
▁시게
▁크로아
▁하나인
▁일치
▁학위를
▁뷰
▁아빠
▁항성
▁똑
▁의학
▁고베
스티벌
ade
▁전화
▁119
▁일시
주고
▁사우스
아나
▁합쳐
들이다
▁특이
▁딜
니가
inal
▁파티
▁당시에는
▁확률
계열
국으로
랐다
▁포함한다
▁CM
로와
순위
~)
▁다수
▁Gre
관에
▁동구
▁학문
▁혼합
▁1921
▁오스만
름을
▁백제
▁시리아
▁태어났으며
▁6,
▁갤럭
경에
right
▁번의
▁Par
▁신학
▁반대로
▁위대한
▁1900
책을
▁혼자
▁예능
카미
▁관련자
투아
▁고종
▁인기가
▁하위
▁풍부
▁스파이
▁1926
토미
한국당
산화
▁이웃
▁레이블
소와
▁나왔다
▁드림
▁빌보드
▁익스
▁현상
되었을
▁바르셀로나
▁퀴
▁전당
ternational
▁순서
안의
▁클레
▁어깨
영국
시에서
동맹
▁터널
기구
▁창작
▁사용된
주인
리타
▁무너
▁마음을
▁기록이
▁아파트
▁없으며
티오
하였다고
ius
▁가문의
설을
▁요미
▁유기
▁연주자
▁나타낸다
▁프로그래밍
특수
판이
▁탈퇴
▁폐쇄
▁노르웨이
IP
▁메리
▁칼리지
▁띄
식에
▁War
▁금메달리스트
▁않게
발전
▁ar
:2020
라와
▁04
▁말에
였지만
▁(1)
이었지만
선에서
SC
▁드럼
네덜란드
베트남
▁불렀다
▁하였으나
▁주어진
되었다가
드와
이므로
▁1.5
▁돈을
▁전부
▁하였으며
센트
주의를
▁DNA
▁부상을
▁식물상
▁역사적
혁명
▁수목
▁할아버지
지정
▁뚜
비에
석은
▁교명
▁처형
▁다음날
표를
▁단지
▁인쇄
스케이
▁앞에서
▁영화는
치기
▁사유
▁전쟁의
▁이후의
:2004
▁뜻하는
무늬
▁1922
어져
▁나폴레옹
▁웰
ual
▁닉
▁신의
슬라
▁요금
▁푸른
▁1-0
▁오이
▁트위
▁의미를
▁것이라
공산
주었다
▁둘러싸
▁일부는
-9
▁Car
▁제작에
▁앉
기까지
▁지금은
▁89
▁그로
▁600
:2017
산에
시아드
▁로렌
▁돔
니스탄
▁조선총독
▁들고
▁선전
▁후원
▁세르비아
▁위치한다
▁관계가
▁단백질
▁음악을
▁목소
▁임기
▁군의
르가
영화제
▁젠
▁곡을
▁조선시대
대부
색의
났고
▁1927
애나
ank
▁없다는
▁발명
▁꼽
섰다
▁작업을
▁250
슨의
실은
▁AP
▁갔
▁연구를
▁84
동은
▁이미지
세트
▁의혹
▁발견된다
ings
▁선박
▁심사
▁And
▁있음을
▁팽
aj
공식
라이트
ott
▁따로
▁역은
▁알레
▁전신
하우스
▁들어서
▁안에서
▁스테이지
스팅
▁행렬
졸업생
ull
▁다스
▁사람들의
물은
▁연관
▁마침내
▁한신
▁ex
▁랩
해가
라디
▁지금까지
일과
▁정원
▁힙합
▁AT
▁한성
▁목소리
장군
▁부탁
▁다큐멘
▁돌아온
▁전력
너먼트
▁변형
▁THE
▁가지는
주와
편성
석의
▁명확
▁인지
▁Op
▁히가시
▁좋아하는
▁바이러스
▁보유하고
▁해야
하였던
▁오랫
▁전면
▁한일
주시의
▁발음
▁캐나다의
고리
▁800
행성
▁토모
▁흘러
▁출시되었다
▁주식회사
▁공장
▁싸움
▁),
▁대동
▁맡은
▁섞
령이
▁86
▁주제
타는
계에서
▁후보로
▁침입
▁가고
▁텍사스
▁짜
▁로빈
▁성을
▁접촉
▁펼쳐
라디오
카스
▁곡은
▁빨간
▁메트로
중의
▁쓰이는
칸센
▁바깥
▁상무
▁수리
▁소멸
주의의
▁새벽
▁중지
정원
sc
▁Ac
보험
▁선정되었다
▁레지
경이
:2013
작전
▁EBS
선생
▁감독으로
▁포함하여
▁뱀
▁다이묘
▁행동을
▁남극
▁1912
니스트
▁Christ
▁전통적인
▁주전
미나
▁상당한
▁인접
▁인디언
▁거두었다
▁카페
복을
ere
▁안드로
▁(2020
▁못하는
▁오랫동안
▁DJ
▁sh
▁상황에서
▁아버지의
▁트윈
▁망명
▁론
▁유효
▁편찬
▁아웃
▁방법으로
씨가
▁신체
|2
▁필립
레의
▁이원
▁갔다
▁text
▁분열
폴리스
red
임이
▁함락
LE
보기
▁활동하고
포트
▁마산
▁com
▁보기
점의
자원
▁실현
일본국유철도의
▁사망한
이면
▁병합
▁병설
▁메달
대원
소방
▁정체
▁일본어
▁정책을
▁맨체스터
Pa
각을
고는
▁느낌
▁이토
화되어
MA
▁속한
▁전형
▁교육을
▁82
친구
▁좌우
▁어려운
▁발발
특별출연
▁말하는
▁에릭
▁그랜드
▁가리키는
▁방정
▁철수
협의회
▁새롭게
(10
▁골을
▁내용은
▁Comp
▁노출
시키기
챌린
rid
:1990
강전
중인
함과
().
▁81
▁검색
▁저서
▁공헌
▁급행
해져
▁수호
▁시상식
▁영원
▁메이지
▁발렌
▁자신들의
▁승려
▁왕자
마가
마리
▁CH
가족
▁시조
▁왕의
▁한양
▁올렸다
▁것이라는
▁다르게
▁긍
▁포맷
▁{
▁강등
▁동북
▁하차
단지
하루
.15
▁(1990
erm
▁부동
치오
:2007
▁센트
▁제공하는
sk
que
▁얻은
▁많아
레이터
▁곱
교육청
▁청춘
머리
▁배급
amb
▁엄청난
▁졸업하고
가능
▁고객
▁점수
▁끝나
당과
▁구로
▁자라
▁퓨
▁구입
▁폐지된
베트
시안
▁네이션
▁공개된
열차
▁사격
.03.01
스럽게
▁섹
별로
▁입력
▁103
▁클리
▁이현
▁스카이
올린
코프
▁이나
▁연기대상
▁처벌
▁기울
les
▁역이다
▁이루어졌다
ames
5,
나르
채널
크가
▁col
민의
▁명예의
균관
▁상태로
▁유럽의
주쿠
▁전원
▁표창
▁지상역이다
MS
▁커버
▁해당한다
▁바닥
▁침략
▁순환
자이너
▁만들어졌다
▁두려
▁겹
결과
▁어드
▁평론가
▁대부분은
▁식품
▁토론토
▁메탈
▁발간
▁자매
▁la
▁0.5
들로부터
▁추구
단과
▁알고리즘
▁지바
내셔널
지방법원
▁유성
▁자극
▁지방도
▁활동하였다
▁계통
OD
▁대우
▁아동
▁멀티
세스
▁2:
▁부분을
(20
▁간다
▁대개
▁개그
▁법무
▁집에
▁영광
▁오버
▁화려
▁공화당
함이
▁남양
▁가진다
▁승부
▁장르
권도
▁명을
▁규모의
▁공중
▁폭탄
▁공연을
▁월요일
내기
ner
▁탐사
웨이트
▁재배
▁디비시
▁알렉산드
역사
연을
역에서
▁이경
▁내렸다
▁로마의
▁연호
▁재즈
▁Day
▁배구
▁지시
▁87
▁동경
▁성향
▁완벽
로디
루타
바다
▁카즈
▁새누리
:2002
훈련
▁맞아
▁Ge
▁연간
▁성적을
제도
▁1917
▁프리드리
▁7,
▁명칭은
Th
▁선임
▁시작된
we
▁이노
▁이진
:2009
▁AC
▁그랑
▁후계
▁Amer
inc
▁거듭
▁한화
▁130
▁전송
▁대화
▁브라이언
▁기회를
▁독특한
PC
▁WWE
▁설치된
지어
▁여섯
하므로
달러
▁월간
사령부
▁스피드
Al
▁발견되었다
브로
역의
▁출처
▁안토니
▁(1998
▁미리
조정
Feat
▁가치가
▁돌아와
▁배포
▁이르러
IR
▁갑자기
▁활약을
서울대학교
어요
평균
▁겸임
▁단어
▁재건
어야
▁금메달을
▁갤럭시
▁마천
eth
ement
후쿠
▁드래프트
▁존재하지
▁1907
▁토너먼트
타니
▁재생
▁콘텐츠
▁유닛
▁일일
ous
▁기다
UN
▁가마
리에서
정당
▁와카
▁의식
▁이글
색으로
▁말이다
▁Res
▁일으키
▁규슈
▁신칸센
▁다소
▁초상
서울특별시의
▁복원
ograp
측면
▁기둥
▁일부가
▁운항
▁만들고
▁진행되었다
지면
▁나뉜
▁챌린
▁일어났다
▁(5
▁93
▁콜롬
▁낸
▁개입
▁돌려
▁공격수
▁방영된
▁성소수자
▁옵
▁구매
격한
▁도쿄도
▁시가
▁게임을
진은
호사
앨범
▁BBC
:2019
니까
활동
▁힌
루미
str
인에게
▁83
▁.3
ye
타임
▁편이다
▁관직
다이라
▁남아프리카
▁고교
▁입고
▁(10
▁대표하는
히고
▁신도
ute
▁상임
▁조지아
층의
▁철거
▁가담
▁위로
강원
▁구미
▁연료
▁혈액
금융
당시
ese
▁마라
▁임무
▁용산
심의
▁자리에
▁Music
▁광복
▁만든다
▁대통령의
▁사람들을
▁편의
▁2.0
▁받았으며
전사
▁동시
▁주석
▁경제적
▁일본에
:14
▁(1996
▁가상
▁재임
▁National
IG
ym
노르
▁심판
▁92
(13
테쓰
▁개신교
터의
▁재학
▁덩
▁서울시
▁펑
▁적합
인명
▁보여준다
재단
▁굳
우가
▁근본
EL
▁사실이
▁심각한
런트
oo
▁대한민국에서는
▁분명
▁역사를
년제
▁만다
▁작품으로
▁확립
▁수비수
아카
:1988
▁Qu
▁정치인이다
▁톱
▁94
▁국토
업체
정리
▁호소
▁눈에
자로서
▁나누어
친다
▁유적
▁절반
ors
▁마무리
▁멈
▁(1997
▁폴리
락을
타스
▁연구소
to
▁밝은
▁성씨
▁해도
경은
공간
르노
받는
ric
▁변화를
▁특정한
▁놓고
▁사양
▁마르크
▁Fran
아파트
이로
널드
카오
▁설득
로지
▁아가
▁Ind
:1992
도리
되었다고
:1996
▁하원의원
조참
▁방송일
▁포함하고
아웃
▁OS
▁하인
식물
전과
▁할머니
▁1908
데이트
▁(1989
계는
ana
▁08
▁교류
app
▁인용
ater
▁기소
▁파트너
▁쏘
었을
▁대원
하여야
▁않지만
▁전문가
CN
▁플레이어
▁쿨
9)
이시
했다가
▁연결하는
▁IT
orea
▁Ver
▁공무원
중한
과학기술
▁금요일
▁교향
▁기동
▁부담
▁말레이시아
▁사업을
통일
▁필요가
▁일종이다
▁기호
▁세리에
)/
라를
수리
▁빚
박사
ument
▁부분이
▁상속
III
비로
분으로
sp
▁천주교
▁발탁
▁광역
▁인증
집합
▁자원
미사
▁조명
▁창간
정과
▁그라
▁아트
▁임금
▁2-1
▁필요하다
hel
▁축제
종으로
▁내용이
▁메르
▁중추
▁추기
▁곳으로
▁논리
▁초청
▁쓰여
▁이루고
ution
수사
▁재능
스트로
▁신고
")
▁출력
▁발레
▁양의
▁대회에
▁입장을
▁토마스
문은
투표
카가
▁수의
여자대학교
▁1906
▁프로이센
▁SN
▁Dr
▁시스템을
토스
▁(1994
▁세계대전
▁관여
▁특급
▁방해
▁데뷔하였다
격으로
▁105
치게
ral
▁로즈
▁주장하였다
ener
▁않으면
디자인
oph
▁주기
able
▁몸을
▁첩
▁남녀
▁받아들여
안타
조부
▁모드
▁사퇴
평군
후보
▁무비
▁연인
▁자랑
만으로
▁셔
▁윗
▁상을
▁여수
생의
▁쓰러
▁나아가
▁도쿠가와
▁현지
▁오디션
소송
▁Mon
▁파울
민당
▁설립인가
▁(1995
▁이탈
▁떠났다
▁외계
▁이들을
▁현장
▁앨런
치에
▁개찰
▁암호
▁희극
▁디자이너
▁NC
브레
▁Co
프란시스코
▁프리드리히
실이
▁높다
스페인
▁어머니는
▁빌딩
▁오빠
▁왕이
▁효과를
▁et
▁토지
▁하에
▁물리학
▁역에서
▁말이
▁학살
▁친선
▁합동
▁수익
로써
▁블록
▁구원
▁무용
또는
▁방지
▁나라의
기독교
▁가미
하지는
포를
▁시마
▁오직
▁전까지
아라
▁상관
▁다큐멘터리
식품
▁Ap
카리
▁사촌
▁중에는
▁기도
▁호는
들에서
▁작동
▁크고
▁유통
청년
▁보이지
▁타입
▁람
감이
▁부천
▁이순
되는데
운트
보건
었기
▁그것이
▁얻을
▁Eng
▁소화
▁스크린
▁1905
파이어
▁상태에서
▁삽입
니카
일드
res
법으로
▁갖는다
제이
▁건담
라면
▁UN
▁본명
▁열차가
군사
▁정류
홈런
만한
▁영혼
듯이
urn
▁태조
▁자리잡
리며
라트
▁05
▁실점
▁연고
▁카나
▁사쿠라
▁없을
▁2-0
▁퀘
▁날개
▁카자
▁지위를
비히
터가
▁초등학교이다
▁입장
▁방송사
▁음반은
▁언덕
.18
기사
령의
베리아
십자
폴리
▁발언
▁북구
▁관련이
▁발생하는
▁?)
▁집권
▁선생님
포스
▁till
▁문을
었다고
▁지역으로
▁사이클
노리
▁Off
▁알렉산더
▁불렸다
▁항공기
▁특징이다
론이
▁Ag
▁분해
▁위키
▁청구
▁완전한
▁주제가
▁포인트
파로
▁점이
▁상실
런스
망을
▁가면
▁혼인
▁주소
oon
▁관객
▁박정희
▁픽처스
조건
▁91
▁One
▁반란을
▁아버지가
▁신장
백만
터는
파를
▁만난
▁투쟁
▁도시의
▁박지
▁갖추고
▁02.
▁1,000
발을
창군
▁Gl
▁요미우리
▁있었다고
ren
:1998
▁상대적으로
▁보르
▁구성원
전국
▁기념물
▁공산주의
▁레벨
▁박근
▁다이아
▁연구에
▁겉
▁나왔
▁페르시아
스웨덴
▁몰아
▁복음
▁Soc
▁왕조의
▁지니고
UEFA
▁에스파
▁우리가
▁잊
▁긍정
▁도덕
▁노선을
▁되는데
▁순천
처를
▁변신
▁사건의
▁크리스토
▁닮
포구
▁해피
▁오프닝
▁복무
▁외무
▁플레
▁성공을
▁배틀
다시
파는
▁벌어진
▁이름이다
례를
▁이복
▁착공
아메리칸
불교
▁사카
ean
▁오리콘
▁이라크
▁Ab
▁보았다
▁위에서
검사
▁권리
재인
▁의심
바나
ve
▁예방
▁서기
▁각본가
▁민영화
ML
▁호남
▁오타
▁유아
느냐
위와
▁+1
▁생태
라이더
▁Comm
▁유치원
▁럭
▁탓
hem
▁결성된
▁이로써
▁대한민국에서
▁에디
▁높이는
세츠
연의
rat
▁측면
자들에게
▁리가
▁양산
모의
병대
▁갈색
화되었다
▁데에
▁열매
▁즉시
▁Rep
▁서브
▁타격
▁기록은
▁만들기
ret
▁가야
구미
아리
▁나타나는
그레
▁손을
▁재산
▁첫째
▁일본인
생을
▁개별
:1994
▁게임의
▁여겨진다
▁미국과
▁실내
▁필수
되어야
는지
▁수요
▁십자
몬드
▁함경
오사카
▁이관
▁아들인
온은
▁다운로드
▁참여했다
체와
▁루마니아
▁랑
일반
▁개량
▁쥬
▁방송을
▁끌어
▁스콧
▁해적
미아
사이드
▁타케
▁빅토리아
▁정이
▁역사가
▁그만
▁일정한
▁락
민족행위
▁한국방송
▁고려대학교
천리
▁검토
▁비서
브리지
▁트럼
▁보험
▁카메
▁명칭을
▁초기의
▁사용하였다
▁(1987
6,
▁진영
ble
▁소련의
▁형식으로
▁감시
▁사형
특별위원회
▁오케
▁도호쿠
▁인구가
▁안녕
▁위치를
도사
ett
▁여러가지
▁조용
▁코난
▁있었기
de
모가
▁않음
우스의
▁공룡
▁대부분이
▁리얼
▁폭스
▁남구
▁덧붙
▁리틀
du
미즈
.20
▁소스
▁추락
▁콜로
▁전쟁에
▁기록하며
▁이윤
▁평택
▁피겨
바야시
▁삿
▁아케
▁엔딩
강에
▁커피
ensis
▁관계로
▁모터
▁인상
▁선수단
▁책을
목적
▁상주
▁음성
▁운영하고
▁추가로
ha
범위
▁그녀가
▁책임을
시픽
식과
▁호주
▁크로아티아
스피
lect
.19
▁마주
▁대법
▁못하였다
마를
▁밀라노
▁한국인
▁가끔
유대
▁가쓰
▁유학
▁수상하였다
▁프리미어리그
▁탱
론은
▁되돌
▁1909
▁좋지
세르
▁입은
평을
-09
▁AR
▁부진
▁후임
▁걷
니와
▁잭슨
▁1911
▁이전에는
ery
▁뜻은
▁벗어나
▁갱
스톤
▁의장
사추
▁만한
▁크다
co
사한
▁sp
▁TBS
무스
▁모노
▁1896
▁사건으로
▁뮤직비디오
프가니스탄
▁차남
▁업데이트
자동
▁이른다
주의적
▁CON
▁팔레
▁폭력
▁상황을
투니버스
▁물을
▁160
메르
백과
▁영구
숭이
▁전반기
▁주장한다
▁밀려
환으로
픽셀
▁박성
▁지점
▁표면
▁일어나는
uss
▁다니엘
TA
▁1)
물에
▁운영하는
▁장면
▁스미스
가루
▁착용
▁보스턴
▁대전광역시
▁쌀
끼리
청장
▁코믹
공동
▁확산
이후
▁부부
▁기종
▁삶을
▁암컷
▁쿠데
icial
▁부분은
air
▁이인
팩트
음력
▁복수
▁일대
▁차단
터미널
정동
▁07
▁1~
▁성직
▁화합
▁06
▁브래
▁전작
▁보여주는
▁일컫
▁이끌었다
▁대한민국인
시민
▁참가한
파일
▁공산당
▁섬의
인치
기인
▁아베
현을
▁목숨
어리
같이
▁명령을
파가
▁명나라
▁출연하였다
각형
트롤
▁직전
덕션
▁생애
조판서
-01
.30
▁빌리
▁일은
▁타운
▁신부
▁불참
▁스톤
▁영양
▁des
족이
▁대체로
▁김포
▁Sup
▁들어갔다
▁미즈
▁항구
▁졸
▁CJ
▁오는
▁영화의
▁We
▁세력을
▁불가리아
목을
▁모음
▁2)
▁(1988
▁가라
▁맞서
다란
▁1-1
어트
▁도서
▁아틀레
▁Rec
▁죽음을
▁속해
▁인터페이스
▁고급
▁선조
▁연세대학교
활동을
▁360
▁출연하였고
af
▁성경
▁없게
500
▁민중
▁싫어
▁위상
▁테니스
재로
▁개방
라델
▁휠
▁작품의
▁참여한
집을
스케이팅
▁이후에도
▁소형
▁게다가
7,
▁기록되어
▁140
▁대변
▁곳이다
▁곰
▁남겼다
▁출전하여
▁덜
▁추적
▁정권
▁페스티벌
ini
▁지구의
▁주문
▁주지
▁앞으로
스위
▁나뉜다
재위
시노
▁주립
조지
▁사도
나마
울산
하키
▁인류
▁이상이
오와
(12
▁Ro
▁이르렀다
▁역임하였다
와라
즈가
▁미네
▁1,0
▁나타났다
▁경력
▁미키
▁세웠
▁시라
▁윙
여성
▁리듬
▁라이벌
▁탐험
바키아
년부터는
돌프
르바
▁입법
▁신한
▁유고
▁번호는
▁고위
테스
▁Air
제와
:2005
▁생년
사추세츠
지이다
조차
힌다
▁2.5
▁되기
▁1913
oss
▁센트럴
육군
▁싸우
▁굵
▁ed
▁집필
차는
▁아시안컵
왕은
▁해협
제국의
▁수록곡
MI
니즘
▁원래는
▁방식을
경기도의
▁크리스마스
▁테일러
▁International
▁사용했다
▁신용
▁정무
▁근처에
▁클라우
▁설립되었다
▁엘리자베스
▁이자
▁여성의
▁1904
▁가까이
me
▁버지
▁지향
ave
▁래퍼
ara
▁허가
▁대통령은
▁8,
▁석유
▁이루는
▁낙선
▁마루
▁미카
▁양쪽
▁헤비
▁호세
▁}
▁동반
▁산하
▁키스
린이
▁무라
▁여우
▁조건을
▁개장
oid
▁격파
▁Life
▁(1993
이야
▁국장
▁진학
▁Per
▁이병
▁밝혀졌다
FF
▁이케
MB
나타
▁구마
▁수술
▁동서
경찰서
되지만
rit
▁춘천
▁테크
론에
▁장편
▁초등
▁그녀를
조선민주주의
LA
▁At
▁말해
▁종사
▁특성
▁올림픽에서
가스
▁권력
▁MP
▁직결
▁북아메리카
▁거행
▁선포
▁남쪽으로
▁사람들에게
배를
▁참가자
등록
▁고고
▁전쟁에서
▁북극
▁서술
▁700
:1980
클라
▁충남
▁Rev
생명
초의
카르
▁PS
ky
▁유치
▁세계적으로
양이
▁진짜
학에서
▁연결되어
▁102
▁완공된
▁차관
▁납치
▁히틀러
▁유니버시아드
▁사막
▁존스
▁(1992
터널
▁가시
▁Gro
▁일으켜
▁1500
▁그곳에서
▁토니
시스트
▁pl
▁대량
▁경기가
▁경전
▁김승
▁노무
▁집을
안이
▁황태
▁시범
▁시드니
▁매각
▁혁신
▁직무
공을
▁제네
▁참가했다
여단
▁실종
▁초에
DP
▁꺼
총장
▁공기
▁항의
사상
▁중장
실에서
▁주장을
▁비롯하여
▁지속적으로
▁병설유치원
▁샬
edia
▁III
▁동안에
OK
역에
중심
폐합
▁일곱
/2
▁서명
▁일상
▁Can
홍콩
▁금강
CC
▁결의
▁농촌
▁이행
도니아
▁밸
기자
▁복잡한
▁시로
MP
▁램
.16
▁삭제
▁지지를
▁남아있
▁이온
▁자가
수아
▁브로
▁따서
▁세우
공화당
▁소식을
▁세상
▁로맨스
슬라비아
▁구멍
▁사기
여자중학교
▁탑승
▁소요
▁미니시리즈
▁가즈
▁동화
▁월화드라마
▁펄
그로
영은
▁새누리당
▁진실
▁우라
▁가난
텐도
▁상대식
▁개체
▁곤충
▁조별리그
ris
▁그리스의
▁긴급
았으나
ose
▁레코
▁이화
▁실천
맥스
▁원더
▁광주광역시
▁기본적으로
게는
▁흑인
▁질량
▁하기도
스틴
▁감정
▁억제
▁다음의
▁원인
▁하트
▁어두
apan
▁노동자
:1995
:1999
▁새끼
▁언더
시절
▁내놓
▁늑
▁세트
▁시립
▁문제에
▁유전자
천만
▁Sm
기능
그리스
▁디즈니
오로
▁(17
▁0.4
▁Har
▁단순한
▁이외의
편의
▁북미
▁득표수
▁까지
▁프로리그
▁갓
▁좋다
▁든
▁나타내
▁소속의
▁추방
요코
▁오노
orth
▁있으므로
라미
▁넣어
▁대대
▁들면
대책
렬한
▁김병
▁1.2
본을
▁개척
▁매장
▁대상이
율을
조로
▁수료
▁비잔
▁사가
상업
▁쿼
가공의
▁사다
▁여의
▁ro
▁번주
버스터
웨이의
▁스즈키
▁친일반
▁>
▁임신
▁지불
▁최대의
▁하여금
▁분야에서
▁닐
리크
말로
▁랭킹
▁Pol
범죄
속의
ald
▁원주민
▁임무를
▁충북
▁초기에
▁출연했다
▁사찰
▁한강
중이다
탐정
▁공정
▁종이
▁10,
쟁이
▁가깝
▁마시
▁역명
▁통행
곡동
양을
▁가사
▁심장
▁이며
▁피고
▁당시에
▁별도의
▁토머스
▁관심
▁*#
▁올림
▁이광
▁중동
▁회사의
▁Will
▁메가
▁프로필
▁했는데
보로
▁방언
▁이른바
▁모래
▁그들을
평화
▁주파
CS
▁디젤
▁업무를
ene
▁입단하였다
역은
회관
▁비정
▁김준
고려의
라며
월일
되게
왼쪽
▁우익
▁자전거
▁도루
▁서서
▁시즈
차의
타가
▁포함하는
서구
코토
▁페이스북
▁선출되었다
▁필름
▁데이터를
▁고가
▁해운
▁고양이
현이
▁나쁜
▁신동
인명사전
▁백성
ions
▁최상
▁게임이다
▁자금
기계
오스트레일리아의
▁왕비
▁수소
▁Ass
▁우리의
협력
▁대선
▁압축
▁이벤트
Cl
ever
▁홈런을
란다
실록
▁틈
▁면적
▁체험
▁충분히
▁마감
▁꾸준
▁학원
렸으며
▁박상
ouse
▁아래에
▁이태
▁왕족
▁1895
환을
▁탄핵
크라
▁패러
▁Sci
▁붙어
▁에이스
▁영국에서
▁as
▁이어지는
디아라비아
▁신흥
▁후인
▁Her
▁Time
mp
▁근육
▁내세
▁년도
▁칼리
▁전투를
▁황후
▁인텔
▁케이블
산성
우옌
공사의
간이
▁자문
태평양
na
ific
▁여신
▁아래와
니에
학사
▁부르고
해양
현대
▁Of
▁좌익
루과
판은
▁128
▁도시로
▁레슬링
▁받아들이
세한
▁모임
▁권력을
▁친일반민족행위
▁휴대
능력
랑이
모어
▁무릎
▁호흡
:1991
▁음반이다
고쿠
리케이션
▁커뮤니티
벤처
우스는
▁살아남
:2003
▁출신이다
전투
its
▁글씨
▁사령관
▁계속해서
▁4:
로에
eph
▁배정
▁동굴
▁파키스탄
▁(1991
악기
▁벼슬
야스
도어
▁AS
▁무료
▁진행자
▁제니
▁학자
▁개인의
즈를
▁un
:1984
.14
▁안산
▁모습이
작사
구장
▁마이크
▁울산광역시
▁상영
▁이들이
린의
▁본질
▁비틀
▁뼈
고에
▁수컷
▁왕립
▁다크
▁역의
▁평생
:1989
NN
국어
ason
▁브라질의
마뱀
▁입사
서비스
▁못한다
▁!
▁GK
▁전임
ited
Ar
호와
▁걸친
▁사건에
ari
▁스트라이
되거나
▁아레나
에서부터
한국방송
▁딱
나리
유니
즈니스
렉스
▁김창
▁모로
로서는
▁돌아왔다
▁공개되었다
▁발표되었다
▁Mc
눅스
바타
베르토
▁Ne
▁1.3
▁북쪽으로
여래
▁빵
▁구름
내의
▁##
▁기병
▁배열
▁아즈
▁운동가
DS
▁캘
▁해발
▁해제
▁이용할
▁폐교
▁방법은
ublic
▁고성
▁말로
▁밀양
사관학교
▁꼬리
▁History
가수
▁4.
▁미국은
왕을
▁연안
▁영주
▁한국영화
계로
속에
사지
▁특허
▁프랭크
-08
▁이창
미래
유가
▁CB
▁인조
츠의
▁손에
▁영등
관리위원회
▁트라
실로
▁끝으로
▁부드
▁본격적으로
▁To
▁드물
▁El
▁Stud
▁SH
▁말라
▁실수
분교장
ux
게이머
살이
▁향토
▁훌륭
하기를
▁반응을
-13
▁최저
▁분자
▁쇼트
▁(16
▁1915
▁본인
:1986
▁습격
▁태권도
▁동기
▁이상을
▁영화를
편곡
천동
alk
▁특징을
다니
▁관중
▁본명은
▁대표이사
▁경부
▁이마
▁구사
▁분데스
▁한반도
ference
▁대지
▁구간이
▁대표로
▁마천루
석탑
▁권리를
chn
▁구동
국에서
체육관광
▁축소
운동장
층에
ane
▁성균관
▁뻗
▁벨라
였는데
▁그리하여
▁오세
▁전의
▁문제는
EP
▁지중
지방검찰청
긴다
▁역도
자책
▁레이다
▁시내버스
▁승계
▁후반기
▁Live
티움
▁108
▁하나가
0)
▁개성
▁보좌
▁시흥
let
▁태그
outh
▁동쪽으로
수엘
▁고백
▁발생하였다
▁마케팅
▁물려
▁광범위
▁잠수함
가요
▁관할한다
▁(1986
▁Alb
▁바이올린
▁차지하고
▁단순히
▁셋째
▁104
칭은
▁(2)
▁브라우
▁플로리다
▁멋
▁강요
바이러스
▁9,
문화방송
오나
▁파이어
▁버지니아
ress
▁통폐합
모로
▁도메
▁법학
하르트
▁몬스터
▁마쓰다이라
▁노트
▁일단
산으로
▁블라디
천면
▁그렇다면
▁옛날
▁상태를
▁대한제국
▁툴
라리
통계
▁목사
연기상
용의
제품
▁아이템
일자
▁돌파
▁서쪽으로
▁Korea
프스
▁본다
▁원하는
▁성공했다
▁햄
CAF
▁하마
구에서
▁스티브
▁정교
▁언제나
▁야쿠
▁Rob
▁사고로
▁횟
.17
▁스트리트
▁정식으로
민주연합
ember
▁Bar
▁주장하는
블로
초에
▁의미하는
▁미국으로
-14
▁포함된다
▁할리
▁Station
▁가속
▁꿈을
IL
▁모듈
▁(15
▁스웨덴의
EO
▁he
▁나타난
▁Colle
사장
아스
카라
화물
▁수십
▁주력
▁제도를
▁원인이
▁위치에
RA
▁현존
▁호수
▁Star
▁감옥
▁당사
▁발휘
:1993
▁링크
▁나뉘어
▁박근혜
▁이어서
▁고지
▁동래
▁Up
▁주거
-03
▁재료
마는
.13
▁강동
▁선호
▁MS
▁유배
▁세계를
▁Girl
▁김명
▁마스
▁비평가
나게
▁가설
▁장난
▁1.4
메이크
▁개념을
▁마리오
▁본선에
▁일으켰다
▁빗
아는
▁유인
▁이적하였다
분석
▁방위
▁인도의
▁이스트
▁과학기술
ike
병으로
▁놀라
▁적도
▁광산
▁하느
▁프레임
▁거느
▁계곡
공연
유를
▁마그
▁데려
▁라스
▁바람에
▁외교관
▁모르
▁수를
▁신입
▁안성
▁피트
▁트라이
▁앱
▁프랜
▁Night
현재의
▁Bo
▁106
▁조선민주주의인민공화국의
위안
점과
▁대니
▁뤼
▁망원
▁서경
▁맥스
▁원시
▁유격
천년
▁사과
하기에
▁설치되었다
▁오렌
판에
▁(6
▁판사
▁후안
▁*****
▁쉐
하를
▁일행
▁부통령
▁고리
▁사회의
▁발매한
예를
▁발족
▁York
키가
▁잡고
▁비판을
밀한
▁이준
▁시트
▁어릴
▁cm
▁AKB
▁조선총독부
aster
키스
▁교실
▁단행
▁본토
▁숫자
케이션
▁하나님
▁갖게
▁보살
▁총재
▁테오
:1997
▁있습니다
효과
.28
ION
▁강수
▁커플
후에
▁서북
▁달하는
▁무관
▁수반
▁존슨
▁지형
▁하던
▁명으로
린은
▁미스터리
▁손님
아들
파리
▁코어
체육관
포르투갈
무기
▁ISO
나기
▁우편
%,
▁담고
▁수수
▁군대
▁수직
목으로
서와
▁영동
▁태양의
:2001
▁김선
호에
ator
▁*20
투수
▁르네
▁생방송
프로듀
▁관하여
토벤
eck
▁1916
히메
▁스타일
▁최후의
라델피아
됨에
▁김형
▁끈
틀랜
ma
▁일련의
▁했
▁컬러
호선의
▁나가사키
▁험
디에
▁기부
▁하야
▁집에서
▁경향이
▁스타리그
~18
▁하얀
가고
▁자바
▁무효
EX
▁기아
▁서머
▁3000
좌상
▁영남
▁운송
stit
ated
▁수업
▁장미
비와
참모
클레
▁국기
공단
담을
아과
침을
▁보편
발의
▁조연
▁후에도
순환
▁김윤
▁인물로
해에
▁프로게이머
네마
예프
교실
▁대칭
▁사범
▁선물
▁클래스
군단
ony
▁가득
▁조기
▁125
▁감독은
▁장애인
:1987
▁School
▁샌프란시스코
루션
▁신학자
항을
▁알라
▁독립을
세종
▁~)
▁그려져
▁생년월일
양의
▁중성
년만에
ino
▁커다란
▁조선시대의
국도
출장
▁눈을
▁발표된
▁방송된
▁영향으로
GC
다드
che
erg
▁김광
▁또다른
▁상호작용
▁도구
▁먹는
▁믹
유한
▁사용하지
▁역전
▁성격을
스코틀랜드
▁포함되었다
▁낱
▁담은
▁일종의
▁올림픽에
▁아래의
▁팩
▁전망
▁위험한
?)
▁산타
▁패턴
▁1.0
▁기하
▁0.6
▁후보가
▁가수이다
▁딴
▁쿄
슬림
▁명시
▁케빈
브라질의
억원
▁맞춰
▁IN
▁정교회
시피
았지만
대왕
▁결선
교사
▁항공사
▁대학교의
▁장갑
ates
▁있어야
▁김대중
▁프로덕션
에너
▁골프
구간
▁페르난
보다도
▁특별히
▁행위를
팀이
▁Top
▁시작했고
든지
▁적극적으로
DR
프레스
▁않기
▁유력
▁금메달
▁제주특별자치
▁수상작
▁아이스하키
ke
400
▁교차
▁때마다
▁없지만
란트
▁법원
기준
▁게르
▁나이에
▁라이언
▁경고
이라면
line
▁이끌어
파와
▁홀로
▁극복
▁미노
▁상태가
▁정부에
티코
▁칩
▁전형적인
▁막기
▁시집
▁계절
▁가치를
▁교회의
▁대학의
파르
▁일렉
플라
▁가공
▁관해
▁뚜렷
▁탄압
▁사쿠
▁네이션스컵
▁애플리케이션
▁대만
▁지연
urg
▁태종
▁강하게
▁리그에서
▁쌍둥이
▁신분
▁줄어들
류는
지점
현은
▁대외
▁스쿨
▁물고기
▁외야수
▁메디
아르헨티
▁As
메니아
▁이외에도
리조
ype
▁하와이
킨스
연속극
▁상황에
eter
▁곁
위대
당하고
▁5000
(8
▁보냈
▁포함된
▁베네치아
▁당해
▁실용
경상남도의
과장
▁미션
▁토마
▁열리는
▁물리학자
▁젤
▁코트
▁갈등
에게도
▁비례대표
리브
희의
경기에서
ij
▁사로
의정
▁사직
▁업체
▁남겨
유로
령으로
▁연락
▁진도
▁도중에
▁최근에는
Sh
▁정해
타이완
치와
▁장례
▁훔
▁불상
▁증언
▁핸드
디의
▁유발
▁하노
오르
▁게시
irst
기기
▁유물
▁하천
▁정통
▁처음에
▁탕
보의
▁수준의
▁발견한
▁지원하는
▁EX
▁예외
▁흐름
(7
.21
▁스승
▁토크
▁0.7
▁내장
Un
화점
▁소집
▁con
그라
차량
▁허락
▁주변의
▁초기에는
MC
누엘
▁압도
▁중복
▁사이타마
(9
▁거대
▁촌이
▁이하의
▁무산
▁안드레
▁하드웨어
▁추가되었다
기타
훼손
▁구리
▁주된
▁톨
~20
▁예전
▁김혜
▁순수
▁돌아오
▁color
문과
▁이날
▁베어
▁힘들
세기의
▁대부분을
처리
타케
▁참모
▁188
국인
▁잠재
▁치렀다
롤라이나
▁나나
▁호르
▁폐지되었다
▁System
ield
▁매니저
▁사람이다
마사
▁남원
▁최신
▁통화
▁Dream
▁구장
층석탑
▁2022
▁됐
노의
율이
Mar
▁등장한
▁수록되어
인간
▁Sec
계와
열을
일간
▁Pe
▁소득
▁트레
▁(1985
진영
con
inn
스테르
▁모습으로
▁싶어
실베이
▁김희
▁놓여
▁사적
▁크림
▁정확히
조연상
▁그러므로
▁사위
▁흰색
티에
▁성질
가인
란의
▁포수
▁플루
▁메모
▁무리
학교를
▁사이드
말을
119
▁그대
▁오디오
년까지는
실장
site
▁선수이자
▁사진을
아카데미
▁유대인
PD
▁맺고
정도
▁근로
건의
담당
▁GT
▁유용
매치
lex
▁대서양
▁탤
▁교과
경기장
▁두번째
:1985
▁안드로이드
▁인터뷰에서
면과
삼성
역과
▁와서
▁지대
레이크
흐스탄
아트
-23
▁토요
▁구성된다
테나
벨기에
▁지원한다
비야
ler
▁경비
강을
▁버튼
▁섬식
▁캠페
|200
▁명칭으로
▁목록이다
계승
▁GS
▁아프가니스탄
▁CR
▁참가하였다
히토
▁기능이
▁발전을
문관
미에
▁공학
▁막부
▁철저
타나베
지리
차에
았는데
▁리스트
▁보이고
▁재무
▁아마추어
-06
코는
▁베타
▁이념
하라는
헬름
하면서도
▁무선
▁색깔
▁0.9
▁황제의
▁소리를
오가
▁부제
한다면
▁은퇴한
작품
▁LA
▁지질
▁지칭
▁촉진
▁호환
▁Lib
▁디비전
초등학교로
▁고안
▁자신은
족은
▁많았다
프로듀서
▁케네
▁다룬
▁되찾
▁칠레
글로
▁캐스팅
▁부르기도
▁얀
▁마에
▁별로
사리
▁단선
▁펀
▁경제학
▁관계에
▁대다
푸르트
라기
▁산화
▁언니
신으로
▁0.8
▁베토벤
벌레
▁극단
하이오
▁VS
▁실업
▁그들
▁누나
▁야생
▁총괄
▁더글
버리
제주
▁국정
avid
▁방송인
시기
적이며
▁(12
▁아비
플러스
▁받으며
터와
▁넘겨
▁피에
반의
▁리치
▁파이널
▁일본국유
▁우즈
▁쿠바
▁부상으로
lo
▁107
▁마치고
▁트럭
▁붙잡
법과
법률
▁걸려
▁장로
▁땅을
▁응우옌
실베이니아
▁실제로는
운동을
,2
미노
주식
▁당나라
조선민주주의인민공화국의
투자
▁기여했다
▁쓴다
▁일으킨
▁주목을
의가
▁맞추
▁복구
ille
▁하사
:13
▁be
▁아울
영사관
ange
▁CPU
번지
▁아서
▁한국에서
권과
ze
▁01.
▁덕분에
▁하다가
대수
▁되기도
▁진격
▁thumb
전주
▁우정
▁흙
동기
lin
케이팅
▁프로토콜
▁Not
▁의견을
▁여인
▁이소
An
이스케
분야
▁시절에
erc
▁위기
DA
▁킨
안은
▁적응
ford
▁원자력
▁회색
▁영토를
ebsite
▁템
▁CS
▁산다
▁아파
라이어
령은
생년
▁비중
▁적을
▁중학교이다
ms
▁BS
▁IP
▁어른
▁유우
▁후쿠시마
CH
노프
선수권
사기
▁범주
▁아는
▁소설을
▁입었다
ative
향을
군에게
▁간접
▁파생
래의
▁위탁
▁찾는
▁추억
▁우체국
▁불렀
▁토벌
▁기지
▁소규모
제프
▁선형
▁드라이브
▁않았지만
전대
▁내는
▁몸무
▁청와
지방도
▁종로구
뮤직
미와
버러
▁독재
▁자식
▁사건은
성도
▁수감
▁민주주의
청의
▁GP
▁1.6
▁스마트폰
▁서초
▁도움이
암리
▁성과
▁착륙
▁캠프
보면
자스
자연
▁Don
▁분기점
:1983
▁석방
▁미하
▁서남
▁들어간
▁편입되었다
▁CC
▁노리
▁찬성
슈타인
▁톤
▁리스
▁장성
:1982
▁사람으로
▁SU
▁헐
uck
▁저널
▁대단
▁약탈
▁목요일
▁분류군
▁기타리스트
▁플레이스테이션
컴퓨터
루는
▁자체가
▁티베트
전한
▁시간에
▁시간은
음의
플러
uth
▁필드
하에서
very
▁맺었다
▁범위
메이저
진군
▁헌액
▁Your
▁의도
over
▁열었다
▁있으면
▁Song
치지
회로
▁부처
-02
▁공간을
▁Park
▁데뷔했다
-)
온다
▁소위
▁뜻으로
GM
-07
판의
▁계층
트리올
▁세워진
▁김유
▁튜
영을
LS
ps
▁뚫
리야
▁고통
▁전술
나스
▁Kn
▁오지
리노이
▁노선이
▁선배
▁기반을
▁Cont
▁은메달리스트
▁Bro
네의
▁뒤로
▁성의
▁다루는
기서
▁결심
▁끝내
덴마크
▁크기가
▁오키나와
ersion
▁과거에
▁뜻이다
▁사제
▁게이트
슬리
▁고민
▁건물은
급의
살렘
졌다고
▁인물이다
▁AN
▁tr
▁도심
▁양도
▁원내
▁아무런
CE
▁스탈
▁화려한
▁영화배우이다
런던
출소
▁직책
▁밖으로
▁획득했다
보안
▁맥도
▁후퇴
.(
네가
무로
▁거리를
▁170
▁콜롬비아
공파
▁간에
바이트
▁텔
sch
▁윤치
여행
츠는
▁엔지
▁정유
▁딘
되던
▁비스
▁정재
▁살았다
▁전체를
▁톈
▁포크
였다고
구성
탄을
▁02
▁타자
바이잔
▁목숨을
▁굽
러브
▁세대
▁엉
▁지었다
▁강을
우크
▁Des
포드
▁귀환
▁상상
▁주오
동면
역학
▁잃어버
▁굉
미스
▁데스
호선과
▁Best
제르바이잔
용을
▁원형
▁언론인
▁오피스
제한
티의
서원
▁그럼
▁모모
▁싶은
▁중소
▁주변에
▁오스트레일리아의
실에
이게
▁중시
루살렘
▁(1984
생산
▁미분
▁체조
▁지역이
▁관람
▁벗어
▁교수로
▁남아메리카
▁활성화
받침
▁양식
▁후한
우를
▁동치
▁본부
▁중국어
▁백인
ball
▁되었는데
▁왓
회전
▁페어
▁Mag
▁군사를
▁막내
▁트위터
저지
▁수성
군다
▁109
▁입대
▁멸종
▁상의
▁Cor
▁못하게
▁심지어
▁독점
▁박종
▁자율
▁도카이
▁상태에
▁생각을
▁이명박
악의
▁곳은
▁소총
▁KIA
▁샹
하니
▁의거
▁크레이
▁퍼시픽
CACAF
▁충격
▁독립운동가
▁Ev
러스트
(199
▁115
▁차트에서
▁화면
▁판정
▁적어도
▁질환
▁생일
프라이
▁반대하는
▁중에서도
▁칙
고시
디는
▁입문
▁거친
▁뛰고
▁법인
공무원
▁동아시아
규칙
▁카트
실한
any
관계를
ael
까지도
▁있다가
▁나를
▁응답
▁올라가
마저
특집
▁곳을
▁제도의
▁지내고
갔고
▁미시
▁사자
▁죽고
▁최연
▁카를로스
▁올린
생활을
▁무슬림
모는
관과
▁성당
▁마녀
▁반지
▁화폐
▁문재인
▁미국에
▁보이며
▁졸업한
tr
통상
▁대조
돌이
▁im
▁삶의
▁심야
Pro
국제공항
▁참가하여
모니
EBS
황제
ena
바흐
▁소환
▁Black
▁PR
▁민속
▁삼았다
▁1889
▁전성
▁먹는다
쳤고
▁과도
▁행정동
▁결승전에서
펙트럼
연한
▁DC
▁연계
▁창당
브스
시대에
erson
GA
▁스케이팅
▁소니
▁오가
▁일자
직할
▁cl
▁시노
▁얻게
투아니아
▁사랑하는
▁일본국유철도
▁나선
▁정사
▁헤드
졌으나
▁두려워
▁성과를
▁So
▁Sw
▁감각
▁후의
오고
▁이슈
리자
바스
전공
책임
▁거제
졌을
.31
▁산악
▁흐르는
동리
▁용의
▁루트비히
경남
▁당신
▁나가노
▁1898
즈와
▁무궁
대리
소스
▁실시된
▁마키
▁111
번길
ures
▁112
▁차지하였다
▁대로
▁시그
▁일로
▁충주
▁1.8
▁옐
▁1-2
▁걱
시내
.26
▁옮겼다
꼬리
방에
▁죽자
▁\
푸르
IVE
▁김원
▁들여
▁사용이
▁대해서도
고도
절을
▁불리며
수동
als
▁하시
▁나루
▁디렉
▁왕위
▁인구의
▁첫번째
▁관심이
국과
령에
▁중립
▁향년
▁로맨틱
▁머리를
타리
▁(0
▁애덤
▁곧바로
▁Sport
▁정치가
▁Good
방이
졌던
▁간부
▁막을
▁세븐
▁평균자책
▁상하
▁위안
▁앨범을
▁서해
▁잃고
래스카
▁들었다
▁깊이
▁법적
▁사원
▁관계는
▁드라마이다
▁(8
▁재발
▁하버드
▁에어버스
카트
작으로
▁link
삼진
큐어
▁SE
▁수백
▁청룡
▁실버
▁거둔
ella
▁Ser
▁용어는
산과
인터넷
▁오렌지
▁크기의
:1981
▁비극
▁것이고
▁의미가
:1970
▁발생한다
▁피에르
▁온천
▁비롯해
▁센다이
암동
마일
▁복지
rain
▁니가타
▁현상을
▁기생
▁소관
▁조반
▁명단에
▁모집
▁민영화에
▁폼
▁그리스도
정신
EST
재의
▁따뜻
▁지표
▁사이버
▁이었다
▁이야기가
▁유고슬라비아
▁넬
▁활동한
들리
원구
▁헤어
▁제자
▁창업
▁기본적인
▁여우주연상
렸을
▁바른
▁안의
클랜드
~3
.27
▁데리고
ugh
▁지나지
▁제후
▁합리
윈도우
atch
▁없었던
▁리메이크
▁교구
▁심한
▁말할
▁선두
▁김인
▁Int
▁빌헬름
▁발생했다
터키
▁기용
▁비즈니스
체육관광부
졌지만
▁내야수
▁룩
으려
▁원장
▁주에
▁증축
▁항해
리스토
▁부분에
▁설립한
▁일본은
by
유행
소련의
▁김제
▁빨리
▁정도이다
경상북도의
:3
▁게재
▁구간은
▁적절한
ura
▁띤
▁겨우
▁의뢰
프와
▁초록
▁에너지를
▁국방부
미상
▁광장
▁본관
▁책은
▁폐기
▁로얄
▁능력이
위원회가
nh
져서
▁(9
▁교도
▁아기
▁학부
▁프로그램의
▁폭격
▁후궁
▁대학에서
노래
▁아폴
(+
모스
▁맞는
▁의석
▁구성하는
슈퍼
▁전승
▁아직도
▁슐
▁모닝
▁에버
▁조부
fr
자문
▁내지
▁달아
▁클린
▁이론을
earch
러드
카를
▁모형
▁옆에
▁트루
▁남한
▁남해
▁숨겨
이었는데
아를
▁군수
▁전진
▁수록된
ck
▁못해
▁농림
▁마인
ray
▁삿포로
래스
신학
▁보니
▁주차
▁세우고
▁필요로
▁영향력을
림을
연예
주간
.29
~10
▁이선
▁얘
▁쇼핑
▁온도
면서도
▁명칭이
▁이리
▁페루
▁(14
▁앨리스
▁네덜란드의
▁해군의
▁전해진다
8,
▁짙
목에
▁고도
▁음반을
▁히로시
▁삼아
▁크기는
▁오늘날의
▁공용
▁이반
▁힘이
▁반환
iver
▁비잔티움
주리
▁내용의
▁대법원
▁(1983
▁상황이
▁없었고
임브리지
크와
▁어둠
득점
현악
▁다음을
주기
▁디아
▁스펙트럼
▁영문
캐롤라이나
▁수신
▁모델로
▁3-0
▁이용하는
코가
▁Rem
Ph
하러
▁찾기
▁아들을
▁시호는
▁엔진을
자나
▁누계
▁부회장
▁아이치
▁총장
▁명성을
사고
▁번뇌
▁하남
전차
지오
치며
▁무죄
▁섬에
cess
▁Mac
▁그룹의
▁다가
▁두드
▁약간의
▁컨트롤
되었다는
티나
▁페리
해지고
▁밴드의
▁03
▁출생지
▁1899
▁졸업했다
트에
▁누가
▁않았던
라이나의
▁로열
▁밝히
▁신인상
더슨
▁군단
▁등재
약품
종교
인들을
ision
yr
▁대주교
▁노비
▁Med
철의
ien
▁경희
사용
▁해밀
▁효과가
▁도시철도
▁Pa
▁추대
▁세계에
ka
복합
부르
예정
▁시달
▁개발을
▁허리케
▁입단했다
▁당선되었다
▁지름
▁하라
▁아니고
테크
▁저택
치료
산시의
AK
▁신비
▁라틴어
▁운반
▁굉장
▁폭풍
▁12.
▁세력이
▁High
선거관리위원회
형사
형태
▁리눅스
디언
▁동지
▁오라
▁진출에
▁값을
▁미츠
▁있다면
우정
▁대교
▁관련하여
물질
▁-1
석으로
학과를
▁로저
▁신규
▁적의
부산광역시
▁깔
▁부설
▁침몰
군에서
oint
▁꾸준히
▁허브
하겠다고
▁스파르타
▁야마구치
formation
▁무술
▁안나
▁열차는
하임
▁물이
▁선진
▁프랑스어
글라
▁제휴
▁3.5
▁수밖에
▁fl
▁분산
▁종전
청이
▁약한
▁곡으로
▁방향을
▁블루스
▁+2
▁만남
함으로
▁사이토
변경
▁권한을
▁반면에
▁우리나라
▁필라델피아
▁리버풀
▁작품이
▁닿
▁막아
▁서방
▁타원
▁계기가
남자
▁und
▁(7
▁모니
▁비로
▁오염
퍼니
▁면역
▁소닉
▁줄리
▁국가가
▁본선의
▁Rock
▁공동으로
▁Award
▁시를
분은
▁Su
▁입증
▁공채
▁레이저
▁이어져
▁모양으로
지대
()"
공장
▁엘리베이
엔터테인먼트
경기도
▁Cal
▁중국에서
보스
▁살펴
▁오쿠
▁주한
ondon
AF
포항
▁세이부
▁위기에
▁선제
▁플라스
등에
▁타이틀곡
/3
▁바티
▁집으로
fl
농업
▁0.0
▁Inter
비나
▁굵은
▁김은
▁피난
네스코
▁가해
▁리오
▁예로
▁청주시
▁스페이스
▁Trans
▁114
▁패밀리
▁되었다고
▁아르메니아
보가
액을
▁지옥
▁목격
가와현
실점
▁다녔
▁떠난
▁Mnet
▁콘스탄티노
▁초래
▁출현
▁관장
▁도로이다
대군
▁라이선
되다
청은
▁원로
▁피부
▁세계적인
my
코르
▁아우구
토르
▁반사
▁Japan
류에
본은
아와
▁우연히
렉션
코쿠
~15
▁아역
erman
출을
ING
▁히라
▁결혼을
▁그랑프리
금은
관에서
너는
습을
아마
▁흔들
▁you
위성
cc
족을
▁평범
▁대회를
▁문화적
주곡
▁대행
▁좌표
▁브라더스
물리학
과대학교
olution
▁서정
▁신정
▁음향
▁현대의
▁City
팀은
▁눈물
▁세로
▁숙종
▁시외
aceae
▁크리스토퍼
▁진단
▁이어졌다
ody
▁가도
▁쇠퇴
▁이규
▁아이를
▁동메달리스트
사시
이름
제일
▁기요
▁연설
들과의
로미터
▁1.7
▁며느
▁Min
▁길이가
▁수록자
▁자료를
하리
▁노인
SF
전선
▁남동생
ideo
▁ISBN
▁이루어진다
▁차지하는
날레
▁AL
▁되었으나
EM
▁웬
러는
권으로
▁멜로디
▁획득하였다
▁대승
▁조상
▁간섭
▁강경
▁영국과
▁주요한
)-
▁화살
▁변화가
결정
▁발효
▁윌슨
▁피어
▁제공하고
▁제약
▁얼마나
▁의미로
미쓰
▁DS
▁그랜
▁말은
▁몸길
▁승률
▁표지
▁피렌
aint
ular
▁도시이다
편이
▁이르기까지
▁옌
▁이장
▁정동
졌는데
하였을
▁연평균
▁나카무라
▁113
▁쟁
인구
▁과장
▁구상
▁등도
▁항공모
▁휴스턴
▁CONCACAF
9,
직한
▁부품
▁테레
▁천문학자
▁중화인민공화국의
▁모친
네덜란드의
년생
der
▁풍부한
▁서독
▁열어
▁American
소한
▁애국
▁연수
▁유입
▁프레스
론과
블리
▁누군
▁물건
▁사천
▁캠퍼스
oug
▁박재
▁교향곡
▁와일드
▁운동에
▁않았으며
berg
▁강점기
▁확인할
:1973
▁때도
▁공동체
즈에
▁많고
▁버리고
▁예루살렘
▁당한
▁바그
▁약칭
▁카스
그라드
▁라트
▁사사
▁임상
▁토르
스타인
▁뿐이다
고한
▁디스플레이
등한
보리
▁역과
▁결과로
▁King
▁제프
지기도
▁동아일보
중화인민공화국의
▁닭
:12
▁거울
▁공직
▁광명
▁볼넷
▁해변
▁별도로
▁했다고
전문학교
편을
▁sc
▁세월
▁자유를
▁학교를
▁찌
▁이별
▁부동산
▁야마토
▁전세계
나시
iation
▁썬
보에
▁보인
▁Project
카는
우지
▁스캔
로스앤젤레스
다르
ury
▁대의
▁전향
▁어울
▁카탈
atus
▁제인
:1972
▁가고시마
언어
▁Bus
▁진정한
▁이오
▁제트
▁자격을
직원
▁없기
▁사람에게
▁en
▁밤에
▁사르
▁이닝
지휘
▁금성
편에
ift
받지
▁윤리
▁출연한
▁포켓몬스터
FI
▁타이틀을
▁홍보대사
bl
▁수단
▁없애
▁350
▁총선에서
▁죠
방울
▁부호
▁프렌
▁존재를
▁캘리포니아주
▁젖
후지
▁손상
▁창의
경기를
SA
해주
▁루스
▁매치
▁정찰
▁어두운
시나
▁복사
유니버
▁우수한
▁이곳에
열의
ows
▁미얀
▁123
▁광저우
색이
▁왕실
타리오
▁수상한
iety
▁지정되어
먼드
▁니혼
▁야기
ient
▁나라를
공개
▁보이스
▁파란색
버스터미널
▁수동
:1979
▁도시를
▁동영상
▁Team
중대
▁말하고
▁모양을
▁에스파냐
▁총무
▁본사
▁친척
문학상
▁만화가
토를
▁부흥
▁사이가
쿠니
▁부른
▁전체적으로
.24
암으로
▁이곳에서
▁ID
▁급격
▁스노
▁Ang
▁당했다
신경
▁환상
▁737
▁사우디아라비아
보컬
비서
▁포드
▁pr
▁이익을
토가
▁평소
▁식당
▁지혜
▁1901
▁와타나베
ta
금이
수수
평리
▁꺾고
▁바위
▁이적했다
함은
으로의
▁문화방송
▁쏟
omb
▁분당
▁원제
▁간단한
▁소속되어
거진
영이
▁토착
▁화석
테스트
▁잘못된
미네
하차
▁승무원
▁작전을
스퍼드
▁말하며
▁형성된
▁활동에
▁다음으로
▁트레이드
▁편지
|250
▁타이베이
관찰
▁마찰
년으로
▁롬
▁설이
이라며
마자
▁가질
▁의지
▁아울러
결을
로이
▁보충
▁신주쿠
▁작사가
▁뿌리
▁죽을
▁증권
사령관
▁파운드
▁제목으로
▁불꽃
of
산로
▁아담
▁냈다
▁인문
▁통영
▁Out
▁가짜
▁국어
▁3-1
▁인터내셔널
조와
피를
TP
디가
▁링컨
▁성벽
▁정선
▁자유형
▁가능성을
곡면
▁응원
▁진술
일본어
연이
▁않도록
▁하나를
고지
소타
▁명문
▁육성
▁162
▁경험을
▁노무현
▁현급
▁멤버로
▁사거리
▁휩
레알
.22
드리아
성에서
▁사실은
밴드
▁이천
▁방법이
▁특성을
?"
▁IBM
자르
장인
▁착수
▁Arch
▁몬트리올
Sp
▁ab
▁비가
▁빛을
해진다
▁손가락
▁프랑크푸르트
▁Mod
▁닌텐도
▁1890
▁떼
▁들은
중에서
▁차지한다
타인
rol
▁선을
▁220
▁영화로
ography
ops
▁me
▁(1979
▁뿔
들인
OVE
▁김주
▁아유
화하는
▁문화의
~4
우와
하가
-05
▁찾을
▁결과가
▁여덟
▁전투기
~16
▁야간
▁에우
▁(1978
버린
▁상세
▁사용해
▁책봉
루이스
▁수요일
▁윌리엄스
▁수목드라마
EG
▁점은
▁김영삼
▁부평
▁전두
▁좁은
▁탄소
원숭이
▁풀어
이치로
▁후기의
▁학력
▁술탄
▁점프
▁카와
▁합창
▁비공식
▁사로잡
▁에스토
나라를
▁144
▁문화를
▁아들이다
회말
uch
▁Im
▁의병
▁금호
▁예언
▁파스
▁현의
▁시대를
사우루스
▁시계
▁정권을
▁심사위원
된다는
▁글로브
▁무궁화
누마
▁끝까지
▁역사는
아시아의
1/
▁압박
어머니
▁규모가
민이
une
▁결과는
▁계열의
▁유니폼
▁작곡한
▁1902
▁단종
▁대답
▁분야의
Re
리온
ham
▁팬아메리칸
바오
oman
▁화요일
인인
▁근접
▁별칭
▁HIV
▁데뷔전을
▁자리에서
마츠
▁남긴
▁11,
▁마음이
▁원래의
▁오케스트라
▁어항
문자
-04
▁동성애
▁일환으로
▁놀이
▁무늬
▁미라
▁인간이
공업고등학교
쿠로
키타
코리아
▁나이지
▁베네수엘
국립
다카
색은
청을
▁회계
▁Boy
▁못했고
▁1894
▁그럼에도
북면
ird
▁훈련을
▁Tour
고자
주일
/19
▁평행
▁천황의
▁측은
▁콜린
하라고
▁사용자가
▁자손
▁속으로
▁사단법인
▁성공적으로
효소
영화상
▁구마모토
▁봐
링턴
친일
▁135
▁계획이
▁유네스코
멘트
무역
입구
▁브라우저
류로
▁wh
▁공식적인
▁덴마크의
▁유신
▁향한
▁경계를
▁그래프
▁정부를
있고
▁경신
▁요원
▁침해
▁900
▁개통과
도바
▁규격
▁병력을
▁주제로
▁담당하는
▁흩
워스
▁선거에
▁(1980
▁공무
▁부착
▁1,6
:1968
▁바꿔
진과
aur
▁브뤼
▁그동안
▁사용을
▁소재의
▁웨일스
▁지어진
▁유혹
angu
▁추기경
한테
▁Do
▁고분
▁법조
▁제주도
학자이다
▁디비시온
교로
안동
의학
▁차기
▁들어와
사항
▁pp
▁레닌
▁융합
연합회
▁관광객
▁달성했다
▁Tw
▁택시
▁회고
▁머무
▁바이오
▁법정동
Bl
실험
진구
▁빛의
나라는
▁3.0
▁라파
▁보라
ring
전라남도의
▁꽤
때로
▁구간을
전에서는
▁(1981
:2
말라
운수
▁공휴
장이다
▁활약하였다
천의
티시
▁뜨거운
▁이외에
++
▁쪽으로
▁자유한국당
▁추증
공학과
▁킴
마케
물과
▁제갈
▁126
▁미치는
▁드라이버
▁엽
스퍼
▁적색
▁보내는
▁추모
▁우루과
▁종교적
▁IM
▁매직
▁추이
주의와
▁고립
▁점유
학년도
▁정측면
▁옴
▁펴
ycl
▁이가
▁접하고
▁1903
▁베니
▁진흥
▁협상
▁어드벤처
포시
▁밖의
▁10.
로동
세키
츠와
▁달린
▁천재
RT
토모
▁민법
▁연루
▁워너
▁1897
▁엔지니어
석기
▁걸어
▁밀접
▁랜드
▁봉사
▁아부
▁일기
▁이승만
ters
:1960
:1976
▁Av
▁기체
▁장녀
되었기
▁유지하고
▁일원으로
보르
▁눈이
▁마야
▁미국이
▁Phil
▁히어로즈
▁Heart
▁개최되었다
▁시점
▁전속
▁벌였다
▁영감을
▁일본군
ichael
▁좌석
▁친정
오루
▁그날
▁내외
▁중독
▁여행을
▁전체의
노바
일기
ney
▁취약
▁인테르
장치
ther
▁실시간
▁운행을
간을
과도
파에
▁유희
▁경력을
▁공략
시부터
▁기록하고
▁루시
▁상수
▁와이번
▁중추원
/4
▁상태이다
▁하나님의
▁로고
라에몽
▁하인리히
▁다녀
▁잃은
▁때문이었다
-30
통합당
▁낳았다
▁안토니오
▁알바니아
미엄
▁송신
▁편지를
▁국유
▁아니면
▁아버지와
마키
▁액체
▁한명
패로
▁보상
▁상장
▁전염
스웨덴의
▁요구하는
키지
▁선이
▁조항
▁환자
▁이상한
▁중이던
▁채로
▁얇
필리
ords
orge
▁Fil
프로그램
▁현대자동차
rib
▁5.
▁고무
▁내고
사이다
▁끝났다
▁사카이
▁시작하는
도스
▁키보드
태후
▁차원
▁홍성
▁116
산초등학교
▁맵
바닥
▁에밀
▁파이터
▁결정했다
▁마케도니아
님이
선언
▁먹고
모음
▁노란색
률은
전시
▁경인
▁산림
▁der
▁고등학교이다
보라
씨를
작은
och
▁마린
▁창시
▁점성
웨스트
John
▁제로
▁코코
▁평창
ros
받는다
인도의
화에서
▁훌륭한
▁유럽에서
▁딕
남면
증이
혁신
▁관통
▁바가
▁127
▁고토
▁요르
▁우드
▁무대에
▁어렵다
▁Open
▁프로그램은
올로
▁별의
▁코스타
단위
▁나열
▁무승
▁독일어
▁부의
▁손해
▁원산
ript
▁쟈
지붕
▁레논
with
▁꾀
▁스리
자이자
▁버전은
▁자유롭게
▁122
▁하워드
▁김홍
▁상처
▁적대
▁효고
BI
▁뭐
곡이
▁맞게
▁아벨
▁충족
▁Ret
▁애틀랜
번을
▁마오
▁몬테
▁소울
▁게임은
▁대회이다
▁곡의
▁내전
▁전한
회원
▁133
▁동맹을
▁학교법인
아일랜드의
▁원수
▁지방에
els
▁말한
▁브로드
▁멈추
▁바뀐
▁왈
▁햇
▁ph
▁달의
▁배드
reak
▁155
▁우승에
strument
▁BC
▁Sn
▁몸에
▁출가
요리
회담
▁정한
위원회의
남부
▁비타
데이터
ural
레아
▁콩고
▁심리학
▁활동이
▁지방자치
▁전선
▁정벌
▁지목
트에서
홍콩의
▁그림을
▁프로레
!"
고래
.23
▁쾌속
▁노선은
▁북한의
RI
부리
서면
▁박용
▁졸업하였다
왔고
▁수필
▁요괴
▁뱅
▁(13
▁아니었다
올라
▁곳이
▁대학생
텔레비전
▁리우
▁맡게
▁아츠
유럽의
▁인근에
▁원작으로
현동
ior
▁레이싱
▁운행하는
▁제주특별자치도
증권
티는
▁이바
▁차이를
▁활약하고
▁삼척
ster
▁117
▁지중해
▁목적을
▁출전했다
조약
▁몰락
▁양주
▁아이슬
▁한미
▁덤
▁프랑스는
호텔
▁지폐
▁도미니
번뇌
성한
▁경연
▁군산
▁세라
▁증손
▁아이들
반을
ipp
▁마친
▁안티
▁통칭
▁난카이
류와
rav
▁연쇄
집단
▁호쿠
▁With
▁오스트리아의
왕조
▁조치
▁210
▁포함해
▁상원의원
경북
학에
▁내륙
▁라우
▁상원
▁소실
▁쇼와
▁텍스트
스부르크
고대
란을
률이
▁스톡
▁다목적
▁자유당
▁Book
▁프랑스인
▁분데스리가
▁꿈꾸
▁조르
EA
잡이
아시안
▁모두가
바리
▁공익
▁애비
▁결정을
▁바꾸었다
산맥
지나
▁강도
컬럼비아
▁Eu
▁요크
▁트래
▁퍼져
▁경찰서
▁맡았으며
▁ac
▁독일인
▁시대에는
았을
▁다중
▁로이
▁코치로
▁내리
▁하원
work
▁사용하며
▁조선일보
▁꼴
리얼
150
▁미토
▁생기
▁승자
▁가지게
▁과거의
렸던
미로
▁방식의
▁특수한
▁프리메라
건축
하늘
▁외의
공산당
년대를
주얼
▁Da
▁옹호
▁최진
▁시작해
▁조치를
차전에서
드에
▁이고
세리에
▁포스터
~6
미코
▁곳곳
▁다나카
차별
▁사나이
▁조직의
루를
슬레
시다
▁김연
OH
▁빠진
▁서원
▁유진
▁정경
▁어워즈
▁전인
▁펠리
이라도
▁12,
▁배제
▁최성
▁Red
▁조사를
▁u
만명
ars
▁뒤인
▁알제
reet
▁승리로
분과
심한
▁무지
▁박경
▁결과적으로
시게
어족
▁공로
▁광양
▁통근
:1978
▁서울에서
▁포스
내에서
어진다
▁기술이
▁다루고
▁때때로
축제
▁심의
▁안장
▁초과
있으며
▁대신에
▁모르는
사진
슨이
▁바실
▁Bi
▁이호
▁독자적인
▁헌법재판
▁가톨릭교회
PM
대행
본이
수영
홀름
▁최강
▁출토
▁넓이는
팀인
해방
ola
ume
▁건의
▁MHz
▁뒤에는
▁알려지지
소니
por
▁끝이
▁메타
▁시부
기이다
쪽의
현에
▁하동
마르크
:1974
▁2,000
▁Center
▁MA
▁스핀
▁오비
▁일으켰
▁방영되었다
스러
유도
▁세션
문으로
view
▁1,2
▁접한다
▁최종적으로
솔린
신라
리이
장로
▁할당
▁불리기도
▁장학
▁탐정
▁패널
ello
▁등이다
▁기숙
▁몰래
테르부르크
▁갑작
▁시스템의
▁부과
▁슈팅
▁천사
▁만나게
▁KB
▁해주
▁개발된
▁따르는
▁합병해
▁칼라
목소리
▁가능하게
▁성립한다
마와
티넘
▁듀얼
▁제수
▁Pre
베키스탄
변을
▁채무
▁해임
리조나
▁부르며
▁마르크스
진보
▁우치
▁아름다
▁전투에
▁한동안
스코리아
▁캐시
▁그냥
▁재활
▁된다는
수면
작을
▁박준
▁카타
▁의원이
▁(1977
XX
론적
형에
▁주장이
▁창원시
루아
▁대하
▁언어로
▁쿠르
▁구조의
요한
▁김미
▁여론
동에서
베니아
amil
▁작품상
▁팜
▁국적
▁승부차
놀이
속도
▁내보
▁이브
▁일에
▁태평
된다고
▁최근에
▁플라이
oe
▁//
▁니콜라
▁죽음의
▁실패했다
▁타이거즈
철도가
▁사무소
▁발렌시아
▁쇼군
▁훼손
주년을
▁후보에
병이
▁낱말
주의는
▁리그에
▁영화상
:1971
▁진출했다
▁중도
▁호출
▁ver
▁밟
▁한스
ident
▁다이아몬드
율은
▁GO
▁am
▁배달
▁흥행
▁유로파
▁경주시
▁앨범은
노부
환의
▁스폰
▁장안
유대계
▁신라의
▁국가에서
▁프로듀싱
숙한
▁대피
▁마약
▁음반의
▁보스니아
▁보여주고
▁야마모토
▁남우주연상
▁급진
▁약물
▁Ber
투를
▁니코
▁동명
▁노래는
▁단축
▁힌두
▁마이너
▁초점을
플레이스테이션
▁맘
시즌을
▁직접적인
지부
▁신지
▁장려
▁정성
▁처녀
▁동대문
▁도움으로
▁지미
▁태백
▁작품에
▁테이블
▁트랜스
▁형식의
레는
ama
▁고령
프로스
▁민주화
▁제이슨
연방
▁감지
▁하비
▁0.1
▁시절의
▁에디션
▁Spec
▁한국에서는
(1)
▁날아
▁들이
▁탓에
▁조약을
800
▁상반
▁수치
▁아니며
▁.5
▁대폭
▁중력
▁움직임
▁충분한
la
만화
▁경로
▁실린
▁일도
▁계획은
▁공민
▁손녀
▁워터
▁0-1
▁또다시
트로이트
order
아역
▁di
useum
▁보여주었다
▁.2
▁내내
▁쓰인
:1964
▁한국철도
ada
▁동네
▁수렴
▁0-0
▁남아있다
공립보통학교
▁추격
▁포로
▁본격적인
AI
석에
▁해태
▁연구는
▁지역구
▁김도
▁땅에
▁염색
▁막대한
▁불만을
▁일찍이
▁크리스티안
▁성은
천시의
▁근처의
▁일본이
~5
▁IV
omas
▁강남구
▁선교사
▁없으나
▁매사추세츠
:9
인사
추진
▁분광
▁최영
▁불계승
▁모순
▁Sum
▁일본에서는
가르
무네
▁중앙에
▁크라이
▁봉해졌다
리드
바논
시켰고
▁오리온
▁자회사
▁움직이는
메다
▁3)
▁진출하였다
터로
oth
▁각기
▁교섭
▁수평
▁득점을
▁자신에게
▁가벼
▁등극
▁연령
▁구체적인
▁미들
▁존경
▁발전에
▁껍
▁Cr
▁무려
▁장의
▁항일
▁현존하는
▁se
▁기름
▁싸이
가에서
▁1.1
▁사고가
▁체육관
▁가톨릭교도
▁맑
형제
▁터보
때문에
중에는
▁생각하는
란이
▁규제
▁정의할
보수
트맨
▁목조
▁공동제작
▁Instit
LC
가쿠
몽골
▁식별
▁얼음
▁영조
▁비슷하다
고종
▁수페르
▁그리스어
큐슈
▁않는다는
▁십자가
▁운동의
집행
한정
▁바닷
▁우울
▁앙리
▁하키
▁호위
▁Sports
▁대령
▁콘크
▁일부로
렀고
▁매출
▁석조
▁송파
▁활성
▁케네디
체인
ida
▁듯한
▁2.4
▁내부의
▁한국시리즈
애틀
였기
펜하
▁역에
▁수천
▁캐서
▁폴란드의
진행
▁살던
▁퇴역
▁치료를
▁송도
▁용이
▁들어가는
▁급식
▁목적은
파출소
▁요소를
국사
나를
도비
▁마하
▁산요
▁옵션
주의에
▁군대가
▁서서히
▁언어를
▁슌
공이
|19
▁뜻이
▁off
▁마을의
▁림
려서
전략
퀘어
▁부서
▁타쿠
견을
▁김구
브리엘
판으로
▁범유행
▁하거나
:5
있던
▁단층
▁리뷰
▁옷을
시까지
자였던
▁찾아가
▁중앙선거관리위원회
elf
▁사이에는
▁121
▁성공한
▁요시다
▁정도가
애니메이션
▁Met
▁트리플
병의
▁부적
▁얻는
▁전에는
▁기갑
▁섭취
▁죽이고
▁Count
로프
플레
▁퇴임
▁Reg
:1963
▁생각하고
▁시작된다
▁하더라도
▁EC
▁왕복
▁웹툰
▁자책
금으로
릴라
▁김규
▁좌파
era
▁AD
▁일관
도쿄도
강점
ines
AY
빌딩
스런
▁Em
▁전부터
▁LP
▁Rad
▁거리에
▁털이
▁행선
▁Dev
▁서울대
▁유소년
▁느낀
▁둘은
▁부수
▁부패
산에서
ales
▁국가를
▁강사
▁기권
▁명성
마스터
▁북쪽에
▁예술가
겼고
내면
ush
▁게오
라이브
▁지역과
▁행복한
▁프랑수아
duction
▁컸
됐고
번대
▁헬로
▁출시된
▁토대로
ero
▁업그
▁포괄
▁마르코
▁사라진
▁데이비스
▁싱글이다
교가
▁국무총리
노스케
▁공간의
▁감독이다
▁사용하기
▁시작했으며
▁사육
▁정말
▁차장
▁명명한
촌리
▁사랑에
▁경제학자
▁괜
났을
리사
여우
▁면허
▁전투가
▁카를로
▁특유의
단에서
청소년
▁검은색
be
▁댐
▁바나
▁해역
lish
▁기업의
▁셸
노는
회와
흥군
▁신하
▁이방
분데스
티아의
레드
시고
▁고수
▁마블
▁쉬운
소학교
▁때로는
▁신입생
바른
선조
:40
MHz
미치
▁대덕
▁문명
▁물에
▁입체
텔레콤
브르
칼라
▁(1976
세다
▁풀려
▁website
▁작고
▁취재
▁측근
▁어머니의
▁한국전쟁
종이다
▁거기에
▁형식을
▁카자흐스탄
▁앓
미트
철학
▁글리
▁다마
▁오로
▁진급
▁사랑과
▁속도를
▁연구가
ature
▁길고
▁성명
▁오바
▁두드러
▁말하였다
▁프로그램이
동성
에의
주민
▁118
▁카이사
외선
캐슬
▁공모
▁도둑
▁박쥐
▁초창
▁데이빗
▁서울의
트페
▁성동
▁가족의
▁이미지를
ya
▁동년
▁러셀
▁전례
▁연속으로
:50
▁거짓말
▁지금도
과로
쿠버
▁대관
▁사료
▁에서는
▁사망하고
▁컬럼비아
음에
▁두루
▁무력
▁핑크
동일본
모델링
▁간사이
오스트레일리아
▁고조
▁삼고
▁동물의
▁후반에
▁신한은행
▁문예
▁상담
▁성주
▁조달
▁피츠
▁관현악
▁근거로
▁Super
▁진해
NE
글리
용이
alt
▁끊임
ious
▁들어오
▁형태가
▁Wind
▁(1982
천사
▁아크
▁악화
▁터치
▁합작
측의
토는
▁성종
소방서
▁1,9
▁명탐정
TE
러가
에미
진에
당으로
▁구출
▁아쿠
▁캄보
▁개념은
▁과학적
▁미술관
▁받기도
▁중순
▁특이한
▁율리우스
금지
▁박탈
▁신기
▁유해
▁정면
ross
▁자세히
▁학생들이
DI
감한
구르
▁이타
▁별자리
고등학교를
▁(1968
LG
▁객관
▁남쪽에
▁페르디
▁야마가타
형과
ula
▁작센
▁해밀턴
▁팰
자본
err
▁프랑스에서
yc
원제
▁거북
▁도시는
▁총선거
SK
▁샐
▁카디
▁토미
▁건물을
▁09:00
▁대안
▁굉장히
▁London
▁항목
▁Act
:1969
알라
▁HT
▁배신
▁이틀
에너지
ival
▁후보를
▁시스템은
▁William
체고
arm
▁차가
▁히메
▁아키라
▁지배를
▁아래로
▁야구장
학습
▁MB
▁줄어
|300
▁국내외
▁시기의
너의
▁검증
▁당의
▁문경
식에서
▁중기의
각의
준의
▁재팬
▁끝나고
▁라스트
▁서대문
▁개신교도
률을
주택
▁이건
▁자신과
1.
▁공인
▁선구
▁직선
▁전한다
루냐
lor
▁기어
▁창건
ourn
▁지역에서는
반응
▁Di
▁대명
▁셈
▁정렬
▁속도로
▁해남
▁출입구
▁학교에서
▁Group
▁돌연
▁평면
셈부르크
▁스튜어트
선수권대회
수용
우며
▁("
▁고양시
▁알렉스
수지
▁미만
▁병력
▁초연
▁거슬러
▁곡이다
네시아의
니즈
수정
직에
▁고발
▁동독
▁배를
▁임명되어
AB
Sc
곡의
받을
포병
▁매달
▁세균
▁새정치
▁동메달을
▁제작되었다
ets
▁qu
▁관악
▁성모
▁라이온즈
▁자동으로
▁갇
드르
▁유이
▁정조
▁타점
요코하마
이었다고
▁오하이오
▁복선
▁사망자
▁인정받아
▁Tim
▁전설의
▁얻기
.000
▁나이가
▁라고도
석과
우트
▁간이
▁부를
▁중심지
백을
▁신조
▁마코토
▁도라에몽
▁성공적인
▁네오
▁기상청
▁모나
▁그렇지
▁로그
▁성질을
열이
▁베리
이어서
vent
▁달러를
▁사랑은
틱스
▁퀴즈
▁만나는
남녀
▁괴롭
▁조리
▁쫓겨
▁다음에
장한
폭력
ats
the
▁다니는
▁지상파
▁시골
▁채권
▁캠퍼
Inst
▁일본으로
▁구체적으로
외국어
콘서트
▁Val
▁활약한
위원회는
:1945
가게
bit
unn
▁딸을
▁불어
▁건물이
▁환원
▁가솔린
▁재산을
▁챌린지
▁한국에
▁화제가
▁고인
▁미터
▁평등
▁규정하고
▁경우를
▁면에서
▁속도가
▁차지한
▁관점에서
▁일러스트
신인
엑스
▁가맹
▁추상
곡으로
인원
ept
~14
▁더빙
▁역임한
▁생각한다
ano
▁호프
▁구스타
▁발생할
▁루이지
▁이르고
CO
다테
▁최적
▁협약
베스트
▁마음작용
▁익스프레스
▁TN
▁누르
▁둥근
▁에미
▁이의
▁Mart
▁일제강점
▁(1965
▁피겨스케이팅
EE
▁정인
▁쿠로
▁곡이
▁방콕
▁국립공원
트페테르부르크
아지
▁이누
▁증기
bo
시트
▁악기
▁죄를
▁시절부터
에스
gram
▁분포한다
▁South
제철
행동
▁삼촌
▁Mic
▁세상에
▁판결을
▁ad
▁자발
▁중심의
러의
▁난이
▁도미
됐으며
▁기록에
▁뉘
샤바
▁내무
▁박진
▁앞면
▁이식
▁대회는
▁마음에
▁사이를
▁참고로
재가
▁대책
▁드라
▁유출
▁쫓아
▁호칭
레스트
▁학교에
▁현상이
닐라
hed
▁1884
▁생각했다
광고
라르
신과
▁일조
▁신화의
La
▁콰
▁쿤
샤오
▁대처
▁불을
▁오고
▁맞추어
▁모하
▁Web
▁가능하며
희는
▁팀에
▁포터
▁선수를
어졌다
체제
oun
▁끌려
▁나츠
▁이모
▁연방의
▁은메달을
▁5,000
▁아틀레티코
포의
▁사모
▁의사를
업에
▁+3
▁시뮬
교회의
▁왕으로
▁상징하는
▁지지하는
▁못할
▁압둘
▁일명
▁1,5
서스
이하
▁간호
▁감정을
▁둘러싼
▁발매했다
▁어려움을
▁Official
Le
구나
루시아
▁지냈으며
연세대학교
삼국
▁서귀
▁짓고
▁학위
DB
▁대위
▁Win
▁당선자
▁천문학
▁도카이도
국적
aby
▁Mr
▁May
▁베어스
▁트윈스
▁아제르바이잔
바키
▁KO
▁마술
▁황제가
:1950
▁플래티넘
아야
판매
▁변수
▁퇴각
▁의원은
▁자치구
▁진나라
그리스의
▁노조
메이지
생으로
▁13,
▁서식한다
▁나비
▁상인
▁존중
▁주축
▁진정
▁프론
▁OCN
▁지명을
▁플래시
▁돌아갔다
▁회의에서
인권
▁난다
출판사
▁NBA
▁붓
타워
▁달러의
▁전통적으로
파니
▁지역이다
투쟁
▁신설된
▁발견했다
▁세계유산
▁GN
▁아산
▁한쪽
▁피해자
짜리
▁올드
▁며느리
베트남의
▁잦
▁God
▁일하는
공립국민학교
▁구제
▁맞지
라이드
▁아무도
한을
ude
▁괜찮
▁대합
▁뒤집
▁워크
▁축하
ocal
▁Way
▁레이디
▁.4
▁Hol
▁제국이
▁기록하여
▁담당하고
격이
▁조영
▁마라톤
▁제작자
▁Album
▁며칠
▁박스
체육대회
▁진행된다
메가
▁124
▁거리가
▁이처럼
사태
코올
▁복제
▁써서
글라데
ship
타입
▁#"
▁du
▁구해
▁윈도
▁얻는다
▁제외하고는
▁끓
ling
▁건너가
▁카운티
▁선언했다
일체
▁깨닫
▁외곽
교차로
▁노력을
두산
람쥐
양함
의에
▁김소
▁협박
uman
▁태그팀
▁룰
메드
▁재혼
ages
▁누르고
▁일했다
▁악마
칠리아
▁240
▁건물의
▁고려의
rd
▁시키
▁것인가
▁군대는
가나
120
▁중종
▁현종
리학자
▁게이지
▁정확하게
문학과
▁탤런트
인승
▁물어
▁섬을
▁유저
▁조이
▁실험을
▁하였는데
코로
▁법을
▁아니지만
▁일으키는
반도
아사
▁SD
▁SL
학위를
▁생각해
▁(1973
▁공과대학교
그러
▁차례로
▁황해도
ootball
led
▁체제를
▁되었지만
▁걱정
▁볼리
▁방식은
▁영상을
▁Society
▁낫
오를
▁담긴
▁실려
▁르네상
▁세종특별자치
za
작의
▁북위
▁조현
▁찰리
▁올스타전
▁보완
▁뷰티
▁촉구
▁편리
마니아의
:1967
▁독일에서
데라
▁낭만
▁매개
▁버려
▁순교
▁히사
기념물
:1975
▁성별
▁회사는
TN
▁석탄
▁바이러
ional
▁아케이드
▁Bu
▁난징
▁토끼
▁왕위를
▁(1974
▁블라디미르
▁입구
▁모델을
▁오카야마
yd
▁창녕
▁최하
캐스트
▁11.
▁평범한
심사
ala
▁느껴
▁몸이
▁이남
▁이내
▁종결
▁투구
▁하치
▁영역을
▁이듬해인
▁조건으로
놓은
▁꼭짓
▁명백
▁허리케인
코와
▁시종
▁식량
▁신생
▁대전의
▁있어서는
▁리사
▁생략
▁양궁
치면서
▁아이언
년대부터
▁승강장은
▁시즌에는
운다
▁전압
▁역사적으로
▁릭
개는
수학
▁int
하였다가
톨레
uel
▁복면
▁중퇴
▁빨간색
▁줄여서
▁중의원
▁민사
▁유언
▁Cap
▁만났다
▁생기는
▁야마다
프리미어
▁Gold
불가
원자
표준
▁무서
▁재미
▁치명
세에게
▁결혼했다
길을
▁군을
▁대왕
▁오류
▁호조
▁감독상
▁시즌의
▁Techn
푸스
ize
▁탐지
▁사랑해
strumental
어에
▁병행
▁브랜
▁신이
▁앵커
노동당
▁3.1
▁val
▁가난한
▁그러자
press
리쿠
사자
팀의
▁자오
부장관
:"
경주
▁최정
▁후배
▁히타
▁펌
하려면
▁kt
▁교외
▁서재
▁제독
▁시즈오카
▁냄
▁맏
나우
olf
▁내린
▁합법
▁목표를
▁에티오
▁프레드
인칭
▁대웅
▁말기
▁보지
▁사와
▁대회의
▁소나무
▁bl
▁동명의
기관으로
▁경상남도의
:4
감사
려면
▁직통
▁임시정부
▁동남아시아
노선
거리는
대성
▁남우
▁재현
페스트
-300
▁자세한
서리
용은
▁성격이
▁가마쿠라
니티
▁강이
▁견해
▁바퀴
▁사상을
림의
700
▁비치
▁아인
▁입자
▁Bea
▁공사가
▁컨트리
▁Road
▁그레이트
▁일어난다
업무
질로
▁선로
▁쓰기
게이트
▁오사카부
▁프리미어리그의
▁돋
(2)
▁백상
▁패트릭
▁파리에서
▁2014.
".
가왕
모르
포터
▁사헌
▁후일
▁철도가
▁나이지리아
출력
▁반공
▁카츠
▁주니치
▁거주하는
▁비슷하게
설립
업이
외교
▁안드
▁카롤
▁극작가
▁국보
▁음원
문화유산
▁등장했다
▁프리미엄
히데
▁무슨
러피언
세데스
▁일어날
▁주파수
▁플러스
:1966
▁민주공화당
각이
과거
에쓰
족과
▁대영
▁분배
icle
▁맡았고
▁더글러스
▁에스토니아
▁펜실베이니아
);
FL
Wh
연료
▁국소
▁디오
론에서
무스메
미국에
헝가리
양성
▁해를
▁다리를
▁되었을
(0
▁맷
▁기적
하였다는
▁광범위한
▁국가대표팀의
▁사용될
▁소행성
▁프란체
브루
산물
ein
ita
▁삼진
▁하우
▁무거운
▁1885
▁이상으로
상황
후기
▁전념
▁영화에
▁투르크
▁지속적인
sy
설이
▁가오
▁유산
▁적절
▁전도
▁진동
날로그
년간의
▁대학에
▁주지사
필리핀
▁LOVE
▁확인되었다
서부
▁붙은
▁소매
자였다
▁175
▁교육부
▁세워졌다
Ad
▁베네딕
▁중간에
▁잉글랜드인
▁블루윙
▁어려움
디나
통제
▁신선
▁영유
▁분리되어
▁소속이다
▁각색
▁장인
▁나오지
▁충격을
other
▁한양대학교
방위
▁Net
▁새겨져
▁완벽한
▁지정된
▁출전해
시드
▁Sk
당에서
reat
▁4.5
▁구조는
▁특징은
▁부정적인
▁리투아니아
▁낼
사르
▁열고
▁프리큐어
놓고
초를
이거나
▁지나치게
▁솟
민은
▁유타
▁커널
▁개발에
천을
▁뜻의
▁145
▁정읍
▁조직을
:2021
▁리모델링
▁시절에는
상업고등학교
로니
:05
▁다테
▁바꾼
리스타
인들에게
야는
▁누적
▁원리
음으로
화하여
▁Mil
망이
▁안쪽
▁받았으나
▁유령
tain
▁법무부
▁부문에
▁진행된
▁전쟁으로
▁낮아
▁운동이
▁대한항공
▁(2021
건이
취급
▁Let
라이어티
번에
우편
▁밝혔
▁왼손
▁입원
▁129
▁분야에
게소
브를
온이
▁공전
▁꼬마
▁경험이
pm
서도
▁공감
▁유영
운동가
준비
▁가자
▁은퇴를
hys
블랜드
▁결과에
▁않았기
▁대통령을
▁들어간다
GE
▁나아
▁추첨
▁캐리
버렸다
▁Mor
▁특별출연
▁모으
캠퍼스
▁(1969
소득
▁거론
▁성북
▁연금
▁각본을
기갑
off
▁Ke
▁도주
▁분장
▁수도원
▁음악의
다오
성면
▁로버
▁RNA
UT
▁덧붙여
▁얼굴을
▁조금씩
▁회원국
▁Science
AE
쿠르
현과
▁나눠
▁별이
도르프
평론가
▁킥
▁고든
▁상용
▁아홉
▁유죄
경으로
▁장거리
고등보통학교
▁불편
▁시크
▁칭찬
▁플랑
ayer
▁Sun
▁에어로
▁서울특별시의
피는
▁희극인
길이
▁동행
▁수녀
▁밴드는
▁어머니가
ady
▁제곱
▁캡틴
▁탁구
▁대학을
:1977
▁(1970
▁변경하였다
▁아일랜드의
결합
전도
달라고
루스의
▁군사적
▁스포르
▁정부와
씨와
창원
▁게리
▁형법
▁원자로
▁긍정적인
목의
실과
아오
▁격투
▁그루
▁받기
▁소금
▁신속
▁청송
▁기반의
▁당신의
▁중심이
▁생각된다
ASA
▁NT
▁데드
▁주사
▁2.3
▁Sim
▁아버지를
▁3,000
께끼
▁롤링
▁선도
▁했다는
▁뭉
▁강연
▁사정
▁입주
▁재난
▁한계
형이다
rown
▁vol
충청남도의
▁프로레슬링
▁다항
▁출산
▁건축가
▁슈퍼컵
▁식으로
▁이론은
▁가브리엘
▁일시적으로
▁개화
▁체중
페오나
urch
▁강제로
▁긴테쓰
▁미야자키
NH
플루
▁빌려
▁샘플
▁소지
▁종착
▁지수
▁밑에서
▁헤르체고
~17
▁시켜
▁종점
/201
▁깨달
▁방패
▁현저
바라키
▁아키타
▁소유하고
▁Robert
랴오
파울
▁치열
도마뱀
위에서
▁다음영화
▁턱
세자
▁매체
▁사커
▁기관차
▁선수들이
도군
▁관습
▁보일
▁세조
▁사람과
▁프랑스와
두리
▁성서
AV
Com
▁자신도
▁행성의
교는
itz
▁슬라
▁줄기
자리에
▁회사를
▁Back
▁짱
장수
ied
▁루터
▁석탑
▁야당
년이다
▁국경을
▁연구하는
▁준우승을
▁참여하여
ally
▁수행하는
IX
간지
왕전
코타
콜라
day
▁이한
▁최후
▁Inc
▁승리한
▁의회의
▁제품을
(2010
▁쇼트트랙
▁이집트의
론자
상규
▁국군
▁주행
스카르
지역의
ones
▁영향력
탄의
▁Sl
▁강희
▁나주
▁만의
▁End
▁모리스
▁배우자
적이었다
▁선수이며
파인
▁중대
▁간호사
▁급제하여
레타
▁TR
▁팽창
화하고
101
▁담배
▁부딪
▁수색
▁요정
▁유벤
▁유재
▁카우
▁컨셉
▁향후
▁경기로
▁된다고
▁에이지
ization
티보
ump
▁전지
▁747
▁여학생
▁100%
다지
망의
▁예배
▁진수
▁플러
▁회담
▁퍼스트
년대에는
▁노부나가
▁급속
▁미루
▁폐위
▁교수가
▁민족문제
▁Fe
▁문법
▁섬유
▁중위
레이트
▁청와대
▁시작되어
▁프로세서
바람
추는
히사
▁경사
▁리에
▁첨가
▁회화
▁남부의
▁형태는
("
야가
유리
▁쌓아
편으로
▁네이버영화
대륙
▁완봉
▁직행
▁David
음은
▁이긴
▁CEO
▁나갔다
잉글리시
arles
▁의령
atic
▁남아있는
bs
ja
▁길게
▁놓은
▁몰려
루미늄
미술관
테이션
▁마을을
▁우승팀
▁의견이
▁룸
▁남자의
▁삼성전자
예술고등학교
HD
널티
▁관공
▁소통
건은
증으로
▁사이먼
▁선거를
▁정책에
▁활약했다
▁ft
▁퍼포
▁플랜
강에서
권에서
폴란드
▁소수의
▁여성이
▁점이다
▁설립했다
쿠치
▁권총
▁모방
▁물고
▁종의
년동안
▁데스크
▁보고서
▁본인의
칸의
▁it
je
▁패자
▁나타낼
▁프란츠
▁추정되는
사토
시에는
▁할리우드
인수
지능
▁기묘
▁중기
▁연결된
▁숀
▁유카
▁성공회
▁이루었다
▁있었다는
▁중에서는
ichard
▁사회민주당
란히
▁갈아
▁슬픔
▁09.
▁Kh
▁구의
▁해병
▁영어로
▁North
비언
▁위임
▁대상을
▁소나타
히트
▁사하
▁소셜
▁사범대학
▁권고
▁넘버
▁유라
이었기
▁성공하였다
▁섀
▁과정은
박한
성동
▁최재
▁Mat
▁실질적인
관련
내어
▁히스
▁버전의
▁station
▁데뷔를
광장
기동
연장
▁BL
▁고체
▁아예
▁CBS
▁활동은
▁활발한
▁강철
▁시공
▁효소
▁man
▁최악의
▁우승하였다
네시
발사
▁보드
▁공사를
퓨팅
▁그레고
▁않았으나
▁태극
량으로
▁How
▁넣었다
▁1871
▁시점에서
▁AV
▁불이
▁기록된
▁미야기
▁1880
인한
▁유동
▁주부
▁치안
▁한큐
▁177
하겠다는
▁꿀
ope
▁고래
▁아세
▁모델은
▁분류된다
▁대치
▁약화
▁엔터
▁MTV
▁성남시
▁지키는
▁클라이언
▁정미
▁단위로
▁마음의
▁문과에
▁겁
토론
▁카프
ison
▁뉴욕에서
▁생겼다
▁시네마
NG
~8
톤의
▁고사
▁고쳐
▁리비아
▁아마도
ART
▁마카
▁정글
▁제너
▁지쿠
▁힘든
시의회
▁전라도
히라
▁믿고
직에서
▁도널드
프리미어리그의
리니
포동
▁미셸
▁이강
▁지능
▁한중
▁부족한
▁Miss
남동
▁격퇴
▁오를
▁마누엘
▁마스크
▁발견되는
▁Enter
▁중앙대학교
rew
▁사바
▁선원
▁현금
성이다
▁2.6
▁물리적
▁1800
▁방송되었다
▁자유민주당
▁Museum
HT
▁틸
공격
채를
키와
거리를
결산
ues
▁박씨
▁전날
▁팀명
페오나투
ittle
네오
함의
▁실전
▁피로
하였기
▁Leg
▁쓰였다
▁제주시
전남
중계
▁신중
▁(3)
▁것에서
▁Show
▁2013.
감에
경과
마드
전설
집에
(11
▁박태
▁키타
▁포토
▁165
2000
▁파일럿
▁스트레스
한국방송공사의
모노
rand
▁조선인
마로
▁무성
▁민영
▁전체가
▁잃어버린
예술대학교
▁지고
어에서
▁132
▁시즌이
핀란드의
▁온타리오
▁임용
▁집계
▁팀인
▁10%
▁시간대
▁미국에서는
포럼
▁fr
▁1860
▁설립하였다
▁붐
▁밀란
▁스기
▁조세
어이다
▁연예인
▁몸무게는
▁여기에는
고려대학교
천년민주당
무장
▁반박
▁순회
▁싶다
▁총대
▁헤라
▁요금소
▁학교의
번은
해지는
▁그림자
▁사회에
▁찾아서
▁파일을
▁획득한
▁Class
라니
랑카
층은
타우
▁시바
▁유연
▁치즈
▁컨페
테이너
▁그려진
▁미시간
▁주에서
▁지방에서
▁걸린
디지털
▁가이드
▁안도
▁카사
▁하락
▁Mem
▁데니스
▁기점으로
▁나라에서
▁주인공으로
IF
이동
▁GB
ible
▁유격수
▁Pres
▁활동하는
▁(1957
▁슬로바키아
장사
▁my
▁음모
▁이곳은
당하였다
▁일어나자
▁고쿠
▁자카
▁138
▁LIVE
▁봤
▁단단
▁밑에
▁서민
▁콜라
▁과정에
▁구조로
▁바꾸어
▁페널티
지아
▁마나
▁발급
▁희귀
rary
▁순수한
▁영국은
▁Mark
min
▁쿠퍼
▁수술을
▁지식을
▁커뮤니케이션
▁솜
속을
▁보성
렸으나
속으로
▁Assoc
럴드
없음
for
▁DN
바스티
:1946
▁trans
▁아르헨티나의
악한
▁좌절
▁소속이
▁일리노이
▁AB
▁조조
▁Are
▁방법이다
▁특별기획
▁정부로부터
▁전제
▁육군의
▁아시카가
▁가네
▁인형
▁제압
▁파나
▁서바이
▁호평을
▁수수께끼
것도
유적
토크
포가
▁.6
▁브루스
▁캔자스
▁으
골든
포리
▁아날로그
▁인정하지
과정을
▁드러나
무관
lev
▁신임
▁전격
터키의
▁Cat
▁시기는
IE
따라
집이
덴마크의
▁Prof
▁재단법인
▁참가하는
,19
▁1.9
▁del
▁우주의
츠크
▁밀어
▁이끈
:1952
▁Blue
▁College
고문
더는
애미
▁괴물
▁권위
▁정종
▁건물로
▁지휘관
▁라이브러리
▁플레이어가
▁보령
▁주류
일에서
▁1,3
▁MSL
▁교수는
▁레스토
▁줄리아
네티
리라
▁Ma
▁얻고
▁위장
▁직장
정부의
ique
▁한성부
멕시코의
▁아카데미상
▁10,000
▁Jr
▁군은
▁브룩
▁읍면
▁일산
구의회
▁생몰년
▁서쪽에
▁체계를
:1962
▁켈리
▁국가에
▁김일성
▁아름답
▁선보였다
▁정보통신
그는
대손
벨라
보장
우기
▁BM
▁쓰레
▁발라드
▁아미노
▁카리브
▁조선인민
ournal
▁추출
▁하코
비오
▁벌금
▁헌터
▁동메달
▁별다른
▁전두환
▁Serv
▁대신하여
▁발을
▁아랫
▁블랙홀
▁캐서린
언론
음과
카시
▁리베
▁잠실
▁체인
▁항소
▁그러던
더레이션
이스라엘
▁제외하면
▁측면에서
▁엿
년은
후군
▁글자
▁늑대
▁대가
▁뛰어나
연출
▁간토
▁설탕
▁천도
▁춘추
▁무기를
보병사단
CP
▁극히
▁박수
▁부지
:1956
▁노동조합
▁다이스케
▁신설되었다
▁짙은
▁초회
▁min
▁도야마
의사
학은
▁델타
▁화순
▁하루카
오스트리아의
▁결코
▁지점에
▁팀으로
▁연상
▁품질
▁소비자
▁장군의
▁탈삼진
▁탈환
신성
일즈
해튼
▁넣고
▁조인
▁자체는
▁하이드
▁해리스
▁니콜라이
▁유러피언
eneral
~9
르지
전리
▁높고
▁이대
▁모니터
▁신학교
두는
▁자의
▁역까지
▁있으면서
▁경기에서는
희가
pro
▁담겨
메이트
▁제국은
▁무비스트
시카
~12
레인저
생몰년
▁5.5
▁최대한
▁양호
▁어휘
방에서
▁Bel
대회에서
예술대상
:1948
▁경기도의
irt
▁날에
왔으며
▁회사가
▁First
조리
풍을
▁두개
▁타마
▁협의
▁2.8
▁50%
▁들어온
▁수원시
▁사라졌다
▁이노우에
액의
운의
▁초빙
이면서
▁함부르크
▁개축
▁양키
▁선수는
기관이다
▁약혼
▁제네바
브의
▁매입
▁파인
▁기능은
▁이어진
▁일본을
했습니다
▁부위원장
▁빔
방식
▁강성
▁모티브
주식회사
▁경우에도
▁중소기업
동아
적이지
타이완의
워서
▁음료
▁시설이
▁Club
Ex
▁눌
교양
▁에반
▁싱글로
▁둘러싸고
▁시스템이
▁않는다고
▁참여하는
레를
▁송시
▁출구
▁팔라
▁회수
arth
▁앤더슨
▁우승자
▁콘테스트
정수
▁경호
▁나가는
▁여부를
▁초반에
▁Long
▁위치하며
Ed
▁종족
▁나섰다
▁되지만
▁아폴로
▁태도를
▁Year
▁월드컵에서
▁Street
융합
▁그릇
▁산소
▁칭호를
▁카스티
▁색을
▁음식을
▁조건이
▁출전한
▁포르투갈의
네는
도전
명인
▁art
(2007
사쿠
▁Ha
▁간선
▁일화
▁정밀
▁힘입
구무스메
▁라트비아
~1
무가
붙이
▁LC
▁연봉
▁왜냐
되지는
▁사고를
▁피해가
▁캄보디아
위해
인들
▁디지
▁쓰시마
▁요소가
폴란드의
iction
버른
▁도봉
▁포장
▁흑백
▁귀중한
▁기관총
▁버클리
네트워크
ridge
▁Institute
▁깎
경비
▁실력
▁초월
▁마쳤다
▁아이슬란드
VA
친왕
▁NE
▁OB
▁사당
▁혼다
까지만
▁15,
▁정신적
발이
arg
▁동창
▁거리는
▁관리하는
▁이시카와
▁콜로라도
▁벵
▁싣
노트
포는
▁술을
▁프로젝트를
니오
목이
▁극동
▁이희
▁했을
▁최상위
▁캉
신당
▁히데요시
▁Power
▁발매하였다
리치
림이
▁기수
▁김세
▁네팔
▁시몬
▁진출을
irect
권자
▁.9
▁김천
임에도
▁구조가
▁정리한
▁판매량
▁Line
▁지어졌다
▁친일인명사전
푸아
▁국악
▁비용을
▁알렸다
▁준비를
▁구릉
▁박현
▁쓰지
끄러운
here
▁인물이
▁1600
아래
▁당일
▁샌드
▁인격
▁피오
시키며
▁승인을
로부터의
▁나올
▁이봉
ople
▁USS
iness
▁중심기압
보우
봉사
서기
▁이산
▁추산
▁배웠다
▁알프레
▁일컫는
▁클레이
▁사회과학
▁House
▁렉
스콘
쾰른
▁기습
▁급제자
attle
판사
▁들려
▁외손
▁소속된
▁카드를
▁클라우드
▁디트로이트
ico
▁받침
▁자를
▁0-2
▁시애틀
▁홉
전용
-1)
▁궁전
▁넣은
burg
▁20,
▁빛나는
▁것으로서
▁않았다고
르며
▁나미
▁박찬
▁사구
▁제천
▁총합
▁협정
▁기간에
▁인스타
(2011
▁디비시온의
파라
폭탄
▁상공
▁크롬
프스키
▁용인시
▁위기를
▁콤팩트
변이
자료실
▁Paul
▁가와사키
서야
▁가드
▁함유
자유당
조참판
진으로
▁2.7
▁동쪽에
▁앨범의
▁은메달
▁케이트
ander
▁이후로는
슬로바키아
어항
▁스텔
▁전무
rich
▁Sol
▁나타낸
▁출판사
▁퍼포먼
▁1870
ora
▁기해
▁두어
▁안보
▁Story
Co
▁6.
▁시오
▁파랑
▁야쿠르트
▁낚
▁뉴턴
▁말씀
▁성취
▁부대를
▁쓰이고
▁항공의
▁존재하며
▁반해
▁추석
▁저술가
▁좋아한다
동초등학교
▁룩셈부르크
▁버라이어티
약성
▁모자
▁자택
포인트
▁개혁을
▁장면을
▁해병대
TR
▁`
던트
재는
할때
▁대부
▁선사
▁(1975
감과
냈고
▁청원
▁국가로
▁양식을
▁결정되었다
UR
▁서스
▁다룬다
▁되었다가
▁대소
▁붙인
스트리
▁계획에
▁베이커
▁(1967
ME
▁군에
▁그중
▁이문
▁전적
▁450
네트
▁우르
심에서
해왔다
▁감독과
▁여기에서
▁중요하다
▁부분적으로
야를
▁만세
▁멕시코의
▁복면가왕
중량
층이
▁단기
▁달콤
▁함대
▁게임이
▁Great
▁첸
바위
▁상표
▁온다
▁다카라
▁신호를
▁거느리고
▁관련한
▁나폴리
▁노벨상
▁비행기
▁여배우
▁우라늄
▁이후부터
▁(1955
▁딸로
▁콘서
▁터뜨
▁소피아
:1965
세손
▁빌라
텍사스
▁별명을
▁우승한
▁이름인
▁트로이
▁Aust
연수
▁억압
▁마르티
▁웨스턴
▁협주곡
ca
▁고아
▁밀러
▁아소
▁시티즌
▁전투는
허가
▁수장
▁아다
▁256
▁장치를
▁치러진
▁기각
▁생생
▁시정
▁일컬
▁거기서
▁언어의
▁의식을
▁프랭클린
석사
편집
▁김옥
▁누이
▁수습
▁자크
년대의
▁Law
▁따른다
▁CG
▁수련
▁2015.
안보
▁레온
▁영산
▁도착한
▁문서는
후쿠오카
▁미스코리아
Ge
HO
▁얹
경쟁
iro
방으로
어지는
▁136
▁애슬레
비안
▁비평
독일계
▁공로로
▁급격히
▁미래의
▁미얀마
▁사회를
▁주장하고
▁개발되었다
루트
원장
New
▁던져
▁원조
▁포획
▁마우스
▁쑤
난성
바는
▁감마
▁루카
▁중산
itch
▁비주얼
▁왕위에
▁이글스
▁이즈미
(2006
▁포스트시즌
▁컨페더레이션
▁떡
애를
▁드문
▁무상
▁밀리
▁신념
우리당
▁여름에
▁공신
▁담아
▁통틀
▁하프
:1961
▁댓
수욕
▁우측
▁조병
▁버렸다
니코
프턴
▁바보
▁143
▁Mov
▁센고쿠
▁차량은
쇼와
차드
텍처
▁궁극
▁상급
▁이석
달의
도서
모와
양구
())
▁Ep
▁기술의
▁삼국지
▁알루미늄
께서
통의
▁꽃이
▁넥센
▁사살
▁서지
▁레스토랑
▁나눈
▁비유
▁표명
▁기온은
▁베이비
▁알코올
▁후지와
고등법원
▁디자인을
풍의
▁배수
▁떨어지는
기니
▁마요
▁메릴
▁미정
▁기자회
▁시설을
▁펼쳤다
전라북도의
기하
비키
클로
▁디나
▁보전
▁전세
▁협동
(2009
▁결정적인
▁미네소타
▁Reference
rie
▁분화
▁지선
▁230
▁어렸을
피의
▁라마
▁주가
▁투명
▁Hot
▁소리가
▁향하는
▁Soul
▁스테이션
트넘
▁적고
ough
▁메시지를
▁체포되어
▁시초
ness
▁원작자
▁West
▁오클랜드
경희
심상
타와
▁놓았다
▁근처에서
플래
▁동위
▁잡은
▁주를
▁학과
▁Dec
▁직전에
▁포르투
특수학급
▁페르디난
▁Fr
▁가죽
▁건륭
▁당대
▁연기를
상으로는
▁Free
DC
idd
▁맞은
▁머신
▁웹드라마
농협
막극
스기
▁담임
▁왕은
▁후루
커니즘
agon
▁137
▁Fri
▁Stand
개정
것을
나오
▁말의
▁부모님
▁환경을
콜로
피크
▁띠고
▁로비
▁백과
ense
▁ABC
▁내부에
▁손으로
▁있었을
▁호랑이
▁그리스도의
▁피아니스트
▁Season
▁깜
부상
▁대종
▁딸인
▁복싱
▁존속
톨레마이
:1958
▁베트남의
통계시스템
오일
ids
▁다름
▁축출
▁4.0
▁따뜻한
▁기록하는
▁플레이어는
▁퐁
소련
체계
▁미디
(2008
▁축구단의
▁선거통계시스템
▁구할
▁수면
▁Sound
▁일방
▁한인
▁휴식
▁Ann
▁오스틴
층을
▁경의
▁상해
▁134
▁요청을
값을
개소
▁마가
▁희곡
▁146
▁들어갔
▁배우로
▁프레데
▁앰
욕을
해석
▁+4
▁디자
----
elop
▁기리기
▁버전이
▁관할하는
▁선종
▁지각
▁지주
▁GHz
▁와중에
Te
oto
▁미친
▁보은
▁진지
▁고스트
▁마르틴
▁부분의
▁전쟁은
▁첫사랑
unction
▁틴
▁-2
▁고기
▁호의
▁행사를
▁모델이다
돌을
여름
▁업적을
▁동국대학교
츠가
▁로페
▁배상
▁탐색
▁14,
▁문제의
▁인기가요
▁대한민국은
▁헥
츠카
▁적혀
▁함양
▁res
▁매카트
▁1888
▁가면라이더
가이
▁기저
▁리옹
▁문과
▁앤디
▁어긋
ague
▁139
▁2,0
▁아리아
▁이래로
▁법과대학
▁운행한다
▁복귀하였다
▁선정한
▁부문에서
▁지구에서
YP
ua
함대
화문
▁무어
▁바우
▁오기
▁not
▁가지며
▁달리는
방향으로
▁(1972
mas
rad
▁대진
▁지녔
▁체크
▁중국인
NC
▁땄
창조
▁청소
원이다
▁의미의
▁사건이다
/10
▁헬싱
▁논문을
▁아이디얼
노에
함수
▁Je
▁가축
▁바비
▁발트
▁비오
▁암흑
▁정진
나가는
▁부시
▁사랑이
▁자연스럽게
JR
▁무안
▁불확
▁잎은
▁도르트
▁차량을
▁하느님
▁편성으로
▁대한민국에
▁:*
▁교양
▁김호
▁비자
▁비전
▁요절
▁반지름
▁삼각형
▁일본식
건강
교토
람회
배치
에어
ube
▁어뢰
▁연희
▁데이브
성남
▁von
▁시간의
▁인디애나
장조
지명
▁너의
▁실책
▁겪었다
WA
▁미녀
▁테라
▁규모는
▁정신을
▁파리의
▁화장실
▁도입되었다
그의
▁가쿠
▁기기
▁데이트
enter
Pr
▁뻔
라톱
렐라
▁박은
▁케냐
▁투르
▁행진
▁헌정
으려고
▁레바논
▁전주시
▁왜냐하면
ological
▁옮김
▁읽는
물이다
▁1,4
▁예산결산
▁함으로써
▁(2017)
▁상트페테르부르크
위기
▁대거
▁부가
▁오산
▁2-2
▁크리에
▁Hall
▁경희대학교
일부
최고
cus
▁엔젤
▁영월
▁한상
▁비난을
▁생각할
▁없어진
▁NASA
▁(1959
학술
▁만성
▁형상
▁규정에
▁드러머
▁인접한
라리가의
▁통합하여
▁하나였다
▁닦
리버
▁나눌
▁석가
▁채워
▁핸드볼
:1959
아르헨티나의
▁컨페더레이션스컵
▁이룬
▁자선
▁제왕
▁품고
▁Sam
▁그쳤다
▁되돌아
▁아스널
동원
▁돼지
▁앉아
▁개인전
▁특징이
▁출전하였다
공로
언스
▁충전
분부터
▁군대의
▁배치되어
▁광둥
▁임관
▁한림
▁Video
만여
야만
하로
▁낸다
▁워커
▁풍자
▁하타
▁Pat
뉴얼
▁가동
▁깨끗
▁동상
▁먹을
▁번식
▁시호
▁이차
▁정서
▁조수
직할시
▁시코쿠
▁유래한
:1955
▁중단되었다
▁열심
체이다
▁느낌을
▁대통령에
▁가려
▁봉쇄
▁제리
▁166
▁공격에
▁그래도
▁인스타그램
~2
거스
▁자칭
▁투옥
▁구간의
▁유니버스
▁(1966
▁알렉산드르
식스
▁듀오
▁트로트
▁키프로스
▁대회에서는
▁후지와라노
GO
더의
▁SA
나라에
▁1:0
▁본사는
▁자체를
▁프레이
▁인테르나
▁시작하였고
닷컴
▁멜로
▁슈트
말레이
▁저명한
▁지방을
▁1883
▁이어진다
▁여객철도가
▁썸
질환
항의
후이
▁들을
▁청계
▁요시노
▁작가의
▁주어진다
▁횟수
있었다
▁131
▁978
▁스톡홀름
▁차원에서
▁대하드라마
▁멍
강화
생이
코파
▁닌자
▁병역
▁것보다
▁노르웨이의
▁프로그램에
▁각주
▁돌격
▁마유
▁불화
▁조언
▁캐롤
서일본
▁경상도
▁마르세
▁작성된
▁힘입어
▁플라스틱
▁에티오피아
판과
▁상류
▁즐겨
▁경찰에
▁작위를
▁(2013)
공은
루와
목은
▁시와
▁울프
▁취항
▁다음해
▁본인이
▁(2012)
매를
▁신해
▁하부
▁해소
아니아
이즈미
▁무조건
▁엄격한
▁장관을
▁전자기
▁런던에서
oz
나드
나비
해주는
▁역사의
▁자금을
▁최연소
▁토리노
▁Port
▁생산하는
니를
지스
대통령
▁가벼운
▁보한다
▁차량이
▁White
대중
▁고산
▁아저
▁엄격
▁Del
▁있는지
▁문화체육관광부
5%
▁신탁
ency
▁밀도는
▁애틀랜타
는가
▁가환
▁갈릴
▁닫힌
가지의
▁Over
▁가나가와현
로쿠
투어
풍속
▁이혜
▁찍은
▁허드
▁3-2
▁인근의
▁찾아볼
▁처음부터
홍보
:11
ces
▁오아
▁오른손
~7
▁엮
재산
-50
▁가구
▁기점
▁류큐
▁서면
feat
▁애비뉴
▁영국인
▁cont
세인
수소
▁안경
▁책의
▁뮤지션
▁일대를
▁재능을
▁정해진
▁집안의
▁자유로운
▁2012.
!)
교류
▁날카
▁좌측
▁올리버
▁하나이며
PR
유예
질은
▁띤다
▁목을
▁씨의
▁죽이
자들과
▁San
▁다케다
▁시트콤
▁차량의
▁스파이더
▁감리
▁목록은
▁컴퓨팅
벨기에의
아프리카계
unt
▁도요토미
▁알래스카
▁(2016)
루에
번이
▁노태
▁탱크
▁하반
▁회로
▁횡단
▁제사를
▁불가능하다
조한
▁선우
리면서
사업을
스카야
▁3.3
▁잃었다
▁1893
종합운동장
고양
보니
()(
▁우아
▁원반
▁카네
▁헬리
▁154
▁자유주의
UM
유소
정지
▁강민
▁나인
▁낙동
▁발원
▁전경
▁청량
크리스
▁독립된
▁제안을
▁표현을
▁아오모리
▁직접적으로
▁예정이었으나
uz
▁대역
▁베른
쳤으며
iter
▁148
▁남기고
▁다이빙
▁솔루션
▁요구했다
▁Christian
▁불리고
▁저작권
▁환경에서
심상소학교
빈의
▁갱신
▁고창
▁윤종
▁폭행
▁TOP
▁브뤼셀
▁q
모양
기관의
부원군
▁개발이
▁관리를
▁그다지
▁This
▁얽
티즌
▁귀여
▁냉각
▁숭배
▁이완
▁진군
▁호크
어린이
▁밀접한
▁글로브상
▁대통령과
▁이야기는
더니
운을
▁과일
▁비단
▁현황
▁황해
펜하겐
▁아돌프
▁엔진은
▁기록했고
▁승강장이
/)
▁랄
레즈
부키
▁가왕
▁워드
▁지평
▁142
▁필리프
▁스스로를
▁승격되었다
텍스
▁입성
문트
▁디에
▁쏟아
▁이유를
▁목소리를
QL
지다
▁김보
백화점
였을
폭풍
▁발라
▁저자
▁현악
▁아카이
▁외국어
▁헌액자
▁실패하였다
발로
oft
불교의
▁모델이
▁물건을
▁시장에
▁아이폰
▁코드를
▁성우이다
네르
단장
▁가산
▁측의
궐선거
▁용어를
▁전하는
▁우즈베키스탄
당해
▁남산
▁드리
▁에콰
경찰청
▁Fre
▁바다의
▁아나키
▁이라고도
레븐
연은
줬다
▁명에
▁280
▁Work
li
▁계몽
▁모용
▁침투
▁본사를
▁중앙위원회
▁녀
▁북방
심리학
▁16,
▁레이스
▁1892
▁서울중앙
▁와카야마
▁Light
오늘
amm
▁처럼
▁기록해
▁실패로
▁어려워
▁이유가
▁자리잡고
성장
작이
▁Mi
▁노바
▁단역
▁따온
▁블로
▁What
ograph
모션
주자
▁곡선
▁사리
▁에게
▁탄도
▁포병
▁구축함
▁방식이
▁브라질인
▁떠올
ince
▁경기수
▁방문한
▁북부의
▁중국에
링을
정비
▁예고
▁홀리
▁흥선
▁불교의
▁최근의
▁특징으로
▁(2006)
골로
살의
영업
▁교리
▁모은
▁완투
나갔다
▁Tri
▁1868
ection
KO
▁댈
성사
조각
▁교역
▁조승
▁중견
▁타츠
▁파커
bert
▁185
▁캐스터
곡은
녀를
자일
토쿠
▁민선
▁사내
▁아타
▁트렌
▁경찰은
▁국민당
▁비판했다
▁자격으로
De
주지
▁권장
▁릴리
▁스태
▁저격
▁부대는
▁1887
▁총대주교
상행
성인
회분
▁강서
▁스포
▁API
:1954
▁상태였다
▁예선에서
▁핀란드의
공군
궁의
독한
유는
하트
▁Er
▁난민
▁이도
▁제퍼
▁하쿠
▁한해
▁공부를
▁보유한
▁불리게
▁제니퍼
스테르담
▁아버지인
▁(1964
감염
메스
집의
▁버그
▁조형
▁중형
▁티켓
출장소
Fran
▁147
▁156
▁Pal
▁Sil
▁기사를
▁정류장
▁아니라고
면적
▁do
▁가량
▁성분
▁Enc
▁방식이다
▁올림피아
▁(1954
오기
▁Ant
▁것인데
▁참여하고
보도
한이
▁새겨진
▁항공모함
▁이루어지고
▁독서
▁잡혀
▁포럼
들과는
정의당
코미디
▁들어갈
▁전체에
영웅
청구
▁불량
▁사슬
▁종은
본으로
▁AGB
▁비로소
▁섬에서
▁주장한
복지센터
▁앨범이다
친일인명사전
ks
▁울릉
▁침묵
▁간단히
▁시리즈를
▁의과대학
▁Island
니크
임은
카페
▁각자
▁펑크
▁빅토르
안전센터
GS
액은
-35
▁SV
▁오해
▁이코
▁않으나
▁위협을
본의
카즈
평동
▁냄새
로이드
▁공휴일
▁시기를
▁움직임을
▁글렌
▁봉안
▁자서
▁잔류
▁조국
▁비타민
▁줄무늬
▁거주하고
▁월드컵에
월과
▁객원
▁두께
▁리나
▁없어서
▁컬렉션
▁확실히
국민회의
▁문화예술
▁쇄
내며
천여
▁처분
▁추존
▁환영
▁지구를
▁사회복지
▁적극적인
▁세인트루이스
한양
호대
▁계수
▁물의
▁임원
변호사
▁무엇이
▁카카오
▁코러스
▁설명했다
▁가온
▁세미
▁안치
▁연꽃
▁이북
▁이이
▁클루
AA
▁운명
▁쾰른
드리게
▁She
▁리믹스
GP
기본
척의
▁긴키
▁뻗어
▁생겼
▁야외
등으로
▁일본과
▁Game
▁프톨레마이
▁맞고
▁세키
▁카타르
화산
회계
▁가옥
▁꽃은
▁마우
▁선과
▁스즈
신라의
▁가수로
▁노선의
▁문자를
▁여자의
▁콘스탄티노폴리스
특히
▁대마
▁도는
▁박원
▁볼로
체에서
현으로
▁먹이를
▁대학교에
▁(2007)
베네
▁막시
▁키워
▁판례
▁의회는
▁결정한다
▁Every
▁(2014)
TO
▁라그
▁기술은
▁무대를
▁세리이
▁아이즈
▁1886
▁방글라데
갈색
쓰마
▁유정
레스의
▁지휘자
▁서식하는
▁캐나다인
▁2009-10
▁옳
츠를
▁가리키
▁개그맨
▁아이가
▁트럼프
▁0.00
▁바르샤바
중추
▁가다
▁기증
▁양국
▁오미
▁입양
렸는데
▁바오로
▁시장을
▁프로야구
pos
▁나노
▁주와
▁솔로몬
▁오이타
ility
▁스페인어
▁Europ
살인
원년
코치
▁7.
▁라오
▁리만
▁외래
▁주먹
▁칼럼
▁테리
번으로
▁152
▁기간을
▁부천시
▁시위를
▁함수의
▁학자들은
▁로스앤젤레스에서
ima
▁상사
▁한겨
크로아
▁Jul
▁국가는
▁노동당
▁적합한
▁결혼하여
▁주민들이
▁(2008)
이집
테면
하행
▁서적
▁안젤
▁조니
▁춤을
▁탐구
당한다
▁Mad
▁규모로
▁무료로
▁차이나
▁캠페인
▁선언하였다
▁뷔
▁반경
루에서
▁관공서
▁장면이
▁서쪽으로는
▁시뮬레이션
▁유로파리그
-22
▁주체
▁부유한
말의
ava
▁위와
▁발언을
▁그룹이다
▁""
▁즉각
소송법
▁(11
헌법
ays
▁보헤
▁소말
▁역설
▁조셉
-100
▁실력을
▁미쓰비시
두를
먼은
촌동
▁te
▁단장
▁백색
▁팀에서
▁개발하고
▁자동차도
▁남쪽으로는
승지
시브
▁금정
▁부사
▁관리하고
▁엑스박스
날의
오버
▁빛이
▁장원
▁칠곡
감으로
▁168
▁김정은
▁독일은
▁분명히
▁스테이
orean
▁등지에서
▁업그레이드
▁쿡
기원
치히
통이
▁부에
▁바티칸
▁북쪽의
▁존재가
▁과거에는
▁기록하면서
술의
행사
ape
▁숙부
▁여고
▁증설
▁퀘벡
▁키가
▁허위
▁153
▁Just
▁나머지는
▁Football
KT
다스
▁OF
▁목성
▁온갖
▁절망
행위를
▁이스탄
▁투표를
▁inter
스코틀랜드의
리마
▁루크
▁브란
▁색상
▁직할
▁키드
무대
이케
▁결론
▁둥글
▁설도
▁설치한
아일랜드계
▁전수
▁파우
▁패럴
▁풍경
obal
▁갈수록
들에게는
총영사관
▁물러났다
▁몫
▁주자
사우스
ives
▁가족은
▁황제로
▁이스탄불
▁존재했던
▁팡
외과
▁고소
▁월터
▁초콜
▁카지
플라이
▁20%
▁시미즈
▁살인사건
yo
▁매력
▁방화
▁병살
▁성산
▁여진
▁이언
▁이효
▁시베리아
▁역임하고
농구
청사
▁단식
▁Sal
▁리그컵
▁보호를
▁제작을
▁페르난도
▁평안남도
▁결혼하였다
▁늙
플리
DVD
▁만일
▁현립
▁결정전
▁라파엘
▁새마을
▁세비야
유공
ona
▁극대
▁필사
▁갈등을
▁드물게
▁질량은
원수
▁낳은
▁무함
▁응시
▁도입된
▁속도는
▁지진이
▁진출한
▁삼층석탑
▁시리즈에서
2(
천읍
청에
코어
enz
▁고마
▁암시
▁축적
▁피를
▁피의
▁17,
▁동생인
▁많으며
▁선수들
▁전통을
▁출신인
▁푸에르
▁유니버설
▁문인
▁와타
스트의
▁관직을
▁해체된
▁후측면
▁작사작곡
▁민족문제연구
세라
연극
▁느꼈
▁명사
브리아
업으로
▁151
▁유학을
▁1891
▁아라비아
▁딥
▁바스
운동에
inae
▁친구가
▁연구학교
7%
바인
바퀴
▁서산
▁진공
▁첼시
▁레인저
▁자본주의
공립심상소학교
덕왕
hPa
uit
▁us
교육을
▁레드삭
▁올리고
▁포항시
▁1882
▁아래에서
He
WS
▁전장
▁퍼즐
장애인
▁가르시아
오스트리아
▁슬로베니아
준호
▁김우
▁주위
▁Mix
▁관광지
▁지휘하는
▁형태이다
몬트
시인
은하
yle
▁델라
▁사관
▁사인
▁우호
▁이론의
위원으로
문고
▁장사
하이드
▁배터리
▁콘크리트
으로부터의
▁평균자책점
▁백상예술대상
설계
영리
▁기회가
▁오늘의
▁일하고
▁James
병에
중주
ely
지금의
▁Che
▁Lou
▁new
▁가까워
▁브래드
▁일이다
▁제목의
▁발생하여
▁시외버스
▁Research
계리
▁관념
▁달걀
▁미소
▁유년
히어로
▁용도로
▁민족주의
▁(2011)
And
▁균형
▁벌인
▁신종
▁유비
▁조경
▁폭로
▁iOS
▁아래는
▁환경에
▁.000
▁동쪽으로는
▁샤이
▁에는
▁320
▁마을에
▁다카라즈카
LL
예가
▁무작
▁신상
▁내용으로
▁스위스의
▁쉴
트륨
풀이
ato
▁막부의
▁묘사한
▁라이선스
▁1,500
▁육군사관학교
방은
요원
항에
▁2,5
▁런던의
복음
하르
▁두는
▁입상
▁콘솔
▁고등학교를
고개
상담
시경
이타
트르
품이
▁세례
▁옹립
▁철회
▁Lab
▁어느날
▁중국과
▁컴퍼니
▁회장을
스위스의
▁쿠웨이트
달아
아비
천안
▁BO
▁멋진
▁박해
▁신형
▁늘어나
▁설명한다
방면
유지
adem
▁지냈고
▁돗
타점
▁EN
▁더비
▁지부
▁일렉트로
▁클리블랜드
레디
일으
▁공손
▁클러
▁태자
천군의
▁Gen
▁머리에
▁있기도
▁일컫는다
3%
신도
▁다쓰
▁도박
▁명인
▁문정
▁바빌
▁정승
▁파란
omen
▁3.6
▁이내에
▁피하기
포르티보
▁프린세스
등기
▁교전
▁만료
▁취업
계약을
스콘신
았다고
▁골드컵
▁교육의
▁다음이
▁점수를
▁제도가
▁브레이크
ki
yg
공공
도부
동부
이론
헤드
▁메뉴
▁불평
STER
▁안에는
▁Rain
uf
드래
체험
▁격하
▁때가
▁오크
▁카테
비서관
▁Bas
▁남자가
▁정보가
▁케이스
▁시칠리아
교에
▁아프
가톨릭
▁KTX
▁2009.
▁Journal
우회
▁본거
▁속초
▁첨단
▁고통을
▁남쪽의
▁끊임없이
동화
슨과
▁(-
▁보리
▁신원
▁문서를
▁성능을
▁싸우는
▁안으로
▁용어로
▁통틀어
▁패배를
ington
▁조슈
▁공간이
▁총리가
:1951
▁활동기간
▁교량
▁미에
▁버펄
▁사서
▁전함
▁중일
▁패전
ider
▁만족시키는
My
개와
두로
소비
ios
▁데미
▁목회
▁신자
eder
▁넘어가
▁뉴저지
문서
사범
순이
▁돌입
▁유미
강원도
▁놀라운
▁로마자
▁말기에
▁저기압
▁케임브리지
▁콕
노가
▁발현
▁변광
▁일체
▁조립
▁치른
▁폭넓
ents
▁병으로
▁소속사
▁차이는
▁친구들
ugust
▁게임에서
▁Association
▁강변
▁양이
▁1876
▁북쪽으로는
anguage
루이
어촌
익을
있게
측은
혹한
▁공천
▁섭정
▁원격
idth
▁나리타
▁원인은
▁조지프
▁시즌에서
▁애리조나
▁경선
▁수확
▁앨리
▁이홍
▁호리
▁세상의
▁어려서
▁영원한
계급
들여
화성
▁당주
▁동영
수도권
atab
▁Big
▁벨라루스
반에
의료
▁맞붙
주머니
▁음악에
▁중계방송
선발
제학
osh
raw
▁이양
▁조로
▁에스페
▁사운드트랙
거는
▁ng
▁시합
▁쓰촨
oma
▁id
▁꼭대
▁밝힌
▁아닐
▁조광
alth
▁파라과
▁지적했다
▁진행하고
냐는
숙종
leg
▁가볍
▁당진
▁얻지
▁중재
리스는
시카고
▁게임에
▁메시지
▁아마존
▁다양하다
▁English
결혼
그린
만장
트루
▁동점
▁가족을
▁경기의
▁밝히고
▁운동은
▁대한민국과
▁정치인으로
로봇
타이드
▁예수의
2%
▁삐
▁유가
▁충성
▁몬테네
프라이즈
▁살아있는
▁인정하고
,000,000
기게
봉을
▁뽑아
▁성사
▁왕을
▁천마
국민당
▁상태의
회의에서
▁(2018)
Pl
약한
지상
▁감행
▁강당
▁견인
▁조문
▁척추
▁기하여
▁연구원
▁크기를
충류
▁경복
▁기장
▁숨어
▁흔한
▁Pap
▁밴쿠버
▁베드로
고교
▁-3
▁지위
▁마법사
▁반도체
▁터키의
▁이용한다
열에
택을
▁보석
▁유료
▁해인
▁교사로
▁리그를
▁서초구
▁유지하는
▁베네수엘라
▁Report
▁성균관대학교
▁컷
개선
내지
란한
립트
분해
▁아메
▁앞의
▁용병
▁인재
▁절차
▁종속
▁패한
▁해고
▁혐의
심으로
▁부작용
▁담당했다
▁성립하였다
▁Summer
뛰기
베를린
▁로렌스
▁백제의
▁클라크
▁회의를
▁불러일으
▁Special
RC
패스
▁높게
▁사면
▁양천
▁영등포
▁의미에서
포르투갈의
마니
발매
아랍
와도
▁별은
▁스킬
weet
▁158
▁270
▁나중에는
▁설명하는
란은
트레
▁당연히
▁고려시대
▁국가지원
▁니콜라스
평면
ias
▁1/3
▁도시가
▁불가능한
▁(2010)
거를
수상
정상
코딩
Rob
▁개가
▁교원
▁발각
▁버드
▁인명
▁자산
▁해저
스페셜
▁260
▁제국을
구라
품의
▁몸의
▁영덕
▁이철
▁카미
▁코카
지는데
▁뚜렷한
▁미주리
▁민족의
▁일대에
▁결정된다
(3)
fin
▁개종
▁검정
▁기법
▁청사
슬라프
▁단막극
▁부근에
▁요구를
▁한민족
▁시장에서
kt
네갈
▁넷째
▁30%
▁Div
▁대회가
▁올랐고
▁연결된다
느러
정권
▁메소
▁뱅크
▁빈곤
▁살려
▁서진
▁테츠
나고야
판에서
▁USB
▁데뷔하였고
▁프로젝트의
▁메카
선생님
▁이사회
:1940
▁대통령으로
▁(2015)
8%
aff
▁대각
▁배가
▁씌
군주
막을
▁보게
▁실망
▁영암
미사일
▁모양이
▁성장을
▁1200
HA
아버
▁리브
▁이형
▁적다
▁바꾸는
▁스코틀랜드의
▁America
▁까닭
▁사야
저우시
▁내리는
▁리더십
▁이산화
▁클린턴
위원회를
▁Brit
액션
▁편에
iana
▁708
▁변화에
▁스위치
▁스코어
▁신기록
▁정도였다
▁공산주의자
마귀
워너
▁강과
▁상경
▁칸의
▁것임을
▁살았던
▁종류가
▁정부에서
▁사키
▁원을
▁전산
▁컴백
▁페니
▁다이어
충청북도의
▁Company
UE
데자
레가
마디
증의
프에
ger
▁간첩
▁라쿠
▁시선
▁대응하는
▁셜
110
raz
▁죽어
▁포인
▁149
▁per
iginal
나로
림동
서치
illa
▁159
▁var
▁드레스
▁특별상
▁이름에서
▁추측된다
▁United
▁스튜디오에서
두에
▁막스
▁캐논
▁위치는
▁이에야
▁Disc
▁부분으로
▁트랜스포
보훈
중을
▁+5
▁노보
▁부채
▁추서
▁State
▁@
전력
참여
omy
ule
▁관세
▁단절
▁악의
▁피신
▁동일하다
▁르네상스
군수
렌스
제곱
환이
▁서사
▁성악
▁조화
▁강서구
▁있거나
필레이션
바둑
▁곳의
▁군이
▁유교
▁청동
,600
inus
▁모습은
▁한국은
ister
섬의
영과
▁값이
▁구이
▁렌즈
▁추리
퍼런스
▁161
▁정도를
▁해운대
▁시즌이다
▁해상에서
▁결정하였다
김해
레니
로워
▁기회
▁남매
▁밀집
▁소모
▁자아
▁정은
▁정주
▁직면
로동당
▁엘리트
▁열심히
▁효고현
▁스트리밍
▁헤비웨이트
da
▁매매
▁알지
▁완화
하자면
▁말기의
그림
▁김한
▁서인
▁1,7
▁산티아
▁소송을
▁결정하는
▁Library
▁놈
토와
ago
관계가
태국의
▁205
▁Dis
▁대도시
▁대표적
▁천안시
▁분위기를
▁선수들을
▁타이거스
▁2011.
▁Champ
요의
rey
▁부총
▁입을
▁제사
▁스퀘어
▁므
수인
카쓰
▁검출
▁발칸
▁상동
▁세자
FIFA
ruct
▁141
▁Die
▁클레멘
▁협상을
▁헝가리의
▁(2009)
심은
▁그후
▁황족
▁목표는
▁잡았다
▁프란체스코
▁예산결산특별위원회
▁헛
상도
자카
▁.7
▁랴오
▁박세
▁부도
▁183
▁영화가
▁1848
LD
pe
쾌한
피탈
▁개를
▁무의
▁아바
▁하니
,800
:1953
:1957
▁존재하고
▁표현하는
▁(1960
만과
▁무척
▁부재
▁세기
거리가
▁MBN
▁Nov
▁실시한
▁아이콘
▁정하는
▁부분에서
▁연극영화
양은
▁ke
▁김두
▁여는
▁자국
▁때에도
▁쳐들어
▁feat
나서
(1,
▁기쁨
▁수염
▁정자
▁지장
▁LED
▁개념이
▁관련해
▁클라이
▁마이애미
▁계속되었다
▁밭
해온
▁RB
▁스톰
▁선생의
▁위치로
▁장군이
▁취하고
▁우루과이
▁천연기념물
웍스
▁반전
iano
▁Lee
▁멜버른
▁아스카
▁머물렀다
9%
▁찐
▁계단
▁당락
▁저주
▁테르
▁가지가
▁미국을
▁실패한
▁작성한
▁휘하의
▁승강장을
▁(1949
▁(1971
리면
티어
화재
▁양정
▁이데
▁충실
당하는
▁똑같은
▁암호화
▁열차의
▁차이로
그라운드
▁News
▁추가적인
▁프랜시스
마당
▁산의
▁정형
▁누구나
▁물질을
▁일으킬
▁영등포구
강이
민정
▁청산
▁해전
방송의
▁우수상
▁정의한다
▁간신
▁사절
▁어벤
▁없었기
▁죽였다
ering
▁그녀에게
▁사회에서
▁아무것도
▁국가지원지방도
펭귄
▁가토
▁남작
형문화재
Or
▁욱
쪽은
틀리
▁up
▁김치
▁매드
▁패스
▁게르만
뉴질랜드
히로시마
▁미나모토
▁인정하는
▁진행되고
도라
▁세금
▁손꼽
▁연말
▁웨인
▁해의
속에서
▁노래가
▁초상화
▁표현한
가정
청주
213
▁8.
▁왜곡
능력을
점이다
▁전체적인
수송
▁Sa
▁개항
▁우지
▁종영
▁화랑
▁독일이
▁바이킹
320
▁두꺼
▁문고
▁탁월
▁히카
차이나
학교에
▁아오이
데자네이
▁국토교통
▁독립적인
▁크리스틴
훈의
▁개소
▁궁정
▁몽고
▁생모
▁원천
▁후예
시키지
▁4-0
▁버전을
▁소장품
▁Young
▁프란시스코
4%
▁슛
달라
▁것인
▁송출
▁이범
▁지사
▁Gal
▁출연자
▁0.000
구청
로맨
비용
▁배려
▁적지
▁보내고
▁왕국을
▁쿠데타
▁비엔
▁위헌
▁Rel
▁Tom
▁밴드를
▁사무실은
▁실질적으로
IO
링크
▁4)
▁광학
▁닮은
▁배속
▁치고
▁방정식
(2005
▁복귀했다
▁설치하고
도호
치쿠
▁163
▁Und
▁뉴캐슬
▁타격을
▁벌어졌다
▁유사하다
ful
▁Ca
▁각료
▁동인
▁때인
▁선비
▁선행
▁대가로
▁비판이
▁조감독
:1949
yclop
▁(1956
▁후쿠오카현
공무
창의
▁데뷔한
▁마을에서
▁미시시피
부리그
연수원
▁3.8
▁콘스탄티
왔던
▁마셜
▁서력
▁슈투
▁코우
▁톈진
▁남부에
▁범위를
▁북부에
▁스탈린
덴부르크
▁시범학교
우크라이나의
▁요하
▁일요
▁사무실
▁역사에
▁이란의
▁2010.
▁설치하였다
ts
불을
▁el
▁모범
▁서문
▁세속
▁친왕
▁파산
만원을
▁157
▁기존에
▁말하면
▁그레고리
▁되어있다
▁시어
▁해명
▁현행
디스크
생물학
erry
▁6.4
▁리차드
▁벼슬을
▁계획이다
▁부드러운
▁사용하면
▁해당된다
▁2007.
▁value
▁벚
▁감안
▁김석
▁끝날
▁알을
▁즐거
워싱턴
mann
▁2.2
▁3.4
▁Str
▁USA
▁옥스퍼드
▁Edition
위한
혹은
tvN
▁Af
▁감수
▁시는
▁싸워
▁유승
▁정명
▁영원히
▁종료한
▁Fire
▁그렇지만
▁미사일을
르스
웠고
터에
▁더해
▁도스
▁이쿠
▁싸움을
▁헬리콥
다페스트
ication
▁앗
벽을
북부
▁DM
▁공방
▁남미
▁별세
▁연못
▁단어는
▁마카오
▁상처를
▁형성한다
▁산란
▁총칭
층으로
▁고유의
▁순위를
▁인상을
▁받았지만
▁(1958
개인
▁박주
▁산성
▁세컨
▁없었
▁점에
▁학급
▁뉴욕의
▁하늘을
:1936
▁평안북도
강과
강릉
매매
전트
키를
▁병을
▁브렌
▁순조
시간이
▁루돌프
▁카르타
:1947
▁사망하자
▁프로그래머
상블
▁예하
▁조류
▁코시
▁새로이
▁올바른
▁주계열
▁site
시한
▁데모
▁칼뱅
▁같은해
▁사례가
▁투수가
(2012
round
▁진출한다
▁프랑스에
180
▁조례
운동의
▁4.3
▁1866
▁Last
▁로드리게
분류
▁반포
▁양반
▁잘라
▁튀니
▁회상
브라질
▁기초로
▁안산시
▁자기의
▁유나이티
▁Manag
모닝
민속
용인
▁ME
▁Ox
▁마일
▁이겨
▁중량
이야기
oice
▁모른다
▁신민당
▁근무했다
▁1.000
비노
현실
훈을
omys
▁마에다
▁사람도
서니
▁"(
▁고치
▁득실
▁차를
▁닛폰햄
▁코펜하겐
▁알려져있다
▁기단
▁봉화
▁단어를
▁언급한
▁출신이며
▁Records
Tr
락이
시킴
호마
reen
▁수행할
▁이루며
▁피라미
궤도
르카
민을
운행
arn
▁가든
▁쌓은
▁정립
▁충무
▁후미
되므로
▁기준을
(2013
▁것이므로
위치
칼리
▁모스
▁셰이
▁신당
▁조나
▁대니얼
▁더이상
▁여의도
라나
▁UK
▁양재
▁정문
▁블러드
▁허가를
▁현재에
▁스틸러스
▁역사적인
▁Radio
BE
근의
아니
▁번에
▁장흥
▁2.9
▁나오고
▁다양체
▁동일하게
▁중요성을
▁상록
▁씨앗
파일러
:01/
ester
예산
흐트
▁Po
▁에바
▁장덕
▁고향인
▁교황의
▁딸이다
▁아이치현
▁행정구역이다
LB
가라
벨트
사법
지영
치안
▁레버
▁분홍
▁질문
회사로
▁구단의
▁조정에
▁평화를
ouble
▁Jack
▁고구려의
▁연극배우
▁개통되었다
▁은평
▁절친
▁선거명
▁주장은
▁통일신라
:6
기둥
▁*(
레이루
cher
▁사헌부
▁섬으로
▁남우조연상
레미
▁감싸
▁검거
▁은혜
티모어
▁더욱이
▁손해배
▁하이퍼
파티
파울루
▁가족이
▁미래를
▁후보는
▁Mont
▁벅
OUR
▁수에
ware
▁알리는
▁여우조연상
▁한국철도공사
El
야와
토로
▁:#
▁웨일
▁타인
▁독일과
▁사업에
atabase
▁앳
▁인제
▁나란히
▁앤드류
▁점령한
되어있다
▁자카르타
KA
▁년에
▁유코
▁한층
(2002
▁메커니즘
▁그레고리오
무의
준이
16)
▁딜런
▁윤보
▁167
▁동안의
▁영화감독
▁봉건
▁2:0
▁발전소
▁역사와
티넨
▁CO
▁간사
▁사에
▁캐슬
▁팀과
▁대신해
▁게임으로
▁알려지게
▁크리에이
Instrumental
▁맺은
▁정몽
▁의미는
▁이론에
▁종으로
▁지나는
▁스트라이커
Se
uan
▁것들이
▁기사단
▁뒷받침
▁물러나
▁선택할
▁장비를
▁제목은
▁뱀파이어
닌다
롭고
정관
▁나은
▁단원
▁도사
군이다
▁도메인
▁와이번스
▁인천국제공항
uff
▁가의
▁국사
▁동력
▁반야
▁사간
▁스와
▁고성군
▁(2005)
FS
격투
종과
리어스
파르트
▁바람의
▁방송이
▁이순신
▁존재할
▁그들에게
▁진행되는
이한
▁XP
▁분비
▁산둥
▁수령
▁마운트
▁순으로
▁전했다
▁1881
▁수록되었다
rab
▁익산
▁전복
▁전역에
▁표면에
▁위치하는
▁Dance
▁Elect
6%
▁).
▁잠깐
▁교육과
▁구하기
▁당하고
▁붙여진
▁비율이
▁수도인
▁크라운
학자들은
▁다카하시
▁시대부터
유기
준은
21)
▁RE
▁공의
▁평정
레이스
▁연고로
▁즉위한
uring
▁우리들의
▁암스테르담
드에서
▁기억을
▁무대로
▁패러디
▁하늘의
▁위원회의
사사
장성
프린
▁연동
▁달한다
▁밖에도
▁아미타
▁운영을
▁Version
적에
▁가신
▁권유
▁등용
▁여주
▁열쇠
▁용암
▁카토
▁라이너
▁Fest
▁이스라엘의
▁임차
▁파동
스트림
하자는
▁매거진
트가르트
▁국제적인
▁기독교의
▁노면
안드로
▁mod
▁마르셀
버지니아
헝가리의
▁Home
▁주어졌다고
무르
하우
▁공수
▁성숙
는지는
왕후의
▁Mal
▁디나모
▁복소수
▁초콜릿
▁친구인
▁파나마
▁하시모토
디드
용차
▁생식
▁저렴
|201
▁202
▁포로로
▁행정대학원
▁챙
통과
▁에두
▁죽인
▁피치
▁홍수
것으로
▁드레이
▁소관의
▁연구의
근이
▁가타
▁금산
▁노란
▁읽고
▁표방
협회상
▁Jan
▁주제를
▁승격하였다
▁싼
능한
사유
코를
호르
▁수다
▁입각
우스가
▁개인이
▁전력을
▁피닉스
▁포기하고
▁코스타리카
▁스피드스케이팅
끄러
조치
▁규범
▁길에
▁동백
▁살라
▁체류
▁군대에
▁자메이
▁2005.
ih
uv
ATA
▁없던
▁오락
▁와인
▁접수
▁확진
▁건설을
▁평가된다
▁후임으로
▁세종특별자치시
ko
카쿠
▁여운
▁오정
상규명
▁가사를
▁확실한
사라
팀을
▁돌출
▁둔다
▁바오
▁재회
▁채취
▁러시아인
▁보호하기
▁진행한다
lection
소총
▁갤러
▁김학
▁헌신
▁지구에
▁1861
▁Land
▁보건복지
▁보도했다
▁성격으로
▁컨테이너
▁컴필레이션
▁브라질레이루
란스
천로
▁원인을
▁이루어지지
지식
한화
호리
~13
▁YG
▁선동
▁이빨
▁카시
▁도마뱀
▁인간을
:1944
▁학생들의
▁메르세데스
PA
▁산출
▁서자
▁성도
▁Pet
▁배트맨
▁선발로
▁회고록
른베르크
▁지정되었다가
미한
AND
▁의류
▁TBC
▁기초를
▁이케다
▁일어났
▁지도를
▁1864
▁Baby
▁올라간다
▁이루어지는
▁이탈리아에서
▁이화여자대학교
(:
▁님
▁바흐
▁아디
▁정작
▁알파벳
▁친일파
▁찔
국방
mar
▁대출
▁지오
▁후작
요시의
▁개인적인
▁기업이다
기아
법상
혜진
▁대북
▁서태
▁피셔
▁330
▁되었던
▁본인은
▁여파로
▁열린다
▁위험을
▁자유의
▁호스트
▁극장에서
대한제국의
▁Remix
▁Master
나에
베쓰
ota
▁국영
▁에마
▁학칙
▁Ben
▁차례의
▁해결하기
lement
TF
▁9.
▁바꿀
▁예약
▁카니
▁콜드
어지고
udio
▁그룹은
amily
ource
▁아리스토
▁중화민국의
▁2007-08
▁럭비
▁맞춤
▁신봉
▁줄여
민스터
익스피
호선이
uter
▁갖추어
바키아의
소재
피오
▁파손
케라톱
▁데이비
▁안전한
▁자료가
▁함경남도
법칙
팀에
▁나갔
▁도키
▁용서
▁(4)
▁구분된다
▁기록으로
▁도입하였다
▁발해
▁스윙
▁정현
▁176
▁내무부
학적으로
▁고려하여
▁실시하고
▁주민들은
자도
▁관동
▁시우
▁왕과
안으로
▁Mel
▁떨어뜨
▁병원에서
피에
하드
▁AA
▁운수
▁킬러
렸지만
▁계약이
▁생산을
▁의원을
▁이곳을
▁죽는다
▁중대한
▁클리어
▁벨기에의
감은
기병
더를
▁구부
▁모던
▁수산
▁어쩔
▁혼성
▁직책명
방지
제어
피가
▁발병
▁섹스
▁이송
▁차용
▁NGC
▁영향이
▁행정학
▁Conc
▁상관없이
▁자신들이
▁진행했다
진주
▁고모
▁글꼴
▁명종
▁애칭
▁창출
▁과정이
▁생명의
▁최소한
▁현대화
인산
▁보증
▁아데
▁포털
스카이
▁4.4
축구협회
:1914
umber
이탈리아계
▁스트라이크
▁누리
▁독창
▁모건
▁모인
▁에리
▁타르
석에서
▁들어올
▁앤드루
▁페트로
▁진행하는
국제영화제
복의
irc
▁럭키
▁정관
네티컷
ophy
▁04.
▁자랐다
▁힘으로
▁Like
▁공격으로
▁팔레스타인
노미
업은
▁돌고
▁이덕
▁쪽은
▁키즈
현에서
icus
▁가족과
▁경찰이
▁마닐라
▁환자의
▁등장하였다
▁(2003)
▁괄
받게
acy
▁EU
▁김효
▁밤의
▁세가
▁연소
▁화강
▁광주시
▁공개했다
▁선수로서
▁일일연속극
시즘
왕과
왕에
▁성운
▁스텝
▁중랑
▁화를
드래곤
▁것인지
▁엔진이
▁Church
나도
마켓
지수
▁Lo
▁매킨
▁산청
▁절단
진흥원
프라노
▁교통국
▁물질의
▁속하며
▁요제프
▁전기의
▁미래통합당
들러
▁딸이
▁세토
▁실무
▁정씨
▁169
▁경전철
▁그러다가
▁경상북도의
▁프로그램으로
선형
컨대
▁no
▁구형
▁리조
▁민병
▁촉매
피아의
▁대기업
▁샌디에
▁투수로
▁1865
▁Play
▁시리즈에
▁샀
거의
방법
par
urt
▁고원
▁토목
되도록
▁316
▁시크릿
▁유닉스
▁작용을
▁1863
▁사용되지
▁width
▁뾰
▁강은
▁거뒀
▁공예
▁말리
▁의결
▁자작
그룹의
승으로
▁구하는
▁부드럽
▁비율은
▁숨겨진
▁음악은
▁증거가
▁지키기
▁했었다
▁단계에서
▁버전으로
▁슈퍼스타
▁익스플로
▁프랑스가
▁구성되었다
구마
량에
부아
질라
▁오대
eath
▁별개의
tainment
급을
동시
줌마
▁기성
▁루비
▁아와
▁영천
▁그곳에
▁그렸다
▁나이는
▁올리는
▁위험이
▁작업에
▁클럽의
▁드러났다
▁주장하며
▁프로세스
▁Michael
업의
▁감찰
▁돌로
▁산호
▁호응
▁18,
▁느끼고
▁외에는
타수
▁넘게
▁성이
▁all
▁영업을
▁이와테
사단법인
퍼레이션
▁에스페란
▁이때부터
▁흠
영동
이씨
▁남게
▁다윈
▁수축
▁쿠라
▁하르
면에는
▁172
▁갤러리
▁대성당
▁받았다고
ba
루즈
슬론
크리
티가
"()
ani
▁강진
▁끌고
▁백신
▁분동
▁신현
▁해가
▁Sur
▁인류의
▁증조부
▁진주시
▁Track
▁낯
구동
입상
osa
▁소사
▁충렬
▁토시
▁홍익
밀하게
▁2.1
▁경찰의
▁전반에
▁조반니
아프리카의
▁박승
▁빅뱅
▁아치
oria
▁저스틴
1%
▁관절
▁때려
▁주조
▁짐작
▁178
▁209
▁아저씨
▁유학자
▁투어를
▁가져왔다
▁로베르토
분데스리가의
았기
열은
파노
.50
.75
:45
▁구절
▁백악
▁차종
▁선으로
▁신세계
▁유니언
▁회사인
▁나타내고
▁목소리가
▁(1939
그마
메인
명수
영조
태양
표가
ote
▁즐길
wood
▁Hel
▁각국의
▁개최국
(2014
▁공간이다
▁그로부터
▁담당한다
▁산티아고
▁우승했다
▁이를테면
▁2008.
▁드래프트에서
댄스
동네
정기
태수
▁동요
▁여부
▁조모
품으로
Will
▁바다에
▁시험을
클라호마
▁도미니카
▁이바라키
▁출연하여
▁캐릭터를
▁평가했다
캘리포니아주
더가
추리
asc
▁나섰
▁착한
▁SNS
▁사사키
▁사전에
▁생각이
▁세워져
▁조선왕조
블랙
피트
하타
▁면이
▁오우
▁마다가
▁머리카
▁제국에
▁일종으로
보존
:55
▁RT
▁불태
▁불행
▁양평
▁보여준
▁주연을
▁키예프
세기부터
▁Happ
▁Again
메트
축일
▁감금
누스는
▁국왕의
▁정치를
▁제치고
▁조약에
▁주목할
▁행동에
▁Fall
▁겔
쇼핑
업자
20)
▁너머
▁독도
▁돌을
▁땄다
▁리즈
▁소노
▁조동
▁최용
지역에
aven
▁순천시
▁십자군
▁공격하여
플렉스
▁산하의
▁여성을
▁설치하여
▁Party
▁발견하였다
▁쯔
▁턴
▁감자
▁마티
▁신전
▁종말
▁비스타
▁않아서
▁언어는
▁주위에
▁홍문관
(2015
▁Green
재해
▁상점
▁par
▁문화가
▁서스펜
▁시리즈는
대구광역시
감의
방정
예수
pen
▁lb
▁Pop
▁개통한
▁경찰관
▁병원에
▁불규칙
▁주위를
▁1872
▁전역에서
ification
▁롭
상대
제조
600
▁고다
▁동정
▁사각
▁모두를
▁연합군
▁타인의
▁아르바이트
블린
사나
▁미개
메이라
▁보낸다
▁성격의
▁카탈루냐
▁DD
▁공표
▁보나
▁거리의
▁기간은
▁하야시
▁우수학교
▁입장에서
나잇
지바
창을
▁사명
▁전담
개월간
sych
▁종교개혁
▁후지와라
▁캣
민턴
액이
▁184
▁2,9
▁음악과
▁것입니다
▁대학교를
▁소령
▁신민
일이다
▁164
▁뒤에도
▁제작사
▁Moon
▁자문위원
▁모닝구무스메
gu
(30
19)
▁구와
▁유의
▁앙상블
▁음악적
▁Pict
▁비밀리에
▁개봉되었다
▁맥락
▁상서
▁영지
▁디렉터
▁정치에
우정출연
▁적용되었다
▁협력프로듀서
즈마
▁미성
▁병자
미나미
▁끌었다
▁선고했다
▁학생들은
여진
ERS
▁갑옷
▁응급
▁잠정
▁전동
▁타오
컨트리
▁붙었다
▁관계없이
▁2008-09
운전
젝트
▁발령
▁스쿼
▁인하
▁중등
▁수익을
▁시호를
▁탐험가
▁학문을
축구대회
ration
녀의
일라
확인
▁역간
▁요약
▁똑같이
▁리베르
▁현재도
사회주의
▁1878
▁Hard
량과
수단
▁공자
▁단말
▁의문
▁측에
▁Max
▁가깝다
▁구단이
▁바람이
▁아리랑
▁때문이라고
gy
모모
반이
취를
훈은
▁목판
▁위드
▁전미
▁퇴장
▁회피
자리를
▁174
▁미하일
▁학생들을
뮬러
토프
unk
▁김시
▁박병
▁상시
▁앞장
▁양지
▁향을
본부장
▁보다는
▁압력을
▁전화를
ences
생태
▁라면
▁종업
적으로도
▁1869
▁시사교양
▁(1948
찬을
▁레즈
▁애프
크로스
휴게소
▁GDP
▁공격해
▁다녔다
▁잡아먹
▁절차를
▁중반에
▁프란치
onder
▁From
▁Engine
정희
조제
처분
eed
▁긴장
▁드는
▁총회
▁뒤이어
▁메이커
▁개칭하였다
▁단국대학교
교동
구스
전동
▁거창
▁배기
▁비토
▁유창
▁가상의
▁로이드
▁조선에
▁출시한
▁수준으로
▁시즌부터
▁형성하고
▁견제
▁내정
▁현직
티미터
itor
▁187
▁가을에
▁뉴욕주
▁일제의
AX
지하
철수
▁매수
▁위촉
▁전이
▁타당
▁Cup
▁바꾸고
▁떨어졌다
▁아키텍처
▁합류했다
▁임명되었고
▁간지
▁변동
▁우유
청으로
▁Doc
▁도시에
▁선수의
▁기본으로
▁내레이션
▁되었다는
남매
,400
▁가지의
▁대전이
▁비용이
▁비정상
▁음반에
전문대학
프랑스어
▁가정에서
시즈
▁오디
▁우니
▁이만
클레오
프로세
▁19,
▁강하다
▁단거리
▁리그인
▁사이로
▁사용자의
▁이적하여
▁Commun
것이
센스
160
:25
▁AG
▁늦게
▁복용
▁차로
자이며
히가시
▁유형의
▁주민센터
공작
비크
사다
▁거점
▁였다
▁화해
atin
▁아내가
▁Down
벌을
▁리카
▁말미
▁법의
▁입헌
가능한
2009
▁교수를
▁부부의
▁소문이
▁시장의
▁킬로미터
▁(2004)
돌은
빌리
성공
주장
쿠마
-00
▁미륵
▁살게
▁소생
▁잡는
▁유래된
▁hist
▁운행하고
▁인공지능
군인
데일
르다
▁공습
▁자일
▁파주
▁네티즌
▁본래의
▁홍콩의
ating
▁도시에서
▁실패하고
▁제안했다
▁달성하였다
▁톡
▁공명
▁믿는
▁재외
▁Dep
▁아들의
▁연결되는
▁일어나고
▁Paris
▁Entertainment
dy
▁엇
레라
전북
포칼
형인
▁기슭
▁넓게
▁다를
스트는
▁구단은
▁기반한
▁내려가
▁마포구
▁유니콘
▁재판을
▁하노버
▁1875
tt
노벨
축산
▁날이
▁매리
▁치는
▁생리학
▁영국에
▁전철의
▁접근할
▁지바현
▁흔적이
▁부근에서
▁집행유예
▁차지하며
▁Grand
+1
▁립
남성
코모
협정
▁#1
▁원의
▁합친
우리는
▁않아도
▁(1940
부산광역시의
Be
빈은
▁Rh
▁금천
▁빈번
▁양육
콘텐츠
▁세력의
▁노선으로
▁발견하고
▁수행한다
Am
너가
노키
지않
테러
히드
▁경과
▁나우
▁안중
▁카터
▁표본
▁흥미
자원부
cept
▁시스템에
차와
▁고장
▁공이
▁김덕
▁몰수
▁상가
▁2-3
▁경계로
▁일대의
▁조직이
:1941
▁사무라이
▁Thomas
▁2011-12
동산
자살
좌석
▁신진
▁정우
받았고
▁225
▁시대가
▁위주로
▁어머니와
▁한국독립
osp
▁난을
웨일스
less
▁생명을
▁쓰여진
▁앨범에
▁온도가
▁인증을
▁작업이
▁화장품
▁that
▁튼
교리
마타
쓰키
▁미식
▁박기
▁불린
여명의
월에서
주인공
▁Lov
▁미치지
▁짝사랑
▁******
인당
충남
▁낙하
▁동참
▁부합
▁재일
▁진사
▁Dem
▁사건과
▁양자로
▁주머니
▁지키고
▁page
SD
▁애완
▁국제적
▁연합의
시켰으며
▁시작하면서
기시
▁미세
▁소라
▁완결
르기스
▁제시한
▁고등학생
▁언급했다
문화방송의
ulture
마력
주연
페어
▁강간
▁궁궐
▁소문
▁실존
▁배우이자
▁블루윙즈
▁효과적으로
▁체코슬로바키아
▁수퍼
▁월트
▁죽게
anth
▁Wil
▁오로지
▁완성된
타도
▁강풍
▁내게
▁사신
▁스펜
▁재상
▁정전
▁최씨
게임넷
▁뱃
두의
드릭
설에
자금
▁ED
▁사치
▁주세
▁대화를
▁일반화
▁정권의
▁Russ
▁라이온스
4.
고와
리츠
삼존
쉽게
아미
장비
▁GR
▁블레
▁집착
▁칼로
▁186
▁메달을
▁붙였다
▁6.25
▁Information
대비
예선
▁루키
▁발동
정책을
▁GNU
▁Hen
▁미유키
▁버린다
▁산업의
▁취리히
oseph
▁1850
▁작곡편곡
td
람실
링은
병과
쿠사
하와
황을
▁발의
▁윤영
▁준주
하세요
▁LCK
▁나라는
▁레오폴
▁헤르만
▁간격으로
▁사람들과
▁올랐으며
전화
▁바꿨
법에서
▁Wii
▁are
▁프린스
바스티안
▁1873
▁그레이스
▁변경했다
▁건축물이다
보물
커는
mon
▁남궁
ogle
▁나카노
▁어둠의
됨으로써
전라남도
ities
▁방면으로
ny
▁팻
Con
▁도네
▁순차
▁조계
예정자
▁견해를
▁선출된
▁자란다
▁즐거운
▁Angel
실업
촌면
▁대두
▁바리
▁색채
▁성전
▁어리
▁4.8
▁궤도를
▁머리가
▁4000
▁That
▁노선이다
천초등학교
박이
비르
협동
111
▁둘이
▁2/3
▁중점을
▁폐지하고
레르
위인
▁좀비
하버드
▁80%
▁결론을
▁예이다
▁임명된
▁패키지
▁여자친구
고등학교로
:7
▁찢
작인
▁겹쳐
▁즈음
다람쥐
arch
▁당신이
▁마리의
▁모로코
▁오스카
▁의혹을
▁혁명의
:1942
▁1862
▁공격하는
▁(1963
철은
Don
▁경질
▁로라
▁미호
▁이우
▁하세
주의가
▁Get
▁RFC
▁기간이
▁토지를
보병학교
▁에콰도르
▁지정하여
▁출판되었다
벤션
보자
▁대청
▁도부
▁아흐
▁유수
▁읽기
▁코리
▁폭파
작이다
노동조합
▁Little
재정
▁백운
▁뾰족
▁압력
▁은거
▁한가
▁두개골
▁이름과
▁오세아니아
▁2010-11
Dr
히지
col
▁손실
▁조시
▁함정
▁204
▁219
▁격렬한
▁남편의
▁노래의
▁승격해
▁우에노
▁받으면서
▁보이지만
타고
▁귀신
▁나르
▁느낄
▁다발
▁방치
▁자란
▁자릿
▁타구
타스틱
▁Aut
▁열차를
▁용산구
▁이르렀
▁화성시
(2004
anger
금속
시계
운이
행이
▁수양
▁주니
thumb
▁Plan
▁아니라는
▁em
▁덮여
▁일진
▁클릭
되어서
oyal
▁송나라
▁희망을
▁인테르나치오
디온
바브
저는
aka
▁배후
▁생체
▁550
▁오르는
▁내용이다
ui
번주
▁박민
▁신안
▁커리
▁Kim
▁가격이
▁높이가
▁모르고
▁건설되었다
▁확정되었다
▁퉁
것은
레로
▁Hy
▁걸스
▁사귀
▁주입
▁키는
▁파기
▁휘말
raph
▁길이의
▁설립자
▁처분을
▁흐름을
▁영화제에서
강은
교와
망에
방과
중종
▁로우
▁인연
▁전대
▁허리
▁쓰레기
▁페드로
▁Film
▁셰익스피
▁최대풍속
▁활동하다가
심과
▁정혜
▁집회
방송국
아이돌
▁203
▁되도록
▁비영리
▁생긴다
▁서울로
▁제시카
▁(1942
사적
apt
asy
▁고로
▁그저
▁부전
▁조엘
▁협조
▁221
▁But
▁sub
▁브리튼
▁이해할
▁전쟁과
▁Publ
▁크리스탈
노르웨이의
▁내어
▁달고
중공업
▁로스쿨
▁마사키
▁미쳤다
▁산하에
▁코끼리
:1920
▁브루클린
잉글랜드계
▁체포되었다
▁German
양시
ams
▁Ol
▁계룡
▁구례
▁머니
▁베스
▁설비
▁섬은
▁연한
▁기여를
▁목록에
▁세르게
▁차세대
▁화합물
강도
표는
▁교정
▁수잔
▁자부
▁재보
▁재편
▁주임
▁천왕
▁축성
▁평을
들보다
버스의
▁sup
▁한국과
교통공사
▁George
▁헤르체고비나
EV
PI
명칭
브러
▁세이브
▁조사에
▁East
▁열대폭풍
▁엘리베이터
왕국
초로
태를
Col
▁농장
▁서임
▁하츠
비서실
▁취임했다
▁프로모션
▁분리되었다
▁시작하였으며
등장
아요
▁리바
▁바디
▁슬픈
▁제대
팀으로
▁Dan
▁서구의
▁운동장
▁의사소
▁치열한
잉글랜드에
▁구자
▁노후
▁이그
▁만난다
▁빌바오
▁스탠리
▁연기상
▁주도로
▁Real
▁part
▁사쿠라이
▁헝
기리
▁극한
▁미첼
▁상응
음보살
▁드디어
▁비하여
▁알제리
정보통신
:1930
▁이적시장
▁종료되었다
되나
셨다
▁겐지
▁알폰
▁얘기
▁나시오
▁인간은
esc
▁가늘
▁분출
▁않자
▁고시엔
▁공군의
▁기업이
▁모터스
▁조종사
▁축구를
▁Prot
▁러시아는
▁쩐
/11
▁어찌
지지만
▁Camp
▁음반으로
▁작품에서
아르헨티나
OG
공영
연금
-29
▁By
▁레스
▁사수
▁샤오
▁스몰
▁해부
스키는
▁민간인
▁서울에
▁얕
수입
차장
▁너를
▁인력
▁인피
▁카바
미트리
▁게이밍
▁못하여
▁부모의
▁원주시
▁해마다
▁무엇인가
다를
사형
선택
정류
▁격추
▁김남
▁깃발
▁안재
▁집결
▁맨해튼
▁기동전사
▁성적으로
▁적용된다
▁PA
▁가져온
▁그래미
▁꼽힌다
홋카이도
▁기념하여
▁시간대에
▁은퇴하였다
▁편입하였다
아우
용과
▁다우
▁매디
▁수락
성군의
▁뛰었다
▁작가이다
102
val
▁FK
▁개수
▁매튜
▁모셔
차이즈
테리아
▁3.9
▁Fin
▁대대로
▁충청도
▁은퇴했다
oud
▁만날
▁방침
▁확신
읍으로
▁Ast
▁서로의
▁신이치
▁우려가
▁전원이
▁죽음에
▁케이프
eek
▁무르
▁AMD
▁Luc
▁기록되었다
▁취임하였다
만년
▁ag
▁노랑
▁선은
▁통용
▁포착
▁하단
▁넘어서
▁미카엘
▁소방서
▁에이미
▁올리브
▁하도록
▁1830
산역
▁CA
▁봉기
▁스쿠
▁케인
▁탈당
▁현도
경제학
▁유학생
▁질량이
▁데스크톱
개에
포도
▁번영
▁전전
▁안타를
▁국민의힘
▁정의된다
PL
가구
철이
▁배리
▁수중
▁안토
▁이연
▁출석
▁그룹을
▁하에서
▁단독으로
번가
불이
투르
▁공안
▁김나
▁무네
▁박선
▁수지
▁보너스
▁시가지
▁시작할
▁안테나
▁전략을
▁방송되는
▁주인공이
▁(1941
▁제기되었다
광을
urs
▁경원
▁마운
▁아지
▁질투
▁짧고
▁후진
이었을
▁교회를
▁꿈꾸는
▁시에는
▁지난날
박물관에
드림
106
▁공백
▁데카
▁말린
▁세레
▁양을
▁장영
▁준수
▁진료
▁친한
▁가문은
▁맡았던
▁받아야
▁토트넘
▁둘러싸여
▁바르셀로
▁사용되며
▁대표적으로
▁남면
▁청취
▁축조
▁출동
▁휘트
문화사
ices
▁바이트
▁설명할
▁스테판
▁진행을
▁충주시
▁태국의
ental
▁도쿄에서
▁아이들을
▁올림픽의
RS
분간
조작
필름
▁루나
▁부러
▁싣고
▁이득
▁증상
▁지류
▁찬양
▁최윤
직으로
했음을
▁MUS
▁관직에
▁반도의
▁변화는
▁Code
▁Type
▁어머니를
▁점령하고
▁(2002)
소장
환은
ATO
▁당뇨
▁동학
▁원종
▁주주
▁휴전
겼으며
리우드
지도자
▁열매는
▁인도양
▁표현할
훈이
IST
▁극락
버린다
클리드
▁논란을
▁심하게
▁약속을
▁여자를
▁정권이
▁한국을
▁호크스
▁1874
▁강수량은
▁거부하고
▁겸임교수
▁회사이다
▁봉인
▁홍진
일본에
▁공의회
▁아가씨
▁조성된
▁패럴림픽
go
▁뮐
성리
속기
있어
제비
▁간략
▁수로
▁양양
▁총을
나르도
left
raft
▁문화와
▁판정을
▁매끄러운
▁프레임워크
hr
▁기가
▁투여
▁후유
더불어
▁4.7
▁Ste
▁hPa
▁하루에
▁후쿠이
▁선수들의
ji
버는
부시
▁별을
▁일족
▁Pri
▁아나톨
▁형성되어
▁수록예정자
▁롯
어사
▁다툼
▁신은
위원을
▁균형을
▁동쪽의
▁위에는
▁제프리
▁태생의
송이
▁가락
▁가루
▁장을
▁죽기
▁179
▁극심한
▁주위의
▁(1962
No
고스
공포
파스
▁말도
▁벚꽃
▁지우
▁내용에
▁Encyclop
▁봉황
▁자생
▁재벌
▁한서
▁휴가
back
▁사무총장
▁(1947
▁Public
▁Collection
▁냈
림과
셀러
중이
▁넬슨
▁년간
▁열정
▁윤씨
▁모시고
▁젊은이
:1924
▁방송으로
▁영화에서
▁아프리카의
공대
테의
▁동사
▁되던
▁복장
▁아쓰
▁인테
▁장항
▁차체
자리의
▁마스코
▁코치를
▁각지에서
▁원인으로
즈미
rem
▁말고
▁면제
▁무언
클레스
프랑크
▁1~2
▁Que
▁디지몬
▁분리된
▁사가미
▁의약품
▁중심에
field
▁Mill
▁건물이다
▁압도적인
▁2006.
▁Saint
민과
▁기차
▁믹싱
▁오사
▁조씨
▁중령
▁천하
▁추종
▁큐브
▁평론
▁650
▁슬라브
▁협력을
예술대학
▁Beat
▁수단으로
ission
▁(2019)
보와
우먼
▁반격
▁성문
▁타지
소설을
하기는
▁6.3
▁브리지
▁전신인
▁국가보안
▁조선로동당
워치
제약
콜롬
▁갖지
▁실장
▁에른
사이버
▁Who
▁춘천시
▁헌법에
▁리우데자네이
▁깁
▁CL
▁네가
▁리보
안에서
위까지
플레잉
:1928
▁참가하고
▁Found
▁진행하였다
▁Volume
경인
대칭
엄마
▁스턴
▁집어
▁말까지
판에서는
light
▁관해서는
▁합스부르크
▁Network
치카
캠프
▁높여
▁스칸
▁유식
▁재선
세군다
▁Mir
▁다국적
▁영의정
▁간주된다
▁로마에서
▁(1953
링겐
암면
열대
▁고추
▁군용
▁볼로냐
▁여자가
▁1879
▁남양주시
▁캐릭터가
▁끄
웠던
임시
지검
▁박희
▁Pan
▁경제의
▁대표가
▁떠난다
승의
시외
용사
지청
타자
▁gl
▁거미
▁칭호
치바나
▁경향을
▁공주시
▁규정을
▁명이다
▁슈퍼주
▁시청자
▁캐스트
Sch
▁구룡
▁박동
▁일괄
▁코린
▁4-1
▁에스컬
▁타일러
▁서바이벌
▁알렉산드리아
!?
▁겪고
▁소원
▁신영
▁제의
▁타키
anna
▁2,3
▁간신히
▁부대가
▁서쪽의
▁인생의
▁자체의
▁포르노
▁1867
▁이전까지
po
사당
색과
▁느린
▁무자
▁신유
▁아델
▁필터
▁호기
다이스
▁대표는
▁디에고
▁요하네스
상공
수호
영양
인성
파워
-24
▁-4
▁대패
▁결정에
▁문제와
▁사항을
▁카메룬
▁호르몬
▁Dist
▁통과하는
▁(1944
초메
▁벽돌
▁현명
던지기
▁나라가
▁방법에
▁브레멘
▁사태가
▁의무를
▁펠리페
(2000
▁중앙일보
▁Windows
춘추
▁이메
▁정준
카이치
ants
▁Mak
▁서유럽
▁헬싱키
▁활발히
▁나타나고
대한민국에
중부
현리
▁동두
▁명목
▁승단
▁천천
▁타협
▁피핀
▁연구와
▁Beaut
▁슈투트가르트
심판
질러
쿠바
▁르노
▁버진
▁실리
,900
▁171
▁엑스포
▁운행이
▁Camb
▁동치이다
목록
산읍
▁맞춘
▁맺어
디아의
JTBC
▁세일러
▁예전에
▁퍼펙트
▁개념으로
SM
▁갯
블루
▁EV
▁볼프
▁위그
▁윤석
▁조회
▁남성의
▁의혹이
▁이랜드
▁장기간
ience
▁아시아의
▁의미하며
▁정치적인
▁추구하는
▁(1952
도구
큰롤
학위
Man
iff
▁Ul
▁러일
▁미르
▁바에
▁오페
▁원통
▁웨딩
▁Som
▁사무를
▁아이의
▁예술의
▁장군은
킬로미터
▁레인저스
▁실시되었다
::
마라
▁XX
▁간격
▁래리
▁영의
▁코소
▁풍속
차례의
rian
▁겉보기
▁게이오
▁도왔다
▁생산된
▁안티오
▁마을버스
▁판매하는
ishing
▁사용하기도
▁새정치민주연합
▁ON
▁걸프
▁마애
▁부유
▁블라
▁순항
▁스킴
▁심지
▁여당
▁173
▁무렵에
▁바뀌어
▁선수들은
▁현장에서
개씩
▁가가
▁강에
▁이안
▁지자
▁흥덕
▁ret
▁도덕적
▁어웨이
▁하나다
▁밴드이다
▁안드레아
▁탬
카에
포와
▁값은
▁꿈의
▁캠벨
▁208
▁상대를
▁승리에
▁판매를
▁피렌체
▁배드민턴
▁있어서의
▁스파이더맨
▁인테르나치오날레
▁골득
▁일간
▁적어
▁해독
▁헬레
베이성
회사의
▁갈리아
▁여기는
▁주장에
▁Econ
▁연기했다
▁이용해서
▁미나모토노
내리
보트
-25
▁5)
▁나뭇
▁랭크
▁매표
▁신구
▁어촌
▁입지
스토리
▁가공의
▁건설된
▁전국의
▁제한된
▁초창기
▁Alex
▁이전부터
바야
연도
천문
▁AK
▁AU
▁MD
▁도리
▁동산
▁온대
▁카고
▁필살
▁형인
났지만
▁분석을
▁수업을
▁왕국은
▁요새를
과정에서
국민학교로
ju
나요
ECT
▁것의
▁급성
▁린다
▁컨설
▁경영학
▁상황은
▁성직자
▁황태자
SI
변에
특급
▁거인
▁구니
▁너는
▁엔드
▁정영
▁충칭
▁메구미
▁멤버가
▁부다페스트
엔진
nam
reg
▁돕는
▁박철
▁실은
▁정세
들었다
▁5.0
▁낳는다
▁미래에
▁화학자
▁Dark
뮤얼
변의
oom
▁심상
▁오만
▁프롤
▁182
▁독일에
▁소설의
▁함수를
▁혐의를
▁방문하여
▁about
▁Program
꾸로
arb
▁OR
▁과반
▁비어
▁오시
▁이븐
▁징병
▁첩보
▁아내의
▁장소에
파키스탄
▁수여받았다
▁캅
라틴
요미
▁강호
▁나도
▁봄에
▁송정
▁전하
▁철학과
▁메릴랜드
▁프로그램인
▁국가대표팀에
토록
풍이
플렉
ACK
▁객체
▁단양
▁외할
▁파고
▁피카
▁무지개
▁영역에
▁의지를
▁표현이
네임
두근
주부
체스
/12
▁도이
▁찾고
해졌고
▁그룹이
▁달라고
▁백화점
▁원나라
▁참가할
▁테네시
▁주말연속극
wa
▁촛
Mac
▁경에
▁김장
▁윤성
▁로마에
▁헤이안
▁서비스가
▁2012-13
데오
집은
차트
체코
▁가열
▁관제
▁산지
▁우한
▁의정
▁중공
교에서
역까지
▁울트라
▁흥미를
▁(1945
▁(1950
▁대좌
▁레나
▁못말
▁반감
▁종군
▁휩쓸
▁영지를
▁작가가
▁책이다
▁내에서는
▁(1943
▁Design
DE
면체
소시
지선
▁MM
▁Us
▁그란
▁막는
▁밀도
▁이룩
▁통보
▁페로
직하고
▁3.2
▁대전차
▁로스트
▁비밀의
▁세군다
▁싸웠다
▁장소로
▁제출한
▁종목은
▁청동기
:1943
▁List
▁특수학급
곡초등학교
▁설립되었으며
탈출
(25
aps
▁CV
▁동조
▁신촌
▁주역
▁진한
▁투항
년도에
로마치
진보당
하게도
▁Sub
▁것이나
▁스케치
▁이기고
▁참여할
▁타카시
▁한겨레
:1932
▁개념이다
▁그레이엄
▁사카모토
▁슈퍼리그
▁효과적인
▁(1936
폐쇄
pop
▁소피
▁폴라
▁슈퍼맨
▁안되는
▁앤서니
▁Artist
UI
편은
하신
▁감상
▁데서
▁심포
▁아워
▁얇은
▁요인
관계에
ould
필리핀의
▁사망자가
▁지원하고
▁하이브리
매사추세츠
▁Smith
▁Richard
배의
.1)
▁입당
년에도
▁206
▁3.7
▁남편이
▁시즌은
▁요르단
▁정규리그
▁사단법인이다
선사
튜버
▁제헌
▁증대
▁파는
▁건강한
▁글러브
▁레이크
▁인간과
지방선거
▁몸길이는
▁아틀레틱
▁유벤투스
▁해체되었다
▁핼
반은
현종
Par
▁서강
▁의왕
▁이항
▁타수
리아스
체코의
▁위구르
▁종교의
▁무대에서
나치
레트
미경
학이
▁묶어
▁빅터
▁사슴
▁우회
▁유상
▁이렇
누스의
▁달콤한
▁아라곤
경상북도
▁공동대표
▁스타일을
▁2012.07
ped
▁볼셰
▁체스
▁1-3
▁시간표
▁예선에
▁전당에
▁준결승전
▁기여하였다
시도
▁강대
▁라미
▁산이
▁상기
▁승무
대서양
▁골든벨
▁아랍어
▁자책점
▁늘어났다
▁승강장으로
▁맬
각은
무사
베크
장기
199
▁Li
▁공고
▁국외
▁동급
▁천수
▁타는
수욕장
▁5.4
▁내각총리
.09.01
▁대체되었다
**
Br
▁룬
막이
수염
심리
양현
유전
타바
las
▁그릴
▁남기
▁미아
▁베티
▁원고
▁증조
▁초고
▁코지
메이커
문화의
부분에
▁경찰청
▁앨범인
▁활동하던
▁Service
wo
▁불의
▁상자
▁셀레
▁정화
사이클
▁21,
▁90%
▁인기상
▁패스트
▁하였지만
안드로이드
인천광역시
▁전국적으로
더불어민주당
정사
호기
▁나지
▁맹세
▁믹스
▁스왈
elopment
HS
분한
주사
티지
▁녀석
▁다듬
▁벌여
▁섬과
▁슬램
▁용량
▁을사
▁코뮌
▁헬렌
▁40%
▁경쟁을
▁미군의
▁패배한
▁휴대전
▁남북으로
▁노래이다
▁러시아어
▁요청했다
▁출전하지
▁활동하며
▁사이타마현
▁한국방송공사
자고
집반
▁OP
▁양대
▁저하
▁쪽에
▁학명
▁협정을
▁방송연예
▁볼리비아
▁(1951
▁대한민국을
ty
▁혀
기생
테른
(24
▁어업
▁장쑤
년대와
올리언
▁발견되어
▁발견되지
▁이용된다
▁주관하는
라배
린을
온을
▁것일
▁박소
▁북경
▁Hon
▁과도한
▁기타를
▁시에서
▁와세다
▁위치가
▁제도는
▁증상이
▁활주로
▁고바야시
▁컴파일러
▁선거구이다
극을
밀히
스프
편찬
▁결별
▁석회
▁시원
▁차출
▁폐렴
나이트
쪽에는
▁750
▁가지로
▁국가와
▁대나무
▁송파구
▁시부야
▁의원의
개국에서
노스아이
▁지점에서
▁하느님의
▁방송되었던
국수
▁공존
▁매트
▁색소
▁서열
▁신승
▁이회
▁잃게
▁지극
▁지석
▁무엇을
▁펠릭스
▁필요하다고
▁친일반민족행위자
▁엣
개미
복이
▁명은
▁복소
▁비야
▁장이
▁타우
지었다
▁국정원
▁행정부
▁뮤직뱅크
▁갚
락의
윤리
▁맞대
▁성곽
▁시속
▁우쓰
▁질서
랭피크
▁3,0
▁Mus
▁각자의
▁북한이
▁세월호
▁시작하고
가온
소서
히게
UTC
dom
▁과연
▁김순
▁늦은
▁라울
▁파열
▁6.5
▁게릴라
▁나라에
▁명령어
▁스타즈
▁HTML
▁Hand
▁데포르티보
▁Festival
▁뢰
블릿
식당
완전
테라
▁구내
▁이륙
▁호를
사회의
▁가르침
▁제이미
▁디자인은
▁함경북도
HR
▁룽
대동
해제
ira
▁고난
▁애인
▁함흥
▁혼혈
▁도로를
▁리그로
▁방향에
▁정으로
▁제품의
(2017
urity
▁정상적인
▁(1946
▁(1961
▁열린우리당
모든
티엔
▁경작
▁미쿠
▁올레
▁제임
식품부
제도를
iful
▁빈센트
▁수도를
▁안동시
▁와이드
▁추가된
▁출판된
▁토요타
▁혼란을
▁모습이다
▁히로유키
▁Human
▁States
커우
▁AI
▁송병
▁직경
▁짓는
▁Inv
▁규칙을
▁장르의
▁가르쳤다
▁역사에서
▁Direct
대우
목사
uro
대회를
▁방사성
▁유지하기
줄기
▁무명
▁신데
▁안고
▁황소
ajor
▁Now
▁음악이
▁천황이
▁카디널
라이언스
(1998
ocese
▁전반적인
월을
전철
▁Na
▁넷플
▁마마
▁발착
▁방탄
▁부각
▁성지
▁염소
▁제노
▁207
▁218
▁경유지
▁스타트
▁소프트웨어를
/5
련된
모에
술사
테일
토키
하동
▁마도
▁옮긴
▁인과
▁25,
▁Tor
▁거꾸로
▁다비드
▁마법의
▁바라본
▁스위트
축구연맹
학교에서
▁애슬레틱
iy
로라
멸의
원사
urr
▁다투
▁동진
▁박인
▁미우라
▁연이어
▁중국은
▁초이스
▁하카타
▁1840
▁컴퓨터를
남아프리카
한양대학교
artment
브는
졌기
▁기뻐
▁모차
▁병이
▁지는
스터의
연구회
월드컵
▁맡는다
▁전철화
▁중앙정보
▁18:00
▁League
yt
노조
오세
운송
▁PL
▁무정
▁미안
▁사탕
▁왕가
도어가
▁고대의
▁그리는
▁단체의
▁줄리엣
지대학교
(2003
▁백과사전
노와
주도
천이
IEC
▁LB
▁UC
▁가창
▁맛을
▁무실
▁보강
▁새긴
▁성에
▁윈터
▁이설
▁차오
▁떠나는
▁별명이
▁에른스트
▁용어이다
쥐속
▁김신
▁모의
▁민요
▁복식
▁이길
▁최승
▁글래스
▁동등한
▁수도로
▁행성이
공정
든다
:35
▁러시
▁번성
▁정희
▁가르쳐
▁무서운
▁제너럴
▁관할구역
▁다양하게
▁일으킨다
▁비판하였다
,"
발트
태종
INE
▁듀엣
▁이서
▁팀장
▁표를
▁검사를
▁내리고
▁선거인
▁영국이
우크라이나
▁프로젝트는
▁2018-19
▁쌍용
ends
▁토스카
▁공격했다
▁생물학적
▁트레이닝
▁북아일랜드
호아
▁DB
▁명곡
▁식사
▁치세
▁태화
▁톰슨
▁호랑
시내티
▁마오쩌
▁정도에
▁혼자서
▁박사학위를
루프
번역
유진
키나
azz
erd
▁기와
▁신천
▁오피
▁작다
도르의
▁결혼한
▁노래로
▁지역인
▁연합군의
▁입학하여
▁최우수상
▁해당되는
▁시즌에서는
신정
양면
여왕
이전
▁RA
▁놓인
▁듣지
▁모호
▁입국
▁자결
회초에
▁211
▁대의원
▁왕실의
▁유튜버
▁이용객
▁정의를
▁그룹으로
▁운영되고
▁일이었다
▁건국대학교
징어
표의
▁광물
▁엘레
▁임실
라우드
,300
▁Ext
▁Lin
▁노르망
▁전통적
▁참석한
▁학생이
start
▁만들었고
▁않았다는
▁한편으로
다양
후미
bin
eta
▁#:
▁내야
▁태안
격투기
▁Bad
▁전투의
cript
▁증가하고
▁프린스턴
자유민주당
▁Christmas
Qu
▁닷
시성
▁TO
▁각성
▁강북
▁구경
▁시영
부에는
▁언론에
▁왔으며
▁조정의
▁한계를
▁보존되어
▁명명되었다
▁늪
합의
▁맡는
▁앙골
▁옥타
책으로
타이어
▁개발자
▁도입한
▁세력은
▁파충류
▁프라임
▁아랍에미
▁형성하는
쓰카
위반
▁레일
이스트
side
▁군산시
▁물질이
▁프라하
▁Princ
총국
토바
투로
행렬
형식
ANG
▁사영
▁퇴적
▁갈등이
▁그랜트
▁기술적
▁부탁해
▁발표하고
▁살아가는
▁텍사스주
WC
배가
-80
▁씨가
▁장제
▁재래
▁주름
aria
▁경력이
▁반응이
▁밝혀지지
▁중앙아시아
▁2010.07
▁줌
검은
잡지
치면
ois
▁나름
▁힘썼
chen
▁물체의
▁밖에서
▁지휘를
▁케로로
▁파블로
▁전라남도의
부정
▁네모
▁한창
소이다
학교의
▁소련이
▁오바마
▁Hill
▁설명하고
▁시기에는
▁정기적으로
날드
ask
▁공대
▁기니
▁도하
▁동전
▁선천
▁중서
리오스
ette
▁255
▁공으로
치안센터
:1939
▁없으므로
▁국회의원을
▁프란치스코
크레
▁분지
즈에서
▁757
▁공간은
▁자기가
▁주도한
▁행동이
▁대대적인
▁부르고뉴
중앙대학교
증에
척을
-40
▁직위
▁캐치
▁Nat
▁남쪽은
▁없으면
▁우주선
▁이므로
▁파주시
▁개발했다
▁문신이다
됐던
▁권투
▁모른
▁어우
레스는
▁ATP
▁나누는
▁돗토리
▁More
▁증권거래
▁border
▁쿵
명종
PGA
▁가중
▁글루
▁면을
▁인산
▁최민
▁개인적
▁다이노
▁성적이
▁회사에
받았으며
▁내부에서
▁소속정당
▁출발하여
다큐
봉의
테랑
You
▁개미
▁도청
▁심해
▁위생
▁항만
▁4.9
▁경로를
▁도로가
계에서는
▁6000
▁이번에는
Sm
올리
쿠젠
-2)
▁천거
▁퍼스
해야만
▁로베르
▁새뮤얼
▁전략적
(2001
▁최고순위
미시
▁매슈
▁쌍대
▁종을
▁총수
쿠스틱
,700
▁05.
▁라쿠텐
▁역할은
▁일반적
▁즐기는
▁타이탄
▁행위는
▁따라서는
▁쪼
아침
포에
▁관상
▁나갈
▁문하
▁수복
olic
omic
▁310
▁GOT
▁동로마
▁무리를
▁왕가의
▁리얼리티
pa
▁쑨
계통
노헤
누아
비츠
▁법제
▁어쩌
▁위를
▁테헤
▁피처
▁감옥에
▁내각의
▁다리가
▁유럽과
▁자원을
▁체결된
무는
죄로
▁군마
▁당황
▁불사
▁저우
▁중수
방송을
▁대웅전
▁제정된
▁하노이
단편
연주
한신
▁ms
▁크래
▁펭귄
사업소
와이드
학교로
▁2~3
▁가져다
▁적외선
▁중국을
유니버설
▁도착했다
길에
라라
pha
▁배재
▁조심
▁Cry
▁고문을
▁불안정
▁서쪽은
▁앙드레
▁게오르크
▁생겨났다
▁율리우스력
▁system
SE
랭크
바드
For
▁김하
▁나간
▁반장
▁소외
▁작아
마드리
빌라이
절도사
▁Son
▁불확실
▁소유한
▁측에서
순의
▁개헌
▁빨강
▁서동
▁최우
2010
▁교통의
▁사업가
▁흐르고
▁교육과정
▁국가정보
▁포함되지
고속도로의
GN
가야
기반
마법
작업
테오
ved
▁구한
▁녹화
▁미겔
▁예는
▁유스
▁정민
▁평평
▁leg
▁그보다
▁동쪽은
▁되어야
▁스탠드
▁엄마의
▁유리한
▁차트에
:1934
▁예전에는
▁필요성을
▁데뷔하였으며
SV
UC
계동
병은
▁동국
▁부당
▁분수
▁애드
▁헬륨
각으로
순위로
With
▁느끼는
▁코로나바이러스
Go
순천
증은
▁경보
▁공성
▁Nav
▁장소를
강전에서
▁북아프리카
▁Austral
로폰
▁(#
▁영장
▁유선
▁전래
▁증폭
▁차고
고양이
하기가
▁버스를
▁제도에
우편취급
▁주민들의
▁브로드웨이
▁사용되기도
외국어대학교
내려
▁선장
▁왕궁
라배마
▁가디언
▁교육인
▁릴레이
▁승하차
▁울주군
▁인생을
▁정보는
▁스리랑카
케임브리지
발표
왕립
▁댄서
▁앞선
▁웅진
났는데
▁1/2
▁기숙사
▁달성군
▁목적이
▁자격이
▁제국과
▁Oper
▁전까지는
▁미드필더로
▁거칠
▁기고
▁나날
▁죽여
▁진상
▁파파
▁유지할
▁1877
▁피츠버그
남의
원주
준을
▁숙청
▁포천
색이다
▁공로를
▁허드슨
▁결승전에
▁마사히로
▁역사학자
던스
rog
▁NX
▁바야
▁배영
▁불분
▁사의
▁keV
▁독일군
▁선택한
▁소유자
▁스트로
▁영국령
▁민주정의당
랜서
안면
저널
emb
▁내걸
▁백석
▁요격
▁요즘
▁임의
만명의
이란의
lymp
▁이전하였다
가며
▁농부
▁라자
▁목동
▁소식
ysis
▁.27
▁IOC
▁Old
▁기념일
▁부인은
▁시도를
▁어렵게
▁재구성
▁전하고
번과
회초
/20
▁덕수
▁로리
▁리키
▁예시
▁두바이
▁수사를
▁연기자
▁수용인원
▁에너지가
▁일어나지
네다
ado
▁겪은
▁동형
▁미수
▁선양
-400
▁서부의
▁세네갈
▁이사벨
▁혁명을
▁현상은
스크리트
루마니아의
▁2018.07
어군
열전
행의
▁DR
▁과테
▁배운
elle
even
▁dis
▁득실차
▁말부터
▁받았던
▁밝혀진
▁움직일
▁청나라의
▁고려시대의
▁선임되었다
다만
▁고이
▁낮다
▁내일
▁붕어
▁읽어
집반승
층에서
▁양산시
▁조직은
ingle
양자
105
ENT
▁OK
▁맥주
▁읽을
▁부근의
▁성향의
▁아산시
▁아이다
▁진출할
▁1592
단백
모험
합성
▁버마
▁보며
▁순정
▁어스
2008
▁4.6
▁대중교통
▁물리치고
▁투수이다
▁Guide
▁Oxford
▁땀
오토
측에
ief
▁곤란
▁마포
▁양수
▁우디
▁자진
▁남자는
▁댈러스
▁바탕에
▁해군은
▁기간동안
▁볼티모어
▁방과
▁잠입
▁Hor
▁can
▁단어가
▁사토시
진상규명
▁공장에서
▁연구에서
▁옮겨졌다
▁출연한다
기나
10)
key
▁기분
▁넣는
▁동거
▁베오
▁우두
회말에
▁상에서
▁클럽인
▁오늘날에는
성종
요다
-60
▁전구
▁지분
▁취미
▁512
▁눈물을
▁작품인
▁철학적
▁1859
▁Call
▁지하철역
▁소프트뱅크
▁캐나다에서
라크
육상
테레
▁GM
▁격려
▁마다
▁센서
▁육체
▁푸아
단이다
저기압
▁당대의
▁이제는
▁자라는
▁조직에
▁질문에
▁등장하지
▁보호하는
▁스카우트
▁싹
골드
음반
▁답변
▁많지
▁무도
▁쏘아
▁아쉬
▁온건
▁장자
▁쪽이
▁항쟁
▁미나토
▁트레일
▁협회의
플레이션
▁씻
▁쥰
초가
▁공영
▁국한
▁리턴
▁휴먼
하겠다
▁인프라
▁증거를
▁살아남은
▁수행했다
▁꽂
벌리
아주
▁기인
▁도피
▁오일
▁요동
▁페인
▁피할
원자력
anta
▁교황청
▁데일리
▁따왔다
▁유스케
▁(197
▁세르게이
▁이동하는
플레이오프
▁임명하였다
▁엡
니언
면허
연화
초대
▁습득
▁아님
▁이근
▁장승
▁치킨
억원을
집으로
▁365
▁DFB
▁등번호
▁명확한
▁북쪽은
▁사상의
▁정하고
▁직위를
▁구스타프
▁마지막에
▁치명적인
▁베스트극장
▁County
동자
리우
aya
iki
▁곱셈
▁닛산
▁전교
세였다
▁넘치는
▁못했던
▁성리학
▁아줌마
지역에서
▁다이노스
▁Brown
▁노스캐롤라이나
시온
싱글
안과
eld
▁두근
▁레몬
▁소행
▁품은
코스트
▁215
▁ser
▁않다고
▁자녀를
▁작전에
▁지내는
▁통치를
▁Bill
▁거부했다
▁고속철도
▁도시계획
▁2013-14
▁괌
움의
이슬
즐리
▁도나
▁루프
▁산인
로스의
립니다
체육회
▁340
▁Run
▁대단히
▁리프트
▁마을이
▁모나코
▁세포의
▁소말리아
문동
본명
연기
움이
하길
황이
▁군부
▁유틸
▁지출
▁포츠
▁호스
▁화엄
조에서
olit
▁가로지
▁말미암
▁바이어
▁성으로
▁앨버트
▁친환경
▁필립스
▁브리티시
▁사용되어
▁탈락했다
대책위원회
너드
다발
바트
▁가평
▁날려
▁도래
▁명륜
▁숨을
▁여사
▁장동
▁조던
▁클럭
▁Sky
▁대륙의
▁생전에
▁아내와
▁오카다
▁의문을
▁이시다
▁흐른다
▁건국훈장
▁세상에서
▁지원하기
관일
광이
녀가
년차
신저
▁게일
▁도산
▁문무
▁비늘
▁신시
▁임성
▁저그
번이나
집에서
▁문학상
▁사실에
▁시장이
▁원칙에
▁정의는
▁거리에서
▁설립하여
▁4,000
▁Frank
▁사회주의자
CR
▁뭔
▁CN
▁퇴직
▁420
▁국립공
▁순서로
▁음반이
▁제한이
▁조약이
▁작용하는
▁프랑스령
▁이탈리아어
UP
커의
tor
▁일생
▁절벽
제에서
▁부대의
▁상주시
▁총리는
▁크루즈
경상남도
▁실시하는
▁위스콘신
▁코미디언
▁필리핀의
▁Seoul
oi
▁몹
라서
버의
악단
(4)
NHK
▁BB
▁비아
▁살짝
▁정령
▁조의
▁증진
▁철폐
분까지
▁라오스
▁문학의
▁서로를
▁세계로
▁수필가
▁중구의
년대까지
카이도의
▁Anim
▁comp
▁보수주의
:8
숙의
오락
▁+6
▁법과
▁상연
▁안창
▁카피
▁하급
▁480
▁Mot
▁국적을
▁김해시
▁알파인
▁체제로
▁Band
▁순서대로
▁완벽하게
▁Histor
UB
등과
황의
arc
▁갈리
▁공적
▁너비
▁런닝
▁병기
▁설리
▁시중
▁예일
▁점검
▁초당
▁6.0
▁걸리는
▁공격이
▁사명을
▁August
러를
여의
▁가군
▁돕기
▁로사
▁창고
▁혼동
▁부의장
▁생겨난
▁생제르
▁숫자는
▁신화에
▁유력한
▁정신과
▁클레어
▁컴퓨터의
▁타카하시
▁아리스토텔레
kW
심에
EEE
▁구두
▁상금
▁숭실
▁이보
▁주성
▁허영
국민의
지거나
▁214
▁FBI
▁로빈슨
▁시간과
▁쓰기도
▁출연을
창작
▁공약
▁모색
▁바쿠
▁오자
▁출품
▁티모
로맨스
바도르
▁0-3
▁행하는
▁들어가게
▁샌디에이고
▁(2001)
▁에스컬레이터
▁점거
▁222
▁그만큼
▁뛰어넘
▁보이게
▁원칙을
▁자서전
▁화재가
문화예술
opter
▁Review
다와
▁구슬
▁보행
▁오와
▁한지
▁70%
▁est
▁정치학
▁방송통신
▁지도자로
▁호쿠리쿠
높이
버라
호란
ela
▁5%
▁SW
▁WC
▁그외
▁신재
▁엘라
▁재해
▁징계
▁한영
부쿠로
우스와
ased
iger
▁제조업
▁참의원
▁캐릭터로
▁퍼포먼스
하되
▁SG
▁김문
▁김봉
▁마모
▁배차
▁블룸
▁중엽
왕으로
▁.29
▁루카스
▁Cons
▁Daum
▁만들어져
▁캐릭터의
▁슈퍼리그의
▁덱
극의
대기
설은
탈리
▁용기
▁원활
▁타락
베이징
시트콤
▁OVA
▁기법을
▁능력은
▁명령에
▁세금을
▁세우는
▁숫자를
플로리다
▁나시오날
▁부산광역시의
걸이
버전
오픈
읍에
140
▁목욕
▁아브
▁점과
▁초중
세기를
▁광고를
▁기준이
▁느끼게
▁상대선수
▁스케이트
▁스타일의
▁지배하는
▁활동했고
▁일제강점기
▁프랜차이즈
HF
신일
암의
▁최현
회사가
▁그림은
▁스트라
▁정보의
▁제한을
▁지정한
Robert
▁라이프치히
▁전국체육대회
▁뜬
총사
▁FL
▁MY
▁구독
▁극우
▁김철
▁신곡
▁의성
차전은
▁대사헌
▁예선을
▁천천히
라마운트
도면
디안
애플
옆면
킨슨
▁가모
▁딸과
▁연립
▁햇빛
지라도
▁802
▁도시인
▁수용할
▁연주를
▁존재로
▁치렀고
ather
▁영화부문
▁경영대학원
0%
스태
인드
▁감동
▁버린
▁옥천
▁자와
▁181
▁법학과
ethod
▁실시했다
▁안정적인
▁의미이다
▁전해지는
▁담당하였다
▁Academ
가장
선진
왕복
화할
elt
▁da
▁날씨
▁소극
▁온양
▁장대
▁전학
▁청색
터에서
▁대표를
▁함수는
권에서는
▁부족으로
▁자료이다
Univers
절의
ICA
▁격리
▁압록
▁열려
▁염려
▁일리
▁종신
▁초판
▁06.
▁23,
▁5.8
▁생활에
▁온게임넷
▁표기한다
▁활발하게
▁개편되었다
ucation
라오
▁대흥
▁뛰는
▁로컬
▁맛이
▁비지
▁Tem
▁공민왕
▁권위를
▁시절을
▁나타나지
▁사법시험
▁설치했다
▁뉘른베르크
▁클라이언트
▁펫
게더
메오
우로
▁산을
▁코칭
▁Oct
▁너에게
▁생성된
▁서재필
▁오릭스
▁File
▁독립적으로
▁크로스컨트리
송의
▁길다
▁깨어
▁보복
▁원곡
▁곳곳에
▁도쿄의
▁명확히
▁새끼를
▁소시에
▁중성자
▁회장이
하더라도
(2016
▁만들어진다
▁형성되었다
구니
단조
00)
▁열두
▁은신
▁해왕
▁동유럽
▁사냥꾼
▁암컷은
▁휴대폰
▁유래했다
내가
미츠
으러
▁감성
▁노드
▁노이
▁산책
▁키르
▁황보
▁광해군
▁그만두
▁분야를
▁오일러
▁해리슨
마이크로
▁어시스트
위원회에서
▁Peter
▁효율적으로
세력
오자
옹주
원인
▁고흥
▁대접
▁조재
스타일
▁7.5
▁달러에
▁방사능
▁차례에
▁드라마의
▁Cross
▁새천년민주당
▁2006-07
닛폰
바사
irg
▁비둘
▁Ent
▁거두며
▁곡들은
▁등판해
▁양식의
공화국의
▁Gall
▁Kiss
▁공산당의
▁스포르팅
로트
마산
머는
배로
333
▁뒤의
▁소의
▁적게
뮤지컬
▁def
▁미즈키
▁바다를
▁쓰러뜨
▁증후군
▁못했지만
HI
당할
덩이
피해
▁내림
▁시아
▁에그
▁차녀
▁취한
▁히노
습니까
▁끝난다
▁두개의
▁레이더
▁스폰서
▁아브라
▁정책의
▁지리적
게르
년째
절로
▁공저
내었다
마이클
▁남았다
▁도치기
▁안정된
▁익산시
위원회에
▁모차르트
▁스크린도어가
▁우크라이나의
▁펩
경부
마지
약의
임의
전달
▁로키
▁정태
▁출루
도이다
였다는
▁191
▁22,
▁단계를
▁단체전
▁따르고
▁대표팀의
▁이야기의
▁Technology
기후
사실
살에
축을
rpm
▁발리
▁삭일
▁엠마
▁요충
▁칼을
▁토로
▁혜성
바브웨
투스의
회의를
▁검사장
▁레스터
▁세미나
▁파스칼
iforn
overn
▁Mach
▁마츠모토
▁손해배상
▁아드리아
▁의회에서
▁내셔널리그
▁역임했으며
덕리
보레
▁안톤
▁정정
▁(30
▁COM
▁심리적
▁에밀리
▁히타치
▁Cambridge
나베
오키
▁ap
▁we
▁고생
▁아끼
▁이단
▁직속
▁킹스
부인과
urus
▁생각한
세기에는
▁공과대학
▁들어오는
▁하이브리드
볼트
원동
평택
▁HK
▁못함
▁발로
▁에인
▁위조
▁자명
▁한진
▁항등
▁화염
▁5.6
▁단행본
▁발명가
▁수학적
▁어드밴
주의적인
Ne
김씨
▁EA
▁대본
▁색이
▁속편
▁연화
▁참의
개국이
지역을
▁오사무
▁정상에
▁컨텐츠
istry
▁Awards
견이
▁MX
▁눈의
▁로만
▁미인
▁팔아
문에서
▁Bur
▁Tur
▁공간에
▁사형을
▁코믹스의
▁행정안전
▁개칭되었다
▁아카데미의
▁대통령비서실
노를
레앙
사도
턴은
▁니켈
▁불변
▁쉽다
▁지침
▁추계
▁티저
▁212
▁규모를
▁아이젠
▁있는가
▁헌법을
ellow
▁국내에서
▁전달하는
▁집합이다
▁(2000)
▁2014-15
▁딩
▁훙
매김
바가
All
▁낭독
▁떠오
▁정거
▁가능성
▁군이다
▁줄거리
▁코드는
▁포스코
iform
▁설정되어
▁한편으로는
▁친일반민족행위진상규명
▁럼
관측
기통
보조
차관
▁곤살
▁네트
▁에코
▁인적
▁파병
▁편안
사회당
▁괜찮아
▁교통사
▁방안을
▁사쓰마
▁Carl
▁네트워크를
대역
블릭
아틀
코트
하오
▁NO
▁SR
▁구루
▁군청
▁말과
▁상단
▁수인
▁카툰
▁튼튼
▁각지의
▁스케줄
▁업로드
▁집합의
▁표현은
▁후기에
▁love
▁우에스기
▁함수이다
▁(1938
▁굶
▁탭
차오
크에
-26
125
gan
▁롤러
▁주일
▁주창
▁치유
▁키릴
▁UTC
▁아이디어
▁Earth
DD
va
전적
▁리프
▁입수
갔으며
브리어
자들에
칸옆면
▁개봉된
▁대변인
▁황제를
▁결합하여
▁오다와라
▁넌
연패
log
▁#*
로니아
조사를
▁개최지
▁케이지
▁플러그
▁강조했다
▁공간으로
▁효율적인
거가
보국
유고
▁우세
▁이니
▁정적
중화민
▁YTN
▁귀여운
▁방송의
▁배우는
▁해준다
페스티벌
▁점령했다
▁활용하여
▁독자적으로
▁선고받았다
▁Charles
포장
▁Mo
▁궁중
▁몸은
▁보낼
▁우월
▁최원
ides
▁YOU
▁식물의
iving
▁기타큐슈
▁유틸리티
이스라엘의
▁2014.07
백의
▁금토
▁데쓰
▁예멘
▁와다
▁290
▁책으로
▁탁월한
uture
alysis
▁Space
▁마드리드의
▁멀티미디어
▁꿰
르와
맨의
보쿠
투라
▁미추
▁쓰리
▁정윤
▁주화
▁카렌
레코드
▁(1,
▁518
▁농어촌
▁복수의
▁아무리
▁전자의
▁트럼펫
▁기념하기
▁기록이다
▁돌아가는
▁몬테네그로
▁활동했으며
결선
호몰
inh
▁-5
▁거룩
▁동등
▁자제
시켜야
철학자
학적인
file
▁과학의
▁구간에
▁시신을
▁이상은
▁중계소
▁지닌다
▁한다면
yeong
▁무함마드
▁생제르맹
23)
▁국철
▁랜덤
▁사물
▁여단
버스가
알라룸
ecko
▁Ros
▁Say
▁골득실
▁교수의
▁에리카
▁인물을
▁중학생
▁활동가
▁1400
▁프로파일
▁국가대표로
▁2016.07
▁둠
덕면
섬유
▁달에
▁벤처
▁접한
▁3,5
▁섬이다
▁실수로
▁유래는
이화
퍼트
▁TH
▁Ze
▁다행
▁대담
▁성폭
▁야전
▁유권
▁잦은
▁논쟁이
▁되어서
▁뒤에서
▁부모가
▁영화화
:1935
▁*2021
길동
시라
플릿
-27
▁났다
▁눈치
▁스이
재판소
▁감염된
▁방식에
▁사령부
사이타마
했음에도
▁영역에서
▁성장하였다
▁General
▁쾨
보전
▁고영
덜랜드
들처럼
▁나타날
▁대종상
▁지위에
oidea
▁Sign
DF
버섯
진우
코너
화장
▁남방
▁실재
▁컸다
▁폭이
신도시
으려는
ards
▁.30
▁777
▁맡기도
▁보내어
▁부르게
▁비롯된
▁소련은
▁연대기
▁콘서트를
▁Global
문화체육관광부
기스
상어
스튜
유정
▁고딕
▁번갈
▁산탄
▁성실
▁정제
명에서
▁24,
▁Les
▁기록과
▁반응은
▁영어를
▁지시를
acter
▁Days
▁여겨지는
▁영향력이
action
▁*2019
유니버시아드
▁Secret
▁Database
상수
움과
-90
.),
18)
agn
▁공국
▁부자
▁차차
인들과
▁건조한
▁소식이
▁이동할
▁팬들의
▁효과는
▁붙여졌다
▁웨스트민스터
▁2014.06
남북
상가
신앙
카노
set
▁군함
▁라라
▁문종
▁시할
▁중합
성균관
파운드
▁수준을
▁인코딩
lease
▁일대에서
▁투표에서
▁후계자로
▁MUSIC
▁Martin
▁꽝
늦게
린과
샤의
.5)
▁전락
스키의
▁223
▁가라앉
▁강의를
▁듯하다
▁라이더
▁목성의
▁복수를
▁불교도
▁손실을
▁일주일
rough
▁서귀포시
치부
패드
ots
▁그랬
▁리히
▁물류
▁오현
▁포에
idge
irit
▁블레이
▁사상은
▁여겼다
▁이바지
▁철저히
▁패트리
▁푸에르토리
Ap
▁챈
농민
전지
직의
103
duc
win
▁AE
▁간혹
▁미워
▁섹션
▁유망
▁커넥
▁끼쳤다
▁몸무게
▁유이치
▁핵무기
▁관련되어
▁마쓰모토
▁사망한다
아메리카의
▁수페르코파
▁크리스티나
William
랄라
명령
쓰고
▁pe
▁양동
나라가
네이션
시간에
회의원
0000
▁리서치
▁소유의
▁요청에
▁은하의
▁의석을
▁over
▁그라운드
▁들어왔다
▁벌어지는
▁승리했다
▁어쿠스틱
▁Sweet
▁개발하였다
록을
무용
상사
아동
한자
▁것들
▁구호
▁꽃잎
겠지만
서에서
▁당한다
▁영국으로
▁민주노동당
등은
분기
지동
ais
▁보카
▁최경
▁이론과
▁발매됐다
▁교체되었다
▁충청남도의
라시
mun
▁버터
▁위즈
▁징수
▁했기
▁후렴
교육원
▁705
▁mov
▁구성은
▁성적은
▁찬사를
▁도쿠시마
▁피아노를
▁전반적으로
달마
족에
채는
카테
티야
▁MI
▁경매
▁곡명
▁끼고
▁실사
라이프
▁계획의
▁교육에
▁롬바르
▁모았다
▁신앙을
ender
▁강조하는
▁창설되었다
▁Korean
HP
강한
복무
▁마켓
▁백만
▁산에
▁철로
▁통로
▁한달
연대는
카운트
▁그러다
▁내린다
▁얼굴이
▁역할로
▁총리를
▁포뮬러
▁활동의
▁황제는
▁홍콩에서
더링
레지
발생
인상
저의
트랜
팀장
▁목재
▁복권
▁스님
▁작위
▁콜럼
▁포식
▁호른
사단은
▁1,8
▁강화를
▁책에서
:1938
ffect
▁방지하기
▁앨범으로
▁일렉트릭
▁패하였다
▁하나로서
▁오클라호마
uh
가면
자전
TBS
▁당역
▁쓰루
▁전폭
▁좀더
교육과
노동자
다니는
▁Def
▁논쟁을
▁단체인
▁이르게
▁정책은
▁피안타
▁향상을
▁플랫폼을
▁Child
근은
레슈
신기
안내
코이
250
▁대정
▁루피
▁상부
▁유태
리오카
축구단
ears
▁공장을
▁나트륨
▁상대방
▁증상을
▁대항하는
▁레인보우
▁사용하게
▁축구선수
▁친선경기
▁클럽에서
▁인도차이나
라쿠
실내
진출
표로
ila
▁nm
▁손잡
▁열을
든버러
론으로
명에게
▁216
▁370
▁5.7
▁Men
▁고인돌
▁언론의
▁오리엔
▁채널을
명이었다
▁국민의당
▁비교하여
▁없었지만
▁전국동시
▁쿠데타를
▁인도네시아의
대조
있지
123
▁강행
▁검열
▁듣는
시간을
▁노태우
▁시니어
▁날카로운
▁둘러싸인
▁알베르토
▁일본군의
▁산스크리트
림은
▁관내
▁도우
▁보자
▁안심
운동이
▁.26
▁Fly
▁맞았다
▁여왕의
▁예컨대
▁접근을
▁프랑스로
남초등학교
▁루이지애나
▁리베르타도
▁썰
어린
iol
▁국세
ques
▁rel
▁등에게
▁믿는다
▁여지가
▁유아기를
CV
림리
보좌
터너
현상
lam
▁나쁘
▁남지
▁러닝
▁설문
▁탈취
년경에
노세키
됩니다
▁달서구
▁보통의
▁사라고
▁인물의
▁장난감
▁표현의
▁승부차기
▁투니버스
▁예정이었다
캘리포니아주의
On
때는
예보
희와
▁Ng
▁나눔
▁만드
▁얼룩
▁일차
폴리탄
▁van
▁개찰구
▁구성을
▁되므로
▁세번째
▁집합을
stein
▁BEST
▁지방선거
▁아프리카계
국악
급행
스레
시미
현도
희를
130
ARD
▁->
▁에일
▁자궁
▁죽는
선이다
▁Mur
▁아내를
▁이름에
▁(1937
FK
통은
kin
▁가던
▁나일
▁아약
▁일주
▁임종
▁치환
▁Tra
▁그녀와
▁법률에
▁보리스
▁장점이
▁통치자
▁합니다
들이었다
▁8000
▁고속버스
▁설립하고
▁위키백과
▁공개하였다
EB
▁썩
기금
밍엄
와서
▁걸즈
▁결핍
▁문성
▁사나
▁삼남
▁서장
▁털은
단체의
▁공격할
▁선언을
▁형제의
▁Data
▁국민투표
▁방송에서
▁취소되었다
제일고등학교
삼촌
▁니키
▁다저
▁온두
▁스칼라
▁있으니
▁자세를
▁종류는
▁귀국하여
▁불과하다
▁여겨졌다
▁2004.
▁River
▁(1999)
▁랠
리프
카게
커가
▁1%
▁미로
▁상고
▁암석
▁평야
▁포격
▁혈관
▁혐오
▁Two
▁가격은
▁성우는
▁재방송
▁중거리
▁흩어져
리그에서
▁마이니치
▁명성황후
▁위원회는
As
근을
TER
▁그럴
▁바울
▁브론
▁오즈
▁클랜
▁키리
▁대사를
▁문화에
▁에브리
▁지나면
▁투자를
ality
▁인기있는
▁Times
노스아이레스
▁엔터프라이즈
▁프로그램에서
+)
개시
이적
▁글래
▁냉전
▁넓고
▁최은
번호는
보훈처
▁후보자
일리노이
:1931
▁상파울루
깨비
세상
어인
주오
▁HL
▁바젤
▁서영
▁유머
▁직렬
▁Ltd
▁계통의
▁만주국
▁번역가
▁번째는
▁체제의
▁Phys
▁자연과학
▁전국동시지방선거
공수
불의
비지
awa
rel
▁코로
유공자
onia
roup
▁lib
▁기여한
▁비교해
▁타나카
▁Wall
▁여겨지고
▁중요하게
▁차지했고
방어
▁av
▁논산
▁다닐
▁우스
▁지린
▁칭송
시간은
▁CIA
▁디스코
▁의사가
▁자료는
▁전철역
▁체인지
▁1858
▁Wild
▁가르침을
CL
버거
토지
▁TG
▁갑오
▁능동
▁부왕
▁지청
▁찍어
▁met
▁가문이
▁것들을
▁기관의
▁반정부
▁주민의
▁코믹스
▁테헤란
▁7000
▁라이브러
▁오토바이
▁2015-16
▁2017-18
기즈
년작
정화
통치
티를
한은
▁고우
▁교부
▁도마
▁세무
▁소용
▁유목
▁하리
러스의
▁Afr
▁고려사
▁단계에
▁유타카
▁야마시타
▁장소에서
▁증가했다
▁아이디어를
교인
근무
▁나빠
▁담양
▁법령
▁잔디
▁조준
▁청풍
▁후추
마리아
▁226
▁미성년
▁직책을
▁롤플레잉
▁인터뷰를
물리
시각
정조
▁공양
ynam
▁당신은
▁빠졌다
▁왕국이
▁패했다
▁해안에
▁대항하여
▁국가대표팀에서
료는
부여
진일
▁군중
▁마디
▁모금
▁모란
▁엔도
▁주권
▁히가
마리의
코비치
▁Lim
▁개구리
▁결혼식
▁글자를
▁미루어
▁미카와
▁북동부
▁선수였다
▁설립되어
▁받아들였다
▁설계되었다
▁프로리그의
▁Battle
▁Studies
OO
독을
정주
카자
▁Fa
▁우파
▁재차
▁쳤다
▁Key
▁끝나는
▁비중이
▁상업적
▁성향을
▁여수시
▁원리를
▁종래의
▁개정으로
▁마오쩌둥
▁Books
와카
▁로미
▁번도
▁원본
▁입는
▁켈트
▁평민
▁315
▁숫자가
▁적었다
▁지원이
시키면서
츠부르크
▁정치적으로
▁Airport
귀족
만주
병기
절에
▁IA
▁깃털
▁도장
▁몰두
▁신창
▁자켓
▁저는
▁춘계
▁헤더
티스트
▁().
▁귀화한
▁스캔들
▁출연해
▁카이로
▁트로피
모스크바
▁것이지만
▁비판하는
▁흥선대원
▁March
▁Management
배에
술은
ova
▁Pi
▁노다
▁조장
▁패키
▁피스
▁향기
▁황실
라이스
▁Van
▁나무를
▁장관이
▁정의된
▁중심을
지원센터
▁법무법인
▁스칸디나
▁에스파뇰
▁움직임이
가리
넌트
암살
좌의
104
▁총계
▁KOR
▁길이를
▁다이너
▁면이다
▁체계는
▁제작했다
대학교에서
▁경기장에서
삼각
슐리
원리
임금
▁기금
▁달이
▁법에
▁수교
▁제재
▁301
▁경부선
▁전역을
▁제의를
으로서는
▁자신만의
▁트랜스포머
▁Social
▁version
▁NP
▁관점
▁도화
▁두뇌
▁모빌
▁불필
▁송영
▁최남
법이다
ming
ulus
▁228
▁4,5
▁검찰은
▁근거가
▁다니며
▁망원경
▁학교는
스페인에
▁국무위원
▁준우승에
▁초등학생
▁Intro
▁익스플로러
▁2019-20
5.
용품
자격
태자
ONE
▁광무
▁금동
▁뚫고
▁본상
▁파벌
▁평상
▁푸르
▁회귀
노카미
▁217
▁720
▁경성부
▁단계로
▁사람에
▁사후에
▁일원이
▁후계자
▁베네딕토
▁성씨이다
▁장남으로
▁테스트를
▁활약으로
랑을
리던
모습
예비
진한
▁사미
▁자사
▁철강
▁토리
▁60%
▁rec
orial
▁기념하는
▁아이들의
▁없었으며
▁프랑스를
▁헌법재판소
토끼
▁과의
▁용문
▁집의
▁특기
루스는
▁정체를
▁클라리
이었다는
ories
▁요코스카
▁인정되지
▁People
mS
아로
양리
▁가기
▁미미
▁반역
▁스베
▁추력
▁238
▁fil
▁가시마
▁대법관
▁연출가
▁요구에
▁작가로
▁정의당
남녀공학
▁가르치는
▁무시하고
보지
사촌
소유
▁이매
▁당선된
▁무사히
▁예비역
▁예선전
▁자연의
▁Ball
▁발표하여
▁아직까지
▁시작되었고
We
건국
서인
준혁
109
▁꽃을
▁등단
▁세습
▁준장
▁해킹
쪽에서
▁사무엘
▁언어가
▁혈액형
▁화재로
세기까지
▁유지했다
▁입단하여
▁로드리게스
▁시리즈이다
oa
▁뽀
더블
린트
십리
▁군정
▁대방
▁신을
▁표적
개이다
화하기
▁4.2
▁요시아
▁우익수
▁재개발
▁중앙의
▁화제를
▁해양수산
▁(1930
▁Right
▁언급하였다
수이
(5)
▁과목
▁귀속
▁정일
▁차르
▁청도
▁한경
기관이
▁그것의
▁김천시
▁방사선
▁사진이
▁위안부
▁지분을
azine
▁1812
▁Know
▁Rail
▁방송국과
▁유클리드
▁official
반대
잔디
커를
▁댓글
▁되다
▁묘지
▁씨는
▁워킹
▁이찬
▁장래
▁전과
지먼트
▁625
▁그것에
▁만나고
▁선데이
▁민족문제연구소의
▁쏜
릿지
유엔
태의
테는
행에
▁차츰
케이드
▁380
▁가깝게
▁가지지
▁강하고
▁네바다
▁바라는
▁손상을
▁하나씩
▁무라카미
▁죽음으로
▁타이완의
▁(1934
▁Stage
구단
시립
야전
위생
자매
증과
▁권영
▁극본
▁도라
교육감
▁233
▁사생활
▁좌익수
▁지붕은
▁홋스퍼
▁훈장을
▁안드레이
▁괘
무지
인디
▁메일
▁몰라
▁물과
▁스완
▁조롱
▁키를
메트로
모바일
▁213
▁기술과
▁낙동강
▁제목을
▁파푸아
▁상대선수결과
/6
기호
107
utt
▁삼중
▁서거
▁서상
▁아그
▁자위
▁조소
달라는
arly
▁med
▁작업은
▁필리포
만으로는
아버지는
▁드라마로
▁등장하며
▁무로마치
▁받았는데
인천광역시의
규의
바우
손의
어라
하곤
ski
▁기린
▁끝을
▁심근
▁영재
놓았다
보이는
주유소
vers
▁440
▁다닌다
▁문자로
▁바다로
▁병사를
▁카스티야
▁2003.
▁유래하였다
슬로바키아의
▁프톨레마이오스
sa
신부
장교
.2)
DOS
▁거기
▁맑은
▁선봉
▁에노
▁유공
제임스
▁Bon
▁Cre
▁Hal
▁믿었다
▁사회당
▁차가운
▁확인된
연구센터
▁사용자는
▁연주하는
▁Franc
▁통합되었다
메니
원정
▁Ba
▁매스
▁머큐
▁시발
▁완산
▁직사
▁최병
▁휠체
륜구동
▁기준에
▁돌아왔
▁세컨드
▁이창호
▁향하여
명대학교
▁가수이자
▁방글라데시
막의
자민
해와
oly
▁반성
▁밝고
▁취향
▁테드
▁특전
국가지
번지에
aker
▁07.
▁516
▁것과는
▁광화문
▁노선에
▁아들은
▁일레븐
inger
▁Test
▁야마자키
▁중심지로
▁지하철의
MM
문인
분열
신용
▁몰리
▁벤피
▁후이
▁(-)
▁견해가
▁당하는
▁몽골의
▁자릿수
▁저지른
▁타임스
▁수행하고
▁아이파크
▁회장으로
맥을
수스
질에
후가
▁복역
▁솟아
▁옮기
▁임정
▁조우
▁지킬
여명이
▁Sem
▁관리자
▁끝내기
▁독수리
▁뿌리를
▁안전을
▁운명을
▁적당한
:1923
▁챌린저스
비어
오지
직업
항은
해질
▁계엄
▁교동
▁동호
▁신발
▁착각
▁참수
▁5.9
▁Vis
▁않았을
▁어디서
▁용어가
▁줄이기
▁항복을
▁가나자와
▁떨어진다
▁(1998)
▁닝
▁맴
관한
레노
스탠
이니
제과
지우
170
▁고트
▁노엘
▁숨은
▁장타
▁탄자
▁학회
▁명의로
▁미만의
▁얼굴에
▁인정을
▁재편성
▁체제가
:1921
▁하코다테
▁합격하여
▁푼
검색
황금
▁고르
▁물결
▁완비
▁제명
▁경제를
▁규정이
▁더블린
▁본부를
▁쇼핑몰
▁쓰나미
▁형식은
▁계속되는
▁보루시아
▁서비스는
알라룸푸르
▁발전하였다
▁Winter
Fl
ori
▁Gi
▁때를
▁에로
▁이아
독일에
되다가
alog
▁구조와
▁남학생
▁미토콘
▁번호를
▁벌이는
▁법칙을
▁성명을
▁시민의
▁이름도
▁이사를
▁이상인
▁주었고
▁국립중앙
▁국회에서
ternet
▁Hello
▁향토문화유산
330
▁TS
▁시진
▁신년
▁아놀
▁오데
▁우상
▁장은
나가와
▁그룹에
▁당국은
▁미야코
▁저항을
▁표시된
▁행위에
인민회의
▁1700
▁거점으로
▁성장했다
▁정치가이다
러기
350
▁if
▁덴쇼
▁돈이
▁문의
▁색의
▁이학
▁중고
▁총기
▁픽셀
▁살해한
▁인플루
▁죽이는
▁중견수
:1922
▁베토벤의
▁서스펜션
▁코바야시
▁공개적으로
한국방송공사
좋은
지연
직은
26)
rum
▁ER
▁배향
▁앞둔
▁키보
▁타라
▁팔작
▁프루
아사히
안군의
애슬론
핀란드
▁공헌을
▁김옥균
▁부부는
▁않다는
▁엔진의
▁이해를
엑스박스
apter
▁Mind
▁쿠빌라이
여고
▁IR
▁갈래
▁기미
▁김만
▁도출
▁볼드
▁삼천
▁아자
▁요양
▁위함
▁측이
해지자
2007
rest
▁바닥에
▁정의에
▁말미암아
▁심지어는
▁자메이카
▁통합되어
르기스스탄
질량
타라
해설
▁건널
▁구도
▁대제
▁모라
▁반입
▁반죽
▁번창
▁보육
▁순번
▁거쳤다
▁고유한
▁공격은
▁교육감
▁쌓았다
▁자유와
법원에서
▁니시테쓰
▁(1997)
▁멤
(-0
eau
roc
vis
▁등기
▁안기
▁예편
▁자립
났으나
대학의
비우스
▁걸쳐서
▁공로상
▁극도로
▁대중의
▁생활의
▁시기가
▁적용된
▁Cast
룡의
상무
올림
우즈
-64
mat
▁DE
▁마담
▁명제
▁섞여
▁히토
우주연
▁가문을
▁레코딩
▁여성과
▁장치가
▁정당이
▁철저한
▁출전을
▁Bank
▁Post
▁개편으로
▁나카지마
▁마르쿠스
▁사용하던
▁소설이다
▁이베리아
▁이어지고
▁마다가스카르
광의
유통
▁내며
▁대포
▁도호
▁마니
▁미켈
▁뽑은
정부는
amin
▁2,6
▁계속된
▁옥수수
▁원정을
▁음반인
▁자료에
▁총리로
▁평택시
▁농림수산
▁뉴질랜드의
▁대한제국의
거북
찬성
▁go
▁길러
▁랜디
▁별도
▁폭주
▁필하
버스를
▁Dom
▁기사가
▁드래건
▁모델의
▁바뀐다
▁버스터
▁빠져나
▁송신소
▁아침에
▁인물은
시키는데
적이라고
:1937
▁가운데에
▁드래곤즈
▁마르세유
등록문화재
아노
열린
키치
▁9)
▁Id
▁로시
▁미타
▁삶에
▁성화
▁순례
▁적분
가지로
그리고
ians
▁Sex
▁공개한
▁무기로
▁시게루
actyl
▁가능성도
▁관할했다
▁문서이다
▁Olymp
비평
스미
▁매립
▁물체
▁양측
▁열혈
▁휩싸
일체유
카메라
▁mac
▁과정의
▁북서부
▁Stad
▁우쓰노미야
▁제작하였다
러와
망원
▁:;
▁낯선
▁샬케
▁윤상
▁지그
▁한족
▁할인
ways
▁발달한
▁아이들이
▁주변에서
일고등학교
링의
▁띄는
▁백두
▁생선
▁안방
▁위법
▁235
▁ARM
▁MLB
▁먹이는
▁서대문구
▁운행되고
▁적용되는
▁제조업체
▁함께하는
▁활동으로
▁Series
En
▁벳
궁을
수석
패의
▁김택
▁되살
▁만수
▁진구
▁포니
류이다
시설을
정부가
▁ind
▁부모는
▁원소의
▁진행한
▁튀르크
▁분포하고
▁후반부터
동국대학교
소프트웨어
▁class
▁취득하였다
리엄
부전
북스
요는
일생
팅을
▁UP
▁디바
▁배에
▁역습
▁정석
▁카리
▁하후
리아는
중국에
캐피탈
1000
▁교회에
▁밀가루
▁분위기
▁아들과
▁하므로
▁정차한다
▁회사에서
▁유래되었다
▁대한축구협회
NS
결한
골의
민사
▁Ur
▁사설
▁음주
▁이례
▁장벽
▁정려
▁후세
스티스
쳤으나
APAN
▁기술로
▁사업이
▁시신은
▁형제가
▁활용한
▁대전에서
▁명확하게
▁전해지고
정보시스템
돈의
료가
먼의
▁리마
▁민감
▁반짝
▁버크
▁보트
▁적발
▁준동
▁같다고
▁밴드가
▁법원은
▁악마의
▁중계국
▁아들이자
▁연루되어
▁China
▁지명되었다
▁량
영사
펠트
학동
▁AF
▁Hi
▁ep
▁규탄
▁박광
▁에페
▁왕세
▁임계
▁최규
▁콘도
▁펌프
스위스
▁비밀을
지역으로
▁집안에서
부활
포함
▁과잉
▁굴절
▁박헌
▁배양
▁비욘
▁욱일
▁정칙
▁캔디
▁화정
▁강릉시
▁분노의
▁상품을
▁시위가
▁주제에
▁평안도
▁하나에
▁Dead
▁대검찰청
▁아침드라마
술이
요를
제인
▁김응
▁남하
▁셔틀
위이다
▁Squ
▁나간다
▁넥스트
▁로마로
▁여성은
▁오미야
▁Bell
▁드미트리
▁스왈로스
▁에두아르
▁이용하고
독의
컵을
포타
gar
▁상소
▁서예
▁황도
ocol
ouch
▁박사는
▁엘리엇
▁평가가
▁표기는
▁학교가
▁지나간다
광년
좌파
차이
▁강인
▁개표
▁열전
▁풀백
▁효자
alis
▁개최한
▁급속히
▁성능이
▁오리건
▁인해서
▁직후에
▁하려고
▁추정되며
▁포레스트
▁멧
조례
men
▁급히
▁불에
▁양력
▁염기
▁장경
▁정예
▁치아
▁캐럴
▁도로로
▁일부의
▁코트디
여래좌상
▁Cour
▁지칭하는
▁right
▁분데스리가의
▁친일반민족행위진상규명위원회가
ez
드루
큐브
▁모신
▁반항
▁병인
▁비하
▁승마
▁평원
▁기원후
▁끌어들
▁부여군
▁불후의
▁소중한
▁예정인
▁정도는
▁대비하여
▁설일체유
▁이해하는
▁Never
▁학생들에게
상품
유물
턴의
ips
▁기흥
▁농경
▁오인
▁한승
▁할로
▁의회에
▁Kill
▁고향으로
▁알프레드
▁에이전트
▁공식사이트
▁플레이오프에
두가
보상
일인
한지
:06
▁속성
▁스터
▁외동
▁워즈
▁전방
▁진을
▁평탄
평의회
▁도로는
▁동서로
▁만화를
▁바스크
▁발생해
▁(1935
▁광범위하게
조카
.3)
89)
▁강구
▁사비
▁설교
▁이계
▁총통
▁타로
▁007
▁미소녀
▁집단의
▁프로페
▁행위가
ished
▁브레이브
▁어디까지
▁지진으로
▁Business
no
▁쑹
경연
교구
미라
승강
염을
주석
총회
OCK
▁맥아
▁무제
▁벤치
▁삼림
▁옵티
▁팬텀
다니며
ober
ucle
▁시마즈
▁연설을
▁1801
▁전적으로
▁체결했다
ifornia
▁Second
레프
부스
트럭
파제
헤르
▁NY
▁교화
▁국수
▁베풀
▁유포
▁티베
▁함은
뉴저지
시켜서
판타지
▁급격한
▁배치된
▁자료로
▁조화를
▁진실을
▁코스트
싱가포르
▁단체이다
▁오사카시
▁제정되었다
리처
층과
~30
▁악당
▁우메
▁재앙
▁최수
▁후방
슬라브
이어야
omet
▁5.1
▁갔다가
▁속하게
▁시이다
▁참가해
▁참여를
▁클레오
▁해설가
▁1854
▁Mult
▁남자친구
▁도입했다
▁이조판서
▁판매되었다
겁게
루크
모드
여대
이아
▁낸시
▁묘역
▁생원
▁성수
▁씨족
▁원효
▁제창
▁최동
차고지
pril
▁나오키
▁사회학
▁상대의
▁철학을
▁필수적인
▁해운대구
▁호소카와
▁도르트문트
▁사이에서는
▁낡
▁팟
극단
렉트
파괴
현주
.).
▁남을
▁비싼
▁양조
▁장병
▁통역
산드로
▁높았다
▁연고지
▁원작의
▁중앙동
▁현실을
마드리드
▁러시아와
▁생각하자
도마뱀붙이
답게
분할
운용
짐에
▁바트
▁아톰
▁탄약
▁황색
결과를
▁양키스
▁여부는
▁형제는
▁동안에는
▁이론에서
Gl
▁뚝
고용
▁걸고
▁금요
▁날을
▁라몬
▁막고
▁무솔
▁미칠
▁피살
pect
▁교회는
▁뒤늦게
▁바람을
▁삼국유
▁플랑크
▁하겠다
▁기준이다
▁대학교는
▁자리하고
TD
들고
암사
이글
▁군위
▁신관
▁약사
▁오웬
▁틈을
▁패킷
▁(5)
▁WOR
▁개막전
▁달린다
▁브라더
▁위험에
▁체코의
▁총애를
▁애니메이션의
나루
오케
28)
bum
▁+7
▁Oh
▁모서
▁부등
▁알마
▁외환
▁중원
▁헌병
달리기
세이다
anda
▁암스트
▁케플러
▁포로가
▁혁명이
▁달라진다
▁싫어하는
▁진출하여
▁2016-17
▁edition
▁애니메이션이다
런은
매니
매일
양동
좌를
▁구강
▁알론
▁오승
▁유민
바니아
▁대표부
▁베테랑
▁불타는
rench
▁처리하는
▁원칙적으로
더릭
메랄
신에
오던
지진
초는
▁군벌
▁수하
▁에픽
▁천명
닌텐도
프리드
2005
ache
▁구조물
▁버스가
▁소프라노
▁자이언트
▁측정하는
▁현대적인
▁Online
쓰기
주며
참찬
최종
▁결제
▁달빛
▁도르
▁묻혀
▁반월
▁요네
▁칸타
▁공포의
▁리카르
▁빠르고
▁옆으로
▁예로는
▁오가와
▁전설을
▁행복을
▁sign
▁참가한다
▁Corpor
만다
불상
▁깨고
▁대여
▁두지
▁민정
▁토이
▁5.3
▁기다리
겠습니다
:1927
▁돌아오는
?!
선도
해상
▁내포
▁리본
▁몰랐
▁서리
▁파도
는다는
자리는
▁날개를
▁방영한
▁이보다
▁정당한
▁제공할
▁혁명가
▁화학적
▁덧붙였다
인도네시아의
uy
▁콧
▁툰
개최
골이
네를
르를
퍼는
▁공시
▁그늘
▁시국
▁양보
▁조제
라스노
볼루션
▁매디슨
▁박사의
▁아사미
▁있듯이
▁토마토
협동조합
▁시작되는
▁좋아하고
▁쿠알라룸푸르
▁리베르타도레스
외로
처벌
해로
-28
UCN
uke
vir
▁경건
▁날의
▁모욕
▁쉽지
▁천호
▁호시
지원청
▁3,9
▁마운틴
▁아이티
▁이치로
▁제안한
▁못하도록
▁아이스크
▁코네티컷
▁gecko
▁줄어들었다
▁Google
가치
남로
대영
란타
만인
할린
med
▁납작
▁원동
▁함평
▁흔적
well
▁두각을
▁신청을
▁보호하고
▁자택에서
▁크레이그
▁파라과이
SH
▁멱
개편
범의
부트
티카
255
RNA
▁LM
▁es
▁로망
▁무주
▁세탁
▁순종
부분이
▁교회가
▁달했다
▁미라클
▁비율을
▁사라져
▁인디아
▁장착한
▁쟈니즈
▁질량을
▁카오루
▁통과한
▁spec
▁교수이다
▁주전으로
▁파견하여
▁내각총리대신
▁쵸
누이
도쿠
모나
월이
처장
▁ne
▁부조
▁연중
▁플리
부아르
상태가
선수로
▁그러면
▁서포터
▁스나이
▁안양시
▁외무부
▁이뤄진
▁전기를
▁포터블
▁피홈런
년까지의
inary
▁1856
▁주인공인
▁최우수연기상
오브
택이
-70
▁빌드
그래피
▁one
▁거뒀다
▁그밖에
▁기대를
▁높이기
▁보이즈
▁설계된
▁외부의
▁원숭이
▁주도는
▁지하에
▁차원의
▁코호몰
▁함대를
▁이용되고
▁인도에서
▁서울고등법원
GT
▁핏
구사
유일
sen
▁나스
▁늙은
▁문양
▁세분
▁엠넷
▁우물
▁전멸
▁집사
▁토성
▁허정
▁배우고
▁의회가
▁책임이
▁행동은
▁콘텐츠를
▁요구하였다
▁캄페오나투
▁샴
▁츄
겨울
례로
척이
촌이
호프
~11
▁미러
▁알맞
▁오게
▁주상
▁주황
크에서
▁26,
▁DNF
▁교류를
▁그나마
▁방향의
▁순양함
▁영국군
되었음을
캄페오나투
▁베이시스트
▁완성되었다
동방
▁구청
▁기전
▁단면
▁맡겨
▁매그
▁반달
▁숙명
▁스모
▁쓰게
▁아칸
▁오마
▁기관이
▁무역을
▁무죄를
▁받아서
▁수요가
▁시체를
스트리트
옥스퍼드
do
백제
창이
총괄
(+0
▁SO
▁광년
▁광해
▁꾸며
▁록맨
▁부추
▁유세
▁장정
▁켄지
▁편이
▁형의
캐스터
한정반
화되고
▁다이나
▁사업의
▁주세페
▁켄터키
▁탑재한
▁폴리스
▁하늘에
▁About
▁Under
노이
루브
망은
박을
▁군도
▁권오
▁레미
▁블랑
▁상이
▁이조
▁적법
▁정순
▁좋고
▁팔꿈
▁한산
로그램
▁1:1
▁Lev
▁WCS
▁과거를
▁레슬러
▁선거가
▁촬영을
▁Walk
▁뿐이었다
▁스스로의
▁원더러스
▁6,000
공과
코시
푸드
▁강우
▁구획
▁라디
▁새턴
▁탈레
▁IMF
▁결성한
▁알폰소
▁영상이
▁이겼다
▁전투로
▁제천시
▁조건은
▁노르망디
▁없었다고
▁청룡영화상
펜실베이니아
구멍
모터
워키
질과
태가
▁(;
▁상정
▁이심
▁자음
세인트
oper
▁생산이
▁승부를
▁없음을
▁연장전
▁이용이
▁있을까
▁경제학과
▁사라지고
▁크로아티아의
▁프로듀서이다
분경
새를
신장
연과
율과
주아
17)
▁3-
▁WH
▁발산
▁장민
▁전위
▁정월
▁처한
▁토드
장로회
▁가리지
▁변한다
▁서식지
▁서양의
▁침공을
World
▁공부했다
▁이탈리아는
▁조선인민군
▁종합격투기
▁국가등록문화재
den
▁경순
▁단속
▁별명
▁언젠
▁영락
▁합천
▁홈구
▁구조에
▁메이드
▁쓰이지
▁야구를
▁현대에
리스타일
▁1855
▁블레이드
▁신시내티
▁국가보훈처
▁받아들이지
충은
Ant
ati
▁김서
▁떠날
▁부리
▁인치
▁치렀
레인지
중앙로
학자인
협회의
▁것이기
▁성격은
▁알베르
▁유럽에
▁한국어판
▁활동했던
▁Language
레벨
위팀
인증
제트
▁6)
▁kn
▁각국
▁구금
▁대문
▁동탁
▁소가
▁칼슘
▁황자
▁227
▁767
▁BMW
▁벗어난
▁아이오
▁이론이
▁클로드
▁스페인은
▁존재했다
▁충청북도의
xx
녹음
여수
자산
타다
bol
▁금상
▁김범
▁로트
▁버섯
▁전단
▁중흥
▁천장
▁태생
너스컵
▁미요시
▁연락을
▁전문의
▁중이며
▁평의회
▁항성의
▁해주는
▁다카마쓰
▁Studio
셔주
치다
항이
▁HE
▁보름
▁침례
▁피드
▁흡혈
가사키
▁머리는
▁방어를
▁소속팀
▁엔리케
▁원소를
▁일부러
▁중공업
▁토크쇼
▁포천시
▁TNmS
▁공화국이
▁만들어낸
▁영유권을
▁주민등록
▁부산광역시도
▁Champion
82)
▁겸직
▁날로
▁노사
▁레베
▁방울
▁실각
▁인데
ante
▁당사자
▁메디치
▁무실점
▁성북구
▁이주한
▁피오렌
:1929
▁Coun
▁군인이다
▁데뷔골을
▁*2020
50)
▁극중
▁안무
▁엇갈
▁친족
:00,
anus
▁911
▁상태는
▁생물학
▁1100
▁IEEE
▁국민들의
▁그만두고
▁사용했던
▁(1995)
NK
공관
변수
보시
비한
스쿨
rix
▁KC
▁골짜
▁병렬
▁살기
▁집적
▁채소
▁허블
▁관료로
▁돌아갈
▁바나나
▁에치고
▁주변을
▁허버트
▁삼성화재
▁승강장의
▁1,200
▁Happy
▁우수연기상
YS
▁켜
녹색
북동
살해
암은
윤정
cel
▁경무
▁과시
▁네버
▁볼록
▁쇼난
▁장희
▁체르
야말로
일요일
fect
▁꼭짓점
▁담당한
▁싱글은
▁애프터
▁왕조가
▁음악쇼
▁조각가
▁칼초의
애니맥스
(1997
itive
▁에너지의
▁주인공의
▁최고위원
▁(1933
▁(1996)
악장
진수
학기
113
▁김부
▁백조
▁불신
▁열릴
▁티에
▁경제는
▁통하는
▁파이프
▁아오야마
▁Girls
▁코퍼레이션
ountain
료의
사냥
성현
▁단정
▁수역
▁카일
▁컬링
▁파업
▁헤센
▁호아
웠으며
▁4,0
▁대체할
▁두꺼운
▁맛있는
▁반란이
▁순위가
▁제이크
▁죽임을
▁프리츠
대학교의
▁Pass
▁유니폼을
▁정규시즌
2-
▁겟
술일
잠수
죄를
케의
oni
▁같아
▁길로
▁김건
▁마비
▁바와
▁발기
▁체력
▁판의
제도의
클래스
uary
▁루이즈
▁실행할
▁온도는
▁학문적
주민센터
▁시어머니
▁연구개발
▁연예대상
▁일치한다
▁전성기를
▁국제적으로
▁무산되었다
▁중국공산당
▁채택되었다
란도
지회
ken
▁선곡
▁잔존
▁절약
▁제르
▁첼로
▁폭포
데스크
▁LCD
▁NAD
▁다마스
▁문학과
▁시나노
▁어디에
▁조사한
▁주의를
▁취하는
▁삼국시대
▁합류하여
▁잼
교황
냐고
입자
▁믿음
▁소마
▁알기
▁펜타
▁MIT
▁비정규
▁신석기
▁취급을
▁코무네
▁다이아몬
▁항공우주
▁저널리스트
▁Encyclopedia
!(
가동
봉은
부호
소닉
움에
▁IF
▁로런
▁음이
▁증오
▁형을
arry
rick
▁419
▁430
▁따르지
▁설계를
▁1857
▁Hong
▁개인정보
▁근본적인
▁성공한다
▁지역에는
민주공화당
▁현재까지도
▁씬
변화
오게
.62
▁림프
▁섞어
▁제철
▁채굴
모니카
▁08.
▁밀도가
▁여부에
(1999
▁증가하는
ruction
▁public
사우디아라비아
1(
TH
봉수
부치
악산
ega
▁비는
▁샤프
▁온난
▁종묘
▁치르
▁핵탄
리그에
esis
▁병력이
▁비중을
▁편의점
▁확률이
▁구성하고
▁Modern
(-
럭스
백이
탑을
팔렌
품은
▁0+
▁마차
▁발자
▁인질
▁파면
▁몇몇의
▁시할구
▁여기고
▁처벌을
▁페라리
▁페미니
ronic
▁Form
▁발탁되어
▁Production
27)
40)
▁경산
▁서클
▁헌납
한나라
▁224
▁3,4
▁mon
▁결합을
▁유성구
▁임시로
▁취임한
었습니다
▁말하자면
▁문화관광
▁재직하던
▁인정받았다
▁2020.07
요가
▁때와
▁로도
▁리코
▁마땅
▁절도
▁직계
스에게
▁Bay
▁내용과
▁무너뜨
▁선정된
▁에스타
▁이탈한
터너티브
(2018
▁결승골을
▁디자인이
▁*2018
▁대한민국에는
▁메트로폴리탄
▁Concert
범이
얼빈
카나
탄이
(?)
eri
▁gu
▁누에
▁알로
▁잡을
▁지팡
슬레이
식물의
이스는
▁구성요
▁나오게
▁튀어나
▁특성상
▁팬들이
▁이들에게
▁투수로서
▁한국프로
▁공헌하였다
ni
분리
서비
품질
112
▁FR
▁깜짝
▁문교
▁송환
▁의자
▁장충
▁클락
▁투신
▁후회
▁DDR
▁가슴에
▁끝나면
▁법조인
▁성동구
▁속했다
David
bject
▁기술이다
▁출간되었다
도상
러블
주말
▁BE
▁가우
▁다쿠
▁미주
▁믿을
▁신미
▁오영
▁코디
▁패해
문제를
아이치
해서는
▁3~4
▁7.0
▁Sat
▁가리켜
▁경계에
▁그림이
▁내일은
▁대단한
▁상원의
▁야구단
▁운영에
▁전제로
inter
▁MPEG
▁안전하게
▁주변에는
ilding
▁2,500
▁Final
▁파괴되었다
▁활동하면서
상속
80)
▁바바
▁새우
▁서현
▁채플
▁his
▁범위는
▁본질적
▁북유럽
▁철도를
▁1789
▁두근두근
▁은행나무
▁종목에서
개념
브나
▁드루
▁배워
▁비를
▁사교
▁수구
▁연천
▁외야
▁창사
▁토양
▁30,
▁기지를
▁우에다
▁결승에서
▁로베르트
▁메모리얼
▁아이템을
▁비스마르크
▁Beautiful
▁고노
▁라벨
▁보류
▁부풀
▁알렌
▁주저
▁첫날
네거리
▁Bet
▁Tro
▁ent
▁reg
▁가정용
▁건물에
▁권유로
▁장애를
▁조언을
▁직업을
▁패하여
▁프리스
:1910
itary
▁1839
▁Chem
▁Vict
▁실시한다
▁참여하지
▁승리하였다
▁쥘
건물
버려
스틱
추얼
24)
48)
ria
▁co
▁궁금
▁늘려
▁등산
▁보정
▁상에
▁설날
▁오면
▁해머
기적인
회사를
....
▁Hom
▁걸그룹
▁랴오닝
▁부산시
▁여고생
▁행사가
▁your
▁2018.06
ONG
▁몹시
▁밥상
▁안개
▁예가
▁진원
▁추론
▁황정
소리를
층에는
▁경우의
▁메이슨
▁신도비
▁자그레
▁재발매
▁투쟁을
▁파견된
▁하기로
▁Jean
▁기관이다
▁레지스터
▁문화유산
▁팔작지붕
▁프로듀스
▁기록했으며
▁재보궐선거
▁미토콘드리아
신호
지던
Sup
▁권혁
▁막대
▁맹활
▁발터
▁잊지
▁정묘
▁책이
▁239
▁sch
▁등지에
▁로큰롤
▁마법을
▁주차장
▁행선지
:1912
▁기자회견
▁Death
▁러시아에서
▁France
▁밍
살을
손자
재와
절이
피터
vin
▁KN
▁낚시
▁들지
▁봉수
▁윤지
▁임창
▁접해
▁죽일
▁질주
▁황산
기관인
뉴욕을
토니오
▁나오미
▁신비한
▁아닌가
▁존재는
▁통일을
▁현장에
▁활동과
▁데이터가
▁출시했다
▁경기장으로
▁프로젝트에
▁볶
년엔
채가
▁생길
▁현무
온라인
일간의
포시의
▁Rom
▁UFC
▁조나단
▁증거는
▁태양과
▁테크놀
ATION
▁TOUR
▁생성되는
▁연고지로
Christ
▁Water
▁매니지먼트
▁Comple
보며
분자
순은
▁감추
▁고온
▁김익
▁드레
▁박형
▁유병
▁중생
▁효종
었다는
▁Wal
▁가사는
▁유용한
▁인사를
▁측면을
▁1849
▁Kids
▁모티브로
▁조약으로
▁베스트셀러
▁끔
버터
음식
▁RM
▁객차
▁고찰
▁깊게
▁보그
▁양은
▁자존
대원군
head
▁KNN
▁마인드
▁손해를
▁인접해
▁조조는
▁찾아라
▁치른다
▁강력하게
▁대규모의
▁시리즈로
▁유명하며
이미
처가
▁방호
▁싸울
▁여대
▁케르
▁해지
▁단위는
▁보였고
▁본부는
▁부사장
▁아내인
▁이루지
▁커플링
▁프렌즈
▁히브리
스크립트
▁깡
기만
내동
먹는
어파
001
NET
aki
ras
▁mi
▁섬이
사형된
▁Nor
▁다시금
▁레드불
▁리조트
▁미군정
▁사태를
▁설립을
▁셰퍼드
▁원소는
▁재료로
▁지구와
▁크기와
일부터는
itect
▁교회에서
▁민주평화
▁추정하고
이탈리아에
공민
오노
천은
초기
▁Il
▁배터
▁스칼
▁아코
구의원
트레이
2012
▁Bud
▁구멍이
▁리포터
▁시험에
▁오르간
▁총학생
▁콜라보
James
▁1815
▁소개하는
▁스테파노
▁역임했고
▁클라리넷
▁프란시스
▁임명되었으며
만세
스탕
협의
▁Ta
▁Tu
▁단사
▁상계
▁앞세
▁유역
▁줄일
▁직을
▁파드
▁234
▁Sea
▁가격을
▁가스가
▁겨울에
▁버나드
▁이론적
▁입자의
▁제노바
▁뉴올리언
▁신데렐라
▁피라미드
cer
▁CT
▁Ho
▁IB
▁강태
▁동면
▁만인
▁불로
▁선착
▁성형
▁소꿉
▁아킬
▁영종
▁장현
▁홍백
으로만
▁게이한
▁남편과
▁명예를
▁부정적
▁중요시
(1995
:1925
▁암스트롱
▁이동하여
투아니아의
난을
동계
에로
탄소
페인
협약
25)
▁급증
▁미합
▁보로
▁아레
▁화원
ivil
▁기념비
▁노무라
▁마사토
▁맥스웰
▁어도비
▁정당의
▁Ital
▁Town
▁독일군의
▁미야기현
▁임명했다
광주광역시
▁시스템에서
미분
선교
장면
저를
-47
▁ll
▁경량
▁법은
▁실격
▁윤원
▁조훈
▁품종
▁힘의
▁신뢰를
▁여자는
▁일행은
▁직무를
:1933
▁아들이며
▁20,000
▁오스트레일리아인
구이
쉬는
처의
(21
aga
▁-6
▁결핵
▁유방
▁지로
▁진흙
담당관
행위에
▁도로의
▁몰도바
▁신들의
▁윤종신
강원도의
▁2500
▁Gard
LO
교과
쿠데
ika
▁2-
▁슈테
▁이두
▁잊혀
cast
▁과학과
▁구멍을
▁국왕이
▁그러고
▁발명품
▁별명은
▁시행된
▁조합상
국가지원
▁명예교수
▁무신론자
▁총영사관
▁협력하여
세르비아의
▁경제적으로
▁대체적으로
▁안장되었다
▁Health
CF
▁윔
빈이
클래
▁KM
▁공병
▁벨로
▁사생
▁삶과
▁열도
▁육지
▁직교
▁최장
스턴트
onic
▁계열사
▁남성이
▁동물원
▁로버츠
▁브루노
▁사회가
▁서산시
▁종교는
▁클럽은
▁태양이
▁사정으로
▁후손들이
▁2002.
국가지원지방도
▁엥
금강
세조
왕릉
이용
천과
36)
ogn
▁김강
▁떼어
▁마타
▁선덕
▁익숙
▁찾지
▁교과서
▁발전과
▁변하지
▁아니오
▁영혼을
▁Head
▁long
▁않으므로
▁시스템으로
▁인터페이스를
KI
기며
모임
시지
영문
▁놓아
▁도끼
▁따돌
▁스펙
됐으나
살이풀
시키려
▁Emp
▁NBC
▁sec
▁권한이
▁김정일
▁단체가
▁미시마
▁페이퍼
▁회장의
슈타인의
프로이센
▁명령으로
▁센터에서
▁플레이오프에서
▁Pictures
눈에
텐셜
231
233
▁교단
▁나바
▁멜론
▁야코
▁정오
공으로
년마다
face
▁바꿨다
▁복음서
▁센터백
▁수용체
▁영토로
▁일자리
▁작곡을
▁후보의
조판서를
▁마음으로
▁요구한다
▁인상적인
▁Money
개성
그와
금고
르모
본인
특보
yan
▁HP
▁VI
▁난바
▁도어
▁백업
▁분사
▁초계
▁편을
네이터
사단의
카드를
▁가시와
▁방송에
▁수성구
▁시작을
▁왕에게
▁줄이고
(1990
-2000
▁당선되어
▁명령했다
▁위치하여
▁중앙은행
▁Royal
고사
단샤
레닌
없다
지법
▁경합
▁농축
▁삼일
▁장신
▁칸은
▁3:0
▁Far
▁남편을
▁분쟁을
▁소재한
▁위기의
▁자리는
▁지나감
▁1851
▁Feel
▁박물관에
▁자이언츠의
레네
복은
손이
텔라
ICE
ror
una
▁곁에
▁급여
▁법이
▁인성
▁터너
▁4.1
▁Gar
▁등급을
▁영천시
▁전국에
▁지나친
▁페레스
▁한번도
▁후쿠다
▁거치면서
▁대다수의
▁등에서는
▁생각하여
▁이주하여
▁제공했다
▁Roman
▁시상식에서
크로아티아의
▁2005-06
니트
담의
런의
모자
무트
설치
▁당연
▁리쿠
▁사옥
▁소켓
▁순식
▁키요
▁폐국
티나이
▁대수적
▁말에서
▁살면서
▁생명체
▁스튜어
▁이성질
▁크기로
▁히로키
:1919
▁공항으로
▁Media
▁보컬리스트
▁플로리다주
경성
금과
▁Mk
▁격자
▁국화
▁대국
▁등지
▁비에
▁완수
다코타
학교육
self
▁에르난
▁편으로
▁제작하는
▁지나가는
▁이야기이다
▁전라북도의
▁Record
▁뜯
로만
블러
시모
절도
▁금액
▁복종
▁불균
▁집이
▁펼친
▁하스
시키면
▁229
▁Nob
▁건립된
▁기원은
▁누군가
▁다항식
▁모두의
▁선수상
▁초부터
▁합의를
▁회장은
월부터는
▁제거하고
▁조사에서
▁출마하여
▁페널티킥
▁루마니아의
▁배치되었다
ulation
▁행정복지센터
203
▁Jo
▁세단
▁송광
▁연행
▁이등
▁자랐
▁해시
미시간
2011
▁방대한
▁비해서
▁인민군
▁정이다
산중학교
▁상대방의
▁시민들이
▁취득했다
▁Union
ashington
ND
니혼
대응
데의
45)
▁비준
▁색은
▁악성
▁엔트
▁패미
보스턴
브랜드
토리아
-800
▁Ill
▁많지만
▁아쿠아
▁안데르
▁이지스
▁주식을
:1926
▁개발하여
각본
야드
초와
▁MT
▁생리
▁케리
쿠레슈
▁XML
▁가정의
▁나무로
▁다이쇼
▁대표작
▁두가지
▁사업은
▁아니한
▁언급이
▁운명의
▁정해져
▁트랜싯
▁1820
▁근거하여
▁별명으로
▁삼국사기
▁올랭피크
▁우승으로
▁자리매김
▁표현한다
▁Foundation
SO
WD
통에
▁고의
▁나기
▁변이
▁억울
▁영수
▁오성
▁입어
▁짧게
▁체리
▁취할
토론토
2006
▁4,9
▁8.5
▁결승에
▁동인도
▁범위가
▁연관이
▁이것에
▁혜택을
(2019
epend
▁1300
▁결혼식을
▁차량으로
Ab
결성
돼지
푸른
▁공리
▁기마
▁리터
▁부두
▁하디
당했고
부분은
▁구미시
▁보이기
▁연달아
▁일본국
▁축구부
세르비아
▁주장으로
▁반대하였다
/1
▁벙
든가
부족
영역
월리
적한
쳐서
혼의
▁강타
▁개구
▁과다
▁노량
▁다룰
▁적힌
▁쪽의
▁팔을
▁허니
급으로
▁TOK
▁국내에
▁박사가
▁성우극
▁엘리스
▁편성이
▁확장을
▁일반적이다
bc
궁에
까요
직이
▁서킷
▁아드
▁저질
▁코넬
▁Bra
▁Fac
▁OBS
▁갈라져
▁나주시
▁변광성
▁부인의
▁시바타
▁쌍방울
▁조건에
▁합천군
▁대한민국이
▁스칸디나비아
귀비
대항
숙이
승이
후는
yes
▁굴복
▁덕에
▁도도
▁믿지
▁북면
▁지탱
▁진천
▁파직
▁호족
▁휘두
대회에
▁거두어
▁건강을
▁고종의
▁성에서
▁아르테
▁종류로
▁질문을
▁카운터
▁Asia
▁가나가와
▁대량으로
▁레버쿠젠
▁멤버이다
RO
분투
.99
▁땅의
▁로보
▁무과
▁주영
메이드
병사한
챔피언
▁386
▁감독에
▁거쳐서
▁다카시
▁리포트
▁부총리
▁오슬로
▁한사람
▁Roll
▁나가노현
▁신성로마
피드
▁PP
▁권역
▁도핑
▁불타
▁아테
▁왕정
▁위민
세에서
칼텍스
▁232
▁강렬한
▁도요타
▁떠나게
▁뜻에서
▁리스본
▁마을로
▁역할이
▁우간다
▁처리를
▁Flag
▁구조이다
▁보고서를
▁신분으로
마케도니아
▁world
▁조선왕조실록
▁최고인민회의
eptember
▁떴
무덤
81)
oke
▁단발
▁대인
▁동적
▁무쓰
▁사투
▁수아
▁타니
▁황폐
호에서
▁JYP
▁Sym
▁가오슝
▁레슬리
▁산업은
▁이적한
▁Arts
▁Coll
▁개발하는
▁버펄로스
카운트다운
Me
났던
둘러
마블
원숭
종별
죄의
토에
트론
ten
▁격렬
▁견디
▁계주
▁과제
▁리어
▁머피
▁모션
▁밤을
▁아픔
▁양구
▁죄수
▁주며
▁책록
▁프롬
공사가
독일어
스크린
유도탄
이스터
Love
▁10)
▁NTV
▁얻었고
▁요소로
▁주제는
▁Only
▁짐바브웨
▁포틀랜드
vs
랑의
현정
cil
▁띠는
▁오치
▁은폐
▁절감
▁제가
rict
▁5-0
▁수차례
▁1814
▁설치류의
▁어려서부터
▁유지하였다
제주특별자치
▁Berlin
남에
발레
호흡
)()
Int
▁WW
▁둘의
▁먼지
▁줄을
▁지성
▁해치
▁휘발
일부로
▁2,7
▁대결을
▁록히드
▁앨범이
▁케이티
▁탄핵을
▁플라자
▁인플레이션
▁프리스타일
▁자유민주연합
▁랍
▁퀄
공룡
령과
연승
▁눌러
▁대도
▁만장
▁면도
▁벽에
▁요트
▁인체
▁지음
▁퍼플
리카와
프레이
▁Est
▁공적을
▁남자와
▁동작을
▁보기도
▁1844
▁Four
▁거두었고
▁살펴보면
▁개최하였다
▁아나키스트
▁추가적으로
▁시작되었으며
더지
받기
주면
지은
현장
▁2(
▁곡인
▁처칠
▁커트
▁코덱
ites
▁고고학
▁관계자
▁변하는
▁세이지
▁해군이
▁대중에게
▁스타워즈
▁운행구간
▁주인공은
▁Force
▁캔자스시티
Ind
▁문희
▁샬럿
▁여유
▁유다
▁현수
데스의
세포의
코치로
하지도
▁기반이
▁나에게
▁법률을
▁자민당
▁지구가
▁카운트
atory
isode
night
▁1852
▁CCTV
▁뉴멕시코
▁선언하고
▁않았는데
▁연합군은
▁이슬람교
▁입학했다
통신대학교
▁만들었으며
ictionary
신동
율의
창동
해결
CBS
IDS
▁썬더
때까지
▁Dog
▁걸렸다
▁끝에서
▁도에이
▁마피아
▁바뀌는
▁야마노
▁포도주
▁환자가
▁회원이
▁Bird
▁관장하는
▁국가들은
▁주어졌다
▁친구들과
지방경찰청
▁한국과학기술
딘의
보증
안정
티와
폭스
bor
▁둘레
▁표출
vert
▁237
▁42,
▁설명을
▁신학적
▁왕조를
▁장면은
▁제퍼슨
▁호흡을
왕립학회
board
▁경향신문
▁등장하고
▁헬리콥터
KS
군도
내각
봉리
세나
소라
.4)
▁고집
▁김예
▁노원
▁박규
▁애정
▁적재
▁타일
▁해트
스타상
▁국무총
▁머물러
▁빠지게
▁앵글로
▁여러번
▁공유하는
▁언어이다
▁판타스틱
▁편입되어
무진
언이
화상
▁구급
▁근위
▁돌이
▁미완
▁벨리
▁부안
▁사일
▁전태
▁모스크
▁상소를
▁종업원
▁고등교육
▁매킨토시
▁보헤미아
▁이어주는
▁인수하여
▁장편소설
▁곶
공예
딩스
선인
▁번은
▁아루
▁완행
▁한옥
디즈니
삼국지
스러워
▁공항은
▁성질이
▁Army
▁Republic
YO
림에
만도
묘한
▁단군
▁마더
▁번씩
▁볼륨
▁스택
▁자비
▁푸드
기술을
슈타트
스럽고
전부터
▁249
▁가볍게
▁같지만
▁마그네
▁상대팀
▁시종착
▁외교부
▁이같은
▁자국의
▁정교한
▁지적이
▁행해진
▁유사하게
▁Jones
▁리우데자네이루
방사
▁귀가
▁선에
▁수식
▁의용
▁일각
▁켄트
마케팅
▁GPS
▁기초한
▁동부에
▁무안군
▁발행된
▁수시로
▁아라이
▁주장도
▁테이프
▁Side
▁공직선거
▁이주했다
▁표시한다
▁Education
Er
▁떤
▁뺏
나인
남양
테아
▁도약
▁매월
▁세실
▁여럿
우리의
해준다
unch
▁Kar
▁Mob
▁각지에
▁남서부
▁목록을
▁반지의
▁산맥의
▁폭탄을
▁부장판사
▁분류하고
▁위원으로
▁의원으로
▁생산되었다
▁유러피언컵
▁Express
met
▁갖춰
▁개로
▁고야
▁대주
▁배의
▁비리
▁인자
▁적시
▁츠키
▁폐차
▁호러
▁홍대
라이즈
에게만
▁교육자
▁기술에
▁방송은
▁조연출
▁해에는
▁내려졌다
▁분류한다
▁유라시아
▁평가받고
▁알렉산드라
승인
▁거세
▁루즈
▁사노
▁스콜
▁슬기
▁촉발
▁태도
사회적
▁out
▁가졌고
▁논의가
▁단체는
▁사망할
▁아리스
▁전차를
▁핵융합
하자마자
▁도입하여
▁발생하고
▁어머니인
▁지원하지
▁하늘에서
-03-01
농림
름이
바디
하야
rik
▁BR
▁Du
▁대에
▁디어
▁백혈
▁앞뒤
▁월남
▁정다
▁제동
▁테란
▁함자
기념일
번호를
Paul
▁265
▁부인이
▁신호장
▁폭넓은
▁민주당의
▁제공된다
▁Break
▁중국에서는
▁마이크로프로세
게인
락은
브가
평론
1,0
▁거란
▁교목
▁떠돌
▁런칭
▁매진
▁벵골
▁자처
▁장씨
▁촛불
▁큐어
그래픽
연패를
우루과
▁253
▁로널드
▁메신저
▁영토가
▁퀘스트
▁홉킨스
메니스탄
모모야마
▁순식간에
▁이상적인
▁샷
들만
바겐
발은
생성
소나
영재
읍을
정로
Car
iod
ito
▁부회
▁오도
▁피니
▁간행된
▁규정한
▁마리나
▁마사카
▁문자열
▁밝혀져
▁연대를
▁왕세자
▁장로교
▁종류에
▁타케시
▁페테르
▁1853
▁드라마는
▁비틀즈의
▁시인이다
▁종목이다
▁진행되어
▁2008,
▁영국에서는
▁합류하였다
간격
애의
월말
전인
한글
ili
▁Ir
▁경시
▁구세
▁일삼
▁철원
▁하산
▁강화군
▁대왕의
▁땅에서
▁바로크
▁붉은색
▁선조의
▁장악한
▁제공한
오하이오
▁라틴어로
▁연관되어
▁행정자치
ination
▁상냥
▁에뮬
▁하로
book
▁걸린다
▁계승한
▁교토부
▁까마귀
▁보수당
▁복귀를
▁상반기
▁시대는
▁얼굴은
▁용감한
▁충성을
▁플루토
▁협의회
▁분위기가
▁소수민족
▁오프라인
▁제공하기
▁체결하였다
OX
라렌
통화
60)
BSD
wan
▁Gh
▁땅이
▁명왕
▁배반
▁백지
▁안영
▁정계
▁조민
▁천지
▁카잔
▁팔린
▁합산
▁구조적
▁독일을
▁사고의
▁지진의
▁초신성
▁공공기관
교육청지정
▁개인적으로
▁궐
가슴
바를
신탁
-31
POP
▁건달
▁고을
▁기노
▁살며
▁시안
▁아랑
▁역학
▁탄두
▁특명
니다드
당하자
▁고성능
▁노트북
▁영화와
▁점성술
프랑스에
:1896
▁Char
▁비교하면
▁사랑하고
▁전시되어
▁회원으로
라운드에서
우편취급국
▁Wonder
oj
문예
해줄
▁겪는
▁다비
▁마늘
▁묘소
▁복직
▁부파
▁암모
▁판명
▁필연
▁호모
iant
sign
▁2,4
▁Ter
▁깨닫고
▁브리스
▁서해안
▁수사관
▁제품은
▁중국이
▁편찬한
▁1792
▁1847
▁과테말라
▁조지아의
▁자체적으로
▁Family
▁군자
▁베드
▁병과
▁유체
▁흐르
▁막시밀
▁북한은
▁에스테
▁모두에게
▁하비에르
▁부에노스아이레스
먼이
지소
▁??
▁되게
▁방공
▁심슨
일자로
seud
▁결합한
▁않거나
▁학생을
▁히토미
보병연대
▁참가하지
▁거절하였다
▁증명하였다
거릿
길의
108
▁베가
▁삼은
▁소아
▁외과
예비치
▁남자를
▁달려라
▁아키코
▁연산군
▁완주군
▁패하고
▁항공은
▁효력을
▁히로미
▁1793
▁1846
▁2023
▁Mass
▁운영한다
▁고등학교에
▁Spring
가키
사원
서진
예방
천교
▁말려
▁베넷
▁신명
▁천상
▁현을
▁325
▁개선을
▁미생물
▁승정원
▁알프스
▁장관은
▁해석을
▁인정했다
▁장악하고
▁증가한다
▁플레이를
록의
천왕
히오
▁RS
▁심화
▁우산
▁천년
리아노
조참의
▁군대와
▁다음달
▁다이라
▁불분명
▁성경의
▁아이작
▁안된다
▁컴파일
들에게도
시내버스
전라북도
▁ICBM
▁드러냈다
▁엑스트라
▁여름에는
▁여성주의
▁유로비전
▁Blood
▁알렉산데르
▁완공되었다
▁제시하였다
▁테러리스트
▁프랑스군은
▁뤄
장소
크루
/09
mes
▁송준
▁앨버
▁야수
▁작화
▁조원
▁타석
▁화상
투데이
read
▁27,
▁고쳤다
▁뇌물을
▁스타드
▁아내는
▁오메가
▁카리스
▁보여주며
▁초반에는
▁클레멘스
hi
룡이
바와
북로
전체
쥐는
oli
▁키에
▁한동
▁행방
IGHT
▁sur
▁데이즈
▁변경을
▁세계적
▁시그마
▁에히메
:1900
▁내놓았다
▁컴퓨터에
▁확실하지
International
sw
기소
모닉
이노
진법
▁거머
▁거야
▁벽을
▁수서
▁재적
▁지체
▁커서
▁코토
하이머
▁꼬리를
▁독립한
▁친위대
▁행사에
ische
▁1837
▁대중적인
istics
▁네트워크의
▁발탁되었다
▁일렉트로닉
▁지속되었다
uj
벤츠
비상
/01
ser
▁당내
▁딸의
▁양념
▁정호
▁중년
▁최인
▁플뢰
산업의
mark
▁245
▁북조선
▁비추어
▁성장한
▁연구로
▁인식을
학자이자
▁야마나시
▁every
▁수행하였다
UL
▁봅
▁쉘
내용
몬테
손은
암이
혈압
PER
▁8)
▁단수
▁만을
▁박창
▁병에
▁오닐
▁채색
▁트롤
▁피쳐
▁학년
▁형이
▁홍석
▁후카
자라는
회사인
Amer
▁275
▁대승을
▁문하시
▁법안을
▁연대는
▁가졌으며
▁*2009
▁슈퍼주니어
▁작곡가이다
▁탄생하였다
6.
너와
원칙
▁갇혀
▁내재
▁능가
▁로젠
▁별정
▁한복
▁홍씨
대군의
중이던
▁Tok
▁남해군
▁모자이
▁미사키
▁스펜서
▁신분을
▁와이어
▁파라오
▁환경부
▁계속하여
▁아이오와
▁Women
▁기록하였고
▁Development
값이
사위
상인
인종
일치
평일
▁것만
▁경마
▁발톱
▁실체
▁한라
▁누구도
▁단점이
▁대략적
▁레이첼
▁비율로
▁시스터
▁언급된
▁영역은
▁원피스
▁천황은
하기까지
▁관계자는
▁대중음악
▁정당이다
▁폐지되고
▁2000.
Charles
가을
거야
불명
식민
카제
.95
10,
▁ww
▁달인
▁먹이
▁민씨
▁사본
▁소나
▁애너
▁인위
▁조석
그러나
동물의
▁312
▁Cam
▁pre
▁가끔씩
▁귀국한
▁벌이고
▁보냈고
▁비틀즈
▁세례를
▁여론이
▁위상을
▁장례식
후쿠시마
▁승리하여
▁아키모토
▁일부이다
시킴으로써
▁Psych
▁증가하였다
▁뚱
▁촐
충의
태는
▁NR
▁낮고
▁다키
▁디펜
▁매도
▁몰타
▁빨라
▁쓰네
▁임재
▁정촌
▁초의
정에서
▁지구로
▁폼페이
▁회사로
브래스카
▁Full
▁개최되는
▁올라가는
▁있었기에
▁제작하고
카자흐스탄
▁알렉산드로
▁중앙아메리카
->
덕동
살라
합동
▁OL
▁OM
▁귀향
▁악몽
▁접두
▁집은
▁토바
보았다
▁공기업
▁동구의
▁선제후
종합학교
▁동대문구
▁부진으로
▁시각효과
▁시도했다
▁엠카운트다운
바루
▁기압
▁에비
▁용맹
▁이신
▁진안
▁츠카
▁테일
됐지만
ania
▁근거한
▁끝나지
▁녹음을
▁단어의
▁범죄를
▁사야카
▁아열대
▁오리올
▁이곳의
▁있어도
▁작가는
▁조각을
▁취득한
▁히메지
▁유래한다
▁일본군은
▁화이트삭
MO
레와
패션
팽이
포면
헨리
▁거처
▁고개
▁공상
▁뇌물
▁목에
▁손오
▁천국
▁풀이
▁화수
▁경우와
▁대학은
▁언어와
▁조약의
▁프랑코
▁하반기
▁Fort
▁Hero
▁나가시마
▁하였다고
▁해트트릭
▁10000
▁return
▁탔
리한
준과
진화
하치
IME
kHz
▁JP
▁분교
▁비긴
▁서광
▁안겨
▁자민
▁한수
▁핵무
그래프
▁논란의
▁다리는
▁로페스
▁부르봉
▁설계한
▁트리오
▁평했다
노르웨이
▁베르나르
▁제거하는
홋카이도의
스코틀랜드계
목과
/08
▁과천
▁미용
▁선화
▁손수
▁지을
▁진리
▁호노
교수로
▁공세를
▁능력과
▁분쟁이
▁사보이
▁사신을
▁중앙로
▁행성은
ledge
▁경우이다
▁마사유키
▁반대하여
▁실시하였다
▁자발적으로
▁캐릭터이다
▁Philos
GL
▁킷
나주
샤를
인력
저가
혔고
olo
▁내구
▁슈가
▁풋살
▁.35
▁개인용
▁길버트
▁산으로
▁스피어
▁재계약
▁학생의
스테이지
스튜디오
organ
▁결정하고
▁크레이지
치모모야마
▁공격하였다
▁금지되었다
▁Profess
▁Corporation
결의
안양
오밍
위키
.80
ema
▁EF
▁계양
▁고은
▁싸운
만명이
퍼시픽
ning
▁면적의
▁삽입곡
▁아이누
▁의식이
▁전일본
▁한정판
▁거절했다
▁구성한다
▁등장하여
▁시민들의
▁양식으로
▁Louis
BB
값은
고베
벤스
업과
제리
팔로
217
▁박명
▁북중
▁슬럼
▁슬롯
▁잔여
기념관
라스의
▁390
▁너무나
▁분노를
▁브리즈
▁색소폰
▁선거는
▁여름의
▁우리를
▁자체에
▁재정적
▁접어들
▁조훈현
▁러시아가
▁크리에이티브
▁Revolution
▁켐
형법
▁7)
▁Sy
▁bi
▁무찌
▁사외
▁시체
▁우먼
▁점진
▁중용
▁최명
회의에
▁교황은
▁동물을
▁서울역
▁힘썼다
▁내려오는
▁방탄소년
▁Games
▁information
물인
새가
질서
▁기욤
▁블러
▁석불
▁
이
1
.
다
의
0
2
에
,
는
로
하
(
년
)
9
가
을
지
한
고
리
사
스
서
대
기
시
일
분
e
3
은
도
:
인
아
류
5
수
4
으
자
a
8
를
국
라
6
7
i
월
어
o
전
나
부
n
정
제
-
r
주
그
t
있
구
선
장
과
동
해
상
되
원
성
마
학
s
트
드
교
화
미
었
여
우
l
들
공
위
역
오
경
영
소
와
보
조
신
회
비
적
게
유
세
중
문
했
만
S
연
민
치
르
명
개
m
프
계
였
진
관
타
레
u
터
며
모
니
카
c
C
h
면
산
후
등
무
d
A
방
작
군
용
당
재
생
출
된
발
호
단
B
남
거
바
노
러
크
g
것
차
포
음
안
데
T
간
현
통
행
본
*
M
p
"
식
운
코
반
야
파
임
체
토
요
내
~
키
종
물
양
F
실
루
승
배
설
디
강
업
I
y
P
속
버
표
할
D
형
축
E
결
메
히
두
함
독
초
천
때
피
김
태
래
법
브
최
건
K
티
f
N
합
려
점
예
R
베
던
L
각
k
O
번
네
입
매
청
직
즈
록
불
b
람
력
더
G
립
권
왕
감
/
목
까
송
금
철
v
판
페
투
북
린
외
편
광
테
특
평
V
달
항
울
H
알
심
격
약
석
않
말
준
박
저
란
언
집
또
받
랑
살
처
른
추
급
병
았
없
복
쿠
열
올
별
참
변
같
활
곡
술
령
품
육
%
름
황
총
애
W
따
창
난
U
림
향
#
악
질
근
팀
순
환
망
족
w
케
플
글
존
백
능
온
론
및
츠
료
J
x
클
션
워
랜
패
머
삼
쪽
쓰
증
필
극
탈
절
범
새
너
많
량
규
돌
퍼
날
친
든
충
색
블
손
봉
탄
|
께
희
완
쟁
씨
련
길
녀
책
확
째
엔
막
져
협
골
슈
웨
채
담
센
졌
취
런
뉴
커
견
밀
픽
누
홍
즌
슬
텔
윤
습
혼
널
앙
암
칭
찰
접
섬
캐
X
못
험
득
싱
허
귀
j
럽
뒤
효
훈
볼
검
벌
!
갈
첫
측
덕
획
락
폐
엘
졸
죽
겨
Y
z
+
침
틀
헤
먼
농
헌
램
응
폭
컵
징
곳
착
슨
택
움
걸
풍
릭
폴
럼
턴
높
쳐
례
링
났
쇼
빈
좌
잡
논
층
벨
찬
엄
혁
흥
홈
객
콘
델
율
느
?
큰
옥
익
퇴
숙
빌
얼
렌
줄
념
렸
칸
앨
끝
앞
긴
맨
늘
균
=
억
궁
촌
샤
맞
콜
압
칼
잉
푸
왔
될
팔
묘
염
맥
룹
즉
맹
잘
덴
좋
몬
컬
맡
휘
닌
괴
킨
률
혜
써
몰
&
갖
쿄
뮤
릴
춘
컴
액
빠
욕
템
앤
밝
벤
갑
십
휴
넘
흐
냈
뜻
찾
뷔
렉
핀
죄
탑
틴
롯
됐
얻
읍
잠
몇
셀
님
므
눈
굴
폰
팅
낸
둘
혹
딸
갔
넷
잔
힘
윈
곤
붙
떠
솔
풀
털
척
몽
Z
홀
녹
핵
싸
혀
칠
탁
벽
칙
톤
끼
밴
컨
먹
텐
챔
큐
욱
략
돈
놓
듀
Q
몸
헨
닝
탐
뿐
롤
겸
랙
켰
펜
꽃
끌
탕
둥
웹
떨
밤
킹
퓨
켜
셔
톨
콩
혈
튜
젤
꾸
룡
;
륙
쥐
웅
뛰
낙
팬
냐
딩
밖
섭
쉬
쳤
멘
멸
윌
렇
덜
헬
둔
촬
빛
킬
겐
놀
낮
짜
옹
q
쌍
왜
릉
겼
렬
닉
렀
켓
겠
촉
융
웠
뇌
혔
멤
젠
떤
흑
튼
랐
웃
랭
틱
됨
힌
붕
깨
핑
빅
답
밍
옛
빙
멜
롱
흔
땅
짓
옮
롭
젝
쇄
켄
닥
셜
뢰
듬
캠
룬
뷰
슷
넣
즘
넓
닛
텍
럭
숭
펠
꿈
값
숨
납
즐
멀
셰
흡
랫
콤
꼬
캘
덤
잇
릿
곧
멕
궤
씩
렵
엽
롬
틸
짐
힐
듯
뜨
잃
엑
럴
빨
섯
믹
쉽
왼
븐
삭
싶
깊
딘
봄
찍
폼
쓴
켈
맺
끄
픈
돼
랄
댄
믿
닐
잭
큼
낭
곽
곱
얀
첨
녕
잎
쿨
뱅
헝
쇠
첩
_
퀴
샌
랍
톰
엠
맛
뀌
냥
넬
밥
삶
젊
펼
짧
톱
읽
룩
냉
컷
셋
혐
팝
캔
둑
옆
웰
벡
짝
륜
듣
흘
옷
숲
샘
첼
벗
빼
엇
묵
밑
팩
앵
튀
괄
홋
겪
좀
썼
캄
뒷
렐
뉘
띠
흰
낳
붉
갤
슴
쌓
뱀
춤
쾌
숫
찌
뤼
햄
윙
봇
앗
룸
탠
옌
벼
탱
낼
뿌
팽
꾼
떻
렴
렛
랩
셈
빗
넥
퀸
횡
딜
퀘
녁
끊
묻
풋
섰
킴
씬
뤄
덩
덮
닫
꼭
펙
펀
뽑
삽
죠
>
딕
렘
쓸
늬
겔
꺼
돔
쫓
펄
멍
넌
깔
늄
툰
맷
뮌
흉
핸
빵
깃
핫
쿼
펑
룰
끈
톡
늦
엉
첸
뚜
$
끔
굿
뼈
곰
셉
넨
캡
윗
}
꼽
팡
쥬
앉
륨
슐
궐
섹
륭
훨
콧
춰
힙
훗
{
콕
닷
랴
꼴
덧
셸
똑
콰
럿
킷
싼
뇨
갱
밭
짱
쁜
툴
왈
삿
듭
긍
겹
훌
옵
봐
쉐
쌀
좁
낌
펴
딱
꺾
묶
눌
엣
킥
뮬
쏘
뿔
돕
밸
벳
\
닭
룽
웬
싫
섞
콥
쑤
샬
놈
겁
갓
녔
띄
훼
얄
늑
챌
홉
멈
샹
깥
둠
푼
퉁
떼
깝
눅
틈
흙
굳
멋
줘
뉜
꿀
릇
빚
굽
퐁
텀
탓
@
칩
쯔
탤
휠
횟
딴
겉
닮
잊
쿤
턱
헐
껍
줌
옴
걷
톈
썬
`
앱
쟈
굉
쩌
댐
굵
컫
냄
맘
펫
왓
렁
떡
듈
츄
맵
훔
붓
릎
툼
셨
덱
팜
흠
낱
솜
펌
뚝
뚫
걱
쁘
닿
뻗
쯤
곁
캉
렷
줬
옐
낀
픔
벅
밋
띤
찮
륵
댓
젖
얘
뭉
삐
빔
껴
봤
솟
붐
햇
긋
돋
덟
슌
짙
팟
꿔
핍
캣
밟
슘
팰
썸
낫
촨
싯
랏
'
멧
쏟
뭐
벵
뚱
뀐
휩
캅
곶
맑
깐
윅
흩
꽤
귄
숀
쵸
꾀
얇
욘
샐
겟
샨
씀
끓
텝
팍
돗
앓
탬
웍
헥
괜
슛
컸
뱃
괘
눔
앰
핏
찔
엿
갇
낚
넛
딧
뻔
궈
찐
샵
댈
뻐
잦
맏
섀
탭
귤
눠
깎
딪
뽀
뭇
훙
끗
펭
쿡
깜
쾰
뫼
뜬
샷
싹
꽝
갯
쉴
쭉
얹
헛
뭄
걀
뒀
슭
챙
푹
엥
벚
딥
닦
싣
댁
몫
쿵
꼈
롄
큘
믈
땄
녜
챈
씌
렝
셴
얽
엮
쁨
숍
촐
옳
늙
뜰
챠
^
쩐
뮈
볶
볍
쾨
잼
똥
캇
췌
냅
썰
쩔
앳
슝
팻
잣
엡
젯
뇰
깁
랬
펩
꿨
룻
낯
짚
튬
뜸
낄
댕
퀄
킵
젓
쉘
넉
뾰
멩
썩
맬
뮐
뎀
뇽
늪
훤
땀
샴
샀
꽂
좡
렙
찢
벙
씽
퀼
쥔
퓌
갚
뤘
쉰
촛
쑨
핼
릅
쪼
튠
껏
몹
얕
즙
뿜
깡
밧
랠
쥰
췄
듐
켐
짖
괌
쿰
욤
쑹
뵈
깅
팥
뜯
꼼
씻
꽁
빽
밈
뭔
엎
잖
쥘
퀀
멱
퓰
맴
굶
됩
먀
캬
둬
윔
봅
뽕
껑
꿰
딤
텅
젬
뱌
츰
왁
츨
쏜
탔
웜
쑥
헴
샛
칵
칫
땐
둡
낡
쌈
땡
윽
찜
꿉
캥
떴
갸
촘
얌
콴
쏠
짠
찻
훅
뎅
ㄱ
쉼
ㅇ
솥
쭈
ㅡ
텟
뺏
엌
퀵
웡
넴
팸
줍
욜
쩍
웁
뛴
퍽
팁
땃
놉
힉
팎
갠
띈
돛
쐐
핌
툭
쎄
눕
꼰
덥
썹
ㄴ
몄
뮴
넵
똘
뺨
깍
늠
젼
뺀
댑
숄
룀
옙
쨌
ㄹ
솝
껌
볕
쨩
텡
묀
폈
얏
첵
냇
ㄷ
쏴
닙
눗
뎬
텃
꺽
ㅁ
딛
맙
펨
빡
옅
숏
ㅣ
꽉
짤
읊
ㅅ
녘
쭝
뱉
뤽
꿇
넝
씹
윳
뎃
쟝
깬
귈
힝
헵
탯
욧
<
챕
횃
뛸
웸
덫
쳇
뀔
뎌
쌔
쩡
뻘
갬
밌
휼
춧
꿋
텁
낵
랗
뢴
엷
잰
켤
헹
긁
ㅂ
짬
숯
찹
쭤
뜩
쇤
썽
뷸
햐
깼
볜
컹
젱
튕
놔
셍
헷
뽐
튿
탸
ㅋ
폄
찼
굼
꿩
ㅎ
듄
ㅈ
됭
뵤
넋
잿
륀
탉
홑
듦
븀
쏭
륄
푀
솅
췬
랸
힛
켠
꿍
놨
놋
댜
쿱
춥
귓
뭘
긱
훠
뀜
볏
줏
좇
뺑
넙
얗
땜
쁠
쫄
겜
빴
핥
뚤
챗
튤
뎁
흄
묄
냑
숱
쏙
옻
괭
솽
댔
꾹
짊
츤
겅
쌌
뎐
껀
톳
쥴
갭
궂
벰
숴
숑
윕
젭
콸
폿
쉔
깟
뺄
ㅊ
뷜
왠
챤
툇
ㅏ
뻤
얍
ㅍ
펍
뻣
헉
몐
씰
뿡
팹
셤
햅
껫
휜
눙
셧
껄
뎠
숟
닳
냔
앎
띵
빤
쌤
섐
ㅌ
뻑
돤
솁
틋
샥
쳉
늉
앴
쎈
쫑
뵐
섣
닻
쳄
쩨
끽
눴
꽈
맣
쟌
퓸
뗀
괵
씁
꼿
넜
녓
떳
믐
왑
뉠
냘
웩
푈
쳅
죤
냠
텨
깽
윷
ㅗ
갉
뗏
퉈
퍄
왐
팠
ㅜ
뻥
쿈
톄
뷴
챘
쾡
휨
쬐
헙
쪄
쭐
묽
튄
튈
찡
칡
갛
뵙
졀
뭍
밉
셩
ㅓ
쾅
쉿
땔
쌩
믄
웽
켁
잽
샅
텼
횔
웻
꽌
뢸
윰
츈
궬
넹
짰
빕
뻬
넸
깻
묾
켑
ㅔ
뜀
빳
옘
횬
뒬
뗄
ㅐ
욥
ㅆ
녠
쑈
휫
좨
홰
ㄲ
ㅠ
뼛
솀
햘
잴
탰
퀜
둣
섕
뱁
빻
찧
퓔
륌
쿳
틍
멎
뿅
긔
깰
ㅕ
뿍
쐈
짭
땋
팃
쌉
젋
틔
ㅑ
뺐
잤
켕
홧
됴
붑
읜
쯩
듸
쌘
꽹
겡
쇳
뒹
삵
쭌
볐
컥
섶
숩
ㅛ
빰
롼
혓
훑
ㅃ
ㄸ
뚬
읏
멥
뵘
뷘
셌
욀
ㅉ
똔
츳
맸
쉥
낏
먄
쫒
겊
큅
떰
줴
삯
툽
뉨
룔
뽁
볘
닢
똠
엾
졔
ㅢ
묜
큔
ㅟ
ㅒ
ㅖ
녤
푄
낟
룅
뼘
ㅚ
귐
뚠
폽
짼
툠
뮨
쐬
굄
껐
땠
쮸
찟
똣
몯
씸
쫀
캑
킁
솨
쉑
쏨
쳔
랖
밂
툐
뇬
뽈
텄
햏
갗
띌
쓱
짹
괸
떫
ㅘ
섄
얉
쨍
쩜
귬
떵
벧
뉼
딨
슉
쌕
꽥
뗐
묠
펏
푯
헀
뎨
뭣
뱐
쯕
챵
퇘
띨
룝
옭
죈
퀠
햣
걔
띔
샙
옝
좆
퇼
ㅝ
슥
틂
벱
쇨
짦
촙
큄
툉
괼
끙
ㅙ
낑
삥
셱
롸
짢
ㅞ
뒨
숌
벋
졍
쾃
짇
큉
궉
덞
샾
큇
큥
걍
뽄
쇽
꾐
뱡
싀
썻
캰
퀑
갹
돠
뤠
븡
삔
쉈
웟
죌
맟
뼉
퉜
퓐
훵
갰
궜
몌
뺌
륑
왬
쨋
쳬
푤
솬
캴
곗
솎
왱
콬
믜
삑
쎌
굣
궃
꺄
넒
댠
릐
삘
슙
탼
퇀
ㅄ
붇
솃
얜
쫌
귁
껩
옇
촤
휙
왝
큭
푁
ㄳ
봬
쟤
좐
쫙
쳥
틉
휀
ㄺ
ㄻ
꿎
꿴
븨
잌
쟀
죗
쨔
찝
췐
ㄶ
ㅀ
곪
낢
돝
묏
묑
벛
챨
펐
ㄼ
꺅
낍
놘
뒴
랼
뭡
뵌
뵬
쌰
졘
쪘
쳰
쿌
흭
ㄵ
갼
겍
쌋
쏸
즛
ㄿ
겋
곬
녈
밞
쉭
쒀
ㄾ
됸
쥠
ㄽ
긷
껭
멓
몆
읗
퇸
튐
팼
닯
돐
붸
쿽
훕
옯
젔
젹
좔
춍
컁
켸
풰
곯
윾
촹
츌
틑
궨
귿
냣
뉵
똬
믕
밎
샜
슁
읻
졈
퍌
횐
끎
쁩
엊
읒
츼
큽
굠
깸
꾜
뇩
뉸
늴
썖
앏
읫
찿
햑
햔
뀨
뇸
쀼
섈
셥
읕
죵
쬔
챰
퀌
푕
혤
겄
뜷
롣
쟉
쨈
쭘
큠
텬
풂
혠
흗
덛
뎡
듕
떱
뙤
룟
묫
볓
셕
슾
옉
쩝
쵤
툿
픕
핬
휭
덖
됙
륍
먁
뱟
붜
븍
앝
얠
엶
왹
읃
죳
쬘
춉
츙
퉤
튁
햠
굘
꿘
땟
럅
렜
멉
섦
썅
윱
좃
챡
쿙
퐈
퐝
픙
겝
긑
껜
뀍
녬
됀
됫
뙈
뢱
륏
뫄
볻
뵨
빋
싁
쒸
쟐
쩬
쪠
캤
쾍
퍈
푠
푱
겻
귑
껸
꽐
녑
맻
뫃
볠
뼤
삠
섁
쑬
얨
얭
읖
잍
잛
쟛
죔
쥣
즤
쯧
츔
캪
겯
뉙
딫
떽
뗌
뗑
롹
륫
먕
멂
묭
뻰
쎅
씐
엳
옜
욍
욺
즁
쩰
쭙
챱
첬
콱
쾬
퀫

걲
곈
꼍
꾄
꾿
눼
늡
덪
뒈
땝
뗴
띰
륩
밪
섥
슯
쑝
얐
엤
읺
짫
쨘
쫜
쵹
켬
콀
턔
풉
헸
겇
궝
깠
깩
눞
듁
땁
땨
띡
띳
롐
뱔
삳
슼
욋
쟨
쳡
춈
킼
톼
튽
홅
훡
걘
꽛
끆
뇜
늗
뎜
돎
땸
럇
룐
맽
멨
몀
밣
뱍
볫
뷁
빎
뺴
솦
씼
앟
앧
얆
얬
욷
웤
읓
읔
읠
젇
졋
졧
쥿
짯
쳑
퍙
훽
휄
힁
겆
곂
괏
뀀
뀝
끕
뉩
댱
뎍
뎰
뚧
룁
뮹
벴
뻴
쏩
쓔
씃
씜
얶
엹
옰
왯
윁
잏
졜
죡
죨
짔
쩽
쫏
췰
켯
퀭
폘
핳
홥
훓
휑
흴
흽
걈
걺
굻
꺠
꽅
꽆
꿏
꿸
넖
늣
닺
돟
됄
됮
둄
떄
뙡
뚯
먓
몃
뭅
뭏
믯
봔
뵷
뵹
븜
빝
뺘
뿟
샆
솓
숖
쉡
싄
쌴
쏫
쓩
얾
옫
옸
읆
졉
줫
쮠
촥
쵝
쵼
췍
췽
츅
킈
탘
탙
텦
톺
튱
퐌
핟
햤
헿
혿
홤
훝
휏
휸
흫
겿
곙
굥
귯
긺
깆
깹
껶
넀
넗
넢
녯
놩
놰
뇐
뇔
눝
늇
늼
닏
닑
닜
닸
댛
돰
뒥
뒸
듧
땻
뚐
뛔
뜽
띱
랲
럄
럔
렡
롈
뢨
뤈
뤗
뮝
믁
뱄
붊
붖
븓
뺙
뺵
뼁
뽓
샇
섓
섵
슽
싻
썍
쎔
쎙
쎼
쏱
쑜
앋
얺
욈
욯
웝
읭
잗
쟂
쟘
쨕
쨰
쪤
쬬
쮜
챦
첮
쳘
쳣
춋
츕
켭
큣
퍅
퍠
핻
햗
햬
횩
흝
흣
궅
껨
꼐
꼳
꽦
꾕
뀠
냡
녣
놂
뇻
닽
댝
댤
덝
덣
덨
뎦
돴
둗
둚
둴
듫
땍
떙
뗬
뙨
뚸
랻
럐
롓
롷
뤌
륻
릔
맅
맠
뭬
믾
밷
붘
붼
뷀
뷧
븟
븥
빱
뻭
뼝
뿝
샂
샏
섧
셖
쇵
숰
숳
쉅
쉣
싲
싴
쌂
쎠
쐰
쑴
쒜
앜
얖
엜
엵
옾
왇
왘
왤
욌
윝
읶
읹
쟎
쟙
졩
줃
쨀
쩟
쩻
쫘
쬠
쬼
쯘
쵀
췟
츩
캍
콮
쾀
큿
텉
텥
텽
톹
퉝
튝
틘
팦
폅
폔
풔
퓬
핮
핲
햋
홛
홱
횄
횻
갂
갘
걑
겂
곷
괂
괗
굑
궇
귝
긘
깉
깓
깯
껙
꼇
꾱
꾾
냬
넁
넑
넡
넫
넶
녿
놜
놧
눋
눤
눨
뉄
뉻
늅
늚
늰
댚
댯
댸
뎔
돚
돵
돽
됢
둉
둰
둿
뒁
듵
딍
딷
뗘
뗸
똫
뜁
뜌
뜡
뜹
랕
럲
롶
룍
룜
뤀
륟
릡
릫
맜
먈
몴
뫔
뫙
묌
묺
뭴
뮉
믠
밨
밫
밯
뱆
뱜
벉
벘
볿
봘
뵉
붏
붛
붴
뷋
뷕
븃
븕
븬
븰
븸
뺫
삡
삣
삮
삻
샊
섡
섿
셑
솧
솰
솻
쇘
쇰
숡
숸
쉉
싈
싰
싾
쌥
썀
썪
쎴
쐇
쒼
쓿
씉
앃
앖
앚
앛
앺
얃
얅
엗
엨
옄
옲
옺
왰
욬
욽
웉
윋
윘
윟
윶
윻
읂
읅
읋
읳
잋
잚
잩
젣
졷
좊
죕
죰
줓
줸
쥭
즏
짗
쨉
쩄
쪋
쪾
쫃
쫍
찎
찣
챳
첟
쳠
쵱
춴
춸
췡
췩
칢
칰
칲
칳
캎
캭
캼
컈
켱
콙
퀍
퀏
큎
킄
턀
텰
툥
튭
팈
팉
퍁
폳
퐅
퐐
푣
풜
퓽
픅
픞
핔
핚
핝
핡
핧
핶
햊
햡
헜
헣
혬
홓
횓
횢
횰
횽
훍
훜
휌
힜
갃
갅
갊
갏
갣
갶
걋
겣
겾
곅
곘
곹
곺
괁
괍
괕
괙
굇
굔
굦
궎
궘
궠
궡
궴
궷
귢
귱
긂
긆
긜
긤
긪
긾
깂
깄
깋
깖
깢
꺌
껬
껼
꼮
꾈
꾳
꿂
꿕
꿧
꿱
뀰
끰
낛
낣
낲
낻
냤
넎
넏
넚
넠
녅
녋
녙
녛
녝
놃
놑
뇍
뇹
늒
늕
늧
늩
늿
닞
닟
닡
닼
댇
댼
덙
덯
뎗
뎝
돇
돍
돓
됍
됏
됒
됰
됼
둏
둙
둧
뒜
뒝
뒫
뒵
듥
듲
듳
듹
듼
딈
딭
딮
딯
딲
땽
떌
떘
떦
떪
뗜
뗼
똄
똉
똡
뙬
뚊
뚦
뚭
뚷
뚼
띁
띅
띾
랃
랒
랓
랔
랛
랟
랢
럈
럻
렂
렃
렄
렆
렗
렠
렣
롑
롲
뢀
뢔
룤
룧
룯
뤔
뤤
뤨
뤰
뤳
뤵
륐
륱
륲
륽
릊
릌
릍
릏
릑
릘
릠
릳
맃
맄
맆
맍
맔
맢
먑
먗
먘
먿
멏
멪
멵
몊
몔
몟
몪
몷
뫀
뫂
뫈
뫕
뭃
뭆
뭋
뭥
뭰
뮥
뮫
믏
믓
밒
밚
밠
밬
밲
뱊
뱓
벐
벓
벹
벻
볃
볅
볈
볔
볙
봋
봌
봍
봙
봣
봥
뵀
뵛
뵝
붔
붗
붤
붵
붹
븅
븙
빍
빜
빞
뺍
뺕
뺬
뺸
뻇
뻉
뻩
뽝
뿨
쁴
쁵
삜
삧
삷
샞
샢
섟
섨
섩
섴
섷
솏
솑
솣
숮
쉄
쉠
쉪
슟
슦
싡
싦
싪
싵
싿
쌇
쌜
쎕
쎗
쎘
쎾
쏄
쏳
쐉
쐑
쐼
쑻
쓘
씅
씔
앶
앹
앾
얂
얊
얫
엩
엪
옂
옃
옏
옽
옿
왙
왭
왿
욎
욐
욨
욫
욿
웂
웆
웇
웋
웑
웓
웢
윥
읇
읐
읙
읿
잂
잆
잙
잧
잨
잪
쟃
쟆
쟇
쟬
젃
젅
젏
젗
젙
젲
졶
좟
좧
죍
죱
줆
줜
줼
쥉
쥡
쥼
즑
즞
즴
짂
짛
짥
짮
쨜
쨧
쩩
쪗
쫗
쫭
쬥
쬰
쭁
쮀
쯀
쯊
쯜
쯱
찯
찱
찷
챂
챃
첡
첯
촏
촣
촷
쵣
춀
춛
춝
춟
춭
츺
칀
칯
칱
캌
컀
컄
컅
컺
컾
켝
켴
콭
쾁
쾩
쾭
쾹
쿕
쿗
쿹
퀙
퀩
큑
큹
킂
킽
킾
탇
탢
탣
탶
턈
턍
텓
텤
톸
퇵
툅
툑
툘
툳
퉐
튑
튓
튻
틕
틤
틧
틩
팑
팕
팖
팤
펵
폏
폶
퐷
푓
푝
푭
풑
풸
퓡
픑
픗
픜
픝
핓
핕
핛
핞
핢
핱
햚
햝
햿
헳
