[PAD]	0
[UNK]	0
[BOS]	0
[EOS]	0
[CLS]	0
[SEP]	0
[MASK]	0
▁▃	-0
▁이	-1
▁하	-2
▁.	-3
▁에	-4
▁다	-5
▁의	-6
▁는	-7
▁ᆫ	-8
▁,	-9
▁을	-10
▁은	-11
▁가	-12
▁1	-13
▁으	-14
▁고	-15
▁되	-16
▁아	-17
▁를	-18
▁었	-19
▁지	-20
▁년	-21
▁로	-22
▁으로	-23
▁에서	-24
▁2	-25
▁있	-26
▁어	-27
▁대	-28
▁았	-29
▁기	-30
▁사	-31
▁그	-32
▁도	-33
▁시	-34
▁일	-35
▁과	-36
▁ᆫ다	-37
▁들	-38
▁수	-39
▁전	-40
▁적	-41
▁여	-42
▁자	-43
▁와	-44
▁20	-45
▁부	-46
▁월	-47
▁주	-48
▁제	-49
▁19	-50
▁라	-51
▁ᆯ	-52
▁정	-53
▁보	-54
▁중	-55
▁위	-56
▁인	-57
▁였	-58
▁나	-59
▁공	-60
▁세	-61
▁경	-62
▁것	-63
▁게	-64
▁개	-65
▁오	-66
▁유	-67
▁3	-68
▁"	-69
▁조	-70
▁등	-71
▁스	-72
▁선	-73
▁마	-74
▁성	-75
▁만	-76
▁미	-77
▁동	-78
▁연	-79
▁상	-80
▁서	-81
▁소	-82
▁한	-83
▁모	-84
▁비	-85
▁구	-86
▁영	-87
▁국	-88
▁발	-89
▁면	-90
▁며	-91
▁으며	-92
▁201	-93
▁'	-94
▁4	-95
▁후	-96
▁관	-97
▁명	-98
▁신	-99
▁프	-100
▁5	-101
▁때	-102
▁200	-103
▁장	-104
▁던	-105
▁-	-106
▁거	-107
▁방	-108
▁바	-109
▁교	-110
▁리	-111
▁해	-112
▁문	-113
▁내	-114
▁역	-115
▁차	-116
▁당	-117
▁우	-118
▁무	-119
▁원	-120
▁통	-121
▁계	-122
▁현	-123
▁남	-124
▁노	-125
▁군	-126
▁포	-127
▁분	-128
▁6	-129
▁또	-130
▁화	-131
▁않	-132
▁까	-133
▁학	-134
▁생	-135
▁까지	-136
▁같	-137
▁작	-138
▁결	-139
▁강	-140
▁에게	-141
▁출	-142
▁파	-143
▁대하	-144
▁받	-145
▁진	-146
▁크	-147
▁단	-148
▁7	-149
▁번	-150
▁최	-151
▁반	-152
▁불	-153
▁10	-154
▁8	-155
▁알	-156
▁데	-157
▁위하	-158
▁두	-159
▁호	-160
▁회	-161
▁지만	-162
▁안	-163
▁배	-164
▁카	-165
▁실	-166
▁형	-167
▁초	-168
▁말	-169
▁따	-170
▁예	-171
▁재	-172
▁부터	-173
▁없	-174
▁타	-175
▁사용	-176
▁9	-177
▁미국	-178
▁음	-179
▁라고	-180
▁종	-181
▁요	-182
▁이후	-183
▁라는	-184
▁함	-185
▁설	-186
▁특	-187
▁면서	-188
▁일본	-189
▁는데	-190
▁코	-191
▁레	-192
▁산	-193
▁운	-194
▁권	-195
▁감	-196
▁더	-197
▁독	-198
▁활	-199
▁추	-200
▁행	-201
▁베	-202
▁왕	-203
▁처	-204
▁피	-205
민국	-206
▁그리	-207
▁김	-208
▁지역	-209
▁양	-210
▁으나	-211
▁매	-212
▁대한	-213
▁199	-214
▁다음	-215
▁민	-216
▁평	-217
▁태	-218
▁많	-219
▁건	-220
▁입	-221
▁12	-222
▁따르	-223
▁간	-224
▁참	-225
▁대한민국	-226
▁18	-227
▁및	-228
▁경기	-229
▁승	-230
▁다고	-231
▁가지	-232
▁열	-233
▁목	-234
▁드	-235
▁다른	-236
▁대학	-237
▁;	-238
▁의하	-239
리아	-240
00	-241
▁프로	-242
▁총	-243
▁속	-244
스트	-245
▁북	-246
▁야	-247
▁S	-248
or	-249
▁집	-250
▁때문	-251
▁법	-252
▁11	-253
▁시작	-254
▁트	-255
▁물	-256
▁외	-257
▁체	-258
▁각	-259
▁시키	-260
▁달	-261
▁변	-262
▁천	-263
▁메	-264
▁직	-265
▁임	-266
▁표	-267
▁올	-268
▁ᄆ	-269
▁그러	-270
▁토	-271
▁사람	-272
▁본	-273
▁&	-274
▁점	-275
▁저	-276
▁쓰	-277
▁함께	-278
▁또한	-279
▁A	-280
▁아서	-281
어지	-282
▁박	-283
▁팀	-284
어나	-285
▁치	-286
▁투	-287
▁한국	-288
▁청	-289
▁선수	-290
▁항	-291
▁브	-292
▁사이	-293
▁세계	-294
▁)	-295
▁영화	-296
▁버	-297
▁자신	-298
▁새	-299
▁광	-300
▁약	-301
la	-302
▁C	-303
▁M	-304
▁디	-305
▁경우	-306
▁통하	-307
▁네	-308
▁용	-309
▁판	-310
▁루	-311
▁f	-312
▁기록	-313
▁T	-314
▁축	-315
▁F	-316
▁현재	-317
▁복	-318
▁아니	-319
▁하나	-320
▁국가	-321
시아	-322
▁존	-323
▁이름	-324
▁198	-325
▁다는	-326
▁편	-327
▁당시	-328
▁확	-329
▁가장	-330
▁삼	-331
▁위치	-332
▁_	-333
▁보이	-334
▁활동	-335
▁조선	-336
▁학교	-337
▁뒤	-338
▁이나	-339
▁철	-340
▁만들	-341
주의	-342
▁그러나	-343
▁리그	-344
▁필	-345
▁15	-346
▁(	-347
▁살	-348
▁금	-349
▁페	-350
▁증	-351
▁for	-352
▁합	-353
▁째	-354
mu	-355
▁플	-356
▁백	-357
▁테	-358
▁심	-359
▁창	-360
▁언	-361
▁애	-362
mula	-363
▁formula	-364
▁식	-365
▁16	-366
▁못	-367
▁대표	-368
레이	-369
▁병	-370
▁연구	-371
▁근	-372
▁또는	-373
▁프랑	-374
부터	-375
▁니	-376
▁그리고	-377
▁/	-378
▁황	-379
▁사회	-380
▁돌	-381
▁규	-382
▁m	-383
▁0	-384
▁D	-385
▁충	-386
▁17	-387
▁시즌	-388
▁어서	-389
▁패	-390
▁]	-391
▁첫	-392
▁순	-393
▁[	-394
▁197	-395
▁B	-396
▁보다	-397
▁러	-398
▁이루	-399
▁완	-400
▁다시	-401
▁히	-402
▁못하	-403
랜드	-404
▁높	-405
▁중국	-406
▁협	-407
▁알리	-408
▁길	-409
▁서울	-410
▁클	-411
▁정부	-412
▁프랑스	-413
▁채	-414
▁영국	-415
학교	-416
▁K	-417
▁I	-418
▁시대	-419
▁:	-420
▁는다	-421
▁키	-422
▁도시	-423
▁포함	-424
▁k	-425
▁여러	-426
▁뜻	-427
▁196	-428
▁전쟁	-429
▁14	-430
▁아이	-431
▁독일	-432
▁다가	-433
▁로서	-434
▁죽	-435
er	-436
▁문화	-437
▁대회	-438
▁~	-439
▁g	-440
▁취	-441
▁13	-442
▁배우	-443
▁축구	-444
▁허	-445
▁모두	-446
▁가능	-447
▁위원	-448
▁별	-449
▁P	-450
▁동안	-451
▁뉴	-452
▁모든	-453
in	-454
▁이상	-455
▁친	-456
▁손	-457
▁곡	-458
▁감독	-459
▁정치	-460
▁환	-461
▁194	-462
▁일부	-463
▁문제	-464
▁l	-465
▁방송	-466
▁석	-467
▁처음	-468
▁대학교	-469
▁개발	-470
▁L	-471
▁지방	-472
▁제작	-473
▁%	-474
▁구성	-475
▁검	-476
▁캐	-477
▁인하	-478
▁국제	-479
▁농	-480
▁사건	-481
▁터	-482
라이	-483
▁골	-484
▁끝	-485
▁세기	-486
▁논	-487
▁시간	-488
▁씨	-489
▁이용	-490
▁일반	-491
▁부르	-492
▁존재	-493
▁향	-494
▁작품	-495
▁G	-496
▁날	-497
▁밀	-498
▁게임	-499
▁정도	-500
▁운동	-501
▁폭	-502
▁주장	-503
▁티	-504
▁쿠	-505
▁급	-506
▁역사	-507
▁gt	-508
▁나오	-509
▁관계	-510
▁곳	-511
▁앞	-512
▁즉	-513
▁N	-514
▁려	-515
▁섬	-516
니아	-517
▁인구	-518
▁교육	-519
▁음악	-520
▁효	-521
on	-522
▁195	-523
▁km	-524
▁거나	-525
▁접	-526
▁나타	-527
▁중심	-528
▁이러	-529
▁lt	-530
▁육	-531
▁맡	-532
리스	-533
▁극	-534
▁U	-535
▁귀	-536
▁맞	-537
▁30	-538
▁절	-539
▁R	-540
▁경제	-541
▁선거	-542
▁블	-543
부분	-544
통령	-545
▁발견	-546
▁민주	-547
▁전투	-548
▁담	-549
▁누	-550
▁H	-551
▁도록	-552
▁봉	-553
▁발표	-554
화국	-555
▁갖	-556
▁측	-557
▁홍	-558
▁글	-559
▁E	-560
▁기술	-561
▁슈	-562
▁막	-563
▁올림	-564
▁암	-565
▁아들	-566
이스	-567
▁책	-568
▁케	-569
▁우승	-570
▁로부터	-571
▁공격	-572
▁엔	-573
▁2010	-574
▁들어	-575
▁대통령	-576
▁ㄴ	-577
▁대부분	-578
▁잘	-579
▁영향	-580
▁걸	-581
▁사망	-582
▁올림픽	-583
an	-584
▁결과	-585
▁질	-586
▁헤	-587
▁밝	-588
▁여기	-589
000	-590
▁열리	-591
▁새롭	-592
▁불리	-593
▁송	-594
▁라이	-595
▁지원	-596
▁앨	-597
▁프로그	-598
리카	-599
▁과정	-600
▁잡	-601
▁193	-602
▁발생	-603
▁의미	-604
▁관련	-605
▁머	-606
▁참여	-607
▁중앙	-608
▁유럽	-609
▁업	-610
▁진행	-611
▁최초	-612
▁c	-613
▁얻	-614
란드	-615
▁범	-616
▁준	-617
20	-618
▁25	-619
▁부분	-620
지만	-621
▁고등	-622
▁특히	-623
▁독립	-624
▁자유	-625
▁결정	-626
▁제국	-627
▁태어나	-628
▁구조	-629
▁세우	-630
▁다양	-631
▁설립	-632
▁팔	-633
▁당하	-634
버지	-635
▁ᆫ다는	-636
▁설치	-637
▁속하	-638
▁상태	-639
나라	-640
▁폐	-641
▁형태	-642
▁발매	-643
▁악	-644
▁초등	-645
▁W	-646
▁탈	-647
▁벌	-648
▁탄	-649
▁온	-650
▁소속	-651
▁아야	-652
▁좌	-653
▁러시아	-654
▁같이	-655
▁2008	-656
▁사실	-657
▁하지만	-658
▁좋	-659
▁이전	-660
▁침	-661
▁그녀	-662
▁일어나	-663
▁21	-664
우스	-665
▁줄	-666
▁스타	-667
▁센	-668
▁르	-669
▁커	-670
▁로마	-671
디오	-672
▁이것	-673
▁으로서	-674
▁여성	-675
▁폴	-676
▁나라	-677
▁생각	-678
▁인민	-679
▁주로	-680
▁프로그램	-681
▁타이	-682
▁필요	-683
▁갈	-684
▁2011	-685
▁2012	-686
▁출신	-687
▁혼	-688
▁싱	-689
▁참가	-690
▁이탈	-691
▁조직	-692
▁관리	-693
▁보내	-694
▁100	-695
▁기준	-696
▁운영	-697
▁오르	-698
▁위원회	-699
▁중요	-700
▁윤	-701
en	-702
▁2009	-703
▁란	-704
▁생산	-705
므로	-706
▁여자	-707
▁계획	-708
▁2007	-709
▁기관	-710
▁2014	-711
▁t	-712
▁행정	-713
▁상대	-714
▁등장	-715
▁이르	-716
▁정보	-717
▁성공	-718
▁계속	-719
▁음반	-720
▁바이	-721
▁데이	-722
▁지나	-723
▁지정	-724
▁매우	-725
▁국민	-726
▁a	-727
▁콘	-728
▁넘	-729
▁데뷔	-730
▁밝히	-731
▁해당	-732
▁2013	-733
▁O	-734
he	-735
▁레이	-736
▁뿐	-737
▁과학	-738
▁철도	-739
▁아버지	-740
▁고려	-741
▁칼	-742
스터	-743
▁대전	-744
▁몇	-745
▁발전	-746
▁이탈리아	-747
리즈	-748
▁주요	-749
▁자리	-750
프트	-751
▁사업	-752
▁191	-753
▁찾	-754
▁시스	-755
▁묘	-756
▁24	-757
▁23	-758
▁억	-759
▁처럼	-760
▁지내	-761
▁차지	-762
▁방법	-763
▁000	-764
▁2015	-765
ar	-766
▁2018	-767
▁얼	-768
▁쇼	-769
남도	-770
▁헌	-771
▁월드	-772
라마	-773
▁능	-774
▁앨범	-775
▁돌아	-776
▁2016	-777
레스	-778
▁최고	-779
▁그룹	-780
▁인도	-781
▁빌	-782
▁결국	-783
▁후보	-784
▁관하	-785
▁마이	-786
르크	-787
▁출연	-788
▁아래	-789
▁시리즈	-790
▁엘	-791
▁생활	-792
이션	-793
▁전체	-794
▁J	-795
▁떨	-796
▁빠	-797
▁22	-798
es	-799
▁우리	-800
▁이루어지	-801
▁고등학교	-802
▁한편	-803
▁회사	-804
▁이유	-805
▁내용	-806
▁2006	-807
▁그리스	-808
▁ᆫ다고	-809
이트	-810
▁격	-811
▁거치	-812
FA	-813
▁192	-814
▁나가	-815
비아	-816
▁층	-817
▁제공	-818
▁풍	-819
▁인간	-820
▁연합	-821
▁힘	-822
▁스페	-823
▁방식	-824
▁의원	-825
▁공식	-826
▁2017	-827
▁많이	-828
운데	-829
▁인터	-830
▁항공	-831
▁시기	-832
▁희	-833
▁역할	-834
▁잠	-835
▁컴	-836
▁몸	-837
▁군사	-838
▁가운데	-839
▁조사	-840
▁드라마	-841
▁시스템	-842
▁초기	-843
▁류	-844
▁워	-845
▁거의	-846
▁출전	-847
▁기업	-848
▁제도	-849
▁유명	-850
▁반대	-851
▁민족	-852
▁놓	-853
▁나타나	-854
▁으로써	-855
▁s	-856
▁퍼	-857
▁둘	-858
▁지구	-859
▁쓰이	-860
▁교회	-861
▁울	-862
▁푸	-863
▁떠	-864
▁색	-865
▁수상	-866
▁가리	-867
▁텔	-868
▁대신	-869
▁평가	-870
▁유지	-871
▁달리	-872
▁표현	-873
비스	-874
▁느	-875
▁으로부터	-876
▁분류	-877
▁몰	-878
▁26	-879
▁동시	-880
▁홈	-881
▁올리	-882
▁대상	-883
▁특별	-884
▁!	-885
▁녹	-886
▁현대	-887
▁웨	-888
▁기능	-889
▁규모	-890
▁언어	-891
▁모습	-892
▁이미	-893
▁공개	-894
at	-895
▁프리	-896
▁응	-897
▁마지	-898
▁노동	-899
▁자연	-900
▁28	-901
▁승리	-902
▁어야	-903
야기	-904
▁개인	-905
▁졸	-906
▁각각	-907
▁들어가	-908
▁연결	-909
▁27	-910
▁이론	-911
▁전하	-912
▁인정	-913
▁밖	-914
▁뛰	-915
▁붙	-916
▁2019	-917
▁단체	-918
▁진출	-919
▁지도	-920
▁브라	-921
▁임명	-922
▁마지막	-923
북도	-924
▁핵	-925
▁V	-926
▁떨어지	-927
▁시장	-928
▁2005	-929
▁2000	-930
▁목적	-931
▁상황	-932
머니	-933
▁시절	-934
▁샤	-935
▁너	-936
▁수도	-937
▁아르	-938
▁전문	-939
▁정책	-940
▁난	-941
▁눈	-942
▁멀	-943
▁메이	-944
▁정의	-945
▁기간	-946
▁경상	-947
▁직접	-948
▁목록	-949
▁족	-950
▁산업	-951
▁습	-952
▁이야기	-953
▁먹	-954
▁서로	-955
ic	-956
니다	-957
al	-958
▁계약	-959
▁혁	-960
▁압	-961
▁오스트	-962
스크	-963
▁야구	-964
▁추가	-965
▁밴	-966
▁슬	-967
▁기원	-968
▁으면	-969
▁건설	-970
▁공동	-971
BS	-972
▁모델	-973
▁2004	-974
▁콜	-975
▁개최	-976
▁경찰	-977
▁FC	-978
▁플레이	-979
▁건물	-980
▁공간	-981
▁망	-982
▁형성	-983
▁50	-984
▁활약	-985
▁그것	-986
▁자동	-987
▁결혼	-988
▁거리	-989
▁부산	-990
▁스페인	-991
▁훈	-992
▁31	-993
▁29	-994
▁변화	-995
학자	-996
▁노래	-997
▁사상	-998
▁졸업	-999
▁교수	-1000
▁변경	-1001
으키	-1002
▁칸	-1003
▁나이	-1004
▁b	-1005
▁국회	-1006
▁TV	-1007
▁인물	-1008
▁완전	-1009
▁마을	-1010
is	-1011
▁다르	-1012
re	-1013
▁공화국	-1014
▁궁	-1015
it	-1016
▁텔레	-1017
▁벨	-1018
▁비롯	-1019
▁사랑	-1020
▁역시	-1021
▁190	-1022
▁낮	-1023
▁흐	-1024
▁노선	-1025
▁인민공	-1026
▁휴	-1027
▁인민공화국	-1028
비전	-1029
▁ㅏ	-1030
▁지지	-1031
▁2020	-1032
▁학생	-1033
▁실제	-1034
ou	-1035
▁맥	-1036
▁중학교	-1037
▁보통	-1038
▁최대	-1039
▁만나	-1040
▁요구	-1041
▁볼	-1042
▁따라	-1043
▁지금	-1044
이드	-1045
▁서비스	-1046
▁견	-1047
▁잉	-1048
대로	-1049
▁겠	-1050
▁싸	-1051
▁보호	-1052
▁탑	-1053
▁전국	-1054
▁일으키	-1055
프리카	-1056
▁소설	-1057
▁우주	-1058
▁의회	-1059
▁중화	-1060
▁딸	-1061
▁없이	-1062
▁겸	-1063
▁실시	-1064
▁자기	-1065
▁기본	-1066
▁판매	-1067
▁지하	-1068
▁혹	-1069
▁황제	-1070
▁다이	-1071
▁옥	-1072
운드	-1073
▁가수	-1074
▁비판	-1075
역시	-1076
▁전통	-1077
▁싱글	-1078
르트	-1079
▁차이	-1080
▁엄	-1081
▁높이	-1082
▁밴드	-1083
▁떠나	-1084
▁원래	-1085
▁기반	-1086
▁론	-1087
▁퇴	-1088
너지	-1089
▁종교	-1090
▁어떤	-1091
▁버리	-1092
▁세력	-1093
▁내리	-1094
▁2002	-1095
▁경기도	-1096
▁탐	-1097
로스	-1098
▁40	-1099
▁소련	-1100
▁이끌	-1101
▁자료	-1102
스탄	-1103
▁수행	-1104
▁환경	-1105
▁기타	-1106
▁2003	-1107
▁가리키	-1108
▁회의	-1109
▁전기	-1110
▁모양	-1111
▁풀	-1112
▁센터	-1113
▁월드컵	-1114
▁부대	-1115
▁시설	-1116
▁운행	-1117
▁나타내	-1118
▁그래	-1119
▁특징	-1120
▁전자	-1121
▁공연	-1122
▁도쿄	-1123
러스	-1124
▁걸치	-1125
▁교황	-1126
▁설명	-1127
▁뮤	-1128
▁컵	-1129
▁기념	-1130
나다	-1131
▁통합	-1132
▁이동	-1133
▁예술	-1134
▁분야	-1135
▁기독	-1136
▁승강	-1137
▁명칭	-1138
▁작업	-1139
le	-1140
▁득	-1141
mp	-1142
▁남자	-1143
▁텔레비전	-1144
▁염	-1145
▁행동	-1146
▁도입	-1147
▁동물	-1148
▁연방	-1149
▁따라서	-1150
▁구역	-1151
▁선정	-1152
▁바로	-1153
▁군대	-1154
▁숙	-1155
들이	-1156
▁전라	-1157
▁애니	-1158
▁능력	-1159
스타	-1160
▁출시	-1161
▁가족	-1162
▁작용	-1163
▁증가	-1164
▁넓	-1165
▁할	-1166
▁남쪽	-1167
▁확인	-1168
▁기존	-1169
▁방향	-1170
▁소프트	-1171
▁행위	-1172
▁북쪽	-1173
▁지휘	-1174
▁제외	-1175
▁이때	-1176
▁교통	-1177
▁기독교	-1178
▁문학	-1179
▁차량	-1180
▁착	-1181
▁옮	-1182
▁작가	-1183
▁=	-1184
▁사고	-1185
의원	-1186
▁비슷	-1187
▁국내	-1188
▁형식	-1189
▁십	-1190
▁므로	-1191
▁강하	-1192
▁클럽	-1193
▁어머니	-1194
▁혁명	-1195
▁그렇	-1196
▁윌	-1197
▁작곡	-1198
▁도로	-1199
▁마르	-1200
▁빈	-1201
▁지배	-1202
▁효과	-1203
▁낙	-1204
▁런	-1205
▁마다	-1206
▁거두	-1207
▁몽	-1208
▁왕국	-1209
▁역임	-1210
▁태양	-1211
▁과거	-1212
▁유일	-1213
▁캐나다	-1214
▁컴퓨	-1215
▁승강장	-1216
▁FI	-1217
▁챔	-1218
▁옮기	-1219
▁사무	-1220
▁열차	-1221
▁이적	-1222
▁갑	-1223
BC	-1224
▁혹은	-1225
▁협회	-1226
▁남부	-1227
리오	-1228
▁비교	-1229
▁흥	-1230
▁추정	-1231
▁생기	-1232
▁공산	-1233
▁베이	-1234
▁정당	-1235
▁솔	-1236
▁뉴욕	-1237
▁흔	-1238
▁갖추	-1239
▁담당	-1240
▁이어지	-1241
자리	-1242
▁시민	-1243
▁이사	-1244
▁적용	-1245
▁동일	-1246
▁획	-1247
▁늘	-1248
▁육군	-1249
▁주변	-1250
▁1990	-1251
▁홀	-1252
▁인기	-1253
▁장관	-1254
▁즈	-1255
▁2001	-1256
▁대사	-1257
▁동쪽	-1258
▁물리	-1259
▁챔피	-1260
▁넣	-1261
▁스포	-1262
▁스트	-1263
▁쪽	-1264
▁X	-1265
▁세포	-1266
▁윈	-1267
▁곧	-1268
▁상당	-1269
▁건축	-1270
▁예정	-1271
▁ᆫ데	-1272
▁사단	-1273
▁공사	-1274
▁성장	-1275
▁마음	-1276
▁징	-1277
▁개념	-1278
▁맨	-1279
▁데이터	-1280
▁p	-1281
▁구간	-1282
▁오늘	-1283
▁컴퓨터	-1284
▁조지	-1285
▁차례	-1286
드리	-1287
▁품	-1288
▁움	-1289
▁크기	-1290
▁돈	-1291
▁에너지	-1292
▁비하	-1293
▁멤	-1294
▁서쪽	-1295
▁189	-1296
▁버스	-1297
▁흑	-1298
▁바꾸	-1299
▁어리	-1300
▁바르	-1301
이지	-1302
▁잔	-1303
▁치르	-1304
▁충청	-1305
▁록	-1306
▁액	-1307
▁자체	-1308
▁땅	-1309
▁칭	-1310
▁어느	-1311
▁작전	-1312
▁조건	-1313
▁실패	-1314
▁민주주의	-1315
▁연기	-1316
▁디자	-1317
▁이라	-1318
▁이런	-1319
▁율	-1320
▁반응	-1321
▁돌아오	-1322
▁덕	-1323
▁이어	-1324
▁선언	-1325
▁연주	-1326
▁FIFA	-1327
▁피해	-1328
▁쉽	-1329
▁부족	-1330
▁컨	-1331
▁d	-1332
▁버전	-1333
▁종류	-1334
▁특정	-1335
▁연속	-1336
▁페르	-1337
가지	-1338
▁선택	-1339
메이션	-1340
▁국립	-1341
▁익	-1342
▁대체	-1343
▁쌍	-1344
카이	-1345
▁수록	-1346
▁방영	-1347
▁규정	-1348
el	-1349
▁다루	-1350
▁해군	-1351
거리	-1352
▁대구	-1353
▁공항	-1354
▁고대	-1355
라지	-1356
루스	-1357
▁내부	-1358
et	-1359
▁멤버	-1360
▁체제	-1361
▁속도	-1362
버스	-1363
▁조약	-1364
▁결승	-1365
▁정신	-1366
▁북부	-1367
▁아시아	-1368
▁명령	-1369
▁기원전	-1370
▁는지	-1371
▁연대	-1372
▁왜	-1373
글랜드	-1374
▁선출	-1375
▁헌법	-1376
▁인천	-1377
▁크리스	-1378
▁쥐	-1379
▁애니메이션	-1380
▁ㅓ	-1381
▁휘	-1382
▁옛	-1383
▁가치	-1384
▁단계	-1385
▁포르	-1386
▁개혁	-1387
▁링	-1388
▁먼	-1389
ion	-1390
▁친구	-1391
▁최종	-1392
▁물질	-1393
▁영어	-1394
웨어	-1395
▁자치	-1396
▁분석	-1397
▁달러	-1398
▁최근	-1399
ing	-1400
▁나누	-1401
▁설계	-1402
▁밤	-1403
▁ᆫ지	-1404
▁척	-1405
트남	-1406
▁의사	-1407
▁가깝	-1408
▁강화	-1409
▁출판	-1410
▁더욱	-1411
▁평균	-1412
아가	-1413
▁비행	-1414
▁소비	-1415
시마	-1416
▁롭	-1417
▁지명	-1418
▁1999	-1419
▁체계	-1420
▁로스	-1421
▁술	-1422
널리	-1423
▁법원	-1424
▁북한	-1425
▁집단	-1426
ol	-1427
라스	-1428
▁배치	-1429
▁잉글랜드	-1430
▁머리	-1431
▁관심	-1432
▁남기	-1433
▁표준	-1434
▁곤	-1435
▁1998	-1436
메리카	-1437
▁언급	-1438
▁팬	-1439
▁개월	-1440
▁Y	-1441
▁치료	-1442
▁획득	-1443
▁씩	-1444
▁부문	-1445
▁엔진	-1446
▁파이	-1447
▁cm	-1448
▁하이	-1449
▁현상	-1450
21	-1451
▁겨	-1452
▁o	-1453
▁헬	-1454
▁지속	-1455
▁분리	-1456
▁실험	-1457
▁부상	-1458
▁지니	-1459
▁조정	-1460
▁고자	-1461
▁1980	-1462
▁맺	-1463
▁유사	-1464
▁함수	-1465
▁60	-1466
▁하계	-1467
▁선발	-1468
▁파리	-1469
▁벤	-1470
▁처리	-1471
▁스테	-1472
▁확장	-1473
▁공원	-1474
▁스포츠	-1475
▁마치	-1476
스코	-1477
▁챔피언	-1478
▁대중	-1479
▁베르	-1480
▁소유	-1481
리지	-1482
▁제품	-1483
▁35	-1484
▁마리	-1485
▁입단	-1486
▁관할	-1487
▁시도	-1488
▁통일	-1489
▁어렵	-1490
▁목표	-1491
▁빠르	-1492
▁이해	-1493
▁자동차	-1494
▁도움	-1495
▁공립	-1496
▁요소	-1497
▁장군	-1498
▁향하	-1499
▁재판	-1500
▁주도	-1501
▁정규	-1502
디어	-1503
▁mm	-1504
▁문자	-1505
▁에스	-1506
▁점령	-1507
▁후반	-1508
▁꽃	-1509
▁외국	-1510
▁요시	-1511
▁나무	-1512
▁거주	-1513
▁구단	-1514
▁려고	-1515
▁주인	-1516
▁미치	-1517
▁편성	-1518
▁앙	-1519
▁주민	-1520
▁기사	-1521
▁바뀌	-1522
▁잃	-1523
▁시험	-1524
▁원자	-1525
▁네덜	-1526
▁네덜란드	-1527
▁가르	-1528
▁다면	-1529
▁학자	-1530
▁행사	-1531
▁스럽	-1532
▁괴	-1533
▁책임	-1534
▁끌	-1535
▁통신	-1536
▁n	-1537
▁안정	-1538
▁앤	-1539
광역시	-1540
▁동맹	-1541
▁사령	-1542
▁결합	-1543
▁투표	-1544
▁혈	-1545
▁일종	-1546
▁수준	-1547
▁웹	-1548
▁모르	-1549
▁고속	-1550
▁알렉	-1551
▁언론	-1552
▁깊	-1553
▁불구	-1554
▁끝나	-1555
▁잇	-1556
▁장치	-1557
▁불교	-1558
▁예선	-1559
▁듯	-1560
om	-1561
▁다니	-1562
▁길이	-1563
▁디자인	-1564
▁아프리카	-1565
▁ᄇ	-1566
▁개봉	-1567
야마	-1568
▁1997	-1569
▁준비	-1570
젝트	-1571
나무	-1572
▁정하	-1573
▁덴	-1574
▁베트남	-1575
▁문서	-1576
▁본선	-1577
▁촉	-1578
▁빛	-1579
▁방문	-1580
▁광주	-1581
▁칠	-1582
일랜드	-1583
▁사진	-1584
▁캠	-1585
▁신문	-1586
▁정권	-1587
▁가문	-1588
▁유전	-1589
▁경험	-1590
▁정확	-1591
▁믿	-1592
▁가정	-1593
▁드러	-1594
메달	-1595
▁구분	-1596
▁몬	-1597
st	-1598
▁성적	-1599
▁대로	-1600
▁폴란드	-1601
▁1996	-1602
▁요리	-1603
▁The	-1604
▁제조	-1605
▁그림	-1606
▁평화	-1607
▁1995	-1608
▁비디오	-1609
▁핀	-1610
▁오늘날	-1611
▁원인	-1612
▁amp	-1613
▁부인	-1614
▁통과	-1615
▁용어	-1616
▁부여	-1617
▁왕조	-1618
▁찬	-1619
▁아직	-1620
▁32	-1621
▁정리	-1622
▁70	-1623
▁려는	-1624
▁일제	-1625
▁값	-1626
▁추진	-1627
▁ㄹ	-1628
▁깨	-1629
▁아마	-1630
▁프로젝트	-1631
▁런던	-1632
스로	-1633
▁방어	-1634
특별	-1635
▁올라	-1636
▁병원	-1637
▁이곳	-1638
▁신라	-1639
▁종합	-1640
▁민주당	-1641
▁널리	-1642
▁은퇴	-1643
▁멸	-1644
스턴	-1645
▁해석	-1646
▁입장	-1647
▁프레	-1648
▁으므로	-1649
▁경쟁	-1650
▁통치	-1651
▁경영	-1652
인트	-1653
▁슈퍼	-1654
▁영역	-1655
▁끼	-1656
▁500	-1657
▁발달	-1658
▁이듬	-1659
▁폐지	-1660
▁노력	-1661
▁인터넷	-1662
▁훈련	-1663
아들이	-1664
▁보도	-1665
▁죽이	-1666
▁파괴	-1667
웨이	-1668
▁미사	-1669
▁츠	-1670
▁제주	-1671
▁그런	-1672
▁주제	-1673
▁제안	-1674
▁총리	-1675
▁꼬	-1676
▁the	-1677
▁부정	-1678
am	-1679
▁놀	-1680
레일	-1681
▁면적	-1682
▁회장	-1683
▁80	-1684
▁주연	-1685
▁기여	-1686
▁지키	-1687
▁완전히	-1688
▁미술	-1689
▁모으	-1690
▁서부	-1691
▁만화	-1692
▁유래	-1693
▁접하	-1694
▁이듬해	-1695
▁번호	-1696
▁요청	-1697
리트	-1698
▁국회의원	-1699
▁188	-1700
▁빅	-1701
▁경기장	-1702
▁정상	-1703
▁도서	-1704
▁야마	-1705
▁식민	-1706
▁남성	-1707
▁자주	-1708
▁생물	-1709
▁연맹	-1710
▁투수	-1711
▁UE	-1712
라인	-1713
▁법률	-1714
▁경계	-1715
▁궤	-1716
▁동부	-1717
▁벌이	-1718
▁+	-1719
▁폰	-1720
▁무기	-1721
▁1994	-1722
▁린	-1723
il	-1724
▁1970	-1725
▁행성	-1726
▁돕	-1727
▁나뉘	-1728
▁금지	-1729
▁움직	-1730
▁수용	-1731
▁UEFA	-1732
▁등록	-1733
▁소재	-1734
▁인식	-1735
▁제한	-1736
톨릭	-1737
▁삼성	-1738
▁ᄇ니다	-1739
▁철학	-1740
▁펼	-1741
▁연구소	-1742
▁무대	-1743
▁바탕	-1744
▁아시	-1745
▁외교	-1746
▁영토	-1747
ac	-1748
▁더불	-1749
▁빠지	-1750
▁라디오	-1751
머지	-1752
▁나머지	-1753
▁접근	-1754
▁반면	-1755
▁지진	-1756
▁스스로	-1757
▁지대	-1758
▁강원	-1759
▁KBS	-1760
▁노르	-1761
▁다리	-1762
▁발사	-1763
▁거부	-1764
▁뇌	-1765
▁조각	-1766
▁업무	-1767
▁박물	-1768
▁오래	-1769
▁돌아가	-1770
▁받아들이	-1771
▁뉴스	-1772
▁표기	-1773
▁정식	-1774
▁마찬	-1775
▁마찬가지	-1776
▁벽	-1777
▁오스	-1778
▁아일랜드	-1779
▁결성	-1780
▁붙이	-1781
▁상호	-1782
▁서식	-1783
▁은행	-1784
▁필리	-1785
▁논란	-1786
▁굴	-1787
▁펜	-1788
▁의식	-1789
▁1992	-1790
▁다수	-1791
▁보수	-1792
▁이렇	-1793
▁기초	-1794
▁소리	-1795
▁이기	-1796
▁짧	-1797
▁득점	-1798
▁ㅕ	-1799
▁공작	-1800
▁45	-1801
▁가톨릭	-1802
▁복귀	-1803
요일	-1804
▁주의	-1805
▁박사	-1806
▁성격	-1807
▁아카	-1808
▁트리	-1809
임스	-1810
▁아도	-1811
▁바다	-1812
▁임시	-1813
▁스웨	-1814
ro	-1815
▁실제로	-1816
시코	-1817
▁수학	-1818
▁로써	-1819
▁장애	-1820
▁해결	-1821
▁총선	-1822
▁36	-1823
▁패배	-1824
▁그대로	-1825
모토	-1826
▁윌리	-1827
▁of	-1828
ed	-1829
▁검사	-1830
워드	-1831
▁지도자	-1832
▁장소	-1833
▁느끼	-1834
▁초대	-1835
▁브라질	-1836
▁습니다	-1837
▁유로	-1838
▁긴	-1839
▁에이	-1840
▁마이크	-1841
▁이스	-1842
▁강력	-1843
트리	-1844
▁박물관	-1845
▁스위	-1846
▁여행	-1847
▁차원	-1848
▁제시	-1849
▁표시	-1850
▁여름	-1851
▁묘사	-1852
▁오브	-1853
▁카드	-1854
▁기구	-1855
▁식물	-1856
▁화학	-1857
▁단순	-1858
▁인사	-1859
▁1960	-1860
▁집합	-1861
ig	-1862
▁안전	-1863
▁차트	-1864
▁이외	-1865
▁계열	-1866
▁관측	-1867
▁유니	-1868
▁연극	-1869
▁권력	-1870
▁뛰어나	-1871
▁활용	-1872
▁1991	-1873
토리	-1874
▁스웨덴	-1875
▁무역	-1876
▁히로	-1877
▁싸우	-1878
▁멕	-1879
▁오스트리아	-1880
▁꾸	-1881
▁먼저	-1882
▁회원	-1883
▁지적	-1884
▁기계	-1885
▁아무	-1886
▁디지	-1887
▁파일	-1888
▁자라	-1889
▁캐릭	-1890
▁개국	-1891
부르크	-1892
로나	-1893
▁취하	-1894
▁근처	-1895
▁형제	-1896
▁1993	-1897
▁33	-1898
▁반란	-1899
▁조성	-1900
레일리아	-1901
▁위험	-1902
▁중단	-1903
▁중간	-1904
▁붕	-1905
▁만큼	-1906
▁세대	-1907
▁소프트웨어	-1908
▁흡	-1909
▁발행	-1910
▁일정	-1911
▁분포	-1912
▁도착	-1913
▁시행	-1914
배우	-1915
베이	-1916
▁기자	-1917
▁협력	-1918
▁다만	-1919
▁스코	-1920
▁스튜	-1921
트로	-1922
▁량	-1923
▁띠	-1924
특별시	-1925
od	-1926
버트	-1927
▁여객	-1928
▁사이트	-1929
▁캐릭터	-1930
▁ᆫ가	-1931
▁서울특별시	-1932
▁죽음	-1933
▁죄	-1934
▁하루	-1935
▁단어	-1936
사카	-1937
▁들어오	-1938
▁186	-1939
▁해안	-1940
▁윈도	-1941
▁지하철	-1942
주시	-1943
▁파견	-1944
▁",	-1945
▁렌	-1946
ve	-1947
▁세상	-1948
▁수많	-1949
▁연장	-1950
워크	-1951
니스	-1952
▁삶	-1953
▁카이	-1954
▁혜	-1955
▁내려	-1956
▁순위	-1957
as	-1958
▁코드	-1959
▁겪	-1960
▁공장	-1961
▁투자	-1962
▁제기	-1963
▁태평	-1964
▁혐	-1965
나이	-1966
▁다카	-1967
▁감소	-1968
▁본부	-1969
▁전시	-1970
▁내각	-1971
▁뮤직	-1972
▁오스트레일리아	-1973
▁근거	-1974
▁후기	-1975
▁이라고	-1976
▁확대	-1977
▁경상남도	-1978
지션	-1979
▁번역	-1980
▁생성	-1981
▁케이	-1982
▁옹	-1983
소년	-1984
▁윌리엄	-1985
▁귀족	-1986
▁?	-1987
▁듣	-1988
▁지상	-1989
▁경상북도	-1990
▁지식	-1991
▁위기	-1992
▁네트	-1993
▁보유	-1994
▁보존	-1995
▁균	-1996
▁양식	-1997
▁유형	-1998
▁구하	-1999
▁달성	-2000
무원	-2001
▁숨	-2002
▁관광	-2003
▁1988	-2004
▁동생	-2005
▁상징	-2006
▁멜	-2007
▁촬	-2008
▁전략	-2009
▁유대	-2010
▁187	-2011
▁수사	-2012
▁멕시코	-2013
▁극장	-2014
▁래	-2015
▁h	-2016
▁당선	-2017
▁완성	-2018
▁유리	-2019
▁성립	-2020
▁캘	-2021
▁촌	-2022
▁상업	-2023
▁영상	-2024
▁원소	-2025
▁대응	-2026
▁학위	-2027
▁디지털	-2028
▁근무	-2029
▁이렇게	-2030
▁님	-2031
▁계승	-2032
▁특수	-2033
▁짓	-2034
▁촬영	-2035
▁34	-2036
▁단위	-2037
▁체포	-2038
티아	-2039
▁이슬	-2040
아내	-2041
▁흐르	-2042
▁옆	-2043
▁나중	-2044
▁수비	-2045
▁권리	-2046
▁식민지	-2047
▁몇몇	-2048
▁싶	-2049
▁38	-2050
▁발매되	-2051
▁체결	-2052
▁코치	-2053
▁전달	-2054
▁이집	-2055
가리	-2056
회사	-2057
▁이집트	-2058
▁미래	-2059
id	-2060
▁마사	-2061
▁생명	-2062
▁벌어지	-2063
▁알렉산	-2064
▁판단	-2065
▁걸리	-2066
▁듀	-2067
▁낳	-2068
▁90	-2069
아시아	-2070
▁맹	-2071
▁국왕	-2072
▁타이틀	-2073
▁아내	-2074
▁이란	-2075
▁시티	-2076
▁종목	-2077
▁직후	-2078
가와	-2079
▁헨	-2080
▁승격	-2081
▁관찰	-2082
▁1989	-2083
▁이주	-2084
▁톤	-2085
▁시청	-2086
▁측정	-2087
▁자본	-2088
▁률	-2089
▁크로	-2090
▁펼치	-2091
▁주식	-2092
▁젊	-2093
▁맞추	-2094
▁틀	-2095
▁미군	-2096
모리	-2097
▁대륙	-2098
▁즐	-2099
▁소수	-2100
▁개통	-2101
▁전환	-2102
▁밑	-2103
▁도서관	-2104
▁48	-2105
▁2021	-2106
▁설정	-2107
ec	-2108
▁채널	-2109
▁동계	-2110
▁엘리	-2111
▁얼마	-2112
us	-2113
▁세르	-2114
▁스키	-2115
▁라인	-2116
▁새로	-2117
▁의견	-2118
▁특성	-2119
▁홍콩	-2120
▁정치인	-2121
▁쌓	-2122
▁',	-2123
▁납	-2124
NA	-2125
▁개정	-2126
▁문화재	-2127
▁시위	-2128
and	-2129
▁포르투	-2130
▁신경	-2131
▁종료	-2132
▁텍	-2133
▁지위	-2134
▁답	-2135
▁취임	-2136
▁셰	-2137
▁제정	-2138
▁미사일	-2139
▁상하	-2140
▁달하	-2141
▁1950	-2142
▁기획	-2143
▁|	-2144
▁헝	-2145
▁주어지	-2146
▁은하	-2147
▁300	-2148
▁교체	-2149
▁사회주의	-2150
▁결승전	-2151
▁아라	-2152
▁으면서	-2153
디아	-2154
▁후쿠	-2155
▁예수	-2156
▁주인공	-2157
▁본관	-2158
▁MBC	-2159
▁천황	-2160
스티	-2161
▁청년	-2162
▁범죄	-2163
▁빼	-2164
▁전차	-2165
▁주목	-2166
코드	-2167
▁소개	-2168
▁벗	-2169
▁출생	-2170
▁해외	-2171
▁충돌	-2172
ad	-2173
▁제임스	-2174
▁았었	-2175
▁녹음	-2176
▁장기	-2177
▁아키	-2178
▁수정	-2179
▁셀	-2180
▁춘	-2181
▁e	-2182
▁계산	-2183
▁비용	-2184
교회	-2185
▁개선	-2186
▁스티	-2187
▁전라남도	-2188
전히	-2189
▁본래	-2190
▁남북	-2191
▁1945	-2192
▁음식	-2193
▁모이	-2194
▁바이러스	-2195
▁즉위	-2196
▁비밀	-2197
▁계기	-2198
▁자격	-2199
▁합류	-2200
리학	-2201
▁공부	-2202
▁건강	-2203
▁소장	-2204
▁공급	-2205
▁건너	-2206
▁카운	-2207
▁부모	-2208
▁이래	-2209
ent	-2210
▁펠	-2211
▁만드	-2212
▁원정	-2213
▁배경	-2214
▁누구	-2215
▁홈런	-2216
▁제거	-2217
▁네트워크	-2218
스카	-2219
▁물론	-2220
▁체육	-2221
▁에드	-2222
▁궤도	-2223
▁털	-2224
50	-2225
▁각종	-2226
▁인근	-2227
▁ㅏㅆ	-2228
▁시내	-2229
▁거대	-2230
▁컬	-2231
▁오후	-2232
▁작성	-2233
보이	-2234
▁명예	-2235
▁신학	-2236
▁집중	-2237
▁자원	-2238
▁가입	-2239
▁감염	-2240
▁입학	-2241
▁가격	-2242
▁공군	-2243
▁왼	-2244
▁읽	-2245
▁베네	-2246
▁랑	-2247
▁객	-2248
▁피아	-2249
▁국경	-2250
▁군인	-2251
▁전사	-2252
▁롤	-2253
베르	-2254
▁병력	-2255
▁천문	-2256
라도	-2257
▁강조	-2258
▁저항	-2259
▁통제	-2260
▁성우	-2261
▁이슬람	-2262
티나	-2263
▁측면	-2264
▁울산	-2265
▁명단	-2266
▁아우	-2267
▁찰	-2268
▁농업	-2269
▁줄이	-2270
▁신호	-2271
▁포지션	-2272
▁소송	-2273
피아	-2274
▁인수	-2275
▁만약	-2276
▁병사	-2277
▁세이	-2278
▁학문	-2279
리포	-2280
▁기후	-2281
▁질량	-2282
▁블랙	-2283
▁실행	-2284
▁나서	-2285
▁너무	-2286
▁기회	-2287
▁St	-2288
▁플로	-2289
▁이번	-2290
▁피하	-2291
▁터미	-2292
▁콩	-2293
ot	-2294
▁오른	-2295
▁터키	-2296
도로	-2297
▁증명	-2298
▁변호	-2299
▁최소	-2300
▁태평양	-2301
니어	-2302
▁겨울	-2303
▁광고	-2304
▁약간	-2305
▁강원도	-2306
▁정착	-2307
▁노동자	-2308
▁엑	-2309
▁비트	-2310
▁x	-2311
▁마리아	-2312
▁쉬	-2313
동안	-2314
▁무장	-2315
▁잎	-2316
▁외부	-2317
▁미디어	-2318
▁해방	-2319
un	-2320
▁환자	-2321
▁몽골	-2322
▁쇠	-2323
▁37	-2324
▁바라	-2325
▁사라지	-2326
▁국방	-2327
▁바람	-2328
ow	-2329
▁전반	-2330
▁편집	-2331
▁제목	-2332
▁마쓰	-2333
▁냉	-2334
▁in	-2335
▁도중	-2336
▁터미널	-2337
▁ᆫ다면	-2338
▁무렵	-2339
▁표면	-2340
스키	-2341
▁마련	-2342
▁지점	-2343
철도	-2344
▁금융	-2345
▁허용	-2346
▁라운드	-2347
▁혐의	-2348
▁충분	-2349
▁밀도	-2350
▁재산	-2351
▁가스	-2352
소리	-2353
▁유도	-2354
▁카르	-2355
▁1987	-2356
▁여전히	-2357
▁빨	-2358
▁ㅕ서	-2359
오카	-2360
▁힐	-2361
▁그해	-2362
▁학년	-2363
▁인디	-2364
▁루이	-2365
▁오리	-2366
▁합병	-2367
▁고전	-2368
▁가져	-2369
▁현실	-2370
▁전력	-2371
▁민간	-2372
▁보고	-2373
▁윈도우	-2374
▁헝가리	-2375
▁뒷	-2376
▁숲	-2377
▁재직	-2378
▁오사카	-2379
▁꼬리	-2380
▁충청남도	-2381
▁전역	-2382
▁양성	-2383
▁포르투갈	-2384
▁킹	-2385
▁41	-2386
▁영화배우	-2387
▁재정	-2388
▁령	-2389
▁w	-2390
▁등급	-2391
마크	-2392
▁붕괴	-2393
▁후지	-2394
▁계급	-2395
▁적극	-2396
▁행하	-2397
▁동료	-2398
▁선수단	-2399
드로	-2400
▁강제	-2401
▁51	-2402
▁공주	-2403
▁라이브	-2404
▁1986	-2405
▁위협	-2406
▁공공	-2407
▁엔터	-2408
▁대대	-2409
▁이하	-2410
ur	-2411
▁조치	-2412
▁위원장	-2413
▁1984	-2414
▁근대	-2415
▁스튜디오	-2416
▁승인	-2417
▁봄	-2418
▁전선	-2419
▁군주	-2420
▁캘리포	-2421
▁유엔	-2422
▁온도	-2423
▁수입	-2424
▁구축	-2425
▁이미지	-2426
▁범위	-2427
▁대수	-2428
▁이제	-2429
▁점차	-2430
▁샌	-2431
▁업체	-2432
▁꿈	-2433
▁논문	-2434
▁원칙	-2435
▁클라	-2436
▁임무	-2437
▁항상	-2438
▁둥	-2439
▁확보	-2440
▁출발	-2441
▁경력	-2442
▁위성	-2443
▁다섯	-2444
▁공산당	-2445
▁거래	-2446
▁양자	-2447
▁교사	-2448
▁앞서	-2449
러지	-2450
▁전개	-2451
▁고구	-2452
▁캘리포니아	-2453
▁채택	-2454
▁회복	-2455
▁대학원	-2456
▁잭	-2457
▁수단	-2458
▁성인	-2459
▁올라가	-2460
▁든	-2461
▁공업	-2462
▁증거	-2463
마스	-2464
▁토론	-2465
▁수립	-2466
▁핀란드	-2467
▁필리핀	-2468
▁섭	-2469
▁강의	-2470
▁잡지	-2471
주교	-2472
테르	-2473
▁드래	-2474
▁첨	-2475
▁합의	-2476
▁아시안	-2477
ch	-2478
▁남아	-2479
▁어떻	-2480
▁그래서	-2481
▁39	-2482
▁얼굴	-2483
▁남편	-2484
▁만족	-2485
▁사례	-2486
▁스파	-2487
▁개편	-2488
▁400	-2489
▁일원	-2490
▁의료	-2491
▁선생	-2492
▁부근	-2493
▁기지	-2494
▁라며	-2495
▁매년	-2496
▁폭발	-2497
바이	-2498
▁시인	-2499
▁나카	-2500
▁앞두	-2501
고리	-2502
▁욕	-2503
▁이스라	-2504
▁간주	-2505
▁이승	-2506
▁스위스	-2507
▁1985	-2508
▁장면	-2509
▁끊	-2510
▁모스크	-2511
▁붉	-2512
▁장비	-2513
▁64	-2514
▁대형	-2515
▁군단	-2516
▁종종	-2517
▁아름	-2518
▁토지	-2519
▁튀	-2520
로드	-2521
다리	-2522
▁스리	-2523
▁아주	-2524
▁대기	-2525
▁불가	-2526
▁둘러	-2527
데미	-2528
▁뜨	-2529
▁규칙	-2530
▁경향	-2531
ay	-2532
▁이스라엘	-2533
▁움직이	-2534
ir	-2535
▁경주	-2536
▁기대	-2537
▁어린	-2538
▁분자	-2539
▁종이	-2540
▁ㅏ서	-2541
▁게이	-2542
키아	-2543
▁수원	-2544
▁항성	-2545
▁캄	-2546
ut	-2547
▁라면	-2548
▁II	-2549
▁조합	-2550
▁기억	-2551
▁심하	-2552
▁낭	-2553
▁확실	-2554
▁진화	-2555
▁에게서	-2556
▁저지	-2557
▁아랍	-2558
▁그곳	-2559
▁해체	-2560
▁귀국	-2561
▁맛	-2562
백질	-2563
▁탑재	-2564
레이드	-2565
고기	-2566
우드	-2567
▁대장	-2568
▁43	-2569
▁레코드	-2570
um	-2571
▁좀	-2572
어들	-2573
▁강점	-2574
▁향상	-2575
▁서양	-2576
▁짐	-2577
▁장식	-2578
▁아나	-2579
▁아카데미	-2580
▁스피	-2581
▁br	-2582
▁신화	-2583
▁평양	-2584
▁투어	-2585
▁변하	-2586
▁클래	-2587
▁고양	-2588
▁침공	-2589
▁아메리카	-2590
▁아름답	-2591
▁보장	-2592
▁청나라	-2593
▁융	-2594
im	-2595
▁청소년	-2596
▁불과	-2597
▁의학	-2598
▁폼	-2599
▁42	-2600
▁선고	-2601
▁박쥐	-2602
▁감정	-2603
요시	-2604
▁고구려	-2605
오스	-2606
▁남동	-2607
▁랭	-2608
▁자금	-2609
▁사후	-2610
▁켄	-2611
▁가로	-2612
▁가사	-2613
▁새기	-2614
▁성과	-2615
▁보병	-2616
▁잠시	-2617
보드	-2618
▁카운티	-2619
▁메이저	-2620
▁스타일	-2621
▁에피	-2622
네스	-2623
▁카메	-2624
▁독자	-2625
▁이끄	-2626
ver	-2627
▁고문	-2628
▁소년	-2629
▁신설	-2630
▁우선	-2631
▁나치	-2632
▁살해	-2633
▁단지	-2634
▁1982	-2635
▁만주	-2636
▁55	-2637
▁확정	-2638
▁중화민국	-2639
타인	-2640
▁우수	-2641
▁단백질	-2642
▁숭	-2643
▁라틴	-2644
무르	-2645
에르	-2646
라노	-2647
▁스카	-2648
▁지시	-2649
▁편입	-2650
▁신앙	-2651
▁합치	-2652
▁함대	-2653
틀랜드	-2654
▁복잡	-2655
▁스케	-2656
▁철도역	-2657
▁삭	-2658
▁나폴	-2659
▁비율	-2660
▁예상	-2661
▁광역시	-2662
▁차별	-2663
네시아	-2664
▁왕위	-2665
▁태풍	-2666
▁구체	-2667
▁검찰	-2668
▁의장	-2669
▁44	-2670
▁마크	-2671
▁전화	-2672
▁덴마크	-2673
▁1983	-2674
다이	-2675
▁재단	-2676
누스	-2677
▁창설	-2678
▁냐	-2679
뜨리	-2680
▁i	-2681
▁세종	-2682
▁법인	-2683
▁고향	-2684
▁동의	-2685
▁LG	-2686
▁성당	-2687
▁온라인	-2688
일러	-2689
▁판결	-2690
▁대립	-2691
▁공유	-2692
▁역대	-2693
▁짜	-2694
트라	-2695
▁전설	-2696
FC	-2697
▁참석	-2698
▁브리	-2699
▁가하	-2700
▁묻	-2701
▁보급	-2702
▁선거구	-2703
▁반도	-2704
▁솔로	-2705
▁수출	-2706
▁47	-2707
▁육상	-2708
▁킬	-2709
▁삼국	-2710
▁하늘	-2711
▁둘러싸	-2712
▁브랜드	-2713
뿌리	-2714
운동	-2715
▁어도	-2716
▁유학	-2717
싱턴	-2718
▁고정	-2719
없이	-2720
▁노예	-2721
▁무엇	-2722
▁협상	-2723
의회	-2724
▁핵심	-2725
▁집행	-2726
▁본격	-2727
▁저장	-2728
▁후손	-2729
비드	-2730
이크	-2731
▁카를	-2732
▁애플	-2733
▁헤이	-2734
반도	-2735
▁75	-2736
오프	-2737
▁보안	-2738
▁탄생	-2739
하라	-2740
▁초반	-2741
▁자세	-2742
▁184	-2743
▁180	-2744
▁강점기	-2745
▁오픈	-2746
▁대비	-2747
▁산맥	-2748
▁중반	-2749
▁사전	-2750
▁옷	-2751
▁대항	-2752
▁마드리	-2753
▁Z	-2754
▁주교	-2755
▁암살	-2756
▁이성	-2757
▁회전	-2758
▁사우	-2759
▁숫	-2760
▁아르헨	-2761
원군	-2762
▁전혀	-2763
셔널	-2764
▁연고	-2765
각형	-2766
문화	-2767
▁플랫	-2768
▁로버트	-2769
▁마드리드	-2770
▁베이스	-2771
▁1972	-2772
▁법칙	-2773
▁권한	-2774
▁의무	-2775
▁이익	-2776
▁어린이	-2777
리스트	-2778
▁프란	-2779
▁단일	-2780
▁켈	-2781
▁공기	-2782
▁직원	-2783
▁조금	-2784
소드	-2785
▁인상	-2786
▁아르헨티나	-2787
▁46	-2788
바르	-2789
▁전용	-2790
▁공학	-2791
▁순서	-2792
▁1920	-2793
▁말기	-2794
▁베를	-2795
▁시각	-2796
레이션	-2797
▁운전	-2798
▁요한	-2799
터리	-2800
▁공포	-2801
▁가르치	-2802
▁유적	-2803
▁비난	-2804
▁잘못	-2805
▁모리	-2806
▁사항	-2807
▁수여	-2808
▁별도	-2809
▁중심지	-2810
▁아스	-2811
▁1979	-2812
CA	-2813
▁아미	-2814
▁상품	-2815
▁흔히	-2816
▁밀리	-2817
▁보조	-2818
▁원주	-2819
▁스크	-2820
▁협정	-2821
▁덮	-2822
▁전라북도	-2823
▁창조	-2824
▁변호사	-2825
▁워싱턴	-2826
▁효소	-2827
▁전후	-2828
▁롯	-2829
▁글로	-2830
▁아파	-2831
▁인권	-2832
▁기하	-2833
▁관료	-2834
▁kg	-2835
▁CD	-2836
정부	-2837
▁투입	-2838
▁통계	-2839
▁파크	-2840
▁마시	-2841
▁작곡가	-2842
▁방면	-2843
▁소식	-2844
퍼드	-2845
▁장착	-2846
▁1930	-2847
▁넘어	-2848
ra	-2849
▁우크	-2850
▁심각	-2851
▁현장	-2852
▁셋	-2853
▁레드	-2854
무라	-2855
▁정복	-2856
▁항복	-2857
▁저서	-2858
▁훨	-2859
▁1981	-2860
▁갈등	-2861
▁In	-2862
▁엠	-2863
▁150	-2864
▁아침	-2865
▁금메달	-2866
▁1973	-2867
▁오히	-2868
▁하드	-2869
▁중세	-2870
▁본인	-2871
▁놓이	-2872
▁어떻게	-2873
▁호텔	-2874
▁헨리	-2875
퍼스	-2876
▁공무원	-2877
사키	-2878
10	-2879
▁니콜	-2880
▁훨씬	-2881
▁물러	-2882
▁공산주의	-2883
▁벡	-2884
▁교류	-2885
▁출마	-2886
▁마이클	-2887
▁공화	-2888
▁논의	-2889
▁성경	-2890
▁플라	-2891
▁v	-2892
▁ㄴ다	-2893
▁요새	-2894
▁건국	-2895
▁교토	-2896
▁무리	-2897
겨나	-2898
▁오른쪽	-2899
▁노스	-2900
▁오랜	-2901
os	-2902
리어	-2903
▁택	-2904
▁중부	-2905
▁뿌리	-2906
▁건조	-2907
▁패하	-2908
▁인류	-2909
▁코미	-2910
▁유전자	-2911
▁김정	-2912
▁한때	-2913
▁연합군	-2914
▁산하	-2915
▁오토	-2916
▁인정받	-2917
▁빙	-2918
▁방출	-2919
▁플레이어	-2920
▁왼쪽	-2921
▁세인트	-2922
▁예산	-2923
▁추측	-2924
▁드러나	-2925
▁형사	-2926
▁라도	-2927
▁로드	-2928
▁금속	-2929
▁창립	-2930
▁서기	-2931
▁성질	-2932
▁벗어나	-2933
▁주위	-2934
▁1940	-2935
30	-2936
▁투쟁	-2937
▁찍	-2938
▁베이징	-2939
▁아프	-2940
▁던지	-2941
일보	-2942
▁태국	-2943
▁릴	-2944
▁에어	-2945
▁원작	-2946
▁사태	-2947
▁1974	-2948
▁185	-2949
▁오전	-2950
▁사령관	-2951
▁노르웨이	-2952
BO	-2953
▁절대	-2954
▁에피소드	-2955
em	-2956
▁북서	-2957
▁제자	-2958
▁코스	-2959
▁탁	-2960
▁복합	-2961
▁멸망	-2962
▁플레이오프	-2963
▁군수	-2964
ter	-2965
▁운용	-2966
▁효율	-2967
▁반복	-2968
▁논쟁	-2969
▁모스크바	-2970
▁가져오	-2971
▁뽑	-2972
▁제출	-2973
▁집안	-2974
▁구별	-2975
▁읍	-2976
▁SBS	-2977
▁정비	-2978
▁메시	-2979
▁입자	-2980
▁스코틀랜드	-2981
▁오히려	-2982
카와	-2983
▁해양	-2984
▁합성	-2985
▁전철	-2986
▁1948	-2987
▁마침	-2988
▁사법	-2989
▁노부	-2990
▁중대	-2991
▁숫자	-2992
▁거절	-2993
▁포위	-2994
붙이	-2995
▁인종	-2996
▁주기	-2997
▁흡수	-2998
▁미니	-2999
아오	-3000
듀서	-3001
▁프로듀서	-3002
▁인공	-3003
▁해상	-3004
▁연산	-3005
▁퍼지	-3006
▁블루	-3007
▁빌리	-3008
▁원리	-3009
머스	-3010
▁54	-3011
▁연관	-3012
▁출장	-3013
▁인조	-3014
▁댄	-3015
▁각본	-3016
▁시점	-3017
▁1968	-3018
▁활발	-3019
▁포기	-3020
▁델	-3021
▁목사	-3022
▁1976	-3023
▁웨스트	-3024
▁수송	-3025
▁슬로	-3026
▁베를린	-3027
▁인터뷰	-3028
▁신체	-3029
▁넘기	-3030
▁개시	-3031
▁밖에	-3032
▁이민	-3033
▁소녀	-3034
▁경성	-3035
▁우스	-3036
▁취급	-3037
▁북동	-3038
▁주전	-3039
▁출입	-3040
▁전공	-3041
▁건립	-3042
▁즐기	-3043
▁1975	-3044
▁고용	-3045
▁보스	-3046
▁명성	-3047
▁안타	-3048
▁분쟁	-3049
▁동원	-3050
▁디스	-3051
▁파라	-3052
▁음력	-3053
▁실리	-3054
데스	-3055
▁히데	-3056
▁사령부	-3057
▁주택	-3058
도르	-3059
▁취득	-3060
op	-3061
▁장악	-3062
나이티	-3063
▁비록	-3064
▁축제	-3065
시스	-3066
▁트랙	-3067
▁신성	-3068
▁구속	-3069
▁활성	-3070
▁국도	-3071
▁유나이티	-3072
▁진보	-3073
▁농민	-3074
▁끝내	-3075
▁봉하	-3076
▁영화제	-3077
▁견해	-3078
▁보컬	-3079
▁전부	-3080
▁일치	-3081
▁하나님	-3082
▁1978	-3083
▁56	-3084
▁프라	-3085
▁총독	-3086
서트	-3087
▁1971	-3088
▁미드	-3089
▁국장	-3090
▁갤	-3091
▁불법	-3092
ag	-3093
▁고유	-3094
▁늘어나	-3095
▁부활	-3096
▁텐	-3097
▁1963	-3098
▁소스	-3099
▁직전	-3100
▁더라도	-3101
▁52	-3102
에트	-3103
▁보험	-3104
▁관점	-3105
▁북아	-3106
산시	-3107
▁유물	-3108
▁후원	-3109
▁49	-3110
▁편지	-3111
▁대리	-3112
▁정체	-3113
▁약속	-3114
▁폭력	-3115
▁상당히	-3116
▁도달	-3117
▁자이	-3118
▁하위	-3119
▁65	-3120
▁혼란	-3121
▁코미디	-3122
키스탄	-3123
▁주관	-3124
다가	-3125
▁한자	-3126
▁교차	-3127
▁연료	-3128
▁학습	-3129
▁누리	-3130
▁항공기	-3131
비치	-3132
▁철수	-3133
▁포도	-3134
▁타이완	-3135
▁수술	-3136
▁시리아	-3137
▁닌	-3138
▁그리스도	-3139
▁스미	-3140
ce	-3141
▁여부	-3142
▁직업	-3143
세이	-3144
▁여객철도	-3145
▁1969	-3146
메리	-3147
▁다며	-3148
▁반영	-3149
▁아테	-3150
▁임금	-3151
▁선교	-3152
▁물러나	-3153
▁관직	-3154
기에	-3155
▁179	-3156
▁천체	-3157
릭스	-3158
▁Q	-3159
▁고종	-3160
자기	-3161
▁브레	-3162
▁한국어	-3163
젤레스	-3164
▁랜	-3165
▁백제	-3166
▁명명	-3167
▁상륙	-3168
쿠라	-3169
▁팝	-3170
▁수집	-3171
▁대화	-3172
▁논리	-3173
▁의존	-3174
▁장교	-3175
▁본사	-3176
▁넷	-3177
▁00	-3178
리케	-3179
▁성능	-3180
▁미나	-3181
▁모시	-3182
▁제어	-3183
▁심리	-3184
▁주간	-3185
▁테러	-3186
▁데이비드	-3187
어스	-3188
▁1946	-3189
▁교환	-3190
▁부임	-3191
▁화물	-3192
▁십자	-3193
▁아사	-3194
▁보관	-3195
▁일대	-3196
▁백작	-3197
▁학술	-3198
▁톰	-3199
▁프리미	-3200
▁영업	-3201
▁그런데	-3202
▁좁	-3203
▁콘서트	-3204
▁정지	-3205
▁주식회사	-3206
라비아	-3207
▁폴리	-3208
▁개체	-3209
▁도구	-3210
▁해산	-3211
▁판서	-3212
▁나아가	-3213
공항	-3214
▁허가	-3215
▁불상	-3216
▁소방	-3217
▁53	-3218
OS	-3219
▁전파	-3220
▁스마	-3221
▁자살	-3222
▁상승	-3223
▁반발	-3224
▁전문가	-3225
▁프로세	-3226
▁하우스	-3227
▁거기	-3228
▁연재	-3229
▁김영	-3230
▁제일	-3231
▁박정	-3232
▁방사	-3233
▁영향력	-3234
▁핑	-3235
▁그레	-3236
▁원하	-3237
▁코로나	-3238
▁진입	-3239
oc	-3240
▁살인	-3241
▁대략	-3242
▁1964	-3243
미터	-3244
병대	-3245
▁간단	-3246
▁정원	-3247
▁먹이	-3248
▁헤르	-3249
▁공통	-3250
▁고리	-3251
▁니시	-3252
▁드리	-3253
▁리스	-3254
▁화성	-3255
▁충청북도	-3256
▁보건	-3257
▁재료	-3258
▁영입	-3259
▁신분	-3260
▁베스트	-3261
▁미터	-3262
▁약하	-3263
▁겐	-3264
▁학부	-3265
▁US	-3266
▁스프	-3267
▁피아노	-3268
▁소비에트	-3269
이어	-3270
▁승진	-3271
▁파트	-3272
▁사장	-3273
▁항구	-3274
▁가을	-3275
▁벨기에	-3276
▁꼭	-3277
▁포트	-3278
▁외국인	-3279
▁서버	-3280
▁학원	-3281
▁도망	-3282
▁부장	-3283
▁고도	-3284
▁한반도	-3285
▁기도	-3286
▁and	-3287
노스	-3288
▁지붕	-3289
▁진압	-3290
▁국제공항	-3291
▁발언	-3292
ri	-3293
▁1000	-3294
▁58	-3295
▁99	-3296
▁인도네시아	-3297
▁학회	-3298
▁감사	-3299
▁사운드	-3300
오르	-3301
▁누르	-3302
▁탈출	-3303
▁그치	-3304
▁탈락	-3305
▁락	-3306
▁다스	-3307
▁횡	-3308
▁질병	-3309
▁현역	-3310
▁구성원	-3311
▁닥	-3312
▁시호	-3313
▁루이스	-3314
▁머무르	-3315
▁주년	-3316
▁채용	-3317
하마	-3318
▁리더	-3319
▁스토	-3320
▁의도	-3321
▁쫓	-3322
▁브루	-3323
▁참전	-3324
▁창단	-3325
▁콤	-3326
▁통상	-3327
▁트랜	-3328
▁공동체	-3329
▁식품	-3330
▁신청	-3331
▁픽	-3332
▁벼	-3333
▁합격	-3334
▁복무	-3335
▁PC	-3336
▁계통	-3337
▁장수	-3338
천군	-3339
▁임대	-3340
▁응용	-3341
▁변환	-3342
▁1977	-3343
▁모드	-3344
아버지	-3345
저우	-3346
▁조작	-3347
▁망명	-3348
▁포로	-3349
▁요코	-3350
▁SK	-3351
▁위반	-3352
▁임의	-3353
▁작사	-3354
▁민법	-3355
▁에도	-3356
▁문헌	-3357
▁1949	-3358
▁말레이	-3359
▁친일	-3360
▁롯데	-3361
▁화면	-3362
▁띄	-3363
▁마케	-3364
▁페이	-3365
프리	-3366
▁트라	-3367
▁부부	-3368
성군	-3369
▁청구	-3370
▁문장	-3371
▁..	-3372
▁라이트	-3373
▁로스앤	-3374
▁로스앤젤레스	-3375
▁동남	-3376
▁방송국	-3377
igh	-3378
▁절차	-3379
▁FA	-3380
▁요인	-3381
▁저작	-3382
려움	-3383
▁분열	-3384
▁트로	-3385
▁예측	-3386
▁탄소	-3387
▁학과	-3388
▁이치	-3389
▁수영	-3390
▁지급	-3391
▁배출	-3392
▁연출	-3393
▁변형	-3394
문화재	-3395
▁선조	-3396
▁1962	-3397
▁88	-3398
▁신인	-3399
드시	-3400
▁캠퍼스	-3401
▁상원	-3402
▁자녀	-3403
▁엑스	-3404
▁주둔	-3405
▁레오	-3406
정식	-3407
▁조절	-3408
▁수소	-3409
▁선전	-3410
▁시카	-3411
▁칭하	-3412
▁62	-3413
▁코파	-3414
▁메모리	-3415
▁이중	-3416
ation	-3417
▁1967	-3418
▁전동	-3419
▁국무	-3420
▁레스	-3421
▁막부	-3422
▁출간	-3423
▁흉	-3424
▁큐	-3425
▁정기	-3426
▁광장	-3427
▁처형	-3428
타르	-3429
▁기호	-3430
▁수리	-3431
▁화재	-3432
▁선보이	-3433
크스	-3434
▁이승만	-3435
▁실수	-3436
▁황금	-3437
▁서원	-3438
▁취소	-3439
▁힘들	-3440
▁오페	-3441
로그	-3442
카이도	-3443
▁등지	-3444
▁방지	-3445
천시	-3446
▁로켓	-3447
▁r	-3448
▁어떠	-3449
▁콘스탄	-3450
▁기법	-3451
▁생존	-3452
▁오스만	-3453
▁장르	-3454
▁이시	-3455
▁호수	-3456
▁57	-3457
▁증상	-3458
▁왕자	-3459
▁서구	-3460
▁남서	-3461
▁는가	-3462
▁You	-3463
▁흑인	-3464
▁동작	-3465
▁카메라	-3466
수록	-3467
▁동성	-3468
▁앵	-3469
▁연안	-3470
라드	-3471
▁현지	-3472
▁루트	-3473
▁개조	-3474
브리	-3475
▁반드시	-3476
▁예비	-3477
▁히트	-3478
▁늦	-3479
▁롱	-3480
▁희망	-3481
아나	-3482
▁제대로	-3483
▁Ch	-3484
▁고지	-3485
▁위상	-3486
▁좌우	-3487
포르	-3488
▁맞서	-3489
▁농구	-3490
▁여단	-3491
▁기체	-3492
▁고치	-3493
▁전주	-3494
▁무덤	-3495
▁싸움	-3496
▁임진	-3497
▁공정	-3498
▁분명	-3499
▁톱	-3500
▁크리	-3501
▁노리	-3502
▁일본군	-3503
▁진주	-3504
▁천연	-3505
▁도전	-3506
▁맞이	-3507
▁181	-3508
▁전면	-3509
▁파악	-3510
▁터널	-3511
▁동아	-3512
▁코르	-3513
▁엄청	-3514
▁둘째	-3515
▁으려	-3516
▁전형	-3517
▁꺾	-3518
▁흘	-3519
▁독특	-3520
▁압력	-3521
▁해리	-3522
▁1966	-3523
nd	-3524
▁스탠	-3525
▁묵	-3526
▁특이	-3527
▁돌리	-3528
▁목소리	-3529
방송	-3530
▁우려	-3531
▁이온	-3532
▁66	-3533
바라	-3534
라이언	-3535
▁%,	-3536
▁물체	-3537
▁미국인	-3538
▁녹색	-3539
▁리처	-3540
▁매일	-3541
▁법정	-3542
이치	-3543
▁경로	-3544
▁글자	-3545
▁그레이	-3546
▁드물	-3547
▁독립운동	-3548
▁동기	-3549
▁에르	-3550
▁성향	-3551
▁타임	-3552
▁노벨	-3553
▁1965	-3554
▁바둑	-3555
▁덧	-3556
▁부사	-3557
▁인지	-3558
▁68	-3559
▁아리	-3560
▁신뢰	-3561
▁유기	-3562
▁방정식	-3563
▁멘	-3564
▁어디	-3565
▁183	-3566
더스	-3567
▁체코	-3568
▁KBO	-3569
티브	-3570
▁지리	-3571
베스	-3572
▁처벌	-3573
▁묶	-3574
▁클레	-3575
▁가시	-3576
▁개신	-3577
▁추구	-3578
에이	-3579
▁알렉산드	-3580
▁61	-3581
▁방해	-3582
치아	-3583
▁실질	-3584
▁람	-3585
▁밥	-3586
▁분해	-3587
ST	-3588
▁타격	-3589
▁유행	-3590
▁일찍	-3591
▁일식	-3592
▁퀸	-3593
▁김일	-3594
▁완료	-3595
▁간행	-3596
▁웅	-3597
▁분할	-3598
▁찰스	-3599
▁풍부	-3600
르타	-3601
▁내전	-3602
질랜드	-3603
▁홋	-3604
▁화산	-3605
▁찌	-3606
▁아동	-3607
▁부진	-3608
▁사립	-3609
▁삽	-3610
▁빼앗	-3611
▁뉴질랜드	-3612
▁복지	-3613
▁손자	-3614
▁희생	-3615
▁순환	-3616
▁범주	-3617
▁평등	-3618
▁나들	-3619
▁아파트	-3620
▁마르크	-3621
▁나들목	-3622
먼트	-3623
▁마침내	-3624
▁대개	-3625
▁엄청나	-3626
▁별명	-3627
▁1961	-3628
▁비평	-3629
▁플래	-3630
▁가까	-3631
▁집권	-3632
▁오프	-3633
ER	-3634
▁갈색	-3635
▁최다	-3636
▁800	-3637
art	-3638
▁점점	-3639
▁첼	-3640
▁한정	-3641
▁전원	-3642
▁파르	-3643
▁곱	-3644
▁흰	-3645
▁시조	-3646
▁86	-3647
▁으니	-3648
▁한계	-3649
▁분기	-3650
▁사냥	-3651
▁600	-3652
▁리가	-3653
▁가상	-3654
▁대법	-3655
▁시드	-3656
▁판사	-3657
ice	-3658
▁창원	-3659
▁구현	-3660
▁부하	-3661
▁의지	-3662
유럽	-3663
▁기둥	-3664
▁120	-3665
▁근본	-3666
▁모형	-3667
▁분위	-3668
다르	-3669
▁테이	-3670
▁훗	-3671
투스	-3672
▁명확	-3673
▁바치	-3674
▁충격	-3675
▁사원	-3676
▁그라	-3677
ON	-3678
▁교향	-3679
▁완공	-3680
▁일본인	-3681
텐츠	-3682
▁IS	-3683
▁메리	-3684
▁웨이	-3685
▁중기	-3686
▁사형	-3687
▁무게	-3688
▁벡터	-3689
▁사임	-3690
▁확산	-3691
▁들어서	-3692
▁스토리	-3693
▁오페라	-3694
▁프린	-3695
▁출범	-3696
▁날개	-3697
▁마법	-3698
디션	-3699
▁단독	-3700
▁드러내	-3701
▁1919	-3702
▁션	-3703
est	-3704
은행	-3705
▁대공	-3706
▁사마	-3707
▁제이	-3708
피스	-3709
틀러	-3710
▁호주	-3711
▁캔	-3712
▁물리학	-3713
▁레인	-3714
▁상위	-3715
▁적절	-3716
▁렀	-3717
▁뚜	-3718
▁의혹	-3719
▁악화	-3720
ia	-3721
▁통산	-3722
▁훌	-3723
세우	-3724
▁re	-3725
▁이자	-3726
▁의심	-3727
▁명나라	-3728
▁닛	-3729
▁모토	-3730
▁영웅	-3731
▁무시	-3732
▁회담	-3733
▁연구원	-3734
▁알파	-3735
TV	-3736
▁98	-3737
▁유치	-3738
▁당초	-3739
▁서명	-3740
▁굽	-3741
▁가나	-3742
ap	-3743
▁편찬	-3744
▁조종	-3745
▁키우	-3746
▁함락	-3747
▁1944	-3748
▁발굴	-3749
▁이닝	-3750
사자	-3751
▁문명	-3752
▁득표	-3753
사스	-3754
▁추천	-3755
▁쏘	-3756
▁인접	-3757
▁사실상	-3758
▁카라	-3759
ak	-3760
▁넓이	-3761
▁광복	-3762
▁연간	-3763
▁자극	-3764
▁샘	-3765
▁그때	-3766
▁포인트	-3767
▁모임	-3768
▁인증	-3769
라이나	-3770
▁징역	-3771
▁생겨나	-3772
▁개입	-3773
▁도쿠	-3774
▁저술	-3775
▁곽	-3776
▁순간	-3777
▁접촉	-3778
▁각지	-3779
▁진정	-3780
▁포항	-3781
아보	-3782
▁여론	-3783
▁순수	-3784
▁사정	-3785
▁등판	-3786
▁올해	-3787
▁홍보	-3788
연히	-3789
▁프리미어	-3790
▁동서	-3791
▁1941	-3792
▁기리	-3793
▁악기	-3794
▁구원	-3795
▁고속도로	-3796
▁세르비아	-3797
▁독일군	-3798
▁개막	-3799
▁63	-3800
▁골든	-3801
우리	-3802
▁언제	-3803
▁오랫	-3804
▁루스	-3805
▁드라이	-3806
▁95	-3807
▁뮤지	-3808
AR	-3809
나가	-3810
▁기기	-3811
▁기온	-3812
▁탐사	-3813
▁꼽	-3814
메이	-3815
시오	-3816
▁태도	-3817
▁학살	-3818
▁74	-3819
▁여야	-3820
▁DNA	-3821
▁팽	-3822
민주	-3823
버그	-3824
학생	-3825
▁백성	-3826
▁59	-3827
▁실현	-3828
▁공로	-3829
▁Lo	-3830
▁임기	-3831
일리	-3832
▁바위	-3833
무부	-3834
▁한국인	-3835
▁변수	-3836
▁시카고	-3837
믹스	-3838
▁수석	-3839
▁경전	-3840
숭이	-3841
▁성분	-3842
▁행렬	-3843
▁예전	-3844
▁178	-3845
▁네이	-3846
▁공헌	-3847
▁앤드	-3848
▁입법	-3849
▁줄어들	-3850
▁양쪽	-3851
▁추산	-3852
▁오랫동안	-3853
▁보고서	-3854
▁심사	-3855
▁훗날	-3856
▁스마트	-3857
ct	-3858
▁페르시아	-3859
▁닉	-3860
▁감시	-3861
▁아티	-3862
대부	-3863
▁확률	-3864
▁춤	-3865
▁뱅	-3866
▁혼합	-3867
▁자전	-3868
▁튜	-3869
▁균형	-3870
▁방위	-3871
▁1958	-3872
▁프로그래	-3873
▁매장	-3874
▁침략	-3875
▁미쓰	-3876
▁시사	-3877
ul	-3878
▁에드워드	-3879
▁왕실	-3880
▁특별시	-3881
▁분위기	-3882
▁영지	-3883
▁리처드	-3884
러리	-3885
▁IC	-3886
▁1947	-3887
▁출력	-3888
▁신부	-3889
리히	-3890
▁82	-3891
▁피터	-3892
▁160	-3893
▁커뮤	-3894
▁승부	-3895
▁조별	-3896
코스	-3897
▁to	-3898
▁대량	-3899
▁개신교	-3900
▁원형	-3901
▁저녁	-3902
▁멀리	-3903
▁무사	-3904
▁이라크	-3905
▁타자	-3906
▁팔리	-3907
▁76	-3908
▁단편	-3909
▁안토	-3910
▁1956	-3911
▁경남	-3912
▁대선	-3913
▁프라이	-3914
▁;/	-3915
▁다케	-3916
이너	-3917
▁줄기	-3918
▁기울	-3919
▁72	-3920
▁승객	-3921
▁권위	-3922
▁미야	-3923
▁에서부터	-3924
▁고르	-3925
▁여왕	-3926
▁텍사스	-3927
▁랜드	-3928
▁제사	-3929
▁그래픽	-3930
▁흐름	-3931
▁마무	-3932
▁발발	-3933
▁프랑크	-3934
▁아이돌	-3935
▁재건	-3936
▁SS	-3937
▁커뮤니	-3938
▁가와	-3939
▁점수	-3940
▁앉	-3941
▁확립	-3942
▁안동	-3943
ie	-3944
▁우라	-3945
▁동명	-3946
▁바깥	-3947
▁77	-3948
▁복원	-3949
▁작위	-3950
▁긍	-3951
▁일상	-3952
▁데스	-3953
▁참고	-3954
▁석유	-3955
▁비치	-3956
▁교구	-3957
리노	-3958
▁과학자	-3959
▁원수	-3960
▁섞	-3961
▁입력	-3962
▁테스트	-3963
▁침입	-3964
▁복수	-3965
▁비상	-3966
▁1939	-3967
▁수익	-3968
▁잠수	-3969
▁폭탄	-3970
▁Th	-3971
▁어깨	-3972
▁시상	-3973
메리칸	-3974
▁67	-3975
레나	-3976
▁당국	-3977
▁리버	-3978
▁겹	-3979
▁젠	-3980
▁심지	-3981
▁브라운	-3982
▁축구단	-3983
▁신자	-3984
▁민중	-3985
▁복음	-3986
▁도요	-3987
▁사자	-3988
▁덜	-3989
▁일시	-3990
▁자식	-3991
레옹	-3992
▁본질	-3993
▁타워	-3994
▁포켓	-3995
ud	-3996
▁계층	-3997
▁기소	-3998
▁더블	-3999
일스	-4000
▁병합	-4001
▁재배	-4002
▁AFC	-4003
▁연예	-4004
▁나폴레옹	-4005
▁한글	-4006
▁시마	-4007
마르	-4008
▁주최	-4009
▁대왕	-4010
▁그렇게	-4011
▁가공	-4012
▁신고	-4013
▁혁신	-4014
▁부지	-4015
▁도모	-4016
ly	-4017
에른	-4018
▁가량	-4019
이센	-4020
▁끼치	-4021
▁다운	-4022
▁파워	-4023
▁정수	-4024
og	-4025
▁빅토	-4026
▁동양	-4027
▁빌보드	-4028
▁지형	-4029
▁85	-4030
▁사제	-4031
▁가담	-4032
▁보물	-4033
▁대성	-4034
▁창작	-4035
▁내셔널	-4036
th	-4037
▁공중	-4038
▁평안	-4039
▁거듭	-4040
▁힌	-4041
▁듯이	-4042
마니아	-4043
▁1954	-4044
▁움직임	-4045
ist	-4046
▁폐쇄	-4047
▁암호	-4048
▁깃	-4049
레인	-4050
▁가설	-4051
▁노출	-4052
▁들이	-4053
▁인쇄	-4054
▁후계	-4055
아티아	-4056
▁크로아티아	-4057
▁훈장	-4058
▁국기	-4059
▁산화	-4060
▁쌀	-4061
▁구글	-4062
▁급제	-4063
▁총회	-4064
▁평론	-4065
ight	-4066
▁고통	-4067
왜란	-4068
▁비서	-4069
▁1952	-4070
▁임진왜란	-4071
▁고기	-4072
▁참모	-4073
아지	-4074
AS	-4075
▁력	-4076
▁다소	-4077
▁가이	-4078
▁세리	-4079
▁탱	-4080
▁실력	-4081
▁채우	-4082
▁보상	-4083
▁전신	-4084
▁대지	-4085
▁73	-4086
▁후속	-4087
▁보살	-4088
▁상관	-4089
느리	-4090
▁오가	-4091
▁박정희	-4092
▁바닥	-4093
▁아테네	-4094
▁셔	-4095
▁동방	-4096
▁라스	-4097
조합	-4098
▁96	-4099
▁그만	-4100
▁김대	-4101
▁행복	-4102
▁발음	-4103
아하	-4104
▁따로	-4105
▁조조	-4106
▁탈퇴	-4107
▁절반	-4108
▁뮤지컬	-4109
▁스타디	-4110
▁오카	-4111
▁타운	-4112
▁국정	-4113
▁81	-4114
▁비례	-4115
바로	-4116
▁인용	-4117
▁*	-4118
▁무한	-4119
▁Al	-4120
필더	-4121
▁개설	-4122
▁도덕	-4123
▁미드필더	-4124
▁수도원	-4125
▁피해자	-4126
▁불만	-4127
▁소득	-4128
▁심장	-4129
▁뷰	-4130
▁뤼	-4131
하여	-4132
▁가까이	-4133
▁좋아하	-4134
▁ᆯ지	-4135
▁장남	-4136
▁78	-4137
▁부담	-4138
▁청주	-4139
AT	-4140
▁로봇	-4141
▁재학	-4142
▁살리	-4143
체스터	-4144
▁전남	-4145
▁전투기	-4146
▁화이트	-4147
▁손상	-4148
▁처하	-4149
▁화장	-4150
▁센트	-4151
▁안드로	-4152
의정	-4153
▁전직	-4154
▁바이에른	-4155
▁여섯	-4156
▁이혼	-4157
▁지향	-4158
▁뮌	-4159
▁중력	-4160
타이	-4161
▁김성	-4162
▁는다는	-4163
▁아트	-4164
▁하인	-4165
▁께	-4166
너스	-4167
▁포스트	-4168
▁녀	-4169
▁교리	-4170
▁천안	-4171
▁국군	-4172
▁주력	-4173
▁산소	-4174
▁블라	-4175
▁보르	-4176
▁작동	-4177
▁콘스탄티	-4178
▁인생	-4179
▁붓	-4180
▁1959	-4181
▁검토	-4182
▁202	-4183
▁NH	-4184
▁백만	-4185
▁총장	-4186
▁지사	-4187
▁레알	-4188
▁생물학	-4189
▁마무리	-4190
▁177	-4191
▁결론	-4192
BA	-4193
▁당나라	-4194
ess	-4195
▁윗	-4196
▁관여	-4197
▁빌딩	-4198
직자	-4199
▁질환	-4200
▁와이	-4201
자치	-4202
인물	-4203
토스	-4204
▁사무소	-4205
▁심지어	-4206
▁Li	-4207
▁상실	-4208
▁기상	-4209
▁포스	-4210
▁화합	-4211
▁황후	-4212
▁91	-4213
▁71	-4214
▁호소	-4215
▁아웃	-4216
▁AT	-4217
▁문신	-4218
▁설득	-4219
▁패션	-4220
▁메시지	-4221
▁상역	-4222
▁피부	-4223
▁선박	-4224
▁사우스	-4225
▁사유	-4226
▁;,	-4227
가락	-4228
▁유통	-4229
▁DV	-4230
▁가마	-4231
▁개방	-4232
▁신사	-4233
클리	-4234
▁처분	-4235
▁일컫	-4236
스트라	-4237
세포	-4238
쿠스	-4239
▁수요	-4240
▁분노	-4241
▁오직	-4242
▁결의	-4243
▁프로이센	-4244
▁가슴	-4245
▁액션	-4246
▁골드	-4247
▁1942	-4248
▁승려	-4249
▁하원	-4250
▁의대	-4251
▁규제	-4252
▁햄	-4253
▁이명	-4254
▁가요	-4255
▁연습	-4256
▁넘어가	-4257
▁모터	-4258
▁내려오	-4259
▁역학	-4260
▁약물	-4261
▁혼인	-4262
▁적합	-4263
▁동해	-4264
▁글로벌	-4265
▁페이지	-4266
▁김일성	-4267
▁매체	-4268
▁조카	-4269
▁구매	-4270
▁디스크	-4271
▁선임	-4272
▁모바	-4273
▁위대	-4274
▁심판	-4275
▁좌상	-4276
▁그린	-4277
드리히	-4278
▁개성	-4279
▁왕비	-4280
▁87	-4281
IV	-4282
▁통화	-4283
▁잭슨	-4284
▁진단	-4285
▁위키	-4286
미야	-4287
ub	-4288
▁159	-4289
▁1943	-4290
▁st	-4291
▁소멸	-4292
▁프랭	-4293
▁지나가	-4294
▁1955	-4295
▁긍정	-4296
▁야스	-4297
▁부산광역시	-4298
▁서식지	-4299
IA	-4300
▁발탁	-4301
▁원년	-4302
▁말레이시아	-4303
▁쿠데	-4304
▁크루	-4305
가니	-4306
▁홋카이도	-4307
▁억제	-4308
▁일기	-4309
▁프리드리히	-4310
▁스타디움	-4311
▁퀴	-4312
▁1953	-4313
▁어려움	-4314
▁예방	-4315
▁주석	-4316
▁왕후	-4317
▁진영	-4318
▁음악가	-4319
▁드래프트	-4320
▁톨	-4321
▁테크	-4322
히로	-4323
▁\	-4324
▁불안	-4325
▁필드	-4326
▁무료	-4327
▁1936	-4328
ab	-4329
▁사도	-4330
▁조차	-4331
▁700	-4332
▁싱가	-4333
▁일체	-4334
▁싱가포르	-4335
▁나쁘	-4336
▁사격	-4337
▁굳	-4338
미르	-4339
▁84	-4340
▁사무실	-4341
▁시나	-4342
▁대책	-4343
▁자이언	-4344
▁AP	-4345
▁즉시	-4346
▁힙	-4347
▁유고	-4348
▁태조	-4349
▁폭격	-4350
▁타인	-4351
▁일본어	-4352
▁루마니아	-4353
▁디아	-4354
▁카스	-4355
▁궁전	-4356
▁티베	-4357
▁천주교	-4358
▁리드	-4359
▁유형문화재	-4360
▁인원	-4361
▁쿠데타	-4362
▁쾌	-4363
▁세자	-4364
▁조지아	-4365
▁여우	-4366
데이	-4367
▁막대	-4368
▁상속	-4369
▁1910	-4370
▁이와	-4371
버리	-4372
▁모바일	-4373
▁정차	-4374
▁기동	-4375
▁크로스	-4376
▁김종	-4377
▁자는	-4378
▁창당	-4379
▁몰리	-4380
▁전북	-4381
▁깊이	-4382
▁연설	-4383
▁대체로	-4384
▁스티븐	-4385
주군	-4386
▁사라	-4387
유산	-4388
ine	-4389
▁후쿠오카	-4390
▁닫	-4391
올리	-4392
▁전동차	-4393
▁히틀러	-4394
▁Re	-4395
▁오이	-4396
▁구입	-4397
▁딜	-4398
▁요금	-4399
▁97	-4400
▁학사	-4401
▁진격	-4402
▁전당	-4403
▁딘	-4404
▁개칭	-4405
▁챔피언십	-4406
달리	-4407
▁남아프리카	-4408
▁아메리칸	-4409
구리	-4410
▁독재	-4411
▁강릉	-4412
▁1957	-4413
▁원주민	-4414
란색	-4415
우치	-4416
▁알바	-4417
▁발명	-4418
▁자국	-4419
▁조상	-4420
▁대우	-4421
▁늘리	-4422
▁추방	-4423
▁검색	-4424
▁초점	-4425
▁알고리	-4426
▁느낌	-4427
구치	-4428
▁부동	-4429
머리	-4430
▁사과	-4431
▁필수	-4432
▁스미스	-4433
ew	-4434
▁본명	-4435
베르트	-4436
▁콘텐츠	-4437
▁광범	-4438
▁타이거	-4439
독부	-4440
▁휴대	-4441
▁수호	-4442
▁생태	-4443
▁음성	-4444
▁전송	-4445
▁흔하	-4446
▁담기	-4447
▁동북	-4448
▁기다리	-4449
▁1914	-4450
▁급격	-4451
▁세트	-4452
▁69	-4453
▁렀다	-4454
▁사기	-4455
원경	-4456
▁테마	-4457
▁신장	-4458
▁메이지	-4459
▁천만	-4460
다랗	-4461
▁빚	-4462
▁이즈	-4463
▁92	-4464
시스코	-4465
▁이마	-4466
▁덩	-4467
▁주소	-4468
▁인디언	-4469
▁알고리즘	-4470
ue	-4471
▁수업	-4472
▁="	-4473
미니	-4474
▁업적	-4475
▁포켓몬	-4476
▁잡히	-4477
▁핫	-4478
▁미리	-4479
▁똑	-4480
▁연락	-4481
▁완벽	-4482
▁끌어	-4483
▁신도	-4484
▁이내	-4485
▁토론토	-4486
▁도마	-4487
▁게다가	-4488
▁게르	-4489
▁후임	-4490
▁최우	-4491
▁1900	-4492
▁불가리아	-4493
▁세부	-4494
▁1938	-4495
▁상인	-4496
▁코리아	-4497
▁클로	-4498
▁림	-4499
▁섹	-4500
▁서술	-4501
▁전술	-4502
▁랄	-4503
▁닥터	-4504
▁스프링	-4505
래프트	-4506
▁펑	-4507
▁려면	-4508
▁스탈	-4509
지사	-4510
▁부위	-4511
▁화려	-4512
▁유효	-4513
▁다스리	-4514
▁고급	-4515
▁물건	-4516
▁고시	-4517
▁라이프	-4518
▁미술관	-4519
EC	-4520
▁석사	-4521
▁숨기	-4522
다니	-4523
▁배포	-4524
▁주니어	-4525
▁언덕	-4526
▁재즈	-4527
▁101	-4528
▁노트	-4529
▁질문	-4530
▁소비자	-4531
비히	-4532
▁바르셀	-4533
▁연평	-4534
▁바르셀로나	-4535
▁암컷	-4536
▁각국	-4537
▁늑	-4538
총리	-4539
▁안드	-4540
▁오키	-4541
▁1918	-4542
▁HD	-4543
▁영양	-4544
▁마르크스	-4545
▁01	-4546
로지	-4547
▁해발	-4548
▁립	-4549
자키	-4550
▁라틴어	-4551
리그	-4552
▁개량	-4553
▁윙	-4554
▁내놓	-4555
▁소형	-4556
산화	-4557
▁손실	-4558
▁랩	-4559
▁느냐	-4560
▁마스터	-4561
▁선형	-4562
▁실천	-4563
▁료	-4564
▁고위	-4565
▁백인	-4566
▁일련	-4567
▁DVD	-4568
▁등장인물	-4569
여금	-4570
총독부	-4571
▁조선총독부	-4572
▁사퇴	-4573
▁언스	-4574
▁집회	-4575
▁웰	-4576
▁풋	-4577
▁유산	-4578
▁라우	-4579
▁상주	-4580
▁화석	-4581
▁1951	-4582
▁저자	-4583
▁프랑스군	-4584
▁갑자기	-4585
▁1932	-4586
▁시내버스	-4587
제국	-4588
▁감각	-4589
▁추기	-4590
▁경비	-4591
▁반사	-4592
▁운항	-4593
BM	-4594
▁미스	-4595
▁영주	-4596
▁주체	-4597
▁계곡	-4598
▁국적	-4599
▁알레	-4600
▁개별	-4601
▁메달	-4602
▁on	-4603
▁격파	-4604
▁블록	-4605
▁1937	-4606
▁{	-4607
▁정교회	-4608
▁선포	-4609
▁의문	-4610
▁차단	-4611
무늬	-4612
▁짝	-4613
▁말리	-4614
▁번지	-4615
▁용인	-4616
▁거짓	-4617
▁고객	-4618
▁미시	-4619
▁자본주의	-4620
▁만든	-4621
▁마틴	-4622
민주당	-4623
▁상수	-4624
▁진학	-4625
필드	-4626
▁대만	-4627
▁부친	-4628
가시	-4629
▁설치류	-4630
▁엘리자	-4631
펙트	-4632
▁올스타	-4633
▁넥	-4634
▁흰색	-4635
▁이웃	-4636
▁89	-4637
▁첩	-4638
▁화제	-4639
▁둥글	-4640
▁광범위	-4641
▁재개	-4642
▁당원	-4643
바키아	-4644
▁방언	-4645
▁찬성	-4646
▁후계자	-4647
▁실업	-4648
▁182	-4649
▁1935	-4650
▁사양	-4651
▁환승	-4652
▁비스	-4653
▁칭호	-4654
▁타율	-4655
ect	-4656
▁우크라	-4657
▁되돌	-4658
▁항의	-4659
▁93	-4660
▁트레이드	-4661
▁수치	-4662
▁비행기	-4663
▁분교	-4664
▁크라	-4665
▁기부	-4666
▁뮌헨	-4667
▁이스트	-4668
▁데리	-4669
▁구상	-4670
▁고양이	-4671
▁꾸준	-4672
▁로렌	-4673
▁추기경	-4674
▁Be	-4675
▁사찰	-4676
동생	-4677
▁베리	-4678
▁허락	-4679
▁퀘	-4680
▁항공사	-4681
사전	-4682
▁탄압	-4683
▁파티	-4684
▁질서	-4685
▁수백	-4686
▁중추	-4687
▁커버	-4688
▁경제학	-4689
▁시트	-4690
▁싱어	-4691
▁증언	-4692
▁구멍	-4693
▁최후	-4694
▁발간	-4695
▁체험	-4696
▁웃	-4697
▁촉진	-4698
▁반지	-4699
▁겉	-4700
▁분화	-4701
▁면역	-4702
▁어요	-4703
▁자산	-4704
▁회로	-4705
▁극단	-4706
▁남녀	-4707
▁클리	-4708
▁덧붙이	-4709
▁이념	-4710
다수	-4711
▁목성	-4712
▁마주	-4713
센트	-4714
▁법학	-4715
▁화폐	-4716
▁곡선	-4717
▁공신	-4718
▁소문	-4719
▁소화	-4720
▁양산	-4721
▁마루	-4722
▁내세우	-4723
▁옵	-4724
▁습격	-4725
▁쿨	-4726
▁아티스트	-4727
▁푸르	-4728
▁성남	-4729
▁영원	-4730
저스	-4731
런스	-4732
▁소위	-4733
▁가속	-4734
▁개척	-4735
ore	-4736
▁기에	-4737
▁클래식	-4738
▁시모	-4739
▁대법원	-4740
리우스	-4741
슈타인	-4742
▁94	-4743
▁보편	-4744
▁축소	-4745
▁OS	-4746
▁1933	-4747
▁탄핵	-4748
▁강남	-4749
▁소집	-4750
▁잠수함	-4751
▁물고기	-4752
▁탕	-4753
▁FM	-4754
▁운송	-4755
▁티베트	-4756
▁수십	-4757
▁유배	-4758
our	-4759
▁쿼	-4760
▁툴	-4761
▁펴	-4762
리나	-4763
▁약화	-4764
IN	-4765
▁충분히	-4766
▁선호	-4767
▁아오	-4768
▁지수	-4769
▁1928	-4770
▁하여금	-4771
▁그리하여	-4772
▁핸	-4773
▁동화	-4774
▁혼자	-4775
▁원시	-4776
▁군부	-4777
▁CP	-4778
려가	-4779
돼지	-4780
른바	-4781
▁영구	-4782
▁태종	-4783
▁전적	-4784
▁무너지	-4785
도사	-4786
▁조항	-4787
▁경사	-4788
▁당신	-4789
▁주일	-4790
▁직무	-4791
▁동경	-4792
▁누스	-4793
▁어둡	-4794
▁지불	-4795
▁매치	-4796
▁지나치	-4797
▁팩	-4798
▁칠레	-4799
ell	-4800
▁이른바	-4801
▁1924	-4802
▁뼈	-4803
▁시신	-4804
▁프랑스어	-4805
▁걷	-4806
▁콜로	-4807
공사	-4808
▁국토	-4809
▁멈	-4810
▁용도	-4811
▁틈	-4812
▁이행	-4813
▁간부	-4814
▁세월	-4815
▁정통	-4816
프레	-4817
▁발레	-4818
▁개명	-4819
▁재능	-4820
▁상대식	-4821
▁79	-4822
▁정면	-4823
▁댄스	-4824
▁전망	-4825
▁조기	-4826
▁토대	-4827
▁익스	-4828
▁토마스	-4829
▁사막	-4830
들리	-4831
벤트	-4832
▁메트로	-4833
▁09	-4834
▁김해	-4835
▁반하	-4836
닉스	-4837
▁펀	-4838
▁실내	-4839
▁110	-4840
▁손해	-4841
▁형상	-4842
▁입대	-4843
▁콜롬	-4844
사이	-4845
▁따오	-4846
▁종사	-4847
▁이재	-4848
▁프로그래밍	-4849
▁의정부	-4850
▁개장	-4851
▁가난	-4852
▁대칭	-4853
▁회색	-4854
▁브로	-4855
▁단순히	-4856
슬링	-4857
티스	-4858
▁170	-4859
▁진실	-4860
▁쟁	-4861
end	-4862
▁러브	-4863
▁04	-4864
▁구름	-4865
▁동굴	-4866
▁판정	-4867
▁액체	-4868
▁열매	-4869
▁지중	-4870
▁합동	-4871
▁오버	-4872
▁수컷	-4873
▁존스	-4874
▁토착	-4875
▁파키스탄	-4876
▁ㅓㅆ	-4877
▁초상	-4878
과이	-4879
▁무력	-4880
어도	-4881
▁무용	-4882
▁베네치아	-4883
▁자랑	-4884
코프	-4885
▁안토니	-4886
▁해제	-4887
ill	-4888
▁유아	-4889
▁법안	-4890
브라	-4891
ain	-4892
▁경고	-4893
▁당대	-4894
▁흔적	-4895
▁뻗	-4896
▁엄격	-4897
▁하와	-4898
▁전제	-4899
▁사이드	-4900
▁로즈	-4901
▁자르	-4902
베리아	-4903
▁원자력	-4904
▁양국	-4905
테스	-4906
▁부리	-4907
▁고교	-4908
ID	-4909
▁총재	-4910
▁플로리	-4911
사르	-4912
▁08	-4913
▁재생	-4914
▁대승	-4915
▁불러	-4916
ers	-4917
▁우에	-4918
▁주문	-4919
▁인민군	-4920
▁틴	-4921
▁안티	-4922
▁퓨	-4923
▁멀티	-4924
▁일단	-4925
▁정류	-4926
▁세로	-4927
▁룸	-4928
▁Co	-4929
▁개찰	-4930
▁오케	-4931
▁부속	-4932
▁스카이	-4933
▁경북	-4934
▁늑대	-4935
▁강도	-4936
▁서방	-4937
▁스톤	-4938
▁장로	-4939
▁분산	-4940
▁힙합	-4941
▁프로토	-4942
▁부서	-4943
▁주재	-4944
▁다큐	-4945
▁대가	-4946
▁오류	-4947
▁83	-4948
▁비잔	-4949
▁마저	-4950
▁안쪽	-4951
▁맡기	-4952
▁쌓이	-4953
▁엉	-4954
▁배열	-4955
▁지표	-4956
페이스	-4957
데르	-4958
▁페리	-4959
▁레닌	-4960
▁벼슬	-4961
▁국방부	-4962
▁MS	-4963
▁한성	-4964
▁호흡	-4965
▁강요	-4966
▁동지	-4967
▁함경	-4968
▁스크린	-4969
▁찾아가	-4970
ard	-4971
▁메탈	-4972
▁혈액	-4973
▁경찰서	-4974
▁중동	-4975
▁추적	-4976
▁할아버지	-4977
▁선로	-4978
▁마감	-4979
▁평면	-4980
▁편의	-4981
▁포드	-4982
▁탓	-4983
▁주자	-4984
▁중지	-4985
고속	-4986
야스	-4987
조선	-4988
▁거스	-4989
▁이벤트	-4990
▁대원	-4991
▁메르	-4992
▁성서	-4993
▁느리	-4994
▁1934	-4995
AN	-4996
▁철거	-4997
▁대사관	-4998
어로	-4999
▁농장	-5000
워하	-5001
키퍼	-5002
▁아프가니	-5003
▁자매	-5004
▁골키퍼	-5005
▁북미	-5006
▁De	-5007
▁투스	-5008
▁입구	-5009
▁스케이	-5010
▁요코하마	-5011
▁빵	-5012
베르크	-5013
▁구사	-5014
▁스탈린	-5015
▁떼	-5016
▁놀이	-5017
▁멈추	-5018
▁보스턴	-5019
▁닐	-5020
▁가볍	-5021
세대	-5022
▁근육	-5023
▁쿠바	-5024
▁판타	-5025
▁거느리	-5026
유키	-5027
▁동구	-5028
▁히어로	-5029
▁장례	-5030
▁정확히	-5031
▁봉기	-5032
▁노동당	-5033
▁본토	-5034
▁광산	-5035
▁130	-5036
▁현존	-5037
공업	-5038
▁Me	-5039
▁페이스	-5040
레오	-5041
▁구로	-5042
▁정조	-5043
▁얀	-5044
▁대동	-5045
▁나이트	-5046
▁야당	-5047
▁토머스	-5048
▁밸	-5049
▁거점	-5050
▁식량	-5051
▁철학자	-5052
아르	-5053
제르	-5054
▁유키	-5055
▁동메달	-5056
드라	-5057
▁뱀	-5058
성기	-5059
▁은메달	-5060
▁젤	-5061
즈니	-5062
▁선물	-5063
▁글리	-5064
▁사망자	-5065
▁카리	-5066
▁항해	-5067
▁코어	-5068
ne	-5069
▁도쿠가와	-5070
▁시계	-5071
▁접속	-5072
▁140	-5073
▁관계자	-5074
▁중계	-5075
▁내려가	-5076
▁부처	-5077
▁대다수	-5078
▁남극	-5079
▁아프가니스탄	-5080
보내	-5081
▁사카	-5082
▁맨체스터	-5083
하이	-5084
▁필립	-5085
▁돔	-5086
▁레지	-5087
▁새끼	-5088
▁복사	-5089
▁알렉산더	-5090
▁초청	-5091
▁Sh	-5092
▁김구	-5093
▁모자	-5094
▁풍속	-5095
▁발전소	-5096
▁테르	-5097
레아	-5098
▁중성	-5099
▁특별히	-5100
▁재판소	-5101
▁칼리지	-5102
위대	-5103
▁안내	-5104
▁건너가	-5105
▁역전	-5106
▁독점	-5107
▁농촌	-5108
돌프	-5109
▁그러므로	-5110
▁훼	-5111
▁교향곡	-5112
▁증권	-5113
▁매주	-5114
안군	-5115
▁화합물	-5116
▁곤충	-5117
▁구리	-5118
▁커다랗	-5119
▁새벽	-5120
▁위안	-5121
▁휘하	-5122
▁겸하	-5123
▁세금	-5124
▁토너	-5125
▁르네	-5126
OR	-5127
▁th	-5128
▁로맨	-5129
크래프트	-5130
▁유력	-5131
▁1931	-5132
▁오염	-5133
▁재임	-5134
▁리아	-5135
▁합리	-5136
▁체육관	-5137
베리	-5138
▁부호	-5139
▁생애	-5140
▁이정	-5141
▁파울	-5142
▁물리치	-5143
▁비중	-5144
▁강등	-5145
▁히로시마	-5146
▁모노	-5147
▁일곱	-5148
▁달라지	-5149
▁간격	-5150
▁부드	-5151
▁타점	-5152
▁코너	-5153
레이크	-5154
▁종전	-5155
▁훌륭	-5156
▁진동	-5157
▁석방	-5158
▁아비	-5159
▁펄	-5160
▁관객	-5161
▁기병	-5162
▁존슨	-5163
▁타카	-5164
▁뚜렷	-5165
▁그리스어	-5166
▁계수	-5167
▁금강	-5168
▁멸종	-5169
▁부품	-5170
▁클래스	-5171
▁감옥	-5172
▁대변	-5173
▁찾아오	-5174
▁명시	-5175
▁문재	-5176
▁미카	-5177
느님	-5178
▁기르	-5179
▁원조	-5180
▁도망치	-5181
밀리	-5182
all	-5183
▁ST	-5184
▁목포	-5185
▁하느님	-5186
▁박근	-5187
▁자유주의	-5188
게이	-5189
▁하사	-5190
▁cod	-5191
▁후퇴	-5192
▁타원	-5193
AM	-5194
▁무늬	-5195
▁1921	-5196
▁심리학	-5197
▁꾼	-5198
▁폭풍	-5199
▁해협	-5200
나르	-5201
▁버지	-5202
▁176	-5203
▁좌파	-5204
▁An	-5205
▁숙종	-5206
▁장점	-5207
▁250	-5208
▁대결	-5209
▁교도	-5210
▁킬로	-5211
▁아이스	-5212
▁지휘관	-5213
▁가구	-5214
▁캠프	-5215
▁수비수	-5216
▁공룡	-5217
▁기생	-5218
▁유발	-5219
▁지칭	-5220
▁그래프	-5221
▁올라오	-5222
ang	-5223
▁마그	-5224
▁목숨	-5225
▁동성애	-5226
널드	-5227
▁유대인	-5228
▁윤리	-5229
▁부드럽	-5230
▁스트라이	-5231
▁토너먼트	-5232
▁덕분	-5233
▁하버	-5234
▁일환	-5235
▁1929	-5236
▁연호	-5237
▁착용	-5238
▁필라	-5239
▁닮	-5240
둥이	-5241
▁소요	-5242
▁첫째	-5243
▁공세	-5244
▁단장	-5245
▁코트	-5246
▁트랜스	-5247
▁빗	-5248
▁강전	-5249
▁비틀	-5250
▁성명	-5251
▁김대중	-5252
▁무겁	-5253
▁칙	-5254
▁조문	-5255
시스트	-5256
▁극복	-5257
▁특허	-5258
▁집필	-5259
수량	-5260
▁수반	-5261
▁아틀	-5262
▁약탈	-5263
▁사관	-5264
▁05	-5265
▁비즈	-5266
▁운동가	-5267
▁스테이션	-5268
▁캡	-5269
▁키스	-5270
▁자이언츠	-5271
▁도메	-5272
▁살아	-5273
▁쯤	-5274
▁기갑	-5275
▁y	-5276
▁는다고	-5277
▁연상	-5278
▁곰	-5279
▁부작	-5280
▁동반	-5281
▁평론가	-5282
▁다다	-5283
▁1923	-5284
▁1925	-5285
산물	-5286
투아	-5287
▁첸	-5288
▁갤럭	-5289
▁조화	-5290
▁라트	-5291
▁잠재	-5292
▁인터페이스	-5293
▁롬	-5294
▁공국	-5295
미아	-5296
슬리	-5297
▁성직자	-5298
▁의석	-5299
▁연평균	-5300
▁삼각	-5301
▁북아메리카	-5302
▁고고	-5303
▁매니	-5304
ss	-5305
▁입사	-5306
▁협약	-5307
▁가끔	-5308
▁건담	-5309
▁램	-5310
▁섬유	-5311
▁도호	-5312
▁지부	-5313
▁과일	-5314
▁요원	-5315
▁플로리다	-5316
마이	-5317
▁딱	-5318
클린	-5319
무게	-5320
▁몸무게	-5321
▁장갑	-5322
▁추대	-5323
▁갤럭시	-5324
▁틱	-5325
▁원장	-5326
타카	-5327
▁발휘	-5328
▁불화	-5329
▁영감	-5330
▁AC	-5331
▁모로	-5332
▁근로	-5333
▁연계	-5334
▁임신	-5335
▁발렌	-5336
▁압축	-5337
▁07	-5338
▁관리자	-5339
▁샤를	-5340
▁중립	-5341
▁고서	-5342
▁영혼	-5343
▁북서쪽	-5344
▁선교사	-5345
▁웨일스	-5346
▁디오	-5347
▁우드	-5348
▁이수	-5349
▁추락	-5350
▁시게	-5351
▁타입	-5352
▁대한제국	-5353
▁살아남	-5354
▁지역구	-5355
ity	-5356
대문	-5357
▁똑같	-5358
카스	-5359
▁모험	-5360
▁카페	-5361
베이스	-5362
추어	-5363
▁고분	-5364
▁유성	-5365
▁남아메리카	-5366
▁영광	-5367
▁트레이	-5368
▁갱	-5369
▁단선	-5370
▁사당	-5371
▁삭제	-5372
▁유비	-5373
▁일자	-5374
▁진술	-5375
키스	-5376
▁박스	-5377
▁망원경	-5378
▁캘리포니아주	-5379
▁수직	-5380
▁페루	-5381
▁161	-5382
▁레벨	-5383
▁둔	-5384
▁채권	-5385
▁리스트	-5386
▁하와이	-5387
▁미분	-5388
▁진흥	-5389
▁북극	-5390
▁필름	-5391
▁이조	-5392
▁서인	-5393
▁압도	-5394
▁주사	-5395
▁결심	-5396
▁꼽히	-5397
▁박근혜	-5398
▁기관차	-5399
▁동인	-5400
▁제약	-5401
▁종로	-5402
▁다이묘	-5403
▁SC	-5404
▁철저	-5405
▁돌파	-5406
▁그랜드	-5407
▁민속	-5408
▁사거리	-5409
▁준우	-5410
▁향토	-5411
▁변신	-5412
ff	-5413
▁부탁	-5414
▁카자	-5415
▁홀로	-5416
▁복구	-5417
▁빅토리아	-5418
▁EP	-5419
▁파운드	-5420
▁성씨	-5421
▁유가	-5422
▁도마뱀	-5423
▁주류	-5424
▁청동	-5425
▁때로	-5426
▁설비	-5427
▁175	-5428
▁교과	-5429
▁프로세서	-5430
▁1922	-5431
▁중시	-5432
▁codice	-5433
▁모음	-5434
▁바오	-5435
▁트럼	-5436
▁피트	-5437
▁청하	-5438
▁삼각형	-5439
▁칼리	-5440
▁엽	-5441
행성	-5442
▁무릎	-5443
▁문인	-5444
▁여인	-5445
즈키	-5446
▁수장	-5447
▁레이블	-5448
▁각자	-5449
▁틸	-5450
▁부유	-5451
부사	-5452
▁없애	-5453
▁평생	-5454
▁이날	-5455
▁화가	-5456
▁de	-5457
▁프레임	-5458
일본	-5459
▁명사	-5460
▁부수	-5461
▁중구	-5462
애나	-5463
▁서적	-5464
▁엘리자베스	-5465
▁모래	-5466
태우	-5467
▁My	-5468
▁규슈	-5469
▁윤치	-5470
▁버지니아	-5471
▁인천광역시	-5472
▁루트비히	-5473
▁고안	-5474
▁유역	-5475
▁투구	-5476
▁공격수	-5477
▁가톨릭교회	-5478
▁음모	-5479
▁1912	-5480
▁지연	-5481
▁토벌	-5482
▁황태	-5483
▁유용	-5484
▁도어	-5485
▁직선	-5486
▁리치	-5487
▁직위	-5488
▁최상	-5489
▁파트너	-5490
오리	-5491
프란	-5492
▁KT	-5493
▁아기	-5494
▁라마	-5495
▁표지	-5496
▁노무	-5497
▁아과	-5498
▁국민당	-5499
메니아	-5500
▁교차로	-5501
▁왕가	-5502
▁Love	-5503
▁164	-5504
▁자치구	-5505
니즘	-5506
▁무인	-5507
▁죠	-5508
양군	-5509
▁크레	-5510
▁무산	-5511
▁수상자	-5512
눅스	-5513
▁구미	-5514
▁간섭	-5515
▁글씨	-5516
▁어워드	-5517
▁네이션	-5518
▁문법	-5519
▁인력	-5520
▁왈	-5521
▁Go	-5522
▁봉사	-5523
▁사토	-5524
ong	-5525
▁포유	-5526
▁동일본	-5527
▁퍼시	-5528
▁""	-5529
▁납치	-5530
▁상처	-5531
▁패턴	-5532
▁리눅스	-5533
▁영조	-5534
▁아르메니아	-5535
▁소설가	-5536
▁블라디	-5537
▁1908	-5538
타운	-5539
▁노비	-5540
▁침해	-5541
▁릭	-5542
▁모니	-5543
멘트	-5544
▁베토	-5545
라이터	-5546
▁지중해	-5547
▁아마추어	-5548
▁장사	-5549
▁SM	-5550
▁벨라	-5551
▁MV	-5552
▁경유	-5553
▁랭킹	-5554
▁자책	-5555
▁1906	-5556
▁목조	-5557
▁호조	-5558
▁보통학교	-5559
야수	-5560
▁WW	-5561
▁실점	-5562
▁연령	-5563
▁건축물	-5564
▁사촌	-5565
▁스케이팅	-5566
▁06	-5567
▁이종	-5568
up	-5569
▁돼지	-5570
▁연소	-5571
▁교역	-5572
▁태자	-5573
보살	-5574
▁토르	-5575
▁전향	-5576
▁베타	-5577
멘터리	-5578
▁남동쪽	-5579
▁제주도	-5580
▁1917	-5581
슬로	-5582
▁과도	-5583
▁마카	-5584
아리	-5585
▁배상	-5586
▁아가	-5587
▁플레	-5588
▁매각	-5589
도니아	-5590
ip	-5591
▁준우승	-5592
사관	-5593
▁히가시	-5594
▁수지	-5595
▁정자	-5596
▁삽입	-5597
▁적응	-5598
▁1927	-5599
▁싫	-5600
▁적어도	-5601
▁크림	-5602
▁다양체	-5603
▁에스파	-5604
마치	-5605
▁JR	-5606
▁육성	-5607
▁조명	-5608
▁커피	-5609
ant	-5610
▁안양	-5611
▁통로	-5612
▁전승	-5613
▁시상식	-5614
IS	-5615
ld	-5616
▁명문	-5617
▁03	-5618
▁앨런	-5619
▁출현	-5620
스팅	-5621
▁쇠퇴	-5622
▁시집	-5623
▁우익	-5624
▁이토	-5625
▁북동쪽	-5626
▁모듈	-5627
▁시아	-5628
▁우루	-5629
▁1907	-5630
▁굿	-5631
ED	-5632
▁스와	-5633
▁과장	-5634
▁몬테	-5635
▁배급	-5636
▁유인	-5637
OM	-5638
▁정서	-5639
▁탐험	-5640
▁BBC	-5641
▁대행	-5642
▁보좌	-5643
▁커지	-5644
영상	-5645
▁호르	-5646
▁렉	-5647
▁옹호	-5648
▁외계	-5649
▁인자	-5650
▁럭	-5651
▁석조	-5652
▁노인	-5653
▁전작	-5654
▁색상	-5655
▁다큐멘터리	-5656
▁별로	-5657
▁폐기	-5658
▁표본	-5659
▁부동산	-5660
▁1926	-5661
▁흙	-5662
▁창간	-5663
▁우크라이나	-5664
▁밀라노	-5665
▁체인	-5666
▁관중	-5667
▁사신	-5668
▁항목	-5669
몬드	-5670
▁SN	-5671
▁앱	-5672
▁산타	-5673
▁단행	-5674
▁산악	-5675
▁의병	-5676
▁호남	-5677
▁종족	-5678
▁베토벤	-5679
▁협의회	-5680
▁꺼	-5681
▁험	-5682
▁왕립	-5683
av	-5684
▁168	-5685
▁슐	-5686
▁상하이	-5687
▁놀라	-5688
▁탑승	-5689
▁동아시아	-5690
▁송라이터	-5691
▁자문	-5692
페이지	-5693
▁아무런	-5694
▁He	-5695
▁문하	-5696
▁대교	-5697
▁무선	-5698
▁포크	-5699
생물	-5700
▁해설	-5701
▁유입	-5702
이즈	-5703
티움	-5704
▁노조	-5705
스토	-5706
▁머물	-5707
▁선제	-5708
▁수감	-5709
▁연금	-5710
▁내장	-5711
▁PD	-5712
▁지름	-5713
▁자전거	-5714
▁세조	-5715
▁패러	-5716
▁묘지	-5717
▁꾸미	-5718
ind	-5719
▁겨우	-5720
▁비전	-5721
▁상영	-5722
▁연고지	-5723
▁스틸	-5724
슬라	-5725
▁급속	-5726
▁안보	-5727
런트	-5728
튜브	-5729
▁디즈니	-5730
▁사료	-5731
다이라	-5732
▁진지	-5733
▁헤드	-5734
▁NHK	-5735
▁아울	-5736
▁에릭	-5737
▁162	-5738
▁꾸준히	-5739
로프	-5740
▁기종	-5741
▁동사	-5742
▁합계	-5743
▁166	-5744
▁레이다	-5745
▁기압	-5746
▁좌익	-5747
▁하천	-5748
▁최우수	-5749
▁1905	-5750
ame	-5751
▁정사	-5752
▁홈페이지	-5753
▁제후	-5754
se	-5755
▁기름	-5756
▁유튜브	-5757
AC	-5758
▁콩고	-5759
▁오리지	-5760
텐도	-5761
▁닌텐도	-5762
▁룩	-5763
▁물려	-5764
▁민족주의	-5765
▁시에	-5766
▁대조	-5767
▁원로	-5768
▁비평가	-5769
나카	-5770
▁Sp	-5771
▁||	-5772
▁엄마	-5773
▁예외	-5774
▁유신	-5775
▁기하학	-5776
▁비단	-5777
▁ㄴ다고	-5778
▁산지	-5779
▁151	-5780
▁묻히	-5781
▁바이올	-5782
▁문화유산	-5783
세스	-5784
▁독일어	-5785
려나	-5786
브스	-5787
▁버그	-5788
총장	-5789
페인	-5790
▁소니	-5791
▁조선인	-5792
▁뚫	-5793
▁스승	-5794
▁시외	-5795
▁가쓰	-5796
▁주말	-5797
▁색깔	-5798
▁바라보	-5799
▁증기	-5800
▁트럭	-5801
▁데이터베이스	-5802
ry	-5803
▁요미	-5804
▁흥미	-5805
▁158	-5806
ES	-5807
▁수천	-5808
▁참조	-5809
▁품질	-5810
▁사이클	-5811
▁수명	-5812
▁역과	-5813
▁곧바로	-5814
▁모집	-5815
▁목격	-5816
플레이	-5817
▁우르	-5818
▁스페셜	-5819
지마	-5820
▁도리	-5821
▁리듬	-5822
▁드래곤	-5823
▁셋째	-5824
▁운명	-5825
▁커뮤니티	-5826
무네	-5827
스케	-5828
▁마일	-5829
▁아크	-5830
▁쥬	-5831
어트	-5832
▁상소	-5833
▁광역	-5834
▁선진	-5835
▁칩	-5836
ith	-5837
▁정류장	-5838
▁크리스토	-5839
▁유고슬	-5840
▁유고슬라비아	-5841
엘라	-5842
▁문과	-5843
▁지바	-5844
▁리얼	-5845
▁조르	-5846
▁나폴리	-5847
▁주의자	-5848
▁원산	-5849
▁반환	-5850
▁대안	-5851
▁악장	-5852
▁점성	-5853
스티벌	-5854
▁십자군	-5855
▁랴	-5856
잡히	-5857
▁이오	-5858
▁주거	-5859
ort	-5860
▁02	-5861
▁신비	-5862
▁야생	-5863
▁옛날	-5864
▁자바	-5865
▁협의	-5866
▁라이온	-5867
▁가미	-5868
▁라이벌	-5869
▁빨리	-5870
▁입증	-5871
▁할리	-5872
▁페스티벌	-5873
▁구마	-5874
▁남서쪽	-5875
▁일행	-5876
▁방안	-5877
▁수수	-5878
▁유닛	-5879
▁주파	-5880
▁이리	-5881
▁레이스	-5882
▁주한	-5883
▁도심	-5884
▁사리	-5885
▁플루	-5886
▁입문	-5887
▁토니	-5888
▁브라이언	-5889
▁스피드	-5890
▁무관	-5891
프란시스코	-5892
ok	-5893
▁기점	-5894
▁되찾	-5895
▁향년	-5896
▁운반	-5897
▁오디션	-5898
▁샌프란시스코	-5899
▁인텔	-5900
▁기용	-5901
▁동치	-5902
▁재무	-5903
▁특급	-5904
▁사면	-5905
▁날리	-5906
▁베이스볼	-5907
▁사직	-5908
▁안드로이드	-5909
▁적색	-5910
해군	-5911
▁저지르	-5912
▁배제	-5913
▁한나라	-5914
▁서북	-5915
▁쿠르	-5916
▁디자이너	-5917
▁콜롬비아	-5918
▁한나라당	-5919
회의	-5920
▁단층	-5921
▁동영상	-5922
▁연주자	-5923
▁출판사	-5924
▁마라	-5925
▁미네	-5926
▁미만	-5927
▁인치	-5928
▁기념물	-5929
프스	-5930
▁케이블	-5931
▁마케도니아	-5932
▁와카	-5933
▁정교	-5934
▁오리지널	-5935
루살	-5936
▁렌즈	-5937
▁분배	-5938
▁마스	-5939
▁직장	-5940
▁초래	-5941
▁묘소	-5942
▁1904	-5943
▁신임	-5944
▁출산	-5945
▁부시	-5946
▁평소	-5947
▁프랜	-5948
▁복제	-5949
루살렘	-5950
▁지휘자	-5951
▁개수	-5952
▁석탑	-5953
▁알라	-5954
쳐지	-5955
▁부패	-5956
▁당사자	-5957
▁예술가	-5958
▁템	-5959
▁폭스	-5960
▁스테이지	-5961
▁예언	-5962
▁긴급	-5963
▁사로	-5964
▁왕족	-5965
▁관장	-5966
▁교전	-5967
▁서경	-5968
▁165	-5969
프라	-5970
▁진도	-5971
▁콘스탄티노	-5972
▁용기	-5973
▁기재	-5974
▁단종	-5975
▁의거	-5976
▁챌	-5977
▁Un	-5978
▁좌석	-5979
▁파생	-5980
▁마쓰다이라	-5981
▁센트럴	-5982
▁급행	-5983
▁모순	-5984
▁상무	-5985
▁자사	-5986
▁입히	-5987
▁판타지	-5988
▁신하	-5989
▁Wh	-5990
▁154	-5991
▁내륙	-5992
▁계단	-5993
리케이션	-5994
▁가게	-5995
ob	-5996
ord	-5997
▁여동생	-5998
▁수면	-5999
▁오타	-6000
▁트레	-6001
▁파나	-6002
▁Se	-6003
▁동전	-6004
문학	-6005
▁합작	-6006
▁무신	-6007
▁비즈니스	-6008
교육	-6009
▁무슬	-6010
▁예루살렘	-6011
qu	-6012
▁권고	-6013
▁받침	-6014
▁겹치	-6015
▁사르	-6016
터스	-6017
▁압박	-6018
페이	-6019
▁신용	-6020
▁용산	-6021
▁163	-6022
▁156	-6023
▁바이올린	-6024
▁항일	-6025
▁스펙트	-6026
▁정계	-6027
▁도메인	-6028
▁링크	-6029
▁연애	-6030
▁무슬림	-6031
가스	-6032
▁DJ	-6033
모니	-6034
우옌	-6035
▁사범	-6036
▁167	-6037
▁가득	-6038
▁그랑	-6039
▁크리스티	-6040
▁SF	-6041
디스	-6042
려오	-6043
▁여신	-6044
▁리투아	-6045
▁리투아니아	-6046
▁상임	-6047
▁진상	-6048
▁스펙트럼	-6049
ate	-6050
▁스쿨	-6051
▁호환	-6052
경기	-6053
▁끼리	-6054
▁회원국	-6055
▁깔	-6056
▁AM	-6057
▁훼손	-6058
▁900	-6059
식물	-6060
▁대단	-6061
▁아인	-6062
▁전염	-6063
▁타마	-6064
랑이	-6065
▁이지	-6066
▁밀접	-6067
▁서울시	-6068
PS	-6069
지르	-6070
▁비로	-6071
▁충남	-6072
▁시달리	-6073
▁자회사	-6074
카르	-6075
▁조국	-6076
▁스마트폰	-6077
▁조류	-6078
▁이명박	-6079
▁씌	-6080
▁챌린	-6081
▁한양	-6082
▁게시	-6083
▁노무현	-6084
▁장편	-6085
껍질	-6086
▁고립	-6087
▁니스	-6088
▁바그	-6089
▁번식	-6090
▁얼음	-6091
▁우지	-6092
▁발효	-6093
▁어항	-6094
▁혜성	-6095
▁샹	-6096
▁미얀	-6097
▁선사	-6098
▁자마	-6099
▁분지	-6100
▁지주	-6101
▁친정	-6102
▁애국	-6103
▁과제	-6104
▁었었	-6105
▁비잔티움	-6106
▁쇼군	-6107
▁끄	-6108
▁무라	-6109
▁교섭	-6110
▁ᆯ수록	-6111
킨스	-6112
▁착륙	-6113
▁일요일	-6114
▁팅	-6115
▁주립	-6116
▁참판	-6117
IC	-6118
▁기아	-6119
▁예능	-6120
▁오다	-6121
▁와중	-6122
▁지장	-6123
▁오케스트라	-6124
▁피렌	-6125
길이	-6126
▁UN	-6127
▁포맷	-6128
커스	-6129
▁식사	-6130
▁성종	-6131
▁시체	-6132
▁139	-6133
▁서브	-6134
잡이	-6135
▁진나라	-6136
▁농도	-6137
▁저기	-6138
▁피스	-6139
▁알바니아	-6140
▁구장	-6141
▁아베	-6142
▁옌	-6143
▁융합	-6144
▁파동	-6145
▁선두	-6146
▁차관	-6147
▁최신	-6148
▁요크	-6149
럼비아	-6150
▁AS	-6151
▁대령	-6152
▁부흥	-6153
▁145	-6154
▁행정부	-6155
▁하트	-6156
로디	-6157
예프	-6158
▁쿠스	-6159
▁디비전	-6160
▁낱	-6161
ET	-6162
▁바티	-6163
▁유하	-6164
▁기타리스트	-6165
▁뜨겁	-6166
부인	-6167
▁월간	-6168
▁련	-6169
▁강연	-6170
▁발족	-6171
▁소나	-6172
▁용량	-6173
▁아이디	-6174
▁잊	-6175
▁보전	-6176
▁부자	-6177
▁야기	-6178
▁위주	-6179
▁하드웨어	-6180
▁거인	-6181
▁충성	-6182
▁개발자	-6183
▁주머니	-6184
▁킬로미터	-6185
ast	-6186
▁전이	-6187
▁투명	-6188
▁마리오	-6189
▁해인	-6190
▁브라우	-6191
▁간접	-6192
▁공과	-6193
▁착수	-6194
▁학파	-6195
▁부통령	-6196
▁지질	-6197
▁스트리트	-6198
▁번주	-6199
▁MVP	-6200
DP	-6201
▁관찰사	-6202
▁부도	-6203
▁몸길이	-6204
▁피렌체	-6205
▁아이디어	-6206
▁고조	-6207
▁임상	-6208
▁사사	-6209
▁응우옌	-6210
▁굉	-6211
▁김동	-6212
랑크	-6213
▁전임	-6214
▁페어	-6215
▁관광객	-6216
▁마케팅	-6217
▁미나미	-6218
▁전지	-6219
▁측근	-6220
▁넬	-6221
수아	-6222
▁마산	-6223
▁제네	-6224
▁아세	-6225
데이트	-6226
▁중국어	-6227
▁규명	-6228
▁배정	-6229
▁완화	-6230
▁거스르	-6231
if	-6232
▁하노	-6233
▁업데이트	-6234
▁이에	-6235
▁전류	-6236
▁정벌	-6237
▁전두	-6238
▁1896	-6239
▁점유	-6240
▁HIV	-6241
어내	-6242
▁맥스	-6243
트니	-6244
▁성공회	-6245
▁샬	-6246
레이터	-6247
▁피에르	-6248
▁권유	-6249
▁차체	-6250
ack	-6251
▁DS	-6252
▁공용	-6253
▁사바	-6254
▁귀환	-6255
란트	-6256
ive	-6257
▁경선	-6258
트롤	-6259
▁중도	-6260
▁형법	-6261
▁보드	-6262
▁공전	-6263
▁여덟	-6264
▁제의	-6265
▁출구	-6266
IT	-6267
균관	-6268
▁로빈	-6269
▁턴	-6270
ure	-6271
▁스콧	-6272
▁트윈	-6273
주곡	-6274
▁뱅크	-6275
▁친선	-6276
▁게이트	-6277
▁IP	-6278
▁구동	-6279
▁짙	-6280
▁연수	-6281
▁성벽	-6282
▁둘러싸이	-6283
▁스타크래프트	-6284
▁젖	-6285
악기	-6286
▁중독	-6287
리티	-6288
▁검증	-6289
▁석탄	-6290
▁오렌	-6291
▁174	-6292
▁존경	-6293
▁살아가	-6294
▁수학자	-6295
▁마운	-6296
▁세례	-6297
▁152	-6298
▁애플리케이션	-6299
▁관습	-6300
▁노동조합	-6301
▁요미우리	-6302
루미	-6303
▁디젤	-6304
▁수산	-6305
▁우즈	-6306
▁지각	-6307
▁플라스	-6308
▁옐	-6309
▁미하	-6310
운서	-6311
츠키	-6312
ock	-6313
▁실용	-6314
▁5000	-6315
▁서열	-6316
▁정찰	-6317
▁피난	-6318
▁조용	-6319
iv	-6320
▁시드니	-6321
▁인과	-6322
▁청와	-6323
▁아나운서	-6324
▁메디	-6325
▁소송법	-6326
▁테일러	-6327
결승	-6328
문관	-6329
▁변동	-6330
▁사명	-6331
▁쇼핑	-6332
▁전장	-6333
▁157	-6334
▁서일본	-6335
▁행진	-6336
▁뷔	-6337
▁리오	-6338
▁청와대	-6339
▁얼마나	-6340
▁전문학교	-6341
▁곁	-6342
▁Ar	-6343
▁시라	-6344
▁꼴	-6345
토미	-6346
▁자면	-6347
▁전진	-6348
▁기울이	-6349
▁사인	-6350
▁밀양	-6351
▁테오	-6352
▁장성	-6353
ck	-6354
▁금성	-6355
▁규격	-6356
▁루수	-6357
▁자율	-6358
▁준공	-6359
▁한화	-6360
▁해전	-6361
▁한강	-6362
▁빌헬	-6363
▁퇴각	-6364
▁호평	-6365
폴리스	-6366
▁프로세스	-6367
▁고사	-6368
▁염색	-6369
▁뿔	-6370
▁고개	-6371
▁번뇌	-6372
▁수신	-6373
▁좌표	-6374
▁다이아	-6375
▁신전	-6376
▁책봉	-6377
▁미스터	-6378
▁하버드	-6379
▁킨	-6380
▁구제	-6381
▁쏟	-6382
▁적대	-6383
▁회수	-6384
가루	-6385
▁관현	-6386
▁상상	-6387
▁아울러	-6388
▁급진	-6389
▁신칸	-6390
▁이슈	-6391
▁카나	-6392
▁판매량	-6393
▁관념	-6394
▁여의	-6395
▁취약	-6396
▁저기압	-6397
▁성균관	-6398
▁가즈	-6399
▁백신	-6400
▁장인	-6401
▁연구자	-6402
외선	-6403
▁카시	-6404
▁힘쓰	-6405
산군	-6406
▁흥행	-6407
▁복소	-6408
▁지분	-6409
▁자손	-6410
트랙	-6411
▁무효	-6412
▁해임	-6413
원숭이	-6414
끄럽	-6415
▁비극	-6416
▁MP	-6417
전자	-6418
▁몰락	-6419
수수	-6420
니스트	-6421
▁국어	-6422
▁응답	-6423
▁제휴	-6424
▁연루	-6425
▁j	-6426
▁메가	-6427
▁상류	-6428
▁식당	-6429
▁125	-6430
카드	-6431
▁따위	-6432
▁이순	-6433
▁할당	-6434
▁쳐	-6435
포스	-6436
▁146	-6437
▁휩	-6438
▁소금	-6439
▁통행	-6440
▁들리	-6441
▁문재인	-6442
▁쇄	-6443
▁달아나	-6444
악단	-6445
▁서독	-6446
하르트	-6447
▁105	-6448
▁니아	-6449
▁소총	-6450
▁승차	-6451
▁천문학	-6452
메르	-6453
혁명	-6454
▁히스	-6455
▁1500	-6456
자와	-6457
▁악마	-6458
▁흩	-6459
▁김용	-6460
▁적히	-6461
▁마찰	-6462
▁문제점	-6463
▁남양	-6464
▁두드	-6465
▁패전	-6466
▁아니하	-6467
▁파스	-6468
▁끈	-6469
▁박영	-6470
▁창업	-6471
▁나미	-6472
▁남인	-6473
▁로고	-6474
▁루터	-6475
▁여수	-6476
▁3000	-6477
▁동남아시아	-6478
▁믿음	-6479
▁에티	-6480
▁강사	-6481
▁술탄	-6482
▁자고	-6483
12	-6484
▁충족	-6485
▁1911	-6486
▁마오	-6487
▁외무	-6488
▁우정	-6489
▁이노	-6490
▁착공	-6491
▁매출	-6492
▁유출	-6493
▁노드	-6494
▁저택	-6495
▁윌슨	-6496
ime	-6497
▁자책점	-6498
▁소지	-6499
▁히라	-6500
고속도로	-6501
▁민국	-6502
▁서서	-6503
▁신칸센	-6504
▁곳곳	-6505
▁이복	-6506
▁두르	-6507
▁성전	-6508
▁153	-6509
▁얇	-6510
▁나열	-6511
▁지지자	-6512
▁원나라	-6513
라트	-6514
▁소닉	-6515
▁조언	-6516
▁하마	-6517
▁갈라지	-6518
▁프로토콜	-6519
일드	-6520
▁고원	-6521
▁내내	-6522
▁단원	-6523
▁소관	-6524
▁떠오르	-6525
▁항공모	-6526
▁PS	-6527
▁여래	-6528
▁청사	-6529
▁석가	-6530
▁소재지	-6531
▁이이	-6532
▁일렉	-6533
one	-6534
▁순천	-6535
▁중점	-6536
▁WWE	-6537
▁Le	-6538
▁디비	-6539
▁지목	-6540
▁과목	-6541
서양	-6542
▁매개	-6543
▁사지	-6544
▁카트	-6545
▁찾아보	-6546
▁희극	-6547
▁빌헬름	-6548
▁예배	-6549
▁회견	-6550
제프	-6551
▁MC	-6552
▁유언	-6553
▁103	-6554
▁환원	-6555
▁시외버스	-6556
▁폴리스	-6557
▁강수량	-6558
▁고무	-6559
▁힌두	-6560
네이	-6561
▁증후	-6562
▁우주선	-6563
▁동위	-6564
▁매기	-6565
▁배구	-6566
▁환상	-6567
▁눈물	-6568
▁아즈	-6569
토시	-6570
대군	-6571
펴보	-6572
▁비아	-6573
▁편곡	-6574
▁살펴보	-6575
팩트	-6576
▁마천	-6577
▁보잉	-6578
▁중장	-6579
▁회계	-6580
▁셈	-6581
▁Pro	-6582
▁연인	-6583
▁이글	-6584
▁특유	-6585
▁후자	-6586
▁카자흐	-6587
▁미얀마	-6588
▁클린	-6589
▁비틀즈	-6590
▁법령	-6591
▁성모	-6592
▁주권	-6593
▁천사	-6594
▁ISO	-6595
▁오클	-6596
▁개업	-6597
▁공자	-6598
▁취재	-6599
▁터지	-6600
▁참가자	-6601
▁포장	-6602
▁고베	-6603
▁얘	-6604
▁가라	-6605
▁일관	-6606
델피아	-6607
▁필라델피아	-6608
▁기장	-6609
▁매사	-6610
노프	-6611
▁제트	-6612
▁채무	-6613
▁공략	-6614
▁나리	-6615
▁겸임	-6616
▁반격	-6617
▁선원	-6618
▁진리	-6619
▁해역	-6620
ML	-6621
즈카	-6622
▁친척	-6623
노리	-6624
▁공인	-6625
▁별개	-6626
▁시립	-6627
▁와인	-6628
▁점프	-6629
AP	-6630
▁우편	-6631
기니	-6632
▁굵	-6633
▁버튼	-6634
▁최적	-6635
▁오렌지	-6636
OC	-6637
▁패스	-6638
▁이어서	-6639
▁삿	-6640
어리	-6641
▁155	-6642
▁출입구	-6643
▁각기	-6644
▁상자	-6645
▁중종	-6646
▁추모	-6647
▁닭	-6648
▁근접	-6649
▁각본가	-6650
받침	-6651
▁회화	-6652
▁토크	-6653
▁독립운동가	-6654
▁대답	-6655
▁테스	-6656
▁빼앗기	-6657
마사	-6658
▁격렬	-6659
▁보충	-6660
▁협동	-6661
동물	-6662
리크	-6663
▁허브	-6664
▁아군	-6665
▁게재	-6666
▁카타	-6667
▁두드러지	-6668
▁나고	-6669
▁인격	-6670
▁주파수	-6671
▁유해	-6672
▁밭	-6673
▁유격	-6674
▁정치가	-6675
▁이원	-6676
▁태우	-6677
시온	-6678
▁Bo	-6679
▁위장	-6680
▁별자리	-6681
te	-6682
▁사가	-6683
▁컨트롤	-6684
소스	-6685
▁인형	-6686
▁담배	-6687
▁법무	-6688
▁사물	-6689
▁앞면	-6690
▁동등	-6691
▁지우	-6692
▁오키나	-6693
▁증후군	-6694
▁실종	-6695
▁토리	-6696
▁포수	-6697
▁민영	-6698
▁생일	-6699
▁108	-6700
▁성주	-6701
▁항공모함	-6702
▁리메	-6703
▁미소	-6704
▁북동부	-6705
▁매력	-6706
▁이바	-6707
▁이영	-6708
▁이인	-6709
▁평행	-6710
▁합법	-6711
▁금액	-6712
▁레전	-6713
▁오디오	-6714
▁민사	-6715
▁유교	-6716
▁감지	-6717
▁영동	-6718
▁토요일	-6719
▁트라이	-6720
▁미루	-6721
▁Con	-6722
플러	-6723
▁두산	-6724
▁룰	-6725
▁내지	-6726
▁아바	-6727
▁일찍이	-6728
▁자발	-6729
▁베르크	-6730
▁스파이	-6731
때로	-6732
Pa	-6733
▁양상	-6734
▁개찰구	-6735
▁아리스	-6736
▁사우디아	-6737
▁히데요시	-6738
▁건의	-6739
▁서해	-6740
▁준결승	-6741
산면	-6742
상스	-6743
▁전두환	-6744
▁외곽	-6745
▁하우	-6746
▁상대방	-6747
▁서서히	-6748
io	-6749
▁스터	-6750
▁박탈	-6751
▁상부	-6752
▁승무원	-6753
▁고체	-6754
항공	-6755
▁일족	-6756
▁에디	-6757
▁퍼시픽	-6758
▁쉐	-6759
▁에우	-6760
▁꾀	-6761
ber	-6762
▁아케	-6763
▁화살	-6764
산리	-6765
▁교장	-6766
▁추격	-6767
▁야간	-6768
▁이사장	-6769
▁브래	-6770
▁에이스	-6771
▁트럼프	-6772
▁크리스마스	-6773
▁나고야	-6774
▁때때로	-6775
▁드라이브	-6776
▁앙리	-6777
▁입상	-6778
▁전례	-6779
▁호세	-6780
▁시청자	-6781
▁하인리히	-6782
베이터	-6783
▁갓	-6784
▁상장	-6785
▁섞이	-6786
▁IT	-6787
▁생명체	-6788
러미	-6789
▁해운	-6790
▁홍수	-6791
▁아우구	-6792
▁1909	-6793
화점	-6794
▁교단	-6795
퍼니	-6796
▁만세	-6797
▁무려	-6798
▁김영삼	-6799
▁궁정	-6800
▁세균	-6801
▁고발	-6802
▁싸이	-6803
▁외국어	-6804
▁대주교	-6805
▁이슬람교	-6806
▁기금	-6807
▁사다	-6808
다드	-6809
▁부착	-6810
▁그만두	-6811
가타	-6812
▁128	-6813
▁149	-6814
▁물자	-6815
▁캠페인	-6816
▁톈	-6817
▁긴장	-6818
▁102	-6819
▁가르침	-6820
▁운동장	-6821
모어	-6822
▁명의	-6823
▁복장	-6824
▁향교	-6825
▁보스니아	-6826
▁맵	-6827
▁콜라	-6828
▁트위	-6829
▁사용자	-6830
구장	-6831
▁전도	-6832
▁메타	-6833
▁골프	-6834
▁대군	-6835
▁수성	-6836
▁트루	-6837
▁호칭	-6838
칠리아	-6839
▁#	-6840
라미	-6841
▁고가	-6842
▁연도	-6843
▁짜리	-6844
▁자마자	-6845
▁제작자	-6846
▁배틀	-6847
▁정밀	-6848
라이트	-6849
▁건축가	-6850
▁안장	-6851
▁르네상스	-6852
▁대외	-6853
▁집계	-6854
▁치세	-6855
▁후안	-6856
▁펼쳐지	-6857
람회	-6858
▁어드	-6859
▁ᆯ까	-6860
▁남한	-6861
▁슬라	-6862
▁피고	-6863
▁존중	-6864
▁에스파냐	-6865
▁발원	-6866
▁최저	-6867
▁사우디아라비아	-6868
▁중국인	-6869
▁텍스트	-6870
ge	-6871
▁중재	-6872
▁주지사	-6873
트릭	-6874
▁전대	-6875
▁레이저	-6876
▁계절	-6877
▁직책	-6878
▁송나라	-6879
▁발현	-6880
age	-6881
▁차남	-6882
먼드	-6883
▁흘러	-6884
▁셸	-6885
▁며칠	-6886
▁자유당	-6887
▁여주	-6888
▁섭취	-6889
▁시오	-6890
▁Bl	-6891
▁팽창	-6892
▁네이버	-6893
iz	-6894
▁포괄	-6895
집합	-6896
▁사절	-6897
▁세미	-6898
▁키프	-6899
▁레전드	-6900
▁강경	-6901
▁넓히	-6902
백과	-6903
▁최소한	-6904
생활	-6905
▁단기	-6906
▁문양	-6907
▁아미타	-6908
▁방침	-6909
▁상세	-6910
▁초창	-6911
▁향후	-6912
▁$	-6913
▁사이버	-6914
언스	-6915
▁손가락	-6916
▁원자로	-6917
▁포도주	-6918
▁댐	-6919
▁대니	-6920
▁턱	-6921
▁다중	-6922
▁수평	-6923
▁굉장	-6924
▁뽑히	-6925
▁프랭크	-6926
AD	-6927
차례	-6928
▁고래	-6929
▁청장	-6930
▁촉구	-6931
▁팔레스	-6932
▁갑작	-6933
▁캄보	-6934
▁탐지	-6935
사기	-6936
▁객관	-6937
▁147	-6938
▁룽	-6939
▁조반	-6940
▁충주	-6941
▁태생	-6942
▁유니폼	-6943
▁그랑프리	-6944
▁낙선	-6945
▁조리	-6946
▁토스	-6947
▁127	-6948
▁로프	-6949
▁수군	-6950
울리	-6951
▁블루스	-6952
▁동독	-6953
▁보리	-6954
▁토마	-6955
▁CPU	-6956
▁단점	-6957
▁명목	-6958
▁볼리	-6959
▁경부	-6960
▁속성	-6961
수엘라	-6962
▁딩	-6963
▁스릴	-6964
▁노란색	-6965
▁여진	-6966
▁아미노	-6967
▁1915	-6968
▁엘리베이터	-6969
▁뢰	-6970
▁기수	-6971
행위	-6972
▁무죄	-6973
▁왜성	-6974
▁초연	-6975
▁캐스팅	-6976
▁메인	-6977
▁진군	-6978
▁케네	-6979
▁171	-6980
노부	-6981
▁입체	-6982
▁주축	-6983
▁하이드	-6984
▁숭배	-6985
▁음원	-6986
▁로맨스	-6987
▁역명	-6988
▁전함	-6989
▁컬러	-6990
▁1913	-6991
sp	-6992
두르	-6993
▁취지	-6994
▁협조	-6995
▁겔	-6996
▁난민	-6997
라리	-6998
▁심의	-6999
▁알코	-7000
▁오키나와	-7001
▁마비	-7002
▁북구	-7003
▁북방	-7004
▁침몰	-7005
▁황해	-7006
orld	-7007
▁윌리엄스	-7008
우라	-7009
▁제곱	-7010
▁유소년	-7011
▁이어받	-7012
▁추증	-7013
▁상당수	-7014
▁따뜻	-7015
▁라파	-7016
▁베네수엘라	-7017
▁부천	-7018
▁후일	-7019
서리	-7020
▁투르크	-7021
▁천문학자	-7022
▁동당	-7023
ik	-7024
▁원고	-7025
▁낮추	-7026
▁내주	-7027
창군	-7028
▁신흥	-7029
▁문학상	-7030
▁김재	-7031
▁마하	-7032
▁부과	-7033
▁옥스	-7034
▁언제나	-7035
▁테니스	-7036
▁분광	-7037
시티	-7038
▁재미	-7039
▁위키백과	-7040
▁광년	-7041
▁동년	-7042
▁수동	-7043
▁센서	-7044
▁창건	-7045
▁닿	-7046
▁김수	-7047
▁추상	-7048
▁출토	-7049
▁이민자	-7050
▁초창기	-7051
▁둘레	-7052
▁타르	-7053
▁서사	-7054
▁이틀	-7055
기지	-7056
▁동래	-7057
▁태수	-7058
▁팜	-7059
▁코프	-7060
▁강과	-7061
▁대포	-7062
▁기습	-7063
▁시그	-7064
▁탈환	-7065
▁쓰러지	-7066
▁개미	-7067
자치도	-7068
▁169	-7069
▁제주특별	-7070
▁제주특별자치도	-7071
▁수렴	-7072
▁머신	-7073
▁창시	-7074
▁울리	-7075
▁병역	-7076
▁원반	-7077
포구	-7078
▁GT	-7079
▁김진	-7080
▁수령	-7081
▁CE	-7082
명사전	-7083
▁디스플레이	-7084
▁대역	-7085
▁바흐	-7086
▁스파르타	-7087
▁어업	-7088
▁청원	-7089
▁종결	-7090
▁찾아내	-7091
▁1895	-7092
▁든지	-7093
크리트	-7094
▁유수	-7095
▁카탈	-7096
여지	-7097
▁모스	-7098
▁hPa	-7099
▁나가사키	-7100
▁SP	-7101
▁광부	-7102
▁링컨	-7103
▁아폴	-7104
▁정말	-7105
▁리메이크	-7106
▁무제	-7107
▁총선거	-7108
▁프레스	-7109
▁흩어지	-7110
▁딴	-7111
▁al	-7112
▁인재	-7113
▁때리	-7114
▁141	-7115
▁팔레스타인	-7116
▁걱	-7117
▁남원	-7118
▁대처	-7119
평군	-7120
포트	-7121
▁계몽	-7122
▁유연	-7123
▁통칭	-7124
▁아사히	-7125
▁초상화	-7126
▁한동안	-7127
▁적자	-7128
▁언론인	-7129
▁대제	-7130
▁엔지	-7131
▁주차	-7132
▁효력	-7133
MS	-7134
▁께서	-7135
▁동력	-7136
▁반박	-7137
▁법제	-7138
▁비문	-7139
박쥐	-7140
▁국사	-7141
▁135	-7142
▁Tr	-7143
▁시공	-7144
▁끊임	-7145
▁총괄	-7146
▁다운로드	-7147
▁섭정	-7148
▁신세	-7149
공신	-7150
▁나주	-7151
네스코	-7152
▁북서부	-7153
석기	-7154
▁고백	-7155
▁후세	-7156
▁하부	-7157
▁온천	-7158
▁탤	-7159
벌레	-7160
▁양주	-7161
무기	-7162
ust	-7163
▁소실	-7164
그라드	-7165
▁수용소	-7166
▁김태	-7167
▁번영	-7168
보기	-7169
자스	-7170
▁서머	-7171
▁도호쿠	-7172
와라	-7173
▁자기장	-7174
▁풋볼	-7175
▁십자가	-7176
ep	-7177
▁바실	-7178
▁차기	-7179
▁나르	-7180
▁삼진	-7181
▁이진	-7182
▁중순	-7183
▁111	-7184
선거	-7185
▁신중	-7186
▁문화방송	-7187
▁귀중	-7188
▁대위	-7189
▁오빠	-7190
▁해병대	-7191
▁어스	-7192
▁캄보디아	-7193
▁개관	-7194
▁면하	-7195
▁영리	-7196
▁144	-7197
▁서울대	-7198
▁더글	-7199
▁저명	-7200
▁후대	-7201
▁몰아내	-7202
▁내외	-7203
▁첨가	-7204
▁큰	-7205
▁스핀	-7206
▁원내	-7207
▁폐위	-7208
▁풍경	-7209
▁날짜	-7210
▁스티브	-7211
▁그로	-7212
▁김포	-7213
▁명백	-7214
▁두루	-7215
▁식별	-7216
▁함유	-7217
따르	-7218
▁휴식	-7219
▁기요	-7220
▁정전	-7221
▁파업	-7222
▁전성기	-7223
▁컴퍼니	-7224
▁평하	-7225
▁리버풀	-7226
▁연세대	-7227
▁걱정	-7228
▁장미	-7229
▁아레나	-7230
int	-7231
▁알아	-7232
▁조달	-7233
▁당일	-7234
▁무상	-7235
▁병조	-7236
▁불편	-7237
▁제수	-7238
▁It	-7239
▁교원	-7240
▁이광	-7241
▁정무	-7242
▁119	-7243
누엘	-7244
▁충실	-7245
▁스릴러	-7246
▁컬럼비아	-7247
▁캉	-7248
▁천도	-7249
▁평야	-7250
▁꽤	-7251
키지	-7252
▁TH	-7253
▁공채	-7254
▁편리	-7255
▁관통	-7256
▁드럼	-7257
▁에다	-7258
▁총사	-7259
▁신학교	-7260
▁CO	-7261
▁매카	-7262
▁소환	-7263
▁중소	-7264
▁우연히	-7265
▁교양	-7266
▁다니엘	-7267
트리올	-7268
▁몬트리올	-7269
▁간호	-7270
▁모방	-7271
▁위임	-7272
▁인산	-7273
▁172	-7274
▁케네디	-7275
▁카이사르	-7276
▁도스	-7277
▁별칭	-7278
▁언더	-7279
▁룡	-7280
▁신기	-7281
▁총대	-7282
GC	-7283
▁고민	-7284
▁북위	-7285
▁선구	-7286
▁요르	-7287
▁유니버	-7288
EN	-7289
스럽	-7290
푸스	-7291
▁사회학	-7292
릴라	-7293
▁아종	-7294
▁휴전	-7295
▁덤	-7296
시로	-7297
▁엔지니어	-7298
▁관람	-7299
▁드라	-7300
▁루시	-7301
▁테레	-7302
▁신학자	-7303
▁리어	-7304
▁이글스	-7305
▁껍질	-7306
▁미주	-7307
▁106	-7308
ib	-7309
▁베드	-7310
▁평일	-7311
▁장안	-7312
▁니콜라	-7313
▁바퀴	-7314
▁선종	-7315
▁해수	-7316
▁친일인	-7317
▁유네스코	-7318
▁친일인명사전	-7319
▁연패	-7320
▁의상	-7321
나리	-7322
ome	-7323
▁묘역	-7324
▁미즈	-7325
▁쇼트	-7326
▁애덤	-7327
▁증진	-7328
▁진짜	-7329
▁세계관	-7330
▁아틀레	-7331
▁아이템	-7332
▁스페이스	-7333
그로	-7334
니치	-7335
ian	-7336
▁공모	-7337
▁페르난	-7338
▁보완	-7339
▁카리브	-7340
ude	-7341
▁좌절	-7342
▁평범	-7343
▁김상	-7344
▁중량	-7345
▁표명	-7346
▁장난	-7347
케이션	-7348
▁한성부	-7349
▁도주	-7350
▁서남	-7351
▁공직	-7352
▁미토	-7353
▁승점	-7354
▁아벨	-7355
▁초과	-7356
▁장려	-7357
▁마인	-7358
▁소통	-7359
▁슈트	-7360
▁제갈	-7361
▁케이스	-7362
▁멋	-7363
▁콘크리트	-7364
▁프랑수아	-7365
▁마츠	-7366
▁열대	-7367
▁영남	-7368
▁지혜	-7369
▁치열	-7370
▁항소	-7371
▁에스토	-7372
▁잦	-7373
▁콰	-7374
▁고수	-7375
▁등재	-7376
▁We	-7377
▁방패	-7378
▁아이슬	-7379
▁훔	-7380
▁돌연	-7381
▁생전	-7382
▁해변	-7383
▁책임자	-7384
▁정렬	-7385
▁차종	-7386
▁그루	-7387
▁낱말	-7388
▁배신	-7389
ere	-7390
▁포격	-7391
▁외교관	-7392
▁지폐	-7393
▁충북	-7394
▁닷	-7395
▁역설	-7396
▁전압	-7397
내셔널	-7398
▁인터내셔널	-7399
블로	-7400
세츠	-7401
페르	-7402
▁탱크	-7403
주의자	-7404
▁쿤	-7405
루션	-7406
▁영장	-7407
▁우울	-7408
▁일화	-7409
말라	-7410
선스	-7411
▁합창	-7412
▁공단	-7413
▁양도	-7414
▁투르	-7415
▁매사추	-7416
실록	-7417
ire	-7418
▁요하	-7419
▁입지	-7420
▁황태자	-7421
치오	-7422
▁단식	-7423
▁일조	-7424
▁매사추세츠	-7425
▁발트	-7426
▁부채	-7427
▁불명	-7428
▁상서	-7429
▁바리	-7430
▁퍼센트	-7431
▁아이슬란드	-7432
▁괴롭	-7433
▁대웅	-7434
▁업계	-7435
▁호위	-7436
▁우라늄	-7437
▁신속	-7438
▁암석	-7439
▁공의회	-7440
▁중추원	-7441
▁시나리오	-7442
▁기어	-7443
▁나스	-7444
▁에버	-7445
라이더	-7446
▁밟	-7447
유행	-7448
▁다치	-7449
▁부재	-7450
▁소유자	-7451
▁도르	-7452
▁구이	-7453
▁레바	-7454
▁어쩌	-7455
ace	-7456
▁교외	-7457
▁친왕	-7458
▁내려지	-7459
▁오노	-7460
▁오비	-7461
▁스페인어	-7462
▁에스토니아	-7463
▁시흥	-7464
▁위탁	-7465
▁친하	-7466
▁호프	-7467
ment	-7468
pe	-7469
▁견디	-7470
▁도루	-7471
▁실전	-7472
▁횟	-7473
▁마약	-7474
▁얘기	-7475
▁닝	-7476
▁고령	-7477
▁기인	-7478
▁김기	-7479
▁여지	-7480
▁지능	-7481
▁탈당	-7482
▁로열	-7483
▁봉쇄	-7484
▁육지	-7485
▁인연	-7486
▁라이선스	-7487
▁중심부	-7488
▁협주곡	-7489
▁물리학자	-7490
▁상담	-7491
▁서정	-7492
▁조이	-7493
리케인	-7494
마드	-7495
▁오세	-7496
오피아	-7497
▁리비아	-7498
▁슬로바키아	-7499
▁에티오피아	-7500
ide	-7501
▁창고	-7502
▁통근	-7503
▁어다	-7504
▁오사	-7505
▁파장	-7506
▁평택	-7507
▁해소	-7508
▁시선	-7509
▁허리케인	-7510
▁대전광역시	-7511
▁푼	-7512
▁즈음	-7513
▁현금	-7514
바이잔	-7515
▁148	-7516
▁을지	-7517
▁도라	-7518
▁사슬	-7519
▁전라도	-7520
▁애틀	-7521
▁할리우드	-7522
석탑	-7523
야시	-7524
▁병행	-7525
▁의뢰	-7526
▁하락	-7527
▁흘리	-7528
▁NBA	-7529
층석탑	-7530
▁호기	-7531
▁이사회	-7532
▁1916	-7533
중국	-7534
하면	-7535
▁격투	-7536
▁가로지르	-7537
▁신생	-7538
▁추세	-7539
▁136	-7540
▁아제르	-7541
▁끓	-7542
▁어라	-7543
▁치즈	-7544
제리	-7545
▁덮이	-7546
▁부적	-7547
▁결혼식	-7548
▁극동	-7549
▁스튜어트	-7550
▁낭만	-7551
▁순회	-7552
▁마이너	-7553
▁실시간	-7554
▁아제르바이잔	-7555
▁바닷	-7556
▁알아내	-7557
▁HT	-7558
▁TO	-7559
▁닛폰	-7560
의자	-7561
▁추출	-7562
▁허리	-7563
▁앓	-7564
아이	-7565
▁갈리	-7566
▁서재	-7567
▁아드	-7568
▁배터리	-7569
▁막내	-7570
▁우루과이	-7571
위원	-7572
▁성운	-7573
지리아	-7574
▁파이어	-7575
▁나이지리아	-7576
▁조연	-7577
▁입당	-7578
▁특집	-7579
▁급격히	-7580
▁동상	-7581
▁사헌	-7582
▁IBM	-7583
▁네이션스	-7584
IM	-7585
▁격퇴	-7586
▁솜	-7587
▁동이	-7588
▁우세	-7589
▁세션	-7590
▁주행	-7591
▁라이언	-7592
▁명제	-7593
▁작센	-7594
▁DC	-7595
▁구도	-7596
▁다항	-7597
▁바스	-7598
▁산림	-7599
▁원숭이	-7600
▁기단	-7601
▁신탁	-7602
▁패키지	-7603
▁국무총리	-7604
▁전념	-7605
시피	-7606
▁되게	-7607
▁의약	-7608
▁첼시	-7609
▁쌍둥이	-7610
▁아마도	-7611
▁데이비스	-7612
▁실장	-7613
바다	-7614
승지	-7615
▁거론	-7616
▁시초	-7617
▁138	-7618
▁수습	-7619
▁워드	-7620
▁유동	-7621
▁노부나가	-7622
람쥐	-7623
▁가동	-7624
▁개그	-7625
▁구릉	-7626
▁현종	-7627
▁딕	-7628
▁솟	-7629
▁면허	-7630
▁박해	-7631
▁저하	-7632
▁중위	-7633
▁한스	-7634
▁반감	-7635
▁안성	-7636
▁포터	-7637
▁객체	-7638
▁고소	-7639
▁페르디	-7640
▁돌려	-7641
▁약칭	-7642
▁평원	-7643
▁리우스	-7644
▁백화점	-7645
거지	-7646
▁구호	-7647
▁백색	-7648
▁지류	-7649
▁회고	-7650
▁브라우저	-7651
▁안기	-7652
▁깨달	-7653
▁극히	-7654
▁신규	-7655
cl	-7656
▁사헌부	-7657
▁리틀	-7658
▁섬기	-7659
▁치명	-7660
파르	-7661
▁la	-7662
▁분당	-7663
▁신한	-7664
▁외치	-7665
▁경연	-7666
▁레논	-7667
▁구조물	-7668
타로	-7669
▁거제	-7670
▁시즈	-7671
▁해밀	-7672
▁어울리	-7673
▁시칠리아	-7674
▁지선	-7675
▁360	-7676
▁펌	-7677
▁성숙	-7678
▁후쿠시마	-7679
▁혀	-7680
▁후방	-7681
▁거행	-7682
▁영의정	-7683
▁중성자	-7684
▁고성	-7685
▁상공	-7686
▁토성	-7687
▁탐구	-7688
▁뭉	-7689
▁냉각	-7690
▁도미	-7691
▁이세	-7692
▁재위	-7693
▁환영	-7694
양함	-7695
▁돌보	-7696
▁춘천	-7697
▁최상위	-7698
토모	-7699
▁복선	-7700
▁익히	-7701
▁104	-7702
▁아부	-7703
타나	-7704
▁오바	-7705
▁LP	-7706
▁가면	-7707
▁최악	-7708
▁한쪽	-7709
▁바이오	-7710
▁결선	-7711
▁그날	-7712
▁생식	-7713
▁피에	-7714
▁라이브러리	-7715
▁택시	-7716
▁해적	-7717
여래	-7718
▁재현	-7719
래스카	-7720
▁반도체	-7721
▁라트비아	-7722
▁감리	-7723
▁그램	-7724
▁임용	-7725
▁혈통	-7726
▁게르만	-7727
리에	-7728
▁En	-7729
▁동점	-7730
▁비시	-7731
▁횟수	-7732
곡리	-7733
리니	-7734
▁리라	-7735
▁비리	-7736
▁춘추	-7737
마쓰	-7738
▁장학	-7739
▁트래	-7740
베르토	-7741
▁별다르	-7742
▁도장	-7743
▁송시	-7744
▁애틀랜	-7745
▁릉	-7746
대신	-7747
▁차장	-7748
▁테이블	-7749
타고	-7750
회장	-7751
▁가짜	-7752
▁반경	-7753
▁성체	-7754
▁어휘	-7755
▁모니터	-7756
▁올바르	-7757
▁주가	-7758
어버리	-7759
ark	-7760
브레	-7761
▁나비	-7762
▁우위	-7763
▁제독	-7764
▁스트레스	-7765
은색	-7766
▁오피스	-7767
▁109	-7768
▁휴스턴	-7769
▁주름	-7770
푸르트	-7771
▁왜냐	-7772
▁잔류	-7773
데시	-7774
하시	-7775
▁고인	-7776
▁데모	-7777
▁Pr	-7778
▁개원	-7779
▁목판	-7780
▁행적	-7781
▁방송사	-7782
▁스톡	-7783
▁옴	-7784
▁축하	-7785
▁하워드	-7786
▁이케	-7787
▁현저	-7788
▁123	-7789
▁대학생	-7790
▁부당	-7791
▁정점	-7792
▁힘입	-7793
▁견제	-7794
▁칼라	-7795
▁교황청	-7796
▁호랑이	-7797
▁통증	-7798
▁억압	-7799
▁폭동	-7800
▁사우루스	-7801
▁아홉	-7802
▁코무네	-7803
▁공수	-7804
▁대표작	-7805
▁햇	-7806
▁성취	-7807
▁육체	-7808
▁주주	-7809
▁야구장	-7810
고쿠	-7811
차기	-7812
▁바나	-7813
▁공산주의자	-7814
▁소매	-7815
▁열정	-7816
더슨	-7817
포드	-7818
▁여당	-7819
▁루프	-7820
▁이식	-7821
▁한인	-7822
란히	-7823
▁민회	-7824
▁고장	-7825
▁매입	-7826
▁순교	-7827
▁아담	-7828
▁연하	-7829
▁적당	-7830
▁헐	-7831
랜트	-7832
▁NC	-7833
▁펜실	-7834
▁연합회	-7835
베이니아	-7836
▁타이거즈	-7837
▁펜실베이니아	-7838
▁시바	-7839
▁명령어	-7840
▁벌금	-7841
▁인플	-7842
▁축적	-7843
헤이	-7844
▁143	-7845
▁카자흐스탄	-7846
▁노바	-7847
▁발해	-7848
▁터치	-7849
은이	-7850
▁AK	-7851
▁종로구	-7852
▁AR	-7853
▁광물	-7854
▁응원	-7855
▁경관	-7856
▁너비	-7857
▁암시	-7858
▁주역	-7859
▁처녀	-7860
▁분기점	-7861
▁휠	-7862
▁분비	-7863
▁팔라	-7864
▁동아일보	-7865
글리	-7866
▁오해	-7867
법인	-7868
▁가죽	-7869
▁누이	-7870
▁상점	-7871
▁수련	-7872
▁리우	-7873
바시	-7874
▁공천	-7875
▁다발	-7876
▁청춘	-7877
▁베스	-7878
▁신조	-7879
▁부르크	-7880
▁롤링	-7881
▁사모	-7882
▁아예	-7883
▁해명	-7884
▁산란	-7885
▁상단	-7886
▁유한	-7887
▁이화	-7888
▁제하	-7889
▁돋	-7890
▁놀랍	-7891
▁성사	-7892
▁존속	-7893
▁피츠	-7894
▁이에야스	-7895
▁팡	-7896
▁토모	-7897
▁신주	-7898
▁히메	-7899
▁목재	-7900
▁염기	-7901
▁폭행	-7902
AL	-7903
▁비싸	-7904
▁자민	-7905
▁제프	-7906
스틴	-7907
▁CS	-7908
▁출처	-7909
▁기적	-7910
▁비자	-7911
▁이윤	-7912
▁차이점	-7913
▁플라이	-7914
▁계시	-7915
▁근교	-7916
▁마야	-7917
▁소나타	-7918
▁CC	-7919
▁상반	-7920
▁col	-7921
▁유로파	-7922
▁다이아몬드	-7923
▁킥	-7924
산동	-7925
▁컴파	-7926
▁펑크	-7927
▁블라디미르	-7928
나오	-7929
ile	-7930
▁다투	-7931
▁에미	-7932
▁남동부	-7933
▁조선일보	-7934
▁박람회	-7935
▁관구	-7936
▁김경	-7937
▁신념	-7938
▁음료	-7939
▁증대	-7940
▁지르	-7941
▁통영	-7942
▁그동안	-7943
▁부설	-7944
▁경상도	-7945
▁내보내	-7946
▁블로그	-7947
▁왓	-7948
▁광학	-7949
▁래퍼	-7950
▁유죄	-7951
▁시골	-7952
▁생산량	-7953
▁룬	-7954
▁상용	-7955
▁운하	-7956
▁충전	-7957
러스트	-7958
▁알코올	-7959
▁친일파	-7960
▁나트	-7961
브리지	-7962
▁누나	-7963
▁만남	-7964
ies	-7965
▁미라	-7966
▁이소	-7967
▁태양계	-7968
권자	-7969
▁법조	-7970
▁설탕	-7971
▁황실	-7972
▁Op	-7973
▁다녀	-7974
▁시어	-7975
▁갈라	-7976
▁규범	-7977
▁깨닫	-7978
▁보석	-7979
▁적분	-7980
▁무지	-7981
▁카롤	-7982
▁이타	-7983
▁티스	-7984
▁갇	-7985
▁단단	-7986
▁동국	-7987
▁사육	-7988
비나	-7989
기업	-7990
살이	-7991
▁흠	-7992
▁부제	-7993
▁거칠	-7994
▁조세	-7995
▁라오스	-7996
▁확신	-7997
▁공습	-7998
▁공익	-7999
▁말라	-8000
▁비유	-8001
▁상사	-8002
▁경찰청	-8003
▁히사	-8004
▁브라더스	-8005
▁왜냐하면	-8006
xt	-8007
수리	-8008
▁중의원	-8009
▁공관	-8010
▁CON	-8011
▁트위터	-8012
도리	-8013
▁합하	-8014
▁112	-8015
▁126	-8016
▁장거리	-8017
▁엿	-8018
▁신민	-8019
▁협박	-8020
▁베어스	-8021
▁헤라	-8022
▁루이지	-8023
▁카를로스	-8024
ite	-8025
▁마디	-8026
▁미르	-8027
▁어원	-8028
▁시베리아	-8029
▁대폭	-8030
▁빨간	-8031
▁후사	-8032
▁구축함	-8033
▁국소	-8034
▁107	-8035
▁RNA	-8036
▁트윈스	-8037
▁키프로스	-8038
레기	-8039
▁레일	-8040
▁우유	-8041
▁굉장히	-8042
▁이산화	-8043
▁이순신	-8044
▁거북	-8045
▁수법	-8046
▁언니	-8047
▁품종	-8048
▁사업자	-8049
▁창원시	-8050
▁Te	-8051
▁법무부	-8052
▁다지	-8053
▁제재	-8054
▁헤비	-8055
▁삼층석탑	-8056
▁is	-8057
▁구출	-8058
▁범인	-8059
▁우승자	-8060
▁왜곡	-8061
▁허위	-8062
▁가군	-8063
▁갇히	-8064
▁신선	-8065
▁우호	-8066
▁교과서	-8067
▁아랍어	-8068
▁플러스	-8069
고래	-8070
▁당주	-8071
▁성단	-8072
나스	-8073
▁경보	-8074
▁옆면	-8075
▁입원	-8076
▁할머니	-8077
▁세라	-8078
▁소셜	-8079
▁여파	-8080
스부르크	-8081
▁뉘	-8082
랑카	-8083
▁송시열	-8084
▁몰래	-8085
▁실체	-8086
▁천장	-8087
▁포럼	-8088
▁117	-8089
▁조종사	-8090
▁줄무늬	-8091
▁곡인	-8092
▁근원	-8093
▁맥락	-8094
▁탐사선	-8095
도바	-8096
▁보증	-8097
▁풀리	-8098
ft	-8099
▁임하	-8100
▁핸드	-8101
▁꾀하	-8102
▁맥주	-8103
▁연쇄	-8104
▁인문	-8105
▁대웅전	-8106
▁지평	-8107
▁결함	-8108
▁동문	-8109
▁드로	-8110
지붕	-8111
▁소원	-8112
▁퐁	-8113
다지	-8114
▁거울	-8115
▁피우	-8116
▁평의회	-8117
▁도마뱀붙이	-8118
▁이경	-8119
▁릿	-8120
▁네스	-8121
▁인체	-8122
갈색	-8123
▁희생자	-8124
▁SE	-8125
▁진하	-8126
▁가마쿠라	-8127
▁제니	-8128
▁350	-8129
▁교정	-8130
▁빈곤	-8131
▁신약	-8132
▁com	-8133
▁일방	-8134
▁일반인	-8135
▁화장실	-8136
▁줄리	-8137
▁통틀	-8138
▁양키스	-8139
▁탐색	-8140
시타	-8141
▁날씨	-8142
▁성별	-8143
▁이브	-8144
▁제대	-8145
▁해고	-8146
▁121	-8147
▁테이프	-8148
▁아카데미상	-8149
▁후궁	-8150
ound	-8151
▁고속도	-8152
끼리	-8153
▁만일	-8154
▁빨간색	-8155
▁삼성전자	-8156
▁CF	-8157
▁173	-8158
▁맘	-8159
▁진급	-8160
▁택하	-8161
▁펠리	-8162
▁필터	-8163
승부	-8164
▁철회	-8165
▁137	-8166
▁전자기	-8167
▁ㅓ서	-8168
▁바오로	-8169
무스	-8170
ath	-8171
▁개교	-8172
▁승계	-8173
▁요동	-8174
▁자아	-8175
조부	-8176
▁가져가	-8177
의장	-8178
▁연합국	-8179
연합	-8180
ond	-8181
▁불타	-8182
▁비추	-8183
▁샘플	-8184
▁양측	-8185
▁킴	-8186
▁놓치	-8187
▁방화	-8188
▁비르	-8189
▁포병	-8190
▁필리프	-8191
OL	-8192
▁문예	-8193
▁라이너	-8194
▁1894	-8195
▁가축	-8196
▁결코	-8197
▁근로자	-8198
▁물려받	-8199
▁냄	-8200
▁왕복	-8201
▁총독부	-8202
▁헥	-8203
▁궁극	-8204
▁바우	-8205
▁화해	-8206
게이머	-8207
▁프로게이머	-8208
마루	-8209
ory	-8210
▁가장자리	-8211
▁더니	-8212
▁투옥	-8213
베니아	-8214
▁수용체	-8215
▁뒤집	-8216
▁서진	-8217
▁워터	-8218
▁주이	-8219
▁진공	-8220
▁태권	-8221
▁다크	-8222
▁세속	-8223
▁최강	-8224
▁ㅁ	-8225
크라	-8226
▁문구	-8227
▁수색	-8228
▁일가	-8229
수소	-8230
▁지미	-8231
▁113	-8232
▁클라우드	-8233
▁붐	-8234
규모	-8235
▁공민	-8236
▁레온	-8237
▁믹스	-8238
그레이드	-8239
▁슬로베니아	-8240
man	-8241
▁공방	-8242
▁칭찬	-8243
▁크리스토퍼	-8244
▁쑤	-8245
대기	-8246
▁핵무기	-8247
▁극심	-8248
▁미션	-8249
▁업그레이드	-8250
▁용병	-8251
▁도미니	-8252
▁멜로디	-8253
ov	-8254
▁낫	-8255
▁뒷면	-8256
▁유년	-8257
▁IM	-8258
▁LC	-8259
▁대의원	-8260
▁바티칸	-8261
▁땃	-8262
톨레	-8263
▁농림	-8264
▁드레	-8265
▁서민	-8266
▁즉각	-8267
▁최대한	-8268
그리	-8269
단체	-8270
▁계정	-8271
▁적도	-8272
▁게스트	-8273
▁브로드	-8274
▁알제리	-8275
로이	-8276
번스	-8277
▁대피	-8278
▁성도	-8279
▁치안	-8280
▁그냥	-8281
▁둥지	-8282
▁로이	-8283
▁군정	-8284
▁두껍	-8285
▁신시	-8286
▁하동	-8287
▁공백	-8288
▁124	-8289
▁코스타	-8290
▁강서	-8291
▁혈관	-8292
▁곤란	-8293
▁무어	-8294
▁프랑크푸르트	-8295
▁".	-8296
▁타당	-8297
퍼런스	-8298
iver	-8299
▁게이지	-8300
셰비	-8301
아키	-8302
▁먼지	-8303
▁미키	-8304
▁초월	-8305
▁개종	-8306
▁김현	-8307
▁명하	-8308
▁부딪	-8309
▁독일인	-8310
▁모친	-8311
▁제인	-8312
▁카카	-8313
▁몬스터	-8314
▁로우	-8315
▁시뮬	-8316
▁z	-8317
▁넘치	-8318
▁캐시	-8319
▁On	-8320
▁횡단	-8321
▁국내외	-8322
▁관음	-8323
▁판본	-8324
아프리카	-8325
▁륙	-8326
박스	-8327
▁탤런트	-8328
mer	-8329
▁스캔	-8330
▁제치	-8331
▁구절	-8332
▁닫히	-8333
블리	-8334
▁상표	-8335
▁피오	-8336
▁자연수	-8337
로니	-8338
▁내정	-8339
▁서초	-8340
▁성문	-8341
▁욕구	-8342
▁항쟁	-8343
▁야마토	-8344
▁be	-8345
▁고고학	-8346
▁커뮤니케이션	-8347
▁가루	-8348
▁배후	-8349
▁일생	-8350
▁학계	-8351
▁오리콘	-8352
▁World	-8353
▁그대	-8354
▁이거	-8355
▁SU	-8356
▁돌격	-8357
린스	-8358
▁말씀	-8359
▁발리	-8360
▁야쿠	-8361
▁초록	-8362
▁김정일	-8363
▁자선	-8364
▁자오	-8365
▁제압	-8366
▁체크	-8367
대원군	-8368
▁디렉	-8369
▁양호	-8370
▁원전	-8371
▁검찰청	-8372
▁남서부	-8373
▁베네딕	-8374
▁감자	-8375
▁유저	-8376
▁풍자	-8377
▁영산	-8378
▁New	-8379
▁아랫	-8380
ich	-8381
▁CR	-8382
▁우파	-8383
▁침투	-8384
▁다가오	-8385
▁1890	-8386
▁므	-8387
▁옵션	-8388
▁자비	-8389
▁소규모	-8390
줄기	-8391
▁기질	-8392
▁브리지	-8393
▁데르	-8394
▁러시	-8395
▁분명히	-8396
▁맑	-8397
축구	-8398
▁시위대	-8399
▁윤치호	-8400
▁어미	-8401
▁라이온즈	-8402
드르	-8403
▁예조	-8404
▁정세	-8405
▁평정	-8406
▁오프닝	-8407
▁베니	-8408
▁선비	-8409
▁오라	-8410
▁조부	-8411
▁114	-8412
▁냉전	-8413
▁다녀오	-8414
▁이준	-8415
▁안토니오	-8416
▁땃쥐	-8417
▁연이	-8418
▁EC	-8419
▁과반	-8420
▁대거	-8421
▁떨치	-8422
▁은데	-8423
▁김규	-8424
▁시정	-8425
프레스	-8426
▁자택	-8427
▁기업인	-8428
▁깎	-8429
▁대명	-8430
▁매매	-8431
▁구스타	-8432
▁사상자	-8433
▁알루미	-8434
▁미노	-8435
▁정주	-8436
▁증손	-8437
▁블랙홀	-8438
▁알아보	-8439
▁징계	-8440
▁뭐	-8441
▁어긋	-8442
▁봉건	-8443
▁연승	-8444
IP	-8445
▁관세	-8446
▁컷	-8447
▁빛나	-8448
▁이남	-8449
▁118	-8450
렉스	-8451
ign	-8452
▁가드	-8453
▁군중	-8454
ial	-8455
▁구와	-8456
▁지침	-8457
▁히어로즈	-8458
▁태극	-8459
타리오	-8460
▁방사선	-8461
▁일리노	-8462
▁파이널	-8463
▁드라이버	-8464
러드	-8465
▁괴물	-8466
▁대부	-8467
▁이드	-8468
▁원로원	-8469
▁풀려나	-8470
▁경신	-8471
▁만료	-8472
▁악단	-8473
▁도청	-8474
▁요정	-8475
▁자음	-8476
조건	-8477
지스	-8478
▁뉴턴	-8479
▁예시	-8480
▁주부	-8481
▁플래시	-8482
▁일리노이	-8483
▁크리스티안	-8484
▁세이브	-8485
▁1898	-8486
▁승부차기	-8487
▁Sc	-8488
▁재상	-8489
▁프로덕	-8490
▁갑작스럽	-8491
▁답변	-8492
▁서자	-8493
▁학명	-8494
▁경찰관	-8495
▁비로소	-8496
▁본국	-8497
▁중형	-8498
▁진사	-8499
▁체스	-8500
▁파란색	-8501
저지	-8502
▁용이	-8503
▁저널	-8504
▁체조	-8505
▁115	-8506
▁매니저	-8507
▁미하일	-8508
▁두려	-8509
▁비기	-8510
▁스칼	-8511
hn	-8512
▁인명	-8513
▁빔	-8514
황후	-8515
▁공감	-8516
▁종착	-8517
▁디비시온	-8518
▁하르	-8519
▁통치자	-8520
▁럼	-8521
▁SD	-8522
▁벵	-8523
▁트로이	-8524
교도	-8525
▁공조	-8526
▁지인	-8527
▁헬리	-8528
벨트	-8529
▁변이	-8530
▁순조	-8531
▁우측	-8532
▁극장판	-8533
▁우즈베	-8534
닐라	-8535
▁엇	-8536
▁전년	-8537
▁컨셉	-8538
▁키르	-8539
▁반지름	-8540
하루	-8541
▁한족	-8542
아먹	-8543
▁남구	-8544
▁동정	-8545
▁밀집	-8546
▁축출	-8547
▁희귀	-8548
▁계열사	-8549
▁봉안	-8550
▁모로코	-8551
▁무승부	-8552
▁기각	-8553
▁직면	-8554
▁챌린지	-8555
히코	-8556
▁극작	-8557
▁로그	-8558
▁카우	-8559
▁하프	-8560
▁뉴저지	-8561
▁레바논	-8562
▁`	-8563
▁앵글	-8564
▁커널	-8565
▁시가지	-8566
▁웨스턴	-8567
▁통보	-8568
▁남미	-8569
▁무성	-8570
▁왕세	-8571
▁천하	-8572
마이오스	-8573
문트	-8574
보르	-8575
▁가옥	-8576
▁선도	-8577
▁JT	-8578
▁외모	-8579
▁필사	-8580
▁헬기	-8581
▁혜택	-8582
▁그레고	-8583
▁대변인	-8584
▁외야수	-8585
기념	-8586
바닥	-8587
▁소모	-8588
▁사위	-8589
▁성리학	-8590
▁기증	-8591
▁정변	-8592
▁취업	-8593
▁패럴	-8594
▁광해군	-8595
▁쫓겨나	-8596
▁체코슬로	-8597
▁체코슬로바키아	-8598
▁모나	-8599
▁부스	-8600
▁케냐	-8601
▁GS	-8602
▁129	-8603
타니	-8604
▁말미	-8605
▁센티	-8606
▁범유행	-8607
▁켈리	-8608
▁렐	-8609
레타	-8610
▁코카	-8611
▁믹	-8612
▁개막전	-8613
▁젊은이	-8614
부리	-8615
▁ㅕㅆ	-8616
▁웹툰	-8617
▁핑크	-8618
▁닦	-8619
쟁이	-8620
타리	-8621
▁GP	-8622
▁폭넓	-8623
▁맏	-8624
▁비주	-8625
▁실망	-8626
▁의약품	-8627
먼스	-8628
▁글루	-8629
▁학업	-8630
▁캔자스	-8631
rom	-8632
▁러셀	-8633
▁맥도	-8634
▁연예인	-8635
미사	-8636
▁미세	-8637
▁종속	-8638
▁중산	-8639
▁천재	-8640
▁쾌속	-8641
▁뇌물	-8642
▁리뷰	-8643
▁척추	-8644
▁알루미늄	-8645
▁숙청	-8646
▁승자	-8647
▁총사령	-8648
▁스타리그	-8649
▁옳	-8650
개미	-8651
▁마력	-8652
▁호출	-8653
▁마운트	-8654
▁종래	-8655
▁예하	-8656
▁터뜨리	-8657
▁바빌	-8658
▁첨단	-8659
▁케빈	-8660
▁기차	-8661
▁로비	-8662
▁발급	-8663
▁재혼	-8664
▁쯔	-8665
▁퉁	-8666
▁감싸	-8667
▁서신	-8668
▁유라	-8669
▁재선	-8670
▁퇴임	-8671
▁황족	-8672
▁회관	-8673
▁벨라루스	-8674
▁Ne	-8675
▁요건	-8676
▁사간	-8677
▁어른	-8678
ph	-8679
▁남작	-8680
▁넘어서	-8681
▁두려워하	-8682
▁밝기	-8683
▁창출	-8684
▁괘	-8685
니까	-8686
슬러	-8687
▁벽돌	-8688
▁화력	-8689
▁스크립	-8690
방송공사	-8691
▁끌어들이	-8692
TS	-8693
▁웬	-8694
▁예고	-8695
▁카디	-8696
▁토미	-8697
▁III	-8698
▁스트리	-8699
▁장례식	-8700
▁확실히	-8701
▁오오	-8702
▁유방	-8703
▁각도	-8704
▁일컬	-8705
▁전속	-8706
▁중공	-8707
▁파산	-8708
▁조지프	-8709
우트	-8710
천리	-8711
▁난징	-8712
▁부피	-8713
▁양반	-8714
▁옹립	-8715
▁응시	-8716
느러미	-8717
▁142	-8718
속기	-8719
▁무명	-8720
▁등기	-8721
▁브리튼	-8722
▁임원	-8723
▁기술자	-8724
▁부여받	-8725
▁월요일	-8726
▁천문대	-8727
▁1899	-8728
테르부르크	-8729
▁생체	-8730
▁토양	-8731
▁어긋나	-8732
▁타임스	-8733
화물	-8734
▁감행	-8735
▁대패	-8736
▁미들	-8737
▁워크	-8738
▁레슬링	-8739
▁세이부	-8740
▁청주시	-8741
▁프란츠	-8742
▁콕	-8743
urn	-8744
▁워너	-8745
▁케임	-8746
▁뒷받침	-8747
▁마르티	-8748
▁플라스틱	-8749
시즘	-8750
▁대치	-8751
▁토끼	-8752
▁폭포	-8753
포로	-8754
▁관제	-8755
▁저주	-8756
▁컴백	-8757
▁더글러스	-8758
진군	-8759
코딩	-8760
▁무함	-8761
▁배수	-8762
▁성폭	-8763
▁소생	-8764
▁ch	-8765
▁리프	-8766
▁발병	-8767
▁지출	-8768
셰비키	-8769
롤라이나	-8770
▁구경	-8771
▁설화	-8772
▁얹	-8773
▁룩셈	-8774
▁학기	-8775
▁형조	-8776
▁힌두교	-8777
▁유진	-8778
▁총칭	-8779
▁축물	-8780
▁하얗	-8781
▁프로덕션	-8782
▁룩셈부르크	-8783
▁거세	-8784
▁시범	-8785
▁자크	-8786
▁정려	-8787
▁사쿠라	-8788
로우	-8789
함수	-8790
▁대서양	-8791
토르	-8792
틱스	-8793
▁사본	-8794
▁오크	-8795
▁지켜	-8796
▁청산	-8797
▁거래소	-8798
▁스즈키	-8799
럴드	-8800
▁신원	-8801
▁안테	-8802
▁페널	-8803
ction	-8804
▁설교	-8805
▁지옥	-8806
▁화상	-8807
▁CJ	-8808
▁혼동	-8809
▁1902	-8810
▁만성	-8811
▁화자	-8812
▁광주광역시	-8813
▁의자	-8814
▁지치	-8815
파이어	-8816
▁온타리오	-8817
▁잃어버리	-8818
▁가야	-8819
▁왼손	-8820
▁원천	-8821
▁찌르	-8822
▁희곡	-8823
▁부의장	-8824
두리	-8825
▁운수	-8826
▁중복	-8827
▁Man	-8828
▁그래미	-8829
▁금요일	-8830
브르	-8831
▁공적	-8832
▁동네	-8833
▁벨트	-8834
ens	-8835
▁ID	-8836
▁명종	-8837
▁프톨레	-8838
▁프톨레마이오스	-8839
덩이	-8840
▁광둥	-8841
▁붙잡히	-8842
▁플랫폼	-8843
▁보위	-8844
▁위쪽	-8845
lan	-8846
▁독서	-8847
▁물품	-8848
▁병기	-8849
▁스턴	-8850
▁피신	-8851
MA	-8852
치기	-8853
타주	-8854
▁발기	-8855
▁피겨	-8856
▁니코	-8857
▁연산자	-8858
▁끊임없이	-8859
▁쟈	-8860
▁대성당	-8861
▁키보드	-8862
pp	-8863
▁그릇	-8864
▁아리아	-8865
샤바	-8866
▁우체	-8867
▁체류	-8868
▁도카이	-8869
▁지식인	-8870
▁수분	-8871
▁혐오	-8872
▁바깥쪽	-8873
▁연꽃	-8874
▁정성	-8875
▁''	-8876
▁감마	-8877
▁강변	-8878
▁서류	-8879
▁채소	-8880
▁코시	-8881
▁포획	-8882
▁표적	-8883
▁BS	-8884
▁대손	-8885
▁시코	-8886
▁원종	-8887
▁의의	-8888
▁뛰어	-8889
▁마녀	-8890
▁기사단	-8891
▁단절	-8892
▁시가	-8893
▁영등	-8894
▁간선	-8895
▁게리	-8896
▁드림	-8897
▁선배	-8898
TA	-8899
▁국영	-8900
▁사슴	-8901
▁코끼리	-8902
▁로라	-8903
▁촉매	-8904
▁앗	-8905
▁습지	-8906
▁외관	-8907
▁탄도	-8908
▁하단	-8909
▁개소	-8910
▁비석	-8911
▁응하	-8912
▁갈수록	-8913
▁아돌프	-8914
▁으려고	-8915
▁흔들리	-8916
lic	-8917
▁깃발	-8918
▁동행	-8919
▁고양시	-8920
▁영문	-8921
▁참의	-8922
글라	-8923
▁주조	-8924
▁밍	-8925
▁함정	-8926
▁비행장	-8927
▁버드	-8928
▁교통국	-8929
▁마스크	-8930
▁페르디난	-8931
▁얽	-8932
▁기니	-8933
폴리	-8934
▁태그	-8935
▁제네바	-8936
▁춥	-8937
▁시리	-8938
▁유체	-8939
▁정적	-8940
▁소나무	-8941
크로	-8942
▁매카트니	-8943
▁대합	-8944
▁매수	-8945
▁울프	-8946
▁헌신	-8947
▁부회장	-8948
▁강동	-8949
▁김창	-8950
▁단축	-8951
▁생생	-8952
▁선행	-8953
▁한테	-8954
▁이용자	-8955
▁몫	-8956
▁김지	-8957
▁빌라	-8958
▁제국주의	-8959
그룹	-8960
▁서리	-8961
▁스위치	-8962
▁익스프레스	-8963
국사	-8964
▁수확	-8965
▁입성	-8966
TC	-8967
▁단의	-8968
▁스폰	-8969
▁드러머	-8970
▁보이스	-8971
▁토착종	-8972
카가	-8973
▁광대	-8974
▁광명	-8975
▁동학	-8976
▁아산	-8977
▁정동	-8978
▁해밀턴	-8979
히토	-8980
▁가환	-8981
▁압둘	-8982
ary	-8983
▁간토	-8984
▁부가	-8985
▁폭격기	-8986
out	-8987
▁초신	-8988
▁경성부	-8989
▁포켓몬스터	-8990
▁면제	-8991
▁역량	-8992
▁직결	-8993
▁화강	-8994
▁서유럽	-8995
▁호르몬	-8996
▁러시아어	-8997
구르	-8998
▁고아	-8999
▁색채	-9000
▁어류	-9001
▁이단	-9002
▁코믹스	-9003
▁1901	-9004
▁브뤼	-9005
▁세비	-9006
▁입국	-9007
▁아이오	-9008
짓점	-9009
▁공리	-9010
▁생략	-9011
▁약자	-9012
▁부작용	-9013
▁사이토	-9014
▁나노	-9015
▁민감	-9016
▁열도	-9017
▁축조	-9018
▁꼭짓점	-9019
ach	-9020
ert	-9021
▁경과	-9022
▁논하	-9023
▁복용	-9024
▁본문	-9025
▁퀘벡	-9026
테인	-9027
▁조립	-9028
피어	-9029
▁성지	-9030
▁여운	-9031
▁일산	-9032
▁소시	-9033
▁전방	-9034
타임	-9035
▁No	-9036
▁임관	-9037
▁체르	-9038
모스	-9039
▁쓰촨	-9040
▁염증	-9041
▁크롬	-9042
▁알렉산드르	-9043
▁울산광역시	-9044
▁갱신	-9045
▁권총	-9046
▁날카	-9047
▁보트	-9048
▁특권	-9049
▁하치	-9050
▁그다지	-9051
▁연기자	-9052
▁트리플	-9053
▁다항식	-9054
▁삿포로	-9055
▁영국인	-9056
미트	-9057
▁주되	-9058
ys	-9059
▁기숙	-9060
▁버티	-9061
▁수축	-9062
▁커스	-9063
▁코코	-9064
▁표방	-9065
▁지켜보	-9066
디나	-9067
▁입각	-9068
▁체중	-9069
▁염색체	-9070
▁렘	-9071
나우	-9072
자르	-9073
▁갈릴	-9074
▁불꽃	-9075
▁자작	-9076
▁정문	-9077
▁점성술	-9078
▁무궁	-9079
▁손꼽	-9080
▁실버	-9081
▁현은	-9082
일으키	-9083
▁바이킹	-9084
▁불러일으키	-9085
▁쿄	-9086
▁MB	-9087
▁카미	-9088
▁간단히	-9089
▁아시카가	-9090
▁검열	-9091
▁김제	-9092
▁동조	-9093
▁서문	-9094
▁정립	-9095
LS	-9096
▁누적	-9097
▁엔딩	-9098
루아	-9099
▁보복	-9100
▁차르	-9101
▁치아	-9102
▁사회당	-9103
▁옥스퍼드	-9104
IG	-9105
LE	-9106
링턴	-9107
▁원료	-9108
▁이현	-9109
▁두께	-9110
▁페니	-9111
▁고산	-9112
▁토기	-9113
▁학대	-9114
▁134	-9115
▁개인전	-9116
▁선동	-9117
▁조수	-9118
▁호모	-9119
▁광저우	-9120
▁케임브리지	-9121
▁공고	-9122
▁박지	-9123
▁보헤	-9124
▁슈팅	-9125
▁카프	-9126
▁장기간	-9127
▁크레이	-9128
▁}	-9129
▁례	-9130
▁썰	-9131
내리	-9132
▁원본	-9133
레슬링	-9134
▁쓰레기	-9135
▁요르단	-9136
▁무함마드	-9137
▁아라비아	-9138
▁어뢰	-9139
▁KIA	-9140
▁푸에르	-9141
사리	-9142
▁분수	-9143
베트남	-9144
▁모서리	-9145
▁파이터	-9146
▁마우	-9147
▁상금	-9148
▁스님	-9149
▁토요	-9150
노미야	-9151
▁대구광역시	-9152
ug	-9153
펜하	-9154
▁불신	-9155
▁삼촌	-9156
▁연봉	-9157
▁하비	-9158
▁갈리아	-9159
▁대두	-9160
▁독성	-9161
▁All	-9162
▁THE	-9163
기스	-9164
▁좌측	-9165
▁노태우	-9166
▁1903	-9167
대장	-9168
▁가역	-9169
▁레즈	-9170
▁섹스	-9171
▁사업가	-9172
▁전염병	-9173
▁공명	-9174
▁공예	-9175
▁직경	-9176
▁캐서	-9177
▁아리스토	-9178
ase	-9179
▁남매	-9180
▁미륵	-9181
▁산출	-9182
클레스	-9183
▁트로피	-9184
카미	-9185
▁개화	-9186
▁어찌	-9187
▁훔치	-9188
▁페널티	-9189
▁극대	-9190
▁루타	-9191
▁One	-9192
▁패밀리	-9193
▁1884	-9194
▁프로레슬링	-9195
▁노보	-9196
▁오쿠	-9197
▁회상	-9198
▁미시시피	-9199
▁Gr	-9200
▁타케	-9201
▁피고인	-9202
▁홈구장	-9203
▁패널	-9204
테르담	-9205
▁신도비	-9206
아웃	-9207
정리	-9208
▁교대	-9209
▁당연히	-9210
▁만주국	-9211
▁이성계	-9212
카타	-9213
▁군산	-9214
▁다마	-9215
▁아브	-9216
▁날카롭	-9217
▁쓰시마	-9218
처스	-9219
퀘어	-9220
▁강간	-9221
▁구형	-9222
▁소말	-9223
▁이병	-9224
▁언어학	-9225
▁아인슈타인	-9226
▁알렉산드리아	-9227
▁라그	-9228
▁메커	-9229
▁어둠	-9230
▁정선	-9231
올로	-9232
▁EX	-9233
▁중령	-9234
▁퇴역	-9235
▁관광지	-9236
▁지도부	-9237
▁하리	-9238
▁이관	-9239
▁쥐과	-9240
ke	-9241
▁AN	-9242
▁로저	-9243
▁스텔	-9244
▁터보	-9245
▁뮤지션	-9246
▁표기법	-9247
그라	-9248
▁에콰	-9249
▁드레스	-9250
▁프레드	-9251
▁에콰도르	-9252
▁질소	-9253
라이어	-9254
▁도널드	-9255
▁니콜라이	-9256
▁군함	-9257
▁강대	-9258
▁퇴적	-9259
▁아폴로	-9260
▁클라이	-9261
▁야마구치	-9262
▁검출	-9263
▁깨지	-9264
▁이태	-9265
▁조형	-9266
도스	-9267
▁Cl	-9268
▁비타	-9269
▁제로	-9270
▁헌정	-9271
▁히타	-9272
▁충청도	-9273
▁1800	-9274
고스	-9275
텍처	-9276
▁구스	-9277
▁우치	-9278
▁파병	-9279
▁아키텍처	-9280
▁LA	-9281
▁대문	-9282
▁함선	-9283
▁조반니	-9284
▁공황	-9285
▁기분	-9286
▁실재	-9287
▁원더	-9288
▁꼭대기	-9289
▁프란체	-9290
▁도요토미	-9291
▁발렌시아	-9292
▁묶이	-9293
▁물가	-9294
▁더욱이	-9295
▁슬라브	-9296
▁뒤쪽	-9297
▁실무	-9298
▁우회	-9299
▁전위	-9300
▁복합체	-9301
▁농부	-9302
▁마르틴	-9303
▁히로시	-9304
라이언트	-9305
푸르	-9306
▁김홍	-9307
▁내걸	-9308
▁반공	-9309
리코	-9310
▁경작	-9311
▁도선	-9312
▁비뉴	-9313
▁의결	-9314
테이션	-9315
▁마르코	-9316
▁방글라	-9317
▁방글라데시	-9318
그레	-9319
▁인질	-9320
▁정유	-9321
▁클라이언트	-9322
방울	-9323
▁건륭	-9324
▁단면	-9325
▁달걀	-9326
▁마키	-9327
▁하차	-9328
사이드	-9329
▁삼국지	-9330
▁곡물	-9331
▁카사	-9332
사우	-9333
▁까닭	-9334
▁당수	-9335
▁발칸	-9336
▁철폐	-9337
▁기념관	-9338
▁컨트리	-9339
▁콤팩트	-9340
▁돌기	-9341
▁장벽	-9342
▁해남	-9343
아들	-9344
ree	-9345
▁토시	-9346
▁회피	-9347
▁진전	-9348
▁득표율	-9349
▁소방서	-9350
니시	-9351
▁간신	-9352
▁흥선	-9353
▁거짓말	-9354
▁기념비	-9355
▁총대주교	-9356
▁선우	-9357
▁리더십	-9358
간지	-9359
▁가오	-9360
▁밀란	-9361
▁방사성	-9362
▁염소	-9363
▁유부	-9364
▁분출	-9365
▁상가	-9366
▁상경	-9367
▁상고	-9368
▁가브리	-9369
▁소행성	-9370
▁일렉트로	-9371
▁강희	-9372
▁에밀	-9373
▁전복	-9374
▁소수자	-9375
개골	-9376
▁용서	-9377
▁취항	-9378
▁코믹	-9379
▁에디션	-9380
▁카를로	-9381
▁북아프리카	-9382
가르	-9383
▁IN	-9384
▁감안	-9385
▁경인	-9386
▁분량	-9387
▁전구	-9388
가와현	-9389
▁메커니즘	-9390
불교	-9391
산맥	-9392
하키	-9393
▁권장	-9394
▁기슭	-9395
▁우물	-9396
▁을까	-9397
▁자형	-9398
▁창녕	-9399
▁남동생	-9400
▁모리스	-9401
▁팟	-9402
▁팰	-9403
▁활주	-9404
▁중앙아시아	-9405
네마	-9406
▁CN	-9407
▁궁중	-9408
▁상응	-9409
▁복소수	-9410
▁가산	-9411
▁냄새	-9412
▁시야	-9413
▁신축	-9414
▁되돌리	-9415
▁with	-9416
ass	-9417
▁무슨	-9418
▁상트	-9419
▁이북	-9420
▁교도소	-9421
▁그레이트	-9422
▁발령	-9423
▁세바	-9424
▁민간인	-9425
▁스토어	-9426
▁깨끗	-9427
▁모모	-9428
▁소자	-9429
▁현감	-9430
▁다케다	-9431
▁견인	-9432
▁러스	-9433
▁맞붙	-9434
▁수목	-9435
▁기관총	-9436
▁뉴욕주	-9437
▁볼리비아	-9438
▁Br	-9439
▁관절	-9440
▁대출	-9441
▁등용	-9442
▁막스	-9443
▁한층	-9444
▁거주지	-9445
▁와일드	-9446
▁오사카부	-9447
구역	-9448
act	-9449
▁안경	-9450
▁정화	-9451
▁116	-9452
▁220	-9453
▁아나키	-9454
▁아미노산	-9455
▁반군	-9456
▁브란	-9457
▁세키	-9458
▁침체	-9459
곡동	-9460
▁기저	-9461
▁데카	-9462
▁준주	-9463
▁폭로	-9464
▁페이스북	-9465
번뇌	-9466
사업	-9467
▁Ad	-9468
▁각색	-9469
▁평창	-9470
▁일자리	-9471
▁전시회	-9472
▁1897	-9473
파리	-9474
▁가계	-9475
▁낙동	-9476
▁상법	-9477
▁추첨	-9478
▁후작	-9479
▁포스터	-9480
11	-9481
▁교량	-9482
▁농사	-9483
▁홍문관	-9484
▁가의	-9485
▁리만	-9486
▁일파	-9487
▁장자	-9488
▁취미	-9489
▁일부분	-9490
▁요약	-9491
▁스트라이크	-9492
▁한국방송공사	-9493
쿠버	-9494
▁강남구	-9495
▁가열	-9496
▁반전	-9497
▁보성	-9498
▁티코	-9499
▁마가	-9500
▁샌드	-9501
▁심화	-9502
▁절단	-9503
▁캐서린	-9504
pt	-9505
▁갈래	-9506
▁태백	-9507
▁효고	-9508
ream	-9509
▁마카오	-9510
▁방송인	-9511
▁버클리	-9512
▁카스티	-9513
역학	-9514
▁라오	-9515
▁마니	-9516
▁안산	-9517
▁1860	-9518
▁구약	-9519
▁델타	-9520
▁리조	-9521
▁오로	-9522
▁홉	-9523
▁접수	-9524
▁추론	-9525
▁교육청	-9526
▁데스크	-9527
▁꿀	-9528
▁앰	-9529
▁나루	-9530
▁아소	-9531
▁음향	-9532
▁ㄴ지	-9533
▁마블	-9534
▁효종	-9535
▁쓸	-9536
벤처	-9537
▁네오	-9538
▁델라	-9539
▁르노	-9540
▁민정	-9541
▁북경	-9542
▁올드	-9543
▁연대기	-9544
▁어드벤처	-9545
▁;&	-9546
▁GO	-9547
▁체력	-9548
▁배우자	-9549
▁이주하	-9550
▁지지율	-9551
▁사살	-9552
▁장제	-9553
▁휴가	-9554
▁바르샤바	-9555
▁타우	-9556
▁Ex	-9557
▁격차	-9558
▁글래	-9559
▁대관	-9560
▁수료	-9561
▁찰리	-9562
▁확진	-9563
▁알프레	-9564
▁Is	-9565
▁고이	-9566
▁저렴	-9567
기념물	-9568
▁공약	-9569
▁샌디	-9570
▁적군	-9571
▁전산	-9572
▁카타르	-9573
▁후반기	-9574
▁랍	-9575
▁가신	-9576
▁특색	-9577
▁안치	-9578
▁청색	-9579
▁122	-9580
▁중공업	-9581
▁스크립트	-9582
캐롤라이나	-9583
나드	-9584
▁공손	-9585
▁메라	-9586
▁쿠니	-9587
▁살피	-9588
▁중원	-9589
▁카즈	-9590
▁경제학자	-9591
포터	-9592
▁돌입	-9593
▁청소	-9594
▁게릴라	-9595
▁사카이	-9596
▁안드레아	-9597
츠크	-9598
▁가가	-9599
▁리히	-9600
▁이반	-9601
▁집결	-9602
▁치우	-9603
▁합당	-9604
▁떡	-9605
▁석불	-9606
▁수중	-9607
스카르	-9608
▁미네소	-9609
산성	-9610
▁세네	-9611
▁신정	-9612
▁타협	-9613
반구	-9614
퍼슨	-9615
▁전격	-9616
▁마라톤	-9617
▁모티브	-9618
▁솔루션	-9619
▁마당	-9620
▁이빨	-9621
▁쥐속	-9622
▁타지	-9623
▁버마	-9624
▁짐작	-9625
▁2022	-9626
▁막시	-9627
▁브룩	-9628
▁소행	-9629
▁입주	-9630
▁클라크	-9631
▁보강	-9632
▁석회	-9633
▁스퀘어	-9634
▁유닉스	-9635
▁새로이	-9636
▁갑옷	-9637
▁고토	-9638
▁마애	-9639
▁실적	-9640
▁종파	-9641
▁괴롭히	-9642
▁돌아다니	-9643
▁눕	-9644
거진	-9645
푸아	-9646
▁동형	-9647
▁벽화	-9648
▁두개골	-9649
▁상트페	-9650
▁아마존	-9651
▁인테르	-9652
▁1880	-9653
▁상트페테르부르크	-9654
콥터	-9655
▁과실	-9656
▁루크	-9657
▁신동	-9658
▁애리	-9659
▁창의	-9660
▁호응	-9661
▁화순	-9662
▁감추	-9663
▁그레고리오	-9664
▁윤보	-9665
▁쳐들	-9666
▁나란히	-9667
▁옥수수	-9668
▁유대교	-9669
▁모용	-9670
▁con	-9671
▁설립자	-9672
▁BM	-9673
▁메릴	-9674
▁무술	-9675
▁사적	-9676
▁정경	-9677
▁ᆫ다며	-9678
ii	-9679
▁엮	-9680
▁강철	-9681
▁빈도	-9682
▁종말	-9683
▁처지	-9684
▁그리스인	-9685
▁흥선대원군	-9686
▁뻔	-9687
▁군청	-9688
▁무로	-9689
▁종점	-9690
▁팔레	-9691
▁갤러리	-9692
▁유정	-9693
▁호쿠	-9694
▁NGC	-9695
▁공용어	-9696
▁극작가	-9697
▁파라과이	-9698
▁셜	-9699
리즘	-9700
▁급수	-9701
▁복권	-9702
▁연동	-9703
▁용암	-9704
▁출석	-9705
▁확고	-9706
▁133	-9707
▁진행자	-9708
▁극도	-9709
▁노이	-9710
▁선장	-9711
▁장원	-9712
▁콘테	-9713
▁함양	-9714
▁손꼽히	-9715
▁함부르크	-9716
네시	-9717
▁어로	-9718
▁입양	-9719
▁제작사	-9720
▁기성	-9721
▁열심	-9722
▁예명	-9723
▁이언	-9724
▁제리	-9725
▁추리	-9726
▁경쟁력	-9727
▁붙여지	-9728
기구	-9729
▁릴리	-9730
▁무스	-9731
▁소령	-9732
▁야시	-9733
▁연못	-9734
▁일괄	-9735
▁제왕	-9736
▁이동하	-9737
▁키예프	-9738
▁그렇지만	-9739
나미	-9740
iss	-9741
▁수녀	-9742
▁그림자	-9743
▁가네	-9744
▁등극	-9745
▁번성	-9746
▁블리	-9747
▁자결	-9748
▁진료	-9749
▁디트로	-9750
▁디트로이트	-9751
니지	-9752
타케	-9753
ake	-9754
▁스노	-9755
▁오락	-9756
▁이장	-9757
▁천연기념물	-9758
own	-9759
▁왕정	-9760
▁프렌	-9761
▁준결승전	-9762
어뜨리	-9763
▁유령	-9764
▁추종	-9765
▁교육부	-9766
케이	-9767
자치시	-9768
▁특별자치시	-9769
▁몽고	-9770
▁숙주	-9771
▁심야	-9772
▁즐겁	-9773
몰로지	-9774
▁Mus	-9775
▁명분	-9776
▁엘리트	-9777
사관학교	-9778
▁프랭클린	-9779
▁오지	-9780
▁CBS	-9781
▁사쿠	-9782
▁프롤	-9783
▁CEO	-9784
▁국유	-9785
▁앞장	-9786
▁이규	-9787
▁이데	-9788
▁평민	-9789
▁사무총장	-9790
▁법정동	-9791
▁아래쪽	-9792
▁일러스트	-9793
▁낚	-9794
▁스로	-9795
▁우상	-9796
▁원격	-9797
▁위생	-9798
▁무궁화	-9799
▁싣	-9800
▁ES	-9801
▁미셸	-9802
▁아치	-9803
▁코리	-9804
▁위나라	-9805
▁이득	-9806
▁장흥	-9807
▁탁월	-9808
▁파우	-9809
▁포도당	-9810
▁애틀랜타	-9811
해지	-9812
▁도사	-9813
▁수년	-9814
▁조계	-9815
▁펜싱	-9816
▁GDP	-9817
▁미생물	-9818
▁그레고리	-9819
세기	-9820
▁강풍	-9821
▁고추	-9822
▁농어	-9823
▁반역	-9824
▁재난	-9825
▁헬륨	-9826
▁앨리스	-9827
▁듀얼	-9828
▁문경	-9829
▁자카	-9830
▁겉보기	-9831
▁개항	-9832
▁온갖	-9833
▁대사헌	-9834
미스	-9835
▁자생	-9836
▁동성애자	-9837
▁스트라이커	-9838
▁섀	-9839
▁타석	-9840
clude	-9841
▁스리랑카	-9842
▁툰	-9843
타마	-9844
▁결핍	-9845
▁속편	-9846
▁132	-9847
▁기상청	-9848
▁무조건	-9849
Hz	-9850
UR	-9851
그래	-9852
멘스	-9853
▁빈번	-9854
▁정인	-9855
▁주지	-9856
▁지청	-9857
▁지방산	-9858
▁니카	-9859
▁워치	-9860
▁진수	-9861
▁대성전	-9862
HO	-9863
▁감동	-9864
▁더비	-9865
▁유스	-9866
▁칼뱅	-9867
림픽	-9868
원장	-9869
old	-9870
▁김민	-9871
▁속이	-9872
▁정관	-9873
▁해치	-9874
▁시뮬레이션	-9875
에미	-9876
▁듀오	-9877
▁수심	-9878
▁대지진	-9879
▁동요	-9880
▁상연	-9881
▁애칭	-9882
▁총무	-9883
▁글로브	-9884
▁인프라	-9885
▁삼국사기	-9886
버러	-9887
▁꿈꾸	-9888
▁아데	-9889
▁파이프	-9890
위성	-9891
헌영	-9892
▁결제	-9893
▁광양	-9894
▁동참	-9895
▁리모	-9896
▁기병대	-9897
스기	-9898
▁++	-9899
▁베른	-9900
미즈	-9901
▁막히	-9902
▁인디애나	-9903
메다	-9904
▁불행	-9905
▁초원	-9906
▁하고	-9907
거래	-9908
ork	-9909
▁NE	-9910
▁두렵	-9911
▁속주	-9912
▁시종	-9913
▁슛	-9914
▁주화	-9915
GA	-9916
▁빠져	-9917
▁조병	-9918
바야시	-9919
▁마다가	-9920
▁격자	-9921
▁현직	-9922
▁현행	-9923
▁자세히	-9924
ix	-9925
파크	-9926
▁대국	-9927
▁맹세	-9928
▁발각	-9929
▁암흑	-9930
▁호족	-9931
▁마우스	-9932
렉션	-9933
▁La	-9934
▁극락	-9935
▁상기	-9936
▁미주리	-9937
▁요제프	-9938
▁통틀어	-9939
▁보헤미아	-9940
▁쾰	-9941
▁헛	-9942
▁브랜	-9943
▁재해	-9944
ence	-9945
▁신상	-9946
▁호의	-9947
▁농산물	-9948
벨라	-9949
할시	-9950
▁or	-9951
▁가타	-9952
▁복음서	-9953
▁국수	-9954
러피	-9955
해튼	-9956
ick	-9957
▁kt	-9958
▁패럴림픽	-9959
변이	-9960
천사	-9961
▁파문	-9962
위원회	-9963
▁pro	-9964
▁돌연변이	-9965
▁Ro	-9966
▁vs	-9967
▁단과	-9968
▁무르	-9969
▁숨지	-9970
▁요법	-9971
▁해부	-9972
lo	-9973
▁른	-9974
▁대각	-9975
▁피로	-9976
▁현황	-9977
▁호리	-9978
▁저널리	-9979
()	-9980
▁감금	-9981
▁김옥	-9982
▁볼셰비키	-9983
▁평안남도	-9984
마리	-9985
▁공파	-9986
▁공표	-9987
▁아빠	-9988
▁청자	-9989
▁초고	-9990
▁투항	-9991
▁밀러	-9992
▁세손	-9993
▁의과	-9994
▁우체국	-9995
라기	-9996
루냐	-9997
▁낙하	-9998
▁1870	-9999
▁합스부르크	-10000
▁소울	-10001
▁따라가	-10002
▁후속작	-10003
를테	-10004
▁입수	-10005
▁저격	-10006
를테면	-10007
▁매거진	-10008
▁활주로	-10009
▁이를테면	-10010
▁댓	-10011
▁김병	-10012
▁총기	-10013
▁황도	-10014
CAF	-10015
▁만년	-10016
▁생계	-10017
▁서장	-10018
▁재질	-10019
▁포고	-10020
▁소피아	-10021
▁오로지	-10022
▁뾰	-10023
▁PR	-10024
▁페로	-10025
▁표창	-10026
브리아	-10027
▁양육	-10028
▁이븐	-10029
▁장대	-10030
▁정국	-10031
▁Mar	-10032
▁모터스	-10033
▁관동	-10034
▁난이	-10035
▁아요	-10036
▁틀리	-10037
▁창시자	-10038
▁숀	-10039
삭스	-10040
▁루비	-10041
▁우아	-10042
▁제너	-10043
▁휩쓸	-10044
▁단행본	-10045
▁아스널	-10046
▁중앙부	-10047
▁타이베이	-10048
▁비늘	-10049
ance	-10050
▁애리조	-10051
▁평안북도	-10052
플로	-10053
홀름	-10054
▁To	-10055
▁말년	-10056
▁머스	-10057
▁시국	-10058
▁왜구	-10059
▁매끄럽	-10060
▁1885	-10061
▁돌출	-10062
▁맞대	-10063
▁앞쪽	-10064
▁450	-10065
▁우즈베키스탄	-10066
▁엥	-10067
▁리터	-10068
▁NAS	-10069
▁un	-10070
▁국악	-10071
▁부조	-10072
▁대장군	-10073
▁청동기	-10074
▁활발히	-10075
▁1871	-10076
EM	-10077
▁DM	-10078
▁내면	-10079
▁로페	-10080
▁복식	-10081
▁성령	-10082
▁전날	-10083
▁프랜시스	-10084
▁아이스하키	-10085
▁마르크스주의	-10086
공산	-10087
▁감수	-10088
▁배속	-10089
▁아쿠	-10090
▁중상	-10091
▁Ph	-10092
테리아	-10093
십자	-10094
▁벤치	-10095
▁신종	-10096
▁지로	-10097
▁비주얼	-10098
▁세븐	-10099
▁수염	-10100
▁퇴장	-10101
▁USS	-10102
▁로렌스	-10103
▁짱	-10104
▁카바	-10105
▁원심	-10106
▁차리	-10107
▁1600	-10108
쩌둥	-10109
▁리바	-10110
▁매직	-10111
▁이모	-10112
▁다람쥐	-10113
▁편집자	-10114
▁마오쩌둥	-10115
▁알래스카	-10116
ection	-10117
ear	-10118
irl	-10119
▁끌려가	-10120
▁빅토르	-10121
▁맷	-10122
▁쿡	-10123
티시	-10124
▁경질	-10125
▁볼프	-10126
▁중생	-10127
▁케라	-10128
러피언	-10129
라고	-10130
제이	-10131
▁반성	-10132
▁수교	-10133
▁증인	-10134
▁참사	-10135
타이드	-10136
▁흉노	-10137
▁앤더슨	-10138
▁프레이	-10139
▁휴게	-10140
▁양성자	-10141
▁유러피언	-10142
▁자칭	-10143
▁지성	-10144
▁티켓	-10145
lass	-10146
▁내무부	-10147
▁오클랜드	-10148
어오	-10149
▁관행	-10150
▁시애	-10151
▁카터	-10152
▁즘	-10153
틀리	-10154
▁국당	-10155
▁내성	-10156
▁이양	-10157
▁콜레	-10158
▁only	-10159
돌리	-10160
▁수다	-10161
▁요지	-10162
▁위스	-10163
▁유료	-10164
▁화랑	-10165
▁수원시	-10166
▁콘스탄티노폴리스	-10167
ild	-10168
▁로리	-10169
▁청룡	-10170
▁테일	-10171
▁박헌영	-10172
▁센고쿠	-10173
▁1200	-10174
테쓰	-10175
▁스태	-10176
▁마닐라	-10177
▁반란군	-10178
파이	-10179
▁루카	-10180
▁이완	-10181
▁잡아먹	-10182
▁파나마	-10183
▁바디	-10184
▁수인	-10185
▁장단	-10186
▁제동	-10187
▁중서	-10188
▁240	-10189
▁불태우	-10190
▁알렉스	-10191
▁GN	-10192
▁능선	-10193
▁역도	-10194
▁조광	-10195
▁해저	-10196
▁케이프	-10197
▁냐는	-10198
▁민요	-10199
▁봉수	-10200
▁지오	-10201
▁친분	-10202
텔레스	-10203
▁다나카	-10204
▁프로리그	-10205
올라	-10206
▁SL	-10207
▁당내	-10208
▁이방	-10209
▁탑신	-10210
▁역사가	-10211
▁빨갛	-10212
▁성실	-10213
▁이룩	-10214
▁김정은	-10215
▁예정자	-10216
▁부각	-10217
▁부원군	-10218
▁시애틀	-10219
▁려던	-10220
▁카니	-10221
▁윤보선	-10222
▁마다가스카르	-10223
관리	-10224
▁재외	-10225
▁출가	-10226
▁플랜	-10227
▁오른손	-10228
▁왕세자	-10229
▁멍	-10230
체고	-10231
▁개개	-10232
▁교실	-10233
▁구니	-10234
▁무척	-10235
▁분과	-10236
▁초빙	-10237
▁김규식	-10238
▁앤드루	-10239
체고비나	-10240
▁궁궐	-10241
▁몸통	-10242
▁상급	-10243
▁실험실	-10244
▁제조업	-10245
▁프라하	-10246
▁하노이	-10247
맥스	-10248
▁섬세	-10249
▁조례	-10250
▁AD	-10251
▁남용	-10252
▁정제	-10253
▁맨해튼	-10254
▁구마모토	-10255
▁아리스토텔레스	-10256
▁리비	-10257
▁통역	-10258
▁공민왕	-10259
▁해리슨	-10260
▁생선	-10261
▁시중	-10262
▁미군정	-10263
▁아무것	-10264
메스	-10265
ans	-10266
▁송도	-10267
▁징병	-10268
▁한하	-10269
▁동물원	-10270
▁루돌프	-10271
▁파인	-10272
OV	-10273
면체	-10274
▁재활	-10275
▁지쿠	-10276
▁차용	-10277
▁동대문	-10278
▁겁	-10279
사상	-10280
컨대	-10281
▁관문	-10282
▁서산	-10283
▁창문	-10284
▁헬리콥터	-10285
천면	-10286
▁오미	-10287
▁총애	-10288
▁호크	-10289
▁대대로	-10290
▁개헌	-10291
▁경시	-10292
▁경희	-10293
▁고쿠	-10294
▁실존	-10295
▁신문사	-10296
▁러시아인	-10297
▁괄	-10298
▁Sy	-10299
▁각성	-10300
▁농경	-10301
▁칼럼	-10302
▁줄거리	-10303
코토	-10304
▁국보	-10305
▁배려	-10306
▁허드	-10307
▁크라이	-10308
▁남산	-10309
▁독창	-10310
▁뾰족	-10311
▁커플	-10312
▁퍼스	-10313
▁퍼포	-10314
▁함자	-10315
▁EBS	-10316
▁경영자	-10317
▁리조트	-10318
ivers	-10319
무소	-10320
▁CM	-10321
▁수필	-10322
▁성남시	-10323
▁얕	-10324
▁유권자	-10325
▁퍼포먼스	-10326
ype	-10327
▁구청	-10328
▁하반	-10329
▁제퍼슨	-10330
▁시합	-10331
▁에프	-10332
▁포착	-10333
▁동유럽	-10334
어사	-10335
▁남해	-10336
▁약혼	-10337
▁화기	-10338
▁위너스	-10339
▁퍼스트	-10340
▁브레이크	-10341
▁나선	-10342
▁총통	-10343
▁클린턴	-10344
▁드미	-10345
▁바트	-10346
▁클레이	-10347
include	-10348
▁경호	-10349
▁뉴클	-10350
▁학설	-10351
▁MTV	-10352
▁사각형	-10353
▁올림피아	-10354
▁칙령	-10355
▁통용	-10356
▁파도	-10357
▁브루스	-10358
▁서재필	-10359
▁솔로몬	-10360
ish	-10361
▁효자	-10362
▁는다면	-10363
▁레이크	-10364
▁선거법	-10365
▁김원	-10366
▁시노	-10367
▁카지	-10368
▁유치원	-10369
▁해리스	-10370
▁가늘	-10371
▁안녕	-10372
GM	-10373
▁마차	-10374
▁모호	-10375
▁산호	-10376
▁유혹	-10377
▁주임	-10378
▁하류	-10379
▁나우	-10380
▁모의	-10381
▁스가	-10382
▁차갑	-10383
▁":	-10384
▁Jo	-10385
▁씨앗	-10386
▁욕망	-10387
▁전래	-10388
▁데려오	-10389
▁스테파	-10390
토랑	-10391
▁관청	-10392
▁들여	-10393
▁신발	-10394
▁일당	-10395
▁하키	-10396
▁화엄	-10397
▁케플러	-10398
▁레스토랑	-10399
▁광도	-10400
▁일리	-10401
▁자제	-10402
▁주입	-10403
▁허정	-10404
▁자치체	-10405
▁총사령관	-10406
원수	-10407
oun	-10408
▁보로	-10409
▁대합실	-10410
에스	-10411
▁NT	-10412
▁성화	-10413
▁시부	-10414
▁천왕	-10415
OD	-10416
▁독도	-10417
▁반기	-10418
▁보행	-10419
▁수양	-10420
▁케인	-10421
▁테라	-10422
▁트릭	-10423
▁호스	-10424
▁분류군	-10425
통일	-10426
▁실정	-10427
▁진해	-10428
▁아키라	-10429
▁예수회	-10430
▁요시다	-10431
▁함경남도	-10432
▁@	-10433
히트	-10434
▁로버	-10435
▁절망	-10436
▁카테	-10437
▁예선전	-10438
AF	-10439
fe	-10440
▁만장	-10441
▁메뉴	-10442
▁찬사	-10443
▁포식	-10444
▁ex	-10445
▁보라	-10446
▁평형	-10447
▁전무	-10448
▁제물	-10449
▁긴테쓰	-10450
▁뛰어들	-10451
▁비밀리	-10452
신문	-10453
정원	-10454
▁마술	-10455
▁무실	-10456
▁분파	-10457
▁검정	-10458
▁극한	-10459
▁라서	-10460
▁폭파	-10461
▁메이커	-10462
▁정의당	-10463
are	-10464
▁나인	-10465
▁소음	-10466
▁테리	-10467
▁내야수	-10468
창호	-10469
▁고든	-10470
▁리보	-10471
▁메카	-10472
▁박종	-10473
▁침묵	-10474
▁sc	-10475
▁다테	-10476
▁이점	-10477
▁보수당	-10478
▁플라톤	-10479
라니	-10480
환경	-10481
▁가솔	-10482
▁블레	-10483
▁원통	-10484
▁방어선	-10485
▁네이션스컵	-10486
▁벅	-10487
바흐	-10488
▁당연	-10489
▁라자	-10490
▁매리	-10491
▁문고	-10492
▁시몬	-10493
▁다저스	-10494
▁비타민	-10495
▁아키타	-10496
▁스톡홀름	-10497
▁ㅓ야	-10498
▁어군	-10499
▁천국	-10500
▁캐롤	-10501
▁서대문	-10502
▁컴퓨팅	-10503
▁뉴클레오	-10504
▁도둑	-10505
▁본성	-10506
▁블로	-10507
▁엄밀	-10508
▁카피	-10509
ical	-10510
▁ABC	-10511
▁알프스	-10512
등식	-10513
▁넷째	-10514
▁프론	-10515
▁드루	-10516
▁수복	-10517
러브	-10518
▁김유	-10519
▁마셜	-10520
▁색소	-10521
▁전담	-10522
▁타스	-10523
▁개구리	-10524
▁바이트	-10525
▁유아기	-10526
lat	-10527
▁강령	-10528
▁자치주	-10529
▁와이번스	-10530
▁도교	-10531
▁리베	-10532
▁묘비	-10533
▁방콕	-10534
▁파손	-10535
▁나트륨	-10536
▁오리온	-10537
▁친위대	-10538
▁동로	-10539
▁소극	-10540
▁웨인	-10541
▁황소	-10542
▁스폰서	-10543
▁프린스	-10544
TP	-10545
암동	-10546
▁노론	-10547
▁대본	-10548
▁북아일랜드	-10549
EG	-10550
IR	-10551
▁대북	-10552
▁모어	-10553
▁백두	-10554
▁소중	-10555
▁찬양	-10556
▁리프트	-10557
▁앞장서	-10558
▁멧	-10559
▁스텝	-10560
메드	-10561
▁럭비	-10562
▁리사	-10563
▁불변	-10564
▁마천루	-10565
▁샐	-10566
▁실권	-10567
▁장시	-10568
▁채취	-10569
▁천거	-10570
▁치과	-10571
▁홀리	-10572
▁ATP	-10573
▁대원군	-10574
▁로드리	-10575
▁투자자	-10576
▁피아니스트	-10577
매매	-10578
▁DD	-10579
▁구실	-10580
▁추이	-10581
▁가브리엘	-10582
부르	-10583
▁CH	-10584
▁마켓	-10585
▁포토	-10586
▁화약	-10587
▁책임지	-10588
▁피라미	-10589
▁Fr	-10590
▁사방	-10591
▁상행	-10592
▁슬픔	-10593
▁야전	-10594
▁왕권	-10595
▁헬싱	-10596
군다	-10597
▁AV	-10598
▁결별	-10599
▁구내	-10600
▁국공	-10601
▁선천	-10602
▁야드	-10603
▁톈진	-10604
▁퇴직	-10605
▁한미	-10606
▁마누엘	-10607
▁연산군	-10608
▁토스카	-10609
▁튀르크	-10610
▁담보	-10611
▁벤처	-10612
▁여유	-10613
▁영유	-10614
▁정거	-10615
▁210	-10616
덴부르크	-10617
▁이의	-10618
▁특전	-10619
▁동시대	-10620
▁용인시	-10621
▁연극배우	-10622
대표	-10623
▁구두	-10624
▁따지	-10625
▁삼존	-10626
▁제노	-10627
▁쾰른	-10628
▁선구자	-10629
▁정부군	-10630
말리	-10631
▁슬하	-10632
▁화강암	-10633
▁콘테스트	-10634
FL	-10635
놀이	-10636
▁유격수	-10637
▁적외선	-10638
티넘	-10639
▁Ma	-10640
▁로크	-10641
▁약사	-10642
▁어는	-10643
▁가이드	-10644
▁아나톨	-10645
▁플래티넘	-10646
▁헤르체고비나	-10647
ey	-10648
▁pr	-10649
▁감찰	-10650
▁방치	-10651
▁스칸	-10652
▁차출	-10653
▁알파벳	-10654
▁주차장	-10655
▁프레데	-10656
대교	-10657
▁별세	-10658
ica	-10659
▁간첩	-10660
▁강렬	-10661
▁마에	-10662
▁위그	-10663
▁유선	-10664
▁중퇴	-10665
▁펌프	-10666
▁잇따르	-10667
EL	-10668
▁왕건	-10669
▁목요일	-10670
사고	-10671
▁뭉치	-10672
▁본작	-10673
▁부치	-10674
▁준수	-10675
▁사로잡	-10676
▁오바마	-10677
▁딥	-10678
수스	-10679
▁가락	-10680
▁경전철	-10681
▁그저	-10682
▁리본	-10683
▁불참	-10684
▁삼림	-10685
▁he	-10686
▁봉화	-10687
▁실록	-10688
▁임정	-10689
▁종식	-10690
▁칸국	-10691
▁두려움	-10692
▁안테나	-10693
▁로얄	-10694
▁아날	-10695
▁유목	-10696
▁켈트	-10697
▁접어들	-10698
▁초신성	-10699
▁1889	-10700
클레	-10701
▁공존	-10702
▁밸리	-10703
▁엔트리	-10704
▁스카우트	-10705
60	-10706
▁영정	-10707
▁요충	-10708
▁이송	-10709
▁기관지	-10710
▁늙	-10711
난성	-10712
▁반포	-10713
▁산성	-10714
▁여권	-10715
▁예약	-10716
▁전전	-10717
▁직통	-10718
▁하시	-10719
공산당	-10720
와라노	-10721
▁도망가	-10722
▁아이폰	-10723
▁후지와라노	-10724
천동	-10725
▁가맹	-10726
▁건전	-10727
▁김형	-10728
▁사역	-10729
▁새우	-10730
▁송신	-10731
▁중합	-10732
▁말미암	-10733
▁고속버스	-10734
소통	-10735
▁갈아	-10736
▁로트	-10737
▁마땅	-10738
▁모금	-10739
▁모하	-10740
▁아끼	-10741
▁영예	-10742
▁정형	-10743
▁집정	-10744
▁형질	-10745
▁밴쿠버	-10746
▁패트릭	-10747
▁베트	-10748
▁여서	-10749
▁플리	-10750
부로	-10751
충류	-10752
▁다윈	-10753
▁대영	-10754
▁우림	-10755
▁투여	-10756
테이너	-10757
▁능하	-10758
▁호대	-10759
▁타이어	-10760
▁구르	-10761
▁불량	-10762
▁비엔	-10763
▁연말	-10764
▁치루	-10765
▁간신히	-10766
▁열심히	-10767
▁타이거스	-10768
▁So	-10769
▁니혼	-10770
▁사설	-10771
▁열강	-10772
▁의류	-10773
▁인가	-10774
▁절정	-10775
▁판례	-10776
▁드디어	-10777
▁떨어뜨리	-10778
▁의사소통	-10779
▁감성	-10780
▁똑같이	-10781
▁권하	-10782
▁매트	-10783
▁비야	-10784
▁주계	-10785
▁캐리	-10786
▁피지	-10787
▁For	-10788
▁메디치	-10789
▁스트로	-10790
카리	-10791
▁발라드	-10792
▁챙	-10793
▁극우	-10794
▁김준	-10795
▁악보	-10796
▁종자	-10797
▁지자	-10798
▁쿠퍼	-10799
▁튼	-10800
위안	-10801
▁격리	-10802
▁라리	-10803
▁낙동강	-10804
▁엣	-10805
바나	-10806
▁감상	-10807
▁미수	-10808
▁받치	-10809
▁사탕	-10810
▁수락	-10811
▁시크	-10812
▁정작	-10813
블랜드	-10814
▁CONCA	-10815
지능	-10816
▁사서	-10817
▁작물	-10818
▁중수	-10819
▁로마인	-10820
▁생존자	-10821
▁인공지능	-10822
▁애정	-10823
추부사	-10824
▁JTBC	-10825
▁Live	-10826
▁프란체스코	-10827
▁CONCACAF	-10828
가미	-10829
드레	-10830
▁무형	-10831
▁센티미터	-10832
bo	-10833
▁금호	-10834
▁서임	-10835
▁원군	-10836
▁의령	-10837
▁정읍	-10838
▁후배	-10839
▁클리블랜드	-10840
▁나카무라	-10841
▁소말리아	-10842
sh	-10843
유예	-10844
▁메소	-10845
▁정종	-10846
▁징수	-10847
▁미야자키	-10848
▁훙	-10849
▁도피	-10850
▁목회	-10851
▁앙골	-10852
▁요격	-10853
▁하야	-10854
휴일	-10855
▁고딕	-10856
▁모색	-10857
▁은거	-10858
▁부딪히	-10859
▁프랑스인	-10860
▁공소	-10861
▁잠정	-10862
▁제명	-10863
캐슬	-10864
▁가두	-10865
▁기이	-10866
▁Sou	-10867
에미리트	-10868
▁아랍에미리트	-10869
▁가도	-10870
▁바지	-10871
▁백과	-10872
▁송출	-10873
▁페트	-10874
▁시네마	-10875
IL	-10876
란토	-10877
망디	-10878
프로	-10879
▁금산	-10880
▁볼트	-10881
▁레이싱	-10882
▁가나가와현	-10883
풀이	-10884
▁비준	-10885
▁습윤	-10886
마르크	-10887
▁여배우	-10888
▁장학금	-10889
▁카탈루냐	-10890
▁자유민주당	-10891
▁깜	-10892
▁유의	-10893
▁치환	-10894
▁트렌	-10895
도르프	-10896
▁피라미드	-10897
EE	-10898
▁김명	-10899
▁당기	-10900
▁리옹	-10901
▁연정	-10902
바이트	-10903
하이오	-10904
▁오하이오	-10905
지기	-10906
▁EU	-10907
▁모욕	-10908
▁서태	-10909
▁익숙	-10910
▁광복군	-10911
▁교통부	-10912
▁유희	-10913
▁평평	-10914
▁Com	-10915
▁에이즈	-10916
다운	-10917
말로	-10918
▁벨리	-10919
tern	-10920
▁미야기	-10921
화문	-10922
▁격추	-10923
▁무네	-10924
▁레이더	-10925
▁Time	-10926
▁성곽	-10927
▁순종	-10928
▁자서	-10929
▁가솔린	-10930
▁검은색	-10931
▁캅	-10932
ood	-10933
▁거미	-10934
▁김광	-10935
▁워커	-10936
▁한중	-10937
▁항만	-10938
▁Col	-10939
▁마이어	-10940
▁유니버설	-10941
간다	-10942
대사	-10943
▁GB	-10944
▁AKB	-10945
▁스타트	-10946
▁츄	-10947
ost	-10948
▁"&	-10949
▁귀신	-10950
▁삼중	-10951
▁수로	-10952
▁암스	-10953
▁탄약	-10954
▁int	-10955
▁기숙사	-10956
▁카카오	-10957
▁1848	-10958
자루	-10959
▁매킨	-10960
▁문집	-10961
▁양심	-10962
▁여고	-10963
▁뉴캐슬	-10964
▁토리노	-10965
현동	-10966
▁추억	-10967
▁하구	-10968
▁라이더	-10969
▁레이트	-10970
▁Part	-10971
▁어시스트	-10972
▁프랑스령	-10973
찌르	-10974
▁무과	-10975
▁여사	-10976
▁우루스	-10977
나마	-10978
▁급여	-10979
▁사쓰	-10980
▁천주	-10981
▁티아	-10982
▁포털	-10983
▁한림	-10984
▁브레이	-10985
▁여의도	-10986
row	-10987
▁도래	-10988
▁해피	-10989
▁프란치	-10990
거스	-10991
▁사민	-10992
▁추력	-10993
▁최진	-10994
▁바그너	-10995
에몽	-10996
의사	-10997
지부	-10998
▁오만	-10999
▁해태	-11000
span	-11001
▁대리인	-11002
▁지상파	-11003
애미	-11004
▁국한	-11005
▁댄서	-11006
▁재팬	-11007
▁하행	-11008
▁공휴일	-11009
▁명확히	-11010
▁부총리	-11011
▁마이애미	-11012
▁TR	-11013
▁워즈	-11014
▁조인	-11015
▁토트	-11016
▁해독	-11017
▁onlyinclude	-11018
uc	-11019
정동	-11020
ous	-11021
▁가혹	-11022
▁남군	-11023
▁볼로	-11024
▁재일	-11025
▁절벽	-11026
▁우한	-11027
▁종군	-11028
프랑크	-11029
▁지배자	-11030
▁튀니지	-11031
▁카스티야	-11032
lay	-11033
▁공대	-11034
▁공성	-11035
▁라르	-11036
▁모건	-11037
▁비정	-11038
▁셀레	-11039
▁무찌르	-11040
▁방대	-11041
▁병자	-11042
▁업자	-11043
▁총격	-11044
▁대니얼	-11045
▁정치학	-11046
▁클라우	-11047
orn	-11048
▁EM	-11049
▁무안	-11050
▁비토	-11051
▁클러	-11052
▁정거장	-11053
▁굴절	-11054
▁보령	-11055
▁안개	-11056
▁유식	-11057
▁특화	-11058
▁일본국	-11059
▁Your	-11060
▁대승불교	-11061
▁보수주의	-11062
▁로키	-11063
▁부합	-11064
파니아	-11065
▁고인돌	-11066
▁교의	-11067
▁비대	-11068
▁음절	-11069
페스트	-11070
▁법원장	-11071
▁페트로	-11072
▁산둥	-11073
▁제위	-11074
▁치카	-11075
▁국제법	-11076
▁대단히	-11077
▁대법관	-11078
▁마법사	-11079
▁리카	-11080
▁설문	-11081
ows	-11082
▁인칭	-11083
olog	-11084
▁SNS	-11085
▁관현악단	-11086
관계	-11087
메니	-11088
으로	-11089
ann	-11090
▁가쿠	-11091
▁경복	-11092
▁김인	-11093
▁단결	-11094
▁몰아	-11095
▁신곡	-11096
▁그랜트	-11097
▁시코쿠	-11098
▁아이즈	-11099
▁랴오	-11100
▁문단	-11101
▁부평	-11102
▁선명	-11103
▁시멘트	-11104
브로	-11105
▁사수	-11106
▁숙부	-11107
해살이	-11108
▁류큐	-11109
▁마테	-11110
▁용액	-11111
▁Bla	-11112
▁저지대	-11113
▁하노버	-11114
▁헤어지	-11115
az	-11116
▁고로	-11117
▁대마	-11118
▁모빌	-11119
▁선봉	-11120
▁케르	-11121
▁제우스	-11122
히사	-11123
▁BC	-11124
▁거란	-11125
▁공영	-11126
▁연립	-11127
▁131	-11128
OP	-11129
▁동산	-11130
▁지법	-11131
▁항체	-11132
메이카	-11133
▁OST	-11134
▁카메룬	-11135
▁자메이카	-11136
▁줄기세포	-11137
▁부다	-11138
▁오디	-11139
▁평지	-11140
▁황색	-11141
▁API	-11142
▁방사능	-11143
▁정보원	-11144
▁쪼	-11145
서스	-11146
▁검거	-11147
▁꺼내	-11148
▁메일	-11149
▁베어	-11150
▁서귀	-11151
▁진로	-11152
▁대나무	-11153
▁NASA	-11154
▁명소	-11155
▁초콜	-11156
클리드	-11157
▁레드삭스	-11158
▁도키	-11159
▁동진	-11160
▁소외	-11161
▁안방	-11162
▁적료	-11163
▁점포	-11164
드리아	-11165
▁줄리아	-11166
▁1883	-11167
▁쾨	-11168
▁재편	-11169
지아	-11170
▁at	-11171
▁모범	-11172
▁사림	-11173
▁종양	-11174
▁항우	-11175
▁형벌	-11176
빌라이	-11177
▁ref	-11178
▁부상자	-11179
▁욱	-11180
칼리	-11181
▁글꼴	-11182
▁메스	-11183
▁전보	-11184
▁지석	-11185
▁라파엘	-11186
▁영화상	-11187
▁제이슨	-11188
aw	-11189
▁가중	-11190
▁국교	-11191
▁남방	-11192
▁다듬	-11193
▁속력	-11194
▁최선	-11195
▁혼다	-11196
▁패러디	-11197
▁그라운드	-11198
▁GM	-11199
▁골격	-11200
▁다툼	-11201
▁하코	-11202
레스트	-11203
▁기와	-11204
▁전한	-11205
▁중엽	-11206
른스트	-11207
▁녕	-11208
시노	-11209
▁실증	-11210
▁응급	-11211
▁편견	-11212
▁한신	-11213
▁곶	-11214
▁가토	-11215
▁도박	-11216
▁라디	-11217
▁봉인	-11218
▁수식	-11219
▁연희	-11220
▁절감	-11221
▁평판	-11222
▁날아가	-11223
▁교향악단	-11224
▁기세	-11225
▁녹화	-11226
▁본뜨	-11227
▁탄자	-11228
네그로	-11229
▁판소리	-11230
용차	-11231
▁관상	-11232
▁무작	-11233
▁ㄴ다면	-11234
▁u	-11235
▁촛	-11236
합성	-11237
▁계주	-11238
▁산요	-11239
▁은혜	-11240
▁코소	-11241
▁타락	-11242
▁비서관	-11243
▁체인지	-11244
▁대좌	-11245
▁삽화	-11246
▁쌍대	-11247
▁후진	-11248
▁파일럿	-11249
▁노르망디	-11250
▁경위	-11251
▁식스	-11252
▁큐브	-11253
▁에스페	-11254
▁연구회	-11255
▁해상도	-11256
▁텍사스주	-11257
80	-11258
▁간략	-11259
▁리즈	-11260
▁송파	-11261
▁야외	-11262
▁열전	-11263
▁유우	-11264
▁피리	-11265
▁고분군	-11266
▁공무	-11267
▁근사	-11268
▁라바	-11269
▁범하	-11270
▁유공	-11271
센스	-11272
▁tv	-11273
▁이터	-11274
▁자명	-11275
▁조교	-11276
제품	-11277
▁가우	-11278
▁고생	-11279
▁라기	-11280
▁발상	-11281
▁병마	-11282
▁카네	-11283
▁콘솔	-11284
▁하남	-11285
▁예컨대	-11286
▁프로그래머	-11287
▁단군	-11288
▁리마	-11289
▁무섭	-11290
▁세습	-11291
▁온난	-11292
▁위로	-11293
▁이회	-11294
▁카마	-11295
▁연장전	-11296
▁뫼	-11297
▁기량	-11298
▁유생	-11299
▁에이전	-11300
▁위구르	-11301
▁Ge	-11302
▁노면	-11303
▁니키	-11304
▁받들	-11305
▁우산	-11306
▁쿠빌라이	-11307
지로	-11308
▁간사	-11309
▁고의	-11310
▁도네	-11311
▁램프	-11312
▁배분	-11313
▁상어	-11314
▁수위	-11315
▁엔드	-11316
▁월터	-11317
▁토마토	-11318
▁단속	-11319
▁안나	-11320
▁요절	-11321
▁지극	-11322
▁이용객	-11323
▁전반기	-11324
치히	-11325
▁관례	-11326
▁부왕	-11327
▁함량	-11328
▁만화가	-11329
워스	-11330
ern	-11331
ink	-11332
▁권역	-11333
▁북군	-11334
▁학력	-11335
▁다이어	-11336
▁해안선	-11337
돌이	-11338
에고	-11339
▁국외	-11340
▁단정	-11341
▁모세	-11342
▁성동	-11343
▁요양	-11344
▁1882	-11345
▁야마가타	-11346
▁RP	-11347
▁고흥	-11348
▁아유	-11349
▁왕궁	-11350
▁친족	-11351
▁Day	-11352
▁통신사	-11353
▁Wind	-11354
▁중소기업	-11355
40	-11356
▁봇	-11357
▁콥	-11358
버른	-11359
프턴	-11360
▁루키	-11361
▁멋지	-11362
▁사로잡히	-11363
▁거성	-11364
▁고노	-11365
▁내일	-11366
▁몰타	-11367
▁보루	-11368
▁부교	-11369
▁스루	-11370
▁주선	-11371
스트리	-11372
▁330	-11373
▁슈퍼컵	-11374
▁올리브	-11375
▁관계없이	-11376
토프	-11377
포시	-11378
▁기전	-11379
▁덮개	-11380
▁동포	-11381
▁사학	-11382
▁유서	-11383
▁헬레	-11384
CC	-11385
갈리	-11386
▁급증	-11387
▁세련	-11388
▁위조	-11389
▁파벌	-11390
▁단체전	-11391
▁스칼라	-11392
▁원산지	-11393
▁가고	-11394
▁관악	-11395
▁대표자	-11396
▁데니스	-11397
▁아이언	-11398
▁필립스	-11399
II	-11400
교통	-11401
여객	-11402
▁RS	-11403
▁SA	-11404
▁장덕	-11405
▁정월	-11406
▁조셉	-11407
▁공화정	-11408
▁아날로그	-11409
▁다우	-11410
▁붙잡	-11411
오르크	-11412
▁너무나	-11413
▁레오폴	-11414
▁결사	-11415
▁배달	-11416
▁범행	-11417
▁씨족	-11418
▁어기	-11419
▁국정원	-11420
▁부르주	-11421
▁선진국	-11422
▁카스트	-11423
▁Girl	-11424
▁몹	-11425
▁자수	-11426
▁플러	-11427
▁미토콘	-11428
▁영원히	-11429
▁미토콘드리아	-11430
▁FK	-11431
▁시안	-11432
▁우시	-11433
▁으리	-11434
▁정정	-11435
▁직속	-11436
▁최영	-11437
▁타수	-11438
▁베풀	-11439
▁성원	-11440
▁제천	-11441
▁Sch	-11442
▁강당	-11443
▁상록	-11444
▁재래	-11445
▁주창	-11446
▁태후	-11447
▁항원	-11448
▁후예	-11449
▁미스터리	-11450
서니	-11451
팡이	-11452
▁사영	-11453
▁아목	-11454
▁표정	-11455
▁군사력	-11456
▁북유럽	-11457
▁중공군	-11458
▁4000	-11459
▁관목	-11460
▁선대	-11461
▁염려	-11462
▁노벨상	-11463
▁해운대	-11464
▁시즈오카	-11465
▁강행	-11466
▁남하	-11467
▁산시	-11468
▁협업	-11469
▁형편	-11470
▁경주시	-11471
▁브루클린	-11472
▁넬슨	-11473
▁랭크	-11474
▁천수	-11475
▁무실점	-11476
▁테네시	-11477
▁호스트	-11478
▁괌	-11479
▁냥	-11480
▁딜런	-11481
▁양보	-11482
▁외래	-11483
▁조슈	-11484
▁독수리	-11485
게스	-11486
도라	-11487
▁규탄	-11488
▁발동	-11489
▁사치	-11490
▁서면	-11491
▁잠깐	-11492
▁정은	-11493
▁콜럼	-11494
▁신입	-11495
▁파푸아	-11496
본부	-11497
▁보름	-11498
▁얽히	-11499
▁안티오	-11500
▁지붕돌	-11501
▁파시즘	-11502
▁휴게소	-11503
데라	-11504
▁소프	-11505
▁제단	-11506
▁사업소	-11507
▁제갈량	-11508
▁1868	-11509
융합	-11510
▁단말	-11511
▁밝혀	-11512
▁빙하	-11513
▁영덕	-11514
▁일각	-11515
티모어	-11516
▁대상자	-11517
▁베이커	-11518
▁산티아	-11519
▁우의정	-11520
OT	-11521
US	-11522
▁노사	-11523
▁우월	-11524
▁하의	-11525
▁회귀	-11526
▁new	-11527
▁멜버른	-11528
▁메릴랜드	-11529
▁뇨	-11530
▁대인	-11531
▁번창	-11532
▁종영	-11533
▁급속히	-11534
▁데려가	-11535
▁라인업	-11536
▁컨테이너	-11537
▁Or	-11538
▁과테	-11539
▁뒤이	-11540
▁라미	-11541
▁수열	-11542
▁과테말라	-11543
▁유클리드	-11544
해자	-11545
▁OB	-11546
▁겨루	-11547
▁사안	-11548
▁족보	-11549
▁할인	-11550
스탄불	-11551
▁핵융합	-11552
▁사이타마	-11553
▁이스탄불	-11554
oll	-11555
▁오아	-11556
▁LED	-11557
▁스캔들	-11558
▁요충지	-11559
▁이바지	-11560
▁컨트롤러	-11561
당기	-11562
협회	-11563
▁객차	-11564
▁고트	-11565
▁대도	-11566
▁어파	-11567
▁피핀	-11568
▁앙골라	-11569
▁오스틴	-11570
▁사회민주당	-11571
▁교부	-11572
▁군벌	-11573
▁동적	-11574
▁외형	-11575
▁증폭	-11576
▁청계	-11577
▁출자	-11578
▁밝혀내	-11579
▁몬테네그로	-11580
▁사운드트랙	-11581
▁샨	-11582
▁찢	-11583
지리	-11584
▁농지	-11585
▁영월	-11586
▁저조	-11587
▁전수	-11588
▁렛	-11589
▁충렬	-11590
▁프랜차	-11591
▁장병	-11592
▁절제	-11593
▁리믹스	-11594
▁망치	-11595
▁법관	-11596
▁성산	-11597
▁기념일	-11598
▁폐기물	-11599
▁너머	-11600
▁노후	-11601
▁사천	-11602
▁우왕	-11603
▁켄트	-11604
▁트이	-11605
▁항로	-11606
펜하겐	-11607
▁좌의정	-11608
▁코펜하겐	-11609
히드	-11610
▁복종	-11611
▁위력	-11612
▁잔인	-11613
▁초안	-11614
▁주계열	-11615
▁베르나르	-11616
▁야마모토	-11617
▁교직	-11618
▁라카	-11619
▁러일	-11620
▁버터	-11621
▁안무	-11622
▁위촉	-11623
▁증오	-11624
웨이트	-11625
▁커리어	-11626
▁거처	-11627
▁게끔	-11628
▁금전	-11629
▁밀레	-11630
▁배리	-11631
▁은신	-11632
▁차선	-11633
▁청도	-11634
▁아케이드	-11635
▁요하네스	-11636
▁부파	-11637
▁사비	-11638
▁스콜	-11639
▁양수	-11640
▁영암	-11641
▁320	-11642
▁히브리	-11643
▁프란시스코	-11644
바오	-11645
▁출동	-11646
▁타리	-11647
▁프랜차이즈	-11648
▁colspan	-11649
어넣	-11650
▁식용	-11651
▁외과	-11652
▁주심	-11653
▁카세	-11654
▁피드	-11655
▁신주쿠	-11656
▁암스테르담	-11657
리안	-11658
▁동향	-11659
▁성악	-11660
▁이메	-11661
▁헌장	-11662
▁고온	-11663
▁내분	-11664
▁네티	-11665
▁치유	-11666
▁김옥균	-11667
▁사이먼	-11668
▁슌	-11669
공주	-11670
호란	-11671
▁끊기	-11672
▁대청	-11673
▁도상	-11674
▁우연	-11675
▁종신	-11676
▁추서	-11677
▁수요일	-11678
▁DF	-11679
▁대덕	-11680
▁분단	-11681
▁습관	-11682
▁이항	-11683
▁준장	-11684
▁end	-11685
▁동맹국	-11686
▁자서전	-11687
▁게오르크	-11688
▁니콜라스	-11689
▁능동	-11690
▁상국	-11691
▁소아	-11692
▁슈테	-11693
▁시비	-11694
▁치하	-11695
▁카툰	-11696
▁피치	-11697
아다니	-11698
▁효고현	-11699
▁여성주의	-11700
▁놈	-11701
우에	-11702
익스	-11703
▁공안	-11704
▁분사	-11705
▁순차	-11706
▁전세	-11707
▁컨설	-11708
▁그만큼	-11709
디나비아	-11710
▁스칸디나비아	-11711
▁국철	-11712
▁바울	-11713
▁양대	-11714
▁자재	-11715
▁정령	-11716
▁첼로	-11717
▁축산	-11718
토리코	-11719
▁오일러	-11720
▁산티아고	-11721
▁정몽	-11722
▁조영	-11723
▁직행	-11724
▁타일	-11725
▁서해안	-11726
걸이	-11727
꼬리	-11728
▁by	-11729
▁김윤	-11730
▁모차	-11731
▁샤프	-11732
▁압록	-11733
▁톰슨	-11734
▁호아	-11735
amp	-11736
gin	-11737
▁긴밀	-11738
▁문종	-11739
▁데이브	-11740
▁헤이안	-11741
▁에른스트	-11742
▁쿠웨이트	-11743
니파	-11744
려들	-11745
▁거지	-11746
▁노아	-11747
▁서주	-11748
▁전락	-11749
▁결과물	-11750
▁브뤼셀	-11751
▁김선	-11752
▁점거	-11753
▁차츰	-11754
▁타로	-11755
▁함흥	-11756
▁280	-11757
▁로마자	-11758
▁서사시	-11759
▁시트콤	-11760
▁루이지애나	-11761
▁늪	-11762
단지	-11763
독립	-11764
웍스	-11765
▁정반	-11766
▁칭송	-11767
▁퍼즐	-11768
▁한번	-11769
▁발전기	-11770
▁위안부	-11771
▁철저히	-11772
▁텔레콤	-11773
▁코스타리카	-11774
셀러	-11775
▁브릿	-11776
▁아흐	-11777
▁주성	-11778
▁어웨이	-11779
▁윗부분	-11780
▁장로교	-11781
▁육군사관학교	-11782
▁푸에르토리코	-11783
LA	-11784
▁IR	-11785
▁내무	-11786
▁문무	-11787
▁원활	-11788
▁전학	-11789
▁짐승	-11790
▁천천	-11791
▁가라앉	-11792
▁천안시	-11793
▁리코	-11794
▁흡사	-11795
▁법조인	-11796
▁펠릭스	-11797
▁함경북도	-11798
▁촐	-11799
계승	-11800
▁결핵	-11801
▁고집	-11802
▁정재	-11803
▁IOC	-11804
▁유학자	-11805
▁포르노	-11806
▁1893	-11807
▁각료	-11808
▁김승	-11809
▁데드	-11810
▁박성	-11811
▁백악	-11812
▁소대	-11813
▁수량	-11814
▁유족	-11815
▁척도	-11816
▁편향	-11817
▁후유	-11818
▁203	-11819
▁부르고	-11820
▁화장품	-11821
▁갯	-11822
▁격려	-11823
▁리튬	-11824
▁앤디	-11825
▁온화	-11826
▁천마	-11827
▁축전	-11828
▁폐렴	-11829
▁피크	-11830
▁트리오	-11831
▁복음주의	-11832
OW	-11833
▁맬	-11834
게임	-11835
▁Fe	-11836
▁박상	-11837
▁배드	-11838
▁생리	-11839
▁코네	-11840
▁천천히	-11841
북구	-11842
▁레프	-11843
▁이아	-11844
▁이우	-11845
▁집착	-11846
▁충무	-11847
▁측량	-11848
▁학장	-11849
▁민병대	-11850
퍼레이션	-11851
업자	-11852
▁과시	-11853
▁대종	-11854
▁데일리	-11855
▁가고시마	-11856
gr	-11857
세유	-11858
▁영천	-11859
▁교육자	-11860
▁이탈리아어	-11861
ung	-11862
▁기쁨	-11863
▁막판	-11864
▁서스	-11865
▁선인	-11866
▁이황	-11867
▁해왕	-11868
라이드	-11869
▁탄자니아	-11870
▁Mo	-11871
▁배양	-11872
▁자진	-11873
▁조니	-11874
▁조제	-11875
▁탈취	-11876
▁도자기	-11877
▁로베르	-11878
▁마이크로	-11879
상시	-11880
les	-11881
▁NP	-11882
▁le	-11883
▁심포	-11884
▁접종	-11885
▁하타	-11886
▁동맹군	-11887
▁해안가	-11888
▁갚	-11889
▁톡	-11890
▁김치	-11891
▁도우	-11892
▁서초구	-11893
▁Rock	-11894
티에	-11895
화학	-11896
▁간직	-11897
▁여도	-11898
▁우두	-11899
▁헤로	-11900
로이드	-11901
▁관우	-11902
▁애인	-11903
▁하급	-11904
▁노미야	-11905
▁김천	-11906
▁도이	-11907
▁사귀	-11908
▁톱니	-11909
▁헌터	-11910
▁아라곤	-11911
▁초콜릿	-11912
▁후쿠오카현	-11913
들러	-11914
몬트	-11915
비크	-11916
eth	-11917
▁관성	-11918
▁금동	-11919
▁미성	-11920
▁불경	-11921
▁심상	-11922
▁유영	-11923
▁한문	-11924
▁한큐	-11925
▁아우르	-11926
▁유적지	-11927
익스피어	-11928
▁Comp	-11929
▁핏	-11930
▁공양	-11931
▁림프	-11932
▁플랑크	-11933
▁셰익스피어	-11934
레드	-11935
▁구금	-11936
▁도출	-11937
▁심부	-11938
▁주세	-11939
▁칼슘	-11940
▁비스타	-11941
▁격하	-11942
▁굳히	-11943
▁마타	-11944
▁전미	-11945
루이스	-11946
▁녹색당	-11947
▁컬렉션	-11948
▁레인저스	-11949
▁덥	-11950
▁끓이	-11951
▁아츠	-11952
▁점검	-11953
▁조롱	-11954
▁고려대	-11955
▁케이크	-11956
▁픽처스	-11957
▁견고	-11958
▁버섯	-11959
▁흥분	-11960
▁강화도	-11961
▁글래스	-11962
▁스포르	-11963
▁미나모토	-11964
▁부르고뉴	-11965
▁Univers	-11966
▁귀속	-11967
▁바비	-11968
▁오하	-11969
▁장녀	-11970
▁현판	-11971
▁도야마	-11972
▁구독	-11973
▁라흐	-11974
▁명인	-11975
▁버러	-11976
▁소사	-11977
▁아메	-11978
▁TBS	-11979
▁사상가	-11980
▁우울증	-11981
oth	-11982
▁AB	-11983
▁Am	-11984
▁대주	-11985
▁배역	-11986
▁시속	-11987
▁에마	-11988
▁페더	-11989
▁Rec	-11990
▁불계승	-11991
▁상관없이	-11992
▁까마	-11993
▁노랑	-11994
▁비지	-11995
▁에로	-11996
▁휴양	-11997
▁게오르	-11998
▁다면서	-11999
▁로스쿨	-12000
▁밀려나	-12001
▁발사체	-12002
▁휘말리	-12003
▁러시아군	-12004
▁구치	-12005
▁라즈	-12006
▁무단	-12007
▁물결	-12008
▁서바이	-12009
▁순양함	-12010
▁도카이도	-12011
▁인공위성	-12012
트르	-12013
▁대차	-12014
▁마트	-12015
▁배기	-12016
▁월트	-12017
▁낚시	-12018
▁미츠	-12019
▁발목	-12020
▁상정	-12021
▁심문	-12022
▁청량	-12023
▁특사	-12024
▁황산	-12025
▁230	-12026
▁참모총장	-12027
나기	-12028
▁반동	-12029
▁재차	-12030
▁지난	-12031
▁카레	-12032
▁후하	-12033
그마	-12034
태평	-12035
폭탄	-12036
▁노프	-12037
▁물려주	-12038
▁베르타	-12039
▁프리스	-12040
▁from	-12041
▁플로리다주	-12042
▁핼	-12043
▁끼우	-12044
▁대접	-12045
▁연회	-12046
▁온대	-12047
▁침례	-12048
▁파편	-12049
▁GNU	-12050
▁스탠리	-12051
▁가르시아	-12052
▁가와사키	-12053
▁에스페란토	-12054
▁Do	-12055
▁Sup	-12056
▁국제선	-12057
▁마르세유	-12058
국적	-12059
바리	-12060
▁강진	-12061
▁꾸리	-12062
▁나뭇	-12063
▁당뇨	-12064
▁미아	-12065
▁슈타	-12066
▁용품	-12067
▁향기	-12068
▁프로모	-12069
ublic	-12070
▁뮐	-12071
헤드	-12072
▁라가	-12073
▁스투	-12074
▁이범	-12075
▁평안도	-12076
▁가부	-12077
▁대진	-12078
▁동종	-12079
▁운임	-12080
▁유포	-12081
민스터	-12082
▁기업가	-12083
▁로빈슨	-12084
▁수차례	-12085
▁지바현	-12086
▁펠리페	-12087
▁중앙은행	-12088
▁Su	-12089
▁리차	-12090
▁산수	-12091
▁소용	-12092
▁재발	-12093
▁철강	-12094
▁피사	-12095
▁수나라	-12096
▁박테리아	-12097
▁IV	-12098
▁매달	-12099
▁스킴	-12100
▁애초	-12101
▁에바	-12102
▁웃음	-12103
▁제창	-12104
▁페오	-12105
▁으려는	-12106
▁조선왕	-12107
▁율리우스	-12108
유사	-12109
▁울릉	-12110
▁카야	-12111
▁하이퍼	-12112
▁1888	-12113
▁1892	-12114
▁네모	-12115
▁성기	-12116
▁청송	-12117
▁다이빙	-12118
▁로이드	-12119
▁이바라	-12120
▁쫓아내	-12121
▁노스캐롤라이나	-12122
▁깁	-12123
▁닉슨	-12124
▁명부	-12125
▁제철	-12126
▁경계선	-12127
▁사간원	-12128
▁세네갈	-12129
▁쇠고기	-12130
둘기	-12131
▁CG	-12132
▁시우	-12133
▁장래	-12134
▁재앙	-12135
▁Car	-12136
▁케이트	-12137
AI	-12138
▁Sw	-12139
▁공법	-12140
▁데미	-12141
▁메틸	-12142
▁소동	-12143
▁유무	-12144
▁세비야	-12145
▁자라나	-12146
연수	-12147
▁납부	-12148
▁백자	-12149
▁사커	-12150
▁아와	-12151
▁허드슨	-12152
▁활동가	-12153
▁우에스기	-12154
▁푹	-12155
▁군데	-12156
▁붕어	-12157
▁사변	-12158
▁사키	-12159
▁살라	-12160
▁원유	-12161
▁주먹	-12162
▁애덤스	-12163
▁절도사	-12164
AE	-12165
티노	-12166
홍색	-12167
▁ar	-12168
▁모던	-12169
▁순례	-12170
▁시문	-12171
▁옥타	-12172
▁입헌	-12173
▁관현악	-12174
▁굶	-12175
▁강성	-12176
▁고스	-12177
▁공시	-12178
▁새뮤	-12179
▁어의	-12180
▁펠트	-12181
로니아	-12182
▁소학교	-12183
▁스탠드	-12184
▁과잉	-12185
▁낙양	-12186
▁라드	-12187
▁불사	-12188
▁위계	-12189
▁레이디	-12190
▁뱃	-12191
▁맥아	-12192
▁으시	-12193
▁이봉	-12194
미디어	-12195
▁공방전	-12196
▁대명사	-12197
▁대전차	-12198
▁산스크	-12199
▁차세대	-12200
▁산스크리트	-12201
▁면모	-12202
▁반주	-12203
▁자립	-12204
▁코사	-12205
▁고려사	-12206
▁논리학	-12207
▁다카라	-12208
▁대공국	-12209
▁스테판	-12210
▁알렉산드로스	-12211
▁씻	-12212
네트	-12213
다보	-12214
암리	-12215
철수	-12216
▁농축	-12217
▁미미	-12218
▁미식	-12219
▁자코	-12220
▁직계	-12221
▁하임	-12222
▁해병	-12223
▁더블린	-12224
▁아브라	-12225
▁지리학	-12226
▁펩	-12227
사태	-12228
자동	-12229
▁계량	-12230
▁과연	-12231
▁산청	-12232
▁세레	-12233
▁필하	-12234
▁문자열	-12235
▁사절단	-12236
▁후원자	-12237
▁프린스턴	-12238
▁니켈	-12239
▁도르트	-12240
▁볼로냐	-12241
▁1876	-12242
▁데스크톱	-12243
▁펫	-12244
다오	-12245
클라	-12246
▁중고	-12247
▁북조선	-12248
▁올리버	-12249
▁전주시	-12250
▁나름	-12251
▁당황	-12252
▁대금	-12253
▁생모	-12254
▁선양	-12255
▁아다	-12256
▁USB	-12257
▁사단장	-12258
▁성매매	-12259
RT	-12260
ah	-12261
▁겟	-12262
보리	-12263
▁wh	-12264
▁댓글	-12265
▁두각	-12266
▁이산	-12267
▁앤서니	-12268
▁프레임워크	-12269
▁거룩	-12270
▁노랗	-12271
▁로브	-12272
▁손녀	-12273
▁수력	-12274
▁죄수	-12275
▁풍습	-12276
▁브래드	-12277
▁아무리	-12278
▁1866	-12279
▁페르난도	-12280
▁간혹	-12281
▁단조	-12282
▁부양	-12283
▁수하	-12284
▁완도	-12285
▁정진	-12286
▁조개	-12287
▁채색	-12288
▁축성	-12289
▁토이	-12290
▁통폐	-12291
리카락	-12292
▁카운트	-12293
▁1886	-12294
▁머리카락	-12295
▁가면라이더	-12296
▁베이시스트	-12297
▁덱	-12298
로쿠	-12299
▁물류	-12300
▁발의	-12301
▁복싱	-12302
▁알폰	-12303
▁포탄	-12304
▁송환	-12305
▁에반	-12306
▁전권	-12307
▁펴내	-12308
▁260	-12309
▁Gre	-12310
▁보좌관	-12311
▁서기관	-12312
▁집행유예	-12313
▁프란치스코	-12314
광성	-12315
너드	-12316
▁군관	-12317
▁비우	-12318
▁아디	-12319
▁이호	-12320
▁조현	-12321
▁게시판	-12322
▁장제스	-12323
▁베네딕토	-12324
네임	-12325
뮬러	-12326
코르	-12327
▁너스	-12328
▁앨리	-12329
▁일진	-12330
▁조소	-12331
▁파파	-12332
르타뉴	-12333
▁교구장	-12334
▁조나라	-12335
▁브르타뉴	-12336
▁인플레이션	-12337
▁꽂	-12338
▁도성	-12339
▁번갈	-12340
▁부류	-12341
▁유능	-12342
▁저우	-12343
EST	-12344
▁약점	-12345
▁이니	-12346
▁합천	-12347
러뜨리	-12348
▁270	-12349
▁생리학	-12350
▁스테인	-12351
▁구스타프	-12352
분열	-12353
▁co	-12354
▁깃털	-12355
▁바시	-12356
▁박수	-12357
▁본체	-12358
▁아쉽	-12359
▁아지	-12360
▁얼룩	-12361
▁엘런	-12362
▁표하	-12363
▁바이어	-12364
▁코소보	-12365
▁웨스트민스터	-12366
라호	-12367
▁신진	-12368
▁잘리	-12369
▁펀드	-12370
▁덩어리	-12371
▁독립군	-12372
▁베이비	-12373
▁이즈미	-12374
▁드미트리	-12375
▁마린	-12376
▁무수	-12377
▁서예	-12378
▁원상	-12379
▁유다	-12380
▁민영화	-12381
▁페미니	-12382
▁Tour	-12383
꿈치	-12384
레시	-12385
▁긴키	-12386
▁배척	-12387
▁초전	-12388
▁파커	-12389
▁강서구	-12390
▁새뮤얼	-12391
▁해결책	-12392
큐어	-12393
▁도약	-12394
▁악곡	-12395
▁에리	-12396
▁임계	-12397
▁행방	-12398
▁역사학	-12399
▁용의자	-12400
▁통폐합	-12401
▁마르쿠스	-12402
▁카르타고	-12403
ron	-12404
▁도하	-12405
▁라니	-12406
▁제르	-12407
▁현과	-12408
▁간사이	-12409
▁서포터	-12410
▁주니치	-12411
▁1887	-12412
▁모차르트	-12413
우회	-12414
직경	-12415
▁마나	-12416
▁망하	-12417
▁빅뱅	-12418
▁산물	-12419
▁중개	-12420
▁퇴위	-12421
▁경영학	-12422
▁삼각주	-12423
▁쏟아지	-12424
▁KB	-12425
▁경무	-12426
▁위패	-12427
▁타구	-12428
▁프루	-12429
▁금나라	-12430
▁시직경	-12431
▁이어주	-12432
▁장난감	-12433
▁1861	-12434
▁프리미엄	-12435
▁펭	-12436
쓰기	-12437
지오	-12438
짜기	-12439
▁ML	-12440
▁모라	-12441
▁박자	-12442
▁아자	-12443
▁여타	-12444
▁음운	-12445
▁포츠	-12446
land	-12447
▁바람직	-12448
▁보살상	-12449
▁사쓰마	-12450
▁불러들이	-12451
▁브리티시	-12452
슈타	-12453
▁급히	-12454
▁동창	-12455
▁축구팀	-12456
ave	-12457
▁습득	-12458
▁출혈	-12459
▁근거지	-12460
▁유전학	-12461
▁화요일	-12462
▁Dream	-12463
19	-12464
왕후	-12465
ble	-12466
▁광선	-12467
▁슬램	-12468
▁페스	-12469
▁집정관	-12470
하임	-12471
▁Up	-12472
▁고창	-12473
▁도제	-12474
▁유머	-12475
▁지아	-12476
▁편안	-12477
▁Wii	-12478
른베르크	-12479
▁클레멘스	-12480
▁싹	-12481
제비	-12482
▁가닥	-12483
▁마구	-12484
▁무자	-12485
▁위시	-12486
▁자궁	-12487
▁펠로	-12488
▁장애물	-12489
▁도미니카	-12490
▁볼티모어	-12491
▁재단법인	-12492
▁오산	-12493
▁코호	-12494
▁홈경기	-12495
동자	-12496
비안	-12497
▁SV	-12498
▁레트	-12499
▁몰두	-12500
▁세분	-12501
▁1864	-12502
▁Life	-12503
▁it	-12504
▁버크	-12505
▁올레	-12506
▁정예	-12507
▁직사	-12508
▁특기	-12509
▁형용	-12510
▁환관	-12511
▁단거리	-12512
▁부분군	-12513
코타	-12514
▁라시	-12515
▁여건	-12516
▁유타	-12517
▁천지	-12518
▁돗	-12519
ult	-12520
▁슬프	-12521
▁외환	-12522
▁익명	-12523
▁촛불	-12524
▁꺼리	-12525
▁오대	-12526
▁황해도	-12527
▁다행	-12528
▁레버	-12529
▁만점	-12530
▁불분	-12531
▁파직	-12532
▁신세계	-12533
▁코스트	-12534
▁후세인	-12535
DA	-12536
▁모국	-12537
▁모닝	-12538
▁사내	-12539
▁양현	-12540
▁완결	-12541
▁자릿	-12542
▁뛰어넘	-12543
▁내포	-12544
▁수이	-12545
▁포화	-12546
▁바로크	-12547
▁1850	-12548
▁석가모니	-12549
열차	-12550
▁기밀	-12551
▁사하	-12552
▁에두	-12553
▁왕관	-12554
▁장전	-12555
솔리니	-12556
▁당선자	-12557
▁데이빗	-12558
린트	-12559
▁교지	-12560
▁발톱	-12561
▁세무	-12562
▁오메	-12563
▁착하	-12564
▁공연장	-12565
▁네티즌	-12566
▁음악원	-12567
▁프랑코	-12568
▁스트리밍	-12569
▁SH	-12570
▁경건	-12571
▁뒤늦	-12572
▁개정안	-12573
▁좌표계	-12574
▁카이로	-12575
▁휘두르	-12576
즐리	-12577
콘신	-12578
▁RT	-12579
▁구문	-12580
▁리트	-12581
▁스모	-12582
▁승단	-12583
▁재결	-12584
▁증세	-12585
▁지면	-12586
▁혼혈	-12587
▁백악기	-12588
▁보안법	-12589
▁위스콘신	-12590
디슨	-12591
▁복위	-12592
▁잔디	-12593
▁토목	-12594
▁가해자	-12595
▁모나코	-12596
예술	-12597
▁TC	-12598
▁건네	-12599
▁실각	-12600
▁예의	-12601
▁다카라즈카	-12602
▁홀딩	-12603
▁홍성	-12604
ition	-12605
▁남베트남	-12606
니오	-12607
▁근래	-12608
▁눈치	-12609
▁어우	-12610
▁이력	-12611
▁평탄	-12612
▁히토	-12613
▁노동력	-12614
orm	-12615
▁고모	-12616
▁라라	-12617
▁부풀	-12618
▁승하	-12619
▁암모	-12620
▁접합	-12621
▁주나라	-12622
▁토트넘	-12623
▁마을버스	-12624
ational	-12625
▁렙	-12626
플린	-12627
▁객원	-12628
▁쓰루	-12629
▁오일	-12630
▁하얀	-12631
▁허블	-12632
▁홈즈	-12633
라호마	-12634
▁보너스	-12635
▁재판부	-12636
▁컨텐츠	-12637
▁Music	-12638
▁오클라호마	-12639
▁관내	-12640
▁군세	-12641
▁추존	-12642
▁사들이	-12643
▁생성물	-12644
▁재판관	-12645
▁1881	-12646
EP	-12647
▁AG	-12648
▁공판	-12649
▁승지	-12650
▁헌납	-12651
바도르	-12652
▁사나이	-12653
▁아카이	-12654
▁헤라클레스	-12655
ton	-12656
▁계보	-12657
▁구례	-12658
▁더하	-12659
▁도산	-12660
▁마요	-12661
▁왕성	-12662
▁워킹	-12663
▁쿼크	-12664
▁푸아	-12665
▁참의원	-12666
▁행정동	-12667
▁1830	-12668
▁루스벨트	-12669
브웨	-12670
▁리에	-12671
▁이별	-12672
▁유니버스	-12673
▁강세	-12674
▁고하	-12675
▁방공	-12676
▁백업	-12677
▁삼척	-12678
▁잠실	-12679
▁조심	-12680
▁짐바	-12681
▁침대	-12682
▁황자	-12683
▁미네소타	-12684
▁크리에이	-12685
▁en	-12686
▁if	-12687
▁말단	-12688
▁매진	-12689
▁민물	-12690
▁발하	-12691
▁알맞	-12692
▁요괴	-12693
▁대표단	-12694
▁압록강	-12695
▁요금소	-12696
▁ㄹ라	-12697
▁나마	-12698
▁남송	-12699
▁재벌	-12700
▁차수	-12701
▁카와	-12702
▁편하	-12703
▁필연	-12704
▁대교구	-12705
▁구획	-12706
▁선율	-12707
▁아타	-12708
▁엿보	-12709
▁전리	-12710
▁정황	-12711
▁패권	-12712
▁관련자	-12713
▁무작위	-12714
▁여학생	-12715
▁DR	-12716
▁괘불	-12717
▁기통	-12718
▁배트	-12719
▁챙기	-12720
▁판관	-12721
▁남조	-12722
▁목욕	-12723
▁복직	-12724
▁산기	-12725
▁자판	-12726
▁돋보이	-12727
▁로맨틱	-12728
▁합창단	-12729
▁컴파일러	-12730
렌스	-12731
▁경도	-12732
▁러닝	-12733
▁마티	-12734
▁세간	-12735
▁전교	-12736
▁찍히	-12737
▁야구단	-12738
▁외무부	-12739
▁화성시	-12740
▁낭만주의	-12741
▁도라에몽	-12742
뛰기	-12743
화경	-12744
▁경매	-12745
▁관용	-12746
▁닛산	-12747
▁다비	-12748
▁동차	-12749
▁벌레	-12750
▁뷰티	-12751
▁소라	-12752
▁오우	-12753
▁현미	-12754
▁해석학	-12755
▁1872	-12756
▁대한항공	-12757
▁오스트리	-12758
▁Ed	-12759
▁발자	-12760
▁스몰	-12761
▁신봉	-12762
▁아편	-12763
▁조경	-12764
▁종업	-12765
ject	-12766
▁까마귀	-12767
▁반대파	-12768
라이어티	-12769
아메리카	-12770
▁버라이어티	-12771
타입	-12772
▁XP	-12773
▁딸리	-12774
▁익산	-12775
▁코난	-12776
▁흑백	-12777
▁iOS	-12778
▁마르셀	-12779
▁부르주아	-12780
▁트레이닝	-12781
▁꿰	-12782
▁대강	-12783
▁발포	-12784
▁별장	-12785
▁스기	-12786
▁스윙	-12787
▁이누	-12788
▁콘티	-12789
평리	-12790
▁ㄴ데	-12791
▁등등	-12792
▁로니	-12793
▁미상	-12794
▁삭스	-12795
▁쿠로	-12796
▁투하	-12797
▁파주	-12798
▁감리교	-12799
▁불분명	-12800
▁기고	-12801
▁시원	-12802
▁다비드	-12803
▁이메일	-12804
▁세르게이	-12805
▁이시카와	-12806
께끼	-12807
ION	-12808
▁레비	-12809
▁부전	-12810
▁양면	-12811
▁용사	-12812
▁의례	-12813
▁파열	-12814
▁750	-12815
▁피닉스	-12816
▁수수께끼	-12817
덕왕	-12818
▁교제	-12819
▁금고	-12820
▁루나	-12821
▁체하	-12822
▁팔작	-12823
▁다시금	-12824
▁선제골	-12825
▁무솔리니	-12826
림사	-12827
비오	-12828
▁an	-12829
▁김희	-12830
▁당진	-12831
▁야망	-12832
▁여호	-12833
▁인제	-12834
▁종묘	-12835
▁중랑	-12836
▁트란	-12837
슬라프	-12838
▁라치오	-12839
▁롬바르	-12840
▁범죄자	-12841
▁Open	-12842
▁엡	-12843
▁꼬마	-12844
▁두어	-12845
▁배아	-12846
▁애슬	-12847
▁지경	-12848
▁파기	-12849
브리드	-12850
▁난이도	-12851
▁도르트문트	-12852
나파	-12853
루크	-12854
▁교동	-12855
▁매스	-12856
▁베일	-12857
▁애완	-12858
▁이례	-12859
▁이은	-12860
▁진흙	-12861
▁친밀	-12862
▁켄터	-12863
▁햇빛	-12864
▁농어촌	-12865
▁라이스	-12866
▁화학자	-12867
▁대중교통	-12868
▁유라시아	-12869
달마	-12870
쿠니	-12871
▁BL	-12872
▁레아	-12873
▁메우	-12874
▁몸돌	-12875
▁생도	-12876
▁승상	-12877
▁양조	-12878
▁원동	-12879
▁주고	-12880
▁모멘트	-12881
어드	-12882
클럽	-12883
▁배향	-12884
▁복역	-12885
▁캐피	-12886
▁기획사	-12887
▁아이콘	-12888
번에	-12889
▁te	-12890
▁그란	-12891
▁당과	-12892
▁반죽	-12893
▁변종	-12894
▁샤이	-12895
태평양	-12896
▁센다이	-12897
▁하얀색	-12898
▁부다페스트	-12899
▁경량	-12900
▁단국	-12901
▁도봉	-12902
▁음주	-12903
▁의용	-12904
▁페라	-12905
▁Don	-12906
▁개체군	-12907
▁앞세우	-12908
▁청년회	-12909
▁초록색	-12910
데자	-12911
▁Ab	-12912
▁조시	-12913
▁호크스	-12914
데자네이	-12915
▁1865	-12916
▁하이브리드	-12917
▁쵸	-12918
더지	-12919
ics	-12920
▁Sm	-12921
▁닌자	-12922
▁모란	-12923
▁발산	-12924
▁브렌	-12925
▁순항	-12926
▁청문	-12927
▁탄산	-12928
▁허목	-12929
▁격투기	-12930
▁유전체	-12931
ru	-12932
▁넥센	-12933
▁취향	-12934
▁통지	-12935
▁휩싸	-12936
리아스	-12937
올로기	-12938
▁파충류	-12939
▁1863	-12940
▁이데올로기	-12941
▁살짝	-12942
▁열렬	-12943
▁장쑤	-12944
▁계승자	-12945
▁세군다	-12946
▁승용차	-12947
▁폼페이	-12948
매김	-12949
바인	-12950
ier	-12951
▁가든	-12952
▁슈고	-12953
▁오트	-12954
▁인위	-12955
▁작년	-12956
▁탐험가	-12957
워즈	-12958
▁가독	-12959
▁거꾸	-12960
▁기쁘	-12961
▁보정	-12962
▁옹주	-12963
▁티모	-12964
▁밀가루	-12965
▁박영효	-12966
▁시간대	-12967
▁작품상	-12968
▁과다	-12969
▁납작	-12970
▁잠기	-12971
▁토로	-12972
▁한창	-12973
▁그나마	-12974
▁타임즈	-12975
▁항아리	-12976
▁1873	-12977
▁"-	-12978
▁내재	-12979
▁대의	-12980
▁입시	-12981
▁처방	-12982
▁피카	-12983
▁경복궁	-12984
▁안산시	-12985
▁챌린저	-12986
▁AL	-12987
▁반항	-12988
▁봉황	-12989
▁부실	-12990
▁왓슨	-12991
▁조공	-12992
▁편제	-12993
▁피셔	-12994
변속기	-12995
▁고성군	-12996
단위	-12997
리쿠	-12998
▁덴쇼	-12999
▁코마	-13000
▁승정원	-13001
▁1891	-13002
▁HTML	-13003
▁교통사고	-13004
▁오카야마	-13005
데자네이루	-13006
▁Night	-13007
▁리우데자네이루	-13008
리야	-13009
▁리브	-13010
▁벌리	-13011
▁조장	-13012
▁충당	-13013
▁클릭	-13014
▁탐정	-13015
▁포대	-13016
▁발기인	-13017
▁우간다	-13018
▁제프리	-13019
▁Good	-13020
▁공군기지	-13021
▁자리매김	-13022
친왕	-13023
▁고난	-13024
▁대목	-13025
▁볼넷	-13026
▁직관	-13027
▁킹스	-13028
▁유니언	-13029
라르	-13030
ool	-13031
▁곡면	-13032
▁메츠	-13033
▁태아	-13034
▁경지	-13035
▁계좌	-13036
▁곱셈	-13037
▁부추	-13038
▁어촌	-13039
▁요즘	-13040
▁정명	-13041
▁착취	-13042
▁공식전	-13043
▁앤드류	-13044
▁샵	-13045
스레	-13046
▁경마	-13047
▁구슬	-13048
▁굴복	-13049
▁두텁	-13050
▁란스	-13051
▁루즈	-13052
▁병단	-13053
▁야심	-13054
▁재고	-13055
▁페인	-13056
▁아이디얼	-13057
▁쩔	-13058
쿠르	-13059
훈장	-13060
▁가비	-13061
▁모함	-13062
▁박진	-13063
▁법전	-13064
▁입술	-13065
▁철종	-13066
▁조선소	-13067
▁켄터키	-13068
▁베스트셀러	-13069
▁괜	-13070
미쓰	-13071
▁걸작	-13072
▁머니	-13073
▁미인	-13074
▁신대	-13075
▁픽셀	-13076
▁ret	-13077
▁공통점	-13078
▁국민회	-13079
▁발가락	-13080
▁여진족	-13081
▁구강	-13082
▁급하	-13083
▁시진	-13084
▁완비	-13085
▁촉발	-13086
▁와이드	-13087
TE	-13088
UC	-13089
거나	-13090
타스	-13091
ise	-13092
▁--	-13093
▁고마	-13094
▁과격	-13095
▁여대	-13096
▁자켓	-13097
▁카슈	-13098
▁해킹	-13099
이스케	-13100
▁수시로	-13101
▁세계유산	-13102
▁짐바브웨	-13103
린더	-13104
바지	-13105
che	-13106
▁쇼크	-13107
▁적발	-13108
▁필두	-13109
▁후미	-13110
QL	-13111
▁반점	-13112
▁상파	-13113
▁다국적	-13114
▁받침돌	-13115
▁자유형	-13116
▁제너럴	-13117
▁테무르	-13118
참찬	-13119
▁단자	-13120
▁마모	-13121
▁튼튼	-13122
▁합금	-13123
▁매달리	-13124
▁포항시	-13125
ai	-13126
▁NS	-13127
▁극찬	-13128
▁도도	-13129
▁리자	-13130
▁매립	-13131
▁분경	-13132
▁불로	-13133
▁비키	-13134
▁위법	-13135
▁유태	-13136
▁코뮌	-13137
▁혈압	-13138
▁몰도바	-13139
▁시티즌	-13140
▁PM	-13141
▁국호	-13142
▁매도	-13143
▁외상	-13144
▁용감	-13145
stem	-13146
▁노르드	-13147
▁릴레이	-13148
▁백악관	-13149
▁온타리오주	-13150
NG	-13151
동맹	-13152
▁계엄	-13153
▁등단	-13154
▁라크	-13155
▁리키	-13156
▁아뢰	-13157
▁이야	-13158
▁최장	-13159
▁IMF	-13160
▁종업원	-13161
▁댈	-13162
레반	-13163
무제	-13164
▁당당	-13165
▁세단	-13166
▁소작	-13167
▁주저	-13168
플렉스	-13169
레타리아	-13170
▁프롤레타리아	-13171
ode	-13172
▁MA	-13173
▁신의	-13174
▁오즈	-13175
▁해시	-13176
▁헤어	-13177
▁Can	-13178
▁캐스트	-13179
▁Black	-13180
▁켜	-13181
성경	-13182
▁나탈	-13183
▁무고	-13184
▁에치	-13185
▁하스	-13186
▁흔들	-13187
▁거꾸로	-13188
▁다마스	-13189
▁하반기	-13190
▁야쿠르트	-13191
▁팔작지붕	-13192
▁간판	-13193
▁교서	-13194
▁구시	-13195
▁병과	-13196
▁연행	-13197
▁현무	-13198
부아르	-13199
합중국	-13200
▁슬로건	-13201
상어	-13202
세다	-13203
킨슨	-13204
▁네임	-13205
▁산책	-13206
▁서지	-13207
▁양궁	-13208
▁양양	-13209
▁연화	-13210
▁조준	-13211
▁체내	-13212
▁650	-13213
▁트로트	-13214
70	-13215
▁믈	-13216
▁샴	-13217
▁콧	-13218
▁서위	-13219
▁파랑	-13220
▁김성수	-13221
▁서두르	-13222
▁연주회	-13223
▁크루즈	-13224
▁을사	-13225
▁증강	-13226
▁채굴	-13227
▁키즈	-13228
ower	-13229
▁반정부	-13230
▁지자체	-13231
▁무로마치	-13232
▁삼국유사	-13233
▁스테이트	-13234
▁이바라키	-13235
▁페르디난트	-13236
▁삐	-13237
▁버펄	-13238
▁황폐	-13239
▁피츠버그	-13240
▁강호	-13241
▁광배	-13242
▁앵커	-13243
▁우마	-13244
▁이강	-13245
▁헌병	-13246
선거구	-13247
▁550	-13248
▁조선왕조	-13249
▁section	-13250
조리	-13251
▁qu	-13252
▁농성	-13253
▁부에	-13254
▁진원	-13255
▁토유	-13256
▁용산구	-13257
▁1867	-13258
▁국부	-13259
▁문정	-13260
▁터빈	-13261
타나베	-13262
▁705	-13263
▁Let	-13264
▁미카엘	-13265
▁취리히	-13266
▁아비달마	-13267
▁심정	-13268
▁아델	-13269
▁엘라	-13270
▁연달	-13271
▁전멸	-13272
▁진언	-13273
▁타도	-13274
▁피어	-13275
▁해지	-13276
▁스코어	-13277
▁1862	-13278
티야	-13279
ank	-13280
▁무도	-13281
▁송진	-13282
▁캐논	-13283
▁앨버트	-13284
▁자외선	-13285
▁빠져나가	-13286
▁q	-13287
고르	-13288
대전	-13289
진구	-13290
펠러	-13291
▁El	-13292
▁군자	-13293
▁대담	-13294
▁맞춤	-13295
▁사교	-13296
▁산신	-13297
▁열쇠	-13298
스코트	-13299
▁스테이	-13300
▁AI	-13301
▁MM	-13302
▁경은	-13303
▁독주	-13304
▁모반	-13305
▁온건	-13306
▁조어	-13307
▁증발	-13308
▁현도	-13309
▁활자	-13310
▁광업	-13311
▁국력	-13312
▁씌우	-13313
▁예종	-13314
드라마	-13315
▁아오모리	-13316
▁이노우에	-13317
▁코호몰로지	-13318
▁광자	-13319
▁접전	-13320
▁투신	-13321
▁경희대	-13322
▁노르만	-13323
▁언론사	-13324
▁엑스포	-13325
해살이풀	-13326
▁미합중국	-13327
▁라이프치히	-13328
방군	-13329
정사	-13330
▁루피	-13331
▁북벌	-13332
▁스킬	-13333
▁위헌	-13334
▁잔존	-13335
▁조서	-13336
ings	-13337
▁손잡이	-13338
▁알폰소	-13339
곡면	-13340
포타	-13341
▁수퍼	-13342
▁처장	-13343
▁흡연	-13344
▁다이노스	-13345
렐라	-13346
리언	-13347
활약	-13348
▁AU	-13349
▁저축	-13350
▁치이	-13351
▁MSL	-13352
▁증조부	-13353
▁프로모션	-13354
▁Ac	-13355
▁걸프	-13356
▁서한	-13357
▁유구	-13358
▁지탱	-13359
▁처치	-13360
세우스	-13361
▁변광성	-13362
▁타이탄	-13363
중추부사	-13364
▁국민학교	-13365
▁노브	-13366
▁사드	-13367
▁양군	-13368
▁완수	-13369
▁코모	-13370
▁표절	-13371
▁맹활약	-13372
포타미아	-13373
▁6000	-13374
▁사이타마현	-13375
▁메소포타미아	-13376
▁간결	-13377
▁상선	-13378
▁증식	-13379
▁지그	-13380
▁연출가	-13381
▁페드로	-13382
DS	-13383
▁썩	-13384
투르	-13385
▁LS	-13386
▁변증	-13387
▁오보	-13388
▁옥시	-13389
▁유망	-13390
절도사	-13391
▁건륭제	-13392
▁낡	-13393
▁캣	-13394
▁UC	-13395
▁기묘	-13396
▁변모	-13397
▁보직	-13398
▁성수	-13399
▁레인저	-13400
▁사무국	-13401
▁사보이	-13402
비언	-13403
인구	-13404
▁도발	-13405
▁번개	-13406
▁장신	-13407
▁캐치	-13408
▁신한은행	-13409
센터	-13410
lar	-13411
▁신해	-13412
▁쿠라	-13413
▁티저	-13414
▁횡령	-13415
▁곁들이	-13416
▁-&	-13417
▁꽃잎	-13418
▁무너	-13419
▁온두	-13420
▁유림	-13421
▁조석	-13422
▁키릴	-13423
▁무너뜨리	-13424
▁온두라스	-13425
북면	-13426
▁가물	-13427
▁고찰	-13428
▁나사	-13429
▁자행	-13430
▁충칭	-13431
▁푸드	-13432
▁대리석	-13433
▁신기록	-13434
▁일본식	-13435
▁출입문	-13436
▁편집장	-13437
▁궐	-13438
디언	-13439
사화	-13440
위치	-13441
▁감염증	-13442
▁기원후	-13443
▁무사히	-13444
▁1878	-13445
▁미나모토노	-13446
ky	-13447
▁동자	-13448
▁세토	-13449
▁엘레	-13450
▁참패	-13451
▁협동조합	-13452
tr	-13453
젤로	-13454
▁그거	-13455
▁버진	-13456
▁작중	-13457
▁차림	-13458
▁표출	-13459
▁하중	-13460
▁회유	-13461
rist	-13462
▁라면서	-13463
▁웨이브	-13464
▁치료제	-13465
▁타타르	-13466
▁비스마르크	-13467
▁팍	-13468
퉁이	-13469
할린	-13470
▁동탁	-13471
▁스톰	-13472
▁절약	-13473
▁직교	-13474
▁경쟁자	-13475
▁제조사	-13476
▁고등학생	-13477
▁뵈	-13478
구나	-13479
▁당파	-13480
▁완만	-13481
▁지린	-13482
▁Ser	-13483
▁갈아타	-13484
▁마그네	-13485
▁부여군	-13486
▁자릿수	-13487
▁컴파일	-13488
▁프로테	-13489
▁되돌아가	-13490
ta	-13491
▁밋	-13492
▁Qu	-13493
▁시역	-13494
▁충신	-13495
▁필명	-13496
▁행군	-13497
▁주고받	-13498
▁백과사전	-13499
ee	-13500
▁가극	-13501
▁급성	-13502
▁내란	-13503
▁옥천	-13504
▁자부	-13505
▁적정	-13506
▁중용	-13507
▁히노	-13508
hem	-13509
▁국인	-13510
▁보류	-13511
▁시르	-13512
▁으러	-13513
▁후드	-13514
▁HMS	-13515
▁사대부	-13516
▁입법부	-13517
▁프리츠	-13518
▁해부학	-13519
빌리	-13520
일치	-13521
▁Ag	-13522
▁바쿠	-13523
▁손님	-13524
▁이끼	-13525
▁점진	-13526
▁정박	-13527
▁청각	-13528
플로러	-13529
▁홀딩스	-13530
▁익스플로러	-13531
▁널	-13532
시게	-13533
▁괄호	-13534
▁다량	-13535
▁라다	-13536
▁서거	-13537
▁영사	-13538
▁지체	-13539
시아드	-13540
▁And	-13541
▁이성질	-13542
▁인지도	-13543
▁플러그	-13544
▁개기	-13545
▁고국	-13546
▁길드	-13547
▁잉크	-13548
▁직물	-13549
▁불가피	-13550
▁유엔군	-13551
▁스케이트	-13552
▁유니버시아드	-13553
▁ㅣ	-13554
▁킷	-13555
내티	-13556
산부	-13557
▁부군	-13558
▁스에	-13559
▁일선	-13560
▁일설	-13561
▁저해	-13562
▁참수	-13563
▁현악	-13564
▁802	-13565
▁뉴기니	-13566
▁액세스	-13567
▁외교부	-13568
▁1869	-13569
▁신시내티	-13570
▁프라이즈	-13571
▁일리노이주	-13572
▁팻	-13573
▁맛보	-13574
▁매슈	-13575
▁서점	-13576
▁수레	-13577
▁용해	-13578
▁지문	-13579
뉴기니	-13580
▁수비대	-13581
▁이브스	-13582
▁특별법	-13583
사우루스	-13584
▁글로브상	-13585
▁요리토모	-13586
▁밧	-13587
니티	-13588
다발	-13589
루엔	-13590
▁과자	-13591
▁수당	-13592
▁유화	-13593
▁피처	-13594
▁제작진	-13595
▁플루토	-13596
▁핵분열	-13597
벤션	-13598
▁SO	-13599
▁부두	-13600
▁북대	-13601
▁상의	-13602
▁수급	-13603
▁애기	-13604
▁잔해	-13605
▁골짜기	-13606
▁베르나	-13607
▁봉우리	-13608
▁업로드	-13609
▁후지와라	-13610
▁썬	-13611
마디	-13612
▁tr	-13613
▁근방	-13614
▁기조	-13615
▁대타	-13616
▁몸체	-13617
▁벵골	-13618
▁소피	-13619
▁육식	-13620
▁폴라	-13621
▁행보	-13622
▁마포구	-13623
▁와타나베	-13624
▁코퍼레이션	-13625
정보	-13626
▁가방	-13627
▁객실	-13628
▁박원	-13629
▁이목	-13630
▁방위군	-13631
▁와세다	-13632
▁쿠르드	-13633
누마	-13634
▁강우	-13635
▁용수	-13636
▁추후	-13637
▁며느리	-13638
▁포뮬러	-13639
▁스파이더	-13640
▁프랑스와	-13641
▁쫓기	-13642
▁헤더	-13643
▁사생활	-13644
▁아이젠	-13645
▁페르미	-13646
셔주	-13647
▁솔라	-13648
▁자정	-13649
▁수도회	-13650
▁원자핵	-13651
▁아우구스	-13652
ae	-13653
▁로시	-13654
▁면직	-13655
▁민심	-13656
가르트	-13657
▁1840	-13658
▁낯	-13659
▁냐고	-13660
▁다목	-13661
▁모티	-13662
▁토키	-13663
▁포천	-13664
▁포탑	-13665
▁형주	-13666
▁기동전	-13667
▁1592	-13668
▁Song	-13669
▁키르기스	-13670
▁무비	-13671
▁무색	-13672
▁반입	-13673
▁변질	-13674
▁자처	-13675
▁텍스	-13676
▁패킷	-13677
스타인	-13678
▁강력히	-13679
▁글렌	-13680
▁목동	-13681
▁성품	-13682
▁시시	-13683
▁오자	-13684
▁콜드	-13685
▁연예계	-13686
▁오스카	-13687
▁장로회	-13688
▁명성황후	-13689
▁친선경기	-13690
▁탬	-13691
세르	-13692
▁고을	-13693
▁귀인	-13694
▁부관	-13695
▁축일	-13696
▁치사	-13697
▁항생	-13698
▁안동시	-13699
▁영유권	-13700
▁팔꿈치	-13701
▁프라임	-13702
▁PL	-13703
▁단서	-13704
▁벤츠	-13705
▁소박	-13706
▁숙소	-13707
▁절친	-13708
▁토라	-13709
▁떠올리	-13710
▁생화학	-13711
노르	-13712
암사	-13713
▁AA	-13714
▁금색	-13715
▁단역	-13716
▁빈민	-13717
▁사소	-13718
▁위도	-13719
ount	-13720
▁516	-13721
▁바닷물	-13722
▁운동량	-13723
▁인코딩	-13724
▁매킨토시	-13725
▁사이언스	-13726
▁벳	-13727
▁가곡	-13728
▁더러	-13729
▁사부	-13730
▁컴필	-13731
▁헤겔	-13732
▁금강산	-13733
▁목적지	-13734
▁파시스트	-13735
▁컴필레이션	-13736
자원	-13737
티컷	-13738
▁거사	-13739
▁그물	-13740
▁논산	-13741
▁린다	-13742
▁출국	-13743
▁포자	-13744
▁로타르	-13745
▁리차드	-13746
▁부등식	-13747
▁여객기	-13748
▁운전자	-13749
▁유년기	-13750
▁코네티컷	-13751
▁크리스티나	-13752
수염	-13753
찬성	-13754
▁RC	-13755
▁괜찮	-13756
▁넘버	-13757
▁분별	-13758
▁위즈	-13759
▁최하	-13760
▁지하역	-13761
▁데카르트	-13762
pr	-13763
네르	-13764
▁국세	-13765
▁렉스	-13766
▁바쁘	-13767
▁상식	-13768
▁자취	-13769
▁추축	-13770
▁쿼터	-13771
▁풍기	-13772
▁하수	-13773
▁Mon	-13774
▁맥아더	-13775
구스	-13776
작전	-13777
ade	-13778
per	-13779
▁공상	-13780
▁빅터	-13781
▁수만	-13782
▁자루	-13783
▁패망	-13784
▁채권자	-13785
▁로드리게스	-13786
▁랙	-13787
▁성가	-13788
▁영미	-13789
▁그래도	-13790
▁네이트	-13791
▁예언자	-13792
▁패스트	-13793
▁레지스터	-13794
▁마스코트	-13795
ata	-13796
▁끌리	-13797
▁병풍	-13798
▁악명	-13799
▁영수	-13800
▁튜브	-13801
▁휘발	-13802
▁힐베르트	-13803
▁아나톨리아	-13804
▁닉스	-13805
▁다쓰	-13806
▁베라	-13807
▁아어	-13808
▁암수	-13809
▁어사	-13810
▁천상	-13811
▁캐슬	-13812
▁과반수	-13813
▁시니어	-13814
▁엇갈리	-13815
▁파주시	-13816
▁휩싸이	-13817
▁Heart	-13818
▁여우원숭이	-13819
블릿	-13820
▁거창	-13821
▁양파	-13822
▁유자	-13823
▁하라	-13824
▁구단주	-13825
크라테스	-13826
▁심리학자	-13827
부시	-13828
▁me	-13829
▁고제	-13830
▁디나	-13831
▁마레	-13832
▁블러	-13833
▁자질	-13834
▁헤일	-13835
▁댈러스	-13836
▁뒤따르	-13837
▁에이전트	-13838
▁볶	-13839
날드	-13840
효소	-13841
▁유이	-13842
▁인승	-13843
▁저그	-13844
▁출세	-13845
▁글러브	-13846
▁창립자	-13847
▁return	-13848
▁KN	-13849
▁강인	-13850
▁규율	-13851
▁란트	-13852
▁루도	-13853
▁박히	-13854
▁백조	-13855
▁삭감	-13856
▁심소	-13857
▁염화	-13858
▁스트림	-13859
▁필사본	-13860
90	-13861
히메	-13862
▁DB	-13863
▁Pe	-13864
▁ab	-13865
▁계룡	-13866
▁국화	-13867
▁능가	-13868
▁발착	-13869
▁성대	-13870
▁유골	-13871
▁입출	-13872
▁전단	-13873
▁청취	-13874
▁관심사	-13875
▁세미나	-13876
▁적십자	-13877
▁종착역	-13878
▁테크놀	-13879
▁히타치	-13880
▁8000	-13881
▁지장보살	-13882
선언	-13883
어하	-13884
테랑	-13885
▁반론	-13886
▁에트	-13887
▁오도	-13888
▁워스	-13889
▁중견	-13890
▁초음	-13891
▁탁구	-13892
이치로	-13893
▁나치오	-13894
▁농가	-13895
▁문중	-13896
▁미학	-13897
▁사주	-13898
▁시찰	-13899
▁실상	-13900
▁쌍성	-13901
▁의주	-13902
▁이카	-13903
▁지요	-13904
▁흥원	-13905
▁안타깝	-13906
▁Windows	-13907
▁펜실베이니아주	-13908
수단	-13909
ium	-13910
▁Gl	-13911
▁겸직	-13912
▁다름	-13913
▁뒤지	-13914
▁변혁	-13915
▁스택	-13916
▁이심	-13917
▁임종	-13918
▁직렬	-13919
▁페레	-13920
▁비둘기	-13921
▁지질학	-13922
▁되돌아오	-13923
▁와카야마	-13924
▁아나키스트	-13925
▁권익	-13926
▁김연	-13927
▁들르	-13928
▁바보	-13929
▁상과	-13930
▁온실	-13931
▁담당자	-13932
▁보유자	-13933
▁크메르	-13934
▁남아시아	-13935
▁영등포구	-13936
전선	-13937
히데	-13938
▁라프	-13939
▁여포	-13940
▁오시	-13941
▁퀴즈	-13942
▁어도비	-13943
▁그린란드	-13944
▁세인트루이스	-13945
IX	-13946
어가	-13947
▁기행	-13948
▁바인	-13949
▁베오	-13950
▁사와	-13951
▁설리	-13952
▁어선	-13953
▁연중	-13954
▁왜군	-13955
▁질투	-13956
▁안창호	-13957
▁1875	-13958
▁고등교육	-13959
IF	-13960
던트	-13961
▁뉴런	-13962
▁니케	-13963
▁윤휴	-13964
▁침식	-13965
▁피살	-13966
▁호그	-13967
▁치료법	-13968
▁알프레드	-13969
넌트	-13970
조사	-13971
▁As	-13972
▁걸음	-13973
▁몹시	-13974
▁볼록	-13975
▁숙련	-13976
▁외면	-13977
▁은밀	-13978
▁의복	-13979
▁정오	-13980
▁토요타	-13981
놀드	-13982
링겐	-13983
뻐하	-13984
욕장	-13985
테이	-13986
▁Aw	-13987
▁신지	-13988
▁외척	-13989
▁잠입	-13990
▁조비	-13991
▁호른	-13992
▁기뻐하	-13993
▁시미즈	-13994
▁예비역	-13995
▁진주시	-13996
▁헤르만	-13997
구니	-13998
▁동호	-13999
▁막강	-14000
▁위크	-14001
▁Out	-14002
▁집단군	-14003
계사	-14004
▁강습	-14005
▁귀엽	-14006
▁사각	-14007
▁상동	-14008
▁착각	-14009
▁컵스	-14010
▁키드	-14011
▁키리	-14012
▁파랗	-14013
▁해트	-14014
▁교파	-14015
▁수증	-14016
▁유카	-14017
▁준동	-14018
▁친화	-14019
▁KTX	-14020
▁고문서	-14021
▁나리타	-14022
▁모자이크	-14023
▁교훈	-14024
▁노현	-14025
▁디바	-14026
▁면담	-14027
▁미지	-14028
▁열세	-14029
▁오마	-14030
▁웍스	-14031
▁출품	-14032
▁Gen	-14033
▁강대국	-14034
▁보리스	-14035
▁이와테	-14036
▁뉘른베르크	-14037
▁랠	-14038
기즈	-14039
▁기린	-14040
▁독살	-14041
▁어부	-14042
▁콜린	-14043
▁타나	-14044
▁혼잡	-14045
세데스	-14046
▁이랜드	-14047
▁학술지	-14048
▁근본번뇌	-14049
기아	-14050
날레	-14051
탄두	-14052
▁도적	-14053
▁예프	-14054
▁표제	-14055
▁종사자	-14056
▁표트르	-14057
▁회고록	-14058
▁메르세데스	-14059
보당	-14060
▁방울	-14061
▁슈투	-14062
▁일명	-14063
▁징집	-14064
▁철자	-14065
▁일부러	-14066
▁피의자	-14067
사유	-14068
이에	-14069
son	-14070
▁VS	-14071
▁노원	-14072
▁문체	-14073
▁선상	-14074
▁여럿	-14075
▁원단	-14076
▁이선	-14077
▁인먼	-14078
▁최남	-14079
▁취직	-14080
▁폐허	-14081
레이트	-14082
▁사이즈	-14083
▁클리어	-14084
▁쳐들어오	-14085
▁페널티킥	-14086
itt	-14087
▁로사	-14088
▁목장	-14089
▁불복	-14090
▁생원	-14091
▁셔틀	-14092
▁야수	-14093
▁한민	-14094
▁게임기	-14095
▁리스본	-14096
▁친환경	-14097
▁남양주시	-14098
▁김두	-14099
▁순식	-14100
▁용지	-14101
▁절충	-14102
▁첩보	-14103
▁터너	-14104
▁컨벤션	-14105
▁안드로메다	-14106
BI	-14107
세서	-14108
▁sh	-14109
▁다자	-14110
▁닥치	-14111
▁서약	-14112
▁월화	-14113
▁텐서	-14114
에이고	-14115
▁380	-14116
▁AMD	-14117
▁데이트	-14118
▁돌고래	-14119
▁매디슨	-14120
▁함경도	-14121
▁끌어올리	-14122
▁샌디에이고	-14123
▁리크	-14124
▁에레	-14125
▁의정	-14126
▁이희	-14127
▁즐거	-14128
▁집전	-14129
▁송파구	-14130
▁눌	-14131
▁땀	-14132
▁니까	-14133
▁달콤	-14134
▁실명	-14135
▁아노	-14136
▁율법	-14137
▁의성	-14138
▁태안	-14139
록대부	-14140
▁성폭행	-14141
▁스케치	-14142
▁스피커	-14143
▁칭기즈	-14144
▁테오도	-14145
▁통도사	-14146
▁몽고메리	-14147
▁병자호란	-14148
▁브란덴부르크	-14149
▁기운	-14150
▁로큰	-14151
▁특공	-14152
▁강희제	-14153
▁아세틸	-14154
▁통신망	-14155
▁파라오	-14156
PA	-14157
방향	-14158
▁디디	-14159
▁문관	-14160
▁버트	-14161
▁왕래	-14162
▁북극점	-14163
▁이사벨	-14164
▁장갑차	-14165
▁중앙선	-14166
▁채무자	-14167
▁클레어	-14168
▁항공대	-14169
더링	-14170
어류	-14171
ale	-14172
▁TS	-14173
▁금정	-14174
▁기판	-14175
▁단양	-14176
▁비료	-14177
▁선체	-14178
▁안중	-14179
▁예식	-14180
▁타쿠	-14181
▁활기	-14182
able	-14183
▁레스터	-14184
▁쇼핑몰	-14185
▁행해지	-14186
▁포르투갈어	-14187
은사	-14188
▁바늘	-14189
▁배반	-14190
▁성행	-14191
▁베르트	-14192
▁부적절	-14193
▁싫어하	-14194
▁크라운	-14195
▁싯	-14196
알라	-14197
엽수	-14198
▁생쥐	-14199
▁일차	-14200
▁체로	-14201
▁환율	-14202
▁획기	-14203
▁가환환	-14204
▁광둥성	-14205
▁다이쇼	-14206
▁로큰롤	-14207
▁마주치	-14208
▁상반기	-14209
▁슈타인	-14210
▁감기	-14211
▁구루	-14212
▁슬리	-14213
▁영락	-14214
▁원효	-14215
▁정언	-14216
해방군	-14217
▁꽃차례	-14218
▁신석기	-14219
▁연속극	-14220
▁프론트	-14221
▁쇼트트랙	-14222
▁바빌로니아	-14223
▁인민해방군	-14224
부대	-14225
세키	-14226
▁KO	-14227
▁결전	-14228
▁극소	-14229
▁레몬	-14230
▁명상	-14231
▁서당	-14232
▁세일	-14233
▁술라	-14234
▁칸트	-14235
▁포인	-14236
▁로버츠	-14237
▁야마다	-14238
▁파스칼	-14239
ng	-14240
윽고	-14241
크리	-14242
▁교관	-14243
▁동거	-14244
▁야권	-14245
▁양지	-14246
▁"()	-14247
▁아리랑	-14248
▁이윽고	-14249
▁저널리스트	-14250
UN	-14251
두사	-14252
르카	-14253
▁교화	-14254
▁모질	-14255
▁장정	-14256
▁바나나	-14257
▁코트디	-14258
▁코트디부아르	-14259
▁가세	-14260
▁구세	-14261
▁기공	-14262
▁기마	-14263
▁라울	-14264
▁방호	-14265
▁스펜	-14266
▁실은	-14267
▁안식	-14268
▁애착	-14269
▁중일	-14270
▁되풀이	-14271
▁비단털	-14272
▁최성기	-14273
▁오프라인	-14274
몽골	-14275
촌리	-14276
▁거머	-14277
▁구타	-14278
▁로바	-14279
▁모피	-14280
▁박재	-14281
▁안톤	-14282
▁엔젤	-14283
▁이질	-14284
▁출격	-14285
루엔자	-14286
▁Par	-14287
스코리아	-14288
▁비단털쥐	-14289
▁보컬리스트	-14290
▁벙	-14291
시대	-14292
▁가모	-14293
▁모체	-14294
▁보우	-14295
▁수마	-14296
▁수은	-14297
▁염두	-14298
▁차명	-14299
▁헤센	-14300
▁건너오	-14301
▁반감기	-14302
박사	-14303
우주	-14304
▁가명	-14305
▁래리	-14306
▁샤르	-14307
▁자장	-14308
▁대항전	-14309
▁보호법	-14310
▁순식간	-14311
▁정치국	-14312
▁WC	-14313
▁경의	-14314
▁기미	-14315
▁문수	-14316
▁보그	-14317
▁위트	-14318
▁잉카	-14319
▁정에	-14320
▁205	-14321
▁맥스웰	-14322
▁선거인	-14323
데기	-14324
▁구아	-14325
▁금하	-14326
▁금환	-14327
▁모사	-14328
▁열악	-14329
▁708	-14330
▁개그맨	-14331
▁데뷔작	-14332
▁사학자	-14333
▁관음보살	-14334
▁University	-14335
▁텅	-14336
연구	-14337
행파	-14338
▁서클	-14339
▁이홍	-14340
▁향신	-14341
▁후루	-14342
very	-14343
▁합성어	-14344
▁형용사	-14345
▁탭	-14346
▁경순	-14347
▁동군	-14348
▁무능	-14349
▁실사	-14350
▁에코	-14351
▁NBC	-14352
▁Vol	-14353
▁라이베리아	-14354
건설	-14355
▁대류	-14356
▁야코	-14357
▁정칙	-14358
▁ATC	-14359
▁보조금	-14360
▁스케줄	-14361
▁아우구스투스	-14362
▁At	-14363
▁경종	-14364
▁규약	-14365
▁배당	-14366
▁월남	-14367
▁사할린	-14368
▁콘라트	-14369
▁통계청	-14370
▁cc	-14371
▁라벨	-14372
▁미첼	-14373
▁안팎	-14374
▁외손	-14375
▁집사	-14376
▁케리	-14377
▁한겨	-14378
▁슈미트	-14379
쿠사	-14380
▁데일	-14381
▁복부	-14382
▁불쾌	-14383
▁시의	-14384
▁안심	-14385
▁외할	-14386
▁조봉	-14387
▁타시	-14388
▁캐스터	-14389
▁테두리	-14390
▁엑스박스	-14391
▁인플루엔자	-14392
▁GR	-14393
▁거시	-14394
▁군복	-14395
▁등산	-14396
▁띄우	-14397
▁뮐러	-14398
▁베티	-14399
▁양서	-14400
▁재화	-14401
▁김해시	-14402
▁조선공산당	-14403
▁JC	-14404
▁박용	-14405
▁상계	-14406
▁서안	-14407
▁아연	-14408
▁양극	-14409
▁치마	-14410
▁235	-14411
▁가이아	-14412
▁name	-14413
벌리	-14414
양이	-14415
anc	-14416
▁남단	-14417
▁웨어	-14418
▁자위	-14419
▁정글	-14420
▁족장	-14421
▁초계	-14422
▁칼륨	-14423
▁토피	-14424
▁후이	-14425
▁시마즈	-14426
▁로베르토	-14427
▁맴	-14428
루즈	-14429
모음	-14430
▁가뭄	-14431
▁나기	-14432
▁내림	-14433
▁비옥	-14434
▁수역	-14435
▁외삼	-14436
▁우기	-14437
▁재보	-14438
▁후한	-14439
▁DOS	-14440
▁스케일	-14441
▁호흡기	-14442
화당	-14443
ody	-14444
▁골절	-14445
▁에노	-14446
▁자키	-14447
▁줄곧	-14448
▁축복	-14449
▁포니	-14450
▁풀백	-14451
▁호로	-14452
폴리탄	-14453
▁다가가	-14454
▁안양시	-14455
▁메트로폴리탄	-14456
사와	-14457
IVE	-14458
▁균일	-14459
▁노카	-14460
▁세스	-14461
▁손목	-14462
▁솜씨	-14463
▁신병	-14464
▁이달	-14465
▁젠더	-14466
▁키트	-14467
▁하산	-14468
▁tvN	-14469
▁반대편	-14470
▁오르간	-14471
▁자격증	-14472
▁그레이엄	-14473
▁뤄	-14474
▁퀄	-14475
나들	-14476
보라	-14477
황색	-14478
▁기스	-14479
▁라지	-14480
▁마흐	-14481
▁사미	-14482
▁석기	-14483
▁창구	-14484
▁셴	-14485
net	-14486
▁경화	-14487
▁고층	-14488
▁나한	-14489
▁리나	-14490
▁실효	-14491
▁유충	-14492
▁코바	-14493
▁통솔	-14494
▁화승	-14495
▁간호사	-14496
▁남극점	-14497
▁사무관	-14498
▁열역학	-14499
▁조각상	-14500
▁This	-14501
▁지하철역	-14502
열대	-14503
▁바니	-14504
▁버니	-14505
▁병렬	-14506
▁일간	-14507
▁일삼	-14508
▁잔혹	-14509
▁카로	-14510
▁패치	-14511
▁교육감	-14512
▁서스펜	-14513
▁한겨레	-14514
▁1874	-14515
▁우두머리	-14516
▁브로드웨이	-14517
▁잼	-14518
에쓰	-14519
▁가온	-14520
▁노라	-14521
▁베크	-14522
▁시제	-14523
▁정승	-14524
▁확충	-14525
▁로페스	-14526
▁신호장	-14527
▁안드레	-14528
▁카디널	-14529
18	-14530
so	-14531
그램	-14532
르산	-14533
큐슈	-14534
▁종가	-14535
▁키타	-14536
▁거주자	-14537
▁당뇨병	-14538
▁동아리	-14539
▁일렉트릭	-14540
악산	-14541
주크	-14542
ATO	-14543
▁결말	-14544
▁무가	-14545
▁부엌	-14546
▁소론	-14547
▁소양	-14548
▁요직	-14549
▁잔여	-14550
▁침범	-14551
▁코로	-14552
▁향수	-14553
▁조각가	-14554
▁천도교	-14555
▁미스코리아	-14556
▁알렉산데르	-14557
란다	-14558
▁뉴멕	-14559
▁발판	-14560
▁양평	-14561
▁일주	-14562
▁협곡	-14563
▁화원	-14564
▁시그마	-14565
▁뉴멕시코	-14566
▁중앙아메리카	-14567
▁파푸아뉴기니	-14568
▁낭비	-14569
▁동백	-14570
▁리시	-14571
▁마늘	-14572
▁몰수	-14573
▁석권	-14574
▁숙박	-14575
▁악당	-14576
▁은폐	-14577
▁잉여	-14578
▁칠성	-14579
▁공주시	-14580
▁라스트	-14581
▁무지개	-14582
▁재미있	-14583
▁오아시스	-14584
텐셜	-14585
▁리타	-14586
▁무예	-14587
▁볼드	-14588
▁빌드	-14589
▁산조	-14590
▁중남	-14591
▁한복	-14592
▁홍익	-14593
스크림	-14594
진보당	-14595
▁가요제	-14596
▁바그다드	-14597
▁슈퍼스타	-14598
▁스틸러스	-14599
▁유가행파	-14600
▁컨퍼런스	-14601
▁콘퍼런스	-14602
시험	-14603
신저	-14604
▁다쿠	-14605
▁발작	-14606
▁산문	-14607
▁이색	-14608
▁성폭력	-14609
▁저스틴	-14610
ala	-14611
▁강국	-14612
▁맞물	-14613
▁싱크	-14614
▁재회	-14615
▁점하	-14616
▁품목	-14617
▁아놀드	-14618
▁트레일	-14619
▁항공편	-14620
프랑	-14621
▁sp	-14622
▁기닿	-14623
▁메모	-14624
▁코크	-14625
▁판명	-14626
▁204	-14627
▁동남쪽	-14628
▁퍼텐셜	-14629
▁기울어지	-14630
▁호소카와	-14631
징어	-14632
▁넷플	-14633
▁라플	-14634
▁레나	-14635
▁읍성	-14636
▁인스	-14637
▁자네	-14638
▁조동	-14639
▁쿠마	-14640
▁클로드	-14641
▁넷플릭스	-14642
▁강좌	-14643
▁델리	-14644
▁묘호	-14645
▁미겔	-14646
▁인성	-14647
▁주군	-14648
▁학당	-14649
▁흐리	-14650
▁대수학	-14651
▁에스컬	-14652
▁휴대폰	-14653
▁1877	-14654
▁에스컬레이터	-14655
me	-14656
▁벚	-14657
▁격전	-14658
▁나일	-14659
▁벗기	-14660
▁사중	-14661
▁송이	-14662
▁앨라	-14663
▁옥사	-14664
▁캠벨	-14665
▁행선	-14666
야누스	-14667
어나오	-14668
▁게임즈	-14669
▁앞바다	-14670
▁지리산	-14671
▁핸드볼	-14672
▁후쿠이	-14673
▁바이마르	-14674
▁콜럼버스	-14675
운수	-14676
▁SR	-14677
▁YG	-14678
▁감축	-14679
▁공문	-14680
▁깔리	-14681
▁너희	-14682
▁모치	-14683
▁우니	-14684
▁이문	-14685
▁하지	-14686
▁Bab	-14687
▁뉴올리	-14688
ax	-14689
co	-14690
소문	-14691
▁AE	-14692
▁단발	-14693
▁법규	-14694
▁상한	-14695
▁선단	-14696
▁에페	-14697
▁클랜	-14698
▁참전하	-14699
▁프레슬리	-14700
▁트라야누스	-14701
더릭	-14702
▁그르	-14703
▁도형	-14704
▁되살	-14705
▁민원	-14706
▁복속	-14707
▁앞뒤	-14708
▁애드	-14709
▁예금	-14710
▁출사	-14711
▁퇴진	-14712
▁화염	-14713
▁화음	-14714
▁루이즈	-14715
▁여운형	-14716
▁청문회	-14717
▁포식자	-14718
▁7000	-14719
▁돌려보내	-14720
au	-14721
yn	-14722
비에	-14723
▁북측	-14724
▁교육학	-14725
▁사하라	-14726
▁중거리	-14727
▁서아프리카	-14728
▁쿰	-14729
민당	-14730
▁그립	-14731
▁엄지	-14732
▁예멘	-14733
▁차오	-14734
▁처마	-14735
▁Her	-14736
▁수백만	-14737
▁원주시	-14738
▁한국군	-14739
▁허베이	-14740
범죄	-14741
▁AF	-14742
▁곤살	-14743
▁아킬	-14744
▁양천	-14745
▁전조	-14746
▁지령	-14747
▁총영	-14748
▁탄수	-14749
▁셀주크	-14750
▁멀티미디어	-14751
▁끔	-14752
높이	-14753
를레	-14754
ash	-14755
oid	-14756
▁건지	-14757
▁본존	-14758
▁블랑	-14759
▁승낙	-14760
▁의제	-14761
▁지크	-14762
▁CIA	-14763
▁공학자	-14764
▁스타드	-14765
▁컨설팅	-14766
▁콘티넨	-14767
▁Best	-14768
▁갈릴레오	-14769
GB	-14770
▁툼	-14771
계약	-14772
▁고승	-14773
▁두뇌	-14774
▁무주	-14775
▁소인	-14776
▁요가	-14777
▁APG	-14778
▁비잔틴	-14779
▁오릭스	-14780
▁레닌주의	-14781
바드	-14782
혈구	-14783
▁결장	-14784
▁경내	-14785
▁김우	-14786
▁바야	-14787
▁밸브	-14788
▁산체	-14789
▁순찰	-14790
▁시발	-14791
▁에볼	-14792
▁우표	-14793
▁제지	-14794
▁토바	-14795
▁518	-14796
▁브리스	-14797
▁클러스터	-14798
ps	-14799
▁얄	-14800
양구	-14801
ose	-14802
▁로망	-14803
▁상환	-14804
▁추계	-14805
▁외계인	-14806
▁1859	-14807
변수	-14808
일기	-14809
ict	-14810
▁et	-14811
▁노하	-14812
▁도읍	-14813
▁소주	-14814
▁인계	-14815
▁카일	-14816
▁거머쥐	-14817
▁콜린스	-14818
▁1700	-14819
▁만장일치	-14820
22	-14821
▁나투	-14822
▁방학	-14823
▁사연	-14824
▁소르	-14825
▁숙명	-14826
▁승률	-14827
▁억울	-14828
▁유창	-14829
▁코린	-14830
▁하층	-14831
▁강화군	-14832
▁달려가	-14833
▁부르봉	-14834
▁Hell	-14835
▁다카하시	-14836
▁사무라이	-14837
▁플루토늄	-14838
HC	-14839
장사	-14840
피크	-14841
▁곡식	-14842
▁라임	-14843
▁문물	-14844
▁오구	-14845
▁통찰	-14846
▁쓰러뜨리	-14847
▁캄파니아	-14848
14	-14849
▁도안	-14850
▁맹렬	-14851
▁스펙	-14852
▁완장	-14853
▁원사	-14854
▁재물	-14855
▁경부선	-14856
▁곧이어	-14857
▁엘비스	-14858
제철	-14859
▁가선	-14860
▁관아	-14861
▁대입	-14862
▁뒤덮	-14863
▁문맥	-14864
▁자성	-14865
▁대사간	-14866
▁현미경	-14867
▁메모리얼	-14868
▁켐	-14869
의식	-14870
▁과세	-14871
▁레크	-14872
▁변론	-14873
▁보어	-14874
▁사병	-14875
▁산재	-14876
▁상감	-14877
▁오니	-14878
▁이씨	-14879
▁난쟁이	-14880
▁돌려주	-14881
▁루카스	-14882
▁연방군	-14883
▁이주민	-14884
▁클레오	-14885
▁스테파노	-14886
▁랏	-14887
남면	-14888
무장	-14889
토크	-14890
▁결여	-14891
▁만지	-14892
▁미켈	-14893
▁율리	-14894
▁제비	-14895
▁퇴치	-14896
▁게이밍	-14897
▁앙드레	-14898
▁전시관	-14899
배마	-14900
▁KS	-14901
▁se	-14902
▁경합	-14903
▁구가	-14904
▁니즈	-14905
▁뚜껑	-14906
▁서품	-14907
▁스플	-14908
▁중건	-14909
▁허물	-14910
▁후회	-14911
▁라이센스	-14912
▁앨라배마	-14913
▁챠	-14914
▁us	-14915
▁도부	-14916
▁미트	-14917
▁서체	-14918
▁선과	-14919
▁여정	-14920
▁요도	-14921
▁원문	-14922
▁타선	-14923
▁625	-14924
▁개화파	-14925
▁오리엔	-14926
▁혼합물	-14927
▁프리큐어	-14928
형제	-14929
▁블룸	-14930
▁쓰리	-14931
▁펭귄	-14932
▁플랑	-14933
▁불러오	-14934
▁사다리	-14935
▁아파치	-14936
▁울트라	-14937
▁이케다	-14938
▁멱	-14939
▁짚	-14940
EEE	-14941
▁ᆫ단	-14942
▁리안	-14943
▁명왕	-14944
▁일어	-14945
▁태화	-14946
▁투사	-14947
▁셰퍼드	-14948
▁순천시	-14949
▁아키텐	-14950
▁이론가	-14951
▁인류학	-14952
13	-14953
15	-14954
▁구전	-14955
▁네브	-14956
▁만류	-14957
▁모교	-14958
▁부식	-14959
▁결의안	-14960
▁길거리	-14961
▁억제제	-14962
▁긋	-14963
데일	-14964
버터	-14965
▁공병	-14966
▁적법	-14967
▁미트라	-14968
▁안철수	-14969
▁우에노	-14970
▁뮈	-14971
나시	-14972
로트	-14973
▁백운	-14974
▁북인	-14975
▁왕당	-14976
▁자갈	-14977
▁함장	-14978
▁후견	-14979
▁미야기현	-14980
▁소아시아	-14981
▁자이언트	-14982
▁자카르타	-14983
▁테크놀로지	-14984
▁샷	-14985
▁웜	-14986
고사	-14987
과학	-14988
동원	-14989
마을	-14990
매기	-14991
완다	-14992
▁원점	-14993
▁전범	-14994
▁츠카	-14995
▁푸젠	-14996
▁제니퍼	-14997
▁출장소	-14998
▁핵탄두	-14999
▁튀어나오	-15000
▁뉴클레오타이드	-15001
VA	-15002
주석	-15003
투리	-15004
▁관위	-15005
▁롤러	-15006
▁바젤	-15007
▁바투	-15008
▁베다	-15009
▁알로	-15010
▁원만	-15011
▁전서	-15012
▁화소	-15013
▁가치관	-15014
▁서태지	-15015
▁카리스	-15016
▁트레인	-15017
▁크리스틴	-15018
어놓	-15019
재판	-15020
uck	-15021
▁군기	-15022
▁근간	-15023
▁발터	-15024
▁어지	-15025
▁일면	-15026
reak	-15027
▁빈센트	-15028
▁빌바오	-15029
▁아드리아	-15030
▁^	-15031
▁무공	-15032
▁박찬	-15033
▁백지	-15034
▁타파	-15035
▁후면	-15036
▁미성년	-15037
▁직사각	-15038
▁거병	-15039
▁다윗	-15040
▁레티	-15041
▁미러	-15042
▁속국	-15043
▁아누	-15044
▁이창	-15045
▁장경	-15046
▁헬스	-15047
▁페스트	-15048
▁환승역	-15049
▁아이스크림	-15050
de	-15051
장조	-15052
▁덮치	-15053
▁문건	-15054
▁산남	-15055
▁왕명	-15056
▁이만	-15057
▁테헤	-15058
▁희미	-15059
▁목표물	-15060
▁선제후	-15061
▁탈레반	-15062
▁IEEE	-15063
티지	-15064
▁관군	-15065
▁진심	-15066
▁피자	-15067
▁로저스	-15068
▁바스크	-15069
▁순교자	-15070
▁실린더	-15071
▁서바이벌	-15072
HL	-15073
소니	-15074
▁공석	-15075
▁김학	-15076
▁도끼	-15077
▁로보	-15078
▁사산	-15079
▁산술	-15080
▁오인	-15081
▁용맹	-15082
▁은지	-15083
▁자백	-15084
▁정청	-15085
▁총감	-15086
▁호투	-15087
▁홀수	-15088
▁기념장	-15089
▁쓰촨성	-15090
▁예문관	-15091
▁출판물	-15092
▁케이드	-15093
▁카디널스	-15094
르바	-15095
조류	-15096
▁경원	-15097
▁논증	-15098
▁로코	-15099
▁발광	-15100
▁수주	-15101
▁주포	-15102
▁퇴출	-15103
▁하후	-15104
▁호화	-15105
▁회차	-15106
▁340	-15107
▁아이치	-15108
▁이치현	-15109
▁정착지	-15110
▁통계학	-15111
▁아미타불	-15112
나주	-15113
주사	-15114
▁뉴잉	-15115
▁로디	-15116
▁리언	-15117
▁코이	-15118
▁튜링	-15119
▁고바야시	-15120
oo	-15121
스톤	-15122
ail	-15123
▁FF	-15124
▁달력	-15125
▁상층	-15126
▁안주	-15127
▁오와	-15128
▁조회	-15129
▁특명	-15130
▁화풍	-15131
떨어지	-15132
하마드	-15133
▁마코토	-15134
▁아스카	-15135
스퍼	-15136
패드	-15137
▁발진	-15138
▁섹션	-15139
▁청정	-15140
▁교황령	-15141
▁대혁명	-15142
▁로스트	-15143
▁볼프강	-15144
▁향신료	-15145
▁Star	-15146
▁as	-15147
▁개경	-15148
▁담양	-15149
▁보국	-15150
▁보디	-15151
▁상설	-15152
▁수프	-15153
▁진천	-15154
▁타밀	-15155
▁통감	-15156
게이트	-15157
▁대제학	-15158
▁디에고	-15159
▁레이건	-15160
▁오토바이	-15161
▁펙	-15162
▁금관	-15163
▁도매	-15164
▁세제	-15165
▁유틸	-15166
▁의인	-15167
▁전봉	-15168
▁호적	-15169
▁310	-15170
▁아니면	-15171
▁지석묘	-15172
▁해인사	-15173
▁국가원수	-15174
▁유틸리티	-15175
▁사생	-15176
▁사탄	-15177
▁수문	-15178
▁양동	-15179
▁정역	-15180
▁폐차	-15181
▁Sun	-15182
▁개척자	-15183
▁국내선	-15184
▁오슬로	-15185
▁원정대	-15186
▁이광수	-15187
▁어우러지	-15188
▁매사추세츠주	-15189
팩스	-15190
▁구라	-15191
▁젤리	-15192
▁중앙일보	-15193
▁뽀	-15194
▁DO	-15195
▁거문	-15196
▁교인	-15197
▁나바	-15198
▁떠돌	-15199
▁베가	-15200
▁부락	-15201
▁손수	-15202
▁연해	-15203
▁입찰	-15204
▁짝수	-15205
▁추장	-15206
▁커브	-15207
▁터스	-15208
▁가우스	-15209
▁개막식	-15210
▁대관식	-15211
▁대대장	-15212
▁브레멘	-15213
▁Super	-15214
플레	-15215
▁my	-15216
▁김도	-15217
▁김주	-15218
▁동급	-15219
▁뚫리	-15220
▁멜라	-15221
▁센타	-15222
▁어학	-15223
▁호이	-15224
▁you	-15225
▁슈투트	-15226
▁여러분	-15227
▁슈투트가르트	-15228
댓값	-15229
▁교감	-15230
▁근세	-15231
▁모션	-15232
▁아칸	-15233
▁템플	-15234
▁209	-15235
▁무사시	-15236
▁에이브	-15237
▁울주군	-15238
▁1812	-15239
▁콘스탄티누스	-15240
구미	-15241
바퀴	-15242
vel	-15243
▁과달	-15244
▁수구	-15245
▁시력	-15246
▁평방	-15247
▁폐하	-15248
▁무신론	-15249
▁바빌론	-15250
▁셀레우	-15251
▁자본가	-15252
▁조르주	-15253
▁뉴잉글랜드	-15254
학파	-15255
▁강유	-15256
▁메드	-15257
▁선별	-15258
▁소서	-15259
▁지검	-15260
▁추밀	-15261
▁충동	-15262
▁그래픽스	-15263
▁늦추	-15264
▁명륜	-15265
▁빨강	-15266
▁산정	-15267
▁속초	-15268
▁윤치영	-15269
▁모니터링	-15270
▁유니코드	-15271
▁안토니우스	-15272
▁후쿠시마현	-15273
TF	-15274
초프	-15275
▁ad	-15276
▁로컬	-15277
▁루드	-15278
▁무위	-15279
▁배타	-15280
▁장지	-15281
▁정실	-15282
▁카파	-15283
▁토프	-15284
▁항문	-15285
▁해커	-15286
▁리바이	-15287
▁자오선	-15288
▁자치현	-15289
▁클라리	-15290
▁Soul	-15291
▁아이파크	-15292
iel	-15293
▁Kn	-15294
▁걸스	-15295
▁근위	-15296
▁김덕	-15297
▁나시	-15298
▁닷컴	-15299
▁박경	-15300
▁산인	-15301
▁성조	-15302
▁손쉽	-15303
▁황위	-15304
▁르완다	-15305
▁송진우	-15306
▁에세이	-15307
▁에이지	-15308
▁선거관리	-15309
▁무형문화재	-15310
▁선거관리위원회	-15311
티어	-15312
▁Tw	-15313
▁맞배	-15314
▁세밀	-15315
▁수질	-15316
▁조던	-15317
▁지카	-15318
▁쪼개	-15319
▁탄두	-15320
▁피그	-15321
▁하강	-15322
▁호국	-15323
하우스	-15324
▁206	-15325
▁삼거리	-15326
▁주거지	-15327
▁서비스업	-15328
▁알렉세이	-15329
▁Christ	-15330
▁당상	-15331
▁루손	-15332
▁스쿼	-15333
▁안면	-15334
▁의논	-15335
▁장강	-15336
▁점토	-15337
▁단말기	-15338
▁여수시	-15339
▁음식점	-15340
▁접미사	-15341
▁조광조	-15342
▁한자어	-15343
▁ICBM	-15344
▁름	-15345
▁과감	-15346
▁로런	-15347
▁이건	-15348
▁주유	-15349
▁풀이	-15350
▁John	-15351
▁북대서양	-15352
59	-15353
샤오	-15354
▁고후	-15355
▁규합	-15356
▁그늘	-15357
▁끔찍	-15358
▁논평	-15359
▁산동	-15360
▁아호	-15361
▁천자	-15362
▁카보	-15363
▁코우	-15364
▁콘스	-15365
▁연대장	-15366
▁주제가	-15367
▁막시밀리	-15368
네오	-15369
디드	-15370
▁ON	-15371
▁교재	-15372
▁금천	-15373
▁니치	-15374
▁도자	-15375
▁동맥	-15376
▁로지	-15377
▁매듭	-15378
▁무진	-15379
▁법상	-15380
▁위축	-15381
▁투니	-15382
공화당	-15383
시아키	-15384
▁록히드	-15385
▁1879	-15386
▁민주공화당	-15387
▁쑹	-15388
버라	-15389
ute	-15390
▁Mi	-15391
▁귀순	-15392
▁샤오	-15393
▁영도	-15394
▁장이	-15395
▁철기	-15396
▁춘계	-15397
▁개개인	-15398
▁베르사유	-15399
TR	-15400
gh	-15401
도감	-15402
탄올	-15403
▁IF	-15404
▁Mr	-15405
▁솔리	-15406
▁집적	-15407
▁747	-15408
▁기생충	-15409
▁레코딩	-15410
▁로널드	-15411
▁보이즈	-15412
▁안데스	-15413
▁건국훈장	-15414
▁아브라함	-15415
▁썸	-15416
면적	-15417
▁가창	-15418
▁개표	-15419
▁구비	-15420
▁버밍	-15421
▁수라	-15422
▁스완	-15423
▁포상	-15424
▁해주	-15425
▁휴일	-15426
▁슈트라	-15427
▁의병장	-15428
▁테헤란	-15429
▁파르마	-15430
EA	-15431
무지	-15432
▁방탄	-15433
▁범람	-15434
▁변성	-15435
▁원한	-15436
▁유세	-15437
▁전열	-15438
▁차역	-15439
▁청일	-15440
▁초식	-15441
▁카토	-15442
▁콜론	-15443
▁사우디	-15444
▁에다가	-15445
▁리바운드	-15446
방스	-15447
▁농담	-15448
▁동대	-15449
▁소량	-15450
▁슬러	-15451
▁양원	-15452
▁카펠	-15453
▁타라	-15454
라이스	-15455
▁고지대	-15456
▁백두산	-15457
▁조봉암	-15458
▁파르티아	-15459
▁슈트라우스	-15460
▁일렉트로닉	-15461
태자	-15462
▁낯설	-15463
▁단수	-15464
▁딱딱	-15465
▁부기	-15466
▁상이	-15467
▁아람	-15468
▁양념	-15469
▁양정	-15470
▁울루	-15471
▁자각	-15472
▁정맥	-15473
▁그러면	-15474
▁독재자	-15475
▁바닷가	-15476
▁석회암	-15477
▁카지노	-15478
▁피어스	-15479
▁HP	-15480
▁공경	-15481
▁관개	-15482
▁도파	-15483
▁예보	-15484
▁풍요	-15485
▁제이크	-15486
분투	-15487
슐리	-15488
▁대방	-15489
▁리퍼	-15490
▁모태	-15491
▁불문	-15492
▁소포	-15493
▁유계	-15494
▁유보	-15495
▁유상	-15496
▁임실	-15497
▁자석	-15498
▁des	-15499
▁게이오	-15500
▁태블릿	-15501
▁군마	-15502
▁그릴	-15503
▁노역	-15504
▁듀스	-15505
▁보아	-15506
▁실베	-15507
▁용역	-15508
▁이코	-15509
▁일보	-15510
▁초회	-15511
▁쿠시	-15512
▁420	-15513
▁뉴올리언스	-15514
OK	-15515
▁쑨	-15516
네프	-15517
화산	-15518
▁감당	-15519
▁게놈	-15520
▁당장	-15521
▁대등	-15522
▁대여	-15523
▁비오	-15524
▁빛깔	-15525
▁수족	-15526
로세서	-15527
를레앙	-15528
▁CoA	-15529
▁라그랑	-15530
반정	-15531
블릭	-15532
▁기권	-15533
▁능숙	-15534
▁두부	-15535
▁불능	-15536
▁스킨	-15537
▁영종	-15538
▁차차	-15539
▁촐라	-15540
▁App	-15541
▁리그컵	-15542
▁변호인	-15543
▁사가미	-15544
▁여행자	-15545
▁영사관	-15546
▁트리스	-15547
▁뜯	-15548
신보	-15549
정변	-15550
▁국문	-15551
▁노마	-15552
▁부화	-15553
▁사체	-15554
▁사파	-15555
▁온전	-15556
▁조우	-15557
▁최용	-15558
▁클럭	-15559
▁Str	-15560
▁아이작	-15561
▁암스트	-15562
▁ᆯ지라도	-15563
▁불법행위	-15564
▁끊이	-15565
▁반달	-15566
▁열람	-15567
▁유민	-15568
▁전곡	-15569
▁제고	-15570
레틱스	-15571
▁국방군	-15572
▁즐거움	-15573
리아누스	-15574
▁애슬레틱스	-15575
▁Record	-15576
▁강가	-15577
▁반납	-15578
▁스텐	-15579
▁애호	-15580
▁인삼	-15581
▁중등	-15582
▁컬링	-15583
▁현수	-15584
▁호시	-15585
▁으리라	-15586
▁들어올리	-15587
연맹	-15588
자드	-15589
VID	-15590
▁광시	-15591
▁남경	-15592
▁두스	-15593
▁잇달	-15594
▁카다	-15595
▁글리제	-15596
▁본거지	-15597
▁최진실	-15598
▁테크노	-15599
▁원종공신	-15600
▁꽝	-15601
ull	-15602
▁Gu	-15603
▁권투	-15604
▁김시	-15605
▁노엘	-15606
▁도나	-15607
▁동하	-15608
▁머큐	-15609
▁앉히	-15610
▁인척	-15611
▁처칠	-15612
▁후추	-15613
▁440	-15614
▁니가타	-15615
▁수영장	-15616
▁알칼리	-15617
▁여주인	-15618
▁인산화	-15619
산업	-15620
▁수아	-15621
▁자존	-15622
▁접목	-15623
▁투기	-15624
▁흐트	-15625
▁군주제	-15626
▁부추기	-15627
▁엘리엇	-15628
▁오메가	-15629
▁유기체	-15630
▁조용히	-15631
▁주머니쥐	-15632
▁쿵	-15633
▁퀼	-15634
링크	-15635
수지	-15636
▁ㄹ로	-15637
▁소진	-15638
▁왕좌	-15639
▁유관	-15640
▁증축	-15641
▁체리	-15642
▁커리	-15643
▁항전	-15644
▁페르시	-15645
▁아우구스트	-15646
선교	-15647
장군	-15648
▁성자	-15649
▁시타	-15650
▁역동	-15651
▁제방	-15652
▁공성전	-15653
▁엘리스	-15654
▁잠비아	-15655
▁엔지니어링	-15656
박이	-15657
티보	-15658
▁"|	-15659
▁PA	-15660
▁부트	-15661
▁상회	-15662
▁압수	-15663
▁할구	-15664
▁Per	-15665
▁광합성	-15666
▁야구부	-15667
▁항생제	-15668
▁2500	-15669
▁print	-15670
▁다마스쿠스	-15671
▁금기	-15672
▁라쿠	-15673
▁양구	-15674
▁왕릉	-15675
▁용문	-15676
▁이석	-15677
▁폴로	-15678
▁환산	-15679
로그램	-15680
▁바실리	-15681
▁을수록	-15682
▁지극히	-15683
▁합병증	-15684
▁타지키스탄	-15685
▁public	-15686
길준	-15687
니에	-15688
덕궁	-15689
의금	-15690
▁CA	-15691
▁궁주	-15692
▁리지	-15693
▁무패	-15694
▁미타	-15695
▁신익	-15696
▁아로	-15697
▁앙상	-15698
▁열거	-15699
▁왕녀	-15700
▁요셉	-15701
▁쿠루	-15702
▁트림	-15703
▁256	-15704
▁매니아	-15705
▁스위트	-15706
▁실리콘	-15707
▁이회창	-15708
▁춘천시	-15709
▁플래닛	-15710
대비	-15711
▁po	-15712
▁리노	-15713
▁매복	-15714
▁종실	-15715
▁탈피	-15716
▁투병	-15717
▁부서지	-15718
▁불거지	-15719
▁양산시	-15720
▁엔리케	-15721
▁영화관	-15722
▁오토모	-15723
▁제시카	-15724
▁페이퍼	-15725
▁호기심	-15726
▁대법원장	-15727
▁헬레니즘	-15728
▁균등	-15729
▁기시	-15730
▁동두	-15731
▁콜리	-15732
▁파고	-15733
▁Hot	-15734
▁바레인	-15735
▁살아오	-15736
▁허버트	-15737
바이러스	-15738
레미	-15739
발트	-15740
황제	-15741
▁nm	-15742
▁나토	-15743
▁명동	-15744
▁문어	-15745
▁성현	-15746
▁은평	-15747
▁이한	-15748
▁퀸스	-15749
▁헐리	-15750
▁화이	-15751
▁맞물리	-15752
▁산투스	-15753
▁습니까	-15754
▁카스텔	-15755
일체	-15756
자나	-15757
▁ER	-15758
▁광동	-15759
▁내시	-15760
▁더라	-15761
▁마거	-15762
▁바바	-15763
▁북마	-15764
▁사나	-15765
▁시영	-15766
▁아루	-15767
▁이설	-15768
▁행운	-15769
▁버스터	-15770
▁부러지	-15771
16	-15772
25	-15773
▁앳	-15774
데오	-15775
빨리	-15776
▁고독	-15777
▁교학	-15778
▁담수	-15779
▁사목	-15780
▁식이	-15781
▁작자	-15782
▁향로	-15783
▁환초	-15784
▁기본법	-15785
▁오우치	-15786
▁왕당파	-15787
▁접근성	-15788
▁초고층	-15789
쿠치	-15790
▁고요	-15791
▁사스	-15792
▁셔츠	-15793
▁실책	-15794
▁워낙	-15795
▁정직	-15796
▁중신	-15797
▁코니	-15798
▁호찌	-15799
▁Win	-15800
▁고다이	-15801
▁깨어나	-15802
▁비행사	-15803
▁시에라	-15804
▁캅카스	-15805
▁판매고	-15806
▁천문단위	-15807
▁크리스탈	-15808
ty	-15809
▁가결	-15810
▁군도	-15811
▁담임	-15812
▁득실	-15813
▁성형	-15814
▁접시	-15815
▁코인	-15816
▁패자	-15817
다임	-15818
ual	-15819
▁레저	-15820
▁바타	-15821
▁반향	-15822
▁석재	-15823
▁성교	-15824
▁카츠	-15825
▁킬러	-15826
고로드	-15827
▁랴오닝	-15828
▁사이클론	-15829
포리	-15830
▁깊숙	-15831
▁동률	-15832
▁아역	-15833
▁오차	-15834
▁우타	-15835
▁피질	-15836
ogle	-15837
▁재결합	-15838
자락	-15839
▁Ke	-15840
▁농협	-15841
▁동체	-15842
▁미녀	-15843
▁유미	-15844
▁칠곡	-15845
▁렌더링	-15846
▁토론회	-15847
▁프리드	-15848
▁후유증	-15849
스틱	-15850
울루	-15851
▁HS	-15852
▁mu	-15853
▁강자	-15854
▁교명	-15855
▁기한	-15856
▁내기	-15857
▁노골	-15858
▁느슨	-15859
▁멘델	-15860
▁반정	-15861
▁브이	-15862
▁즉흥	-15863
▁체질	-15864
▁침수	-15865
▁할로	-15866
▁힐스	-15867
▁911	-15868
▁남북조	-15869
▁브루노	-15870
▁생산자	-15871
▁예비군	-15872
▁예수교	-15873
▁요나라	-15874
▁웨슬리	-15875
▁이세이	-15876
▁주둔지	-15877
▁리치먼드	-15878
▁패러다임	-15879
커우	-15880
▁금리	-15881
▁녹이	-15882
▁라사	-15883
▁쌍용	-15884
▁사무엘	-15885
▁스텔스	-15886
▁알베르	-15887
▁잠재력	-15888
▁조연상	-15889
▁1789	-15890
▁1801	-15891
▁Back	-15892
▁캥	-15893
는점	-15894
불명	-15895
▁겨냥	-15896
▁기피	-15897
▁대용	-15898
▁도화	-15899
▁사조	-15900
▁스팀	-15901
▁예쁘	-15902
▁응력	-15903
▁이보	-15904
▁준하	-15905
▁지브	-15906
▁코일	-15907
그래피	-15908
▁208	-15909
▁베이직	-15910
▁제주시	-15911
▁후반전	-15912
▁플랑드르	-15913
▁둠	-15914
무트	-15915
스텐	-15916
▁NM	-15917
▁봉분	-15918
▁부안	-15919
▁아구	-15920
▁악어	-15921
▁여관	-15922
▁유독	-15923
▁진성	-15924
▁초석	-15925
던지기	-15926
▁오이타	-15927
▁기타큐슈	-15928
▁아미타여래	-15929
▁강타	-15930
▁곱하	-15931
▁정중	-15932
▁탄력	-15933
▁트램	-15934
▁다행히	-15935
▁유도탄	-15936
▁조제프	-15937
▁Kore	-15938
▁쐐	-15939
▁군림	-15940
▁누마	-15941
▁소노	-15942
▁솔직	-15943
▁시온	-15944
▁전과	-15945
▁치밀	-15946
▁치킨	-15947
▁히코	-15948
프리드	-15949
▁광주시	-15950
▁길버트	-15951
▁들여오	-15952
▁유길준	-15953
▁1400	-15954
▁포틀랜드	-15955
RNA	-15956
▁Fl	-15957
▁구애	-15958
▁군량	-15959
▁로만	-15960
▁원곡	-15961
▁조율	-15962
▁머큐리	-15963
▁방법론	-15964
▁암스트롱	-15965
▁폼페이우스	-15966
평면	-15967
▁KD	-15968
▁신천	-15969
▁쐐기	-15970
▁총생	-15971
▁폐교	-15972
리오스	-15973
▁아르테	-15974
▁흘러가	-15975
ll	-15976
다스	-15977
득점	-15978
로움	-15979
▁MD	-15980
▁성부	-15981
▁세타	-15982
▁에픽	-15983
▁우디	-15984
▁네바다	-15985
▁디아스	-15986
▁브릿지	-15987
▁영장류	-15988
▁NATO	-15989
▁독립선언	-15990
인산	-15991
▁교란	-15992
▁구부	-15993
▁궁수	-15994
▁기일	-15995
▁악의	-15996
▁안시	-15997
▁영성	-15998
▁파피	-15999
▁Get	-16000
▁MIT	-16001
▁마운틴	-16002
▁브루크	-16003
▁사망률	-16004
▁사천왕	-16005
▁앙상블	-16006
▁영문학	-16007
▁유물론	-16008
▁지배하	-16009
▁드래곤즈	-16010
▁뿜	-16011
제사	-16012
차리	-16013
▁NL	-16014
▁애프	-16015
▁윤곽	-16016
▁이가	-16017
▁이크	-16018
▁책정	-16019
▁첫날	-16020
▁동일시	-16021
▁로런스	-16022
▁선수상	-16023
▁인문학	-16024
▁남한산성	-16025
▁비로자나	-16026
ox	-16027
▁NA	-16028
▁가전	-16029
▁갑신	-16030
▁거품	-16031
▁관저	-16032
▁국산	-16033
▁균열	-16034
▁오웬	-16035
▁중학	-16036
▁채집	-16037
▁청중	-16038
▁총국	-16039
lect	-16040
▁370	-16041
▁급속도	-16042
▁마거릿	-16043
▁킵	-16044
라과	-16045
이상	-16046
▁고는	-16047
▁구명	-16048
▁발열	-16049
▁변천	-16050
▁약품	-16051
▁열기	-16052
▁내몽골	-16053
▁만주족	-16054
▁붉은색	-16055
▁스태프	-16056
▁양평군	-16057
▁작아지	-16058
▁추축국	-16059
▁트럼펫	-16060
▁가령	-16061
▁격화	-16062
▁다채	-16063
▁출정	-16064
▁트론	-16065
ames	-16066
▁225	-16067
▁이유로	-16068
▁Baby	-16069
▁미식축구	-16070
▁생물학자	-16071
▁프린세스	-16072
▁렬	-16073
▁극회	-16074
▁나날	-16075
▁만물	-16076
▁미디	-16077
▁장차	-16078
▁최순	-16079
▁코디	-16080
▁호전	-16081
▁클라인	-16082
▁항공우주	-16083
▁Intern	-16084
모닉	-16085
ove	-16086
▁관원	-16087
▁먼로	-16088
▁미로	-16089
▁민선	-16090
▁승선	-16091
▁신궁	-16092
▁안락	-16093
▁예편	-16094
▁유재	-16095
▁장승	-16096
▁청군	-16097
▁커넥	-16098
▁코딩	-16099
▁탄성	-16100
▁흑색	-16101
▁Mag	-16102
▁디렉터	-16103
▁요시카	-16104
ology	-16105
▁탄수화물	-16106
▁셀레우코스	-16107
GO	-16108
레븐	-16109
▁Cr	-16110
▁격침	-16111
▁고관	-16112
▁박태	-16113
▁수표	-16114
▁안건	-16115
▁오랑	-16116
▁유감	-16117
▁제헌	-16118
▁카인	-16119
▁현관	-16120
▁남아공	-16121
▁메신저	-16122
▁오리건	-16123
▁와이어	-16124
▁리하르트	-16125
▁이리하여	-16126
▁이마가와	-16127
▁해수욕장	-16128
YP	-16129
▁둑	-16130
남동	-16131
파니	-16132
▁공훈	-16133
▁군위	-16134
▁노름	-16135
▁다라	-16136
▁도식	-16137
▁명장	-16138
▁무소	-16139
▁생포	-16140
▁소마	-16141
▁승마	-16142
▁야만	-16143
▁얼리	-16144
▁유익	-16145
▁지회	-16146
▁타키	-16147
▁하세	-16148
▁황하	-16149
▁후난	-16150
▁거듭나	-16151
▁방문객	-16152
▁부사장	-16153
▁부천시	-16154
ature	-16155
▁레오나르	-16156
▁트로츠키	-16157
피카	-16158
▁가변	-16159
▁강구	-16160
▁진위	-16161
▁호지	-16162
▁기네스	-16163
▁나카노	-16164
▁베테랑	-16165
▁니카라과	-16166
▁서귀포시	-16167
백색	-16168
let	-16169
▁공평	-16170
▁배지	-16171
▁제타	-16172
▁조엘	-16173
▁출항	-16174
▁캔터	-16175
▁캡틴	-16176
▁케로	-16177
▁통킹	-16178
▁타일러	-16179
그라운드	-16180
▁로베르트	-16181
▁소크라테스	-16182
▁안티오키아	-16183
▁갸	-16184
능력	-16185
훈련	-16186
▁결렬	-16187
▁결투	-16188
▁교내	-16189
▁무쓰	-16190
▁초판	-16191
▁친히	-16192
▁탄광	-16193
▁흉내	-16194
피에르	-16195
▁고스트	-16196
▁미요시	-16197
▁블러드	-16198
▁시나노	-16199
▁콜라보	-16200
▁돼지고기	-16201
▁에두아르	-16202
▁베오그라드	-16203
17	-16204
심원	-16205
▁BO	-16206
▁그간	-16207
▁누에	-16208
▁니트	-16209
▁대소	-16210
▁듀엣	-16211
▁무루	-16212
▁비방	-16213
▁사일	-16214
▁수화	-16215
▁약수	-16216
▁양위	-16217
▁죄인	-16218
▁효성	-16219
스트림	-16220
inal	-16221
▁리카르	-16222
▁태양광	-16223
경찰	-16224
메랄	-16225
무실	-16226
▁개축	-16227
▁던전	-16228
▁알마	-16229
▁직각	-16230
▁카노	-16231
▁피시	-16232
▁Way	-16233
▁신안군	-16234
▁주세페	-16235
▁프레더릭	-16236
TN	-16237
▁씬	-16238
락부	-16239
enn	-16240
▁공지	-16241
▁굳이	-16242
▁명중	-16243
▁사옥	-16244
▁생장	-16245
▁외가	-16246
▁주스	-16247
▁합장	-16248
코비치	-16249
▁다카시	-16250
▁범어사	-16251
▁사법부	-16252
▁스트라	-16253
▁페라리	-16254
가요	-16255
가키	-16256
금속	-16257
처럼	-16258
▁BB	-16259
▁경산	-16260
▁고취	-16261
▁김장	-16262
▁도보	-16263
▁라테	-16264
▁베아	-16265
▁불길	-16266
▁서곡	-16267
▁인노	-16268
▁천태	-16269
▁총수	-16270
▁출병	-16271
▁카불	-16272
▁파출	-16273
▁한꺼	-16274
▁두더지	-16275
▁아열대	-16276
▁어드밴	-16277
▁이치로	-16278
▁태극기	-16279
▁함부로	-16280
▁해수면	-16281
▁혈액형	-16282
▁게오르기	-16283
▁한꺼번에	-16284
UM	-16285
ors	-16286
▁개리	-16287
▁레반	-16288
▁매튜	-16289
▁증류	-16290
▁춘향	-16291
▁하츠	-16292
▁효모	-16293
▁207	-16294
▁GPS	-16295
▁강릉시	-16296
▁김종직	-16297
▁알레산	-16298
▁압둘라	-16299
▁알아차리	-16300
▁MR	-16301
▁결단	-16302
▁깁슨	-16303
▁레르	-16304
▁미끄	-16305
▁연어	-16306
▁윈드	-16307
▁잔치	-16308
▁재심	-16309
▁철근	-16310
▁틈타	-16311
▁흡입	-16312
말라야	-16313
▁Res	-16314
▁스펜서	-16315
▁시아파	-16316
▁내역	-16317
▁봉헌	-16318
▁운석	-16319
▁조너	-16320
▁동북부	-16321
▁무정부	-16322
▁일제히	-16323
▁항소심	-16324
▁1820	-16325
갱이	-16326
▁DA	-16327
▁굴욕	-16328
▁미추	-16329
▁베컴	-16330
▁사계	-16331
▁살레	-16332
▁시편	-16333
▁이구	-16334
▁폭주	-16335
▁365	-16336
▁사이다	-16337
▁이지스	-16338
▁조합원	-16339
▁직할시	-16340
▁체육회	-16341
▁1815	-16342
▁서대문구	-16343
▁선거인단	-16344
▁이오니아	-16345
덱스	-16346
즈미	-16347
app	-16348
▁결실	-16349
▁기형	-16350
▁도량	-16351
▁맞닿	-16352
▁습도	-16353
▁에인	-16354
▁키치	-16355
▁페레스	-16356
노스아이	-16357
▁Amer	-16358
노스아이레스	-16359
▁부에노스아이레스	-16360
광사	-16361
나비	-16362
든가	-16363
시카	-16364
월드	-16365
▁OK	-16366
▁담그	-16367
▁박동	-16368
▁북송	-16369
▁비이	-16370
▁세도	-16371
▁천적	-16372
▁풋살	-16373
▁핼리	-16374
스티안	-16375
▁국무부	-16376
▁Cent	-16377
▁리얼리티	-16378
▁카롤루스	-16379
▁아르바이트	-16380
▁"'	-16381
▁공보	-16382
▁산마	-16383
▁설과	-16384
▁술집	-16385
▁신안	-16386
▁에든	-16387
▁토의	-16388
▁퇴계	-16389
▁화교	-16390
어들이	-16391
이즈미	-16392
▁유명세	-16393
▁지방도	-16394
▁프린터	-16395
▁라이온스	-16396
▁에든버러	-16397
▁히말라야	-16398
24	-16399
▁Dr	-16400
▁변조	-16401
▁토하	-16402
▁필로	-16403
▁허구	-16404
레이즈	-16405
▁감마선	-16406
▁노무라	-16407
▁일진회	-16408
▁유럽연합	-16409
▁낸	-16410
▁욘	-16411
ret	-16412
▁결집	-16413
▁김은	-16414
▁담장	-16415
▁로제	-16416
▁모잠	-16417
▁서역	-16418
▁시성	-16419
▁양분	-16420
▁좌랑	-16421
▁해내	-16422
▁해머	-16423
ange	-16424
▁리그전	-16425
▁야행성	-16426
▁오징어	-16427
▁전동기	-16428
▁모잠비크	-16429
로프로세서	-16430
▁레닌그라드	-16431
▁막시밀리안	-16432
▁마이크로프로세서	-16433
▁훅	-16434
오드	-16435
현실	-16436
ina	-16437
▁만수	-16438
▁스틱	-16439
▁으뜸	-16440
▁전극	-16441
▁조나	-16442
▁천리	-16443
▁충고	-16444
▁쿠사	-16445
▁표어	-16446
▁학도	-16447
▁한라	-16448
▁호박	-16449
ater	-16450
▁농민군	-16451
▁도나우	-16452
▁정몽주	-16453
▁제품군	-16454
의금부사	-16455
FS	-16456
▁김석	-16457
▁마취	-16458
▁분담	-16459
▁영위	-16460
▁트롤	-16461
▁피쳐	-16462
▁모터쇼	-16463
▁후베이	-16464
▁System	-16465
마니	-16466
▁격상	-16467
▁리서	-16468
▁본진	-16469
▁시차	-16470
▁어인	-16471
▁월경	-16472
▁테살	-16473
▁디나모	-16474
▁조병옥	-16475
▁지포스	-16476
▁혁명가	-16477
▁고고학자	-16478
▁마쓰모토	-16479
▁알베르트	-16480
▁알렉산드라	-16481
비츠	-16482
▁갑오	-16483
▁데니	-16484
▁본능	-16485
▁부이	-16486
▁성내	-16487
▁세실	-16488
▁위태	-16489
▁융기	-16490
▁지반	-16491
▁펜스	-16492
▁넘어지	-16493
▁아드리	-16494
▁연금술	-16495
▁지팡이	-16496
▁1858	-16497
베인	-16498
▁SW	-16499
▁기욤	-16500
▁노총	-16501
▁달마	-16502
▁당사	-16503
▁디펜	-16504
▁마초	-16505
▁슐레	-16506
▁이삭	-16507
▁허들	-16508
▁모델링	-16509
▁선데이	-16510
▁연습생	-16511
▁유공자	-16512
▁중심핵	-16513
▁모노이드	-16514
▁프로방스	-16515
za	-16516
거루	-16517
▁경구	-16518
▁광서	-16519
▁성찬	-16520
▁소정	-16521
▁소켓	-16522
▁실태	-16523
▁자막	-16524
▁장서	-16525
▁직류	-16526
▁출루	-16527
▁코넬	-16528
▁탈리	-16529
▁퍼플	-16530
▁전망대	-16531
▁총생산	-16532
▁오스트로	-16533
▁써	-16534
▁챈	-16535
쓰네	-16536
ons	-16537
▁만연	-16538
▁미완	-16539
▁벅스	-16540
▁사보	-16541
▁아토	-16542
▁장론	-16543
▁종단	-16544
▁특혜	-16545
▁형광	-16546
지먼트	-16547
▁Int	-16548
▁Mac	-16549
▁가디언	-16550
▁민의원	-16551
▁적절히	-16552
▁마그네슘	-16553
▁매니지먼트	-16554
니츠	-16555
입자	-16556
ley	-16557
▁급사	-16558
▁기주	-16559
▁달래	-16560
▁도난	-16561
▁매질	-16562
▁발라	-16563
▁엠마	-16564
▁옵티	-16565
▁지뢰	-16566
▁특위	-16567
▁합산	-16568
▁라이드	-16569
▁모조리	-16570
▁스와프	-16571
▁신익희	-16572
▁조너선	-16573
▁크레타	-16574
▁파블로	-16575
▁이성질체	-16576
▁필하모닉	-16577
러기	-16578
토바	-16579
퍼트	-16580
▁'-	-16581
▁갈비	-16582
▁관대	-16583
▁기민	-16584
▁녹말	-16585
▁새해	-16586
▁선서	-16587
▁위배	-16588
▁육박	-16589
▁음양	-16590
▁하카	-16591
▁날아오	-16592
▁도치기	-16593
▁제노바	-16594
▁알베르토	-16595
▁class	-16596
▁폴리네시아	-16597
ux	-16598
동리	-16599
▁견지	-16600
▁납품	-16601
▁더빙	-16602
▁사악	-16603
▁에뮬	-16604
▁전액	-16605
▁정현	-16606
▁좌천	-16607
▁창씨	-16608
▁태상	-16609
▁테드	-16610
ions	-16611
▁Tra	-16612
▁군산시	-16613
▁대학살	-16614
▁필리스	-16615
▁맞배지붕	-16616
▁천연가스	-16617
▁기교	-16618
▁기근	-16619
▁니라	-16620
▁상해	-16621
▁수강	-16622
▁애쓰	-16623
▁완산	-16624
▁이철	-16625
▁장택	-16626
▁재주	-16627
▁정공	-16628
▁콘셉	-16629
▁포섭	-16630
▁프록	-16631
▁USA	-16632
▁관찰자	-16633
▁광화문	-16634
▁마에다	-16635
▁밀어내	-16636
▁봉수대	-16637
▁분홍색	-16638
▁시게루	-16639
▁High	-16640
정제	-16641
▁낙태	-16642
▁남궁	-16643
▁농작	-16644
▁니체	-16645
▁덕수	-16646
▁소탕	-16647
▁수선	-16648
▁의왕	-16649
▁토드	-16650
▁펠레	-16651
▁핑계	-16652
▁그리드	-16653
▁넘어오	-16654
▁노트북	-16655
▁마피아	-16656
▁안티고	-16657
▁포인터	-16658
▁무궁화호	-16659
던스	-16660
라나	-16661
사랑	-16662
실험	-16663
코인	-16664
att	-16665
▁귀하	-16666
▁대정	-16667
▁마도	-16668
▁모여	-16669
▁정과	-16670
▁진구	-16671
▁푸틴	-16672
▁Not	-16673
▁목포시	-16674
▁유성구	-16675
▁전철역	-16676
▁진정하	-16677
▁평상시	-16678
▁서프랑크	-16679
▁엎	-16680
싸움	-16681
컨드	-16682
▁고택	-16683
▁궁내	-16684
▁독실	-16685
▁동티	-16686
▁말소	-16687
▁총살	-16688
지스터	-16689
▁ᄇ니까	-16690
▁막아내	-16691
▁평의원	-16692
▁1300	-16693
▁1814	-16694
▁조선왕조실록	-16695
테일	-16696
▁SG	-16697
▁기악	-16698
▁마틸	-16699
▁미자	-16700
▁벨벳	-16701
▁아말	-16702
▁안재	-16703
▁예일	-16704
▁음역	-16705
▁증원	-16706
▁콤비	-16707
▁패퇴	-16708
▁헤지	-16709
▁비올라	-16710
▁트랜싯	-16711
▁티무르	-16712
▁피드백	-16713
▁동아프리카	-16714
▁귤	-16715
촌동	-16716
토쿠	-16717
▁공해	-16718
▁로타	-16719
▁마고	-16720
▁민가	-16721
▁성제	-16722
▁알렌	-16723
▁유승	-16724
▁헬렌	-16725
▁MHz	-16726
▁쌍방울	-16727
▁What	-16728
▁type	-16729
▁클라이맥스	-16730
당류	-16731
랭크	-16732
재단	-16733
▁군비	-16734
▁문성	-16735
▁소치	-16736
▁이덕	-16737
▁제보	-16738
▁주상	-16739
▁휴먼	-16740
▁건너편	-16741
▁맞대결	-16742
▁성명서	-16743
▁수도사	-16744
▁플래그	-16745
▁보호구역	-16746
▁트랜지스터	-16747
기둥	-16748
널목	-16749
자유	-16750
ART	-16751
▁Of	-16752
▁고갈	-16753
▁보육	-16754
▁비욘	-16755
▁스팅	-16756
▁아약	-16757
▁우도	-16758
▁우이	-16759
▁전집	-16760
▁키아	-16761
▁흥덕	-16762
▁IEC	-16763
▁건널목	-16764
▁겨울철	-16765
▁깨달음	-16766
▁세컨드	-16767
▁그래미상	-16768
거성	-16769
데냐	-16770
▁RA	-16771
▁목화	-16772
▁비호	-16773
▁완주	-16774
▁증직	-16775
▁쿠리	-16776
▁튀기	-16777
▁홍천	-16778
▁290	-16779
▁미우라	-16780
▁오나라	-16781
▁우승컵	-16782
▁충주시	-16783
▁평택시	-16784
▁사르데냐	-16785
▁산업단지	-16786
▁토스카나	-16787
▁Google	-16788
BN	-16789
림동	-16790
▁구석	-16791
▁급기	-16792
▁보카	-16793
▁수의	-16794
▁스쿠	-16795
▁신관	-16796
▁우대	-16797
▁전란	-16798
▁총액	-16799
▁War	-16800
▁베일리	-16801
▁액티브	-16802
▁연구실	-16803
▁재빨리	-16804
▁커티스	-16805
▁한정판	-16806
▁혁명군	-16807
▁암모니아	-16808
▁크리스천	-16809
마일	-16810
▁kW	-16811
▁간지	-16812
▁로어	-16813
▁면은	-16814
▁미에	-16815
▁바사	-16816
▁버거	-16817
▁부탄	-16818
▁석등	-16819
▁애매	-16820
▁윗면	-16821
▁이다	-16822
▁퀘이	-16823
▁포진	-16824
정보부	-16825
▁라쿠텐	-16826
▁성북구	-16827
▁패트리	-16828
▁1795	-16829
민정	-16830
▁견훤	-16831
▁바하	-16832
▁북상	-16833
▁아픔	-16834
▁열망	-16835
▁캐럴	-16836
▁할양	-16837
▁헤임	-16838
씨식물	-16839
▁WHO	-16840
▁니스트	-16841
▁프렌즈	-16842
▁석가여래	-16843
ger	-16844
▁FS	-16845
▁군집	-16846
▁규장	-16847
▁레미	-16848
▁려다	-16849
▁리온	-16850
▁선회	-16851
▁실크	-16852
▁앨버	-16853
▁열풍	-16854
▁정일	-16855
▁지층	-16856
▁직권	-16857
▁초당	-16858
▁페데	-16859
▁헨드	-16860
▁훈족	-16861
▁LCK	-16862
▁MLB	-16863
▁고조선	-16864
▁미시간	-16865
▁아약스	-16866
▁주교좌	-16867
▁포스코	-16868
▁프리킥	-16869
살바도르	-16870
▁부위원장	-16871
구멍	-16872
전차	-16873
▁구자	-16874
▁도표	-16875
▁루지	-16876
▁멘토	-16877
▁아난	-16878
▁켈빈	-16879
▁사이공	-16880
▁통신부	-16881
▁트루먼	-16882
▁플라자	-16883
▁다리우스	-16884
▁샌드위치	-16885
▁플레이스	-16886
▁그리스도인	-16887
▁윔	-16888
식스	-16889
회원	-16890
▁군락	-16891
▁발췌	-16892
▁스톨	-16893
▁암초	-16894
▁에린	-16895
▁원생	-16896
▁잊히	-16897
▁포교	-16898
▁국문학	-16899
▁리포트	-16900
▁원정군	-16901
▁익산시	-16902
▁프로이트	-16903
ye	-16904
▁밈	-16905
alk	-16906
▁NX	-16907
▁PH	-16908
▁괴뢰	-16909
▁도정	-16910
▁리츠	-16911
▁매춘	-16912
▁본초	-16913
▁아랑	-16914
▁에런	-16915
▁옥상	-16916
▁인대	-16917
▁춤추	-16918
▁패드	-16919
▁혼돈	-16920
▁850	-16921
▁대항해	-16922
▁홉킨스	-16923
▁With	-16924
▁렝	-16925
▁모식	-16926
▁몬태	-16927
▁비어	-16928
▁세베	-16929
▁약학	-16930
▁우사	-16931
▁TBC	-16932
▁블루어	-16933
▁정확도	-16934
▁창업자	-16935
▁디렉터리	-16936
yle	-16937
▁로동	-16938
▁미숙	-16939
▁부녀	-16940
▁브람	-16941
▁쇠약	-16942
▁얼터	-16943
▁장조	-16944
▁풍수	-16945
▁480	-16946
▁Dis	-16947
▁남조선	-16948
▁선언문	-16949
▁창덕궁	-16950
▁하모니	-16951
▁뱌	-16952
▁쥘	-16953
부미	-16954
enc	-16955
▁보훈	-16956
▁코지	-16957
▁토비	-16958
▁함의	-16959
▁남해군	-16960
▁로렌초	-16961
▁스레드	-16962
▁스타즈	-16963
▁타블로	-16964
▁합천군	-16965
▁수마트라	-16966
NT	-16967
▁켓	-16968
니코	-16969
▁광택	-16970
▁보궐	-16971
▁아핀	-16972
▁웅진	-16973
▁유원	-16974
▁종친	-16975
디우스	-16976
주니어	-16977
▁Art	-16978
▁보행자	-16979
▁안드레이	-16980
▁카테고리	-16981
건적	-16982
고나	-16983
팽이	-16984
▁당명	-16985
▁미코	-16986
▁반야	-16987
▁웰스	-16988
▁장준	-16989
▁천정	-16990
▁첨부	-16991
▁학급	-16992
▁헬로	-16993
▁등록금	-16994
▁에히메	-16995
▁헬싱키	-16996
▁사탕수수	-16997
▁아틀레틱	-16998
▁COVID	-16999
▁그리스도교	-17000
스테	-17001
카라	-17002
▁Di	-17003
▁굶주	-17004
▁니나	-17005
▁승전	-17006
▁효용	-17007
▁238	-17008
▁개최지	-17009
▁공직자	-17010
▁북반구	-17011
▁충렬왕	-17012
▁Blue	-17013
▁드레이크	-17014
▁간디	-17015
▁경이	-17016
▁국지	-17017
▁김세	-17018
▁더럽	-17019
▁숭실	-17020
▁씨름	-17021
▁연유	-17022
▁영재	-17023
▁윈터	-17024
▁팀장	-17025
▁평신	-17026
▁돌아서	-17027
▁지방관	-17028
▁페테르	-17029
IO	-17030
블린	-17031
▁각광	-17032
▁교묘	-17033
▁논설	-17034
▁덩굴	-17035
▁데쓰	-17036
▁맛있	-17037
▁머피	-17038
▁소도	-17039
▁엄정	-17040
▁차분	-17041
플레잉	-17042
ough	-17043
▁남반구	-17044
▁바로잡	-17045
▁빅토리	-17046
▁학생회	-17047
▁가나자와	-17048
▁롤플레잉	-17049
▁요시아키	-17050
▁꼼	-17051
▁먀	-17052
레프	-17053
▁감탄	-17054
▁랜덤	-17055
▁박승	-17056
▁버시	-17057
▁불평	-17058
▁설사	-17059
▁율령	-17060
가하라	-17061
▁넥스트	-17062
▁보호관	-17063
▁산체스	-17064
▁스타인	-17065
▁1793	-17066
▁이베리아	-17067
뉴스	-17068
렁이	-17069
천국	-17070
▁골수	-17071
▁구토	-17072
▁남포	-17073
▁리저	-17074
▁민권	-17075
▁세탁	-17076
▁수렵	-17077
▁와해	-17078
▁정여	-17079
네소스	-17080
▁공기업	-17081
▁손바닥	-17082
▁안데르	-17083
▁이완용	-17084
▁자연주의	-17085
▁자유민주	-17086
▁중앙정보부	-17087
UI	-17088
에리	-17089
ING	-17090
▁교주	-17091
▁노화	-17092
▁당분	-17093
▁데메	-17094
▁묘법	-17095
▁신구	-17096
▁역모	-17097
▁이트	-17098
▁장항	-17099
▁쿠릴	-17100
▁하디	-17101
독립당	-17102
▁수번뇌	-17103
▁에밀리	-17104
▁여객선	-17105
▁취약점	-17106
▁페인트	-17107
▁한국독립당	-17108
▁키르기스스탄	-17109
que	-17110
▁ED	-17111
▁Vf	-17112
▁갤러	-17113
▁과부	-17114
▁국과	-17115
▁내구	-17116
▁만기	-17117
▁멜론	-17118
▁몸집	-17119
▁보츠	-17120
▁서강	-17121
▁올랭	-17122
▁용접	-17123
▁정병	-17124
▁존엄	-17125
▁직함	-17126
▁페터	-17127
▁하순	-17128
다람쥐	-17129
연화경	-17130
▁Rev	-17131
▁문하시	-17132
▁보라색	-17133
▁크라스	-17134
스트리트	-17135
▁1846	-17136
▁MPEG	-17137
▁물리학상	-17138
▁에드먼드	-17139
26	-17140
메트	-17141
적분	-17142
전쟁	-17143
OVE	-17144
▁괴멸	-17145
▁구룡	-17146
▁대뇌	-17147
▁무당	-17148
▁미묘	-17149
▁민생	-17150
▁유시	-17151
▁윤원	-17152
▁이국	-17153
▁천구	-17154
웨스트	-17155
▁노르트	-17156
▁아산시	-17157
▁아칸소	-17158
▁유격대	-17159
▁1839	-17160
▁브루나이	-17161
르모	-17162
ump	-17163
▁삼키	-17164
▁서보	-17165
▁오호	-17166
▁이효	-17167
▁참배	-17168
비우스	-17169
▁농작물	-17170
▁엉덩이	-17171
▁이브라	-17172
▁중서부	-17173
▁어드밴스	-17174
▁하시모토	-17175
운전	-17176
▁'.	-17177
▁느라	-17178
▁니콘	-17179
▁월북	-17180
▁인출	-17181
▁퇴단	-17182
▁펀치	-17183
시우스	-17184
▁가입자	-17185
▁메이트	-17186
▁버나드	-17187
▁변속기	-17188
▁시어터	-17189
▁지난해	-17190
▁추밀원	-17191
▁1854	-17192
▁time	-17193
▁기념사업	-17194
▁넉	-17195
▁뚱	-17196
나물	-17197
래시	-17198
바람	-17199
파스	-17200
▁경멸	-17201
▁귀양	-17202
▁낙타	-17203
▁산불	-17204
▁억류	-17205
▁총체	-17206
▁추위	-17207
▁표결	-17208
슬라브	-17209
▁LCD	-17210
▁배수량	-17211
▁베드로	-17212
▁아테나	-17213
▁체스터	-17214
▁최하위	-17215
▁테트라	-17216
▁여주인공	-17217
▁히로부미	-17218
▁시즈오카현	-17219
▁아오모리현	-17220
대성	-17221
질량	-17222
der	-17223
▁걸맞	-17224
▁공덕	-17225
▁구인	-17226
▁도색	-17227
▁망루	-17228
▁사흘	-17229
▁솔트	-17230
▁순정	-17231
▁잠들	-17232
▁해자	-17233
▁국무원	-17234
▁상속인	-17235
▁외무성	-17236
▁아나키즘	-17237
▁초등학생	-17238
▁갑각	-17239
▁게일	-17240
▁깜짝	-17241
▁독소	-17242
▁박기	-17243
▁심플	-17244
▁존상	-17245
▁클루	-17246
▁학창	-17247
▁휘트	-17248
▁아쿠아	-17249
▁전기장	-17250
▁황태후	-17251
▁후임자	-17252
▁기독교인	-17253
▁촘	-17254
모자	-17255
재란	-17256
후이	-17257
▁군국	-17258
▁마는	-17259
▁본당	-17260
▁부윤	-17261
▁심근	-17262
▁윤석	-17263
▁이견	-17264
▁이형	-17265
▁정강	-17266
▁톨킨	-17267
▁현충	-17268
니다드	-17269
티우스	-17270
학생회	-17271
▁214	-17272
▁737	-17273
▁대머리	-17274
▁수증기	-17275
▁알레르	-17276
▁하카타	-17277
▁정유재란	-17278
▁자동변속기	-17279
▁트리니다드	-17280
▁중앙아프리카	-17281
든지	-17282
▁개전	-17283
▁방조	-17284
▁분양	-17285
▁아민	-17286
▁여과	-17287
▁유폐	-17288
▁인신	-17289
▁치중	-17290
▁환기	-17291
코스트	-17292
▁가시마	-17293
▁기부금	-17294
▁분류학	-17295
▁상대론	-17296
▁시공간	-17297
▁윤리학	-17298
▁키워드	-17299
▁파트리	-17300
▁팩토리	-17301
▁평화상	-17302
▁언어학자	-17303
▁이해관계	-17304
▁총학생회	-17305
고트	-17306
우어	-17307
패스	-17308
▁ㄴ가	-17309
▁가니	-17310
▁구나	-17311
▁루머	-17312
▁미모	-17313
▁바일	-17314
▁범용	-17315
▁야로	-17316
▁칼레	-17317
▁특례	-17318
▁파드	-17319
▁필기	-17320
▁후시	-17321
▁낙하산	-17322
▁산둥성	-17323
총리대신	-17324
▁마음대로	-17325
▁세키가하라	-17326
▁내각총리대신	-17327
BT	-17328
▁내수	-17329
▁라몬	-17330
▁매번	-17331
▁매월	-17332
▁박준	-17333
▁브론	-17334
▁비참	-17335
▁상작	-17336
▁손책	-17337
▁오딘	-17338
▁웅장	-17339
▁육아	-17340
▁종주	-17341
▁찬탈	-17342
▁코레	-17343
▁COM	-17344
▁Min	-17345
▁경비대	-17346
▁돗토리	-17347
▁보나파	-17348
▁절대로	-17349
▁조계종	-17350
▁증명서	-17351
▁미성년자	-17352
▁비지니스	-17353
▁보나파르트	-17354
▁돛	-17355
▁BR	-17356
▁등대	-17357
▁마한	-17358
▁상투	-17359
▁새턴	-17360
▁석상	-17361
▁수류	-17362
▁이부	-17363
▁페드	-17364
캐스트	-17365
쿠스틱	-17366
프랑스	-17367
▁안중근	-17368
▁에리크	-17369
▁1849	-17370
▁Beat	-17371
▁어쿠스틱	-17372
▁플로이드	-17373
▁뺏	-17374
▁퓌	-17375
▁ME	-17376
▁광경	-17377
▁교포	-17378
▁분장	-17379
▁소홀	-17380
▁어이	-17381
▁오닐	-17382
▁장령	-17383
▁제식	-17384
▁팬아	-17385
▁가파르	-17386
▁교토부	-17387
▁북극해	-17388
▁비행대	-17389
▁갈릴레이	-17390
▁공화주의	-17391
▁비트코인	-17392
▁견습	-17393
▁고압	-17394
▁디온	-17395
▁바덴	-17396
▁베버	-17397
▁비크	-17398
▁실로	-17399
▁유품	-17400
▁태세	-17401
▁페가	-17402
▁갖가지	-17403
▁데포르	-17404
▁초대칭	-17405
▁파출소	-17406
▁하이든	-17407
▁1856	-17408
▁오브젝트	-17409
▁페더레이션	-17410
28	-17411
담회	-17412
사회	-17413
탐정	-17414
▁간염	-17415
▁계투	-17416
▁북해	-17417
▁사죄	-17418
▁시경	-17419
▁인피	-17420
▁적재	-17421
▁해일	-17422
▁화북	-17423
직할시	-17424
▁건국대	-17425
▁구청장	-17426
▁나가노	-17427
▁델라웨어	-17428
HD	-17429
▁깡	-17430
▁럴	-17431
▁줌	-17432
▁낙랑	-17433
▁남로	-17434
▁단성	-17435
▁담론	-17436
▁모기	-17437
▁본디	-17438
▁분쇄	-17439
▁소란	-17440
▁수배	-17441
▁시주	-17442
▁신작	-17443
▁엠블	-17444
▁철원	-17445
▁현령	-17446
▁찬드라	-17447
▁포위전	-17448
▁노동자당	-17449
▁소용돌이	-17450
▁네덜란드어	-17451
누아	-17452
오린	-17453
정권	-17454
호르	-17455
호프	-17456
▁대세	-17457
▁봉작	-17458
▁역습	-17459
▁연임	-17460
▁예속	-17461
▁오기	-17462
▁우동	-17463
▁웨일	-17464
▁이안	-17465
▁제학	-17466
▁파격	-17467
타니아	-17468
▁430	-17469
▁교직원	-17470
▁식물원	-17471
▁어리석	-17472
▁해럴드	-17473
베이거스	-17474
▁캐나다인	-17475
▁크레이그	-17476
▁하이웨이	-17477
23	-17478
섬유	-17479
케스	-17480
▁반열	-17481
▁배설	-17482
▁변방	-17483
▁악역	-17484
▁요아	-17485
▁추궁	-17486
▁헤엄	-17487
▁화전	-17488
▁효능	-17489
atch	-17490
▁장택상	-17491
▁1851	-17492
▁스탠퍼드	-17493
▁캔자스시티	-17494
▁라스베이거스	-17495
OU	-17496
▁녜	-17497
개혁	-17498
체어	-17499
▁드니	-17500
▁마자	-17501
▁만국	-17502
▁메사	-17503
▁밀스	-17504
▁반려	-17505
▁유장	-17506
▁적성	-17507
▁조승	-17508
▁촌은	-17509
▁한서	-17510
▁419	-17511
▁감염자	-17512
▁다이나	-17513
▁참모장	-17514
▁상파울루	-17515
▁차량기지	-17516
▁PP	-17517
▁간장	-17518
▁낙엽	-17519
▁단호	-17520
▁볼륨	-17521
▁셔먼	-17522
▁원성	-17523
▁윤영	-17524
▁후백	-17525
트로피	-17526
▁FBI	-17527
▁디스코	-17528
▁레인보	-17529
▁벤피카	-17530
▁보르도	-17531
▁입출력	-17532
▁테이크	-17533
▁투데이	-17534
▁사보이아	-17535
▁크리에이티브	-17536
처리	-17537
하스	-17538
▁계란	-17539
▁김문	-17540
▁단사	-17541
▁도독	-17542
▁라티	-17543
▁상체	-17544
▁알비	-17545
▁외동	-17546
▁치수	-17547
▁친절	-17548
▁Top	-17549
▁아가씨	-17550
▁오비탈	-17551
▁진보당	-17552
▁집어넣	-17553
▁하동군	-17554
츠부르크	-17555
▁블레이드	-17556
▁스티븐스	-17557
▁오하이오주	-17558
86	-17559
ery	-17560
▁결탁	-17561
▁경색	-17562
▁서천	-17563
▁쇼팽	-17564
▁수서	-17565
▁언약	-17566
▁주경	-17567
▁착안	-17568
▁히다	-17569
▁기념식	-17570
▁노스케	-17571
▁캥거루	-17572
▁핵폭탄	-17573
▁1855	-17574
▁1857	-17575
▁서스펜션	-17576
▁정사각형	-17577
▁폴란드인	-17578
▁프란시스	-17579
▁힉	-17580
전기	-17581
투안	-17582
하늘	-17583
▁TG	-17584
▁국면	-17585
▁대광	-17586
▁대열	-17587
▁보문	-17588
▁분개	-17589
▁생가	-17590
▁여생	-17591
▁욕설	-17592
▁정시	-17593
▁카잔	-17594
▁페티	-17595
▁공사관	-17596
▁대주주	-17597
▁배트맨	-17598
▁상세히	-17599
▁수산물	-17600
▁시부야	-17601
▁애벌레	-17602
▁작사가	-17603
▁휠체어	-17604
▁다이스케	-17605
깨비	-17606
버거	-17607
봉사	-17608
산읍	-17609
일라	-17610
천년	-17611
카테	-17612
▁거액	-17613
▁랜디	-17614
▁명주	-17615
▁발송	-17616
▁벽면	-17617
▁빌미	-17618
▁조력	-17619
cess	-17620
▁Med	-17621
▁베르디	-17622
▁서북쪽	-17623
▁수수료	-17624
▁올라서	-17625
▁일간지	-17626
▁갑신정변	-17627
▁민족주의자	-17628
하르	-17629
▁YM	-17630
▁권세	-17631
▁무왕	-17632
▁서상	-17633
▁성채	-17634
▁수훈	-17635
▁아모	-17636
▁캔디	-17637
▁핵산	-17638
▁현명	-17639
icro	-17640
▁211	-17641
▁구미시	-17642
▁글리코	-17643
▁봉사자	-17644
▁시흥시	-17645
▁행정관	-17646
▁반공주의	-17647
▁여러해살이풀	-17648
▁좡	-17649
▁심슨	-17650
▁정년	-17651
▁택지	-17652
▁한참	-17653
고양이	-17654
콥스키	-17655
▁301	-17656
▁모자라	-17657
▁제이스	-17658
▁지평선	-17659
▁포천시	-17660
▁데포르티보	-17661
댄스	-17662
테른	-17663
▁롤리	-17664
▁압송	-17665
▁쟁점	-17666
▁주치	-17667
▁체첸	-17668
▁친목	-17669
▁템포	-17670
▁포구	-17671
▁해금	-17672
▁Pop	-17673
▁시우바	-17674
▁웨이트	-17675
▁저작물	-17676
▁펠로폰	-17677
▁포브스	-17678
▁Will	-17679
▁이와테현	-17680
▁병마절도사	-17681
▁펠로폰네소스	-17682
레토	-17683
버드	-17684
서구	-17685
재기	-17686
증권	-17687
지대	-17688
▁까다	-17689
▁버퍼	-17690
▁셀룰	-17691
▁신영	-17692
▁인테	-17693
▁폰트	-17694
루리아	-17695
▁223	-17696
▁동의어	-17697
▁변증법	-17698
메니스탄	-17699
▁서아시아	-17700
▁투르크메니스탄	-17701
소득	-17702
왕국	-17703
흐트	-17704
▁변장	-17705
▁선하	-17706
▁소망	-17707
▁실습	-17708
▁임베	-17709
▁크세	-17710
▁탄원	-17711
▁팔자	-17712
▁려다가	-17713
▁스나이	-17714
▁은하단	-17715
▁카운터	-17716
▁컨디션	-17717
▁헤이스	-17718
▁임베디드	-17719
쇼프	-17720
연대	-17721
▁CL	-17722
▁간파	-17723
▁노회	-17724
▁대적	-17725
▁만리	-17726
▁수스	-17727
▁액수	-17728
▁외벽	-17729
▁지소	-17730
▁찬스	-17731
▁히나	-17732
▁NAD	-17733
▁그로스	-17734
▁나주시	-17735
▁비엔나	-17736
▁1776	-17737
▁Free	-17738
▁엔트로피	-17739
니엄	-17740
니크	-17741
바꿈	-17742
▁돌핀	-17743
▁박격	-17744
▁벚꽃	-17745
▁성간	-17746
▁슈바	-17747
▁이학	-17748
▁늘어지	-17749
▁오카다	-17750
▁클라리넷	-17751
로아	-17752
ont	-17753
▁FR	-17754
▁IA	-17755
▁고증	-17756
▁급습	-17757
▁노다	-17758
▁신명	-17759
▁알론	-17760
▁열반	-17761
▁원제	-17762
▁율곡	-17763
▁음경	-17764
▁읽히	-17765
▁장구	-17766
▁지병	-17767
▁카렐	-17768
▁한도	-17769
시오날	-17770
▁대각선	-17771
▁뽑아내	-17772
▁핵실험	-17773
타고라스	-17774
▁나시오날	-17775
▁플루오린	-17776
day	-17777
▁김한	-17778
▁미안	-17779
▁이공	-17780
▁퇴사	-17781
▁현청	-17782
▁회부	-17783
▁다면체	-17784
▁모여들	-17785
▁보니파	-17786
▁수송기	-17787
▁하이델	-17788
▁가까스로	-17789
▁무라카미	-17790
▁미주리주	-17791
27	-17792
스탕	-17793
▁골목	-17794
▁버즈	-17795
▁요네	-17796
▁조식	-17797
▁총알	-17798
▁코민	-17799
▁항모	-17800
▁현생	-17801
▁독립국	-17802
▁루터교	-17803
▁마그마	-17804
▁바이스	-17805
▁타고나	-17806
▁형무소	-17807
▁사카모토	-17808
▁태평천국	-17809
광선	-17810
▁UR	-17811
▁과업	-17812
▁뇌졸	-17813
▁대흥	-17814
▁문교	-17815
▁방한	-17816
▁센스	-17817
▁윤선	-17818
▁잠복	-17819
▁타오	-17820
노벨라	-17821
리어스	-17822
중국해	-17823
▁거제시	-17824
▁레너드	-17825
▁이범석	-17826
▁올랭피크	-17827
▁원내대표	-17828
▁그레고리력	-17829
▁텔레노벨라	-17830
▁통합진보당	-17831
▁금광	-17832
▁부총	-17833
▁사극	-17834
▁와트	-17835
▁중첩	-17836
▁병원체	-17837
▁아세트	-17838
볼트	-17839
aut	-17840
▁MW	-17841
▁개요	-17842
▁누각	-17843
▁라데	-17844
▁상시	-17845
▁서던	-17846
▁양손	-17847
▁언젠	-17848
▁재원	-17849
▁조참	-17850
▁호가	-17851
레시브	-17852
▁XML	-17853
▁가속기	-17854
▁달라이	-17855
▁동북쪽	-17856
▁새천년	-17857
▁청교도	-17858
▁출생지	-17859
▁클라라	-17860
▁캄파니아주	-17861
▁프로그레시브	-17862
모습	-17863
활성	-17864
▁땅콩	-17865
▁몬트	-17866
▁성추	-17867
▁심신	-17868
▁영아	-17869
▁원가	-17870
▁장타	-17871
▁질리	-17872
▁케니	-17873
궐선거	-17874
▁다시피	-17875
▁비정규	-17876
▁어지럽	-17877
▁언젠가	-17878
▁국민회의	-17879
▁재보궐선거	-17880
29	-17881
ma	-17882
를린	-17883
쿠젠	-17884
평가	-17885
▁Po	-17886
▁명지	-17887
▁산탄	-17888
▁살림	-17889
▁준위	-17890
▁천명	-17891
▁타현	-17892
▁퇴화	-17893
▁급기야	-17894
▁김종필	-17895
▁마인드	-17896
▁심포니	-17897
▁영산회	-17898
▁청구인	-17899
▁피에트로	-17900
▁10000	-17901
▁레오나르도	-17902
마타	-17903
▁ne	-17904
▁간소	-17905
▁계파	-17906
▁괴팅	-17907
▁교복	-17908
▁기물	-17909
▁누락	-17910
▁로로	-17911
▁미망	-17912
▁미움	-17913
▁발주	-17914
▁방수	-17915
▁시왕	-17916
▁역행	-17917
▁지단	-17918
▁진안	-17919
▁파사	-17920
▁표상	-17921
▁하쿠	-17922
▁합체	-17923
▁혹독	-17924
▁가로막	-17925
▁굳어지	-17926
▁베르그	-17927
▁묘법연화경	-17928
연료	-17929
▁각별	-17930
▁로젠	-17931
▁본기	-17932
▁사성	-17933
▁셰이	-17934
▁수잔	-17935
▁연좌	-17936
▁음란	-17937
▁이로	-17938
▁이연	-17939
▁화신	-17940
들랜드	-17941
▁Bro	-17942
▁End	-17943
▁del	-17944
▁단기간	-17945
▁메이플	-17946
▁모티프	-17947
▁베리아	-17948
▁빠뜨리	-17949
▁사모아	-17950
▁살아나	-17951
▁영등포	-17952
▁황도대	-17953
▁조기어류	-17954
저민	-17955
페리	-17956
its	-17957
▁CV	-17958
▁가메	-17959
▁감명	-17960
▁국고	-17961
▁국채	-17962
▁세브	-17963
▁습성	-17964
▁어필	-17965
▁입안	-17966
▁직제	-17967
▁최경	-17968
▁홀드	-17969
메네스	-17970
메데스	-17971
▁215	-17972
▁벤저민	-17973
▁샘플링	-17974
▁서기장	-17975
▁에인절	-17976
▁치우치	-17977
▁팰리스	-17978
▁포위망	-17979
개발	-17980
▁로미	-17981
▁만다	-17982
▁반일	-17983
▁비비	-17984
▁콘월	-17985
▁포에	-17986
irst	-17987
▁Big	-17988
▁DFB	-17989
▁네브래스카	-17990
니발	-17991
슐린	-17992
▁나나	-17993
▁대양	-17994
▁배영	-17995
▁세가	-17996
▁에나	-17997
▁체임	-17998
▁퓨전	-17999
▁황보	-18000
▁까다롭	-18001
▁논산시	-18002
▁리서치	-18003
▁크리켓	-18004
▁캔터베리	-18005
BL	-18006
가야	-18007
계리	-18008
급시	-18009
미치	-18010
▁공녀	-18011
▁노미	-18012
▁로자	-18013
▁생사	-18014
▁우문	-18015
▁청화	-18016
▁포즈	-18017
▁포탈	-18018
▁픽업	-18019
▁게이츠	-18020
▁서남쪽	-18021
▁특공대	-18022
▁미시간주	-18023
▁스포르팅	-18024
▁코미디언	-18025
▁포레스트	-18026
빼미	-18027
▁DL	-18028
▁개간	-18029
▁노먼	-18030
▁독감	-18031
▁린드	-18032
▁마마	-18033
▁밑면	-18034
▁열광	-18035
▁요세	-18036
▁장보	-18037
▁정철	-18038
▁주둥	-18039
▁문화사	-18040
▁begin	-18041
▁WH	-18042
▁경치	-18043
▁니즘	-18044
▁라비	-18045
▁레베	-18046
▁몰입	-18047
▁미팅	-18048
▁시로	-18049
▁원화	-18050
▁위드	-18051
▁브레인	-18052
▁엑스선	-18053
▁프리랜	-18054
▁해설자	-18055
br	-18056
연의	-18057
지않	-18058
코바	-18059
▁가인	-18060
▁매드	-18061
▁메콩	-18062
▁브롱	-18063
▁살상	-18064
▁서드	-18065
▁서킷	-18066
▁실드	-18067
▁위아	-18068
▁유즈	-18069
▁정약	-18070
▁징후	-18071
▁추석	-18072
▁틈새	-18073
▁한방	-18074
더니즘	-18075
▁239	-18076
▁경기력	-18077
▁구석기	-18078
▁부활절	-18079
▁서로마	-18080
▁월리스	-18081
▁전년도	-18082
▁후반부	-18083
▁언더그라운드	-18084
▁다의	-18085
▁루소	-18086
▁우메	-18087
▁질레	-18088
▁코다	-18089
▁쿠키	-18090
▁패주	-18091
▁기장군	-18092
▁레이어	-18093
▁수메르	-18094
▁특이점	-18095
▁HK	-18096
▁경수	-18097
▁낭독	-18098
▁내쫓	-18099
▁비슈	-18100
▁연천	-18101
▁전갈	-18102
▁접착	-18103
▁정파	-18104
▁창안	-18105
▁픽션	-18106
▁510	-18107
▁계약금	-18108
▁계약서	-18109
▁권력자	-18110
▁미카사	-18111
▁사중주	-18112
▁유니온	-18113
▁1792	-18114
HS	-18115
▁젬	-18116
보스	-18117
aff	-18118
oss	-18119
▁KC	-18120
▁그려	-18121
▁녀석	-18122
▁래스	-18123
▁루아	-18124
▁시동	-18125
▁시암	-18126
▁아그	-18127
▁우랄	-18128
▁종택	-18129
▁청탁	-18130
▁촌락	-18131
▁칸타	-18132
▁평년	-18133
▁향리	-18134
▁호치	-18135
파트라	-18136
▁BMW	-18137
▁목걸이	-18138
▁보호자	-18139
▁부제학	-18140
▁사생아	-18141
▁소선거구	-18142
▁프라이스	-18143
▁클레오파트라	-18144
▁까치	-18145
▁덤불	-18146
▁도기	-18147
▁듀크	-18148
▁명절	-18149
▁부원	-18150
▁세관	-18151
▁위니	-18152
▁유실	-18153
▁Rain	-18154
▁동대문구	-18155
▁아틀라스	-18156
▁프로토타입	-18157
▁감히	-18158
▁귀납	-18159
▁덧셈	-18160
▁시료	-18161
▁안상	-18162
▁영연	-18163
▁이족	-18164
▁제향	-18165
▁Des	-18166
▁set	-18167
▁게이머	-18168
▁다다르	-18169
▁미술가	-18170
▁브람스	-18171
▁외삼촌	-18172
▁재정난	-18173
▁퍼펙트	-18174
▁void	-18175
▁금화	-18176
▁비츠	-18177
▁예천	-18178
▁정량	-18179
▁제반	-18180
▁함안	-18181
▁과선교	-18182
▁따돌리	-18183
▁목격자	-18184
▁파이브	-18185
▁1853	-18186
▁LIVE	-18187
▁Mnet	-18188
▁알레르기	-18189
▁슈퍼주니어	-18190
루이	-18191
막염	-18192
삼문	-18193
▁RE	-18194
▁do	-18195
▁난간	-18196
▁독신	-18197
▁버락	-18198
▁불황	-18199
▁산토	-18200
▁성년	-18201
▁시판	-18202
▁약정	-18203
▁욕심	-18204
▁잠그	-18205
▁카쿠	-18206
▁티르	-18207
▁호엔	-18208
너티브	-18209
제르맹	-18210
▁성추행	-18211
▁시설물	-18212
▁퍼뜨리	-18213
▁표준어	-18214
▁Show	-18215
▁권위주의	-18216
▁얼터너티브	-18217
버섯	-18218
타라	-18219
▁대검	-18220
▁도고	-18221
▁동복	-18222
▁라벤	-18223
▁박중	-18224
▁상피	-18225
▁섬멸	-18226
▁시구	-18227
▁아속	-18228
▁양력	-18229
▁오쓰	-18230
▁절멸	-18231
▁최북	-18232
▁쿠페	-18233
▁홍백	-18234
덜랜드	-18235
메이트	-18236
▁레일리	-18237
▁명백히	-18238
▁정말로	-18239
▁지도력	-18240
▁1791	-18241
▁1852	-18242
▁인테리어	-18243
▁플레이트	-18244
▁엘살바도르	-18245
▁퓰	-18246
그림	-18247
▁JP	-18248
▁SI	-18249
▁가평	-18250
▁바크	-18251
▁숙성	-18252
▁아쓰	-18253
▁입적	-18254
▁자락	-18255
▁최치	-18256
▁커트	-18257
▁케스	-18258
▁튀르	-18259
▁TOP	-18260
▁요리사	-18261
▁프레디	-18262
▁모하메드	-18263
▁테러리스트	-18264
얼빈	-18265
이인	-18266
행사	-18267
IDS	-18268
▁구급	-18269
▁만찬	-18270
▁모후	-18271
▁밥상	-18272
▁상권	-18273
▁수온	-18274
▁수첩	-18275
▁스커	-18276
▁영세	-18277
▁이면	-18278
▁일람	-18279
▁착오	-18280
▁캄포	-18281
▁탄환	-18282
▁검사장	-18283
▁꽃받침	-18284
▁무안군	-18285
▁무인역	-18286
▁버밍엄	-18287
▁아르카	-18288
▁양서류	-18289
▁프로파	-18290
▁호위함	-18291
▁벌어들이	-18292
▁사다하루	-18293
▁생제르맹	-18294
▁속씨식물	-18295
▁크래프트	-18296
▁콘스탄티노플	-18297
▁잣	-18298
노동	-18299
티드	-18300
▁CT	-18301
▁FN	-18302
▁갑판	-18303
▁강물	-18304
▁구면	-18305
▁메트	-18306
▁방과	-18307
▁사구	-18308
▁성하	-18309
▁수전	-18310
▁실화	-18311
▁제각	-18312
핵생물	-18313
▁에르난	-18314
▁중생대	-18315
▁경향신문	-18316
▁도네츠크	-18317
be	-18318
▁옅	-18319
경궁	-18320
바타	-18321
방식	-18322
이다	-18323
하워	-18324
vis	-18325
▁교우	-18326
▁매너	-18327
▁부름	-18328
▁부응	-18329
▁북제	-18330
▁비고	-18331
▁선방	-18332
▁에타	-18333
▁연작	-18334
▁월급	-18335
▁으라	-18336
▁친숙	-18337
▁회중	-18338
▁후신	-18339
▁그려지	-18340
▁끊어지	-18341
▁레프트	-18342
▁성동구	-18343
▁조나단	-18344
▁중학생	-18345
▁지원자	-18346
▁한마디	-18347
ement	-18348
▁퍼레이드	-18349
▁아이젠하워	-18350
▁빽	-18351
oup	-18352
▁관서	-18353
▁구보	-18354
▁근연	-18355
▁노던	-18356
▁도금	-18357
▁셰프	-18358
▁수뇌	-18359
▁슬럼	-18360
▁식료	-18361
▁신재	-18362
▁실황	-18363
▁음색	-18364
▁출소	-18365
▁희박	-18366
즐랜드	-18367
▁212	-18368
▁동인도	-18369
▁브리트	-18370
▁점성가	-18371
▁찻	-18372
귀비	-18373
팔렌	-18374
하트	-18375
▁EN	-18376
▁FX	-18377
▁ㄴ대	-18378
▁박인	-18379
▁예견	-18380
▁완투	-18381
▁우쓰	-18382
▁원망	-18383
▁장영	-18384
▁제법	-18385
▁플뢰	-18386
▁히브	-18387
▁233	-18388
▁게이초	-18389
▁관악구	-18390
▁부끄럽	-18391
▁재판장	-18392
▁좀처럼	-18393
▁퀸즐랜드	-18394
▁귀향	-18395
▁능통	-18396
▁벨레	-18397
▁불펜	-18398
▁색인	-18399
▁서하	-18400
▁아만	-18401
▁여태	-18402
▁오에	-18403
▁은둔	-18404
▁필살	-18405
▁해동	-18406
▁호감	-18407
▁경영진	-18408
▁분화구	-18409
▁상류층	-18410
▁앵글로	-18411
▁유목민	-18412
▁잎자루	-18413
▁1847	-18414
▁Like	-18415
▁다운타운	-18416
▁천주교회	-18417
▁히로시마현	-18418
▁뚝	-18419
▁즌	-18420
노헤	-18421
▁고작	-18422
▁국물	-18423
▁김호	-18424
▁남짓	-18425
▁독려	-18426
▁따내	-18427
▁보두	-18428
▁요트	-18429
▁윤상	-18430
▁장터	-18431
▁Bar	-18432
▁음악회	-18433
▁이스턴	-18434
▁최적화	-18435
▁퀘스트	-18436
▁현저히	-18437
▁황갈색	-18438
▁LOVE	-18439
▁도쿠시마	-18440
▁루키우스	-18441
▁뱀파이어	-18442
▁필리포스	-18443
▁롬바르디아	-18444
에어	-18445
▁EF	-18446
▁고질	-18447
▁고타	-18448
▁나니	-18449
▁망상	-18450
▁수난	-18451
▁수찬	-18452
▁쑨원	-18453
▁점심	-18454
▁차가	-18455
▁청진	-18456
▁팔각	-18457
▁품계	-18458
하이머	-18459
▁개찰기	-18460
▁세례명	-18461
▁에버턴	-18462
▁옹진군	-18463
▁플랜트	-18464
▁현악기	-18465
▁옥타비아	-18466
▁콘티넨털	-18467
개명	-18468
▁기치	-18469
▁대파	-18470
▁마조	-18471
▁미일	-18472
▁박주	-18473
▁신숙	-18474
▁이계	-18475
▁릴리스	-18476
▁베이컨	-18477
▁올빼미	-18478
▁시트르산	-18479
▁프리랜서	-18480
▁Sound	-18481
▁똥	-18482
비어	-18483
way	-18484
▁OC	-18485
▁강압	-18486
▁경감	-18487
▁과천	-18488
▁버블	-18489
▁안젤	-18490
▁연일	-18491
▁최재	-18492
▁쾌락	-18493
▁학점	-18494
▁황성	-18495
▁강아지	-18496
▁김포시	-18497
▁다각형	-18498
▁이베이	-18499
▁저술가	-18500
▁핵연료	-18501
▁레인보우	-18502
▁은행나무	-18503
▁Light	-18504
▁안티고노스	-18505
오세	-18506
▁NK	-18507
▁es	-18508
▁mg	-18509
▁가봉	-18510
▁공물	-18511
▁기노	-18512
▁나팔	-18513
▁냉동	-18514
▁마로	-18515
▁미신	-18516
▁밀턴	-18517
▁슬롯	-18518
▁야채	-18519
▁약국	-18520
▁영해	-18521
▁오목	-18522
▁유위	-18523
▁조만	-18524
▁주술	-18525
▁지드	-18526
▁초중	-18527
▁포리	-18528
▁회군	-18529
▁더구나	-18530
▁브룩스	-18531
▁생태학	-18532
▁유학생	-18533
▁인슐린	-18534
▁하얼빈	-18535
▁Over	-18536
▁옵티머스	-18537
▁버지니아주	-18538
WS	-18539
▁읊	-18540
▁젓	-18541
랄라	-18542
▁UK	-18543
▁골자	-18544
▁관사	-18545
▁궁금	-18546
▁낙인	-18547
▁마누	-18548
▁발화	-18549
▁수작	-18550
▁연사	-18551
▁왈라	-18552
▁음소	-18553
▁파니	-18554
리오카	-18555
▁221	-18556
▁뇌졸중	-18557
▁Sing	-18558
▁뿌	-18559
▁계명	-18560
▁궤멸	-18561
▁베레	-18562
▁서간	-18563
▁송금	-18564
▁신예	-18565
▁외화	-18566
▁우성	-18567
▁진과	-18568
▁차드	-18569
▁클론	-18570
▁푸시	-18571
▁호러	-18572
▁후각	-18573
자위대	-18574
ouse	-18575
▁Red	-18576
▁가오슝	-18577
▁레슬리	-18578
▁미망인	-18579
▁세일러	-18580
▁수류탄	-18581
▁중대장	-18582
▁편의점	-18583
▁해적단	-18584
루트	-18585
야구	-18586
임수	-18587
타바	-18588
▁강수	-18589
▁동족	-18590
▁라피	-18591
▁삼가	-18592
▁스벤	-18593
▁슬퍼	-18594
▁쓰가	-18595
▁자력	-18596
▁주어	-18597
▁커크	-18598
▁혈청	-18599
▁회기	-18600
▁Sec	-18601
▁탈수소	-18602
브레히트	-18603
▁가이우스	-18604
▁계몽주의	-18605
▁시라카와	-18606
▁카리브해	-18607
색슨	-18608
워키	-18609
▁계략	-18610
▁고부	-18611
▁명품	-18612
▁보현	-18613
▁비약	-18614
▁색조	-18615
▁신빙	-18616
▁추월	-18617
▁콕스	-18618
▁한류	-18619
▁나뭇잎	-18620
▁리히텐	-18621
▁배상금	-18622
▁세포막	-18623
▁정보국	-18624
▁1100	-18625
▁브래들리	-18626
▁창씨개명	-18627
▁앵글로색슨	-18628
거슨	-18629
시간	-18630
옹주	-18631
▁고해	-18632
▁굴리	-18633
▁나츠	-18634
▁선지	-18635
▁아워	-18636
▁앙주	-18637
▁유주	-18638
▁혹평	-18639
대주의	-18640
ason	-18641
▁231	-18642
▁Eng	-18643
▁여름철	-18644
▁유가족	-18645
▁참가국	-18646
▁카이저	-18647
▁피스톤	-18648
▁1844	-18649
▁동명이인	-18650
▁네덜란드인	-18651
▁즙	-18652
▁JS	-18653
▁ac	-18654
▁그랜	-18655
▁다키	-18656
▁동천	-18657
▁마왕	-18658
▁안구	-18659
▁업소	-18660
▁울음	-18661
▁크릭	-18662
▁판별	-18663
▁하체	-18664
하이드	-18665
▁산화물	-18666
▁곤살레스	-18667
▁사회단체	-18668
▁요코스카	-18669
▁갑상	-18670
▁과수	-18671
▁미약	-18672
▁비니	-18673
▁식년	-18674
▁오경	-18675
▁이등	-18676
▁장현	-18677
▁적시	-18678
▁정구	-18679
▁청풍	-18680
▁타코	-18681
▁티나	-18682
▁정착민	-18683
▁조교수	-18684
▁랜드마크	-18685
▁알레산드로	-18686
aj	-18687
프슨	-18688
iet	-18689
▁RO	-18690
▁간편	-18691
▁레딧	-18692
▁미오	-18693
▁아론	-18694
▁이도	-18695
▁재야	-18696
▁쟁취	-18697
▁정연	-18698
▁취락	-18699
▁토토	-18700
▁해류	-18701
▁갑각류	-18702
▁박격포	-18703
▁정찰기	-18704
▁평창군	-18705
▁하루카	-18706
▁1837	-18707
▁오를레앙	-18708
▁민속문화재	-18709
▁꽁	-18710
코로	-18711
▁TA	-18712
▁균류	-18713
▁맨틀	-18714
▁봉산	-18715
▁부결	-18716
▁북진	-18717
▁삼부	-18718
▁숙고	-18719
▁실바	-18720
▁어음	-18721
▁요안	-18722
▁원판	-18723
▁유루	-18724
▁정태	-18725
▁390	-18726
▁Net	-18727
▁반대쪽	-18728
▁발자국	-18729
▁콘셉트	-18730
▁프로필	-18731
▁현급시	-18732
▁후견인	-18733
▁개인주의	-18734
▁포리스트	-18735
▁삼국지연의	-18736
쿠로	-18737
red	-18738
▁교착	-18739
▁그람	-18740
▁북단	-18741
▁비명	-18742
▁폐간	-18743
▁독립성	-18744
▁부사관	-18745
▁예배당	-18746
▁자신감	-18747
보레	-18748
▁광종	-18749
▁면접	-18750
▁벙커	-18751
▁아저	-18752
▁운문	-18753
▁체온	-18754
▁카오	-18755
▁토사	-18756
▁판도	-18757
베를린	-18758
▁슬퍼하	-18759
▁화순군	-18760
▁북베트남	-18761
▁아시리아	-18762
▁오렌지색	-18763
▁뜰	-18764
교동	-18765
니언	-18766
승람	-18767
오밍	-18768
헤치	-18769
▁RD	-18770
▁디어	-18771
▁무방	-18772
▁바예	-18773
▁선승	-18774
▁수유	-18775
▁열등	-18776
▁오데	-18777
▁윤회	-18778
▁이서	-18779
▁전륜	-18780
▁주청	-18781
▁코노	-18782
▁탄화	-18783
▁테츠	-18784
▁합방	-18785
슈타트	-18786
▁Har	-18787
▁가야금	-18788
▁비스트	-18789
▁아저씨	-18790
▁환경부	-18791
고도	-18792
소시	-18793
▁Pa	-18794
▁걸즈	-18795
▁고군	-18796
▁담화	-18797
▁만경	-18798
▁반증	-18799
▁여순	-18800
▁우미	-18801
▁유예	-18802
▁유흥	-18803
▁청렴	-18804
▁친형	-18805
▁호라	-18806
▁흡혈	-18807
▁히치	-18808
정대부	-18809
▁228	-18810
▁목판본	-18811
▁미스트	-18812
▁밀워키	-18813
▁서산시	-18814
▁연장선	-18815
▁프런트	-18816
▁트레이너	-18817
슈티	-18818
실론	-18819
ana	-18820
ric	-18821
▁경학	-18822
▁김응	-18823
▁다방	-18824
▁도핑	-18825
▁성직	-18826
▁송병	-18827
▁알현	-18828
▁예우	-18829
▁자니	-18830
▁장엄	-18831
▁치타	-18832
▁패미	-18833
▁도지사	-18834
▁제작소	-18835
▁글래스고	-18836
▁강판	-18837
▁개년	-18838
▁노년	-18839
▁노시	-18840
▁반민	-18841
▁반원	-18842
▁생김	-18843
▁악하	-18844
▁익주	-18845
▁일직	-18846
▁총지	-18847
▁프롬	-18848
▁한옥	-18849
자동차	-18850
echn	-18851
▁950	-18852
▁fun	-18853
▁앞당기	-18854
▁케네스	-18855
▁테레사	-18856
▁헤아리	-18857
개석	-18858
호크	-18859
▁ro	-18860
▁거장	-18861
▁나방	-18862
▁린치	-18863
▁말러	-18864
▁상석	-18865
▁성녀	-18866
▁성왕	-18867
▁영흥	-18868
▁의금	-18869
▁정순	-18870
[...]
