[PAD]	0
[UNK]	0
[BOS]	0
[EOS]	0
[CLS]	0
[SEP]	0
[MASK]	0
▁이	-0
▁1	-1
으로	-2
에서	-3
▁있	-4
▁2	-5
▁그	-6
▁대	-7
▁사	-8
이다	-9
었다	-10
▁수	-11
▁지	-12
▁시	-13
▁가	-14
▁20	-15
▁아	-16
▁전	-17
▁기	-18
▁하	-19
▁19	-20
▁있다	-21
▁다	-22
▁제	-23
했다	-24
하였	-25
▁일	-26
▁한	-27
▁정	-28
▁중	-29
▁주	-30
▁자	-31
하는	-32
▁것	-33
▁인	-34
▁공	-35
▁경	-36
되었다	-37
▁유	-38
▁위	-39
▁보	-40
하고	-41
▁부	-42
▁등	-43
하였다	-44
▁조	-45
▁3	-46
하여	-47
▁미	-48
▁동	-49
▁선	-50
▁나	-51
▁마	-52
▁모	-53
으며	-54
▁연	-55
▁오	-56
▁영	-57
▁의	-58
▁발	-59
▁소	-60
에는	-61
▁고	-62
▁201	-63
한다	-64
▁세	-65
▁개	-66
▁스	-67
▁구	-68
▁비	-69
▁국	-70
▁도	-71
▁상	-72
▁서	-73
▁후	-74
▁여	-75
▁때	-76
▁200	-77
▁해	-78
▁관	-79
▁성	-80
▁프	-81
▁신	-82
▁대한	-83
▁있는	-84
▁4	-85
부터	-86
▁방	-87
▁"	-88
▁바	-89
지만	-90
▁5	-91
▁역	-92
▁만	-93
▁않	-94
▁또	-95
되어	-96
▁무	-97
▁장	-98
▁통	-99
▁남	-100
까지	-101
▁내	-102
▁교	-103
에게	-104
▁현	-105
▁같	-106
▁문	-107
학교	-108
▁포	-109
▁우	-110
▁출	-111
▁거	-112
▁결	-113
적인	-114
적으로	-115
된다	-116
▁진	-117
▁불	-118
이라	-119
▁최	-120
▁원	-121
▁생	-122
국의	-123
▁어	-124
▁작	-125
▁노	-126
▁알	-127
▁강	-128
▁당	-129
▁6	-130
▁반	-131
▁파	-132
▁따	-133
▁10	-134
▁계	-135
▁리	-136
▁분	-137
들이	-138
▁받	-139
▁없	-140
면서	-141
▁말	-142
▁사용	-143
년에	-144
▁실	-145
▁두	-146
되었	-147
들은	-148
▁'	-149
▁에	-150
▁단	-151
▁배	-152
에서는	-153
▁명	-154
▁이후	-155
▁7	-156
▁함	-157
하기	-158
▁예	-159
▁안	-160
▁8	-161
▁재	-162
▁차	-163
▁로	-164
하게	-165
▁한다	-166
▁설	-167
▁데	-168
▁일본	-169
▁요	-170
▁특	-171
았다	-172
였다	-173
▁카	-174
▁초	-175
▁군	-176
▁종	-177
▁독	-178
▁라	-179
으나	-180
00	-181
▁9	-182
▁추	-183
▁다음	-184
▁그는	-185
▁199	-186
리아	-187
▁감	-188
▁많	-189
▁김	-190
▁활	-191
▁대한민	-192
▁더	-193
스트	-194
▁되었다	-195
▁타	-196
▁및	-197
▁건	-198
▁태	-199
는데	-200
▁입	-201
▁매	-202
▁음	-203
▁다른	-204
▁지역	-205
▁형	-206
▁운	-207
▁참	-208
▁같은	-209
주의	-210
▁양	-211
▁그리	-212
▁올	-213
▁18	-214
▁산	-215
▁위해	-216
▁코	-217
▁평	-218
▁과	-219
이며	-220
▁미국	-221
▁12	-222
▁크	-223
▁행	-224
▁피	-225
or	-226
▁적	-227
들의	-228
▁열	-229
레이	-230
▁프로	-231
▁왕	-232
▁베	-233
▁호	-234
▁시작	-235
▁본	-236
들을	-237
들어	-238
▁때문	-239
▁승	-240
▁북	-241
▁목	-242
▁번	-243
▁화	-244
▁총	-245
라는	-246
기도	-247
되는	-248
▁회	-249
▁따라	-250
▁또한	-251
▁그러	-252
▁임	-253
하며	-254
▁함께	-255
▁각	-256
▁사람	-257
▁변	-258
▁외	-259
▁S	-260
▁표	-261
▁처	-262
▁11	-263
▁속	-264
▁달	-265
▁물	-266
▁자신	-267
la	-268
시아	-269
라고	-270
▁경우	-271
▁민	-272
이나	-273
▁직	-274
▁새	-275
▁약	-276
▁학	-277
▁드	-278
▁간	-279
▁선수	-280
하지	-281
▁그의	-282
▁영화	-283
▁게	-284
▁현재	-285
▁집	-286
▁세계	-287
기에	-288
▁메	-289
▁한국	-290
▁기록	-291
▁f	-292
▁저	-293
▁A	-294
▁이름	-295
▁198	-296
하다	-297
▁가장	-298
▁당시	-299
▁사이	-300
▁존	-301
기를	-302
▁하나	-303
▁항	-304
▁위치	-305
되고	-306
에도	-307
▁때문에	-308
▁체	-309
▁점	-310
▁것을	-311
▁레	-312
스의	-313
▁그러나	-314
▁확	-315
▁박	-316
▁국가	-317
스는	-318
리는	-319
▁토	-320
▁F	-321
▁뒤	-322
()	-323
▁M	-324
▁것으로	-325
▁했다	-326
▁브	-327
▁C	-328
▁청	-329
▁조선	-330
▁for	-331
mu	-332
▁있으며	-333
▁축	-334
▁투	-335
▁있었다	-336
▁복	-337
▁의해	-338
▁필	-339
▁것이	-340
mula	-341
일에	-342
이라고	-343
▁천	-344
▁광	-345
▁formula	-346
지는	-347
▁된다	-348
▁못	-349
▁활동	-350
▁야	-351
▁디	-352
▁그리고	-353
▁통해	-354
▁또는	-355
▁삼	-356
▁법	-357
▁합	-358
졌다	-359
▁프랑	-360
▁증	-361
▁철	-362
▁판	-363
▁금	-364
▁T	-365
▁창	-366
▁치	-367
했고	-368
▁근	-369
▁15	-370
▁편	-371
등학교	-372
▁버	-373
▁언	-374
▁살	-375
▁대한민국	-376
▁많은	-377
▁첫	-378
리를	-379
▁것이다	-380
▁심	-381
▁197	-382
▁돌	-383
▁트	-384
▁플	-385
랜드	-386
▁들어	-387
▁아니	-388
▁충	-389
▁16	-390
▁경기	-391
이라는	-392
▁황	-393
▁페	-394
하면서	-395
▁높	-396
▁애	-397
하였고	-398
▁쓰	-399
▁하는	-400
사를	-401
▁다음과	-402
▁네	-403
▁가지	-404
▁할	-405
▁다시	-406
는다	-407
▁대해	-408
▁완	-409
▁서울	-410
▁있었	-411
▁은	-412
이었다	-413
▁루	-414
▁백	-415
▁포함	-416
▁여러	-417
▁뜻	-418
▁17	-419
대로	-420
상을	-421
이는	-422
▁196	-423
▁병	-424
▁사회	-425
▁되	-426
로서	-427
▁연구	-428
er	-429
▁시즌	-430
▁패	-431
▁클	-432
개의	-433
▁팀	-434
▁순	-435
▁용	-436
▁큰	-437
이고	-438
▁독일	-439
20	-440
▁죽	-441
▁K	-442
되었고	-443
▁모두	-444
▁권	-445
▁B	-446
보다	-447
장을	-448
▁하였다	-449
in	-450
성을	-451
▁D	-452
▁히	-453
▁대한민국의	-454
위를	-455
라이	-456
▁모든	-457
▁I	-458
지를	-459
▁채	-460
▁중국	-461
회의	-462
▁194	-463
▁취	-464
▁규	-465
▁아이	-466
▁친	-467
▁일부	-468
▁처음	-469
▁알려	-470
니아	-471
▁정부	-472
▁전쟁	-473
자가	-474
▁이루	-475
▁감독	-476
이었	-477
▁축구	-478
대의	-479
▁테	-480
▁식	-481
▁위한	-482
▁등이	-483
▁대표	-484
▁제작	-485
▁도시	-486
리에	-487
▁-	-488
▁14	-489
년부터	-490
▁등의	-491
lt	-492
했으며	-493
도의	-494
▁뉴	-495
▁배우	-496
▁손	-497
▁허	-498
▁이용	-499
▁정치	-500
▁자신의	-501
▁끝	-502
도로	-503
▁존재	-504
▁영국	-505
년에는	-506
력을	-507
▁있어	-508
gt	-509
▁구성	-510
▁월	-511
▁이상	-512
▁이어	-513
부분	-514
▁리그	-515
거나	-516
▁논	-517
▁길	-518
이자	-519
▁문제	-520
▁것은	-521
▁동안	-522
▁러	-523
▁프랑스	-524
▁일반	-525
▁P	-526
▁즉	-527
▁작품	-528
▁13	-529
리스	-530
km	-531
나라	-532
on	-533
시에	-534
▁온	-535
▁앞	-536
▁환	-537
▁나타	-538
▁캐	-539
▁가능	-540
기의	-541
▁&	-542
▁195	-543
▁개발	-544
▁이러	-545
▁맡	-546
▁L	-547
▁국제	-548
▁걸	-549
▁이러한	-550
▁준	-551
▁인구	-552
▁같다	-553
▁맞	-554
▁새로	-555
▁미국의	-556
▁중심	-557
로는	-558
통령	-559
년대	-560
▁접	-561
▁주장	-562
기는	-563
▁발견	-564
▁협	-565
▁게임	-566
▁갖	-567
다는	-568
▁이는	-569
▁곳	-570
▁향	-571
▁밀	-572
군의	-573
▁사건	-574
들과	-575
▁발표	-576
▁농	-577
▁하지만	-578
도록	-579
▁검	-580
위원	-581
▁등을	-582
리가	-583
사가	-584
자의	-585
▁별	-586
다고	-587
되었으며	-588
하면	-589
림픽	-590
▁볼	-591
000	-592
시키	-593
▁U	-594
서는	-595
리카	-596
▁방송	-597
로부터	-598
기가	-599
▁잘	-600
▁되어	-601
▁G	-602
▁대부분	-603
▁전투	-604
▁대회	-605
▁영향	-606
▁N	-607
▁폭	-608
▁키	-609
▁2010	-610
▁귀	-611
▁번째	-612
▁음악	-613
월에	-614
an	-615
리그	-616
▁육	-617
스를	-618
▁이를	-619
이트	-620
▁문화	-621
정을	-622
▁밝	-623
에서도	-624
▁지방	-625
▁대통령	-626
▁담	-627
▁사망	-628
▁섬	-629
났다	-630
▁공격	-631
▁홍	-632
▁막	-633
▁하고	-634
▁대학	-635
▁우승	-636
인의	-637
명의	-638
란드	-639
자는	-640
년까지	-641
하였으며	-642
▁의미	-643
했던	-644
성이	-645
-1	-646
▁193	-647
▁R	-648
▁30	-649
▁참여	-650
▁석	-651
자를	-652
▁발생	-653
▁극	-654
들에게	-655
▁효	-656
▁얻	-657
▁진행	-658
▁결과	-659
▁최초	-660
어진	-661
▁프로그	-662
도를	-663
▁H	-664
▁관련	-665
세기	-666
▁관계	-667
▁특히	-668
▁앨	-669
▁날	-670
▁역사	-671
리의	-672
▁와	-673
▁이에	-674
▁줄	-675
스가	-676
▁태어	-677
▁블	-678
▁E	-679
▁곡	-680
와의	-681
▁면	-682
▁경제	-683
▁유럽	-684
쪽으로	-685
디오	-686
▁헤	-687
▁설립	-688
▁설치	-689
▁절	-690
▁일어	-691
▁올림픽	-692
▁선거	-693
▁위치한	-694
▁책	-695
▁다양	-696
자로	-697
▁갈	-698
▁발매	-699
대를	-700
스터	-701
▁봉	-702
르는	-703
▁암	-704
▁글	-705
▁된	-706
드는	-707
▁[	-708
▁그녀	-709
▁2008	-710
렸다	-711
▁새로운	-712
▁러시아	-713
▁독립	-714
▁이전	-715
▁만들어	-716
▁생각	-717
▁인해	-718
이스	-719
요한	-720
▁엔	-721
▁폐	-722
▁형태	-723
▁사실	-724
▁시간	-725
▁자유	-726
▁측	-727
▁교육	-728
▁같이	-729
▁부분	-730
▁좋	-731
▁질	-732
원을	-733
▁받았다	-734
▁소속	-735
가지	-736
▁커	-737
도는	-738
▁받아	-739
▁참가	-740
▁이것	-741
식을	-742
▁니	-743
▁기술	-744
번째	-745
▁2011	-746
▁머	-747
사의	-748
▁중앙	-749
므로	-750
▁범	-751
▁이탈	-752
▁침	-753
en	-754
▁2012	-755
과의	-756
▁로마	-757
▁슈	-758
화국	-759
▁출신	-760
▁주로	-761
▁누	-762
▁있고	-763
▁프로그램	-764
▁골	-765
▁2009	-766
▁결정	-767
▁계속	-768
▁2007	-769
▁수도	-770
▁송	-771
인이	-772
▁탈	-773
▁잡	-774
▁탄	-775
▁W	-776
▁음반	-777
▁벌	-778
부의	-779
전을	-780
▁구조	-781
▁성공	-782
▁2014	-783
▁등장	-784
사는	-785
▁상태	-786
▁매우	-787
▁데뷔	-788
▁운영	-789
대학교	-790
▁기준	-791
리즈	-792
학자	-793
라마	-794
르크	-795
▁난	-796
프트	-797
▁있던	-798
명을	-799
ar	-800
▁타이	-801
▁혼	-802
he	-803
다가	-804
비아	-805
▁않았다	-806
▁,	-807
▁케	-808
▁넘	-809
기로	-810
▁아버	-811
▁2013	-812
▁생산	-813
▁가지고	-814
▁몇	-815
▁지정	-816
으로서	-817
▁고려	-818
▁이탈리아	-819
▁쿠	-820
대에	-821
▁아니라	-822
장이	-823
▁0	-824
▁악	-825
▁25	-826
▁터	-827
▁급	-828
이션	-829
▁돌아	-830
▁찾	-831
▁운동	-832
도가	-833
▁차지	-834
이지	-835
▁191	-836
▁아들	-837
▁윤	-838
하기도	-839
▁들	-840
▁싱	-841
처럼	-842
▁만들	-843
스타	-844
▁라이	-845
▁일본의	-846
에서의	-847
▁여성	-848
,000	-849
왔다	-850
▁2018	-851
▁해당	-852
군은	-853
우스	-854
▁결국	-855
▁2015	-856
했지만	-857
▁100	-858
해서	-859
▁없는	-860
▁없다	-861
▁최고	-862
되지	-863
▁2016	-864
▁조직	-865
▁폴	-866
▁한편	-867
▁계획	-868
es	-869
▁따르	-870
권을	-871
▁팔	-872
명이	-873
▁업	-874
▁전체	-875
▁출연	-876
▁데이	-877
FA	-878
하자	-879
화를	-880
▁떨	-881
수를	-882
사로	-883
원의	-884
▁않고	-885
▁주요	-886
▁아래	-887
간의	-888
▁이유	-889
운데	-890
▁스타	-891
수의	-892
▁2006	-893
▁지원	-894
냈다	-895
▁많이	-896
▁행정	-897
▁192	-898
▁방법	-899
▁좌	-900
일부터	-901
▁제공	-902
▁떠	-903
▁국민	-904
스크	-905
▁21	-906
▁둘	-907
▁내용	-908
▁앨범	-909
스템	-910
인민	-911
장은	-912
▁2017	-913
지의	-914
남도	-915
▁콘	-916
▁다양한	-917
나는	-918
▁역할	-919
스와	-920
▁힘	-921
초등학교	-922
▁월드	-923
▁빠	-924
▁유명	-925
▁대학교	-926
▁남아	-927
▁후보	-928
으로써	-929
선의	-930
▁스페	-931
▁O	-932
at	-933
음을	-934
장으로	-935
▁마이	-936
▁칼	-937
▁엘	-938
▁가운데	-939
▁묘	-940
▁몸	-941
_1	-942
자인	-943
▁인터	-944
am	-945
▁하여	-946
▁J	-947
▁헌	-948
지가	-949
▁거의	-950
▁잠	-951
진다	-952
부에	-953
▁출전	-954
대학	-955
어로	-956
▁빌	-957
가는	-958
▁이루어	-959
스로	-960
▁모습	-961
전에	-962
지에	-963
대표	-964
▁컴	-965
였던	-966
했으나	-967
▁않는다	-968
▁열린	-969
▁마지	-970
시의	-971
하던	-972
▁표현	-973
▁수상	-974
▁각각	-975
수가	-976
민주	-977
리고	-978
▁바이	-979
▁얼	-980
성의	-981
점을	-982
인다	-983
al	-984
원이	-985
됐다	-986
▁t	-987
▁드라마	-988
하려	-989
▁격	-990
머니	-991
운동	-992
▁공식	-993
▁영향을	-994
사에	-995
▁24	-996
▁졸	-997
위원회	-998
▁따르면	-999
▁연결	-1000
원은	-1001
▁이미	-1002
으로부터	-1003
▁필요	-1004
▁과정	-1005
▁2019	-1006
제로	-1007
▁높은	-1008
▁능	-1009
▁따라서	-1010
▁레이	-1011
▁진출	-1012
어를	-1013
▁마지막	-1014
▁시리즈	-1015
이가	-1016
▁이름을	-1017
니다	-1018
▁정보	-1019
▁임명	-1020
▁붙	-1021
▁알려져	-1022
▁몰	-1023
력이	-1024
▁공개	-1025
제를	-1026
▁2005	-1027
▁작은	-1028
어는	-1029
▁인정	-1030
▁직접	-1031
▁시스템	-1032
으로는	-1033
▁보고	-1034
ic	-1035
▁23	-1036
시켰	-1037
었고	-1038
▁22	-1039
▁경상	-1040
▁녹	-1041
텔레	-1042
치는	-1043
상의	-1044
▁쇼	-1045
인은	-1046
▁뛰	-1047
▁자연	-1048
문화	-1049
▁지구	-1050
▁센	-1051
▁인도	-1052
▁이야	-1053
▁민주	-1054
BS	-1055
▁개최	-1056
이드	-1057
군이	-1058
▁대전	-1059
해야	-1060
▁추가	-1061
▁2000	-1062
대한	-1063
▁평가	-1064
▁대신	-1065
▁풍	-1066
▁상황	-1067
▁기능	-1068
▁퍼	-1069
지고	-1070
21	-1071
▁유지	-1072
▁생활	-1073
▁프리	-1074
▁항공	-1075
▁울	-1076
▁브라	-1077
▁않은	-1078
▁눈	-1079
▁오스트	-1080
▁2004	-1081
▁활약	-1082
▁보여	-1083
▁그룹	-1084
대는	-1085
위에	-1086
▁먹	-1087
▁밴	-1088
들에	-1089
▁그리스	-1090
인을	-1091
▁아르	-1092
▁정의	-1093
대가	-1094
수는	-1095
▁그가	-1096
선을	-1097
▁가리	-1098
전에서	-1099
▁티	-1100
갔다	-1101
▁되는	-1102
르트	-1103
▁홈	-1104
▁제국	-1105
수로	-1106
▁관한	-1107
▁핵	-1108
▁그것	-1109
▁압	-1110
물을	-1111
▁발전	-1112
▁있는데	-1113
▁졸업	-1114
▁후에	-1115
부를	-1116
▁FC	-1117
is	-1118
트로	-1119
it	-1120
▁정도	-1121
▁노래	-1122
▁크게	-1123
▁서로	-1124
부는	-1125
비전	-1126
▁여자	-1127
▁비롯	-1128
북도	-1129
▁시절	-1130
▁않았	-1131
▁응	-1132
세의	-1133
▁중요한	-1134
▁결혼	-1135
▁변경	-1136
있다	-1137
인민공	-1138
▁부산	-1139
▁학교	-1140
▁역시	-1141
re	-1142
10	-1143
▁말한다	-1144
지로	-1145
▁모델	-1146
▁28	-1147
계를	-1148
업을	-1149
원으로	-1150
레스	-1151
▁희	-1152
▁이론	-1153
ou	-1154
▁26	-1155
▁낮	-1156
▁형성	-1157
문을	-1158
▁건설	-1159
▁190	-1160
▁뿐	-1161
]]	-1162
일까지	-1163
치를	-1164
▁공동	-1165
▁워	-1166
전히	-1167
식으로	-1168
▁V	-1169
▁나라	-1170
프리카	-1171
▁철도	-1172
▁2020	-1173
▁일으	-1174
▁관리	-1175
리오	-1176
▁분류	-1177
▁27	-1178
주는	-1179
▁요구	-1180
▁거쳐	-1181
▁뜻은	-1182
▁[[	-1183
▁기업	-1184
제가	-1185
▁군사	-1186
▁하였	-1187
▁지금	-1188
▁가진	-1189
회를	-1190
장의	-1191
▁시작했다	-1192
▁현대	-1193
임을	-1194
▁연합	-1195
▁플레이	-1196
광역	-1197
군을	-1198
▁중화	-1199
제의	-1200
▁딸	-1201
되면서	-1202
▁텔레	-1203
상이	-1204
스탄	-1205
▁노동	-1206
▁놓	-1207
▁반대	-1208
▁느	-1209
▁실시	-1210
▁색	-1211
▁경기도	-1212
▁사이에	-1213
▁않는	-1214
▁비판	-1215
성은	-1216
▁원래	-1217
▁기원	-1218
▁콜	-1219
드의	-1220
▁목록	-1221
▁만든	-1222
나다	-1223
▁동시에	-1224
le	-1225
특별	-1226
▁이르	-1227
▁싱글	-1228
▁어떤	-1229
▁혹	-1230
▁건물	-1231
키는	-1232
▁시대	-1233
▁전통	-1234
▁푸	-1235
▁기본	-1236
▁긴	-1237
▁계약	-1238
▁지도	-1239
과는	-1240
▁사랑	-1241
▁2002	-1242
트는	-1243
이의	-1244
▁학생	-1245
▁맥	-1246
장에	-1247
▁웨	-1248
▁야구	-1249
▁잉	-1250
▁역할을	-1251
상으로	-1252
▁휴	-1253
른다	-1254
이었던	-1255
▁상대	-1256
▁지역의	-1257
▁지하	-1258
하였으나	-1259
▁민족	-1260
▁아닌	-1261
▁자동	-1262
▁판매	-1263
▁개인	-1264
▁인물	-1265
드로	-1266
▁겸	-1267
자와	-1268
▁있다고	-1269
▁빈	-1270
▁샤	-1271
관은	-1272
▁위하여	-1273
정한	-1274
▁싸	-1275
하는데	-1276
▁소련	-1277
드를	-1278
▁2003	-1279
▁벨	-1280
▁기간	-1281
단의	-1282
▁특징	-1283
▁기반	-1284
▁망	-1285
▁인간	-1286
되며	-1287
."	-1288
▁초기	-1289
서를	-1290
체의	-1291
▁이동	-1292
▁처음으로	-1293
이를	-1294
군에	-1295
19	-1296
소를	-1297
▁최초의	-1298
▁전국	-1299
▁기타	-1300
▁수행	-1301
▁서비	-1302
▁승강	-1303
명은	-1304
▁견	-1305
▁그래	-1306
▁50	-1307
있는	-1308
▁혁	-1309
▁여기	-1310
▁~	-1311
▁운행	-1312
▁종교	-1313
이기도	-1314
▁도쿄	-1315
▁퇴	-1316
▁다이	-1317
▁교황	-1318
▁엄	-1319
▁의한	-1320
▁전문	-1321
장에서	-1322
▁29	-1323
구의	-1324
▁특별	-1325
▁이때	-1326
▁공간	-1327
▁정책	-1328
트를	-1329
▁도입	-1330
▁있을	-1331
호를	-1332
▁보통	-1333
트의	-1334
▁슬	-1335
명이다	-1336
▁개의	-1337
오는	-1338
격을	-1339
적을	-1340
린다	-1341
했는데	-1342
▁기준으로	-1343
▁궁	-1344
▁전라	-1345
▁월드컵	-1346
피언	-1347
▁기존	-1348
가와	-1349
체를	-1350
독교	-1351
시마	-1352
▁제외	-1353
▁달리	-1354
▁31	-1355
▁이끌	-1356
역이다	-1357
▁지나	-1358
혔다	-1359
▁과학	-1360
▁넓	-1361
▁마을	-1362
▁훈	-1363
리와	-1364
▁옮	-1365
▁출시	-1366
회는	-1367
▁명칭	-1368
▁비슷	-1369
50	-1370
고등학교	-1371
▁탑	-1372
호는	-1373
카이	-1374
▁하며	-1375
리로	-1376
무를	-1377
▁바로	-1378
▁애니	-1379
중에	-1380
세는	-1381
▁경기에서	-1382
▁되고	-1383
도에	-1384
연구	-1385
▁국내	-1386
▁될	-1387
▁공연	-1388
스코	-1389
스에	-1390
어의	-1391
▁어머니	-1392
관을	-1393
▁영화이다	-1394
▁경찰	-1395
▁이적	-1396
▁일반적으로	-1397
▁역임	-1398
호로	-1399
어가	-1400
▁지배	-1401
▁탐	-1402
▁유일	-1403
BC	-1404
▁연방	-1405
의를	-1406
▁과거	-1407
▁텔레비전	-1408
사와	-1409
▁사업	-1410
▁c	-1411
동안	-1412
▁아버지	-1413
▁윌	-1414
▁모양	-1415
▁증가	-1416
▁소설	-1417
마다	-1418
화가	-1419
광역시	-1420
▁있다는	-1421
▁태양	-1422
▁지휘	-1423
▁옥	-1424
위로	-1425
▁혹은	-1426
하지만	-1427
▁비교	-1428
▁컴퓨	-1429
▁뮤	-1430
르게	-1431
▁받은	-1432
시켰다	-1433
제는	-1434
▁FI	-1435
▁주변	-1436
▁보내	-1437
▁배우이다	-1438
▁이것은	-1439
st	-1440
시간	-1441
▁산업	-1442
▁적용	-1443
방송	-1444
▁챔	-1445
▁중심으로	-1446
▁그를	-1447
▁피해	-1448
학과	-1449
▁뉴욕	-1450
▁너	-1451
년의	-1452
.5	-1453
상은	-1454
▁확인	-1455
▁추정	-1456
▁먼	-1457
▁국가대표	-1458
▁흔	-1459
▁풀	-1460
▁받았	-1461
리지	-1462
▁가수	-1463
▁동일	-1464
정에	-1465
▁.	-1466
▁작곡	-1467
▁기독교	-1468
▁행동	-1469
▁기관	-1470
쪽에	-1471
▁1990	-1472
▁환경	-1473
▁지지	-1474
▁가족	-1475
▁건축	-1476
▁착	-1477
▁캐나다	-1478
▁규모	-1479
당의	-1480
▁곧	-1481
▁자기	-1482
단을	-1483
▁설명	-1484
쳤다	-1485
▁2001	-1486
▁통합	-1487
운드	-1488
▁밖	-1489
인으로	-1490
▁숙	-1491
▁때문이다	-1492
▁선정	-1493
-2	-1494
킨다	-1495
▁없이	-1496
체가	-1497
▁낙	-1498
▁염	-1499
▁분야	-1500
▁찾아	-1501
▁가까	-1502
▁클럽	-1503
▁획	-1504
▁앤	-1505
mm	-1506
▁받고	-1507
조의	-1508
▁떨어	-1509
크로	-1510
야마	-1511
경기	-1512
류의	-1513
▁챔피언	-1514
부가	-1515
인민공화국	-1516
하거나	-1517
▁갑	-1518
▁최대	-1519
▁실패	-1520
▁되었고	-1521
▁40	-1522
▁담당	-1523
드리	-1524
종의	-1525
▁어느	-1526
▁오늘	-1527
적은	-1528
단은	-1529
▁자신이	-1530
▁방향	-1531
▁충청	-1532
▁189	-1533
▁대부분의	-1534
원에	-1535
▁득	-1536
▁우주	-1537
▁사고	-1538
▁노선	-1539
▁차량	-1540
기와	-1541
▁활동을	-1542
▁컴퓨터	-1543
▁개념	-1544
▁기념	-1545
▁이런	-1546
▁부르	-1547
▁보호	-1548
▁어린	-1549
.1	-1550
이로	-1551
▁이와	-1552
기관	-1553
▁속하는	-1554
▁올라	-1555
메이션	-1556
▁멤	-1557
▁상당	-1558
▁는	-1559
▁몽	-1560
학적	-1561
▁두고	-1562
30	-1563
성과	-1564
▁이상의	-1565
▁늘	-1566
했다고	-1567
▁대체	-1568
▁TV	-1569
▁윈	-1570
▁방영	-1571
▁베이	-1572
▁스페인	-1573
▁지정되었다	-1574
식은	-1575
나무	-1576
▁있지만	-1577
▁열차	-1578
스카	-1579
움을	-1580
자들은	-1581
▁흑	-1582
▁그녀는	-1583
et	-1584
계의	-1585
▁FIFA	-1586
성에	-1587
치가	-1588
일에는	-1589
▁넣	-1590
▁기원전	-1591
글랜드	-1592
일을	-1593
▁데이터	-1594
el	-1595
▁1,	-1596
메리카	-1597
트리	-1598
면에	-1599
적이	-1600
▁/	-1601
▁태어났다	-1602
세가	-1603
교육	-1604
▁연주	-1605
식의	-1606
▁수록	-1607
▁걸쳐	-1608
▁선출	-1609
시켜	-1610
▁없었다	-1611
ion	-1612
렇게	-1613
▁조지	-1614
▁멤버	-1615
▁부족	-1616
▁위원	-1617
심을	-1618
▁나가	-1619
▁언어	-1620
▁인구는	-1621
트남	-1622
▁대하여	-1623
▁더욱	-1624
▁인천	-1625
▁잔	-1626
식이	-1627
동에	-1628
▁있어서	-1629
▁최종	-1630
호선	-1631
▁선택	-1632
▁있었던	-1633
▁최근	-1634
▁등에	-1635
▁옛	-1636
▁런	-1637
중학교	-1638
겼다	-1639
▁:	-1640
▁땅	-1641
세를	-1642
ing	-1643
▁수는	-1644
▁흐	-1645
▁솔	-1646
▁예정	-1647
▁작가	-1648
▁공산	-1649
했을	-1650
학을	-1651
으면	-1652
▁뛰어	-1653
▁마르	-1654
▁대구	-1655
리에서	-1656
포츠	-1657
▁서울특별	-1658
상에	-1659
역을	-1660
▁애니메이션	-1661
렀다	-1662
▁언급	-1663
▁최초로	-1664
▁결승	-1665
▁도로	-1666
▁크리스	-1667
시는	-1668
▁등으로	-1669
▁1999	-1670
널리	-1671
▁하다	-1672
▁변화	-1673
▁칸	-1674
▁불가	-1675
▁조사	-1676
▁자료	-1677
한다는	-1678
▁동물	-1679
▁시민	-1680
구에	-1681
▁획득	-1682
▁효과	-1683
▁선언	-1684
▁아시아	-1685
▁내려	-1686
▁1998	-1687
ol	-1688
▁평균	-1689
▁하나이다	-1690
▁잉글랜드	-1691
시키는	-1692
▁반응	-1693
프로	-1694
▁이름은	-1695
▁조건	-1696
▁국립	-1697
om	-1698
▁맺	-1699
▁메이	-1700
▁것이라고	-1701
법을	-1702
회에서	-1703
이에	-1704
▁보인다	-1705
▁칭	-1706
▁지역에	-1707
소가	-1708
인이다	-1709
▁어려	-1710
▁우리	-1711
▁지속	-1712
▁1980	-1713
▁북한	-1714
구하고	-1715
▁에너	-1716
정은	-1717
▁그들의	-1718
▁명령	-1719
전은	-1720
▁좋은	-1721
어서	-1722
amp	-1723
▁정당	-1724
스턴	-1725
▁연속	-1726
▁구간	-1727
자들이	-1728
구를	-1729
하도록	-1730
12	-1731
▁예를	-1732
▁이해	-1733
명으로	-1734
▁관할	-1735
▁점령	-1736
▁흥	-1737
난다	-1738
▁을	-1739
개월	-1740
▁선발	-1741
▁물리	-1742
▁유사	-1743
학의	-1744
함으로써	-1745
정이	-1746
라의	-1747
비를	-1748
▁전에	-1749
▁이들은	-1750
▁있게	-1751
소는	-1752
진을	-1753
▁국가대표팀	-1754
▁예술	-1755
▁컨	-1756
▁전기	-1757
▁거주	-1758
덜란드	-1759
▁X	-1760
체는	-1761
만이	-1762
되었으나	-1763
스에서	-1764
정부	-1765
▁m	-1766
▁겨	-1767
▁국회의	-1768
만을	-1769
▁표준	-1770
▁잃	-1771
▁익	-1772
라도	-1773
▁정규	-1774
▁목표	-1775
▁소유	-1776
▁팬	-1777
▁덴	-1778
▁움	-1779
.0	-1780
▁출판	-1781
▁징	-1782
▁고대	-1783
▁입단	-1784
▁이유로	-1785
▁왜	-1786
일랜드	-1787
모토	-1788
년간	-1789
내는	-1790
▁명의	-1791
바이	-1792
▁덕	-1793
▁돈	-1794
관이	-1795
신을	-1796
스티	-1797
▁소비	-1798
▁개봉	-1799
▁밝혔다	-1800
스키	-1801
▁후반	-1802
원에서	-1803
레일	-1804
▁이름으로	-1805
▁대중	-1806
▁모습을	-1807
시대	-1808
메달	-1809
▁페르	-1810
▁교통	-1811
▁세포	-1812
▁영국의	-1813
과에	-1814
▁포르	-1815
▁밤	-1816
▁네덜란드	-1817
▁선수이다	-1818
단이	-1819
웠다	-1820
가의	-1821
▁알렉	-1822
▁전자	-1823
▁사상	-1824
▁쌍	-1825
▁실험	-1826
지와	-1827
회가	-1828
▁휘	-1829
선거	-1830
▁1997	-1831
지방	-1832
.2	-1833
었으며	-1834
▁말했다	-1835
▁불구하고	-1836
베르	-1837
소의	-1838
랐다	-1839
▁사무	-1840
▁강화	-1841
▁웹	-1842
▁o	-1843
▁분석	-1844
나이	-1845
전의	-1846
▁베트남	-1847
▁주민	-1848
인데	-1849
▁드러	-1850
▁깊	-1851
▁액	-1852
60	-1853
이지만	-1854
골을	-1855
▁서울특별시	-1856
베이	-1857
▁제한	-1858
▁믿	-1859
▁홀	-1860
단에	-1861
▁승리	-1862
▁맡았다	-1863
▁Y	-1864
▁조약	-1865
▁시설	-1866
회에	-1867
스테	-1868
지역	-1869
▁거두	-1870
▁씨	-1871
▁사이의	-1872
▁하나의	-1873
금을	-1874
이란	-1875
▁구분	-1876
정의	-1877
로의	-1878
계에	-1879
▁오늘날	-1880
되기	-1881
▁현재는	-1882
▁남자	-1883
▁포함한	-1884
▁1996	-1885
▁사용하는	-1886
▁찬	-1887
버스	-1888
드가	-1889
▁끌	-1890
▁알려진	-1891
당은	-1892
월에는	-1893
러스	-1894
▁육군	-1895
▁1995	-1896
▁분리	-1897
직을	-1898
라스	-1899
▁아프리카	-1900
▁은퇴	-1901
cm	-1902
▁정확	-1903
장과	-1904
▁하지	-1905
▁아직	-1906
▁마음	-1907
민주주의	-1908
▁헌법	-1909
▁제품	-1910
들로	-1911
▁헬	-1912
▁폴란드	-1913
▁그런	-1914
▁이곳	-1915
▁하계	-1916
-0	-1917
형을	-1918
▁실제	-1919
▁핀	-1920
▁경험	-1921
ac	-1922
쪽으로는	-1923
▁그들은	-1924
▁크로	-1925
▁소프트	-1926
부로	-1927
구는	-1928
▁이듬	-1929
전이	-1930
부르크	-1931
▁공화국	-1932
▁방문	-1933
으므로	-1934
▁쓴	-1935
지지	-1936
▁하이	-1937
산을	-1938
월부터	-1939
▁결합	-1940
▁것에	-1941
▁언론	-1942
▁통과	-1943
치고	-1944
▁부여	-1945
▁그림	-1946
▁프로젝	-1947
▁치료	-1948
▁가문	-1949
아의	-1950
▁널리	-1951
▁작업	-1952
시코	-1953
▁하나로	-1954
▁비해	-1955
_2	-1956
우는	-1957
▁이사	-1958
▁공립	-1959
▁광주	-1960
▁괴	-1961
경을	-1962
▁런던	-1963
▁세워	-1964
▁제안	-1965
▁이듬해	-1966
▁완전히	-1967
▁비행	-1968
▁수준	-1969
▁기여	-1970
▁지상	-1971
▁중에	-1972
▁단체	-1973
▁제조	-1974
40	-1975
11	-1976
▁설계	-1977
▁발달	-1978
▁여겨	-1979
가를	-1980
로를	-1981
▁유래	-1982
트가	-1983
주를	-1984
▁요시	-1985
▁꽃	-1986
▁맨	-1987
▁우승을	-1988
▁의하여	-1989
사카	-1990
▁차례	-1991
▁못했다	-1992
▁물질	-1993
르의	-1994
▁주의	-1995
▁the	-1996
▁위에	-1997
인과	-1998
▁펼	-1999
▁UE	-2000
▁공항	-2001
▁불리	-2002
▁요청	-2003
지에서	-2004
▁움직	-2005
선에	-2006
▁아마	-2007
▁성장	-2008
르고	-2009
▁때까지	-2010
배우	-2011
들도	-2012
하의	-2013
구가	-2014
이어	-2015
▁중요	-2016
TV	-2017
루스	-2018
감을	-2019
톨릭	-2020
▁멀	-2021
▁고등학교	-2022
▁등과	-2023
▁188	-2024
▁UEFA	-2025
위가	-2026
▁1970	-2027
▁더불	-2028
▁프랑스의	-2029
▁인터넷	-2030
사에서	-2031
▁1994	-2032
▁사람이	-2033
▁자주	-2034
▁독일의	-2035
▁배치	-2036
스토	-2037
점이	-2038
▁현재의	-2039
▁정도로	-2040
de	-2041
▁나온	-2042
국은	-2043
▁슈퍼	-2044
▁정신	-2045
▁제주	-2046
▁나머	-2047
▁이로	-2048
관으로	-2049
▁스포츠	-2050
▁외국	-2051
▁멸	-2052
▁바탕	-2053
▁더불어	-2054
il	-2055
자리	-2056
▁있도록	-2057
위는	-2058
▁비롯한	-2059
▁마찬	-2060
▁전해	-2061
15	-2062
▁파괴	-2063
▁마찬가지	-2064
도와	-2065
▁갖고	-2066
▁영토	-2067
▁식민	-2068
▁통일	-2069
▁빛	-2070
위의	-2071
▁오래	-2072
▁접근	-2073
▁사라	-2074
▁칠	-2075
▁깨	-2076
조는	-2077
▁경쟁	-2078
▁주연	-2079
▁쉽	-2080
문에	-2081
▁확장	-2082
▁유전	-2083
선은	-2084
▁선수로	-2085
▁브라질	-2086
▁스스로	-2087
라인	-2088
카와	-2089
▁사람들이	-2090
선이	-2091
동을	-2092
▁않아	-2093
▁연기	-2094
▁오스트리아	-2095
▁KBS	-2096
▁몬	-2097
었던	-2098
▁감독의	-2099
▁추진	-2100
▁나오	-2101
▁록	-2102
▁아시	-2103
▁이들	-2104
아가	-2105
시를	-2106
▁논란	-2107
▁달러	-2108
▁지난	-2109
▁밴드	-2110
▁km	-2111
▁오른	-2112
as	-2113
한다고	-2114
▁패배	-2115
▁1992	-2116
물의	-2117
규모	-2118
▁혈	-2119
▁과정에서	-2120
ro	-2121
▁자리	-2122
▁촉	-2123
▁강원	-2124
▁불교	-2125
▁복귀	-2126
▁품	-2127
▁가르	-2128
▁개혁	-2129
력은	-2130
▁만나	-2131
▁서식	-2132
▁프레	-2133
▁짧	-2134
▁밝혀	-2135
▁수용	-2136
거리	-2137
▁유명한	-2138
받았다	-2139
▁p	-2140
▁소재	-2141
습니다	-2142
▁필리	-2143
▁그대로	-2144
▁스웨	-2145
▁주인	-2146
▁바뀌	-2147
▁60	-2148
주에	-2149
일의	-2150
▁선수권	-2151
▁빅	-2152
부에서	-2153
▁해석	-2154
화국의	-2155
▁앙	-2156
▁삼성	-2157
웨어	-2158
▁잇	-2159
▁of	-2160
군과	-2161
시즌	-2162
로나	-2163
▁법률	-2164
▁습	-2165
크의	-2166
▁술	-2167
되기도	-2168
▁스테	-2169
▁윌리	-2170
국이	-2171
▁초등학교	-2172
▁강력	-2173
18	-2174
지게	-2175
철도	-2176
ig	-2177
▁경우가	-2178
▁특정	-2179
▁작용	-2180
▁자치	-2181
행을	-2182
▁스트	-2183
▁제국의	-2184
▁일어나	-2185
ve	-2186
▁기초	-2187
디어	-2188
▁b	-2189
없이	-2190
▁되었	-2191
▁폐지	-2192
레일리아	-2193
▁스위	-2194
▁목적으로	-2195
▁기록했다	-2196
▁1960	-2197
▁것이었다	-2198
기술	-2199
▁가져	-2200
▁많다	-2201
▁먼저	-2202
▁s	-2203
소년	-2204
▁해결	-2205
형의	-2206
멕시코	-2207
▁회사	-2208
▁초대	-2209
많은	-2210
▁아카	-2211
고를	-2212
▁알고	-2213
▁단순	-2214
▁디자인	-2215
▁제시	-2216
▁이외	-2217
▁십	-2218
▁1991	-2219
▁가톨릭	-2220
▁근처	-2221
부와	-2222
졌고	-2223
▁그녀의	-2224
▁스웨덴	-2225
센터	-2226
▁자동차	-2227
량이	-2228
릭터	-2229
▁거부	-2230
▁제작된	-2231
크는	-2232
속도로	-2233
니는	-2234
▁엔진	-2235
▁들어가	-2236
디아	-2237
주로	-2238
▁그린	-2239
하라	-2240
▁친구	-2241
▁1993	-2242
▁노르	-2243
▁도착	-2244
이기	-2245
▁여름	-2246
프는	-2247
▁보다	-2248
▁외교	-2249
웨이	-2250
16	-2251
▁관측	-2252
종이다	-2253
▁미국에서	-2254
▁가능하다	-2255
자에	-2256
▁상호	-2257
▁불리는	-2258
▁상대로	-2259
▁있으나	-2260
▁결성	-2261
▁집합	-2262
▁부정	-2263
하였는데	-2264
▁아무	-2265
▁존재한다	-2266
하이	-2267
▁70	-2268
▁지역에서	-2269
▁반란	-2270
▁겪	-2271
▁생성	-2272
▁다카	-2273
▁구성되어	-2274
수한	-2275
인트	-2276
▁경영	-2277
자이다	-2278
▁수많은	-2279
▁유니	-2280
안을	-2281
▁라디오	-2282
지션	-2283
▁일제	-2284
▁않다	-2285
하다가	-2286
▁놀	-2287
했다는	-2288
▁다만	-2289
▁비슷한	-2290
▁조선민주주의	-2291
▁벤	-2292
▁여기서	-2293
▁위험	-2294
▁파견	-2295
▁팀의	-2296
13	-2297
하기로	-2298
간다	-2299
▁교수	-2300
량을	-2301
▁지진	-2302
▁삶	-2303
화의	-2304
▁살아	-2305
▁동맹	-2306
▁이주	-2307
▁캠	-2308
왕의	-2309
▁때는	-2310
▁임시	-2311
성으로	-2312
▁투표	-2313
▁캐릭터	-2314
▁의하면	-2315
▁엘리	-2316
▁것과	-2317
만의	-2318
▁분포	-2319
▁이야기	-2320
▁만에	-2321
▁다르	-2322
▁오스트레일리아	-2323
▁에서	-2324
▁조각	-2325
아시아	-2326
▁디지	-2327
어나	-2328
트워	-2329
▁의원	-2330
▁시도	-2331
▁주도	-2332
▁연극	-2333
▁바꾸	-2334
",	-2335
▁황제	-2336
▁훈련	-2337
▁궤	-2338
▁사용한다	-2339
▁시행	-2340
▁마찬가지로	-2341
▁지냈다	-2342
▁통치	-2343
▁근거	-2344
대와	-2345
▁야마	-2346
함을	-2347
▁중간	-2348
▁카를	-2349
▁공작	-2350
▁에이	-2351
년을	-2352
▁아일랜드	-2353
과학	-2354
▁의미한다	-2355
▁영어	-2356
▁윈도	-2357
▁캘	-2358
▁윌리엄	-2359
▁스튜	-2360
▁떨어진	-2361
조를	-2362
▁오브	-2363
▁나무	-2364
▁지역을	-2365
ed	-2366
▁곤	-2367
▁상징	-2368
▁뇌	-2369
▁1988	-2370
▁발행	-2371
▁흡	-2372
평양	-2373
▁교회	-2374
▁바르	-2375
트에서	-2376
정보	-2377
70	-2378
▁형태로	-2379
▁한국의	-2380
14	-2381
▁준비	-2382
▁성립	-2383
80	-2384
▁이렇게	-2385
낸다	-2386
▁끝에	-2387
▁시작하였다	-2388
▁재판	-2389
▁대표적인	-2390
화된	-2391
▁방어	-2392
사업	-2393
촬영	-2394
관의	-2395
▁활용	-2396
시가	-2397
▁대응	-2398
▁히로	-2399
▁바다	-2400
인들이	-2401
▁따른	-2402
▁붕	-2403
▁대해서	-2404
▁중단	-2405
였고	-2406
았고	-2407
▁처리	-2408
▁르	-2409
▁이루어진	-2410
▁일을	-2411
▁벽	-2412
▁꾸	-2413
▁숨	-2414
▁체포	-2415
▁지하철	-2416
버트	-2417
나가	-2418
▁북쪽	-2419
▁보유	-2420
▁몇몇	-2421
▁멕시코	-2422
▁사용된다	-2423
▁있었고	-2424
▁시험	-2425
▁미사	-2426
역은	-2427
교회	-2428
점으로	-2429
▁남쪽	-2430
▁문학	-2431
▁등록	-2432
▁센터	-2433
▁회의	-2434
▁좋아	-2435
NA	-2436
▁사용할	-2437
면을	-2438
로가	-2439
▁이스	-2440
▁위해서	-2441
▁있기	-2442
▁귀족	-2443
▁중에서	-2444
일은	-2445
소에	-2446
▁관련된	-2447
연합	-2448
▁타이틀	-2449
▁규정	-2450
▁The	-2451
▁시기	-2452
▁체결	-2453
▁가정	-2454
▁안정	-2455
▁비디오	-2456
▁이집	-2457
▁해안	-2458
▁베르	-2459
주시	-2460
으면서	-2461
량은	-2462
▁제기	-2463
▁낳	-2464
.3	-2465
티아	-2466
▁80	-2467
_3	-2468
▁알렉산	-2469
▁당선	-2470
▁정부는	-2471
▁다루	-2472
▁지적	-2473
▁직후	-2474
▁유로	-2475
us	-2476
▁승강장	-2477
▁얼마	-2478
크라	-2479
가로	-2480
▁사진	-2481
',	-2482
▁를	-2483
▁묘사	-2484
▁1989	-2485
▁번역	-2486
임스	-2487
치의	-2488
▁여객	-2489
당이	-2490
▁나머지	-2491
▁디지털	-2492
사회	-2493
▁로스	-2494
▁적이	-2495
▁억	-2496
▁혐	-2497
▁남부	-2498
▁살해	-2499
▁혁명	-2500
물이	-2501
od	-2502
▁금지	-2503
▁동생	-2504
▁하루	-2505
▁파이	-2506
▁이름이	-2507
력의	-2508
▁그렇	-2509
▁달성	-2510
▁떠나	-2511
▁둔	-2512
선에서	-2513
국을	-2514
▁나타나	-2515
오카	-2516
▁개통	-2517
▁젊	-2518
▁출생	-2519
▁계열	-2520
▁종합	-2521
▁내각	-2522
워드	-2523
▁가능한	-2524
리포	-2525
▁값	-2526
▁대사	-2527
ch	-2528
비는	-2529
▁있지	-2530
▁못한	-2531
단으로	-2532
▁유대	-2533
였으며	-2534
어졌다	-2535
▁보존	-2536
▁이슬	-2537
나라의	-2538
▁부른다	-2539
▁홍콩	-2540
▁계승	-2541
▁서비스	-2542
▁대륙	-2543
▁간의	-2544
▁완성	-2545
계가	-2546
▁해외	-2547
and	-2548
미터	-2549
회사	-2550
작용	-2551
▁곳에	-2552
▁2021	-2553
해졌다	-2554
러운	-2555
▁1950	-2556
치로	-2557
▁류	-2558
▁종료	-2559
소로	-2560
▁쌓	-2561
▁중국의	-2562
▁펜	-2563
산의	-2564
공항	-2565
▁포르투	-2566
니스	-2567
▁밑	-2568
▁촬영	-2569
라우	-2570
시로	-2571
자들의	-2572
▁가리킨다	-2573
▁강한	-2574
수이다	-2575
▁대해서는	-2576
▁즉위	-2577
▁조성	-2578
▁싶	-2579
▁유일한	-2580
학생	-2581
권의	-2582
와는	-2583
▁주인공	-2584
▁스코	-2585
▁폰	-2586
▁취임	-2587
론을	-2588
17	-2589
▁년	-2590
하에	-2591
가이다	-2592
▁본래	-2593
▁종류	-2594
▁못하고	-2595
▁발사	-2596
되자	-2597
▁보수	-2598
▁의견	-2599
시킨	-2600
▁뮤직	-2601
당을	-2602
▁꼬	-2603
역으로	-2604
피아	-2605
서로	-2606
두고	-2607
인지	-2608
▁소개	-2609
▁경기를	-2610
조가	-2611
▁옮겨	-2612
시키고	-2613
▁일어난	-2614
주교	-2615
ent	-2616
▁물론	-2617
력으로	-2618
▁1945	-2619
▁전환	-2620
-3	-2621
▁수비	-2622
▁벗	-2623
롭게	-2624
▁합류	-2625
▁정치적	-2626
▁낮은	-2627
▁멜	-2628
▁안에	-2629
▁완전	-2630
▁전달	-2631
▁인민	-2632
세에	-2633
▁충돌	-2634
관리	-2635
▁관계를	-2636
▁경상남도	-2637
▁것도	-2638
▁경상북도	-2639
▁굴	-2640
▁근무	-2641
나의	-2642
▁주목	-2643
▁승격	-2644
▁케이	-2645
▁죄	-2646
▁안전	-2647
계는	-2648
▁천황	-2649
▁필요한	-2650
내고	-2651
▁이래	-2652
▁표시	-2653
▁동쪽	-2654
▁후쿠	-2655
관에	-2656
▁만들었다	-2657
▁인근	-2658
▁중의	-2659
▁문제를	-2660
▁아내	-2661
려고	-2662
▁문제가	-2663
승을	-2664
되었던	-2665
▁사이에서	-2666
.4	-2667
▁반면	-2668
▁오후	-2669
▁남북	-2670
로로	-2671
▁32	-2672
▁제거	-2673
▁지명	-2674
▁평화	-2675
▁빨	-2676
ad	-2677
▁썼	-2678
▁관광	-2679
▁참여하였다	-2680
▁186	-2681
▁주는	-2682
문화재	-2683
요일	-2684
비가	-2685
▁전략	-2686
▁각종	-2687
▁미술	-2688
▁델	-2689
▁사망하였다	-2690
족의	-2691
▁보여주	-2692
▁즐	-2693
상과	-2694
▁왼	-2695
즈의	-2696
인들은	-2697
▁나누	-2698
▁해군	-2699
월까지	-2700
▁듣	-2701
▁명예	-2702
▁헨	-2703
▁비밀	-2704
석을	-2705
분을	-2706
▁통하여	-2707
량의	-2708
산으로	-2709
▁부모	-2710
▁가까운	-2711
신의	-2712
▁읽	-2713
▁종목	-2714
전으로	-2715
▁중화인민공화국	-2716
▁미래	-2717
준다	-2718
메달을	-2719
▁MBC	-2720
▁이루어져	-2721
▁베네	-2722
▁말을	-2723
종이	-2724
트에	-2725
▁수가	-2726
ot	-2727
과를	-2728
▁이용하여	-2729
▁표기	-2730
▁경우에는	-2731
▁인식	-2732
▁최고의	-2733
▁납	-2734
▁집중	-2735
▁네트워	-2736
헝가	-2737
미널	-2738
▁포지션	-2739
▁강조	-2740
▁주었다	-2741
▁위치하고	-2742
▁친일	-2743
분에	-2744
원과	-2745
화는	-2746
▁빼	-2747
그룹	-2748
은행	-2749
프가	-2750
▁너무	-2751
▁오르	-2752
▁위의	-2753
적으로는	-2754
▁가입	-2755
▁위치해	-2756
▁d	-2757
▁오사카	-2758
체로	-2759
▁뒤에	-2760
주가	-2761
▁셀	-2762
파의	-2763
▁보이	-2764
▁공급	-2765
▁기록을	-2766
▁카운	-2767
전쟁	-2768
un	-2769
▁실제로	-2770
만에	-2771
▁이슬람	-2772
상에서	-2773
▁생물	-2774
25	-2775
▁둘러	-2776
▁전투에서	-2777
▁아니다	-2778
ow	-2779
권이	-2780
메이	-2781
▁상업	-2782
▁만들어진	-2783
▁아우	-2784
▁제도	-2785
▁마이크로	-2786
해를	-2787
▁사실을	-2788
문이	-2789
▁녹음	-2790
대회	-2791
▁정착	-2792
▁출신의	-2793
▁187	-2794
▁마련	-2795
▁에드	-2796
▁만약	-2797
적이고	-2798
▁사람은	-2799
년대에	-2800
▁인한	-2801
▁전반	-2802
▁기존의	-2803
▁맹	-2804
가가	-2805
▁바탕으로	-2806
▁건너	-2807
차를	-2808
▁북부	-2809
▁되었으며	-2810
▁옆	-2811
▁오스	-2812
지도	-2813
▁최소	-2814
br	-2815
▁여전히	-2816
로스	-2817
드와	-2818
점에서	-2819
슨은	-2820
▁기후	-2821
▁저항	-2822
▁전시	-2823
기업	-2824
▁연장	-2825
▁던	-2826
▁샌	-2827
▁가는	-2828
▁그해	-2829
▁스토	-2830
48	-2831
▁문서	-2832
▁서쪽	-2833
▁구조를	-2834
생활	-2835
▁갖추	-2836
▁넘어	-2837
▁허용	-2838
고로	-2839
▁마리아	-2840
▁감소	-2841
▁성격	-2842
리어	-2843
▁제목	-2844
ct	-2845
.6	-2846
▁레코	-2847
▁아키	-2848
▁왔다	-2849
▁사용하여	-2850
▁정부의	-2851
2,	-2852
▁끼	-2853
화에	-2854
▁사회주의	-2855
▁이번	-2856
산은	-2857
▁실행	-2858
▁정식	-2859
▁35	-2860
▁프로듀	-2861
▁인디	-2862
▁대회에서	-2863
▁국회의원	-2864
년과	-2865
질을	-2866
▁배경	-2867
▁이후에	-2868
▁내부	-2869
..	-2870
▁적극	-2871
▁혜	-2872
▁작성	-2873
▁올랐다	-2874
▁의사	-2875
▁1987	-2876
호가	-2877
▁신라	-2878
▁뿐만	-2879
했기	-2880
▁무렵	-2881
▁재직	-2882
▁사람을	-2883
▁기능을	-2884
▁그려	-2885
▁a	-2886
▁확대	-2887
▁영화배우	-2888
▁바람	-2889
▁몽골	-2890
라노	-2891
▁에스	-2892
▁사회적	-2893
▁하기	-2894
산업	-2895
ur	-2896
▁블랙	-2897
▁정리	-2898
▁일반적인	-2899
사이	-2900
▁게이	-2901
▁받아들	-2902
교의	-2903
▁건강	-2904
졌으며	-2905
▁윈도우	-2906
자에게	-2907
▁불러	-2908
리스트	-2909
▁신문	-2910
▁=	-2911
▁국방	-2912
계에서	-2913
▁시기에	-2914
보다는	-2915
▁사령	-2916
▁입학	-2917
체에	-2918
트라	-2919
역에	-2920
▁위협	-2921
▁젊은	-2922
▁생활을	-2923
▁피아	-2924
▁전라남도	-2925
▁시대의	-2926
▁관찰	-2927
.7	-2928
▁국왕	-2929
▁뒷	-2930
▁나중에	-2931
▁포르투갈	-2932
▁n	-2933
▁객	-2934
▁만드는	-2935
세포	-2936
▁편집	-2937
▁찰	-2938
▁겨울	-2939
▁1986	-2940
FC	-2941
기고	-2942
동차	-2943
의로	-2944
시오	-2945
문학	-2946
실을	-2947
▁2,	-2948
▁루이	-2949
▁점차	-2950
▁불린다	-2951
리포니아	-2952
▁부문	-2953
되었는데	-2954
▁일이	-2955
▁제임스	-2956
▁1984	-2957
▁제외한	-2958
▁채택	-2959
▁터키	-2960
▁보도	-2961
이던	-2962
▁출발	-2963
▁동료	-2964
▁충분	-2965
▁옹	-2966
▁노력	-2967
▁유리	-2968
▁동계	-2969
▁자본	-2970
났으며	-2971
물로	-2972
▁계산	-2973
▁그래서	-2974
▁항상	-2975
로운	-2976
▁울산	-2977
▁유엔	-2978
▁범죄	-2979
사건	-2980
▁사용되는	-2981
▁채널	-2982
군으로	-2983
개발	-2984
장이다	-2985
▁춘	-2986
▁확보	-2987
▁외에도	-2988
▁판단	-2989
▁붕괴	-2990
▁사람들은	-2991
▁아나	-2992
▁여행	-2993
im	-2994
.8	-2995
▁St	-2996
트와	-2997
르타	-2998
역에서	-2999
밖에	-3000
해의	-3001
데미	-3002
래프트	-3003
▁계약을	-3004
▁흰	-3005
티브	-3006
▁제정	-3007
▁전개	-3008
▁이란	-3009
24	-3010
▁보면	-3011
▁성우	-3012
▁예선	-3013
▁데이비	-3014
▁감염	-3015
▁민간	-3016
설을	-3017
도시	-3018
▁컬	-3019
▁집단	-3020
사령	-3021
케이	-3022
▁구단	-3023
영화	-3024
▁마쓰	-3025
▁장기	-3026
세기에	-3027
라엘	-3028
았으며	-3029
▁스튜디오	-3030
▁라이브	-3031
당에	-3032
▁유형	-3033
▁남편	-3034
▁쉽게	-3035
▁합병	-3036
▁원자	-3037
종은	-3038
▁끊	-3039
id	-3040
끄는	-3041
▁시작되었다	-3042
▁봄	-3043
▁매년	-3044
일러	-3045
테인	-3046
▁장애	-3047
▁구축	-3048
세이	-3049
▁고구	-3050
▁500	-3051
▁척	-3052
대에서	-3053
▁발표했다	-3054
▁냉	-3055
계로	-3056
국에	-3057
▁측정	-3058
면의	-3059
ay	-3060
▁마사	-3061
▁동부	-3062
▁필리핀	-3063
모리	-3064
▁방식	-3065
▁다섯	-3066
▁증거	-3067
▁종종	-3068
▁만화	-3069
신이	-3070
일본	-3071
▁블루	-3072
▁간주	-3073
▁책임	-3074
시대의	-3075
▁부근	-3076
▁등은	-3077
ir	-3078
90	-3079
▁있었지만	-3080
자치	-3081
▁핀란드	-3082
▁뒤를	-3083
▁캘리포니아	-3084
경제	-3085
▁1985	-3086
▁세르	-3087
하다고	-3088
▁요리	-3089
라고도	-3090
니어	-3091
▁관심을	-3092
하려는	-3093
▁덴마	-3094
ut	-3095
▁탑재	-3096
▁자리를	-3097
리기	-3098
력과	-3099
▁엑	-3100
▁90	-3101
▁이승	-3102
▁주장했다	-3103
즈는	-3104
▁강력한	-3105
▁in	-3106
력에	-3107
▁경향	-3108
▁그곳	-3109
▁전사	-3110
▁꿈	-3111
▁밖에	-3112
라비아	-3113
▁교체	-3114
▁남성	-3115
초등학교는	-3116
▁신경	-3117
▁공공	-3118
이라고도	-3119
23	-3120
▁정보를	-3121
▁강원도	-3122
여자	-3123
▁수립	-3124
▁사례	-3125
▁공격을	-3126
로서의	-3127
▁승리를	-3128
▁쇠	-3129
단체	-3130
▁침공	-3131
▁모스크	-3132
티는	-3133
▁득점	-3134
레이션	-3135
▁파리	-3136
▁등에서	-3137
▁인간의	-3138
▁자신을	-3139
▁태평양	-3140
▁서부	-3141
▁방식으로	-3142
▁수입	-3143
키아	-3144
▁수학	-3145
um	-3146
▁균	-3147
▁잭	-3148
▁아름	-3149
까지의	-3150
▁변호	-3151
▁검은	-3152
법에	-3153
▁얼굴	-3154
▁한다고	-3155
▁경우도	-3156
▁높이	-3157
개를	-3158
▁쪽	-3159
서에	-3160
▁사용한	-3161
다이	-3162
인에	-3163
▁이스라엘	-3164
▁어떻	-3165
▁해방	-3166
민족	-3167
▁비용	-3168
선수	-3169
▁해체	-3170
당한	-3171
▁인수	-3172
약을	-3173
항공	-3174
▁헝가	-3175
▁떨어져	-3176
법은	-3177
▁텍	-3178
▁없어	-3179
씨는	-3180
되었지만	-3181
▁면적은	-3182
▁왔	-3183
셔널	-3184
제에	-3185
▁콩	-3186
▁남동	-3187
네시아	-3188
▁한다는	-3189
자들을	-3190
▁나폴	-3191
류를	-3192
▁대규모	-3193
법원	-3194
▁회복	-3195
면에서	-3196
▁세운	-3197
소에서	-3198
틀랜드	-3199
▁불과	-3200
▁아랍	-3201
▁평양	-3202
오프	-3203
▁털	-3204
▁연맹	-3205
에게는	-3206
▁주연으로	-3207
ver	-3208
후의	-3209
▁잠시	-3210
려는	-3211
▁알아	-3212
▁화학	-3213
시와	-3214
▁정상	-3215
▁흘	-3216
로도	-3217
신은	-3218
▁가리키는	-3219
▁당시의	-3220
역의	-3221
▁하게	-3222
▁갖춘	-3223
▁증명	-3224
▁좀	-3225
▁나카	-3226
▁인하여	-3227
▁하자	-3228
포르	-3229
▁농업	-3230
▁마리	-3231
▁다음을	-3232
먼트	-3233
었는데	-3234
받아	-3235
▁이끄는	-3236
▁링	-3237
사키	-3238
▁대형	-3239
데스	-3240
▁메이저	-3241
▁선의	-3242
▁둥	-3243
▁짓	-3244
▁임명되었다	-3245
박쥐	-3246
▁수정	-3247
붉은	-3248
▁에피	-3249
▁중학교	-3250
▁받는	-3251
▁힘을	-3252
▁내에서	-3253
티나	-3254
까지는	-3255
▁하면서	-3256
▁1982	-3257
▁45	-3258
▁기획	-3259
▁본관은	-3260
▁소프트웨어	-3261
▁어떻게	-3262
▁의해서	-3263
▁플로	-3264
수와	-3265
▁중화민	-3266
▁만족	-3267
▁길이	-3268
구로	-3269
▁회원	-3270
년이	-3271
싱턴	-3272
정으로	-3273
하고자	-3274
▁숲	-3275
▁비교적	-3276
▁사람의	-3277
▁쉬	-3278
▁시청	-3279
드에서	-3280
▁일종이다	-3281
▁개편	-3282
▁아시안	-3283
적이다	-3284
▁충청남도	-3285
▁귀국	-3286
형은	-3287
▁팀은	-3288
▁과정을	-3289
▁고전	-3290
라가	-3291
▁태어난	-3292
▁시장	-3293
▁셰	-3294
점에	-3295
어와	-3296
▁사후	-3297
▁원칙	-3298
법의	-3299
▁트리	-3300
▁말이다	-3301
▁복잡	-3302
바르	-3303
▁뛰어난	-3304
면은	-3305
▁폭발	-3306
서관	-3307
▁나뉘	-3308
다운	-3309
▁않을	-3310
▁기계	-3311
▁잎	-3312
형이	-3313
▁족	-3314
▁보이는	-3315
▁설립된	-3316
타이	-3317
▁기억	-3318
▁인기를	-3319
마스	-3320
▁편입	-3321
▁파일	-3322
▁전차	-3323
▁이것이	-3324
▁고양	-3325
었으나	-3326
▁속에	-3327
▁특수	-3328
▁죽은	-3329
22	-3330
▁죽음	-3331
▁섭	-3332
터테인	-3333
▁라틴	-3334
▁도움을	-3335
권은	-3336
동의	-3337
▁신설	-3338
▁대상	-3339
▁시내	-3340
▁조선민주주의인민공화국	-3341
▁인사	-3342
명한	-3343
▁은행	-3344
드에	-3345
▁발매되었다	-3346
▁포지션은	-3347
▁쓰인다	-3348
▁글로	-3349
▁시대에	-3350
일보	-3351
▁1983	-3352
▁홈런	-3353
▁본격	-3354
▁형식	-3355
▁통한	-3356
▁대립	-3357
대전	-3358
인들의	-3359
▁롤	-3360
▁LG	-3361
정책	-3362
▁대상으로	-3363
▁태풍	-3364
▁네트워크	-3365
품을	-3366
▁본선	-3367
▁가격	-3368
▁이전에	-3369
▁조정	-3370
▁저장	-3371
이었고	-3372
료를	-3373
유럽	-3374
▁개선	-3375
▁단백	-3376
물은	-3377
▁초반	-3378
▁지역은	-3379
▁토론	-3380
경에	-3381
▁띠	-3382
▁구성된	-3383
▁우선	-3384
▁사실상	-3385
▁카메	-3386
▁세이	-3387
▁오리	-3388
▁때에는	-3389
▁참석	-3390
▁속에서	-3391
▁있었으며	-3392
경의	-3393
도에서	-3394
어도	-3395
▁불가능	-3396
▁근대	-3397
▁고구려	-3398
▁캄	-3399
종으로	-3400
▁후손	-3401
공업	-3402
점은	-3403
▁시의	-3404
▁설치되어	-3405
프의	-3406
▁구체	-3407
CA	-3408
동은	-3409
분의	-3410
프리	-3411
.9	-3412
브리	-3413
▁앞두고	-3414
▁박물	-3415
▁행사	-3416
▁전혀	-3417
겠다고	-3418
▁아카데미	-3419
▁형태의	-3420
에르	-3421
▁에너지	-3422
하나	-3423
▁카이	-3424
kg	-3425
▁통신	-3426
em	-3427
를린	-3428
료로	-3429
▁사는	-3430
▁내용을	-3431
도르	-3432
▁짧은	-3433
▁핵심	-3434
▁고향	-3435
라운드	-3436
▁사용되었다	-3437
▁듀	-3438
▁외에	-3439
▁창설	-3440
권에	-3441
▁나오는	-3442
▁재정	-3443
▁발견된다	-3444
▁스피	-3445
▁잘못	-3446
수에	-3447
▁암살	-3448
▁했지만	-3449
리학	-3450
▁애플	-3451
라크	-3452
▁마드리	-3453
무원	-3454
경찰	-3455
▁아르헨	-3456
▁열대	-3457
▁유도	-3458
▁공유	-3459
▁스파	-3460
▁중반	-3461
▁300	-3462
▁1972	-3463
었지만	-3464
조선	-3465
▁편성	-3466
용으로	-3467
▁클래	-3468
같은	-3469
지기	-3470
▁조금	-3471
문의	-3472
▁펠	-3473
시킬	-3474
룬다	-3475
▁아주	-3476
▁짐	-3477
▁부인	-3478
▁비난	-3479
▁나서	-3480
▁현실	-3481
세계	-3482
▁w	-3483
▁다음은	-3484
함에	-3485
▁역사상	-3486
45	-3487
▁답	-3488
축구	-3489
음악	-3490
차례	-3491
▁확정	-3492
▁있었으나	-3493
미디	-3494
▁수여	-3495
▁묻	-3496
▁삼국	-3497
하려고	-3498
씨의	-3499
받은	-3500
▁수출	-3501
예술	-3502
▁뿌	-3503
▁흔히	-3504
▁문화재	-3505
▁1920	-3506
▁협력	-3507
▁등장하는	-3508
지면서	-3509
▁물러	-3510
서의	-3511
어져	-3512
▁추정된다	-3513
▁비율	-3514
학년	-3515
서가	-3516
번의	-3517
▁1979	-3518
자이	-3519
▁자체	-3520
▁보급	-3521
▁때에	-3522
▁브랜드	-3523
▁모스크바	-3524
▁뉴스	-3525
▁린	-3526
▁공부	-3527
주와	-3528
▁무역	-3529
협회	-3530
▁그것은	-3531
▁개봉한	-3532
ag	-3533
▁탄생	-3534
유의	-3535
▁설정	-3536
▁업무	-3537
스리그	-3538
다른	-3539
▁뜻이	-3540
▁요한	-3541
▁베이징	-3542
▁장착	-3543
▁했고	-3544
주에서	-3545
▁33	-3546
▁다니	-3547
▁유명하다	-3548
▁태어나	-3549
▁II	-3550
▁옷	-3551
▁동일한	-3552
▁초등학교이다	-3553
▁자는	-3554
▁위치한다	-3555
▁오히	-3556
▁하는데	-3557
▁그에	-3558
▁숫	-3559
▁경기에	-3560
이었으나	-3561
▁플랫	-3562
▁로버트	-3563
▁권한	-3564
▁선고	-3565
▁프란	-3566
▁단일	-3567
▁예상	-3568
▁심각	-3569
▁훨	-3570
▁역대	-3571
▁정도의	-3572
▁버스	-3573
▁항복	-3574
크라이나	-3575
▁붉은	-3576
▁워싱턴	-3577
▁하였고	-3578
▁되면서	-3579
▁고정	-3580
▁되지	-3581
▁박사	-3582
▁1930	-3583
▁현재까지	-3584
▁맛	-3585
▁노예	-3586
▁나이	-3587
호의	-3588
os	-3589
버그	-3590
▁세계에서	-3591
▁기사	-3592
▁나는	-3593
▁훨씬	-3594
▁36	-3595
▁적은	-3596
간에	-3597
문은	-3598
BO	-3599
▁180	-3600
200	-3601
▁시각	-3602
지원	-3603
▁세웠다	-3604
테르	-3605
았던	-3606
▁오랜	-3607
▁출마	-3608
▁있었는데	-3609
▁북서	-3610
가에	-3611
비의	-3612
▁가로	-3613
▁하늘	-3614
▁1981	-3615
▁브리	-3616
기에는	-3617
▁발생한	-3618
▁조합	-3619
▁시티	-3620
▁식물	-3621
▁얻었다	-3622
해진	-3623
▁1973	-3624
색을	-3625
니의	-3626
무라	-3627
터는	-3628
▁투입	-3629
▁타고	-3630
하다는	-3631
▁기반으로	-3632
▁왕국	-3633
▁했으나	-3634
스럽	-3635
▁길이는	-3636
▁정부가	-3637
▁수원	-3638
▁보였다	-3639
미는	-3640
▁형제	-3641
▁오픈	-3642
체육	-3643
로드	-3644
▁프로그램이다	-3645
▁내에	-3646
▁가능성이	-3647
▁머리	-3648
▁모리	-3649
▁차지했다	-3650
▁한때	-3651
의의	-3652
보를	-3653
▁투자	-3654
▁제작에	-3655
어들	-3656
▁금융	-3657
▁튀	-3658
구와	-3659
보는	-3660
▁덮	-3661
슈타	-3662
동이	-3663
▁이끌고	-3664
▁낭	-3665
보드	-3666
▁신앙	-3667
▁율	-3668
시설	-3669
▁마이클	-3670
리케	-3671
하마	-3672
▁국가의	-3673
▁추측	-3674
▁맡고	-3675
등을	-3676
▁없고	-3677
[]	-3678
▁계급	-3679
중앙	-3680
생의	-3681
▁정복	-3682
▁넓은	-3683
일이	-3684
▁세우	-3685
조에	-3686
▁광고	-3687
▁무장	-3688
▁북아	-3689
▁개정	-3690
▁이탈리아의	-3691
▁교토	-3692
아버	-3693
▁시즌을	-3694
▁반복	-3695
▁헤이	-3696
▁대항	-3697
▁오히려	-3698
경기에	-3699
▁그에게	-3700
▁첨	-3701
▁원작	-3702
교통	-3703
령을	-3704
마이	-3705
▁우크라이나	-3706
▁멸망	-3707
▁저지	-3708
35	-3709
▁관심	-3710
▁결과를	-3711
27	-3712
▁듯	-3713
▁이중	-3714
▁문자	-3715
26	-3716
▁욕	-3717
▁점에서	-3718
▁마침	-3719
▁만큼	-3720
▁1974	-3721
▁1940	-3722
안에	-3723
▁확실	-3724
▁뜻을	-3725
▁찍	-3726
▁구별	-3727
다면	-3728
▁시간이	-3729
▁앞서	-3730
타를	-3731
언을	-3732
소프트	-3733
산이	-3734
▁힐	-3735
▁절대	-3736
▁공포	-3737
▁니콜	-3738
▁주교	-3739
▁판결	-3740
▁도움	-3741
▁솔로	-3742
음에도	-3743
전과	-3744
▁거절	-3745
▁요새	-3746
▁제출	-3747
▁전쟁이	-3748
▁지닌	-3749
당했다	-3750
▁창립	-3751
▁함수	-3752
▁SBS	-3753
세대	-3754
비치	-3755
▁무기	-3756
▁방출	-3757
▁천문	-3758
op	-3759
▁활발	-3760
자기	-3761
▁러시아의	-3762
만은	-3763
_4	-3764
일로	-3765
▁목적	-3766
▁오토	-3767
▁38	-3768
▁융	-3769
소와	-3770
▁세종	-3771
▁전후	-3772
▁일본에서	-3773
▁스코틀랜드	-3774
▁뽑	-3775
▁계획을	-3776
▁1948	-3777
▁됐다	-3778
▁아메리카	-3779
OS	-3780
받고	-3781
판을	-3782
▁나와	-3783
▁킹	-3784
나와	-3785
리노	-3786
▁인터뷰	-3787
▁시작한	-3788
▁철도역이다	-3789
▁생겨	-3790
▁원정	-3791
▁머물	-3792
▁1968	-3793
화로	-3794
국민	-3795
역이	-3796
▁살고	-3797
▁이후에는	-3798
ce	-3799
▁1976	-3800
▁서양	-3801
▁아침	-3802
국에서	-3803
▁의료	-3804
▁전설	-3805
▁CD	-3806
나이티	-3807
▁했으며	-3808
▁인공	-3809
면이	-3810
▁e	-3811
▁어렵	-3812
리게	-3813
차로	-3814
▁산맥	-3815
▁원주	-3816
▁스크	-3817
▁거대한	-3818
▁단백질	-3819
▁지원을	-3820
28	-3821
▁끝나	-3822
▁오전	-3823
▁팀을	-3824
▁북동	-3825
▁논쟁	-3826
▁베를린	-3827
▁투수	-3828
▁차이가	-3829
쿠라	-3830
▁청소년	-3831
▁팀이	-3832
▁보는	-3833
▁185	-3834
▁행정구	-3835
이었으며	-3836
인민공화국의	-3837
▁점을	-3838
마의	-3839
▁발표한	-3840
▁플랫폼	-3841
▁1975	-3842
▁에피소	-3843
▁통제	-3844
추어	-3845
▁전용	-3846
키스탄	-3847
▁삭	-3848
사인	-3849
재를	-3850
저우	-3851
더라도	-3852
▁철학	-3853
▁숭	-3854
▁사용하고	-3855
석은	-3856
리우	-3857
▁전쟁을	-3858
▁이민	-3859
으로도	-3860
병을	-3861
▁세인트	-3862
년에서	-3863
▁건립	-3864
네스	-3865
▁공산주의	-3866
세와	-3867
▁하드	-3868
▁장악	-3869
▁비록	-3870
▁약간	-3871
▁주식	-3872
우리	-3873
ra	-3874
화와	-3875
리아의	-3876
당과	-3877
술을	-3878
▁식민지	-3879
▁통해서	-3880
익을	-3881
▁음력	-3882
▁합의	-3883
스러운	-3884
▁타이완	-3885
▁롯	-3886
▁1971	-3887
▁고등	-3888
▁1978	-3889
▁은하	-3890
▁래	-3891
제국	-3892
▁상당히	-3893
ter	-3894
▁붙여	-3895
▁도달	-3896
프레	-3897
법이	-3898
▁이르는	-3899
만큼	-3900
▁없다고	-3901
▁강제	-3902
▁대표팀	-3903
▁기자	-3904
▁부활	-3905
▁1963	-3906
▁포함되어	-3907
▁이른	-3908
▁이야기를	-3909
▁대비	-3910
안의	-3911
치에	-3912
▁유나이티	-3913
국가	-3914
지며	-3915
▁오래된	-3916
▁병사	-3917
▁에어	-3918
산에	-3919
렸고	-3920
▁트레이	-3921
▁삼각	-3922
▁그것을	-3923
▁양성	-3924
▁지낸	-3925
이와	-3926
에트	-3927
▁청년	-3928
▁반영	-3929
▁금속	-3930
▁되면	-3931
29	-3932
▁온라인	-3933
단과	-3934
▁이유는	-3935
시티	-3936
▁겐	-3937
경은	-3938
로그	-3939
▁위해서는	-3940
▁신인	-3941
▁취급	-3942
▁컵	-3943
▁취득	-3944
류가	-3945
리트	-3946
▁해당하는	-3947
▁각본	-3948
▁미드	-3949
▁이제	-3950
형으로	-3951
분이	-3952
노동	-3953
▁플라	-3954
ST	-3955
▁약속	-3956
에게서	-3957
▁청나라	-3958
게임	-3959
증을	-3960
▁일으켰	-3961
▁레드	-3962
▁In	-3963
▁하나님	-3964
진은	-3965
▁작전	-3966
라를	-3967
수록	-3968
▁아파	-3969
▁주어	-3970
▁남서	-3971
▁1969	-3972
자들	-3973
▁시간을	-3974
▁건국	-3975
▁150	-3976
▁출입	-3977
500	-3978
▁지식	-3979
▁벨기에	-3980
▁랭	-3981
▁처음에는	-3982
세로	-3983
▁그런데	-3984
지인	-3985
▁강의	-3986
▁보냈다	-3987
개가	-3988
▁높아	-3989
▁주고	-3990
▁무엇	-3991
▁혼란	-3992
▁운용	-3993
교를	-3994
▁Z	-3995
였으나	-3996
▁미나	-3997
국제	-3998
히는	-3999
▁사망했다	-4000
지이다	-4001
▁방법을	-4002
▁건조	-4003
▁공화	-4004
▁보아	-4005
메리	-4006
▁한번	-4007
연맹	-4008
▁거래	-4009
▁육상	-4010
▁1946	-4011
▁아테	-4012
▁독자	-4013
47	-4014
▁부임	-4015
▁자격	-4016
▁전라북도	-4017
드시	-4018
▁댄	-4019
▁의회	-4020
▁반발	-4021
▁해서	-4022
의회	-4023
▁400	-4024
▁올리	-4025
▁그레	-4026
리즘	-4027
지자	-4028
크를	-4029
▁대공	-4030
왕이	-4031
▁갤	-4032
▁백작	-4033
선으로	-4034
▁생명	-4035
▁호텔	-4036
▁동의	-4037
▁역을	-4038
▁잇는	-4039
▁웨스트	-4040
▁스티	-4041
▁얻어	-4042
기에서	-4043
러는	-4044
전문	-4045
▁슬로	-4046
▁이용한	-4047
음이	-4048
▁넘는	-4049
▁간단	-4050
석이	-4051
▁코미디	-4052
▁대략	-4053
ri	-4054
▁말레이	-4055
▁모여	-4056
▁대성	-4057
▁두었다	-4058
▁사건을	-4059
▁속한다	-4060
▁작품을	-4061
▁보조	-4062
▁빠른	-4063
생을	-4064
▁하면	-4065
▁이용해	-4066
▁경계	-4067
▁명이	-4068
▁포기	-4069
마르	-4070
▁개시	-4071
▁프리미	-4072
▁경성	-4073
스케	-4074
▁동남	-4075
누스	-4076
▁공식적으로	-4077
리나	-4078
▁1964	-4079
▁좁	-4080
▁받지	-4081
▁소수	-4082
▁미니	-4083
▁때부터	-4084
▁써	-4085
니아의	-4086
▁미디어	-4087
플레이	-4088
▁이것을	-4089
시스	-4090
아이	-4091
▁코로나	-4092
▁국도	-4093
▁후에는	-4094
_5	-4095
페이	-4096
▁방향으로	-4097
▁규칙	-4098
▁발표하였다	-4099
▁상륙	-4100
▁알게	-4101
▁장식	-4102
고는	-4103
론의	-4104
▁영입	-4105
▁경주	-4106
▁번째로	-4107
데이	-4108
▁흡수	-4109
기압	-4110
▁부터	-4111
▁활동하였다	-4112
▁노부	-4113
▁부상	-4114
모를	-4115
▁의존	-4116
▁시작하여	-4117
미가	-4118
▁켄	-4119
▁고용	-4120
▁그러한	-4121
분류	-4122
▁트로	-4123
▁후지	-4124
▁도망	-4125
▁준우	-4126
▁포위	-4127
▁히데	-4128
▁엔터테인	-4129
▁경기는	-4130
시킨다	-4131
타는	-4132
▁뜻한다	-4133
▁도중	-4134
▁버전	-4135
조합	-4136
머스	-4137
▁만주	-4138
▁and	-4139
▁렌	-4140
번째로	-4141
▁곳에서	-4142
▁쫓	-4143
▁않았고	-4144
▁행성	-4145
조사	-4146
마트	-4147
▁탈락	-4148
▁인도네시아	-4149
▁하나는	-4150
라와	-4151
▁것처럼	-4152
▁시작으로	-4153
▁벡	-4154
▁34	-4155
▁수상했다	-4156
▁공통	-4157
▁종류의	-4158
국으로	-4159
통신	-4160
▁트랙	-4161
▁논의	-4162
▁한반	-4163
앤젤	-4164
▁이들의	-4165
▁챔피언스리그	-4166
미의	-4167
▁거리	-4168
▁전주	-4169
▁김영	-4170
▁유사한	-4171
▁박정	-4172
▁선보	-4173
▁프로젝트	-4174
nd	-4175
▁기록하였다	-4176
▁출연하였고	-4177
뿐만	-4178
▁빠져	-4179
▁전공	-4180
▁체계	-4181
▁수사	-4182
▁국제공항	-4183
▁논란이	-4184
oc	-4185
▁베이스	-4186
▁수송	-4187
▁기록한	-4188
율을	-4189
igh	-4190
▁분쟁	-4191
▁이뤄	-4192
▁역임했다	-4193
▁보컬	-4194
▁생긴	-4195
▁1977	-4196
▁개최된	-4197
미를	-4198
th	-4199
▁수집	-4200
▁해에	-4201
▁보장	-4202
▁1949	-4203
▁불법	-4204
▁아들이	-4205
▁사태	-4206
명에	-4207
티노	-4208
▁진입	-4209
▁카르	-4210
▁탈출	-4211
동으로	-4212
차원	-4213
고속도로	-4214
식에	-4215
▁때의	-4216
▁앞에	-4217
▁피아노	-4218
▁이집트	-4219
베르크	-4220
▁고속	-4221
▁출신으로	-4222
▁집행	-4223
박물	-4224
▁총독	-4225
마을	-4226
▁각각의	-4227
▁프로세	-4228
▁자살	-4229
▁받게	-4230
▁데이비드	-4231
36	-4232
영은	-4233
▁보낸	-4234
▁콘서	-4235
▁선수가	-4236
▁제이	-4237
▁로스앤젤	-4238
차가	-4239
종을	-4240
▁공을	-4241
▁법칙	-4242
▁전철	-4243
▁특별한	-4244
ation	-4245
▁벼	-4246
▁했던	-4247
▁주둔	-4248
▁지니	-4249
▁검찰	-4250
▁피해를	-4251
▁기술을	-4252
▁도시로	-4253
▁그레이	-4254
▁대수	-4255
▁승인	-4256
▁헨리	-4257
▁1962	-4258
▁꼭	-4259
▁대학교에서	-4260
▁합격	-4261
바라	-4262
37	-4263
되면	-4264
▁g	-4265
▁활동했다	-4266
파는	-4267
▁탁	-4268
▁라인	-4269
▁참전	-4270
▁FA	-4271
▁채용	-4272
물이다	-4273
▁신성	-4274
터를	-4275
▁SK	-4276
▁가을	-4277
▁맡아	-4278
▁군대를	-4279
하였지만	-4280
▁브루	-4281
▁태어났으며	-4282
▁지키	-4283
▁운동을	-4284
르가	-4285
▁다르다	-4286
▁중이다	-4287
경이	-4288
미야	-4289
시에서	-4290
론은	-4291
▁어떠	-4292
▁총리	-4293
▁v	-4294
▁요코	-4295
라이언	-4296
▁공개된	-4297
아는	-4298
▁예측	-4299
▁말았다	-4300
▁37	-4301
▁이전의	-4302
▁1967	-4303
▁성인	-4304
▁달라	-4305
진의	-4306
▁빠르게	-4307
▁사건이	-4308
해도	-4309
▁국무	-4310
▁소녀	-4311
▁응용	-4312
적의	-4313
등이	-4314
▁열렸다	-4315
▁발매된	-4316
제와	-4317
▁킬	-4318
통을	-4319
▁사용되고	-4320
▁쥐	-4321
▁진압	-4322
▁동원	-4323
▁관할한다	-4324
행위	-4325
▁창조	-4326
▁것이며	-4327
▁제대로	-4328
▁지붕	-4329
▁롯데	-4330
▁반드시	-4331
없는	-4332
▁상승	-4333
▁잡아	-4334
▁소비에트	-4335
▁갈라	-4336
▁서비스를	-4337
▁깊은	-4338
▁방사	-4339
▁요소	-4340
▁돌아가	-4341
▁명명	-4342
▁셋	-4343
들이다	-4344
▁콘스탄	-4345
패를	-4346
▁1.	-4347
▁아사	-4348
구에서	-4349
▁출간	-4350
▁까	-4351
▁플레이오프	-4352
▁생존	-4353
▁선교	-4354
▁지어	-4355
▁가서	-4356
▁승진	-4357
▁외부	-4358
▁선거에서	-4359
▁기대	-4360
▁i	-4361
▁등급	-4362
▁장관	-4363
드라	-4364
▁능력을	-4365
▁에도	-4366
조판	-4367
리히	-4368
▁리더	-4369
▁중세	-4370
98	-4371
▁목표로	-4372
ER	-4373
▁층	-4374
▁자이	-4375
▁학문	-4376
▁아들로	-4377
▁여기에	-4378
▁왕국의	-4379
▁모아	-4380
▁오페	-4381
▁장군	-4382
프를	-4383
▁문헌	-4384
▁다수의	-4385
▁천연	-4386
▁구속	-4387
▁불안	-4388
▁발견된	-4389
▁임진	-4390
▁챔피언십	-4391
▁마케	-4392
▁늦	-4393
▁강점	-4394
▁복합	-4395
▁진보	-4396
실은	-4397
▁스미	-4398
▁평가를	-4399
▁내의	-4400
현의	-4401
▁끝난	-4402
▁좌우	-4403
▁서버	-4404
▁운전	-4405
▁라고	-4406
▁후속	-4407
▁연출	-4408
▁대기	-4409
▁배출	-4410
▁맞이	-4411
▁마지막으로	-4412
▁주관	-4413
▁남은	-4414
%,	-4415
에만	-4416
▁엠	-4417
곡을	-4418
▁꺾	-4419
▁톰	-4420
바로	-4421
▁둘째	-4422
▁소장	-4423
▁공군	-4424
▁독특	-4425
▁자녀	-4426
▁US	-4427
▁아미	-4428
▁왼쪽	-4429
리우스	-4430
▁알려졌다	-4431
▁정책을	-4432
▁존재하는	-4433
▁나치	-4434
▁농민	-4435
▁지급	-4436
▁최다	-4437
▁엄청	-4438
▁변경되었다	-4439
조로	-4440
ap	-4441
▁썼다	-4442
주의를	-4443
▁경우는	-4444
공사	-4445
▁연재	-4446
▁나타내는	-4447
▁치러	-4448
▁변환	-4449
▁가졌다	-4450
▁그와	-4451
겠다는	-4452
기까지	-4453
었다고	-4454
▁틀	-4455
공화국	-4456
▁파악	-4457
▁작품은	-4458
방을	-4459
▁전파	-4460
▁이후로	-4461
▁파라	-4462
▁라는	-4463
퍼드	-4464
▁저작	-4465
브라	-4466
▁목소	-4467
▁해양	-4468
면으로	-4469
▁받았고	-4470
▁형태를	-4471
▁1966	-4472
기간	-4473
▁쓰는	-4474
▁방영된	-4475
▁PC	-4476
리적	-4477
▁소년	-4478
▁이시	-4479
▁진화	-4480
▁지냈	-4481
38	-4482
▁창단	-4483
▁동작	-4484
안은	-4485
▁사법	-4486
▁세력	-4487
▁일부는	-4488
장인	-4489
▁이성	-4490
상태	-4491
명과	-4492
▁어떠한	-4493
타르	-4494
▁차별	-4495
▁지방의	-4496
▁우려	-4497
▁들어서	-4498
▁되자	-4499
부인	-4500
▁레오	-4501
▁1965	-4502
▁포도	-4503
46	-4504
▁않으며	-4505
▁향상	-4506
▁자신들의	-4507
터리	-4508
▁시카	-4509
▁일찍	-4510
▁베스트	-4511
▁국경	-4512
95	-4513
▁시즌에	-4514
▁한국에서	-4515
질랜드	-4516
▁제외하고	-4517
▁덧	-4518
토리	-4519
▁KBO	-4520
루는	-4521
▁합성	-4522
▁연구를	-4523
▁미야	-4524
▁체코	-4525
항을	-4526
▁풍부	-4527
▁정확한	-4528
선과	-4529
▁많아	-4530
▁대부분은	-4531
▁받을	-4532
▁계기로	-4533
▁그들이	-4534
▁양자	-4535
▁빼앗	-4536
▁차트	-4537
▁군주	-4538
▁일정	-4539
▁신뢰	-4540
섰다	-4541
▁개발한	-4542
평가	-4543
▁학습	-4544
▁위반	-4545
세한	-4546
표를	-4547
▁트랜	-4548
▁흉	-4549
들목	-4550
요시	-4551
▁없다는	-4552
▁횡	-4553
ON	-4554
으니	-4555
▁교환	-4556
입니다	-4557
기념	-4558
▁시에	-4559
▁오른쪽	-4560
▁해산	-4561
▁미군	-4562
▁켈	-4563
▁하였으나	-4564
▁것이라	-4565
리다	-4566
크가	-4567
▁반도	-4568
▁학위를	-4569
▁글을	-4570
▁국회	-4571
▁개신	-4572
린은	-4573
▁인기	-4574
▁실질	-4575
▁스페인의	-4576
레오	-4577
▁조작	-4578
락을	-4579
▁닥	-4580
▁관료	-4581
▁You	-4582
▁리처	-4583
▁늘어	-4584
▁전통적인	-4585
게는	-4586
▁점점	-4587
▁효율	-4588
▁세르비아	-4589
▁하였으며	-4590
▁Q	-4591
디션	-4592
▁갖는	-4593
▁이다	-4594
▁아버지는	-4595
▁검사	-4596
났고	-4597
▁55	-4598
주의의	-4599
▁작품이다	-4600
건을	-4601
▁헤르	-4602
되었을	-4603
-20	-4604
▁1961	-4605
사단	-4606
조직	-4607
ice	-4608
망을	-4609
복을	-4610
▁김일	-4611
▁완공	-4612
▁1000	-4613
▁택	-4614
토의	-4615
원이다	-4616
▁대통령이	-4617
▁3,	-4618
▁묶	-4619
겠다	-4620
▁분할	-4621
▁이룬다	-4622
▁성능	-4623
텐츠	-4624
▁로켓	-4625
▁무덤	-4626
▁민주당	-4627
▁지금의	-4628
▁제어	-4629
▁받는다	-4630
▁되며	-4631
▁분열	-4632
등의	-4633
계획	-4634
▁조별	-4635
▁마침내	-4636
▁팝	-4637
일과	-4638
▁것이라는	-4639
▁명확	-4640
▁연관	-4641
▁니시	-4642
▁노벨	-4643
▁오스만	-4644
▁홋	-4645
류는	-4646
75	-4647
해가	-4648
▁조절	-4649
▁둘러싸	-4650
▁역사적	-4651
ak	-4652
est	-4653
▁수영	-4654
▁올려	-4655
▁올랐	-4656
화되어	-4657
▁감독이	-4658
▁프로그램을	-4659
▁기록이	-4660
▁테이	-4661
진이	-4662
▁성적	-4663
산시	-4664
신으로	-4665
▁의미를	-4666
▁독립운동	-4667
▁주장하였다	-4668
▁동성	-4669
▁페이	-4670
▁보관	-4671
32	-4672
▁보안	-4673
▁예비	-4674
▁바라	-4675
치아	-4676
▁사우	-4677
고의	-4678
온은	-4679
▁지내	-4680
▁뉴질랜드	-4681
그라	-4682
책을	-4683
▁음식	-4684
사관	-4685
▁회전	-4686
▁샤를	-4687
▁성을	-4688
▁포함하고	-4689
▁상품	-4690
▁감독을	-4691
▁나이로	-4692
투스	-4693
사무	-4694
인도	-4695
▁마이크로소프트	-4696
▁동아	-4697
▁활성	-4698
마는	-4699
▁아라	-4700
▁사립	-4701
▁부산광역시	-4702
▁훗	-4703
▁특이	-4704
▁갔다	-4705
▁이루어졌다	-4706
▁완료	-4707
▁교육을	-4708
▁릴	-4709
천시	-4710
▁스탠	-4711
▁페르시아	-4712
▁반대로	-4713
▁새겨	-4714
▁단독	-4715
ia	-4716
▁인접	-4717
AR	-4718
비스	-4719
토니	-4720
▁학술	-4721
▁1919	-4722
코는	-4723
▁마치	-4724
▁신청	-4725
▁한정	-4726
▁있음을	-4727
왕은	-4728
판이	-4729
▁스위스	-4730
▁나뉜	-4731
▁느끼	-4732
연히	-4733
임이	-4734
산화	-4735
시험	-4736
자료	-4737
▁문제로	-4738
▁예수	-4739
으로서의	-4740
▁사단	-4741
▁스프	-4742
▁이후의	-4743
▁포함한다	-4744
-4	-4745
질이	-4746
▁삽	-4747
▁테러	-4748
▁출범	-4749
▁통산	-4750
▁처형	-4751
민주당	-4752
▁모양의	-4753
▁빅토	-4754
▁하나인	-4755
▁김정	-4756
▁관계가	-4757
▁그렇게	-4758
▁말에	-4759
▁쓸	-4760
▁연대	-4761
씨가	-4762
▁영화는	-4763
▁주전	-4764
자로서	-4765
소송	-4766
art	-4767
▁일치	-4768
사우	-4769
▁대개	-4770
▁위성	-4771
92	-4772
▁지은	-4773
하였던	-4774
▁프로듀서	-4775
▁황금	-4776
▁나왔다	-4777
▁1944	-4778
드레	-4779
▁도쿠	-4780
▁메시	-4781
▁작업을	-4782
하였다고	-4783
이므로	-4784
들로부터	-4785
보살	-4786
방의	-4787
ie	-4788
▁개막	-4789
▁함락	-4790
름을	-4791
▁적절	-4792
▁나타난다	-4793
부터는	-4794
오스	-4795
▁간행	-4796
뮤니	-4797
▁흘러	-4798
▁충청북도	-4799
니가	-4800
▁의무	-4801
▁방법으로	-4802
▁포함하여	-4803
▁가스	-4804
령이	-4805
한국	-4806
▁장치	-4807
▁향해	-4808
▁크고	-4809
▁형사	-4810
▁경제적	-4811
▁75	-4812
학에서	-4813
차는	-4814
▁거두었다	-4815
야구	-4816
▁불렀다	-4817
▁역이다	-4818
▁구현	-4819
▁오랫	-4820
▁꼽	-4821
▁시리아	-4822
▁조선의	-4823
▁코드	-4824
▁어린이	-4825
▁활동하고	-4826
개로	-4827
▁역은	-4828
▁48	-4829
▁스카	-4830
▁항성	-4831
▁의혹	-4832
▁1941	-4833
31	-4834
개혁	-4835
지컬	-4836
올림픽	-4837
▁메인	-4838
로마	-4839
시키기	-4840
▁취소	-4841
▁훌	-4842
▁캔	-4843
▁없으며	-4844
▁제공한다	-4845
재판	-4846
▁IS	-4847
▁후보로	-4848
▁창원	-4849
▁프라	-4850
▁급제	-4851
▁저서	-4852
시리즈	-4853
▁당시에는	-4854
▁아스	-4855
▁차이	-4856
▁제작한	-4857
▁훗날	-4858
96	-4859
학은	-4860
레인	-4861
34	-4862
▁쳐	-4863
천군	-4864
각을	-4865
▁인지	-4866
이센	-4867
▁그때	-4868
▁터미널	-4869
▁통계	-4870
들에서	-4871
▁뜻으로	-4872
▁감독으로	-4873
터가	-4874
▁성향	-4875
했었다	-4876
▁마크	-4877
▁질병	-4878
▁부르는	-4879
▁선정되었다	-4880
행정	-4881
▁상당한	-4882
스포	-4883
▁인종	-4884
▁추천	-4885
▁유행	-4886
▁덴마크	-4887
▁오랫동안	-4888
▁가나	-4889
▁근본	-4890
▁네이	-4891
고기	-4892
▁발굴	-4893
▁소속으로	-4894
▁만들어졌다	-4895
▁잉글랜드의	-4896
▁이하	-4897
▁중인	-4898
▁쓰고	-4899
자들에게	-4900
무부	-4901
▁역으로	-4902
▁음악을	-4903
▁사람들의	-4904
▁누구	-4905
▁지상역이다	-4906
▁합쳐	-4907
▁분위	-4908
▁지금까지	-4909
▁퀸	-4910
og	-4911
▁규모의	-4912
▁예정이다	-4913
▁혐의로	-4914
위와	-4915
▁무너	-4916
사이트	-4917
▁띄	-4918
▁주택	-4919
무늬	-4920
우주	-4921
색의	-4922
▁당초	-4923
▁공업	-4924
교는	-4925
▁시작된	-4926
▁목록이다	-4927
에이	-4928
▁1958	-4929
ly	-4930
▁샘	-4931
주었다	-4932
▁이름의	-4933
▁호는	-4934
거운	-4935
▁출장	-4936
카이도	-4937
터의	-4938
▁실현	-4939
▁소송	-4940
▁코파	-4941
화되었다	-4942
▁명을	-4943
▁속한	-4944
메리칸	-4945
▁DNA	-4946
▁쓰이는	-4947
▁주지	-4948
▁골든	-4949
▁고문	-4950
여서	-4951
;/	-4952
▁1947	-4953
▁찰스	-4954
▁보병	-4955
▁프리미어	-4956
▁알파	-4957
▁경우에	-4958
▁고속도로	-4959
▁해리	-4960
▁영상	-4961
▁플래	-4962
▁밀도는	-4963
ne	-4964
▁내용은	-4965
▁뜻하는	-4966
▁입장을	-4967
▁후기	-4968
▁발견되었다	-4969
▁희생	-4970
였지만	-4971
▁|	-4972
▁직업	-4973
▁1956	-4974
▁개입	-4975
▁기둥	-4976
리그의	-4977
▁언제	-4978
▁이르러	-4979
▁시작한다	-4980
▁출시되었다	-4981
양을	-4982
▁다다	-4983
공원	-4984
-5	-4985
▁아이돌	-4986
▁로스앤젤레스	-4987
▁재배	-4988
▁편찬	-4989
현은	-4990
▁텍사	-4991
▁펼쳐	-4992
네이	-4993
▁안동	-4994
화한	-4995
▁승객	-4996
비로	-4997
▁혼합	-4998
▁빙	-4999
론이	-5000
카는	-5001
▁졸업하고	-5002
▁등장한다	-5003
▁무시	-5004
▁세계의	-5005
▁마무	-5006
▁발발	-5007
▁가지는	-5008
고가	-5009
레옹	-5010
▁Ch	-5011
▁죽었다	-5012
▁공헌	-5013
▁안에서	-5014
▁부대	-5015
▁골을	-5016
▁접촉	-5017
▁침략	-5018
64	-5019
AT	-5020
성군	-5021
▁프린	-5022
▁연산	-5023
▁일부를	-5024
▁아르헨티나	-5025
▁국민의	-5026
▁하위	-5027
쿠스	-5028
▁높이는	-5029
▁바깥	-5030
▁지켜	-5031
동맹	-5032
▁유기	-5033
▁자극	-5034
▁뚜	-5035
▁프로그래	-5036
인들을	-5037
▁번의	-5038
▁마르크	-5039
▁변화를	-5040
▁받아들여	-5041
슨의	-5042
39	-5043
▁처벌	-5044
체스터	-5045
이었지만	-5046
총독	-5047
▁2.	-5048
▁크로아	-5049
▁저술	-5050
미니	-5051
▁중화민국	-5052
▁픽	-5053
치게	-5054
▁길을	-5055
루가	-5056
▁l	-5057
중의	-5058
▁사임	-5059
▁제일	-5060
▁올렸다	-5061
▁고유	-5062
▁확립	-5063
▁침입	-5064
ab	-5065
▁최우	-5066
BA	-5067
▁성적을	-5068
동과	-5069
▁망명	-5070
▁화재	-5071
내에	-5072
▁상위	-5073
▁Re	-5074
▁아티	-5075
▁구역	-5076
▁도와	-5077
해져	-5078
▁지시	-5079
▁섞	-5080
▁콤	-5081
르기	-5082
▁1939	-5083
▁철수	-5084
▁독특한	-5085
▁새롭게	-5086
로와	-5087
되었다가	-5088
▁심각한	-5089
▁이들을	-5090
▁대한민국에서는	-5091
▁유일하게	-5092
왜란	-5093
▁사냥	-5094
▁주최	-5095
영의	-5096
체와	-5097
▁곡을	-5098
▁나들목	-5099
▁확률	-5100
▁앉	-5101
라며	-5102
정과	-5103
▁기울	-5104
▁기회를	-5105
▁+	-5106
관계	-5107
▁미사일	-5108
▁k	-5109
▁가치가	-5110
▁단편	-5111
▁시위	-5112
▁거듭	-5113
▁정기	-5114
함과	-5115
▁다스	-5116
▁부분을	-5117
▁진행되었다	-5118
▁얻은	-5119
▁조종	-5120
▁일본에	-5121
▁가담	-5122
파를	-5123
▁인구가	-5124
1,	-5125
격한	-5126
76	-5127
▁h	-5128
안이	-5129
▁신호	-5130
se	-5131
가타	-5132
▁나폴레옹	-5133
IV	-5134
▁뜨	-5135
▁분명	-5136
▁임대	-5137
▁상황에서	-5138
▁주어진	-5139
▁갔	-5140
석의	-5141
▁왕조	-5142
▁작곡가	-5143
▁촌	-5144
트릭	-5145
ist	-5146
▁다운	-5147
▁받았으며	-5148
고등	-5149
▁않게	-5150
▁군의	-5151
▁사용된	-5152
▁묵	-5153
▁저녁	-5154
▁극장	-5155
기록	-5156
▁곡은	-5157
▁공연을	-5158
▁캐나다의	-5159
▁멀리	-5160
▁화물	-5161
▁정지	-5162
스럽게	-5163
ight	-5164
▁대표하는	-5165
식과	-5166
▁지역으로	-5167
▁임금	-5168
▁부상을	-5169
▁놓고	-5170
▁진주	-5171
▁어려운	-5172
▁이기	-5173
▁지위를	-5174
▁1954	-5175
▁제공하는	-5176
85	-5177
▁상태로	-5178
99	-5179
치와	-5180
디움	-5181
▁도요	-5182
▁인권	-5183
▁상대적으로	-5184
▁부하	-5185
목록	-5186
▁매일	-5187
▁등판	-5188
▁어디	-5189
▁금메달을	-5190
층의	-5191
▁방정	-5192
▁미드필	-5193
▁스마트	-5194
▁대리	-5195
▁임진왜란	-5196
베르트	-5197
디는	-5198
▁중에는	-5199
실의	-5200
▁구글	-5201
▁코르	-5202
▁이루고	-5203
▁노래를	-5204
야의	-5205
▁to	-5206
▁잡지	-5207
AS	-5208
▁1952	-5209
86	-5210
▁AFC	-5211
어야	-5212
▁로드	-5213
▁어깨	-5214
스트로	-5215
례를	-5216
▁보았다	-5217
타운	-5218
▁전형	-5219
연을	-5220
▁심지	-5221
▁행동을	-5222
▁닌	-5223
▁총선	-5224
▁가문의	-5225
▁앞에서	-5226
▁닛	-5227
▁교향	-5228
프랑	-5229
▁다케	-5230
되는데	-5231
▁다르게	-5232
▁명칭은	-5233
▁브라운	-5234
▁노출	-5235
▁후계	-5236
▁편이다	-5237
함이	-5238
우의	-5239
▁긍	-5240
론에	-5241
▁활약을	-5242
▁사람들을	-5243
▁내렸다	-5244
에른	-5245
▁따로	-5246
양의	-5247
▁절반	-5248
▁준다	-5249
▁자리잡	-5250
▁해당한다	-5251
▁나아가	-5252
▁인쇄	-5253
▁정비	-5254
▁드라이	-5255
▁아테네	-5256
카가	-5257
▁도모	-5258
▁곽	-5259
티오	-5260
▁하에	-5261
▁나타내	-5262
▁바뀌었다	-5263
▁후원	-5264
하지는	-5265
▁내셔널	-5266
▁유형문화재	-5267
▁으로	-5268
▁유럽의	-5269
▁돕	-5270
▁와이	-5271
관과	-5272
▁타임	-5273
▁안드로	-5274
▁선생	-5275
▁특정한	-5276
속에	-5277
아르	-5278
색으로	-5279
▁일으키	-5280
▁영웅	-5281
▁군이다	-5282
▁연결하는	-5283
▁득표	-5284
어이다	-5285
자키	-5286
▁만들고	-5287
▁미드필더	-5288
▁벌어	-5289
한의	-5290
▁장교	-5291
시장	-5292
▁해야	-5293
법으로	-5294
강의	-5295
▁연구에	-5296
▁설립되었다	-5297
츠는	-5298
▁알바	-5299
▁헝가리	-5300
▁폐쇄	-5301
▁피터	-5302
▁사업을	-5303
▁시인	-5304
▁효과를	-5305
▁정차	-5306
슬러	-5307
주의적	-5308
▁보유하고	-5309
포를	-5310
▁가와	-5311
▁평안	-5312
▁단계	-5313
▁들고	-5314
▁장남	-5315
자유	-5316
▁인디언	-5317
구이다	-5318
족이	-5319
▁루이스	-5320
▁상하이	-5321
베스	-5322
▁포켓	-5323
▁다수	-5324
▁재건	-5325
루를	-5326
▁그래픽	-5327
▁서울대학교	-5328
타의	-5329
▁다소	-5330
▁상을	-5331
;,	-5332
보고	-5333
▁추구	-5334
▁현역	-5335
되었다고	-5336
▁계통	-5337
▁리버	-5338
▁나뉜다	-5339
▁포항	-5340
물에	-5341
구치	-5342
▁한글	-5343
▁듣고	-5344
▁천주교	-5345
94	-5346
_6	-5347
▁노스	-5348
▁싱가	-5349
파가	-5350
▁조선시대	-5351
▁맡은	-5352
히고	-5353
▁시나	-5354
▁관여	-5355
데르	-5356
▁반란을	-5357
▁설치된	-5358
▁학살	-5359
▁이혼	-5360
▁데뷔하였다	-5361
▁1959	-5362
▁행위	-5363
▁아름다운	-5364
▁시상	-5365
▁변형	-5366
▁설득	-5367
미르	-5368
정치	-5369
▁카드	-5370
▁대회에	-5371
▁돼	-5372
▁단위	-5373
▁법정	-5374
▁탈퇴	-5375
▁커뮤니	-5376
▁대부분이	-5377
었기	-5378
▁두려	-5379
▁박정희	-5380
▁주장한다	-5381
▁프로이센	-5382
▁전직	-5383
▁사운드	-5384
▁단지	-5385
▁관련이	-5386
▁사망한	-5387
▁팽	-5388
▁돈을	-5389
▁한나라	-5390
하므로	-5391
▁소련의	-5392
▁필요가	-5393
▁김대	-5394
▁블라	-5395
▁다음의	-5396
▁발생하는	-5397
▁엄청난	-5398
▁참여했다	-5399
▁지도자	-5400
동생	-5401
혁명	-5402
▁동해	-5403
▁시스템을	-5404
▁존재하지	-5405
▁투쟁	-5406
▁세력을	-5407
▁일시	-5408
▁분노	-5409
별로	-5410
▁경남	-5411
▁현상	-5412
▁무한	-5413
▁여객철도	-5414
IA	-5415
▁중부	-5416
▁프랑크	-5417
▁랜	-5418
▁영업	-5419
▁선전	-5420
ove	-5421
▁앵	-5422
▁64	-5423
▁개신교	-5424
▁가진다	-5425
▁앤드	-5426
▁원소	-5427
▁바이에른	-5428
▁그로	-5429
▁나누어	-5430
▁유한	-5431
▁몰아	-5432
▁시리즈의	-5433
▁일어났다	-5434
▁사실이	-5435
▁작품으로	-5436
▁기다	-5437
▁뮤지컬	-5438
▁여겨진다	-5439
주고	-5440
▁개설	-5441
제에서	-5442
▁160	-5443
▁도시의	-5444
▁데에	-5445
▁올림픽에	-5446
강에	-5447
▁의심	-5448
▁더블	-5449
치지	-5450
▁나고	-5451
▁미국과	-5452
련의	-5453
if	-5454
레나	-5455
▁개조	-5456
▁1942	-5457
▁겹	-5458
▁돌아와	-5459
▁공사	-5460
▁부친	-5461
차전	-5462
키가	-5463
ess	-5464
▁오직	-5465
▁춤	-5466
▁라이트	-5467
▁벗어나	-5468
▁적합	-5469
▁홍보	-5470
▁지금은	-5471
▁뮌	-5472
비에	-5473
▁해상	-5474
▁참가했다	-5475
▁운영하고	-5476
점의	-5477
...	-5478
▁성공을	-5479
▁테스트	-5480
▁행렬	-5481
카의	-5482
리며	-5483
▁전까지	-5484
페르	-5485
▁신학	-5486
▁공화국의	-5487
▁광복	-5488
▁에르	-5489
▁통상	-5490
▁대통령은	-5491
▁에드워드	-5492
▁나타낸다	-5493
▁군인	-5494
▁역사를	-5495
▁곳으로	-5496
▁프로토	-5497
▁벌어진	-5498
▁한국어	-5499
▁녹색	-5500
▁내용이	-5501
▁리처드	-5502
▁파트	-5503
▁해도	-5504
공의	-5505
키의	-5506
▁맞아	-5507
▁세상을	-5508
▁음반은	-5509
▁발탁	-5510
ub	-5511
속의	-5512
▁NH	-5513
마를	-5514
▁가이	-5515
VD	-5516
-19	-5517
▁시카고	-5518
▁크기	-5519
▁소방	-5520
▁120	-5521
▁프리드리	-5522
▁1943	-5523
▁정치인이다	-5524
▁완전한	-5525
▁연예	-5526
가시	-5527
▁대통령의	-5528
▁소멸	-5529
▁깃	-5530
100	-5531
▁기록은	-5532
후에	-5533
▁김성	-5534
▁주간	-5535
▁이로써	-5536
▁필요하다	-5537
▁가게	-5538
타로	-5539
루의	-5540
질의	-5541
대장	-5542
▁전력	-5543
오의	-5544
▁일컫	-5545
우가	-5546
▁못하였다	-5547
▁루마	-5548
▁못하는	-5549
33	-5550
▁웅	-5551
▁루트	-5552
▁자전	-5553
▁초기의	-5554
▁갖추고	-5555
▁바닥	-5556
즈가	-5557
▁1953	-5558
▁프랭	-5559
▁수요	-5560
▁나타나는	-5561
ine	-5562
에서만	-5563
▁비례	-5564
▁전부	-5565
격으로	-5566
▁않지만	-5567
▁말레이시아	-5568
▁출연하였다	-5569
담을	-5570
▁자리에	-5571
▁1955	-5572
▁정교	-5573
▁재개	-5574
▁있었다고	-5575
▁밥	-5576
▁높다	-5577
리언	-5578
▁있었기	-5579
▁스케	-5580
생물	-5581
▁특징이다	-5582
▁파르	-5583
▁일어나는	-5584
리안	-5585
▁한일	-5586
▁희망	-5587
▁굳	-5588
▁징역	-5589
▁떠났다	-5590
▁1936	-5591
▁비상	-5592
었을	-5593
▁승려	-5594
▁전면	-5595
듯이	-5596
범위	-5597
▁도전	-5598
공산	-5599
다의	-5600
▁병합	-5601
▁화성	-5602
토는	-5603
▁살인	-5604
인에게	-5605
▁첼	-5606
보호	-5607
▁음반이다	-5608
▁39	-5609
▁주장을	-5610
▁레알	-5611
▁궤도	-5612
부대	-5613
▁빌보드	-5614
▁화이트	-5615
▁쓰여	-5616
▁연고	-5617
▁점이	-5618
▁여섯	-5619
▁잠수	-5620
시스코	-5621
라에	-5622
▁동안에	-5623
▁이른다	-5624
▁1910	-5625
▁대체로	-5626
문제	-5627
▁오프	-5628
▁이끌었다	-5629
직에	-5630
▁지지를	-5631
▁선박	-5632
판은	-5633
니스탄	-5634
▁보여준다	-5635
78	-5636
왕을	-5637
▁문을	-5638
▁인용	-5639
▁파워	-5640
EC	-5641
▁눈에	-5642
▁왕이	-5643
▁끌어	-5644
▁시사	-5645
▁스키	-5646
▁천안	-5647
▁개칭	-5648
▁논문	-5649
▁남아프리카	-5650
▁무게	-5651
파로	-5652
▁즉시	-5653
▁일정한	-5654
▁민법	-5655
▁사마	-5656
▁발언	-5657
▁사용하였다	-5658
피스	-5659
▁얻을	-5660
▁참가한	-5661
ue	-5662
▁속의	-5663
▁창작	-5664
서와	-5665
▁전쟁에	-5666
▁남쪽으로	-5667
▁이후에도	-5668
틀러	-5669
▁구입	-5670
▁대장	-5671
▁석유	-5672
▁부분이	-5673
▁힌	-5674
코스	-5675
▁속해	-5676
▁책임을	-5677
▁조선총독	-5678
65	-5679
▁즈	-5680
▁패션	-5681
소설	-5682
▁스티븐	-5683
▁세계적으로	-5684
▁선수단	-5685
자동차	-5686
="	-5687
▁남겼다	-5688
▁크리	-5689
되어야	-5690
▁카운티	-5691
▁Th	-5692
바일	-5693
ive	-5694
▁임의의	-5695
▁긍정	-5696
▁사건은	-5697
▁느낌	-5698
▁신체	-5699
▁위로	-5700
관에서	-5701
▁집권	-5702
거래	-5703
▁가슴	-5704
▁심리	-5705
▁정권	-5706
▁되는데	-5707
▁AT	-5708
▁65	-5709
▁액션	-5710
남도의	-5711
▁1957	-5712
제도	-5713
중을	-5714
▁초에	-5715
▁원주민	-5716
▁선임	-5717
▁기록하며	-5718
▁조지아	-5719
종합	-5720
▁구매	-5721
▁넓이는	-5722
족은	-5723
▁사용했다	-5724
독립	-5725
▁전쟁에서	-5726
감독	-5727
▁로마의	-5728
▁메이지	-5729
▁정체	-5730
평균	-5731
만으로	-5732
▁아들인	-5733
▁명령을	-5734
▁수상하였다	-5735
▁텍사스	-5736
중학교는	-5737
▁부진	-5738
▁순간	-5739
▁노르웨이	-5740
▁말하는	-5741
학자들은	-5742
느냐	-5743
▁김종	-5744
▁도덕	-5745
▁쿠데	-5746
▁티베	-5747
▁명나라	-5748
▁사우스	-5749
▁호소	-5750
▁지속적으로	-5751
▁게다가	-5752
▁종사	-5753
▁상황을	-5754
▁빚	-5755
▁SS	-5756
▁짜	-5757
▁동방	-5758
▁기소	-5759
▁태국	-5760
▁핑	-5761
▁다음날	-5762
처를	-5763
▁양의	-5764
▁지니고	-5765
▁1914	-5766
산과	-5767
영을	-5768
▁시드	-5769
▁일부가	-5770
▁이전에는	-5771
코의	-5772
▁보건	-5773
▁연습	-5774
▁방식을	-5775
▁분해	-5776
▁이상이	-5777
▁포스트	-5778
▁닫	-5779
▁츠	-5780
실이	-5781
▁비롯하여	-5782
목을	-5783
▁밀려	-5784
▁영화배우이다	-5785
백만	-5786
▁바르셀	-5787
▁이들이	-5788
호에	-5789
▁개체	-5790
▁동북	-5791
▁타이거	-5792
그램	-5793
▁어머니는	-5794
▁그것이	-5795
▁무사	-5796
레는	-5797
장애	-5798
행성	-5799
여래	-5800
▁바둑	-5801
▁곳이다	-5802
년부터는	-5803
공을	-5804
▁똑	-5805
▁왕의	-5806
평을	-5807
▁임무	-5808
▁의학	-5809
▁전남	-5810
▁전쟁의	-5811
▁도시이다	-5812
▁이름이다	-5813
활동을	-5814
전투	-5815
년도	-5816
▁선출되었다	-5817
▁달려	-5818
과대학	-5819
받는	-5820
▁만든다	-5821
▁돌려	-5822
▁터널	-5823
▁가치	-5824
학교를	-5825
▁기록되어	-5826
▁미쓰	-5827
▁다리	-5828
▁디스	-5829
▁투어	-5830
▁권력을	-5831
▁외국인	-5832
▁분야에서	-5833
▁표면	-5834
▁화려	-5835
▁나온다	-5836
▁후쿠오카	-5837
BM	-5838
▁암컷	-5839
▁1938	-5840
미술	-5841
마가	-5842
부장	-5843
▁전북	-5844
▁추가로	-5845
▁권력	-5846
▁동양	-5847
89	-5848
▁세웠	-5849
▁부분은	-5850
▁강릉	-5851
▁복원	-5852
▁운영하는	-5853
린의	-5854
▁자이언	-5855
▁북쪽으로	-5856
▁드래프트	-5857
▁섬의	-5858
▁수의	-5859
▁멘	-5860
▁없을	-5861
▁완벽	-5862
▁문제에	-5863
▁미국은	-5864
▁방해	-5865
▁글로벌	-5866
▁남아있	-5867
▁파크	-5868
▁공중	-5869
▁만한	-5870
▁장수	-5871
▁책을	-5872
▁알고리즘	-5873
만한	-5874
하시	-5875
▁여러가지	-5876
▁보스	-5877
▁유효	-5878
▁않으면	-5879
▁47	-5880
IN	-5881
▁이르렀다	-5882
▁올림픽에서	-5883
▁큐	-5884
▁연간	-5885
▁불렸다	-5886
학자이다	-5887
▁1900	-5888
▁수석	-5889
▁밝혀졌다	-5890
▁갑자기	-5891
▁로봇	-5892
▁힙	-5893
▁작동	-5894
▁위치를	-5895
▁방지	-5896
▁상태에서	-5897
▁크다	-5898
▁롱	-5899
▁만다	-5900
▁출전하여	-5901
청은	-5902
▁전송	-5903
▁나타났다	-5904
가인	-5905
감이	-5906
▁탐사	-5907
▁IC	-5908
중한	-5909
▁농구	-5910
▁맞서	-5911
환으로	-5912
▁초기에	-5913
▁지구의	-5914
▁사퇴	-5915
▁번호는	-5916
▁브레	-5917
즈를	-5918
▁복무	-5919
▁자금	-5920
사이다	-5921
▁의식	-5922
▁재학	-5923
▁복잡한	-5924
▁차지하고	-5925
▁수리	-5926
▁싸우	-5927
▁들어갔다	-5928
▁추기	-5929
▁벡터	-5930
▁알레	-5931
▁그리하여	-5932
▁46	-5933
▁내세	-5934
▁물을	-5935
▁서구	-5936
사람	-5937
튜브	-5938
너스	-5939
▁공주	-5940
▁싸움	-5941
▁측면	-5942
했다가	-5943
▁상속	-5944
▁포켓몬	-5945
▁1951	-5946
▁본질	-5947
▁게임을	-5948
▁검토	-5949
우를	-5950
클리	-5951
▁마무리	-5952
▁받아들이	-5953
계약	-5954
▁해발	-5955
▁1918	-5956
츠의	-5957
▁여성의	-5958
▁이른바	-5959
다란	-5960
▁청주	-5961
▁프리드리히	-5962
▁44	-5963
▁1932	-5964
▁선포	-5965
달러	-5966
호와	-5967
▁내놓	-5968
▁대한민국에서	-5969
▁윗	-5970
▁후임	-5971
되지만	-5972
▁아래와	-5973
▁올스타	-5974
▁서술	-5975
▁유학	-5976
▁특성	-5977
분으로	-5978
더스	-5979
타마	-5980
▁향토	-5981
▁개별	-5982
▁유치	-5983
▁스트리	-5984
▁이루는	-5985
▁되돌	-5986
베리아	-5987
▁근처에	-5988
▁1937	-5989
지마	-5990
▁대량	-5991
▁소식을	-5992
all	-5993
▁꾸준	-5994
▁말이	-5995
▁히트	-5996
97	-5997
모가	-5998
▁조카	-5999
▁협회	-6000
▁디스크	-6001
동물	-6002
역과	-6003
슬링	-6004
▁순위	-6005
pe	-6006
▁광범위	-6007
▁접한다	-6008
씨를	-6009
▁그곳에서	-6010
▁나왔	-6011
▁비트	-6012
▁형식으로	-6013
렸으며	-6014
▁문제는	-6015
our	-6016
44	-6017
어버	-6018
월의	-6019
▁따서	-6020
▁대의	-6021
▁덧붙	-6022
▁AP	-6023
▁강등	-6024
▁없게	-6025
포로	-6026
▁토지	-6027
▁발간	-6028
강을	-6029
열을	-6030
ore	-6031
▁화산	-6032
▁당시에	-6033
▁연결되어	-6034
▁아메리칸	-6035
▁달하는	-6036
는지	-6037
유가	-6038
▁히로시마	-6039
사전	-6040
발을	-6041
▁아이디	-6042
비시	-6043
양이	-6044
▁포트	-6045
▁일으켜	-6046
▁란	-6047
▁직원	-6048
▁아오	-6049
▁고위	-6050
▁폴리	-6051
▁1935	-6052
▁격파	-6053
집을	-6054
▁이웃	-6055
▁일은	-6056
에선	-6057
▁HD	-6058
▁성남	-6059
▁전투를	-6060
▁확산	-6061
▁능력	-6062
▁이명	-6063
▁방법은	-6064
▁사용자	-6065
렬한	-6066
천만	-6067
▁화합	-6068
크래프트	-6069
▁뮌헨	-6070
▁클레	-6071
▁조건을	-6072
특별자치	-6073
▁성경	-6074
▁최우수	-6075
▁토론토	-6076
▁드래	-6077
▁갖는다	-6078
너는	-6079
▁한자	-6080
▁개념을	-6081
쥐는	-6082
펙트	-6083
조차	-6084
▁스프링	-6085
▁핫	-6086
▁아버지의	-6087
▁십자	-6088
주의자	-6089
▁유배	-6090
▁영국에서	-6091
▁상실	-6092
▁언덕	-6093
비히	-6094
▁엘리자	-6095
중인	-6096
▁이라크	-6097
군에서	-6098
율이	-6099
▁기병	-6100
▁끝내	-6101
▁단순한	-6102
▁필수	-6103
▁항의	-6104
환을	-6105
▁대상이	-6106
▁위에서	-6107
▁추방	-6108
▁등장인	-6109
▁배포	-6110
▁폭탄	-6111
▁개방	-6112
▁왕조의	-6113
ID	-6114
▁사랑을	-6115
▁캠퍼	-6116
▁하기도	-6117
3,	-6118
▁암호	-6119
▁직전	-6120
친다	-6121
▁주기	-6122
하여야	-6123
▁양쪽	-6124
▁세부	-6125
파와	-6126
형에	-6127
▁현지	-6128
▁크레	-6129
▁하여금	-6130
됨에	-6131
▁상관	-6132
폴리스	-6133
87	-6134
기지	-6135
아나	-6136
▁카라	-6137
가락	-6138
▁오페라	-6139
▁사건으로	-6140
름이	-6141
니즘	-6142
▁태양의	-6143
▁계속해서	-6144
공간	-6145
▁입고	-6146
▁넷	-6147
이닝	-6148
▁참여한	-6149
▁화장	-6150
▁전동차	-6151
▁후인	-6152
▁역임하였다	-6153
아서	-6154
▁칼리	-6155
았으나	-6156
▁사람들에게	-6157
로에	-6158
▁충분히	-6159
▁쌀	-6160
목에	-6161
▁단어	-6162
▁명단	-6163
▁유고	-6164
▁내가	-6165
▁서쪽으로	-6166
유를	-6167
되게	-6168
▁개인의	-6169
▁권리를	-6170
법인	-6171
본부	-6172
본을	-6173
▁이온	-6174
▁중학교이다	-6175
▁독립을	-6176
▁덜	-6177
▁특징을	-6178
▁회장	-6179
하기를	-6180
▁가까이	-6181
▁겉	-6182
슬라	-6183
▁갈색	-6184
▁탄핵	-6185
▁업무를	-6186
▁전문가	-6187
▁했는데	-6188
보이	-6189
스트라	-6190
▁텐	-6191
▁열차가	-6192
조건	-6193
▁지향	-6194
▁그들을	-6195
▁1933	-6196
비와	-6197
▁장소	-6198
▁동쪽으로	-6199
▁곱	-6200
바는	-6201
▁거짓	-6202
▁자원	-6203
▁신도	-6204
▁분기	-6205
▁최대의	-6206
▁수십	-6207
▁성직	-6208
▁대표로	-6209
ul	-6210
파이	-6211
▁개국	-6212
ell	-6213
▁사전	-6214
▁미리	-6215
▁클라	-6216
▁본격적으로	-6217
▁좋지	-6218
▁인도의	-6219
▁사회의	-6220
▁몸을	-6221
▁수소	-6222
▁명칭을	-6223
▁반응을	-6224
▁42	-6225
▁흑인	-6226
제르	-6227
항은	-6228
▁보편	-6229
▁1928	-6230
▁나라의	-6231
야는	-6232
▁그라	-6233
▁우리는	-6234
신문	-6235
관광	-6236
▁포함하는	-6237
▁인천광역시	-6238
과정	-6239
▁고객	-6240
나카	-6241
▁보물	-6242
IC	-6243
연대	-6244
▁오카	-6245
▁체육	-6246
▁우수	-6247
▁걸친	-6248
되거나	-6249
▁별도의	-6250
서양	-6251
▁재능	-6252
▁탄압	-6253
▁메달	-6254
▁크루	-6255
목으로	-6256
▁프라이	-6257
민의	-6258
이상	-6259
이치	-6260
▁커버	-6261
▁마음을	-6262
▁아래에	-6263
▁마틴	-6264
▁1924	-6265
▁결의	-6266
▁알리	-6267
▁밝은	-6268
신인	-6269
▁산화	-6270
▁유나이티드	-6271
▁준우승	-6272
▁오키	-6273
▁앞으로	-6274
▁재임	-6275
▁의미하는	-6276
▁멈	-6277
▁삶을	-6278
▁손을	-6279
▁돌아온	-6280
우스는	-6281
▁제도를	-6282
▁골드	-6283
▁단순히	-6284
▁쾌	-6285
령의	-6286
▁CP	-6287
▁이어지는	-6288
▁바르셀로나	-6289
▁웨일	-6290
▁교류	-6291
▁상태를	-6292
비트	-6293
베리	-6294
▁낸	-6295
▁모바일	-6296
마에	-6297
▁위키	-6298
▁스타디움	-6299
▁연료	-6300
▁입장	-6301
▁가깝	-6302
▁억제	-6303
▁스탈	-6304
▁노선을	-6305
▁임무를	-6306
▁4,	-6307
ill	-6308
▁분자	-6309
▁상대식	-6310
기인	-6311
ain	-6312
코프	-6313
▁지불	-6314
▁웃	-6315
▁행복	-6316
즈니	-6317
무장	-6318
▁넣어	-6319
▁무대	-6320
▁일으켰다	-6321
실로	-6322
▁로렌	-6323
▁DVD	-6324
▁뻗	-6325
키퍼	-6326
투아	-6327
▁수컷	-6328
▁기본적으로	-6329
결승	-6330
▁집에	-6331
▁출연했다	-6332
였는데	-6333
▁보이지	-6334
모는	-6335
▁오다	-6336
▁원인이	-6337
-10	-6338
▁한성	-6339
주의는	-6340
▁포함된다	-6341
테이	-6342
▁가상	-6343
▁서서	-6344
▁역사가	-6345
재로	-6346
▁56	-6347
▁개척	-6348
▁이재	-6349
▁작사	-6350
▁인기가	-6351
▁출신이다	-6352
조참	-6353
▁고종	-6354
▁중추	-6355
▁영화의	-6356
▁함경	-6357
▁가난	-6358
군에게	-6359
당으로	-6360
▁있으므로	-6361
로서는	-6362
▁자라	-6363
▁차단	-6364
▁북아메리카	-6365
AM	-6366
▁재생	-6367
학에	-6368
▁정부에	-6369
The	-6370
▁예산	-6371
안전	-6372
▁조선민주주의인민공화국의	-6373
▁부동	-6374
▁기상	-6375
▁토착	-6376
▁하인	-6377
계와	-6378
해에	-6379
▁교회의	-6380
▁강남	-6381
방향	-6382
▁이상을	-6383
88	-6384
가능	-6385
차의	-6386
하를	-6387
▁드물	-6388
노스	-6389
▁경향이	-6390
▁역에서	-6391
▁위원회	-6392
▁비잔	-6393
▁경기가	-6394
▁모토	-6395
▁영구	-6396
국과	-6397
클레	-6398
▁체제	-6399
미아	-6400
▁도서관	-6401
▁Be	-6402
▁입력	-6403
▁비판을	-6404
같이	-6405
스팅	-6406
와이	-6407
층에	-6408
▁하나가	-6409
▁보여주는	-6410
-6	-6411
AN	-6412
▁검색	-6413
▁Al	-6414
▁구멍	-6415
▁성공했다	-6416
▁며	-6417
슬로	-6418
▁엑스	-6419
▁칠레	-6420
▁유통	-6421
93	-6422
▁놓여	-6423
비디오	-6424
▁그렇다면	-6425
▁일련의	-6426
43	-6427
▁풋	-6428
속은	-6429
노는	-6430
▁가설	-6431
▁되기	-6432
▁대부분을	-6433
▁상주	-6434
▁그녀가	-6435
▁용인	-6436
리브	-6437
▁거느	-6438
▁아버지가	-6439
▁양산	-6440
크와	-6441
▁뛰고	-6442
▁보험	-6443
▁사찰	-6444
▁이외에도	-6445
인인	-6446
ard	-6447
▁수술	-6448
▁실천	-6449
▁자랑	-6450
시스템	-6451
▁리그의	-6452
▁콜롬	-6453
ers	-6454
▁멀티	-6455
▁골키퍼	-6456
▁신의	-6457
하기에	-6458
법과	-6459
▁카운티는	-6460
▁생태	-6461
드리아	-6462
▁꼬리	-6463
▁짝	-6464
▁조선시대의	-6465
▁나뉘어	-6466
침을	-6467
▁아동	-6468
▁지중	-6469
▁노동자	-6470
▁대다	-6471
프란	-6472
▁사람들	-6473
▁틈	-6474
▁초청	-6475
다시	-6476
석탑	-6477
▁대대	-6478
▁상하	-6479
▁최근에는	-6480
지면	-6481
▁팔레	-6482
▁콘텐츠	-6483
▁주장하는	-6484
▁개찰	-6485
▁순환	-6486
▁도서	-6487
▁철거	-6488
▁1934	-6489
▁덩	-6490
▁마주	-6491
▁벼슬	-6492
▁안토니	-6493
▁시작했고	-6494
브로	-6495
르를	-6496
크스	-6497
바의	-6498
용을	-6499
▁이즈	-6500
▁주력	-6501
▁소프트웨	-6502
환경	-6503
end	-6504
▁크로아티아	-6505
중이다	-6506
프라	-6507
▁프로그래밍	-6508
▁고급	-6509
▁남녀	-6510
▁파키스탄	-6511
▁인구의	-6512
▁가수이다	-6513
▁일상	-6514
▁지리	-6515
▁현존	-6516
중이	-6517
▁이벤	-6518
▁그러므로	-6519
힌다	-6520
▁이외의	-6521
▁{	-6522
▁마감	-6523
▁아틀	-6524
OR	-6525
▁발음	-6526
▁코치	-6527
▁줄어들	-6528
▁열매	-6529
▁일종의	-6530
▁이적하였다	-6531
▁사건의	-6532
▁웹사이트	-6533
프가니스탄	-6534
41	-6535
▁본다	-6536
▁맨체스터	-6537
▁미국으로	-6538
▁원시	-6539
▁청구	-6540
▁명으로	-6541
42	-6542
▁\	-6543
▁보스턴	-6544
▁사막	-6545
▁위상	-6546
▁대동	-6547
하라는	-6548
▁블록	-6549
▁배경으로	-6550
▁공장	-6551
▁식품	-6552
▁신화	-6553
▁이익	-6554
▁에피소드	-6555
타카	-6556
▁공산당	-6557
▁메모리	-6558
미사	-6559
▁대법	-6560
▁이용할	-6561
▁말로	-6562
▁탓	-6563
▁톱	-6564
▁입은	-6565
▁상호작용	-6566
▁복음	-6567
▁환승	-6568
성에서	-6569
▁죽음을	-6570
▁백제	-6571
▁전화	-6572
▁위대한	-6573
우라	-6574
▁병원	-6575
름은	-6576
▁소득	-6577
▁우리가	-6578
용의	-6579
▁편의	-6580
공신	-6581
타가	-6582
▁특별히	-6583
보로	-6584
스피	-6585
▁타격	-6586
▁진격	-6587
▁바이러스	-6588
▁핸	-6589
▁주에	-6590
인가	-6591
▁강요	-6592
▁De	-6593
▁남극	-6594
▁올해의	-6595
▁모터	-6596
▁열리는	-6597
▁요코하마	-6598
대문	-6599
▁입법	-6600
▁혼자	-6601
절을	-6602
프와	-6603
▁포함되었다	-6604
▁오는	-6605
▁신고	-6606
▁게임의	-6607
▁이어서	-6608
▁사가	-6609
▁주된	-6610
▁보냈	-6611
▁적극적으로	-6612
▁매장	-6613
▁젠	-6614
▁수호	-6615
▁진학	-6616
▁마드리드	-6617
님의	-6618
문이다	-6619
원숭	-6620
▁뚜렷	-6621
슨이	-6622
▁혈액	-6623
▁펑	-6624
판에	-6625
▁수를	-6626
▁속도	-6627
▁가마	-6628
▁경북	-6629
▁그리스의	-6630
로지	-6631
보통	-6632
▁가속	-6633
▁매주	-6634
리티	-6635
▁Me	-6636
▁교차	-6637
▁아리	-6638
▁박물관	-6639
▁영토를	-6640
▁들면	-6641
보험	-6642
왕후	-6643
▁기도	-6644
운동을	-6645
▁소속의	-6646
▁홈런을	-6647
▁백성	-6648
▁r	-6649
년경	-6650
▁감시	-6651
▁오버	-6652
▁할아버	-6653
▁아티스트	-6654
지니아	-6655
▁대학교의	-6656
▁비공	-6657
▁홋카이도	-6658
브레	-6659
▁가치를	-6660
나르	-6661
치오	-6662
▁변호사	-6663
▁베어	-6664
▁선호	-6665
▁새끼	-6666
▁대학의	-6667
▁북미	-6668
▁세계대전	-6669
▁정식으로	-6670
니와	-6671
▁집필	-6672
▁원래는	-6673
발전	-6674
▁힙합	-6675
릭스	-6676
▁담고	-6677
▁대화	-6678
▁호주	-6679
▁도쿠가와	-6680
심이	-6681
▁위치에	-6682
의가	-6683
▁드라마이다	-6684
▁끝으로	-6685
▁갖게	-6686
▁질량	-6687
▁개량	-6688
▁쓰러	-6689
▁랑	-6690
▁소집	-6691
보다도	-6692
체인	-6693
▁43	-6694
▁유력	-6695
전자	-6696
▁싱어	-6697
령으로	-6698
▁알렉산더	-6699
▁닉	-6700
▁1931	-6701
사지	-6702
행이	-6703
▁일단	-6704
▁화가	-6705
_7	-6706
▁x	-6707
▁일원	-6708
▁공개되었다	-6709
▁MS	-6710
▁수도권	-6711
▁초기에는	-6712
▁셔	-6713
식에서	-6714
55	-6715
함은	-6716
▁우에	-6717
▁영향으로	-6718
모의	-6719
▁권리	-6720
▁생애	-6721
▁사건에	-6722
▁까지	-6723
▁물려	-6724
▁후퇴	-6725
마뱀	-6726
치기	-6727
현을	-6728
▁대원	-6729
배를	-6730
▁오이	-6731
향을	-6732
▁동서	-6733
▁콘스탄티노	-6734
▁훌륭	-6735
ang	-6736
▁다큐	-6737
▁지칭	-6738
▁부드	-6739
▁싱가포르	-6740
▁구사	-6741
▁장비	-6742
▁목숨	-6743
▁집을	-6744
작으로	-6745
49	-6746
하에서	-6747
무네	-6748
천의	-6749
▁부담	-6750
▁강하게	-6751
조와	-6752
▁발레	-6753
▁커다란	-6754
▁사도	-6755
▁크라	-6756
▁필립	-6757
관계를	-6758
▁의정부	-6759
▁데이터를	-6760
등급	-6761
기이다	-6762
자이자	-6763
라면	-6764
▁자가	-6765
▁방송을	-6766
사랑	-6767
▁소화	-6768
플로	-6769
▁OS	-6770
▁영화를	-6771
▁작품의	-6772
결을	-6773
일리	-6774
▁정통	-6775
오로	-6776
▁주재	-6777
▁나고야	-6778
통합	-6779
란색	-6780
▁첫째	-6781
▁기반을	-6782
대신	-6783
▁개명	-6784
필드	-6785
에서부터	-6786
▁부르기도	-6787
▁강을	-6788
▁발표된	-6789
대부	-6790
▁시가	-6791
▁인상	-6792
▁1921	-6793
▁축소	-6794
▁WW	-6795
율은	-6796
▁약탈	-6797
▁살아남	-6798
▁1929	-6799
IS	-6800
▁하느	-6801
▁붙어	-6802
▁경기장	-6803
▁이론을	-6804
▁600	-6805
▁3.	-6806
다이라	-6807
▁감독은	-6808
▁갈등	-6809
▁대변	-6810
▁심지어	-6811
▁소리	-6812
▁국정	-6813
▁새벽	-6814
▁또다른	-6815
폴리	-6816
훈련	-6817
▁멸종	-6818
▁연평균	-6819
-7	-6820
▁발휘	-6821
▁아프가니스탄	-6822
면과	-6823
▁타워	-6824
▁부르고	-6825
▁농촌	-6826
▁멜로	-6827
▁예방	-6828
▁근육	-6829
▁열었다	-6830
▁이끌어	-6831
어에	-6832
▁이념	-6833
▁1925	-6834
로써	-6835
▁상황에	-6836
▁김해	-6837
▁막기	-6838
▁명시	-6839
한다면	-6840
▁정확히	-6841
▁처음에	-6842
▁집안	-6843
카르	-6844
▁센트	-6845
▁당나라	-6846
▁클리	-6847
근혜	-6848
▁메탈	-6849
드라마	-6850
▁행위를	-6851
▁수준의	-6852
▁용어는	-6853
곡은	-6854
▁맺고	-6855
▁안내	-6856
▁연안	-6857
▁치렀다	-6858
▁상태가	-6859
▁논리	-6860
드르	-6861
▁몬테	-6862
▁1923	-6863
▁후에도	-6864
물과	-6865
▁보르	-6866
▁사다	-6867
▁많았다	-6868
▁루마니아	-6869
ew	-6870
▁발전을	-6871
▁일본은	-6872
졌던	-6873
▁군대	-6874
▁부속	-6875
▁중성	-6876
주의와	-6877
▁공기	-6878
▁구성원	-6879
▁딜	-6880
비행	-6881
편의	-6882
▁웨이	-6883
▁트라	-6884
▁문재	-6885
▁산하	-6886
▁자매	-6887
▁발매한	-6888
▁반대하는	-6889
버드	-6890
▁몸무	-6891
▁영양	-6892
았는데	-6893
▁불가리아	-6894
▁발표되었다	-6895
▁인터뷰에서	-6896
▁늑	-6897
건의	-6898
▁어두	-6899
▁메트로	-6900
▁스웨덴의	-6901
점과	-6902
▁가끔	-6903
▁게임이다	-6904
▁그만	-6905
▁허락	-6906
▁빅토리아	-6907
ity	-6908
▁군사를	-6909
국인	-6910
▁승부	-6911
▁그럼	-6912
체이다	-6913
▁미국에	-6914
▁게르	-6915
▁나타난	-6916
고리	-6917
청년	-6918
▁관객	-6919
▁쏘	-6920
연의	-6921
주군	-6922
▁잠재	-6923
▁서명	-6924
호선의	-6925
경기에서	-6926
권과	-6927
문과	-6928
▁적도	-6929
어에서	-6930
▁압도	-6931
▁제후	-6932
▁종이	-6933
령은	-6934
▁하던	-6935
▁남아메리카	-6936
▁가고	-6937
▁혼인	-6938
▁170	-6939
▁유전자	-6940
▁바이러	-6941
▁리그에서	-6942
▁전형적인	-6943
▁공원	-6944
▁동반	-6945
▁해협	-6946
았지만	-6947
▁오케	-6948
▁유발	-6949
▁보이고	-6950
▁주변의	-6951
▁세리에	-6952
▁기여했다	-6953
▁카자	-6954
▁파울	-6955
▁그려져	-6956
▁폭력	-6957
▁결승전	-6958
위원회는	-6959
▁시모	-6960
▁정수	-6961
▁닮	-6962
토미	-6963
▁증언	-6964
▁관계에	-6965
▁올라가	-6966
즈와	-6967
수도	-6968
▁실내	-6969
▁영원	-6970
▁퀘	-6971
임은	-6972
▁트럼	-6973
▁않기	-6974
▁800	-6975
▁관해	-6976
▁필라	-6977
▁맺었다	-6978
년까지는	-6979
-8	-6980
▁세계를	-6981
▁람	-6982
포스	-6983
▁영향력을	-6984
실에서	-6985
리코	-6986
밀한	-6987
▁사람이다	-6988
▁개장	-6989
▁동경	-6990
▁철저	-6991
▁방송된	-6992
이면	-6993
te	-6994
▁전체를	-6995
교도	-6996
▁민중	-6997
▁소스	-6998
▁서울시	-6999
▁1,000	-7000
자나	-7001
▁착용	-7002
민은	-7003
▁동굴	-7004
▁정치인	-7005
희는	-7006
▁말라	-7007
당에서	-7008
▁참가하였다	-7009
▁호흡	-7010
대상	-7011
층석탑	-7012
▁사이트	-7013
odice	-7014
▁촉진	-7015
▁주목을	-7016
청의	-7017
▁소요	-7018
▁원인	-7019
▁옵	-7020
▁재산	-7021
당하고	-7022
▁회사의	-7023
▁땅을	-7024
▁교사	-7025
▁독재	-7026
▁마그	-7027
▁부탁	-7028
▁몸길	-7029
▁주제	-7030
까지도	-7031
라이터	-7032
시스트	-7033
▁이은	-7034
머리	-7035
▁곤충	-7036
▁르네	-7037
▁목포	-7038
▁섹	-7039
▁방언	-7040
▁관계는	-7041
▁의견을	-7042
▁콘서트	-7043
▁뼈	-7044
말로	-7045
살이	-7046
▁좁은	-7047
단에서	-7048
적이며	-7049
▁되기도	-7050
▁랩	-7051
오고	-7052
▁비틀	-7053
▁추산으로	-7054
하면서도	-7055
▁대칭	-7056
▁데뷔했다	-7057
▁플로리다	-7058
▁41	-7059
▁구원	-7060
▁북극	-7061
대원	-7062
▁스크린	-7063
▁재료	-7064
▁판타	-7065
대사	-7066
▁황제의	-7067
합니다	-7068
▁극복	-7069
▁후보가	-7070
▁않았지만	-7071
티스	-7072
시대에	-7073
나마	-7074
올린	-7075
졌으나	-7076
▁갤럭	-7077
▁레인	-7078
▁시조	-7079
▁허가	-7080
67	-7081
▁레지	-7082
▁지었다	-7083
▁미국인	-7084
▁번주	-7085
차에	-7086
▁감정	-7087
▁나이에	-7088
▁토마스	-7089
니에	-7090
▁말해	-7091
류에	-7092
▁모습이	-7093
▁구성하는	-7094
▁감옥	-7095
도니아	-7096
.'	-7097
해는	-7098
▁발렌	-7099
▁다이묘	-7100
▁안양	-7101
▁동성애	-7102
▁성과를	-7103
상이다	-7104
AC	-7105
▁론	-7106
▁일곱	-7107
▁콜로	-7108
▁건물은	-7109
▁입단하였다	-7110
족을	-7111
▁대선	-7112
▁유대인	-7113
▁1922	-7114
▁영혼	-7115
▁이미지	-7116
갔고	-7117
▁만들기	-7118
▁되었는데	-7119
▁소규모	-7120
▁발생하였다	-7121
▁고안	-7122
이게	-7123
토를	-7124
▁콜롬비아	-7125
▁무릎	-7126
ip	-7127
토가	-7128
▁토너	-7129
문으로	-7130
각형	-7131
▁)	-7132
나를	-7133
▁가시	-7134
세기의	-7135
▁차트에서	-7136
▁원하는	-7137
▁일으킨	-7138
됐고	-7139
보의	-7140
유로	-7141
현이	-7142
▁와서	-7143
▁받으며	-7144
91	-7145
▁지나지	-7146
▁잡고	-7147
석으로	-7148
▁현상을	-7149
▁세월	-7150
▁시게	-7151
▁1912	-7152
ED	-7153
▁든	-7154
▁영광	-7155
케이팅	-7156
▁성격을	-7157
▁명칭으로	-7158
▁손에	-7159
▁이어졌다	-7160
쳤고	-7161
▁마법	-7162
▁준결승	-7163
▁남겨	-7164
되던	-7165
ong	-7166
스트는	-7167
▁꺼	-7168
보기	-7169
▁유용	-7170
▁클라우	-7171
▁에너지를	-7172
▁중에서도	-7173
▁EP	-7174
▁맞추	-7175
▁서방	-7176
▁소형	-7177
▁특허	-7178
▁본선에	-7179
고에	-7180
소수	-7181
주년	-7182
카드	-7183
위원회가	-7184
▁구성된다	-7185
▁원년	-7186
우스의	-7187
모델	-7188
▁없지만	-7189
▁힘들	-7190
▁스톤	-7191
▁운동에	-7192
영이	-7193
▁클로	-7194
아웃	-7195
▁했	-7196
받침	-7197
티움	-7198
▁교수로	-7199
▁세력이	-7200
본은	-7201
▁그들	-7202
▁넘겨	-7203
▁비롯해	-7204
▁담은	-7205
▁상태에	-7206
나게	-7207
트랙	-7208
▁도쿄도	-7209
▁영역	-7210
▁음성	-7211
▁죽자	-7212
▁뮤직비디오	-7213
타와	-7214
▁도메	-7215
▁선조	-7216
▁획득했다	-7217
꼬리	-7218
▁넥	-7219
▁불렀	-7220
▁체험	-7221
▁무산	-7222
▁해설	-7223
베이스	-7224
▁러브	-7225
마저	-7226
▁스트라이	-7227
▁부상으로	-7228
신과	-7229
▁운송	-7230
▁유적	-7231
▁설립한	-7232
턴은	-7233
▁적응	-7234
▁대회는	-7235
정도	-7236
▁삽입	-7237
였다고	-7238
래의	-7239
▁이날	-7240
▁블라디	-7241
중국	-7242
구조	-7243
오가	-7244
▁다루는	-7245
68	-7246
▁거리에	-7247
▁수직	-7248
▁포함된	-7249
▁정도이다	-7250
▁AC	-7251
▁부유	-7252
▁도움이	-7253
▁자체가	-7254
ld	-7255
▁그녀를	-7256
▁KT	-7257
▁엔터테인먼	-7258
▁폐지되었다	-7259
▁기부	-7260
OM	-7261
론과	-7262
사이드	-7263
▁1908	-7264
▁입사	-7265
▁이었다	-7266
up	-7267
그래	-7268
디스	-7269
훼손	-7270
▁과도	-7271
▁노무	-7272
▁토벌	-7273
률을	-7274
▁적어도	-7275
▁야스	-7276
▁대해서도	-7277
내의	-7278
▁반면에	-7279
▁끈	-7280
▁Se	-7281
▁기하	-7282
▁1906	-7283
보병	-7284
▁성질	-7285
▁추락	-7286
분은	-7287
기능	-7288
▁쇠퇴	-7289
▁de	-7290
북도의	-7291
▁삼았다	-7292
ss	-7293
▁코너	-7294
▁MV	-7295
▁압축	-7296
판의	-7297
▁감사	-7298
▁생기	-7299
▁수백	-7300
▁규슈	-7301
▁시절에	-7302
계열	-7303
▁세워진	-7304
ction	-7305
토벤	-7306
▁탑승	-7307
총리	-7308
▁매니	-7309
▁박근혜	-7310
DP	-7311
▁Sh	-7312
▁고고	-7313
▁윤치	-7314
▁없었고	-7315
▁한반도	-7316
▁결승전에서	-7317
▁요금	-7318
▁지역이	-7319
게이	-7320
우고	-7321
▁5,	-7322
▁곳은	-7323
▁발명	-7324
▁거리를	-7325
ind	-7326
▁구로	-7327
▁아무런	-7328
률이	-7329
▁접속	-7330
▁석사	-7331
▁앨범을	-7332
▁의미가	-7333
▁1917	-7334
▁서기	-7335
▁지원하는	-7336
▁codice	-7337
▁유아	-7338
▁레이블	-7339
▁1927	-7340
▁싫	-7341
카스	-7342
▁데려	-7343
▁의도	-7344
▁이행	-7345
광역시의	-7346
성도	-7347
호쿠	-7348
페이지	-7349
즈키	-7350
▁당사	-7351
▁뜻이다	-7352
▁국가가	-7353
▁차지하였다	-7354
▁st	-7355
▁운항	-7356
란다	-7357
센트	-7358
▁익스	-7359
▁빨간	-7360
▁그랜드	-7361
▁SM	-7362
이라며	-7363
▁수밖에	-7364
▁주요한	-7365
▁뱀	-7366
프스	-7367
▁1907	-7368
령에	-7369
▁먹는다	-7370
▁앨런	-7371
▁주변에	-7372
ES	-7373
▁사로	-7374
▁아울	-7375
▁이르기까지	-7376
▁수반	-7377
럼비아	-7378
산에서	-7379
건설	-7380
▁겨우	-7381
바다	-7382
▁기본적인	-7383
▁성과	-7384
▁지대	-7385
니스트	-7386
▁띤	-7387
널드	-7388
애나	-7389
▁모험	-7390
치며	-7391
터와	-7392
▁이세	-7393
▁중시	-7394
▁맞춰	-7395
▁심장	-7396
▁꾸준히	-7397
데스리가	-7398
▁아르메	-7399
오리	-7400
▁빌딩	-7401
▁순서	-7402
▁화폐	-7403
▁자신은	-7404
▁단행	-7405
▁토머스	-7406
자였던	-7407
루미	-7408
▁이정	-7409
▁밀라노	-7410
되었다는	-7411
▁금강	-7412
▁책은	-7413
지구	-7414
▁독점	-7415
▁인물로	-7416
ame	-7417
▁포유	-7418
▁기능이	-7419
▁연구는	-7420
▁1926	-7421
▁등도	-7422
▁망원	-7423
▁140	-7424
노의	-7425
이라면	-7426
▁다큐멘	-7427
av	-7428
▁57	-7429
▁있어야	-7430
▁모양으로	-7431
▁중국에서	-7432
▁남양	-7433
나라는	-7434
▁마치고	-7435
▁단선	-7436
▁전술	-7437
▁히틀러	-7438
▁예로	-7439
▁상황이	-7440
▁이어져	-7441
▁수록되어	-7442
투표	-7443
▁SC	-7444
▁급격	-7445
▁석방	-7446
▁주니어	-7447
▁돌아왔다	-7448
▁역의	-7449
▁우라	-7450
▁동일본	-7451
▁이하의	-7452
바키아	-7453
▁보이며	-7454
▁들여	-7455
▁상의	-7456
▁섬에	-7457
자들과	-7458
▁살았다	-7459
▁공정	-7460
▁수감	-7461
▁전작	-7462
▁권한을	-7463
▁실업	-7464
▁크기가	-7465
▁공간을	-7466
▁발생한다	-7467
▁법적	-7468
음은	-7469
▁사람으로	-7470
년만에	-7471
▁일본인	-7472
▁차지한다	-7473
▁퓨	-7474
류와	-7475
재는	-7476
▁리드	-7477
▁사촌	-7478
▁심사	-7479
▁페이스	-7480
▁현대의	-7481
▁경전	-7482
▁메리	-7483
▁유입	-7484
▁이종	-7485
에게도	-7486
▁모노	-7487
▁선형	-7488
스티벌	-7489
▁아이스	-7490
▁하우스	-7491
건은	-7492
▁그랑	-7493
▁장례	-7494
▁전한	-7495
▁툴	-7496
류로	-7497
▁무관	-7498
히로	-7499
▁고리	-7500
▁테오	-7501
▁도중에	-7502
▁베토벤	-7503
탄을	-7504
▁예외	-7505
▁종로	-7506
▁곧바로	-7507
▁변화가	-7508
▁본명은	-7509
▁95	-7510
▁패러	-7511
▁소리를	-7512
▁건담	-7513
▁차지하는	-7514
▁휴대	-7515
▁오리지	-7516
▁그리스도	-7517
▁실제로는	-7518
교가	-7519
▁재즈	-7520
▁기동	-7521
▁비정	-7522
주의에	-7523
프란시스코	-7524
곡이	-7525
▁리이다	-7526
▁대구광역시	-7527
▁창간	-7528
▁파티	-7529
ok	-7530
보에	-7531
실에	-7532
이었는데	-7533
▁걷	-7534
▁뷰	-7535
돌프	-7536
▁JR	-7537
▁BBC	-7538
마쓰	-7539
파에	-7540
▁졸업했다	-7541
우에	-7542
▁유키	-7543
▁1/	-7544
▁가쓰	-7545
▁거둔	-7546
▁코스	-7547
졌는데	-7548
▁밸	-7549
▁첩	-7550
▁영국과	-7551
기구	-7552
스톤	-7553
▁명성을	-7554
▁유튜브	-7555
▁역사는	-7556
▁남해	-7557
▁문신	-7558
▁찬성	-7559
▁크기는	-7560
ry	-7561
▁없었던	-7562
슬라비아	-7563
▁배열	-7564
▁유니버	-7565
끼리	-7566
마리	-7567
▁1905	-7568
ith	-7569
▁58	-7570
▁고통	-7571
▁전망	-7572
▁있다가	-7573
▁하사	-7574
위에서	-7575
▁세우고	-7576
▁옮겼다	-7577
▁졸업한	-7578
▁계층	-7579
▁음반을	-7580
▁동아시아	-7581
▁전해진다	-7582
▁전투는	-7583
▁못하게	-7584
▁실시된	-7585
▁에스파	-7586
▁창당	-7587
오와	-7588
▁파트너	-7589
▁거대	-7590
▁조기	-7591
보가	-7592
▁놀라	-7593
▁셋째	-7594
연구소	-7595
▁정부를	-7596
▁대학에서	-7597
▁감각	-7598
▁무리	-7599
▁파생	-7600
▁병력을	-7601
든지	-7602
▁참가하여	-7603
▁리눅	-7604
▁참고	-7605
PS	-7606
식이다	-7607
▁실수	-7608
하르트	-7609
해지고	-7610
-15	-7611
▁가야	-7612
▁추대	-7613
▁들었다	-7614
용은	-7615
▁성의	-7616
▁덕분에	-7617
▁라이프	-7618
리케이션	-7619
리시	-7620
지방법원	-7621
▁삭제	-7622
ik	-7623
ob	-7624
타나	-7625
▁내는	-7626
▁마라	-7627
▁주거	-7628
▁결과로	-7629
클린	-7630
병으로	-7631
▁사이를	-7632
▁메르	-7633
생활을	-7634
▁아래의	-7635
카미	-7636
▁별로	-7637
▁지역에서는	-7638
▁갱	-7639
▁되찾	-7640
루살	-7641
집합	-7642
ff	-7643
ant	-7644
▁박쥐	-7645
곡의	-7646
▁닌텐	-7647
졌지만	-7648
▁크기의	-7649
▁호남	-7650
유산	-7651
▁흰색	-7652
▁NHK	-7653
▁브레이	-7654
트롤	-7655
▁re	-7656
노미야	-7657
스컵	-7658
월드	-7659
▁중동	-7660
▁바람에	-7661
▁예전	-7662
▁얻게	-7663
▁에릭	-7664
칭은	-7665
편을	-7666
황후	-7667
▁부처	-7668
▁사형	-7669
▁섬식	-7670
▁비로	-7671
▁사용하지	-7672
▁결심	-7673
피를	-7674
▁관하여	-7675
▁한국인	-7676
▁두드	-7677
▁살펴	-7678
▁아웃	-7679
▁불리며	-7680
족과	-7681
▁54	-7682
▁만난	-7683
활동	-7684
▁납치	-7685
▁평론	-7686
▁크로스	-7687
▁이용하는	-7688
▁모래	-7689
▁플레	-7690
실한	-7691
▁트위	-7692
▁도시를	-7693
개국	-7694
▁중지	-7695
▁초래	-7696
▁라이벌	-7697
▁입단했다	-7698
▁퀴	-7699
▁테크	-7700
▁오늘날의	-7701
고등학교는	-7702
▁향년	-7703
▁웰	-7704
리크	-7705
음의	-7706
온의	-7707
▁걸려	-7708
ck	-7709
청이	-7710
▁먹는	-7711
▁사과	-7712
▁인증	-7713
▁황태	-7714
▁때마다	-7715
▁뚫	-7716
▁서북	-7717
▁등장한	-7718
▁붙잡	-7719
▁초상	-7720
▁풍부한	-7721
▁An	-7722
▁돌파	-7723
▁그럼에도	-7724
▁경유	-7725
루살렘	-7726
▁효과가	-7727
앨범	-7728
▁시달	-7729
▁이수	-7730
▁최상	-7731
레이드	-7732
▁종교적	-7733
▁브라질의	-7734
lu	-7735
▁모듈	-7736
▁싱어송	-7737
▁락	-7738
▁순수	-7739
▁학사	-7740
▁Love	-7741
▁SN	-7742
▁거친	-7743
▁곳을	-7744
▁매각	-7745
▁죽고	-7746
▁대단	-7747
▁삼아	-7748
▁회색	-7749
률은	-7750
르바	-7751
졌을	-7752
▁88	-7753
▁방위	-7754
화하는	-7755
▁적절한	-7756
▁긴급	-7757
▁면역	-7758
▁문화적	-7759
심의	-7760
▁빗	-7761
학회	-7762
one	-7763
▁크리스토	-7764
▁합동	-7765
▁개발을	-7766
구리	-7767
러리	-7768
▁동영	-7769
▁무인	-7770
▁왕립	-7771
▁대회이다	-7772
▁딱	-7773
▁쿼	-7774
학과를	-7775
▁생각을	-7776
▁브라이언	-7777
▁시를	-7778
▁방법이	-7779
▁고가	-7780
▁배급	-7781
▁외계	-7782
▁천체	-7783
▁공무원	-7784
▁레코드	-7785
▁획득하였다	-7786
▁크림	-7787
▁샌프란시스코	-7788
▁마카	-7789
▁코믹	-7790
▁작전을	-7791
▁정권을	-7792
▁하다가	-7793
▁되었다고	-7794
메르	-7795
▁110	-7796
▁딴	-7797
▁테마	-7798
하겠다고	-7799
▁아케	-7800
▁주말	-7801
▁명단에	-7802
▁브로	-7803
▁필요로	-7804
▁약간의	-7805
우옌	-7806
▁입증	-7807
▁중립	-7808
▁탐험	-7809
나고	-7810
플러	-7811
▁지표	-7812
병원	-7813
▁동시	-7814
▁때문이었다	-7815
AP	-7816
▁광역	-7817
▁의거	-7818
▁아들이다	-7819
iv	-7820
▁칙	-7821
클럽	-7822
▁옛날	-7823
▁유인	-7824
▁플루	-7825
▁집에서	-7826
▁버지니아	-7827
▁세계적인	-7828
▁문화를	-7829
▁1904	-7830
▁베네치아	-7831
▁프랑스는	-7832
슬림	-7833
▁강수	-7834
▁레벨	-7835
▁제네	-7836
▁갤럭시	-7837
팀이	-7838
▁레닌	-7839
▁일어난다	-7840
▁밴드의	-7841
▁히어로	-7842
▁참모	-7843
▁아마추어	-7844
긴다	-7845
▁올린	-7846
qu	-7847
▁모로	-7848
▁추적	-7849
복지	-7850
▁라이온	-7851
▁특성을	-7852
▁않았던	-7853
▁제공하고	-7854
▁나의	-7855
▁뤼	-7856
▁역전	-7857
▁오디션	-7858
▁게시	-7859
▁마스터	-7860
▁간섭	-7861
▁타입	-7862
지기도	-7863
▁의미로	-7864
전에서는	-7865
ate	-7866
▁연락	-7867
▁것이고	-7868
▁세계에	-7869
▁빵	-7870
등에	-7871
▁대승	-7872
▁두려워	-7873
기획	-7874
들인	-7875
목은	-7876
▁규모가	-7877
IT	-7878
환은	-7879
▁카페	-7880
▁흙	-7881
장군	-7882
데이트	-7883
▁밖으로	-7884
▁사진을	-7885
▁다음으로	-7886
▁마시	-7887
자였다	-7888
구역	-7889
▁모임	-7890
▁오염	-7891
▁않았으며	-7892
진흥	-7893
▁보기	-7894
▁해병	-7895
▁진출에	-7896
▁오리지널	-7897
방에	-7898
습을	-7899
300	-7900
▁리듬	-7901
▁습격	-7902
보면	-7903
▁49	-7904
▁봉해졌다	-7905
▁인류	-7906
▁방향을	-7907
▁물이	-7908
▁펄	-7909
▁요미	-7910
▁마쓰다이라	-7911
▁직무	-7912
▁입었다	-7913
▁시간에	-7914
▁행정구역이다	-7915
마루	-7916
▁드래곤	-7917
▁공룡	-7918
▁사제	-7919
▁이지	-7920
▁대회를	-7921
▁못한다	-7922
▁가능성을	-7923
_10	-7924
▁유럽에서	-7925
▁싱어송라이터	-7926
▁색깔	-7927
▁관심이	-7928
▁국경을	-7929
이즈	-7930
▁85	-7931
▁폭격	-7932
▁밀접	-7933
우치	-7934
펙트럼	-7935
도서관	-7936
소리	-7937
▁모습으로	-7938
▁크리스티	-7939
▁Go	-7940
▁접하고	-7941
▁나이트	-7942
▁모델로	-7943
▁뒤로	-7944
▁램	-7945
급의	-7946
▁가미	-7947
▁유성	-7948
▁퍼져	-7949
▁계기가	-7950
사상	-7951
ord	-7952
▁대만	-7953
▁지바	-7954
▁길이가	-7955
▁총선에서	-7956
▁명칭이	-7957
▁부분에	-7958
클라	-7959
▁자세	-7960
하였을	-7961
▁활동에	-7962
브를	-7963
▁운반	-7964
▁전체적으로	-7965
▁도시는	-7966
▁공식적인	-7967
챌린	-7968
니를	-7969
▁기용	-7970
▁가득	-7971
▁경력	-7972
▁엔진을	-7973
▁음악가	-7974
▁안드로이드	-7975
▁압박	-7976
▁인텔	-7977
ET	-7978
▁눈을	-7979
하라고	-7980
▁캡	-7981
▁벨라	-7982
▁분산	-7983
▁스승	-7984
▁유물	-7985
▁아직도	-7986
자이너	-7987
▁문화의	-7988
▁미국이	-7989
▁설치되었다	-7990
▁이루어진다	-7991
연한	-7992
도서	-7993
▁연설	-7994
▁프랜	-7995
면서도	-7996
▁대지	-7997
전한	-7998
▁홀로	-7999
▁유고슬라비아	-8000
▁입대	-8001
▁전의	-8002
▁타원	-8003
▁혁신	-8004
▁130	-8005
▁예루살렘	-8006
▁굽	-8007
▁근로	-8008
▁본토	-8009
▁탄소	-8010
▁과거에	-8011
▁아우구	-8012
▁냈다	-8013
▁자전거	-8014
▁자유를	-8015
▁읍	-8016
▁자료를	-8017
고한	-8018
▁친선	-8019
▁클래식	-8020
테스	-8021
▁사항	-8022
그로	-8023
▁막을	-8024
속으로	-8025
▁프리미어리그	-8026
글로	-8027
▁들어간	-8028
▁지원한다	-8029
▁지정되어	-8030
민이	-8031
▁지연	-8032
▁공동으로	-8033
▁스마트폰	-8034
부사	-8035
▁은퇴한	-8036
재의	-8037
▁다녔	-8038
66	-8039
▁내용의	-8040
▁못했고	-8041
년으로	-8042
▁뿐이다	-8043
▁극단	-8044
▁소위	-8045
파크	-8046
▁현급	-8047
▁WWE	-8048
된다는	-8049
▁카메라	-8050
ast	-8051
직에서	-8052
▁말하며	-8053
바이러스	-8054
▁엔터테인먼트	-8055
민족행위	-8056
▁상영	-8057
권으로	-8058
등한	-8059
▁고립	-8060
▁모르	-8061
▁장갑	-8062
초의	-8063
회로	-8064
▁다룬	-8065
▁비스	-8066
▁동맹을	-8067
로미터	-8068
▁작품이	-8069
▁이야기가	-8070
▁변신	-8071
▁벌였다	-8072
▁코리아	-8073
▁사양	-8074
▁선두	-8075
▁계획은	-8076
▁서식한다	-8077
작가	-8078
▁수익	-8079
곡으로	-8080
▁관련하여	-8081
공학	-8082
둥이	-8083
간을	-8084
형과	-8085
▁레이다	-8086
▁지내고	-8087
고자	-8088
▁산악	-8089
스포츠	-8090
▁조약을	-8091
▁일환으로	-8092
더는	-8093
▁스페셜	-8094
▁원자력	-8095
▁벗어	-8096
▁!	-8097
▁말은	-8098
▁우익	-8099
의에	-8100
▁깊이	-8101
▁전원	-8102
조판서	-8103
▁사이클	-8104
액을	-8105
▁전승	-8106
나라를	-8107
체에서	-8108
▁대한제국	-8109
▁유지하고	-8110
▁아니고	-8111
▁탱	-8112
▁존재를	-8113
83	-8114
▁51	-8115
▁보인	-8116
▁모순	-8117
▁옹호	-8118
▁청동	-8119
▁경험을	-8120
방이	-8121
▁유닛	-8122
▁돔	-8123
▁보살	-8124
▁간에	-8125
▁호르	-8126
▁형성된	-8127
▁아베	-8128
▁했다고	-8129
개는	-8130
바나	-8131
린이	-8132
▁흐르는	-8133
유는	-8134
▁신분	-8135
ort	-8136
▁심한	-8137
▁역이	-8138
▁이적했다	-8139
▁중화인민공화국의	-8140
닉스	-8141
▁피렌	-8142
▁커뮤니티	-8143
▁밝히	-8144
▁찾는	-8145
▁MVP	-8146
▁무슬림	-8147
작을	-8148
▁개성	-8149
▁참조	-8150
▁타이틀을	-8151
▁성공적으로	-8152
▁고시	-8153
▁우루	-8154
계올림픽	-8155
▁기타리스트	-8156
▁가요	-8157
런스	-8158
▁활동이	-8159
다니	-8160
▁당선되었다	-8161
▁이곳에	-8162
병이	-8163
▁52	-8164
▁미치는	-8165
본이	-8166
▁가해	-8167
▁구상	-8168
▁운동의	-8169
▁시대에는	-8170
랑이	-8171
르와	-8172
석에	-8173
아를	-8174
판으로	-8175
▁센트럴	-8176
▁이명박	-8177
▁지방에	-8178
▁발생했다	-8179
▁가라	-8180
▁분야의	-8181
환의	-8182
제품	-8183
반의	-8184
▁가공	-8185
하가	-8186
▁영주	-8187
▁비잔티움	-8188
▁앱	-8189
▁당해	-8190
▁아비	-8191
▁미분	-8192
▁점은	-8193
▁이곳에서	-8194
▁서쪽으로는	-8195
▁아울러	-8196
▁베이스볼	-8197
음에	-8198
현에	-8199
롤라	-8200
미와	-8201
▁고등학교이다	-8202
▁인간이	-8203
▁기록하고	-8204
▁애국	-8205
▁측은	-8206
▁하노	-8207
되었기	-8208
▁전향	-8209
▁험	-8210
▁목숨을	-8211
▁두번째	-8212
▁분포한다	-8213
연은	-8214
▁미네	-8215
▁빨리	-8216
▁원로	-8217
▁임신	-8218
▁퍼시	-8219
▁결과는	-8220
▁계획이	-8221
작은	-8222
▁남쪽으로는	-8223
▁문화재자료	-8224
▁티베트	-8225
▁랭킹	-8226
▁1896	-8227
▁아니었다	-8228
▁엘리자베스	-8229
▁동치	-8230
▁전염	-8231
▁케이블	-8232
▁구간은	-8233
▁스펙트럼	-8234
▁별도로	-8235
▁브라우	-8236
▁업데이트	-8237
금은	-8238
타임	-8239
▁66	-8240
▁전두	-8241
함으로	-8242
아프리카	-8243
▁미얀	-8244
▁수천	-8245
▁시스템은	-8246
▁동쪽으로는	-8247
ure	-8248
▁지질	-8249
▁데뷔전을	-8250
▁되었으나	-8251
▁네덜란드의	-8252
중은	-8253
▁내지	-8254
▁상무	-8255
▁쓴다	-8256
▁첫번째	-8257
년은	-8258
으려	-8259
▁미시	-8260
▁반사	-8261
▁패턴	-8262
▁결과가	-8263
▁페이지	-8264
Pa	-8265
화학	-8266
▁고교	-8267
▁부통령	-8268
▁결과적으로	-8269
▁짙	-8270
업이	-8271
▁DJ	-8272
▁확인할	-8273
▁활동한	-8274
출을	-8275
▁없기	-8276
▁우수한	-8277
▁남한	-8278
▁성벽	-8279
▁HIV	-8280
▁기구	-8281
▁설이	-8282
▁차이를	-8283
네는	-8284
말을	-8285
▁우승에	-8286
▁옆에	-8287
▁좌익	-8288
▁료	-8289
▁튜	-8290
뱅크	-8291
▁관광객	-8292
▁모양을	-8293
조약	-8294
▁일로	-8295
▁합계	-8296
▁낱	-8297
▁내륙	-8298
▁아들을	-8299
▁이라는	-8300
▁루트비히	-8301
▁오스트레일리아의	-8302
77	-8303
▁연계	-8304
.&	-8305
재가	-8306
▁선거에	-8307
마자	-8308
ock	-8309
▁동기	-8310
▁시호는	-8311
▁이글	-8312
▁이치	-8313
▁175	-8314
▁SF	-8315
▁국토	-8316
▁학교를	-8317
션을	-8318
페이스	-8319
▁일본이	-8320
유키	-8321
▁거기	-8322
▁댄스	-8323
▁250	-8324
▁빌헬	-8325
▁야기	-8326
▁전임	-8327
▁막대한	-8328
▁결정했다	-8329
▁잃고	-8330
▁들어와	-8331
▁이외에	-8332
▁후기의	-8333
커스	-8334
▁결정을	-8335
▁전체의	-8336
단계	-8337
현악	-8338
▁마르크스	-8339
석과	-8340
왔고	-8341
▁막아	-8342
▁과학자	-8343
▁낳았다	-8344
▁UN	-8345
▁보좌	-8346
▁우리의	-8347
▁메가	-8348
▁챌린	-8349
▁쏟	-8350
▁아나운	-8351
가루	-8352
금융	-8353
▁He	-8354
▁My	-8355
▁제도의	-8356
디의	-8357
▁밀양	-8358
▁일대	-8359
▁피난	-8360
수아	-8361
실록	-8362
▁당의	-8363
▁선제	-8364
▁진술	-8365
▁얼마나	-8366
▁추가되었다	-8367
▁애플리케이션	-8368
▁잊	-8369
▁AS	-8370
▁대조	-8371
▁무선	-8372
▁점성	-8373
▁이익을	-8374
▁배제	-8375
▁등이다	-8376
변을	-8377
전기	-8378
▁김동	-8379
▁왕위	-8380
▁용어	-8381
▁준공	-8382
산군	-8383
▁발효	-8384
▁간단한	-8385
▁활약하였다	-8386
▁데리고	-8387
▁리그에	-8388
▁요구하는	-8389
통일	-8390
▁고성	-8391
▁발족	-8392
▁노선이	-8393
▁신장	-8394
▁책봉	-8395
▁버리고	-8396
좌상	-8397
▁나선	-8398
▁이토	-8399
▁경력을	-8400
▁구간이	-8401
준은	-8402
▁사격	-8403
미디어	-8404
▁위기에	-8405
▁국가에서	-8406
발의	-8407
▁어드	-8408
▁서일본	-8409
▁그동안	-8410
▁가질	-8411
▁어릴	-8412
▁올림	-8413
▁나라를	-8414
▁지어진	-8415
▁예능	-8416
▁항구	-8417
▁당했다	-8418
▁쪽으로	-8419
글라	-8420
▁디젤	-8421
백과	-8422
수산	-8423
의원	-8424
▁성균	-8425
▁스카이	-8426
인들에게	-8427
▁경계를	-8428
반을	-8429
▁리가	-8430
▁스틸	-8431
▁현의	-8432
▁된다는	-8433
들과의	-8434
시켰고	-8435
▁교향곡	-8436
▁사령관	-8437
▁이오	-8438
▁포맷	-8439
▁과학적	-8440
▁간다	-8441
▁로빈	-8442
▁바티	-8443
▁자바	-8444
▁이승만	-8445
▁지방도	-8446
▁훈련을	-8447
▁정류	-8448
▁시마	-8449
▁트윈	-8450
스테이션	-8451
▁연애	-8452
▁독자적인	-8453
토스	-8454
▁떠난	-8455
▁주장이	-8456
식물	-8457
▁이스트	-8458
▁지역과	-8459
▁북쪽으로는	-8460
먼은	-8461
용이	-8462
▁열차는	-8463
▁미하	-8464
▁폐기	-8465
악의	-8466
▁구마	-8467
▁범주	-8468
▁모집	-8469
▁빛을	-8470
▁감독이다	-8471
▁동지	-8472
편이	-8473
▁대우	-8474
▁메디	-8475
▁찾을	-8476
▁디자이너	-8477
칸센	-8478
▁아가	-8479
소송법	-8480
▁톨	-8481
▁휩	-8482
피는	-8483
▁가면	-8484
▁말하고	-8485
안군	-8486
▁많고	-8487
▁용산	-8488
▁최신	-8489
리타	-8490
▁월간	-8491
▁최근에	-8492
니까	-8493
▁이자	-8494
▁타율	-8495
청을	-8496
토시	-8497
▁브래	-8498
▁담당하는	-8499
▁소속되어	-8500
▁하나님의	-8501
▁적대	-8502
경기를	-8503
과도	-8504
지대	-8505
▁이복	-8506
▁해제	-8507
그리	-8508
터로	-8509
▁적을	-8510
▁호수	-8511
▁힘이	-8512
박물관	-8513
▁출전했다	-8514
▁고베	-8515
▁스콧	-8516
▁신사	-8517
▁앨범은	-8518
▁장편	-8519
부문	-8520
문관	-8521
▁적색	-8522
▁푸른	-8523
▁능력이	-8524
▁스타크래프트	-8525
팩트	-8526
▁열어	-8527
▁주파	-8528
▁영감을	-8529
▁68	-8530
▁쿠바	-8531
▁지역이다	-8532
츠와	-8533
▁미카	-8534
▁입문	-8535
▁있으면	-8536
▁초점을	-8537
▁일원으로	-8538
▁자리에서	-8539
▁재단	-8540
▁돌아오	-8541
▁사카	-8542
▁여왕	-8543
▁타운	-8544
▁호환	-8545
안으로	-8546
▁직접적인	-8547
▁기재	-8548
▁협상	-8549
▁주제로	-8550
▁싱글이다	-8551
▁깔	-8552
▁무료	-8553
ML	-8554
림을	-8555
편에	-8556
▁청와	-8557
▁북한의	-8558
▁않도록	-8559
▁꺾고	-8560
▁달아	-8561
▁순천	-8562
▁아니며	-8563
▁충분한	-8564
▁편지를	-8565
▁항공기	-8566
▁개최되었다	-8567
▁정벌	-8568
▁조용	-8569
업에	-8570
▁재발	-8571
▁흩	-8572
▁서독	-8573
▁콩고	-8574
됐으며	-8575
▁이론은	-8576
▁천황의	-8577
▁탕	-8578
▁간접	-8579
▁모니	-8580
▁일렉	-8581
하러	-8582
연이	-8583
ime	-8584
▁백인	-8585
▁히가시	-8586
금이	-8587
▁군대가	-8588
▁값을	-8589
▁원래의	-8590
론적	-8591
된다고	-8592
▁개념은	-8593
▁인근에	-8594
바야	-8595
▁뒤인	-8596
▁대학원	-8597
▁언어로	-8598
▁ST	-8599
▁쿨	-8600
▁마산	-8601
트르	-8602
▁장르	-8603
▁한양	-8604
▁게임은	-8605
▁노르웨	-8606
공이	-8607
저는	-8608
블로	-8609
▁출현	-8610
▁스토리	-8611
▁아르메니아	-8612
▁자손	-8613
▁황후	-8614
버스터	-8615
▁인물이다	-8616
▁곁	-8617
바시	-8618
인조	-8619
▁군대는	-8620
▁곳곳	-8621
▁테일러	-8622
74	-8623
▁후의	-8624
▁마리오	-8625
천을	-8626
코가	-8627
▁못해	-8628
▁근거로	-8629
▁전투가	-8630
▁정도가	-8631
▁최종적으로	-8632
▁얇	-8633
▁그룹의	-8634
디에	-8635
▁충격	-8636
회와	-8637
▁발전에	-8638
▁사용을	-8639
▁우리나라	-8640
우드	-8641
▁대로	-8642
▁여의	-8643
▁응우옌	-8644
▁중이던	-8645
진과	-8646
▁아트	-8647
▁없애	-8648
▁연루	-8649
▁두드러	-8650
아와	-8651
ack	-8652
▁발라	-8653
▁중심지	-8654
▁비평가	-8655
▁있습니다	-8656
▁오렌	-8657
▁급진	-8658
▁야생	-8659
▁자격을	-8660
▁코치로	-8661
▁일본어	-8662
▁일어났	-8663
▁원형	-8664
성한	-8665
해진다	-8666
▁재위	-8667
▁여동생	-8668
▁보여주었다	-8669
OC	-8670
▁나열	-8671
▁조선총독부	-8672
주인	-8673
▁당한	-8674
▁적의	-8675
▁통화	-8676
라미	-8677
리자	-8678
_8	-8679
▁*	-8680
▁700	-8681
건이	-8682
▁법학	-8683
▁사용해	-8684
▁상태이다	-8685
세스	-8686
▁겸임	-8687
▁때도	-8688
▁사로잡	-8689
▁국가를	-8690
▁않는다는	-8691
▁계열의	-8692
▁곰	-8693
▁Un	-8694
▁말할	-8695
▁필라델	-8696
▁축제	-8697
▁덴마크의	-8698
▁AM	-8699
대학원	-8700
▁문재인	-8701
▁전투에	-8702
▁지배를	-8703
▁머무	-8704
▁목적은	-8705
중심	-8706
▁수단	-8707
▁착수	-8708
밀리	-8709
커는	-8710
▁군을	-8711
▁달의	-8712
▁한화	-8713
▁디즈니	-8714
▁1911	-8715
어스	-8716
▁소나	-8717
▁왕실	-8718
▁하나를	-8719
▁있다면	-8720
▁굉	-8721
▁힌두	-8722
▁메모	-8723
▁서남	-8724
▁항해	-8725
▁결혼을	-8726
군사	-8727
▁예언	-8728
▁좋아하는	-8729
▁한국에서는	-8730
io	-8731
▁내장	-8732
▁제국이	-8733
▁현존하는	-8734
후보	-8735
▁플라스	-8736
▁본격적인	-8737
▁승차	-8738
져서	-8739
▁53	-8740
소한	-8741
▁법무	-8742
▁서경	-8743
▁지목	-8744
▁화려한	-8745
▁불리기도	-8746
▁일본에서는	-8747
▁슐	-8748
투쟁	-8749
▁비극	-8750
▁달러를	-8751
▁불만을	-8752
▁주식회사	-8753
다리	-8754
등록	-8755
▁동남아시아	-8756
MS	-8757
▁트레	-8758
▁페루	-8759
▁대신에	-8760
▁믹	-8761
▁삶의	-8762
▁머리를	-8763
▁후반에	-8764
명인	-8765
받지	-8766
프에	-8767
▁경고	-8768
▁사람에게	-8769
▁지지하는	-8770
범죄	-8771
시절	-8772
패로	-8773
규칙	-8774
▁서브	-8775
▁요소를	-8776
▁모델이다	-8777
▁y	-8778
미에	-8779
색이	-8780
적이었다	-8781
ib	-8782
란을	-8783
온다	-8784
즈카	-8785
▁대답	-8786
▁여덟	-8787
▁가지게	-8788
뉴스	-8789
산맥	-8790
스틴	-8791
증이	-8792
▁주니	-8793
▁충남	-8794
▁연구가	-8795
란의	-8796
▁정원	-8797
▁잘못된	-8798
있고	-8799
지사	-8800
시타	-8801
▁양식	-8802
▁생각했다	-8803
▁제휴	-8804
▁목격	-8805
▁기술이	-8806
▁시기의	-8807
즈에	-8808
행은	-8809
▁내내	-8810
61	-8811
▁말한	-8812
▁방식의	-8813
▁남아있다	-8814
▁젖	-8815
▁교과	-8816
▁남긴	-8817
▁활성화	-8818
▁한강	-8819
선수권	-8820
▁시간은	-8821
▁일본군	-8822
교로	-8823
▁주립	-8824
▁졸업하였다	-8825
공동	-8826
렸던	-8827
▁대결	-8828
▁무늬	-8829
▁온도	-8830
▁이원	-8831
고속	-8832
▁번뇌	-8833
그는	-8834
팀인	-8835
▁약한	-8836
▁진단	-8837
▁언어를	-8838
▁발견했다	-8839
▁착륙	-8840
▁신칸센	-8841
▁이순	-8842
▁역사적으로	-8843
제이	-8844
▁곳이	-8845
▁모음	-8846
▁보잉	-8847
▁시드니	-8848
▁포함해	-8849
▁관점에서	-8850
목의	-8851
오르	-8852
조정	-8853
▁해적	-8854
보통학교	-8855
▁폼	-8856
▁후보에	-8857
시피	-8858
생이	-8859
역사	-8860
▁에우	-8861
▁포인	-8862
▁시작했으며	-8863
톤의	-8864
▁구름	-8865
스테르	-8866
▁사용자가	-8867
▁공략	-8868
▁사장	-8869
▁마친	-8870
▁인조	-8871
▁타카	-8872
▁실패했다	-8873
쪽의	-8874
▁음반의	-8875
년대부터	-8876
관찰	-8877
금의	-8878
▁빌리	-8879
▁충족	-8880
▁내부의	-8881
▁훌륭한	-8882
▁가능하게	-8883
검찰	-8884
▁친척	-8885
▁이처럼	-8886
▁컸	-8887
▁서서히	-8888
▁특수한	-8889
▁윙	-8890
▁거슬러	-8891
▁구조의	-8892
▁전쟁은	-8893
▁전통적으로	-8894
과로	-8895
▁태조	-8896
▁풋볼	-8897
동에서	-8898
▁승리로	-8899
▁하와이	-8900
▁맡았으며	-8901
▁바꾸었다	-8902
▁취약	-8903
서에서	-8904
▁북쪽에	-8905
켰다	-8906
▁다가	-8907
▁박영	-8908
▁비즈	-8909
▁제국은	-8910
▁시스템의	-8911
교회의	-8912
성이다	-8913
렀고	-8914
번호	-8915
온이	-8916
▁복수	-8917
▁의원이	-8918
▁해군의	-8919
▁구체적인	-8920
▁게재	-8921
▁사이에는	-8922
도사	-8923
모니	-8924
▁맞는	-8925
▁선진	-8926
▁아서	-8927
▁프로토콜	-8928
디아라비아	-8929
▁가사	-8930
▁전성	-8931
▁카자흐	-8932
ge	-8933
경과	-8934
age	-8935
▁술탄	-8936
시즌을	-8937
▁피에르	-8938
견을	-8939
▁때때	-8940
▁맞게	-8941
▁중력	-8942
▁현상이	-8943
4,	-8944
▁수록된	-8945
▁프로그램은	-8946
iz	-8947
▁닐	-8948
수엘	-8949
▁산타	-8950
▁말하였다	-8951
수사	-8952
her	-8953
▁바가	-8954
▁젤	-8955
▁응답	-8956
▁원산	-8957
▁기업의	-8958
▁어워드	-8959
▁일찍이	-8960
▁바이올린	-8961
▁악화	-8962
위원회의	-8963
62	-8964
터에	-8965
▁비가	-8966
▁지중해	-8967
▁민주주의	-8968
▁미스	-8969
▁뒤에는	-8970
▁무려	-8971
▁평생	-8972
▁다이아	-8973
차별	-8974
▁제약	-8975
▁판타지	-8976
▁다큐멘터리	-8977
카를	-8978
▁가즈	-8979
▁목조	-8980
▁몰락	-8981
▁주와	-8982
▁시작해	-8983
▁치료를	-8984
▁샬	-8985
▁조사를	-8986
▁무력	-8987
▁종전	-8988
▁포크	-8989
▁목적을	-8990
▁프로그램의	-8991
▁옐	-8992
백을	-8993
▁실용	-8994
▁굵	-8995
진에	-8996
▁방면	-8997
▁오세	-8998
▁시대를	-8999
였기	-9000
직한	-9001
▁부흥	-9002
▁착공	-9003
▁조치를	-9004
▁로맨	-9005
▁일부로	-9006
하니	-9007
▁형태가	-9008
▁페스티벌	-9009
▁한신	-9010
▁물리학	-9011
▁친일반	-9012
색은	-9013
겼고	-9014
중에서	-9015
▁쟁	-9016
▁손상	-9017
▁합리	-9018
▁항일	-9019
▁165	-9020
▁성공적인	-9021
▁꾀	-9022
▁중구	-9023
자이며	-9024
▁무대에	-9025
포는	-9026
▁측근	-9027
▁퇴각	-9028
론에서	-9029
▁방식은	-9030
▁위치하며	-9031
▁반환	-9032
사추	-9033
▁PS	-9034
경으로	-9035
▁마음작용	-9036
▁활약하고	-9037
병의	-9038
티에	-9039
▁리얼	-9040
▁융합	-9041
▁아파트	-9042
민당	-9043
씨와	-9044
▁늘어나	-9045
미나	-9046
분교	-9047
▁하버드	-9048
72	-9049
ud	-9050
▁어렵다	-9051
▁중앙에	-9052
:00	-9053
▁디아	-9054
▁법원	-9055
▁섭취	-9056
▁또다시	-9057
▁IP	-9058
▁마케팅	-9059
▁정의할	-9060
▁마케도니아	-9061
▁해임	-9062
태평양	-9063
▁다루고	-9064
▁가능하며	-9065
▁끝이	-9066
▁조치	-9067
▁주문	-9068
▁본선의	-9069
▁커피	-9070
▁이르고	-9071
▁체제를	-9072
▁프레임	-9073
▁1500	-9074
▁칩	-9075
▁복구	-9076
▁연구하는	-9077
▁마천	-9078
▁성은	-9079
우와	-9080
▁귀환	-9081
▁배정	-9082
▁애틀	-9083
▁여론	-9084
이사	-9085
▁박탈	-9086
▁시집	-9087
▁사상을	-9088
▁일관	-9089
▁어두운	-9090
▁떼	-9091
▁대서양	-9092
EN	-9093
▁구미	-9094
▁따르는	-9095
기관이다	-9096
슨과	-9097
플라	-9098
▁날개	-9099
내에서	-9100
차전에서	-9101
▁사우디아라비아	-9102
▁햄	-9103
▁토마	-9104
▁트럭	-9105
▁끝났다	-9106
▁1909	-9107
▁자유롭게	-9108
테쓰	-9109
▁99	-9110
▁마찰	-9111
▁토대로	-9112
▁한동안	-9113
분야	-9114
팀은	-9115
▁대주교	-9116
▁목록은	-9117
▁저택	-9118
▁채로	-9119
▁속도를	-9120
▁영화로	-9121
▁부정적인	-9122
열이	-9123
▁막부	-9124
▁때때로	-9125
▁규정하고	-9126
▁펴	-9127
네의	-9128
한을	-9129
▁82	-9130
▁현장	-9131
▁성질을	-9132
▁연고로	-9133
양군	-9134
렸을	-9135
▁밖의	-9136
▁ISO	-9137
▁무라	-9138
▁아리스	-9139
▁선수이자	-9140
▁한국방송	-9141
누리	-9142
모로	-9143
오를	-9144
▁털이	-9145
▁명예의	-9146
초에	-9147
▁자식	-9148
원의원	-9149
69	-9150
▁굿	-9151
레의	-9152
▁끊임	-9153
▁베타	-9154
▁죽을	-9155
▁합법	-9156
▁노선은	-9157
▁사용이	-9158
▁방영되었다	-9159
제프	-9160
▁회의에서	-9161
미로	-9162
▁피고	-9163
스에게	-9164
있으며	-9165
▁이영	-9166
63	-9167
▁정찰	-9168
버러	-9169
브는	-9170
▁피에	-9171
▁오디오	-9172
▁운동이	-9173
▁샹	-9174
측의	-9175
로동	-9176
▁하천	-9177
▁남쪽에	-9178
▁진정한	-9179
▁들은	-9180
▁곡으로	-9181
▁철학자	-9182
▁프랑스에서	-9183
▁펜실	-9184
▁동메달을	-9185
▁각기	-9186
▁면에서	-9187
▁받기도	-9188
▁관계로	-9189
71	-9190
▁기록에	-9191
▁속도로	-9192
▁김용	-9193
▁세로	-9194
▁쿠르	-9195
▁피부	-9196
▁스파이	-9197
▁항공모	-9198
질로	-9199
▁교섭	-9200
▁없으나	-9201
세츠	-9202
▁레전	-9203
▁무신	-9204
▁개발된	-9205
▁버전은	-9206
인명	-9207
▁김태	-9208
▁보여주고	-9209
▁바그	-9210
▁사유	-9211
▁차남	-9212
▁미스터	-9213
▁부패	-9214
▁오고	-9215
포트	-9216
▁알라	-9217
생으로	-9218
서이다	-9219
▁구조는	-9220
▁선을	-9221
▁친일반민족행위	-9222
▁얀	-9223
가스	-9224
▁갑작	-9225
▁이리	-9226
▁주에서	-9227
▁민속	-9228
▁김영삼	-9229
▁득점을	-9230
▁실험을	-9231
년대에는	-9232
▁제목으로	-9233
란이	-9234
▁바위	-9235
▁드림	-9236
▁여수	-9237
▁임상	-9238
▁초창	-9239
케이션	-9240
▁금메달	-9241
▁사고로	-9242
▁발견되는	-9243
▁고조	-9244
▁내외	-9245
▁반지	-9246
▁오가	-9247
▁병력	-9248
홈런	-9249
▁공무	-9250
두는	-9251
▁근처의	-9252
▁카이사	-9253
▁아르헨티	-9254
원군	-9255
층은	-9256
▁규제	-9257
▁주한	-9258
▁빌헬름	-9259
AD	-9260
▁굉장	-9261
▁이마	-9262
▁훼손	-9263
▁구체적으로	-9264
형태	-9265
▁공용	-9266
라이트	-9267
▁보내는	-9268
▁조직의	-9269
▁캘리포니아주	-9270
반응	-9271
타케	-9272
▁땅에	-9273
▁흔들	-9274
▁라운드	-9275
▁선언했다	-9276
▁의장	-9277
▁향한	-9278
금으로	-9279
▁달러의	-9280
▁동화	-9281
▁부른	-9282
▁와카	-9283
▁재편	-9284
▁비공식	-9285
▁은메달을	-9286
▁상임	-9287
▁포괄	-9288
▁희극	-9289
▁네이션	-9290
▁광범위한	-9291
종과	-9292
해방	-9293
▁최저	-9294
▁찾아가	-9295
▁사용하며	-9296
▁MC	-9297
▁얻는	-9298
▁사실은	-9299
▁몸무게는	-9300
▁도심	-9301
▁동구	-9302
▁둘은	-9303
▁무효	-9304
▁그림을	-9305
▁때로는	-9306
우며	-9307
▁맡게	-9308
▁부품	-9309
▁후한	-9310
투아니아	-9311
님이	-9312
▁CPU	-9313
▁근접	-9314
▁세워졌다	-9315
▁수치	-9316
▁주축	-9317
여객	-9318
▁고도	-9319
orld	-9320
▁군사적	-9321
79	-9322
▁세균	-9323
▁이나	-9324
세에게	-9325
▁거기에	-9326
▁왕으로	-9327
▁형식을	-9328
▁후보를	-9329
▁오스트리아의	-9330
공은	-9331
메라	-9332
았을	-9333
▁건의	-9334
▁꿈을	-9335
▁출력	-9336
▁기온은	-9337
▁임명되어	-9338
▁석조	-9339
▁안티	-9340
▁황제가	-9341
상으로는	-9342
사고	-9343
▁르네상	-9344
▁신라의	-9345
디가	-9346
▁살던	-9347
▁역과	-9348
심한	-9349
int	-9350
▁군은	-9351
▁미나미	-9352
▁사용하기	-9353
츠키	-9354
▁4.	-9355
▁부착	-9356
▁안타	-9357
주년을	-9358
치면서	-9359
▁연방의	-9360
숙한	-9361
▁길고	-9362
음으로	-9363
▁라틴어	-9364
▁한국에	-9365
간이	-9366
▁대외	-9367
▁양도	-9368
▁장면	-9369
▁발매했다	-9370
▁룩	-9371
▁에스토	-9372
▁껍	-9373
열의	-9374
-21	-9375
▁동독	-9376
▁부르며	-9377
▁중심의	-9378
▁회사는	-9379
▁템	-9380
업은	-9381
질은	-9382
▁낮아	-9383
▁소재로	-9384
▁작품에	-9385
소스	-9386
▁우즈	-9387
▁의원은	-9388
▁1915	-9389
▁제주특별자치	-9390
II	-9391
sp	-9392
아키	-9393
▁Ar	-9394
▁기생	-9395
▁모시	-9396
▁법을	-9397
▁얻기	-9398
받는다	-9399
해주	-9400
▁MP	-9401
▁급속	-9402
▁카탈	-9403
▁영국은	-9404
▁영화제	-9405
▁왕위를	-9406
▁대폭	-9407
▁아니면	-9408
▁포인트	-9409
▁롬	-9410
▁보니	-9411
▁거주하는	-9412
▁알려지지	-9413
▁얘	-9414
▁의지	-9415
사령부	-9416
▁출시된	-9417
▁학생들이	-9418
▁별의	-9419
▁보상	-9420
▁복사	-9421
▁공전	-9422
▁추증	-9423
▁건너가	-9424
▁일본으로	-9425
oy	-9426
▁스릴	-9427
▁위안	-9428
▁추모	-9429
▁유니폼	-9430
▁유소년	-9431
▁에스파냐	-9432
▁파리에서	-9433
▁디비전	-9434
연속	-9435
▁좋다	-9436
▁케네	-9437
▁노래는	-9438
▁성공한	-9439
누엘	-9440
몬드	-9441
▁무죄	-9442
▁사직	-9443
▁자발	-9444
버는	-9445
▁공의	-9446
▁중계	-9447
▁Pro	-9448
▁대전광역시	-9449
▁강이	-9450
▁안의	-9451
▁중순	-9452
▁진영	-9453
▁화면	-9454
형이다	-9455
▁나가사키	-9456
ov	-9457
▁럭	-9458
▁무용	-9459
▁사르	-9460
스트의	-9461
▁특유의	-9462
▁서울에서	-9463
▁관통	-9464
▁보충	-9465
▁뿌리	-9466
▁싫어	-9467
▁풀려	-9468
▁특징은	-9469
▁후지와	-9470
▁돌아갔다	-9471
▁석탄	-9472
네스코	-9473
▁이듬해인	-9474
▁시로	-9475
자리에	-9476
▁멤버로	-9477
▁주어졌다	-9478
82	-9479
▁학자	-9480
주일	-9481
▁이바	-9482
▁다니엘	-9483
▁도로이다	-9484
내셔널	-9485
▁둘러싼	-9486
▁전한다	-9487
이었다고	-9488
▁따뜻	-9489
▁과정은	-9490
과이	-9491
수수	-9492
▁점유	-9493
▁형식의	-9494
내기	-9495
▁반박	-9496
▁발생할	-9497
▁곡의	-9498
▁수신	-9499
라이더	-9500
시민	-9501
자원	-9502
행에	-9503
▁IT	-9504
▁기요	-9505
▁전부터	-9506
생산	-9507
▁신흥	-9508
▁이인	-9509
▁아이를	-9510
아메리카	-9511
▁1913	-9512
▁3000	-9513
▁노력을	-9514
▁5000	-9515
▁팩	-9516
▁향을	-9517
▁과거의	-9518
▁그러자	-9519
▁폴란드의	-9520
▁라트	-9521
▁창시	-9522
▁리메이	-9523
▁원자로	-9524
▁서머	-9525
▁끝나고	-9526
▁짓고	-9527
▁흐름	-9528
▁운행하는	-9529
란트	-9530
매치	-9531
▁안드레	-9532
▁시작하는	-9533
목이	-9534
▁침몰	-9535
▁베네수엘	-9536
▁정확하게	-9537
▁두산	-9538
▁출토	-9539
브리지	-9540
▁의견이	-9541
작전	-9542
▁팽창	-9543
▁된다고	-9544
스러	-9545
▁캠페	-9546
▁보스니아	-9547
철은	-9548
▁부천	-9549
▁빛의	-9550
▁전세계	-9551
▁알바니아	-9552
설이	-9553
▁공학	-9554
▁클린	-9555
중에는	-9556
▁펀	-9557
▁정부와	-9558
저스	-9559
▁감지	-9560
어진다	-9561
▁차례로	-9562
▁오키나와	-9563
예프	-9564
▁삼고	-9565
▁트라이	-9566
▁셈	-9567
▁배를	-9568
▁이슈	-9569
▁캄보	-9570
▁특급	-9571
▁인정받아	-9572
▁필라델피아	-9573
격이	-9574
▁작고	-9575
리아는	-9576
▁언제나	-9577
▁들어가는	-9578
적에	-9579
▁일조	-9580
▁줄어	-9581
▁침해	-9582
▁비슷하다	-9583
▁개업	-9584
거는	-9585
▁이광	-9586
▁장의	-9587
▁하얀	-9588
▁소닉	-9589
트리올	-9590
ph	-9591
학위를	-9592
▁재산을	-9593
▁분광	-9594
▁실종	-9595
▁사천	-9596
▁위기	-9597
▁과학기술	-9598
▁연속으로	-9599
84	-9600
란은	-9601
▁물에	-9602
바흐	-9603
▁DS	-9604
▁세대	-9605
▁시라	-9606
코드	-9607
행의	-9608
▁명문	-9609
▁생각된다	-9610
▁스파르타	-9611
▁링컨	-9612
▁사료	-9613
▁사육	-9614
▁약물	-9615
▁자율	-9616
▁건물을	-9617
▁특이한	-9618
▁하인리히	-9619
81	-9620
GC	-9621
▁기호	-9622
▁발견한	-9623
▁프랑스와	-9624
불교	-9625
▁요르	-9626
▁경우를	-9627
▁창업	-9628
▁풀어	-9629
▁1.5	-9630
▁리버풀	-9631
▁1895	-9632
▁독일에서	-9633
?"	-9634
▁강경	-9635
▁잃은	-9636
▁하야	-9637
▁이미지를	-9638
▁하였는데	-9639
각이	-9640
량으로	-9641
▁밴드는	-9642
▁조직을	-9643
▁섬을	-9644
▁강점기	-9645
▁제외하고는	-9646
▁스리	-9647
▁외의	-9648
▁닿	-9649
런트	-9650
번을	-9651
▁쓰인	-9652
▁판결을	-9653
▁지냈으며	-9654
▁설립하였다	-9655
스파	-9656
▁모델을	-9657
장관	-9658
풍을	-9659
▁72	-9660
▁사기	-9661
▁시그	-9662
▁진도	-9663
▁점이다	-9664
▁집으로	-9665
▁분리되어	-9666
카라	-9667
▁명백	-9668
▁수수	-9669
▁에디	-9670
진으로	-9671
▁네이버	-9672
▁분데스리가	-9673
▁삿	-9674
▁안산	-9675
하였다는	-9676
▁일으키는	-9677
티의	-9678
함의	-9679
▁창건	-9680
▁죽이고	-9681
▁전쟁으로	-9682
▁걱	-9683
▁톈	-9684
ome	-9685
▁조반	-9686
▁필름	-9687
▁영역을	-9688
▁시작되어	-9689
희의	-9690
▁김진	-9691
▁못할	-9692
▁생기는	-9693
▁기록하여	-9694
강점	-9695
레를	-9696
▁민주화	-9697
~3	-9698
▁달린	-9699
이라도	-9700
▁누르고	-9701
▁원작으로	-9702
▁역임한	-9703
▁김재	-9704
▁며칠	-9705
▁정책에	-9706
▁소속이다	-9707
▁어려움을	-9708
▁등재	-9709
▁심판	-9710
▁양키	-9711
▁왕족	-9712
▁않았기	-9713
▁지속적인	-9714
▁제작되었다	-9715
너의	-9716
ian	-9717
▁교외	-9718
▁밝혔	-9719
▁이틀	-9720
▁전당	-9721
▁운행을	-9722
▁일했다	-9723
▁다녀	-9724
▁시즌에는	-9725
400	-9726
▁모두가	-9727
▁시기는	-9728
▁하거나	-9729
▁부과	-9730
▁아폴	-9731
▁평행	-9732
▁우연히	-9733
▁지금도	-9734
▁당대	-9735
▁신용	-9736
▁호세	-9737
▁사용될	-9738
법인이다	-9739
▁플레이어	-9740
▁헐	-9741
경영	-9742
터스	-9743
▁함유	-9744
사추세츠	-9745
자연	-9746
▁인생	-9747
▁스테이지	-9748
▁거리가	-9749
▁남부의	-9750
▁중심이	-9751
▁홈페이지	-9752
초를	-9753
-11	-9754
▁77	-9755
▁그렇지	-9756
있던	-9757
지붕	-9758
▁컨트롤	-9759
▁분류된다	-9760
▁죄를	-9761
▁전에는	-9762
위대	-9763
학교에	-9764
▁PD	-9765
▁계곡	-9766
▁형태는	-9767
속을	-9768
▁유출	-9769
▁이반	-9770
▁선거를	-9771
-17	-9772
▁바꿔	-9773
▁평소	-9774
▁독일은	-9775
▁몬트리올	-9776
▁꽤	-9777
▁고분	-9778
▁유신	-9779
▁증권	-9780
하우스	-9781
▁진출했다	-9782
지나	-9783
▁두루	-9784
▁의병	-9785
▁리눅스	-9786
▁약화	-9787
▁이화	-9788
리면서	-9789
민을	-9790
▁""	-9791
▁느낀	-9792
▁건물이	-9793
,8	-9794
▁서해	-9795
ee	-9796
러가	-9797
▁친정	-9798
▁도호쿠	-9799
▁지명을	-9800
▁트레이드	-9801
pp	-9802
실과	-9803
▁라스	-9804
가에서	-9805
▁객관	-9806
▁써서	-9807
▁에버	-9808
▁촉구	-9809
IM	-9810
▁몰려	-9811
▁중독	-9812
점이다	-9813
▁총선거	-9814
▁비즈니스	-9815
▁팔레스타	-9816
손은	-9817
▁59	-9818
▁도구	-9819
▁용이	-9820
▁컬럼비아	-9821
층이	-9822
▁의사를	-9823
박스	-9824
▁닥터	-9825
▁아이슬	-9826
▁낙선	-9827
▁텔	-9828
▁팀에	-9829
▁형법	-9830
아리	-9831
인들	-9832
▁on	-9833
▁배틀	-9834
스카야	-9835
▁체계를	-9836
▁지방에서	-9837
트니	-9838
▁알코	-9839
▁좌파	-9840
▁정교회	-9841
▁확인되었다	-9842
예를	-9843
▁안장	-9844
▁제갈	-9845
▁목표를	-9846
▁식으로	-9847
왕에	-9848
츠가	-9849
▁외곽	-9850
▁일어날	-9851
▁잦	-9852
▁싶어	-9853
제국의	-9854
항으로	-9855
▁차지한	-9856
▁이루었다	-9857
:1	-9858
▁가벼	-9859
▁해인	-9860
▁관현악	-9861
▁친일인명	-9862
처리	-9863
시까지	-9864
스부르크	-9865
▁번호	-9866
▁화살	-9867
▁출전해	-9868
▁사적	-9869
화하고	-9870
롤라이나	-9871
▁갓	-9872
▁백악	-9873
▁여기에는	-9874
▁들어오	-9875
▁중기의	-9876
▁분야에	-9877
▁위협을	-9878
▁내고	-9879
▁멈추	-9880
▁불을	-9881
▁액체	-9882
▁145	-9883
▁소수의	-9884
▁자신에게	-9885
▁수평	-9886
▁신비	-9887
▁스릴러	-9888
▁아틀레	-9889
▁유네스코	-9890
주식	-9891
▁일에	-9892
정부의	-9893
▁영남	-9894
▁후안	-9895
▁대통령을	-9896
OV	-9897
▁쫓겨	-9898
▁멕시코의	-9899
▁시작된다	-9900
▁일제강점	-9901
▁날짜	-9902
▁긍정적인	-9903
수인	-9904
타니	-9905
▁학부	-9906
▁다음이	-9907
▁조건으로	-9908
범한	-9909
ace	-9910
ire	-9911
▁차기	-9912
▁155	-9913
▁Con	-9914
▁광주광역시	-9915
자도	-9916
티모	-9917
훈은	-9918
▁외야	-9919
▁출연한	-9920
르노	-9921
마사	-9922
▁김포	-9923
▁대처	-9924
▁무소	-9925
▁원내	-9926
▁과정에	-9927
▁맡았고	-9928
▁스티브	-9929
번뇌	-9930
▁내야	-9931
▁동물의	-9932
▁투르크	-9933
▁엉	-9934
각의	-9935
~19	-9936
▁애덤	-9937
▁레이저	-9938
▁설립했다	-9939
,0	-9940
환이	-9941
▁치열	-9942
▁페어	-9943
▁나갔다	-9944
주곡	-9945
▁대니	-9946
▁스쿨	-9947
능력	-9948
▁듯한	-9949
▁리스	-9950
▁숙종	-9951
▁포로	-9952
▁디스플레이	-9953
▁교구	-9954
자리를	-9955
▁모델은	-9956
▁활동은	-9957
마치	-9958
▁다중	-9959
▁바실	-9960
▁쉬운	-9961
▁라이언	-9962
▁퍼시픽	-9963
▁거주하고	-9964
▁진출하였다	-9965
▁비례대표	-9966
ber	-9967
▁신하	-9968
바이잔	-9969
소이다	-9970
▁만화가	-9971
▁준우승을	-9972
▁내보	-9973
▁영동	-9974
▁되었을	-9975
러의	-9976
▁CE	-9977
▁관습	-9978
▁관직	-9979
▁비단	-9980
▁장난	-9981
OP	-9982
마와	-9983
양은	-9984
-12	-9985
▁고지	-9986
▁미토	-9987
▁국가대표팀의	-9988
▁교도	-9989
▁동래	-9990
▁미치	-9991
▁바닷	-9992
화하여	-9993
▁부문에	-9994
▁아래로	-9995
▁주를	-9996
▁할당	-9997
▁했다는	-9998
▁고무	-9999
▁속도가	-10000
▁공사가	-10001
▁수행하는	-10002
ust	-10003
▁것인	-10004
▁루스	-10005
▁분배	-10006
▁평등	-10007
▁속으로	-10008
▁있어서는	-10009
도비	-10010
▁식별	-10011
▁전역	-10012
받을	-10013
식품	-10014
▁전세	-10015
▁국가에	-10016
▁미국에서는	-10017
시노	-10018
투를	-10019
▁마오	-10020
▁염색	-10021
▁사회에	-10022
▁아즈	-10023
기기	-10024
자본	-10025
전사	-10026
▁고발	-10027
▁소총	-10028
▁총괄	-10029
일에서	-10030
▁나이지	-10031
▁다음에	-10032
사우루스	-10033
!"	-10034
▁밟	-10035
▁라이선	-10036
▁수렴	-10037
▁추상	-10038
▁에티오	-10039
제르바이잔	-10040
▁기체	-10041
▁어울	-10042
▁편리	-10043
▁스튜어	-10044
▁되었지만	-10045
▁공채	-10046
▁구리	-10047
년간의	-10048
▁여행을	-10049
▁트랜스	-10050
▁상징하는	-10051
▁성씨	-10052
학자인	-10053
▁캐스팅	-10054
▁비서	-10055
▁제수	-10056
▁탓에	-10057
▁회담	-10058
▁영화에	-10059
73	-10060
책임	-10061
▁둥근	-10062
▁부를	-10063
▁아벨	-10064
▁가난한	-10065
작품	-10066
▁검증	-10067
▁진행된	-10068
공립	-10069
▁건물의	-10070
▁비슷하게	-10071
단이다	-10072
▁화제가	-10073
라리	-10074
에너	-10075
▁스핀	-10076
▁시는	-10077
▁식량	-10078
호선은	-10079
▁기념물	-10080
▁기갑	-10081
▁전신	-10082
▁종의	-10083
하였기	-10084
▁대회의	-10085
▁허리케	-10086
각은	-10087
보도	-10088
▁후일	-10089
▁나아	-10090
▁쌓아	-10091
▁열고	-10092
▁개혁을	-10093
르지	-10094
▁게오	-10095
▁급행	-10096
▁요크	-10097
▁시나리오	-10098
비나	-10099
▁바뀐	-10100
▁급격히	-10101
▁방송국	-10102
▁선교사	-10103
▁칼리지	-10104
▁끌려	-10105
▁내린	-10106
▁무거운	-10107
▁아이슬란드	-10108
▁닭	-10109
선언	-10110
▁교수는	-10111
▁키프로	-10112
하겠다는	-10113
OL	-10114
▁언더	-10115
▁지나치게	-10116
▁상원	-10117
▁전인	-10118
슈타인	-10119
편으로	-10120
▁이곳은	-10121
야가	-10122
▁봉사	-10123
▁알제	-10124
▁외무	-10125
▁은퇴를	-10126
▁움직이는	-10127
▁엔지	-10128
▁장로	-10129
▁강제로	-10130
▁붓	-10131
올로	-10132
▁광산	-10133
▁시즌의	-10134
▁제품을	-10135
▁엘리베이	-10136
▁자본주의	-10137
▁김상	-10138
▁이노	-10139
돌이	-10140
파일	-10141
포의	-10142
▁마이크	-10143
치료	-10144
▁간부	-10145
우주연	-10146
▁측면에서	-10147
▁훔	-10148
사태	-10149
▁자신과	-10150
▁조문이다	-10151
▁후쿠시마	-10152
▁신속	-10153
바닥	-10154
▁격퇴	-10155
▁누군	-10156
▁신생	-10157
-16	-10158
▁극히	-10159
▁고려의	-10160
▁기록된	-10161
▁승강장은	-10162
퍼스	-10163
▁들이	-10164
▁아세	-10165
SS	-10166
▁돌연	-10167
▁입체	-10168
▁개발에	-10169
항에	-10170
▁영향력	-10171
▁진나라	-10172
.25	-10173
▁버튼	-10174
▁볼리	-10175
▁중도	-10176
▁받았으나	-10177
ite	-10178
▁관람	-10179
▁작센	-10180
▁결과에	-10181
▁대학을	-10182
▁지점에	-10183
▁도움으로	-10184
▁리메이크	-10185
▁있었다는	-10186
▁지어졌다	-10187
▁||	-10188
▁동년	-10189
칭으로	-10190
▁구조로	-10191
이었기	-10192
▁오렌지	-10193
▁참여하여	-10194
▁계절	-10195
▁매출	-10196
▁숨겨	-10197
타리오	-10198
▁1916	-10199
▁설치류의	-10200
▁거론	-10201
▁뜻의	-10202
▁리비아	-10203
무기	-10204
▁걸어	-10205
▁메타	-10206
▁쇼핑	-10207
하였다가	-10208
▁않았으나	-10209
AL	-10210
고도	-10211
망이	-10212
▁63	-10213
▁손자	-10214
▁앓	-10215
해와	-10216
▁FM	-10217
▁찾기	-10218
▁마음이	-10219
▁어려움	-10220
▁제조업	-10221
▁남아있는	-10222
▁소유하고	-10223
▁이상으로	-10224
▁행성의	-10225
pt	-10226
결합	-10227
▁실린	-10228
▁종결	-10229
산성	-10230
▁레전드	-10231
▁치러진	-10232
▁선수들이	-10233
▁끓	-10234
▁글리	-10235
▁받기	-10236
▁사랑의	-10237
▁실시간	-10238
▁아이템	-10239
▁개관	-10240
▁스피드	-10241
▁단종	-10242
▁전념	-10243
하려면	-10244
▁봐	-10245
실험	-10246
▁병행	-10247
베르토	-10248
▁참가하는	-10249
미국	-10250
600	-10251
▁드럼	-10252
▁토니	-10253
해왔다	-10254
▁인물을	-10255
기준	-10256
분석	-10257
서울	-10258
일간	-10259
▁활발한	-10260
▁한국전쟁	-10261
IP	-10262
천은	-10263
▁전례	-10264
▁십자가	-10265
▁아버지와	-10266
▁뿔	-10267
노프	-10268
▁기지	-10269
▁일도	-10270
▁재활	-10271
▁조상	-10272
원들이	-10273
▁김대중	-10274
▁참가하고	-10275
시내	-10276
▁GT	-10277
▁나섰다	-10278
▁나이가	-10279
▁물리적	-10280
▁일시적으로	-10281
▁군수	-10282
▁통근	-10283
▁향후	-10284
▁행정구역	-10285
포가	-10286
▁라우	-10287
▁옷을	-10288
▁작위를	-10289
푸르트	-10290
▁것에서	-10291
▁기간에	-10292
▁마이너	-10293
▁작곡한	-10294
▁시절부터	-10295
▁전체가	-10296
고쿠	-10297
▁김수	-10298
▁부장	-10299
▁실려	-10300
▁중소	-10301
▁채권	-10302
스트를	-10303
▁휠	-10304
유적	-10305
▁매카	-10306
▁페르난	-10307
길을	-10308
크리	-10309
▁로열	-10310
▁미주	-10311
▁의뢰	-10312
▁지폐	-10313
▁막내	-10314
▁곡이다	-10315
▁나타낼	-10316
▁니콜라	-10317
▁페르디	-10318
▁마운	-10319
때문에	-10320
▁공간의	-10321
▁성공하였다	-10322
▁꼴	-10323
산면	-10324
▁김기	-10325
문제연구	-10326
그레	-10327
▁남원	-10328
▁힘입	-10329
▁깨달	-10330
로니	-10331
▁끝까지	-10332
음과	-10333
▁좌절	-10334
▁첨가	-10335
원들은	-10336
▁활약했다	-10337
▁시칠	-10338
▁지혜	-10339
래스카	-10340
▁Wh	-10341
▁오빠	-10342
▁해운	-10343
▁공화당	-10344
▁아니지만	-10345
▁날아	-10346
▁진짜	-10347
▁교수가	-10348
▁생각하는	-10349
감에	-10350
▁()	-10351
▁강과	-10352
▁눈이	-10353
▁치명	-10354
▁IBM	-10355
▁드러나	-10356
▁정이다	-10357
일드	-10358
자책	-10359
▁폐위	-10360
철도의	-10361
▁구조가	-10362
▁오하이	-10363
야를	-10364
▁사헌	-10365
▁대법원	-10366
▁시설이	-10367
▁주장하고	-10368
TC	-10369
해지는	-10370
▁공동체	-10371
▁노무현	-10372
▁히데요	-10373
▁찌	-10374
고래	-10375
▁리치	-10376
▁선구	-10377
▁성당	-10378
▁왕비	-10379
▁진동	-10380
▁소설을	-10381
▁중요하다	-10382
자스	-10383
▁곡이	-10384
▁군에	-10385
▁신규	-10386
▁나라에서	-10387
▁학교에서	-10388
HE	-10389
십자	-10390
▁성모	-10391
▁소환	-10392
▁평택	-10393
▁아마도	-10394
▁낼	-10395
▁관중	-10396
▁넣었다	-10397
▁새겨져	-10398
▁매사추세츠	-10399
▁Te	-10400
▁영상을	-10401
▁우승하였다	-10402
▁권위	-10403
▁딸을	-10404
▁평창	-10405
시부터	-10406
▁수록곡	-10407
▁로즈	-10408
▁매개	-10409
▁먹고	-10410
▁차가	-10411
▁장려	-10412
대한민	-10413
▁쓰이고	-10414
▁실질적인	-10415
톨레	-10416
▁현저	-10417
으로의	-10418
▁동명의	-10419
ark	-10420
▁관리하고	-10421
동시	-10422
칭을	-10423
▁복지	-10424
▁관장	-10425
▁여성이	-10426
림이	-10427
ies	-10428
▁레논	-10429
▁전진	-10430
▁공사를	-10431
▁별다른	-10432
▁방법이다	-10433
for	-10434
▁th	-10435
▁모방	-10436
▁줄기	-10437
▁해주	-10438
▁애틀랜	-10439
하우	-10440
▁It	-10441
▁매달	-10442
▁진정	-10443
▁계획에	-10444
▁주제가	-10445
▁활약한	-10446
란히	-10447
▁비오	-10448
▁플레이스테이션	-10449
턴의	-10450
▁대학에	-10451
▁조금씩	-10452
기관으로	-10453
서도	-10454
▁소실	-10455
▁충격을	-10456
▁결혼했다	-10457
▁왜냐	-10458
▁해밀	-10459
류이다	-10460
▁부대를	-10461
▁등장했다	-10462
▁생각하고	-10463
안타	-10464
청에	-10465
해군	-10466
황을	-10467
▁손해	-10468
_9	-10469
▁거행	-10470
▁맞지	-10471
▁한쪽	-10472
▁그레고	-10473
▁정부로부터	-10474
레아	-10475
쟁이	-10476
채를	-10477
▁놓은	-10478
▁오오	-10479
▁요소가	-10480
권도	-10481
대교	-10482
셰비	-10483
▁그중	-10484
▁노비	-10485
▁유격	-10486
▁증기	-10487
▁NBA	-10488
▁검은색	-10489
▁다리를	-10490
인치	-10491
주쿠	-10492
▁닛폰	-10493
▁해를	-10494
▁부분적으로	-10495
▁영의	-10496
▁춘천	-10497
▁피어	-10498
전도	-10499
왔으며	-10500
▁전선	-10501
▁운동은	-10502
▁인정하지	-10503
▁중심기압	-10504
석기	-10505
▁정면	-10506
▁전자기	-10507
▁군단	-10508
▁안쪽	-10509
클랜드	-10510
▁알렸다	-10511
▁일컫는	-10512
▁경비	-10513
▁서사	-10514
▁성균관	-10515
▁아제르바이잔	-10516
,7	-10517
▁코무네	-10518
▁울산광역시	-10519
무스	-10520
바스	-10521
▁모드	-10522
▁발원	-10523
▁의회는	-10524
▁존중	-10525
▁맞추어	-10526
▁프랭크	-10527
▁성립한다	-10528
고등학교를	-10529
▁경기에서는	-10530
봉을	-10531
▁정렬	-10532
▁주석	-10533
▁문서는	-10534
▁양식을	-10535
▁담당하고	-10536
빈은	-10537
▁공직	-10538
▁교차로	-10539
▁만나게	-10540
통이	-10541
풍의	-10542
▁나쁜	-10543
▁단층	-10544
▁목사	-10545
▁물고	-10546
년동안	-10547
▁아사히	-10548
▁라트비아	-10549
학이	-10550
▁구릉	-10551
▁아인	-10552
▁일요일	-10553
▁소니	-10554
▁시흥	-10555
▁우울	-10556
▁바꾸어	-10557
FM	-10558
inc	-10559
▁잭슨	-10560
▁헤드	-10561
▁학자들은	-10562
▁섬은	-10563
▁승인을	-10564
▁정리한	-10565
당하였다	-10566
▁나눌	-10567
~20	-10568
▁회고	-10569
▁스타일	-10570
소득	-10571
▁왕자	-10572
과정을	-10573
▁조선인	-10574
보안	-10575
사리	-10576
▁SP	-10577
▁협의	-10578
렸으나	-10579
시에는	-10580
▁옌	-10581
회장	-10582
▁사토	-10583
터미널	-10584
▁경험이	-10585
▁참고로	-10586
결정	-10587
포구	-10588
브의	-10589
헤이	-10590
▁충주	-10591
▁하락	-10592
쥐과에	-10593
▁이에야	-10594
▁보완	-10595
▁인플	-10596
ft	-10597
번에	-10598
▁쇼와	-10599
▁서쪽에	-10600
▁둘러싸고	-10601
▁일어나자	-10602
,5	-10603
▁시켜	-10604
스와의	-10605
▁사이가	-10606
리그에서	-10607
▁등장인물	-10608
▁펜실베이	-10609
▁솟	-10610
약품	-10611
짜리	-10612
▁Co	-10613
▁만의	-10614
▁부대는	-10615
▁인물이	-10616
▁앨범이다	-10617
리라	-10618
▁진행된다	-10619
▁명에	-10620
▁주차	-10621
▁본사는	-10622
▁음악의	-10623
▁칭호를	-10624
▁개발되었다	-10625
▁98	-10626
▁좌표	-10627
▁탈환	-10628
▁한미	-10629
▁군대의	-10630
려서	-10631
▁개화	-10632
▁총재	-10633
▁마쳤다	-10634
▁쓰였다	-10635
▁햇	-10636
▁거리는	-10637
▁데뷔를	-10638
▁진출을	-10639
▁부적	-10640
마르크	-10641
방은	-10642
▁길게	-10643
▁선수를	-10644
▁스케이팅	-10645
▁않았다고	-10646
▁하드웨어	-10647
▁준비를	-10648
▁회사를	-10649
nt	-10650
극장	-10651
작의	-10652
ran	-10653
▁경부	-10654
▁보지	-10655
▁전제	-10656
▁할리우	-10657
CD	-10658
▁바른	-10659
▁단위로	-10660
▁세계대	-10661
▁멋	-10662
니시	-10663
▁상반	-10664
▁이끈	-10665
▁귀중한	-10666
▁규모는	-10667
▁대상을	-10668
▁영어로	-10669
▁요구했다	-10670
위안	-10671
▁유언	-10672
▁방식이	-10673
▁휴스턴	-10674
▁관할하는	-10675
▁건물로	-10676
▁부족한	-10677
▁새누리	-10678
▁여기에서	-10679
▁탤	-10680
카타	-10681
▁모으	-10682
▁어휘	-10683
▁사회를	-10684
번은	-10685
회담	-10686
▁육성	-10687
▁게이트	-10688
MA	-10689
증으로	-10690
▁덧붙여	-10691
▁결정적인	-10692
▁mm	-10693
▁두어	-10694
▁상상	-10695
▁트루	-10696
달라고	-10697
▁최후의	-10698
됨으로써	-10699
▁시절에는	-10700
링은	-10701
만원	-10702
▁몸에	-10703
ile	-10704
▁대웅	-10705
되지는	-10706
▁비용을	-10707
버스터미널	-10708
냈고	-10709
▁kg	-10710
▁그날	-10711
▁잃어버	-10712
▁시점에서	-10713
놓은	-10714
일체	-10715
▁배구	-10716
화에서	-10717
▁권고	-10718
▁아예	-10719
▁환원	-10720
▁연구소	-10721
▁음식을	-10722
▁딘	-10723
미쓰	-10724
▁아부	-10725
▁야간	-10726
▁억압	-10727
▁지정된	-10728
려면	-10729
▁색을	-10730
▁이진	-10731
년이다	-10732
▁이집트의	-10733
프랑스	-10734
▁생겼다	-10735
가고	-10736
▁깨닫	-10737
▁말기	-10738
▁직선	-10739
▁정신적	-10740
서야	-10741
소방	-10742
차와	-10743
▁배웠다	-10744
▁존재하며	-10745
▁중에서는	-10746
시안	-10747
▁LP	-10748
▁왕은	-10749
▁이긴	-10750
도마뱀	-10751
▁펼쳤다	-10752
인들과	-10753
▁동쪽에	-10754
▁용어를	-10755
▁성우이다	-10756
말라	-10757
여성	-10758
▁갇	-10759
척의	-10760
▁유죄	-10761
권에서	-10762
▁경제학	-10763
▁시스템이	-10764
박한	-10765
▁cm	-10766
▁에이스	-10767
▁서식하는	-10768
▁쥬	-10769
▁부부	-10770
▁국가는	-10771
▁있으면서	-10772
▁2,000	-10773
다지	-10774
▁다항	-10775
▁담긴	-10776
▁라파	-10777
▁연세	-10778
xt	-10779
▁물고기	-10780
▁시작하였고	-10781
▁관념	-10782
▁전압	-10783
▁국가로	-10784
▁중간에	-10785
▁비판했다	-10786
▁구는	-10787
나우	-10788
▁슬라	-10789
▁일본을	-10790
▁사라졌다	-10791
통의	-10792
▁공인	-10793
▁평면	-10794
▁밑에서	-10795
▁신호를	-10796
▁요미우리	-10797
감과	-10798
▁높고	-10799
▁번식	-10800
▁송시	-10801
▁얻고	-10802
▁각본을	-10803
▁겪었다	-10804
▁불교의	-10805
▁승리한	-10806
▁제외하면	-10807
라트	-10808
정당	-10809
ide	-10810
▁충북	-10811
가이자	-10812
▁추정되는	-10813
▁하나였다	-10814
▁하더라도	-10815
▁활동하는	-10816
녀를	-10817
보건	-10818
작이	-10819
▁거제	-10820
▁닌텐도	-10821
▁기점으로	-10822
미노	-10823
장한	-10824
전선	-10825
ment	-10826
▁감정을	-10827
▁부동산	-10828
▁시설을	-10829
▁사무실은	-10830
벤처	-10831
▁개그	-10832
▁이라	-10833
▁코트	-10834
▁투구	-10835
지역의	-10836
▁거느리고	-10837
▁조선인민	-10838
▁대관	-10839
▁역설	-10840
▁주소	-10841
▁2.0	-10842
▁연결된	-10843
▁초반에	-10844
게이머	-10845
▁기리기	-10846
▁댐	-10847
▁제사	-10848
▁놓았다	-10849
▁지적했다	-10850
▁카자흐스탄	-10851
▁왓	-10852
▁턱	-10853
강에서	-10854
▁우라늄	-10855
▁않는다고	-10856
놓고	-10857
창을	-10858
▁갈아	-10859
▁계몽	-10860
▁느껴	-10861
▁산소	-10862
▁아는	-10863
▁쫓아	-10864
거리는	-10865
▁하나이며	-10866
▁변경하였다	-10867
▁62	-10868
▁왜냐하면	-10869
▁사건이다	-10870
▁선보였다	-10871
모와	-10872
▁구동	-10873
▁신이	-10874
▁오라	-10875
▁팀인	-10876
▁발매하였다	-10877
크에	-10878
▁띠고	-10879
▁시초	-10880
▁자금을	-10881
▁호평을	-10882
▁엽	-10883
▁빠진	-10884
▁동아일보	-10885
목적	-10886
열대	-10887
▁섬유	-10888
▁신념	-10889
▁연호	-10890
▁주류	-10891
▁카롤	-10892
▁도착한	-10893
▁생각해	-10894
▁시즌이	-10895
▁엔진은	-10896
▁웨일스	-10897
▁이산화	-10898
▁기습	-10899
▁추출	-10900
▁굉장히	-10901
▁얻는다	-10902
▁움직임	-10903
대회에서	-10904
▁참여하는	-10905
구성	-10906
루와	-10907
공산당	-10908
▁대한민국에	-10909
베트남	-10910
▁자체는	-10911
▁단단	-10912
항이	-10913
▁가짜	-10914
▁코어	-10915
▁프랑스어	-10916
▁펜실베이니아	-10917
▁고양이	-10918
▁기술의	-10919
▁특징이	-10920
학적으로	-10921
▁아일랜드의	-10922
▁미노	-10923
이면서	-10924
▁아미노	-10925
▁지식을	-10926
▁프랑수아	-10927
▁데이터베이스	-10928
리야	-10929
▁김경	-10930
▁임기	-10931
▁출산	-10932
▁최상위	-10933
▁이야기는	-10934
▁난징	-10935
▁몰래	-10936
▁총대	-10937
▁추격	-10938
▁통칭	-10939
▁해변	-10940
▁차원에서	-10941
▁블라디미르	-10942
▁이루어지고	-10943
제한	-10944
주기	-10945
▁기름	-10946
▁태종	-10947
▁태도를	-10948
▁태어났	-10949
▁선수이며	-10950
구르	-10951
▁찾아볼	-10952
▁셸	-10953
▁더글	-10954
▁종은	-10955
▁125	-10956
▁마을의	-10957
네가	-10958
▁초과	-10959
▁플랑	-10960
▁앨범의	-10961
▁지방을	-10962
르며	-10963
찬을	-10964
▁담겨	-10965
▁힘입어	-10966
▁월드컵에서	-10967
▁//	-10968
▁고수	-10969
▁기능은	-10970
▁문화체육	-10971
▁생각한다	-10972
택을	-10973
▁도주	-10974
▁디오	-10975
이거나	-10976
▁RNA	-10977
▁만났다	-10978
▁국방부	-10979
아일랜드	-10980
▁리틀	-10981
▁초등	-10982
▁봤	-10983
▁밑에	-10984
▁밀접한	-10985
▁시장을	-10986
▁생산하는	-10987
▁평균자책	-10988
현과	-10989
▁수업	-10990
▁채무	-10991
▁통틀	-10992
시키며	-10993
▁마을을	-10994
▁생각할	-10995
▁종으로	-10996
▁고려대학교	-10997
법제	-10998
▁신한	-10999
▁한계	-11000
갔으며	-11001
▁와중에	-11002
▁사망하고	-11003
디나	-11004
릴라	-11005
채널	-11006
▁사이드	-11007
▁중국과	-11008
▁낭만	-11009
▁기반의	-11010
▁논문을	-11011
▁잠수함	-11012
▁대신하여	-11013
▁돋	-11014
내어	-11015
만명	-11016
▁무승	-11017
▁서정	-11018
▁조달	-11019
▁조명	-11020
▁오하이오	-11021
▁AK	-11022
▁순회	-11023
거리를	-11024
▁수술을	-11025
▁AR	-11026
▁난이	-11027
▁부수	-11028
방에서	-11029
▁시계	-11030
▁토요	-11031
▁민족문제연구	-11032
구나	-11033
리조	-11034
층을	-11035
▁집계	-11036
▁최하	-11037
가들은	-11038
▁순수한	-11039
▁업적을	-11040
위원으로	-11041
국장	-11042
기나	-11043
어지는	-11044
▁것보다	-11045
▁아름다	-11046
▁의식을	-11047
▁주장한	-11048
▁자리잡고	-11049
강은	-11050
▁문장	-11051
▁설탕	-11052
▁이래로	-11053
rom	-11054
▁범위	-11055
▁이윤	-11056
연구원	-11057
왕으로	-11058
▁최대한	-11059
▁환경을	-11060
위원장	-11061
▁여름에	-11062
▁장치를	-11063
▁최근의	-11064
▁넬	-11065
▁나눠	-11066
▁사원	-11067
년대의	-11068
▁온타리오	-11069
▁내리	-11070
▁위탁	-11071
▁조건이	-11072
▁림	-11073
열은	-11074
철의	-11075
▁띤다	-11076
▁수동	-11077
▁초연	-11078
▁컬러	-11079
▁위기를	-11080
▁민사	-11081
▁잎은	-11082
▁학위	-11083
ound	-11084
▁조선일보	-11085
디언	-11086
▁성별	-11087
▁105	-11088
▁시호를	-11089
▁67	-11090
▁밤에	-11091
▁산다	-11092
▁야당	-11093
▁위임	-11094
▁이어진	-11095
▁학교에	-11096
▁기록하는	-11097
시즘	-11098
iver	-11099
즈에서	-11100
▁의미의	-11101
▁천문학	-11102
▁테이블	-11103
박사	-11104
▁안보	-11105
▁대회에서는	-11106
ory	-11107
▁붙은	-11108
▁쇼군	-11109
▁조르	-11110
▁취재	-11111
▁자세한	-11112
족에	-11113
▁결코	-11114
▁공로로	-11115
지방선거	-11116
▁두개	-11117
▁파스	-11118
▁관리하는	-11119
▁경상남도의	-11120
물질	-11121
▁매입	-11122
▁테레	-11123
▁뜨거운	-11124
▁카를로	-11125
님을	-11126
나갔다	-11127
방으로	-11128
정에서	-11129
▁북부의	-11130
부르	-11131
▁베니	-11132
▁이의	-11133
▁일컬	-11134
▁재무	-11135
▁왕위에	-11136
▁배치되어	-11137
▁조선로동	-11138
▁드문	-11139
▁시장에	-11140
~5	-11141
▁옴	-11142
▁마루	-11143
▁봉쇄	-11144
▁힘든	-11145
▁시내버스	-11146
벌레	-11147
외선	-11148
▁경사	-11149
▁올바	-11150
▁표명	-11151
▁설명했다	-11152
▁편입되었다	-11153
국사	-11154
버리	-11155
▁상수	-11156
▁정사	-11157
▁진군	-11158
▁청원	-11159
면에는	-11160
▁그쳤다	-11161
▁소관의	-11162
씨로	-11163
증은	-11164
are	-11165
▁앉아	-11166
▁싱글로	-11167
림의	-11168
▁시골	-11169
▁도시가	-11170
▁되돌아	-11171
급을	-11172
다르	-11173
▁시점	-11174
▁정한	-11175
▁카스	-11176
▁한스	-11177
▁대한민국은	-11178
▁자연스럽게	-11179
교에	-11180
▁재현	-11181
▁최적	-11182
자들에	-11183
▁무기를	-11184
▁장관을	-11185
▁저명한	-11186
프로그램	-11187
도어	-11188
터널	-11189
▁구제	-11190
▁먹이를	-11191
▁위험한	-11192
▁뉘	-11193
▁연령	-11194
▁투옥	-11195
▁파이어	-11196
만여	-11197
준의	-11198
천이	-11199
▁Le	-11200
▁회사가	-11201
▁근처에서	-11202
▁대피	-11203
▁체포되어	-11204
▁직접적으로	-11205
▁로저	-11206
▁아담	-11207
▁협약	-11208
▁인접한	-11209
▁철도의	-11210
루션	-11211
참모	-11212
▁발을	-11213
▁사사	-11214
▁것으로서	-11215
기사	-11216
나스	-11217
▁넣고	-11218
▁소셜	-11219
▁전도	-11220
선이다	-11221
▁자체를	-11222
▁대통령에	-11223
▁부문에서	-11224
▁크리스토퍼	-11225
▁프로게이머	-11226
▁$	-11227
원숭이	-11228
쳤으며	-11229
커니즘	-11230
▁통일신	-11231
▁문화방송	-11232
▁마약	-11233
▁마하	-11234
▁사이버	-11235
멘트	-11236
▁NC	-11237
▁모친	-11238
▁부딪	-11239
▁업그	-11240
▁로이	-11241
▁독립된	-11242
▁잃었다	-11243
▁코스타	-11244
병은	-11245
▁변수	-11246
▁부호	-11247
▁신임	-11248
▁애비	-11249
▁하마	-11250
본으로	-11251
▁일본과	-11252
▁전통을	-11253
▁신설되었다	-11254
▁쉐	-11255
▁엿	-11256
▁이내	-11257
▁가수로	-11258
▁전투기	-11259
종인	-11260
▁기아	-11261
▁국내외	-11262
▁엄격한	-11263
▁이후로는	-11264
▁땄	-11265
▁킨	-11266
평화	-11267
포드	-11268
▁떠올	-11269
▁칼라	-11270
▁경찰은	-11271
▁물질을	-11272
▁실패하였다	-11273
▁횟	-11274
▁팔라	-11275
▁실패로	-11276
▁자신도	-11277
▁달성했다	-11278
▁사이타마	-11279
계승	-11280
도리	-11281
축을	-11282
▁만남	-11283
▁패키	-11284
▁의회의	-11285
▁제주도	-11286
▁1894	-11287
▁자동으로	-11288
▁레바	-11289
▁모르는	-11290
신에	-11291
▁불이	-11292
▁어항	-11293
▁탐지	-11294
▁내부에	-11295
▁문제의	-11296
▁이론의	-11297
▁황해도	-11298
액은	-11299
파르	-11300
▁개원	-11301
▁보일	-11302
▁장성	-11303
누스는	-11304
▁만나는	-11305
▁사람과	-11306
▁시즌은	-11307
▁궁극	-11308
▁즉각	-11309
▁폭스	-11310
해양	-11311
▁Sp	-11312
▁상태였다	-11313
TS	-11314
▁후궁	-11315
▁것인데	-11316
▁들어온	-11317
▁이후부터	-11318
▁밀어	-11319
▁유래한	-11320
▁도입되었다	-11321
▁마츠	-11322
▁희귀	-11323
가지의	-11324
▁슬로베	-11325
▁제안을	-11326
마일	-11327
▁성취	-11328
▁시키	-11329
행으로	-11330
▁도미니	-11331
▁디비시	-11332
했습니다	-11333
▁카타	-11334
▁우주의	-11335
▁이어진다	-11336
▁지구에서	-11337
▁갈릴	-11338
▁앙리	-11339
▁회계	-11340
▁개발이	-11341
▁모델이	-11342
▁친일인명사전	-11343
로이	-11344
▁안성	-11345
▁지고	-11346
▁소속된	-11347
▁제국을	-11348
▁제사를	-11349
▁비평	-11350
▁뉴욕에서	-11351
▁디자인을	-11352
▁서재	-11353
▁스톡	-11354
▁예배	-11355
▁임용	-11356
▁제프	-11357
풍으로	-11358
▁바티칸	-11359
▁할머니	-11360
▁출전하였다	-11361
▁법조	-11362
▁이가	-11363
▁짙은	-11364
▁가지며	-11365
▁구간을	-11366
▁그러던	-11367
▁다양하다	-11368
man	-11369
▁그랜	-11370
▁범유	-11371
운드를	-11372
라기	-11373
집이	-11374
▁미즈	-11375
▁시뮬	-11376
▁그리스도의	-11377
▁리투아니아	-11378
플렉	-11379
▁78	-11380
▁원리	-11381
▁프랑크푸르트	-11382
▁국소	-11383
▁성주	-11384
▁통영	-11385
▁CON	-11386
지휘	-11387
▁네오	-11388
▁믿고	-11389
▁분명히	-11390
▁섬으로	-11391
▁참여하고	-11392
캐롤라이나	-11393
▁팜	-11394
가족	-11395
▁이케	-11396
▁스미스	-11397
위원회를	-11398
▁구출	-11399
▁보전	-11400
▁진흥	-11401
▁측의	-11402
▁프로레	-11403
▁기록했고	-11404
▁런던에서	-11405
왕조	-11406
▁영문	-11407
▁영조	-11408
▁오바	-11409
▁제압	-11410
스트리	-11411
▁알코올	-11412
▁직전에	-11413
▁함으로써	-11414
ng	-11415
로우	-11416
사나	-11417
애를	-11418
왕과	-11419
츠를	-11420
크에서	-11421
효소	-11422
희가	-11423
▁가죽	-11424
▁비유	-11425
▁다룬다	-11426
▁질량은	-11427
▁문법	-11428
▁받침	-11429
▁불어	-11430
▁이름인	-11431
▁지휘관	-11432
▁출전한	-11433
omp	-11434
▁고쳐	-11435
▁시즈	-11436
▁축하	-11437
▁스스로를	-11438
▁사자	-11439
▁장군의	-11440
▁입자	-11441
▁있었을	-11442
야만	-11443
절한	-11444
▁is	-11445
▁이룬	-11446
▁호위	-11447
▁비로소	-11448
학교에서	-11449
무역	-11450
스런	-11451
욕을	-11452
▁협박	-11453
주의가	-11454
책으로	-11455
▁주장은	-11456
▁그냥	-11457
▁어긋	-11458
▁적고	-11459
▁프로그램이	-11460
함마	-11461
임에도	-11462
▁요청을	-11463
▁대거	-11464
▁역에	-11465
▁이식	-11466
▁루이지	-11467
▁세상에	-11468
▁이유를	-11469
▁선언하였다	-11470
월과	-11471
▁간호	-11472
▁인격	-11473
▁재혼	-11474
▁제독	-11475
▁허브	-11476
▁크리스마스	-11477
정원	-11478
▁반해	-11479
▁2.5	-11480
▁전체에	-11481
▁월드컵에	-11482
ert	-11483
▁빈곤	-11484
▁석가	-11485
▁숭배	-11486
▁양주	-11487
▁에밀	-11488
▁토요일	-11489
▁아니라고	-11490
▁포르투갈의	-11491
▁톤	-11492
반은	-11493
소녀	-11494
액의	-11495
▁세션	-11496
작이다	-11497
훈장	-11498
▁수습	-11499
▁지능	-11500
▁규모로	-11501
▁다음해	-11502
풍속	-11503
▁말씀	-11504
▁명성	-11505
▁지점	-11506
▁여부를	-11507
~4	-11508
▁선이	-11509
▁춘추	-11510
▁태평	-11511
▁교황의	-11512
▁승부차	-11513
변이	-11514
▁복제	-11515
▁분화	-11516
▁인문	-11517
▁화석	-11518
군이다	-11519
칼라	-11520
▁사고가	-11521
▁1890	-11522
▁어머니의	-11523
글리	-11524
ial	-11525
▁61	-11526
▁개교	-11527
▁제노	-11528
▁캠프	-11529
등으로	-11530
루미늄	-11531
▁뒤집	-11532
▁문명	-11533
▁제트	-11534
까지만	-11535
▁구스타	-11536
▁환경에	-11537
TA	-11538
ign	-11539
▁엄격	-11540
적이지	-11541
▁비난을	-11542
▁오프닝	-11543
▁블로그	-11544
ich	-11545
▁가도	-11546
▁리우	-11547
▁부의	-11548
▁순교	-11549
▁야쿠	-11550
레스는	-11551
▁버전의	-11552
▁북쪽의	-11553
▁일컫는다	-11554
▁냄	-11555
먼드	-11556
▁감독과	-11557
▁속도는	-11558
▁특징으로	-11559
연방	-11560
▁76	-11561
▁고백	-11562
▁하우	-11563
▁요구를	-11564
▁존재했던	-11565
방울	-11566
▁나오지	-11567
▁변화에	-11568
▁심리학	-11569
▁외교관	-11570
▁중국에	-11571
▁황제로	-11572
▁사회에서	-11573
▁버려	-11574
▁수도인	-11575
▁줄여서	-11576
▁가마쿠라	-11577
▁지정하여	-11578
~2	-11579
▁강도	-11580
▁기록해	-11581
▁김일성	-11582
▁부유한	-11583
▁경우에도	-11584
▁그룹이다	-11585
▁어머니가	-11586
서원	-11587
▁일리노	-11588
▁프레스	-11589
레타	-11590
▁골프	-11591
▁미루	-11592
▁전속	-11593
▁진급	-11594
▁초월	-11595
▁이벤트	-11596
▁설명한다	-11597
▁움직임을	-11598
아파	-11599
ond	-11600
▁발트	-11601
▁아홉	-11602
▁입원	-11603
▁주가	-11604
렸는데	-11605
▁거기서	-11606
▁베네딕	-11607
▁일이다	-11608
나미	-11609
대책	-11610
▁했을	-11611
프라이	-11612
▁1898	-11613
▁랜드	-11614
▁롤링	-11615
박쥐는	-11616
운동에	-11617
▁배우로	-11618
항의	-11619
▁불평	-11620
▁쏟아	-11621
▁베트남의	-11622
▁도는	-11623
▁이경	-11624
▁노란색	-11625
▁언어의	-11626
▁인근의	-11627
▁등지에서	-11628
▁계속되었다	-11629
신도	-11630
▁차이는	-11631
▁그리스어	-11632
▁일종으로	-11633
▁넣은	-11634
▁상용	-11635
▁증손	-11636
▁프로듀싱	-11637
▁고체	-11638
▁말기의	-11639
▁본인의	-11640
▁프로젝트를	-11641
선생	-11642
열차	-11643
▁la	-11644
▁상처	-11645
▁연쇄	-11646
▁느낌을	-11647
▁가나가와	-11648
▁되었다가	-11649
약성	-11650
코쿠	-11651
▁부사	-11652
▁이남	-11653
▁뛰어나	-11654
▁불리게	-11655
▁프톨레	-11656
▁캄보디아	-11657
코르	-11658
▁냉각	-11659
▁투표를	-11660
▁중단되었다	-11661
▁#	-11662
푸스	-11663
]],	-11664
▁노리	-11665
▁불편	-11666
▁아랫	-11667
▁오를	-11668
▁증후	-11669
현으로	-11670
▁표현을	-11671
▁향하는	-11672
더니	-11673
▁맥스	-11674
▁통행	-11675
▁관련한	-11676
▁적극적인	-11677
판과	-11678
▁제자	-11679
▁문화체육관광	-11680
▁깎	-11681
퍼는	-11682
▁동명	-11683
▁에미	-11684
나라에	-11685
▁원인은	-11686
미스	-11687
어요	-11688
예정	-11689
act	-11690
▁기간을	-11691
▁오리콘	-11692
▁주민들이	-11693
즈로	-11694
총장	-11695
▁마스	-11696
▁승격되었다	-11697
▁나눈	-11698
▁오노	-11699
▁지각	-11700
▁획득한	-11701
-18	-11702
▁장학	-11703
▁북부에	-11704
▁프로리그	-11705
강이	-11706
순위	-11707
▁시와	-11708
▁옥스	-11709
▁트래	-11710
▁공격에	-11711
▁적합한	-11712
회의에서	-11713
▁공민	-11714
▁컨셉	-11715
▁피해가	-11716
▁결론	-11717
▁직면	-11718
▁블랙홀	-11719
▁과거에는	-11720
▁콘스탄티노폴리스	-11721
▁모형	-11722
▁소매	-11723
▁평일	-11724
▁부분의	-11725
과학기술	-11726
▁지방자치	-11727
국어	-11728
냐는	-11729
집에	-11730
▁be	-11731
▁불확	-11732
▁존속	-11733
▁폭넓	-11734
▁합창	-11735
▁유지하는	-11736
강과	-11737
악한	-11738
ass	-11739
▁경신	-11740
암으로	-11741
▁가리키	-11742
▁성격이	-11743
▁어려워	-11744
▁의미에서	-11745
▁에스토니아	-11746
▁바퀴	-11747
▁일러	-11748
겼으며	-11749
일이다	-11750
▁제도가	-11751
슬리	-11752
팀의	-11753
▁96	-11754
▁CF	-11755
▁공모	-11756
▁난민	-11757
▁낱말	-11758
▁카트	-11759
▁게르만	-11760
▁관리를	-11761
▁뭉	-11762
수용	-11763
▁누가	-11764
▁터뜨	-11765
▁10%	-11766
▁정도였다	-11767
▁사모	-11768
▁섬에서	-11769
▁소행성	-11770
▁방식이다	-11771
고와	-11772
링을	-11773
▁선물	-11774
기독교	-11775
▁연기를	-11776
▁회의를	-11777
측은	-11778
▁2-1	-11779
▁기술은	-11780
▁아버지를	-11781
▁됐	-11782
였을	-11783
운영	-11784
▁정신을	-11785
▁종류가	-11786
▁중의원	-11787
▁World	-11788
측에	-11789
▁뉴저	-11790
▁딸인	-11791
▁카를로스	-11792
감한	-11793
천여	-11794
▁가량	-11795
▁구할	-11796
▁우편	-11797
▁관직을	-11798
▁나가는	-11799
▁보호를	-11800
▁시기를	-11801
▁중추원	-11802
Hz	-11803
▁내전	-11804
▁성장을	-11805
▁타이틀곡	-11806
법칙	-11807
▁난다	-11808
▁천도	-11809
▁속하며	-11810
▁대학교에	-11811
▁해상에서	-11812
발이	-11813
▁김현	-11814
▁마우	-11815
▁쓰기	-11816
▁처녀	-11817
▁흥행	-11818
▁브라우저	-11819
▁봉안	-11820
▁제곱	-11821
있었다	-11822
▁우즈베	-11823
▁팀으로	-11824
▁기업이다	-11825
▁맏	-11826
▁물건	-11827
▁창의	-11828
▁책의	-11829
▁헤라	-11830
▁우승한	-11831
널티	-11832
루에	-11833
일으	-11834
▁최악의	-11835
▁지휘하는	-11836
▁환경에서	-11837
보르	-11838
▁봉건	-11839
께서	-11840
평군	-11841
▁말의	-11842
▁초록	-11843
▁문과에	-11844
▁왕국을	-11845
▁샘플	-11846
▁선사	-11847
▁업체	-11848
▁편곡	-11849
라이어	-11850
▁런던의	-11851
▁미얀마	-11852
▁민족의	-11853
▁존재가	-11854
▁결정되었다	-11855
▁덤	-11856
▁맑	-11857
▁빌려	-11858
▁101	-11859
▁선정한	-11860
량과	-11861
방위	-11862
▁협상을	-11863
▁더불어민주당	-11864
두를	-11865
자르	-11866
▁HT	-11867
▁두는	-11868
▁붙인	-11869
▁원수	-11870
▁선거는	-11871
▁테니스	-11872
▁감행	-11873
▁시트	-11874
▁자문	-11875
▁적혀	-11876
▁물러났다	-11877
▁이름에서	-11878
교수	-11879
느러	-11880
폭력	-11881
▁바꾼	-11882
라에서	-11883
▁용도로	-11884
▁시리즈를	-11885
동시지방선거	-11886
파인	-11887
▁존경	-11888
검찰청	-11889
▁않으나	-11890
▁인정하고	-11891
▁옹립	-11892
▁정밀	-11893
▁최후	-11894
▁토르	-11895
반이	-11896
재단	-11897
키와	-11898
토르	-11899
▁거울	-11900
▁상트	-11901
▁서초	-11902
▁채워	-11903
▁결성된	-11904
▁바이오	-11905
▁가톨릭교회	-11906
▁인터내셔널	-11907
▁펌	-11908
신경	-11909
▁맥도	-11910
▁방패	-11911
▁신중	-11912
▁아기	-11913
▁기사를	-11914
▁수상한	-11915
국제공항	-11916
▁메시지를	-11917
▁체코슬로	-11918
▁기록하면서	-11919
요는	-11920
▁라마	-11921
▁왕복	-11922
바이트	-11923
사령관	-11924
▁신선	-11925
▁흥선	-11926
▁크레이	-11927
▁아시안컵	-11928
▁방송되었다	-11929
▁얹	-11930
감은	-11931
거를	-11932
결과	-11933
▁네팔	-11934
가르	-11935
▁SE	-11936
▁브뤼	-11937
문에서	-11938
▁갈등을	-11939
▁많으며	-11940
▁안에는	-11941
lo	-11942
▁날에	-11943
▁뻗어	-11944
▁장거리	-11945
▁진행되고	-11946
테르부르크	-11947
DS	-11948
▁데스	-11949
▁이유가	-11950
▁줄무늬	-11951
▁차량은	-11952
▁확실히	-11953
▁노르웨이의	-11954
▁쇄	-11955
버린	-11956
▁부서	-11957
▁오쿠	-11958
▁흔한	-11959
화이다	-11960
▁독일이	-11961
하임	-11962
불교의	-11963
▁그룹은	-11964
▁기자회	-11965
▁부분으로	-11966
▁에티오피아	-11967
▁형성한다	-11968
블리	-11969
▁조리	-11970
값을	-11971
병에	-11972
▁디자	-11973
▁만일	-11974
▁임시정부	-11975
덕션	-11976
라톱	-11977
▁노트	-11978
지는데	-11979
▁미국을	-11980
▁옳	-11981
지능	-11982
▁밀집	-11983
▁시외	-11984
▁출처	-11985
▁남쪽의	-11986
▁터키의	-11987
▁평범한	-11988
셈부르크	-11989
상규	-11990
태후	-11991
▁김규	-11992
▁말기에	-11993
▁불러일으	-11994
수리	-11995
▁고민	-11996
▁합작	-11997
▁시위를	-11998
▁일하는	-11999
lic	-12000
▁CR	-12001
▁용의	-12002
▁선거구	-12003
▁아래는	-12004
▁급제하여	-12005
▁벌어졌다	-12006
대학교에서	-12007
노가	-12008
시게	-12009
▁펠리	-12010
서비스	-12011
매매	-12012
▁피츠	-12013
▁전라도	-12014
▁끊임없이	-12015
▁주민들은	-12016
▁정치인으로	-12017
코와	-12018
▁사범	-12019
▁암시	-12020
▁커널	-12021
▁설명하는	-12022
▁시베리아	-12023
▁크리스티안	-12024
urn	-12025
▁술을	-12026
▁일명	-12027
▁플러	-12028
▁필사	-12029
▁개념이	-12030
▁나폴리	-12031
▁본사를	-12032
▁차량을	-12033
▁1899	-12034
▁노동조합	-12035
정리	-12036
▁교역	-12037
▁등극	-12038
▁디렉	-12039
▁자택	-12040
▁최연	-12041
▁남부에	-12042
▁행사를	-12043
전문학교	-12044
군단	-12045
시나	-12046
▁김씨	-12047
▁피신	-12048
▁뒷받침	-12049
▁비판이	-12050
▁주식회	-12051
▁지구와	-12052
▁패배를	-12053
▁알루미늄	-12054
▁자격으로	-12055
▁자유주의	-12056
▁중앙위원회	-12057
생명	-12058
체제	-12059
▁고령	-12060
▁컴퍼	-12061
▁가지가	-12062
▁올랐고	-12063
▁추기경	-12064
▁존재하고	-12065
▁헌법재판	-12066
▁지주	-12067
▁공익	-12068
▁극동	-12069
▁단기	-12070
▁양호	-12071
▁케냐	-12072
▁해소	-12073
스키는	-12074
▁보유한	-12075
▁목을	-12076
▁기독교의	-12077
위인	-12078
허가	-12079
▁당일	-12080
▁상류	-12081
▁소금	-12082
▁신탁	-12083
▁축적	-12084
▁축출	-12085
▁학교의	-12086
대륙	-12087
열에	-12088
ens	-12089
▁던져	-12090
▁아야	-12091
감으로	-12092
▁이론에	-12093
▁자유로운	-12094
대구	-12095
▁시리즈는	-12096
OU	-12097
▁광장	-12098
▁나주	-12099
▁딸로	-12100
▁프톨레마이	-12101
요의	-12102
표는	-12103
▁쇼트	-12104
▁위장	-12105
▁차량이	-12106
인한	-12107
풍이	-12108
_11	-12109
▁느꼈	-12110
▁법인	-12111
▁부가	-12112
하자는	-12113
▁제목의	-12114
▁시즌이다	-12115
IG	-12116
▁페리	-12117
LS	-12118
대왕	-12119
림은	-12120
▁낸다	-12121
▁누르	-12122
▁양국	-12123
▁호의	-12124
▁가까워	-12125
▁물질의	-12126
▁그들에게	-12127
▁추측된다	-12128
▁닦	-12129
돌을	-12130
▁시범	-12131
▁실전	-12132
▁척추	-12133
▁교육과	-12134
나오	-12135
달아	-12136
술의	-12137
타우	-12138
▁그래프	-12139
▁버전이	-12140
▁스탈린	-12141
▁복귀하였다	-12142
줬다	-12143
▁EC	-12144
▁조언	-12145
▁버렸다	-12146
▁독립적인	-12147
▁결혼하였다	-12148
LE	-12149
운을	-12150
▁비자	-12151
▁숫자	-12152
▁승계	-12153
파이어	-12154
▁독일어	-12155
▁몬스터	-12156
▁별명을	-12157
▁다운로드	-12158
협력	-12159
▁리뷰	-12160
▁상장	-12161
▁싶은	-12162
▁유교	-12163
▁응원	-12164
▁나머지는	-12165
▁시장에서	-12166
래스	-12167
▁꽃은	-12168
▁이준	-12169
▁항소	-12170
▁홈구	-12171
스카르	-12172
▁베드로	-12173
▁카리브	-12174
▁페널티	-12175
로부터의	-12176
▁정부에서	-12177
량에	-12178
▁미디	-12179
▁왕세	-12180
▁중산	-12181
어지고	-12182
▁바오로	-12183
▁완벽한	-12184
▁머물렀다	-12185
근은	-12186
▁SU	-12187
▁We	-12188
▁밴드이다	-12189
▁선거구이다	-12190
버렸다	-12191
▁국제적인	-12192
언어	-12193
▁오타	-12194
▁철도가	-12195
▁강연	-12196
▁중공	-12197
▁레바논	-12198
▁민족주의	-12199
▁핀란드의	-12200
▁따온	-12201
▁아크	-12202
▁잡았다	-12203
▁회장을	-12204
▁1902	-12205
지아	-12206
▁스폰	-12207
▁자를	-12208
사업을	-12209
▁3.1	-12210
▁중국어	-12211
▁나올	-12212
레가	-12213
▁일방	-12214
▁교육의	-12215
▁달한다	-12216
▁목표는	-12217
▁장군이	-12218
▁별은	-12219
▁원더	-12220
▁중대	-12221
▁케임	-12222
▁해수	-12223
▁있기도	-12224
▁통틀어	-12225
▁구마모토	-12226
▁5,000	-12227
인간	-12228
▁광둥	-12229
▁그루	-12230
▁압둘	-12231
▁이천	-12232
▁플랜	-12233
▁광저우	-12234
▁밝히고	-12235
▁타격을	-12236
▁강수량은	-12237
▁들어간다	-12238
푸아	-12239
▁Pr	-12240
▁물어	-12241
▁사면	-12242
▁여신	-12243
▁카디	-12244
▁카우	-12245
▁미시간	-12246
▁아무도	-12247
갈색	-12248
도바	-12249
주얼	-12250
▁직결	-12251
▁리그를	-12252
▁수학자	-12253
격은	-12254
▁기각	-12255
▁얻지	-12256
▁이차	-12257
▁육군의	-12258
▁니콜라이	-12259
▁심의	-12260
▁정해	-12261
▁가벼운	-12262
▁DC	-12263
▁벌인	-12264
▁자오	-12265
▁주사	-12266
▁것들이	-12267
▁마음에	-12268
궁의	-12269
무는	-12270
위해	-12271
▁CJ	-12272
▁삼촌	-12273
▁유로파	-12274
▁지냈고	-12275
▁처음부터	-12276
아들	-12277
ary	-12278
▁00	-12279
▁69	-12280
▁무상	-12281
▁민영	-12282
▁양이	-12283
▁가족은	-12284
▁독일과	-12285
▁역사에	-12286
▁장면을	-12287
▁고구려의	-12288
▁시리즈에서	-12289
금지	-12290
함수	-12291
▁세속	-12292
▁중기	-12293
▁문자를	-12294
강전	-12295
▁존스	-12296
▁그래미	-12297
▁파이널	-12298
▁떨어지는	-12299
▁이용한다	-12300
▁토너먼트	-12301
▁3,000	-12302
▁대교	-12303
▁쓰지	-12304
▁청춘	-12305
▁카나	-12306
▁위치는	-12307
ree	-12308
▁리오	-12309
▁어른	-12310
▁정서	-12311
▁일대를	-12312
▁한나라당	-12313
폭탄	-12314
▁몸이	-12315
▁국립공	-12316
▁출신인	-12317
▁구분된다	-12318
▁고등학교를	-12319
영과	-12320
협의	-12321
out	-12322
▁New	-12323
▁단어는	-12324
▁설치한	-12325
▁아래에서	-12326
▁일리노이	-12327
▁페르디난	-12328
hPa	-12329
▁퀘벡	-12330
▁갈수록	-12331
▁뚜렷한	-12332
▁종로구	-12333
▁알려지게	-12334
다드	-12335
대손	-12336
잡이	-12337
▁담배	-12338
▁래퍼	-12339
▁우호	-12340
▁유동	-12341
▁침투	-12342
으려고	-12343
▁드러머	-12344
▁선수들을	-12345
▁승강장이	-12346
▁아시카가	-12347
근의	-12348
▁케빈	-12349
▁삼각형	-12350
▁쓰시마	-12351
▁일으킬	-12352
▁중요성을	-12353
▁있는지	-12354
▁총대주교	-12355
▁하트	-12356
동이다	-12357
▁팀에서	-12358
▁형태이다	-12359
▁얽	-12360
웠고	-12361
▁먹을	-12362
교육을	-12363
▁서유럽	-12364
▁출시한	-12365
▁역임하고	-12366
▁데뷔하였고	-12367
▁둥글	-12368
▁입성	-12369
▁아이치	-12370
▁역사의	-12371
대학교의	-12372
연료	-12373
net	-12374
▁JT	-12375
▁웹툰	-12376
▁헝가리의	-12377
▁제주특별자치도	-12378
:0	-12379
두로	-12380
하로	-12381
▁GS	-12382
▁IM	-12383
▁빛이	-12384
▁연꽃	-12385
▁제니	-12386
▁추산	-12387
▁것임을	-12388
▁연금	-12389
▁그다지	-12390
▁부작용	-12391
▁얼굴을	-12392
칸의	-12393
▁백색	-12394
▁분당	-12395
▁소말	-12396
▁정조	-12397
▁추가적인	-12398
키를	-12399
품이	-12400
▁선수는	-12401
▁아레나	-12402
!!	-12403
▁틸	-12404
에다	-12405
▁발현	-12406
▁따른다	-12407
▁조약에	-12408
설은	-12409
▁손꼽	-12410
▁견해를	-12411
▁남기고	-12412
▁결정하였다	-12413
미즈	-12414
반도	-12415
▁수면	-12416
세기부터	-12417
▁전국동시지방선거	-12418
미트	-12419
붙이	-12420
▁메소	-12421
▁유저	-12422
▁잡은	-12423
▁인터페이스	-12424
그러	-12425
트륨	-12426
_15	-12427
▁성분	-12428
▁자치구	-12429
▁자회사	-12430
▁프랑스에	-12431
산리	-12432
▁사절	-12433
▁유년	-12434
▁135	-12435
▁기초를	-12436
▁니가타	-12437
▁없었기	-12438
▁피하기	-12439
▁알려져있다	-12440
골로	-12441
▁마인	-12442
▁표방	-12443
▁경찰에	-12444
▁나가노	-12445
▁사망하자	-12446
▁아라비아	-12447
▁엔지니어	-12448
▁프로그램에	-12449
▁몫	-12450
피의	-12451
▁때인	-12452
▁수확	-12453
렸다고	-12454
▁가족의	-12455
▁비율은	-12456
▁경로	-12457
▁러셀	-12458
장치	-12459
제작	-12460
▁대치	-12461
▁문예	-12462
▁부지	-12463
▁성서	-12464
▁포획	-12465
법이다	-12466
해주는	-12467
▁대표적	-12468
▁연구의	-12469
▁클래스	-12470
불을	-12471
ach	-12472
▁달이	-12473
▁종속	-12474
▁간단히	-12475
▁용어로	-12476
▁주도로	-12477
▁협주곡	-12478
▁아리스토	-12479
▁역사적인	-12480
커의	-12481
내며	-12482
이후	-12483
투자	-12484
▁곳의	-12485
▁교전	-12486
▁만성	-12487
▁생략	-12488
▁중일	-12489
▁브로드	-12490
▁비율이	-12491
▁음악에	-12492
▁이라고	-12493
네시	-12494
본의	-12495
티코	-12496
히메	-12497
▁날카	-12498
▁노태	-12499
▁농림	-12500
▁동국	-12501
▁쓰촨	-12502
▁지형	-12503
▁헤비	-12504
주머니	-12505
▁360	-12506
▁더욱이	-12507
▁정해진	-12508
▁차량의	-12509
▁한국은	-12510
▁타이베이	-12511
반에	-12512
사기	-12513
▁완화	-12514
▁우르	-12515
▁패한	-12516
가들이	-12517
▁문화가	-12518
▁발언을	-12519
▁사고를	-12520
엔터테인	-12521
▁중화민국의	-12522
▁캉	-12523
길이	-12524
▁꼭짓	-12525
▁리만	-12526
▁바빌	-12527
▁사슬	-12528
▁존슨	-12529
▁촉매	-12530
▁일대에	-12531
▁정도를	-12532
▁연결된다	-12533
▁밖에도	-12534
분해	-12535
지리	-12536
▁즐겨	-12537
▁태극	-12538
자라고	-12539
▁전역에	-12540
▁시칠리아	-12541
해온	-12542
▁사살	-12543
▁워터	-12544
▁적지	-12545
▁무료로	-12546
▁계획이다	-12547
▁안토니오	-12548
▁플라스틱	-12549
▁왈	-12550
드릭	-12551
신학	-12552
▁수련	-12553
브리엘	-12554
▁1-0	-12555
▁아르헨티나의	-12556
▁바나	-12557
▁이관	-12558
나가는	-12559
ey	-12560
무가	-12561
▁우드	-12562
▁50%	-12563
▁고통을	-12564
▁시절의	-12565
▁스트리트	-12566
▁자신들이	-12567
▁전체적인	-12568
들과는	-12569
▁룩셈부르크	-12570
▁대합	-12571
▁모나	-12572
▁산란	-12573
▁군대에	-12574
▁언급한	-12575
▁재능을	-12576
▁발견하였다	-12577
산물	-12578
판매	-12579
▁국군	-12580
운동의	-12581
▁드물게	-12582
▁전력을	-12583
▁내용으로	-12584
,9	-12585
년하	-12586
.5%	-12587
▁마야	-12588
▁북구	-12589
▁수에	-12590
▁정보가	-12591
▁주장하며	-12592
전차	-12593
▁모서	-12594
▁호조	-12595
▁개인이	-12596
▁성공회	-12597
▁총리가	-12598
▁한성부	-12599
▁1901	-12600
기계	-12601
▁과정이	-12602
▁손가락	-12603
▁언어는	-12604
▁가져왔다	-12605
검사	-12606
오나	-12607
통제	-12608
▁Sc	-12609
▁만세	-12610
▁브란	-12611
하자면	-12612
▁병으로	-12613
▁아열대	-12614
두에	-12615
▁마일	-12616
▁공부를	-12617
▁회사이다	-12618
기니	-12619
추는	-12620
ase	-12621
▁루터	-12622
▁시바	-12623
▁입각	-12624
▁자선	-12625
▁피겨	-12626
▁사례가	-12627
마로	-12628
▁박스	-12629
층으로	-12630
▁취하고	-12631
▁강점기의	-12632
▁결정하는	-12633
▁할아버지	-12634
우지	-12635
▁맞은	-12636
▁스캔	-12637
▁효소	-12638
시키지	-12639
▁기존에	-12640
▁올리고	-12641
리얼	-12642
정책을	-12643
▁레슬링	-12644
▁즉위한	-12645
▁현재에	-12646
▁진행하고	-12647
가요	-12648
▁담아	-12649
▁안나	-12650
▁주체	-12651
▁죽이	-12652
▁KIA	-12653
▁대회가	-12654
▁수도원	-12655
▁사랑하는	-12656
황제	-12657
▁캐서	-12658
▁당연히	-12659
▁되지만	-12660
▁손으로	-12661
▁텍스트	-12662
▁개발하고	-12663
▁대통령으로	-12664
OD	-12665
▁밝힌	-12666
▁오비	-12667
▁왕을	-12668
▁중재	-12669
▁특집	-12670
▁Man	-12671
▁안으로	-12672
▁태양을	-12673
▁자이언츠	-12674
생은	-12675
세트	-12676
▁에콰	-12677
▁협동	-12678
▁무대를	-12679
▁바이킹	-12680
▁밴드를	-12681
▁전했다	-12682
▁1884	-12683
▁결혼하여	-12684
▁나이지리아	-12685
▁솜	-12686
클로	-12687
팀을	-12688
▁재미	-12689
▁살았던	-12690
단위	-12691
설에	-12692
▁Am	-12693
▁김창	-12694
▁지녔	-12695
▁목소리를	-12696
것도	-12697
종교	-12698
▁국영	-12699
▁철회	-12700
▁하남	-12701
협의회	-12702
▁매니저	-12703
▁왕국은	-12704
▁유학을	-12705
▁르네상스	-12706
런은	-12707
▁차이로	-12708
▁한국시리즈	-12709
홀름	-12710
ont	-12711
▁군이	-12712
▁도미	-12713
글라데	-12714
▁알렉산드로	-12715
차량	-12716
▁On	-12717
▁Su	-12718
▁무성	-12719
▁중복	-12720
▁기회가	-12721
▁물러나	-12722
▁지키는	-12723
변에	-12724
봉사	-12725
▁자의	-12726
▁하동	-12727
▁이루며	-12728
따라	-12729
▁군산	-12730
▁제국에	-12731
▁아버지인	-12732
▁세미	-12733
▁정말	-12734
스터는	-12735
▁무함마	-12736
▁방문한	-12737
▁인터페이	-12738
▁전역에서	-12739
▁평가된다	-12740
개와	-12741
한테	-12742
▁각자	-12743
▁고창	-12744
▁균형	-12745
▁선종	-12746
도이다	-12747
▁공간이	-12748
▁예수의	-12749
▁프로레슬링	-12750
▁높게	-12751
▁성사	-12752
▁전동	-12753
▁포병	-12754
양으로	-12755
▁삿포로	-12756
▁어려서	-12757
▁파일을	-12758
▁프란츠	-12759
▁조선로동당	-12760
아스	-12761
이시	-12762
주택	-12763
▁북방	-12764
▁수성	-12765
▁영등	-12766
▁들어갈	-12767
▁투어를	-12768
ost	-12769
▁금성	-12770
▁배신	-12771
▁불상	-12772
▁여진	-12773
자라는	-12774
▁일본국	-12775
sc	-12776
▁본부	-12777
▁소지	-12778
▁후보는	-12779
기게	-12780
ect	-12781
▁이소	-12782
▁콜린	-12783
▁소송을	-12784
▁맵	-12785
리사	-12786
한은	-12787
▁세상	-12788
▁오지	-12789
▁초신	-12790
▁게이지	-12791
▁부근에	-12792
▁차례의	-12793
▁시즌에서	-12794
▁올림픽의	-12795
▁유사하다	-12796
▁이스라엘의	-12797
▁까닭	-12798
▁년에	-12799
▁시종	-12800
▁산하에	-12801
▁알렉산드르	-12802
▁환상	-12803
것을	-12804
인권	-12805
품의	-12806
▁대가	-12807
▁각본가	-12808
▁이란의	-12809
▁실질적으로	-12810
문자	-12811
▁때에도	-12812
▁클라이	-12813
▁규범	-12814
▁두께	-12815
▁오피스	-12816
▁슬로바키아	-12817
SP	-12818
위성	-12819
작곡	-12820
▁맞붙	-12821
▁산림	-12822
▁유래된	-12823
▁점령한	-12824
집은	-12825
▁괴롭	-12826
▁브랜	-12827
▁잡혀	-12828
▁1903	-12829
cc	-12830
만과	-12831
푸르	-12832
▁Op	-12833
▁감안	-12834
▁고래	-12835
▁김홍	-12836
▁실망	-12837
▁점에	-12838
▁기초로	-12839
▁조정에	-12840
디를	-12841
머는	-12842
▁견해	-12843
▁다비	-12844
▁분비	-12845
▁중종	-12846
▁한층	-12847
▁사람도	-12848
▁존재할	-12849
▁파리의	-12850
▁미시시피	-12851
▁운행한다	-12852
▁해결하기	-12853
▁벵	-12854
▁발칸	-12855
▁서울의	-12856
▁가고시마	-12857
▁이루어지는	-12858
▁앞면	-12859
▁원을	-12860
▁도카이	-12861
▁동생인	-12862
▁문서를	-12863
▁근무했다	-12864
▁발렌시아	-12865
▁지정되었다가	-12866
ath	-12867
▁CC	-12868
▁김지	-12869
▁자국	-12870
▁하시	-12871
▁캔자스	-12872
▁차지하며	-12873
보수	-12874
빌딩	-12875
▁개종	-12876
▁단축	-12877
▁모은	-12878
▁정무	-12879
▁게임이	-12880
다를	-12881
모에	-12882
심은	-12883
온을	-12884
com	-12885
▁맥락	-12886
▁싸워	-12887
▁주행	-12888
▁한인	-12889
▁핸드	-12890
았다고	-12891
-200	-12892
▁표현하는	-12893
▁부설	-12894
▁실시한	-12895
▁쳐들어	-12896
▁몸길이는	-12897
▁포켓몬스터	-12898
연수	-12899
주간	-12900
▁해남	-12901
법에서	-12902
▁같은해	-12903
▁블루스	-12904
봉은	-12905
사용	-12906
운의	-12907
쪽은	-12908
▁무궁	-12909
▁보헤	-12910
▁도시철도	-12911
▁중앙아시아	-12912
벽을	-12913
▁알을	-12914
▁아나키	-12915
▁제안했다	-12916
▁북아프리카	-12917
▁눌	-12918
▁콰	-12919
▁모용	-12920
루이스	-12921
▁아케이드	-12922
조한	-12923
▁비타	-12924
▁일체	-12925
천으로	-12926
▁압력을	-12927
▁트리플	-12928
▁진행되는	-12929
준비	-12930
▁그릇	-12931
▁그후	-12932
▁놀이	-12933
▁더해	-12934
▁경기의	-12935
▁경상도	-12936
▁넘어가	-12937
▁뉴욕의	-12938
▁마르코	-12939
▁바르샤	-12940
▁상태의	-12941
▁작용을	-12942
▁붐	-12943
루아	-12944
▁글루	-12945
▁연상	-12946
사들이	-12947
▁성능을	-12948
▁받았지만	-12949
▁지나면서	-12950
시청	-12951
주지	-12952
화물	-12953
히토	-12954
▁86	-12955
▁진공	-12956
▁기준을	-12957
▁대가로	-12958
▁대전이	-12959
▁부분에서	-12960
▁하라	-12961
▁구단의	-12962
▁인상을	-12963
▁스위스의	-12964
서구	-12965
▁가옥	-12966
▁극대	-12967
▁대책	-12968
▁미들	-12969
▁나타낸	-12970
▁불리고	-12971
▁새겨진	-12972
▁정치가	-12973
▁결정된다	-12974
▁비밀리에	-12975
정신	-12976
▁권장	-12977
▁선배	-12978
▁설도	-12979
▁총칭	-12980
▁음악은	-12981
▁제도는	-12982
▁표면에	-12983
▁방글라데	-12984
▁사단법인이다	-12985
더의	-12986
학원	-12987
▁대명	-12988
▁응시	-12989
▁프랑스가	-12990
바둑	-12991
▁꼭대	-12992
▁슈팅	-12993
▁지장	-12994
▁파나	-12995
▁뮤지션	-12996
▁떨어졌다	-12997
▁보호하기	-12998
▁이때부터	-12999
순환	-13000
증의	-13001
친구	-13002
▁걱정	-13003
▁기저	-13004
▁아소	-13005
▁야마토	-13006
▁중반에	-13007
aw	-13008
들여	-13009
황이	-13010
▁가축	-13011
▁악기	-13012
▁온도가	-13013
▁전하는	-13014
▁조지프	-13015
▁복귀했다	-13016
OW	-13017
▁랴	-13018
▁개가	-13019
▁발급	-13020
▁벼슬을	-13021
▁실패한	-13022
▁죽였다	-13023
▁담당했다	-13024
▁위치하는	-13025
▁클라이언	-13026
▁범위를	-13027
▁프란체	-13028
산동	-13029
루에서	-13030
▁다이어	-13031
▁생산을	-13032
▁아미타	-13033
▁그렇지만	-13034
보와	-13035
적과	-13036
▁거북	-13037
레이터	-13038
▁기하여	-13039
▁변화는	-13040
▁함수의	-13041
▁국기	-13042
▁쓰레	-13043
▁아타	-13044
▁피트	-13045
▁해의	-13046
심에서	-13047
팀에	-13048
▁라오	-13049
▁세례	-13050
▁연고지로	-13051
으로부터의	-13052
인구	-13053
▁점프	-13054
▁칸의	-13055
▁전두환	-13056
▁확실한	-13057
▁메커니즘	-13058
-9	-13059
▁배상	-13060
▁산출	-13061
▁세금	-13062
▁신부	-13063
▁체류	-13064
▁편에	-13065
▁결론을	-13066
▁경기로	-13067
▁고유의	-13068
▁조선에	-13069
▁청와대	-13070
▁건륭	-13071
▁구의	-13072
▁품고	-13073
협회는	-13074
▁자료가	-13075
▁드라이버	-13076
이야	-13077
▁73	-13078
▁가오	-13079
▁걸린	-13080
▁기숙	-13081
행위를	-13082
▁그려진	-13083
▁대학생	-13084
▁무조건	-13085
▁킴	-13086
집의	-13087
▁물의	-13088
▁민병	-13089
▁안치	-13090
lude	-13091
▁수비수	-13092
▁없어서	-13093
▁제네바	-13094
▁코드를	-13095
적으로도	-13096
억원	-13097
▁북위	-13098
▁쌓은	-13099
는지는	-13100
ream	-13101
▁그레이트	-13102
무로	-13103
빈의	-13104
하루	-13105
▁97	-13106
▁Tr	-13107
공무원	-13108
▁도널드	-13109
▁볼리비아	-13110
▁설치하고	-13111
;&	-13112
그의	-13113
▁대안	-13114
▁동행	-13115
▁폭로	-13116
▁1897	-13117
▁스타리그	-13118
▁예선에서	-13119
당해	-13120
받게	-13121
위기	-13122
융합	-13123
▁불꽃	-13124
▁의미는	-13125
▁수준으로	-13126
▁평가했다	-13127
▁무의	-13128
▁세력의	-13129
▁원인을	-13130
▁이루어지지	-13131
▁렉	-13132
▁로버	-13133
▁신축	-13134
나무는	-13135
▁공격수	-13136
▁그레고리오	-13137
MP	-13138
너가	-13139
네마	-13140
돌은	-13141
양함	-13142
천사	-13143
▁74	-13144
▁다크	-13145
▁저렴	-13146
▁죽어	-13147
▁횡단	-13148
계약을	-13149
전이다	-13150
▁사쿠라	-13151
▁학문을	-13152
들에게는	-13153
▁스코틀랜드의	-13154
▁국장	-13155
▁돌입	-13156
▁쪽은	-13157
▁키워	-13158
왕후의	-13159
▁다니는	-13160
▁도입된	-13161
▁정치를	-13162
▁제작을	-13163
나서	-13164
테면	-13165
▁기슭	-13166
▁막시	-13167
▁선과	-13168
▁지옥	-13169
프레스	-13170
▁소비자	-13171
▁위험을	-13172
▁포로로	-13173
▁대통령과	-13174
▁로스앤젤레스에서	-13175
왔던	-13176
▁무지	-13177
▁병역	-13178
▁씨의	-13179
▁이북	-13180
▁피로	-13181
▁하원	-13182
▁관련해	-13183
▁노선의	-13184
▁단어를	-13185
▁필리프	-13186
▁사간	-13187
▁의석	-13188
▁소설가	-13189
▁영향이	-13190
▁전반에	-13191
▁위원회의	-13192
여우	-13193
▁6,	-13194
▁시노	-13195
▁새로이	-13196
▁형성하고	-13197
약한	-13198
▁김제	-13199
▁등용	-13200
▁잔류	-13201
▁센다이	-13202
▁건축물이다	-13203
▁만족시키는	-13204
▁AN	-13205
테이션	-13206
▁증거가	-13207
세르	-13208
수소	-13209
킨스	-13210
탄의	-13211
▁거뒀	-13212
▁무슨	-13213
▁이병	-13214
▁포드	-13215
▁운영을	-13216
▁정권의	-13217
▁주어진다	-13218
RA	-13219
전시	-13220
쿠버	-13221
▁석탑	-13222
월에서	-13223
▁연세대학교	-13224
하키	-13225
▁강희	-13226
▁영산	-13227
▁불가능한	-13228
▁효과적으로	-13229
페테르부르크	-13230
▁뱅	-13231
대대	-13232
메드	-13233
테크	-13234
▁Ne	-13235
▁깨끗	-13236
▁번에	-13237
▁유연	-13238
루스는	-13239
회의원	-13240
▁리더십	-13241
▁학생들의	-13242
브르	-13243
아야	-13244
운이	-13245
▁단절	-13246
▁게임에	-13247
▁국제적	-13248
▁생방송	-13249
▁쿠데타	-13250
▁크기를	-13251
▁입장에서	-13252
▁페이스북	-13253
▁주위	-13254
▁해명	-13255
판에서	-13256
▁말하면	-13257
▁영화가	-13258
▁이곳을	-13259
우기	-13260
주어	-13261
▁공손	-13262
▁대두	-13263
▁주오	-13264
▁창녕	-13265
선수단	-13266
▁1800	-13267
▁콜로라도	-13268
ii	-13269
그라드	-13270
레스의	-13271
▁건설되었다	-13272
공격	-13273
믹스	-13274
▁기증	-13275
▁끝날	-13276
▁남구	-13277
▁규정에	-13278
▁언급했다	-13279
▁때문이라고	-13280
▁비판하였다	-13281
▁87	-13282
자에서	-13283
▁최소한	-13284
▁1860	-13285
▁이를테면	-13286
US	-13287
올라	-13288
▁호응	-13289
▁900	-13290
▁미네소	-13291
▁본인이	-13292
▁작가의	-13293
▁카스티	-13294
▁하에서	-13295
▁도요토미	-13296
▁GP	-13297
▁감리	-13298
▁성숙	-13299
▁얼음	-13300
▁이데	-13301
▁나란히	-13302
▁동안의	-13303
▁알프레	-13304
▁기록으로	-13305
▁호출	-13306
호선과	-13307
▁에디션	-13308
▁정치에	-13309
한이	-13310
▁치른	-13311
▁미쳤다	-13312
▁시대부터	-13313
▁정의한다	-13314
국립	-13315
요를	-13316
화점	-13317
▁기어	-13318
▁왜곡	-13319
▁20%	-13320
▁서울대	-13321
▁조사에	-13322
▁공격하여	-13323
주자	-13324
표가	-13325
ake	-13326
▁서민	-13327
▁안테	-13328
▁오로	-13329
▁코코	-13330
▁유형의	-13331
▁있거나	-13332
▁해마다	-13333
▁포스트시즌	-13334
▁이탈리아에서	-13335
막을	-13336
▁81	-13337
▁패럴	-13338
▁더이상	-13339
▁승무원	-13340
노에	-13341
브스	-13342
▁아닐	-13343
▁온대	-13344
▁모양이	-13345
▁대학교를	-13346
▁예정이었으나	-13347
▁무실	-13348
▁산의	-13349
▁엔딩	-13350
▁포장	-13351
기록을	-13352
위원을	-13353
▁제치고	-13354
▁주목할	-13355
▁혁명의	-13356
근이	-13357
▁작업에	-13358
▁흥선대원	-13359
▁대표적으로	-13360
GB	-13361
▁꽃이	-13362
▁낳은	-13363
▁리베	-13364
▁슈트	-13365
▁시공	-13366
▁어둠	-13367
▁헬리	-13368
▁선생의	-13369
▁의원을	-13370
▁이내에	-13371
▁나중에는	-13372
▁설립되었으며	-13373
co	-13374
랑을	-13375
발은	-13376
준이	-13377
체고	-13378
혹한	-13379
▁견제	-13380
▁유라	-13381
▁요새를	-13382
▁캠퍼스	-13383
시켰으며	-13384
▁대학교는	-13385
슬레	-13386
▁공과	-13387
▁루시	-13388
▁본거	-13389
▁지름	-13390
품으로	-13391
▁산업의	-13392
▁장비를	-13393
발로	-13394
쿠니	-13395
▁세라	-13396
▁사업에	-13397
▁주장에	-13398
▁드러났다	-13399
관련	-13400
업의	-13401
직의	-13402
타워	-13403
▁ID	-13404
▁상세	-13405
▁이장	-13406
▁충실	-13407
▁효고	-13408
루스의	-13409
▁되었던	-13410
▁도입하였다	-13411
sh	-13412
내지	-13413
색과	-13414
▁강은	-13415
▁데뷔한	-13416
▁아름답	-13417
▁쿤	-13418
메다	-13419
칼리	-13420
▁알지	-13421
▁자크	-13422
▁보다는	-13423
트로이트	-13424
▁과일	-13425
▁말미	-13426
▁환영	-13427
렸지만	-13428
수에서	-13429
▁격렬한	-13430
발사	-13431
학부	-13432
▁간신	-13433
▁나섰	-13434
▁스노	-13435
▁테르	-13436
▁설명할	-13437
▁중대한	-13438
▁진행했다	-13439
계급	-13440
▁고기	-13441
▁보성	-13442
▁사정	-13443
▁키스	-13444
▁퇴임	-13445
GA	-13446
교와	-13447
야에	-13448
행동	-13449
iss	-13450
old	-13451
▁가볍	-13452
▁맺은	-13453
▁불명	-13454
▁서포	-13455
▁선도	-13456
▁조립	-13457
▁크롬	-13458
▁경제의	-13459
▁도시에	-13460
▁백제의	-13461
▁점령하고	-13462
▁포기하고	-13463
▁문화체육관광부	-13464
단지	-13465
통은	-13466
▁강동	-13467
▁달걀	-13468
▁경계로	-13469
▁영국에	-13470
▁접하며	-13471
미한	-13472
순은	-13473
▁낙동	-13474
▁신조	-13475
▁지나는	-13476
▁대한민국과	-13477
TP	-13478
타스	-13479
▁7,	-13480
▁임관	-13481
▁충성	-13482
▁수행할	-13483
▁주제를	-13484
▁러시아는	-13485
▁올라간다	-13486
독일	-13487
락이	-13488
▁창출	-13489
▁퇴역	-13490
▁화강	-13491
호선이	-13492
▁뒤에도	-13493
▁마천루	-13494
▁진출한	-13495
▁삼층석탑	-13496
▁출신이며	-13497
년하계올림픽	-13498
링턴	-13499
▁가동	-13500
▁지위	-13501
▁짐작	-13502
지역에	-13503
▁NGC	-13504
▁건설을	-13505
▁내려가	-13506
▁물건을	-13507
▁미래의	-13508
▁송나라	-13509
▁통일신라	-13510
▁검출	-13511
▁넓게	-13512
▁위와	-13513
▁현금	-13514
되므로	-13515
하이드	-13516
▁수익을	-13517
▁함부르크	-13518
▁고사	-13519
▁덮여	-13520
▁목록에	-13521
▁사이토	-13522
▁장군은	-13523
▁저작권	-13524
▁개인적인	-13525
own	-13526
▁니코	-13527
▁실버	-13528
▁쌍둥이	-13529
▁설치하여	-13530
인터	-13531
▁산하의	-13532
▁암호화	-13533
▁1880	-13534
▁취임하였다	-13535
역학	-13536
타입	-13537
▁볼로	-13538
▁수료	-13539
▁여운	-13540
▁영지	-13541
▁필드	-13542
들보다	-13543
▁각국의	-13544
▁음악적	-13545
▁겁	-13546
린을	-13547
▁히타	-13548
▁뒤이어	-13549
▁마을에	-13550
▁시작하면서	-13551
컨대	-13552
▁값이	-13553
▁법의	-13554
▁아바	-13555
▁이닝	-13556
터에서	-13557
▁30%	-13558
▁중점을	-13559
되어있다	-13560
MI	-13561
▁엮	-13562
▁김병	-13563
▁배가	-13564
▁빈번	-13565
▁중장	-13566
레이크	-13567
▁단계에서	-13568
▁대응하는	-13569
▁후임으로	-13570
▁킥	-13571
ick	-13572
▁뉴저지	-13573
▁비용이	-13574
▁그로부터	-13575
▁급성	-13576
▁남게	-13577
▁보게	-13578
▁생식	-13579
▁질환	-13580
▁칼뱅	-13581
▁교회를	-13582
▁재판을	-13583
▁태국의	-13584
▁푸에르	-13585
▁게임에서	-13586
▁스페이스	-13587
▁씌	-13588
보니	-13589
채가	-13590
▁간토	-13591
▁윤리	-13592
거리가	-13593
▁볼셰비	-13594
▁아마존	-13595
▁보도했다	-13596
▁디트로이트	-13597
변의	-13598
분과	-13599
티가	-13600
▁권총	-13601
▁병을	-13602
▁탁월	-13603
▁함대	-13604
브리아	-13605
차이나	-13606
▁딸이다	-13607
▁투수가	-13608
▁행동에	-13609
▁도시에서	-13610
기자	-13611
암은	-13612
에미	-13613
▁성종	-13614
▁입을	-13615
▁조화	-13616
▁진지	-13617
게이트	-13618
학교의	-13619
▁CEO	-13620
▁기업인	-13621
▁빔	-13622
공주	-13623
았기	-13624
운다	-13625
할때	-13626
▁CS	-13627
▁온갖	-13628
▁적다	-13629
▁탄도	-13630
끄러운	-13631
▁경향을	-13632
▁고향인	-13633
▁국왕의	-13634
▁결정한다	-13635
살의	-13636
▁받았다고	-13637
▁승강장을	-13638
▁시스템에	-13639
▁드래프트에서	-13640
병과	-13641
채는	-13642
히데	-13643
▁동참	-13644
▁들을	-13645
▁비치	-13646
▁이산	-13647
▁칭찬	-13648
▁프레데	-13649
▁상트페테르부르크	-13650
훈을	-13651
▁가환	-13652
▁두꺼	-13653
▁마블	-13654
▁온천	-13655
▁스즈키	-13656
▁지도를	-13657
▁환자의	-13658
▁휘하의	-13659
▁가려	-13660
▁실력	-13661
▁튀니	-13662
▁하차	-13663
웨이트	-13664
하기는	-13665
▁크라이	-13666
▁공개했다	-13667
거진	-13668
▁넘게	-13669
▁없었	-13670
▁청소	-13671
명에서	-13672
▁방사성	-13673
▁스리랑	-13674
▁웨스턴	-13675
대학교는	-13676
▁해당된다	-13677
ix	-13678
▁교리	-13679
▁벌금	-13680
▁유권	-13681
우스가	-13682
▁경찰의	-13683
▁끌었다	-13684
▁조직이	-13685
▁질량이	-13686
▁친일파	-13687
▁2022	-13688
▁위원회는	-13689
부상	-13690
▁전지	-13691
▁평정	-13692
족으로	-13693
▁구성되었다	-13694
RE	-13695
직은	-13696
▁땄다	-13697
▁장흥	-13698
▁패널	-13699
▁기간은	-13700
▁지역구	-13701
▁드라이브	-13702
▁부드러운	-13703
브루	-13704
철이	-13705
해튼	-13706
▁강에	-13707
▁보드	-13708
▁스태	-13709
▁영유	-13710
되도록	-13711
스트가	-13712
직으로	-13713
▁알리는	-13714
티시	-13715
▁위헌	-13716
▁회수	-13717
▁버전을	-13718
▁보내고	-13719
▁섬이다	-13720
▁연합군	-13721
▁열린다	-13722
▁종교개혁	-13723
▁79	-13724
▁반공	-13725
▁고려시대	-13726
▁천연기념	-13727
▁제기되었다	-13728
▁플레이어는	-13729
집단	-13730
테는	-13731
▁유러	-13732
▁이태	-13733
▁카카	-13734
▁투르	-13735
▁협정	-13736
▁붙여진	-13737
▁지구를	-13738
▁정치적인	-13739
▁커뮤니케이션	-13740
상업	-13741
▁구와	-13742
▁집결	-13743
키아의	-13744
▁문화와	-13745
▁마을에서	-13746
▁학생들은	-13747
▁시작하였으며	-13748
말에	-13749
심히	-13750
▁광양	-13751
▁아산	-13752
▁이고	-13753
▁룰	-13754
로프	-13755
점인	-13756
▁가네	-13757
▁판정	-13758
▁GDP	-13759
▁다녔다	-13760
▁똑같은	-13761
▁평화를	-13762
▁되어있다	-13763
애틀	-13764
피가	-13765
▁신정	-13766
▁메달을	-13767
▁부대가	-13768
▁시대가	-13769
▁인증을	-13770
▁일렉트로	-13771
▁문인	-13772
▁없던	-13773
업으로	-13774
▁가브리엘	-13775
St	-13776
커가	-13777
하와	-13778
▁고인	-13779
기관의	-13780
▁가지의	-13781
▁명이다	-13782
▁아돌프	-13783
▁파란색	-13784
▁미사일을	-13785
▁분위기를	-13786
▁LA	-13787
▁동위	-13788
▁어뢰	-13789
▁여우	-13790
▁개념이다	-13791
▁실시하고	-13792
▁프로덕션	-13793
GM	-13794
간은	-13795
평론	-13796
▁길에	-13797
▁시립	-13798
▁잘라	-13799
사회의	-13800
▁보여준	-13801
▁개념으로	-13802
▁의미하며	-13803
▁임명되었고	-13804
전략	-13805
코타	-13806
피에	-13807
호텔	-13808
▁Is	-13809
▁기회	-13810
▁김민	-13811
▁미친	-13812
▁세네	-13813
▁워너	-13814
▁사랑에	-13815
▁헌법에	-13816
▁꿀	-13817
스페	-13818
초는	-13819
▁84	-13820
▁CN	-13821
▁현악	-13822
▁화순	-13823
마스터	-13824
받았고	-13825
ence	-13826
▁세워져	-13827
▁인간을	-13828
전국	-13829
히트	-13830
▁BS	-13831
▁갱신	-13832
러시아	-13833
▁둘러싸여	-13834
캐슬	-13835
토와	-13836
▁정립	-13837
▁퍼포	-13838
▁편지	-13839
▁허가를	-13840
▁나타내고	-13841
▁불가능하다	-13842
▁냄새	-13843
▁원의	-13844
▁하부	-13845
▁기여를	-13846
▁역사와	-13847
▁위원장	-13848
▁그러다가	-13849
▁아니라는	-13850
▁음반으로	-13851
▁등장하였다	-13852
가수	-13853
유지	-13854
▁감마	-13855
▁메릴	-13856
▁성이	-13857
사단은	-13858
▁계약이	-13859
▁비하여	-13860
▁애비뉴	-13861
▁예이다	-13862
▁자기의	-13863
이한	-13864
▁권유	-13865
▁듀얼	-13866
▁소모	-13867
▁이규	-13868
▁헌정	-13869
림과	-13870
벨라	-13871
취를	-13872
ype	-13873
▁뽑아	-13874
여명의	-13875
▁것인지	-13876
▁정권이	-13877
▁가정에서	-13878
▁되었다는	-13879
▁어드벤처	-13880
▁최대풍속	-13881
▁적용되었다	-13882
ork	-13883
▁앞장	-13884
▁제퍼	-13885
▁조조	-13886
했음을	-13887
▁대표는	-13888
▁선출된	-13889
▁위험이	-13890
▁작업이	-13891
▁회사인	-13892
광을	-13893
루냐	-13894
벌을	-13895
상도	-13896
형사	-13897
당하는	-13898
▁소리가	-13899
명이었다	-13900
▁각지에서	-13901
▁스튜디오에서	-13902
-14	-13903
▁71	-13904
▁자아	-13905
▁중서	-13906
▁탐색	-13907
▁판사	-13908
▁외에는	-13909
▁토너먼	-13910
▁이적하여	-13911
▁향토문화	-13912
▁델라	-13913
▁동문	-13914
▁발각	-13915
▁측에	-13916
▁컴백	-13917
▁태백	-13918
▁건축물	-13919
MC	-13920
국적	-13921
▁공습	-13922
▁과의	-13923
▁돌을	-13924
▁다케다	-13925
▁상황은	-13926
▁토지를	-13927
CAF	-13928
▁사관	-13929
▁윤보	-13930
▁전격	-13931
번으로	-13932
▁공항은	-13933
▁선수로서	-13934
▁여우주연	-13935
▁로그	-13936
▁비영	-13937
안에서	-13938
▁우승했다	-13939
▁유가	-13940
▁궤도를	-13941
▁아스널	-13942
▁점수를	-13943
▁클레멘	-13944
▁사용하면	-13945
공연	-13946
▁나를	-13947
년대와	-13948
▁마다가	-13949
▁모습은	-13950
▁청주시	-13951
▁하이드	-13952
▁마닐	-13953
▁이빨	-13954
▁조세	-13955
▁허위	-13956
▁활발히	-13957
▁밭	-13958
지오	-13959
▁매매	-13960
▁믿는	-13961
▁추첨	-13962
▁치안	-13963
▁350	-13964
▁사전에	-13965
▁일제의	-13966
▁흔적이	-13967
▁No	-13968
크리트	-13969
▁합류했다	-13970
플레	-13971
▁자생	-13972
▁III	-13973
▁교수를	-13974
▁임명된	-13975
▁자세히	-13976
▁연구에서	-13977
염을	-13978
▁들려	-13979
▁지미	-13980
▁별개의	-13981
▁비행기	-13982
▁시험을	-13983
▁표현한	-13984
▁거부하고	-13985
▁각색	-13986
▁사바	-13987
▁유진	-13988
▁이방	-13989
도르프	-13990
▁기업이	-13991
▁엔진이	-13992
▁잡아먹	-13993
절이	-13994
.11	-13995
▁관악	-13996
▁나은	-13997
▁수장	-13998
▁호칭	-13999
테스트	-14000
▁마오쩌	-14001
▁서식지는	-14002
▁조별리그	-14003
노르	-14004
형인	-14005
▁다테	-14006
▁불태	-14007
▁카사	-14008
▁국가와	-14009
▁누구나	-14010
▁대도시	-14011
▁마르틴	-14012
니치	-14013
▁다마	-14014
▁배후	-14015
▁한해	-14016
것으로	-14017
조에서	-14018
▁데스크	-14019
▁미네소타	-14020
▁사용되며	-14021
▁쾰	-14022
▁팰	-14023
당인	-14024
복은	-14025
창의	-14026
▁국어	-14027
▁김옥	-14028
▁미셸	-14029
▁천재	-14030
▁하비	-14031
▁꼽힌다	-14032
▁선수들	-14033
▁1870	-14034
▁난을	-14035
▁지수	-14036
▁키는	-14037
▁황해	-14038
바야시	-14039
▁김정은	-14040
▁실력을	-14041
▁주머니	-14042
▁팔레스타인	-14043
FF	-14044
▁뾰	-14045
ear	-14046
▁..	-14047
▁라그	-14048
▁마녀	-14049
▁모인	-14050
▁숨어	-14051
▁프렌	-14052
▁기관총	-14053
▁모티브	-14054
▁이르렀	-14055
▁치열한	-14056
▁투수로	-14057
▁현재도	-14058
▁개를	-14059
▁견인	-14060
▁때가	-14061
▁별이	-14062
▁종착	-14063
▁해고	-14064
▁경찰이	-14065
▁주위에	-14066
▁공격으로	-14067
▁동일하다	-14068
irl	-14069
▁콜라	-14070
▁반도체	-14071
▁디비시온	-14072
▁출판되었다	-14073
include	-14074
OT	-14075
▁낫	-14076
형제	-14077
_12	-14078
▁나라는	-14079
▁세이부	-14080
▁스테이	-14081
▁예술가	-14082
▁일어나고	-14083
유도	-14084
▁마가	-14085
▁세비	-14086
▁양을	-14087
▁용병	-14088
▁퇴적	-14089
▁어렸을	-14090
▁저기압	-14091
▁형성되어	-14092
있게	-14093
집행	-14094
▁진실	-14095
맥스	-14096
에의	-14097
▁가문은	-14098
▁세력은	-14099
▁역까지	-14100
▁절차를	-14101
선수권대회	-14102
건축	-14103
▁발병	-14104
▁앤더	-14105
▁말까지	-14106
▁지구에	-14107
▁1885	-14108
▁프로젝트의	-14109
▁양반	-14110
▁전날	-14111
▁연구와	-14112
▁취임했다	-14113
망의	-14114
업과	-14115
중추	-14116
태를	-14117
▁경연	-14118
ox	-14119
부리	-14120
▁세조	-14121
▁입헌	-14122
석에서	-14123
▁주위를	-14124
▁것입니다	-14125
▁방송되는	-14126
▁연결되는	-14127
편은	-14128
위이다	-14129
▁오로지	-14130
▁올랐으며	-14131
▁섀	-14132
체계	-14133
▁곤란	-14134
▁연못	-14135
▁이룩	-14136
▁이타	-14137
▁줄여	-14138
▁히라	-14139
현에서	-14140
▁나오고	-14141
▁발생하여	-14142
▁릭	-14143
▁분출	-14144
▁암흑	-14145
▁피를	-14146
▁확신	-14147
lass	-14148
▁애리조	-14149
▁전략을	-14150
▁간주된다	-14151
▁통합하여	-14152
양성	-14153
▁가열	-14154
▁상인	-14155
▁숙청	-14156
▁유벤	-14157
▁제의	-14158
▁통용	-14159
클레오	-14160
▁NAS	-14161
▁가지로	-14162
▁기반한	-14163
▁벨기에의	-14164
▁선수단은	-14165
++	-14166
▁감싸	-14167
▁몸의	-14168
▁정유	-14169
▁조광	-14170
▁지평	-14171
▁헬륨	-14172
▁미술관	-14173
▁아폴로	-14174
▁작가이다	-14175
거의	-14176
롭고	-14177
▁SD	-14178
▁굵은	-14179
해졌고	-14180
▁무대로	-14181
▁붙었다	-14182
▁집안의	-14183
▁진행하는	-14184
▁방송되었던	-14185
▁시뮬레이션	-14186
▁프로젝트는	-14187
군다	-14188
▁89	-14189
▁살려	-14190
▁수녀	-14191
▁수색	-14192
▁유의	-14193
▁차용	-14194
▁갑옷	-14195
▁형상	-14196
▁들어올	-14197
▁로마에	-14198
▁이상한	-14199
▁기본으로	-14200
▁야마구치	-14201
au	-14202
록을	-14203
번이	-14204
ere	-14205
▁내정	-14206
▁돌출	-14207
▁둔다	-14208
▁공격해	-14209
▁기간이	-14210
▁뷔	-14211
능한	-14212
콜라	-14213
▁가구	-14214
▁가자	-14215
▁미터	-14216
▁연수	-14217
▁직장	-14218
팀으로	-14219
▁80%	-14220
▁구단은	-14221
▁여성을	-14222
▁요시노	-14223
▁파운드	-14224
CC	-14225
니오	-14226
복의	-14227
원인	-14228
▁가격이	-14229
▁가사를	-14230
▁구단이	-14231
▁케네디	-14232
▁1871	-14233
▁으	-14234
▁박지	-14235
▁장을	-14236
▁즈음	-14237
▁동영상	-14238
▁작성한	-14239
▁시즌부터	-14240
▁딕	-14241
모스	-14242
▁밀리	-14243
▁워크	-14244
관계가	-14245
사무소	-14246
▁길이의	-14247
▁열매는	-14248
▁올바른	-14249
▁이해할	-14250
▁인류의	-14251
▁카드를	-14252
▁경기도의	-14253
▁경기장이다	-14254
러드	-14255
출판	-14256
▁샌드	-14257
▁문제와	-14258
▁선발로	-14259
▁시간의	-14260
▁일대의	-14261
박쥐과에	-14262
위원회에	-14263
▁사용되지	-14264
령과	-14265
운은	-14266
처는	-14267
col	-14268
▁USS	-14269
▁아키텍	-14270
▁인정하는	-14271
▁우즈베키스탄	-14272
나리	-14273
▁박헌	-14274
▁생체	-14275
▁휴전	-14276
▁바꾸는	-14277
▁소련은	-14278
▁중국은	-14279
▁카르타	-14280
▁연합군의	-14281
▁케임브리지	-14282
▁합스부르크	-14283
날레	-14284
트루	-14285
▁상담	-14286
▁상해	-14287
▁관직에	-14288
▁반도의	-14289
▁컨트리	-14290
▁콤팩트	-14291
▁해군은	-14292
▁학생들을	-14293
감의	-14294
케는	-14295
▁장미	-14296
▁체인	-14297
▁투명	-14298
공으로	-14299
▁방법에	-14300
▁시장의	-14301
▁대대적인	-14302
▁부근에서	-14303
▁광명	-14304
▁김구	-14305
▁회피	-14306
▁자란다	-14307
▁접근할	-14308
▁창원시	-14309
▁혁명을	-14310
▁엇	-14311
창은	-14312
▁부드럽	-14313
▁공격했다	-14314
▁북아일랜드	-14315
비오	-14316
들었다	-14317
속에서	-14318
케라톱	-14319
▁도마뱀	-14320
▁본래의	-14321
▁소문이	-14322
▁위주로	-14323
▁인디애나	-14324
▁기록되었다	-14325
과가	-14326
러를	-14327
진보	-14328
▁곡선	-14329
▁끌고	-14330
▁동인	-14331
▁맞고	-14332
▁빌라	-14333
▁직할	-14334
▁묘사한	-14335
▁장소로	-14336
▁은퇴했다	-14337
▁평안남도	-14338
개에	-14339
포와	-14340
▁교양	-14341
▁만료	-14342
▁자칭	-14343
▁갈등이	-14344
▁물질이	-14345
▁센고쿠	-14346
▁스카우	-14347
▁자랐다	-14348
▁트로이	-14349
▁킬로미터	-14350
▁보라	-14351
▁삼척	-14352
▁리그인	-14353
▁올리는	-14354
▁수단으로	-14355
▁세기	-14356
▁원조	-14357
▁초빙	-14358
▁추종	-14359
▁103	-14360
▁가을에	-14361
▁극장판	-14362
▁높이가	-14363
▁도왔다	-14364
▁뛰었다	-14365
▁받으면서	-14366
▁유러피언	-14367
▁해체되었다	-14368
아래	-14369
▁고소	-14370
▁누적	-14371
▁박람	-14372
▁조병	-14373
▁환자	-14374
▁종교의	-14375
▁홍콩의	-14376
▁만났	-14377
개월간	-14378
▁극심한	-14379
▁게임으로	-14380
▁세종특별자치	-14381
액이	-14382
▁베른	-14383
▁함양	-14384
▁시애틀	-14385
▁인간은	-14386
▁병원에서	-14387
▁사람들과	-14388
랑은	-14389
마크	-14390
▁치고	-14391
▁논란을	-14392
▁흐름을	-14393
▁더불어민주	-14394
▁썬	-14395
도스	-14396
러브	-14397
이었을	-14398
▁가져온	-14399
▁건설된	-14400
▁그곳에	-14401
▁수도를	-14402
▁안전한	-14403
▁제시한	-14404
▁코치를	-14405
덴부르크	-14406
학자이자	-14407
ivers	-14408
▁일이었다	-14409
야와	-14410
직할	-14411
▁노란	-14412
▁닫힌	-14413
▁대행	-14414
▁드레	-14415
▁이건	-14416
▁체크	-14417
▁폭행	-14418
▁균형을	-14419
▁따뜻한	-14420
▁중국인	-14421
규는	-14422
암의	-14423
히코	-14424
▁경에	-14425
▁궁궐	-14426
▁돌로	-14427
▁부도	-14428
▁오크	-14429
▁스포르	-14430
▁허리케인	-14431
▁년간	-14432
▁동조	-14433
▁사리	-14434
▁선비	-14435
▁절차	-14436
▁표지	-14437
▁싸우는	-14438
▁자유형	-14439
▁종목은	-14440
▁정의된다	-14441
▁다이아몬드	-14442
700	-14443
▁늑대	-14444
▁서원	-14445
▁약혼	-14446
▁터보	-14447
▁All	-14448
▁스테파	-14449
▁제도에	-14450
▁오클랜드	-14451
토모	-14452
▁GN	-14453
▁강진	-14454
▁데모	-14455
▁목성	-14456
▁않자	-14457
▁양육	-14458
▁저널	-14459
▁마스크	-14460
▁역사에서	-14461
▁프로그램으로	-14462
az	-14463
▁앰	-14464
▁간선	-14465
▁구해	-14466
▁면허	-14467
▁발의	-14468
▁스칸	-14469
론으로	-14470
만명의	-14471
▁CBS	-14472
▁정책은	-14473
▁제한된	-14474
▁필요성을	-14475
,6	-14476
현대	-14477
▁차를	-14478
▁토끼	-14479
▁맨해튼	-14480
▁바꾸고	-14481
▁통치를	-14482
▁생물학적	-14483
▁활동하다가	-14484
▁뻔	-14485
민과	-14486
▁가솔	-14487
▁상경	-14488
▁태자	-14489
▁붙였다	-14490
▁사카이	-14491
▁안티오	-14492
▁의무를	-14493
주의적인	-14494
▁나타나고	-14495
▁노래이다	-14496
▁형성하는	-14497
▁아리스토텔레	-14498
어리	-14499
제학	-14500
▁내무	-14501
▁불린	-14502
▁수축	-14503
▁아날	-14504
▁작아	-14505
년에도	-14506
티아의	-14507
▁불규칙	-14508
▁j	-14509
▁공표	-14510
▁동점	-14511
▁주자	-14512
▁처분	-14513
▁대신해	-14514
▁독일에	-14515
▁with	-14516
▁알래스카	-14517
▁오사카부	-14518
▁얕	-14519
세다	-14520
화할	-14521
▁터치	-14522
루시아	-14523
회의를	-14524
▁나라가	-14525
▁음반에	-14526
▁지난날	-14527
티넘	-14528
▁규격	-14529
▁스텔	-14530
▁오류	-14531
▁총장	-14532
▁그룹을	-14533
▁동쪽의	-14534
▁완성된	-14535
▁실패하고	-14536
네르	-14537
.6%	-14538
▁노인	-14539
▁파동	-14540
▁Mus	-14541
▁One	-14542
▁슬라브	-14543
▁살아있는	-14544
▁독립운동가	-14545
▁사용하기도	-14546
▁맘	-14547
▁다를	-14548
▁데카	-14549
▁상응	-14550
▁팀과	-14551
▁회로	-14552
심으로	-14553
▁가족과	-14554
▁막부의	-14555
▁현상은	-14556
▁방문하여	-14557
▁%	-14558
메가	-14559
-13	-14560
▁올드	-14561
▁호프	-14562
궁을	-14563
전인	-14564
편성	-14565
▁가늘	-14566
▁음원	-14567
▁평을	-14568
제도를	-14569
학적인	-14570
▁사태가	-14571
▁고려하여	-14572
▁남북으로	-14573
▁연기했다	-14574
▁옥스퍼드	-14575
▁유래했다	-14576
▁클럽이다	-14577
▁싣	-14578
초로	-14579
▁어쩔	-14580
▁동일하게	-14581
▁운영되고	-14582
나에	-14583
들리	-14584
시한	-14585
야스	-14586
요리	-14587
ife	-14588
▁대북	-14589
아버지	-14590
▁이전까지	-14591
▁10,000	-14592
FL	-14593
안과	-14594
▁IN	-14595
▁부시	-14596
▁종을	-14597
▁포착	-14598
▁해저	-14599
누스의	-14600
▁분리된	-14601
▁비주얼	-14602
▁순위를	-14603
▁장애인	-14604
.2%	-14605
▁요약	-14606
경찰서	-14607
밀하게	-14608
▁건축가	-14609
▁마라톤	-14610
▁박쥐의	-14611
▁분석을	-14612
▁순으로	-14613
▁위에는	-14614
▁의혹이	-14615
▁책이다	-14616
▁플라이	-14617
난을	-14618
▁부각	-14619
▁읽고	-14620
▁펜싱	-14621
부에는	-14622
▁가족을	-14623
▁용어이다	-14624
▁평안북도	-14625
기갑	-14626
년동	-14627
_13	-14628
lat	-14629
▁앞의	-14630
▁의혹을	-14631
▁헥	-14632
람쥐	-14633
▁결선	-14634
▁고산	-14635
▁델타	-14636
▁맺어	-14637
▁미라	-14638
▁연소	-14639
▁유산	-14640
▁결정에	-14641
▁자체의	-14642
▁한국과	-14643
▁시기에는	-14644
▁요청했다	-14645
난성	-14646
.4%	-14647
▁경작	-14648
▁기단	-14649
▁명사	-14650
▁반경	-14651
▁배려	-14652
▁예하	-14653
▁제너	-14654
▁하치	-14655
자리의	-14656
▁EBS	-14657
▁동유럽	-14658
▁성적으로	-14659
▁낚	-14660
삼존	-14661
▁당주	-14662
▁뾰족	-14663
▁상표	-14664
▁원격	-14665
대통령	-14666
▁그룹이	-14667
▁서식지	-14668
▁디자인은	-14669
▁클라우드	-14670
▁오늘날에는	-14671
▁웬	-14672
공무	-14673
▁부재	-14674
▁순조	-14675
▁브리튼	-14676
▁퍼포먼	-14677
▁지원하고	-14678
▁손실	-14679
▁타당	-14680
▁모니터	-14681
▁민간인	-14682
▁선택할	-14683
▁오르는	-14684
▁조성된	-14685
▁도착했다	-14686
노를	-14687
님은	-14688
조각	-14689
▁카시	-14690
▁키가	-14691
▁하반	-14692
▁두개골	-14693
▁죽음의	-14694
▁추구하는	-14695
여자고등학교	-14696
루수	-14697
망에	-14698
▁실존	-14699
▁은거	-14700
▁최성	-14701
▁풍자	-14702
▁MTV	-14703
▁THE	-14704
▁구간의	-14705
▁플래시	-14706
▁관할했다	-14707
▁증가하고	-14708
보리	-14709
▁돌격	-14710
▁되던	-14711
▁성에	-14712
▁음료	-14713
▁현행	-14714
타이드	-14715
▁모두를	-14716
▁이전부터	-14717
▁슬로베니아	-14718
▁주어졌다고	-14719
▁83	-14720
▁감금	-14721
▁공수	-14722
▁서산	-14723
▁진해	-14724
▁후세	-14725
리스는	-14726
▁로마에서	-14727
Co	-14728
▁흠	-14729
작인	-14730
트레	-14731
▁명목	-14732
▁사서	-14733
▁요하	-14734
▁타협	-14735
▁가깝다	-14736
▁소련이	-14737
▁않아서	-14738
▁파이터	-14739
▁기여하였다	-14740
▁오케스트라	-14741
▁겪고	-14742
▁날이	-14743
▁종족	-14744
연으로	-14745
▁미치지	-14746
▁성으로	-14747
▁트럼프	-14748
는가	-14749
ild	-14750
▁무척	-14751
▁이븐	-14752
▁학원	-14753
▁내리는	-14754
▁사건과	-14755
▁손해배	-14756
▁싸움을	-14757
":	-14758
▁지쿠	-14759
▁히사	-14760
교에서	-14761
▁말부터	-14762
▁물체의	-14763
▁1600	-14764
▁개봉되었다	-14765
리니	-14766
▁늦게	-14767
▁소통	-14768
ical	-14769
▁법무부	-14770
▁쓰여진	-14771
▁와이번	-14772
▁전투의	-14773
킬로미터	-14774
▁가르쳤다	-14775
▁시리즈에	-14776
▁출연하여	-14777
나로	-14778
승의	-14779
질러	-14780
▁레온	-14781
▁체포되었다	-14782
풀이	-14783
▁''	-14784
▁내어	-14785
▁복용	-14786
▁불참	-14787
▁삼중	-14788
▁협조	-14789
▁머리에	-14790
▁사라진	-14791
▁생산된	-14792
▁소나타	-14793
▁연합의	-14794
계에서는	-14795
세기에는	-14796
~6	-14797
장로	-14798
창한	-14799
▁2-0	-14800
▁무렵에	-14801
▁수행한다	-14802
▁유지하기	-14803
LA	-14804
▁Ex	-14805
▁긴장	-14806
▁배속	-14807
▁선로	-14808
▁오아	-14809
▁방향에	-14810
▁서쪽의	-14811
▁판매를	-14812
▁노선이다	-14813
ah	-14814
▁샐	-14815
린과	-14816
▁독창	-14817
차례의	-14818
▁공간은	-14819
▁하도록	-14820
▁기념하여	-14821
감염	-14822
리던	-14823
사한	-14824
▁의결	-14825
▁레스토	-14826
▁못하여	-14827
▁미주리	-14828
▁변경했다	-14829
▁아무것도	-14830
EG	-14831
▁샀	-14832
리마	-14833
▁대패	-14834
▁합친	-14835
▁남쪽은	-14836
▁서재필	-14837
법상	-14838
▁93	-14839
▁공이	-14840
▁대마	-14841
▁바우	-14842
▁청산	-14843
정부는	-14844
▁서울에	-14845
▁총리는	-14846
▁선수들은	-14847
▁오케스트	-14848
".	-14849
▁단식	-14850
▁옵션	-14851
▁타구	-14852
▁성향의	-14853
▁에서는	-14854
▁발견되지	-14855
▁방면으로	-14856
▁상관없이	-14857
▁항공모함	-14858
▁스트라이커	-14859
▁찐	-14860
시킴	-14861
▁92	-14862
▁맞대	-14863
▁명은	-14864
▁짧고	-14865
▁파산	-14866
▁해가	-14867
영화제	-14868
▁국민당	-14869
▁긴테쓰	-14870
▁원나라	-14871
▁젊은이	-14872
▁서울특별시의	-14873
종에	-14874
lay	-14875
▁고든	-14876
▁번성	-14877
▁인산	-14878
▁제인	-14879
▁중퇴	-14880
지었다	-14881
쪽에는	-14882
▁왔으며	-14883
▁중심에	-14884
파리	-14885
▁농장	-14886
▁우정	-14887
해야만	-14888
▁5.1	-14889
▁생각이	-14890
▁서쪽은	-14891
▁애리조나	-14892
▁국가대표팀에	-14893
▁가맹	-14894
▁미만	-14895
▁부총	-14896
▁유타	-14897
▁티켓	-14898
▁표본	-14899
▁여파로	-14900
▁주연을	-14901
▁지진이	-14902
▁하워드	-14903
개국에서	-14904
▁1200	-14905
▁수여받았다	-14906
사르	-14907
▁방침	-14908
▁인명	-14909
▁확진	-14910
▁115	-14911
▁전기의	-14912
▁제국과	-14913
▁조정의	-14914
▁하루에	-14915
▁내용이다	-14916
▁퐁	-14917
쉽게	-14918
▁갈리아	-14919
▁마누엘	-14920
▁승리에	-14921
▁싸웠다	-14922
▁중국을	-14923
박물관에	-14924
▁야마가타	-14925
▁전국적으로	-14926
더가	-14927
더를	-14928
▁넷째	-14929
▁당원	-14930
▁데서	-14931
▁살라	-14932
▁전함	-14933
▁영국이	-14934
▁축구단	-14935
▁건물이다	-14936
▁도쿄에서	-14937
▁한편으로	-14938
묘한	-14939
배가	-14940
▁Ad	-14941
▁vs	-14942
▁공신	-14943
▁김원	-14944
▁백두	-14945
▁시어	-14946
▁안드	-14947
▁즐길	-14948
▁춤을	-14949
▁탐구	-14950
▁아이폰	-14951
▁앨범에	-14952
▁전쟁과	-14953
▁전통적	-14954
▁증상이	-14955
▁협력을	-14956
▁거부했다	-14957
▁효과적인	-14958
▁은퇴하였다	-14959
▁경질	-14960
▁예는	-14961
▁우측	-14962
▁충전	-14963
예정자	-14964
▁달러에	-14965
▁냈	-14966
che	-14967
▁석회	-14968
▁신형	-14969
▁안도	-14970
▁내용에	-14971
▁되도록	-14972
▁선수들의	-14973
▁않았다는	-14974
MB	-14975
ica	-14976
▁몽고	-14977
학교는	-14978
▁동대문	-14979
▁했었다	-14980
▁압도적인	-14981
▁필리핀의	-14982
츠크	-14983
▁al	-14984
▁방콕	-14985
▁방화	-14986
▁복소	-14987
▁비엔	-14988
▁아쿠	-14989
▁자산	-14990
▁파손	-14991
▁패전	-14992
▁흥미	-14993
티미터	-14994
▁일하고	-14995
▁제출한	-14996
▁클럽의	-14997
▁표현할	-14998
▁수록되었다	-14999
▁체코슬로바키아	-15000
ish	-15001
▁쾰른	-15002
대회를	-15003
비치는	-15004
▁간신히	-15005
▁앨범인	-15006
▁열차의	-15007
▁철학적	-15008
▁100%	-15009
▁관계없이	-15010
▁내에서는	-15011
▁대한항공	-15012
~10	-15013
▁결별	-15014
▁죽인	-15015
▁혐의	-15016
▁회화	-15017
▁경쟁을	-15018
▁받아야	-15019
▁유럽과	-15020
oh	-15021
.7%	-15022
▁나루	-15023
▁연인	-15024
▁정선	-15025
▁타케	-15026
▁권위를	-15027
▁나라에	-15028
▁솔로몬	-15029
▁저널리	-15030
▁제목은	-15031
▁평론가	-15032
▁영화제에서	-15033
/0	-15034
놀이	-15035
▁봉기	-15036
▁왼손	-15037
▁트렌	-15038
상규명	-15039
▁발견하고	-15040
심과	-15041
하늘	-15042
▁과반	-15043
▁리보	-15044
▁우회	-15045
▁원숭	-15046
▁취항	-15047
▁품질	-15048
▁무리를	-15049
▁신화의	-15050
▁내부에서	-15051
▁연극배우	-15052
▁맷	-15053
리온	-15054
▁갤러	-15055
▁것일	-15056
▁모셔	-15057
▁이현	-15058
▁코카	-15059
각형의	-15060
승으로	-15061
▁심하게	-15062
▁지역인	-15063
▁단독으로	-15064
▁하였지만	-15065
▁선수단이다	-15066
시인	-15067
▁바흐	-15068
▁세자	-15069
▁식당	-15070
▁온건	-15071
▁조류	-15072
▁증대	-15073
세였다	-15074
연대는	-15075
▁정도에	-15076
▁조약이	-15077
▁위키백과	-15078
▁이용된다	-15079
▁주관하는	-15080
ll	-15081
농업	-15082
독한	-15083
밀히	-15084
▁에게	-15085
▁도입한	-15086
▁설명하고	-15087
▁원인으로	-15088
간지	-15089
렉션	-15090
업체	-15091
-23	-15092
▁EU	-15093
▁Gr	-15094
▁다름	-15095
▁다툼	-15096
▁이렇	-15097
▁청룡	-15098
▁태그	-15099
▁한명	-15100
라디오	-15101
▁경제는	-15102
▁구하는	-15103
▁세포의	-15104
▁언론에	-15105
▁영역에	-15106
▁인테르	-15107
▁강조했다	-15108
무의	-15109
▁남미	-15110
▁동학	-15111
▁용암	-15112
▁투여	-15113
당하여	-15114
▁바다에	-15115
▁시도를	-15116
▁바르샤바	-15117
절의	-15118
정상	-15119
준을	-15120
티드	-15121
.3%	-15122
▁나비	-15123
▁아유	-15124
▁제임	-15125
▁차원	-15126
년도에	-15127
▁영지를	-15128
▁표현이	-15129
▁홍문관	-15130
▁회원국	-15131
위한	-15132
하르	-15133
▁고토	-15134
▁벌여	-15135
▁압력	-15136
▁이송	-15137
▁전이	-15138
▁휩쓸	-15139
블랜드	-15140
▁낳는다	-15141
▁떨어뜨	-15142
▁극장에서	-15143
▁명명되었다	-15144
▁종료되었다	-15145
ax	-15146
법률	-15147
청구	-15148
▁신동	-15149
▁투항	-15150
▁한중	-15151
탈리아	-15152
▁소나무	-15153
▁정의는	-15154
▁죽음에	-15155
▁혼란을	-15156
7,	-15157
나시	-15158
숙은	-15159
태는	-15160
평의	-15161
▁경희	-15162
▁고대의	-15163
▁대화를	-15164
▁코무네다	-15165
쿠르	-15166
▁Cl	-15167
▁겹쳐	-15168
▁진을	-15169
▁파기	-15170
▁헌신	-15171
능력을	-15172
▁효과는	-15173
년대까지	-15174
▁것의	-15175
▁시몬	-15176
▁요동	-15177
▁유혹	-15178
▁전래	-15179
▁피의	-15180
▁보한다	-15181
▁제정된	-15182
▁임명하였다	-15183
▁독일인	-15184
▁전당에	-15185
▁지키기	-15186
▁담당한다	-15187
디와	-15188
럴드	-15189
졌기	-15190
▁면적	-15191
▁음향	-15192
▁일일	-15193
▁취업	-15194
▁논쟁이	-15195
▁아랍에미	-15196
▁작품에서	-15197
▁하느님의	-15198
황의	-15199
▁셀레	-15200
▁좌석	-15201
▁똑같이	-15202
▁수도로	-15203
▁십자군	-15204
▁열차를	-15205
▁초창기	-15206
▁판매하는	-15207
▁형성되었다	-15208
일자	-15209
타고	-15210
터키	-15211
▁박종	-15212
▁서적	-15213
▁얇은	-15214
정부가	-15215
▁90%	-15216
▁동쪽은	-15217
▁목성의	-15218
▁전국의	-15219
▁정의를	-15220
▁주도한	-15221
▁지키고	-15222
▁헬리콥	-15223
▁에너지가	-15224
▁진행하였다	-15225
인당	-15226
추진	-15227
800	-15228
▁Bl	-15229
▁대각	-15230
▁미륵	-15231
▁조국	-15232
음보살	-15233
▁그렸다	-15234
▁인접해	-15235
▁1889	-15236
▁애틀랜타	-15237
pr	-15238
척을	-15239
▁김유	-15240
▁노면	-15241
▁전복	-15242
▁혼성	-15243
▁힘썼	-15244
▁열심히	-15245
▁참여할	-15246
▁인공지능	-15247
▁함경남도	-15248
▁수록예정자	-15249
어족	-15250
토로	-15251
▁주입	-15252
스키의	-15253
하기가	-15254
only	-15255
▁대대로	-15256
▁도덕적	-15257
▁조직은	-15258
▁정기적으로	-15259
6,	-15260
조부	-15261
▁강풍	-15262
▁바꿨	-15263
▁봄에	-15264
▁씨앗	-15265
▁유식	-15266
▁화를	-15267
▁남성의	-15268
▁세금을	-15269
▁시에서	-15270
▁역할은	-15271
▁체계는	-15272
▁한계를	-15273
▁떡	-15274
▁글자	-15275
▁기기	-15276
▁마셜	-15277
▁목판	-15278
▁미션	-15279
▁Mar	-15280
▁구역은	-15281
▁무궁화	-15282
▁사상은	-15283
▁상처를	-15284
▁혐의를	-15285
▁궁전	-15286
▁다투	-15287
▁몰수	-15288
▁시부	-15289
되어서	-15290
▁후지와라노	-15291
나기	-15292
월호	-15293
읍에	-15294
틴은	-15295
.8%	-15296
▁거창	-15297
▁로얄	-15298
▁막는	-15299
▁사쿠	-15300
▁입양	-15301
▁초고	-15302
▁선수의	-15303
▁와일드	-15304
원자	-15305
포에	-15306
▁바에	-15307
▁염기	-15308
▁윌슨	-15309
▁절단	-15310
치에서	-15311
▁당대의	-15312
▁알파벳	-15313
▁태권도	-15314
▁사용되기도	-15315
미타	-15316
제곱	-15317
▁공방	-15318
청에서	-15319
▁대기업	-15320
▁조반니	-15321
▁토스카	-15322
▁힘으로	-15323
CACAF	-15324
▁아이디얼	-15325
▁활동하던	-15326
▁활동하며	-15327
▁박사학위를	-15328
ous	-15329
▁문경	-15330
▁시정	-15331
▁첨단	-15332
▁축조	-15333
▁헬싱	-15334
▁대표가	-15335
▁도로를	-15336
▁동등한	-15337
▁헌법을	-15338
▁협정을	-15339
위원회에서	-15340
라니	-15341
셨다	-15342
약의	-15343
▁궁정	-15344
▁내걸	-15345
▁드는	-15346
▁헬레	-15347
▁개인적	-15348
▁미하일	-15349
▁삼국지	-15350
▁발표하고	-15351
락은	-15352
밴드	-15353
토록	-15354
▁대부	-15355
▁아키타	-15356
▁에스페	-15357
▁활발하게	-15358
부아	-15359
▁산지	-15360
▁최진	-15361
▁당하고	-15362
▁노선으로	-15363
RT	-15364
하겐	-15365
▁노조	-15366
▁돌고	-15367
▁미키	-15368
▁이득	-15369
▁장면이	-15370
▁황제는	-15371
▁다양하게	-15372
▁천문학자	-15373
▁선임되었다	-15374
▁그저	-15375
▁드라	-15376
▁딸이	-15377
▁하르	-15378
▁가리지	-15379
▁규정을	-15380
▁리그로	-15381
▁반응이	-15382
▁시작할	-15383
▁유리한	-15384
▁유학생	-15385
대한민국	-15386
▁국유	-15387
▁어찌	-15388
▁칼럼	-15389
▁검사를	-15390
▁노래가	-15391
▁사항을	-15392
▁축구를	-15393
▁패트릭	-15394
▁프리메라	-15395
서스	-15396
술은	-15397
합을	-15398
▁부에	-15399
▁테무	-15400
당이다	-15401
▁그보다	-15402
▁서울로	-15403
▁JTBC	-15404
성인	-15405
웠던	-15406
카쓰	-15407
▁구형	-15408
▁토크	-15409
▁프론	-15410
▁반응은	-15411
▁우려가	-15412
▁한국을	-15413
받았으며	-15414
▁스톡홀름	-15415
EL	-15416
▁장제	-15417
▁조형	-15418
▁호를	-15419
▁가르침	-15420
▁가상의	-15421
▁겉보기	-15422
▁아이가	-15423
우스와	-15424
지지만	-15425
▁천황이	-15426
결혼	-15427
▁대영	-15428
▁입지	-15429
▁천거	-15430
▁펑크	-15431
▁만들었고	-15432
▁점령했다	-15433
▁헤르체고	-15434
IL	-15435
카리	-15436
▁격투	-15437
▁김광	-15438
▁선은	-15439
▁아프	-15440
▁그래도	-15441
▁명확한	-15442
▁수학적	-15443
▁약속을	-15444
▁친구인	-15445
▁그녀에게	-15446
런의	-15447
미래	-15448
여단	-15449
지스	-15450
▁고쿠	-15451
▁동네	-15452
▁성리	-15453
▁일괄	-15454
▁정동	-15455
▁제대	-15456
▁짓는	-15457
▁프롤	-15458
▁행진	-15459
하게도	-15460
▁모시고	-15461
▁서대문	-15462
▁장르의	-15463
▁출판된	-15464
▁프레이	-15465
▁그룹으로	-15466
▁전반적인	-15467
▁이겨	-15468
▁내각의	-15469
▁지휘를	-15470
▁주민들의	-15471
알라	-15472
▁경의	-15473
▁때려	-15474
▁리옹	-15475
▁수령	-15476
▁아데	-15477
▁아빠	-15478
▁이언	-15479
▁처럼	-15480
▁게릴라	-15481
▁영업을	-15482
▁총리를	-15483
▁클리블랜드	-15484
거가	-15485
아트	-15486
▁의문	-15487
갔다가	-15488
▁건조한	-15489
▁교통의	-15490
▁열대폭	-15491
▁의사소	-15492
▁늘어났다	-15493
▁보존되어	-15494
▁지도자로	-15495
▁패럴림픽	-15496
스레	-15497
증권	-15498
_14	-15499
row	-15500
▁리바	-15501
▁정작	-15502
▁차출	-15503
▁교회는	-15504
▁하나다	-15505
▁간격으로	-15506
스기	-15507
▁갖지	-15508
▁벽돌	-15509
▁생일	-15510
▁장사	-15511
▁차로	-15512
▁치즈	-15513
▁파인	-15514
해지자	-15515
span	-15516
▁몽골의	-15517
▁앤드루	-15518
해석	-15519
▁선원	-15520
▁치세	-15521
틀러는	-15522
▁달라고	-15523
▁마리의	-15524
▁자유의	-15525
▁클레이	-15526
▁플래티넘	-15527
▁댓	-15528
데라	-15529
사범	-15530
어인	-15531
후가	-15532
▁SL	-15533
▁Sy	-15534
▁공천	-15535
▁기고	-15536
▁나노	-15537
▁방치	-15538
▁슬픔	-15539
개국이	-15540
경기장	-15541
▁것이나	-15542
▁생긴다	-15543
▁자메이	-15544
▁공격하는	-15545
.1%	-15546
▁이완	-15547
▁추서	-15548
리그에	-15549
▁강남구	-15550
▁전신인	-15551
▁스타일을	-15552
▁운행하고	-15553
▁출발하여	-15554
조리	-15555
▁고원	-15556
▁재일	-15557
▁저하	-15558
▁과도한	-15559
▁드디어	-15560
▁유지할	-15561
▁함수는	-15562
▁함수를	-15563
ern	-15564
▁ch	-15565
▁형인	-15566
▁황족	-15567
▁기술적	-15568
▁면이다	-15569
▁북쪽은	-15570
▁북한이	-15571
▁토리노	-15572
▁페트로	-15573
EM	-15574
버의	-15575
사유	-15576
▁산이	-15577
▁소울	-15578
▁수필	-15579
▁잠정	-15580
공사의	-15581
운동장	-15582
ance	-15583
▁ATP	-15584
▁목적이	-15585
▁바뀌어	-15586
▁불안정	-15587
▁빅토르	-15588
▁설립하여	-15589
네티	-15590
▁Br	-15591
▁김명	-15592
▁매체	-15593
▁메뉴	-15594
▁연봉	-15595
▁요인	-15596
▁우아	-15597
▁중형	-15598
▁출가	-15599
로이드	-15600
▁작전에	-15601
락의	-15602
▁보석	-15603
디자인	-15604
공화국의	-15605
▁1,500	-15606
경비	-15607
극을	-15608
트넘	-15609
▁EX	-15610
▁모호	-15611
▁요충	-15612
▁카즈	-15613
가능한	-15614
▁노래로	-15615
▁매카트	-15616
▁병원에	-15617
▁왕실의	-15618
▁작성된	-15619
▁관해서는	-15620
▁침묵	-15621
▁칸은	-15622
▁라파엘	-15623
▁명확히	-15624
▁부모의	-15625
▁제품의	-15626
▁1848	-15627
복음	-15628
부지	-15629
▁보증	-15630
▁세븐	-15631
▁이씨	-15632
▁집어	-15633
▁혼다	-15634
▁소피아	-15635
▁수용할	-15636
▁양식의	-15637
▁요제프	-15638
▁스크린도	-15639
▁아날로그	-15640
▁시즌에서는	-15641
PC	-15642
복합	-15643
▁기수	-15644
▁점과	-15645
▁회상	-15646
▁생겨난	-15647
▁엘리트	-15648
▁강조하는	-15649
과와	-15650
▁계수	-15651
▁모자	-15652
▁발령	-15653
▁발해	-15654
▁휴식	-15655
▁참가할	-15656
▁베네수엘라	-15657
▁업그레이드	-15658
onlyinclude	-15659
니라	-15660
▁격추	-15661
▁부합	-15662
▁브룩	-15663
▁쾌속	-15664
▁평평	-15665
버스는	-15666
위까지	-15667
▁난카이	-15668
▁모리스	-15669
▁개발했다	-15670
▁사망자가	-15671
현실	-15672
-09	-15673
orn	-15674
▁공존	-15675
▁광학	-15676
▁바꿀	-15677
▁정성	-15678
시간이	-15679
▁경로를	-15680
▁개통되었다	-15681
▁소프트웨어를	-15682
련된	-15683
▁상공	-15684
▁타자	-15685
▁파란	-15686
▁대전의	-15687
▁마을이	-15688
▁주위의	-15689
▁발견되어	-15690
▁자료이다	-15691
▁데뷔하였으며	-15692
▁늙	-15693
▁공백	-15694
▁싸이	-15695
▁차체	-15696
▁뉴캐슬	-15697
▁대단히	-15698
▁방안을	-15699
▁복소수	-15700
▁컴퓨팅	-15701
▁기간동안	-15702
코를	-15703
▁듣지	-15704
▁루카	-15705
▁무작	-15706
▁묶어	-15707
▁선행	-15708
▁승점	-15709
▁단체의	-15710
▁도로가	-15711
▁마르티	-15712
▁의지를	-15713
▁받아들였다	-15714
▁프란체스코	-15715
물인	-15716
▁AV	-15717
▁랴오	-15718
▁씨가	-15719
▁키르	-15720
고에서	-15721
▁아나톨	-15722
▁암컷은	-15723
▁고려시대의	-15724
▁대체되었다	-15725
▁앗	-15726
비서	-15727
수지	-15728
키타	-15729
▁다윈	-15730
▁산둥	-15731
에너지	-15732
▁사거리	-15733
▁음악과	-15734
▁한편으로는	-15735
세요	-15736
컴퓨	-15737
▁NT	-15738
▁느린	-15739
▁명인	-15740
▁이양	-15741
▁찍은	-15742
▁코소	-15743
▁핑크	-15744
▁빨간색	-15745
▁식물의	-15746
▁시작하고	-15747
▁여겨졌다	-15748
▁작용하는	-15749
▁실시되었다	-15750
기둥	-15751
▁개헌	-15752
▁저격	-15753
▁찬양	-15754
▁페니	-15755
▁놀라운	-15756
▁시청률	-15757
▁포스터	-15758
▁버전으로	-15759
▁이용해서	-15760
▁출전하지	-15761
자고	-15762
초가	-15763
ook	-15764
▁렌즈	-15765
▁섬과	-15766
▁앙골	-15767
▁적어	-15768
▁카테	-15769
▁...	-15770
▁보낸다	-15771
▁언론인	-15772
대학교를	-15773
▁국무총리	-15774
▁그랑프리	-15775
▁한국철도	-15776
벨트	-15777
시카	-15778
ows	-15779
▁노이	-15780
▁모의	-15781
▁병이	-15782
▁입주	-15783
▁줄리	-15784
▁철폐	-15785
순위로	-15786
조참판	-15787
화하기	-15788
▁노르망	-15789
▁마이애	-15790
▁여겼다	-15791
▁호르몬	-15792
▁입학하여	-15793
▁증가했다	-15794
바퀴	-15795
복이	-15796
에스	-15797
절에	-15798
▁중엽	-15799
▁밴쿠버	-15800
▁원칙을	-15801
▁전화를	-15802
▁해병대	-15803
▁사용되어	-15804
▁의회에서	-15805
▁일어나지	-15806
▁프랜시스	-15807
▁캐나다에서	-15808
▁쿡	-15809
미네	-15810
천년	-15811
▁강대	-15812
▁돼지	-15813
▁부채	-15814
▁현종	-15815
▁느끼고	-15816
▁단어가	-15817
▁득표율	-15818
▁신학자	-15819
▁연이어	-15820
▁서비스가	-15821
▁홉	-15822
노리	-15823
등과	-15824
정권	-15825
코딩	-15826
▁매킨	-15827
▁호크	-15828
▁끼쳤다	-15829
▁서로의	-15830
▁음반이	-15831
▁프란치	-15832
▁붙여졌다	-15833
료는	-15834
oll	-15835
▁MB	-15836
▁국한	-15837
▁매력	-15838
당한다	-15839
테리아	-15840
▁분야를	-15841
▁사이로	-15842
▁의문을	-15843
▁이름과	-15844
▁장소에	-15845
▁처분을	-15846
가게	-15847
교사	-15848
니코	-15849
치히	-15850
▁개항	-15851
▁떠오	-15852
▁생리	-15853
▁수양	-15854
▁자란	-15855
▁코시	-15856
그룹의	-15857
olog	-15858
▁AKB	-15859
▁무소속	-15860
▁않아도	-15861
▁후기에	-15862
▁흐르고	-15863
▁부족으로	-15864
▁생겨났다	-15865
▁청나라의	-15866
되나	-15867
몽골	-15868
▁값은	-15869
▁고아	-15870
▁전무	-15871
▁헤어	-15872
각으로	-15873
▁가져다	-15874
▁독일군	-15875
▁시에는	-15876
▁전략적	-15877
▁지리적	-15878
▁직위를	-15879
▁챌린지	-15880
▁투수이다	-15881
금과	-15882
호르	-15883
▁대왕	-15884
▁막스	-15885
▁모색	-15886
▁상급	-15887
▁서귀	-15888
▁정읍	-15889
관계에	-15890
대학의	-15891
▁220	-15892
▁손실을	-15893
▁에콰도르	-15894
공파	-15895
바브	-15896
▁가산	-15897
▁출석	-15898
가지가	-15899
▁다양체	-15900
▁미군의	-15901
▁비영리	-15902
▁않다고	-15903
▁왕가의	-15904
▁클럽인	-15905
▁마오쩌둥	-15906
▁z	-15907
디지	-15908
▁Ph	-15909
▁면이	-15910
▁무안	-15911
▁전전	-15912
▁고양시	-15913
▁부대의	-15914
▁어렵게	-15915
▁정책의	-15916
과정에서	-15917
▁대한민국을	-15918
▁정치적으로	-15919
부산	-15920
충은	-15921
ann	-15922
▁상행	-15923
▁접한	-15924
▁집회	-15925
만원을	-15926
▁대표를	-15927
▁따왔다	-15928
▁레드삭	-15929
▁미야기	-15930
▁부인은	-15931
▁새끼를	-15932
것이	-15933
방정	-15934
워서	-15935
▁WH	-15936
▁감수	-15937
▁기해	-15938
▁선동	-15939
우리는	-15940
테이너	-15941
▁고문을	-15942
▁정하고	-15943
▁충청도	-15944
세기까지	-15945
▁스튜어트	-15946
/3	-15947
▁기인	-15948
▁김형	-15949
▁블레	-15950
▁좌측	-15951
▁천천	-15952
▁생성된	-15953
▁예컨대	-15954
▁전자의	-15955
▁협회의	-15956
▁CONCACAF	-15957
비용	-15958
.9%	-15959
▁un	-15960
▁마애	-15961
▁죽게	-15962
▁희곡	-15963
▁가로지	-15964
▁금요일	-15965
▁영향력이	-15966
▁설치하였다	-15967
▁알렉산드리아	-15968
독을	-15969
라드	-15970
스퍼	-15971
▁스포	-15972
저기압	-15973
▁도시인	-15974
▁일본군의	-15975
▁지원하기	-15976
▁경상북도의	-15977
공작	-15978
두의	-15979
▁습윤	-15980
▁허드	-15981
▁ABC	-15982
▁각지의	-15983
▁논쟁을	-15984
▁소유한	-15985
▁영역에서	-15986
▁카탈루냐	-15987
▁콘크리트	-15988
▁김천	-15989
▁살게	-15990
▁쪽에	-15991
▁규모를	-15992
▁시장이	-15993
▁NASA	-15994
▁국내에서	-15995
_16	-15996
▁링크	-15997
▁우의	-15998
▁트란	-15999
▁넘어서	-16000
▁아이언	-16001
▁앨리스	-16002
▁유닉스	-16003
케의	-16004
▁지출	-16005
▁포수	-16006
▁안정된	-16007
년제	-16008
섬의	-16009
재산	-16010
▁전수	-16011
▁최강	-16012
▁3.5	-16013
▁자원을	-16014
▁증거를	-16015
▁해안에	-16016
▁수행했다	-16017
▁여겨지고	-16018
사도	-16019
▁전담	-16020
▁곳곳에	-16021
▁모른다	-16022
▁믿었다	-16023
▁정하는	-16024
▁1883	-16025
유예	-16026
▁동정	-16027
▁베리	-16028
▁유목	-16029
▁입구	-16030
▁입국	-16031
▁쿠빌	-16032
물리학	-16033
▁70%	-16034
▁대니얼	-16035
▁청동기	-16036
▁안정적인	-16037
▁금호	-16038
▁배수	-16039
▁질문	-16040
▁카지	-16041
▁내리고	-16042
▁비롯된	-16043
▁중심지로	-16044
▁캐릭터를	-16045
월을	-16046
좌를	-16047
ref	-16048
▁면제	-16049
▁산성	-16050
▁세트	-16051
▁주조	-16052
▁포터	-16053
▁되어야	-16054
▁소재의	-16055
▁무대에서	-16056
▁선수였다	-16057
▁쉴	-16058
견이	-16059
노와	-16060
불이	-16061
서인	-16062
▁복장	-16063
▁의령	-16064
▁인재	-16065
정이다	-16066
▁OST	-16067
▁기법을	-16068
▁노래의	-16069
▁행하는	-16070
▁동치이다	-16071
▁전까지는	-16072
▁맞춘	-16073
▁성곽	-16074
▁솟아	-16075
▁옮긴	-16076
▁제천	-16077
▁컴파	-16078
▁포스	-16079
▁거두며	-16080
▁공로를	-16081
▁남자가	-16082
▁유력한	-16083
▁의석을	-16084
▁성장하였다	-16085
EE	-16086
세손	-16087
▁경복	-16088
▁원통	-16089
▁아리아	-16090
▁공산당의	-16091
▁부르고뉴	-16092
▁튼	-16093
배의	-16094
소비	-16095
창이	-16096
▁SH	-16097
▁장이	-16098
▁타지	-16099
▁대사관	-16100
▁마르세	-16101
▁표현은	-16102
▁토착종이다	-16103
망은	-16104
시다	-16105
▁인간과	-16106
▁이번에는	-16107
배에	-16108
▁간략	-16109
▁다듬	-16110
▁로페	-16111
▁열을	-16112
▁인과	-16113
▁접수	-16114
▁견해가	-16115
▁정상적인	-16116
▁만들어진다	-16117
끄러	-16118
▁반포	-16119
▁클러	-16120
는다는	-16121
▁가솔린	-16122
▁규칙을	-16123
▁원리를	-16124
▁깜	-16125
내가	-16126
크레	-16127
▁간이	-16128
▁별세	-16129
▁사쓰	-16130
▁직통	-16131
▁채취	-16132
오스트	-16133
▁생명을	-16134
▁만들어져	-16135
▁창설되었다	-16136
됐던	-16137
철학	-16138
▁류큐	-16139
▁많지	-16140
▁타르	-16141
부분에	-16142
운동이	-16143
헝가리	-16144
▁공으로	-16145
▁양자로	-16146
▁미래통합	-16147
▁시즈오카	-16148
▁영화에서	-16149
공화	-16150
버른	-16151
암아	-16152
▁관동	-16153
▁서임	-16154
▁악의	-16155
▁구하기	-16156
▁사용자의	-16157
▁있어서의	-16158
▁해당되는	-16159
▁네이션스컵	-16160
▁프로그램인	-16161
▁딥	-16162
나비	-16163
바가	-16164
▁강간	-16165
▁극락	-16166
▁극우	-16167
▁스와	-16168
▁1-2	-16169
▁경제를	-16170
▁여지가	-16171
▁케이프	-16172
▁에스페란	-16173
균은	-16174
록은	-16175
▁가신	-16176
▁사의	-16177
▁자결	-16178
▁그것의	-16179
▁기관차	-16180
▁남동생	-16181
▁독립적으로	-16182
보장	-16183
손의	-16184
순의	-16185
▁실재	-16186
▁옥타	-16187
▁종군	-16188
▁하키	-16189
그리스	-16190
년경에	-16191
▁왕국이	-16192
▁보호하는	-16193
▁오카야마	-16194
▁경기장으로	-16195
▁숀	-16196
품은	-16197
▁간첩	-16198
▁경인	-16199
▁군부	-16200
▁선천	-16201
▁언니	-16202
▁은혜	-16203
▁콘솔	-16204
▁글로브	-16205
▁영국령	-16206
▁음악이	-16207
▁정상에	-16208
▁독자적으로	-16209
▁쑤	-16210
공단	-16211
광이	-16212
례로	-16213
저의	-16214
▁공감	-16215
▁구이	-16216
▁비늘	-16217
▁항목	-16218
레이트	-16219
▁리스트	-16220
▁수업을	-16221
▁이론이	-16222
▁피라미	-16223
여자중학교	-16224
▁전반적으로	-16225
메트	-16226
티를	-16227
▁5.	-16228
▁수락	-16229
▁음모	-16230
▁이모	-16231
▁죽기	-16232
▁컸다	-16233
▁페레	-16234
사들은	-16235
▁문화에	-16236
▁보내어	-16237
▁치렀고	-16238
▁따라서는	-16239
▁니혼	-16240
▁도래	-16241
▁보리	-16242
제이다	-16243
▁대륙의	-16244
▁대중의	-16245
▁친구가	-16246
▁물리치고	-16247
▁스트라이크	-16248
왕국	-16249
▁누이	-16250
▁야외	-16251
▁일차	-16252
▁점수	-16253
▁폭파	-16254
집으로	-16255
▁정보는	-16256
▁못했지만	-16257
▁죠	-16258
▁기와	-16259
▁느낄	-16260
▁생겼	-16261
층에서	-16262
▁바다의	-16263
▁용인시	-16264
▁이용객	-16265
적이라고	-16266
8,	-16267
▁찔	-16268
바리	-16269
테의	-16270
▁체조	-16271
▁성향을	-16272
▁조직에	-16273
▁밝혀지지	-16274
▁지배하는	-16275
▁프랑스령	-16276
▁아이스하키	-16277
▁아프리카의	-16278
지정	-16279
ink	-16280
▁고이	-16281
▁김인	-16282
▁농어	-16283
▁에레	-16284
▁자서	-16285
▁받았던	-16286
▁이기고	-16287
▁카메룬	-16288
▁새누리당	-16289
9,	-16290
히지	-16291
▁PR	-16292
▁번영	-16293
▁하프	-16294
단했다	-16295
▁40%	-16296
▁너무나	-16297
▁1882	-16298
▁코스타리카	-16299
▁형사소송법	-16300
궁에	-16301
지던	-16302
통상	-16303
▁고흥	-16304
▁낙하	-16305
▁동력	-16306
▁보강	-16307
▁불분	-16308
▁유료	-16309
▁유비	-16310
▁항쟁	-16311
▁최연소	-16312
▁파일럿	-16313
▁발전하였다	-16314
▁프로듀서이다	-16315
등은	-16316
속도	-16317
탄은	-16318
▁고다	-16319
▁우한	-16320
▁허리	-16321
내었다	-16322
익스피	-16323
퍼런스	-16324
▁1.0	-16325
▁목록을	-16326
▁월요일	-16327
▁지구가	-16328
▁패배한	-16329
▁차지했고	-16330
▁국회의원을	-16331
▁모범	-16332
▁보은	-16333
▁조인	-16334
▁평의	-16335
▁API	-16336
▁못했던	-16337
▁쓰기도	-16338
▁에어로	-16339
▁하느님	-16340
▁활동의	-16341
▁유지했다	-16342
▁정당이다	-16343
▁여객철도의	-16344
기며	-16345
대성	-16346
방과	-16347
▁모른	-16348
▁반전	-16349
▁부평	-16350
▁피핀	-16351
▁남았다	-16352
▁뉴욕주	-16353
▁목소리	-16354
▁수준을	-16355
▁종류는	-16356
▁지닌다	-16357
▁행성이	-16358
들이었다	-16359
▁일으킨다	-16360
▁세인트루이스	-16361
승지	-16362
▁세레	-16363
▁우치	-16364
▁혼동	-16365
역까지	-16366
▁단계를	-16367
▁시코쿠	-16368
▁Your	-16369
▁탈락했다	-16370
▁미드필더로	-16371
▁괄	-16372
랑의	-16373
청과	-16374
▁아메	-16375
▁오락	-16376
▁우파	-16377
▁칼로	-16378
▁감옥에	-16379
▁방식에	-16380
▁산업은	-16381
▁수사를	-16382
▁결승전에	-16383
▁개발하였다	-16384
▁싼	-16385
다와	-16386
▁드리	-16387
▁매수	-16388
▁미소	-16389
▁장안	-16390
▁집정	-16391
▁폭풍	-16392
▁단계에	-16393
▁달리는	-16394
▁마음의	-16395
▁방사능	-16396
▁예선에	-16397
것은	-16398
옆면	-16399
▁앞선	-16400
▁생전에	-16401
▁의미이다	-16402
▁플레이어가	-16403
OK	-16404
ru	-16405
전대	-16406
les	-16407
▁AD	-16408
▁가의	-16409
▁국적	-16410
▁새긴	-16411
▁실무	-16412
▁어느날	-16413
▁은메달	-16414
▁카이로	-16415
키스	-16416
포시	-16417
▁분지	-16418
▁지극	-16419
▁추억	-16420
르트의	-16421
▁가족이	-16422
▁급속히	-16423
▁기준이	-16424
▁시간대	-16425
▁진행을	-16426
▁들어가게	-16427
▁실시하는	-16428
▁진출한다	-16429
▁키프로스	-16430
oo	-16431
안보	-16432
▁BM	-16433
▁공고	-16434
▁대역	-16435
▁소극	-16436
▁잠깐	-16437
▁커리	-16438
민스터	-16439
▁미토콘	-16440
▁여배우	-16441
▁옮겨졌다	-16442
▁컴퓨터를	-16443
고속도로의	-16444
달의	-16445
당할	-16446
▁꿈꾸	-16447
▁스트레	-16448
▁체제로	-16449
권에서는	-16450
▁후계자로	-16451
산초등학교	-16452
길에	-16453
스콘	-16454
오에	-16455
타도	-16456
▁겪은	-16457
▁반격	-16458
▁선언을	-16459
▁위치가	-16460
▁역임했으며	-16461
▁피아니스트	-16462
마귀	-16463
부작	-16464
▁En	-16465
▁가타	-16466
▁글꼴	-16467
▁조로	-16468
▁해왕	-16469
좌상은	-16470
▁Sou	-16471
▁int	-16472
▁레오폴	-16473
▁루돌프	-16474
▁오일러	-16475
▁가나가와현	-16476
▁효율적으로	-16477
▁댈	-16478
▁룸	-16479
▁쟈	-16480
불의	-16481
죄로	-16482
▁강철	-16483
▁소외	-16484
▁잃게	-16485
▁레이싱	-16486
▁밖에서	-16487
▁예전에	-16488
▁원정을	-16489
▁미야자키	-16490
▁하나로서	-16491
▁활동했으며	-16492
먼의	-16493
예가	-16494
▁91	-16495
▁유해	-16496
▁재외	-16497
번이나	-16498
선거구	-16499
▁해밀턴	-16500
ec	-16501
남부	-16502
름의	-16503
▁노바	-16504
▁놓인	-16505
▁도네	-16506
▁수로	-16507
▁스퀘	-16508
▁승무	-16509
▁일기	-16510
▁작다	-16511
▁장덕	-16512
▁켈트	-16513
▁10,	-16514
▁구축함	-16515
▁측에서	-16516
▁케이스	-16517
▁단체이다	-16518
▁담당하였다	-16519
▁주인공으로	-16520
동성	-16521
지거나	-16522
펜하겐	-16523
▁보고서	-16524
▁증상을	-16525
▁퍼스트	-16526
스테르담	-16527
▁대항하여	-16528
▁적용된다	-16529
말의	-16530
약이	-16531
출력	-16532
▁사탕	-16533
▁예고	-16534
▁조이	-16535
▁파는	-16536
▁몬테네	-16537
했음에도	-16538
▁대항하는	-16539
▁최고인민	-16540
▁확정되었다	-16541
▁므	-16542
박이	-16543
지않	-16544
▁송신	-16545
▁역도	-16546
▁히메	-16547
시이다	-16548
▁명령에	-16549
▁학생이	-16550
▁여겨지는	-16551
AI	-16552
EX	-16553
여행	-16554
우로	-16555
욱은	-16556
▁국외	-16557
▁장인	-16558
들처럼	-16559
▁자기가	-16560
▁전하고	-16561
▁질문에	-16562
▁그레고리	-16563
공과	-16564
설의	-16565
▁영장	-16566
▁조슈	-16567
▁키보	-16568
▁공군의	-16569
▁상업적	-16570
▁용어가	-16571
▁작업은	-16572
▁말미암아	-16573
▁쿠데타를	-16574
▁통과하는	-16575
세력	-16576
세키	-16577
▁가중	-16578
▁김준	-16579
▁나갈	-16580
▁루키	-16581
▁중합	-16582
드리게	-16583
주이다	-16584
▁교회가	-16585
▁근거가	-16586
▁단계로	-16587
▁생활에	-16588
▁저항을	-16589
▁판정을	-16590
▁Live	-16591
▁결합하여	-16592
근을	-16593
료가	-16594
매김	-16595
모어	-16596
아과	-16597
▁정전	-16598
운드의	-16599
▁SNS	-16600
▁신앙을	-16601
▁신화에	-16602
▁클럽은	-16603
진상규명	-16604
▁첸	-16605
디로	-16606
아마	-16607
▁CM	-16608
▁더비	-16609
▁연립	-16610
▁정인	-16611
일체유	-16612
직하고	-16613
▁문학의	-16614
▁자료는	-16615
▁학교는	-16616
강전에서	-16617
▁나타나지	-16618
▁프랑스를	-16619
▁요구하였다	-16620
▁검거	-16621
▁마린	-16622
▁연동	-16623
▁정자	-16624
▁탄자	-16625
▁포토	-16626
▁피할	-16627
▁픽처	-16628
화되고	-16629
▁관련되어	-16630
▁비판하는	-16631
비언	-16632
훈이	-16633
▁FK	-16634
▁돕는	-16635
▁조셉	-16636
슬라프	-16637
▁느끼는	-16638
▁빠졌다	-16639
▁세우는	-16640
▁아라곤	-16641
▁자라는	-16642
▁1868	-16643
▁불과하다	-16644
▁프랑스로	-16645
▁아프리카계	-16646
와도	-16647
히게	-16648
▁비전	-16649
▁신입	-16650
▁위촉	-16651
▁좀더	-16652
▁강화를	-16653
▁기록과	-16654
▁차례에	-16655
▁기념하기	-16656
▁설립되어	-16657
증에	-16658
▁단원	-16659
▁송도	-16660
▁기타를	-16661
▁본부를	-16662
▁세르게	-16663
▁영원히	-16664
지역에서	-16665
▁벨라루스	-16666
▁서울중앙	-16667
정지	-16668
▁문하	-16669
▁에른	-16670
▁오기	-16671
▁구성은	-16672
▁대학은	-16673
▁체제의	-16674
▁피해자	-16675
▁것이므로	-16676
▁전해지는	-16677
변호	-16678
후는	-16679
▁고딕	-16680
▁관세	-16681
▁서스	-16682
▁와인	-16683
▁표를	-16684
▁본질적	-16685
▁북유럽	-16686
▁지시를	-16687
▁흥미를	-16688
▁흩어져	-16689
▁괌	-16690
곡리	-16691
라나	-16692
막이	-16693
▁교정	-16694
▁로비	-16695
▁산을	-16696
데이터	-16697
슬레틱	-16698
칸옆면	-16699
▁For	-16700
▁곡들은	-16701
▁당국은	-16702
▁등에게	-16703
▁모르고	-16704
▁연맹이	-16705
▁이바지	-16706
▁참석한	-16707
▁황제를	-16708
▁실시했다	-16709
▁올림피아	-16710
▁현장에서	-16711
당시	-16712
루로	-16713
절로	-16714
테른	-16715
▁1:	-16716
▁8,	-16717
▁GO	-16718
▁kt	-16719
▁염려	-16720
▁자작	-16721
▁화학적	-16722
▁Wind	-16723
▁사운드트랙	-16724
▁시작되었고	-16725
.)	-16726
BL	-16727
브가	-16728
▁블로	-16729
▁치는	-16730
하겠다	-16731
▁적었다	-16732
디나비아	-16733
▁아이들을	-16734
▁아직까지	-16735
▁광범위하게	-16736
처의	-16737
프턴	-16738
▁성전	-16739
▁파병	-16740
월드컵	-16741
▁도메인	-16742
▁멜버른	-16743
▁뿌리를	-16744
▁자유당	-16745
▁주민의	-16746
▁설일체유	-16747
▁예전에는	-16748
▁챙	-16749
유와	-16750
▁OB	-16751
▁과테	-16752
▁산호	-16753
▁이이	-16754
▁초콜	-16755
▁화엄	-16756
가지로	-16757
▁가이드	-16758
▁국적을	-16759
▁온도는	-16760
▁이스탄	-16761
▁패하였다	-16762
▁겔	-16763
▁금산	-16764
▁낮다	-16765
▁준수	-16766
▁차츰	-16767
▁휘말	-16768
▁등판해	-16769
▁혁명이	-16770
▁흐른다	-16771
▁가르침을	-16772
▁메릴랜드	-16773
▁홍콩에서	-16774
~8	-16775
▁닷	-16776
▁찢	-16777
저를	-16778
조치	-16779
▁백신	-16780
▁안토	-16781
바이러	-16782
▁거리의	-16783
▁교회에	-16784
▁바탕에	-16785
▁박사는	-16786
▁법칙을	-16787
▁외국어	-16788
▁유럽에	-16789
▁장소를	-16790
▁발표하여	-16791
▁랄	-16792
▁헛	-16793
토프	-16794
▁게리	-16795
▁닮은	-16796
▁러일	-16797
색이다	-16798
센터는	-16799
▁다나카	-16800
▁이사회	-16801
▁프로모	-16802
▁바오	-16803
웨스트	-16804
▁LED	-16805
▁가격은	-16806
▁각자의	-16807
▁공격은	-16808
▁그만큼	-16809
▁도야마	-16810
▁영어를	-16811
▁요시다	-16812
▁찬사를	-16813
▁투자를	-16814
▁더글러스	-16815
▁후반부터	-16816
▁공개적으로	-16817
도상	-16818
파울	-16819
▁미세	-16820
▁연한	-16821
▁포럼	-16822
조사를	-16823
▁맡기도	-16824
▁사상의	-16825
▁제이슨	-16826
▁철학을	-16827
고등법원	-16828
퍼레이션	-16829
▁설립하고	-16830
미치	-16831
양에	-16832
_21	-16833
▁비대	-16834
▁은신	-16835
▁피오	-16836
학과에	-16837
▁정당이	-16838
▁종래의	-16839
▁지상파	-16840
▁어머니와	-16841
▁프랭클린	-16842
▁국가대표로	-16843
누마	-16844
표의	-16845
▁모차	-16846
▁지류	-16847
▁현직	-16848
르트는	-16849
▁교육에	-16850
▁배터리	-16851
▁보이게	-16852
▁사랑과	-16853
▁사형을	-16854
▁안타를	-16855
▁작품인	-16856
▁주었고	-16857
▁철저히	-16858
군인	-16859
그마	-16860
ung	-16861
▁계단	-16862
▁성명	-16863
▁털은	-16864
▁자녀를	-16865
▁카타르	-16866
▁프리스	-16867
▁항복을	-16868
▁비교하여	-16869
노부	-16870
있어	-16871
▁통보	-16872
▁발달한	-16873
▁자료에	-16874
▁직책을	-16875
▁책에서	-16876
▁배우이자	-16877
▁경기장에서	-16878
양과	-16879
천면	-16880
▁누나	-16881
▁법에	-16882
▁세바	-16883
▁잦은	-16884
▁공장을	-16885
▁다리가	-16886
▁동로마	-16887
▁문화는	-16888
▁부근의	-16889
▁어머니를	-16890
~1	-16891
▁보복	-16892
▁중수	-16893
▁카프	-16894
▁pro	-16895
▁다목적	-16896
▁산티아	-16897
▁프랜차	-16898
▁스타일의	-16899
▁없었으며	-16900
▁영국으로	-16901
박을	-16902
코로	-16903
▁상연	-16904
▁적게	-16905
▁전미	-16906
▁징병	-16907
▁토미	-16908
번호는	-16909
▁나타날	-16910
▁언어가	-16911
▁예로는	-16912
▁의원의	-16913
▁파푸아	-16914
▁헤이안	-16915
음으로써	-16916
▁완벽하게	-16917
딘은	-16918
통치	-16919
_20	-16920
▁군정	-16921
▁김윤	-16922
▁폭이	-16923
▁풍속	-16924
▁비교해	-16925
▁이르게	-16926
▁이동하는	-16927
▁분리되었다	-16928
.,	-16929
길은	-16930
마케	-16931
문서	-16932
심에	-16933
해로	-16934
▁공성	-16935
▁송파	-16936
▁악마	-16937
▁전락	-16938
▁호쿠	-16939
시켜야	-16940
▁나이는	-16941
▁사실에	-16942
▁유니언	-16943
▁한다면	-16944
▁유니버설	-16945
▁프로세서	-16946
▁프로야구	-16947
순이	-16948
였다는	-16949
▁가라앉	-16950
▁공간에	-16951
▁동메달	-16952
▁형식은	-16953
▁언급하였다	-16954
분한	-16955
시브	-16956
증과	-16957
커를	-16958
토크	-16959
_17	-16960
▁지자	-16961
▁차관	-16962
분부터	-16963
페스트	-16964
▁걸쳐서	-16965
▁맡았던	-16966
▁시간과	-16967
▁중요하게	-16968
가며	-16969
자금	-16970
▁아다	-16971
▁원활	-16972
▁총을	-16973
▁칭송	-16974
▁강의를	-16975
▁비타민	-16976
▁서로를	-16977
▁은하의	-16978
▁테네시	-16979
▁행동이	-16980
거리에서	-16981
▁공장에서	-16982
▁할리우드	-16983
AE	-16984
경쟁	-16985
분열	-16986
선형	-16987
▁경과	-16988
▁말리	-16989
▁엄마	-16990
▁교사로	-16991
▁연주를	-16992
▁이론과	-16993
▁제한을	-16994
하더라도	-16995
나파	-16996
▁이누	-16997
▁첼시	-16998
▁합천	-16999
▁했기	-17000
▁IOC	-17001
▁급격한	-17002
▁단체인	-17003
▁비중이	-17004
▁근본적인	-17005
▁컴퓨터의	-17006
▁코펜하겐	-17007
TE	-17008
▁맬	-17009
쉬는	-17010
gin	-17011
▁럭비	-17012
▁맛을	-17013
▁불행	-17014
▁씨는	-17015
▁아와	-17016
▁이코	-17017
▁가공의	-17018
▁몇몇의	-17019
▁무역을	-17020
▁병력이	-17021
▁훈장을	-17022
▁스크린도어가	-17023
▁멍	-17024
녀의	-17025
용과	-17026
▁맡는	-17027
▁연희	-17028
▁하니	-17029
▁후배	-17030
▁경력이	-17031
▁샌디에	-17032
▁않다는	-17033
▁존재로	-17034
이었다는	-17035
▁나카무라	-17036
▁인기있는	-17037
▁우크라이나의	-17038
▁콕	-17039
개씩	-17040
그가	-17041
사자	-17042
승은	-17043
티넨	-17044
▁보령	-17045
▁상법	-17046
▁자회	-17047
▁게이오	-17048
▁계획의	-17049
▁시신은	-17050
▁의회에	-17051
도서관은	-17052
▁일본군은	-17053
▁치명적인	-17054
카에	-17055
▁높여	-17056
▁압록	-17057
▁재상	-17058
클리드	-17059
▁모았다	-17060
▁불확실	-17061
▁전역을	-17062
▁파견하여	-17063
번지	-17064
주아	-17065
통과	-17066
황은	-17067
ood	-17068
▁넣는	-17069
▁달고	-17070
▁사인	-17071
▁커플	-17072
▁해부	-17073
궐선거	-17074
▁3.0	-17075
▁달했다	-17076
▁메시지	-17077
▁시절을	-17078
▁오리온	-17079
▁천천히	-17080
▁코드는	-17081
▁Part	-17082
▁러시아와	-17083
▁이탈리아는	-17084
개미	-17085
광은	-17086
레니	-17087
송의	-17088
캠퍼	-17089
▁지오	-17090
▁캐시	-17091
▁하행	-17092
▁장점이	-17093
▁지방은	-17094
▁크리에	-17095
전달	-17096
▁동등	-17097
타나베	-17098
▁결혼한	-17099
▁상원의	-17100
▁요구에	-17101
▁의약품	-17102
▁줄리아	-17103
▁체제가	-17104
▁의과대학	-17105
▁04	-17106
▁말과	-17107
▁인원	-17108
▁잡는	-17109
▁포식	-17110
▁하코	-17111
▁상에서	-17112
▁성명을	-17113
▁중심을	-17114
▁지위에	-17115
▁활동과	-17116
▁회사에	-17117
▁쿠웨이트	-17118
▁투표에서	-17119
ai	-17120
▁널	-17121
수단	-17122
하되	-17123
▁격려	-17124
▁공휴	-17125
▁온다	-17126
▁회귀	-17127
갔으나	-17128
겠지만	-17129
▁감염된	-17130
▁느끼게	-17131
▁다카라	-17132
▁지역에는	-17133
▁프란시스코	-17134
▁인도네시아의	-17135
내려	-17136
바위	-17137
재와	-17138
컵을	-17139
lan	-17140
▁세습	-17141
▁실리	-17142
▁그밖에	-17143
▁나트륨	-17144
▁밝혀진	-17145
▁브뤼셀	-17146
▁왕조가	-17147
▁작사가	-17148
시키는데	-17149
▁게오르크	-17150
▁들어왔다	-17151
샤오	-17152
-08	-17153
▁무언	-17154
▁안녕	-17155
▁월터	-17156
▁파고	-17157
▁공격이	-17158
▁그리는	-17159
▁시신을	-17160
▁준우승에	-17161
군주	-17162
기동	-17163
살에	-17164
▁박성	-17165
▁자책	-17166
▁정몽	-17167
▁구성을	-17168
▁선거인	-17169
▁1893	-17170
▁사회민주	-17171
▁공개하였다	-17172
▁슛	-17173
러와	-17174
호대	-17175
▁김승	-17176
▁봉화	-17177
▁여인	-17178
으려는	-17179
▁모로코	-17180
▁언론의	-17181
▁함대를	-17182
▁현대에	-17183
▁문서이다	-17184
▁방지하기	-17185
▁우루과이	-17186
▁갚	-17187
바오	-17188
승이	-17189
▁기뻐	-17190
▁면을	-17191
▁몸은	-17192
▁백과	-17193
▁송출	-17194
▁입수	-17195
▁해역	-17196
이트는	-17197
▁계통의	-17198
▁서양의	-17199
▁주지사	-17200
▁전적으로	-17201
극의	-17202
어사	-17203
▁BC	-17204
▁무술	-17205
▁라오스	-17206
▁귀국하여	-17207
▁기관이다	-17208
▁들어오는	-17209
▁아오모리	-17210
▁히틀러는	-17211
▁설계되었다	-17212
줄기	-17213
▁문과	-17214
▁부다	-17215
▁따르고	-17216
▁시이다	-17217
▁알렉스	-17218
▁요청에	-17219
▁공화국이	-17220
▁살아남은	-17221
▁앨범으로	-17222
▁포함되지	-17223
▁푸에르토리	-17224
▁무서	-17225
▁이메	-17226
▁정이	-17227
▁집착	-17228
▁클루	-17229
▁것과는	-17230
▁로스쿨	-17231
▁발전소	-17232
▁볼티모	-17233
▁사이먼	-17234
▁책으로	-17235
▁침공을	-17236
▁받았는데	-17237
▁노스캐롤라이나	-17238
DA	-17239
티즌	-17240
_18	-17241
▁불변	-17242
▁1-1	-17243
▁가리는	-17244
▁질량을	-17245
▁거리에서	-17246
▁분포하고	-17247
▁유아기를	-17248
▁스칸디나비아	-17249
PG	-17250
▁촛	-17251
▁퉁	-17252
요가	-17253
회관	-17254
▁그릴	-17255
▁대출	-17256
▁도둑	-17257
▁상록	-17258
▁재팬	-17259
▁판례	-17260
▁450	-17261
▁가문이	-17262
▁강하다	-17263
▁활용하여	-17264
▁효율적인	-17265
보스	-17266
▁과장	-17267
▁읽는	-17268
▁조롱	-17269
▁해피	-17270
명이며	-17271
▁피렌체	-17272
▁공간으로	-17273
▁현대자동차	-17274
검은	-17275
천과	-17276
회원	-17277
▁규탄	-17278
▁답변	-17279
▁반감	-17280
나라가	-17281
로스의	-17282
▁무엇이	-17283
▁장기간	-17284
▁증거는	-17285
▁전달하는	-17286
▁선고받았다	-17287
▁향토문화유산	-17288
▁at	-17289
▁군용	-17290
▁한큐	-17291
▁함흥	-17292
▁해태	-17293
전에는	-17294
▁경주시	-17295
▁당선된	-17296
▁비중을	-17297
▁서바이	-17298
▁운행이	-17299
▁작가가	-17300
▁지내는	-17301
▁스페인은	-17302
▁승리했다	-17303
마니	-17304
▁숨을	-17305
▁요격	-17306
▁지침	-17307
▁페로	-17308
▁헌액	-17309
▁홍수	-17310
▁Day	-17311
▁광고를	-17312
▁끌어들	-17313
▁로마로	-17314
▁안되는	-17315
▁패했다	-17316
시키면서	-17317
▁미쓰비시	-17318
▁지칭하는	-17319
▁유래하였다	-17320
링겐	-17321
▁94	-17322
▁설문	-17323
▁포털	-17324
▁구조와	-17325
▁반란이	-17326
▁병사를	-17327
▁일반화	-17328
▁수행하고	-17329
▁입단하여	-17330
▁진행한다	-17331
르다	-17332
일인	-17333
ool	-17334
▁나미	-17335
▁알폰	-17336
▁기관이	-17337
▁미루어	-17338
▁캐서린	-17339
▁둘러싸인	-17340
▁암스테르담	-17341
▁제정되었다	-17342
년동계올림픽	-17343
강한	-17344
로워	-17345
변속	-17346
오브	-17347
▁나일	-17348
▁노후	-17349
▁별을	-17350
▁보낼	-17351
▁산시	-17352
▁수목	-17353
▁양측	-17354
▁외래	-17355
▁우세	-17356
억원을	-17357
전부터	-17358
청소년	-17359
▁것들을	-17360
▁맞았다	-17361
▁멤버가	-17362
▁사무를	-17363
▁소식이	-17364
▁평가가	-17365
▁콘서트를	-17366
▁활동으로	-17367
▁코로나바이러스	-17368
we	-17369
남자	-17370
니언	-17371
리쿠	-17372
▁서열	-17373
▁재선	-17374
놓았다	-17375
되다가	-17376
▁계속된	-17377
▁사용하게	-17378
▁시설관리	-17379
▁어항이다	-17380
득점	-17381
선택	-17382
▁대포	-17383
▁리조	-17384
▁오산	-17385
▁자카	-17386
▁파우	-17387
전까지	-17388
▁미래에	-17389
▁심리적	-17390
▁주파수	-17391
ublic	-17392
▁목소리가	-17393
▁플랫폼을	-17394
IR	-17395
▁김선	-17396
▁농경	-17397
미술관	-17398
▁조선후	-17399
▁지붕은	-17400
▁문신이다	-17401
▁시리즈이다	-17402
니티	-17403
두가	-17404
질에	-17405
화문	-17406
▁도출	-17407
▁리에	-17408
▁영천	-17409
▁육체	-17410
▁청계	-17411
▁팔아	-17412
이트를	-17413
▁대사헌	-17414
▁만난다	-17415
▁접근을	-17416
▁것이지만	-17417
▁대규모의	-17418
▁국제적으로	-17419
서비	-17420
플래	-17421
훈의	-17422
▁고추	-17423
▁전구	-17424
▁찾고	-17425
▁검찰은	-17426
▁독일군의	-17427
▁명확하게	-17428
▁스페인어	-17429
▁움직임이	-17430
짐에	-17431
▁기쁨	-17432
▁부당	-17433
▁상기	-17434
▁인자	-17435
달라는	-17436
대학을	-17437
▁과정의	-17438
▁세상의	-17439
▁전원이	-17440
▁총리로	-17441
▁공항으로	-17442
▁발견되며	-17443
▁성장했다	-17444
▁요하네스	-17445
▁채택되었다	-17446
네를	-17447
사항	-17448
쾌한	-17449
▁도피	-17450
▁모빌	-17451
▁재차	-17452
▁고유한	-17453
▁기관의	-17454
▁비율을	-17455
▁세네갈	-17456
▁연설을	-17457
▁장관이	-17458
▁전투로	-17459
▁계속되는	-17460
▁명령했다	-17461
▁셰익스피	-17462
▁맛이	-17463
▁싶다	-17464
▁영암	-17465
▁지는	-17466
▁혐오	-17467
▁미래를	-17468
▁자세를	-17469
▁펠리페	-17470
방향으로	-17471
▁동안에는	-17472
▁보이지만	-17473
▁이해하는	-17474
▁주인공이	-17475
▁추정하고	-17476
▁아틀레티코	-17477
나드	-17478
녀가	-17479
맨의	-17480
모르	-17481
사라	-17482
아라	-17483
임의	-17484
표로	-17485
▁달에	-17486
▁위를	-17487
▁철저한	-17488
맥을	-17489
부도	-17490
▁기성	-17491
▁냉전	-17492
▁다발	-17493
▁다저	-17494
▁돕기	-17495
▁암석	-17496
▁워드	-17497
▁이회	-17498
▁점거	-17499
분까지	-17500
협회의	-17501
▁여성은	-17502
▁위구르	-17503
▁중성자	-17504
▁클라크	-17505
▁일대에서	-17506
▁일제강점기	-17507
/4	-17508
▁쪼	-17509
대리	-17510
만년	-17511
청장	-17512
▁앤서	-17513
▁증폭	-17514
▁해독	-17515
기관이	-17516
문화의	-17517
▁그림은	-17518
▁생각한	-17519
▁순서로	-17520
▁오세아	-17521
▁집단의	-17522
▁매끄러운	-17523
▁이용되고	-17524
51	-17525
손이	-17526
피오	-17527
▁엔터	-17528
▁인력	-17529
▁쳤다	-17530
투스는	-17531
▁인정을	-17532
▁국립공원	-17533
▁추정되며	-17534
▁클럽에서	-17535
비노	-17536
성장	-17537
아카	-17538
▁경호	-17539
▁모하	-17540
▁불완	-17541
▁산요	-17542
▁신원	-17543
▁에마	-17544
▁에반	-17545
강으로	-17546
약으로	-17547
▁성적이	-17548
▁알제리	-17549
▁예선을	-17550
▁심지어는	-17551
▁없으므로	-17552
▁제작했다	-17553
ave	-17554
▁기니	-17555
▁스텝	-17556
▁전산	-17557
▁택시	-17558
▁폐렴	-17559
▁별명이	-17560
▁사회가	-17561
▁성격의	-17562
▁신주쿠	-17563
▁팬들의	-17564
▁애슬레틱	-17565
▁회장으로	-17566
▁승강장으로	-17567
▁인도차이나	-17568
▁그외	-17569
▁본인	-17570
▁수복	-17571
▁얘기	-17572
▁제로	-17573
▁찰리	-17574
▁평민	-17575
당했고	-17576
▁3-1	-17577
▁내무부	-17578
▁반정부	-17579
▁부르게	-17580
▁사업이	-17581
▁수요가	-17582
▁항성의	-17583
▁Girl	-17584
▁뿐이었다	-17585
든다	-17586
절은	-17587
피크	-17588
▁너머	-17589
▁때를	-17590
▁승용	-17591
▁오디	-17592
▁자제	-17593
▁재난	-17594
개이다	-17595
▁1888	-17596
▁없었지만	-17597
▁이론에서	-17598
▁증가하는	-17599
▁측정하는	-17600
▁현대적인	-17601
개인	-17602
섬은	-17603
움이	-17604
직이	-17605
패의	-17606
▁당진	-17607
▁바와	-17608
▁사슴	-17609
방송을	-17610
▁브루스	-17611
▁키예프	-17612
▁스테이션	-17613
▁아시아의	-17614
▁연합군은	-17615
▁체결했다	-17616
▁필수적인	-17617
▁대한민국민	-17618
"&	-17619
▁팡	-17620
고지	-17621
▁글렌	-17622
▁이범	-17623
▁충렬	-17624
▁음반인	-17625
▁작전은	-17626
▁from	-17627
▁야마모토	-17628
▁잃어버린	-17629
▁자리하고	-17630
▁장소에서	-17631
▁유래되었다	-17632
▁미토콘드리아	-17633
공장	-17634
▁LC	-17635
▁일요	-17636
▁관료로	-17637
▁머리가	-17638
▁산스크	-17639
▁상태는	-17640
▁주도는	-17641
▁중앙의	-17642
▁행위는	-17643
▁회장이	-17644
EP	-17645
동원	-17646
수입	-17647
언론	-17648
해질	-17649
ade	-17650
▁2~3	-17651
▁높았다	-17652
▁상소를	-17653
▁필요하다고	-17654
모노	-17655
몬트	-17656
뮤얼	-17657
하신	-17658
활성	-17659
▁볼프	-17660
▁산에	-17661
▁용서	-17662
▁직책	-17663
▁취한	-17664
▁측이	-17665
시켜서	-17666
▁극도로	-17667
▁밀도가	-17668
▁쌓았다	-17669
▁참여를	-17670
▁6.25	-17671
▁벌어지는	-17672
▁네트워크를	-17673
봉의	-17674
약은	-17675
하길	-17676
▁거인	-17677
▁결핵	-17678
▁길다	-17679
▁축성	-17680
▁탈취	-17681
자리는	-17682
지라도	-17683
▁방송이	-17684
▁역할로	-17685
▁체결된	-17686
▁거점으로	-17687
▁도입했다	-17688
▁소말리아	-17689
기일	-17690
바람	-17691
제인	-17692
타인	-17693
▁오대	-17694
▁천왕	-17695
▁사망자	-17696
▁진출할	-17697
▁케플러	-17698
▁핵융합	-17699
사회주의	-17700
▁Univers	-17701
▁뢰	-17702
기통	-17703
키에	-17704
▁신민	-17705
▁원천	-17706
▁위그	-17707
▁퍼즐	-17708
국이다	-17709
두었다	-17710
▁GNU	-17711
▁기원은	-17712
▁모델의	-17713
▁원소의	-17714
▁의회가	-17715
▁지점에서	-17716
▁활약으로	-17717
▁친일반민족행위진상규명	-17718
5,	-17719
감사	-17720
▁구한	-17721
▁넓고	-17722
▁쏘아	-17723
▁어우	-17724
▁일리	-17725
▁청송	-17726
사관학교	-17727
▁미나모토	-17728
▁줄어들었다	-17729
▁프랑스군은	-17730
▁굶	-17731
머가	-17732
사다	-17733
▁간혹	-17734
▁딸과	-17735
▁색이	-17736
▁현을	-17737
▁Sch	-17738
▁생산이	-17739
▁숫자는	-17740
▁시위가	-17741
▁1892	-17742
▁반대하였다	-17743
▁최고인민회의	-17744
▁사영	-17745
▁유희	-17746
로스는	-17747
르타뉴	-17748
▁기술과	-17749
▁나무를	-17750
▁도르트	-17751
▁두개의	-17752
▁아브라	-17753
▁하늘을	-17754
▁프린스턴	-17755
가미	-17756
문인	-17757
비안	-17758
▁남하	-17759
▁늦은	-17760
▁레일	-17761
▁번갈	-17762
쳤으나	-17763
▁가깝게	-17764
▁구조에	-17765
▁대사를	-17766
▁아들의	-17767
▁오이타	-17768
▁측면을	-17769
NG	-17770
땃쥐	-17771
소시	-17772
▁DF	-17773
▁급증	-17774
▁디에	-17775
▁배운	-17776
▁왕과	-17777
▁정려	-17778
연합회	-17779
▁간사이	-17780
▁과학의	-17781
▁북서부	-17782
▁이론적	-17783
▁자연의	-17784
대군	-17785
루이	-17786
예수	-17787
-50	-17788
▁So	-17789
▁관상	-17790
▁맞춤	-17791
▁시직	-17792
▁인가	-17793
▁장치가	-17794
▁정의에	-17795
▁예정이었다	-17796
per	-17797
▁생생	-17798
▁황도	-17799
차전은	-17800
land	-17801
▁시대는	-17802
▁이해를	-17803
▁전기를	-17804
▁주계열	-17805
▁장남으로	-17806
▁지나간다	-17807
디드	-17808
시경	-17809
워즈	-17810
▁성악	-17811
▁재래	-17812
리스가	-17813
스터의	-17814
▁그룹에	-17815
▁행동은	-17816
▁아카데미상	-17817
▁국가대표팀에서	-17818
공개	-17819
루엔	-17820
제일	-17821
좌의	-17822
▁당황	-17823
▁리차	-17824
▁배달	-17825
▁배에	-17826
▁버마	-17827
▁진한	-17828
▁커서	-17829
▁하급	-17830
▁0.0	-17831
▁대전차	-17832
▁데이빗	-17833
▁도로는	-17834
▁추가된	-17835
▁1886	-17836
▁기록이다	-17837
▁라이브러	-17838
▁모습이다	-17839
▁경제적으로	-17840
오자	-17841
자문	-17842
▁과연	-17843
▁나간	-17844
▁바울	-17845
▁아치	-17846
프로세	-17847
▁바다를	-17848
▁안전을	-17849
▁제안한	-17850
▁파나마	-17851
▁핼	-17852
원수	-17853
▁강행	-17854
▁고장	-17855
▁관제	-17856
▁나우	-17857
▁목회	-17858
나에서	-17859
▁같다고	-17860
▁성남시	-17861
▁가능성도	-17862
▁가르치는	-17863
▁국가들은	-17864
▁에른스트	-17865
▁이용하고	-17866
슨을	-17867
율과	-17868
층과	-17869
▁노보	-17870
▁농부	-17871
▁법은	-17872
▁보며	-17873
▁자진	-17874
▁240	-17875
▁되므로	-17876
▁튀르크	-17877
▁Tour	-17878
▁대한민국에는	-17879
비르	-17880
▁만드	-17881
▁메카	-17882
▁모금	-17883
▁물과	-17884
▁정보의	-17885
▁채널을	-17886
▁무시하고	-17887
▁제작하였다	-17888
구스	-17889
사적	-17890
위치	-17891
처가	-17892
.19	-17893
▁도스	-17894
▁불필	-17895
▁나누는	-17896
▁서부의	-17897
▁일주일	-17898
▁책임이	-17899
▁취임한	-17900
▁1876	-17901
▁국회에서	-17902
▁데스크톱	-17903
▁분류한다	-17904
▁소행	-17905
▁손잡	-17906
▁양평	-17907
▁증진	-17908
▁청색	-17909
▁카바	-17910
테스는	-17911
▁전해지고	-17912
▁프란치스코	-17913
▁마다가스카르	-17914
▁씻	-17915
옥은	-17916
▁몰두	-17917
▁미성	-17918
▁변광	-17919
▁온난	-17920
▁후예	-17921
▁손상을	-17922
▁원소는	-17923
▁가와사키	-17924
▁적용되는	-17925
▁함경북도	-17926
폐합	-17927
▁나뭇	-17928
▁익산	-17929
▁카툰	-17930
▁후진	-17931
▁1,0	-17932
▁북동부	-17933
▁향상을	-17934
▁니콜라스	-17935
▁대비하여	-17936
▁분류하고	-17937
▁브르타뉴	-17938
▁콘테스트	-17939
매를	-17940
호마	-17941
EST	-17942
▁CH	-17943
▁급히	-17944
▁온라	-17945
▁일화	-17946
▁접해	-17947
▁청도	-17948
▁걸리는	-17949
▁공세를	-17950
▁길이를	-17951
▁두각을	-17952
▁떠난다	-17953
▁머리카	-17954
▁밴드가	-17955
▁탁월한	-17956
▁1866	-17957
▁지명되었다	-17958
행과	-17959
▁SA	-17960
▁갖춰	-17961
▁원반	-17962
▁쪽이	-17963
▁콜레	-17964
▁0.5	-17965
▁USB	-17966
▁것이기	-17967
▁기여한	-17968
▁브래드	-17969
▁시기가	-17970
▁아카이	-17971
▁연주자	-17972
▁우간다	-17973
▁이사를	-17974
▁자격이	-17975
▁작가로	-17976
▁줄이기	-17977
대학으로	-17978
▁사용하던	-17979
▁서비스는	-17980
▁에너지의	-17981
▁조약으로	-17982
▁프레임워	-17983
▁산스크리트	-17984
▁민족문제연구소의	-17985
달라	-17986
렌은	-17987
분간	-17988
ble	-17989
▁매직	-17990
▁스킴	-17991
▁시속	-17992
한국당	-17993
▁가지지	-17994
▁결합을	-17995
▁속이다	-17996
▁제한이	-17997
▁주제에	-17998
▁익스플로	-17999
▁죽음으로	-18000
▁포유류의	-18001
▁개편되었다	-18002
월이	-18003
▁당내	-18004
▁대접	-18005
▁미에	-18006
▁순차	-18007
▁쉽다	-18008
▁옥천	-18009
▁거쳤다	-18010
▁기억을	-18011
▁일반적	-18012
▁종이다	-18013
▁1861	-18014
▁프로세스	-18015
▁판매되었다	-18016
네오	-18017
히드	-18018
▁거점	-18019
▁어업	-18020
대회에	-18021
세포의	-18022
▁교류를	-18023
▁리베르	-18024
▁번째는	-18025
▁타인의	-18026
▁국가보안	-18027
▁국가대표팀은	-18028
질환	-18029
▁대덕	-18030
▁리튬	-18031
▁밀란	-18032
▁사신	-18033
▁신종	-18034
▁우두	-18035
▁호랑	-18036
▁홍성	-18037
▁사후에	-18038
▁소유의	-18039
▁수원시	-18040
▁틴	-18041
맨스	-18042
축제	-18043
▁선봉	-18044
▁조현	-18045
▁타락	-18046
미사일	-18047
▁가문을	-18048
▁뛰어넘	-18049
▁먹이는	-18050
▁자료로	-18051
▁율리우스	-18052
목과	-18053
수염	-18054
▁pr	-18055
▁갈래	-18056
▁능동	-18057
▁말고	-18058
▁서인	-18059
▁오해	-18060
▁이별	-18061
▁테라	-18062
▁화랑	-18063
▁원칙에	-18064
▁이름에	-18065
▁출전을	-18066
표준	-18067
▁고마	-18068
▁날은	-18069
▁신진	-18070
▁적분	-18071
▁절벽	-18072
▁정제	-18073
라에몽	-18074
▁외부의	-18075
▁이같은	-18076
▁가르시아	-18077
▁존재했다	-18078
▁중소기업	-18079
▁받아들이지	-18080
▁아이디어를	-18081
▁전라남도의	-18082
투르	-18083
함대	-18084
▁굴절	-18085
▁번도	-18086
▁조에	-18087
▁단체가	-18088
▁단체는	-18089
▁보이스	-18090
▁있듯이	-18091
▁종교는	-18092
▁초콜릿	-18093
스케이팅	-18094
▁구성하고	-18095
다양	-18096
료의	-18097
제철	-18098
탄이	-18099
▁복권	-18100
▁비어	-18101
▁아흐	-18102
세이다	-18103
시간은	-18104
▁차세대	-18105
▁콘스탄티	-18106
▁취득하였다	-18107
늦게	-18108
데자	-18109
마라	-18110
이론	-18111
▁발동	-18112
▁변동	-18113
▁에두	-18114
▁입는	-18115
▁팔작	-18116
기면서	-18117
▁"20	-18118
▁Col	-18119
▁지원이	-18120
▁태생의	-18121
▁학문적	-18122
▁공화국은	-18123
▁덧붙였다	-18124
▁파괴되었다	-18125
▁국보	-18126
▁섭정	-18127
▁여주	-18128
▁하와	-18129
▁TBS	-18130
▁거뒀다	-18131
▁새뮤얼	-18132
▁앵글로	-18133
▁연맹의	-18134
법원에서	-18135
▁거칠	-18136
▁조영	-18137
▁즐거	-18138
▁캄파	-18139
▁한가	-18140
마리의	-18141
웠으며	-18142
▁것인가	-18143
▁레인저	-18144
▁방정식	-18145
▁위치로	-18146
▁천황은	-18147
▁하겠다	-18148
▁효고현	-18149
▁살펴보면	-18150
신앙	-18151
지어	-18152
▁결핍	-18153
▁상이	-18154
▁섞여	-18155
▁주권	-18156
▁중위	-18157
▁치환	-18158
사에게	-18159
lack	-18160
▁남편이	-18161
▁아이콘	-18162
▁예정인	-18163
▁행복한	-18164
▁1864	-18165
▁라이선스	-18166
▁충청남도의	-18167
▁몹	-18168
▁감자	-18169
▁부러	-18170
▁샤이	-18171
▁수교	-18172
▁예멘	-18173
미트리	-18174
학으로	-18175
▁성적은	-18176
▁거치면서	-18177
▁인도에서	-18178
▁가면라이더	-18179
▁룬	-18180
문트	-18181
척이	-18182
코토	-18183
하리	-18184
▁공명	-18185
▁나지	-18186
▁더빙	-18187
▁보자	-18188
▁임원	-18189
▁주세	-18190
▁한달	-18191
▁화해	-18192
지역을	-18193
▁108	-18194
▁교황은	-18195
▁버스를	-18196
▁별자리	-18197
▁비정상	-18198
▁설계를	-18199
잉글랜드	-18200
지역으로	-18201
▁생각하자	-18202
ep	-18203
관인	-18204
라르	-18205
▁상소	-18206
▁신을	-18207
▁양대	-18208
▁위생	-18209
▁좌의	-18210
세에서	-18211
▁올리브	-18212
▁인물은	-18213
▁지분을	-18214
▁보호하고	-18215
▁룽	-18216
▁관점	-18217
▁조회	-18218
▁편이	-18219
▁남동쪽	-18220
▁등지에	-18221
▁성에서	-18222
▁소재한	-18223
▁집합을	-18224
▁투쟁을	-18225
▁포유류	-18226
되었음을	-18227
▁취소되었다	-18228
ational	-18229
살을	-18230
심사	-18231
▁ML	-18232
▁띄는	-18233
▁병자	-18234
▁성폭	-18235
▁자민	-18236
자리가	-18237
▁노선에	-18238
▁예술의	-18239
▁패밀리	-18240
▁포로가	-18241
ition	-18242
▁운행되고	-18243
▁이산화탄	-18244
▁종목이다	-18245
▁`	-18246
▁늪	-18247
다오	-18248
정사	-18249
택은	-18250
▁남인	-18251
▁뚫고	-18252
▁빅뱅	-18253
▁1.2	-18254
▁믿는다	-18255
▁부부는	-18256
▁않았을	-18257
▁이동할	-18258
▁적당한	-18259
▁조약은	-18260
▁없었다고	-18261
여자대학교	-18262
리드	-18263
있지	-18264
정류	-18265
▁공예	-18266
▁사와	-18267
▁인적	-18268
▁읽을	-18269
단에는	-18270
▁본인은	-18271
▁사람에	-18272
▁아내가	-18273
▁인해서	-18274
▁조화를	-18275
▁대다수의	-18276
▁도카이도	-18277
▁임명했다	-18278
달마	-18279
배로	-18280
태가	-18281
ons	-18282
▁남작	-18283
▁내며	-18284
▁다쓰	-18285
▁열려	-18286
▁정주	-18287
▁파벌	-18288
▁헌병	-18289
로니아	-18290
stem	-18291
▁로베르	-18292
▁여자가	-18293
▁정도는	-18294
▁종류로	-18295
▁토트넘	-18296
▁국민들의	-18297
||	-18298
거스	-18299
주사	-18300
질과	-18301
_19	-18302
▁다우	-18303
▁만날	-18304
▁수중	-18305
▁예일	-18306
▁인형	-18307
▁칭기	-18308
▁한겨	-18309
시간에	-18310
▁배치된	-18311
▁사업은	-18312
▁엔진의	-18313
▁제공할	-18314
▁초부터	-18315
▁확인된	-18316
▁보고서를	-18317
▁아이치현	-18318
▁주변에서	-18319
▁인정받았다	-18320
▁현재까지도	-18321
gr	-18322
음반	-18323
탑을	-18324
▁구호	-18325
▁도이	-18326
▁정경	-18327
▁1,2	-18328
▁버린다	-18329
▁부모는	-18330
▁아들은	-18331
▁직후에	-18332
▁증가하였다	-18333
통에	-18334
▁귀속	-18335
▁복선	-18336
▁알맞	-18337
▁청량	-18338
▁후작	-18339
▁3-0	-18340
▁60%	-18341
▁건강한	-18342
▁동서로	-18343
▁이어지고	-18344
아에	-18345
움의	-18346
▁말도	-18347
▁자코	-18348
▁위스콘	-18349
▁이제는	-18350
▁이주한	-18351
▁1887	-18352
▁진출하여	-18353
▁제시하였다	-18354
▁애니메이션이다	-18355
확인	-18356
▁공자	-18357
▁남산	-18358
▁단말	-18359
▁명종	-18360
▁종신	-18361
▁빠져나	-18362
▁수페르	-18363
▁연맹은	-18364
▁이뤄진	-18365
▁1850	-18366
▁못하도록	-18367
▁성씨이다	-18368
▁연루되어	-18369
▁이베리아	-18370
▁공헌하였다	-18371
▁꽂	-18372
물리	-18373
▁고트	-18374
▁뉴턴	-18375
▁대도	-18376
▁민감	-18377
▁민정	-18378
▁포격	-18379
▁공헌을	-18380
▁방사선	-18381
▁없으면	-18382
▁자유와	-18383
▁적외선	-18384
▁남베트남	-18385
▁테스트를	-18386
오던	-18387
택이	-18388
학술	-18389
ike	-18390
▁군벌	-18391
▁마키	-18392
▁머신	-18393
▁셰이	-18394
▁이항	-18395
▁허블	-18396
데스는	-18397
▁네티즌	-18398
▁다시금	-18399
▁성매매	-18400
▁엑스박스	-18401
▁쿠빌라이	-18402
년엔	-18403
백의	-18404
▁각국	-18405
▁날로	-18406
▁물체	-18407
▁박상	-18408
▁저자	-18409
디아의	-18410
▁미카엘	-18411
▁산맥의	-18412
▁에이전	-18413
▁오스틴	-18414
▁자국의	-18415
체육대회	-18416
▁Rock	-18417
▁기념하는	-18418
▁소설이다	-18419
▁정보통신	-18420
▁주전으로	-18421
▁중앙정보	-18422
▁한국독립	-18423
▁Inter	-18424
궤도	-18425
대수	-18426
운트	-18427
▁끼고	-18428
▁조계	-18429
▁중등	-18430
▁코호	-18431
나가의	-18432
▁기대를	-18433
▁아무리	-18434
▁교회에서	-18435
▁대중교통	-18436
▁스트리밍	-18437
▁윌리엄스	-18438
▁시작되었으며	-18439
께끼	-18440
남에	-18441
바와	-18442
포타	-18443
.12	-18444
▁DD	-18445
▁당뇨	-18446
▁울릉	-18447
▁이창	-18448
▁캐논	-18449
코리아	-18450
▁글자를	-18451
▁노동당	-18452
▁대체할	-18453
▁법원은	-18454
▁전자는	-18455
▁조사한	-18456
▁달라진다	-18457
▁도미니카	-18458
▁주변에는	-18459
▁무산되었다	-18460
▁일반적이다	-18461
고등보통학교	-18462
마켓	-18463
인칭	-18464
초와	-18465
▁개미	-18466
▁거세	-18467
▁도사	-18468
▁뱅크	-18469
▁세분	-18470
▁신천	-18471
라이드	-18472
▁왕조를	-18473
▁저지대	-18474
▁하노버	-18475
▁고향으로	-18476
▁거절하였다	-18477
상황	-18478
인산	-18479
장사	-18480
▁Ge	-18481
▁동사	-18482
지느러	-18483
ject	-18484
▁공격할	-18485
▁지나면	-18486
▁브리티시	-18487
▁증권거래	-18488
▁사이에서는	-18489
▁Do	-18490
▁감찰	-18491
▁거룩	-18492
▁독서	-18493
▁베풀	-18494
▁산청	-18495
▁성북	-18496
▁시우	-18497
▁시크	-18498
▁위함	-18499
▁채굴	-18500
▁파주	-18501
▁기초한	-18502
▁남자의	-18503
▁동부에	-18504
▁설계된	-18505
▁세월호	-18506
▁화제를	-18507
▁한국프로	-18508
gh	-18509
명도	-18510
움과	-18511
▁예가	-18512
▁참수	-18513
▁퇴장	-18514
▁편안	-18515
정부를	-18516
▁이사벨	-18517
▁존재는	-18518
▁클린턴	-18519
데자네이	-18520
▁유명하며	-18521
▁합류하여	-18522
립트	-18523
뮬러	-18524
아노	-18525
플리	-18526
▁불균	-18527
▁신기	-18528
▁어리	-18529
▁이봉	-18530
▁정적	-18531
▁군대와	-18532
▁로맨틱	-18533
▁볼로냐	-18534
▁스트레스	-18535
▁자유민주	-18536
▁시설관리자는	-18537
▁끄	-18538
개소	-18539
리이	-18540
▁가토	-18541
▁네모	-18542
▁묻혀	-18543
▁시오	-18544
▁앞세	-18545
▁우월	-18546
▁피치	-18547
년마다	-18548
상태가	-18549
▁떠나는	-18550
▁무엇을	-18551
▁홈경기	-18552
▁1881	-18553
▁초등학교다	-18554
카쿠	-18555
헤드	-18556
▁도루	-18557
▁맥아	-18558
▁무솔	-18559
▁미식	-18560
▁미칠	-18561
▁살짝	-18562
▁일식	-18563
▁톈진	-18564
▁혼혈	-18565
▁논의가	-18566
▁데이브	-18567
▁중요시	-18568
▁완성되었다	-18569
BI	-18570
광의	-18571
바를	-18572
▁비는	-18573
▁석불	-18574
▁수산	-18575
▁우지	-18576
▁최장	-18577
▁캐리	-18578
▁틈을	-18579
▁한림	-18580
베스트	-18581
왔으나	-18582
▁영원한	-18583
▁차트에	-18584
▁하이퍼	-18585
▁혜택을	-18586
ae	-18587
합의	-18588
ION	-18589
▁마요	-18590
▁설비	-18591
▁열릴	-18592
▁주먹	-18593
▁카네	-18594
▁코리	-18595
민들이	-18596
보이는	-18597
부리그	-18598
▁마운트	-18599
▁아이의	-18600
▁오클라	-18601
▁운동과	-18602
▁페미니	-18603
▁날카로운	-18604
▁향토유적	-18605
▁러시아에서	-18606
▁영국에서는	-18607
▁쿄	-18608
녀로	-18609
면적	-18610
▁성운	-18611
▁아레	-18612
▁안고	-18613
▁요절	-18614
▁128	-18615
▁내린다	-18616
▁요르단	-18617
▁인물의	-18618
▁종목에서	-18619
▁배치되었다	-18620
군도	-18621
암이	-18622
언스	-18623
처분	-18624
▁tv	-18625
▁극한	-18626
▁문무	-18627
▁치렀	-18628
▁그러다	-18629
▁발전과	-18630
▁사명을	-18631
▁정의된	-18632
▁1872	-18633
▁국민투표	-18634
▁데뷔골을	-18635
▁이들에게	-18636
▁크리에이	-18637
RI	-18638
티와	-18639
▁아쉬	-18640
▁일간	-18641
▁죽여	-18642
▁Wii	-18643
▁끝나는	-18644
▁문자로	-18645
▁없음을	-18646
▁연안에	-18647
▁컨테이너	-18648
FI	-18649
SA	-18650
브나	-18651
선인	-18652
투로	-18653
▁직사	-18654
▁그러고	-18655
▁마르셀	-18656
▁바람이	-18657
▁비스타	-18658
▁시민의	-18659
▁참가해	-18660
▁항공사	-18661
▁공부했다	-18662
~7	-18663
▁쾨	-18664
▁by	-18665
▁기법	-18666
▁띠는	-18667
▁번창	-18668
▁신상	-18669
▁추존	-18670
▁평탄	-18671
▁기사가	-18672
▁영토로	-18673
▁우루과	-18674
▁레스토랑	-18675
공립보통학교	-18676
르카	-18677
후이	-18678
▁막대	-18679
▁천사	-18680
▁휩싸	-18681
▁각지에	-18682
▁기반이	-18683
▁본부는	-18684
▁카카오	-18685
▁1830	-18686
▁Time	-18687
▁유지하였다	-18688
▁마술	-18689
▁발기	-18690
▁쉽지	-18691
▁정재	-18692
▁참의	-18693
▁하타	-18694
▁그나마	-18695
▁장관은	-18696
▁자리매김	-18697
▁조사에서	-18698
기상	-18699
례가	-18700
아로	-18701
언은	-18702
외교	-18703
치면	-18704
▁습득	-18705
▁자와	-18706
▁중원	-18707
▁호족	-18708
하지도	-18709
▁능력은	-18710
▁장악하고	-18711
▁표기한다	-18712
륜구	-18713
▁넥센	-18714
▁분수	-18715
▁자립	-18716
▁절망	-18717
▁칼을	-18718
▁경계에	-18719
▁벗어난	-18720
▁솔루션	-18721
▁요소로	-18722
▁즐기는	-18723
▁연주하는	-18724
▁제공했다	-18725
라운드에서	-18726
지방검찰청	-18727
쓰고	-18728
지부	-18729
헌법	-18730
ics	-18731
▁Ro	-18732
▁뒤의	-18733
▁쌍대	-18734
▁이브	-18735
▁직행	-18736
결과를	-18737
야말로	-18738
▁남편의	-18739
▁벌이는	-18740
▁상품을	-18741
▁이겼다	-18742
여래좌상	-18743
▁사용자는	-18744
▁선출했다	-18745
▁자신만의	-18746
▁캐릭터가	-18747
▁도서관이다	-18748
▁메트로폴리	-18749
▁립	-18750
빌리	-18751
▁he	-18752
▁광물	-18753
▁마땅	-18754
▁목재	-18755
▁성도	-18756
▁우체	-18757
▁출동	-18758
▁칼슘	-18759
단체의	-18760
▁1/3	-18761
▁기지를	-18762
▁보였고	-18763
▁북서쪽	-18764
▁설립을	-18765
▁주장도	-18766
▁해석을	-18767
▁행위에	-18768
▁결승골을	-18769
결한	-18770
아지	-18771
전용	-18772
▁감상	-18773
▁긴키	-18774
▁내포	-18775
▁단장	-18776
▁둘이	-18777
▁삼림	-18778
▁이례	-18779
▁한창	-18780
프에서	-18781
▁교황이	-18782
▁국왕이	-18783
▁싱글은	-18784
▁팀이다	-18785
▁브루클린	-18786
▁대체적으로	-18787
▁안장되었다	-18788
▁막고	-18789
▁법이	-18790
▁상점	-18791
대서양	-18792
▁방어를	-18793
▁상파울	-18794
슈타인은	-18795
▁살아가는	-18796
▁아나운서	-18797
▁과학자들은	-18798
[...]
