{"version":"1.0","truncation":null,"padding":null,"added_tokens":[{"id":0,"special":true,"content":"[UNK]","single_word":false,"lstrip":false,"rstrip":false,"normalized":false},{"id":1,"special":true,"content":"[CLS]","single_word":false,"lstrip":false,"rstrip":false,"normalized":false},{"id":2,"special":true,"content":"[SEP]","single_word":false,"lstrip":false,"rstrip":false,"normalized":false},{"id":3,"special":true,"content":"[PAD]","single_word":false,"lstrip":false,"rstrip":false,"normalized":false},{"id":4,"special":true,"content":"[MASK]","single_word":false,"lstrip":false,"rstrip":false,"normalized":false}],"normalizer":{"type":"Sequence","normalizers":[{"type":"StripAccents"}]},"pre_tokenizer":{"type":"WhitespaceSplit"},"post_processor":{"type":"TemplateProcessing","single":[{"SpecialToken":{"id":"[CLS]","type_id":0}},{"Sequence":{"id":"A","type_id":0}},{"SpecialToken":{"id":"[SEP]","type_id":0}}],"pair":[{"SpecialToken":{"id":"[CLS]","type_id":0}},{"Sequence":{"id":"A","type_id":0}},{"SpecialToken":{"id":"[SEP]","type_id":0}},{"Sequence":{"id":"B","type_id":1}},{"SpecialToken":{"id":"[SEP]","type_id":1}}],"special_tokens":{"[CLS]":{"id":"[CLS]","ids":[1],"tokens":["[CLS]"]},"[SEP]":{"id":"[SEP]","ids":[2],"tokens":["[SEP]"]}}},"decoder":null,"model":{"type":"WordPiece","unk_token":"[UNK]","continuing_subword_prefix":"##","max_input_chars_per_word":100,"vocab":{"[UNK]":0,"[CLS]":1,"[SEP]":2,"[PAD]":3,"[MASK]":4,"!":5,"\"":6,"#":7,"$":8,"%":9,"&":10,"'":11,"(":12,")":13,"*":14,"+":15,",":16,"-":17,".":18,"/":19,"0":20,"1":21,"2":22,"3":23,"4":24,"5":25,"6":26,"7":27,"8":28,"9":29,":":30,";":31,"<":32,"=":33,">":34,"?":35,"@":36,"A":37,"B":38,"C":39,"D":40,"E":41,"F":42,"G":43,"H":44,"I":45,"J":46,"K":47,"L":48,"M":49,"N":50,"O":51,"P":52,"Q":53,"R":54,"S":55,"T":56,"U":57,"V":58,"W":59,"X":60,"Y":61,"Z":62,"[":63,"\\":64,"]":65,"^":66,"_":67,"`":68,"a":69,"b":70,"c":71,"d":72,"e":73,"f":74,"g":75,"h":76,"i":77,"j":78,"k":79,"l":80,"m":81,"n":82,"o":83,"p":84,"q":85,"r":86,"s":87,"t":88,"u":89,"v":90,"w":91,"x":92,"y":93,"z":94,"{":95,"|":96,"}":97,"~":98,"":99,"ᄀ":100,"ᄁ":101,"ᄂ":102,"ᄃ":103,"ᄄ":104,"ᄅ":105,"ᄆ":106,"ᄇ":107,"ᄈ":108,"ᄉ":109,"ᄊ":110,"ᄋ":111,"ᄌ":112,"ᄍ":113,"ᄎ":114,"ᄏ":115,"ᄐ":116,"ᄑ":117,"ᄒ":118,"ᅡ":119,"ᅢ":120,"ᅣ":121,"ᅤ":122,"ᅥ":123,"ᅦ":124,"ᅧ":125,"ᅨ":126,"ᅩ":127,"ᅪ":128,"ᅫ":129,"ᅬ":130,"ᅭ":131,"ᅮ":132,"ᅯ":133,"ᅰ":134,"ᅱ":135,"ᅲ":136,"ᅳ":137,"ᅴ":138,"ᅵ":139,"ᆨ":140,"ᆩ":141,"ᆪ":142,"ᆫ":143,"ᆬ":144,"ᆭ":145,"ᆮ":146,"ᆯ":147,"ᆰ":148,"ᆱ":149,"ᆲ":150,"ᆳ":151,"ᆴ":152,"ᆵ":153,"ᆶ":154,"ᆷ":155,"ᆸ":156,"ᆹ":157,"ᆺ":158,"ᆻ":159,"ᆼ":160,"ᆽ":161,"ᆾ":162,"ᆿ":163,"ᇀ":164,"ᇁ":165,"ᇂ":166,"ㄱ":167,"ㄲ":168,"ㄳ":169,"ㄴ":170,"ㄵ":171,"ㄶ":172,"ㄷ":173,"ㄸ":174,"ㄹ":175,"ㄺ":176,"ㄻ":177,"ㄼ":178,"ㄽ":179,"ㄾ":180,"ㄿ":181,"ㅀ":182,"ㅁ":183,"ㅂ":184,"ㅃ":185,"ㅄ":186,"ㅅ":187,"ㅆ":188,"ㅇ":189,"ㅈ":190,"ㅉ":191,"ㅊ":192,"ㅋ":193,"ㅌ":194,"ㅍ":195,"ㅎ":196,"ㅏ":197,"ㅐ":198,"ㅑ":199,"ㅒ":200,"ㅓ":201,"ㅔ":202,"ㅕ":203,"ㅖ":204,"ㅗ":205,"ㅘ":206,"ㅙ":207,"ㅚ":208,"ㅛ":209,"ㅜ":210,"ㅝ":211,"ㅞ":212,"ㅟ":213,"ㅠ":214,"ㅡ":215,"ㅢ":216,"ㅣ":217,"##ᅪ":218,"##ᆼ":219,"##ᄇ":220,"##ᅩ":221,"##ᆨ":222,"##ᄉ":223,"##ᅵ":224,"##ᅡ":225,"##ᄅ":226,"##ᆫ":227,"##ᄃ":228,"##ᆯ":229,"##ᄋ":230,"##ᄎ":231,"##ᅥ":232,"##ᅢ":233,"##ᄀ":234,"##o":235,"##a":236,"##c":237,"##e":238,"##ᅮ":239,"##ᅭ":240,"##ᅳ":241,"##ᆷ":242,"##ᄏ":243,"##ᄑ":244,"##ᄆ":245,"##ᄌ":246,"##ᅧ":247,"##ᅦ":248,"##ᄐ":249,"##ᄒ":250,"##ᅴ":251,"##ᅲ":252,"##ᆸ":253,"##h":254,"##i":255,"##ᄂ":256,"##l":257,"##v":258,"##n":259,"##s":260,"##t":261,"##ᅣ":262,"##ᆿ":263,"##C":264,"##r":265,"##ᅯ":266,"##ᆺ":267,"##p":268,"##u":269,"##g":270,"##k":271,"##d":272,"##ᅱ":273,"##ᄍ":274,"##y":275,"##ᅬ":276,"##f":277,"##A":278,"##N":279,"##T":280,"##S":281,"##I":282,"##P":283,"##R":284,"##L":285,"##V":286,"##E":287,"##ᄈ":288,"##m":289,"##j":290,"##ᄁ":291,"##ᅰ":292,"##ᄊ":293,"##3":294,"##1":295,"##7":296,"##!":297,"##?":298,"##\"":299,"##x":300,"##b":301,"##G":302,"##z":303,"##ᆹ":304,"##W":305,"##ᄄ":306,"##ᆻ":307,"##O":308,"##8":309,"##6":310,"##2":311,"##H":312,"##D":313,"##w":314,"##ㅠ":315,"##ㅈ":316,"##ᅨ":317,"##ᇀ":318,"##Y":319,"##9":320,"##0":321,"##U":322,"##ᅫ":323,"##ᆭ":324,"##ᇁ":325,"##ᆩ":326,"##B":327,"##Z":328,"##4":329,"##ᆮ":330,"##5":331,"##ᇂ":332,"##M":333,"##K":334,"##q":335,"##ᆾ":336,"##J":337,"##ᆬ":338,"##F":339,"##ᅤ":340,"##ᆰ":341,"##ㄳ":342,"##ㅑ":343,"##ㄷ":344,"###":345,"##\\":346,"##]":347,"##|":348,"##ㅅ":349,"##ㅂ":350,"##'":351,"##X":352,"##ᆽ":353,"##ㄱ":354,"##ㅖ":355,"##ㅋ":356,"##ㅇ":357,"##)":358,"##.":359,"##,":360,"##:":361,"##ㅡ":362,"##ㄻ":363,"##ᆶ":364,"##ᆲ":365,"##ㅞ":366,"##ㄵ":367,"##ㅣ":368,"##ㅎ":369,"##%":370,"##$":371,"##@":372,"##}":373,"##ㄹ":374,"##ㅔ":375,"##&":376,"##(":377,"##*":378,"##^":379,"##ㅗ":380,"##ㅊ":381,"##ᆪ":382,"##ᆴ":383,"##Q":384,"##ㅍ":385,"##ㅌ":386,"##ㅟ":387,"##ㅁ":388,"##ㅒ":389,"##/":390,"##ㄴ":391,"##ᆱ":392,"##ᆳ":393,"##-":394,"##[":395,"##ㅝ":396,"##ㅐ":397,"##ㄽ":398,"##;":399,"##~":400,"##ㅏ":401,"##ᆵ":402,"##ㄲ":403,"##_":404,"##ㄺ":405,"##+":406,"##ㅓ":407,"##ㅕ":408,"##ㅢ":409,"##ㄶ":410,"##ㅘ":411,"##{":412,"##<":413,"##ㅀ":414,"##ㅄ":415,"##>":416,"##ㄼ":417,"##=":418,"##`":419,"##ㅙ":420,"##ㅆ":421,"##ㄿ":422,"##ㅜ":423,"##ㄾ":424,"##ㅛ":425,"##ㅚ":426,"##ㅉ":427,"##ㅃ":428,"##ㄸ":429,"##":430,"이":431,"##ᅳᆫ":432,"##ᅳᆯ":433,"하":434,"다":435,"에":436,"아":437,"는":438,"어":439,"##ᅡᆫ":440,"##이":441,"##ᅡᆼ":442,"의":443,"##ᅥᆫ":444,"을":445,"가":446,"##ᅧᆫ":447,"##서":448,"##ᅳᄅ":449,"고":450,"지":451,"##지":452,"##리":453,"##ᅧᆼ":454,"##다":455,"##ᅮᆫ":456,"##시":457,"도":458,"를":459,"은":460,"##하":461,"##ᅥᆼ":462,"시":463,"##스":464,"기":465,"##ᅩᆼ":466,"##ᅡᆯ":467,"##ᅩᆨ":468,"##ᅳ로":469,"되":470,"로":471,"있":472,"##ᅮᆯ":473,"거":474,"었":475,"##ᅧᆨ":476,"##가":477,"에서":478,"##기":479,"주":480,"##나":481,"으로":482,"ᆫ다":483,"사":484,"자":485,"##어":486,"았":487,"##ᅳᆼ":488,"보":489,"##ᅥᆨ":490,"나":491,"들":492,"##고":493,"마":494,"과":495,"##자":496,"##ᅢᆼ":497,"수":498,"대":499,"##구":500,"##ᅩᆫ":501,"##라":502,"라":503,"게":504,"##도":505,"것":506,"##사":507,"##ᅥᆷ":508,"##ᅳᆷ":509,"##니":510,"여":511,"##우":512,"##ᅯᆫ":513,"일":514,"와":515,"모":516,"그":517,"##대":518,"##드":519,"##로":520,"##ᅥᆯ":521,"##장":522,"##치":523,"##요":524,"적":525,"바":526,"##르":527,"부":528,"전":529,"면":530,"##아":531,"##ᅦ이":532,"##만":533,"##트":534,"오":535,"년":536,"##미":537,"##수":538,"##주":539,"만":540,"##전":541,"##화":542,"##정":543,"##오":544,"##ᅧᆯ":545,"##인":546,"화":547,"스":548,"##야":549,"20":550,"미":551,"조":552,"##터":553,"정":554,"##상":555,"상":556,"유":557,"##부":558,"##는":559,"##히":560,"그ᄅ":561,"##마":562,"##데":563,"##ᅢᆨ":564,"때":565,"##국":566,"구":567,"##키":568,"##게":569,"공":570,"##제":571,"비":572,"으":573,"경":574,"##용":575,"위":576,"인":577,"제":578,"##력":579,"##과":580,"한":581,"##ᅥᆸ":582,"##ᅯᆯ":583,"##신":584,"차":585,"##성":586,"중":587,"##문":588,"##ᆯ리":589,"##타":590,"##면":591,"무":592,"##동":593,"##원":594,"##ᅳᆨ":595,"##ᅣᆼ":596,"지만":597,"소":598,"없":599,"며":600,"성":601,"등":602,"않":603,"노":604,"##격":605,"에게":606,"월":607,"던":608,"세":609,"##비":610,"서":611,"##간":612,"개":613,"##거":614,"201":615,"##유":616,"내":617,"##그":618,"##ᅵᆷ":619,"##소":620,"##보":621,"##체":622,"타":623,"##ᅡ지":624,"피":625,"##무":626,"##명":627,"##러":628,"##차":629,"동":630,"##작":631,"추":632,"방":633,"연":634,"##일":635,"##위":636,"##바":637,"장":638,"말":639,"후":640,"영":641,"선":642,"##카":643,"발":644,"당":645,"##계":646,"##티":647,"##래":648,"우":649,"##ᅳ리":650,"생":651,"신":652,"요":653,"##선":654,"##공":655,"는데":656,"안":657,"##재":658,"##며":659,"리":660,"##식":661,"더":662,"##후":663,"야":664,"##학":665,"##의":666,"##교":667,"버":668,"##들":669,"19":670,"까지":671,"아서":672,"카":673,"처":674,"##당":675,"때문":676,"##크":677,"##모":678,"##회":679,"최":680,"##00":681,"##단":682,"강":683,"##디":684,"##실":685,"##물":686,"##피":687,"##음":688,"##ᅦᆫ":689,"##역":690,"치":691,"##행":692,"##내":693,"해":694,"아니":695,"##중":696,"##즈":697,"##능":698,"##속":699,"##토":700,"##조":701,"회":702,"##버":703,"##한":704,"라고":705,"포":706,"파":707,"원":708,"라는":709,"명":710,"문":711,"불":712,"배":713,"실":714,"데":715,"##반":716,"같":717,"이ᄅ":718,"많":719,"결":720,"매":721,"진":722,"다고":723,"##점":724,"##ᅦᆯ":725,"##람":726,"나오":727,"##분":728,"##산":729,"으며":730,"단":731,"관":732,"특":733,"##군":734,"호":735,"면서":736,"##생":737,"##려":738,"##연":739,"반":740,"패":741,"##임":742,"##관":743,"##노":744,"초":745,"보이":746,"##호":747,"##두":748,"##프":749,"##세":750,"코":751,"##진":752,"##코":753,"##각":754,"계":755,"작":756,"그러":757,"10":758,"경우":759,"역":760,"##본":761,"##안":762,"##록":763,"남":764,"어서":765,"두":766,"분":767,"##방":768,"받":769,"번":770,"사용":771,"##저":772,"##영":773,"##태":774,"다는":775,"따":776,"##급":777,"##ᅳᆯᄅ":778,"출":779,"##민":780,"##경":781,"현":782,"##류":783,"그리":784,"레":785,"드":786,"이후":787,"##포":788,"자신":789,"국":790,"##해":791,"못":792,"쓰":793,"##법":794,"##파":795,"였":796,"알":797,"물":798,"공격":799,"또":800,"##발":801,"##매":802,"저":803,"##종":804,"예":805,"##테":806,"##른":807,"니":808,"##루":809,"감":810,"크":811,"##금":812,"##업":813,"##ᅳ라":814,"애":815,"좋":816,"##통":817,"점":818,"통":819,"사람":820,"재":821,"위하":822,"편":823,"##추":824,"##와":825,"##적":826,"캐":827,"대하":828,"##판":829,"##ᅮᆷ":830,"부터":831,"입":832,"##레":833,"##양":834,"##습":835,"##승":836,"##술":837,"함":838,"##투":839,"교":840,"김":841,"##개":842,"##직":843,"정도":844,"설":845,"형":846,"##건":847,"너":848,"##료":849,"참":850,"시키":851,"##준":852,"가능":853,"##브":854,"##션":855,"##여":856,"다른":857,"메":858,"보다":859,"평":860,"##녀":861,"외":862,"본":863,"이나":864,"##입":865,"##심":866,"##운":867,"12":868,"권":869,"못하":870,"음":871,"으나":872,"##표":873,"학":874,"디":875,"##스트":876,"죽":877,"200":878,"등장":879,"##족":880,"승":881,"는다":882,"뒤":883,"11":884,"속":885,"##량":886,"종":887,"그리고":888,"##어지":889,"버리":890,"키":891,"아이":892,"##너":893,"살":894,"..":895,"확":896,"##석":897,"다가":898,"직":899,"##론":900,"가지":901,"##형":902,"##약":903,"용":904,"잘":905,"만들":906,"##츠":907,"##설":908,"맞":909,"심":910,"##령":911,"변":912,"경기":913,"##출":914,"##청":915,"하나":916,"##황":917,"##er":918,"토":919,"##에":920,"루":921,"##복":922,"##현":923,"##더":924,"끄":925,"사실":926,"돌":927,"##병":928,"시ᄌ":929,"게임":930,"군":931,"네":932,"##합":933,"히":934,"행":935,"##것":936,"##든":937,"##련":938,"##ᆯ라":939,"듯":940,"채":941,"##향":942,"박":943,"운":944,"##외":945,"##망":946,"##ᅳᆯ리":947,"##언":948,"건":949,"##품":950,"활":951,"##번":952,"##배":953,"##께":954,"약":955,"높":956,"시작":957,"목":958,"일본":959,"##머":960,"##네":961,"##니다":962,"모습":963,"필":964,"체":965,"각":966,"##까":967,"이름":968,"함께":969,"양":970,"##ᅳᆯ레이":971,"##환":972,"집":973,"한국":974,"새":975,"##지만":976,"##천":977,"따르":978,"##스터":979,"려":980,"##등":981,"달":982,"##ᆨ터":983,"표":984,"사이":985,"##울":986,"상대":987,"##어나":988,"존":989,"언":990,"15":991,"투":992,"##독":993,"태":994,"거나":995,"이상":996,"팀":997,"##초":998,"##ᅳ래":999,"##송":1000,"##in":1001,"으면":1002,"##목":1003,"독":1004,"날":1005,"하지만":1006,"문제":1007,"순":1008,"생각":1009,"프로":1010,"증":1011,"##럼":1012,"다시":1013,"힘":1014,"##쿠":1015,"##란":1016,"별":1017,"##말":1018,"또한":1019,"시간":1020,"겠":1021,"아야":1022,"손":1023,"##메":1024,"완":1025,"총":1026,"##년":1027,"캐리":1028,"끝":1029,"##쪽":1030,"판":1031,"가장":1032,"##막":1033,"##학교":1034,"##험":1035,"##감":1036,"들어":1037,"##결":1038,"효":1039,"잡":1040,"##대로":1041,"막":1042,"왕":1043,"근":1044,"##색":1045,"ᆫ데":1046,"당시":1047,"천":1048,"간":1049,"##편":1050,"##살":1051,"처럼":1052,"싸":1053,"항":1054,"18":1055,"당하":1056,"및":1057,"##on":1058,"##탄":1059,"캐릭터":1060,"스키":1061,"##퍼":1062,"##ᅵᆨ":1063,"ᆫ지":1064,"베":1065,"플레이":1066,"폭":1067,"모두":1068,"##근":1069,"아도":1070,"##왕":1071,"##남":1072,"능":1073,"먹":1074,"##락":1075,"##악":1076,"##벨":1077,"##케":1078,"그렇":1079,"시즌":1080,"##예":1081,"##담":1082,"##립":1083,"##곡":1084,"삼":1085,"##ᅧᆸ":1086,"상황":1087,"복":1088,"모든":1089,"##패":1090,"광":1091,"##랑":1092,"결국":1093,"추가":1094,"누":1095,"##an":1096,"##미지":1097,"16":1098,"##or":1099,"##강":1100,"충":1101,"##ᆫ드":1102,"임":1103,"##항":1104,"앞":1105,"현재":1106,"테":1107,"##함":1108,"스ᄐ":1109,"길":1110,"상태":1111,"느":1112,"터":1113,"열":1114,"##처":1115,"##쟁":1116,"##집":1117,"##글":1118,"다만":1119,"많이":1120,"##절":1121,"##질":1122,"병":1123,"ᆫ다는":1124,"러":1125,"통하":1126,"넘":1127,"##때":1128,"30":1129,"그러나":1130,"금":1131,"##워":1132,"다음":1133,"스킬":1134,"존재":1135,"얼":1136,"전투":1137,"##ᆨ스":1138,"친":1139,"검":1140,"눈":1141,"##커":1142,"##냥":1143,"13":1144,"악":1145,"미국":1146,"머":1147,"능력":1148,"##범":1149,"합":1150,"##접":1151,"여기":1152,"첫":1153,"##존":1154,"##택":1155,"산":1156,"카드":1157,"##받":1158,"14":1159,"민":1160,"슈":1161,"백":1162,"식":1163,"##ᅦ인":1164,"199":1165,"##규":1166,"세계":1167,"매우":1168,"선수":1169,"허":1170,"##없":1171,"##견":1172,"커":1173,"효과":1174,"##ar":1175,"라이":1176,"취":1177,"##ᅱᆸ":1178,"##움":1179,"이러":1180,"##ᅥᆯ어지":1181,"17":1182,"##베":1183,"얻":1184,"##열":1185,"시리":1186,"그런":1187,"달리":1188,"상당":1189,"##ᅮᆼ":1190,"ᄇ니다":1191,"##ᅳ레":1192,"##거리":1193,"습":1194,"##he":1195,"황":1196,"##득":1197,"째":1198,"##at":1199,"찾":1200,"##템":1201,"##별":1202,"인하":1203,"지역":1204,"##은":1205,"이유":1206,"뜨":1207,"다면":1208,"물론":1209,"##씨":1210,"바ᄁ":1211,"##름":1212,"##탈":1213,"뿐":1214,"어ᄄ":1215,"이용":1216,"쿠":1217,"북":1218,"절":1219,"##ᅳ레이":1220,"의하":1221,"##ᅳ러":1222,"여러":1223,"처음":1224,"기록":1225,"엄":1226,"괴":1227,"##달":1228,"극":1229,"놓":1230,"100":1231,"##페":1232,"레벨":1233,"업":1234,"이것":1235,"이런":1236,"##날":1237,"필요":1238,"##널":1239,"##창":1240,"창":1241,"실제":1242,"자체":1243,"시리즈":1244,"곳":1245,"##박":1246,"부르":1247,"청":1248,"25":1249,"올리":1250,"해당":1251,"일반":1252,"그래":1253,"##끼":1254,"##광":1255,"들어가":1256,"레이":1257,"페":1258,"줄":1259,"ᆫ다고":1260,"엔":1261,"같이":1262,"어야":1263,"##틀":1264,"돌아":1265,"모르":1266,"난":1267,"##부분":1268,"##변":1269,"##애":1270,"역시":1271,"골":1272,"주인":1273,"거의":1274,"##느":1275,"탈":1276,"기술":1277,"바로":1278,"꼬":1279,"##착":1280,"##순":1281,"팬":1282,"##큼":1283,"##en":1284,"곡":1285,"마법":1286,"##철":1287,"티":1288,"특히":1289,"영화":1290,"##활":1291,"##난":1292,"잠":1293,"##칭":1294,"빠":1295,"##짜":1296,"##으":1297,"##권":1298,"2017":1299,"무기":1300,"기본":1301,"이야":1302,"철":1303,"혼":1304,"##육":1305,"즉":1306,"##스ᄐ":1307,"다르":1308,"관련":1309,"붙":1310,"##백":1311,"##ou":1312,"아무":1313,"환":1314,"귀":1315,"2018":1316,"##불":1317,"진행":1318,"##괴":1319,"냐":1320,"##시아":1321,"방송":1322,"유니":1323,"##극":1324,"마지":1325,"이야기":1326,"스타":1327,"는지":1328,"##월":1329,"##되":1330,"##찰":1331,"나가":1332,"##런":1333,"겨":1334,"피해":1335,"##혼":1336,"##례":1337,"밖":1338,"규":1339,"좀":1340,"류":1341,"범":1342,"위치":1343,"##찬":1344,"밝":1345,"##돌":1346,"란":1347,"##가지":1348,"방어":1349,"싶":1350,"알리":1351,"제작":1352,"##롭":1353,"##리아":1354,"##희":1355,"부분":1356,"사건":1357,"대부분":1358,"담":1359,"##al":1360,"작품":1361,"마지막":1362,"증가":1363,"##ᆯ러":1364,"본인":1365,"2019":1366,"##ᅳᆯ래":1367,"법":1368,"일부":1369,"계속":1370,"인간":1371,"ᆫ가":1372,"자기":1373,"비스":1374,"##징":1375,"지나":1376,"##렵":1377,"21":1378,"##ᇂ게":1379,"떨어지":1380,"접":1381,"걸":1382,"둘":1383,"##이트":1384,"축":1385,"##증":1386,"몇":1387,"##es":1388,"몸":1389,"짜":1390,"라면":1391,"서울":1392,"만큼":1393,"워":1394,"생기":1395,"##온":1396,"##률":1397,"2016":1398,"쉽":1399,"##ᅳ럽":1400,"국가":1401,"50":1402,"참고":1403,"주인공":1404,"준":1405,"급":1406,"맡":1407,"우리":1408,"##ᅳᆯ로":1409,"풀":1410,"내용":1411,"활동":1412,"##벤":1413,"##전히":1414,"##응":1415,"넣":1416,"어도":1417,"##슨":1418,"그냥":1419,"##누":1420,"중국":1421,"##벌":1422,"탄":1423,"헤":1424,"이전":1425,"비슷":1426,"프ᄅ":1427,"어느":1428,"팔":1429,"으니":1430,"암":1431,"##귀":1432,"##축":1433,"##맨":1434,"지금":1435,"##토리":1436,"비하":1437,"격":1438,"강하":1439,"##ᅦ이션":1440,"##북":1441,"##평":1442,"대신":1443,"22":1444,"벌":1445,"성공":1446,"만나":1447,"수준":1448,"이루":1449,"타이":1450,"낮":1451,"##ᅳᆯ라":1452,"밝히":1453,"##ᆯ로":1454,"습니다":1455,"까":1456,"뛰":1457,"몬":1458,"감독":1459,"##ᆷ버":1460,"떠":1461,"도록":1462,"웨":1463,"그녀":1464,"##율":1465,"198":1466,"상당히":1467,"드라":1468,"##팀":1469,"##몬":1470,"24":1471,"##책":1472,"대한":1473,"올라":1474,"##민국":1475,"덕":1476,"최대":1477,"마다":1478,"##랴":1479,"대표":1480,"이동":1481,"없이":1482,"기준":1483,"홍":1484,"래":1485,"##ᅦ이지":1486,"##굴":1487,"배우":1488,"논":1489,"##할":1490,"공격력":1491,"울":1492,"질":1493,"너무":1494,"##블":1495,"##략":1496,"므로":1497,"##it":1498,"희":1499,"제외":1500,"##같":1501,"##봉":1502,"멀":1503,"##버지":1504,"빠르":1505,"인물":1506,"죽이":1507,"##총":1508,"의미":1509,"그대로":1510,"나타":1511,"트":1512,"결과":1513,"실제로":1514,"리그":1515,"로서":1516,"프리":1517,"직접":1518,"2015":1519,"23":1520,"대한민국":1521,"어렵":1522,"소속":1523,"원래":1524,"##부터":1525,"##획":1526,"##앙":1527,"전체":1528,"홈":1529,"이미":1530,"##을":1531,"평가":1532,"밀":1533,"승리":1534,"보내":1535,"그것":1536,"메이":1537,"##잡":1538,"언급":1539,"##념":1540,"##ᆷ피":1541,"자리":1542,"체력":1543,"동안":1544,"대로":1545,"##린":1546,"샤":1547,"##ing":1548,"애니":1549,"##팅":1550,"##턴":1551,"##딩":1552,"##st":1553,"육":1554,"전쟁":1555,"갖":1556,"##le":1557,"시절":1558,"##닝":1559,"##ic":1560,"관계":1561,"40":1562,"싸우":1563,"##다가":1564,"마음":1565,"뉴":1566,"설정":1567,"ᆫ다면":1568,"씩":1569,"도시":1570,"##ᅳ루":1571,"##측":1572,"##늘":1573,"향":1574,"##re":1575,"님":1576,"멤버":1577,"과거":1578,"영상":1579,"##주의":1580,"유저":1581,"망":1582,"지원":1583,"가까":1584,"데미지":1585,"##운드":1586,"##욱":1587,"선택":1588,"묘":1589,"문서":1590,"##침":1591,"유닛":1592,"깨":1593,"머리":1594,"온":1595,"불리":1596,"발매":1597,"듣":1598,"포함":1599,"몬스터":1600,"끝나":1601,"##dd":1602,"크리":1603,"휴":1604,"성우":1605,"여자":1606,"왜":1607,"뜻":1608,"스ᄑ":1609,"뭐":1610,"개발":1611,"##웅":1612,"##폭":1613,"든":1614,"빼":1615,"##ᅦ이스":1616,"어ᄍ":1617,"엄청":1618,"퍼":1619,"힘들":1620,"컨":1621,"칼":1622,"설명":1623,"##등학교":1624,"##갑":1625,"##먹":1626,"방법":1627,"출연":1628,"##필":1629,"##스타":1630,"##ᅦ일":1631,"쪽":1632,"바뀌":1633,"##켓":1634,"플레이어":1635,"책":1636,"아버지":1637,"최고":1638,"차이":1639,"연구":1640,"우승":1641,"##컬":1642,"기사":1643,"혹":1644,"##웨":1645,"##밀":1646,"유명":1647,"##염":1648,"여성":1649,"스럽":1650,"##캐":1651,"다니":1652,"공식":1653,"2014":1654,"압":1655,"##골":1656,"##확":1657,"답":1658,"장면":1659,"협":1660,"침":1661,"몰":1662,"봉":1663,"블ᄅ":1664,"##우스":1665,"##없이":1666,"##슬":1667,"속도":1668,"##검":1669,"사망":1670,"영향":1671,"어떠":1672,"꽤":1673,"려고":1674,"##덕":1675,"##얼":1676,"##슈":1677,"발생":1678,"이때":1679,"##훈":1680,"조금":1681,"사랑":1682,"##ᅦ이트":1683,"프랑":1684,"26":1685,"##손":1686,"돈":1687,"##플":1688,"##ff":1689,"갑":1690,"000":1691,"주장":1692,"일어나":1693,"주로":1694,"##벽":1695,"남자":1696,"28":1697,"##센":1698,"측":1699,"갈":1700,"오래":1701,"빠지":1702,"사라":1703,"인터":1704,"전부":1705,"층":1706,"##el":1707,"##머니":1708,"아이템":1709,"27":1710,"초반":1711,"걸리":1712,"출신":1713,"##곤":1714,"##am":1715,"제대로":1716,"##ᅦ임":1717,"농":1718,"운영":1719,"보스":1720,"동시":1721,"31":1722,"자주":1723,"결정":1724,"아직":1725,"중요":1726,"##델":1727,"##쁘":1728,"##림":1729,"나타나":1730,"the":1731,"정보":1732,"공개":1733,"오르":1734,"서로":1735,"##벤트":1736,"또는":1737,"버전":1738,"최종":1739,"##풍":1740,"새롭":1741,"강화":1742,"친구":1743,"대상":1744,"마이":1745,"독일":1746,"##라도":1747,"학교":1748,"##아가":1749,"탑":1750,"구성":1751,"학생":1752,"궁":1753,"유지":1754,"최초":1755,"쇼":1756,"노래":1757,"쏘":1758,"송":1759,"##om":1760,"##객":1761,"역사":1762,"소리":1763,"##ᅳ라이":1764,"강력":1765,"나이":1766,"역할":1767,"파괴":1768,"억":1769,"사회":1770,"이벤트":1771,"##럽":1772,"정말":1773,"누구":1774,"##프트":1775,"그런데":1776,"기존":1777,"##새":1778,"##버스":1779,"##이도":1780,"##채":1781,"쓰이":1782,"찍":1783,"스토리":1784,"아래":1785,"영국":1786,"다이":1787,"##ᅩᆸ":1788,"글":1789,"비교":1790,"##ᆫ스":1791,"마찬":1792,"라도":1793,"마찬가지":1794,"느끼":1795,"##휘":1796,"##la":1797,"형태":1798,"어떤":1799,"##었":1800,"석":1801,"##ᅡᆯ리":1802,"바람":1803,"당연":1804,"끼":1805,"소환":1806,"엄청나":1807,"##퇴":1808,"##is":1809,"후반":1810,"인기":1811,"보통":1812,"회복":1813,"이기":1814,"변경":1815,"##충":1816,"##그래":1817,"기어":1818,"##효":1819,"대사":1820,"늘":1821,"착":1822,"##트리":1823,"먼":1824,"2013":1825,"오히":1826,"바꾸":1827,"##샤":1828,"조선":1829,"특성":1830,"정신":1831,"슈퍼":1832,"오히려":1833,"##시간":1834,"거리":1835,"파이":1836,"폐":1837,"정치":1838,"섬":1839,"##혀":1840,"방식":1841,"가깝":1842,"흐":1843,"푸":1844,"드래":1845,"197":1846,"##룡":1847,"##라이":1848,"음악":1849,"이번":1850,"발견":1851,"29":1852,"##너지":1853,"월드":1854,"이제":1855,"사라지":1856,"##옥":1857,"##협":1858,"##나라":1859,"##ᆼ크":1860,"게다가":1861,"32":1862,"아들":1863,"엘":1864,"##동안":1865,"잔":1866,"##숙":1867,"마리":1868,"자유":1869,"##et":1870,"좌":1871,"00":1872,"##스티":1873,"색":1874,"끌":1875,"성능":1876,"##드리":1877,"행동":1878,"##킹":1879,"##던":1880,"특수":1881,"확률":1882,"성격":1883,"유일":1884,"활약":1885,"##지어":1886,"맞추":1887,"##써":1888,"##ol":1889,"씨":1890,"2012":1891,"프랑스":1892,"일단":1893,"모양":1894,"##있":1895,"##ion":1896,"하이":1897,"확인":1898,"아예":1899,"##싸":1900,"구하":1901,"##스템":1902,"##디오":1903,"올":1904,"움":1905,"따라":1906,"앨":1907,"윤":1908,"이렇게":1909,"수록":1910,"부족":1911,"차지":1912,"정부":1913,"##답":1914,"입장":1915,"노선":1916,"##ᅢᆼ크":1917,"에피":1918,"내리":1919,"흔":1920,"##소리":1921,"숨":1922,"##멸":1923,"흑":1924,"돌아오":1925,"##ᆼ글":1926,"심지어":1927,"주변":1928,"##이드":1929,"먼저":1930,"들어오":1931,"콘":1932,"##곳":1933,"영웅":1934,"바이":1935,"##니아":1936,"풍":1937,"발동":1938,"##엘":1939,"어리":1940,"휘":1941,"2010":1942,"거기":1943,"##져":1944,"뽑":1945,"볼":1946,"##엇":1947,"과정":1948,"클리":1949,"어요":1950,"반대":1951,"녹":1952,"완전히":1953,"드러":1954,"##쉬":1955,"생산":1956,"모드":1957,"##ᅩᆾ":1958,"##ow":1959,"애니ᄆ":1960,"##쓰":1961,"##그램":1962,"개인":1963,"응":1964,"60":1965,"##통령":1966,"대회":1967,"빛":1968,"##렌":1969,"##nd":1970,"적용":1971,"km":1972,"##익":1973,"잃":1974,"##20":1975,"획":1976,"##il":1977,"스ᄏ":1978,"제국":1979,"##ig":1980,"##므로":1981,"떠나":1982,"으로서":1983,"##압":1984,"속성":1985,"어디":1986,"##ed":1987,"##먼":1988,"시스템":1989,"##튼":1990,"##균":1991,"대학":1992,"##랜드":1993,"그래서":1994,"##탁":1995,"에이":1996,"##ᆼ장":1997,"난이도":1998,"득":1999,"한번":2000,"라며":2001,"혹은":2002,"35":2003,"지키":2004,"자세":2005,"##뷔":2006,"##넷":2007,"실패":2008,"전혀":2009,"돌아가":2010,"던지":2011,"차량":2012,"장비":2013,"데이":2014,"##뢰":2015,"##웃":2016,"감소":2017,"원작":2018,"패배":2019,"덕분":2020,"현대":2021,"국내":2022,"사진":2023,"얼굴":2024,"##욕":2025,"TV":2026,"건물":2027,"열리":2028,"동일":2029,"대통령":2030,"짓":2031,"##ᆨ트":2032,"얼마":2033,"##소드":2034,"##나마":2035,"초기":2036,"더라도":2037,"도움":2038,"무엇":2039,"마을":2040,"중심":2041,"앨범":2042,"우주":2043,"맵":2044,"지속":2045,"날리":2046,"##ac":2047,"데뷔":2048,"##as":2049,"##죄":2050,"조차":2051,"##클":2052,"바다":2053,"인정":2054,"나라":2055,"표현":2056,"모으":2057,"애니메이션":2058,"##BS":2059,"케":2060,"출시":2061,"참여":2062,"##어가":2063,"##참":2064,"하루":2065,"196":2066,"액":2067,"물리":2068,"굉장":2069,"획득":2070,"버스":2071,"그렇게":2072,"of":2073,"2011":2074,"밖에":2075,"작중":2076,"시대":2077,"계획":2078,"꾸":2079,"모델":2080,"##아내":2081,"설치":2082,"다양":2083,"요구":2084,"순간":2085,"##끔":2086,"반응":2087,"세트":2088,"견":2089,"오브":2090,"안되":2091,"##놓":2092,"##비스":2093,"맨":2094,"Lv":2095,"정확":2096,"기능":2097,"곤":2098,"##못":2099,"자동":2100,"##궁":2101,"##들이":2102,"움직":2103,"기억":2104,"발표":2105,"축구":2106,"##파이":2107,"##갈":2108,"드라마":2109,"선발":2110,"훈":2111,"올라가":2112,"시점":2113,"##ve":2114,"그나마":2115,"##밍":2116,"영어":2117,"##길":2118,"라인":2119,"아마":2120,"아군":2121,"##혁":2122,"담당":2123,"명칭":2124,"##대학교":2125,"##뷰":2126,"롭":2127,"상승":2128,"으므로":2129,"판매":2130,"##컵":2131,"다며":2132,"작가":2133,"센":2134,"시기":2135,"중앙":2136,"퇴":2137,"진출":2138,"01":2139,"##텐":2140,"그림":2141,"경찰":2142,"세우":2143,"았었":2144,"##속도":2145,"The":2146,"조건":2147,"가격":2148,"맥":2149,"뮤":2150,"##찮":2151,"컴":2152,"특징":2153,"##뜨리":2154,"려는":2155,"##ᅳ르":2156,"##탕":2157,"땅":2158,"##덤":2159,"##씬":2160,"랑":2161,"트리":2162,"##맹":2163,"상위":2164,"수비":2165,"대체":2166,"##특":2167,"대전":2168,"한테":2169,"##ot":2170,"고려":2171,"지구":2172,"관리":2173,"남기":2174,"확실":2175,"드래곤":2176,"아주":2177,"##위기":2178,"참가":2179,"500":2180,"에피소드":2181,"로부터":2182,"##혹":2183,"졸":2184,"##볼":2185,"지니":2186,"이거":2187,"어머니":2188,"세이":2189,"##트로":2190,"크로":2191,"80":2192,"밀리":2193,"##프리":2194,"##폰":2195,"단계":2196,"2000":2197,"트ᄅ":2198,"어떻게":2199,"딸":2200,"항목":2201,"##취":2202,"라서":2203,"헌":2204,"핵":2205,"실력":2206,"##ᅳᆯ레":2207,"미치":2208,"##빈":2209,"믿":2210,"##으키":2211,"##스크":2212,"딱":2213,"##스로":2214,"더욱":2215,"묘사":2216,"피하":2217,"그루":2218,"이ᄁ":2219,"활용":2220,"##섭":2221,"##콘":2222,"연기":2223,"오리":2224,"경험":2225,"각각":2226,"##ad":2227,"아르":2228,"37":2229,"처리":2230,"밤":2231,"러시아":2232,"##액":2233,"패치":2234,"비판":2235,"심하":2236,"##인트":2237,"45":2238,"낙":2239,"후보":2240,"가족":2241,"회사":2242,"만화":2243,"폭발":2244,"펼":2245,"##ᆷ피언":2246,"문화":2247,"##리그":2248,"굉장히":2249,"세대":2250,"죠":2251,"##완":2252,"묻":2253,"디자":2254,"이미지":2255,"결혼":2256,"츠":2257,"교육":2258,"이어지":2259,"구조":2260,"##레이":2261,"진짜":2262,"##뉴":2263,"찌":2264,"프로그램":2265,"내려":2266,"##혜":2267,"##위원":2268,"라운드":2269,"위험":2270,"챔피언":2271,"탐":2272,"단순":2273,"선거":2274,"##큐":2275,"턴":2276,"듯이":2277,"약하":2278,"여담":2279,"숙":2280,"이루어지":2281,"발사":2282,"혼자":2283,"참조":2284,"무시":2285,"다루":2286,"##친":2287,"꿈":2288,"St":2289,"##칙":2290,"히로":2291,"ᆯ지":2292,"목적":2293,"술":2294,"현실":2295,"##아오":2296,"준비":2297,"주요":2298,"194":2299,"꺼":2300,"민주":2301,"기간":2302,"불구":2303,"거치":2304,"스피":2305,"##암":2306,"##머지":2307,"사실상":2308,"나쁘":2309,"나머지":2310,"일으키":2311,"마스터":2312,"대미지":2313,"방영":2314,"옆":2315,"제공":2316,"삼성":2317,"계약":2318,"약간":2319,"쿨":2320,"율":2321,"유리":2322,"##혈":2323,"나무":2324,"웃":2325,"시청":2326,"##id":2327,"부산":2328,"70":2329,"중간":2330,"##다리":2331,"괘":2332,"##알":2333,"뛰어나":2334,"##보이":2335,"노리":2336,"##척":2337,"시도":2338,"퀘":2339,"패턴":2340,"훨":2341,"09":2342,"방향":2343,"논란":2344,"##ᆯ레":2345,"일정":2346,"##엄":2347,"##ay":2348,"지하":2349,"아라":2350,"범위":2351,"##냐":2352,"##닉":2353,"동료":2354,"유럽":2355,"듀":2356,"여전히":2357,"연속":2358,"당연히":2359,"돕":2360,"한정":2361,"90":2362,"으면서":2363,"흡":2364,"소모":2365,"칸":2366,"한편":2367,"이해":2368,"분위기":2369,"성장":2370,"훨씬":2371,"FC":2372,"##ER":2373,"죄":2374,"##짝":2375,"그룹":2376,"국민":2377,"세기":2378,"싫":2379,"얘":2380,"보호":2381,"드리":2382,"특별":2383,"##롯":2384,"파워":2385,"학년":2386,"흥":2387,"##빠":2388,"바라":2389,"그래도":2390,"론":2391,"##리스":2392,"##인물":2393,"블랙":2394,"mm":2395,"기대":2396,"빌":2397,"클래":2398,"읽":2399,"02":2400,"2009":2401,"괜":2402,"03":2403,"똑":2404,"##ch":2405,"어두":2406,"할":2407,"가져":2408,"조합":2409,"향하":2410,"잘못":2411,"운동":2412,"굴":2413,"자연":2414,"가리":2415,"300":2416,"맛":2417,"기에":2418,"즐":2419,"출전":2420,"##트라":2421,"##낌":2422,"경제":2423,"기타":2424,"생명":2425,"디자인":2426,"최근":2427,"엘리":2428,"##엔":2429,"싸움":2430,"해결":2431,"취급":2432,"##us":2433,"48":2434,"도망":2435,"##ir":2436,"자면":2437,"짧":2438,"ᆯ까":2439,"스테이지":2440,"##짓":2441,"국제":2442,"부상":2443,"쉬":2444,"그거":2445,"성적":2446,"사고":2447,"##티브":2448,"태어나":2449,"부대":2450,"률":2451,"05":2452,"곧":2453,"딜":2454,"##ᅳ레이드":2455,"##봇":2456,"195":2457,"33":2458,"이라":2459,"연결":2460,"for":2461,"지방":2462,"##뮤":2463,"2008":2464,"##자기":2465,"생활":2466,"의견":2467,"예정":2468,"이르":2469,"욕":2470,"규모":2471,"##삼":2472,"36":2473,"추정":2474,"운행":2475,"주의":2476,"덱":2477,"이탈":2478,"08":2479,"순위":2480,"빈":2481,"변하":2482,"##둥":2483,"수정":2484,"벗":2485,"타입":2486,"런":2487,"종류":2488,"##틴":2489,"헬":2490,"마치":2491,"플래":2492,"07":2493,"##ur":2494,"끊":2495,"인구":2496,"충분":2497,"거대":2498,"언제":2499,"움직이":2500,"트위":2501,"방면":2502,"스스로":2503,"구간":2504,"올라오":2505,"죽음":2506,"염":2507,"##륙":2508,"익":2509,"대화":2510,"아이돌":2511,"수상":2512,"펼치":2513,"넘어가":2514,"즈":2515,"나중":2516,"야구":2517,"쓰러":2518,"조직":2519,"안정":2520,"속하":2521,"전용":2522,"##듀":2523,"세력":2524,"마저":2525,"표기":2526,"터지":2527,"변화":2528,"나누":2529,"느낌":2530,"쌍":2531,"지도":2532,"벽":2533,"블":2534,"HP":2535,"당신":2536,"##쉽":2537,"벌어지":2538,"장착":2539,"미션":2540,"##ᆩ이":2541,"도중":2542,"절대":2543,"전문":2544,"비롯":2545,"등급":2546,"##..":2547,"##od":2548,"케이":2549,"탓":2550,"세상":2551,"##지션":2552,"##튜":2553,"퀘스트":2554,"06":2555,"항공":2556,"붙이":2557,"달성":2558,"##BC":2559,"직업":2560,"벌이":2561,"뚜":2562,"안타":2563,"##흥":2564,"특정":2565,"만드":2566,"폴":2567,"지내":2568,"일행":2569,"관하":2570,"엔딩":2571,"th":2572,"##너스":2573,"부활":2574,"##수록":2575,"털":2576,"##능력":2577,"굳":2578,"##겨":2579,"##im":2580,"##비아":2581,"독립":2582,"포인트":2583,"튀":2584,"##촌":2585,"무장":2586,"프":2587,"##십":2588,"발전":2589,"종료":2590,"지지":2591,"##폐":2592,"수도":2593,"근접":2594,"전하":2595,"더불":2596,"옵":2597,"졸업":2598,"##허":2599,"넓":2600,"관심":2601,"##층":2602,"방어력":2603,"04":2604,"만약":2605,"##붙":2606,"으ᄅ":2607,"포켓":2608,"##최":2609,"##렬":2610,"##겁":2611,"##나이":2612,"##ᆨ시":2613,"##링":2614,"##다니":2615,"##흐":2616,"반면":2617,"미사":2618,"벨":2619,"따라서":2620,"##un":2621,"##어들":2622,"##좌":2623,"##ut":2624,"SK":2625,"번역":2626,"제목":2627,"##꾸":2628,"보상":2629,"엔진":2630,"##데이트":2631,"소설":2632,"싱글":2633,"척":2634,"거두":2635,"내부":2636,"칭":2637,"에너지":2638,"목소리":2639,"투수":2640,"옥":2641,"남성":2642,"2007":2643,"##즘":2644,"력":2645,"##탑":2646,"you":2647,"업데이트":2648,"##리오":2649,"##쇄":2650,"배경":2651,"똑같":2652,"무리":2653,"##윤":2654,"가끔":2655,"##카이":2656,"배틀":2657,"정상":2658,"저지":2659,"##디어":2660,"미래":2661,"어찌":2662,"충격":2663,"34":2664,"##정도":2665,"돌리":2666,"##엽":2667,"타격":2668,"계열":2669,"득점":2670,"전설":2671,"정체":2672,"오늘":2673,"스페":2674,"뒷":2675,"비행":2676,"지휘":2677,"크리스":2678,"목표":2679,"황제":2680,"##게임":2681,"덤":2682,"공중":2683,"최소":2684,"그만":2685,"항상":2686,"분노":2687,"##ro":2688,"가스":2689,"배치":2690,"각성":2691,"셈":2692,"공연":2693,"아키":2694,"콤":2695,"예상":2696,"조사":2697,"이어":2698,"##팔":2699,"##걸":2700,"으려":2701,"등장인물":2702,"소재":2703,"##묘":2704,"북한":2705,"##공격":2706,"위기":2707,"으로써":2708,"전국":2709,"##헌":2710,"정식":2711,"얘기":2712,"넘기":2713,"##란드":2714,"생존":2715,"##대학":2716,"게이":2717,"##조건":2718,"로마":2719,"이끌":2720,"늘어나":2721,"전작":2722,"포켓몬":2723,"군사":2724,"스포":2725,"신경":2726,"냉":2727,"##ag":2728,"##싱":2729,"##igh":2730,"38":2731,"##빙":2732,"높이":2733,"##ver":2734,"##러스":2735,"##칸":2736,"작곡":2737,"애초":2738,"다리":2739,"##ᆷ픽":2740,"요리":2741,"ᆯ로":2742,"지정":2743,"괜찮":2744,"##ec":2745,"인터뷰":2746,"cm":2747,"가르":2748,"##나가":2749,"버프":2750,"시전":2751,"자랑":2752,"쌓":2753,"지상":2754,"기관":2755,"75":2756,"스태":2757,"##쿄":2758,"결승":2759,"점수":2760,"각종":2761,"악마":2762,"품":2763,"요소":2764,"전사":2765,"건설":2766,"카이":2767,"분류":2768,"빅":2769,"##ent":2770,"2006":2771,"부여":2772,"##르크":2773,"슬":2774,"인도":2775,"##시마":2776,"과학":2777,"소녀":2778,"##멘":2779,"꽃":2780,"스코":2781,"멸":2782,"##ᅪᆯ":2783,"##스키":2784,"교체":2785,"55":2786,"재미":2787,"전기":2788,"연출":2789,"##운데":2790,"정하":2791,"이외":2792,"in":2793,"##야마":2794,"삭":2795,"무대":2796,"전차":2797,"놀라":2798,"랜":2799,"전반":2800,"##자리":2801,"##학생":2802,"193":2803,"하늘":2804,"레어":2805,"정작":2806,"옛":2807,"##셉":2808,"수치":2809,"##ak":2810,"클리어":2811,"확정":2812,"##쇼":2813,"별로":2814,"니까":2815,"왼":2816,"맹":2817,"작전":2818,"드러나":2819,"##밥":2820,"홈런":2821,"갖추":2822,"개념":2823,"##푸":2824,"행정":2825,"##회의":2826,"아카":2827,"훈련":2828,"소개":2829,"건담":2830,"야마":2831,"##라인":2832,"베이":2833,"따로":2834,"2020":2835,"링크":2836,"제일":2837,"##낙":2838,"to":2839,"##um":2840,"타카":2841,"종족":2842,"##르트":2843,"외국":2844,"이적":2845,"##무리":2846,"군대":2847,"갑자기":2848,"찬":2849,"변신":2850,"',":2851,"##젝트":2852,"린":2853,"##ᆯ링":2854,"깊":2855,"링":2856,"나름":2857,"이탈리아":2858,"제한":2859,"단점":2860,"바르":2861,"기업":2862,"##화국":2863,"완전":2864,"누르":2865,"##어로":2866,"##븐":2867,"장소":2868,"vs":2869,"혀":2870,"녀":2871,"크기":2872,"인천":2873,"기계":2874,"##맞":2875,"명령":2876,"냐고":2877,"비밀":2878,"##타임":2879,"##앗":2880,"##아들이":2881,"서비스":2882,"징":2883,"##시대":2884,"노력":2885,"어쩌":2886,"근처":2887,"기체":2888,"놀":2889,"평균":2890,"동물":2891,"가수":2892,"##즌":2893,"납":2894,"클ᄅ":2895,"##홍":2896,"파티":2897,"수행":2898,"포지션":2899,"사냥":2900,"띄":2901,"##ᅳ림":2902,"느리":2903,"작업":2904,"보유":2905,"압도":2906,"페이":2907,"표시":2908,"##ST":2909,"##모토":2910,"옷":2911,"기동":2912,"##렉":2913,"살리":2914,"집중":2915,"특이":2916,"옮":2917,"연합":2918,"오른":2919,"화력":2920,"##em":2921,"##ub":2922,"겸":2923,"솔":2924,"##돈":2925,"시장":2926,"쥬":2927,"끝내":2928,"병력":2929,"이하":2930,"롯":2931,"사업":2932,"설립":2933,"이쪽":2934,"##리어":2935,"잠시":2936,"기회":2937,"##셀":2938,"##풀":2939,"더니":2940,"부모":2941,"##니스":2942,"부정":2943,"브ᄅ":2944,"기반":2945,"공간":2946,"본래":2947,"##파트":2948,"혈":2949,"필드":2950,"경쟁":2951,"##쳐":2952,"치명":2953,"파일":2954,"##올리":2955,"빨":2956,"##말로":2957,"판단":2958,"가운데":2959,"##카드":2960,"카운":2961,"##ᅪᆯ영":2962,"무슨":2963,"감정":2964,"직전":2965,"##000":2966,"##퓨":2967,"목록":2968,"이닝":2969,"나서":2970,"물건":2971,"##바이":2972,"의외":2973,"떨":2974,"ㅏㅆ":2975,"인식":2976,"고양":2977,"단어":2978,"스위":2979,"겪":2980,"코미":2981,"##따":2982,"켄":2983,"다크":2984,"상관":2985,"탈출":2986,"월드컵":2987,"판정":2988,"사례":2989,"##텔":2990,"옮기":2991,"큐":2992,"쯤":2993,"기다리":2994,"소련":2995,"주문":2996,"밑":2997,"##메이":2998,"##요일":2999,"##이치":3000,"던전":3001,"##째":3002,"##맥":3003,"2005":3004,"주제":3005,"효율":3006,"차원":3007,"##펜":3008,"포기":3009,"잇":3010,"새로":3011,"제거":3012,"정리":3013,"##찍":3014,"가문":3015,"앞서":3016,"키우":3017,"##역시":3018,"마르":3019,"임무":3020,"##ight":3021,"진화":3022,"42":3023,"퀴":3024,"려면":3025,"다수":3026,"대구":3027,"뇌":3028,"##드로":3029,"위력":3030,"도전":3031,"41":3032,"##고등학교":3033,"##ᆺ수":3034,"도입":3035,"때리":3036,"##세계":3037,"도쿄":3038,"##스코":3039,"##팩":3040,"강제":3041,"##몽":3042,"별명":3043,"##죽":3044,"원인":3045,"중반":3046,"호선":3047,"정의":3048,"##빌":3049,"완성":3050,"제품":3051,"##그레이드":3052,"##셜":3053,"킹":3054,"발언":3055,"고정":3056,"##드시":3057,"39":3058,"##기사":3059,"지배":3060,"##섯":3061,"받아들이":3062,"##딜":3063,"숨기":3064,"유사":3065,"촬영":3066,"에게서":3067,"2004":3068,"무려":3069,"복귀":3070,"##숨":3071,"동생":3072,"시험":3073,"##스ᄏ":3074,"어둠":3075,"##대표":3076,"연습":3077,"사이트":3078,"직후":3079,"분명":3080,"붉":3081,"인사":3082,"일러":3083,"도착":3084,"EX":3085,"버티":3086,"모이":3087,"LG":3088,"역대":3089,"은데":3090,"전개":3091,"쫓":3092,"삭제":3093,"으로부터":3094,"접근":3095,"레드":3096,"ㅓㅆ":3097,"입히":3098,"요시":3099,"몽":3100,"마시":3101,"르":3102,"고자":3103,"꼭":3104,"사정":3105,"해군":3106,"랭크":3107,"현상":3108,"추천":3109,"##ce":3110,"예전":3111,"왕국":3112,"정규":3113,"살아":3114,"음식":3115,"확장":3116,"##털":3117,"교수":3118,"회피":3119,"빨리":3120,"마나":3121,"해외":3122,"골드":3123,"##몰":3124,"##AR":3125,"##프리카":3126,"안전":3127,"브라":3128,"오버":3129,"##많":3130,"업그레이드":3131,"홀":3132,"책임":3133,"병사":3134,"이곳":3135,"반드시":3136,"스타일":3137,"##os":3138,"줄이":3139,"꾼":3140,"##덴":3141,"##ᅳᆯ린":3142,"웹":3143,"##줄":3144,"조종":3145,"유튜":3146,"록":3147,"완벽":3148,"십":3149,"자원":3150,"부탁":3151,"저항":3152,"44":3153,"타이틀":3154,"##방송":3155,"##ri":3156,"올림픽":3157,"롯데":3158,"뿌":3159,"##스케":3160,"도로":3161,"극장":3162,"고대":3163,"##AN":3164,"장점":3165,"##스토":3166,"심각":3167,"##버리":3168,"##첩":3169,"잡히":3170,"비용":3171,"캠":3172,"플라":3173,"탈락":3174,"차전":3175,"##무라":3176,"##찌":3177,"우선":3178,"##ula":3179,"Ch":3180,"인터넷":3181,"자마":3182,"아내":3183,"의사":3184,"##ON":3185,"신체":3186,"롤":3187,"##몇":3188,"##하나":3189,"##셔":3190,"통합":3191,"언어":3192,"라이브":3193,"리더":3194,"추측":3195,"공동":3196,"##대전":3197,"##ᆯ린":3198,"##리카":3199,"##ᅦᆯ레":3200,"전력":3201,"의원":3202,"##아하":3203,"No":3204,"전략":3205,"늦":3206,"##ap":3207,"##꽃":3208,"43":3209,"미니":3210,"주민":3211,"치료":3212,"99":3213,"이라고":3214,"실험":3215,"환경":3216,"##넘":3217,"놈":3218,"몇몇":3219,"의식":3220,"히어로":3221,"연장":3222,"마무리":3223,"##드라":3224,"##ᆨ정":3225,"벤":3226,"연재":3227,"합류":3228,"##and":3229,"구매":3230,"2002":3231,"파트":3232,"소유":3233,"##ᆯ리스":3234,"짐":3235,"st":3236,"복수":3237,"점점":3238,"즐기":3239,"다소":3240,"##듬":3241,"##럭":3242,"##픽":3243,"살인":3244,"장갑":3245,"사격":3246,"최강":3247,"낫":3248,"form":3249,"철도":3250,"대기":3251,"종교":3252,"사기":3253,"##빛":3254,"##광역시":3255,"전자":3256,"##ᅮᆨ":3257,"그야":3258,"화면":3259,"취하":3260,"수많":3261,"마법사":3262,"기념":3263,"##아이":3264,"구분":3265,"브래":3266,"좋아하":3267,"공포":3268,"티어":3269,"kg":3270,"##논":3271,"종종":3272,"47":3273,"점프":3274,"46":3275,"##ᅳᆯ링":3276,"개최":3277,"51":3278,"191":3279,"사거리":3280,"##ᆯ리아":3281,"마사":3282,"##아보":3283,"암살":3284,"걱정":3285,"가치":3286,"formula":3287,"평범":3288,"##퓨터":3289,"##콩":3290,"전통":3291,"가사":3292,"사무":3293,"붕":3294,"자마자":3295,"형식":3296,"KBS":3297,"##무기":3298,"개봉":3299,"아쉽":3300,"부하":3301,"그야말로":3302,"##오스":3303,"##아지":3304,"스티":3305,"개월":3306,"그리스":3307,"채우":3308,"선정":3309,"녀석":3310,"사상":3311,"스페인":3312,"여행":3313,"##모리":3314,"##ter":3315,"떡":3316,"##위원회":3317,"팩":3318,"아무리":3319,"워낙":3320,"뻔":3321,"##선수":3322,"다행":3323,"##스카":3324,"##오르":3325,"##메라":3326,"루트":3327,"and":3328,"요청":3329,"펜":3330,"미사일":3331,"한계":3332,"##깨":3333,"프로젝트":3334,"무조건":3335,"본격":3336,"정당":3337,"정확히":3338,"대중":3339,"냐는":3340,"한글":3341,"픽":3342,"##젤":3343,"##ul":3344,"MA":3345,"맺":3346,"평소":3347,"영혼":3348,"개그":3349,"실점":3350,"시청자":3351,"거부":3352,"비중":3353,"밴드":3354,"굳이":3355,"덜":3356,"##IN":3357,"##운동":3358,"지적":3359,"무한":3360,"##쿠라":3361,"##ᅳ레스":3362,"##퀴":3363,"틀":3364,"공주":3365,"옵션":3366,"1000":3367,"##로드":3368,"로봇":3369,"네이":3370,"2003":3371,"데이터":3372,"모자":3373,"##시장":3374,"줄어들":3375,"엑스":3376,"##ᆺ자":3377,"컴퓨터":3378,"젊":3379,"##브리":3380,"##톤":3381,"충분히":3382,"##녕":3383,"고르":3384,"##op":3385,"위협":3386,"투입":3387,"상징":3388,"는가":3389,"멋":3390,"##니티":3391,"##관계":3392,"시설":3393,"이사":3394,"버그":3395,"스토":3396,"##사이":3397,"달러":3398,"도망치":3399,"연주":3400,"행위":3401,"##잔":3402,"히트":3403,"범죄":3404,"##ck":3405,"선언":3406,"대형":3407,"##핑":3408,"불가":3409,"%,":3410,"명중":3411,"##폼":3412,"실수":3413,"브리":3414,"쓸":3415,"설계":3416,"폭탄":3417,"콤보":3418,"150":3419,"##롱":3420,"형제":3421,"을지":3422,"65":3423,"특유":3424,"##FA":3425,"대결":3426,"언론":3427,"##ation":3428,"원정":3429,"##꺼":3430,"해석":3431,"선생":3432,"성향":3433,"조작":3434,"운용":3435,"희생":3436,"시민":3437,"빙":3438,"MBC":3439,"##정부":3440,"광주":3441,"##ᆫ만":3442,"SP":3443,"행사":3444,"##려가":3445,"전원":3446,"일종":3447,"인상":3448,"대응":3449,"보조":3450,"##ra":3451,"스포츠":3452,"192":3453,"보병":3454,"태양":3455,"##ᆯ라지":3456,"봉인":3457,"일러스트":3458,"##남도":3459,"하드":3460,"광고":3461,"행성":3462,"잊":3463,"##다르":3464,"잭":3465,"뚫":3466,"##페이지":3467,"##이상":3468,"얼마나":3469,"개조":3470,"가면":3471,"벗어나":3472,"오리지":3473,"단지":3474,"깔":3475,"로써":3476,"##세이":3477,"##플레이":3478,"64":3479,"II":3480,"통과":3481,"그때":3482,"마력":3483,"##머리":3484,"##경기":3485,"드러내":3486,"차례":3487,"##기관":3488,"##동생":3489,"##미널":3490,"##트ᄅ":3491,"와중":3492,"콜":3493,"구단":3494,"##특별":3495,"빼앗":3496,"보너스":3497,"앙":3498,"단체":3499,"간단":3500,"점령":3501,"시나":3502,"미드":3503,"프로듀":3504,"소비":3505,"경기도":3506,"치르":3507,"##려오":3508,"ㅏ서":3509,"육군":3510,"##웨이":3511,"화염":3512,"흉":3513,"발음":3514,"생성":3515,"숲":3516,"서술":3517,"뿌리":3518,"블루":3519,"##옷":3520,"가하":3521,"##컨":3522,"하야":3523,"근데":3524,"52":3525,"방문":3526,"혁":3527,"셋":3528,"클럽":3529,"앉":3530,"합치":3531,"컬":3532,"쥐":3533,"닌":3534,"서버":3535,"긴":3536,"유튜브":3537,"드로":3538,"조정":3539,"렌":3540,"장르":3541,"불과":3542,"##텐츠":3543,"의도":3544,"재료":3545,"##깐":3546,"투표":3547,"##ᅧ보":3548,"소년":3549,"금지":3550,"앤":3551,"반복":3552,"You":3553,"가정":3554,"의지":3555,"정책":3556,"함정":3557,"지명":3558,"한국어":3559,"트레이":3560,"는다는":3561,"년대":3562,"저격":3563,"노트":3564,"영입":3565,"디지":3566,"400":3567,"최후":3568,"캡":3569,"윈":3570,"보컬":3571,"분리":3572,"초대":3573,"##스턴":3574,"제안":3575,"따지":3576,"셰":3577,"채널":3578,"##art":3579,"##멀":3580,"원하":3581,"##ᅳ래프트":3582,"##님":3583,"박사":3584,"##교육":3585,"무사":3586,"그저":3587,"대비":3588,"##춘":3589,"사태":3590,"##지역":3591,"에어":3592,"편성":3593,"여름":3594,"외모":3595,"##덜":3596,"##ᆯ런":3597,"##크로":3598,"가져오":3599,"고양이":3600,"VS":3601,"장기":3602,"멘":3603,"음반":3604,"탱":3605,"일차":3606,"후속":3607,"센터":3608,"찾아오":3609,"##부대":3610,"##학자":3611,"소식":3612,"##솔":3613,"49":3614,"두번":3615,"##도우":3616,"숫자":3617,"흡수":3618,"느냐":3619,"##뇌":3620,"##니까":3621,"적극":3622,"먹이":3623,"##닥":3624,"##마스":3625,"목숨":3626,"엠":3627,"스카":3628,"지나가":3629,"독자":3630,"AP":3631,"56":3632,"데리":3633,"눈물":3634,"공략":3635,"진입":3636,"##루스":3637,"장난":3638,"패러":3639,"모험":3640,"나이트":3641,"바닥":3642,"##센터":3643,"은퇴":3644,"적절":3645,"생물":3646,"왼쪽":3647,"오토":3648,"##사카":3649,"괴물":3650,"군단":3651,"클라":3652,"주력":3653,"2001":3654,"혐":3655,"오오":3656,"##헤":3657,"스테":3658,"고등학교":3659,"대학교":3660,"컨셉":3661,"거짓":3662,"아름":3663,"택":3664,"저지르":3665,"살아남":3666,"기자":3667,"ᆫ지라":3668,"흐르":3669,"의심":3670,"확보":3671,"##ᅳᆺ":3672,"자료":3673,"전화":3674,"53":3675,"약점":3676,"노동":3677,"원거리":3678,"54":3679,"개선":3680,"##달리":3681,"필살":3682,"##스리":3683,"제도":3684,"오리지널":3685,"...":3686,"사과":3687,"형성":3688,"##휴":3689,"슬로":3690,"##ᅢᆼ기":3691,"대단":3692,"쓰러지":3693,"관통":3694,"단순히":3695,"코드":3696,"In":3697,"오ᄑ":3698,"PC":3699,"겹":3700,"걸치":3701,"교통":3702,"대장":3703,"##어내":3704,"다운":3705,"##읍":3706,"수호":3707,"저주":3708,"전술":3709,"##핀":3710,"##즈키":3711,"황금":3712,"미리":3713,"계기":3714,"##마트":3715,"##시브":3716,"페르":3717,"만원":3718,"마침":3719,"촉":3720,"들이":3721,"잘하":3722,"##시스":3723,"##콤":3724,"밥":3725,"부수":3726,"브레이":3727,"질문":3728,"조각":3729,"칠":3730,"닮":3731,"구축":3732,"착용":3733,"오프":3734,"꾸준":3735,"85":3736,"상대방":3737,"시티":3738,"작성":3739,"인류":3740,"솔로":3741,"유도":3742,"풀리":3743,"##로스":3744,"훌":3745,"##ia":3746,"타임":3747,"루이":3748,"멈":3749,"1990":3750,"트로":3751,"방해":3752,"기원":3753,"집단":3754,"##나미":3755,"##문화":3756,"##랗":3757,"비난":3758,"멜":3759,"삼국":3760,"역전":3761,"##ᆸ터":3762,"##다이":3763,"##ill":3764,"코스":3765,"서브":3766,"##무원":3767,"전환":3768,"편하":3769,"##워드":3770,"습격":3771,"필수":3772,"아프리카":3773,"경상":3774,"##팬":3775,"열차":3776,"##ie":3777,"##전자":3778,"선보이":3779,"승부":3780,"족":3781,"어라":3782,"라디오":3783,"트래":3784,"##소년":3785,"걷":3786,"규정":3787,"##북도":3788,"##나다":3789,"홈페이지":3790,"##RA":3791,"##젠":3792,"진정":3793,"ST":3794,"실시":3795,"유우":3796,"뉴스":3797,"##ᅦ이터":3798,"##회사":3799,"아나":3800,"##딘":3801,"##IA":3802,"삶":3803,"공부":3804,"확실히":3805,"회전":3806,"아프":3807,"클래스":3808,"모티브":3809,"아름답":3810,"무력":3811,"감안":3812,"들리":3813,"190":3814,"##ik":3815,"##전사":3816,"엄마":3817,"번호":3818,"경계":3819,"수원":3820,"등록":3821,"병원":3822,"##쥐":3823,"##울리":3824,"완료":3825,"##쇠":3826,"편집":3827,"어느정도":3828,"남편":3829,"비고":3830,"승강":3831,"테이":3832,"힐":3833,"##영상":3834,"표정":3835,"무섭":3836,"쿨타임":3837,"임명":3838,"멈추":3839,"지나치":3840,"기지":3841,"오른쪽":3842,"딱히":3843,"행복":3844,"##술사":3845,"허용":3846,"본선":3847,"친하":3848,"희망":3849,"##이언":3850,"사장":3851,"##붙이":3852,"59":3853,"##연히":3854,"방패":3855,"상처":3856,"바탕":3857,"좁":3858,"당장":3859,"의문":3860,"라이트":3861,"태도":3862,"유키":3863,"고통":3864,"탑재":3865,"유래":3866,"장군":3867,"코스트":3868,"##뉘":3869,"##ab":3870,"아시아":3871,"아요":3872,"고유":3873,"인지":3874,"날아가":3875,"기점":3876,"##ᅦ이드":3877,"평화":3878,"국회의":3879,"##아리":3880,"비싸":3881,"넥":3882,"##ᆯ러리":3883,"스파이":3884,"##어스":3885,"##랄":3886,"더블":3887,"처치":3888,"날개":3889,"분야":3890,"120":3891,"선물":3892,"제압":3893,"빌리":3894,"58":3895,"민주당":3896,"##시오":3897,"트랙":3898,"대답":3899,"##피아":3900,"성인":3901,"을까":3902,"비트":3903,"제시":3904,"멸망":3905,"하위":3906,"챙기":3907,"꼽":3908,"레인":3909,"에이스":3910,"##레이션":3911,"##흑":3912,"##est":3913,"가슴":3914,"##크래프트":3915,"##대회":3916,"주목":3917,"수리":3918,"57":3919,"꺼내":3920,"잠깐":3921,"자라":3922,"##꼬":3923,"후지":3924,"아웃":3925,"##th":3926,"MP":3927,"중단":3928,"갈리":3929,"가ᄇ":3930,"##홀":3931,"##all":3932,"이론":3933,"탯":3934,"##레스":3935,"멀티":3936,"##프로":3937,"##놈":3938,"나뉘":3939,"퍼지":3940,"##ea":3941,"거주":3942,"사령":3943,"66":3944,"##라스":3945,"한화":3946,"95":3947,"궤":3948,"측면":3949,"사항":3950,"회장":3951,"당선":3952,"혜":3953,"꼴":3954,"검사":3955,"시나리오":3956,"주도":3957,"멀리":3958,"겨우":3959,"##디아":3960,"뮤직":3961,"포르":3962,"내려가":3963,"##킨":3964,"##릉":3965,"액션":3966,"##소녀":3967,"##전쟁":3968,"프레이":3969,"눈치":3970,"투자":3971,"고서":3972,"년간":3973,"주연":3974,"공화국":3975,"##스트리":3976,"텔레":3977,"뉴욕":3978,"##헨":3979,"동맹":3980,"스트리":3981,"보급":3982,"일본어":3983,"##철도":3984,"##터리":3985,"달라지":3986,"약속":3987,"Sh":3988,"학원":3989,"ᆯ수록":3990,"##촉":3991,"우수":3992,"교회":3993,"테러":3994,"##크리":3995,"보수":3996,"프레":3997,"테마":3998,"로드":3999,"드라이":4000,"##나무":4001,"##오리":4002,"궁극":4003,"낳":4004,"Lo":4005,"온라인":4006,"엉":4007,"늘리":4008,"##ct":4009,"시체":4010,"가볍":4011,"최악":4012,"ddd":4013,"on":4014,"나타내":4015,"##어리":4016,"조지":4017,"카운터":4018,"##하라":4019,"1999":4020,"망하":4021,"Re":4022,"료":4023,"순서":4024,"가져가":4025,"떼":4026,"위주":4027,"배신":4028,"좀비":4029,"종합":4030,"대놓":4031,"##초등학교":4032,"##륭":4033,"##ᆷ프":4034,"아스":4035,"해제":4036,"견제":4037,"컵":4038,"소울":4039,"##바로":4040,"110":4041,"함대":4042,"##ddd":4043,"dddddd":4044,"그라":4045,"보도":4046,"Sp":4047,"리어":4048,"데스":4049,"##타로":4050,"1998":4051,"##두르":4052,"현장":4053,"오후":4054,"##섬":4055,"코너":4056,"카메라":4057,"##AL":4058,"산업":4059,"지식":4060,"계산":4061,"연계":4062,"핵심":4063,"최대한":4064,"##니어":4065,"##지원":4066,"쿄":4067,"살해":4068,"ㅓ서":4069,"##ᅥᆯ리":4070,"##값":4071,"##AT":4072,"62":4073,"제로":4074,"##PS":4075,"예선":4076,"포스":4077,"귀족":4078,"##워하":4079,"해금":4080,"국회의원":4081,"가드":4082,"폰":4083,"직원":4084,"인원":4085,"필살기":4086,"브로":4087,"중화":4088,"덩":4089,"틈":4090,"##OR":4091,"전장":4092,"베이스":4093,"진실":4094,"##VE":4095,"콩":4096,"귀엽":4097,"외부":4098,"분석":4099,"거절":4100,"퓨":4101,"컨트로":4102,"국가대표":4103,"드물":4104,"건너":4105,"##유키":4106,"이치":4107,"디스":4108,"특기":4109,"이성":4110,"##고기":4111,"##주시":4112,"##토스":4113,"유용":4114,"출생":4115,"SS":4116,"용병":4117,"제조":4118,"가르치":4119,"SBS":4120,"어울리":4121,"출발":4122,"통일":4123,"부리":4124,"시내":4125,"니코":4126,"상하":4127,"수사":4128,"##칼":4129,"증거":4130,"개편":4131,"춤":4132,"인형":4133,"##맛":4134,"소프트":4135,"##들리":4136,"애매":4137,"는다고":4138,"기분":4139,"##스탄":4140,"부담":4141,"##시즌":4142,"##보스":4143,"##ate":4144,"지옥":4145,"광역":4146,"##선거":4147,"뱀":4148,"레이저":4149,"##래도":4150,"극장판":4151,"흔히":4152,"##ess":4153,"##사키":4154,"커뮤":4155,"겨울":4156,"안하":4157,"Th":4158,"##ell":4159,"##번호":4160,"61":4161,"세계관":4162,"갱":4163,"불명":4164,"##피스":4165,"어린":4166,"민족":4167,"##ard":4168,"76":4169,"##ᆯ런스":4170,"한자":4171,"##컷":4172,"끼리":4173,"진영":4174,"타자":4175,"어떻":4176,"싱":4177,"단독":4178,"##아나":4179,"버튼":4180,"자살":4181,"영역":4182,"타이밍":4183,"##ang":4184,"얼음":4185,"피해자":4186,"아메":4187,"발휘":4188,"아무래도":4189,"서울특별":4190,"겹치":4191,"##IC":4192,"##민주":4193,"자동차":4194,"##다수":4195,"레전":4196,"##바람":4197,"##연구":4198,"아침":4199,"홍콩":4200,"##ue":4201,"무게":4202,"조준":4203,"랄":4204,"자고":4205,"고급":4206,"순수":4207,"##기술":4208,"##렴":4209,"##ant":4210,"##ack":4211,"비록":4212,"##대장":4213,"##츠키":4214,"공통":4215,"##칠":4216,"##ers":4217,"부진":4218,"Al":4219,"패시브":4220,"NP":4221,"코치":4222,"##라리":4223,"77":4224,"댓":4225,"우려":4226,"장전":4227,"미야":4228,"소수":4229,"##ine":4230,"로켓":4231,"88":4232,"두산":4233,"1997":4234,"케이스":4235,"구입":4236,"72":4237,"반란":4238,"##서관":4239,"##생활":4240,"##심히":4241,"카즈":4242,"여왕":4243,"플":4244,"에리":4245,"브랜드":4246,"##가락":4247,"템":4248,"탑승":4249,"충돌":4250,"가로":4251,"한명":4252,"혼란":4253,"몰리":4254,"텐":4255,"##나오":4256,"상자":4257,"후반부":4258,"막히":4259,"통신":4260,"장치":4261,"기획":4262,"기절":4263,"만족":4264,"서울특별시":4265,"문자":4266,"내주":4267,"협력":4268,"외치":4269,"인생":4270,"삽":4271,"파악":4272,"군인":4273,"탄생":4274,"아오":4275,"끌어":4276,"롱":4277,"마크":4278,"꾸준히":4279,"왕자":4280,"게이지":4281,"생일":4282,"판타":4283,"BG":4284,"ㅕ서":4285,"##디션":4286,"##라이더":4287,"근거":4288,"##툰":4289,"##ᆯ릭":4290,"##웨어":4291,"##둑":4292,"##ok":4293,"블로":4294,"##샷":4295,"##OS":4296,"카페":4297,"코어":4298,"부인":4299,"테크":4300,"안습":4301,"##갖":4302,"닥터":4303,"##납":4304,"업무":4305,"무너지":4306,"실질":4307,"##멍":4308,"##시티":4309,"##붕":4310,"##팡":4311,"잖":4312,"관광":4313,"be":4314,"제이":4315,"스피드":4316,"납치":4317,"강조":4318,"등등":4319,"게시":4320,"##그리":4321,"나카":4322,"373":4323,"FI":4324,"채용":4325,"반영":4326,"붕괴":4327,"블레이":4328,"융":4329,"공산":4330,"크로스":4331,"더하":4332,"톤":4333,"##자키":4334,"or":4335,"브라지":4336,"##카와":4337,"위키":4338,"자르":4339,"돌격":4340,"미군":4341,"98":4342,"fff":4343,"훌륭":4344,"온갖":4345,"쳐":4346,"쏟":4347,"##융":4348,"듀얼":4349,"CD":4350,"장수":4351,"gt":4352,"대공":4353,"점차":4354,"##오프":4355,"마왕":4356,"##포트":4357,"맡기":4358,"##ive":4359,"##돌리":4360,"수단":4361,"랜덤":4362,"##노스":4363,"스킨":4364,"울트라":4365,"밸런스":4366,"없애":4367,"600":4368,"덴":4369,"반격":4370,"자격":4371,"패러디":4372,"##상태":4373,"주어지":4374,"##메달":4375,"##파이어":4376,"##사건":4377,"용도":4378,"경향":4379,"값":4380,"홍보":4381,"아리":4382,"쪼":4383,"구역":4384,"지하철":4385,"베르":4386,"공군":4387,"##도시":4388,"대다수":4389,"아사":4390,"찾아가":4391,"내놓":4392,"공항":4393,"1996":4394,"##정보":4395,"설득":4396,"위원":4397,"권력":4398,"어차":4399,"살짝":4400,"제주":4401,"입학":4402,"고민":4403,"어차피":4404,"##셰":4405,"주년":4406,"##ast":4407,"승강장":4408,"언니":4409,"지시":4410,"PS":4411,"돌파":4412,"##옹":4413,"표준":4414,"##세우":4415,"##AS":4416,"가까이":4417,"체제":4418,"##다지":4419,"대놓고":4420,"1995":4421,"지급":4422,"화살":4423,"커버":4424,"영원":4425,"실행":4426,"감염":4427,"가입":4428,"또다":4429,"짜리":4430,"적당":4431,"대륙":4432,"입수":4433,"충전":4434,"##중학교":4435,"응원":4436,"작사":4437,"ㅓ야":4438,"제기":4439,"##uby":4440,"\",":4441,"집안":4442,"캐나다":4443,"##ED":4444,"##은행":4445,"댄스":4446,"##가능":4447,"##켄":4448,"##tt":4449,"봄":4450,"당황":4451,"갤러리":4452,"68":4453,"즉시":4454,"##ee":4455,"내려오":4456,"이렇":4457,"자식":4458,"은근":4459,"lt":4460,"800":4461,"불안":4462,"신화":4463,"열심히":4464,"연방":4465,"##교통":4466,"스페셜":4467,"뒤집":4468,"프라":4469,"체인":4470,"별도":4471,"##거나":4472,"브라질":4473,"여러가지":4474,"여부":4475,"오프닝":4476,"신뢰":4477,"##농":4478,"폐지":4479,"##시지":4480,"북미":4481,"매치":4482,"63":4483,"증명":4484,"밟":4485,"와이":4486,"1980":4487,"명예":4488,"유형":4489,"경력":4490,"##아먹":4491,"##묵":4492,"돌진":4493,"정령":4494,"##친구":4495,"한때":4496,"##찾":4497,"##ong":4498,"보물":4499,"##호사":4500,"##AM":4501,"ruby":4502,"빵":4503,"괴롭":4504,"##독교":4505,"도구":4506,"운명":4507,"이승":4508,"가면라이더":4509,"후쿠":4510,"##오카":4511,"모션":4512,"마련":4513,"균":4514,"필리":4515,"##ort":4516,"김성":4517,"선배":4518,"흘리":4519,"찌르":4520,"군주":4521,"라이벌":4522,"단일":4523,"교환":4524,"##ᆮ히":4525,"비율":4526,"덮":4527,"계승":4528,"##덩":4529,"마녀":4530,"##관리":4531,"룰":4532,"##트남":4533,"랭":4534,"##효과":4535,"##ith":4536,"근무":4537,"##밀리":4538,"횟수":4539,"재생":4540,"오해":4541,"카르":4542,"경유":4543,"중계":4544,"71":4545,"##if":4546,"##아버지":4547,"74":4548,"드랍":4549,"수입":4550,"주전":4551,"습득":4552,"함선":4553,"##우드":4554,"쿼":4555,"셔":4556,"불만":4557,"정말로":4558,"##미야":4559,"내내":4560,"##ly":4561,"##그라":4562,"트위터":4563,"커뮤니티":4564,"##비전":4565,"조조":4566,"크루":4567,"시행":4568,"##fff":4569,"오픈":4570,"##컴":4571,"....":4572,"MV":4573,"##ld":4574,"하수":4575,"갓":4576,"원수":4577,"스트라이":4578,"재판":4579,"장식":4580,"##텀":4581,"##히로":4582,"그곳":4583,"락":4584,"몹":4585,"##티컬":4586,"73":4587,"67":4588,"고속":4589,"댓글":4590,"지우":4591,"ffffff":4592,"혁명":4593,"고전":4594,"##타이":4595,"노르":4596,"스파":4597,"박살":4598,"주위":4599,"절반":4600,"가리키":4601,"레전드":4602,"추진":4603,"격투":4604,"딜러":4605,"메이저":4606,"붙잡":4607,"닿":4608,"아우":4609,"울산":4610,"##빵":4611,"##보내":4612,"컨트롤":4613,"아시":4614,"외국인":4615,"심장":4616,"단위":4617,"별개":4618,"지ᄏ":4619,"클로":4620,"##겨나":4621,"취소":4622,"계급":4623,"NC":4624,"처하":4625,"##ain":4626,"메탈":4627,"일대":4628,"##리티":4629,"잉":4630,"##ist":4631,"##가스":4632,"96":4633,"##공사":4634,"민간":4635,"스펙":4636,"##ᅦᆯ라":4637,"파이터":4638,"회의":4639,"등판":4640,"남부":4641,"안드로":4642,"암흑":4643,"1994":4644,"##ind":4645,"소문":4646,"이란":4647,"옹":4648,"쓰레":4649,"늑":4650,"가득":4651,"재능":4652,"마이크":4653,"브루":4654,"TH":4655,"정권":4656,"북쪽":4657,"그다지":4658,"##보드":4659,"연예":4660,"쌓이":4661,"##ᆫ트":4662,"예술":4663,"감사":4664,"마주":4665,"180":4666,"고치":4667,"공유":4668,"##서트":4669,"해방":4670,"쇠":4671,"아티":4672,"피해량":4673,"퀄":4674,"격파":4675,"##기간":4676,"지점":4677,"남쪽":4678,"AC":4679,"이슬":4680,"건강":4681,"##퍼스":4682,"파리":4683,"##지컬":4684,"문명":4685,"그동안":4686,"##ᆷ치":4687,"외교":4688,"스코어":4689,"##럿":4690,"81":4691,"AT":4692,"##가리":4693,"네이버":4694,"장애":4695,"초월":4696,"##브라":4697,"강원":4698,"##가와":4699,"든지":4700,"##베르":4701,"튜":4702,"##레인":4703,"발매되":4704,"공작":4705,"일부러":4706,"사운드":4707,"그만큼":4708,"결승전":4709,"다행히":4710,"차별":4711,"전방":4712,"##per":4713,"헤이":4714,"널리":4715,"말리":4716,"임시":4717,"##바르":4718,"압박":4719,"소멸":4720,"전달":4721,"##아웃":4722,"##ps":4723,"##구역":4724,"기독교":4725,"화장":4726,"공장":4727,"##EN":4728,"##톱":4729,"입단":4730,"문제점":4731,"흔하":4732,"핀":4733,"쓰러뜨리":4734,"따오":4735,"그림자":4736,"적히":4737,"깃":4738,"##깝":4739,"카나":4740,"고기":4741,"텍":4742,"지켜보":4743,"피아":4744,"께":4745,"물러":4746,"판타지":4747,"타점":4748,"##식간":4749,"공사":4750,"무적":4751,"따위":4752,"맞서":4753,"화려":4754,"##EC":4755,"##워크":4756,"자는":4757,"치명타":4758,"갑옷":4759,"78":4760,"91":4761,"스튜":4762,"오로":4763,"##마을":4764,"프로듀서":4765,"##OL":4766,"거래":4767,"유비":4768,"갈등":4769,"순식간":4770,"본명":4771,"지형":4772,"여동생":4773,"무난":4774,"공기":4775,"##ew":4776,"여론":4777,"##ᆫ지":4778,"건축":4779,"선호":4780,"연사":4781,"##때문":4782,"일상":4783,"##ᅫ지":4784,"##ᆼ이":4785,"시야":4786,"폭풍":4787,"컨텐츠":4788,"메리":4789,"짝":4790,"여신":4791,"드립":4792,"써":4793,"84":4794,"CP":4795,"체육":4796,"##탐":4797,"##투스":4798,"컷":4799,"최상":4800,"체포":4801,"사단":4802,"##모로":4803,"##데스":4804,"##모드":4805,"##넣":4806,"레오":4807,"##LC":4808,"무르":4809,"관객":4810,"me":4811,"##ᅥᆷ프":4812,"##ry":4813,"크리티컬":4814,"사쿠라":4815,"##일랜드":4816,"패스":4817,"유로":4818,"슬라":4819,"첫번":4820,"드디어":4821,"전투력":4822,"##려움":4823,"수있":4824,"가이":4825,"체계":4826,"가토":4827,"82":4828,"불꽃":4829,"바라보":4830,"자치":4831,"삼진":4832,"하트":4833,"용어":4834,"##lo":4835,"##타인":4836,"전역":4837,"추적":4838,"##껏":4839,"복잡":4840,"##둔":4841,"오랜":4842,"무지":4843,"섭":4844,"매력":4845,"늑대":4846,"##영화":4847,"97":4848,"파이널":4849,"대만":4850,"한국인":4851,"아무런":4852,"크레":4853,"##ᅢᆼ이":4854,"##사항":4855,"경영":4856,"전함":4857,"낭":4858,"86":4859,"도달":4860,"빔":4861,"마츠":4862,"고향":4863,"쿠로":4864,"영토":4865,"맞이":4866,"상향":4867,"대원":4868,"파견":4869,"##공항":4870,"에스":4871,"폭주":4872,"폼":4873,"네덜":4874,"해설":4875,"##병대":4876,"떡밥":4877,"작동":4878,"##억":4879,"##둥이":4880,"##셋":4881,"사전":4882,"동원":4883,"it":4884,"변형":4885,"현지":4886,"69":4887,"다시피":4888,"##어버리":4889,"한방":4890,"몰래":4891,"##ᆷ새":4892,"추락":4893,"인수":4894,"덧":4895,"요새":4896,"##마이":4897,"수용":4898,"그치":4899,"조용":4900,"연관":4901,"페이지":4902,"아무것":4903,"수학":4904,"##ᅳ름":4905,"참전":4906,"개통":4907,"is":4908,"오류":4909,"추격":4910,"NPC":4911,"출판":4912,"막장":4913,"달하":4914,"생명력":4915,"메가":4916,"출현":4917,"##IT":4918,"상품":4919,"충청":4920,"둘러":4921,"교황":4922,"파라":4923,"일제":4924,"##믹":4925,"작용":4926,"##바일":4927,"##동차":4928,"##렛":4929,"돌아다니":4930,"틀리":4931,"##그루":4932,"##고리":4933,"매일":4934,"만든":4935,"프리미":4936,"##아파트":4937,"US":4938,"##과학":4939,"푸르":4940,"##디언":4941,"해체":4942,"향상":4943,"경험치":4944,"박스":4945,"리버":4946,"MS":4947,"통제":4948,"중학교":4949,"복장":4950,"신인":4951,"까다":4952,"놓치":4953,"나루":4954,"##렘":4955,"낚":4956,"An":4957,"옛날":4958,"구현":4959,"왕조":4960,"네덜란드":4961,"녹음":4962,"동쪽":4963,"아파트":4964,"입력":4965,"##레나":4966,"이시":4967,"##어도":4968,"##더스":4969,"김정":4970,"##윈":4971,"##버트":4972,"알아":4973,"스카이":4974,"북부":4975,"##깔":4976,"굽":4977,"##먼트":4978,"##어오":4979,"조성":4980,"##ust":4981,"##ᆼ글랜드":4982,"오빠":4983,"환상":4984,"교사":4985,"##교회":4986,"베트남":4987,"알렉":4988,"신규":4989,"겟":4990,"스마트":4991,"수업":4992,"예외":4993,"언제나":4994,"보정":4995,"화이트":4996,"환자":4997,"긍":4998,"노출":4999,"##국가":5000,"범인":5001,"기초":5002,"250":5003,"종점":5004,"총기":5005,"KT":5006,"출장":5007,"연애":5008,"##데이":5009,"구체":5010,"##연합":5011,"##50":5012,"되찾":5013,"##뜩":5014,"메타":5015,"타워":5016,"##단체":5017,"##티드":5018,"일원":5019,"회원":5020,"서부":5021,"##구리":5022,"심리":5023,"##베이":5024,"토모":5025,"인근":5026,"묶":5027,"이랑":5028,"시각":5029,"편지":5030,"##병원":5031,"영문":5032,"##츄":5033,"여러모로":5034,"신고":5035,"플로":5036,"##류장":5037,"189":5038,"대립":5039,"쓰레기":5040,"거짓말":5041,"수요":5042,"브":5043,"한마":5044,"전라":5045,"제자":5046,"쿠키":5047,"##과정":5048,"##요시":5049,"보장":5050,"마인":5051,"##킥":5052,"사토":5053,"의상":5054,"신라":5055,"불편":5056,"불과하":5057,"신청":5058,"전형":5059,"연락":5060,"어깨":5061,"수집":5062,"202":5063,"접하":5064,"편의":5065,"신분":5066,"1992":5067,"팝":5068,"##전차":5069,"##야구":5070,"##사기":5071,"평타":5072,"##조리":5073,"키리":5074,"전면":5075,"유희":5076,"양산":5077,"무료":5078,"##블리":5079,"창작":5080,"천사":5081,"에드":5082,"차단":5083,"서쪽":5084,"마리아":5085,"신성":5086,"기여":5087,"92":5088,"##흡":5089,"##BO":5090,"검색":5091,"##ore":5092,"##저히":5093,"부품":5094,"모바일":5095,"영업":5096,"이중":5097,"Ar":5098,"반지":5099,"띄우":5100,"노예":5101,"겉":5102,"대체로":5103,"세월":5104,"전직":5105,"갤":5106,"진지":5107,"반발":5108,"동부":5109,"감시":5110,"학살":5111,"묵":5112,"자이언":5113,"하고":5114,"83":5115,"##핵":5116,"고생":5117,"이날":5118,"모리":5119,"마리오":5120,"주먹":5121,"쉐":5122,"성과":5123,"심판":5124,"##펙트":5125,"대량":5126,"Te":5127,"##조사":5128,"구속":5129,"호평":5130,"상상":5131,"대우":5132,"제하":5133,"89":5134,"폴란드":5135,"##버프":5136,"##좋":5137,"제작진":5138,"잖아":5139,"블록":5140,"내구":5141,"##FF":5142,"101":5143,"휘두르":5144,"기기":5145,"93":5146,"##바라":5147,"반하":5148,"정지":5149,"1993":5150,"다섯":5151,"##리스트":5152,"##사고":5153,"제법":5154,"출처":5155,"무효":5156,"승격":5157,"De":5158,"알레":5159,"MAX":5160,"침공":5161,"식물":5162,"콘서트":5163,"기습":5164,"뼈":5165,"##성기":5166,"탁":5167,"윌리":5168,"닌자":5169,"동영상":5170,"##그룹":5171,"이득":5172,"이래":5173,"한타":5174,"94":5175,"스폰":5176,"##스팅":5177,"랩":5178,"그래픽":5179,"##스톤":5180,"더빙":5181,"##시설":5182,"창조":5183,"잉글랜드":5184,"글로":5185,"코믹스":5186,"보석":5187,"이리":5188,"잠수":5189,"맘":5190,"경기장":5191,"페이스":5192,"com":5193,"79":5194,"웨이":5195,"적어도":5196,"알파":5197,"##빨":5198,"마도":5199,"멋지":5200,"연상":5201,"지도자":5202,"은하":5203,"##ᆨ시코":5204,"요즘":5205,"폭력":5206,"테스트":5207,"##일드":5208,"조심":5209,"##FC":5210,"저장":5211,"꼬리":5212,"re":5213,"동방":5214,"##땅":5215,"합격":5216,"##구치":5217,"##스테":5218,"##ᆫ디":5219,"메카":5220,"다이아":5221,"찰":5222,"##쩡":5223,"비디오":5224,"다면서":5225,"87":5226,"엔터":5227,"##란색":5228,"##가미":5229,"##쌍":5230,"극단":5231,"##사업":5232,"볼넷":5233,"헌터":5234,"하수인":5235,"공급":5236,"통상":5237,"곰":5238,"##시리":5239,"실드":5240,"노멀":5241,"박근":5242,"뛰어":5243,"음성":5244,"길이":5245,"헤드":5246,"##사자":5247,"똑같이":5248,"##페인":5249,"구출":5250,"##one":5251,"어지":5252,"마이클":5253,"대략":5254,"훔치":5255,"On":5256,"시위":5257,"##닫":5258,"파일럿":5259,"이재":5260,"교전":5261,"##김":5262,"##클리":5263,"##시타":5264,"##닛":5265,"종이":5266,"##공원":5267,"전투기":5268,"동작":5269,"##se":5270,"후기":5271,"런던":5272,"##ip":5273,"경비":5274,"결성":5275,"##활동":5276,"합성":5277,"토론":5278,"상점":5279,"지휘관":5280,"사령관":5281,"##AC":5282,"유령":5283,"국립":5284,"어째":5285,"도망가":5286,"AI":5287,"DJ":5288,"물질":5289,"고용":5290,"##RE":5291,"익숙":5292,"운전":5293,"아머":5294,"바보":5295,"이슬람":5296,"었었":5297,"헨":5298,"서양":5299,"수영":5300,"##ere":5301,"##플리":5302,"##티나":5303,"스웨":5304,"##창기":5305,"##로나":5306,"나아가":5307,"##코드":5308,"탄약":5309,"##륜":5310,"닉":5311,"득표":5312,"킬":5313,"동네":5314,"##PG":5315,"폭격":5316,"##널티":5317,"갤럭":5318,"소화":5319,"BGM":5320,"프레임":5321,"MC":5322,"회수":5323,"인공":5324,"장관":5325,"사마":5326,"어드":5327,"신경쓰":5328,"##럴":5329,"어둡":5330,"##라이트":5331,"SN":5332,"경고":5333,"이내":5334,"활성":5335,"##ᅳᆯ러":5336,"퀸":5337,"콜라":5338,"##의원":5339,"의혹":5340,"아ᄏ":5341,"묻히":5342,"법률":5343,"샷":5344,"##쾌":5345,"##ity":5346,"불법":5347,"권총":5348,"냐며":5349,"##ath":5350,"태우":5351,"조절":5352,"##녁":5353,"##프레":5354,"규칙":5355,"회차":5356,"조치":5357,"플레이오프":5358,"디지털":5359,"전적":5360,"홀로":5361,"겁":5362,"##스킬":5363,"##삭":5364,"라이더":5365,"동기":5366,"유행":5367,"수송":5368,"김영":5369,"들어서":5370,"으니까":5371,"호감":5372,"##마루":5373,"부문":5374,"간부":5375,"투구":5376,"##공화국":5377,"문장":5378,"FIFA":5379,"요괴":5380,"##사회":5381,"지르":5382,"##인민":5383,"##마법":5384,"웬만":5385,"##부장":5386,"##end":5387,"제임":5388,"##플레":5389,"결론":5390,"##끄럽":5391,"1991":5392,"이명":5393,"마냥":5394,"터키":5395,"취임":5396,"불러":5397,"빛나":5398,"움직임":5399,"로스":5400,"원소":5401,"자매":5402,"##슬리":5403,"다하":5404,"매니":5405,"앞두":5406,"글자":5407,"멕시코":5408,"##미스":5409,"셀":5410,"곧바로":5411,"제어":5412,"##그마":5413,"!!":5414,"가톨릭":5415,"펀":5416,"탱커":5417,"##메이크":5418,"정면":5419,"아기":5420,"실리":5421,"쾌":5422,"틱":5423,"트라":5424,"##부르크":5425,"찾아보":5426,"일시":5427,"##스라":5428,"에다":5429,"포탑":5430,"여유":5431,"특화":5432,"진심":5433,"너무나":5434,"##대사":5435,"THE":5436,"700":5437,"FA":5438,"메인":5439,"예측":5440,"문학":5441,"##장치":5442,"##죠":5443,"카라":5444,"##배우":5445,"오랫":5446,"소닉":5447,"박정":5448,"엘프":5449,"절망":5450,"타케":5451,"신문":5452,"메모리":5453,"흥행":5454,"수술":5455,"##놀":5456,"ㅕㅆ":5457,"도발":5458,"전공":5459,"구원":5460,"가시":5461,"의무":5462,"##티아":5463,"신호":5464,"착각":5465,"근육":5466,"정복":5467,"사자":5468,"총리":5469,"끼치":5470,"1988":5471,"유대":5472,"##ᅳᆯ루":5473,"소드":5474,"개정":5475,"MVP":5476,"##지방":5477,"외계":5478,"리메이크":5479,"##둘":5480,"제임스":5481,"국방":5482,"아끼":5483,"요정":5484,"파이어":5485,"연대":5486,"개체":5487,"##ᅳ란":5488,"밴":5489,"##ᅳ러지":5490,"떠오르":5491,"육성":5492,"넘치":5493,"##타자":5494,"저그":5495,"시드":5496,"그대":5497,"초창기":5498,"객":5499,"니시":5500,"좌우":5501,"고백":5502,"출력":5503,"소형":5504,"루시":5505,"깎":5506,"##가드":5507,"강철":5508,"여지":5509,"팀원":5510,"차라리":5511,"번개":5512,"##멜":5513,"엑":5514,"Ro":5515,"샘":5516,"물러나":5517,"긍정":5518,"##OT":5519,"인정받":5520,"##네스":5521,"잦":5522,"피부":5523,"초등학교":5524,"인연":5525,"목격":5526,"파트너":5527,"예비":5528,"스크리":5529,"베스트":5530,"블러":5531,"정착":5532,"##행위":5533,"##아시아":5534,"챕터":5535,"##스트리아":5536,"연도":5537,"요코":5538,"CC":5539,"썰":5540,"아일랜드":5541,"어린이":5542,"에서부터":5543,"계정":5544,"앵":5545,"상호":5546,"##팩트":5547,"바치":5548,"##커스":5549,"플랫":5550,"##속도로":5551,"Wh":5552,"카미":5553,"타이거":5554,"##닌":5555,"핫":5556,"발달":5557,"키스":5558,"갤럭시":5559,"전시":5560,"위장":5561,"안드로이드":5562,"##작용":5563,"영향력":5564,"켜":5565,"섞":5566,"이주":5567,"는다면":5568,"빗":5569,"예고":5570,"AK":5571,"묘지":5572,"식민":5573,"신설":5574,"블리":5575,"히데":5576,"내장":5577,"대항":5578,"헌법":5579,"떠올리":5580,"몰아":5581,"곁":5582,"박근혜":5583,"##끄":5584,"##ect":5585,"탱크":5586,"각자":5587,"DLC":5588,"차트":5589,"##렁":5590,"하필":5591,"깨지":5592,"대폭":5593,"라면서":5594,"명중률":5595,"htt":5596,"##세스":5597,"고문":5598,"Se":5599,"##포터":5600,"길드":5601,"오사카":5602,"1970":5603,"코인":5604,"세이브":5605,"슬롯":5606,"##평가":5607,"청년":5608,"사양":5609,"예능":5610,"농구":5611,"##카리":5612,"##잡이":5613,"양쪽":5614,"후속작":5615,"으려고":5616,"최소한":5617,"Le":5618,"마침내":5619,"호주":5620,"수록곡":5621,"분기":5622,"##마크":5623,"의뢰":5624,"훗":5625,"앱":5626,"##자드":5627,"챠":5628,"꺾":5629,"'.":5630,"##시리즈":5631,"본작":5632,"강의":5633,"악역":5634,"관할":5635,"##위키":5636,"##대상":5637,"주간":5638,"전후":5639,"아바":5640,"##틱":5641,"협박":5642,"콜로":5643,"현역":5644,"누적":5645,"국왕":5646,"게스트":5647,"##저스":5648,"공지":5649,"저녁":5650,"He":5651,"용사":5652,"인증":5653,"스프리":5654,"##무장":5655,"오랫동안":5656,"PD":5657,"막차":5658,"골든":5659,"루타":5660,"안내":5661,"세르":5662,"##미니":5663,"##age":5664,"그럼":5665,"##이즈":5666,"신기":5667,"##IS":5668,"##의회":5669,"크라":5670,"아빠":5671,"우리나라":5672,"기원전":5673,"부서":5674,"주말":5675,"일자":5676,"미카":5677,"al":5678,"첨":5679,"##티스":5680,"역임":5681,"넷":5682,"방출":5683,"의존":5684,"구멍":5685,"육체":5686,"가속":5687,"괴롭히":5688,"이지":5689,"##도르":5690,"전선":5691,"##필드":5692,"적대":5693,"분량":5694,"어쨌":5695,"세종":5696,"##무르":5697,"kt":5698,"감옥":5699,"실버":5700,"##박스":5701,"부부":5702,"망치":5703,"##지대":5704,"##어나오":5705,"올해":5706,"마구":5707,"연인":5708,"카오스":5709,"장교":5710,"Go":5711,"다가오":5712,"해리":5713,"아가":5714,"터치":5715,"Me":5716,"##드레":5717,"원자":5718,"##앞":5719,"##나카":5720,"##뜨":5721,"간혹":5722,"그레이":5723,"비행기":5724,"장악":5725,"이끄":5726,"오늘날":5727,"##ᆺ지":5728,"요원":5729,"명성":5730,"년만":5731,"강남":5732,"노부":5733,"개방":5734,"##몸":5735,"일본군":5736,"융합":5737,"빌드":5738,"대지":5739,"##물관":5740,"ᆫ다며":5741,"썩":5742,"예쁘":5743,"깜":5744,"정치인":5745,"놀랍":5746,"더라":5747,"보고":5748,"##워치":5749,"GT":5750,"처벌":5751,"가량":5752,"대처":5753,"오가":5754,"출마":5755,"안티":5756,"김태":5757,"1989":5758,"형사":5759,"KIA":5760,"투어":5761,"멍":5762,"떨어":5763,"써먹":5764,"놓이":5765,"은행":5766,"지능":5767,"##og":5768,"바위":5769,"##ake":5770,"##ide":5771,"상당수":5772,"한동안":5773,"##몬드":5774,"개성":5775,"이집":5776,"스튜디오":5777,"희귀":5778,"오스":5779,"외형":5780,"재미있":5781,"춘":5782,"오전":5783,"전문가":5784,"포스트":5785,"먹히":5786,"십자":5787,"##OM":5788,"Be":5789,"트레이드":5790,"My":5791,"무덤":5792,"화제":5793,"피격":5794,"##경찰":5795,"WW":5796,"패하":5797,"커지":5798,"배트":5799,"빡":5800,"사제":5801,"준수":5802,"소지":5803,"접촉":5804,"환승":5805,"섞이":5806,"부위":5807,"##타입":5808,"의료":5809,"130":5810,"##제국":5811,"꼽히":5812,"갇히":5813,"환영":5814,"고교":5815,"둘째":5816,"윌리엄":5817,"##려주":5818,"고마":5819,"소원":5820,"뺏":5821,"흠":5822,"담기":5823,"포르투":5824,"대표팀":5825,"횡":5826,"가게":5827,"씌":5828,"AR":5829,"허리":5830,"##펠":5831,"빚":5832,"##ss":5833,"##덱":5834,"룬":5835,"SC":5836,"호텔":5837,"##ark":5838,"최다":5839,"합의":5840,"##가시":5841,"소총":5842,"이집트":5843,"초간":5844,"섀":5845,"인조":5846,"##ime":5847,"깨닫":5848,"오스트리아":5849,"##ire":5850,"따라가":5851,"SM":5852,"##천시":5853,"편곡":5854,"##마리":5855,"선전":5856,"##치기":5857,"젠":5858,"##문제":5859,"##ᅳ럼":5860,"정류장":5861,"국회":5862,"수련":5863,"188":5864,"논리":5865,"웹툰":5866,"으러":5867,"wh":5868,"아니면":5869,"116":5870,"확대":5871,"손가락":5872,"알렉산":5873,"뜬":5874,"구도":5875,"##노우":5876,"전진":5877,"my":5878,"Su":5879,"문재":5880,"##네임":5881,"##그로":5882,"##ES":5883,"##듭":5884,"은근히":5885,"전신":5886,"삼국지":5887,"넉":5888,"SD":5889,"어른":5890,"귀신":5891,"ㅓ도":5892,"알아보":5893,"상업":5894,"##스틱":5895,"굴리":5896,"흐름":5897,"##산업":5898,"##누스":5899,"##ID":5900,"입구":5901,"극복":5902,"##안타":5903,"고등":5904,"성립":5905,"소중":5906,"치우":5907,"권리":5908,"대개":5909,"더더":5910,"연타":5911,"Tr":5912,"##스트레이":5913,"뭉":5914,"미디어":5915,"는지라":5916,"국가대표팀":5917,"스웨덴":5918,"청소년":5919,"##ite":5920,"##던가":5921,"태그":5922,"새벽":5923,"접속":5924,"수수":5925,"독특":5926,"##닉스":5927,"별다르":5928,"정글":5929,"고구":5930,"익히":5931,"튀어나오":5932,"##다랗":5933,"변호사":5934,"무렵":5935,"할아버지":5936,"구나":5937,"부디":5938,"##덩이":5939,"유이":5940,"무겁":5941,"모모":5942,"일격":5943,"뻐":5944,"축제":5945,"태평":5946,"##일러":5947,"##겐":5948,"조언":5949,"수십":5950,"160":5951,"##맨드":5952,"##ᆯ락":5953,"##ound":5954,"리치":5955,"작곡가":5956,"편입":5957,"연극":5958,"멀쩡":5959,"SR":5960,"블레이드":5961,"칭하":5962,"##iv":5963,"동의":5964,"일찍":5965,"페이즈":5966,"바이러스":5967,"더더욱":5968,"바이오":5969,"HD":5970,"라이프":5971,"일일":5972,"''":5973,"팬덤":5974,"팔리":5975,"퀄리티":5976,"차리":5977,"평가받":5978,"브레이크":5979,"##쳐지":5980,"빼앗기":5981,"병기":5982,"까다롭":5983,"음원":5984,"보안":5985,"##눈":5986,"혐의":5987,"원본":5988,"##협회":5989,"카타":5990,"블로그":5991,"##iz":5992,"##OP":5993,"핸드":5994,"##ge":5995,"한마디":5996,"##클ᄅ":5997,"훗날":5998,"권한":5999,"위상":6000,"기사단":6001,"##쩍":6002,"허나":6003,"랭킹":6004,"검찰":6005,"첫차":6006,"돼지":6007,"적군":6008,"절대로":6009,"IC":6010,"##큐어":6011,"##우리":6012,"대가":6013,"##항공":6014,"##속성":6015,"윌":6016,"클래식":6017,"##시로":6018,"손해":6019,"##지구":6020,"블라":6021,"살아가":6022,"칼리":6023,"주식":6024,"사카":6025,"식사":6026,"겐":6027,"##OW":6028,"대충":6029,"보관":6030,"느라":6031,"##주인":6032,"대리":6033,"합체":6034,"증언":6035,"면역":6036,"##ᆼ기":6037,"##사관":6038,"주포":6039,"뜯":6040,"##잠":6041,"처형":6042,"갈수록":6043,"둔":6044,"죄다":6045,"##감독":6046,"각본":6047,"시선":6048,"적응":6049,"하얗":6050,"누나":6051,"계단":6052,"핑":6053,"한쪽":6054,"무릎":6055,"미술":6056,"네임":6057,"참석":6058,"금속":6059,"리듬":6060,"꽂":6061,"공공":6062,"매직":6063,"과연":6064,"결코":6065,"모자라":6066,"개시":6067,"##말리":6068,"마이너":6069,"우위":6070,"##무시":6071,"스톰":6072,"##사령":6073,"한참":6074,"내성":6075,"개입":6076,"결합":6077,"##지로":6078,"##코토":6079,"전철":6080,"스승":6081,"후방":6082,"미소":6083,"기적":6084,"##법원":6085,"량":6086,"##LL":6087,"시계":6088,"헤비":6089,"해안":6090,"##ome":6091,"사도":6092,"##머스":6093,"활발":6094,"동화":6095,"지진":6096,"정수":6097,"토르":6098,"천재":6099,"수익":6100,"슈팅":6101,"다음날":6102,"으라":6103,"러브":6104,"Gr":6105,"##공학":6106,"불교":6107,"##갛":6108,"어다":6109,"연구소":6110,"데이비":6111,"해상":6112,"##고속":6113,"경기력":6114,"신세":6115,"내세우":6116,"익스":6117,"##테르":6118,"##전대":6119,"크리스마스":6120,"치유":6121,"with":6122,"##지마":6123,"우연히":6124,"김민":6125,"사이즈":6126,"원칙":6127,"##BA":6128,"유물":6129,"##튀":6130,"컬러":6131,"털리":6132,"##지사":6133,"이영":6134,"##UN":6135,"루수":6136,"캐스팅":6137,"자금":6138,"유치":6139,"최종보스":6140,"##리안":6141,"캠페인":6142,"개막":6143,"##타카":6144,"통치":6145,"연료":6146,"디버프":6147,"험":6148,"##테이":6149,"김종":6150,"오래되":6151,"커맨드":6152,"시즈":6153,"사막":6154,"스타크래프트":6155,"##키아":6156,"세포":6157,"데려오":6158,"이민":6159,"비추":6160,"보라":6161,"##범위":6162,"위대":6163,"##싸움":6164,"선출":6165,"IS":6166,"지위":6167,"투명":6168,"칭찬":6169,"의회":6170,"아크":6171,"인지도":6172,"게이트":6173,"결말":6174,"회상":6175,"메뉴":6176,"충성":6177,"이자":6178,"##비치":6179,"전성기":6180,"##일보":6181,"해적":6182,"##양함":6183,"1987":6184,"플랫폼":6185,"##데미":6186,"추가바람":6187,"de":6188,"업체":6189,"녹색":6190,"전멸":6191,"BE":6192,"흔들리":6193,"##방식":6194,"px":6195,"정찰":6196,"네오":6197,"열쇠":6198,"어지간":6199,"140":6200,"김동":6201,"나치":6202,"정비":6203,"이정":6204,"눈치채":6205,"##MA":6206,"미나":6207,"구사":6208,"미스":6209,"Pr":6210,"도서관":6211,"흔적":6212,"삐":6213,"거인":6214,"데모":6215,"이식":6216,"상태이상":6217,"신비":6218,"##ord":6219,"무작":6220,"Love":6221,"방사":6222,"##어서":6223,"상급":6224,"어쨌든":6225,"자국":6226,"오직":6227,"띠":6228,"새기":6229,"아미":6230,"일반인":6231,"호위":6232,"웃음":6233,"주기":6234,"##ud":6235,"어마":6236,"취미":6237,"작화":6238,"##주의자":6239,"구경":6240,"고수":6241,"펴":6242,"##쥬":6243,"지속시간":6244,"##짱":6245,"제정":6246,"##잉":6247,"대대":6248,"농담":6249,"후계":6250,"프리큐어":6251,"션":6252,"##뒤":6253,"오카":6254,"안경":6255,"어려움":6256,"ch":6257,"화성":6258,"날짜":6259,"도주":6260,"람":6261,"으시":6262,"헛":6263,"챌린":6264,"행적":6265,"모래":6266,"패션":6267,"본체":6268,"회말":6269,"개량":6270,"##멘트":6271,"불타":6272,"##mp":6273,"##주민":6274,"레이드":6275,"매년":6276,"##사람":6277,"모조리":6278,"##려나":6279,"##첨":6280,"거점":6281,"##블린":6282,"하락":6283,"##10":6284,"사후":6285,"당일":6286,"##뜻":6287,"윙":6288,"생존자":6289,"##ame":6290,"##트워크":6291,"UE":6292,"##반도":6293,"##ance":6294,"시달리":6295,"톰":6296,"개수":6297,"헝":6298,"사이드":6299,"의대":6300,"SKT":6301,"##ax":6302,"남북":6303,"메르":6304,"코코":6305,"흥미":6306,"둥":6307,"##밤":6308,"상성":6309,"##빌리":6310,"진보":6311,"코우":6312,"자세히":6313,"동굴":6314,"an":6315,"미라":6316,"스마트폰":6317,"JR":6318,"##ure":6319,"기울":6320,"##크라":6321,"일본인":6322,"가짜":6323,"##게이":6324,"##ix":6325,"900":6326,"기ᄈ":6327,"울리":6328,"##회장":6329,"GS":6330,"관중":6331,"기르":6332,"누리":6333,"##문학":6334,"##기업":6335,"##올":6336,"##ick":6337,"##mer":6338,"비례":6339,"##시스트":6340,"채택":6341,"일방":6342,"덧붙이":6343,"쟈":6344,"국적":6345,"캡틴":6346,"개혁":6347,"식량":6348,"##ice":6349,"포격":6350,"예시":6351,"임대":6352,"아티스트":6353,"##콜":6354,"뮈":6355,"세인":6356,"가을":6357,"스프링":6358,"##깥":6359,"업적":6360,"재현":6361,"##our":6362,"##힐":6363,"화학":6364,"##자치":6365,"##음악":6366,"Bo":6367,"행하":6368,"유나이":6369,"유니폼":6370,"귀찮":6371,"궤도":6372,"##월드":6373,"방지":6374,"리미":6375,"기용":6376,"바깥":6377,"잘못되":6378,"영구":6379,"집어":6380,"피아노":6381,"생겨나":6382,"고스트":6383,"승점":6384,"##아다니":6385,"연패":6386,"스톤":6387,"첼":6388,"신부":6389,"EP":6390,"##레이터":6391,"노인":6392,"식민지":6393,"##버스터":6394,"소속사":6395,"추구":6396,"곽":6397,"1986":6398,"협상":6399,"##위대":6400,"그레":6401,"거듭":6402,"몽골":6403,"##곱":6404,"날아오":6405,"미안":6406,"자리잡":6407,"##인민공화국":6408,"잠재":6409,"자극":6410,"할머니":6411,"##투수":6412,"사형":6413,"선택지":6414,"1960":6415,"다름":6416,"단편":6417,"특집":6418,"##역사":6419,"OST":6420,"양성":6421,"디아":6422,"무방":6423,"신앙":6424,"##즈마":6425,"##류탄":6426,"저작":6427,"잡지":6428,"사우":6429,"스탠":6430,"이익":6431,"빨갛":6432,"KO":6433,"##{{":6434,"Un":6435,"제갈":6436,"예수":6437,"취향":6438,"공원":6439,"종목":6440,"##차량":6441,"쌍둥이":6442,"중장":6443,"간신":6444,"숭":6445,"스턴":6446,"##큰":6447,"프라이":6448,"아이스":6449,"라이온":6450,"Ex":6451,"##시험":6452,"비주":6453,"출입":6454,"제작자":6455,"일치":6456,"기병":6457,"소장":6458,"##얄":6459,"넥센":6460,"소위":6461,"##개발":6462,"##긋":6463,"명확":6464,"##AD":6465,"정원":6466,"##네이":6467,"##qu":6468,"타인":6469,"전주":6470,"##넬":6471,"무역":6472,"강요":6473,"##러지":6474,"볼트":6475,"어택":6476,"포항":6477,"나포":6478,"몰락":6479,"##캠":6480,"예산":6481,"포로":6482,"호수":6483,"##듈":6484,"잘리":6485,"초보":6486,"##oc":6487,"다치":6488,"총선":6489,"씹":6490,"##릿":6491,"사신":6492,"부자":6493,"이글":6494,"콜라보":6495,"{{{":6496,"안타깝":6497,"판매량":6498,"##처리":6499,"유희왕":6500,"즐겁":6501,"그만두":6502,"막대":6503,"##80":6504,"타락":6505,"조약":6506,"##우승":6507,"킥":6508,"가상":6509,"실망":6510,"터뜨리":6511,"다지":6512,"GB":6513,"##학원":6514,"재산":6515,"베네":6516,"색깔":6517,"곡명":6518,"##ᆫ색":6519,"찾아내":6520,"레이스":6521,"##폴":6522,"리드":6523,"둘러싸":6524,"UEFA":6525,"세이버":6526,"연승":6527,"단단":6528,"화물":6529,"깔끔":6530,"기도":6531,"즉위":6532,"##병기":6533,"등지":6534,"휴대":6535,"DS":6536,"##도로":6537,"유나이티드":6538,"귀환":6539,"비상":6540,"##드ᄅ":6541,"186":6542,"##거지":6543,"##own":6544,"내지":6545,"sh":6546,"미루":6547,"##ys":6548,"##딧":6549,"##작전":6550,"##테일":6551,"백성":6552,"포르투갈":6553,"##맵":6554,"너희":6555,"신장":6556,"프린":6557,"챔피언십":6558,"아마도":6559,"CPU":6560,"중독":6561,"색상":6562,"로고":6563,"##버전":6564,"게시판":6565,"##우마":6566,"##든가":6567,"명단":6568,"찢":6569,"아카데미":6570,"##페이":6571,"항복":6572,"##괄":6573,"##수사":6574,"공성":6575,"##ber":6576,"식당":6577,"고구려":6578,"외전":6579,"야스":6580,"미스터":6581,"김재":6582,"강원도":6583,"통산":6584,"인격":6585,"유적":6586,"칭호":6587,"항공기":6588,"돋":6589,"조별":6590,"로그":6591,"적합":6592,"We":6593,"AM":6594,"구석":6595,"##늬":6596,"##슬러":6597,"커다랗":6598,"##교사":6599,"아쿠":6600,"교장":6601,"중대":6602,"타율":6603,"##ᆸ스":6604,"대선":6605,"김대":6606,"105":6607,"흘러":6608,"하단":6609,"새끼":6610,"건조":6611,"##av":6612,"##OC":6613,"일명":6614,"수장":6615,"오타":6616,"피터":6617,"유효":6618,"탈퇴":6619,"교류":6620,"트라이":6621,"##랑이":6622,"끊기":6623,"##old":6624,"##뛰":6625,"포위":6626,"커피":6627,"탄창":6628,"미츠":6629,"시내버스":6630,"..\"":6631,"레알":6632,"타수":6633,"인치":6634,"고작":6635,"개국":6636,"커리어":6637,"짱":6638,"CF":6639,"흑인":6640,"마키":6641,"면모":6642,"눕":6643,"주사":6644,"공무원":6645,"반사":6646,"박히":6647,"LI":6648,"측정":6649,"추억":6650,"뽀":6651,"그러니까":6652,"##orld":6653,"예언":6654,"나무위키":6655,"이수":6656,"체크":6657,"포수":6658,"라인업":6659,"기종":6660,"후술":6661,"##레벨":6662,"자폭":6663,"기생":6664,"히어로즈":6665,"휴식":6666,"지대":6667,"상술":6668,"적당히":6669,"아저":6670,"##드리드":6671,"우라":6672,"다름없":6673,"렙":6674,"용기":6675,"꾸미":6676,"##학과":6677,"배터리":6678,"저런":6679,"##시절":6680,"화장실":6681,"사유":6682,"마약":6683,"일기":6684,"##니시":6685,"##버그":6686,"고맙":6687,"메시지":6688,"##쓸":6689,"마비":6690,"과목":6691,"실전":6692,"##여자":6693,"##캔":6694,"면적":6695,"승객":6696,"클레":6697,"남녀":6698,"성남":6699,"##고지":6700,"1984":6701,"소라":6702,"깡":6703,"형상":6704,"차이점":6705,"어이":6706,"이스라":6707,"아메리카":6708,"선고":6709,"주소":6710,"##ont":6711,"1985":6712,"더럽":6713,"반동":6714,"최신":6715,"##헬":6716,"국경":6717,"철수":6718,"닭":6719,"##려들":6720,"시노":6721,"아랍":6722,"매니저":6723,"근본":6724,"187":6725,"##포르":6726,"도적":6727,"보존":6728,"SH":6729,"샌":6730,"##어마":6731,"##번트":6732,"추종":6733,"##유럽":6734,"트레":6735,"증오":6736,"3000":6737,"##졸":6738,"승률":6739,"로즈":6740,"용서":6741,"럭":6742,"##로봇":6743,"강도":6744,"매장":6745,"한글판":6746,"소프트웨어":6747,"##축구":6748,"##폭탄":6749,"AD":6750,"##ies":6751,"떨어뜨리":6752,"LC":6753,"사정거리":6754,"DF":6755,"급격":6756,"입지":6757,"서포터":6758,"유통":6759,"크리스탈":6760,"만명":6761,"후원":6762,"하차":6763,"또다시":6764,"이슈":6765,"초코":6766,"치루":6767,"마드리드":6768,"##스틴":6769,"lo":6770,"서구":6771,"KBO":6772,"본사":6773,"##랜":6774,"관람":6775,"도끼":6776,"부각":6777,"더러":6778,"미묘":6779,"톱":6780,"영주":6781,"##카오":6782,"연예인":6783,"시너지":6784,"##동물":6785,"담배":6786,"후배":6787,"아르헨":6788,"토끼":6789,"생략":6790,"쓸모":6791,"##에르":6792,"아이콘":6793,"이즈":6794,"##통신":6795,"집행":6796,"휩":6797,"잠수함":6798,"##랭":6799,"루카":6800,"네요":6801,"후손":6802,"데려가":6803,"부지":6804,"It":6805,"액티브":6806,"캔":6807,"바리":6808,"##lay":6809,"##잘":6810,"주역":6811,"##베스":6812,"자전":6813,"XX":6814,"중첩":6815,"##센트":6816,"아테":6817,"왕위":6818,"허락":6819,"이스라엘":6820,"이마":6821,"언더":6822,"##여객":6823,"들키":6824,"천만":6825,"저렴":6826,"##비디오":6827,"##기지":6828,"마린":6829,"중립":6830,"##본부":6831,"##사무":6832,"기아":6833,"동성":6834,"오랜만":6835,"뜬금":6836,"##경제":6837,"네트워크":6838,"상단":6839,"구글":6840,"기량":6841,"튕기":6842,"낚시":6843,"##산시":6844,"##하면":6845,"총알":6846,"클랜":6847,"펑":6848,"간신히":6849,"꽈":6850,"아케이드":6851,"음모":6852,"공세":6853,"##OD":6854,"신사":6855,"##킷":6856,"무척":6857,"MF":6858,"##걸이":6859,"브레":6860,"숙련":6861,"수류탄":6862,"방어구":6863,"##슬링":6864,"닥":6865,"발행":6866,"마술":6867,"##US":6868,"서식":6869,"글로벌":6870,"부딪":6871,"생년":6872,"취약":6873,"배차":6874,"##뚱":6875,"구르":6876,"관측":6877,"고리":6878,"엔터테":6879,"상인":6880,"터미널":6881,"벼":6882,"뻗":6883,"해피":6884,"텔레비전":6885,"알아내":6886,"물리치":6887,"혹시":6888,"마주치":6889,"흡혈":6890,"CV":6891,"가만":6892,"##렙":6893,"회초":6894,"##다운":6895,"자막":6896,"상실":6897,"맛있":6898,"아이언":6899,"WWE":6900,"파크":6901,"창원":6902,"행보":6903,"대수":6904,"곤란":6905,"일족":6906,"##인간":6907,"##캐리":6908,".....":6909,"학자":6910,"윗":6911,"##PM":6912,"법정":6913,"그랜드":6914,"놀이":6915,"##모스":6916,"##늄":6917,"##ann":6918,"조이":6919,"관찰":6920,"공룡":6921,"논의":6922,"지경":6923,"라기":6924,"바퀴":6925,"사이버":6926,"금융":6927,"머무르":6928,"사귀":6929,"##키스":6930,"NE":6931,"수출":6932,"##플라":6933,"아르헨티나":6934,"애정":6935,"어마어마":6936,"재정":6937,"SE":6938,"자본":6939,"강등":6940,"아시안":6941,"고위":6942,"##40":6943,"곳곳":6944,"##에이":6945,"거미":6946,"오버워치":6947,"##사랑":6948,"잡아먹":6949,"##프라":6950,"엿":6951,"스페이스":6952,"##사이드":6953,"##블로":6954,"125":6955,"시라":6956,"##pe":6957,"뿔":6958,"##ᅳᆯ란":6959,"##베리":6960,"멘탈":6961,"타마":6962,"##30":6963,"##태우":6964,"깨어나":6965,"데드":6966,"구리":6967,"인종":6968,"잡아내":6969,"간접":6970,"공방":6971,"발리":6972,"텍스트":6973,"라스":6974,"내보내":6975,"관점":6976,"자이언츠":6977,"침략":6978,"경상북도":6979,"##체육":6980,"웅":6981,"##아키":6982,"결심":6983,"##타운":6984,"스트라이크":6985,"철학":6986,"촌":6987,"똥":6988,"##도리":6989,"오라":6990,"문구":6991,"차기":6992,"##ᆫ가":6993,"드레":6994,"격추":6995,"단장":6996,"토벌":6997,"##그나":6998,"##블ᄅ":6999,"##룩":7000,"##sh":7001,"시마":7002,"유학":7003,"표지":7004,"your":7005,"##포스":7006,"##하마":7007,"되돌리":7008,"트랜스":7009,"산하":7010,"##전기":7011,"더군":7012,"##불명":7013,"악당":7014,"놀리":7015,"기숙":7016,"헤어지":7017,"하루카":7018,"저러":7019,"##NA":7020,"##딱":7021,"위반":7022,"중세":7023,"##벅":7024,"##기구":7025,"##신교":7026,"낮추":7027,"오크":7028,"가동":7029,"상관없":7030,"쿼터":7031,"##픔":7032,"##탱":7033,"김현":7034,"찍히":7035,"정화":7036,"평생":7037,"슛":7038,"상영":7039,"얻어":7040,"앨리스":7041,"##노트":7042,"##던지":7043,"곱":7044,"##마스터":7045,"약화":7046,"##VD":7047,"냄새":7048,"연합군":7049,"CJ":7050,"연금":7051,"미터":7052,"AS":7053,"정차":7054,"안기":7055,"메달":7056,"충실":7057,"타선":7058,"이혼":7059,"##를":7060,"언덕":7061,"금방":7062,"드라이브":7063,"##어하":7064,"거울":7065,"##벌레":7066,"드래프트":7067,"파츠":7068,"##슬라":7069,"DE":7070,"##월일":7071,"##승부":7072,"동인":7073,"남아":7074,"와타":7075,"간주":7076,"서서":7077,"엘리트":7078,"##ng":7079,"보호막":7080,"강자":7081,"##io":7082,"붓":7083,"블러드":7084,"성별":7085,"초록":7086,"문재인":7087,"배포":7088,"##사이트":7089,"침입":7090,"백제":7091,"뽑히":7092,"흩":7093,"빠져":7094,"상기":7095,"뱅":7096,"긴장":7097,"묘하":7098,"스팀":7099,"헨리":7100,"제작사":7101,"반전":7102,"존재감":7103,"인민":7104,"호기":7105,"루나":7106,"다카":7107,"주둔":7108,"본부":7109,"내전":7110,"##검사":7111,"상세":7112,"야생":7113,"기관총":7114,"마법소녀":7115,"복구":7116,"스케":7117,"##너먼트":7118,";&":7119,"엮이":7120,"백작":7121,"킨":7122,"끔":7123,"정기":7124,"소스":7125,"##바닥":7126,"해치":7127,"##공간":7128,"언젠가":7129,"제출":7130,"티켓":7131,"판결":7132,"폐쇄":7133,"에요":7134,"##oo":7135,"양자":7136,"##누리":7137,"제약":7138,"화재":7139,"로우":7140,"모시":7141,"##팡이":7142,"동양":7143,"천안":7144,"레이더":7145,"균형":7146,"지불":7147,"후계자":7148,"재밌":7149,"악명":7150,"짜증":7151,"##로디":7152,"옳":7153,"170":7154,"엑스트라":7155,"뮤직비디오":7156,"Pro":7157,"이듬":7158,"##끈":7159,"조연":7160,"끈":7161,"부적":7162,"은신":7163,"##히코":7164,"잔뜩":7165,"##사리":7166,"심사":7167,"표면":7168,"두개":7169,"로버트":7170,"전세계":7171,"펀치":7172,"##바나":7173,"유력":7174,"지뢰":7175,"##열차":7176,"저택":7177,"##ave":7178,"##전선":7179,"에르":7180,"##하르트":7181,"뮤지컬":7182,"리스":7183,"훼":7184,"백인":7185,"##텍":7186,"변환":7187,"불사":7188,"에다가":7189,"답변":7190,"##포인트":7191,"프로필":7192,"쏟아지":7193,"경주":7194,"##드립":7195,"행운":7196,"업로드":7197,"매체":7198,"##LE":7199,"##스럽":7200,"##구장":7201,"프란":7202,"##스트로":7203,"소유자":7204,"휘말리":7205,"인용":7206,"LV":7207,"계통":7208,"합병":7209,"윈도우":7210,"##훈련":7211,"위성":7212,"심심":7213,"딴":7214,"that":7215,"##펀":7216,"##운서":7217,"뜨겁":7218,"본관":7219,"천하":7220,"##즐":7221,"체결":7222,"UP":7223,"해명":7224,"##방향":7225,"태평양":7226,"##갈리":7227,"정황":7228,"난입":7229,"생년월일":7230,"##엣":7231,"프로토스":7232,"부임":7233,"##방어":7234,"뱀파이어":7235,"분명히":7236,"플레":7237,"뷰":7238,"코리아":7239,"창단":7240,"유독":7241,"왈":7242,"##ION":7243,"임신":7244,"히나":7245,"##디스":7246,"라인전":7247,"동점":7248,"##주교":7249,"건드리":7250,"노동자":7251,"무라":7252,"금메달":7253,"상관없이":7254,"캐논":7255,"##ream":7256,"선두":7257,"마루":7258,"보완":7259,"려던":7260,"ED":7261,"##우치":7262,"1500":7263,"구축함":7264,"호칭":7265,"괴수":7266,"견디":7267,"EN":7268,"정예":7269,"잃어버리":7270,"용인":7271,"디지몬":7272,"맥스":7273,"여야":7274,"아지":7275,"수백":7276,"한나라":7277,"공허":7278,"대인":7279,"펫":7280,"말투":7281,"악화":7282,"브라이":7283,"서번트":7284,"쭉":7285,"이듬해":7286,"항의":7287,"##부로":7288,"해골":7289,"외계인":7290,"하향":7291,"전승":7292,"파르":7293,"준우승":7294,"개설":7295,"다이아몬드":7296,"미쿠":7297,"##ond":7298,"##다나":7299,"1982":7300,"영광":7301,"호흡":7302,"어뢰":7303,"->":7304,"살ᄑ":7305,"팽":7306,"경로":7307,"굿":7308,"선거구":7309,"전파":7310,"살펴보":7311,"##가루":7312,"찬스":7313,"여우":7314,"발렌":7315,"유발":7316,"끔찍":7317,"##윙":7318,"통계":7319,"##브로":7320,"착하":7321,"아트":7322,"##뚜":7323,"##iss":7324,"Com":7325,"머신":7326,"5000":7327,"딜링":7328,"##마르":7329,"도루":7330,"펄":7331,"사쿠":7332,"칼날":7333,"왠지":7334,"##곽":7335,"삽입":7336,"##국제":7337,"턱":7338,"##체제":7339,"뛰어넘":7340,"##띠":7341,"기믹":7342,"부ᄃ":7343,"실종":7344,"##터스":7345,"루비":7346,"창설":7347,"막내":7348,"##하시":7349,"지치":7350,"고도":7351,"민첩":7352,"돌입":7353,"##재판":7354,"##슈타인":7355,"인디":7356,"##웰":7357,"참가자":7358,"스크린":7359,"유인":7360,"혐오":7361,"아저씨":7362,"호환":7363,"간격":7364,"커녕":7365,"존경":7366,"그렇지만":7367,"와일드":7368,"수호자":7369,"##밭":7370,"##대원":7371,"##중간":7372,"집착":7373,"걸맞":7374,"여객":7375,"사살":7376,"성질":7377,"1950":7378,"법원":7379,"도박":7380,"슈트":7381,"시상":7382,"##IP":7383,"##11":7384,"##나리":7385,"청소":7386,"정통":7387,"##또":7388,"##마치":7389,"채팅":7390,"기숙사":7391,"단축":7392,"토너먼트":7393,"허가":7394,"트럭":7395,"사원":7396,"반박":7397,"경남":7398,"##전투":7399,"수면":7400,"배트맨":7401,"드럼":7402,"##중앙":7403,"주차":7404,"##노리":7405,"미키":7406,"##니카":7407,"닫":7408,"1983":7409,"깔리":7410,"감추":7411,"우정":7412,"전북":7413,"##60":7414,"이종":7415,"##ian":7416,"##뚝":7417,"??":7418,"by":7419,"동명":7420,"시원":7421,"아나운서":7422,"##다보":7423,"he":7424,"디젤":7425,"##쟁이":7426,"싫어하":7427,"드라이버":7428,"사용자":7429,"세븐":7430,"모노":7431,"께서":7432,"부드럽":7433,"기상":7434,"분쟁":7435,"##이스":7436,"##디움":7437,"문단":7438,"요약":7439,"아츠":7440,"버스터":7441,"첩":7442,"기름":7443,"##싱턴":7444,"칩":7445,"퇴장":7446,"철저":7447,"진압":7448,"라틴":7449,"용량":7450,"BL":7451,"자녀":7452,"##장비":7453,"물고기":7454,"릴리":7455,"건국":7456,"탄환":7457,"##틀리":7458,"덩치":7459,"분신":7460,"&#":7461,"완결":7462,"##고속도로":7463,"작년":7464,"##카이도":7465,"입대":7466,"go":7467,"##앤":7468,"플래시":7469,"전제":7470,"##토미":7471,"불펜":7472,"그럭":7473,"중력":7474,"탐험":7475,"##파크":7476,"관계자":7477,"##페이스":7478,"##스트라":7479,"아포":7480,"##저럭":7481,"##홈":7482,"경상남도":7483,"공정":7484,"카와":7485,"만남":7486,"##겹":7487,"##밋":7488,"트럼프":7489,"##이어":7490,"리뷰":7491,"갑작":7492,"선제":7493,"분열":7494,"펼쳐지":7495,"##세서":7496,"##ᆺ집":7497,"그럭저럭":7498,"오디션":7499,"배정":7500,"중형":7501,"웃기":7502,"##Hz":7503,"빅토":7504,"안녕":7505,"##TV":7506,"이스":7507,"이토":7508,"스위스":7509,"헝가리":7510,"미만":7511,"아키라":7512,"국군":7513,"적중":7514,"벌레":7515,"##후반":7516,"닛":7517,"##틀러":7518,"아동":7519,"노벨":7520,"학과":7521,"평양":7522,"유격":7523,"호소":7524,"애플":7525,"##꼽":7526,"##세대":7527,"이와":7528,"더이상":7529,"##유닛":7530,"코르":7531,"##ory":7532,"소속팀":7533,"깨달":7534,"축복":7535,"로얄":7536,"##TE":7537,"고지":7538,"지라":7539,"피안타":7540,"구름":7541,"태국":7542,"##ace":7543,"단행":7544,"손상":7545,"##rom":7546,"또다른":7547,"나츠":7548,"##키지":7549,"##밖":7550,"신전":7551,"Co":7552,"유전자":7553,"리타":7554,"무관":7555,"인질":7556,"두르":7557,"Bl":7558,"##동자":7559,"배역":7560,"스트레스":7561,"##텐도":7562,"도둑":7563,"제트":7564,";&#":7565,"뿜":7566,"나마":7567,"휘하":7568,"기운":7569,"##터미널":7570,"##스타일":7571,"아즈":7572,"비주얼":7573,"어필":7574,"##필더":7575,"야수":7576,"대거":7577,"하이퍼":7578,"가라":7579,"마디":7580,"##트론":7581,"DVD":7582,"봇":7583,"##정책":7584,"침묵":7585,"어그로":7586,"Br":7587,"감각":7588,"##ᆯ레스":7589,"안전하":7590,"토니":7591,"워싱턴":7592,"급하":7593,"미네":7594,"##리온":7595,"##ᆺ갈리":7596,"발굴":7597,"학력":7598,"##코어":7599,"##키퍼":7600,"스위치":7601,"##끝":7602,"기동성":7603,"##야수":7604,"승자":7605,"##계열":7606,"옹호":7607,"꼼":7608,"진학":7609,"속이":7610,"위안":7611,"상식":7612,"근거리":7613,"Or":7614,"##화점":7615,"주자":7616,"본진":7617,"암시":7618,"##패스":7619,"갈아":7620,"##겸":7621,"영어판":7622,"##oth":7623,"공격속도":7624,"부스터":7625,"안나":7626,"라니":7627,"##ows":7628,"두들":7629,"결투":7630,"무시무시":7631,"크림":7632,"장거리":7633,"솔직":7634,"교차":7635,"##데드":7636,"레지":7637,"##셔널":7638,"##MP":7639,"동남":7640,"재단":7641,"처지":7642,"요인":7643,"##미르":7644,"날카":7645,"세부":7646,"##사거리":7647,"삼각":7648,"미드필더":7649,"신나":7650,"이펙트":7651,"간단히":7652,"비치":7653,"팬텀":7654,"##돌이":7655,"##투표":7656,"##차기":7657,"우에":7658,"커플":7659,"후퇴":7660,"##벳":7661,"##먼스":7662,"파동":7663,"철거":7664,"튼":7665,"협회":7666,"감지":7667,"시신":7668,"##TS":7669,"보스전":7670,"밀어":7671,"망가지":7672,"시카":7673,"함수":7674,"할인":7675,"관리자":7676,"무작위":7677,"웨스트":7678,"트리플":7679,"드롭":7680,"공산당":7681,"요금":7682,"차체":7683,"동급":7684,"기둥":7685,"출격":7686,"그린":7687,"##제도":7688,"##워즈":7689,"##예술":7690,"괜히":7691,"한반도":7692,"열매":7693,"##IG":7694,"스틸":7695,"논문":7696,"##기어":7697,"##든지":7698,"개발자":7699,"##단지":7700,"샌드":7701,"그로":7702,"##틀랜드":7703,"항구":7704,"CG":7705,"바쁘":7706,"무사히":7707,"##aw":7708,"##이동":7709,"모데":7710,"185":7711,"##틸":7712,"날카롭":7713,"발매일":7714,"올스타":7715,"##듯":7716,"고개":7717,"##조직":7718,"기재":7719,"파편":7720,"##공업":7721,"최상위":7722,"독일군":7723,"마감":7724,"##코스":7725,"수능":7726,"실책":7727,"간간":7728,"리오":7729,"야마토":7730,"끼우":7731,"연습생":7732,"##ᆻ다":7733,"즉사":7734,"과도":7735,"국정":7736,"##ale":7737,"SNS":7738,"보충":7739,"##렐":7740,"##하이":7741,"꿀":7742,"아쉬":7743,"지칭":7744,"##뱅":7745,"##이나":7746,"힙":7747,"부근":7748,"원리":7749,"PV":7750,"마케":7751,"파생":7752,"##즈니":7753,"타쿠":7754,"장탄":7755,"##지수":7756,"록맨":7757,"논쟁":7758,"##ike":7759,"##자동차":7760,"온도":7761,"특별히":7762,"마블":7763,"더군다나":7764,"기세":7765,"약탈":7766,"엑시":7767,"상륙":7768,"영원히":7769,"##같이":7770,"개별":7771,"1945":7772,"후자":7773,"소요":7774,"증상":7775,"유성":7776,"Cl":7777,"성당":7778,"인피":7779,"임기":7780,"선행":7781,"페이스북":7782,"구미":7783,"For":7784,"무인":7785,"##자와":7786,"진주":7787,"대치":7788,"자전거":7789,"##하루":7790,"막판":7791,"무산":7792,"내일":7793,"퍼포":7794,"축하":7795,"피우":7796,"젤":7797,"RPG":7798,"##우트":7799,"오키":7800,"부장":7801,"학문":7802,"왜냐":7803,"매번":7804,"루이스":7805,"테일":7806,"안양":7807,"세계대전":7808,"흰색":7809,"하우스":7810,"##사우":7811,"##OU":7812,"모토":7813,"여러분":7814,"방송국":7815,"Dr":7816,"만주":7817,"##르타":7818,"유산":7819,"툴":7820,"요한":7821,"첼시":7822,"암살자":7823,"서서히":7824,"데이비드":7825,"배출":7826,"조리":7827,"##ep":7828,"##종합":7829,"어빌리":7830,"중복":7831,"출루":7832,"소음":7833,"##기록":7834,"중시":7835,"선조":7836,"##irl":7837,"동경":7838,"악몽":7839,"##man":7840,"임팩트":7841,"근대":7842,"주류":7843,"최적":7844,"중국어":7845,"신도":7846,"##메가":7847,"##ach":7848,"영지":7849,"##ile":7850,"175":7851,"썬":7852,"에반":7853,"1981":7854,"Sc":7855,"##뮬":7856,"BB":7857,"우세":7858,"##부인":7859,"수비력":7860,"OP":7861,"슬프":7862,"줍":7863,"승인":7864,"과장":7865,"102":7866,"그날":7867,"교과":7868,"교실":7869,"117":7870,"필리핀":7871,"신발":7872,"부착":7873,"골키퍼":7874,"세번":7875,"##타마":7876,"베이징":7877,"코미디":7878,"##히트":7879,"##룸":7880,"##라기":7881,"오마":7882,"##12":7883,"Team":7884,"106":7885,"만일":7886,"끌려가":7887,"멜로디":7888,"프리미엄":7889,"과학자":7890,"##VA":7891,"수명":7892,"##네시아":7893,"지리":7894,"LA":7895,"사사":7896,"일당":7897,"##ink":7898,"플래그":7899,"##잎":7900,"Sk":7901,"잠입":7902,"며칠":7903,"에그":7904,"고객":7905,"##늦":7906,"브라운":7907,"##치아":7908,"의외로":7909,"##앉":7910,"페널티":7911,"Mo":7912,"금액":7913,"주니어":7914,"ᆯ게":7915,"꿰":7916,"복무":7917,"GP":7918,"토리":7919,"악기":7920,"감싸":7921,"프로토":7922,"권위":7923,"큐브":7924,"가만히":7925,"교토":7926,"헬기":7927,"챌린지":7928,"라이플":7929,"##어놓":7930,"코난":7931,"안개":7932,"천연":7933,"미즈":7934,"DD":7935,"복제":7936,"위원회":7937,"ᄇ시오":7938,"115":7939,"권장":7940,"앗":7941,"김경":7942,"연맹":7943,"베타":7944,"물량":7945,"미나미":7946,"##ᆯ로그":7947,"##법인":7948,"구별":7949,"청와":7950,"닌텐도":7951,"싱크":7952,"##우라":7953,"##드래":7954,"##슴":7955,"원형":7956,"스트리트":7957,"싸이":7958,"질병":7959,"굵":7960,"공용":7961,"소방":7962,"모로":7963,"##ᅲᆷ":7964,"조기":7965,"##지아":7966,"진격":7967,"잠들":7968,"장인":7969,"##모함":7970,"##페라":7971,"##ial":7972,"해킹":7973,"전망":7974,"FM":7975,"##피해":7976,"건네":7977,"##ish":7978,"가방":7979,"##오루":7980,"귀국":7981,"몫":7982,"대조":7983,"SU":7984,"여인":7985,"1979":7986,"부실":7987,"언데드":7988,"엘리자":7989,"냐면":7990,"가공":7991,"규격":7992,"청와대":7993,"개신교":7994,"좌석":7995,"UN":7996,"##의식":7997,"파란색":7998,"직장":7999,"##키리":8000,"타석":8001,"만만":8002,"최우":8003,"응용":8004,"선임":8005,"오스만":8006,"##ᆯ드":8007,"##뇨":8008,"당대":8009,"##ᆯ러스":8010,"한두":8011,"쟁":8012,"퍼포먼스":8013,"억지로":8014,"김진":8015,"에릭":8016,"법칙":8017,"육상":8018,"한일":8019,"억제":8020,"테라":8021,"디스크":8022,"새누리":8023,"합계":8024,"프렌":8025,"뽑아내":8026,"인권":8027,"##ower":8028,"취득":8029,"신입":8030,"학부":8031,"가루":8032,"다가가":8033,"치킨":8034,"통화":8035,"왜곡":8036,"양상":8037,"행방":8038,"지팡이":8039,"궁금":8040,"여자친구":8041,"입주":8042,"##하하":8043,"이웃":8044,"##톡":8045,"가디언":8046,"##II":8047,"아이러":8048,"##바야":8049,"Bla":8050,"사립":8051,"패널":8052,"독재":8053,"긴급":8054,"명백":8055,"일화":8056,"카스":8057,"방치":8058,"제독":8059,"회색":8060,"시비":8061,"김상":8062,"체험":8063,"연령":8064,"계시":8065,"콘텐츠":8066,"이터":8067,"후임":8068,"야간":8069,"대단히":8070,"혼돈":8071,"마물":8072,"기갑":8073,"프리미어":8074,"가죽":8075,"##레인저":8076,"공백":8077,"즈음":8078,"##GE":8079,"캐스터":8080,"동계":8081,"##여행":8082,"벙":8083,"양식":8084,"싹":8085,"##케이":8086,"야구장":8087,"##핏":8088,"출구":8089,"##느리":8090,"##계획":8091,"해내":8092,"고장":8093,"강점":8094,"원조":8095,"##마츠":8096,"##공주":8097,"##스레":8098,"##호환":8099,"수동":8100,"부동":8101,"변수":8102,"주관":8103,"수급":8104,"김기":8105,"##계약":8106,"CH":8107,"일람":8108,"전무":8109,"##조합":8110,"하츠":8111,"경직":8112,"we":8113,"임금":8114,"재회":8115,"확산":8116,"이브":8117,"헤어":8118,"부서지":8119,"모스크":8120,"끊임":8121,"구슬":8122,"##크스":8123,"시리아":8124,"공수":8125,"BS":8126,"##IM":8127,"##트리스":8128,"Ne":8129,"처참":8130,"##!!":8131,"감동":8132,"Star":8133,"뒤지":8134,"관여":8135,"여학생":8136,"##체스터":8137,"가요":8138,"나나":8139,"리라":8140,"평점":8141,"마우스":8142,"발목":8143,"##업체":8144,"시합":8145,"부산광역시":8146,"오염":8147,"##딕":8148,"기후":8149,"질리":8150,"조상":8151,"독점":8152,"비웃":8153,"##저기":8154,"코멘트":8155,"돌연":8156,"##천군":8157,"전라남도":8158,"포켓몬스터":8159,"PR":8160,"기동전사":8161,"비비":8162,"미국인":8163,"##차례":8164,"장신":8165,"ID":8166,"##저리":8167,"##포드":8168,"##노선":8169,"##베이터":8170,"사법":8171,"사이코":8172,"호랑이":8173,"질투":8174,"조롱":8175,"타이거즈":8176,"나비":8177,"##그르":8178,"스파이더":8179,"화산":8180,"포트":8181,"##를로":8182,"##인드":8183,"통틀":8184,"##만화":8185,"대포":8186,"##번에":8187,"시그":8188,"Wind":8189,"공화":8190,"기쁘":8191,"스와":8192,"##전설":8193,"에디":8194,"안좋":8195,"감상":8196,"350":8197,"세라":8198,"##카락":8199,"생명체":8200,"켈":8201,"##99":8202,"깜짝":8203,"일본판":8204,"##소설":8205,"임의":8206,"내각":8207,"공립":8208,"교도":8209,"손오":8210,"엄격":8211,"택하":8212,"과제":8213,"up":8214,"##민족":8215,"평일":8216,"우주선":8217,"풍부":8218,"분당":8219,"소송":8220,"카운트":8221,"유언":8222,"폭행":8223,"출간":8224,"청주":8225,"개장":8226,"LP":8227,"등번호":8228,"##라드":8229,"함께하":8230,"##자료":8231,"피닉스":8232,"제네":8233,"솜":8234,"DC":8235,"승무원":8236,"파멸":8237,"##리얼":8238,"클릭":8239,"노바":8240,"War":8241,"캘리":8242,"##야스":8243,"##어드":8244,"격차":8245,"##배치":8246,"마스크":8247,"분해":8248,"데이트":8249,"fe":8250,"And":8251,"약물":8252,"전남":8253,"복원":8254,"##궐":8255,"##사단":8256,"체감":8257,"고소":8258,"신자":8259,"어떻게들":8260,"남매":8261,"##구미":8262,"배달":8263,"상한":8264,"서포트":8265,"##세력":8266,"카구":8267,"머리카락":8268,"##바지":8269,"도저히":8270,"정발":8271,"##ass":8272,"##툴":8273,"##껍":8274,"어드벤":8275,"블래":8276,"##ᆷ스":8277,"##멧":8278,"뚫리":8279,"만지":8280,"추방":8281,"##구조":8282,"토지":8283,"손실":8284,"##티어":8285,"라이온즈":8286,"뒤늦":8287,"##쿠스":8288,"##ms":8289,"원더":8290,"##me":8291,"모험가":8292,"자꾸":8293,"성경":8294,"##렐라":8295,"스즈":8296,"360":8297,"얀":8298,"Man":8299,"치열":8300,"오로지":8301,"나노":8302,"아레나":8303,"장미":8304,"재학":8305,"112":8306,"##지르":8307,"투사":8308,"바르셀":8309,"트루":8310,"##라노":8311,"조용히":8312,"배급":8313,"특전":8314,"극도":8315,"##전문":8316,"마코토":8317,"##gh":8318,"구성원":8319,"중량":8320,"따뜻":8321,"##정치":8322,"사용시":8323,"에픽":8324,"리버풀":8325,"뭉치":8326,"조명":8327,"##CG":8328,"천년":8329,"로빈":8330,"##기능":8331,"베ᄅ":8332,"시인":8333,"이라크":8334,"##나이트":8335,"108":8336,"All":8337,"##켈":8338,"박물관":8339,"유기":8340,"폴리":8341,"말ᄊ":8342,"다운로드":8343,"인력":8344,"집합":8345,"그중":8346,"권유":8347,"AKB":8348,"##ᆫ헨":8349,"소용":8350,"##tle":8351,"##pp":8352,"디즈니":8353,"##ble":8354,"분포":8355,"##amp":8356,"##업자":8357,"묶이":8358,"일요일":8359,"경북":8360,"스탠드":8361,"캠프":8362,"중순":8363,"넘버":8364,"반감":8365,"##진영":8366,"바르셀로나":8367,"##려받":8368,"##ft":8369,"충청남도":8370,"##좀":8371,"하마":8372,"추리":8373,"패전":8374,"메이플":8375,"고블린":8376,"##천사":8377,"창고":8378,"안쪽":8379,"야쿠":8380,"상하이":8381,"해산":8382,"증폭":8383,"자비":8384,"딜레이":8385,"지목":8386,"##소총":8387,"단종":8388,"려다":8389,"합리":8390,"103":8391,"극중":8392,"베리":8393,"루머":8394,"수월":8395,"붙잡히":8396,"##데타":8397,"비유":8398,"출범":8399,"트위치":8400,"축소":8401,"##yle":8402,"루피":8403,"##70":8404,"인방":8405,"##ous":8406,"폐기":8407,"##몹":8408,"학기":8409,"당사자":8410,"크리스티":8411,"##ᅳ롤":8412,"##코치":8413,"##포니아":8414,"기력":8415,"막아내":8416,"어시스트":8417,"##센스":8418,"##상황":8419,"##스리그":8420,"세금":8421,"수직":8422,"서머":8423,"##프ᄅ":8424,"##now":8425,"##제한":8426,"##atch":8427,"조우":8428,"릭":8429,"##후보":8430,"##sp":8431,"전대":8432,"오이":8433,"##클럽":8434,"##혁명":8435,"##케이션":8436,"넘어지":8437,"킬러":8438,"##구나":8439,"One":8440,"넘어서":8441,"##리나":8442,"투척":8443,"Mar":8444,"본토":8445,"집권":8446,"카지":8447,"불행":8448,"##orm":8449,"기묘":8450,"벌리":8451,"##트릭":8452,"##스티벌":8453,"전당":8454,"장사":8455,"얻어맞":8456,"##수리":8457,"수색":8458,"New":8459,"To":8460,"학습":8461,"ON":8462,"##민주당":8463,"여파":8464,"##히토":8465,"직선":8466,"승진":8467,"서클":8468,"보이스":8469,"퍼부":8470,"세팅":8471,"##방법":8472,"##ᆯ릿":8473,"주최":8474,"원딜":8475,"김용":8476,"ex":8477,"무승부":8478,"##사격":8479,"세뇌":8480,"패키지":8481,"꼬이":8482,"낙선":8483,"대기시간":8484,"나루토":8485,"짤":8486,"나요":8487,"IN":8488,"순환":8489,"범죄자":8490,"##모델":8491,"막상":8492,"##간격":8493,"던가":8494,"BR":8495,"폭파":8496,"모집":8497,"농업":8498,"경악":8499,"Part":8500,"물체":8501,"##미터":8502,"후회":8503,"되살":8504,"로이":8505,"유의":8506,"KR":8507,"키타":8508,"부딪히":8509,"절차":8510,"수석":8511,"리얼":8512,"가난":8513,"두렵":8514,"##ᅳ랜":8515,"##어트":8516,"배제":8517,"Gam":8518,"채보":8519,"헐":8520,"살아나":8521,"##닐":8522,"##흔":8523,"##모어":8524,"반짝":8525,"SF":8526,"실현":8527,"토요일":8528,"비명":8529,"국당":8530,"유출":8531,"까이":8532,"하나하나":8533,"##킬":8534,"복선":8535,"##ING":8536,"당당":8537,"##팽":8538,"광산":8539,"함락":8540,"##겔":8541,"수립":8542,"극히":8543,"에미":8544,"랜드":8545,"집어넣":8546,"헤르":8547,"CS":8548,"##반기":8549,"우호":8550,"ᆫ다거나":8551,"##비용":8552,"엄밀":8553,"워커":8554,"좌절":8555,"##부지":8556,"손자":8557,"홋":8558,"##위원장":8559,"토큰":8560,"우월":8561,"잠실":8562,"비극":8563,"델":8564,"결전":8565,"우익":8566,"산탄":8567,"선사":8568,"풋":8569,"##더라":8570,"복합":8571,"##장갑":8572,"##생기":8573,"##ment":8574,"PP":8575,"하여":8576,"쵸":8577,"유재":8578,"해병대":8579,"명목":8580,"엎":8581,"실시간":8582,"##ae":8583,"이동속도":8584,"중동":8585,"##관광":8586,"무술":8587,"수비수":8588,"인접":8589,"##64":8590,"##롤":8591,"자책":8592,"128":8593,"지향":8594,"세인트":8595,"빨간":8596,"##끗":8597,"포드":8598,"장탄수":8599,"배려":8600,"늙":8601,"나르":8602,"한국판":8603,"##테스":8604,"동아리":8605,"##자체":8606,"##ase":8607,"기호":8608,"와카":8609,"지연":8610,"크ᄅ":8611,"리스트":8612,"스티븐":8613,"마땅":8614,"레코드":8615,"타츠":8616,"##카미":8617,"핑크":8618,"##슬로":8619,"##ree":8620,"아베":8621,"조커":8622,"쌀":8623,"중화민국":8624,"택시":8625,"쳐들":8626,"유망":8627,"생전":8628,"드루":8629,"되돌":8630,"##아들":8631,"안심":8632,"닉네임":8633,"분산":8634,"##릇":8635,"할로":8636,"수염":8637,"달려가":8638,"김해":8639,"신속":8640,"동반":8641,"짐작":8642,"히틀러":8643,"철권":8644,"불량":8645,"짙":8646,"##코프":8647,"의자":8648,"En":8649,"##놀이":8650,"##토니":8651,"태풍":8652,"서울시":8653,"제갈량":8654,"##장면":8655,"크레딧":8656,"끓":8657,"때려":8658,"슈퍼로봇":8659,"##게이트":8660,"사회주의":8661,"양손":8662,"연산":8663,"확장팩":8664,"1978":8665,"네티":8666,"알바":8667,"기부":8668,"1973":8669,"ᄇ니까":8670,"각오":8671,"상담":8672,"세리":8673,"주택":8674,"비틀":8675,"JT":8676,"함부로":8677,"각지":8678,"날씨":8679,"여섯":8680,"캠퍼스":8681,"##이너":8682,"암호":8683,"기뻐":8684,"히메":8685,"역습":8686,"헬리":8687,"##헤이":8688,"바론":8689,"기뻐하":8690,"알라":8691,"합동":8692,"어쩌면":8693,"184":8694,"근원":8695,"##az":8696,"돌보":8697,"피트":8698,"케인":8699,"조카":8700,"딘":8701,"유니크":8702,"##bo":8703,"거론":8704,"처분":8705,"파울":8706,"제치":8707,"벤치":8708,"동해":8709,"##키스탄":8710,"그외":8711,"##왜":8712,"##그러":8713,"센스":8714,"첫째":8715,"##깨비":8716,"공격수":8717,"아가씨":8718,"##루미":8719,"스타디움":8720,"저하":8721,"보라색":8722,"뜬금없이":8723,"AN":8724,"오락":8725,"유전":8726,"얽":8727,"웨이브":8728,"##버드":8729,"메이드":8730,"##데레":8731,"호남":8732,"World":8733,"##ason":8734,"구장":8735,"호불":8736,"중후반":8737,"##AY":8738,"111":8739,"매출":8740,"방탄":8741,"박살내":8742,"수습":8743,"체중":8744,"콰":8745,"220":8746,"도시철도":8747,"힙합":8748,"이글스":8749,"##iki":8750,"고증":8751,"오브젝트":8752,"호불호":8753,"여럿":8754,"명의":8755,"캐시":8756,"##딸":8757,"##사스":8758,"교단":8759,"##아아":8760,"183":8761,"##저우":8762,"대성":8763,"공업":8764,"샷건":8765,"젖":8766,"레스":8767,"사인":8768,"썬더":8769,"퇴각":8770,"램":8771,"거칠":8772,"##타리":8773,"짐승":8774,"여전":8775,"말레이":8776,"난사":8777,"JP":8778,"시상식":8779,"혈액":8780,"사무실":8781,"엔젤":8782,"낙하":8783,"번지":8784,"##낭":8785,"유미":8786,"스캔":8787,"거든":8788,"장로":8789,"깊이":8790,"여의":8791,"사야":8792,"온천":8793,"원시":8794,"하인":8795,"일렉":8796,"카자":8797,"사키":8798,"중상":8799,"우르":8800,"여기저기":8801,"##ear":8802,"So":8803,"##기에":8804,"##실점":8805,"##성군":8806,"추세":8807,"검술":8808,"조회":8809,"네티즌":8810,"마계":8811,"##규모":8812,"꼬마":8813,"공인":8814,"##hen":8815,"흡사":8816,"갈색":8817,"캘리포니아":8818,"빨간색":8819,"스나이":8820,"이모":8821,"240":8822,"크레이":8823,"##장군":8824,"빠져나가":8825,"##나기":8826,"노란색":8827,"하계":8828,"동서":8829,"##아치":8830,"찬성":8831,"막강":8832,"탐사":8833,"##MS":8834,"##생명":8835,"명문":8836,"날뛰":8837,"sp":8838,"평하":8839,"조르":8840,"장난감":8841,"심의":8842,"##사르":8843,"##운트":8844,"##곰":8845,"모니":8846,"전날":8847,"할리":8848,"##are":8849,"시공":8850,"네임드":8851,"맥주":8852,"##차이":8853,"배드":8854,"노조":8855,"려다가":8856,"FW":8857,"장례":8858,"공감":8859,"루크":8860,"우유":8861,"포장":8862,"밀어내":8863,"두들기":8864,"알렉스":8865,"차갑":8866,"토미":8867,"##ᆯ프":8868,"##추어":8869,"케이블":8870,"프린세스":8871,"GO":8872,"체인지":8873,"츄":8874,"##퀘":8875,"골렘":8876,"##스토리":8877,"퍼즐":8878,"포획":8879,"스펠":8880,"##직자":8881,"견해":8882,"유혹":8883,"ᆯ려":8884,"소니":8885,"터널":8886,"매주":8887,"인자":8888,"원문":8889,"치즈":8890,"##신문":8891,"베를린":8892,"강렬":8893,"경호":8894,"키보드":8895,"연봉":8896,"##가다":8897,"타이탄":8898,"훈장":8899,"이세":8900,"개척":8901,"##ᆨ션":8902,"보드":8903,"스미스":8904,"1974":8905,"구조물":8906,"가두":8907,"모듈":8908,"돋보이":8909,"스쿨":8910,"##륨":8911,"노스":8912,"감수":8913,"드론":8914,"호시":8915,"인재":8916,"게리":8917,"뮌헨":8918,"핀란드":8919,"##쏘":8920,"스코틀랜드":8921,"tv":8922,"##르드":8923,"프랑스어":8924,"사로":8925,"통로":8926,"샤이":8927,"포스터":8928,"당기":8929,"도라":8930,"고로":8931,"물품":8932,"일가":8933,"베테":8934,"그랑":8935,"아이러니":8936,"마오":8937,"리아":8938,"트라우마":8939,"스리":8940,"베어스":8941,"##환경":8942,"##반대":8943,"오메가":8944,"후반기":8945,"시로":8946,"##플링":8947,"http":8948,"히가시":8949,"우측":8950,"트레이너":8951,"##범죄":8952,"##주인공":8953,"진상":8954,"주행":8955,"김준":8956,"1972":8957,"책임지":8958,"다투":8959,"키미":8960,"신용":8961,"조선시대":8962,"끌리":8963,"보건":8964,"힐러":8965,"##90":8966,"트로피":8967,"##ven":8968,"토마":8969,"성씨":8970,"##츠카":8971,"##ife":8972,"시종":8973,"완공":8974,"흔들":8975,"슬래":8976,"전락":8977,"통칭":8978,"말기":8979,"https":8980,"##의자":8981,"사퇴":8982,"위로":8983,"결혼식":8984,"토대":8985,"##건설":8986,"서바이":8987,"튼튼":8988,"진급":8989,"배수":8990,"원곡":8991,"허무":8992,"##ade":8993,"가담":8994,"혜택":8995,"신데":8996,"왕실":8997,"왕복":8998,"##룬":8999,"학생회":9000,"##AP":9001,"##상자":9002,"Wi":9003,"강경":9004,"##연구소":9005,"체육관":9006,"밀려나":9007,"이순":9008,"트리거":9009,"트윈스":9010,"##차리":9011,"홀리":9012,"콘솔":9013,"로맨":9014,"중지":9015,"토크":9016,"##머신":9017,"시카고":9018,"이경":9019,"##구간":9020,"스즈키":9021,"##요소":9022,"##무부":9023,"##뱃":9024,"행정구역":9025,"##미사":9026,"대령":9027,"잭슨":9028,"나아지":9029,"연쇄":9030,"##요원":9031,"동행":9032,"쓸데":9033,"##아트":9034,"##act":9035,"MB":9036,"##버스터미널":9037,"~!":9038,"##ai":9039,"##게이머":9040,"반도":9041,"##ank":9042,"##gin":9043,"중부":9044,"도마":9045,"##ᅳᆯ랜드":9046,"댄":9047,"적자":9048,"%/":9049,"드로우":9050,"스텝":9051,"유입":9052,"##소수":9053,"박살나":9054,"포스트시즌":9055,"do":9056,"산타":9057,"압력":9058,"바둑":9059,"센서":9060,"##aby":9061,"흙":9062,"시바":9063,"최저":9064,"버섯":9065,"코트":9066,"목사":9067,"천천":9068,"아바타":9069,"부작용":9070,"국도":9071,"재개":9072,"인도네시아":9073,"104":9074,"엔드":9075,"캄":9076,"올드":9077,"한창":9078,"코스ᄐ":9079,"##out":9080,"수여":9081,"단행본":9082,"크라이":9083,"탐정":9084,"사악":9085,"청나라":9086,"상주":9087,"Fate":9088,"##도사":9089,"no":9090,"이점":9091,"##ᆫ즈":9092,"영감":9093,"덴마크":9094,"대시":9095,"교복":9096,"소재지":9097,"손꼽":9098,"코믹":9099,"##선생":9100,"히든":9101,"백업":9102,"##산역":9103,"##스텀":9104,"이누":9105,"##에른":9106,"실내":9107,"갚":9108,"손쉽":9109,"넘어오":9110,"깎이":9111,"아ᄐ":9112,"제물":9113,"김일":9114,"렌즈":9115,"##보호":9116,"워크래프트":9117,"##쿨":9118,"1975":9119,"배차간격":9120,"민주주의":9121,"##퍼드":9122,"##명사":9123,"프로듀스":9124,"비기":9125,"대책":9126,"##lect":9127,"어벤":9128,"트레일러":9129,"##저런":9130,"LIVE":9131,"간간히":9132,"도덕":9133,"기수":9134,"넉백":9135,"123":9136,"##보우":9137,"징역":9138,"설령":9139,"리처":9140,"년도":9141,"신데렐라":9142,"##미아":9143,"세월호":9144,"동아":9145,"##높":9146,"쿠데타":9147,"탐색":9148,"##총장":9149,"카트":9150,"끊임없이":9151,"##ET":9152,"포탄":9153,"일주":9154,"타일":9155,"등극":9156,"을수록":9157,"범용":9158,"입자":9159,"침대":9160,"패밀리":9161,"해양":9162,"##oll":9163,"전동차":9164,"약자":9165,"실상":9166,"NH":9167,"페스티벌":9168,"저자":9169,"디시":9170,"끌어들이":9171,"##바야시":9172,"입문":9173,"관통력":9174,"아비":9175,"##ᅳᆫ바":9176,"캐릭":9177,"##UM":9178,"리즈":9179,"마스":9180,"대타":9181,"Up":9182,"노무":9183,"OS":9184,"이른바":9185,"업계":9186,"장애물":9187,"울프":9188,"1976":9189,"##액션":9190,"##탐정":9191,"필요없":9192,"여타":9193,"are":9194,"마피아":9195,"재직":9196,"레온":9197,"아스카":9198,"전향":9199,"다스리":9200,"신중":9201,"##루션":9202,"스타리그":9203,"##무스":9204,"III":9205,"##ork":9206,"그레이트":9207,"성실":9208,"이런저런":9209,"##사우루스":9210,"우승자":9211,"토키":9212,"##ᆸ시":9213,"네크로":9214,"원주민":9215,"여서":9216,"노르웨이":9217,"##지기":9218,"소금":9219,"섀도우":9220,"우치":9221,"이어받":9222,"최선":9223,"창문":9224,"##아라":9225,"그러므로":9226,"듀오":9227,"깃발":9228,"룸":9229,"Do":9230,"##ary":9231,"##에어":9232,"콤비":9233,"잊히":9234,"왼손":9235,"키라":9236,"벨기에":9237,"커스텀":9238,"장성":9239,"Oh":9240,"##넌":9241,"거북":9242,"공통점":9243,"왜냐하면":9244,"부재":9245,"니콜라":9246,"##way":9247,"침투":9248,"카더라":9249,"##타르":9250,"신선":9251,"##시기":9252,"##렷":9253,"이병":9254,"일간":9255,"캐치":9256,"119":9257,"츠바":9258,"끌어올리":9259,"##릭":9260,"따라오":9261,"전격":9262,"초등":9263,"마일":9264,"후일":9265,"참모":9266,"브라이언":9267,"맞붙":9268,"해머":9269,"##조선":9270,"불태우":9271,"특급":9272,"##소스":9273,"##ey":9274,"관우":9275,"##ich":9276,"모스크바":9277,"이현":9278,"동력":9279,"사로잡":9280,"##께끼":9281,"135":9282,"스트라이커":9283,"딸리":9284,"109":9285,"밀도":9286,"##클레":9287,"은지":9288,"베테랑":9289,"김수":9290,"시호":9291,"엔지":9292,"##뎀":9293,"올바르":9294,"수수께끼":9295,"##으로":9296,"장남":9297,"ES":9298,"발명":9299,"##조각":9300,"박정희":9301,"주교":9302,"강릉":9303,"Mk":9304,"##대교":9305,"아이디어":9306,"으려는":9307,"비전":9308,"##장애":9309,"##상시":9310,"##생물":9311,"##대기":9312,"##세기":9313,"왕비":9314,"꽉":9315,"탄핵":9316,"중화인민공화국":9317,"초인":9318,"승차":9319,"중고":9320,"변동":9321,"이대":9322,"확신":9323,"잔인":9324,"보험":9325,"콘스탄":9326,"탕":9327,"##요리":9328,"복사":9329,"##툼":9330,"바이에른":9331,"소통":9332,"라라":9333,"##뱀":9334,"꿈꾸":9335,"입증":9336,"Ad":9337,"계수":9338,"사천":9339,"어나":9340,"능력자":9341,"당초":9342,"다큐":9343,"세로":9344,"페미니":9345,"챔피언스":9346,"기구":9347,"단발":9348,"손오공":9349,"lv":9350,"형편":9351,"피로":9352,"한나라당":9353,"대학원":9354,"프라임":9355,"우스":9356,"##햄":9357,"재건":9358,"땅볼":9359,"유연":9360,"스핀":9361,"코스튬":9362,"all":9363,"Day":9364,"##체계":9365,"드림":9366,"패널티":9367,"규제":9368,"##ᅳ레이크":9369,"##물리":9370,"포즈":9371,"토시":9372,"잎":9373,"명분":9374,"##스트레일리아":9375,"친절":9376,"##이치로":9377,"AFC":9378,"와이번":9379,"유망주":9380,"구동":9381,"##흉":9382,"##메리카":9383,"보스턴":9384,"전송":9385,"광선":9386,"고종":9387,"##무지":9388,"점유":9389,"벨트":9390,"중위":9391,"##군가":9392,"후미":9393,"위엄":9394,"부유":9395,"nd":9396,"천천히":9397,"우루":9398,"우울":9399,"##변이":9400,"실은":9401,"굴욕":9402,"##pt":9403,"고는":9404,"182":9405,"##대문":9406,"어드벤처":9407,"##orn":9408,"##이크":9409,"흩어지":9410,"오더":9411,"초상":9412,"바니":9413,"고무":9414,"##셈":9415,"##시피":9416,"선수단":9417,"슈퍼로봇대전":9418,"대접":9419,"소대":9420,"갑작스럽":9421,"##네마":9422,"모니터":9423,"##통합":9424,"쇼핑":9425,"중거리":9426,"선장":9427,"스피릿":9428,"##렇":9429,"레인저":9430,"상무":9431,"억원":9432,"나폴레":9433,"강간":9434,"조종사":9435,"##로우":9436,"##가포르":9437,"글씨":9438,"근접전":9439,"##이사":9440,"읍":9441,"양반":9442,"##춤":9443,"토요":9444,"주일":9445,"프로게이머":9446,"어색":9447,"리카":9448,"친분":9449,"구상":9450,"##운수":9451,"클론":9452,"중심지":9453,"충족":9454,"##도라":9455,"수하":9456,"휴가":9457,"##토시":9458,"케빈":9459,"121":9460,"삼성전자":9461,"취업":9462,"발레":9463,"오페라":9464,"초콜릿":9465,"카메":9466,"영양":9467,"일곱":9468,"1971":9469,"싱가포르":9470,"Windows":9471,"##지능":9472,"나폴레옹":9473,"스테이":9474,"##스트ᄅ":9475,"홋카이도":9476,"##사령관":9477,"항해":9478,"광물":9479,"##올림픽":9480,"##나베":9481,"FF":9482,"라그나":9483,"뉘":9484,"달아나":9485,"방송사":9486,"대동":9487,"얇":9488,"오우":9489,"광장":9490,"검토":9491,"소련군":9492,"##ᆺ불":9493,"머물":9494,"##트랙":9495,"햄":9496,"토마스":9497,"##첼":9498,"긁":9499,"145":9500,"열정":9501,"개교":9502,"우회":9503,"##세포":9504,"107":9505,"폭스":9506,"##모노":9507,"##부키":9508,"##ᆺ빛":9509,"카카오":9510,"일관":9511,"바지":9512,"무공":9513,"레벨업":9514,"유료":9515,"하급":9516,"##마사":9517,"검열":9518,"마틴":9519,"=\"":9520,"릴":9521,"RA":9522,"에버":9523,"붐":9524,"광기":9525,"독일어":9526,"강전":9527,"도쿠":9528,"비서":9529,"까마":9530,"구독":9531,"무지막":9532,"강림":9533,"1977":9534,"파밍":9535,"엑시즈":9536,"##ah":9537,"대전차":9538,"##EM":9539,"##민주주의":9540,"단검":9541,"기울이":9542,"동전":9543,"##연맹":9544,"이소":9545,"##구청":9546,"맹세":9547,"DP":9548,"천황":9549,"##바이트":9550,"쇼크":9551,"으라고":9552,"쫓겨나":9553,"도트":9554,"산맥":9555,"공헌":9556,"##사장":9557,"잉여":9558,"ML":9559,"##노동":9560,"씌우":9561,"하이라이트":9562,"터트리":9563,"사촌":9564,"출산":9565,"AA":9566,"망명":9567,"연설":9568,"엘리베이터":9569,"선박":9570,"의학":9571,"손님":9572,"##페르":9573,"##very":9574,"##론가":9575,"무지막지":9576,"##브레":9577,"히라":9578,"모임":9579,"표절":9580,"부패":9581,"##uck":9582,"결제":9583,"엔트리":9584,"게이머":9585,"총합":9586,"그후":9587,"발판":9588,"봉쇄":9589,"임진":9590,"보좌":9591,"타이틀곡":9592,"##첸":9593,"##불가":9594,"극대":9595,"탭":9596,"누군가":9597,"##떨어지":9598,"흑역사":9599,"현금":9600,"##드라이":9601,"관료":9602,"##복지":9603,"##뉴스":9604,"자제":9605,"##꿈":9606,"황후":9607,"고집":9608,"해병":9609,"대왕":9610,"여포":9611,"겸하":9612,"ne":9613,"##사용":9614,"레일":9615,"국제공항":9616,"IT":9617,"##글링":9618,"성배":9619,"이대로":9620,"본질":9621,"##뉴얼":9622,"찰스":9623,"포도":9624,"경연":9625,"지역구":9626,"소모량":9627,"김포":9628,"로리":9629,"br":9630,"감탄":9631,"##ph":9632,"##모습":9633,"Sw":9634,"DPS":9635,"지붕":9636,"BPM":9637,"도깨비":9638,"농장":9639,"디펜":9640,"JTBC":9641,"##정지":9642,"창립":9643,"자존":9644,"제왕":9645,"클":9646,"대변":9647,"210":9648,"토하":9649,"##궤":9650,"##그레":9651,"평행":9652,"휠":9653,"조국":9654,"간섭":9655,"전라북도":9656,"178":9657,"멍청":9658,"인게임":9659,"떨치":9660,"질서":9661,"##ero":9662,"화해":9663,"지인":9664,"##성능":9665,"몸통":9666,"##바시":9667,"프로리그":9668,"1969":9669,"오렌":9670,"큰":9671,"면하":9672,"113":9673,"##즈카":9674,"인칭":9675,"그릇":9676,"\".":9677,"안동":9678,"일리":9679,"오스트레일리아":9680,"노무현":9681,"무실점":9682,"##플러스":9683,"##ool":9684,"리틀":9685,"카리스":9686,"껍":9687,"외우":9688,"압축":9689,"대박":9690,"천장":9691,"음료":9692,"165":9693,"스포일러":9694,"##오버":9695,"리처드":9696,"러시":9697,"##왕국":9698,"1968":9699,"##ᆺ속":9700,"##서스":9701,"품질":9702,"##스쿨":9703,"유격수":9704,"레이블":9705,"1963":9706,"플라이":9707,"바나":9708,"손꼽히":9709,"철저히":9710,"##ical":9711,"맨체스터":9712,"라이언":9713,"쨩":9714,"메카닉":9715,"스티브":9716,"분대":9717,"북아":9718,"여러번":9719,"힘입":9720,"불쌍":9721,"##스텔":9722,"중점":9723,"민중":9724,"주축":9725,"역량":9726,"김유":9727,"NBA":9728,"체코":9729,"냉정":9730,"시골":9731,"혈통":9732,"##urn":9733,"꺼리":9734,"##테이션":9735,"디자이너":9736,"##ype":9737,"Ph":9738,"##지오":9739,"자이":9740,"##ARD":9741,"나리":9742,"안나오":9743,"인천광역시":9744,"##방울":9745,"고고":9746,"Con":9747,"태클":9748,"2021":9749,"정석":9750,"파랗":9751,"##깃":9752,"##거래":9753,"페르시아":9754,"어ᄊ":9755,"슬픔":9756,"홀드":9757,"페어":9758,"##anc":9759,"에이지":9760,"아깝":9761,"블리자드":9762,"변태":9763,"##슛":9764,"군수":9765,"얼라":9766,"춥":9767,"임하":9768,"##넛":9769,"깨끗":9770,"에드워드":9771,"이오":9772,"##대왕":9773,"##ᆺ말":9774,"수인":9775,"디바":9776,"매니아":9777,"코토":9778,"병역":9779,"조화":9780,"걸즈":9781,"정사":9782,"##앨":9783,"{{{#":9784,"스마":9785,"##작가":9786,"##프라이":9787,"시사":9788,"웬":9789,"트롤":9790,"히로시":9791,"광경":9792,"변이":9793,"스미":9794,"동정":9795,"##은색":9796,"155":9797,"박지":9798,"도장":9799,"신동":9800,"파티원":9801,"타운":9802,"실체":9803,"입사":9804,"와인":9805,"존중":9806,"운송":9807,"제재":9808,"##빡":9809,"Cr":9810,"##ung":9811,"출혈":9812,"닥치":9813,"엄연히":9814,"위원장":9815,"열혈":9816,"날아다니":9817,"이라도":9818,"명시":9819,"호의":9820,"의장":9821,"김승":9822,"물어":9823,"OVA":9824,"##조작":9825,"답답":9826,"울트라맨":9827,"변장":9828,"##태자":9829,"사리":9830,"예약":9831,"시뮬":9832,"카츠":9833,"방위":9834,"스노우":9835,"국어":9836,"종결":9837,"마유":9838,"122":9839,"Qu":9840,"납득":9841,"연간":9842,"초능력":9843,"쓰리":9844,"모순":9845,"애쉬":9846,"##세트":9847,"서울대학교":9848,"조별리그":9849,"말씀":9850,"Station":9851,"##소나":9852,"단원":9853,"181":9854,"주체":9855,"개명":9856,"한가":9857,"##행정":9858,"##드컵":9859,"##끼리":9860,"TVA":9861,"뚜렷":9862,"압권":9863,"미미":9864,"훼손":9865,"##저항":9866,"너머":9867,"##히메":9868,"스택":9869,"모형":9870,"시게":9871,"광명":9872,"##속기":9873,"144":9874,"결계":9875,"마산":9876,"프로레":9877,"아인":9878,"##빗":9879,"주사위":9880,"초청":9881,"플리":9882,"파도":9883,"스탈":9884,"얼티":9885,"명명":9886,"뻥":9887,"이단":9888,"##위치":9889,"미궁":9890,"수천":9891,"스폰서":9892,"보편":9893,"LO":9894,"오지":9895,"애니판":9896,"엔지니어":9897,"##ww":9898,"질량":9899,"##떼":9900,"##미나":9901,"엘리자베스":9902,"KOF":9903,"기차":9904,"주목받":9905,"소집":9906,"강민":9907,"토트":9908,"절친":9909,"촉수":9910,"해소":9911,"헷갈리":9912,"강호":9913,"존스":9914,"금강":9915,"##앨범":9916,"제노":9917,"##지점":9918,"청구":9919,"아오이":9920,"##iver":9921,"데빌":9922,"오죽":9923,"##틈":9924,"솟":9925,"치안":9926,"##판정":9927,"친척":9928,"챔피언스리그":9929,"장타":9930,"에로":9931,"at":9932,"메이지":9933,"프로그래":9934,"애칭":9935,"##떡":9936,"이원":9937,"마에":9938,"지분":9939,"방심":9940,"작정":9941,"##텍스":9942,"사투":9943,"##철수":9944,"플러스":9945,"##사무소":9946,"에도":9947,"투쟁":9948,"##DD":9949,"##노스케":9950,"그립":9951,"152":9952,"덤비":9953,"가설":9954,"타구":9955,"##로마":9956,"화상":9957,"박성":9958,"어이없":9959,"패자":9960,"드래곤볼":9961,"love":9962,"스태프":9963,"지력":9964,"셔틀":9965,"##주자":9966,"##멘터리":9967,"##모션":9968,"테이블":9969,"이틀":9970,"##ens":9971,"과자":9972,"핸":9973,"디오":9974,"##젤레스":9975,"좌측":9976,"##뿌":9977,"강사":9978,"이명박":9979,"좌익":9980,"일주일":9981,"##로이드":9982,"as":9983,"이동속":9984,"민간인":9985,"쫒":9986,"신학":9987,"롤드컵":9988,"교리":9989,"편리":9990,"##시스코":9991,"프랜":9992,"##ost":9993,"##티노":9994,"##중심":9995,"사연":9996,"페인":9997,"신하":9998,"기하":9999,"재앙":10000,"##ᆼ크스":10001,"향후":10002,"##드러지":10003,"생체":10004,"TR":10005,"자칭":10006,"##네이션":10007,"##샵":10008,"인스타":10009,"어나더":10010,"라우":10011,"항공모함":10012,"직책":10013,"액체":10014,"턴간":10015,"도색":10016,"부속":10017,"포터":10018,"빌딩":10019,"마술사":10020,"매각":10021,"114":10022,"미성":10023,"##아스":10024,"멋대로":10025,"엄밀히":10026,"낭비":10027,"슬리":10028,"일커":10029,"검증":10030,"##마니아":10031,"##ence":10032,"앓":10033,"용암":10034,"스쿼":10035,"1930":10036,"유니버스":10037,"일컫":10038,"wiki":10039,"토스":10040,"아마추어":10041,"학위":10042,"엘레":10043,"지혜":10044,"과일":10045,"##운동장":10046,"##려워하":10047,"IM":10048,"##nt":10049,"시간대":10050,"##산동":10051,"마음대로":10052,"사명":10053,"##극장":10054,"녹화":10055,"변명":10056,"오니":10057,"발발":10058,"나미":10059,"이태":10060,"백만":10061,"어그":10062,"엽":10063,"선진":10064,"초록색":10065,"##과이":10066,"##비행":10067,"from":10068,"로보":10069,"##ise":10070,"외곽":10071,"노가다":10072,"습니까":10073,"사무라이":10074,"##int":10075,"닦":10076,"퍼스트":10077,"모델링":10078,"##쉐":10079,"우연":10080,"돌연변이":10081,"옥상":10082,"이케":10083,"완화":10084,"몰살":10085,"하스":10086,"돔":10087,"##얀":10088,"알아채":10089,"1920":10090,"작위":10091,"신지":10092,"정성":10093,"히카":10094,"##상가":10095,"젤리":10096,"둘다":10097,"##동맹":10098,"179":10099,"하프":10100,"시조":10101,"사우스":10102,"##하여":10103,"선회":10104,"!\"":10105,"실사":10106,"성분":10107,"분할":10108,"달려들":10109,"##AK":10110,"펠":10111,"석유":10112,"죄책":10113,"잘못하":10114,"매달리":10115,"##가요":10116,"텍사스":10117,"씨앗":10118,"의정부":10119,"통째":10120,"##스크림":10121,"##국민":10122,"인공지능":10123,"Super":10124,"아쿠아":10125,"원피스":10126,"##의사":10127,"총독":10128,"MG":10129,"국토":10130,"Fr":10131,"자아":10132,"1940":10133,"BJ":10134,"can":10135,"##시민":10136,"##oy":10137,"엉망":10138,"코노":10139,"##바다":10140,"아자":10141,"고등학생":10142,"##엔딩":10143,"불참":10144,"집계":10145,"##진호":10146,"유엔":10147,"##기스":10148,"라스트":10149,"슈퍼맨":10150,"제주도":10151,"www":10152,"##ign":10153,"정반대":10154,"CM":10155,"미오":10156,"발키리":10157,"몇번":10158,"침몰":10159,"적절히":10160,"한국시리즈":10161,"기본기":10162,"##렉션":10163,"##르도":10164,"정신력":10165,"리스크":10166,"##ans":10167,"아담":10168,"계층":10169,"이어서":10170,"유튜버":10171,"177":10172,"이이":10173,"은폐":10174,"발탁":10175,"##뱅크":10176,"아처":10177,"피카":10178,"중구":10179,"##도전":10180,"##아머":10181,"##벼":10182,"중원":10183,"죄책감":10184,"목걸이":10185,"##수단":10186,"리모":10187,"저기":10188,"##부르":10189,"최종전":10190,"##ug":10191,"##가수":10192,"전생":10193,"Dream":10194,"들여":10195,"제리":10196,"##쭉":10197,"탄압":10198,"덮치":10199,"다거나":10200,"식품":10201,"실용":10202,"남동생":10203,"혼인":10204,"스카우트":10205,"124":10206,"##크릿":10207,"지오":10208,"추후":10209,"1967":10210,"상사":10211,"때로":10212,"다시금":10213,"총장":10214,"참사":10215,"착륙":10216,"마그":10217,"억울":10218,"이타":10219,"좀더":10220,"그해":10221,"오른손":10222,"퀵":10223,"##물질":10224,"127":10225,"원숭이":10226,"아리아":10227,"USB":10228,"오노":10229,"##부리":10230,"버스트":10231,"감당":10232,"흘러가":10233,"인벤":10234,"아무튼":10235,"##직원":10236,"격려":10237,"극한":10238,"챔프":10239,"대구광역시":10240,"뛰어들":10241,"지장":10242,"##ᆸ트":10243,"##인사":10244,"안무":10245,"##리칸":10246,"트릭":10247,"갱신":10248,"수위":10249,"##엘라":10250,"인성":10251,"##보병":10252,"this":10253,"##IR":10254,"##대신":10255,"비스트":10256,"##캠퍼스":10257,"오렌지":10258,"렉":10259,"##등급":10260,"1200":10261,"최순":10262,"##공장":10263,"아스날":10264,"##vel":10265,"수감":10266,"워프":10267,"스크래":10268,"##질랜드":10269,"450":10270,"만능":10271,"무용":10272,"투기":10273,"연전":10274,"리퍼":10275,"고아":10276,"도심":10277,"저서":10278,"용이":10279,"##차별":10280,"원전":10281,"동성애":10282,"빈도":10283,"중국인":10284,"대위":10285,"구형":10286,"더빙판":10287,"드레스":10288,"민감":10289,"ᆫ데다":10290,"문양":10291,"마케팅":10292,"내버리":10293,"히로시마":10294,"욕설":10295,"##러브":10296,"각인":10297,"ERA":10298,"##이후":10299,"##ode":10300,"비우":10301,"##슐":10302,"폭격기":10303,"곤충":10304,"신곡":10305,"##결과":10306,"##고사":10307,"##uk":10308,"이노":10309,"##대학원":10310,"##VER":10311,"바디":10312,"컴백":10313,"분홍":10314,"##바스":10315,"이세계":10316,"셀레":10317,"##매치":10318,"##시청":10319,"##고생":10320,"유탄":10321,"메시":10322,"발각":10323,"##워프":10324,"이별":10325,"Fl":10326,"사직":10327,"산소":10328,"Pl":10329,"망토":10330,"풍기":10331,"천명":10332,"냥":10333,"표적":10334,"마하":10335,"군요":10336,"매드":10337,"잔혹":10338,"스트ᄅ":10339,"##치오":10340,"무지개":10341,"물려받":10342,"Ver":10343,"제니":10344,"상금":10345,"소비자":10346,"박수":10347,"성전":10348,"공속":10349,"시크릿":10350,"녹이":10351,"##젼":10352,"페어리":10353,"내외":10354,"CE":10355,"진에어":10356,"##엠":10357,"전이":10358,"오다":10359,"관장":10360,"왕족":10361,"터보":10362,"합작":10363,"그러면":10364,"스컬":10365,"정밀":10366,"이온":10367,"급격히":10368,"애완":10369,"궁극기":10370,"뉴질랜드":10371,"가구":10372,"시외":10373,"뺏기":10374,"얹":10375,"진동":10376,"게끔":10377,"EC":10378,"특공":10379,"##베르크":10380,"마찰":10381,"##모르":10382,"취재":10383,"다비":10384,"발급":10385,"EXP":10386,"카리스마":10387,"아사히":10388,"결의":10389,"용자":10390,"style":10391,"믹스":10392,"에디션":10393,"카테":10394,"자네":10395,"##사진":10396,"##시스템":10397,"##하우스":10398,"##베트":10399,"펠리":10400,"개구리":10401,"이윤":10402,"##파티":10403,"##쿤":10404,"클린":10405,"서방":10406,"##클린":10407,"유재석":10408,"씻":10409,"초점":10410,"정점":10411,"실존":10412,"##당초":10413,"일체":10414,"리나":10415,"맞히":10416,"대세":10417,"##ier":10418,"얽히":10419,"경사":10420,"도약":10421,"호러":10422,"꾀":10423,"면허":10424,"측근":10425,"트윈":10426,"코스프레":10427,"##와라":10428,"스케일":10429,"방사능":10430,"독립운동":10431,"김구":10432,"##보기":10433,"신한":10434,"경부":10435,"Sch":10436,"##플로":10437,"격렬":10438,"선포":10439,"Girl":10440,"부스트":10441,"Season":10442,"두드러지":10443,"오죽하":10444,"##우주":10445,"대차":10446,"포탈":10447,"명나라":10448,"##먹이":10449,"1962":10450,"##앵":10451,"##도서관":10452,"##ash":10453,"##드라마":10454,"IP":10455,"만점":10456,"골프":10457,"협조":10458,"##노미야":10459,"지루":10460,"스텔":10461,"##도어":10462,"아이디":10463,"유우키":10464,"미르":10465,"팔라":10466,"ar":10467,"맨유":10468,"메이저리그":10469,"잔류":10470,"La":10471,"요미":10472,"농민":10473,"DM":10474,"##스ᄅ":10475,"##일본":10476,"##쑤":10477,"##학부":10478,"청춘":10479,"헬멧":10480,"##기준":10481,"미러":10482,"연소":10483,"NO":10484,"후쿠오카":10485,"162":10486,"##빼":10487,"약혼":10488,"피지컬":10489,"선동":10490,"팔레":10491,"이빨":10492,"롬":10493,"황당":10494,"절벽":10495,"tr":10496,"서명":10497,"118":10498,"##폭력":10499,"##박물관":10500,"팡":10501,"연동":10502,"궁합":10503,"반성":10504,"WC":10505,"##우지":10506,"##군주":10507,"수신":10508,"기리":10509,"이놈":10510,"이사장":10511,"한양":10512,"불러오":10513,"##reat":10514,"1966":10515,"##IX":10516,"##순위":10517,"아유":10518,"정규시즌":10519,"종전":10520,"친애":10521,"흡혈귀":10522,"메일":10523,"##뼈":10524,"선로":10525,"기질":10526,"벙커":10527,"고립":10528,"##자원":10529,"기동력":10530,"잠기":10531,"##ib":10532,"복지":10533,"혁신":10534,"벗기":10535,"리온":10536,"미정":10537,"##왕후":10538,"자존심":10539,"점심":10540,"##장소":10541,"중견":10542,"철도역":10543,"한하":10544,"##카타":10545,"314":10546,"돌려주":10547,"벌써":10548,"오퍼":10549,"부작":10550,"지선":10551,"생김새":10552,"유진":10553,"##usic":10554,"##훼":10555,"모욕":10556,"에메":10557,"Max":10558,"위쪽":10559,"질주":10560,"흥분":10561,"일조":10562,"레이디":10563,"##바리":10564,"정조":10565,"반역":10566,"거세":10567,"로렌":10568,"사수":10569,"카네":10570,"사방":10571,"대피":10572,"춤추":10573,"스매":10574,"##베리아":10575,"크래":10576,"##밴드":10577,"고난":10578,"##구니":10579,"##무늬":10580,"750":10581,"모종":10582,"하사":10583,"할로윈":10584,"미노":10585,"징계":10586,"##백질":10587,"##당기":10588,"마야":10589,"유아":10590,"예의":10591,"1964":10592,"##백과":10593,"디스플레이":10594,"미인":10595,"부시":10596,"##듣":10597,"국방부":10598,"부천":10599,"##제품":10600,"래퍼":10601,"주석":10602,"플ᄅ":10603,"리본":10604,"둠":10605,"그간":10606,"한강":10607,"정문":10608,"부러지":10609,"한꺼":10610,"##맥스":10611,"월간":10612,"##금지":10613,"##딴":10614,"Vol":10615,"TS":10616,"금요일":10617,"가위":10618,"리코":10619,"수중":10620,"이용자":10621,"DNA":10622,"##국어":10623,"문신":10624,"망설":10625,"침착":10626,"스파이더맨":10627,"##세지":10628,"기소":10629,"토트넘":10630,"능가":10631,"집회":10632,"사치":10633,"교과서":10634,"스나이퍼":10635,"필름":10636,"##캐릭터":10637,"Ed":10638,"##전력":10639,"화폐":10640,"각도":10641,"##}}":10642,"리사":10643,"--":10644,"##아니":10645,"남동":10646,"빙결":10647,"강대":10648,"##ose":10649,"ld":10650,"그쪽":10651,"서류":10652,"##넨":10653,"##대체":10654,"케이크":10655,"천상":10656,"서열":10657,"다니엘":10658,"모터":10659,"##파리":10660,"교역":10661,"우두":10662,"카운티":10663,"##바퀴":10664,"탱킹":10665,"건지":10666,"##니즘":10667,"적시타":10668,"AV":10669,"호드":10670,"갈라지":10671,"##헤드":10672,"##플러":10673,"##트럴":10674,"아케":10675,"자이언트":10676,"한꺼번에":10677,"두려워하":10678,"##데미지":10679,"부동산":10680,"노랗":10681,"원로":10682,"김주":10683,"방안":10684,"amp":10685,"김지":10686,"소생":10687,"옴":10688,"Col":10689,"자율":10690,"종로":10691,"웰":10692,"오만":10693,"서적":10694,"쉴드":10695,"여자아이":10696,"블럭":10697,"##te":10698,"트윗":10699,"so":10700,"##다드":10701,"기껏":10702,"통솔":10703,"현자":10704,"GM":10705,"룩":10706,"경성":10707,"메트로":10708,"중소":10709,"서기":10710,"아랫":10711,"HE":10712,"홈경기":10713,"도감":10714,"##해자":10715,"진단":10716,"여태":10717,"선원":10718,"테츠":10719,"극심":10720,"##ail":10721,"욕망":10722,"##msys":10723,"츠키":10724,"부끄럽":10725,"영국군":10726,"유고":10727,"##ition":10728,"ldmsys":10729,"##프란":10730,"불길":10731,"내셔널":10732,"섬기":10733,"사물":10734,"구로":10735,"모음":10736,"##발전":10737,"테마곡":10738,"함장":10739,"애인":10740,"샤오":10741,"##녹":10742,"출판사":10743,"학급":10744,"서울대":10745,"평등":10746,"환생":10747,"다녀":10748,"rd":10749,"##시내":10750,"케리":10751,"왕가":10752,"탈환":10753,"##안전":10754,"숙소":10755,"감자":10756,"Night":10757,"##현상":10758,"태생":10759,"충청북도":10760,"카를로":10761,"바텀":10762,"##공개":10763,"판사":10764,"BC":10765,"혼합":10766,"썸":10767,"##들목":10768,"초과":10769,"워리어":10770,"상냥":10771,"루프":10772,"스탈린":10773,"학년도":10774,"키요":10775,"직위":10776,"not":10777,"특수능력":10778,"##자카":10779,"##오피스":10780,"##챠":10781,"필사":10782,"##기념":10783,"계절":10784,"슬라이":10785,"고인":10786,"줄기":10787,"말레이시아":10788,"제의":10789,"##IL":10790,"달려오":10791,"협동":10792,"김광":10793,"학대":10794,"발하":10795,"##스르":10796,"소나":10797,"앨런":10798,"공대":10799,"이니":10800,"젬":10801,"아마존":10802,"퍽":10803,"중간중간":10804,"항공사":10805,"##ild":10806,"유니콘":10807,"##타니":10808,"암컷":10809,"뻔하":10810,"168":10811,"하여금":10812,"##라미":10813,"정그르":10814,"한정판":10815,"리프":10816,"림":10817,"강인":10818,"Let":10819,"탈취":10820,"유메":10821,"청하":10822,"##정당":10823,"살인사건":10824,"저글링":10825,"등재":10826,"과시":10827,"소소":10828,"페르소나":10829,"##사령부":10830,"디아블로":10831,"뤼":10832,"월호":10833,"##바루":10834,"##제이":10835,"보강":10836,"급행":10837,"ᆯ래":10838,"그란":10839,"병행":10840,"시범":10841,"##ody":10842,"스텟":10843,"프로야구":10844,"탐지":10845,"유동":10846,"돌려":10847,"남양":10848,"관직":10849,"Black":10850,"간판":10851,"법인":10852,"159":10853,"라마":10854,"##베르트":10855,"##프레이":10856,"오토바이":10857,"각국":10858,"뚱":10859,"요격":10860,"입원":10861,"시온":10862,"일환":10863,"##수준":10864,"##스티스":10865,"존슨":10866,"희생자":10867,"##가족":10868,"퇴치":10869,"지지율":10870,"이행":10871,"도서":10872,"박쥐":10873,"BD":10874,"##해군":10875,"페리":10876,"요코하마":10877,"재즈":10878,"대검":10879,"굶":10880,"카피":10881,"전지":10882,"##본인":10883,"보고서":10884,"재배":10885,"##항목":10886,"게르":10887,"뻘":10888,"라인하르트":10889,"##짤":10890,"##카라":10891,"문화재":10892,"소서":10893,"도배":10894,"만렙":10895,"##레인지":10896,"##팍":10897,"##등록":10898,"윤리":10899,"이념":10900,"##수라":10901,"리버스":10902,"연고":10903,"맛보":10904,"##총리":10905,"이승만":10906,"##베이스":10907,"##ᆼ가":10908,"로키":10909,"##블레":10910,"라틴어":10911,"##보라":10912,"오케":10913,"출동":10914,"어원":10915,"동구":10916,"노부나가":10917,"빅토리아":10918,"승패":10919,"1948":10920,"mar":10921,"##ough":10922,"부친":10923,"마도카":10924,"##수수":10925,"삼키":10926,"##각형":10927,"종영":10928,"야당":10929,"원판":10930,"중재":10931,"집필":10932,"##토르":10933,"이천":10934,"AF":10935,"욕심":10936,"MM":10937,"##볼트":10938,"포션":10939,"1944":10940,"필라":10941,"신작":10942,"##런스":10943,"아무렇":10944,"##기병":10945,"1965":10946,"부채":10947,"파운드":10948,"OG":10949,"열대":10950,"##33":10951,"두껍":10952,"교도소":10953,"로스앤":10954,"릿":10955,"##폴리스":10956,"인쇄":10957,"##통수":10958,"##지도":10959,"검정":10960,"히드라":10961,"전담":10962,"포착":10963,"엉덩이":10964,"##재료":10965,"연이":10966,"##ㅋㅋ":10967,"팁":10968,"RE":10969,"대니":10970,"배구":10971,"협정":10972,"##뿔":10973,"무능":10974,"와이번스":10975,"##플렉스":10976,"피자":10977,"눈앞":10978,"밀리언":10979,"4000":10980,"도대체":10981,"어제":10982,"아메리칸":10983,"섭취":10984,"로스앤젤레스":10985,"미소녀":10986,"애용":10987,"쇄":10988,"##니스트":10989,"Op":10990,"##실장":10991,"##이센":10992,"퍼펙트":10993,"프랑크":10994,"신생":10995,"##gr":10996,"##테크":10997,"##결정":10998,"##클라":10999,"성사":11000,"김치":11001,"피난":11002,"진술":11003,"본능":11004,"##와이":11005,"성벽":11006,"멸종":11007,"##스코트":11008,"객관":11009,"##aster":11010,"ㅔ요":11011,"레이싱":11012,"외야수":11013,"아니하":11014,"아카네":11015,"내밀":11016,"점검":11017,"##삐":11018,"##app":11019,"매그":11020,"사이토":11021,"평상시":11022,"##orts":11023,"이계":11024,"목포":11025,"##퍼니":11026,"카레":11027,"호리":11028,"펭":11029,"레나":11030,"쿄코":11031,"카일":11032,"해운":11033,"헤라":11034,"주저":11035,"카시":11036,"해전":11037,"목욕":11038,"팅":11039,"다케":11040,"괴인":11041,"그리핀":11042,"##uc":11043,"##은이":11044,"빌보드":11045,"##데르":11046,"인피니티":11047,"소득":11048,"사용가능":11049,"##제스":11050,"국무":11051,"조립":11052,"1946":11053,"##연대":11054,"##회담":11055,"계곡":11056,"물자":11057,"화석":11058,"동북":11059,"걸어가":11060,"테니스":11061,"레버":11062,"세르비아":11063,"##브러":11064,"로비":11065,"화신":11066,"PK":11067,"##작업":11068,"학사":11069,"성명":11070,"얄":11071,"맑":11072,"##예선":11073,"시트":11074,"타로":11075,"흑막":11076,"##서비스":11077,"대학생":11078,"난민":11079,"성지":11080,"##삼거리":11081,"##어택":11082,"원한":11083,"수성":11084,"##CE":11085,"##메스":11086,"박자":11087,"##트루":11088,"##소문":11089,"챔스":11090,"울음":11091,"대승":11092,"최상급":11093,"독백":11094,"##ject":11095,"달콤":11096,"테란":11097,"en":11098,"그리스도":11099,"##펑":11100,"##OO":11101,"강동":11102,"역명":11103,"드워프":11104,"EXT":11105,"##펄":11106,"부제":11107,"제발":11108,"##애나":11109,"폭로":11110,"##개혁":11111,"..?":11112,"츤":11113,"스타워즈":11114,"##확률":11115,"김대중":11116,"##ari":11117,"math":11118,"##팟":11119,"##긋나":11120,"컨디션":11121,"나이프":11122,"놔":11123,"에코":11124,"블라디":11125,"평택":11126,"믿음":11127,"무신":11128,"민폐":11129,"##행성":11130,"단백질":11131,"le":11132,"테오":11133,"AL":11134,"약체":11135,"##숲":11136,"장판":11137,"CR":11138,"과금":11139,"금발":11140,"순간이동":11141,"##뮤직":11142,"세자":11143,"덥":11144,"아쉬움":11145,"벨라":11146,"아울":11147,"다큐멘터리":11148,"편의점":11149,"엇":11150,"그림체":11151,"어드배":11152,"##마당":11153,"##형제":11154,"휴대폰":11155,"EZ":11156,"낯":11157,"확립":11158,"두려움":11159,"바쿠":11160,"아르바이트":11161,"꺼지":11162,"알렉산더":11163,"점멸":11164,"수컷":11165,"와타나베":11166,"전임":11167,"##iel":11168,"도미":11169,"떠돌":11170,"메디":11171,"라이너":11172,"궁전":11173,"지크":11174,"사임":11175,"유머":11176,"##공단":11177,"적이":11178,"가오":11179,"한신":11180,"프랭크":11181,"두루":11182,"151":11183,"마라":11184,"##국장":11185,"분배":11186,"##장고":11187,"달라":11188,"리바":11189,"남학생":11190,"뺘":11191,"옐로":11192,"개막전":11193,"##형태":11194,"138":11195,"##어인":11196,"##파일":11197,"마인드":11198,"가마":11199,"권하":11200,"뭐하":11201,"Gu":11202,"출석":11203,"장본인":11204,"으려면":11205,"평판":11206,"펌프":11207,"한대":11208,"SA":11209,"던지라":11210,"스카웃":11211,"숙청":11212,"타치":11213,"##부족":11214,"격퇴":11215,"조회수":11216,"##주군":11217,"남한":11218,"320":11219,"##무네":11220,"172":11221,"회복량":11222,"유카":11223,"직행":11224,"모나":11225,"##교수":11226,"동아시아":11227,"GSL":11228,"이쿠":11229,"가해자":11230,"조수":11231,"##젤리":11232,"고사":11233,"##로그":11234,"코끼리":11235,"신념":11236,"##차지":11237,"득표율":11238,"눈동자":11239,"년전":11240,"막부":11241,"무도":11242,"루리":11243,"철갑":11244,"##드래곤":11245,"##TA":11246,"##성이":11247,"순천":11248,"으리":11249,"##스테이션":11250,"배후":11251,"얼리":11252,"주입":11253,"자사":11254,"개업":11255,"퀴즈":11256,"ATK":11257,"가령":11258,"##ats":11259,"단자":11260,"##렉터":11261,"##ye":11262,"해변":11263,"##테스트":11264,"툭":11265,"살아오":11266,"메이커":11267,"고의":11268,"단서":11269,"무한도전":11270,"축구선수":11271,"점하":11272,"타카하시":11273,"EU":11274,"안토니":11275,"##eah":11276,"고가":11277,"##회관":11278,"천국":11279,"##인원":11280,"315":11281,"시련":11282,"혼혈":11283,"##그라운드":11284,"##카페":11285,"1961":11286,"빡치":11287,"오비":11288,"늪":11289,"하지":11290,"대면":11291,"평론가":11292,"GD":11293,"##따르":11294,"티저":11295,"최순실":11296,"얌":11297,"대안":11298,"어벤져":11299,"캣":11300,"로스트":11301,"##문서":11302,"TOP":11303,"Mag":11304,"158":11305,"동상":11306,"둥글":11307,"기인":11308,"##순환":11309,"내정":11310,"주머니":11311,"강서":11312,"추모":11313,"우즈":11314,"얼티밋":11315,"##무대":11316,"그리하여":11317,"CL":11318,"배리":11319,"도리":11320,"##모니":11321,"탁월":11322,"정답":11323,"큐어":11324,"찔리":11325,"항성":11326,"마타":11327,"스텔스":11328,"뾰":11329,"##꿉":11330,"강아지":11331,"##쿠리":11332,"변호":11333,"란스":11334,"방언":11335,"AB":11336,"영화제":11337,"NT":11338,"치고":11339,"딕":11340,"섬멸":11341,"##캣":11342,"##박사":11343,"경찰서":11344,"사나":11345,"관광객":11346,"ver":11347,"글라":11348,"건너가":11349,"오공":11350,"##재단":11351,"응답":11352,"##모양":11353,"데미":11354,"여수":11355,"UC":11356,"##oh":11357,"##ᆯ리언":11358,"##eth":11359,"악행":11360,"투고":11361,"어기":11362,"##재기":11363,"다녀오":11364,"비단":11365,"셜":11366,"##ron":11367,"사가":11368,"나란":11369,"둥지":11370,"##상승":11371,"##회복":11372,"박스오피스":11373,"관계없이":11374,"퓨전":11375,"찬양":11376,"충고":11377,"베이비":11378,"소꿉":11379,"중도":11380,"짜증나":11381,"##ings":11382,"##고래":11383,"파고":11384,"마쓰":11385,"공명":11386,"카리":11387,"포크":11388,"이순신":11389,"우승팀":11390,"리믹스":11391,"경전":11392,"##홈런":11393,"노릇":11394,"시아":11395,"조항":11396,"공학":11397,"독보":11398,"##미즈":11399,"쿠바":11400,"뒤쪽":11401,"공산주의":11402,"스쿼드":11403,"##콕":11404,"루마니아":11405,"광복":11406,"##빨리":11407,"##강화":11408,"자작":11409,"##카스":11410,"##시키":11411,"스터":11412,"176":11413,"총선거":11414,"마을버스":11415,"지로":11416,"그랑프리":11417,"킷":11418,"결과물":11419,"천지":11420,"##시다":11421,"##풀이":11422,"데몬":11423,"단역":11424,"##정식":11425,"병살":11426,"카사":11427,"will":11428,"##무이":11429,"섬광":11430,"다저스":11431,"저승":11432,"Is":11433,"ME":11434,"텔":11435,"갸":11436,"감성":11437,"성대":11438,"바이킹":11439,"##느님":11440,"흉내":11441,"솔저":11442,"고이":11443,"김병":11444,"##inal":11445,"유치원":11446,"##주로":11447,"##==":11448,"126":11449,"용산":11450,"상대팀":11451,"폴아웃":11452,"1949":11453,"지면":11454,"유마":11455,"테리":11456,"십자군":11457,"예고편":11458,"김일성":11459,"완벽히":11460,"Am":11461,"반경":11462,"사관":11463,"##돔":11464,"모빌":11465,"##과대학":11466,"##내리":11467,"##활약":11468,"김윤":11469,"과격":11470,"##로소":11471,"후면":11472,"10000":11473,"응급":11474,"하느님":11475,"김씨":11476,"랴":11477,"Don":11478,"우두머리":11479,"도요":11480,"균열":11481,"##ᆯ렛":11482,"학술":11483,"전두":11484,"비리":11485,"##순양함":11486,"##ult":11487,"국장":11488,"미녀":11489,"계략":11490,"쿠라":11491,"소마":11492,"친일":11493,"김성근":11494,"고속도로":11495,"무녀":11496,"일각":11497,"##숭":11498,"가이드":11499,"154":11500,"봉사":11501,"like":11502,"상시":11503,"렉스":11504,"LE":11505,"##부문":11506,"보루":11507,"수확":11508,"거꾸":11509,"##스타인":11510,"이광":11511,"후유":11512,"접수":11513,"공국":11514,"WH":11515,"흉악":11516,"몸매":11517,"{{{-":11518,"KB":11519,"간파":11520,"연수":11521,"깃털":11522,"Time":11523,"생태":11524,"무늬":11525,"132":11526,"##박이":11527,"##MAN":11528,"건립":11529,"끌어내":11530,"충남":11531,"물약":11532,"이나마":11533,"##덕션":11534,"트랩":11535,"##자책":11536,"주황":11537,"이래저":11538,"사망자":11539,"##퉁":11540,"삽질":11541,"##행동":11542,"관문":11543,"표하":11544,"고발":11545,"사슬":11546,"빗나가":11547,"신조":11548,"반기":11549,"타키":11550,"new":11551,"절단":11552,"닐":11553,"브레이커":11554,"세컨":11555,"강타":11556,"군부":11557,"##포머":11558,"##서쪽":11559,"표기법":11560,"응시":11561,"아테나":11562,"##13":11563,"컬렉션":11564,"서바이벌":11565,"##슈트":11566,"쫓기":11567,"크로아":11568,"이용객":11569,"##과제":11570,"지수":11571,"은메달":11572,"##이언스":11573,"이리저리":11574,"이래저래":11575,"오세":11576,"##일기":11577,"##우저":11578,"218":11579,"라이트닝":11580,"손목":11581,"역시나":11582,"피오":11583,"Mi":11584,"주식회사":11585,"감금":11586,"완성도":11587,"##GA":11588,"##교차":11589,"풀려나":11590,"지상역":11591,"##ov":11592,"##턱":11593,"##니코":11594,"피스":11595,"##레븐":11596,"##oul":11597,"급식":11598,"일러스트레이":11599,"로열":11600,"어찌되":11601,"##코미":11602,"##하임":11603,"안보":11604,"##18":11605,"호응":11606,"##꼴":11607,"인채":11608,"##니버스":11609,"사와":11610,"##시안":11611,"보복":11612,"두뇌":11613,"서리":11614,"##슬림":11615,"이영호":11616,"거듭하":11617,"브레이브":11618,"어느새":11619,"짝사랑":11620,"양심":11621,"##ob":11622,"당나라":11623,"##처럼":11624,"코로나":11625,"거지":11626,"야망":11627,"안드레":11628,"성직자":11629,"신임":11630,"##타스":11631,"과언":11632,"##ould":11633,"후쿠시마":11634,"동메달":11635,"##맷":11636,"스윙":11637,"##방지":11638,"##혐":11639,"156":11640,"드루이드":11641,"유능":11642,"..!":11643,"벡터":11644,"좌파":11645,"iOS":11646,"승려":11647,"##조정":11648,"통행":11649,"마족":11650,"순양함":11651,"유카리":11652,"통틀어":11653,"##아르":11654,"Ser":11655,"##셉트":11656,"불상":11657,"one":11658,"마르크":11659,"164":11660,"##alk":11661,"예방":11662,"나들목":11663,"정우":11664,"##결승":11665,"핑계":11666,"천문":11667,"##교도":11668,"슬라이드":11669,"##tern":11670,"레시피":11671,"승급":11672,"장신구":11673,"##yn":11674,"139":11675,"아리스":11676,"나란히":11677,"렀다":11678,"분자":11679,"트러":11680,"##돼지":11681,"ᆫ가요":11682,"##15":11683,"##귄":11684,"블랙홀":11685,"후반전":11686,"원주":11687,"몰려오":11688,"##미사일":11689,"##up":11690,"선봉":11691,"153":11692,"주술":11693,"Gaming":11694,"자력":11695,"##뚫":11696,"성숙":11697,"##reak":11698,"충격파":11699,"인체":11700,"맷집":11701,"실적":11702,"##엔진":11703,"오키나":11704,"김두":11705,"##티넘":11706,"거꾸로":11707,"놔두":11708,"엮":11709,"##der":11710,"하츠네":11711,"##마드":11712,"불화":11713,"##웬":11714,"##able":11715,"GK":11716,"나열":11717,"##영웅":11718,"교향":11719,"고시":11720,"삿":11721,"근로":11722,"고통받":11723,"하나님":11724,"사이타마":11725,"엉뚱":11726,"ᆫ듯":11727,"밈":11728,"능하":11729,"열세":11730,"마당":11731,"카토":11732,"프로이센":11733,"콜레":11734,"신상":11735,"시네마":11736,"전염":11737,"무슬림":11738,"초등학생":11739,"합법":11740,"쯔":11741,"토우":11742,"지각":11743,"크롬":11744,"##동기":11745,"우미":11746,"컴뱃":11747,"로제":11748,"미세":11749,"최하":11750,"148":11751,"쑤":11752,"클레이":11753,"##곧":11754,"필두":11755,"사일":11756,"##무게":11757,"유해":11758,"김선":11759,"면제":11760,"Car":11761,"##ions":11762,"맞먹":11763,"리볼":11764,"##뿜":11765,"##쵸":11766,"##민주주의인민공화국":11767,"가히":11768,"##자재":11769,"커플링":11770,"차분":11771,"저격수":11772,"제조사":11773,"상의":11774,"##널드":11775,"땡":11776,"리플레":11777,"연달":11778,"##공연":11779,"석사":11780,"하드웨어":11781,"창당":11782,"##테오":11783,"Your":11784,"초반부":11785,"##브ᄅ":11786,"호크":11787,"스톡":11788,"재질":11789,"167":11790,"##뱉":11791,"코디":11792,"ᆫ단":11793,"셋째":11794,"203":11795,"##출연":11796,"하비":11797,"스네이":11798,"맞대":11799,"몰아넣":11800,"##도스":11801,"풍경":11802,"##크로스":11803,"어긋나":11804,"##멤버":11805,"칼라":11806,"천체":11807,"쫓아내":11808,"##프란시스코":11809,"시어":11810,"취지":11811,"조선민주주의인민공화국":11812,"년동안":11813,"##생산":11814,"##사상":11815,"츠쿠":11816,"SSR":11817,"##글리":11818,"통보":11819,"크로아티아":11820,"플루":11821,"벌금":11822,"##PA":11823,"공격시":11824,"##요미":11825,"메리트":11826,"1958":11827,"난리":11828,"여주인공":11829,"조던":11830,"상원":11831,"데뷔전":11832,"제너":11833,"1941":11834,"대등":11835,"지배자":11836,"한층":11837,"##운전":11838,"운반":11839,"174":11840,"동등":11841,"포텐":11842,"자산":11843,"##웹":11844,"섹시":11845,"##ull":11846,"숙련도":11847,"레슬링":11848,"황혼":11849,"가브리":11850,"오피":11851,"생각나":11852,"##리트":11853,"영화배우":11854,"주파":11855,"##덮":11856,"글리":11857,"평창":11858,"세키":11859,"주유":11860,"##비시":11861,"se":11862,"시간동안":11863,"천주교":11864,"전학":11865,"##단계":11866,"##쟈":11867,"##ᅳᆯ래스":11868,"##껑":11869,"Min":11870,"동년":11871,"테크닉":11872,"최우수":11873,"##니혼":11874,"시모":11875,"##날두":11876,"코파":11877,"심정":11878,"##랄드":11879,"샌프란시스코":11880,"앞세우":11881,"##횟수":11882,"##레이드":11883,"시끄럽":11884,"이진":11885,"RO":11886,"142":11887,"##목록":11888,"사령부":11889,"태조":11890,"병과":11891,"세례":11892,"휴스턴":11893,"뱅가드":11894,"기법":11895,"LTE":11896,"##보험":11897,"극초":11898,"##시드":11899,"행진":11900,"냉장고":11901,"토론토":11902,"문법":11903,"도모":11904,"아수라":11905,"헤드샷":11906,"##다스":11907,"어스":11908,"딜량":11909,"떨구":11910,"달인":11911,"스케줄":11912,"키르":11913,"163":11914,"빈약":11915,"과감":11916,"쳐들어오":11917,"##닷":11918,"사야카":11919,"##차원":11920,"노비":11921,"##옌":11922,"깨우":11923,"스페인어":11924,"창작물":11925,"타당":11926,"타이어":11927,"맹활약":11928,"모의":11929,"내면":11930,"가라앉":11931,"집사":11932,"절정":11933,"리부":11934,"##ube":11935,"봉하":11936,"##ECT":11937,"야마모토":11938,"혼동":11939,"##서버":11940,"제자리":11941,"1954":11942,"무선":11943,"BGA":11944,"염두":11945,"상속":11946,"연고지":11947,"일련":11948,"마미":11949,"간지":11950,"##노프":11951,"디비전":11952,"콜롬":11953,"##ll":11954,"have":11955,"마스코트":11956,"월요일":11957,"pr":11958,"벅":11959,"능숙":11960,"무색":11961,"플러":11962,"슬레이":11963,"연구원":11964,"out":11965,"##유리":11966,"이만":11967,"상부":11968,"만년":11969,"짬":11970,"벚":11971,"굳히":11972,"졸업식":11973,"어빌리티":11974,"지지자":11975,"부가":11976,"들르":11977,"##미츠":11978,"로맨스":11979,"라비":11980,"고우":11981,"아아":11982,"##ICE":11983,"##ᆸ시고":11984,"이오리":11985,"마수":11986,"레인보우":11987,"전례":11988,"른":11989,"국기":11990,"##전트":11991,"범하":11992,"패왕":11993,"NM":11994,"지성":11995,"밀어붙이":11996,"공로":11997,"투사체":11998,"정서":11999,"유신":12000,"##ᅰ어":12001,"앞면":12002,"비오":12003,"스타트":12004,"비자":12005,"143":12006,"137":12007,"##투아":12008,"##득점":12009,"혼다":12010,"공교":12011,"해고":12012,"방침":12013,"망설이":12014,"쟁이":12015,"##문자":12016,"찰나":12017,"노골":12018,"초상화":12019,"포병":12020,"##너뜨리":12021,"이인":12022,"겨루":12023,"##파워":12024,"고추":12025,"스탭":12026,"##정권":12027,"무너뜨리":12028,"워터":12029,"만장":12030,"약칭":12031,"하나같이":12032,"##크루":12033,"사탕":12034,"꼴찌":12035,"구제":12036,"영등":12037,"쿤":12038,"매기":12039,"313":12040,"영문명":12041,"대역":12042,"고래":12043,"일베":12044,"사소":12045,"부처":12046,"##배차":12047,"환호":12048,"대외":12049,"##로프":12050,"공짜":12051,"따내":12052,"한달":12053,"Sum":12054,"쳐다보":12055,"솔직히":12056,"무죄":12057,"혹평":12058,"다지만":12059,"단련":12060,"배율":12061,"노라":12062,"능력치":12063,"##메이커":12064,"장례식":12065,"##갱":12066,"스피어":12067,"오로치":12068,"득표수":12069,"접전":12070,"소꿉친구":12071,"톡":12072,"##유저":12073,"국민당":12074,"풍선":12075,"스모":12076,"##보그":12077,"년식":12078,"강수":12079,"카렌":12080,"HS":12081,"운동장":12082,"박종":12083,"ALL":12084,"##더슨":12085,"##엉":12086,"스플래":12087,"##홉":12088,"내뱉":12089,"캡슐":12090,"하도":12091,"무궁":12092,"CN":12093,"IV":12094,"운수사":12095,"##악기":12096,"음향":12097,"##부시":12098,"주술사":12099,"1943":12100,"##콥터":12101,"230":12102,"본편":12103,"카오루":12104,"재수":12105,"전반기":12106,"##ᆷ마":12107,"##드리아":12108,"박탈":12109,"아테네":12110,"리볼버":12111,"북동":12112,"평균자책":12113,"설마":12114,"외국어":12115,"알아차리":12116,"##플라이":12117,"버드":12118,"##에트":12119,"광주광역시":12120,"스칼":12121,"바비":12122,"맥락":12123,"진로":12124,"인과":12125,"크라운":12126,"이션":12127,"반란군":12128,"##미디어":12129,"157":12130,"제사":12131,"침해":12132,"몰아내":12133,"잘생기":12134,"모에":12135,"확고":12136,"칠레":12137,"딥":12138,"133":12139,"ᆯ까요":12140,"펌":12141,"##FL":12142,"##원수":12143,"궁수":12144,"##넉":12145,"인스타그램":12146,"##여부":12147,"##관련":12148,"빙의":12149,"오리온":12150,"황실":12151,"갈구":12152,"연막":12153,"설탕":12154,"플레이버":12155,"##ᅨᆫ":12156,"슬슬":12157,"외관":12158,"un":12159,"##드리히":12160,"재벌":12161,"146":12162,"수아":12163,"129":12164,"##수아":12165,"상어":12166,"해역":12167,"갤러":12168,"극악":12169,"##제르":12170,"갈기":12171,"##단총":12172,"수라":12173,"000000":12174,"1942":12175,"테레":12176,"맹독":12177,"진하":12178,"지요":12179,"센트럴":12180,"##반신":12181,"##STER":12182,"##문화재":12183,"종말":12184,"173":12185,"거스르":12186,"광범위":12187,"##돌파":12188,"BO":12189,"의의":12190,"별칭":12191,"##타우":12192,"전법":12193,"##세자":12194,"##거스":12195,"##통일":12196,"얼라이언스":12197,"음력":12198,"스트리머":12199,"시뮬레이션":12200,"##더링":12201,"죄수":12202,"염색":12203,"오즈":12204,"레이븐":12205,"후대":12206,"제인":12207,"격하":12208,"대목":12209,"사무소":12210,"미남":12211,"스타즈":12212,"오딘":12213,"흐리":12214,"아슬":12215,"##제작":12216,"히사":12217,"극우":12218,"제대":12219,"기관포":12220,"가나":12221,"##트릭스":12222,"클리셰":12223,"번식":12224,"가로막":12225,"margin":12226,"스케이":12227,"know":12228,"발현":12229,"오프라":12230,"##칼리":12231,"##왜란":12232,"나카무라":12233,"보직":12234,"플라스틱":12235,"제지":12236,"##블레이":12237,"원화":12238,"앞뒤":12239,"운수사명":12240,"##MAX":12241,"유타":12242,"공손":12243,"set":12244,"지극":12245,"##동원":12246,"##DX":12247,"톨":12248,"줄리":12249,"공동체":12250,"구독자":12251,"개판":12252,"프로덕션":12253,"명사":12254,"##갸":12255,"##티콘":12256,"몸무게":12257,"미호":12258,"##워커":12259,"사내":12260,"이준":12261,"해태":12262,"OF":12263,"원자력":12264,"시초":12265,"화기":12266,"##에몽":12267,"박명":12268,"##셸":12269,"기쁨":12270,"136":12271,"Play":12272,"힌트":12273,"호날두":12274,"##잭":12275,"##고스":12276,"##쫓":12277,"야만":12278,"레이지":12279,"##하트":12280,"구호":12281,"폐허":12282,"BT":12283,"기관단총":12284,"숭배":12285,"끝장":12286,"볼드":12287,"##무실":12288,"양국":12289,"##ica":12290,"멘붕":12291,"CB":12292,"힌":12293,"##che":12294,"태권":12295,"비참":12296,"번갈":12297,"##그ᄅ":12298,"Of":12299,"끓이":12300,"##ock":12301,"##카즈":12302,"출제":12303,"난투":12304,"##권자":12305,"##로로":12306,"타르":12307,"As":12308,"la":12309,"잔해":12310,"##사태":12311,"오바":12312,"##YP":12313,"지사":12314,"빈번":12315,"중반부":12316,"Red":12317,"Type":12318,"인명":12319,"BM":12320,"남미":12321,"오른팔":12322,"립":12323,"히카루":12324,"강탈":12325,"년차":12326,"일러스트레이터":12327,"##14":12328,"이방":12329,"##점수":12330,"중급":12331,"생애":12332,"키노":12333,"##쿠로":12334,"애쓰":12335,"##벨트":12336,"라구":12337,"강습":12338,"##호쿠":12339,"##개인":12340,"공모":12341,"정전":12342,"루스":12343,"미도리":12344,"149":12345,"##케인":12346,"원년":12347,"달래":12348,"레스토":12349,"루터":12350,"무단":12351,"전속":12352,"탄막":12353,"페미니즘":12354,"박해":12355,"시오":12356,"청룡":12357,"저조":12358,"꾸리":12359,"##집단":12360,"스파크":12361,"표창":12362,"대법원":12363,"정준":12364,"텔레포트":12365,"랜서":12366,"대패":12367,"한손":12368,"델타":12369,"리뉴얼":12370,"운영체제":12371,"넓히":12372,"BA":12373,"공습":12374,"##ict":12375,"시흥":12376,"##17":12377,"기술력":12378,"134":12379,"카테고리":12380,"하후":12381,"연안":12382,"군복":12383,"신관":12384,"손잡이":12385,"1900":12386,"##받침":12387,"마카":12388,"차대전":12389,"##이름":12390,"1956":12391,"금고":12392,"오케스트라":12393,"##리학":12394,"바티":12395,"##중국":12396,"오키나와":12397,"발톱":12398,"##지않":12399,"맞물리":12400,"##ᆺ대":12401,"##파괴":12402,"쿵":12403,"모든것":12404,"TP":12405,"처녀":12406,"럭키":12407,"때려잡":12408,"수영복":12409,"껍질":12410,"노말":12411,"얼터":12412,"##벨리":12413,"식스":12414,"##피어":12415,"DI":12416,"##ster":12417,"거느리":12418,"라이센스":12419,"노아":12420,"마모":12421,"바이올리":12422,"##ange":12423,"##ater":12424,"EV":12425,"우크라":12426,"먼지":12427,"십자가":12428,"산탄총":12429,"##테츠":12430,"취급받":12431,"타고":12432,"##차이즈":12433,"한발":12434,"비꼬":12435,"상위호환":12436,"##메이트":12437,"진짜로":12438,"##박히":12439,"##빌딩":12440,"루키":12441,"앵커":12442,"방화":12443,"해상도":12444,"High":12445,"##운영":12446,"##글라스":12447,"호출":12448,"##세서리":12449,"##ons":12450,"잠그":12451,"프레데":12452,"리셋":12453,"제프":12454,"펑크":12455,"##프터":12456,"가혹":12457,"##두리":12458,"까마귀":12459,"프로레슬링":12460,"##함대":12461,"전수":12462,"##입구":12463,"##펫":12464,"pro":12465,"긋":12466,"레오나":12467,"##프레스":12468,"##사와":12469,"조력":12470,"역대급":12471,"스기":12472,"##정리":12473,"##소송":12474,"##슬란":12475,"공격기":12476,"제이슨":12477,"친정":12478,"서치":12479,"플레임":12480,"##연구원":12481,"미끼":12482,"장벽":12483,"밀라":12484,"##참모":12485,"러쉬":12486,"직무":12487,"feat":12488,"하치":12489,"여장":12490,"TE":12491,"이호":12492,"불쾌":12493,"아이폰":12494,"트렌":12495,"닫히":12496,"갈라":12497,"삼촌":12498,"플래티넘":12499,"이때문":12500,"인터페이스":12501,"성기사":12502,"NEW":12503,"심히":12504,"위시":12505,"한가지":12506,"추출":12507,"태종":12508,"수시로":12509,"김천":12510,"원망":12511,"일삼":12512,"##서부":12513,"##긴":12514,"##딜러":12515,"이그":12516,"##ple":12517,"##메인":12518,"스마일":12519,"망상":12520,"전두환":12521,"나락":12522,"오디오":12523,"저항력":12524,"아래쪽":12525,"어찌보":12526,"수령":12527,"##크라이":12528,"임진왜란":12529,"%.":12530,"영등포":12531,"박영":12532,"미식":12533,"로그인":12534,"어느날":12535,"파괴력":12536,"##싸이":12537,"147":12538,"##더기":12539,"책상":12540,"이즈미":12541,"안철수":12542,"천공":12543,"럼":12544,"우기":12545,"지난":12546,"보르":12547,"비로소":12548,"율리":12549,"Light":12550,"김도":12551,"스바루":12552,"오역":12553,"자부":12554,"핏":12555,"감기":12556,"너클":12557,"트레이닝":12558,"포맷":12559,"퍼시":12560,"테이프":12561,"경질":12562,"##메르":12563,"크로우":12564,"이력":12565,"##빔":12566,"채찍":12567,"AE":12568,"브루스":12569,"##브리드":12570,"##화학":12571,"문헌":12572,"외면":12573,"280":12574,"길가":12575,"싣":12576,"수소":12577,"##인형":12578,"원내":12579,"당국":12580,"##국제공항":12581,"##ᆯ리티":12582,"퇴역":12583,"세일러":12584,"덩어리":12585,"2500":12586,"ᆯ라":12587,"파랑":12588,"##경기장":12589,"팬티":12590,"##숍":12591,"##타워":12592,"킴":12593,"MO":12594,"찰리":12595,"GHz":12596,"##에로":12597,"##실험":12598,"##곡동":12599,"Gen":12600,"복도":12601,"상대식":12602,"222":12603,"뮤지션":12604,"##to":12605,"인텔":12606,"CO":12607,"무수":12608,"의아":12609,"폐선":12610,"배우자":12611,"증기":12612,"배신자":12613,"##넘기":12614,"다짐":12615,"슌":12616,"##톨":12617,"사당":12618,"입국":12619,"~\"":12620,"나뭇":12621,"더구나":12622,"프로스트":12623,"연말":12624,"초래":12625,"워너":12626,"바나나":12627,"1939":12628,"순정":12629,"범주":12630,"편견":12631,"불리우":12632,"메구미":12633,"최정":12634,"해독":12635,"발전소":12636,"증인":12637,"##CC":12638,"심야":12639,"was":12640,"What":12641,"하지메":12642,"사이클":12643,"##ᅳᆯ렌":12644,"굴러":12645,"사료":12646,"김연":12647,"유선":12648,"사천왕":12649,"요미우리":12650,"법안":12651,"씬":12652,"##티지":12653,"따라잡":12654,"자회사":12655,"보잉":12656,"제우스":12657,"감행":12658,"양대":12659,"##주택":12660,"바닷":12661,"##ᅡᆼ스":12662,"##니스탄":12663,"주고":12664,"신세계":12665,"Kor":12666,"샹":12667,"166":12668,"라든가":12669,"치카":12670,"음색":12671,"두명":12672,"##안군":12673,"데스티":12674,"목재":12675,"츠루":12676,"##유지":12677,"1959":12678,"수상자":12679,"##ics":12680,"1936":12681,"불가리아":12682,"순찰":12683,"오프라인":12684,"##콰":12685,"특수부대":12686,"연기력":12687,"차림":12688,"입시":12689,"개그맨":12690,"##특별자치":12691,"멀리서":12692,"##프라이즈":12693,"물어보":12694,"깃들":12695,"페이크":12696,"##ACK":12697,"Heart":12698,"지미":12699,"퓨처":12700,"##용차":12701,"청원":12702,"만루":12703,"크리스토":12704,"로라":12705,"흑마법":12706,"Tw":12707,"##대부":12708,"단기":12709,"스매시":12710,"##les":12711,"심화":12712,"프로그래밍":12713,"무자":12714,"도쿠가와":12715,"LOVE":12716,"경지":12717,"반론":12718,"저스티스":12719,"북구":12720,"정교회":12721,"oh":12722,"수지":12723,"공자":12724,"1955":12725,"GPU":12726,"일산":12727,"렛":12728,"영남":12729,"##ex":12730,"##루트":12731,"용의자":12732,"거르":12733,"드리블":12734,"##체인":12735,"##BM":12736,"한성":12737,"##파이트":12738,"##어붙":12739,"##노카":12740,"##드릭":12741,"전광":12742,"케리건":12743,"직통":12744,"트랜스포머":12745,"퍼붓":12746,"##바위":12747,"진도":12748,"NHK":12749,"테일러":12750,"AG":12751,"##칸센":12752,"레스토랑":12753,"어레인지":12754,"##사전":12755,"배속":12756,"재임":12757,"낡":12758,"##조치":12759,"냉기":12760,"팩션":12761,"##힘":12762,"투성이":12763,"우드":12764,"명탐정":12765,"퍼센트":12766,"##빠르":12767,"Mr":12768,"##누르":12769,"어벤져스":12770,"마르코":12771,"##윽":12772,"사육":12773,"롤링":12774,"숙주":12775,"착지":12776,"슬라임":12777,"격리":12778,"치바":12779,"어린아이":12780,"Blo":12781,"페르난":12782,"미숙":12783,"종사":12784,"둘러싸이":12785,"메세지":12786,"PL":12787,"미스터리":12788,"준공":12789,"##당시":12790,"체격":12791,"##기획":12792,"타이완":12793,"여단":12794,"탈당":12795,"##lass":12796,"프랜차이즈":12797,"한복":12798,"바이크":12799,"이데":12800,"주되":12801,"##행사":12802,"##메다":12803,"고음":12804,"일어":12805,"무명":12806,"아다":12807,"뒷면":12808,"##16":12809,"무식":12810,"강세":12811,"##라가":12812,"##아슬":12813,"틀어":12814,"FPS":12815,"협의":12816,"보살":12817,"아이스크림":12818,"MK":12819,"그리드":12820,"##연방":12821,"방벽":12822,"진리":12823,"##해방":12824,"##자동":12825,"##AND":12826,"팟":12827,"##귤러":12828,"TO":12829,"번타자":12830,"콘셉트":12831,"밸":12832,"정신나가":12833,"교대":12834,"유대인":12835,"아랑":12836,"회담":12837,"아슬아슬":12838,"이과":12839,"전열":12840,"미아":12841,"Par":12842,"소령":12843,"남자친구":12844,"쫓아가":12845,"현직":12846,"##nder":12847,"땀":12848,"하이브리드":12849,"생선":12850,"미모":12851,"교통사고":12852,"##볼루션":12853,"1952":12854,"아그":12855,"##실력":12856,"세컨드":12857,"time":12858,"운항":12859,"직격":12860,"엘더":12861,"항모":12862,"이동력":12863,"인구수":12864,"주차장":12865,"쇼트":12866,"##터널":12867,"마기":12868,"전반전":12869,"##사냥":12870,"##인구":12871,"정교":12872,"뇌물":12873,"하하":12874,"되살리":12875,"준결승":12876,"술집":12877,"ll":12878,"330":12879,"스콧":12880,"##고시":12881,"브레스":12882,"최대치":12883,"##문트":12884,"내뿜":12885,"반군":12886,"하반기":12887,"##에스":12888,"지표":12889,"쿠니":12890,"270":12891,"##성장":12892,"신칸센":12893,"찌질":12894,"동사":12895,"한해":12896,"##ors":12897,"Fe":12898,"스트리밍":12899,"카즈야":12900,"얼어붙":12901,"표식":12902,"##메일":12903,"통증":12904,"모양새":12905,"##ME":12906,"가르침":12907,"접어들":12908,"애국":12909,"야마다":12910,"파손":12911,"##건물":12912,"안습하":12913,"##드르":12914,"LED":12915,"##기인":12916,"자질":12917,"##패드":12918,"##규어":12919,"사나이":12920,"회계":12921,"##티오":12922,"시집":12923,"몹시":12924,"광대":12925,"경선":12926,"##무진":12927,"입양":12928,"둘이":12929,"쿠마":12930,"휴게":12931,"진형":12932,"##청장":12933,"심상":12934,"뚝":12935,"##포츠":12936,"##브라이":12937,"##미션":12938,"더욱이":12939,"서민":12940,"허브":12941,"교정":12942,"1947":12943,"GTA":12944,"멋있":12945,"파격":12946,"미들":12947,"윈터":12948,"아카이":12949,"두근":12950,"##포로":12951,"#!":12952,"리자":12953,"##모자":12954,"죠죠":12955,"##체육관":12956,"테일즈":12957,"리가":12958,"방공":12959,"후루":12960,"파문":12961,"225":12962,"덕후":12963,"비키":12964,"##노이":12965,"도우":12966,"현존":12967,"Good":12968,"응하":12969,"##무사":12970,"오타쿠":12971,"적재":12972,"특훈":12973,"신주":12974,"소리치":12975,"웜":12976,"##캐스트":12977,"##펀치":12978,"갯수":12979,"웨일":12980,"##팝":12981,"함성":12982,"넉넉":12983,"말년":12984,"##폴리":12985,"부당":12986,"##코인":12987,"골목":12988,"마마":12989,"비아":12990,"테러리스트":12991,"##대륙":12992,"양측":12993,"파키스탄":12994,"재빨리":12995,"##퍼트":12996,"디렉터":12997,"우산":12998,"##두사":12999,"##산물":13000,"Per":13001,"백화점":13002,"제단":13003,"##카제":13004,"평안":13005,"위키백과":13006,"자각":13007,"공존":13008,"패스트":13009,"##황후":13010,"헐크":13011,"쐐":13012,"서두르":13013,"스내":13014,"공격받":13015,"저희":13016,"##려보":13017,"##개조":13018,"쓰러트리":13019,"다중":13020,"우물":13021,"##툭":13022,"테크노":13023,"##이자":13024,"미하":13025,"뱉":13026,"에메랄드":13027,"박상":13028,"기행":13029,"##투르":13030,"얕":13031,"다이노스":13032,"카이저":13033,"사랑받":13034,"핸드폰":13035,"냉동":13036,"자칫":13037,"볶":13038,"안쓰":13039,"무비":13040,"프리드리히":13041,"카를로스":13042,"서해":13043,"##카시":13044,"##메어":13045,"책략":13046,"##니치":13047,"월등":13048,"야전":13049,"맷":13050,"하행":13051,"발간":13052,"카탈":13053,"여배우":13054,"SL":13055,"프랑스군":13056,"짤리":13057,"am":13058,"##HT":13059,"사지":13060,"##주리":13061,"스치":13062,"나인":13063,"담임":13064,"정형":13065,"소설가":13066,"로테이션":13067,"털어놓":13068,"##장관":13069,"상쇄":13070,"##파라":13071,"소규모":13072,"##통제":13073,"에레":13074,"적색":13075,"260":13076,"넬":13077,"장원":13078,"수도원":13079,"##eep":13080,"개미":13081,"급히":13082,"발렌타인":13083,"1800":13084,"악곡":13085,"##강점":13086,"라파":13087,"##리다":13088,"MSL":13089,"메우":13090,"차이나":13091,"섹스":13092,"이스트":13093,"레이어":13094,"##캠프":13095,"웨인":13096,"히나타":13097,"##군단":13098,"##백화점":13099,"하와이":13100,"꿇":13101,"꼼수":13102,"캔디":13103,"군림":13104,"라이즈":13105,"츠카":13106,"1919":13107,"저거":13108,"##충전":13109,"복용":13110,"호투":13111,"엄폐":13112,"단식":13113,"##얼리":13114,"아타":13115,"분쇄":13116,"장편":13117,"IIDX":13118,"몰아붙이":13119,"##바키아":13120,"잡몹":13121,"서태":13122,"애틀":13123,"중학생":13124,"솔라":13125,"자켓":13126,"후드":13127,"##ott":13128,"여캐":13129,"##현우":13130,"##나스":13131,"##캐슬":13132,"Kn":13133,"ab":13134,"차용":13135,"두목":13136,"몇년":13137,"필립":13138,"실력자":13139,"##진화":13140,"0900":13141,"##아주":13142,"Li":13143,"일례":13144,"치마":13145,"바그":13146,"ㅓㅆ었":13147,"##똑":13148,"미유키":13149,"도어":13150,"지부":13151,"##니발":13152,"버블":13153,"동조":13154,"##사정":13155,"배리어":13156,"쳐내":13157,"양보":13158,"EBS":13159,"군데":13160,"눈빛":13161,"초중":13162,"꿰뚫":13163,"카이사르":13164,"벚꽃":13165,"wid":13166,"##저드":13167,"채취":13168,"되게":13169,"직속":13170,"대행":13171,"미쓰":13172,"Wii":13173,"유지비":13174,"휴먼":13175,"##장난":13176,"두가지":13177,"심연":13178,"이례":13179,"레슨":13180,"ᆯ려고":13181,"프로토타입":13182,"전국동":13183,"원장":13184,"보디":13185,"##앙스":13186,"앤디":13187,"추궁":13188,"간호사":13189,"화약":13190,"시가지":13191,"로저":13192,"인문":13193,"This":13194,"셰이":13195,"ㅏ야":13196,"훈훈":13197,"모던":13198,"##일으키":13199,"ᆯ지라도":13200,"프롤로그":13201,"##클릭":13202,"길거리":13203,"징크스":13204,"즉각":13205,"시시":13206,"본가":13207,"더라면":13208,"##IV":13209,"##스톨":13210,"앰":13211,"유방":13212,"컴퍼니":13213,"산악":13214,"Baby":13215,"##25":13216,"라던가":13217,"미ᄁ":13218,"안성":13219,"##IK":13220,"중성":13221,"타고나":13222,"화소":13223,"##단위":13224,"공천":13225,"재활":13226,"유니온":13227,"츤데레":13228,"##anna":13229,"출고":13230,"쐐기":13231,"왓":13232,"밀레":13233,"단선":13234,"냉각":13235,"유벤":13236,"스크롤":13237,"##찌르":13238,"김원":13239,"병종":13240,"기함":13241,"HARD":13242,"Sm":13243,"소매":13244,"실정":13245,"트릴":13246,"그라운드":13247,"사투리":13248,"요르":13249,"멧":13250,"증발":13251,"##부사":13252,"소노":13253,"ONE":13254,"##이야":13255,"더미":13256,"불평":13257,"유코":13258,"##푸르":13259,"히데요시":13260,"떄":13261,"결정전":13262,"바닐라":13263,"부류":13264,"방울":13265,"산화":13266,"1953":13267,"리터":13268,"##폭풍":13269,"##등장":13270,"##화면":13271,"무고":13272,"웨폰":13273,"지문":13274,"##용사":13275,"윈드":13276,"##델피아":13277,"교훈":13278,"에필로그":13279,"##프스":13280,"근력":13281,"베기":13282,"상행":13283,"적립":13284,"탄탄":13285,"빈틈":13286,"무사시":13287,"GN":13288,"유승":13289,"1938":13290,"##사실":13291,"따돌리":13292,"##other":13293,"##웨이트":13294,"필라델피아":13295,"클러":13296,"유라":13297,"템포":13298,"##강점기":13299,"복음":13300,"리부트":13301,"Rock":13302,"##트레":13303,"워크":13304,"이화":13305,"원작자":13306,"단말":13307,"169":13308,"us":13309,"##채널":13310,"##19":13311,"##겜":13312,"운석":13313,"아르메":13314,"구절":13315,"랜스":13316,"프로세서":13317,"##플리케이션":13318,"선형":13319,"관절":13320,"격침":13321,"다이스케":13322,"발라드":13323,"줄어드":13324,"그런것":13325,"차일드":13326,"거품":13327,"배열":13328,"교내":13329,"##미ᄂ":13330,"세레":13331,"동이":13332,"방어막":13333,"말소":13334,"550":13335,"부흥":13336,"야외":13337,"범행":13338,"고산":13339,"홈즈":13340,"인디언":13341,"뫼":13342,"미라이":13343,"허위":13344,"면접":13345,"스파이크":13346,"정계":13347,"리바운드":13348,"##토리얼":13349,"첫날":13350,"##룰":13351,"릴리스":13352,"프랭":13353,"럴":13354,"가이아":13355,"width":13356,"다스":13357,"##쿠니":13358,"롤러":13359,"일품":13360,"신흥":13361,"참으로":13362,"##살인":13363,"##icro":13364,"Live":13365,"박용":13366,"에바":13367,"양호":13368,"##네트":13369,"##방위":13370,"상호작용":13371,"밍":13372,"태극":13373,"헬리콥터":13374,"멜론":13375,"받치":13376,"밀어주":13377,"##시계":13378,"니아":13379,"악령":13380,"피드":13381,"러닝":13382,"##전공":13383,"##정신":13384,"Ac":13385,"파이트":13386,"축적":13387,"왕관":13388,"퉁":13389,"나고":13390,"런처":13391,"노트북":13392,"죄송":13393,"##따위":13394,"온몸":13395,"##ins":13396,"뉘앙스":13397,"후안":13398,"##심장":13399,"##츠루":13400,"##그대로":13401,"육지":13402,"실천":13403,"꽁":13404,"##언스":13405,"##oss":13406,"이카":13407,"성균":13408,"오락실":13409,"유배":13410,"##ru":13411,"DB":13412,"패닉":13413,"##레오":13414,"본의":13415,"물리학":13416,"대중교통":13417,"영동":13418,"토비":13419,"타우":13420,"호세":13421,"##서기":13422,"고든":13423,"물가":13424,"희대":13425,"##자유":13426,"말미":13427,"##던트":13428,"구마":13429,"실로":13430,"책정":13431,"##니트":13432,"시가":13433,"멀티플레이":13434,"뎀":13435,"좁히":13436,"화내":13437,"리리":13438,"##ᆯ로지":13439,"수평":13440,"불문":13441,"자루":13442,"##회견":13443,"술탄":13444,"일일이":13445,"연금술사":13446,"요우":13447,"존대":13448,"cc":13449,"에밀리":13450,"##피드":13451,"황태자":13452,"장안":13453,"카게":13454,"##멋":13455,"수용소":13456,"##부상":13457,"발칸":13458,"연세":13459,"빠뜨리":13460,"주거":13461,"##시지방":13462,"밀치":13463,"트러블":13464,"OK":13465,"필터":13466,"##gain":13467,"##ction":13468,"Blue":13469,"쏠":13470,"쇠퇴":13471,"뽐":13472,"Dark":13473,"##트라이":13474,"##EL":13475,"우파":13476,"1957":13477,"잊어버리":13478,"##시지방선거":13479,"호구":13480,"정체불명":13481,"가창":13482,"##정원":13483,"일제강점기":13484,"브라더스":13485,"KTX":13486,"제보":13487,"##현진":13488,"펭귄":13489,"##하드":13490,"페이커":13491,"경쟁자":13492,"시스":13493,"갈아타":13494,"영화관":13495,"윌슨":13496,"살피":13497,"난무":13498,"부여받":13499,"##0000":13500,"은혜":13501,"냅":13502,"원활":13503,"\"\"":13504,"##분야":13505,"직결":13506,"##걀":13507,"그레이드":13508,"팜":13509,"남작":13510,"다기":13511,"방호":13512,"비즈":13513,"##퀄":13514,"의석":13515,"##가치":13516,"우루과이":13517,"뚜껑":13518,"속박":13519,"장풍":13520,"사탄":13521,"Champ":13522,"방송인":13523,"로컬":13524,"석방":13525,"##지리":13526,"도라에몽":13527,"키드":13528,"할리우드":13529,"유니버":13530,"으리라":13531,"##na":13532,"진정하":13533,"RC":13534,"중기":13535,"상공":13536,"박재":13537,"Im":13538,"동호":13539,"Sun":13540,"##ood":13541,"탄소":13542,"도시락":13543,"##agon":13544,"##크리트":13545,"원흉":13546,"##어쓰":13547,"##UT":13548,"르네":13549,"전국동시지방선거":13550,"성수":13551,"##킨스":13552,"요하":13553,"회로":13554,"포니":13555,"북극":13556,"++":13557,"장제스":13558,"저술":13559,"OCG":13560,"우천":13561,"음주":13562,"진수":13563,"Can":13564,"주무기":13565,"##쩌":13566,"안그러":13567,"켄지":13568,"가축":13569,"시부":13570,"쫓아오":13571,"Bat":13572,"##미치":13573,"깨알":13574,"MHz":13575,"back":13576,"부스":13577,"모친":13578,"열악":13579,"탯이":13580,"유비트":13581,"스트로":13582,"##테이너":13583,"##ᅳ레이트":13584,"호박":13585,"슬퍼":13586,"##ky":13587,"동지":13588,"누명":13589,"화염방":13590,"DR":13591,"자발":13592,"공신":13593,"실루":13594,"##가이":13595,"수다":13596,"옥타":13597,"용감":13598,"205":13599,"플레이스테이션":13600,"질풍":13601,"신병":13602,"푹":13603,"넘사":13604,"쓸데없이":13605,"버릇":13606,"기술자":13607,"좌표":13608,"팀명":13609,"인테":13610,"파벌":13611,"특이사항":13612,"김명":13613,"이창":13614,"농사":13615,"##판매":13616,"권능":13617,"요시다":13618,"어워드":13619,"채집":13620,"바이올린":13621,"강팀":13622,"독서":13623,"멘트":13624,"쥰":13625,"na":13626,"아까":13627,"미니언":13628,"주고받":13629,"미성년":13630,"연루":13631,"깽":13632,"##휴일":13633,"Summer":13634,"달라붙":13635,"플랜":13636,"##자치단체":13637,"RP":13638,"반장":13639,"이질":13640,"본성":13641,"흠좀":13642,"우편":13643,"브론즈":13644,"구타":13645,"튜토리얼":13646,"##ty":13647,"불러일으키":13648,"교육과정":13649,"찢어지":13650,"하부":13651,"한국군":13652,"##irst":13653,"분홍색":13654,"게시물":13655,"이속":13656,"한미":13657,"무제한":13658,"성비":13659,"제작비":13660,"##아래":13661,"정재":13662,"장동":13663,"편안":13664,"반짝이":13665,"##DS":13666,"##르기":13667,"포식":13668,"클라이":13669,"야심":13670,"첩보":13671,"넘사벽":13672,"발차기":13673,"한탄":13674,"##내용":13675,"##자이":13676,"게릴라":13677,"##란트":13678,"슈가":13679,"니코니코":13680,"거니":13681,"##연기":13682,"##ady":13683,"타카시":13684,"텅":13685,"진행자":13686,"##구단":13687,"##그라드":13688,"##베르토":13689,"##land":13690,"Korea":13691,"천마":13692,"##때로":13693,"헌신":13694,"##즈리":13695,"카우":13696,"짚":13697,"공약":13698,"흠좀무":13699,"솔리":13700,"시구":13701,"쥬얼":13702,"Music":13703,"사족":13704,"##석민":13705,"기괴":13706,"소실":13707,"엿보":13708,"말아먹":13709,"양키스":13710,"히카리":13711,"돌아보":13712,"밀집":13713,"모범":13714,"바바":13715,"요리사":13716,"유로파":13717,"충북":13718,"사안":13719,"빅토르":13720,"유유":13721,"아루":13722,"##공신":13723,"아울러":13724,"라나":13725,"자처":13726,"아르카":13727,"프린스":13728,"자손":13729,"부관":13730,"왕좌":13731,"##부장관":13732,"리키":13733,"BEMAN":13734,"어미":13735,"레이첼":13736,"매달":13737,"저것":13738,"바오":13739,"1914":13740,"유나":13741,"선우":13742,"줄줄":13743,"반환":13744,"유즈":13745,"##블릿":13746,"##테라":13747,"대전광역시":13748,"골치":13749,"개칭":13750,"동족":13751,"기자회견":13752,"결함":13753,"##징어":13754,"하워드":13755,"클라우드":13756,"유스":13757,"BEMANI":13758,"호르":13759,"금색":13760,"스트라":13761,"유정":13762,"##빠지":13763,"제구":13764,"빼내":13765,"요시노":13766,"웹사이트":13767,"##OID":13768,"##동네":13769,"늦추":13770,"평균자책점":13771,"Fire":13772,"##캡":13773,"넥서스":13774,"하리":13775,"##밑":13776,"반대편":13777,"파워업":13778,"시외버스":13779,"##예프":13780,"나레이션":13781,"설상가":13782,"해운대":13783,"악의":13784,"카마":13785,"설상가상":13786,"널":13787,"레바":13788,"소비에트":13789,"##뿌리":13790,"후예":13791,"블래스터":13792,"덜하":13793,"OB":13794,"유벤투스":13795,"홀딩":13796,"now":13797,"스파르타":13798,"##기리":13799,"남발":13800,"가의":13801,"카타르":13802,"타나카":13803,"신수":13804,"##테나":13805,"일레븐":13806,"안산":13807,"필연":13808,"표본":13809,"유난":13810,"##커녕":13811,"민정":13812,"650":13813,"카디":13814,"##흘":13815,"반항":13816,"에스파":13817,"대군":13818,"동래":13819,"합하":13820,"이복":13821,"지름":13822,"나폴리":13823,"##다카":13824,"대진":13825,"말그대로":13826,"##듈럼":13827,"##츠나":13828,"데스티니":13829,"교양":13830,"전전":13831,"함재기":13832,"친목":13833,"킹덤":13834,"211":13835,"사르":13836,"나사":13837,"연하":13838,"##주공":13839,"만회":13840,"총격":13841,"밭":13842,"환수":13843,"##트니":13844,"##히사":13845,"일렉트로":13846,"##블레이드":13847,"##저것":13848,"아이리스":13849,"펜듈럼":13850,"슬퍼하":13851,"간호":13852,"호기심":13853,"##ium":13854,"유영":13855,"프로모션":13856,"##싹":13857,"법학":13858,"휩싸이":13859,"오시":13860,"버터":13861,"로스터":13862,"##뿐":13863,"여권":13864,"##나드":13865,"##비어":13866,"잠재력":13867,"목동":13868,"##폭행":13869,"윌리엄스":13870,"사모":13871,"##돌프":13872,"센티":13873,"엘리스":13874,"미로":13875,"##푼":13876,"##ᅥᆫ지":13877,"회귀":13878,"싱어":13879,"GG":13880,"##차트":13881,"아이유":13882,"야마구치":13883,"Life":13884,"CA":13885,"이도":13886,"걸음":13887,"##데시":13888,"후타":13889,"불신":13890,"힘쓰":13891,"##준표":13892,"스토커":13893,"기피":13894,"회고":13895,"3164":13896,"##ush":13897,"대마":13898,"경제학":13899,"첨단":13900,"특이점":13901,"진나라":13902,"드ᄅ":13903,"대국":13904,"뒤통수":13905,"농락":13906,"##기야":13907,"서독":13908,"원천":13909,"##갤":13910,"STR":13911,"베지":13912,"저주받":13913,"루이지":13914,"뷔":13915,"입법":13916,"주파수":13917,"춘천":13918,"장갑차":13919,"부원":13920,"여관":13921,"봉기":13922,"조준경":13923,"대표작":13924,"주심":13925,"##자르":13926,"Ma":13927,"##순간":13928,"##ount":13929,"콜롬비아":13930,"후궁":13931,"만행":13932,"중년":13933,"어설프":13934,"파산":13935,"##파르":13936,"형편없":13937,"플로리다":13938,"창시":13939,"가성":13940,"But":13941,"리우":13942,"박찬":13943,"1951":13944,"디스하":13945,"생산량":13946,"목적지":13947,"까닭":13948,"베네치아":13949,"강행":13950,"쪼개":13951,"Just":13952,"동요":13953,"별점":13954,"##즈루":13955,"204":13956,"조직원":13957,"여정":13958,"##수정":13959,"당주":13960,"아이작":13961,"선곡":13962,"##산화":13963,"##못하":13964,"서초":13965,"동로마":13966,"백신":13967,"뭔":13968,"수식":13969,"##콤보":13970,"스크립트":13971,"##불능":13972,"똑똑":13973,"메모":13974,"태자":13975,"성균관":13976,"진행중":13977,"농촌":13978,"베일":13979,"체형":13980,"귀하":13981,"##뽕":13982,"진구":13983,"칙":13984,"깡패":13985,"개개인":13986,"일본식":13987,"염려":13988,"선제골":13989,"적성":13990,"등교":13991,"DX":13992,"##CH":13993,"##진흥":13994,"하시":13995,"오마주":13996,"혜성":13997,"지극히":13998,"사로잡히":13999,"발광":14000,"북방":14001,"박명수":14002,"마초":14003,"##의학":14004,"특허":14005,"Ste":14006,"자니":14007,"복면":14008,"스콜":14009,"장학":14010,"자본주의":14011,"올스타전":14012,"day":14013,"박경":14014,"##빅":14015,"Sy":14016,"##ger":14017,"레이너":14018,"귀중":14019,"해적단":14020,"독수리":14021,"냉전":14022,"감전":14023,"##청년":14024,"##횡":14025,"이것저것":14026,"##흙":14027,"로저스":14028,"총괄":14029,"생물학":14030,"FFF":14031,"인어":14032,"##ᅳ랜드":14033,"대대로":14034,"정립":14035,"베이스볼":14036,"하스스톤":14037,"pt":14038,"지그":14039,"파우":14040,"열등":14041,"한숨":14042,"대각":14043,"지상파":14044,"진군":14045,"Dance":14046,"피에르":14047,"쓸어버리":14048,"감히":14049,"나이트메어":14050,"선방":14051,"첸":14052,"이반":14053,"피카츄":14054,"FB":14055,"보트":14056,"험하":14057,"준하":14058,"Gold":14059,"루미":14060,"끼어들":14061,"전자기":14062,"수수료":14063,"산책":14064,"밧":14065,"현상금":14066,"개연":14067,"CON":14068,"마요":14069,"중추":14070,"##초교":14071,"##니르":14072,"아토":14073,"##수원":14074,"송출":14075,"행방불명":14076,"##마침":14077,"이류":14078,"분장":14079,"가급":14080,"기온":14081,"네놈":14082,"##베기":14083,"Grand":14084,"마운드":14085,"청산":14086,"츠바사":14087,"선대":14088,"남극":14089,"주황색":14090,"이드":14091,"##ᆯ럿":14092,"이은":14093,"실루엣":14094,"Pre":14095,"콕":14096,"암울":14097,"Ev":14098,"젤다":14099,"사슴":14100,"1600":14101,"구단주":14102,"##ᅧ지":14103,"미즈키":14104,"명곡":14105,"VOC":14106,"설화":14107,"달걀":14108,"##ne":14109,"##ally":14110,"HK":14111,"##ution":14112,"가미":14113,"증가량":14114,"계란":14115,"계열사":14116,"핸들":14117,"전세":14118,"힐링":14119,"LCK":14120,"차후":14121,"마신":14122,"대쉬":14123,"입체":14124,"경감":14125,"따라다니":14126,"##퍼런스":14127,"난감":14128,"##양군":14129,"##지휘":14130,"경과":14131,"##pr":14132,"망원":14133,"일진":14134,"홍성":14135,"##발리":14136,"괴상":14137,"괴력":14138,"고조":14139,"밀란":14140,"##경찰서":14141,"스이":14142,"심사위원":14143,"메이플스토리":14144,"광전사":14145,"이적료":14146,"도전과제":14147,"이용해":14148,"세세":14149,"##스크롤":14150,"천원":14151,"에우":14152,"get":14153,"##가타":14154,"사범":14155,"내걸":14156,"렘":14157,"심문":14158,"주가":14159,"우타":14160,"박진":14161,"스킵":14162,"##스퍼":14163,"##후군":14164,"##켜":14165,"구두":14166,"##얼거리":14167,"##픈":14168,"##제일":14169,"라임":14170,"고분":14171,"월급":14172,"자격증":14173,"TW":14174,"Over":14175,"논하":14176,"선고받":14177,"시타":14178,"##천동":14179,"##체국":14180,"도검":14181,"석상":14182,"대사관":14183,"스윕":14184,"신정":14185,"헥":14186,"이노우":14187,"##패턴":14188,"기타리스트":14189,"1937":14190,"습관":14191,"교시":14192,"마주하":14193,"##ator":14194,"아프가":14195,"ARM":14196,"라크":14197,"##치료":14198,"오쿠":14199,"고질":14200,"때마침":14201,"더비":14202,"플레어":14203,"##식품":14204,"사역":14205,"꽂히":14206,"목요일":14207,"카이토":14208,"일어서":14209,"로이드":14210,"beat":14211,"외롭":14212,"홍진호":14213,"##스란":14214,"오리진":14215,"부호":14216,"수녀":14217,"정의당":14218,"해치우":14219,"광속":14220,"편찬":14221,"체스":14222,"아틀레":14223,"내수":14224,"동탁":14225,"폭동":14226,"고요":14227,"##신기":14228,"UF":14229,"ᆫ들":14230,"##ᆺ테":14231,"##조약":14232,"출근":14233,"손톱":14234,"페루":14235,"가브리엘":14236,"고토":14237,"##엎":14238,"##우먼":14239,"진성":14240,"##취소":14241,"DJMAX":14242,"카르마":14243,"##air":14244,"수강":14245,"Sec":14246,"예지":14247,"##클로":14248,"선구":14249,"총재":14250,"음악가":14251,"접점":14252,"개인전":14253,"우마":14254,"총열":14255,"석탄":14256,"##걸음":14257,"화나":14258,"공익":14259,"다이너":14260,"tvN":14261,"시중":14262,"어리석":14263,"은밀":14264,"차선":14265,"##트르":14266,"일절":14267,"북한군":14268,"리쿠":14269,"속력":14270,"완구":14271,"처절":14272,"##십자":14273,"코마":14274,"출연진":14275,"기성":14276,"유무":14277,"프리미어리그":14278,"차관":14279,"우지":14280,"##ᅥᆫ트":14281,"출중":14282,"슬로우":14283,"남아프리카":14284,"열기":14285,"열람":14286,"교섭":14287,"피고":14288,"그런거":14289,"러셀":14290,"예언자":14291,"추기":14292,"애드":14293,"뽐내":14294,"주한":14295,"BBC":14296,"##젯":14297,"임원":14298,"뒤덮":14299,"출루율":14300,"Out":14301,"##유산":14302,"지중":14303,"조원":14304,"##공격력":14305,"부사관":14306,"김형":14307,"##니클":14308,"느니":14309,"입힙":14310,"코바야시":14311,"최영":14312,"##레스트":14313,"##서린":14314,"헤매":14315,"##페어":14316,"비타":14317,"실업":14318,"베스":14319,"맨손":14320,"포효":14321,"##inc":14322,"금호":14323,"괄":14324,"소피아":14325,"이에":14326,"아홉":14327,"우습":14328,"##매매":14329,"간략":14330,"##대군":14331,"이변":14332,"##튠":14333,"##라비아":14334,"투하":14335,"딱딱":14336,"수락":14337,"##꿈치":14338,"##리히":14339,"수복":14340,"금화":14341,"##작품":14342,"안면":14343,"켈리":14344,"고령":14345,"##함수":14346,"##헬름":14347,"##재판소":14348,"##격포":14349,"단속":14350,"수량":14351,"신축":14352,"커비":14353,"하우":14354,"모닝":14355,"검은색":14356,"아프가니스탄":14357,"El":14358,"##레일":14359,"Dis":14360,"but":14361,"##아서":14362,"치트":14363,"Win":14364,"파장":14365,"프리즘":14366,"기복":14367,"유틸":14368,"유난히":14369,"##콜라":14370,"##거장":14371,"안가":14372,"VOCAL":14373,"리츠":14374,"수요일":14375,"마차":14376,"아줌마":14377,"##...":14378,"군함":14379,"창업":14380,"##마시":14381,"야기":14382,"점거":14383,"천계":14384,"ᆫ다던가":14385,"저렇게":14386,"새누리당":14387,"스냅":14388,"사이보그":14389,"스텔라":14390,"쫄":14391,"##ART":14392,"##실리":14393,"항아리":14394,"시몬":14395,"제다이":14396,"UI":14397,"##하우":14398,"백색":14399,"##셔츠":14400,"하원":14401,"용맹":14402,"##전함":14403,"자신감":14404,"##use":14405,"사스케":14406,"세션":14407,"외래":14408,"라이드":14409,"스틱":14410,"이정도":14411,"sc":14412,"##장이":14413,"6000":14414,"향기":14415,"##벡":14416,"성도":14417,"Mon":14418,"김두한":14419,"보구":14420,"제휴":14421,"끝날":14422,"##나가와":14423,"이형":14424,"##서리":14425,"아부":14426,"호전":14427,"##브레이":14428,"수험":14429,"##담당":14430,"퇴출":14431,"HG":14432,"워낙에":14433,"노려보":14434,"킬로":14435,"자진":14436,"오래전":14437,"##ring":14438,"미지":14439,"##파니":14440,"##여지":14441,"##병력":14442,"조영":14443,"배송":14444,"픽업":14445,"##XT":14446,"카인":14447,"man":14448,"~~":14449,"##LS":14450,"##덟":14451,"천둥":14452,"전년":14453,"한스":14454,"이야말로":14455,"Af":14456,"딸기":14457,"마트":14458,"접근성":14459,"실명":14460,"평원":14461,"평민":14462,"하의":14463,"전도":14464,"새우":14465,"곡선":14466,"예명":14467,"완수":14468,"정동":14469,"컨트롤러":14470,"Power":14471,"##매니아":14472,"차남":14473,"후딜":14474,"##터지":14475,"슈퍼아머":14476,"루팡":14477,"##경영":14478,"변질":14479,"뺨":14480,"탐구":14481,"만료":14482,"##ina":14483,"몇개":14484,"리바이":14485,"Res":14486,"치이":14487,"때때로":14488,"마니":14489,"키즈":14490,"부과":14491,"동문":14492,"##역학":14493,"해임":14494,"매수":14495,"스토어":14496,"##블럼":14497,"##하늘":14498,"딩":14499,"아이오":14500,"장기간":14501,"중견수":14502,"##소프트":14503,"호프":14504,"극초반":14505,"경희":14506,"##설정":14507,"380":14508,"위나라":14509,"내야수":14510,"달빛":14511,"퀄컴":14512,"At":14513,"판권":14514,"영리":14515,"토오":14516,"어쌔":14517,"##르르":14518,"정벌":14519,"못지않":14520,"##내기":14521,"질환":14522,"경매":14523,"히토":14524,"##금융":14525,"OPS":14526,"아틀":14527,"연회":14528,"푼":14529,"}}}":14530,"전리":14531,"이레":14532,"단정":14533,"헤어스타일":14534,"허공":14535,"무상":14536,"학점":14537,"256":14538,"속공":14539,"##나르":14540,"태블릿":14541,"사출":14542,"혈액형":14543,"대인배":14544,"##삭스":14545,"SCP":14546,"NG":14547,"소우":14548,"분화":14549,"런닝":14550,"성형":14551,"연발":14552,"러너":14553,"북미판":14554,"가소":14555,"##타케":14556,"방과":14557,"안치":14558,"##모사":14559,"신원":14560,"노래방":14561,"대공포":14562,"##상대":14563,"회오리":14564,"명대사":14565,"아카리":14566,"Fem":14567,"쩔":14568,"여당":14569,"##봄":14570,"스캔들":14571,"물들":14572,"노엘":14573,"이성계":14574,"스피커":14575,"듀크":14576,"마누":14577,"##르바":14578,"##식물":14579,"이동하":14580,"적발":14581,"##퇴근":14582,"섬세":14583,"토마토":14584,"부평":14585,"##광장":14586,"파이프":14587,"캐서린":14588,"##기시":14589,"혹사":14590,"일보":14591,"세조":14592,"동참":14593,"##블루":14594,"맏":14595,"##ittle":14596,"콘크리트":14597,"조제":14598,"##신경":14599,"##스칼":14600,"기합":14601,"회심":14602,"원고":14603,"sm":14604,"인종차별":14605,"가와":14606,"직역":14607,"##변경":14608,"단숨":14609,"스커":14610,"입성":14611,"김영삼":14612,"앙리":14613,"Fi":14614,"MR":14615,"파수":14616,"투기장":14617,"매진":14618,"김택":14619,"##데기":14620,"MX":14621,"베니":14622,"시치":14623,"##보도":14624,"동갑":14625,"하드코어":14626,"어쌔신":14627,"각기":14628,"영조":14629,"자취":14630,"플레이어블":14631,"고베":14632,"##회전":14633,"옵티":14634,"허구":14635,"교향곡":14636,"가급적":14637,"##수치":14638,"한도":14639,"Sing":14640,"##좌석":14641,"##셀러":14642,"##ᆺ이":14643,"줌":14644,"1910":14645,"FL":14646,"행정부":14647,"##쏠":14648,"존속":14649,"고안":14650,"단숨에":14651,"아이언맨":14652,"##ERO":14653,"설계도":14654,"SG":14655,"케이지":14656,"조그마":14657,"문어":14658,"##de":14659,"카지노":14660,"스팅":14661,"망령":14662,"경찰관":14663,"##be":14664,"세미":14665,"##출력":14666,"gr":14667,"##롤라":14668,"##교자":14669,"통용":14670,"지주":14671,"쎄":14672,"빅뱅":14673,"넥슨":14674,"##ello":14675,"건재":14676,"젊은이":14677,"애교":14678,"스네이크":14679,"타치바나":14680,"근성":14681,"러시아어":14682,"매너":14683,"##퀘스트":14684,"대본":14685,"할당":14686,"어우":14687,"MT":14688,"부추":14689,"미수":14690,"포토":14691,"아르메니아":14692,"배기":14693,"승천":14694,"##reen":14695,"SV":14696,"부리그":14697,"악하":14698,"##ual":14699,"타국":14700,"집중력":14701,"##고쿠":14702,"조력자":14703,"상류":14704,"악용":14705,"미사키":14706,"궁지":14707,"IG":14708,"괴리":14709,"볼륨":14710,"파업":14711,"호무":14712,"##슬롯":14713,"강연":14714,"뒤이":14715,"적진":14716,"##선언":14717,"김정은":14718,"절규":14719,"부도":14720,"상표":14721,"입술":14722,"##날드":14723,"마에다":14724,"##비우스":14725,"반부":14726,"##짐":14727,"오아":14728,"나고야":14729,"오인":14730,"내구력":14731,"학계":14732,"강성":14733,"병합":14734,"피치":14735,"매개":14736,"분만":14737,"사찰":14738,"색채":14739,"궤적":14740,"##산군":14741,"막바지":14742,"낙인":14743,"MLB":14744,"그닥":14745,"##노르":14746,"##황제":14747,"Pv":14748,"슬ᄅ":14749,"##기동":14750,"소동":14751,"건전":14752,"라지만":14753,"스완":14754,"소환수":14755,"Rem":14756,"저상":14757,"슬러":14758,"노조미":14759,"이안":14760,"성서":14761,"우상":14762,"줄거리":14763,"퇴사":14764,"##제리":14765,"광탈":14766,"군사력":14767,"돌격소총":14768,"##에이터":14769,"##방면":14770,"중전차":14771,"영미":14772,"##공무원":14773,"표방":14774,"슈퍼스타":14775,"고장나":14776,"##단장":14777,"Ep":14778,"가뜩":14779,"당첨":14780,"코스타":14781,"선인":14782,"##ational":14783,"##교차로":14784,"네타":14785,"유포":14786,"999":14787,"현황":14788,"피드백":14789,"##괘":14790,"##기계":14791,
[...]
