[UNK]	0
[CLS]	1
[SEP]	2
[PAD]	3
[MASK]	4
!	5
"	6
#	7
$	8
%	9
&	10
'	11
(	12
)	13
*	14
+	15
,	16
-	17
.	18
/	19
0	20
1	21
2	22
3	23
4	24
5	25
6	26
7	27
8	28
9	29
:	30
;	31
<	32
=	33
>	34
?	35
@	36
A	37
B	38
C	39
D	40
E	41
F	42
G	43
H	44
I	45
J	46
K	47
L	48
M	49
N	50
O	51
P	52
Q	53
R	54
S	55
T	56
U	57
V	58
W	59
X	60
Y	61
Z	62
[	63
\	64
]	65
^	66
_	67
`	68
a	69
b	70
c	71
d	72
e	73
f	74
g	75
h	76
i	77
j	78
k	79
l	80
m	81
n	82
o	83
p	84
q	85
r	86
s	87
t	88
u	89
v	90
w	91
x	92
y	93
z	94
{	95
|	96
}	97
~	98
	99
ㄱ	100
ㄲ	101
ㄳ	102
ㄴ	103
ㄵ	104
ㄶ	105
ㄷ	106
ㄸ	107
ㄹ	108
ㄺ	109
ㄻ	110
ㄼ	111
ㄽ	112
ㄾ	113
ㄿ	114
ㅀ	115
ㅁ	116
ㅂ	117
ㅃ	118
ㅄ	119
ㅅ	120
ㅆ	121
ㅇ	122
ㅈ	123
ㅉ	124
ㅊ	125
ㅋ	126
ㅌ	127
ㅍ	128
ㅎ	129
ㅏ	130
ㅐ	131
ㅑ	132
ㅒ	133
ㅓ	134
ㅔ	135
ㅕ	136
ㅖ	137
ㅗ	138
ㅘ	139
ㅙ	140
ㅚ	141
ㅛ	142
ㅜ	143
ㅝ	144
ㅞ	145
ㅟ	146
ㅠ	147
ㅡ	148
ㅢ	149
ㅣ	150
가	151
각	152
갂	153
갃	154
간	155
갅	156
갆	157
갇	158
갈	159
갉	160
갊	161
갋	162
갌	163
갍	164
갎	165
갏	166
감	167
갑	168
값	169
갓	170
갔	171
강	172
갖	173
갗	174
갘	175
같	176
갚	177
갛	178
개	179
객	180
갞	181
갟	182
갠	183
갡	184
갢	185
갣	186
갤	187
갥	188
갦	189
갧	190
갨	191
갩	192
갪	193
갫	194
갬	195
갭	196
갮	197
갯	198
갰	199
갱	200
갲	201
갳	202
갴	203
갵	204
갶	205
갷	206
갸	207
갹	208
갺	209
갻	210
갼	211
갽	212
갾	213
갿	214
걀	215
걁	216
걂	217
걃	218
걄	219
걅	220
걆	221
걇	222
걈	223
걉	224
걊	225
걋	226
걌	227
걍	228
걎	229
걏	230
걐	231
걑	232
걒	233
걓	234
걔	235
걕	236
걖	237
걗	238
걘	239
걙	240
걚	241
걛	242
걜	243
걝	244
걞	245
걟	246
걠	247
걡	248
걢	249
걣	250
걤	251
걥	252
걦	253
걧	254
걨	255
걩	256
걪	257
걫	258
걬	259
걭	260
걮	261
걯	262
거	263
걱	264
걲	265
걳	266
건	267
걵	268
걶	269
걷	270
걸	271
걹	272
걺	273
걻	274
걼	275
걽	276
걾	277
걿	278
검	279
겁	280
겂	281
것	282
겄	283
겅	284
겆	285
겇	286
겈	287
겉	288
겊	289
겋	290
게	291
겍	292
겎	293
겏	294
겐	295
겑	296
겒	297
겓	298
겔	299
겕	300
겖	301
겗	302
겘	303
겙	304
겚	305
겛	306
겜	307
겝	308
겞	309
겟	310
겠	311
겡	312
겢	313
겣	314
겤	315
겥	316
겦	317
겧	318
겨	319
격	320
겪	321
겫	322
견	323
겭	324
겮	325
겯	326
결	327
겱	328
겲	329
겳	330
겴	331
겵	332
겶	333
겷	334
겸	335
겹	336
겺	337
겻	338
겼	339
경	340
겾	341
겿	342
곀	343
곁	344
곂	345
곃	346
계	347
곅	348
곆	349
곇	350
곈	351
곉	352
곊	353
곋	354
곌	355
곍	356
곎	357
곏	358
곐	359
곑	360
곒	361
곓	362
곔	363
곕	364
곖	365
곗	366
곘	367
곙	368
곚	369
곛	370
곜	371
곝	372
곞	373
곟	374
고	375
곡	376
곢	377
곣	378
곤	379
곥	380
곦	381
곧	382
골	383
곩	384
곪	385
곫	386
곬	387
곭	388
곮	389
곯	390
곰	391
곱	392
곲	393
곳	394
곴	395
공	396
곶	397
곷	398
곸	399
곹	400
곺	401
곻	402
과	403
곽	404
곾	405
곿	406
관	407
괁	408
괂	409
괃	410
괄	411
괅	412
괆	413
괇	414
괈	415
괉	416
괊	417
괋	418
괌	419
괍	420
괎	421
괏	422
괐	423
광	424
괒	425
괓	426
괔	427
괕	428
괖	429
괗	430
괘	431
괙	432
괚	433
괛	434
괜	435
괝	436
괞	437
괟	438
괠	439
괡	440
괢	441
괣	442
괤	443
괥	444
괦	445
괧	446
괨	447
괩	448
괪	449
괫	450
괬	451
괭	452
괮	453
괯	454
괰	455
괱	456
괲	457
괳	458
괴	459
괵	460
괶	461
괷	462
괸	463
괹	464
괺	465
괻	466
괼	467
괽	468
괾	469
괿	470
굀	471
굁	472
굂	473
굃	474
굄	475
굅	476
굆	477
굇	478
굈	479
굉	480
굊	481
굋	482
굌	483
굍	484
굎	485
굏	486
교	487
굑	488
굒	489
굓	490
굔	491
굕	492
굖	493
굗	494
굘	495
굙	496
굚	497
굛	498
굜	499
굝	500
굞	501
굟	502
굠	503
굡	504
굢	505
굣	506
굤	507
굥	508
굦	509
굧	510
굨	511
굩	512
굪	513
굫	514
구	515
국	516
굮	517
굯	518
군	519
굱	520
굲	521
굳	522
굴	523
굵	524
굶	525
굷	526
굸	527
굹	528
굺	529
굻	530
굼	531
굽	532
굾	533
굿	534
궀	535
궁	536
궂	537
궃	538
궄	539
궅	540
궆	541
궇	542
궈	543
궉	544
궊	545
궋	546
권	547
궍	548
궎	549
궏	550
궐	551
궑	552
궒	553
궓	554
궔	555
궕	556
궖	557
궗	558
궘	559
궙	560
궚	561
궛	562
궜	563
궝	564
궞	565
궟	566
궠	567
궡	568
궢	569
궣	570
궤	571
궥	572
궦	573
궧	574
궨	575
궩	576
궪	577
궫	578
궬	579
궭	580
궮	581
궯	582
궰	583
궱	584
궲	585
궳	586
궴	587
궵	588
궶	589
궷	590
궸	591
궹	592
궺	593
궻	594
궼	595
궽	596
궾	597
궿	598
귀	599
귁	600
귂	601
귃	602
귄	603
귅	604
귆	605
귇	606
귈	607
귉	608
귊	609
귋	610
귌	611
귍	612
귎	613
귏	614
귐	615
귑	616
귒	617
귓	618
귔	619
귕	620
귖	621
귗	622
귘	623
귙	624
귚	625
귛	626
규	627
귝	628
귞	629
귟	630
균	631
귡	632
귢	633
귣	634
귤	635
귥	636
귦	637
귧	638
귨	639
귩	640
귪	641
귫	642
귬	643
귭	644
귮	645
귯	646
귰	647
귱	648
귲	649
귳	650
귴	651
귵	652
귶	653
귷	654
그	655
극	656
귺	657
귻	658
근	659
귽	660
귾	661
귿	662
글	663
긁	664
긂	665
긃	666
긄	667
긅	668
긆	669
긇	670
금	671
급	672
긊	673
긋	674
긌	675
긍	676
긎	677
긏	678
긐	679
긑	680
긒	681
긓	682
긔	683
긕	684
긖	685
긗	686
긘	687
긙	688
긚	689
긛	690
긜	691
긝	692
긞	693
긟	694
긠	695
긡	696
긢	697
긣	698
긤	699
긥	700
긦	701
긧	702
긨	703
긩	704
긪	705
긫	706
긬	707
긭	708
긮	709
긯	710
기	711
긱	712
긲	713
긳	714
긴	715
긵	716
긶	717
긷	718
길	719
긹	720
긺	721
긻	722
긼	723
긽	724
긾	725
긿	726
김	727
깁	728
깂	729
깃	730
깄	731
깅	732
깆	733
깇	734
깈	735
깉	736
깊	737
깋	738
까	739
깍	740
깎	741
깏	742
깐	743
깑	744
깒	745
깓	746
깔	747
깕	748
깖	749
깗	750
깘	751
깙	752
깚	753
깛	754
깜	755
깝	756
깞	757
깟	758
깠	759
깡	760
깢	761
깣	762
깤	763
깥	764
깦	765
깧	766
깨	767
깩	768
깪	769
깫	770
깬	771
깭	772
깮	773
깯	774
깰	775
깱	776
깲	777
깳	778
깴	779
깵	780
깶	781
깷	782
깸	783
깹	784
깺	785
깻	786
깼	787
깽	788
깾	789
깿	790
꺀	791
꺁	792
꺂	793
꺃	794
꺄	795
꺅	796
꺆	797
꺇	798
꺈	799
꺉	800
꺊	801
꺋	802
꺌	803
꺍	804
꺎	805
꺏	806
꺐	807
꺑	808
꺒	809
꺓	810
꺔	811
꺕	812
꺖	813
꺗	814
꺘	815
꺙	816
꺚	817
꺛	818
꺜	819
꺝	820
꺞	821
꺟	822
꺠	823
꺡	824
꺢	825
꺣	826
꺤	827
꺥	828
꺦	829
꺧	830
꺨	831
꺩	832
꺪	833
꺫	834
꺬	835
꺭	836
꺮	837
꺯	838
꺰	839
꺱	840
꺲	841
꺳	842
꺴	843
꺵	844
꺶	845
꺷	846
꺸	847
꺹	848
꺺	849
꺻	850
꺼	851
꺽	852
꺾	853
꺿	854
껀	855
껁	856
껂	857
껃	858
껄	859
껅	860
껆	861
껇	862
껈	863
껉	864
껊	865
껋	866
껌	867
껍	868
껎	869
껏	870
껐	871
껑	872
껒	873
껓	874
껔	875
껕	876
껖	877
껗	878
께	879
껙	880
껚	881
껛	882
껜	883
껝	884
껞	885
껟	886
껠	887
껡	888
껢	889
껣	890
껤	891
껥	892
껦	893
껧	894
껨	895
껩	896
껪	897
껫	898
껬	899
껭	900
껮	901
껯	902
껰	903
껱	904
껲	905
껳	906
껴	907
껵	908
껶	909
껷	910
껸	911
껹	912
껺	913
껻	914
껼	915
껽	916
껾	917
껿	918
꼀	919
꼁	920
꼂	921
꼃	922
꼄	923
꼅	924
꼆	925
꼇	926
꼈	927
꼉	928
꼊	929
꼋	930
꼌	931
꼍	932
꼎	933
꼏	934
꼐	935
꼑	936
꼒	937
꼓	938
꼔	939
꼕	940
꼖	941
꼗	942
꼘	943
꼙	944
꼚	945
꼛	946
꼜	947
꼝	948
꼞	949
꼟	950
꼠	951
꼡	952
꼢	953
꼣	954
꼤	955
꼥	956
꼦	957
꼧	958
꼨	959
꼩	960
꼪	961
꼫	962
꼬	963
꼭	964
꼮	965
꼯	966
꼰	967
꼱	968
꼲	969
꼳	970
꼴	971
꼵	972
꼶	973
꼷	974
꼸	975
꼹	976
꼺	977
꼻	978
꼼	979
꼽	980
꼾	981
꼿	982
꽀	983
꽁	984
꽂	985
꽃	986
꽄	987
꽅	988
꽆	989
꽇	990
꽈	991
꽉	992
꽊	993
꽋	994
꽌	995
꽍	996
꽎	997
꽏	998
꽐	999
꽑	1000
꽒	1001
꽓	1002
꽔	1003
꽕	1004
꽖	1005
꽗	1006
꽘	1007
꽙	1008
꽚	1009
꽛	1010
꽜	1011
꽝	1012
꽞	1013
꽟	1014
꽠	1015
꽡	1016
꽢	1017
꽣	1018
꽤	1019
꽥	1020
꽦	1021
꽧	1022
꽨	1023
꽩	1024
꽪	1025
꽫	1026
꽬	1027
꽭	1028
꽮	1029
꽯	1030
꽰	1031
꽱	1032
꽲	1033
꽳	1034
꽴	1035
꽵	1036
꽶	1037
꽷	1038
꽸	1039
꽹	1040
꽺	1041
꽻	1042
꽼	1043
꽽	1044
꽾	1045
꽿	1046
꾀	1047
꾁	1048
꾂	1049
꾃	1050
꾄	1051
꾅	1052
꾆	1053
꾇	1054
꾈	1055
꾉	1056
꾊	1057
꾋	1058
꾌	1059
꾍	1060
꾎	1061
꾏	1062
꾐	1063
꾑	1064
꾒	1065
꾓	1066
꾔	1067
꾕	1068
꾖	1069
꾗	1070
꾘	1071
꾙	1072
꾚	1073
꾛	1074
꾜	1075
꾝	1076
꾞	1077
꾟	1078
꾠	1079
꾡	1080
꾢	1081
꾣	1082
꾤	1083
꾥	1084
꾦	1085
꾧	1086
꾨	1087
꾩	1088
꾪	1089
꾫	1090
꾬	1091
꾭	1092
꾮	1093
꾯	1094
꾰	1095
꾱	1096
꾲	1097
꾳	1098
꾴	1099
꾵	1100
꾶	1101
꾷	1102
꾸	1103
꾹	1104
꾺	1105
꾻	1106
꾼	1107
꾽	1108
꾾	1109
꾿	1110
꿀	1111
꿁	1112
꿂	1113
꿃	1114
꿄	1115
꿅	1116
꿆	1117
꿇	1118
꿈	1119
꿉	1120
꿊	1121
꿋	1122
꿌	1123
꿍	1124
꿎	1125
꿏	1126
꿐	1127
꿑	1128
꿒	1129
꿓	1130
꿔	1131
꿕	1132
꿖	1133
꿗	1134
꿘	1135
꿙	1136
꿚	1137
꿛	1138
꿜	1139
꿝	1140
꿞	1141
꿟	1142
꿠	1143
꿡	1144
꿢	1145
꿣	1146
꿤	1147
꿥	1148
꿦	1149
꿧	1150
꿨	1151
꿩	1152
꿪	1153
꿫	1154
꿬	1155
꿭	1156
꿮	1157
꿯	1158
꿰	1159
꿱	1160
꿲	1161
꿳	1162
꿴	1163
꿵	1164
꿶	1165
꿷	1166
꿸	1167
꿹	1168
꿺	1169
꿻	1170
꿼	1171
꿽	1172
꿾	1173
꿿	1174
뀀	1175
뀁	1176
뀂	1177
뀃	1178
뀄	1179
뀅	1180
뀆	1181
뀇	1182
뀈	1183
뀉	1184
뀊	1185
뀋	1186
뀌	1187
뀍	1188
뀎	1189
뀏	1190
뀐	1191
뀑	1192
뀒	1193
뀓	1194
뀔	1195
뀕	1196
뀖	1197
뀗	1198
뀘	1199
뀙	1200
뀚	1201
뀛	1202
뀜	1203
뀝	1204
뀞	1205
뀟	1206
뀠	1207
뀡	1208
뀢	1209
뀣	1210
뀤	1211
뀥	1212
뀦	1213
뀧	1214
뀨	1215
뀩	1216
뀪	1217
뀫	1218
뀬	1219
뀭	1220
뀮	1221
뀯	1222
뀰	1223
뀱	1224
뀲	1225
뀳	1226
뀴	1227
뀵	1228
뀶	1229
뀷	1230
뀸	1231
뀹	1232
뀺	1233
뀻	1234
뀼	1235
뀽	1236
뀾	1237
뀿	1238
끀	1239
끁	1240
끂	1241
끃	1242
끄	1243
끅	1244
끆	1245
끇	1246
끈	1247
끉	1248
끊	1249
끋	1250
끌	1251
끍	1252
끎	1253
끏	1254
끐	1255
끑	1256
끒	1257
끓	1258
끔	1259
끕	1260
끖	1261
끗	1262
끘	1263
끙	1264
끚	1265
끛	1266
끜	1267
끝	1268
끞	1269
끟	1270
끠	1271
끡	1272
끢	1273
끣	1274
끤	1275
끥	1276
끦	1277
끧	1278
끨	1279
끩	1280
끪	1281
끫	1282
끬	1283
끭	1284
끮	1285
끯	1286
끰	1287
끱	1288
끲	1289
끳	1290
끴	1291
끵	1292
끶	1293
끷	1294
끸	1295
끹	1296
끺	1297
끻	1298
끼	1299
끽	1300
끾	1301
끿	1302
낀	1303
낁	1304
낂	1305
낃	1306
낄	1307
낅	1308
낆	1309
낇	1310
낈	1311
낉	1312
낊	1313
낋	1314
낌	1315
낍	1316
낎	1317
낏	1318
낐	1319
낑	1320
낒	1321
낓	1322
낔	1323
낕	1324
낖	1325
낗	1326
나	1327
낙	1328
낚	1329
낛	1330
난	1331
낝	1332
낞	1333
낟	1334
날	1335
낡	1336
낢	1337
낣	1338
낤	1339
낥	1340
낦	1341
낧	1342
남	1343
납	1344
낪	1345
낫	1346
났	1347
낭	1348
낮	1349
낯	1350
낰	1351
낱	1352
낲	1353
낳	1354
내	1355
낵	1356
낶	1357
낷	1358
낸	1359
낹	1360
낺	1361
낻	1362
낼	1363
낽	1364
낾	1365
낿	1366
냀	1367
냁	1368
냂	1369
냃	1370
냄	1371
냅	1372
냆	1373
냇	1374
냈	1375
냉	1376
냊	1377
냋	1378
냌	1379
냍	1380
냎	1381
냏	1382
냐	1383
냑	1384
냒	1385
냓	1386
냔	1387
냕	1388
냖	1389
냗	1390
냘	1391
냙	1392
냚	1393
냛	1394
냜	1395
냝	1396
냞	1397
냟	1398
냠	1399
냡	1400
냢	1401
냣	1402
냤	1403
냥	1404
냦	1405
냧	1406
냨	1407
냩	1408
냪	1409
냫	1410
냬	1411
냭	1412
냮	1413
냯	1414
냰	1415
냱	1416
냲	1417
냳	1418
냴	1419
냵	1420
냶	1421
냷	1422
냸	1423
냹	1424
냺	1425
냻	1426
냼	1427
냽	1428
냾	1429
냿	1430
넀	1431
넁	1432
넂	1433
넃	1434
넄	1435
넅	1436
넆	1437
넇	1438
너	1439
넉	1440
넊	1441
넋	1442
넌	1443
넍	1444
넎	1445
넏	1446
널	1447
넑	1448
넒	1449
넓	1450
넔	1451
넕	1452
넖	1453
넗	1454
넘	1455
넙	1456
넚	1457
넛	1458
넜	1459
넝	1460
넞	1461
넟	1462
넠	1463
넡	1464
넢	1465
넣	1466
네	1467
넥	1468
넦	1469
넧	1470
넨	1471
넩	1472
넪	1473
넫	1474
넬	1475
넭	1476
넮	1477
넯	1478
넰	1479
넱	1480
넲	1481
넳	1482
넴	1483
넵	1484
넶	1485
넷	1486
넸	1487
넹	1488
넺	1489
넻	1490
넼	1491
넽	1492
넾	1493
넿	1494
녀	1495
녁	1496
녂	1497
녃	1498
년	1499
녅	1500
녆	1501
녇	1502
녈	1503
녉	1504
녊	1505
녋	1506
녌	1507
녍	1508
녎	1509
녏	1510
념	1511
녑	1512
녒	1513
녓	1514
녔	1515
녕	1516
녖	1517
녗	1518
녘	1519
녙	1520
녚	1521
녛	1522
녜	1523
녝	1524
녞	1525
녟	1526
녠	1527
녡	1528
녢	1529
녣	1530
녤	1531
녥	1532
녦	1533
녧	1534
녨	1535
녩	1536
녪	1537
녫	1538
녬	1539
녭	1540
녮	1541
녯	1542
녰	1543
녱	1544
녲	1545
녳	1546
녴	1547
녵	1548
녶	1549
녷	1550
노	1551
녹	1552
녺	1553
녻	1554
논	1555
녽	1556
녾	1557
녿	1558
놀	1559
놁	1560
놂	1561
놃	1562
놄	1563
놅	1564
놆	1565
놇	1566
놈	1567
놉	1568
놊	1569
놋	1570
놌	1571
농	1572
놎	1573
놏	1574
놐	1575
놑	1576
높	1577
놓	1578
놔	1579
놕	1580
놖	1581
놗	1582
놘	1583
놙	1584
놚	1585
놛	1586
놜	1587
놝	1588
놞	1589
놟	1590
놠	1591
놡	1592
놢	1593
놣	1594
놤	1595
놥	1596
놦	1597
놧	1598
놨	1599
놩	1600
놪	1601
놫	1602
놬	1603
놭	1604
놮	1605
놯	1606
놰	1607
놱	1608
놲	1609
놳	1610
놴	1611
놵	1612
놶	1613
놷	1614
놸	1615
놹	1616
놺	1617
놻	1618
놼	1619
놽	1620
놾	1621
놿	1622
뇀	1623
뇁	1624
뇂	1625
뇃	1626
뇄	1627
뇅	1628
뇆	1629
뇇	1630
뇈	1631
뇉	1632
뇊	1633
뇋	1634
뇌	1635
뇍	1636
뇎	1637
뇏	1638
뇐	1639
뇑	1640
뇒	1641
뇓	1642
뇔	1643
뇕	1644
뇖	1645
뇗	1646
뇘	1647
뇙	1648
뇚	1649
뇛	1650
뇜	1651
뇝	1652
뇞	1653
뇟	1654
뇠	1655
뇡	1656
뇢	1657
뇣	1658
뇤	1659
뇥	1660
뇦	1661
뇧	1662
뇨	1663
뇩	1664
뇪	1665
뇫	1666
뇬	1667
뇭	1668
뇮	1669
뇯	1670
뇰	1671
뇱	1672
뇲	1673
뇳	1674
뇴	1675
뇵	1676
뇶	1677
뇷	1678
뇸	1679
뇹	1680
뇺	1681
뇻	1682
뇼	1683
뇽	1684
뇾	1685
뇿	1686
눀	1687
눁	1688
눂	1689
눃	1690
누	1691
눅	1692
눆	1693
눇	1694
눈	1695
눉	1696
눊	1697
눋	1698
눌	1699
눍	1700
눎	1701
눏	1702
눐	1703
눑	1704
눒	1705
눓	1706
눔	1707
눕	1708
눖	1709
눗	1710
눘	1711
눙	1712
눚	1713
눛	1714
눜	1715
눝	1716
눞	1717
눟	1718
눠	1719
눡	1720
눢	1721
눣	1722
눤	1723
눥	1724
눦	1725
눧	1726
눨	1727
눩	1728
눪	1729
눫	1730
눬	1731
눭	1732
눮	1733
눯	1734
눰	1735
눱	1736
눲	1737
눳	1738
눴	1739
눵	1740
눶	1741
눷	1742
눸	1743
눹	1744
눺	1745
눻	1746
눼	1747
눽	1748
눾	1749
눿	1750
뉀	1751
뉁	1752
뉂	1753
뉃	1754
뉄	1755
뉅	1756
뉆	1757
뉇	1758
뉈	1759
뉉	1760
뉊	1761
뉋	1762
뉌	1763
뉍	1764
뉎	1765
뉏	1766
뉐	1767
뉑	1768
뉒	1769
뉓	1770
뉔	1771
뉕	1772
뉖	1773
뉗	1774
뉘	1775
뉙	1776
뉚	1777
뉛	1778
뉜	1779
뉝	1780
뉞	1781
뉟	1782
뉠	1783
뉡	1784
뉢	1785
뉣	1786
뉤	1787
뉥	1788
뉦	1789
뉧	1790
뉨	1791
뉩	1792
뉪	1793
뉫	1794
뉬	1795
뉭	1796
뉮	1797
뉯	1798
뉰	1799
뉱	1800
뉲	1801
뉳	1802
뉴	1803
뉵	1804
뉶	1805
뉷	1806
뉸	1807
뉹	1808
뉺	1809
뉻	1810
뉼	1811
뉽	1812
뉾	1813
뉿	1814
늀	1815
늁	1816
늂	1817
늃	1818
늄	1819
늅	1820
늆	1821
늇	1822
늈	1823
늉	1824
늊	1825
늋	1826
늌	1827
늍	1828
늎	1829
늏	1830
느	1831
늑	1832
늒	1833
늓	1834
는	1835
늕	1836
늖	1837
늗	1838
늘	1839
늙	1840
늚	1841
늛	1842
늜	1843
늝	1844
늞	1845
늟	1846
늠	1847
늡	1848
늢	1849
늣	1850
늤	1851
능	1852
늦	1853
늧	1854
늨	1855
늩	1856
늪	1857
늫	1858
늬	1859
늭	1860
늮	1861
늯	1862
늰	1863
늱	1864
늲	1865
늳	1866
늴	1867
늵	1868
늶	1869
늷	1870
늸	1871
늹	1872
늺	1873
늻	1874
늼	1875
늽	1876
늾	1877
늿	1878
닀	1879
닁	1880
닂	1881
닃	1882
닄	1883
닅	1884
닆	1885
닇	1886
니	1887
닉	1888
닊	1889
닋	1890
닌	1891
닍	1892
닎	1893
닏	1894
닐	1895
닑	1896
닒	1897
닓	1898
닔	1899
닕	1900
닖	1901
닗	1902
님	1903
닙	1904
닚	1905
닛	1906
닜	1907
닝	1908
닞	1909
닟	1910
닠	1911
닡	1912
닢	1913
닣	1914
다	1915
닥	1916
닦	1917
닧	1918
단	1919
닩	1920
닪	1921
닫	1922
달	1923
닭	1924
닮	1925
닯	1926
닰	1927
닱	1928
닲	1929
닳	1930
담	1931
답	1932
닶	1933
닷	1934
닸	1935
당	1936
닺	1937
닻	1938
닼	1939
닽	1940
닾	1941
닿	1942
대	1943
댁	1944
댂	1945
댃	1946
댄	1947
댅	1948
댆	1949
댇	1950
댈	1951
댉	1952
댊	1953
댋	1954
댌	1955
댍	1956
댎	1957
댏	1958
댐	1959
댑	1960
댒	1961
댓	1962
댔	1963
댕	1964
댖	1965
댗	1966
댘	1967
댙	1968
댚	1969
댛	1970
댜	1971
댝	1972
댞	1973
댟	1974
댠	1975
댡	1976
댢	1977
댣	1978
댤	1979
댥	1980
댦	1981
댧	1982
댨	1983
댩	1984
댪	1985
댫	1986
댬	1987
댭	1988
댮	1989
댯	1990
댰	1991
댱	1992
댲	1993
댳	1994
댴	1995
댵	1996
댶	1997
댷	1998
댸	1999
댹	2000
댺	2001
댻	2002
댼	2003
댽	2004
댾	2005
댿	2006
덀	2007
덁	2008
덂	2009
덃	2010
덄	2011
덅	2012
덆	2013
덇	2014
덈	2015
덉	2016
덊	2017
덋	2018
덌	2019
덍	2020
덎	2021
덏	2022
덐	2023
덑	2024
덒	2025
덓	2026
더	2027
덕	2028
덖	2029
덗	2030
던	2031
덙	2032
덚	2033
덛	2034
덜	2035
덝	2036
덞	2037
덟	2038
덠	2039
덡	2040
덢	2041
덣	2042
덤	2043
덥	2044
덦	2045
덧	2046
덨	2047
덩	2048
덪	2049
덫	2050
덬	2051
덭	2052
덮	2053
덯	2054
데	2055
덱	2056
덲	2057
덳	2058
덴	2059
덵	2060
덶	2061
덷	2062
델	2063
덹	2064
덺	2065
덻	2066
덼	2067
덽	2068
덾	2069
덿	2070
뎀	2071
뎁	2072
뎂	2073
뎃	2074
뎄	2075
뎅	2076
뎆	2077
뎇	2078
뎈	2079
뎉	2080
뎊	2081
뎋	2082
뎌	2083
뎍	2084
뎎	2085
뎏	2086
뎐	2087
뎑	2088
뎒	2089
뎓	2090
뎔	2091
뎕	2092
뎖	2093
뎗	2094
뎘	2095
뎙	2096
뎚	2097
뎛	2098
뎜	2099
뎝	2100
뎞	2101
뎟	2102
뎠	2103
뎡	2104
뎢	2105
뎣	2106
뎤	2107
뎥	2108
뎦	2109
뎧	2110
뎨	2111
뎩	2112
뎪	2113
뎫	2114
뎬	2115
뎭	2116
뎮	2117
뎯	2118
뎰	2119
뎱	2120
뎲	2121
뎳	2122
뎴	2123
뎵	2124
뎶	2125
뎷	2126
뎸	2127
뎹	2128
뎺	2129
뎻	2130
뎼	2131
뎽	2132
뎾	2133
뎿	2134
돀	2135
돁	2136
돂	2137
돃	2138
도	2139
독	2140
돆	2141
돇	2142
돈	2143
돉	2144
돊	2145
돋	2146
돌	2147
돍	2148
돎	2149
돏	2150
돐	2151
돑	2152
돒	2153
돓	2154
돔	2155
돕	2156
돖	2157
돗	2158
돘	2159
동	2160
돚	2161
돛	2162
돜	2163
돝	2164
돞	2165
돟	2166
돠	2167
돡	2168
돢	2169
돣	2170
돤	2171
돥	2172
돦	2173
돧	2174
돨	2175
돩	2176
돪	2177
돫	2178
돬	2179
돭	2180
돮	2181
돯	2182
돰	2183
돱	2184
돲	2185
돳	2186
돴	2187
돵	2188
돶	2189
돷	2190
돸	2191
돹	2192
돺	2193
돻	2194
돼	2195
돽	2196
돾	2197
돿	2198
됀	2199
됁	2200
됂	2201
됃	2202
됄	2203
됅	2204
됆	2205
됇	2206
됈	2207
됉	2208
됊	2209
됋	2210
됌	2211
됍	2212
됎	2213
됏	2214
됐	2215
됑	2216
됒	2217
됓	2218
됔	2219
됕	2220
됖	2221
됗	2222
되	2223
됙	2224
됚	2225
됛	2226
된	2227
됝	2228
됞	2229
됟	2230
될	2231
됡	2232
됢	2233
됣	2234
됤	2235
됥	2236
됦	2237
됧	2238
됨	2239
됩	2240
됪	2241
됫	2242
됬	2243
됭	2244
됮	2245
됯	2246
됰	2247
됱	2248
됲	2249
됳	2250
됴	2251
됵	2252
됶	2253
됷	2254
됸	2255
됹	2256
됺	2257
됻	2258
됼	2259
됽	2260
됾	2261
됿	2262
둀	2263
둁	2264
둂	2265
둃	2266
둄	2267
둅	2268
둆	2269
둇	2270
둈	2271
둉	2272
둊	2273
둋	2274
둌	2275
둍	2276
둎	2277
둏	2278
두	2279
둑	2280
둒	2281
둓	2282
둔	2283
둕	2284
둖	2285
둗	2286
둘	2287
둙	2288
둚	2289
둛	2290
둜	2291
둝	2292
둞	2293
둟	2294
둠	2295
둡	2296
둢	2297
둣	2298
둤	2299
둥	2300
둦	2301
둧	2302
둨	2303
둩	2304
둪	2305
둫	2306
둬	2307
둭	2308
둮	2309
둯	2310
둰	2311
둱	2312
둲	2313
둳	2314
둴	2315
둵	2316
둶	2317
둷	2318
둸	2319
둹	2320
둺	2321
둻	2322
둼	2323
둽	2324
둾	2325
둿	2326
뒀	2327
뒁	2328
뒂	2329
뒃	2330
뒄	2331
뒅	2332
뒆	2333
뒇	2334
뒈	2335
뒉	2336
뒊	2337
뒋	2338
뒌	2339
뒍	2340
뒎	2341
뒏	2342
뒐	2343
뒑	2344
뒒	2345
뒓	2346
뒔	2347
뒕	2348
뒖	2349
뒗	2350
뒘	2351
뒙	2352
뒚	2353
뒛	2354
뒜	2355
뒝	2356
뒞	2357
뒟	2358
뒠	2359
뒡	2360
뒢	2361
뒣	2362
뒤	2363
뒥	2364
뒦	2365
뒧	2366
뒨	2367
뒩	2368
뒪	2369
뒫	2370
뒬	2371
뒭	2372
뒮	2373
뒯	2374
뒰	2375
뒱	2376
뒲	2377
뒳	2378
뒴	2379
뒵	2380
뒶	2381
뒷	2382
뒸	2383
뒹	2384
뒺	2385
뒻	2386
뒼	2387
뒽	2388
뒾	2389
뒿	2390
듀	2391
듁	2392
듂	2393
듃	2394
듄	2395
듅	2396
듆	2397
듇	2398
듈	2399
듉	2400
듊	2401
듋	2402
듌	2403
듍	2404
듎	2405
듏	2406
듐	2407
듑	2408
듒	2409
듓	2410
듔	2411
듕	2412
듖	2413
듗	2414
듘	2415
듙	2416
듚	2417
듛	2418
드	2419
득	2420
듞	2421
듟	2422
든	2423
듡	2424
듢	2425
듣	2426
들	2427
듥	2428
듦	2429
듧	2430
듨	2431
듩	2432
듪	2433
듫	2434
듬	2435
듭	2436
듮	2437
듯	2438
듰	2439
등	2440
듲	2441
듳	2442
듴	2443
듵	2444
듶	2445
듷	2446
듸	2447
듹	2448
듺	2449
듻	2450
듼	2451
듽	2452
듾	2453
듿	2454
딀	2455
딁	2456
딂	2457
딃	2458
딄	2459
딅	2460
딆	2461
딇	2462
딈	2463
딉	2464
딊	2465
딋	2466
딌	2467
딍	2468
딎	2469
딏	2470
딐	2471
딑	2472
딒	2473
딓	2474
디	2475
딕	2476
딖	2477
딗	2478
딘	2479
딙	2480
딚	2481
딛	2482
딜	2483
딝	2484
딞	2485
딟	2486
딠	2487
딡	2488
딢	2489
딣	2490
딤	2491
딥	2492
딦	2493
딧	2494
딨	2495
딩	2496
딪	2497
딫	2498
딬	2499
딭	2500
딮	2501
딯	2502
따	2503
딱	2504
딲	2505
딳	2506
딴	2507
딵	2508
딶	2509
딷	2510
딸	2511
딹	2512
딺	2513
딻	2514
딼	2515
딽	2516
딾	2517
딿	2518
땀	2519
땁	2520
땂	2521
땃	2522
땄	2523
땅	2524
땆	2525
땇	2526
땈	2527
땉	2528
땊	2529
땋	2530
때	2531
땍	2532
땎	2533
땏	2534
땐	2535
땑	2536
땒	2537
땓	2538
땔	2539
땕	2540
땖	2541
땗	2542
땘	2543
땙	2544
땚	2545
땛	2546
땜	2547
땝	2548
땞	2549
땟	2550
땠	2551
땡	2552
땢	2553
땣	2554
땤	2555
땥	2556
땦	2557
땧	2558
땨	2559
땩	2560
땪	2561
땫	2562
땬	2563
땭	2564
땮	2565
땯	2566
땰	2567
땱	2568
땲	2569
땳	2570
땴	2571
땵	2572
땶	2573
땷	2574
땸	2575
땹	2576
땺	2577
땻	2578
땼	2579
땽	2580
땾	2581
땿	2582
떀	2583
떁	2584
떂	2585
떃	2586
떄	2587
떅	2588
떆	2589
떇	2590
떈	2591
떉	2592
떊	2593
떋	2594
떌	2595
떍	2596
떎	2597
떏	2598
떐	2599
떑	2600
떒	2601
떓	2602
떔	2603
떕	2604
떖	2605
떗	2606
떘	2607
떙	2608
떚	2609
떛	2610
떜	2611
떝	2612
떞	2613
떟	2614
떠	2615
떡	2616
떢	2617
떣	2618
떤	2619
떥	2620
떦	2621
떧	2622
떨	2623
떩	2624
떪	2625
떫	2626
떬	2627
떭	2628
떮	2629
떯	2630
떰	2631
떱	2632
떲	2633
떳	2634
떴	2635
떵	2636
떶	2637
떷	2638
떸	2639
떹	2640
떺	2641
떻	2642
떼	2643
떽	2644
떾	2645
떿	2646
뗀	2647
뗁	2648
뗂	2649
뗃	2650
뗄	2651
뗅	2652
뗆	2653
뗇	2654
뗈	2655
뗉	2656
뗊	2657
뗋	2658
뗌	2659
뗍	2660
뗎	2661
뗏	2662
뗐	2663
뗑	2664
뗒	2665
뗓	2666
뗔	2667
뗕	2668
뗖	2669
뗗	2670
뗘	2671
뗙	2672
뗚	2673
뗛	2674
뗜	2675
뗝	2676
뗞	2677
뗟	2678
뗠	2679
뗡	2680
뗢	2681
뗣	2682
뗤	2683
뗥	2684
뗦	2685
뗧	2686
뗨	2687
뗩	2688
뗪	2689
뗫	2690
뗬	2691
뗭	2692
뗮	2693
뗯	2694
뗰	2695
뗱	2696
뗲	2697
뗳	2698
뗴	2699
뗵	2700
뗶	2701
뗷	2702
뗸	2703
뗹	2704
뗺	2705
뗻	2706
뗼	2707
뗽	2708
뗾	2709
뗿	2710
똀	2711
똁	2712
똂	2713
똃	2714
똄	2715
똅	2716
똆	2717
똇	2718
똈	2719
똉	2720
똊	2721
똋	2722
똌	2723
똍	2724
똎	2725
똏	2726
또	2727
똑	2728
똒	2729
똓	2730
똔	2731
똕	2732
똖	2733
똗	2734
똘	2735
똙	2736
똚	2737
똛	2738
똜	2739
똝	2740
똞	2741
똟	2742
똠	2743
똡	2744
똢	2745
똣	2746
똤	2747
똥	2748
똦	2749
똧	2750
똨	2751
똩	2752
똪	2753
똫	2754
똬	2755
똭	2756
똮	2757
똯	2758
똰	2759
똱	2760
똲	2761
똳	2762
똴	2763
똵	2764
똶	2765
똷	2766
똸	2767
똹	2768
똺	2769
똻	2770
똼	2771
똽	2772
똾	2773
똿	2774
뙀	2775
뙁	2776
뙂	2777
뙃	2778
뙄	2779
뙅	2780
뙆	2781
뙇	2782
뙈	2783
뙉	2784
뙊	2785
뙋	2786
뙌	2787
뙍	2788
뙎	2789
뙏	2790
뙐	2791
뙑	2792
뙒	2793
뙓	2794
뙔	2795
뙕	2796
뙖	2797
뙗	2798
뙘	2799
뙙	2800
뙚	2801
뙛	2802
뙜	2803
뙝	2804
뙞	2805
뙟	2806
뙠	2807
뙡	2808
뙢	2809
뙣	2810
뙤	2811
뙥	2812
뙦	2813
뙧	2814
뙨	2815
뙩	2816
뙪	2817
뙫	2818
뙬	2819
뙭	2820
뙮	2821
뙯	2822
뙰	2823
뙱	2824
뙲	2825
뙳	2826
뙴	2827
뙵	2828
뙶	2829
뙷	2830
뙸	2831
뙹	2832
뙺	2833
뙻	2834
뙼	2835
뙽	2836
뙾	2837
뙿	2838
뚀	2839
뚁	2840
뚂	2841
뚃	2842
뚄	2843
뚅	2844
뚆	2845
뚇	2846
뚈	2847
뚉	2848
뚊	2849
뚋	2850
뚌	2851
뚍	2852
뚎	2853
뚏	2854
뚐	2855
뚑	2856
뚒	2857
뚓	2858
뚔	2859
뚕	2860
뚖	2861
뚗	2862
뚘	2863
뚙	2864
뚚	2865
뚛	2866
뚜	2867
뚝	2868
뚞	2869
뚟	2870
뚠	2871
뚡	2872
뚢	2873
뚣	2874
뚤	2875
뚥	2876
뚦	2877
뚧	2878
뚨	2879
뚩	2880
뚪	2881
뚫	2882
뚬	2883
뚭	2884
뚮	2885
뚯	2886
뚰	2887
뚱	2888
뚲	2889
뚳	2890
뚴	2891
뚵	2892
뚶	2893
뚷	2894
뚸	2895
뚹	2896
뚺	2897
뚻	2898
뚼	2899
뚽	2900
뚾	2901
뚿	2902
뛀	2903
뛁	2904
뛂	2905
뛃	2906
뛄	2907
뛅	2908
뛆	2909
뛇	2910
뛈	2911
뛉	2912
뛊	2913
뛋	2914
뛌	2915
뛍	2916
뛎	2917
뛏	2918
뛐	2919
뛑	2920
뛒	2921
뛓	2922
뛔	2923
뛕	2924
뛖	2925
뛗	2926
뛘	2927
뛙	2928
뛚	2929
뛛	2930
뛜	2931
뛝	2932
뛞	2933
뛟	2934
뛠	2935
뛡	2936
뛢	2937
뛣	2938
뛤	2939
뛥	2940
뛦	2941
뛧	2942
뛨	2943
뛩	2944
뛪	2945
뛫	2946
뛬	2947
뛭	2948
뛮	2949
뛯	2950
뛰	2951
뛱	2952
뛲	2953
뛳	2954
뛴	2955
뛵	2956
뛶	2957
뛷	2958
뛸	2959
뛹	2960
뛺	2961
뛻	2962
뛼	2963
뛽	2964
뛾	2965
뛿	2966
뜀	2967
뜁	2968
뜂	2969
뜃	2970
뜄	2971
뜅	2972
뜆	2973
뜇	2974
뜈	2975
뜉	2976
뜊	2977
뜋	2978
뜌	2979
뜍	2980
뜎	2981
뜏	2982
뜐	2983
뜑	2984
뜒	2985
뜓	2986
뜔	2987
뜕	2988
뜖	2989
뜗	2990
뜘	2991
뜙	2992
뜚	2993
뜛	2994
뜜	2995
뜝	2996
뜞	2997
뜟	2998
뜠	2999
뜡	3000
뜢	3001
뜣	3002
뜤	3003
뜥	3004
뜦	3005
뜧	3006
뜨	3007
뜩	3008
뜪	3009
뜫	3010
뜬	3011
뜭	3012
뜮	3013
뜯	3014
뜰	3015
뜱	3016
뜲	3017
뜳	3018
뜴	3019
뜵	3020
뜶	3021
뜷	3022
뜸	3023
뜹	3024
뜺	3025
뜻	3026
뜼	3027
뜽	3028
뜾	3029
뜿	3030
띀	3031
띁	3032
띂	3033
띃	3034
띄	3035
띅	3036
띆	3037
띇	3038
띈	3039
띉	3040
띊	3041
띋	3042
띌	3043
띍	3044
띎	3045
띏	3046
띐	3047
띑	3048
띒	3049
띓	3050
띔	3051
띕	3052
띖	3053
띗	3054
띘	3055
띙	3056
띚	3057
띛	3058
띜	3059
띝	3060
띞	3061
띟	3062
띠	3063
띡	3064
띢	3065
띣	3066
띤	3067
띥	3068
띦	3069
띧	3070
띨	3071
띩	3072
띪	3073
띫	3074
띬	3075
띭	3076
띮	3077
띯	3078
띰	3079
띱	3080
띲	3081
띳	3082
띴	3083
띵	3084
띶	3085
띷	3086
띸	3087
띹	3088
띺	3089
띻	3090
라	3091
락	3092
띾	3093
띿	3094
란	3095
랁	3096
랂	3097
랃	3098
랄	3099
랅	3100
랆	3101
랇	3102
랈	3103
랉	3104
랊	3105
랋	3106
람	3107
랍	3108
랎	3109
랏	3110
랐	3111
랑	3112
랒	3113
랓	3114
랔	3115
랕	3116
랖	3117
랗	3118
래	3119
랙	3120
랚	3121
랛	3122
랜	3123
랝	3124
랞	3125
랟	3126
랠	3127
랡	3128
랢	3129
랣	3130
랤	3131
랥	3132
랦	3133
랧	3134
램	3135
랩	3136
랪	3137
랫	3138
랬	3139
랭	3140
랮	3141
랯	3142
랰	3143
랱	3144
랲	3145
랳	3146
랴	3147
략	3148
랶	3149
랷	3150
랸	3151
랹	3152
랺	3153
랻	3154
랼	3155
랽	3156
랾	3157
랿	3158
럀	3159
럁	3160
럂	3161
럃	3162
럄	3163
럅	3164
럆	3165
럇	3166
럈	3167
량	3168
럊	3169
럋	3170
럌	3171
럍	3172
럎	3173
럏	3174
럐	3175
럑	3176
럒	3177
럓	3178
럔	3179
럕	3180
럖	3181
럗	3182
럘	3183
럙	3184
럚	3185
럛	3186
럜	3187
럝	3188
럞	3189
럟	3190
럠	3191
럡	3192
럢	3193
럣	3194
럤	3195
럥	3196
럦	3197
럧	3198
럨	3199
럩	3200
럪	3201
럫	3202
러	3203
럭	3204
럮	3205
럯	3206
런	3207
럱	3208
럲	3209
럳	3210
럴	3211
럵	3212
럶	3213
럷	3214
럸	3215
럹	3216
럺	3217
럻	3218
럼	3219
럽	3220
럾	3221
럿	3222
렀	3223
렁	3224
렂	3225
렃	3226
렄	3227
렅	3228
렆	3229
렇	3230
레	3231
렉	3232
렊	3233
렋	3234
렌	3235
렍	3236
렎	3237
렏	3238
렐	3239
렑	3240
렒	3241
렓	3242
렔	3243
렕	3244
렖	3245
렗	3246
렘	3247
렙	3248
렚	3249
렛	3250
렜	3251
렝	3252
렞	3253
렟	3254
렠	3255
렡	3256
렢	3257
렣	3258
려	3259
력	3260
렦	3261
렧	3262
련	3263
렩	3264
렪	3265
렫	3266
렬	3267
렭	3268
렮	3269
렯	3270
렰	3271
렱	3272
렲	3273
렳	3274
렴	3275
렵	3276
렶	3277
렷	3278
렸	3279
령	3280
렺	3281
렻	3282
렼	3283
렽	3284
렾	3285
렿	3286
례	3287
롁	3288
롂	3289
롃	3290
롄	3291
롅	3292
롆	3293
롇	3294
롈	3295
롉	3296
롊	3297
롋	3298
롌	3299
롍	3300
롎	3301
롏	3302
롐	3303
롑	3304
롒	3305
롓	3306
롔	3307
롕	3308
롖	3309
롗	3310
롘	3311
롙	3312
롚	3313
롛	3314
로	3315
록	3316
롞	3317
롟	3318
론	3319
롡	3320
롢	3321
롣	3322
롤	3323
롥	3324
롦	3325
롧	3326
롨	3327
롩	3328
롪	3329
롫	3330
롬	3331
롭	3332
롮	3333
롯	3334
롰	3335
롱	3336
롲	3337
롳	3338
롴	3339
롵	3340
롶	3341
롷	3342
롸	3343
롹	3344
롺	3345
롻	3346
롼	3347
롽	3348
롾	3349
롿	3350
뢀	3351
뢁	3352
뢂	3353
뢃	3354
뢄	3355
뢅	3356
뢆	3357
뢇	3358
뢈	3359
뢉	3360
뢊	3361
뢋	3362
뢌	3363
뢍	3364
뢎	3365
뢏	3366
뢐	3367
뢑	3368
뢒	3369
뢓	3370
뢔	3371
뢕	3372
뢖	3373
뢗	3374
뢘	3375
뢙	3376
뢚	3377
뢛	3378
뢜	3379
뢝	3380
뢞	3381
뢟	3382
뢠	3383
뢡	3384
뢢	3385
뢣	3386
뢤	3387
뢥	3388
뢦	3389
뢧	3390
뢨	3391
뢩	3392
뢪	3393
뢫	3394
뢬	3395
뢭	3396
뢮	3397
뢯	3398
뢰	3399
뢱	3400
뢲	3401
뢳	3402
뢴	3403
뢵	3404
뢶	3405
뢷	3406
뢸	3407
뢹	3408
뢺	3409
뢻	3410
뢼	3411
뢽	3412
뢾	3413
뢿	3414
룀	3415
룁	3416
룂	3417
룃	3418
룄	3419
룅	3420
룆	3421
룇	3422
룈	3423
룉	3424
룊	3425
룋	3426
료	3427
룍	3428
룎	3429
룏	3430
룐	3431
룑	3432
룒	3433
룓	3434
룔	3435
룕	3436
룖	3437
룗	3438
룘	3439
룙	3440
룚	3441
룛	3442
룜	3443
룝	3444
룞	3445
룟	3446
룠	3447
룡	3448
룢	3449
룣	3450
룤	3451
룥	3452
룦	3453
룧	3454
루	3455
룩	3456
룪	3457
룫	3458
룬	3459
룭	3460
룮	3461
룯	3462
룰	3463
룱	3464
룲	3465
룳	3466
룴	3467
룵	3468
룶	3469
룷	3470
룸	3471
룹	3472
룺	3473
룻	3474
룼	3475
룽	3476
룾	3477
룿	3478
뤀	3479
뤁	3480
뤂	3481
뤃	3482
뤄	3483
뤅	3484
뤆	3485
뤇	3486
뤈	3487
뤉	3488
뤊	3489
뤋	3490
뤌	3491
뤍	3492
뤎	3493
뤏	3494
뤐	3495
뤑	3496
뤒	3497
뤓	3498
뤔	3499
뤕	3500
뤖	3501
뤗	3502
뤘	3503
뤙	3504
뤚	3505
뤛	3506
뤜	3507
뤝	3508
뤞	3509
뤟	3510
뤠	3511
뤡	3512
뤢	3513
뤣	3514
뤤	3515
뤥	3516
뤦	3517
뤧	3518
뤨	3519
뤩	3520
뤪	3521
뤫	3522
뤬	3523
뤭	3524
뤮	3525
뤯	3526
뤰	3527
뤱	3528
뤲	3529
뤳	3530
뤴	3531
뤵	3532
뤶	3533
뤷	3534
뤸	3535
뤹	3536
뤺	3537
뤻	3538
뤼	3539
뤽	3540
뤾	3541
뤿	3542
륀	3543
륁	3544
륂	3545
륃	3546
륄	3547
륅	3548
륆	3549
륇	3550
륈	3551
륉	3552
륊	3553
륋	3554
륌	3555
륍	3556
륎	3557
륏	3558
륐	3559
륑	3560
륒	3561
륓	3562
륔	3563
륕	3564
륖	3565
륗	3566
류	3567
륙	3568
륚	3569
륛	3570
륜	3571
륝	3572
륞	3573
륟	3574
률	3575
륡	3576
륢	3577
륣	3578
륤	3579
륥	3580
륦	3581
륧	3582
륨	3583
륩	3584
륪	3585
륫	3586
륬	3587
륭	3588
륮	3589
륯	3590
륰	3591
륱	3592
륲	3593
륳	3594
르	3595
륵	3596
륶	3597
륷	3598
른	3599
륹	3600
륺	3601
륻	3602
를	3603
륽	3604
륾	3605
륿	3606
릀	3607
릁	3608
릂	3609
릃	3610
름	3611
릅	3612
릆	3613
릇	3614
릈	3615
릉	3616
릊	3617
릋	3618
릌	3619
릍	3620
릎	3621
릏	3622
릐	3623
릑	3624
릒	3625
릓	3626
릔	3627
릕	3628
릖	3629
릗	3630
릘	3631
릙	3632
릚	3633
릛	3634
릜	3635
릝	3636
릞	3637
릟	3638
릠	3639
릡	3640
릢	3641
릣	3642
릤	3643
릥	3644
릦	3645
릧	3646
릨	3647
릩	3648
릪	3649
릫	3650
리	3651
릭	3652
릮	3653
릯	3654
린	3655
릱	3656
릲	3657
릳	3658
릴	3659
릵	3660
릶	3661
릷	3662
릸	3663
릹	3664
릺	3665
릻	3666
림	3667
립	3668
릾	3669
릿	3670
맀	3671
링	3672
맂	3673
맃	3674
맄	3675
맅	3676
맆	3677
맇	3678
마	3679
막	3680
맊	3681
맋	3682
만	3683
맍	3684
많	3685
맏	3686
말	3687
맑	3688
맒	3689
맓	3690
맔	3691
맕	3692
맖	3693
맗	3694
맘	3695
맙	3696
맚	3697
맛	3698
맜	3699
망	3700
맞	3701
맟	3702
맠	3703
맡	3704
맢	3705
맣	3706
매	3707
맥	3708
맦	3709
맧	3710
맨	3711
맩	3712
맪	3713
맫	3714
맬	3715
맭	3716
맮	3717
맯	3718
맰	3719
맱	3720
맲	3721
맳	3722
맴	3723
맵	3724
맶	3725
맷	3726
맸	3727
맹	3728
맺	3729
맻	3730
맼	3731
맽	3732
맾	3733
맿	3734
먀	3735
먁	3736
먂	3737
먃	3738
먄	3739
먅	3740
먆	3741
먇	3742
먈	3743
먉	3744
먊	3745
먋	3746
먌	3747
먍	3748
먎	3749
먏	3750
먐	3751
먑	3752
먒	3753
먓	3754
먔	3755
먕	3756
먖	3757
먗	3758
먘	3759
먙	3760
먚	3761
먛	3762
먜	3763
먝	3764
먞	3765
먟	3766
먠	3767
먡	3768
먢	3769
먣	3770
먤	3771
먥	3772
먦	3773
먧	3774
먨	3775
먩	3776
먪	3777
먫	3778
먬	3779
먭	3780
먮	3781
먯	3782
먰	3783
먱	3784
먲	3785
먳	3786
먴	3787
먵	3788
먶	3789
먷	3790
머	3791
먹	3792
먺	3793
먻	3794
먼	3795
먽	3796
먾	3797
먿	3798
멀	3799
멁	3800
멂	3801
멃	3802
멄	3803
멅	3804
멆	3805
멇	3806
멈	3807
멉	3808
멊	3809
멋	3810
멌	3811
멍	3812
멎	3813
멏	3814
멐	3815
멑	3816
멒	3817
멓	3818
메	3819
멕	3820
멖	3821
멗	3822
멘	3823
멙	3824
멚	3825
멛	3826
멜	3827
멝	3828
멞	3829
멟	3830
멠	3831
멡	3832
멢	3833
멣	3834
멤	3835
멥	3836
멦	3837
멧	3838
멨	3839
멩	3840
멪	3841
멫	3842
멬	3843
멭	3844
멮	3845
멯	3846
며	3847
멱	3848
멲	3849
멳	3850
면	3851
멵	3852
멶	3853
멷	3854
멸	3855
멹	3856
멺	3857
멻	3858
멼	3859
멽	3860
멾	3861
멿	3862
몀	3863
몁	3864
몂	3865
몃	3866
몄	3867
명	3868
몆	3869
몇	3870
몈	3871
몉	3872
몊	3873
몋	3874
몌	3875
몍	3876
몎	3877
몏	3878
몐	3879
몑	3880
몒	3881
몓	3882
몔	3883
몕	3884
몖	3885
몗	3886
몘	3887
몙	3888
몚	3889
몛	3890
몜	3891
몝	3892
몞	3893
몟	3894
몠	3895
몡	3896
몢	3897
몣	3898
몤	3899
몥	3900
몦	3901
몧	3902
모	3903
목	3904
몪	3905
몫	3906
몬	3907
몭	3908
몮	3909
몯	3910
몰	3911
몱	3912
몲	3913
몳	3914
몴	3915
몵	3916
몶	3917
몷	3918
몸	3919
몹	3920
몺	3921
못	3922
몼	3923
몽	3924
몾	3925
몿	3926
뫀	3927
뫁	3928
뫂	3929
뫃	3930
뫄	3931
뫅	3932
뫆	3933
뫇	3934
뫈	3935
뫉	3936
뫊	3937
뫋	3938
뫌	3939
뫍	3940
뫎	3941
뫏	3942
뫐	3943
뫑	3944
뫒	3945
뫓	3946
뫔	3947
뫕	3948
뫖	3949
뫗	3950
뫘	3951
뫙	3952
뫚	3953
뫛	3954
뫜	3955
뫝	3956
뫞	3957
뫟	3958
뫠	3959
뫡	3960
뫢	3961
뫣	3962
뫤	3963
뫥	3964
뫦	3965
뫧	3966
뫨	3967
뫩	3968
뫪	3969
뫫	3970
뫬	3971
뫭	3972
뫮	3973
뫯	3974
뫰	3975
뫱	3976
뫲	3977
뫳	3978
뫴	3979
뫵	3980
뫶	3981
뫷	3982
뫸	3983
뫹	3984
뫺	3985
뫻	3986
뫼	3987
뫽	3988
뫾	3989
뫿	3990
묀	3991
묁	3992
묂	3993
묃	3994
묄	3995
묅	3996
묆	3997
묇	3998
묈	3999
묉	4000
묊	4001
묋	4002
묌	4003
묍	4004
묎	4005
묏	4006
묐	4007
묑	4008
묒	4009
묓	4010
묔	4011
묕	4012
묖	4013
묗	4014
묘	4015
묙	4016
묚	4017
묛	4018
묜	4019
묝	4020
묞	4021
묟	4022
묠	4023
묡	4024
묢	4025
묣	4026
묤	4027
묥	4028
묦	4029
묧	4030
묨	4031
묩	4032
묪	4033
묫	4034
묬	4035
묭	4036
묮	4037
묯	4038
묰	4039
묱	4040
묲	4041
묳	4042
무	4043
묵	4044
묶	4045
묷	4046
문	4047
묹	4048
묺	4049
묻	4050
물	4051
묽	4052
묾	4053
묿	4054
뭀	4055
뭁	4056
뭂	4057
뭃	4058
뭄	4059
뭅	4060
뭆	4061
뭇	4062
뭈	4063
뭉	4064
뭊	4065
뭋	4066
뭌	4067
뭍	4068
뭎	4069
뭏	4070
뭐	4071
뭑	4072
뭒	4073
뭓	4074
뭔	4075
뭕	4076
뭖	4077
뭗	4078
뭘	4079
뭙	4080
뭚	4081
뭛	4082
뭜	4083
뭝	4084
뭞	4085
뭟	4086
뭠	4087
뭡	4088
뭢	4089
뭣	4090
뭤	4091
뭥	4092
뭦	4093
뭧	4094
뭨	4095
뭩	4096
뭪	4097
뭫	4098
뭬	4099
뭭	4100
뭮	4101
뭯	4102
뭰	4103
뭱	4104
뭲	4105
뭳	4106
뭴	4107
뭵	4108
뭶	4109
뭷	4110
뭸	4111
뭹	4112
뭺	4113
뭻	4114
뭼	4115
뭽	4116
뭾	4117
뭿	4118
뮀	4119
뮁	4120
뮂	4121
뮃	4122
뮄	4123
뮅	4124
뮆	4125
뮇	4126
뮈	4127
뮉	4128
뮊	4129
뮋	4130
뮌	4131
뮍	4132
뮎	4133
뮏	4134
뮐	4135
뮑	4136
뮒	4137
뮓	4138
뮔	4139
뮕	4140
뮖	4141
뮗	4142
뮘	4143
뮙	4144
뮚	4145
뮛	4146
뮜	4147
뮝	4148
뮞	4149
뮟	4150
뮠	4151
뮡	4152
뮢	4153
뮣	4154
뮤	4155
뮥	4156
뮦	4157
뮧	4158
뮨	4159
뮩	4160
뮪	4161
뮫	4162
뮬	4163
뮭	4164
뮮	4165
뮯	4166
뮰	4167
뮱	4168
뮲	4169
뮳	4170
뮴	4171
뮵	4172
뮶	4173
뮷	4174
뮸	4175
뮹	4176
뮺	4177
뮻	4178
뮼	4179
뮽	4180
뮾	4181
뮿	4182
므	4183
믁	4184
믂	4185
믃	4186
믄	4187
믅	4188
믆	4189
믇	4190
믈	4191
믉	4192
믊	4193
믋	4194
믌	4195
믍	4196
믎	4197
믏	4198
믐	4199
믑	4200
믒	4201
믓	4202
믔	4203
믕	4204
믖	4205
믗	4206
믘	4207
믙	4208
믚	4209
믛	4210
믜	4211
믝	4212
믞	4213
믟	4214
믠	4215
믡	4216
믢	4217
믣	4218
믤	4219
믥	4220
믦	4221
믧	4222
믨	4223
믩	4224
믪	4225
믫	4226
믬	4227
믭	4228
믮	4229
믯	4230
믰	4231
믱	4232
믲	4233
믳	4234
믴	4235
믵	4236
믶	4237
믷	4238
미	4239
믹	4240
믺	4241
믻	4242
민	4243
믽	4244
믾	4245
믿	4246
밀	4247
밁	4248
밂	4249
밃	4250
밄	4251
밅	4252
밆	4253
밇	4254
밈	4255
밉	4256
밊	4257
밋	4258
밌	4259
밍	4260
밎	4261
및	4262
밐	4263
밑	4264
밒	4265
밓	4266
바	4267
박	4268
밖	4269
밗	4270
반	4271
밙	4272
밚	4273
받	4274
발	4275
밝	4276
밞	4277
밟	4278
밠	4279
밡	4280
밢	4281
밣	4282
밤	4283
밥	4284
밦	4285
밧	4286
밨	4287
방	4288
밪	4289
밫	4290
밬	4291
밭	4292
밮	4293
밯	4294
배	4295
백	4296
밲	4297
밳	4298
밴	4299
밵	4300
밶	4301
밷	4302
밸	4303
밹	4304
밺	4305
밻	4306
밼	4307
밽	4308
밾	4309
밿	4310
뱀	4311
뱁	4312
뱂	4313
뱃	4314
뱄	4315
뱅	4316
뱆	4317
뱇	4318
뱈	4319
뱉	4320
뱊	4321
뱋	4322
뱌	4323
뱍	4324
뱎	4325
뱏	4326
뱐	4327
뱑	4328
뱒	4329
뱓	4330
뱔	4331
뱕	4332
뱖	4333
뱗	4334
뱘	4335
뱙	4336
뱚	4337
뱛	4338
뱜	4339
뱝	4340
뱞	4341
뱟	4342
뱠	4343
뱡	4344
뱢	4345
뱣	4346
뱤	4347
뱥	4348
뱦	4349
뱧	4350
뱨	4351
뱩	4352
뱪	4353
뱫	4354
뱬	4355
뱭	4356
뱮	4357
뱯	4358
뱰	4359
뱱	4360
뱲	4361
뱳	4362
뱴	4363
뱵	4364
뱶	4365
뱷	4366
뱸	4367
뱹	4368
뱺	4369
뱻	4370
뱼	4371
뱽	4372
뱾	4373
뱿	4374
벀	4375
벁	4376
벂	4377
벃	4378
버	4379
벅	4380
벆	4381
벇	4382
번	4383
벉	4384
벊	4385
벋	4386
벌	4387
벍	4388
벎	4389
벏	4390
벐	4391
벑	4392
벒	4393
벓	4394
범	4395
법	4396
벖	4397
벗	4398
벘	4399
벙	4400
벚	4401
벛	4402
벜	4403
벝	4404
벞	4405
벟	4406
베	4407
벡	4408
벢	4409
벣	4410
벤	4411
벥	4412
벦	4413
벧	4414
벨	4415
벩	4416
벪	4417
벫	4418
벬	4419
벭	4420
벮	4421
벯	4422
벰	4423
벱	4424
벲	4425
벳	4426
벴	4427
벵	4428
벶	4429
벷	4430
벸	4431
벹	4432
벺	4433
벻	4434
벼	4435
벽	4436
벾	4437
벿	4438
변	4439
볁	4440
볂	4441
볃	4442
별	4443
볅	4444
볆	4445
볇	4446
볈	4447
볉	4448
볊	4449
볋	4450
볌	4451
볍	4452
볎	4453
볏	4454
볐	4455
병	4456
볒	4457
볓	4458
볔	4459
볕	4460
볖	4461
볗	4462
볘	4463
볙	4464
볚	4465
볛	4466
볜	4467
볝	4468
볞	4469
볟	4470
볠	4471
볡	4472
볢	4473
볣	4474
볤	4475
볥	4476
볦	4477
볧	4478
볨	4479
볩	4480
볪	4481
볫	4482
볬	4483
볭	4484
볮	4485
볯	4486
볰	4487
볱	4488
볲	4489
볳	4490
보	4491
복	4492
볶	4493
볷	4494
본	4495
볹	4496
볺	4497
볻	4498
볼	4499
볽	4500
볾	4501
볿	4502
봀	4503
봁	4504
봂	4505
봃	4506
봄	4507
봅	4508
봆	4509
봇	4510
봈	4511
봉	4512
봊	4513
봋	4514
봌	4515
봍	4516
봎	4517
봏	4518
봐	4519
봑	4520
봒	4521
봓	4522
봔	4523
봕	4524
봖	4525
봗	4526
봘	4527
봙	4528
봚	4529
봛	4530
봜	4531
봝	4532
봞	4533
봟	4534
봠	4535
봡	4536
봢	4537
봣	4538
봤	4539
봥	4540
봦	4541
봧	4542
봨	4543
봩	4544
봪	4545
봫	4546
봬	4547
봭	4548
봮	4549
봯	4550
봰	4551
봱	4552
봲	4553
봳	4554
봴	4555
봵	4556
봶	4557
봷	4558
봸	4559
봹	4560
봺	4561
봻	4562
봼	4563
봽	4564
봾	4565
봿	4566
뵀	4567
뵁	4568
뵂	4569
뵃	4570
뵄	4571
뵅	4572
뵆	4573
뵇	4574
뵈	4575
뵉	4576
뵊	4577
뵋	4578
뵌	4579
뵍	4580
뵎	4581
뵏	4582
뵐	4583
뵑	4584
뵒	4585
뵓	4586
뵔	4587
뵕	4588
뵖	4589
뵗	4590
뵘	4591
뵙	4592
뵚	4593
뵛	4594
뵜	4595
뵝	4596
뵞	4597
뵟	4598
뵠	4599
뵡	4600
뵢	4601
뵣	4602
뵤	4603
뵥	4604
뵦	4605
뵧	4606
뵨	4607
뵩	4608
뵪	4609
뵫	4610
뵬	4611
뵭	4612
뵮	4613
뵯	4614
뵰	4615
뵱	4616
뵲	4617
뵳	4618
뵴	4619
뵵	4620
뵶	4621
뵷	4622
뵸	4623
뵹	4624
뵺	4625
뵻	4626
뵼	4627
뵽	4628
뵾	4629
뵿	4630
부	4631
북	4632
붂	4633
붃	4634
분	4635
붅	4636
붆	4637
붇	4638
불	4639
붉	4640
붊	4641
붋	4642
붌	4643
붍	4644
붎	4645
붏	4646
붐	4647
붑	4648
붒	4649
붓	4650
붔	4651
붕	4652
붖	4653
붗	4654
붘	4655
붙	4656
붚	4657
붛	4658
붜	4659
붝	4660
붞	4661
붟	4662
붠	4663
붡	4664
붢	4665
붣	4666
붤	4667
붥	4668
붦	4669
붧	4670
붨	4671
붩	4672
붪	4673
붫	4674
붬	4675
붭	4676
붮	4677
붯	4678
붰	4679
붱	4680
붲	4681
붳	4682
붴	4683
붵	4684
붶	4685
붷	4686
붸	4687
붹	4688
붺	4689
붻	4690
붼	4691
붽	4692
붾	4693
붿	4694
뷀	4695
뷁	4696
뷂	4697
뷃	4698
뷄	4699
뷅	4700
뷆	4701
뷇	4702
뷈	4703
뷉	4704
뷊	4705
뷋	4706
뷌	4707
뷍	4708
뷎	4709
뷏	4710
뷐	4711
뷑	4712
뷒	4713
뷓	4714
뷔	4715
뷕	4716
뷖	4717
뷗	4718
뷘	4719
뷙	4720
뷚	4721
뷛	4722
뷜	4723
뷝	4724
뷞	4725
뷟	4726
뷠	4727
뷡	4728
뷢	4729
뷣	4730
뷤	4731
뷥	4732
뷦	4733
뷧	4734
뷨	4735
뷩	4736
뷪	4737
뷫	4738
뷬	4739
뷭	4740
뷮	4741
뷯	4742
뷰	4743
뷱	4744
뷲	4745
뷳	4746
뷴	4747
뷵	4748
뷶	4749
뷷	4750
뷸	4751
뷹	4752
뷺	4753
뷻	4754
뷼	4755
뷽	4756
뷾	4757
뷿	4758
븀	4759
븁	4760
븂	4761
븃	4762
븄	4763
븅	4764
븆	4765
븇	4766
븈	4767
븉	4768
븊	4769
븋	4770
브	4771
븍	4772
븎	4773
븏	4774
븐	4775
븑	4776
븒	4777
븓	4778
블	4779
븕	4780
븖	4781
븗	4782
븘	4783
븙	4784
븚	4785
븛	4786
븜	4787
븝	4788
븞	4789
븟	4790
븠	4791
븡	4792
븢	4793
븣	4794
븤	4795
븥	4796
븦	4797
븧	4798
븨	4799
븩	4800
븪	4801
븫	4802
븬	4803
븭	4804
븮	4805
븯	4806
븰	4807
븱	4808
븲	4809
븳	4810
븴	4811
븵	4812
븶	4813
븷	4814
븸	4815
븹	4816
븺	4817
븻	4818
븼	4819
븽	4820
븾	4821
븿	4822
빀	4823
빁	4824
빂	4825
빃	4826
비	4827
빅	4828
빆	4829
빇	4830
빈	4831
빉	4832
빊	4833
빋	4834
빌	4835
빍	4836
빎	4837
빏	4838
빐	4839
빑	4840
빒	4841
빓	4842
빔	4843
빕	4844
빖	4845
빗	4846
빘	4847
빙	4848
빚	4849
빛	4850
빜	4851
빝	4852
빞	4853
빟	4854
빠	4855
빡	4856
빢	4857
빣	4858
빤	4859
빥	4860
빦	4861
빧	4862
빨	4863
빩	4864
빪	4865
빫	4866
빬	4867
빭	4868
빮	4869
빯	4870
빰	4871
빱	4872
빲	4873
빳	4874
빴	4875
빵	4876
빶	4877
빷	4878
빸	4879
빹	4880
빺	4881
빻	4882
빼	4883
빽	4884
빾	4885
빿	4886
뺀	4887
뺁	4888
뺂	4889
뺃	4890
뺄	4891
뺅	4892
뺆	4893
뺇	4894
뺈	4895
뺉	4896
뺊	4897
뺋	4898
뺌	4899
뺍	4900
뺎	4901
뺏	4902
뺐	4903
뺑	4904
뺒	4905
뺓	4906
뺔	4907
뺕	4908
뺖	4909
뺗	4910
뺘	4911
뺙	4912
뺚	4913
뺛	4914
뺜	4915
뺝	4916
뺞	4917
뺟	4918
뺠	4919
뺡	4920
뺢	4921
뺣	4922
뺤	4923
뺥	4924
뺦	4925
뺧	4926
뺨	4927
뺩	4928
뺪	4929
뺫	4930
뺬	4931
뺭	4932
뺮	4933
뺯	4934
뺰	4935
뺱	4936
뺲	4937
뺳	4938
뺴	4939
뺵	4940
뺶	4941
뺷	4942
뺸	4943
뺹	4944
뺺	4945
뺻	4946
뺼	4947
뺽	4948
뺾	4949
뺿	4950
뻀	4951
뻁	4952
뻂	4953
뻃	4954
뻄	4955
뻅	4956
뻆	4957
뻇	4958
뻈	4959
뻉	4960
뻊	4961
뻋	4962
뻌	4963
뻍	4964
뻎	4965
뻏	4966
뻐	4967
뻑	4968
뻒	4969
뻓	4970
뻔	4971
뻕	4972
뻖	4973
뻗	4974
뻘	4975
뻙	4976
뻚	4977
뻛	4978
뻜	4979
뻝	4980
뻞	4981
뻟	4982
뻠	4983
뻡	4984
뻢	4985
뻣	4986
뻤	4987
뻥	4988
뻦	4989
뻧	4990
뻨	4991
뻩	4992
뻪	4993
뻫	4994
뻬	4995
뻭	4996
뻮	4997
뻯	4998
뻰	4999
뻱	5000
뻲	5001
뻳	5002
뻴	5003
뻵	5004
뻶	5005
뻷	5006
뻸	5007
뻹	5008
뻺	5009
뻻	5010
뻼	5011
뻽	5012
뻾	5013
뻿	5014
뼀	5015
뼁	5016
뼂	5017
뼃	5018
뼄	5019
뼅	5020
뼆	5021
뼇	5022
뼈	5023
뼉	5024
뼊	5025
뼋	5026
뼌	5027
뼍	5028
뼎	5029
뼏	5030
뼐	5031
뼑	5032
뼒	5033
뼓	5034
뼔	5035
뼕	5036
뼖	5037
뼗	5038
뼘	5039
뼙	5040
뼚	5041
뼛	5042
뼜	5043
뼝	5044
뼞	5045
뼟	5046
뼠	5047
뼡	5048
뼢	5049
뼣	5050
뼤	5051
뼥	5052
뼦	5053
뼧	5054
뼨	5055
뼩	5056
뼪	5057
뼫	5058
뼬	5059
뼭	5060
뼮	5061
뼯	5062
뼰	5063
뼱	5064
뼲	5065
뼳	5066
뼴	5067
뼵	5068
뼶	5069
뼷	5070
뼸	5071
뼹	5072
뼺	5073
뼻	5074
뼼	5075
뼽	5076
뼾	5077
뼿	5078
뽀	5079
뽁	5080
뽂	5081
뽃	5082
뽄	5083
뽅	5084
뽆	5085
뽇	5086
뽈	5087
뽉	5088
뽊	5089
뽋	5090
뽌	5091
뽍	5092
뽎	5093
뽏	5094
뽐	5095
뽑	5096
뽒	5097
뽓	5098
뽔	5099
뽕	5100
뽖	5101
뽗	5102
뽘	5103
뽙	5104
뽚	5105
뽛	5106
뽜	5107
뽝	5108
뽞	5109
뽟	5110
뽠	5111
뽡	5112
뽢	5113
뽣	5114
뽤	5115
뽥	5116
뽦	5117
뽧	5118
뽨	5119
뽩	5120
뽪	5121
뽫	5122
뽬	5123
뽭	5124
뽮	5125
뽯	5126
뽰	5127
뽱	5128
뽲	5129
뽳	5130
뽴	5131
뽵	5132
뽶	5133
뽷	5134
뽸	5135
뽹	5136
뽺	5137
뽻	5138
뽼	5139
뽽	5140
뽾	5141
뽿	5142
뾀	5143
뾁	5144
뾂	5145
뾃	5146
뾄	5147
뾅	5148
뾆	5149
뾇	5150
뾈	5151
뾉	5152
뾊	5153
뾋	5154
뾌	5155
뾍	5156
뾎	5157
뾏	5158
뾐	5159
뾑	5160
뾒	5161
뾓	5162
뾔	5163
뾕	5164
뾖	5165
뾗	5166
뾘	5167
뾙	5168
뾚	5169
뾛	5170
뾜	5171
뾝	5172
뾞	5173
뾟	5174
뾠	5175
뾡	5176
뾢	5177
뾣	5178
뾤	5179
뾥	5180
뾦	5181
뾧	5182
뾨	5183
뾩	5184
뾪	5185
뾫	5186
뾬	5187
뾭	5188
뾮	5189
뾯	5190
뾰	5191
뾱	5192
뾲	5193
뾳	5194
뾴	5195
뾵	5196
뾶	5197
뾷	5198
뾸	5199
뾹	5200
뾺	5201
뾻	5202
뾼	5203
뾽	5204
뾾	5205
뾿	5206
뿀	5207
뿁	5208
뿂	5209
뿃	5210
뿄	5211
뿅	5212
뿆	5213
뿇	5214
뿈	5215
뿉	5216
뿊	5217
뿋	5218
뿌	5219
뿍	5220
뿎	5221
뿏	5222
뿐	5223
뿑	5224
뿒	5225
뿓	5226
뿔	5227
뿕	5228
뿖	5229
뿗	5230
뿘	5231
뿙	5232
뿚	5233
뿛	5234
뿜	5235
뿝	5236
뿞	5237
뿟	5238
뿠	5239
뿡	5240
뿢	5241
뿣	5242
뿤	5243
뿥	5244
뿦	5245
뿧	5246
뿨	5247
뿩	5248
뿪	5249
뿫	5250
뿬	5251
뿭	5252
뿮	5253
뿯	5254
뿰	5255
뿱	5256
뿲	5257
뿳	5258
뿴	5259
뿵	5260
뿶	5261
뿷	5262
뿸	5263
뿹	5264
뿺	5265
뿻	5266
뿼	5267
뿽	5268
뿾	5269
뿿	5270
쀀	5271
쀁	5272
쀂	5273
쀃	5274
쀄	5275
쀅	5276
쀆	5277
쀇	5278
쀈	5279
쀉	5280
쀊	5281
쀋	5282
쀌	5283
쀍	5284
쀎	5285
쀏	5286
쀐	5287
쀑	5288
쀒	5289
쀓	5290
쀔	5291
쀕	5292
쀖	5293
쀗	5294
쀘	5295
쀙	5296
쀚	5297
쀛	5298
쀜	5299
쀝	5300
쀞	5301
쀟	5302
쀠	5303
쀡	5304
쀢	5305
쀣	5306
쀤	5307
쀥	5308
쀦	5309
쀧	5310
쀨	5311
쀩	5312
쀪	5313
쀫	5314
쀬	5315
쀭	5316
쀮	5317
쀯	5318
쀰	5319
쀱	5320
쀲	5321
쀳	5322
쀴	5323
쀵	5324
쀶	5325
쀷	5326
쀸	5327
쀹	5328
쀺	5329
쀻	5330
쀼	5331
쀽	5332
쀾	5333
쀿	5334
쁀	5335
쁁	5336
쁂	5337
쁃	5338
쁄	5339
쁅	5340
쁆	5341
쁇	5342
쁈	5343
쁉	5344
쁊	5345
쁋	5346
쁌	5347
쁍	5348
쁎	5349
쁏	5350
쁐	5351
쁑	5352
쁒	5353
쁓	5354
쁔	5355
쁕	5356
쁖	5357
쁗	5358
쁘	5359
쁙	5360
쁚	5361
쁛	5362
쁜	5363
쁝	5364
쁞	5365
쁟	5366
쁠	5367
쁡	5368
쁢	5369
쁣	5370
쁤	5371
쁥	5372
쁦	5373
쁧	5374
쁨	5375
쁩	5376
쁪	5377
쁫	5378
쁬	5379
쁭	5380
쁮	5381
쁯	5382
쁰	5383
쁱	5384
쁲	5385
쁳	5386
쁴	5387
쁵	5388
쁶	5389
쁷	5390
쁸	5391
쁹	5392
쁺	5393
쁻	5394
쁼	5395
쁽	5396
쁾	5397
쁿	5398
삀	5399
삁	5400
삂	5401
삃	5402
삄	5403
삅	5404
삆	5405
삇	5406
삈	5407
삉	5408
삊	5409
삋	5410
삌	5411
삍	5412
삎	5413
삏	5414
삐	5415
삑	5416
삒	5417
삓	5418
삔	5419
삕	5420
삖	5421
삗	5422
삘	5423
삙	5424
삚	5425
삛	5426
삜	5427
삝	5428
삞	5429
삟	5430
삠	5431
삡	5432
삢	5433
삣	5434
삤	5435
삥	5436
삦	5437
삧	5438
삨	5439
삩	5440
삪	5441
삫	5442
사	5443
삭	5444
삮	5445
삯	5446
산	5447
삱	5448
삲	5449
삳	5450
살	5451
삵	5452
삶	5453
삷	5454
삸	5455
삹	5456
삺	5457
삻	5458
삼	5459
삽	5460
삾	5461
삿	5462
샀	5463
상	5464
샂	5465
샃	5466
샄	5467
샅	5468
샆	5469
샇	5470
새	5471
색	5472
샊	5473
샋	5474
샌	5475
샍	5476
샎	5477
샏	5478
샐	5479
샑	5480
샒	5481
샓	5482
샔	5483
샕	5484
샖	5485
샗	5486
샘	5487
샙	5488
샚	5489
샛	5490
샜	5491
생	5492
샞	5493
샟	5494
샠	5495
샡	5496
샢	5497
샣	5498
샤	5499
샥	5500
샦	5501
샧	5502
샨	5503
샩	5504
샪	5505
샫	5506
샬	5507
샭	5508
샮	5509
샯	5510
샰	5511
샱	5512
샲	5513
샳	5514
샴	5515
샵	5516
샶	5517
샷	5518
샸	5519
샹	5520
샺	5521
샻	5522
샼	5523
샽	5524
샾	5525
샿	5526
섀	5527
섁	5528
섂	5529
섃	5530
섄	5531
섅	5532
섆	5533
섇	5534
섈	5535
섉	5536
섊	5537
섋	5538
섌	5539
섍	5540
섎	5541
섏	5542
섐	5543
섑	5544
섒	5545
섓	5546
섔	5547
섕	5548
섖	5549
섗	5550
섘	5551
섙	5552
섚	5553
섛	5554
서	5555
석	5556
섞	5557
섟	5558
선	5559
섡	5560
섢	5561
섣	5562
설	5563
섥	5564
섦	5565
섧	5566
섨	5567
섩	5568
섪	5569
섫	5570
섬	5571
섭	5572
섮	5573
섯	5574
섰	5575
성	5576
섲	5577
섳	5578
섴	5579
섵	5580
섶	5581
섷	5582
세	5583
섹	5584
섺	5585
섻	5586
센	5587
섽	5588
섾	5589
섿	5590
셀	5591
셁	5592
셂	5593
셃	5594
셄	5595
셅	5596
셆	5597
셇	5598
셈	5599
셉	5600
셊	5601
셋	5602
셌	5603
셍	5604
셎	5605
셏	5606
셐	5607
셑	5608
셒	5609
셓	5610
셔	5611
셕	5612
셖	5613
셗	5614
션	5615
셙	5616
셚	5617
셛	5618
셜	5619
셝	5620
셞	5621
셟	5622
셠	5623
셡	5624
셢	5625
셣	5626
셤	5627
셥	5628
셦	5629
셧	5630
셨	5631
셩	5632
셪	5633
셫	5634
셬	5635
셭	5636
셮	5637
셯	5638
셰	5639
셱	5640
셲	5641
셳	5642
셴	5643
셵	5644
셶	5645
셷	5646
셸	5647
셹	5648
셺	5649
셻	5650
셼	5651
셽	5652
셾	5653
셿	5654
솀	5655
솁	5656
솂	5657
솃	5658
솄	5659
솅	5660
솆	5661
솇	5662
솈	5663
솉	5664
솊	5665
솋	5666
소	5667
속	5668
솎	5669
솏	5670
손	5671
솑	5672
솒	5673
솓	5674
솔	5675
솕	5676
솖	5677
솗	5678
솘	5679
솙	5680
솚	5681
솛	5682
솜	5683
솝	5684
솞	5685
솟	5686
솠	5687
송	5688
솢	5689
솣	5690
솤	5691
솥	5692
솦	5693
솧	5694
솨	5695
솩	5696
솪	5697
솫	5698
솬	5699
솭	5700
솮	5701
솯	5702
솰	5703
솱	5704
솲	5705
솳	5706
솴	5707
솵	5708
솶	5709
솷	5710
솸	5711
솹	5712
솺	5713
솻	5714
솼	5715
솽	5716
솾	5717
솿	5718
쇀	5719
쇁	5720
쇂	5721
쇃	5722
쇄	5723
쇅	5724
쇆	5725
쇇	5726
쇈	5727
쇉	5728
쇊	5729
쇋	5730
쇌	5731
쇍	5732
쇎	5733
쇏	5734
쇐	5735
쇑	5736
쇒	5737
쇓	5738
쇔	5739
쇕	5740
쇖	5741
쇗	5742
쇘	5743
쇙	5744
쇚	5745
쇛	5746
쇜	5747
쇝	5748
쇞	5749
쇟	5750
쇠	5751
쇡	5752
쇢	5753
쇣	5754
쇤	5755
쇥	5756
쇦	5757
쇧	5758
쇨	5759
쇩	5760
쇪	5761
쇫	5762
쇬	5763
쇭	5764
쇮	5765
쇯	5766
쇰	5767
쇱	5768
쇲	5769
쇳	5770
쇴	5771
쇵	5772
쇶	5773
쇷	5774
쇸	5775
쇹	5776
쇺	5777
쇻	5778
쇼	5779
쇽	5780
쇾	5781
쇿	5782
숀	5783
숁	5784
숂	5785
숃	5786
숄	5787
숅	5788
숆	5789
숇	5790
숈	5791
숉	5792
숊	5793
숋	5794
숌	5795
숍	5796
숎	5797
숏	5798
숐	5799
숑	5800
숒	5801
숓	5802
숔	5803
숕	5804
숖	5805
숗	5806
수	5807
숙	5808
숚	5809
숛	5810
순	5811
숝	5812
숞	5813
숟	5814
술	5815
숡	5816
숢	5817
숣	5818
숤	5819
숥	5820
숦	5821
숧	5822
숨	5823
숩	5824
숪	5825
숫	5826
숬	5827
숭	5828
숮	5829
숯	5830
숰	5831
숱	5832
숲	5833
숳	5834
숴	5835
숵	5836
숶	5837
숷	5838
숸	5839
숹	5840
숺	5841
숻	5842
숼	5843
숽	5844
숾	5845
숿	5846
쉀	5847
쉁	5848
쉂	5849
쉃	5850
쉄	5851
쉅	5852
쉆	5853
쉇	5854
쉈	5855
쉉	5856
쉊	5857
쉋	5858
쉌	5859
쉍	5860
쉎	5861
쉏	5862
쉐	5863
쉑	5864
쉒	5865
쉓	5866
쉔	5867
쉕	5868
쉖	5869
쉗	5870
쉘	5871
쉙	5872
쉚	5873
쉛	5874
쉜	5875
쉝	5876
쉞	5877
쉟	5878
쉠	5879
쉡	5880
쉢	5881
쉣	5882
쉤	5883
쉥	5884
쉦	5885
쉧	5886
쉨	5887
쉩	5888
쉪	5889
쉫	5890
쉬	5891
쉭	5892
쉮	5893
쉯	5894
쉰	5895
쉱	5896
쉲	5897
쉳	5898
쉴	5899
쉵	5900
쉶	5901
쉷	5902
쉸	5903
쉹	5904
쉺	5905
쉻	5906
쉼	5907
쉽	5908
쉾	5909
쉿	5910
슀	5911
슁	5912
슂	5913
슃	5914
슄	5915
슅	5916
슆	5917
슇	5918
슈	5919
슉	5920
슊	5921
슋	5922
슌	5923
슍	5924
슎	5925
슏	5926
슐	5927
슑	5928
슒	5929
슓	5930
슔	5931
슕	5932
슖	5933
슗	5934
슘	5935
슙	5936
슚	5937
슛	5938
슜	5939
슝	5940
슞	5941
슟	5942
슠	5943
슡	5944
슢	5945
슣	5946
스	5947
슥	5948
슦	5949
슧	5950
슨	5951
슩	5952
슪	5953
슫	5954
슬	5955
슭	5956
슮	5957
슯	5958
슰	5959
슱	5960
슲	5961
슳	5962
슴	5963
습	5964
슶	5965
슷	5966
슸	5967
승	5968
슺	5969
슻	5970
슼	5971
슽	5972
슾	5973
슿	5974
싀	5975
싁	5976
싂	5977
싃	5978
싄	5979
싅	5980
싆	5981
싇	5982
싈	5983
싉	5984
싊	5985
싋	5986
싌	5987
싍	5988
싎	5989
싏	5990
싐	5991
싑	5992
싒	5993
싓	5994
싔	5995
싕	5996
싖	5997
싗	5998
싘	5999
싙	6000
싚	6001
싛	6002
시	6003
식	6004
싞	6005
싟	6006
신	6007
싡	6008
싢	6009
싣	6010
실	6011
싥	6012
싦	6013
싧	6014
싨	6015
싩	6016
싪	6017
싫	6018
심	6019
십	6020
싮	6021
싯	6022
싰	6023
싱	6024
싲	6025
싳	6026
싴	6027
싵	6028
싶	6029
싷	6030
싸	6031
싹	6032
싺	6033
싻	6034
싼	6035
싽	6036
싾	6037
싿	6038
쌀	6039
쌁	6040
쌂	6041
쌃	6042
쌄	6043
쌅	6044
쌆	6045
쌇	6046
쌈	6047
쌉	6048
쌊	6049
쌋	6050
쌌	6051
쌍	6052
쌎	6053
쌏	6054
쌐	6055
쌑	6056
쌒	6057
쌓	6058
쌔	6059
쌕	6060
쌖	6061
쌗	6062
쌘	6063
쌙	6064
쌚	6065
쌛	6066
쌜	6067
쌝	6068
쌞	6069
쌟	6070
쌠	6071
쌡	6072
쌢	6073
쌣	6074
쌤	6075
쌥	6076
쌦	6077
쌧	6078
쌨	6079
쌩	6080
쌪	6081
쌫	6082
쌬	6083
쌭	6084
쌮	6085
쌯	6086
쌰	6087
쌱	6088
쌲	6089
쌳	6090
쌴	6091
쌵	6092
쌶	6093
쌷	6094
쌸	6095
쌹	6096
쌺	6097
쌻	6098
쌼	6099
쌽	6100
쌾	6101
쌿	6102
썀	6103
썁	6104
썂	6105
썃	6106
썄	6107
썅	6108
썆	6109
썇	6110
썈	6111
썉	6112
썊	6113
썋	6114
썌	6115
썍	6116
썎	6117
썏	6118
썐	6119
썑	6120
썒	6121
썓	6122
썔	6123
썕	6124
썖	6125
썗	6126
썘	6127
썙	6128
썚	6129
썛	6130
썜	6131
썝	6132
썞	6133
썟	6134
썠	6135
썡	6136
썢	6137
썣	6138
썤	6139
썥	6140
썦	6141
썧	6142
써	6143
썩	6144
썪	6145
썫	6146
썬	6147
썭	6148
썮	6149
썯	6150
썰	6151
썱	6152
썲	6153
썳	6154
썴	6155
썵	6156
썶	6157
썷	6158
썸	6159
썹	6160
썺	6161
썻	6162
썼	6163
썽	6164
썾	6165
썿	6166
쎀	6167
쎁	6168
쎂	6169
쎃	6170
쎄	6171
쎅	6172
쎆	6173
쎇	6174
쎈	6175
쎉	6176
쎊	6177
쎋	6178
쎌	6179
쎍	6180
쎎	6181
쎏	6182
쎐	6183
쎑	6184
쎒	6185
쎓	6186
쎔	6187
쎕	6188
쎖	6189
쎗	6190
쎘	6191
쎙	6192
쎚	6193
쎛	6194
쎜	6195
쎝	6196
쎞	6197
쎟	6198
쎠	6199
쎡	6200
쎢	6201
쎣	6202
쎤	6203
쎥	6204
쎦	6205
쎧	6206
쎨	6207
쎩	6208
쎪	6209
쎫	6210
쎬	6211
쎭	6212
쎮	6213
쎯	6214
쎰	6215
쎱	6216
쎲	6217
쎳	6218
쎴	6219
쎵	6220
쎶	6221
쎷	6222
쎸	6223
쎹	6224
쎺	6225
쎻	6226
쎼	6227
쎽	6228
쎾	6229
쎿	6230
쏀	6231
쏁	6232
쏂	6233
쏃	6234
쏄	6235
쏅	6236
쏆	6237
쏇	6238
쏈	6239
쏉	6240
쏊	6241
쏋	6242
쏌	6243
쏍	6244
쏎	6245
쏏	6246
쏐	6247
쏑	6248
쏒	6249
쏓	6250
쏔	6251
쏕	6252
쏖	6253
쏗	6254
쏘	6255
쏙	6256
쏚	6257
쏛	6258
쏜	6259
쏝	6260
쏞	6261
쏟	6262
쏠	6263
쏡	6264
쏢	6265
쏣	6266
쏤	6267
쏥	6268
쏦	6269
쏧	6270
쏨	6271
쏩	6272
쏪	6273
쏫	6274
쏬	6275
쏭	6276
쏮	6277
쏯	6278
쏰	6279
쏱	6280
쏲	6281
쏳	6282
쏴	6283
쏵	6284
쏶	6285
쏷	6286
쏸	6287
쏹	6288
쏺	6289
쏻	6290
쏼	6291
쏽	6292
쏾	6293
쏿	6294
쐀	6295
쐁	6296
쐂	6297
쐃	6298
쐄	6299
쐅	6300
쐆	6301
쐇	6302
쐈	6303
쐉	6304
쐊	6305
쐋	6306
쐌	6307
쐍	6308
쐎	6309
쐏	6310
쐐	6311
쐑	6312
쐒	6313
쐓	6314
쐔	6315
쐕	6316
쐖	6317
쐗	6318
쐘	6319
쐙	6320
쐚	6321
쐛	6322
쐜	6323
쐝	6324
쐞	6325
쐟	6326
쐠	6327
쐡	6328
쐢	6329
쐣	6330
쐤	6331
쐥	6332
쐦	6333
쐧	6334
쐨	6335
쐩	6336
쐪	6337
쐫	6338
쐬	6339
쐭	6340
쐮	6341
쐯	6342
쐰	6343
쐱	6344
쐲	6345
쐳	6346
쐴	6347
쐵	6348
쐶	6349
쐷	6350
쐸	6351
쐹	6352
쐺	6353
쐻	6354
쐼	6355
쐽	6356
쐾	6357
쐿	6358
쑀	6359
쑁	6360
쑂	6361
쑃	6362
쑄	6363
쑅	6364
쑆	6365
쑇	6366
쑈	6367
쑉	6368
쑊	6369
쑋	6370
쑌	6371
쑍	6372
쑎	6373
쑏	6374
쑐	6375
쑑	6376
쑒	6377
쑓	6378
쑔	6379
쑕	6380
쑖	6381
쑗	6382
쑘	6383
쑙	6384
쑚	6385
쑛	6386
쑜	6387
쑝	6388
쑞	6389
쑟	6390
쑠	6391
쑡	6392
쑢	6393
쑣	6394
쑤	6395
쑥	6396
쑦	6397
쑧	6398
쑨	6399
쑩	6400
쑪	6401
쑫	6402
쑬	6403
쑭	6404
쑮	6405
쑯	6406
쑰	6407
쑱	6408
쑲	6409
쑳	6410
쑴	6411
쑵	6412
쑶	6413
쑷	6414
쑸	6415
쑹	6416
쑺	6417
쑻	6418
쑼	6419
쑽	6420
쑾	6421
쑿	6422
쒀	6423
쒁	6424
쒂	6425
쒃	6426
쒄	6427
쒅	6428
쒆	6429
쒇	6430
쒈	6431
쒉	6432
쒊	6433
쒋	6434
쒌	6435
쒍	6436
쒎	6437
쒏	6438
쒐	6439
쒑	6440
쒒	6441
쒓	6442
쒔	6443
쒕	6444
쒖	6445
쒗	6446
쒘	6447
쒙	6448
쒚	6449
쒛	6450
쒜	6451
쒝	6452
쒞	6453
쒟	6454
쒠	6455
쒡	6456
쒢	6457
쒣	6458
쒤	6459
쒥	6460
쒦	6461
쒧	6462
쒨	6463
쒩	6464
쒪	6465
쒫	6466
쒬	6467
쒭	6468
쒮	6469
쒯	6470
쒰	6471
쒱	6472
쒲	6473
쒳	6474
쒴	6475
쒵	6476
쒶	6477
쒷	6478
쒸	6479
쒹	6480
쒺	6481
쒻	6482
쒼	6483
쒽	6484
쒾	6485
쒿	6486
쓀	6487
쓁	6488
쓂	6489
쓃	6490
쓄	6491
쓅	6492
쓆	6493
쓇	6494
쓈	6495
쓉	6496
쓊	6497
쓋	6498
쓌	6499
쓍	6500
쓎	6501
쓏	6502
쓐	6503
쓑	6504
쓒	6505
쓓	6506
쓔	6507
쓕	6508
쓖	6509
쓗	6510
쓘	6511
쓙	6512
쓚	6513
쓛	6514
쓜	6515
쓝	6516
쓞	6517
쓟	6518
쓠	6519
쓡	6520
쓢	6521
쓣	6522
쓤	6523
쓥	6524
쓦	6525
쓧	6526
쓨	6527
쓩	6528
쓪	6529
쓫	6530
쓬	6531
쓭	6532
쓮	6533
쓯	6534
쓰	6535
쓱	6536
쓲	6537
쓳	6538
쓴	6539
쓵	6540
쓶	6541
쓷	6542
쓸	6543
쓹	6544
쓺	6545
쓻	6546
쓼	6547
쓽	6548
쓾	6549
쓿	6550
씀	6551
씁	6552
씂	6553
씃	6554
씄	6555
씅	6556
씆	6557
씇	6558
씈	6559
씉	6560
씊	6561
씋	6562
씌	6563
씍	6564
씎	6565
씏	6566
씐	6567
씑	6568
씒	6569
씓	6570
씔	6571
씕	6572
씖	6573
씗	6574
씘	6575
씙	6576
씚	6577
씛	6578
씜	6579
씝	6580
씞	6581
씟	6582
씠	6583
씡	6584
씢	6585
씣	6586
씤	6587
씥	6588
씦	6589
씧	6590
씨	6591
씩	6592
씪	6593
씫	6594
씬	6595
씭	6596
씮	6597
씯	6598
씰	6599
씱	6600
씲	6601
씳	6602
씴	6603
씵	6604
씶	6605
씷	6606
씸	6607
씹	6608
씺	6609
씻	6610
씼	6611
씽	6612
씾	6613
씿	6614
앀	6615
앁	6616
앂	6617
앃	6618
아	6619
악	6620
앆	6621
앇	6622
안	6623
앉	6624
않	6625
앋	6626
알	6627
앍	6628
앎	6629
앏	6630
앐	6631
앑	6632
앒	6633
앓	6634
암	6635
압	6636
앖	6637
앗	6638
았	6639
앙	6640
앚	6641
앛	6642
앜	6643
앝	6644
앞	6645
앟	6646
애	6647
액	6648
앢	6649
앣	6650
앤	6651
앥	6652
앦	6653
앧	6654
앨	6655
앩	6656
앪	6657
앫	6658
앬	6659
앭	6660
앮	6661
앯	6662
앰	6663
앱	6664
앲	6665
앳	6666
앴	6667
앵	6668
앶	6669
앷	6670
앸	6671
앹	6672
앺	6673
앻	6674
야	6675
약	6676
앾	6677
앿	6678
얀	6679
얁	6680
얂	6681
얃	6682
얄	6683
얅	6684
얆	6685
얇	6686
얈	6687
얉	6688
얊	6689
얋	6690
얌	6691
얍	6692
얎	6693
얏	6694
얐	6695
양	6696
얒	6697
얓	6698
얔	6699
얕	6700
얖	6701
얗	6702
얘	6703
얙	6704
얚	6705
얛	6706
얜	6707
얝	6708
얞	6709
얟	6710
얠	6711
얡	6712
얢	6713
얣	6714
얤	6715
얥	6716
얦	6717
얧	6718
얨	6719
얩	6720
얪	6721
얫	6722
얬	6723
얭	6724
얮	6725
얯	6726
얰	6727
얱	6728
얲	6729
얳	6730
어	6731
억	6732
얶	6733
얷	6734
언	6735
얹	6736
얺	6737
얻	6738
얼	6739
얽	6740
얾	6741
얿	6742
엀	6743
엁	6744
엂	6745
엃	6746
엄	6747
업	6748
없	6749
엇	6750
었	6751
엉	6752
엊	6753
엋	6754
엌	6755
엍	6756
엎	6757
엏	6758
에	6759
엑	6760
엒	6761
엓	6762
엔	6763
엕	6764
엖	6765
엗	6766
엘	6767
엙	6768
엚	6769
엛	6770
엜	6771
엝	6772
엞	6773
엟	6774
엠	6775
엡	6776
엢	6777
엣	6778
엤	6779
엥	6780
엦	6781
엧	6782
엨	6783
엩	6784
엪	6785
엫	6786
여	6787
역	6788
엮	6789
엯	6790
연	6791
엱	6792
엲	6793
엳	6794
열	6795
엵	6796
엶	6797
엷	6798
엸	6799
엹	6800
엺	6801
엻	6802
염	6803
엽	6804
엾	6805
엿	6806
였	6807
영	6808
옂	6809
옃	6810
옄	6811
옅	6812
옆	6813
옇	6814
예	6815
옉	6816
옊	6817
옋	6818
옌	6819
옍	6820
옎	6821
옏	6822
옐	6823
옑	6824
옒	6825
옓	6826
옔	6827
옕	6828
옖	6829
옗	6830
옘	6831
옙	6832
옚	6833
옛	6834
옜	6835
옝	6836
옞	6837
옟	6838
옠	6839
옡	6840
옢	6841
옣	6842
오	6843
옥	6844
옦	6845
옧	6846
온	6847
옩	6848
옪	6849
옫	6850
올	6851
옭	6852
옮	6853
옯	6854
옰	6855
옱	6856
옲	6857
옳	6858
옴	6859
옵	6860
옶	6861
옷	6862
옸	6863
옹	6864
옺	6865
옻	6866
옼	6867
옽	6868
옾	6869
옿	6870
와	6871
왁	6872
왂	6873
왃	6874
완	6875
왅	6876
왆	6877
왇	6878
왈	6879
왉	6880
왊	6881
왋	6882
왌	6883
왍	6884
왎	6885
왏	6886
왐	6887
왑	6888
왒	6889
왓	6890
왔	6891
왕	6892
왖	6893
왗	6894
왘	6895
왙	6896
왚	6897
왛	6898
왜	6899
왝	6900
왞	6901
왟	6902
왠	6903
왡	6904
왢	6905
왣	6906
왤	6907
왥	6908
왦	6909
왧	6910
왨	6911
왩	6912
왪	6913
왫	6914
왬	6915
왭	6916
왮	6917
왯	6918
왰	6919
왱	6920
왲	6921
왳	6922
왴	6923
왵	6924
왶	6925
왷	6926
외	6927
왹	6928
왺	6929
왻	6930
왼	6931
왽	6932
왾	6933
왿	6934
욀	6935
욁	6936
욂	6937
욃	6938
욄	6939
욅	6940
욆	6941
욇	6942
욈	6943
욉	6944
욊	6945
욋	6946
욌	6947
욍	6948
욎	6949
욏	6950
욐	6951
욑	6952
욒	6953
욓	6954
요	6955
욕	6956
욖	6957
욗	6958
욘	6959
욙	6960
욚	6961
욛	6962
욜	6963
욝	6964
욞	6965
욟	6966
욠	6967
욡	6968
욢	6969
욣	6970
욤	6971
욥	6972
욦	6973
욧	6974
욨	6975
용	6976
욪	6977
욫	6978
욬	6979
욭	6980
욮	6981
욯	6982
우	6983
욱	6984
욲	6985
욳	6986
운	6987
욵	6988
욶	6989
욷	6990
울	6991
욹	6992
욺	6993
욻	6994
욼	6995
욽	6996
욾	6997
욿	6998
움	6999
웁	7000
웂	7001
웃	7002
웄	7003
웅	7004
웆	7005
웇	7006
웈	7007
웉	7008
웊	7009
웋	7010
워	7011
웍	7012
웎	7013
웏	7014
원	7015
웑	7016
웒	7017
웓	7018
월	7019
웕	7020
웖	7021
웗	7022
웘	7023
웙	7024
웚	7025
웛	7026
웜	7027
웝	7028
웞	7029
웟	7030
웠	7031
웡	7032
웢	7033
웣	7034
웤	7035
웥	7036
웦	7037
웧	7038
웨	7039
웩	7040
웪	7041
웫	7042
웬	7043
웭	7044
웮	7045
웯	7046
웰	7047
웱	7048
웲	7049
웳	7050
웴	7051
웵	7052
웶	7053
웷	7054
웸	7055
웹	7056
웺	7057
웻	7058
웼	7059
웽	7060
웾	7061
웿	7062
윀	7063
윁	7064
윂	7065
윃	7066
위	7067
윅	7068
윆	7069
윇	7070
윈	7071
윉	7072
윊	7073
윋	7074
윌	7075
윍	7076
윎	7077
윏	7078
윐	7079
윑	7080
윒	7081
윓	7082
윔	7083
윕	7084
윖	7085
윗	7086
윘	7087
윙	7088
윚	7089
윛	7090
윜	7091
윝	7092
윞	7093
윟	7094
유	7095
육	7096
윢	7097
윣	7098
윤	7099
윥	7100
윦	7101
윧	7102
율	7103
윩	7104
윪	7105
윫	7106
윬	7107
윭	7108
윮	7109
윯	7110
윰	7111
윱	7112
윲	7113
윳	7114
윴	7115
융	7116
윶	7117
윷	7118
윸	7119
윹	7120
윺	7121
윻	7122
으	7123
윽	7124
윾	7125
윿	7126
은	7127
읁	7128
읂	7129
읃	7130
을	7131
읅	7132
읆	7133
읇	7134
읈	7135
읉	7136
읊	7137
읋	7138
음	7139
읍	7140
읎	7141
읏	7142
읐	7143
응	7144
읒	7145
읓	7146
읔	7147
읕	7148
읖	7149
읗	7150
의	7151
읙	7152
읚	7153
읛	7154
읜	7155
읝	7156
읞	7157
읟	7158
읠	7159
읡	7160
읢	7161
읣	7162
읤	7163
읥	7164
읦	7165
읧	7166
읨	7167
읩	7168
읪	7169
읫	7170
읬	7171
읭	7172
읮	7173
읯	7174
읰	7175
읱	7176
읲	7177
읳	7178
이	7179
익	7180
읶	7181
읷	7182
인	7183
읹	7184
읺	7185
읻	7186
일	7187
읽	7188
읾	7189
읿	7190
잀	7191
잁	7192
잂	7193
잃	7194
임	7195
입	7196
잆	7197
잇	7198
있	7199
잉	7200
잊	7201
잋	7202
잌	7203
잍	7204
잎	7205
잏	7206
자	7207
작	7208
잒	7209
잓	7210
잔	7211
잕	7212
잖	7213
잗	7214
잘	7215
잙	7216
잚	7217
잛	7218
잜	7219
잝	7220
잞	7221
잟	7222
잠	7223
잡	7224
잢	7225
잣	7226
잤	7227
장	7228
잦	7229
잧	7230
잨	7231
잩	7232
잪	7233
잫	7234
재	7235
잭	7236
잮	7237
잯	7238
잰	7239
잱	7240
잲	7241
잳	7242
잴	7243
잵	7244
잶	7245
잷	7246
잸	7247
잹	7248
잺	7249
잻	7250
잼	7251
잽	7252
잾	7253
잿	7254
쟀	7255
쟁	7256
쟂	7257
쟃	7258
쟄	7259
쟅	7260
쟆	7261
쟇	7262
쟈	7263
쟉	7264
쟊	7265
쟋	7266
쟌	7267
쟍	7268
쟎	7269
쟏	7270
쟐	7271
쟑	7272
쟒	7273
쟓	7274
쟔	7275
쟕	7276
쟖	7277
쟗	7278
쟘	7279
쟙	7280
쟚	7281
쟛	7282
쟜	7283
쟝	7284
쟞	7285
쟟	7286
쟠	7287
쟡	7288
쟢	7289
쟣	7290
쟤	7291
쟥	7292
쟦	7293
쟧	7294
쟨	7295
쟩	7296
쟪	7297
쟫	7298
쟬	7299
쟭	7300
쟮	7301
쟯	7302
쟰	7303
쟱	7304
쟲	7305
쟳	7306
쟴	7307
쟵	7308
쟶	7309
쟷	7310
쟸	7311
쟹	7312
쟺	7313
쟻	7314
쟼	7315
쟽	7316
쟾	7317
쟿	7318
저	7319
적	7320
젂	7321
젃	7322
전	7323
젅	7324
젆	7325
젇	7326
절	7327
젉	7328
젊	7329
젋	7330
젌	7331
젍	7332
젎	7333
젏	7334
점	7335
접	7336
젒	7337
젓	7338
젔	7339
정	7340
젖	7341
젗	7342
젘	7343
젙	7344
젚	7345
젛	7346
제	7347
젝	7348
젞	7349
젟	7350
젠	7351
젡	7352
젢	7353
젣	7354
젤	7355
젥	7356
젦	7357
젧	7358
젨	7359
젩	7360
젪	7361
젫	7362
젬	7363
젭	7364
젮	7365
젯	7366
젰	7367
젱	7368
젲	7369
젳	7370
젴	7371
젵	7372
젶	7373
젷	7374
져	7375
젹	7376
젺	7377
젻	7378
젼	7379
젽	7380
젾	7381
젿	7382
졀	7383
졁	7384
졂	7385
졃	7386
졄	7387
졅	7388
졆	7389
졇	7390
졈	7391
졉	7392
졊	7393
졋	7394
졌	7395
졍	7396
졎	7397
졏	7398
졐	7399
졑	7400
졒	7401
졓	7402
졔	7403
졕	7404
졖	7405
졗	7406
졘	7407
졙	7408
졚	7409
졛	7410
졜	7411
졝	7412
졞	7413
졟	7414
졠	7415
졡	7416
졢	7417
졣	7418
졤	7419
졥	7420
졦	7421
졧	7422
졨	7423
졩	7424
졪	7425
졫	7426
졬	7427
졭	7428
졮	7429
졯	7430
조	7431
족	7432
졲	7433
졳	7434
존	7435
졵	7436
졶	7437
졷	7438
졸	7439
졹	7440
졺	7441
졻	7442
졼	7443
졽	7444
졾	7445
졿	7446
좀	7447
좁	7448
좂	7449
좃	7450
좄	7451
종	7452
좆	7453
좇	7454
좈	7455
좉	7456
좊	7457
좋	7458
좌	7459
좍	7460
좎	7461
좏	7462
좐	7463
좑	7464
좒	7465
좓	7466
좔	7467
좕	7468
좖	7469
좗	7470
좘	7471
좙	7472
좚	7473
좛	7474
좜	7475
좝	7476
좞	7477
좟	7478
좠	7479
좡	7480
좢	7481
좣	7482
좤	7483
좥	7484
좦	7485
좧	7486
좨	7487
좩	7488
좪	7489
좫	7490
좬	7491
좭	7492
좮	7493
좯	7494
좰	7495
좱	7496
좲	7497
좳	7498
좴	7499
좵	7500
좶	7501
좷	7502
좸	7503
좹	7504
좺	7505
좻	7506
좼	7507
좽	7508
좾	7509
좿	7510
죀	7511
죁	7512
죂	7513
죃	7514
죄	7515
죅	7516
죆	7517
죇	7518
죈	7519
죉	7520
죊	7521
죋	7522
죌	7523
죍	7524
죎	7525
죏	7526
죐	7527
죑	7528
죒	7529
죓	7530
죔	7531
죕	7532
죖	7533
죗	7534
죘	7535
죙	7536
죚	7537
죛	7538
죜	7539
죝	7540
죞	7541
죟	7542
죠	7543
죡	7544
죢	7545
죣	7546
죤	7547
죥	7548
죦	7549
죧	7550
죨	7551
죩	7552
죪	7553
죫	7554
죬	7555
죭	7556
죮	7557
죯	7558
죰	7559
죱	7560
죲	7561
죳	7562
죴	7563
죵	7564
죶	7565
죷	7566
죸	7567
죹	7568
죺	7569
죻	7570
주	7571
죽	7572
죾	7573
죿	7574
준	7575
줁	7576
줂	7577
줃	7578
줄	7579
줅	7580
줆	7581
줇	7582
줈	7583
줉	7584
줊	7585
줋	7586
줌	7587
줍	7588
줎	7589
줏	7590
줐	7591
중	7592
줒	7593
줓	7594
줔	7595
줕	7596
줖	7597
줗	7598
줘	7599
줙	7600
줚	7601
줛	7602
줜	7603
줝	7604
줞	7605
줟	7606
줠	7607
줡	7608
줢	7609
줣	7610
줤	7611
줥	7612
줦	7613
줧	7614
줨	7615
줩	7616
줪	7617
줫	7618
줬	7619
줭	7620
줮	7621
줯	7622
줰	7623
줱	7624
줲	7625
줳	7626
줴	7627
줵	7628
줶	7629
줷	7630
줸	7631
줹	7632
줺	7633
줻	7634
줼	7635
줽	7636
줾	7637
줿	7638
쥀	7639
쥁	7640
쥂	7641
쥃	7642
쥄	7643
쥅	7644
쥆	7645
쥇	7646
쥈	7647
쥉	7648
쥊	7649
쥋	7650
쥌	7651
쥍	7652
쥎	7653
쥏	7654
쥐	7655
쥑	7656
쥒	7657
쥓	7658
쥔	7659
쥕	7660
쥖	7661
쥗	7662
쥘	7663
쥙	7664
쥚	7665
쥛	7666
쥜	7667
쥝	7668
쥞	7669
쥟	7670
쥠	7671
쥡	7672
쥢	7673
쥣	7674
쥤	7675
쥥	7676
쥦	7677
쥧	7678
쥨	7679
쥩	7680
쥪	7681
쥫	7682
쥬	7683
쥭	7684
쥮	7685
쥯	7686
쥰	7687
쥱	7688
쥲	7689
쥳	7690
쥴	7691
쥵	7692
쥶	7693
쥷	7694
쥸	7695
쥹	7696
쥺	7697
쥻	7698
쥼	7699
쥽	7700
쥾	7701
쥿	7702
즀	7703
즁	7704
즂	7705
즃	7706
즄	7707
즅	7708
즆	7709
즇	7710
즈	7711
즉	7712
즊	7713
즋	7714
즌	7715
즍	7716
즎	7717
즏	7718
즐	7719
즑	7720
즒	7721
즓	7722
즔	7723
즕	7724
즖	7725
즗	7726
즘	7727
즙	7728
즚	7729
즛	7730
즜	7731
증	7732
즞	7733
즟	7734
즠	7735
즡	7736
즢	7737
즣	7738
즤	7739
즥	7740
즦	7741
즧	7742
즨	7743
즩	7744
즪	7745
즫	7746
즬	7747
즭	7748
즮	7749
즯	7750
즰	7751
즱	7752
즲	7753
즳	7754
즴	7755
즵	7756
즶	7757
즷	7758
즸	7759
즹	7760
즺	7761
즻	7762
즼	7763
즽	7764
즾	7765
즿	7766
지	7767
직	7768
짂	7769
짃	7770
진	7771
짅	7772
짆	7773
짇	7774
질	7775
짉	7776
짊	7777
짋	7778
짌	7779
짍	7780
짎	7781
짏	7782
짐	7783
집	7784
짒	7785
짓	7786
짔	7787
징	7788
짖	7789
짗	7790
짘	7791
짙	7792
짚	7793
짛	7794
짜	7795
짝	7796
짞	7797
짟	7798
짠	7799
짡	7800
짢	7801
짣	7802
짤	7803
짥	7804
짦	7805
짧	7806
짨	7807
짩	7808
짪	7809
짫	7810
짬	7811
짭	7812
짮	7813
짯	7814
짰	7815
짱	7816
짲	7817
짳	7818
짴	7819
짵	7820
짶	7821
짷	7822
째	7823
짹	7824
짺	7825
짻	7826
짼	7827
짽	7828
짾	7829
짿	7830
쨀	7831
쨁	7832
쨂	7833
쨃	7834
쨄	7835
쨅	7836
쨆	7837
쨇	7838
쨈	7839
쨉	7840
쨊	7841
쨋	7842
쨌	7843
쨍	7844
쨎	7845
쨏	7846
쨐	7847
쨑	7848
쨒	7849
쨓	7850
쨔	7851
쨕	7852
쨖	7853
쨗	7854
쨘	7855
쨙	7856
쨚	7857
쨛	7858
쨜	7859
쨝	7860
쨞	7861
쨟	7862
쨠	7863
쨡	7864
쨢	7865
쨣	7866
쨤	7867
쨥	7868
쨦	7869
쨧	7870
쨨	7871
쨩	7872
쨪	7873
쨫	7874
쨬	7875
쨭	7876
쨮	7877
쨯	7878
쨰	7879
쨱	7880
쨲	7881
쨳	7882
쨴	7883
쨵	7884
쨶	7885
쨷	7886
쨸	7887
쨹	7888
쨺	7889
쨻	7890
쨼	7891
쨽	7892
쨾	7893
쨿	7894
쩀	7895
쩁	7896
쩂	7897
쩃	7898
쩄	7899
쩅	7900
쩆	7901
쩇	7902
쩈	7903
쩉	7904
쩊	7905
쩋	7906
쩌	7907
쩍	7908
쩎	7909
쩏	7910
쩐	7911
쩑	7912
쩒	7913
쩓	7914
쩔	7915
쩕	7916
쩖	7917
쩗	7918
쩘	7919
쩙	7920
쩚	7921
쩛	7922
쩜	7923
쩝	7924
쩞	7925
쩟	7926
쩠	7927
쩡	7928
쩢	7929
쩣	7930
쩤	7931
쩥	7932
쩦	7933
쩧	7934
쩨	7935
쩩	7936
쩪	7937
쩫	7938
쩬	7939
쩭	7940
쩮	7941
쩯	7942
쩰	7943
쩱	7944
쩲	7945
쩳	7946
쩴	7947
쩵	7948
쩶	7949
쩷	7950
쩸	7951
쩹	7952
쩺	7953
쩻	7954
쩼	7955
쩽	7956
쩾	7957
쩿	7958
쪀	7959
쪁	7960
쪂	7961
쪃	7962
쪄	7963
쪅	7964
쪆	7965
쪇	7966
쪈	7967
쪉	7968
쪊	7969
쪋	7970
쪌	7971
쪍	7972
쪎	7973
쪏	7974
쪐	7975
쪑	7976
쪒	7977
쪓	7978
쪔	7979
쪕	7980
쪖	7981
쪗	7982
쪘	7983
쪙	7984
쪚	7985
쪛	7986
쪜	7987
쪝	7988
쪞	7989
쪟	7990
쪠	7991
쪡	7992
쪢	7993
쪣	7994
쪤	7995
쪥	7996
쪦	7997
쪧	7998
쪨	7999
쪩	8000
쪪	8001
쪫	8002
쪬	8003
쪭	8004
쪮	8005
쪯	8006
쪰	8007
쪱	8008
쪲	8009
쪳	8010
쪴	8011
쪵	8012
쪶	8013
쪷	8014
쪸	8015
쪹	8016
쪺	8017
쪻	8018
쪼	8019
쪽	8020
쪾	8021
쪿	8022
쫀	8023
쫁	8024
쫂	8025
쫃	8026
쫄	8027
쫅	8028
쫆	8029
쫇	8030
쫈	8031
쫉	8032
쫊	8033
쫋	8034
쫌	8035
쫍	8036
쫎	8037
쫏	8038
쫐	8039
쫑	8040
쫒	8041
쫓	8042
쫔	8043
쫕	8044
쫖	8045
쫗	8046
쫘	8047
쫙	8048
쫚	8049
쫛	8050
쫜	8051
쫝	8052
쫞	8053
쫟	8054
쫠	8055
쫡	8056
쫢	8057
쫣	8058
쫤	8059
쫥	8060
쫦	8061
쫧	8062
쫨	8063
쫩	8064
쫪	8065
쫫	8066
쫬	8067
쫭	8068
쫮	8069
쫯	8070
쫰	8071
쫱	8072
쫲	8073
쫳	8074
쫴	8075
쫵	8076
쫶	8077
쫷	8078
쫸	8079
쫹	8080
쫺	8081
쫻	8082
쫼	8083
쫽	8084
쫾	8085
쫿	8086
쬀	8087
쬁	8088
쬂	8089
쬃	8090
쬄	8091
쬅	8092
쬆	8093
쬇	8094
쬈	8095
쬉	8096
쬊	8097
쬋	8098
쬌	8099
쬍	8100
쬎	8101
쬏	8102
쬐	8103
쬑	8104
쬒	8105
쬓	8106
쬔	8107
쬕	8108
쬖	8109
쬗	8110
쬘	8111
쬙	8112
쬚	8113
쬛	8114
쬜	8115
쬝	8116
쬞	8117
쬟	8118
쬠	8119
쬡	8120
쬢	8121
쬣	8122
쬤	8123
쬥	8124
쬦	8125
쬧	8126
쬨	8127
쬩	8128
쬪	8129
쬫	8130
쬬	8131
쬭	8132
쬮	8133
쬯	8134
쬰	8135
쬱	8136
쬲	8137
쬳	8138
쬴	8139
쬵	8140
쬶	8141
쬷	8142
쬸	8143
쬹	8144
쬺	8145
쬻	8146
쬼	8147
쬽	8148
쬾	8149
쬿	8150
쭀	8151
쭁	8152
쭂	8153
쭃	8154
쭄	8155
쭅	8156
쭆	8157
쭇	8158
쭈	8159
쭉	8160
쭊	8161
쭋	8162
쭌	8163
쭍	8164
쭎	8165
쭏	8166
쭐	8167
쭑	8168
쭒	8169
쭓	8170
쭔	8171
쭕	8172
쭖	8173
쭗	8174
쭘	8175
쭙	8176
쭚	8177
쭛	8178
쭜	8179
쭝	8180
쭞	8181
쭟	8182
쭠	8183
쭡	8184
쭢	8185
쭣	8186
쭤	8187
쭥	8188
쭦	8189
쭧	8190
쭨	8191
쭩	8192
쭪	8193
쭫	8194
쭬	8195
쭭	8196
쭮	8197
쭯	8198
쭰	8199
쭱	8200
쭲	8201
쭳	8202
쭴	8203
쭵	8204
쭶	8205
쭷	8206
쭸	8207
쭹	8208
쭺	8209
쭻	8210
쭼	8211
쭽	8212
쭾	8213
쭿	8214
쮀	8215
쮁	8216
쮂	8217
쮃	8218
쮄	8219
쮅	8220
쮆	8221
쮇	8222
쮈	8223
쮉	8224
쮊	8225
쮋	8226
쮌	8227
쮍	8228
쮎	8229
쮏	8230
쮐	8231
쮑	8232
쮒	8233
쮓	8234
쮔	8235
쮕	8236
쮖	8237
쮗	8238
쮘	8239
쮙	8240
쮚	8241
쮛	8242
쮜	8243
쮝	8244
쮞	8245
쮟	8246
쮠	8247
쮡	8248
쮢	8249
쮣	8250
쮤	8251
쮥	8252
쮦	8253
쮧	8254
쮨	8255
쮩	8256
쮪	8257
쮫	8258
쮬	8259
쮭	8260
쮮	8261
쮯	8262
쮰	8263
쮱	8264
쮲	8265
쮳	8266
쮴	8267
쮵	8268
쮶	8269
쮷	8270
쮸	8271
쮹	8272
쮺	8273
쮻	8274
쮼	8275
쮽	8276
쮾	8277
쮿	8278
쯀	8279
쯁	8280
쯂	8281
쯃	8282
쯄	8283
쯅	8284
쯆	8285
쯇	8286
쯈	8287
쯉	8288
쯊	8289
쯋	8290
쯌	8291
쯍	8292
쯎	8293
쯏	8294
쯐	8295
쯑	8296
쯒	8297
쯓	8298
쯔	8299
쯕	8300
쯖	8301
쯗	8302
쯘	8303
쯙	8304
쯚	8305
쯛	8306
쯜	8307
쯝	8308
쯞	8309
쯟	8310
쯠	8311
쯡	8312
쯢	8313
쯣	8314
쯤	8315
쯥	8316
쯦	8317
쯧	8318
쯨	8319
쯩	8320
쯪	8321
쯫	8322
쯬	8323
쯭	8324
쯮	8325
쯯	8326
쯰	8327
쯱	8328
쯲	8329
쯳	8330
쯴	8331
쯵	8332
쯶	8333
쯷	8334
쯸	8335
쯹	8336
쯺	8337
쯻	8338
쯼	8339
쯽	8340
쯾	8341
쯿	8342
찀	8343
찁	8344
찂	8345
찃	8346
찄	8347
찅	8348
찆	8349
찇	8350
찈	8351
찉	8352
찊	8353
찋	8354
찌	8355
찍	8356
찎	8357
찏	8358
찐	8359
찑	8360
찒	8361
찓	8362
찔	8363
찕	8364
찖	8365
찗	8366
찘	8367
찙	8368
찚	8369
찛	8370
찜	8371
찝	8372
찞	8373
찟	8374
찠	8375
찡	8376
찢	8377
찣	8378
찤	8379
찥	8380
찦	8381
찧	8382
차	8383
착	8384
찪	8385
찫	8386
찬	8387
찭	8388
찮	8389
찯	8390
찰	8391
찱	8392
찲	8393
찳	8394
찴	8395
찵	8396
찶	8397
찷	8398
참	8399
찹	8400
찺	8401
찻	8402
찼	8403
창	8404
찾	8405
찿	8406
챀	8407
챁	8408
챂	8409
챃	8410
채	8411
책	8412
챆	8413
챇	8414
챈	8415
챉	8416
챊	8417
챋	8418
챌	8419
챍	8420
챎	8421
챏	8422
챐	8423
챑	8424
챒	8425
챓	8426
챔	8427
챕	8428
챖	8429
챗	8430
챘	8431
챙	8432
챚	8433
챛	8434
챜	8435
챝	8436
챞	8437
챟	8438
챠	8439
챡	8440
챢	8441
챣	8442
챤	8443
챥	8444
챦	8445
챧	8446
챨	8447
챩	8448
챪	8449
챫	8450
챬	8451
챭	8452
챮	8453
챯	8454
챰	8455
챱	8456
챲	8457
챳	8458
챴	8459
챵	8460
챶	8461
챷	8462
챸	8463
챹	8464
챺	8465
챻	8466
챼	8467
챽	8468
챾	8469
챿	8470
첀	8471
첁	8472
첂	8473
첃	8474
첄	8475
첅	8476
첆	8477
첇	8478
첈	8479
첉	8480
첊	8481
첋	8482
첌	8483
첍	8484
첎	8485
첏	8486
첐	8487
첑	8488
첒	8489
첓	8490
첔	8491
첕	8492
첖	8493
첗	8494
처	8495
척	8496
첚	8497
첛	8498
천	8499
첝	8500
첞	8501
첟	8502
철	8503
첡	8504
첢	8505
첣	8506
첤	8507
첥	8508
첦	8509
첧	8510
첨	8511
첩	8512
첪	8513
첫	8514
첬	8515
청	8516
첮	8517
첯	8518
첰	8519
첱	8520
첲	8521
첳	8522
체	8523
첵	8524
첶	8525
첷	8526
첸	8527
첹	8528
첺	8529
첻	8530
첼	8531
첽	8532
첾	8533
첿	8534
쳀	8535
쳁	8536
쳂	8537
쳃	8538
쳄	8539
쳅	8540
쳆	8541
쳇	8542
쳈	8543
쳉	8544
쳊	8545
쳋	8546
쳌	8547
쳍	8548
쳎	8549
쳏	8550
쳐	8551
쳑	8552
쳒	8553
쳓	8554
쳔	8555
쳕	8556
쳖	8557
쳗	8558
쳘	8559
쳙	8560
쳚	8561
쳛	8562
쳜	8563
쳝	8564
쳞	8565
쳟	8566
쳠	8567
쳡	8568
쳢	8569
쳣	8570
쳤	8571
쳥	8572
쳦	8573
쳧	8574
쳨	8575
쳩	8576
쳪	8577
쳫	8578
쳬	8579
쳭	8580
쳮	8581
쳯	8582
쳰	8583
쳱	8584
쳲	8585
쳳	8586
쳴	8587
쳵	8588
쳶	8589
쳷	8590
쳸	8591
쳹	8592
쳺	8593
쳻	8594
쳼	8595
쳽	8596
쳾	8597
쳿	8598
촀	8599
촁	8600
촂	8601
촃	8602
촄	8603
촅	8604
촆	8605
촇	8606
초	8607
촉	8608
촊	8609
촋	8610
촌	8611
촍	8612
촎	8613
촏	8614
촐	8615
촑	8616
촒	8617
촓	8618
촔	8619
촕	8620
촖	8621
촗	8622
촘	8623
촙	8624
촚	8625
촛	8626
촜	8627
총	8628
촞	8629
촟	8630
촠	8631
촡	8632
촢	8633
촣	8634
촤	8635
촥	8636
촦	8637
촧	8638
촨	8639
촩	8640
촪	8641
촫	8642
촬	8643
촭	8644
촮	8645
촯	8646
촰	8647
촱	8648
촲	8649
촳	8650
촴	8651
촵	8652
촶	8653
촷	8654
촸	8655
촹	8656
촺	8657
촻	8658
촼	8659
촽	8660
촾	8661
촿	8662
쵀	8663
쵁	8664
쵂	8665
쵃	8666
쵄	8667
쵅	8668
쵆	8669
쵇	8670
쵈	8671
쵉	8672
쵊	8673
쵋	8674
쵌	8675
쵍	8676
쵎	8677
쵏	8678
쵐	8679
쵑	8680
쵒	8681
쵓	8682
쵔	8683
쵕	8684
쵖	8685
쵗	8686
쵘	8687
쵙	8688
쵚	8689
쵛	8690
최	8691
쵝	8692
쵞	8693
쵟	8694
쵠	8695
쵡	8696
쵢	8697
쵣	8698
쵤	8699
쵥	8700
쵦	8701
쵧	8702
쵨	8703
쵩	8704
쵪	8705
쵫	8706
쵬	8707
쵭	8708
쵮	8709
쵯	8710
쵰	8711
쵱	8712
쵲	8713
쵳	8714
쵴	8715
쵵	8716
쵶	8717
쵷	8718
쵸	8719
쵹	8720
쵺	8721
쵻	8722
쵼	8723
쵽	8724
쵾	8725
쵿	8726
춀	8727
춁	8728
춂	8729
춃	8730
춄	8731
춅	8732
춆	8733
춇	8734
춈	8735
춉	8736
춊	8737
춋	8738
춌	8739
춍	8740
춎	8741
춏	8742
춐	8743
춑	8744
춒	8745
춓	8746
추	8747
축	8748
춖	8749
춗	8750
춘	8751
춙	8752
춚	8753
춛	8754
출	8755
춝	8756
춞	8757
춟	8758
춠	8759
춡	8760
춢	8761
춣	8762
춤	8763
춥	8764
춦	8765
춧	8766
춨	8767
충	8768
춪	8769
춫	8770
춬	8771
춭	8772
춮	8773
춯	8774
춰	8775
춱	8776
춲	8777
춳	8778
춴	8779
춵	8780
춶	8781
춷	8782
춸	8783
춹	8784
춺	8785
춻	8786
춼	8787
춽	8788
춾	8789
춿	8790
췀	8791
췁	8792
췂	8793
췃	8794
췄	8795
췅	8796
췆	8797
췇	8798
췈	8799
췉	8800
췊	8801
췋	8802
췌	8803
췍	8804
췎	8805
췏	8806
췐	8807
췑	8808
췒	8809
췓	8810
췔	8811
췕	8812
췖	8813
췗	8814
췘	8815
췙	8816
췚	8817
췛	8818
췜	8819
췝	8820
췞	8821
췟	8822
췠	8823
췡	8824
췢	8825
췣	8826
췤	8827
췥	8828
췦	8829
췧	8830
취	8831
췩	8832
췪	8833
췫	8834
췬	8835
췭	8836
췮	8837
췯	8838
췰	8839
췱	8840
췲	8841
췳	8842
췴	8843
췵	8844
췶	8845
췷	8846
췸	8847
췹	8848
췺	8849
췻	8850
췼	8851
췽	8852
췾	8853
췿	8854
츀	8855
츁	8856
츂	8857
츃	8858
츄	8859
츅	8860
츆	8861
츇	8862
츈	8863
츉	8864
츊	8865
츋	8866
츌	8867
츍	8868
츎	8869
츏	8870
츐	8871
츑	8872
츒	8873
츓	8874
츔	8875
츕	8876
츖	8877
츗	8878
츘	8879
츙	8880
츚	8881
츛	8882
츜	8883
츝	8884
츞	8885
츟	8886
츠	8887
측	8888
츢	8889
츣	8890
츤	8891
츥	8892
츦	8893
츧	8894
츨	8895
츩	8896
츪	8897
츫	8898
츬	8899
츭	8900
츮	8901
츯	8902
츰	8903
츱	8904
츲	8905
츳	8906
츴	8907
층	8908
츶	8909
츷	8910
츸	8911
츹	8912
츺	8913
츻	8914
츼	8915
츽	8916
츾	8917
츿	8918
칀	8919
칁	8920
칂	8921
칃	8922
칄	8923
칅	8924
칆	8925
칇	8926
칈	8927
칉	8928
칊	8929
칋	8930
칌	8931
칍	8932
칎	8933
칏	8934
칐	8935
칑	8936
칒	8937
칓	8938
칔	8939
칕	8940
칖	8941
칗	8942
치	8943
칙	8944
칚	8945
칛	8946
친	8947
칝	8948
칞	8949
칟	8950
칠	8951
칡	8952
칢	8953
칣	8954
칤	8955
칥	8956
칦	8957
칧	8958
침	8959
칩	8960
칪	8961
칫	8962
칬	8963
칭	8964
칮	8965
칯	8966
칰	8967
칱	8968
칲	8969
칳	8970
카	8971
칵	8972
칶	8973
칷	8974
칸	8975
칹	8976
칺	8977
칻	8978
칼	8979
칽	8980
칾	8981
칿	8982
캀	8983
캁	8984
캂	8985
캃	8986
캄	8987
캅	8988
캆	8989
캇	8990
캈	8991
캉	8992
캊	8993
캋	8994
캌	8995
캍	8996
캎	8997
캏	8998
캐	8999
캑	9000
캒	9001
캓	9002
캔	9003
캕	9004
캖	9005
캗	9006
캘	9007
캙	9008
캚	9009
캛	9010
캜	9011
캝	9012
캞	9013
캟	9014
캠	9015
캡	9016
캢	9017
캣	9018
캤	9019
캥	9020
캦	9021
캧	9022
캨	9023
캩	9024
캪	9025
캫	9026
캬	9027
캭	9028
캮	9029
캯	9030
캰	9031
캱	9032
캲	9033
캳	9034
캴	9035
캵	9036
캶	9037
캷	9038
캸	9039
캹	9040
캺	9041
캻	9042
캼	9043
캽	9044
캾	9045
캿	9046
컀	9047
컁	9048
컂	9049
컃	9050
컄	9051
컅	9052
컆	9053
컇	9054
컈	9055
컉	9056
컊	9057
컋	9058
컌	9059
컍	9060
컎	9061
컏	9062
컐	9063
컑	9064
컒	9065
컓	9066
컔	9067
컕	9068
컖	9069
컗	9070
컘	9071
컙	9072
컚	9073
컛	9074
컜	9075
컝	9076
컞	9077
컟	9078
컠	9079
컡	9080
컢	9081
컣	9082
커	9083
컥	9084
컦	9085
컧	9086
컨	9087
컩	9088
컪	9089
컫	9090
컬	9091
컭	9092
컮	9093
컯	9094
컰	9095
컱	9096
컲	9097
컳	9098
컴	9099
컵	9100
컶	9101
컷	9102
컸	9103
컹	9104
컺	9105
컻	9106
컼	9107
컽	9108
컾	9109
컿	9110
케	9111
켁	9112
켂	9113
켃	9114
켄	9115
켅	9116
켆	9117
켇	9118
켈	9119
켉	9120
켊	9121
켋	9122
켌	9123
켍	9124
켎	9125
켏	9126
켐	9127
켑	9128
켒	9129
켓	9130
켔	9131
켕	9132
켖	9133
켗	9134
켘	9135
켙	9136
켚	9137
켛	9138
켜	9139
켝	9140
켞	9141
켟	9142
켠	9143
켡	9144
켢	9145
켣	9146
켤	9147
켥	9148
켦	9149
켧	9150
켨	9151
켩	9152
켪	9153
켫	9154
켬	9155
켭	9156
켮	9157
켯	9158
켰	9159
켱	9160
켲	9161
켳	9162
켴	9163
켵	9164
켶	9165
켷	9166
켸	9167
켹	9168
켺	9169
켻	9170
켼	9171
켽	9172
켾	9173
켿	9174
콀	9175
콁	9176
콂	9177
콃	9178
콄	9179
콅	9180
콆	9181
콇	9182
콈	9183
콉	9184
콊	9185
콋	9186
콌	9187
콍	9188
콎	9189
콏	9190
콐	9191
콑	9192
콒	9193
콓	9194
코	9195
콕	9196
콖	9197
콗	9198
콘	9199
콙	9200
콚	9201
콛	9202
콜	9203
콝	9204
콞	9205
콟	9206
콠	9207
콡	9208
콢	9209
콣	9210
콤	9211
콥	9212
콦	9213
콧	9214
콨	9215
콩	9216
콪	9217
콫	9218
콬	9219
콭	9220
콮	9221
콯	9222
콰	9223
콱	9224
콲	9225
콳	9226
콴	9227
콵	9228
콶	9229
콷	9230
콸	9231
콹	9232
콺	9233
콻	9234
콼	9235
콽	9236
콾	9237
콿	9238
쾀	9239
쾁	9240
쾂	9241
쾃	9242
쾄	9243
쾅	9244
쾆	9245
쾇	9246
쾈	9247
쾉	9248
쾊	9249
쾋	9250
쾌	9251
쾍	9252
쾎	9253
쾏	9254
쾐	9255
쾑	9256
쾒	9257
쾓	9258
쾔	9259
쾕	9260
쾖	9261
쾗	9262
쾘	9263
쾙	9264
쾚	9265
쾛	9266
쾜	9267
쾝	9268
쾞	9269
쾟	9270
쾠	9271
쾡	9272
쾢	9273
쾣	9274
쾤	9275
쾥	9276
쾦	9277
쾧	9278
쾨	9279
쾩	9280
쾪	9281
쾫	9282
쾬	9283
쾭	9284
쾮	9285
쾯	9286
쾰	9287
쾱	9288
쾲	9289
쾳	9290
쾴	9291
쾵	9292
쾶	9293
쾷	9294
쾸	9295
쾹	9296
쾺	9297
쾻	9298
쾼	9299
쾽	9300
쾾	9301
쾿	9302
쿀	9303
쿁	9304
쿂	9305
쿃	9306
쿄	9307
쿅	9308
쿆	9309
쿇	9310
쿈	9311
쿉	9312
쿊	9313
쿋	9314
쿌	9315
쿍	9316
쿎	9317
쿏	9318
쿐	9319
쿑	9320
쿒	9321
쿓	9322
쿔	9323
쿕	9324
쿖	9325
쿗	9326
쿘	9327
쿙	9328
쿚	9329
쿛	9330
쿜	9331
쿝	9332
쿞	9333
쿟	9334
쿠	9335
쿡	9336
쿢	9337
쿣	9338
쿤	9339
쿥	9340
쿦	9341
쿧	9342
쿨	9343
쿩	9344
쿪	9345
쿫	9346
쿬	9347
쿭	9348
쿮	9349
쿯	9350
쿰	9351
쿱	9352
쿲	9353
쿳	9354
쿴	9355
쿵	9356
쿶	9357
쿷	9358
쿸	9359
쿹	9360
쿺	9361
쿻	9362
쿼	9363
쿽	9364
쿾	9365
쿿	9366
퀀	9367
퀁	9368
퀂	9369
퀃	9370
퀄	9371
퀅	9372
퀆	9373
퀇	9374
퀈	9375
퀉	9376
퀊	9377
퀋	9378
퀌	9379
퀍	9380
퀎	9381
퀏	9382
퀐	9383
퀑	9384
퀒	9385
퀓	9386
퀔	9387
퀕	9388
퀖	9389
퀗	9390
퀘	9391
퀙	9392
퀚	9393
퀛	9394
퀜	9395
퀝	9396
퀞	9397
퀟	9398
퀠	9399
퀡	9400
퀢	9401
퀣	9402
퀤	9403
퀥	9404
퀦	9405
퀧	9406
퀨	9407
퀩	9408
퀪	9409
퀫	9410
퀬	9411
퀭	9412
퀮	9413
퀯	9414
퀰	9415
퀱	9416
퀲	9417
퀳	9418
퀴	9419
퀵	9420
퀶	9421
퀷	9422
퀸	9423
퀹	9424
퀺	9425
퀻	9426
퀼	9427
퀽	9428
퀾	9429
퀿	9430
큀	9431
큁	9432
큂	9433
큃	9434
큄	9435
큅	9436
큆	9437
큇	9438
큈	9439
큉	9440
큊	9441
큋	9442
큌	9443
큍	9444
큎	9445
큏	9446
큐	9447
큑	9448
큒	9449
큓	9450
큔	9451
큕	9452
큖	9453
큗	9454
큘	9455
큙	9456
큚	9457
큛	9458
큜	9459
큝	9460
큞	9461
큟	9462
큠	9463
큡	9464
큢	9465
큣	9466
큤	9467
큥	9468
큦	9469
큧	9470
큨	9471
큩	9472
큪	9473
큫	9474
크	9475
큭	9476
큮	9477
큯	9478
큰	9479
큱	9480
큲	9481
큳	9482
클	9483
큵	9484
큶	9485
큷	9486
큸	9487
큹	9488
큺	9489
큻	9490
큼	9491
큽	9492
큾	9493
큿	9494
킀	9495
킁	9496
킂	9497
킃	9498
킄	9499
킅	9500
킆	9501
킇	9502
킈	9503
킉	9504
킊	9505
킋	9506
킌	9507
킍	9508
킎	9509
킏	9510
킐	9511
킑	9512
킒	9513
킓	9514
킔	9515
킕	9516
킖	9517
킗	9518
킘	9519
킙	9520
킚	9521
킛	9522
킜	9523
킝	9524
킞	9525
킟	9526
킠	9527
킡	9528
킢	9529
킣	9530
키	9531
킥	9532
킦	9533
킧	9534
킨	9535
킩	9536
킪	9537
킫	9538
킬	9539
킭	9540
킮	9541
킯	9542
킰	9543
킱	9544
킲	9545
킳	9546
킴	9547
킵	9548
킶	9549
킷	9550
킸	9551
킹	9552
킺	9553
킻	9554
킼	9555
킽	9556
킾	9557
킿	9558
타	9559
탁	9560
탂	9561
탃	9562
탄	9563
탅	9564
탆	9565
탇	9566
탈	9567
탉	9568
탊	9569
탋	9570
탌	9571
탍	9572
탎	9573
탏	9574
탐	9575
탑	9576
탒	9577
탓	9578
탔	9579
탕	9580
탖	9581
탗	9582
탘	9583
탙	9584
탚	9585
탛	9586
태	9587
택	9588
탞	9589
탟	9590
탠	9591
탡	9592
탢	9593
탣	9594
탤	9595
탥	9596
탦	9597
탧	9598
탨	9599
탩	9600
탪	9601
탫	9602
탬	9603
탭	9604
탮	9605
탯	9606
탰	9607
탱	9608
탲	9609
탳	9610
탴	9611
탵	9612
탶	9613
탷	9614
탸	9615
탹	9616
탺	9617
탻	9618
탼	9619
탽	9620
탾	9621
탿	9622
턀	9623
턁	9624
턂	9625
턃	9626
턄	9627
턅	9628
턆	9629
턇	9630
턈	9631
턉	9632
턊	9633
턋	9634
턌	9635
턍	9636
턎	9637
턏	9638
턐	9639
턑	9640
턒	9641
턓	9642
턔	9643
턕	9644
턖	9645
턗	9646
턘	9647
턙	9648
턚	9649
턛	9650
턜	9651
턝	9652
턞	9653
턟	9654
턠	9655
턡	9656
턢	9657
턣	9658
턤	9659
턥	9660
턦	9661
턧	9662
턨	9663
턩	9664
턪	9665
턫	9666
턬	9667
턭	9668
턮	9669
턯	9670
터	9671
턱	9672
턲	9673
턳	9674
턴	9675
턵	9676
턶	9677
턷	9678
털	9679
턹	9680
턺	9681
턻	9682
턼	9683
턽	9684
턾	9685
턿	9686
텀	9687
텁	9688
텂	9689
텃	9690
텄	9691
텅	9692
텆	9693
텇	9694
텈	9695
텉	9696
텊	9697
텋	9698
테	9699
텍	9700
텎	9701
텏	9702
텐	9703
텑	9704
텒	9705
텓	9706
텔	9707
텕	9708
텖	9709
텗	9710
텘	9711
텙	9712
텚	9713
텛	9714
템	9715
텝	9716
텞	9717
텟	9718
텠	9719
텡	9720
텢	9721
텣	9722
텤	9723
텥	9724
텦	9725
텧	9726
텨	9727
텩	9728
텪	9729
텫	9730
텬	9731
텭	9732
텮	9733
텯	9734
텰	9735
텱	9736
텲	9737
텳	9738
텴	9739
텵	9740
텶	9741
텷	9742
텸	9743
텹	9744
텺	9745
텻	9746
텼	9747
텽	9748
텾	9749
텿	9750
톀	9751
톁	9752
톂	9753
톃	9754
톄	9755
톅	9756
톆	9757
톇	9758
톈	9759
톉	9760
톊	9761
톋	9762
톌	9763
톍	9764
톎	9765
톏	9766
톐	9767
톑	9768
톒	9769
톓	9770
톔	9771
톕	9772
톖	9773
톗	9774
톘	9775
톙	9776
톚	9777
톛	9778
톜	9779
톝	9780
톞	9781
톟	9782
토	9783
톡	9784
톢	9785
톣	9786
톤	9787
톥	9788
톦	9789
톧	9790
톨	9791
톩	9792
톪	9793
톫	9794
톬	9795
톭	9796
톮	9797
톯	9798
톰	9799
톱	9800
톲	9801
톳	9802
톴	9803
통	9804
톶	9805
톷	9806
톸	9807
톹	9808
톺	9809
톻	9810
톼	9811
톽	9812
톾	9813
톿	9814
퇀	9815
퇁	9816
퇂	9817
퇃	9818
퇄	9819
퇅	9820
퇆	9821
퇇	9822
퇈	9823
퇉	9824
퇊	9825
퇋	9826
퇌	9827
퇍	9828
퇎	9829
퇏	9830
퇐	9831
퇑	9832
퇒	9833
퇓	9834
퇔	9835
퇕	9836
퇖	9837
퇗	9838
퇘	9839
퇙	9840
퇚	9841
퇛	9842
퇜	9843
퇝	9844
퇞	9845
퇟	9846
퇠	9847
퇡	9848
퇢	9849
퇣	9850
퇤	9851
퇥	9852
퇦	9853
퇧	9854
퇨	9855
퇩	9856
퇪	9857
퇫	9858
퇬	9859
퇭	9860
퇮	9861
퇯	9862
퇰	9863
퇱	9864
퇲	9865
퇳	9866
퇴	9867
퇵	9868
퇶	9869
퇷	9870
퇸	9871
퇹	9872
퇺	9873
퇻	9874
퇼	9875
퇽	9876
퇾	9877
퇿	9878
툀	9879
툁	9880
툂	9881
툃	9882
툄	9883
툅	9884
툆	9885
툇	9886
툈	9887
툉	9888
툊	9889
툋	9890
툌	9891
툍	9892
툎	9893
툏	9894
툐	9895
툑	9896
툒	9897
툓	9898
툔	9899
툕	9900
툖	9901
툗	9902
툘	9903
툙	9904
툚	9905
툛	9906
툜	9907
툝	9908
툞	9909
툟	9910
툠	9911
툡	9912
툢	9913
툣	9914
툤	9915
툥	9916
툦	9917
툧	9918
툨	9919
툩	9920
툪	9921
툫	9922
투	9923
툭	9924
툮	9925
툯	9926
툰	9927
툱	9928
툲	9929
툳	9930
툴	9931
툵	9932
툶	9933
툷	9934
툸	9935
툹	9936
툺	9937
툻	9938
툼	9939
툽	9940
툾	9941
툿	9942
퉀	9943
퉁	9944
퉂	9945
퉃	9946
퉄	9947
퉅	9948
퉆	9949
퉇	9950
퉈	9951
퉉	9952
퉊	9953
퉋	9954
퉌	9955
퉍	9956
퉎	9957
퉏	9958
퉐	9959
퉑	9960
퉒	9961
퉓	9962
퉔	9963
퉕	9964
퉖	9965
퉗	9966
퉘	9967
퉙	9968
퉚	9969
퉛	9970
퉜	9971
퉝	9972
퉞	9973
퉟	9974
퉠	9975
퉡	9976
퉢	9977
퉣	9978
퉤	9979
퉥	9980
퉦	9981
퉧	9982
퉨	9983
퉩	9984
퉪	9985
퉫	9986
퉬	9987
퉭	9988
퉮	9989
퉯	9990
퉰	9991
퉱	9992
퉲	9993
퉳	9994
퉴	9995
퉵	9996
퉶	9997
퉷	9998
퉸	9999
퉹	10000
퉺	10001
퉻	10002
퉼	10003
퉽	10004
퉾	10005
퉿	10006
튀	10007
튁	10008
튂	10009
튃	10010
튄	10011
튅	10012
튆	10013
튇	10014
튈	10015
튉	10016
튊	10017
튋	10018
튌	10019
튍	10020
튎	10021
튏	10022
튐	10023
튑	10024
튒	10025
튓	10026
튔	10027
튕	10028
튖	10029
튗	10030
튘	10031
튙	10032
튚	10033
튛	10034
튜	10035
튝	10036
튞	10037
튟	10038
튠	10039
튡	10040
튢	10041
튣	10042
튤	10043
튥	10044
튦	10045
튧	10046
튨	10047
튩	10048
튪	10049
튫	10050
튬	10051
튭	10052
튮	10053
튯	10054
튰	10055
튱	10056
튲	10057
튳	10058
튴	10059
튵	10060
튶	10061
튷	10062
트	10063
특	10064
튺	10065
튻	10066
튼	10067
튽	10068
튾	10069
튿	10070
틀	10071
틁	10072
틂	10073
틃	10074
틄	10075
틅	10076
틆	10077
틇	10078
틈	10079
틉	10080
틊	10081
틋	10082
틌	10083
틍	10084
틎	10085
틏	10086
틐	10087
틑	10088
틒	10089
틓	10090
틔	10091
틕	10092
틖	10093
틗	10094
틘	10095
틙	10096
틚	10097
틛	10098
틜	10099
틝	10100
틞	10101
틟	10102
틠	10103
틡	10104
틢	10105
틣	10106
틤	10107
틥	10108
틦	10109
틧	10110
틨	10111
틩	10112
틪	10113
틫	10114
틬	10115
틭	10116
틮	10117
틯	10118
티	10119
틱	10120
틲	10121
틳	10122
틴	10123
틵	10124
틶	10125
틷	10126
틸	10127
틹	10128
틺	10129
틻	10130
틼	10131
틽	10132
틾	10133
틿	10134
팀	10135
팁	10136
팂	10137
팃	10138
팄	10139
팅	10140
팆	10141
팇	10142
팈	10143
팉	10144
팊	10145
팋	10146
파	10147
팍	10148
팎	10149
팏	10150
판	10151
팑	10152
팒	10153
팓	10154
팔	10155
팕	10156
팖	10157
팗	10158
팘	10159
팙	10160
팚	10161
팛	10162
팜	10163
팝	10164
팞	10165
팟	10166
팠	10167
팡	10168
팢	10169
팣	10170
팤	10171
팥	10172
팦	10173
팧	10174
패	10175
팩	10176
팪	10177
팫	10178
팬	10179
팭	10180
팮	10181
팯	10182
팰	10183
팱	10184
팲	10185
팳	10186
팴	10187
팵	10188
팶	10189
팷	10190
팸	10191
팹	10192
팺	10193
팻	10194
팼	10195
팽	10196
팾	10197
팿	10198
퍀	10199
퍁	10200
퍂	10201
퍃	10202
퍄	10203
퍅	10204
퍆	10205
퍇	10206
퍈	10207
퍉	10208
퍊	10209
퍋	10210
퍌	10211
퍍	10212
퍎	10213
퍏	10214
퍐	10215
퍑	10216
퍒	10217
퍓	10218
퍔	10219
퍕	10220
퍖	10221
퍗	10222
퍘	10223
퍙	10224
퍚	10225
퍛	10226
퍜	10227
퍝	10228
퍞	10229
퍟	10230
퍠	10231
퍡	10232
퍢	10233
퍣	10234
퍤	10235
퍥	10236
퍦	10237
퍧	10238
퍨	10239
퍩	10240
퍪	10241
퍫	10242
퍬	10243
퍭	10244
퍮	10245
퍯	10246
퍰	10247
퍱	10248
퍲	10249
퍳	10250
퍴	10251
퍵	10252
퍶	10253
퍷	10254
퍸	10255
퍹	10256
퍺	10257
퍻	10258
퍼	10259
퍽	10260
퍾	10261
퍿	10262
펀	10263
펁	10264
펂	10265
펃	10266
펄	10267
펅	10268
펆	10269
펇	10270
펈	10271
펉	10272
펊	10273
펋	10274
펌	10275
펍	10276
펎	10277
펏	10278
펐	10279
펑	10280
펒	10281
펓	10282
펔	10283
펕	10284
펖	10285
펗	10286
페	10287
펙	10288
펚	10289
펛	10290
펜	10291
펝	10292
펞	10293
펟	10294
펠	10295
펡	10296
펢	10297
펣	10298
펤	10299
펥	10300
펦	10301
펧	10302
펨	10303
펩	10304
펪	10305
펫	10306
펬	10307
펭	10308
펮	10309
펯	10310
펰	10311
펱	10312
펲	10313
펳	10314
펴	10315
펵	10316
펶	10317
펷	10318
편	10319
펹	10320
펺	10321
펻	10322
펼	10323
펽	10324
펾	10325
펿	10326
폀	10327
폁	10328
폂	10329
폃	10330
폄	10331
폅	10332
폆	10333
폇	10334
폈	10335
평	10336
폊	10337
폋	10338
폌	10339
폍	10340
폎	10341
폏	10342
폐	10343
폑	10344
폒	10345
폓	10346
폔	10347
폕	10348
폖	10349
폗	10350
폘	10351
폙	10352
폚	10353
폛	10354
폜	10355
폝	10356
폞	10357
폟	10358
폠	10359
폡	10360
폢	10361
폣	10362
폤	10363
폥	10364
폦	10365
폧	10366
폨	10367
폩	10368
폪	10369
폫	10370
포	10371
폭	10372
폮	10373
폯	10374
폰	10375
폱	10376
폲	10377
폳	10378
폴	10379
폵	10380
폶	10381
폷	10382
폸	10383
폹	10384
폺	10385
폻	10386
폼	10387
폽	10388
폾	10389
폿	10390
퐀	10391
퐁	10392
퐂	10393
퐃	10394
퐄	10395
퐅	10396
퐆	10397
퐇	10398
퐈	10399
퐉	10400
퐊	10401
퐋	10402
퐌	10403
퐍	10404
퐎	10405
퐏	10406
퐐	10407
퐑	10408
퐒	10409
퐓	10410
퐔	10411
퐕	10412
퐖	10413
퐗	10414
퐘	10415
퐙	10416
퐚	10417
퐛	10418
퐜	10419
퐝	10420
퐞	10421
퐟	10422
퐠	10423
퐡	10424
퐢	10425
퐣	10426
퐤	10427
퐥	10428
퐦	10429
퐧	10430
퐨	10431
퐩	10432
퐪	10433
퐫	10434
퐬	10435
퐭	10436
퐮	10437
퐯	10438
퐰	10439
퐱	10440
퐲	10441
퐳	10442
퐴	10443
퐵	10444
퐶	10445
퐷	10446
퐸	10447
퐹	10448
퐺	10449
퐻	10450
퐼	10451
퐽	10452
퐾	10453
퐿	10454
푀	10455
푁	10456
푂	10457
푃	10458
푄	10459
푅	10460
푆	10461
푇	10462
푈	10463
푉	10464
푊	10465
푋	10466
푌	10467
푍	10468
푎	10469
푏	10470
푐	10471
푑	10472
푒	10473
푓	10474
푔	10475
푕	10476
푖	10477
푗	10478
푘	10479
푙	10480
푚	10481
푛	10482
표	10483
푝	10484
푞	10485
푟	10486
푠	10487
푡	10488
푢	10489
푣	10490
푤	10491
푥	10492
푦	10493
푧	10494
푨	10495
푩	10496
푪	10497
푫	10498
푬	10499
푭	10500
푮	10501
푯	10502
푰	10503
푱	10504
푲	10505
푳	10506
푴	10507
푵	10508
푶	10509
푷	10510
푸	10511
푹	10512
푺	10513
푻	10514
푼	10515
푽	10516
푾	10517
푿	10518
풀	10519
풁	10520
풂	10521
풃	10522
풄	10523
풅	10524
풆	10525
풇	10526
품	10527
풉	10528
풊	10529
풋	10530
풌	10531
풍	10532
풎	10533
풏	10534
풐	10535
풑	10536
풒	10537
풓	10538
풔	10539
풕	10540
풖	10541
풗	10542
풘	10543
풙	10544
풚	10545
풛	10546
풜	10547
풝	10548
풞	10549
풟	10550
풠	10551
풡	10552
풢	10553
풣	10554
풤	10555
풥	10556
풦	10557
풧	10558
풨	10559
풩	10560
풪	10561
풫	10562
풬	10563
풭	10564
풮	10565
풯	10566
풰	10567
풱	10568
풲	10569
풳	10570
풴	10571
풵	10572
풶	10573
풷	10574
풸	10575
풹	10576
풺	10577
풻	10578
풼	10579
풽	10580
풾	10581
풿	10582
퓀	10583
퓁	10584
퓂	10585
퓃	10586
퓄	10587
퓅	10588
퓆	10589
퓇	10590
퓈	10591
퓉	10592
퓊	10593
퓋	10594
퓌	10595
퓍	10596
퓎	10597
퓏	10598
퓐	10599
퓑	10600
퓒	10601
퓓	10602
퓔	10603
퓕	10604
퓖	10605
퓗	10606
퓘	10607
퓙	10608
퓚	10609
퓛	10610
퓜	10611
퓝	10612
퓞	10613
퓟	10614
퓠	10615
퓡	10616
퓢	10617
퓣	10618
퓤	10619
퓥	10620
퓦	10621
퓧	10622
퓨	10623
퓩	10624
퓪	10625
퓫	10626
퓬	10627
퓭	10628
퓮	10629
퓯	10630
퓰	10631
퓱	10632
퓲	10633
퓳	10634
퓴	10635
퓵	10636
퓶	10637
퓷	10638
퓸	10639
퓹	10640
퓺	10641
퓻	10642
퓼	10643
퓽	10644
퓾	10645
퓿	10646
픀	10647
픁	10648
픂	10649
픃	10650
프	10651
픅	10652
픆	10653
픇	10654
픈	10655
픉	10656
픊	10657
픋	10658
플	10659
픍	10660
픎	10661
픏	10662
픐	10663
픑	10664
픒	10665
픓	10666
픔	10667
픕	10668
픖	10669
픗	10670
픘	10671
픙	10672
픚	10673
픛	10674
픜	10675
픝	10676
픞	10677
픟	10678
픠	10679
픡	10680
픢	10681
픣	10682
픤	10683
픥	10684
픦	10685
픧	10686
픨	10687
픩	10688
픪	10689
픫	10690
픬	10691
픭	10692
픮	10693
픯	10694
픰	10695
픱	10696
픲	10697
픳	10698
픴	10699
픵	10700
픶	10701
픷	10702
픸	10703
픹	10704
픺	10705
픻	10706
피	10707
픽	10708
픾	10709
픿	10710
핀	10711
핁	10712
핂	10713
핃	10714
필	10715
핅	10716
핆	10717
핇	10718
핈	10719
핉	10720
핊	10721
핋	10722
핌	10723
핍	10724
핎	10725
핏	10726
핐	10727
핑	10728
핒	10729
핓	10730
핔	10731
핕	10732
핖	10733
핗	10734
하	10735
학	10736
핚	10737
핛	10738
한	10739
핝	10740
핞	10741
핟	10742
할	10743
핡	10744
핢	10745
핣	10746
핤	10747
핥	10748
핦	10749
핧	10750
함	10751
합	10752
핪	10753
핫	10754
핬	10755
항	10756
핮	10757
핯	10758
핰	10759
핱	10760
핲	10761
핳	10762
해	10763
핵	10764
핶	10765
핷	10766
핸	10767
핹	10768
핺	10769
핻	10770
핼	10771
핽	10772
핾	10773
핿	10774
햀	10775
햁	10776
햂	10777
햃	10778
햄	10779
햅	10780
햆	10781
햇	10782
했	10783
행	10784
햊	10785
햋	10786
햌	10787
햍	10788
햎	10789
햏	10790
햐	10791
햑	10792
햒	10793
햓	10794
햔	10795
햕	10796
햖	10797
햗	10798
햘	10799
햙	10800
햚	10801
햛	10802
햜	10803
햝	10804
햞	10805
햟	10806
햠	10807
햡	10808
햢	10809
햣	10810
햤	10811
향	10812
햦	10813
햧	10814
햨	10815
햩	10816
햪	10817
햫	10818
햬	10819
햭	10820
햮	10821
햯	10822
햰	10823
햱	10824
햲	10825
햳	10826
햴	10827
햵	10828
햶	10829
햷	10830
햸	10831
햹	10832
햺	10833
햻	10834
햼	10835
햽	10836
햾	10837
햿	10838
헀	10839
헁	10840
헂	10841
헃	10842
헄	10843
헅	10844
헆	10845
헇	10846
허	10847
헉	10848
헊	10849
헋	10850
헌	10851
헍	10852
헎	10853
헏	10854
헐	10855
헑	10856
헒	10857
헓	10858
헔	10859
헕	10860
헖	10861
헗	10862
험	10863
헙	10864
헚	10865
헛	10866
헜	10867
헝	10868
헞	10869
헟	10870
헠	10871
헡	10872
헢	10873
헣	10874
헤	10875
헥	10876
헦	10877
헧	10878
헨	10879
헩	10880
헪	10881
헫	10882
헬	10883
헭	10884
헮	10885
헯	10886
헰	10887
헱	10888
헲	10889
헳	10890
헴	10891
헵	10892
헶	10893
헷	10894
헸	10895
헹	10896
헺	10897
헻	10898
헼	10899
헽	10900
헾	10901
헿	10902
혀	10903
혁	10904
혂	10905
혃	10906
현	10907
혅	10908
혆	10909
혇	10910
혈	10911
혉	10912
혊	10913
혋	10914
혌	10915
혍	10916
혎	10917
혏	10918
혐	10919
협	10920
혒	10921
혓	10922
혔	10923
형	10924
혖	10925
혗	10926
혘	10927
혙	10928
혚	10929
혛	10930
혜	10931
혝	10932
혞	10933
혟	10934
혠	10935
혡	10936
혢	10937
혣	10938
혤	10939
혥	10940
혦	10941
혧	10942
혨	10943
혩	10944
혪	10945
혫	10946
혬	10947
혭	10948
혮	10949
혯	10950
혰	10951
혱	10952
혲	10953
혳	10954
혴	10955
혵	10956
혶	10957
혷	10958
호	10959
혹	10960
혺	10961
혻	10962
혼	10963
혽	10964
혾	10965
혿	10966
홀	10967
홁	10968
홂	10969
홃	10970
홄	10971
홅	10972
홆	10973
홇	10974
홈	10975
홉	10976
홊	10977
홋	10978
홌	10979
홍	10980
홎	10981
홏	10982
홐	10983
홑	10984
홒	10985
홓	10986
화	10987
확	10988
홖	10989
홗	10990
환	10991
홙	10992
홚	10993
홛	10994
활	10995
홝	10996
홞	10997
홟	10998
홠	10999
홡	11000
홢	11001
홣	11002
홤	11003
홥	11004
홦	11005
홧	11006
홨	11007
황	11008
홪	11009
홫	11010
홬	11011
홭	11012
홮	11013
홯	11014
홰	11015
홱	11016
홲	11017
홳	11018
홴	11019
홵	11020
홶	11021
홷	11022
홸	11023
홹	11024
홺	11025
홻	11026
홼	11027
홽	11028
홾	11029
홿	11030
횀	11031
횁	11032
횂	11033
횃	11034
횄	11035
횅	11036
횆	11037
횇	11038
횈	11039
횉	11040
횊	11041
횋	11042
회	11043
획	11044
횎	11045
횏	11046
횐	11047
횑	11048
횒	11049
횓	11050
횔	11051
횕	11052
횖	11053
횗	11054
횘	11055
횙	11056
횚	11057
횛	11058
횜	11059
횝	11060
횞	11061
횟	11062
횠	11063
횡	11064
횢	11065
횣	11066
횤	11067
횥	11068
횦	11069
횧	11070
효	11071
횩	11072
횪	11073
횫	11074
횬	11075
횭	11076
횮	11077
횯	11078
횰	11079
횱	11080
횲	11081
횳	11082
횴	11083
횵	11084
횶	11085
횷	11086
횸	11087
횹	11088
횺	11089
횻	11090
횼	11091
횽	11092
횾	11093
횿	11094
훀	11095
훁	11096
훂	11097
훃	11098
후	11099
훅	11100
훆	11101
훇	11102
훈	11103
훉	11104
훊	11105
훋	11106
훌	11107
훍	11108
훎	11109
훏	11110
훐	11111
훑	11112
훒	11113
훓	11114
훔	11115
훕	11116
훖	11117
훗	11118
훘	11119
훙	11120
훚	11121
훛	11122
훜	11123
훝	11124
훞	11125
훟	11126
훠	11127
훡	11128
훢	11129
훣	11130
훤	11131
훥	11132
훦	11133
훧	11134
훨	11135
훩	11136
훪	11137
훫	11138
훬	11139
훭	11140
훮	11141
훯	11142
훰	11143
훱	11144
훲	11145
훳	11146
훴	11147
훵	11148
훶	11149
훷	11150
훸	11151
훹	11152
훺	11153
훻	11154
훼	11155
훽	11156
훾	11157
훿	11158
휀	11159
휁	11160
휂	11161
휃	11162
휄	11163
휅	11164
휆	11165
휇	11166
휈	11167
휉	11168
휊	11169
휋	11170
휌	11171
휍	11172
휎	11173
휏	11174
휐	11175
휑	11176
휒	11177
휓	11178
휔	11179
휕	11180
휖	11181
휗	11182
휘	11183
휙	11184
휚	11185
휛	11186
휜	11187
휝	11188
휞	11189
휟	11190
휠	11191
휡	11192
휢	11193
휣	11194
휤	11195
휥	11196
휦	11197
휧	11198
휨	11199
휩	11200
휪	11201
휫	11202
휬	11203
휭	11204
휮	11205
휯	11206
휰	11207
휱	11208
휲	11209
휳	11210
휴	11211
휵	11212
휶	11213
휷	11214
휸	11215
휹	11216
휺	11217
휻	11218
휼	11219
휽	11220
휾	11221
휿	11222
흀	11223
흁	11224
흂	11225
흃	11226
흄	11227
흅	11228
흆	11229
흇	11230
흈	11231
흉	11232
흊	11233
흋	11234
흌	11235
흍	11236
흎	11237
흏	11238
흐	11239
흑	11240
흒	11241
흓	11242
흔	11243
흕	11244
흖	11245
흗	11246
흘	11247
흙	11248
흚	11249
흛	11250
흜	11251
흝	11252
흞	11253
흟	11254
흠	11255
흡	11256
흢	11257
흣	11258
흤	11259
흥	11260
흦	11261
흧	11262
흨	11263
흩	11264
흪	11265
흫	11266
희	11267
흭	11268
흮	11269
흯	11270
흰	11271
흱	11272
흲	11273
흳	11274
흴	11275
흵	11276
흶	11277
흷	11278
흸	11279
흹	11280
흺	11281
흻	11282
흼	11283
흽	11284
흾	11285
흿	11286
힀	11287
힁	11288
힂	11289
힃	11290
힄	11291
힅	11292
힆	11293
힇	11294
히	11295
힉	11296
힊	11297
힋	11298
힌	11299
힍	11300
힎	11301
힏	11302
힐	11303
힑	11304
힒	11305
힓	11306
힔	11307
힕	11308
힖	11309
힗	11310
힘	11311
힙	11312
힚	11313
힛	11314
힜	11315
힝	11316
힞	11317
힟	11318
힠	11319
힡	11320
힢	11321
힣	11322
##르	11323
##땅	11324
##e	11325
##a	11326
##s	11327
##p	11328
##r	11329
##y	11330
##c	11331
##h	11332
##i	11333
##v	11334
##o	11335
##d	11336
##K	11337
##O	11338
##q	11339
##R	11340
##k	11341
##j	11342
##x	11343
##W	11344
##순	11345
##선	11346
##E	11347
##L	11348
##T	11349
##u	11350
##l	11351
##원	11352
##정	11353
##디	11354
##프	11355
##테	11356
##렘	11357
##퍼	11358
##비	11359
##돔	11360
##n	11361
##g	11362
##절	11363
##률	11364
##태	11365
##훈	11366
##영	11367
##달	11368
##m	11369
##B	11370
##H	11371
##S	11372
##I	11373
##A	11374
##지	11375
##동	11376
##곡	11377
##리	11378
##t	11379
##M	11380
##J	11381
##항	11382
##아	11383
##목	11384
##라	11385
##투	11386
##스	11387
##주	11388
##랙	11389
##터	11390
##b	11391
##C	11392
##견	11393
##사	11394
##염	11395
##소	11396
##란	11397
##방	11398
##춘	11399
##택	11400
##f	11401
##보	11402
##준	11403
##형	11404
##신	11405
##여	11406
##겨	11407
##재	11408
##필	11409
##역	11410
##시	11411
##N	11412
##1	11413
##5	11414
##3	11415
##U	11416
##6	11417
##2	11418
##0	11419
##F	11420
##계	11421
##진	11422
##양	11423
##오	11424
##축	11425
##어	11426
##7	11427
##광	11428
##z	11429
##임	11430
##D	11431
##조	11432
##현	11433
##기	11434
##향	11435
##침	11436
##G	11437
##텍	11438
##9	11439
##Q	11440
##박	11441
##력	11442
##키	11443
##나	11444
##종	11445
##용	11446
##친	11447
##중	11448
##희	11449
##릴	11450
##랜	11451
##드	11452
##4	11453
##P	11454
##V	11455
##의	11456
##피	11457
##는	11458
##X	11459
##응	11460
##철	11461
##승	11462
##Y	11463
##w	11464
##다	11465
##타	11466
##쿠	11467
##야	11468
##독	11469
##8	11470
##에	11471
##이	11472
##코	11473
##상	11474
##뻐	11475
##졌	11476
##명	11477
##학	11478
##유	11479
##편	11480
##레	11481
##서	11482
##를	11483
##로	11484
##호	11485
##트	11486
##치	11487
##만	11488
##책	11489
##저	11490
##른	11491
##렌	11492
##천	11493
##은	11494
##마	11495
##부	11496
##토	11497
##균	11498
##캔	11499
##더	11500
##빈	11501
##립	11502
##차	11503
##허	11504
##전	11505
##덕	11506
##가	11507
##경	11508
##웰	11509
##톨	11510
##린	11511
##쨉	11512
##성	11513
##하	11514
##석	11515
##티	11516
##메	11517
##고	11518
##관	11519
##표	11520
##멋	11521
##젯	11522
##식	11523
##케	11524
##산	11525
##맥	11526
##두	11527
##츠	11528
##숙	11529
##공	11530
##였	11531
##으	11532
##니	11533
##왔	11534
##쉽	11535
##버	11536
##룩	11537
##우	11538
##거	11539
##솥	11540
##빔	11541
##밥	11542
##판	11543
##홀	11544
##름	11545
##삼	11546
##참	11547
##권	11548
##브	11549
##탄	11550
##딜	11551
##수	11552
##내	11553
##펜	11554
##베	11555
##규	11556
##업	11557
##근	11558
##대	11559
##문	11560
##무	11561
##새	11562
##밴	11563
##적	11564
##려	11565
##외	11566
##인	11567
##쇄	11568
##왕	11569
##후	11570
##윤	11571
##탁	11572
##급	11573
##켜	11574
##블	11575
##ㅓ	11576
##ㄻ	11577
##노	11578
##존	11579
##슬	11580
##러	11581
##미	11582
##!	11583
##-	11584
##.	11585
##자	11586
##루	11587
##강	11588
##ㅇ	11589
##ㄱ	11590
##층	11591
##법	11592
##틴	11593
##큐	11594
##혜	11595
##붕	11596
##즈	11597
##통	11598
##살	11599
##Z	11600
##찰	11601
##병	11602
##국	11603
##봉	11604
##바	11605
##래	11606
##요	11607
##추	11608
##길	11609
##단	11610
##앞	11611
##돌	11612
##젤	11613
##평	11614
##휘	11615
##퐁	11616
##을	11617
##그	11618
##위	11619
##모	11620
##움	11621
##도	11622
##총	11623
##섬	11624
##힛	11625
##탈	11626
##크	11627
##송	11628
##슴	11629
##틀	11630
##매	11631
##화	11632
##열	11633
##졸	11634
##난	11635
##놈	11636
##체	11637
##히	11638
##당	11639
##옵	11640
##펫	11641
##링	11642
##엄	11643
##캑	11644
##면	11645
##봄	11646
##복	11647
##등	11648
##냄	11649
##쥐	11650
##과	11651
##개	11652
##들	11653
##암	11654
##냥	11655
##촬	11656
##었	11657
##연	11658
##청	11659
##룡	11660
##율	11661
##카	11662
##와	11663
##올	11664
##온	11665
##북	11666
##뢴	11667
##효	11668
##황	11669
##제	11670
##망	11671
##슈	11672
##룹	11673
##집	11674
##써	11675
##ㄴ	11676
##줬	11677
##작	11678
##행	11679
##범	11680
##령	11681
##켄	11682
##료	11683
##품	11684
##웨	11685
##반	11686
##갈	11687
##구	11688
##클	11689
##솔	11690
##게	11691
##글	11692
##텝	11693
##젠	11694
##막	11695
##알	11696
##민	11697
##:	11698
##+	11699
##풍	11700
##핫	11701
##/	11702
##ㅡ	11703
##덴	11704
##셀	11705
##포	11706
##멍	11707
##한	11708
##헌	11709
##샤	11710
##늬	11711
##충	11712
##탕	11713
##뮤	11714
##얼	11715
##헤	11716
##갑	11717
##져	11718
##녀	11719
##혁	11720
##처	11721
##림	11722
##실	11723
##록	11724
##짐	11725
##류	11726
##능	11727
##험	11728
##닛	11729
##건	11730
##설	11731
##딘	11732
##간	11733
##해	11734
##줍	11735
##음	11736
##쥔	11737
##너	11738
##까	11739
##워	11740
##콜	11741
##흣	11742
##함	11743
##떨	11744
##쭉	11745
##데	11746
##속	11747
##일	11748
##혈	11749
##럼	11750
##촉	11751
##킨	11752
##창	11753
##몰	11754
##짝	11755
##ㅔ	11756
##ㄺ	11757
##짼	11758
##"	11759
##네	11760
##룽	11761
##락	11762
##휴	11763
##액	11764
##칠	11765
##파	11766
##혼	11767
##띤	11768
##벨	11769
##때	11770
##섭	11771
##할	11772
##낭	11773
##빵	11774
##약	11775
##안	11776
##널	11777
##님	11778
##초	11779
##콘	11780
###	11781
##%	11782
##^	11783
##분	11784
##격	11785
##람	11786
##잡	11787
##_	11788
##빡	11789
##증	11790
##합	11791
##굴	11792
##장	11793
##극	11794
##커	11795
##휼	11796
##량	11797
##ㅖ	11798
##ㄼ	11799
##꽃	11800
##술	11801
##엘	11802
##옥	11803
##채	11804
##럴	11805
##밀	11806
##런	11807
##탯	11808
##겐	11809
##룰	11810
##?	11811
##)	11812
##앨	11813
##발	11814
##ㅙ	11815
##ㅋ	11816
##걸	11817
##남	11818
##말	11819
##냐	11820
##톤	11821
##닌	11822
##랭	11823
##퀼	11824
##객	11825
##입	11826
##쳌	11827
##랑	11828
##찬	11829
##익	11830
##툰	11831
##몬	11832
##환	11833
##따	11834
##점	11835
##결	11836
##텟	11837
##샐	11838
##느	11839
##애	11840
##월	11841
##취	11842
##골	11843
##패	11844
##받	11845
##탑	11846
##꿀	11847
##숭	11848
##감	11849
##직	11850
##낼	11851
##없	11852
##쁑	11853
##든	11854
##물	11855
##딥	11856
##쉬	11857
##벙	11858
##운	11859
##싱	11860
##흐	11861
##세	11862
##께	11863
##즘	11864
##싸	11865
##왧	11866
##뷃	11867
##얇	11868
##죽	11869
##났	11870
##슨	11871
##껴	11872
##질	11873
##홍	11874
##생	11875
##념	11876
##빙	11877
##손	11878
##백	11879
##늦	11880
##군	11881
##맨	11882
##덱	11883
##쓰	11884
##색	11885
##쪽	11886
##렉	11887
##쯔	11888
##렬	11889
##앗	11890
##긴	11891
##릭	11892
##예	11893
##금	11894
##빠	11895
##뜨	11896
##펑	11897
##잔	11898
##교	11899
##습	11900
##깁	11901
##묵	11902
##탔	11903
##흠	11904
##춧	11905
##엔	11906
##첸	11907
##콥	11908
##읭	11909
##윈	11910
##좌	11911
##련	11912
##팔	11913
##[	11914
##변	11915
##핵	11916
##협	11917
##회	11918
##`	11919
##먼	11920
##언	11921
##ㅘ	11922
##ㅆ	11923
##둬	11924
##>	11925
##캐	11926
##ㅛ	11927
##ㅀ	11928
##볼	11929
##머	11930
##떼	11931
##\	11932
##,	11933
##{	11934
##}	11935
##&	11936
##=	11937
##낸	11938
##럽	11939
##랍	11940
##팽	11941
##뢰	11942
##탱	11943
##각	11944
##되	11945
##롭	11946
##굿	11947
##엽	11948
##딱	11949
##배	11950
##폭	11951
##며	11952
##ㅁ	11953
##칭	11954
##얀	11955
##읍	11956
##곁	11957
##육	11958
##특	11959
##혹	11960
##ㄲ	11961
##룸	11962
##씨	11963
##션	11964
##센	11965
##]	11966
##징	11967
##깔	11968
##렁	11969
##욱	11970
##불	11971
##벤	11972
##츤	11973
##륜	11974
##랫	11975
##눈	11976
##썹	11977
##톰	11978
##*	11979
##딤	11980
##겔	11981
##푸	11982
##붙	11983
##덜	11984
##븐	11985
##멘	11986
##완	11987
##론	11988
##출	11989
##꼬	11990
##셨	11991
##본	11992
##쳐	11993
##플	11994
##폴	11995
##잘	11996
##ㅌ	11997
##ㅎ	11998
##뜩	11999
##괄	12000
##램	12001
##튼	12002
##ㄹ	12003
##컷	12004
##검	12005
##첩	12006
##별	12007
##뺀	12008
##눠	12009
##담	12010
##텐	12011
##킹	12012
##뻥	12013
##듀	12014
##페	12015
##퇴	12016
##쿵	12017
##겼	12018
##략	12019
##꾸	12020
##곶	12021
##녕	12022
##젝	12023
##누	12024
##쎄	12025
##'	12026
##ㅜ	12027
##ㅑ	12028
##왓	12029
##맛	12030
##웃	12031
##득	12032
##ㄿ	12033
##벌	12034
##헨	12035
##웅	12036
##ㄳ	12037
##획	12038
##캄	12039
##ㅂ	12040
##ㄷ	12041
##족	12042
##킵	12043
##빌	12044
##튀	12045
##뮈	12046
##롱	12047
##렸	12048
##둔	12049
##딴	12050
##찌	12051
##햄	12052
##턴	12053
##ㅈ	12054
##닐	12055
##밍	12056
##떤	12057
##컬	12058
##끼	12059
##튜	12060
##확	12061
##날	12062
##칙	12063
##논	12064
##봬	12065
##팬	12066
##ㅅ	12067
##콰	12068
##넌	12069
##벽	12070
##챱	12071
##낙	12072
##답	12073
##년	12074
##ㅞ	12075
##쇼	12076
##넬	12077
##쓴	12078
##ㅠ	12079
##쿤	12080
##궁	12081
##악	12082
##늄	12083
##늘	12084
##뛰	12085
##농	12086
##숩	12087
##싫	12088
##힌	12089
##혀	12090
##뽑	12091
##즤	12092
##릿	12093
##웻	12094
##꾼	12095
##칸	12096
##펀	12097
##앤	12098
##쟈	12099
##좡	12100
##섯	12101
##궤	12102
##ㄾ	12103
##측	12104
##놨	12105
##톡	12106
##갤	12107
##ㅒ	12108
##심	12109
##뇨	12110
##븀	12111
##킬	12112
##ㅟ	12113
##썩	12114
##랄	12115
##쭙	12116
##례	12117
##핸	12118
##맞	12119
##칼	12120
##즐	12121
##뤄	12122
##흘	12123
##뿌	12124
##텔	12125
##|	12126
##줄	12127
##궐	12128
##톱	12129
##ㅢ	12130
##ㄽ	12131
##뜻	12132
##둥	12133
##접	12134
##돈	12135
##폼	12136
##먹	12137
##봅	12138
##잠	12139
##ㅏ	12140
##잎	12141
##킥	12142
##줘	12143
##핏	12144
##놀	12145
##흥	12146
##깨	12147
##폰	12148
##깡	12149
##넨	12150
##욕	12151
##렛	12152
##닉	12153
##@	12154
##긍	12155
##웆	12156
##촌	12157
##웬	12158
##틸	12159
##띠	12160
##앙	12161
##힐	12162
##ㅍ	12163
##죄	12164
##했	12165
##ㅗ	12166
##샻	12167
##컨	12168
##벼	12169
##쌍	12170
##챗	12171
##앉	12172
##룬	12173
##싹	12174
##씻	12175
##잣	12176
##눙	12177
##쏠	12178
##멧	12179
##귀	12180
##끔	12181
##뉴	12182
##십	12183
##~	12184
##뿟	12185
##뭇	12186
##롤	12187
##찐	12188
##ㅕ	12189
##ㅣ	12190
##쇠	12191
##왈	12192
##웠	12193
##넓	12194
##펠	12195
##딩	12196
##컴	12197
##던	12198
##팩	12199
##릅	12200
##몽	12201
##껑	12202
##덩	12203
##켓	12204
##닝	12205
##뼛	12206
##번	12207
##퀴	12208
##엇	12209
##뤵	12210
##뤠	12211
##둘	12212
##곤	12213
##융	12214
##씹	12215
##;	12216
##끄	12217
##딕	12218
##벡	12219
##쑈	12220
##잼	12221
##랴	12222
##쑤	12223
##닥	12224
##줌	12225
##샘	12226
##ㅊ	12227
##씀	12228
##잇	12229
##봐	12230
##활	12231
##앰	12232
##큰	12233
##꼴	12234
##킴	12235
##<	12236
##납	12237
##덤	12238
##콧	12239
##ㅚ	12240
##잭	12241
##핀	12242
##삭	12243
##뗔	12244
##팍	12245
##셰	12246
##뿔	12247
##김	12248
##륵	12249
##샌	12250
##큼	12251
##귓	12252
##앜	12253
##뚜	12254
##묘	12255
##컵	12256
##턱	12257
##빛	12258
##샹	12259
##퀄	12260
##즉	12261
##럭	12262
##괴	12263
##쓸	12264
##찍	12265
##슐	12266
##잖	12267
##(	12268
##울	12269
##꺼	12270
##뿐	12271
##윌	12272
##뇰	12273
##뺙	12274
##몐	12275
##픈	12276
##윗	12277
##몸	12278
##홉	12279
##갱	12280
##륨	12281
##딧	12282
##괘	12283
##갔	12284
##켐	12285
##렴	12286
##켸	12287
##쩍	12288
##떡	12289
##쑥	12290
##픽	12291
##쳤	12292
##므	12293
##댓	12294
##값	12295
##귈	12296
##깃	12297
##쁠	12298
##닷	12299
##쟁	12300
##압	12301
##델	12302
##된	12303
##뗘	12304
##뺌	12305
##랗	12306
##숫	12307
##댄	12308
##죠	12309
##앵	12310
##쩨	12311
##짱	12312
##옹	12313
##켈	12314
##멸	12315
##맹	12316
##밈	12317
##댈	12318
##캉	12319
##꿍	12320
##딪	12321
##ㄵ	12322
##엿	12323
##째	12324
##팁	12325
##샷	12326
##캠	12327
##끗	12328
##쾌	12329
##엥	12330
##셔	12331
##헔	12332
##힘	12333
##섀	12334
##퀸	12335
##$	12336
##팠	12337
##뒤	12338
##쁐	12339
##렐	12340
##륭	12341
##췄	12342
##흰	12343
##핰	12344
##놉	12345
##돼	12346
##잉	12347
##곱	12348
##딸	12349
##쌰	12350
##긋	12351
##ㅐ	12352
##ㅄ	12353
##멜	12354
##렙	12355
##퍄	12356
##팟	12357
##둑	12358
##섰	12359
##졀	12360
##캇	12361
##탐	12362
##퓌	12363
##넷	12364
##뱡	12365
##팜	12366
##듬	12367
##춰	12368
##밭	12369
##뿅	12370
##착	12371
##랐	12372
##뇌	12373
##즙	12374
##빴	12375
##쭝	12376
##팅	12377
##랩	12378
##틱	12379
##훤	12380
##떄	12381
##녔	12382
##윻	12383
##냉	12384
##랏	12385
##쟝	12386
##픔	12387
##둣	12388
##뤘	12389
##흔	12390
##릉	12391
##왜	12392
##먀	12393
##핳	12394
##땀	12395
##뗏	12396
##샴	12397
##웍	12398
##돋	12399
##펙	12400
##쌀	12401
##쭈	12402
##춤	12403
##엉	12404
##돠	12405
##쨌	12406
##릇	12407
##몌	12408
##릐	12409
##롬	12410
##굉	12411
##렇	12412
##듯	12413
##띈	12414
##뱌	12415
##넥	12416
##뇽	12417
##풀	12418
##최	12419
##샨	12420
##뜽	12421
##콤	12422
##홈	12423
##녹	12424
##츔	12425
##믄	12426
##팡	12427
##텀	12428
##츄	12429
##쾡	12430
##얘	12431
##눕	12432
##걱	12433
##퀘	12434
##많	12435
##헑	12436
##헙	12437
##헉	12438
##옌	12439
##셴	12440
##또	12441
##곰	12442
##뽕	12443
##쾅	12444
##빗	12445
##털	12446
##빱	12447
##셋	12448
##땐	12449
##룻	12450
##찼	12451
##퓨	12452
##챔	12453
##겸	12454
##슘	12455
##꼈	12456
##맣	12457
##싼	12458
##괏	12459
##욘	12460
##엠	12461
##욜	12462
##짓	12463
##툑	12464
##촨	12465
##랬	12466
##뱀	12467
##못	12468
##믹	12469
##폐	12470
##댕	12471
##셸	12472
##똘	12473
##싕	12474
##렀	12475
##덥	12476
##흑	12477
##첨	12478
##짧	12479
##눌	12480
##뱅	12481
##쉴	12482
##팻	12483
##억	12484
##뎃	12485
##뎅	12486
##랠	12487
##겠	12488
##좋	12489
##걀	12490
##츨	12491
##뱃	12492
##쿨	12493
##벳	12494
##롄	12495
##큾	12496
##벖	12497
##슶	12498
##텂	12499
##냅	12500
##훔	12501
##쿼	12502
##셈	12503
##엑	12504
##탠	12505
##꼼	12506
##빧	12507
##덧	12508
##폘	12509
##뜰	12510
##씩	12511
##삯	12512
##쭐	12513
##쩐	12514
##깐	12515
##퉁	12516
##삐	12517
##궂	12518
##룝	12519
##윾	12520
##칫	12521
##낚	12522
##ㅝ	12523
##옙	12524
##럿	12525
##쮸	12526
##숑	12527
##쾨	12528
##냑	12529
##힉	12530
##셩	12531
##셜	12532
##뢱	12533
##뻔	12534
##폄	12535
##퉤	12536
##윷	12537
##톈	12538
##눞	12539
##씌	12540
##쉘	12541
##쿰	12542
##콩	12543
##귐	12544
##샛	12545
##캥	12546
##꺽	12547
##밟	12548
##캘	12549
##헥	12550
##숟	12551
##쌥	12552
##댔	12553
##벅	12554
##켰	12555
##얫	12556
##펄	12557
##컥	12558
##텡	12559
##혔	12560
##푼	12561
##콸	12562
##껏	12563
##븨	12564
##풋	12565
##팀	12566
##꽊	12567
##얄	12568
##빼	12569
##밑	12570
##벚	12571
##붓	12572
##슛	12573
##뒀	12574
##밤	12575
##쬬	12576
##좀	12577
##뚱	12578
##쁜	12579
##띄	12580
##쟣	12581
##짤	12582
##떠	12583
##첼	12584
##쥬	12585
##뀌	12586
##팼	12587
##끝	12588
##긔	12589
##쩌	12590
##슝	12591
##쉐	12592
##칟	12593
##넘	12594
##꼽	12595
##꽦	12596
##뤼	12597
##꽁	12598
##ㄶ	12599
##낀	12600
##쿄	12601
##뫙	12602
##깥	12603
##귄	12604
##츈	12605
##녘	12606
##롸	12607
##맡	12608
##윙	12609
##팥	12610
##헠	12611
##벵	12612
##뼈	12613
##넛	12614
##눔	12615
##닫	12616
##똥	12617
##척	12618
##볶	12619
##뎀	12620
##밖	12621
##롯	12622
##굽	12623
##퍅	12624
##즌	12625
##듦	12626
##쵼	12627
##컹	12628
##햇	12629
##씽	12630
##겋	12631
##벫	12632
##꾹	12633
##낄	12634
##뾸	12635
##갬	12636
##맵	12637
##잆	12638
##좂	12639
##닜	12640
##옴	12641
##훗	12642
##쫄	12643
##꿔	12644
##섹	12645
##륙	12646
##욤	12647
##쳰	12648
##챠	12649
##쩡	12650
##뚝	12651
##굵	12652
##빅	12653
##삿	12654
##및	12655
##믈	12656
##딈	12657
##빰	12658
##솹	12659
##같	12660
##쁘	12661
##뾰	12662
##흡	12663
##앳	12664
##쉑	12665
##멀	12666
##쪼	12667
##곽	12668
##뵈	12669
##딛	12670
##쌈	12671
##ㅉ	12672
##핑	12673
##탓	12674
##뒹	12675
##뽀	12676
##둡	12677
##꺘	12678
##쌤	12679
##흉	12680
##릎	12681
##툼	12682
##곀	12683
##갓	12684
##훼	12685
##셉	12686
##읏	12687
##쏼	12688
##빨	12689
##뚬	12690
##갸	12691
##갯	12692
##묄	12693
##끆	12694
##ㄸ	12695
##꾀	12696
##윳	12697
##짠	12698
##찜	12699
##뎌	12700
##귁	12701
##겅	12702
##쿡	12703
##궈	12704
##놓	12705
##겁	12706
##쏘	12707
##닑	12708
##흙	12709
##짭	12710
##땡	12711
##쑼	12712
##캅	12713
##낍	12714
##괭	12715
##넝	12716
##쳇	12717
##큘	12718
##잋	12719
##좆	12720
##짜	12721
##잿	12722
##녜	12723
##앓	12724
##휏	12725
##숀	12726
##죡	12727
##벗	12728
##놔	12729
##녁	12730
##솜	12731
##왁	12732
##슌	12733
##쎔	12734
##쿸	12735
##킷	12736
##꿎	12737
##윅	12738
##옷	12739
##헬	12740
##잰	12741
##댠	12742
##있	12743
##냈	12744
##숴	12745
##곳	12746
##멈	12747
##헝	12748
##쥉	12749
##몆	12750
##랸	12751
##퇀	12752
##쨔	12753
##찮	12754
##캣	12755
##늑	12756
##쯧	12757
##뮬	12758
##젓	12759
##봤	12760
##엣	12761
##꿋	12762
##묶	12763
##맷	12764
##뜬	12765
##쌕	12766
##깤	12767
##옘	12768
##꺄	12769
##씅	12770
##밸	12771
##쌋	12772
##듭	12773
##깍	12774
##툿	12775
##쓱	12776
##뀨	12777
##칩	12778
##끓	12779
##맘	12780
##혐	12781
##꾿	12782
##쫓	12783
##캡	12784
##뜳	12785
##냏	12786
##잏	12787
##썽	12788
##뮌	12789
##쑹	12790
##숲	12791
##캬	12792
##솰	12793
##뫼	12794
##뿝	12795
##튬	12796
##짚	12797
##괼	12798
##둠	12799
##끈	12800
##쩝	12801
##펐	12802
##멓	12803
##벓	12804
##뚠	12805
##콕	12806
##았	12807
##휠	12808
##췌	12809
##찔	12810
##흴	12811
##겉	12812
##냘	12813
##꼰	12814
##갠	12815
##렵	12816
##것	12817
##긇	12818
##흟	12819
##흫	12820
##춈	12821
##ㅃ	12822
##볘	12823
##슼	12824
##쉔	12825
##챃	12826
##봇	12827
##엌	12828
##삽	12829
##튠	12830
##쵸	12831
##싯	12832
##챤	12833
##렡	12834
##찻	12835
##탤	12836
##뷰	12837
##픗	12838
##덟	12839
##떵	12840
##헐	12841
##뎍	12842
##곧	12843
##딍	12844
##뺑	12845
##훙	12846
##템	12847
##펌	12848
##촘	12849
##힝	12850
##끌	12851
##쇳	12852
##랰	12853
##꿱	12854
##쟉	12855
##촹	12856
##뫄	12857
##끙	12858
##뮺	12859
##썼	12860
##웁	12861
##팝	12862
##멕	12863
##젬	12864
##챳	12865
##뉘	12866
##뎬	12867
##쭀	12868
##컭	12869
##궬	12870
##뚤	12871
##쪘	12872
##껍	12873
##낯	12874
##얌	12875
##숌	12876
##줏	12877
##셍	12878
##룟	12879
##볏	12880
##늉	12881
##뭉	12882
##쁩	12883
##쌓	12884
##썬	12885
##뎠	12886
##펨	12887
##쌌	12888
##뻑	12889
##넴	12890
##뷔	12891
##힁	12892
##쌩	12893
##텅	12894
##쑴	12895
##갚	12896
##긑	12897
##밋	12898
##괳	12899
##툴	12900
##룀	12901
##꿉	12902
##뮹	12903
##퀵	12904
##촐	12905
##캌	12906
##힗	12907
##퇼	12908
##믕	12909
##떳	12910
##얗	12911
##씬	12912
##낫	12913
##퍽	12914
##왐	12915
##헴	12916
##듐	12917
##윽	12918
##빤	12919
##꿈	12920
##눗	12921
##쨩	12922
##쏭	12923
##썰	12924
##똑	12925
##묻	12926
##귤	12927
##뷴	12928
##귱	12929
##뗄	12930
##홐	12931
##혻	12932
##앟	12933
##괵	12934
##댁	12935
##닭	12936
##좐	12937
##꽌	12938
##꼭	12939
##뎡	12940
##닦	12941
##옆	12942
##샥	12943
##켤	12944
##엪	12945
##쥩	12946
##삡	12947
##뻘	12948
##붐	12949
##훍	12950
##뚥	12951
##녓	12952
##폿	12953
##픠	12954
##띵	12955
##깜	12956
##뻬	12957
##쯤	12958
##늠	12959
##찡	12960
##좁	12961
##폕	12962
##힙	12963
##꺾	12964
##뒷	12965
##겡	12966
##헣	12967
##첵	12968
##렝	12969
##훌	12970
##돕	12971
##횡	12972
##뙤	12973
##칵	12974
##뻗	12975
##꼿	12976
##롮	12977
##픖	12978
##틊	12979
##몇	12980
##떻	12981
##솟	12982
##볐	12983
##뜸	12984
##꽈	12985
##몃	12986
##쬔	12987
##뜯	12988
##젼	12989
##춉	12990
##팸	12991
##셕	12992
##묭	12993
##냠	12994
##뉨	12995
##읖	12996
##겜	12997
##댑	12998
##횟	12999
##굼	13000
##탸	13001
##퓰	13002
##혓	13003
##쿙	13004
##겟	13005
##푱	13006
##쁨	13007
##볜	13008
##넵	13009
##챡	13010
##젴	13011
##껄	13012
##붑	13013
##솝	13014
##닿	13015
##쵹	13016
##뿍	13017
##꽥	13018
##엒	13019
##촤	13020
##촥	13021
##큭	13022
##숨	13023
##튺	13024
##뵤	13025
##둴	13026
##돛	13027
##쏙	13028
##깎	13029
##댱	13030
##쒕	13031
##췅	13032
##놋	13033
##펩	13034
##빳	13035
##흇	13036
##쨘	13037
##킼	13038
##냫	13039
##꽂	13040
##츌	13041
##긕	13042
##뾱	13043
##겊	13044
##넽	13045
##펴	13046
##푹	13047
##늅	13048
##됐	13049
##슭	13050
##웹	13051
##뢔	13052
##닙	13053
##섶	13054
##곯	13055
##맸	13056
##텁	13057
##꺠	13058
##걕	13059
##슁	13060
##쿱	13061
##겻	13062
##뜝	13063
##틈	13064
##뀠	13065
##핍	13066
##찧	13067
##멩	13068
##윰	13069
##깝	13070
##냬	13071
##싟	13072
##엫	13073
##쌔	13074
##깅	13075
##뺏	13076
##씁	13077
##휭	13078
##뻤	13079
##낱	13080
##짬	13081
##졔	13082
##앱	13083
##츙	13084
##툵	13085
##덫	13086
##쀼	13087
##녤	13088
##젭	13089
##죵	13090
##탬	13091
##횽	13092
##뱐	13093
##쇅	13094
##맴	13095
##뎋	13096
##벋	13097
##뚯	13098
##볓	13099
##쀏	13100
##봊	13101
##햣	13102
##햐	13103
##됨	13104
##쯋	13105
##틋	13106
##홰	13107
##섞	13108
##튱	13109
##싀	13110
##쎈	13111
##짖	13112
##뛟	13113
##뮴	13114
##뷜	13115
##뉼	13116
##넣	13117
##툭	13118
##몫	13119
##픅	13120
##밉	13121
##쭤	13122
##핼	13123
##믜	13124
##샙	13125
##룳	13126
##췬	13127
##텨	13128
##뿀	13129
##귿	13130
##높	13131
##좔	13132
##줓	13133
##땜	13134
##찝	13135
##꿝	13136
##늰	13137
##뒁	13138
##쨋	13139
##덮	13140
##녠	13141
##햏	13142
##멱	13143
##맬	13144
##햅	13145
##먏	13146
##믐	13147
##펭	13148
##뱉	13149
##셧	13150
##돚	13151
##읒	13152
##풔	13153
##풮	13154
##헿	13155
##먐	13156
##웝	13157
##괂	13158
##읳	13159
##젖	13160
##뷸	13161
##좇	13162
##헛	13163
##맑	13164
##챘	13165
##촙	13166
##렷	13167
##쏨	13168
##붉	13169
##깊	13170
##푈	13171
##켠	13172
##옇	13173
##샅	13174
##꿩	13175
##쯕	13176
##먕	13177
##궜	13178
##흄	13179
##얹	13180
##켕	13181
##듸	13182
##콴	13183
##놘	13184
##헱	13185
##롻	13186
##꿇	13187
##튝	13188
##몹	13189
##눅	13190
##슾	13191
##삶	13192
##챈	13193
##쯱	13194
##쥰	13195
##춱	13196
##챙	13197
##않	13198
##젊	13199
##츼	13200
##쒸	13201
##옅	13202
##읫	13203
##췃	13204
##뭄	13205
##닯	13206
##쪄	13207
##쏜	13208
##곬	13209
##륄	13210
##웽	13211
##뤕	13212
##틉	13213
##씉	13214
##땁	13215
##굇	13216
##쉥	13217
##벰	13218
##쥘	13219
##첫	13220
##렜	13221
##뜐	13222
##봙	13223
##뇓	13224
##닮	13225
##뀝	13226
##쳑	13227
##찾	13228
##쵁	13229
##뀽	13230
##왑	13231
##챌	13232
##륀	13233
##듈	13234
##겍	13235
##숏	13236
##뎨	13237
##뉵	13238
##찟	13239
##봑	13240
##윔	13241
##곗	13242
##뜫	13243
##띨	13244
##깟	13245
##쭌	13246
##씰	13247
##췁	13248
##솬	13249
##퀜	13250
##홋	13251
##쯪	13252
##눴	13253
##먁	13254
##펔	13255
##툽	13256
##꽝	13257
##됬	13258
##릊	13259
##뭐	13260
##켁	13261
##훨	13262
##낮	13263
##샬	13264
##댐	13265
##좊	13266
##햘	13267
##깩	13268
##딨	13269
##짰	13270
##늡	13271
##맙	13272
##깻	13273
##붸	13274
##뺩	13275
##쉰	13276
##솨	13277
##핟	13278
##킁	13279
##낌	13280
##슷	13281
##숄	13282
##싣	13283
##듫	13284
##짞	13285
##뿎	13286
##톳	13287
##캰	13288
##갛	13289
##돩	13290
##낲	13291
##횸	13292
##뽄	13293
##욀	13294
##뻣	13295
##썅	13296
##텃	13297
##옛	13298
##섕	13299
##뢸	13300
##낰	13301
##셱	13302
##훅	13303
##쁌	13304
##힡	13305
##낏	13306
##챦	13307
##홧	13308
##돗	13309
##몊	13310
##씸	13311
##뺘	13312
##젱	13313
##핡	13314
##앍	13315
##랔	13316
##칽	13317
##벞	13318
##몄	13319
##뮨	13320
##눼	13321
##샵	13322
##퉈	13323
##죳	13324
##욹	13325
##쫣	13326
##똵	13327
##뽧	13328
##꽑	13329
##뽭	13330
##밧	13331
##삵	13332
##븝	13333
##쏴	13334
##흗	13335
##숍	13336
##삘	13337
##될	13338
##깬	13339
##빻	13340
##얃	13341
##뤂	13342
##깏	13343
##좨	13344
##듣	13345
##껌	13346
##첬	13347
##캤	13348
##랖	13349
##삷	13350
##샢	13351
##뎁	13352
##뽁	13353
##큪	13354
##핔	13355
##잍	13356
##헹	13357
##뗐	13358
##밐	13359
##싴	13360
##엙	13361
##폈	13362
##푝	13363
##젹	13364
##멦	13365
##쌉	13366
##빕	13367
##떰	13368
##뿡	13369
##궭	13370
##삣	13371
##헷	13372
##멤	13373
##졈	13374
##튭	13375
##퉜	13376
##눝	13377
##튮	13378
##찹	13379
##쫭	13380
##킈	13381
##뺄	13382
##슥	13383
##짹	13384
##얏	13385
##쟌	13386
##쫑	13387
##돖	13388
##캆	13389
##왒	13390
##싮	13391
##밦	13392
##옐	13393
##둇	13394
##긧	13395
##좹	13396
##젧	13397
##걋	13398
##뙳	13399
##홂	13400
##홓	13401
##욋	13402
##깽	13403
##믓	13404
##짢	13405
##쩔	13406
##낑	13407
##삔	13408
##뻉	13409
##뉜	13410
##듹	13411
##엷	13412
##퇗	13413
##닢	13414
##끕	13415
##펍	13416
##햑	13417
##듥	13418
##뷘	13419
##갗	13420
##뇸	13421
##췩	13422
##늙	13423
##콣	13424
##칡	13425
##줴	13426
##욧	13427
##쬭	13428
##쑨	13429
##깄	13430
##캎	13431
##왼	13432
##삥	13433
##뚧	13434
##훑	13435
##큿	13436
##둉	13437
##휵	13438
##뿓	13439
##츰	13440
##몯	13441
##똔	13442
##훕	13443
##틔	13444
##뺨	13445
##껙	13446
##멨	13447
##넹	13448
##떴	13449
##훟	13450
##듁	13451
##띾	13452
##잨	13453
##뤽	13454
##쌘	13455
##쉏	13456
##뇐	13457
##팎	13458
##룔	13459
##긿	13460
##혠	13461
##뷉	13462
##롓	13463
##빽	13464
##젮	13465
##쨍	13466
##뵌	13467
##랕	13468
##뺴	13469
##겹	13470
##핌	13471
##읽	13472
##쿳	13473
##웩	13474
##붹	13475
##솩	13476
##셤	13477
##뀐	13478
##죤	13479
##톄	13480
##췛	13481
##뿛	13482
##핻	13483
##냇	13484
##뛃	13485
##괧	13486
##쭵	13487
##뛴	13488
##낳	13489
##챰	13490
##샠	13491
##힠	13492
##앸	13493
##땃	13494
##륍	13495
##낵	13496
##팉	13497
##묑	13498
##꿨	13499
##꺵	13500
##뙈	13501
##슉	13502
##굣	13503
##튽	13504
##풂	13505
##짒	13506
##듕	13507
##냔	13508
##엨	13509
##횢	13510
##쨥	13511
##읶	13512
##놰	13513
##뒈	13514
##뗑	13515
##멬	13516
##칯	13517
##땠	13518
##덿	13519
##튿	13520
##롼	13521
##댜	13522
##뚫	13523
##쭁	13524
##녑	13525
##륷	13526
##끽	13527
##쫩	13528
##윱	13529
##옠	13530
##뵷	13531
##삑	13532
##뷇	13533
##탭	13534
##낟	13535
##갰	13536
##뷫	13537
##쌜	13538
##팃	13539
##끅	13540
##킦	13541
##끾	13542
##뒿	13543
##쭘	13544
##뻡	13545
##뿜	13546
##좸	13547
##쮜	13548
##뼤	13549
##춋	13550
##큅	13551
##볫	13552
##듧	13553
##볈	13554
##쌱	13555
##엗	13556
##엤	13557
##랆	13558
##뎐	13559
##뾲	13560
##엾	13561
##켚	13562
##갖	13563
##죌	13564
##돨	13565
##쏀	13566
##얬	13567
##궖	13568
##궫	13569
##궋	13570
##옾	13571
##췽	13572
##냌	13573
##뵐	13574
##쪠	13575
##얍	13576
##퓸	13577
##킅	13578
##됭	13579
##퓍	13580
##얶	13581
##꿘	13582
##쬽	13583
##팰	13584
##뽜	13585
##쎠	13586
##팈	13587
##흧	13588
##큥	13589
##잌	13590
##옳	13591
##뒑	13592
##뒓	13593
##뗀	13594
##곈	13595
##쒹	13596
##쎅	13597
##퀀	13598
##얽	13599
##셒	13600
##셥	13601
##땍	13602
##뢍	13603
##괆	13604
##춸	13605
##웡	13606
##흿	13607
##퓔	13608
##쥠	13609
##긱	13610
##뚀	13611
##탉	13612
##훜	13613
##릵	13614
##벩	13615
##펡	13616
##궃	13617
##쩜	13618
##쫒	13619
##텬	13620
##둈	13621
##뾘	13622
##넙	13623
##탵	13624
##촾	13625
##찓	13626
##맢	13627
##솽	13628
##녈	13629
##릘	13630
##졋	13631
##춥	13632
##짇	13633
##꼐	13634
##녯	13635
##뙇	13636
##퐝	13637
##졧	13638
##졍	13639
##챸	13640
##탘	13641
##틍	13642
##벧	13643
##뭔	13644
##붚	13645
##빖	13646
##읪	13647
##릏	13648
##밝	13649
##벱	13650
##숕	13651
##룅	13652
##싶	13653
##삒	13654
##숯	13655
##뗻	13656
##띧	13657
##쐐	13658
##돵	13659
##즹	13660
##쇽	13661
##쫀	13662
##갉	13663
##볍	13664
##횻	13665
##덞	13666
##퀌	13667
##푀	13668
##찷	13669
##떅	13670
##랼	13671
##캭	13672
##쒜	13673
##쿜	13674
##쓔	13675
##쓩	13676
##쳉	13677
##쭨	13678
##엊	13679
##솀	13680
##낛	13681
##벐	13682
##픕	13683
##휀	13684
##솅	13685
##됴	13686
##웜	13687
##꾜	13688
##곖	13689
##끨	13690
##릣	13691
##쾰	13692
##땽	13693
##엏	13694
##뛸	13695
##죗	13696
##뮐	13697
##맫	13698
##믌	13699
##텤	13700
##썸	13701
##쥣	13702
##뜷	13703
##뙗	13704
##퀙	13705
##갭	13706
##튐	13707
##턻	13708
##쳡	13709
##껨	13710
##뜜	13711
##삠	13712
##삮	13713
##쩠	13714
##쬐	13715
##퀠	13716
##즁	13717
##밌	13718
##뵹	13719
##퀑	13720
##겆	13721
##뼜	13722
##땛	13723
##븓	13724
##둗	13725
##쎼	13726
##빚	13727
##냣	13728
##넉	13729
##얒	13730
##냟	13731
##쭛	13732
##쟤	13733
##땝	13734
##읔	13735
##벍	13736
##끠	13737
##얐	13738
##꿏	13739
##풉	13740
##닻	13741
##졷	13742
##엡	13743
##헵	13744
##껰	13745
##헯	13746
##쥴	13747
##샜	13748
##휗	13749
##홑	13750
##꺢	13751
##볕	13752
##쎌	13753
##넜	13754
##챨	13755
##갹	13756
##읋	13757
##쥥	13758
##숱	13759
##즑	13760
##꽇	13761
##쭊	13762
##곲	13763
##횞	13764
##삾	13765
##붇	13766
##돡	13767
##푯	13768
##뤌	13769
##겕	13770
##얺	13771
##됸	13772
##굥	13773
##큄	13774
##긞	13775
##긏	13776
##긤	13777
##귺	13778
##걲	13779
##봫	13780
##웟	13781
##촵	13782
##밣	13783
##풹	13784
##섦	13785
##핲	13786
##옮	13787
##빩	13788
##탒	13789
##듮	13790
##봡	13791
##뤀	13792
##앆	13793
##풑	13794
##쿶	13795
##굔	13796
##훠	13797
##뒥	13798
##껚	13799
##떽	13800
##뺵	13801
##끤	13802
##핥	13803
##냙	13804
##쁟	13805
##퐈	13806
##왉	13807
##묜	13808
##쉭	13809
##꽤	13810
##걔	13811
##뫌	13812
##뤯	13813
##룱	13814
##뺭	13815
##쯉	13816
##쳅	13817
##뱨	13818
##읗	13819
##꿰	13820
##굄	13821
##롷	13822
##쯸	13823
##짘	13824
##엎	13825
##킄	13826
##컼	13827
##컄	13828
##맠	13829
##뎻	13830
##롹	13831
##슙	13832
##뿨	13833
##뀔	13834
##귝	13835
##볽	13836
##뭘	13837
##돜	13838
##긁	13839
##훽	13840
##퉷	13841
##맺	13842
##툐	13843
##츹	13844
##띰	13845
##뱔	13846
##챵	13847
##훳	13848
##뀍	13849
##겿	13850
##좍	13851
##횩	13852
##븍	13853
##껫	13854
##벲	13855
##롣	13856
##뼝	13857
##촛	13858
##뵥	13859
##믿	13860
##쉿	13861
##뒬	13862
##웤	13863
##옻	13864
##틷	13865
##묺	13866
##홥	13867
##붛	13868
##돓	13869
##쮹	13870
##핧	13871
##럐	13872
##닼	13873
##릯	13874
##퉅	13875
##둩	13876
##쨕	13877
##걷	13878
##쬷	13879
##홅	13880
##욿	13881
##쌻	13882
##풇	13883
##튕	13884
##땨	13885
##읅	13886
##엃	13887
##슆	13888
##눟	13889
##쁅	13890
##뺡	13891
##뗡	13892
##몔	13893
##윕	13894
##떙	13895
##뤨	13896
##쨰	13897
##뭬	13898
##쩧	13899
##죈	13900
##뫃	13901
##뚷	13902
##뭏	13903
##붖	13904
##툠	13905
##뺅	13906
##꺌	13907
##쩅	13908
##콱	13909
##꼮	13910
##쥽	13911
##쉟	13912
##렣	13913
##뫅	13914
##늪	13915
##촷	13916
##쮝	13917
##귯	13918
##쾃	13919
##쏚	13920
##붘	13921
##쑝	13922
##츳	13923
##듶	13924
##쳄	13925
##뿗	13926
##혬	13927
##읜	13928
##쒀	13929
##뚮	13930
##쐙	13931
##뽟	13932
##낪	13933
##밊	13934
##뎜	13935
##썝	13936
##뿉	13937
##쳣	13938
##뗶	13939
##뗵	13940
##햟	13941
##풱	13942
##쳔	13943
##닏	13944
##탹	13945
##븅	13946
##똟	13947
##읕	13948
##뷀	13949
##탼	13950
##륶	13951
##쉼	13952
##뿮	13953
##뱦	13954
##뒨	13955
##텄	13956
##칞	13957
##깰	13958
##뉠	13959
##뀩	13960
##랃	13961
##뭭	13962
##뫟	13963
##쏫	13964
##밻	13965
##샒	13966
##퇘	13967
##쟛	13968
##헼	13969
##뇬	13970
##섴	13971
##퓻	13972
##갷	13973
##꼇	13974
##횐	13975
##픋	13976
##둅	13977
##촡	13978
##굘	13979
##잤	13980
##걍	13981
##롫	13982
##픓	13983
##깈	13984
##큮	13985
##듳	13986
##뤙	13987
##톼	13988
##겴	13989
##껀	13990
##츩	13991
##삧	13992
##넠	13993
##썀	13994
##귬	13995
##퍗	13996
##멉	13997
##줜	13998
##붏	13999
##퐳	14000
##얔	14001
##굳	14002
##횦	14003
##긶	14004
##쁙	14005
##웉	14006
##횝	14007
##왂	14008
##렞	14009
##읷	14010
##덗	14011
##찢	14012
##윘	14013
##눤	14014
##놏	14015
##콫	14016
##얭	14017
##츀	14018
##킳	14019
##뚞	14020
##콬	14021
##톹	14022
##퐆	14023
##땩	14024
##툥	14025
##듟	14026
##웈	14027
##쳬	14028
##웸	14029
##뼉	14030
##셭	14031
##놑	14032
##룍	14033
##앚	14034
##깠	14035
##넸	14036
##괜	14037
##덯	14038
##컿	14039
##쉈	14040
##삜	14041
##흨	14042
##읃	14043
##뼥	14044
##둍	14045
##큣	14046
##뺚	14047
##퍙	14048
##뭅	14049
##뀜	14050
##윹	14051
##쏩	14052
##툉	14053
##븞	14054
##릾	14055
##탙	14056
##홱	14057
##혯	14058
##쌐	14059
##붱	14060
##췰	14061
##쑊	14062
##왘	14063
##엮	14064
##쟙	14065
##슢	14066
##탇	14067
##섣	14068
##똠	14069
##뫀	14070
##쩬	14071
##똏	14072
##귡	14073
##긮	14074
##깑	14075
##뎊	14076
##꽉	14077
##꽐	14078
##욷	14079
##맆	14080
##쬴	14081
##됼	14082
##굑	14083
##롇	14084
##꺆	14085
##쑜	14086
##꾁	14087
##짙	14088
##큔	14089
##흓	14090
##껠	14091
##뽝	14092
##쯰	14093
##콻	14094
##읓	14095
##튤	14096
##띙	14097
##싁	14098
##컁	14099
##뫞	14100
##뿷	14101
##땞	14102
##밪	14103
##뒗	14104
##됵	14105
##롊	14106
##롈	14107
##큇	14108
##꼍	14109
##쟘	14110
##좟	14111
##쁶	14112
##줆	14113
##끎	14114
##랋	14115
##츺	14116
##뿁	14117
##듄	14118
##꺅	14119
##큉	14120
##욣	14121
##롑	14122
##늕	14123
##쬲	14124
##끵	14125
##큽	14126
##갇	14127
##싰	14128
##탰	14129
##횔	14130
##귪	14131
##궸	14132
##궼	14133
##줛	14134
##놗	14135
##솫	14136
##뗛	14137
##몼	14138
##돇	14139
##돣	14140
##뢐	14141
##홳	14142
##잓	14143
##웫	14144
##룫	14145
##뺃	14146
##뗣	14147
##늿	14148
##떱	14149
##낻	14150
##궶	14151
##궻	14152
##랤	14153
##궢	14154
##쀠	14155
##줵	14156
##딫	14157
##췻	14158
##룐	14159
##빎	14160
##뼸	14161
##맓	14162
##싧	14163
##댋	14164
##핿	14165
##줊	14166
##셟	14167
##섧	14168
##갊	14169
##핣	14170
##닚	14171
##닧	14172
##쨈	14173
##빋	14174
##귖	14175
##궺	14176
##긲	14177
##깒	14178
##깛	14179
##긛	14180
##끊	14181
##맏	14182
##뭍	14183
##륑	14184
##밗	14185
##뛩	14186
##폯	14187
##졉	14188
##꺕	14189
##쪙	14190
##잫	14191
##핤	14192
##푴	14193
##뗠	14194
##휩	14195
##켑	14196
##셌	14197
##슽	14198
##떈	14199
##즛	14200
##툇	14201
##먳	14202
##맻	14203
##뮻	14204
##뭋	14205
##젋	14206
##훓	14207
##옺	14208
##튄	14209
##숎	14210
##땄	14211
##뛣	14212
##홣	14213
##꾫	14214
##쥿	14215
##홁	14216
##먄	14217
##흩	14218
##왇	14219
##쬰	14220
##돿	14221
##뽓	14222
##쬘	14223
##딺	14224
##핚	14225
##뽈	14226
##굛	14227
##댦	14228
##뷁	14229
##쫜	14230
##랒	14231
##곂	14232
##왷	14233
##띱	14234
##푠	14235
##띔	14236
##닾	14237
##쯩	14238
##죰	14239
##셣	14240
##퉹	14241
##챝	14242
##휙	14243
##굠	14244
##쉠	14245
##큠	14246
##뀻	14247
##쏟	14248
##잽	14249
##뇩	14250
##썻	14251
##맄	14252
##똬	14253
##휫	14254
##쑁	14255
##왱	14256
##죨	14257
##솁	14258
##곻	14259
##텽	14260
##롁	14261
##뱁	14262
##팂	14263
##쵮	14264
##맇	14265
##뚸	14266
##칣	14267
##렫	14268
##췍	14269
##풒	14270
##솎	14271
##윿	14272
##엓	14273
##꺐	14274
##	14275
##뽱	14276
##샇	14277
##둙	14278
##퇵	14279
##쎃	14280
##땗	14281
##퍝	14282
##쫙	14283
##붝	14284
##싐	14285
##톻	14286
##뜵	14287
##벜	14288
##뉸	14289
##횬	14290
##찎	14291
##핱	14292
##뜀	14293
##퐐	14294
##썄	14295
##돘	14296
##챞	14297
##곺	14298
##퉱	14299
##끍	14300
##휽	14301
##돤	14302
##겧	14303
##돫	14304
##닊	14305
##싄	14306
##뺐	14307
##댧	14308
##댯	14309
##왠	14310
##꺙	14311
##홝	14312
##럇	14313
##텼	14314
##쪨	14315
##뇔	14316
##밬	14317
##푷	14318
##룺	14319
##앝	14320
##뀪	14321
##셷	14322
##횅	14323
##먗	14324
##뇻	14325
##뇾	14326
##픤	14327
##퐄	14328
##펼	14329
##씍	14330
##댸	14331
##껸	14332
##챕	14333
##싈	14334
##폔	14335
##섈	14336
##앴	14337
##캢	14338
##욦	14339
##끜	14340
##웗	14341
##꽯	14342
##칰	14343
##꾱	14344
##덦	14345
##얻	14346
##픨	14347
##귶	14348
##뙓	14349
##뉩	14350
##몀	14351
##훁	14352
##뎂	14353
##닶	14354
##픳	14355
##쭓	14356
##띡	14357
##썷	14358
##뤩	14359
##헗	14360
##씃	14361
##뵜	14362
##괸	14363
##랣	14364
##얖	14365
##켬	14366
##쁴	14367
##쥭	14368
##꽹	14369
##퓩	14370
##졬	14371
##읠	14372
##젏	14373
##폵	14374
##숧	14375
##륽	14376
##씤	14377
##욺	14378
##젔	14379
##뺼	14380
##넡	14381
##븟	14382
##쀳	14383
##뵙	14384
##믁	14385
##옿	14386
##딯	14387
##곌	14388
##늏	14389
##껒	14390
##븃	14391
##쵤	14392
##쵠	14393
##샄	14394
##죔	14395
##쉡	14396
##뉻	14397
##뻴	14398
##닳	14399
##뀰	14400
##뼬	14401
##믱	14402
##콦	14403
##웳	14404
##댬	14405
##삗	14406
##줭	14407
##뒫	14408
##뒝	14409
##컫	14410
##꼳	14411
##얅	14412
##뷓	14413
##퇸	14414
으로	14415
에서	14416
20	14417
한다	14418
지만	14419
에게	14420
201	14421
는데	14422
때문	14423
19	14424
까지	14425
##00	14426
된다	14427
라고	14428
라는	14429
다고	14430
면서	14431
경우	14432
10	14433
사용	14434
다는	14435
공격	14436
아니	14437
이후	14438
자신	14439
##레이	14440
사람	14441
그리	14442
정도	14443
부터	14444
으며	14445
##스트	14446
가능	14447
다른	14448
이나	14449
12	14450
200	14451
보다	14452
등장	14453
는다	14454
대한	14455
11	14456
아이	14457
그리고	14458
게임	14459
하나	14460
경기	14461
..	14462
위해	14463
해서	14464
다가	14465
##er	14466
사실	14467
시간	14468
그러	14469
사이	14470
시작	14471
일본	14472
이상	14473
이름	14474
모습	14475
함께	14476
##니다	14477
##지만	14478
상대	14479
한국	14480
문제	14481
15	14482
나오	14483
거나	14484
다시	14485
어서	14486
##in	14487
하지만	14488
프로	14489
##스터	14490
만들	14491
생각	14492
으면	14493
또한	14494
들어	14495
따라	14496
가지	14497
가장	14498
캐릭	14499
당시	14500
##대로	14501
시즌	14502
처럼	14503
캐릭터	14504
플레이	14505
18	14506
##on	14507
능력	14508
##이트	14509
모두	14510
상황	14511
상태	14512
모든	14513
추가	14514
결국	14515
세계	14516
선수	14517
##an	14518
16	14519
##or	14520
스킬	14521
카드	14522
##미지	14523
현재	14524
보여	14525
다만	14526
많이	14527
보이	14528
전투	14529
효과	14530
다음	14531
30	14532
그러나	14533
그런	14534
존재	14535
지역	14536
으나	14537
##으며	14538
13	14539
미국	14540
시리	14541
14	14542
그래	14543
199	14544
##라이	14545
매우	14546
##ar	14547
##으나	14548
라이	14549
나온	14550
17	14551
대학	14552
상당	14553
레벨	14554
기록	14555
##he	14556
시리즈	14557
##인다	14558
##at	14559
스타	14560
기술	14561
대해	14562
레이	14563
다면	14564
물론	14565
무기	14566
##리아	14567
이용	14568
시키	14569
처음	14570
이유	14571
자체	14572
해야	14573
방송	14574
그렇	14575
100	14576
이런	14577
같이	14578
아닌	14579
필요	14580
영화	14581
실제	14582
여러	14583
해당	14584
25	14585
피해	14586
마법	14587
주인	14588
통해	14589
여기	14590
일반	14591
돌아	14592
거의	14593
##린다	14594
역시	14595
바로	14596
##리스	14597
리그	14598
인지	14599
학교	14600
인데	14601
사건	14602
##이스	14603
##en	14604
이야	14605
특히	14606
관련	14607
##거리	14608
기본	14609
2017	14610
부분	14611
##이지	14612
위치	14613
##진다	14614
진행	14615
##ou	14616
아무	14617
방어	14618
2018	14619
##부분	14620
이야기	14621
대표	14622
떨어	14623
국가	14624
는지	14625
없이	14626
##지막	14627
못하	14628
제작	14629
활동	14630
인간	14631
달리	14632
에선	14633
동안	14634
작품	14635
증가	14636
대부분	14637
아서	14638
##al	14639
마지막	14640
본인	14641
2019	14642
일부	14643
계속	14644
자기	14645
버리	14646
##시아	14647
21	14648
서울	14649
라면	14650
내용	14651
만큼	14652
##es	14653
해도	14654
인해	14655
주인공	14656
2016	14657
감독	14658
##어나	14659
보인다	14660
참고	14661
속도	14662
관계	14663
50	14664
##전히	14665
중국	14666
대신	14667
수준	14668
이전	14669
그냥	14670
올라	14671
비슷	14672
어느	14673
전쟁	14674
지금	14675
타이	14676
우리	14677
##한다	14678
성공	14679
22	14680
기준	14681
인물	14682
습니다	14683
도시	14684
198	14685
상당히	14686
공격력	14687
그녀	14688
24	14689
마다	14690
도록	14691
최대	14692
기사	14693
##민국	14694
결과	14695
지원	14696
그대로	14697
평가	14698
시절	14699
너무	14700
므로	14701
보스	14702
제외	14703
##it	14704
자리	14705
##토리	14706
연구	14707
##버지	14708
의미	14709
의해	14710
나타	14711
소속	14712
이미	14713
실제로	14714
승리	14715
직접	14716
전체	14717
새로	14718
2015	14719
영상	14720
대한민국	14721
23	14722
유닛	14723
원래	14724
체력	14725
여자	14726
##부터	14727
로서	14728
언급	14729
대로	14730
개발	14731
데미지	14732
멤버	14733
##ing	14734
유저	14735
알려	14736
##st	14737
##le	14738
##학교	14739
##ic	14740
이동	14741
마음	14742
설정	14743
40	14744
정보	14745
문서	14746
다르	14747
방법	14748
선택	14749
##다가	14750
애니	14751
##re	14752
과거	14753
이것	14754
##운드	14755
몬스터	14756
으니	14757
머리	14758
들어가	14759
이어	14760
출연	14761
성우	14762
친구	14763
포함	14764
나가	14765
차이	14766
##랜드	14767
##dd	14768
위한	14769
##이션	14770
##라도	14771
나온다	14772
대상	14773
설명	14774
엄청	14775
##가지	14776
사회	14777
바람	14778
플레이어	14779
장면	14780
나왔	14781
준다	14782
우승	14783
최고	14784
여성	14785
버전	14786
사랑	14787
비해	14788
소리	14789
프리	14790
아버지	14791
지나	14792
##이드	14793
동시	14794
공식	14795
유명	14796
시대	14797
당하	14798
2014	14799
만든	14800
배우	14801
발생	14802
이루	14803
영향	14804
사망	14805
주로	14806
거리	14807
대회	14808
려고	14809
프랑	14810
##주의	14811
남자	14812
결정	14813
조금	14814
발매	14815
26	14816
주장	14817
출신	14818
아이템	14819
##ff	14820
나라	14821
초반	14822
000	14823
이러	14824
인터	14825
학생	14826
##어난	14827
전부	14828
버스	14829
공개	14830
사라	14831
마이	14832
역사	14833
28	14834
운영	14835
서로	14836
유지	14837
파이	14838
스토리	14839
모드	14840
##el	14841
한다는	14842
27	14843
구성	14844
대사	14845
파괴	14846
제대로	14847
##am	14848
했으나	14849
정부	14850
방식	14851
그것	14852
음악	14853
강화	14854
31	14855
자주	14856
중요	14857
아직	14858
후반	14859
이때	14860
또는	14861
월드	14862
the	14863
과정	14864
형태	14865
최종	14866
이렇	14867
나이	14868
정치	14869
역할	14870
독일	14871
시스	14872
최초	14873
##벤트	14874
노래	14875
대전	14876
이벤트	14877
시켜	14878
##om	14879
강력	14880
마리	14881
모르	14882
스테	14883
정말	14884
##른다	14885
변경	14886
회복	14887
##머니	14888
##이도	14889
기존	14890
어떤	14891
##우스	14892
그런데	14893
드라	14894
영국	14895
보통	14896
드래	14897
비교	14898
소환	14899
라도	14900
정신	14901
마찬	14902
마찬가지	14903
##la	14904
가진	14905
조선	14906
인기	14907
당연	14908
특성	14909
부르	14910
##is	14911
성능	14912
##프트	14913
못했	14914
확률	14915
속성	14916
마을	14917
행동	14918
2013	14919
슈퍼	14920
오히	14921
노선	14922
모양	14923
오히려	14924
##리어	14925
아래	14926
자유	14927
아들	14928
교육	14929
197	14930
발견	14931
차량	14932
바이	14933
라인	14934
29	14935
수록	14936
게다가	14937
따르	14938
32	14939
부족	14940
특수	14941
프랑스	14942
##et	14943
이번	14944
00	14945
대학교	14946
확인	14947
그래서	14948
성격	14949
문화	14950
유일	14951
활약	14952
차지	14953
새로운	14954
했으며	14955
##ol	14956
가까	14957
2012	14958
관리	14959
장비	14960
만나	14961
##ion	14962
버렸	14963
영웅	14964
모델	14965
그래도	14966
일단	14967
입장	14968
아예	14969
찾아	14970
생산	14971
스트	14972
시스템	14973
이렇게	14974
어려	14975
제국	14976
고등	14977
다이	14978
심지	14979
##간다	14980
시킨	14981
심지어	14982
먼저	14983
경찰	14984
반대	14985
계획	14986
주변	14987
##레이드	14988
넘어	14989
운동	14990
2010	14991
어야	14992
앨범	14993
##디오	14994
자동	14995
거기	14996
완전히	14997
조건	14998
드러	14999
내려	15000
우주	15001
기간	15002
사진	15003
바뀌	15004
힘들	15005
##레스	15006
난이도	15007
부대	15008
개인	15009
적용	15010
발동	15011
기능	15012
어떻	15013
##ow	15014
지구	15015
건물	15016
60	15017
감소	15018
위원	15019
##nd	15020
km	15021
##20	15022
축구	15023
##통령	15024
자세	15025
##il	15026
##ig	15027
##므로	15028
중심	15029
한다고	15030
##인트	15031
##ed	15032
실패	15033
이제	15034
메이	15035
애니메	15036
하이	15037
세트	15038
혹은	15039
중앙	15040
선거	15041
라며	15042
현대	15043
35	15044
으로서	15045
회사	15046
덕분	15047
초기	15048
전혀	15049
얼굴	15050
데이	15051
작가	15052
시기	15053
표현	15054
따라서	15055
국내	15056
원작	15057
대통령	15058
보내	15059
패배	15060
위해서	15061
민주	15062
처리	15063
오브	15064
순간	15065
##너지	15066
TV	15067
동일	15068
##버스	15069
지속	15070
프로그	15071
드라마	15072
반응	15073
지방	15074
합니다	15075
도움	15076
얼마	15077
다니	15078
더라도	15079
인정	15080
참여	15081
기관	15082
애니메이션	15083
출시	15084
##니아	15085
명칭	15086
##ac	15087
판매	15088
담당	15089
데뷔	15090
##as	15091
##없이	15092
##BS	15093
정확	15094
불리	15095
요구	15096
획득	15097
196	15098
##나마	15099
##리카	15100
굉장	15101
스페	15102
하루	15103
생활	15104
of	15105
그렇게	15106
시점	15107
2011	15108
작중	15109
다양	15110
발표	15111
밖에	15112
후보	15113
설치	15114
그룹	15115
상승	15116
진출	15117
선발	15118
아군	15119
구조	15120
기억	15121
항목	15122
Lv	15123
영어	15124
만화	15125
가격	15126
움직	15127
단계	15128
그림	15129
##소드	15130
특별	15131
마스터	15132
물리	15133
실력	15134
가져	15135
##ve	15136
그나마	15137
드래곤	15138
아마	15139
에피	15140
어도	15141
01	15142
조차	15143
야구	15144
다며	15145
시장	15146
The	15147
가족	15148
사고	15149
범위	15150
특징	15151
경제	15152
려는	15153
시청	15154
방향	15155
##소리	15156
연기	15157
대체	15158
패치	15159
경험	15160
계약	15161
고려	15162
수비	15163
빠르	15164
##ot	15165
나와	15166
밝혀	15167
아르	15168
확실	15169
참가	15170
국제	15171
디자	15172
에피소드	15173
500	15174
세대	15175
발사	15176
폭발	15177
##로스	15178
브라	15179
묘사	15180
싸우	15181
로부터	15182
##스크	15183
주의	15184
한테	15185
프로그램	15186
어린	15187
고등학교	15188
80	15189
##비스	15190
활용	15191
2000	15192
어떻게	15193
라서	15194
죽이	15195
상위	15196
결혼	15197
어머니	15198
무시	15199
제한	15200
비판	15201
목적	15202
더욱	15203
준비	15204
중간	15205
각각	15206
##ad	15207
37	15208
대해서	15209
보호	15210
##어지	15211
러시아	15212
45	15213
아야	15214
아주	15215
버프	15216
챔피	15217
라운드	15218
굉장히	15219
이미지	15220
패턴	15221
국민	15222
오리	15223
어디	15224
히로	15225
위험	15226
진짜	15227
참조	15228
세이	15229
어렵	15230
대미지	15231
생명	15232
조직	15233
싸움	15234
조사	15235
단순	15236
듯이	15237
과학	15238
여담	15239
크리스	15240
타입	15241
세력	15242
현실	15243
파워	15244
St	15245
안타	15246
시도	15247
소모	15248
제공	15249
주요	15250
구간	15251
194	15252
유리	15253
불구	15254
전문	15255
지하	15256
유럽	15257
일으	15258
연속	15259
부산	15260
세기	15261
나머	15262
혼자	15263
못한	15264
순위	15265
논란	15266
##러운	15267
조합	15268
한정	15269
포인트	15270
사실상	15271
엄청난	15272
기에	15273
약간	15274
으므로	15275
나머지	15276
동료	15277
##id	15278
70	15279
나무	15280
분위	15281
성장	15282
09	15283
떨어지	15284
버린다	15285
##ay	15286
무장	15287
여전히	15288
보였	15289
디자인	15290
분위기	15291
당연히	15292
취급	15293
항공	15294
출전	15295
90	15296
이해	15297
올리	15298
트리	15299
학년	15300
##스로	15301
일정	15302
지도	15303
규모	15304
등급	15305
훨씬	15306
FC	15307
##ER	15308
투수	15309
소설	15310
##나라	15311
한편	15312
예정	15313
인구	15314
운행	15315
블랙	15316
성적	15317
##어났	15318
강한	15319
부상	15320
자연	15321
엔딩	15322
기타	15323
살아	15324
삼성	15325
계열	15326
mm	15327
02	15328
해결	15329
2009	15330
03	15331
사업	15332
##ch	15333
스테이지	15334
센터	15335
였으며	15336
방면	15337
연결	15338
미션	15339
300	15340
기대	15341
##이크	15342
방영	15343
최근	15344
의견	15345
였으나	15346
연합	15347
수정	15348
##us	15349
48	15350
으면서	15351
변화	15352
도망	15353
종류	15354
자면	15355
##ir	15356
이탈	15357
표기	15358
잘못	15359
전용	15360
05	15361
퀘스트	15362
배치	15363
195	15364
추정	15365
33	15366
for	15367
##려서	15368
2008	15369
발전	15370
소녀	15371
36	15372
08	15373
##난다	15374
대화	15375
거대	15376
보여준	15377
정상	15378
직업	15379
시켰	15380
안정	15381
07	15382
##ur	15383
도중	15384
메인	15385
죽음	15386
엔진	15387
충분	15388
스스로	15389
종료	15390
나타나	15391
##스타	15392
작전	15393
##티브	15394
수상	15395
챔피언	15396
세상	15397
이라	15398
나중	15399
오래	15400
독립	15401
일행	15402
비행	15403
쓰러	15404
요소	15405
오른	15406
느낌	15407
마저	15408
당신	15409
입니다	15410
HP	15411
보상	15412
에너지	15413
당했	15414
만드	15415
방어력	15416
달성	15417
수도	15418
비롯	15419
전설	15420
##..	15421
공연	15422
##od	15423
미사	15424
무리	15425
06	15426
동물	15427
배틀	15428
##러스	15429
##BC	15430
부활	15431
특정	15432
장착	15433
훈련	15434
스피	15435
절대	15436
th	15437
스카	15438
졸업	15439
철도	15440
유니	15441
버린	15442
##im	15443
##자기	15444
기업	15445
전기	15446
다운	15447
포켓	15448
위기	15449
지휘	15450
행정	15451
싱글	15452
번역	15453
번호	15454
근접	15455
##란드	15456
더불	15457
아이돌	15458
제목	15459
건설	15460
04	15461
관심	15462
만약	15463
##아들	15464
미래	15465
황제	15466
내부	15467
남성	15468
반면	15469
요리	15470
올림	15471
득점	15472
##un	15473
충격	15474
점수	15475
##ut	15476
##다는	15477
신경	15478
SK	15479
시험	15480
전차	15481
##리오	15482
군사	15483
돌아가	15484
목소리	15485
목표	15486
강하	15487
홈런	15488
지지	15489
소재	15490
2007	15491
전사	15492
##운데	15493
##데이트	15494
업데이트	15495
정체	15496
you	15497
공간	15498
##지션	15499
똑같	15500
했었	15501
가끔	15502
무대	15503
##어들	15504
스파	15505
시설	15506
사이트	15507
타격	15508
로마	15509
오늘	15510
34	15511
##인물	15512
도로	15513
일어나	15514
배경	15515
링크	15516
지정	15517
장소	15518
각성	15519
전작	15520
누구	15521
서비스	15522
공중	15523
항상	15524
날아	15525
##ro	15526
최소	15527
교체	15528
다리	15529
그만	15530
전국	15531
파티	15532
분노	15533
쓰이	15534
##어진	15535
##너스	15536
생존	15537
작곡	15538
북한	15539
등장인물	15540
정식	15541
예상	15542
##수록	15543
자랑	15544
의원	15545
부여	15546
클래	15547
생긴	15548
작업	15549
무엇	15550
포켓몬	15551
사냥	15552
##디어	15553
분류	15554
종족	15555
스포	15556
으로써	15557
한데	15558
인도	15559
악마	15560
##ag	15561
##igh	15562
소개	15563
야마	15564
38	15565
한다면	15566
인사	15567
스타일	15568
아프	15569
비밀	15570
##ver	15571
엘리	15572
단체	15573
얘기	15574
케이	15575
애초	15576
인터뷰	15577
괜찮	15578
가수	15579
필드	15580
##ec	15581
오르	15582
결승	15583
##동안	15584
cm	15585
판정	15586
빠른	15587
크리	15588
이끌	15589
기계	15590
클리어	15591
75	15592
목록	15593
연출	15594
각종	15595
외국	15596
카이	15597
하늘	15598
이외	15599
타카	15600
명령	15601
파일	15602
가리	15603
##ent	15604
제일	15605
2006	15606
초등	15607
아파	15608
기체	15609
병력	15610
지상	15611
카운	15612
로봇	15613
개념	15614
55	15615
전반	15616
확정	15617
기동	15618
in	15619
교통	15620
불러	15621
으려	15622
정작	15623
193	15624
건담	15625
레어	15626
비용	15627
별로	15628
##ak	15629
화력	15630
##인지	15631
장갑	15632
올림픽	15633
수행	15634
군대	15635
니까	15636
가르	15637
사항	15638
표시	15639
크기	15640
##다고	15641
이게	15642
가운데	15643
프레	15644
따로	15645
인식	15646
시티	15647
행위	15648
사격	15649
수치	15650
경쟁	15651
라이브	15652
##해서	15653
떠나	15654
2020	15655
##라인	15656
사거리	15657
to	15658
##um	15659
알아	15660
인가	15661
아카	15662
가문	15663
기반	15664
변신	15665
갑자기	15666
저항	15667
감정	15668
',	15669
이걸	15670
나름	15671
포지션	15672
##젝트	15673
이기	15674
마치	15675
진화	15676
이탈리아	15677
달려	15678
완전	15679
평균	15680
왕국	15681
아키	15682
단점	15683
집중	15684
인천	15685
보유	15686
교수	15687
나올	15688
근처	15689
통합	15690
지키	15691
당한	15692
기회	15693
병원	15694
vs	15695
직전	15696
의하	15697
던전	15698
노력	15699
임무	15700
지난	15701
냐고	15702
빠져	15703
의식	15704
아도	15705
코스	15706
자원	15707
전자	15708
특이	15709
국회	15710
설립	15711
탈출	15712
##화국	15713
언제	15714
정의	15715
오버	15716
압도	15717
##르트	15718
##ST	15719
바라	15720
이닝	15721
베이	15722
월드컵	15723
부모	15724
단어	15725
다크	15726
부정	15727
환경	15728
##em	15729
고양	15730
현상	15731
##ub	15732
정리	15733
사례	15734
잠시	15735
사정	15736
##비아	15737
판단	15738
효율	15739
시전	15740
스러운	15741
제품	15742
지켜	15743
이쪽	15744
생기	15745
극장	15746
치명	15747
일러	15748
로드	15749
본래	15750
달라	15751
가까운	15752
기다	15753
##말로	15754
주제	15755
무슨	15756
촬영	15757
아스	15758
파트	15759
더니	15760
##000	15761
삭제	15762
상관	15763
##르크	15764
의외	15765
##라스	15766
주문	15767
위원회	15768
전력	15769
동생	15770
고속	15771
이건	15772
원인	15773
주민	15774
대구	15775
여행	15776
물건	15777
제거	15778
지배	15779
강제	15780
발언	15781
소련	15782
연습	15783
치료	15784
병사	15785
##어로	15786
포기	15787
스코	15788
스럽	15789
골드	15790
위력	15791
요시	15792
도전	15793
2005	15794
전개	15795
끝나	15796
이하	15797
노트	15798
저지	15799
역대	15800
책임	15801
해군	15802
중학교	15803
기념	15804
##요일	15805
사무	15806
올라가	15807
도입	15808
정책	15809
시킬	15810
봐도	15811
점프	15812
나이트	15813
완성	15814
복귀	15815
실험	15816
##ight	15817
화면	15818
이르	15819
42	15820
루트	15821
고정	15822
려면	15823
공주	15824
도쿄	15825
살인	15826
유사	15827
레드	15828
바꾸	15829
의사	15830
음식	15831
41	15832
##학생	15833
페이	15834
##트리	15835
##야마	15836
별명	15837
바다	15838
던지	15839
받아들	15840
차원	15841
직후	15842
선생	15843
이적	15844
히어로	15845
불가	15846
다수	15847
사기	15848
밝혔	15849
중반	15850
구하	15851
39	15852
티어	15853
전략	15854
히트	15855
어둠	15856
밴드	15857
분명	15858
마나	15859
공동	15860
도착	15861
2004	15862
##무리	15863
무려	15864
미니	15865
##모토	15866
접근	15867
언어	15868
녀석	15869
가치	15870
제도	15871
EX	15872
관한	15873
LG	15874
에게서	15875
정당	15876
으로부터	15877
은데	15878
오프	15879
회피	15880
추천	15881
타임	15882
조종	15883
정규	15884
사상	15885
시민	15886
대기	15887
밀리	15888
예전	15889
##ce	15890
확장	15891
아파트	15892
신체	15893
고자	15894
##루스	15895
##그레이드	15896
업그레이드	15897
생겼	15898
마사	15899
구매	15900
##AR	15901
##드시	15902
연장	15903
롯데	15904
리더	15905
자료	15906
랭크	15907
이곳	15908
반드시	15909
폭탄	15910
##os	15911
투표	15912
탈락	15913
타이틀	15914
인터넷	15915
부탁	15916
어요	15917
장치	15918
단지	15919
##다니	15920
##시마	15921
학원	15922
완벽	15923
크로	15924
라이트	15925
미사일	15926
종교	15927
44	15928
노리	15929
우선	15930
##ri	15931
일러스트	15932
소유	15933
형식	15934
해외	15935
고대	15936
##AN	15937
구역	15938
장점	15939
사령	15940
최강	15941
데스	15942
심각	15943
산업	15944
뛰어난	15945
아내	15946
##ula	15947
Ch	15948
금지	15949
하드	15950
##ON	15951
##역시	15952
도와	15953
추측	15954
다루	15955
버그	15956
실시	15957
올려	15958
No	15959
자마	15960
위키	15961
마무리	15962
##ap	15963
43	15964
느끼	15965
99	15966
대장	15967
클럽	15968
몇몇	15969
그린	15970
공포	15971
가사	15972
##져서	15973
노동	15974
##and	15975
##이치	15976
2002	15977
연재	15978
가드	15979
구분	15980
st	15981
검사	15982
달러	15983
범죄	15984
합류	15985
점점	15986
시킨다	15987
서버	15988
로스	15989
조정	15990
요청	15991
보여준다	15992
이사	15993
행사	15994
##이어	15995
차례	15996
##트라	15997
form	15998
레인	15999
옵션	16000
맞추	16001
재료	16002
보병	16003
그야	16004
##러리	16005
조작	16006
선정	16007
선언	16008
수많	16009
마법사	16010
다소	16011
걸리	16012
전통	16013
교회	16014
타자	16015
걱정	16016
프로젝트	16017
kg	16018
그리스	16019
종종	16020
개그	16021
47	16022
스포츠	16023
46	16024
데이터	16025
51	16026
191	16027
좋아	16028
컴퓨	16029
개월	16030
암살	16031
부하	16032
광고	16033
형제	16034
마르	16035
formula	16036
열차	16037
빨리	16038
성향	16039
뉴스	16040
대중	16041
개최	16042
평범	16043
##나이	16044
이라고	16045
내리	16046
자마자	16047
KBS	16048
포스	16049
인한	16050
##조건	16051
그야말로	16052
실점	16053
한계	16054
스페인	16055
구단	16056
재미	16057
채널	16058
대결	16059
##아내	16060
설계	16061
코드	16062
##ter	16063
거부	16064
통신	16065
언론	16066
아무리	16067
워낙	16068
생물	16069
다행	16070
비중	16071
보조	16072
복수	16073
종합	16074
알려져	16075
행성	16076
컴퓨터	16077
민족	16078
기지	16079
디스	16080
and	16081
전화	16082
높이	16083
한글	16084
무한	16085
투입	16086
개봉	16087
해석	16088
무조건	16089
본격	16090
영혼	16091
에이	16092
냐는	16093
그걸	16094
운용	16095
어려운	16096
모자	16097
굳이	16098
##ul	16099
MA	16100
평소	16101
정확히	16102
실수	16103
회장	16104
원정	16105
광주	16106
##IN	16107
걸로	16108
지적	16109
모아	16110
소년	16111
##타임	16112
연주	16113
지명	16114
와중	16115
##무라	16116
인상	16117
1000	16118
위협	16119
미드	16120
박사	16121
2003	16122
회의	16123
상징	16124
충분히	16125
##op	16126
등록	16127
는가	16128
사태	16129
집단	16130
대형	16131
가정	16132
대응	16133
카메	16134
그럼	16135
대비	16136
보너스	16137
터미	16138
넘어가	16139
아웃	16140
자동차	16141
소비	16142
##ck	16143
전원	16144
보컬	16145
체제	16146
공사	16147
페르	16148
시청자	16149
%,	16150
##뜨리	16151
##로드	16152
태양	16153
특유	16154
희생	16155
150	16156
비하	16157
조각	16158
플래	16159
가면	16160
개조	16161
모른다	16162
맞춰	16163
65	16164
##FA	16165
군단	16166
##자리	16167
##ation	16168
무사	16169
편성	16170
열린	16171
봉인	16172
해졌	16173
거두	16174
된다는	16175
##리트	16176
여름	16177
MBC	16178
마력	16179
##니스	16180
SP	16181
##드리	16182
일종	16183
기자	16184
##로그	16185
##ra	16186
아라	16187
192	16188
육군	16189
앞서	16190
간단	16191
발음	16192
네이	16193
장군	16194
공항	16195
들어오	16196
스크	16197
생성	16198
통과	16199
얼마나	16200
##일러	16201
##의원	16202
시나	16203
분리	16204
움직이	16205
방문	16206
64	16207
오리지	16208
II	16209
##다면	16210
장르	16211
동맹	16212
장기	16213
오랜	16214
바르	16215
함정	16216
반복	16217
고양이	16218
서술	16219
##튜브	16220
소식	16221
의도	16222
전환	16223
사쿠	16224
펼치	16225
빼앗	16226
분야	16227
디지	16228
로써	16229
근데	16230
52	16231
불과	16232
유튜브	16233
세요	16234
가깝	16235
바닥	16236
영입	16237
안전	16238
경기도	16239
브레이	16240
괴물	16241
저격	16242
마크	16243
##텐츠	16244
제안	16245
거쳐	16246
흡수	16247
점령	16248
You	16249
힘든	16250
##시스	16251
의지	16252
는다는	16253
엄청나	16254
못한다	16255
예선	16256
초대	16257
필살	16258
미리	16259
최후	16260
##니티	16261
전해	16262
400	16263
개선	16264
그때	16265
공략	16266
유도	16267
##남도	16268
화염	16269
와서	16270
빠지	16271
숫자	16272
독자	16273
사라지	16274
전술	16275
##art	16276
데려	16277
코치	16278
그저	16279
방해	16280
주력	16281
액션	16282
확보	16283
외모	16284
인원	16285
매일	16286
평화	16287
##낸다	16288
비트	16289
드립	16290
진입	16291
터미널	16292
이론	16293
##런스	16294
##니까	16295
규정	16296
관통	16297
VS	16298
클래스	16299
피하	16300
라디오	16301
에스	16302
오토	16303
장난	16304
뭔가	16305
수사	16306
49	16307
##오스	16308
이치	16309
투자	16310
승부	16311
컨셉	16312
눈물	16313
체육	16314
목숨	16315
형성	16316
적극	16317
느냐	16318
방패	16319
AP	16320
56	16321
가스	16322
패러	16323
상자	16324
음반	16325
진다	16326
끝내	16327
모험	16328
사과	16329
아름	16330
서브	16331
리어	16332
왼쪽	16333
적절	16334
인류	16335
한국어	16336
계기	16337
보도	16338
모리	16339
살아남	16340
2001	16341
함대	16342
구축	16343
##동생	16344
거짓	16345
의심	16346
간다	16347
약점	16348
그려	16349
##여서	16350
예술	16351
공화국	16352
역전	16353
##스케	16354
인형	16355
기원	16356
53	16357
오리지널	16358
54	16359
비디오	16360
##페이지	16361
작성	16362
완료	16363
더블	16364
##모리	16365
당해	16366
...	16367
##온다	16368
공부	16369
은퇴	16370
수리	16371
코어	16372
솔로	16373
회전	16374
스위	16375
##라이더	16376
지닌	16377
단순히	16378
대단	16379
질문	16380
In	16381
PC	16382
편집	16383
황금	16384
부른다	16385
마침	16386
뮤직	16387
##래프트	16388
알렉	16389
##로우	16390
시내	16391
안드	16392
##시브	16393
홈페이지	16394
착용	16395
필수	16396
트랙	16397
누군	16398
상대방	16399
날려	16400
꾸준	16401
85	16402
보수	16403
해제	16404
민주당	16405
미스	16406
선보	16407
카페	16408
이어지	16409
을지	16410
나쁘	16411
엄마	16412
아프리카	16413
드라이	16414
경상	16415
##ia	16416
사단	16417
습격	16418
장관	16419
1990	16420
현장	16421
날개	16422
사장	16423
코스트	16424
비난	16425
포르	16426
희망	16427
돌려	16428
원거리	16429
##ill	16430
오스	16431
의한	16432
수원	16433
##ie	16434
재판	16435
분석	16436
하위	16437
##으니	16438
##레이션	16439
명중	16440
아시아	16441
지니	16442
진정	16443
무력	16444
코믹	16445
선물	16446
##RA	16447
성인	16448
수호	16449
ST	16450
모티브	16451
##힌다	16452
##IA	16453
비고	16454
에이스	16455
청소	16456
확실히	16457
심하	16458
블루	16459
행복	16460
경계	16461
저주	16462
감안	16463
카즈	16464
중단	16465
태도	16466
가슴	16467
190	16468
##ik	16469
임명	16470
남편	16471
공원	16472
기획	16473
지식	16474
관광	16475
##나다	16476
표정	16477
허용	16478
승강	16479
스마	16480
쿨타임	16481
장애	16482
수단	16483
오른쪽	16484
탑재	16485
아쉬	16486
바탕	16487
본선	16488
딱히	16489
인민	16490
제시	16491
소프트	16492
상처	16493
주도	16494
##무원	16495
당장	16496
59	16497
##연히	16498
##북도	16499
의문	16500
영역	16501
유래	16502
기점	16503
유우	16504
테마	16505
소울	16506
테크	16507
고통	16508
리스	16509
마시	16510
보급	16511
##ab	16512
직원	16513
불명	16514
돌파	16515
기어	16516
일어난	16517
베이스	16518
위주	16519
멀티	16520
작용	16521
나누	16522
주목	16523
제압	16524
대답	16525
120	16526
58	16527
나카	16528
그라	16529
잠깐	16530
##워드	16531
##마스	16532
주연	16533
카운터	16534
여부	16535
고유	16536
제기	16537
순서	16538
미치	16539
##워서	16540
측면	16541
베르	16542
체계	16543
도서	16544
##est	16545
게이	16546
57	16547
업무	16548
박스	16549
진영	16550
부인	16551
우수	16552
##th	16553
MP	16554
멀리	16555
문명	16556
이스	16557
카메라	16558
패스	16559
횟수	16560
후속	16561
멸망	16562
통일	16563
온라인	16564
##all	16565
버튼	16566
공장	16567
어찌	16568
##트롤	16569
텔레	16570
시나리오	16571
지내	16572
지점	16573
거주	16574
케이스	16575
귀족	16576
놀라	16577
##ea	16578
66	16579
알리	16580
95	16581
코너	16582
문자	16583
당선	16584
에어	16585
겨우	16586
협력	16587
차별	16588
특기	16589
계산	16590
소수	16591
지옥	16592
약속	16593
듀얼	16594
삼국	16595
최악	16596
마츠	16597
눈치	16598
크로스	16599
뉴욕	16600
Sh	16601
연계	16602
대하	16603
딜러	16604
시체	16605
은행	16606
##머리	16607
Lo	16608
##ct	16609
스펙	16610
살해	16611
느껴	16612
ddd	16613
on	16614
바꿔	16615
개편	16616
을까	16617
오후	16618
유키	16619
1999	16620
스케	16621
Re	16622
붕괴	16623
배신	16624
게시	16625
대놓	16626
자격	16627
혁명	16628
어울	16629
떨어져	16630
버려	16631
매치	16632
군주	16633
부담	16634
110	16635
처치	16636
##ddd	16637
생겨	16638
dddddd	16639
Sp	16640
컨트롤	16641
게이지	16642
1998	16643
벌이	16644
##AL	16645
해금	16646
##스티	16647
나아	16648
그레이	16649
겨울	16650
국회의원	16651
다름	16652
견제	16653
증거	16654
에겐	16655
레이저	16656
스탠	16657
미친	16658
외부	16659
최대한	16660
군인	16661
구해	16662
장전	16663
된다고	16664
교사	16665
필살기	16666
제조	16667
##AT	16668
62	16669
출발	16670
진실	16671
자살	16672
핵심	16673
##바이	16674
##PS	16675
정권	16676
##피아	16677
대원	16678
후지	16679
따른	16680
여왕	16681
전장	16682
궁극	16683
##라리	16684
누군가	16685
미군	16686
##OR	16687
중화	16688
연방	16689
용병	16690
가졌	16691
마왕	16692
##니어	16693
스프	16694
로켓	16695
아침	16696
##래도	16697
댄스	16698
가로	16699
##VE	16700
거절	16701
제로	16702
충전	16703
미나	16704
누가	16705
한화	16706
타이밍	16707
출생	16708
자이	16709
누르	16710
유용	16711
공산	16712
돌아오	16713
SS	16714
알려진	16715
일본어	16716
기분	16717
SBS	16718
##어져	16719
이성	16720
##터리	16721
커뮤	16722
조준	16723
만족	16724
충돌	16725
바뀐	16726
날리	16727
고급	16728
브랜드	16729
##어도	16730
도구	16731
단위	16732
취소	16733
는다고	16734
트레	16735
애매	16736
교환	16737
스피드	16738
부진	16739
거래	16740
##ate	16741
스킨	16742
##로이드	16743
터지	16744
##사카	16745
수학	16746
흔히	16747
##ess	16748
피해자	16749
뛰어	16750
극장판	16751
토스	16752
Th	16753
카르	16754
##ell	16755
61	16756
반란	16757
제주	16758
##광역시	16759
##나가	16760
발휘	16761
세계관	16762
얼음	16763
##ard	16764
무게	16765
끝난	16766
76	16767
오스트	16768
해진	16769
우려	16770
장수	16771
파악	16772
후반부	16773
자고	16774
하트	16775
건너	16776
##ang	16777
끼리	16778
단독	16779
통하	16780
아무래도	16781
모션	16782
레전	16783
홍콩	16784
인생	16785
패시브	16786
공통	16787
##IC	16788
##하라	16789
근무	16790
판타	16791
미야	16792
##ue	16793
신화	16794
비록	16795
격투	16796
아머	16797
한자	16798
빌리	16799
헤드	16800
##ant	16801
##ack	16802
순수	16803
##ers	16804
피아	16805
Al	16806
NP	16807
웨이	16808
77	16809
커버	16810
구입	16811
##아리	16812
정령	16813
##다운	16814
파이터	16815
브리	16816
##ine	16817
88	16818
공군	16819
1997	16820
##다수	16821
운전	16822
72	16823
등등	16824
혼란	16825
계급	16826
자식	16827
가입	16828
그게	16829
줄어들	16830
수입	16831
아메	16832
스코어	16833
닥터	16834
##심히	16835
트레이	16836
회수	16837
떨어진	16838
권력	16839
경력	16840
본부	16841
채용	16842
지시	16843
공작	16844
근거	16845
마이크	16846
데리	16847
속하	16848
##피스	16849
탄생	16850
쉬운	16851
생일	16852
밸런스	16853
해방	16854
비율	16855
##친다	16856
향해	16857
기절	16858
건강	16859
지하철	16860
언니	16861
용도	16862
테러	16863
꾸준히	16864
늘어나	16865
##가락	16866
기다리	16867
병기	16868
엑스	16869
표준	16870
갤러리	16871
좋아하	16872
BG	16873
타워	16874
로운	16875
실질	16876
돌격	16877
##메달	16878
지대	16879
##ok	16880
##OS	16881
납치	16882
증명	16883
협회	16884
반영	16885
홍보	16886
지급	16887
프라	16888
남부	16889
인지라	16890
대공	16891
강조	16892
아사	16893
입학	16894
be	16895
플라	16896
오오	16897
약한	16898
나쁜	16899
파라	16900
트위	16901
불안	16902
업체	16903
여겨	16904
랜덤	16905
373	16906
FI	16907
유형	16908
그럴	16909
외교	16910
요원	16911
##디션	16912
경영	16913
왕자	16914
or	16915
들어갔	16916
##유키	16917
밀려	16918
아나	16919
감염	16920
대륙	16921
경향	16922
##세이	16923
98	16924
fff	16925
위하	16926
온갖	16927
훌륭	16928
광역	16929
감사	16930
CD	16931
gt	16932
고서	16933
연대	16934
마녀	16935
실행	16936
장식	16937
문학	16938
##ive	16939
패러디	16940
##웨이	16941
쓴다	16942
기독	16943
트라	16944
못해	16945
페이스	16946
메탈	16947
물질	16948
600	16949
##오리	16950
어쩔	16951
입단	16952
재생	16953
가까이	16954
태어났	16955
##크래프트	16956
울트라	16957
스페셜	16958
화살	16959
추진	16960
주년	16961
어차	16962
집안	16963
고민	16964
내내	16965
설득	16966
대다수	16967
계승	16968
1996	16969
서포	16970
조지	16971
건지	16972
정해	16973
승강장	16974
살짝	16975
사카	16976
선배	16977
##트로	16978
드리	16979
어차피	16980
부문	16981
폐지	16982
##ast	16983
이슬	16984
캐나다	16985
##고기	16986
무서	16987
숨겨	16988
올랐	16989
PS	16990
##AS	16991
영원	16992
정지	16993
대놓고	16994
봐야	16995
신문	16996
베트	16997
1995	16998
보물	16999
적당	17000
신뢰	17001
이래	17002
사전	17003
##바로	17004
브라질	17005
연예	17006
##어리	17007
작사	17008
즉시	17009
기기	17010
##uby	17011
",	17012
##어졌	17013
전선	17014
당황	17015
##ED	17016
미소	17017
##긴다	17018
따지	17019
불렀	17020
당한다	17021
함선	17022
##tt	17023
##즈키	17024
##이터	17025
68	17026
뒤집	17027
페이지	17028
##ee	17029
폭풍	17030
등판	17031
은근	17032
lt	17033
오픈	17034
800	17035
소문	17036
탑승	17037
버티	17038
명예	17039
어째	17040
열심히	17041
스파이	17042
상품	17043
화장	17044
입수	17045
레전드	17046
오프닝	17047
갑옷	17048
별도	17049
경유	17050
러브	17051
심리	17052
시행	17053
##거나	17054
경기장	17055
이거	17056
단일	17057
파리	17058
63	17059
라스	17060
둘러	17061
의회	17062
1980	17063
변호	17064
통제	17065
마련	17066
##카와	17067
올렸	17068
댓글	17069
반격	17070
##ong	17071
##AM	17072
ruby	17073
스티	17074
때려	17075
운명	17076
가면라이더	17077
변하	17078
오류	17079
정류	17080
##시오	17081
응원	17082
갖추	17083
일으키	17084
모으	17085
레오	17086
후쿠	17087
한때	17088
커뮤니티	17089
신청	17090
쓰레	17091
트위터	17092
격파	17093
라이벌	17094
사령관	17095
##ort	17096
김성	17097
주전	17098
고전	17099
기독교	17100
출판	17101
습득	17102
이승	17103
##웨어	17104
중계	17105
돌리	17106
공기	17107
편의	17108
##ith	17109
수업	17110
하수	17111
심장	17112
아리	17113
##리티	17114
불만	17115
끌어	17116
신고	17117
오해	17118
마인	17119
마주	17120
두산	17121
울산	17122
##아먹	17123
##다지	17124
71	17125
##if	17126
74	17127
흔들	17128
관객	17129
전함	17130
외국인	17131
카나	17132
정말로	17133
랜드	17134
보정	17135
##나무	17136
주위	17137
##ly	17138
크루	17139
##fff	17140
건축	17141
출장	17142
##아버지	17143
....	17144
스트라이	17145
용어	17146
MV	17147
##ld	17148
흘러	17149
공유	17150
그곳	17151
전달	17152
고기	17153
73	17154
여론	17155
67	17156
아트	17157
메이저	17158
ffffff	17159
민간	17160
사운드	17161
우스	17162
절반	17163
짜리	17164
조치	17165
##티컬	17166
내놓	17167
지형	17168
물러	17169
남기	17170
갈등	17171
여신	17172
##도우	17173
붙잡	17174
임시	17175
무적	17176
자치	17177
드러나	17178
##학자	17179
재능	17180
가득	17181
아오	17182
전공	17183
압박	17184
NC	17185
카라	17186
##ain	17187
리버	17188
열리	17189
별개	17190
지나가	17191
엔터	17192
붙여	17193
초월	17194
##ist	17195
96	17196
##쳐서	17197
종점	17198
연구소	17199
오로	17200
네이버	17201
요새	17202
스튜	17203
1994	17204
##ind	17205
##오르	17206
움직임	17207
나서	17208
북쪽	17209
강해	17210
전형	17211
추적	17212
메가	17213
TH	17214
그다지	17215
메타	17216
시각	17217
전하	17218
##타인	17219
180	17220
컨텐츠	17221
남쪽	17222
벗어나	17223
디아	17224
늑대	17225
보장	17226
약하	17227
이란	17228
테이	17229
쓰인다	17230
AC	17231
돌진	17232
소멸	17233
##서트	17234
판타지	17235
시야	17236
81	17237
AT	17238
##가와	17239
난다	17240
결승전	17241
전시	17242
클라	17243
타점	17244
든지	17245
꺼내	17246
다행히	17247
파이어	17248
일부러	17249
잖아	17250
걸려	17251
##per	17252
불꽃	17253
서부	17254
그만큼	17255
동네	17256
화이트	17257
환자	17258
##듀서	17259
프로듀서	17260
##ps	17261
뿌리	17262
강원	17263
동기	17264
가이	17265
##지컬	17266
##EN	17267
만난	17268
여동생	17269
문제점	17270
화려	17271
##드라	17272
##츠키	17273
그림자	17274
선호	17275
왕조	17276
동원	17277
폭력	17278
상향	17279
파이널	17280
회원	17281
대만	17282
본명	17283
치명타	17284
유로	17285
북부	17286
유비	17287
신세	17288
##EC	17289
소드	17290
밝히	17291
자는	17292
됩니다	17293
신라	17294
78	17295
그런지	17296
##식간	17297
91	17298
##OL	17299
빨간	17300
##스탄	17301
수요	17302
여서	17303
순식간	17304
연상	17305
무난	17306
##ew	17307
도서관	17308
테스트	17309
향상	17310
메시	17311
전역	17312
매력	17313
클로	17314
학과	17315
##에도	17316
아시	17317
차트	17318
전적	17319
떠올	17320
##더스	17321
아가	17322
변형	17323
통한	17324
아무런	17325
스토	17326
아일	17327
최상	17328
전방	17329
저런	17330
부품	17331
##로운	17332
뛰어나	17333
84	17334
CP	17335
체포	17336
영토	17337
일상	17338
수집	17339
크리티컬	17340
암흑	17341
전투력	17342
시드	17343
게이트	17344
##사키	17345
코믹스	17346
되돌	17347
키스	17348
영업	17349
##LC	17350
마술	17351
me	17352
인수	17353
토모	17354
##ry	17355
수용	17356
이마	17357
조절	17358
파견	17359
어쨌	17360
드디어	17361
할지	17362
폭격	17363
복잡	17364
학살	17365
복장	17366
유전	17367
아우	17368
##어스	17369
82	17370
대우	17371
떡밥	17372
##lo	17373
벌어지	17374
입력	17375
그래픽	17376
구현	17377
밝혀졌	17378
편지	17379
개통	17380
생명력	17381
사라졌	17382
발매되	17383
몰아	17384
호환	17385
오빠	17386
현지	17387
97	17388
니시	17389
추락	17390
신인	17391
사자	17392
천사	17393
도달	17394
따위	17395
고향	17396
동부	17397
닌자	17398
사토	17399
##덜란드	17400
네덜란드	17401
청년	17402
86	17403
창작	17404
경비	17405
통해서	17406
점차	17407
반지	17408
작동	17409
맞이	17410
콜라	17411
콘서트	17412
연관	17413
프레임	17414
교황	17415
제이	17416
엘프	17417
보단	17418
한국인	17419
쓰레기	17420
수송	17421
출현	17422
노예	17423
##운다	17424
스톤	17425
기초	17426
##레나	17427
##거운	17428
사쿠라	17429
푸른	17430
종이	17431
모바	17432
추격	17433
해설	17434
아닐	17435
it	17436
세워	17437
해체	17438
69	17439
해진다	17440
##퍼스	17441
다시피	17442
##어버	17443
몰래	17444
구도	17445
조용	17446
스러	17447
충청	17448
의상	17449
##노스	17450
심판	17451
플레	17452
간격	17453
진지	17454
공급	17455
녹음	17456
아티	17457
들어간	17458
is	17459
주먹	17460
##히로	17461
식물	17462
아무것	17463
토리	17464
막장	17465
시위	17466
조성	17467
NPC	17468
보냈	17469
무너	17470
프리미	17471
##디아	17472
전투기	17473
##오프	17474
##IT	17475
제자	17476
조조	17477
잉글	17478
연사	17479
인하	17480
두려	17481
##둥이	17482
수술	17483
무효	17484
스마트	17485
연애	17486
검색	17487
슬롯	17488
##와서	17489
옮겨	17490
실드	17491
##시코	17492
마스	17493
감시	17494
##타로	17495
레스	17496
버릴	17497
스카이	17498
US	17499
나갔	17500
일제	17501
블록	17502
꼬리	17503
당할	17504
일어났	17505
법원	17506
##스트라	17507
동쪽	17508
##특별	17509
마리오	17510
나루	17511
경험치	17512
구체	17513
MS	17514
고교	17515
옛날	17516
##오카	17517
An	17518
통상	17519
때리	17520
총기	17521
김정	17522
##티나	17523
범인	17524
탱크	17525
구속	17526
베트남	17527
라이더	17528
##모로	17529
##버트	17530
세우	17531
##ust	17532
신규	17533
신분	17534
대립	17535
장교	17536
성과	17537
지나치	17538
은하	17539
연락	17540
국립	17541
예외	17542
쿠키	17543
##주시	17544
##다른	17545
250	17546
어깨	17547
KT	17548
강의	17549
인근	17550
입구	17551
지도자	17552
신성	17553
다섯	17554
차단	17555
규칙	17556
##50	17557
글자	17558
먹이	17559
되찾	17560
불편	17561
대대	17562
메카	17563
이랑	17564
헤이	17565
마도	17566
평타	17567
프린	17568
요정	17569
언제나	17570
창조	17571
박살	17572
코인	17573
안습	17574
바보	17575
총선	17576
유희	17577
모바일	17578
만났	17579
동작	17580
토론	17581
##도로	17582
후기	17583
전라	17584
##비전	17585
##일리	17586
여러모로	17587
환상	17588
마리아	17589
아크	17590
에드	17591
189	17592
거짓말	17593
노출	17594
기여	17595
의료	17596
##파이어	17597
##브리	17598
권총	17599
세월	17600
소총	17601
리아	17602
이리	17603
이득	17604
농구	17605
어택	17606
##자키	17607
일원	17608
다이아	17609
빠진	17610
자이언	17611
무료	17612
##워하	17613
신호	17614
블레이드	17615
202	17616
서쪽	17617
##영상	17618
이날	17619
1992	17620
부위	17621
출처	17622
음성	17623
정복	17624
개혁	17625
들어간다	17626
미술	17627
##스턴	17628
폭주	17629
극단	17630
잠수	17631
고생	17632
92	17633
헌터	17634
##BO	17635
##ore	17636
##저히	17637
간부	17638
죽여	17639
##톨릭	17640
드러내	17641
Ar	17642
참전	17643
반발	17644
전직	17645
이뤄	17646
교전	17647
편하	17648
고용	17649
투어	17650
대체로	17651
양산	17652
일자	17653
밀어	17654
길이	17655
보석	17656
고문	17657
폴란드	17658
대량	17659
키리	17660
연도	17661
키우	17662
상점	17663
83	17664
글로	17665
라이프	17666
제법	17667
호평	17668
상상	17669
제어	17670
사마	17671
동영상	17672
수영	17673
정류장	17674
걸쳐	17675
승격	17676
전대	17677
Te	17678
##보드	17679
출력	17680
자라	17681
누리	17682
사양	17683
합격	17684
89	17685
기습	17686
없애	17687
##FF	17688
101	17689
터치	17690
93	17691
1993	17692
공학	17693
잉글랜드	17694
지휘관	17695
북미	17696
De	17697
MAX	17698
제작진	17699
기병	17700
득표	17701
윌리	17702
나뉘	17703
중대	17704
94	17705
요괴	17706
돌아온	17707
마루	17708
합성	17709
미디어	17710
머신	17711
환승	17712
인증	17713
드물	17714
날아가	17715
법률	17716
##어진다	17717
com	17718
치가	17719
79	17720
상하	17721
보낸	17722
적어도	17723
파란	17724
가시	17725
##일드	17726
탄약	17727
조심	17728
가량	17729
박근	17730
런던	17731
회차	17732
구출	17733
널리	17734
요즘	17735
탱커	17736
##FC	17737
파일럿	17738
의혹	17739
원소	17740
re	17741
매니	17742
리얼	17743
활성	17744
사이드	17745
동방	17746
귀여	17747
떨어진다	17748
유령	17749
포탑	17750
하수인	17751
낸다	17752
알파	17753
노멀	17754
삼진	17755
히데	17756
침공	17757
87	17758
마이클	17759
디지털	17760
분기	17761
하고	17762
이재	17763
개정	17764
서양	17765
부수	17766
가톨릭	17767
즐기	17768
묘지	17769
인공	17770
의무	17771
어쩌	17772
##우드	17773
볼넷	17774
이슬람	17775
똑같이	17776
네임	17777
가속	17778
다면서	17779
결성	17780
##one	17781
예비	17782
축제	17783
대략	17784
On	17785
블러	17786
가게	17787
학자	17788
패널	17789
경고	17790
레인저	17791
계정	17792
괴롭	17793
보고	17794
##se	17795
올라오	17796
타케	17797
이자	17798
##ip	17799
헌법	17800
소화	17801
전면	17802
이내	17803
아일랜드	17804
##AC	17805
이루어지	17806
취하	17807
AI	17808
부부	17809
스키	17810
DJ	17811
특화	17812
##RE	17813
줘야	17814
익숙	17815
써서	17816
용사	17817
상호	17818
##미야	17819
달린	17820
미츠	17821
심한	17822
갤럭	17823
던져	17824
##ere	17825
캐스	17826
##먼트	17827
이시	17828
스웨	17829
그럼에도	17830
##임스	17831
문장	17832
바이러스	17833
메모리	17834
슈트	17835
걸어	17836
워치	17837
들이	17838
근육	17839
대항	17840
커맨	17841
불법	17842
##PG	17843
리메	17844
BGM	17845
MC	17846
부리	17847
나와서	17848
불린다	17849
플레이오프	17850
핸드	17851
베스트	17852
플로	17853
SN	17854
자매	17855
유행	17856
한방	17857
개체	17858
어지	17859
##준다	17860
파크	17861
##ity	17862
도발	17863
##ath	17864
김영	17865
##창기	17866
보안	17867
쿠로	17868
일시	17869
육성	17870
예측	17871
어린이	17872
냐며	17873
예고	17874
트로	17875
느리	17876
소닉	17877
넘기	17878
이즈	17879
자금	17880
갤럭시	17881
##라이언	17882
총리	17883
루시	17884
##어날	17885
살려	17886
보일	17887
검찰	17888
취임	17889
멕시코	17890
FIFA	17891
터키	17892
무언	17893
마냥	17894
정면	17895
결론	17896
신기	17897
사제	17898
길드	17899
##end	17900
국방	17901
어떠	17902
리스트	17903
##조리	17904
형사	17905
스톰	17906
고백	17907
1991	17908
넘겨	17909
루타	17910
구멍	17911
캐리	17912
식사	17913
마구	17914
레이스	17915
리치	17916
세이브	17917
호텔	17918
곧바로	17919
상업	17920
감옥	17921
이명	17922
태어난	17923
!!	17924
##펙트	17925
저장	17926
절망	17927
여유	17928
제임스	17929
개방	17930
부서	17931
진심	17932
##워크	17933
투구	17934
그랬	17935
사이즈	17936
구원	17937
유대	17938
노르	17939
볼트	17940
초창기	17941
플랫	17942
세르	17943
THE	17944
700	17945
타마	17946
대가	17947
FA	17948
피부	17949
너무나	17950
와이	17951
배차	17952
##요시	17953
박정	17954
##고리	17955
청소년	17956
오랫	17957
팀원	17958
웬만	17959
흥행	17960
으니까	17961
강철	17962
일지	17963
번개	17964
카타	17965
고르	17966
몰려	17967
착각	17968
좌우	17969
##특별시	17970
된다면	17971
전철	17972
커플	17973
합쳐	17974
##릭스	17975
여지	17976
1988	17977
##구리	17978
바위	17979
파트너	17980
발달	17981
##레이터	17982
세포	17983
리메이크	17984
MVP	17985
펼쳐	17986
소형	17987
##로나	17988
처벌	17989
그동안	17990
서울특별시	17991
다스	17992
현역	17993
레이드	17994
아기	17995
신설	17996
긍정	17997
주식	17998
융합	17999
##데스	18000
##네스	18001
주간	18002
원자	18003
##지마	18004
외계	18005
아쉽	18006
분량	18007
아빠	18008
차라리	18009
아름다운	18010
프라이	18011
정착	18012
Ro	18013
위장	18014
미카	18015
##OT	18016
인정받	18017
돼지	18018
반사	18019
챕터	18020
카스	18021
합의	18022
사신	18023
##디언	18024
식민	18025
랭킹	18026
찾아가	18027
지냈	18028
내성	18029
##성기	18030
목격	18031
인연	18032
누적	18033
입히	18034
협박	18035
통치	18036
전문가	18037
드림	18038
내장	18039
장악	18040
단장	18041
게스트	18042
의뢰	18043
화학	18044
빌드	18045
떨어졌	18046
CC	18047
방지	18048
에서부터	18049
포스트	18050
클리	18051
도망치	18052
야스	18053
에다	18054
브레이크	18055
무언가	18056
잡지	18057
박근혜	18058
##레인	18059
Wh	18060
해병	18061
영향력	18062
공지	18063
스미	18064
논리	18065
방출	18066
안드로이드	18067
동의	18068
태그	18069
어울리	18070
국왕	18071
사우	18072
방사	18073
는다면	18074
AK	18075
시즈	18076
대지	18077
타이거	18078
도우	18079
조약	18080
포트	18081
한지	18082
각자	18083
내주	18084
요코	18085
배트	18086
한번	18087
관할	18088
저녁	18089
지능	18090
##ect	18091
돌아왔	18092
DLC	18093
살리	18094
골든	18095
국군	18096
하필	18097
htt	18098
라면서	18099
대폭	18100
Se	18101
1970	18102
의존	18103
##스키	18104
최소한	18105
양쪽	18106
고지	18107
손가락	18108
토르	18109
Le	18110
악역	18111
마침내	18112
루이	18113
호주	18114
스턴	18115
동화	18116
홀로	18117
연맹	18118
과목	18119
변호사	18120
실버	18121
공무원	18122
유치	18123
걸린	18124
'.	18125
후속작	18126
막차	18127
붙이	18128
모여	18129
기구	18130
으론	18131
수련	18132
본작	18133
무역	18134
수수	18135
He	18136
면역	18137
소지	18138
보관	18139
소원	18140
오랫동안	18141
무덤	18142
PD	18143
##age	18144
어쨌든	18145
올린	18146
오사카	18147
웹툰	18148
주말	18149
역임	18150
##IS	18151
귀신	18152
오카	18153
나간	18154
육체	18155
연인	18156
##바라	18157
크라	18158
기원전	18159
al	18160
혐의	18161
스튜디오	18162
해리	18163
내구	18164
명중률	18165
확대	18166
재산	18167
카오스	18168
접촉	18169
호감	18170
대리	18171
기도	18172
불교	18173
적대	18174
다룬	18175
##티아	18176
네트	18177
kt	18178
남겨	18179
##잡이	18180
노부	18181
대처	18182
##다리	18183
명성	18184
써먹	18185
강남	18186
스틸	18187
태평	18188
계단	18189
나타내	18190
전후	18191
Go	18192
비행기	18193
올해	18194
연료	18195
예능	18196
정비	18197
Me	18198
출마	18199
가볍	18200
테일	18201
간혹	18202
슈팅	18203
끌려	18204
##페인	18205
오늘날	18206
합체	18207
트레이드	18208
싸울	18209
피스	18210
로즈	18211
권한	18212
모모	18213
##크스	18214
정치인	18215
부장	18216
컬러	18217
마키	18218
흐름	18219
정원	18220
퀄리티	18221
개성	18222
맞서	18223
소장	18224
블리	18225
리드	18226
시마	18227
체인	18228
받아들이	18229
안내	18230
그로	18231
학부	18232
이지	18233
오전	18234
게시판	18235
소스	18236
GT	18237
준수	18238
휴대	18239
접속	18240
##다이	18241
저그	18242
수익	18243
권리	18244
##베르	18245
1989	18246
##라드	18247
KIA	18248
특집	18249
더라	18250
연극	18251
하우스	18252
##og	18253
외형	18254
금융	18255
##ake	18256
##ide	18257
필리	18258
박물	18259
하얀	18260
코미	18261
선전	18262
화제	18263
김태	18264
새벽	18265
윌리엄	18266
상당수	18267
허리	18268
##OM	18269
다를	18270
Be	18271
피격	18272
이집	18273
My	18274
초간	18275
이집트	18276
WW	18277
무렵	18278
공공	18279
그대	18280
주기	18281
환영	18282
편곡	18283
페이즈	18284
일기	18285
130	18286
최다	18287
금속	18288
포르투	18289
나치	18290
고구	18291
AR	18292
둘째	18293
메르	18294
원칙	18295
##ss	18296
이루어진	18297
카미	18298
결합	18299
SC	18300
##ark	18301
지우	18302
##ime	18303
연타	18304
##ire	18305
알렉산	18306
누나	18307
SM	18308
편입	18309
으려고	18310
식당	18311
어릴	18312
할아버지	18313
시계	18314
##구치	18315
유물	18316
개입	18317
문재	18318
캠퍼스	18319
한동안	18320
인조	18321
어른	18322
매직	18323
어두	18324
##세스	18325
향하	18326
지진	18327
바라보	18328
거인	18329
188	18330
전신	18331
##밀리	18332
그건	18333
소중	18334
아니면	18335
극복	18336
wh	18337
116	18338
블로그	18339
전진	18340
시선	18341
까다	18342
성립	18343
영문	18344
my	18345
Su	18346
##ES	18347
정찰	18348
은근히	18349
정글	18350
헤비	18351
회상	18352
아바	18353
기사단	18354
##프레	18355
사도	18356
SD	18357
협상	18358
캐스팅	18359
메뉴	18360
궤도	18361
스웨덴	18362
##ID	18363
빨라	18364
깨닫	18365
시내버스	18366
팬덤	18367
##으면	18368
Tr	18369
음원	18370
튀어나	18371
는지라	18372
대개	18373
##닉스	18374
작곡가	18375
손해	18376
##ite	18377
주사	18378
태어나	18379
##던가	18380
대충	18381
독특	18382
재단	18383
수십	18384
동굴	18385
비해서	18386
우위	18387
더더	18388
##아지	18389
복무	18390
##아시아	18391
우라	18392
고수	18393
아닌가	18394
안티	18395
이길	18396
민주주의	18397
용기	18398
식량	18399
##부르크	18400
트럭	18401
160	18402
교차	18403
종목	18404
세이버	18405
이익	18406
해안	18407
##회사	18408
미라	18409
처형	18410
##ound	18411
조언	18412
못할	18413
일찍	18414
멀쩡	18415
트랜	18416
SR	18417
아이스	18418
클래식	18419
과제	18420
리듬	18421
이끄	18422
위상	18423
내려가	18424
##iv	18425
원본	18426
더더욱	18427
HD	18428
져서	18429
''	18430
펀치	18431
커맨드	18432
신비	18433
줄어	18434
커스	18435
##리그	18436
김민	18437
타인	18438
박물관	18439
잡혀	18440
오가	18441
트윈	18442
돌아다니	18443
빛나	18444
##가미	18445
애플	18446
##iz	18447
##OP	18448
삼국지	18449
훗날	18450
##ge	18451
들어갈	18452
증언	18453
해적	18454
갈수록	18455
멘탈	18456
날짜	18457
허나	18458
절대로	18459
천재	18460
적군	18461
IC	18462
자국	18463
일격	18464
갈라	18465
마비	18466
내세	18467
신앙	18468
위원장	18469
나갈	18470
구사	18471
신부	18472
##큐어	18473
##OW	18474
나타난	18475
별다른	18476
노인	18477
나눠	18478
각본	18479
재미있	18480
무릎	18481
코우	18482
중독	18483
나타난다	18484
느라	18485
기적	18486
재정	18487
죄다	18488
세종	18489
주포	18490
바리	18491
집행	18492
양성	18493
스승	18494
철학	18495
하락	18496
외치	18497
참석	18498
놀이	18499
구나	18500
지위	18501
멈추	18502
몰랐	18503
마이너	18504
캠페인	18505
과연	18506
비례	18507
유이	18508
죽일	18509
정수	18510
개시	18511
예산	18512
결코	18513
국적	18514
적응	18515
패션	18516
교류	18517
관중	18518
호위	18519
작화	18520
크리스마스	18521
한참	18522
탄창	18523
나간다	18524
알려졌	18525
매체	18526
이브	18527
이중	18528
##LL	18529
열쇠	18530
##덩이	18531
죽인	18532
안경	18533
히메	18534
시아	18535
상한	18536
##ome	18537
하야	18538
활발	18539
일으킨	18540
노란	18541
경기력	18542
Gr	18543
##가리	18544
나아가	18545
로그	18546
선출	18547
투명	18548
십자	18549
##테르	18550
해상	18551
흐르	18552
with	18553
바퀴	18554
우연히	18555
김종	18556
루수	18557
체크	18558
##BA	18559
희귀	18560
명단	18561
녹색	18562
충성	18563
##UN	18564
화성	18565
클레	18566
##마디	18567
진보	18568
미안	18569
스타크래프트	18570
남겼	18571
드레	18572
이영	18573
원주	18574
칭찬	18575
개수	18576
사막	18577
개막	18578
첫차	18579
주일	18580
결말	18581
##아웃	18582
IS	18583
위대	18584
행적	18585
적혀	18586
##미니	18587
갖춘	18588
전성기	18589
##몬드	18590
기아	18591
들어온	18592
제정	18593
당일	18594
모래	18595
인지도	18596
흔적	18597
칼리	18598
1987	18599
상급	18600
기종	18601
챌린	18602
후방	18603
업적	18604
오스트리아	18605
de	18606
미터	18607
강점	18608
BE	18609
px	18610
임대	18611
상성	18612
다닌	18613
140	18614
어려움	18615
농담	18616
가져가	18617
어지간	18618
김동	18619
웃음	18620
포로	18621
호수	18622
계통	18623
사유	18624
보라	18625
##MA	18626
Pr	18627
버스터	18628
재현	18629
대학원	18630
취미	18631
면적	18632
줄이	18633
심해	18634
무작	18635
매년	18636
##ord	18637
스프링	18638
Love	18639
비상	18640
오직	18641
체육관	18642
클릭	18643
토끼	18644
거치	18645
심사	18646
##ud	18647
일반인	18648
포항	18649
고스트	18650
개량	18651
앞두	18652
##가스	18653
##치기	18654
사후	18655
신장	18656
거점	18657
프리큐어	18658
생존자	18659
유적	18660
이정	18661
남북	18662
강도	18663
자책	18664
과장	18665
니코	18666
ch	18667
본체	18668
모조리	18669
##양함	18670
자본	18671
갈리	18672
어마	18673
으라	18674
괴수	18675
자극	18676
대수	18677
덧붙	18678
세웠	18679
예수	18680
이주	18681
시달	18682
가을	18683
##mp	18684
부지	18685
파츠	18686
##사자	18687
화물	18688
##데미	18689
##10	18690
부작	18691
맥스	18692
여야	18693
저작	18694
전멸	18695
##ame	18696
기용	18697
텐데	18698
소위	18699
비싸	18700
UE	18701
선고	18702
##ance	18703
아메리카	18704
##리나	18705
캡틴	18706
##다란	18707
연금	18708
추구	18709
가해	18710
아쉬운	18711
아티스트	18712
SKT	18713
##ax	18714
##카드	18715
인격	18716
자세히	18717
an	18718
가짜	18719
출입	18720
판매량	18721
휘두	18722
JR	18723
공세	18724
채워	18725
##ure	18726
아카데미	18727
유나이	18728
유니폼	18729
새끼	18730
##ix	18731
어스	18732
흥미	18733
900	18734
일치	18735
눌러	18736
차기	18737
GS	18738
승점	18739
채택	18740
포격	18741
##코드	18742
공룡	18743
일방	18744
##이즈	18745
단편	18746
유나이티	18747
취향	18748
무지	18749
##ick	18750
소송	18751
올라왔	18752
##mer	18753
스마트폰	18754
도주	18755
포드	18756
집어	18757
탈퇴	18758
카트	18759
코코	18760
일본인	18761
##ice	18762
막대	18763
사형	18764
으러	18765
연패	18766
기량	18767
색깔	18768
타율	18769
억지	18770
피아노	18771
스트리	18772
들리	18773
바깥	18774
로고	18775
몽골	18776
귀찮	18777
##our	18778
로우	18779
제작자	18780
한마디	18781
Bo	18782
유통	18783
건조	18784
노벨	18785
그레	18786
코리아	18787
상실	18788
아즈	18789
메리	18790
이루어져	18791
타선	18792
화장실	18793
드라이브	18794
할머니	18795
구경	18796
후계	18797
치유	18798
마린	18799
라이온	18800
측정	18801
EP	18802
영구	18803
식민지	18804
지켜보	18805
비주	18806
무라	18807
더러	18808
요금	18809
##시로	18810
아미	18811
자전	18812
보존	18813
1986	18814
거듭	18815
본다	18816
채우	18817
##공화국	18818
선택지	18819
어드	18820
쌍둥이	18821
내보	18822
잠재	18823
사라진	18824
1960	18825
아이콘	18826
가요	18827
##이너	18828
OST	18829
내렸	18830
상인	18831
##든가	18832
나타났	18833
무방	18834
##비드	18835
커피	18836
강요	18837
##랭크	18838
레이더	18839
메시지	18840
##코토	18841
인민공화국	18842
KO	18843
##{{	18844
들려	18845
Un	18846
간신	18847
이른	18848
언스	18849
이민	18850
##고속	18851
이슈	18852
통산	18853
어째서	18854
동력	18855
가상	18856
고도	18857
##러지	18858
Ex	18859
##랑이	18860
포수	18861
신사	18862
원수	18863
넥센	18864
도끼	18865
조연	18866
색상	18867
피터	18868
데드	18869
캐논	18870
##AD	18871
명확	18872
오타	18873
벌어진	18874
몰락	18875
연승	18876
##qu	18877
주택	18878
화재	18879
사원	18880
여객	18881
##멘트	18882
루카	18883
교장	18884
네트워크	18885
주소	18886
타락	18887
곡명	18888
귀환	18889
##oc	18890
가루	18891
냄새	18892
브루	18893
{{{	18894
외전	18895
초보	18896
내지	18897
몰라도	18898
콜라보	18899
##반도	18900
유희왕	18901
제갈	18902
실망	18903
판결	18904
##80	18905
소라	18906
##시스트	18907
칭호	18908
떠났	18909
모토	18910
기울	18911
GB	18912
대선	18913
경로	18914
레알	18915
수장	18916
##카리	18917
UEFA	18918
항공기	18919
메달	18920
이터	18921
스페이스	18922
찌르	18923
광역시	18924
가하	18925
남녀	18926
위반	18927
깔끔	18928
매니저	18929
잡히	18930
비싼	18931
거미	18932
포르투갈	18933
DS	18934
고구려	18935
타수	18936
연합군	18937
186	18938
##own	18939
sh	18940
##ys	18941
머물	18942
아케	18943
오라	18944
약해	18945
반동	18946
아마도	18947
라인업	18948
순환	18949
CPU	18950
##노우	18951
혐오	18952
아요	18953
##나카	18954
교실	18955
영주	18956
##가시	18957
##럼프	18958
베네	18959
법인	18960
항복	18961
백성	18962
부른	18963
챙겨	18964
##라이트	18965
글러	18966
관찰	18967
복지	18968
쫓아	18969
타운	18970
잠수함	18971
미스터	18972
##ber	18973
풀리	18974
모를	18975
단단	18976
비서	18977
주역	18978
##라노	18979
들여	18980
숨겨진	18981
주자	18982
적합	18983
캠프	18984
스터	18985
배터리	18986
매장	18987
수류	18988
We	18989
관람	18990
익스	18991
AM	18992
예시	18993
유효	18994
강원도	18995
불타	18996
커리어	18997
드래프트	18998
줘서	18999
싱크	19000
##저스	19001
히어로즈	19002
이겨	19003
105	19004
공성	19005
카츠	19006
공업	19007
##av	19008
아쿠	19009
##OC	19010
흑인	19011
인치	19012
하단	19013
유학	19014
벌레	19015
트라이	19016
이스라	19017
승객	19018
##old	19019
예언	19020
용량	19021
김재	19022
##정부	19023
동성	19024
등지	19025
.."	19026
고작	19027
본사	19028
##로디	19029
##시타	19030
치킨	19031
남긴	19032
상단	19033
승률	19034
##일보	19035
싸워	19036
국경	19037
추억	19038
소프트웨어	19039
CF	19040
면모	19041
천만	19042
마약	19043
포위	19044
나선	19045
휴식	19046
서구	19047
티켓	19048
원하	19049
온다	19050
관측	19051
LI	19052
철수	19053
수출	19054
일대	19055
성남	19056
그러니까	19057
##orld	19058
##리스트	19059
도적	19060
곤란	19061
중립	19062
자폭	19063
카운트	19064
생략	19065
스텔	19066
구글	19067
흘리	19068
개국	19069
표지	19070
적당히	19071
너희	19072
느린	19073
수류탄	19074
터널	19075
상술	19076
변환	19077
음모	19078
조별	19079
클랜	19080
마드리	19081
기생	19082
정하	19083
좌석	19084
허가	19085
합병	19086
다름없	19087
봐서	19088
추종	19089
형상	19090
##위대	19091
소대	19092
시그	19093
사이버	19094
실전	19095
언젠	19096
오크	19097
히나	19098
바꾼	19099
정기	19100
후술	19101
아랍	19102
였을	19103
김대	19104
문구	19105
어려워	19106
내전	19107
마드리드	19108
통계	19109
1984	19110
디스크	19111
보험	19112
인종	19113
차이점	19114
밝혀진	19115
마디	19116
만날	19117
##ont	19118
1985	19119
글로벌	19120
최신	19121
근본	19122
물려	19123
복구	19124
느낀	19125
지경	19126
입지	19127
언더	19128
액티브	19129
사명	19130
연예인	19131
187	19132
서포터	19133
증오	19134
SH	19135
지뢰	19136
후손	19137
이스라엘	19138
스트라이크	19139
아시안	19140
후배	19141
용서	19142
##데이	19143
에르	19144
구석	19145
담배	19146
3000	19147
사정거리	19148
위성	19149
일족	19150
시너지	19151
타로	19152
대인	19153
크리스탈	19154
오마	19155
AD	19156
##ies	19157
허락	19158
커다란	19159
LC	19160
기숙	19161
고위	19162
DF	19163
급격	19164
지르	19165
##보이	19166
그랜드	19167
자막	19168
즉위	19169
리타	19170
숙련	19171
##머스	19172
올라온	19173
함수	19174
논의	19175
느낄	19176
부각	19177
전주	19178
하차	19179
구슬	19180
텔레비전	19181
공방	19182
lo	19183
KBO	19184
행보	19185
어뢰	19186
몰라	19187
미묘	19188
경주	19189
##팩트	19190
토벌	19191
시노	19192
##하면	19193
쓸모	19194
감각	19195
모니	19196
발행	19197
해피	19198
새롭	19199
아츠	19200
말리	19201
모노	19202
네요	19203
이젠	19204
언덕	19205
서식	19206
It	19207
왕위	19208
망치	19209
마그	19210
##lay	19211
연령	19212
특전	19213
XX	19214
##슬러	19215
어리	19216
준우	19217
넘치	19218
살펴	19219
금메달	19220
중첩	19221
이어서	19222
에리	19223
태평양	19224
부딪	19225
취약	19226
가만	19227
뜬금	19228
후원	19229
오랜만	19230
제약	19231
쿼터	19232
블러드	19233
루나	19234
까진	19235
노동자	19236
무척	19237
침략	19238
저렴	19239
정화	19240
간신히	19241
세운	19242
##자드	19243
총알	19244
기관총	19245
##OD	19246
침입	19247
세븐	19248
노스	19249
MF	19250
드롭	19251
간접	19252
일본군	19253
생년	19254
##US	19255
아르헨	19256
방어구	19257
##블린	19258
제트	19259
워커	19260
흡혈	19261
분쟁	19262
법정	19263
입대	19264
##어마	19265
헬기	19266
든다	19267
파르	19268
학습	19269
혹시	19270
균형	19271
드럼	19272
맛있	19273
가동	19274
아테	19275
전이	19276
CV	19277
진압	19278
강자	19279
카카	19280
산하	19281
##프리	19282
모이	19283
WWE	19284
남아	19285
.....	19286
##PM	19287
아르헨티나	19288
빠졌	19289
##ann	19290
잡아먹	19291
곳곳	19292
찬스	19293
공용	19294
텍스트	19295
소방	19296
평생	19297
여우	19298
분열	19299
스리	19300
NE	19301
헤어	19302
아이언	19303
SE	19304
어마어마	19305
주차	19306
비스	19307
자이언츠	19308
관점	19309
##40	19310
인디	19311
중세	19312
네오	19313
신전	19314
약화	19315
악당	19316
금방	19317
정차	19318
치르	19319
고개	19320
125	19321
##pe	19322
플라이	19323
이토	19324
거울	19325
##30	19326
트랜스	19327
애정	19328
부적	19329
페널	19330
결심	19331
이수	19332
속한다	19333
경상북도	19334
지리	19335
나리	19336
딜링	19337
저질	19338
반전	19339
제작사	19340
나폴	19341
격추	19342
제출	19343
상기	19344
##네임	19345
성당	19346
앨리스	19347
##sh	19348
연고	19349
구리	19350
보호막	19351
your	19352
니콜	19353
이혼	19354
따라가	19355
양자	19356
크림	19357
스팀	19358
##란다	19359
통화	19360
라기	19361
토너	19362
표면	19363
호흡	19364
##NA	19365
폐쇄	19366
##배우	19367
사령부	19368
금액	19369
아저	19370
##마크	19371
결전	19372
큐브	19373
구축함	19374
엘리트	19375
가라	19376
미즈	19377
간주	19378
코르	19379
히토	19380
악화	19381
저택	19382
보완	19383
뮤지컬	19384
창원	19385
구름	19386
이식	19387
리온	19388
세인트	19389
얻어	19390
인권	19391
아저씨	19392
도망가	19393
충실	19394
##VD	19395
채팅	19396
스크린	19397
CJ	19398
김현	19399
선거구	19400
분해	19401
AS	19402
용인	19403
상관없	19404
피할	19405
늘어난	19406
더군	19407
참모	19408
전파	19409
초록	19410
열매	19411
주둔	19412
지불	19413
가리키	19414
DE	19415
사라진다	19416
인용	19417
하루카	19418
유력	19419
부자	19420
##은행	19421
암시	19422
##키아	19423
대왕	19424
천안	19425
##ng	19426
##io	19427
낚시	19428
긴장	19429
정예	19430
도라	19431
교과	19432
지라	19433
##천시	19434
##베이	19435
멋진	19436
토니	19437
프란	19438
동양	19439
유발	19440
문재인	19441
돼서	19442
서서	19443
보건	19444
존재감	19445
성별	19446
공정	19447
경남	19448
체결	19449
우에	19450
시인	19451
배포	19452
학력	19453
상세	19454
소유자	19455
수석	19456
기뻐	19457
후계자	19458
;&	19459
사인	19460
악기	19461
답변	19462
비아	19463
신지	19464
드라이버	19465
짜증	19466
상영	19467
##oo	19468
토너먼트	19469
블라	19470
원리	19471
재밌	19472
수호자	19473
도둑	19474
전승	19475
엑스트라	19476
바이오	19477
악명	19478
행운	19479
##라기	19480
로버트	19481
우르	19482
개설	19483
써야	19484
호기	19485
170	19486
언젠가	19487
숨기	19488
이듬	19489
도박	19490
Pro	19491
무서운	19492
쓰였	19493
구미	19494
본관	19495
업로드	19496
잔뜩	19497
미쿠	19498
일으켜	19499
기인	19500
이겼	19501
선두	19502
은신	19503
에요	19504
기숙사	19505
기운	19506
##싱턴	19507
##월일	19508
죽였	19509
##ave	19510
뱀파이어	19511
만남	19512
가벼	19513
양식	19514
실종	19515
교도	19516
중량	19517
에다가	19518
지팡	19519
루비	19520
##포트	19521
릴리	19522
요인	19523
백인	19524
##걸이	19525
받아들여	19526
보인	19527
테라	19528
벌어졌	19529
로리	19530
탐험	19531
정황	19532
##LE	19533
불사	19534
부임	19535
임신	19536
난입	19537
중력	19538
아동	19539
처분	19540
대책	19541
임금	19542
동점	19543
LV	19544
관리자	19545
캐스터	19546
디지몬	19547
미키	19548
심심	19549
##번트	19550
방송국	19551
that	19552
논문	19553
야생	19554
칼날	19555
UP	19556
항의	19557
관계자	19558
헨리	19559
미네	19560
생년월일	19561
해명	19562
백작	19563
##나미	19564
시카	19565
유독	19566
탄환	19567
##센트	19568
분명히	19569
베타	19570
호칭	19571
##우마	19572
복합	19573
도루	19574
서번트	19575
카와	19576
말투	19577
윈도우	19578
##ION	19579
베리	19580
동명	19581
##슬링	19582
생명체	19583
문단	19584
진주	19585
생긴다	19586
들어서	19587
발렌	19588
자녀	19589
##ream	19590
와일드	19591
할인	19592
법칙	19593
수백	19594
가방	19595
다이아몬드	19596
려던	19597
콜로	19598
ED	19599
1500	19600
어딘	19601
단축	19602
절차	19603
정통	19604
잃어버	19605
EN	19606
루이스	19607
해골	19608
분신	19609
외계인	19610
달하	19611
무관	19612
마신	19613
영광	19614
기상	19615
따온	19616
운동장	19617
데몬	19618
하향	19619
이드	19620
온도	19621
시합	19622
선보였	19623
라틴	19624
보드	19625
이듬해	19626
귀여운	19627
브레	19628
주술	19629
분대	19630
프로필	19631
인력	19632
리뷰	19633
##ond	19634
창고	19635
1982	19636
치즈	19637
->	19638
딜레이	19639
부스터	19640
기름	19641
이온	19642
니스	19643
왠지	19644
어라	19645
들어왔	19646
리오	19647
끔찍	19648
광장	19649
로얄	19650
플래시	19651
##게임	19652
##iss	19653
Com	19654
5000	19655
사살	19656
의학	19657
기둥	19658
크레	19659
창설	19660
뛰어넘	19661
전동	19662
건국	19663
성질	19664
울프	19665
전북	19666
조리	19667
마블	19668
한쪽	19669
유인	19670
막내	19671
공허	19672
엔젤	19673
체험	19674
싸웠	19675
레딧	19676
장인	19677
부드	19678
나마	19679
##에르	19680
잘라	19681
퇴장	19682
그렇지만	19683
물고기	19684
부사	19685
유격	19686
존경	19687
민첩	19688
집착	19689
커녕	19690
우정	19691
##운서	19692
삽입	19693
디젤	19694
아나운서	19695
망가	19696
걸맞	19697
웨스트	19698
걸린다	19699
상식	19700
참가자	19701
아키라	19702
승자	19703
1950	19704
공산당	19705
##플레이	19706
##IP	19707
##11	19708
가려	19709
매달	19710
창단	19711
요약	19712
휘말	19713
부를	19714
##카이	19715
가르쳐	19716
시상	19717
감지	19718
시원	19719
작년	19720
진학	19721
모터	19722
시공	19723
그램	19724
증상	19725
전제	19726
독재	19727
아인	19728
수면	19729
1983	19730
하츠	19731
##아나	19732
의장	19733
불펜	19734
##60	19735
##다나	19736
학기	19737
샌드	19738
출구	19739
복제	19740
##ian	19741
??	19742
by	19743
##소녀	19744
아틀	19745
의해서	19746
놓치	19747
오디션	19748
he	19749
싫어	19750
나츠	19751
시라	19752
유산	19753
천하	19754
##커스	19755
비전	19756
철저	19757
선제	19758
덩치	19759
발굴	19760
가공	19761
모자라	19762
BL	19763
하이퍼	19764
불렸	19765
단원	19766
깨달	19767
스위스	19768
투스	19769
유전자	19770
다녔	19771
스폰	19772
##도르	19773
&#	19774
반박	19775
어두운	19776
##유럽	19777
go	19778
그럭	19779
레지	19780
트럼프	19781
일으켰	19782
여주	19783
항구	19784
구할	19785
타석	19786
리스크	19787
코트	19788
어렸	19789
미만	19790
##세대	19791
돌입	19792
##저럭	19793
안녕	19794
갑작	19795
중형	19796
스쿨	19797
콘텐츠	19798
겹치	19799
스위치	19800
동인	19801
##티스	19802
다카	19803
비주얼	19804
그럭저럭	19805
사법	19806
주니어	19807
##쟁이	19808
노바	19809
##Hz	19810
통로	19811
준우승	19812
배정	19813
걸렸	19814
##TV	19815
수명	19816
백제	19817
마스크	19818
사용자	19819
대거	19820
어필	19821
알아보	19822
출격	19823
기재	19824
휘하	19825
상륙	19826
라이플	19827
논쟁	19828
웨이브	19829
쓰여	19830
정교	19831
열렸	19832
이펙트	19833
본진	19834
단행	19835
자전거	19836
##투스	19837
다녀	19838
가죽	19839
배트맨	19840
보충	19841
살아가	19842
토마	19843
##베스	19844
##ory	19845
신도	19846
트리플	19847
훈장	19848
##우리	19849
##필드	19850
호소	19851
##TE	19852
시리아	19853
식품	19854
회담	19855
스트레스	19856
격차	19857
국장	19858
축복	19859
인질	19860
##ace	19861
##rom	19862
떠올리	19863
케인	19864
코미디	19865
시트	19866
##크라	19867
Co	19868
##세서	19869
실책	19870
##틀러	19871
스펠	19872
근대	19873
완결	19874
위안	19875
Bl	19876
옹호	19877
학문	19878
파편	19879
##카이도	19880
태국	19881
평양	19882
##누스	19883
공화	19884
카를	19885
지사	19886
유기	19887
마우스	19888
;&#	19889
경전	19890
공립	19891
라니	19892
갈아	19893
루스	19894
워싱턴	19895
두들	19896
팬텀	19897
이글	19898
부근	19899
마케	19900
적중	19901
DVD	19902
올릴	19903
##필더	19904
승인	19905
쓰러뜨	19906
미드필더	19907
Br	19908
원문	19909
오키	19910
토지	19911
침묵	19912
반해	19913
돌아와	19914
소음	19915
빌려	19916
메이드	19917
디즈	19918
시켜서	19919
슬로	19920
##부로	19921
기갑	19922
기동성	19923
경직	19924
소요	19925
플래그	19926
부실	19927
와타	19928
Or	19929
##게이	19930
중국어	19931
세부	19932
노려	19933
빅토	19934
##oth	19935
쓰러뜨리	19936
근거리	19937
트롤	19938
께서	19939
조기	19940
축하	19941
해요	19942
배출	19943
##ows	19944
내각	19945
막판	19946
결투	19947
경상남도	19948
무너지	19949
보이스	19950
복선	19951
##산시	19952
시신	19953
오염	19954
솔직	19955
파동	19956
방위	19957
##MP	19958
연습생	19959
마감	19960
남매	19961
동계	19962
리카	19963
수능	19964
내일	19965
삼각	19966
간단히	19967
차체	19968
과학자	19969
후퇴	19970
동급	19971
테츠	19972
기후	19973
고객	19974
임기	19975
날카	19976
##TS	19977
옮기	19978
철거	19979
센스	19980
휘두르	19981
넘버	19982
우세	19983
##키지	19984
슬라이	19985
헝가리	19986
##먼스	19987
무작위	19988
수급	19989
왜곡	19990
상담	19991
학위	19992
손상	19993
##화점	19994
##신교	19995
##든지	19996
국정	19997
밝힌	19998
한반도	19999
괜히	20000
##무시	20001
지향	20002
규격	20003
무인	20004
##IG	20005
영지	20006
장거리	20007
아끼	20008
노조	20009
야수	20010
##셔널	20011
CG	20012
약탈	20013
마법소녀	20014
일당	20015
드러났	20016
중시	20017
기세	20018
하마	20019
##주교	20020
무사히	20021
고리	20022
##경기	20023
##aw	20024
늘어났	20025
선행	20026
185	20027
##하마	20028
토크	20029
라라	20030
유성	20031
쓰러지	20032
요한	20033
##텐도	20034
닌텐도	20035
패키지	20036
스즈	20037
##타이	20038
최상위	20039
했으니	20040
장탄	20041
멜로디	20042
떠난	20043
과도	20044
##포르	20045
미나미	20046
야구장	20047
간간	20048
비치	20049
신발	20050
엔드	20051
양상	20052
록맨	20053
대포	20054
성전	20055
##ale	20056
SNS	20057
출루	20058
사라져	20059
프리미엄	20060
지칭	20061
타쿠	20062
그날	20063
끝난다	20064
즈음	20065
변수	20066
개발자	20067
PV	20068
킬러	20069
스트리트	20070
핑크	20071
주류	20072
##ike	20073
대치	20074
독일군	20075
개별	20076
페이스북	20077
후자	20078
해치	20079
안개	20080
무산	20081
##하시	20082
##틀랜드	20083
특별히	20084
더군다나	20085
여러분	20086
영원히	20087
임팩트	20088
자르	20089
전망	20090
사키	20091
초인	20092
새겨	20093
1945	20094
입주	20095
어딘가	20096
물체	20097
Cl	20098
챌린지	20099
집권	20100
##에이	20101
업계	20102
바디	20103
농업	20104
For	20105
무시무시	20106
데이비드	20107
군수	20108
리프	20109
부착	20110
원조	20111
흰색	20112
동남	20113
##키퍼	20114
##야수	20115
암살자	20116
첼시	20117
매번	20118
장사	20119
RPG	20120
브로	20121
나미	20122
왜냐	20123
청주	20124
만주	20125
중복	20126
##OU	20127
브라운	20128
이긴	20129
##끄러	20130
##자와	20131
Dr	20132
질병	20133
커지	20134
손실	20135
야마토	20136
최적	20137
악몽	20138
##바닥	20139
서서히	20140
필리핀	20141
##ep	20142
선조	20143
피트	20144
취득	20145
##irl	20146
벌였	20147
##man	20148
폭행	20149
동아리	20150
##ach	20151
##ile	20152
175	20153
동경	20154
수비력	20155
1981	20156
Sc	20157
인방	20158
BB	20159
바뀐다	20160
여인	20161
호랑이	20162
##여객	20163
골키퍼	20164
OP	20165
서클	20166
벨트	20167
부동	20168
올스타	20169
해양	20170
구별	20171
102	20172
##공항	20173
호시	20174
잠입	20175
줄어든	20176
117	20177
지팡이	20178
헤르	20179
어이	20180
고장	20181
진격	20182
인피	20183
가진다	20184
퍼지	20185
파생	20186
끊임	20187
향한	20188
##12	20189
Team	20190
106	20191
배역	20192
못지	20193
모로	20194
교토	20195
골라	20196
##VA	20197
LA	20198
물량	20199
해킹	20200
##철도	20201
##ink	20202
플러스	20203
Sk	20204
선임	20205
일람	20206
파울	20207
제독	20208
아닌데	20209
퍼포	20210
의외로	20211
사회주의	20212
Mo	20213
체인지	20214
퍼포먼스	20215
페널티	20216
신나	20217
직장	20218
리라	20219
GP	20220
합계	20221
권위	20222
중장	20223
가만히	20224
오이	20225
국당	20226
기호	20227
레코드	20228
공수	20229
청와	20230
늘리	20231
DD	20232
##데드	20233
마물	20234
무술	20235
115	20236
##아키	20237
내려오	20238
응용	20239
시크	20240
김경	20241
세팅	20242
라우	20243
사립	20244
데이트	20245
코난	20246
원형	20247
이웃	20248
평점	20249
라그	20250
이종	20251
##플렉	20252
약물	20253
메이커	20254
가디언	20255
기동전	20256
주행	20257
귀국	20258
언데드	20259
신입	20260
최우	20261
연산	20262
##ial	20263
FM	20264
##승부	20265
청와대	20266
고마	20267
밀도	20268
투쟁	20269
##토스	20270
개장	20271
##런트	20272
##메이	20273
##ish	20274
엘리자	20275
국어	20276
장로	20277
당대	20278
에릭	20279
SU	20280
파란색	20281
1979	20282
건가	20283
서기	20284
레일	20285
후임	20286
여전	20287
풀려	20288
에디	20289
긴급	20290
집합	20291
UN	20292
만만	20293
냐면	20294
배달	20295
##래시	20296
이와	20297
커서	20298
징역	20299
챔피언십	20300
억지로	20301
스파이더	20302
프로토	20303
포즈	20304
오스만	20305
나비	20306
트릭	20307
선사	20308
동해	20309
친한	20310
합리	20311
쇼핑	20312
개신교	20313
권장	20314
분포	20315
오우	20316
트루	20317
장신	20318
김상	20319
기장	20320
행방	20321
폴리	20322
추방	20323
택시	20324
##ower	20325
저하	20326
천연	20327
공백	20328
감동	20329
회색	20330
##네시아	20331
갑작스	20332
안양	20333
이룬	20334
전무	20335
프레이	20336
해산	20337
은지	20338
일화	20339
며칠	20340
궁금	20341
프리미어	20342
연구원	20343
독점	20344
증폭	20345
신자	20346
수동	20347
즉사	20348
모스크	20349
확산	20350
명의	20351
##II	20352
관여	20353
야간	20354
주관	20355
Bla	20356
면허	20357
교단	20358
여학생	20359
다닌다	20360
공인	20361
조이	20362
방치	20363
스캔	20364
재회	20365
사귀	20366
선보이	20367
거친	20368
임의	20369
모집	20370
폐기	20371
##하르트	20372
듀오	20373
빌딩	20374
유미	20375
##오루	20376
대단히	20377
조상	20378
혼돈	20379
만일	20380
명백	20381
뱅크	20382
김진	20383
고인	20384
##GE	20385
전남	20386
썬더	20387
저지르	20388
##숭이	20389
라이너	20390
##운동	20391
코멘트	20392
감상	20393
아레나	20394
캘리	20395
##버그	20396
바둑	20397
성경	20398
렌즈	20399
버섯	20400
사무소	20401
##크로	20402
CH	20403
매출	20404
##아이	20405
분당	20406
we	20407
맡기	20408
캐치	20409
고블린	20410
데모	20411
피닉스	20412
발목	20413
돌연	20414
BS	20415
##IM	20416
출간	20417
조명	20418
타이거즈	20419
처참	20420
Ne	20421
##!!	20422
##비치	20423
불량	20424
Star	20425
장미	20426
광산	20427
깜짝	20428
올라갔	20429
오메	20430
광선	20431
박지	20432
느려	20433
로빈	20434
##프리카	20435
승무원	20436
드릴	20437
김기	20438
##레일	20439
자비	20440
이어졌	20441
전라남도	20442
모듈	20443
달라지	20444
구성원	20445
포켓몬스터	20446
비웃	20447
##벌레	20448
무스	20449
상관없이	20450
가까워	20451
복원	20452
처지	20453
PR	20454
해머	20455
우월	20456
고소	20457
실장	20458
ID	20459
우주선	20460
고로	20461
질투	20462
히가시	20463
목사	20464
되게	20465
스타디	20466
통틀	20467
평일	20468
하인	20469
계수	20470
간호	20471
지연	20472
와카	20473
##번에	20474
배급	20475
##히코	20476
##킨다	20477
##쿠라	20478
드루	20479
Wind	20480
미국인	20481
버드	20482
수색	20483
우드	20484
화산	20485
바꿀	20486
350	20487
라이온즈	20488
유출	20489
대조	20490
난사	20491
협정	20492
##99	20493
유언	20494
파이트	20495
수립	20496
탐정	20497
터져	20498
엄격	20499
시외	20500
조롱	20501
히라	20502
up	20503
스탠드	20504
풍부	20505
##전자	20506
운수	20507
자꾸	20508
줄여	20509
서포트	20510
LP	20511
재학	20512
파멸	20513
심의	20514
DC	20515
골렘	20516
한두	20517
우익	20518
##카락	20519
국무	20520
메이플	20521
산맥	20522
War	20523
머리카락	20524
fe	20525
체감	20526
And	20527
정발	20528
펼쳤	20529
스텝	20530
우유	20531
의자	20532
검술	20533
온천	20534
##체스터	20535
도저히	20536
##ass	20537
미루	20538
바스	20539
쿠라	20540
당사자	20541
##가드	20542
청구	20543
치열	20544
나기	20545
모험가	20546
센트	20547
합동	20548
육상	20549
토미	20550
##러진	20551
포장	20552
국제공항	20553
뒤늦	20554
사이코	20555
##ms	20556
반부	20557
키타	20558
##me	20559
올라간다	20560
루크	20561
젤리	20562
##타카	20563
360	20564
Man	20565
소용	20566
실내	20567
이라크	20568
오로지	20569
다운로드	20570
에픽	20571
본토	20572
진이	20573
112	20574
마코토	20575
축소	20576
토시	20577
기력	20578
권유	20579
제네	20580
특급	20581
조용히	20582
극도	20583
규제	20584
디즈니	20585
승진	20586
키워	20587
배수	20588
##gh	20589
##어놓	20590
##블로	20591
따뜻	20592
비틀	20593
우치	20594
##CG	20595
낙하	20596
##릴라	20597
##렐라	20598
루머	20599
비명	20600
담긴	20601
시사	20602
108	20603
##도리	20604
All	20605
베를	20606
러시	20607
려다	20608
AKB	20609
나노	20610
티아	20611
거둔	20612
극한	20613
##tle	20614
니아	20615
하계	20616
##pp	20617
사이클	20618
##ble	20619
##amp	20620
충청남도	20621
반감	20622
간지	20623
범죄자	20624
바르셀	20625
지인	20626
루피	20627
오락	20628
출범	20629
바르셀로나	20630
디바	20631
바른	20632
비유	20633
우즈	20634
##ft	20635
여섯	20636
지목	20637
수직	20638
친해	20639
시바	20640
베이징	20641
알라	20642
안쪽	20643
토큰	20644
중지	20645
단종	20646
이걸로	20647
일요일	20648
프렌	20649
103	20650
메일	20651
수월	20652
스러워	20653
경북	20654
세금	20655
탐지	20656
폭파	20657
스테이	20658
##거지	20659
황후	20660
능력자	20661
전당	20662
협의	20663
세라	20664
리즈	20665
어시스트	20666
##yle	20667
스타디움	20668
서머	20669
##70	20670
그래서인지	20671
실은	20672
페리	20673
이글스	20674
신데	20675
여파	20676
##ous	20677
물품	20678
중순	20679
직선	20680
망했	20681
세리	20682
실현	20683
배제	20684
조우	20685
##슬라	20686
스태	20687
모임	20688
##now	20689
##atch	20690
베테	20691
신학	20692
##sp	20693
막아내	20694
리버풀	20695
카구	20696
불행	20697
분산	20698
돌아갔	20699
막히	20700
##르타	20701
당당	20702
조커	20703
One	20704
잡아내	20705
Mar	20706
가져오	20707
아가씨	20708
귀엽	20709
##orm	20710
수염	20711
생전	20712
손자	20713
김해	20714
평론	20715
얻어맞	20716
캐시	20717
토키	20718
살펴보	20719
유의	20720
신용	20721
나스	20722
들어올	20723
New	20724
To	20725
ON	20726
명문	20727
모음	20728
나섰	20729
거북	20730
타일	20731
기묘	20732
드론	20733
추세	20734
바론	20735
여고	20736
무승부	20737
ex	20738
막상	20739
체중	20740
저지른	20741
낙선	20742
##스티벌	20743
나루토	20744
나요	20745
진상	20746
페스티벌	20747
수비수	20748
IN	20749
경악	20750
챙기	20751
##란히	20752
토요일	20753
던가	20754
BR	20755
##사이	20756
로이	20757
##민주	20758
천문	20759
##구나	20760
까이	20761
Part	20762
맥주	20763
스미스	20764
수습	20765
태풍	20766
가난	20767
더빙	20768
채보	20769
KR	20770
지녔	20771
기수	20772
가질	20773
떠오르	20774
연봉	20775
함락	20776
마카	20777
김용	20778
Gam	20779
강등	20780
칭하	20781
쳐서	20782
비극	20783
센서	20784
강사	20785
그만두	20786
되살	20787
SF	20788
주최	20789
후회	20790
패전	20791
힙합	20792
##ING	20793
주어지	20794
##그리	20795
대성	20796
극히	20797
집어넣	20798
잠실	20799
산탄	20800
고속도로	20801
CS	20802
좌절	20803
엄밀	20804
국판	20805
듀스	20806
명목	20807
배려	20808
동반	20809
자아	20810
배드	20811
훼손	20812
스핀	20813
인접	20814
유망	20815
대시	20816
노가	20817
실시간	20818
개척	20819
힐러	20820
코마	20821
철권	20822
##ment	20823
리가	20824
기부	20825
PP	20826
##방송	20827
에반	20828
사무실	20829
발리	20830
##ae	20831
흔들리	20832
반짝	20833
케이블	20834
##64	20835
주체	20836
하여	20837
##더라	20838
128	20839
원시	20840
스티븐	20841
압력	20842
모스	20843
상반	20844
고증	20845
장탄수	20846
꼬마	20847
쇼크	20848
스테이션	20849
##불명	20850
유재	20851
혜택	20852
스와	20853
투척	20854
도장	20855
신속	20856
포탄	20857
닉네임	20858
늘려	20859
인자	20860
##ase	20861
혈액	20862
호남	20863
중화민국	20864
##사기	20865
농장	20866
십시오	20867
마땅	20868
아이러	20869
각지	20870
##ree	20871
장성	20872
쉬워	20873
이타	20874
샤이	20875
쳐들	20876
사나	20877
초콜	20878
재개	20879
바지	20880
조카	20881
역습	20882
추리	20883
주교	20884
걸즈	20885
고치	20886
음료	20887
휴가	20888
유니크	20889
벤치	20890
히틀러	20891
##리온	20892
반도	20893
엑시	20894
암호	20895
내린	20896
구조물	20897
소니	20898
버려서	20899
고시	20900
구르	20901
구장	20902
찾아보	20903
날씨	20904
샷건	20905
##구장	20906
변동	20907
총장	20908
En	20909
캘리포	20910
몰리	20911
시로	20912
네티	20913
확장팩	20914
퍼즐	20915
도리	20916
생길	20917
나르	20918
##노리	20919
제갈량	20920
둘러싸	20921
그라운드	20922
물러나	20923
에로	20924
시상식	20925
짐작	20926
하프	20927
1978	20928
알바	20929
질서	20930
1973	20931
근원	20932
레온	20933
믹스	20934
JT	20935
함부로	20936
느꼈	20937
트로피	20938
해병대	20939
두들겨	20940
##저리	20941
어쩌면	20942
야쿠	20943
184	20944
로맨	20945
사퇴	20946
##우치	20947
거론	20948
들어와	20949
오브젝트	20950
##az	20951
두드	20952
##bo	20953
대행	20954
상사	20955
##페라	20956
캘리포니아	20957
그치	20958
보라색	20959
흔한	20960
##혀서	20961
슬라	20962
시비	20963
찬성	20964
라즈	20965
갈색	20966
거든	20967
첫째	20968
짐승	20969
AN	20970
가담	20971
깊이	20972
나뉜	20973
##블리	20974
##러그	20975
각오	20976
인재	20977
사로	20978
World	20979
##ason	20980
양손	20981
구동	20982
##AY	20983
111	20984
그랑	20985
##케이션	20986
속한	20987
쿠데	20988
220	20989
여럿	20990
지워	20991
##바르	20992
안심	20993
호불	20994
##iki	20995
호불호	20996
퇴각	20997
##베리	20998
무용	20999
백화점	21000
##돌이	21001
최저	21002
혁신	21003
공감	21004
183	21005
강림	21006
키보드	21007
정반	21008
##사리	21009
결제	21010
##키스탄	21011
베기	21012
감수	21013
가벼운	21014
지수	21015
JP	21016
##저기	21017
오더	21018
포스터	21019
사야	21020
사리	21021
쫓겨	21022
동서	21023
프린세스	21024
말기	21025
트레이너	21026
진급	21027
마계	21028
전날	21029
계층	21030
베어스	21031
고무	21032
쏟아	21033
네티즌	21034
알렉스	21035
내게	21036
원더	21037
동아	21038
##ear	21039
So	21040
경호	21041
중동	21042
빨간색	21043
대령	21044
특별시	21045
동행	21046
산타	21047
흡사	21048
##hen	21049
후반기	21050
가르치	21051
라크	21052
장례	21053
셔틀	21054
노란색	21055
여기저기	21056
갤러	21057
중부	21058
장난감	21059
마오	21060
240	21061
일어날	21062
잡아	21063
았었	21064
사관	21065
막강	21066
타이탄	21067
기리	21068
리처	21069
##MS	21070
뜬금없이	21071
신선	21072
접하	21073
sp	21074
수지	21075
맞춘	21076
퍼져	21077
세뇌	21078
엔지	21079
그거	21080
핀란드	21081
학생회	21082
피로	21083
##are	21084
포획	21085
드레스	21086
견해	21087
FW	21088
무섭	21089
베를린	21090
탐색	21091
##기에	21092
드문	21093
요미	21094
클린	21095
보좌	21096
인과	21097
유혹	21098
여의	21099
GO	21100
매주	21101
선수단	21102
##붙이	21103
양반	21104
교복	21105
패밀리	21106
유입	21107
봉쇄	21108
모은	21109
국도	21110
후미	21111
영감	21112
우호	21113
강렬	21114
원곡	21115
스코틀랜드	21116
연쇄	21117
뮌헨	21118
상주	21119
입자	21120
##직자	21121
페어	21122
케이드	21123
선진	21124
1974	21125
##차기	21126
방송사	21127
무공	21128
발라	21129
문화재	21130
마일	21131
프랑스어	21132
생체	21133
재건	21134
tv	21135
클론	21136
먹히	21137
우측	21138
려다가	21139
박쥐	21140
끌어올	21141
소재지	21142
트라우마	21143
도어	21144
역명	21145
해져	21146
점유	21147
운송	21148
토대	21149
즐겨	21150
##브라	21151
콤비	21152
##루미	21153
방탄	21154
무실	21155
경찰서	21156
아이러니	21157
드로우	21158
아베	21159
위로	21160
왕실	21161
결계	21162
김준	21163
서바이	21164
잭슨	21165
시달리	21166
약자	21167
와인	21168
신중	21169
공격수	21170
결혼식	21171
세로	21172
데려가	21173
비스트	21174
http	21175
수여	21176
##하나	21177
침대	21178
지부	21179
1972	21180
연금술	21181
알레	21182
복사	21183
##90	21184
##ven	21185
래퍼	21186
트윈스	21187
##ife	21188
포터	21189
관료	21190
끼치	21191
화폐	21192
도덕	21193
바이올	21194
제물	21195
전락	21196
집회	21197
통칭	21198
찾아오	21199
바나	21200
윈드	21201
https	21202
##싸움	21203
감싸	21204
로이드	21205
완공	21206
튼튼	21207
트랩	21208
##ade	21209
허무	21210
장판	21211
순양함	21212
프라임	21213
리안	21214
##AP	21215
Wi	21216
취업	21217
##베이터	21218
프론	21219
디시	21220
역량	21221
스즈키	21222
선장	21223
콘솔	21224
소금	21225
##박스	21226
##으로	21227
폭스	21228
탐사	21229
덴마크	21230
세자	21231
될지	21232
영양	21233
출혈	21234
##렉션	21235
강경	21236
흔하	21237
우회	21238
##던지	21239
쓸데	21240
빈도	21241
라마	21242
##act	21243
도감	21244
MB	21245
하스	21246
글씨	21247
~!	21248
도트	21249
##데레	21250
홀드	21251
##ai	21252
대타	21253
일곱	21254
##ank	21255
아바타	21256
##깨비	21257
##gin	21258
연설	21259
할까	21260
억제	21261
이순	21262
튕겨	21263
간섭	21264
여단	21265
%/	21266
관통력	21267
해라	21268
상무	21269
공대	21270
낭비	21271
do	21272
단행본	21273
졌으며	21274
##aby	21275
루프	21276
히든	21277
부작용	21278
노무	21279
메이지	21280
모형	21281
창문	21282
104	21283
영화제	21284
디오	21285
오노	21286
청나라	21287
승차	21288
##out	21289
전동차	21290
##으므로	21291
인도네시아	21292
소통	21293
법무	21294
Fate	21295
no	21296
트레일러	21297
전격	21298
침투	21299
성씨	21300
술사	21301
비추	21302
재직	21303
태클	21304
워크래프트	21305
페미니	21306
손꼽	21307
다가오	21308
기다려	21309
당초	21310
매니아	21311
한창	21312
블로	21313
다큐	21314
돌아간다	21315
1975	21316
##우트	21317
커스텀	21318
쿠데타	21319
마트	21320
마피아	21321
##lect	21322
시카고	21323
신데렐라	21324
실상	21325
타가	21326
히로시	21327
LIVE	21328
간간히	21329
부재	21330
형편	21331
백업	21332
제재	21333
파밍	21334
123	21335
설령	21336
손오	21337
출산	21338
라가	21339
성실	21340
스탈	21341
깃발	21342
끊임없이	21343
범용	21344
##ET	21345
##에른	21346
하하	21347
##토니	21348
공산주의	21349
장애물	21350
스나이	21351
경연	21352
강간	21353
김일	21354
스트라이커	21355
##oll	21356
##어질	21357
NH	21358
벨기에	21359
우승자	21360
끌어들	21361
전향	21362
소득	21363
고쳐	21364
스타리그	21365
시호	21366
미미	21367
검증	21368
조종사	21369
##UM	21370
##모스	21371
할리	21372
토요	21373
중점	21374
Up	21375
품질	21376
이른바	21377
왕비	21378
OS	21379
여타	21380
카자	21381
1976	21382
라스트	21383
소나	21384
are	21385
나나	21386
근접전	21387
말레이	21388
변이	21389
항해	21390
외곽	21391
III	21392
##ork	21393
워크	21394
##천군	21395
##추어	21396
스피릿	21397
굴러	21398
##다보	21399
마라	21400
파도	21401
강릉	21402
성분	21403
최선	21404
원주민	21405
이스트	21406
오지	21407
정석	21408
마산	21409
사악	21410
휘둘	21411
##버려	21412
띄우	21413
을수록	21414
대접	21415
사사	21416
혈통	21417
섀도우	21418
모니터	21419
그러므로	21420
발명	21421
판사	21422
이어진	21423
유료	21424
##바야	21425
Do	21426
단기	21427
##ary	21428
이어받	21429
하급	21430
구상	21431
타르	21432
차리	21433
특공	21434
선박	21435
리코	21436
리모	21437
카더라	21438
맞붙	21439
Oh	21440
제왕	21441
공통점	21442
왜냐하면	21443
검열	21444
광물	21445
나빠	21446
하반	21447
##way	21448
티스	21449
전생	21450
왼손	21451
넘어갔	21452
##루션	21453
동전	21454
입문	21455
119	21456
브라이언	21457
키라	21458
유연	21459
##바지	21460
트리거	21461
친하	21462
천천	21463
포도	21464
찾아내	21465
중상	21466
쓰인	21467
해질	21468
명분	21469
올드	21470
탄핵	21471
##ey	21472
마틴	21473
##ich	21474
명사	21475
공헌	21476
변해	21477
고종	21478
스플	21479
장남	21480
화해	21481
원장	21482
전송	21483
사로잡	21484
##께끼	21485
135	21486
수수께끼	21487
급행	21488
소모량	21489
중심지	21490
단검	21491
109	21492
##슈타인	21493
##모함	21494
초콜릿	21495
우루	21496
중고	21497
원한	21498
박정희	21499
바이에른	21500
초상	21501
우울	21502
코스튬	21503
미지	21504
지선	21505
##저우	21506
중기	21507
##타입	21508
ES	21509
중위	21510
확신	21511
대변	21512
괴롭히	21513
김수	21514
##미터	21515
Mk	21516
공단	21517
입증	21518
베테랑	21519
##어내	21520
일체	21521
한나라	21522
모스크바	21523
잔인	21524
##능력	21525
한나라당	21526
관우	21527
##키리	21528
찾아온	21529
일리	21530
엘리베이터	21531
검토	21532
오페라	21533
시모	21534
너머	21535
수인	21536
Ad	21537
잉여	21538
예약	21539
시온	21540
친다	21541
단발	21542
조국	21543
부패	21544
질주	21545
친절	21546
찾아볼	21547
불태	21548
손오공	21549
치우	21550
대법	21551
아이디어	21552
lv	21553
땅볼	21554
부유	21555
겹쳐	21556
대동	21557
처하	21558
히스	21559
##벤처	21560
교리	21561
all	21562
##동자	21563
Day	21564
어드벤처	21565
진단	21566
시게	21567
##니시	21568
존스	21569
떠난다	21570
강호	21571
발판	21572
보스턴	21573
성배	21574
아스카	21575
터스	21576
유망주	21577
천황	21578
케빈	21579
로보	21580
콘스탄	21581
AFC	21582
시외버스	21583
곡인	21584
건네	21585
이어진다	21586
스태프	21587
도쿠	21588
부속	21589
이병	21590
천천히	21591
nd	21592
체코	21593
버스트	21594
정해진	21595
압축	21596
충족	21597
학사	21598
##pt	21599
고는	21600
182	21601
##orn	21602
과자	21603
카카오	21604
메리트	21605
이현	21606
니혼	21607
고스	21608
카시	21609
굴욕	21610
##페이	21611
구독	21612
준다는	21613
무제	21614
드러난다	21615
도깨비	21616
에이지	21617
앤드	21618
그릇	21619
##하루	21620
프로게이	21621
프로게이머	21622
분할	21623
동정	21624
손님	21625
크레이	21626
오메가	21627
붙인	21628
##라미	21629
강전	21630
화상	21631
군부	21632
바치	21633
연수	21634
자제	21635
나폴레	21636
루마	21637
토마스	21638
친분	21639
플랜	21640
어색	21641
후일	21642
대박	21643
머무	21644
라이언	21645
지붕	21646
되돌아	21647
민중	21648
위엄	21649
아지	21650
싱가	21651
싱가포르	21652
항공모함	21653
디자이너	21654
평등	21655
##가루	21656
121	21657
홋카이도	21658
치카	21659
미궁	21660
레이디	21661
나폴레옹	21662
마운	21663
지력	21664
##레일리아	21665
삼성전자	21666
눈치채	21667
라그나	21668
따왔	21669
1971	21670
일관	21671
노르웨이	21672
##본다	21673
머니	21674
Windows	21675
고고	21676
저자	21677
##의자	21678
레이블	21679
으려는	21680
메트로	21681
##네마	21682
왕복	21683
박살내	21684
와이번	21685
FF	21686
이럴	21687
테이블	21688
폭격기	21689
스택	21690
발레	21691
이어져	21692
동구	21693
145	21694
물어	21695
사촌	21696
107	21697
아님	21698
렉스	21699
맹세	21700
디펜	21701
속해	21702
에버	21703
망명	21704
##테이션	21705
극대	21706
="	21707
이경	21708
현금	21709
RA	21710
꼽히	21711
열정	21712
가져다	21713
찰스	21714
이틀	21715
엑시즈	21716
스케일	21717
광기	21718
합작	21719
1977	21720
점검	21721
강점기	21722
진에	21723
##쿠스	21724
대전차	21725
##ah	21726
김포	21727
엔트리	21728
퍼스트	21729
##EM	21730
비리	21731
기르	21732
##사스	21733
일가	21734
하이라이트	21735
카리스	21736
여포	21737
질량	21738
유탄	21739
키를	21740
창립	21741
DP	21742
다가가	21743
변태	21744
##리안	21745
리틀	21746
종결	21747
할로	21748
원숭이	21749
촉수	21750
후드	21751
아까	21752
하사	21753
지오	21754
작위	21755
무거운	21756
마타	21757
ML	21758
아아	21759
이모	21760
고집	21761
사체	21762
AA	21763
묘하	21764
##very	21765
신동	21766
두려워	21767
자율	21768
리퍼	21769
블레이	21770
##uck	21771
마술사	21772
##버리	21773
보고서	21774
재배	21775
존중	21776
조화	21777
츠카	21778
본질	21779
그레이트	21780
독일어	21781
안타까	21782
##리스타	21783
표절	21784
무지막	21785
사족	21786
무지막지	21787
다닐	21788
오렌	21789
챔프	21790
총합	21791
파스	21792
원전	21793
ne	21794
크라이	21795
천장	21796
선교	21797
IT	21798
공신	21799
평행	21800
엔지니어	21801
본다면	21802
보르	21803
나뉜다	21804
스런	21805
br	21806
석유	21807
부스	21808
그쳤	21809
쳐들어	21810
중거리	21811
자존	21812
감탄	21813
브라더스	21814
임진	21815
놓여	21816
전라북도	21817
##ph	21818
Sw	21819
부숴	21820
DPS	21821
호크	21822
자네	21823
자책점	21824
피카	21825
BPM	21826
게이머	21827
JTBC	21828
소집	21829
정사	21830
지분	21831
농민	21832
물자	21833
210	21834
스포일러	21835
메카닉	21836
카마	21837
봉사	21838
노무현	21839
연간	21840
해소	21841
178	21842
인칭	21843
란스	21844
##ero	21845
몸통	21846
스가	21847
1969	21848
다이스	21849
움직일	21850
과일	21851
113	21852
손쉽	21853
스티브	21854
유가	21855
이대로	21856
털리	21857
관장	21858
리처드	21859
저기	21860
".	21861
대위	21862
유격수	21863
쿠스	21864
교과서	21865
오니	21866
무실점	21867
착한	21868
교차로	21869
##ool	21870
로키	21871
사수	21872
타구	21873
서적	21874
동속	21875
검정	21876
레이어	21877
노가다	21878
##들이	21879
165	21880
##바나	21881
오스트레일리아	21882
광명	21883
브레이커	21884
마유	21885
으라고	21886
시뮬	21887
어나	21888
아닐까	21889
김지	21890
1968	21891
날뛰	21892
하치	21893
맨체스터	21894
동대	21895
러스	21896
냉정	21897
1963	21898
데빌	21899
주식회사	21900
철저히	21901
##ical	21902
뜬다	21903
총독	21904
토트	21905
놀라운	21906
건데	21907
불쌍	21908
빙판	21909
명시	21910
기차	21911
아픈	21912
출판사	21913
시골	21914
NBA	21915
부원	21916
프랜	21917
힘입	21918
이오	21919
입사	21920
필름	21921
장타	21922
주축	21923
다니엘	21924
##urn	21925
부산광역시	21926
가구	21927
뜨거운	21928
착륙	21929
##퍼드	21930
백만	21931
##ype	21932
Ph	21933
병역	21934
블리자드	21935
오케	21936
탄압	21937
슬픔	21938
실체	21939
##ARD	21940
부천	21941
Con	21942
말씀	21943
에드워드	21944
2021	21945
윤리	21946
모순	21947
##구미	21948
배웠	21949
##anc	21950
주사위	21951
호의	21952
##센스	21953
스노우	21954
매각	21955
고아	21956
광경	21957
마당	21958
제니	21959
지장	21960
깨끗	21961
유치원	21962
터보	21963
미오	21964
매드	21965
불능	21966
마인드	21967
카리	21968
스폰서	21969
페스	21970
훔쳐	21971
목걸이	21972
{{{#	21973
##뜨려	21974
어벤	21975
부스트	21976
부러	21977
##은색	21978
김유	21979
155	21980
서열	21981
배운	21982
완화	21983
지혜	21984
용산	21985
올라갈	21986
Cr	21987
파운드	21988
변장	21989
##ung	21990
참사	21991
평론가	21992
엄연히	21993
줄기	21994
유니버스	21995
울리	21996
이라도	21997
멍청	21998
OVA	21999
사우스	22000
한다며	22001
김승	22002
수천	22003
울트라맨	22004
싸운	22005
답답	22006
아드	22007
명명	22008
문양	22009
굴리	22010
하나하나	22011
보편	22012
변했	22013
개명	22014
122	22015
Qu	22016
우타	22017
서류	22018
트윗	22019
납득	22020
상금	22021
미러	22022
초청	22023
워프	22024
##항공	22025
배구	22026
모델링	22027
씨앗	22028
구로	22029
외국어	22030
평상	22031
##테일	22032
미르	22033
Station	22034
181	22035
까마	22036
레인지	22037
프로그래	22038
제리	22039
##업자	22040
압권	22041
TVA	22042
뚜렷	22043
이노	22044
치안	22045
감자	22046
열혈	22047
가설	22048
144	22049
정문	22050
중구	22051
난무	22052
친척	22053
진동	22054
취재	22055
엘레	22056
집계	22057
중원	22058
엘리자베스	22059
박수	22060
##소년	22061
본능	22062
수위	22063
LO	22064
발키리	22065
도마	22066
향후	22067
##ww	22068
절친	22069
좌익	22070
이케	22071
아닌지	22072
KOF	22073
고사	22074
재앙	22075
태우	22076
철갑	22077
마케팅	22078
서명	22079
자산	22080
리나	22081
주석	22082
싫어하	22083
츠바	22084
헷갈	22085
성명	22086
깨지	22087
오죽	22088
녹화	22089
우연	22090
고등학생	22091
##끼리	22092
생김	22093
##시피	22094
도심	22095
##iver	22096
케이크	22097
우린	22098
카지	22099
애칭	22100
무늬	22101
지낸	22102
초능력	22103
소생	22104
작정	22105
어나더	22106
at	22107
패자	22108
행진	22109
서방	22110
강민	22111
너스	22112
매트	22113
##들리	22114
지로	22115
국토	22116
트래	22117
사연	22118
사직	22119
시조	22120
테스	22121
##DD	22122
잃어버린	22123
곤충	22124
베인	22125
신하	22126
일까	22127
어이없	22128
152	22129
서울대	22130
일렉	22131
잊혀	22132
아리아	22133
드래곤볼	22134
용암	22135
유아	22136
골프	22137
가이드	22138
love	22139
결의	22140
로프	22141
타츠	22142
아마추어	22143
경부	22144
실용	22145
액체	22146
학대	22147
실사	22148
##폭탄	22149
시어	22150
##ens	22151
경사	22152
국방부	22153
정성	22154
산소	22155
발발	22156
벌인	22157
멋대로	22158
이대	22159
자사	22160
쿠니	22161
표적	22162
##리칸	22163
전지	22164
as	22165
즐거	22166
워터	22167
편리	22168
벙커	22169
트릴	22170
좌측	22171
유엔	22172
일어난다	22173
저렇	22174
안타깝	22175
싸이	22176
##ost	22177
스카우트	22178
아스트	22179
민간인	22180
도색	22181
##이동	22182
##어트	22183
TR	22184
자칭	22185
카네	22186
다케	22187
침몰	22188
114	22189
엄밀히	22190
워즈	22191
사투	22192
주머니	22193
마음대로	22194
##워즈	22195
##ence	22196
1930	22197
우마	22198
라이즈	22199
거지	22200
wiki	22201
몰살	22202
잠들	22203
마하	22204
이소	22205
##이나	22206
끝날	22207
박성	22208
예쁘	22209
만점	22210
인성	22211
미성	22212
롤러	22213
IM	22214
변명	22215
##nt	22216
괴로	22217
의정부	22218
직책	22219
##마루	22220
개교	22221
초록색	22222
망토	22223
##변이	22224
돌연변이	22225
from	22226
기질	22227
초점	22228
항모	22229
##드로	22230
##ise	22231
옥상	22232
이이	22233
각도	22234
코토	22235
각인	22236
법사	22237
##int	22238
포크	22239
리본	22240
##시스코	22241
##버렸	22242
이진	22243
버틸	22244
변한	22245
습니까	22246
텍사스	22247
플라스	22248
이누	22249
1920	22250
개구리	22251
원피스	22252
맞춰서	22253
템플	22254
마모	22255
아자	22256
스컬	22257
망하	22258
루리	22259
179	22260
방학	22261
##이치로	22262
만능	22263
고의	22264
유스	22265
이념	22266
정밀	22267
!"	22268
##하여	22269
아냐	22270
발급	22271
##AK	22272
##베트	22273
죄책	22274
통째	22275
등극	22276
학급	22277
카레	22278
모시	22279
Super	22280
기스	22281
브래	22282
이원	22283
포탈	22284
즐길	22285
에디션	22286
쿠마	22287
적자	22288
MG	22289
Fr	22290
격려	22291
1940	22292
이명박	22293
BJ	22294
can	22295
##oy	22296
##자치	22297
로라	22298
용자	22299
##지능	22300
인공지능	22301
동성애	22302
조항	22303
방심	22304
아담	22305
포병	22306
슈퍼맨	22307
미인	22308
혼인	22309
이른다	22310
정신력	22311
제치	22312
이빨	22313
www	22314
##ign	22315
발탁	22316
쳐도	22317
적절히	22318
CM	22319
선동	22320
오렌지	22321
엉망	22322
관직	22323
종영	22324
엮이	22325
인벤	22326
연전	22327
협동	22328
##ans	22329
스타트	22330
써도	22331
이태	22332
177	22333
북아	22334
마찰	22335
안동	22336
돌아갈	22337
일컫	22338
어설	22339
대역	22340
##타운	22341
남동생	22342
기소	22343
죄책감	22344
소비자	22345
##과이	22346
튜버	22347
끼워	22348
에미	22349
추후	22350
달라진다	22351
네이션	22352
리사	22353
호러	22354
##ug	22355
포착	22356
겐지	22357
최순	22358
Dream	22359
헬멧	22360
펌프	22361
풍선	22362
정반대	22363
다거나	22364
##바이트	22365
장벽	22366
##바야시	22367
아케이드	22368
공속	22369
감당	22370
124	22371
이윤	22372
밝혀진다	22373
은폐	22374
##전차	22375
블럭	22376
억울	22377
1967	22378
금강	22379
##야스	22380
선로	22381
어려울	22382
저서	22383
니다	22384
##느리	22385
더럽	22386
유진	22387
갱신	22388
고가	22389
버텨	22390
원로	22391
반경	22392
127	22393
다시금	22394
준다고	22395
USB	22396
마에	22397
##슬리	22398
해냈	22399
그해	22400
가리킨다	22401
아무튼	22402
오른손	22403
교역	22404
협조	22405
페어리	22406
나인	22407
정점	22408
오다	22409
도약	22410
용이	22411
예의	22412
익히	22413
아사히	22414
부동산	22415
아울	22416
아쿠아	22417
신곡	22418
해운	22419
this	22420
시오	22421
##IR	22422
인해서	22423
내기	22424
유카	22425
페르시아	22426
스틱	22427
1200	22428
중국인	22429
##나베	22430
##코트	22431
분홍	22432
##vel	22433
보낼	22434
쉴드	22435
타치	22436
450	22437
잔혹	22438
시타	22439
고발	22440
카운티	22441
아이디	22442
연동	22443
왕족	22444
기본기	22445
욕설	22446
##철수	22447
마친	22448
독립운동	22449
##질랜드	22450
컴백	22451
ERA	22452
##지사	22453
##ode	22454
군요	22455
민감	22456
뉴질랜드	22457
출동	22458
교도소	22459
초과	22460
필립	22461
크래프트	22462
누스	22463
절벽	22464
선원	22465
바쿠	22466
##uk	22467
강했	22468
##VER	22469
버거	22470
##젤레스	22471
떨어질	22472
수신	22473
에도	22474
지역구	22475
게르	22476
대차	22477
비단	22478
호드	22479
부채	22480
시크릿	22481
부친	22482
가져온	22483
##버린	22484
제사	22485
수감	22486
무도	22487
후쿠오카	22488
사방	22489
프레스	22490
베스	22491
침착	22492
갇혀	22493
사무라이	22494
Fl	22495
발각	22496
방침	22497
뿌려	22498
스토어	22499
Pl	22500
후유	22501
변한다	22502
회관	22503
물리치	22504
덩어리	22505
청춘	22506
대세	22507
로렌	22508
어려웠	22509
팔라	22510
물려받	22511
카테	22512
보강	22513
Ver	22514
스로	22515
밀어내	22516
##린다는	22517
대피	22518
바꿨	22519
내보내	22520
##나기	22521
##역사	22522
제의	22523
CE	22524
##생활	22525
연이	22526
그러면	22527
섞여	22528
피오	22529
구형	22530
급격히	22531
저질렀	22532
키미	22533
아랫	22534
잡힌	22535
##킵니다	22536
게끔	22537
EC	22538
종전	22539
철도역	22540
진에어	22541
디스플레이	22542
EXP	22543
연소	22544
카리스마	22545
재즈	22546
##공사	22547
style	22548
내외	22549
애완	22550
함장	22551
놀랍	22552
가마	22553
측근	22554
쌓이	22555
##민주당	22556
발전소	22557
방사능	22558
도르	22559
번지	22560
날카로운	22561
선포	22562
##헤이	22563
스쿼	22564
코스프레	22565
애인	22566
실존	22567
레나	22568
보낸다	22569
사와	22570
유재석	22571
히카	22572
##ier	22573
신한	22574
궁합	22575
마야	22576
퇴치	22577
미쳐	22578
반성	22579
판도	22580
강대	22581
가위	22582
현자	22583
카쿠	22584
리바	22585
격렬	22586
하이드	22587
기법	22588
분자	22589
워리어	22590
가오	22591
Sch	22592
예방	22593
미아	22594
잔류	22595
##페이스	22596
산다	22597
김구	22598
Girl	22599
당국	22600
Season	22601
사물	22602
인문	22603
1962	22604
##ash	22605
징계	22606
IP	22607
오퍼	22608
앞선	22609
##려고	22610
러쉬	22611
박자	22612
문신	22613
왕가	22614
##속기	22615
ar	22616
자이언트	22617
근로	22618
La	22619
모빌	22620
이놈	22621
코노	22622
DM	22623
모욕	22624
전담	22625
약혼	22626
화기	22627
강타	22628
NO	22629
아름답	22630
반역	22631
일어	22632
162	22633
이카	22634
흡혈귀	22635
유동	22636
이단	22637
정조	22638
흑마	22639
tr	22640
사치	22641
중견	22642
118	22643
흥분	22644
종로	22645
높여	22646
친애	22647
올라와	22648
화석	22649
WC	22650
시종	22651
가져왔	22652
점심	22653
터졌	22654
쿠바	22655
퀴즈	22656
고립	22657
##끄럽	22658
제주도	22659
패트	22660
노아	22661
기동력	22662
##믹스	22663
그루	22664
분배	22665
##reat	22666
1966	22667
##IX	22668
아처	22669
##나와	22670
유우키	22671
브론	22672
이용자	22673
피자	22674
명나라	22675
위쪽	22676
부가	22677
헬리	22678
카피	22679
레이싱	22680
틀린	22681
로스트	22682
토라	22683
단백	22684
타이어	22685
황당	22686
##ib	22687
만난다	22688
##시고	22689
박진	22690
경성	22691
오를	22692
계곡	22693
실린	22694
왕후	22695
벌써	22696
이행	22697
314	22698
달려가	22699
##돌프	22700
자존심	22701
학술	22702
달려들	22703
##치아	22704
생김새	22705
제노	22706
위해선	22707
스나이퍼	22708
건드리	22709
던진	22710
탈환	22711
태생	22712
##usic	22713
월간	22714
저글	22715
Max	22716
##사랑	22717
##보기	22718
중소	22719
피지컬	22720
감추	22721
남동	22722
##탐정	22723
관문	22724
날렸	22725
우두	22726
었었	22727
실적	22728
##우라	22729
망설	22730
한양	22731
750	22732
##방울	22733
1964	22734
덧붙여	22735
금요일	22736
대검	22737
입시	22738
그간	22739
능가	22740
안무	22741
적시타	22742
불길	22743
##리얼	22744
갖춰	22745
Vol	22746
TS	22747
뱅가드	22748
##수리	22749
숙소	22750
라미	22751
소서	22752
유고	22753
휩쓸	22754
DNA	22755
그쪽	22756
여태	22757
정전	22758
##마리	22759
토트넘	22760
어째서인지	22761
내셔널	22762
얼티	22763
급속	22764
스파이더맨	22765
Ed	22766
아오이	22767
천상	22768
##}}	22769
--	22770
궁전	22771
시범	22772
중재	22773
요격	22774
##ose	22775
ld	22776
할로윈	22777
통솔	22778
레아	22779
모종	22780
성사	22781
코파	22782
스피어	22783
대학생	22784
중도	22785
나이프	22786
사슬	22787
헤라	22788
탈취	22789
진술	22790
##리드	22791
스타즈	22792
AV	22793
존슨	22794
에메	22795
직위	22796
한꺼	22797
한꺼번에	22798
까마귀	22799
소소	22800
입원	22801
호리	22802
##시대	22803
괴인	22804
과시	22805
나이츠	22806
황태	22807
amp	22808
욕망	22809
계절	22810
불참	22811
##서스	22812
Col	22813
쓰리	22814
혼합	22815
##부키	22816
야당	22817
##te	22818
so	22819
생태	22820
넘쳐	22821
기껏	22822
피치	22823
시킵니다	22824
오만	22825
학년도	22826
항공사	22827
GM	22828
비자	22829
저글링	22830
점멸	22831
HE	22832
모인	22833
질환	22834
##사르	22835
미정	22836
극심	22837
##ail	22838
##msys	22839
페르소	22840
날린다	22841
##ition	22842
ldmsys	22843
원판	22844
간판	22845
머스	22846
그란	22847
안겨	22848
스탈린	22849
천국	22850
충청북도	22851
스탭	22852
히드라	22853
이별	22854
홀리	22855
우지	22856
도대	22857
테르	22858
필사	22859
과금	22860
시시	22861
마기	22862
rd	22863
터뜨리	22864
Night	22865
각국	22866
입힌다	22867
하지	22868
##티노	22869
욕심	22870
##구니	22871
BC	22872
차장	22873
##와라	22874
마르코	22875
테리	22876
상냥	22877
토우	22878
강인	22879
나들	22880
not	22881
조립	22882
레버	22883
샘플	22884
시안	22885
회로	22886
##키스	22887
##당초	22888
모아서	22889
앨런	22890
태워	22891
미녀	22892
나들목	22893
날아오	22894
리버스	22895
##워프	22896
군데	22897
##IL	22898
이사장	22899
지루	22900
지크	22901
김주	22902
알렸	22903
단자	22904
스매	22905
승패	22906
지지율	22907
요코하마	22908
암컷	22909
인텔	22910
공국	22911
##히토	22912
##ild	22913
빠져나가	22914
하여금	22915
168	22916
김치	22917
올린다	22918
일일	22919
##아치	22920
김광	22921
페르소나	22922
오토바이	22923
Let	22924
수소	22925
아비	22926
알렉산드	22927
조르	22928
물약	22929
##그라	22930
도미	22931
스윙	22932
제발	22933
마쓰	22934
병행	22935
부시	22936
희생자	22937
디아블로	22938
오사	22939
키요	22940
##닐라	22941
학회	22942
피난	22943
단백질	22944
상부	22945
난민	22946
스크롤	22947
##ody	22948
바텀	22949
만렙	22950
테니스	22951
등재	22952
실려	22953
목욕	22954
사탕	22955
빙결	22956
Black	22957
어원	22958
펑크	22959
159	22960
일환	22961
##바리	22962
여겼	22963
코끼리	22964
밀리언	22965
알아내	22966
신작	22967
무녀	22968
이승만	22969
##파이	22970
##세지	22971
도배	22972
퍼펙트	22973
BD	22974
나눈	22975
평택	22976
##클린	22977
무신	22978
칼라	22979
말레이시아	22980
라인하르트	22981
부처	22982
예요	22983
아마존	22984
미노	22985
리자	22986
인쇄	22987
여주인	22988
보로	22989
해변	22990
##진호	22991
옮겼	22992
쓰러진	22993
해역	22994
아리스	22995
오즈	22996
파고	22997
신생	22998
팔리	22999
화신	23000
금발	23001
환생	23002
둥지	23003
마도카	23004
대니	23005
한가	23006
터진	23007
두꺼	23008
싸운다	23009
직행	23010
1948	23011
배울	23012
mar	23013
##ough	23014
응답	23015
해전	23016
발사기	23017
아메리칸	23018
국기	23019
까다로운	23020
진흥	23021
까다롭	23022
AF	23023
MM	23024
챔스	23025
절단	23026
엉덩이	23027
1944	23028
미소녀	23029
세례	23030
도대체	23031
모의	23032
무능	23033
1965	23034
성벽	23035
OG	23036
부제	23037
히사	23038
##33	23039
##모습	23040
명장	23041
시켜야	23042
쿠르	23043
유머	23044
중공	23045
깨어나	23046
프롤	23047
일조	23048
##앤젤레스	23049
로스앤젤레스	23050
##레아	23051
퓨전	23052
스텔스	23053
섬멸	23054
못해서	23055
노부나가	23056
석사	23057
충남	23058
방언	23059
##스카	23060
프랑크	23061
회계	23062
불상	23063
스쿼드	23064
노릇	23065
##멘터리	23066
아카네	23067
끝났	23068
아포	23069
주저	23070
RE	23071
섭취	23072
아슬	23073
울음	23074
와이번스	23075
수중	23076
식스	23077
수아	23078
말려	23079
모나	23080
때로	23081
약체	23082
필라	23083
4000	23084
눈앞	23085
모았	23086
Op	23087
##gr	23088
일명	23089
들키	23090
대국	23091
안토니	23092
스네	23093
카일	23094
스케이	23095
찔러	23096
좌파	23097
전임	23098
빅토리아	23099
꿈꾸	23100
지면	23101
사임	23102
동상	23103
집필	23104
고래	23105
객관	23106
출석	23107
##aster	23108
차가	23109
접수	23110
##스크림	23111
##무지	23112
빌보드	23113
공교	23114
내린다	23115
급하	23116
외야수	23117
##app	23118
마을버스	23119
그리스도	23120
메디	23121
##orts	23122
##타리	23123
끌려가	23124
평상시	23125
목포	23126
확립	23127
비평	23128
인피니티	23129
이나마	23130
선회	23131
사이토	23132
대안	23133
##성군	23134
그리핀	23135
낮추	23136
대승	23137
연세대	23138
아유	23139
유메	23140
##uc	23141
보살	23142
쿄코	23143
피우	23144
베이비	23145
사천	23146
교향	23147
두루	23148
드워프	23149
애용	23150
혼혈	23151
1946	23152
##고속도로	23153
십자군	23154
아수	23155
신관	23156
##은이	23157
워드	23158
공동체	23159
성지	23160
이계	23161
##시티	23162
주공	23163
PK	23164
에코	23165
다큐멘터리	23166
마르크	23167
주입	23168
##렉터	23169
루미	23170
장본	23171
해고	23172
알렉산더	23173
무자	23174
서울시	23175
최상급	23176
보우	23177
컨디션	23178
그려져	23179
적힌	23180
말라	23181
그랑프리	23182
동북	23183
위시	23184
슬퍼	23185
휴게	23186
늘어난다	23187
스카웃	23188
김대중	23189
실리	23190
이무	23191
##CE	23192
주파	23193
스기	23194
대면	23195
##ject	23196
en	23197
편의점	23198
껍질	23199
스타워즈	23200
평판	23201
교대	23202
이니	23203
##OO	23204
EXT	23205
탄소	23206
##티니	23207
침해	23208
..?	23209
블라디	23210
득표율	23211
가령	23212
아쉬움	23213
##ari	23214
단련	23215
폭로	23216
math	23217
믿음	23218
카게	23219
비로	23220
자력	23221
컴뱃	23222
전도	23223
방안	23224
줍니다	23225
면제	23226
수컷	23227
사지	23228
퍼시	23229
민폐	23230
집사	23231
le	23232
휴대폰	23233
AL	23234
흑막	23235
테이프	23236
CR	23237
독백	23238
크롬	23239
##뜨렸	23240
라비	23241
솔저	23242
히로시마	23243
정서	23244
숙청	23245
소마	23246
달인	23247
섬광	23248
아르바이트	23249
EZ	23250
리프트	23251
돌아올	23252
두려움	23253
막부	23254
스모	23255
벨라	23256
성대	23257
##프란	23258
리부	23259
##각형	23260
와타나베	23261
구호	23262
달콤	23263
큐어	23264
경제학	23265
항성	23266
원자력	23267
감성	23268
##iel	23269
##트론	23270
프랭크	23271
우미	23272
공명	23273
대해선	23274
단서	23275
강동	23276
벗겨	23277
냉장	23278
지각	23279
남학생	23280
##퍼니	23281
관광객	23282
##디스	23283
홈경기	23284
151	23285
줄여서	23286
찬양	23287
보복	23288
유즈	23289
격퇴	23290
138	23291
타우	23292
아름다	23293
Gu	23294
하와	23295
신념	23296
신조	23297
SA	23298
##미르	23299
던지라	23300
가해자	23301
장본인	23302
티저	23303
광복	23304
남양	23305
개업	23306
케리	23307
320	23308
하도	23309
172	23310
기하	23311
비비	23312
GSL	23313
눈동자	23314
은메달	23315
로비	23316
##애나	23317
타카하시	23318
샤를	23319
정우	23320
사르	23321
휴먼	23322
벡터	23323
수성	23324
##오피스	23325
뛰어들	23326
으신	23327
상시	23328
남한	23329
그려진	23330
가이아	23331
무지개	23332
##TA	23333
막혀	23334
조수	23335
김병	23336
천주교	23337
ATK	23338
##ats	23339
순천	23340
##ye	23341
##도전	23342
다치	23343
의의	23344
정답	23345
어벤져	23346
단역	23347
보직	23348
강아지	23349
변함	23350
EU	23351
##eah	23352
##바람	23353
##올라	23354
아폴	23355
불화	23356
동아시아	23357
개막전	23358
견디	23359
자루	23360
주한	23361
315	23362
로크	23363
시네마	23364
1961	23365
##총장	23366
컬렉션	23367
##부인	23368
걸까	23369
풍경	23370
GD	23371
서바이벌	23372
일각	23373
##뜨린	23374
천지	23375
고맙	23376
걸음	23377
배후	23378
##중간	23379
얼티밋	23380
투고	23381
배리	23382
고난	23383
TOP	23384
마쳤	23385
테레	23386
Mag	23387
오공	23388
158	23389
##랍니다	23390
거스	23391
균열	23392
동사	23393
##다드	23394
대교	23395
바닷	23396
내정	23397
다간	23398
오른다	23399
그리하여	23400
라이드	23401
CL	23402
표기법	23403
그렸	23404
상원	23405
재질	23406
탁월	23407
깃털	23408
도스	23409
흑역사	23410
카사	23411
손잡이	23412
가왕	23413
악행	23414
캡슐	23415
무한도전	23416
통보	23417
스칼	23418
마미	23419
스톡	23420
##이센	23421
시련	23422
추모	23423
로맨스	23424
AB	23425
민병	23426
NT	23427
물리학	23428
ver	23429
리믹스	23430
수확	23431
흉내	23432
동메달	23433
카이저	23434
내면	23435
숭배	23436
일산	23437
비키	23438
루마니아	23439
UC	23440
구울	23441
매그	23442
여수	23443
##oh	23444
이세	23445
##eth	23446
드러냈	23447
바랍니다	23448
이순신	23449
충고	23450
표식	23451
위함	23452
##ron	23453
박스오피스	23454
소꿉	23455
쿠사	23456
스파크	23457
슬라이드	23458
섞인	23459
제대	23460
독보	23461
결과물	23462
병살	23463
올바	23464
금고	23465
##세요	23466
##ings	23467
아이즈	23468
주차장	23469
이호	23470
김일성	23471
마주치	23472
유마	23473
구제	23474
청사	23475
##메리카	23476
사범	23477
신상	23478
제인	23479
다투	23480
어판	23481
쿠리	23482
유한	23483
그레이드	23484
건립	23485
레이지	23486
176	23487
공로	23488
컴퍼니	23489
##운수	23490
도요	23491
방정	23492
아무렇	23493
크라운	23494
떠돌	23495
도사	23496
다저스	23497
##맥스	23498
삽질	23499
will	23500
간파	23501
운반	23502
지미	23503
Is	23504
ME	23505
재수	23506
예고편	23507
수라	23508
보가	23509
직무	23510
원했	23511
##느님	23512
계략	23513
저항력	23514
멈춰	23515
테란	23516
병과	23517
호응	23518
발톱	23519
타리	23520
##inal	23521
궁수	23522
심정	23523
##==	23524
126	23525
김윤	23526
마수	23527
차림	23528
신임	23529
1949	23530
오로치	23531
드러난	23532
정의당	23533
Am	23534
과격	23535
대명	23536
완벽히	23537
하느님	23538
자작	23539
기온	23540
폴아웃	23541
승려	23542
##성이	23543
상어	23544
친일	23545
치렀	23546
우두머리	23547
이점	23548
10000	23549
리볼	23550
마지	23551
어그	23552
주의자	23553
몸매	23554
##저래	23555
Don	23556
테오	23557
문법	23558
보루	23559
감금	23560
서원	23561
타스	23562
으려면	23563
##ult	23564
유라	23565
인플	23566
크로우	23567
라이트닝	23568
무선	23569
바이킹	23570
응급	23571
코로나	23572
노라	23573
154	23574
맡겨	23575
사망자	23576
like	23577
레시피	23578
LE	23579
패왕	23580
세르비아	23581
총사	23582
흉악	23583
WH	23584
방울	23585
맷집	23586
{{{-	23587
KB	23588
뒤쪽	23589
Time	23590
132	23591
##총리	23592
##MAN	23593
내려갔	23594
주황	23595
전법	23596
총선거	23597
법안	23598
유해	23599
드루이드	23600
무비	23601
자카	23602
걸친	23603
웨폰	23604
거꾸	23605
김성근	23606
레슬링	23607
센트럴	23608
아테나	23609
난리	23610
new	23611
##덕션	23612
성폭	23613
어긋	23614
강서	23615
성직자	23616
멸종	23617
##13	23618
떨어뜨리	23619
기뻐하	23620
응시	23621
##빨리	23622
지배자	23623
베어	23624
이즈미	23625
넘겼	23626
강습	23627
천체	23628
벗어난	23629
저승	23630
이래저래	23631
튀어나오	23632
노린	23633
##리언	23634
218	23635
완성도	23636
니트	23637
코프	23638
이용객	23639
테크닉	23640
이리저리	23641
르노	23642
Mi	23643
피드	23644
파인	23645
장신구	23646
##GA	23647
예쁜	23648
행하	23649
로열	23650
코디	23651
만지	23652
국민당	23653
##ov	23654
취지	23655
##oul	23656
스콜	23657
급식	23658
충격파	23659
트론	23660
##18	23661
상의	23662
서리	23663
라이징	23664
손목	23665
선봉	23666
리츠	23667
##조합	23668
엠블	23669
이영호	23670
안젤	23671
탐구	23672
유신	23673
쥬얼	23674
키노	23675
당나라	23676
노비	23677
짝사랑	23678
더미	23679
지터	23680
##ob	23681
##라이나	23682
제너	23683
핑계	23684
보트	23685
태조	23686
였음	23687
여긴	23688
전염	23689
무슬	23690
##나르	23691
리우스	23692
야망	23693
미남	23694
과언	23695
블랙홀	23696
유능	23697
후반전	23698
어드밴	23699
고조	23700
담겨	23701
##ould	23702
돌아온다	23703
이쿠	23704
키로	23705
##처럼	23706
통틀어	23707
156	23708
##보우	23709
마가	23710
..!	23711
iOS	23712
무궁	23713
Ser	23714
##친구	23715
one	23716
마마	23717
164	23718
##alk	23719
리리	23720
##tern	23721
재벌	23722
##yn	23723
##레븐	23724
카제	23725
숙련도	23726
139	23727
나란히	23728
배율	23729
필두	23730
##활약	23731
유카리	23732
##15	23733
고우	23734
모에	23735
시간대	23736
미세	23737
이인	23738
##up	23739
구청	23740
들으면	23741
153	23742
조던	23743
네크로	23744
하츠네	23745
하우	23746
교정	23747
저격수	23748
Gaming	23749
먼지	23750
플리	23751
하나님	23752
##레이크	23753
##reak	23754
반장	23755
콜롬	23756
올라간	23757
공격기	23758
거꾸로	23759
커플링	23760
무슬림	23761
양심	23762
합법	23763
초등학생	23764
빼앗기	23765
가져갔	23766
김두	23767
나열	23768
이광	23769
##der	23770
웃기	23771
##able	23772
GK	23773
하드웨어	23774
멋지	23775
##고사	23776
겁니다	23777
접전	23778
##제스	23779
리터	23780
##그마	23781
엉뚱	23782
전두	23783
청장	23784
성숙	23785
후면	23786
지성	23787
상공	23788
세미	23789
##라이언스	23790
##바스	23791
최하	23792
148	23793
거뒀	23794
디비전	23795
Car	23796
맞먹	23797
##ions	23798
비즈	23799
허브	23800
신주	23801
인천광역시	23802
연달	23803
##사고	23804
진도	23805
탄막	23806
실업	23807
##엘라	23808
스케줄	23809
표창	23810
동등	23811
얼라이언스	23812
Your	23813
타키	23814
셋째	23815
오바	23816
단의	23817
벌금	23818
푸르	23819
모른다는	23820
주유	23821
##문화	23822
167	23823
##널드	23824
볼드	23825
김선	23826
장시	23827
걸릴	23828
냉장고	23829
[...]
