▁▃ -0
▁ㅇ -1
▁ㄱ -2
▁ㄷ -3
▁ㅎ -4
ㅡㄹ -5
▁ㅇㅣ -6
▁ㅈ -7
▁ㅅ -8
▁ㄴ -9
ㅡㄴ -10
ㅏㄴ -11
ㅏㅇ -12
▁ㅂ -13
▁. -14
▁ㅇㅔ -15
▁ㅁ -16
▁ㄹ -17
▁ㄷㅏ -18
▁ㅇㅢ -19
▁ㅇㅡㄹ -20
▁ㄴㅡㄴ -21
ㅓㄴ -22
ㅕㄴ -23
▁ㅎㅏ -24
ㅗㅇ -25
▁, -26
ㅣㄴ -27
ㅅㅓ -28
ㅏㄹ -29
▁ㅊ -30
ㅕㅇ -31
ㅏㄱ -32
ㅜㄴ -33
▁ㅇㅡㄴ -34
▁ㄱㅏ -35
ㅓㅇ -36
ㅗㄱ -37
▁ㅇㅓ -38
▁ㅍ -39
ㅜㄱ -40
▁1 -41
▁ㄱㅗ -42
▁ㅎㅏㄴ -43
▁ㅇㅕ -44
▁ㄷㅚ -45
ㅜㄹ -46
▁ㄹㅡㄹ -47
ㅣㄹ -48
ㅣㅇ -49
ㅅㅡ -50
ㅜㅇ -51
ㅣㄱ -52
▁ㅌ -53
▁ㄴㅕㄴ -54
ㅗㄴ -55
▁ㅎㅐ -56
▁ㄹㅗ -57
ㅏㅁ -58
▁ㅇㅡㄹㅗ -59
▁ㄱㅘ -60
▁2 -61
▁ㅇㅔㅅㅓ -62
▁ㅇㅣㅆ -63
▁ㅇㅣㄹ -64
ㅣㅁ -65
▁ㄷㅐ -66
ㅡㅁ -67
ㅡㅇ -68
▁ㅇㅣㄴ -69
▁ㅋ -70
ㅐㅇ -71
ㅓㄱ -72
ㅗㄹ -73
ㄷㅏ -74
ㅈㅣ -75
▁ㅇㅓㅆ -76
ㅓㄹ -77
ㅝㄴ -78
▁ㅇㅏ -79
▁ㅇㅘ -80
▁ㄸ -81
▁ㄷㅡㄹ -82
▁ㅈㅣ -83
▁ㄱㅣ -84
ㅓㅂ -85
▁ㄷㅗ -86
ㅕㄱ -87
ㄹㅣ -88
▁ㅅㅣ -89
▁ㅎㅐㅆ -90
ㅓㅁ -91
ㅔㅇ -92
▁ㅈㅓㄴ -93
ㅅㅏ -94
ㅅㅣ -95
ㅓㅅ -96
▁ㅅㅏㅇ -97
▁ㄱㅡ -98
▁ㅈㅓㄱ -99
▁ㅇㅕㅆ -100
▁20 -101
ㅝㄹ -102
▁ㅈㅜㅇ -103
▁ㅅㅜ -104
ㅎㅘ -105
ㅈㅏㅇ -106
ㅐㄱ -107
ㄷㅗ -108
ㅈㅏ -109
▁ㅇㅝㄹ -110
ㅎㅏㄴ -111
ㅎㅐ -112
ㅛㅇ -113
ㄱㅜㄱ -114
▁19 -115
ㄱㅣ -116
ㅑㅇ -117
ㅈㅓㅇ -118
▁ㅇㅟ -119
▁ㅈㅓㅇ -120
ㅂㅜ -121
ㅔㄹ -122
▁ㄱㅗㅇ -123
ㅕㄹ -124
▁ㅇㅠ -125
ㄷㅡ -126
▁ㅎㅘ -127
ㄷㅐ -128
▁ㅈㅔ -129
▁ㅂㅜ -130
▁ㄷㅚㄴ -131
ㅎㅏ -132
ㅅㅜ -133
ㅅㅏㅇ -134
ㅅㅓㅇ -135
▁ㄱㅕㅇ -136
▁ㅅㅓㅇ -137
ㅈㅓㄴ -138
▁ㅈㅏ -139
ㅌㅡ -140
ㄷㅗㅇ -141
▁ㄱㅓㅅ -142
ㅈㅔ -143
▁3 -144
▁ㄷㅗㅇ -145
▁ㅅㅔ -146
ㅎㅏㄱ -147
ㅊㅣ -148
▁ㅁㅏ -149
▁" -150
▁ㄷㅏㅇ -151
ㅌㅓ -152
▁ㄱㅔ -153
ㅗㅅ -154
ㄱㅏ -155
▁ㅅㅓㄴ -156
ㅎㅚ -157
▁ㄷㅡㅇ -158
▁ㄱㅐ -159
▁ㅂㅏ -160
▁ㄲ -161
▁ㅁㅏㄴ -162
▁ㅅㅏ -163
▁ㄱㅡㄹ -164
ㅇㅣ -165
▁ㅂㅏㄹ -166
▁ㅇㅕㄴ -167
ㄱㅜ -168
ㅈㅜ -169
ㅡㄱ -170
▁ㅈㅜ -171
▁ㅎㅏㄴㄷㅏ -172
▁ㅇㅡㅁ -173
▁ㅇㅕㅇ -174
▁ㄱㅜㄱ -175
▁ㅁㅕ -176
ㄱㅘ -177
▁ㅈㅏㅇ -178
▁ㅅㅡ -179
▁ㅍㅡㄹ -180
ㅇㅝㄴ -181
ㅔㄴ -182
ㅣㅇㅏ -183
▁ㅁㅕㄴ -184
ㅐㄴ -185
ㅏㅇㅣ -186
ㄱㅛ -187
ㅁㅜㄴ -188
▁201 -189
ㅔㅇㅣ -190
▁ㄴㅏ -191
▁ㅂㅗ -192
ㅅㅏㄴ -193
▁' -194
ㅅㅣㄴ -195
▁ㅅㅣㄴ -196
▁4 -197
ㅕㅆ -198
ㅈㅣㄴ -199
▁ㅈㅣㄴ -200
▁ㅁㅣ -201
▁ㅂㅏㅇ -202
▁ㄱㅘㄴ -203
ㄱㅖ -204
▁ㄷㅏㄴ -205
▁ㅁㅕㅇ -206
▁ㅈㅗ -207
ㅇㅓ -208
ㄷㅏㄴ -209
ㅁㅣㄴ -210
▁ㅎㅏㄹ -211
▁ㅇㅏㄴ -212
▁ㄱㅜ -213
▁ㅇㅏㄹ -214
▁5 -215
▁ㅁㅗ -216
▁ㄸㅐ -217
▁ㅇㅕㄱ -218
▁200 -219
▁ㅇㅗ -220
▁- -221
▁ㄷㅏㄹ -222
ㅅㅣㄱ -223
▁ㅎㅜ -224
ㅈㅏㄱ -225
▁ㄱㅏㅇ -226
▁ㄷㅓㄴ -227
▁ㅈㅏㄱ -228
ㅇㅣㄴ -229
ㅊㅔ -230
ㅡㄹㄹ -231
ㅏㅈㅣ -232
▁ㅁㅜㄴ -233
ㅈㅐ -234
▁ㄴㅏㅁ -235
▁ㅅㅏㄹ -236
▁ㄷㅐㅎㅏㄴ -237
ㅜㅁ -238
ㄱㅗ -239
▁ㅂㅜㄹ -240
▁ㅂㅣ -241
ㅎㅐㅇ -242
▁ㅆ -243
▁ㅌㅗㅇ -244
ㄷㅔ -245
ㅑㄱ -246
ㅅㅗ -247
▁ㅁㅏㄹ -248
ㅎㅜ -249
▁ㅇㅝㄴ -250
ㄷㅏㅇ -251
ㅏㄱㅗ -252
▁ㅎㅕㄴ -253
▁ㄱㅜㄴ -254
▁ㄱㅖ -255
ㅗㄹㄹ -256
ㅈㅗ -257
ㅁㅕㅇ -258
ㅅㅓㄴ -259
ㅂㅗㄴ -260
ㄱㅔ -261
▁ㅂㅜㄴ -262
▁ㄱㅏㅌ -263
▁ㅅㅣㄹ -264
ㄷㅡㄹ -265
ㅣㅁㅏㄴ -266
ㅂㅣ -267
▁6 -268
▁ㅎㅏㄱ -269
ㅓㄴㅏ -270
ㅋㅡ -271
ㅏㄹㅏ -272
▁ㅈㅣㅇ -273
▁ㅇㅏㄶ -274
▁ㅊㅜㄹ -275
▁ㅅㅐㅇ -276
ㄱㅗㅇ -277
▁ㅂㅏㄷ -278
ㅈㅜㅇ -279
▁ㄲㅏㅈㅣ -280
▁ㅇㅏㅆ -281
ㅁㅜㄹ -282
ㅂㅏㄴ -283
▁ㄱㅕㄹ -284
▁ㄴㅗ -285
▁ㅎㅏㅁ -286
▁ㅎㅚ -287
ㄱㅜㄴ -288
▁ㄱㅏㄴ -289
▁ㅇㅕㄹ -290
ㅐㄹ -291
▁ㅈㅣㅂ -292
▁ㅇㅔㄱㅔ -293
ㅇㅡㅁ -294
▁ㅂㅓㄴ -295
▁ㅎㅐㅇ -296
▁ㅇㅡㅁㅕ -297
▁ㅅㅗ -298
▁ㅈㅗㅇ -299
▁ㅂㅏㄴ -300
▁ㄱㅛ -301
▁7 -302
ㅋㅣ -303
▁ㅇㅖ -304
▁ㅊㅚ -305
▁10 -306
▁8 -307
ㅎㅣ -308
▁ㄹㅏㄴ -309
ㅇㅣㄹ -310
ㅌㅏ -311
▁ㅅㅓㄹ -312
▁ㅇㅣㅇ -313
▁ㅅㅣㄱ -314
▁ㄹㅏ -315
▁ㄷㅚㄴㄷㅏ -316
▁ㅁㅣㄱ -317
ㅋㅏ -318
▁ㅈㅣㅁㅏㄴ -319
ㅇㅢ -320
ㄹㅣㅂ -321
▁ㅎㅕㅇ -322
ㅌㅗㅇ -323
ㅍㅛ -324
ㅣㅅㅡ -325
▁ㅂㅜㅌㅓ -326
ㅅㅐㅇ -327
▁ㅍㅗ -328
▁ㅎㅗ -329
▁ㅈㅣㄱ -330
ㅂㅗ -331
ㅈㅗㅇ -332
▁ㅅㅏㅁ -333
ㅁㅏ -334
ㅎㅗ -335
▁ㅇㅓㅄ -336
▁ㅅㅏㅇㅛㅇ -337
▁ㅇㅣㅂ -338
ㅍㅡ -339
▁9 -340
▁ㅁㅣㄱㅜㄱ -341
▁ㄱㅣㄹ -342
ㅡㅂ -343
ㄹㅕㄱ -344
ㅂㅜㄴ -345
▁ㅅㅏㄴ -346
ㄱㅘㄴ -347
▁ㅂㅗㄴ -348
▁ㅇㅜ -349
ㅌㅗ -350
ㅂㅏㄹ -351
▁ㄹㅏㄱㅗ -352
ㅁㅣ -353
▁ㅂㅗㅇ -354
▁ㄷㅜ -355
▁ㅊㅏ -356
▁ㅇㅣㅎㅜ -357
ㅅㅗㄱ -358
▁ㄹㅏㄴㅡㄴ -359
▁ㄴㅐ -360
▁ㅇㅛ -361
ㄹㅠ -362
ㄹㅗ -363
▁ㅊㅓㅇ -364
▁ㄷㅗㄱ -365
ㅈㅓㄱ -366
ㅎㅏㅂ -367
▁ㅅㅡㅇ -368
▁ㅌㅡㄱ -369
▁ㅁㅣㄴ -370
ㅂㅓㅂ -371
ㅇㅟ -372
▁ㄱㅏㅁ -373
ㅣㅂ -374
▁ㅉ -375
ㅇㅏㄴ -376
▁ㅇㅣㄹㅂㅗㄴ -377
▁ㅁㅕㄴㅅㅓ -378
ㅇㅜ -379
▁ㅇㅜㄴ -380
ㅈㅣㄱ -381
ㅅㅡㅇ -382
ㅁㅕㄴ -383
▁ㅎㅘㄹ -384
▁ㅎㅏㅇ -385
▁ㅁㅜㄹ -386
▁ㄸㅗ -387
▁ㅅㅓ -388
▁ㄷㅗㄹ -389
▁ㄴㅡㄴㄷㅔ -390
▁ㄱㅝㄴ -391
▁ㅅㅗㄱ -392
▁ㅁㅗㄷ -393
ㄱㅕㅇ -394
ㅇㅡㅁㅕ -395
ㅅㅡㅌ -396
ㅇㅕㅇ -397
▁ㄱㅣㅁ -398
▁ㅁㅜ -399
▁ㄱㅓㄴ -400
ㅍㅗ -401
▁ㄱㅏㄱ -402
ㅇㅓㅂ -403
▁ㅇㅘㅇ -404
▁ㄷㅔ -405
▁ㅇㅑㅇ -406
▁ㅂㅜㄱ -407
▁ㅁㅣㅊ -408
ㅂㅏㅇ -409
ㅁㅣㄴㄱㅜㄱ -410
ㅅㅓㄹ -411
ㄹㅕ -412
▁ㅈㅐ -413
▁ㄷㅏㅇㅡㅁ -414
▁ㅈㅣㅇㅕㄱ -415
▁199 -416
ㅅㅣㄹ -417
ㅋㅗ -418
ㄱㅏㄴ -419
ㄱㅕㄱ -420
ㅅㅣㅁ -421
▁ㅁㅗㄱ -422
▁ㅇㅣㅁ -423
ㅇㅛㅇ -424
▁ㅍㅕㅇ -425
ㅈㅡ -426
ㅏㄹㅣ -427
▁ㅊㅗㅇ -428
ㅈㅗㄱ -429
▁12 -430
▁ㅊㅓㄹ -431
▁ㅊㅜㄱ -432
▁ㄷㅐㅎㅏㄴㅁㅣㄴㄱㅜㄱ -433
ㅈㅓㅁ -434
▁ㅁㅏㄶ -435
ㄷㅡㅇ -436
ㅏㅂ -437
▁ㅊㅏㅁ -438
ㅅㅜㄹ -439
ㅊㅏ -440
▁18 -441
ㄹㅕㅇ -442
▁ㄷㅏㄹㅡㄴ -443
▁ㄱㅕㅇㄱㅣ -444
▁ㅂㅗㄱ -445
▁ㅊㅗ -446
▁ㄷㅐㅎㅏㄱ -447
ㄷㅗㄱ -448
ㅈㅣㄹ -449
00 -450
ㅊㅜㄹ -451
▁ㄱㅓ -452
▁; -453
▁ㄷㅏㄱㅗ -454
▁ㅇㅚ -455
ㅇㅕㄱ -456
ㅇㅡㄴ -457
ㅎㅕㅇ -458
ㅉㅗㄱ -459
▁ㄱㅡㄴ -460
ㅕㅁ -461
or -462
ㅌㅐ -463
ㅅㅔ -464
▁ㅇㅟㅎㅐ -465
ㅗㅅㅓㄴ -466
▁S -467
ㅏㄹㅡ -468
ㅎㅕㄴ -469
▁ㅇㅑ -470
▁ㅋㅗ -471
ㄱㅓ -472
▁ㅃ -473
ㅐㅁ -474
ㅅㅓㄱ -475
▁ㅂㅓㅂ -476
ㄱㅏㄱ -477
▁11 -478
▁ㅊㅓㄴ -479
ㅍㅏ -480
▁ㅅㅣㅁ -481
ㅕㅂ -482
ㅎㅑㅇ -483
ㅣㄹㄹ -484
▁ㅇㅗㄹ -485
▁ㄸㅐㅁㅜㄴ -486
▁ㅅㅣㅈㅏㄱ -487
▁ㅂㅕㄴ -488
ㅏㄹㄹ -489
ㅘㄴ -490
ㅍㅏㄴ -491
▁ㅍㅛ -492
▁ㅇㅛㅇ -493
ㅊㅓㄴ -494
ㅁㅜ -495
ㅓㅅㅡ -496
ㅍㅜㅁ -497
ㄲㅔ -498
ㅌㅡㄹ -499
ㅇㅛ -500
ㅡㅅ -501
▁ㄱㅣㅇ -502
▁& -503
▁ㅂㅏㄱ -504
▁ㅌㅣㅁ -505
ㅎㅏㅁ -506
▁ㅅㅏㄹㅏㅁ -507
▁ㅈㅓㅁ -508
▁A -509
ㅈㅐㅇ -510
▁ㄸㅏㄹㅏ -511
▁ㅎㅏㅁㄲㅔ -512
▁ㄹㅣ -513
ㅐㅇㅜ -514
ㅣㅇㅗ -515
ㅔㄱ -516
▁ㄸㅗㅎㅏㄴ -517
ㅎㅏㅇ -518
▁) -519
▁ㅅㅓㄴㅅㅜ -520
▁ㄱㅘㅇ -521
▁ㅇㅑㄱ -522
▁ㅎㅏㄴㄱㅜㄱ -523
ㅇㅏㄱ -524
ㅁㅗ -525
▁ㅍㅏㄴ -526
▁ㄱㅣㄱ -527
▁ㄷㅓ -528
la -529
ㅈㅜㄴ -530
▁ㅇㅕㅇㅎㅘ -531
▁ㅇㅓㄴ -532
ㅌㅏㄴ -533
▁ㅅㅔㄱㅖ -534
▁ㅈㅜㄱ -535
▁ㅅㅣㅈ -536
ㅇㅕㄴ -537
▁ㅂㅐㄱ -538
▁ㅊㅏㅇ -539
▁C -540
▁ㅁㅏㅇ -541
▁ㅇㅏㅁ -542
▁f -543
▁M -544
▁ㅂㅡㄹ -545
▁ㄹㅣㄱ -546
ㅊㅓㅇ -547
▁ㅇㅗㄹㄹ -548
▁ㅈㅜㄹ -549
▁ㄱㅗㄱ -550
ㅓㅈㅣ -551
ㅅㅗㅇ -552
▁ㅈㅏㅅㅣㄴ -553
▁ㅂㅐ -554
▁ㅈㅗㄴ -555
▁ㄱㅕㅇㅇㅜ -556
ㅇㅠ -557
▁ㅋㅏ -558
ㅓㄹㅣ -559
ㅗㄹㅣ -560
▁T -561
▁ㅎㅕㄴㅈㅐ -562
▁F -563
▁ㄷㅟ -564
ㅐㄴㄷㅡ -565
▁ㅅㅏㅇㅣ -566
▁ㅅㅏㄱ -567
▁ㅇㅣㄹㅡㅁ -568
▁ㅍㅕㄴ -569
▁ㄱㅣㄹㅗㄱ -570
▁198 -571
ㅌㅣ -572
▁ㅎㅏㅂ -573
▁ㅎㅘㄱ -574
▁ㄱㅜㄱㄱㅏ -575
ㅔㅅㅡ -576
ㅈㅕ -577
▁_ -578
▁ㅇㅟㅊㅣ -579
▁ㄱㅏㅈㅏㅇ -580
ㅇㅕ -581
ㅂㅏ -582
▁ㄱㅡㅁ -583
▁ㅍㅣㄹ -584
ㅔㅅ -585
▁ㄷㅏㅇㅅㅣ -586
ㄹㅏㄴ -587
ㅔㅁ -588
ㅜㅅㅡ -589
▁ㄷㅏㄴㅡㄴ -590
▁ㅎㅏㄱㄱㅛ -591
▁( -592
▁ㅈㅗㅅㅓㄴ -593
ㅊㅗ -594
▁ㅍㅏ -595
ㅇㅑㄱ -596
ㅅㅕㄴ -597
▁ㅁㅗㅅ -598
▁ㅎㅘㄹㄷㅗㅇ -599
ㅘㅇ -600
▁ㅍㅣ -601
▁ㅊㅜ -602
▁ㅎㅏㄴㅏ -603
▁ㄱㅏㅈㅣ -604
▁ㄹㅣㄱㅡ -605
▁for -606
▁15 -607
ㅔㄹㄹ -608
▁ㅈㅡㅇ -609
▁ㄱㅠ -610
mu -611
▁ㅇㅣㄴㅏ -612
ㅈㅜㅇㅢ -613
▁ㄱㅡㄹㅓㄴㅏ -614
▁ㅅㅗㄴ -615
ㅡㅌ -616
ㄴㅏㅁ -617
ㅈㅕㅆ -618
mula -619
▁ㅇㅣㄱ -620
▁formula -621
▁ㅉㅐ -622
▁ㅇㅗㄴ -623
ㄹㅣㄴ -624
ㄷㅣ -625
ㄷㅏㄹ -626
ㅂㅕㅇ -627
▁ㅁㅐ -628
ㅍㅕㄴ -629
ㅇㅣㅁ -630
▁ㅅㅡㅌ -631
ㅁㅐ -632
ㅣㄱㅗ -633
▁ㅌㅡㄹ -634
▁ㅇㅠㄹ -635
▁ㅇㅢㅎㅐ -636
ㅂㅗㄱ -637
ㅗㄴㅡㄴ -638
ㅇㅑㅇ -639
▁ㅅㅜㅇ -640
ㅔㅇㅣㅁ -641
▁ㅅㅗㅇ -642
▁ㅌㅗ -643
ㅔㅇㅣㄴ -644
▁ㅇㅔㄴ -645
▁ㅊㅜㅇ -646
▁ㅇㅜㄹ -647
▁16 -648
▁ㅅㅜㄴ -649
▁ㅈㅗㄱ -650
▁ㅍㅡㄹㅏㅇ -651
▁ㄱㅡㄱ -652
▁ㅅㅓㄱ -653
▁ㄸㅗㄴㅡㄴ -654
▁ㄷㅐㅍㅛ -655
▁ㄱㅣㄴ -656
▁ㅎㅘㅇ -657
▁ㅅㅣㅇ -658
▁ㅁㅏㅈ -659
ㅇㅏㅇ -660
▁ㅂㅕㅇ -661
▁ㅇㅏㅇ -662
▁/ -663
ㅂㅕㄹ -664
▁ㅁㅗㅇ -665
ㅍㅡㄹ -666
▁ㅌㅗㅇㅎㅐ -667
ㅔㄹㅡ -668
▁ㅈㅏㄹ -669
ㅂㅜㅌㅓ -670
ㅅㅐㄱ -671
▁ㄴㅔ -672
▁ㅈㅓ -673
▁m -674
▁ㅊㅔ -675
ㅎㅘㄴ -676
ㅇㅓㄴ -677
ㅎㅘㅇ -678
▁ㅅㅣㅋ -679
▁ㄱㅡㄹㅣㄱㅗ -680
ㅠㄱ -681
▁ㅌㅏ -682
▁0 -683
▁ㅋㅡㄹ -684
▁D -685
▁ㅅㅏㅎㅚ -686
ㅇㅡㄴㅏ -687
ㄱㅏㅇ -688
▁ㄴㅗㅇ -689
▁ㄴㅏㅇ -690
ㄱㅕㄴ -691
▁17 -692
ㅁㅏㄴ -693
ㅎㅓㅁ -694
▁ㅅㅣㅈㅡㄴ -695
▁ㄴㅏㄴ -696
ㅣㅇㅓ -697
▁ㅇㅕㄴㄱㅜ -698
▁ㅂㅣㄹ -699
▁ㅊㅓㅅ -700
▁197 -701
▁ㄹㅔ -702
▁ㅈㅜㄴ -703
▁ㅍㅡㄹㄹ -704
▁B -705
▁ㅋㅡ -706
ㅊㅏㄹ -707
ㄱㅕㄹ -708
ㄱㅡㅂ -709
▁ㄴㅗㄹ -710
▁ㅌㅐㅇ -711
ㅊㅣㅇ -712
▁] -713
ㅁㅗㄱ -714
▁ㅇㅘㄴ -715
▁[ -716
ㅏㅆ -717
ㅎㅏㄹ -718
▁ㅂㅗㄷㅏ -719
▁ㄴㅗㅍ -720
▁ㅈㅜㅇㄱㅜㄱ -721
▁ㅁㅏㄴㄷㅡㄹ -722
▁ㅎㅕㅂ -723
ㅇㅏ -724
ㅅㅡㅂ -725
▁ㅅㅓㅇㅜㄹ -726
▁ㅇㅏㅂ -727
▁ㄴㅣ -728
ㅎㅏㄱㄱㅛ -729
▁I -730
▁K -731
▁ㅇㅏㄴㅣ -732
▁: -733
ㅊㅡ -734
ㄹㅕㄴ -735
▁ㅇㅕㅇㄱㅜㄱ -736
▁ㄷㅏㅅㅣ -737
ㅈㅣㅂ -738
▁ㅂㅜㅇ -739
▁ㅅㅣㄷㅐ -740
▁ㅍㅡㄹㅗ -741
▁ㅍㅗㄱ -742
▁ㅅㅗㅅ -743
▁ㄱㅜㅇ -744
▁ㅁㅣㄹ -745
▁k -746
▁ㄸㅡㅅ -747
▁ㄷㅣ -748
▁ㅈㅓㅇㅂㅜ -749
▁ㅍㅗㅎㅏㅁ -750
▁ㄱㅓㄹ -751
ㄹㅓ -752
▁ㅅㅓㅁ -753
▁ㅍㅡㄹㅏㅇㅅㅡ -754
ㅣㄴㄷㅏ -755
▁ㅅㅜㄹ -756
▁ㅌㅜ -757
ㄱㅐ -758
▁ㅇㅠㄴ -759
▁196 -760
ㄱㅡㄴ -761
▁ㄷㅐㅎㅐ -762
ㅌㅜ -763
▁14 -764
▁ㅅㅓㅂ -765
ㅂㅓㅁ -766
▁ㄱㅗㄹ -767
ㅈㅣㅇ -768
▁ㄱㅛㅇ -769
▁ㅇㅕㄹㅓ -770
▁ㅈㅓㄴㅈㅐㅇ -771
▁ㄷㅗㅅㅣ -772
▁ㅋㅡㄴ -773
er -774
▁ㅊㅣㄴ -775
▁ㅋㅡㄹㄹ -776
▁ㅂㅏㄲ -777
▁ㄷㅗㄱㅇㅣㄹ -778
▁ㅇㅡㄴㅏ -779
▁~ -780
▁ㄷㅐㅎㅚ -781
▁ㄹㅜ -782
▁ㄹㅗㅅㅓ -783
ㄱㅗㄱ -784
ㅎㅐㅆ -785
ㄹㅛ -786
ㅠㄹ -787
▁ㅊㅜㄱㄱㅜ -788
▁ㅁㅜㄴㅎㅘ -789
ㅡㄹㅗ -790
▁13 -791
▁ㅂㅕㄹ -792
▁g -793
ㄷㅜ -794
▁ㅂㅗㄹ -795
ㅍㅣ -796
▁ㅊㅟ -797
ㅏㅇㅣㄴ -798
▁P -799
ㅂㅜㄱ -800
ㅈㅓ -801
in -802
▁ㅇㅟㅇㅝㄴ -803
ㅊㅕ -804
ㄱㅠ -805
▁ㅇㅏㅍ -806
▁ㄱㅏㄴㅡㅇ -807
▁ㄱㅏㅈ -808
▁ㄷㅏㄱㅏ -809
▁ㅁㅗㄷㅜ -810
▁ㅇㅣㅅㅏㅇ -811
▁ㅇㅣㄹㅓ -812
▁ㄷㅗㅇㅇㅏㄴ -813
▁ㄱㅓㅁ -814
▁ㅍㅐ -815
▁ㅁㅔ -816
▁ㅁㅏㄱ -817
▁ㅎㅗㅇ -818
▁ㅁㅗㄷㅡㄴ -819
▁ㄴㅠ -820
▁ㅎㅘㄴ -821
▁194 -822
▁ㄱㅏㅁㄷㅗㄱ -823
▁ㅇㅠㄱ -824
ㅈㅗㄴ -825
▁ㅂㅏㅇㅅㅗㅇ -826
ㅂㅗㅇ -827
ㅊㅜㄱ -828
▁ㄴㅏㄹ -829
▁ㅈㅔㅇ -830
▁ㄷㅐㅎㅏㄱㄱㅛ -831
▁l -832
ㅂㅓ -833
▁ㅁㅏㅌ -834
▁ㄱㅐㅂㅏㄹ -835
▁ㄱㅐㅇ -836
▁ㅇㅏㄹㄹㅕ -837
▁ㅇㅣㄹㅂㅜ -838
▁ㄴㅡㄴㄷㅏ -839
▁L -840
▁ㅈㅔㅈㅏㄱ -841
▁ㅈㅣㅂㅏㅇ -842
▁ㅌㅐ -843
ㄷㅗㄹ -844
▁ㅊㅓㅇㅡㅁ -845
ㅍㅣㄱ -846
▁ㄴㅗㄴ -847
▁ㅁㅜㄴㅈㅔ -848
▁ㅇㅟㅎㅏㄴ -849
▁ㅈㅣㄹ -850
ㄹㅗㄱ -851
▁ㄱㅜㅅㅓㅇ -852
▁ㅇㅏㄱ -853
▁ㅂㅐㅇㅜ -854
ㄱㅝㄴ -855
ㅏㅇㅜㄴ -856
▁ㅇㅏㅇㅣ -857
▁ㄱㅜㄱㅈㅔ -858
▁% -859
▁ㅇㅕㅆㅇㅡㅁㅕ -860
ㅇㅣㅂ -861
▁ㅅㅐㄹ -862
▁ㄱㅔㅇㅣㅁ -863
ㅍㅕㅇ -864
ㄹㅏ -865
ㄱㅡㅁ -866
▁ㄷㅏㅁ -867
▁ㄱㅏㄹ -868
ㅊㅓㄹ -869
ㄷㅏㅁ -870
▁ㅅㅏㄱㅓㄴ -871
▁ㅂㅔ -872
▁ㄷㅚㄹ -873
▁ㅇㅣㄹㅂㅏㄴ -874
▁ㅇㅣㅇㅛㅇ -875
▁ㅅㅣㄱㅏㄴ -876
▁ㅅㅔㄱㅣ -877
▁ㄱㅗㅅ -878
▁ㅅㅡㅍ -879
▁G -880
▁ㄲㅡㅌ -881
▁ㅂㅓㄹ -882
ㄱㅘㅇ -883
ㄴㅐ -884
ㅈㅓㄹ -885
▁ㅎㅑㅇ -886
▁ㅈㅏㄱㅍㅜㅁ -887
ㄹㅗㄴ -888
▁ㅈㅗㄴㅈㅐ -889
▁ㄴㅏㄱ -890
▁ㅇㅜㄴㄷㅗㅇ -891
▁N -892
▁ㄷㅙ -893
▁ㅇㅣㄴㄱㅜ -894
▁ㅈㅓㅂ -895
▁ㄱㅡㅂ -896
ㅂㅡ -897
▁ㅆㅣ -898
▁ㅈㅓㅇㄷㅗ -899
▁gt -900
on -901
▁ㅊㅗㄱ -902
ㅏㅁㅏ -903
▁km -904
▁195 -905
▁ㅈㅜㅈㅏㅇ -906
▁ㅈㅡㄱ -907
ㅌㅐㄱ -908
▁ㄱㅛㅇㅠㄱ -909
▁ㅊㅐㄱ -910
ㅎㅚㄱ -911
▁ㄱㅘㄴㄱㅖ -912
▁ㅈㅓㄹ -913
ㅊㅏㅇ -914
▁ㅇㅡㅁㅇㅏㄱ -915
▁ㄱㅟ -916
▁ㄱㅓㄴㅏ -917
▁lt -918
▁U -919
▁ㅅㅔㅇ -920
▁ㅇㅕㄱㅅㅏ -921
▁ㅈㅜㅇㅅㅣㅁ -922
▁ㅊㅏㄹ -923
ㅈㅡㅇ -924
ㅋㅡㄹ -925
▁ㄴㅏㅌㅏㄴ -926
ㅌㅓㄴ -927
▁ㅇㅐ -928
▁ㅇㅞ -929
ㅊㅏㄱ -930
▁R -931
▁30 -932
ㄴㅕㄴ -933
▁ㅅㅠ -934
ㅅㅗㄴ -935
ㄹㅑㅇ -936
▁ㅇㅏㄷㅡㄹ -937
▁ㅎㅐㅆㅇㅡㅁㅕ -938
▁ㅇㅗㄹㄹㅣㅁ -939
▁H -940
ㅊㅐㄱ -941
▁ㅋㅏㄹ -942
▁ㅂㅏㄹㄱㅕㄴ -943
ㅂㅜㅂㅜㄴ -944
ㅇㅘㅇ -945
ㅎㅘㄱㅜㄱ -946
▁E -947
ㅌㅗㅇㄹㅕㅇ -948
ㄷㅡㄴ -949
ㅊㅓ -950
ㄷㅓ -951
▁ㅂㅏㄹㅍㅛ -952
▁ㄴㅐㅇ -953
ㄴㅣ -954
ㅗㄱㅡㄹ -955
▁ㄱㅕㅇㅈㅔ -956
ㅂㅐ -957
ㅂㅕㄴ -958
ㅓㄴㅏㅆ -959
▁ㄱㅣㅅㅜㄹ -960
ㅁㅏㅇ -961
▁ㅇㅣㄹㅇ -962
ㅗㅇㅜㄴ -963
▁ㅂㅓ -964
▁ㅊㅡㄱ -965
ㄹㅐ -966
ㅅㅏㄹ -967
▁ㅅㅔㄹ -968
▁ㅇㅓㄷ -969
▁ㄴㅓ -970
▁ㄷㅡ -971
ㅣㅇㅓㄴ -972
▁ㄷㅗㄹㅗㄱ -973
▁ㅈㅏㅁ -974
▁ㅊㅣㄹ -975
▁ㅊㅣ -976
▁ㅇㅜㅅㅡㅇ -977
▁ㅍㅗㄹ -978
▁ㅇㅔㄹ -979
▁ㅅㅔㄴ -980
▁ㅅㅏㅁㅏㅇ -981
▁ㅌㅏㄴ -982
▁2010 -983
ㅅㅡㄴ -984
ㅎㅘㄹ -985
▁ㅌㅔ -986
▁ㅇㅗㄹㄹㅣㅁㅍㅣㄱ -987
▁ㅅㅣㅋㅣ -988
ㅅㅡㅌㅡ -989
▁ㄹㅗㅂㅜㅌㅓ -990
▁ㅁㅣㄴㅈㅜ -991
ㅈㅓㅂ -992
an -993
ㅋㅜ -994
▁ㅋㅣ -995
▁ㄷㅐㅂㅜㅂㅜㄴ -996
▁ㅂㅓㅁ -997
▁ㅇㅣㅅ -998
▁ㄷㅐㅌㅗㅇㄹㅕㅇ -999
▁ㅋㅗㄴ -1000
▁ㅇㅐㄹ -1001
▁ㄱㅗㅇㄱㅕㄱ -1002
▁ㅈㅓㅇㅊㅣ -1003
ㅍㅓ -1004
000 -1005
▁ㅈㅏㅂ -1006
▁ㄴㅓㅁ -1007
ㅗㄱㅡㄹㅐㅁ -1008
▁ㅇㅕㅇㅎㅑㅇ -1009
▁ㅇㅓㅂ -1010
ㄷㅏㄴㅡㄴ -1011
▁ㅈㅣㅇㅝㄴ -1012
▁193 -1013
▁ㄱㅕㄹㄱㅘ -1014
▁ㅂㅏㄺ -1015
▁ㅍㅡㄹㅗㄱㅡㄹㅐㅁ -1016
▁ㅌㅏㅇ -1017
ㄱㅡㄱ -1018
ㅊㅜ -1019
ㅆㅓ -1020
▁ㅊㅣㅁ -1021
▁ㄹㅓㅅ -1022
ㄱㅡㄹ -1023
ㅎㅗㄴ -1024
▁ㄱㅘㅈㅓㅇ -1025
▁ㅎㅛ -1026
▁ㅁㅗㄹ -1027
▁ㅇㅢㅁㅣ -1028
▁c -1029
▁ㅈㅓㄴㅌㅜ -1030
▁ㅈㅜㅇㅇㅏㅇ -1031
▁ㄱㅘㄴㄹㅕㄴ -1032
▁ㅊㅏㅁㅇㅕ -1033
▁ㅇㅠㄹㅓㅂ -1034
▁ㅂㅏㄹㅅㅐㅇ -1035
▁ㅎㅗㄴ -1036
▁ㄸㅏㄹ -1037
ㄴㅏ -1038
▁ㅊㅚㅊㅗ -1039
ㄷㅡㄱ -1040
20 -1041
▁ㅈㅣㄴㅎㅐㅇ -1042
ㅜㄹㅡ -1043
▁ㅇㅓㅁ -1044
▁25 -1045
▁ㅅㅓㄹㄹㅣㅂ -1046
▁ㄱㅗㄷㅡㅇ -1047
ㅣㅇㅏㄴ -1048
▁ㅂㅜㅂㅜㄴ -1049
▁ㅂㅡㄹㄹ -1050
▁ㅊㅗㄷㅡㅇ -1051
▁ㄷㅗㄱㄹㅣㅂ -1052
▁ㅈㅗㅎ -1053
▁ㄷㅡㄹㅇ -1054
▁ㄷㅏㅇㅑㅇ -1055
ㅌㅡㄴ -1056
▁ㅂㅣㄱ -1057
▁ㅌㅡㄱㅎㅣ -1058
▁ㅈㅔㄱㅜㄱ -1059
▁ㅈㅏㅇㅠ -1060
▁ㄱㅜㅈㅗ -1061
▁ㄷㅜㄹ -1062
▁ㄷㅙㅆ -1063
▁ㅆㅡ -1064
▁ㄱㅕㄹㅈㅓㅇ -1065
▁ㅂㅏㄹㅁㅐ -1066
▁ㅍㅖ -1067
▁ㅇㅐㄴ -1068
ㅈㅣㅁㅏㄴ -1069
ㅜㅂ -1070
▁ㅅㅗㅅㅗㄱ -1071
▁ㅍㅏㄹ -1072
▁ㅂㅣㅇ -1073
▁2008 -1074
▁ㅎㅕㅇㅌㅐ -1075
▁W -1076
ㅊㅣㄱ -1077
▁ㅂㅔㄹ -1078
▁ㅈㅗㄹ -1079
ㄱㅏㅁ -1080
▁ㅅㅏㅇㅌㅐ -1081
ㅔㅇㅣㅅㅕㄴ -1082
▁ㅂㅣㄴ -1083
▁ㅇㅓㄹ -1084
ㅜㅇㅓ -1085
ㅂㅐㄱ -1086
▁21 -1087
▁ㅇㅣㅌ -1088
▁ㅇㅓㅅㅓ -1089
▁ㅇㅣㅈㅓㄴ -1090
▁ㄱㅏㅌㅇㅣ -1091
ㅅㅣㅇㅏ -1092
▁ㅊㅐ -1093
ㄷㅣㅇㅗ -1094
▁ㄱㅡㄴㅕ -1095
▁ㅈㅜㄹㅗ -1096
▁ㅅㅐㄹㅗㅇㅜㄴ -1097
▁ㅍㅏㅇ -1098
▁ㅁㅜㄱ -1099
▁ㅅㅡㄹ -1100
▁ㅎㅏㅈㅣㅁㅏㄴ -1101
▁ㅇㅣㄴㅎㅐ -1102
▁ㅅㅏㅅㅣㄹ -1103
▁ㅇㅣㄴㅁㅣㄴ -1104
ㅐㅆ -1105
▁ㄴㅏㄹㅏ -1106
▁ㅇㅕㅅㅓㅇ -1107
▁2012 -1108
▁ㅅㅗㄹ -1109
▁2011 -1110
▁ㅊㅜㄹㅅㅣㄴ -1111
▁ㅇㅡㄹㅗㅅㅓ -1112
ㄷㅓㄱ -1113
▁ㅅㅓㄴㄱㅓ -1114
▁ㅅㅐㄱ -1115
en -1116
▁ㄱㅣㅈㅜㄴ -1117
ㅣㅈㅡ -1118
▁ㅇㅓㅇ -1119
▁ㅇㅜㄴㅇㅕㅇ -1120
▁ㅋㅓㅁ -1121
▁ㄷㅔㅂ -1122
ㅋㅔ -1123
ㅜㄹㅣ -1124
▁ㅍㅣㄹㅇㅛ -1125
▁ㅇㅕㅈㅏ -1126
▁100 -1127
▁2007 -1128
ㅍㅐ -1129
▁ㅊㅏㅁㄱㅏ -1130
▁ㅇㅟㅇㅝㄴㅎㅚ -1131
▁2009 -1132
▁t -1133
▁2014 -1134
▁ㅅㅓㄹㅊㅣ -1135
ㄷㅏㄱㅗ -1136
ㅇㅑ -1137
▁ㅎㅓㄴ -1138
▁ㅅㅐㅇㄱㅏㄱ -1139
▁ㅈㅗㅈㅣㄱ -1140
▁ㅁㅜㅇ -1141
▁ㅎㅐㅇㅈㅓㅇ -1142
▁ㄱㅣㄱㅘㄴ -1143
▁ㅇㅣㄱㅓㅅ -1144
ㅏㄹㄹㅣㅇㅏ -1145
▁ㅈㅣㅈㅓㅇ -1146
ㅅㅜㄴ -1147
▁ㅈㅜㅇㅇㅛ -1148
▁ㄱㅖㅎㅚㄱ -1149
ㅇㅡㅇ -1150
▁ㅅㅐㅇㅅㅏㄴ -1151
▁ㄷㅡㅇㅈㅏㅇ -1152
▁ㅎㅣ -1153
▁ㅇㅡㅁㅂㅏㄴ -1154
▁ㄹㅏㅇㅣ -1155
▁ㅇㅓㄱ -1156
▁a -1157
▁ㅈㅘ -1158
▁ㅁㅕㅊ -1159
▁ㄱㅓㅇ -1160
ㅅㅡㅌㅡㄹ -1161
ㅌㅚ -1162
ㅊㅏㄴ -1163
▁ㅅㅜㄱ -1164
ㅌㅣㄴ -1165
▁ㅋㅏㄴ -1166
▁ㅌㅏㄹ -1167
ㅂㅏㄱ -1168
ㅎㅢ -1169
▁ㄹㅗㅁㅏ -1170
▁O -1171
▁ㄱㅘㄴㄹㅣ -1172
▁2013 -1173
ㅊㅣㄴ -1174
▁ㄹㅓㅅㅣㅇㅏ -1175
▁ㅎㅢ -1176
▁ㄷㅔㅂㅟ -1177
▁ㅇㅓㄸ -1178
he -1179
ㅝㅆ -1180
▁ㅇㅗㅇ -1181
▁ㄱㅖㅅㅗㄱ -1182
▁ㄷㅔㅇㅣ -1183
▁ㅎㅐㄷㅏㅇ -1184
▁ㅁㅐㅇㅜ -1185
▁ㄴㅐㄹ -1186
▁ㅅㅓㅇㄱㅗㅇ -1187
▁ㅍㅜㅇ -1188
▁ㅅㅏㅇㄷㅐ -1189
ㅊㅣㅁ -1190
ㅂㅡㄹ -1191
ㅂㅓㄹ -1192
▁ㅅㅛ -1193
▁ㅇㅗㄱ -1194
▁ㅁㅐㄱ -1195
▁ㄱㅜㄱㅁㅣㄴ -1196
ㅏㄱㅏ -1197
▁ㄱㅐㄱ -1198
ㄴㅏㄹㅏ -1199
▁ㄷㅐㅈㅓㄴ -1200
▁ㅇㅏㅂㅓㅈㅣ -1201
ㅇㅕㄹ -1202
▁ㄱㅘㅎㅏㄱ -1203
▁ㅌㅡ -1204
▁ㅅㅐ -1205
▁ㅈㅜㅇㅛ -1206
▁ㅎㅐㅅㅓ -1207
▁ㅈㅓㅇㅂㅗ -1208
▁191 -1209
▁ㅈㅣㅁ -1210
▁ㅅㅏㅇㅓㅂ -1211
ㅓㄴㅣ -1212
▁ㅇㅏㄹㅐ -1213
▁ㅅㅡㅋ -1214
▁ㅆㅏㅇ -1215
▁ㄸㅏㄹㅡ -1216
▁ㅈㅏㄹㅣ -1217
▁ㄱㅗㄹㅕ -1218
▁23 -1219
▁24 -1220
▁ㅂㅏㄹㅈㅓㄴ -1221
▁ㅃㅜㄴ -1222
ar -1223
▁ㅇㅣㅇㅓ -1224
▁2015 -1225
ㅊㅡㄱ -1226
▁2018 -1227
ㅁㅐㅇ -1228
▁000 -1229
ㅌㅏㄹ -1230
▁ㅎㅣㅁ -1231
▁ㅊㅏㅈ -1232
▁2016 -1233
ㅔㄹㅣ -1234
▁ㅌㅣ -1235
▁ㅊㅏㅈㅣ -1236
▁ㄹㅔㅇㅣ -1237
▁ㅂㅏㅇㅂㅓㅂ -1238
ㅘㅆ -1239
▁ㄱㅡㄹㅜㅂ -1240
▁ㄴㅡㅇ -1241
▁ㅇㅣㅇㅠ -1242
▁ㅊㅓㄹㅓㅁ -1243
▁ㅇㅝㄹㄷㅡ -1244
▁ㅇㅐㄹㅂㅓㅁ -1245
▁ㄹㅣㅇ -1246
▁ㅋㅜ -1247
ㅟㄴ -1248
ㄹㅣㅇ -1249
▁ㅇㅣㅌㅏㄹㄹㅣㅇㅏ -1250
▁ㄴㅗㄱ -1251
▁J -1252
▁ㅊㅜㄹㅇㅕㄴ -1253
es -1254
▁ㅅㅣㄹㅣㅈㅡ -1255
▁ㅁㅗㅁ -1256
▁ㅇㅜㅇ -1257
▁22 -1258
ㅇㅏㅁ -1259
ㄱㅠㄴ -1260
▁ㄱㅗㄷㅡㅇㅎㅏㄱㄱㅛ -1261
▁2006 -1262
▁ㅆㅡㅇ -1263
▁ㅈㅓㄴㅊㅔ -1264
▁ㅁㅐㄴ -1265
ㄸㅐ -1266
▁ㅅㅐㅇㅎㅘㄹ -1267
▁ㄱㅡㄹㅓ -1268
▁ㅂㅗㅇㅣ -1269
▁ㅁㅛ -1270
ㅎㅕ -1271
▁192 -1272
FA -1273
▁ㅊㅡㅇ -1274
▁ㄸㅓㄹ -1275
▁ㅊㅚㄱㅗ -1276
▁ㅂㅜㅌ -1277
▁ㅈㅕㅆ -1278
▁ㅎㅚㅅㅏ -1279
▁ㄱㅡㄹㅣㅅㅡ -1280
ㅈㅣㄴㄷㅏ -1281
▁2017 -1282
▁ㅈㅔㄱㅗㅇ -1283
▁ㅋㅗㄹ -1284
▁ㄴㅐㅇㅛㅇ -1285
▁ㅂㅔㄴ -1286
▁ㄱㅕㄹㄱㅜㄱ -1287
▁ㅈㅏㄴ -1288
▁ㅎㅏㄴㅍㅕㄴ -1289
ㅊㅚ -1290
▁ㅇㅕㅆㅇㅡㄴㅏ -1291
ㅗㅊ -1292
▁ㅂㅏㅇㅅㅣㄱ -1293
ㅗㅇㅣ -1294
▁ㄱㅕㄱ -1295
▁ㅅㅣㅅㅡㅌ -1296
▁ㅇㅕㄴㅎㅏㅂ -1297
▁ㅎㅏㅇㄱㅗㅇ -1298
ㅜㄴㄷㅔ -1299
▁ㄱㅗㅇㅅㅣㄱ -1300
▁ㅎㅗㄱ -1301
ㅇㅐ -1302
▁ㅁㅏㄶㅇㅣ -1303
ㄴㅏㄹ -1304
▁ㄷㅡㄹㅏㅁㅏ -1305
▁ㄹㅠ -1306
▁ㅎㅜㅂㅗ -1307
ㄷㅣㅇ -1308
▁ㅅㅑ -1309
▁ㄷㅗㅋ -1310
▁ㄱㅏㅇㅜㄴㄷㅔ -1311
▁ㅇㅢㅇㅝㄴ -1312
▁ㅅㅣㅅㅡㅌㅔㅁ -1313
▁ㅅㅣㄱㅣ -1314
▁ㅊㅜㄹㅈㅓㄴ -1315
▁ㅎㅗㅁ -1316
▁ㅇㅠㅁㅕㅇ -1317
▁ㅇㅣㄲ -1318
▁ㅇㅣㄴㄱㅏㄴ -1319
▁ㅇㅕㄱㅎㅏㄹ -1320
▁ㅊㅗㄱㅣ -1321
▁ㅁㅗㅅㅎㅏ -1322
▁s -1323
ㅍㅡㄹㅣ -1324
▁ㄱㅣㅇㅓㅂ -1325
▁ㅈㅔㄷㅗ -1326
▁ㅎㅠ -1327
▁ㅁㅣㄴㅈㅗㄱ -1328
▁ㄱㅓㅇㅢ -1329
ㅅㅣㅇ -1330
▁ㅁㅓㄴ -1331
ㅈㅜㄱ -1332
▁ㅈㅗㅅㅏ -1333
▁ㄹㅡ -1334
▁ㅂㅏㄴㄷㅐ -1335
▁ㅅㅜㅅㅏㅇ -1336
▁ㅍㅔㄹ -1337
▁ㅂㅜㄴㄹㅠ -1338
ㅇㅖ -1339
▁ㅇㅜㄹㅣ -1340
▁ㄱㅛㅎㅚ -1341
ㄹㅑㄱ -1342
▁ㅈㅣㄱㅜ -1343
ㅡㄹㄹㅐㄴㄷㅡ -1344
▁! -1345
▁ㄴㅜㄴ -1346
ㅎㅓㄴ -1347
ㅍㅜㅇ -1348
▁ㄷㅐㅅㅣㄴ -1349
▁ㅇㅡㄹㅗㅆㅓ -1350
▁ㄹㅏㅇ -1351
▁26 -1352
▁ㅇㅣㄹㅜ -1353
ㅊㅜㅇ -1354
ㅌㅏㅇ -1355
at -1356
▁ㅇㅓㄴㅇㅓ -1357
▁ㅍㅏㄱ -1358
▁ㅍㅛㅎㅕㄴ -1359
▁ㅌㅡㄱㅂㅕㄹ -1360
▁ㅍㅕㅇㄱㅏ -1361
ㅍㅣㄹ -1362
▁ㄸㅓㄹㅇㅓ -1363
ㅌㅔ -1364
▁ㄱㅣㄴㅡㅇ -1365
▁ㄷㅐㅅㅏㅇ -1366
▁ㅇㅡㄹㅗㅂㅜㅌㅓ -1367
▁ㅇㅡㅇ -1368
ㄱㅕ -1369
▁ㄱㅠㅁㅗ -1370
▁28 -1371
▁ㅇㅠㅈㅣ -1372
▁2019 -1373
▁ㅇㅕㄴㄱㅕㄹ -1374
▁ㅎㅐㅇㅑ -1375
▁ㄷㅗㅇㅅㅣ -1376
ㅔㄹㄹㅔ -1377
▁ㅇㅏㄹㄹ -1378
▁ㄴㅏㅇㅣ -1379
▁ㄱㅗㅇㄱㅐ -1380
▁27 -1381
▁ㄴㅗㅎ -1382
▁ㄱㅏㄱㄱㅏㄱ -1383
▁ㅈㅏㅇㅕㄴ -1384
▁ㅇㅕㄹㄹㅣㄴ -1385
▁ㅇㅝ -1386
▁ㄸㅏㄹㅏㅅㅓ -1387
▁ㄱㅜㄴㅅㅏ -1388
ㅏㄴㄷㅏ -1389
▁ㅇㅣㄹㅡ -1390
ㅗㅅㅡ -1391
ㅑㄱㅣ -1392
ㅎㅟ -1393
ㅓㄱㅏ -1394
ㅣㅁㅏㄱ -1395
▁ㅁㅗㅅㅡㅂ -1396
▁ㄴㅗㄷㅗㅇ -1397
▁ㅎㅐㄱ -1398
▁ㅇㅣㄹㅗㄴ -1399
▁ㄱㅜㄹ -1400
ㅎㅏㄴㄷㅏ -1401
ㅅㅡㅌㅓ -1402
▁ㄱㅐㅇㅣㄴ -1403
▁ㅁㅗㄴ -1404
▁ㄷㅏㄴㅊㅔ -1405
▁ㅋㅐㄴ -1406
▁ㅅㅡㅌㅏ -1407
▁2005 -1408
ㅋㅓㅂ -1409
▁ㅇㅕㄱㅣ -1410
▁ㅁㅗㄱㄹㅗㄱ -1411
ㅋㅓ -1412
▁V -1413
▁ㅊㅏㄱ -1414
▁ㅇㅣㅁㅁㅕㅇ -1415
▁ㅇㅣㅁㅣ -1416
ㅊㅗㅇ -1417
▁ㅅㅡㅂ -1418
▁ㄱㅕㅇㅅㅏㅇ -1419
▁2000 -1420
▁ㅎㅕㄴㄷㅐ -1421
▁ㅇㅏㄹㄹㅕㅈㅕ -1422
▁ㅈㅣㄴㅊㅜㄹ -1423
▁ㅇㅣㄴㅈㅓㅇ -1424
▁ㄹㅏㅁ -1425
ㅗㅂ -1426
▁ㅊㅓㄹㄷㅗ -1427
▁ㄸㅟ -1428
▁ㅅㅟ -1429
▁ㅊㅣㅇ -1430
▁ㄱㅏㄹㅣ -1431
▁ㅌㅓ -1432
▁ㅅㅡㅇㄹㅣ -1433
▁ㅋㅐㄹ -1434
▁ㅌㅏㅇㅣ -1435
ic -1436
▁ㅅㅣㅈㅓㄹ -1437
▁ㅈㅓㅇㅇㅢ -1438
▁ㅁㅓㄱ -1439
▁ㅁㅏㅈㅣㅁㅏㄱ -1440
▁ㅈㅓㄴㅁㅜㄴ -1441
▁ㅅㅣㅋㅕㅆ -1442
ㅌㅣㅇ -1443
al -1444
▁ㅁㅗㄱㅈㅓㄱ -1445
ㄴㅕㅁ -1446
▁ㅅㅣㅈㅏㅇ -1447
▁ㅈㅣㄷㅗ -1448
ㅎㅡㅇ -1449
▁ㅅㅏㄴㅇㅓㅂ -1450
▁ㅎㅜㄴ -1451
▁ㅋㅓㅂ -1452
▁ㄱㅣㄱㅏㄴ -1453
ㅜㅇㅝㄴ -1454
ㅌㅡㅇ -1455
▁ㅋㅓ -1456
▁ㅇㅘㅆ -1457
ㅔㄹㅏ -1458
▁ㅇㅑㄱㅜ -1459
▁ㅇㅣㅇㅑㄱㅣ -1460
▁ㅈㅓㅇㅊㅐㄱ -1461
▁ㄷㅗㄴ -1462
ㅇㅏㅂ -1463
▁ㅈㅣㄱㅈㅓㅂ -1464
▁ㅂㅜㄹㄹㅣ -1465
▁ㄱㅣㅇㅝㄴ -1466
▁ㅋㅓㅁㅍ -1467
BS -1468
ㅡㄴㄷㅏ -1469
▁2004 -1470
▁ㅅㅓㄹㅗ -1471
▁ㅎㅕㄱ -1472
ㅎㅕㄱ -1473
▁ㄱㅐㅊㅚ -1474
▁ㅅㅏㅇㅎㅘㅇ -1475
▁ㄱㅖㅇㅑㄱ -1476
▁ㄱㅗㅇㄱㅏㄴ -1477
▁FC -1478
▁ㄱㅓㄴㅅㅓㄹ -1479
ㅁㅏㄹ -1480
▁ㄱㅓㄴㅁㅜㄹ -1481
▁ㄱㅗㅇㄷㅗㅇ -1482
▁ㅎㅐㅆㅇㅡㄴㅏ -1483
ㅊㅡㅇ -1484
ㅂㅜㄹ -1485
▁ㅊㅜㄱㅏ -1486
▁ㅂㅣㄹㅗㅅ -1487
ㅐㅁㅍ -1488
▁ㄹㅓ -1489
▁ㅁㅏㅇㅣ -1490
ㅆㅡ -1491
ㅔㄹㅗ -1492
▁ㄴㅡ -1493
▁ㅌㅐㅇㅓㄴㅏㅆ -1494
ㄷㅡㅁ -1495
▁ㅇㅣㄴㄷㅗ -1496
▁50 -1497
ㄴㅏㄴ -1498
▁ㅌㅏㅂ -1499
ㅅㅜㄱ -1500
▁ㅎㅘㄹㅇㅑㄱ -1501
ㅗㄹㅡ -1502
▁b -1503
▁ㅅㅡㅍㅔㅇㅣㄴ -1504
▁ㄱㅕㅇㅊㅏㄹ -1505
▁31 -1506
▁ㅂㅜㅅㅏㄴ -1507
▁ㅇㅗㅅㅡㅌㅡㄹ -1508
▁ㅎㅕㅇㅅㅓㅇ -1509
▁ㅂㅔㅇㅣ -1510
ㄹㅠㄹ -1511
▁ㄱㅕㄹㅎㅗㄴ -1512
▁ㄱㅏㄲ -1513
▁ㅈㅗㄹㅇㅓㅂ -1514
▁ㄹㅗㄴ -1515
▁29 -1516
▁ㅁㅗㄷㅔㄹ -1517
▁TV -1518
ㅎㅏㄱㅈㅏ -1519
▁ㄴㅗㄹㅐ -1520
is -1521
▁ㅈㅏㄷㅗㅇ -1522
▁ㄱㅘㄴㅎㅏㄴ -1523
ㅅㅠ -1524
▁ㄱㅓㄹㅣ -1525
▁ㅅㅏㄹㅏㅇ -1526
▁ㅂㅣㅅㅡ -1527
it -1528
▁ㅂㅕㄴㄱㅕㅇ -1529
re -1530
▁ㅅㅏㅅㅏㅇ -1531
ㅓㄹㄹㅣ -1532
ㅈㅏㅂ -1533
▁ㄱㅜㄱㅎㅚ -1534
▁ㅍㅜㄹ -1535
▁ㄱㅛㅅㅜ -1536
ㅎㅕㅆ -1537
▁ㄱㅗㅇㅎㅘㄱㅜㄱ -1538
ㅗㄹㄹㅗ -1539
▁ㅁㅏㅇㅡㄹ -1540
ㅏㄷㅏ -1541
▁ㅌㅏㅁ -1542
▁ㅇㅣㄴㅁㅜㄹ -1543
▁ㅂㅕㄴㅎㅘ -1544
▁ㅅㅣㅂ -1545
ㅇㅜㄴ -1546
ㅊㅕㅆ -1547
▁ㅂㅗㅇㅕ -1548
ㅌㅔㄴ -1549
ㅂㅣㅈㅓㄴ -1550
ㅔㅇㅣㄹ -1551
▁ㅁㅔㅁ -1552
ㄴㅣㄷㅏ -1553
▁ㄴㅏㅈ -1554
▁ㅇㅢㅎㅏ -1555
▁190 -1556
ㄷㅓㄴ -1557
▁ㄴㅗㅅㅓㄴ -1558
ㄹㅏㄱ -1559
ㅜㅅ -1560
▁ㅇㅡㅁㅕㄴ -1561
▁ㅈㅜㅇㅎㅏㄱㄱㅛ -1562
▁ㅈㅐㄱ -1563
▁2020 -1564
▁ㅇㅣㄴㅁㅣㄴㄱㅗㅇ -1565
▁ㅇㅘㄴㅈㅓㄴ -1566
▁ㅇㅣㄴㅁㅣㄴㄱㅗㅇㅎㅘㄱㅜㄱ -1567
▁ㄸㅏㅇ -1568
▁ㅌㅔㄹㄹㅔ -1569
▁ㄱㅕㄴ -1570
ㅍㅗㄴ -1571
ㄱㅓㄴ -1572
ou -1573
▁ㅁㅣㄷ -1574
▁ㅂㅗㅌㅗㅇ -1575
ㄴㅏㅁㄷㅗ -1576
▁ㄱㅡㄱㅓㅅ -1577
▁ㅈㅣㄱㅡㅁ -1578
▁ㅅㅗㄱㅎㅏ -1579
▁ㅎㅣㄹ -1580
▁ㅅㅓㅂㅣㅅㅡ -1581
▁ㅍㅔ -1582
▁ㅂㅜㄹㅡ -1583
ㅅㅡㄹ -1584
▁ㅎㅏㄱㅅㅐㅇ -1585
▁ㅇㅕㄱㅅㅣ -1586
▁ㅅㅓㅅ -1587
ㄱㅗㄹ -1588
▁ㅇㅜㅁ -1589
▁ㄹㅗㄱ -1590
ㅅㅏㄱ -1591
ㅈㅡㅁ -1592
ㅇㅛㄱ -1593
▁ㅊㅚㄷㅐ -1594
▁ㅅㅗㅅㅓㄹ -1595
ㄹㅏㄴㄷㅡ -1596
▁ㅈㅓㄴㄱㅜㄱ -1597
▁ㅇㅢㅎㅚ -1598
▁ㅋㅐ -1599
▁ㅎㅓㅇ -1600
▁ㅈㅜㅇㅎㅘ -1601
▁ㅁㅔㅇㅣ -1602
ㅇㅕㄱㅅㅣ -1603
ㅍㅡㄹㅣㅋㅏ -1604
▁ㄱㅕㅁ -1605
▁ㅎㅗㄹ -1606
▁ㅇㅣㄹㅇㅡ -1607
ㄷㅐㄹㅗ -1608
▁ㄱㅏㅈㅣㄴ -1609
ㅎㅘㄱ -1610
▁ㄱㅣㅂㅗㄴ -1611
ㅍㅡㅌㅡ -1612
▁ㄱㅏㅅㅜ -1613
▁ㅇㅐㄱ -1614
▁ㅅㅣㅇㄱㅡㄹ -1615
▁ㅇㅛㄱㅜ -1616
ㅂㅣㄴ -1617
▁ㅂㅐㄴㄷㅡ -1618
▁ㅇㅝㄴㄹㅐ -1619
▁ㅍㅣㄴ -1620
ㅜㄱㅣ -1621
ㅣㅇㅔ -1622
▁ㅎㅘㅇㅈㅔ -1623
ㅣㅇㅑ -1624
ㅏㅇㅘ -1625
▁ㄱㅕㅇㄱㅣㄷㅗ -1626
▁ㅌㅚ -1627
▁ㄱㅣㅂㅏㄴ -1628
▁ㅈㅓㄴㅌㅗㅇ -1629
ㅌㅡㄱ -1630
▁ㅁㅏㄴㄷㅡㄴ -1631
ㅌㅔㄹ -1632
▁2002 -1633
▁ㅇㅓㅄㅇㅣ -1634
▁ㅍㅗㅇ -1635
▁ㄹㅕ -1636
ㅁㅔ -1637
ㅋㅏㄴ -1638
▁ㅊㅓ -1639
ㄱㅣㄹ -1640
▁ㄹㅣㅂ -1641
▁ㅈㅣㅎㅏ -1642
▁ㄱㅓㅊㅕ -1643
▁ㅇㅜㅈㅜ -1644
▁ㄷㅏㄹㄹㅣ -1645
▁ㄱㅔㅆ -1646
▁ㅅㅜㄷㅗ -1647
▁ㅋㅔ -1648
▁40 -1649
▁ㅂㅣㅍㅏㄴ -1650
▁ㅇㅓㄸㅓㄴ -1651
▁ㅈㅏㄹㅛ -1652
▁2003 -1653
▁ㅎㅏㄴㄷㅏㄴㅡㄴ -1654
▁ㄹㅜㅇ -1655
▁ㅇㅟㅎㅏ -1656
▁ㅈㅏㄱㅣ -1657
ㅋㅣㄴ -1658
▁ㅇㅜㄴㅎㅐㅇ -1659
ㅈㅚ -1660
▁ㅈㅗㅇㄱㅛ -1661
▁ㅅㅜㅎㅐㅇ -1662
ㅎㄱㅔ -1663
▁ㅅㅔㄴㅌㅓ -1664
▁ㅁㅗㅇㅑㅇ -1665
▁ㅊㅏㅇㅣ -1666
ㅅㅔㄴ -1667
▁ㅅㅡㅇㄱㅏㅇ -1668
▁ㅅㅔㄹㅕㄱ -1669
▁ㄱㅡㄹㅐ -1670
▁ㅎㅘㄴㄱㅕㅇ -1671
ㄹㅓㄴ -1672
ㄹㅣㅁ -1673
ㅊㅗㄴ -1674
▁ㄷㅗㅋㅛ -1675
▁ㅅㅣㅅㅓㄹ -1676
▁ㅅㅗㄹㅕㄴ -1677
▁ㅎㅚㅇㅢ -1678
ㄹㅠㄱ -1679
▁ㅁㅕㅇㅊㅣㅇ -1680
▁ㄹㅓㄴ -1681
▁ㅂㅐㅇ -1682
▁ㅌㅔㄹㄹㅔㅂㅣㅈㅓㄴ -1683
▁ㅁㅗㅅㅎㅐㅆ -1684
ㅠㅁ -1685
ㄱㅜㄹ -1686
▁ㄱㅣㄴㅕㅁ -1687
ㄹㅓㅆ -1688
ㄷㅜㅇ -1689
▁ㅌㅡㄱㅈㅣㅇ -1690
le -1691
▁ㅇㅣㄹㅜㅇㅓ -1692
▁ㄷㅓㄱ -1693
▁ㅇㅏㄴㅣㄴ -1694
▁ㅇㅝㄹㄷㅡㅋㅓㅂ -1695
▁ㅇㅕㅁ -1696
ㄷㅔㄴ -1697
▁ㅋㅏㅁ -1698
▁ㄷㅓㅇ -1699
▁ㄱㅜㅇㅕㄱ -1700
ㅌㅓㄹ -1701
▁ㅂㅜㄴㅇㅑ -1702
mp -1703
▁ㅈㅓㄴㄱㅣ -1704
▁ㄹㅔㄴ -1705
▁ㄱㅗㅇㅇㅕㄴ -1706
▁ㅇㅣㄷㅗㅇ -1707
ㄱㅏㄹ -1708
▁ㅈㅣㅈㅣ -1709
▁ㅇㅖㅅㅜㄹ -1710
▁ㄴㅏㅁㅈㅏ -1711
▁ㄱㅏㅂ -1712
▁ㅁㅠ -1713
▁ㄱㅣㄷㅗㄱ -1714
▁ㅂㅗㅎㅗ -1715
▁ㅅㅣㄹㅅㅣ -1716
ㄹㅕㄹ -1717
▁ㅎㅟ -1718
▁ㅇㅟㄹ -1719
▁ㅇㅕㄴㅂㅏㅇ -1720
▁ㄷㅔㄴ -1721
▁ㄱㅛㅎㅘㅇ -1722
▁ㅋㅓㄴ -1723
▁ㄷㅗㅇㅁㅜㄹ -1724
▁ㄷㅗㅇㅣㅂ -1725
▁ㅅㅓㄴㅈㅓㅇ -1726
▁ㅅㅓㄹㅁㅕㅇ -1727
ㅂㅜㄱㄷㅗ -1728
▁ㅈㅏㄱㅇㅓㅂ -1729
▁ㅂㅜㄷㅐ -1730
▁= -1731
▁ㅌㅐㄱ -1732
▁ㅌㅗㅇㅎㅏㅂ -1733
▁ㅇㅟㄴ -1734
▁ㄴㅏㅁㅉㅗㄱ -1735
▁ㄴㅏㅇㅗ -1736
▁ㄴㅓㄼ -1737
▁ㅂㅜㄱㅉㅗㄱ -1738
ㅊㅜㄴ -1739
▁ㅈㅏㄱㅇㅛㅇ -1740
▁ㅊㅜㄹㅅㅣ -1741
▁ㅎㅐㅇㄷㅗㅇ -1742
▁ㄷㅡㄱ -1743
▁ㄷㅐㅎㅐㅅㅓ -1744
▁ㅇㅢㅎㅏㄴ -1745
▁ㅊㅏㄴ -1746
ㄷㅗㄴ -1747
▁ㄱㅛㅌㅗㅇ -1748
▁ㄱㅏㅈㅗㄱ -1749
ㄱㅕㅆ -1750
▁ㅁㅐㅇ -1751
ㄹㅖ -1752
▁ㅂㅏㅇㅎㅑㅇ -1753
▁ㅊㅏㄹㅑㅇ -1754
▁ㅅㅡㅇㄱㅏㅇㅈㅏㅇ -1755
ㅇㅢㅇㅝㄴ -1756
▁ㄹㅣㄴ -1757
▁ㄱㅗㄴ -1758
ㄹㅕㅆ -1759
▁ㅋㅡㄹㄹㅓㅂ -1760
ㄱㅟ -1761
▁ㄴㅡㅇㄹㅕㄱ -1762
▁ㄱㅣㅈㅗㄴ -1763
▁ㅈㅡㅇㄱㅏ -1764
ㄷㅓㄹ -1765
▁ㅎㅘㄱㅇㅣㄴ -1766
▁ㅇㅕㄱㅇㅣㅁ -1767
▁ㅈㅔㅇㅚ -1768
▁ㅈㅏㄱㄱㅏ -1769
▁ㄱㅜㄴㄷㅐ -1770
▁ㄱㅗㄷ -1771
▁ㅁㅜㄴㅎㅏㄱ -1772
▁ㄷㅓㅂ -1773
▁ㅇㅗㄻ -1774
▁ㅂㅣㅅㅡㅅ -1775
▁ㅁㅡㄹㅗ -1776
ㅎㅕㅂ -1777
▁ㅂㅏㄹㅗ -1778
▁ㅈㅣㅎㅟ -1779
▁ㅎㅕㅇㅅㅣㄱ -1780
ㅈㅟ -1781
▁ㅌㅐㅇㅑㅇ -1782
▁ㅎㅐㅇㅇㅟ -1783
▁ㅍㅓ -1784
▁ㅇㅣㄸㅐ -1785
▁ㅇㅓㅁㅓㄴㅣ -1786
▁ㅌㅗㄹ -1787
▁ㅇㅕㄹㅊㅏ -1788
▁ㅋㅓㅁㅍㅠ -1789
ㅎㅜㄴ -1790
▁ㅈㅏㄱㄱㅗㄱ -1791
▁ㅅㅏㄱㅗ -1792
▁ㅎㅕㄱㅁㅕㅇ -1793
ㅂㅔㄹ -1794
▁ㅋㅗㅇ -1795
▁ㅇㅠㅇㅣㄹ -1796
ㅌㅏㄱ -1797
▁FI -1798
▁ㄷㅗㄹㅗ -1799
▁ㅇㅘㅇㄱㅜㄱ -1800
▁ㅎㅛㄱㅘ -1801
ㄹㅡ -1802
ㅇㅓㄴㅏㄴ -1803
▁ㅇㅣㅈㅓㄱ -1804
▁ㄹㅔㅇ -1805
BC -1806
▁ㄹㅕㄱ -1807
▁ㄱㅘㄱㅓ -1808
ㅇㅕㅁ -1809
▁ㄴㅡㄹ -1810
▁ㄱㅣㄷㅗㄱㄱㅛ -1811
▁ㅇㅣㄲㅡㄹ -1812
▁ㅎㅕㅂㅎㅚ -1813
▁ㄴㅗㅍㅇㅣ -1814
▁ㅍㅔㄴ -1815
▁ㅂㅓㅅㅡ -1816
▁ㅊㅜㅈㅓㅇ -1817
▁ㅎㅗㄱㅇㅡㄴ -1818
▁ㅇㅗㅍ -1819
▁ㅎㅡㅇ -1820
▁ㅂㅡㄹㅏ -1821
▁ㅍㅗㄹㄹ -1822
▁ㅋㅐㄴㅏㄷㅏ -1823
▁ㄴㅏㅁㅂㅜ -1824
▁ㅍㅣㅎㅐ -1825
ㅂㅕㄱ -1826
▁ㄴㅠㅇㅛㄱ -1827
ㅋㅗㅇ -1828
▁ㅇㅠㅇ -1829
▁ㅈㅓㄴㅈㅏ -1830
ㅌㅗㄴ -1831
▁ㅎㅡㄴ -1832
ㅇㅕㅆ -1833
ㅁㅏㄱ -1834
▁ㅎㅏㄴㄷㅏㄱㅗ -1835
ㅎㅛ -1836
▁ㅉㅗㄱ -1837
▁ㄷㅏㅁㄷㅏㅇ -1838
▁ㅇㅠㄱㄱㅜㄴ -1839
ㅈㅏㄹㅣ -1840
▁ㅂㅣㄱㅛ -1841
▁ㅅㅡㅁ -1842
ㄹㅣㅅㅡ -1843
▁ㄷㅗㅇㅇㅣㄹ -1844
▁2001 -1845
▁ㄷㅗㅇㅉㅗㄱ -1846
▁ㅍㅏㄴㅁㅐ -1847
▁ㅍㅐㄴ -1848
▁1990 -1849
▁ㅈㅜㅂㅕㄴ -1850
ㅞㅇㅓ -1851
▁X -1852
▁p -1853
▁ㅈㅣㅂㅐ -1854
▁ㅎㅚㄱ -1855
▁ㄱㅜㄱㅏㄴ -1856
▁ㄱㅗㅇㅅㅏㄴ -1857
▁ㅈㅏㅇㄱㅘㄴ -1858
▁ㅅㅡㅌㅡㄹ -1859
ㅡㄹㄹㅓ -1860
▁ㅍㅜㅁ -1861
▁ㅅㅣㅁㅣㄴ -1862
ㅋㅔㅅ -1863
▁ㅇㅖㅈㅓㅇ -1864
▁ㄱㅓㄴㅊㅜㄱ -1865
▁ㅋㅓㅁㅍㅠㅌㅓ -1866
▁ㅈㅓㅇㄷㅏㅇ -1867
▁ㅋㅣㅇ -1868
▁ㅂㅗㄴㅐ -1869
▁ㅇㅓㄹㅣㄴ -1870
ㅜㄹㅏ -1871
▁ㅌㅗㄴ -1872
▁ㅍㅡㄹㅣ -1873
ㅔㅇㅣㅅㅡ -1874
▁ㅊㅜㅇㅊㅓㅇ -1875
▁ㅅㅓㅉㅗㄱ -1876
▁ㅇㅗㅅ -1877
▁ㅇㅐㄴㅣㅁ -1878
▁189 -1879
▁ㅁㅏㄷㅏ -1880
ㅁㅣㄹ -1881
ㄷㅐㄱ -1882
ㅁㅐㄱ -1883
▁ㄱㅐㄴㅕㅁ -1884
▁ㅅㅏㄷㅏㄴ -1885
▁ㅋㅡㄱㅣ -1886
▁ㅈㅓㄱㅇㅛㅇ -1887
ㄹㅔ -1888
▁ㄱㅣㅌㅏ -1889
▁ㅇㅗㄴㅡㄹ -1890
▁ㄱㅚ -1891
▁ㅅㅓㅇㅈㅏㅇ -1892
▁ㅊㅏㄹㅖ -1893
ㅋㅓㄹ -1894
▁ㅁㅏㅇㅡㅁ -1895
▁ㅅㅏㅇㄷㅏㅇ -1896
▁ㅎㅡㄱ -1897
ㅆㅣ -1898
▁ㄱㅜㄱㄴㅐ -1899
ㅣㄱㅅㅡ -1900
ㅈㅏㅇㅣㄴ -1901
ㅣㅅㅡㅌㅡ -1902
▁ㄷㅐㅎㅏ -1903
▁d -1904
ㅏㄹㄹㅏ -1905
▁ㄴㅓㅎ -1906
▁ㅇㅔㄴㅈㅣㄴ -1907
▁ㅇㅣㄴㄱㅣ -1908
▁ㅈㅗㄱㅓㄴ -1909
▁ㅁㅣㄴㅈㅜㅈㅜㅇㅢ -1910
▁ㄷㅣㅈㅏㅇㅣㄴ -1911
▁ㅅㅔㅍㅗ -1912
▁ㄱㅗㅇㅅㅏ -1913
ㅅㅡㅌㅏㄴ -1914
▁ㄴㅏㄱㅏ -1915
▁ㅂㅏㅇㅇㅕㅇ -1916
▁ㄴㅐㄱ -1917
▁ㅂㅓㅈㅓㄴ -1918
▁ㅇㅔㄴㅓㅈㅣ -1919
▁ㄱㅓㅂ -1920
▁ㅈㅏㄱㅈㅓㄴ -1921
▁ㄱㅜㄱㄹㅣㅂ -1922
▁FIFA -1923
▁ㅈㅏㅊㅔ -1924
ㄱㅐㄱ -1925
▁ㅇㅗㄹㅐ -1926
ㅅㅡㅋㅡ -1927
▁ㄷㅏㄹㅡ -1928
▁ㄹㅗㅂ -1929
▁ㄱㅗㅇㅎㅏㅇ -1930
▁ㅈㅣㄴㅏ -1931
▁ㅈㅗㅇㄹㅠ -1932
▁ㅂㅏㄴㅇㅡㅇ -1933
▁ㅅㅜㄹㅗㄱ -1934
▁ㅍㅣㅇ -1935
ㄱㅜㅇ -1936
▁ㅈㅟ -1937
▁ㅁㅓㄹㅣ -1938
ㅊㅟ -1939
el -1940
et -1941
ㅏㄴㄷㅡ -1942
▁ㅅㅣㄹㅍㅐ -1943
▁ㅌㅡㄱㅈㅓㅇ -1944
▁ㅁㅜㄹㄹㅣ -1945
▁ㄷㅗㄹㅇㅏㅇ -1946
▁ㅅㅓㄴㅇㅓㄴ -1947
▁ㅈㅣㄴㅐㅆ -1948
▁ㅎㅐㄱㅜㄴ -1949
▁ㅇㅕㄴㅅㅗㄱ -1950
▁ㅇㅓㄴㅡ -1951
▁ㅇㅣㄹㅓㄴ -1952
▁ㅇㅐㄴㅣㅁㅔㅇㅣㅅㅕㄴ -1953
▁ㅌㅏㄱ -1954
▁ㅂㅜㅈㅗㄱ -1955
▁ㄱㅠㅈㅓㅇ -1956
▁ㅅㅓㄴㅌㅐㄱ -1957
ㅓㅆ -1958
▁ㅁㅔㅁㅂㅓ -1959
▁ㄱㅗㄷㅐ -1960
▁ㄱㅣㅇㅝㄴㅈㅓㄴ -1961
▁ㅅㅓㄴㅊㅜㄹ -1962
ㅔㅅㅡㅌㅡ -1963
▁ㅂㅜㄱㅂㅜ -1964
▁ㅈㅗㅇㅑㄱ -1965
ㅈㅘ -1966
ㅅㅐ -1967
ion -1968
ㄹㅜ -1969
▁ㅅㅗㄱㄷㅗ -1970
▁ㄴㅐㄴ -1971
▁ㅊㅔㅈㅔ -1972
▁ㅎㅔ -1973
▁ㅎㅓㄴㅂㅓㅂ -1974
▁ㅋㅡㄹㅣㅅㅡ -1975
▁ㅇㅖㅅ -1976
▁ㄱㅕㄹㅅㅡㅇ -1977
ㄱㅣㄴ -1978
▁ㅇㅣㅅㅏ -1979
▁ㄴㅐㅂㅜ -1980
▁ㅇㅣㄴㅊㅓㄴ -1981
▁ㅇㅕㅇㅇㅓ -1982
▁ㅅㅣㅋㅕ -1983
▁ㅎㅡㄹ -1984
▁ㄷㅔㄹ -1985
ㄴㅗ -1986
▁ㅇㅙ -1987
▁ㄱㅓㄹㅊㅕ -1988
ing -1989
▁ㅁㅕㅇㄹㅕㅇ -1990
▁ㅅㅡㅍㅗ -1991
▁ㅇㅣㄴㅌㅓㄴ -1992
▁ㄹㅕㄴ -1993
▁ㅇㅟㅎㅐㅅㅓ -1994
ㄱㅡㄹㄹㅐㄴㄷㅡ -1995
▁ㅇㅕㄴㄱㅣ -1996
▁ㄹㅗㅇ -1997
▁ㅍㅜ -1998
▁ㅅㅓㄹㄱㅖ -1999
▁ㅇㅕㄴㅈㅜ -2000
ㅅㅜㅇ -2001
▁ㄷㅏㄴㄱㅖ -2002
▁ㅈㅓㅇㅅㅣㄴ -2003
▁ㅊㅓㄱ -2004
ㅅㅏㅁ -2005
▁ㅂㅏㅁ -2006
▁ㅊㅚㅈㅗㅇ -2007
▁ㄷㅏㄹㄹㅓ -2008
▁ㅁㅜㄹㅈㅣㄹ -2009
ㅊㅐ -2010
ㅓㅇㅜㄴ -2011
ㅎㅗㄱ -2012
ㅈㅏㄴ -2013
ㅌㅡㄴㅏㅁ -2014
▁ㅇㅏㄹㅡ -2015
▁ㅊㅚㄱㅡㄴ -2016
▁1999 -2017
▁ㅂㅣㅎㅐㅇ -2018
▁ㅂㅏㄺㅎㅕㅆ -2019
▁ㄱㅐㅎㅕㄱ -2020
▁ㅊㅣㄴㄱㅜ -2021
ol -2022
▁ㅊㅜㄹㅍㅏㄴ -2023
▁ㄴㅡㄴㅈㅣ -2024
▁ㅈㅣㅁㅕㅇ -2025
▁ㅍㅛㅈㅜㄴ -2026
▁ㅇㅣㄴㅈㅣ -2027
ㅡㄹㄹㅣㄴ -2028
▁ㅂㅜㄴㅅㅓㄱ -2029
▁ㅍㅕㅇㄱㅠㄴ -2030
21 -2031
▁ㅇㅣㄹㅇㅓㄴㅏ -2032
▁ㅇㅏㅅㅣㅇㅏ -2033
▁ㅎㅜㅇ -2034
▁cm -2035
▁1998 -2036
ㅔㅇㅣㄹㄹ -2037
ㅣㅁㅏ -2038
▁ㅎㅏㄱㅖ -2039
▁o -2040
ㅊㅣㄹ -2041
▁Y -2042
▁ㅈㅐㅇ -2043
▁ㅎㅏㅁㅅㅜ -2044
▁ㅊㅔㄱㅖ -2045
▁ㄴㅡㄲ -2046
ㅎㅐㄱ -2047
▁ㅂㅣㅁ -2048
▁ㅇㅢㅅㅏ -2049
▁ㄱㅗㅇㅇㅝㄴ -2050
▁ㅂㅜㅁㅜㄴ -2051
▁ㅊㅣㄹㅛ -2052
▁ㄱㅏㅆ -2053
ㅔㄹㅣㅋㅏ -2054
ㅊㅓㄱ -2055
▁ㄱㅏㅇㅎㅘ -2056
▁ㅂㅐㅊㅣ -2057
▁ㄱㅗㅇㄹㅣㅂ -2058
ㅂㅏㄷ -2059
▁ㅆㅣㄱ -2060
▁ㄱㅘㄴㅎㅏㄹ -2061
ㅗㄹㄹㅏ -2062
▁ㅎㅚㄱㄷㅡㄱ -2063
▁1980 -2064
▁ㅎㅔㄹ -2065
▁ㅇㅣㅂㄷㅏㄴ -2066
ㅍㅖ -2067
▁ㅇㅣㅇㄱㅡㄹㄹㅐㄴㄷㅡ -2068
▁ㄱㅐㅇㅝㄹ -2069
▁ㅂㅓㅂㅇㅝㄴ -2070
ㅍㅣㄴ -2071
▁ㅅㅏㅁㅜ -2072
ㅞㅇㅣ -2073
▁ㅇㅓㄴㄱㅡㅂ -2074
▁ㅈㅣㅂㄷㅏㄴ -2075
▁ㅂㅣㅊ -2076
▁60 -2077
▁ㄱㅏㅊㅣ -2078
▁ㅂㅜㄴㄹㅣ -2079
▁35 -2080
▁ㄷㅓㅇㅜㄱ -2081
▁ㅇㅠㅅㅏ -2082
▁ㅂㅜㄱㅎㅏㄴ -2083
▁ㅈㅔㅍㅜㅁ -2084
▁ㄱㅘㄴㅅㅣㅁ -2085
▁ㅎㅘㄱㅈㅏㅇ -2086
▁ㄲㅗㅊ -2087
▁ㅇㅏㄹㄹㅔㄱ -2088
▁ㅎㅕㄴㅅㅏㅇ -2089
▁ㅊㅐㅁㅍ -2090
▁mm -2091
▁ㅂㅜㅅㅏㅇ -2092
▁ㄷㅗㅇㅜㅁ -2093
▁ㅅㅗㅇㅠ -2094
▁ㅊㅓㄹㅣ -2095
ㅅㅙ -2096
▁ㅁㅐㅈ -2097
ㅂㅔ -2098
▁ㅈㅣㅅㅗㄱ -2099
▁ㅂㅗㅇㅣㄴㄷㅏ -2100
▁ㅉㅏ -2101
▁ㅌㅔㄹ -2102
▁ㅅㅡㅍㅗㅊㅡ -2103
▁ㅁㅏㄹㅡ -2104
▁ㅅㅣㄹㅎㅓㅁ -2105
▁ㅅㅡㄹㄹ -2106
▁ㅈㅗㅈㅓㅇ -2107
ㅍㅔ -2108
▁ㅊㅐㅁㅍㅣㅇㅓㄴ -2109
▁ㄷㅐㅈㅜㅇ -2110
ㅔㅇㅣㅌㅡ -2111
▁ㅅㅓㄴㅂㅏㄹ -2112
▁ㄷㅔㅇㅣㅌㅓ -2113
ㅋㅡㅁ -2114
▁ㄱㅓㅈㅜ -2115
▁ㄱㅏㅁㅜㄴ -2116
▁n -2117
ㅉㅐ -2118
▁ㅈㅡ -2119
▁ㅎㅗㅅ -2120
ㅏㅇㅜㄴㄷㅡ -2121
ㅎㅗㅇ -2122
▁ㅈㅓㅇㄱㅠ -2123
▁ㅌㅗㅇㅇㅣㄹ -2124
ㅈㅔㄱ -2125
▁ㅈㅏㅇㄱㅜㄴ -2126
▁ㅁㅗㄱㅍㅛ -2127
▁ㅈㅜㄷㅗ -2128
ㅣㄹㄹㅐㄴㄷㅡ -2129
▁ㅍㅏㄹㅣ -2130
▁ㄷㅏㅇㅎㅏ -2131
ㅅㅓㅅ -2132
▁ㅇㅛㅅㅗ -2133
▁ㅇㅣㄹㅈㅗㅇ -2134
▁ㅇㅚㄱㅜㄱ -2135
▁ㅇㅕㄴㄷㅐ -2136
▁ㄱㅜㄷㅏㄴ -2137
▁ㅈㅏㄷㅗㅇㅊㅏ -2138
▁ㅍㅕㄴㅅㅓㅇ -2139
▁ㄱㅗㅅㅗㄱ -2140
▁ㅈㅐㅍㅏㄴ -2141
▁ㅇㅞㅂ -2142
▁ㅇㅓㅇㅑ -2143
ㅎㅡ -2144
▁ㄹㅗㄹ -2145
▁ㅈㅜㅇㅣㄴ -2146
▁ㅅㅣㅎㅓㅁ -2147
ㄷㅡㄹㅣ -2148
▁ㅈㅓㅁㄹㅕㅇ -2149
ㅋㅗㄴ -2150
▁ㄱㅗㅈㅏ -2151
▁ㅎㅏㅇㅣ -2152
▁ㄱㅐㅂㅗㅇ -2153
ㅎㅣㄹ -2154
ㅘㄹ -2155
▁ㄱㅣㄹㅇㅣ -2156
▁ㅌㅗㅇㅅㅣㄴ -2157
▁ㄴㅔㄷㅓㄹ -2158
ㅇㅔ -2159
▁ㅇㅖㅅㅓㄴ -2160
ㅎㅖ -2161
om -2162
ㅔㄹㄹㅏ -2163
▁ㅈㅜㅁㅣㄴ -2164
▁ㄷㅡㄹㅇㅓㄱㅏ -2165
▁ㅅㅣㄷㅗ -2166
▁ㅃㅏㄹ -2167
ㅋㅣㅇ -2168
▁ㅅㅏㄹㅕㅇ -2169
▁ㅊㅓㅂ -2170
▁ㄱㅕㄹㅎㅏㅂ -2171
▁ㅎㅜㅂㅏㄴ -2172
▁ㅂㅜㄹㄱㅛ -2173
▁ㄱㅣㅍ -2174
▁ㅍㅡㄹㄹㅔㅇ -2175
▁ㅂㅗㄴㅅㅓㄴ -2176
▁ㅎㅏㄱㅈㅏ -2177
▁ㄱㅕ -2178
▁ㅎㅐㅇㅅㅏ -2179
▁ㅈㅏㅇㅊㅣ -2180
▁1997 -2181
▁ㅇㅣㅀ -2182
▁ㅁㅜㄴㅅㅓ -2183
▁ㅎㅕㄹ -2184
ㅈㅔㄱㅌㅡ -2185
▁ㄷㅏㅁㅕㄴ -2186
▁ㄷㅐㄱㅜ -2187
▁ㅇㅏㄴㅈㅓㅇ -2188
ㅏㅌ -2189
▁ㄷㅗㅇㅁㅐㅇ -2190
▁ㅇㅣㄴㄷㅔ -2191
▁ㄱㅣㅅㅏ -2192
▁ㄹㅐ -2193
ㅍㅗㄱ -2194
▁ㄹㅕㄱㅗ -2195
ㄷㅚ -2196
ㄱㅏㅈㅣ -2197
▁ㅂㅔㅌㅡㄴㅏㅁ -2198
▁ㅈㅔㅎㅏㄴ -2199
▁ㅅㅜㅈㅜㄴ -2200
▁ㅅㅖ -2201
ㅇㅏㄷㅡㄹ -2202
ㅍㅡㄹㄹ -2203
st -2204
ㅂㅓㅅㅡ -2205
▁ㅍㅗㄴ -2206
ㅁㅔㄷㅏㄹ -2207
▁ㅅㅏㅈㅣㄴ -2208
▁ㅇㅓㄴㄹㅗㄴ -2209
▁ㄸㅏ -2210
▁ㄴㅏㅁㅜ -2211
▁ㅊㅐㄱㅇㅣㅁ -2212
▁ㄱㅡㄹㅣㅁ -2213
▁ㅁㅜㄴㅈㅏ -2214
▁ㅅㅣㄴㅁㅜㄴ -2215
ㅔㅇㅗ -2216
▁1995 -2217
▁The -2218
▁1996 -2219
▁ㄴㅏㅌㅏㄴㅏ -2220
▁ㅌㅜㅇ -2221
▁ㅌㅜㅍㅛ -2222
▁ㅂㅏㅇㅁㅜㄴ -2223
▁ㄱㅜㅂㅜㄴ -2224
▁ㅇㅏㅍㅡㄹㅣㅋㅏ -2225
▁ㅂㅣㅎㅐ -2226
ㅅㅣㅂ -2227
ㅍㅗㄹ -2228
▁ㅌㅗㅇㅊㅣ -2229
ㅌㅡㄱㅂㅕㄹ -2230
▁ㅇㅛㅇㅇㅓ -2231
▁ㅇㅠㅈㅓㄴ -2232
ㅔㅇㅣㅈㅣ -2233
▁amp -2234
▁ㅈㅓㅇㄹㅣ -2235
▁ㅁㅣㅇ -2236
▁ㅎㅓ -2237
▁ㄱㅏㅄ -2238
▁ㄷㅡㅅ -2239
▁ㅈㅓㅇㅎㅘㄱ -2240
▁ㅅㅜㅇㅛㅇ -2241
▁32 -2242
▁ㄱㅏㅈㅓㅇ -2243
▁ㅌㅗㅇㄱㅘ -2244
▁ㅂㅣㄷㅣㅇㅗ -2245
ㅅㅡㅌㅓㄴ -2246
▁70 -2247
▁ㅁㅏㄴㄴㅏ -2248
▁ㅇㅏㄹㄹㅕㅈㅣㄴ -2249
ㅇㅓㅆ -2250
▁ㅂㅜㄹㄱㅜ -2251
▁ㅇㅗㄹㄹㅏㅆ -2252
ㅏㅇㅣㄹ -2253
▁ㅇㅣㅎㅐ -2254
▁ㅇㅣㄹㅈㅔ -2255
▁ㅈㅓㅇㄱㅝㄴ -2256
▁ㅇㅡㄴㅌㅚ -2257
▁ㅈㅜㄴㅂㅣ -2258
▁ㅂㅏㄷㅏ -2259
▁ㅂㅜㅇㅣㄴ -2260
▁ㅋㅔㄴ -2261
▁ㅇㅘㅇㅈㅗ -2262
▁ㅅㅓㅇㅈㅓㄱ -2263
▁ㅍㅡㄹㅗㅈㅔㄱㅌㅡ -2264
▁ㅇㅗㄴㅡㄹㄴㅏㄹ -2265
ㄴㅡㅇ -2266
▁ㄱㅕㅇㅎㅓㅁ -2267
▁ㄷㅐㄹㅗ -2268
▁ㄹㅓㄴㄷㅓㄴ -2269
▁ㅇㅛㄹㅣ -2270
▁ㅍㅕㅇㅎㅘ -2271
▁ㅈㅗㅇㅎㅏㅂ -2272
▁ㅁㅕㄹ -2273
▁ㅇㅝㄴㅇㅣㄴ -2274
ㅏㅁㅣ -2275
▁ㅂㅕㅇㅇㅝㄴ -2276
▁ㄱㅏㅇㅣ -2277
▁ㅇㅣㄱㅗㅅ -2278
ㄷㅣㄴ -2279
ㅇㅜㅇ -2280
▁ㅊㅜㅈㅣㄴ -2281
▁ㄷㅓㄹ -2282
▁ㅁㅕㄴㅈㅓㄱ -2283
▁500 -2284
▁ㄴㅓㄹㄹㅣ -2285
▁ㅅㅡㅇㅟ -2286
▁ㅇㅣㄴㅌㅓㄴㅔㅅ -2287
▁the -2288
ㅇㅗㄱ -2289
▁ㅇㅏㅈㅣㄱ -2290
▁ㅅㅟㅂ -2291
▁ㅈㅜㅇㅕㄴ -2292
▁ㅇㅏㅅ -2293
▁ㄴㅔㄷㅓㄹㄹㅏㄴㄷㅡ -2294
ㅏㅇㅜ -2295
▁ㄷㅡㄴ -2296
▁ㅇㅣㄷㅡㅁ -2297
▁ㅍㅖㅈㅣ -2298
am -2299
ㅗㄴㅏ -2300
▁ㅁㅏㄴㅎㅘ -2301
▁ㅇㅠㄹㅐ -2302
▁ㅂㅓㄴㅎㅗ -2303
▁ㅇㅕㅇㅇㅕㄱ -2304
▁ㄱㅏㅅㅡ -2305
▁ㅎㅐㅅㅓㄱ -2306
▁ㅅㅓㅂㅜ -2307
ㅂㅣㅇㅏ -2308
▁ㅈㅔㅈㅜ -2309
▁ㄱㅕㅇㄱㅣㅈㅏㅇ -2310
ㅇㅐㄱ -2311
▁ㄷㅗㅅㅓ -2312
▁ㅎㅜㄴㄹㅕㄴ -2313
▁ㅅㅔㅇㅝ -2314
▁ㅊㅗㅇㄹㅣ -2315
ㅇㅚ -2316
▁ㄱㅕㅇㅈㅐㅇ -2317
▁ㅋㅣㄹ -2318
▁80 -2319
▁ㄱㅓㄷㅜ -2320
▁ㄹㅕㄴㅡㄴ -2321
▁188 -2322
▁ㅁㅔㄹ -2323
▁ㅁㅣㅅㅜㄹ -2324
▁ㄱㅡㄹㅣ -2325
▁ㄱㅜㄱㅎㅚㅇㅢㅇㅝㄴ -2326
▁ㄱㅞ -2327
▁ㅈㅗㅈㅣ -2328
▁ㅍㅏㅂ -2329
▁ㄱㅣㅇㅕ -2330
▁ㅇㅓㄸㅓ -2331
▁ㄱㅕㅇㅇㅕㅇ -2332
ㅂㅓㄴ -2333
▁ㅇㅣㄷㅡㅁㅎㅐ -2334
▁UE -2335
▁ㅁㅔㄱ -2336
▁ㅇㅕㄴㅁㅐㅇ -2337
▁+ -2338
▁ㅎㅚㅈㅏㅇ -2339
▁ㅍㅏㄱㅚ -2340
il -2341
▁ㄴㅏㅁㅅㅓㅇ -2342
▁ㅅㅣㄴㄹㅏ -2343
▁ㅈㅏㅈㅜ -2344
▁ㅁㅓㅁ -2345
▁ㅈㅜㅈㅔ -2346
▁1994 -2347
▁ㄱㅕㅇㄱㅖ -2348
▁ㅈㅔㅇㅏㄴ -2349
▁ㅎㅐㅇㅅㅓㅇ -2350
▁ㅇㅏㄹㅡㅁ -2351
▁ㅇㅓㄹㅕㅇ -2352
ㅎㅔㄴ -2353
ㅇㅗ -2354
▁ㅅㅐㅇㅁㅜㄹ -2355
▁ㅇㅕㄱㅕ -2356
ㅅㅡㄹㅗ -2357
ㅜㄹㅡㅋㅡ -2358
▁ㅁㅜㄷ -2359
▁ㅅㅣㄱㅁㅣㄴ -2360
▁UEFA -2361
▁ㅅㅗㅈㅐ -2362
▁ㅈㅓㅇㅅㅏㅇ -2363
▁ㄷㅐㅅㅏ -2364
▁ㄴㅗㄹㅕㄱ -2365
▁ㅂㅜㅈㅓㅇ -2366
▁ㄴㅏㅇㅗㄴ -2367
ㅏㅎ -2368
ㅗㄹㄹㅣㄱ -2369
▁ㅂㅏㄹㄷㅏㄹ -2370
▁1970 -2371
▁ㅂㅓㅂㄹㅠㄹ -2372
▁ㅍㅗㄹㄹㅏㄴㄷㅡ -2373
▁ㅇㅣㅂㅈㅏㅇ -2374
▁ㄷㅜㄴ -2375
ㅈㅔㄹ -2376
ac -2377
▁ㄷㅡㅇㄹㅗㄱ -2378
ㄴㅕ -2379
▁ㅇㅕㄴㄱㅜㅅㅗ -2380
▁ㅌㅜㅅㅜ -2381
▁ㅇㅗㄹㅡㄴ -2382
▁ㅅㅏㅁㅅㅓㅇ -2383
▁ㅇㅣㄹㅇㅡㅋ -2384
ㅜㄹㅕ -2385
▁ㅇㅘㄴㅈㅓㄴㅎㅣ -2386
▁ㅂㅗㄷㅗ -2387
▁ㄱㅡㄹㅓㄴ -2388
ㅌㅏㅂ -2389
ㅇㅏㄱㅏ -2390
▁ㅍㅛㄱㅣ -2391
▁ㄱㅏㅇㅇㅝㄴ -2392
▁ㅇㅛㅊㅓㅇ -2393
ㅝㄷㅡ -2394
▁ㅂㅏㄱㅁㅜㄹ -2395
▁ㄷㅗㅇㅂㅜ -2396
▁ㅈㅣㅈㅣㄴ -2397
▁ㄹㅏㄷㅣㅇㅗ -2398
▁KBS -2399
ㄹㅛㅇ -2400
▁ㄹㅑㅇ -2401
▁ㅂㅕㄱ -2402
▁ㅂㅏㅌㅏㅇ -2403
▁ㅇㅏㅅㅓ -2404
▁ㄹㅏㅇㅣㄴ -2405
ㅅㅡㅋ -2406
▁ㅃㅏ -2407
▁ㅈㅏㅊㅣ -2408
▁ㅊㅔㅇ -2409
▁ㅍㅕㄹ -2410
▁ㅂㅏㄲㅟ -2411
▁ㅈㅗㄱㅏㄱ -2412
▁ㄷㅐㅊㅔ -2413
▁ㄴㅚ -2414
ㅑㅁㅏ -2415
▁ㅈㅓㅇㅅㅣㄱ -2416
▁ㄱㅏㄹㅡ -2417
▁ㅇㅜㅁㅈㅣㄱ -2418
ㅣㅅ -2419
▁ㅇㅕㅇㅌㅗ -2420
▁ㄷㅡㄹㅇㅓㄱ -2421
▁ㅅㅓㅅㅣㄱ -2422
▁1992 -2423
▁ㅇㅣㄴㅅㅣㄱ -2424
▁ㅈㅓㅂㄱㅡㄴ -2425
▁ㄱㅕㄹㅅㅓㅇ -2426
ㅝㅋㅡ -2427
▁ㅅㅗㅍㅡ -2428
▁ㄴㅏㅁㅓㅈㅣ -2429
▁ㅁㅜㄷㅐ -2430
▁ㅇㅔㅇㅣ -2431
▁ㄴㅠㅅㅡ -2432
▁ㅌㅔㄴ -2433
▁ㄱㅡㄹㅣㄴ -2434
▁ㅇㅓㅂㅁㅜ -2435
ro -2436
ㄷㅜㄴ -2437
ㅎㅓ -2438
▁ㅈㅔㅈㅗ -2439
▁ㅁㅏㅊㅏㄴ -2440
▁ㅁㅏㅊㅏㄴㄱㅏㅈㅣ -2441
▁ㅇㅚㄱㅛ -2442
▁ㅍㅣㄹㄹㅣ -2443
▁ㅈㅓㄴㅎㅐ -2444
▁ㅂㅏㄴㅁㅕㄴ -2445
ㅣㅇㅗㄴ -2446
▁ㅊㅓㄹㅎㅏㄱ -2447
▁45 -2448
▁ㅇㅡㄴㅎㅐㅇ -2449
▁ㅉㅏㄼ -2450
▁ㄱㅗㅇㅈㅏㄱ -2451
▁ㅅㅡㅅㅡㄹㅗ -2452
ㅈㅔㄴ -2453
▁ㅆㅡㄹ -2454
ed -2455
▁ㅅㅜㅎㅏㄱ -2456
▁ㅋㅔㅇㅣ -2457
▁of -2458
▁ㄱㅏㅌㅗㄹㄹㅣㄱ -2459
▁ㅂㅏㄷㅇㅏㄷㅡㄹ -2460
▁ㅈㅣㄷㅐ -2461
▁ㄱㅣㅊㅗ -2462
▁36 -2463
▁ㄱㅓㅂㅜ -2464
▁ㅅㅡㅇㅞ -2465
ㅅㅣㅋㅗ -2466
▁ㅂㅏㄱㅁㅜㄹㄱㅘㄴ -2467
▁ㅈㅣㅂㅎㅏㅂ -2468
▁ㅇㅣㅁㅅㅣ -2469
ㄱㅓㄹㅣ -2470
▁ㅊㅗㄴ -2471
▁ㄷㅏㅇㅎㅐㅆ -2472
▁ㅇㅠㄹㅗ -2473
▁ㅂㅏㄱㅅㅏ -2474
ㅈㅜㅅㅣ -2475
▁ㅁㅣㄴㅈㅜㄷㅏㅇ -2476
▁ㅂㅏㄹㅅㅏ -2477
▁ㅂㅗㄱㄱㅟ -2478
▁ㄱㅡㅁㅈㅣ -2479
▁ㅂㅡㄹㅏㅈㅣㄹ -2480
▁ㅊㅗㄷㅐ -2481
▁ㅈㅜㅇㅢ -2482
▁ㅅㅓㅇㄱㅕㄱ -2483
▁ㄷㅏㅅㅜ -2484
▁ㅅㅏㅇㅎㅗ -2485
ㅣㅂㅡ -2486
▁ㅅㅜㅁㅏ -2487
▁ㅈㅣㄷㅗㅈㅏ -2488
ig -2489
▁ㄴㅗㄴㄹㅏㄴ -2490
ㅅㅡㅌㅏ -2491
▁ㅎㅘㅎㅏㄱ -2492
▁ㅇㅕㅎㅐㅇ -2493
▁ㅇㅢㅅㅣㄱ -2494
▁ㄹㅗㅆㅓ -2495
▁ㄱㅣㄱㅜ -2496
▁ㄷㅡㄹㅇㅓㅇ -2497
▁ㅇㅕㄹㅡㅁ -2498
ㅋㅡㄹㄹ -2499
▁ㅁㅏㅅ -2500
▁ㅁㅜㄱㅣ -2501
▁ㅊㅏㅇㅝㄴ -2502
▁ㅈㅏㅇㅅㅗ -2503
▁ㅆㅡㅇㅣ -2504
▁ㄷㅣㅅㅡ -2505
ㅈㅔㄹㅗ -2506
▁ㄱㅖㅇㅕㄹ -2507
▁ㅅㅗㄹㅣ -2508
ㅣㄹㄹㅏ -2509
▁1991 -2510
▁1960 -2511
ㄷㅔㄹ -2512
▁ㅁㅏㄹㅣ -2513
▁ㅅㅣㄱㅁㅜㄹ -2514
▁ㄱㅐㄱㅜㄱ -2515
▁ㄱㅡㄷㅐㄹㅗ -2516
▁ㅎㅐㄱㅕㄹ -2517
▁ㅇㅕㄴㄱㅡㄱ -2518
▁ㅋㅏㄷㅡ -2519
▁ㅅㅣㄹㅈㅔㄹㅗ -2520
▁ㄱㅘㄴㅊㅡㄱ -2521
▁ㅂㅗㅅㅜ -2522
ㅌㅡㅇㅞㅇㅓ -2523
▁ㅅㅡㅇㅞㄷㅔㄴ -2524
▁ㅈㅣㄴㅏㄴ -2525
▁ㅅㅗㅍㅡㅌㅡㅇㅞㅇㅓ -2526
▁ㄷㅡㄱㅈㅓㅁ -2527
▁ㄷㅓㅂㅜㄹ -2528
▁ㅂㅔㄹㅡ -2529
▁ㅅㅜㅁ -2530
▁ㅋㅗㅁ -2531
ㄹㅏㅇ -2532
▁ㅇㅣㅇㅚ -2533
ㅂㅐㅇㅜ -2534
ㅌㅓㅂ -2535
▁ㄲㅡ -2536
ㅔㅇㅣㄹㄹㅣㅇㅏ -2537
ㅈㅏㄹ -2538
▁ㅁㅛㅅㅏ -2539
▁1993 -2540
▁ㅇㅏㅇㅣㄹㄹㅐㄴㄷㅡ -2541
▁ㅈㅔㄴ -2542
▁ㄱㅏㄹㅣㅋ -2543
▁ㅊㅏㅌㅡ -2544
ㄹㅡㅇ -2545
▁ㅅㅠㅍㅓ -2546
▁ㅎㅚㅇㅝㄴ -2547
▁ㅈㅏㅇㅇㅐ -2548
▁ㄷㅏㄴㅅㅜㄴ -2549
▁ㅎㅘㄹㅇㅛㅇ -2550
ㅇㅠㅇ -2551
▁ㅋㅐㄹㅣㄱ -2552
▁ㅂㅜㄴㅍㅗ -2553
▁ㅇㅏㄴㅈㅓㄴ -2554
▁ㄱㅡㄴㅊㅓ -2555
▁ㄱㅣㄱㅖ -2556
▁ㄱㅓㅁㅅㅏ -2557
▁ㄱㅏㅇㄹㅕㄱ -2558
▁ㅈㅗㅅㅓㅇ -2559
ㄹㅣㄴㄷㅏ -2560
▁ㅈㅣㄹㄹ -2561
▁33 -2562
▁ㅁㅜㅇㅕㄱ -2563
▁ㅈㅔㅅㅣ -2564
▁ㅍㅛㅅㅣ -2565
ㅌㅡㄱㅂㅕㄹㅅㅣ -2566
▁ㅇㅕㄱㅐㄱ -2567
▁ㅂㅏㄹㅎㅐㅇ -2568
ㅋㅏㅇ -2569
▁ㅅㅓㅇㅜㄹㅌㅡㄱㅂㅕㄹㅅㅣ -2570
▁ㅎㅕㅇㅈㅔ -2571
od -2572
▁ㅊㅗㅇㅅㅓㄴ -2573
▁ㄱㅓㄴㄴ -2574
ㅓㄴㅏㄴ -2575
▁ㅂㅏㅇㅣㄹ -2576
▁ㅇㅗㅅㅡㅌㅡㄹㅣㅇㅏ -2577
▁ㅍㅐㅂㅐ -2578
▁ㅊㅔㄱ -2579
▁ㅇㅟㄹㄹㅣㅇ -2580
ㄱㅘㅇㅇㅕㄱㅅㅣ -2581
▁ㅊㅐㄴ -2582
▁ㅎㅡㅂ -2583
▁ㅁㅣㄹㄹ -2584
▁ㅈㅣㅎㅏㅊㅓㄹ -2585
▁ㅅㅡㅌㅠ -2586
▁ㅅㅡㅂㄴㅣㄷㅏ -2587
▁ㄱㅝㄴㄹㅕㄱ -2588
▁ㅍㅏㅇㅣㄹ -2589
ㅠㄴ -2590
▁ㅈㅜㅇㄱㅏㄴ -2591
ㄷㅏㅁㅕㄴ -2592
▁ㅂㅏㄴㄹㅏㄴ -2593
▁ㅁㅣㅅㅏㅇ -2594
▁ㅅㅏㅇㅣㅌㅡ -2595
▁ㅈㅜㅇㄷㅏㄴ -2596
▁ㄲㅡㄹ -2597
▁ㄷㅏㄴㅇㅓ -2598
▁ㅌㅓㄴ -2599
▁ㄴㅏㅌㅏㄴㅐ -2600
ㅈㅣㅅㅕㄴ -2601
▁ㄱㅕㅇㅅㅏㅇㄴㅏㅁㄷㅗ -2602
▁ㅆㅡㄴ -2603
ㅔㅇㅓ -2604
▁ㅅㅣㅎㅐㅇ -2605
ㄱㅚ -2606
▁ㅊㅡ -2607
▁186 -2608
as -2609
▁ㅋㅐㄹㅣㄱㅌㅓ -2610
ve -2611
▁ㅇㅟㅎㅓㅁ -2612
▁ㅋㅓㄹ -2613
ㅅㅓㅂ -2614
▁ㅇㅣㄹㅈㅓㅇ -2615
▁ㅅㅔㄷㅐ -2616
▁ㄷㅏㅁㅏㄴ -2617
▁ㅎㅕㅂㄹㅕㄱ -2618
▁ㄱㅣㅈㅏ -2619
▁ㅁㅓㄴㅈㅓ -2620
▁ㅈㅣㅈㅓㄱ -2621
▁ㅎㅐㅇㅏㄴ -2622
▁ㄷㅏㄹㅣ -2623
▁ㅇㅗㅅㅡㅌㅡㄹㅔㅇㅣㄹㄹㅣㅇㅏ -2624
▁ㅇㅗㄹㅡ -2625
ㅇㅣㄱ -2626
ㅈㅡㄴ -2627
▁ㅊㅜㄴ -2628
▁ㅅㅜㄴㅇㅟ -2629
▁ㄱㅕㅇㅅㅏㅇㅂㅜㄱㄷㅗ -2630
ㅏㄷㅗ -2631
▁", -2632
▁ㅇㅗㅂㅡ -2633
ㅅㅏㅋㅏ -2634
▁ㄷㅣㅈㅣ -2635
▁ㅎㅖ -2636
▁ㄷㅗㅊㅏㄱ -2637
▁ㄲㅜㅁ -2638
▁ㅅㅐㅇㅅㅓㅇ -2639
▁ㅌㅐㅍㅕㅇ -2640
▁ㅁㅏㄴㅋㅡㅁ -2641
▁ㅎㅜㄱㅣ -2642
▁ㅂㅓㄴㅇㅕㄱ -2643
ㅔㄴㅌㅡ -2644
▁ㄱㅘㅇㅈㅜ -2645
ㅅㅗㄴㅕㄴ -2646
ㅁㅕ -2647
▁ㄴㅐㄱㅏㄱ -2648
▁ㅅㅜㅁㅏㄶ -2649
▁ㅂㅏㅇㅣ -2650
▁ㅇㅕㄴㅈㅏㅇ -2651
▁ㅍㅏㄱㅕㄴ -2652
▁ㅈㅣㅅㅏㅇ -2653
▁ㅅㅣㄹㅈㅔ -2654
▁ㅇㅟㄹㄹㅣㅇㅓㅁ -2655
▁ㄱㅘㄴㄱㅘㅇ -2656
▁ㄱㅗㅇㅈㅏㅇ -2657
▁ㅈㅜㄱㅇㅡㅁ -2658
▁ㄴㅣㅁ -2659
▁ㅍㅣㄱ -2660
▁ㅇㅠㅎㅕㅇ -2661
▁ㅍㅡㄹㄹㅐ -2662
▁ㅂㅗㄴㅂㅜ -2663
▁ㅌㅗㅇㅎㅏ -2664
▁ㅅㅓㄴㄱ -2665
▁ㄲㅐ -2666
▁ㅅㅔㅅㅏㅇ -2667
▁1988 -2668
ㅂㅗㄹ -2669
▁ㅁㅠㅈㅣㄱ -2670
▁ㄷㅗㅇㅅㅐㅇ -2671
▁ㄹㅣㅁ -2672
▁ㅈㅚ -2673
▁ㅋㅗㄷㅡ -2674
▁ㅂㅏㅇㅇㅓ -2675
ㅗㅅㅔ -2676
▁ㅇㅑㅇㅅㅣㄱ -2677
▁ㅂㅗㅈㅗㄴ -2678
▁ㅅㅏㄻ -2679
ㅔㅇㅣㄷㅡ -2680
▁ㅇㅏㅋㅏ -2681
▁ㄴㅏㅂ -2682
▁ㄱㅡㄴㄱㅓ -2683
ㄷㅐㅇ -2684
▁ㄴㅜㄱ -2685
▁ㅇㅝㄴㅅㅗ -2686
▁ㄱㅡㄱㅈㅏㅇ -2687
▁187 -2688
▁ㄱㅕㄲ -2689
▁ㅅㅏㅇㅈㅣㅇ -2690
▁ㅂㅗㅇㅠ -2691
▁ㅂㅓㄹㅇㅓ -2692
ㅁㅕㄹ -2693
ㅁㅜㅇㅝㄴ -2694
▁ㅇㅔㅅㅡ -2695
ㅡㄹㅣ -2696
▁ㅌㅜㅈㅏ -2697
▁ㄱㅏㅁㅅㅗ -2698
▁ㅅㅔㅇㅝㅆ -2699
▁ㄱㅟㅈㅗㄱ -2700
ㅇㅡㅂ -2701
▁ㅎㅕㅁ -2702
▁ㄱㅠㄴ -2703
ㅎㅣㄴ -2704
▁ㅂㅏㄲㅜ -2705
▁ㅈㅣㅅㅣㄱ -2706
▁ㅎㅏㄱㅇㅟ -2707
▁ㅈㅓㄴㄹㅏㄴ -2708
▁ㅊㅘㄹ -2709
▁ㅂㅜㅇㅕ -2710
▁ㄱㅡㄴㅁㅜ -2711
▁ㅎㅘㄱㄷㅐ -2712
▁ㅇㅕㅇㅅㅏㅇ -2713
▁ㄷㅣㅈㅣㅌㅓㄹ -2714
▁ㅂㅡ -2715
▁ㅎㅔㄴ -2716
▁ㅅㅏㅇㅇㅓㅂ -2717
▁ㅍㅗㄹㅡㅌ -2718
▁ㄷㅏㄹㅅㅓㅇ -2719
▁ㄷㅏㄴㅇㅟ -2720
▁ㄸㅓㄴㅏ -2721
ㅋㅏㄹ -2722
▁ㅂㅏㄹㅁㅐㄷㅚ -2723
▁? -2724
▁ㅅㅓㅇㄹㅣㅂ -2725
▁ㅈㅔㄱㅣ -2726
▁ㅇㅣㄴㅅㅏ -2727
▁ㅈㅔㅇㅣㅁ -2728
▁ㅇㅘㄴㅅㅓㅇ -2729
▁ㅊㅐㅇ -2730
▁ㄸㅏㄹㅡㄴ -2731
▁ㄴㅏㅎ -2732
id -2733
▁ㅇㅕㅍ -2734
▁ㄷㅐㅇㅡㅇ -2735
ㅅㅣㅅㅡ -2736
▁ㅁㅔㄱㅅㅣㅋㅗ -2737
▁34 -2738
ㅣㄴㅗ -2739
▁ㅈㅗㅇㅁㅗㄱ -2740
ㄹㄹ -2741
ㅎㅚㅅㅏ -2742
ㅂㅔㄹㅡ -2743
▁ㅈㅓㄴㄹㅑㄱ -2744
▁ㅁㅗㅅㅎㅏㄴ -2745
▁ㄱㅖㅅㅡㅇ -2746
▁38 -2747
▁ㅂㅏㄺㅎㅕ -2748
▁ㅊㅘㄹㅇㅕㅇ -2749
▁ㅎㅏㄹㅜ -2750
▁ㅇㅔㄱ -2751
▁2021 -2752
▁ㅁㅣㅌ -2753
▁ㄷㅡㄷ -2754
▁h -2755
▁ㅎㅜㄱ -2756
ㄹㅏㅁ -2757
▁ㅇㅏㄹㄹㅔㄱㅅㅏㄴ -2758
▁ㅅㅣㄱㅁㅣㄴㅈㅣ -2759
ㅣㄹㅏ -2760
▁ㅋㅗㅊㅣ -2761
▁ㅊㅔㄱㅕㄹ -2762
▁ㅅㅡㅇㄱㅕㄱ -2763
▁ㄱㅐㅌㅗㅇ -2764
ㅊㅣㅇㅣㄴ -2765
▁ㅂㅗㅅ -2766
▁ㅇㅣㅈㅣㅂ -2767
ec -2768
▁ㄱㅜㄱㅇㅘㅇ -2769
▁ㅈㅜㅅㅣㄱ -2770
▁ㄷㅏㅇㅅㅓㄴ -2771
ㅁㅕㅊ -2772
▁ㅁㅕㅊㅁㅕㅊ -2773
▁ㅌㅔㄱ -2774
▁90 -2775
ㅜㄴㄷㅏ -2776
▁ㄴㅏㅈㅜㅇ -2777
▁ㄷㅗㅇㄱㅖ -2778
▁1989 -2779
▁ㅇㅣㄹㅏㄴ -2780
▁ㅁㅜㄴㅎㅘㅈㅐ -2781
ㅍㅜㄹ -2782
ㅂㅓㅌㅡ -2783
▁ㄷㅗㅅㅓㄱㅘㄴ -2784
▁ㄹㅏㄱ -2785
▁ㅅㅣㄴㅐ -2786
▁ㄱㅡㄹㅓㅎ -2787
▁ㅎㅗㅇㅋㅗㅇ -2788
▁ㅅㅣㅊㅓㅇ -2789
▁ㅊㅐㄴㅓㄹ -2790
▁ㅈㅓㄴㄷㅏㄹ -2791
ㅇㅓㄴㅏ -2792
ㅏㅅㅡ -2793
▁ㅈㅓㅇㅊㅣㅇㅣㄴ -2794
ㅎㅕㄹ -2795
▁ㅇㅏㄴㅐ -2796
▁ㅌㅡㄱㅅㅜ -2797
▁ㄹㅠㄹ -2798
us -2799
ㅊㅗㄱ -2800
▁ㅅㅣㅌㅣ -2801
▁ㄷㅐㄹㅠㄱ -2802
▁ㅌㅓㅁ -2803
▁48 -2804
▁ㅁㅏㅇㅣㅋㅡ -2805
ㅗㄹㄹㅣㄴ -2806
and -2807
ㅏㅁㄷㅗ -2808
▁ㅅㅐㅇㅁㅕㅇ -2809
▁ㅇㅟㄱㅣ -2810
▁ㅇㅣㅍ -2811
▁ㅊㅔㅍㅗ -2812
▁ㅇㅡㅁㅡㄹㅗ -2813
ㅣㅌㅡ -2814
▁ㅁㅣㅅㅏㅇㅣㄹ -2815
▁ㅅㅣㅋㅣㄴ -2816
▁ㅊㅡㄱㅈㅓㅇ -2817
▁ㅂㅗㄴㄱㅘㄴ -2818
▁ㅇㅗㅅㅡ -2819
▁ㅌㅏㅇㅣㅌㅡㄹ -2820
▁ㅌㅗㅁ -2821
▁ㅈㅣㄱㅎㅜ -2822
▁ㅁㅓㄹ -2823
▁ㅇㅣㄹㅓㅎㄱㅔ -2824
▁ㅂㅗㅇㅕㅆ -2825
▁ㄱㅝㄴㄹㅣ -2826
ㅁㅜㄱ -2827
▁ㄱㅏㄹㅣㅋㅣㄴㄷㅏ -2828
▁ㅁㅣㄱㅜㄴ -2829
▁ㅅㅓㄹㅈㅓㅇ -2830
▁ㅅㅣㅍ -2831
ㅅㅣㅁㅏ -2832
▁ㅋㅏㅇㅜㄴ -2833
▁ㄱㅘㄴㅊㅏㄹ -2834
▁ㄷㅠ -2835
▁ㅂㅜㄹㅡㄴㄷㅏ -2836
▁ㅈㅓㄴㅎㅘㄴ -2837
▁ㅁㅔㄴ -2838
▁ㅅㅡㅋㅗ -2839
▁ㅈㅓㄻ -2840
ㅈㅜㄹ -2841
▁ㅅㅗㅅㅜ -2842
▁ㅈㅓㄴㄹㅏㄴㅏㅁㄷㅗ -2843
ㅗㅁ -2844
▁e -2845
▁ㅈㅓㄴㅅㅣ -2846
▁ㄷㅜㅇ -2847
▁ㅍㅏㄴㄷㅏㄴ -2848
▁ㅌㅡㄱㅅㅓㅇ -2849
▁ㅈㅡㄹ -2850
▁| -2851
▁1950 -2852
▁ㅇㅠㄹㅣ -2853
▁ㄷㅏㄹㅜ -2854
ㅇㅝㄹ -2855
▁ㅈㅔㅈㅓㅇ -2856
ㅋㅗㄷㅡ -2857
▁ㄸㅓㄹㅇㅓㅈㅣㄴ -2858
▁ㅈㅗㅇㄹㅛ -2859
▁ㄱㅣㅎㅚㄱ -2860
▁', -2861
▁ㅊㅟㅇㅣㅁ -2862
▁ㅊㅜㄹㅅㅐㅇ -2863
NA -2864
▁ㄱㅐㅈㅓㅇ -2865
▁300 -2866
▁MBC -2867
ㅖㄴ -2868
ad -2869
▁ㅅㅣㄴㄱㅕㅇ -2870
▁ㄱㅕㄹㅅㅡㅇㅈㅓㄴ -2871
▁ㄷㅐㄴ -2872
▁ㅆㅏㅎ -2873
ㅍㅣㅇ -2874
ㅌㅡㅇㅝㅋㅡ -2875
▁ㅇㅏㄹㅏㅂ -2876
▁ㅊㅓㅇㄴㅕㄴ -2877
▁ㅅㅜㅅㅏ -2878
▁ㅍㅏㅇㅣ -2879
▁ㄱㅖㅅㅏㄴ -2880
▁ㅈㅜㅇㅣㄴㄱㅗㅇ -2881
ㅣㅇㅔㄹ -2882
▁ㅅㅣㅇㅟ -2883
▁ㅇㅣㄹㅏㄱㅗ -2884
▁ㅇㅔㅁ -2885
▁ㅇㅡㅁㅅㅣㄱ -2886
▁ㅍㅡㄹㄹㅔㅇㅣ -2887
ent -2888
ㅣㅇㅓㄹ -2889
▁ㅈㅣㅇㅟ -2890
▁ㅂㅓㅁㅈㅚ -2891
▁ㅈㅔㅇㅣㅁㅅㅡ -2892
▁ㅂㅏㅇㅣㄹㅓㅅㅡ -2893
▁ㄹㅜㅁ -2894
▁ㅅㅏㅎㅚㅈㅜㅇㅢ -2895
▁ㄴㅗㄱㅇㅡㅁ -2896
▁ㅅㅜㅈㅓㅇ -2897
▁ㄴㅔㅌㅡㅇㅝㅋㅡ -2898
▁1945 -2899
▁ㅈㅏㅂㅗㄴ -2900
▁ㅁㅏㄴㄷㅡ -2901
▁ㅍㅗㅁ -2902
▁ㅇㅢㄱㅕㄴ -2903
▁ㅇㅣㅈㅣㅂㅌㅡ -2904
▁ㄴㅜ -2905
ㅁㅗㅅ -2906
▁ㅊㅜㅇㄷㅗㄹ -2907
▁ㄱㅛㅊㅔ -2908
▁ㅊㅓㄴㅎㅘㅇ -2909
▁ㅇㅡㄴㅎㅏ -2910
▁ㅍㅡ -2911
▁ㅈㅡㄱㅇㅟ -2912
▁ㅅㅗㄱㅐ -2913
▁ㅈㅜㅁㅗㄱ -2914
▁ㅅㅜㅂㅣ -2915
ㄲㅣ -2916
▁ㅊㅔㅇㅠㄱ -2917
▁ㅎㅐㅇㅚ -2918
▁ㅂㅓㅅ -2919
▁ㅇㅣㄹㅐ -2920
▁ㅂㅣㅇㅛㅇ -2921
▁ㅇㅣㄹㅇㅓㄴㅏㄴ -2922
▁ㅈㅏㄱㅕㄱ -2923
▁ㅅㅗㅈㅏㅇ -2924
▁ㅍㅗㅈㅣㅅㅕㄴ -2925
▁ㅅㅓㅇㅇㅜ -2926
▁ㄱㅓㄴㄱㅏㅇ -2927
▁ㅅㅡㅋㅣ -2928
ㅣㄴㅏ -2929
▁ㄱㅏㄹㅣㅋㅣ -2930
▁ㅂㅗㄴㄹㅐ -2931
▁ㄷㅔㅇㅣㅂㅣ -2932
▁ㄴㅏㅁㅂㅜㄱ -2933
▁ㄹㅜㅇㅣ -2934
ㅅㅡㄹㄹ -2935
▁ㅇㅣㄴㄱㅡㄴ -2936
▁ㄱㅐㅅㅓㄴ -2937
▁ㄱㅗㅇㄱㅡㅂ -2938
▁ㅎㅏㅂㄹㅠ -2939
▁ㄱㅞㄷㅗ -2940
50 -2941
▁ㅂㅐㄱㅕㅇ -2942
▁ㄱㅗㅇㅂㅜ -2943
▁ㅁㅣㄹㅐ -2944
▁ㅇㅣㅅㅡㄹㄹ -2945
▁ㄱㅏㅇㅎㅏㄴ -2946
▁ㅈㅓㄴㅊㅏ -2947
ㅅㅏㄱㅘㄴ -2948
▁ㅈㅔㄱㅓ -2949
ㅏㄴㅗ -2950
▁ㅁㅕㅇㄷㅏㄴ -2951
ㅇㅓㅄ -2952
▁ㄱㅗㅇㄱㅜㄴ -2953
▁ㅇㅚㄴ -2954
▁ㄹㅗㅁ -2955
▁ㅂㅗㄴㅐㅆ -2956
ㅓㅈㅣㄴ -2957
ㄷㅗㅇㅜ -2958
▁ㅇㅛㅅㅣ -2959
▁ㅁㅕㅇㅇㅖ -2960
ㅑㄴ -2961
▁ㅈㅏㄱㅅㅓㅇ -2962
▁ㄱㅖㄱㅣ -2963
▁ㄱㅏㅁㅇㅕㅁ -2964
ㅏㅇㅔㄹ -2965
▁ㅇㅣㅈㅜ -2966
ㅈㅓㄴㅎㅣ -2967
▁ㄱㅏㅇㅣㅂ -2968
ㅋㅏㅇㅣ -2969
▁ㄱㅜㄱㄱㅕㅇ -2970
▁ㄱㅏㄱㅈㅗㅇ -2971
▁ㅌㅓㄹ -2972
ㅓㄱㅜ -2973
▁ㅇㅝㄴㅈㅓㅇ -2974
▁ㅇㅣㅅㅡㄹㄹㅏㅁ -2975
▁ㅊㅓㄴㅁㅜㄴ -2976
▁ㅅㅜㅍ -2977
▁ㅂㅜㅁㅗ -2978
▁ㄱㅣㅎㅜ -2979
▁ㄱㅜㄴㅇㅣㄴ -2980
▁ㅌㅓㅁㅣㄴ -2981
▁ㅇㅣㅂㅎㅏㄱ -2982
▁ㅇㅣㄺ -2983
▁ㅅㅚ -2984
ㅋㅗㄹ -2985
▁ㅈㅏㅇㅝㄴ -2986
▁ㅂㅣㅁㅣㄹ -2987
▁ㅇㅜㄹㅅㅏㄴ -2988
▁ㅈㅣㄹㄹㅑㅇ -2989
▁ㅅㅣㄴㅎㅏㄱ -2990
▁St -2991
▁x -2992
▁ㄱㅓㄷㅐ -2993
▁ㅌㅡㄹㅣ -2994
▁ㄱㅏㄱㅕㄱ -2995
▁ㅇㅡㅁㅕㄴㅅㅓ -2996
▁ㅋㅏㅇㅣ -2997
▁ㅈㅣㅂㅈㅜㅇ -2998
▁ㅆㅓㅆ -2999
ㅋㅓㅅ -3000
ㄷㅗㄹㅗ -3001
▁ㄴㅏㄴㅜ -3002
ㅗㅌㅗ -3003
ㅣㄹㄹㅓ -3004
ot -3005
▁ㅈㅓㄴㅅㅏ -3006
▁ㄴㅗㅇㅇㅓㅂ -3007
▁ㄱㅏㅇㅇㅝㄴㄷㅗ -3008
ㅋㅡㅅㅡ -3009
▁ㅂㅡㄹㅣ -3010
▁ㅅㅗㅅㅗㅇ -3011
▁ㅅㅣㅁㄹㅣ -3012
▁ㅅㅣㄹㅎㅐㅇ -3013
▁ㄱㅏㄲㅏㅇㅜㄴ -3014
▁ㅂㅡㄹㄹㅐㄱ -3015
▁ㅊㅓㅁ -3016
▁ㅇㅗㅍㅡㄴ -3017
▁ㅈㅓㅎㅏㅇ -3018
ㅊㅏㅁ -3019
▁ㅁㅜㄹㄹㅗㄴ -3020
▁ㄷㅟㅅ -3021
▁ㅎㅗㅁㄹㅓㄴ -3022
▁ㅈㅐㄹ -3023
▁ㅌㅐㅍㅕㅇㅇㅑㅇ -3024
▁ㅇㅏㅌ -3025
▁ㄱㅕㅇㅜㄹ -3026
▁ㅈㅣㄴㅐ -3027
▁ㅁㅏㄴㅇㅑㄱ -3028
▁in -3029
▁ㅌㅓㅁㅣㄴㅓㄹ -3030
▁ㅎㅏㄱㅁㅜㄴ -3031
un -3032
▁ㅊㅡㄱㅁㅕㄴ -3033
ㅊㅓㄹㄷㅗ -3034
▁ㅇㅗㅎㅜ -3035
▁ㅈㅓㅇㅊㅏㄱ -3036
▁ㅂㅕㅇㄹㅕㄱ -3037
ㅁㅗㅇ -3038
▁ㅇㅣㄴㅅㅜ -3039
▁ㅈㅕ -3040
ow -3041
ㅁㅗㄴ -3042
▁ㅈㅣㅅ -3043
▁ㅇㅑㄱㄱㅏㄴ -3044
▁ㅈㅡㅇㅁㅕㅇ -3045
▁37 -3046
ㅣㄴㅣ -3047
▁ㅁㅣㄹㄷㅗ -3048
▁ㅁㅜㅈㅏㅇ -3049
▁ㅍㅕㄴㅈㅣㅂ -3050
▁ㅇㅣㅅㅡㄹ -3051
ㄷㅏㅂ -3052
▁ㅇㅣㄹㅜㅇㅓㅈㅕ -3053
▁ㄲㅗㄹㅣ -3054
▁ㄱㅜㄱㅂㅏㅇ -3055
▁ㅊㅚㅅㅗ -3056
▁ㄱㅏㅇㅈㅗ -3057
▁ㅈㅔㅁㅗㄱ -3058
▁ㅅㅐㄴ -3059
▁ㅋㅐㄹㄹㅣ -3060
▁ㅇㅚㅂㅜ -3061
▁ㅁㅗㅇㄱㅗㄹ -3062
▁ㅂㅏㄹㅏㅁ -3063
▁ㅈㅣㅈㅓㅁ -3064
▁ㅅㅗㅂㅣ -3065
▁ㄱㅔㄴ -3066
ㅜㄱㅏㄹ -3067
▁ㅇㅕㅇㅎㅘㅂㅐㅇㅜ -3068
▁ㅊㅜㅇㅊㅓㅇㄴㅏㅁㄷㅗ -3069
▁ㅁㅏㅊㅣ -3070
▁ㅁㅣㄷㅣㅇㅓ -3071
▁ㅎㅐㅂㅏㅇ -3072
▁ㅂㅕㅇㅅㅏ -3073
▁1987 -3074
ㅍㅣㅇㅏ -3075
ㄷㅗㅇㅇㅏㄴ -3076
▁w -3077
▁ㅇㅏㅁㅏ -3078
▁ㅎㅘㄴㅈㅏ -3079
▁ㅎㅏㅂㅂㅕㅇ -3080
▁ㄱㅘㅇㄱㅗ -3081
ㅌㅣㄴㅏ -3082
▁ㅂㅗㅁ -3083
▁ㄱㅣㅎㅚ -3084
▁ㅁㅗㄹㄹ -3085
▁ㄱㅏㅈㅕㅆ -3086
▁ㄱㅡㅁㅇㅠㅇ -3087
▁ㅍㅛㅁㅕㄴ -3088
▁ㅇㅠㄷㅗ -3089
▁ㄴㅗㄷㅗㅇㅈㅏ -3090
▁ㄱㅡㅎㅐ -3091
ㅈㅣㅁ -3092
▁ㄹㅏㅇㅜㄴㄷㅡ -3093
▁ㅅㅓㄴㅅㅜㄷㅏㄴ -3094
▁ㄹㅕㅇ -3095
▁ㅎㅏㄱㄴㅕㄴ -3096
▁ㅎㅢㄴ -3097
▁ㅇㅟㄴㄷㅗㅇㅜ -3098
▁ㄷㅗㅈㅜㅇ -3099
▁ㅇㅏㅅㅣㅇㅏㄴ -3100
▁ㄴㅏㅇㅘㅆ -3101
▁ㅈㅐㅈㅣㄱ -3102
▁ㅇㅣㄴㅎㅏㄴ -3103
▁ㅇㅗㅅㅏㅋㅏ -3104
▁ㅁㅜㄹㅕㅂ -3105
ㄷㅡㅂ -3106
▁ㅅㅓㅇㄱㅘ -3107
▁ㅍㅗㄹㅡㅌㅜㄱㅏㄹ -3108
▁ㄷㅡㅇㄱㅡㅂ -3109
▁ㅍㅡㄹㅔ -3110
▁ㅌㅗㅇㅈㅔ -3111
▁ㄱㅏㅈㅊㅜ -3112
ur -3113
▁ㅁㅏㄹㅕㄴ -3114
▁ㅈㅓㄴㄹㅕㄱ -3115
ㅣㅇㅜㅅㅡ -3116
▁1984 -3117
▁ㅇㅑㅇㅅㅓㅇ -3118
▁1986 -3119
▁ㅎㅓㅇㅛㅇ -3120
▁41 -3121
▁ㅎㅡ -3122
▁ㅅㅣㄴㅎㅗ -3123
ㅈㅜㄱㅛ -3124
ㅇㅡㄹ -3125
▁ㄷㅐㅅㅜ -3126
ㅇㅛㅇㅣㄹ -3127
▁ㅇㅐㅇ -3128
▁ㅂㅜㄹㄹㅣㄴㄷㅏ -3129
▁ㅇㅖㅅㅜ -3130
▁ㅇㅗㄻㄱㅕ -3131
▁ㅎㅕㅁㅇㅢ -3132
▁ㅅㅡㅌㅠㄷㅣㅇㅗ -3133
ㅇㅏㅅㅣㅇㅏ -3134
▁ㅁㅣㄴㄱㅏㄴ -3135
▁51 -3136
▁ㅇㅣㅂㅓㄴ -3137
▁ㅋㅐㄹㄹㅣㅍㅗㄴ -3138
ㄱㅏㄹㅣ -3139
▁ㅅㅏㄹㅏ -3140
▁ㅂㅜㅇㄱㅚ -3141
ㅓㄱㅡ -3142
▁ㅈㅓㄴㅇㅕㄱ -3143
▁ㅈㅐㅅㅏㄴ -3144
▁ㅇㅔㄴㅌㅓ -3145
▁ㅊㅜㅇㅂㅜㄴ -3146
▁ㅈㅓㄴㅂㅏㄴ -3147
ㅐㄴㄷㅏ -3148
▁ㅇㅕㅈㅓㄴㅎㅣ -3149
▁ㅂㅗㄱㅗ -3150
▁ㄱㅗㅇㄱㅗㅇ -3151
▁ㄱㅗㅈㅓㄴ -3152
ㄴㅏㅁㅜ -3153
ㅏㄹㄹㅣㄴ -3154
ㅣㄹㅡ -3155
▁ㄱㅗㅇㅈㅜ -3156
▁ㅇㅟㅇㅝㄴㅈㅏㅇ -3157
▁ㅈㅐㅈㅓㅇ -3158
▁ㅋㅐㄹㄹㅣㅍㅗㄴㅣㅇㅏ -3159
▁ㅊㅔㄹ -3160
▁ㅅㅐㄹㅗ -3161
▁ㅅㅡㅇㅇㅣㄴ -3162
▁ㅇㅓㅂㅊㅔ -3163
▁ㄷㅐㅎㅏㄱㅇㅝㄴ -3164
ㄹㅚ -3165
▁ㄱㅕㅇㄹㅕㄱ -3166
▁ㄱㅖㄱㅡㅂ -3167
▁ㅁㅏㄹㅣㅇㅏ -3168
▁ㅇㅣㅁㅁㅜ -3169
▁ㅇㅏㄴㄷㅡㄹ -3170
▁ㅍㅣㄹㄹㅣㅍㅣㄴ -3171
ㅌㅡㄹㅣ -3172
▁ㄱㅜㅊㅜㄱ -3173
▁ㅇㅠㅇㅔㄴ -3174
ㅔㅅㅣㅇㅏ -3175
▁ㅇㅟㅅㅓㅇ -3176
▁ㅈㅓㄴㅅㅓㄴ -3177
▁ㄷㅏㅅㅓㅅ -3178
ㅇㅠㄱ -3179
▁ㅇㅣㄴㅎㅏ -3180
ㅇㅠㄴ -3181
ch -3182
▁ㅈㅓㄱㄱㅡㄱ -3183
▁ㅎㅕㄴㅅㅣㄹ -3184
ㅗㅋㅏ -3185
▁ㄷㅗㅇㄹㅛ -3186
▁ㅈㅏㅂㅈㅣ -3187
▁ㅅㅓㅇㅇㅣㄴ -3188
ㅅㅗㄹㅣ -3189
▁ㅅㅜㅇㅣㅂ -3190
▁ㅇㅟㅎㅕㅂ -3191
▁ㄷㅏㅂ -3192
ㅔㄹㄹㅔㅅㅡ -3193
ㄹㅏㅇㅣㄴ -3194
▁ㅂㅓㅁㅇㅟ -3195
▁ㅌㅗㄹㅗㄴ -3196
ㅇㅠㄹ -3197
ㄱㅛㅎㅚ -3198
▁ㅅㅜㄹㅣㅂ -3199
▁ㅊㅐㅌㅐㄱ -3200
▁ㅎㅏㅇㅅㅏㅇ -3201
▁ㄱㅡㄹㅕ -3202
▁ㄷㅐㄷㅐ -3203
▁ㅊㅜㄹㅂㅏㄹ -3204
ㅅㅓㅁ -3205
ㅌㅡㄹㅗ -3206
▁ㅇㅑㅇㅈㅏ -3207
ㅂㅜㅌ -3208
▁ㅇㅛㄱ -3209
▁ㅇㅣㅁㅣㅈㅣ -3210
▁ㅅㅗㅍㅡㅌㅡ -3211
▁39 -3212
▁ㅂㅏㅂ -3213
▁ㄱㅏㅇㅇㅢ -3214
▁ㅅㅔㅇㅣ -3215
ㅋㅜㅇ -3216
▁ㅋㅐㅁㅍ -3217
▁ㅈㅏㅇㅅㅣㄱ -3218
▁ㄱㅐㅍㅕㄴ -3219
▁ㄱㅓㄱ -3220
ㅈㅣㅅ -3221
▁ㄱㅡㄴㄷㅐ -3222
ㄹㅏㅂ -3223
▁ㄱㅛㅅㅏ -3224
▁ㅊㅜㅁ -3225
▁ㅌㅓㅋㅣ -3226
▁ㅁㅐㄴㅕㄴ -3227
ㄱㅏㅂ -3228
ㅡㅁㅏㄴ -3229
ㅐㅍㅡㅌㅡ -3230
▁ㅅㅜㄷㅏㄴ -3231
▁ㄱㅗㅇㅅㅏㄴㄷㅏㅇ -3232
▁400 -3233
▁ㅈㅓㄴㄱㅐ -3234
▁ㄴㅗㄴㅁㅜㄴ -3235
▁ㅇㅛㅎㅏㄴ -3236
▁ㅅㅓㄴㅅㅐㅇ -3237
▁ㅇㅝㄴㅊㅣㄱ -3238
▁ㅈㅓㄴㅎㅏ -3239
▁64 -3240
▁ㄱㅏㅇㅈㅔ -3241
▁ㄴㅏㅁㅍㅕㄴ -3242
▁ㅂㅕㄴㅎㅗ -3243
▁1985 -3244
▁ㅁㅏㅁ -3245
▁ㅇㅏㅈㅜ -3246
▁ㅇㅣㄹㅇㅝㄴ -3247
ㅁㅛ -3248
▁ㄷㅚㅁ -3249
▁ㅇㅗㄴㄷㅗ -3250
ㅂㅜㅇ -3251
▁ㅅㅡㅇㅟㅅㅡ -3252
▁ㅌㅟ -3253
▁ㅂㅜㄺ -3254
▁ㄱㅓㄹㅐ -3255
▁ㅎㅘㄱㅂㅗ -3256
ㅓㄴㅌㅡ -3257
▁ㅅㅣㅇㅣㄴ -3258
▁ㅇㅓㄹㄱㅜㄹ -3259
▁ㅎㅚㅂㅗㄱ -3260
ay -3261
▁ㄱㅗㅇㅇㅓㅂ -3262
▁ㅈㅓㅁㅊㅏ -3263
▁ㅁㅏㄴㅈㅗㄱ -3264
▁ㅁㅗㅅㅡㅋㅡ -3265
▁ㅈㅏㅇㅂㅣ -3266
▁II -3267
ir -3268
ut -3269
▁ㅍㅗㄱㅂㅏㄹ -3270
▁ㅎㅏㅇㅅㅓㅇ -3271
▁ㅅㅏㄹㅖ -3272
▁ㅈㅗㅇㅈㅗㅇ -3273
▁ㅂㅣㅌㅡ -3274
▁ㅈㅗㅇㅇㅣ -3275
▁ㅇㅣㅅㅡㄹㅏㅇㅔㄹ -3276
ㄷㅔㅁㅣ -3277
▁ㅅㅡㄴ -3278
ㅣㄹㅣ -3279
▁ㅇㅝㄴㅈㅏ -3280
ㅏㅋㅡ -3281
▁ㄱㅏㄴㅈㅜ -3282
▁ㄱㅠㅊㅣㄱ -3283
▁ㅇㅓㄹㅕ -3284
um -3285
▁ㅈㅗㅊㅣ -3286
▁br -3287
▁ㅇㅣㅅㅡㅇ -3288
▁ㅅㅜㅇㅝㄴ -3289
▁ㅁㅓ -3290
▁ㄷㅐㅎㅕㅇ -3291
▁ㅇㅕㄹㄹㅕㅆ -3292
▁ㄱㅏㅇㅈㅓㅁ -3293
▁ㅋㅡㄹㄹㅐ -3294
▁ㅇㅣㅎㅏ -3295
ㅁㅣㅇ -3296
ㅋㅓㄴ -3297
ㅌㅗㅂ -3298
▁ㄹㅔㅋㅗㄷㅡ -3299
ㅌㅗㄹ -3300
▁ㄱㅡㄹㅐㅅㅓ -3301
▁ㅂㅏㄱㅈㅟ -3302
▁ㅎㅏㅂㅇㅢ -3303
ㄱㅣㄱ -3304
▁ㄸㅣ -3305
▁ㄴㅐㅆ -3306
▁43 -3307
ㅛㅇㅠㄹ -3308
▁ㄷㅏㅋ -3309
▁ㅎㅐㅊㅔ -3310
▁ㅌㅏㅂㅈㅐ -3311
ㅂㅐㄱㅈㅣㄹ -3312
ㅇㅓㄷㅡㄹ -3313
im -3314
▁ㅇㅏㅋㅏㄷㅔㅁㅣ -3315
▁ㄱㅟㄱㅜㄱ -3316
▁ㄹㅗㅅㅡ -3317
ㅅㅡㅋㅣ -3318
▁ㄹㅐㅇ -3319
▁ㄲㅡㄶ -3320
▁ㄱㅜㄴㄷㅏㄴ -3321
▁ㅋㅏㅇㅜㄴㅌㅣ -3322
▁ㅈㅏㅇㅁㅕㄴ -3323
▁ㄱㅣㅈㅣ -3324
▁ㄱㅕㅇㅈㅜ -3325
▁ㅂㅜㄹㄹㅓㅆ -3326
▁ㅈㅗㅎㅏㅂ -3327
▁ㅈㅣㄴㅎㅘ -3328
ㄷㅗㅇㅕㄱ -3329
▁ㅇㅢㄹㅛ -3330
▁ㄷㅐㅈㅏㅇ -3331
ㅍㅔㄴ -3332
ㅗㅇㅣㄷㅡ -3333
▁ㄱㅜㄴㅈㅜ -3334
▁ㄱㅗㅇㅑㅇ -3335
▁ㅍㅣㄴㄹㅏㄴㄷㅡ -3336
▁ㄷㅜㄹㄹㅓㅆ -3337
▁ㅎㅓㅇㄱㅏㄹㅣ -3338
▁ㅊㅓㅇㅅㅗㄴㅕㄴ -3339
▁ㅂㅜㄱㅡㄴ -3340
▁ㅅㅓㅇㅑㅇ -3341
▁ㅌㅏㅇㅣㅁ -3342
▁ㅍㅕㅇㅇㅑㅇ -3343
ㅔㅇㅣㅋㅡ -3344
▁ㄴㅏㅁㄷㅗㅇ -3345
▁ㄹㅏㅁㅕㄴ -3346
▁ㅅㅣㄴㅎㅘ -3347
▁42 -3348
ㅌㅣㅁ -3349
▁ㄱㅡㄱㅗㅅ -3350
▁ㄱㅣㄷㅐ -3351
▁ㅌㅜㅇㅓ -3352
▁ㅇㅢㅎㅏㄱ -3353
▁ㅇㅔㄱㅔㅅㅓ -3354
▁ㅈㅗㅁ -3355
ver -3356
▁ㄱㅕㅇㅎㅑㅇ -3357
▁ㅊㅓㄹㄷㅗㅇㅕㄱ -3358
▁ㅅㅔㅇㅜ -3359
▁ㅇㅣㄹㅇㅓㄴㅏㅆ -3360
▁ㅇㅢㅈㅏㅇ -3361
▁ㄱㅣㅇㅓㄱ -3362
▁ㅋㅔㄹ -3363
▁ㅅㅏㅎㅜ -3364
▁ㅎㅑㅇㅅㅏㅇ -3365
ㅘㅇㅣ -3366
▁ㅁㅣㅊㅣ -3367
ㅁㅓㄴ -3368
ㅣㅇㅏㄴㅗ -3369
▁ㄸㅓㄹㅇㅓㅈㅕ -3370
▁ㅈㅓㅅ -3371
▁ㅎㅐㄷㅗ -3372
▁ㅎㅘㄱㅅㅣㄹ -3373
▁ㅈㅏㅇㄱㅣ -3374
ㅔㅇㅏ -3375
▁ㅈㅏㄱㅡㅁ -3376
▁1982 -3377
▁ㅊㅓㅇㄴㅏㄹㅏ -3378
▁ㄱㅏㅈㅊㅜㄴ -3379
▁ㅂㅔㄱ -3380
▁ㅅㅣㄴㅅㅓㄹ -3381
▁ㄲㅣ -3382
ㅣㄹㄹㅣ -3383
▁ㄹㅏㅌㅣㄴ -3384
▁ㅊㅣㅁㄱㅗㅇ -3385
ㅛㅅㅣ -3386
▁ㄴㅏㄴㅟ -3387
▁ㄹㅏㅁㅕ -3388
▁55 -3389
▁ㅂㅗㅈㅏㅇ -3390
▁ㅅㅗㄴㅕㄴ -3391
▁ㅁㅔㅇㅣㅈㅓ -3392
▁ㄴㅓㅁㅜ -3393
▁ㅍㅕㄴㅇㅣㅂ -3394
▁ㅇㅣㄴㅅㅏㅇ -3395
▁ㅂㅓㄹㅣ -3396
▁ㅇㅏㅁㅔㄹㅣㅋㅏ -3397
▁ㅌㅗㅈㅣ -3398
▁ㄱㅗㄱㅜㄹㅕ -3399
▁ㅈㅜㅇㅎㅘㅁㅣㄴㄱㅜㄱ -3400
▁ㅂㅜㄴㅈㅏ -3401
ㅏㄷ -3402
ㅈㅏㄱㅣ -3403
▁ㄷㅏㄴㅂㅐㄱㅈㅣㄹ -3404
▁ㄷㅔㄴㅁㅏ -3405
▁ㄱㅘㅇㅇㅕㄱㅅㅣ -3406
ㅂㅗㄷㅡ -3407
▁i -3408
▁ㅂㅗㅂㅕㅇ -3409
▁ㅁㅗㄹㅣ -3410
ㄹㅗㅇ -3411
ㅡㄹㄹㅗ -3412
▁ㄱㅗㅁㅜㄴ -3413
▁ㅃㅏㄹㅡ -3414
▁1983 -3415
▁ㅌㅐㅇㅓㄴㅏㄴ -3416
▁ㅅㅔㅈㅗㅇ -3417
▁ㅇㅣㄹㅜㅇㅓㅈㅣㄴ -3418
▁ㄹㅗㅅ -3419
▁ㅇㅏㅇㅑ -3420
▁ㅇㅏㄹㄹㅕㅈㅕㅆ -3421
▁ㅇㅣㅈㅔ -3422
▁ㅅㅏㄹㅎㅐ -3423
▁ㅈㅐㄷㅏㄴ -3424
ㅅㅏㅋㅣ -3425
▁ㅆㅡㅇㅣㄴㄷㅏ -3426
▁ㅇㅗㄴㄹㅏㅇㅣㄴ -3427
▁ㄷㅏㄴㅈㅣ -3428
▁ㅈㅡㅇㄱㅓ -3429
▁ㄷㅗㄱㅈㅏ -3430
ㅓㅂㅡ -3431
ㄹㅔㅇㅣ -3432
▁ㅈㅏㅁㅅㅣ -3433
▁ㅇㅜㅅㅓㄴ -3434
FC -3435
▁ㅊㅏㅇㅅㅓㄹ -3436
▁44 -3437
▁ㅇㅣㄲㅡ -3438
▁ㅅㅣㄴㅇㅏㅇ -3439
▁ㅇㅔㄹㄹㅣ -3440
▁ㅇㅘㅇㅇㅟ -3441
▁ㄷㅡㅁ -3442
▁ㄱㅏㅅㅏ -3443
ㅜㄴㄷㅡ -3444
▁ㅋㅜㄹ -3445
▁LG -3446
ㅣㄱㅏ -3447
▁ㅇㅔㅍㅣ -3448
▁ㅈㅜㄴㄷㅏ -3449
ㅅㅓㅆ -3450
▁ㅈㅏㄹㅏ -3451
▁ㅂㅓㅂㅇㅣㄴ -3452
▁ㅎㅘㄱㅈㅓㅇ -3453
▁ㅅㅓㄴㄱㅗ -3454
▁ㅂㅜㄹㄱㅘ -3455
▁ㅈㅣㅋ -3456
ㅏㄹㅡㅌㅡ -3457
▁ㅂㅣㅇㅠㄹ -3458
▁ㅈㅓㄴㅅㅓㄹ -3459
▁ㅅㅓㄴㄱㅓㄱㅜ -3460
▁ㄱㅗㅇㅇㅠ -3461
▁ㅅㅓㅇㄷㅏㅇ -3462
▁ㄱㅗㅎㅑㅇ -3463
▁ㅊㅏㅂㅕㄹ -3464
▁ㅇㅠㄱㅅㅏㅇ -3465
▁ㅎㅏㅁㄷㅐ -3466
▁47 -3467
▁ㅂㅗㄱㅈㅏㅂ -3468
▁ㅎㅜㄹ -3469
▁ㅈㅓㅇㅂㅗㄱ -3470
▁ㄱㅏㄹㄹ -3471
▁ㅇㅢㅎㅐㅅㅓ -3472
ㅎㅗㄹ -3473
ㅋㅣㅇㅏ -3474
ㅇㅏㅁㅔㄹㅣㅋㅏ -3475
▁ㅈㅗㄱㅡㅁ -3476
▁ㅁㅣㅇㅑ -3477
ㅌㅡㄹㄹㅐㄴㄷㅡ -3478
▁ㅅㅏㅁㄱㅜㄱ -3479
▁ㅂㅡㄹㅐㄴㄷㅡ -3480
▁ㅈㅓㄴㅎㅘ -3481
▁ㄸㅟㅇㅓㄴㅏㄴ -3482
▁ㅅㅡㅌㅏㅇㅣㄹ -3483
▁ㅅㅜㅅ -3484
▁ㅅㅔㅇㅣㄴ -3485
▁ㅇㅣㅅㅓㅇ -3486
▁ㅎㅜㅅㅗㄴ -3487
▁ㄱㅏㅇㅈㅓㅁㄱㅣ -3488
▁ㅈㅓㅈㅏㅇ -3489
▁ㅇㅗㄹㅣ -3490
▁ㄷㅐㄱㅣ -3491
▁ㄱㅔㄹ -3492
▁ㅇㅏㄹㄹㅣ -3493
▁ㄱㅜㅊㅔ -3494
▁Z -3495
▁75 -3496
▁ㅂㅏㄴㄷㅗ -3497
ㅋㅠ -3498
▁ㄱㅗㅈㅓㅇ -3499
▁ㅈㅜㄱㅛ -3500
▁ㄷㅗㅇㅇㅢ -3501
ㅐㄴㅅㅡ -3502
▁ㅂㅗㄱㅡㅂ -3503
ㅏㄴㅣㅇㅏ -3504
▁ㄱㅏㅁㅈㅓㅇ -3505
▁ㅇㅕㄱㄷㅐ -3506
▁ㅇㅏㅋ -3507
ㄷㅏㄱㅏ -3508
▁ㅅㅏㄴㅁㅐㄱ -3509
▁ㅌㅐㅇㅓㄴㅏ -3510
▁ㅇㅠㅎㅏㄱ -3511
ㅇㅢㅎㅚ -3512
ㅇㅏㅍㅡㄹㅣㅋㅏ -3513
▁ㄴㅗㅇㅖ -3514
ㅅㅣㅇㅌㅓㄴ -3515
▁ㅇㅜㅅㅜ -3516
▁ㅎㅏㄴㅡㄹ -3517
▁ㅊㅏㅁㅅㅓㄱ -3518
ㅉㅣㄱ -3519
▁ㅇㅖㅅㅏㅇ -3520
▁184 -3521
▁ㅅㅗㄹㄹㅗ -3522
▁ㅂㅗㅇㅏㄴ -3523
ㅁㅜㄴㅎㅘ -3524
▁ㅍㅏㄹㄹ -3525
▁ㅇㅣㄹㅜㅇ -3526
▁ㄱㅡㄹㅓㅁ -3527
▁180 -3528
▁ㅅㅣㅋㅣㄹ -3529
▁ㅌㅐㅍㅜㅇ -3530
ㅅㅑ -3531
▁ㅇㅕㄴㄱㅗ -3532
▁ㅌㅗㅇㅎㅏㄴ -3533
▁1972 -3534
▁ㅎㅐㅆㅇㅓㅆ -3535
▁ㅅㅜㅊㅜㄹ -3536
▁ㅍㅏㄴㄱㅕㄹ -3537
▁ㅌㅏㄹㄹ -3538
▁ㅇㅗㄹㄹㅕㅆ -3539
▁ㅎㅐㄱㅅㅣㅁ -3540
▁ㅇㅣㄹㅜㅇㅓㅈㅣ -3541
ㄷㅡㄹㅣㄷㅡ -3542
▁ㅁㅏㄷㅡㄹㅣㄷㅡ -3543
▁ㅈㅣㅅㅣ -3544
▁ㄷㅔㄴㅁㅏㅋㅡ -3545
ㅂㅣㅇ -3546
▁ㄱㅗㅇㅎㅏㄱ -3547
▁ㅎㅚㅈㅓㄴ -3548
▁ㅌㅡㅇ -3549
▁ㅍㅡㄹㄹㅐㅅ -3550
▁ㅅㅏㅈㅓㄴ -3551
▁ㅍㅡㄹㅣㅁ -3552
▁ㅇㅏㅁㅅㅏㄹ -3553
▁ㅇㅓㄹㅣㄴㅇㅣ -3554
▁ㅇㅏㅍㄷㅜ -3555
▁ㅌㅏㄴㅅㅐㅇ -3556
▁ㅈㅜㅇㅂㅏㄴ -3557
▁ㅇㅏㄹㅡㅎㅔㄴ -3558
▁ㄴㅏㅇㅘ -3559
▁ㄱㅓㅁㅊㅏㄹ -3560
▁ㄹㅗㅂㅓㅌㅡ -3561
▁ㅅㅔㅇㅜㄴ -3562
▁ㅂㅓㅂㅊㅣㄱ -3563
▁ㅈㅓㄴㅇㅛㅇ -3564
ㅅㅗㄷㅡ -3565
▁ㄷㅐㅂㅣ -3566
▁ㅂㅗㄴㄱㅕㄱ -3567
▁ㅈㅏㅅㅔ -3568
▁46 -3569
ㅜㄱㄷㅗ -3570
▁ㅊㅗㅂㅏㄴ -3571
▁ㅇㅠㅈㅓㄱ -3572
CA -3573
ㅇㅓㅁ -3574
ㄷㅣㅇㅏ -3575
▁ㅁㅏㄹㄱㅣ -3576
ㄹㅏㅇㅣ -3577
▁ㄱㅏㄹㅗ -3578
▁ㄴㅣㅋ -3579
▁ㅈㅣㅂㅎㅐㅇ -3580
▁ㄷㅐㅎㅏㅇ -3581
▁ㅎㅕㅂㅅㅏㅇ -3582
ㄷㅠ -3583
▁ㅈㅜㅇㅅㅣㅁㅈㅣ -3584
ㅇㅜㄴㄷㅗㅇ -3585
▁ㅈㅓㄴㄹㅏㅂ -3586
▁ㅈㅓㄴㄹㅏㅂㅜㄱㄷㅗ -3587
▁ㅍㅡㄹㅏㄴ -3588
▁ㅅㅜㅇㅕ -3589
▁ㄷㅐㄹㅣㅂ -3590
▁ㅇㅏㄹㅡㅎㅔㄴㅌㅣㄴㅏ -3591
▁1979 -3592
▁1920 -3593
▁ㅋㅏㅌ -3594
ㄹㅐㄴㄷㅡ -3595
ㅆㅣㄴ -3596
▁ㅂㅕㄹㄷㅗ -3597
▁ㅇㅐㅍㅡㄹ -3598
▁ㄷㅏㄴㅇㅣㄹ -3599
▁ㄷㅓㅍ -3600
▁ㅋㅗㄹㄹ -3601
ㅎㅐㅈㅕㅆ -3602
▁ㄱㅝㄴㅎㅏㄴ -3603
▁ㅎㅡㄴㅎㅣ -3604
▁ㅅㅡㅋㅡㄹ -3605
▁ㅇㅣㄴㅌㅓ -3606
ㅂㅏㄴㄷㅗ -3607
▁CD -3608
▁ㄴㅗㄴㄹㅣ -3609
ㅌㅓㄹㅣ -3610
▁ㅇㅓㄹㅁㅏ -3611
▁ㅅㅣㄱㅏㄱ -3612
▁ㄹㅡㄴ -3613
▁ㅅㅔㅅ -3614
▁ㅈㅣㅋㅣ -3615
▁ㅋㅏㅇ -3616
ra -3617
▁ㅅㅜㄴㅅㅓ -3618
ㅉㅏ -3619
▁kg -3620
ㄱㅗㅂ -3621
▁ㅌㅗㅇㄱㅖ -3622
▁ㅇㅜㅋㅡㄹ -3623
▁ㅇㅜㄴㅈㅓㄴ -3624
▁ㅈㅣㄱㅇㅝㄴ -3625
▁ㅍㅐㄹ -3626
▁ㅂㅏㅇㅁㅕㄴ -3627
▁ㄱㅘㄴㄹㅛ -3628
▁ㅈㅗㅅ -3629
▁In -3630
▁ㅇㅏㅋㅣ -3631
▁ㅅㅏㅎㅏㅇ -3632
▁ㅇㅣㅇㅣㄱ -3633
▁1981 -3634
▁ㅇㅝㅅㅣㅇㅌㅓㄴ -3635
▁ㄱㅡㅁㅁㅔㄷㅏㄹ -3636
▁ㄷㅗㅁ -3637
▁ㅉㅣㄱ -3638
ㅣㄴㅌㅡ -3639
ㄲㅗㅊ -3640
▁ㅎㅛㅅㅗ -3641
▁1973 -3642
▁ㅎㅕㅂㅈㅓㅇ -3643
ㅁㅏㅅㅡ -3644
ㅏㅌㅡ -3645
▁ㅅㅐㅁ -3646
▁1930 -3647
ㅊㅓㅂ -3648
▁ㅂㅕㄴㅎㅗㅅㅏ -3649
ㅔㅌㅡ -3650
ㅈㅓㅇㅂㅜ -3651
▁ㅅㅏㅇㅍㅜㅁ -3652
▁ㅍㅔㅇㅣ -3653
10 -3654
▁v -3655
▁ㅈㅓㄴㅎㅕ -3656
▁ㅂㅏㄹㅡ -3657
▁ㅈㅏㄱㄱㅗㄱㄱㅏ -3658
▁ㅁㅜㄴㅈㅏㅇ -3659
▁ㅇㅢㅁㅜ -3660
▁ㅎㅗㅌㅔㄹ -3661
▁ㄱㅏㅈㅕㅇ -3662
ㅍㅏㄹ -3663
▁ㅁㅏㅇㅣㅋㅡㄹ -3664
▁ㅂㅣㄴㅏㄴ -3665
ㅍㅓㄷㅡ -3666
▁ㅇㅝㄴㅈㅏㄱ -3667
ㄲㅏ -3668
▁ㅈㅏㄹㅁㅗㅅ -3669
ㅅㅕㄴㅓㄹ -3670
▁150 -3671
▁ㅇㅏㅊㅣㅁ -3672
▁ㅈㅓㅅㅓ -3673
▁ㅈㅏㅇㅊㅏㄱ -3674
▁ㅇㅣㄴㄱㅝㄴ -3675
ㅗㅎ -3676
▁ㄴㅐㄹㅕ -3677
▁ㅋㅏㄹㅡ -3678
os -3679
▁ㄹㅣㅅㅡ -3680
ㅋㅏㅇㅘ -3681
▁ㅎㅕㄴㅈㅏㅇ -3682
ㅏㅁㅜ -3683
ㅏㅅ -3684
▁ㄴㅗㄹㅡㅇ -3685
▁ㄱㅓㄴㄱㅜㄱ -3686
▁ㅅㅏㄴㅎㅏ -3687
▁ㅁㅓㅁㅜㄹ -3688
▁ㅈㅓㄴㅎㅜ -3689
▁ㅂㅔㅇㅣㅈㅣㅇ -3690
▁ㄱㅗㅇㅁㅜㅇㅝㄴ -3691
▁ㅇㅗㄹㅡㄴㅉㅗㄱ -3692
▁ㅈㅜㅇㅅㅔ -3693
▁ㅂㅐㄹ -3694
▁ㄱㅛㅌㅗ -3695
▁ㅇㅏㅍㅏ -3696
▁ㅎㅏㅇㅂㅗㄱ -3697
ㄷㅓㅁ -3698
▁ㄱㅛㄹㅠ -3699
ㅡㅁㅏ -3700
▁ㅇㅛㅅㅐ -3701
BO -3702
ㅎㅠ -3703
▁ㅅㅜㅅㅜㄹ -3704
▁ㅈㅔㄹ -3705
▁ㄴㅏㅊㅣ -3706
▁ㄱㅗㅇㅍㅗ -3707
ㅌㅏㅇㅣ -3708
▁ㄱㅣㅁㅈㅓㅇ -3709
▁ㅌㅜㅇㅣㅂ -3710
em -3711
▁ㅍㅡㄹㄹㅔㅇㅣㅇㅓ -3712
▁ㅇㅣㄴㄹㅠ -3713
▁ㅅㅗㅅㅣㄱ -3714
▁1974 -3715
▁ㅎㅏㄴㄸㅐ -3716
▁ㅊㅏㅇㄹㅣㅂ -3717
▁ㅂㅔㄴㅔ -3718
▁ㅌㅐㄱㅜㄱ -3719
30 -3720
▁ㅋㅗㅁㅣ -3721
▁ㅇㅑㅁㅏ -3722
▁ㅇㅚㄴㅉㅗㄱ -3723
▁ㅇㅗㄹㅐㄴ -3724
▁185 -3725
▁1940 -3726
▁ㅈㅣㄹㅣ -3727
▁ㅎㅝㄹ -3728
▁ㅅㅜㄷㅗㅇ -3729
ter -3730
ㅔㄴㅏ -3731
▁ㄱㅡㅁㅅㅗㄱ -3732
▁ㅈㅜㅇㅟ -3733
▁ㅈㅓㄴㅊㅓㄹ -3734
▁ㄱㅗㅇㅎㅘ -3735
▁ㅂㅗㄱㅎㅏㅂ -3736
▁ㅍㅔㄹㅡ -3737
▁ㄱㅏㅇㅎㅏ -3738
ㅅㅔㅇ -3739
▁ㅁㅏㅋㅡ -3740
▁ㅇㅡㅂ -3741
▁ㅇㅔㅍㅣㅅㅗㄷㅡ -3742
▁ㅇㅣㄴㅈㅓㅇㅂㅏㄷ -3743
▁ㅅㅓㅇㅈㅣㄹ -3744
ㅣㅇㅗㅍㅡ -3745
▁ㄹㅐㄴ -3746
▁ㄱㅗㅇㅠ -3747
▁ㅈㅔㅈㅏ -3748
ㅋㅡㄴ -3749
▁ㅇㅗㄹㄹㅣ -3750
▁ㅂㅜㄱㅅㅓ -3751
▁ㅊㅜㅊㅡㄱ -3752
▁ㄷㅗㄹㅇㅏㄱㅏ -3753
▁ㅅㅓㅇㄱㅕㅇ -3754
▁ㅍㅏㅋㅡ -3755
▁ㄴㅣㄴ -3756
▁ㅅㅣㅁㄱㅏㄱ -3757
▁ㅎㅝㄹㅆㅣㄴ -3758
▁ㅂㅏㅇㅊㅜㄹ -3759
▁ㅅㅗㅂ -3760
▁ㄲㅜ -3761
ㄱㅗㄱㅣ -3762
▁ㅈㅓㄹㄷㅐ -3763
▁ㅇㅕㄴㅅㅏㄴ -3764
▁ㄷㅏㄴㅣ -3765
▁ㄹㅏㅇㅣㅂㅡ -3766
▁ㅇㅠㅈㅓㄴㅈㅏ -3767
▁ㅇㅕㄹㄹㅣ -3768
▁ㄱㅗㅇㅅㅏㄴㅈㅜㅇㅢ -3769
▁ㅇㅜㄴㅇㅛㅇ -3770
▁ㅎㅔㄴㄹㅣ -3771
▁ㅂㅗㄴㅇㅣㄴ -3772
▁ㄱㅜㄴㅅㅜ -3773
▁ㅁㅗㅅㅡㅋㅡㅂㅏ -3774
▁ㅇㅝㄴㅈㅜ -3775
▁ㄱㅏㄱㅂㅗㄴ -3776
▁SBS -3777
▁ㅇㅠㄴㅣ -3778
ㅔㄷㅡ -3779
▁ㅎㅕㅇㅅㅏ -3780
ㅍㅏㅇ -3781
▁ㅇㅜㄱ -3782
▁ㅅㅏㅁㄱㅏㄱ -3783
▁ㅌㅏㅇㅣㅇ -3784
▁ㅁㅕㄹㅁㅏㅇ -3785
▁ㅇㅔㅅㅓㄴ -3786
▁ㅈㅜㅇㅂㅜ -3787
▁ㅇㅣㄴㅈㅗㅇ -3788
▁ㅎㅐㅇㅑㅇ -3789
▁ㄴㅗㄴㅇㅢ -3790
ㄷㅠㅅㅓ -3791
▁ㅍㅡㄹㅗㄷㅠㅅㅓ -3792
▁ㅎㅏㅂㅅㅓㅇ -3793
▁ㅅㅓㄴㅂㅗㅇ -3794
▁ㄱㅏㄹㄷㅡㅇ -3795
▁1948 -3796
▁ㅅㅏㄹㅕㅇㄱㅘㄴ -3797
▁ㅇㅖㅅㅏㄴ -3798
▁ㅅㅜㅅㅈㅏ -3799
▁ㅇㅕㄴㅎㅏㅂㄱㅜㄴ -3800
▁ㄱㅜㅂㅕㄹ -3801
ㅇㅕㅂ -3802
▁ㅇㅏㅍㅅㅓ -3803
▁ㅎㅛㅇㅠㄹ -3804
▁1968 -3805
▁ㅍㅡㄹㄹㅔㅇㅣㅇㅗㅍㅡ -3806
▁ㅎㅣㄹㅗ -3807
▁54 -3808
▁ㅇㅣㅂㅈㅏ -3809
ㅓㅅㅡㄴ -3810
▁1976 -3811
▁ㅂㅜㄹㄹㅕㅆ -3812
ㅜㅊㅣ -3813
▁ㅁㅗㄹㅡ -3814
▁ㄱㅡㄹㄹㅗ -3815
▁ㅈㅣㅂㅇㅏㄴ -3816
▁ㅂㅔㄹㅡㄹㄹㅣㄴ -3817
▁ㅁㅜㄹㅣ -3818
▁ㅇㅣㄹㅇㅡㅋㅣ -3819
ㅎㅏㄹㅏ -3820
▁ㄷㅏㅇㅜㄴ -3821
▁ㄱㅜㄱㄷㅗ -3822
▁ㄷㅏㅋㅏ -3823
▁ㅅㅏㅇㅣㅁ -3824
▁ㅇㅓㄸㅓㅎㄱㅔ -3825
▁ㅂㅏㄴㅂㅗㄱ -3826
▁ㄴㅗㄴㅈㅐㅇ -3827
▁ㅊㅜㄹㅈㅏㅇ -3828
▁ㅇㅡㅁㄹㅕㄱ -3829
▁ㅇㅣㄴㄱㅗㅇ -3830
▁ㅊㅏㅇㅈㅗ -3831
▁ㅊㅜㄹㅇㅣㅂ -3832
▁ㅅㅏㅌㅐ -3833
▁ㅌㅜㅈㅐㅇ -3834
ㅣㅇㅏㅇ -3835
▁ㄱㅓㄴㄹㅣㅂ -3836
▁ㅇㅝㄴㅈㅏㄹ -3837
▁ㄱㅕㅇㅅㅓㅇ -3838
▁1975 -3839
▁ㅅㅏㅂㅓㅂ -3840
ㅌㅐㅇ -3841
▁ㅇㅣㅇㅓㅈㅣ -3842
▁ㄹㅏㄷㅗ -3843
▁ㅊㅜㄹㅁㅏ -3844
▁ㅃㅗㅂ -3845
▁ㅂㅜㄱㄷㅗㅇ -3846
▁ㅅㅜㅅㅗㅇ -3847
▁ㅇㅕㄴㄱㅘㄴ -3848
▁ㅅㅡㅋㅗㅌㅡㄹㄹㅐㄴㄷㅡ -3849
▁ㅁㅗㄱㅅㅏ -3850
▁ㅂㅜㅌㅇㅕ -3851
▁ㅈㅓㄴㄱㅗㅇ -3852
▁ㅈㅔㅊㅜㄹ -3853
op -3854
ㅣㅇㅏㅂ -3855
▁ㅈㅓㅇㅂㅣ -3856
▁ㄴㅐㄹㅕㅆ -3857
▁ㅈㅜㅈㅓㄴ -3858
▁ㅅㅏㄹㅕㅇㅂㅜ -3859
▁ㅇㅜㅅㅡ -3860
ag -3861
▁ㅈㅣㄴㅣ -3862
▁ㅇㅣㅁㅣㄴ -3863
▁ㅊㅟㄱㅡㅂ -3864
▁ㄹㅔㄷㅡ -3865
ㄷㅗㄹㅡ -3866
▁ㅅㅣㄴㅊㅔ -3867
▁ㅇㅕㅇㅎㅘㅈㅔ -3868
▁ㅇㅏㄹㅡㅁㄷㅏㅇ -3869
▁ㅅㅗㄴㅕ -3870
▁ㅇㅣㄴㅈㅗ -3871
▁ㅅㅡㄹㅣ -3872
ㅏㅇㅣㅌㅣ -3873
▁ㄱㅓㅈㅓㄹ -3874
▁ㅅㅣㅈㅓㅁ -3875
▁ㅇㅣㄴㄱㅏ -3876
▁ㅇㅗㅎㅣㄹ -3877
▁ㄴㅔㅅ -3878
▁ㅎㅘㄹㅂㅏㄹ -3879
▁1978 -3880
▁ㅌㅡㄹㅐㄱ -3881
▁ㅇㅕㄱㅐㄱㅊㅓㄹㄷㅗ -3882
▁ㅅㅗㅅㅡ -3883
▁ㅎㅡㅂㅅㅜ -3884
▁ㅇㅠㄴㅏㅇㅣㅌㅣ -3885
▁56 -3886
ㄷㅔㅅㅡ -3887
ㅓㅈㅕㅆ -3888
▁1971 -3889
▁ㅁㅗㅂㅏㅇ -3890
▁ㅍㅗㅇㅟ -3891
▁ㄷㅐㅅㅓㅇ -3892
ㅌㅜㅇ -3893
▁ㄱㅜㄱㅈㅏㅇ -3894
▁ㅁㅕㅇㅅㅓㅇ -3895
▁ㅇㅗㅈㅓㄴ -3896
▁ㅇㅝㄴㄹㅣ -3897
▁ㄱㅐㅅㅣ -3898
▁ㄱㅗㅇㄱㅣ -3899
▁ㅊㅟㄷㅡㄱ -3900
▁ㅎㅘㄹㅅㅓㅇ -3901
▁ㄴㅗㄹㅡㅇㅞㅇㅣ -3902
ㅅㅔㄹ -3903
▁1963 -3904
▁ㅎㅣㅂ -3905
▁ㄱㅓㄴㅈㅗ -3906
▁ㄷㅡㄹㅇㅓㄱㅏㅆ -3907
▁ㅊㅜㄱㅈㅔ -3908
▁ㄹㅗㅅㅡㅇ -3909
▁ㅎㅓㄹ -3910
▁ㅊㅗㅇㄷㅗㄱ -3911
▁ㅈㅜㅇㄷㅐ -3912
▁ㅋㅐㅁ -3913
ㅇㅓㅄㅇㅣ -3914
▁ㅈㅣㄴㅐㄴ -3915
▁52 -3916
▁ㅇㅣㄴㅌㅓㅂ -3917
ㅜㄷㅡ -3918
▁ㅍㅗㄱㅣ -3919
▁ㅂㅜㄴㅈㅐㅇ -3920
▁ㄹㅔㅇㅣㄴ -3921
▁ㅈㅜㅌㅐㄱ -3922
ㅣㄹㄹㅔ -3923
▁ㄱㅗㅇㅛㅇ -3924
▁ㅍㅡㄹㄹㅏ -3925
▁ㅇㅣㄴㅌㅓㅂㅠ -3926
▁ㅅㅣㄴㅅㅓㅇ -3927
▁ㅎㅓㅁ -3928
▁ㅎㅜㅅ -3929
▁65 -3930
▁ㅂㅔㅇ -3931
▁ㅎㅏㄱㅅㅡㅂ -3932
▁ㅎㅏㅇㅟ -3933
▁ㅇㅠㅁㅜㄹ -3934
▁ㅁㅏㅊㅣㅁ -3935
ce -3936
▁49 -3937
▁ㅂㅗㄴㅅㅏ -3938
▁ㅌㅗㅇㅎㅐㅅㅓ -3939
ㅂㅜㄹㅡㅋㅡ -3940
ㅋㅣㅅㅡㅌㅏㄴ -3941
▁ㅈㅏㅇㅇㅏㄱ -3942
▁ㅈㅜㄱㅣ -3943
▁00 -3944
▁ㅇㅣㄹㅊㅣ -3945
▁ㅁㅏㅅㅏ -3946
▁ㅇㅕㄴㄹㅛ -3947
▁ㄱㅘㄴㅈㅣㄱ -3948
▁ㅌㅏㅇㅣㅇㅘㄴ -3949
▁ㄷㅗㅇㅇㅝㄴ -3950
▁ㅇㅣㅇㅗㄴ -3951
▁ㅎㅏㄴㄱㅜㄱㅇㅓ -3952
▁ㅇㅑㄱㅅㅗㄱ -3953
▁ㄱㅕㄴㅎㅐ -3954
▁Q -3955
ㅅㅓㅌㅡ -3956
▁ㅎㅜㅇㅝㄴ -3957
ㅣㄱㅡ -3958
▁ㅇㅓㄹㅕㅂ -3959
▁ㄱㅗㅈㅗㅇ -3960
▁ㅈㅜㄱㅘㄴ -3961
▁ㄴㅗㅇㅁㅣㄴ -3962
ㅈㅔㄹㄹㅔㅅㅡ -3963
▁179 -3964
▁ㄷㅏㄱ -3965
▁ㅋㅗㅅㅡ -3966
▁1969 -3967
▁ㅂㅜㄹㅅㅏㅇ -3968
▁ㅈㅓㄴㅂㅜ -3969
▁ㅁㅕㅇㅁㅕㅇ -3970
▁ㅇㅗㅎㅣㄹㅕ -3971
ㅕㅇㅑ -3972
▁ㅇㅣㅈㅜㅇ -3973
ㅍㅔㄹ -3974
▁ㅊㅓㄴㅊㅔ -3975
▁ㅎㅐㅅㅏㅇ -3976
ㄱㅗㅅ -3977
▁ㅈㅣㄱㅈㅓㄴ -3978
▁ㅅㅐㅇㄱㅣ -3979
▁ㅂㅣㄹㅗㄱ -3980
▁ㅂㅜㄹㅂㅓㅂ -3981
▁ㅅㅗㅂㅏㅇ -3982
▁ㄱㅜㅅㅗㄱ -3983
ㄹㅔㄴ -3984
▁ㅂㅜㅎㅘㄹ -3985
▁ㅂㅡㄹㄹㅗㄱ -3986
▁ㅇㅗㅂ -3987
▁ㅁㅔㅅㅣ -3988
▁ㅈㅓㅇㅊㅔ -3989
▁ㅎㅏㅇㄱㅗㅇㄱㅣ -3990
▁ㅇㅕㄴㅈㅐ -3991
OS -3992
▁ㅈㅜㄱㅇㅣ -3993
▁ㅎㅐㅈㅕㅆ -3994
ㅁㅗㄹ -3995
▁ㅈㅜㅅㅣㄱㅎㅚㅅㅏ -3996
ㄱㅗㅇㅎㅏㅇ -3997
▁ㅇㅕㅇㅇㅓㅂ -3998
▁ㅅㅑㅇ -3999
▁ㅂㅏㄲㅇㅔ -4000
▁ㅅㅓㅇㄴㅡㅇ -4001
▁ㅊㅜㅇㅊㅓㅇㅂㅜㄱㄷㅗ -4002
▁ㅈㅓㅂㅎㅏ -4003
▁ㄹㅗㄷㅡ -4004
▁ㄴㅜㄹ -4005
ㅜㅁㅏ -4006
▁ㅈㅜㄱㅏㄴ -4007
▁ㅈㅏㅇㄱㅛ -4008
▁ㅅㅜㅈㅣㅂ -4009
▁ㅍㅗㄱㄹㅕㄱ -4010
▁1946 -4011
▁ㅎㅏㄱㅅㅜㄹ -4012
▁ㄷㅗㄷㅏㄹ -4013
▁ㅎㅗㄴㄹㅏㄴ -4014
▁ㅂㅐㄱㅈㅏㄱ -4015
▁ㅇㅣㄹㅇㅡㅋㅕㅆ -4016
ㅏㄴㅣㅁ -4017
▁ㅈㅗㅂ -4018
▁ㅍㅗㄷㅗ -4019
▁ㅁㅣㄷㅡ -4020
▁ㅈㅣㄱㅇㅓㅂ -4021
▁ㅅㅓㄴㄱㅛ -4022
▁ㅂㅗㅎㅓㅁ -4023
▁ㅊㅓㄹㅅㅜ -4024
ㅇㅏㄴㅐ -4025
▁ㅅㅏㅇㄷㅏㅇㅎㅣ -4026
▁53 -4027
▁ㄱㅘㄴㅈㅓㅁ -4028
▁ㅎㅘㅁㅜㄹ -4029
▁ㄷㅔㅇㅣㅂㅣㄷㅡ -4030
▁ㄴㅑ -4031
oc -4032
▁ㅋㅏㄹㄹㅣ -4033
▁ㅍㅕㄴㅈㅣ -4034
▁ㅂㅜㅈㅏㅇ -4035
▁ㅂㅗㄱㅘㄴ -4036
▁ㄸㅓㄴㅏㅆ -4037
▁ㅋㅗㄹㅗㄴㅏ -4038
▁ㅂㅏㄴㅇㅕㅇ -4039
▁ㄷㅓㄹㅏㄷㅗ -4040
▁ㅎㅐㅅㅏㄴ -4041
▁ㅂㅜㅇㅣㅁ -4042
▁1964 -4043
▁ㄱㅡㅇ -4044
▁ㅇㅕㅂㅜ -4045
▁ㅇㅣㅁㄱㅡㅁ -4046
▁ㅅㅗㄱㅎㅏㄴㄷㅏ -4047
▁ㄴㅐㄹㅣ -4048
ㅂㅣㅊㅣ -4049
▁ㅈㅓㅇㅇㅝㄴ -4050
▁ㅎㅏㅇㅜㅅㅡ -4051
▁ㄱㅏㄴㄷㅏㄴ -4052
▁ㄷㅗㄱㅜ -4053
▁ㄱㅜㄱㅈㅔㄱㅗㅇㅎㅏㅇ -4054
ㅅㅓㅇㄱㅜㄴ -4055
▁ㅈㅔㅇㅣㄹ -4056
ri -4057
▁ㅂㅗㄱㅓㄴ -4058
▁US -4059
▁ㅊㅟㅎㅏ -4060
▁ㅈㅣㅂㅜㅇ -4061
▁ㅂㅔㄹㄱ -4062
▁ㅂㅏㄱㅈㅓㅇ -4063
▁ㅎㅏㄴㅏㄴㅣㅁ -4064
▁ㅎㅏㄱㅂㅜ -4065
▁and -4066
▁ㅊㅐㅁ -4067
▁ㄷㅐㄹㅑㄱ -4068
▁ㅋㅗㄹㄹㅗ -4069
ㄷㅣㅇㅓㄴ -4070
▁ㅎㅚㅇ -4071
▁ㄱㅛㅎㅘㄴ -4072
▁ㅇㅢㅈㅗㄴ -4073
▁ㅇㅣㄹㅡㄴ -4074
▁ㅎㅓㄱㅏ -4075
▁ㅂㅐㄱㅈㅔ -4076
▁ㅅㅣㅎㅗ -4077
ㅈㅡㅂ -4078
▁ㅈㅐㄹㅛ -4079
ㄴㅕㅇ -4080
▁ㅋㅗㄴㅅㅓㅌㅡ -4081
▁ㄱㅐㅊㅔ -4082
ㄷㅏㄹㅣ -4083
▁ㅇㅣㄴㄷㅗㄴ -4084
ㅏㄷㅡ -4085
▁ㅂㅔㅅㅡㅌㅡ -4086
▁58 -4087
▁ㅅㅓㅂㅓ -4088
▁ㅇㅔㄷㅡㅇ -4089
▁ㅈㅓㄴㅁㅜㄴㄱㅏ -4090
ㅓㄷㅡ -4091
▁ㅇㅏㄴㅌㅏ -4092
▁ㅈㅏㅅㅏㄹ -4093
▁ㅌㅗㅂ -4094
▁ㅎㅏㄱㅎㅚ -4095
▁ㅎㅏㄱㅇㅝㄴ -4096
▁ㅇㅣㄱㅣ -4097
▁ㅈㅓㄴㄷㅗㅇ -4098
▁PC -4099
▁ㅅㅡㅋㅏ -4100
▁ㅂㅕㄴㅎㅘㄴ -4101
▁ㅊㅗㄹ -4102
▁ㅅㅏㄹㅇㅣㄴ -4103
▁ㅅㅣㄱㅍㅜㅁ -4104
▁ㅍㅏㅁ -4105
▁ㅅㅏㅈㅏㅇ -4106
▁ㄱㅗㅇㅌㅗㅇ -4107
▁ㄱㅏㅇㅡㄹ -4108
▁ㅇㅡㅇㅇㅛㅇ -4109
▁ㄷㅐㅎㅘ -4110
▁ㅅㅏㅇㄹㅠㄱ -4111
ㅣㅇㅔㅌㅡ -4112
▁ㄲㅗㄱ -4113
▁ㅈㅐㄴ -4114
▁ㅂㅏㄹㅏ -4115
▁ㅅㅡㅇㅈㅣㄴ -4116
▁ㅁㅜㄹㄹ -4117
ㅇㅓㄹ -4118
ㅅㅕ -4119
ㅁㅜㄴㅎㅘㅈㅐ -4120
▁ㅃㅏㄹㅡㄴ -4121
▁ㅇㅕㅇㅎㅑㅇㄹㅕㄱ -4122
ㅌㅏㅁ -4123
ㄴㅏㅆ -4124
▁1977 -4125
ㅜㅇㅣ -4126
ㅈㅣㅇㅏ -4127
▁ㄱㅣㅁㅇㅕㅇ -4128
▁ㄹㅜㅇㅣㅅㅡ -4129
ㅋㅜㄹㅏ -4130
▁ㄱㅖㅌㅗㅇ -4131
▁ㅈㅣㄴㅇㅣㅂ -4132
▁ㄲㅓ -4133
▁ㅅㅣㄴㅂㅜㄴ -4134
▁ㅈㅜㄴㅕㄴ -4135
ㅊㅓㄴㄱㅜㄴ -4136
▁ㄹㅗㅇㅜㄴ -4137
▁ㅂㅏㄴㅂㅏㄹ -4138
ㄲㅐ -4139
▁ㅁㅜㅇㅓㅅ -4140
▁ㅇㅣㅁㅇㅢ -4141
▁ㄷㅏㅇㅎㅏㄴ -4142
▁ㅊㅏㅇㄷㅏㄴ -4143
ㅂㅕㅇㄷㅐ -4144
▁ㅁㅣㄴㅂㅓㅂ -4145
▁ㅁㅏㅆㅡ -4146
▁ㅋㅟㄴ -4147
ㅅㅡㅋㅏ -4148
▁1000 -4149
▁ㄹㅓㅆ -4150
▁ㅈㅣㄹㅂㅕㅇ -4151
▁ㅈㅓㄴㅍㅏ -4152
▁ㅊㅐㅇㅛㅇ -4153
▁ㅍㅣㅇㅏㄴㅗ -4154
▁ㅁㅗㅇㅕ -4155
▁ㅇㅚㄱㅜㄱㅇㅣㄴ -4156
▁ㅅㅏㅇㅜㄴㄷㅡ -4157
ㅁㅓㄴㅣ -4158
▁ㅁㅣㅌㅓ -4159
▁ㅃㅐㅇ -4160
▁ㄱㅜㅅㅓㅇㅇㅝㄴ -4161
▁ㄷㅡㄹㅓㄴ -4162
▁ㅈㅣㄴㅇㅏㅂ -4163
▁ㅊㅣㄴㅇㅣㄹ -4164
▁ㅎㅗㅅㅜ -4165
▁ㅅㅗㅂㅣㅇㅔㅌㅡ -4166
▁ㅍㅔㄹㅡㅅ -4167
▁ㅁㅏㅇㅁㅕㅇ -4168
▁ㄹㅗㅅㅡㅇㅐㄴ -4169
▁ㄹㅗㅅㅡㅇㅐㄴㅈㅔㄹㄹㅔㅅㅡ -4170
igh -4171
▁ㅊㅏㅁㅈㅓㄴ -4172
▁99 -4173
ㅏㄱㅣ -4174
ㅈㅓㅇㅅㅣㄱ -4175
▁ㄱㅜㅁ -4176
▁ㅅㅜㅇㅕㅇ -4177
▁ㅎㅘㅅㅓㅇ -4178
▁ㅎㅘㅁㅕㄴ -4179
▁ㅌㅗㅇㅅㅏㅇ -4180
▁ㅋㅐㅁㅍㅓㅅㅡ -4181
▁ㅂㅏㅇㅅㅗㅇㄱㅜㄱ -4182
▁ㅁㅗㄷㅡ -4183
▁ㅌㅐㅇㅓㄴㅏㅆㅇㅡㅁㅕ -4184
▁ㅅㅣㄹㅣㅇㅏ -4185
▁ㅎㅏㅂㄱㅕㄱ -4186
▁ㅅㅏㅇㅅㅡㅇ -4187
▁88 -4188
ㅔㅇㅣㅌㅓ -4189
▁ㅁㅔㅇㅣㄴ -4190
▁ㅁㅜㄴㅎㅓㄴ -4191
▁ㅂㅗㄱㅁㅜ -4192
▁ㅇㅠㄷㅐ -4193
▁ㄱㅗㅇㄷㅗㅇㅊㅔ -4194
▁ㄷㅏㅁㅕ -4195
ㅈㅜㄴㄷㅏ -4196
▁1949 -4197
▁ㄷㅗㅇㄴㅏㅁ -4198
▁ㅍㅐㅇ -4199
▁ㄷㅗㅇㅅㅓㅇ -4200
▁ㅎㅏㄱㄱㅘ -4201
▁ㅇㅔㄷㅗ -4202
▁ㅎㅕㄴㅇㅕㄱ -4203
▁ㅂㅔㄹㄱㅣㅇㅔ -4204
▁ㅈㅔㅇㅓ -4205
▁ㅈㅣㄴㄷㅏ -4206
ation -4207
▁ㅇㅕㅇㅇㅣㅂ -4208
▁ㄱㅓㄱㅣ -4209
▁SK -4210
▁ㅅㅡㅍㅡㄹ -4211
▁ㅁㅏㄴㅈㅜ -4212
▁ㅎㅡㄹㅡ -4213
▁r -4214
▁1962 -4215
ㅣㅇㅗㅅㅡ -4216
▁ㄲㅏ -4217
▁ㅋㅗㅍㅏ -4218
ㅌㅏㅇㅣㄴ -4219
▁ㅈㅣㄴㅂㅗ -4220
▁ㄱㅣㄷㅗ -4221
▁ㅁㅏㅋㅔ -4222
ㄱㅓㄹ -4223
▁62 -4224
▁FA -4225
▁ㅅㅓㅇㅝㄴ -4226
▁ㄱㅔㅇㅣ -4227
▁ㅈㅓㅈㅏㄱ -4228
▁ㄱㅗㄹㅣ -4229
▁ㅋㅗㅁㅣㄷㅣ -4230
▁ㅂㅕㄴㅎㅕㅇ -4231
▁ㅈㅗㅈㅏㄱ -4232
▁ㅊㅣㄱ -4233
▁ㅅㅏㅇㅇㅝㄴ -4234
▁ㄷㅗㅁㅏㅇ -4235
▁ㅇㅣㄴㄷㅗㄴㅔㅅㅣㅇㅏ -4236
▁ㄱㅗㄷㅗ -4237
▁ㅂㅗㄴㅐㄴ -4238
▁ㄱㅣㅎㅗ -4239
▁1967 -4240
▁ㅂㅐㅊㅜㄹ -4241
▁ㅇㅕㄴㅊㅜㄹ -4242
▁ㅇㅣㅁㄷㅐ -4243
▁ㅅㅡㅌㅗㄹㅣ -4244
▁ㄸㅢ -4245
▁ㅌㅏㄴㅅㅗ -4246
▁ㅇㅏㄹㄹㅔㄱㅅㅏㄴㄷㅡㄹ -4247
▁ㄷㅗㅇㅈㅏㄱ -4248
ㄷㅓㅅㅡ -4249
▁ㅉㅗㅊ -4250
▁ㅁㅗㅇㅏ -4251
▁ㄹㅗㅋㅔㅅ -4252
▁57 -4253
ㅌㅣㄱ -4254
ㅊㅓㄴㅅㅣ -4255
▁ㅌㅏㄹㅊㅜㄹ -4256
▁ㅍㅏㄴㅅㅓ -4257
▁ㄱㅘㅇㅈㅏㅇ -4258
▁ㅈㅏㄴㅕ -4259
▁ㅈㅡㅇㅅㅏㅇ -4260
▁ㅇㅢㄷㅗ -4261
▁ㅅㅓㄴㅈㅗ -4262
▁ㅇㅟㅅㅏㅇ -4263
▁ㅅㅡㄹㅓㅇㅜㄴ -4264
▁ㅊㅜㄹㄱㅏㄴ -4265
▁ㅎㅠㅇ -4266
▁ㅇㅣㄹㅉㅣㄱ -4267
▁ㅎㅏㄴㅂㅏㄴㄷㅗ -4268
ㅅㅡㅋㅗ -4269
▁ㅂㅜㄹㄹㅓ -4270
▁ㅅㅣㄴㅊㅓㅇ -4271
▁ㅅㅓㄱㅣ -4272
▁ㄱㅜㄱㅁㅜ -4273
▁ㅈㅜㄷㅜㄴ -4274
▁ㄱㅡㄹㅓㄴㄷㅔ -4275
▁ㅂㅜㅂㅜ -4276
▁ㅌㅏㄹㄹㅏㄱ -4277
▁ㅇㅕㄴㅇㅏㄴ -4278
▁ㅎㅘㅈㅐ -4279
▁ㅇㅟㅂㅏㄴ -4280
▁ㅇㅣㄹㄷㅐ -4281
▁.. -4282
▁You -4283
▁ㄹㅜㅌㅡ -4284
▁ㅈㅗㅈㅓㄹ -4285
▁ㅅㅣㅋㅣㄴㄷㅏ -4286
▁ㄴㅣㅅ -4287
▁ㅅㅏㅂ -4288
▁ㅁㅣㄴㅣ -4289
▁ㅊㅓㅎㅕㅇ -4290
▁Ch -4291
ㅅㅗㄹ -4292
▁ㅂㅏㄴㄷㅡ -4293
▁ㅁㅏㄱㅂㅜ -4294
▁ㄹㅣㄷㅓ -4295
▁ㅅㅣㄹㅅㅜ -4296
▁ㅅㅣㄴㅇㅣㄴ -4297
ㅠㅂㅡ -4298
ㅌㅡㄹㅏ -4299
ㅎㅏㅇㅣ -4300
▁ㅈㅓㄹㅊㅏ -4301
▁ㅂㅏㄹㅇㅓㄴ -4302
▁ㅈㅓㅇㅈㅣ -4303
ㅈㅓㅇㅜ -4304
▁ㄴㅗㅇㄱㅜ -4305
▁ㅅㅑㄹ -4306
▁ㅇㅖㅊㅡㄱ -4307
▁ㅂㅜㄴㅇㅕㄹ -4308
ㅇㅏㅂㅓㅈㅣ -4309
▁ㅊㅓㄴㅇㅕㄴ -4310
▁ㅈㅏㅇㄹㅡ -4311
▁ㅌㅓㄴㅓㄹ -4312
▁ㅎㅘㅇㄱㅡㅁ -4313
ㄱㅓㅁ -4314
▁ㄷㅗㄹㄹ -4315
▁ㄷㅣㄴ -4316
▁ㄱㅣㅂㅓㅂ -4317
▁ㅇㅣㅁㅈㅣㄴ -4318
▁ㅂㅏㄷㅜㄱ -4319
▁ㅅㅏㅇㅎㅏ -4320
ㅟㄴㄷㅏ -4321
▁ㅇㅗㅌㅗ -4322
▁ㅎㅜㅋㅜㅇ -4323
▁ㅇㅣㅅㅡㅇㅁㅏㄴ -4324
▁ㄴㅏㅁㅅㅓ -4325
▁ㅅㅓㄴㅈㅓㄴ -4326
▁ㅁㅜㄷㅓㅁ -4327
▁ㄴㅜㄱㅜ -4328
ㅇㅜㄹ -4329
▁ㄱㅣㅊㅔ -4330
▁ㄱㅓㄷ -4331
▁ㅅㅜㅅㅗ -4332
▁ㅇㅗㅅㅡㅁㅏㄴ -4333
▁181 -4334
▁ㄷㅏㄹㅎㅏ -4335
ㅂㅏㅇㅅㅗㅇ -4336
▁ㅅㅔㅇㅣㄴㅌㅡ -4337
ㄷㅔㅇ -4338
▁ㅂㅏㅇㅈㅣ -4339
▁ㅋㅏㅂ -4340
▁ㅊㅣㄹㅓㅆ -4341
▁ㅂㅏㄹㅡㅅ -4342
▁ㅇㅞㅇㅣ -4343
▁ㄴㅏㅁㄱㅕㅆ -4344
▁ㅇㅛㅇㅣㄴ -4345
ㅓㄴㅅㅡ -4346
▁ㅇㅕㄷㅏㄴ -4347
nd -4348
ㅍㅗㄹㅡ -4349
▁ㅇㅣㄹㅅㅣㄱ -4350
▁ㅂㅏㅇㅈㅓㅇㅅㅣㄱ -4351
▁ㅅㅐㅇㅈㅗㄴ -4352
▁ㅌㅡㄱㅇㅣ -4353
▁ㅍㅐㄱ -4354
▁ㄴㅏㄷㅡㄹ -4355
▁ㅋㅏㅁㅔㄹㅏ -4356
ㅅㅏㄴㅅㅣ -4357
▁ㅂㅗㅋㅓㄹ -4358
▁ㄱㅐㅈㅗ -4359
ㅗㄴㅣ -4360
ㅌㅜㄱㅣ -4361
▁ㅊㅟㅅㅗ -4362
▁66 -4363
▁ㄱㅡㄹㅈㅏ -4364
▁KBO -4365
ㅅㅜㄹㅗㄱ -4366
▁ㄱㅐㄹㄹ -4367
▁ㅎㅡㄱㅇㅣㄴ -4368
▁ㅋㅗㄴㅅㅡㅌㅏㄴ -4369
▁ㅎㅏㅇㄱㅜ -4370
▁ㅈㅓㅇㄱㅣ -4371
▁1966 -4372
▁ㅅㅡㄹㅓㅂ -4373
▁ㅇㅣㄹㅂㅗㄴㄱㅜㄴ -4374
▁ㄷㅓㅅ -4375
ㅡㄱㅏㄴ -4376
▁ㅅㅓㄱㅜ -4377
▁ㄷㅗㄱㄹㅣㅂㅇㅜㄴㄷㅗㅇ -4378
▁ㅆㅗ -4379
▁ㅇㅘㅇㅈㅏ -4380
▁ㅁㅣㄱㅜㄱㅇㅣㄴ -4381
▁ㄴㅗㅂㅔㄹ -4382
▁ㅈㅣㄱㅡㅂ -4383
▁ㄴㅏㄱㅏㅆ -4384
▁ㅂㅗㅈㅗ -4385
▁1965 -4386
▁ㅂㅏㄴㄷㅡㅅㅣ -4387
ㅈㅗㄹ -4388
▁ㅅㅏㄹㅣㅂ -4389
▁ㅊㅏㅇㅇㅝㄴ -4390
▁68 -4391
▁ㄴㅡㅈ -4392
▁ㄷㅜㄹㅉㅐ -4393
▁ㅎㅢㅁㅏㅇ -4394
▁ㄹㅣㅊㅓ -4395
▁ㄱㅗㅇㅈㅓㅇ -4396
▁ㄷㅗㄹㅇㅏㄱ -4397
▁ㅇㅛㅋㅗ -4398
ㅌㅣㅂㅡ -4399
▁ㄴㅗㄱㅅㅐㄱ -4400
▁ㅈㅣㄴㅈㅜ -4401
ㅅㅏㅅㅡ -4402
▁ㅎㅣㅌㅡ -4403
▁ㄱㅕㅇㄹㅗ -4404
▁ㄴㅏㄷㅡㄹㅁㅗㄱ -4405
▁ㅍㅗㄹㅗ -4406
▁ㅈㅓㄴㅁㅕㄴ -4407
ㅂㅣㄹ -4408
▁ㅎㅘㅅㅏㄴ -4409
▁ㅈㅓㄴㅎㅕㅇ -4410
▁ㄹㅏㅇㅣㅌㅡ -4411
ST -4412
▁ㅊㅕ -4413
▁ㅁㅐㅇㅣㄹ -4414
▁ㅇㅏㅌㅔㄴ -4415
▁ㄷㅗㄱㅌㅡㄱ -4416
▁ㄷㅗㅈㅓㄴ -4417
▁ㄴㅏㅌㅏㄴㅏㅆ -4418
▁61 -4419
▁ㅂㅓㅂㅈㅓㅇ -4420
▁ㄱㅏㄴㅎㅐㅇ -4421
ㅍㅗㄹㄹ -4422
▁%, -4423
▁ㅇㅏㅂㄹㅕㄱ -4424
▁ㅂㅜㄴㅎㅐ -4425
▁ㄹㅗㅅㄷㅔ -4426
▁ㅁㅜㄹㅊㅔ -4427
▁ㅎㅐㅁ -4428
ㅜㅁㅕㅇ -4429
▁ㅌㅣㅂ -4430
▁183 -4431
ㄱㅜㅇㅝㄴ -4432
▁ㅎㅕㄴㅈㅣ -4433
▁ㄱㅐㅅㅣㄴ -4434
ㅅㅖ -4435
▁ㅊㅏㄹㅅㅡ -4436
▁ㅍㅏㅇㅏㄱ -4437
▁ㄱㅏㄹㅅㅐㄱ -4438
▁ㄱㅣㅎㅏ -4439
▁ㄴㅡㄴㄱㅏ -4440
▁ㅆㅏㅇㅜㅁ -4441
▁ㅁㅓㄱㅇㅣ -4442
▁ㅅㅣㄴㄹㅚ -4443
▁ㅎㅐㄹㅣ -4444
ice -4445
▁ㅇㅕㅇㅑ -4446
ㅗㄱㅣ -4447
ㅗㅅㅣㅁㅏ -4448
▁ㅅㅗㄴㅈㅏ -4449
ER -4450
▁ㅋㅟ -4451
▁ㅇㅣㄹㅝ -4452
▁ㅇㅘㄴㄹㅛ -4453
▁1961 -4454
▁ㄴㅠㅈㅣㄹ -4455
▁ㄴㅓㅁㅇ -4456
▁ㅁㅜㄲ -4457
▁ㄱㅏㅅㅏㅇ -4458
art -4459
▁ㅂㅜㄴㅎㅏㄹ -4460
▁ㅂㅜㄴㅁㅕㅇ -4461
ㅅㅛ -4462
▁ㅂㅕㄹㅁㅕㅇ -4463
▁ㄲㅓㄲ -4464
▁ㅅㅣㄹㅈㅣㄹ -4465
▁ㅇㅣㅂㄴㅣㄷㅏ -4466
▁ㅈㅔㄷㅐㄹㅗ -4467
▁IS -4468
▁ㅇㅠㅎㅐㅇ -4469
▁ㅌㅜㄱ -4470
▁ㅁㅏㅈㅇㅣ -4471
▁ㅊㅗㅅ -4472
▁ㄴㅠㅈㅣㄹㄹㅐㄴㄷㅡ -4473
▁ㅁㅗㄱㅅㅗㄹㅣ -4474
ㄴㅔ -4475
▁ㄷㅐㄱㅐ -4476
▁ㅌㅔㄹㅓ -4477
▁ㄱㅣㅁㅇㅣㄹ -4478
ON -4479
▁ㄴㅐㅈㅓㄴ -4480
▁ㄲㅡㅌㄴㅏㄴ -4481
▁ㅈㅣㄴㅣㄴ -4482
▁ㄷㅚㄴㄷㅏㄴㅡㄴ -4483
ㅊㅝ -4484
▁ㅈㅘㅇㅜ -4485
▁ㅎㅏㅇㅣㄴ -4486
▁ㄹㅔㅅㅡ -4487
▁ㅂㅐㄴ -4488
▁ㅅㅜㄴㅎㅘㄴ -4489
▁800 -4490
▁ㄲㅡㅌㄴㅐ -4491
▁86 -4492
▁ㅅㅕ -4493
▁ㅍㅜㅇㅂㅜ -4494
▁ㅊㅓㅂㅓㄹ -4495
▁ㅇㅣㄹㅜㄴㄷㅏ -4496
▁ㅇㅘㄴㄱㅗㅇ -4497
▁600 -4498
▁ㅌㅏㄱㅕㄱ -4499
▁ㅇㅏㅍㅏㅌㅡ -4500
▁ㅂㅗㄱㅈㅣ -4501
ㅂㅣㅊ -4502
▁ㅂㅓㅁㅈㅜ -4503
▁ㅁㅗㅎㅕㅇ -4504
▁ㅇㅏㄴㅌㅗㄴ -4505
▁ㅂㅣㅍㅕㅇ -4506
▁re -4507
▁ㅁㅐㄹ -4508
▁ㄱㅜㅎㅕㄴ -4509
▁ㄹㅣㄱㅏ -4510
▁ㅇㅓㅁㅊㅓㅇ -4511
▁ㅎㅏㄴㅈㅏ -4512
▁ㅇㅏㄷㅗㅇ -4513
ㅡㄹㄹㅣ -4514
▁ㅈㅏㄱㅅㅏ -4515
ㅓㄹㄷㅡ -4516
ㅈㅏㅁ -4517
▁ㄴㅓㄼㅇㅣ -4518
▁ㅍㅕㅇㄷㅡㅇ -4519
ia -4520
▁ㄱㅣㄷㅜㅇ -4521
▁ㅆㅏㅇㅜ -4522
ㅌㅔㄴㅊㅡ -4523
▁ㅅㅓㅇㅎㅑㅇ -4524
▁ㅁㅜㄹㄹㅣㅎㅏㄱ -4525
▁ㅂㅔㄱㅌㅓ -4526
▁ㅈㅓㄴㅈㅜ -4527
▁ㅇㅓㄷㅗ -4528
▁ㄱㅜㅎㅏ -4529
▁ㄷㅗㅇㄱㅣ -4530
▁ㅇㅜㄹㅕ -4531
est -4532
▁ㅅㅔㄹㅡㅂ -4533
▁120 -4534
ap -4535
▁ㅂㅏㅇㅎㅐ -4536
▁ㅅㅣㅈㅗ -4537
▁ㅅㅕㄴ -4538
ㅋㅗㅁ -4539
ㅗㄹㅗ -4540
▁ㅅㅗㄱㅎㅏㄴ -4541
▁ㅈㅓㄴㅇㅝㄴ -4542
▁ㅇㅗㄹㄹㅏ -4543
▁ㅊㅜㄱㅜ -4544
▁ㅁㅜㄱㅔ -4545
▁ㅊㅚㄷㅏ -4546
▁ㅈㅓㅅㅜㄹ -4547
▁ㅈㅣㅂㄱㅝㄴ -4548
▁ㅅㅏㄴㅑㅇ -4549
▁ㅎㅘㄱㅅㅏㄴ -4550
▁ㅇㅖㄹ -4551
▁ㅃㅜㄹㅣ -4552
▁ㅅㅡㅍㅣ -4553
▁ㅎㅏㄴㅈㅓㅇ -4554
ㅣㄱㅕㅇ -4555
▁ㅁㅏㄹㄹㅔㅇㅣ -4556
▁ㅃㅐㅇㅏㅅ -4557
▁ㅁㅏㅂㅓㅂ -4558
▁ㄱㅗㅅㅗㄱㄷㅗㄹㅗ -4559
ak -4560
▁ㅅㅏㅇㅇㅟ -4561
▁ㅇㅗㅍㅔㄹㅏ -4562
▁ㅍㅕㄴㅊㅏㄴ -4563
▁ㄲㅡㅌㄴㅏ -4564
▁ㅎㅢㅅㅐㅇ -4565
▁ㅇㅣㄴㅈㅓㅂ -4566
▁ㅇㅜㅁㅈㅣㄱㅇㅣㅁ -4567
▁ㄴㅏㅆ -4568
▁ㄱㅗㅈㅣ -4569
▁ㅅㅐㄱㅕ -4570
▁ㄹㅟ -4571
▁ㅇㅣㄹㅂㅗㄴㅇㅣㄴ -4572
▁ㅊㅜㄹㅂㅓㅁ -4573
▁ㅁㅕㅇㄴㅏㄹㅏ -4574
ㅋㅔㅇㅣㅅㅕㄴ -4575
▁ㅎㅘㅇㅣ -4576
▁ㅇㅣㄹㅇㅓㄴ -4577
▁ㄷㅐㄱㅗㅇ -4578
▁ㅁㅕㅇㅎㅘㄱ -4579
▁ㅍㅏㄴㅅㅏ -4580
▁ㅎㅑㅇㅎㅏ -4581
TV -4582
▁1944 -4583
▁1919 -4584
▁ㅂㅔㄹㅡㄴ -4585
▁ㄱㅘㄱ -4586
▁ㄷㅡㅇㅈㅣ -4587
▁98 -4588
▁ㅇㅕㄴㄱㅜㅇㅝㄴ -4589
▁ㅌㅔㅇㅣ -4590
▁ㅇㅣㄴㅈㅡㅇ -4591
▁ㄴㅏㄹㄱㅐ -4592
▁ㅂㅜㅈㅣㄴ -4593
▁ㄹㅜㅅㅡ -4594
ㅇㅜㄱ -4595
ㅎㅏㅁㅏ -4596
ㅃㅏ -4597
▁ㅎㅗㅈㅜ -4598
ㄹㅠㅇ -4599
▁ㅁㅏㅇㅣㄴ -4600
▁ㅁㅏㅈㅊㅜ -4601
▁ㅈㅓㅈㅣ -4602
▁ㄹㅏㄹ -4603
▁ㄷㅐㅂㅓㅂ -4604
▁63 -4605
▁ㄱㅡㄴㅂㅗㄴ -4606
AR -4607
▁ㅅㅏㅎㅕㅇ -4608
▁ㅎㅑㅇㅎㅐ -4609
▁ㅂㅏㄹㄱㅜㄹ -4610
ㅌㅡㄹㄹㅓ -4611
▁ㅈㅗㅈㅗㅇ -4612
▁ㄷㅏㄴㄷㅗㄱ -4613
ㄷㅣㅅㅕㄴ -4614
▁ㅍㅡㄹㅣㅁㅣㅇㅓ -4615
▁ㅇㅕㅇㅇㅜㅇ -4616
▁ㅁㅔㅁㅗㄹㅣ -4617
▁ㅇㅕㄴㄱㅏㄴ -4618
▁ㄷㅏㅇㅊㅗ -4619
▁ㅂㅓㄹㅕㅆ -4620
▁ㅈㅓㅁㅈㅓㅁ -4621
ㄷㅜㄱ -4622
▁ㅅㅏㅇㅝㄴ -4623
▁ㅅㅓㅁㅕㅇ -4624
▁ㅊㅜㅊㅓㄴ -4625
▁ㅊㅜㅇㄱㅕㄱ -4626
▁ㅁㅏㅊㅣㅁㄴㅐ -4627
▁95 -4628
▁ㅁㅜㄴㅁㅕㅇ -4629
▁ㅌㅏㅁㅅㅏ -4630
▁ㅎㅏㄴㄱㅖ -4631
▁ㅂㅡㄹㅏㅇㅜㄴ -4632
▁ㅎㅐㅇㄹㅕㄹ -4633
▁1941 -4634
▁ㅌㅗㅇㅅㅏㄴ -4635
ㄷㅜㄹ -4636
▁ㄱㅛㅎㅑㅇ -4637
▁ㄱㅣㅇㅗㄴ -4638
▁ㅍㅗㅎㅏㅇ -4639
▁ㅁㅗㅇㅣㅁ -4640
▁ㄱㅘㅇㅂㅗㄱ -4641
▁ㅊㅜㅅㅏㄴ -4642
▁ㄱㅕㅇㅈㅓㄴ -4643
ct -4644
▁ㅈㅓㄱㅈㅓㄹ -4645
▁ㅅㅐㅇㄱㅕㄴ -4646
ㄴㅚ -4647
▁ㅂㅕㄴㅅㅜ -4648
▁ㅇㅏㄱㅎㅘ -4649
▁ㅅㅣㅂㅈㅏㄱ -4650
ㅈㅜㄱㅜㄴ -4651
▁ㄱㅣㄱㅣ -4652
▁ㄱㅏㄱㅈㅣ -4653
▁ㅇㅢㅈㅣ -4654
▁ㄱㅗㅇㄹㅗ -4655
ㅅㅏㅈㅏ -4656
▁ㄱㅗㄹㄷㅡㄴ -4657
▁ㅅㅓㅇㅂㅜㄴ -4658
ㅍㅓㄹ -4659
▁ㅁㅔㄹㅣ -4660
ㅠㄴㅣ -4661
▁ㅍㅗㅇㅣㄴㅌㅡ -4662
ㅞㄹ -4663
▁59 -4664
▁IC -4665
▁ㅇㅢㅎㅗㄱ -4666
▁ㅂㅡㄹㄹㅜ -4667
▁ㅅㅐㄹㅗㅂ -4668
▁ㅈㅜㅇㄱㅣ -4669
▁ㅅㅣㅋㅏㄱㅗ -4670
▁ㅎㅏㄱㅅㅏㄹ -4671
▁ㅂㅜㅎㅏ -4672
ㅑㄹ -4673
▁ㅇㅢㅅㅣㅁ -4674
▁ㄲㅗㅂ -4675
▁ㄱㅐㅁㅏㄱ -4676
▁ㅇㅑㄴ -4677
▁ㅈㅏㅈㅓㄴ -4678
▁ㅎㅗㅇㅂㅗ -4679
ㅔㄹㅣㅋㅏㄴ -4680
▁ㄷㅗㅇㅘ -4681
▁74 -4682
▁178 -4683
▁ㅌㅡㄱㅂㅕㄹㅅㅣ -4684
▁Lo -4685
▁ㅂㅏㅇㅟ -4686
▁ㅈㅏㄱㅡㄱ -4687
ㅎㅏㄱㅅㅐㅇ -4688
▁ㅎㅘㄱㄹㅠㄹ -4689
▁ㄷㅚㄴㄷㅏㄱㅗ -4690
▁;/ -4691
▁ㅂㅜㄴㄱㅣ -4692
ㅡㄹㄹㅣㅇ -4693
▁ㄱㅏㅁㅅㅏ -4694
▁ㄴㅏㅌㅏㄴㅏㄴㄷㅏ -4695
▁ㅁㅐㅈㅏㅇ -4696
▁ㅎㅏㅁㄹㅏㄱ -4697
▁to -4698
▁ㅍㅡㄹㅣㄴ -4699
▁ㄱㅜㅇㅝㄴ -4700
▁ㅍㅡㄹㅗㅇㅣ -4701
▁ㅍㅗㅌㅡ -4702
▁ㄷㅡㄹㅏㅇㅣ -4703
▁ㅅㅡㅁㅏㅌㅡ -4704
▁82 -4705
▁ㅅㅏㅅㅣㄹㅅㅏㅇ -4706
▁ㅇㅞㅅㅡㅌㅡ -4707
ul -4708
▁ㅇㅖㅈㅓㄴ -4709
ㅏㅇㅣㅇㅓㄴ -4710
▁ㄱㅗㅇㅎㅓㄴ -4711
▁1958 -4712
▁ㅋㅏㄹㄹ -4713
▁ㅂㅣㅅㅏㅇ -4714
▁ㅇㅗㄹㅎㅐ -4715
▁ㅇㅗㄹㄹㅕ -4716
▁ㅈㅓㅂㅊㅗㄱ -4717
ㄹㅔㄱ -4718
▁ㅎㅚㄷㅏㅁ -4719
▁ㅎㅗㄴㅎㅏㅂ -4720
▁ㅅㅏㅈㅓㅇ -4721
▁ㅊㅜㄹㄹㅕㄱ -4722
ㅁㅜㅂㅜ -4723
▁DNA -4724
▁ㅂㅜㄴㅇㅟ -4725
▁ㅇㅣㅁㄱㅣ -4726
▁ㅇㅗㄹㅐㅅ -4727
▁1947 -4728
▁ㅎㅏㄴㄱㅜㄱㅇㅣㄴ -4729
▁ㄱㅐㅇㅣㅂ -4730
▁ㅈㅣㅇㅇㅕㄱ -4731
▁ㅇㅏㄱㄱㅣ -4732
▁ㅁㅓㅅ -4733
▁ㅂㅏㄺㅎㅣ -4734
▁76 -4735
▁ㅆㅓ -4736
▁ㅅㅜㄴㅅㅜ -4737
▁ㅂㅗㄱㅗㅅㅓ -4738
▁ㅂㅏㅇㅇㅟ -4739
▁ㄱㅡㄹㅐㅍㅣㄱ -4740
▁ㅇㅑㅇㅉㅗㄱ -4741
▁ㅌㅔㄱㅅㅏㅅㅡ -4742
▁ㅇㅝㄴㅎㅕㅇ -4743
▁ㅅㅣㄹㅎㅕㄴ -4744
ㅏㅇㅗ -4745
▁1956 -4746
▁ㄷㅐㅇㅝㄴ -4747
ㅔㄴㅅㅡ -4748
▁SS -4749
▁ㅅㅜㅅㅓㄱ -4750
ㅈㅣㅋㅓㄹ -4751
▁ㅋㅡㄹㅗㅇ -4752
▁ㅅㅡㅇㄱㅐㄱ -4753
▁ㅇㅏㄴㄷㅗㅇ -4754
▁ㄱㅗㅂ -4755
▁ㅈㅓㅇㅎㅏ -4756
▁ㅎㅜㅅㄴㅏㄹ -4757
▁ㅂㅐㄱㅅㅓㅇ -4758
▁ㄷㅏㄴㅍㅕㄴ -4759
▁ㅇㅣㅂㅂㅓㅂ -4760
▁ㄴㅗㅅㅡ -4761
▁ㅈㅔㅅㅏ -4762
▁ㄱㅕㅇㄴㅏㅁ -4763
▁ㅊㅓㅇㄱㅜ -4764
ㅋㅓㅁ -4765
▁ㅅㅓㄲ -4766
▁ㅎㅏㅂㅊㅕ -4767
▁ㄴㅡㄲㅣ -4768
▁ㅇㅣㅂㄹㅕㄱ -4769
ㄱㅣㅁ -4770
ㄴㅏㅂ -4771
ㄱㅗㄹㅣ -4772
▁72 -4773
▁ㄴㅏㅇㅏㄱㅏ -4774
▁ㅈㅣㄴㅈㅓㅇ -4775
▁ㄷㅡㅇㅍㅏㄴ -4776
▁160 -4777
▁ㄷㅜㄱ -4778
▁ㄱㅡㄸㅐ -4779
▁ㄱㅐㅅㅣㄴㄱㅛ -4780
▁ㅅㅜㄴㄱㅏㄴ -4781
▁ㄱㅣㅅ -4782
▁ㄹㅣㅊㅓㄷㅡ -4783
▁ㅇㅗㄹㅐㅅㄷㅗㅇㅇㅏㄴ -4784
▁ㅋㅣㄴ -4785
ㅇㅙ -4786
▁ㄱㅛㄱㅜ -4787
▁ㅈㅏㄱㅇㅟ -4788
▁ㄷㅗㅇㅁㅕㅇ -4789
ㅅㅜㅇㅇㅣ -4790
▁ㄷㅡㄹㅇㅓ -4791
ie -4792
▁ㅈㅜㄹㄱㅣ -4793
▁ㄷㅗㄱㅇㅣㄹㄱㅜㄴ -4794
▁ㅂㅕ -4795
▁ㅋㅏㄹㅏ -4796
▁ㅇㅏㅅㅏ -4797
▁ㅇㅓㄴㅈㅔ -4798
ㅂㅏㄹㅡ -4799
▁ㄷㅏㅇㅣ -4800
▁ㅅㅏㅇㅜ -4801
▁ㅇㅘㅇㅅㅣㄹ -4802
▁ㅈㅓㄴㅕㄱ -4803
▁ㅋㅓㅁㅠㄴㅣ -4804
▁ㅊㅜㄱㄱㅜㄷㅏㄴ -4805
▁ㄸㅓㄹㅇㅓㅈㅣ -4806
▁ㅇㅏㅇㅣㄷㅗㄹ -4807
▁77 -4808
▁ㅇㅣㄹㅏㅋㅡ -4809
ㅎㅡㅂ -4810
▁ㅇㅔㄷㅡㅇㅝㄷㅡ -4811
ㄷㅐㅂㅜ -4812
ㅋㅗㅅㅡ -4813
▁ㅅㅜㄹㅣ -4814
▁ㅂㅣㅈㅜㅇ -4815
▁ㅅㅣㅅㅏㅇ -4816
▁ㅅㅡㅌㅔ -4817
▁ㅆㅏㄹ -4818
▁ㅌㅜㄹ -4819
ㅋㅟ -4820
▁ㄷㅐㄹㅑㅇ -4821
▁ㅂㅏㄷㅏㄱ -4822
▁ㅇㅕㅇㅘㅇ -4823
▁ㅊㅔㄴ -4824
▁ㅇㅣㄴㅣㅇ -4825
▁ㅇㅕㄹㅗㄴ -4826
▁ㅈㅗㅂㅕㄹ -4827
▁ㅈㅐㄱㅓㄴ -4828
ud -4829
▁ㅂㅏㄹㅂㅏㄹ -4830
▁ㅇㅔㅅㅓㅂㅜㅌㅓ -4831
▁ㅌㅐㄷㅗ -4832
▁ㅅㅣㄴㅂㅜ -4833
▁67 -4834
▁ㄱㅠㄴㅎㅕㅇ -4835
▁ㅊㅣㅁㄹㅑㄱ -4836
▁ㅍㅗㅋㅔㅅ -4837
ly -4838
ㅅㅟ -4839
ㅜㄴㅣ -4840
▁ㅈㅏㅇㅅㅜ -4841
▁ㅇㅕㅇㅈㅣ -4842
▁ㅎㅡㄹㅡㅁ -4843
▁Th -4844
ㅓㅁㅍㅡ -4845
ㅍㅗㅁ -4846
ㅣㅅㅡㅌㅏㄴ -4847
▁ㅋㅗㄴㅅㅡㅌㅏㄴㅌㅣㄴ -4848
▁ㅂㅗㄱㅇㅝㄴ -4849
▁ㅌㅣㅇ -4850
▁1939 -4851
▁ㅍㅡㄹㅏㅇㅋㅡ -4852
og -4853
▁AFC -4854
▁ㅌㅏㅇㅝ -4855
ㅏㅂㅣㅇㅏ -4856
th -4857
▁ㅎㅏㄴㄱㅡㄹ -4858
▁ㅈㅜㅊㅚ -4859
▁ㅈㅏㅁㅅㅜ -4860
ㅇㅡㄴㅎㅐㅇ -4861
▁ㄱㅜㄷ -4862
ㅔㅇㅗㅇ -4863
▁ㅂㅕㅇㅎㅏㅂ -4864
▁ㅂㅏㄲㅏㅌ -4865
▁ㅂㅗㅁㅜㄹ -4866
▁ㅍㅗㄱㅌㅏㄴ -4867
▁ㄱㅏㄹㄹㅏ -4868
ㅅㅔㅁ -4869
▁ㅎㅏㄴㄷㅏㅁㅕㄴ -4870
▁ㅌㅔㅅㅡㅌㅡ -4871
▁ㄱㅘㅎㅏㄱㅈㅏ -4872
▁ㄱㅝㄴㅇㅟ -4873
▁ㅂㅏㅇㅅㅏ -4874
▁ㄷㅐㅇㅘㅇ -4875
▁ㄱㅜㄱㅡㄹ -4876
▁ㅈㅓㅁㅅㅜ -4877
▁ㄷㅗㅂ -4878
▁ㄴㅐㅅㅕㄴㅓㄹ -4879
ist -4880
▁ㅇㅔㅇㅓ -4881
▁ㅂㅡㄹㅗ -4882
▁ㅇㅏㅁㅜ -4883
▁ㄱㅏㅁㅅㅣ -4884
▁ㅅㅓㄱㅇㅠ -4885
ㅏㅇㅣㄴㅏ -4886
▁ㅇㅣㄹㅅㅏㅇ -4887
▁1954 -4888
▁ㅁㅓㄹㄹㅣ -4889
▁ㅎㅘㄱㄹㅣㅂ -4890
▁ㅁㅜㅅㅏ -4891
▁ㅌㅏㅈㅏ -4892
▁ㄷㅏㄷ -4893
▁ㅇㅏㄵ -4894
▁85 -4895
▁ㅂㅗㄹㄹ -4896
▁ㅇㅣㄴㅅㅙ -4897
▁ㄴㅕ -4898
ㅊㅣㅇㅏ -4899
ㅣㅇㅏㅇㅓ -4900
▁ㅇㅏㅁㅎㅗ -4901
▁ㅌㅏㅇㅣㅂ -4902
▁ㄱㅏㄱㅗㅇ -4903
▁ㄷㅐㅅㅓㄴ -4904
▁ㅊㅣㅁㅇㅣㅂ -4905
▁ㅎㅜㄴㅈㅏㅇ -4906
▁ㅁㅏㅅㅣ -4907
▁ㅂㅏㄺㅎㅕㅈㅕㅆ -4908
▁ㅈㅏㅅㅣㄱ -4909
AS -4910
ight -4911
▁ㅂㅗㄱㅅㅜ -4912
▁ㅂㅗㄱㅇㅡㅁ -4913
ㅇㅙㄹㅏㄴ -4914
▁ㅇㅣㅁㅈㅣㄴㅇㅙㄹㅏㄴ -4915
▁ㄷㅗㅇㅇㅑㅇ -4916
▁ㄱㅕㅂ -4917
ㅣㄷㅡ -4918
▁ㅂㅜㄴㅇㅟㄱㅣ -4919
▁ㅅㅣㅅㅏ -4920
▁ㄷㅣㅇ -4921
▁ㅈㅣㅎㅕㅇ -4922
▁ㅅㅣㅁㅅㅏ -4923
▁ㅇㅣㄹㅅㅣ -4924
▁ㄴㅏㅍㅗㄹㄹ -4925
▁ㅇㅏㅇㅜ -4926
▁ㅍㅕㅇㅇㅏㄴ -4927
▁ㄱㅏㄹㅑㅇ -4928
▁ㅇㅓㄴㄷㅓㄱ -4929
▁ㄹㅔㅅ -4930
ㅏㅌㅏ -4931
▁ㅇㅕㄴㅇㅖ -4932
▁ㅇㅠㄱㅣ -4933
▁ㅎㅜㅈㅣ -4934
▁ㅁㅣㄴㅈㅜㅇ -4935
▁ㅅㅏㅇㅇㅕㄱ -4936
▁ㅌㅏㅇㅜㄴ -4937
▁ㅂㅜㅅㅏ -4938
▁ㄷㅏㅇㄱㅜㄱ -4939
▁ㅎㅐㄴ -4940
ㅍㅗㄹㄹㅣ -4941
▁ㄱㅗㅇㅈㅜㅇ -4942
▁ㅅㅡㅇㅂㅜ -4943
ㅋㅏㅇㅣㄷㅗ -4944
▁ㄱㅔㅇ -4945
▁ㄴㅔㄱ -4946
▁1952 -4947
▁ㄷㅐㄹㅣ -4948
▁ㅂㅏㄹㅇㅡㅁ -4949
▁* -4950
ㅜㄴㅏ -4951
▁ㅇㅏㅅㅡ -4952
▁ㄱㅓㄴㄴㅓ -4953
▁ㄴㅏㅍㅗㄹㄹㅔㅇㅗㅇ -4954
▁73 -4955
▁ㅁㅜㅅㅣ -4956
▁ㄱㅡㅂㅈㅔ -4957
▁ㅊㅏㅇㅈㅏㄱ -4958
▁ㅅㅜㅇㅣㄱ -4959
▁ㅈㅓㅇㅊㅣㄱ -4960
ㄷㅔㅌㅏ -4961
ㅡㄹㄹㅏ -4962
ㅋㅏㅁ -4963
▁ㄱㅓㄷㅡㅂ -4964
▁ㅅㅔㄹㅣ -4965
▁ㅍㅖㅅㅙ -4966
▁ㅅㅡㅌㅏㄷㅣㅇ -4967
▁ㅇㅓㄷㅣ -4968
▁ㅎㅜㄱㅖ -4969
AT -4970
▁ㄱㅣㅇㅜㄹ -4971
▁ㅎㅕㄱㅅㅣㄴ -4972
▁ㅈㅐㅂㅐ -4973
▁ㅍㅕㄹㅊㅕ -4974
▁ㅈㅓㄴㅅㅣㄴ -4975
▁ㄱㅏㄷㅏㅁ -4976
▁ㅇㅔㄱㅅㅡ -4977
▁ㅂㅓㄹㅇㅕㅆ -4978
▁ㅈㅗㅈㅗ -4979
▁ㄷㅗㅇㅛ -4980
▁ㅇㅜㅁㅈㅣㄱㅇㅣ -4981
▁ㅇㅏㄹㅡㅁㄷㅏㅇㅜㄴ -4982
▁ㅎㅣㄴ -4983
▁ㅊㅓㄴㅈㅜㄱㅛ -4984
▁ㅂㅣㄹㅂㅗㄷㅡ -4985
▁ㄷㅗㄹㅇㅏㅇㅘㅆ -4986
ㅕㄱㅏ -4987
▁ㅊㅏㅁㅁㅗ -4988
▁ㅇㅟㅇ -4989
▁ㄱㅖㅊㅡㅇ -4990
▁ㅅㅣㄹㄹㅕㄱ -4991
▁96 -4992
ㅈㅏㅊㅣ -4993
▁ㅂㅗㄴㅈㅣㄹ -4994
ㅜㄱㅅㅡ -4995
ㅈㅗㅎㅏㅂ -4996
▁ㅇㅏㅌㅔㄴㅔ -4997
▁Al -4998
▁ㄷㅗㅇㅂㅏㅇ -4999
▁ㅂㅏㄱㅈㅓㅇㅎㅢ -5000
▁78 -5001
▁ㅂㅏㅇㅣㅇㅔㄹ -5002
▁ㅅㅏㄴㅎㅘ -5003
▁ㅂㅗㅅㅏㄹ -5004
▁202 -5005
▁ㅇㅓㄲㅐ -5006
▁81 -5007
ㅣㅂㅓ -5008
▁ㅅㅏㅈㅔ -5009
▁ㅈㅏㅇㄴㅏㅁ -5010
▁ㅁㅠㅈㅣㅋㅓㄹ -5011
▁ㅁㅜㅎㅏㄴ -5012
▁ㅎㅜㅅㅗㄱ -5013
ㅍㅣㄹㄷㅓ -5014
▁ㄹㅗㅂㅗㅅ -5015
▁ㄱㅏㅅㅓㄹ -5016
▁ㅁㅣㄷㅡㅍㅣㄹㄷㅓ -5017
▁ㅁㅜㄴㅅㅣㄴ -5018
▁ㅊㅓㅇㅈㅜ -5019
▁ㅌㅏㄹㅌㅚ -5020
ㅈㅣㅇㅓ -5021
▁ㅂㅏㄷㅇㅏㄷㅡㄹㅇㅕ -5022
▁ㅍㅣㄹㄹ -5023
▁ㅇㅗㅁ -5024
▁ㄱㅣㅇㅔ -5025
▁ㄴㅗㅊㅜㄹ -5026
▁ㄱㅡㄹㅣㅅㅡㄷㅗ -5027
▁ㄴㅏㄴㅟㄴㄷㅏ -5028
ㅏㅋㅣ -5029
ㅣㅇㅏㅇㅣㄴ -5030
▁ㅈㅐㅎㅏㄱ -5031
▁ㅊㅗㅇㅎㅚ -5032
▁ㅍㅕㅇㄹㅗㄴ -5033
▁ㅎㅐㅂㅏㄹ -5034
▁ㄴㅔㅇㅣ -5035
ㅁㅣㄴㅈㅜ -5036
ess -5037
▁ㅎㅏㅇㅝㄴ -5038
▁ㅈㅓㅇㅎㅐ -5039
▁NH -5040
▁ㅅㅣㄴㅈㅏ -5041
▁DV -5042
▁ㄸㅏㄹㅗ -5043
▁ㅇㅠㅎㅏㄴ -5044
▁ㄱㅐㅅㅓㄹ -5045
▁ㅁㅟㄴ -5046
ㅔㄴㅣㅇㅏ -5047
▁ㅊㅏㅁㄱㅗ -5048
▁ㅂㅣㄹㄷㅣㅇ -5049
▁ㅈㅓㄴㄴㅏㅁ -5050
▁ㄹㅔㄱ -5051
▁ㅎㅐㅇㅂㅗㄱ -5052
▁Li -5053
▁1959 -5054
▁ㄷㅐㅈㅣ -5055
▁ㅈㅗㅎㅇㅏ -5056
▁ㅈㅜㅇㄹㅕㄱ -5057
▁ㄷㅏㅅㅗ -5058
ㅌㅓㅅㅡ -5059
▁ㅅㅜㄷㅗㅇㅝㄴ -5060
▁ㅅㅏㅁㅜㅅㅗ -5061
▁ㅈㅓㄴㅈㅣㄱ -5062
ㄱㅣㅇ -5063
▁ㅎㅘㅈㅏㅇ -5064
▁ㅍㅏㅇㅝ -5065
▁ㅈㅓㄴㅌㅜㄱㅣ -5066
▁ㅇㅓㄹㅕㅇㅜㄴ -5067
▁71 -5068
▁ㅈㅘㅅㅏㅇ -5069
▁ㅍㅔㄹㅡㅅㅣㅇㅏ -5070
▁ㅇㅟㅅ -5071
▁ㅈㅓㄹㅂㅏㄴ -5072
ㄹㅣㄱ -5073
▁ㅎㅘㅇㅣㅌㅡ -5074
▁ㄷㅗㅁㅏ -5075
▁ㄷㅗㅇㅅㅓ -5076
▁ㄱㅣㅁㅅㅓㅇ -5077
▁ㄱㅣㄹㅣ -5078
▁ㅂㅓㅅㅇㅓㄴㅏ -5079
▁177 -5080
▁ㅇㅗㄻㄱㅕㅆ -5081
▁ㅅㅜㅇㅛ -5082
▁ㅍㅗㄹㄹㅣ -5083
▁AT -5084
▁ㅂㅣㅅㅓ -5085
▁ㅅㅏㅈㅏ -5086
▁ㄱㅗㅌㅗㅇ -5087
▁ㅌㅏㅇㅣㄴ -5088
▁ㅅㅏㅇㄱㅘㄴ -5089
▁ㅈㅣㄴㄷㅏㄴ -5090
▁91 -5091
▁ㄱㅏㄲㅏㅇㅣ -5092
▁ㅎㅘㅎㅏㅂ -5093
ㅏㅌㅣㅇㅏ -5094
▁ㄴㅐㄹㅕㅇ -5095
▁ㄱㅣㅅㅗ -5096
▁ㄷㅗㅇㅎㅐ -5097
▁ㅇㅣㅎㅗㄴ -5098
▁ㅇㅣㄴㅇㅛㅇ -5099
▁ㅇㅕㅅㅓㅅ -5100
▁ㅊㅓㄴㅇㅏㄴ -5101
▁ㄷㅡㅅㅇㅣ -5102
▁ㄹㅔㅇㅏㄹ -5103
▁ㅎㅘㅇㅎㅜ -5104
ㅇㅣㄴㅁㅜㄹ -5105
ㅊㅔㅅㅡㅌㅓ -5106
▁ㅈㅣㄹㅎㅘㄴ -5107
▁ㅎㅔㅇ -5108
▁ㅅㅗㄴㅅㅏㅇ -5109
▁ㄷㅏㅇㄴㅏㄹㅏ -5110
ㄱㅘㄹ -5111
▁ㅅㅐㅇㅁㅜㄹㅎㅏㄱ -5112
▁ㅅㅐㅇㄱㅣㄴ -5113
BA -5114
▁ㅅㅣㅁㅈㅏㅇ -5115
▁ㄱㅜㄱㄱㅣ -5116
▁ㅇㅐㄱㅅㅕㄴ -5117
▁ㄷㅜㄹㅕㅇ -5118
▁ㅂㅐㄱㅁㅏㄴ -5119
▁ㅁㅏㅁㅜㄹㅣ -5120
▁ㅂㅠ -5121
▁ㄷㅣㅅㅡㅋㅡ -5122
▁\ -5123
▁ㅂㅏㅇㅣㅇㅔㄹㅡㄴ -5124
▁ㄱㅏㅅㅡㅁ -5125
▁ㅈㅏㄱㄷㅗㅇ -5126
▁ㅂㅗㅅㅏㅇ -5127
▁st -5128
▁ㅅㅡㅇㄹㅕ -5129
▁ㄱㅜㄱㄱㅜㄴ -5130
ub -5131
▁ㅍㅐㅅㅕㄴ -5132
▁ㅈㅘㅇ -5133
ㅊㅣㄹㅠ -5134
▁1942 -5135
▁ㄱㅡㅁㅏㄴ -5136
▁ㅂㅏㅇㅣㅇ -5137
ㄹㅓㅁ -5138
▁ㅂㅣㄹㅖ -5139
▁ㄱㅡㄹㅓㅎㄱㅔ -5140
▁ㅇㅏㅁㅔㄹㅣㅋㅏㄴ -5141
▁ㅁㅔㅅㅣㅈㅣ -5142
▁ㅎㅔㅇㅣ -5143
▁ㅈㅣㅎㅑㅇ -5144
▁ㅂㅜㅅㅏㄴㄱㅘㅇㅇㅕㄱㅅㅣ -5145
ㅇㅣㄹㅂㅗ -5146
▁ㅇㅣㄴㅅㅐㅇ -5147
▁ㄱㅘㄴㅇㅕ -5148
▁ㅎㅗㅅㅋㅏㅇㅣㄷㅗ -5149
▁ㅇㅕㄱㅕㅈㅣㄴㄷㅏ -5150
▁ㅈㅜㄹㅕㄱ -5151
▁ㅁㅗㅌㅗ -5152
▁ㄱㅕㅇㅂㅜㄱ -5153
▁ㄱㅛㄹㅣ -5154
▁ㅇㅑㄱㅁㅜㄹ -5155
▁ㄷㅣㄹ -5156
▁ㄱㅡㄹㄹㅗㅂㅓㄹ -5157
▁ㅅㅓㅅㅣㄱㅈㅣ -5158
▁ㄸㅜ -5159
▁ㅎㅗㄴㅇㅣㄴ -5160
▁ㅇㅠㅎㅕㅇㅁㅜㄴㅎㅘㅈㅐ -5161
▁ㅈㅣㅅㅏ -5162
ㅌㅔㄹㅡ -5163
▁ㅇㅠㅌㅗㅇ -5164
ㄷㅡㄹㅣㅎㅣ -5165
ㅣㅂㅡㄴ -5166
▁ㅍㅣㅎㅏ -5167
ㅋㅓㄷ -5168
ㄱㅏㄹㅏㄱ -5169
▁ㅍㅔㅇㅣㅈㅣ -5170
ㅏㄴㅏ -5171
▁ㄷㅗㄷㅓㄱ -5172
▁1955 -5173
▁87 -5174
▁ㄴㅣㄱ -5175
▁ㅈㅔㅇㅣ -5176
▁159 -5177
ㅈㅣㅅㅏ -5178
▁ㅅㅣㅇㄱㅏ -5179
▁ㅅㅓㄴㅂㅏㄱ -5180
▁ㅅㅡㅌㅏㄷㅣㅇㅜㅁ -5181
▁ㅁㅏㄹㄹㅔㅇㅣㅅㅣㅇㅏ -5182
▁ㅇㅝㄴㄴㅕㄴ -5183
▁ㅇㅣㄹㅋㅓㄷ -5184
▁ㅇㅘㅇㅂㅣ -5185
▁ㄱㅜㄱㅈㅓㅇ -5186
▁ㅇㅕㄱㅎㅏㄱ -5187
▁ㄷㅡㄹㅐㅍㅡㅌㅡ -5188
▁ㄱㅏㅇㅘ -5189
IA -5190
ㅓㄷ -5191
ㄹㅣㄹ -5192
▁AP -5193
▁ㄷㅏㅇㅣㅇ -5194
▁ㄱㅏㅈㅣㄴㄷㅏ -5195
▁ㅋㅡㄹㅗㅇㅏㅌㅣㅇㅏ -5196
▁ㅊㅗㅇㅈㅏㅇ -5197
▁ㅂㅓㄹㅇㅣ -5198
▁ㅅㅠㄹ -5199
ab -5200
ㄹㅣㅎㅣ -5201
▁1943 -5202
▁1953 -5203
▁ㅅㅏㄴㅅㅗ -5204
▁ㅃㅏㅈㅕ -5205
▁ㅈㅓㅇㅊㅏ -5206
▁ㅌㅗㅇㅎㅘ -5207
▁ㅈㅓㄱㅎㅏㅂ -5208
▁ㅁㅜㄹㅛ -5209
▁ㅅㅏㅇㅠ -5210
▁ㅍㅣㅎㅐㅈㅏ -5211
▁ㅁㅐㅊㅔ -5212
▁ㅈㅗㅅㅏㅇ -5213
▁ㄴㅡㄴㄷㅏㄴㅡㄴ -5214
ㄷㅐㄱㅣ -5215
▁ㄱㅣㅅㅏㅇ -5216
▁ㅂㅜㅊㅣㄴ -5217
ㅈㅣㄱㅈㅏ -5218
▁ㅇㅘㅇㅎㅜ -5219
▁ㅅㅏㅇㅅㅣㄹ -5220
▁ㅂㅔㅇㅣㅅㅡ -5221
ㅇㅓㅇ -5222
▁1936 -5223
▁ㅂㅣㅈ -5224
▁84 -5225
ㅇㅠㅅㅏㄴ -5226
▁ㅂㅜㄹㅁㅏㄴ -5227
▁ㅅㅣㅇㄱㅏㅍㅗㄹㅡ -5228
ㅓㅅㅡㅌㅡ -5229
▁ㅂㅣㅊㅣ -5230
▁ㄴㅏㅌㅏㄴㅐㄴㄷㅏ -5231
▁ㄱㅏㅇㅛ -5232
▁ㅁㅗㅂㅏㅇㅣㄹ -5233
▁ㅈㅓㄴㄷㅗㅇㅊㅏ -5234
▁ㄱㅣㅁㅇㅣㄹㅅㅓㅇ -5235
▁ㅍㅡㄹㅏ -5236
▁ㅇㅖㅂㅏㅇ -5237
▁ㅅㅓㄴㅇㅣㅁ -5238
▁ㅈㅜㅅㅓㄱ -5239
ㅅㅡㅌㅣㄴ -5240
▁ㄱㅠㅈㅔ -5241
▁ㄱㅕㄹㅇㅢ -5242
▁ㅇㅗㅈㅣㄱ -5243
ㅔㄹㄹㅓ -5244
▁ㄱㅐㅂㅏㅇ -5245
▁ㅇㅕㄴㅅㅡㅂ -5246
ㅍㅜ -5247
▁ㅇㅓㄹㅕㅇㅜㅁ -5248
▁ㅇㅏㅇㅜㅅ -5249
▁ㅍㅣㄹㄷㅡ -5250
IV -5251
▁ㄷㅔㅅㅡ -5252
▁ㄱㅐㅅㅓㅇ -5253
▁ㅍㅡㄹㅗㅇㅣㅅㅔㄴ -5254
▁ㅂㅏㄹㅌㅏㄱ -5255
▁ㄴㅜㄹㅡ -5256
▁ㅂㅜㄷㅏㅁ -5257
▁ㅎㅜㅋㅜㅇㅗㅋㅏ -5258
▁700 -5259
▁ㅇㅡㅁㅇㅏㄱㄱㅏ -5260
▁ㄲㅔ -5261
▁ㅅㅏㅁㅜㅅㅣㄹ -5262
▁ㅇㅜㅅ -5263
▁ㅇㅣㅇㅓㅈㅕㅆ -5264
▁ㅈㅏㅇㅣㅇㅓㄴ -5265
ㅊㅔㄹㅗ -5266
ㅎㅏㅇㅕ -5267
▁ㄱㅣㄷㅗㅇ -5268
▁ㅅㅔㄹㅡㅂㅣㅇㅏ -5269
▁ㅍㅜㅅ -5270
▁ㄱㅕㄹㄹㅗㄴ -5271
▁ㅇㅟㅋㅣ -5272
▁ㅇㅣㄹㅊㅔ -5273
▁ㅇㅟㄷㅐ -5274
▁ㅇㅣㄹㅂㅗㄴㅇㅓ -5275
▁ㅅㅣㅁㅍㅏㄴ -5276
▁ㄱㅐㅊㅣㅇ -5277
▁ㅇㅗㄹㄹㅏㄱㅏ -5278
ine -5279
▁ㅇㅣㄹㄱㅣ -5280
▁1910 -5281
▁ㅎㅜㅋㅜ -5282
▁ㅅㅗㄷㅡㄱ -5283
▁ㅇㅏㄹㄱㅗㄹㅣ -5284
▁Re -5285
ㅎㅣㄹㅗ -5286
ㄸㅡㄹ -5287
▁ㅈㅕㅆㅇㅡㅁㅕ -5288
▁ㅊㅓㅂㅜㄴ -5289
▁ㅇㅣㄴㅇㅝㄴ -5290
▁ㄱㅣㅁㅈㅗㅇ -5291
▁ㅅㅏㄱㅕㄱ -5292
▁ㅍㅡㄹㅐㅇ -5293
▁ㅅㅓㄹㄷㅡㄱ -5294
▁ㅅㅡㅌㅣㅂㅡㄴ -5295
ㅏㄴㅅㅐㄱ -5296
ㅌㅗㅅㅡ -5297
▁ㅈㅗㅋㅏ -5298
▁ㄴㅗㄹㄹ -5299
▁ㅈㅓㄴㅂㅜㄱ -5300
▁ㅂㅓㅈㅣㄴ -5301
▁ㅇㅛㄱㅡㅁ -5302
ㄱㅅㅡ -5303
▁ㄱㅏㅇㄹㅡㅇ -5304
▁ㅋㅜㄷㅔㅌㅏ -5305
▁ㅂㅗㄴㅁㅕㅇ -5306
▁ㄱㅓㅁㅌㅗ -5307
▁ㄱㅜㅇㅈㅓㄴ -5308
▁ㄴㅏㅁㅇㅏㅍㅡㄹㅣㅋㅏ -5309
▁ㅅㅗㅁㅕㄹ -5310
▁ㅇㅓㄱㅈㅔ -5311
ㄷㅗㄱㅂㅜ -5312
▁ㅁㅏㅈㅅㅓ -5313
▁ㅈㅓㄴㄷㅏㅇ -5314
▁ㄷㅗㅁㅗ -5315
▁ㅇㅕㅆㅇㅡㄹ -5316
▁;, -5317
ㅇㅘ -5318
ew -5319
▁ㅁㅣㅁ -5320
▁ㅇㅏㅇㅣㄴ -5321
▁ㄷㅗㄹㅇㅏㅇㅘ -5322
▁ㅍㅗㄱㄱㅕㄱ -5323
ㅋㅡㄹㄹㅣ -5324
▁ㅅㅣㅁㅈㅣㅇㅓ -5325
▁1957 -5326
▁ㅇㅏㅌㅡ -5327
▁ㅍㅏㅇㅣㄴ -5328
▁ㄷㅗㅇㅂㅜㄱ -5329
▁=" -5330
▁ㅋㅙ -5331
ㅂㅗㅅ -5332
▁ㅌㅏㅇㅣㄱ -5333
▁ㅍㅓㄹ -5334
▁ㅇㅏㄹㄱㅗㄹㅣㅈㅡㅁ -5335
ㅅㅡㅌㅗㄴ -5336
▁ㅈㅓㅇㅅㅜ -5337
▁ㅇㅓㅁㅊㅓㅇㄴㅏㄴ -5338
▁ㅈㅐㄱㅅㅡㄴ -5339
▁ㅊㅏㅇㄷㅏㅇ -5340
▁ㄹㅣㄹ -5341
▁ㅂㅜㄴㄴㅗ -5342
▁ㅎㅓㄹㅣ -5343
▁ㅇㅣㅁㅕㅇ -5344
▁ㅁㅔㅇㅣㅈㅣ -5345
▁ㄹㅐㄴㄷㅡ -5346
▁ㅈㅓㄴㅅㅗㅇ -5347
▁ㅊㅐㅁㅍㅣㅇㅓㄴㅅㅣㅂ -5348
▁ㅅㅗㄱㅎㅐ -5349
▁ㅇㅡㅁㅅㅓㅇ -5350
ㅌㅗㄹㅣ -5351
▁1914 -5352
▁ㅋㅠ -5353
▁ㅍㅡㄹㅏㅇㅣ -5354
▁ㄱㅜㅇㅣㅂ -5355
▁ㄷㅏㄹㄹㅏ -5356
▁69 -5357
▁ㅇㅣㄹㅡㄴㄷㅏ -5358
▁ㅌㅗㄹㅗㄴㅌㅗ -5359
▁ㄲㅗ -5360
▁ㄱㅏㅅㅣ -5361
▁ㅍㅡㄹㅣㄷㅡㄹㅣㅎㅣ -5362
▁97 -5363
▁ㅍㅓㅇ -5364
ue -5365
▁ㄱㅏㅁㅏ -5366
▁ㅂㅣㄹㄹㅣ -5367
▁ㄷㅐㅊㅔㄹㅗ -5368
▁ㅂㅏㄹㅁㅕㅇ -5369
▁ㅋㅗㄴㅌㅔㄴㅊㅡ -5370
▁ㅅㅏㄷㅗ -5371
▁ㅇㅝㄴㅈㅜㅁㅣㄴ -5372
▁ㄱㅡㅇㅈㅓㅇ -5373
ㅎㅐㅅㅓ -5374
▁ㅇㅣㅊㅣ -5375
ㅅㅡㅌㅡㄹㅏ -5376
▁ㄱㅓㅁㅅㅐㄱ -5377
▁ㅌㅐㅈㅗ -5378
▁ㅅㅏㅇㅅㅗㄱ -5379
▁ㅍㅗㅋㅔㅅㅁㅗㄴ -5380
▁ㅈㅣㄴㅇㅕㅇ -5381
▁ㄱㅗㄱㅣ -5382
▁ㄱㅣㅍㅇㅣ -5383
▁ㅅㅣㄴㅈㅏㅇ -5384
▁ㅆㅡㅇㅕ -5385
ㄹㅣㅎㅏㄱ -5386
▁ㅌㅔㅁㅏ -5387
▁ㅍㅗㅅㅡㅌㅡ -5388
▁ㄷㅏㅅㅡㄹ -5389
▁1900 -5390
▁ㅋㅜㅇ -5391
▁ㅈㅡㄱㅅㅣ -5392
▁ㄴㅏㅇㅗㄴㄷㅏ -5393
ㅌㅔㅁ -5394
ㅋㅡㄹㅗ -5395
▁ㅇㅏㅍㅡㄱㅏㄴ -5396
▁ㅁㅣㅅㅜㄹㄱㅘㄴ -5397
▁ㅎㅠㄷㅐ -5398
▁ㅅㅏㅁㅏㄱ -5399
▁92 -5400
ㄷㅏㄱ -5401
▁ㄱㅜㅁㅐ -5402
▁ㅈㅏㄴㅡㄴ -5403
▁ㅊㅗㅈㅓㅁ -5404
EC -5405
▁ㅊㅜㅂㅏㅇ -5406
ㅇㅣㅍ -5407
ㄷㅣㅇㅓ -5408
▁ㅎㅣㅌㅡㄹㄹㅓ -5409
▁ㅅㅏㅇㅜㅅㅡ -5410
▁ㅇㅗㄹㄹㅏㄱ -5411
▁ㄷㅐㅊㅐㄱ -5412
▁ㅅㅣㄴㄱㅗ -5413
ㅅㅣㅅㅡㅋㅗ -5414
▁ㅅㅡㅁㅣㅅㅡ -5415
ㄱㅛㅇ -5416
▁ㄱㅘㅇㅂㅓㅁ -5417
▁ㅇㅣㄴㄷㅣㅇㅓㄴ -5418
▁ㅍㅣㄹㅅㅜ -5419
▁ㅂㅜㄹㄱㅏㄹ -5420
▁ㅎㅏㅅ -5421
▁ㅂㅐㅍㅗ -5422
▁ㅂㅜㄹㅇㅏㄴ -5423
ㅗㅍㅡ -5424
▁ㄱㅗㅁ -5425
▁1938 -5426
▁ㅍㅣㅌㅓ -5427
ㅂㅏㅂ -5428
ㅔㄹㄹㅗㄴㅏ -5429
▁01 -5430
▁ㅋㅗㄹㅡ -5431
▁ㅂㅗㅇㅕㅈㅜㄴㄷㅏ -5432
▁ㅅㅓㄱㅅㅏ -5433
▁HD -5434
▁ㅈㅏㄱㅜㄱ -5435
▁ㅇㅞㅇㅣㄹ -5436
ㅇㅝㄴㄱㅕㅇ -5437
▁DVD -5438
ㄲㅏㄹ -5439
▁ㅇㅕㄴㅅㅓㄹ -5440
▁ㄹㅣㅂㅓ -5441
ㅗㅅㅔㅅㅓ -5442
▁ㅎㅗㅅㅗ -5443
▁ㅅㅓㄴㅎㅕㅇ -5444
▁ㅍㅗㅅㅡ -5445
▁{ -5446
▁ㅇㅓㅂㅈㅓㄱ -5447
▁ㅈㅐㅈㅡ -5448
▁ㅊㅓㄴㅁㅏㄴ -5449
ㄹㅣㅅ -5450
▁101 -5451
▁ㅎㅏㄱㅅㅏ -5452
▁ㅈㅗㅅㅓㄴㅊㅗㅇ -5453
▁ㅉㅏㄱ -5454
▁ㄴㅔㄹ -5455
▁ㅌㅣㄱ -5456
ㅈㅏㅋㅣ -5457
▁ㅈㅗㅅㅓㄴㅊㅗㅇㄷㅗㄱㅂㅜ -5458
▁ㅇㅕㄴㅍㅕㅇ -5459
▁ㅅㅣㄴㅐㅂㅓㅅㅡ -5460
▁ㅅㅔㅌㅡ -5461
▁ㅅㅓㅅㅜㄹ -5462
▁ㅈㅜㅅㅗ -5463
ㅜㅇㅏ -5464
ㅣㅊㅣ -5465
▁ㅂㅜㅇㅟ -5466
▁ㄹㅣㄷㅡ -5467
BM -5468
ㅂㅣㅎㅣ -5469
▁ㅎㅜㅇㅣㅁ -5470
▁ㅇㅠㅅㅏㄴ -5471
▁ㅅㅜㅇㅓㅂ -5472
ㅋㅔㄴ -5473
▁ㅇㅝㄴㅅㅜ -5474
▁ㅈㅣㄴㄱㅕㄱ -5475
▁ㅅㅓㄹㅊㅣㄹㅠ -5476
▁ㅅㅔㅂㅜ -5477
▁ㅇㅣㄴㅐ -5478
▁ㅇㅕㅇㅇㅑㅇ -5479
▁ㄴㅡㄲㅣㅁ -5480
▁ㅂㅏㄹㅡㅅㅔㄹㄹㅗㄴㅏ -5481
▁ㅇㅕㄴㄹㅏㄱ -5482
ㄷㅏㅇㅣ -5483
▁1918 -5484
▁ㅍㅣㅂㅜ -5485
ㅅㅡㅌㅣㅇ -5486
▁ㄹㅏㅌㅣㄴㅇㅓ -5487
▁ㄷㅡㅇㅈㅏㅇㅇㅣㄴㅁㅜㄹ -5488
▁on -5489
▁ㅍㅏㄹㅡ -5490
ㄷㅐㅇㅣㄴ -5491
ㅊㅗㅇㄹㅣ -5492
▁ㅈㅓㅂㅎㅏㄴㄷㅏ -5493
▁ㅂㅜㄷㅗㅇ -5494
▁ㅌㅣㄴ -5495
▁ㄱㅡㄹㅔㄱ -5496
▁ㅅㅡㅍㅡㄹㅣㅇ -5497
▁1951 -5498
▁ㅁㅔㄷㅏㄹ -5499
▁ㅂㅜㄴㄱㅛ -5500
ㅂㅐㅁ -5501
ㅌㅡㄹㄹ -5502
▁ㄴㅏㅋㅏ -5503
▁1932 -5504
▁ㄱㅐㄹㅑㅇ -5505
▁ㅈㅓㅈㅏ -5506
▁ㄹㅜㄱ -5507
ㅅㅏㄴㅎㅘ -5508
ect -5509
▁ㄹㅕㅁㅕㄴ -5510
▁ㅅㅡㅌㅐㄴ -5511
▁ㅈㅓㅇㄱㅛㅎㅚ -5512
▁ㅎㅘㄴㅅㅡㅇ -5513
▁ㅇㅏㅁㅋㅓㅅ -5514
ㅅㅔㅍㅗ -5515
▁ㄴㅡㄱ -5516
▁ㅅㅗㅁ -5517
▁ㅂㅏㅇㅇㅓㄴ -5518
ㅇㅣㅇ -5519
ㅈㅔㄱㅜㄱ -5520
▁ㅇㅜㄴㅎㅏㅇ -5521
▁ㅊㅚㅇㅜ -5522
▁ㄷㅡㄹㅐㄱ -5523
▁ㅁㅏㅌㅣㄴ -5524
▁ㄱㅜㄱㅈㅓㄱ -5525
▁ㄱㅡㅂㄱㅕㄱ -5526
▁ㅎㅘㄹㅕ -5527
▁ㄸㅗㄱ -5528
▁ㅋㅗㄹㅣㅇㅏ -5529
ㅂㅐㅇ -5530
▁ㄷㅐㅁㅏㄴ -5531
▁ㄱㅏㄱㄱㅜㄱ -5532
▁ㅅㅏㅇㅇㅣㄴ -5533
▁ㄹㅔㅁ -5534
ㄷㅏㄹㅏㄴ -5535
▁ㅅㅏㄱㅘ -5536
ㅅㅏㅈㅓㄴ -5537
▁ㄱㅖㄱㅗㄱ -5538
ㅐㄴㅏ -5539
▁ㅈㅓㄴㅅㅜㄹ -5540
▁89 -5541
▁ㅈㅗㅊㅏ -5542
▁ㄱㅗㄱㅡㅂ -5543
▁1937 -5544
▁ㅁㅗㅇㅡㅁ -5545
ㅈㅜㄱㅜㄱ -5546
▁ㅂㅏㄹㄱㅏㄴ -5547
▁ㅇㅛㅇㅇㅣㄴ -5548
▁ㅇㅞㄹ -5549
▁ㅇㅓㄴㅅㅡ -5550
▁ㅇㅘㄴㅂㅕㄱ -5551
▁ㅎㅢㄴㅅㅐㄱ -5552
▁ㅅㅓㅇㄴㅏㅁ -5553
▁ㅎㅓㅅ -5554
▁ㅅㅣㅇㅇㅓ -5555
ㅂㅏㄹㅗ -5556
▁ㅅㅗㅎㅕㅇ -5557
▁ㅎㅘㅅㅓㄱ -5558
▁ㅇㅜㅋㅡㄹㅏ -5559
▁ㅁㅏㄹㅡㅌ -5560
ㅌㅏㄹㅡ -5561
▁ㅅㅗㅂㅣㅈㅏ -5562
▁ㅇㅣㄹㄹㅕㄴ -5563
▁ㅅㅣㄴㅅㅏ -5564
▁ㅂㅓㄹㅇㅓㅈㅣㄴ -5565
ㅅㅜㅁ -5566
ㄱㅘㄱ -5567
▁ㄹㅐㅂ -5568
▁1935 -5569
▁ㄱㅗㅇㅟ -5570
ㅅㅔㅇㅣ -5571
▁ㅅㅣㄹㅊㅓㄴ -5572
ㅜㄴㅌㅡ -5573
▁182 -5574
▁ㅂㅜㅈㅣ -5575
▁ㅂㅐㄱㅇㅣㄴ -5576
▁ㄱㅜㅅㅏㅇ -5577
▁ㄹㅓㅆㄷㅏ -5578
▁ㅅㅐㅇㄱㅕㅆ -5579
ㅂㅔㄴ -5580
▁ㄱㅗㄱㅐㄱ -5581
▁ㅅㅏㅌㅚ -5582
▁ㄱㅗㅇㅑㅇㅇㅣ -5583
▁ㅅㅏㅊㅏㄹ -5584
ㅍㅣㄹㄷㅡ -5585
▁ㄷㅡㄹㅓㅁ -5586
ㄲㅡㄹ -5587
▁ㅅㅔㄱㅡㅁ -5588
▁ㅊㅣㅇㅎㅗ -5589
▁ㅅㅗㄴㅅㅣㄹ -5590
▁ㅈㅣㄴㅎㅏㄱ -5591
▁ㄷㅗㄱㅈㅐ -5592
▁ㅎㅏㅇㅕㄱ -5593
▁ㄱㅔㄷㅏㄱㅏ -5594
▁ㅁㅜㄹㄱㅓㄴ -5595
▁ㅇㅠㅎㅛ -5596
▁ㅈㅗㅈㅣㅇㅏ -5597
▁Be -5598
▁ㅇㅏㅇㅣㅅㅡ -5599
▁ㅌㅏㅇㅠㄹ -5600
▁ㅇㅗㄹㅅㅡㅌㅏ -5601
▁93 -5602
▁ㅍㅗㄹㅡ -5603
▁ㄱㅕㅇㅈㅔㅎㅏㄱ -5604
▁ㄱㅘㅇㅂㅓㅁㅇㅟ -5605
▁ㅁㅟㄴㅎㅔㄴ -5606
▁ㅈㅜㄹㅇㅓㄷㅡㄹ -5607
▁ㅈㅣㄹㅁㅜㄴ -5608
ㅌㅣㅅㅡ -5609
▁ㅅㅣㄹㅇㅓㅂ -5610
ㅁㅣㄴㅈㅜㄷㅏㅇ -5611
ㄷㅗㅇㅅㅐㅇ -5612
▁ㅁㅏㄴㄴㅏㅆ -5613
▁ㄹㅜㅁㅏㄴㅣㅇㅏ -5614
▁ㅎㅜㄱㅖㅈㅏ -5615
▁ㅂㅣㅎㅐㅇㄱㅣ -5616
ㅁㅜㄴㅢ -5617
▁ㅈㅜㅊㅔ -5618
▁ㅅㅓㄴㅍㅗ -5619
▁ㅇㅏㅇㅜㄹ -5620
▁ㅇㅣㅇㅜㅅ -5621
▁ㅎㅘㅈㅔ -5622
▁ㅊㅏㄷㅏㄴ -5623
▁ㅎㅏㅇㄱㅗㅇㅅㅏ -5624
▁ㅈㅣㅂㅎㅚ -5625
ore -5626
▁ㄱㅗㅇㅅㅣㄴ -5627
▁ㅍㅡㄹㅏㅇㅅㅡㄱㅜㄴ -5628
▁FM -5629
▁ㅇㅠㅌ -5630
▁ㅁㅗㄱㅅㅓㅇ -5631
▁ㅎㅚㄹㅗ -5632
▁ㄱㅐㅂㅕㄹ -5633
▁ㄱㅓㅌ -5634
▁ㅁㅕㄴㅇㅕㄱ -5635
▁ㄷㅏㅇㅣㅁ -5636
IN -5637
ㅏㅇㅣㅌㅡ -5638
ㅇㅓㄴㅏㅆ -5639
▁ㅂㅕㄴㅎㅏ -5640
▁ㅇㅓㅉ -5641
▁ㅈㅐㄱㅐ -5642
▁ㅊㅔㅎㅓㅁ -5643
▁ㅋㅡㄹㄹㅗ -5644
▁ㄱㅗㄱㅅㅓㄴ -5645
▁ㅁㅏㄹㅡㅋㅡㅅㅡ -5646
▁ㅈㅏㅁㅅㅜㅎㅏㅁ -5647
▁ㅅㅐㅇㅌㅐ -5648
▁ㅅㅏㅇㄷㅐㅅㅣㄱ -5649
▁ㅋㅡㄹㅗ -5650
▁ㅌㅐㅈㅗㅇ -5651
▁ㅊㅏㄴㅅㅓㅇ -5652
▁ㄱㅕㄱㅍㅏ -5653
ㅅㅠㅌㅏㅇㅣㄴ -5654
▁ㄷㅗㅇㄱㅜㄹ -5655
▁OS -5656
▁ㅅㅣㄴㄷㅗ -5657
▁ㅇㅑㅇㅅㅏㄴ -5658
▁ㅂㅜㄴㅎㅘ -5659
ㅁㅣㅌㅓ -5660
▁ㄷㅏㅋㅔ -5661
▁ㅇㅣㅈㅏ -5662
ㅜㄹㅡㅌㅡ -5663
▁ㄱㅏㅁㄱㅏㄱ -5664
▁ㅋㅡㄹㄹㅐㅅㅣㄱ -5665
▁ㅂㅓㅂㅎㅏㄱ -5666
ㅣㅇㅏㅅㅡ -5667
▁ㅅㅏㅇㅅㅜ -5668
▁ㅈㅏㅅㅏㄴ -5669
ㅅㅔㅂ -5670
ㄷㅡㄹㅗ -5671
ㅗㅅㅏㄴ -5672
▁ㅁㅏㅅㅡㅌㅓ -5673
▁ㄷㅐㅇㅜ -5674
▁ㅇㅢㅁㅜㄴ -5675
▁ㅅㅏㄹㅇㅏㄴ -5676
▁ㅊㅜㄱㅣㄱㅕㅇ -5677
▁ㄱㅓㅈㅣㅅ -5678
▁ㄱㅏㅂㅈㅏㄱㅣ -5679
ㅋㅐ -5680
▁ㅇㅕㅇㅈㅜ -5681
▁ㄴㅜㄹㅣ -5682
▁ㅈㅜㄹㅇㅣ -5683
▁ㅁㅜㄹㄱㅗㄱㅣ -5684
▁ㅌㅡㄹㅔㅇㅣㄷㅡ -5685
▁94 -5686
▁ㅇㅑㅇㄱㅜㄱ -5687
▁1933 -5688
ㅏㄱㅏㅇㅘ -5689
our -5690
▁ㄴㅣㅇ -5691
▁ㅆㅡㅇㅕㅆ -5692
▁1928 -5693
▁ㅂㅗㅅㅡ -5694
ㅎㅜㄱ -5695
▁ㅅㅜㅂㅐㄱ -5696
▁ㅁㅜㄹㅡ -5697
▁ㄸㅓㅇ -5698
▁ㅎㅓㅂ -5699
▁ㅇㅖㅂㅣ -5700
▁ㅅㅏㄴㅈㅣ -5701
▁ㅅㅡㅌㅗㄴ -5702
▁ㅌㅏㄴㅇㅏㅂ -5703
ㄷㅗㅅㅏ -5704
▁ㅇㅕㅇㅇㅝㄴ -5705
ㅌㅗㄹㅣㅇㅏ -5706
▁ㄷㅏㅇㅇㅝㄴ -5707
▁ㅂㅏㄷㅇㅏㄷㅡㄹㅇㅣ -5708
▁ㅇㅘㅅㅓ -5709
▁CP -5710
▁ㅁㅣㄹㅣ -5711
▁ㅊㅗㄱㅈㅣㄴ -5712
▁ㅎㅏㅇㅇㅢ -5713
▁ㄱㅐㅁㅕㅇ -5714
▁ㄹㅛ -5715
▁ㄷㅏㅇㅎㅐ -5716
▁ㄷㅗㅇㄱㅕㅇ -5717
▁ㅍㅡㄹㅗㄱㅡㄹㅐㅁㅣㅇ -5718
▁ㅅㅡㅋㅡㄹㅣㄴ -5719
▁ㅎㅘㅍㅖ -5720
▁ㄲㅜㅈㅜㄴ -5721
▁ㅇㅣㅎㅐㅇ -5722
ㄱㅗㄴ -5723
▁ㄱㅓㅊㅣ -5724
▁ㄱㅜㅁㅓㅇ -5725
▁ㅅㅜㅊㅣ -5726
ㅈㅗㅅㅓㄴ -5727
▁ㅅㅏㅇㅈㅜ -5728
▁ㄱㅏㅇㄴㅏㅁ -5729
▁ㄴㅗㄹㅡ -5730
▁ㅊㅚㅎㅜ -5731
▁ㅈㅣㅅㅜ -5732
▁ㄱㅐㅊㅓㄱ -5733
▁ㅇㅠㅂㅐ -5734
▁1924 -5735
▁ㅁㅏㄱㄷㅐ -5736
▁ㄷㅓㅅㅂㅜㅌ -5737
▁ㄴㅐㄴㅗㅎ -5738
▁ㄱㅐㄹㄹㅓㄱ -5739
▁ㅅㅏㄱㅣ -5740
▁ㄱㅏㅅㅗㄱ -5741
end -5742
▁ㅇㅣㄴㅕㅁ -5743
▁ㅂㅜㄹㄱㅏㄹㅣㅇㅏ -5744
▁ㅇㅏㅌㅣㅅㅡㅌㅡ -5745
ㅈㅐㄱ -5746
▁ㅅㅣㅅㅣㄴ -5747
▁ㅎㅓㄹㅏㄱ -5748
ell -5749
▁ㄱㅐㅈㅏㅇ -5750
▁79 -5751
▁ㅈㅗㅎㅏㅇ -5752
▁ㄷㅐㅊㅣㅇ -5753
▁ㄷㅗㅇㅎㅘ -5754
▁ㅅㅏㅇㅑㅇ -5755
▁ㅇㅕㅇㄱㅜ -5756
▁ㅈㅡㅇㅇㅓㄴ -5757
▁ㅅㅗㅁㅜㄴ -5758
▁ㅇㅣㄹㅇㅡㅋㅕ -5759
ㅁㅏㄴㅏ -5760
▁ㅎㅚㅅㅐㄱ -5761
▁ㄱㅏㅅ -5762
▁ㄱㅣㅁㄷㅐ -5763
▁ㅈㅣㄹㅅㅓ -5764
▁ㄴㅣㄹ -5765
▁ㅅㅜㅅㅣㅂ -5766
▁ㅅㅡㅂㄱㅕㄱ -5767
ㅌㅜㅅㅡ -5768
ㅅㅡㅌㅣㄱ -5769
▁ㅂㅗㅍㅕㄴ -5770
▁110 -5771
▁ㄱㅡㄱㄷㅏㄴ -5772
▁ㅈㅓㅇㄹㅠ -5773
▁ㅈㅜㄴㅣㅇㅓ -5774
▁ㅅㅗㅎㅘ -5775
▁ㄱㅐㅊㅏㄹ -5776
▁ㄷㅐㅂㅓㅂㅇㅝㄴ -5777
▁ㅇㅕㄹㅁㅐ -5778
▁ㅊㅣㄹㄹㅔ -5779
▁09 -5780
ㅗㅇㅓ -5781
▁ㅇㅛㅇㄷㅗ -5782
▁04 -5783
▁ㅍㅏㄹㅏ -5784
▁ㅅㅓㄴㅎㅗ -5785
▁ㅅㅗㅈㅣㅂ -5786
▁ㄴㅜㅅㅡ -5787
ain -5788
▁ㅌㅗㅊㅏㄱ -5789
▁ㅋㅗㄹㄹㅗㅁ -5790
▁ㅇㅜㄴㅅㅗㅇ -5791
▁ㅅㅗㅇㅟ -5792
▁ㅌㅡㄹㅏ -5793
ㅐㅁㅐ -5794
▁ㄴㅗㄹㅣ -5795
▁ㅋㅓㅂㅓ -5796
▁ㅊㅜㄱㅅㅗ -5797
▁ㅈㅓㅇㅁㅕㄴ -5798
ㅜㄱㅏㅇㅘ -5799
▁ㅌㅏㄴㅎㅐㄱ -5800
▁ㅈㅓㄴㅈㅓㄱ -5801
ㅈㅓㅅㅡ -5802
▁ㅇㅝㄴㅈㅏㄹㅕㄱ -5803
▁ㅇㅣㅇㅘ -5804
▁ㅍㅓㄴ -5805
ㅂㅏㅋㅣㅇㅏ -5806
ㄷㅏㅅㅜ -5807
▁ㅎㅏㅂㄴㅣㄷㅏ -5808
▁ㅇㅣㅂㄷㅐ -5809
▁ㅈㅜㅇㅣㄹ -5810
▁ㅇㅢㅈㅓㅇㅂㅜ -5811
▁ㅈㅏㅂㅗㄴㅈㅜㅇㅢ -5812
▁ㅇㅏㅁㅣ -5813
▁ㄴㅏㅁㄱㅣ -5814
▁ㅇㅣㄱㅅㅡ -5815
▁ㅈㅣㅂㅜㄹ -5816
▁ㅍㅡㄹㅗㅌㅗ -5817
▁ㅅㅣㅁㅏ -5818
ㅝㄴㄱㅜㄴ -5819
▁ㅊㅣㄹㅡ -5820
▁ㅅㅏㄷㅏㅇ -5821
▁ㅎㅗㄴㅈㅏ -5822
▁ㅈㅓㄴㅁㅏㅇ -5823
▁ㅋㅡㄹㅗㅅㅡ -5824
▁ㄷㅐㄴㅅㅡ -5825
ㅋㅗㅍㅡ -5826
▁08 -5827
ㅂㅡㄴ -5828
▁ㄴㅐㅅㅔㅇ -5829
ill -5830
ㅅㅣㅇㅗ -5831
ers -5832
▁ㄱㅜㄹㅡㅁ -5833
ID -5834
▁ㅎㅔㄹㅡ -5835
▁ㅅㅡㅌㅗ -5836
▁ㄱㅓㄹㅊㅣㄴ -5837
▁ㄷㅐㄱㅜㄱ -5838
▁ㅅㅡㅍㅔㄱ -5839
▁ㅍㅏㅋㅣㅅㅡㅌㅏㄴ -5840
▁170 -5841
▁ㅂㅕㅅㅡㄹ -5842
▁ㅅㅔㅇㅝㄹ -5843
▁ㄷㅗㅇㅇㅣㄴ -5844
▁ㅎㅣㅁㄷㅡㄹ -5845
▁83 -5846
▁ㄷㅐㅅㅡㅇ -5847
▁ㅈㅐㄴㅡㅇ -5848
▁Co -5849
▁ㄱㅏㄲㅏㅂ -5850
▁ㅊㅗㅅㅏㅇ -5851
▁ㅎㅕㅇㅅㅏㅇ -5852
▁ㅃㅓㄷ -5853
▁ㄷㅗㄹㅇㅏㅇㅗ -5854
▁ㅍㅡㄹㅏㅇㅅㅡㅇㅓ -5855
▁ㅌㅡㄹㅗ -5856
ㅍㅔㅇㅣㅅㅡ -5857
ard -5858
▁ㅁㅣㅆㅡ -5859
▁ㅍㅕㅇㅁㅕㄴ -5860
▁ㅅㅔㄹㅡ -5861
▁ㅇㅐㄱㅊㅔ -5862
▁ㅁㅐㅊㅣ -5863
▁ㅅㅔㅇㅝㅈㅕㅆ -5864
▁ㄱㅗㅅㅣ -5865
▁ㅅㅜㅋㅓㅅ -5866
▁ㄱㅏㄴㅂㅜ -5867
▁ㅈㅣㅈㅜㅇ -5868
▁ㅎㅏㅂㄷㅗㅇ -5869
ㅏㅇㅑ -5870
▁ㅎㅏㄷㅡ -5871
ㅂㅜㅇㅣㄴ -5872
▁ㅁㅔㅌㅏㄹ -5873
▁ㅈㅓㅇㅌㅗㅇ -5874
▁ㅃㅕ -5875
▁ㅌㅡㅁ -5876
ㅌㅡㄴㅓ -5877
▁ㄴㅣㅅㅣ -5878
▁ㅈㅣㅍㅛ -5879
▁ㅎㅏㅇㅕㄱㅡㅁ -5880
ㅔㄴㅗ -5881
▁ㄷㅗㄹㅇㅏㅇㅗㄴ -5882
▁ㅈㅐㅅㅐㅇ -5883
▁ㅎㅣㅂㅎㅏㅂ -5884
▁ㅂㅜㅅㅗㄱ -5885
▁ㅂㅣㅈㅏㄴ -5886
▁ㅊㅜㅇㅂㅜㄴㅎㅣ -5887
▁ㅃㅏㅇ -5888
▁ㄷㅏㄱㅌㅓ -5889
▁ㅅㅓㄴㄹㅗ -5890
▁ㅌㅗㅁㅏㅅㅡ -5891
▁ㅎㅏㄹㅇㅏㅂㅓㅈㅣ -5892
ㅍㅐㄱ -5893
AN -5894
ㅌㅔㄱ -5895
ㅣㅇㅓㅁ -5896
▁ㄹㅏㅅㅡ -5897
▁ㅌㅗㄷㅐ -5898
▁ㄱㅕㅇㅊㅏㄹㅅㅓ -5899
▁ㅈㅜㅁㅜㄴ -5900
▁ㅎㅏㅁㄱㅕㅇ -5901
▁ㅎㅡㄴㅈㅓㄱ -5902
▁ㅍㅠ -5903
▁ㄴㅗㅌㅡ -5904
▁ㄷㅏㅇㅅㅣㄴ -5905
▁ㅇㅏㄴㅉㅗㄱ -5906
ㅈㅣㅁㅏ -5907
▁ㅁㅜㅇㅛㅇ -5908
▁MS -5909
▁ㄱㅜㄱㅌㅗ -5910
▁ㅅㅡㅋㅔㅇㅣ -5911
▁ㅁㅔㅌㅡㄹㅗ -5912
ㅡㄴㅗ -5913
▁ㅅㅔㄹㅗ -5914
▁ㅇㅛㅋㅗㅎㅏㅁㅏ -5915
▁ㄷㅡㅁㅜㄹ -5916
▁ㄴㅏㅁㄱㅡㄱ -5917
▁1934 -5918
▁ㅎㅐㅈㅔ -5919
▁ㅂㅓㅂㅇㅏㄴ -5920
▁ㅇㅣㅂㅔㄴㅌㅡ -5921
▁ㄱㅜㄱㅂㅏㅇㅂㅜ -5922
▁ㅇㅗㄹㅠ -5923
▁ㄷㅏㄴㅅㅜㄴㅎㅣ -5924
▁ㅈㅜㅇㄷㅗㅇ -5925
▁ㄱㅏㄴㅏㄴ -5926
▁ㅅㅜㅈㅏㅇ -5927
▁ㄴㅗㅎㅇㅕ -5928
▁ㅊㅗㅇㅈㅐ -5929
▁ㅂㅜㅅㅓ -5930
▁De -5931
▁ㅊㅣㅂ -5932
ㅊㅏㄹㅗ -5933
▁ㄹㅔㅇㅗ -5934
▁ㅈㅏㄹㅏㅇ -5935
▁ㅎㅗㅎㅡㅂ -5936
▁ㅂㅐㅇㅕㄹ -5937
▁ㄹㅏㅇㅣㅍㅡ -5938
ㅋㅏㅇㅗ -5939
▁ㅇㅠㅊㅣ -5940
▁ㅌㅣㅂㅔㅌㅡ -5941
▁ㄷㅗㅇㅁㅔㄷㅏㄹ -5942
▁130 -5943
▁ㄸㅏㄴ -5944
▁ㄷㅏㅇㄷㅐ -5945
▁ㅍㅕㄴㅇㅢ -5946
▁ㅇㅡㄴㅁㅔㄷㅏㄹ -5947
ㄱㅏㅄ -5948
▁ㅁㅏㅈㅜ -5949
ㅗㅇㅑ -5950
ㅓㅅㅓㄴ -5951
▁ㄹㅓㅂㅡ -5952
▁ㄷㅐㄷㅗㅇ -5953
▁ㄷㅐㅅㅏㄱㅘㄴ -5954
▁ㅌㅜㅅㅡ -5955
▁ㅍㅔㄹㅣ -5956
▁ㄱㅘㅇㅅㅏㄴ -5957
▁ㄴㅗㅇㅈㅏㅇ -5958
▁ㅂㅏㄴㅅㅏ -5959
ㅇㅘㄴ -5960
▁ㅂㅜㄹㄱㅏ -5961
▁ㅍㅣㄹㄹㅣㅂ -5962
▁Me -5963
▁ㄱㅗㄱㅛ -5964
▁ㅇㅣㅂㄱㅜ -5965
▁ㅍㅏㄴㅈㅓㅇ -5966
ㅣㅇㅓㄹㅗ -5967
▁ㅂㅔㄴㅔㅊㅣㅇㅏ -5968
ㅠㅋㅣ -5969
▁ㅇㅏㅍㅡㄱㅏㄴㅣㅅㅡㅌㅏㄴ -5970
▁ㅇㅓㅁㄱㅕㄱ -5971
▁ㅈㅓㅂㅅㅗㄱ -5972
▁ㅎㅏㄴㅅㅓㅇ -5973
▁ㅈㅣㄴㅅㅣㄹ -5974
▁ㅌㅗㅁㅓㅅㅡ -5975
▁ㅂㅗㅅㅡㅌㅓㄴ -5976
ne -5977
▁ㅎㅐㅇㅎㅏ -5978
▁ㅅㅏㅁㅏㅇㅈㅏ -5979
▁ㄱㅕㅇㅂㅣ -5980
▁ㅈㅏㅇㄹㅖ -5981
▁ㅎㅕㄹㅇㅐㄱ -5982
▁ㅇㅣㄹㅡㄴㅂㅏ -5983
▁ㅋㅗㅇㅓ -5984
▁ㅁㅏㄱㅏㅁ -5985
ㅇㅗㄴ -5986
▁ㄷㅡㄹㅇㅓㅇㅗ -5987
▁ㅅㅓㅇㅅㅓ -5988
▁ㄱㅡㄹㅣㅎㅏㅇㅕ -5989
▁ㅈㅗㄴㅅㅡ -5990
▁ㅊㅜㅈㅓㄱ -5991
▁ㅂㅗㅇㅎㅐㅈㅕㅆ -5992
▁ㅇㅣㅅㅡ -5993
▁ㅎㅣㅇㅓㄹㅗ -5994
▁ㄷㅗㅋㅜㄱㅏㅇㅘ -5995
▁ㅁㅐㅈㅜ -5996
▁ㅂㅔㄹㄹ -5997
▁ㅎㅕㄴㅈㅗㄴ -5998
▁ㅅㅓㅂㅏㅇ -5999
▁ㄴㅗㄷㅗㅇㄷㅏㅇ -6000
▁th -6001
▁140 -6002
▁ㅈㅣㄱㅁㅜ -6003
▁ㅃㅜㄹ -6004
▁ㅇㅗㄹㄹㅣㅂ -6005
▁ㅇㅏㅁㅜㄹ -6006
ㅌㅡㅁ -6007
▁ㄱㅡㄴㅇㅠㄱ -6008
▁ㅅㅓㄴㅁㅜㄹ -6009
▁Sh -6010
▁ㅎㅣㄱㅏ -6011
▁ㅁㅜㄹㅕㄱ -6012
OR -6013
ㄹㅠㄴ -6014
▁ㅇㅣㄴㅌㅔㄹ -6015
▁ㅋㅏㄹㄹㅣㅈㅣ -6016
▁ㅋㅡㄹㅜ -6017
▁ㅈㅓㅇㅎㅘㄱㅎㅣ -6018
▁ㅍㅡㄹㄹㅗㄹㅣ -6019
▁ㄱㅓㅈㅓㅁ -6020
▁ㅈㅓㄴㅈㅔ -6021
ㄸㅡㄹㅣ -6022
ㅋㅜㄹ -6023
▁cod -6024
▁ㄱㅗㄴㅊㅜㅇ -6025
▁ㅋㅡㄹㅣ -6026
▁ㅈㅜㅇㅅㅓㅇ -6027
▁ㅍㅗㄷㅡ -6028
▁ㅂㅗㄴㄷㅏ -6029
▁ㅇㅡㄴㅣ -6030
▁ㅂㅜㄱㅁㅣ -6031
▁ㄹㅔㄴㅣㄴ -6032
ㅡㄹㄹㅔ -6033
▁ㅈㅜㅇㅓㅈㅕㅆ -6034
▁ㅅㅜㅈㅣㄱ -6035
▁ㅇㅠㅂㅏㄹ -6036
▁ㅂㅏㄹㅈㅓㄴㅅㅗ -6037
▁ㅈㅜㅇㅈㅣ -6038
▁ㅎㅘㅎㅏㅂㅁㅜㄹ -6039
▁ㅅㅣㄱㅖ -6040
ㅅㅔㄷㅐ -6041
▁ㄴㅗㄹㅇㅣ -6042
▁ㅈㅜㅇㄱㅖ -6043
▁ㅇㅣㄹㄷㅏㄴ -6044
ㅉㅏㄱ -6045
▁ㅈㅣㅈㅣㄹ -6046
▁ㅁㅏㅅㅏㄴ -6047
ㅋㅣㅍㅓ -6048
ㄱㅏㅌ -6049
▁ㄱㅕㅇㄱㅗ -6050
▁ㅁㅕㄹㅈㅗㅇ -6051
▁1931 -6052
▁ㄱㅗㄹㅋㅣㅍㅓ -6053
▁ㅅㅐㄲㅣ -6054
▁ㅈㅜㅈㅐ -6055
ㄷㅗㄹㅍㅡ -6056
▁ㅊㅔㅇㅠㄱㄱㅘㄴ -6057
▁ST -6058
▁ㅌㅏㅅ -6059
▁ㅂㅗㄹㅡ -6060
▁ㅂㅜㅊㅓ -6061
▁ㅈㅐㅍㅏㄴㅅㅗ -6062
▁ㄱㅏㅇㄷㅡㅇ -6063
ㅅㅡㅁ -6064
▁ㅊㅓㄹㅎㅏㄱㅈㅏ -6065
ㅡㄹㅏ -6066
▁ㅇㅣㄴㅁㅣㄴㄱㅜㄴ -6067
▁ㄴㅏㅁㄴㅕ -6068
▁ㅂㅜㄴㅅㅏㄴ -6069
▁ㅈㅣㄴㄷㅗㅇ -6070
▁ㄷㅐㅁ -6071
▁ㅂㅗㄴㅌㅗ -6072
▁ㄱㅏㅇㅇㅛ -6073
▁ㄱㅡㄹㅣㅅㅡㅇㅓ -6074
▁ㅇㅝㄴㅅㅣ -6075
AM -6076
▁ㅇㅗㄱㅏ -6077
▁ㅋㅣㅅㅡ -6078
▁ㅇㅑㄱㅎㅘ -6079
▁ㄴㅗㅂㅜ -6080
▁ㄱㅡㅁㄱㅏㅇ -6081
▁ㅊㅓㄹㄱㅓ -6082
▁ㄲㅜㄴ -6083
▁ㅊㅗㅊㅓㅇ -6084
▁ㅂㅔㄹㅣ -6085
all -6086
▁ㅌㅡㄱㅂㅕㄹㅎㅣ -6087
▁ㄱㅏㄴㄱㅕㄱ -6088
▁ㅇㅣㅅㅡㅌㅡ -6089
▁ㅈㅓㅇㅈㅗ -6090
▁ㄱㅡㄹㅐㅍㅡ -6091
▁ㅋㅡㄹㄹㅐㅅㅡ -6092
▁ㄱㅏㅇㄷㅗ -6093
▁ㄴㅏㅅㅓㄴ -6094
▁ㄴㅏㅅㅓㅆ -6095
▁ㅈㅡㅇㄱㅝㄴ -6096
▁ㅅㅗㄴㅎㅐ -6097
▁ㅎㅣㄹㅗㅅㅣㅁㅏ -6098
▁ㅌㅣㄹ -6099
▁ㅌㅏㅇㅝㄴ -6100
▁ㅁㅐㄴㅊㅔㅅㅡㅌㅓ -6101
▁ㅈㅐㅇㅣㅁ -6102
ㅟㄹ -6103
▁ㅂㅣㅅ -6104
ㄹㅗㄷㅡ -6105
▁ㅈㅗㅁㅜㄴ -6106
▁ㅎㅏㅇㅎㅐ -6107
▁ㅂㅜㄷㅡㄹ -6108
ㅋㅡㄹㅐㅍㅡㅌㅡ -6109
▁ㅇㅣㄹㄱㅗㅂ -6110
▁ㅎㅐㅎㅕㅂ -6111
▁ㅍㅔㅇ -6112
▁ㅋㅜㅂㅏ -6113
▁ㄱㅗㄹㄷㅡ -6114
ㄴㅗㅇ -6115
▁ㅅㅣㄱㄹㅑㅇ -6116
▁ㅈㅗㅇㅈㅓㄴ -6117
ㄹㅓㅇ -6118
▁ㄷㅓㅂㅡㄹ -6119
▁ㅈㅗㅇㅅㅏ -6120
▁ㅋㅐㅂ -6121
▁ㅇㅟㅇㅏㄴ -6122
▁ㅈㅗㄴㅅㅡㄴ -6123
▁ㅅㅏㄱㅘㄴ -6124
▁ㅅㅐㅂㅕㄱ -6125
ㅘㅇㅇㅕㄱㅅㅣ -6126
▁ㅅㅐㅇㅇㅐ -6127
▁An -6128
▁176 -6129
▁ㄱㅡㄹㄹㅣ -6130
▁y -6131
ang -6132
▁ㄸㅏㄱ -6133
▁ㅇㅗㅇㅕㅁ -6134
▁ㅅㅜㄱㅈㅗㅇ -6135
▁ㅁㅕㅇㅅㅣ -6136
▁ㅈㅣㅊㅣㅇ -6137
▁ㅇㅗㅇㅣ -6138
▁ㄱㅣㄱㅏㅂ -6139
ㅣㅇㅗㄹ -6140
▁ㅁㅜㄴㅢ -6141
▁ㅇㅕㄴㅎㅗ -6142
▁ㅅㅡㅌㅏㄹㄹㅣㄴ -6143
▁ㅍㅏㅌㅣ -6144
ㅏㄹㅡㅌㅏ -6145
▁ㅇㅣㅈㅓㅇ -6146
▁ㄴㅗㅇㅊㅗㄴ -6147
▁ㅎㅟㅎㅏ -6148
▁ㄱㅣㅅㅐㅇ -6149
▁05 -6150
ㅋㅡㄹㅣㅌㅡ -6151
▁ㅍㅏㅇㅜㄹ -6152
ㅌㅡㄴㅣ -6153
▁ㄹㅡㄴㅔ -6154
▁ㅂㅐㅇㅝㅆ -6155
▁ㅇㅕㄴㅍㅕㅇㄱㅠㄴ -6156
ㅆㅡㅁ -6157
ㅌㅣㄹ -6158
▁ㄱㅗㅇㄹㅛㅇ -6159
▁ㅅㅡㅌㅔㅇㅣㅅㅕㄴ -6160
▁1929 -6161
▁ㅇㅑㄷㅏㅇ -6162
▁ㄷㅗㄱㅈㅓㅁ -6163
▁ㅅㅏㅇㅣㄷㅡ -6164
▁ㅇㅜㄴㄷㅗㅇㄱㅏ -6165
ㅌㅣㅇㅗ -6166
▁ㅈㅓㄴㅎㅏㄴ -6167
ㅋㅣㅅ -6168
▁ㄲㅡㄴ -6169
ㅓㅁㅓㄴㅌㅡ -6170
▁ㅈㅓㄴㅈㅏㄱ -6171
ㅔㄷㅏ -6172
▁1921 -6173
▁ㅂㅜㅍㅜㅁ -6174
▁ㅅㅏㅅㅣㄴ -6175
▁ㅈㅓㄱㅇㅓ -6176
▁ㅅㅗㅇㅛ -6177
▁ㅁㅣㅅㅡ -6178
▁ㄷㅐㄷㅏㅅㅜ -6179
▁ㅂㅜㅈㅏㄱ -6180
▁ㅇㅠㄹㅕㄱ -6181
▁ㅌㅡㄹㅐㄴㅅㅡ -6182
▁ㄷㅏㄻ -6183
▁250 -6184
▁ㅇㅑㅁ -6185
▁ㅇㅣㄴㅌㅓㅍㅔㅇㅣㅅㅡ -6186
ㅊㅓㅁ -6187
▁ㅅㅓㄱㅂㅏㅇ -6188
ㅋㅗㅂ -6189
▁ㅌㅗㄴㅓㅁㅓㄴㅌㅡ -6190
ss -6191
▁ㅋㅐㅁㅍㅡ -6192
ㅜㄹㅕㅅ -6193
▁ㄸㅜㄹㅕㅅ -6194
▁ㅈㅏㅊㅣㄱ -6195
▁ㅈㅣㅂㅍㅣㄹ -6196
▁ㅈㅘㅍㅏ -6197
ㅎㅣㄴㄷㅏ -6198
▁ㅅㅔㅈㅏ -6199
ㅁㅜㄱㅔ -6200
▁ㄱㅘㅇㅣㄹ -6201
▁ㅁㅗㅁㅁㅜㄱㅔ -6202
ㅠㅁㅔㄴ -6203
▁ㅎㅞ -6204
▁ㄱㅣㅂㅕㅇ -6205
▁ㄷㅏㄴㅅㅓㄴ -6206
▁ㄱㅛㅎㅑㅇㄱㅗㄱ -6207
▁ㄹㅏㅇㅜ -6208
▁ㅈㅏㅇㅈㅓㅁ -6209
▁ㅅㅣㅁㄹㅣㅎㅏㄱ -6210
ㄹㅗㅅㅡ -6211
▁ㄷㅗㅎㅗ -6212
ㅅㅣㄱㅏㄴ -6213
ㅇㅣㄴㄷㅏ -6214
▁ㄱㅣㅁㄱㅜ -6215
▁ㅂㅗㅇㄱㅣ -6216
ㄱㅝㄹ -6217
ㅏㅇㅝ -6218
▁ㅅㅜㅂㅏㄴ -6219
▁ㄱㅗㅇㄱㅜㄱ -6220
▁1925 -6221
▁ㅅㅜㅅㅏㄴ -6222
▁ㄱㅐㄹㄹㅓㄱㅅㅣ -6223
ity -6224
▁ㅊㅏㄱㅇㅛㅇ -6225
▁1923 -6226
▁ㅁㅣㅂㅜㄴ -6227
▁ㄱㅏㅁㅇㅗㄱ -6228
ㅡㄴㅣㅁ -6229
▁ㄴㅡㄴㅑ -6230
▁ㅂㅓㄴㅈㅣ -6231
▁ㅇㅣㄹㅎㅘㄴ -6232
▁ㄱㅘㄴㄱㅖㅈㅏ -6233
▁ㅁㅜㄹㄹㅕ -6234
▁ㅇㅏㄹㄹㅔㄱㅅㅏㄴㄷㅓ -6235
▁ㄷㅡㄱㅍㅛ -6236
▁ㅇㅠㅅㅓㅇ -6237
▁ㅍㅡㄹㄹㅗㄹㅣㄷㅏ -6238
▁ㅁㅗㄱㅍㅗ -6239
▁ㅅㅜㅂㅣㅅㅜ -6240
▁07 -6241
▁ㄱㅜㄹㅣ -6242
▁ㅍㅕㄹㅊㅕㅆ -6243
▁ㅇㅠㄷㅐㅇㅣㄴ -6244
ㅡㅂㅏ -6245
▁ㅇㅐㅂ -6246
ㅂㅣㅅㅡ -6247
ㅅㅜㄹㅑㅇ -6248
▁ㄱㅜㅂ -6249
▁ㅋㅡㄹㅣㅁ -6250
▁ㄷㅗㄹㄹㅕ -6251
▁ㅈㅏㅇㅣㅇㅓㄴㅊㅡ -6252
▁ㅋㅐㄹㄹㅣㅍㅗㄴㅣㅇㅏㅈㅜ -6253
▁ㅇㅝㄴㅈㅗ -6254
▁ㅈㅏㅁㅐ -6255
▁ㄷㅏㄴㅈㅏㅇ -6256
▁ㅊㅏㅈㅇㅏㅇ -6257
▁ㄴㅏㅁㅇㅏㅁㅔㄹㅣㅋㅏ -6258
▁ㅂㅜㄱㅇㅏㅁㅔㄹㅣㅋㅏ -6259
▁ㅅㅡㅌㅡㄹㅏㅇㅣ -6260
▁ㄴㅏㅌ -6261
▁ㅊㅜㄷㅐ -6262
▁ㅈㅣㅎㅟㄱㅘㄴ -6263
▁ㅈㅏㅇㅠㅈㅜㅇㅢ -6264
▁SC -6265
▁ㅇㅏㅂㅊㅜㄱ -6266
▁ㅂㅜㄱㅅㅓㅉㅗㄱ -6267
▁ㅇㅠㅂㅣ -6268
▁codice -6269
▁ㅇㅣㅇㅓㅅㅓ -6270
▁ㄹㅐㅁ -6271
▁ㅌㅏㅈㅓㅁ -6272
▁ㄱㅡㄹㅓㅁㅡㄹㅗ -6273
▁ㅁㅏㅈㅓ -6274
ㅋㅡㄹㄹㅣㄴ -6275
▁ㄱㅘㄴㄹㅣㅈㅏ -6276
ㅔㅇㅣㄹㄹㅓ -6277
▁ㅂㅏㄹㄹㅔㄴ -6278
▁ㄷㅐㅎㅏㄴㅈㅔㄱㅜㄱ -6279
▁ㅂㅜㄱㄱㅡㄱ -6280
▁ㅎㅏㄴㅡㄴㅣㅁ -6281
ㄹㅠㅁ -6282
▁ㅈㅣㅂㅜ -6283
▁ㅋㅣㄹㄹㅗ -6284
▁ㅅㅏㄱㅓㄹㅣ -6285
ㄷㅐㅁㅜㄴ -6286
ㅇㅠㄹㅓㅂ -6287
▁ㅂㅜㄹㅎㅘ -6288
ㅗㄱㅡ -6289
▁ㄷㅣㅂ -6290
ㅈㅡㄴㅣ -6291
▁ㄷㅗㅇㅅㅓㅇㅇㅐ -6292
ㅣㅌㅓ -6293
ㅇㅔㄷㅗ -6294
ㄱㅔㄴ -6295
▁ㅍㅏㄹㄹㅔ -6296
▁ㄴㅡㄱㄷㅐ -6297
▁ㄷㅐㅂㅕㄴ -6298
▁ㄱㅏㄲㅡㅁ -6299
▁AC -6300
ㄷㅡㄴㅣ -6301
▁ㄱㅜㄴㅂㅜ -6302
▁ㄹㅔㅇㅗㄴ -6303
▁ㄱㅘㄴㄱㅐㄱ -6304
▁ㅈㅏㅇㄱㅏㅂ -6305
▁ㅎㅜㄹㄹㅠㅇ -6306
▁ㅇㅔㄹㄹㅣㅈㅏㅂ -6307
▁ㄱㅓㄴㄷㅏㅁ -6308
▁ㄱㅡㄹㅕㅈㅕ -6309
▁ㅅㅏㅁㄱㅏㄱㅎㅕㅇ -6310
▁ㄱㅏㅇㅈㅓㄴ -6311
▁ㅊㅓㅇㄷㅗㅇ -6312
▁ㅇㅏㄹㅏ -6313
▁ㅇㅞㅇㅣㄹㅅㅡ -6314
▁ㅇㅕㄱㅈㅓㄴ -6315
▁ㅋㅣㅁ -6316
▁ㅇㅕㄴㄱㅖ -6317
ㅎㅐㅇㅅㅓㅇ -6318
▁ㅋㅗㅅ -6319
▁ㅊㅔㅋㅗ -6320
▁ㅋㅗㄴㅓ -6321
▁ㅅㅓㅇㅁㅕㅇ -6322
▁ㅈㅣㄴㅎㅡㅇ -6323
▁ㄱㅣㄱㅘㄴㅊㅏ -6324
▁ㅌㅡㄱㅎㅓ -6325
▁ㅎㅕㅂㅇㅑㄱ -6326
ff -6327
ㅇㅕㅅㅓ -6328
▁ㄷㅐㄱㅏ -6329
▁ㄷㅗㅇㅂㅏㄴ -6330
▁ㅁㅣㄴㅅㅗㄱ -6331
▁ㅇㅝㄴㅈㅏㅇ -6332
▁ㅈㅜㅈㅏ -6333
▁ㅇㅕㅇㅜ -6334
ㅆㅡㅇ -6335
▁ㄹㅏㅌㅡ -6336
▁ㄱㅣㅁㅎㅐ -6337
▁ㅍㅣㄹㄹㅡㅁ -6338
▁ㅍㅡㄹㅗㅅㅔㅅㅓ -6339
▁ㅅㅣㄹㄴㅐ -6340
▁ㅇㅣㅂㅅㅏ -6341
▁ㅁㅗㄱㅅㅜㅁ -6342
▁ㅎㅡㄹㄹㅓ -6343
▁ㄷㅗㅁㅏㅂㅐㅁ -6344
▁ㅌㅗㄱ -6345
ㄷㅜㅇㅇㅣ -6346
▁ㄱㅗㅂㅜㄴ -6347
▁ㅍㅡㄹㅗㄹ -6348
▁ㄷㅐㄱㅕㄹ -6349
▁ㄱㅏㄱㅜ -6350
▁ㅊㅜㄹㅏㄱ -6351
▁ㅇㅜㅇㅕㄴ -6352
▁ㅋㅓㄷㅏㄹㅏㄴ -6353
▁ㅈㅗㅎㅘ -6354
ㅅㅣㅅㅡㅌㅡ -6355
▁161 -6356
▁ㅊㅓㅅㅉㅐ -6357
▁ㅁㅗㅎㅓㅁ -6358
▁ㅂㅣㅌㅡㄹ -6359
▁de -6360
▁ㅇㅕㄴㅅㅏㅇ -6361
▁ㅉㅡㅁ -6362
▁ㅊㅐㄹ -6363
▁ㄷㅏㅇㅣㅁㅛ -6364
▁ㅇㅣㅁㅅㅣㄴ -6365
▁ㅍㅡㄹㅔㅇㅣㅁ -6366
▁ㅅㅜㅎㅗ -6367
▁ㅇㅛㅇㅝㄴ -6368
▁ㄱㅗㄱㅗ -6369
▁ㅇㅕㅆㅇㅡㅁ -6370
▁ㅅㅓㅁㅇㅠ -6371
▁ㄴㅏㅃ -6372
▁ㅅㅓㅇㅆㅣ -6373
▁ㅇㅏㄹㅍㅏ -6374
▁ㅈㅜㅇㄱㅗㅇ -6375
▁ㅍㅣㅅㅡ -6376
▁ㄹㅔㅂㅔㄹ -6377
ㅅㅓㅇㄱㅣ -6378
ㅇㅢㅈㅓㅇ -6379
▁ㄹㅣㅅㅡㅌㅡ -6380
▁ㅇㅣㄴㅊㅓㄴㄱㅘㅇㅇㅕㄱㅅㅣ -6381
▁ㄱㅛㅊㅏㄹㅗ -6382
▁ㅅㅓㅇㅣㄴ -6383
▁ㅎㅜㅌㅚ -6384
▁ㅇㅑㅅㅡ -6385
▁ㅁㅜㄴㅇㅣㄴ -6386
▁ㅇㅗㄹㅣㅈㅣㄴ -6387
▁ㄱㅖㅅㅜ -6388
▁ㅃㅏㄹㄱㅏㄴ -6389
▁ㅍㅕㅇㄹㅗㄴㄱㅏ -6390
▁ㅅㅔㄴㅌㅡㄹ -6391
▁EP -6392
▁ㅇㅏㄱㅘ -6393
ㅊㅜㅇㅓ -6394
▁ㅁㅏㅇㅣㄹ -6395
▁ㅁㅏㅇㅇㅝㄴㄱㅕㅇ -6396
▁ㅇㅕㅇㅎㅗㄴ -6397
▁ㅇㅕㅂ -6398
▁ㅈㅣㅋㅕ -6399
▁ㅈㅏㅊㅣㄱㅜ -6400
▁ㅅㅓㅇㅈㅣㄱㅈㅏ -6401
ㅊㅣㅇㅗ -6402
ㅅㅣㅇㅗㄴ -6403
▁ㅎㅏㅂㄹㅣ -6404
▁ㅇㅑㄱㅌㅏㄹ -6405
ㅅㅡㅌㅏㅇㅣㄴ -6406
▁ㄹㅔㅇㅣㅂㅡㄹ -6407
▁175 -6408
▁ㅅㅏㅁㅜㄹ -6409
▁ㅇㅏㄴㄴㅐ -6410
▁ㅈㅜㄴㅇㅜ -6411
▁1922 -6412
▁ㅋㅏㅅㅡㅌ -6413
▁ㅇㅕㅇㄱㅏㅁ -6414
ㅗㅇㅜ -6415
▁ㄱㅠㅅㅠ -6416
▁ㅂㅓㅈㅣㄴㅣㅇㅏ -6417
▁ㄷㅗㅇㅇㅣㄹㅂㅗㄴ -6418
▁ㄷㅓㄱㅂㅜㄴ -6419
▁ㄴㅔㅇㅣㅅㅕㄴ -6420
▁ㄴㅡㄴㄷㅏㄱㅗ -6421
▁1912 -6422
▁ㅃㅏㅈㅣ -6423
▁ㅅㅏㄹㅇㅏㄴㅏㅁ -6424
▁ㄱㅡㄹㅆㅣ -6425
▁My -6426
▁ㅇㅠㄴㄹㅣ -6427
▁ㅇㅕㅇㄱㅘㅇ -6428
▁ㅂㅜㅎㅗ -6429
▁ㅍㅛㅈㅣ -6430
▁ㅈㅜㅇㄹㅣㅂ -6431
▁ㅇㅡ -6432
▁ㄱㅗㅇㅅㅔ -6433
▁ㅅㅏㄱㅈㅔ -6434
▁ㄹㅣㄴㅜㄱㅅㅡ -6435
▁ㄹㅡㅇ -6436
▁ㅅㅓㄴㄱㅛㅅㅏ -6437
▁ㅈㅔㅇㅑㄱ -6438
ㅑㅅㅡ -6439
▁ㅂㅗㄱㅅㅏ -6440
▁ㄷㅔㄹㅣ -6441
▁ㄱㅡㄱㅂㅗㄱ -6442
▁ㅎㅘㄱㅏ -6443
ㅍㅡㄹㅏㄴ -6444
▁ㄴㅏㅌㅏㄴㅏㄴ -6445
ㅇㅑㅇㄱㅜㄴ -6446
▁ㅂㅏㄱㄱㅡㄴ -6447
▁ㅅㅜㅅㅏㅇㅈㅏ -6448
▁ㄹㅜㅌㅡㅂㅣㅎㅣ -6449
▁ㄱㅛㄱㅘ -6450
▁ㅂㅗㄱㄱㅜ -6451
▁ㅇㅢㅅㅓㄱ -6452
▁ㄷㅗㅅㅣㅁ -6453
▁ㅊㅚㅅㅏㅇ -6454
▁ㅁㅜㄴㅂㅓㅂ -6455
▁ㅂㅕㄴㅅㅣㄴ -6456
▁ㅁㅗㅅㅣ -6457
▁ㄱㅣㅁㄷㅐㅈㅜㅇ -6458
▁ㅅㅓㅈㅓㄱ -6459
▁Go -6460
▁ㄷㅗㅇㅈㅣ -6461
▁ㅋㅏㄹㅡㄹ -6462
▁ㄱㅏㅌㅗㄹㄹㅣㄱㄱㅛㅎㅚ -6463
▁ㄷㅏㅇㅑㅇㅊㅔ -6464
▁ㅅㅔㄹㄹ -6465
▁"" -6466
ㄷㅡㄹㅏ -6467
▁ㅇㅣㅅㅣ -6468
▁ㅎㅑㅇㅌㅗ -6469
ㅈㅡㅋㅣ -6470
ㅍㅣㅅㅡ -6471
▁ㅍㅡㄹㅗㅅ -6472
up -6473
▁ㅇㅏㄹㅇㅏ -6474
▁ㅈㅣㄱㅅㅓㄴ -6475
▁ㅂㅣㄱㅌㅗㄹㅣㅇㅏ -6476
ong -6477
▁ㅍㅔㄹㅜ -6478
▁ㅁㅗㄱㅈㅗ -6479
ㅋㅓㅅㅡ -6480
▁ㄸㅗㄱㄱㅏㅌ -6481
▁ㅅㅗㅅㅓㄹㄱㅏ -6482
▁ㅍㅗㅇㅠ -6483
ㅋㅣㅅㅡ -6484
▁ㅇㅠㅇㅕㄱ -6485
▁ㅍㅕㅇㅅㅐㅇ -6486
▁164 -6487
▁ㅋㅗㅌㅡ -6488
▁ㅇㅕㅇㅣㄴ -6489
▁ㄱㅡㄹㅐㄴㄷㅡ -6490
▁ㅂㅏㄹㅎㅟ -6491
▁ㅂㅗㅌㅗㅇㅎㅏㄱㄱㅛ -6492
▁ㅂㅜㅇㅠ -6493
▁ㄱㅗㅇㅏㄴ -6494
▁ㅍㅗㄱㅍㅜㅇ -6495
▁ㅌㅓㅂ -6496
▁ㄱㅓㄴㅊㅜㄱㅁㅜㄹ -6497
▁06 -6498
▁ㅎㅘㅇㅌㅐ -6499
▁1908 -6500
▁ㅁㅜㅇㅣㄴ -6501
▁ㅇㅣㄹㅈㅏ -6502
▁Love -6503
▁ㅇㅗㄹㄹㅣㄴ -6504
▁ㄸㅓ -6505
▁ㅁㅗㄷㅠㄹ -6506
▁1906 -6507
▁ㄱㅣㅂㅜ -6508
ㅔㅇㅣㄹㄹㅣ -6509
▁ㅁㅐㄴㅣ -6510
▁ㅌㅗㅂㅓㄹ -6511
▁ㅈㅜㅇㅅㅣ -6512
▁ㅅㅡㅋㅔㅇㅣㅌㅣㅇ -6513
▁ㄹㅓㄱ -6514
▁ㄱㅕㅇㅇㅠ -6515
▁ㄹㅐㅇㅋㅣㅇ -6516
▁ㄸㅔ -6517
▁ㅇㅠㅇㅛㅇ -6518
▁ㄷㅡㄹㅓㄴㅏ -6519
ip -6520
▁JR -6521
▁ㅅㅓㄹㅂㅣ -6522
▁ㄴㅏㅁㄷㅗㅇㅉㅗㄱ -6523
▁ㄱㅗㅇㄱㅕㄱㅅㅜ -6524
▁ㅇㅔㄹㄹㅣㅈㅏㅂㅔㅅㅡ -6525
▁ㅇㅣㅈ -6526
▁ㅁㅣㅅㅣ -6527
▁ㅍㅏㅌㅡㄴㅓ -6528
▁ㅅㅡㄹㄹㅗ -6529
▁ㅇㅏㅁㅏㅊㅜㅇㅓ -6530
ㅠㅁㅔㄴㅌㅓㄹㅣ -6531
▁ㅈㅜㄹㅠ -6532
▁ㅍㅓㅅㅣ -6533
▁ㅌㅗㅅㅡ -6534
▁ㅅㅏㅊㅗㄴ -6535
▁ㅍㅐㅌㅓㄴ -6536
▁ㅇㅔㄹㅡ -6537
▁ㅈㅜㅇㄱㅜ -6538
ㅔㄷㅣ -6539
▁ㅇㅠㄱㅏ -6540
▁ㄱㅕㄹㅅㅣㅁ -6541
▁ㄷㅗㄹㅇㅏㄱㅏㅆ -6542
OM -6543
▁ㅁㅜㄹㅡㅍ -6544
▁03 -6545
ㅡㄴㅔ -6546
▁ㅇㅘㄹ -6547
ㅗㅅㅡㄹㄹ -6548
▁ㅁㅔㄹㅡ -6549
▁ㅇㅣㄴㅏㄹ -6550
ㅅㅏㄱㅣ -6551
▁ㅇㅕㄴㄹㅕㅇ -6552
▁ㅇㅣㄹㅇㅡㅋㅣㄴ -6553
▁ㅁㅗㄹㅐ -6554
▁ㅅㅓㄱㅈㅗ -6555
▁ㅇㅘㅇㄱㅏ -6556
▁ㅇㅣㅈㅗㅇ -6557
▁ㅈㅣㄴㅅㅜㄹ -6558
▁KT -6559
ㅅㅚ -6560
▁ㄱㅛㄷㅗ -6561
▁ㅈㅣㅇㅕㄴ -6562
▁ㅇㅏㄴㅇㅑㅇ -6563
IS -6564
ㅎㅚㅇㅢ -6565
▁ㅁㅜㅅㅏㄴ -6566
▁ㅅㅡㅍㅏㅇㅣ -6567
▁ㄱㅜㅅ -6568
▁ㅋㅞ -6569
▁ㅂㅔㅌㅏ -6570
▁ㄴㅏㅇㅣㅌㅡ -6571
ㅣㄹㄹㅣㅇㅏ -6572
▁ㅈㅣㅈㅜㅇㅎㅐ -6573
ㅁㅜㅇ -6574
▁ㅂㅗㅇㅅㅏ -6575
ld -6576
▁ㅇㅐㄹㄹㅓㄴ -6577
▁ㄱㅜㅁㅣ -6578
▁ㄱㅏㄱㅈㅏ -6579
▁ㅍㅜㅇㅅㅗㄱ -6580
▁ㅋㅡㄹㄹㅏㅇㅜ -6581
ㅋㅏㅅㅡ -6582
▁ㄹㅏㅇㅣㅇㅗㄴ -6583
ㄷㅏㄹㄹ -6584
▁SM -6585
ant -6586
▁1927 -6587
▁ㅂㅐㄱㅡㅂ -6588
▁ㅇㅓㅇㅝㄷㅡ -6589
ㄹㅏㅇㅣㅌㅓ -6590
▁ㅂㅜㄱㄷㅗㅇㅉㅗㄱ -6591
▁ㅅㅗㅇㄹㅏㅇㅣㅌㅓ -6592
▁ㅎㅐㅅㅓㄹ -6593
ㅎㅐㄱㅜㄴ -6594
▁ㅎㅏㅇㅘㅇㅣ -6595
▁ㄱㅜㄱㅁㅣㄴㄷㅏㅇ -6596
▁ㅅㅏㄴㅇㅏㄱ -6597
▁BBC -6598
▁ㅂㅜㅌㅏㄱ -6599
▁ㅅㅔㅇㅝㅈㅣㄴ -6600
▁1907 -6601
▁ㅌㅜㄱㅜ -6602
ㅂㅔㄹㅡㅋㅡ -6603
▁ㅈㅜㄴㅇㅜㅅㅡㅇ -6604
▁ㄷㅐㅎㅐㅇ -6605
▁ㅇㅕㅇㅈㅗ -6606
▁ㅇㅗㄻㄱㅣ -6607
▁ㄷㅏㅋㅠㅁㅔㄴㅌㅓㄹㅣ -6608
▁ㄴㅏㅅㅓ -6609
▁ㅈㅓㄴㄹㅏ -6610
ㄷㅏㅇㅣㄹㅏ -6611
▁ㅅㅏㅂㅇㅣㅂ -6612
▁ㅂㅏㅇㅣㅇㅗㄹㄹㅣㄴ -6613
▁ㅌㅔㅁ -6614
▁ㅅㅡㅇㅘ -6615
▁ㅇㅏㅂㄷㅗ -6616
▁1917 -6617
▁ㄷㅐㄱㅛ -6618
▁ㅇㅣㄴㅈㅏ -6619
▁ㅇㅏㄹㅂㅏㄴ -6620
▁ㅁㅕㅇㅅㅏ -6621
▁ㅌㅗㅇㄹㅗ -6622
▁ㅊㅏㅇㄱㅏㄴ -6623
▁ㅈㅣㄱㅇㅟ -6624
▁ㄷㅗㅇㅓ -6625
▁ㅂㅜㅅ -6626
▁ㅍㅣㅌㅡ -6627
▁ㄱㅣㅈㅗㅇ -6628
▁ㅈㅣㄹㅡㅁ -6629
▁ㅍㅜㄹㅡㄴ -6630
▁|| -6631
av -6632
▁ㅎㅐㅈㅣㄴ -6633
ㅅㅏㅇㅣ -6634
ㅅㅅㅜ -6635
▁ㄴㅏㅂㅊㅣ -6636
▁ㅇㅣㄴㄹㅕㄱ -6637
▁ㅁㅜㄴㅎㅏ -6638
▁ㄴㅓㅁㄱㅕ -6639
▁ㅇㅠㄱㅅㅓㅇ -6640
▁ㅅㅣㅅㅏㅇㅅㅣㄱ -6641
▁ㅁㅕㅇㅁㅜㄴ -6642
▁ㅌㅏㅁㅎㅓㅁ -6643
ㄷㅔㅇㅣ -6644
▁ㅎㅏㅅㅏ -6645
▁ㅈㅓㄴㅎㅑㅇ -6646
▁ㄴㅗㅂㅣ -6647
▁ㅇㅗㅋㅔ -6648
▁ㅇㅓㄷㅜㅇ -6649
▁ㅈㅔㅈㅜㄷㅗ -6650
▁ㅇㅚㄱㅖ -6651
ㅔㄹㅣㅇㅏ -6652
▁MV -6653
▁ㄷㅜㄷㅡㄹ -6654
▁ㅁㅜㅅㅓㄴ -6655
▁ㅎㅡㄺ -6656
▁He -6657
▁ㅈㅗㅁㅕㅇ -6658
▁ㅊㅣㅁㅎㅐ -6659
▁ㄷㅣㅈㅡㄴㅣ -6660
▁ㅂㅓㄱ -6661
▁ㅈㅗㅅㅔ -6662
▁1926 -6663
ㅔㄹㄹㅡㅁ -6664
▁ㄹㅣㄷㅡㅁ -6665
ED -6666
▁ㅁㅗㄹㅗ -6667
▁ㅈㅓㄱㅇㅓㄷㅗ -6668
▁ㄱㅡㄴㄹㅗ -6669
▁ㅈㅏㅁㅜㄴ -6670
▁ㅊㅐㄱㅝㄴ -6671
▁ㅁㅣㄹㄹㅏㄴㅗ -6672
▁ㅈㅏㅊㅐㄱ -6673
▁ㅇㅠㅇㅣㄴ -6674
▁ㅁㅜㄴㅎㅘㅇㅠㅅㅏㄴ -6675
▁ㅌㅐㅈㅏ -6676
ㅌㅔㄴㄷㅗ -6677
▁ㄱㅛㅇㅕㄱ -6678
▁ㅇㅢㅂㅕㅇ -6679
▁ㅊㅔㅇㅣㄴ -6680
▁ㄴㅣㄴㅌㅔㄴㄷㅗ -6681
ㅇㅕㅇㅅㅏㅇ -6682
▁ㅈㅣㅇㅕㄱㄱㅜ -6683
▁ㄷㅗㅇㅇㅏㅅㅣㅇㅏ -6684
ㅜㅁㅣ -6685
▁ㅋㅓㅍㅣ -6686
▁ㅈㅓㄴㅅㅡㅇ -6687
▁ㄴㅗㅇㅣㄴ -6688
se -6689
▁ㅈㅓㄱㅇㅡㅇ -6690
▁SN -6691
ㅔㅂㅏ -6692
▁NHK -6693
▁ㅂㅣㅈㅓㄴ -6694
▁ㅎㅏㅇㅁㅗㄱ -6695
▁ㄱㅗㅅㅓ -6696
▁ㄱㅏㄴㅅㅓㅂ -6697
▁ㅁㅐㄱㅏㄱ -6698
▁ㅇㅕㄴㄱㅗㅈㅣ -6699
▁ㅊㅓㄹㅈㅓ -6700
▁ㄱㅡㄹㅏㅇ -6701
ㅌㅓㅂㅔㅇㅣㅅㅡ -6702
▁ㄱㅘㅈㅏㅇ -6703
▁ㅇㅕㄱㄱㅘ -6704
▁ㅂㅏㄱㄱㅡㄴㅎㅖ -6705
ㅁㅓ -6706
▁ㅅㅣㅈㅣㅂ -6707
▁ㄷㅔㅇㅣㅌㅓㅂㅔㅇㅣㅅㅡ -6708
ame -6709
▁ㅁㅏㄹㅜ -6710
▁ㅅㅏㅇㅎㅏㅇㅣ -6711
▁ㅁㅔㅇ -6712
▁ㅂㅗㅈㅘ -6713
▁ㅅㅣㅇㅚ -6714
▁ㄱㅣㅁㄷㅗㅇ -6715
▁ㅇㅘㅇㄹㅣㅂ -6716
▁ㅎㅕㅂㅇㅢㅎㅚ -6717
▁ㅎㅏㅂㄱㅖ -6718
▁ㄴㅗㅁㅜ -6719
▁ㅈㅓㅇㄹㅠㅈㅏㅇ -6720
AC -6721
▁ㄱㅛㅊㅏ -6722
▁ㅎㅐㅇㅎㅐ -6723
▁ㅅㅏㅇㅇㅕㅇ -6724
▁ㄷㅗㄱㅇㅣㄹㅇㅓ -6725
ind -6726
▁ㅅㅏㅇㅊㅓ -6727
▁ㅂㅡㄹㅜ -6728
▁ㅅㅣㅌㅡ -6729
ㅅㅐㅇㅁㅜㄹ -6730
▁ㅂㅏㄹㄹㅏ -6731
▁ㅊㅜㄹㅎㅕㄴ -6732
▁PD -6733
▁ㅂㅕㄹㄹㅗ -6734
▁ㄴㅐㅈㅏㅇ -6735
▁ㅅㅓㅂㅜㄱ -6736
▁ㅃㅐ -6737
▁ㅈㅏㅇㅅㅏ -6738
▁ㅎㅏㅊㅓㄴ -6739
ㄷㅗㄴㅣㅇㅏ -6740
▁ㄹㅔㅇㅣㄷㅏ -6741
▁ㅂㅐㅁ -6742
ㅏㄴㅌㅡ -6743
▁ㅈㅗㅇㅈㅗㄱ -6744
▁ㅈㅛ -6745
▁168 -6746
ㅂㅣㄱ -6747
▁ㅎㅗㄹㄹㅗ -6748
▁ㅅㅣㅀ -6749
▁ㅇㅜㅇㅣㄱ -6750
▁ㅎㅣㅅㅡ -6751
▁ㄱㅣㄹㅡㅁ -6752
ㅊㅡㅁ -6753
▁ㄱㅏㄴㄷㅏ -6754
▁ㄴㅏㅁㄱㅕ -6755
▁ㅍㅏㅇㅜㄴㄷㅡ -6756
▁162 -6757
ㄱㅗㅇㅅㅏ -6758
ㅌㅗㅅㅣ -6759
▁ㅅㅚㅌㅚ -6760
▁ㅅㅐㄱㅅㅏㅇ -6761
▁ㅇㅠㅌㅠㅂㅡ -6762
ㅇㅝ -6763
ㅂㅡㄹㅣ -6764
▁1905 -6765
▁ㅋㅜㅅㅡ -6766
▁ㅊㅏㅁㅈㅗ -6767
▁ㅌㅏㅂㅅㅡㅇ -6768
▁ㅍㅏㄴㅌ -6769
▁ㅁㅏㅈㅊㅝ -6770
ith -6771
▁ㄸㅡ -6772
▁166 -6773
▁ㄷㅏㄴㅎㅐㅇ -6774
▁ㅅㅡㅋㅏㅇㅣ -6775
▁Sp -6776
ry -6777
▁ㅈㅓㅇㅅㅓ -6778
▁ㅈㅏㅈㅓㄴㄱㅓ -6779
ㄷㅏㄹㅡㄴ -6780
▁ㅅㅜㄱㅏㅁ -6781
▁ㄱㅣㅎㅏㅎㅏㄱ -6782
▁151 -6783
▁ㅊㅣㅇㅎㅏ -6784
▁ㅇㅝㄴㅅㅏㄴ -6785
▁ㅇㅔㄹㅣㄱ -6786
▁ㅇㅘㅇㅣ -6787
▁ㅋㅡㄹㅣㅅㅡㅌㅗ -6788
ㅋㅗㄱ -6789
▁ㄸㅐㄹㅗ -6790
▁ㅇㅣㅈㅗ -6791
▁ㅂㅣㄷㅏㄴ -6792
▁ㅈㅜㅁㅏㄹ -6793
ㅍㅔㅇㅣㅈㅣ -6794
ort -6795
▁ㅈㅗㄱㅣ -6796
ㅊㅏㅈ -6797
▁ㅅㅜㅁㅕㅇ -6798
▁ㅇㅣㅌㅏㄹ -6799
▁ㅇㅗㅇㅎㅗ -6800
▁ㅎㅏㄷㅡㅇ -6801
▁ㅇㅠㅇㅣㅂ -6802
▁ㅅㅏㄹㅏㅈㅣ -6803
ES -6804
▁02 -6805
ㅏㅁㅗㅌㅗ -6806
▁ㄷㅗㅇㄱㅜ -6807
▁ㄷㅡㄹㅐㄱㅗㄴ -6808
▁158 -6809
ㅔㅅㅕㄹ -6810
▁ㅅㅔㅈㅗ -6811
▁ㅍㅛㅂㅗㄴ -6812
ok -6813
▁ㅅㅏㄹㅛ -6814
▁ㅍㅔㅅㅡㅌ -6815
▁ㅌㅡㄱㄱㅡㅂ -6816
▁ㅈㅜㅍㅏ -6817
▁ㅇㅗㅂㅓ -6818
ㅜㄹㅜㅅㅡ -6819
▁ㅈㅏㅁㅈㅐ -6820
▁ㅎㅗㅁㅍㅔㅇㅣㅈㅣ -6821
ㄴㅐㅇ -6822
ㅅㅡㅂㅗㄹ -6823
ㄷㅓㅇ -6824
▁ㅂㅣㅍㅕㅇㄱㅏ -6825
▁ㄱㅣㄷㅏㄴ -6826
▁ㄱㅣㄴㅕㅁㅁㅜㄹ -6827
▁ㅍㅡㄹㄹㅗ -6828
ㅊㅗㅇㅈㅏㅇ -6829
▁ㅇㅠㅅㅣㄴ -6830
▁ㄴㅏㅁㅅㅓㅉㅗㄱ -6831
▁ㅎㅑㅇㄴㅕㄴ -6832
▁ㅂㅔㅇㅣㅅㅡㅂㅗㄹ -6833
▁ㅍㅜㅁㅈㅣㄹ -6834
▁ㄱㅏㅎㅐ -6835
▁ㅁㅛㅅㅗ -6836
▁ㅋㅓㅁㅠㄴㅣㅌㅣ -6837
▁ㄸㅓㄴ -6838
▁ㄱㅘㅇㅇㅕㄱ -6839
▁ㅅㅐㄱㄲㅏㄹ -6840
▁ㅎㅗㅈㅗ -6841
▁ㅌㅡㄹㅓㄱ -6842
▁ㄱㅘㄴㅈㅜㅇ -6843
▁ㅅㅓㄱㅌㅏㅂ -6844
▁ㅂㅏㅌ -6845
▁ㅅㅡㅅㅡㅇ -6846
▁ㅍㅡㄹㄹㅐㄴ -6847
▁ㅇㅖㄴ -6848
▁ㅍㅗㅋㅡ -6849
▁ㅇㅓㅁㅁㅏ -6850
ㅛㄱ -6851
▁ㅈㅏㅂㅏ -6852
▁ㅇㅖㅇㅚ -6853
▁ㅇㅑㅅㅐㅇ -6854
▁ㅅㅡㅍㅔㅅㅕㄹ -6855
▁ㅈㅓㄴㅎㅐㅈㅣㄴㄷㅏ -6856
ㅅㅔㅅㅡ -6857
▁ㅅㅏㄹㅍ -6858
▁ㅇㅠㄴㅣㅅ -6859
▁ㅁㅏㅆㅡㄷㅏㅇㅣㄹㅏ -6860
ㅡㄴㅏㄴ -6861
▁ㄱㅣㅈㅓㅁ -6862
▁ㄱㅙ -6863
▁ㅁㅜㄴㄱㅘ -6864
▁ㄲㅜㅈㅜㄴㅎㅣ -6865
▁ㅈㅗㅅㅓㄴㅇㅣㄴ -6866
▁ㅇㅏㄴㄷㅡㄹㅗㅇㅣㄷㅡ -6867
▁ㄴㅗㅅ -6868
▁ㅁㅏㄹㅏ -6869
▁ㅁㅣㄴㅈㅗㄱㅈㅜㅇㅢ -6870
▁ㅁㅏㅅㅡ -6871
▁ㅈㅣㅂㅏ -6872
▁ㄱㅏㄹㅡㅊㅣ -6873
▁ㄷㅏㄴㅊㅡㅇ -6874
▁ㅅㅗㄴㅣ -6875
▁ㅈㅘㅇㅣㄱ -6876
ㅣㅂㅓㄹ -6877
▁ㄷㅣㅈㅏㅇㅣㄴㅓ -6878
▁ㅂㅐㅅㅏㅇ -6879
▁ㄷㅡㄹㅇㅓㅅㅓ -6880
ㅌㅗㅁㅣ -6881
▁ㅂㅏㄴㅎㅘㄴ -6882
▁ㅅㅔㅅㅉㅐ -6883
▁ㅇㅣㄴㄷㅣ -6884
▁ㅊㅚㅇㅜㅅㅜ -6885
▁ㄸㅡㄱ -6886
▁ㅅㅜㅊㅓㄴ -6887
▁ㅋㅔㅇㅣㅂㅡㄹ -6888
▁ㅈㅓㅈㅣㄹ -6889
ㄹㅣㅋㅔㅇㅣㅅㅕㄴ -6890
▁ㅇㅣㅂㅁㅜㄴ -6891
▁ㄷㅗㅇㅇㅕㅇㅅㅏㅇ -6892
ㅂㅗㅅㅏㄹ -6893
▁ㄹㅔㄴㅈㅡ -6894
▁ㅁㅗㅈㅣㅂ -6895
▁ㅅㅏㅈㅣㄱ -6896
▁ㅇㅠㄱㅗㅅㅡㄹㄹ -6897
▁ㅇㅗㄹㅣㅈㅣㄴㅓㄹ -6898
▁ㅇㅠㄱㅗㅅㅡㄹㄹㅏㅂㅣㅇㅏ -6899
ㅔㅅㅣ -6900
▁ㅇㅕㄴㅅㅗ -6901
▁ㅂㅜㄷㅗㅇㅅㅏㄴ -6902
▁ㄱㅘㄴㅎㅏ -6903
▁ㅅㅏㅇㅅㅗ -6904
▁ㅌㅔㅋㅡㄴ -6905
▁ㄴㅡㄹㅇㅓㄴㅏ -6906
▁ㄱㅣㅇㅛ -6907
▁ㅋㅗㄹㄹㅗㅁㅂㅣㅇㅏ -6908
ㅏㅁㅗ -6909
▁ㄱㅡㅂㅅㅗㄱ -6910
▁ㅂㅓㄱㅡ -6911
ㅌㅣㅇㅜㅁ -6912
ㅁㅐㅅ -6913
ㄷㅐㄱㅛ -6914
▁Un -6915
▁1904 -6916
▁ㄷㅐㅇㅏㄴ -6917
▁ㄷㅡㄹㅣㅁ -6918
▁ㄱㅡㅂㅎㅐㅇ -6919
ㅍㅡㄹㅏㄴㅅㅣㅅㅡㅋㅗ -6920
ㅡㄴㅏ -6921
▁ㄱㅘㄴㅈㅏㅇ -6922
▁ㅅㅓㄴㅈㅣㄴ -6923
▁ㅇㅖㅅㄴㅏㄹ -6924
▁ㄹㅏㅇㅣㅂㅓㄹ -6925
▁ㅍㅡㄹㅐㄴ -6926
▁ㅅㅐㄴㅍㅡㄹㅏㄴㅅㅣㅅㅡㅋㅗ -6927
▁ㅇㅔㅇ -6928
▁ㅍㅕㄹㅊㅣ -6929
▁ㅇㅏㅁㅜㄹㅓㄴ -6930
▁ㅁㅜㅅㅣㄴ -6931
▁ㅅㅓㄱㅕㅇ -6932
▁ㅎㅗㄴㅏㅁ -6933
▁ㅍㅗㅅ -6934
ord -6935
▁ㅊㅜㄹㅍㅏㄴㅅㅏ -6936
▁ㅍㅔㅅㅡㅌㅣㅂㅓㄹ -6937
ㅓㅁㅣ -6938
▁ㄹㅔㅇㅣㅅㅡ -6939
▁ㅇㅕㄴㅈㅜㅈㅏ -6940
ㅌㅣㅇㅏㄴ -6941
ㅆㅏㅇ -6942
ㅌㅡㄹㅓㅁ -6943
▁ㅂㅏㄷㅊㅣㅁ -6944
ㄷㅏㄴㅣ -6945
▁ㅅㅣㅁㅎㅏ -6946
ㅋㅜㅅㅡ -6947
ㅏㄹㄹㅔㅁ -6948
▁ㅁㅜㄱㅘㄴ -6949
▁ㅇㅣㅇㅓㅈㅕ -6950
▁ㅈㅓㄱㅅㅐㄱ -6951
▁ㅈㅓㅁㅅㅓㅇ -6952
▁ㅂㅣㅈㅡㄴ -6953
▁ㅌㅡㅇㅟ -6954
▁ㅈㅏㅇㅠㄹ -6955
▁ㅁㅗㄱㄱㅕㄱ -6956
▁ㅋㅏㅍㅔ -6957
ㅌㅏㅇㅜㄴ -6958
▁ㅂㅏㄱㅅㅡ -6959
▁ㄷㅗㅇㅈㅓㄴ -6960
ob -6961
▁ㅁㅜㅅㅓㅇ -6962
▁ㅂㅗㅇㅣㄴ -6963
▁ㄴㅏㅍㅗㄹㄹㅣ -6964
▁Se -6965
▁ㅈㅜㅎㅏㄴ -6966
▁154 -6967
▁ㄱㅣㅃ -6968
▁ㄷㅗㄹㅍㅏ -6969
▁ㅇㅓㅇㅜㄹ -6970
qu -6971
ㅇㅜㅇㅖㄴ -6972
▁ㅁㅣㅁㅏㄴ -6973
▁ㅈㅜㅇㅢㅈㅏ -6974
▁165 -6975
▁ㅎㅡㄹㄹ -6976
ㅌㅗㅂㅔㄴ -6977
▁ㄱㅓㅊㅣㄴ -6978
▁ㅎㅡㅇㅁㅣ -6979
▁ㅇㅜㄴㅂㅏㄴ -6980
▁ㅂㅔㅌㅗㅂㅔㄴ -6981
▁ㅋㅏㅈㅏ -6982
▁ㅅㅔㄴㅌㅡㄹㅓㄹ -6983
ㄷㅣㅅㅡ -6984
ㅗㄴㄷㅡ -6985
▁ㅇㅘㅇㅈㅗㄱ -6986
ㅡㄴㅣ -6987
▁ㅇㅢㄱㅓ -6988
▁ㄷㅗㅁㅔㅇㅣㄴ -6989
▁ㅍㅐㅁ -6990
ㅔㅇㅜㅅㅡ -6991
▁ㄴㅐㄹㅠㄱ -6992
▁ㅌㅜㄹㅡ -6993
▁ㄱㅡㅊㅕㅆ -6994
▁ㅅㅡㅋㅗㅅ -6995
▁ㅈㅏㅅㅏ -6996
▁ㄱㅣㅇㅛㅇ -6997
▁ㅍㅏㅅㅐㅇ -6998
▁ㅊㅜㄹㅅㅏㄴ -6999
▁ㄷㅏㄴㅕㅆ -7000
ㅌㅗㄹㅡ -7001
▁ㅅㅓㄴㅈㅔ -7002
▁ㅅㅓㅇㅣㄹ -7003
▁ㅇㅕㄴㄱㅡㅁ -7004
▁ㅇㅜㄴㅁㅕㅇ -7005
ㅍㅡㄹㄹㅔㅇㅣ -7006
▁ㅋㅜㄴ -7007
▁ㄱㅐㅅㅜ -7008
▁ㄸㅜㅀ -7009
ㄱㅣㄴㄷㅏ -7010
▁ㄱㅖㄷㅏㄴ -7011
▁ㅂㅗㄱㅈㅔ -7012
▁156 -7013
ㅂㅜㅅㅏ -7014
▁ㅇㅐㄴㄷㅡㄹ -7015
ate -7016
▁ㅇㅏㄱㅈㅏㅇ -7017
▁ㄹㅣㅌㅜㅇ -7018
▁ㅇㅏㄱㅣ -7019
▁ㅋㅏㅅㅡ -7020
ㅜㅇㅔㄹ -7021
▁Wh -7022
▁ㅇㅓㅎㅏㅇ -7023
▁ㅎㅗㅎㅘㄴ -7024
▁ㄱㅗㄷㅂㅏㄹㅗ -7025
▁ㄲㅗㄹ -7026
▁ㅁㅏㄴㄴㅏㄴ -7027
▁ㄹㅚ -7028
ㅓㅂㅣ -7029
ㅁㅣㄴㅣ -7030
▁ㅂㅣㅈㅡㄴㅣㅅㅡ -7031
▁SF -7032
▁ㅈㅓㅇㅈㅏ -7033
▁ㄴㅗㅈㅗ -7034
PS -7035
▁ㅂㅜㅍㅐ -7036
▁ㅇㅣㄴㅊㅣ -7037
▁ㅎㅔㄱ -7038
▁ㅈㅣㄴㅈㅣ -7039
▁ㅈㅣㅎㅟㅈㅏ -7040
▁ㅇㅔㅅㅡㅍㅏㄴ -7041
ㅈㅜㄱㅗㄱ -7042
▁ㅇㅛㅇㅅㅏㄴ -7043
▁ㅇㅗㄷㅣㅅㅕㄴ -7044
▁ㅂㅡㄹㅏㅇㅣㅇㅓㄴ -7045
▁163 -7046
▁ㄱㅜㅅㅏ -7047
▁ㄷㅗㅋㅏㅇㅣ -7048
▁ㅅㅣㄴㅇㅣㅁ -7049
▁ㅈㅣㄱㅈㅏㅇ -7050
▁ㅁㅣㄹㄹㅕ -7051
▁ㅈㅜㅇㅓㅈㅣㄴ -7052
▁ㄱㅜㅈㅏㅇ -7053
▁ㄹㅣㅇㅋㅡ -7054
▁ㅂㅏㅇㅇㅏㄴ -7055
▁ㅈㅓㅇㄱㅛ -7056
ㅜㅅㅏㄹㄹㅔㅁ -7057
▁ㄹㅗㅈㅡ -7058
▁ㅅㅡㅋㅜㄹ -7059
▁ㅅㅡㅍㅔㄱㅌㅡㄹㅓㅁ -7060
▁ㅅㅣㄴㅂㅣ -7061
▁ㅎㅕㅂㅇㅢ -7062
▁ㅇㅕㄷㅗㅇㅅㅐㅇ -7063
▁ㅍㅣㄹㄹㅏ -7064
▁ㅍㅣㄹㅔㄴ -7065
▁ㅈㅣㄴㅅㅏㅇ -7066
▁ㅇㅖㅅㅜㄹㄱㅏ -7067
ㅋㅗㅅ -7068
▁ㅎㅏㅂㅈㅏㄱ -7069
▁ㅍㅕㅇㅅㅗ -7070
▁ㅅㅡㅁㅏㅌㅡㅍㅗㄴ -7071
ㄷㅣㄱ -7072
▁ㅌㅏㅇㅣㄱㅓ -7073
▁ㄲㅜㄹ -7074
▁ㅋㅗㅇㄱㅗ -7075
ㅋㅙ -7076
▁ㄷㅚㅊㅏㅈ -7077
▁ㅂㅔㄴㅔㅅ -7078
▁ㅈㅜㄹㅣㅂ -7079
▁ㅍㅗㅁㅐㅅ -7080
▁ㅅㅡㅌㅔㅇㅣㅈㅣ -7081
▁ㄱㅓㄷㅜㄴ -7082
▁ㅅㅏㅂㅓㅁ -7083
▁ㄱㅣㄴㄱㅡㅂ -7084
IC -7085
▁ㅈㅘㅅㅓㄱ -7086
▁ㅎㅏㅇㅇㅣㄹ -7087
ㅌㅡㄹㅡ -7088
ㅏㅇㅇㅣ -7089
ㄱㅣㄹㅇㅣ -7090
▁ㄱㅝㄴㄱㅗ -7091
▁ㅅㅜㅁㅕㄴ -7092
▁ㄱㅕㅇㅜ -7093
▁ㅇㅣㄹㅎㅐㅇ -7094
ㅅㅏㄹㅡ -7095
▁ㄱㅣㅈㅐ -7096
▁ㅈㅏㅇㅍㅕㄴ -7097
▁ㅇㅣㄹㅇㅓㄴㅏㄴㄷㅏ -7098
ㅐㄹㅑㅇ -7099
▁ㅇㅖㅇㅓㄴ -7100
▁ㅁㅜㅅㅡㄹㄹ -7101
▁900 -7102
▁ㄷㅗㅇㅅㅏ -7103
▁ㅇㅕㅅㅣㄴ -7104
▁167 -7105
▁ㅈㅏㅎㅚㅅㅏ -7106
▁ㅎㅏㄴㅇㅑㅇ -7107
▁ㅇㅜㄷㅡ -7108
▁ㅂㅜㅌㅈㅏㅂ -7109
▁ㅁㅏㅋㅔㄷㅗㄴㅣㅇㅏ -7110
▁ㄱㅛㅈㅓㄴ -7111
▁ㅊㅜㅇㄴㅏㅁ -7112
▁ㅎㅚㅇㅝㄴㄱㅜㄱ -7113
ㄲㅗㄹ -7114
▁ㄱㅏㄱㅔ -7115
▁ㅁㅓㄹㅌㅣ -7116
▁AM -7117
▁ㅅㅏㅇㅣㄴ -7118
ㅁㅜㄴㅎㅏㄱ -7119
▁ㅂㅐㅈㅔ -7120
ㅓㅂㅈㅣㄹ -7121
▁ㅊㅏㄱㄹㅠㄱ -7122
▁ㄹㅜㄹ -7123
▁ㅇㅛㅇㄱㅣ -7124
▁ㅅㅣㄴㅇㅛㅇ -7125
▁ㅎㅏㄴㄱㅏㅇ -7126
▁ㅁㅜㅅㅡㄹㄹㅣㅁ -7127
▁ㅇㅣㄹㅜㅇㅓㅈㅣㄴㄷㅏ -7128
▁DJ -7129
▁ㅈㅝㅆ -7130
▁ㅁㅣㅇㅑㄴ -7131
▁ㅅㅓㄴㅅㅏ -7132
▁ㅅㅏㅇㅇㅣㅁ -7133
▁ㅍㅜㄴ -7134
▁ㄹㅏㅁㅏ -7135
▁ㅈㅣㅈㅏㅇ -7136
▁ㅇㅖㄹㅜㅅㅏㄹㄹㅔㅁ -7137
▁ㅈㅗㄹㅠ -7138
ㅆㅏ -7139
▁139 -7140
▁ㄱㅏㅎㅏ -7141
▁ㅇㅣㅂㅈㅡㅇ -7142
▁ㅇㅣㄹㅇㅛㅇㅣㄹ -7143
▁ㅂㅣㅎㅏ -7144
▁ㅂㅓㄴㅈㅜ -7145
▁ㅅㅡㅍㅣㄷㅡ -7146
▁ㅎㅣㄷㅔㅇ -7147
▁ㄷㅡㄹㅓㄴㅐ -7148
▁ㅅㅏㅁㅕㄴ -7149
▁ㅅㅣㄴㅎㅏ -7150
▁ㅌㅔㅅㅡ -7151
ET -7152
ㅈㅡㅁㅣ -7153
▁ㄷㅏㄴㅈㅗㅇ -7154
▁ㅎㅏㄴㄴㅏㄹㅏ -7155
▁ㅇㅡㅁㅁㅗ -7156
▁ㅁㅗㅁㄱㅣㄹㅇㅣ -7157
▁ㅊㅗㄹㅐ -7158
▁ㅇㅛㅇㄹㅑㅇ -7159
▁ㅎㅏㄷㅡㅇㅞㅇㅓ -7160
▁ㅎㅏㄴㄴㅏㄹㅏㄷㅏㅇ -7161
ㅍㅐㅇ -7162
ㅏㅅㅣㅇㅏ -7163
ast -7164
▁ㄲㅣㄹㅣ -7165
▁ㅅㅣㅅㅡ -7166
▁ㄱㅣㅌㅏㄹ -7167
ㅖㅍㅡ -7168
▁ㅈㅓㅇㄱㅖ -7169
▁ㄱㅐㅂㅏㄹㅈㅏ -7170
▁ㅇㅡㅇㅇㅜㅇㅖㄴ -7171
▁AS -7172
▁ㄴㅣㅅㅡ -7173
▁ㅈㅐㅁㅜ -7174
▁ㄷㅏㅇㅣㄴ -7175
▁ㅂㅜㄴㅂㅐ -7176
▁ㅈㅣㅌ -7177
▁ㄷㅏㅇㅇㅕㄴ -7178
▁ㅎㅖㅅㅓㅇ -7179
ㅌㅓㄱ -7180
▁ㄷㅡㄹㅇㅓㄱㅏㄴ -7181
ㅔㄱㅅㅡ -7182
▁ㄴㅗㅇㄷㅗ -7183
▁ㅁㅓㅁㅜㄹㄹㅓㅆ -7184
▁ㅋㅣㄹㄹㅗㅁㅣㅌㅓ -7185
▁ㅅㅣㄹㅈㅓㅁ -7186
▁ㅋㅗㄴㅅㅡㅌㅏㄴㅌㅣㄴㅗ -7187
ㅋㅣㄱ -7188
▁ㄱㅏㄴㅏ -7189
▁ㅆㅡㄴㄷㅏ -7190
▁ㅊㅐㄹㄹㅣㄴ -7191
▁ㅊㅚㅅㅣㄴ -7192
▁ㅂㅓㄴㅅㅣㄱ -7193
ㄸㅡㅅ -7194
▁ㅇㅐㄱㅜㄱ -7195
▁145 -7196
ㅌㅏㅋㅏ -7197
▁ㅈㅡㅇㄱㅣ -7198
▁ㅅㅡㅌㅡㄹㅣㅌㅡ -7199
ㅌㅜㄴ -7200
▁ㅇㅖㄴㅡㅇ -7201
ㄹㅓㅁㅂㅣㅇㅏ -7202
▁ㅈㅓㄴㅇㅕㅁ -7203
▁ㅅㅜㅈㅣ -7204
▁ㅅㅓㅇㅈㅗㅇ -7205
▁ㅆㅏㅇㅝㅆ -7206
ㅍㅐㄴ -7207
▁ㅇㅏㅎㅗ -7208
▁ㅈㅜㅇㄱㅜㄱㅇㅓ -7209
▁ㄱㅏㄷㅡㄱ -7210
▁ㅈㅗㅎㅇㅏㅎㅏ -7211
▁ㄱㅘㄴㄱㅘㅇㄱㅐㄱ -7212
▁ㄷㅏㄹㅜㄴ -7213
ㅂㅔㄹㅡㅌㅡ -7214
▁DS -7215
▁ㅂㅜㄴㅈㅣ -7216
▁ㄷㅐㅈㅗ -7217
▁ㅊㅏㄱㅘㄴ -7218
▁ㅅㅣㅂㅈㅏㄱㅜㄴ -7219
▁ㄱㅓㄹㄹㅕ -7220
▁ㅍㅓㅅ -7221
▁ㅂㅜㅅㅣ -7222
ㅈㅏㅂㅇㅣ -7223
ㅔㄹㄹㅔㄴ -7224
▁ㄷㅜㄹㅕㅇㅝ -7225
▁ㅇㅣㅁㅅㅏㅇ -7226
▁ㅊㅣㄴㅈㅓㅇ -7227
ㄷㅔㅇㅣㅌㅡ -7228
▁ㄷㅣㅂㅣㅈㅓㄴ -7229
ㅅㅗㅅ -7230
▁ㅇㅛㅋㅡ -7231
▁ㅌㅔㄹㅡ -7232
▁ㄱㅗㄹㅣㅂ -7233
▁ㅂㅏㄹㅈㅗㄱ -7234
▁ㅅㅓㅇㅜㄹㅅㅣ -7235
▁ㄱㅣㅌㅏㄹㅣㅅㅡㅌㅡ -7236
▁UN -7237
▁ㅇㅏㅂㅣ -7238
▁ㅁㅣㄹㅈㅓㅂ -7239
▁ㄱㅗㅇㄱㅘ -7240
▁ㅇㅓㅂㄷㅔㅇㅣㅌㅡ -7241
ㅏㄴㅎㅣ -7242
▁ㅇㅕㄷㅓ -7243
▁ㅈㅣㅈㅜ -7244
ㅊㅣㄴㄷㅏ -7245
▁ㅇㅝㄹㄱㅏㄴ -7246
▁ㄱㅡㄹㅓㅁㅇㅔㄷㅗ -7247
▁ㅅㅡㅍㅏ -7248
if -7249
▁ㅁㅏㅊㅕㅆ -7250
▁ㅅㅛㄱㅜㄴ -7251
▁ㅁㅗㅅㅜㄴ -7252
▁ㅈㅣㄴㄴㅏㄹㅏ -7253
▁ㅇㅐㅍㅡㄹㄹㅣㅋㅔㅇㅣㅅㅕㄴ -7254
▁ㄱㅕㅇㅅㅏ -7255
▁ㅅㅓㅇㄱㅗㅇㅎㅚ -7256
DP -7257
▁ㅂㅜㅌㅗㅇㄹㅕㅇ -7258
▁IP -7259
▁ㅇㅠㅇㅎㅏㅂ -7260
▁ㄹㅣㅌㅜㅇㅏㄴㅣㅇㅏ -7261
▁ㄱㅗㄱㅐ -7262
▁ㄱㅏㅈㅣㄹ -7263
▁ㄷㅏㅇㅅㅏㅈㅏ -7264
▁ㄱㅛㅅㅓㅂ -7265
▁ㅅㅡㅍㅣㄴ -7266
▁ㅍㅣㄹㅔㄴㅊㅔ -7267
ㅏㅂㅏ -7268
▁ㄷㅐㄹㅕㅇ -7269
▁ㄱㅗㅇㅇㅛㅇ -7270
ㅌㅡㄹㅣㄱ -7271
▁ㄷㅚㄷㅗㄹ -7272
▁ㅂㅐㅈㅓㅇ -7273
ure -7274
▁1896 -7275
▁ㅎㅐㅇㅣㄴ -7276
▁ㅅㅓㅇㅣㄹㅂㅗㄴ -7277
▁ㄱㅏㅇㅇㅕㄴ -7278
▁ㅅㅏㄹㅡ -7279
ㅃㅕ -7280
▁ㅅㅣㅊㅔ -7281
▁ㅌㅗㄹㅡ -7282
▁ㅇㅓㄹㅇㅡㅁ -7283
▁ㅅㅣㄱㅅㅏ -7284
▁ㄸㅟㅇㅓㄴㅏ -7285
▁ㅋㅚ -7286
▁ㅂㅜㅅㅜ -7287
▁ㅇㅕㄴㅇㅐ -7288
ack -7289
▁ㅇㅏㄹㅣ -7290
▁ㅌㅜㅁㅕㅇ -7291
▁ㅅㅜㅎㅏㄱㅈㅏ -7292
▁ㅈㅓㄴㄹㅠ -7293
▁ㅈㅗㄱㅜㄱ -7294
▁ㅊㅐㅁㅍㅣ -7295
ㅔㄴㅈㅣ -7296
▁ㅇㅣㅌㅗ -7297
▁ㅎㅏㄱㅍㅏ -7298
▁ㅊㅣㄴㅅㅓㄴ -7299
ㅋㅔㄹ -7300
▁ㅈㅓㄴㅇㅣ -7301
IT -7302
▁ㅎㅞㅅㅗㄴ -7303
▁ㅂㅓㄹㅇㅓㅈㅣ -7304
▁ㅂㅏㄹㅎㅛ -7305
▁ㅇㅏㅂㅂㅏㄱ -7306
▁ㅈㅓㅇㅂㅓㄹ -7307
▁ㅅㅗㅅㅗㅇㅂㅓㅂ -7308
ive -7309
▁ㄱㅓㄹㄹㅣ -7310
▁ㅅㅣㄷㅡㄴㅣ -7311
▁ㅈㅜㅇㄷㅗㄱ -7312
▁ㅇㅕㄷㅓㄼ -7313
▁ㄱㅘㅈㅔ -7314
▁ㄷㅗㅇㅊㅣ -7315
▁ㅂㅜㅎㅡㅇ -7316
▁ㅅㅏㄹㅗ -7317
▁ㄱㅗㅇㅈㅓㄴ -7318
▁ㅅㅣㄴㅋㅏㄴ -7319
▁ㅅㅏㄹㅏㅈㅕㅆ -7320
▁ㅉㅣ -7321
▁ㄷㅐㄷㅏㄴ -7322
▁ㅅㅡㅌㅏㅋㅡㄹㅐㅍㅡㅌㅡ -7323
ㅇㅓㄱ -7324
▁ㅁㅛㅈㅣ -7325
▁ㅁㅏㅋㅔㅌㅣㅇ -7326
▁ㅅㅣㅇㅏ -7327
▁ㅎㅐㅇㅈㅓㅇㅂㅜ -7328
iv -7329
ock -7330
ㄹㅣㅇㅏ -7331
▁ㅅㅓㄴㅂㅗㅇㅕㅆ -7332
▁ㅂㅗㄱㅅㅗ -7333
▁ㅈㅏㅇㅅㅓㅇ -7334
▁ㅁㅣㄹㅇㅑㅇ -7335
▁ㅌㅐㄹ -7336
▁ㄴㅐㄴㄷㅏ -7337
▁ㅎㅕㅇㅂㅓㅂ -7338
▁ㅂㅜㄷㅗ -7339
▁ㄴㅗㅁㅜㅎㅕㄴ -7340
▁ㅇㅟㅈㅜ -7341
▁ㅅㅣㅁㅎㅏㄴ -7342
▁ㅂㅗㅈㅓㄴ -7343
▁ㅅㅛㅍㅣㅇ -7344
▁ㅈㅓㄴㅇㅣㅁ -7345
▁ㅇㅔㄹㅣ -7346
▁ㄱㅠㅁㅕㅇ -7347
ㅋㅏㅇㅑㅁㅏ -7348
ㅏㅇㅜㄴㅅㅓ -7349
▁ㅊㅡㄱㄱㅡㄴ -7350
▁ㅇㅏㄴㅏㅇㅜㄴㅅㅓ -7351
▁ㄱㅏㄴㅈㅓㅂ -7352
▁174 -7353
ㅋㅔㅇㅣㄴ -7354
▁ㄱㅟㅎㅘㄴ -7355
▁157 -7356
▁ㅍㅡㄹㅗㄱ -7357
ㄱㅠㄴㄱㅘㄴ -7358
▁ㅇㅗㅋㅔㅅㅡㅌㅡㄹㅏ -7359
▁ㄱㅠㄱㅕㄱ -7360
▁ㅇㅏㄹㄹㅕㅆ -7361
▁ㅌㅔㅇㅣㄹㄹㅓ -7362
▁ㅍㅡㄹㅗㅅㅔㅅㅡ -7363
▁ㅈㅘㅍㅛ -7364
▁ㄱㅡㅁㅅㅓㅇ -7365
▁ㄹㅗㅂㅔㄹㅡ -7366
▁ㅅㅜㅅㅣㄴ -7367
▁ㅂㅣㅈㅏㄴㅌㅣㅇㅜㅁ -7368
▁Ar -7369
▁ㅍㅏㄷㅗㅇ -7370
▁ㅂㅐㄱㅅㅣㄴ -7371
ck -7372
ㅗㄹㄹㅣ -7373
▁ㅂㅡㄹㅔ -7374
▁ㅅㅓㄴㄷㅜ -7375
▁ㅂㅓㄴㄴㅚ -7376
▁ㅊㅜㄹㄱㅜ -7377
▁ㅈㅓㄴㅈㅏㅇ -7378
ㅈㅏㅇㅘ -7379
ㅔㅅㅡㅋㅗ -7380
▁ㅈㅓㅈ -7381
▁ㅁㅏㄷ -7382
▁ㅊㅜㅇㅅㅓㅇ -7383
▁j -7384
▁152 -7385
▁ㄱㅕㅇㅅㅓㄴ -7386
▁ㅂㅓㄹㅇㅓㅈㅕㅆ -7387
▁ㄱㅘㄴㅊㅏㄹㅅㅏ -7388
▁WW -7389
▁ㄹㅗㅂㅣㄴ -7390
▁ㅋㅡㄹㄹㅣㄴ -7391
▁MVP -7392
▁5000 -7393
▁ㅌㅡㄹㅔ -7394
▁ㅁㅛㅇ -7395
ㄷㅐㄱㅜㄴ -7396
▁ㅈㅓㅇㅊㅏㄹ -7397
▁ㄴㅗㄷㅗㅇㅈㅗㅎㅏㅂ -7398
▁ㅂㅜㅌㅇㅣ -7399
▁ㅊㅏㄱㅅㅜ -7400
▁ㅁㅏㄹㅣㅇㅗ -7401
▁ㅍㅣㅇㅔㄹㅡ -7402
ㅁㅏㅈ -7403
▁HIV -7404
▁ㅃㅏㄹㄹㅣ -7405
▁ㅍㅡㄹㄹㅏㅇ -7406
▁ㅁㅣㅅㅏ -7407
ㅣㅇㅓㄴㅅㅡ -7408
▁ㄱㅗㅈㅗ -7409
▁ㅈㅜㄴㄱㅗㅇ -7410
ㅓㅈㅕ -7411
ㄷㅡㅇㅣㄴ -7412
▁ㅊㅏㅁㅍㅏㄴ -7413
▁ㅍㅏㄴㅌㅏㅈㅣ -7414
▁ㅁㅗㅅㅎㅏㄴㄷㅏ -7415
▁ㅇㅣㅇㅣ -7416
▁ㅎㅏㅂㅓㄷㅡ -7417
ㅈㅡㅋㅏ -7418
▁ㅈㅓㄴㅈㅣ -7419
▁ㅎㅜㅈㅣㅇ -7420
▁ㅌㅗㅇㅎㅐㅇ -7421
▁ㅈㅓㄴㅁㅜㄴㅎㅏㄱㄱㅛ -7422
▁ㅁㅣㄴㅏㅁㅣ -7423
▁ㅈㅓㅁㅇㅠ -7424
▁ㅇㅏㅇㅣㄷㅣㅇㅓ -7425
ㅓㅇㅝ -7426
▁ㄱㅘㄴㅅㅡㅂ -7427
▁ㅈㅏㅁㅏ -7428
▁ㅇㅘㅈㅜㅇ -7429
▁ㅅㅓㅇㅂㅕㄱ -7430
▁ㅊㅏㅊㅔ -7431
▁ㅎㅏㅌㅡ -7432
▁ㄱㅜㄷㅗㅇ -7433
▁ㅂㅜㅈㅏ -7434
▁ㅊㅐㄱㅂㅗㅇ -7435
▁ㅎㅏㄹㄷㅏㅇ -7436
▁ㄹㅜㅅㅜ -7437
▁ㅊㅔㅅㅡ -7438
▁ㅅㅏㅁㅕㅇ -7439
▁ㅅㅓㅇㅕㄹ -7440
▁ㅇㅑㄱㅣ -7441
▁ㄱㅝㄴㅇㅠ -7442
▁ㅇㅘㄴㅎㅘ -7443
▁ㄱㅚㅇ -7444
▁ㅌㅡㄹㅐ -7445
▁ㅌㅡㅇㅟㄴ -7446
▁MP -7447
▁ㄱㅕㅌ -7448
▁ㄷㅗㄹㅇㅏ -7449
▁ㅇㅣㅁㅕㅇㅂㅏㄱ -7450
▁ㅇㅏㄷㅗ -7451
▁ㅇㅕㅁㅅㅐㄱ -7452
▁ㅅㅣㄴㅋㅏㄴㅅㅔㄴ -7453
ㅏㅂㅡ -7454
ㅇㅓㅈㅕ -7455
▁ㄱㅗㄹㅕㅇ -7456
▁ㅅㅓㄱㅌㅏㄴ -7457
▁ㅈㅏㅅㅗㄴ -7458
12 -7459
▁ㅇㅣㅅㅜㄴ -7460
▁ㅍㅣㄴㅏㄴ -7461
ㅐㄹㅗ -7462
▁ㅅㅓㅇㄱㅠㄴㄱㅘㄴ -7463
▁ㅇㅕㄹㅐ -7464
▁146 -7465
▁ㅅㅔㄱ -7466
▁ㅂㅐㅇㅋㅡ -7467
ㅔㄱㅣ -7468
▁ㅅㅣㄹㅣㅂ -7469
▁ㅌㅗㄴㅣ -7470
▁ㅍㅡㄹㅗㅌㅗㅋㅗㄹ -7471
▁ㅅㅣㄹㅇㅛㅇ -7472
▁ㅇㅣㅅㅠ -7473
▁ㅅㅗㄱㅘㄴ -7474
ㅗㄱㄷㅗㄹㅗ -7475
ime -7476
▁ㅎㅡㅇㅎㅐㅇ -7477
▁ㅌㅠ -7478
▁ㄴㅏㅇㅕㄹ -7479
▁ㅇㅛㅁㅣㅇ -7480
▁ㅇㅛㅁㅣㅇㅜㄹㅣ -7481
ㅇㅗㅅ -7482
▁ㄷㅣㅂㅣ -7483
▁ㅈㅔㅎㅠ -7484
▁ㅊㅏㄱㄱㅗㅇ -7485
▁ㅅㅣㅇㅚㅂㅓㅅㅡ -7486
ㄱㅕㄹㅅㅡㅇ -7487
ㅅㅏㄴㅁㅜㄹ -7488
▁ㅅㅗㅈㅐㅈㅣ -7489
▁ㅈㅏㅇㅇㅣㄴ -7490
ㅡㅂㅜㄹㅡㅋㅡ -7491
ㅅㅡㅂㅜㄹㅡㅋㅡ -7492
▁125 -7493
▁ㅅㅔㄹㅖ -7494
▁ㅎㅐㅈㅓㄴ -7495
ㅎㅏㄹㅡㅌㅡ -7496
▁ㅂㅏㄱㅇㅕㅇ -7497
▁ㅅㅗㄴㅣㄱ -7498
▁ㄴㅏㅁㅇㅑㅇ -7499
▁ㅈㅗㄴㄱㅕㅇ -7500
ㅣㅁㅔ -7501
▁ㅇㅓㄹㅣㄹ -7502
▁ㅇㅣㅂㅗㄱ -7503
▁ㄱㅓㅁㅈㅡㅇ -7504
▁ㅅㅗㅊㅗㅇ -7505
▁ㅈㅣㄱㅏㄱ -7506
▁ㅊㅏㅈㅇㅏㄱㅏ -7507
ㅛㅇㅣㄹ -7508
▁ISO -7509
▁105 -7510
▁ㅈㅔㅇㅢ -7511
ㅈㅓㄴㅈㅏ -7512
▁ㅅㅣㄱㄷㅏㅇ -7513
▁ㅎㅏㄴㅎㅘ -7514
▁ㄱㅜㄹㅗ -7515
▁ㄷㅗㅇㄴㅏㅁㅇㅏㅅㅣㅇㅏ -7516
ㅋㅡㅇ -7517
ㄷㅏㄷㅡ -7518
▁1911 -7519
▁ㄷㅏㄹㄹ -7520
ㅋㅣㄴㅅㅡ -7521
▁ㄷㅏㅁㅂㅐ -7522
▁ㄱㅓㅇㅣㄴ -7523
▁ㅇㅏㅇㅜㄹㄹㅓ -7524
ㅌㅡㄹㅐㄱ -7525
ㅌㅜㅁ -7526
▁ㅅㅗㄹㄹ -7527
▁ㅅㅗㄱㅡㅁ -7528
▁ㅂㅜㄹㅣ -7529
▁ㅅㅏㅈㅣ -7530
ㅍㅗㄹㄹㅣㅅㅡ -7531
▁ㄴㅣㅋㅗㄹㄹㅏ -7532
▁ㅇㅕㅇㅢ -7533
ㅈㅐㅇㅣㄴ -7534
▁ㄱㅏㅇㅅㅏ -7535
▁ㅇㅟㄹㅅㅡㄴ -7536
▁ㅊㅏㅇㅇㅓㅂ -7537
▁ㄴㅏㅁㅇㅣㄴ -7538
▁ㅌㅔㅇㅗ -7539
▁ㄱㅡㅂㅈㅣㄴ -7540
▁ㅅㅣㄴㅈㅓㄴ -7541
▁ㅇㅝㄴㄴㅏㄹㅏ -7542
ㅎㅔ -7543
one -7544
▁ㄷㅗㅇㅇㅟ -7545
ㅗㄹㄹㅗㅈㅣ -7546
▁ㅂㅕㄴㄷㅗㅇ -7547
▁ㅈㅓㄴㅈㅣㄴ -7548
▁ㅅㅔㅁ -7549
▁ㄱㅡㄹㅏ -7550
▁ㄷㅡㄹㅣ -7551
▁ㅇㅘㅇㅣㄴ -7552
▁ㅇㅜㄹㅏㄴ -7553
▁ㅈㅗㅇㅛㅇ -7554
▁ㄱㅘㄴㅎㅕㄴ -7555
▁Le -7556
▁PS -7557
▁ㅇㅗㄷㅏ -7558
▁ㅊㅟㅇㅑㄱ -7559
▁ㅎㅐㅇㅈㅣㄴ -7560
ML -7561
▁ㄴㅗㅁ -7562
▁1500 -7563
▁ㅂㅣㄹㅎ -7564
▁ㅇㅟㄱ -7565
▁ㅈㅏㅁㅕㄴ -7566
▁ㅁㅏㅊㅓㄴ -7567
▁ㅅㅏㅇㄹㅠ -7568
▁ㅅㅏㅅ -7569
ㅎㅕㄱㅁㅕㅇ -7570
▁ㅅㅜㄴㅊㅓㄴ -7571
ㅅㅜㅅㅜ -7572
ㅇㅏㄹㅣ -7573
ㅂㅔㅇㅣㄴ -7574
▁ㄱㅜㄱㅇㅓ -7575
▁3000 -7576
▁ㅇㅜㅈㅓㅇ -7577
▁ㅈㅜㅁㅓㄴㅣ -7578
▁ㅅㅓㄷㅗㄱ -7579
ㅂㅏㅌ -7580
▁Pro -7581
▁ㅇㅣㅂㅡ -7582
▁ㄷㅣㅈㅔㄹ -7583
▁ㄱㅏㅇㅅㅜㄹㅑㅇ -7584
▁ㄱㅘㄷㅗ -7585
▁ㄴㅗㄷㅡ -7586
▁ㄱㅣㅁㅇㅛㅇ -7587
▁ㅅㅏㅇㅅㅏㅇ -7588
▁ㅎㅣㄱㅏㅅㅣ -7589
▁ㄷㅡㄹㅇㅓㅇㅘ -7590
▁ㄱㅏㄱㅂㅗㄴㄱㅏ -7591
▁ㄱㅗㅂㅔ -7592
▁ㅍㅏㄴㅁ -7593
▁ㅎㅏㅇㄱㅗㅇㅁㅗ -7594
▁153 -7595
▁ㅇㅚㅁㅜ -7596
▁ㄸㅓㄴㅏㄴ -7597
ㄹㅣㅇㅜㄷㅡ -7598
ㅋㅏㄷㅡ -7599
▁ㄷㅙㅆㅇㅡㅁㅕ -7600
▁ㄲㅏㅁ -7601
▁ㄴㅣㅇㅏ -7602
▁ㅇㅕㄴㄹㅜ -7603
▁ㄱㅗㅇㅝㄴ -7604
▁ㅊㅓㅇㅅㅏ -7605
▁ㅅㅜㄹㅌㅏㄴ -7606
▁ㅁㅜㄹㄹㅓㄴㅏ -7607
ㅍㅡㅅㅡ -7608
▁ㅇㅏㅅㅣ -7609
▁ㅈㅓㅌㅐㄱ -7610
▁ㅎㅐㅇㅣㅁ -7611
▁ㅍㅐㅈㅓㄴ -7612
▁ㅇㅑㄼ -7613
ㅕㄱㅏㅆ -7614
▁ㅂㅐㄱㅜ -7615
▁ㅎㅢㄱㅡㄱ -7616
▁ㅁㅣㄴㄱㅜㄱ -7617
▁ㅊㅓㄴㅁㅜㄴㅎㅏㄱ -7618
▁ㅎㅡㅌ -7619
▁ㄱㅐㅇㅓㅂ -7620
▁ㅊㅜㄹㅇㅣㅂㄱㅜ -7621
▁ㅂㅜㄹㄹㅓㅇ -7622
ㅓㅂㅏㄷ -7623
▁ㅇㅓㄹㅁㅏㄴㅏ -7624
▁ㅎㅚㅅㅜ -7625
▁ㅇㅣㄹㄹㅔㄱ -7626
▁ㅅㅞ -7627
ㅈㅔㅍㅡ -7628
▁ㅂㅣㄱㅡㄱ -7629
▁ㅊㅓㅇㅇㅝㄴ -7630
AP -7631
▁ㅇㅠㅊㅜㄹ -7632
ㅈㅡㄹ -7633
▁ㅇㅣㄴㄱㅘ -7634
▁ㅇㅣㄹㅣ -7635
▁ㅁㅐㅊㅜㄹ -7636
▁ㅇㅗㅋㅏ -7637
▁ㅅㅓㅇㅈㅓㄴ -7638
▁ㅅㅓㅂㅡ -7639
▁ㅈㅣㅂㅜㄴ -7640
▁ㅎㅗㅍㅕㅇ -7641
▁ㅁㅗㄹㄹㅏㄱ -7642
▁ㄷㅏㄹㄹㅕ -7643
ㅏㄹㅏㅂㅣㅇㅏ -7644
ㅣㄹㅏㅇ -7645
▁ㄱㅣㅇㅏ -7646
▁ㅁㅣㅇㅑㄴㅁㅏ -7647
▁ㅇㅏㄱㅁㅏ -7648
▁ㅈㅓㅇㅊㅣㄱㅏ -7649
▁ㅈㅜㅅㅏ -7650
▁ㄱㅣㅈㅏㅇ -7651
▁ㅇㅕㄴㄱㅜㅈㅏ -7652
ㅁㅐㄴ -7653
▁ㄴㅓㄹ -7654
▁ㄷㅏㄴㅇㅝㄴ -7655
ㄷㅔㄹㅍㅣㅇㅏ -7656
▁ㅍㅣㄹㄹㅏㄷㅔㄹㅍㅣㅇㅏ -7657
▁ㅍㅗㅈㅏㅇ -7658
▁ㅇㅏㅍㅁㅕㄴ -7659
▁ㅈㅜㅍㅏㅅㅜ -7660
▁ㄹㅣㅇㅏ -7661
▁ㅁㅏㅊㅏㄹ -7662
▁ㄷㅏㄹㅇㅏㄴ -7663
▁ㅁㅐㄱㅐ -7664
▁ㅇㅕㅅㅜ -7665
ㅎㅜㄱㅜㄴ -7666
▁ㅌㅡㄹㅐㄴ -7667
▁ㅅㅙ -7668
ㅁㅜㄹㅏ -7669
▁ㄸㅏㅇㅟ -7670
▁ㄱㅘㅁㅗㄱ -7671
▁ㅇㅡㅇㄷㅏㅂ -7672
▁ㅈㅜㅇㅈㅓㅁ -7673
▁ㅍㅕㄴㄱㅗㄱ -7674
▁ㄹㅛㅇ -7675
▁ㅅㅏㅁㅏ -7676
▁ㅅㅣㄷㅡ -7677
▁ㅇㅗㅋㅣㄴ -7678
▁ㅈㅡㅇㅎㅜㄱㅜㄴ -7679
▁ㄷㅏㄺ -7680
▁ㅎㅓㅂㅡ -7681
▁ㄱㅣㅇㅏㅂ -7682
▁ㅊㅚㅈㅓㄱ -7683
▁ㄱㅕㅁㅇㅣㅁ -7684
▁ㅁㅜㅎㅛ -7685
▁ㄹㅔㅂㅏㄴ -7686
▁ㅂㅏㄹㄹㅔ -7687
ㅅㅣㄱㅁㅜㄹ -7688
ㅏㄱㅎㅕㅇ -7689
▁ㅂㅗㅇㅣㅇ -7690
OC -7691
▁ㄷㅗㄱㄹㅣㅂㅇㅜㄴㄷㅗㅇㄱㅏ -7692
te -7693
▁ㅇㅕㅈㅣㄴ -7694
▁ㅌㅚㄱㅏㄱ -7695
ㅁㅜㄴㄱㅘㄴ -7696
▁ㅁㅣㄷㅇㅡㅁ -7697
▁ㅍㅏㄴㅁㅐㄹㅑㅇ -7698
▁ㅇㅣㅇㅝㄴ -7699
▁155 -7700
▁ㄷㅗㄹㅣ -7701
▁ㅊㅜㅇㅈㅗㄱ -7702
▁ㅎㅘㄴㅇㅝㄴ -7703
▁103 -7704
▁ㄱㅜㄺ -7705
▁ㅈㅣㅁㅗㄱ -7706
▁ㅊㅓㅇㅇㅘ -7707
▁ㅇㅕㄴㅇㅣㄴ -7708
▁ㅇㅜㅈㅜㅅㅓㄴ -7709
▁ㅈㅏㅊㅐㄱㅈㅓㅁ -7710
▁ㅌㅡㄹㅏㅇ -7711
▁ㅈㅜㅇㅈㅏㅇ -7712
▁ㅇㅖㅂㅐ -7713
▁ㄱㅐㅊㅏㄹㄱㅜ -7714
ㄴㅏㄱ -7715
▁ㅈㅔㅎㅜ -7716
▁ㅈㅜㅇㅈㅗㅇ -7717
ㅣㄱㅓㄴ -7718
▁MC -7719
▁ㅇㅏㅇㅜㄱ -7720
ㄷㅗㅇㅁㅜㄹ -7721
▁ㅊㅓㅇㅇㅘㄷㅐ -7722
▁ㅁㅜㄴㅈㅔㅈㅓㅁ -7723
▁ㅂㅜㄱㄷㅗㅇㅂㅜ -7724
▁ㅊㅓㄴㅅㅏ -7725
ㅡㄴㅣㅇㅏ -7726
ㅇㅏㄱㄷㅏㄴ -7727
▁ㄱㅘㄴㄴㅕㅁ -7728
▁ㅎㅐㄹ -7729
▁ㅇㅜㄹㅡ -7730
▁ㅇㅠㅎㅐ -7731
▁ㅇㅜㅍㅕㄴ -7732
▁ㅇㅠㅇㅓㄴ -7733
▁ㄱㅗㅅㄱㅗㅅ -7734
▁ㅎㅕㅂㄷㅗㅇ -7735
▁Con -7736
▁ㅍㅕㅇㅎㅐㅇ -7737
▁ㅈㅗㅇㅓㄴ -7738
▁ㅂㅟ -7739
▁ㅇㅣㅈㅐ -7740
▁ㅅㅓㄴㅇㅝㄴ -7741
▁ㅇㅣㄴㅎㅕㅇ -7742
▁ㅍㅗㄹㄹㅣㅅㅡ -7743
▁ㄱㅗㅇㅇㅣㄴ -7744
▁ㅂㅣㅌㅡㄹㅈㅡ -7745
▁ㄷㅣㅇㅏ -7746
▁ㅌㅗㅋㅡ -7747
ㄷㅡㄹㄹㅣ -7748
▁ㅇㅣㅇㅣㄴ -7749
▁ㅎㅐㅇㅕㄱ -7750
▁ㅎㅘㄴㅅㅏㅇ -7751
▁Bo -7752
▁ㄲㅏㄹ -7753
▁ㅆㅗㄷ -7754
▁ㅇㅑㅇㅅㅏㅇ -7755
▁ㅈㅔㅌㅡ -7756
▁ㅂㅗㅊㅜㅇ -7757
ㄴㅓ -7758
▁ㅋㅏㄹㅡㄹㄹ -7759
▁ㅇㅗㄹㅔㄴㅈㅣ -7760
▁108 -7761
▁ㄷㅓㄴㅈㅣ -7762
▁ㅇㅗㄷㅣㅇㅗ -7763
▁ㅎㅏㅇㄱㅗㅇㅁㅗㅎㅏㅁ -7764
ㅍㅗㅅㅡ -7765
▁ㅂㅓㅌㅡㄴ -7766
▁ㅎㅏㅇㅑㄴ -7767
▁ㅂㅕㄹㅈㅏㄹㅣ -7768
▁ㄱㅡㄴㅈㅓㅂ -7769
▁ㅂㅣㄹㅎㅔㄹㄹㅡㅁ -7770
ㅗㄹㅏ -7771
ㅅㅏㄴㅁㅕㄴ -7772
▁ㅌㅗㅇㅛㅇㅣㄹ -7773
▁ㅅㅏㅇㅁㅜ -7774
▁ㅁㅣㄴㅇㅕㅇ -7775
▁ㅅㅐㅇㅇㅣㄹ -7776
▁ㅇㅕㅇㄷㅗㅇ -7777
▁ㅇㅣㅂㅅㅏㅇ -7778
▁ㅊㅣㄴㅊㅓㄱ -7779
▁ㅅㅓㅇㅁㅗ -7780
▁ㄱㅏㅈㅕ -7781
▁ㅎㅚㄱㅖ -7782
▁ㅌㅡㄱㅇㅠ -7783
▁ㄱㅡㄹㅔㅇㅣ -7784
▁ㅇㅏㄹㅡㅁㅔㄴㅣㅇㅏ -7785
▁ㅇㅣㅂㅏㄴ -7786
▁ㅈㅜㄱㅝㄴ -7787
▁ㅈㅣㅈㅣㅈㅏ -7788
▁ㅇㅣㅅㅜ -7789
▁ㅇㅔㅂ -7790
▁ㄴㅏㄱㅗㅇㅑ -7791
▁ㄴㅜㄴㅁㅜㄹ -7792
▁ㅂㅓㅂㄹㅕㅇ -7793
▁IT -7794
▁ㄱㅔㅈㅐ -7795
▁ㅋㅜㄹㅡ -7796
▁ㅂㅕㄹㄱㅐ -7797
▁ㄴㅐㄴㅐ -7798
▁ㅅㅣㄱㅗㅇ -7799
▁ㅊㅟㅈㅐ -7800
▁ㅎㅑㅇㄱㅛ -7801
▁ㄸㅓㄹㅇㅓㅈㅕㅆ -7802
▁ㅎㅟㅂ -7803
▁ㄷㅣㅇㅗ -7804
▁ㅎㅜㅈㅏ -7805
▁ㅎㅣㄷㅔ -7806
▁ㅇㅓㅄㅇㅐ -7807
▁ㄷㅡㄹㅏㅇㅣㅂㅡ -7808
▁ㄹㅜㄴ -7809
▁ㅈㅣㄴㄹㅣ -7810
io -7811
ber -7812
▁ㄴㅜㅇ -7813
▁ㅍㅗㅅㅜ -7814
▁ㄱㅗㅇㅈㅏ -7815
▁ㅇㅕㅅㅓ -7816
▁ㅅㅔㄱㅠㄴ -7817
▁ㅇㅟㄴㄷㅗ -7818
▁ㅎㅏㄴㄷㅔ -7819
▁ㅇㅏㄴㅈㅏㅇ -7820
▁ㄹㅗㄹㅔㄴ -7821
▁ㄱㅔㄹㅡㅁㅏㄴ -7822
ㅓㄴㄷㅡ -7823
▁ㅎㅚㄱㅕㄴ -7824
▁ㅎㅜㅇㅏㄴ -7825
ㅊㅡㅋㅣ -7826
▁ㅈㅡㄹㄱㅣ -7827
▁ㅉㅏㄹㅣ -7828
ㅅㅏㄹㅕㅇ -7829
▁ㅈㅗㅂㅏㄴ -7830
▁ㅈㅠ -7831
▁ㅅㅜㅅㅓㅇ -7832
▁ㅎㅐㅇㅜㄴ -7833
▁ㅅㅓㅅㅓ -7834
▁ㄱㅏㄱㄱㅣ -7835
▁ㅅㅏㄴㅌㅏ -7836
▁ㄷㅜㄹㄹㅓㅆㅏ -7837
▁ㅅㅏㄹㅗㅈㅏㅂ -7838
▁ㅊㅏㅁㄱㅏㅈㅏ -7839
▁ㅍㅓㅅㅣㅍㅣㄱ -7840
▁ㅇㅏㄴㅂㅗ -7841
▁ㅅㅑㄹㅡㄹ -7842
▁ㅇㅣㅇㅕㅇ -7843
▁ㅎㅚㅎㅘ -7844
▁ㄴㅏㅁㅇㅝㄴ -7845
▁ㅋㅡㄹㅣㅅㅡㅁㅏㅅㅡ -7846
▁ㅇㅠㄱㅕㄱ -7847
▁ㄱㅗㅇㄹㅑㄱ -7848
▁ㅋㅓㄴㅌㅡㄹ -7849
▁ㅁㅏㅊㅣㄴ -7850
▁ㅅㅏㅇㅈㅏ -7851
▁ㅅㅡㅇㅊㅏ -7852
▁ㅇㅟㅈㅏㅇ -7853
▁ㅅㅡㅇㅁㅜㅇㅝㄴ -7854
▁128 -7855
▁ㄹㅔㅈㅓㄴ -7856
▁ㅇㅏㅁㅣㄴ -7857
▁ㅇㅒ -7858
▁ㅁㅣㄴㅅㅏ -7859
ㅂㅏㄷㅊㅣㅁ -7860
ㅜㅇㅔㄹㄹㅏ -7861
▁ㅇㅜㅋㅡㄹㅏㅇㅣㄴㅏ -7862
▁ㅁㅗㅇㅡ -7863
ㅊㅜㅁ -7864
ㅍㅡㄹㅏ -7865
▁# -7866
ㅅㅠㄹ -7867
▁1909 -7868
ㄷㅡㄹㅣㄱ -7869
▁ㅅㅏㅇㅈㅏㅇ -7870
▁149 -7871
▁ㄱㅔㅅㅣ -7872
▁ㅍㅗㄱㅅㅡ -7873
▁ㄱㅣㅅㅡ -7874
▁ㄱㅓㄴㅇㅢ -7875
▁ㄴㅔㄴ -7876
▁ㅇㅠㄱㅛ -7877
ㅅㅣㄴㅗ -7878
▁ㅁㅐㅅㅏ -7879
▁ㄱㅛㄷㅏㄴ -7880
age -7881
▁ㅅㅏㅇㅂㅜ -7882
▁ㄴㅣㅋㅗㄹㄹ -7883
▁ㅂㅏㄱㅌㅏㄹ -7884
▁ㅇㅣㄹㅈㅗㄱ -7885
ㅡㄹㅅㅡ -7886
▁ㅇㅓㄷㅜㅇㅜㄴ -7887
ㅊㅔㄴ -7888
ㄸㅐㄹㅗ -7889
ㅗㅇㅣㄴ -7890
▁ㅎㅘㅅㅏㄹ -7891
▁ㅇㅑㄱㅏㄴ -7892
▁ㅇㅣㄹㅉㅣㄱㅇㅣ -7893
▁ㄹㅔㅈㅣ -7894
▁ㄱㅛㅈㅏㅇ -7895
▁ㅂㅏㄹㅇㅝㄴ -7896
▁ㅇㅣㄹㄱㅘㄴ -7897
▁ㅅㅡㅌㅔㅍㅏㄴ -7898
▁ㅁㅗㅅㅎㅐ -7899
ㅊㅔㄹ -7900
▁ㅂㅘㅆ -7901
▁ㅍㅏㅌㅡ -7902
▁ㅇㅑㄱㅎㅏㄴ -7903
▁ㅍㅐㄹㅓ -7904
ㄹㅏㅁㅎㅚ -7905
ㅂㅐㄱㄱㅘ -7906
▁ㅂㅗㄱㅈㅏㅇ -7907
▁ㅎㅏㅇㅣㄴㄹㅣㅎㅣ -7908
▁ㄱㅜㅈㅔ -7909
▁ㅇㅚㄱㅜㄱㅇㅓ -7910
▁102 -7911
▁ㅇㅚㄱㅘㄱ -7912
▁ㅇㅏㅇㄹㅣ -7913
▁ㄷㅗㅇㄷㅡㅇ -7914
▁ㅌㅖㄴ -7915
▁ㅁㅏㄹㅡㅅ -7916
▁ㅂㅔㄹㅡㅋㅡ -7917
▁$ -7918
▁ㅅㅏㅇㅛㅇㅈㅏ -7919
ㄷㅏㄷ -7920
ㅃㅏㄹ -7921
▁ㅎㅗㅊㅣㅇ -7922
▁ㅇㅝㄴㅈㅏㄹㅗ -7923
▁ㄴㅏㅁㄱㅣㄴ -7924
▁ㄱㅗㄹㅡ -7925
▁ㅎㅔㄷㅡ -7926
▁ㅅㅏㅇㄱㅗㅇ -7927
▁ㅇㅣㄴㄱㅕㄱ -7928
▁ㅅㅗㅈㅣ -7929
▁ㅅㅣㅊㅓㅇㅈㅏ -7930
▁ㅇㅏㄱㅜㄴ -7931
▁ㅅㅣㄹㅈㅗㅇ -7932
▁ㄱㅓㅅㅡㄹㄹㅓ -7933
iz -7934
▁ㅎㅜㅁ -7935
▁ㄷㅜㅅㅏㄴ -7936
▁ㄸㅐㄸㅐㄹㅗ -7937
▁ㅎㅏㅂㅂㅓㅂ -7938
▁ㅈㅏㅂㅏㄹ -7939
▁ㅌㅡㄹㅔㅇㅣㄴ -7940
▁ㄱㅓㄴㅊㅜㄱㄱㅏ -7941
▁ㅈㅓㄴㄹㅖ -7942
▁ㅅㅖㄹ -7943
▁ㅇㅕㄴㄷㅗ -7944
▁ㅇㅣㅅㅏㅈㅏㅇ -7945
▁ㅈㅜㄴㄱㅕㄹㅅㅡㅇ -7946
▁ㅁㅔㄷㅣ -7947
ㅈㅣㅂㅎㅏㅂ -7948
▁ㅇㅏㄹㅣㅅㅡ -7949
▁ㄲㅚ -7950
▁ㄷㅗㅇㄱㅜㄱ -7951
▁ㅇㅣㅅㅡㄹㄹㅏㅁㄱㅛ -7952
ㄱㅏㅅㅡ -7953
▁ㅅㅏㄹㅣ -7954
▁ㅇㅡㄹㅕ -7955
▁ㅊㅣㅅㅔ -7956
▁ㄷㅐㅈㅜㄱㅛ -7957
▁ㅅㅐㅇㅁㅕㅇㅊㅔ -7958
▁ㅇㅜㅈㅣ -7959
▁ㄱㅡㅁㅇㅐㄱ -7960
▁ㅌㅡㄹㅓㅁㅍㅡ -7961
▁Bl -7962
▁ㄱㅣㄱㅡㅁ -7963
▁ㄱㅖㅈㅓㄹ -7964
▁ㅂㅓㄹㅣㄴ -7965
▁ㅇㅣㅌㅡㄹ -7966
▁ㅈㅣㄴㄷㅗ -7967
▁ㅇㅔㅇㅣㅅㅡ -7968
▁ㄱㅏㄹㅡㅊㅣㅁ -7969
▁ㅈㅓㄱㅈㅏ -7970
▁ㅈㅓㅁㅍㅡ -7971
▁ㅊㅏㄴㅏㅁ -7972
sp -7973
ㅅㅏㅇㅅㅡ -7974
▁ㄷㅏㅈㅜㅇ -7975
▁ㅈㅣㅂㄱㅖ -7976
▁ㄴㅔㅇㅣㅂㅓ -7977
ge -7978
▁ㅅㅓㅇㅈㅜ -7979
ㄷㅚㄴ -7980
▁ㅁㅐㄹㅕㄱ -7981
▁ㄱㅔㅇㅣㅌㅡ -7982
▁ㄹㅔㅇㅣㅈㅓ -7983
ㄱㅛㅇㅠㄱ -7984
▁ㅈㅔㅈㅏㄱㅈㅏ -7985
▁ㅅㅏㅇㄷㅐㅂㅏㅇ -7986
ㅎㅘㅈㅓㅁ -7987
▁ㅂㅜㄹㅡㄴ -7988
▁ㅂㅏㄴㄱㅕㄱ -7989
▁ㅇㅜㄴㄷㅗㅇㅈㅏㅇ -7990
ㅅㅗㅅㅡ -7991
▁ㅇㅙㅅㅓㅇ -7992
▁ㅂㅏㄹㅎㅕㄴ -7993
▁ㅇㅕㄱㅁㅕㅇ -7994
▁ㅈㅏㅇㅠㄷㅏㅇ -7995
▁ㅇㅣㅅㅣㄱ -7996
▁ㅈㅏㄱㅗ -7997
ㄱㅣㄱㅏㄴ -7998
▁ㅍㅗㄷㅗㅈㅜ -7999
▁ㅋㅐㅁㅍㅔㅇㅣㄴ -8000
▁ㅎㅗㅇㅟ -8001
▁ㅊㅜㅇㅈㅜ -8002
▁ㅌㅐㅅㅐㅇ -8003
▁ㄱㅕㄱㄹㅕㄹ -8004
▁ㅌㅔㄱㅅㅡㅌㅡ -8005
▁ㅇㅔㄷㅣ -8006
ㄷㅜㅎㅘㄴ -8007
▁ㄴㅗㄹㅏㄴㅅㅐㄱ -8008
▁ㅎㅣㄷㅔㅇㅛㅅㅣ -8009
▁ㄱㅡㄹㅏㅇㅍㅡㄹㅣ -8010
▁ㅅㅏㅆ -8011
▁ㅇㅔㄹㄹㅣㅂ -8012
▁ㄷㅐㄱㅜㄴ -8013
▁ㅇㅔㄹㄹㅣㅂㅔㅇㅣㅌㅓ -8014
ㄱㅜㅈㅏㅇ -8015
▁ㅂㅜㅊㅏㄱ -8016
▁ㄷㅜㅇㄱㅡㄴ -8017
▁ㅁㅜㄹㄹㅓㄴㅏㅆ -8018
AD -8019
▁ㅋㅓㅆ -8020
▁ㅈㅜㅇㄷㅗ -8021
ㅅㅏㄴㄱㅜㄴ -8022
ㅏㅋㅏ -8023
▁ㅈㅔㄱㅗㅂ -8024
▁ㅈㅓㄴㅎㅏㅁ -8025
▁ㅂㅡㄹㄹㅜㅅㅡ -8026
▁CPU -8027
▁ㅈㅓㄴㄷㅐ -8028
ㅎㅡㅁ -8029
▁ㅂㅣㄹㄹ -8030
▁ㅁㅕㅇㅇㅢ -8031
▁ㅊㅗㅊㅏㅇ -8032
▁ㅈㅓㅇㅁㅣㄹ -8033
▁ㅅㅏㅇㅜㄷㅣㅇ -8034
▁ㅁㅜㄴㅈㅐㅇㅣㄴ -8035
▁ㅈㅜㅇㄱㅜㄱㅇㅣㄴ -8036
▁ㅅㅏㅇㅜㄷㅣㅇㅏㄹㅏㅂㅣㅇㅏ -8037
▁ㅈㅗㄹㅡ -8038
▁ㅌㅗㄹㅣ -8039
ㅎㅏㅇㄱㅗㅇ -8040
▁ㅌㅡㄴ -8041
ㅅㅡㅋㅔ -8042
▁ㄷㅐㅇㅕㄱ -8043
▁ㅇㅠㅅㅗㄴㅕㄴ -8044
ㅅㅜㅇㅏ -8045
▁ㅌㅏㄹㅡ -8046
▁ㅈㅣㄱㅊㅐㄱ -8047
▁ㄹㅗㅁㅐㄴㅅㅡ -8048
▁ㅊㅜㅈㅡㅇ -8049
▁ㅍㅗㄱㅘㄹ -8050
▁ㄱㅗㅊㅔ -8051
▁ㅇㅏㄹㅂㅏㄴㅣㅇㅏ -8052
ㅣㅇㅜ -8053
▁1915 -8054
▁ㄴㅐㅈㅣ -8055
▁ㄷㅗㅇㄷㅏㅇ -8056
▁ㅇㅟㅋㅣㅂㅐㄱㄱㅘ -8057
▁ㅈㅜㅁ -8058
▁ㅁㅏㄹㄹㅣ -8059
▁ㅂㅜㄴㄱㅘㅇ -8060
ㅍㅡㄹㅗㅅㅡ -8061
▁147 -8062
▁ㄷㅐㄷㅏㅂ -8063
▁ㅁㅣㄹㄹㅣ -8064
▁ㄱㅘㅇㄴㅕㄴ -8065
▁ㄱㅜㅇㅈㅓㅇ -8066
▁ㅁㅜㄴㅇㅑㅇ -8067
▁ㅂㅔㄴㅔㅅㅜㅇㅔㄹㄹㅏ -8068
▁ㄱㅏㅁㅣ -8069
▁ㅈㅜㅈㅣㅅㅏ -8070
▁ㅌㅔㄴㅣㅅㅡ -8071
▁ㄷㅐㅇㅚ -8072
▁ㅅㅣㅁㅗ -8073
ㄴㅏㄴㄷㅏ -8074
▁ㅁㅔㄱㅏ -8075
▁ㅂㅜㅊㅓㄴ -8076
▁ㄹㅔㅈㅓㄴㄷㅡ -8077
▁ㅁㅏㄹㅡㅌㅣㄴ -8078
▁ㄱㅣㅅㅜ -8079
▁ㅋㅏㅁㅂㅗ -8080
ㅈㅏㅊㅣㄷㅗ -8081
▁ㅊㅓㅇㅈㅏㅇ -8082
ㅁㅕㅇㅅㅏㅈㅓㄴ -8083
▁ㅇㅔㅅㅡㅍㅏㄴㅑ -8084
▁ㅈㅔㅈㅜㅌㅡㄱㅂㅕㄹ -8085
▁ㅎㅘㅇㅎㅐ -8086
orld -8087
▁ㅁㅣㅎㅏㅇ -8088
▁ㅂㅣㅇㅏ -8089
▁ㅌㅏㅋㅏ -8090
▁ㅅㅜㅍㅕㅇ -8091
▁127 -8092
▁ㅇㅗㅋ -8093
▁ㅌㅓㄱ -8094
ㅅㅣㄹㅗ -8095
▁ㄱㅗㅂㅏㄹ -8096
▁ㄹㅡㄴㅔㅅㅏㅇㅅㅡ -8097
▁ㄱㅏㅇㄱㅘ -8098
▁ㅅㅗㅇㄴㅏㄹㅏ -8099
▁171 -8100
ㅊㅏㄹㅖ -8101
ㅍㅏㄱ -8102
▁ㄷㅏㄹㄹㅣㄴ -8103
▁ㅎㅑㅇㅎㅜ -8104
▁ㄴㅏㅁㅎㅏㄴ -8105
▁ㅋㅏㅈㅏㅎㅡ -8106
▁1913 -8107
▁ㅅㅏㅇㅅㅔ -8108
▁ㅅㅓㅂㅊㅟ -8109
▁ㅊㅜㅁㅗ -8110
▁ㅅㅔㄴㅅㅓ -8111
ㅊㅏㅇㄱㅜㄴ -8112
▁ㅅㅓㅅㅓㅎㅣ -8113
ㅊㅣㄹㄹㅣㅇㅏ -8114
▁ㅊㅏㅇㄱㅓㄴ -8115
ㅅㅣㅌㅣ -8116
ㄱㅕㅇㄱㅣ -8117
▁ㅊㅜㄱㅕㄱ -8118
▁ㄴㅏㄴㅁㅣㄴ -8119
▁ㅁㅜㄴㅎㅏㄱㅅㅏㅇ -8120
ik -8121
▁al -8122
▁ㅎㅑㅇㅎㅏㄴ -8123
▁ㄷㅗㅅㅡ -8124
▁ㅁㅓㅅㅣㄴ -8125
▁ㄱㅣㄴㅈㅏㅇ -8126
ㅅㅓㄹㅣ -8127
ㅍㅗㅌㅡ -8128
▁ㅅㅗㄴㄱㅏㄹㅏㄱ -8129
▁ㅇㅠㅋㅣ -8130
▁ㄴㅏㄹㅣ -8131
▁ㅁㅔㅌㅏ -8132
▁ㄷㅏㄴㅈㅓㅁ -8133
ㅏㅂㅔ -8134
▁ㅌㅗㅁㅏ -8135
▁ㄱㅓㄴㄴㅓㄱㅏ -8136
▁ㅁㅏㅇㅗ -8137
ㅊㅜㅇㅝㄴ -8138
▁ㅅㅜㄱㅜㄴ -8139
▁ㅍㅓㅈㅕ -8140
▁ㅈㅡㄹㄱ -8141
▁ㅍㅡㄹㅐㅇㅋㅡ -8142
ㄸㅏㄹ -8143
▁ㄱㅘㅇㅂㅜ -8144
▁ㄷㅏㅎ -8145
ㅍㅗㄱㅜ -8146
▁1895 -8147
▁ㄱㅣㅁㅇㅕㅇㅅㅏㅁ -8148
▁ㅅㅣㄴㅈㅜㅇ -8149
ㅁㅏㄹㅡ -8150
▁ㅅㅏㅋㅏ -8151
▁ㅌㅐㅅㅜ -8152
▁ㅍㅐㅇㅊㅏㅇ -8153
▁ㅂㅜㄱㄱㅜ -8154
▁ㅌㅗㅇㅊㅣㅇ -8155
▁ㅊㅏㅇㅅㅣ -8156
ㅍㅕㅇㄱㅜㄴ -8157
▁ㅅㅣㄴㅎㅡㅇ -8158
▁ㄷㅣㅅㅡㅍㅡㄹㄹㅔㅇㅣ -8159
▁ㅊㅓㄴㅁㅜㄴㅎㅏㄱㅈㅏ -8160
▁SP -8161
▁ㄱㅣㄷㅏㄹㅣ -8162
ㅏㅇㅣㅇㅓ -8163
▁ㄱㅏㅇㄱㅕㅇ -8164
▁ㅅㅗㄱㅅㅓㅇ -8165
▁ㅇㅝㄴㅂㅏㄴ -8166
▁ㅅㅜㄹㅕㅁ -8167
▁ㅊㅜㄹㅌㅗ -8168
▁ㅎㅜㅇㅣㄹ -8169
▁ㅈㅜㄱㅇㅕㅆ -8170
▁ㄴㅏㄱㅏㅅㅏㅋㅣ -8171
▁ㅂㅜㄱㅘ -8172
▁ㅇㅗㄴㅊㅓㄴ -8173
ㄹㅗㅂ -8174
▁ㅈㅗㄴㅈㅜㅇ -8175
▁GT -8176
▁ㅂㅓㅂㅈㅔ -8177
▁ㅈㅣㄴㅏㅊㅣ -8178
▁ㅍㅏㄹㄹㅔㅅㅡㅌㅏㅇㅣㄴ -8179
MS -8180
▁ㅊㅗㅇㅕㄴ -8181
▁ㅍㅜㅅㅂㅗㄹ -8182
▁ㅊㅗㅊㅏㅇㄱㅣ -8183
▁ㅂㅔㅅㅡ -8184
▁ㅁㅜㄹㅈㅏ -8185
▁ㅁㅕㅇㅁㅗㄱ -8186
▁ㅇㅗㅋㅣㄴㅏㅇㅘ -8187
▁ㄸㅏㄸㅡㅅ -8188
ㅅㅐㅇㅎㅘㄹ -8189
▁ㄷㅗㅇㄷㅗㄱ -8190
▁ㅂㅜㄱㅂㅏㅇ -8191
▁ㅈㅓㄴㄷㅜㅎㅘㄴ -8192
ㅣㅇㅓㅅㅡ -8193
▁ㅇㅣㅂㅊㅔ -8194
▁ㄷㅏㅇㅜㄴㄹㅗㄷㅡ -8195
EN -8196
▁Tr -8197
ㅅㅏㄴㄹㅣ -8198
▁ㄷㅜㄹㄹㅔ -8199
▁141 -8200
ㅌㅣㅇㅏ -8201
▁ㄷㅗㅇㄴㅕㄴ -8202
▁ㄷㅏㅁㅏ -8203
▁ㅈㅓㄴㅎㅏㄴㄷㅏ -8204
ㅅㅜㄹㅣ -8205
ㅇㅏㅂㅗㄹ -8206
▁ㅊㅜㅅㅏㅇ -8207
▁ㅇㅓㄴㄹㅗㄴㅇㅣㄴ -8208
▁169 -8209
▁ㅁㅜㅈㅔ -8210
▁ㅅㅣㅁㅇㅢ -8211
▁ㅂㅜㄱㅅㅓㅂㅜ -8212
▁ㅂㅐㅌㅡㄹ -8213
▁ㅍㅐㅎㅏ -8214
▁ㅂㅣㅁㅜㄴ -8215
▁ㅂㅗㄷㅡ -8216
▁ㅅㅏㅈㅓㄹ -8217
▁ㅊㅚㅅㅗㅎㅏㄴ -8218
▁ㅁㅜㄴㅎㅘㅂㅏㅇㅅㅗㅇ -8219
ㅓㄱㅏㅆ -8220
ㅗㄴㄷㅏ -8221
▁ㅎㅗㅅㅔ -8222
▁ㅈㅓㄱㅣㅇㅏㅂ -8223
int -8224
ㅌㅔㅇㅣㄴ -8225
ㅎㅐㅇㅇㅟ -8226
▁ㅅㅜㅇㅂㅐ -8227
▁ㅇㅝㄴㅎㅏ -8228
ㅓㅈㅣㄴㄷㅏ -8229
▁ㄱㅏㅂㅈㅏㄱ -8230
ust -8231
▁ㅅㅡㅌㅣ -8232
ㅏㄹㅣㅇㅗ -8233
▁ㄱㅐㄱㅘㄴ -8234
▁ㅋㅐㅅㅡㅌㅣㅇ -8235
▁135 -8236
▁ㄱㅗㄹㅍㅡ -8237
▁ㅇㅣㅈㅣㄴ -8238
▁ㅈㅜㅊㅜㄱ -8239
▁ㄱㅣㅁㅈㅣㄴ -8240
▁ㅇㅟㄹㄹㅣㅇㅓㅁㅅㅡ -8241
▁ㅇㅗㄹㅗ -8242
ㅈㅗㅅ -8243
▁ㅅㅜㅅㅜ -8244
▁ㅈㅏㅁㅏㅈㅏ -8245
▁ㄷㅗㅎㅗㅋㅜ -8246
▁ㄹㅣㅁㅔㅇㅣㅋㅡ -8247
▁ㄲㅙ -8248
▁ㅇㅓㄷㅡㅂ -8249
▁ㅂㅕㅇㅇㅕㄱ -8250
ep -8251
▁144 -8252
ㅈㅏㅅㅡ -8253
▁ㄱㅟㅈㅜㅇ -8254
▁ㄱㅡㄹㅔㄱㅗㄹ -8255
ㅓㅇㅜ -8256
ㅂㅗㄱㅣ -8257
▁ㅇㅣㅇㅓㅂㅏㄷ -8258
▁ㅎㅗㅇㅅㅜ -8259
▁ㄱㅏㄹㅡㅊㅕㅆ -8260
▁111 -8261
▁ㅈㅣㄴㅐㅆㅇㅡㅁㅕ -8262
▁ㅂㅡㄹㅏㅇㅜ -8263
▁ㅊㅣㅁㅁㅗㄹ -8264
▁ㅇㅣㅁㅣㄴㅈㅏ -8265
▁ㄱㅗㅁㅜ -8266
▁ㅈㅜㅊㅏ -8267
▁ㅅㅜㄹㅕㅇ -8268
▁ㅇㅑㅇㅈㅜ -8269
▁ㅇㅓㅇㅓㅂ -8270
▁ㅋㅓㄹㄹㅓ -8271
▁ㄲㅡㄶㅇㅣㅁ -8272
▁ㄱㅐㅁㅣ -8273
▁ㅁㅜㅈㅚ -8274
▁ㄱㅜㄱㅅㅏ -8275
▁ㅈㅏㄱㅣㅈㅏㅇ -8276
ㄹㅕㅁ -8277
▁ㄷㅙㅈㅣ -8278
ㅅㅓㄱㄱㅣ -8279
▁ㅋㅓㅁㅍㅓㄴㅣ -8280
▁ㅅㅏㅇㄷㅏㅇㅅㅜ -8281
▁ㅊㅗㅇㅅㅓㄴㄱㅓ -8282
ㄱㅗㅁ -8283
▁ㅁㅜㄹㅕ -8284
▁ㅂㅏㅅㅣㄹ -8285
▁ㅇㅗㄱㅅㅡ -8286
▁ㄱㅚㅇㅈㅏㅇ -8287
▁ㄱㅖㅁㅗㅇ -8288
▁ㅅㅗㅅㅣㄹ -8289
GC -8290
▁CO -8291
▁119 -8292
▁ㅇㅏㅈㅗㅇ -8293
▁ㅅㅓㅂㅈㅓㅇ -8294
▁ㅊㅗㅇㄱㅘㄹ -8295
▁ㅁㅣㅊㅕㅆ -8296
▁ㅊㅣㄴㅇㅣㄹㅇㅣㄴ -8297
▁ㄱㅗㅇㅊㅐ -8298
▁ㅇㅕㅇㄹㅣ -8299
▁ㅍㅕㅇㅇㅑ -8300
ㅈㅣㅅㅡ -8301
▁ㅅㅏㄹㅍㅕ -8302
▁TH -8303
▁ㄴㅏㅈㅜ -8304
▁ㅇㅏㄷㅏㅁ -8305
▁ㅈㅓㅇㅈㅓㄴ -8306
▁ㅊㅗㄱㄱㅜ -8307
▁ㅅㅜㅇㅛㅇㅅㅗ -8308
▁ㅊㅗㅅㅏㅇㅎㅘ -8309
▁ㄴㅐㅁ -8310
▁ㄱㅛㅇㅚ -8311
▁ㄱㅡㄹㄹ -8312
▁ㅍㅐㅅㅡ -8313
▁ㅍㅕㅇㅇㅝㄴ -8314
▁ㄱㅏㅈㅕㅇㅘㅆ -8315
▁ㅎㅕㅂㅈㅗ -8316
▁ㄱㅣㅁㅅㅏㅇ -8317
▁ㅍㅕㅇㅇㅣㄹ -8318
▁ㅁㅛㅇㅕㄱ -8319
▁ㅋㅝ -8320
ㅍㅗㅇ -8321
▁ㅅㅡㅌㅗㅇ -8322
▁ㅈㅏㄹㅏㅆ -8323
▁ㄷㅓㄱㅡㄹㄹ -8324
▁ㅇㅠㄴㅔㅅㅡㅋㅗ -8325
ude -8326
▁ㅅㅓㅅㅏ -8327
▁ㅇㅣㄴㅈㅐ -8328
ㅍㅡㅁ -8329
▁ㅇㅓㄴㅈㅔㄴㅏ -8330
▁ㅌㅏㅁㅏ -8331
▁ㅆㅡㅇㅣㄴ -8332
▁ㅂㅕㄹㅊㅣㅇ -8333
▁ㅍㅖㅇㅟ -8334
▁ㅁㅗㄴㅌㅡㄹ -8335
ㅍㅐㄱㅌㅡ -8336
▁ㅇㅠㅇㅕㄴ -8337
▁ㅅㅣㄱㅂㅕㄹ -8338
▁ㅈㅣㄴㄱㅜㄴ -8339
▁ㅈㅓㅁㅕㅇ -8340
▁ㅎㅐㅂㅕㅇㄷㅐ -8341
▁ㅅㅡㅍㅏㄹㅡㅌㅏ -8342
▁172 -8343
▁ㄷㅣㄱ -8344
ㅣㅇㅏㄱ -8345
▁ㅅㅡㅌㅔㄹ -8346
▁ㅋㅏㅁㅂㅗㄷㅣㅇㅏ -8347
ㅣㅇㅐ -8348
▁ㄹㅗㅍㅡ -8349
▁ㅇㅚㅇㅑ -8350
▁ㅎㅏㅂㅜ -8351
▁ㅈㅓㄱㄷㅐ -8352
▁ㅁㅗㄴㅌㅡㄹㅣㅇㅗㄹ -8353
▁ㄷㅐㅍㅗ -8354
▁ㅎㅜㄷㅐ -8355
▁ㅂㅏㅇㅊㅣㅁ -8356
▁ㅇㅏㅅㅏㅎㅣ -8357
▁ㅉㅏㅇ -8358
▁ㅇㅡㅁㅇㅝㄴ -8359
ib -8360
ㅡㅂㅏㅇㅣ -8361
▁ㅋㅏㄹㅣㅂㅡ -8362
▁ㅌㅏㄹㅎㅘㄴ -8363
▁ㅅㅓㅇㅜㄹㄷㅐ -8364
▁ㅎㅏㄴㄷㅗㅇㅇㅏㄴ -8365
▁ㄱㅗㅇㅣㄴ -8366
ㅌㅡㄹㄹㅐㄴ -8367
▁ㅈㅗㅇㄱㅕㄹ -8368
▁ㄷㅏㅅ -8369
▁ㅈㅓㄴㄷㅗ -8370
▁ㅅㅣㄴㅎㅏㄱㄱㅛ -8371
▁It -8372
ㅘㄹㅏ -8373
▁ㅇㅓㅅㅡ -8374
▁ㄷㅗㅇㄹㅕㄱ -8375
▁ㄱㅗㄹㅐ -8376
▁ㄲㅡㄹㄹ -8377
▁ㅁㅐㅋㅏ -8378
▁ㅇㅗㅍㅡ -8379
ㅂㅜㅌㅇㅣ -8380
▁ㅂㅜㄱㅇㅟ -8381
▁ㅈㅣㅍㅖ -8382
▁ㄷㅐㅇㅜㅇ -8383
▁ㅋㅓㄹㄹㅓㅁㅂㅣㅇㅏ -8384
▁106 -8385
▁ㅊㅏㄱㅣ -8386
▁ㅂㅏㄹㅣ -8387
▁ㅅㅠㅍ -8388
ㅣㅇㅓㅂ -8389
▁ㅍㅕㄴㄹㅣ -8390
▁ㄴㅏㄱㅅㅓㄴ -8391
▁ㅇㅔㅁㅣㄹ -8392
▁ㅊㅟㅈㅣ -8393
▁ㅎㅏㅇㅜ -8394
▁ㄱㅣㅅㅡㅂ -8395
▁ㅅㅣㄹㄹㅣ -8396
▁ㅅㅡㄹㅣㄹㄹㅓ -8397
▁ㄹㅏㅇㅣㅂㅡㄹ -8398
▁ㅇㅏㅇㅣㅅㅡㄹㄹ -8399
ome -8400
▁ㄴㅐㅇㅚ -8401
▁ㄷㅐㅊㅓ -8402
▁ㅇㅏㅂㅔ -8403
▁ㄱㅗㅂㅐㄱ -8404
▁ㄴㅏㄹㅉㅏ -8405
▁ㄹㅣㅇㅋㅓㄴ -8406
▁ㅅㅣㅂㅈㅏㄱㅏ -8407
▁ㄱㅏㄷ -8408
▁ㅈㅗㄷㅏㄹ -8409
ㅋㅣㅈㅣ -8410
▁ㄱㅐㄱㄱㅘㄴ -8411
▁ㄱㅘㄴㄹㅏㅁ -8412
▁ㄲㅓㅂㅈㅣㄹ -8413
ㅣㄹㅂㅗ -8414
▁ㅇㅏㅅㅔ -8415
ㅅㅓㄴㅅㅡ -8416
▁ㅇㅐㄷㅓㅁ -8417
ㅂㅔㄱ -8418
ㄷㅔㄹㅡ -8419
▁ㅈㅓㄴㅇㅏㅂ -8420
▁ㅇㅣㄱㅡㄹㅅㅡ -8421
▁ㄱㅓㄴㅡㄹㅣ -8422
▁ㅅㅡㅌㅣㅂㅡ -8423
▁ㅈㅓㅇㄹㅕㄹ -8424
▁ㅋㅏㅌㅏㄹㄹ -8425
▁ㅇㅜㄹㅏㄴㅠㅁ -8426
ian -8427
▁ㄷㅐㅈㅔ -8428
▁ㄱㅏㅂㅕㅇ -8429
▁ㄱㅗㅇㅁㅗ -8430
▁ㅎㅏㅁㅇㅠ -8431
▁ㅈㅜㅇㅊㅜㅇㅝㄴ -8432
▁ㅇㅐㄴㅣ -8433
▁ㅁㅜㅅㅏㅇ -8434
▁ㅅㅡㅌㅠㅇㅓ -8435
▁ㅍㅜㅇㄱㅕㅇ -8436
▁ㅇㅕㄴㅅㅔㄷㅐ -8437
ㅈㅣㅇㅗ -8438
▁ㄱㅡㄹㅕㅆ -8439
▁ㅂㅏㄹㄹ -8440
▁ㅎㅠㅅㅣㄱ -8441
▁ㅈㅣㄴㅏㄱㅏ -8442
▁ㅈㅜㅇㄹㅑㅇ -8443
▁ㅁㅓㅁㅊㅜ -8444
▁ㄴㅏㅌㅁㅏㄹ -8445
▁ㅂㅓㄴㅇㅕㅇ -8446
▁ㅅㅣㄹㄹㅣㄴ -8447
▁ㅊㅜㅇㅂㅜㄱ -8448
▁ㄷㅜㅁ -8449
ㅅㅔㅊㅡ -8450
▁ㅇㅗㅃㅏ -8451
▁ㄷㅡㅇㅈㅐ -8452
▁ㅇㅣㄱㅘㅇ -8453
▁ㄷㅡㄴㅈㅣ -8454
ㅐㅅㅕㄴㅓㄹ -8455
▁ㅂㅜㄹㅍㅕㄴ -8456
▁ㅅㅏㅇㅣㅂㅓ -8457
▁ㄹㅣㅂㅓㅍㅜㄹ -8458
▁ㅇㅣㄴㅌㅓㄴㅐㅅㅕㄴㅓㄹ -8459
▁ㅁㅐㅅㅏㅊㅜ -8460
▁ㅂㅐㄱㅇㅏㄱ -8461
▁ㅈㅏㅇㅇㅏㄴ -8462
▁ㅍㅡㄹㅏㅇㅅㅜㅇㅏ -8463
ment -8464
ㅏㄷㅣㅁ -8465
▁ㅇㅏㅌㅡㄹㄹㅔ -8466
▁ㅂㅡㄹㄹㅏㄷㅣㅁ -8467
▁ㅇㅜㄹㅏ -8468
▁ㅇㅠㅅㅜ -8469
▁ㄴㅗㅂㅜㄴ -8470
▁ㅇㅐㄴㄷㅡ -8471
▁ㅈㅜㅇㅈㅐ -8472
▁ㅋㅗㄴㅋㅡㄹㅣㅌㅡ -8473
▁ㅁㅐㅅㅏㅊㅜㅅㅔㅊㅡ -8474
▁ㅊㅗㅇㄷㅐ -8475
▁ㅋㅡㄹㄹㅣ -8476
▁ㅇㅣㄴㅅㅏㄴ -8477
▁ㅇㅏㅇㅣㅌㅔㅁ -8478
▁ㅇㅔㅅㅡㅌㅗㄴ -8479
ere -8480
▁CE -8481
ㅏㅆㅡ -8482
▁ㅂㅏㅋㅟ -8483
▁ㅇㅣㅁㅏ -8484
▁ㄱㅛㅇㅑㅇ -8485
ㄱㅣㅈㅣ -8486
ㅍㅡㄹㅏㅇ -8487
▁ㅅㅗㅌㅗㅇ -8488
▁ㅈㅜㅇㅅㅜㄴ -8489
▁We -8490
▁ㅎㅛㄹㅕㄱ -8491
ㅗㄹㄹㅔ -8492
▁ㅎㅐㅂㅕㄴ -8493
▁ㄷㅜㄹㄹㅓㅆㅏㄴ -8494
▁ㅎㅟㄹ -8495
▁ㅁㅗㅅㅡ -8496
▁ㅈㅔㅅㅜ -8497
▁ㅌㅔㄹㅔ -8498
▁ㅂㅏㄹㅎㅐ -8499
▁ㅅㅣㄴㅎㅏㄱㅈㅏ -8500
▁ㅈㅓㄴㅅㅓㅇㄱㅣ -8501
▁ㅇㅠㄴㅊㅣ -8502
ㅅㅓㄱㅌㅏㅂ -8503
▁ㅅㅓㄴㅈㅗㅇ -8504
ㅇㅓㅈㅣ -8505
▁ㄹㅏㅇㅣㅅㅓㄴㅅㅡ -8506
ire -8507
▁ㄹㅣㅊㅣ -8508
ㅇㅠㅎㅐㅇ -8509
ㅊㅣㅇㅝㄴ -8510
▁ㅇㅕㄱㅕㅆ -8511
▁ㅋㅔㄴㅔㄷㅣ -8512
ㅊㅡㅇㅅㅓㄱㅌㅏㅂ -8513
▁ㅅㅡㅍㅔㅇㅣㅅㅡ -8514
ㅈㅣㄱㅣ -8515
▁ㅅㅓㅅㅏㄴ -8516
▁ㄱㅘㄴㅌㅗㅇ -8517
▁ㄷㅗㄹㅇㅕㄴ -8518
▁ㄷㅏㅎㅏㅇ -8519
▁ㅅㅡㅍㅔㅇㅣㄴㅇㅓ -8520
pe -8521
▁ㅅㅣㄴㅅㅔ -8522
▁ㅈㅡㅇㅈㅣㄴ -8523
▁ㅇㅠㄴㅣㅍㅗㅁ -8524
▁ㄷㅐㅇㅟ -8525
▁ㄱㅛㅇㅝㄴ -8526
▁ㅇㅚㄱㅛㄱㅘㄴ -8527
▁ㄹㅗㄱㅗ -8528
▁ㅂㅡㄹㅐ -8529
▁ㄱㅏㅁㅈㅣ -8530
▁ㅅㅟㅇㅜㄴ -8531
▁ㅇㅢㅅㅏㅇ -8532
▁HT -8533
▁ㅁㅔㄹㄹㅗ -8534
▁ㅅㅐㅇㅈㅓㄴ -8535
▁ㅇㅏㄹㅔㄴㅏ -8536
▁ㅍㅕㅇㅌㅐㄱ -8537
▁ㄷㅐㅈㅓㄴㄱㅘㅇㅇㅕㄱㅅㅣ -8538
ide -8539
▁ㄷㅏㄴㅅㅣㄱ -8540
▁ㅅㅡㅌㅏㄹ -8541
▁ㅇㅝㄴㄱㅗ -8542
▁ㅌㅗㅇㄱㅡㄴ -8543
▁ㅅㅗㅎㅘㄴ -8544
▁ㄴㅔㅇㅣㅅㅕㄴㅅㅡ -8545
▁ㅂㅏㅊㅣ -8546
▁ㅇㅏㅂㅏ -8547
ace -8548
▁ㅁㅏㄴㅅㅔ -8549
▁ㅈㅣㅎㅖ -8550
ㅍㅡㄹㄹㅓ -8551
ㅔㅇㅣㅁㅓ -8552
▁ㅅㅡㅋㅐㄴ -8553
▁ㅇㅘㅇㅣㄹ -8554
▁ㅎㅠㅈㅓㄴ -8555
ㅌㅐㅇㅜ -8556
ㅔㅇㅗㄴ -8557
▁ㅊㅗㄱㅘ -8558
▁ㅂㅏㅇㅍㅐ -8559
▁ㅍㅏㅇㅓㅂ -8560
▁ㅊㅜㅇㅅㅣㄹ -8561
▁ㅈㅏㅇㄹㅗ -8562
▁ㄱㅗㅇㄷㅏㄴ -8563
▁IBM -8564
▁ㅅㅣㄹㅈㅓㄴ -8565
▁ㅇㅜㅇㅕㄴㅎㅣ -8566
▁ㄴㅐㄹㅣㄴ -8567
▁ㅇㅏㅁㅅㅓㄱ -8568
▁ㅈㅏㅈ -8569
▁ㅇㅘㅅ -8570
▁ㅆㅓㅅㅓ -8571
▁ㅇㅝㄴㄴㅐ -8572
▁ㄷㅜㄲ -8573
▁ㅁㅜㅎㅏㅁ -8574
ㅓㄴㅣㅈㅡㅁ -8575
ㅣㄴㅅㅓㅇ -8576
ㅅㅏㄱㅏ -8577
▁ㅍㅕㅇㅂㅓㅁ -8578
▁ㄴㅓㅁㅇㅓㄱㅏ -8579
ㅡㄹㅔ -8580
ㅂㅗㅇㅣ -8581
ㅏㅁㅈㅟ -8582
ㅜㅅㅕㄴ -8583
▁ㅅㅛㅌㅡ -8584
▁ㄹㅗㅇㅕㄹ -8585
▁ㅅㅓㄴㅏㅁ -8586
▁ㅂㅏㄹㅌㅡ -8587
▁ㅇㅟㅇㅣㅁ -8588
▁ㅇㅣㄹㅎㅘ -8589
▁ㄱㅓㄱㅈㅓㅇ -8590
▁ㅋㅔㅇㅣㅅㅡ -8591
▁ㅎㅘㅇㅌㅐㅈㅏ -8592
▁ㅊㅐㄱㅇㅣㅁㅈㅏ -8593
▁ㅎㅡㅁ -8594
▁ㅂㅗㅇㅘㄴ -8595
▁ㅅㅣㅎㅡㅇ -8596
▁ㅇㅏㅈㅔㄹ -8597
▁ㅂㅜㄹㅁㅕㅇ -8598
IM -8599
▁ㅊㅚㅈㅓ -8600
▁ㅁㅣㅌㅗ -8601
▁ㄱㅗㅁㅣㄴ -8602
▁ㅅㅏㅁㅈㅣㄴ -8603
ㅡㅂㅏㅇㅣㅈㅏㄴ -8604
▁TO -8605
▁ㄷㅗㅇㅘㅆ -8606
▁ㅎㅏㄴㅅㅓㅇㅂㅜ -8607
▁ㅂㅡㄹㅜㄴ -8608
▁ㅇㅕㄴㅍㅐ -8609
▁ㅇㅜㅇㅜㄹ -8610
▁ㅍㅛㅁㅕㅇ -8611
▁ㅅㅡㅇㅈㅓㅁ -8612
▁ㅇㅔㅌㅣㅇㅗ -8613
▁ㅂㅡㄹㅏㅇㅜㅈㅓ -8614
▁148 -8615
ㅅㅡㅌㅣ -8616
ㅈㅣㄹㅣㅇㅏ -8617
▁ㄴㅏㅇㅣㅈㅣㄹㅣㅇㅏ -8618
▁ㅁㅜㄹㄹㅣㅎㅏㄱㅈㅏ -8619
▁ㅂㅏㄲㅝ -8620
cl -8621
▁ㄴㅣㅅㅍㅗㄴ -8622
▁ㅇㅕㄱㅅㅓㄹ -8623
▁ㅈㅓㅇㅁㅏㄹ -8624
▁ㅅㅏㅅㅡㄹ -8625
▁ㅎㅏㄹㄹㅣㅇㅜㄷㅡ -8626
ㅍㅗㄷㅡ -8627
▁ㅁㅏㅂㅣ -8628
▁ㅅㅡㅌㅐ -8629
▁ㅁㅕㅊㅣㄹ -8630
▁ㅂㅕㅇㅈㅗ -8631
▁ㄱㅗㅇㅈㅣㄱ -8632
ㅈㅜㅇㅢㅈㅏ -8633
▁ㅍㅓㅅㅔㄴㅌㅡ -8634
▁ㅂㅗㅅㅡㄴㅣㅇㅏ -8635
▁136 -8636
ㄱㅏㄹㅜ -8637
▁ㅊㅐㅁㅜ -8638
▁ㅊㅓㅇㅎㅏ -8639
▁ㅁㅏㅇㅣㄴㅓ -8640
▁ㅇㅑㄱㅊㅣㅇ -8641
▁ㅅㅣㄹㅅㅣㄱㅏㄴ -8642
▁ㄲㅡㅀ -8643
▁ㅂㅏㅌㅣ -8644
▁ㅁㅏㅇㅑㄱ -8645
▁ㅅㅓㄴㄱㅜ -8646
▁ㅇㅏㄴㅅㅓㅇ -8647
▁ㅇㅏㅈㅔㄹㅡㅂㅏㅇㅣㅈㅏㄴ -8648
ㅏㄱㅏㅆ -8649
▁ㅂㅜㅊㅐ -8650
▁ㅇㅣㅂㅈㅣ -8651
▁ㅈㅗㄹㅣ -8652
▁ㅇㅔㅌㅣㅇㅗㅍㅣㅇㅏ -8653
▁ㅈㅜㄱㅓ -8654
▁ㅅㅜㄴㅎㅚ -8655
▁ㅇㅏㅅㅏㄴ -8656
▁ㅈㅏㅇㄴㅏㄴ -8657
ㅇㅓㅈㅣㄴ -8658
▁ㄱㅏㄴㅎㅗ -8659
▁ㅇㅓㅂㄱㅖ -8660
▁ㅇㅣㄴㅇㅕㄴ -8661
▁ㄱㅗㅇㅇㅢㅎㅚ -8662
▁ㅇㅠㅇㅏ -8663
▁ㅅㅓㅇㅅㅜㄱ -8664
▁ㅅㅏㅎㅚㅎㅏㄱ -8665
▁ㅋㅏㅇㅣㄹ -8666
▁ㅇㅕㅇㄴㅏㅁ -8667
▁ㅎㅕㄴㄱㅡㅁ -8668
▁ㄷㅡㄹㅇㅓㅇㅘㅆ -8669
ㅐㅇㅣㄴ -8670
▁ㅅㅏㅂㅏ -8671
▁ㅍㅔㅇㅓ -8672
▁ㅁㅕㅇㅈㅔ -8673
▁ㅂㅏㄴㅂㅏㄱ -8674
▁ㅂㅐㅌㅓㄹㅣ -8675
▁ㅅㅏㄴㄹㅣㅁ -8676
▁ㅈㅜㅇㅅㅣㅁㅂㅜ -8677
▁ㅍㅔㄹㄹ -8678
▁ㄱㅜㄹㅡㅇ -8679
▁ㅍㅏㅈㅏㅇ -8680
▁ㄹㅣㅂㅣㅇㅏ -8681
▁ㅈㅓㄴㄹㅏㄷㅗ -8682
▁ㅅㅣㄴㅏㄹㅣㅇㅗ -8683
▁ㅋㅡㄹㅣㅅㅡㅌㅣㅇㅏㄴ -8684
ㅌㅏㄹㅗ -8685
▁ㄷㅏㅇㅇㅣㄹ -8686
▁ㅅㅔㄱㅖㄱㅘㄴ -8687
▁ㅎㅔㄹㅏ -8688
▁ㅇㅣㄹㅇㅓㄴㅏㄹ -8689
▁ㄹㅏㅇㅣㅂㅡㄹㅓㄹㅣ -8690
▁ㅈㅣㄹㅠ -8691
▁ㅈㅘㅈㅓㄹ -8692
▁ㅂㅏㄹㅏㅂㅗ -8693
▁ㅈㅏㄱㅅㅔㄴ -8694
▁ㅁㅜㄱㅓㅇㅜㄴ -8695
ㅎㅏㅅㅣ -8696
▁1916 -8697
ㅋㅏㄹㅡ -8698
▁ㅂㅓㄹㅕ -8699
▁ㄱㅕㅁㅎㅏ -8700
▁ㅇㅣㄹㅡㄹ -8701
▁ㅍㅐㅋㅣㅈㅣ -8702
▁ㄹㅣㅌㅡㄹ -8703
ㅇㅏㄹ -8704
▁ㄷㅗㅇㅅㅏㅇ -8705
▁ㅅㅡㅌㅠㅇㅓㅌㅡ -8706
▁ㅌㅡㄱㅈㅣㅂ -8707
▁ㅂㅐㅅㅣㄴ -8708
▁ㅈㅏㅇㅁㅣ -8709
▁ㅎㅐㅁㅣㄹ -8710
▁ㅁㅕㅇㅂㅐㄱ -8711
▁ㅅㅓㅇㅇㅜㄴ -8712
▁ㅅㅣㄴㅅㅐㅇ -8713
▁ㅊㅜㅊㅜㄹ -8714
▁ㅎㅓㄹㅣㅋㅔㅇㅣㄴ -8715
▁la -8716
ㅔㅁㅏ -8717
▁ㅎㅐㅅ -8718
▁ㅇㅢㅇㅑㄱ -8719
▁ㄴㅗㅂㅜㄴㅏㄱㅏ -8720
▁ㅆㅏㅇㄷㅜㅇㅇㅣ -8721
ㅁㅜㄱㅣ -8722
▁ㄴㅡㄹㄹ -8723
▁ㅂㅔㄷㅡ -8724
ㅎㅐㅇㅏㄴ -8725
▁ㅇㅟㅌㅏㄱ -8726
▁ㅈㅗㅇㅕㄴ -8727
▁ㄱㅏㄹㅗㅈㅣㄹ -8728
▁138 -8729
▁ㅁㅐㅂ -8730
▁ㅂㅏㄹㅡㄴ -8731
▁ㅊㅣㅇㅕㄹ -8732
▁ㄱㅕㄹㅅㅓㄴ -8733
▁ㄹㅏㅇㅣㅇㅓㄴ -8734
▁ㄱㅡㄹㅔ -8735
▁ㄹㅣㅇㅓ -8736
ㅎㅏㅁㅕㄴ -8737
▁ㄱㅐㄱㅊㅔ -8738
▁ㅋㅏㄱ -8739
▁ㄱㅣㅇㅣㄴ -8740
▁ㅅㅣㅅㅓㄴ -8741
▁ㅅㅣㅊㅗ -8742
▁ㄴㅜㄱㅜㄴ -8743
▁ㅅㅏㅇㄷㅏㅁ -8744
▁ㄴㅏㅌㅏㄴㅐㄹ -8745
ㅌㅏㄴㅣ -8746
▁ㄴㅗㄹㅡㅁ -8747
▁ㅅㅗㅇㅠㅈㅏ -8748
▁ㅇㅕㅇㅈㅏㅇ -8749
▁ㅅㅣㄴㅅㅗㄱ -8750
▁ㅋㅓㅅ -8751
▁ㅇㅣㅅㅏㅎㅚ -8752
▁ㅍㅔㄹㅡㄴㅏㄴ -8753
▁ㅅㅓㅁㅓ -8754
▁ㅅㅣㄹㅏ -8755
▁ㄱㅡㄱㄷㅗㅇ -8756
▁ㅎㅏㅂㅊㅏㅇ -8757
▁ㄱㅏㄷㅗㅇ -8758
▁ㅅㅓㅈㅓㅇ -8759
▁ㅍㅡㄹㄹㅜ -8760
▁ㅊㅣㄴㅇㅘㅇ -8761
▁ㄱㅜㅈㅗㅁㅜㄹ -8762
▁DC -8763
▁ㄱㅗㅅㅓㅇ -8764
ㅅㅖㄹ -8765
▁ㅂㅏㄷㅏㅅ -8766
▁ㅂㅗㅇㅅㅙ -8767
ㅇㅟㄷㅐ -8768
ㄷㅡㅇㅓ -8769
▁ㅈㅣㅅㅓㄴ -8770
▁ㅎㅗㄱㅣ -8771
ㅈㅜㅇㄱㅜㄱ -8772
▁ㅂㅜㄴㄷㅏㅇ -8773
▁ㅇㅣㅂㄷㅏㅇ -8774
ㅡㄴㅓ -8775
▁ㄴㅏㄴㄷㅏ -8776
▁ㅂㅏㄴㄱㅏㅁ -8777
▁ㅂㅗㄱㅅㅓㄴ -8778
▁ㅊㅚㅅㅏㅇㅇㅟ -8779
▁ㄱㅓㅈㅔ -8780
▁ㅌㅐㅇㅋㅡ -8781
▁ㅂㅕㅇㅎㅐㅇ -8782
▁NBA -8783
ㅁㅜㄴㅔ -8784
▁ㅋㅗㅁㅜㄴㅔ -8785
▁ㄷㅏㅇㅣㅇㅏㅁ -8786
▁ㅎㅕㅂㅈㅜㄱㅗㄱ -8787
▁ㄱㅜㄱㅁㅜㅊㅗㅇㄹㅣ -8788
▁WWE -8789
▁ㅇㅢㄹㅚ -8790
▁ㅇㅝㄴㅅㅜㅇㅇㅣ -8791
▁ㄹㅣㅅ -8792
▁ㅂㅏㄼ -8793
▁ㄱㅕㅇㅇㅕㄴ -8794
▁ㅎㅜㅋㅜㅅㅣㅁㅏ -8795
▁En -8796
▁ㅇㅙㄴ -8797
▁360 -8798
▁ㅇㅠㄱㅈㅣ -8799
▁ㅈㅓㄴㄴㅕㅁ -8800
▁ㄱㅗㅅㅜ -8801
▁ㅊㅜㅅㅔ -8802
ㅊㅘㄴ -8803
ㅂㅓㄱㅡ -8804
ㅈㅔㄹㅣ -8805
ㅔㅁㅔㄴ -8806
▁ㅂㅜㅈㅓㄱ -8807
▁ㅊㅔㄹㅅㅣ -8808
▁ㅍㅗㄱㅕㄱ -8809
▁ㄴㅐㄹㅕㄱㅏ -8810
▁ㅎㅕㄴㅈㅗㅇ -8811
▁ㄷㅔㅇㅣㅂㅣㅅㅡ -8812
ㅏㅇㅣㄷㅡ -8813
▁ㅈㅡㅇㅡㅁ -8814
▁ㅎㅏㄴㅅㅡ -8815
▁ㅇㅗㅍㅣㅅㅡ -8816
▁ㅇㅕㅇㅇㅢㅈㅓㅇ -8817
▁ㅅㅐㄱㅕㅈㅕ -8818
▁ㄷㅏㄴㅣㅇㅔㄹ -8819
▁ㅂㅏㄴㄷㅗㅊㅔ -8820
ㅈㅕㅅㅓ -8821
▁ㅇㅔㅇㅜ -8822
▁ㄱㅏㅁㅕㄴ -8823
▁ㄴㅏㅃㅡㄴ -8824
▁ㅊㅣㄹㅓㅈㅣㄴ -8825
▁ㄲㅔㅅㅓ -8826
▁ㅂㅜㅈㅐ -8827
▁ㅇㅓㅎㅟ -8828
▁ㅈㅜㅇㅇㅟ -8829
▁ㅈㅣㄴㅡㅇ -8830
▁ㅂㅜㅁ -8831
▁ㄱㅐㅇㅝㄴ -8832
▁ㅈㅏㅇㄹㅕ -8833
▁ㅇㅔㅅㅡㅌㅗㄴㅣㅇㅏ -8834
▁104 -8835
▁ㅇㅗㅌㅏ -8836
▁ㅂㅜㅌㅇㅕㅆ -8837
▁ㅌㅔㅇㅣㅂㅡㄹ -8838
▁ㄷㅓㅁ -8839
▁ㅇㅔㄷㅏ -8840
▁ㅊㅜㄴㅊㅓㄴ -8841
▁ㅈㅜㅇㅅㅓㅇㅈㅏ -8842
▁ㅇㅏㅀ -8843
▁ㅅㅏㄴㄷㅏ -8844
▁ㄷㅗㄹㅜ -8845
▁ㅈㅐㅇㅟ -8846
▁ㄹㅔㅇㅣㄹ -8847
▁ㄱㅕㄹㅎㅗㄴㅅㅣㄱ -8848
ㅂㅡㄹㄹ -8849
▁ㄱㅣㅁㅍㅗ -8850
▁ㅅㅔㅅㅕㄴ -8851
▁ㅅㅡㅌㅗㄱ -8852
ㅔㅅㅗ -8853
▁ㅂㅗㅇㅣㄹ -8854
▁ㅅㅏㅎㅓㄴ -8855
▁ㅎㅐㅅㅗ -8856
▁ㅅㅣㅁㅗㄴ -8857
▁ㄹㅣㅇㅜㅅㅡ -8858
▁ㅂㅐㄱㅅㅐㄱ -8859
▁ㅌㅗㅅㅓㅇ -8860
ark -8861
ㅣㅇㅏㅈㅜ -8862
▁ㅎㅏㄹㅏㄱ -8863
▁ㅁㅗㄱㅍㅏㄴ -8864
▁ㅈㅓㅇㅎㅏㄴ -8865
▁ㅇㅐㅌㅡㄹㄹㅐㄴ -8866
ㄲㅡㅁ -8867
▁ㄱㅡㄹㅜ -8868
▁ㄷㅗㅈㅜ -8869
▁ㅊㅣㅈㅡ -8870
▁ㄹㅔㄴㅗㄴ -8871
▁ㅇㅝㄷㅡ -8872
▁ㅇㅑㅇㄷㅗ -8873
▁ㅇㅠㄷㅗㅇ -8874
▁ㅋㅗㄱ -8875
▁ㅌㅏㄹㄷㅏㅇ -8876
▁109 -8877
▁ㅅㅏㅌㅗ -8878
ㄷㅐㅅㅣㄴ -8879
▁ㅇㅕㄱㅕㅈㅕㅆ -8880
ㅂㅏㅇㅑ -8881
▁ㅅㅡㅌㅓ -8882
▁ㅈㅣㄴㅉㅏ -8883
▁ㅂㅐㄱㅎㅘㅈㅓㅁ -8884
ㅠㄹㄹ -8885
▁ㅅㅓㅈㅐ -8886
▁123 -8887
ㅋㅗㅇㅗㄹ -8888
▁ㅁㅣㄴㅎㅚ -8889
ㅕㅂㅏㄷ -8890
▁ㄱㅗㅅㅏ -8891
▁ㅂㅗㄹㅣ -8892
ㅓㅇㅜㅁ -8893
▁ㅁㅗㅎㅏㅁ -8894
ㅇㅡㄴㅅㅐㄱ -8895
▁ㄷㅐㅍㅛㅈㅏㄱ -8896
ㅍㅣㅂ -8897
ㅔㅇㅜ -8898
▁ㄱㅓㅎㅐㅇ -8899
▁ㄱㅕㄱㅌㅚ -8900
▁ㅇㅜㄹㅜㄱ -8901
▁ㅈㅓㅇㅁㅜ -8902
▁ㅍㅣㅇㅏ -8903
▁ㄷㅏㅂㅏㄹ -8904
Pa -8905
▁ㄱㅗㅈㅏㅇ -8906
▁ㅁㅕㅇㄹㅕㅇㅇㅓ -8907
▁ㅈㅓㅎㅏ -8908
▁ㅎㅏㅇㅑ -8909
▁ㅁㅕㄴㅎㅓ -8910
▁ㅈㅜㅎㅐㅇ -8911
▁ㅂㅜㄴㄱㅣㅈㅓㅁ -8912
▁ㅋㅗㅍㅡ -8913
ㄷㅓㅅㅡㄴ -8914
ㅎㅚㅈㅏㅇ -8915
▁ㅈㅜㄹㅡㅁ -8916
▁ㅎㅐㅇㅈㅓㄱ -8917
ㅍㅏㅂ -8918
ㅁㅗㅌㅗ -8919
▁ㅂㅣㅅㅣ -8920
ㅈㅣㄹㅡㅁ -8921
▁ㄷㅗㄹㄹㅣ -8922
▁ㅇㅣㅁㅇㅛㅇ -8923
▁Pr -8924
ㄹㅗㄱㅜ -8925
▁ㅁㅏㅎㅏ -8926
▁ㅅㅜㅅㅡㅂ -8927
▁ㅌㅐㄱㅅㅣ -8928
▁ㄴㅐㅇㄱㅏㄱ -8929
▁ㅇㅏㅁㅏㄷㅗ -8930
▁ㅈㅗㅇㄹㅗㄱㅜ -8931
ㅏㅇㅜㅅㅡ -8932
▁ㄱㅓㄹㅗㄴ -8933
▁ㅃㅏㅈㅕㅆ -8934
▁ㅊㅏㅈㅏㅇ -8935
ㅇㅑㅇㅎㅏㅁ -8936
▁ㅎㅕㄹㅌㅗㅇ -8937
ㅗㅇㅏ -8938
▁ㄷㅏㅂㅣ -8939
▁ㄷㅚㄱㅔ -8940
ㅏㄴㅣ -8941
▁ㄱㅗㅊㅣ -8942
▁ㄷㅗㅈㅏㅇ -8943
▁ㅅㅏㅎㅓㄴㅂㅜ -8944
▁CS -8945
▁ㅇㅕㅈㅣ -8946
ㅂㅅㅡ -8947
▁col -8948
▁ㅊㅓㅁㄱㅏ -8949
▁ㅇㅜㄹㅜㄱㅘㅇㅣ -8950
ㅎㅔㅁ -8951
▁ㅅㅣㄹㅈㅏㅇ -8952
▁ㅈㅏㅇㅎㅏㄱ -8953
▁ㅍㅔㄴㅅㅣㄹ -8954
▁ㅎㅏㄴㅉㅗㄱ -8955
▁ㅍㅔㄴㅅㅣㄹㅂㅔㅇㅣㄴ -8956
▁ㄱㅗㄱㅏ -8957
▁ㅋㅣㄱ -8958
▁ㅁㅏㅅㅏㅇ -8959
▁ㅂㅏㄴㅈㅣ -8960
▁ㄴㅏㅇㅁㅏㄴ -8961
▁AR -8962
▁ㄴㅓㅂㅣ -8963
▁ㅇㅏㄹㄹㅔ -8964
▁143 -8965
ㅂㅏㅇㅣ -8966
▁ㄱㅣㅈㅓㄱ -8967
▁ㄲㅐㄷㅏㄹ -8968
ㄲㅜ -8969
▁ㅇㅓㅇㅛ -8970
ㅂㅓㄹㄹㅔ -8971
▁ㅅㅣㄴㄱㅠ -8972
▁ㅅㅐㅇㅅㅣㄱ -8973
▁ㄱㅜㄷㅗ -8974
▁ㅊㅏㅇㄱㅗ -8975
▁ㅅㅣㅇㅗ -8976
▁ㅂㅏㅇㅅㅗㅇㅅㅏ -8977
▁ㅌㅏㅇㅣㄱㅓㅈㅡ -8978
▁ㅊㅣㅁㅕㅇ -8979
▁ㄱㅕㅇㄱㅘㄴ -8980
ㅌㅡㄹㅗㄴ -8981
▁ㅇㅣㄱㅕㅇ -8982
▁ㅅㅏㄴㄹㅏㄴ -8983
▁ㅎㅚㅅㅅㅜ -8984
▁ㄷㅏㅅㅡㄹㅣ -8985
▁ㄱㅡㅂㄱㅕㄱㅎㅣ -8986
▁NC -8987
ㅅㅠㅁ -8988
ㅣㄹㄹㅗㄴ -8989
▁ㅈㅔㄷㅗㄱ -8990
▁ㅅㅣㄴㅎㅏㄴ -8991
▁ㅊㅓㅇㅊㅜㄴ -8992
ㅓㅎ -8993
ㅜㄹㅗ -8994
▁ㅅㅏㄹㄹㅣ -8995
ㅅㅡㅋㅏㄹㅡ -8996
▁ㅈㅓㄱㅂㅜㄴ -8997
ile -8998
▁AK -8999
▁ㅎㅗㄹㅏㅇㅇㅣ -9000
▁CC -9001
▁ㅅㅏㄷㅏ -9002
▁ㅎㅐㅈㅓㄱ -9003
▁ㅋㅡㄹㅏ -9004
▁ㅇㅏㅎㅗㅂ -9005
▁ㅊㅜㄹㅊㅓ -9006
▁ㅎㅏㅇㅝㄷㅡ -9007
AL -9008
ㅅㅡㅇㅈㅣ -9009
ㄷㅔㅅㅣ -9010
▁ㅇㅠㄴㅣㅂ -9011
▁ㅋㅏㅈㅏㅎㅡㅅㅡㅌㅏㄴ -9012
▁ㅅㅜㄴㄱㅛ -9013
▁ㄱㅘㅇㅁㅜㄹ -9014
▁ㅌㅗㅇㅈㅡㅇ -9015
▁ㅈㅏㄴㄹㅠ -9016
▁ㄴㅏㄴㅜㄹ -9017
▁ㅅㅣㄴㅌㅏㄱ -9018
▁ㄹㅜㅍㅡ -9019
▁ㅂㅓㅂㅁㅜ -9020
▁ㄱㅛㅎㅘㅇㅊㅓㅇ -9021
▁ㅂㅏㄱㄹㅏㅁㅎㅚ -9022
▁ㅇㅕㄴㅎㅏㅂㅎㅚ -9023
ㅂㅓㅂㅇㅣㄴ -9024
▁ㅂㅜㄷㅣ -9025
▁ㅅㅣㅊㅣㄹㄹㅣㅇㅏ -9026
ㅡㅁㅣ -9027
▁ㅂㅏㅎㅡ -9028
▁ㅅㅏㅇㄷㅏㄴ -9029
▁ㄴㅏㅁㄷㅗㅇㅂㅜ -9030
▁ㅅㅏㅇㅈㅓㅁ -9031
▁ㅈㅓㅇㅈㅓㅁ -9032
▁ㄷㅐㅎㅏㄱㅅㅐㅇ -9033
▁ㅂㅡㄹㄹㅏ -9034
▁ㅌㅏㅁㄱㅜ -9035
xt -9036
▁ㄱㅡㄱㅎㅣ -9037
▁ㅂㅏㄱㅎㅐ -9038
▁ㅅㅜㄹㅕㄴ -9039
▁ㅇㅕㄹㄷㅐ -9040
▁ㅈㅔㅇㅣㄴ -9041
▁CON -9042
▁ㄹㅐㅍㅓ -9043
▁ㅅㅏㅅㅏ -9044
▁ㅇㅏㄹㄹㅜ -9045
▁ㄷㅗㅇㅇㅏㅇ -9046
▁LP -9047
▁ㅁㅐㅇㅣㅂ -9048
▁ㅈㅜㅇㅕㄱ -9049
▁ㅌㅏㅁㅈㅣ -9050
▁ㅍㅓㅇㅋㅡ -9051
▁ㄱㅡㄴㅏㄹ -9052
▁ㅌㅗㅇㅇㅕㅇ -9053
▁ㅅㅜㅁㄱㅕ -9054
▁ㄹㅗㄹㄹㅣㅇ -9055
▁ㅅㅏㅁㅊㅡㅇㅅㅓㄱㅌㅏㅂ -9056
▁ㅇㅒㄱㅣ -9057
▁ㅂㅜㄹㅡㅋㅡ -9058
▁ㅋㅏㅇㅣㅅㅏㄹㅡ -9059
ㅔㅁㅏㅇ -9060
▁ㄱㅜㄱㅅㅗ -9061
▁is -9062
▁ㅂㅘ -9063
ㅍㅡㄴ -9064
▁ㄹㅏㅌㅡㅂㅣㅇㅏ -9065
▁ㄱㅏㅂㅈㅏㄱㅅㅡㄹ -9066
▁ㄹㅠㄱ -9067
ㅣㅇㅏㄴㅏ -9068
▁ㄱㅏㄱㅜㄴ -9069
▁ㄱㅡㄹㅐㅁ -9070
▁ㅅㅓㅇㅊㅔ -9071
▁ㅈㅓㄱㄷㅏㅇ -9072
▁Op -9073
▁ㄷㅗㄷ -9074
▁ㅌㅣㅅㅡ -9075
▁ㅇㅕㅍㅁㅕㄴ -9076
▁ㅇㅔㅋ -9077
▁ㅇㅣㅈㅜㄴ -9078
▁ㅇㅑㄱㅜㅈㅏㅇ -9079
▁ㅇㅏㅇㅣㅅㅡㄹㄹㅏㄴㄷㅡ -9080
▁ㅇㅡㅁㄹㅛ -9081
▁ㅅㅓㄹㅌㅏㅇ -9082
▁ㅍㅗㄱㄷㅗㅇ -9083
▁ㅎㅘㄴㅇㅕㅇ -9084
▁ㅌㅐㅇㅑㅇㄱㅖ -9085
▁ㅎㅠㅅㅡㅌㅓㄴ -9086
ㅕㄹㅐ -9087
▁ㅎㅜㅎㅏㄴ -9088
▁ㅇㅣㄴㅍㅡㄹㄹ -9089
▁ㅋㅣㅍㅡㄹㅗㅅㅡ -9090
▁ㅈㅐㅎㅕㄴ -9091
▁ㅈㅓㄴㅎㅐㅆ -9092
▁ㅅㅡㅌㅡㄹㅣㅁ -9093
▁ㅇㅠㄹㅗㅍㅏ -9094
ㅅㅣㅍㅣ -9095
▁ㅇㅓㅇㅝㄴ -9096
ㅇㅏㄴㄱㅜㄴ -9097
▁ㅅㅓㅇㄷㅏㄴ -9098
▁ㅇㅏㄹㅏㅂㅇㅓ -9099
▁ㅅㅡㅌㅡㄹㅔㅅㅡ -9100
ㅇㅏㅈㅣ -9101
▁ㄱㅜㅎㅗ -9102
ㅅㅏㄹㅇㅣ -9103
▁ㄱㅡㄴㄱㅛ -9104
▁ㅅㅓㅇㅊㅟ -9105
▁ㅅㅡㄹㄹㅗㅂㅏㅋㅣㅇㅏ -9106
▁ㅇㅕㅁㄱㅣ -9107
▁ㅊㅣㄴㅇㅣㄹㅍㅏ -9108
▁ㄹㅗㅇㅣ -9109
▁ㅎㅜㅂㅏㅇ -9110
▁ㄴㅏㅅ -9111
▁ㄹㅏㅇㅗㅅㅡ -9112
▁ㅂㅗㄹㄹㅣㅂ -9113
▁ㄷㅐㅇㅜㅇㅈㅓㄴ -9114
ㅍㅜㅅㅡ -9115
▁ㅈㅗㄴㅅㅗㄱ -9116
▁ㅊㅜㅇㅈㅓㄴ -9117
▁ㄱㅕㅇㅅㅏㅇㄷㅗ -9118
ft -9119
▁ㄸㅡㄱㅓㅇㅜㄴ -9120
▁ㅂㅡㄹㅏㄷㅓㅅㅡ -9121
ies -9122
ㅊㅏㄱㅣ -9123
▁ㄱㅕㅇㅊㅏㄹㅊㅓㅇ -9124
▁ㅇㅜㅇㅟ -9125
▁ㄱㅗㅇㄱㅘㄴ -9126
▁ㅅㅏㅇㅇㅛㅇ -9127
▁ㅊㅏㅇㅣㅈㅓㅁ -9128
▁ㅇㅣㅎㅘ -9129
▁ㄱㅓㅂㅜㄱ -9130
▁ㅂㅜㅅㅓㄹ -9131
▁ㅊㅏㅈㅗㅇ -9132
▁ㄷㅓㅅㅂㅜㅌㅇㅕ -9133
▁ㅂㅕㄹㄷㅏㄹㅡㄴ -9134
▁ㄷㅗㅇㅇㅏㅇㅣㄹㅂㅗ -9135
ite -9136
▁ㅂㅡㄹㄹㅏㄷㅣㅁㅣㄹㅡ -9137
▁ㄹㅗㅁㅏㄴ -9138
▁ㅁㅗㄱㅈㅐ -9139
▁ㅇㅓㄱㅇㅏㅂ -9140
▁ㅇㅜㅅㅡㅇㅈㅏ -9141
▁ㅌㅏㅁㅅㅏㅅㅓㄴ -9142
▁ㄱㅗㅇㅅㅜ -9143
▁ㅊㅜㄱㅈㅓㄱ -9144
▁ㅈㅜㄱㅏ -9145
▁ㅁㅐㄱㅈㅜ -9146
▁ㅂㅓㄹㄱㅡㅁ -9147
▁ㅇㅏㄹㅋㅗㅇㅗㄹ -9148
▁ㅈㅜㅇㅇㅢㅇㅝㄴ -9149
ㄴㅔㅅ -9150
▁107 -9151
▁ㄱㅏㅉㅏ -9152
▁ㅅㅣㄴㅁㅣㄴ -9153
▁ㅇㅡㅇㅇㅝㄴ -9154
▁112 -9155
▁ㅇㅜㅅㅔ -9156
▁ㅅㅏㅇㅠㄱ -9157
▁ㅅㅡㅌㅣㄹ -9158
▁ㅎㅏㄴㅇㅣㄴ -9159
▁ㄱㅘㄴㅎㅐㅅㅓ -9160
▁ㅅㅏㅇㅓㅂㅈㅏ -9161
▁ㄷㅏㅇㅣㅇㅏㅁㅗㄴㄷㅡ -9162
▁ㅅㅠㅌㅡ -9163
ㅈㅣㅂㅜㅇ -9164
▁ㅅㅏㅇㅂㅏㄴ -9165
▁ㅎㅗㄹㅡㅁ -9166
▁ㅅㅗㅇㅅㅣㅇ -9167
ㅅㅡㅌㅔㄹ -9168
▁ㅊㅚㅇㅏㄱ -9169
▁ㅇㅕㄹㅈㅓㅇ -9170
▁ㅈㅜㄹㅁㅜㄴㅢ -9171
ㄲㅗㅂ -9172
▁ㄴㅜㅇㅣ -9173
▁Te -9174
▁ㄷㅏㅇㅈㅜ -9175
▁ㅅㅣㄹㄹㅕ -9176
▁ㅎㅕㄴㅈㅓ -9177
▁ㄱㅘㅇㅎㅏㄱ -9178
▁ㅇㅣㅅㅜㄴㅅㅣㄴ -9179
▁SE -9180
ㅔㅈㅡ -9181
▁ㄴㅏㅁㅣ -9182
▁ㅇㅔㄷㅡ -9183
ㅔㅇㅑㅅㅡ -9184
▁ㅅㅣㄱㅗㄹ -9185
▁ㅂㅡㄹㄹㅗㄱㅡ -9186
▁ㅍㅣㅂ -9187
▁ㅅㅗㄱㅎㅐㅆ -9188
▁126 -9189
▁ㅅㅡㅋㅔ -9190
▁ㅅㅜㅂㅓㅂ -9191
▁ㄱㅗㅇㅇㅣㄱ -9192
▁ㄴㅏㅅㅡ -9193
▁ㅈㅏㅇㄱㅓㄹㅣ -9194
▁ㄱㅗㅇㅅㅏㄴㅈㅜㅇㅢㅈㅏ -9195
▁ㅍㅓㅂ -9196
▁ㅂㅜㄷㅏㅇ -9197
▁ㄷㅏㄴㄷㅏㄴ -9198
▁ㅂㅓㄹㅣㄴㄷㅏ -9199
▁ㄷㅗㅁㅏㅂㅐㅁㅂㅜㅌㅇㅣ -9200
▁ㅁㅣㅋㅏ -9201
▁ㅅㅓㅇㅅㅏ -9202
▁ㅇㅏㅂㅔㄹ -9203
▁ㄱㅣㅁㄱㅕㅇ -9204
▁ㅇㅣㄱㅣㄴ -9205
▁ㅅㅐㅇㅅㅏㄴㄹㅑㅇ -9206
▁ㄱㅜㅊㅜㄱㅎㅏㅁ -9207
▁ㅅㅗㅇㅅㅣㅇㅕㄹ -9208
▁ㅇㅣㅅㅏㄴㅎㅘ -9209
ㅔㅌㅏ -9210
▁ㅈㅜㅇㅣ -9211
▁ㄱㅕㄴㅈㅔ -9212
▁ㄴㅏㅋㅏㅁ -9213
▁ㅁㅚ -9214
ㅔㅌㅣ -9215
ㅊㅣㄹㅗ -9216
▁ㅋㅏㅁㅔㄹ -9217
▁ㅍㅜㅁㅈㅗㅇ -9218
▁ㅍㅡㄹㄹㅓㅅㅡ -9219
▁ㄱㅜㅇㅣ -9220
▁ㅇㅜㅇㅠ -9221
▁ㄸㅣㄴㄷㅏ -9222
▁ㅂㅔㅇㅓㅅㅡ -9223
▁ㅇㅜㄴㅎㅏ -9224
▁ㅎㅘㅇㅅㅣㄹ -9225
▁117 -9226
▁ㅌㅓㅊㅣ -9227
ㄱㅏㄹㅅㅐㄱ -9228
▁ㅇㅏㅂㅜ -9229
▁ㄱㅛㅈㅓㅇ -9230
▁ㅅㅏㅇㅅㅓ -9231
▁ㅅㅣㄴㅈㅜ -9232
▁ㅇㅛㄷㅗㅇ -9233
▁ㅅㅣㅂㅔㄹㅣㅇㅏ -9234
▁ㅇㅕㄷㅏㅇ -9235
▁ㅇㅠㄱㅊㅔ -9236
▁ㅃㅏㄹㄱㅏㄴㅅㅐㄱ -9237
▁ㅇㅗㅎㅐ -9238
▁ㅂㅗㅅㅓㄱ -9239
▁ㅅㅗㄴㅏㅌㅏ -9240
▁ㅊㅏㅇㅇㅝㄴㅅㅣ -9241
▁ㅈㅗㅅㅓㄴㅇㅣㄹㅂㅗ -9242
▁ㄸㅏㅅ -9243
▁ㅇㅏㅁㅅㅣ -9244
▁ㄷㅡㅁㅜㄴ -9245
▁ㅈㅏㅁㅣㄴ -9246
▁com -9247
▁ㄱㅡㄹㅗ -9248
▁ㄱㅘㄴㅎㅐ -9249
▁ㅁㅗㅇㅏㅆ -9250
▁ㅂㅗㅎㅗㄱ -9251
▁ㅇㅕㄴㅅㅙ -9252
▁ㄱㅗㅅㅗㄱㄷㅗ -9253
▁ㅈㅗㅈㅗㅇㅅㅏ -9254
▁ㅇㅕㅅ -9255
▁ㄱㅏㅈㅜㄱ -9256
▁ㄷㅗㅇㅇㅏ -9257
▁ㅍㅕㅇㅇㅢㅎㅚ -9258
▁ㄱㅡㄷㅗㅇㅇㅏㄴ -9259
ㅈㅗㅂㅜ -9260
▁ㅂㅣㄹㅣ -9261
▁ㅁㅏㄴㄴㅏㅁ -9262
▁ㅎㅣㅁㅇㅣㅂ -9263
▁ㅇㅑㅇㅋㅣㅅㅡ -9264
▁ㄴㅡㄹㅇㅓㄴㅏㅆ -9265
OL -9266
▁ㄱㅗㅅㅗ -9267
▁ㅇㅗㅂㅣ -9268
▁ㅇㅙㄴㅑ -9269
ㅠㄱㅣㄴㅣ -9270
▁ㅃㅏㅈㅣㄴ -9271
▁ㅇㅣㅇㅔㅇㅑㅅㅡ -9272
▁137 -9273
▁ㅇㅏㅋㅡ -9274
▁ㅍㅗㄹㅓㅁ -9275
▁ㅍㅡㄹㅗㄱㅔㅇㅣㅁㅓ -9276
▁ㅈㅔㄹㅗ -9277
▁ㅈㅓㅇㅅㅏ -9278
▁ㅋㅡㄹㅗㅁ -9279
▁ㅅㅣㄴㅅㅓㄴ -9280
▁ㅇㅘㅇㅂㅗㄱ -9281
▁ㅇㅏㄹㄹㅏ -9282
▁ㄱㅏㅁㅅㅏㅇ -9283
▁ㅁㅗㅅㅎㅏㄹ -9284
ath -9285
ond -9286
▁113 -9287
▁ㅇㅔㅇㅣㄹ -9288
ㅔㅇㅣㄹㅜ -9289
▁ㄴㅐㅂㅗㄴ -9290
▁ㄱㅛㄱㅘㅅㅓ -9291
▁ㄷㅏㄹㅎㅐㅆ -9292
▁ㄷㅗㅇㅁㅜㄴ -9293
▁ㄷㅐㅇㅢㅇㅝㄴ -9294
ㅗㅅㅣㄴ -9295
ㅃㅜㄹ -9296
▁121 -9297
▁ㅌㅐㄱㅝㄴ -9298
ㅁㅓㄹㅣ -9299
▁ㅎㅜㄱㅜㅇ -9300
▁ㅅㅏㅁㅅㅓㅇㅈㅓㄴㅈㅏ -9301
ov -9302
ㄸㅜㄱ -9303
▁RNA -9304
▁ㅂㅣㅇㅠ -9305
▁ㅋㅏㄹㅡㄹㄹㅗㅅㅡ -9306
ound -9307
▁ㄴㅜㄴㅏ -9308
▁ㄹㅜㅌㅓ -9309
▁ㅅㅣㄴㄴㅕㅁ -9310
▁ㅌㅡㅇㅟㅌㅓ -9311
▁173 -9312
▁1894 -9313
▁ㅅㅣㅇㅓ -9314
▁ㅇㅠㅈㅚ -9315
▁ㅇㅓㄴㄴㅣ -9316
▁ㅂㅏㅇㅣㅇㅗ -9317
▁ㅂㅜㅈㅔ -9318
▁ㅈㅜㅈㅜ -9319
▁ㅊㅓㄴㅈㅏㅇ -9320
ㅌㅗㅁㅗ -9321
▁ㅅㅡㄹㄹㅗㅂ -9322
▁ㅇㅣㄹㄹㅣㄴ -9323
▁ㅇㅏㅋㅏㄷㅔㅁㅣㅅㅏㅇ -9324
ory -9325
▁ㅅㅗㅅㅕㄹ -9326
▁ㅇㅝㄴㅎㅐㅆ -9327
▁ㅌㅡㅇㅟㄴㅅㅡ -9328
▁ㅎㅘㅈㅏㅇㅅㅣㄹ -9329
▁ㅅㅣㄴㅇㅑㄱ -9330
▁350 -9331
▁ㄱㅐㄱㅛ -9332
▁ㄱㅗㅇㅅㅡㅂ -9333
▁ㅌㅏㅁㅅㅐㄱ -9334
▁ㅆㅓㄴ -9335
▁ㅊㅣㅇㅏ -9336
▁ㄱㅠㅂㅓㅁ -9337
▁ㅋㅡㄹㄹㅏㅇㅜㄷㅡ -9338
▁CF -9339
ㅁㅏㅊㅣ -9340
▁ㅇㅣㄴㅊㅔ -9341
▁ㅋㅡㄹㄹㅣㅂ -9342
▁z -9343
▁be -9344
▁ㅂㅏㅇㅎㅘ -9345
▁ㅊㅣㅇㅏㄴ -9346
▁ㅊㅕㅆ -9347
▁ㄴㅜㄱㅜㄴㄱㅏ -9348
ㅇㅡㄴㅇㅣ -9349
▁ㄱㅡㄹㅐㄴ -9350
▁ㅇㅣㅇㅠㄴ -9351
▁ㅂㅓㅁㅇㅣㄴ -9352
▁ㄴㅗㅂㅏ -9353
▁ㄷㅏㅁㄱㅕ -9354
▁ㄴㅐㄹㅕㅇㅗ -9355
▁ㅎㅐㄱㅁㅜㄱㅣ -9356
ㅔㅇㅣㄹㅏ -9357
▁ㅍㅗㄱㅎㅐㅇ -9358
▁ㅅㅐㅇㄱㅕㄴㅏㅆ -9359
ㄴㅡ -9360
ㅏㄹㄹㅔ -9361
▁ㅋㅣㅇㅜ -9362
▁ㄱㅡㄴㅇㅝㄴ -9363
▁ㅅㅏㄹㅇㅏㄱㅏ -9364
▁ㅎㅢㅅㅐㅇㅈㅏ -9365
ㄱㅡㄹㅔㅇㅣㄷㅡ -9366
iver -9367
▁ㅊㅓㄴㅕ -9368
▁ㄷㅟㅅㅁㅕㄴ -9369
▁ㅇㅣㅂㅇㅝㄴ -9370
▁ㅈㅣㄴㄱㅡㅂ -9371
▁ㅇㅣㄹㅂㅏㄴㅇㅣㄴ -9372
▁ㅁㅣㅅㅕㄴ -9373
▁ㅈㅓㄴㅂㅗㄱ -9374
ㄱㅡㄹㄹ -9375
▁ㄹㅣㅇㅓㄹ -9376
▁ㄱㅗㄱㅇㅣㄴ -9377
▁ㄷㅏㅁㄱㅣㄴ -9378
▁ㅈㅏㅇㅕㄴㅅㅜ -9379
▁ㄸㅏㅆ -9380
▁ㅂㅜㅇㅢ -9381
ㅅㅏㄴㄷㅗㅇ -9382
▁ㅇㅣㄴㅁㅜㄴ -9383
▁ㅇㅓㅂㄱㅡㄹㅔㅇㅣㄷㅡ -9384
▁ㄹㅏㅂ -9385
▁ㅇㅕㅍㅏ -9386
▁ㄷㅡㄹㅇㅕ -9387
▁ㅇㅣㄴㅏㅁ -9388
▁ㄱㅡㅁㅏㄴㄷㅜ -9389
▁ㄱㅏㅁㅏㅋㅜㄹㅏ -9390
ㅂㅣㄴㅏ -9391
▁ㅁㅗㄴㅗ -9392
▁ㅁㅜㅇㅏㄴ -9393
▁ㅂㅜㅌㅇㅣㄴ -9394
▁ㅌㅐㄹㄹㅓㄴ -9395
▁ㅌㅔㅇㅣㅍㅡ -9396
▁ㅂㅓㅂㅁㅜㅂㅜ -9397
▁ㅊㅏㅈㅇㅏㅂㅗㄹ -9398
▁ㅁㅣㄹㅡ -9399
▁ㄱㅏㅊㅜㄱ -9400
▁ㅅㅓㅇㅂㅕㄹ -9401
▁ㅎㅘㄱㅅㅣㄴ -9402
▁ㅍㅣㄹㄹㅣㅍㅡ -9403
▁ㅁㅜㄹㄹㅕㅂㅏㄷ -9404
ㄴㅓㄼ -9405
▁ㅈㅔㄴㅣ -9406
▁ㄱㅓㅇㅜㄹ -9407
▁ㄱㅜㅊㅜㄹ -9408
▁ㅁㅜㄴㅇㅖ -9409
▁ㅅㅏㅁㅜㄱ -9410
▁ㄴㅗㅇㄹㅣㅁ -9411
▁ㅁㅐㄱㄹㅏㄱ -9412
▁ㄹㅏㅇㅣㄴㅓ -9413
ㅂㅏㄷㅏ -9414
▁ㅎㅏㄷㅗㅇ -9415
▁ㅁㅗㄴㅅㅡㅌㅓ -9416
▁ㅊㅗㅇㄷㅗㄱㅂㅜ -9417
man -9418
▁ㅈㅔㄷㅐ -9419
▁ㄱㅓㅊㅕㅆ -9420
▁ㄴㅏㄹㅆㅣ -9421
▁ㅎㅐㅁㅕㅇ -9422
▁ㅌㅐㄹㄹㅓㄴㅌㅡ -9423
▁ㄱㅏㅈㅏㅇㅈㅏㄹㅣ -9424
▁ㅂㅏㄷㅇㅏㄷㅡㄹㅇㅕㅆ -9425
▁ㅈㅡㅇㄷㅐ -9426
▁ㄱㅗㅇㅁㅣㄴ -9427
▁ㄷㅗㅇㅈㅓㅁ -9428
▁ㅎㅓㅇㅟ -9429
▁ㅅㅗㅇㅝㄴ -9430
▁ㅈㅏㄹㅏㄴ -9431
▁ㄱㅘㄴㅇㅡㅁ -9432
▁ㅇㅘㅆㅇㅡㅁㅕ -9433
▁ㅈㅣㅁㅣ -9434
▁ㄸㅏㅅㅈㅟ -9435
▁ㅊㅜㄱㅎㅏ -9436
▁ㅅㅣㄴㅈㅗㅇ -9437
▁ㅍㅔㄹㅡㄷㅣㄴ -9438
ㄲㅣㄹㅣ -9439
ㅣㅇㅏㄴㅜㅅㅡ -9440
▁ㅈㅔㅍㅡ -9441
▁ㅎㅐㄴㄷㅡ -9442
▁ㅍㅏㅇㅣㅇㅓ -9443
ㅡㄱㅗㄴ -9444
ㅣㅇㅔㄴ -9445
▁ㅇㅙㄱㅗㄱ -9446
ㅍㅜㄹㅡㅌㅡ -9447
▁ㅈㅜㅇㅓㅈㅣ -9448
▁ㅌㅗㅇㅌㅡㄹ -9449
ㄱㅗㄹㅐ -9450
▁ㅅㅡㅇㄱㅖ -9451
▁ㅅㅣㄹㅊㅔ -9452
▁ㅂㅏㅇㅗㄹㅗ -9453
▁ㅂㅣㄴㄱㅗㄴ -9454
ㄷㅐㅇㅝㄴㄱㅜㄴ -9455
ㅌㅓㅁ -9456
▁ㄴㅏㅁㅅㅓㅂㅜ -9457
▁ㅇㅏㄹㅈㅔㄹㅣ -9458
▁ㅋㅡㄹㅣㅅㅡㅌㅗㅍㅓ -9459
▁". -9460
▁ㄷㅐㅍㅗㄱ -9461
▁ㅈㅣㅍㅕㅇ -9462
▁ㄱㅔㅅㅡㅌㅡ -9463
▁ㅎㅏㄹㅁㅓㄴㅣ -9464
▁ㄴㅏㄴㅝ -9465
▁ㅎㅘㅎㅐ -9466
▁hPa -9467
▁ㅍㅡㅌ -9468
▁ㅂㅗㅈㅡㅇ -9469
▁ㅎㅚㅇㄷㅏㄴ -9470
▁ㅅㅏㅇㅜㄹㅜㅅㅡ -9471
▁ㅇㅏㅇㅖ -9472
▁ㄱㅕㅇㅂㅗ -9473
▁ㄱㅖㅈㅓㅇ -9474
▁ㅅㅓㅇㄷㅗ -9475
ㅍㅓㄹㅓㄴㅅㅡ -9476
▁ㅇㅠㄴㅊㅣㅎㅗ -9477
▁ㅌㅜㅇㅗㄱ -9478
▁ㅎㅏㄴㅈㅣ -9479
▁ㅇㅕㅇㅅㅏㄴ -9480
▁ㅇㅣㄹㅋㅓㄹ -9481
▁ㅈㅣㄴㄱㅗㅇ -9482
ㄷㅡㄹㄹ -9483
▁ㅂㅣㄹㅡ -9484
▁ㄷㅡㄹㅓㄴㅏㅆ -9485
▁ㄷㅣㄹㅔㄱ -9486
▁ㅁㅜㄴㄱㅜ -9487
▁On -9488
ㄸㅏㄱ -9489
▁ㅎㅏㄹㅡ -9490
ㅈㅜㄹㄱㅣ -9491
▁ㄷㅏㄱㅏㄱ -9492
▁ㅇㅛㅇㅂㅕㅇ -9493
▁ㄱㅣㅇㅓㅂㅇㅣㄴ -9494
ich -9495
ㄷㅡㄹㅡ -9496
▁ㅂㅏㄴㄱㅕㅇ -9497
▁ㄱㅚㅇㅈㅏㅇㅎㅣ -9498
MA -9499
▁ㅁㅗㅇㅣ -9500
▁ㅊㅗㄹㅗㄱ -9501
ㅊㅣㄱㅣ -9502
▁ㅍㅗㅂㅕㅇ -9503
▁ㅎㅕㅂㅂㅏㄱ -9504
▁ㅂㅏㅌㅣㅋㅏㄴ -9505
▁New -9506
▁ㄷㅜㅇㅈㅣ -9507
▁ㄱㅣㅁㅈㅓㅇㅇㅣㄹ -9508
▁ㄷㅔㅁㅗ -9509
ㄹㅗㅇㅝㄴ -9510
▁World -9511
▁ㅅㅏㅇㅍㅛ -9512
▁ㅈㅡㅇㅅㅗㄴ -9513
▁ㅇㅕㄴㅎㅏㅂㄱㅜㄱ -9514
▁ㅁㅗㅈㅏ -9515
▁ㄱㅏㅅㅣㄴ -9516
▁ㅈㅏㅇㅡㅁ -9517
ㅅㅑㅇ -9518
ㅎㅏㄹㅜ -9519
▁ㅍㅏㄴㅂㅗㄴ -9520
▁ㄱㅗㄱㅗㅎㅏㄱ -9521
ㅈㅕㄴ -9522
ㄷㅏㄹㄹㅣ -9523
▁ㅁㅗㄹㄹㅐ -9524
▁ㅅㅓㅁㅣㄴ -9525
▁ㄱㅔㅇㅣㅈㅣ -9526
▁ㄱㅜㄴㅈㅓㅇ -9527
▁CR -9528
▁ㄷㅐㅁㅕㅇ -9529
▁ㅍㅔㄹㄹㅣ -9530
mer -9531
▁114 -9532
▁124 -9533
▁ㅎㅜㅅㅏ -9534
ㅌㅏㄹㅣㅇㅗ -9535
ㅍㅡㄹㅔㅅㅡ -9536
▁ㅍㅔㅇㅣㅅㅡ -9537
ㅋㅏㅁㅣ -9538
▁ㅁㅣㄹㅏ -9539
▁ㅇㅣㅌㅏㄹㄹ -9540
▁ㅇㅣㅇㅓㅈㅣㄴ -9541
▁ㅈㅔㅈㅐ -9542
▁ㅋㅓㅁㅠㄴㅣㅋㅔㅇㅣㅅㅕㄴ -9543
▁ㅇㅠㄴㅕㄴ -9544
▁ㅊㅚㄱㅏㅇ -9545
▁ㅌㅏㄷㅏㅇ -9546
▁ㅅㅓㅇㅁㅜㄴ -9547
▁ㅇㅙㄴㅑㅎㅏㅁㅕㄴ -9548
▁ㅅㅣㅂㅏ -9549
▁ㅇㅣㅇㅗ -9550
▁ㅎㅏㄱㅁㅕㅇ -9551
▁ㄷㅗㄱㅇㅣㄹㅇㅣㄴ -9552
ㄷㅗㄱㅛ -9553
▁ㄷㅐㅍㅣ -9554
▁ㅍㅖㄱㅣ -9555
▁ㅇㅕㄴㅅㅜ -9556
▁ㅋㅗㄹㄹㅣㄴ -9557
▁SU -9558
▁ㄲㅐㄷㅏㄷ -9559
▁ㅅㅏㅇㅅㅏ -9560
▁ㅈㅜㄹㅇㅕㅅㅓ -9561
▁ㄷㅣㅂㅣㅅㅣㅇㅗㄴ -9562
▁ㄱㅜㅈㅓㄹ -9563
▁ㅇㅣㄹㅈㅗ -9564
▁ㄱㅜㅅㅡㅌㅏ -9565
ㄴㅐㅇㅚ -9566
▁1890 -9567
▁ㅇㅏㄴㅏ -9568
▁ㅅㅓㄴㅂㅣ -9569
▁ㅇㅑㅇㅎㅗ -9570
▁ㄱㅜㄱㄴㅐㅇㅚ -9571
▁ㄱㅡㄱㅅㅣㅁ -9572
▁ㅇㅑㅇㅊㅡㄱ -9573
▁ㅁㅜㄹㄹㅣㅊㅣ -9574
▁ㄱㅡㄱㅈㅏㅇㅍㅏㄴ -9575
ㅎㅔㄹ -9576
ㅗㄹㄹㅡㅁ -9577
▁ㅎㅕㄹㄱㅘㄴ -9578
ial -9579
ign -9580
▁118 -9581
▁ㅋㅗㄹㄹㅏ -9582
▁ㅇㅣㄹㅂㅏㅇ -9583
▁ㅅㅜㅅㅐㄱ -9584
▁ㄱㅐㅈㅗㅇ -9585
▁ㅊㅓㄹㅎㅚ -9586
▁ㅅㅡㅋㅡㄹㅣㅂ -9587
▁ㅍㅡㄹㅗㄷㅓㄱ -9588
▁ㄴㅜㄱㅏ -9589
▁ㄹㅣㅇㅜ -9590
▁ㅎㅏㄱㄱㅖ -9591
▁ㄱㅕㄹㅎㅏㅁ -9592
▁ㅈㅗㅇㅊㅏㄱ -9593
▁ㄷㅏㄹㅜㄴㄷㅏ -9594
▁EC -9595
▁Sc -9596
ㄴㅗㄹ -9597
▁ㅇㅜㅎㅗ -9598
▁ㄱㅣㅁㄱㅠ -9599
▁ㅁㅗㅊㅣㄴ -9600
▁ㅅㅔㅅㅗㄱ -9601
▁ㅇㅣㄹㅅㅐㅇ -9602
▁ㅅㅜㅇㅛㅇㅊㅔ -9603
▁ㄷㅡㄹㅏㅇㅣㅂㅓ -9604
▁ㅇㅣㄹㄹㅣㄴㅗㅇㅣ -9605
ㅋㅏㄹㅏㄱ -9606
▁ㄷㅏㄱㅏㅇ -9607
▁ㅎㅔㄹㄹㅣ -9608
▁ㅇㅣㅇㅓㅈㅣㄴㄷㅏ -9609
ㅅㅣㅌㅏ -9610
▁ㄴㅏㅂㅣ -9611
ㅅㅡㅌㅗㄹ -9612
▁ㅇㅏㄱㄷㅏㄴ -9613
▁ㅇㅗㄹㅣㅋㅗㄴ -9614
▁ㅂㅏㅅㅡ -9615
▁ㅊㅔㅈㅗ -9616
▁ㅂㅔㄹㄹㅏㄹ -9617
▁ㅇㅝㄴㅈㅓㄴ -9618
▁ㅈㅗㅂㅜ -9619
ㅇㅓㅂㅓㄹ -9620
▁ㄱㅜㅇㄱㅡㄱ -9621
▁ㅇㅗㅍㅡㄴㅣㅇ -9622
▁ㅌㅟㄹㅡ -9623
▁ㄴㅐㅈㅓㅇ -9624
▁ㅇㅛㄱㅓㄴ -9625
▁ㅎㅏㅇㅈㅐㅇ -9626
▁ㅅㅒ -9627
▁ㅎㅓㄱ -9628
▁ㅋㅐㅅㅣ -9629
▁ㅎㅐㄱㅗ -9630
▁ㅁㅔㄹㄹㅗㄷㅣ -9631
▁ㅇㅠㅈㅓ -9632
ㄷㅏㄴㅊㅔ -9633
▁ㅇㅏㄹㅐㅅ -9634
▁ㄱㅡㄴㄹㅗㅈㅏ -9635
▁ㄹㅏㅇㅣㅇㅗㄴㅈㅡ -9636
▁ㅁㅓㄴㅈㅣ -9637
ㅣㅁㅐㄱ -9638
▁ㅇㅣㄹㅜㄴ -9639
▁ㅈㅐㅅㅏㅇ -9640
▁ㄱㅗㅇㅂㅐㄱ -9641
▁ㅍㅏㄹㅏㄴㅅㅐㄱ -9642
▁ㅎㅡㄴㅎㅏ -9643
▁ㅅㅡㄹㄹㅗㅂㅔㄴㅣㅇㅏ -9644
▁ㄱㅡㄷㅐ -9645
▁ㅈㅏㅅㅓㄴ -9646
hn -9647
ㅂㅔㅇㅣ -9648
▁ㅍㅕㅇㅈㅓㅇ -9649
▁ㅌㅔㅅ -9650
▁ㄱㅗㅇㅂㅏㅇ -9651
ㅓㄹㄹㅣㅅㅡㅌㅡ -9652
▁ㅎㅣㅇㅓㄹㅗㅈㅡ -9653
ㅗㅂㅓ -9654
IP -9655
▁ㅇㅐㅁ -9656
▁ㅅㅏㅅㅏㄹ -9657
▁ㅈㅏㅌㅐㄱ -9658
▁ㅂㅔㄴㅔㄷㅣㄱ -9659
▁ㅂㅏㄴㅈㅣㄹㅡㅁ -9660
▁ㅂㅏㅇㅅㅏㅅㅓㄴ -9661
▁ㅁㅏㄺ -9662
ㄷㅗㄹㄹ -9663
ㄱㅣㄴㅕㅁ -9664
▁ㅇㅛㄱㄱㅜ -9665
▁ㅅㅣㄴㅅㅏㅇ -9666
▁ㄲㅏㄲ -9667
ㅈㅡㅂㅔ -9668
▁ㄹㅣㅇㅗ -9669
ㅎㅘㅇㅎㅜ -9670
▁ㄱㅘㄴㄱㅜ -9671
▁ㄷㅟㅈㅣㅂ -9672
▁ㅇㅣㄹㄱㅏ -9673
▁ㅋㅓㄴㅓㄹ -9674
▁ㄱㅣㅁㅎㅕㄴ -9675
▁ㅁㅏㄴㅇㅣㄹ -9676
▁ㅇㅜㅈㅡㅂㅔ -9677
▁ㅎㅣㅁㄷㅡㄴ -9678
▁ㄷㅡㄹㅇㅓㅇㅗㄴ -9679
▁ㅅㅓㅈㅏ -9680
ㄷㅜㄱㅛ -9681
ㅅㅖㅂㅣ -9682
ㅅㅡㅇㅂㅜ -9683
▁ㅍㅏㅇㅣㄴㅓㄹ -9684
▁ㅅㅔㅂ -9685
ㅗㄴㅌㅡ -9686
▁1898 -9687
▁ㅂㅗㅇㅇㅏㄴ -9688
▁ㅌㅜㄴ -9689
ㅠㄹㅓㅂ -9690
▁ㄴㅡㄲㅕ -9691
▁ㄷㅗㅊㅓㅇ -9692
▁LC -9693
▁SD -9694
▁ㄷㅏㄴㅕㅇ -9695
▁ㅁㅏㄹㅣㄴ -9696
▁ㅊㅣㅇㅊㅏㄴ -9697
▁ㅇㅓㅁㅣ -9698
▁ㄱㅣㅈㅣㄹ -9699
▁ㅁㅗㄹㅗㅋㅗ -9700
▁ㄹㅔㅂㅏㄴㅗㄴ -9701
▁ㅅㅣㅈㅓㅇ -9702
▁ㄷㅜㅇㄱㅡㄹ -9703
▁ㅇㅞㅅㅡㅌㅓㄴ -9704
ㅑㄴㅡㄴ -9705
▁ㅇㅗㅂㅅㅕㄴ -9706
▁ㅂㅓㅁㅇㅠㅎㅐㅇ -9707
ㅠㅁㅗ -9708
▁115 -9709
▁ㅋㅔㄴㅑ -9710
▁ㅎㅚㅅㅏㅇ -9711
▁ㅂㅡㄹㄹㅐㄱㅎㅗㄹ -9712
ㅈㅓㅈㅣ -9713
▁ㄱㅣㅇㅓ -9714
▁ㅁㅗㄴㅣ -9715
▁ㅇㅖㅅㅣ -9716
▁ㄱㅗㄴㄹㅏㄴ -9717
▁ㄱㅓㅁㅊㅏㄹㅊㅓㅇ -9718
▁ㅅㅏㅂㅗㄴ -9719
▁ㅊㅐㄹㄹㅣㄴㅈㅣ -9720
▁GS -9721
ㅇㅡ -9722
ㅈㅏㅇㅣ -9723
▁ㄱㅡㄴㅑㅇ -9724
▁ㅅㅣㄱㅏㅈㅣ -9725
▁ㅅㅣㅇㅟㄷㅐ -9726
▁ㅁㅣㅎㅏㅇㅣㄹ -9727
ㅈㅜㄹㅗ -9728
▁ㅎㅢㄱㅟ -9729
▁ㅇㅚㅇㅑㅅㅜ -9730
▁ㅈㅡㄱㄱㅏㄱ -9731
▁ㄴㅔㅅㅡ -9732
▁ㅇㅓㄱㅡㅅ -9733
▁ㅈㅣㄴㅏㄱ -9734
▁ㅅㅏㅇㅟ -9735
▁ㅂㅜㄷㅣㅈ -9736
▁GP -9737
▁ㅅㅗㄱㅠㅁㅗ -9738
▁ㅎㅔㅇㅓ -9739
▁ㄴㅐㅇㅈㅓㄴ -9740
▁ㅍㅜㄹㄹㅕㄴ -9741
▁ㅇㅝㅋㅡ -9742
▁ㄱㅘㅂㅏㄴ -9743
▁ㅋㅔㅇㅣㅁ -9744
▁ㅌㅐㄱㅡㄱ -9745
▁ㄱㅖㅇㅕㄹㅅㅏ -9746
▁ㅍㅡㄹㄹㅐㅅㅣ -9747
▁ㄱㅘㅇㅎㅐㄱㅜㄴ -9748
ㅆㅏㄴ -9749
▁129 -9750
ㅇㅣㅊㅣ -9751
▁ㅂㅐㅎㅜ -9752
▁ㄴㅏㅁㄱㅜ -9753
▁ㅂㅣㄹㄹㅕ -9754
▁ㅎㅔㄹㄱㅣ -9755
▁ㅊㅚㄷㅐㅎㅏㄴ -9756
ㅗㅇㅣㅌㅡ -9757
▁ㅁㅐㄱㅅㅡ -9758
▁ㅊㅗㅇㅝㄹ -9759
rom -9760
▁ㅎㅘㅇㅈㅗㄱ -9761
ㅂㅏㅇㅅㅗㅇㄱㅗㅇㅅㅏ -9762
ㅔㄱㅌㅡ -9763
▁ㄱㅏㅇㅗㄱ -9764
▁ㅍㅐㄹㅓㄹ -9765
▁ㄴㅠㅈㅓㅈㅣ -9766
▁JT -9767
▁ㅍㅜㅇㅈㅏ -9768
ㅈㅜㄹㅣ -9769
▁ㅇㅛㅈㅓㅇ -9770
▁ㅇㅏㅇㅣㄷㅣ -9771
▁ㄱㅏㅁㅈㅏ -9772
▁ㅈㅓㄴㅓㄹ -9773
▁ㅊㅜㄱㅊㅜㄹ -9774
▁ㄷㅔㄹㅡ -9775
▁ㅁㅣㄹㅜ -9776
▁ㅇㅣㄴㅁㅕㅇ -9777
▁ㅅㅓㅇㄹㅣㅎㅏㄱ -9778
▁III -9779
▁ㄹㅓㅁ -9780
▁ㅈㅣㅇㅣㄴ -9781
▁ㅎㅗㅊㅜㄹ -9782
▁ㄷㅏㅅㅡ -9783
▁ㄹㅗㅇㅜ -9784
ㄹㅣㅅㅡㅌㅡ -9785
▁ㄱㅕㅇㅅㅣㄴ -9786
▁ㅅㅏㅇㅎㅐ -9787
▁ㄴㅏㅁㅁㅣ -9788
▁ㅋㅐㄴㅈㅏㅅㅡ -9789
▁ㄷㅗㄹㅡ -9790
▁ㄱㅡㄱㅈㅏㄱ -9791
▁ㅇㅢㅇㅑㄱㅍㅜㅁ -9792
▁ㄱㅕㅇㅊㅏㄹㄱㅘㄴ -9793
ㄷㅗㄱㅜㄴ -9794
▁ㄱㅏㅇㅅㅓ -9795
▁ㄷㅏㄷㅏ -9796
▁ㅇㅗㄴㅗ -9797
▁ㅇㅛㅇㅇㅣ -9798
▁ㅈㅐㅎㅗㄴ -9799
▁ㅇㅏㄹㄹㅜㅁㅣㄴ -9800
▁ㅍㅓㅈㅣ -9801
▁ㄷㅗㄹㄱㅕㄱ -9802
▁ㅁㅏㅇㅜㄴㅌㅡ -9803
▁ㅌㅗㅇㅊㅣㅈㅏ -9804
ㅇㅏㄴㅐㅆ -9805
▁ㅂㅣㅅㅓㄱ -9806
▁ㅇㅘㅇㅅㅔ -9807
▁ㄷㅗㅁㅣㄴㅣ -9808
ㅂㅡㄹㅣㅈㅣ -9809
▁ㅇㅏㄴㅌㅗㄴㅣㅇㅗ -9810
ph -9811
ㅎㅣㅋㅗ -9812
▁ㅇㅓㄹㅕㅆ -9813
▁ㅈㅔㅇㅏㅂ -9814
▁ㅇㅞㅂㅌㅜㄴ -9815
▁ㅈㅓㅇㅂㅕㄴ -9816
▁ㅂㅔㄹㄹㅏㄹㅜㅅㅡ -9817
ㅆㅜ -9818
ㄷㅐㅅㅓㅇ -9819
urn -9820
ㄱㅣㅅㅡ -9821
ㄷㅗㅂㅏ -9822
▁ㅁㅣㄱㅅㅡ -9823
▁ㅂㅏㄴㅎㅐ -9824
ㅅㅜㅅㅗ -9825
▁ㅊㅣㅁㅌㅜ -9826
▁ㅁㅏㅇㅣㅋㅡㄹㅗ -9827
▁ㅁㅏㄱㄴㅐ -9828
▁ㅋㅙㅅㅗㄱ -9829
ㅎㅐㅁ -9830
▁ㄱㅚㅁㅜㄹ -9831
▁ㅅㅡㅇㅈㅏ -9832
▁ㅇㅣㄲㅡㄴ -9833
▁ㅍㅗㄱㅍㅗ -9834
▁ㅁㅣㅅㅗ -9835
▁ㅈㅣㅊㅣㅁ -9836
▁ㅇㅗㄹㄹㅏㅇ -9837
▁ㅊㅓㅇㅈㅜㅅㅣ -9838
ㅁㅏㄷㅡ -9839
ction -9840
▁ㄱㅗㅊㅕ -9841
▁ㅂㅜㅍㅣ -9842
▁ㅆㅏ -9843
▁ㄷㅏㅋㅡ -9844
▁ㄴㅠㅌㅓㄴ -9845
▁ㄱㅘㅇㅈㅜㄱ -9846
▁ㅊㅓㅁㄷㅏㄴ -9847
▁ㅇㅝㄹㅇㅛㅇㅣㄹ -9848
▁ㅅㅓㄴㄷㅗ -9849
▁ㅍㅣㄹㅅㅏ -9850
▁ㅂㅗㄴㄱㅜㄱ -9851
▁ㅊㅓㄴㅁㅜㄴㄷㅐ -9852
▁ㅅㅡㅇㅂㅜㅊㅏㄱㅣ -9853
▁ㅇㅗㄴㅌㅏㄹㅣㅇㅗ -9854
▁ㅈㅓㅇㄹㅕ -9855
▁ㅈㅣㅇㄱㅖ -9856
ㅗㄹㄹㅏㅇㅣㄴㅏ -9857
▁ㅍㅡㄹㅗㄷㅓㄱㅅㅕㄴ -9858
▁142 -9859
▁ㅇㅖㅎㅏ -9860
▁ㄱㅕㄹㅋㅗ -9861
▁ㅁㅐㄴㅣㅈㅓ -9862
▁ㅂㅕㄱㄷㅗㄹ -9863
▁ㅊㅗㅇㅊㅣㅇ -9864
▁ㅎㅡㄴㅎㅏㄴ -9865
ㅋㅛ -9866
ㅇㅏㅁㅓㄱ -9867
ㅣㄹㄹㅔㅇㅣ -9868
▁Ne -9869
▁ㄷㅜㄹㅜ -9870
ㅊㅓㄴㄹㅣ -9871
▁ㅇㅡㄴㄷㅔ -9872
▁ㅈㅐㅅㅓㄴ -9873
▁ㅅㅜㄱㅊㅓㅇ -9874
▁ㅇㅞㄴ -9875
▁1899 -9876
▁ㅇㅑㅁㅏㅌㅗ -9877
▁ㄹㅔㅅㅡㄹㄹㅣㅇ -9878
▁ㅂㅔㅅ -9879
▁ㄱㅜㅎㅏㄹ -9880
▁ㅂㅏㄺㄱㅣ -9881
▁ㅊㅜㄱㅁㅜㄹ -9882
▁ㅅㅏㅅㅏㅇㅈㅏ -9883
TS -9884
▁ㅇㅜㅊㅡㄱ -9885
▁ㅈㅗㅈㅣㅍㅡ -9886
▁ㄱㅘㅇㅈㅜㄱㅘㅇㅇㅕㄱㅅㅣ -9887
▁` -9888
▁CJ -9889
ㅋㅗㄷㅣㅇ -9890
ㅈㅣㄴㄱㅜㄴ -9891
ㅌㅔㄹㅡㅂㅜㄹㅡㅋㅡ -9892
ㅎㅏㅁㅅㅜ -9893
ㅎㅘㅁㅜㄹ -9894
▁ㄱㅘㄴㅈㅔ -9895
▁ㅍㅗㄱㄴㅓㄼ -9896
▁ㅎㅗㄴㄷㅗㅇ -9897
ㅂㅏㄷㅏㄱ -9898
▁ㅈㅜㅇㅅㅏㄴ -9899
▁ㅅㅏㄹㅍㅕㅂㅗ -9900
▁ch -9901
▁ㅇㅚㅁㅗ -9902
▁ㄹㅓㅅㅔㄹ -9903
▁ㅁㅏㄴㄹㅛ -9904
▁ㅎㅚㄱㅘㄴ -9905
▁ㅁㅣㄹㅈㅣㅂ -9906
▁ㄷㅐㅅㅓㅇㅑㅇ -9907
▁ㄱㅣㅈㅡㅇ -9908
▁ㄴㅏㅇㅗㄹ -9909
pp -9910
ㅍㅗㄹㅗ -9911
▁ㅅㅗㅁㅐ -9912
▁ㅁㅏㅆㅡㅇ -9913
▁ㅅㅓㅈㅣㄴ -9914
▁ㅅㅜㄴㅈㅗ -9915
▁ㅇㅠㅈㅣㄴ -9916
▁ㅊㅟㅇㅓㅂ -9917
▁ㅎㅏㄱㅇㅓㅂ -9918
▁ㅂㅜㅇㅢㅈㅏㅇ -9919
▁ㅈㅏㅇㄹㅖㅅㅣㄱ -9920
▁ㅈㅜㅂㅜ -9921
ㅈㅐㅇㅇㅣ -9922
▁ㅁㅏㄹㅆㅡㅁ -9923
▁ㅈㅓㄻㅇㅡㄴㅇㅣ -9924
▁ㄷㅏㄲ -9925
▁ㅇㅣㄷㅡ -9926
▁ㅅㅏㅇㅣㅋㅡㄹ -9927
▁ㅈㅓㄴㅈㅏㄱㅣ -9928
▁ㄱㅏㄹㅜ -9929
▁ㄹㅣㅂㅠ -9930
▁ㄷㅐㅅㅗㄴ -9931
▁ㅇㅓㄹㅕㅇㅝ -9932
▁ㅋㅓㄴㅅㅔㅂ -9933
▁ㅂㅡㄹㅣㅌㅡㄴ -9934
▁ㅇㅕㄴㅅㅏㄴㅈㅏ -9935
▁ㅋㅛ -9936
▁ㅂㅏㄹㅂㅕㅇ -9937
▁ㄱㅡㅁㅇㅛㅇㅣㄹ -9938
▁ㄷㅐㅂㅜ -9939
▁ㅁㅏㄷㅣ -9940
▁ㅁㅔㄹㄹ -9941
▁ㅊㅗㅇㅅㅏㄹㅕㅇ -9942
▁ㅁㅣㅅㅔ -9943
▁ㅌㅚㅇㅣㅁ -9944
▁ㅁㅕㅇㅈㅗㅇ -9945
▁ㅍㅣㄱㅕ -9946
ㅎㅏㅇㅣㅁ -9947
▁ㅅㅗㅅㅐㅇ -9948
▁ㅇㅗㅇㄹㅣㅂ -9949
lan -9950
▁ㄱㅏㄱㄷㅗ -9951
▁ㅈㅓㄴㄴㅕㄴ -9952
▁ㅋㅣㅂㅗㄷㅡ -9953
▁Man -9954
ㄷㅏㅁㅕ -9955
▁ㅈㅓㄱㅎㅕ -9956
▁ㅈㅗㅇㅅㅗㄱ -9957
▁ㅇㅕㄴㅇㅖㅇㅣㄴ -9958
ens -9959
ㅈㅗㄱㅓㄴ -9960
▁ㅂㅜㅇㅕㅂㅏㄷ -9961
▁ㅇㅝㄴㄹㅗㅇㅝㄴ -9962
▁ㄱㅔㅇㅗㄹㅡ -9963
▁ㄷㅗㅇㅈㅓㅇ -9964
▁ㅂㅡㄹㅣㅈㅣ -9965
▁ㄱㅛㅌㅗㅇㄱㅜㄱ -9966
▁1902 -9967
▁ㅇㅜㅊㅔ -9968
▁ㅅㅓㄹㅎㅘ -9969
▁ㅍㅏㅅㅏㄴ -9970
▁ㅋㅔㅂㅣㄴ -9971
▁ㅇㅣㄴㅈㅣㄹ -9972
ㅡㄱㅏㅇ -9973
▁ㅎㅘㄹㅕㄱ -9974
▁ㄱㅘㅇㄷㅜㅇ -9975
ㅌㅏㅈㅜ -9976
▁ㅇㅏㅈㅡ -9977
ㅌㅏㅁㅣㄴ -9978
▁ㄷㅐㅎㅏㅂ -9979
▁ㅍㅡㄹㄹㅏㅅㅡㅌㅣㄱ -9980
▁ㅇㅠㅂㅏㅇ -9981
▁ㅊㅔㅋㅗㅅ -9982
▁ㅎㅖㅌㅐㄱ -9983
▁ㄱㅡㄱㅎㅏㄴ -9984
▁ㅅㅔㅇㅣㅂㅡ -9985
▁ㅂㅜㄴㅁㅕㅇㅎㅣ -9986
▁ㅊㅔㅋㅗㅅㅡㄹㄹㅗ -9987
▁ㅊㅔㅋㅗㅅㅡㄹㄹㅗㅂㅏㅋㅣㅇㅏ -9988
▁ㅇㅓㄹㅡㄴ -9989
▁ㄱㅓㄹㅐㅅㅗ -9990
▁ㅇㅣㅁㅇㅝㄴ -9991
▁ㅌㅗㅊㅏㄱㅈㅗㅇ -9992
▁ㄷㅓㄱㅡㄹㄹㅓㅅㅡ -9993
lic -9994
▁ID -9995
▁ㅋㅣㄹㅡ -9996
▁ㄱㅏㅎㅘㄴ -9997
▁ㄲㅣㅊㅕㅆ -9998
▁ㅁㅜㅁㅕㅇ -9999
▁ㅁㅏㄱㅅㅣㅁ -10000
ㅡㄹㅓㅁㅣ -10001
▁ㅈㅣㅇㅗㄱ -10002
▁ㅋㅔㄹㄹㅣ -10003
▁ㅌㅗㅇㅂㅗ -10004
▁ㅉㅗㅊㄱㅕㄴ -10005
▁ㅍㅡㄹㄹㅐㅅㅍㅗㅁ -10006
▁ㄱㅡㅊㅣ -10007
▁ㅎㅘㅅㅏㅇ -10008
▁ㄷㅓㄴㅣ -10009
▁ㅁㅣㅋㅣ -10010
▁ㅇㅣㅅㅔ -10011
▁ㅊㅐㅅㅗ -10012
▁ㄹㅜㄱㅅㅔㅁ -10013
▁ㅂㅗㅇㄱㅓㄴ -10014
▁ㅇㅏㄹㄹㅜㅁㅣㄴㅠㅁ -10015
▁ㄱㅜㄱㅕㅇ -10016
▁ㅌㅏㄴㄷㅗ -10017
▁ㄷㅏㄹㄱ -10018
▁ㅁㅜㅇㅓ -10019
▁ㅇㅑㅁㅏㄱ -10020
▁ㄴㅏㄴㅈㅣㅇ -10021
▁ㅇㅕㄴㄲㅗㅊ -10022
▁ㄱㅗㅇㅈㅗ -10023
▁ㄷㅗㅇㄹㅐ -10024
▁ㅅㅣㅁㅎㅐ -10025
▁ㅇㅡㅇㅅㅣ -10026
▁ㄱㅐㅁㅏㄱㅈㅓㄴ -10027
▁ㄷㅐㅅㅓㅇㄷㅏㅇ -10028
ㅠㄹㄹㅔㅇㅣㅅㅕㄴ -10029
▁'' -10030
ㅣㅇㅑㅁㅏ -10031
▁ㅇㅏㅇㅣㄹ -10032
▁ㅁㅏㄴㅅㅓㅇ -10033
▁ㅇㅝㄴㅈㅗㅇ -10034
▁ㅎㅏㄴㅈㅗㄱ -10035
▁ㄱㅣㅅㅏㄷㅏㄴ -10036
▁ㄹㅠㄴ -10037
▁ㅇㅓㄵ -10038
▁ㅇㅔㄹㄹ -10039
▁ㅇㅕㄴㅇㅣ -10040
▁ㅅㅣㄴㅇㅝㄴ -10041
▁ㅁㅐㅁㅐ -10042
▁ㄸㅏㅇㅗㄴ -10043
▁ㅂㅕㄴㅇㅣ -10044
▁ㅍㅏㄹㄹㅣ -10045
▁ㅈㅣㄴㅅㅏ -10046
▁ㄱㅏㅇㄷㅗㅇ -10047
▁ㅂㅏㄹㄱㅡㅂ -10048
▁ㅇㅕㄴㅅㅡㅇ -10049
ㅔㄴㅣ -10050
▁ㄷㅐㄱㅓ -10051
▁ㅎㅟㅂㅆ -10052
▁ㄱㅏㅁㅁㅏ -10053
▁ㄴㅚㅁㅜㄹ -10054
▁ㅎㅣㄴㄷㅜㄱㅛ -10055
▁ㅎㅏㅊㅏ -10056
ㄹㅡㄷㅏㄴ -10057
▁ㄱㅣㄱㅏㄱ -10058
▁ㅂㅜㄴㅂㅣ -10059
▁ㅎㅏㄷㅏㄴ -10060
▁ㄱㅗㅇㄱㅏㅁ -10061
▁ㅅㅡㅈㅡㅋㅣ -10062
▁ㅇㅑㅇㅂㅏㄴ -10063
▁ㅎㅔㄹㄹㅔㄴ -10064
ㄲㅜㅁ -10065
ㅗㄹㅜ -10066
▁ㄹㅗㅂㅣ -10067
▁ㅇㅖㅈㅗ -10068
▁ㄱㅗㅇㅈㅓㄱ -10069
▁ㅈㅜㅇㅎㅕㅇ -10070
TC -10071
▁ㅋㅜㄱ -10072
▁ㄹㅗㄹㅏ -10073
ㅏㅇㅣㅈㅡ -10074
▁ㄱㅏㄴㅅㅓㄴ -10075
▁ㅍㅡㄹㅏㄴㅊㅡ -10076
▁ㅋㅓㅈㅣ -10077
▁ㅂㅔㄹㄹㅣ -10078
▁ㅈㅓㄴㅅㅗㄱ -10079
▁ㅂㅣㅎㅐㅇㅈㅏㅇ -10080
▁BS -10081
▁ㄹㅓㅅㅡ -10082
▁ㄱㅣㄷㅏㄹ -10083
▁ㅂㅣㄹㅗㅅㅗ -10084
▁ㅅㅗㄴㅏㅁㅜ -10085
▁ㅇㅚㄴㅅㅗㄴ -10086
▁ㅅㅡㅌㅏㄹㅣㄱㅡ -10087
ary -10088
▁IM -10089
ㄷㅏㅈㅣ -10090
▁ㅌㅗㄲㅣ -10091
▁ㅅㅜㅂㅜㄴ -10092
▁ㄴㅏㅁㅈㅏㄱ -10093
▁ㄷㅏㅂㅂㅕㄴ -10094
▁ㅅㅔㅇㅣㅂㅜ -10095
▁ㅊㅏㅇㅊㅜㄹ -10096
▁ㅌㅗㅇㅑㅇ -10097
▁ㄲㅡㄹㅇㅓㄷㅡㄹ -10098
▁ㄷㅏㅎㅏㅇㅅㅣㄱ -10099
▁ㅇㅣㄱㅅㅡㅍㅡㄹㅔㅅㅡ -10100
▁ㅍㅡㄹㅏㅇㅋㅡㅍㅜㄹㅡㅌㅡ -10101
▁ㄹㅑ -10102
ㅍㅔㅅ -10103
▁ㅅㅐㅇㅊㅔ -10104
▁ㅅㅣㅂㅓㅁ -10105
▁ㄱㅜㄱㅇㅕㅇ -10106
▁ㅈㅜㅇㅂㅗㄱ -10107
▁ㅇㅞㅅㅡㅌ -10108
▁ㅇㅣㄱㅘㄴ -10109
▁ㅈㅓㄱㄷㅗ -10110
▁ㄱㅣㅅㅜㄹㅈㅏ -10111
ㄹㅣㅇㅣㄴ -10112
▁ㅇㅣㅂㅡㄴ -10113
▁ㅅㅓㅅㅣㄴ -10114
▁ㅍㅗㅎㅚㄱ -10115
▁ㅋㅗㅁㅣㄱㅅㅡ -10116
▁ㅍㅗㅋㅔㅅㅁㅗㄴㅅㅡㅌㅓ -10117
ㅌㅠㅁ -10118
▁ㄷㅐㅅ -10119
▁ㄹㅓㅇ -10120
ㅏㄱㅗㄴ -10121
▁ㄴㅐㅈㅜ -10122
▁ㅊㅓㄱㅊㅜ -10123
▁ㅇㅕㅇㄷㅡㅇ -10124
▁ㅇㅕㅇㅁㅜㄴ -10125
▁ㅁㅜㅅㅡㅇㅂㅜ -10126
▁ㄱㅣㄴㅣ -10127
ㅁㅣㅅㅏㅇ -10128
▁ㅅㅏㅅㅡㅁ -10129
▁ㅎㅘㄱㅏㅇ -10130
▁ㄷㅗㅇㅎㅏㄱ -10131
▁ㄱㅏㅂㅕㅇㅜㄴ -10132
▁ㅎㅘㅈㅏ -10133
ㅅㅣㅈㅡㅁ -10134
▁ㅂㅡㄹㅐㄴ -10135
▁ㅅㅐㅇㅅㅐㅇ -10136
▁ㅈㅣㄱㅁㅕㄴ -10137
▁ㅎㅐㅁㅣㄹㅌㅓㄴ -10138
▁ㅈㅏㅇㅏ -10139
▁ㄱㅡㄹㅡㅅ -10140
▁ㄱㅣㅁㄱㅣ -10141
▁ㄷㅗㄱㅅㅓ -10142
▁ㅈㅜㅇㅊㅜ -10143
▁ㄱㅏㅇㅂㅕㄴ -10144
▁ㅍㅡㄹㄹㅏㅇㅣ -10145
TA -10146
▁ㄹㅔㄹ -10147
▁ㄱㅔㄹㅡ -10148
▁ㅈㅓㅈㅜ -10149
▁ㅎㅏㄱㄱㅣ -10150
▁ㅇㅏㅂㄷㅜㄹ -10151
▁ㅍㅣㅅㅣㄴ -10152
▁ㅂㅏㄲㅏㅌㅉㅗㄱ -10153
▁ㅌㅗㅁㅗ -10154
▁ㅅㅐㅇㄹㅑㄱ -10155
ㅎㅔㅇㅣ -10156
▁ㅇㅣㅈㅡ -10157
▁ㅂㅗㅇㅣㅅㅡ -10158
▁ㅂㅏㅂㅣㄹㄹㅗㄴ -10159
▁ㄹㅜㄱㅅㅔㅁㅂㅜㄹㅡㅋㅡ -10160
▁ㅇㅝㅌㅓ -10161
▁ㄷㅏㄴㅊㅜㄱ -10162
▁ㅈㅓㅇㅅㅓㅇ -10163
▁ㅎㅕㄴㅇㅡㄴ -10164
▁ㄱㅕㅇㅅㅓㅇㅂㅜ -10165
▁ㅁㅏㄹㄹ -10166
▁ㅇㅟㅉㅗㄱ -10167
ㅈㅣㅅㅈㅓㅁ -10168
▁ㅇㅏㄷㅗㄹㅍㅡ -10169
ach -10170
▁No -10171
▁ㅅㅕㅆ -10172
ㅏㄹㄷㅡ -10173
▁ㅊㅔㄹㅠ -10174
▁ㄲㅗㄱㅈㅣㅅㅈㅓㅁ -10175
▁ㅇㅜㄹㅅㅏㄴㄱㅘㅇㅇㅕㄱㅅㅣ -10176
ㅇㅓㄴㅐ -10177
▁ㄱㅜㅎㅐ -10178
▁ㅌㅏㅇㅣㅁㅅㅡ -10179
▁ㅇㅣㅀㅇㅓㅂㅓㄹ -10180
▁ㅊㅓㄴㅈㅐ -10181
▁ㄷㅗㅇㅎㅐㅇ -10182
ert -10183
▁ㅈㅔㄱ -10184
ㅍㅗㅌㅓ -10185
▁ㅇㅛㅅㅣㅁ -10186
▁ㅊㅗㄱㅁㅐ -10187
▁ㄱㅜㄴㅈㅜㅇ -10188
▁ㄷㅏㄹㅎㅏㄴㄷㅏ -10189
▁ㅁㅐㅋㅏㅌㅡㄴㅣ -10190
ㅅㅔㅅ -10191
ㅇㅏㅆ -10192
▁ㄱㅐㅅㅗ -10193
▁ㄴㅏㄹㅡ -10194
▁ㄱㅗㅅㅏㄴ -10195
▁ㅂㅜㄹㅡㄹ -10196
▁ㅅㅏㄱㅏㄴ -10197
▁ㄱㅗㅇㅑㅇㅅㅣ -10198
▁ㄷㅐㅂㅕㄴㅇㅣㄴ -10199
LE -10200
▁1901 -10201
▁ㄴㅏㄴㅗ -10202
▁ㅊㅐㅇㅝ -10203
▁ㅆㅡㅊㅘㄴ -10204
▁ㅇㅑㄱㅈㅏ -10205
▁ㅇㅕㄹㄷㅗ -10206
▁ㄱㅓㄹㄹㅕㅆ -10207
▁ㅎㅗㄹㅡㅁㅗㄴ -10208
▁ㄹㅓㅅㅣㅇㅏㅇㅓ -10209
▁ㄷㅐㄱㅜㄱㅘㅇㅇㅕㄱㅅㅣ -10210
out -10211
ㄱㅛㄷㅗ -10212
▁ㅅㅡㅇㅟㅊㅣ -10213
▁ㅇㅗㅀ -10214
ㄱㅗㅋㅜ -10215
▁ㅅㅡㅂㅈㅣ -10216
▁ㅎㅢㄱㅗㄱ -10217
ㄱㅗㅇㅅㅣㄴ -10218
ㅅㅖㅂㅣㅋㅣ -10219
▁ㅅㅓㅇㅍㅗㄱ -10220
▁ㅂㅜㅎㅚㅈㅏㅇ -10221
▁ㅇㅓㄹㅠ -10222
▁ㅈㅣㅊㅜㄹ -10223
▁ㅊㅜㄱㅈㅗ -10224
▁ㅈㅓㅇㅈㅓㄱ -10225
▁ㅇㅚㄱㅘㄴ -10226
▁ㅍㅛㅈㅓㄱ -10227
▁ㄱㅣㅅㅂㅏㄹ -10228
▁ㅂㅗㄱㅇㅛㅇ -10229
▁} -10230
▁ㅁㅔㅅ -10231
▁ㅅㅡㅍㅗㄴ -10232
▁ㄷㅗㄱㅅㅓㅇ -10233
▁ㅇㅣㅇㅛㅇㅈㅏ -10234
▁ㅊㅣㄹㅓ -10235
▁ㄱㅏㅇㅕㄱ -10236
▁ㅇㅏㄹㅡㅌ -10237
▁ㅊㅏㅁㅇㅢ -10238
▁ㅇㅓㄹㅕㅅㅓ -10239
▁ㅈㅣㄱㄱㅕㄹ -10240
▁ㅍㅡㅌㅗㄹㄹ -10241
ㅔㅁㅏㅇㅣㅇㅗㅅㅡ -10242
▁ㅍㅡㅌㅗㄹㄹㅔㅁㅏㅇㅣㅇㅗㅅㅡ -10243
▁MB -10244
▁ㅈㅏㅋㅡ -10245
▁ㅈㅔㄴㅔㅂㅏ -10246
▁ㅋㅗㄲㅣㄹㅣ -10247
ㅎㅣㅁ -10248
▁ㄱㅘㅇㅁㅕㅇ -10249
IG -10250
LS -10251
▁ㄷㅏㄴㅇㅢ -10252
▁ㅂㅕㅇㄱㅣ -10253
▁ㄷㅡㄹㅓㅁㅓ -10254
▁ㅁㅗㄳ -10255
▁ㅂㅔㄴㅣ -10256
ㄷㅐㅈㅏㅇ -10257
▁ㅎㅣㅁㅆㅓ -10258
▁ㅂㅗㄴㅁㅜㄴ -10259
ug -10260
▁ㅅㅣㄱㅏ -10261
▁ㅇㅖㄱㅗ -10262
▁ㅇㅣㅎㅕㄴ -10263
▁ㅂㅜㅈㅏㄱㅇㅛㅇ -10264
▁ㄷㅟㅅㅂㅏㄷㅊㅣㅁ -10265
▁ㄷㅐㅍㅐ -10266
▁ㅁㅏㄴㅕ -10267
▁ㅁㅜㄹㅏ -10268
▁ㅇㅜㅇㅢ -10269
▁ㄷㅗㅇㄴㅔ -10270
▁ㅎㅘㄱㅅㅣㄹㅎㅣ -10271
▁ㄷㅡㄹㅇㅓㄱㅏㄴㄷㅏ -10272
▁ㅎㅔㅁ -10273
ㅋㅏㄱㅏ -10274
ㅎㅣㅌㅗ -10275
▁ㅈㅟㄱㅘ -10276
▁ㄴㅡㄹㄹㅣ -10277
▁ㅇㅝㄴㅊㅓㄴ -10278
▁ㅅㅏㅅㅍㅗㄹㅗ -10279
▁ㄷㅏㄴㄱㅣ -10280
▁ㄹㅣㄹㄹㅣ -10281
▁ㅎㅏㅁㅈㅓㅇ -10282
▁ㅁㅣㄹㅡㄱ -10283
▁ㅈㅗㅇㄹㅐ -10284
▁ㄱㅏㄲㅏㅇㅝ -10285
▁ㅋㅘ -10286
ㄷㅣㄹ -10287
▁ㅅㅡㄴㅣㅁ -10288
▁ㄷㅏㄴㅈㅓㄹ -10289
▁ㄱㅣㅁㅊㅏㅇ -10290
▁ㅇㅣㄹㅇㅡㅋㅣㄹ -10291
ey -10292
▁ㅈㅑ -10293
▁THE -10294
▁ㅍㅏㅅ -10295
▁ㅈㅏㅈㅏㄱ -10296
▁ㄱㅣㅁㅎㅗㅇ -10297
▁ㅁㅜㄹㅍㅜㅁ -10298
▁ㅆㅏㅎㅇㅏㅆ -10299
▁ㅈㅓㅇㅁㅜㄴ -10300
▁ㅅㅣㄴㄷㅗㅂㅣ -10301
▁ㅍㅗㄱㄱㅕㄱㄱㅣ -10302
▁ㅊㅔㅈㅜㅇ -10303
▁ㅁㅓㅁㅜㄹㅡ -10304
▁ㅅㅏㅇㄱㅡㅁ -10305
▁ㅇㅕㅁㅈㅡㅇ -10306
▁ㅇㅣㅁㄱㅘㄴ -10307
▁ㅎㅗㅁㅗ -10308
ㅈㅓㅇㄹㅣ -10309
▁ㅂㅏㄹㄹㅣ -10310
▁ㅍㅔㅇㅣㄴ -10311
▁ㅁㅏㅅㅡㅋㅡ -10312
▁ㅂㅏㅇㄱ -10313
▁ㅌㅔㄹㅏ -10314
▁ㄷㅜㄲㅔ -10315
ㅇㅝㄴㅎㅚ -10316
▁ㅋㅞㅂㅔㄱ -10317
▁ㅇㅛㄹㅡㄷㅏㄴ -10318
▁ㅈㅣㅅㅣㄱㅇㅣㄴ -10319
▁ㄴㅏㄱㅏㄹ -10320
▁ㅁㅜㄱㅜㅇ -10321
▁ㅅㅓㄴㅎㅐㅇ -10322
▁ㅇㅏㄹㄹㅔㄱㅅㅏㄴㄷㅡㄹㅡ -10323
▁ㅅㅠㄴ -10324
▁ㅇㅓㄺ -10325
ㅠㄹㄹㅓ -10326
▁ㅇㅏㅇㄱ -10327
▁ㄱㅝㄴㅊㅗㅇ -10328
ㅂㅔㅌㅡㄴㅏㅁ -10329
▁ㅍㅛㄱㅣㅂㅓㅂ -10330
ase -10331
▁134 -10332
ㅅㅔㄴㅌㅡ -10333
▁ㄱㅏㄴㅌㅗ -10334
▁ㅅㅏㅎㅚㄷㅏㅇ -10335
ㅌㅜㄹ -10336
▁1903 -10337
ㅌㅔㄱㅊㅓ -10338
▁ㅇㅏㅋㅣㅌㅔㄱㅊㅓ -10339
▁ㅇㅠㅊㅔ -10340
▁ㄱㅘㅇㄷㅐ -10341
▁ㅁㅏㄹㅕㄱ -10342
▁ㅇㅕㄴㄱㅣㅈㅏ -10343
ㅊㅓㅅㅡ -10344
▁ㅌㅗㄱㅣ -10345
▁ㅅㅓㅁㅜㄴ -10346
▁ㅍㅏㄹㄹㅏ -10347
▁ㅇㅣㅅㅓㅇㄱㅖ -10348
▁ㄹㅖ -10349
▁ㄱㅏㄴㄷㅏㄴㅎㅣ -10350
▁ㅈㅔㅍ -10351
▁ㄷㅐㅊㅣ -10352
▁ㅇㅣㄱㅓㄴ -10353
▁ㅇㅕㅁㅅㅐㄱㅊㅔ -10354
▁ㅅㅓㄹㅠ -10355
▁ㅅㅜㅎㅘㄱ -10356
▁ㅅㅗㄴㄲㅗㅂ -10357
▁ㅇㅓㄴㅇㅓㅎㅏㄱ -10358
▁KIA -10359
ㅓㅂㅓㅂ -10360
▁ㄱㅣㅅㅜㄱ -10361
▁ㅈㅗㄹㅣㅂ -10362
▁ㄱㅘㅇㅈㅓㅇㅜ -10363
▁ㅇㅏㅇㅣㄴㅅㅠㅌㅏㅇㅣㄴ -10364
ㅕㄱㅗ -10365
ㅣㅇㅝ -10366
▁ㅇㅘㅋㅏ -10367
▁ㄷㅜㄴㄷㅏ -10368
▁ㅂㅔㄹㅡㄱ -10369
▁ㅅㅣㄹㅁㅏㅇ -10370
▁ㅇㅕㄱㄹㅑㅇ -10371
▁AN -10372
▁One -10373
▁ㄹㅣㅍㅡ -10374
▁ㅈㅓㅇㅅㅔ -10375
▁ㄱㅏㅁㅎㅐㅇ -10376
▁ㄱㅐㅇㅅㅣㄴ -10377
▁ㅁㅗㅅㅓㄹㅣ -10378
▁ㅇㅏㅁㅏㅈㅗㄴ -10379
▁EX -10380
▁1884 -10381
▁ㅅㅓㄴㅂㅐ -10382
▁ㅋㅏㄹㄹㅏ -10383
▁ㅁㅜㅎㅏㅁㅁㅏㄷㅡ -10384
▁ㄱㅜㅇㅘ -10385
▁ㄱㅡㄹㄹㅜ -10386
▁ㅅㅓㄹㄱㅛ -10387
▁ㅅㅓㅇㅈㅣ -10388
▁ㅇㅔㄴㄷㅣㅇ -10389
▁ㅇㅣㅂㅅㅓㅇ -10390
ㅠㅇㅓㄹ -10391
▁ㅇㅢㅇㅢ -10392
▁ㅌㅡㄹㅗㅍㅣ -10393
▁ㄱㅘㄴㄱㅘㅇㅈㅣ -10394
▁ㅋㅗㅁㅍㅐㄱㅌㅡ -10395
▁ㅎㅗㅁㄱㅜㅈㅏㅇ -10396
▁ㅇㅗㄱㅅㅡㅍㅓㄷㅡ -10397
ㅂㅏㄴㅏ -10398
▁ㅁㅕㄴㅈㅔ -10399
▁ㅍㅣㄹㅌㅓ -10400
▁ㅈㅣㄱㄱㅕㅇ -10401
▁ㄱㅗㅇㅇㅖ -10402
▁ㅇㅣㅇㅘㄴ -10403
▁ㅅㅏㅇㅓㅂㄱㅏ -10404
▁Gr -10405
ㅍㅣㅇㅓ -10406
▁ㅈㅐㅁㅣ -10407
ㅅㅡㅌㅔㄹㅡ -10408
▁ㅍㅏㅇㅣㅌㅓ -10409
ㅈㅏㄹㅡ -10410
▁ㅂㅗㅎㅔㅁ -10411
▁ㅅㅜㅊㅜㄱ -10412
▁ㅍㅐㅎㅏㄴ -10413
▁ㅋㅓㅁㅂㅐㄱ -10414
ㅈㅣㄹㅗ -10415
▁ㄴㅓㅁㅇㅓ -10416
▁ㅁㅗㄹㄹㅕ -10417
▁ㅌㅚㅇㅕㄱ -10418
▁ㅇㅣㅂㄱㅜㄱ -10419
▁ㅈㅓㅇㅅㅓㄴ -10420
ㅏㅇㅣㅇㅓㄴㅌㅡ -10421
▁ㅇㅕㅇㄱㅜㄱㅇㅣㄴ -10422
▁All -10423
▁ㅂㅗㅇㅟ -10424
▁ㅇㅣㅅㅏㄱ -10425
▁ㅊㅜㄴㅊㅜ -10426
▁ㅎㅐㄴㅏㅁ -10427
ㅔㅅㅡㄹㄹㅣㅇ -10428
▁ㄷㅣㅁ -10429
▁ㄱㅐㅎㅘ -10430
▁ㅅㅗㅎㅐㅇㅅㅓㅇ -10431
▁ㅋㅡㄹㄹㅏㅇㅣㅇㅓㄴㅌㅡ -10432
▁ㅂㅏㅇㅣㄴ -10433
▁ㅂㅜㄹㄲㅗㅊ -10434
▁ㅂㅏㅇㅣㅋㅣㅇ -10435
ㅂㅡㅅㅡ -10436
▁ㅊㅐㅇㅜ -10437
ㅂㅏㄱㅈㅟ -10438
ㅘㄷㅗㄹㅡ -10439
▁ㅇㅝㄴㄹㅛ -10440
▁ㅍㅐㅎㅐㅆ -10441
▁ㅂㅗㄱㅅㅗㅅㅜ -10442
▁ㄱㅏㄹㅅㅜㄹㅗㄱ -10443
▁ㅇㅑㅁㅏㄱㅜㅊㅣ -10444
ㅎㅡㄱ -10445
▁ㅂㅣㄴㅠ -10446
▁ㅇㅕㅈㅜ -10447
▁ㄷㅐㅁㅜㄴ -10448
▁ㅇㅣㅈㅏㅇ -10449
▁ㅎㅜㅈㅣㄴ -10450
▁ㅇㅔㅋㅘㄷㅗㄹㅡ -10451
ree -10452
ㅌㅗㄱ -10453
▁ㅁㅏㅇㅑ -10454
▁ㄸㅏㅇㅘㅆ -10455
▁ㄱㅓㅁㅇㅕㄹ -10456
▁ㅈㅓㅇㅎㅐㅈㅣㄴ -10457
▁ㅈㅔㄱㅜㄱㅈㅜㅇㅢ -10458
▁ㅇㅜㄴㅅㅜ -10459
▁ㅇㅣㅂㅕㅇ -10460
▁ㅇㅣㄴㄷㅗㅇ -10461
▁ㅅㅗㅂㅏㅇㅅㅓ -10462
ㅡㄹㄹㅏㄷㅔㅅㅣ -10463
▁ㅂㅏㅇㄱㅡㄹㄹㅏㄷㅔㅅㅣ -10464
▁ㄱㅣㄹㅡ -10465
▁ㅍㅐㄴㅓㄹ -10466
▁ㅆㅡㅅㅣㅁㅏ -10467
▁ㅇㅣㄹㅅㅏㄴ -10468
▁ㅇㅏㅅㅣㅋㅏㄱㅏ -10469
▁ㅈㅏㅇㄱㅣㄱㅏㄴ -10470
▁ㅈㅜㅈㅗ -10471
▁ㄹㅣㅁㅏㄴ -10472
▁ㅇㅣㄷㅏㄴ -10473
▁ㅈㅓㅇㄷㅗㅇ -10474
▁ㅁㅏㄴㅈㅜㄱㅜㄱ -10475
▁ㅂㅗㄱㅎㅏㅂㅊㅔ -10476
ㄲㅡㅅ -10477
ㅅㅕㄹ -10478
▁ㅈㅜㄷㅚㄴ -10479
▁ㄱㅗㅇㅁㅕㅇ -10480
▁ㅁㅣㄴㄱㅏㅁ -10481
▁ㅅㅓㅇㅠㄹㅓㅂ -10482
▁ㅇㅣㅋㅔ -10483
ㅏㅇㅣㅅㅡ -10484
▁ㅆㅡㄹㅔㄱㅣ -10485
▁ㅇㅏㅁㅣㅌㅏ -10486
▁ㅈㅓㅁㅅㅓㅇㅅㅜㄹ -10487
ㅈㅣㅇㅝㄴ -10488
▁ㅍㅡㄹㅔㄴ -10489
▁ㅍㅣㅇㅏㄴ -10490
ㄴㅜㄴ -10491
ㄷㅜㄹㅣ -10492
▁ㄷㅏㄹㄱㅑㄹ -10493
▁ㅍㅡㄹㅗㄹㅔㅅㅡㄹㄹㅣㅇ -10494
▁ㅍㅛㅂㅏㅇ -10495
▁ㄱㅗㅇㅊㅓㄴ -10496
▁ㅇㅝㄴㅂㅗㄴ -10497
▁ㅇㅏㄹㅏㅂㅣㅇㅏ -10498
▁ㅂㅜㅅㅡ -10499
▁ㅇㅜㅍㅏ -10500
▁ㅂㅏㅇㅅㅏㄴ -10501
▁ㄲㅗㄱㄷㅐㄱㅣ -10502
ㅔㄹㄹㅣ -10503
ㅂㅓㄴㄴㅚ -10504
▁ㅁㅕㅇㅎㅏ -10505
▁ㅇㅕㅇㅜㄴ -10506
▁ㅎㅕㅇㅈㅗ -10507
▁ㄱㅡㄷㅏㅈㅣ -10508
▁ㄷㅗㄴㅓㄹㄷㅡ -10509
▁with -10510
▁ㄱㅕㅇㄱㅘ -10511
▁ㅅㅏㅁㅊㅗㄴ -10512
▁ㅅㅡㅌㅗㅇㅓ -10513
▁ㅎㅡㅇㅅㅓㄴ -10514
▁ㅂㅣㄹㄹㅏ -10515
▁ㅊㅓㅇㅅㅏㄴ -10516
▁ㄷㅗㅇㅛㅌㅗㅁㅣ -10517
▁IN -10518
ㅇㅓㄹㅣ -10519
▁ㅁㅗㅌㅓ -10520
ㅂㅜㄹㄱㅛ -10521
▁ㅂㅡㄹㅏㄴ -10522
▁ㅍㅣㅇㅋㅡ -10523
▁ㄱㅓㅁㅊㅜㄹ -10524
▁ㅇㅣㅂㄱㅏㄱ -10525
▁ㅌㅡㄱㄱㅝㄴ -10526
▁ㅎㅣㄹㅗㅅㅣ -10527
▁1800 -10528
ㄱㅞ -10529
ㅏㄵ -10530
▁ㅍㅔㄴㅣ -10531
▁ㄱㅕㅇㅂㅜ -10532
▁ㄴㅜㅈㅓㄱ -10533
▁ㅂㅗㅂㅗㄱ -10534
▁ㅂㅓㄹㅇㅣㄴ -10535
▁ㅈㅓㅇㄹㅣㅂ -10536
▁ㅋㅏㄹㅡㄹㄹㅗ -10537
▁ㄱㅣㄴㅕㅁㄱㅘㄴ -10538
▁ㅈㅗㅇㅣ -10539
▁ㅂㅜㄴㅊㅜㄹ -10540
▁ㅍㅐㅁㅣㄹㄹㅣ -10541
▁ㄱㅐㅇㅣㄴㅈㅓㄴ -10542
▁ㅇㅜㄹㅍㅡ -10543
▁ㅈㅓㅇㅇㅠ -10544
▁ㄷㅏㄴㅁㅕㄴ -10545
▁ㅂㅏㅇㅅㅏㅅㅓㅇ -10546
▁ㄱㅜㅎㅕㅇ -10547
▁ㄷㅓㄴㅈㅕ -10548
▁ㅈㅜㅇㄹㅕㅇ -10549
▁ㅎㅓㄴㅅㅣㄴ -10550
▁ㅈㅗㅂㅏㄴㄴㅣ -10551
▁ㅍㅡㄹㅏㄴㅊㅔ -10552
▁ㄴㅣㅋㅗㄹㄹㅏㅇㅣ -10553
▁Cl -10554
▁ㄱㅚㄹㅗㅂ -10555
▁ㄴㅏㄹㅋㅏㄹ -10556
▁ㅇㅗㅅㅏㅋㅏㅂㅜ -10557
▁ㅋㅐㅅㅓㄹ -10558
▁ㅋㅗㅁㅣㄱ -10559
▁ㄱㅕㅇㅇㅣㄴ -10560
▁ㅂㅏㄹㅋㅏㄴ -10561
▁ㄲㅡㄶㅇㅣㅁㅇㅓㅄㅇㅣ -10562
▁ㄹㅜㅅㅣ -10563
▁ㅊㅏㄹㅡ -10564
▁ㄴㅡㄲㅕㅆ -10565
▁ㄱㅜㄴㅅㅏㄴ -10566
▁ㅈㅓㄴㅇㅕㅁㅂㅕㅇ -10567
▁ㅊㅏㅇㄴㅕㅇ -10568
▁ㄴㅏㅌㅏㄴㅐㄴ -10569
11 -10570
▁ㅇㅓㅅ -10571
▁ㅅㅗㅈㅏ -10572
▁ㅂㅜㄹㅌㅏ -10573
▁ㅇㅓㄷㅜㅁ -10574
▁ㅈㅜㄴㅈㅜ -10575
▁ㅊㅜㅇㅊㅓㅇㄷㅗ -10576
▁ㄹㅔㅂ -10577
ㅎㅏㅋㅣ -10578
ㅈㅜㅇㅣㄴ -10579
▁ㅈㅏㅎㅕㅇ -10580
act -10581
▁LA -10582
▁ㄱㅣㅅㅡㄺ -10583
▁ㅈㅓㄴㅂㅏㅇ -10584
pt -10585
▁ㄴㅏㅁㅁㅐ -10586
▁ㄷㅗㅅㅓㄴ -10587
ys -10588
▁ㄱㅛㄹㅑㅇ -10589
▁ㄱㅜㄴㅎㅏㅁ -10590
▁ㅇㅕㄴㅂㅗㅇ -10591
▁ㄱㅏㄴㅏㄱㅏㅇㅘ -10592
ㅣㄹㅇㅡ -10593
▁ㅈㅔㄹㅣ -10594
▁ㅌㅗㅇㅛ -10595
▁ㅅㅜㅁㅗㄱ -10596
▁ㅈㅘㅊㅡㄱ -10597
▁ㅅㅓㄴㄷㅗㅇ -10598
▁ㅎㅕㄴㄱㅏㅁ -10599
▁ㄷㅡㄹㅇㅓㄱㅏㄹ -10600
▁ㅂㅜㄹㄹㅓㅇㅣㄹㅇㅡ -10601
▁ㅎㅛㄱㅗ -10602
ㅌㅏㅇㅣㅁ -10603
▁ㅅㅏㅇㅇㅡㅇ -10604
▁ㅉㅣㄴ -10605
▁ㅈㅔㅊㅣ -10606
▁ㄴㅗㄹㄹㅏ -10607
▁ㅊㅓㄹㅍㅖ -10608
▁ㄱㅣㄴㅕㅁㅂㅣ -10609
▁ㄴㅏㅁㄷㅗㅇㅅㅐㅇ -10610
▁Ad -10611
▁ㄹㅗㅈㅓ -10612
▁ㅇㅜㅁㅜㄹ -10613
▁ㄱㅝㄴㅈㅏㅇ -10614
▁ㄴㅠㅇㅛㄱㅈㅜ -10615
ㅁㅏㅅ -10616
▁ㅅㅖㅇ -10617
▁ㅇㅝㄴㅓ -10618
▁ㅌㅡㄹㅔㅇㅣ -10619
▁GO -10620
ㅑㅂㅏ -10621
▁ㄱㅗㅇㄱㅗ -10622
▁ㄷㅏㅇㅅㅜ -10623
▁ㄱㅘㄴㅈㅓㄹ -10624
▁ㅂㅜㄹㄹㅣㄴ -10625
▁ㄱㅏㅇㄱㅏㄴ -10626
▁ㅈㅜㅇㅇㅝㄴ -10627
ㄱㅣㄴㅕㅁㅁㅜㄹ -10628
ass -10629
▁ㅇㅏㅁㅜㄱ -10630
▁ㅅㅏㄴㅊㅜㄹ -10631
▁ㅈㅓㄴㅅㅣㅎㅚ -10632
▁ㅅㅗㅁㅗ -10633
▁ㅂㅔㄹㄹㅏ -10634
▁ㄱㅜㅇㅈㅜㅇ -10635
▁ㅅㅗㅅㅜㅈㅏ -10636
▁ㄱㅛㅇㅠㄱㅊㅓㅇ -10637
▁ㅇㅏㄹㄹㅔㄱㅅㅏㄴㄷㅡㄹㅣㅇㅏ -10638
ㅈㅣㄹㅣ -10639
▁ㄱㅗㅊㅜ -10640
▁ㅎㅣㅁㅔ -10641
▁ㄷㅟㅉㅗㄱ -10642
▁ㄹㅣㅈㅗ -10643
▁ㄱㅣㅁㅈㅔ -10644
▁ㅈㅓㄴㄱㅜ -10645
▁ㄱㅗㄱㅁㅜㄹ -10646
▁ㅁㅠㅈㅣㅅㅕㄴ -10647
▁ㅅㅡㅋㅡㄹㅣㅂㅌㅡ -10648
▁ㅊㅗㅇㄷㅐㅈㅜㄱㅛ -10649
▁ㅂㅜㄱㅇㅏㅍㅡㄹㅣㅋㅏ -10650
▁116 -10651
▁ㅅㅣㅋㅗ -10652
▁ㄹㅣㅂㅗㄴ -10653
▁ㅂㅗㅅㅓㅇ -10654
▁ㅊㅜㅊㅓㅁ -10655
▁ㄷㅔㅅㅡㅋㅡ -10656
▁ㄸㅏㄹㅡㄴㄷㅏ -10657
▁ㅂㅗㄹㄹㅣㅂㅣㅇㅏ -10658
▁ㅇㅣㄹㄹ -10659
▁ㄱㅡㄹㅏㄴ -10660
▁ㅈㅟㅅㅗㄱ -10661
▁ㅎㅔㅇㅣㄹ -10662
▁ㄷㅏㄹㄹㅕㄱ -10663
▁ㅅㅓㄱㅂㅜㄹ -10664
ㅋㅡㄹㄹㅔㅅㅡ -10665
▁ㅇㅜㅎㅚ -10666
▁ㄷㅡㅇㄱㅣ -10667
▁ㅅㅠㅌㅣㅇ -10668
▁ㄱㅕㅇㅈㅏㄱ -10669
▁ㅎㅓㄴㅈㅓㅇ -10670
▁ㅅㅡㄹㄹㅏㅂㅡ -10671
▁ㅇㅏㄹㅣㅅㅡㅌㅗ -10672
▁ㄴㅔㅇㅗ -10673
▁ㅇㅓㄹㅚ -10674
▁ㄱㅏㄹㄹㅐ -10675
▁ㅈㅣㄹㅅㅗ -10676
▁ㄱㅓㅈㅜㅈㅣ -10677
▁ㅅㅏㅇㄱㅕㅇ -10678
▁ㅅㅛㅇ -10679
▁ㅌㅚㅈㅓㄱ -10680
▁ㅂㅜㄴㄹㅑㅇ -10681
▁ㅋㅔㅇㅣㅁㅂㅡㄹㅣㅈㅣ -10682
ㄷㅗㅁ -10683
▁ㅎㅏㄱㄷㅐ -10684
▁ㅅㅣㄴㅊㅜㄱ -10685
▁ㅎㅏㅁㅅㅓㄴ -10686
▁ㅈㅜㅇㅇㅏㅇㅇㅏㅅㅣㅇㅏ -10687
▁Br -10688
▁ㅎㅔㅅ -10689
▁ㄷㅡㄹㅏ -10690
▁ㅁㅏㅇㅐ -10691
▁ㄱㅏㅅㅏㄴ -10692
▁ㅌㅡㄹㅣㄱ -10693
▁ㅂㅏㄹㄹㅕㅇ -10694
▁ㅂㅜㄹㅅㅣㄴ -10695
▁ㅈㅏㅇㅂㅕㄱ -10696
▁ㅅㅐㄱㅕㅈㅣㄴ -10697
ㅏㅌㅔㅅㅡ -10698
▁ㅇㅣㄱㅕㅆ -10699
▁ㅇㅣㅂㅜㄱ -10700
ㅂㅏㅇㅇㅜㄹ -10701
▁ㅇㅏㄴㄱㅕㅇ -10702
▁ㅋㅐㅅㅓㄹㅣㄴ -10703
▁ㄱㅣㄱㅘㄴㅊㅗㅇ -10704
▁CN -10705
ㅏㄹㅗ -10706
▁ㄹㅏㅍ -10707
▁ㅅㅣㄹㅁㅜ -10708
ㅇㅕㄱㅎㅏㄱ -10709
▁ㄱㅏㄱㅅㅐㄱ -10710
▁ㅁㅗㄹㅣㅅㅡ -10711
▁ㅅㅣㄹㄱㅝㄴ -10712
ream -10713
▁1897 -10714
▁ㅈㅡㄹㄱㅕ -10715
▁ㅌㅐㅂㅐㄱ -10716
ㅅㅏㅇㅓㅂ -10717
▁ㅁㅔㅇㅣㄹ -10718
▁ㅅㅐㄱㅊㅐ -10719
▁ㅂㅏㅇㅅㅗㅇㅇㅣㄴ -10720
▁ㅂㅏㄹㄹㅔㄴㅅㅣㅇㅏ -10721
ㅋㅜㅂㅓ -10722
▁ㅎㅠㄱㅏ -10723
▁ㄷㅔㄹㅌㅏ -10724
▁ㄷㅗㄹㅂㅗ -10725
▁ㅇㅓㄷㅡㅂㅔㄴ -10726
ㅐㄹㅗㄹㄹㅏㅇㅣㄴㅏ -10727
ㅣㄹㄹㅓㄴ -10728
▁ㄱㅣㅂㅜㄴ -10729
▁ㅍㅕㅇㅊㅏㅇ -10730
▁ㄱㅡㄹㅕㅈㅣㄴ -10731
▁1860 -10732
▁ㄷㅐㅊㅜㄹ -10733
▁ㅈㅣㄴㅕㅆ -10734
▁ㅈㅣㄷㅗㅂㅜ -10735
▁ㅇㅔㄷㅣㅅㅕㄴ -10736
▁220 -10737
▁ㅁㅓㅇ -10738
ㅗㄹㄹㅓ -10739
▁ㅂㅡㄹㅟ -10740
▁ㅅㅣㄴㅈㅗ -10741
▁ㅎㅏㄴㅌㅔ -10742
▁Is -10743
ㅐㄱㅗㄹ -10744
▁ㅈㅏㅂㅣ -10745
▁ㄷㅗㅇㅎㅕㅇ -10746
▁ㄷㅡㅇㅇㅛㅇ -10747
▁ㅇㅘㅇㅣㄹㄷㅡ -10748
▁2022 -10749
▁ㄷㅐㄷㅜ -10750
▁ㅎㅜㅈㅏㄱ -10751
ㅅㅏㄴㅁㅐㄱ -10752
▁ㄷㅏㅋㅔㄷㅏ -10753
▁Ex -10754
▁NGC -10755
▁ㄹㅜㅌㅏ -10756
▁ㅁㅔㄹㅏ -10757
▁ㅎㅚㅍㅣ -10758
▁ㅁㅏㄷㅏㅇ -10759
▁ㅈㅓㄴㅇㅟ -10760
▁ㅎㅘㅅㅜㄴ -10761
▁ㄹㅣㅎㅣ -10762
▁ㅂㅣㅈㅏ -10763
▁ㅊㅟㅁㅣ -10764
▁ㅅㅏㅇㅂㅓㅂ -10765
▁ㅂㅜㄷㅡㄹㅓㅇㅜㄴ -10766
▁122 -10767
▁ㄴㅗㅇㅂㅜ -10768
▁ㅂㅏㄴㄱㅜㄴ -10769
ㄸㅏㅇ -10770
ㄹㅜㄱ -10771
▁ㅁㅔㅋ -10772
▁ㅅㅔㅂㅏ -10773
▁ㄴㅐㅁㅅㅐ -10774
▁ㄷㅗㅇㅇㅣ -10775
▁ㄱㅕㄴㅇㅣㄴ -10776
▁ㄱㅛㄷㅗㅅㅗ -10777
▁ㅎㅘㄱㅈㅣㄴ -10778
▁ㄱㅏㅇㄴㅏㅁㄱㅜ -10779
▁ㅌㅡㄹㅣㅍㅡㄹ -10780
▁ㄱㅡㄹㅔㅇㅣㅌㅡ -10781
▁ㅇㅣㄹㅂㅜㅂㅜㄴ -10782
▁ㅋㅏㅇㅜ -10783
▁ㅁㅏㅋㅏㅇㅗ -10784
▁ㅋㅏㅌㅏㄹㅡ -10785
▁ㅁㅓㅅㅡ -10786
▁ㅁㅗㅇㅛㅇ -10787
▁ㅂㅡㄹㄹㅣ -10788
▁ㅋㅗㅅㅡㅌ -10789
▁ㅇㅣㅈㅜㅎㅏ -10790
▁ㅂㅓㅋㅡㄹㄹㅣ -10791
▁con -10792
▁ㄹㅗㅍ -10793
▁ㅇㅛㅇㅑㄱ -10794
▁ㅎㅛㅈㅗㅇ -10795
▁ㅇㅓㄷㅡㅂㅔㄴㅊㅓ -10796
▁ㅂㅐㅇㅜㅈㅏ -10797
▁ㅁㅔㅋㅓㄴㅣㅈㅡㅁ -10798
▁ㅁㅣㄴㄱㅏㄴㅇㅣㄴ -10799
▁ㅇㅏㅁㅣㄴㅗㅅㅏㄴ -10800
▁ㅈㅗㅎㅕㅇ -10801
▁ㅍㅏㄹㅏㄱ -10802
▁ㅁㅐㄱㄷㅗㄴ -10803
▁ㅂㅏㄴㄱㅗㅇ -10804
▁ㅈㅓㄴㅅㅏㄴ -10805
▁ㅇㅠㄴㅣㄱㅅㅡ -10806
▁ㅇㅕㄲ -10807
▁ㄱㅏㅇㅢ -10808
▁ㅅㅜㄹㅛ -10809
ㅅㅡㅂㅜㄱ -10810
▁ㄴㅡㄲㅣㄴ -10811
▁ㅁㅗㄹㄹㅣ -10812
▁ㅈㅗㅇㅈㅓㅁ -10813
▁ㅍㅔㅇㅣㅅㅡㅂㅜㄱ -10814
▁ㄲㅐㄲㅡㅅ -10815
▁ㅂㅡㄹㅜㅅㅡ -10816
▁ㄷㅗㄹㄱㅣ -10817
▁ㅂㅗㅇㅎㅐ -10818
▁ㅇㅢㄱㅕㄹ -10819
▁ㅈㅓㄹㅕㅁ -10820
▁ㅊㅟㅎㅏㅇ -10821
▁ㅅㅡㅋㅞㅇㅓ -10822
▁ㅇㅏㄹㅍㅡㄹ -10823
▁ㅍㅗㅅㅡㅌㅓ -10824
▁ㅊㅓㄴㅇㅕㄴㄱㅣㄴㅕㅁㅁㅜㄹ -10825
ㅎㅡㄹ -10826
▁ㅁㅏㅂㅡㄹ -10827
▁ㅁㅏㅈㅂㅜㅌ -10828
▁ㄱㅕㅇㅈㅔㅎㅏㄱㅈㅏ -10829
▁ㄹㅡㅁ -10830
▁ㅈㅗㅇㅍㅏ -10831
▁ㅈㅓㄹㄷㅏㄴ -10832
▁;& -10833
ㅏㄷㅏㄺ -10834
▁ㄲㅏㄷㅏㄺ -10835
▁ㅅㅣㄴㄷㅗㅇ -10836
▁ㅇㅏㄴㅅㅏㄴ -10837
▁ㅇㅛㅇㅇㅏㅁ -10838
▁ㅅㅡㅌㅡㄹㅏㅇㅣㅋㅡ -10839
▁ㅅㅣㄷ -10840
ㅌㅡㅍㅔ -10841
▁ㄱㅗㅇㅎㅘㅇ -10842
▁ㅁㅣㄴㅔㅅㅗ -10843
▁ㅅㅏㅇㅌㅡㅍㅔ -10844
▁ㅇㅕㄴㄷㅐㄱㅣ -10845
▁ㅈㅜㅇㄱㅗㅇㅇㅓㅂ -10846
▁ㄸㅓㄱ -10847
▁ㅅㅓㄹㅣ -10848
▁ㅊㅔㅋㅡ -10849
▁ㅎㅏㅍㅡ -10850
▁ㅇㅣㅅㅗㅇ -10851
▁ㄱㅜㄴㅊㅓㅇ -10852
▁ㅁㅜㄴㅓㅈㅣ -10853
▁ㅅㅗㄹㄹㅜㅅㅕㄴ -10854
▁ㅍㅏㅂㅕㅇ -10855
▁ㄱㅗㅇㅅㅗㄴ -10856
▁ㄷㅡㄹㅔㅅㅡ -10857
▁ㄷㅏㅇㅎㅏㄴㄷㅏ -10858
▁ㅎㅡㅇㅅㅓㄴㄷㅐㅇㅝㄴㄱㅜㄴ -10859
▁ㄱㅏㅇㅕㄹ -10860
▁ㅈㅓㅇㅈㅜ -10861
▁ㅁㅗㅌㅣㅂㅡ -10862
ii -10863
▁ㄱㅜㅇㅑㄱ -10864
▁ㄷㅗㅇㅈㅗ -10865
▁ㄷㅣㅌㅡㄹ -10866
▁ㅅㅗㅎㅐㅇ -10867
▁ㅅㅣㄹㅈㅐ -10868
▁ㅇㅖㅁㅕㅇ -10869
▁ㅋㅓㄴㅌㅡㄹㅣ -10870
▁ㅂㅓㅂㅈㅓㅇㄷㅗㅇ -10871
ㅋㅏㅌㅏ -10872
ㅏㄱㅅㅡ -10873
▁ㅁㅗㄴㅏ -10874
▁ㅂㅗㅌㅡ -10875
▁ㅁㅏㄱㅅㅡ -10876
▁ㅇㅜㄹㄹㅣ -10877
▁ㅇㅏㅍㅗㄹㄹㅗ -10878
▁ㄱㅗㅇㅇㅛㅇㅇㅓ -10879
ㄷㅗㄹㅣ -10880
▁ㄱㅡㅂㅅㅜ -10881
▁ㅅㅏㅈㅓㄱ -10882
▁ㅈㅣㄴㅈㅓㄴ -10883
ㅉㅓ -10884
▁ㅁㅜㄹㄱㅏ -10885
▁ㅇㅡㅁㅎㅑㅇ -10886
▁ㄱㅏㄱㅖ -10887
▁ㅇㅔㄹㅡㄴ -10888
▁ㅂㅏㄴㅈㅓㄴ -10889
▁ㅂㅏㄺㅎㅣㄴ -10890
▁ㅇㅣㄹㄱㅘㄹ -10891
▁ㅆㅢ -10892
ㄷㅗㅅㅡ -10893
clude -10894
ㅋㅗㅂㅌㅓ -10895
▁ㅅㅏㅇㄱㅏ -10896
▁ㅇㅕㅁㅅㅗ -10897
▁ㅇㅣㅂㅈㅜ -10898
ㄹㅔㅇㅣㅌㅓ -10899
▁ㅈㅏㅇㅎㅡㅇ -10900
▁ㅁㅏㄹㅏㅌㅗㄴ -10901
▁ㅅㅐㅇㄱㅕㄴㅏ -10902
▁ㅅㅓㄹㄹㅣㅂㅈㅏ -10903
▁ㅈㅣㄴㅎㅐㅇㅈㅏ -10904
ㅅㅜㅇㅝㄴ -10905
▁ㄷㅏㄹㅡㅁ -10906
▁ㅅㅓㄱㅎㅚ -10907
▁ㅎㅏㄹㅈㅣ -10908
▁ㄱㅏㅁㅇㅏㄴ -10909
▁ㅊㅓㅇㅅㅐㄱ -10910
▁ㄷㅓㅇㅜㄱㅇㅣ -10911
▁ㄹㅣㄷㅓㅅㅣㅂ -10912
▁ㅌㅣㅋㅗ -10913
▁ㄹㅗㄹㅓㄴ -10914
▁ㅇㅛㅇㅅㅓ -10915
iss -10916
▁ㄴㅏㄹㅜ -10917
▁ㅂㅕㄱㅎㅘ -10918
▁ㅅㅣㅋㅣㅁ -10919
▁ㅂㅜㄱㄱㅕㅇ -10920
▁ㅅㅏㅋㅏㅇㅣ -10921
▁ㅁㅗㄹㅇㅏㄴㅐ -10922
ick -10923
▁CBS -10924
▁ㄱㅐㄹ -10925
▁ㅋㅜㅂ -10926
▁ㅇㅣㅇㅓㄴ -10927
▁ㅈㅓㅇㄱㅕㅇ -10928
▁ㅍㅔㄴㅅㅣㅇ -10929
▁ㄷㅜㄹㄹㅓㅆㅏㅇ -10930
▁ㅌㅗㅁㅣ -10931
▁ㅎㅏㅁㅇㅑㅇ -10932
▁ㅋㅡㄹㄹㅏㅋㅡ -10933
▁ㅅㅑㄴ -10934
▁ㅊㅔㄹㅕㄱ -10935
ㅈㅏㅊㅣㅅㅣ -10936
▁ㄴㅏㄱㄷㅗㅇ -10937
▁ㅁㅣㄹㄹㅏㄴ -10938
▁ㄱㅐㄹㄹㅓㄹㅣ -10939
▁ㄷㅣㅌㅡㄹㅗㅇㅣㅌㅡ -10940
▁ㅌㅡㄱㅂㅕㄹㅈㅏㅊㅣㅅㅣ -10941
▁133 -10942
▁ㅅㅕㄹ -10943
▁ㅍㅗㅌㅓ -10944
ㅈㅗㅇㅓㅂ -10945
▁ㅇㅣㄹㅈㅏㄹㅣ -10946
▁ㅂㅏㄹㅡㅅㅑㅂㅏ -10947
ㅊㅡㅋㅡ -10948
▁ㅇㅑㅅㅣ -10949
ㄱㅏㄴㅈㅣ -10950
▁ㅂㅣㄴㄷㅗ -10951
▁ㅇㅜㄹㅣㅁ -10952
▁ㅅㅏㅇㅣㅌㅗ -10953
▁ㅇㅗㄱㅅㅜㅅㅜ -10954
own -10955
▁1880 -10956
▁ㄱㅓㅊㅓ -10957
ㅇㅚㅅㅓㄴ -10958
▁ㅁㅣㄴㅈㅓㅇ -10959
▁ㅅㅡㄹㅣㄹㅏㅇ -10960
ㅗㅂㅜ -10961
▁ㄱㅛㄷㅐ -10962
▁ㅇㅠㅈㅓㅇ -10963
▁ㅈㅔㅈㅏㄱㅅㅏ -10964
▁ㅂㅜㅌㅇㅕㅈㅣㄴ -10965
▁ㅅㅡㄹㅣㄹㅏㅇㅋㅏ -10966
▁ㅌㅓㅂㅗ -10967
▁ㅇㅗㄴㄱㅏ -10968
▁ㅈㅏㅅㅐㅇ -10969
▁ㅍㅔㄴㅓㄹ -10970
▁ㅁㅣㅊㅣㄴ -10971
▁ㅈㅓㅇㅎㅘ -10972
▁ㄱㅏㅇㅊㅓㄹ -10973
▁ㅇㅡㄹㅕㄱㅗ -10974
▁ㅊㅜㄹㅗㄴ -10975
ake -10976
▁ㄷㅐㄱㅘㄴ -10977
▁ㅇㅣㄹㅍㅏ -10978
▁ㅊㅣㅁㅊㅔ -10979
▁ㄷㅏㅇㅇㅕㄴㅎㅣ -10980
▁++ -10981
▁ㅍㅔㅅ -10982
ㅂㅏㄹㅡㄴ -10983
▁ㅅㅣㄹㅂㅓ -10984
ㅠㅇ -10985
ㅏㄹㅜ -10986
▁ㅅㅛㄴ -10987
▁ㄱㅗㅇㅣ -10988
▁ㅅㅔㄹㅏ -10989
▁ㄱㅏㅂㅡㄹ -10990
▁ㄱㅓㅈㅣㅅㅁㅏㄹ -10991
▁BM -10992
ㅅㄱㅏㅄ -10993
▁ㅎㅣㅅㅏ -10994
▁ㅈㅏㄱㅕㄹ -10995
▁ㅊㅏㅇㅇㅢ -10996
▁ㅇㅏㄴㅏㅋㅣ -10997
▁ㅇㅏㄹㅡㅁㄷㅏㅂ -10998
ㅏㅇㅜㅌㅡ -10999
▁ㄱㅣㅁㅅㅜ -11000
▁ㄱㅓㄹㄹㅣㄴ -11001
▁ㄴㅗㅌㅐㅇㅜ -11002
▁ㅇㅣㄴㄷㅣㅇ -11003
▁ㄱㅡㄱㅈㅏㄱㄱㅏ -11004
HO -11005
ㅂㅗㄹㅣ -11006
ㅔㄹㅡㅌ -11007
▁ㅇㅏㅅㅟ -11008
▁ㄴㅓㅁㄱㅣ -11009
▁ㄴㅣㅋㅗㄹ -11010
▁ㅅㅣㅁㅇㅑ -11011
▁ㅇㅏㄴㅌㅣ -11012
▁ㅅㅣㄴㅈㅓㅇ -11013
▁ㅎㅏㅁㅂㅜㄹㅡㅋㅡ -11014
ㅉㅣ -11015
▁ㄱㅣㅅㅓㅇ -11016
▁ㅁㅜㅅㅜㄹ -11017
▁ㅁㅜㄴㄱㅕㅇ -11018
ㅗㄹㅣㅇㅏ -11019
▁ㅇㅜㅅㅏㅇ -11020
▁ㅍㅗㄱㄹㅗ -11021
▁ㅂㅓㄴㅅㅓㅇ -11022
▁ㅎㅔㄹㄹㅠㅁ -11023
▁ㅇㅗㄻㄱㅕㅈㅕㅆ -11024
old -11025
▁ㅇㅗㅅㅏㄴ -11026
▁ㅈㅏㅇㅇㅝㄴ -11027
▁ㅍㅏㄹㅏㄱㅘㅇㅣ -11028
▁Mus -11029
▁ㅌㅐㅁ -11030
▁ㄴㅡㄹㅣ -11031
▁ㅇㅣㅃㅏㄹ -11032
▁ㅇㅘㅇㅈㅓㅇ -11033
▁ㅇㅣㅂㅇㅑㅇ -11034
▁ㅈㅓㅇㅂㅜㄱ -11035
▁ㅇㅕㄹㄹㅣㄴㄷㅏ -11036
▁ㅁㅣㅈㅡ -11037
▁ㅇㅣㄱㅠ -11038
▁ㄱㅡㄱㄷㅐ -11039
▁ㄷㅓㅍㅇㅕ -11040
▁ㅂㅜㅇㅕㄱ -11041
▁ㄱㅏㅂㅇㅗㅅ -11042
▁ㄱㅘㅇㅇㅑㅇ -11043
▁ㅂㅗㄱㄱㅝㄴ -11044
▁ㅅㅣㄹㅈㅓㄱ -11045
▁ㅇㅠㄷㅐㄱㅛ -11046
▁ㅈㅣㅁㅈㅏㄱ -11047
▁ㅋㅣㅇㅖㅍㅡ -11048
UR -11049
▁ㅇㅐㄹㅣ -11050
▁ㄱㅗㅇㄹㅣ -11051
▁ㅁㅗㄴㅌㅔ -11052
▁ㄱㅡㄱㄹㅏㄱ -11053
▁ㅁㅏㄷㅏㄱㅏ -11054
▁ㅇㅕㄴㄷㅗㅇ -11055
▁ㅈㅓㄴㄱㅕㄱ -11056
Hz -11057
ork -11058
▁ㅋㅡㅁ -11059
▁ㅇㅓㄹㅗ -11060
▁ㅅㅜㅈㅜㅇ -11061
▁ㄱㅓㄴㄹㅠㅇ -11062
▁ㅎㅏㄴㅊㅡㅇ -11063
▁ㅍㅣㄱㅗㅇㅣㄴ -11064
▁ㅇㅐㅊㅣㅇ -11065
▁ㄱㅓㅌㅂㅗㄱㅣ -11066
▁ㅇㅗㄹㄹㅏㄱㅏㄴㄷㅏ -11067
▁ㅅㅣㄱㅔ -11068
▁ㅁㅣㅅㅡㅌ -11069
▁ㅇㅕㄴㅁㅗㅅ -11070
▁ㅁㅜㄱㅜㅇㅎㅘ -11071
ㅌㅡㄹㅠㅁ -11072
▁ㅅㅜㅅㅣㅁ -11073
▁ㅇㅏㄴㅣㅁ -11074
▁ㅈㅣㅊㅓㅇ -11075
▁ㅌㅔㅇㅣㄹ -11076
ㄹㅣㅁㅍㅣㄱ -11077
▁ㄱㅜㄱㅇㅏㄱ -11078
▁ㅅㅣㅋㅕㅆㅇㅡㅁㅕ -11079
▁ㅍㅐㄹㅓㄹㄹㅣㅁㅍㅣㄱ -11080
ㅇㅟㅅㅓㅇ -11081
▁ㅁㅣㅅㅖㄹ -11082
▁ㅇㅠㄹㅕㅇ -11083
▁ㅇㅣㄴㄷㅣㅇㅐㄴㅏ -11084
ㄱㅡ -11085
▁ㅁㅜㅅㅡㄴ -11086
▁ㅅㅓㄴㅇㅜ -11087
▁ㅅㅗㄹㅕㅇ -11088
▁ㅈㅏㄹㄹㅏ -11089
▁ㅅㅐㄹㅗㅇㅣ -11090
▁ㄴㅏㄹㅏㄴㅎㅣ -11091
▁ㅈㅗㅅㅜ -11092
ㄲㅡㄹㅓㅇㅜㄴ -11093
▁ㄷㅜㄱㅐㄱㅗㄹ -11094
▁ㅇㅏㄹㅐㅉㅗㄱ -11095
▁ㄷㅐㅅㅓㅇㅈㅓㄴ -11096
▁ㅇㅗㄹㅏㄱ -11097
▁ㅇㅣㅎㅏㅇ -11098
▁ㅊㅕㄷㅡㄹ -11099
▁ㅇㅣㄷㅗㅇㅎㅏ -11100
▁ㅇㅐㅌㅡㄹㄹㅐㄴㅌㅏ -11101
▁ㅎㅗㅍㅡ -11102
▁ㅇㅑㄱㅎㅏ -11103
▁ㅈㅣㄴㄹㅛ -11104
▁ㄱㅛㅇㅠㄱㅂㅜ -11105
▁ㅎㅜㅂㅏㄴㄱㅣ -11106
▁ㅁㅣㅅㅣㅅㅣㅍㅣ -11107
▁ㄱㅡㄹㅣㅅㅡㅇㅣㄴ -11108
▁or -11109
ㄴㅡㄴ -11110
ㅐㅌㅡㄹ -11111
ㅅㅗㄱㄱㅣ -11112
▁ㅂㅗㄱㅏㅇ -11113
▁ㅎㅗㅇㅡㅇ -11114
▁ㅈㅏㅇㄹㅗㄱ -11115
▁ㅈㅓㅇㅇㅣㄴ -11116
▁ㅎㅕㄴㅇㅏㄱ -11117
ㅅㅏㄱㅘㄴㅎㅏㄱㄱㅛ -11118
ㅇㅔㅁ -11119
▁pro -11120
▁ㅋㅜㅁ -11121
▁ㅇㅟㄴㅏㄹㅏ -11122
▁ㅁㅣㅅㅐㅇㅁㅜㄹ -11123
() -11124
lo -11125
ㅗㄴㅔ -11126
▁ㄴㅓㄴ -11127
ㄱㅐㅁㅣ -11128
▁ㅈㅔㅇㅘㅇ -11129
▁ㄱㅔㄹㅣㄹㄹㅏ -11130
▁ㄴㅐㅅㅓㅇ -11131
▁ㅌㅏㅎㅕㅂ -11132
▁ㅎㅕㅁㅇㅗ -11133
▁ㅅㅏㅁㅜㅊㅗㅇㅈㅏㅇ -11134
CAF -11135
▁ES -11136
▁132 -11137
▁ㅅㅟㄹ -11138
▁ㄱㅏㅈㅕㅇㅗ -11139
▁ㅂㅣㅊㄴㅏ -11140
▁ㅅㅣㅁㅎㅘ -11141
▁ㄱㅡㄹㅣㅁㅈㅏ -11142
▁ㅂㅜㅌㅇㅕㅈㅕㅆ -11143
▁ㄱㅓㄷㅝㅆ -11144
▁ㄱㅕㄹㅈㅔ -11145
▁ㅈㅗㅂㅕㅇ -11146
▁ㅆㅏㅇㅝ -11147
ㅇㅓㅅㅓㄴ -11148
▁ㅅㅔㄱㅅㅡ -11149
▁ㅇㅟㅅㅐㅇ -11150
▁ㅈㅓㅂㅅㅜ -11151
▁ㅇㅝㄴㄱㅕㄱ -11152
GA -11153
ㅓㅍ -11154
▁NE -11155
ㅜㅇㅑ -11156
▁ㄷㅠㅇㅗ -11157
▁ㅈㅜㅎㅘ -11158
▁ㄱㅣㅁㅇㅗㄱ -11159
▁ㅈㅣㅂㄱㅕㄹ -11160
▁ㅅㅣㅁㅠㄹㄹㅔㅇㅣㅅㅕㄴ -11161
ㅍㅏㄹㅡ -11162
▁ㅈㅗㄱㅖ -11163
▁ㄱㅕㅇㅈㅐㅇㄹㅕㄱ -11164
▁GDP -11165
▁ㄷㅏㅌㅜㅁ -11166
▁ㄱㅕㄹㅍㅣㅂ -11167
▁ㅇㅕㅆㅇㅡㅁㅡㄹㅗ -11168
▁ㅈㅐㅎㅐ -11169
▁ㄷㅏㄹㅡㄹ -11170
▁ㄸㅏㄹㅏㅆ -11171
▁ㅇㅏㄴㅊㅣ -11172
▁ㅈㅣㄴㅅㅜ -11173
▁ㄷㅏㄷㅎㅣㄴ -11174
▁ㅇㅜㅊㅔㄱㅜㄱ -11175
▁ㅇㅣㄴㅌㅔㄹㅡ -11176
▁ㄴㅏㄲ -11177
▁ㄱㅗㅇㅇㅑㄱ -11178
▁ㄱㅘㄴㅇㅏㄱ -11179
▁ㄷㅜㄹㄹㅓㅆㅏㅇㅕ -11180
▁ㅈㅝ -11181
ㅁㅔㄴ -11182
ㅎㅐㅌㅡㄴ -11183
▁ㄱㅏㅇㅎㅢ -11184
▁ㄷㅐㄱㅏㄱ -11185
▁ㅈㅏㅇㅈㅔ -11186
▁ㅈㅗㅇㅣㄴ -11187
▁ㅁㅏㅇㅜㅅㅡ -11188
▁ㅈㅓㅇㅂㅗㅇ -11189
ix -11190
▁ㄴㅐㅇㅑ -11191
▁ㅅㅏㄱㅏ -11192
▁ㅋㅣㄹㄹ -11193
▁ㅊㅜㅈㅗㅇ -11194
▁ㅈㅓㄱㄱㅜㄴ -11195
▁ㅎㅜㅅㅗㄱㅈㅏㄱ -11196
▁ㅈㅜㄴㄱㅕㄹㅅㅡㅇㅈㅓㄴ -11197
ㅝㄴㅈㅏ -11198
▁ㄱㅐㅎㅏㅇ -11199
▁ㄱㅘㄴㅅㅔ -11200
▁ㅁㅣㄹㄹㅓ -11201
▁ㅈㅣㅋㅕㅆ -11202
▁ㅃㅓㄴ -11203
ㄱㅣㄱㅜ -11204
ㅔㄹㄹㅗ -11205
▁ㅎㅣㄹㅏ -11206
ㅏㅇㅣㄷㅓ -11207
▁ㅊㅗㅇㅝㄴ -11208
▁ㅅㅗㄱㅍㅕㄴ -11209
▁ㅌㅏㄱㅇㅝㄹ -11210
▁ㅎㅏㅂㄷㅏㅇ -11211
▁Ro -11212
▁ㅎㅛㅇ -11213
▁ㅁㅜㅅㅡ -11214
ㄱㅗㄱㄹㅣ -11215
▁ㅁㅐㄷㅏㄹ -11216
ㅎㅗㄹㄹㅡㅁ -11217
▁ㄱㅏㄹㄹㅣㅇㅏ -11218
▁ㅍㅗㄷㅗㄷㅏㅇ -11219
ㅅㅔㄱㅣ -11220
▁ㄹㅣㅁㅗ -11221
▁ㅁㅣㄴㅏ -11222
▁ㅅㅜㄴㅕㄴ -11223
▁ㅅㅔㅇㅝㅈㅕ -11224
▁ㄷㅐㅈㅣㅈㅣㄴ -11225
▁ㅅㅏㅁㄱㅜㄱㅅㅏㄱㅣ -11226
▁DM -11227
ence -11228
▁ㄱㅜㅅㅡ -11229
▁ㅇㅛㅈㅔㅍㅡ -11230
▁ㅌㅡㄱㅅㅐㄱ -11231
▁ㅌㅡㄹㅣㄴㅣ -11232
▁ㄷㅏㄹㅏㅁㅈㅟ -11233
▁ㅇㅔㄹㄹㅣㅌㅡ -11234
▁ㅇㅣㄴㅍㅡㄹㅏ -11235
▁ㄷㅏㄴㅎㅐㅇㅂㅗㄴ -11236
▁kt -11237
▁ㅌㅏㅈㅣ -11238
▁ㅊㅣㄹㅡㄴ -11239
▁ㅎㅗㅈㅗㄱ -11240
▁ㅍㅡㄹㅔㅅㅡ -11241
▁ㅎㅗㅇㅁㅜㄴㄱㅘㄴ -11242
▁ㄱㅡㄹㅓㅎㅈㅣㅁㅏㄴ -11243
▁ㄱㅗㅌㅗ -11244
ㅎㅏㄹㅅㅣ -11245
▁ㄷㅡㄹㅇㅣ -11246
▁ㅅㅔㅅㅗㄴ -11247
▁ㅈㅜㅇㅓㅈㅣㄴㄷㅏ -11248
ㅊㅓㄴㅅㅏ -11249
▁ㅊㅓㄴㅎㅏ -11250
▁ㄱㅏㄴㅅㅣㄴ -11251
▁ㅅㅏㅋㅜㄹㅏ -11252
▁PR -11253
ection -11254
▁ㄱㅘㅅㅣㄹ -11255
▁ㅅㅣㅈㅗㅇ -11256
▁ㅇㅛㅂㅓㅂ -11257
▁ㅈㅐㄴㅏㄴ -11258
▁ㅃㅛ -11259
▁ㄱㅗㅇㅍㅏ -11260
▁ㅁㅗㅇㅡㄴ -11261
▁ㅍㅕㅇㅇㅏㄴㅂㅜㄱㄷㅗ -11262
▁USS -11263
▁only -11264
▁ㄷㅗㅅㅏ -11265
ㅊㅜㄱㄱㅜ -11266
▁ㄱㅜㄱㅅㅜ -11267
▁ㅊㅜㄹㅅㅓㄱ -11268
▁ㅎㅕㄴㅈㅣㄱ -11269
▁ㅎㅕㄴㅎㅘㅇ -11270
▁ㅅㅡㅌㅡㄹㅏㅇㅣㅋㅓ -11271
ㅐㅂ -11272
▁ㅉㅡ -11273
ㅌㅔㅁㅕㄴ -11274
▁ㄷㅠㅇㅓㄹ -11275
ㅅㅏㄴㅅㅓㅇ -11276
▁ㅂㅏㄴㅇㅕㄱ -11277
▁ㅈㅏㅇㄹㅗㄱㅛ -11278
▁ㄱㅡㄹㅔㄱㅗㄹㅣㅇㅗ -11279
▁ㅇㅣㄹㅡㄹㅌㅔㅁㅕㄴ -11280
▁ㅇㅗㅋㅣ -11281
▁ㅎㅗㄹㄹ -11282
▁ㅊㅏㄹㄹㅣ -11283
▁ㄷㅡㅇㄱㅡㄱ -11284
▁ㅂㅗㅎㅔㅁㅣㅇㅏ -11285
▁ㄴㅗㅇㅅㅏㄴㅁㅜㄹ -11286
ㅂㅔㅅㅡ -11287
▁ㄱㅣㅁㅁㅣㄴ -11288
▁ㅍㅕㅇㅁㅣㄴ -11289
▁ㅇㅏㄴㄷㅡㄹㅗ -11290
▁Ph -11291
ㅂㅗㅅㅓㄴ -11292
▁ㅂㅔㄹㅌㅡ -11293
▁ㅅㅏㅇㅇㅕㄴ -11294
ㅍㅓㅇ -11295
ㅌㅏㅁㅏ -11296
▁ㅇㅝㅊㅣ -11297
▁ㅊㅓㅇㅈㅏ -11298
▁ㄷㅗㄹㅇㅣㅂ -11299
▁ㅁㅣㅈㅜㄹㅣ -11300
▁ㄱㅡㄹㄹㅗㅂㅡ -11301
▁ㄱㅣㅈㅓ -11302
▁ㅊㅏㅇㅅㅣㅈㅏ -11303
▁ㅎㅘㄹㅈㅜㄹㅗ -11304
▁ㅍㅡㄹㅐㅇㅋㅡㄹㄹㅣㄴ -11305
▁ㅇㅜㅈㅡㅂㅔㅋㅣㅅㅡㅌㅏㄴ -11306
ㅜㄴㅑ -11307
▁ㅁㅗㅌㅓㅅㅡ -11308
▁ㅇㅢㄱㅘ -11309
▁ㅎㅠㄱㅔ -11310
▁ㄱㅜㄱㅇㅠ -11311
▁ㄱㅡㄱㄷㅗ -11312
lass -11313
ㅏㄹㅣㅇㅏ -11314
▁ㄱㅏㅂㅕㅂ -11315
▁ㄷㅏㄴㄱㅘ -11316
▁ㅇㅏㄹㄹㅐ -11317
▁ㅋㅏㄹㅂㅐㅇ -11318
▁ㅂㅣㅈㅜㅇㅓㄹ -11319
▁La -11320
▁NAS -11321
ㅅㅡㅌㅔ -11322
▁ㄷㅗㅇㅇㅛ -11323
▁ㅁㅏㄴㄴㅕㄴ -11324
▁ㅁㅏㄹㄴㅕㄴ -11325
▁ㄱㅘㄹ -11326
▁ㅋㅏㅌㅏ -11327
▁ㅍㅛㅊㅏㅇ -11328
▁ㅂㅗㄱㅅㅣㄱ -11329
▁450 -11330
▁ㅅㅣㅇㅑ -11331
ㄸㅡㄹㅕㅆ -11332
▁ㅌㅏㅅㅓㄱ -11333
▁ㅂㅣㄴㅂㅓㄴ -11334
▁ㅂㅗㄱㅇㅡㅁㅅㅓ -11335
▁ㅍㅕㅇㅇㅏㄴㄴㅏㅁㄷㅗ -11336
▁un -11337
ㅣㄹㄹㅗ -11338
▁ㅁㅗㅇㅣㄴ -11339
▁ㅅㅏㅎㅏㄱ -11340
▁ㅅㅗㄱㅈㅜ -11341
▁ㅇㅑㅁㅏㅇ -11342
▁ㅁㅐㄱㅓㅈㅣㄴ -11343
▁ㅇㅖㅈㅓㅇㅈㅏ -11344
▁ㅇㅑㅇㅅㅓㅇㅈㅏ -11345
▁ㅌㅏㅇㅣㅂㅔㅇㅣ -11346
▁ㅍㅡㄹㅐㄴㅅㅣㅅㅡ -11347
▁ㅇㅏㅇㅣㅅㅡㅎㅏㅋㅣ -11348
ance -11349
▁CEO -11350
▁Mar -11351
▁ㅁㅗㅂ -11352
▁1885 -11353
▁ㅎㅘㄱㄱㅗ -11354
▁ㄱㅏㅁㄷㅗㅇ -11355
▁ㅇㅐㄹㄹㅣㅅㅡ -11356
▁ㅈㅜㅇㅇㅏㅇㅂㅜ -11357
▁ㄷㅗㄹㅇㅕㄴㅂㅕㄴ -11358
▁To -11359
▁ㅁㅐㅅ -11360
▁ㅇㅔㅂㅓ -11361
▁ㅈㅐㅈㅣㄹ -11362
▁ㄱㅘㄴㄷㅗㅇ -11363
▁ㅁㅕㅇㅂㅜㄴ -11364
▁ㅇㅏㅇㅣㅇㅗ -11365
▁ㅇㅏㅍㅈㅏㅇ -11366
▁ㅇㅠㄴㅂㅗㅅㅓㄴ -11367
ㅁㅏㄹㅜ -11368
ㅍㅜㄹㅡ -11369
▁ㅁㅏㄹㅡㅋㅗ -11370
▁ㅇㅕㄹㅅㅣㅁ -11371
▁ㅇㅐㄴㄷㅓㅅㅡㄴ -11372
▁ㅇㅗㅋㅡㄹㄹㅐㄴㄷㅡ -11373
ㅂㄴㅣㄷㅏ -11374
▁ㅈㅣㅂㅏㅇㅅㅏㄴ -11375
▁1870 -11376
ㅅㅣㅂㅈㅏ -11377
▁ㅅㅗㅇㅜㄹ -11378
▁ㅅㅜㅇㅕㅁ -11379
▁ㅅㅜㅇㅝㄴㅅㅣ -11380
▁ㅊㅓㅇㄷㅗㅇㄱㅣ -11381
▁ㅎㅏㅂㅅㅡㅂㅜㄹㅡㅋㅡ -11382
▁ㅁㅏㄷㅏㄱㅏㅅㅡㅋㅏㄹㅡ -11383
ild -11384
▁ㅅㅡㄹㅗ -11385
▁ㅌㅗㅅㅣ -11386
ㅓㅍㅣㅇㅓㄴ -11387
ear -11388
ㅌㅔㄴㅏ -11389
▁1871 -11390
▁ㅅㅏㅇㄱㅣ -11391
▁ㅅㅓㅈㅏㅇ -11392
▁ㅇㅗㄴㄷㅐ -11393
▁ㅂㅏㄹㄱㅏㄱ -11394
▁ㅇㅑㅁㅏㄱㅏ -11395
▁GN -11396
ㅂㅡㄹㅏ -11397
▁ㄷㅐㅂㅗㄴ -11398
▁ㅅㅜㄱㅈㅜ -11399
ㅂㅏㅇㅑㅅㅣ -11400
▁ㅇㅏㅍㅉㅗㄱ -11401
▁ㅈㅜㅇㅅㅐㅇ -11402
▁ㅈㅏㄹㅏㄴㄷㅏ -11403
▁ㅇㅠㄹㅓㅍㅣㅇㅓㄴ -11404
ㅊㅔㄱㅗ -11405
▁ㅂㅜㄱㅏ -11406
▁ㅂㅐㅅㅗㄱ -11407
▁ㅂㅏㄱㅎㅓㄴ -11408
▁ㅈㅓㅇㄱㅜㄱ -11409
▁ㅌㅏㅂㅅㅣㄴ -11410
ㅊㅔㄱㅗㅂㅣㄴㅏ -11411
▁ㄲㅗㅂㅎㅣㄴㄷㅏ -11412
▁ㄷㅚㄴㄷㅏㅁㅕㄴ -11413
▁ㄴㅓㄱ -11414
▁ㅇㅠㄹㅛ -11415
▁ㅇㅠㅂㅜ -11416
▁ㅇㅢㅈㅏ -11417
ㅂㅏㄴㄱㅜ -11418
▁ㅅㅓㄴㅈㅏㅇ -11419
▁ㅇㅗㄴㄱㅏㅈ -11420
ㅛㄹ -11421
▁1600 -11422
▁ㄱㅗㅇㅍㅛ -11423
▁ㅅㅓㄴㄷㅐ -11424
▁ㅇㅏㄴㅣㄹ -11425
▁ㅈㅏㅅㅔㅎㅣ -11426
▁ㅅㅔㄴㄱㅗㅋㅜ -11427
ㄷㅣㅂ -11428
▁ㄱㅕㄱㅈㅏ -11429
▁ㅇㅕㄱㄷㅗ -11430
▁ㅇㅏㄹㄹㅐㅅㅡㅋㅏ -11431
▁ㄹㅓㅅㅣ -11432
ㅌㅣㄱㅅㅡ -11433
▁1200 -11434
▁ㅇㅙㄱㅜ -11435
▁ㅈㅐㅇㅚ -11436
▁ㅅㅔㅂㅡㄴ -11437
▁ㅍㅡㄹㄹㅔ -11438
▁ㅎㅏㅁㅈㅏ -11439
▁ㅎㅘㅇㄷㅗ -11440
▁ㅅㅗㅍㅣㅇㅏ -11441
▁ㅎㅕㄴㅎㅐㅇ -11442
▁ㄹㅗㄹㅔㄴㅅㅡ -11443
▁ㅂㅜㅇㅝㄴㄱㅜㄴ -11444
▁SL -11445
▁ㅈㅡㅁ -11446
▁ㅈㅜㅈㅣ -11447
▁ㅇㅘㅇㅣㅂ -11448
▁ㅈㅓㄱㅕㄱ -11449
▁ㅌㅗㅇㅌㅡㄹㅇㅓ -11450
▁ㄷㅗㅇㅅㅓㅇㅇㅐㅈㅏ -11451
EM -11452
ㄸㅟ -11453
▁ㄴㅏㅈㅊㅜ -11454
▁ㅅㅣㄱㅜㄱ -11455
▁ㅅㅐㅇㅅㅓㄴ -11456
▁ㅈㅔㅈㅗㅇㅓㅂ -11457
▁ㅇㅔㄴㅈㅣㄴㅣㅇㅓ -11458
▁vs -11459
ㅍㅡㄹㅗ -11460
▁ㅎㅏㄱㅗ -11461
▁ㅎㅘㄹㅏㅇ -11462
ㅏㄹㅡㄷㅗ -11463
▁ㄴㅏㄱㅎㅏ -11464
▁ㅅㅐㅇㄱㅖ -11465
▁ㅍㅏㄴㅏㅁㅏ -11466
▁ㄷㅗㄹㅇㅕㄴㅂㅕㄴㅇㅣ -11467
ㅗㅂㅗ -11468
ㅅㅡㄴㅓㄹ -11469
▁ㅁㅐㅇㅅㅔ -11470
▁ㅇㅏㅅㅡㄴㅓㄹ -11471
ㅎㅡㄴ -11472
include -11473
▁ㄴㅐㅁㅜㅂㅜ -11474
▁240 -11475
▁ㄲㅓㄴ -11476
ㅌㅔㅆㅡ -11477
▁ㅋㅏㅍㅡ -11478
▁ㄱㅣㅁㅂㅕㅇ -11479
▁ㅎㅏㅇㅣㄷㅡ -11480
ㅞㄴ -11481
ㅋㅗㅌㅗ -11482
ivers -11483
▁ㅈㅣㄹㅗ -11484
ㅅㅏㅅㅏㅇ -11485
▁ㅈㅓㅇㄱㅘㄴ -11486
ype -11487
ㅍㅏㅋㅡ -11488
ㅣㄱㅘㄴ -11489
▁ㅇㅏㅃㅏ -11490
▁ㅅㅐㅇㄱㅕ -11491
▁ㄱㅜㅁㅏㅁㅗㅌㅗ -11492
▁ㅂㅗㄹㅅㅖㅂㅣㅋㅣ -11493
▁ㅇㅟㅅㅡ -11494
ㅍㅛㅇㅠㄹ -11495
▁ㄱㅔㄴㅈㅣ -11496
▁ㅂㅏㄹㅈㅏㄱ -11497
▁ㄱㅣㅁㄱㅠㅅㅣㄱ -11498
▁ㅁㅐㄴㅎㅐㅌㅡㄴ -11499
▁AD -11500
▁ㅇㅣㄷㅡㄱ -11501
▁ㅈㅗㄱㅘㅇ -11502
▁ㅋㅔㅇㅣㄴ -11503
▁ㄱㅏㅁㄱㅡㅁ -11504
▁ㄷㅗㄹㅊㅜㄹ -11505
▁ㅅㅏㅇㅎㅐㅇ -11506
▁ㅇㅏㅁㅎㅡㄱ -11507
▁ㅂㅣㄱㅌㅗㄹㅡ -11508
▁ㅍㅜㄱ -11509
▁ㅇㅠㅅㅡ -11510
▁ㄴㅏㄴㅇㅣ -11511
▁ㅌㅜㅎㅏㅇ -11512
ㅊㅓㄴㅁㅕㄴ -11513
▁ㅁㅣㅅㅡㅌㅓ -11514
▁ㅇㅏㄴㅣㅎㅏ -11515
▁ㅊㅓㅇㄹㅛㅇ -11516
ㄱㅗㅅㅗㄱㄷㅗㄹㅗ -11517
▁Sy -11518
▁ㄴㅔㅇㅣㅁ -11519
▁ㅂㅜㄹㅎㅐㅇ -11520
▁ㅇㅗㄹㅂㅏㄹㅡㄴ -11521
▁": -11522
▁ㅋㅏㅌㅓ -11523
▁ㅎㅗㅇㅢ -11524
▁ㄴㅗㅇㅅㅏ -11525
ㅅㅏㅇㅣㄷㅡ -11526
▁ㄷㅗㅇㅊㅏㅁ -11527
ㅗㅇㅑㅁㅏ -11528
▁ㅈㅏㅇㄷㅐ -11529
▁ㄴㅡㅇㅅㅓㄴ -11530
▁ㅅㅓㅇㄹㅕㅇ -11531
ans -11532
▁ㄴㅐㅁㅕㄴ -11533
▁ㅁㅐㅈㅣㄱ -11534
▁ㅂㅕㅇㅁㅏ -11535
▁ㅍㅏㅁㅜㄴ -11536
▁ㄹㅣㅈㅗㅌㅡ -11537
▁ㅇㅑㅇㅇㅠㄱ -11538
▁ㅇㅏㄹㄹㅔㄱㅅㅡ -11539
ㄴㅗㄴ -11540
▁EBS -11541
▁ㄹㅜㅋㅡ -11542
▁ㄱㅓㄴㅡㄹ -11543
▁ㅊㅏㅁㅅㅏ -11544
▁ㅎㅠㅇㄴㅗ -11545
▁ㄴㅏㅁㅅㅏㄴ -11546
▁ㅁㅜㅈㅗㄱㅓㄴ -11547
▁ㅍㅕㄴㅈㅣㅂㅈㅏ -11548
▁ㅂㅗㄴㄸ -11549
▁ㅇㅏㅊㅣ -11550
▁ㄱㅕㄱㅊㅏ -11551
▁ㅇㅐㄴㄷㅡㄹㅜ -11552
OV -11553
ㅏㅇㅓ -11554
ㅕㅅㅓ -11555
▁ㅈㅣㅈㅣㅇ -11556
▁ㅈㅓㄴㄷㅏㄴ -11557
▁ㄱㅣㅁㅈㅓㅇㅇㅡㄴ -11558
ㅇㅏㄱㅣ -11559
▁ㄷㅐㅎㅏㅂㅅㅣㄹ -11560
▁ㅈㅏㅂㅇㅏㅁㅓㄱ -11561
ㄷㅐㄱㅜㄱ -11562
▁ㄱㅜㄱㅂㅗ -11563
ㅌㅔㄹㅣㅇㅏ -11564
▁ㅅㅓㅈㅐㅍㅣㄹ -11565
ㅇㅡㄴㅣ -11566
▁ㄱㅛㅅㅣㄹ -11567
▁ㅇㅗㄹㄷㅡ -11568
ish -11569
▁ㄷㅓㅂㅣ -11570
▁ㄱㅡㄹㄹㅐ -11571
▁ㅈㅏㅇㅈㅏ -11572
ㅌㅏㅇㅣㄷㅡ -11573
▁ㄷㅐㅈㅏㅇㄱㅜㄴ -11574
TP -11575
ke -11576
▁@ -11577
▁ㅈㅏㅊㅣㅇ -11578
▁ㅁㅣㄷㅡㄹ -11579
▁ㅂㅗㅇㅅㅜ -11580
▁ㅊㅜㄹㄱㅏ -11581
▁ㅎㅘㅇㅓㅁ -11582
▁ㅈㅏㅊㅣㅊㅔ -11583
▁ㅈㅜㅇㅅㅏㅇ -11584
▁ㅅㅣㅇㅐㅌㅡㄹ -11585
ㄷㅠㅁ -11586
ㅁㅜㄱㅘㄴ -11587
▁ㄱㅜㅊㅓㅇ -11588
▁ㄱㅜㅇㄱㅝㄹ -11589
▁ㅈㅏㅇㄷㅏㄴ -11590
▁ㅅㅓㅇㄴㅏㅁㅅㅣ -11591
irl -11592
▁ex -11593
▁ㅂㅐㅅㅜ -11594
▁ㅈㅗㄹㅖ -11595
▁ㅃㅛㅈㅗㄱ -11596
▁ㅈㅓㄴㄴㅏㄹ -11597
▁ㅈㅗㅇㅁㅏㄹ -11598
▁ㅎㅘㄹㅂㅏㄹㅎㅣ -11599
▁ㄱㅕㅇㅎㅢ -11600
▁ㅇㅔㄷㅡㅁ -11601
▁ㅇㅡㄹㄲㅏ -11602
▁ㅇㅣㅂㅅㅜ -11603
▁ㅈㅣㅅㅓㅇ -11604
▁ㄷㅐㄷㅐㄹㅗ -11605
▁ㅇㅏㅋㅣㅌㅏ -11606
▁ㄱㅣㅂㅕㅇㄷㅐ -11607
▁ㄹㅣㄹㅏ -11608
▁ㅋㅏㄴㅏ -11609
▁ㅈㅔㄷㅗㅇ -11610
▁ㅎㅔㄹㄹㅣㅋㅗㅂㅌㅓ -11611
▁ㅁㅏㄹㅡㅋㅡㅅㅡㅈㅜㅇㅢ -11612
▁ㄹㅓㅂ -11613
▁ㅎㅐㅈㅓ -11614
▁ㅊㅣㄴㅂㅜㄴ -11615
▁ㅎㅏㄴㅗㅇㅣ -11616
▁ㅁㅏㄴㅣㄹㄹㅏ -11617
GM -11618
▁ㅈㅏㅇㅟ -11619
ㅇㅕㄴㅎㅏㅂ -11620
▁ㄱㅗㅇㅁㅣㄴㅇㅘㅇ -11621
▁ㅂㅏㄴㄹㅏㄴㄱㅜㄴ -11622
▁ㄴㅔㅇㅣㅅㅕㄴㅅㅡㅋㅓㅂ -11623
▁sc -11624
ㄴㅣㄲㅏ -11625
▁ㄱㅘㄴㅁㅜㄴ -11626
▁ㅁㅗㅁㅌㅗㅇ -11627
▁ㄷㅗㅇㄷㅐㅁㅜㄴ -11628
▁ㅅㅏㄱㅏㄱㅎㅕㅇ -11629
▁CM -11630
ㅓㅇㅣㄴ -11631
▁ㅇㅣㅌㅏ -11632
▁ㅇㅞㅇㅣㄴ -11633
▁ㅇㅣㅇㅑㅇ -11634
▁ㅊㅗㅂㅣㅇ -11635
▁ㅌㅡㄹㅏㅇㅣ -11636
▁ㄹㅜㄷㅗㄹㅍㅡ -11637
▁ㅇㅗㄹㅡㄴㅅㅗㄴ -11638
AF -11639
▁ㅅㅜㄷㅏ -11640
▁ㅇㅓㄱㅜㄴ -11641
▁ㅅㅏㅇㄱㅡㅂ -11642
▁ㅂㅜㄷㅡㄹㅓㅂ -11643
▁ㄷㅗㅇㅁㅜㄹㅇㅝㄴ -11644
ㅅㅡㄹㄹㅣ -11645
ㄷㅡㅇㅅㅣㄱ -11646
ㅌㅔㅅㅡㅌㅡ -11647
ㅏㄹㄹㅗㄱㅡ -11648
▁ㅎㅐㄹㅣㅅㅡㄴ -11649
▁ㅇㅑㅌ -11650
ㅅㅡㅋㅜㄹ -11651
▁ㅅㅣㅈㅜㅇ -11652
▁ㅂㅜㄴㄹㅠㄱㅜㄴ -11653
ㅌㅣㅅㅣ -11654
▁ㅆㅣㅇㅏ -11655
▁ㅇㅜㅇㅏ -11656
▁ㅋㅔㄹㅏ -11657
▁ㅌㅗㅇㅇㅛㅇ -11658
▁ㅁㅣㄱㅜㄴㅈㅓㅇ -11659
▁ㅂㅏㄱㅎㅓㄴㅇㅕㅇ -11660
▁ㄱㅏㅈㅡ -11661
▁ㅂㅣㄴㅡㄹ -11662
▁ㄱㅕㅇㅅㅣ -11663
▁ㅅㅜㅇㅣㄴ -11664
▁ㅊㅏㅇㅛㅇ -11665
▁ㅎㅏㅂㅏㄴ -11666
▁ㅎㅓㅈㅓㅇ -11667
▁ㄱㅘㄴㅎㅐㅇ -11668
▁ㅅㅣㄴㅂㅏㄹ -11669
▁ㅈㅣㅇㅂㅕㅇ -11670
▁ㅇㅗㄹㄹㅏㅆㅇㅡㅁㅕ -11671
▁ㅎㅏㅁㄱㅕㅇㄴㅏㅁㄷㅗ -11672
OD -11673
▁ㅁㅜㄹㅗ -11674
▁ㅂㅜㄴㄱㅘ -11675
▁ㅈㅓㅇㅈㅔ -11676
▁ㅇㅕㄴㅎㅏㄴ -11677
▁ㅋㅔㅇㅣㅍㅡ -11678
▁ㄹㅓㅅㅣㅇㅏㅇㅣㄴ -11679
▁ㅅㅣㄹㅎㅓㅁㅅㅣㄹ -11680
▁ㄱㅔㄹㅣ -11681
▁ㅎㅏㅋㅣ -11682
ㄷㅡㄹㅇㅣ -11683
ㅜㅅㅡㅌㅡ -11684
▁ㅇㅣㅂㅏㅇ -11685
▁ㅇㅗㄹㅗㅈㅣ -11686
▁ㅅㅣㄴㅁㅜㄴㅅㅏ -11687
ㅋㅏㄹㅣ -11688
▁ㅋㅗㄹㄹㅔ -11689
▁ㅇㅏㅋㅣㄹㅏ -11690
▁ㅌㅜㄹㅡㅋㅡ -11691
▁ㅍㅡㄹㅗㄹㅣㄱㅡ -11692
▁ㅅㅡㅌㅗㄱㅎㅗㄹㄹㅡㅁ -11693
ㅂㅏㅁ -11694
▁ㅈㅜㅇㅣㅁ -11695
▁ㅊㅗㅇㄱㅣ -11696
▁ㅌㅗㅇㅇㅕㄱ -11697
oun -11698
ㅗㅅㅗ -11699
ㅍㅏㄹㅣ -11700
▁ㅇㅛㅈㅣ -11701
▁ㅍㅏㄷㅗ -11702
▁ㄱㅏㄴㅡㄹ -11703
▁ㅅㅓㅁㅅㅔ -11704
▁ㅈㅐㅎㅘㄹ -11705
▁ㅊㅓㅇㅅㅗ -11706
▁ㄱㅕㅇㅈㅣㄹ -11707
▁ㄴㅐㅇㅑㅅㅜ -11708
▁ㅂㅏㄴㅅㅓㅇ -11709
EG -11710
▁ㅁㅔㄴㅠ -11711
▁ㅍㅡㄹㅔㅅ -11712
▁ㅂㅣㅌㅏㅁㅣㄴ -11713
▁ㄴㅓㅁㅇㅓㄱㅏㅆ -11714
ㄹㄹㅡㄴ -11715
ㅣㅇㅔㄹㅡ -11716
▁ㅁㅐㅋㅣㄴ -11717
▁ㅁㅜㅊㅓㄱ -11718
ㅇㅡㅁㅡㄹㅗ -11719
▁ㅈㅏㅊㅣㅈㅜ -11720
▁ㅊㅏㅇㅁㅜㄴ -11721
▁ㄸㅟㅇㅓㄴ -11722
▁ㄱㅏㄱㅅㅓㅇ -11723
▁ㄲㅡㅌㄴㅏㅆ -11724
▁ㅇㅏㄴㄴㅕㅇ -11725
▁ㅈㅡㅇㅇㅣㄴ -11726
▁ㅇㅕㄱㅅㅏㄱㅏ -11727
▁ㅇㅔㅅ -11728
ㅉㅓㄷㅜㅇ -11729
▁ㅂㅜㄴㅅㅜ -11730
▁ㅅㅜㅇㅑㅇ -11731
▁ㅊㅗㅇㅁㅜ -11732
▁ㅌㅣㅋㅔㅅ -11733
▁ㄷㅏㄴㅏㅋㅏ -11734
▁ㅍㅡㄹㅏㅎㅏ -11735
▁ㅈㅜㄹㄱㅓㄹㅣ -11736
▁ㅁㅏㅇㅗㅉㅓㄷㅜㅇ -11737
▁ㅎㅐㅅㅜ -11738
▁ㅌㅏㅇㅣㄹ -11739
▁ㄷㅐㅅㅏㅎㅓㄴ -11740
fe -11741
▁ㅍㅣㅊㅣ -11742
▁ㅁㅣㄴㅇㅛ -11743
▁ㅊㅓㄴㄷㅗ -11744
▁ㄱㅣㅁㅇㅝㄴ -11745
▁ㅋㅏㄹㄹㅓㅁ -11746
▁ㅂㅚ -11747
ㅅㅏㄱㅅㅡ -11748
▁ㅅㅓㄴㅂㅗㅇㅣ -11749
▁ㅅㅓㄷㅐㅁㅜㄴ -11750
▁ㅈㅣㅈㅣㅇㅠㄹ -11751
▁ㅊㅣㄴㅇㅟㄷㅐ -11752
ㅇㅏㅇㅣㄹㄹㅐㄴㄷㅡ -11753
lat -11754
ㅅㅏㄹㅣ -11755
▁ㄹㅏㅇㅗ -11756
▁ㄹㅡㄴㅗ -11757
▁ㅋㅗㅋㅏ -11758
▁ㄹㅕㄷㅓㄴ -11759
▁ㅅㅏㄹㄹㅏ -11760
▁ㅅㅣㅈㅡㅇ -11761
ㅈㅓㅇㅇㅝㄴ -11762
▁CH -11763
▁ㄴㅟ -11764
▁ㅅㅏㄹㄹㅕ -11765
▁ㅇㅗㅎㅏㅇ -11766
▁ㅈㅜㄹㅇㅓ -11767
▁ㄱㅣㄴㅌㅔㅆㅡ -11768
ㅌㅔㅅㅡ -11769
ㅊㅏㅇㅎㅗ -11770
▁ㄱㅏㄷㅡㄴ -11771
▁ㄱㅐㅎㅓㄴ -11772
▁ㅁㅜㄴㄱㅗ -11773
▁ㅅㅜㅍㅣㄹ -11774
▁ㄱㅓㅁㅈㅓㅇ -11775
ical -11776
ㄹㅏㄴㅗ -11777
▁ㄷㅗㄱㅛ -11778
▁ㄱㅘㄴㅊㅓㅇ -11779
▁ㅊㅗㅇㅌㅗㅇ -11780
ㅍㅔㅇㅣ -11781
▁ㄹㅗㅂㅓ -11782
▁ㅅㅓㅇㅅㅣㄹ -11783
▁ㅇㅛㅅㅣㄷㅏ -11784
▁Jo -11785
▁ㄹㅗㄱㅡ -11786
▁ㅍㅏㄴㅏ -11787
▁ㅇㅏㄹㅡㄴ -11788
▁ㄴㅗㅇㄱㅕㅇ -11789
▁ㅍㅕㅇㅎㅕㅇ -11790
▁ㅅㅣㄷㅏㄹㄹㅣ -11791
▁ㅍㅡㄹㄹㅏㅌㅗㄴ -11792
ㅎㅣㅌㅡ -11793
▁ㅌㅏㅅㅡ -11794
▁ㅎㅘㄱㅣ -11795
▁ㅅㅣㅇㅏㄴ -11796
▁ㅂㅏㅇㅣㅌㅡ -11797
▁ㅋㅗㄴㅌㅔㅅㅡㅌㅡ -11798
▁NT -11799
▁ㅂㅐㄹㅕ -11800
▁ㅇㅓㄹㅣ -11801
▁ㄷㅏㄷㅏㅇ -11802
▁ㅂㅜㄱㅏㄱ -11803
▁ㅍㅡㄹㄹㅗㄹ -11804
▁ㅎㅔㄹㅅㅣㅇ -11805
▁ㅅㅏㄹㅏㅈㅣㄴ -11806
▁ㅋㅓㅁㅍㅠㅌㅣㅇ -11807
▁ㅇㅕㄴㄱㅡㄱㅂㅐㅇㅜ -11808
▁ㅇㅏㅇㅗ -11809
▁ㅋㅓㅅㅡ -11810
▁ㅎㅐㅂㅜ -11811
▁ㅂㅗㅎㅐㅇ -11812
▁ㅆㅣㅇㅏㅅ -11813
▁ㅇㅔㅇㅣㅂ -11814
▁ㅅㅏㅁㅈㅗㄴ -11815
▁ㅇㅝㄴㅅㅣㅁ -11816
▁ㅅㅗㄹㄹㅗㅁㅗㄴ -11817
▁DD -11818
▁pr -11819
ㅁㅣㄴㅏ -11820
ㄷㅡㅅㅡㄴ -11821
▁ㅅㅔㄴㅌㅣㅁ -11822
▁ㅈㅓㅇㅈㅏㄱ -11823
ㅅㅡㅌㅗㄹㅏㅇ -11824
▁ㄹㅔㅅㅡㅌㅗㄹㅏㅇ -11825
▁AV -11826
▁ㄷㅏㅇㄴㅐ -11827
▁ㅁㅏㅅㅜㄹ -11828
▁ㅊㅗㅇㅇㅐ -11829
▁ㄴㅏㅁㅇㅛㅇ -11830
▁ㅈㅏㄹㅡ -11831
ㅏㅁㅣㄷㅡ -11832
ㅌㅗㅇㅇㅣㄹ -11833
▁ㅋㅡㄹㅏㅇㅣ -11834
▁ㄱㅏㄷㅡ -11835
▁ㅋㅡㄹㄹㅔㅁ -11836
▁ㅍㅓㅅㅡㅌㅡ -11837
▁ㅎㅘㄱㅏㅇㅇㅏㅁ -11838
ㅊㅡㅂ -11839
ㄷㅡㄹㅇㅕ -11840
▁ㅅㅣㅎㅏㅂ -11841
▁ㅇㅏㅇㅜㄱㅜ -11842
▁ㅇㅑㄱㅎㅗㄴ -11843
▁ㅎㅏㄱㅅㅓㄹ -11844
▁ㅎㅔㄹㅡㅊㅔㄱㅗㅂㅣㄴㅏ -11845
▁ㅁㅗㅇㅢ -11846
▁ㅊㅣㄱㅘ -11847
▁ㅁㅏㅋㅔㅅ -11848
▁ㅈㅓㄴㄹㅐ -11849
▁ㅇㅗㄹㄹㅣㅁㅍㅣㅇㅏ -11850
▁ㅊㅗㅇㅅㅏㄹㅕㅇㄱㅘㄴ -11851
▁ㄷㅏㅌㅜ -11852
ㅌㅔㄹㄹㅔㅅㅡ -11853
▁ㅁㅏㅊㅓㄴㄹㅜ -11854
ㄴㅛ -11855
▁210 -11856
▁ㄷㅡㅁㅣ -11857
ㅣㅇㅏㄱㅜㄴ -11858
▁ㄴㅠㅋㅡㄹㄹ -11859
▁ㅇㅣㄹㄷㅏㅇ -11860
▁ㅇㅛㅇㅇㅣㄴㅅㅣ -11861
▁ㄹㅣㅌㅓ -11862
ㅅㅏㄱㅏㄱ -11863
▁ㅇㅏㄹㅍㅡㅅㅡ -11864
▁ㅋㅡㄹㄹㅣㄴㅌㅓㄴ -11865
IR -11866
▁ㅍㅕ -11867
▁ㅅㅜㄱㅛ -11868
▁ㅌㅔㄹㅣ -11869
▁ㅎㅏㄹㅠ -11870
▁ㅁㅏㅅㅕㄹ -11871
▁ㅊㅣㄱㄹㅕㅇ -11872
▁ㄴㅐㄹㅕㅈㅕㅆ -11873
▁ㅎㅐㅈㅣㄴㄷㅏ -11874
FL -11875
ㅂㅣㅅ -11876
ㅂㅗㅅㅡ -11877
▁ㄱㅗㅋㅜ -11878
▁ㅊㅜㅇㅣ -11879
▁ㄷㅗㄱㄷㅗ -11880
▁ㅇㅣㄹㅜㄱ -11881
ㅎㅘㄴㄱㅕㅇ -11882
▁ㅇㅓㅁㅁㅣㄹ -11883
▁ㅇㅝㄴㅌㅗㅇ -11884
are -11885
▁ABC -11886
▁ㅇㅣㅇㅢ -11887
ㅍㅏㅂㅔㅅ -11888
▁ㅂㅜㄴㅍㅏ -11889
▁ㅎㅏㅇㅣㅁ -11890
▁ㄷㅗㄱㅊㅏㅇ -11891
▁ㅂㅏㅇㅋㅗㄱ -11892
▁ㅎㅏㅂㅊㅣㄴ -11893
▁ㅈㅜㅊㅏㅈㅏㅇ -11894
▁ㅁㅗㄱㅇㅛㅇㅣㄹ -11895
▁ㅇㅏㄹㅍㅏㅂㅔㅅ -11896
▁ㅅㅠㅅ -11897
ㅁㅓㄴㅅㅡ -11898
ㅋㅡㄹㄹㅏ -11899
▁ㅂㅏㄴㅎㅏ -11900
▁ㅅㅗㅇㅡㅁ -11901
▁ㅅㅡㅍㅗㄴㅅㅓ -11902
▁Ma -11903
ㅡㅁㅗ -11904
▁MTV -11905
▁ㅅㅐㄱㅅㅗ -11906
▁ㅈㅔㅍㅓㅅㅡㄴ -11907
▁ㄷㅗㅇㅇㅠㄹㅓㅂ -11908
EE -11909
▁ㅂㅐㄱㄷㅜ -11910
▁ㅈㅓㅇㄱㅓ -11911
▁ㅂㅜㄹㅂㅕㄴ -11912
▁ㅆㅡㅇㅕㅈㅣㄴ -11913
▁ㄷㅐㅇㅝㄴㄱㅜㄴ -11914
▁ㅁㅐㅁ -11915
▁ㅈㅜㄱㅗ -11916
▁ㄱㅗㄷㅡㄴ -11917
▁ㅈㅜㅇㅣㅂ -11918
▁ㅌㅡㄱㅈㅓㄴ -11919
▁ㅌㅡㄹㅗㅇㅣ -11920
▁ㅅㅓㄴㄱㅓㅂㅓㅂ -11921
▁ㅂㅜㄱㅇㅏㅇㅣㄹㄹㅐㄴㄷㅡ -11922
60 -11923
ㅜㅇㅔ -11924
ㅜㅈㅣ -11925
▁ㅊㅓㅎㅏ -11926
▁ㄱㅘㅇㄷㅗ -11927
▁ㅂㅔㄴㅊㅓ -11928
▁ㅅㅜㅂㅗㄱ -11929
▁ㅊㅓㄴㄱㅓ -11930
▁ㅍㅗㅅㅣㄱ -11931
▁ㅎㅏㅇㅅㅗ -11932
ㅅㅣㄴㅁㅜㄴ -11933
▁ㅂㅏㄱㅈㅗㅇ -11934
▁ㅌㅏㅇㅣㅌㅏㄴ -11935
▁ㅇㅖㅅㅓㄴㅈㅓㄴ -11936
▁ㅇㅏㄹㅣㅅㅡㅌㅗㅌㅔㄹㄹㅔㅅㅡ -11937
▁he -11938
ㄲㅏㄴ -11939
▁ㄴㅔㅅㅉㅐ -11940
▁ㅍㅗㅊㅏㄱ -11941
ㅊㅓㄴㄷㅗㅇ -11942
ㅔㅁㅗㅇ -11943
▁ㅌㅟㄹㅡㅋㅡ -11944
ㄲㅓㅇ -11945
ㅇㅡㄹㅗ -11946
▁ㅁㅐㅅㅜ -11947
▁ㅇㅏㅅㅗ -11948
▁ㅇㅏㄴㅏㅌ -11949
▁ㅈㅔㅁㅜㄹ -11950
▁ㅇㅠㅇㅏㄱㅣ -11951
▁ㄴㅏㄹㄹ -11952
▁ㅇㅠㅎㅗㄱ -11953
▁ㄱㅏㅇㄹㅕㅇ -11954
▁ㄷㅏㅈㅓㅅㅡ -11955
▁ㅌㅜㅈㅏㅈㅏ -11956
▁ㄱㅕㅇㅈㅓㄴㅊㅓㄹ -11957
▁ㄱㅏㅁㅆㅏ -11958
▁ㅅㅔㄴㅌㅡ -11959
▁ㅊㅓㄴㅇㅘㅇ -11960
▁ㄱㅏㅈㅕㅇㅗㄴ -11961
▁ㅎㅕ -11962
▁ㄱㅜㄴㅐ -11963
▁ㄹㅜㅋㅏ -11964
▁ㅌㅔㅋㅡ -11965
▁CONCA -11966
▁ㄱㅏㄹㄹㅣ -11967
▁ㅂㅣㅁㅣㄹㄹㅣ -11968
▁ㅇㅏㅁㅜㄱㅓㅅ -11969
▁ㄹㅏㅅㅓ -11970
▁ㅁㅗㅎㅗ -11971
ㄱㅜㄱㅅㅏ -11972
▁ㄱㅏㅁㅅㅜ -11973
▁ㄹㅓㄱㅂㅣ -11974
▁ㅌㅖㄴㅈㅣㄴ -11975
▁ㅇㅓㄹㅕㅇㅝㅆ -11976
▁ㅈㅓㄱㅇㅚㅅㅓㄴ -11977
▁1889 -11978
▁ㄴㅑㄴㅡㄴ -11979
▁ㄷㅔㄹㅕㅇ -11980
▁ㅅㅓㅇㅎㅘ -11981
▁ㅈㅓㄴㅁㅜ -11982
▁ㄹㅔㅇㅣㅋㅡ -11983
▁ㄴㅏㅌㅏㄴㅐㅆ -11984
ica -11985
ㅎㅗㅁ -11986
ㄸㅏㄹㅏ -11987
ㅂㅏㄹㅏ -11988
▁ㅍㅓㅍㅗ -11989
▁ㅎㅗㄷㅐ -11990
▁ㅍㅏㅅㅗㄴ -11991
ㄹㅏㅇㅣㄷㅓ -11992
▁ㅅㅐㅁㅍㅡㄹ -11993
▁ㅇㅕㅇㅈㅓㅇ -11994
▁ㅊㅓㄴㄱㅜㄱ -11995
▁CONCACAF -11996
▁ㅍㅓㅍㅗㅁㅓㄴㅅㅡ -11997
▁ㅇㅑㄷㅡ -11998
▁ㅈㅜㄱㅖ -11999
▁ㄴㅏㄱㅏㄴㄷㅏ -12000
▁ㅇㅕㄴㅅㅏㄴㄱㅜㄴ -12001
▁Fr -12002
▁ㅇㅗㅋㅡ -12003
▁ㅇㅏㄷㅔㄴ -12004
▁ㅍㅏㄹㅏㄴ -12005
▁ㅅㅗㅇㅅㅣㄴ -12006
▁ㄴㅏㅌㅡㄹㅠㅁ -12007
▁ㅂㅗㅅㅜㄷㅏㅇ -12008
▁ㄴㅡㄴㄷㅏㅁㅕㄴ -12009
▁ㅁㅗㅇㅓ -12010
▁ㄴㅏㄱㅏㄴ -12011
▁ㅁㅏㄴㅈㅏㅇ -12012
▁ㅋㅚㄹㄹㅡㄴ -12013
▁ㅇㅠㅊㅣㅇㅝㄴ -12014
▁ㅇㅘㅇㅣㅂㅓㄴㅅㅡ -12015
▁ㅆㅏㄴ -12016
ㅅㅜㅅㅡ -12017
▁ㅊㅐㅊㅟ -12018
▁ㅂㅏㄲㅟㄴ -12019
▁ㅇㅑㅈㅓㄴ -12020
▁ㅊㅏㅊㅜㄹ -12021
▁ㅂㅗㄴㅈㅏㄱ -12022
▁ㅈㅜㄱㅇㅣㄴ -12023
▁ㅅㅓㄴㄱㅜㅈㅏ -12024
▁ATP -12025
▁ㄱㅏㄹㅏㄱ -12026
▁ㄱㅜㄱㄱㅗㅇ -12027
▁ㅈㅡㄹㄱㅣㄹ -12028
ㄷㅔㄴㅂㅜㄹㅡㅋㅡ -12029
ㅁㅐㅁㅐ -12030
▁ㄱㅣㅁㅇㅠ -12031
▁ㅇㅣㅈㅓㅁ -12032
▁ㅈㅜㅇㅌㅚ -12033
▁ㅈㅓㅇㅂㅜㄱㅜㄴ -12034
▁ㄹㅗㄹㅣ -12035
▁ㅌㅜㅇㅕ -12036
ㅋㅓㄴㄷㅐ -12037
▁ㅁㅏㄹㄹㅏ -12038
▁ㅂㅕㄹㅅㅔ -12039
▁ㅅㅏㅂㅏㅇ -12040
▁ㅅㅡㄹㅎㅏ -12041
▁ㅇㅢㄹㅕㅇ -12042
▁ㅅㅣㄹㅈㅗㄴ -12043
▁ㅋㅏㄴㄱㅜㄱ -12044
ㄷㅏㄹㅡ -12045
ㅜㄹㄹㅜ -12046
▁ㅁㅏㄴㅜㅇㅔㄹ -12047
▁ㅍㅐㅌㅡㄹㅣㄱ -12048
▁Live -12049
▁ㅂㅏㄷㅣ -12050
▁ㅇㅘㄹㅏ -12051
▁ㅅㅡㅌㅔㅂ -12052
▁ㅂㅓㄷㅡ -12053
ㅌㅣㄴㅓㅁ -12054
▁ㄷㅐㅂㅜㄱ -12055
▁ㅌㅚㅈㅏㅇ -12056
▁ㅅㅣㄹㅈㅓㅇ -12057
▁ㅈㅓㅇㅈㅗㅇ -12058
▁ㅇㅗㄹㅣㅇㅗㄴ -12059
▁ㅍㅡㄹㄹㅐㅌㅣㄴㅓㅁ -12060
▁ㅇㅕㅇㅇㅠ -12061
▁ㅅㅏㅁㄹㅣㅁ -12062
▁ㅈㅓㅇㅇㅡㅂ -12063
▁ㅊㅗㅅㅣㄴㅅㅓㅇ -12064
ㅏㄴㅌㅗ -12065
▁ㄱㅏㅁㅐㅇ -12066
▁ㅊㅏㄴㅅㅏ -12067
▁ㅍㅣㅍㅣㄴ -12068
▁ㅈㅓㄴㄷㅏㅁ -12069
ㅔㅇㅣㅇ -12070
ㅊㅜㅇㄹㅠ -12071
▁ㄷㅗㄷㅜㄱ -12072
▁ㅇㅛㅊㅜㅇ -12073
▁ㅇㅣㄹㅓㅎ -12074
▁ㅍㅗㄱㅍㅏ -12075
▁ㄱㅏㄴㅏㄱㅏㅇㅘㅎㅕㄴ -12076
bo -12077
ㅘㅇㅑ -12078
ㅓㄹㅓㄹ -12079
▁ㅎㅛㅈㅏ -12080
▁ㅂㅣㅇㅔㄴ -12081
▁ㅅㅣㄹㄹㅗㄱ -12082
▁ㅇㅠㄱㅝㄴㅈㅏ -12083
▁ㅍㅣㅇㅏㄴㅣㅅㅡㅌㅡ -12084
ㅌㅏㅋㅔ -12085
ㅐㅇㅇㅣ -12086
▁ㄷㅗㅁㅣ -12087
▁ㅇㅢㄹㅠ -12088
▁ㅅㅡㅋㅏㅇㅜㅌㅡ -12089
▁ㄱㅗㅅㅗㄱㅂㅓㅅㅡ -12090
▁JTBC -12091
▁ㄱㅜㅅㅣㄹ -12092
▁ㅂㅐㄴㅋㅜㅂㅓ -12093
▁ㄱㅣㅅㅏㅇㅊㅓㅇ -12094
▁ㅁㅣㅇㅑㅈㅏㅋㅣ -12095
▁So -12096
▁ㄴㅣㅎㅗㄴ -12097
▁ㅁㅜㅎㅕㅇ -12098
▁ㅅㅡㅂㅇㅠㄴ -12099
▁ㅇㅏㅇㅣㅍㅗㄴ -12100
▁ㅇㅘㅇㅅㅔㅈㅏ -12101
▁ㄱㅗㅊㅕㅆ -12102
▁ㅇㅛㄱㅁㅏㅇ -12103
▁ㅈㅓㄹㅁㅏㅇ -12104
EL -12105
ㄷㅓㅇㅇㅣ -12106
▁ㄱㅗㅇㅎㅠ -12107
▁ㅇㅗㄴㄷㅏ -12108
▁ㅇㅠㅅㅓㄴ -12109
▁ㅇㅡㄹㅈㅣ -12110
▁ㅇㅖㅅㅜㅎㅚ -12111
▁ㅈㅣㄱㅌㅗㅇ -12112
▁ㅇㅏㄴㅌㅔㄴㅏ -12113
▁ㅇㅗㄹㄹㅏㄱㅏㅆ -12114
ㅔㄱㅡㄹㅗ -12115
▁ㄴㅗㅁㅕㄴ -12116
▁ㅅㅜㄹㅏㄱ -12117
▁ㅈㅜㄴㅅㅜ -12118
▁ㅌㅐㅇㅏㄴ -12119
▁ㅍㅓㅁㅍㅡ -12120
ㅅㅏㄴㄷㅏㅇ -12121
▁ㅅㅏㄴㅅㅓㅇ -12122
sh -12123
ㅓㅌㅡ -12124
▁ㄹㅣㅅㅏ -12125
▁ㅎㅘㅇㅅㅗ -12126
▁ㄱㅕㄹㅂㅕㄹ -12127
▁ㅅㅓㄴㅊㅓㄴ -12128
▁ㅈㅓㅇㅎㅕㅇ -12129
▁int -12130
▁ㅎㅗㄹㅣ -12131
ㅣㄹㅣㅌㅡ -12132
▁ㅂㅐㄹㄹㅣ -12133
▁ㅇㅓㄴㅡㄴ -12134
▁ㅅㅔㄴㅌㅣㅁㅣㅌㅓ -12135
▁ㅅㅗㅁㅏㄹㄹㅣㅇㅏ -12136
ㄴㅐㅆ -12137
▁ㄴㅗㄹㅗㄴ -12138
▁ㅂㅐㄱㄱㅘ -12139
▁ㅈㅜㅇㅎㅏㅂ -12140
▁For -12141
▁ㄷㅐㅈㅗㅇ -12142
▁ㅂㅏㅇㅊㅣ -12143
▁ㅋㅏㅋㅏㅇㅗ -12144
▁ㅇㅣㄹㅝㅈㅕㅆ -12145
▁ㄱㅕㅇㅇㅕㅇㅈㅏ -12146
▁ㅇㅑㄹ -12147
ㅇㅝㅋㅡ -12148
▁ㅈㅕㅅㅓ -12149
▁ㅇㅡㄴㄱㅓ -12150
▁ㄱㅏㅁㅊㅏㄹ -12151
▁ㅇㅘㅇㄱㅝㄴ -12152
▁ㅇㅝㄴㅎㅏㄴ -12153
▁ㅊㅣㅁㅁㅜㄱ -12154
▁ㅍㅔㄴㅓㄹㅌㅣ -12155
▁ㅅㅣㅇㅔ -12156
▁ㅂㅏㄲㅝㅆ -12157
▁ㅁㅔㅇㅣㅋㅓ -12158
▁ㅎㅐㄹㅣㅅㅡ -12159
IL -12160
▁GB -12161
▁ㅃㅐㄴ -12162
ㅣㄹㅕㄱ -12163
▁ㅇㅏㄱㅏ -12164
▁ㅇㅕㅇㅇㅖ -12165
ㅣㅂㅓㅅㅓㄹ -12166
▁ㅊㅏㄴㅇㅑㅇ -12167
▁ㅇㅠㄴㅣㅂㅓㅅㅓㄹ -12168
span -12169
▁ㄱㅏㄹㅏ -12170
▁ㅁㅜㅅㅣㄹ -12171
▁ㅌㅚㅈㅣㄱ -12172
▁ㅎㅑㅇㅎㅐㅆ -12173
▁ㅋㅔㅍㅡㄹㄹㅓ -12174
ㅜㅇㅏㄹㅡ -12175
▁ㅊㅣㅎㅘㄴ -12176
▁ㄱㅣㅁㅎㅕㅇ -12177
▁ㅍㅡㄹㅏㅇㅣㅁ -12178
▁onlyinclude -12179
▁ㅋㅡㄹㄹㅣㅂㅡㄹㄹㅐㄴㄷㅡ -12180
ㄷㅜㅁ -12181
▁Sou -12182
▁ㅇㅠㅁㅗㄱ -12183
▁ㅊㅜㄹㅕㄱ -12184
▁ㅇㅘㅇㄱㅓㄴ -12185
▁Com -12186
▁ㅁㅜㅅ -12187
▁ㅁㅜㄴㅓ -12188
▁ㄱㅕㄱㄹㅣ -12189
▁ㅅㅗㅈㅜㅇ -12190
▁ㅅㅡㅋㅏㄴ -12191
▁ㅈㅗㅇㅅㅣㄱ -12192
ost -12193
▁Col -12194
▁ㄱㅣㅊㅏ -12195
▁ㅁㅏㅊㅏ -12196
▁ㅈㅣㅇㅜ -12197
ㅅㅗㅌㅗㅇ -12198
▁ㅍㅏㄴㄹㅖ -12199
▁ㅅㅗㅇㅊㅜㄹ -12200
▁ㅎㅣㅁㅆㅓㅆ -12201
▁ㅈㅏㅇㅠㅁㅣㄴㅈㅜㄷㅏㅇ -12202
tern -12203
ㅂㅜㄹㅗ -12204
▁ㅁㅗㄱㅡㅁ -12205
▁ㅇㅕㄱㅝㄴ -12206
▁ㄱㅣㅁㅈㅜㄴ -12207
▁Time -12208
▁ㄱㅕㅂㅊㅕ -12209
▁ㄱㅗㅇㅈㅗㄴ -12210
ㅍㅡㅌㅓㄴ -12211
▁ㄷㅐㅇㅕㅇ -12212
▁ㅂㅗㅇㅎㅘ -12213
▁ㅅㅗㄱㅡㄱ -12214
▁ㅎㅘㅇㅑㄱ -12215
ㅎㅕㄴㄷㅗㅇ -12216
▁ㅇㅠㄱㅕㄱㅅㅜ -12217
▁ㅂㅡㄹㅔㅇㅣㅋㅡ -12218
▁ㄱㅣㅇㅘ -12219
▁ㅇㅗㅅㅏ -12220
▁ㄴㅓㅁㅊㅣ -12221
▁ㅂㅏㄴㅍㅗ -12222
▁ㅇㅗㅂㅏㅁㅏ -12223
▁TR -12224
▁ㄱㅣㅇㅣ -12225
▁ㅇㅗㅅㅔ -12226
▁ㄱㅗㄷㅣㄱ -12227
▁ㄷㅏㅇㅟㄴ -12228
▁ㅈㅜㄹㅇㅕ -12229
▁ㅍㅣㄹㅏㅁㅣㄷㅡ -12230
▁ㅇㅢㅅㅏㅅㅗㅌㅗㅇ -12231
▁Part -12232
ㅌㅡㄹㄹㅣ -12233
▁ㅅㅔㄹㅡㄱ -12234
▁ㅇㅠㅅㅣㄱ -12235
▁ㅂㅜㄹㄹㅑㅇ -12236
ㅌㅓㅅ -12237
▁ㅎㅏㅎㅐㅇ -12238
▁ㄱㅡㅁㅅㅏㄴ -12239
▁ㅅㅡㄹㅍㅡㅁ -12240
▁ㅈㅏㄱㅁㅜㄹ -12241
▁ㅎㅏㄴㄹㅣㅁ -12242
▁ㄱㅗㅇㅎㅠㅇㅣㄹ -12243
▁ㄴㅔㅌㅡ -12244
ㅏㄹㅣㅋㅏ -12245
▁ㅅㅗㅇㄷㅗ -12246
▁ㅈㅗㅇㅈㅏ -12247
▁ㅎㅏㅇㅁㅏㄴ -12248
▁ㄹㅔㅇㅣㅅㅣㅇ -12249
ood -12250
ㅅㅐㅁ -12251
ㅇㅞㄹ -12252
ㄷㅐㅅㅏ -12253
▁ㅂㅏㅌㅡ -12254
ㅈㅗㅇㅣㄴ -12255
▁ㅇㅛㄱㅕㄱ -12256
▁ㄱㅏㅇㅍㅜㅇ -12257
▁ㅂㅜㄹㅊㅏㅁ -12258
▁ㅅㅓㅇㄱㅘㄱ -12259
▁ㅈㅓㄴㅈㅓㄴ -12260
▁ㄴㅠㅋㅡㄹㄹㅔㅇㅗ -12261
▁ㅇㅏㄹㅡㅁㄷㅏㅇㅜㅁ -12262
▁ㅍㅡㄹㅏㄴㅊㅔㅅㅡㅋㅗ -12263
ㄴㅣㅈㅣ -12264
▁ㅈㅣㅈㅏ -12265
ㅣㄹㄹㅓㅅ -12266
▁ㅂㅗㄹㅌㅡ -12267
▁ㅇㅝㄴㄱㅜㄴ -12268
▁ㅌㅟㄴㅣㅈㅣ -12269
▁ㅇㅗㅎㅏㅇㅣㅇㅗ -12270
▁ㅋㅏㅅㅡㅌㅣㅇㅑ -12271
▁ㄱㅓㅁㅇㅡㄴㅅㅐㄱ -12272
▁ㅌㅜㅁ -12273
▁ㅅㅏㅌㅏㅇ -12274
▁ㄴㅏㅋㅏㅁㅜㄹㅏ -12275
▁ㄷㅐㅅㅡㅇㅂㅜㄹㄱㅛ -12276
▁ㄱㅣㅁㅈㅐ -12277
▁ㅎㅏㄴㅏㅁ -12278
▁ㄸㅟㅇㅓㄴㅏㅆ -12279
ㅁㅣㅇㅏㅁ -12280
▁ㄷㅐㄴㅅㅓ -12281
▁ㅇㅜㅎㅏㄴ -12282
ㅈㅓㅇㄷㅗㅇ -12283
▁ㄱㅏㅇㄹㅕㄹ -12284
▁ㄱㅓㄴㅈㅓㄴ -12285
▁ㅁㅗㄴㅣㅌㅓ -12286
▁ㅁㅜㄴㅈㅣㅂ -12287
▁ㅇㅕㄴㅁㅏㄹ -12288
▁ㅁㅏㄹㅁㅣㅇㅏㅁ -12289
▁ㅌㅏㅇㅣㄱㅓㅅㅡ -12290
▁ㅊㅠ -12291
ㅣㅂㅏ -12292
▁ㅅㅡㄱ -12293
ㅇㅏㄱㅏㅆ -12294
▁ㄷㅗㅇㄹㅗ -12295
▁ㅂㅣㅈㅜㄴ -12296
▁ㅍㅡㄹㄹㅣ -12297
▁ㅂㅗㄴㅅㅓㅇ -12298
▁ㅇㅕㅂㅐㅇㅜ -12299
▁ㅌㅏㅇㅣㅇㅓ -12300
▁ㅍㅕㅇㅍㅕㅇ -12301
▁ㅇㅣㄹㅝㅈㅣㄴ -12302
▁ㅋㅡㄹㄹㅔㅇㅣ -12303
▁ㅇㅣㄹㅂㅗㄴㄱㅜㄱ -12304
uc -12305
lay -12306
▁ㅁㅜㅈㅏㄱ -12307
▁ㅁㅣㅇㅑㄱㅣ -12308
▁ㅅㅏㅁㅈㅜㅇ -12309
▁ㅇㅡㅁㅈㅓㄹ -12310
▁ㅇㅣㅁㅈㅓㅇ -12311
ㅋㅏㄴㅗ -12312
▁ㅂㅏㅇㅜ -12313
▁ㅇㅕㅇㅠ -12314
▁ㅈㅣㅇㅗ -12315
▁ㅌㅡㄹㅜ -12316
▁ㅇㅓㅉㅓㄹ -12317
▁ㅎㅕㅇㅈㅣㄹ -12318
▁ㅇㅔㄴㅌㅡㄹㅣ -12319
▁ㅅㅏㅇㅣㅋㅡㄹㄹ -12320
ㅊㅏㄶ -12321
▁ㅅㅓㅇㅣㅁ -12322
▁ㅊㅟㅎㅐㅆ -12323
ㄷㅗㄹㅡㅍㅡ -12324
▁ㅌㅗㄹㅣㄴㅗ -12325
ㅍㅡㄹㅏㅇㅋㅡ -12326
ㅎㅐㅅㅏㄹㅇㅣ -12327
▁AKB -12328
▁ㅈㅜㅇㅅㅓ -12329
ㄹㅣㅇㅌㅓㄴ -12330
▁ㄹㅏㅇㅣㄷㅓ -12331
▁ㅇㅕㄴㅈㅓㅇ -12332
▁ㄹㅗㅁㅏㅇㅣㄴ -12333
▁"& -12334
ㅜㅇㅕㄱ -12335
▁ㄱㅏㄷㅗ -12336
▁ㄱㅏㅆㅡ -12337
▁ㄲㅣㅊㅣ -12338
ㅏㅁㅏㅆㅡ -12339
row -12340
ㅡㅇㅣㄴ -12341
▁ㅈㅏㅈㅔ -12342
▁ㅊㅓㅈㅣ -12343
▁ㄱㅡㄴㅅㅏ -12344
▁ㅈㅐㅍㅐㄴ -12345
▁ㅇㅠㄹㄹㅣㅇ -12346
▁ㅎㅜㅈㅣㅇㅘ -12347
▁ㅊㅏㅈㅇㅏㄴㅐ -12348
ous -12349
▁EU -12350
▁ㅈㅏㅅㅓ -12351
▁ㄱㅗㅊㅏㅇ -12352
▁ㄱㅜㄱㄷㅏㅇ -12353
▁ㅎㅜㅈㅣㅇㅘㄹㅏㄴㅗ -12354
ㄴㅗㅁ -12355
▁ㄴㅡㄺ -12356
ㅅㅏㄱㅗ -12357
▁ㄷㅡㄹㅗ -12358
▁ㄹㅏㄹㅣ -12359
▁ㄹㅜㅂㅣ -12360
▁ㅈㅜㄹㄹ -12361
ㅋㅐㅅㅡㄹ -12362
▁ㅂㅗㄹㅕㅇ -12363
▁ㄱㅡㄹㅐㄷㅗ -12364
ㅆㅡㄴ -12365
▁ㄱㅗㅈ -12366
ㅓㅇㅇㅣ -12367
▁ㄱㅖㅅㅣ -12368
▁ㅁㅗㅅㅔ -12369
▁ㄱㅣㅁㅇㅣㄴ -12370
ㅓㄱㅣ -12371
ㅏㅇㄷㅣ -12372
▁ㄹㅠㅋㅠ -12373
▁ㅂㅕㅇㅈㅏ -12374
▁ㄷㅐㄴㅣㅇㅓㄹ -12375
▁ㄱㅘㅇㅂㅗㄱㄱㅜㄴ -12376
▁at -12377
ㄷㅐㅍㅛ -12378
▁ㅁㅔㅅㅡ -12379
▁ㅇㅗㅇㅗ -12380
ㄷㅡㄹㄹㅓ -12381
ㅣㅇㅐㅁㅣ -12382
▁ㄱㅏㅁㅅㅓㅇ -12383
▁ㅈㅏㅁㅈㅓㅇ -12384
ㅍㅡㄹㅏㅇㅣㄴ -12385
▁ㅂㅏㄹㄹㅏㄷㅡ -12386
▁ㅅㅣㅁㅔㄴㅌㅡ -12387
▁ㅁㅏㅇㅣㅇㅐㅁㅣ -12388
▁ㅅㅏㅅㅓㄹ -12389
▁ㄱㅡㄹㄲㅗㄹ -12390
▁ㄱㅣㅁㅁㅕㅇ -12391
▁ㅈㅗㅇㄱㅜㄴ -12392
▁ㅎㅏㄴㅈㅜㅇ -12393
▁ㅈㅓㅇㄱㅓㅈㅏㅇ -12394
▁ㅈㅏㅇㅎㅏㄱㄱㅡㅁ -12395
ows -12396
▁ㄴㅛ -12397
▁ㅁㅗㅈ -12398
▁ㄷㅣㅇㅗㄴ -12399
▁ㅅㅏㅇㅕㄱ -12400
▁ㅊㅜㅇㅓㄱ -12401
▁ㅋㅡㄹㄹㅏ -12402
ㅣㄹㄹㅏㅇㅣ -12403
▁ㅇㅣㄴㅊㅣㅇ -12404
▁ㅈㅓㄹㅈㅓㅇ -12405
▁ㅂㅜㅊㅗㅇㄹㅣ -12406
▁ㄱㅜㄱㅈㅔㅂㅓㅂ -12407
ㅡㄹㅜ -12408
▁ㅁㅜㄱㅘ -12409
ㅜㄹㅣㅇㅏ -12410
▁ㅁㅏㄹㅡㅋㅡ -12411
▁ㄱㅛㅌㅗㅇㅂㅜ -12412
▁ㄷㅜㄹㅕㅇㅜㅁ -12413
▁ㄱㅗㅇㅣㄴㄷㅗㄹ -12414
▁ㅂㅗㅈㅗㄱ -12415
▁ㅂㅜㅍㅕㅇ -12416
▁ㄹㅔㅇㅣㅌㅡ -12417
▁ㅅㅣㅁㅅㅏㅇ -12418
▁ㅇㅕㄹㄱㅏㅇ -12419
▁ㄴㅠㅋㅐㅅㅡㄹ -12420
▁ㄷㅡㄱㅍㅛㅇㅠㄹ -12421
▁ㄴㅜㅂ -12422
▁ㅇㅠㅎㅢ -12423
▁ㅎㅜㅂㅐ -12424
ㅅㅡㄹㅕㅇ -12425
▁ㄱㅕㄱㅊㅜ -12426
▁ㅇㅏㄴㄴㅏ -12427
ㅌㅔㅇㅣㄴㅓ -12428
▁ㄱㅜㄹㅈㅓㄹ -12429
▁ㄱㅣㅁㄱㅘㅇ -12430
▁ㅍㅡㄹㅏㅇㅅㅡㄹㅕㅇ -12431
▁API -12432
▁1848 -12433
▁ㅇㅝㅋㅓ -12434
▁ㅁㅗㄱㅎㅚ -12435
▁ㅇㅖㅇㅑㄱ -12436
▁ㅈㅐㅇㅣㄹ -12437
▁ㅇㅏㄹㅂㅔㄹㅡ -12438
▁ㄸㅗㄱㄱㅏㅌㅇㅣ -12439
▁ㅅㅐㅇㅈㅗㄴㅈㅏ -12440
▁u -12441
olog -12442
▁ㄴㅕㅇ -12443
▁ㄹㅣㅇㅗㅇ -12444
▁ㅇㅐㅈㅓㅇ -12445
▁ㄹㅔㅇㅣㄷㅓ -12446
▁ㅁㅔㄷㅣㅊㅣ -12447
▁ㅅㅣㅋㅗㅋㅜ -12448
▁ㅂㅏㅇㅇㅓㅅㅓㄴ -12449
az -12450
▁ㄷㅗㅋㅜ -12451
▁ㅁㅕㅇㅅㅗ -12452
▁ㅇㅛㅇㅇㅢ -12453
▁ㅈㅣㅇㅅㅜ -12454
▁ㅈㅓㄹㅂㅕㄱ -12455
▁ㄱㅡㄹㅐㄴㅌㅡ -12456
▁ㄱㅣㅅㅜㄱㅅㅏ -12457
▁ㅋㅏㅁㅔㄹㅜㄴ -12458
▁ㅍㅡㄹㅏㅇㅅㅡㅇㅣㄴ -12459
▁131 -12460
ㅔㅇㅣㅋㅏ -12461
▁ㅇㅗㅁㅏㄴ -12462
▁ㅈㅜㅇㅅㅜ -12463
▁ㅍㅗㅌㅓㄹ -12464
▁ㄱㅏㄴㅊㅓㅂ -12465
▁ㄱㅕㅇㅂㅗㄱ -12466
ㅓㄹㄹㅣㅈㅡㅁ -12467
▁ㅈㅣㅅㅏㅇㅍㅏ -12468
ㅇㅔㅁㅣㄹㅣㅌㅡ -12469
▁ㅋㅓㄴㅌㅡㄹㅗㄹ -12470
▁ㅇㅏㄹㅏㅂㅇㅔㅁㅣㄹㅣㅌㅡ -12471
▁EM -12472
ㄱㅓㄹㅐ -12473
ㅈㅣㅂㅜ -12474
▁ㄱㅡㄱㅇㅜ -12475
▁ㅅㅜㄴㅈㅗㅇ -12476
▁ㅈㅏㅁㅔㅇㅣㅋㅏ -12477
OP -12478
▁ㅂㅏㄱㅡ -12479
▁ㅌㅏㅇㅜ -12480
ㅎㅘㅁㅜㄴ -12481
▁ㅅㅏㅁㅣㄴ -12482
▁ㅇㅔㅇㅣㅈㅡ -12483
▁ㅈㅓㅈㅣㄷㅐ -12484
▁ㄴㅏㄱㄷㅗㅇㄱㅏㅇ -12485
▁Bla -12486
▁ㅁㅣㅅㅜ -12487
▁ㅎㅏㅁㅏ -12488
ㅗㅁㅣㅇㅑ -12489
▁ㄹㅗㅇㅑㄹ -12490
▁ㄷㅐㄴㅏㅁㅜ -12491
ㅏㄴㅡㄴ -12492
▁ㅇㅠㅇㅢ -12493
▁ㄷㅗㄹㅏㅇ -12494
▁BC -12495
ㅈㅏㄹㅜ -12496
▁ㅅㅏㄹㅣㅁ -12497
▁ㅂㅓㅂㅇㅝㄴㅈㅏㅇ -12498
ann -12499
▁ㅈㅔㅇㅟ -12500
ㅅㅡㅌㅔㄴ -12501
ㅈㅣㄴㅡㅇ -12502
▁ㄱㅓㄹㅏㄴ -12503
▁ㅇㅕㅇㅢㄷㅗ -12504
▁ㅅㅐㅇㄱㅕㄴㅏㄴ -12505
▁ㄱㅏㄹㅏㅇ -12506
▁ㅅㅜㄱㅂㅜ -12507
▁ㅈㅣㅅㅓㄱ -12508
▁ㅁㅏㅈㅊㅜㄴ -12509
▁ㅅㅣㄴㄱㅗㄱ -12510
▁ㅇㅏㄹㅏㄱㅗㄴ -12511
▁ㄱㅗㅂㅜㄴㄱㅜㄴ -12512
▁ㅌㅔㄱㅅㅏㅅㅡㅈㅜ -12513
▁ㅇㅣㄴㄱㅗㅇㅈㅣㄴㅡㅇ -12514
ㅔㅇㅠ -12515
▁ㅎㅐㄷㅗㄱ -12516
▁ㅈㅣㅂㅈㅓㅇ -12517
▁ㅎㅏㄴㅗㅂㅓ -12518
▁ㅈㅕㅆㅇㅡㄴㅏ -12519
▁ㄷㅏㅊㅣ -12520
▁ㅂㅗㄹㅏ -12521
▁ㅇㅕㅅㅏ -12522
▁ㅋㅓㅅㅓ -12523
▁ㅎㅐㅌㅐ -12524
▁ㅌㅡㄱㅎㅘ -12525
▁ㄹㅣㅍㅡㅌㅡ -12526
▁ㅇㅜㄹㅜㅅㅡ -12527
▁ㅇㅟㄴㅓㅅㅡ -12528
▁ㅁㅏㅂㅓㅂㅅㅏ -12529
▁ㅇㅕㄹㅅㅣㅁㅎㅣ -12530
▁NASA -12531
▁ㄱㅗㅇㅏ -12532
▁ㄴㅣㅋㅗ -12533
▁ㅇㅜㅊㅣ -12534
ㅌㅡㄴㅓㅁ -12535
▁ㅅㅏㄴㄷㅜㅇ -12536
▁ㅎㅗㅂ -12537
ㅎㅣㅅㅏ -12538
▁ㅅㅓㅎㅐ -12539
▁ㅇㅗㄷㅣ -12540
▁ㄲㅗㅂㅎㅣ -12541
▁ㄱㅗㅇㅇㅕㅇ -12542
▁ㅅㅣㄴㅔㅁㅏ -12543
▁ㅈㅗㅇㅇㅑㅇ -12544
▁ㅎㅘㅇㅅㅐㄱ -12545
▁ㅈㅔㅇㅣㅅㅡㄴ -12546
ㅏㄹㅣㄴ -12547
ㅔㄹㅏㄹ -12548
▁ㅁㅗㅅㅐㄱ -12549
▁ㅇㅏㄱㅂㅗ -12550
▁ㅇㅕㄴㅎㅢ -12551
▁ㄴㅏㅁㅂㅏㅇ -12552
▁ㅋㅓㄹㄹㅔㄱ -12553
▁OST -12554
▁Your -12555
▁ㅂㅓㅁㅏ -12556
▁ㄴㅗㅇㅇㅓ -12557
▁ㅂㅣㅈㅓㅇ -12558
▁ㅎㅏㅇㅊㅔ -12559
▁ㅁㅏㅇㅣㅇㅓ -12560
▁ㅍㅏㄴㅅㅗㄹㅣ -12561
ㅁㅓㄱ -12562
▁ㄱㅛㅇㅢ -12563
▁ㅋㅜㄴㅣ -12564
▁ㅈㅓㅂㅎㅏㄴ -12565
▁ㅌㅏㄴㅇㅑㄱ -12566
▁ㅍㅡㄹㅗㄱㅡㄹㅐㅁㅓ -12567
▁ㄱㅘㄴㅎㅕㄴㅇㅏㄱㄷㅏㄴ -12568
ern -12569
▁ㅎㅐㅈㅕ -12570
ㄱㅣㅁㅜㄹ -12571
▁ㄱㅏㅇㅎㅐ -12572
▁ㅁㅗㄱㅓㄴ -12573
▁ㅇㅜㅅㅏㄴ -12574
▁ㄴㅏㅁㄱㅜㄴ -12575
▁ㅈㅔㅇㅜㅅㅡ -12576
▁ㅈㅜㄹㄱㅣㅅㅔㅍㅗ -12577
80 -12578
▁1883 -12579
▁ㅍㅣㅇㅗ -12580
ㄱㅣㄹㅗㄱ -12581
ㅔㄹㄹㅣㅇ -12582
▁ㄹㅏㅇㅣㅁ -12583
▁ㅈㅔㅁㅕㅇ -12584
▁ㅎㅏㅂㅊㅣ -12585
▁ㅊㅗㅇㄱㅕㄱ -12586
▁SNS -12587
ㅂㅡㄹㅡ -12588
▁ㅅㅓㄱㅟ -12589
▁ㅍㅗㄱㅗ -12590
▁ㄴㅡㄹㅣㄴ -12591
▁ㅅㅓㄴㅁㅕㅇ -12592
▁ㅁㅏㄴㅎㅘㄱㅏ -12593
▁ㅎㅐㅅㅏㅇㄷㅗ -12594
▁ㄷㅓㅂㅡㄹㄹㅣㄴ -12595
orn -12596
▁ㅎㅣㅇ -12597
▁ㄴㅏㅇㅣㄴ -12598
▁ㄴㅐㄱㅓㄹ -12599
▁ㅁㅗㅇㅛㄱ -12600
▁ㅅㅜㅅㅣㄱ -12601
▁ㅇㅑㅁㅏㄴ -12602
ㅍㅔㅅㅡㅌㅡ -12603
▁ㅂㅗㄴㅐㄴㄷㅏ -12604
▁ㅅㅐㅇㄱㅣㄴㄷㅏ -12605
▁ㅇㅑㅁㅏㄱㅏㅌㅏ -12606
ㅍㅜㄹㅇㅣ -12607
▁ㅂㅏㅇㄷㅐ -12608
▁ㅊㅜㄹㅣ -12609
▁ㄱㅏㄲㅏㅇ -12610
▁ㄱㅟㅅㅣㄴ -12611
▁ㅈㅏㅁㅕㅇ -12612
▁ㅈㅓㄱㄹㅛ -12613
▁ㅈㅣㅂㅐㅈㅏ -12614
ㅅㅓㅅㅡ -12615
▁ㅈㅗㅇㄹㅗ -12616
▁ㄱㅘㄴㅅㅏㅇ -12617
▁ㅎㅏㄴㅅㅣㄴ -12618
▁ㅈㅓㅇㅊㅣㅎㅏㄱ -12619
▁ref -12620
▁ㅁㅜㅉ -12621
▁ㅁㅏㄴㅣ -12622
▁ㅅㅓㅌㅐ -12623
▁ㅎㅔㅂㅣ -12624
▁ㅇㅏㄴㄱㅐ -12625
▁ㅇㅠㄱㅗㅇ -12626
▁ㅈㅜㅅㅏㅇ -12627
▁ㅇㅏㄴㅂㅏㅇ -12628
▁ㅇㅏㄹㅣㅇㅏ -12629
▁ㅇㅗㄴㄴㅏㄴ -12630
▁ㅈㅜㅇㅅㅗㄱ -12631
ㄷㅗㅇㅓ -12632
ㅁㅣㄹㅡ -12633
ㅝㄴㅅㅜ -12634
ㅡㅅㅔㄴ -12635
▁ㄱㅖㅈㅜ -12636
▁ㄷㅐㅈㅘ -12637
▁ㄹㅗㅋㅣ -12638
ㅂㅔㄹㅌㅡ -12639
ㅋㅏㅇㅣㄴ -12640
▁ㅈㅓㅁㅍㅗ -12641
▁ㅇㅣㄹㄱㅏㄱ -12642
▁ㅁㅛㅂㅣ -12643
▁ㄱㅗㅎㅡㅇ -12644
▁ㄱㅣㅁㅌㅐ -12645
▁ㄱㅗㅇㅅㅓㅇ -12646
▁ㅎㅏㄴㄱㅕㄹ -12647
▁ㅂㅜㅅㅏㅇㅈㅏ -12648
ㅡㅁㅣㄴ -12649
▁ㄱㅏㄴㄹㅑㄱ -12650
▁ㅁㅜㄴㄷㅏㄴ -12651
▁ㅇㅕㄹㅈㅓㄴ -12652
▁ㅇㅝㄴㅅㅏㄴㅈㅣ -12653
CC -12654
▁FK -12655
▁tv -12656
▁ㄱㅏㄱㅏ -12657
ㅂㅓㄹㅡㄴ -12658
▁ㅅㅏㅂㅎㅘ -12659
▁ㅅㅏㅇㄱㅗ -12660
▁ㅅㅏㅇㅕㅇ -12661
▁ㅎㅗㄴㄷㅏ -12662
▁ㅇㅏㅇㅣㅈㅡ -12663
▁ㅇㅡㅇㄱㅡㅂ -12664
▁ㄱㅏㅂㅡㄹㅣㅇㅔㄹ -12665
▁ㅋㅜㅂㅣㄹㄹㅏㅇㅣ -12666
40 -12667
▁ㅇㅑㅇㅚ -12668
ㄴㅗㄹㅇㅣ -12669
▁ㅍㅏㅍㅜㅇ -12670
▁ㅇㅛㅇㅇㅐㄱ -12671
▁ㅇㅣㄱㅅㅜㄱ -12672
▁ㅂㅔㅇㅣㄹ -12673
▁ㅇㅏㅁㅗㄱ -12674
▁ㅇㅑㅇㅅㅣㅁ -12675
▁ㅇㅕㄴㄱㅜㄱ -12676
▁ㄸㅟㅇㅓㄷㅡㄹ -12677
▁ㅅㅠㅍㅓㅋㅓㅂ -12678
▁Wind -12679
▁ㅋㅡㄹㅔ -12680
▁ㄱㅣㅈㅓㄴ -12681
▁ㄷㅓㅍㄱㅐ -12682
▁ㅃㅏㅈㅕㄴ -12683
▁ㄱㅜㄱㅎㅏㄴ -12684
▁ㅇㅔㅇㅣㅈㅓㄴ -12685
ㅅㅡㅌㅔㄹㅡㄷㅏㅁ -12686
▁RP -12687
▁ㄸㅣㄴ -12688
▁ㄷㅏㄴㄱㅕㄹ -12689
▁ㅅㅓㄹㅁㅜㄴ -12690
▁ㅂㅗㅅㅜㅈㅜㅇㅢ -12691
ㅂㅓㄹㅓ -12692
▁ㄷㅐㅁㅏ -12693
▁ㄱㅓㅅㅓㅇ -12694
▁ㄴㅜㄹㅕㅆ -12695
ㄷㅡㄹㅣㅇㅏ -12696
▁ㄷㅗㅇㅅㅏㄴ -12697
▁ㅅㅓㅇㄷㅗㅇ -12698
ㅅㅏㄹㄹ -12699
▁1882 -12700
▁ㄴㅗㄱㅎㅘ -12701
▁ㅍㅐㄹㅓㄷㅣ -12702
▁RS -12703
ㄹㅐㅇ -12704
▁ㅂㅔㅌㅡ -12705
▁ㅈㅣㅂㅓㅂ -12706
▁ㅅㅗㄱㄹㅕㄱ -12707
▁ㅇㅔㅅㅡㅍㅔㄹ -12708
▁ㄴㅗㄹㄹㅏㅇㅜㄴ -12709
▁ㅁㅕㅇㅎㅘㄱㅎㅣ -12710
▁ㅇㅣㅇㅛㅇㄱㅐㄱ -12711
▁ㅈㅣㅂㅜㅇㄷㅗㄹ -12712
▁ㅍㅔㅅㅡ -12713
▁ㅂㅜㅇㅏㄴ -12714
▁ㅎㅏㄴㅁㅣ -12715
▁ㅌㅗㅁㅏㅌㅗ -12716
▁ㄴㅔㄷㅓㄹㄹㅏㄴ -12717
▁ㄷㅏㄴㅊㅔㅈㅓㄴ -12718
▁Day -12719
▁ㅇㅗㅁㅣ -12720
▁ㅋㅏㅅㅣ -12721
ㅈㅔㅍㅜㅁ -12722
▁ㅂㅏㄲㅜㄹ -12723
▁ㅍㅕㅇㅈㅣ -12724
ㅊㅜㅂㅜㅅㅏ -12725
▁ㄱㅐㄱㅜㄹㅣ -12726
▁ㄷㅏㄴㄱㅜㄴ -12727
▁ㄷㅗㅇㅈㅣㄴ -12728
▁ㅅㅏㅇㄹㅗㄱ -12729
ink -12730
ㅍㅗㅅㅣ -12731
▁ㅇㅛㅈㅓㄹ -12732
▁ㅈㅐㅍㅕㄴ -12733
▁ㅇㅟㄱㅜㄹㅡ -12734
▁ㅍㅏㄹㄹㅕㅆ -12735
▁new -12736
▁ㅅㅣㄴㅗ -12737
ㅐㄴㅌㅣㄱ -12738
▁ㅇㅓㅂㅈㅏ -12739
▁ㄱㅘㄴㅁㅗㄱ -12740
▁ㅈㅜㅇㅇㅕㅂ -12741
▁ㅅㅣㅈㅡㅇㅗㅋㅏ -12742
▁ㅍㅏㅇㅣㄹㄹㅓㅅ -12743
▁Ge -12744
ㅏㄹㄹㅑㅇ -12745
▁ㅇㅠㅅㅐㅇ -12746
▁ㅎㅏㅁㄹㅑㅇ -12747
▁ㅎㅠㄱㅔㅅㅗ -12748
▁ㅇㅕㄴㄱㅜㅎㅚ -12749
▁ㅇㅣㅅㅡㅌㅏㄴ -12750
▁ㅁㅣㅅㅡㅌㅓㄹㅣ -12751
▁ㅈㅓㅇㅂㅗㅇㅝㄴ -12752
▁ㅋㅏㅅㅏ -12753
▁ㅎㅏㅊㅣ -12754
▁ㄴㅐㅇㅣㄹ -12755
▁ㄷㅏㄷㅡㅁ -12756
▁ㅂㅏㅊㅕㅆ -12757
▁ㅅㅜㅇㅕㄹ -12758
▁ㅈㅔㅊㅓㄴ -12759
ㅣㄹㄹㅓㅅㅡ -12760
▁ㄷㅡㄷㅣㅇㅓ -12761
▁ㅁㅜㄷㅎㅕㅆ -12762
▁ㅈㅔㄱㅏㄹㄹㅑㅇ -12763
▁ㄱㅗㅁㅏ -12764
▁ㅋㅜㅍㅓ -12765
ㅈㅣㅇㅕㄴ -12766
▁ㄱㅗㅇㅁㅜ -12767
▁ㅇㅏㅇㅣㅇㅓㄴ -12768
▁ㅎㅐㅇㅏㄴㅅㅓㄴ -12769
▁ㅈㅜㅇㅅㅗㄱㅣㅇㅓㅂ -12770
II -12771
▁Sch -12772
ㅋㅏㄴㅏ -12773
▁ㄱㅡㅈㅓ -12774
▁ㅌㅏㄹㅣ -12775
▁ㅁㅏㄸㅏㅇ -12776
ㅏㅇㅣㄹㄹㅓ -12777
▁ㅂㅡㄹㅔㅇㅣ -12778
▁ㅅㅣㅋㅕㅇㅑ -12779
▁ㅎㅕㅇㅂㅓㄹ -12780
ㅌㅔㅇㅣㅅㅕㄴ -12781
▁ㄷㅡㄹㅓㄴㅐㅆ -12782
▁ㅍㅡㄹㅣㄴㅅㅡ -12783
▁ㅉㅓㄴ -12784
▁ㅅㅏㄴㅇㅛ -12785
▁ㅋㅔㄹㅌㅡ -12786
▁ㄱㅏㅇㄷㅏㅇ -12787
▁ㄱㅗㄹㄱㅕㄱ -12788
▁ㅁㅜㄹㄹㅓㄴ -12789
▁ㄷㅐㄹㅣㅇㅣㄴ -12790
▁ㅇㅓㄱㅡㅅㄴㅏ -12791
▁ㅎㅜㅅㅔ -12792
ㅞㅇㅣㅌㅡ -12793
▁ㄱㅡㅂㅇㅕ -12794
ㅎㅏㅂㅅㅓㅇ -12795
▁ㄷㅔㄴㅣㅅㅡ -12796
▁ㅂㅡㄹㄹㅜㅁ -12797
▁ㅍㅕㅇㅍㅏㄴ -12798
▁ㄱㅓㅅㅔ -12799
▁ㄱㅣㅎㅐ -12800
▁ㅁㅗㅂㅓㅁ -12801
▁ㅂㅜㅇㅘㅇ -12802
▁ㅇㅝㄹㅌㅓ -12803
▁ㅇㅡㄴㅎㅖ -12804
▁ㅋㅏㄹㅗㄹㄹ -12805
▁ㄹㅔㄷㅡㅅㅏㄱㅅㅡ -12806
▁ㄱㅜㄷㅜ -12807
▁ㅅㅏㅅㅓ -12808
▁ㅇㅣㅈㅣ -12809
▁ㄱㅏㅎㅗㄱ -12810
▁ㅅㅏㄴㅅㅣ -12811
▁ㅅㅔㅅㅡㅂ -12812
▁ㅈㅣㄴㄹㅗ -12813
▁ㄷㅣㄹㄹㅓㄴ -12814
▁ㅇㅕㄴㄹㅣㅂ -12815
▁ㅈㅓㅇㅇㅡㄴ -12816
▁ㄴㅗㅂㅔㄹㅅㅏㅇ -12817
▁ㅇㅕㅇㅎㅘㅅㅏㅇ -12818
ㄹㅔㅅㅡ -12819
▁ㅇㅜㅅㅣ -12820
▁ㅈㅗㄱㅛ -12821
ㄷㅗㄹㅇㅣ -12822
ㅌㅓㄹㅣㅇ -12823
▁ㄱㅓㅁㄱㅓ -12824
▁ㅁㅏㅈㅊㅜㅁ -12825
▁ㅁㅗㄴㅌㅔㄴ -12826
▁ㅂㅗㅇㅇㅣㄴ -12827
▁ㅈㅓㅇㅇㅝㄹ -12828
▁ㅂㅏㅇㅅㅏㄴㅡㅇ -12829
▁ㄴㅗㄹㅡㅁㅏㅇㄷㅣ -12830
▁ㅇㅣㅀㅇㅓㅂㅓㄹㅣㄴ -12831
ㅌㅗㅋㅡ -12832
ㅇㅓㅈㅕㅆ -12833
▁ㅇㅝㄴㄹㅗ -12834
▁ㅎㅏㅇㅇㅝㄴ -12835
ㅗㅅㅗㄱㄷㅗㄹㅗ -12836
ㅋㅗㄹㅡ -12837
▁ㅅㅣㅋㅕㅅㅓ -12838
▁ㅈㅓㄹㄱㅏㅁ -12839
▁ㄱㅡㄹㅏㅇㅜㄴㄷㅡ -12840
▁GM -12841
ㅏㄱㅟ -12842
▁ㄸㅐㄹㅕ -12843
▁ㅂㅏㄲㅜㄴ -12844
ㅈㅏㄴㅣㅇㅏ -12845
▁ㅅㅏㄴㅌㅣㅇ -12846
▁ㄱㅕㅇㅈㅜㅅㅣ -12847
▁ㄷㅏㄹㄹㅏㅈㅣ -12848
▁ㅁㅔㄹㅂㅓㄹㅡㄴ -12849
▁ㅈㅓㅇㅇㅢㄷㅏㅇ -12850
▁ㅍㅣㄹㄹㅣㅂㅅㅡ -12851
▁ㅂㅡㄹㅜㅋㅡㄹㄹㅣㄴ -12852
ㅉㅜㄱ -12853
ㄷㅡㅇㅟ -12854
▁ㄴㅣㅋㅣ -12855
▁ㄷㅗㅍㅣ -12856
▁ㅅㅜㅇㅟ -12857
▁ㄱㅕㅇㅇㅟ -12858
▁ㄱㅘㅌㅔㅁ -12859
▁ㅂㅜㅎㅏㅂ -12860
▁ㅆㅣㅈㅗㄱ -12861
▁ㅂㅏㄱㅡㄴㅓ -12862
▁ㅈㅣㄱㅅㅗㄱ -12863
▁ㄱㅘㅌㅔㅁㅏㄹㄹㅏ -12864
▁ㄱㅛㅎㅑㅇㅇㅏㄱㄷㅏㄴ -12865
OT -12866
▁SA -12867
ㄴㅣㅁ -12868
ㅅㅓㄴㅣ -12869
▁ㅂㅜㄷㅏ -12870
ㅅㅏㄹㅕㄱ -12871
▁ㅈㅣㄴㅎㅐ -12872
▁ㅋㅗㄴㅅㅗㄹ -12873
▁ㅊㅣㄹㅓㅈㅕㅆ -12874
▁ㅇㅏㅇㄱㅗㄹㄹㅏ -12875
▁ㅇㅓㅍㅏ -12876
ㅂㅣㄱㅜㄴ -12877
ㅎㅏㄱㅔㄴ -12878
▁ㄱㅏㅈㅜㅇ -12879
▁ㄱㅘㄴㄹㅖ -12880
▁ㄲㅜㅁㄲㅜ -12881
▁ㄷㅏㄴㅅㅗㄱ -12882
▁ㅂㅏㄹㅅㅏㅇ -12883
▁ㅂㅓㄴㅊㅏㅇ -12884
▁ㅎㅕㅂㅇㅓㅂ -12885
▁ㅈㅜㄱㅖㅇㅕㄹ -12886
▁ㅍㅜㅇㅔㄹㅡㅌ -12887
▁ㅇㅏㄴㅏㄹㄹㅗㄱㅡ -12888
▁ㅅㅓㅆ -12889
▁ㅅㅏㄴㅅㅡ -12890
▁ㅈㅔㄷㅏㄴ -12891
▁ㅈㅣㄱㅡㄱ -12892
▁ㅊㅚㅇㅕㅇ -12893
▁ㅇㅗㄻㄱㅣㄴ -12894
▁colspan -12895
ㅠㄹㅓㄴ -12896
▁ㅇㅠㅅㅓ -12897
▁ㄱㅗㅇㅅㅗ -12898
▁ㄷㅗㅂㅏㄱ -12899
▁ㄱㅏㅈㅕㄷㅏ -12900
▁ㅂㅏㄱㅅㅓㅇ -12901
▁ㅊㅓㄹㅇㅝㄴ -12902
▁ㅊㅣㄴㅈㅗㄱ -12903
ㅇㅓㅅㅏ -12904
▁ㅅㅏㅅㅜ -12905
▁ㅈㅐㄹㅐ -12906
▁ㅋㅗㅅㅣ -12907
▁ㅅㅣㄱㅅㅡ -12908
▁ㅋㅗㅍㅔㄴ -12909
▁ㅂㅜㄱㄱㅜㄴ -12910
▁ㅈㅓㅇㅈㅓㅇ -12911
▁ㅁㅗㄴㅌㅔㄴㅔㄱㅡㄹㅗ -12912
ㄷㅔㄹㅣ -12913
▁ㄱㅣㅅㅔ -12914
▁ㅁㅗㅅㅕ -12915
▁ㅎㅏㅋㅗ -12916
▁ㅁㅗㄹㅡㄴ -12917
ㅋㅡㄹㄹㅣㄷㅡ -12918
▁ㅅㅏㅇㅓㅂㅅㅗ -12919
▁ㄱㅏㄴㅅㅣㄴㅎㅣ -12920
▁ㄱㅗㅇㅎㅘㅈㅓㅇ -12921
▁ㅅㅏㅇㅣㅌㅏㅁㅏ -12922
▁ㅇㅠㅋㅡㄹㄹㅣㄷㅡ -12923
▁Or -12924
ㅏㅁㅣㄴ -12925
▁ㄴㅓㅁㅓ -12926
▁ㅅㅓㅊㅗㄱ -12927
▁ㅇㅔㄴㄹㅣ -12928
▁ㅈㅓㅇㄹㅕㅇ -12929
▁ㅌㅗㅇㅅㅣㄴㅅㅏ -12930
▁ㅌㅐㅎㅜ -12931
▁ㄴㅏㄲㅅㅣ -12932
▁ㅈㅜㅊㅏㅇ -12933
▁ㅊㅜㅇㄹㅕㄹ -12934
▁ㅋㅓㄴㅌㅡㄹㅗㄹㄹㅓ -12935
▁ㄱㅗㄹㅗ -12936
▁ㅅㅔㅇㅛ -12937
▁ㅇㅜㅇㅔ -12938
▁ㅈㅏㅂㅎㅕ -12939
▁ㅊㅟㅎㅏㄴ -12940
▁ㅌㅏㄹㅏㄱ -12941
▁ㄷㅏㄹㄹㅏㅆ -12942
▁ㄷㅐㄷㅏㄴㅎㅣ -12943
▁ㄹㅣㅈㅡ -12944
ㅂㅗㄴㅂㅜ -12945
▁ㄱㅜㄱㅇㅚ -12946
▁ㅇㅛㅇㅑㅇ -12947
▁ㄱㅝㄴㅇㅕㄱ -12948
▁ㅂㅏㄷㄷㅡㄹ -12949
▁ㅇㅕㅇㅇㅏㅁ -12950
▁ㅍㅕㄴㄱㅕㄴ -12951
▁ㄷㅐㅂㅓㅂㄱㅘㄴ -12952
US -12953
▁ㅂㅐㄷㅏㄹ -12954
▁ㅈㅗㅅㅔㅂ -12955
▁ㄴㅔㄹㅅㅡㄴ -12956
▁ㄷㅐㅍㅛㅈㅏ -12957
▁ㅇㅕㅇㄷㅓㄱ -12958
▁ㅈㅣㄴㅎㅏㄴ -12959
▁ㅎㅛㄱㅗㅎㅕㄴ -12960
▁end -12961
▁ㅍㅔㄹㅗ -12962
▁ㅎㅚㄱㅟ -12963
▁ㄱㅜㅎㅏㄴ -12964
▁ㅂㅡㄹㅣㅅ -12965
▁ㅇㅑㄱㅎㅐ -12966
▁ㅊㅚㅅㅓㄴ -12967
▁ㅋㅡㄹㅣㅇ -12968
▁ㄷㅗㅇㅈㅓㄱ -12969
▁ㅇㅘㅇㄱㅜㅇ -12970
▁ㅈㅗㅇㅇㅕㅇ -12971
▁ㅁㅣㅌㅗㅋㅗㄴ -12972
▁ㅇㅓㅅㅣㅅㅡㅌㅡ -12973
▁ㅁㅣㅌㅗㅋㅗㄴㄷㅡㄹㅣㅇㅏ -12974
ㅓㄹㅅㅡ -12975
▁4000 -12976
▁ㅂㅜㅍㅏ -12977
▁ㅅㅣㄴㅈㅜㅋㅜ -12978
▁330 -12979
▁ㅋㅏㅅ -12980
▁ㅊㅜㅅㅓ -12981
▁ㄱㅏㄴㅅㅏ -12982
▁ㄱㅗㅅㅐㅇ -12983
▁ㄱㅣㄹㅑㅇ -12984
▁ㄹㅔㅇㅗㅍㅗㄹ -12985
▁ㄱㅣㅁㅇㅗㄱㄱㅠㄴ -12986
ㄷㅗㄹㅏ -12987
ㅊㅣㅎㅣ -12988
ㅎㅐㅇㅑ -12989
▁ㅇㅠㄱㅗ -12990
▁ㅌㅏㅅㅜ -12991
ㄱㅛㅌㅗㅇ -12992
▁ㅈㅜㅅㅓㄴ -12993
▁ㅇㅕㅇㅇㅝㄹ -12994
▁ㅇㅗㅇㅣㄹㄹㅓ -12995
▁ㄷㅡㅂ -12996
▁ㅆㅣㄴ -12997
▁ㅈㅗㅅㅠ -12998
▁ㄱㅜㄴㄷㅔ -12999
▁ㄷㅐㅊㅓㅇ -13000
▁ㅁㅏㄱㅡㄴ -13001
▁ㅅㅐㄱㅣㄴ -13002
▁ㄹㅗㅁㅏㅈㅏ -13003
▁ㄱㅓㄹㅊㅕㅅㅓ -13004
▁ㅇㅏㄴㅌㅣㅇㅗ -13005
▁ㅁㅔㄹㅣㄹㄹㅐㄴㄷㅡ -13006
▁ㅇㅣㅅㅡㅌㅏㄴㅂㅜㄹ -13007
▁ㅅㅣㄱㅇㅛㅇ -13008
▁ㅅㅣㄹㅈㅡㅇ -13009
▁ㅎㅏㄹㅇㅣㄴ -13010
▁ㄷㅏㄹㅇㅏㄴㅏㅆ -13011
▁ㅋㅐㅅ -13012
▁ㅂㅐㅂㅜㄴ -13013
ㅇㅠㅇㅎㅏㅂ -13014
▁ㄴㅗㅎㅇㅣㄴ -13015
▁ㅎㅏㄱㄹㅕㄱ -13016
▁ㅈㅣㄴㅣㄴㄷㅏ -13017
oll -13018
▁1868 -13019
▁ㅅㅐㅇㅜ -13020
ㅗㄹㅣㅋㅗ -13021
▁ㅋㅏㅌㅜㄴ -13022
ㅌㅣㅁㅗㅇㅓ -13023
▁ㄷㅏㄴㅁㅏㄹ -13024
▁ㄷㅗㅇㅅㅣㄷㅐ -13025
▁ㅅㅜㅇㅛㅇㅣㄹ -13026
▁ㅎㅡㄹㅡㄴㄷㅏ -13027
▁ㄱㅣㄴㅕㅁㅇㅣㄹ -13028
▁ㅌㅐㄱㅡ -13029
▁ㅍㅗㅌㅗ -13030
▁ㅂㅡㄹㅏㅁ -13031
▁ㅅㅓㅁㅕㄴ -13032
▁ㅅㅣㄴㅈㅣ -13033
▁ㅇㅠㅇㅕㅇ -13034
▁ㅈㅗㅇㅕㅇ -13035
▁ㅂㅜㄱㅇㅠㄹㅓㅂ -13036
▁by -13037
▁ㅆㅏㄱ -13038
▁ㅍㅏㅂㅓㄹ -13039
▁ㄷㅏㄴㅈㅓㅇ -13040
▁ㄹㅏㅍㅏㅇㅔㄹ -13041
▁ㅇㅛㅊㅜㅇㅈㅣ -13042
▁ㅎㅐㄱㅇㅠㅇㅎㅏㅂ -13043
▁ㄷㅟㅇㅣ -13044
ㅎㅗㄹㅏㄴ -13045
▁ㄹㅏㅇㅜㄹ -13046
▁ㄱㅡㅂㅈㅡㅇ -13047
▁ㅋㅓㄹㅣㅇㅓ -13048
▁ㅅㅓㄴㅈㅣㄴㄱㅜㄱ -13049
▁OB -13050
▁ㅍㅛㅇ -13051
▁ㄹㅏㄱㅏ -13052
▁ㅆㅏㅇㅣ -13053
▁ㅎㅜㅇㅖ -13054
ㅁㅏㄹㄹㅗ -13055
ㅋㅏㄹㄹㅣ -13056
▁ㄷㅐㄷㅓㄱ -13057
▁ㅇㅜㅇㅘㅇ -13058
▁ㅈㅗㄱㅂㅗ -13059
▁ㅅㅓㅇㅇㅝㄴ -13060
▁ㅂㅣㅅㅓㄱㅘㄴ -13061
gin -13062
ㅇㅜㅁ -13063
▁ㄴㅑㅇ -13064
▁ㄱㅏㅇㅜ -13065
▁ㅂㅣㅊㅜ -13066
▁ㅅㅗㅅㅣ -13067
ㅡㄹㄹㅏㄴ -13068
▁ㅌㅔㄴㅔㅅㅣ -13069
▁ㅈㅓㄴㅂㅏㄴㄱㅣ -13070
▁ㄱㅘㄴㄱㅖㅇㅓㅄㅇㅣ -13071
amp -13072
ㅣㄱㅐ -13073
▁320 -13074
▁ㄴㅠㅁ -13075
▁ㄷㅗㄹㅐ -13076
▁ㄹㅣㅁㅏ -13077
▁ㅇㅣㅁㅗ -13078
▁ㅅㅣㄴㅇㅣㅂ -13079
▁ㅊㅜㄱㅅㅏㄴ -13080
▁ㅇㅏㅋㅔㅇㅣㄷㅡ -13081
▁ㅋㅗㅍㅔㄴㅎㅏㄱㅔㄴ -13082
▁Girl -13083
▁ㅅㅗㅇㅚ -13084
▁ㄱㅛㅈㅣㄱ -13085
▁ㅂㅜㄹㄱㅖ -13086
▁ㅎㅏㅇㄹㅗ -13087
▁ㅋㅗㄹㄹㅓㅁ -13088
▁ㅇㅗㅅㅡㅌㅣㄴ -13089
ㅣㄹㅗ -13090
▁ㄷㅡㄹㅔ -13091
▁ㅎㅐㅍㅣ -13092
▁ㄱㅕㄹㅅㅏ -13093
▁ㅊㅚㅈㅣㄴ -13094
▁ㅍㅡㄹㅏㄴㅅㅣㅅㅡㅋㅗ -13095
▁ㅍㅔㅂ -13096
▁ㅍㅣㅅ -13097
ㅣㄱㅗㅇ -13098
▁ㅇㅚㅊㅣ -13099
▁ㅇㅟㅈㅗ -13100
▁ㅈㅣㄹㅡ -13101
▁ㅋㅏㅁㅣ -13102
▁ㅁㅏㅆㅡㅁ -13103
▁ㅁㅗㅌㅓㅅ -13104
▁ㅂㅗㄹㅡㅁ -13105
▁ㅇㅟㅊㅗㄱ -13106
▁ㅁㅜㄴㅈㅗㅇ -13107
▁ㅋㅓㄴㅅㅓㄹ -13108
▁ㄹㅜㅇㅣㅈㅣㅇ -13109
ㄱㅗㅇㅅㅏㄴㄷㅏㅇ -13110
ㅡㅇㅣ -13111
ㅎㅣㄷㅡ -13112
▁ㄱㅏㅌㅗ -13113
ㅂㅜㄱㄱㅜ -13114
▁ㅈㅗㅇㅅㅣㄴ -13115
▁ㅅㅡㅋㅐㄴㄷㅡㄹ -13116
▁ㅇㅓㅉㅣ -13117
▁ㅇㅚㄱㅘ -13118
▁ㅊㅏㅅㅓㄴ -13119
▁ㅍㅡㄹㅐㄴㅊ -13120
RT -13121
ㅣㅍㅏ -13122
▁ㄴㅗㅂㅗ -13123
▁ㅊㅗㅇㅏㄴ -13124
▁ㅎㅗㄹㄹㅣ -13125
ㄱㅡㄹㅏㄷㅡ -13126
▁ㄱㅏㅇㅅㅓㅇ -13127
▁ㅅㅓㅇㅅㅏㄴ -13128
▁ㅇㅓㅇㅞㅇㅣ -13129
▁ㅅㅣㅌㅡㅋㅗㅁ -13130
▁ㄷㅡㄹㄹㅕ -13131
▁ㄹㅐㅇㅋㅡ -13132
▁ㅂㅏㄱㅅㅏㅇ -13133
▁ㅂㅓㅂㄱㅘㄴ -13134
▁ㅇㅣㅂㅏㅈㅣ -13135
▁ㅅㅏㅇㅣㅁㅓㄴ -13136
▁ㅇㅏㅁㅅㅡㅌㅔㄹㅡㄷㅏㅁ -13137
ㅜㅌㅡ -13138
▁ㅇㅠㅇㅜ -13139
▁ㅎㅏㅇㅢ -13140
ㅂㅡㄹㄹㅣ -13141
ㅗㅁㅗㄹㅣ -13142
▁ㄹㅓㅇㅣㄹ -13143
▁ㅇㅕㅇㅊㅓㄴ -13144
▁ㅈㅏㅁㄲㅏㄴ -13145
▁ㅇㅏㄹㅇㅏㅂㅗ -13146
▁ㅅㅔㅇㅣㄴㅌㅡㄹ -13147
▁ㅋㅗㅅㅡㅌㅏㄹㅣㅋㅏ -13148
▁ㅍㅜㅇㅔㄹㅡㅌㅗㄹㅣㅋㅗ -13149
▁DF -13150
▁ㄹㅏㄱㅣ -13151
▁ㅇㅗㄹㅏ -13152
▁ㅋㅏㅍㅣ -13153
▁ㅎㅣㅌㅏ -13154
ㅎㅕㅂㅎㅚ -13155
▁ㄴㅡㄲㅣㄹ -13156
▁ㄷㅗㅅㅏㅇ -13157
▁ㅅㅏㅊㅓㄴ -13158
▁ㅇㅚㅎㅕㅇ -13159
▁ㅂㅣㅎㅐㅅㅓ -13160
ㅈㅣㄴㅡㄹㅓㅁㅣ -13161
▁ㅇㅕㅇㅇㅝㄴㅎㅣ -13162
OW -13163
▁ㄱㅜㄴㅂㅓㄹ -13164
▁ㅇㅡㄴㅅㅣㄴ -13165
▁ㅎㅓㄴㅈㅏㅇ -13166
▁ㅎㅣㅂㅡㄹㅣ -13167
▁ㄷㅐㅅㅏㅇㅈㅏ -13168
▁ㅂㅡㄹㅟㅅㅔㄹ -13169
▁ㅇㅓㅇㅜㄹㄹㅣ -13170
▁ㅇㅖㅋㅓㄴㄷㅐ -13171
▁ㅇㅑㅁㅏㅁㅗㅌㅗ -13172
▁ㅅㅏㄴㅌㅣㅇㅏㄱㅗ -13173
▁ㅇㅣㄹㅇㅡㅋㅣㄴㄷㅏ -13174
▁ㄱㅜㄴㅣ -13175
▁ㅌㅏㄹㅗ -13176
▁ㄱㅘㄴㅇㅜ -13177
▁ㄱㅜㄱㄱㅛ -13178
▁ㄲㅡㄹㅇㅓㅇ -13179
▁ㅇㅐㅇㄱㅡㄹ -13180
▁ㅎㅔㅇㅣㅇㅏㄴ -13181
▁ㅇㅛㅎㅏㄴㅔㅅㅡ -13182
▁ㅇㅕㄴㅈㅏㅇㅈㅓㄴ -13183
▁Fe -13184
ㅗㅌㅡ -13185
▁ㅂㅡㄹㅡ -13186
▁ㅍㅓㅈㅡㄹ -13187
▁ㅅㅏㅇㄱㅜㄱ -13188
▁ㅊㅜㄱㅈㅓㄴ -13189
▁ㅎㅏㄴㅈㅏㅇ -13190
▁ㅎㅗㅅㅡㅌㅡ -13191
▁ㅋㅜㅇㅞㅇㅣㅌㅡ -13192
gr -13193
ㅅㅏㅇㅜ -13194
▁ㄱㅗㅇㅢ -13195
▁ㅈㅜㄴㅈㅏㅇ -13196
▁ㅅㅓㅎㅐㅇㅏㄴ -13197
▁ㅍㅡㄹㅐㄴㅊㅏㅇㅣㅈㅡ -13198
ㅍㅔㅇ -13199
ㅍㅏㅇㅇㅣ -13200
▁ㄱㅠㅌㅏㄴ -13201
▁ㅁㅏㅌㄱㅣ -13202
▁ㅌㅔㄹㄹㅔㅋㅗㅁ -13203
▁ㅅㅏㅎㅚㅁㅣㄴㅈㅜㄷㅏㅇ -13204
▁ㅂㅜㄱㅛ -13205
ㅔㅇㅑㅁㅏ -13206
▁ㅈㅓㅇㅁㅗㅇ -13207
▁ㅅㅡㅋㅏㄹㄹㅏ -13208
ㄷㅣㄴㅏㅂㅣㅇㅏ -13209
▁ㅇㅔㄹㅡㄴㅅㅡㅌㅡ -13210
▁ㄹㅜㅇㅣㅈㅣㅇㅐㄴㅏ -13211
▁ㅅㅡㅋㅏㄴㄷㅣㄴㅏㅂㅣㅇㅏ -13212
▁ㄱㅘㅁ -13213
▁ㄷㅐㄷㅗ -13214
▁ㅂㅗㄹㅜ -13215
▁ㄱㅗㅇㅗㄴ -13216
▁ㄹㅣㅌㅠㅁ -13217
▁ㅅㅔㄹㅕㄴ -13218
▁ㅇㅔㅇㅣㄴ -13219
▁ㅇㅜㅇㅝㄹ -13220
▁ㅈㅜㅅㅓㅇ -13221
▁ㅈㅏㅇㄷㅓㄱ -13222
▁ㅈㅓㅂㅈㅗㅇ -13223
▁ㅊㅜㄹㄷㅗㅇ -13224
ㅇㅝㄴㅅㅜㅇㅇㅣ -13225
▁ㅂㅏㄹㅈㅓㄴㄱㅣ -13226
▁ㄷㅏㅁㅂㅗ -13227
▁ㄸㅓㅇㅗㄹㅡ -13228
▁ㅂㅏㄹㄷㅗㅇ -13229
▁ㅎㅏㅁㅎㅡㅇ -13230
▁ㄹㅏㅇㅣㄴㅇㅓㅂ -13231
ㅎㅡㄺ -13232
▁ㄴㅗㅇㅏ -13233
▁ㅅㅑㅍㅡ -13234
▁ㅂㅏㄺㅎㅕㄴ -13235
▁ㅂㅓㅂㅈㅗㅇㅣㄴ -13236
▁ㅂㅜㄹㄱㅖㅅㅡㅇ -13237
▁ㅊㅓㄴㅇㅏㄴㅅㅣ -13238
▁ㄴㅣㅋㅗㄹㄹㅏㅅㅡ -13239
▁le -13240
▁ㅈㅗㅈㅔ -13241
▁ㅊㅣㅎㅏ -13242
▁ㅅㅏㅇㅇㅓ -13243
▁ㅇㅟㅎㅏㅁ -13244
▁ㅈㅡㅇㅍㅗㄱ -13245
▁ㅂㅗㄱㅇㅡㅁㅈㅜㅇㅢ -13246
ung -13247
▁1893 -13248
▁ㄹㅣㅋㅗ -13249
▁ㅇㅕㄷㅗ -13250
▁ㅈㅓㅈㅗ -13251
▁ㄷㅗㅇㅍㅗ -13252
▁ㅁㅗㄷㅓㄴ -13253
▁ㅊㅡㄱㄹㅑㅇ -13254
▁ㅇㅠㅎㅏㄱㅈㅏ -13255
▁ㅈㅏㅅㅓㅈㅓㄴ -13256
▁ㄱㅡㅂㅅㅗㄱㅎㅣ -13257
▁ㅇㅣㅌㅏㄹㄹㅣㅇㅏㅇㅓ -13258
▁ㅎㅜㅋㅜㅇㅗㅋㅏㅎㅕㄴ -13259
ㅛㄴ -13260
▁ㄹㅔㅍㅡ -13261
▁ㅅㅏㅊㅣ -13262
▁ㄴㅗㄹㅏㅇ -13263
▁ㅆㅏㅇㅜㄴ -13264
▁ㅍㅖㄹㅕㅁ -13265
▁ㅍㅛㅈㅓㅇ -13266
▁ㄱㅕㄹㅎㅐㄱ -13267
▁ㅈㅓㅇㅂㅏㄴ -13268
▁ㄷㅗㄱㅅㅜㄹㅣ -13269
▁203 -13270
▁ㄱㅐㅅ -13271
ㅁㅣㅅㅏ -13272
▁ㅇㅔㅍㅡ -13273
▁ㅇㅔㄴㄷㅡ -13274
▁ㄱㅜㄱㅊㅓㄹ -13275
▁ㄷㅗㅇㅑㅁㅏ -13276
▁ㄱㅛㅇㅠㄱㅈㅏ -13277
ㄲㅓㅅ -13278
▁ㅇㅗㅋㅜ -13279
▁ㄷㅐㅇㅣㄴ -13280
▁ㄹㅔㅇㅣㅁ -13281
▁ㅇㅓㄴㄷㅓ -13282
▁ㅅㅓㄴㅇㅣㄴ -13283
▁Univers -13284
▁ㅋㅏㅌㅏㄹㄹㅜㄴㅑ -13285
▁ㅌㅏㄴㅈㅏㄴㅣㅇㅏ -13286
▁ㄴㅗㅎㅜ -13287
▁ㅇㅣㅎㅘㅇ -13288
▁ㅎㅓㄴㅌㅓ -13289
▁ㄷㅏㅇㅣㅇㅓ -13290
▁ㅂㅓㅁㅎㅐㅇ -13291
▁ㅈㅣㄱㅎㅐㅇ -13292
▁ㅎㅏㄱㅈㅏㅇ -13293
▁ㄴㅏㅌㅏㄴㅏㄹ -13294
▁ㅍㅔㄹㄹㅣㄱㅅㅡ -13295
▁ㅅㅏㅇㅜㄴㄷㅡㅌㅡㄹㅐㄱ -13296
ㅗㄹㄷㅡ -13297
▁ㅇㅕㅁㄹㅕ -13298
▁ㄱㅡㅁㄷㅗㅇ -13299
▁ㅈㅏㅇㅂㅕㅇ -13300
▁ㅇㅜㅇㅢㅈㅓㅇ -13301
▁ㅈㅘㅇㅢㅈㅓㅇ -13302
▁ㅎㅡㅌㅇㅓㅈㅕ -13303
▁ㅇㅕㅅㅓㅇㅈㅜㅇㅢ -13304
▁ㅇㅔㅅㅡㅍㅔㄹㅏㄴㅌㅗ -13305
▁LED -13306
▁TBS -13307
ㅇㅞㅇㅣ -13308
▁ㄱㅓㅈㅣ -13309
ㄱㅡㄹㄹㅣ -13310
▁ㅎㅏㄴㅋㅠ -13311
▁ㄱㅣㅁㅇㅠㄴ -13312
▁ㄱㅣㅁㅊㅓㄴ -13313
les -13314
▁Rock -13315
▁ㄴㅐㅂㅜㄴ -13316
▁ㅂㅓㄹㅇㅕ -13317
▁ㅊㅗㅈㅓㄴ -13318
▁ㅌㅐㅇㅓㄴ -13319
▁ㅎㅐㅇㅘㅇ -13320
▁ㅇㅏㅆㅇㅓㅆ -13321
▁ㄱㅜㄴㅅㅏㄹㅕㄱ -13322
▁ㅎㅘㅈㅏㅇㅍㅜㅁ -13323
▁ㅈㅜㅇㄱㅗㅇㄱㅜㄴ -13324
▁ㅎㅏㅁㄱㅕㅇㅂㅜㄱㄷㅗ -13325
LA -13326
▁IOC -13327
ㅗㄱㅓㄴ -13328
▁ㅁㅗㄹㅌㅏ -13329
▁ㅊㅓㅇㄱㅖ -13330
ㅋㅏㅁㅗㅌㅗ -13331
ㅌㅡㄹㅣㅅㅡ -13332
▁ㅋㅏㄹㅅㅠㅁ -13333
▁ㄷㅗㄹㅗㄴㅡㄴ -13334
▁NP -13335
ㅟㄹㅡ -13336
ㅂㅣㅋㅡ -13337
ㅌㅏㄹㅣ -13338
▁ㅅㅏㅇㅏㄴ -13339
▁ㅇㅗㄴㅎㅘ -13340
▁ㄴㅐㅅㅔㅇㅜ -13341
▁ㅍㅣㄱㅊㅓㅅㅡ -13342
▁ㄱㅏㄱㅗㅅㅣㅁㅏ -13343
▁Car -13344
▁ㅇㅣㄴㅗ -13345
▁ㄴㅏㅁㅎㅏ -13346
▁ㅂㅓㅅㅓㅅ -13347
▁ㅅㅜㄴㅊㅏ -13348
▁ㅎㅠㅇㅑㅇ -13349
▁ㄴㅡㅇㄷㅗㅇ -13350
▁ㄷㅗㅇㅎㅑㅇ -13351
▁ㅂㅜㄹㄱㅕㅇ -13352
▁ㅇㅏㅂㄹㅗㄱ -13353
ㅣㅁㅗ -13354
ㅂㅏㅇㅗ -13355
ublic -13356
▁ㄹㅣㅋㅏ -13357
ㅅㅏㅇㅅㅣ -13358
▁ㅈㅏㅇㄴㅕ -13359
▁ㄱㅣㅁㅅㅓㄴ -13360
▁ㅅㅓㅅㅏㅅㅣ -13361
▁ㅇㅏㅍㅅㅓㄴ -13362
▁ㅊㅣㅇㅅㅗㅇ -13363
▁ㅎㅐㅇㅏㄴㄱㅏ -13364
▁ㅍㅡㄹㄹㅏㅇㅋㅡ -13365
eth -13366
▁Mo -13367
▁ㅉㅣㅈ -13368
▁ㄴㅔㅌㅣ -13369
▁ㅇㅣㅎㅚ -13370
▁ㅅㅡㅋㅣㅁ -13371
▁ㅇㅛㅅㅣㄴㅗ -13372
▁ㅈㅓㄴㅎㅏㄱ -13373
▁ㅍㅏㅅㅣㅈㅡㅁ -13374
▁ㅁㅐㄲㅡㄹㅓㅇㅜㄴ -13375
▁ㅋㅓㄴㅌㅔㅇㅣㄴㅓ -13376
▁ㅁㅣㅅ -13377
ㅜㅇㅣㅅㅡ -13378
▁ㄱㅔㄲㅡㅁ -13379
▁ㅇㅑㅇㅂㅗ -13380
▁ㅊㅗㅋㅗㄹ -13381
ㅍㅗㄱㅌㅏㄴ -13382
▁ㄷㅗㅈㅏㄱㅣ -13383
▁ㅅㅓㅊㅗㄱㅜ -13384
▁ㅍㅡㄹㅣㅅㅡ -13385
▁ㅎㅕㅇㅍㅕㄴ -13386
▁ㅊㅗㅋㅗㄹㄹㅣㅅ -13387
ㄹㅗㄹ -13388
▁GNU -13389
▁ㄱㅏㅇㅈㅣㄴ -13390
▁ㅅㅓㅇㅇㅏㄱ -13391
▁ㅇㅠㅈㅓㄱㅈㅣ -13392
▁ㅍㅖㄱㅣㅁㅜㄹ -13393
ㅜㄴㅔ -13394
▁Rec -13395
▁ㅇㅑㅋ -13396
ㅇㅜㄹㅣ -13397
▁ㅂㅏㅈㅣ -13398
▁ㅂㅣㄷㅐ -13399
▁ㅈㅗㄴㅣ -13400
▁ㅈㅓㄴㅅㅔ -13401
▁ㅂㅔㄹㅡㅌㅏ -13402
▁ㅇㅓㅆㅇㅓㅆ -13403
▁ㅎㅕㄴㅍㅏㄴ -13404
▁ㅍㅡㄹㅏㄴㅊㅣ -13405
▁ㄱㅔㅇㅗㄹㅡㅋㅡ -13406
▁ㅌㅗㅅ -13407
ㅈㅣㄱㅐ -13408
▁from -13409
▁ㅂㅓㅌㅓ -13410
▁ㅈㅏㅈㅐ -13411
▁ㄷㅐㄱㅏㅇ -13412
▁ㅇㅝㄹㅌㅡ -13413
▁ㅎㅡㅂㅅㅏ -13414
▁ㄴㅗㅁㅣㅇㅑ -13415
ㅐㄱㅡ -13416
▁ㅎㅚㄱㅗ -13417
▁ㅎㅜㅇㅠ -13418
ㅅㅔㄹㄹㅓ -13419
▁ㄱㅐㄱㅊㅏ -13420
▁ㅅㅣㅅㅗㄱ -13421
▁ㄱㅡㅁㅈㅓㄴ -13422
▁ㅂㅜㄴㄷㅏㄴ -13423
▁ㅂㅣㅅㅡㅌㅏ -13424
▁ㅌㅗㅁㅅㅡㄴ -13425
▁ㅂㅏㄹㅅㅏㅊㅔ -13426
ㄱㅓㅈㅣ -13427
▁Comp -13428
▁ㄴㅐㅁㅜ -13429
▁ㅊㅣㅇㅠ -13430
▁ㅅㅐㅇㄹㅣ -13431
▁ㅊㅓㄴㅁㅏ -13432
▁ㅁㅕㅇㅇㅣㄴ -13433
▁ㄱㅕㄹㄱㅘㅁㅜㄹ -13434
▁ㄷㅗㅋㅏㅇㅣㄷㅗ -13435
▁ㅇㅟㅅㅂㅜㅂㅜㄴ -13436
▁ㅇㅣㄴㄱㅗㅇㅇㅟㅅㅓㅇ -13437
▁IV -13438
▁280 -13439
ㅣㄹㄹㅗㄱ -13440
▁ㄷㅏㅇㄴㅛ -13441
▁ㅂㅗㄱㅈㅗㅇ -13442
ㅋㅕ -13443
ㅔㄱㅏㄹ -13444
▁ㅈㅏㅅㅜ -13445
▁ㄱㅜㄷㅗㄱ -13446
▁ㅂㅏㅇㅜㄹ -13447
▁ㅇㅟㄹㅕㄱ -13448
▁ㄱㅗㅇㅇㅏㄴ -13449
▁ㅅㅡㅂㄱㅘㄴ -13450
▁ㅈㅏㄴㅇㅣㄴ -13451
▁ㅈㅣㅂㅏㅎㅕㄴ -13452
▁ㅍㅡㄹㄹㅗㄹㅣㄷㅏㅈㅜ -13453
oth -13454
ㅋㅣㄴㅗ -13455
ㅌㅏㄱㅗ -13456
▁ㅇㅟㄹㅗ -13457
▁ㅇㅏㅁㅁㅗㄴ -13458
▁ㅎㅏㄴㅁㅜㄴ -13459
▁ㄹㅣㅁㅣㄱㅅㅡ -13460
▁ㄱㅏㅇㅘㅅㅏㅋㅣ -13461
▁ㅋㅓㄹㄹㅔㄱㅅㅕㄴ -13462
▁Am -13463
▁ㅁㅔㅅㅗ -13464
▁ㅅㅓㅈㅜ -13465
▁ㄱㅘㄴㅅㅓㅇ -13466
▁ㅇㅜㅇㅔㅅㅡ -13467
▁ㅈㅓㅇㅎㅐㅆ -13468
▁ㅊㅓㅇㅅㅗㅇ -13469
▁Sup -13470
▁ㅈㅏㅇㅣ -13471
▁ㅋㅐㄹㅣ -13472
ㅡㄱㅗㄴㅠ -13473
▁ㄴㅗㅅㅡㅋ -13474
▁ㄷㅐㅈㅣㄴ -13475
▁ㅅㅔㄱㅜㄴ -13476
▁ㄱㅣㅁㅅㅡㅇ -13477
▁ㅇㅣㅂㅏㄹㅏ -13478
ㅣㄱㅅㅡㅍㅣㅇㅓ -13479
▁ㅁㅜㅅㅣㄹㅈㅓㅁ -13480
▁ㅂㅜㄹㅡㄱㅗㄴㅠ -13481
▁ㅈㅓㅂㅇㅓㄷㅡㄹ -13482
ㅇㅗㄹ -13483
ㅊㅝㅆ -13484
ㅣㅇㅣ -13485
▁ㅊㅣㅋㅏ -13486
ㄱㅣㄹㅕㄱ -13487
ㄷㅏㅇㅜㄴ -13488
▁ㄷㅡㄴㄷㅏ -13489
▁ㅂㅔㄴㅊㅣ -13490
▁ㅅㅣㅁㅜㄴ -13491
▁ㅇㅠㅈㅗㄱ -13492
▁ㅍㅣㅎㅏㄹ -13493
▁ㄴㅓㅁㅜㄴㅏ -13494
▁ㅅㅖㅇㅣㄱㅅㅡㅍㅣㅇㅓ -13495
▁AB -13496
▁Su -13497
▁ㄱㅜㅁㅏ -13498
▁ㅍㅔㅇㅗ -13499
ㅎㅘㅎㅏㄱ -13500
▁ㅂㅜㄴㅅㅏ -13501
▁ㅇㅣㅂㅗㅇ -13502
▁ㅈㅓㅁㄱㅓ -13503
▁ㅈㅣㅁㅅㅡㅇ -13504
▁ㅊㅓㅇㄹㅑㅇ -13505
▁ㅍㅡㄹㅔㅇㅣ -13506
▁230 -13507
ㅍㅏㄱㅜ -13508
▁ㄲㅚㅎㅏ -13509
▁ㄷㅗㅇㅣ -13510
▁ㅅㅜㄹㅗ -13511
▁ㅈㅔㄴㅗ -13512
▁ㄱㅏㄱㄹㅛ -13513
▁ㅁㅣㅅㅓㅇ -13514
▁ㅅㅜㄹㅑㅇ -13515
▁ㅎㅏㅂㅎㅏ -13516
▁ㅍㅗㄹㄹㅏㄴ -13517
ㅃㅏㅇ -13518
▁ㄴㅡㅍ -13519
▁ㅋㅔㅁ -13520
▁ㅁㅏㅋㅏ -13521
▁ㅅㅣㅇㅜ -13522
▁ㅇㅣㅈㅡㅁㅣ -13523
▁ㅅㅏㅅㅏㅇㄱㅏ -13524
▁ㅁㅜㄴㅈㅏㅇㅕㄹ -13525
▁ㅂㅏㄺㅎㅕㅈㅣㄴ -13526
ㄷㅔㅇㅗ -13527
ㅌㅐㅍㅕㅇ -13528
▁ㄹㅐㅁㅍㅡ -13529
▁ㅁㅕㅇㅂㅜ -13530
▁ㄲㅡㅌㄴㅏㄹ -13531
▁ㅁㅣㄹㄹㅕㄴ -13532
▁ㅇㅜㄴㅇㅣㅁ -13533
▁ㄴㅗㄱㅅㅐㄱㄷㅏㅇ -13534
▁1888 -13535
▁ㅇㅗㅇㅏ -13536
▁ㅈㅓㄹㅈㅔ -13537
▁ㄱㅗㅇㅇㅑㅇ -13538
▁ㅇㅟㅇㅏㄴㅂㅜ -13539
▁ㄹㅔㅇㅣㄴㅈㅓㅅㅡ -13540
▁ㅅㅜㄴㅇㅑㅇㅎㅏㅁ -13541
▁ㄴㅗㅅㅡㅋㅐㄹㅗㄹㄹㅏㅇㅣㄴㅏ -13542
▁ar -13543
▁ㅂㅐㄱㅈㅏ -13544
▁ㅍㅏㅍㅕㄴ -13545
▁ㄱㅏㄴㅈㅣㄱ -13546
▁ㅅㅐㄴㄷㅣㅇ -13547
▁ㅈㅣㅂㅊㅏㄱ -13548
▁ㄱㅏㄹㅏㅇㅏㄵ -13549
▁ㅇㅘㅆㅇㅡㄴㅏ -13550
▁Do -13551
▁ㅁㅣㅅㅣㄱ -13552
ㄷㅡㄹㅏㅁㅏ -13553
▁ㅅㅓㄱㄱㅏㅁ -13554
▁ㅊㅓㄴㅊㅓㄴ -13555
▁ㅇㅜㅇㅜㄹㅈㅡㅇ -13556
▁ㅈㅜㅇㅇㅏㅇㅇㅡㄴㅎㅐㅇ -13557
▁ㄹㅣㅂㅡ -13558
▁ㅌㅏㅋㅔ -13559
▁ㅎㅏㄱㅜ -13560
▁ㄱㅕㄱㅌㅜ -13561
▁ㄴㅗㅇㅈㅣ -13562
▁ㅇㅐㅇㅣㄴ -13563
▁ㄷㅔㅇㅣㅂㅡ -13564
▁ㅅㅔㅂㅣㅇㅑ -13565
▁ㄷㅏㅅㅡㄹㅕㅆ -13566
▁ㄱㅏㅅㅗㄹㄹㅣㄴ -13567
▁ㅁㅣㄴㅂㅕㅇㄷㅐ -13568
▁Sw -13569
▁1892 -13570
▁ㅅㅡㄱㅏ -13571
▁ㅋㅔㄴㅌㅡ -13572
▁ㅌㅏㄹㅊㅟ -13573
▁ㅇㅛㅇㅍㅜㅁ -13574
▁ㅇㅣㄴㅌㅓㄹ -13575
▁ㅅㅡㅌㅐㄴㄹㅣ -13576
ㄷㅟ -13577
ㅣㅂㅣㅇ -13578
▁ㅇㅗㄹㅡㅁ -13579
▁ㅎㅑㅇㄱㅣ -13580
▁ㅅㅏㄴㅊㅓㅇ -13581
▁ㅅㅜㄴㅏㄹㅏ -13582
▁ㅇㅜㄹㄹㅡㅇ -13583
ㅡㅇㅞ -13584
▁ㄱㅗㄴㅗ -13585
▁ㅂㅓㄹㅓ -13586
▁ㅅㅏㅋㅓ -13587
▁ㅈㅓㄴㅁㅣ -13588
▁ㄷㅗㅇㅈㅗㅇ -13589
▁ㄷㅐㅁㅕㅇㅅㅏ -13590
▁ㄱㅏㅁㅕㄴㄹㅏㅇㅣㄷㅓ -13591
AI -13592
▁ㅂㅐㄹㅣ -13593
ㅓㅅㅣㅇㅏ -13594
▁ㅁㅜㅇㅓㄴ -13595
▁ㅊㅔㄹㄹㅗ -13596
▁ㅇㅝㄴㅎㅘㄹ -13597
▁ㅈㅓㅁㄱㅓㅁ -13598
▁ㅎㅘㅇㅅㅏㄴ -13599
▁ㅊㅓㄴㅊㅓㄴㅎㅣ -13600
▁ㄷㅔㅅㅡㅋㅡㅌㅗㅂ -13601
▁ㄴㅗㅍㅡ -13602
▁ㅋㅏㅁㅏ -13603
▁ㅇㅣㅂㅓㅁ -13604
▁ㄱㅣㅇㅓㅂㄱㅏ -13605
▁ㄷㅜㄹㄹㅓㅆㅏㅇㅣㄴ -13606
▁ㅍㅡㄹㅔㅇㅣㅁㅇㅝㅋㅡ -13607
▁wh -13608
ㅈㅔㅇ -13609
▁ㄴㅠㅇ -13610
ㄱㅏㄹㅡ -13611
▁ㄱㅏㄴㅔ -13612
▁ㄱㅖㄹㅑㅇ -13613
▁ㅇㅑㅇㄷㅐ -13614
▁ㅋㅗㄴㄹㅏ -13615
▁ㄷㅏㅇㅎㅏㄹ -13616
▁ㅎㅏㄴㅂㅓㄴ -13617
▁ㅊㅏㅁㅁㅗㅊㅗㅇㅈㅏㅇ -13618
▁ㅍㅔㄴㅅㅣㄹㅂㅔㅇㅣㄴㅣㅇㅏ -13619
▁ㅂㅏㅅ -13620
▁ㅋㅏㅇㅘ -13621
▁ㄱㅟㅅㅗㄱ -13622
▁ㅁㅗㄹㅡㄴㄷㅏ -13623
▁ㅂㅗㅇㅕㅈㅜㄴ -13624
▁ㅋㅔㅅ -13625
ㅌㅏㄴㅗ -13626
▁ㅋㅠㅂㅡ -13627
▁ㅎㅗㅋㅡ -13628
▁ㅇㅕㄴㅎㅚ -13629
▁ㄱㅗㄹㅕㄷㅐ -13630
▁ㅁㅏㄹㄹㅣㄴ -13631
▁ㅇㅝㄴㅅㅏㅇ -13632
▁ㄱㅡㄹㄹㅐㅅㅡ -13633
▁ㅂㅜㄹㅡㅈㅜㅇ -13634
▁ㅅㅗㅎㅏㄱㄱㅛ -13635
▁ㅅㅠㅌㅏㅇㅣㄴ -13636
▁CG -13637
▁ㄷㅐㅊㅏ -13638
▁ㅈㅜㅅㅔ -13639
▁ㅁㅜㄷㅏㄴ -13640
▁ㅇㅣㅅㅏㄴ -13641
ㅎㅗㅇㅅㅐㄱ -13642
▁ㄱㅣㄴㅁㅣㄹ -13643
▁ㄴㅏㄱㅇㅑㅇ -13644
▁ㄴㅗㅇㅊㅜㄱ -13645
▁ㅂㅏㄴㄷㅗㅇ -13646
▁ㅅㅚㄱㅗㄱㅣ -13647
▁ㄱㅣㄱㅘㄴㅈㅣ -13648
▁ㅎㅓㄷㅡㅅㅡㄴ -13649
▁ㅈㅗㅅㅓㄴㅇㅘㅇ -13650
▁ㄱㅜㄱㅈㅓㅇㅇㅝㄴ -13651
▁ㅅㅏㄴㅅㅡㅋㅡㄹㅣㅌㅡ -13652
▁ㅁㅏㅋㅣ -13653
▁ㅍㅔㄹㅌㅡ -13654
▁ㅅㅓㅂㅏㅇㅣ -13655
▁ㅇㅣㅂㅎㅓㄴ -13656
▁ㄱㅏㅇㅎㅘㄷㅗ -13657
▁ㅈㅓㄹㄷㅗㅅㅏ -13658
AE -13659
▁IR -13660
▁ㅊㅓㄱㄷㅗ -13661
▁ㄹㅗㅇㅣㄷㅡ -13662
▁ㅈㅓㅇㅈㅣㄴ -13663
▁ㄷㅐㄱㅗㅇㄱㅜㄱ -13664
▁ㄷㅗㅇㅁㅐㅇㄱㅜㄱ -13665
ㅋㅔㅇㅣ -13666
▁ㄹㅣㅊㅏ -13667
▁ㄱㅣㄴㅋㅣ -13668
▁ㄷㅐㅈㅓㅂ -13669
▁ㄷㅗㅊㅜㄹ -13670
▁ㅂㅐㅇㅑㅇ -13671
▁ㅅㅣㅈㅣㄱ -13672
▁ㅇㅣㅁㄱㅖ -13673
ㄷㅗㄱㄹㅣㅂ -13674
▁ㄱㅗㅇㅂㅓㅂ -13675
▁ㅎㅏㅂㅊㅓㄴ -13676
▁ㅅㅓㄱㅣㄱㅘㄴ -13677
▁ㅂㅜㄱㅈㅗㅅㅓㄴ -13678
▁ㅅㅣㅈㅣㄱㄱㅕㅇ -13679
▁ㅅㅏㅇㄱㅘㄴㅇㅓㅄㅇㅣ -13680
ㅂㅏㅅㅣ -13681
ㅅㅜㄹㅗ -13682
▁ㅍㅏㅇㅜ -13683
ㅈㅏㄷㅗㅇ -13684
▁ㅎㅏㄱㅡㅂ -13685
▁ㄱㅏㅇㅎㅐㅇ -13686
▁ㄷㅚㄷㅗㄹㄹ -13687
▁ㄷㅔㅇㅣㄹㄹㅣ -13688
ㄷㅡㄹㅔ -13689
▁ㄹㅗㅋㅡ -13690
ㅇㅓㄴㅓㅎ -13691
▁ㄱㅕㅂㅊㅣ -13692
▁ㄱㅣㅃㅡㅁ -13693
▁ㅈㅏㄱㅜㅇ -13694
▁ㅅㅓㄴㅇㅑㅇ -13695
▁ㅋㅔㅇㅣㅋㅡ -13696
▁ㄱㅏㄹㅡㅅㅣㅇㅏ -13697
ㅕㄴㅡㄴ -13698
ㅂㅏㅇㅣㄴ -13699
▁ㄱㅕㄴㄱㅗ -13700
ㅈㅗㅅㅣㄹㄹㅗㄱ -13701
▁co -13702
ㅗㄴㅑ -13703
ㅁㅐㄱㅣ -13704
▁ㄱㅏㅂㅜ -13705
▁ㄹㅏㄹㅡ -13706
▁ㅇㅓㅇㅢ -13707
▁ㅅㅏㅂㅕㄴ -13708
▁ㅈㅔㅊㅏㅇ -13709
ㄱㅘㅇㅅㅓㅇ -13710
▁ㄱㅏㄴㅎㅗㄱ -13711
▁ㅈㅓㄴㅈㅜㅅㅣ -13712
▁1876 -13713
ㅅㅡㅋㅏㄹ -13714
▁ㅅㅗㄴㄴㅕ -13715
▁ㅊㅏㅊㅡㅁ -13716
▁ㅋㅏㅌㅡㄹ -13717
▁ㅍㅕㄴㅎㅑㅇ -13718
▁ㄷㅏㅇㅣㅂㅣㅇ -13719
▁ㅇㅐㄴㅅㅓㄴㅣ -13720
▁ㄱㅕㅇㄱㅖㅅㅓㄴ -13721
▁ㄱㅡㅁㅏㄴㅋㅡㅁ -13722
EST -13723
ㅇㅢㅅㅏ -13724
ㅡㄹㅏㅇ -13725
▁ㅇㅠㅁㅜ -13726
▁ㅇㅐㄴㄷㅣ -13727
▁ㅇㅡㅁㅇㅜㄴ -13728
▁ㅈㅣㄹㅣㅎㅏㄱ -13729
▁260 -13730
▁ㅌㅠㄹ -13731
▁ㄷㅏㅌㅔ -13732
▁ㄱㅗㅈㅣㅂ -13733
▁ㅂㅐㅇㅕㄱ -13734
▁ㅈㅓㄴㄹㅏㄱ -13735
▁ㅊㅓㄹㅈㅓㅎㅣ -13736
▁ㅂㅔㅇㅣㅅㅣㅅㅡㅌㅡ -13737
ah -13738
ㄷㅜㄹㅏ -13739
▁ㅅㅓㅇㅖ -13740
▁ㄱㅣㅁㅈㅣ -13741
▁ㅈㅓㅂㅎㅐ -13742
▁ㅌㅡㄱㅅㅏ -13743
▁ㄷㅡㄹㅇㅓㅅㅓㅆ -13744
ㄹㅣㄱㅛ -13745
▁ㅍㅜㄹㅡ -13746
▁ㄱㅏㅎㅐㅆ -13747
▁ㄴㅏㅁㅜㅅ -13748
▁ㅂㅗㄴㅐㄹ -13749
▁ㅈㅏㅈㅣㄴ -13750
▁ㅈㅔㅊㅓㄹ -13751
▁ㅊㅜㄱㅅㅓㅇ -13752
▁ㄱㅜㄱㅈㅔㅅㅓㄴ -13753
▁ㄹㅗㅂㅣㄴㅅㅡㄴ -13754
▁ㅂㅜㅂㅜㄴㄱㅜㄴ -13755
ron -13756
▁Gre -13757
▁ㄴㅔㅁ -13758
▁1886 -13759
▁ㅇㅟㄱㅖ -13760
▁ㅌㅡㄹㅔㄴ -13761
▁ㅅㅏㅇㅈㅓㅇ -13762
▁ㅇㅓㄹㄹㅜㄱ -13763
▁ㄱㅛㄱㅜㅈㅏㅇ -13764
ㅡㅁㅣㄴㅅㅡㅌㅓ -13765
▁ㄱㅜㅅㅡㅌㅏㅍㅡ -13766
▁ㅇㅞㅅㅡㅌㅡㅁㅣㄴㅅㅡㅌㅓ -13767
aw -13768
▁270 -13769
▁ㅇㅟㅍㅐ -13770
▁ㅈㅣㄱㄱㅖ -13771
▁ㅎㅕㄴㄱㅘ -13772
▁ㅂㅗㄱㅅㅣㅇ -13773
▁ㅅㅡㅌㅡㄹㅗ -13774
▁ㅇㅣㅇㅓㅈㅜ -13775
▁ㅇㅐㄷㅓㅁㅅㅡ -13776
▁ㅂㅏㄱㅌㅔㄹㅣㅇㅏ -13777
ㄷㅣㅅ -13778
▁USB -13779
▁ㄱㅏㅍ -13780
▁ㅆㅜㄴ -13781
▁ㄷㅐㅈㅜ -13782
▁ㅇㅏㅊㅡ -13783
▁ㅇㅝㄴㅇㅠ -13784
▁ㅈㅏㄹㅣㅂ -13785
▁ㅌㅗㅇㅍㅖ -13786
ㅣㅇㅓㄹㅣㅇ -13787
▁ㄷㅓㅇㅇㅓㄹㅣ -13788
▁ㅅㅡㅌㅔㅇㅣㄴ -13789
▁ㅅㅏㅁㄱㅏㄱㅈㅜ -13790
ㅅㅡㅇㅞ -13791
ㅈㅣㄴㅗ -13792
ㅌㅏㄴㅏ -13793
ㅣㅇㅅㅡ -13794
▁ㄱㅏㄹㅕ -13795
▁ㅅㅐㅇㅁㅗ -13796
▁ㅈㅓㄴㅅㅜ -13797
▁ㅈㅓㄴㄱㅝㄴ -13798
▁ㅋㅔㅇㅣㅌㅡ -13799
▁ㅍㅔㄹㄹㅣㅍㅔ -13800
▁ㅍㅔㄹㅡㄴㅏㄴㄷㅗ -13801
land -13802
▁ㅍㅔㄱ -13803
▁1866 -13804
▁ㅈㅗㄹㅗㅇ -13805
▁ㅅㅣㅁㅁㅜㄴ -13806
▁ㅇㅣㄹㅈㅣㄴ -13807
▁ㅊㅏㅅㅔㄷㅐ -13808
▁ㅍㅜㅇㅅㅡㅂ -13809
▁ㅍㅕㅇㅇㅏㄴㄷㅗ -13810
▁ㅇㅗㅎㅏ -13811
ㄱㅛㅇㅣㄴ -13812
▁ㅆㅏㅇㄷㅐ -13813
▁ㅊㅐㅅㅐㄱ -13814
▁ㄱㅜㄴㄱㅘㄴ -13815
▁ㅎㅡㅇㅂㅜㄴ -13816
▁ㅎㅘㅇㅛㅇㅣㄹ -13817
▁ㅊㅜㄱㄱㅜㅌㅣㅁ -13818
▁ㄱㅕㅇㅇㅕㅇㅎㅏㄱ -13819
▁ㄱㅓㅁㅣ -13820
▁ㅁㅗㄴㅣㅇ -13821
▁ㅅㅡㄹㅓㄴ -13822
▁ㅈㅜㅁㅓㄱ -13823
▁ㅊㅣㅁㄹㅖ -13824
▁ㅍㅓㄴㄷㅡ -13825
▁ㅍㅣㅅㅏㄹ -13826
▁ㅎㅏㅇㅣㄹ -13827
▁ㄱㅗㄹㅕㅅㅏ -13828
▁ㅁㅜㄹㄱㅕㄹ -13829
▁ㄱㅏㄴㅅㅏㅇㅣ -13830
▁ㄷㅐㅈㅓㄴㅊㅏ -13831
▁ㄱㅗㅌㅡ -13832
▁ㅅㅜㅁㄱㅣ -13833
ㅂㅜㄴㅇㅕㄹ -13834
▁ㅂㅓㄴㄱㅏㄹ -13835
▁ㅇㅏㄹㅍㅗㄴ -13836
▁ㅂㅗㄹㄹㅗㄴㅑ -13837
▁ㅇㅗㄹㄹㅣㅂㅓ -13838
▁ㅇㅏㄹㄹㅔㄱㅅㅏㄴㄷㅡㄹㅗㅅㅡ -13839
▁ㄷㅗㅅ -13840
ㅌㅏㅅㅡ -13841
▁ㅍㅓㅅㅡ -13842
▁ㅍㅣㄷㅡ -13843
ㄱㅡㄹㅜㅂ -13844
▁ㄱㅗㅇㅅㅣ -13845
▁ㅅㅜㄴㄹㅖ -13846
▁ㅍㅡㄹㅣㄴㅅㅡㅌㅓㄴ -13847
▁KB -13848
▁it -13849
ㅗㄴㅗ -13850
▁ㅂㅏㅇㅗ -13851
ㅍㅏㅇㅣㅇㅓ -13852
▁ㅅㅣㄴㅈㅣㄴ -13853
▁ㅋㅗㅅㅗㅂㅗ -13854
▁ㅁㅏㄹㅡㅅㅔㅇㅠ -13855
▁ㅂㅡㄹㅣㅌㅣㅅㅣ -13856
▁ㅆㅣㅅ -13857
ㄱㅣㅇㅣㄴ -13858
▁ㄱㅏㅆㅡㅇ -13859
▁ㄷㅜㄱㅏㄱ -13860
▁ㅅㅗㄷㅗㅇ -13861
▁ㅅㅜㄹㅕㄱ -13862
▁ㄱㅡㅁㄴㅏㄹㅏ -13863
▁ㄹㅗㅅㅡㅋㅜㄹ -13864
▁ㅅㅓㅇㅁㅐㅁㅐ -13865
▁ㅂㅗㅅㅏㄹㅅㅏㅇ -13866
▁ML -13867
▁SV -13868
ㅋㅗㅌㅏ -13869
▁ㄱㅜㅊㅣ -13870
▁ㄱㅜㄱㅡㅁ -13871
▁ㅈㅏㅇㄹㅐ -13872
▁ㅎㅐㅂㅕㅇ -13873
▁ㄷㅏㅋㅏㄹㅏ -13874
▁ㅅㅡㅇㄷㅏㄴ -13875
▁ㄱㅗㅇㅂㅏㅇㅈㅓㄴ -13876
▁ㄱㅘㄴㅎㅕㄴㅇㅏㄱ -13877
▁ㅂㅔㄴㅔㄷㅣㄱㅌㅗ -13878
ㅗㄹㅔ -13879
▁ㄲㅡㅌㄴㅐㅆ -13880
▁ㅅㅜㅊㅏㄹㅖ -13881
▁ㅊㅜㄹㅎㅕㄹ -13882
▁ㄴㅗㄴㄹㅣㅎㅏㄱ -13883
▁ㅅㅏㄷㅏㄴㅈㅏㅇ -13884
▁ㅌㅗㅇㅍㅖㅎㅏㅂ -13885
19 -13886
▁ㅁㅣㅇㅏ -13887
▁ㄴㅣㅋㅗㄴ -13888
▁ㅅㅏㄴㅎㅗ -13889
▁ㅍㅗㄹㅡㅌㅜ -13890
▁ㄷㅏㄴㄱㅓㄹㅣ -13891
▁ㄷㅗㅁㅣㄴㅣㅋㅏ -13892
▁ㅎㅘㄹㄷㅗㅇㄱㅏ -13893
ble -13894
▁ㄱㅔㅅ -13895
▁ㅅㅜㅎ -13896
ㅅㅡㅇㅘ -13897
ㅇㅣㅇㅓ -13898
ㅌㅏㄴㅠ -13899
▁1887 -13900
▁ㅅㅡㅁㅣ -13901
▁ㅋㅏㄴㅣ -13902
▁ㅎㅏㄹㅣ -13903
▁ㅎㅗㅇㅏ -13904
ㄱㅓㄹㅇㅣ -13905
▁ㅊㅜㄹㅈㅏ -13906
▁ㅈㅓㄴㅅㅣㄱ -13907
▁ㅎㅗㅇㅅㅓㅇ -13908
▁ㅁㅏㄴㄴㅏㄴㄷㅏ -13909
▁ㅎㅗㅅㅡ -13910
▁ㅂㅏㄹㅁㅗㄱ -13911
▁ㅎㅕㅇㅇㅛㅇ -13912
▁ㄱㅔㅅㅣㅍㅏㄴ -13913
▁ㅇㅠㅈㅓㄴㅎㅏㄱ -13914
▁ㅁㅓㄹㅣㅋㅏㄹㅏㄱ -13915
▁ㅈㅐㄷㅏㄴㅂㅓㅂㅇㅣㄴ -13916
ㅂㅔㅅ -13917
▁Wii -13918
▁ㄴㅗㅂ -13919
▁ㄹㅏㄷㅡ -13920
▁ㅌㅚㅇㅟ -13921
▁ㄱㅕㄱㄹㅕ -13922
▁ㅂㅔㅌㅔㄹ -13923
▁ㄴㅣㄱㅅㅡㄴ -13924
▁ㄹㅔㅇㅣㄷㅣ -13925
▁ㅁㅏㄱㅍㅏㄴ -13926
▁ㅅㅐㅁㅠㅇㅓㄹ -13927
ave -13928
▁Up -13929
ㅋㅡㄹㅣ -13930
▁ㅍㅣㅇㅜ -13931
▁ㅎㅏㅂㅣ -13932
ㄱㅜㅇㅕㄱ -13933
▁ㄱㅕㄴㄷㅣ -13934
▁ㅂㅜㄹㅅㅏ -13935
▁ㅇㅔㅂㅏㄴ -13936
ㅅㅣㄹㄹㅗㄱ -13937
ㅗㄹㄹㅣㄴㅣ -13938
▁ㅈㅘㅍㅛㄱㅖ -13939
ㅈㅔㅇㅣ -13940
▁ㄱㅛㅂㅜ -13941
▁ㅍㅏㅋㅓ -13942
▁ㄱㅐㄱㅡㅁ -13943
▁ㄷㅗㅅㅓㅇ -13944
▁ㄱㅏㅇㅅㅓㄱㅜ -13945
▁ㄷㅗㅇㅁㅐㅇㄱㅜㄴ -13946
▁ㅁㅏㅇㅡㄹㅂㅓㅅㅡ -13947
▁ㅂㅐㅅ -13948
▁ㅅㅑㅁ -13949
ㅇㅣㅂㅡ -13950
ition -13951
▁1864 -13952
▁ㅁㅔㅋㅏ -13953
▁ㅋㅣㅇㅝ -13954
ㅇㅕㄴㅎㅣ -13955
▁Dream -13956
▁ㄷㅗㅁㅣㄴ -13957
▁ㄷㅗㅇㅑㄱ -13958
▁ㅅㅔㅂㅜㄴ -13959
▁ㅈㅜㅅㅣㅁ -13960
▁ㄷㅐㅅㄱㅡㄹ -13961
▁ㅇㅗㄴㄱㅓㄴ -13962
▁ㄱㅏㄹㅗㅈㅣㄹㅡ -13963
▁SH -13964
▁ㄲㅐㅇ -13965
▁1861 -13966
▁ㄱㅘㅅㅣ -13967
▁ㅂㅜㄹㅠ -13968
▁ㄱㅜㅁㅜㄴ -13969
▁ㅈㅐㅇㅏㅇ -13970
▁ㅊㅜㅈㅗㄴ -13971
▁ㄱㅣㅅㅌㅓㄹ -13972
▁ㅎㅗㄹㄷㅣㅇ -13973
▁ㅎㅜㅇㅝㄴㅈㅏ -13974
▁ㅂㅐㄱㅇㅏㄱㄱㅣ -13975
ㅌㅗㅍㅡ -13976
ㅔㅇㅏㄴ -13977
▁Life -13978
▁ㄹㅔㅌㅡ -13979
▁ㄴㅏㄹㅡㅁ -13980
▁ㄸㅓㅇㅗㄹㄹ -13981
▁ㅈㅗㄴㅏㄹㅏ -13982
▁ㅎㅘㅇㅎㅐㄷㅗ -13983
▁ㅂㅡㄹㅡㅌㅏㄴㅠ -13984
▁ㅅㅏㄱㅏㄴㅇㅝㄴ -13985
ㅇㅗㅇ -13986
▁ㄱㅓㄹㅜㄱ -13987
▁ㅅㅏㄴㅅㅜ -13988
▁ㅂㅗㅇㅎㅘㅇ -13989
▁ㅇㅏㄱㄱㅗㄱ -13990
▁ㅍㅏㅇㅣㅍㅡ -13991
▁ㅇㅛㅇㅇㅢㅈㅏ -13992
▁ㅇㅣㄴㅍㅡㄹㄹㅔㅇㅣㅅㅕㄴ -13993
▁if -13994
▁ㄱㅜㄻ -13995
ㅣㄹㄷㅡ -13996
▁Tour -13997
▁ㅇㅠㅌㅏ -13998
▁ㅎㅗㄹㅡ -13999
▁ㄹㅣㅇㅗㄴ -14000
▁ㄷㅗㅇㅊㅏㅇ -14001
▁ㅅㅏㅆㅡㅁㅏ -14002
▁ㅂㅗㄹㅌㅣㅁㅗㅇㅓ -14003
▁ㅎㅐㅇㅈㅓㅇㄷㅗㅇ -14004
ult -14005
▁RT -14006
ㅎㅔㄷㅡ -14007
▁ㄱㅏㅈㅊㅝ -14008
▁ㅂㅜㅇㅑㅇ -14009
▁ㅈㅐㅂㅏㄹ -14010
▁ㅈㅣㅁㅕㄴ -14011
▁ㄴㅗㅍㅇㅕㅆ -14012
▁ㅅㅐㅇㄹㅣㅎㅏㄱ -14013
▁ㅋㅓㄴㅌㅔㄴㅊㅡ -14014
▁ㄹㅓㅅㅣㅇㅏㄱㅜㄴ -14015
ㅅㅏㅌㅐ -14016
ㅗㄴㅣㅇ -14017
▁ㅎㅐㅊㅣ -14018
ㅅㅡㅇㅞㄹ -14019
▁ㅁㅣㅋㅏㅇ -14020
▁ㅅㅗㅇㅛㅇ -14021
▁ㄱㅡㄴㄱㅓㅈㅣ -14022
▁ㅁㅣㄴㅇㅕㅇㅎㅘ -14023
▁ㄴㅏㅁㅂㅔㅌㅡㄴㅏㅁ -14024
▁ㅈㅐㅊㅏ -14025
▁ㅋㅏㅇㅑ -14026
ㄱㅗㅇㅈㅜ -14027
▁ㄱㅓㅊㅣㄹ -14028
▁ㄴㅏㄴㅜㄴ -14029
▁ㅇㅣㄴㅗㅇ -14030
▁ㄷㅏㅁㅕㄴㅅㅓ -14031
▁ㄷㅔㅇㅣㅂㅣㅅ -14032
▁ㅇㅛㄱㅡㅁㅅㅗ -14033
▁ㄷㅗㄱㄹㅣㅂㄱㅜㄴ -14034
▁ㅋㅓㅁㅍㅏㅇㅣㄹㄹㅓ -14035
DA -14036
EP -14037
▁ㅁㅜㅁ -14038
▁ㄷㅗㅎㅏ -14039
▁ㅂㅣㄹㅗ -14040
▁ㅇㅝㅋㅣㅇ -14041
▁ㅍㅓㅈㅕㅆ -14042
▁ㅇㅘㄴㄱㅕㄹ -14043
▁ㅈㅏㅇㅈㅔㅅㅡ -14044
▁ㅇㅜㅇㅔㅅㅡㄱㅣ -14045
▁ㅅㅡㅌㅡㄹㅣㅁㅣㅇ -14046
▁TC -14047
▁ㄱㅜㄹㅖ -14048
▁ㄴㅏㅇㅜ -14049
▁ㅌㅓㅈㅣ -14050
▁ㅁㅕㄴㅁㅗ -14051
▁ㅂㅓㅍㅓㄹ -14052
▁ㅇㅣㄹㄹㅓ -14053
▁ㅍㅕㅇㅌㅏㄴ -14054
▁en -14055
▁ㄴㅓㅅㅡ -14056
▁ㅇㅝㅈㅡ -14057
ㄲㅜㅁㅊㅣ -14058
▁ㄱㅏㄹㅇㅏ -14059
▁ㄷㅏㅅㅣㄱ -14060
▁ㅂㅗㄴㅊㅔ -14061
▁ㅍㅗㅌㅏㄴ -14062
▁ㄱㅘㅇㅅㅓㄴ -14063
▁ㅂㅜㄹㅂㅜㄴ -14064
▁ㅅㅔㄴㅔㄱㅏㄹ -14065
▁ㅊㅏㅁㅇㅢㅇㅝㄴ -14066
▁ㄷㅗㄹㅏㅇㅔㅁㅗㅇ -14067
▁ㄴㅗㅇㅣ -14068
▁ㅂㅏㄹㅇㅢ -14069
▁ㅇㅣㅎㅗㅇ -14070
ㅂㅔㄹㅣㅇㅏ -14071
▁ㄱㅕㅇㅈㅗㅇ -14072
▁ㄷㅐㄱㅛㄱㅜ -14073
▁ㅈㅏㅇㅈㅓㄴ -14074
▁ㅈㅣㄴㅏㄱㅏㄴㄷㅏ -14075
▁ㄷㅗㅈㅔ -14076
▁ㅅㅠㅁㅣ -14077
▁ㅅㅡㄹㅜ -14078
ㄷㅜㄹㄱㅣ -14079
▁ㅁㅗㄱㅜㄱ -14080
ㅂㅏㄷㅗㄹㅡ -14081
▁ㅂㅗㅈㅘㄱㅘㄴ -14082
▁ㅁㅏㄹㅡㅋㅜㅅㅡ -14083
ㅍㅓㄴ -14084
▁ㅁㅣㅁㅣ -14085
▁ㅅㅏㅋㅣ -14086
▁ㄱㅙㅂㅜㄹ -14087
ㅋㅗㄴㅅㅣㄴ -14088
▁ㅂㅏㄹㅌㅗㅂ -14089
▁ㅅㅏㅁㅊㅓㄱ -14090
▁ㅅㅗㅇㅎㅘㄴ -14091
▁ㅈㅜㄹㄹㅣㅇ -14092
▁ㅅㅐㅇㅅㅓㅇㅁㅜㄹ -14093
▁ㅇㅟㅅㅡㅋㅗㄴㅅㅣㄴ -14094
ㅔㄴㅔ -14095
ㄷㅣㅅㅡㄴ -14096
▁ㅅㅏㄴㅁㅜㄹ -14097
▁ㅈㅜㄴㅣㅊㅣ -14098
▁ㅅㅣㄴㅅㅔㄱㅖ -14099
▁ㅎㅜㅅㅔㅇㅣㄴ -14100
▁ㄲㅗㅈ -14101
▁ㅋㅝㅋㅡ -14102
▁ㅈㅏㅍㅏㄴ -14103
▁ㅋㅗㄴㅏㄴ -14104
▁ㅇㅏㅇㅣㄹㄹ -14105
▁ㅈㅣㅋㅕㅂㅗ -14106
▁ㅍㅡㄹㅏㅇㅋㅗ -14107
▁ㄱㅗㅇㅇㅕㄴㅈㅏㅇ -14108
▁1881 -14109
▁ㄹㅔㅈㅡ -14110
ㅎㅘㄱㅕㅇ -14111
▁ㄴㅐㄹㅕㄱ -14112
ational -14113
▁ㅍㅏㄹㅈㅏㄱ -14114
▁ㅈㅏㅇㅇㅐㅁㅜㄹ -14115
▁AG -14116
▁ㄹㅐㄱ -14117
▁ㄱㅣㅃㅓ -14118
▁ㅍㅣㄹㅣ -14119
▁ㄱㅘㄴㄴㅐ -14120
▁ㅂㅐㅇㅜㄴ -14121
▁ㅌㅗㅁㅗㄱ -14122
▁ㅍㅔㄹㄹㅗ -14123
▁ㅅㅏㄴㅏㅇㅣ -14124
▁ㅇㅘㅇㄱㅘㄴ -14125
▁ㅎㅐㅇㅂㅏㅇ -14126
ject -14127
ㅇㅏㅂㅗ -14128
ㅈㅡㅁㅏ -14129
ㄹㅣㅇㅓㅅ -14130
▁ㅈㅡㅇㅅㅔ -14131
▁ㅌㅡㄱㄱㅣ -14132
▁ㅅㅡㅇㅇㅛㅇ -14133
▁ㅅㅏㅈㅓㄹㄷㅏㄴ -14134
orm -14135
ㅁㅜㄹㅡ -14136
▁ㅇㅏㅌㅗ -14137
▁ㅍㅗㅎㅘ -14138
▁ㅇㅠㄹㅣㅁ -14139
▁ㅇㅣㅅㅣㅁ -14140
▁ㅁㅗㅁㄷㅗㄹ -14141
▁ㅅㅓㅍㅗㅌㅓ -14142
▁ㅇㅑㄱㅈㅓㅁ -14143
▁ㅇㅜㅅㅇㅡㅁ -14144
▁ㅋㅏㅇㅜㄴㅌㅡ -14145
▁ㅊㅏㅅㅜ -14146
▁ㅁㅣㄴㅁㅜㄹ -14147
ㅣㅇㅝㄴ -14148
▁ㅌㅗㅇㅣ -14149
▁Music -14150
▁ㄱㅏㅁㄹㅣ -14151
ㅗㄹㄹㅣㅇㅏ -14152
▁ㅁㅗㄴㅏㅋㅗ -14153
▁ㅂㅗㄴㅓㅅㅡ -14154
▁ㅇㅕㄱㅅㅏㅎㅏㄱ -14155
▁ㅎㅐㄱㅕㄹㅊㅐㄱ -14156
▁te -14157
ㄸㅓㄹ -14158
ㄸㅟㄱㅣ -14159
▁ㅈㅗㅎㅕㄴ -14160
▁ㅂㅏㅇㄱㅗㅇ -14161
▁ㅂㅔㅇㅣㅂㅣ -14162
▁ㅇㅣㄱㅁㅕㅇ -14163
▁ㅇㅠㄴㅣㅂㅓㅅㅡ -14164
▁ㅎㅗㅁㄱㅕㅇㄱㅣ -14165
ㄴㅏㅇ -14166
ㄴㅡㅈ -14167
▁ㄱㅛㅈㅣ -14168
▁ㅅㅣㅂㅣ -14169
ㅍㅕㅇㄹㅣ -14170
▁ㄴㅗㅎㅇㅣ -14171
▁ㅂㅜㅇㅇㅓ -14172
▁ㅇㅣㄱㅅㅏㄴ -14173
ㅓㄹㅣㅇ -14174
▁Open -14175
▁ㅁㅏㅇㅛ -14176
▁ㅅㅔㅁㅣ -14177
▁ㅇㅟㅅㅣ -14178
▁ㅅㅡㅇㅎㅏ -14179
▁ㅇㅏㅋㅏㄴ -14180
▁ㅂㅏㄴㅈㅜㄱ -14181
▁ㅅㅡㅂㄷㅡㄱ -14182
▁ㅇㅑㄱㅜㄷㅏㄴ -14183
▁ㅍㅡㄹㅣㅁㅣㅇㅓㅁ -14184
▁BL -14185
ㅐㅅㅣ -14186
ㅣㄱㅣ -14187
ㅇㅠㅅㅏ -14188
▁1850 -14189
▁ㅇㅔㅂㅏ -14190
▁ㅂㅐㄱㅇㅓㅂ -14191
▁Ed -14192
ㅡㅌㅡㅁ -14193
▁ㄷㅔㄷㅡ -14194
▁ㅅㅏㄴㅐ -14195
▁ㅇㅕㅌㅏ -14196
▁ㄱㅏㄷㅏㄱ -14197
▁ㅂㅐㅊㅓㄱ -14198
ㅊㅏㄹㅡㅌㅡ -14199
▁ㄱㅐㄱㅇㅝㄴ -14200
▁ㅈㅜㄱㅇㅣㅁ -14201
▁ㅎㅘㄴㄱㅘㄴ -14202
▁ㅇㅕㅎㅏㄱㅅㅐㅇ -14203
▁an -14204
ㅅㅏㅇㅘ -14205
ㅣㅁㅜㄹ -14206
▁ㅇㅐㅊㅗ -14207
▁ㅁㅐㄱㅇㅏ -14208
▁ㅁㅜㄹㄹㅠ -14209
▁ㅂㅗㄱㅇㅟ -14210
▁ㅂㅜㄹㅡㅁ -14211
▁ㅈㅓㄴㄹㅣ -14212
▁ㅋㅡㄹㅔㅇ -14213
ㅏㅇㅣㅇㅓㅌㅣ -14214
▁ㄷㅗㄹㅇㅏㄷㅏㄴㅣ -14215
▁ㅂㅓㄹㅏㅇㅣㅇㅓㅌㅣ -14216
ton -14217
ㄱㅕㅁ -14218
▁ㄷㅗㅅㅏㄴ -14219
▁ㅇㅠㄴㅡㅇ -14220
▁ㅍㅏㅈㅣㄱ -14221
▁ㄷㅏㅇㅎㅘㅇ -14222
▁ㅂㅏㄹㅗㅋㅡ -14223
▁ㅍㅏㄴㄱㅘㄴ -14224
ION -14225
▁XP -14226
ㅁㅗㅁ -14227
▁ㅇㅛㄱㅚ -14228
ㄷㅣㅇㅓㄹ -14229
▁ㄱㅡㄴㄹㅐ -14230
▁ㄴㅏㅁㅅㅗㅇ -14231
▁ㄷㅏㅇㅈㅣㄴ -14232
▁ㅅㅡㄹㄹㅐㅁ -14233
▁ㅍㅕㄴㅇㅏㄴ -14234
▁ㅁㅗㅁㅔㄴㅌㅡ -14235
▁ㅁㅜㅈㅏㄱㅇㅟ -14236
▁ㅁㅣㄴㅔㅅㅗㅌㅏ -14237
ㅏㅇㅛ -14238
ㅉㅏㄱㅣ -14239
ㅗㄴㅗㅅㅡ -14240
▁ㄱㅣㅁㅣㄹ -14241
▁ㄴㅗㅍㅇㅕ -14242
▁ㄷㅐㄱㅡㅁ -14243
▁ㅂㅏㄱㅈㅏ -14244
▁ㅂㅡㄹㅜㄱ -14245
▁ㅋㅔㄴㅌㅓ -14246
ㅣㄹㄹㅣㅌㅣ -14247
▁ㅅㅣㄹㄱㅏㄱ -14248
▁ㅈㅏㅁㅅㅣㄹ -14249
▁ㅈㅚㅅㅜ -14250
ㅌㅏㅇㅣㅂ -14251
▁ㄱㅛㄷㅗㅇ -14252
▁ㅁㅔㅌㅣㄹ -14253
▁ㅇㅣㄹㅕㄱ -14254
▁ㅍㅏㅇㅕㄹ -14255
▁ㅇㅑㅇㄱㅜㅇ -14256
▁ㅅㅔㄱㅜㄴㄷㅏ -14257
▁ㅇㅏㅂㅣㄷㅏㄹ -14258
▁ㅁㅗㅊㅏㄹㅡㅌㅡ -14259
▁ㄷㅐㅈㅜㅇㄱㅛㅌㅗㅇ -14260
ㅎㅗㅁㅏ -14261
▁ㄱㅖㅂㅗ -14262
▁ㄹㅏㅈㅏ -14263
▁ㅇㅠㅍㅗ -14264
▁ㅂㅜㅈㅓㄴ -14265
▁ㅈㅐㄱㅕㄹ -14266
▁ㅈㅓㅇㅇㅖ -14267
▁ㅂㅡㄹㄹㅏㅇ -14268
▁ㅅㅣㄴㅅㅣㄴ -14269
▁ㄹㅗㄷㅡㄹㅣㄱ -14270
▁ㅎㅘㅅㅓㅇㅅㅣ -14271
▁ㅎㅔㄹㅏㅋㅡㄹㄹㅔㅅㅡ -14272
ㅈㅕㅇㅑ -14273
ㅚㅅㅓㄴ -14274
▁ㅇㅏㅇㅠ -14275
▁ㄱㅣㅇㅛㅁ -14276
▁ㄷㅗㅇㅊㅏ -14277
▁ㄹㅓㄴㅣㅇ -14278
▁ㄴㅣㅅㅅㅏㄴ -14279
▁ㅌㅗㅌㅡㄴㅓㅁ -14280
▁ㅎㅏㅇㅑㄴㅅㅐㄱ -14281
▁HTML -14282
▁ㅂㅏㅂㅣ -14283
▁ㅅㅜㅇㅣ -14284
▁ㅅㅡㅌㅜ -14285
▁ㅁㅗㄹㅏㄴ -14286
▁ㅈㅗㄱㅕㅇ -14287
▁ㅎㅓㅁㅗㄱ -14288
▁ㅅㅡㅇㅅㅏㅇ -14289
▁ㅈㅐㅍㅏㄴㄱㅘㄴ -14290
▁ㅇㅡㅁㅇㅏㄱㅇㅝㄴ -14291
ru -14292
▁ㅇㅠㄷㅏ -14293
▁ㅇㅛㅇㅅㅏ -14294
▁ㅅㅜㄴㅎㅏㅇ -14295
▁ㅇㅚㅁㅜㅂㅜ -14296
▁ㅈㅏㅇㄴㅏㄴㄱㅏㅁ -14297
▁ㄷㅏㅋㅏㄹㅏㅈㅡㅋㅏ -14298
▁"- -14299
ㅓㅁㅏ -14300
ㄱㅓㄱㅜ -14301
▁ㄹㅜㄴㅏ -14302
▁ㄷㅏㅇㅣㄹ -14303
▁ㄷㅗㅂㅗㅇ -14304
▁ㅂㅏㄴㅈㅜ -14305
ㅌㅏㄴㅣㅇㅏ -14306
▁ㄱㅗㅂㅅㅔㅁ -14307
▁ㄱㅘㄴㅇㅛㅇ -14308
▁ㅁㅏㄴㄴㅏㄹ -14309
▁ㅇㅑㅇㅎㅕㄴ -14310
▁ㄴㅔㅌㅣㅈㅡㄴ -14311
▁ㅇㅡㄹㅕㄴㅡㄴ -14312
▁ㅇㅣㅁㅔㅇㅣㄹ -14313
▁ㄱㅘㄴㄹㅕㄴㅈㅏ -14314
▁ㅇㅠㄹㅏㅅㅣㅇㅏ -14315
▁ㅇㅣㄹㄹㅔㄱㅌㅡㄹㅗㄴ -14316
ㅅㅔㄴㅅㅡ -14317
▁ㄱㅜㅎㅚㄱ -14318
▁ㅅㅓㄲㅇㅕ -14319
▁ㅈㅓㄴㄱㅘ -14320
▁ㅎㅓㅂㅡㄹ -14321
ㄷㅓㄱㅇㅘㅇ -14322
▁ㅂㅏㄹㅅㅏㄴ -14323
▁ㅂㅡㄹㅐㄷㅡ -14324
▁ㅇㅐㅅㅡㄹㄹ -14325
▁ㄷㅏㄹㅇㅏㄴㅏ -14326
ics -14327
▁ㅁㅝ -14328
ㅡㄹㅓ -14329
▁Don -14330
▁ㅁㅟㄹ -14331
ㄷㅓㅈㅣ -14332
▁1872 -14333
▁ㄷㅗㄹㅏ -14334
▁ㅇㅖㅇㅢ -14335
ㄷㅏㄴㅇㅟ -14336
ㄷㅗㅇㅈㅏ -14337
▁ㅇㅓㅊㅗㄴ -14338
▁ㅎㅚㄱㅗㄹ -14339
ㄱㅗㅇㅇㅓㅂ -14340
ㄷㅡㅇㅞㅇㅣ -14341
ㅊㅡㅂㅓㄱㅡ -14342
▁ㄱㅕㅇㄱㅓㄴ -14343
▁ㄱㅗㅇㅍㅏㄴ -14344
▁ㄴㅐㅂㅗㄴㅐ -14345
▁ㄹㅏㅊㅣㅇㅗ -14346
▁ㅂㅏㄱㅅㅡㅇ -14347
▁ㅈㅓㅇㅎㅘㅇ -14348
▁ㅎㅘㅎㅏㄱㅈㅏ -14349
▁ㄹㅗㅁㅐㄴㅌㅣㄱ -14350
▁ㅊㅓㅇㄴㅕㄴㅎㅚ -14351
▁ㅋㅏㄹㅡㅌㅏㄱㅗ -14352
▁ㅂㅜㄹㅂㅜㄴㅁㅕㅇ -14353
▁ㅇㅏㅇㅣㄷㅣㅇㅓㄹ -14354
ode -14355
▁750 -14356
▁ret -14357
▁ㄴㅐㅍㅗ -14358
▁ㅁㅜㅅㅜ -14359
▁ㅈㅣㅋㅜ -14360
▁ㄱㅡㅂㅎㅣ -14361
▁ㅈㅜㅇㄹㅏㅇ -14362
▁ㅋㅏㅁㅍㅏㄴ -14363
▁ㄹㅗㅁㅂㅏㄹㅡ -14364
▁ㅁㅣㄹㄱㅏㄹㅜ -14365
▁ㅇㅏㄹㅇㅏㄴㅐ -14366
▁ㅍㅣㄴㅣㄱㅅㅡ -14367
▁ㅇㅣㅅㅣㅋㅏㅇㅘ -14368
▁DR -14369
▁iOS -14370
ㅇㅜㅎㅚ -14371
ㅣㅈㅡㅁ -14372
ㅔㄹㅡㅌㅡ -14373
ㅣㄹㄹㅔㄴ -14374
▁ㄱㅕㅇㄷㅗ -14375
▁ㄷㅜㄹㄹㅓ -14376
▁ㅅㅔㄱㅏㄴ -14377
▁ㅅㅣㅇㅝㄴ -14378
▁ㅇㅗㅇㅈㅜ -14379
▁ㄱㅕㅇㄹㅑㅇ -14380
▁ㅇㅕㄹㄹㅕㄹ -14381
▁ㅊㅗㅅㅂㅜㄹ -14382
▁ㅌㅏㄴㅅㅏㄴ -14383
▁ㅇㅠㄴㅣㅇㅓㄴ -14384
▁ㄴㅗㅇㅇㅓㅊㅗㄴ -14385
▁ㅇㅏㅂㄹㅗㄱㄱㅏㅇ -14386
ㄲㅔㄲㅣ -14387
ㄷㅔㅈㅏㄴ -14388
▁ㅂㅐㅎㅑㅇ -14389
▁ㅌㅡㄹㅏㄴ -14390
ㄷㅡㄹㅇㅕㅆ -14391
▁ㅂㅕㄴㅈㅗㅇ -14392
▁ㅎㅗㄴㅎㅕㄹ -14393
▁ㅎㅡㄱㅂㅐㄱ -14394
▁ㅇㅗㅋㅡㄹㄹㅏ -14395
▁ㅂㅏㄱㅇㅕㅇㅎㅛ -14396
▁ㅅㅜㅅㅜㄲㅔㄲㅣ -14397
▁ㄹㅜㅅㅡㅂㅔㄹㅌㅡ -14398
▁ㅇㅗㅋㅡㄹㄹㅏㅎㅗㅁㅏ -14399
▁ㅆㅜ -14400
▁ㅋㅗㅂ -14401
▁ㅋㅣㅅ -14402
▁1830 -14403
▁ㅇㅔㄹㅗ -14404
▁ㅈㅡㅇㅇㅗ -14405
▁ㅅㅏㅇㅎㅏㄴ -14406
▁ㅅㅡㅌㅔㅇㅣ -14407
▁ㅇㅗㅋㅏㅇㅑㅁㅏ -14408
▁ㅌㅏㅁㅎㅓㅁㄱㅏ -14409
ier -14410
▁1863 -14411
▁ㅊㅣㅇㅜ -14412
ㅏㅇㅑㅁㅏ -14413
▁ㄱㅏㄷㅗㄱ -14414
▁ㅅㅡㅇㅟㅇ -14415
▁ㅇㅗㅇㅣㄹ -14416
▁ㅇㅣㄱㅏㅇ -14417
▁ㄱㅗㄱㅁㅕㄴ -14418
▁ㅁㅗㄱㅇㅛㄱ -14419
▁ㅂㅏㄴㄷㅐㅍㅏ -14420
ㅌㅐㅍㅕㅇㅇㅑㅇ -14421
▁ㅅㅏㅁㄱㅜㄱㅈㅣ -14422
ㄷㅗㅇㅣㄴ -14423
▁ㅍㅐㄱㅝㄴ -14424
▁ㅎㅗㅁㅈㅡ -14425
▁ㅎㅡㄹㄹㅣ -14426
▁ㄲㅏㅁㅏㄱㅟ -14427
▁ㅈㅓㅇㅈㅜㅇ -14428
▁ㄱㅏㅆㅇㅡㅁㅕ -14429
▁ㄷㅗㄹㅡㅌㅡㅁ -14430
▁ㅂㅏㄷㅊㅣㅁㄷㅗㄹ -14431
▁ㄱㅗㅇㄱㅜㄴㄱㅣㅈㅣ -14432
▁ㄷㅗㄹㅡㅌㅡㅁㅜㄴㅌㅡ -14433
QL -14434
ㄱㅔㄹ -14435
▁ㄷㅔㄹㄹ -14436
▁ㄹㅏㅅㅣ -14437
▁ㄹㅔㅇㅏ -14438
ㄷㅐㅇㅝㄴ -14439
▁ㅁㅐㅈㅣㄴ -14440
▁ㅇㅓㄸㅓㅎ -14441
▁ㅁㅗㄹㄹㅏㅆ -14442
▁ㅇㅏㅁㅜㄹㅣ -14443
▁ㅊㅓㄹㅈㅗㅇ -14444
▁ㅎㅐㅅㅂㅣㅊ -14445
▁ㅊㅗㄹㅗㄱㅅㅐㄱ -14446
▁ㅅㅔㄱㅖㅇㅠㅅㅏㄴ -14447
▁ㅋㅡㄹㄹㅔㅁㅔㄴㅅㅡ -14448
TE -14449
▁1865 -14450
▁ㄱㅏㅇㅅㅔ -14451
▁ㄱㅡㅁㅎㅗ -14452
▁ㄴㅏㅂㅂㅜ -14453
▁ㅅㅣㄴㄱㅣ -14454
▁ㅇㅣㅂㅕㄹ -14455
▁ㅊㅣㅁㄷㅐ -14456
▁ㄷㅏㄴㄱㅜㄱ -14457
▁ㅂㅕㄹㅈㅏㅇ -14458
▁ㅇㅏㅂㅡㄹㅏ -14459
▁ㅇㅑㅁㅏㄴㅏ -14460
▁ㅊㅓㄹㄱㅏㅇ -14461
▁ㅍㅣㄱㅅㅔㄹ -14462
▁ㄱㅕㄱㅌㅜㄱㅣ -14463
▁Sm -14464
▁ㅅㅡㄴㅗ -14465
▁ㅇㅏㅍㅡ -14466
▁ㅌㅐㅇㅜ -14467
ㅇㅕㄱㅐㄱ -14468
▁ㄱㅏㄱㅗㄱ -14469
▁ㄱㅣㅁㅎㅢ -14470
▁ㅅㅏㄱㅅㅡ -14471
▁ㅎㅐㄴㅐㅆ -14472
▁ㅂㅔㅇㅣㅋㅓ -14473
▁ㅂㅗㄱㅇㅕㄱ -14474
▁ㅌㅏㅁㅈㅓㅇ -14475
▁ㅎㅗㅋㅡㅅㅡ -14476
▁ㄱㅏㅁㄹㅣㄱㅛ -14477
▁ㄸㅓㄴㅏㄴㄷㅏ -14478
▁ㅅㅣㄱㅏㄴㄷㅐ -14479
▁ㅇㅏㅇㅣㅋㅗㄴ -14480
▁ㄷㅓㅅㅂㅜㅌㅇㅕㅆ -14481
▁ㅈㅣㅂㅈㅓㅇㄱㅘㄴ -14482
▁ㅌㅡㄹㅔㅇㅣㄴㅣㅇ -14483
ㅓㅇㅝㅆ -14484
▁ㅅㅑㄹㄹ -14485
▁ㅅㅜㄴㅕ -14486
ㅋㅗㅇㅣㄴ -14487
▁Night -14488
▁ㅇㅏㅍㅕㄴ -14489
▁ㅇㅐㄹㄹㅣ -14490
▁ㄱㅏㅎㅐㅈㅏ -14491
▁ㄱㅜㄱㄱㅏㅇ -14492
▁ㅂㅗㄱㅈㅣㄱ -14493
▁ㄷㅐㅍㅛㄷㅏㄴ -14494
▁ㅇㅜㄱㅏㄴㄷㅏ -14495
▁ㅈㅏㅇㅠㅎㅕㅇ -14496
▁ㅈㅗㅅㅓㄴㅅㅗ -14497
▁ㅅㅔㄹㅡㄱㅔㅇㅣ -14498
▁ㅁㅗㄹㄷㅜ -14499
▁ㅁㅣㅊㅣㄹ -14500
▁ㅂㅡㄹㄹㅗ -14501
ㄱㅜㄱㅈㅓㄱ -14502
ㅎㅜㄴㅈㅏㅇ -14503
▁ㅇㅕㄹㄹㅣㄹ -14504
▁ㅋㅔㄴㅌㅓㅋㅣ -14505
▁ㄷㅜㄹㅕㅇㅝㅎㅏ -14506
UC -14507
▁ㄱㅘㅇㅕㄴ -14508
▁ㄱㅘㅇㅣㅇ -14509
▁ㄴㅣㄴㅈㅏ -14510
▁ㅅㅓㅇㄱㅏ -14511
▁ㅈㅏㅇㅆㅜ -14512
▁ㅈㅓㄴㄱㅛ -14513
▁ㅇㅘㅇㅅㅓㅇ -14514
▁ㄱㅐㅈㅓㅇㅇㅏㄴ -14515
▁ㅂㅏㄹㄱㅣㅇㅣㄴ -14516
▁ㅇㅕㅈㅣㄴㅈㅗㄱ -14517
▁ㄹㅣㅇㅜㄷㅔㅈㅏㄴ -14518
▁ㅅㅡㅇㅈㅓㅇㅇㅝㄴ -14519
▁ㄷㅏㄹㄹㅏㅈㅣㄴㄷㅏ -14520
▁ㄹㅣㅇㅜㄷㅔㅈㅏㄴㅔㅇㅣㄹㅜ -14521
▁AL -14522
ㅋㅣㅁ -14523
ㅣㅇㅠ -14524
ㄲㅗㄹㅣ -14525
▁ㅁㅏㅌㅡ -14526
▁ㅇㅢㄹㅖ -14527
▁ㄷㅏㅎㅐㅇ -14528
▁ㅇㅘㄴㅂㅣ -14529
▁ㅇㅔㄹㄹㅓㄴ -14530
▁ㅋㅡㄹㄹㅣㄱ -14531
▁ㄸㅟㅇㅓㄴㅓㅁ -14532
▁ㅇㅠㅈㅓㄴㅊㅔ -14533
▁ㅍㅏㅊㅜㅇㄹㅠ -14534
▁ㄷㅏㅇㅅㅓㄴㅈㅏ -14535
▁ㅇㅗㄴㅌㅏㄹㅣㅇㅗㅈㅜ -14536
ool -14537
▁Ab -14538
▁ㄱㅓㄲ -14539
▁ㄱㅛㅈㅔ -14540
▁ㄷㅡㄹㅜ -14541
▁ㄱㅕㅇㅁㅏ -14542
▁ㅂㅓㄹㄹㅔ -14543
▁ㅇㅚㅎㅘㄴ -14544
▁ㅈㅐㅂㅓㄹ -14545
▁ㅁㅏㄹㄷㅏㄴ -14546
▁ㅌㅔㅁㅜㄹㅡ -14547
▁ㄷㅡㅁㅣㅌㅡㄹㅣ -14548
▁ㅈㅏㄱㅍㅜㅁㅅㅏㅇ -14549
▁ㅍㅏㄹㅈㅏㄱㅈㅣㅂㅜㅇ -14550
ㅋㅣㄹ -14551
stem -14552
ㅌㅜㅇㅏㄴ -14553
▁ㅁㅣㅇㅣㄴ -14554
▁ㅋㅗㅇㅣㄴ -14555
▁ㄱㅡㄹㅐㅁㅣ -14556
▁ㄴㅏㅂㅈㅏㄱ -14557
▁ㅇㅏㄹㅁㅏㅈ -14558
▁ㅎㅏㅂㅊㅏㅇㄷㅏㄴ -14559
▁ㅊㅛ -14560
ㅐㄱㅣ -14561
ㅣㅅㅣ -14562
▁ㄴㅗㅅㅏ -14563
▁ㅂㅜㅇㅓ -14564
▁ㅋㅐㅍㅣ -14565
▁ㅁㅜㄷㅎㅕ -14566
▁ㅂㅗㅈㅓㅇ -14567
▁ㅂㅏㄴㅈㅓㅁ -14568
▁ㅅㅣㄴㅂㅗㅇ -14569
▁ㅇㅑㅇㅁㅕㄴ -14570
▁ㅍㅔㅌㅡㄹㅗ -14571
▁ㄱㅗㅅㅓㅇㄱㅜㄴ -14572
▁ㄱㅕㅇㅂㅗㄱㄱㅜㅇ -14573
▁-- -14574
▁MA -14575
ㅗㄹㅓ -14576
ㅣㄹㅑㅇ -14577
▁1891 -14578
ㅅㅣㅇㅜㅅㅡ -14579
ㅊㅣㄴㅇㅘㅇ -14580
▁ㅋㅗㄹㄹㅗㄴ -14581
ㅜㅇㅝㄴㅅㅜㅇㅇㅣ -14582
▁ㄱㅣㅂ -14583
ㅌㅗㄴㅗ -14584
▁ㅅㅖㅇㅣ -14585
▁ㅇㅗㄷㅐ -14586
ㅇㅕㄹㅊㅏ -14587
ㅣㅇㅗㅋㅏ -14588
ㅂㅡㄹㅣㄷㅡ -14589
▁ㅃㅗㅂㅎㅕㅆ -14590
▁section -14591
▁ㅂㅜㄷㅏㅍㅔㅅㅡㅌㅡ -14592
ise -14593
▁ㅌㅗㅇㅠ -14594
ㅈㅔㄹㅕㄱ -14595
ㅌㅣㄴㅔㄴ -14596
▁ㅇㅣㄴㅈㅔ -14597
▁ㄷㅏㅂㅣㄷㅡ -14598
▁ㅈㅓㅂㅎㅏㅂ -14599
▁ㅈㅜㄴㅏㄹㅏ -14600
▁ㄷㅗㅁㅏㅇㄱㅏ -14601
▁ㅇㅏㄴㄷㅡㄹㅔㅇㅏ -14602
ㄸㅣ -14603
▁NS -14604
▁ㄷㅜㅇㅓ -14605
▁ㅂㅏㅅㅣ -14606
▁ㅂㅗㄹㅗ -14607
▁ㅇㅣㅇㅜ -14608
▁ㅅㅐㅇㄷㅗ -14609
▁ㅇㅕㄱㅓㄴ -14610
ㅅㅣㅁㅗㅌㅗ -14611
▁ㄱㅣㅁㅇㅕㄴ -14612
▁ㅅㅣㄷㅏㄹㄹ -14613
▁ㅎㅐㅅㅓㄱㅎㅏㄱ -14614
▁ㅅㅑㅂ -14615
▁ㄴㅜㄴㅊㅣ -14616
▁ㄷㅟㄴㅡㅈ -14617
▁ㅁㅐㄹㅣㅂ -14618
▁ㅈㅣㅎㅏㅇ -14619
▁ㅍㅕㄴㅈㅔ -14620
▁ㄷㅡㅇㄷㅏㄴ -14621
▁ㅎㅕㄹㅇㅏㅂ -14622
▁ㅂㅓㅁㅈㅚㅈㅏ -14623
ㅇㅠㅇㅖ -14624
ㅜㅇㅔㄴ -14625
▁ㄱㅐㄱㅡ -14626
ㅔㄹㅡㅋㅡ -14627
▁ㅇㅡㅇㅎㅏ -14628
▁ㅇㅣㅇㅡㄴ -14629
▁ㅈㅜㅇㄱㅗ -14630
▁ㅋㅓㅍㅡㄹ -14631
ㅅㅡㅌㅜㅅㅡ -14632
▁ㅇㅐㄴㄷㅡㄹㅠ -14633
▁ㄷㅏㄱㅜㄱㅈㅓㄱ -14634
70 -14635
ㅏㄹㅔ -14636
ㅂㅏㅎㅡ -14637
▁ㄱㅘㄷㅏ -14638
▁ㅅㅠㅌㅔ -14639
▁ㅂㅜㄹㅡㅂ -14640
▁ㅇㅔㄷㅜㅇ -14641
▁ㅁㅏㅌㄱㅕㅆ -14642
▁ㄱㅖㅅㅡㅇㅈㅏ -14643
▁ㅎㅏㅇㅇㅏㄹㅣ -14644
▁ㅂㅏㄹㅏㅁㅈㅣㄱ -14645
▁ㅈㅣㅂㅎㅐㅇㅇㅠㅇㅖ -14646
NG -14647
▁qu -14648
▁Can -14649
ㅅㅣㄷㅐ -14650
ㅈㅔㅂㅣ -14651
▁ㄱㅏㅇㅑ -14652
▁ㄱㅜㄱㅏㅇ -14653
▁ㄱㅜㄴㅅㅔ -14654
▁ㅈㅣㄱㅕㅇ -14655
▁ㅎㅐㅋㅣㅇ -14656
▁ㅈㅣㄴㅎㅡㄺ -14657
▁ㅍㅗㅎㅏㅇㅅㅣ -14658
▁ㅎㅏㅇㅣㅂㅡㄹㅣㄷㅡ -14659
ai -14660
ower -14661
ㅅㅔㄷㅏ -14662
ㅊㅕㅇㅑ -14663
▁ㅁㅜㄴㅔ -14664
▁ㅅㅗㄷㅐ -14665
▁ㄹㅏㄴㅅㅡ -14666
▁ㅅㅡㅋㅣㄴ -14667
▁ㅈㅜㅇㅅㅗ -14668
▁ㅋㅗㅎㅗㅁ -14669
▁ㅍㅏㄹㅏㅇ -14670
▁ㅅㅔㄴㄷㅏㅇㅣ -14671
▁ㅅㅣㅌㅣㅈㅡㄴ -14672
▁ㅇㅏㄴㅅㅏㄴㅅㅣ -14673
▁ㅋㅗㅎㅗㅁㅗㄹㄹㅗㅈㅣ -14674
▁ㅌㅜㅎㅏ -14675
▁ㄷㅔㄴㅅㅛ -14676
▁ㅈㅏㅋㅔㅅ -14677
▁ㅈㅗㅇㅁㅛ -14678
▁ㅍㅡㄹㅣㄹ -14679
▁ㅋㅏㅇㅣㄹㅗ -14680
▁ㅌㅏㅇㅣㅁㅈㅡ -14681
▁ㅇㅣㅂㅏㄹㅏㅋㅣ -14682
▁ㅂㅔㅅㅡㅌㅡㅅㅔㄹㄹㅓ -14683
▁q -14684
ㅖㅅㅡ -14685
▁ㅈㅔㅁ -14686
▁ㅍㅏㅌ -14687
▁ㅇㅗㅁㅔ -14688
▁ㅅㅣㅈㅣㄴ -14689
▁ㅇㅐㅇㅘㄴ -14690
ㅂㅏㅂㅡㅇㅞ -14691
▁ㅂㅓㅂㅈㅓㄴ -14692
▁ㄹㅣㄹㄹㅔㅇㅣ -14693
▁ㅇㅣㄴㅎㅐㅅㅓ -14694
▁ㅈㅓㄴㅎㅐㅈㅕㅆ -14695
▁ㅁㅜㅅㅗㄹㄹㅣㄴㅣ -14696
▁ㅈㅣㅁㅂㅏㅂㅡㅇㅞ -14697
▁ㄴㅏㄹㅋㅏㄹㅗㅇㅜㄴ -14698
che -14699
▁ㄸㅡㄹ -14700
ㅋㅠㅇㅓ -14701
▁1873 -14702
▁ㅅㅓㅇㅟ -14703
▁ㅌㅏㄱㅜ -14704
▁ㅍㅣㄹㅗ -14705
▁ㄴㅏㄹㄹㅕ -14706
ㅡㄹㄹㅏㅍㅡ -14707
▁ㄷㅏㅇㅣㅅㅡ -14708
▁ㅎㅓㄴㄴㅏㅂ -14709
▁Good -14710
▁ㅁㅏㅌㅏ -14711
▁ㅇㅕㄷㅐ -14712
▁Black -14713
▁ㅁㅗㅅㅣㄴ -14714
▁ㅂㅔㅍㅜㄹ -14715
▁ㄱㅐㅊㅔㄱㅜㄴ -14716
▁ㄱㅛㅌㅗㅇㅅㅏㄱㅗ -14717
▁ㄷㅐㅎㅏㄴㅎㅏㅇㄱㅗㅇ -14718
▁MM -14719
▁705 -14720
▁ㄹㅗㅂㅡ -14721
▁ㅊㅚㅈㅏㅇ -14722
▁ㅋㅗㅁㅟㄴ -14723
▁ㅅㅜㅅㅣㄹㅗ -14724
▁ㅇㅝㄴㄷㅗㅇ -14725
▁ㅈㅔㅍㅡㄹㅣ -14726
▁ㅂㅏㅅㅣㄹㄹㅣ -14727
▁ㄴㅗㄷㅗㅇㄹㅕㄱ -14728
ank -14729
▁AI -14730
▁ㅈㅗㅇㅓ -14731
▁ㅅㅡㅇㅈㅣ -14732
▁ㅈㅔㄱㅏㄹ -14733
▁ㄴㅡㄹㅇㅓㄴ -14734
▁ㅊㅣㄴㅁㅣㄹ -14735
ㅏㅍㅡㄹㅣㅋㅏ -14736
▁ㄱㅣㅎㅚㄱㅅㅏ -14737
▁ㅈㅔㄴㅓㄹㅓㄹ -14738
▁ㅊㅔㅇㅣㄴㅈㅣ -14739
ㅎㅐㅅㅏㄹㅇㅣㅍㅜㄹ -14740
▁ㅂㅣㅆㅏㄴ -14741
▁ㅈㅗㅅㅣㅁ -14742
▁ㄴㅐㄹㅣㄴㄷㅏ -14743
ㄹㅏㄹ -14744
▁Let -14745
▁ㅆㅜㅇ -14746
▁ㄷㅗㄷㅗ -14747
▁ㅅㅣㄹㅣ -14748
▁ㅋㅗㄹㅣ -14749
ㅎㅗㅇㅣㄴ -14750
▁ㄴㅗㄹㅏㄴ -14751
▁ㅂㅜㅅㅣㄹ -14752
ㅋㅣㄴㅅㅡㄴ -14753
▁ㄴㅏㅁㅇㅏㄱ -14754
▁ㅇㅑㅇㅇㅑㅇ -14755
▁ㄴㅏㄴㅇㅣㄷㅗ -14756
▁ㄱㅖㅈㅘ -14757
▁ㄹㅏㄹㅏ -14758
▁ㅇㅏㄷㅣ -14759
▁ㅁㅗㅂㅣㄹ -14760
▁ㅁㅏㅅㅡㅋㅗ -14761
▁ㅅㅏㄴㅅㅣㄴ -14762
▁ㅇㅏㅇㅗㅁㅗㄹㅣ -14763
▁ㅇㅗㅅㅡㅌㅡㄹㅣ -14764
▁ㄴㅏㅇㅁㅏㄴㅈㅜㅇㅢ -14765
ㅋㅜㄴ -14766
▁ㅋㅣㅈㅡ -14767
▁ㅇㅚㅅㅏㅇ -14768
▁ㅇㅣㅂㅅㅣ -14769
▁ㅎㅏㅇㅇㅜ -14770
▁ㄹㅏㅇㅣㅅㅡ -14771
▁ㅅㅗㅇㅈㅣㄴ -14772
▁ㅈㅗㅇㅇㅓㅂ -14773
▁ㅂㅕㄴㄱㅘㅇㅅㅓㅇ -14774
ㅜㅁㅓㄴ -14775
▁ㅅㅠㄱㅗ -14776
▁ㅇㅏㅇㅘ -14777
▁ㅊㅔㄴㅐ -14778
ㅁㅣㄱㅕㅇ -14779
▁ㄱㅗㄴㅏㄴ -14780
▁ㅇㅕㄴㅎㅘ -14781
▁ㅋㅐㄴㅗㄴ -14782
▁ㅎㅘㅇㅈㅏ -14783
▁ㅎㅡㄹㄹㅓㄴ -14784
ㅅㅡㅂㅏㄱㅅㅡ -14785
▁ㅈㅐㅍㅏㄴㅂㅜ -14786
▁ㅍㅔㄹㅡㄷㅣㄴㅏㄴㅌㅡ -14787
▁AU -14788
ㅉㅗㅊ -14789
ㅅㅜㅇㅕㅁ -14790
▁ㄱㅏㅁㅊㅜ -14791
▁ㄷㅐㅁㅗㄱ -14792
▁ㅇㅛㅈㅡㅁ -14793
▁ㅈㅏㅈㅣㄹ -14794
▁ㄴㅔㄱㅅㅔㄴ -14795
▁PM -14796
ㄸㅓㄱ -14797
▁550 -14798
ㅅㅜㄱㅛ -14799
▁ㅍㅏㅈㅜ -14800
▁ㅂㅕㅇㄱㅘ -14801
▁ㅊㅓㅂㅏㅇ -14802
▁ㅌㅓㅂㅣㄴ -14803
▁ㅁㅏㄴㅈㅓㅁ -14804
▁ㅁㅜㄴㅈㅓㅇ -14805
▁ㅊㅓㅇㅁㅜㄴ -14806
▁ㅍㅡㄹㅔㄷㅡ -14807
ㅎㅏㅂㅈㅜㅇㄱㅜㄱ -14808
▁ㅇㅕㅆㅇㅡㅁㅇㅡㄹ -14809
▁650 -14810
▁ㅊㅔㅅ -14811
▁ㅅㅜㅈㅜ -14812
▁ㅇㅣㄹㅖ -14813
▁ㅌㅡㄹㄹ -14814
▁ㅎㅣㄹㄹ -14815
ㅔㅇㅣㄱㅗ -14816
▁ㅇㅢㅇㅛㅇ -14817
▁ㅎㅏㄴㅊㅏㅇ -14818
▁ㄷㅏㅅㅣㄱㅡㅁ -14819
▁ㅅㅏㅇㅣㅌㅏㅁㅏㅎㅕㄴ -14820
▁ㄷㅐㅇㅢ -14821
▁ㅍㅣㅅㅕ -14822
ㅡㄱㅗㅅㅡ -14823
▁ㄱㅜㄱㅎㅗ -14824
▁ㅂㅏㄹㅍㅗ -14825
▁ㅇㅣㅈㅣㄹ -14826
▁ㅈㅏㅂㅎㅣ -14827
▁ㅈㅗㄱㅗㅇ -14828
ㅁㅏㄹㅡㅋㅡ -14829
▁ㅈㅣㄱㄱㅘㄴ -14830
▁ㅇㅔㄱㅅㅡㅍㅗ -14831
▁ㅈㅡㅇㅈㅗㅂㅜ -14832
▁ㄹㅐㄹ -14833
▁ㅇㅣㄱㅕ -14834
ㅈㅣㄴㄱㅜ -14835
▁ㄱㅕㅇㅈㅣ -14836
▁ㄱㅜㅅㅡㄹ -14837
▁ㅅㅏㄴㅊㅐㄱ -14838
▁ㅈㅏㄱㄴㅕㄴ -14839
▁ㅈㅣㄴㅇㅝㄴ -14840
▁ㅎㅏㅂㄱㅡㅁ -14841
▁ㅂㅜㄹㅡㅈㅜㅇㅏ -14842
▁-& -14843
ings -14844
▁ㅌㅏㅋ -14845
▁ㅍㅗㄷㅐ -14846
▁ㅇㅓㅅㅓㄴ -14847
▁ㄱㅏㅇㅣㄷㅡ -14848
▁ㄱㅘㅇㅇㅓㅂ -14849
▁ㄷㅡㅇㄷㅡㅇ -14850
▁ㅈㅏㅇㅚㅅㅓㄴ -14851
▁ㄱㅣㅁㅅㅓㅇㅅㅜ -14852
▁ㅍㅣㅊㅡㅂㅓㄱㅡ -14853
▁ㅂㅐㄱㅇㅏㄱㄱㅘㄴ -14854
▁ㅇㅏㄷㅡ -14855
▁ㄱㅘㅇㅈㅏ -14856
▁ㅂㅏㄴㄱㅣ -14857
▁ㅅㅐㄱㅕㅆ -14858
▁ㅅㅓㅁㄱㅣ -14859
▁ㅅㅓㅇㄱㅣ -14860
▁ㅇㅏㅅㅣㄹ -14861
▁ㅇㅣㄷㅔㅇ -14862
▁ㅎㅘㄹㅈㅏ -14863
▁ㅈㅓㄱㅂㅏㄹ -14864
▁ㄹㅔㅇㅣㄴㅈㅓ -14865
▁ㅂㅓㅅㅇㅓㄴㅏㄴ -14866
DS -14867
ㄲㅡㄴ -14868
▁ㅅㅔㅁㅜ -14869
ㅅㅜㅅㅏㄴ -14870
▁ㅁㅏㅇㅜㄴ -14871
▁ㅇㅕㄹㄹㅕ -14872
ㄱㅏㄱㅎㅕㅇ -14873
ㄷㅗㅇㅁㅐㅇ -14874
▁ㅂㅣㄱㅂㅐㅇ -14875
▁ㅍㅣㄹㅇㅕㄴ -14876
▁ㅅㅗㄴㅈㅏㅂㅇㅣ -14877
▁ㅇㅛㅇㅅㅏㄴㄱㅜ -14878
▁1867 -14879
▁ㄹㅏㅂㅏ -14880
▁ㅇㅠㅇㅣ -14881
▁ㅅㅣㅇㅕㄱ -14882
▁ㅎㅏㅇㅣㅇ -14883
▁ㅁㅜㄴㅈㅜㅇ -14884
▁ㄷㅗㅁㅏㅇㅊㅣ -14885
▁ㅇㅣㄴㅗㅇㅜㅇㅔ -14886
▁ㅋㅓㅁㅍㅏㅇㅣㄹ -14887
ㅎㅞ -14888
▁El -14889
ㅅㅣㄴㅣ -14890
▁ㄱㅕㅇㅁㅐ -14891
▁ㄹㅣㅁㅍㅡ -14892
ㄷㅜㄹㅏㅅㅡ -14893
ㅂㅏㅇㄱㅜㄴ -14894
▁ㅌㅡㄴㅌㅡㄴ -14895
▁ㅂㅏㄹㄱㅏㄹㅏㄱ -14896
▁ㅇㅗㄴㄷㅜㄹㅏㅅㅡ -14897
▁ㅎㅕㅂㄷㅗㅇㅈㅗㅎㅏㅂ -14898
▁ㅇㅏㄹㅚ -14899
ㄷㅏㅂㅏㄹ -14900
ㅈㅓㅇㅅㅏ -14901
ㅋㅡㄹㅣㅁ -14902
▁ㄱㅣㅌㅗㅇ -14903
▁ㅈㅣㄴㅇㅣ -14904
▁ㅍㅣㄹㄷㅜ -14905
ㅌㅏㄴㅏㅂㅔ -14906
ㅈㅓㄹㄷㅗㅅㅏ -14907
▁ㅊㅓㅎㅐ -14908
▁ㅋㅔㄹㅡ -14909
ㅓㅅㅡㅌㅓ -14910
▁ㅅㅓㅎㅏㄴ -14911
ㅅㅓㅇㄱㅕㅇ -14912
ㅋㅡㄹㄹㅓㅂ -14913
ㅣㅁㅐㄱㅣㅁ -14914
▁ㅇㅘㅇㅣㄷㅡ -14915
▁ㄷㅜㄲㅓㅇㅜㄴ -14916
▁ㅎㅏㅂㅏㄴㄱㅣ -14917
▁ㅇㅣㄷㅔㅇㅗㄹㄹ -14918
▁ㅈㅏㄹㅣㅁㅐㄱㅣㅁ -14919
▁ㅂㅣㅂ -14920
▁ㅋㅣㅂ -14921
ㄷㅏㅇㅗ -14922
▁ㄱㅜㄹㅡ -14923
▁ㅊㅐㄱㅜㄹ -14924
▁ㄷㅏㅇㄷㅏㅇ -14925
▁ㅌㅡㄹㅗㅌㅡ -14926
▁ㅎㅡㅂㅇㅕㄴ -14927
▁ㅂㅗㅇㅏㄴㅂㅓㅂ -14928
▁ㄱㅗㅇㅌㅗㅇㅈㅓㅁ -14929
▁ㅈㅟㄹ -14930
▁ㄹㅔㅂㅓ -14931
▁ㅍㅜㄷㅡ -14932
▁ㅊㅟㅎㅑㅇ -14933
▁ㅂㅜㄱㅂㅓㄹ -14934
▁ㅅㅏㄹㅉㅏㄱ -14935
▁ㅂㅜㅇㅕㄱㅜㄴ -14936
▁ㅇㅐㄹㅂㅓㅌㅡ -14937
▁ㅅㅡㄹㄹㅗㄱㅓㄴ -14938
▁ㄱㅜㄱㅁㅣㄴㅎㅏㄱㄱㅛ -14939
ㅂㅜㄹㅣ -14940
▁1862 -14941
▁ㄱㅘㄱㅕㄱ -14942
▁ㄹㅣㅊㅣㅁ -14943
▁ㅇㅖㅈㅗㅇ -14944
ㅎㅏㄹㄹㅣㄴ -14945
▁ㄱㅏㄴㅍㅏㄴ -14946
▁ㄱㅡㄹㄹㅔㄴ -14947
▁ㅈㅣㄴㅇㅓㄴ -14948
▁ㅍㅣㄹㅎㅏㅁ -14949
▁ㄱㅕㅇㅎㅢㄷㅐ -14950
▁ㅂㅏㄴㅈㅓㅇㅂㅜ -14951
▁ㅁㅣㅎㅏㅂㅈㅜㅇㄱㅜㄱ -14952
ta -14953
▁802 -14954
▁ㄲㅗㅇ -14955
▁ㄱㅏㄷㅜ -14956
▁ㄷㅣㅇㅔ -14957
▁ㅈㅏㅇㅗ -14958
ㅁㅗㅅㅕㄴ -14959
▁ㄱㅘㄹㅎㅗ -14960
▁ㄱㅡㅁㄱㅗ -14961
▁ㅅㅣㄴㅇㅢ -14962
ㅌㅏㅁㅣㅇㅏ -14963
▁ㄱㅕㅇㅇㅡㄴ -14964
▁ㄲㅗㅊㅇㅣㅍ -14965
▁ㄴㅗㅇㅅㅓㅇ -14966
▁ㅊㅜㅇㄷㅏㅇ -14967
▁ㅍㅗㄹㄹㅣㄴ -14968
▁ㄱㅏㅁㅇㅕㅁㅈㅡㅇ -14969
ky -14970
▁ㄱㅙㄴ -14971
▁ㄷㅔㄱ -14972
▁ㅂㅐㅇㅏ -14973
▁ㄱㅓㄹㅇㅡㅁ -14974
▁ㅁㅔㅅㅗㅍㅗ -14975
▁ㅂㅗㄹㄹㅗㄱ -14976
▁ㅇㅘㅅㅅㅡㄴ -14977
▁ㅊㅗㄱㅂㅏㄹ -14978
▁ㅊㅣㄹㅛㅈㅔ -14979
▁ㅁㅜㅇㅓㄴㄱㅏ -14980
▁ㅁㅜㄹㅗㅁㅏㅊㅣ -14981
▁ㅇㅑㅋㅜㄹㅡㅌㅡ -14982
▁ㅁㅔㅅㅗㅍㅗㅌㅏㅁㅣㅇㅏ -14983
tr -14984
lar -14985
▁ㅇㅏㄲ -14986
▁6000 -14987
▁ㄱㅖㅇㅓㅁ -14988
▁ㅈㅗㅈㅜㄴ -14989
▁ㅈㅣㄱㄱㅛ -14990
▁ㅁㅏㄹㄹㅏㅇ -14991
▁ㅈㅡㅇㄱㅏㅇ -14992
▁ㅇㅏㄹㅍㅗㄴㅅㅗ -14993
▁ㅊㅐㄹㄹㅣㄴㅈㅓ -14994
▁ㅋㅡㄹㅣㅅㅡㅌㅣㄴ -14995
▁ㅅㅏㅁㄱㅜㄱㅇㅠㅅㅏ -14996
ㅅㅣㄱㅔ -14997
ㅗㄴㅏㄴ -14998
▁ㄴㅏㅁㅈㅗ -14999
ㅇㅏㅁㄷㅗㅇ -15000
▁ㄱㅓㄹㅈㅏㄱ -15001
▁ㅂㅏㄴㅎㅏㅇ -15002
▁ㅇㅣㅂㅅㅜㄹ -15003
▁ㅎㅗㄹㄷㅣㅇㅅㅡ -15004
▁ㅂㅐㄱㄱㅘㅅㅏㅈㅓㄴ -15005
ㅜㄱㅏ -15006
▁ㄷㅗㄴㅔ -15007
▁ㅁㅔㅊㅡ -15008
▁ㄷㅏㅇㄱㅘ -15009
▁ㅇㅟㅂㅓㅂ -15010
▁ㄱㅓㄴㄴㅓㄹ -15011
▁ㄱㅜㄹㅂㅗㄱ -15012
▁ㅈㅓㅇㅁㅕㅇ -15013
▁ㅊㅜㄹㅇㅣㅂㅁㅜㄴ -15014
▁Ac -15015
▁LS -15016
▁UC -15017
▁1878 -15018
▁ㄹㅗㄴㅣ -15019
▁ㅈㅗㄱㅐ -15020
▁ㄷㅏㄴㅈㅏ -15021
▁ㄸㅏㄹㅏㄱㅏ -15022
▁ㅂㅏㄱㅈㅣㄴ -15023
▁ㅇㅏㅍㅅㅔㅇ -15024
▁ㅇㅛㅇㄱㅏㅁ -15025
▁ㅈㅣㅈㅏㅊㅔ -15026
▁ㅂㅡㄹㄹㅏㄷㅣ -15027
▁ㅅㅏㅁㅜㄱㅜㄱ -15028
▁ㅍㅕㄴㅈㅣㅂㅈㅏㅇ -15029
rist -15030
▁Ser -15031
ㅁㅕㄴㅊㅔ -15032
▁ㅅㅡㅌㅏㄴ -15033
▁ㄴㅠㄱㅣㄴㅣ -15034
▁ㅇㅏㄴㅌㅏㄲ -15035
▁ㅁㅣㅋㅏㅇㅔㄹ -15036
▁ㅍㅗㅁㅠㄹㄹㅓ -15037
▁ㅅㅜㅁㄱㅕㅈㅣㄴ -15038
▁ㅇㅣㄷㅔㅇㅗㄹㄹㅗㄱㅣ -15039
▁ㄹㅣㅌㅡ -15040
▁ㅍㅐㅎㅐ -15041
ㅋㅏㄹㅡㅌㅏ -15042
▁ㄱㅓㄲㅜㄹㅗ -15043
▁ㅅㅐㅇㄱㅣㄹ -15044
▁ㄱㅏㄹㄹㅏㅈㅣ -15045
▁ㅇㅕㄴㅊㅜㄹㄱㅏ -15046
▁ㅇㅣㅅㅓㅇㅈㅣㄹ -15047
▁ㅇㅣㄹㅂㅗㄴㅅㅣㄱ -15048
▁HMS -15049
▁ㄱㅘㅈㅏ -15050
▁ㅈㅗㅅㅓ -15051
▁ㅁㅗㅂㅏㄴ -15052
▁ㅅㅗㅈㅏㄱ -15053
▁ㅇㅣㅅㅓㄴ -15054
▁ㅊㅏㄱㅊㅟ -15055
▁ㅊㅏㅁㅅㅜ -15056
ㅡㄹㄹㅏㅅㅡ -15057
▁ㅂㅜㄴㄱㅕㅇ -15058
▁ㅋㅡㄹㄹㅏㅇ -15059
▁ㅍㅕㅇㅎㅐㅆ -15060
▁ㄷㅏㅇㅣㄴㅗㅅㅡ -15061
▁Qu -15062
ㄱㅟㄴ -15063
▁ㅌㅓㅇ -15064
▁ㄱㅐㄱㅣ -15065
▁ㄴㅏㅃㅏ -15066
▁ㄹㅔㅂㅣ -15067
▁ㅆㅡㄹㅓ -15068
▁ㅇㅣㄴㅇㅟ -15069
▁ㄷㅗㅇㅌㅏㄱ -15070
▁ㅈㅔㅈㅗㅅㅏ -15071
▁ㅈㅡㅇㅂㅏㄹ -15072
▁ㅊㅜㅇㅅㅣㄴ -15073
▁ㄲㅡㅌㄴㅏㄴㄷㅏ -15074
▁ㄷㅜㄷㅡㄹㅓㅈㅣ -15075
▁MSL -15076
▁ㄱㅛㅅㅓ -15077
▁ㅌㅐㅇㅏ -15078
▁ㄱㅡㄹㅣㄹ -15079
▁ㅈㅗㅈㅏㅇ -15080
▁ㅌㅜㅅㅣㄴ -15081
▁ㅎㅏㅈㅜㅇ -15082
▁ㅇㅗㄱㅊㅓㄴ -15083
▁ㅋㅡㄹㅜㅈㅡ -15084
▁ㄱㅣㅇㅝㄴㅎㅜ -15085
ㄷㅔㄹㄹ -15086
▁ㅍㅏㄱㅣ -15087
▁ㅇㅕㄴㅎㅐㅇ -15088
▁ㅇㅞㅇㅣㅂㅡ -15089
▁ㅇㅣㄹㅅㅓㄹ -15090
▁ㅈㅏㅇㅅㅣㄴ -15091
▁ㅈㅓㄴㅁㅕㄹ -15092
▁ㅈㅡㅇㅅㅣㄱ -15093
▁ㅋㅗㅅㅡㅌㅡ -15094
ae -15095
hem -15096
ㅇㅣㅆ -15097
ㅂㅏㅈㅣ -15098
▁ㅅㅡㅌㅗㅁ -15099
ㅂㅔㄴㅅㅕㄴ -15100
▁ㅇㅣㄹㄹㅓㅅㅡㅌㅡ -15101
▁ㅇㅣㄹㄹㅣㄴㅗㅇㅣㅈㅜ -15102
▁ㅎㅣㄴㅗ -15103
ㅓㅅㅡㅌㅏ -15104
▁ㄷㅏㄹㅑㅇ -15105
▁ㄷㅏㅁㅗㄱ -15106
▁ㄱㅜㄱㅇㅣㄴ -15107
▁ㅇㅘㅅㅔㄷㅏ -15108
▁ㅇㅠㄴㅊㅣㅇ -15109
▁ㅍㅡㄹㄹㅏㅅㅡ -15110
ㅘㄱ -15111
ㅐㅌㅣ -15112
▁ㄹㅡㅂ -15113
▁ㅁㅜㅈㅏ -15114
▁ㅂㅜㅈㅗ -15115
▁ㅅㅏㄱㅛ -15116
ㅌㅜㅇㅇㅣ -15117
▁ㄱㅡㅂㅅㅓㅇ -15118
▁ㅅㅓㄴㅇㅠㄹ -15119
▁ㅇㅏㅍㄷㅜㄴ -15120
▁ㅎㅓㄴㅂㅕㅇ -15121
▁ㄱㅏㄹㄹㅏㅈㅕ -15122
▁ㄷㅐㄹㅣㅅㅓㄱ -15123
▁ㄱㅜㄱㅁㅣㄴㅎㅚ -15124
▁ㅇㅏㄴㄷㅗㅇㅅㅣ -15125
▁ㅇㅣㄴㅋㅗㄷㅣㅇ -15126
▁Ag -15127
▁tr -15128
▁ㄸㅏㅁ -15129
▁ㄴㅐㅈㅐ -15130
▁ㅁㅐㅅㅠ -15131
▁ㅂㅣㅇㅑ -15132
▁ㅈㅗㅅㅓㄱ -15133
▁ㅊㅏㄹㅣㅁ -15134
▁ㅍㅗㅊㅓㄴ -15135
▁ㅅㅡㅌㅐㄴㄷㅡ -15136
▁ㅂㅜㄷㅡㅇㅅㅣㄱ -15137
▁ㅅㅡㅌㅔㅇㅣㅌㅡ -15138
▁ㅅㅣㄴㅎㅏㄴㅇㅡㄴㅎㅐㅇ -15139
▁And -15140
▁ㅍㅐㅅ -15141
ㅣㄹㅡㅁ -15142
ㅗㄴㅣㅋㅏ -15143
▁ㅂㅓㄴㄱㅐ -15144
▁ㅇㅕㄹㅅㅚ -15145
▁ㅂㅗㄹㄴㅔㅅ -15146
▁ㅈㅣㅎㅏㅇㅕㄱ -15147
▁ㅇㅓㄴㄹㅗㄴㅅㅏ -15148
▁ㅅㅣㄴㅅㅣㄴㅐㅌㅣ -15149
▁ㅅㅖㄴ -15150
ㅌㅣㅇㅑ -15151
ㅍㅏㄹㄹ -15152
▁ㅂㅐㅇㅝ -15153
▁ㅊㅔㅎㅏ -15154
▁ㄱㅣㅇㅜㄴ -15155
▁ㄷㅏㄴㅈㅗ -15156
▁ㅇㅑㅅㅣㅁ -15157
▁ㅍㅐㅋㅣㅅ -15158
▁ㅇㅘㄴㅁㅏㄴ -15159
▁ㅊㅜㅇㅊㅣㅇ -15160
ㅍㅡㄹㄹㅗㄹㅓ -15161
ㅓㅅㅣㅇㅏㄷㅡ -15162
▁ㅂㅗㅇㅇㅜㄹㅣ -15163
ㅣㄹㄹㅔㅇㅣㅅㅕㄴ -15164
▁ㅍㅡㄹㅗㅁㅗㅅㅕㄴ -15165
▁ㅎㅐㄱㅂㅜㄴㅇㅕㄹ -15166
▁ㅍㅡㄹㅏㄴㅊㅣㅅㅡㅋㅗ -15167
▁ㅇㅣㄱㅅㅡㅍㅡㄹㄹㅗㄹㅓ -15168
▁AA -15169
ㅅㅏㅎㅘ -15170
ㅇㅏㅇㅣ -15171
▁ㅍㅣㅋㅏ -15172
ㅈㅔㄹㄹㅗ -15173
▁ㅅㅜㄷㅏㅇ -15174
▁ㅇㅘㄴㅅㅜ -15175
▁ㅎㅕㅇㅈㅜ -15176
▁ㅇㅑㅇㄱㅜㄴ -15177
▁ㅈㅓㄹㅇㅑㄱ -15178
▁ㅍㅣㄹㅁㅕㅇ -15179
▁ㅇㅠㄴㅣㅂㅓㅅㅣㅇㅏㄷㅡ -15180
▁1869 -15181
▁ㄱㅣㅁㅛ -15182
▁ㄷㅐㄴㅣ -15183
ㅣㄹㅓㅅㅡ -15184
▁ㅊㅓㅎㅏㄴ -15185
▁ㅌㅗㄹㅗㄱ -15186
▁ㅎㅘㅇㅍㅖ -15187
▁ㄷㅡㄹㅇㅕㅇ -15188
▁ㅈㅗㅇㅇㅓㅂㅇㅝㄴ -15189
ee -15190
ㅝㅅㅡ -15191
▁ㅁㅓㄴㅣ -15192
▁ㅂㅓㅋㅡ -15193
▁ㅈㅐㄱㅗ -15194
▁ㅍㅏㅅㅡ -15195
▁ㅁㅏㅍㅗㄱㅜ -15196
▁ㅈㅏㄴㅈㅗㄴ -15197
▁ㅊㅟㄹㅣㅎㅣ -15198
▁ㄴㅗㄹㅡㅁㅏㄴ -15199
▁ㅅㅡㅋㅔㅇㅣㅌㅡ -15200
▁ㅈㅡㅂ -15201
▁ㅇㅣㅁㅏㄴ -15202
▁ㅇㅣㅈㅡㅁ -15203
▁ㅈㅣㅌㅐㅇ -15204
▁ㅋㅗㅍㅓㄹ -15205
▁ㄱㅏㄴㄱㅕㄹ -15206
▁ㄱㅏㄹㅣㅋㅕ -15207
▁ㅇㅠㄱㅅㅣㄱ -15208
▁ㅇㅣㅂㅡㅅㅡ -15209
▁ㅈㅏㄱㅈㅜㅇ -15210
▁ㅈㅜㄹㅇㅣㄹ -15211
▁ㅍㅡㄹㄹㅣㄴ -15212
▁ㅇㅓㅂㄹㅗㄷㅡ -15213
▁ㅁㅏㅅㅡㅋㅗㅌㅡ -15214
▁ㅅㅣㄴㄱㅣㄹㅗㄱ -15215
▁ㅊㅣㄴㅅㅓㄴㄱㅕㅇㄱㅣ -15216
▁ㄲㅞ -15217
▁ㄱㅝㄹ -15218
ㅅㅣㄴㅏ -15219
▁ㄱㅏㅌㅏ -15220
▁ㅎㅔㄹㄹ -15221
▁ㄱㅘㅇㅂㅐ -15222
▁ㅇㅗㄱㅅㅣ -15223
▁ㅋㅓㅈㅕㅆ -15224
▁ㅎㅏㅇㅅㅐㅇ -15225
▁ㅍㅡㄹㅏㅇㅣㅈㅡ -15226
▁ㅎㅐㅇㅎㅐㅈㅕㅆ -15227
▁ㄹㅏㅇㅣㅍㅡㅊㅣㅎㅣ -15228
▁ㅁㅕㅇㅅㅓㅇㅎㅘㅇㅎㅜ -15229
ㄷㅜㄹㅡ -15230
ㅁㅜㅅㅡ -15231
▁ㄹㅏㄴㅣ -15232
▁ㅁㅜㄱㅗ -15233
▁ㅅㅑㄹㅡ -15234
▁ㅇㅣㅅㅗ -15235
▁ㅂㅜㄱㅜㄴ -15236
▁ㅅㅏㅋㅜㄹ -15237
▁ㅅㅏㅇㅅㅓㄹ -15238
▁ㅈㅜㅇㅇㅛㅇ -15239
▁ㅋㅐㅅㅡㅌㅡ -15240
▁ㅇㅣㅂㅂㅓㅂㅂㅜ -15241
▁ㄱㅗㅇㅅㅣㄱㅈㅓㄴ -15242
ㅋㅝ -15243
▁ㅈㅐㅁ -15244
▁1592 -15245
▁ㄷㅗㅋㅣ -15246
▁ㅋㅜㄹㅏ -15247
ㄷㅐㅈㅓㄴ -15248
ㅇㅘㅇㅎㅜ -15249
▁ㅂㅡㄹㅔㄴ -15250
▁ㅇㅣㅇㅋㅡ -15251
▁ㅍㅗㅇㅣㄴ -15252
▁return -15253
▁ㄱㅡㄱㅊㅏㄴ -15254
▁ㅊㅓㅇㄱㅏㄱ -15255
▁ㅍㅗㄹㅡㄴㅗ -15256
▁ㅍㅡㄹㅣㅊㅡ -15257
▁ㅅㅡㅇㅇㅛㅇㅊㅏ -15258
▁ㅇㅜㅁㅈㅣㄱㅇㅣㄹ -15259
▁ㅎㅣㄹㅂㅔㄹㅡㅌㅡ -15260
▁ㅇㅕㅇㅜㅇㅝㄴㅅㅜㅇㅇㅣ -15261
▁me -15262
ㄹㅏㅅㅡ -15263
▁ㅅㅛㅋㅡ -15264
▁ㅇㅓㄷㅜ -15265
▁ㅈㅗㅅㅣ -15266
▁ㅅㅡㅍㅣㄹ -15267
▁ㅅㅣㅁㅅㅗ -15268
▁ㅇㅛㅇㅎㅐ -15269
▁ㅊㅓㅈㅏㅇ -15270
▁ㅌㅗㅇㅈㅣ -15271
▁ㅍㅗㅌㅏㅂ -15272
▁ㄱㅣㄷㅗㅇㅈㅓㄴ -15273
▁ㅋㅗㅍㅓㄹㅔㅇㅣㅅㅕㄴ -15274
ㅗㅊㅡㅇ -15275
▁ㄴㅏㅁㅏ -15276
▁ㅎㅔㄹㅗ -15277
▁ㅂㅗㅈㅣㄱ -15278
▁ㅇㅏㄴㅣㄴㄱㅏ -15279
▁ㄹㅔㅈㅣㅅㅡㅌㅓ -15280
pr -15281
ata -15282
▁ㄹㅜㅂ -15283
▁ㄱㅣㄱㅗ -15284
▁ㅇㅣㅌㅓ -15285
▁ㅌㅏㄷㅗ -15286
ㅊㅓㄹㅅㅜ -15287
▁ㄱㅏㄱㅡㄱ -15288
▁ㅇㅟㅎㅓㄴ -15289
▁ㅎㅏㅇㅣㅍㅓ -15290
▁ㅋㅓㅁㅍㅣㄹㄹㅔㅇㅣㅅㅕㄴ -15291
ㅟㅅ -15292
ㅓㄱㅓ -15293
ㄷㅔㄹㅏ -15294
ㅍㅗㄴㅣ -15295
▁ㅇㅏㅇㅓ -15296
▁ㅈㅏㅂㅜ -15297
▁ㅈㅏㅋㅗ -15298
▁ㅊㅜㅎㅜ -15299
▁ㅎㅜㄷㅡ -15300
▁ㄷㅏㅇㅍㅏ -15301
▁ㅁㅗㅁㅊㅔ -15302
▁ㅇㅣㅁㅗㄱ -15303
▁ㅈㅏㄴㄷㅣ -15304
ㅗㄱㅡㄹㅏㄷㅡ -15305
▁ㅇㅐㄱㅅㅔㅅㅡ -15306
▁ㄱㅗㄷㅡㅇㅎㅏㄱㅅㅐㅇ -15307
ㅓㅇㅑ -15308
▁ㅂㅗㄲ -15309
▁ㅇㅟㅈㅡ -15310
▁ㅇㅣㅇㅑ -15311
▁ㄱㅗㅊㅏㄹ -15312
▁ㄱㅣㅁㅊㅣ -15313
▁ㅂㅗㄹㅍㅡ -15314
▁ㅇㅠㅁㅏㅇ -15315
▁ㅊㅟㅎㅏㄹ -15316
▁ㅇㅕㄴㄷㅏㄹ -15317
▁ㅈㅓㄱㅈㅓㅇ -15318
▁ㅈㅏㅇㄹㅗㅎㅚ -15319
▁ㅎㅐㅂㅜㅎㅏㄱ -15320
▁ㅇㅘㅌㅏㄴㅏㅂㅔ -15321
▁ㅇㅝㄴㅈㅏㅎㅐㄱ -15322
▁RC -15323
ㄴㅣㅇ -15324
▁ㅁㅣㄴㅗ -15325
ㅌㅏㄹㅣㅇㅏ -15326
▁ㅅㅏㅇㅅㅓㄴ -15327
▁KN -15328
▁ab -15329
ount -15330
▁ㄱㅜㄱㅎㅘ -15331
▁ㅁㅕㄴㅈㅣㄱ -15332
▁ㅁㅣㄴㅏㅁㅗ -15333
▁ㅋㅣㄹㅡㄱㅣㅅㅡ -15334
ㄹㅜㅇ -15335
▁Mon -15336
▁ㅆㅓㄱ -15337
▁ㄷㅐㄷㅏㅁ -15338
▁ㅂㅜㄱㅘㄴ -15339
▁ㅅㅓㅈㅓㅁ -15340
▁ㅈㅏㄴㅎㅐ -15341
▁ㄱㅡㄴㅂㅏㅇ -15342
▁ㅊㅜㄱㅇㅣㄹ -15343
▁ㅇㅏㅇㅣㄹㄹㅐㄴ -15344
▁ㄹㅗㄷㅡㄹㅣㄱㅔㅅㅡ -15345
▁ㅁㅣㄴㅏㅁㅗㅌㅗㄴㅗ -15346
OU -15347
per -15348
▁ㅉㅏㄴ -15349
ㅅㅗㄴㅕ -15350
ㅍㅏㅅㅡ -15351
ㅓㅂㅓㄴ -15352
ㅣㅇㅣㄴ -15353
▁ㄹㅜㄷㅗ -15354
▁ㅇㅕㅍㅗ -15355
▁ㅈㅣㅇㅏ -15356
▁ㄴㅣㄱㅅㅡ -15357
▁ㅋㅣㄹㅣㄹ -15358
ㅔㅌㅣㅋㅓㅅ -15359
▁ㄴㅗㄴㅅㅏㄴ -15360
▁ㅍㅏㄹㄹㅣㄴ -15361
▁ㄱㅗㄹㅉㅏㄱㅣ -15362
▁ㅇㅜㄴㄷㅗㅇㄹㅑㅇ -15363
▁ㅇㅠㄹㄹㅣㅇㅜㅅㅡ -15364
▁ㅈㅗㅇㅊㅏㄱㅇㅕㄱ -15365
▁ㅋㅗㄴㅔㅌㅣㅋㅓㅅ -15366
90 -15367
ㄱㅜㅊㅣ -15368
ㅅㅓㄴㄱㅓ -15369
[...]
