[PAD]
[UNK]
[BOS]
[EOS]
[CLS]
[SEP]
[MASK]
▁▃
▁ㅇ
▁ㅇㅡ
▁⊸
▁⊸⊸
▁하
▁ㄱ
▁.
▁ㄷ
ㅡㄴ
ㄴㅡㄴ
▁이
▁ㅇㅔ
▁ㄴㅡㄴ
▁ㄹ
▁ㄷㅏ
▁ㅇㅡㄹ
▁ㅇㅢ
▁ㅇㅓ
▁ㅇㅏ
▁ㅇㅣ
▁,
ㅅㅓ
ㅡㄹ
▁ㄹㅡㄹ
▁ㄱㅏ
▁ㅇㅡㄴ
▁ㄱㅗ
▁1
ㄷㅏ
ㅁㅕ
▁있
▁되
ㅈㅣ
▁2
ㄹㅗ
▁ㅇㅓㅆ
ㄴㄷㅏ
▁ㄷㅗ
▁ㄹㅗ
▁그
▁사
▁ㅇㅏㅆ
▁시
▁들
▁아
▁ㅈㅣ
▁ㅁㅕ
▁대
▁수
▁보
▁가
▁지
▁것
▁일
▁ㄹㅏ
▁ㄱㅣ
▁전
ㅁㅏ
▁기
▁주
▁나
▁ㄱㅔ
▁-
ㅁㅏㄴ
▁자
▁다
▁적
▁ㅁㅕㄴ
▁스
▁3
▁마
▁ㄱㅘ
▁정
▁상
▁ㅇㅘ
▁모
ㄱㅗ
▁20
▁오
▁때
▁년
▁공
▁'
▁:
ㄴㅏ
▁경
▁인
▁중
▁유
▁제
▁부
▁위
▁한
▁없
▁비
▁4
▁무
▁소
▁성
▁등
▁어
▁않
ㄱㅔ
▁5
▁ㄷㅓ
▁개
▁만
▁미
▁0
ㄷㅔ
▁여
▁세
▁바
▁월
▁"
▁ㄷㅓㄴ
▁내
▁조
▁고
▁201
▁장
▁/
▁방
▁거
▁동
▁카
▁타
▁도
▁선
▁연
▁말
ㄲㅏ
▁영
▁안
▁신
▁화
▁후
▁생
▁구
ㄴㅣ
▁버
▁당
▁ㅁㅏㄴ
▁차
▁발
▁ㅂ
▁리
▁ㄴㅡㄴㄷㅔ
▁레
ㅁㅕㄴ
▁6
▁때문
▁크
▁원
▁ㅇㅕ
▁강
▁파
▁ㅈ
▁10
▁우
▁명
▁ㄲㅏ
▁아니
▁최
▁서
▁실
▁노
▁의
▁문
▁데
▁7
▁번
▁해
▁더
▁포
▁불
▁같
▁회
▁나오
▁진
▁단
▁관
▁S
▁특
▁8
▁받
▁ㅈㅏ
▁많
▁초
▁결
▁반
▁라
▁!
▁작
▁프
▁알
▁보이
▁역
▁쓰
▁19
▁게
▁배
▁드
▁ㅁㅕㄴㅅㅓ
▁피
▁9
▁계
▁코
▁경우
▁공격
▁분
▁추
▁남
ㄱㅏ
ㄷㅗ
▁A
▁사용
▁물
▁출
▁ㄴㅏ
▁국
▁치
▁두
▁에
▁못
▁현
레이
▁매
▁M
▁자신
▁좋
▁패
▁편
▁점
▁달
▁이후
▁%
▁저
▁감
▁호
▁그리
▁트
ㅌㅓ
▁학
▁로
▁따
▁교
▁재
▁정도
▁메
▁사람
▁C
▁통
▁요
▁입
▁예
▁속
▁또
스트
ㅇㅑ
▁B
▁플
▁캐
▁가능
▁T
▁김
▁설
▁참
▁위하
▁형
▁본
▁함
▁등장
▁평
▁D
▁ㅂㅜ
▁~
▁ᄆ
▁대하
▁+
▁과
▁돌
▁시키
▁..
▁12
▁종
▁다른
▁죽
▁아이
▁승
▁?
▁토
▁체
▁게임
▁권
▁버리
▁외
▁팀
▁ㄴㅡㄴㄷㅏ
▁군
er
▁살
▁ㅂㅗ
▁200
▁11
▁직
▁애
▁L
▁용
▁판
00
▁처
▁키
▁가지
▁그리고
▁ㅅ
▁잘
▁확
▁맞
▁ㅅㅓ
▁심
▁올
▁하나
▁행
▁그러
어지
in
▁경기
▁변
▁사실
▁박
▁F
▁만들
▁못하
▁필
▁시간
▁운
▁P
ㅂㄴㅣ
▁ㄴㅣ
▁뒤
▁베
▁ㅇㅕㅆ
▁투
▁날
▁디
▁ㄱㅓ
▁모습
▁네
▁목
ㄹㅏ
▁간
▁집
▁높
▁히
▁G
▁활
▁약
▁이상
▁루
▁사이
▁이름
▁E
▁각
▁표
▁양
▁순
▁건
▁언
▁상대
▁야
▁테
스터
an
▁능
지만
▁너
▁시작
▁효
▁ㄹㅕ
on
▁15
▁존
▁문제
▁일본
▁함께
▁터
▁잡
▁왕
▁하지만
▁증
▁힘
▁손
▁별
▁병
▁한국
▁생각
▁#
▁ㄱㅔㅆ
▁H
▁캐릭
▁열
ㄹㅓ
▁브
▁R
▁K
▁천
▁막
어나
▁폭
▁캐릭터
▁ㄴ
▁완
▁따르
▁끝
▁듯
▁프로
▁능력
▁t
ㄴㄷㅔ
대로
▁블
▁들어
▁총
▁클
▁플레이
▁I
▁독
▁ㅊ
▁다시
▁시즌
ㄴㅈㅣ
▁N
▁먹
▁스킬
▁페
이트
▁항
▁ㅊㅓ
ㄹㅓㅁ
▁광
▁근
▁추가
▁음
▁새
▁복
▁m
▁식
▁당하
▁채
▁빠
▁ㅇㅑ
▁검
▁가장
▁카드
▁상황
▁태
▁그렇
▁또한
▁삼
or
미지
▁누
▁상태
▁얼
▁당시
▁걸
ar
▁모두
▁길
▁결국
▁효과
▁백
▁충
▁곡
▁업
▁18
▁모든
▁16
▁앞
▁다만
▁쿠
▁악
▁친
▁금
▁넘
▁많이
▁눈
▁30
▁O
▁전투
▁시리
at
▁및
▁티
▁임
▁급
▁싸
▁13
▁산
▁커
▁레벨
▁민
he
▁]
▁s
▁선수
▁세계
▁W
▁합
▁존재
▁엔
라이
▁14
▁[
▁현재
▁여기
ㅇㅛ
▁라이
▁시리즈
▁매우
▁머
▁취
▁무기
▁그런
▁슈
▁상당
▁달리
▁느
▁스타
▁물론
▁레이
▁그러나
▁첫
▁마법
▁통하
▁골
▁절
▁극
en
▁17
▁ㅅㅣ
▁c
▁엄
▁얻
▁팬
▁황
▁난
▁찾
▁밀
▁창
▁허
▁100
▁자체
▁00
▁기술
거리
ㅁㅡ
▁벌
▁ㅁㅏ
▁이런
▁청
▁니
▁실제
▁주인
▁놓
▁이유
▁25
▁모르
▁줄
▁관련
▁떨
ou
▁V
al
이지
▁탈
▁인하
▁이것
▁U
▁이용
▁필요
▁방송
▁들어가
▁해당
▁기본
▁케
▁다음
▁철
▁지역
▁법
▁기록
▁워
▁역시
▁처음
▁바로
▁부르
▁방어
▁일반
▁곳
▁은
▁환
▁거의
▁째
▁돌아
▁잠
▁귀
▁2017
▁199
▁혼
▁피해
리스
▁다르
학교
▁나가
▁북
ㄴㄱㅏ
▁범
이스
▁그래
▁아무
▁좀
▁2018
▁ㅇㅡㅁ
▁붙
▁사건
▁여러
▁같이
▁이야
▁미국
▁ㄴㅑ
▁격
▁특히
▁탄
▁ㄴㅡㄴㅈㅣ
▁이야기
▁k
▁글
▁싶
▁몬
es
▁없이
▁진행
▁부분
▁영화
리아
▁학교
지막
▁본인
▁증가
▁인간
▁2019
▁참고
it
▁풀
▁둘
▁쉽
▁즉
▁담
ㄹㅗㄱ
▁팔
▁리그
▁엘
▁주인공
부분
▁제작
▁뿐
▁면
▁속도
▁마지막
▁작품
▁21
▁자기
▁헤
▁X
▁50
▁몸
▁준
▁그냥
▁의하
▁몰
▁덕
▁ㅅㅡ
▁내용
▁밝
▁2016
▁와
▁떨어지
▁넣
▁슬
▁공격력
▁개요
▁ㅅㅡㅂㄴㅣ
▁지나
▁대표
▁대부분
▁인물
▁수준
▁접
is
▁계속
▁생기
▁우리
▁올리
▁&
▁암
re
▁갈
▁몇
▁쪽
전히
▁비슷
▁위치
▁동안
▁어느
▁질
▁비하
▁22
▁w
le
▁딜
▁대신
▁국가
토리
▁홈
▁강하
▁축
▁상당히
▁지금
▁평가
▁기사
▁활동
▁타이
▁일부
▁관계
▁이전
▁J
▁영상
▁보스
▁낮
▁울
▁만나
▁서울
▁d
▁멀
▁알리
▁24
▁올라
▁체력
▁규
▁유닛
▁그대로
▁문서
▁감독
▁최대
▁너무
▁맡
▁괴
▁기준
▁뛰
▁성공
▁빠르
▁시절
ing
ic
▁홍
ㅇㅔ
▁죽이
▁f
▁러
▁떠
▁데미지
▁제외
▁밝히
▁중국
▁실제로
▁ㅁㅡ
▁망
▁몬스터
as
▁츠
▁희
▁메이
▁바람
▁유저
▁b
▁정보
▁멤
▁결과
▁설정
라지
시아
▁논
▁지원
▁전쟁
▁23
▁그녀
▁승리
▁어렵
▁소속
▁ㄹㅏㄴ
▁멤버
▁2015
▁이미
▁애니
▁언급
▁자리
▁40
▁님
▁원래
▁맨
▁온
▁퍼
▁칼
▁성우
▁직접
▁설명
▁도시
▁컨
▁던
▁육
버지
▁싸우
▁전체
▁이동
▁선택
▁a
▁의미
▁그것
▁여자
▁배우
▁씩
운드
▁마음
▁ㄹㅓ
▁깨
가지
▁과거
▁<
▁뭐
▁듣
랜드
▁머리
▁늘
▁협
▁봉
▁보내
▁묘
▁엄청
▁플레이어
▁차이
▁친구
▁아이템
▁방법
이션
▁출연
▁힘들
▁돈
▁뉴
▁측
▁이루
▁장면
▁나타
▁버전
▁갑
▁스토리
▁거리
▁소리
om
▁씨
▁ㄷㅡ
▁탑
am
▁센
▁꽤
▁p
▁즈
▁ㄷㅡㄴ
▁답
▁향
▁빌
▁h
▁대사
▁바뀌
▁놀
▁공식
▁모드
▁류
▁사랑
▁파이
벤트
▁스럽
▁혹
▁프리
▁압
▁조금
▁송
▁개발
▁198
el
▁대상
▁이렇
▁갖
▁까
▁대학
▁초반
▁버스
▁책
▁전부
▁o
▁연구
▁이벤트
▁속성
▁침
▁최고
▁남자
▁26
▁링
▁2014
▁제대로
▁볼
▁기타
▁궁
▁강화
▁유명
▁동시
▁걸리
▁만큼
▁여성
이도
▁파괴
▁n
▁스테
▁층
▁28
▁나이
▁빠지
▁역사
▁색
▁정말
▁아버지
▁쇼
▁드래
▁소환
▁27
▁성능
▁자주
▁the
▁불리
▁최종
▁찍
▁학생
▁31
▁운영
▁우승
▁회복
▁빼
▁아직
▁석
▁왜
▁앨
▁후반
이드
ㅁㅕㄴㅅㅓ
▁출신
▁농
▁누구
▁마이
▁당연
▁특성
▁=
▁다니
▁그런데
▁인터
▁공개
▁강력
▁확률
ㅇㅓ
▁콘
▁주로
▁사망
▁노래
▁노선
다가
리어
▁유지
▁ㅎ
▁끼
▁마리
▁착
▁ㄷㅐ
▁발매
▁서로
▁엄청나
▁이때
ㅂㅜ
ol
▁끌
▁밖
▁000
▁샤
▁슈퍼
▁방식
⊸⊸
⊸⊸⊸
▁ㄷㅡㅅ
▁발생
▁특수
▁잔
▁마찬
▁마찬가지
▁시스
▁라인
▁느끼
▁대전
ion
▁월드
▁영향
▁이기
▁정신
et
▁결정
▁나라
▁이러
▁변경
▁솔
▁장비
▁영웅
ac
▁오르
ㅇㅓㅆ
▁오히
▁기존
▁포함
▁비교
▁오히려
아가
▁역할
▁보통
▁빨
▁이제
▁인기
▁나타나
▁32
▁일어나
▁어떻
▁ㅎㅏ
▁뜻
▁르
▁작중
▁게다가
머니
▁쓰이
▁맵
▁수록
▁움
▁사라지
▁차량
▁먼
▁억
▁푸
▁형태
▁마을
▁Y
▁섬
▁싱
▁아예
▁중요
▁짓
▁바꾸
▁세트
▁성격
▁어떤
▁술
▁좌
▁난이도
il
us
▁행동
▁일단
▁대한
▁이번
▁29
▁가깝
프트
▁v
ig
▁액
▁모양
ow
우스
▁음악
▁흑
▁과정
▁시대
레이드
▁대회
▁드라
▁주장
▁최초
▁심지
ed
▁뽑
민국
▁부족
▁2013
▁구성
▁빛
▁사회
▁발동
▁스트
너지
▁맞추
▁심지어
▁끝나
▁새롭
▁윤
▁풍
▁구하
▁숨
▁이렇게
▁휴
▁입장
▁폐
▁l
▁ㄱㅜ
▁뜨
▁유일
▁확인
▁거기
▁바이
▁사진
▁다이
▁획
▁애니메
▁x
▁60
▁항목
▁여담
▁정치
▁아래
▁먼저
▁흔
▁응
▁모델
▁활약
▁조건
▁자세
▁원작
▁35
▁어리
▁콜
▁Lv
▁훈
▁덕분
▁대한민국
▁어디
▁득
▁시스템
▁감소
▁하이
▁녹
▁돌아오
▁내리
▁굉
▁들어오
id
▁주변
▁완전히
인트
▁명칭
▁따라
▁프랑
▁드러
▁챔
ay
▁ㅂㅏ
▁애니메이션
▁그래서
▁자유
ad
▁특징
▁2012
▁독일
▁관리
▁얼굴
▁날리
▁ㄹㅜ
버스
▁자동
▁순간
▁전혀
▁01
▁우주
▁차지
▁경찰
▁적용
▁영어
▁잃
▁교육
▁부대
▁할
▁가격
▁짜
나마
▁듀
▁굉장
▁뮤
▁of
▁고등
▁r
▁정부
▁마스터
▁패배
▁드래곤
▁웨
▁아군
▁지키
▁기간
▁무엇
▁오브
소드
▁돌아가
▁앨범
▁실패
▁휘
없이
ot
▁생산
▁개인
ve
and
▁건물
▁덱
▁상승
▁얼마
▁그렇게
▁시점
▁지속
▁하루
▁기능
▁혹은
▁국내
▁모으
▁획득
▁이거
▁작가
▁그나마
▁TV
▁견
▁ㅂㅏㄲ
▁ㅂㅏㄲㅇㅔ
디오
▁지구
▁넘어
▁패치
▁아들
주의
▁반대
▁턴
▁에피
▁처리
레스
▁소개
▁물리
▁떠나
▁발견
▁기억
▁y
▁퀘
▁틀
▁실력
▁반응
▁만화
▁참조
▁랭
▁제국
▁정확
20
▁동일
▁도움
▁대학교
▁영국
▁익
▁선발
▁홀
▁킹
▁현대
ch
▁담당
▁출시
▁쏘
▁그림
▁습
▁맛
▁칸
▁에피소드
▁올라가
▁맥
▁기관
▁쿨
▁땅
▁량
▁세대
▁초기
▁드라마
▁단계
아내
▁계획
▁딸
▁아마
ㅌㅔ
▁밤
un
▁판매
▁ㅎㅏㄴ
ㅇㅣ
▁ㅎㅏㄴㅌㅔ
▁딱
▁범위
▁또는
▁롭
▁움직
▁폴
▁37
▁버프
BS
▁헬
▁The
▁2010
▁ㅈㅗ
소리
ㅊㅏ
▁퇴
▁패턴
▁시청
▁상위
▁등급
▁ㅇㅏㅆㅇㅓㅆ
▁g
▁쉬
▁탐
▁문화
▁대미지
▁데이
▁회사
▁폭발
▁타입
▁벨
▁시기
▁표현
뜨리
▁80
▁밀리
▁500
▁요구
▁St
▁무시
▁확실
▁던지
▁45
▁라운드
▁수비
▁스페
▁굉장히
▁사고
▁이미지
▁미치
▁진짜
ER
▁발사
▁인정
▁경험
▁*
▁어떻게
▁꾸
▁겨
▁소모
▁파워
▁컴
▁졸
▁09
▁주의
▁가족
▁)
▁생활
▁오리
▁세이
▁낙
▁묘사
▁특별
▁피하
dd
▁족
▁굴
들이
▁활용
▁율
▁심하
ㅈㅏ
▁디자
▁km
▁중앙
▁아주
▁대체
▁히로
▁197
▁연기
▁02
▁한정
ㅆㅓ
▁방향
▁트리
▁03
▁진출
▁운동
▁헌
인물
▁펼
로스
▁데뷔
▁엑
▁중간
▁지니
▁그룹
▁꿈
▁나쁘
▁프랑스
▁생명
▁린
▁빈
▁숙
▁포인트
▁엔딩
▁싸움
▁믿
▁웃
▁2011
ㄹㅈㅣ
▁약하
▁스테이지
ff
▁야구
▁남기
▁준비
▁핵
ㄹㄲㅏ
▁선거
▁등장인물
▁묻
▁유리
▁ㄹㅏㅇ
▁ㅇㅗ
▁안타
ir
▁혼자
▁당연히
▁후보
▁흐
▁시장
▁논란
▁옆
▁위험
▁순위
▁조합
▁05
▁사실상
▁현실
▁무장
▁노리
▁아르
통령
▁욕
▁퀘스트
▁Z
▁표기
▁내려
▁흡
os
▁더욱
▁미션
▁고등학교
ㅡㅁ
▁민주
▁어머니
▁크리스
▁프로그
▁챔피
스크
▁분위
▁70
▁브라
▁죄
▁참여
▁싫
▁90
▁괜
▁비판
▁08
▁블랙
▁그래도
▁구조
▁학년
▁단순
im
아오
▁분위기
▁계약
▁07
▁동료
▁얘
▁약간
▁중심
▁링크
▁투수
▁훨
▁방어력
▁대통령
▁취급
▁조선
▁직업
▁48
ㅅㅣ
▁설치
▁바라
▁HP
▁콤
▁흥
▁열리
▁나무
▁똑
▁ㄴㅔ
▁보호
ter
비스
▁구간
▁계열
▁방면
리카
▁즐
▁다양
▁위원
▁여전히
▁이어지
▁결혼
▁훨씬
▁전용
머지
▁나머지
▁그거
▁염
이크
ㄹㅕ
▁뛰어나
▁시도
▁다루
▁돕
▁디자인
▁주요
▁06
티브
▁mm
▁300
▁2000
▁보상
▁일정
▁불구
▁축구
으키
▁읽
▁성적
러지
▁33
▁소녀
▁...
니아
▁탓
▁연속
▁기대
▁터지
▁목적
▁수정
▁갤
▁탱
▁배틀
ur
▁지하
▁종류
▁36
▁꼬
▁삼성
▁부산
▁고려
▁론
▁쌍
▁률
▁도망
▁세력
▁04
▁성장
▁벽
▁대화
▁가져
▁각각
▁아프
▁지방
▁올라오
▁캠
▁팩
▁잘못
▁e
▁징
od
스로
▁참가
▁발표
▁이해
다리
▁해결
▁력
▁의견
▁th
▁포켓
ㄹㄹㅗ
▁넘어가
▁당신
▁털
▁전설
▁부상
ag
ㅋㅡㅁ
▁방영
▁큐
▁세우
▁느낌
▁예정
▁변하
▁픽
▁마치
▁전문
▁짧
▁거대
▁일행
▁펼치
▁프로그램
▁스피
▁you
▁종족
▁랜
▁일으키
▁센터
▁운행
▁굳
▁벗
▁밴
▁힐
▁소설
▁움직이
▁ㅁㅏㄴㅋㅡㅁ
▁과학
▁FC
▁끊
▁근접
▁각성
▁종료
▁부활
지션
ub
▁죽음
▁향하
▁배치
ㅜㄴ
▁조사
▁전하
▁도중
▁충분
▁렌
▁장착
▁녀
▁최근
▁빅
데이트
▁삭
▁아이돌
▁칭
▁업데이트
▁국민
▁러시아
▁옥
▁정상
▁무리
▁점수
▁척
ㅈㅓ
▁스카
▁세상
▁안정
▁cm
▁항공
▁덤
▁가리
▁나중
▁SK
▁제목
igh
▁절대
▁유니
▁제공
▁경제
▁이루어지
▁달성
▁엔진
▁번호
▁지도
▁자연
▁챔피언
▁붙이
▁오래
▁켄
▁스스로
ver
▁배경
▁충격
▁추정
▁어찌
▁미사
▁목록
▁만드
▁번역
▁벌어지
ak
▁사이트
▁작전
▁레어
▁롤
▁목소리
▁가끔
▁포켓몬
▁비행
스타
▁곧
너스
▁34
▁똑같
▁셈
▁요소
▁조직
▁미래
▁규모
▁196
▁정체
▁스파
▁전작
▁남성
자기
▁출전
▁악마
▁빙
▁파티
▁공중
▁전차
▁훈련
▁전사
▁스타일
▁십
▁타카
▁품
어들
▁타격
ent
▁벌이
▁클리어
▁사냥
▁에너지
▁변화
▁돌리
▁만약
▁괜찮
▁홈런
▁동물
▁혈
▁클래
▁다리
▁위기
▁생존
다니
▁분노
BC
▁자랑
▁나누
▁신경
▁그만
▁더불
▁득점
▁75
um
▁뒷
▁수상
▁크리
▁필드
▁애초
ut
▁건담
▁단점
▁로봇
▁연결
▁저지
▁장갑
▁소재
▁국제
▁포지션
러스
▁얘기
▁vs
▁요리
▁ㄴㅡ
ec
▁38
디어
▁특정
▁비용
▁싱글
▁전기
▁기동
▁냉
▁ㄹㅣ
▁연합
▁판정
▁사항
▁시험
▁런
▁반면
▁장소
▁롯
▁공연
▁한편
▁옵
▁맹
▁55
▁기체
▁목표
▁ㄷㅡㅅㅇㅣ
▁항상
▁멸
▁화력
▁연출
▁사거리
▁넘기
▁무대
▁늘어나
▁예상
▁in
▁정작
▁시설
▁사업
▁2009
▁꽃
▁가르
▁던전
▁최소
리오
▁인터뷰
▁유럽
▁관심
▁교체
▁철도
▁하늘
▁내부
▁Q
▁야마
트리
▁비밀
ST
▁제일
ro
▁카이
▁지휘
▁사격
▁인사
▁별로
▁엘리
▁찌
▁다크
▁변신
▁to
▁록
▁수치
▁찬
▁바르
▁작곡
▁정식
▁나름
▁기계
▁넓
▁스포
▁수도
▁시전
▁교통
▁파일
▁결승
▁놈
▁카운
▁오버
▁벤
▁부여
▁각종
▁마나
▁일러
▁따로
▁쌓
▁비롯
▁케이
▁옷
▁레인
▁코스
▁졸업
▁확정
동안
▁오늘
▁진화
▁특이
▁지상
나라
▁치명
▁황제
▁이탈
▁언제
▁지지
▁이쪽
▁_
▁도로
▁란
▁전반
▁깔
▁북한
▁따라서
▁라이브
▁제한
▁드리
▁기업
보이
▁거두
▁발전
▁시티
▁드러나
▁건설
▁아키
▁병력
▁갑자기
▁튀
em
▁왼
▁이외
▁누르
▁EX
▁때리
▁살리
▁일러스트
▁쯤
▁가사
▁의외
▁2008
▁압도
▁나이트
▁역대
▁ㅃ
▁사정
▁이르
▁어쩌
▁외국
▁삭제
▁아파
ight
▁주문
▁베이
▁꺼
▁저항
▁티어
▁이끌
▁무슨
▁ㅃㅜㄴ
AN
▁탈출
▁직전
▁이닝
▁골드
▁띄
라인
어로
▁고양
▁감정
▁임무
▁위력
▁보유
▁느리
▁프레
▁거치
▁아카
▁텐
▁자원
▁납
▁정하
AR
▁노트
▁표시
▁세기
▁마시
▁서비스
▁로드
▁점프
▁어둠
▁집중
▁전국
▁분류
▁사례
▁ㅋ
▁깊
▁잉
▁마르
▁',
▁랭크
▁페이
▁인구
▁효율
젝트
▁히어로
▁작업
▁뇌
▁상관
ap
▁완전
▁루트
▁아스
▁극장
▁회피
▁파트
▁인식
▁가수
▁연습
▁공간
ON
▁관하
▁도전
▁42
▁41
▁명령
▁오른
▁화면
▁잇
▁이어
▁태어나
▁물건
▁별명
▁기회
▁경쟁
▁컬
▁션
▁장점
▁높이
▁컵
▁폰
▁기다리
▁촬
▁레드
▁녀석
▁행정
▁지내
▁래
그레이드
▁업그레이드
▁인천
▁단어
▁잠시
▁No
▁옛
▁키우
▁사기
▁개념
▁버티
▁부모
▁군사
▁몽
▁추천
▁오프
▁39
ㄷㅓ
▁Ch
▁병원
▁빌리
▁근처
무리
▁발언
▁펜
▁불가
▁꾼
▁무려
▁194
▁미니
▁살인
▁ㅇㅡㄴㄷㅔ
▁전력
▁아파트
▁ㅈㅛ
▁신체
▁크기
▁전개
학생
▁의식
▁정리
▁겸
▁포기
▁촬영
▁kg
▁>
ul
▁숨기
▁주제
페이지
▁본래
▁히트
▁킬
▁고정
▁강제
▁44
▁타임
▁밑
ㄴㅑ
▁판단
▁st
▁라이트
▁붕
▁낫
▁노력
ce
▁잡히
▁나서
▁버그
▁홈페이지
라스
▁부정
▁이하
▁공주
▁스코
▁평균
000
▁데스
▁셋
▁독립
▁뿌
▁2020
▁;
▁멘
▁학원
▁최강
▁선생
▁구매
아들이
▁빨리
▁제거
▁왕국
▁99
▁LG
▁폭탄
▁제품
▁갖추
▁롯데
▁위키
▁조종
▁꼭
▁살아
▁속하
요일
▁닌
▁끝내
▁칠
▁곤
믹스
▁분명
▁마법사
▁병사
▁고속
▁웹
▁가드
▁리더
▁여행
ik
▁동생
▁중반
▁단체
▁닥
▁군대
▁윈
▁옵션
▁붉
▁예전
▁2007
▁부탁
▁떡
▁전자
▁행위
▁음식
▁짐
▁쫓
▁앞서
▁195
▁43
▁대구
▁현상
▁완벽
all
▁수행
▁겪
▁가문
▁요시
IN
▁구분
▁탈락
▁모이
야마
▁ㄱㅗㄴ
▁바다
▁새로
▁원인
이치
모토
▁완성
▁그야
▁대기
드시
▁MA
▁통합
▁개그
▁의원
▁반드시
란드
▁쓸
▁재료
▁하드
▁마사
▁전략
▁차원
▁주민
▁단지
드리
▁크로
▁직후
▁쥬
▁복귀
▁템
▁광역
▁환경
튜브
nd
타임
말로
▁한글
▁연재
러리
▁46
▁기반
▁흘
▁서버
▁47
▁그야말로
트라
▁아쉽
▁밸
▁늦
▁지정
▁정규
▁치료
▁인도
▁해군
이어
▁마무리
▁2006
▁연장
▁걱
▁보너스
▁타이틀
▁멜
▁해외
▁대장
▁걱정
▁평범
▁월드컵
th
▁다수
▁다행
▁줄이
▁보병
▁입히
▁유사
아하
▁워낙
▁옮
▁조작
▁51
▁포스
▁공포
▁밥
▁미사일
▁상세
▁코스트
▁심각
▁덜
▁가면
▁추측
▁우선
조건
▁재미
▁실험
▁책임
르트
▁샷
▁캡
▁필살
▁뻔
루스
▁디스
▁점점
▁폼
▁도착
▁아무리
▁택
▁중학교
▁다소
op
▁로마
▁굳이
▁성향
▁타자
▁즐기
▁좋아하
▁교수
▁닉
▁실점
▁SP
▁받아들이
▁한계
▁접근
▁톤
▁무조건
st
▁의사
▁영혼
▁국회
▁무한
▁대결
▁채우
▁잭
▁사무
▁비중
▁모자
▁고르
운데
▁죠
▁멋
▁보조
▁부하
ation
▁댄
▁정확히
tt
▁함정
▁복수
▁암살
▁장르
ra
▁정의
▁광고
▁엠
▁인터넷
▁지배
▁아내
시마
▁평소
ia
▁옮기
▁혁
ack
▁마력
▁투표
▁1000
▁채널
무라
▁숲
▁범죄
▁확장
▁도쿄
▁봉인
▁운용
▁사령
나이
아지
▁기념
▁이곳
▁공략
▁와중
▁합류
▁알아
▁and
▁초등
▁장치
▁150
▁몇몇
▁금지
▁검사
▁앙
▁이적
ㅅㅜ
▁빵
▁다운
▁종종
▁65
▁소련
▁전화
▁오리지
버리
▁소유
▁가치
로그
▁에이
▁도입
▁아웃
▁보컬
시브
▁유튜브
▁네이
▁플래
▁시청자
▁특유
▁코드
▁가운데
▁브레이
▁VS
▁정당
▁클럽
oc
▁사쿠
▁충분히
▁근데
▁미드
▁줄어들
▁화염
▁뚫
▁프로젝트
▁실수
▁소년
ㄷㅡㄴ
▁뉴스
▁잊
▁개조
▁본격
▁고대
▁시민
▁시나
▁투입
▁대로
▁취하
ie
▁전원
▁기지
▁저격
ill
▁종교
▁무사
▁스포츠
▁괴물
▁형제
▁로스
▁%,
▁고양이
▁ㄴㅡㄴㄱㅏ
▁행사
▁인상
▁수많
▁도망치
▁앤
라이더
▁얼마나
▁KBS
▁52
▁희생
▁II
▁릴
비아
로드
▁이탈리아
▁2005
▁발음
▁상징
▁밴드
art
▁카메
▁ㅇㅡㄹㅈㅣ
▁터미
▁대중
▁종합
▁요청
▁흉
▁셀
일러
▁원정
▁64
▁넥
▁사태
▁클래스
▁구역
려가
▁숫
▁쥐
▁올림
▁대형
텐츠
▁군단
▁외모
▁스크
▁끄
▁패러
▁대비
▁방패
▁이사
▁조정
▁서브
▁일본어
▁불명
니티
▁인원
▁생물
▁최후
▁따지
▁서술
▁컨셉
▁형식
▁위협
려오
▁관통
▁뿌리
▁자료
▁광주
▁장난
▁비고
▁섞
▁약점
ri
▁그저
▁2004
▁몹
▁You
▁49
ab
▁통신
오르
런스
RA
uby
▁액션
▁정책
▁행성
▁상자
▁모험
▁오리지널
▁AP
▁달러
시스
▁눈물
▁트랙
▁56
▁ST
▁드러내
▁바닥
▁쿨타임
▁앉
▁전술
est
▁부수
래프트
▁박사
▁400
▁젊
로우
▁인형
▁거부
▁빼앗
▁리어
▁MBC
▁등록
▁미리
▁명중
▁dd
▁간단
▁매일
▁들리
▁ruby
▁ㅇㅛ
▁회장
▁반복
▁이치
▁의도
▁In
▁개월
▁공동
▁벗어나
▁마크
▁영입
▁구단
▁열차
AL
▁대응
▁개봉
▁해석
▁오토
▁챙
▁언론
▁의지
▁값
▁놀라
▁지명
▁85
▁웬
▁지적
▁코어
▁주력
▁원거리
▁한국어
▁먹이
스케
▁오랜
▁53
▁언어
▁데이터
▁54
▁더블
▁설계
자리
▁윌
▁그때
▁가하
▁탯
▁흡수
▁디지
▁193
▁선언
▁카즈
▁혐
▁자동차
▁사상
▁소식
▁목숨
▁찾아오
▁2002
▁차례
리트
▁텔
▁모티브
▁지나가
▁여름
▁카페
▁풀리
퓨터
▁편하
▁방해
▁역전
▁혜
▁승부
▁연계
▁거짓
▁필살기
▁닮
▁사과
▁살아남
▁대단
▁숫자
▁조각
▁합치
▁핑
▁망하
▁쓰러지
▁체육
▁엄마
오스
▁미스
▁저지르
▁완료
▁기자
▁황금
▁저주
▁dddd
▁텍
▁소울
▁dddddd
▁겹
▁쿄
▁Sh
▁진입
▁PC
▁긴
▁떼
ttp
▁수리
▁상대방
▁원하
▁수호
나가
▁산업
▁불과
▁착용
▁생성
▁유우
▁http
올리
▁해제
▁ff
▁컴퓨터
▁맺
▁공화
▁테마
▁장기
▁덩
▁가정
▁터미널
▁적절
동생
▁쳐
▁무섭
▁드라이
▁실시
니스
▁필수
▁컷
▁편성
▁단순히
▁행적
▁선정
▁비트
어내
▁에이스
▁가져오
up
▁꼴
▁독자
▁카운터
▁딱히
▁멈
▁질문
▁뮤직
▁특기
▁기점
▁드립
▁날개
▁연주
▁기어
▁유도
▁패시브
▁들이
▁표정
▁전환
▁감안
▁선물
▁훌
▁ㅁ
▁페르
▁꾸준
▁습격
▁확실히
▁59
▁소비
▁왼쪽
▁횟
▁의심
▁퓨
▁안전
▁i
▁솔로
▁아름
▁무력
▁MP
▁개선
▁인류
▁집단
▁박스
▁걷
▁함대
▁위원회
▁제도
VE
▁스킨
▁경력
▁회전
▁당장
▁코치
▁Re
▁마츠
▁구축
▁설립
▁잠깐
▁Sp
▁가스
▁돌파
▁행복
▁사장
▁올림픽
▁확보
▁날아가
▁랍
▁지옥
▁58
▁스마
▁테크
▁친하
▁블루
▁보다
▁희망
레이션
▁시나리오
▁비싸
▁시내
▁데리
▁일종
▁전통
▁횟수
▁챙기
▁부리
▁듀얼
▁120
▁장군
▁가슴
▁라디오
▁공항
▁ㅇㅡㄹㄲㅏ
AT
▁통과
▁공사
▁하위
▁안드
OR
모리
▁ㅋㅜ
▁문명
ang
▁57
▁re
▁해금
▁진정
ate
▁초대
▁제압
▁체제
▁멈추
▁멀티
▁적극
▁수사
▁촉
▁비디오
▁편집
▁버튼
▁상처
▁셰
▁펀
▁66
▁수원
▁95
▁지나치
▁딜러
▁꺼내
▁인지
▁롱
▁방문
▁위주
▁처치
▁2003
▁패스
▁귀엽
▁케이스
▁리스
울리
트롤
▁마침
▁댓
▁작성
▁묶
연히
▁선보이
ard
▁의문
▁콩
▁현장
▁동맹
▁대답
▁장전
▁뱀
▁유키
▁분리
▁태양
▁전장
▁진영
IA
▁코너
▁고통
▁투자
▁한자
▁예선
▁눈치
▁갱
▁크로스
▁태도
▁대놓
▁계기
▁노동
▁스페인
▁핸
▁삼국
▁마왕
▁엉
▁육군
▁고유
▁랩
▁비난
▁최악
▁료
▁흐르
▁Bl
PS
▁스위
ess
▁BG
▁후속
▁에스
ant
▁아름답
▁레이저
▁be
▁스펙
▁공부
▁110
▁게시
▁개최
▁가까
▁깎
▁제안
▁나카
▁제로
▁ㄱㅓㄴ
▁평화
▁시체
▁아머
▁오른쪽
▁회의
▁게이지
▁성인
▁꼽
르크
▁좁
▁그라
IC
▁극장판
▁조준
▁배신
▁on
▁기획
▁여부
▁겨우
▁룰
▁탑재
ell
▁SS
▁용병
▁궤
▁매치
▁컨트롤
▁내려가
▁젤
▁or
▁궁극
ㄹㅅㅜ
▁가져가
▁373
▁춤
▁카메라
▁청소
▁락
▁달라지
ct
▁62
▁봄
ㅇㅏ
▁베이스
▁멀리
머리
ue
라리
▁보급
▁어울리
▁견제
▁타이밍
ine
▁가볍
▁다가
▁점령
▁애매
▁자라
▁체인
▁충전
▁관광
▁순서
▁댄스
아리
▁온라인
▁스피드
마스
▁진실
▁에어
▁정령
▁은퇴
▁게이
▁보도
▁쓰러
▁한화
▁최대한
▁직원
▁그레이
의원
▁남편
▁NP
▁레전
▁Al
▁모션
▁기분
▁민주당
▁후반부
▁하트
▁튜
▁수단
▁오스
▁늘리
▁세계관
ist
래도
▁트레
▁아무래도
▁격투
▁76
▁교회
▁멸망
▁트위
▁밸런스
▁얼음
▁스코어
무원
ove
▁틈
▁갤러리
▁파이터
▁스탠
▁알렉
▁Th
ore
▁허용
▁오오
▁후지
▁보수
▁우수
▁여왕
▁빔
▁스프
▁77
▁울트라
▁갓
▁치르
▁약속
▁61
▁유용
▁대원
▁등등
▁융
oo
▁로켓
다르
▁....
▁부담
▁{
▁헤드
▁무게
▁토스
▁판타
▁생일
▁고급
워하
▁미나
▁돌격
▁본선
▁가면라이더
▁뱅
▁샌
▁ㄱㅜㄴ
▁규정
▁72
▁지식
▁커뮤
피스
▁88
▁아프리카
▁갈리
▁기절
▁랜덤
▁병기
▁렉
▁막히
▁com
▁중단
▁차별
▁그리스
▁삶
▁자이
▁끼리
▁장애
▁분야
▁2001
로이드
▁스케
▁패러디
▁경기도
▁퍼지
붙이
▁입수
▁트레이
▁}
▁ffff
▁측면
▁겹치
▁지점
▁넷
심히
▁셔
▁ㄹㅔ
▁마녀
ive
▁주목
▁언니
바이
▁도서
두르
▁유래
▁회수
▁발휘
OS
▁따위
▁포르
ort
▁드물
▁공통
▁웨이
▁닥터
▁미야
ong
▁외부
▁ffffff
▁자살
▁국적
▁SBS
▁오프닝
▁인생
▁삽
▁도구
▁승강
ㄱㅓ
▁취소
▁교환
▁개편
▁트위터
▁공원
AM
▁제시
▁스페셜
ers
▁아사
▁커버
▁ㅇㅜ
▁피해자
▁군주
▁자르
워드
▁경계
크래프트
오리
▁릭
▁살해
▁아라
▁페이스
▁내주
▁PS
▁서포
▁장수
▁민족
AS
▁윙
▁아침
▁킥
▁공장
달리
▁98
▁출생
▁계산
▁핵심
▁외치
▁부진
▁재판
▁구입
▁브랜드
▁메탈
유키
▁어차
니어
▁붕괴
▁191
▁용도
ED
▁사단
▁대놓고
▁단독
▁어차피
ip
▁젠
▁당선
스티
터리
▁제기
▁탄생
▁겨울
▁바탕
▁작사
▁오후
▁교사
▁주연
▁갑옷
▁어린
▁상하
▁아야
▁끌어
다수
▁페이지
▁아시아
▁펠
▁카나
▁영역
어리
ain
▁온갖
▁CD
▁이성
▁낳
▁함선
▁소수
▁은근
▁출발
▁건너
▁살짝
▁은행
▁찌르
▁요원
▁습득
▁분석
▁600
▁몰리
즈키
if
▁하수
▁꾸준히
▁스파이
피아
▁화살
▁재생
하라
▁납치
▁엑스
▁선배
▁타워
▁순수
▁대공
ee
▁홍보
▁|
▁거절
▁예술
▁자식
리티
▁유형
▁업무
▁자격
▁이스
▁섭
EN
▁1990
티컬
▁ㄲ
▁가르치
▁귀족
▁증거
▁파악
▁보정
▁쏟
가락
▁협력
▁경유
디션
▁레전드
▁프라
▁군인
▁베르
▁훌륭
▁MV
▁신화
▁폭풍
▁테러
▁사카
▁63
▁무너지
▁플라
▁흔히
▁밟
▁고민
▁댓글
▁응원
▁영원
▁미소
▁종점
▁적당
▁퀄
▁보물
▁출처
▁카르
▁쓰레
▁마인
▁열심히
세이
▁68
아나
▁소드
▁챠
▁가로
▁지우
▁러브
▁탑승
▁채용
▁틱
▁내내
▁네이버
▁당황
▁모리
▁장관
▁왕자
▁스트라이
▁뒤집
▁무적
▁주도
▁아리
▁괴롭
▁맡기
▁만족
▁누리
▁불안
▁부인
ith
▁우려
▁거래
▁본명
▁없애
▁컨텐츠
▁비록
ly
▁71
▁정말로
▁나뉘
들리
ld
▁800
▁흘리
▁정류
▁혼란
▁대다수
▁중계
▁감사
ind
▁문제점
▁계급
레인
▁실질
▁커뮤니티
▁연도
▁운전
▁늑
▁운명
▁지급
▁74
▁라이벌
▁옹
▁균
▁AC
OL
▁두산
▁반격
▁초월
▁치명타
▁푸르
▁오류
▁67
▁내놓
▁트라
▁짝
▁미군
▁수입
▁파이어
▁전공
▁랜드
▁전함
▁연예
▁김성
▁돌진
▁오해
▁카라
▁기기
▁아트
▁파라
▁메타
▁라스
ew
이터
▁가까이
▁찾아가
▁공군
▁73
아먹
▁체계
▁코믹스
ry
다지
▁TH
▁반영
▁여신
▁낚
▁통일
▁거주
▁불꽃
▁단위
▁캔
▁소문
▁충돌
▁안습
▁즉시
▁NC
▁문자
ast
▁아오
▁96
▁학과
▁AT
IT
▁그림자
▁메가
▁크리티컬
▁홍콩
▁주년
▁화장
▁찰
▁편의
▁슬롯
▁닿
▁레오
카와
▁전투력
▁제하
▁아나
▁설득
▁국회의원
▁크루
나다
▁걸치
▁짜리
▁me
▁비율
▁생명력
▁시야
▁말리
LC
츠키
▁상향
▁피아
▁떡밥
EC
▁해방
▁내려오
▁둘러
▁81
▁다행히
바로
▁제조
▁CP
▁소프트
▁토모
▁널
▁격파
▁정지
▁지시
▁공화국
▁판타지
▁그다지
▁ㅈㅏㄶ
▁써
▁으
▁신뢰
▁파이널
▁깃
FA
사카
▁암흑
▁닌자
▁관객
▁심장
▁사전
▁192
▁1999
▁일부러
▁사운드
▁등판
▁가입
▁j
▁무난
▁수업
▁오로
▁연사
▁유비
▁신고
▁78
▁맘
▁동네
▁NPC
▁늑대
▁별개
▁그만큼
▁창작
end
▁91
▁84
▁쓰러뜨리
▁본부
▁가득
▁엘프
▁니시
▁마술
ㅂㅅㅣ
▁an
▁제주
▁아티
▁고기
▁덮
▁지하철
▁건강
▁지켜
▁실드
▁짱
▁막장
▁룡
▁장식
▁재능
▁근무
고기
▁업체
▁마주
▁붙잡
▁팝
▁화이트
▁1998
▁집안
▁경험치
▁반란
식간
▁지형
▁수학
▁추적
▁드디어
▁곰
▁전적
▁압박
▁입학
▁ㄷㅡㄴㅈㅣ
▁순식간
▁상품
▁리버
▁An
▁천사
▁묵
▁저런
▁기원
▁브리
▁신세
▁게이트
▁노멀
▁it
▁뛰어
▁예고
▁경향
▁대만
▁쿼
▁증명
▁블레이드
▁불만
▁오픈
▁사쿠라
▁형성
▁스티
▁가이
▁신청
▁전방
▁테이
▁낭
▁여동생
▁지켜보
▁97
▁콜라
▁쿠키
세우
▁쌓이
광역
▁처하
▁매력
▁의상
▁사령관
▁Ar
▁유희
▁적히
▁마도
▁절반
▁감염
▁쓰레기
▁팅
▁섹
▁82
▁나루
▁69
▁타점
▁라이더
▁이마
▁마이크
▁룬
▁단일
▁He
아버지
▁클로
▁정권
▁외국인
▁어택
▁주먹
ㅍㅣ
▁엔터
▁사토
▁연상
▁코인
▁복장
▁지르
▁여론
▁메카
▁오빠
▁회차
광역시
▁별도
돼지
▁령
▁250
▁강조
▁!!
▁이론
▁이승
▁덴
트로
▁선호
▁키스
▁MAX
▁소멸
지컬
▁180
▁ㅈㅏㄶㅇㅏ
▁근거
▁실행
▁86
▁for
▁스톤
▁바보
▁전선
▁is
▁공기
▁주전
▁아메
▁고치
▁190
▁최상
▁SN
▁한때
▁따오
▁부품
▁출현
▁대륙
▁썰
▁간격
▁요정
▁반지
▁작용
▁평타
▁디아
▁화려
▁호환
돌리
▁스토
▁아가
▁헌터
▁공작
파이어
▁흔하
▁울산
▁해설
▁출장
▁핀
▁뉴욕
모로
▁BGM
▁퀸
▁전형
▁총기
▁경상
▁찾아
어버리
▁토리
ath
▁사자
둥이
더스
▁무효
▁마스
서트
▁요새
▁아무것
타로
RE
▁굽
av
▁스카이
▁탱크
▁프레임
▁박살
레나
▁시드
▁권력
▁Te
▁주위
▁연애
50
▁De
▁명예
▁탁
▁추격
▁1997
▁여러모로
▁바라보
▁조용
▁돌아다니
▁모바
▁권총
▁구도
▁키리
▁동기
▁신규
▁폭격
▁블록
▁하수인
▁후쿠
▁몰래
▁주어지
▁경영
▁테스트
▁영업
▁우스
▁이슬
듀서
▁프로듀서
se
드라
▁대우
▁지대
▁경비
히로
타인
▁추락
▁MS
▁소총
▁심리
웨이
▁범인
▁공유
▁수요
▁탄약
▁심판
어스
▁전대
▁폭주
one
▁일상
▁클라
▁그래픽
▁아무런
▁아크
▁계승
▁고교
▁외교
▁메이저
남도
▁환상
▁사양
▁Be
▁마리오
▁북미
▁제이
▁브라질
▁변호
▁놓치
▁상점
▁갈등
▁보석
og
사키
▁83
▁렙
▁요괴
▁입력
▁거짓말
▁고전
▁변형
▁공학
▁터치
▁언제나
▁시각
▁학살
▁통제
겨나
▁제법
▁통상
▁미츠
▁띄우
▁리스트
▁KT
▁마련
▁커맨
▁89
퍼스
▁92
▁이득
▁블러
▁혁명
▁믹
▁탱커
스트라
▁폭력
▁유령
ㄹㅏㅇ
▁승강장
ust
가와
▁불편
▁제작진
▁작동
▁프로필
▁94
▁용사
▁훔
▁빗
▁미디어
▁예외
▁옛날
▁맞서
ide
▁타케
▁메인
▁스마트
▁전투기
▁79
▁일자
▁수집
▁구현
▁조치
도우
▁Le
▁연대
▁파일럿
▁진지
자키
▁동원
▁휘두르
▁둥
▁챕
▁머신
▁네임
▁모바일
▁검색
▁Se
▁앵
▁한국인
ity
▁사이즈
▁그곳
▁민간
▁쿠로
▁조심
▁워치
▁포탑
▁고생
▁현지
▁이리
▁경기장
나무
▁신장
노스
▁93
▁콘서트
▁US
PG
일드
▁신인
려움
▁동영
▁만든
▁쇠
▁챕터
▁ㄲㅔ
▁조절
▁레인저
▁표준
OT
▁부위
▁조조
▁음반
▁정류장
▁ㄹㅣㅇ
▁",
▁멋지
▁다이아
▁꺾
▁동방
▁요즘
▁87
ㅇㅗ
보내
▁카미
▁101
▁메시
▁입구
일리
▁감시
▁배차
북도
▁마루
▁1996
▁시행
▁수송
▁DJ
▁되찾
▁스톰
AC
▁긍
▁동영상
▁프린
▁보장
▁리얼
▁레스
▁용어
▁교전
▁1995
▁MC
▁길드
▁프리미
▁공산
▁자이언
▁편지
▁도발
▁음성
▁패널
▁AI
▁물러
저히
▁폐지
▁차단
▁겐
▁앱
▁덧
▁On
▁호평
어도
▁상상
ere
▁텔레
▁볼넷
▁라이프
▁기습
▁특화
age
▁김정
▁맞이
▁연방
▁계정
▁이재
▁나타내
▁루타
▁한방
▁강철
▁구출
▁흥행
▁겁
▁사이드
▁볼트
▁똑같이
▁세월
▁어깨
▁도서관
펙트
▁쟁
▁추진
▁무료
ㅌㅇㅣ
▁.....
▁ㄱㅏㅌㅇㅣ
▁연락
▁슈트
▁잠수
▁어지
▁태우
▁연관
▁루시
▁그치
▁도달
▁핸드
▁이날
▁농구
▁신문
▁결승전
▁슛
▁번개
▁익숙
▁레이드
▁훔치
▁@
▁간부
▁주소
▁리메
▁매니
▁향상
▁헤이
▁지휘관
▁삼진
▁ㄷㅏㄴ
메달
▁전직
오프
▁가시
▁사마
▁웬만
▁묘지
▁양산
레이터
▁가상
▁출력
▁전달
▁겉
▁px
▁극단
▁신분
▁빌드
▁신기
▁노예
▁조지
▁고향
▁소닉
▁부문
▁신성
▁켈
▁빛나
▁환자
▁수술
▁스튜
▁갤럭
▁환승
▁넘치
qu
▁가속
▁노출
▁글자
▁마구
▁박근
▁입단
▁켜
▁레이스
▁임명
▁아우
▁도망가
▁동작
▁DLC
오카
▁세이브
▁캐리
▁멕
▁전역
▁베트
▁헨
ood
▁장교
▁커플
▁복잡
▁제자
▁'.
▁AK
▁내구
▁성별
▁봇
▁캐스
▁쾌
▁THE
▁내성
▁대체로
조리
▁막차
BO
▁명중률
▁팀원
▁적어도
▁타마
창기
▁해체
▁발매되
▁페이즈
▁임시
▁브레이크
▁진심
▁핫
▁반하
▁알파
▁갤럭시
▁MVP
▁기병
▁종이
▁절망
▁듯이
▁전시
▁가게
란색
PM
▁샘
IS
▁플레
▁구속
▁득표
▁연구소
▁육성
▁수영
▁망치
▁중화
▁틀리
▁ㅇㅓㅆㅇㅓㅆ
▁근육
▁착각
▁아빠
▁개통
▁융합
▁$
▁이즈
▁CC
▁리메이크
ㄱㅣ
▁공지
▁뼈
▁여유
▁차리
▁너무나
are
▁분기
▁자매
▁대량
▁강원
▁차라리
▁1994
▁인수
▁Wh
▁카오스
▁날짜
▁창조
전자
▁이시
▁인증
▁협회
▁지능
▁물질
▁초창기
▁럭
▁리치
▁글로
▁엮
▁규칙
▁묻히
▁고백
▁시즈
▁빡
OM
▁남부
▁1980
▁인연
▁파리
▁게스트
▁실버
▁참전
▁그럼
▁이자
끄럽
▁소화
▁대대
▁경고
▁배트
▁하필
브리
▁700
▁구체
▁카타
▁아끼
▁Tr
▁분량
▁톱
▁태그
▁의뢰
ㄷㅓㄴ
▁뭉
▁점차
크스
▁악역
▁가량
▁끼치
▁제어
▁의혹
▁청년
▁멍
ock
▁테일
▁성과
▁누적
▁투구
▁먹히
▁회원
▁메모리
▁미카
▁''
▁어둡
▁김영
▁흠
▁합격
▁고용
ake
▁객
OW
▁대립
▁합체
▁찾아보
▁돼지
ect
▁정복
먼트
▁그대
▁식사
▁웅
our
▁FI
▁이내
▁춘
▁녹음
▁이명
▁웹툰
ass
▁호감
ire
▁왠
티나
▁피격
구리
▁반발
▁의료
▁아시
▁차트
▁중대
▁뷰
oy
ark
보드
▁귀신
도로
▁꼬리
▁삼국지
▁출판
▁뚜
▁둔
▁파트너
▁후속작
▁위장
▁합성
ob
▁he
ite
▁베스트
▁오가
▁여지
▁츄
▁써먹
▁게시판
지마
▁쟈
▁그동안
▁잦
▁와이
▁모모
▁유로
▁편곡
▁히데
▁외계
▁감옥
▁랭킹
▁스턴
▁결론
▁기초
▁서부
▁축제
▁강의
ㄱㅜ
▁한번
웨어
▁떠올리
▁마키
▁체포
▁부서
▁떠오르
▁예쁘
▁카스
▁몰아
▁아기
▁협박
주시
▁림
▁퀄리티
▁블리
▁SR
▁문장
▁동화
▁안드로이드
▁썩
▁햄
▁깨지
▁본작
▁예비
▁사제
▁토론
ES
FC
▁Cl
▁정면
▁비아
▁괴롭히
▁구멍
▁kt
▁개방
▁FA
▁단장
▁AR
▁곧바로
▁공급
▁소형
▁어쨌
▁매체
▁렛
▁수련
▁토르
▁은하
▁유행
UN
ah
▁다섯
▁불러
▁초간
▁대폭
▁횡
▁트로
▁플랫
▁마리아
▁깜
▁전면
▁룸
▁인공
▁문학
▁대가
▁활성
▁부부
▁투어
▁캐나다
▁wh
▁립
▁소원
라이언
▁예능
▁GT
ound
디아
▁내장
▁매직
iz
▁저그
▁과목
▁일시
▁외형
▁해병
릭스
▁클리
성기
▁대략
▁아일
▁연타
▁뜬
▁고문
▁김태
▁커맨드
▁파견
▁관중
▁곁
▁간혹
▁달하
ime
▁신호
▁컬러
▁시위
▁넉
▁왕조
▁희귀
▁세이버
▁적군
▁야스
▁슈팅
▁스틸
▁일원
▁SD
▁식물
▁포스트
▁손가락
▁플레이오프
▁데모
▁팬덤
▁블로그
▁Gr
▁뺏
▁피부
▁에드
▁커지
▁정글
▁긍정
▁마이클
▁박근혜
▁반사
LL
ㄷㅓㄴㄱㅏ
▁소지
▁김민
▁코우
▁KIA
iv
▁my
▁펀치
▁PD
▁프라이
▁Me
▁타이거
▁목격
▁의무
우드
▁바위
▁수수
▁구원
▁신라
▁은근히
▁SC
▁움직임
▁들어서
▁크라
▁준수
어나오
▁주말
ID
▁널리
▁상성
▁섀
▁파크
▁116
▁이지
▁곡명
▁연인
잡이
▁오카
스턴
▁피스
▁육체
▁특집
▁전철
▁인근
큐어
페인
▁나아가
▁최소한
▁다가오
▁메뉴
▁섞이
버트
▁굴리
▁멘탈
▁대처
▁개체
▁수용
▁My
▁ㄹㅏㄹ
▁불법
MA
밀리
▁스미
▁아니면
▁대충
▁일격
▁실리
▁자치
▁까다
▁박정
▁킨
▁예측
▁영문
▁헤비
OP
▁털리
▁130
▁동부
▁환영
▁건축
▁홀로
▁조성
시코
▁떨어
▁각자
▁원본
▁로즈
▁커스
구치
▁{{
▁보안
디언
▁적대
▁냄
▁바리
▁기사단
▁다스
미야
▁왈
▁딩
▁영토
▁서양
▁Pr
▁뜯
▁멀쩡
▁주포
▁접속
▁놀랍
▁냥
▁형사
▁국군
▁쉐
▁오랫
ge
▁{{{
▁강남
▁누나
▁좌우
▁아바
▁더더
▁탄창
▁침공
▁따라가
▁어린이
▁액티브
▁계단
▁시내버스
▁훗
▁소중
▁안내
▁면역
▁첨
▁사우
▁골든
▁어른
▁결말
▁바치
▁튀어나오
▁BE
▁펫
▁대지
▁플로
▁호주
▁기독
▁유이
▁정찰
ax
▁작화
▁지도자
▁이래
▁더더욱
데스
▁갇
▁시마
가미
▁후기
▁음원
▁호텔
▁허나
▁까다롭
▁학부
▁DF
▁깡
▁험
ㄴㄷ
▁회상
▁대항
▁괴수
▁현역
▁죄다
ome
▁처벌
▁거인
ance
▁MF
▁갇히
▁취미
▁알아보
▁퀴
▁버스터
▁딘
▁하야
▁포트
▁시선
▁식당
▁씌
▁히메
▁아이스
▁상당수
▁캐스팅
▁프리큐어
▁치우
uc
▁닫
▁고스트
▁주간
▁해적
ick
▁라인업
▁리듬
▁요코
▁절대로
▁과제
▁아티스트
▁첫차
▁재미있
덜란드
▁네덜란드
▁미안
▁Pl
▁일기
▁새벽
▁로그
▁메르
▁과연
▁전문가
▁그로
▁ch
▁시계
▁삐
▁스키
▁혀
▁저녁
▁HD
가시
▁전진
▁WW
▁유치
▁도우
ix
▁니코
mer
▁어떠
▁천재
▁리아
▁트윈
▁비행기
▁승격
닉스
▁하얗
▁한동안
▁파츠
▁고지
ord
스탄
▁오스트
▁SM
▁총선
▁열쇠
▁드레
▁꽂
▁모자라
▁촌
▁방지
요시
▁기적
▁검찰
▁마비
▁트레이드
▁깨닫
▁주사
려주
▁스타크래프트
▁자금
▁160
▁용기
▁안경
▁한참
ure
▁고수
▁리드
▁방사
▁GB
▁저장
▁코코
▁트럭
▁디지털
▁챌
▁경기력
▁짤
▁익히
▁캠페인
▁별다르
특별
▁허리
아웃
▁신비
▁휴대
▁양쪽
▁OST
▁이슬람
▁국어
▁전라
10
▁캠퍼스
▁청소년
▁토끼
▁유희왕
▁어지간
▁개성
▁보라
▁농담
▁크리스마스
▁대리
▁상급
▁우위
▁할아버지
▁ㄱㅔㅅ
이즈
▁동굴
▁꼽히
프레
▁1992
▁갈수
고리
▁한마
▁무덤
▁with
▁캡틴
▁램
덩이
▁아이콘
ud
▁클래식
▁로우
▁\
▁방출
▁갈수록
▁체크
▁인지도
바라
▁화제
▁문재
▁개정
▁김동
▁빚
▁1993
▁마이너
▁KO
▁영향력
▁오랫동안
▁북부
▁바퀴
▁올해
▁물러나
▁원소
▁미술
▁곽
▁기독교
▁이영
▁칭하
▁해리
▁ㅌ
▁연료
라이트
▁정원
▁클릭
▁터키
▁호위
라드
▁시아
양함
▁어마
지로
▁베트남
▁어쨌든
▁중독
▁140
▁안티
▁웃음
톨릭
▁Ex
▁원수
▁조언
▁일제
▁접촉
▁국방
ame
▁https
▁귀찮
▁바이러스
▁무작
▁빼앗기
▁극복
▁SKT
▁하락
80
▁비추
▁미라
▁팔리
▁JR
▁의존
▁마침내
▁델
▁인정받
▁장악
▁신설
▁전신
▁사도
▁하우스
▁??
▁놀이
▁윌리
▁선택지
▁톰
▁노인
▁식량
▁무겁
▁생존자
AD
▁sh
멘트
▁담기
▁흐름
▁보관
▁외전
▁개수
▁수익
▁투명
▁체육관
▁캐논
▁본체
▁결코
쳐지
임스
▁챌린
▁핏
▁살아가
▁부장
▁취향
▁도끼
▁헛
▁de
▁모조리
▁커리어
▁공무원
▁IC
▁카트
▁노부
▁데려오
몬드
ost
▁예시
▁흔들리
▁비주
▁전멸
▁Love
▁이브
▁치유
▁최다
▁앞두
▁전성기
▁칭찬
▁손해
▁모래
▁에리
치기
▁기종
세스
▁콜라보
▁데드
▁루수
▁제작자
old
리그
▁교장
▁김종
▁후방
▁GS
▁기아
▁씹
▁이터
▁스승
▁유니폼
카리
코토
out
▁힙
▁한마디
▁어스
▁논리
▁돋
▁가톨릭
▁900
▁Un
▁툴
▁재현
▁정비
▁마린
▁충청
▁작곡가
▁무릎
▁수십
▁반동
▁무지
▁첼
▁우연히
▁레이더
▁변호사
다랗
▁불타
▁충성
▁구경
▁사막
▁칩
own
▁당일
▁일반인
네스
▁오전
▁세르
▁202
▁동의
▁명성
▁우라
▁사정거리
▁코미
▁제임스
▁트랜
▁이정
▁카츠
▁쵸
▁패션
스키
▁적응
▁업적
▁그러니
▁기여
▁소스
▁.."
▁거미
▁구사
▁날아오
▁로고
▁타선
▁아일랜드
▁멕시코
▁맥스
워크
▁접하
▁아즈
▁수류
▁판매량
▁소라
▁잉글
▁유통
▁자세히
카드
▁합의
▁타인
▁무방
▁연금
US
▁SH
▁선전
▁잘리
▁스트리
▁잡지
▁집어
▁둘째
▁증언
▁개입
▁빨갛
▁초보
▁상업
▁LI
▁넥센
▁타락
▁드라이브
▁기도
▁법원
▁스웨
▁조연
▁기량
▁고맙
▁취임
▁아쿠
▁EP
▁무라
▁바깥
▁신부
시로
▁다름
▁유물
▁의회
▁북쪽
▁FF
▁울리
▁가짜
▁폴란드
ok
▁루카
▁법률
▁정수
▁찢
▁구리
▁할머니
▁자국
pe
▁수류탄
다이
▁어드
▁출마
▁포격
▁가루
▁차기
▁닭
▁주기
▁전후
▁벌레
미니
▁오사카
▁눕
ace
ave
▁쌍둥이
per
▁복무
▁싱크
▁금속
▁드롭
▁IS
▁깔끔
▁박히
▁펑
▁결성
▁교실
▁화장실
▁인조
ng
▁대개
▁비례
▁똥
▁XX
▁남쪽
▁안타깝
▁위상
ㄷㅡㄴㄱㅏ
▁일방
▁히나
▁포드
▁주식
▁교차
▁기르
▁정착
▁동력
▁승점
▁과장
노우
▁인격
ice
▁독특
▁방어구
▁1991
▁팽
▁새끼
네임
▁흔적
▁라이온
▁구르
▁CV
▁도주
▁주일
▁보고
▁연패
▁도적
▁훗날
▁스마트폰
▁자폭
▁CF
▁포항
▁스프링
▁숭
▁국립
▁스터
▁즐겁
▁잠재
▁그러니까
▁AD
▁공룡
▁블러드
▁ㄹㅐ
▁1988
▁대인
▁부작
OD
▁스텔
▁화학
▁자책
▁남녀
▁공성
▁정치인
ov
▁냄새
▁타수
▁처형
▁튕
▁더럽
▁내세우
▁사라
▁노르
▁강도
▁위대
▁포수
▁상호
▁연승
▁We
▁람
▁크리스탈
▁클랜
▁매니저
▁스튜디오
▁각본
▁클레
ont
▁스페이스
▁패하
▁런던
▁시너지
▁미루
▁비상
▁시노
▁개량
▁추억
▁이슈
▁김재
려나
▁일찍
▁오타
▁아츠
▁트라이
▁귀환
▁놓이
▁간신
랑이
▁혈액
▁후술
▁기용
▁색깔
▁몰락
▁가리키
▁제갈
▁105
▁광역시
▁권한
▁주역
▁행보
▁사신
나카
▁녹색
▁AM
▁일람
▁승률
▁아케
▁사유
▁개막
자드
orld
▁거점
▁지뢰
랭크
▁미스터
▁상술
▁적당히
▁고작
▁너희
▁유대
ies
▁생년
▁히어로즈
▁숙련
▁자막
▁커피
▁DS
▁타로
▁해피
▁카운트
▁학력
▁루나
▁색상
▁코리아
▁길이
▁뜬금
ann
▁어려움
▁시달리
▁흥미
▁실망
▁이중
▁혐오
팡이
▁화성
▁공세
▁계통
블린
▁내지
▁서포터
▁재단
▁금융
▁의대
▁스트라이크
로나
OC
특별시
▁특전
▁제작사
▁인민
▁ㅅㅠ
▁다치
고속
▁펴
▁요금
▁티켓
▁SNS
▁관람
▁디지몬
▁소위
▁다름없
▁ED
▁터뜨리
▁끊기
▁서울특별시
▁차이점
▁영구
▁미터
▁아이언
▁개시
▁릿
▁흡혈
▁아마도
▁구슬
▁세종
▁중량
▁하단
▁배터리
▁CPU
▁국왕
▁뿔
▁면모
▁심사
LE
럼프
▁나치
▁사이버
▁추종
▁칭호
▁쪼
▁기숙
▁어뢰
▁쓸모
▁펄
▁DE
▁세븐
▁아서
▁오크
▁wik
시타
▁오랜만
▁리타
▁스팀
▁단단
▁미묘
▁ㄹㅓㄴ
▁소대
BA
▁보호막
▁중첩
▁오직
▁튕기
▁공공
▁민첩
▁좌석
▁썬
▁생략
▁연령
▁잉글랜드
▁시그
▁히토
▁호수
▁편입
▁증오
▁언더
▁LV
▁애플
▁노벨
▁고구
▁뎀
▁재산
▁단편
▁LC
▁혐의
▁맛있
▁찾아내
▁부지
▁해상
▁워커
▁타율
▁치루
▁상단
▁들키
ber
▁NE
▁십자
로디
▁총알
ys
▁하차
▁실전
시스트
▁네트
▁신사
▁연예인
▁오라
▁가만
▁지경
▁휴식
▁메리
베르
▁펌
▁중국어
▁SE
▁익스
▁탈퇴
ION
▁가요
▁협상
▁189
▁아저
▁마약
▁후배
▁딜링
▁그만두
▁예언
어마
▁카카
▁아저씨
▁모노
▁쿼터
der
▁기관총
▁임대
▁정화
▁수장
▁your
▁오마
▁네오
▁덧붙이
▁언스
저스
aw
▁상인
▁용량
▁문구
▁동쪽
▁막대
▁드럼
▁혹시
▁곤란
▁예산
▁이익
60
▁3000
▁구석
▁강자
▁어마어마
▁흘러
FF
려들
▁눈치채
▁큐브
▁수호자
바르
▁BPM
▁턱
▁캠프
▁떨어뜨리
▁EN
▁공방
▁소장
▁원주
▁It
40
▁하루카
▁악당
▁잠수함
▁강요
▁개혁
▁김현
▁진보
▁인치
▁총리
▁찬스
▁굿
▁원칙
▁부각
▁용서
ream
이너
▁자극
▁메달
사자
▁학자
▁포르투
▁금방
ike
▁원문
▁표지
▁엿
▁칼리
▁상실
▁틸
▁기울
▁Com
▁루이
▁125
▁저작
▁데려가
▁교류
▁엑스트라
▁미쿠
▁앨리스
나미
▁결전
▁포로
월일
▁모토
▁가을
▁타운
▁집행
▁상관없
술사
▁활발
▁1989
▁카와
▁자전
▁뱀파이어
▁로리
▁서번
▁ㄷㅓㄴㅈㅣ
▁유효
▁도루
▁마디
▁중립
▁엘리트
▁PV
▁신앙
▁입지
▁채팅
▁서번트
▁찍히
▁저렴
▁잡아내
▁제트
가스
▁깨어나
▁일족
▁칼날
▁생년월일
▁낚시
▁묘하
▁마그
▁기생
▁얻어
▁화물
▁메시지
▁며
티아
▁후계
▁사명
▁루비
▁UP
iss
▁요약
▁사형
▁무척
▁이끄
▁헬기
▁미즈
▁ww
▁사귀
▁담배
▁첩
위대
▁피터
▁위원장
▁복지
▁정예
▁힌
▁구축함
▁행운
▁동아
▁안녕
▁간신히
▁일본인
▁대학원
▁순환
▁딜레이
▁짜증
팩트
▁조이
▁터널
▁존재감
▁거울
▁바이오
▁레알
▁재밌
▁캐스터
▁텍스트
▁라면
▁그랜드
▁끈
▁엮이
▁나리
▁무렵
▁최신
▁추구
▁테라
▁잡아먹
▁피아노
데이
▁엔젤
▁www
▁AS
▁주자
▁불사
▁BL
▁음모
chor
▁철학
▁커다랗
▁가동
▁성남
▁도둑
30
▁부딪
▁애정
▁부스터
▁무역
▁착하
▁반전
ian
▁영주
▁지라
▁공용
▁태평
▁거듭
▁격추
▁->
▁기구
▁서쪽
▁사원
▁참석
▁모니
▁생겨나
▁고개
▁심심
라기
▁유나이
걸이
▁공허
▁잔뜩
▁기숙사
▁알렉산
▁체중
▁비치
▁드래프트
▁통산
▁비서
▁주차
회사
io
▁해골
▁부적
ㄹㅐ
▁이집
▁유나이티
▁분신
▁취약
▁이집트
▁초록
▁플라이
무르
▁CJ
테르
▁준우
▁언젠
▁Pro
▁ㅅㅗ
▁언젠가
▁휩
▁명단
▁붓
소녀
말리
▁하츠
▁스펠
▁탄환
▁궤도
▁윌리엄
▁이토
▁that
▁종목
▁베리
▁훼
▁우르
▁상기
▁확대
▁걸어
▁씬
▁나츠
▁교황
▁유적
▁되돌리
▁경로
▁토벌
▁브루
▁분대
▁쭉
▁글로벌
게임
▁밍
▁왠지
▁악명
▁말투
▁출입
▁Fl
▁페널
▁복구
▁업로드
▁권리
▁이식
하면
▁발리
▁코멘트
0000
ory
우마
▁조리
▁1970
▁건조
▁은신
▁도박
▁외계인
▁식민
▁트랜스
▁대선
▁옳
▁난입
▁레딧
정부
▁Br
▁장탄
▁간접
▁아미
▁;&
▁anchor
▁형상
▁연맹
▁헤어지
▁와일드
▁레슬
▁시라
▁건드리
▁디스크
▁신전
▁양성
▁하향
▁윗
▁ㅌㅣ
▁천하
▁발달
▁소유자
▁끔
▁적합
가리
▁구글
▁연극
▁드라이버
▁이펙트
▁얀
▁라이플
▁도라
▁일치
▁꾸미
▁이드
▁이수
▁흰
▁김대
▁WWE
▁릴리
▁아메리카
▁그램
▁미키
▁제약
▁알아내
▁&#
▁전이
▁뿜
▁해치
▁동인
▁유독
▁천만
▁마주치
▁팬텀
▁가방
▁크림
▁사후
▁화재
IP
▁명확
▁내보내
▁쏟아지
▁정황
▁로얄
▁그르
▁매장
▁주택
▁강점
▁할인
▁리뷰
▁170
▁띠
▁인디
IG
UM
▁Or
▁빠져
▁울프
▁리스크
▁곳곳
포트
▁헌법
▁비주얼
▁아키라
▁이민
▁운동장
▁딕
▁하이퍼
▁문단
VD
▁저택
▁셜
▁마블
▁다이아몬드
▁단축
▁le
▁렐
▁끔찍
TE
▁실책
▁을
▁보완
▁그럭
▁조별
▁암시
▁야수
▁웃기
▁메이드
▁웨이브
▁치즈
저럭
▁by
▁테츠
▁어필
▁박물
▁플래시
▁충실
▁평생
▁1987
▁승객
▁언덕
▁금액
▁그럭저럭
▁자이언츠
az
어하
▁걸맞
▁원자
▁~!
▁새기
▁만남
▁호기
▁샌드
▁Dr
▁헤어
▁비스
oth
ep
▁여우
man
▁뻗
▁상영
▁;&#
▁항공기
▁고위
▁백성
▁등지
▁승자
▁뽑히
▁파편
▁스웨덴
▁스크린
▁토너
OU
▁덩치
ale
▁딴
▁치킨
▁록맨
▁출격
▁감각
데미
▁불펜
▁구미
▁허락
▁위반
▁시합
▁토니
▁성립
▁OP
▁트롤
VA
▁매년
▁답변
▁권장
▁입대
▁평점
▁기동성
▁상식
▁마법소녀
▁축복
▁뛰어넘
▁에르
▁필리
▁잃어버리
▁넘버
▁시원
▁안기
▁깔리
▁니스
ky
▁문재인
▁꼼
▁킬러
비드
▁흩
▁보드
▁스테이
▁대수
▁부자
▁호칭
▁유학
▁급격
▁미네
▁서구
▁동성
▁플래그
arg
▁RPG
▁꿀
ach
▁아카데미
▁스폰
▁견디
▁일대
▁스즈
▁사살
70
▁적중
▁참가자
▁배트맨
운서
▁우에
▁아나운서
▁긴장
▁토마
▁낮추
▁관할
▁기인
▁집착
▁Sc
▁탐험
▁신나
▁노바
▁시공
▁싫어하
▁작년
▁1500
▁퇴장
▁곱
▁중형
▁열매
▁구름
▁전주
ows
▁창고
▁교과
쟁이
▁헐
▁어판
부르크
▁사키
▁맷
▁해명
▁5000
▁학기
▁리플
▁근거리
▁지치
▁내전
▁휘말리
orm
▁실종
▁법인
▁케인
ㄹㄱㅔ
▁결합
▁뜨겁
▁서서
▁정기
리나
▁고도
▁용인
▁채보
▁팟
▁선고
▁111
▁믹스
▁약화
▁Team
▁타쿠
▁분명히
ish
▁토너먼트
무시
▁완결
▁그렇지만
갈리
스럽
▁경직
▁천안
▁호시
▁해안
▁결투
▁페이스북
▁KBO
▁전승
▁BB
▁결심
▁야생
▁싹
▁기운
▁}}
▁센스
▁호흡
▁발렌
ae
ㄹㅏㄴ
▁정차
▁헝
▁랄
군다
GE
▁생명체
▁럼
▁마스크
▁막내
▁흑인
▁암살자
▁감추
▁본사
▁동아리
ook
▁솜
거지
▁내일
▁동점
▁박물관
▁베타
▁불교
▁엔드
▁변환
▁보이스
Hz
▁악몽
▁슬라이
▁커녕
▁스위치
ug
ade
▁본진
▁연습생
▁수능
▁와타
▁연합군
▁지팡이
▁우정
▁두들
▁마우스
▁파르
▁괜히
▁줍
ile
▁면적
▁지위
▁소음
▁침묵
▁가라
커스
▁FIFA
yle
rom
▁사용자
▁장인
▁뮤지컬
▁근본
일보
▁크레
▁침입
▁키타
▁초인
▁유발
▁침략
▁통계
irl
▁동급
▁솔직
▁ㅣ
ash
▁관리자
ower
▁망가지
▁한쪽
▁밀어
▁대왕
▁트리플
▁서클
▁유력
▁참모
▁통화
▁부실
▁지진
▁wiki
▁무작위
아다니
▁타석
▁영광
▁CH
▁1986
▁임팩트
ink
▁법정
▁우타
▁선두
▁출구
▁유격
▁사인
▁프리미엄
▁소방
▁돌입
▁갈아
▁FW
프리
▁CG
▁노스
▁인피
데드
반도
▁수급
▁수비력
▁가죽
TS
▁디젤
▁리카
▁지불
▁마물
▁가디언
atch
▁채택
▁무시무시
IM
▁간간
▁스쿨
▁언데드
▁재정
▁대거
▁허가
▁세팅
▁삽입
▁보험
▁폐쇄
▁썬더
▁철수
▁토시
▁콜로
▁신발
CG
▁창원
▁벙
▁DD
▁교도
▁안개
▁히라
▁무관
▁핑크
ial
▁포켓몬스터
▁감지
▁균형
▁물리치
▁남북
sh
▁싸이
▁바디
▁we
▁통치
▁몽골
군다나
▁경남
▁임신
부로
▁고블린
▁비전
▁판결
펴보
▁인방
▁살펴보
머스
▁인력
▁격차
은행
▁속이
▁배포
▁기름
▁리프
▁막판
▁텟
▁War
▁인종
▁질리
그리
▁항복
▁관계자
▁더군다나
센트
여객
▁트럼프
▁ID
▁철저
▁여주
▁인질
▁이타
▁제정
▁급하
▁스파이더
▁Star
▁쿠라
▁단원
▁행하
▁인용
▁체인지
▁아틀
▁코르
▁의외로
래시
▁바쁘
▁남매
▁이혼
▁김경
▁출루
▁존경
▁골렘
▁고구려
▁복선
▁투스
▁여러분
먼스
▁개설
전차
▁106
▁복제
▁중복
▁후계자
ㄷㅡㄴㅈㅣ
▁팁
▁메이플
▁유인
▁일본군
▁읍
▁끼우
▁LA
▁동양
▁두르
▁오늘날
▁반박
▁동명
코드
▁예수
▁수면
▁놀리
▁영원히
▁백인
▁이글
▁학습
▁포위
▁일당
▁에픽
▁매번
▁스트레스
▁그린
▁캐치
▁준우승
▁처지
▁포르투갈
▁챌린지
▁선행
▁소송
▁아테
카이
▁국당
▁up
▁지리
▁무사히
▁레지
▁미나미
▁장신
필드
▁해머
▁기세
오루
천시
▁물고기
태우
▁수출
▁토크
▁물량
▁오디션
▁DVD
▁갑작
▁마다
▁깨달
키지
▁펼쳐지
▁PR
▁ㄴㅗ
▁슬프
▁네트워크
다보
▁미만
▁닉네임
▁날카
▁피우
▁탕
▁보충
▁보건
▁기상
▁라라
▁멜로디
▁개업
▁대책
▁뽀
▁버섯
▁어이
▁시크
▁ON
▁115
▁코난
▁이주
▁오키
▁오우
▁간단히
▁전북
▁하마
▁102
▁코트
▁나미
▁축하
▁상한
▁중력
▁피닉스
▁정통
티스
▁배정
▁패키지
▁단행
▁상담
▁입주
▁가만히
▁왜곡
▁메이커
▁포즈
▁분열
ING
▁공업
▁체험
▁fe
▁오메
▁수석
▁뭉치
▁데이트
▁부드
▁장탄수
▁즉사
▁기동전
화점
▁야마토
▁웰
ous
▁Ne
▁여전
▁악기
▁해내
▁배역
amp
▁For
▁벨트
▁잠입
▁혼돈
▁날카롭
▁ㅁㅗ
▁만만
▁기재
▁플러스
▁후원
▁벼
▁트릭
▁고리
att
▁마드리
▁처분
▁해킹
▁}}}
▁서포트
▁진압
▁사령부
▁자전거
▁리오
▁Go
▁아랍
세대
▁콘텐츠
▁장거리
▁And
▁선제
▁닛
▁항의
▁야구장
▁퍼포
▁정발
▁퍼포먼스
▁돔
자와
▁유산
▁마드리드
▁꿰
▁둘러싸
게이
▁기갑
▁파이트
▁대포
▁GP
▁성전
▁175
▁억지로
▁부드럽
▁도감
야수
▁라그
▁세부
▁수백
▁자본
▁Cr
▁호랑이
▁블라
▁악화
▁사이코
▁수명
▁파멸
▁오스트리아
▁Wind
▁토키
▁파동
▁가공
▁모시
▁유미
▁188
▁주니어
▁탐정
▁신입
▁분쟁
▁통로
아키
me
▁젤리
▁김상
▁뽑아내
▁옹호
▁파생
하시
▁첼시
▁1985
▁wid
▁배달
▁".
▁모험가
▁디즈
▁이스라
▁무술
▁머무르
▁대치
ms
▁조약
▁세포
▁우세
▁분해
▁잠들
▁모터
▁산하
▁전제
▁최상위
크로
▁궁금
▁유성
▁프레이
AY
▁광선
▁진주
바닥
▁공정
▁논의
▁bl
64
가드
▁시트
▁기력
▁노조
텐도
▁장미
▁차체
▁닌텐도
▁마코토
▁무스
▁재회
▁터스
▁강원도
▁위안
▁박지
▁버드
▁나비
▁처참
▁부착
▁규격
▁증폭
▁후손
▁체감
▁width
▁김진
▁진학
▁부서지
▁조우
▁레일
▁깜짝
▁아르헨
▁al
12
ib
▁행방
▁여학생
ft
▁롬
▁그날
▁나르
▁350
▁즈음
▁Gam
▁히가시
▁고로
▁계시
▁나기
▁양상
▁드루
▁아동
▁업계
▁리온
▁다가가
▁독재
now
▁니콜
▁조기
▁시카
▁검술
▁PP
▁방치
▁휘하
▁BS
▁훈장
▁전파
▁주둔
▁카구
벌레
▁난사
▁개발자
▁파란색
▁IN
▁끌려가
▁아르헨티나
▁경주
▁베네
아이
▁반부
▁무인
▁폭행
ps
▁스트리트
▁브레
▁듀오
▁건네
▁공수
▁전동
▁톨
oll
▁페널티
▁비웃
▁스탠드
▁방송국
비전
▁BR
▁만지
▁한두
▁측정
MP
▁관점
▁소요
▁토큰
▁기원전
▁전무
▁1984
▁Man
렐라
▁감상
▁제독
어놓
▁AKB
▁이온
▁운수
▁베테
히코
▁국판
▁세인트
▁질투
▁몫
▁중세
▁능력자
▁고장
▁김기
▁산탄
▁중장
▁오염
▁택시
▁면허
▁지사
▁승무원
승부
▁시상
▁조커
▁루스
▁감싸
▁왜냐
▁마냥
▁이라
TV
▁최적
pl
▁우치
▁UN
▁All
▁기쁘
▁유니크
▁뚫리
▁불량
▁드론
▁부사
▁이스라엘
▁혈액형
▁후자
▁닝
▁감동
▁루머
▁나루토
▁피트
태프
▁트루
▁위성
▁아레나
▁선거구
▁대단히
▁코마
▁Part
▁이종
▁기장
▁스텝
▁스캔
▁약탈
▁브로
▁도저히
▁신도
▁디바
▁아시안
리스트
▁KR
▁발목
ㄹㄹㅐ
▁SU
▁주행
▁창단
▁티아
▁자꾸
신교
▁추리
▁베기
▁광장
▁에디
▁뒤지
▁En
▁반짝
▁하하
▁바론
▁112
▁상관없이
카락
▁다운로드
▁철권
▁우월
▁룩
▁머리카락
▁샷건
▁루이스
▁분당
▁자비
ond
세서
▁후퇴
▁명의
▁Sup
▁루크
▁붐
▁까이
▁식민지
▁연고
▁왕위
번에
▁프렌
▁DC
▁나노
▁야간
▁일화
▁Fate
▁서서히
▁줄거리
경기
▁둠
▁아가씨
▁Mar
▁과도
▁노가
▁소용
▁대시
▁제출
▁기둥
▁토미
▁더빙
▁라이너
▁벌리
▁자녀
▁아쉬
▁투척
▁타이거즈
▁돌연
▁쇼핑
▁ex
▁공백
▁원리
▁ㄷㅓㄴㄱㅏ
▁간호
▁뻥
▁엑시
▁듀스
▁LP
▁루피
▁캣
▁드림
▁굵
▁108
▁마감
▁AN
▁요인
▁힐러
ase
▁수월
▁라이온즈
▁보존
▁전망
▁꼬이
▁중시
▁특급
▁고증
데레
ool
▁이란
▁틴
▁조롱
▁철거
▁조용히
▁합계
▁오락
도리
▁sp
▁프란
▁얻어맞
▁온천
키퍼
▁절차
▁장사
▁시바
▁평일
▁쇼크
필더
▁닐
▁미드필더
▁배급
▁스리
▁360
▁며칠
▁시외
▁무산
▁수동
▁합병
▁식품
▁원조
▁백작
▁비명
▁배드
▁생애
▁117
▁모로
▁저하
▁이나
유럽
▁긴급
▁범죄자
▁시신
▁주류
▁타일
▁안양
▁One
▁유재
투스
▁걸즈
▁마계
▁킷
▁고객
▁와카
▁막상
▁잠실
우치
▁인권
런트
▁오이
▁세라
우리
▁실장
▁꼬마
▁청와
▁스포일러
▁뒤늦
▁우유
▁복합
▁에릭
▁빅토
▁샤이
▁지칭
블로
▁에반
▁여인
▁카시
▁확장팩
▁러시
▁증상
▁낙하
▁발굴
▁로빈
▁수색
산시
▁실은
▁방위
▁직장
▁아아
▁어시스트
▁강림
▁교단
▁공인
▁골키퍼
▁바스
▁코스튬
▁호소
▁팡
▁의자
▁성당
▁예고편
ree
ph
▁청와대
▁만일
▁로이
▁개별
▁배수
▁부임
▁택하
▁기묘
하르트
▁경악
▁여고
비치
▁임금
▁뱅크
▁청주
▁넘어지
▁포스터
▁As
▁남아
▁고소
▁폭파
플레이
▁유의
▁히든
▁교복
▁New
▁ㅇㅗㅂ
저리
▁거북
▁로버트
ason
▁하이라이트
▁그라운드
▁살아나
▁개장
▁학생회
▁꽉
▁나폴
카이도
▁때려
aby
▁당당
▁뱃
▁국경
▁막아내
▁리즈
▁통틀
▁특별히
▁Oh
▁프린세스
학자
▁헨리
▁103
틀러
▁케이드
▁여객
▁도트
▁아이러
▁퍼즐
ai
▁GO
▁조명
▁FM
▁수염
▁오로지
▁선사
▁실존
▁회담
도르
▁렌즈
▁JP
▁흰색
▁트레일러
▁비스트
불호
▁호불호
▁술사
▁개신교
▁둘러보
▁ㄷㅜ
▁그레
▁후회
▁모집
▁집어넣
▁220
▁휠
릴라
ment
▁에로
▁사야
베스
▁금메달
불명
▁사리
▁쓸데
▁명백
▁헷
러그
▁뜬금없이
▁보라색
▁극도
▁시로
▁양손
▁1960
크라
▁엎
▁마케
▁매출
▁유기
▁역습
▁끊임
▁CS
▁동경
▁되살
▁오더
▁캘
▁관찰
▁부동
▁성질
▁올스타
리온
▁z
▁바지
▁프로토
▁라즈
나오
▁라크
▁유언
▁트레이너
▁비틀
▁240
▁모듈
▁셔틀
▁불행
▁어쩌면
▁되게
▁심의
▁tv
▁원곡
▁UE
oon
▁캐시
▁윈드
▁코미디
▁회색
▁오브젝트
▁과학자
▁우주선
▁타르
▁샵
▁un
▁128
▁타이탄
▁장로
에이
▁초콜
▁웨스트
▁묶이
▁지인
▁법칙
▁항구
키아
▁손상
▁나스
▁여파
▁이와
마크
MS
90
돌이
▁에서
▁드로우
▁결계
▁물품
▁부딪히
▁연봉
▁홀드
▁포탄
베이
▁폐기
▁이글스
▁지향
▁풋
▁우즈
▁비유
▁태평양
act
싱턴
ox
▁유망
▁유출
▁김용
▁정반
▁광산
▁건국
▁엘리자
▁세뇌
▁국정
▁갤러
▁각오
▁무승부
ARD
▁손실
ㄴㅑㅇ
▁신선
▁제네
▁맥주
▁진격
▁코믹
▁중순
▁슬로
▁워크래프트
▁알라
▁국장
▁포장
▁무공
▁장판
▁브라운
▁즉위
라노
hen
▁패전
▁임기
▁트랩
▁늙
▁랑
▁우드
▁따뜻
▁엄밀
▁%/
▁치열
▁두렵
▁TVA
▁모스
▁클론
▁단기
토스
▁제갈량
▁네티
▁붙잡히
▁짐승
▁서머
▁아바타
저기
▁날뛰
▁스핀
▁노동자
메이
▁쿤
▁섀도우
▁최우
▁탐지
▁깎이
▁반감
▁달려가
ank
▁커스텀
▁영지
▁계수
▁사이클
ㄹㅣ
▁로이드
▁이웃
▁넘어서
▁트로피
▁하스
▁관통력
▁라틴
▁리안
▁튼
▁박살나
▁하프
▁함부로
▁간주
▁World
▁여기저기
▁기수
▁양자
▁두들기
▁트리거
▁신데
▁신용
ich
▁독점
▁배려
▁소프트웨어
ary
lect
▁원더
▁이모
▁일요일
▁김준
▁레온
▁키라
▁사립
▁단종
▁방탄
▁알렉스
깨비
▁백제
▁스나이
▁콤비
▁생전
▁지연
▁합리
▁JT
▁챔피언십
▁디즈니
▁장난감
▁프라임
▁토요일
▁안심
▁1982
▁당대
▁Mk
▁신자
▁옐
ife
포르
▁단검
▁트라우마
▁여럿
▁대조
▁날씨
더라
▁흔들
▁후미
▁야쿠
▁태국
▁빨간
▁시인
ear
▁아이러니
▁신데렐라
▁우익
▁벤치
▁카더라
▁방송사
▁휴가
▁상륙
뻐하
▁기뻐하
▁네티즌
ㄹㄹㅕ
uk
▁센서
▁신속
▁리버풀
▁마땅
에르
▁손오
▁혜택
▁ㅁㅓ
하마
▁음료
블리
반기
▁스트라이커
▁시비
▁서바이
▁LIVE
▁스피릿
▁밀어내
▁서기
▁쉴
ET
렉션
아치
▁디시
▁동속
려받
란히
▁도장
▁SF
11
▁선임
▁추세
▁수습
▁파밍
▁실내
▁라스트
▁키보드
▁사법
▁버스트
▁슬라
▁ㅅㅕ
▁근원
▁의학
▁막강
▁김해
way
▁185
▁탭
▁all
▁권유
▁Day
ple
타카
▁벡
▁낙선
▁변수
▁결제
▁순양함
▁시리아
▁상사
▁지목
▁쳐들
▁허무
▁권위
▁전남
키리
사기
▁Fr
▁지력
▁경북
▁끓
▁니혼
▁흡사
▁독일군
▁기호
쿠라
▁마카
▁1983
▁실시간
▁후임
하나
▁쓰리
▁구조물
▁샬
▁갚
▁약물
사리
▁배출
▁표면
▁스타디
▁나아지
▁빠져나가
▁{{{#
▁엽
▁추방
▁후반기
▁lv
▁울트라맨
ype
▁로보
▁드레스
▁토하
▁얽
▁파울
▁선장
노리
▁극히
▁창설
싸움
▁논쟁
▁근접전
▁매니아
▁경호
▁당사자
▁패밀리
▁유전자
▁포획
ens
▁nd
▁119
▁유혹
▁짐작
▁역임
▁페리
▁조상
숭이
▁끌리
▁성배
▁간간히
▁차갑
aster
▁진상
▁도리
▁태클
▁당기
▁강사
▁정석
▁침대
▁원형
▁소모량
orn
ork
▁MB
▁합동
▁시온
▁go
▁범용
▁좌절
▁베어스
▁감수
▁물체
▁전생
▁비극
▁돋보이
▁페어
▁백화점
▁마피아
▁비비
▁조르
▁DP
▁DPS
▁손오공
▁지선
▁123
▁구동
▁104
스티벌
▁페스티벌
▁부스트
▁연구원
▁특공
▁ㅅㅕㄴ
▁퀵
▁Wi
▁출혈
▁사무소
▁해병대
▁중상
▁Ad
▁Sw
▁are
▁빌딩
▁마트
▁미궁
▁쏠
▁집권
▁콘솔
▁RA
▁설령
▁튼튼
▁OVA
▁Up
▁홀리
▁특별시
▁낭비
▁엑시즈
▁동남
▁다투
▁거스
▁삼각
▁수직
▁피로
ans
▁변태
▁style
▁명목
▁질병
▁109
▁생체
▁단행본
▁의장
우트
▁정교
▁스태프
▁헤르
▁래퍼
▁한반도
ons
▁바나
▁복원
▁오메가
▁미미
▁가두
▁토요
▁전날
▁강렬
▁질주
▁AA
▁빨간색
▁스즈키
▁개국
▁사악
▁호남
▁엄격
사이
▁쨩
▁do
▁베테랑
▁닷
ey
▁탐색
▁KOF
▁관측
▁오지
버그
▁땡
▁직선
▁하인
▁동행
▁케이블
▁젖
▁공대
▁실상
▁공감
▁제치
▁배제
very
▁ㅈㅠ
▁제물
▁대타
▁리코
▁도깨비
▁브레이커
▁넘어오
▁스플
▁데이비드
ung
▁약자
▁III
▁본관
공항
▁디펜
▁ES
▁양반
▁우측
▁페미니
▁본토
▁센트
▁장성
▁거칠
▁블로
▁따라오
▁스테이션
▁총합
▁진급
▁위로
▁ㅇㅡㄹㅅㅜ
▁변동
▁쌀
▁연쇄
▁무실
NA
▁바둑
▁광기
▁메리트
▁앰
▁마타
▁히로시
▁잉여
▁전격
▁UEFA
▁관여
▁라그나
▁우호
▁해양
▁밀려나
▁거론
▁전락
타입
▁오노
▁코토
▁선조
렉스
▁스타디움
▁단발
▁앗
▁워싱턴
브라
▁되돌
EM
▁군수
▁고무
▁유탄
▁위엄
▁메일
▁프리미어
▁여의
▁그랑
▁촉수
▁훼손
▁구장
나기
▁에이지
▁역명
▁하급
▁아스카
▁논문
▁엇
anc
박스
▁축소
▁친절
▁리모
능력
AK
차기
▁트윈스
▁할로
▁세금
ll
▁응용
▁마술사
▁손쉽
▁스와
▁스위스
▁장애물
▁백업
▁중지
▁대박
▁한창
▁마오
께끼
▁수수께끼
▁벅
▁Windows
▁인재
▁데빌
▁치카
▁카를
▁민주주의
▁경상북도
▁노란색
▁긁
▁ne
▁성실
▁코바
▁확산
▁징역
▁원피스
▁최저
▁짙
▁구성원
▁제왕
체스터
▁수비수
▁워크
▁재학
▁키미
▁어색
▁박살내
argin
▁강호
▁겜
ㄱㅜㄴ
35
▁땅볼
▁명문
▁소니
▁취업
▁as
▁안쪽
▁카카오
▁미지
▁초콜릿
▁돌보
▁천연
▁란스
▁형편
▁대행
▁윈도우
▁힙합
▁노가다
ero
▁깃발
▁츠카
▁빈도
▁메카닉
▁이현
▁en
▁우승자
▁산타
▁포터
▁공통점
▁강등
▁승차
▁유료
▁역량
▁자네
▁여타
▁과자
▁딸리
▁고스
▁Station
▁껍
▁온도
▁중고
▁썸
▁우회
▁레이디
▁인자
▁폴리
▁구독
▁통칭
▁드래곤볼
▁창문
누스
▁젬
▁Ph
▁187
▁티스
벤처
▁나나
▁전당
▁렉스
▁유망주
▁Qu
▁분산
▁어드벤처
▁margin
▁바르셀
oss
▁LO
▁바르셀로나
▁no
▁취득
▁리퍼
▁부작용
▁책임지
▁시상식
▁농장
▁마유
▁성씨
▁수인
▁퇴각
▁이병
▁끌어올리
▁So
▁엔지
▁스미스
루미
지막지
▁무지막지
▁불쌍
모스
▁동반
▁발판
▁올드
▁대령
▁파도
▁크레이
▁루프
▁화산
▁굴욕
▁클린
▁로맨
▁급행
▁발행
▁봉쇄
▁135
▁다이스
▁스노우
▁블레이
▁번지
▁ML
▁레이어
▁210
▁평하
▁그립
ise
▁관우
▁발키리
▁최선
▁츠바
동자
▁카마
port
▁규제
pt
▁빙판
▁렘
▁대접
▁요한
▁매드
▁121
▁터트리
니시
▁원시
▁공단
▁주사위
▁소재지
99
▁진에
▁사족
▁어벤
▁머니
▁타치
▁후드
▁오스만
▁결혼식
▁표절
▁변이
▁챔프
ical
▁평양
▁공산당
▁잔인
AP
▁국무
▁대전차
▁톡
구장
▁천천
▁미오
▁특훈
▁잊히
▁손님
▁경연
▁107
▁겔
▁손꼽
▁와이번
네마
▁아베
▁예약
▁Ver
▁쿵
▁황후
▁카리스
셔널
▁피카
▁선출
▁스케일
▁이대로
▁검열
▁쯔
▁가난
▁씌우
▁어나
▁블리자드
구미
▁스택
▁시사
▁개척
▁열혈
베이터
▁페어리
▁수지
▁신중
▁외우
▁강간
▁게이머
▁MG
▁목걸이
▁1981
▁아깝
▁여포
▁뮌
▁패자
▁사로
▁엔트리
▁김수
▁캄
▁인과
▁호크
▁인칭
▁스타리그
▁어나더
▁와인
▁꿈꾸
▁시외버스
▁난무
▁여섯
▁신동
▁프랑스어
▁멍청
ign
▁주체
루션
모함
▁사체
▁이라크
▁침투
▁저렇
리스타
▁--
▁!"
▁간지
▁왼손
▁마인드
▁쇄
▁천천히
다운
▁교토
▁기부
▁광물
▁강경
▁대성
▁퍼스트
▁pl
▁강민
베리
▁주관
▁지수
▁김지
▁서식
▁점검
▁세리
▁이순
게이머
▁프로게이머
▁케빈
▁슌
▁워프
▁사관
군가
▁사수
▁끊임없이
▁기리
▁부재
테이션
▁love
▁미정
▁폭스
으로
▁지오
▁그레이트
▁스컬
▁트윗
▁압권
▁소금
▁조종사
▁제재
▁이노
▁타츠
▁모니터
하루
▁출간
▁불태우
▁미러
▁혈통
▁모델링
▁파랗
▁김승
▁소통
▁동해
▁큰
IR
▁누군가
▁레인지
▁루리
▁무용
▁스티븐
▁프론
▁선진
▁고시
▁중거리
gh
▁미국인
▁토지
▁레시
▁TR
▁Sk
▁평론
▁첸
▁철갑
스레
테일
▁해산
▁덤비
▁답답
▁크라이
▁끌어들이
센스
ail
▁요미
▁맞붙
▁페스
어드
▁임의
▁헷갈리
▁아스트
▁math
▁경찰서
▁첫째
▁186
▁용자
▁망토
▁사사
▁장타
▁리나
바나
▁엄연히
▁폭격기
▁너머
▁냉정
▁이경
urn
▁흙
▁명분
▁개교
ode
▁점유
▁주최
▁라이즈
▁날아다니
▁구별
▁러스
▁도어
▁친분
▁실사
▁마산
▁중동
▁재개
▁플랜
▁상무
▁오죽
▁자존
VER
▁ㄷㅚ
▁유니버스
▁Super
▁감탄
▁JTBC
▁보좌
ence
▁To
▁알바
민주
▁연산
▁화상
▁공격수
▁자제
▁(
▁크래프트
▁카레
▁풍부
▁중위
▁고속도로
▁하여
▁항공모함
▁이대
▁트릴
▁122
▁고사
추어
▁비기
▁외곽
▁국제공항
▁Dream
▁사퇴
▁열정
▁ㅇㅡㄴㅈㅣ
▁스폰서
▁BJ
틀랜드
▁본능
▁질서
▁초능력
▁="
▁공속
▁EC
▁에디션
▁웜
▁코노
▁삼성전자
▁LE
▁영감
▁정신력
▁물어
▁검정
▁그릇
▁불능
▁유입
▁애칭
!!
▁박성
▁지부
▁우울
▁맹세
▁마일
▁내버리
▁시타
▁쫒
▁EXP
▁인벤
▁라이언
▁하나하나
▁출범
ier
▁어이없
▁홋
▁김유
▁뉘
라미
▁변장
▁몸통
▁리틀
▁비리
바지
▁까마
▁원숭이
▁우마
▁까지
배우
▁김포
▁어설
▁동정
▁유연
▁광명
▁민국
▁찬성
▁기본기
▁법사
의자
▁고집
▁중점
▁하치
▁1979
이동
IX
▁카쿠
▁납득
▁곡인
▁평상
▁기스
▁템플
▁에버
▁엘리베이터
▁워즈
▁카자
▁쉴드
▁145
ble
▁왜냐하면
▁아쿠아
▁극대
▁벙커
▁사무실
▁근대
▁유치원
▁로키
▁엘레
▁체결
▁마모
▁브라더스
▁창작물
▁닦
▁장례
▁도색
▁히틀러
▁쿠마
▁올바르
▁춥
oun
▁박수
▁꺼리
▁만능
▁광경
▁무제
▁카네
▁갑작스럽
▁멋대로
▁매주
▁총장
▁스가
▁Ap
▁NO
▁블럭
▁부천
iver
▁can
▁청구
▁작정
▁토트
▁워리어
▁퍽
▁113
▁롤러
▁이어받
▁모임
▁튜버
워즈
이나
▁165
▁다지
▁부스
▁쿠니
▁가이드
▁비키
▁할리
▁씨앗
▁부근
이치로
▁후일
▁왕복
▁일가
▁펭
▁헬멧
▁ㄱㅜㄴㅇㅛ
ott
▁IM
▁확신
▁출산
▁암호
▁투쟁
▁학급
▁테이블
▁마운
▁호러
▁풍선
▁조카
▁무실점
▁144
▁동전
▁슈퍼맨
▁슬픔
▁이누
▁글씨
▁터보
▁복사
▁실현
▁레이블
▁만주
▁이카
▁인접
▁고등학생
▁명사
▁스쿼
▁히스
▁방심
▁유격수
▁마라
▁IT
▁헝가리
▁부시
▁1950
역사
▁브라이언
▁쳐들어
▁항모
▁상주
▁ATK
▁포탈
▁병역
▁Max
▁155
▁케이크
▁운송
▁기차
▁CM
▁아처
▁재앙
▁아지
▁이이
▁유우키
▁사연
▁닥치
▁엄밀히
▁니아
▁리가
▁손자
▁변명
▁생김
페라
▁각인
리안
▁검증
▁세로
▁노무
▁타구
▁연수
▁ERA
▁시뮬
▁at
▁카지
▁젼
▁엉망
▁넬
▁BD
▁몰살
▁사투
▁114
▁철저히
▁알레
uck
▁방학
▁인성
▁연전
II
▁신지
자치
▁상금
▁영양
oh
▁조국
▁독일어
▁히카
▁절친
▁츤
진호
▁승인
▁시크릿
▁페르소
폭탄
▁통째
페이
▁화폐
코트
▁입문
슬라
▁바쿠
▁제니
▁유재석
▁유메
▁쿠데
▁일곱
▁집회
▁흩어지
▁유카
▁햇
▁품질
▁현금
야시
eah
▁엔지니어
▁매트
▁원전
▁천장
아들
▁목사
▁옥상
▁사나
▁스틱
▁다큐
▁아무튼
▁양식
▁제리
▁마음대로
▁동대
▁스나이퍼
▁간섭
▁친애
▁이케
▁GK
▁전동차
▁사로잡
▁리본
▁쿠스
▁할로윈
지르
▁티저
▁초록색
▁쫓겨나
▁우연
▁함락
▁750
▁달려들
▁솟
▁스카우트
▁수위
▁시모
▁멧
▁샐
▁뮌헨
▁혁신
▁오렌
▁개구리
▁용암
▁호드
▁너스
▁감자
▁코스프레
▁깊이
▁메트로
주교
▁궁합
▁스피어
▁죄책
▁정문
▁손꼽히
▁아자
▁기동력
▁전향
▁참사
▁성경
▁사무라이
가루
끼리
케이션
▁this
▁페르소나
▁마당
▁비우
네시아
▁..?
방송
▁승진
bs
▁토대
▁거지
▁부패
int
▁종결
▁최순
▁녹화
▁아드
▁스티브
▁디자이너
▁시게
▁Season
변이
▁화해
▁돌연변이
▁평행
▁오니
▁알아채
▁이놈
▁토우
▁미르
▁ㅅㅑ
▁450
▁AB
▁러쉬
▁이력
▁OS
▁HE
▁아오이
▁자율
▁협의
▁아리아
▁만점
▁정반대
▁한나라
▁메이지
▁from
▁미성
▁죄책감
▁오퍼
▁한나라당
▁호의
▁고아
▁{{{-
▁깨끗
▁원장
▁스매
▁필리핀
▁맞히
▁종영
▁합작
IL
▁기후
▁풍기
▁이스트
▁도약
▁자칭
▁EXT
ose
▁레나
itt
▁교과서
▁미인
운동
▁은폐
▁갯
▁얼티
▁tr
▁떨치
▁브론
▁항해
▁자이언트
▁유전
▁나이프
▁파스
▁지분
▁정성
▁아이디어
▁가위
떨어지
▁EZ
▁진에어
▁동서
▁잭슨
▁적절히
▁La
▁실체
▁흑마
▁에미
▁좌측
▁다니엘
▁충족
▁314
▁마에
▁레코드
▁현자
철도
▁대위
▁치안
▁여단
▁뱅가드
▁트래
▁리사
▁이틀
▁흡혈귀
▁마기
▁스타트
▁분홍
▁외국어
탐정
▁Im
▁지혜
직자
▁이태
▁저글
▁Vol
▁new
▁툰
렉터
크리
▁베이징
▁헥
▁학문
▁시골
▁히드라
▁Con
▁스쿼드
▁얇
▁뺏기
▁욕설
▁피자
▁NBA
▁부러지
▁저기
▁밀도
▁소생
▁갈색
▁내기
ats
▁계층
▁Sch
▁ㅁㅗㄴ
▁가담
▁바이올
▁강릉
▁말씀
▁Ed
▁각지
▁신곡
▁124
▁포병
▁학년도
▁임하
▁서류
▁ld
▁일관
▁추후
▁로스트
▁초상
▁rd
▁아케이드
▁흘러가
▁잔혹
▁Girl
느리
▁고고
▁협정
▁우루
▁스타즈
▁출판사
▁학대
▁침착
▁가오
▁찔
나베
▁카테
▁주석
▁무도
▁부원
▁해소
▁카리스마
▁Gre
15
▁에메
우라
마루
▁스파이더맨
▁잼
▁물자
▁입증
▁나이츠
▁매달리
은색
▁RE
▁대동
▁Night
▁펌프
ari
ube
▁나인
▁배구
철수
▁미아
▁밀레
▁시어
▁존스
▁워터
부키
▁물약
▁부속
▁억울
msys
▁녹이
▁덮치
ition
지능
▁강타
▁인공지능
▁ldmsys
▁대세
▁이오
▁ㅊㅣ
usic
▁중원
▁183
▁판도
바이트
므로
13
▁고의
▁저글링
슈타인
▁격려
▁존중
▁강전
▁USB
▁라마
▁대검
▁압축
▁힘입
▁감당
워프
오피스
▁과금
▁정사
▁디아블로
▁유스
▁피지컬
▁부유
▁괴인
▁퀴즈
▁생김새
▁ㄷㅔ
▁대변
▁스탈
▁점심
▁기울이
▁함장
▁빙결
25
▁점멸
▁표적
▁면하
▁내역
▁극한
▁레이싱
▁압력
▁테스
▁이빨
항공
▁동구
▁마하
▁애완
슬리
▁산맥
▁황당
▁1200
▁민간인
▁달아나
▁키요
▁Black
▁리버스
▁경부
▁세자
▁발사기
리얼
▁박스오피스
▁WC
▁집계
▁철도역
▁대차
▁자책점
▁법무
▁하지
시오
▁TS
▁김주
ㅁㅏㄹㄹㅗ
▁이소
▁소소
▁마케팅
▁뚱
▁모형
▁아카네
▁그러므로
▁마틴
▁후유
▁만렙
▁스탭
▁골프
▁NH
▁보스턴
▁퇴치
yn
▁중견
▁일렉
업자
▁벌써
▁예의
▁덩어리
▁그쪽
▁다시금
▁그레이드
▁제노
▁농업
▁씻
ㅆㅇㅓㅆ
▁마도카
▁병살
▁127
▁연동
른바
▁박진
▁이른바
▁BC
▁일지
▁기질
▁데몬
▁지로
▁재건
사랑
▁모종
▁주축
시대
▁현황
▁원판
▁교차로
▁리처
▁기껏
▁이원
▁노아
▁그러면
▁출동
DD
▁토마스
▁어서
▁무녀
▁연설
▁자아
▁디오
▁통솔
토니
18
▁문양
▁MM
app
▁ver
▁남동생
▁DM
▁포착
▁천상
▁Let
▁로프
▁사촌
▁드워프
▁상냥
▁등극
▁구상
▁모빌
▁유진
▁장벽
세지
▁각도
▁휩쓸
▁스토어
▁자존심
▁망설
▁억제
▁발명
▁불길
▁SSR
▁선동
▁관장
▁도덕
▁118
▁귀국
▁레아
▁모스크
▁바텀
▁킴
▁스크롤
▁퓨전
▁OG
▁도대
▁카게
▁Am
▁Op
▁들여
▁184
▁육상
▁프랜
▁Col
▁노무현
▁오른손
▁아마추어
▁아포
▁용산
▁절벽
ye
▁사치
▁앓
▁Str
gr
▁AF
▁전담
▁봉사
▁서울대
▁애인
▁토라
▁발레
▁부끄럽
▁머물
▁회관
▁시안
▁까마귀
▁라미
▁발급
당초
▁원주민
▁아담
▁타이어
▁그란
▁도배
▁이윤
▁not
▁쿄코
▁서리
▁섬광
▁리바
▁청춘
▁얄
▁왕실
▁탄핵
▁서적
▁향후
CE
▁학사
▁퍼펙트
ough
▁Mag
▁152
▁큐어
▁방사능
▁박자
▁잎
▁환생
▁쿠데타
▁왕비
▁필름
▁GM
▁솔저
▁입시
▁불러오
▁하사
▁뻘
▁베를
▁정밀
▁베스
▁시시
타이
▁착륙
▁챔스
iel
▁루마
▁다카
▁행진
▁사방
▁컴뱃
▁뛰어들
▁..!
려워하
▁미녀
▁시오
▁뤼
▁이무
▁마을버스
▁인피니티
▁리자
▁지장
▁노랗
▁밀리언
▁실용
▁피오
▁000000
▁춤추
▁협동
▁우두
▁얼리
▁프롤
▁싱가
▁싱가포르
어트
▁적시타
▁선박
▁보우
vel
▁루미
▁오렌지
▁유가
▁스타워즈
▁벗기
▁지루
▁금발
▁여태
▁주공
▁갱신
▁카리
▁편리
ull
▁카피
▁서열
▁강인
▁직책
▁폴아웃
▁제발
▁스로
▁얽히
▁AV
▁화기
▁숙소
▁테리
▁얌
▁옴
▁시호
▁민폐
▁선원
▁1978
▁경전
▁승패
▁돌려주
▁침몰
▁과일
▁AL
▁브래
▁182
▁아수
▁김치
▁김광
▁다스리
▁취재
▁스카웃
▁우미
▁탐사
▁지크
ult
▁스네
▁조화
▁전송
▁반성
▁쿠사
..
ㄲㅡㅁ
프리카
▁잠기
▁라인하르트
▁완화
▁이진
▁툭
▁도대체
▁욕심
▁178
▁팔라
▁교도소
무지
▁홋카이도
▁전지
▁시간대
▁리부
▁해운
▁한꺼
▁한꺼번에
▁오즈
▁욱
헤이
서스
▁섬멸
▁중구
▁#!
▁일일
▁성명
▁친척
able
▁화신
▁그간
▁반경
▁CL
▁스기
▁아무렇
▁경상남도
▁건지
▁이계
▁구형
▁컴백
▁호리
▁모순
ject
▁어벤져
▁아사히
▁흑역사
▁군부
▁흑막
▁이별
▁미소녀
▁도르
▁가구
소년
▁천국
마리
바리
▁소나
▁흥분
▁오토바이
▁사와
▁안무
에른
▁완공
▁동계
▁모나
▁달려오
▁보강
▁모에
▁아슬
▁신관
▁등재
▁타카하시
▁최상급
▁얼티밋
▁관문
MAN
▁그리핀
▁정답
▁치이
▁스텔스
키스탄
▁CE
▁신작
▁일어
▁용이
▁인문
▁라비
▁레버
eth
▁Co
▁대역
▁발각
▁엣
바람
▁이단
▁민감
▁직행
▁사직
▁1945
▁능가
▁주머니
▁스윙
▁PK
▁매각
▁토트넘
oot
▁헬리
▁se
▁유즈
▁단자
▁시카고
▁디스플레이
▁쿠리
▁간판
▁일체
▁코레
▁저자
▁마야
▁에코
▁스마일
▁금요일
방울
속기
▁머스
▁플라스
▁반역
▁베이비
▁패트
▁레시피
▁프레스
▁cl
▁엉덩이
▁모욕
▁부채
모습
▁사탕
기에
▁소득
▁BO
▁라이트닝
수리
구니
▁수라
▁매그
▁불참
▁약혼
▁TOP
▁시종
▁늪
▁여주인
▁일러스트레이터
틀리
▁장남
▁카제
▁강대
▁엘리자베스
▁AFC
▁마미
▁밈
▁오다
타리
▁바이에른
ild
▁약체
▁가왕
▁도쿠
▁파운드
▁BGA
▁겟
▁정점
▁태풍
▁울음
▁레이지
▁맨체스터
▁카사
니코
▁오케
▁모음
▁오만
inal
▁명장
▁Is
▁애용
▁휴먼
드러지
▁편의점
▁적자
▁카이저
▁삼키
▁4000
▁도심
▁시범
▁얹
▁실적
▁수천
▁Do
▁이쿠
▁탈취
스크림
▁소마
▁드루이드
파이
▁맛보
▁아랫
▁스파크
▁곤충
▁교리
▁걸어가
▁Gaming
▁한하
▁함수
▁아이디
▁파고
▁자사
▁무지개
러브
▁과시
▁내밀
▁요격
▁신한
▁웨폰
▁가이아
도전
▁대피
▁평상시
▁평론가
▁입사
▁꺼지
▁박정희
▁김일
▁눈동자
▁카일
▁크로우
▁GSL
▁어그
▁320
DX
▁눈앞
▁들르
▁투고
▁진동
생활
▁CR
▁스모
▁욕망
▁315
▁네크로
▁SA
▁컬렉션
▁유아
▁집사
▁무능
ings
▁부가
▁Gl
▁ME
▁달콤
▁유머
▁연이
쿠스
아시아
ㅡㅅ
▁노릇
14
▁고가
▁선회
▁아마존
▁남학생
▁공신
▁삽질
▁1973
▁맷집
▁타리
▁장신구
▁물려받
▁목욕
▁수아
▁보르
▁캡슐
▁소집
TA
▁뻔하
▁오공
▁정우
▁패왕
▁숙련도
▁중소
▁이용자
▁포크
▁무한도전
▁명시
▁Gu
▁좌익
▁검토
▁리볼
▁굶
▁식스
▁단련
▁성분
▁라이드
▁하도
▁당초
▁신하
▁슬라이드
▁마마
▁아르바이트
reak
▁사천
▁장본
▁일명
ron
대사
▁자력
▁초과
▁중부
▁징계
▁와타나베
▁적이
히토
▁배리
▁아쉬움
중간
▁중기
▁케리
▁미노
▁저항력
▁주술사
▁덥
▁아유
▁위쪽
▁고이
▁와이번스
▁모의
▁유동
▁오로치
▁무늬
▁궁수
▁테란
▁민중
▁키노
▁짬
▁독백
티니
▁시련
▁냉장
▁돌려
당기
▁놔
▁리리
타운
▁공교
▁금강
▁잔류
▁이호
▁마수
트론
▁하이드
▁상시
▁외야수
▁소꿉
▁캘리
▁코끼리
▁부산광역시
▁168
▁NM
▁네이션
▁표식
17
▁급식
▁이용객
▁이명박
▁중국인
▁장본인
▁인도네시아
▁컨디션
▁진단
▁서바이벌
▁평택
▁벨기에
▁국도
▁앤드
▁so
▁마찰
▁203
▁학위
▁유카리
닐라
▁그루
▁218
▁가해
▁라이징
사와
▁협조
PA
▁like
▁보로
운수
▁무자
▁성대
▁겸하
▁판사
▁개명
▁Min
▁이즈미
▁크라운
▁고인
▁혼혈
▁도미
▁급격히
▁가령
▁쥬얼
▁일리
▁공헌
▁충청남도
▁초청
▁대면
▁방침
▁승급
▁주술
▁고발
▁도마
▁강동
▁강아지
▁시네마
▁수신
▁몸매
▁밭
▁내외
GA
▁어원
▁김병
▁단역
▁보직
▁재수
▁will
▁헤라
▁이어서
▁소우
▁내각
▁체코
▁나폴레
▁조립
▁오페라
▁뺨
저래
▁낯
MAX
▁국토
▁이래저래
마치
▁수립
▁리믹스
▁휴대폰
▁레이븐
▁단총
▁런처
▁쟁이
▁배율
▁휴게
▁의정부
▁주저
▁하츠네
ECT
▁10000
▁자산
▁균열
▁천지
전사
▁황혼
▁흉악
▁오사
성이
▁떨구
▁찔리
▁아테나
ㄴㄷㅡㄹ
▁갈기
▁고우
▁뚜렷
▁나폴레옹
▁윤리
▁iOS
▁사슬
▁테크닉
▁볶
▁비자
▁니트
▁독보
▁수중
▁라가
▁차장
ICE
▁버거
▁교역
▁one
▁시간표
▁충격파
AND
▁로크
▁ALL
▁대학생
▁부동산
▁보가
르타
▁트론
▁엠블
▁위시
▁거세
▁우기
▁베를린
ㄴㄷㅡㅅ
▁na
▁오역
▁Type
▁RO
▁악행
▁국방부
▁떠돌
보우
▁원한
▁Red
oul
▁스치
▁절단
ㄷㅓㄴㅈㅣ
▁스코틀랜드
▁경사
▁저격수
주의자
▁저승
▁탄막
▁탄압
▁서방
▁인명
▁1974
▁히사
▁Ser
▁리프트
▁면제
▁말레이
te
▁플레임
▁이오리
▁리츠
▁지지율
저우
▁KB
▁Play
▁정전
▁주황
▁자루
▁성지
▁사이토
▁타우
▁미남
ater
▁더미
ody
▁타키
▁UC
▁캇
▁중화민국
▁해역
▁때로
▁플레이버
▁버블
STER
▁펑크
▁NT
16
▁두려워하
▁177
다드
▁Car
▁견해
▁칼라
▁아수라
▁흉내
친구
▁비단
▁달인
▁걸음
▁발톱
▁작위
▁대국
▁설마
▁필사
▁출석
▁Don
▁원로
▁공격기
▁전라남도
▁액체
▁단서
▁토비
▁빗나가
▁커플링
▁대법
▁둥지
▁김윤
▁계절
▁득표율
▁이리저리
▁사물
▁지터
▁습하
ions
▁무비
▁평판
▁깃털
▁난리
▁이듬
▁사우스
▁선로
ould
▁재배
▁성사
▁다케
▁랜서
▁보편
▁벚
▁마저
▁한양
▁살아오
▁련
▁우두머리
▁다녀
▁샘플
▁딥
▁팰
▁입원
▁해변
텍스
▁요우
▁138
▁희생자
▁손잡이
▁의의
▁차일드
▁전법
▁Es
▁격렬
▁고난
▁1975
▁마르코
▁강습
▁극심
▁리볼버
▁슬라임
▁반장
▁가해자
과이
▁감성
▁맑
▁진형
▁방울
▁점하
▁사야카
▁완벽히
▁왕족
▁주입
▁스콜
천군
레븐
▁김성근
▁유지비
▁홈경기
▁보루
▁순간이동
▁태생
alk
▁크롬
▁너클
▁연막
▁반도
▁지면
▁부제
▁짝사랑
▁us
▁산탄총
▁간파
▁과언
스카
▁접수
▁상어
▁섬기
▁메테
▁아이즈
▁입자
▁헤드샷
▁레슨
▁탈환
ven
▁졸업식
▁서명
▁맹독
▁자켓
▁워드
▁두드러지
▁안젤
▁중도
▁Time
▁러너
▁리처드
▁필립
▁어드밴
▁상의
▁제의
▁'''
▁중재
▁계략
▁마스코트
▁금고
▁월간
▁동성애
▁아리스
▁석유
▁공명
▁병과
▁원화
▁162
▁레인보우
▁테니스
af
▁삿
▁갈구
▁놔두
▁코디
라이언스
▁주교
▁측근
▁바이크
▁타스
드로
▁126
야스
소총
▁완성도
▁얼라이언스
▁팍
▁찬양
▁EU
▁이사장
▁Sum
▁마지
▁분할
▁테일즈
▁데미
▁프로스트
공사
▁WH
▁생각나
▁우지
스티스
▁가히
▁일각
▁고래
▁콘스탄
▁충고
▁ㅋㅔ
▁아울
▁어제
ics
▁이념
▁이듬해
▁스바
맥스
▁백만
▁교대
▁두려움
▁시끄럽
▁???
▁스매시
ㄹㄹㅏ
▁키즈
▁트이
▁히카루
▁영화제
▁자키
▁왓
▁Bo
▁조수
▁찰스
▁빙의
▁카오루
▁김선
▁박명
YP
▁이영호
▁구로
▁냉장고
▁신생
▁득표수
ACK
▁슬러그
▁연소
▁수감
▁클리셰
▁두껍
▁초등학생
그라
▁BT
▁기관포
▁IIDX
▁본질
▁엉뚱
▁have
▁CB
보기
▁평등
▁주차장
▁노부나가
▁펙
▁차림
▁스칼
▁고종
▁회계
▁동상
▁몰려오
▁BA
ㅇㅡㄴ
시스코
랄드
▁카토
▁말기
▁어기
▁에드워드
▁연세대
▁나락
▁보고서
▁텔레포트
▁끌어내
▁ㄹㅗㄹ
▁대니
▁꼴찌
▁로비
마르
▁민병
▁oh
▁313
▁지역구
재기
▁폭로
▁애드
▁응급
tern
▁맞먹
▁병행
▁왕가
▁후면
미터
▁직위
▁사회주의
▁심정
▁주유
▁~"
▁팜
▁과격
▁난투
▁공짜
페이스
▁Kore
르드
전설
▁누스
▁권하
ict
▁EV
▁LTE
▁종로
▁김두
▁신상
▁고립
▁제너
▁카인
▁결과물
ins
▁젝
▁브레스
▁콰
▁갈라지
▁한정판
▁깨우
▁제자리
ange
ator
▁1976
▁재질
▁투사
▁카렌
▁레귤
▁유비트
시티
▁132
▁조항
▁핑계
▁know
▁갸
보라
▁손목
▁out
▁팩션
셉트
▁꾀
▁아인
▁무식
▁솔직히
빨리
▁정의당
▁팬티
▁거꾸
▁Sun
▁약칭
▁포도
▁볼드
▁소꿉친구
고사
▁이세
▁피드
▁set
▁신조
▁극악
▁트랜스포
▁야망
▁김구
▁표기법
▁pr
▁멘붕
▁분배
▁DI
▁두루
▁군데
은이
▁제주도
▁로제
▁페이크
▁숙청
▁리셋
▁감기
퍼니
▁테르
▁캔디
▁바나나
▁긋
▁발전소
▁병종
▁후반전
▁쫓기
▁미트
▁feat
▁채찍
▁카테고리
▁노하
▁결의
▁자포
▁연간
▁로그인
▁럭키
▁TP
▁1972
▁보복
▁상부
▁하지메
▁세츠
▁그랑프리
▁수확
▁일산
▁슬슬
▁츤데레
▁MO
▁158
▁여주인공
▁IV
▁내면
▁몰아넣
▁페미니즘
긋나
▁수영복
▁해고
▁테이프
▁빈약
▁난민
▁내뱉
▁선봉
19
▁근로
▁서치
▁230
▁쑤
▁개판
레이크
▁재벌
▁폐선
무이
▁메디
▁해전
▁구독자
▁산소
▁교훈
고속도로
▁종전
▁탁월
▁프롤로그
▁미도리
▁니코니코
▁바이킹
▁HS
▁지미
▁1977
▁강탈
▁겨루
▁퉁
▁자카
▁High
▁도사
▁제조사
▁레귤러
▁인트
▁콧
▁르노
▁구호
▁무궁
▁Light
▁정준
처럼
▁프로그래
▁일조
▁오딘
▁밀어붙이
▁쿠바
ME
▁TE
▁사각
▁메세지
▁쥰
▁응답
▁최하
▁172
▁반기
▁자작
▁중급
▁마가
▁IP
▁리뉴
▁가설
▁제인
▁로렌
▁초점
▁GD
▁야마모토
▁환호
▁충남
▁치바
▁수여
▁앨런
사스
che
▁접전
▁스케줄
▁이니
▁키드
▁껍질
▁진로
ㄴㅡㄴㄷㅔ
▁거꾸로
▁스나
천사
▁관료
▁대명
▁스바루
민주당
▁힌트
▁카이사
▁표하
▁프랭크
활약
▁개막전
▁컴퍼니
▁133
▁LOVE
▁내정
▁순천
▁지배자
▁태미
▁쳐다보
▁주식회사
▁덴마크
▁소비자
▁임진
▁얼터
▁필두
▁재림
▁줄기
▁정조
▁테레
▁무신
상가
▁냉기
▁인텔
▁뚝
▁이점
▁박쥐
돌프
▁Your
▁캐슬
▁NEW
▁실바
▁유라
▁Tw
▁대등
덕션
▁방벽
▁148
키스
▁도스
▁신념
▁강서
▁조던
▁구청
▁깡패
▁아폴
▁플리
▁때려잡
▁파괴력
▁랜스
▁릴리스
▁트러
▁진짜로
▁댐
▁혹평
▁la
▁유능
▁179
▁%.
▁라시
▁Mr
▁박종
▁일컫
▁제작비
지사
▁섭취
▁OF
▁공국
ica
▁바인
▁매지
▁존슨
▁여장
▁차분
▁득실
▁앵커
▁망설이
▁저스티스
산역
▁감금
▁찰나
▁펭귄
▁노르웨이
▁수성
▁ㅇㅜㅁ
▁최정
▁베어
▁애쉬
▁다저스
▁무색
▁피난
▁보트
▁양심
▁스톡
▁지붕
▁황태
▁기술력
IK
▁트랜스포머
▁이만
▁Gen
제스
▁망상
▁팀장
▁메구미
▁라우
▁헐크
▁다녀오
▁지성
세서리
▁고질
▁연달
▁소노
▁아비
▁따내
▁후쿠오카
▁레슬러
▁Mi
▁교시
▁순찰
▁GTA
▁렀
▁호응
▁객관
▁리터
▁꿇
▁두근
▁라이센스
박이
▁립스
▁샤오
▁모스크바
▁배후
▁포니
▁로맨스
▁이순신
ex
▁파랑
▁급속
▁신학
▁스팅
▁조력
▁156
▁사내
▁Par
▁능숙
▁윈터
▁미끼
리칸
▁장갑차
▁Em
생기
▁과감
교통
▁망명
▁찌질
▁오른팔
▁154
FL
메라
▁복도
▁탐구
▁사나이
▁심히
▁명대사
▁철갑탄
차리
▁표창
▁HARD
▁진흥
▁세례
▁섹시
▁안동
▁제대
▁어벤져스
▁교육청
▁풍경
▁시조
▁노래방
▁드로
▁격퇴
▁출제
▁176
▁히나타
▁음향
▁여수
HT
▁미숙
▁초코
▁OCG
▁두뇌
▁222
▁호무
▁ar
▁미모
▁슈가
▁공립
▁레슬링
사고
▁성벽
▁159
▁am
▁재즈
▁치마
▁잠그
▁파우
▁MK
▁밧
▁사일
▁꼼수
▁능하
▁뒤쪽
▁염두
▁129
▁u
▁케리건
▁AE
▁사지
▁1971
▁173
▁생태
▁종말
▁남양
▁장시
날두
▁냉동
▁맹활약
▁바닷
▁사소
▁호날두
▁동이
▁른
CH
▁미호
▁벨라
▁FPS
▁핀란드
▁반론
▁쳐들어오
▁명탐정
▁블랙홀
▁기행
▁사르
▁제지
▁중후
▁노골
▁게르
▁현직
클린
▁비참
▁꾸리
▁발발
퀘어
▁발탁
▁호구
▁오리온
티지
▁계곡
▁에그
▁착지
▁전반기
▁불리우
▁153
▁응시
UT
▁Kn
▁미세
▁PL
▁통틀어
바스
▁캘리포
▁앞세우
▁프로덕션
▁성폭
▁레오나
▁맞물
▁폐허
▁청하
▁세키
▁텍사스
▁ll
▁전학
pr
▁전임
멘터리
▁가마
어붙
▁137
▁나카무라
▁대목
▁Of
▁죠죠
▁사천왕
▁에메랄드
▁죄수
▁코프
▁고음
▁천문
▁분쇄
▁리우스
▁가라앉
▁배신자
▁진술
▁안드레
eep
▁세일러
▁화석
▁샹
▁비꼬
▁쫓아내
▁전도
▁시뮬레이션
▁캘리포니아
▁오락실
▁나란히
▁질풍
▁GHz
▁사가
▁통보
▁굳히
▁혼인
슬링
▁아니하
▁문화재
▁수하
▁파이프
▁토막
▁Ro
▁유타
▁래스터
▁책상
les
▁러닝
타니
▁엄폐
▁에필
▁에필로그
▁우산
▁알아차리
▁남한
▁로스터
▁테러리
▁혼다
▁목포
▁인플
▁테오
▁무너
▁무너뜨리
▁말소
▁꽁
▁범하
▁280
▁굴러
▁책략
▁무단
▁총선거
▁대교
▁지각
▁유니콘
▁발렌타인
▁영등
▁선포
▁오쿠
구나
▁모기
▁드리블
▁174
▁was
▁Per
▁225
▁요코하마
▁절정
▁호스
▁BM
▁로열
▁믿음
▁신주
▁ㄹㅏㄱ
▁달래
▁이광
▁대안
▁서울시
▁다큐멘터리
▁교정
▁GPU
▁1969
▁잔해
▁빅토리아
▁맞대
▁이행
▁139
▁로테이션
▁엣지
▁월요일
▁슬램
▁예방
▁청룡
▁Heart
지않
▁163
▁143
▁카즈야
▁델타
▁134
▁스탈린
▁167
▁불문
플러스
▁멋있
▁악곡
▁마신
하여
▁Fe
▁얼어붙
▁미식
볼루션
▁레바
▁풀려나
▁신세계
▁중공
▁~~
▁하의
▁의아
▁토가
▁먼지
▁아랑
더기
▁CO
▁Good
▁오바
▁분포
▁TO
▁버터
▁심연
▁스페인어
▁숭배
▁스텔라
▁함성
▁단의
▁해상도
▁상장
▁격하
▁142
▁투성이
▁저거
총장
}}
▁주파
▁처녀
컨드
▁beat
▁오타쿠
▁세컨드
▁스파이크
▁열기
▁골치
▁전광
▁2500
▁청사
▁왕관
▁기쁨
▁루루
▁이준
▁최대치
▁총사
▁김도
▁로지
▁나사
▁퍼시
▁블라디
▁두목
반신
▁CN
▁골목
agon
▁발하
▁ㄷㅣ
▁누이
▁애쓰
EL
ert
▁땀
▁짤리
▁깽
▁배리어
▁면접
▁히카리
▁164
▁필라
▁십자군
▁야당
▁퓨처
▁What
▁물어보
▁진하
▁쓸데없이
▁보디
▁yout
▁스윕
▁항공사
▁국기
▁관광객
아슬
▁아슬아슬
▁우투
▁추모
▁건너가
▁인사이드
▁ㅡ
에몽
▁태권
▁가로막
▁드레드
▁네스
▁해태
▁ONE
▁인구수
▁화약
▁김천
▁직통
▁미유키
공화
▁따라잡
▁심야
▁트레이닝
▁뉴질
▁뉴질랜드
▁무안
▁스트로
▁연기력
▁하우
▁맞물리
▁136
▁하후
▁Dark
▁pro
▁유나
▁벚꽃
▁청장
부인
▁스토커
▁킹덤
▁부처
▁용의자
▁왕후
▁홍성
▁선수단
▁끓이
▁전수
▁야마다
▁리부트
▁패닉
▁기소
ㄴㅕ
백과
▁음색
▁선인
▁콘셉트
▁기이
▁바닐라
▁원망
▁라임
▁0900
▁마의
▁실로
▁제단
▁회로
▁거르
▁반란군
▁관계없이
▁극우
▁끝장
프란
▁비로
▁로브
▁오프라인
▁완구
▁개그맨
▁공고
▁김연
▁경찰청
▁동아시아
▁time
▁야전
▁일환
▁적립
ㄴㅕㅇ
ideo
▁페르시아
▁달라
▁틀어
▁157
▁조준경
▁KC
좀무
▁구제
▁이인
▁흠좀무
▁330
▁모던
▁직격
▁불쾌
▁패스트
▁뱉
▁화소
▁동사
▁안철수
립트
무게
▁몸무게
레이트
▁사범
▁텀
▁메이트
▁유고
▁퍼붓
▁랙
▁서장
▁징크스
▁Sm
▁템포
▁Sl
▁아이스크림
▁궁전
▁출고
무실
▁방안
▁쓰러트리
▁유해
▁중심지
▁세미
▁미라이
▁뮤지션
려보
던지
티넘
▁훈훈
▁플래티넘
지오
▁혼동
ors
▁숙주
▁제이슨
▁카니
▁어긋나
▁유선
▁한층
▁라바
other
▁번갈
디스
▁그제
▁1963
▁중년
air
▁Blue
▁지극
▁순정
▁자부
▁모양새
▁270
▁에일리
▁알렉산더
▁연의
▁우천
▁연금술사
▁악령
▁Baby
▁어린아이
▁하카
▁제우스
▁경지
land
▁Ac
▁양대
▁창립
▁깃들
▁ab
▁시흥
▁체격
▁코즈
▁브이
▁호박
▁레프
▁설탕
▁타고
▁AG
▁방호
anna
▁휴스턴
▁대중교통
▁갈리아
▁패드
iew
▁문신
▁쫓아가
▁안토니
▁워너
▁외관
▁주한
▁근력
▁유코
▁술집
▁집필
▁사투리
▁전라북도
▁출연진
▁1968
▁클라우드
▁내뿜
▁ㅇㅠ
▁타다
▁오키나
▁핸드폰
▁플라스틱
▁박상
▁스케이
▁성숙
▁대진
▁앞뒤
▁열세
▁저조
▁환사
애나
▁깨알
ush
풀이
▁샤를
▁브루스
▁본의
▁하이브리
▁침해
▁미티
▁우상
▁투신
▁하이브리드
▁히로시마
▁나뭇
▁고자
▁신수
▁참으로
▁정서
ㄴㄷㅏㄴ
▁미니언
▁장례식
▁하시
▁눈빛
▁제프
▁Li
▁브론즈
▁149
▁브레인
▁좌파
▁후루
▁선교
▁꿰뚫
▁농민
▁테러리스트
▁외면
▁벌금
▁테루
▁동호
▁해독
▁샤워
▁죄송
▁제사
▁집합
▁타당
▁멜론
▁센트럴
▁방언
▁도시락
▁Fire
▁악하
▁146
▁저러
▁줄리
▁공영
▁후쿠시마
▁허브
토리얼
▁세스
▁오비
▁전열
▁청나라
▁브레이브
카미
▁사탄
▁로라
▁튜토리얼
▁마켓
▁경제학
▁공모
▁무수
▁수시로
OID
▁희대
▁260
▁종착
▁오리진
▁장풍
▁총독
▁적성
▁El
▁체스
▁이아
▁부사관
na
▁냅
▁기피
▁크롤
▁각국
▁트러블
▁모어
▁프렌즈
▁Dis
▁BEMAN
▁김대중
▁취지
▁전반전
▁담임
▁심상
▁프로토타입
▁푹
▁일레븐
▁조교
▁암컷
▁OK
▁강세
▁기하
▁남미
▁자칫
▁기함
▁환수
▁초교
▁마초
▁격전
▁DJMAX
▁경과
▁지문
▁황실
▁하비
▁리액
▁상쇄
▁베일
▁BEMANI
▁넉넉
▁미스터리
▁거품
▁프로모
▁마테
▁모함
▁아르카
▁낡
르도
▁헤일
▁방공
▁라프
▁소사
▁연회
▁sm
▁Champ
▁되살리
▁쳐내
▁더구나
▁원자력
▁초상화
▁몰아붙이
▁유니온
ady
▁확고
▁가혹
▁인체
▁타카시
▁럴
▁일품
▁줌
두사
▁성비
▁심화
▁주의자
▁다이노스
▁섹스
▁장동
▁별칭
▁개미
▁저희
전트
글라스
▁STR
▁루키
▁웨인
▁페이커
▁속력
▁문법
▁fl
▁도검
▁적재
▁방화
▁켄지
▁밀어주
▁미즈키
▁하여금
▁오의
▁고추
▁수량
▁월등
단지
▁성기
▁핸들
▁상공
레드
▁실력자
▁격기
ution
나리
▁파격
▁쎄
▁랩터
▁무선
▁Pre
▁하반기
▁데스티니
▁고성
▁빈틈
▁kr
더링
▁Ev
▁명명
▁브랜
▁석상
▁찰리
▁레이너
▁클러
▁연말
▁지난
▁병장
▁북구
▁중학생
▁뒷면
▁일삼
▁우편
▁속공
베트
레슬링
▁스트리밍
▁합법
▁205
▁운반
▁주가
▁프랜차
▁므
▁cc
▁맥락
토랑
티노
▁공손
▁슈터
▁레스토랑
▁생선
▁포워드
▁야만
▁프로레슬링
구역
▁통행
ium
▁평창
▁유승
▁파손
▁선곡
▁신병
▁퇴역
▁DB
▁배우자
▁피카츄
▁단식
▁프랜차이즈
▁Summer
앙스
▁오세
▁550
▁말년
▁자질
저드
▁소령
▁1967
▁수령
▁유유
▁타나카
▁Grand
▁앞면
▁본가
▁수컷
▁추출
▁매기
▁말아먹
▁RP
▁빈번
▁솜씨
▁탯이
▁아메리칸
메어
▁쐐
▁가브리
▁편견
▁하라
▁앤디
▁프리즘
▁석사
▁클립
▁독립운동
넘기
▁박용
▁발차기
▁박명수
▁뚜껑
▁Rock
사벽
석민
▁넘사벽
▁맴
▁정재
▁뉘앙스
▁하와
▁호출
▁디비전
▁불화
▁나레이션
▁주고
▁블래
▁격리
▁운석
▁부친
▁강점기
▁당국
▁리바운드
▁정체불명
▁다면
와라
▁원작자
▁미로
▁211
▁뽐
▁져
▁애국
▁질환
치아
▁전염
▁147
▁나이트메어
엘라
▁부관
▁나열
▁노블
리드
▁게임즈
▁경질
▁츠바사
▁총평
▁광전사
▁신임
듈럼
▁대승
▁우체
미르
더슨
▁니나
▁오시
▁Over
▁정형
▁원흉
▁내셔널
▁일례
▁자각
▁플레어
▁하드웨어
▁증인
gain
▁우파
퍼드
▁미들
▁잊어버리
▁무죄
스틴
▁back
▁간호사
▁토마토
▁메우
▁넥서스
모어
▁동년
▁복면
▁SCP
▁은메달
▁교통사고
▁특이점
▁미팅
▁브라우
▁페인
▁네코
▁우가
▁GG
▁조그
▁펜듈럼
▁배속
▁재빨리
▁Dance
▁콕
현우
▁day
▁퓨어
▁퓨리
▁수수료
평가
▁유신
▁무명
▁코지
▁말레이시아
▁LED
▁드릴
ction
▁몹시
▁아이폰
▁원종
▁호노
▁가의
▁범행
▁체형
▁메모
▁포식
▁게시물
▁DR
▁입국
▁VOC
▁실루
▁별자리
▁여관
▁유무
고래
▁이방
▁탄탄
▁감전
▁개개
▁This
▁만루
▁영등포
▁줄어드
▁버릇
▁무고
▁now
▁힐링
▁대외
▁더하
▁인어
노스케
▁재활
▁옌
통수
▁십자가
▁방과
▁공습
▁전례
▁타고나
ne
▁저것
▁리키
▁싣
▁픽셀
irst
▁파문
▁텅
▁군림
▁염색
▁전두
▁But
▁Gold
▁동등
▁푼
▁아래쪽
▁광속
▁SL
▁사슴
▁관절
▁3164
▁Wii
▁경순
▁그리드
▁함재기
츠카
▁미스트
▁살인마
▁에바
▁내구력
▁한강
▁폴리스
▁멀리서
▁홀딩
▁속박
▁보구
▁유마
▁통수
트랙
▁하행
▁알렉산드
▁이창
▁Ste
▁발라드
▁상행
▁속편
▁무제한
ount
▁오디오
▁동북
▁쫓아오
▁강팀
파리
▁사교
▁온몸
▁HG
▁배송
▁박찬
▁교내
▁박재
▁증가량
▁떄
▁캐스트
▁권능
▁박영
▁노트북
결승
▁제보
▁호투
▁카우
▁뭔
▁진도
▁시초
▁잖
▁ㅅㅜ
▁루팡
▁공천
▁점사
▁여배우
▁대패
▁해적단
▁미수
▁목재
▁격침
▁DX
▁직속
▁FL
▁동메달
▁Just
▁륙
▁자격증
▁기괴
▁라파
▁HK
기사
자동
let
ring
▁스퀘어
▁대군
▁길거리
▁발현
▁빌보드
▁무슬
▁별점
▁교양
▁심문
▁성직자
▁왕좌
▁가창
▁보행
▁노비
▁통증
▁타치바나
▁성수
▁채취
▁격투기
▁새우
▁요리사
▁아까
콥터
▁우물
eng
▁밀치
▁박탈
▁204
▁클레이
▁둥글
▁창세
▁단말
▁1966
▁쇼트
▁호그
▁국민당
▁안드로
▁어느새
▁MSL
DS
▁추궁
▁기획사
▁스네이크
▁pt
▁대공포
▁서두르
▁리엘
▁쫄
▁첫날
▁셋째
▁지온
▁멸종
▁166
느님
▁가성
▁화내
▁회복력
레일
▁방송인
▁샌프란
▁샌프란시스코
▁남발
줌마
▁TW
▁동문
▁프로모션
▁번식
▁혼합
▁독수리
▁무사시
▁스킵
플렉스
▁레이첼
▁미사키
무네
▁지지자
박히
▁줄줄
▁news
▁VOCAL
▁Korea
▁오키나와
▁아줌마
▁털어놓
▁크리스토
산동
▁동로
▁달라붙
▁사우루스
▁손톱
▁대쉬
▁하느님
▁CA
▁구타
▁수강
▁여친
▁책정
▁Can
▁닉스
▁리턴
▁코바야시
▁무슬림
▁머릿
▁명곡
▁비즈
▁기합
▁불평
▁일일이
▁증발
▁경감
▁DNA
어쓰
현진
▁진구
▁스크립트
두리
▁다이스케
▁뒤통수
▁카구라
저것
▁이것저것
▁사모
ina
▁사망자
▁인천광역시
파크
▁회견
▁직무
▁뷔
▁도라에몽
▁슬로우
▁농락
▁물가
▁삼촌
▁괴력
스트림
▁친목
▁어설프
▁공존
▁제스
▁롤링
ERO
▁커트
▁MHz
▁카이토
▁셸
▁단과
▁연고지
▁반짝이
▁악어
▁누명
▁주심
▁인쇄
▁Sec
UR
▁사료
▁회오리
▁650
▁이례
▁호프
소수
▁후대
▁아카리
▁회귀
▁몰아내
▁좁히
▁계란
▁복용
▁비타
▁소서
▁실습
▁찢어지
▁미판
▁정정
▁현상금
▁시가
▁레이트
자재
▁포효
▁KTX
조합
▁신정
▁Music
▁니카
▁키트
▁트렌
▁기술자
▁쓸어버리
▁동조
메스
▁타시
▁At
▁명나라
▁네놈
▁로컬
ally
▁카르마
▁우메
▁EBS
▁리플렉
OO
▁FB
▁......
▁헬리콥터
▁필터
▁박치기
▁프린스
보그
▁장원
▁토이
▁시부
▁고조
▁포대
▁접어들
▁광대
▁분홍색
▁분장
▁디렉터
▁회심
▁Su
티콘
▁김형
▁로저
▁박경
▁휩싸
프라
▁김원
▁돌아보
▁천마
▁총열
▁Ep
▁진수
▁파수
▁브릿
▁문어
▁Live
▁동족
▁스냅
▁한숨
네이터
▁홍진호
▁실루엣
▁듀크
소문
▁퐁
▁이속
▁GN
ART
▁유영
▁쿠시
▁미하
▁경보
니카
▁태극
▁소리치
▁셉
▁유난
▁Comm
▁부류
▁루마니아
▁비로소
▁박해
▁텍스
▁하리
▁얕
▁레즈
▁캐리어
▁BF
▁정크
▁급히
▁1962
▁딸기
▁괴상
▁춘천
▁선우
▁로코
▁가급
▁난감
▁유정
▁경유지
ㅋㅓ
▁빠뜨리
▁MX
▁만행
▁달빛
▁피스트
▁아타
▁케이지
▁카가미
▁열람
▁뽕
▁공자
▁갈아타
▁`
▁항아리
▁고토
▁스완
젤레스
바다
널드
▁살상
▁장학
▁망령
▁병살타
▁츠나
son
▁바티
▁요시다
▁미성년
▁위키백과
▁가미
▁무진
▁프랑크
▁어퍼
▁보살
▁한발
▁금색
▁get
▁습관
▁재직
▁판권
▁고릴라
▁서태
장난
▁목동
▁퍼센트
▁돌격소총
use
▁대마
▁똑똑
▁키무라
▁발광
▁관직
▁슬퍼
▁리티
▁1800
▁바주
▁반군
▁학점
▁홈즈
▁김명
▁감행
▁암울
▁코다
▁주거
▁레기
▁소절
상가상
▁요시노
▁설상가상
▁입양
▁UF
▁야외
▁콜롬
▁짚
▁기법
▁후문
▁투니
▁GR
▁영진
▁가나
▁진정하
▁악의
▁천공
▁169
▁그리하여
▁섀도
itch
▁조직원
▁해치우
▁Power
▁카에
▁강수
▁개연
▁진리
▁험하
▁사이보그
▁저서
▁Leg
▁gr
▁주되
▁대인배
▁스퍼
▁코요
▁Res
▁클라이
▁용감
▁셰프
▁천둥
▁Af
▁고든
▁레이나
▁++
▁뇌물
▁진성
tr
▁단정
▁오케스트라
관총
attle
ㅇㅘ
▁주황색
inn
▁구급
▁Hard
▁도청
▁타니
▁북아
▁볼텍스
▁man
▁에도
▁바니
▁연발
▁경쟁자
▁디펜스
▁MR
▁차용
▁파벌
누르
▁로저스
▁RC
▁ARM
▁똘
▁라드
▁산책
▁실업
▁양보
▁끼어들
▁세탁
문트
▁안보
▁예지
▁저상
75
▁UI
▁서민
▁받치
▁송출
▁커비
▁사스케
▁추적자
니클
▁히토미
▁그랜
▁빼내
▁Ma
▁ADV
못미
▁지못미
▁전산
▁결사
▁자판
▁1940
▁쿠루
▁Life
▁Sing
쌔신
▁어쌔신
▁외롭
▁잠재력
▁치사
▁엘리스
▁응원가
일라
▁귀하
얼거리
▁Master
▁전속
▁but
마당
징어
▁Che
▁바그
▁코이
▁법안
▁제원
▁블래스트
XT
▁영남
▁베이더
▁마요
▁접점
▁단속
ern
▁배상
▁크리스티
▁돌이
▁직결
▁미코토
▁조력자
아라
▁보잉
▁행방불명
▁VOCALOID
▁진행자
▁경선
▁꽂히
TC
▁카즈마
ars
▁넓히
▁호로
▁독서
▁응하
▁청원
▁번트
▁Pv
▁교관
▁천주교
▁나들
▁수복
큘라
▁런닝
▁어미
▁배기
▁장제스
▁처절
▁아이유
▁공과
▁나들목
▁Fem
놀이
▁리조
▁워낙에
▁저렇게
▁공약
▁설화
▁냉각
▁모닝
▁수용소
▁준결승
▁남작
asy
▁준공
▁Rem
▁거스르
▁출루율
▁출중
▁여정
▁쐐기
▁정확도
▁월급
장이
rain
▁코파
▁뷰티
▁튜닝
▁카밀
▁따라다니
▁co
▁매너
▁은혜
▁피치
▁우습
▁탈당
니스트
▁충청북도
▁급기
▁im
▁한탄
▁Out
▁Lo
▁카를로스
IE
▁마운드
▁무효화
UE
▁열악
▁ㅋㅋ
▁혹사
▁페이트
규모
▁휴게소
▁켈리
총리
토르
▁슬퍼하
▁편안
▁닫히
▁동요
▁제다이
▁기복
▁무르
▁슬리
▁키사
▁화나
▁채집
to
▁갈라
▁출근
▁카오리
▁구두
▁예언자
▁증기
▁""
24
▁숙이
▁더비
▁노려보
▁러시아어
ana
▁재사
▁시가지
▁쪼개
▁근성
▁동체
▁금호
▁댄서
▁한도
▁교향
▁트리스
▁망가
▁미끄
▁매출액
▁동탁
▁네이트
▁1944
▁광탈
▁LCK
▁훅
▁득점자
▁사출
▁가호
▁픽업
▁데우스
▁리전
▁박준
▁포트리스
▁간선
cl
▁151
▁당첨
테이
▁매칭
▁여권
▁OPS
▁실명
▁1930
▁문고
▁선방
▁지주
▁자회사
▁농협
ield
▁원활
▁사당
▁체리
▁주고받
▁호기심
▁End
▁부럽
▁실정
▁무빙
▁전두환
▁제라
▁궤적
▁이변
▁헤매
▁소매
▁금화
▁카노
▁신칸
▁전세
년기
▁256
▁토로
▁999
▁징징
▁반대편
▁OB
▁카디
▁고산
▁포맷
▁무림
▁내수
▁비장
▁쩔
▁부흥
▁노기
▁이노우
▁불어
▁베인
▁불신
▁야심
▁창병
▁Fi
▁구단주
▁상용
▁형편없
▁늦추
▁차후
▁학술
▁김두한
▁인벤토리
▁시에
▁농사
▁초선
▁부당
▁숀
심장
▁괴리
▁Hell
riend
▁신칸센
▁뽐내
▁감히
▁POP
▁등교
▁이은
▁일어서
▁중전차
▁일절
▁퀄컴
▁태자
▁Miss
▁사안
코어
▁매달
▁열등
▁성역
atic
▁시스터
▁유방
무소
▁동갑
▁이질
▁탬
▁세레
▁더욱이
▁1965
클럽
▁사극
▁유난히
▁법학
▁저리
▁Air
▁자처
33
▁교감
▁모범
▁친정
▁야마구치
▁부호
▁night
차례
▁준하
▁코타로
▁팔찌
▁1964
▁동지
▁잔디
▁순교
▁서해
▁배열
▁충북
▁향기
ittle
▁소시
▁수식
▁테일러
▁김일성
▁스타팅
▁지표
▁숏
▁허공
▁군복
▁SG
▁sc
▁세일
▁PVP
▁못지않
▁함포
▁민정
▁안성
LS
▁목적지
▁서지
▁세세
대기
▁에일리언
지부
▁커먼
▁포토
▁리마
▁확립
▁아이언맨
▁교직
▁클레어
▁다짐
▁Hy
▁6000
뮤직
▁깽판
▁구절
▁q
▁아카이
▁just
▁Vo
▁지극히
▁380
▁트로이
▁오징어
▁타나
▁영동
▁서정
▁음주
▁카스미
▁웨어
▁애교
▁불로
▁일본식
▁정동
▁신대
▁Mod
▁막아
▁파파
▁바주카
▁스캔들
28
▁엿보
▁어리석
▁보리
▁센티
▁빅토르
▁애시
▁설비
마침
▁랜턴
▁수험
▁아홉
▁Di
▁VR
▁액셀
▁필연
▁쑥
▁이용해
▁이치고
▁아몬
▁패미
▁부대원
▁밋
▁가뜩
▁라틴어
▁넥슨
▁콜드
▁본성
▁직역
▁차관
▁챌린저
▁역병
▁자주포
▁럼블
▁때마침
▁신흥
▁케로
▁마차
▁출몰
▁설계도
▁고폭탄
▁Sy
▁후예
▁토오루
▁노엘
▁바비
▁샤크
▁MT
▁국산
레스트
▁볼륨
▁학번
▁스타크
▁로딩
▁시코
▁레몬
▁YOU
▁예장
▁가급적
▁tvN
▁쏠쏠
▁억지
▁일렉트로
▁손아
▁집중력
▁가뜩이나
▁수녀
▁팔라딘
▁what
▁휩싸이
▁발악
▁조폭
▁XXX
▁임원
▁중견수
▁1920
▁King
▁서대
▁연구실
▁Ang
▁수상자
사관
▁게릴라
▁개개인
▁토네
ony
▁연비
▁그려
▁김택
▁하타
▁자크
▁직구
▁차선
▁악랄
▁전폭
▁승려
▁페니
▁도요
▁스콧
▁소동
▁접근성
▁반갑
▁호쿠
▁왠만
▁강판
▁재사용
▁노조미
▁조영
mania
▁상체
▁소감
▁성형
▁야드
▁파이브
▁마도사
▁다비
▁폿
▁리우
▁포지
▁첨단
▁상가
▁안산
▁절규
▁매스
▁전리
▁칙
▁콘티
▁페가
▁인터페이스
▁용맹
▁소규모
▁서킷
▁자연수
▁리에
▁STER
▁최영
▁노이즈
▁반항
▁공산주의
▁시몬
▁동인지
▁0000
로프
▁가르침
▁샤프
▁UFC
▁EMP
ma
▁강행
▁총탄
▁IG
▁즉각
테이너
동원
이센
▁박격
▁실황
▁ㄹㅏㅁ
▁태조
▁Cy
포드
▁건재
▁리쿠
▁펠리
▁따돌리
▁드라큘라
란트
▁먹방
▁진료
▁카린
▁오로라
▁퇴사
▁악용
▁퇴출
▁생산력
▁이우
▁와이어
▁EA
▁패기
▁마에다
▁플루
▁기성
▁크루즈
블릿
▁사사키
▁양측
▁만료
▁빈사
▁IDOL
▁광신
▁밀란
▁길들이
▁타케시
▁밀집
▁초사
▁바루
▁사임
단체
▁딱딱
▁웨이트
▁1600
▁밉
▁우아
▁아델
▁카무이
곡동
미스
타르
▁재난
▁쿠파
▁대상자
▁오인
▁옵티
▁포럼
be
▁자수
▁원내
▁이선
▁공성전
▁131
▁카타르
숨에
▁단숨에
▁자신감
인드
무기
▁타국
▁게리온
▁수고
ual
▁목요일
▁white
▁Run
▁장편
▁카탈
▁카지노
▁말미
▁솔라
▁로사
▁무전
▁남동
▁허위
▁무궁화
▁적진
▁스피커
▁파인
▁드라군
▁페르난
▁학회
▁스위트
▁은밀
▁MASTER
터스
▁유토
▁대출
하하
▁부평
▁벅스
▁안면
▁변질
▁퍼부
▁마사키
▁초당
▁한심
▁소용돌이
▁대주
▁수요일
▁관동
▁광복
▁프랭
▁대대로
▁소극
▁원고
▁메테오
▁스티커
▁진가
▁저격총
▁경성
▁살피
▁에밀리
▁마이트
▁괴담
▁투하
▁선대
▁우체국
ecial
미즈
▁총격
▁내야수
▁입학식
▁School
▁덫
▁생산량
▁좌표
밀리아
▁SV
▁UM
▁원호
▁보증
▁지그
어먹
회장
페르
▁MLB
▁낙인
ane
▁깁
▁운운
▁물리학
▁외래
▁다단
▁멀쩡히
▁통신사
▁가브리엘
▁SO
▁홍준
▁승천
▁수비진
▁서초
▁태세
▁Rec
▁분기점
▁치명상
▁민원
▁마징
▁마징가
▁장타율
▁되살아나
▁대각
▁백합
▁미타
▁Sound
▁부도
▁전편
▁뮬
▁자유자재
Fat
▁다중
▁단골
▁청산
▁Art
▁타노스
▁샴
▁아야카
셔츠
▁빅뱅
▁축적
▁카이사르
▁선제골
▁램프
▁이승만
▁지상파
▁든
▁김전
▁뒤덮
▁사쿠라이
▁전교
▁마커
▁케이트
▁하야토
▁사에
▁재위
▁경매
▁벡터
▁BAS
ope
ret
▁증권
▁don
▁초래
▁아이작
▁야쿠자
▁염려
▁영미
▁소실
▁Femme
▁동창
티어
▁달걀
▁물들
▁도도
▁우루과이
▁마운트
▁테이크
▁가축
▁대파
▁일진
▁way
▁김희
▁쉘
▁흑화
▁Arm
▁탄도
▁아이리스
▁피에
▁골리
부시
▁결함
▁아루
내리
▁계열사
▁Cat
▁소설가
▁미시
▁호전
▁여고생
ision
▁꺾이
범죄
▁이마트
▁컨트롤러
퇴근
▁적료
무장
▁EM
권자
▁고속도
니즘
▁경희
▁히노
▁Rev
▁로스앤
▁로스앤젤레스
▁베가
▁사로잡히
대교
▁부츠
▁어인
▁인맥
▁욕하
▁천계
베르트
▁태블릿
▁괄
▁Ge
▁마모루
▁마이너스
▁레지스
▁캐롤
▁대법원
elf
바퀴
▁플래닛
▁합당
▁제시카
▁방금
▁렀다
▁리트
▁인내
▁태그팀
▁어드밴스
▁리베
▁고속버스
▁강적
▁설레
▁루카스
▁주방
▁바이스
▁칠레
에이터
▁고어
▁김전일
Fatale
수수
▁강성
▁비시
▁막바지
▁FemmeFatale
▁일련
▁스코프
▁DO
▁이과
▁둘러싸이
▁그닥
재판
카즈
▁WE
we
▁피드백
▁구마
▁당나라
▁프로리그
▁간략
▁VIP
▁동래
str
▁오너
▁궁지
▁기밀
▁세르비아
▁매수
▁계좌
▁소행
▁완수
즈카
일으키
▁불러일으키
▁발칸
ㅈㅓㅇ
▁식신
▁홍준표
▁피처
▁경량
▁세나
▁슈퍼스타
질기
▁부식
▁시집
▁총괄
▁레이터
▁끈질기
ational
▁박주
▁불멸
▁Yeah
▁크로니클
▁두부
▁양국
▁빨강
▁지령
▁1961
▁실무
▁허구
▁헌신
▁원천
▁입술
▁페더
▁모친
▁소피아
▁야시
▁자진
ouse
▁예명
▁꽝
AG
행위
▁요하
▁발전기
▁브라더
▁사용법
▁할리우드
SS
▁일보
▁하세
▁공방전
수스
▁석궁
▁우크라
▁화수
ORE
▁다이나
▁파산
어찌
appy
▁작별
▁Order
▁팝픈
▁팝픈뮤직
▁광석
▁시궁
▁극소수
▁마작
▁후타
ㄴㅔ
려드
▁튀기
▁이스터
▁황태자
▁대잠
▁족장
▁양파
▁NHK
▁효과음
▁편대
▁미츠루
▁이에
▁1100
▁넵
▁MD
▁섬유
야샤
▁성도
▁이누야샤
휴일
▁Elect
▁무언
▁그려지
▁무작정
수아
▁배지
▁에이전트
▁회화
▁여당
▁자취
▁어찌어찌
케인
▁br
▁악세
▁제르
쿠로
서야
▁호노카
▁제멋
▁연금술
ness
▁하임
▁가명
▁EXH
▁술법
▁군기
▁창업
▁쓸데없
▁TCG
▁뒤집히
▁반말
꿈치
▁혼종
▁정계
▁쿠르
▁공로
▁초필
▁반환
▁검은색
▁스플래시
▁양현
▁김혜
▁네모
▁삼거리
▁유로파
▁대본
▁얼핏
▁아의
▁CON
▁방황
▁이치로
스트로
▁메꾸
▁프로세서
▁양키스
▁소심
▁바하
▁신디
▁수준급
▁키리토
▁토론토
▁진작
▁주작
▁하부
▁아즈사
▁하워드
▁코카
▁그놈
▁소진
▁수락
▁카도
▁엄지
▁후일담
inc
▁정명
▁허세
▁돌아서
축구
▁완전체
▁RG
▁성채
▁자잘
▁헬스
▁정립
▁천적
▁미라클
▁블레이즈
델피아
▁필라델피아
▁택배
라이나
▁스크래
▁병단
같이
▁적발
▁주범
▁SHOW
▁교섭
▁소피
▁프론트
▁운항
▁조형
▁스칼렛
▁전리품
▁214
▁말장난
▁어비스
▁기마
▁연예계
▁껄
▁당원
▁서드
▁적색
▁옵티머스
▁미지수
▁애당초
▁이노우에
▁이안
▁휴일
▁과부
▁dis
▁한몫
▁대사관
투아
투수
▁기미
그룹
▁리노
▁복싱
▁매진
▁폴더
▁선발투수
▁연하
▁태종
▁공휴일
시계
히트
▁world
▁다인
day
▁beatmania
▁도호
▁폭동
▁점거
▁She
▁결장
▁신주쿠
▁키워드
▁Da
▁기한
▁임창
▁콜로니
▁수평
its
▁로만
omb
▁고령
▁카가
▁펄스
ham
IV
▁뛰쳐
▁대표작
▁경장
▁지망
▁리브
▁광범
▁스왑
▁탄종
▁후궁
▁본디
▁시엘
▁조운
▁파고들
▁당주
우루스
저트
▁양호
사의
▁냉전
▁정거
▁코시
▁키퍼
▁루이지
▁종일
▁좌익수
▁제정신
제국
▁사이퍼
▁쓸모없
▁들려오
ㅅㅔ
▁아멜
▁정류소
투표
▁340
▁유포
▁141
▁명작
▁요미우리
▁ㄷㅡㄴㄱㅏ
▁콜라보레이션
▁비토
▁도전자
▁흐리
ㄴㅈㅓㅇ
▁속삭
▁급기야
▁재고
날드
▁교주
▁유서
▁깊숙
▁도쿠가와
▁강유
▁킹스
▁ㅇㅏㅅ
▁고독
▁빌라
▁신이치
▁성추
퍼런스
▁당분
▁정은
▁후안
▁상대식
▁naver
▁볼프
EX
▁토탈
▁애프
▁히데요시
▁더스트
▁작살
▁산악
▁개인전
ious
▁스폰지
▁기온
▁툼
▁탄소
▁호세
ㅇㅓㄴㅈㅓㅇ
▁교란
▁프런트
▁빼돌리
==
▁ap
▁상회
▁셀프
▁제이드
▁압살
▁레스터
▁윌슨
▁다이브
▁불사조
▁텔레비전
▁피곤
사이드
▁노숙
▁에리카
▁엑소
▁창당
▁해수
▁건전
▁박격포
▁씁
▁오모
▁일쑤
▁프로그래밍
▁부추
▁여사
▁섭외
▁불가사의
▁초토
▁프랑켄
▁루터
ivers
▁액세서리
▁동봉
▁게임기
▁스크래치
▁사부
먹이
세데스
▁메르세데스
▁te
▁Not
▁언행
▁출퇴근
▁쟁탈
▁캡콤
아티아
▁예비군
▁크로아티아
ANC
데아
▁합창
▁제식
▁좀비
▁SW
▁오클
▁양주
▁오버로드
27
▁공익
▁^
aut
▁지기
▁확연히
매니아
▁폭발물
olution
▁정거장
인간
▁상속
▁아그
▁시그마
▁미성년자
ERS
▁신축
▁아지트
▁하드코어
▁Ke
▁손흥
▁승기
▁RAW
댓말
▁정교회
▁존댓말
▁상권
▁싱어
▁프로이센
▁옥타
▁상반기
▁도리어
▁표본
▁글러브
▁디디
▁로망
▁폭사
23
▁위즈
▁캐서
▁With
▁장병
▁김창
▁반다이
▁다툼
▁트린
▁위탁
▁합하
▁증세
▁DEF
▁스파르타
▁난전
▁광범위
▁윌리엄스
투르
▁네메
▁막부
▁셜록
▁상표
▁장안
▁행태
▁Every
▁지자
UC
▁리액션
요환
▁세션
▁글래
▁아역
▁손흥민
▁평원
▁피라미
▁군함
▁들이대
▁올라서
▁프리즈
▁종사
▁화자
▁프리스트
olog
패스
▁310
▁까먹
▁다정
▁와우
▁자연스레
▁한조
▁돌려보내
▁직감
▁도피
▁우시
라이어
▁입맛
무늬
▁바우
▁시한
▁미끄러지
45
▁해커
▁현명
던트
▁오재
▁질량
▁체이
▁정장
▁마이어
▁브릿지
주리
▁아부
66
▁임요환
▁어처
▁랏
레미
▁진군
▁김준호
▁시즈카
▁뾰
▁위화
▁쾌속
▁수원시
▁007
▁마음껏
▁코이치
29
▁든든
▁1943
스톤
▁최우수
▁카바
▁수다
▁백미
▁거느리
데르
▁러셀
▁넘쳐
▁안나
▁Chr
▁캐서린
▁FR
▁사다
▁저번
▁짤방
▁사이오
▁**
▁꼭두
▁방정
▁Get
▁해운대
▁원제
▁제구
▁체질
▁구자
▁듀티
▁서원
▁망자
icro
▁나나미
지리
▁Skill
▁박병
▁추석
▁Boy
▁공동체
▁술탄
▁정세
▁전전
▁TB
▁송구
▁대문
▁호르
▁무상
▁화요일
즈마
▁내걸
▁가솔
▁고장나
ty
▁왼팔
▁미야자키
▁손바닥
▁어우
▁시노부
▁비하인드
▁Har
▁if
ely
▁최면
▁뢰
▁낙원
▁옐로
▁외출
ny
▁김세
▁국력
reat
▁겨누
▁촛
▁720
▁1946
▁스루
▁피츠
▁ㄴㅡㄴㄱㅜㄴ
▁집결
▁Des
▁대명사
▁르네
노기
▁CT
▁시저
▁중앙선
데기
▁환각
▁커터
▁탈옥
▁영화판
▁토네이도
▁ㄲㅗ
▁신원
▁주파수
▁메라
조각
▁기총
▁도모
▁사과문
나드
▁비오
▁나날
▁대부
▁김정은
▁=,
▁관념
▁지침
리에
▁재임
▁켄타
▁군사력
▁Ab
▁무협
▁굳어지
▁부여받
▁1942
▁불상
▁에덴
▁1954
▁어처구니
▁예배
베르토
▁아폴로
▁작아지
▁가출
▁순진
▁인즈
▁평민
▁경찰관
▁키메라
아아
▁연희
▁한스
▁ㅅㅏ
▁열받
▁홍대
▁흡연
▁리포트
▁바오
▁영분
▁분경
▁생사
▁추첨
▁슈타인
▁까닭
무니
▁480
▁1958
▁171
▁랫
소스
▁소수자
▁걸작
▁DA
▁표출
▁벵
킨스
ient
▁영기
라이즈
▁>,
▁마더
▁미상
ters
▁보답
▁정중
▁교화
▁마누
▁혜성
▁Big
▁논하
▁리젠
▁PSP
▁민영
▁웨일
▁만세
▁탐욕
▁당당히
▁북방
베리아
▁Tri
▁스님
▁부메
▁담당자
▁빡빡
▁무자비
의사
▁괴도
▁금기
▁튜너
▁듀엣
▁줄곧
▁png
▁지름
▁예리
▁1900
▁대용
▁드리프트
▁육지
▁자발
▁181
▁체가
▁커리
▁가든
▁단테
▁진흙
▁류현진
▁UR
▁반칙
▁부메랑
▁후유증
▁이동하
▁생물학
▁초고
▁단조
리우스
▁시력
▁견인
▁다이어트
받침
▁졸개
▁추이
▁kn
▁츠루
▁의미심장
▁이어인
▁성체
▁전태
▁카운티
▁섬세
▁양아치
▁유행어
▁발상
▁어워드
▁8000
▁연혁
▁미디
▁사마의
테스
▁석화
▁피리
▁성녀
▁차종
▁Ext
▁협곡
▁DT
▁취직
▁트림
▁스탠다드
체스
칼리
▁생몰
▁수작
▁임관
르기
▁걸어오
▁문헌
▁XP
▁복음
▁자문
▁피어
프레스
▁샤이닝
▁양념
▁기관차
ship
ful
bl
uch
▁RS
▁제이스
85
▁id
▁라오
토시
▁설득력
▁방랑
크리트
ㄴㅡ
▁바바
▁성균
▁오피스
▁잉크
▁CCTV
▁라자
ports
▁STAR
클레스
▁천황
▁총사령
▁매복
▁봉황
▁상원
▁원년
▁고분
▁충성심
▁빡세
▁윤종
▁성균관
▁1941
▁군벌
▁염소
▁파장
▁ㄴㅡㄴㄱㅜ
버린
▁조율
▁오디
▁EB
▁기라
▁원격
▁데카
▁직관
자카
▁군산
▁입체
▁통용
▁박세
▁부화
▁성모
▁세간
▁경쟁력
▁방어선
▁스펙터
▁클락
▁퍼스
▁가토
▁초식
무진
▁태연
▁Inf
리케이션
▁선공
▁빅터
▁Sil
▁츠카사
슬러
▁OO
▁나츠미
▁송이
▁격노
기업
기지
▁ㄱㅡ
테리
▁송도
▁255
▁샤아
▁창의
▁텔레콤
▁White
▁풍자
▁봉기
▁야하
▁채소
▁OR
▁굴복
▁비숍
니트
▁조장
▁Bar
▁메스
▁요일
정역
▁시동
▁Fre
▁클로즈
▁KS
▁제비
▁디테일
▁기만
▁낯설
▁정인
▁미련
▁귀중
▁선체
▁1948
▁웍
▁역기
▁회고
▁Back
▁뫼
▁토템
▁헌데
레트
▁격돌
▁Win
▁틀어지
▁서커스
▁흑백
▁학창
▁프레데
ump
▁만회
▁청량
▁장기간
▁만류
26
▁무의
▁윈스턴
▁유대인
▁양면
▁유감
▁농어
▁씁쓸
▁히로유키
▁갈래
▁송병
▁동참
▁재팬
▁최전
▁아테네
co
▁뒤이
▁특촬
▁조제
▁잠복
▁크래
▁420
RAM
▁난동
▁증원
▁수리검
▁시궁창
▁배분
▁여의도
▁qu
▁PO
▁느긋
▁아제
▁스테이트
▁가치관
▁피에르
버릇
노미야
▁마비노기
도스
혁명
▁창시
ift
▁태고
▁자위대
▁불러들이
산물
ENT
ATION
▁GL
▁만두
▁커브
▁판도라
▁켄이치
▁초급
▁전년
▁솔로몬
▁타쿠미
▁우익수
▁손녀
▁다이너
▁그리스도
▁NG
▁jp
▁모라
▁모호
▁오드
▁고양시
▁공병
▁색채
▁콘크리트
▁부풀
▁바이올린
▁215
▁아틀레
▁초원
▁간식
모사
▁샨
▁FE
▁파키스탄
▁젤다
edia
호도
▁오덕
▁하와이
▁베니
마츠
▁퇴근
▁Met
▁Sky
▁심리학
▁치중
▁학계
▁도타
▁왕궁
튀기
▁즐거
▁down
▁연루
▁관악
▁벌칙
▁수소
▁폭포
▁접시
▁바늘
▁뻥튀기
▁실험실
ALL
ERT
▁단신
▁백색
▁하코
▁off
▁메아리
▁박민
▁진과
▁소음기
MC
▁사토시
▁제휴
▁FN
▁시구
▁포털
▁인기투표
▁지독
▁하르
▁고려대
▁정유
▁맏
▁나츠키
▁나고
▁1949
▁컨테이너
▁강변
▁자드
레인지
링크
▁맥도
▁쇼핑몰
▁텐션
▁횡단
▁Act
▁허영
▁이성계
▁333
▁왕따
▁최성
▁광부
▁성서
▁CEO
▁금전
▁선구
▁카세
▁테크노
▁235
▁제이크
▁서진
▁러블리
틀링
▁제멋대로
▁오퍼레이터
▁208
▁타라
▁흘러나오
▁every
▁변종
▁거제
▁거주지
▁유엔
▁작렬
▁친밀
▁거슬리
▁려
바위
oud
▁병맛
▁인장
공격
▁쇠퇴
▁현존
▁사육
▁어중간
▁라운
▁1936
▁삽화
▁출생지
▁FX
▁206
▁갭
따르
▁바시
▁어지간히
모니
▁떠들
▁열풍
▁UFO
▁Song
각시
▁}{
▁..'
▁집정
▁TD
▁듬
▁초동
▁늘어놓
▁성폭행
▁파업
▁양동
less
▁실천
▁포고
▁키바
▁육식
▁프레디
▁메소
▁항속
▁대머리
ize
▁이승엽
▁비늘
▁가차
▁퍼뜨리
▁욕구
▁향수
▁디스코
▁자손
케이
▁뇌격
▁시중
▁헤딩
▁럽
▁May
VEL
▁마장
▁후려
bps
▁em
▁늘어지
▁인프라
드래
사우루스
천동
득점
방향
변속기
95
니스탄
▁런닝맨
▁오마주
▁체이스
▁심플
▁육박
▁마츠모토
UB
▁거물
▁서독
▁유쾌
▁안도
▁부치
▁정현
▁배급사
▁남용
▁동선
▁어머
▁161
▁하렘
▁아론
▁GAM
▁나루호도
▁미쓰
▁경인
▁ㄹㅏㄹㄲㅏ
▁850
▁NL
▁ve
▁되돌아가
공화국
▁비행선
BM
▁병영
▁편제
IST
▁덩크
▁빌미
▁갈고리
▁좀처럼
지대
▁문의
▁마그마
ape
ger
린스
▁틀림
▁세츠나
▁소이
▁크러
▁con
▁난폭
▁도르트
▁계보
▁That
▁Rain
▁김인
▁카멜
▁모터스
▁본국
aka
러드
▁대여
▁피라미드
▁우로
▁코지마
▁휩쓸리
▁개드
▁아픔
▁처단
▁철회
▁비약
▁사다리
▁누마
▁스릴
▁개틀링
▁김하
네트
▁감시자
▁아울러
ita
▁명인
▁수배
▁RAM
▁좌석버스
▁독성
▁멸자
▁오미
96
▁인피니트
▁단선
▁얀데레
▁송곳
▁영리
▁팀킬
▁합방
▁Hey
▁알아듣
▁카에데
▁표방
▁속옷
▁God
▁김태균
▁RF
▁벽돌
▁와일드카드
▁가물
▁내년
의회
ORM
▁스플릿
타자
▁단간
▁라트
▁참패
▁호대
▁이따
▁페인트
▁290
▁극찬
▁언락
▁떨어트리
▁중얼거리
▁이윽
▁청색
▁데이브
▁선발전
▁커넥
▁위나라
▁이윽고
▁젊은이
▁끝판
zy
▁신시
▁Top
▁리오스
▁디에
▁북극
▁올라타
▁쭈
▁도마뱀
모자
▁밴시
▁하데스
▁정렬
▁순교자
▁패거리
▁설사
▁데이즈
▁아이리
▁앞마당
▁불가리아
▁페로
레인저
▁장래
▁북두
주군
rop
▁난해
▁마드
▁소인
▁열전
▁나기사
▁무법
▁야기
▁트레이서
▁want
▁전용기
▁축구단
때로
빠르
▁Pe
▁토와
76
▁친일
▁버디
▁버금
▁정벌
▁풀백
IGHT
▁마니
▁유목
▁심심찮
▁Battle
▁Game
▁서면
▁성검
▁플라워
net
▁포이
▁기겁
▁Moon
▁이복
▁콘테
▁대각선
▁베라
▁때우
▁지아
▁헛소리
▁상대편
▁수레
▁성문
▁코스타
▁영장
▁석탄
▁어린애
▁징병
▁야채
OK
▁정규군
▁TEC
▁WAR
기어
ㅇㅗㄴ
암동
렉트
ara
com
▁칼럼
▁화속
▁SUP
▁선도
▁무난히
▁일자리
▁more
▁비욘
▁1955
▁망원
비우스
▁역학
▁당분간
ren
bo
▁노브
ward
▁행동력
▁도르트문트
▁불운
▁영창
지원
▁손수
▁스몰
▁경위
▁여건
▁max
실히
운전
▁좆
▁호타
▁미셸
▁게리
▁Bra
▁최재
▁특출
▁곡선
▁바실
▁유우야
▁젯
▁존속
row
▁줄줄이
▁책임자
▁코로나
▁스케치
▁가까스로
무스
▁중성
▁스케이팅
▁일직
▁보태
버거
▁대강
▁절묘
▁212
▁유추
▁코나미
▁가창력
포스
▁위화감
▁뒤틀리
▁허리케인
작전
▁반자동
▁갑판
▁내려놓
▁광저우
▁Dragon
▁새로이
▁한가
▁NS
▁새해
▁인민공화국
▁선풍
▁여진
▁남구
▁토요타
▁LS
▁분사
▁꼭두각시
▁괴로
▁KG
▁성추행
▁자부심
▁LCD
▁특공대
니엄
▁되려
▁북유럽
▁Special
버드
▁라이터
▁드레이크
▁국사
메다
▁과실
▁칭송
▁밸리
▁영락
▁플레이트
▁인테르
▁내륙
▁복종
▁울부
▁1959
▁터미네이터
▁총통
▁나고야
▁밀레니엄
▁개드립
▁피겨
▁독재자
▁레트
▁카야
▁친위대
▁베이스볼
▁유명세
▁가솔린
여행
▁강당
▁흑룡
▁루시퍼
▁역전승
▁교육부
▁다나카
연합
▁알프레
▁가메
led
▁사이언
리아나
aven
▁매트릭스
▁나데
▁민지
▁이신
▁본문
▁푸른
▁연방군
▁탤
▁001
▁카트라이더
▁부과
▁자석
▁할당
블랜드
▁초회
▁치타
▁wiz
▁Track
▁클리블랜드
러기
짜기
▁쿠미
럭스
코프
▁경이
▁진나라
▁이제동
▁팩토리
▁FFFF
▁귀도
▁와이드
▁호스트
▁Pop
▁플로리
▁가변
▁광화
▁행선
▁데프
클리
▁래스
▁Amer
▁티코
▁파괴자
LD
▁Hot
▁태수
▁발산
카스
▁스트레이트
그레
▁뮤즈
▁서점
그래
▁해임
▁서울역
▁캬
▁니키
▁도미니
▁부추기
▁대담
▁목표물
▁소중히
▁1956
▁광양
▁피고
▁관제
▁DAY
▁가네
▁플러그
토록
▁요건
▁임프
▁킬로
▁아산
▁카즈키
▁치부
▁전투원
▁협약
▁벨벳
▁우사
▁경호원
▁크림슨
▁조달
▁내심
▁사파이어
▁종자
▁울부짖
▁이치카
하이
▁마포
▁뭣
▁레미
▁오반
▁의리
▁펜스
▁레고
▁특허
▁의석
▁장막
▁머들
▁TG
▁무성
여지
▁원동
▁Cont
▁살라
▁피니시
부대
▁발간
▁베드
▁앙리
▁이시다
테나
▁핵무기
▁기와
▁추월
▁십상
▁활주
▁익스트림
▁they
히사
▁안드로메다
▁강연
▁칠흑
패드
▁왕녀
▁협공
▁부회장
▁스켈
▁들려주
▁유민
▁마티
▁잔당
▁합산
▁백신
▁tw
▁미완
▁차남
▁신령
▁포르노
▁계약자
▁명령어
▁에스파
바키아
▁아란
▁보단
▁이화
▁조회
▁트리오
▁골대
▁게이밍
▁슐
▁음양
▁baby
▁증후
▁TN
▁마고
▁광주광역시
▁207
▁이분
▁와타루
▁네메시스
▁무찌
▁첩보
▁온화
▁적정
▁이상민
34
▁입성
▁심리전
▁창세기
▁무심
▁토의
▁지갑
▁오스카
▁주군
▁너구리
▁멧돼지
▁1939
▁등산
▁520
▁아치
ands
▁ㄴㅜ
▁휘둘
▁청동
▁COM
바시
▁각기
▁금성
▁마늘
▁에우
▁뒷받침
내기
▁불기
▁대한항공
쿠버
ien
▁석방
▁우와
▁온전히
▁플라잉
두근
▁인분
▁동물원
▁뾰족
▁랄프
▁내려찍
▁파드
▁BASIC
▁패트릭
▁날아오르
▁넵튠
▁노랑
▁자아내
ze
▁신공
▁프랑스군
▁매지컬
▁차세대
▁오피
▁황무지
▁루리웹
▁이지스
▁물려주
▁되돌아오
▁경신
▁빵빵
▁나시
▁선진국
▁기타리스트
▁퀑
▁김현수
▁단단히
▁단말기
▁대적
▁로자
▁박기
▁코리
▁새신
▁주스
▁기병대
▁이터널
▁PA
▁슈타
▁IDOLM
▁초중
▁위인
아스
orts
왜란
▁모티
▁위생
▁무찌르
▁제품군
▁서사
▁단백
▁영재
▁화장품
지물
캐스트
▁임진왜란
▁good
▁탈것
▁푸드
▁777
▁바사
▁각색
▁트레버
▁무어
▁교재
▁빈스
▁역관
▁바이올렛
ited
▁나우
▁사시
▁외야
▁호라이
▁단절
▁분자
▁재해
▁209
▁팔꿈치
▁Yes
▁구치
play
▁Bur
▁겉보기
▁애프터
▁뛰어다니
▁천체
▁조비
▁티탄
▁도널드
▁미공
▁과하
▁구세
▁다트
▁네타
▁문호
▁Project
▁서문
▁데이빗
▁크레이지
▁배고
방사기
▁화염방사기
▁정진
▁Mir
▁철벽
▁col
▁over
거진
▁배럴
큐버스
au
▁황자
▁무언가
▁블라디미르
▁송파
▁투타
▁두드리
▁TF
▁정제
▁최적화
르바
그러지
▁로마자
▁심슨
▁감속
▁그래프
▁로로
중국
▁붕대
▁Sur
▁버금가
▁보유자
▁이나즈마
▁비정
▁마코
▁항로
▁동거
▁유세
▁인신
▁고스란히
▁1400
▁전류
▁친근
▁소모품
▁배틀필드
▁FFFFFF
▁선명
▁다이렉트
용차
▁Off
▁솔리드
▁터무니
▁스탠딩
▁창원시
▁단연
▁이가
▁콜롬비아
▁시제
드리히
▁전투복
ius
▁상정
▁로드리
▁뿜어내
파니
▁성급
▁몰아치
UK
둘기
▁자라나
▁일부분
겨지
로이
▁사면
▁사설
위치
▁이어폰
▁집정관
▁사바
▁유스케
36
▁글리
▁버즈
교육
▁터리
▁리바이
▁상류
▁중령
▁안토니오
▁신촌
▁포화
▁동포
▁증후군
▁주성
21
블랑
준호
▁단거리
▁지휘자
▁체급
▁강호동
▁채굴
▁비범
▁KD
▁~'
▁타협
▁에로게
▁사카모토
ata
▁심포
▁부딪치
▁프론티어
▁yeah
HD
▁콥
▁군단장
▁노사
▁정연
▁비즈니스
▁독설
▁모방
▁액트
▁Bad
▁Int
▁김택용
▁간장
▁WOR
▁칸나
▁현질
▁아노
ㄸㅏ
▁풋볼
▁매사
▁제네시스
▁탈리
▁투기
▁랜디
▁써니
oney
▁장단
▁정직
▁민병대
▁선비
▁엠파이어
▁김영삼
INE
▁감도
▁공석
▁노마
▁두텁
▁선형
▁대제
▁락스
▁장동민
▁한결
▁황족
▁DDR
▁톡톡
▁프리드리히
▁데뷔작
▁1938
▁대두
▁들통
▁백수
▁피버
▁류지
▁코브라
▁자민
▁시프트
▁자의
▁결투장
▁세이지
▁노이
▁스탠스
▁최우선
▁당근
▁시세
▁군중
▁인스
▁Po
▁안치
▁WCS
▁미유
▁나탈
▁침식
▁나폴리
▁아르테
▁'-
▁저력
vent
▁가산
▁미토
▁Ul
▁결별
▁안중
▁관대
▁어도
▁역전패
▁끊이
▁마호
▁산화
▁영령
▁체조
▁치히로
준혁
ck
▁억압
▁골리앗
▁버니
▁성유
▁파열
▁긴장감
▁그지
▁휴전
▁천도
▁조류
▁주시
틱스
▁걸스
▁행정부
▁JC
토미
▁전갈
마트
드래곤
▁메이크
▁운전자
▁275
▁탈탈
▁블루스
▁Ass
▁노스케
제이
▁카논
▁리조트
▁관건
▁일갈
line
▁메두사
▁Are
▁동대문
UL
▁마공
▁오아
▁짓밟
▁org
▁탄수
▁외래어
▁그토록
▁하늘색
▁TWICE
렁이
▁명품
▁매개
▁비올
▁템플러
▁221
비언
▁유노
▁치프
▁튜브
▁때때로
▁성가시
▁분전
▁루드
▁광학
▁두께
▁구애
ague
▁애틀
▁Match
▁산산
▁페루
▁say
고루
▁입법
▁순순
ㄴㄷㅐ
▁졸지
▁현행
▁패미컴
AA
UST
▁Eng
▁만화책
▁소량
▁학업
ton
▁모치
▁외침
▁거유
▁휘둘리
▁눌
▁재빠르
▁교직원
방식
▁타츠야
감치
▁가가
▁즉석
찌감치
▁올리버
▁배척
▁베른
▁애틀랜
▁총구
▁노동당
▁시오리
▁#,
▁차마
▁섹터
▁지체
▁출세
▁팻
규어
▁용품
▁정자
▁잿
▁마리사
▁클로버
세이더
▁아르메
▁크루세이더
홍철
▁ac
▁쿼드
▁샌드박스
▁요동
▁PvP
▁경전차
▁대장장이
78
▁세토
▁시발
▁쏠리
▁찾아다니
피탈
▁레베
▁에프
▁AMD
▁아츠시
▁신한은행
▁프라이즈
▁음모론
▁홈구장
▁래쉬
페스트
▁자본주의
▁건립
▁스스
▁발트
▁샌디
▁조로
▁엇갈리
▁응징
▁브리핑
컨대
▁RED
▁쌩
▁폭군
▁멀린
▁시립
▁법무부
▁로미
▁하얀
▁케미
▁Char
▁가와
툭튀
▁플로리다
▁시르
▁짤막
▁여명
▁사생활
▁기린
▁헬로
▁바이퍼
▁커맨더
▁괴멸
▁금곡
▁Core
▁즘
erm
▁시애
▁최진
▁치키
▁갑툭튀
▁고원
▁엘소드
▁리벤
▁폭투
▁여행자
▁XY
▁츠바키
▁트레인
▁노후
▁셔츠
▁슬래시
▁타케루
▁see
▁캉
매치
▁피크
und
의지
ute
▁대관
▁제드
▁부두
▁티타
▁1952
▁데스매치
▁중소기업
▁데이비스
▁아쉬워하
▁재혼
▁희미
▁사업자
hy
▁행각
▁몬테
▁번거
▁수영장
▁순순히
▁케르
▁제각
▁단번에
▁최형
▁216
▁수도원
▁}}}}
▁방대
▁거듭나
▁꼼짝
▁티나
▁갱단
▁수뇌
▁경비원
▁일정량
▁}}}}}}
▁BW
▁BRV
▁리언
▁묵직
▁Now
▁일직선
▁매거진
▁자판기
▁Blood
▁퇴마
▁수속
▁뒤바
▁416
▁눈부시
▁발렌시아
▁치아
▁213
▁농어촌
▁란트
▁노드
▁부합
▁세단
▁유시
▁척하
▁힘쓰
▁마토
▁히이
▁고베
▁진공
▁우동
▁여덟
▁조원
▁다크니스
▁부녀
▁빼놓
▁넘쳐나
▁앞쪽
▁재규어
▁동국
▁아재
자루
▁2021
▁수군
▁화랑
▁탈주
▁댈
ILL
▁Rob
▁길목
▁Joh
▁타가
▁시애틀
▁요르
어들이
▁루즈
▁럭스
▁환불
▁헤라클레스
▁츠치
▁가쿠
red
정동
▁기공
▁누님
▁매점
▁리히
▁our
레즈
▁햇빛
▁티셔츠
▁아틀라스
▁서스
▁선하
▁쪽지
▁해저
▁아카기
▁Last
▁레비
▁후후
▁장녀
▁슬쩍
▁우이
▁관전
나들
▁농촌
▁릭스
ism
▁브란
▁조인
▁앨리
▁일선
▁치밀
▁서유
▁도보
▁fr
▁소름
▁ㅇㅜㄹ
▁후리
▁릉
▁욕먹
▁친선
▁테츠야
▁퍼시픽
▁간편
▁둔화
▁익스프레스
55
▁BBC
▁숙명
▁아리사
맹이
III
▁현수
▁충공
▁힘겹
▁부끄
▁볼일
▁바흐
▁명장면
▁세무
아내리
▁충실히
▁사력
▁야자
▁대장군
▁1300
▁평안
▁정적
▁위조
▁기염
▁스노
▁흉터
▁능동
▁건너편
OCK
▁충동
▁마사무네
▁선글라스
▁고모
▁레그
▁코칭
▁햄버거
▁에테르
▁디트로
▁막아서
▁디트로이트
▁심부
▁리시
▁모건
▁재화
▁오일
▁유배
▁중사
▁모탈
▁아득
▁아종
▁화판
▁급상
조작
▁ㅁㅐ
▁헌병
▁헤븐
▁right
ets
▁속사
▁필기
▁사납
▁케어
add
▁토코
▁승부조작
▁애리
▁조슈
▁친화
▁타오르
괭이
일관
게임넷
▁온게임넷
▁기판
애미
▁두근두근
▁비둘기
▁ㅁㅕㄴㅇㅡㄴ
▁기통
▁임상
▁전고
▁경영학
▁경의
▁Magic
미츠
뿌리
▁블리츠
▁마이애미
미사
▁검찰청
▁기생충
▁벤트
▁분수
▁선천
▁회자
▁강남구
▁cr
▁과다
▁악인
▁알비
▁업종
▁재선
▁미니게임
xt
포로
▁보이드
▁시라이
▁여느
▁국물
▁무모
▁통학
▁경희대
▁방어전
▁소망
▁1953
▁조선일보
▁드래곤즈
코스
▁NA
▁센트리
ama
▁구미호
▁돌풍
▁단백질
▁레이크
▁저스틴
▁완패
▁데일리
▁유소년
장구
▁료마
▁학부모
▁슬라이딩
▁가주
▁국수
▁다이크
▁데스크
▁Like
ㅇㅜ
▁메탈기어
▁안식
▁여하
88
▁풍속
OWN
▁직계
천역
▁표명
▁근래
▁자자
▁거리표
▁7000
매매
외선
▁악질
▁눈썹
▁병신
▁나뭇잎
▁짊
▁Alb
▁소아
▁초딩
▁HOT
▁중화기
▁팬클럽
▁백룡
▁동산
▁비석
▁국정원
▁pe
▁앞장
▁무네
수엘라
▁RR
▁해프
▁그해
▁쓸쓸
▁희생양
그마
▁서인
▁상하이
▁시빌
▁튀김
▁영화관
▁재판소
▁활주로
▁정종
▁진해
▁카츠키
타기
▁관광지
▁극성
니지
▁암흑기
▁피칭
▁Happy
▁눕히
▁서약
▁Soul
▁순삭
▁홉
▁호우
▁권고
▁총대
ader
▁찜
▁승부차기
▁재미없
▁Nor
▁법정동
▁사쿠야
▁권역
▁텐더
▁출연자
▁토사
▁히코
▁매그넘
▁암기
▁침체
OWER
▁거미줄
▁양도
▁차출
▁프랭클린
▁하자드
▁가세
▁박태
▁잔여
▁첨가
▁드래그
▁자가
▁미나토
▁아킬
▁RPM
이인
▁223
▁잽
▁원어
▁음란
▁남극
▁이천
ga
▁가넷
▁사단장
탕스
▁고갈
▁농부
▁세레나
▁레지스탕스
▁자정
▁성남시
▁이대호
▁몸집
▁포진
▁there
▁메르시
▁방정식
이프
▁사병
▁세실
▁토토
▁잘생기
▁총사령관
▁불허
▁프라이드
▁본드
▁사역
▁니즘
▁악보
▁사비
ther
▁생방송
▁연안
▁마크로스
▁TT
▁포레스트
ocal
▁베네수엘라
▁정윤
▁필승
▁해프닝
▁사요
▁Party
▁신종
▁그물
▁이메
▁전과
▁체로
▁리포
어내리
▁삽입곡
▁몽땅
▁이범
▁비룡
▁크리드
▁ph
▁이로
▁범주
▁코팅
▁Sim
▁Side
▁365
▁낙하산
▁GX
▁금하
▁김소
베이스
▁베르크
uz
▁이의
▁레프트
▁Show
▁볼리
▁비대
▁성동
▁클라우
▁대입
▁문성
▁사위
▁화룡
▁방관
▁이목
▁철퇴
▁갈아입
▁동명이인
▁피신
▁혼나
▁역과
▁교향곡
▁무당
ERF
▁임페
▁Edition
부리
ONE
▁수송선
▁자멸
▁체구
▁골고루
니치
▁날라
▁하이브
▁정대
▁net
▁girl
니르
▁산호
▁민트
▁선역
▁카메오
▁불안감
▁공시
▁덤벼
▁Open
자국
▁370
더리
BOX
▁도입부
ated
▁충공깽
▁아레스
▁임용
▁계승자
▁테슬라
장판
▁IF
▁깜빡
▁바트
▁쿠도
▁뒤쳐지
▁막말
▁여대
rew
▁헤지
▁크리에이터
work
▁이츠키
▁읊
▁산체스
▁장기전
ley
▁에티
▁got
▁스피리
▁1957
▁쌈
벅지
▁마취
▁Und
▁성희
▁feel
▁격납
▁순조
▁쩌
▁네로
▁주임
▁크로노스
ASS
▁장학금
▁Mark
▁조세
▁Cap
▁Way
hammer
▁역설
▁용왕
▁마키나
▁뜬공
▁수납
▁연성
▁his
▁아유미
▁에어리어
▁룽
▁링컨
▁맨날
▁청문
▁기어이
▁진행하
형제
▁레타
▁조나
▁알파벳
▁플랫폼
▁재무
▁일찌감치
▁미달
98
▁얌전
▁who
▁시위대
▁노원
▁이쁘
ster
▁붉은색
▁키쿠
▁수법
▁임페리얼
▁미용
▁공중전
▁사우디아
▁코로
▁Pol
▁투표율
▁쟁탈전
▁보급품
▁구루
▁대의
▁후카
▁도호쿠
▁성범죄
▁경순양함
▁투석
▁감염자
▁천연가스
▁방영일
▁플레인
▁하시모토
▁유수
▁급상승
▁에러
▁블루투스
▁micro
▁김호
▁SKE
▁Val
▁Na
▁여리
▁ㄹㅑ
▁작물
▁후려치
▁Angel
▁브라이
▁watch
ird
▁시커
▁터프
▁대변인
▁충주
▁타지
▁인플레
▁개화
▁반달
▁남아공
▁특출나
▁총재
▁라이토
▁쿠폰
▁퍼니
▁영조
▁시종일관
48
▁신년
▁남친
▁아프가
▁몸체
▁Comp
▁능욕
▁엘런
▁전복
▁프레드
▁활약상
▁비운
▁토카
▁내리치
▁음식점
▁내려지
▁아르메니아
선거
▁역전재판
▁복각
▁입상
더스트
▁오리콘
▁떨리
▁백지
▁정경
▁카터
▁봄버
▁바람직
▁잣
▁맞춤
▁950
▁배수량
▁금서
▁레테
▁옵스
▁지자체
▁해결책
▁변함
▁아야노
▁왕건
▁며느리
▁바운드
▁구라
▁화보
▁의존도
▁퍼트
▁부토
▁알루미
▁버퍼
▁알코
▁베르나
피드
▁만악
▁090
▁1947
▁그리폰
▁디에고
▁미공개
▁남짓
▁장담
▁시드니
▁빽
▁댈러스
▁덕택
▁큰일
▁절약
▁Legend
▁알맞
▁화끈
▁누락
▁피쳐
▁Fly
▁토우마
▁소주
▁근황
▁성주
▁푸쉬
▁개더링
▁Fall
▁Stage
▁허니
▁의류
▁전령
▁효력
▁엘더스
▁민족주의
▁경합
▁화질
▁복권
▁엑셀
▁특권
▁에어컨
▁카트리
▁부러
▁상고
▁하반신
▁기각
▁위태
▁수족
▁윤성
▁소탕
▁이석
레톤
▁교무실
▁점포
▁애틀랜타
▁잠식
▁치토
▁무서
▁상임
▁식인
▁유하
▁키시
▁폐하
▁스켈레톤
stem
▁First
▁멱
▁무패
▁분과
ura
▁선별
▁맞대결
▁일기토
▁!!!
▁245
▁중순양함
▁적기
▁벼락
▁연기자
▁한성
▁수분
▁항우
▁Sam
▁짊어지
▁아프가니스탄
▁부디
▁전경
▁희박
▁호라이즌
무로
▁수박
▁중추
라비아
▁빅토리
▁촛불
▁Perf
▁케니
▁미카엘
▁신민
▁주루
▁이관
▁통역
▁흐트
▁이끌리
▁꼭대기
▁박병호
▁life
udio
▁불분
▁상경
▁엘릭
▁유교
▁활기
▁빌헬
▁양평
▁어설트
▁엑스맨
▁구비
▁마운틴
▁꾀하
▁재주
▁예매
▁유한
▁540
▁쥴
지기
▁평정
▁경전철
벨트
▁단타
▁저항군
▁익명
▁웨딩
▁234
▁로버
▁코일
트리스
▁검도
▁자위
▁Free
▁전념
▁번영
▁FBI
▁그리스어
▁벌어들이
▁조현
▁좌완
▁가중
▁중공업
▁트라웃
▁Class
▁Final
▁추위
▁-!
▁과잉
▁판과
▁틀어막
▁생포
▁중론
▁시연
▁알몸
▁전염병
▁무소
▁비열
▁이도
▁Break
▁갑주
▁이유로
▁겸비
▁푸른색
부수
▁부기
▁불분명
고생
▁Er
▁콩두
▁행세
▁오바마
err
▁헤더
▁top
▁ㅇㅡㄴㄱㅏ
▁만화가
▁오카다
▁알루미늄
▁성우진
▁손책
▁Spring
TH
arius
▁헌납
▁파워레인저
▁소폭
▁운임
▁어쩌다
▁유다
▁오리지날
▁총회
ling
레일리아
건설
▁City
치오
▁라지
▁세조
▁승승
▁440
▁상승세
▁스튜어트
▁반대쪽
▁내공
▁언론사
AGE
▁온전
캐슬
▁~?
피어
▁엎드리
▁카자마
▁나카노
▁Down
▁키사라기
▁수뇌부
▁Never
페어
▁포메
▁불가피
가요
혀가
▁로페
▁김구라
▁무방비
ux
▁미처
▁엠블럼
▁ㄹㅏㅂㅅㅣ
▁잡혀가
▁지명타자
▁진범
▁덩달
▁249
▁막론
▁Cor
▁아스타
▁이문
▁힘내
▁MAN
yes
▁베끼
▁쇼군
▁GDP
▁투르
▁명실
▁아벨
▁준장
▁체내
만다
▁김제
▁슬래
▁이니셜
▁하얀색
소니
해군
▁조니
▁쥬라기
▁자바
▁오우거
tm
▁겁쟁이
▁잠자
▁엄폐물
▁카라스
▁중파
▁졸리
▁경비병
▁뉴캐슬
▁청주시
▁이시카와
▁수제
▁슬러
▁린다
▁비평
▁껴
▁봉하
REME
▁Mon
IVE
▁수혜
▁머릿속
▁대전광역시
슬쩍
▁If
▁노프
▁부우
▁사냥터
▁바드
▁법조
▁GOT
▁삿포로
▁잔재
▁명은
▁복부
그라드
▁How
▁메츠
ㄱㅓㄹ
고쿠
▁선상
▁대리인
▁루기
▁세가
▁벤츠
▁질질
▁급습
▁제복
▁앤더슨
▁나지
▁허술
▁-.
▁우려먹
▁후작
▁PRO
▁쌍용
▁무안타
▁BP
▁물음
▁도메
ㄲㅏㄴ
▁"..
▁더러
▁송병구
블루
▁후세
▁케로로
▁프리드
▁최원
▁동급생
▁자재
▁망각
▁죄인
▁김정일
▁엠블렘
▁광폭
▁분화
▁열렬
▁평지
▁동유럽
▁티라노
▁베토
tain
영수
▁밀러
▁나오키
▁사죄
현동
▁어로
▁유체
▁지중
ause
▁김신
▁니퍼
▁유죄
IME
▁검기
▁판본
▁뚱뚱
즐리
erry
▁219
▁사우디아라비아
▁체크카드
▁AW
▁또래
▁악수
▁인승
▁Sn
▁한승
▁신격
▁창출
▁1914
▁Swe
▁띵
▁일개
제리
▁sk
▁자치령
▁직진
▁무리수
raft
칼리버
▁1951
피온
▁9000
▁이형
▁티거
▁Mem
iny
▁226
▁레니
▁명백히
▁공채
▁입당
▁안테나
▁연호
▁품종
▁건축물
▁서스펜
나시
▁맥시
▁엠마
▁짱구
▁편도
▁마카오
▁세이부
라이언트
▁자유주의
▁로토
▁사복
▁알트
▁위저드
▁뛰어오르
안군
평균
▁팰리스
▁불발
▁저널
▁밸브
▁011
▁현무
▁광동
▁수전
▁클라이언트
▁악장
▁선후
▁시녀
▁저음
▁걷어
▁번번
▁코우지
▁염동
신기
▁스투
▁구이
▁베아
▁신태
영향
▁성령
▁시프
▁KCC
스부르크
재욱
▁베레
▁청취
▁페달
▁순항
코스터
▁빈센트
de
▁정치력
닥치
▁승계
▁국무총리
▁합금
▁버겁
▁변속기
▁곡사
▁성품
▁야스오
▁후하
▁RX
▁한중
▁end
리히
ival
▁최형우
▁롤러코스터
▁체하
▁끝없이
▁의뢰인
▁그제서야
▁그러다가
요리
▁숙지
▁반납
▁주주
▁토바
테라
▁1937
▁꾹
▁베로
▁위닝
▁노선도
▁허벅지
▁섣
▁숨결
▁야인
▁니즈
▁뛰어내리
▁박하
▁하나님
▁마석
▁바알
▁전우
▁화가
74
▁투여
▁APC
▁cont
▁티모
▁빙글
▁브래드
▁난장판
▁명왕
▁서재
▁다이빙
▁얍
▁만우
RO
▁밀접
▁오산
▁aqu
▁그레이브
▁오스트레일리아
▁하쿠
▁검색어
▁make
▁228
대표
▁신봉
▁양양
▁큐트
▁가늠
▁슬립
김없이
▁훈련소
▁애시당초
▁오스틴
▁"'
▁에버튼
▁샬롯
▁예술가
▁이송
다듬
▁컬링
▁메가트론
▁EXTREME
▁폴라
▁크리스토퍼
테리어
▁224
▁375
▁play
▁Christ
▁젓
ATE
que
▁노라
▁서동
▁포자
▁PT
▁디럭스
▁블로킹
▁410
▁굴러가
▁어우러지
▁키치
▁방망
▁조개
나가와
▁233
▁어지럽
▁코요미
▁요양
▁베네치아
소통
▁의사소통
▁원상
▁Hol
▁세계수
▁설진
▁양말
▁평준
▁사생
▁시메
▁펠트
▁말살
▁행군
▁part
갔다
▁미도
▁선지
▁탄두
▁톱니
▁호각
▁제너럴
▁애니플러스
22
▁강령
▁결단
▁김은
▁춘추
▁보호자
리즘
모델
▁애니메이터
▁소란
▁라리
넌트
▁사하
▁츳
erg
▁박차
▁끌어오
▁피그
▁사츠키
▁착수
▁이달
▁싱크로
▁연구자
ONG
▁외장
▁차오르
▁야마자키
▁칼질
▁만우절
▁건의
▁성시
▁이강
▁정무
▁MIX
ino
▁경시
성군
▁성원
▁쌍검
▁Club
▁반려
▁자택
▁애리조
idd
▁캠핑
▁스맥
▁회유
▁일생
▁스맥다운
▁KE
▁골짜기
▁허다
▁러스트
▁again
▁미약
▁오보
▁최하위
▁리제
▁험악
▁Cry
▁레전더리
▁어시
▁반죽
▁래리
린더
▁사상자
ya
▁위아
썰트
▁중산
▁어썰트
▁태후
▁WHIP
▁과반
▁쇼타
▁에노
▁이롭
▁사찰
▁잔소리
전함
▁우먼
▁몸싸움
▁생계
▁개칭
▁교목
▁코러스
lo
임수
▁월터
▁세카
▁착취
▁hp
▁악평
▁황소
▁흉기
먼드
▁북서
▁슈리
▁유승민
▁판단력
▁고뇌
가르드
▁앤드류
▁폰트
▁슬로건
▁수퍼
▁시어터
▁고안
▁레코
▁스미레
▁레볼루션
▁간절
▁라니
▁음력
▁Come
▁둔기
▁heart
이라
▁전패
▁차우
▁근위
▁실탄
BY
▁귤
▁ㅇㅣㄴ
▁참모총장
사람
▁면도
▁알코올
▁대구경
▁편집자
▁오승
▁찬사
▁흥하
▁동탄
하니
HN
▁식별
일기
▁레이카
▁소프
▁필적
살렘
▁KA
▁유원
▁수산
▁이장
▁아르타
▁원성
▁진전
▁노홍철
▁윤종신
▁뺑
▁매도
루살렘
▁스테이크
▁린이
▁무로
▁증표
▁고철
▁순례
▁진기
걸음
▁악영향
▁항쟁
베르크
▁투수진
▁겉모습
▁노획
▁은혼
▁절감
▁성희롱
▁편애
▁줄리아
▁카르텔
▁NORM
▁never
▁블랑
▁젠지
▁쿄스케
▁이바
▁악세사리
▁급여
▁강서구
▁ㄷㅏㄴㄷㅏ
▁이탈리아어
▁한복
▁김종국
▁마사토
▁인원수
cy
▁린치
▁백병
이즈미
▁CIA
▁적과
▁라이덴
▁PH
▁독도
▁안장
▁미완성
▁받아치
열차
▁PM
▁블레
▁카오
폴리스
자치단체
▁설문
일본
▁성소
▁포상
▁김한
▁대도
▁어휘
▁bb
▁제명
▁앞장서
▁뻐
▁명확히
▁호문
▁적어지
▁마우
▁미네랄
▁땜
공주
▁이메일
ORA
OUR
▁동결
▁파탄
▁관용
▁미우
▁치과
▁지하실
▁이에야스
▁충원
▁Will
▁류우
▁옴니
▁일루
▁XC
▁xx
▁티격
▁불거지
▁Girls
aker
▁NORMAL
▁시정
▁Ah
▁거머
▁환원
▁유키노
▁돗
▁벳
▁동그
▁화전
▁끌어당기
▁동하
▁임재
▁어려
전대
▁순차
▁어부
▁정시
▁마이티
▁깍
▁예루살렘
▁콘테스트
회의
▁성취
르슈
▁쁘
▁루시안
▁퍼플
▁브로드
▁체이서
▁틈새
anger
▁차크라
▁카모
▁카프
▁세련
▁MY
▁코만
▁has
▁그분
▁물러서
메리카
▁멩
▁다마
▁평이
▁신빙
▁밤중
▁본거지
해야
▁김종민
onder
▁컨퍼런스
▁게재
▁부전
▁다이노
▁수사관
▁MUS
▁Sol
▁동남아
▁뜬금없
▁only
관계
▁수료
▁SEED
▁개리
▁수렴
▁실감
▁데니스
▁랠
▁RB
▁1919
▁프렌드
▁밧줄
▁수당
▁EXO
▁다그
▁음악가
▁Best
푸스
▁유부
▁점치
NG
▁빨아들이
▁개종
▁뿌요
▁각별
▁미코
▁페이퍼
▁경대
▁우대
▁포커
▁제네레이션
▁납품
▁용호
▁천진
▁시리우스
▁채무
▁성공회
▁비서관
osh
▁인테리어
ball
▁Net
▁페미니스트
쩌둥
▁메트
▁열광
▁마오쩌둥
▁간첩
▁몰입
▁볶음
▁첨부
▁나주
▁보크
팔로
▁올인
▁해설자
▁쇼코
▁외환
▁아이젠
▁Little
▁철혈
▁활력
▁눈보라
▁올리브
▁지상군
ㄷㅡㄴㅇㅛ
▁매입
▁Ind
▁마자
▁나츠메
▁Dest
▁서큐버스
▁스커
▁217
▁미식축구
65
▁여중
▁장대
▁짝퉁
▁옥타브
UD
▁문과
▁재차
전쟁
▁하남
▁미워하
▁시미즈
▁전쟁터
세포
▁남산
▁고아원
▁후지와라
▁우크
▁이리스
▁최연
▁ㅅㅡㅁ
▁트롤링
▁SMG
▁소나무
▁우크라이나
▁미스테리
▁연마
light
오버
▁OM
▁개전
▁해인
샤인
▁에너
▁라파엘
▁red
▁오컬
▁초전
▁스턴트
▁한국군
▁포메이션
▁억양
▁카니발
고스
▁교원
▁곧장
▁스팟
▁전곡
▁미술관
▁환산
▁약수
▁증강
▁배반
▁북동
▁우의
▁없음
▁초심
▁호화
▁1911
▁주부
▁픽처
ANCED
날리
▁KN
▁산전
▁어르
▁투항
▁슬라이더
▁이보
▁거머쥐
▁낙서
▁민심
▁부록
▁소대장
▁월등히
▁메모리얼
▁승하
▁다듬
디우스
▁데미안
▁라이엇
▁파주
▁우선시
▁서프
▁신드
▁전황
소년단
▁스콜피온
▁'~
▁은빛
▁적시
▁내용물
▁타쿠야
▁물류
▁연화
▁페트
▁here
▁시술
▁010
▁교명
월드
ASY
▁정민
▁Take
▁궤멸
▁베이커
HC
▁정근
▁폐업
▁켐
니컬
▁301
▁우치하
eek
▁di
▁소품
▁피노
▁한눈
▁아라시
▁고요
▁낭만
▁로어
▁파나
▁Mix
▁플랜트
▁과열
▁브룩
▁사드
▁생리
▁추기
▁Inv
▁복수심
와르
티티
▁체르
▁마스터즈
▁기교
▁악연
▁정승
▁나리타
▁서태지
▁수년
세움
▁GPS
▁노노
▁조짐
▁검거
▁뻔뻔
▁str
ㄷㅐ
▁let
▁난쟁이
▁나성
▁익산
▁소셜
▁Single
▁정선
▁한판
▁야나기
▁조선소
▁끊어지
▁고하
▁별거
▁액수
▁부상자
▁오컬트
38
▁발령
▁gu
▁오아시스
▁하노
IO
불리
▁크류
▁Aut
▁Ult
▁남아프리카
▁래빗
▁요지
▁NFL
▁야구단
▁내레이션
데라
▁레닌
▁비터
▁앵글
oom
▁세터
▁BMW
▁액스
▁다량
▁헌트
▁\]
▁aquarius
▁ad
▁화합
▁고드
▁무트
▁252
▁대기실
▁빌헬름
▁유창
▁연장전
▁음료수
▁초라
▁게르만
▁에이미
▁방탄소년단
▁담원
▁세바스
▁야구부
▁유니버
▁강정
▁변모
▁세이야
▁ADVANCED
아오르
uture
▁특색
장치
ena
▁고참
▁미움
▁패권
▁프레데터
▁반주
▁저축
▁미하일
lex
▁해지
▁타카히로
▁광란
▁괴이
▁굴림
▁맹수
▁하계
▁영국인
▁CGV
▁뮐
서리
▁허약
▁지효
▁스트림
▁타카오
▁뉴타입
▁카즈미
▁mA
비지
시장
▁냉혹
▁러시아군
▁우디
▁체류
▁부적절
▁출입구
▁클러치
▁업자
▁피파
▁사이비
32
▁Real
▁FO
▁촉진
▁해밀
▁상반
▁제후
▁로켓단
▁Storm
▁사대
▁페라리
▁환장
▁Dec
각형
▁사주
▁YG
▁드미
▁마방
▁티르
▁512
▁골수
▁꼬시
▁라다
▁지탱
▁껌
▁재보
▁재상
▁정국
▁통찰
▁통솔력
ital
▁사카이
▁둘째치
▁코미디언
성어
▁를
▁자백
▁하로
▁형벌
▁신천
▁이트
▁정관
▁촉구
▁고마
▁닛산
▁밝혀
▁대성공
▁독단
▁Med
교사
▁카르타
▁스냅드래곤
▁ㄴㅡㄴㅋㅓ
▁어떡
▁메커
▁호위함
ano
▁저상버스
▁뜯어
▁우여
▁들여오
▁아카이브
▁공직
▁얼룩
▁퍼블
세우스
▁2022
▁광화문
▁오자
▁알라딘
▁|[
▁백두
▁명지
▁백종
▁예민
▁Def
▁EPL
▁Gun
▁헤이세이
▁멘토
▁요령
▁케네
▁이동기
▁도넛
▁최장
▁초계
▁속임수
▁켓
▁항성
니케이션
▁녹스
▁폐인
▁밀가루
▁하야테
▁애플리케이션
▁교제
▁파기
ude
▁거창
▁투덜
▁Hero
▁커뮤니케이션
빠지
▁니르
▁아틀란
요이
▁로젠
▁잡아
▁재발
▁샤르
▁스탬
▁Zero
네즈
▁야요이
▁츠네
▁포구
▁츳코
▁DSP
▁youtu
▁의거
▁착공
▁스케이트
공학
대왕
▁Rad
▁나오미
▁프란츠
▁하원
레오
▁섬뜩
▁포식자
▁소홀
DDR
UG
모트
▁가즈
▁정찰기
▁김시
▁다람
▁사이먼
▁베토벤
▁EXTRA
덱스
마사
▁운동가
▁Warhammer
경민
▁시놉
▁ER
▁신승
▁서유럽
▁윤석민
▁크래시
소타
▁학파
apan
러미
▁강급
▁산출
▁수차례
▁HR
▁내쫓
39
▁사춘
▁자음
▁390
▁Cal
노트
ett
▁손길
▁절도
▁토드
▁선샤인
▁시놉시스
▁Ry
▁걷어차
▁정착지
ning
▁야가미
▁미네소타
▁승낙
▁아토
▁밝혀내
ㄴㄷㅏㅂㅅㅣ
▁227
▁껄끄럽
폴트
▁그딴
▁텐트
▁Ag
▁Park
▁보이즈
lection
▁QP
▁꼬박
▁왕성
▁제때
▁총점
▁클럭
▁급속도
ler
▁격변
▁레터
▁부설
▁집요
▁탐험가
▁BLACK
aid
BE
▁암석
▁은색
▁자릿
▁재탕
▁송곳니
unk
▁보그
▁횡령
▁틀림없
arm
unt
▁붙여지
▁Sweet
▁처방
▁Mbps
▁욘
▁스프레이
병기
▁짜이
▁대장간
▁공안
▁데이지
▁매료
▁아로
▁폭언
une
ours
▁크로스오버
지우
▁경관
irect
▁관습
▁여차
▁문관
쩐지
▁경부선
▁어쩐지
▁1934
▁샌드위치
▁교가
▁htm
▁트렌드
▁멜리
▁지저
▁라티
▁베풀
▁브록
▁any
▁when
▁웍스
▁표준어
▁급증
▁등용
▁주름
▁John
▁다채
조림
▁예하
▁시부야
▁마사히로
▁오거
▁태백
▁풀이
▁투영
oj
▁시급
리스크
▁Gal
▁추격전
하늘
▁우등
ouble
곡절
▁노보
▁루팅
▁알프레드
▁양방향
▁툭하면
▁예거
▁합숙
▁홍련
▁Space
▁만신
▁우여곡절
▁사춘기
▁아랍어
ather
▁콴
▁엄연
44
나타
▁오정
▁샤이니
▁거액
▁youtube
▁쿠보
▁세균
▁Hel
▁미시마
▁정보원
▁돌변
▁만장
▁몽환
▁압승
▁휴지
▁ㅇㅡㄹㅅㅣ
▁다라
▁토치
▁대지진
▁밴쿠버
▁백악
▁오소
▁쿠퍼
▁신노스케
▁서북
ords
▁내비치
▁파이팅
▁쇼우
▁자습
▁레이브
▁보좌관
▁비밀리
▁231
▁리비
uct
▁햐
▁장민
▁차고
▁나크
▁최민
br
▁롱주
▁노리코
▁ㅈㅔ
▁료코
▁치요
▁홍수
▁보리스
▁페가수스
▁LEVEL
립스
▁분양
▁컷인
▁Feel
▁자객
브론
▁오현
레마
살이
헤치
▁우터
ames
▁Bu
▁아틀란티스
TER
▁대련
oe
▁요가
▁구스
END
▁숙제
▁게으
▁ㅇㅏㄴ
▁동맹군
▁연대기
▁오라클
▁op
▁조슈아
▁코스모스
▁Je
▁가야
▁정몽
▁아오키
▁냅다
▁주재
▁연막탄
▁서바이버
▁HT
▁반쪽
▁파비
▁Say
KO
▁Kim
▁mAh
▁쿠루미
▁ㄹㅏㄴㄷㅏ
▁난도
▁윤영
▁ㄱㅣㄹㄹㅐ
▁효용
▁에디터
▁고영
▁깐
방지
▁린드
▁진명
▁관람객
▁ㄸㅏ
▁위임
▁바래
▁제련
▁함경
yr
▁심복
▁개머리
▁영수
▁핍
▁초구
ople
▁코타
▁브라우저
▁구스타
▁교활
▁나가사키
▁안즈
▁흡입
▁정명훈
▁코스모
▁옅
▁인삼
▁타타
▁보름
▁유상
▁need
▁포섭
▁min
▁텝
▁자물
▁하가
▁베가스
▁옥수수
▁올려
▁수송기
▁PG
▁은신처
▁주변인
▁뜻밖
▁로더
▁사칭
▁판명
▁오사무
thing
▁하즈
▁계약서
▁떠나가
▁피고인
▁사념
개골
▁부착물
▁명심
▁약품
▁웬디
▁나카지마
▁출진
▁트리니티
▁금단
▁아날
▁유족
▁용족
▁이부키
▁자물쇠
▁뜸
▁Ret
▁남녀공학
vil
▁대첩
▁협의회
▁공적
ㅇㅕ
▁안톤
▁라몬
▁최준
▁은근슬쩍
▁양지
▁거침
▁근방
▁마즈
▁용납
▁경상도
거스
▁극하
▁가르시아
▁낙사
▁Sou
▁설립자
▁Dem
▁근로자
▁법령
동물
▁두각
▁뭉개
▁바카
▁병합
▁성물
▁실컷
후미
▁방주
▁비견
▁중대장
▁투지
▁카나코
▁Tour
▁겸임
▁피쉬
▁프리킥
곡리
uel
소연
자스
▁아와
리아스
▁멱살
▁GTX
▁JYP
▁간직
▁일간
ODE
▁도봉
▁햄튼
▁마쓰
▁주점
사노
▁프리퀄
▁조공
▁컬트
▁소양
▁손발
▁잭스
▁청문회
▁견고
▁구식
▁레베카
▁후진
▁여제
▁달려드
▁를르슈
나우
비슷
▁조련
▁불러내
▁즐거움
▁Kill
aser
▁430
▁막스
▁코아
▁흑발
▁238
▁뜯어내
▁골절
▁부포
▁이그
▁조동
▁페드로
▁LOL
▁모리스
▁짓거리
▁탤런트
▁블룸
▁스타킹
▁사루
▁재기
▁하강
▁스틸러스
부르
▁크레인
▁저질
▁비화
▁아누
▁꼬맹이
▁Orig
분투
▁발열
▁전광판
▁피통
▁버팔로
▁some
린트
▁치솟
▁노동조합
▁역마
arth
▁벗겨지
▁조그맣
▁드럼매니아
태격
▁누비
▁백스
▁티격태격
▁지네
뚜기
▁앉히
▁나이지
▁나이지리아
설수
▁후사
▁동남아시아
▁폄
▁다다르
▁요요
▁ㅇㅜㄴ
▁규율
▁말라
▁명계
▁평면
▁마일리
▁플리트
▁236
▁KBL
▁치어리
▁포커스
▁횃
로리
▁셔먼
비야
▁카로
▁개머리판
▁Great
노프
ner
▁Beat
▁스메
▁어정
▁포이즌
▁남원
▁지출
▁위아래
▁치아키
▁지중해
교도
메이트
onna
▁어려우
ormal
▁엑스칼리버
▁근육질
▁부대장
▁정부군
▁견습
▁변기
다카
제트
▁입점
▁톰슨
▁사일런트
▁WORLD
▁매튜
▁265
▁닳
▁동률
▁참치
▁Story
▁경멸
▁포츈
▁걔
▁덴마
▁연주자
▁만년
▁이규
▁초밥
▁PERF
▁them
▁지원군
▁마로
▁외지
▁코라
ways
▁짭
UND
▁도가
▁서남
▁이북
▁뫼비우스
▁Luc
▁매크로
▁올레
▁파라오
▁사오
▁목장
▁복식
▁격납고
▁로밍
▁열화
▁옐로우
▁식구
▁원가
▁GC
마니
▁난데
▁무서워하
37
슬로
▁김건
▁라카
▁뒤바뀌
▁싯
▁하피
iful
팽이
▁타깃
▁르블랑
▁껴안
▁사절
▁똑바로
▁<<
▁MAD
▁사이다
▁정근우
도어
▁WWF
▁원정대
▁장문
▁앞머리
숭아
▁사서
▁통통
▁마츠다
▁Tech
▁신야
▁넥스트
▁마커스
▁주유소
▁티베트
▁더듬
▁한인
▁프랑켄슈타인
▁방아
▁엘라
▁철구
▁끌어안
▁경기관총
▁본뜨
▁her
▁메커니즘
▁감찰
▁미니건
▁백과
▁표류
▁3500
▁수트
▁팔다리
입구역
▁억누르
▁위안부
▁Album
▁원사
▁스트롱
▁인턴
▁NAS
▁이리야
▁When
fl
▁저술
리역
▁놀러
▁잘나
▁픽처스
▁파병
ental
주니어
▁다비드
▁뒤집어쓰
ANG
▁개관
▁코코로
▁선율
▁방탄복
▁쿡
▁신스
▁테디
▁사이킥
▁바바리
▁이모티콘
▁아스가르드
슐리
▁노미
▁로아
▁세이프
문화
▁엘사
▁폭죽
ations
▁편찬
▁피스톨
▁Step
천리
▁DIO
▁기대감
▁리비아
▁불굴
ene
▁루가
▁시속
▁아브
▁하르트
▁가로지르
▁한국식
▁일파
▁쿠즈
▁232
▁가희
▁로니
▁밀리터리
▁강민호
▁대나무
▁블러디
포동
▁램지
▁GE
▁조라
▁즌
배기
시간
▁집게
▁형주
▁마성
▁내려치
OSS
▁마개
실록
▁판다
▁구실
사전
▁앙쥬
▁정설
▁케네디
▁군세
▁심영
▁풀타임
▁she
▁칼데아
▁결번
▁막시
▁내신
▁상디
▁일전
▁이윤열
▁로드리게
▁간과
▁라르
▁로데
▁홍차
구멍
▁물결
▁상병
▁Death
▁어진
▁출국
▁서슴
▁공구
ait
▁서강
▁갈비
▁쓸리
▁질럿
▁조건부
▁Champion
▁맨서
▁항소
통일
▁김장
▁조부
▁순전히
▁실기
▁희한
▁괄호
▁금빛
▁레티
▁변속
▁볼링
▁일괄
body
▁사우디
▁한없이
▁땅굴
▁옥스
▁진중
▁드로이드
▁샛
▁노어
▁암묵
▁의병
▁두개골
▁호루스
▁급감
▁행렬
▁헤엄
▁공연장
▁공격대
▁세리카
▁1931
▁아디
그래피
페르노
▁번쩍
▁바빌
▁세인
▁의약
▁정준하
프스
▁구기
▁외화
▁sec
▁산산조각
▁인기가요
▁대북
▁돌려받
▁Line
▁인페르노
▁마레
▁하네
▁다르크
▁510
▁art
▁비타민
▁공평
▁안영
▁양현종
▁훌쩍
▁수첩
▁Tra
뉴스
▁숙적
▁푸딩
IDE
▁대영
▁엽기
▁원산
▁수식어
▁기껏해야
▁힛
▁서경
▁족족
▁투혼
▁곁들이
▁언뜻
▁음파
사무소
▁사이렌
ume
▁루디
▁재결
▁최승
AE
▁소굴
▁못생기
▁팔아먹
▁혼잡
▁삼국사기
▁사학
▁테드
▁토모코
레스타인
▁금세
▁위드
▁Bus
▁SNK
rough
발리
주곡
▁온건
스틱
투사
▁벨리
▁착안
게일
▁카툰
▁찻
▁도면
▁독살
▁TRA
▁다이어
▁손대
▁플롯
▁Apple
▁이클
ESS
▁얼른
▁퍼레이드
orever
▁전위
▁1935
예프
▁."
▁닷컴
▁도맡
욕장
▁박원
▁탈락자
▁XBOX
▁참수
▁외교관
▁Electr
84
빙글
상부
▁넬슨
▁푸시
▁나즈
▁남서
▁밀짚
▁엘더
▁747
▁매혹
▁이코
▁총애
▁타츠미
▁클래시
▁1700
INAL
▁종로구
▁대구광역시
시즘
▁뮐러
▁재킷
로그램
바야시
▁비행장
▁워페어
마을
▁리더십
▁파커
▁니콜라
▁수없이
▁이크
▁조각상
하임
▁구가
▁약사
▁흑색
▁Who
▁프리티
파일
▁머독
▁셀렉
▁천자
▁타사
▁곧이어
ral
▁about
▁육신
▁콘스탄티노
▁디나
ander
▁왕정
▁SUPER
▁래더
▁장발
▁증차
▁철자
▁LCS
▁SB
▁불륜
▁305
슬라비아
▁유고슬라비아
▁RT
▁공모전
▁승승장구
▁노우
▁에리스
uss
▁이불
▁족보
▁모로코
▁2400
▁케일
▁나선
▁니지
▁섬머
▁원안
▁신뢰도
▁에볼루션
▁에델
▁640
▁캡쳐
▁양의지
법인
▁Mal
펙터
▁데스노트
▁딱지
▁자일
▁이바라
▁화성시
▁괴짜
▁이민자
▁횃불
lease
▁이따금
▁들어올리
상스
틀린
▁권혁
▁역적
▁하야시
▁325
▁Dead
▁콜로세움
▁타케우치
▁국지
self
▁사오리
▁러프
ortex
▁Pass
▁댁
▁쿠토
▁포박
▁come
▁비방
▁자결
▁명하
▁무마
▁불계
▁공전
▁아오바
▁달랑
▁조성주
▁무례
▁설날
▁장화
덴티티
▁아이덴티티
▁교묘
▁사벨
▁양육
▁자하
▁존기
▁지석
▁이클립스
▁EXPERT
▁NV
▁삼각형
31
▁꼼꼼
▁조경
▁겨냥
▁팔레스타인
▁거너
▁애덤
▁노기자카
▁실물
▁히로미
▁짠
ines
autiful
▁쟤
▁스캇
▁오클랜드
▁쾌락
▁229
▁추기경
▁EASY
▁모사
▁아날로그
▁절제
▁바퀴벌레
▁셧
▁개표
▁환율
awn
다이스
elie
▁Green
▁변칙
▁카자흐
▁합격자
▁League
▁지겹
▁아이슬
▁신진
▁Ant
▁천왕
▁코만도
▁쫒아
▁채권
▁Lee
▁각본가
▁개인차
▁맥크리
▁바가지
▁Home
▁백호
▁첩자
▁추축
▁전면전
▁1910
▁아이파크
▁Wanna
▁극동
▁디스트로
리언
▁급소
▁기시
▁노련
▁연못
▁완승
▁Tem
▁렴
▁시티즌
▁TEAM
비어
▁혈압
▁Tom
▁선량
▁황천
▁페널티가
▁독립운동가
▁디스트로이어
윤수
▁기폭
▁초연
▁바운
▁윤지
▁파충
위원
▁ma
▁고척
▁시우
▁IEM
▁경비대
▁솔루션
▁지니어스
▁인제
▁코퍼
▁큘
▁앙상
▁초음
▁바사라
▁EL
▁장시간
▁사고방식
IAL
▁완주
▁전주시
▁정신기
▁스구
▁발효
▁오기
▁토머스
▁동자
▁자행
▁황녀
▁스트링
▁da
▁ㄴㅛ
▁총수
▁가신
▁악재
▁내던지
▁감격
▁인계
▁ㅈㅑ
▁샤인
▁물어뜯
▁스펙트
▁각광
▁1918
▁각주
▁송신
▁아키코
▁흑기사
▁Del
▁미츠키
▁사토미
eter
▁무구
▁이하일
▁다리우스
트릭
▁잔존
▁죠셉
▁일찍이
▁된
▁ah
▁NAT
▁사업가
창민
▁컬쳐
▁껍데기
▁GAME
▁프라모델
▁이효
▁황폐
ily
▁sw
▁가온
▁기색
▁단도
▁랠리
리카와
▁예비역
▁제각각
▁새턴
▁수만
▁이어주
▁트와
▁마구잡이
▁하루히
▁아이슬란드
▁Friend
▁검출
▁쏙
▁비들
훈련
▁굳건
▁정주
▁아우구
볼트
▁노을
▁Cha
▁뜯기
▁마천
▁무예
▁과부하
▁사이키
▁룰렛
▁분실
▁장지
▁히키
▁백종원
▁시즈쿠
▁용인시
▁히데키
아르
츠미
▁선호도
▁실비아
▁Level
▁이산
▁BMS
▁떠넘기
▁심해
▁키네
▁허물
▁밀라노
▁종속
▁무리뉴
68
백호
▁건달
▁왼발
▁AAA
▁몰아가
▁스무
▁스쿠
▁코쿠
▁승자전
▁시그널
▁마니아
▁Univers
▁대물
▁무토
▁모자이크
94
ves
▁박동
▁추대
▁팽팽
▁나오토
▁넛
▁비어
▁마리나
▁Chap
▁신룡
▁호조
onic
▁ㅁㅐㄴ
▁Pack
문서
rol
▁내치
▁숙박
▁Mac
▁강대국
▁중심부
다주
바탕
▁라나
▁이연
▁기념일
▁미분
▁라이저
▁복판
▁원로원
▁말뚝
▁북벌
▁얌전히
▁자릿수
▁뒤떨어지
마드
▁평온
▁에그맨
▁에비
▁장영
▁장진
▁하룻
더미
▁이큐
ider
▁유괴
▁품목
▁그레이스
ISS
▁디셉
▁버크
▁무법자
▁비틀즈
▁캅
▁망신
▁혹시나
▁스코어링
해머
bsp
▁뒤섞
▁신영
▁후타바
▁AO
▁로건
▁오도
▁자선
▁토착
▁IMF
▁bit
▁들이받
▁설교
ouch
▁골격
▁에라
▁TBS
▁지도부
▁hell
▁야유
▁박진영
▁우즈베
▁Young
▁사이코패스
▁뎁
▁눈여
▁질책
▁머큐
▁타코
▁로스쿨
▁미야코
▁제국주의
▁갉
▁영도
ible
▁사보
DER
▁요크
▁한미
▁251
▁타이가
▁코피
▁공격진
▁렬
▁맹렬
사관학교
▁동떨어지
세이돈
▁포세이돈
72
보잡
▁강국
▁리라
▁김상수
▁간수
▁레츠
▁발사체
ㅓㄴ
▁당부
▁듣보잡
alent
▁결선
▁NXT
▁불곰
▁허접
▁글래스
▁사카키
▁무궁화호
▁디언
▁이를
my
▁컨버
▁쿠노
▁레일건
▁알제리
▁Japan
▁돌기
▁hats
▁나돌
▁뱃지
▁재래
▁결정력
▁조준기
테면
▁재계
▁컵스
▁마츠리
▁nbsp
▁DL
▁일회
▁정액
▁황인
▁이를테면
▁대칭
▁라키
▁조만
▁주저앉
▁성계
▁스릴러
▁버지
▁하오
▁ABC
▁돌이키
▁아이카
▁기권
▁발랄
▁벼슬
▁their
콜로
▁백설
▁야미
▁정신병
▁맥도날드
▁케이스케
▁가관
▁단호
▁클리프
▁Full
▁태반
▁알려주
▁빙글빙글
ubl
▁실격
▁잠정
▁일컬
▁제이콥
▁조종당
▁제이미
▁기울어지
▁외동
▁장난치
▁나자
▁발포
▁에마
▁유희열
▁!!!!
▁Champions
▁한류
마이트
St
ha
▁ATM
▁시게루
▁신재
▁분대장
▁구축전차
▁차차
▁핑거
▁강북
leep
▁Que
▁루시우
▁독소
▁풀어내
▁POWER
플러
▁고군
▁660
▁스트레인지
by
▁자초
▁블리치
▁밀짚모자
▁560
▁엄하
▁저편
▁상수
▁속출
icle
▁놀림
▁완력
▁제동
선스
▁순발
▁마르크스
▁그늘
일라잇
▁부르크
▁트와일라잇
▁묵묵
▁츠지
▁홍익
▁느와르
▁반신
▁보살피
에트
OTH
▁격분
▁이남
▁프리랜
▁매뉴
▁빈민
▁파헤치
▁펠레
도니아
▁조지아
press
▁라이선스
▁계책
▁765
▁순발력
▁스테판
▁hatsan
▁포제
구석
▁정가
▁어웨이
ement
키오
▁약탈자
▁res
회전
▁마담
▁전조
▁바닷가
독스
▁분하
▁시이
▁켈트
▁포톤
▁크리스티나
▁메기
▁신검
▁바그너
▁조선인
▁서주
▁셰이
▁펑펑
▁루시아
▁카이바
헤드
▁개헌
▁에지
▁노지
▁치세
▁뒤엎
▁특혜
▁피시
▁서스펜션
▁ㅋㅋㅋ
벌이
▁사토루
IF
gg
▁윅
그럽
제품
▁눈길
▁뒤돌
▁형법
▁스타더스트
▁럿
트니
▁황색
▁레진
▁분식
▁안대
▁혐한
▁리투아
▁리투아니아
▁이타치
▁황재
▁굶주리
▁루돌프
로트
▁동호회
▁마르셀
▁척추
▁바깥쪽
▁불량배
▁잠자리
▁콩고
▁탁구
▁들이닥치
▁모선
▁살벌
▁신해
▁퇴임
▁아이오
매기
▁==
▁반반
▁버들
▁심볼
▁역행
▁제아
▁피콜로
▁칵
송이
잣집
▁소고
▁괴로워하
▁관세
▁주권
▁여군
▁호타루
▁사이클론
멘션
▁-,
▁잔잔
▁큐라
▁Ele
▁디멘션
▁일평균
▁낙동
▁스도
▁미우라
▁다이너마이트
도나
수염
▁남코
▁로렌스
▁des
▁티아라
▁레인저스
▁업소
▁승용차
▁보류
▁237
▁기형
▁길가
▁이면
▁징집
▁GA
▁마음먹
▁호시노
바인
▁서산
▁성운
▁야오
▁히브리
삭스
툴루
레이브
▁리빌
▁분출
▁송정
▁단축키
▁OT
▁상반신
▁농도
▁재일
▁끼얹
▁오줌
▁르네상스
▁Shad
▁20000
▁왕세
수아비
▁어정쩡
▁가차없이
▁허수아비
▁틈타
▁희소
▁모조
▁창시자
태인
▁레이팅
▁수호신
▁아카시
라이어티
▁경산
▁긍지
▁버라이어티
▁밀수
▁가격대
▁대항해
▁브리스
▁DH
▁매매
▁244
▁짜장
▁마라톤
보스
펠러
▁쿠지
▁판교
▁발당
▁서커
▁소방서
▁박건
▁생소
▁지바
▁동독
▁로트
▁설리
▁요네
▁티오
▁알고리
uj
▁송지
▁Mad
▁문파
▁차징
▁클라라
▁이반
▁절실
▁NMB
▁하룻밤
▁금정
▁살포
▁웬리
▁감마
▁넷째
▁찬란
▁아구
▁심부름
거래
▁은인
▁김광현
▁스노우볼
▁프리랜서
▁난징
▁아이코
▁장자
▁스타터
▁앞부분
▁충이
▁상층
▁연장포
▁피어스
▁집어던지
▁MUSIC
▁도래
ground
▁파라다이스
▁TSM
▁명치
▁오웬
▁하운드
▁가발
▁여운
▁꽃잎
▁살육
▁이광수
▁활발히
▁패러독스
▁브금
▁Att
▁타카미
▁헤드폰
▁ㄱㅓㄴㅁㅏㄴ
▁ㅠ
그러
▁담그
▁도살
▁아사미
▁유이치
▁근친
▁람보
▁빗대
▁성의
▁코니
▁노미야
ori
▁지브
▁헤카
▁SUV
▁제천
미트
▁Mel
▁뉴비
▁호르몬
▁반년
▁다이애나
▁선단
▁환술
▁Mil
▁사나다
▁시트콤
▁발도
▁008
▁경제력
▁html
▁유투
▁주화
▁boy
▁로미오
▁쿠사나기
▁모차
▁박현
▁봉투
럴드
▁아우라
▁수기
▁양분
▁248
▁레이서
관리
▁그렌
폭풍
▁넷플
▁향신
▁넷플릭스
▁금천
▁반입
▁두루마리
▁덜하
▁메사
▁특례
바위보
▁가위바위보
▁직종
▁김재환
▁크라이시스
대군
▁애착
▁264
▁카미야
▁강진
▁라이스
▁늄
▁야루
▁정상급
▁결속
▁세속
▁한문
매김
▁Mer
▁노태우
▁아라이
▁알고리즘
▁하세가와
hn
▁미역
▁HKT
▁아키야마
yo
▁쳇
▁일면
▁아르테미스
▁조승
▁펠릭스
▁배틀로
▁아사쿠라
▁자리매김
▁매춘
▁자이로
▁팬더
▁한라
▁곡괭이
▁릴레이
▁니티
▁외무
▁1933
▁국보
▁발병
▁압둘
▁일렉트릭
▁파우스트
▁센고쿠
▁명절
▁사타
▁호밍
▁스크랩
▁242
▁이재명
▁1917
▁라이브러리
산리
▁주리
플라이
▁시베리아
▁전라도
▁클로이
파르
▁내무
▁포신
▁바이트
스코
▁속죄
▁지원자
▁광교
▁미적
▁짬뽕
▁쿠우
▁ESP
▁Games
총사
▁연두
▁유린
▁펌웨어
▁배고프
▁약혼자
▁워해머
▁동성애자
▁다분
▁통폐
▁지드
▁판넬
▁There
▁Lun
▁디바인
▁탐지기
▁덤블
▁추론
▁!!"
▁과거사
▁카나메
▁망원경
67
▁거하
▁체면
▁목욕탕
▁냉철
▁퇴직
▁줄리엣
▁포터블
▁뿅
▁콜트
▁조나단
▁인조인간
▁루니
▁불릿
▁워스
▁크툴루
▁Easy
볶이
▁가맹
▁겐지
▁증식
▁매뉴얼
▁표지판
▁베로니카
▁르브론
고로
▁식용
▁코드네임
▁wanna
▁Ho
▁저속
▁카나타
▁카미조
▁보아
▁모모코
▁해밀턴
▁Pa
▁정훈
▁커밍
▁돌고래
▁클라크
▁갈망
▁카루
▁타도
네이션
▁떄문
ility
▁범퇴
▁우왕
▁문경
▁동강
▁장작
▁주지
▁크리스티안
avy
▁아코
▁네기
▁대격
▁설원
▁도키
▁보람
▁Spe
▁계엄
▁오레
▁동아일보
▁고글
▁김남
▁실례
▁도류
▁티비
▁항마
▁옆집
▁Road
▁서든
▁시영
▁치어리더
▁리디
▁신탁
▁전범
▁관리인
▁혼내
ison
▁보성
ense
▁SKY
▁주둔지
▁카디널
▁비야
▁이시스
▁뛰쳐나가
▁낙양
▁견주
▁아귀
▁460
▁보옥
▁통장
▁마르티
▁맹독충
▁엑스포
▁예컨대
우먼
▁덤벼들
▁무기고
▁쟝
▁VC
▁왕창
▁취항
▁머큐리
▁그리워하
▁거북이
▁김우
▁앤트
▁스테미
▁엘리시
▁신세기
▁Brave
▁노장
▁안주
▁지폐
▁254
▁하나같이
가짐
▁은둔
▁유키코
▁타이완
▁색적
▁와드
라트
▁성북
▁유품
▁이매
▁치하
▁더욱더
▁깨뜨리
▁농어촌버스
스기
▁공민
▁몰두
▁수렵
▁불명예
▁작자
▁구작
▁발단
▁정박
▁신약
▁칩셋
▁편향
▁316
유산
▁징벌
아프
▁737
▁블로우
▁어르신
▁경원
▁건너오
▁말버릇
▁백마
uff
▁호라
▁혹독
▁per
▁반열
▁탄력
▁보안관
▁EE
▁시브
▁적도
프레이
▁위용
▁차오
▁파치
▁메이스
▁1928
▁번들
▁한족
▁단국
▁알렌
▁궁정
▁잔치
▁아서스
▁동백
▁우울증
▁사변
▁철학자
▁패자전
▁Esports
눅스
▁보전
▁리어스
▁불어넣
록스
깃거리
▁명실상부
▁뼈아프
보레
▁이블
라이터
▁구판
▁스니
▁와스
▁편차
▁교육감
▁성종
▁요나
▁총체
▁포괄
조선
황후
▁FT
▁dr
▁이국
▁콜린
▁부피
▁프로페
▁엔도
▁웨일스
▁항공대
▁밑바닥
▁Long
▁금물
▁이견
게이트
▁난데없이
디난
▁기정
▁장현
▁들어맞
▁펩
드릭
oup
▁고비
▁역장
▁이완
▁에미야
▁통폐합
▁다의
▁선더
▁원대
▁귓
영웅
▁스펜
▁노하우
▁ㄷㅓㄴㄷㅔ
▁윳
▁나트
▁산지
▁501
▁모니카
이야
mon
▁에니
▁페러
▁실린더
▁키쿠치
▁Call
▁방수
▁Snow
▁뒷담
▁인술
▁조끼
▁수모
▁left
▁인파
92
▁가샤
▁호도
▁공황
▁308
▁히로키
▁홀수
▁오피셜
box
▁샤먼
▁프리덤
덕이
▁FS
▁실록
▁Key
▁빗자루
▁전기톱
▁마네
▁섭정
▁자서
▁왜냐면
ITE
▁냄비
▁진풍
▁가우스
▁Port
▁메이크업
▁유흥
▁몰려들
iri
▁et
▁규명
▁Arc
서니
▁소림
▁243
▁Bet
▁리눅스
▁탑승자
▁례
▁포옹
▁파충류
▁클라이맥스
▁Hi
▁길티
▁받침
산면
▁미얀
▁파피
▁혈관
가키
▁니콜라스
▁퀀
▁마부
▁285
▁사냥감
▁탄산
내셔널
▁530
▁802
▁WCW
▁pop
▁인터내셔널
▁선교사
▁테두리
▁유파
▁TECHN
▁굼
제비
▁어감
▁은어
오피아
▁에티오피아
▁비겁
▁레이코
▁연장선
▁통조림
ITAD
▁물방울
▁향신료
▁분당선
▁속주
베다
▁포유
WAR
▁ㅅㅔ
▁궁궐
▁나약
▁들어주
▁떠다니
▁마일리지
나크
노세
▁1927
▁레퀴
▁만담
▁비나
▁유주
▁쿠페
▁국내외
뮬러
▁민수
▁ACT
▁1932
▁보컬로이드
▁셴
▁무효표
▁타이머
▁명언
▁생몰년
▁오토봇
날레
▁Secret
enn
▁에루
▁임정
▁조예
▁귀걸이
▁방향키
▁천안시
VEN
▁곧잘
▁도네
▁평시
▁드러머
▁쾌적
▁NCT
▁팥
미아
▁수목
▁순양
▁대니얼
▁Her
▁발자국
▁been
▁사이퍼즈
▁모성
▁월광
▁구매자
▁리크
▁중용
LY
▁거들
▁뒤쫓
▁총검
▁호족
▁슬럼프
▁1929
▁등록금
▁배당
▁브렌
▁성단
▁기아스
▁es
▁익사
▁크랭크
▁테크놀
▁리얼리티
▁재수없
▁GITAD
▁Knight
▁친숙
▁성대모사
▁LB
▁청자
▁노무라
▁1925
▁애호
▁이신형
▁SDRAM
▁제레미
십자
▁후추
▁유가족
제프
▁ZZ
▁김학
▁니어
▁싸그리
▁게이츠
꼬박
▁Gh
▁사옥
▁양팔
▁war
▁박석민
▁치즈루
▁한국사
▁꼬박꼬박
니발
▁VI
▁자기장
▁MI
▁대함
▁승조
▁간담
▁이룩
▁코그
▁OC
▁통영
▁후우
GP
▁동두
▁박찬호
▁방아쇠
▁몸값
▁부팅
▁연구생
▁천문학
▁돌발
▁지마
▁나연
▁내분
▁카키
전생
▁살인범
▁여신전생
▁요코야마
▁교포
▁귀속
▁사적
바라기
razy
▁580
▁Bro
▁자연히
▁나코
▁복서
▁웅장
▁로드리게스
▁NR
▁요마
▁666
▁고고학
▁크루저
▁고라
▁시라이시
▁거행
▁겁먹
▁그릴
▁마귀
▁니스트
▁LM
▁비닐
▁창법
▁폐교
▁Cortex
워지
▁구원자
▁오지환
▁LPDDR
드런
▁눈알
▁아소
▁자대
▁625
▁템페스트
▁대림
▁양정
▁천성
▁지간
▁통근
▁칸자키
▁take
▁아발
▁브라이트
산부
▁다급
▁도원
▁로메
▁분담
덩어리
▁Kar
▁아르마
▁나진
▁병풍
▁아세
▁헤비급
▁into
파치
▁에인
▁소각
▁카빈
▁권력자
▁드래건
AKA
▁맨손
▁신예
▁부잣집
▁나토
▁메즈
▁청혼
▁jpg
▁고압
▁크레용
▁윽
▁만연
▁훤
▁구룡
▁단수
▁모금
▁303
▁수비대
▁연합국
▁일제히
▁클레오
▁기로
▁까칠
▁리벤지
▁야타
▁MOV
ember
▁관내
▁은총
▁나래
▁밀크
▁서대문
▁졸지에
▁미행
▁천리
▁삼총사
▁모의고사
▁Va
▁본대
대상
▁재우
▁팍팍
▁불상사
▁김봉
▁선점
▁백병전
너드
▁자상
isode
▁Days
▁가평
▁김문
▁앞당기
▁가락
▁선취
▁장이
▁촌장
▁앙상블
▁내비
▁Normal
▁눌리
▁애원
REAM
▁Gener
▁Stand
▁고온
▁남주
▁스펙트럼
▁농성
▁로디
▁떡볶이
▁요금제
▁뱌
▁GITADORA
알라
▁스톨
▁한수
▁Fil
▁대항전
▁와해
▁프롬
푸르트
▁ROX
▁버트
▁해부
ied
▁미니맵
ugh
▁다레
▁미소년
▁백웅
학생회
....
▁stay
▁육아
브레
▁경복
▁레토
▁읽히
▁학군
▁아즈텍
▁양천
▁이케다
▁"...
▁김강
▁대방
▁진홍
▁잠재우
자락
▁거주민
irc
▁얼라
▁외견
▁Eur
▁젠더
▁김유진
▁VP
▁노카
▁몽키
뚤어지
▁교통부
▁바닥나
▁돼지고기
▁강좌
▁양재
▁247
▁김성현
▁치우치
ether
uction
저곳
▁바크
▁이곳저곳
▁Trans
▁슈우
▁현저히
▁점프력
▁타무라
▁슈퍼주니어
▁도핑
▁파스타
도현
▁워킹
▁Hello
▁라디
▁모하
▁톡톡히
▁걸어다니
▁타마키
▁홈플러스
als
▁관현
▁완급
▁아돌프
▁의기
▁동방신기
▁수학여행
공원
▁김보
▁번화
지부지
▁흐지부지
▁속아
▁long
▁중앙일보
▁sl
▁발진
▁이데
▁Cup
▁태권도
▁ㅅㅛ
▁모란
▁중전
▁xC
▁면담
▁점장
▁증진
▁246
▁이상일
▁버나
▁일식
▁고구마
▁무의미
▁과묵
▁분파
▁브렛
▁INT
▁힐러리
▁Jack
▁손아섭
ella
▁도우미
▁방망이
▁이건
▁주선
▁North
▁조시
▁어윤수
▁연장자
▁선술
ka
▁과대
▁셰퍼드
▁타카기
▁토모야
▁외할
▁레퀴엠
▁재생성
ience
▁군포
▁아린
▁픽션
▁미츠루기
▁총학생회
▁망언
▁김기태
▁한니발
▁바벨
▁그지없
▁오토메
atter
▁권속
▁의구
▁자경
▁한신
▁결정타
▁color
▁빈곤
태현
▁타노
▁239
▁두세
▁순화
▁직면
▁피르
▁황룡
▁Ins
▁구세주
올로
▁슈테
▁아그니
▁남궁
▁사샤
▁환상향
▁모차르트
빼미
특기
icon
▁470
▁game
▁STAGE
▁수프
▁뛰어가
▁주특기
▁Direct
▁엥
▁김응
▁라멘
▁담보
▁오열
▁노하라
▁뷸
esh
▁룰루
▁알버트
▁감명
▁엘다
▁파란
▁호신
버섯
▁GU
우로스
▁명동
▁정신줄
▁사카가미
▁기일
▁만성
▁박용택
▁목격자
▁사스
▁연어
▁윤상
▁팽창
▁Only
▁AH
▁Gra
▁몰아주
프레이즈
▁번외
▁키카
▁디폴트
▁Burst
▁TC
▁리그베다
▁해협
▁김규
▁양날
▁페퍼
▁Mach
자치시
▁포뮬러
▁특별자치시
▁대덕
▁백발
▁터너
▁완투
▁판독
▁음주운전
▁구위
▁약초
▁역이
ince
▁Ice
▁마츠이
▁1926
ㅁㅏㄴㅇㅡㄴ
▁방사선
▁쿼터백
▁훈련장
▁번작
▁성불
▁실세
reen
▁징표
▁디셉티콘
▁몬스터즈
카타
프레소
▁1080
▁미야모토
▁펜타
▁알리스타
암리
▁랑그
▁아캄
▁정품
출력
mas
▁남색
▁SHD
▁의구심
afe
▁쟈니
ents
▁박지성
▁뿌리치
▁우에노
▁iP
▁단결
▁플랑
▁구덩이
▁전산망
▁색기
▁서투르
▁쉐보레
▁제타
▁풍습
▁거리낌
▁울버린
▁뻑
ELL
▁평의회
바꿈
조사
▁트란
▁블랭크
▁고프
▁밀양
▁Som
▁캐치프레이즈
▁발해
ㄹㅅㅔ
▁우에다
▁노화
고짜
▁다짜
▁1924
▁다짜고짜
사태
▁사나에
▁마케도니아
▁궁예
▁도란
▁호크스
▁이비
▁이방원
▁스캐
▁힌두
▁Intern
▁스에
▁행크
▁bet
쓸이
IKA
▁오션
▁용시
▁배달부
▁적의
효과
▁사채
▁지금껏
▁~.
▁라피
▁탈영
uman
▁이용규
emy
▁우후
▁역부
▁그랜트
▁속칭
▁제츠
▁폭락
▁헤치
▁저절
▁PPV
▁무스메
▁유토피아
▁ser
▁비주류
▁경음
▁지방도
▁주춤
▁지코
▁262
▁980
▁갑작스레
su
임새
▁WA
▁계주
▁241
▁오른발
▁태극기
▁토리코
▁승선
▁저절로
▁공소
▁직렬
▁태초
▁와이파이
▁자동변속기
▁야권
▁충무
▁민사
▁손잡
▁적잖
▁헤이즈
▁진이
▁다테
▁look
▁딤
▁수진
▁로빈슨
▁우르스
▁코즈믹
▁USS
▁행정동
센터
▁강시
▁수반
▁름
ald
▁분투
▁도로시
▁스사노
▁구구
▁그렉
▁이마이
▁계룡
▁축출
▁카가미네
▁렝
▁군장
갯소리
ANCE
▁쓰레기통
▁아이린
▁수두
▁클로드
▁왁
▁교구
▁일병
▁풍미
▁볼프강
▁중의원
▁원내대표
구려
▁ed
▁가람
▁미화
▁ㄹㅣㄴ
나멀
▁머나멀
▁봉지
▁릴리즈
▁별장
▁순번
▁하복
▁스트라
ology
▁솔러
URE
▁민망
▁발기
자위대
▁DEX
▁MiG
▁이름값
▁렴구
▁반찬
▁스텐
▁매끄럽
▁미카도
▁{{{#!
▁톈
ids
▁슬기
▁레바논
aph
▁솔트
▁절판
ARK
▁용례
▁잡담
▁페라
ㅁㅓㄴ
▁퓨처스
▁마이스터
▁특무
WA
▁달구
▁세주
▁시디
▁페일
▁알아주
▁유유히
▁카이지
▁소비에트
▁화살표
▁넘어뜨리
▁music
▁자림
▁핸디
▁KGC
▁혈연
▁열등감
▁talent
▁셔플
▁입석
▁노이드
▁불어나
▁숨통
▁한술
▁부끄러
▁Winter
▁특검
▁형용
▁기프트
▁680
▁크라켄
▁국외
▁회식
▁김동현
▁빠져나오
INK
▁금수
▁가요제
OLD
▁이븐
▁이야깃거리
밍고
▁동복
▁씨름
▁위스키
▁낙타
베로스
▁클레멘
▁숄
▁고귀
▁극명
▁에토
프리트
▁랜드마크
▁벌집
▁원반
▁아키하
▁댕
▁강희
▁오성
▁장창
▁폄하
▁폐위
ORPG
▁아머드
▁대통령령
▁빠름
▁깨달음
oph
▁소외
▁304
▁원동력
▁우즈베키스탄
핑크
▁음독
▁306
▁올빼미
▁002
▁드링크
▁중남
▁샌드백
▁우스갯소리
▁HA
▁라칸
▁빙하
▁스필
▁외과
마르크
▁MOD
▁켄시로
▁케이틀린
▁직사
▁탄피
ates
▁송라이터
▁괘
진구
▁성자
▁위축
▁일침
▁311
▁think
▁담장
▁사파
코리아
▁페미
▁낙태
▁디노
▁즈이
▁건방지
▁공판
▁조디
▁부조리
▁클러스터
▁놋
메르
타마
▁주희
▁끝마치
▁불계승
▁은지원
▁숙종
▁아다
▁고군분투
tus
▁군용
▁디비
▁마진
▁본업
▁종업
▁편파
▁뒷모습
워커
▁손질
▁Die
▁fff
▁도요토미
▁해바라기
uth
▁IR
▁LF
▁심도
▁원투
▁취역
▁푸치
▁무용지물
▁불시
▁선착
▁성매매
▁체육복
▁핸들링
▁연휴
▁타오
▁630
▁소용없
▁디어
▁역순
▁장려
▁야마시타
▁칠곡
▁패트리
▁헤르메스
▁Network
▁253
▁신혼
▁액자
▁천차
▁신천지
▁당진
▁안건
▁충당
▁헐리
▁아이샤
▁저스트
▁케이타
▁튀르크
▁서건
▁소거
▁숨지
▁연정
▁잠잠
▁경계선
▁날라가
▁쳐들어가
▁카트리지
▁Sports
에리
▁윤회
▁302
▁에스프레소
▁강기
▁기승
▁리세
▁샬럿
▁역도
▁HL
▁고동
▁군청
▁탈모
▁에스퍼
▁태양계
▁렐름
▁맨몸
▁아도
▁의인
▁직설
▁이브스
▁디바이스
국수
▁도지
▁맛집
▁장정
▁추상
▁한겨
▁골문
▁수병
▁양각
▁이펙터
▁피의자
iki
▁잠적
▁큼
▁안착
▁임종
▁브랜든
▁NATO
▁겨자
▁붕어
▁공손찬
▁스카이워커
▁Inc
▁여객기
링턴
▁위압
▁샘플링
▁깨물
▁우루스
▁제리코
▁왓슨
▁팝콘
▁Cur
▁남다르
▁시험장
▁공포증
▁크나크
▁가계
▁스톱
▁죠타
피디아
▁전자기
▁포르쉐
▁비호
▁Pan
▁쿠미코
▁외주
▁rev
▁하야미
▁내지르
▁위키피디아
ki
▁공무
▁자속
▁크랙
▁SNH
▁주제가
▁After
▁배틀로얄
▁카카오톡
▁비지
▁연합회
▁케이티
놀드
▁말썽
ures
▁병음
▁악단
▁사인회
▁탈바꿈
▁꿍
bit
▁선동열
▁스크림
무쌍
어처
▁염라
▁유구
▁커튼
▁소나타
▁미니어처
▁레디
▁최태
▁표범
▁화이
▁동맹국
▁싹쓸이
▁산림
▁인가
▁생활관
▁가우
▁모태
▁분비
▁빙빙
▁말려들
ami
▁계투
▁유권자
▁넋
▁다발
▁열폭
▁필멸
▁IZ
▁급진
▁체자
▁토도
▁플릭
▁힘드
za
▁도화
▁방콕
▁환기
▁컴플렉스
▁쏴
가타
▁방전
▁친부
▁금상
▁잔상
▁정오
▁사각형
▁스터디
tor
▁셀레
▁기동대
유예
lin
▁760
▁공식전
▁부담감
▁House
▁목성
▁착탄
▁최유
▁터빈
▁적나라
▁미란
▁차츰
▁기념관
▁Lost
▁셔터
▁CLG
▁Reg
반짝
▁믿기
▁별반
▁반짝반짝
▁버지니아
▁기조
▁샌즈
▁송창
▁황기
▁Spir
▁박승
▁인대
reet
ㄴㅗ
▁이프
▁허드
▁USA
▁인민군
▁가져다주
▁미네르바
▁손견
▁실크
▁RES
▁Roy
▁싸구려
▁충실하
▁오두
▁인위
▁메피스
▁독주
▁시테
▁풍신
▁얏
▁모용
▁나이스
▁트랭크
▁Kiss
▁착시
▁후크
▁파밀리아
▁005
▁뒤따르
▁망가뜨리
▁쿠로사키
진창
▁GF
▁로케
▁손색
▁blue
▁촉한
▁away
드기
야구
▁Ha
▁메로
▁아샤
▁외로
▁서초구
▁dream
▁수조
▁승수
▁학실
▁호가
▁요절
▁지선버스
▁위급
▁이동한
▁월트
▁미흡
▁샐러드
▁Again
GO
▁시발점
▁하락세
▁도굴
▁코비
▁쿠가
▁RGB
▁서식지
▁오키타
▁유세이
▁전륜
▁타란
▁게오르
▁반역자
▁손아귀
▁Inter
양군
▁강승
▁미어
▁288
▁Fun
▁짧아지
▁마음가짐
혜진
자치도
▁Dig
▁번역본
▁2100
▁제주특별
▁제주특별자치도
기수
▁레거
▁보육
▁서현
▁카봇
▁블라인
▁보드게임
▁울산광역시
YS
메트
전력
▁개중
▁이다
▁속삭임
팔구
▁두꺼
▁맹장
▁오유
▁하체
▁무기력
▁역부족
▁엉망진창
▁퀼
▁등대
▁장윤
▁080
▁후지타
▁양복
▁작사가
▁티타늄
▁SPEC
수원
▁매화
▁베누
▁두들겨
▁브리지
▁이승현
▁조종석
▁서프라이즈
va
▁가도
▁허준
▁스레드
▁지난해
신저
▁QS
▁십중
▁555
▁울타리
▁프랑크푸르트
아보
▁재량
▁%]
▁명맥
▁활로
▁십중팔구
▁FINAL
▁수완
▁사들이
ks
▁종파
▁NCR
▁세이렌
▁아리마
ato
▁격발
▁하동
▁비관
▁MOM
▁퀘이크
▁걍
▁자서전
QU
▁TA
▁코퍼레이션
▁순하
▁요시카
▁수회
▁제이나
▁TL
▁발성
▁사무총장
▁파프
일비
▁bo
▁근위대
꺼이
▁카푸
▁LPL
▁섣불리
리케
▁.?
▁직급
unch
▁Dan
▁Wol
▁원나라
▁매그너스
▁개당
▁도인
▁라울
▁온리
▁데저트
▁앰프
▁자급
▁재편
▁호적
▁골머리
▁다이버
▁사유리
▁가뭄
▁다물
▁발주
▁본심
▁ㄷㅔㄴ
▁기약
▁도메인
▁바티칸
▁텃
▁제라드
▁Tim
차원
▁유니버설
▁찝
▁바꿔
▁원체
▁승마
▁에고
▁숟
▁뺨치
▁신차
▁사마귀
▁수갑
▁공학부
▁이나바
▁천년기
▁멸시
▁조차
▁지단
▁rem
게더
▁악녀
▁흉부
▁팟캐스트
▁빼먹
▁안락
▁제니퍼
▁쾌감
▁요시코
▁남대
▁수양
▁광신도
▁미스틱
▁Anim
▁애니맥스
TLE
▁김미
▁노년
▁눈매
▁우진
▁캐쉬
너티브
▁얼터너티브
▁둔갑
▁원서
▁정산
▁충신
▁투게더
워키
▁엄호
▁청각
▁소미
▁구설수
order
▁light
▁UK
▁대망
▁패티
▁Dri
▁vol
ething
▁Heaven
▁단추
▁육탄
▁칠드런
▁피츠버그
ITY
▁라벨
▁목조
▁mod
▁미노루
▁판타스틱
▁김연아
▁다람쥐
▁요스케
블러
▁JB
▁뚜벅
▁야사
▁언론인
▁프라이스
하고
▁다희
▁현종
▁투창
▁합성수
▁샤우
▁비키니
▁서건창
▁쌍방울
버둥
▁위그
▁2200
▁990
클레
▁계양
▁깡통
▁음절
WS
▁데비
▁멀록
▁한기
idae
▁Cent
▁어김없이
▁네버
▁달력
▁신변
▁컬처
▁산드라
▁무라카미
pm
▁교배
▁노쇠
▁다승
▁본점
▁연격
▁미노리
▁번역가
▁이세이
▁인플레이션
▁System
▁무투
▁속초
▁거래소
▁홀로그램
▁TM
▁오하
▁치환
▁심기
▁예견
▁사냥개
▁애슐리
▁기증
▁영력
▁침범
▁장단점
▁우리나라
사슬
▁굵직
▁참호
▁하이스
▁로엔
▁볼드모트
▁린스
▁명랑
▁로이스
▁붉히
▁알마
▁입찰
▁add
▁다이묘
▁유리카
▁머슬
▁성화
▁메이슨
▁외로움
ㄹㅜ
▁gl
▁생생
▁짜내
▁299
▁위선
▁한동
▁stop
▁ㅇㅡㄹㄹㅐ
▁쉼
거나
▁거처
▁안구
▁주립
▁차근
▁타루
▁황산
▁잡아먹히
ury
▁린네
▁상서
▁원만
▁질타
▁포천
▁항전
▁소고기
▁15000
▁랜딩
acy
▁가젯
▁분단
▁초조
▁화순
에나
▁가늘
▁디저트
▁비행단
▁하하하
쿨루스
▁침략자
▁핫토리
▁Wr
▁은평
▁키프
▁대한제국
iet
▁대참
▁따라붙
▁슈퍼볼
▁투르크
▁방청
▁GEN
▁Sal
▁김주찬
▁레드삭스
▁호연
▁황궁
▁초토화
enter
▁Remix
▁뎃
▁튠
나츠
▁의결
베트남
▁개인기
▁키타로
▁신창
▁열강
▁반도체
▁Fant
▁에밀리아
마음
▁공범
▁sup
▁괴뢰
▁애벌레
▁캔자스
▁고딕
▁오트
▁바로잡
▁바리에
▁난관
▁픽시
▁부적합
▁한겨레
▁타이베이
나길
에타
▁참신
▁출소
▁발버둥
aking
▁were
▁엘렌
▁현세
▁아즈마
▁국교
▁him
▁기나길
▁틀어박히
▁사치코
▁헤엄치
▁연무
▁무함
▁불빛
▁탯은
▁기꺼이
▁동시대
▁쇠사슬
▁GRE
▁우버
▁이너
▁SSD
▁장료
▁뒤섞이
▁따름
▁브롤
▁요도
▁Why
▁갈아엎
▁개소리
▁요르단
▁꼰
▁방한
▁용기사
티모어
▁헬레나
▁사계
▁신형
▁295
▁헤일로
▁순종
노부
▁몰이
▁묵시
궐선거
cape
▁재보궐선거
브로
▁덮이
▁세습
▁오심
덕지
▁신인왕
▁핵폭탄
▁헬리오
▁반공
▁사구
▁석가
▁UB
▁원탑
▁대대장
▁엘레나
▁유목민
▁자유당
겨우
▁공예
▁긴토
▁로카
▁볼티모어
▁PE
▁살림
▁신음
▁ㅌㅡㄴ
▁속마음
▁아놀드
▁위계
▁코마츠
▁산업단지
▁담담
▁삼가
▁종반
▁원자로
▁드레이
▁마유미
▁스파이럴
▁고트
▁권수
▁이리나
▁근소
▁미마
▁건국대
▁아키토
광이
▁nm
▁명상
▁속국
▁총신
▁맘대로
▁Series
▁슈마
▁동면
▁박소
▁생식
▁부통령
▁스탠리
▁크리스틴
세어
hem
▁라데
▁하교
▁브루노
▁페르난도
▁display
▁수두룩
▁영정
▁ZERO
▁의약품
▁They
iw
▁성산
▁짝수
▁후부키
▁MMORPG
▁아키타
▁PERFECT
irth
77
▁박인
▁
▃
⊸
ㅇ
ㄴ
ㅡ
ㅏ
ㄹ
하
ㄷ
이
ㄱ
ㅗ
ㅓ
ㅔ
.
ㅣ
ㅢ
ㅆ
,
리
ㅁ
1
ㅅ
지
0
스
기
사
ㅕ
시
2
ㅈ
가
대
나
아
수
있
되
그
자
전
들
어
ㅘ
보
정
상
인
일
주
오
장
것
마
3
드
로
도
트
다
우
제
라
부
적
성
e
5
-
모
치
미
공
4
신
고
르
비
소
무
위
유
동
9
구
타
중
문
한
a
경
히
만
원
년
니
레
국
화
때
용
6
o
8
'
7
내
거
카
:
i
크
선
조
당
후
명
t
력
세
개
n
r
없
버
서
작
등
터
연
생
방
실
키
바
의
격
영
안
러
계
간
프
단
발
ㅂ
차
여
역
반
물
체
않
재
진
S
s
월
관
분
회
파
말
해
점
노
"
교
데
A
속
학
요
포
/
l
피
행
코
ㄲ
더
능
호
과
래
저
두
식
토
본
루
강
C
게
임
음
m
ㅑ
통
결
번
초
d
각
h
출
배
군
매
종
입
즈
디
T
현
M
불
추
승
P
야
ㅜ
최
티
메
E
u
남
직
설
같
형
브
B
산
태
감
받
심
!
D
편
에
특
판
c
투
많
급
건
패
운
양
알
금
람
달
외
쓰
면
예
표
I
L
약
민
업
R
법
함
살
너
못
ㅌ
O
언
플
목
G
F
런
복
처
준
g
네
테
돌
N
병
y
좋
습
권
%
평
천
막
황
따
독
박
애
름
술
변
합
른
집
p
절
참
청
머
존
록
근
론
려
또
김
캐
베
K
왕
날
별
확
환
활
페
츠
f
션
k
필
항
열
죽
?
쿠
~
순
V
악
+
석
ᄆ
망
블
H
팀
올
류
향
울
맞
v
증
족
량
곡
담
릭
잘
광
탄
잡
커
총
료
클
렇
손
효
품
송
폭
먹
느
뒤
퍼
련
글
범
녀
탈
질
워
b
백
란
쪽
접
얼
누
w
창
령
케
난
ㅊ
랑
은
높
U
색
새
완
#
극
벨
채
검
X
W
킬
든
께
철
벌
혼
와
충
밀
빠
힘
즌
길
귀
끝
삼
듯
싸
ㅛ
린
락
걸
험
괴
북
움
몬
골
친
끼
슬
희
득
림
넘
립
럽
육
놓
취
슈
틀
견
착
랜
엄
택
곳
앞
축
규
온
눈
엔
허
냥
링
맨
덕
템
]
및
롭
[
쟁
늘
엘
줄
턴
칭
찾
붙
째
책
갑
봉
팬
응
갈
징
첫
널
률
쉽
침
얻
떨
찬
x
J
측
율
답
짜
할
잠
획
꾸
암
풀
벤
팔
굴
몰
좀
몇
억
헤
Y
씨
훈
압
혹
찰
둘
협
풍
으
센
넣
싶
홍
멀
몸
궁
즉
&
먼
뜨
뿐
던
볼
까
휘
염
논
묘
닛
벽
례
밝
렵
뉴
님
깨
퇴
슷
떠
돈
딜
탑
칼
뛰
숙
홈
컨
빌
콘
익
낮
컬
액
층
끌
웃
맡
곤
앙
찍
슨
렌
샤
웅
윤
을
짓
ㅐ
옥
큼
략
갖
딩
웨
킹
멤
폐
팅
쉬
멸
죄
닝
욕
싱
찌
좌
놀
숨
롯
듣
<
솔
씩
덤
빈
쇼
롤
뭐
욱
픽
델
잔
빛
콜
켓
뀌
흑
꽤
=
ㅋ
깝
푸
뮤
념
낙
랙
폰
쁘
농
척
혈
빨
뜻
빼
객
왜
겨
맥
흥
렉
맹
Z
칸
앨
섬
닉
혀
ㅎ
밖
듀
큐
랭
휴
텐
헌
닥
폴
z
룡
램
맵
탁
떻
혁
럭
쿨
흔
홀
넷
엇
떤
균
럼
털
뽑
튼
혜
빙
맛
톤
튜
흐
컴
땅
텔
섭
져
컵
십
녹
짝
꽃
는
굉
탐
딱
뢰
콤
끔
퀘
챔
덱
뷰
팩
밤
잃
딸
밥
밍
졸
흡
헬
옷
멘
*
믹
탕
릴
씬
핵
펜
즐
쏘
찮
몽
젤
릿
킨
꼬
봇
꿈
쌍
뷔
룹
둥
삭
끄
윈
겁
칠
)
쿄
셀
묻
놈
뇌
엑
Q
켄
탱
쳐
펼
틴
똑
믿
옆
납
핑
깔
싫
밴
{
괜
얘
롱
훨
낌
잉
}
덜
퓨
갤
돕
읽
힐
탓
칙
캠
빅
콩
벗
셈
엽
곧
랍
>
젠
꺼
짧
j
촌
틱
굳
끊
붕
짐
폼
펙
튀
멜
쓸
셔
둠
쇄
핀
잇
셋
륙
덴
앗
냉
쩌
셉
뒷
즘
젝
촉
넓
첩
렬
옵
덩
_
죠
떡
쥐
늦
쌓
닌
셜
쇠
겸
촬
빵
쥬
쯤
깊
펠
뿌
왼
샷
텍
븐
ㅃ
값
띄
컷
쫓
랫
밑
퀴
꾼
;
웹
융
춘
묵
꼭
켜
옛
랩
흘
낫
앉
렛
겹
멋
흉
붉
걱
앤
뻔
겪
멍
엠
뚫
슴
랄
옹
밸
캡
넥
숲
헨
잭
틸
꼽
옮
댄
셰
섯
럿
톰
텀
톨
톱
춤
딘
웬
긴
섞
q
잊
듬
쾌
렐
킥
윙
숫
를
떼
꼴
뱅
혐
뱀
깐
댓
챙
갱
멈
틈
닫
둔
몹
캔
ㅠ
엉
젊
윌
팡
펀
닮
깃
탯
읍
맺
뉘
궤
렘
랗
겐
녕
훌
럴
횟
걷
핸
룰
쿼
써
빗
짱
봄
롬
묶
툰
빔
좁
숭
갓
깎
켈
퀄
탠
첨
곰
볍
츄
밟
렙
룬
룩
낭
륭
샌
덮
픈
삽
삶
룸
릉
냐
곽
빡
썰
낳
둑
|
챠
닿
펴
릇
쏟
팝
렴
늑
ㅍ
첼
끈
렁
낚
맘
앵
긍
윗
팽
퀸
ㄶ
굽
섹
뼈
돼
껏
넬
넉
뚜
곱
닐
짤
톡
얄
큰
킷
얀
뜩
핏
샘
뭉
@
덧
훔
\
슛
쩡
툴
삐
닭
챕
핫
쉐
긋
꺾
뚱
흠
썩
띠
륜
앱
뜯
멕
햄
쭉
왈
횡
겉
펫
붓
$
벅
뿔
엣
쟈
딴
펑
웰
훗
엮
뜬
둡
깜
씌
며
왠
잦
뱃
얗
똥
턱
펄
쨌
눕
뿜
녁
곁
꽂
뺏
딕
돋
섀
깡
훼
쩍
냄
닷
뚝
갇
벼
딧
껍
맷
탭
챌
싹
뮬
맙
뎀
갛
쵸
밋
씹
칩
잎
괄
빚
헛
멧
릎
꿀
밭
힙
듭
꼼
듈
깥
찢
팟
펌
몫
썬
튕
엿
겔
쪼
힌
엎
므
슐
돔
굿
텝
헐
벙
줍
딪
쿤
뽀
쏠
캣
밌
줌
퉁
휩
풋
옳
흰
솜
픔
벳
콧
뻗
흙
뻐
늬
흩
텟
툭
벡
헝
콥
쌀
쑤
샵
첸
붐
팍
뱉
팁
튬
갯
땡
캄
뻥
늄
꿰
냅
툼
솟
킴
샬
끓
굵
뭇
칫
갚
쿵
뤼
ㅚ
푼
궐
휠
꽉
끗
헷
캘
늙
콕
찔
쯔
볶
귤
젖
쉴
옐
잖
앰
넌
썸
큘
얽
깽
얹
퀵
셸
륨
캇
쨩
츤
옴
젬
퍽
뮌
긁
겜
넛
짙
젼
콰
슌
닦
덥
짖
(
펭
겟
잼
짚
홋
씀
웜
쫒
춥
뻘
꽁
삿
햇
팜
잣
귄
홉
샐
쎄
헥
탬
얇
샹
튠
쑥
뽕
앓
윽
맑
젯
렷
씻
얌
밈
옌
젓
땀
짬
낯
늪
텅
퐁
굶
쌔
꿉
킵
놔
뺨
욘
윕
왓
벚
댐
푹
팰
딥
넨
갸
꾀
껑
숍
껄
똘
쩔
^
맣
쥰
랏
컫
쫄
꿇
렀
밧
꽝
뜸
캉
쁨
뇨
눌
걀
낡
맴
쉘
싯
샨
`
쐐
룽
뽐
쭈
륵
밉
룻
싣
떄
뭔
깁
웍
숀
훅
얕
덫
폿
핍
랴
멩
찜
탤
윅
벵
숏
깍
샴
댕
빽
왑
넵
훤
뫼
뾰
텁
썹
씁
뚤
쌈
돗
꿍
ㄸ
왁
촛
캬
뺑
쌩
캅
눅
놉
팻
맏
뎅
갭
늠
꾹
좆
퀀
췌
뭣
뻑
퀑
괘
낱
꿋
잿
쩐
솥
찝
껴
칵
덟
괭
딛
즙
댈
땜
짊
잽
읊
멱
껌
슘
팥
댁
렝
쥴
띵
뷸
엥
릅
섣
갔
얍
콴
츳
켐
힛
뭄
톳
퀼
봐
뇽
뿅
랠
팸
츈
찻
셴
쿡
썽
뮐
깅
궂
딤
쏙
햐
된
닳
옅
쳇
짭
폄
얏
걔
씽
횃
샛
뱌
뎃
짠
윳
ㅞ
쟤
셧
ㅖ
믈
뎁
쿰
갉
곶
톈
넴
낸
꺽
뜰
핌
펩
츰
굼
뵈
쟝
핥
귓
쾅
컥
솝
찡
촘
헴
놋
숄
헉
숟
쏴
넋
꿔
걍
뮈
텃
슝
숱
쉼
끽
꼰
챈
컹
쑹
팎
앳
휙
쉔
궈
쓴
튤
춧
녜
쌤
돛
핼
녘
엡
쑨
찹
캥
쾰
촐
삑
낄
찐
쾨
윔
뒹
엌
뇰
줏
욤
뼛
즛
웡
갬
냠
쓱
뿍
펍
쉰
듐
륀
듄
빤
볕
삥
퓌
쟌
쬐
힉
쫙
롄
떳
묠
뻣
숯
꿎
휼
꺄
퓰
뵙
옇
딨
웁
왔
멓
멥
큭
긱
눔
끙
훙
쨋
댑
슥
훑
괌
챗
넝
쫀
낑
쭤
쏜
듦
뀨
홧
샅
낵
첵
낼
뿡
닙
슭
닻
쇳
꽈
눗
쭐
촨
챤
헹
텡
ㅉ
욜
겅
츨
잰
펨
뤄
쩧
싼
쫑
빕
늉
땋
맬
꿩
쥔
힝
쏭
쿈
벰
켠
퓸
둬
죤
돤
쿱
샥
틋
닢
랖
묀
겋
좡
빰
삘
뗏
탉
횬
웸
햅
딫
킁
깻
씸
뷜
좇
쭝
뭍
쿳
엾
숑
넙
칰
쩜
읏
윷
냇
뮴
빳
멎
굇
깟
쑈
쩝
혓
헵
큥
윾
콸
떵
냑
꼿
ㅝ
쭘
봅
쉿
몆
볏
뜀
땔
숴
씰
쨍
훠
뺌
캑
찧
붑
쥘
뮨
쐬
웩
죗
춋
긔
셍
옙
튿
됨
셩
짢
흄
젭
뒈
꽥
둣
챰
뤽
쳉
챳
붇
욥
젔
슉
줘
썻
옭
짹
꼐
츙
썅
ㅒ
빻
띔
쌰
콱
햏
믐
뻬
젋
쮸
촙
귈
큅
틔
맟
슼
볜
퍄
짦
휑
됭
쩨
뜷
넒
뎬
윰
ㅟ
옻
쯧
겼
릏
쨰
굣
ㅄ
었
륄
뽈
샙
솎
돡
흣
곪
룀
잌
냘
뺴
탸
엷
갗
뽁
뱁
옉
닼
큔
넹
섕
솩
쨔
겡
푀
쌉
뭥
픠
뼉
햣
욧
뵐
팃
곯
꺅
슾
휀
ㅙ
뫄
갠
웠
왐
핳
켁
뎐
벛
궨
묽
솅
띨
앜
쾡
췬
묜
뺀
맢
땁
츔
ㄳ
쇽
랸
켤
쳄
닯
퉤
밎
떫
쪄
ㄺ
꽐
춰
쌕
줴
죌
챵
졋
았
춉
쫌
믄
곗
앍
뚠
묄
랬
쳅
뢴
큄
퐈
뉵
겍
왱
벞
ㄵ
땃
ㄼ
칡
흭
홑
눙
쁠
ㅀ
됴
ㄽ
떽
ㄾ
ㄿ
쉑
퀜
맆
껸
ㄻ
겊
밞
꺠
꿏
킼
켕
쉭
톄
뷘
삵
퐝
캰
삯
푈
쇤
읭
좔
옼
똬
괵
졍
촤
븅
퇘
샾
똠
뼘
뎨
귯
큿
큠
묭
졔
헙
웻
푯
븀
뷁
섶
뺐
헣
뷴
읆
벱
팹
홱
뺄
쀼
훕
켑
풉
갹
궃
횽
븨
쳔
돚
첬
컁
꽹
쏨
셤
뤠
젱
홰
깄
겻
궜
햘
찟
솀
늅
듸
였
뵘
솁
쏩
꾐
왘
좃
룔
볘
챱
훍
먀
촥
솽
쒸
묏
웽
툽
멬
훵
낀
믓
녠
쭙
녈
뵤
먄
빱
붸
앎
텨
믜
솬
쨉
쫘
롈
좍
휭
숌
읺
몯
믕
솨
뾱
섐
춈
퀠
튐
쳬
왝
푱
푄
핰
늡
됸
끅
읇
폽
뒬
뒴
쩄
퉈
낏
랼
엊
뉼
몐
뱐
섥
솦
뗌
휨
롹
뽄
헿
췐
큣
밣
툇
뭅
겆
웤
났
땟
삣
껫
쪙
퀭
툐
뱡
옘
슙
앏
핡
긷
낢
묫
곬
옯
릐
셕
뙤
했
찿
꼇
쉥
똔
춍
캎
튽
낟
쬬
흫
툿
녓
삡
벋
뻇
낰
즤
웟
듕
럇
됫
젹
뎡
맻
앟
쯩
싀
줫
곂
큇
귿
뗴
쨜
쭌
밷
찣
캼
맠
벧
떈
햝
륌
쟘
쨘
퓔
촹
퓽
휄
몌
섰
쉠
뗑
렸
뱟
뙇
먕
흝
숔
쳰
큡
꽌
엪
떙
쁜
쵼
냣
짯
훓
솓
퓬
횻
숩
핬
휫
눞
섈
켯
퓐
뇬
봣
헠
귁
덬
긺
귐
댱
랐
뀽
섄
씅
쥿
잴
궉
깈
뎌
텻
햔
떰
뽜
웝
읖
풔
뼝
뵹
솃
읎
쥠
쨈
쟉
횐
쳥
튄
싴
쳣
졌
녤
똣
뚥
앚
옾
쑴
밐
펏
땍
졀
츌
쿙
걼
쬔
먐
묾
읗
꿘
듁
튈
펰
홓
셱
쎼
앝
짇
혔
룅
좨
뚯
짫
힣
될
멂
섵
흽
옜
왤
읔
곘
댜
섧
슁
캿
퉷
휸
끠
눝
댔
쏼
윱
혠
눼
븝
뺘
쎔
졈
껨
닠
띡
씼
훝
꺵
랲
뢸
뷕
쿽
띱
맕
챨
틉
뱍
빋
튱
덪
봙
솊
쫗
큉
틍
팤
뚧
뜽
삷
샄
읕
컽
튭
핲
늣
엳
쟙
꾿
뿝
썪
쳘
벴
쎾
돝
떱
슻
줜
몪
즁
캪
퍅
욬
꾜
넼
뇸
걲
핧
봑
덷
콯
닺
뎍
륍
욍
칯
늒
뜌
맫
몃
븟
쓔
얶
캭
귬
볓
읜
츼
쥑
췍
킅
햑
꿧
늴
뿟
츕
얆
욺
졷
쮜
툠
픕
륫
엏
엙
읶
츗
캌
덞
몀
웦
읒
걋
껀
딮
땐
륑
쏫
얔
풂
햤
뵨
쒜
앺
읻
킄
녑
뗀
뺸
쉣
쳑
괞
깉
꺨
븜
뻉
쓩
엶
쟐
뎠
칲
틑
굥
녯
뉸
븍
셒
읷
쳤
춫
텬
톩
뙈
룁
뺙
옝
켬
톼
꼳
뷧
삠
챡
촵
덖
뎊
몿
뭏
뺩
솰
쵤
쵹
킈
틩
혤
흗
갞
깸
끎
맜
뮻
믾
뻰
쉅
앖
욌
읫
잆
좝
쯋
켚
뒨
듧
뚸
쭁
훽
귑
됏
룟
뼤
쐇
앋
읃
핱
넖
넗
됩
좐
쩬
콬
퓩
됄
뚀
붱
븡
뺵
쎠
읅
졘
겯
롼
룝
쌥
얉
엤
죙
죡
큽
탶
겠
땨
뜹
쁑
숮
싈
쌋
쎅
쑝
잍
졉
쯕
굷
깹
뎜
싿
쥭
췩
퐄
궆
긇
롮
룐
뷀
빝
뺭
쌐
썡
씡
짋
췃
픅
뇩
릍
봊
쌘
귱
덯
돐
섴
쏸
엨
쪘
굄
긓
넢
놘
믌
벜
뻡
읠
죔
캢
놧
둟
랔
롷
먈
밪
죳
쥼
챦
캴
쾀
곈
뚬
롶
먁
뽝
앧
죨
쯥
쳌
푝
뚭
럄
뱔
봘
윶
쳡
췰
컾
켔
퇵
픗
뀩
끕
늗
덛
묙
밨
옃
욹
읋
쨕
켸
퀫
곷
괍
녔
댸
돨
딲
멉
뻴
셥
쌜
썖
앀
쥣
쾍
쾬
텩
툥
긑
껒
냨
둏
쀍
쇨
왬
욷
잏
쮀
츅
텰
톺
퇀
퇼
퍈
깩
넀
닜
띁
롸
샼
줭
홥
걺
긜
끉
낛
냡
냤
뇻
뢔
벹
븥
뺍
솧
슽
챃
쵀
쵱
칬
턍
퇸
픞
햡
햬
곻
럐
볫
쁩
섁
섦
얺
탹
핟
갂
궬
뫃
벫
쉡
슶
옿
웆
푠
핓
훡
휵
긘
뀰
댠
둉
뛔
럅
맽
봔
븓
싑
썌
얙
엃
쨤
쩰
쯰
튁
튝
퐌
픙
횔
훚
훛
놰
덨
딍
띤
롑
롓
맀
뵬
붗
샇
쏀
쑵
앆
얖
엹
잋
쪠
쫍
쫏
쿸
탼
팖
햠
갊
꺆
꺗
꺘
껠
늧
댤
됀
딋
뗘
랕
륏
뮹
믖
볠
볻
봥
븰
뻩
싁
쐉
옺
줸
켰
텤
퉨
튑
팊
팏
횅
휏
힜
궝
긿
돇
돎
랃
믁
븃
뽓
싄
얊
얭
엵
윜
젧
찦
탙
틊

깆
넊
듥
맃
묷
삻
쏵
왯
짘
쩃
챂
춀
캍
켱
쾃
퀌
턀
톸
펔
퐞
푕
횝
힠
괏
껶
꾈
뀀
덭
떔
뜐
뢍
뭡
볌
붏
붘
빧
뽂
쀠
삳
슳
앒
왚
욿
웈
잨
쥡
쩻
펲
핣
곌
긤
긧
긩
꾄
낍
낪
놜
눋
랋
롣
먺
뭠
쁙
샏
셑
쏱
옂
옄
욯
잗
잛
좂
쥤
쥽
쵝
킾
텦
헑
훟
굘
긏
꺙
끟
냈
뉨
닽
됌
뒥
듼
땽
똟
뢱
밫
벍
볃
봍
붴
빍
뻠
뿨
싰
쎆
앛
엫
윘
젴
줗
짞
쩠
텹
폔
퐐
풰
퓻
홇
홤
갘
곹
굻
귕
끵
놨
돟
둗
듫
떪
똏
랟
뤌
뤤
릳
먿
뾸
솸
쒯
앶
쟬
즑
짔
췻
켙
콦
툑
헼
혬
흒
ᄀ
껼
뀬
녂
닁
뎔
땝
룍
륩
륻
뭘
밊
밬
뱝
붯
빟
뻤
뻿
샆
샊
쑌
씜
얋
욋
잫
쪾
쯱
쳠
쳴
컄
훰
흿
힁
걈
겞
굔
긂
딀
럈
룄
맊
멌
뫌
봌
붹
삤
쎕
쓿
웄
웱
젛
챼
칮
쾩
퉆
팦
햛
횸
껩
꼉
넸
늫
닾
돞
떘
떢
뗼
똭
뚦
렿
뤈
릘
맇
맍
먜
몄
뫙
밯
벐
볐
붊
븕
뻭
쀏
삧
솹
숸
숼
쉨
쌴
쎗
씃
엍
옫
왹
윁
읉
잪
좄
죈
죰
짪
쫜
찯
컶
컼
퀧
텽
툉
푿
핮
햌
홐
횩
횰
흇
흨
곸
깺
꺔
꾱
꿕
뀡
끆
늇
덣
뎝
됍
둴
듵
떯
뜅
띳
랰
렏
렡
렫
륮
맄
몔
밦
볔
봡
빢
뺼
쀳
쁌
슢
싕
싢
싾
쌱
쎙
쏳
쐑
쒕
얃
엗
옧
욀
쟂
젏
짥
쫭
쯉
췤
쿗
퉅
갅
곀
곺
궷
꺤
놂
뉩
닑
댇
덍
됵
뗍
랒
뢉
뤂
륶
멭
뭀
뭤
믤
뱊
뱜
뵷
뻈
뻨
쀄
쁴
샒
샠
섡
숳
싦
쌧
썜
쑻
쓲
윹
쟞
죶
줼
쨥
쯜
찎
텸
톲
톹
튓
폇
핻
햋
훜
괃
궅
긶
꺌
꿜
늼
뒝
뚁
뜳
럤
렜
릠
맼
뫅
뱨
벓
벖
벟
볽
뵥
붤
빩
빪
뼸
쁭
섊
쉪
슅
슟
슮
싵
쌸
쎌
쑛
쒠
씔
옒
옸
웉
윢
읪
잩
쟎
젶
좊
좟
짆
쬼
쯘
촷
쵮
츩
켘
쿔
텼
퍙
픖
픤
햎
햙
햫
혿
횄
겎
겓
곲
굑
궘
깇
깤
깬
껙
꼍
꼻
꾁
꾾
꿱
뀍
끾
넑
넠
넫
녬
눨
닸
뎦
됙
둿
듰
딈
딯
똡
똰
뛟
띙
랓
롁
롫
륽
릌
맂
맒
멏
몾
묩
뭵
믇
밂
밗
뺃
뼁
뾲
뿛
쀽
삾
셊
슸
쎴
쓘
쓺
얾
웷
읓
읿
쩗
쬰
쬽
쭀
쯪
쳈
쵭
춛
춸
캆
캽
컈
퀍
퀙
퍌
풿
퓍
헾
홅
갋
겿
곖
궛
귝
꼮
꿑
뀫
끨
낲
넡
뇐
뇔
뇟
뉭
늚
닏
닞
닲
닶
댯
뎄
뎟
됑
딿
럷
렄
롴
뤁
뤗
릋
릔
먫
먾
묑
묨
뭊
믯
밢
벎
볱
뷥
븉
빂
빞
뻆
뿓
쁐
쁥
삮
슲
쌞
썛
쑐
씉
얅
옰
왂
욛
웊
웥
읙
잀
쟃
졤
졧
줃
줆
줙
줠
쩅
쩼
쪨
쬤
쭵
쭸
쳿
칟
켝
턔
퉹
펵
폯
헡
혭
훋
굠
굡
궭
귺
깓
껭
꼈
꽅
뀵
끋
녛
놐
놯
눤
뉙
뉫
늕
닰
뎧
됼
둇
둪
둰
딹
땗
똇
랎
렆
뢈
룯
뤀
뤨
릊
맗
뫀
뭴
뮉
뮝
믙
믠
믬
믱
밡
벆
벝
벸
붖
빆
빴
뿕
삸
샃
셖
솤
쇡
쇵
슦
슺
싐
싷
쌂
쐤
쑉
쒹
씝
앾
얿
엯
옪
옽
웒
읨
읹
쟹
즥
즹
짮
쨧
쩟
쩸
쫩
쭛
쯍
쳗
춱
춴
췡
췽
츱
쾔
탏
탣
톧
퍗
퍝
폘
퐅
핕
햟
햩
혯
횞
흟
힏
힗
걑
걩
괐
귾
긌
긲
깋
깢
꽇
꽨
뀜
끍
낔
넚
넽
녝
놎
놑
뇡
뇹
늰
댼
덿
뎈
돓
돜
됒
둙
둫
뒁
듷
땈
뗵
똙
똫
똵
똻
뙨
뚊
뚷
뜃
뜛
띾
룃
룱
뤙
맅
멁
멊
멞
멪
멫
멮
몁
몋
몼
뫈
뮛
뮥
믘
밮
뱓
뱦
벏
벘
벩
볙
봆
붝
븁
븘
븬
븽
빎
뺜
뻼
뼌
뽠
뽤
뽱
뾔
뾴
뿎
삒
삱
셟
쇴
숖
싲
쎽
쏝
쑀
쑦
쓉
쓋
씯
씺
얒
엋
엒
옦
옶
왉
욨
웕
윝
윟
읐
읩
젙
젚
졩
좉
줅
줒
줵
즨
쩖
쩩
쩽
쫴
쬲
찱
챞
첡
첮
쵠
칢
캏
켣
켭
쾈
큪
킸
탇
탖
탘
틂
틤
팈
팉
퍠
폅
폮
푤
풒
풸
풾
퓅
퓜
퓹
헗
홛
홯
훱
흼
힡
걌
걹
곅
곩
괙
굈
궹
귪
깕
껬
껵
꽆
꽛
낣
냏
냔
넜
녃
놏
놕
놤
놥
뇍
눽
닧
댛
덝
뎻
둚
뒿
듓
듨
딉
딻
땛
똿
뜜
띅
렢
롐
뢐
뢨
뤔
륷
릾
먑
몊
뫚
뫠
뭋
뭌
뭎
뭭
뮷
믂
밠
봏
봫
봰
붂
붚
뷍
븸
빖
빸
뻄
뻒
뼏
뽇
뽥
뽭
뿩
쀓
쀾
삲
섟
섮
섻
솖
솘
솢
솻
솼
숞
슆
쌵
썐
쎃
쎤
쎵
쑘
쑫
쒓
씄
앑
얂
얬
엓
엸
엺
옡
옲
왭
욉
욭
웛
윞
읾
잒
잚
쟜
쟠
젇
졜
쥇
짛
쨴
쪈
쭃
쭊
첲
촏
촴
쵷
췅
췹
췼
콫
쾐
킫
탚
텊
퇄
툵
퉌
퉝
틧
팣
픎
픨
핔
핝
헭
홁
훳
갴
갵
걁
걉
겂
겤
겧
괫
궄
궥
궸
궻
귖
귚
긄
긐
긕
긼
깞
깪
꺈
껃
꽊
꽜
꽬
꿂
꿿
뀻
끡
낋
넞
뇠
늨
닊
닡
댝
댬
덗
덙
뎋
돆
돖
돘
돰
돵
둅
둩
둼
뒑
뒵
듳
딺
땰
떅
뗠
뗸
똽
뙉
뙜
뚄
뚕
뚮
뛌
뜵
랅
랣
랳
랻
럔
럲
롇
뢀
뢇
룜
뤅
뤕
뤘
뤡
뤳
륧
릃
맓
맔
먖
먗
멑
멛
멷
뫁
묌
묗
뭩
뭰
뭼
믏
믑
뱩
볭
볾
봁
봃
봈
봋
봠
봨
봴
뵛
붒
붛
붼
뷫
뷱
븛
븩
빏
빜
빹
뺡
뺣
뻢
뼬
뽘
뾆
뾼
뿁
쁍
쁫
섪
섺
셐
셗
쇅
쇱
숛
숝
쉇
쉤
슡
슧
슿
싪
싻
쌑
쌟
썀
썁
썭
썯
쏉
쐭
쒝
쒭
쓧
씍
씤
씪
앫
앸
얎
엩
엱
엻
왒
왰
욝
욣
욲
욾
웇
웗
웚
웳
윀
윸
잞
졎
쥄
쥅
쥌
즞
짒
짗
짴
쨟
쩹
쪗
쬈
쬭
쭂
쮠
쮹
쯀
쯴
챸
챺
첟
촠
촾
쵇
춣
췁
츀
칄
칽
캈
캋
컿
켮
콀
콮
쿌
큟
탗
텉
퇗
퉥
튯
틜
틷
팓
펖
퐆
퐉
풐
풑
풜
풨
풩
풮
풱
픐
픝
핃
핤
혱
홝
횦
훁
갮
갲
겕
겴
괠
굸
궙
궞
궢
궫
궳
궼
귻
깛
깣
꺍
꺴
껚
꼄
꼱
꿻
뀅
뀝
끛
끤
넾
녇
녺
뇄
눜
눟
눳
뉍
뉏
늩
늿
닟
닣
닪
댖
댘
댥
덢
덦
돠
돩
돶
됟
됰
뒙
뒸
듟
듮
듴
듶
듹
딷
떣
떧
뗃
뗜
뗶
똈
똒
똗
똴
뙁
뙡
뙭
뚂
뚞
뚵
뛃
뛩
뜁
뜝
띃
띧
띯
럳
럻
렣
렦
렺
렼
렾
롕
롥
롵
룥
룳
뤱
뤵
륐
릣
맾
먓
먘
먯
몓
몭
몱
뫔
묯
뭆
뭑
뭷
뮘
믉
믗
밇
뱕
뱤
뱽
벑
벾
볎
볹
봎
봒
봗
봤
뵉
뵫
뵭
뵳
뵴
뵶
붆
붋
붎
붠
붰
뷉
뷋
뷤
뷩
뷮
뷹
븠
븧
빘
뺔
뺚
뺫
뻟
뻽
뼥
뽟
뽬
뽴
뿗
쀡
쁀
쁄
쁏
쁟
삝
샂
샫
샭
샻
섢
섨
섿
솕
솣
쇀
쇙
숤
숧
숰
쉈
쉛
쉩
싥
싨
싮
싳
싺
싽
쌙
썍
썎
썫
썲
쎀
쎨
쏄
쏌
쐔
쐙
쑟
쑷
쒐
쒞
쒰
쒱
쓕
앐
앢
얷
엜
옞
옠
왙
욈
욮
욼
웧
윻
읂
읈
읰
잂
잓
잕
잙
잧
쟆
쟣
젆
젰
젵
졐
좜
좢
좽
죕
죢
죧
죹
줐
쥈
쥉
쥗
쥥
즠
짂
짷
쨖
쪤
쬴
쮓
쮝
쯈
찫
찭
찴
챷
첅
첧
첯
첰
쳼
촊
촒
촞
촟
촡
촢
촣
쵯
춭
췔
츷
칀
캜
켼
콭
쾻
쿭
쿹
퀏
큮
큻
킐
킳
킽
탊
탰
턉
텋
텥
톢
퇫
퉄
퉐
퉸
틘
팂
팛
팧
퍕
펕
폕
폣
폥
폳
퐙
푭
풴
풹
퓝
픋
픓
픱
핞
핶
햍
햾
헁
헏
헔
헕
헯
홣
홨
홭
훃
훎
휜
갌
갣
갦
갿
걕
걥
걳
겇
겈
겦
겱
겳
겾
곃
곙
괆
괬
괱
괸
궇
궋
궶
귍
귔
귛
귡
귨
긃
긎
긒
긮
긹
깏
깑
깳
꺀
꺃
꺕
꺢
꼅
꼯
꼲
꽣
꽦
꾑
꾭
꿃
꿝
꿥
꿯
뀙
낞
낻
냙
냩
넏
녋
녿
놞
놩
놴
뇜
뉀
늖
닒
댦
댧
댭
덀
덌
덠
뎂
뎆
뎰
뎽
돒
돧
돱
돳
돴
됈
됻
둄
둍
둽
뒉
뒓
뒛
뒫
뒺
듑
딬
딭
땇
땎
땓
땩
땻
떗
떭
떷
뗆
뗡
뗣
뗫
똝
똧
뙍
뙬
뙴
뚐
뚔
뚢
뚣
뚼
뛈
뛉
뛛
뛯
뛷
뛻
뜄
뜔
뜾
띻
럂
럍
럣
럮
럶
럸
렂
렞
렠
렰
롻
뢋
뢘
룺
뤩
뤰
륳
륾
릀
릆
릞
릥
릯
릵
맋
맚
맮
먆
먏
먚
먛
먽
멐
멟
멦
몉
몟
몥
몲
몳
몴
뫟
뫤
뫽
묍
묟
묳
묺
뭃
뭈
뭗
뭨
뮜
뮽
믭
믻
믽
밁
밒
밚
밲
밻
뱛
뱷
벲
볈
볋
볟
볿
봀
봽
뵽
붌
붍
붭
뷇
뷈
뷛
뷷
븗
븞
븪
븹
븻
빥
빮
빶
빷
빾
뺅
뺒
뺓
뺛
뺠
뺶
뻙
뻞
뻦
뻪
뼇
뼐
뼙
뼠
뼡
뽛
뽞
뽧
뽸
뾥
뾻
뿀
뿉
뿏
뿑
뿘
뿙
뿧
뿯
뿰
쀒
쀫
쀵
쁋
쁎
쁢
삗
삜
삺
샑
샢
샸
섑
섲
섷
셓
셙
솄
솑
솗
솫
쇌
쇘
숡
쉄
쉉
쉏
쉒
슀
슄
슏
슞
슠
슫
싞
싧
쌁
쌇
쌒
쌖
쌛
쌷
쌻
썃
썄
썋
썮
쎂
쎋
쎝
쎡
쎥
쎿
쏏
쏑
쏶
쏻
쏽
쐅
쐣
쐽
쑁
쑞
쑩
쑼
쒄
쒈
쒴
쓀
쓈
쓍
쓑
쓜
쓤
쓷
씋
씥
앩
앻
얩
엝
엞
옑
옱
왛
왣
왷
욙
욟
욡
욢
웋
윋
윧
윲
윿
읁
읟
읧
잟
잢
젗
졥
좈
좠
좬
좸
좹
좼
죵
죸
죻
줈
줓
줮
쥩
즂
즊
즏
즣
즬
즴
짣
짲
짿
쨎
쨨
쪌
쪰
쫃
쫖
쫣
쬡
쬥
쬷
쬿
쭒
쭨
쮈
쮕
쯸
찓
찥
찵
찷
챀
챁
챯
첞
첣
첥
촰
촳
쵄
쵬
춝
췄
췜
췸
츺
칞
캵
컭
켇
콙
콛
콻
쾁
쿜
쿧
쿫
쿻
퀨
큗
큨
큳
큾
탵
턋
턑
턚
턷
턹
턻
텓
톋
톗
톙
톽
퇑
툄
툘
툳
툻
퉀
퉭
튮
튺
튻
틆
틐
팯
퍀
펁
펎
펬
펻
폑
퐂
퐃
퐑
퐤
풕
풬
퓟
퓦
픜
픟
픳
픵
핖
핚
핪
핽
햰
햿
헚
헫
헱
헲
혙
홒
홴
횹
훒
훞
휅
휗
휳
힑
힒
힚
갃
갍
갏
갢
갥
갨
갶
갷
걂
걄
걇
걏
걐
걓
걠
걤
걵
걽
걾
걿
겢
겥
겷
곕
곟
곫
곮
괧
괨
괩
괳
괺
괻
괾
굅
굗
굛
굮
굯
굾
궏
궔
궖
궚
궮
궯
궴
궵
궺
귇
귊
귏
귘
귥
귭
귽
긊
긛
긞
긠
긡
긢
긣
긥
긬
깂
깒
깧
깶
꺁
꺋
꺏
꺐
꺡
꺰
껇
껗
껰
껱
껻
꼠
꼣
꼤
꼥
꼵
꼶
꼸
꽏
꽑
꽘
꽙
꽫
꽭
꽯
꽸
꾔
꾕
꾫
뀁
뀓
뀟
뀠
뀪
뀱
끑
끜
낐
낤
낧
낿
냟
냫
넁
넟
넿
녵
놬
놶
놸
뇝
뇦
뇯
눂
뉑
늜
늟
늭
닱
댊
댋
댗
댙
댚
댶
댷
덲
덳
덻
덾
뎉
뎏
뎒
뎓
뎗
뎘
뎙
뎢
뎩
뎸
뎹
돊
돍
돏
돣
돫
돽
돿
됃
됓
됗
됢
됤
됧
됯
됱
됺
둈
둛
둭
둳
뒌
뒏
뒐
뒕
뒗
뒘
뒜
뒾
듇
듘
듛
듞
듲
듿
딦
딳
딵
딶
땊
땕
땞
땣
땥
땧
땬
땳
땹
땼
떁
떋
떌
떑
떟
떥
떦
뗉
뗋
뗔
뗗
뗙
뗛
뗝
뗞
뗟
뗨
뗩
뗭
뗳
뗻
똄
똅
똚
똛
똤
똩
똷
뙀
뙌
뙏
뙐
뙒
뙓
뙗
뙘
뙙
뙛
뙥
뙫
뙮
뙱
뙳
뙵
뙷
뙸
뙹
뚆
뚩
뚳
뚴
뚶
뚿
뛀
뛇
뛋
뛓
뛗
뛘
뛜
뛝
뛣
뛤
뛥
뛧
뛨
뛹
뛼
뜍
뜏
뜡
뜫
뜮
뜲
뜴
뜼
띇
띎
띕
띿
랂
랆
랈
랤
랮
랱
럌
럑
럘
럪
럯
럵
럾
렑
렓
렚
렟
렧
렳
롊
롨
롲
롳
롽
뢌
뢓
뢛
뢜
뢤
뢥
뢧
뢯
뢵
뢷
룓
룛
룪
룫
룴
룷
룿
뤃
뤋
뤟
뤯
뤴
뤺
뤻
륃
륔
륝
륞
륟
륡
륰
륿
릁
릈
릑
릟
릡
릦
릮
릱
맖
맪
맭
먃
먅
먍
먙
먪
먳
먵
먻
멃
멇
멒
멠
멯
멶
멹
멺
멻
멽
몍
몜
몝
몡
몣
몦
몮
몷
몺
뫋
뫕
뫗
뫘
뫞
뫨
뫱
뫴
뫵
묃
묈
묚
묡
묦
묬
묱
뭁
뭟
뭦
뭧
뭺
뭽
뭿
뮀
뮁
뮊
뮔
뮙
뮧
뮫
뮯
뮳
뮵
뮶
뮿
믊
믛
믝
믲
믺
밄
밓
밙
뱂
뱆
뱇
뱈
뱋
뱏
뱒
뱚
뱞
뱧
뱬
뱰
뱸
뱺
벇
벉
벊
벒
벢
벪
벯
벷
벻
볅
볆
볒
볨
볩
볳
볷
봂
봢
봭
봳
봵
뵊
뵏
뵑
뵝
뵧
뵲
뵵
뵸
뵻
붃
붣
붥
붬
붵
붷
붿
뷃
뷄
뷌
뷏
뷓
뷟
뷦
뷭
뷵
뷼
븈
븎
븏
븣
븤
빒
빓
빣
빫
빺
뺝
뺟
뺥
뺦
뺧
뺮
뺳
뺹
뺿
뻕
뻖
뻚
뻛
뻫
뻳
뼞
뼟
뼢
뼦
뼱
뼷
뼹
뽆
뽊
뽒
뽔
뽖
뽙
뽚
뽣
뽷
뽿
뾃
뾄
뾅
뾇
뾘
뾤
뾬
뾹
뿃
뿋
뿒
뿚
뿞
뿥
뿦
뿮
뿷
쀈
쀌
쀎
쀐
쀑
쀜
쀟
쀨
쀬
쀲
쁃
쁅
쁉
쁓
쁕
쁖
쁚
쁣
쁶
쁼
삦
삨
삫
삹
샋
샓
샟
샣
샪
샮
샶
샿
섂
섋
섚
섫
섳
셂
셆
셎
셛
셠
셡
셣
셦
셭
셳
셷
솈
솏
솒
솚
솛
솞
솠
쇇
쇈
쇋
쇕
쇝
쇧
쇰
숁
숃
숎
숓
숕
숚
숥
숦
숪
숬
숵
숻
쉖
쉗
쉙
쉚
쉜
쉟
쉳
쉵
쉻
슂
슓
슯
슰
싊
싓
싘
싟
싩
쌆
쌊
쌎
쌚
쌯
쌺
썔
썗
썝
썱
썳
썴
썷
쎜
쎞
쎟
쎧
쎫
쎰
쎱
쎳
쏍
쏐
쏔
쏚
쏢
쏲
쐄
쐏
쐗
쐘
쐠
쐥
쐩
쐳
쐼
쐿
쑊
쑍
쑏
쑙
쑱
쑽
쑾
쒁
쒂
쒇
쒑
쒣
쒤
쒧
쒬
쒺
쒿
쓓
쓚
쓛
쓥
쓹
씟
씱
씿
앃
앇
앦
앲
앷
앹
얟
얨
얰
엕
엟
엦
옏
옓
옟
왖
왧
왿
욂
욒
욚
욦
욫
욳
욵
욻
웂
웎
웖
웞
웫
웯
웴
웼
윂
윎
윓
윚
윪
윮
윺
읤
읦
잜
잲
잳
쟄
쟏
쟗
쟢
쟥
쟴
젂
젉
젒
젟
젨
젮
젲
젺
젿
졁
졂
졓
졵
졺
좒
좥
좧
좩
좯
좰
좻
죅
죋
죥
죱
줋
줕
줛
줟
줦
줨
줩
줳
줻
쥻
즒
즔
즡
즵
즷
짏
짡
짨
짩
짺
쨏
쨚
쨢
쩎
쩒
쩓
쩘
쩛
쩢
쩯
쩱
쪁
쪅
쪔
쪱
쪳
쪵
쫅
쫆
쫋
쫔
쫟
쫠
쫫
쬑
쬗
쬣
쬧
쭞
쭟
쭬
쭯
쭴
쭷
쭹
쮁
쮄
쮇
쮋
쮐
쮑
쮣
쮬
쯇
쯛
쯫
쯬
찃
찅
찲
찳
찺
챋
챚
챛
챝
챣
챲
챶
첚
첛
첢
첦
첪
첱
첳
첻
첿
쳃
쳋
쳒
쳕
쳭
촁
촍
촎
촑
촓
촕
촖
촫
촻
쵁
쵕
쵣
쵰
쵿
춇
춏
춗
춟
춠
춢
춨
춪
춬
춮
췈
췎
췛
췝
췟
췠
췯
츬
츸
츻
츽
칌
칍
칏
칑
칚
칣
칻
캟
캧
캩
컌
켉
켞
켳
켹
콉
콪
쾋
쾓
쾜
쾝
쾟
쾹
쾽
쿏
쿕
쿩
쿪
쿶
쿺
퀃
퀶
퀻
큌
큑
큩
큫
킇
킉
킌
킘
킙
킛
킝
킠
킦
킭
킻
탂
탃
탆
탍
탒
턈
턌
턐
턒
턓
턕
턘
턩
턬
턺
텂
텆
텠
텯
텳
톁
톃
톅
톌
톔
톕
톮
퇍
퇙
퇜
퇣
퇬
퇭
퇻
툅
툔
툡
툣
툫
툯
툶
툷
툸
툹
툺
퉃
퉇
퉉
퉏
퉔
퉘
퉙
퉛
퉠
튎
튔
튘
튙
튟
튦
튲
튳
튵
튶
틁
틄
틇
틕
틥
팄
팒
팕
팗
팚
팮
팿
퍁
퍘
퍚
퍿
펃
펅
펋
펗
펟
펡
폂
폗
폠
폵
퐘
퐠
퐳
푁
푐
푑
푓
푣
푥
푧
푩
푫
푬
푴
푷
푾
풘
풤
풥
풧
퓀
퓁
퓃
퓡
픁
픒
픡
픰
핗
핛
핦
핺
핿
햊
햚
햞
헒
헓
헢
헺
헽
혂
혅
혇
혉
혍
혒
혻
혽
혾
홂
홄
홎
홠
홦
홪
홬
홳
홷
홸
횀
횓
횜
횯
횾
훇
훩
훴
훸
휌
휍
휟
휢
휪
휬
휰
휱
휺
휻
휽
흃
흅
흊
흍
흎
흓
흕
흖
흞
흪
힇
힍
갆
갎
갟
갡
갧
갩
갪
갫
갳
갺
갻
갽
갾
걃
걅
걆
걊
걎
걒
걖
걗
걙
걚
걛
걝
걞
걟
걡
걢
걣
걦
걧
걨
걪
걫
걬
걭
걮
걯
걶
걻
겏
겑
겒
겣
겫
겭
겮
겲
곆
곇
곉
곊
곋
곔
곚
곛
곜
곝
곞
곢
곣
곥
곦
곭
곴
곾
곿
괁
괂
괅
괇
괈
괋
괗
괟
괢
괥
괦
괪
괮
괯
괰
괶
괷
괹
괽
괿
굀
굁
굂
굃
굆
굊
굋
굌
굍
굎
굏
굒
굓
굕
굖
굙
굚
굜
굝
굞
굟
굢
굤
굦
굧
굨
굩
굪
굫
굱
굲
굹
굺
궊
궍
궎
궑
궒
궓
궕
궗
궟
궠
궡
궣
궦
궧
궩
궪
궰
궱
궲
궽
궾
궿
귂
귃
귅
귆
귉
귋
귌
귎
귒
귗
귙
귞
귟
귢
귣
귦
귧
귩
귵
귶
귷
긅
긆
긖
긗
긙
긚
긝
긟
긦
긨
긪
긫
긭
긯
긳
긵
긻
긽
긾
깖
깗
깘
깙
깚
깯
깱
깲
깴
깵
깷
깾
깿
꺂
꺇
꺉
꺊
꺎
꺑
꺓
꺚
꺛
꺜
꺝
꺞
꺟
꺣
꺥
꺦
꺧
꺩
꺪
꺫
꺬
꺭
꺮
꺯
껂
껓
껕
껖
껟
껦
껧
껪
껮
껯
껲
껳
껷
껹
껺
껽
껾
껿
꼀
꼁
꼂
꼃
꼑
꼔
꼗
꼙
꼚
꼛
꼜
꼝
꼞
꼟
꼡
꼢
꼦
꼧
꼨
꼩
꼪
꼫
꼷
꼹
꽒
꽓
꽔
꽕
꽖
꽗
꽚
꽞
꽟
꽠
꽡
꽢
꽧
꽩
꽪
꽮
꽰
꽱
꽲
꽳
꽴
꽵
꾇
꾓
꾠
꾣
꾤
꾥
꾩
꾬
꾲
꾳
꾴
꾺
꿁
꿆
꿐
꿛
꿤
꿲
꿷
뀂
뀃
뀢
뀸
뀹
끏
끚
끧
끫
끰
끳
낃
낕
낗
낦
낶
냀
냃
냊
냌
냎
냗
냛
냦
냴
넍
넎
넔
넧
녆
녙
녚
녣
녭
녱
녻
녾
놁
놃
놅
놇
놊
놗
놛
놟
놠
놡
놢
놣
놦
놪
놫
놭
놮
놱
놲
놳
놵
놷
놹
놺
놻
놼
놽
놾
놿
뇀
뇁
뇂
뇃
뇅
뇆
뇇
뇈
뇉
뇊
뇋
뇎
뇓
뇖
뇗
뇘
뇙
뇚
뇛
뇞
뇢
뇣
뇤
뇥
뇧
뇪
뇫
뇭
뇮
뇱
뇲
뇳
뇴
뇵
뇶
뇷
뇾
눀
눁
눍
눐
눓
눚
눛
눡
눧
눰
눱
눵
눶
뉃
뉄
뉇
뉌
뉐
뉔
뉟
뉯
뉻
뉽
늊
늋
늎
늓
늛
늝
늞
늢
늤
늳
늽
닀
닍
닓
닔
닚
닩
댂
댃
댅
댆
댉
댌
댍
댎
댏
댒
댞
댟
댡
댢
댣
댨
댩
댪
댫
댮
댰
댲
댳
댴
댵
댹
댺
댻
댽
댾
댿
덁
덂
덃
덄
덅
덆
덇
덈
덉
덊
덋
덎
덏
덐
덑
덒
덓
덚
덡
덵
덶
덹
덺
덼
덽
뎇
뎎
뎑
뎕
뎖
뎚
뎛
뎞
뎣
뎤
뎥
뎪
뎫
뎭
뎮
뎯
뎱
뎲
뎳
뎴
뎵
뎶
뎷
뎺
뎼
뎾
뎿
돀
돁
돂
돃
돉
돑
돢
돥
돦
돪
돬
돭
돮
돯
돲
돷
돸
돹
돺
돻
돾
됁
됂
됅
됆
됇
됉
됊
됋
됎
됔
됕
됖
됚
됛
됝
됞
됡
됣
됥
됦
됪
됮
됲
됳
됶
됷
됹
됽
됾
됿
둀
둁
둂
둆
둊
둋
둌
둎
둒
둓
둕
둖
둜
둝
둞
둢
둤
둦
둧
둨
둮
둯
둱
둲
둵
둶
둷
둸
둹
둺
둻
둾
뒂
뒃
뒄
뒅
뒆
뒇
뒊
뒋
뒍
뒎
뒒
뒔
뒖
뒚
뒞
뒟
뒠
뒡
뒢
뒣
뒦
뒧
뒩
뒪
뒭
뒮
뒯
뒰
뒱
뒲
뒳
뒶
뒻
뒼
뒽
듂
듃
듅
듆
듉
듊
듋
듌
듍
듎
듏
듒
듔
듖
듗
듙
듚
듡
듢
듩
듪
듺
듻
듽
듾
딁
딂
딃
딄
딅
딆
딇
딊
딌
딎
딏
딐
딑
딒
딓
딖
딗
딙
딞
딟
딠
딡
딢
딣
딼
딽
딾
땂
땆
땉
땏
땑
땒
땖
땘
땙
땚
땢
땤
땦
땪
땫
땭
땮
땯
땱
땲
땴
땵
땶
땷
땸
땺
땾
땿
떀
떂
떃
떆
떇
떉
떊
떍
떎
떏
떐
떒
떓
떕
떖
떚
떛
떜
떝
떞
떩
떬
떮
떲
떶
떸
떹
떺
떾
떿
뗁
뗂
뗅
뗇
뗈
뗊
뗎
뗒
뗓
뗕
뗖
뗚
뗢
뗤
뗥
뗦
뗧
뗪
뗮
뗯
뗰
뗱
뗲
뗷
뗹
뗺
뗽
똀
똁
똂
똃
똆
똉
똊
똋
똌
똍
똎
똓
똕
똖
똜
똞
똢
똦
똨
똪
똮
똯
똱
똲
똳
똶
똸
똹
똺
똼
똾
뙂
뙃
뙄
뙅
뙆
뙊
뙋
뙎
뙑
뙔
뙕
뙖
뙚
뙝
뙞
뙟
뙠
뙢
뙣
뙦
뙧
뙩
뙪
뙯
뙰
뙲
뙶
뙺
뙻
뙼
뙽
뙾
뙿
뚃
뚅
뚇
뚈
뚉
뚋
뚌
뚍
뚎
뚏
뚑
뚒
뚓
뚖
뚗
뚘
뚙
뚚
뚛
뚟
뚡
뚨
뚪
뚰
뚲
뚹
뚺
뚻
뚽
뚾
뛄
뛅
뛆
뛊
뛍
뛎
뛏
뛐
뛑
뛒
뛕
뛖
뛙
뛚
뛞
뛠
뛡
뛢
뛦
뛪
뛫
뛬
뛭
뛮
뛱
뛲
뛳
뛵
뛶
뛺
뛽
뛾
뛿
뜂
뜆
뜇
뜈
뜉
뜊
뜋
뜎
뜑
뜒
뜓
뜕
뜖
뜗
뜘
뜙
뜚
뜞
뜟
뜠
뜢
뜣
뜤
뜥
뜦
뜧
뜪
뜭
뜱
뜶
뜺
뜿
띀
띂
띆
띉
띊
띋
띍
띏
띐
띑
띒
띓
띖
띗
띘
띚
띛
띜
띝
띞
띟
띢
띣
띥
띦
띩
띪
띫
띬
띭
띮
띲
띴
띶
띷
띸
띹
띺
랁
랇
랉
랊
랚
랛
랡
랢
랥
랦
랧
랪
랯
랶
랷
랹
랺
랽
랾
랿
럀
럁
럃
럆
럊
럋
럎
럏
럒
럓
럕
럖
럗
럙
럚
럛
럜
럝
럞
럟
럠
럡
럢
럥
럦
럧
럨
럩
럫
럱
럹
럺
렃
렅
렊
렋
렍
렎
렒
렔
렕
렖
렗
렩
렪
렭
렮
렯
렱
렲
렶
렻
렽
롂
롃
롅
롆
롉
롋
롌
롍
롎
롏
롒
롔
롖
롗
롘
롙
롚
롛
롞
롟
롡
롢
롦
롧
롩
롪
롰
롺
롾
롿
뢁
뢂
뢅
뢆
뢊
뢎
뢏
뢑
뢒
뢕
뢖
뢗
뢙
뢚
뢝
뢞
뢟
뢠
뢡
뢢
뢣
뢦
뢩
뢪
뢫
뢬
뢭
뢮
뢲
뢳
뢶
뢹
뢺
뢻
뢼
뢽
뢾
뢿
룂
룆
룇
룈
룉
룊
룋
룎
룏
룑
룒
룕
룖
룗
룘
룙
룚
룞
룠
룢
룣
룤
룦
룧
룭
룮
룲
룵
룶
룼
룾
뤆
뤇
뤉
뤊
뤍
뤎
뤏
뤐
뤑
뤒
뤓
뤖
뤚
뤛
뤜
뤝
뤞
뤢
뤣
뤥
뤦
뤧
뤪
뤫
뤬
뤭
뤮
뤲
뤶
뤷
뤸
뤹
뤾
뤿
륁
륂
륅
륆
륇
륈
륉
륊
륋
륎
륒
륓
륕
륖
륗
륚
륛
륢
륣
륤
륥
륦
륪
륬
륯
륱
륲
륹
륺
릂
릒
릓
릕
릖
릗
릙
릚
릛
릜
릝
릢
릤
릧
릨
릩
릪
릫
릲
릶
릷
릸
릹
릺
릻
맦
맧
맩
맯
맰
맱
맲
맳
맶
맿
먂
먇
먉
먊
먋
먌
먎
먒
먔
먝
먞
먟
먠
먡
먢
먣
먤
먥
먦
먧
먨
먩
먬
먭
먮
먰
먱
먲
먴
먶
먷
멄
멆
멖
멗
멙
멚
멝
멡
멢
멣
멨
멲
멳
멵
멼
멾
멿
몂
몈
몎
몏
몑
몒
몕
몖
몗
몘
몙
몚
몛
몞
몠
몢
몤
몧
몵
몶
뫂
뫆
뫇
뫉
뫊
뫍
뫎
뫏
뫐
뫑
뫒
뫓
뫖
뫛
뫜
뫝
뫡
뫢
뫣
뫥
뫦
뫧
뫩
뫪
뫫
뫬
뫭
뫮
뫯
뫰
뫲
뫳
뫶
뫷
뫸
뫹
뫺
뫻
뫾
뫿
묁
묂
묅
묆
묇
묉
묊
묋
묎
묐
묒
묓
묔
묕
묖
묛
묝
묞
묢
묣
묤
묥
묪
묮
묰
묲
묹
묿
뭂
뭒
뭓
뭕
뭖
뭙
뭚
뭛
뭜
뭝
뭞
뭢
뭪
뭫
뭮
뭯
뭱
뭲
뭳
뭶
뭸
뭹
뭻
뭾
뮂
뮃
뮄
뮅
뮆
뮇
뮋
뮍
뮎
뮏
뮑
뮒
뮓
뮕
뮖
뮗
뮚
뮞
뮟
뮠
뮡
뮢
뮣
뮦
뮩
뮪
뮭
뮮
뮰
뮱
뮲
뮸
뮺
뮼
뮾
믃
믅
믆
믋
믍
믎
믒
믔
믚
믞
믟
믡
믢
믣
믥
믦
믧
믨
믩
믪
믫
믮
믰
믳
믴
믵
믶
믷
밃
밅
밆
밳
밵
밶
밹
밺
밼
밽
밾
밿
뱎
뱑
뱖
뱗
뱘
뱙
뱠
뱢
뱣
뱥
뱪
뱫
뱭
뱮
뱯
뱱
뱲
뱳
뱴
뱵
뱶
뱹
뱻
뱼
뱾
뱿
벀
벁
벂
벃
벣
벥
벦
벬
벭
벮
벶
벺
벿
볁
볂
볇
볉
볊
볖
볗
볚
볛
볝
볞
볡
볢
볣
볤
볥
볦
볧
볪
볬
볮
볯
볰
볲
볺
봓
봕
봖
봚
봛
봜
봝
봞
봟
봦
봧
봩
봪
봮
봯
봱
봲
봶
봷
봸
봹
봺
봻
봼
봾
봿
뵁
뵂
뵃
뵄
뵅
뵆
뵇
뵋
뵍
뵎
뵒
뵓
뵔
뵕
뵖
뵗
뵚
뵞
뵟
뵠
뵡
뵢
뵣
뵦
뵩
뵪
뵮
뵯
뵰
뵱
뵺
뵼
뵾
뵿
붅
붔
붞
붟
붡
붢
붦
붧
붨
붩
붪
붫
붮
붲
붳
붶
붺
붻
붽
붾
뷂
뷅
뷆
뷊
뷎
뷐
뷒
뷖
뷗
뷙
뷚
뷝
뷞
뷠
뷡
뷢
뷣
뷨
뷪
뷬
뷯
뷲
뷳
뷶
뷺
뷻
뷽
뷾
뷿
븂
븄
븆
븇
븊
븋
븑
븒
븖
븙
븚
븢
븦
븫
븭
븮
븯
븱
븲
븳
븴
븵
븶
븷
븺
븼
븾
븿
빀
빁
빃
빇
빉
빊
빐
빑
빦
빬
빭
빯
빲
빿
뺁
뺂
뺆
뺇
뺈
뺉
뺊
뺋
뺎
뺕
뺖
뺗
뺞
뺢
뺤
뺪
뺬
뺯
뺰
뺱
뺲
뺺
뺻
뺽
뺾
뻀
뻁
뻂
뻃
뻅
뻊
뻋
뻌
뻍
뻎
뻏
뻓
뻜
뻝
뻧
뻮
뻯
뻱
뻲
뻵
뻶
뻷
뻸
뻹
뻺
뻻
뻾
뼀
뼂
뼃
뼄
뼅
뼆
뼊
뼋
뼍
뼎
뼑
뼒
뼓
뼔
뼕
뼖
뼗
뼚
뼣
뼧
뼨
뼩
뼪
뼫
뼭
뼮
뼯
뼰
뼲
뼳
뼴
뼵
뼶
뼺
뼻
뼼
뼽
뼾
뼿
뽃
뽅
뽉
뽋
뽌
뽍
뽎
뽏
뽗
뽡
뽢
뽦
뽨
뽩
뽪
뽫
뽮
뽯
뽰
뽲
뽳
뽵
뽶
뽹
뽺
뽻
뽼
뽽
뽾
뾀
뾂
뾈
뾉
뾊
뾋
뾌
뾍
뾎
뾏
뾐
뾑
뾒
뾓
뾕
뾖
뾗
뾙
뾚
뾛
뾜
뾝
뾞
뾟
뾠
뾡
뾢
뾣
뾦
뾧
뾨
뾩
뾪
뾫
뾭
뾮
뾯
뾳
뾵
뾶
뾷
뾺
뾽
뾾
뾿
뿂
뿄
뿆
뿇
뿈
뿊
뿖
뿢
뿣
뿤
뿪
뿫
뿬
뿭
뿱
뿲
뿳
뿴
뿵
뿶
뿸
뿹
뿺
뿻
뿼
뿽
뿾
뿿
쀀
쀁
쀂
쀃
쀅
쀆
쀇
쀉
쀊
쀋
쀔
쀕
쀖
쀗
쀘
쀙
쀚
쀛
쀝
쀞
쀢
쀣
쀤
쀥
쀦
쀧
쀩
쀪
쀭
쀮
쀯
쀰
쀱
쀴
쀶
쀷
쀸
쀹
쀺
쀻
쀿
쁁
쁂
쁆
쁇
쁈
쁊
쁒
쁔
쁗
쁛
쁝
쁞
쁡
쁤
쁦
쁧
쁪
쁬
쁮
쁯
쁰
쁱
쁵
쁽
삂
삇
삚
삞
삟
삢
삩
삪
샍
샎
샔
샕
샖
샗
샚
샞
샡
샦
샧
샩
샯
샰
샱
샲
샳
샺
샽
섃
섅
섆
섇
섉
섌
섍
섎
섏
섒
섓
섔
섖
섗
섘
섙
섛
섩
섽
셁
셃
셄
셅
셇
셏
셚
셝
셞
셢
셪
셫
셬
셮
셯
셲
셵
셶
셹
셺
셻
셼
셽
셾
셿
솂
솆
솇
솉
솋
솙
솪
솭
솮
솯
솱
솲
솳
솴
솵
솶
솷
솺
솾
솿
쇁
쇂
쇃
쇆
쇉
쇊
쇍
쇎
쇏
쇐
쇑
쇒
쇓
쇔
쇖
쇗
쇚
쇛
쇜
쇞
쇟
쇢
쇣
쇥
쇦
쇩
쇪
쇫
쇬
쇭
쇮
쇯
쇲
쇶
쇷
쇸
쇹
쇺
쇻
쇾
쇿
숂
숅
숆
숇
숈
숉
숊
숋
숐
숒
숗
숢
숶
숷
숹
숺
숽
숾
숿
쉀
쉁
쉂
쉃
쉆
쉊
쉋
쉌
쉍
쉎
쉓
쉕
쉝
쉞
쉢
쉦
쉧
쉫
쉮
쉯
쉱
쉲
쉶
쉷
쉸
쉹
쉺
쉾
슃
슇
슊
슋
슍
슎
슑
슒
슔
슕
슖
슗
슚
슜
슣
슩
슪
슱
싂
싃
싅
싆
싇
싉
싋
싌
싍
싎
싏
싒
싔
싖
싗
싙
싚
싛
싡
쌃
쌄
쌅
쌗
쌝
쌠
쌡
쌢
쌣
쌦
쌪
쌫
쌬
쌭
쌮
쌲
쌳
쌶
쌹
쌼
쌽
쌾
쌿
썂
썆
썇
썈
썉
썊
썏
썑
썒
썓
썕
썘
썙
썚
썞
썟
썠
썢
썣
썤
썥
썦
썧
썵
썶
썺
썾
썿
쎁
쎇
쎉
쎊
쎍
쎎
쎏
쎐
쎑
쎒
쎓
쎖
쎚
쎛
쎢
쎣
쎦
쎩
쎪
쎬
쎭
쎮
쎯
쎲
쎶
쎷
쎸
쎹
쎺
쎻
쏁
쏂
쏃
쏅
쏆
쏇
쏈
쏊
쏋
쏎
쏒
쏓
쏕
쏖
쏛
쏞
쏡
쏣
쏤
쏥
쏦
쏧
쏪
쏬
쏮
쏯
쏰
쏷
쏹
쏺
쏾
쏿
쐀
쐁
쐂
쐃
쐆
쐊
쐋
쐌
쐍
쐎
쐒
쐓
쐕
쐖
쐚
쐛
쐜
쐝
쐞
쐟
쐡
쐢
쐦
쐧
쐨
쐪
쐫
쐮
쐯
쐱
쐲
쐵
쐶
쐷
쐸
쐹
쐺
쐻
쐾
쑂
쑃
쑄
쑅
쑆
쑇
쑋
쑎
쑑
쑒
쑓
쑔
쑕
쑖
쑗
쑚
쑜
쑠
쑡
쑢
쑣
쑧
쑪
쑭
쑮
쑯
쑰
쑲
쑳
쑶
쑸
쑺
쑿
쒃
쒅
쒆
쒉
쒊
쒋
쒌
쒍
쒎
쒏
쒒
쒖
쒗
쒘
쒙
쒚
쒛
쒟
쒡
쒢
쒥
쒦
쒨
쒪
쒫
쒮
쒲
쒳
쒵
쒶
쒷
쒻
쒽
쒾
쓁
쓂
쓃
쓄
쓅
쓆
쓇
쓊
쓌
쓎
쓏
쓐
쓒
쓖
쓗
쓙
쓝
쓞
쓟
쓠
쓡
쓢
쓣
쓦
쓨
쓪
쓫
쓬
쓭
쓮
쓯
쓳
쓵
쓶
쓻
쓼
쓽
쓾
씂
씆
씇
씈
씊
씎
씏
씑
씒
씓
씕
씖
씗
씘
씙
씚
씛
씞
씠
씢
씣
씦
씧
씫
씭
씮
씲
씳
씴
씵
씶
씷
씾
앁
앂
앣
앥
앪
앬
앭
앮
앯
앿
얁
얈
얓
얚
얛
얝
얞
얡
얢
얣
얤
얥
얦
얧
얪
얮
얯
얱
얲
얳
엀
엁
엂
엖
엚
엛
엢
엧
엲
옊
옋
옍
옎
옔
옕
옖
옗
옚
옢
옣
옩
왃
왅
왆
왊
왋
왌
왍
왎
왏
왗
왞
왟
왡
왢
왥
왦
왨
왩
왪
왫
왮
왲
왳
왴
왵
왶
왺
왻
왽
왾
욁
욃
욄
욅
욆
욇
욊
욎
욏
욐
욑
욓
욖
욗
욞
욠
욪
욶
욽
웏
웑
웘
웙
웢
웣
웪
웭
웮
웲
웵
웶
웺
웾
웿
윃
윆
윇
윉
윊
윍
윏
윐
윑
윒
윖
윛
윣
윥
윦
윩
윫
윬
윭
윯
윴
읚
읛
읝
읞
읡
읢
읣
읥
읬
읮
읯
읱
읲
읳
잁
잝
잮
잯
잱
잵
잶
쟅
쟇
쟑
쟔
쟟
쟫
쟵
쟷
쟸
쟻
젃
젅
젘
젣
젻
졃
졇
졏
졑
졒
졕
졬
졲
졽
졾
졿
좓
좕
좦
좪
좫
좭
좮
좱
좲
좳
좴
좵
좶
좷
좺
좾
좿
죀
죁
죂
죃
죆
죇
죉
죊
죍
죎
죏
죐
죑
죒
죓
죖
죚
죛
죜
죝
죞
죟
죣
죷
줊
줎
줔
줖
줚
줝
줞
줡
줢
줣
줤
줥
줧
줪
줯
줰
줱
줲
줶
줷
줹
줺
줽
줾
줿
쥀
쥁
쥂
쥃
쥆
쥮
쥱
쥲
쥳
쥵
쥶
쥷
쥸
쥹
쥺
쥾
즀
즃
즄
즅
즆
즇
즋
즍
즎
즓
즕
즖
즗
즚
즜
즟
즢
즦
즧
즩
즪
즫
즭
즮
즯
짎
짟
짳
짵
짶
짻
짽
짾
쨁
쨂
쨃
쨄
쨅
쨆
쨇
쨊
쨐
쨑
쨒
쨓
쨗
쨙
쨛
쨝
쨞
쨠
쨡
쨣
쨭
쨱
쨸
쨻
쩁
쩇
쩈
쩉
쩊
쩋
쩏
쩑
쩕
쩙
쩚
쩞
쩣
쩤
쩥
쩦
쩪
쩫
쩭
쩮
쩲
쩳
쩴
쩵
쩶
쩷
쩺
쩾
쩿
쪀
쪂
쪃
쪆
쪋
쪕
쪡
쪩
쪪
쪫
쪬
쪭
쪮
쪯
쪲
쪴
쪶
쪷
쪸
쪹
쪺
쪻
쪿
쫁
쫂
쫇
쫈
쫉
쫊
쫎
쫐
쫕
쫚
쫛
쫝
쫞
쫡
쫢
쫤
쫥
쫦
쫧
쫨
쫰
쫵
쫸
쫻
쫼
쬋
쬌
쬍
쬎
쬏
쬒
쬓
쬕
쬖
쬙
쬚
쬛
쬜
쬝
쬞
쬟
쬢
쬦
쬨
쬩
쬪
쬫
쬮
쬯
쬱
쬳
쬵
쬶
쬸
쬹
쬺
쬻
쬾
쭄
쭏
쭓
쭥
쭫
쭭
쭮
쭰
쭱
쭲
쭳
쭶
쭺
쭻
쭼
쭽
쭾
쭿
쮂
쮃
쮅
쮆
쮉
쮊
쮌
쮍
쮎
쮏
쮒
쮔
쮖
쮗
쮘
쮙
쮚
쮛
쮞
쮟
쮡
쮢
쮤
쮭
쮯
쮱
쮼
쯅
쯆
쯊
쯌
쯎
쯏
쯐
쯑
쯒
쯓
쯖
쯗
쯙
쯚
쯝
쯞
쯟
쯠
쯡
쯢
쯣
쯦
쯨
쯭
쯮
쯯
쯲
쯳
쯵
쯶
쯷
쯹
쯺
쯻
쯼
찀
찁
찆
찖
찗
찛
찤
찪
찶
챆
챇
챉
챊
챍
챎
챏
챐
챑
챒
챓
챖
챜
챟
챢
챥
챧
챩
챪
챫
챬
챭
챮
챴
챹
챻
챽
첄
첌
첐
첑
첔
첕
첖
첗
첝
첤
첶
첷
첹
첺
첽
첾
쳀
쳁
쳂
쳆
쳊
쳍
쳎
쳏
쳓
쳖
쳙
쳚
쳧
쳫
쳽
쳾
촀
촂
촃
촄
촅
촆
촇
촋
촔
촗
촚
촜
촦
촧
촩
촪
촭
촮
촯
촱
촲
촶
촸
촺
촼
촽
쵓
쵔
쵡
쵢
쵥
쵦
쵧
쵨
쵩
쵪
쵫
쵲
쵳
쵴
쵵
쵶
쵺
쵻
쵽
쵾
춁
춂
춃
춄
춅
춆
춊
춌
춎
춐
춑
춒
춓
춖
춙
춚
춞
춡
춦
춯
춷
췀
췆
췇
췉
췊
췋
췏
췑
췒
췓
췕
췖
췗
췘
췙
췚
췞
췢
췣
췥
췦
췧
췪
췫
췭
췮
췱
췲
췳
췴
췵
췶
췷
췺
췾
췿
츁
츂
츆
츎
츚
츞
츧
츭
츮
츯
츲
츴
츶
츹
츾
츿
칁
칂
칃
칅
칆
칇
칈
칉
칊
칋
칎
칐
칒
칓
칔
칕
칖
칗
칛
칝
칤
칥
칦
칧
칪
칳
캃
캊
캗
캚
캛
캝
캞
캦
캨
캫
캮
캯
캱
캲
캳
캶
캷
캸
캹
캺
캻
캾
컀
컂
컃
컅
컆
컇
컉
컊
컋
컍
컎
컏
컐
컑
컒
컓
컔
컕
컘
컛
컻
켂
켃
켅
켆
켊
켋
켌
켍
켎
켏
켒
켖
켗
켛
켟
켡
켢
켥
켦
켧
켨
켩
켪
켫
켲
켴
켵
켶
켷
켺
켻
켽
켾
켿
콁
콂
콃
콄
콈
콋
콌
콍
콣
콲
콳
콵
콶
콷
콹
콺
콼
콽
콾
콿
쾂
쾄
쾆
쾇
쾉
쾊
쾎
쾏
쾑
쾒
쾕
쾖
쾗
쾘
쾙
쾚
쾛
쾞
쾠
쾢
쾣
쾤
쾥
쾦
쾧
쾸
쿅
쿍
쿎
쿐
쿑
쿒
쿓
쿖
쿘
쿚
쿛
쿝
쿞
쿟
쿢
쿣
쿥
쿦
쿬
쿮
쿯
쿲
쿴
쿷
쿾
쿿
퀁
퀂
퀅
퀆
퀇
퀈
퀉
퀊
퀐
퀡
퀩
퀬
퀮
퀯
퀰
퀱
퀲
퀳
퀷
퀹
퀺
퀽
퀾
퀿
큀
큁
큂
큃
큆
큈
큊
큋
큍
큎
큏
큒
큓
큕
큖
큙
큚
큛
큜
큝
큞
큢
큤
큦
큧
큯
큱
큲
큶
큺
킆
킕
킖
킗
킚
킜
킞
킟
킡
킢
킣
킧
킩
킪
킮
킯
킰
킱
킲
킶
킺
킿
탅
탋
탌
탎
탢
탥
탺
탿
턁
턅
턆
턇
턊
턎
턏
턖
턗
턙
턛
턜
턝
턞
턟
턠
턡
턢
턣
턤
턥
턦
턧
턨
턪
턫
턭
턮
턯
턲
턳
턵
턶
턼
턽
턾
텇
텈
텗
텞
텣
텪
텮
텱
텲
텴
텵
텶
텷
텺
텾
텿
톀
톂
톆
톇
톉
톊
톍
톎
톏
톐
톑
톒
톓
톖
톘
톚
톛
톜
톝
톞
톟
톣
톥
톦
톶
톷
톻
퇌
퇏
퇐
퇒
퇓
퇔
퇕
퇖
퇚
퇛
퇝
퇞
퇟
퇠
퇡
퇢
퇤
퇥
퇦
퇧
퇨
퇩
퇪
퇮
퇯
퇰
퇱
퇲
퇳
퇶
퇷
퇹
퇺
퇽
퇾
퇿
툀
툁
툂
툃
툆
툈
툒
툓
툝
툩
툪
툮
툱
툲
툾
퉂
퉊
퉋
퉍
퉎
퉑
퉒
퉓
퉕
퉖
퉗
퉚
퉜
퉞
퉟
퉡
퉢
퉣
퉦
퉧
퉫
퉬
퉱
퉴
퉵
튇
튍
튏
튒
튖
튗
튚
튛
튞
튡
튢
튣
튥
튧
튨
튩
튪
튫
튰
튴
튷
튾
틃
틅
틌
틎
틏
틒
틓
틠
틻
틼
틽
틾
틿
팆
팇
팋
팑
팘
팙
팞
팢
팪
팫
팭
팱
팲
팳
팴
팵
팶
팷
팺
팾
퍂
퍃
퍆
퍇
퍉
퍐
퍔
퍤
퍪
퍫
퍬
퍭
퍮
퍯
퍰
퍱
퍲
퍳
퍴
퍵
퍶
퍷
퍸
퍹
퍺
퍻
퍾
펂
펆
펇
펈
펉
펊
펒
펓
펚
펛
펝
펞
펢
펣
펤
펥
펦
펧
펪
펮
펹
폃
폙
폚
폛
폜
폝
폞
폟
폡
폢
폤
폦
폧
폨
폩
폪
폫
폱
폲
폶
폷
폸
폹
폺
폻
폾
퐀
퐇
퐊
퐋
퐍
퐎
퐏
퐒
퐓
퐔
퐕
퐖
퐛
퐟
퐸
퐹
퐺
퐻
퐼
퐽
퐾
퐿
푂
푃
푅
푆
푇
푉
푊
푋
푌
푍
푎
푏
푒
푔
푖
푗
푘
푙
푚
푛
푞
푟
푡
푢
푦
푨
푪
푮
푰
푲
풄
풅
풇
풏
풓
풛
풞
풟
풠
풡
풢
풣
풦
풪
풫
풭
풯
풲
풳
풵
풶
풷
풺
풻
풼
풽
퓂
퓄
퓆
퓇
퓈
퓉
퓊
퓋
퓎
퓏
퓑
퓒
퓓
퓕
퓙
퓯
퓳
퓴
퓵
퓾
퓿
픀
픂
픃
픆
픇
픉
픊
픍
픏
픑
픘
픚
픛
픢
픣
픥
픦
픧
픩
픪
픫
픬
픭
픮
픯
픲
픴
픶
픷
픻
핁
핎
핢
핯
핷
핹
핾
햀
햁
햂
햃
햆
햒
햓
햕
햖
햗
햜
햢
햦
햧
햨
햭
햼
헊
헋
헍
헎
헖
헞
헟
헦
헧
헩
헪
헮
헰
헳
헶
헻
혃
혆
혊
혋
혌
혎
혏
혝
혰
홃
홆
홊
홌
홏
홖
홗
홙
홚
홞
홟
홡
홢
홫
홮
홲
홵
홶
홹
홺
홻
홼
홽
홾
홿
횁
횂
횧
횫
횭
횮
횱
횲
횳
횴
횵
횶
횷
횺
횼
횿
훀
훂
훆
훉
훊
훏
훐
훖
훘
훢
훣
훥
훦
훧
훪
훫
훬
훭
훯
휃
휋
휐
휔
휕
휖
휚
휛
휝
휞
휡
휣
휤
휥
휦
휧
휮
휯
휲
휶
휷
휹
휾
휿
흀
흁
흂
흆
흈
흋
흌
흏
흚
흛
흜
흢
흧
흳
힄
힋
힎
힓
힔
힕
힖
힞
힟
힢
겖
겗
겘
겙
겚
겛
겵
겶
겺
곍
곎
곏
곐
곑
곒
곓
괉
괊
괎
괒
괓
괔
괕
괖
괚
괛
괝
괡
괣
괤
괲
궀
귫
귮
귰
귲
귳
귴
깦
깫
깭
깮
꺒
꺖
꺱
꺲
꺳
꺶
꺷
꺸
꺹
꺺
꺻
꺿
껁
껅
껆
껈
껉
껊
껋
껎
껔
껛
껝
껞
껡
껢
껣
껤
껥
꼆
꼊
꼋
꼌
꼎
꼏
꼒
꼓
꼕
꼖
꼘
꼺
꼾
꽀
꽄
꽋
꽍
꽎
꽶
꽷
꽺
꽻
꽼
꽽
꽾
꽿
꾂
꾃
꾅
꾆
꾉
꾊
꾋
꾌
꾍
꾎
꾏
꾒
꾖
꾗
꾘
꾙
꾚
꾛
꾝
꾞
꾟
꾡
꾢
꾦
꾧
꾨
꾪
꾮
꾯
꾰
꾵
꾶
꾷
꾻
꾽
꿄
꿅
꿊
꿌
꿒
꿓
꿖
꿗
꿙
꿚
꿞
꿟
꿠
꿡
꿢
꿣
꿦
꿪
꿫
꿬
꿭
꿮
꿳
꿵
꿶
꿹
꿺
꿼
꿽
꿾
뀆
뀇
뀈
뀉
뀊
뀋
뀎
뀏
뀑
뀒
뀕
뀖
뀗
뀘
뀚
뀛
뀞
뀣
뀤
뀥
뀦
뀧
뀭
뀮
뀯
뀲
뀳
뀴
뀶
뀷
뀺
뀼
뀾
뀿
끀
끁
끂
끃
끇
끐
끒
끖
끘
끞
끢
끣
끥
끦
끩
끪
끬
끭
끮
끯
끱
끲
끴
끶
끷
끸
끹
끺
끻
끿
낁
낂
낅
낆
낇
낈
낉
낊
낎
낒
낓
낖
낝
낥
낷
낹
낺
낽
낾
냁
냂
냆
냋
냍
냒
냓
냕
냖
냚
냜
냝
냞
냢
냧
냪
냭
냮
냯
냱
냲
냳
냵
냶
냷
냸
냹
냺
냻
냼
냽
냾
냿
넂
넃
넄
넅
넆
넇
넕
넦
넩
넪
넭
넮
넯
넰
넱
넲
넳
넶
넺
넻
녅
녉
녊
녌
녍
녎
녏
녒
녖
녗
녞
녟
녡
녢
녥
녦
녧
녨
녩
녪
녫
녮
녰
녲
녳
녴
녶
녷
녽
놄
놆
놌
놖
놙
놚
놝
뇏
뇑
뇒
뇕
뇺
뇼
뇿
눃
눆
눇
눉
눊
눎
눏
눑
눒
눖
눘
눢
눣
눥
눦
눩
눪
눫
눬
눭
눮
눯
눲
눷
눸
눹
눺
눻
눾
눿
뉁
뉂
뉅
뉆
뉈
뉉
뉊
뉋
뉎
뉒
뉓
뉕
뉖
뉗
뉚
뉛
뉝
뉞
뉡
뉢
뉣
뉤
뉥
뉦
뉧
뉪
뉬
뉮
뉰
뉱
뉲
뉳
뉶
뉷
뉹
뉺
뉾
뉿
늀
늁
늂
늃
늆
늈
늌
늍
늏
늮
늯
늱
늲
늵
늶
늷
늸
늹
늺
늻
늾
닂
닃
닄
닅
닆
닇
닋
닎
닕
닖
닗
둃
딚
딝
뗾
뗿
뛁
뛂
랝
랞
뢃
뢄
멅
묧
뷑
뺷
뾁
쁲
쁳
쁷
쁸
쁹
쁺
쁻
쁾
쁿
삀
삁
삃
삄
삅
삆
삈
삉
삊
삋
삌
삍
삎
삏
삓
삕
삖
삙
삛
숣
쌏
쏗
쒩
잷
잸
잹
잺
잻
잾
쟊
쟋
쟍
쟒
쟓
쟕
쟖
쟚
쟡
쟦
쟧
쟩
쟪
쟭
쟮
쟯
쟰
쟱
쟲
쟳
쟶
쟺
쟼
쟽
쟾
쟿
젌
젍
젎
젞
젡
젢
젥
젦
젩
젪
젫
젳
젷
젽
젾
졄
졅
졆
졊
졖
졗
졙
졚
졛
졝
졞
졟
졠
졡
졢
졣
졦
졨
졪
졫
졭
졮
졯
졳
졶
졹
졻
졼
좎
좏
좑
좖
좗
좘
좙
좚
좛
좞
좣
좤
죦
죩
죪
죫
죬
죭
죮
죯
죲
죴
죺
죾
죿
줁
줂
줇
줉
쥊
쥋
쥍
쥎
쥏
쥒
쥓
쥕
쥖
쥙
쥚
쥛
쥜
쥝
쥞
쥟
쥢
쥦
쥧
쥨
쥪
쥫
쥯
즰
즱
즲
즳
즶
즸
즺
즻
즼
즽
즾
즿
짃
짅
짉
짌
짍
쨦
쨪
쨫
쨬
쨮
쨯
쨲
쨳
쨵
쨶
쨷
쨹
쨺
쨼
쨽
쨾
쨿
쩀
쩂
쩆
쪇
쪉
쪊
쪍
쪎
쪏
쪐
쪑
쪒
쪓
쪖
쪚
쪛
쪜
쪝
쪞
쪟
쪢
쪣
쪥
쪦
쪧
쫪
쫮
쫯
쫱
쫲
쫳
쫶
쫷
쫹
쫺
쫽
쫾
쫿
쬀
쬁
쬂
쬃
쬄
쬅
쬆
쬇
쬉
쬊
쭅
쭆
쭇
쭋
쭍
쭎
쭑
쭔
쭕
쭖
쭗
쭚
쭜
쭠
쭡
쭢
쭣
쭦
쭧
쭩
쭪
쮥
쮦
쮧
쮨
쮩
쮪
쮫
쮮
쮰
쮲
쮳
쮴
쮵
쮶
쮷
쮺
쮻
쮽
쮾
쮿
쯁
쯂
쯃
쯄
쯽
쯾
쯿
찂
찄
찇
찈
찉
찊
찋
찏
찑
찒
찕
찘
찙
찚
찞
찠
챾
챿
첀
첁
첂
첃
첆
첇
첈
첉
첊
첋
첍
첎
첏
첒
첓
쳛
쳜
쳝
쳞
쳟
쳢
쳦
쳨
쳩
쳪
쳮
쳯
쳱
쳲
쳳
쳵
쳶
쳷
쳸
쳹
쳺
쳻
촿
쵂
쵃
쵅
쵆
쵈
쵉
쵊
쵋
쵌
쵍
쵎
쵏
쵐
쵑
쵒
쵖
쵗
쵘
쵙
쵚
쵛
쵞
쵟
춲
춳
춵
춶
춹
춺
춻
춼
춽
춾
춿
췂
츃
츇
츉
츊
츋
츍
츏
츐
츑
츒
츓
츖
츘
츛
츜
츝
츟
츢
츣
츥
츦
츪
츫
칱
칶
칷
칹
칺
칾
칿
캀
캁
캂
캒
캓
캕
캖
캙
컖
컗
컙
컚
컜
컝
컞
컟
컠
컡
컢
컣
컦
컧
컩
컪
컮
컯
컰
컱
컲
컳
컺
콅
콆
콇
콊
콎
콏
콐
콑
콒
콓
콖
콗
콚
콝
콞
콟
콠
콡
콢
콨
쾪
쾫
쾭
쾮
쾯
쾱
쾲
쾳
쾴
쾵
쾶
쾷
쾺
쾼
쾾
쾿
쿀
쿁
쿂
쿃
쿆
쿇
쿉
쿊
쿋
퀋
퀎
퀒
퀓
퀔
퀕
퀖
퀗
퀚
퀛
퀝
퀞
퀟
퀢
퀣
퀤
퀥
퀦
퀪
큵
큷
큸
큹
킀
킂
킃
킊
킋
킍
킎
킏
킑
킒
킓
킔
탛
탞
탟
탡
탦
탧
탨
탩
탪
탫
탮
탲
탳
탴
탷
탻
탽
탾
턂
턃
턄
턿
텎
텏
텑
텒
텕
텖
텘
텙
텚
텛
텢
텧
텫
텭
톪
톫
톬
톭
톯
톴
톾
톿
퇁
퇂
퇃
퇅
퇆
퇇
퇈
퇉
퇊
퇋
퇎
툊
툋
툌
툍
툎
툏
툕
툖
툗
툙
툚
툛
툜
툞
툟
툢
툤
툦
툧
툨
퉩
퉪
퉮
퉯
퉰
퉲
퉳
퉶
퉺
퉻
퉼
퉽
퉾
퉿
튂
튃
튅
튆
튉
튊
튋
튌
틖
틗
틙
틚
틛
틝
틞
틟
틡
틢
틣
틦
틨
틪
틫
틬
틭
틮
틯
틲
틳
틵
틶
틹
틺
퍊
퍋
퍍
퍎
퍏
퍑
퍒
퍓
퍖
퍛
퍜
퍞
퍟
퍡
퍢
퍣
퍥
퍦
퍧
퍨
퍩
펯
펱
펳
펶
펷
펺
펽
펾
펿
폀
폁
폆
폊
폋
폌
폍
폎
폏
폒
폓
폖
퐗
퐚
퐜
퐡
퐢
퐣
퐥
퐦
퐧
퐨
퐩
퐪
퐫
퐬
퐭
퐮
퐯
퐰
퐱
퐲
퐴
퐵
퐶
퐷
푳
푵
푶
푺
푻
푽
풁
풃
풆
풊
풌
풎
풖
풗
풙
풚
풝
퓖
퓗
퓘
퓚
퓛
퓞
퓠
퓢
퓣
퓤
퓥
퓧
퓪
퓫
퓭
퓮
퓱
퓲
퓶
퓷
퓺
퓼
픸
픹
픺
픾
픿
핂
핅
핆
핇
핈
핉
핊
핋
핐
핒
햪
햮
햯
햱
햲
햳
햴
햵
햶
햷
햸
햹
햺
햻
햽
헂
헃
헄
헅
헆
헇
혖
혗
혘
혚
혛
혞
혟
혡
혢
혣
혥
혦
혧
혨
혩
혪
혫
혮
혲
혳
혴
혵
혶
혷
혺
횆
횇
횈
횉
횊
횋
횎
횏
횑
횒
횕
횖
횗
횘
횙
횚
횛
횠
횢
횣
횤
횥
횪
훮
훲
훶
훷
훹
훺
훻
훾
훿
휁
휂
휆
휇
휈
휉
휊
휎
휒
휓
흤
흦
흮
흯
흱
흲
흵
흶
