▁▃ -0
▁ㅇ -1
▁ㅇㅡ -2
▁ㄷ -3
▁. -4
▁ㄱ -5
▁ㅇㅔ -6
ㅡㄴ -7
▁ㅇㅡㄹ -8
▁ㄴ -9
▁ㄷㅏ -10
▁ㅇㅢ -11
▁ㄴㅡㄴ -12
▁ㄹ -13
▁이 -14
▁, -15
▁하 -16
▁ㅎ -17
▁ㅇㅣ -18
ㅏㄴ -19
▁ㅇㅡㄴ -20
ㅡㄹ -21
▁1 -22
ㅅㅓ -23
▁ㄹㅡㄹ -24
▁ㅇㅓ -25
▁ㄱㅗ -26
▁년 -27
▁ㅎㅏㄴ -28
▁ㅇㅡㄹㅗ -29
▁ㅇㅔㅅㅓ -30
▁2 -31
▁ㄱㅏ -32
▁있 -33
▁ㄹㅗ -34
▁되 -35
▁ㅇㅕ -36
▁대 -37
▁사 -38
▁ㅇㅓㅆ -39
▁ㅎㅐ -40
ㅁㅕ -41
ㄷㅏ -42
▁그 -43
ㅈㅣ -44
▁일 -45
▁시 -46
▁ㄱㅘ -47
▁지 -48
▁들 -49
▁수 -50
▁ㅎㅐㅆ -51
▁기 -52
▁전 -53
▁적 -54
▁ㅇㅕㅆ -55
▁ㅇㅘ -56
▁20 -57
▁ㄷㅗ -58
▁아 -59
▁ㅇㅣㄴ -60
▁가 -61
▁월 -62
▁ㅁㅕ -63
▁제 -64
▁19 -65
▁ㄷㅚ -66
▁다 -67
▁ㅂ -68
▁주 -69
▁정 -70
▁중 -71
▁ㅈㅣ -72
▁자 -73
ㅏㄹ -74
▁ㄷㅚㄴ -75
▁공 -76
ㅎㅐ -77
▁경 -78
▁인 -79
▁ㄱㅣ -80
ㅓㄴ -81
▁개 -82
▁것 -83
▁세 -84
▁유 -85
▁3 -86
▁" -87
▁조 -88
▁부 -89
▁등 -90
▁ㄱㅔ -91
▁선 -92
▁성 -93
▁스 -94
▁ㅎㅏㄴㄷㅏ -95
▁미 -96
▁동 -97
▁연 -98
▁보 -99
▁마 -100
▁ㅇㅏ -101
▁위 -102
▁상 -103
▁소 -104
▁오 -105
▁한 -106
▁고 -107
▁ㅁ -108
▁영 -109
▁국 -110
▁모 -111
ㄱㅗ -112
▁구 -113
▁도 -114
▁발 -115
▁비 -116
ㅎㅏㄴ -117
▁201 -118
▁' -119
ㅕㅆ -120
▁여 -121
▁나 -122
▁4 -123
▁서 -124
▁ㅈ -125
▁후 -126
▁명 -127
▁ㅅ -128
▁신 -129
▁ㄹㅏ -130
ㅣㄴ -131
▁5 -132
▁ㅁㅕㄴ -133
▁프 -134
▁때 -135
▁관 -136
▁200 -137
▁장 -138
▁- -139
▁ㄷㅓㄴ -140
▁방 -141
▁의 -142
ㅜㅌ -143
▁교 -144
▁만 -145
▁ㅎㅏㄹ -146
▁ㄲ -147
▁리 -148
▁문 -149
▁해 -150
▁역 -151
ㅜㅌㅓ -152
▁차 -153
▁바 -154
▁우 -155
▁무 -156
▁계 -157
▁원 -158
▁현 -159
▁군 -160
▁포 -161
▁노 -162
▁분 -163
▁6 -164
▁ㅇㅡㅁㅕ -165
ㅏㅈㅣ -166
▁당 -167
▁또 -168
▁화 -169
▁않 -170
▁남 -171
▁학 -172
▁ㅇㅏㅆ -173
▁ㄲㅏㅈㅣ -174
▁작 -175
▁같 -176
▁결 -177
ㄱㅔ -178
▁출 -179
▁ㅇㅔㄱㅔ -180
ㅏㄴㅡㄴ -181
▁파 -182
▁생 -183
▁진 -184
▁내 -185
ㅗㅇ -186
▁ㄷㅐ -187
▁강 -188
▁단 -189
▁7 -190
ㅜㄴ -191
▁받 -192
▁번 -193
▁최 -194
▁10 -195
ㄹㄹ -196
▁8 -197
▁어 -198
▁반 -199
▁ㄴㅏ -200
▁호 -201
▁ㄷㅚㄴㄷㅏ -202
ㅁㅏㄴ -203
▁회 -204
▁ㅈㅣㅁㅏㄴ -205
▁거 -206
▁데 -207
▁안 -208
▁형 -209
▁초 -210
▁카 -211
▁실 -212
▁예 -213
▁배 -214
▁에 -215
▁재 -216
▁ㅂㅜㅌㅓ -217
▁불 -218
▁ㅇㅟ -219
▁ㄸ -220
▁말 -221
▁없 -222
▁로 -223
▁두 -224
ㄷㅔ -225
▁사용 -226
ㅇㅡ -227
▁9 -228
▁미국 -229
▁타 -230
▁ㄹㅏㄱㅗ -231
▁종 -232
▁라 -233
▁이후 -234
▁ㄹㅏㄴㅡㄴ -235
▁요 -236
▁함 -237
▁통 -238
▁설 -239
▁과 -240
▁특 -241
▁ㅁㅏㄴ -242
▁ㅁㅕㄴㅅㅓ -243
▁일본 -244
▁ㅌ -245
▁코 -246
▁ㄴㅡㄴㄷㅔ -247
▁산 -248
▁운 -249
ㅇㅡㅁㅕ -250
▁권 -251
▁감 -252
▁독 -253
▁레 -254
▁ㅈㅏ -255
▁활 -256
▁왕 -257
▁추 -258
민국 -259
▁김 -260
▁베 -261
▁지역 -262
▁음 -263
▁크 -264
▁양 -265
▁대한 -266
▁행 -267
▁199 -268
▁다음 -269
▁더 -270
ㅇㅓ -271
▁민 -272
▁ㅂㅗ -273
ㄱㅏ -274
▁많 -275
ㅓㄹ -276
▁평 -277
▁12 -278
▁매 -279
▁피 -280
▁입 -281
▁대한민국 -282
ㅈㅣㄴ -283
▁18 -284
▁간 -285
▁ㄷㅐㅎㅏㄴ -286
▁참 -287
▁및 -288
▁경기 -289
▁승 -290
▁ㄷㅏㄱㅗ -291
▁목 -292
▁대학 -293
▁다른 -294
▁; -295
리아 -296
00 -297
▁프로 -298
▁건 -299
▁총 -300
스트 -301
▁그리 -302
▁ㅇㅟㅎㅐ -303
▁북 -304
or -305
▁S -306
▁알 -307
▁집 -308
ㅓㄴㅏ -309
▁11 -310
▁법 -311
▁때문 -312
▁시작 -313
▁각 -314
▁체 -315
▁ㅇㅣㄹ -316
▁천 -317
▁트 -318
▁외 -319
▁직 -320
▁임 -321
▁드 -322
▁표 -323
▁ㅋ -324
ㄴㅡㄴ -325
▁변 -326
▁토 -327
▁사람 -328
▁& -329
▁본 -330
▁그러 -331
▁함께 -332
▁처 -333
▁A -334
▁또한 -335
▁물 -336
▁속 -337
▁점 -338
▁팀 -339
▁메 -340
▁ㅊ -341
▁박 -342
▁투 -343
▁선수 -344
▁한국 -345
▁항 -346
▁ㄸㅏㄹ -347
▁청 -348
▁브 -349
▁) -350
▁세계 -351
▁영화 -352
▁사이 -353
▁저 -354
ㅈㅕ -355
▁광 -356
▁자신 -357
la -358
ㄹㅕ -359
▁ㅇㅗ -360
▁게 -361
▁C -362
▁M -363
▁경우 -364
▁ㅅㅣ -365
▁달 -366
▁용 -367
▁태 -368
▁판 -369
▁f -370
▁약 -371
▁디 -372
▁T -373
▁축 -374
▁현재 -375
▁기록 -376
▁F -377
▁복 -378
▁야 -379
▁하나 -380
▁국가 -381
시아 -382
▁존 -383
▁198 -384
▁이름 -385
▁ㄷㅏㄴㅡㄴ -386
▁당시 -387
▁편 -388
▁가장 -389
▁확 -390
▁위치 -391
▁네 -392
▁삼 -393
▁_ -394
▁ㅇㅏㄹ -395
▁열 -396
▁ㄸㅏㄹㅏ -397
▁ㅈㅣㄴ -398
▁활동 -399
▁조선 -400
▁테 -401
▁학교 -402
▁가지 -403
▁철 -404
주의 -405
▁리그 -406
▁그러나 -407
▁버 -408
▁필 -409
▁( -410
▁15 -411
▁ㅌㅗㅇ -412
▁올 -413
▁ㅇㅣㄴㅏ -414
ㅈㅕㅆ -415
▁for -416
▁금 -417
▁페 -418
▁뒤 -419
▁증 -420
ㅣㄴㄷㅏ -421
▁째 -422
mu -423
▁루 -424
▁플 -425
▁백 -426
▁ㅅㅓ -427
▁창 -428
mula -429
▁ㅇㅢㅎㅐ -430
▁언 -431
▁formula -432
ㅣㄹ -433
▁16 -434
▁식 -435
▁대표 -436
레이 -437
▁연구 -438
▁치 -439
▁병 -440
▁근 -441
▁또는 -442
ㅇㅡㄴ -443
▁프랑 -444
ㅂㅜㅌㅓ -445
▁ㅌㅗㅇㅎㅐ -446
▁심 -447
▁그리고 -448
▁/ -449
▁합 -450
▁황 -451
▁사회 -452
ㅇㅡㄴㅏ -453
▁m -454
▁규 -455
▁0 -456
▁살 -457
▁애 -458
▁D -459
▁충 -460
▁17 -461
ㅇㅑ -462
▁시즌 -463
ㅜㄹ -464
▁첫 -465
▁] -466
▁따 -467
▁순 -468
▁[ -469
▁197 -470
ㅐㅇ -471
▁B -472
ㅗㄱ -473
▁완 -474
▁ㅆ -475
▁히 -476
랜드 -477
▁아니 -478
▁ㄷㅗㄹ -479
▁ㅅㅣㅋ -480
▁중국 -481
▁다시 -482
▁협 -483
▁서울 -484
▁클 -485
▁정부 -486
▁프랑스 -487
ㅇㅜㄴ -488
학교 -489
▁영국 -490
▁K -491
▁I -492
▁패 -493
▁: -494
▁시대 -495
▁높 -496
▁ㄷㅐㅎㅐ -497
▁ㅎㅏ -498
▁만들 -499
▁k -500
▁포함 -501
▁여러 -502
▁도시 -503
▁뜻 -504
▁196 -505
▁은 -506
▁전쟁 -507
▁14 -508
▁채 -509
ㅎㅐㅆ -510
▁독일 -511
▁ㅇㅡㄴㅏ -512
▁ㄹㅗㅅㅓ -513
▁아이 -514
▁키 -515
ㅐㄹ -516
er -517
▁문화 -518
▁대회 -519
▁ㄴㅡㄴㄷㅏ -520
▁~ -521
▁g -522
▁ㄷㅏㄱㅏ -523
▁13 -524
▁축구 -525
▁면 -526
ㅊㅕ -527
▁ㅂㅏ -528
▁위원 -529
▁ㅋㅡㄴ -530
▁가능 -531
▁모두 -532
▁P -533
▁동안 -534
▁뉴 -535
▁ㅂㅗㅇ -536
in -537
▁모든 -538
ㅜㄹㄹ -539
▁이상 -540
▁ㅂㅗㄷㅏ -541
▁곡 -542
▁감독 -543
▁정치 -544
▁194 -545
▁환 -546
▁별 -547
▁쓰 -548
▁일부 -549
▁손 -550
▁방송 -551
▁친 -552
▁l -553
▁석 -554
▁문제 -555
▁길 -556
▁대학교 -557
▁처음 -558
▁개발 -559
▁ㅇㅏㄹㄹㅕ -560
▁지방 -561
▁L -562
▁ㅁㅗ -563
▁ㅇㅟㅎㅏㄴ -564
▁허 -565
▁제작 -566
▁취 -567
▁% -568
▁구성 -569
ㅇㅘ -570
▁죽 -571
▁검 -572
▁ㅍ -573
ㅇㅏ -574
▁국제 -575
▁ㅇㅕㅆㅇㅡㅁㅕ -576
▁러 -577
▁배우 -578
▁농 -579
▁ㄷㅚㄹ -580
라이 -581
▁사건 -582
▁니 -583
▁골 -584
ㄱㅕ -585
ㅓㅁ -586
ㅇㅝ -587
▁세기 -588
▁시간 -589
▁새 -590
▁이용 -591
▁캐 -592
▁일반 -593
▁논 -594
▁씨 -595
▁존재 -596
▁G -597
▁작품 -598
▁게임 -599
▁정도 -600
▁운동 -601
▁폭 -602
▁주장 -603
▁역사 -604
▁gt -605
▁곳 -606
▁N -607
▁급 -608
▁관계 -609
▁즉 -610
니아 -611
▁인구 -612
on -613
▁티 -614
▁195 -615
▁교육 -616
▁음악 -617
▁ㄷㅡㄹ -618
▁효 -619
▁km -620
▁ㄱㅓㄴㅏ -621
▁ㅎㅏㅁ -622
▁중심 -623
▁lt -624
리스 -625
▁섬 -626
▁육 -627
▁ㄹㅕ -628
▁이러 -629
▁돌 -630
▁U -631
▁ㄷㅙ -632
▁30 -633
▁쿠 -634
▁R -635
▁극 -636
ㅐㅆ -637
▁ㅎㅐㅆㅇㅡㅁㅕ -638
▁ㅁㅏ -639
▁선거 -640
▁경제 -641
▁날 -642
부분 -643
▁블 -644
통령 -645
▁발견 -646
▁귀 -647
▁전투 -648
이스 -649
▁절 -650
▁H -651
ㅐㄴ -652
▁민주 -653
▁ㅂㅗㄴ -654
▁맡 -655
화국 -656
▁발표 -657
▁ㄱㅓ -658
▁글 -659
▁E -660
▁홍 -661
▁측 -662
ㅏㅆ -663
▁기술 -664
ㅓㄴㅏㅆ -665
▁올림 -666
▁암 -667
▁아들 -668
▁ㄷㅗㄹㅗㄱ -669
▁밀 -670
▁시키 -671
▁우승 -672
▁터 -673
▁책 -674
▁막 -675
▁ㄹㅗㅂㅜㅌㅓ -676
▁2010 -677
▁공격 -678
ㅇㅕ -679
▁엔 -680
▁대통령 -681
▁대부분 -682
▁영향 -683
▁올림픽 -684
▁사망 -685
an -686
ㄷㅏㄴㅡㄴ -687
▁케 -688
▁결과 -689
000 -690
▁슈 -691
▁송 -692
▁질 -693
▁라이 -694
▁지원 -695
▁향 -696
▁앨 -697
▁잘 -698
▁프로그 -699
▁ㅇㅗㄹㄹ -700
▁ㅁㅗㅅ -701
리카 -702
▁담 -703
▁193 -704
▁과정 -705
▁접 -706
▁발생 -707
▁의미 -708
▁끝 -709
ㅆㅓ -710
ㄷㅗ -711
▁관련 -712
▁참여 -713
▁중앙 -714
▁유럽 -715
▁헤 -716
▁봉 -717
▁업 -718
▁앞 -719
▁최초 -720
▁c -721
ㅗㄴ -722
란드 -723
▁진행 -724
▁얻 -725
20 -726
▁준 -727
▁25 -728
ㅗㅇㅜㄴ -729
▁고등 -730
▁부분 -731
▁독립 -732
▁자유 -733
▁특히 -734
▁범 -735
▁결정 -736
지만 -737
▁제국 -738
▁ㄷㅙㅆ -739
▁구조 -740
▁다양 -741
▁ㅅㅔ -742
▁설립 -743
▁못 -744
▁설치 -745
버지 -746
ㅁㅕㄴ -747
▁초등 -748
나라 -749
▁형태 -750
▁폐 -751
▁상태 -752
▁ㅇㅓㅅㅓ -753
▁ㅌㅐㅇ -754
▁탄 -755
▁W -756
▁발매 -757
▁소속 -758
▁탈 -759
▁온 -760
▁좌 -761
▁러시아 -762
▁2008 -763
▁누 -764
▁악 -765
▁ㅇㅡㅁ -766
▁이전 -767
▁잡 -768
▁ㅅㅐㄹ -769
▁사실 -770
▁하지만 -771
▁21 -772
▁침 -773
ㅓㅆ -774
▁그녀 -775
우스 -776
▁센 -777
▁ㅅㅐㄹㅗㅇㅜㄴ -778
▁스타 -779
▁르 -780
▁ㅇㅣㄴㅎㅐ -781
디오 -782
▁같이 -783
▁로마 -784
▁폴 -785
▁ㅇㅡㄹㅗㅅㅓ -786
▁여성 -787
▁갖 -788
▁인민 -789
▁맞 -790
▁주로 -791
▁프로그램 -792
▁나라 -793
▁생각 -794
▁타이 -795
▁ㅃ -796
▁필요 -797
▁ㅇㅕㄹㄹ -798
▁2012 -799
▁2011 -800
▁출신 -801
▁참가 -802
▁싱 -803
▁이탈 -804
▁혼 -805
▁이것 -806
▁관리 -807
▁조직 -808
ㅓㄴㅏㄴ -809
▁기준 -810
▁100 -811
▁머 -812
▁좋 -813
▁운영 -814
▁위원회 -815
en -816
▁2009 -817
ㅇㅓㅈㅣㄴ -818
▁중요 -819
▁여자 -820
▁윤 -821
▁생산 -822
▁2007 -823
▁계획 -824
▁기관 -825
▁2014 -826
▁t -827
▁행정 -828
▁등장 -829
▁상대 -830
▁정보 -831
▁음반 -832
▁이루 -833
▁계속 -834
▁성공 -835
▁바이 -836
▁지정 -837
▁a -838
▁데이 -839
▁매우 -840
▁국민 -841
▁콘 -842
▁데뷔 -843
▁ㅎㅐㅅㅓ -844
▁2013 -845
▁해당 -846
▁O -847
he -848
▁갈 -849
▁레이 -850
▁철도 -851
▁아버지 -852
▁과학 -853
▁칼 -854
▁고려 -855
▁팔 -856
스터 -857
▁ㅂㅜㄹㄹ -858
▁대전 -859
▁이탈리아 -860
리즈 -861
▁발전 -862
▁몇 -863
▁주요 -864
프트 -865
르크 -866
▁자리 -867
▁따르 -868
▁191 -869
▁사업 -870
▁시스 -871
▁와 -872
▁23 -873
▁24 -874
▁묘 -875
ㅡㄹㅗ -876
▁커 -877
▁000 -878
ar -879
▁2015 -880
▁차지 -881
▁ㅊㅓㄹ -882
▁방법 -883
▁ㅊㅓㄹㅓㅁ -884
남도 -885
▁2018 -886
▁억 -887
▁헌 -888
▁보이 -889
라마 -890
▁월드 -891
▁앨범 -892
▁2016 -893
레스 -894
▁그룹 -895
▁최고 -896
▁쇼 -897
▁인도 -898
▁ㅇㅑ -899
▁줄 -900
▁결국 -901
▁능 -902
▁마이 -903
▁후보 -904
ㄺㅎ -905
▁출연 -906
▁아래 -907
▁시리즈 -908
이션 -909
▁엘 -910
▁J -911
▁전체 -912
▁생활 -913
es -914
▁고등학교 -915
▁22 -916
ㅇㅗㄴ -917
▁회사 -918
▁2006 -919
▁한편 -920
▁이유 -921
이트 -922
▁ㅈㅕㅆ -923
▁내용 -924
▁그리스 -925
FA -926
▁192 -927
비아 -928
▁층 -929
▁우리 -930
▁ㅇㅕㅆㅇㅡㄴㅏ -931
▁격 -932
▁제공 -933
▁연합 -934
▁스페 -935
▁방식 -936
▁인간 -937
▁의원 -938
▁2017 -939
▁ㅂㅏㄺㅎ -940
▁공식 -941
▁풍 -942
운데 -943
▁많이 -944
▁인터 -945
▁항공 -946
▁못하 -947
▁시기 -948
▁ㅂㅓㄹ -949
▁컴 -950
▁역할 -951
▁몸 -952
▁가운데 -953
▁드라마 -954
▁군사 -955
▁시스템 -956
ㅏㄴㄷㅏ -957
▁얼 -958
▁조사 -959
▁초기 -960
▁워 -961
▁빌 -962
▁출전 -963
▁유명 -964
▁ㄹㅏㄴ -965
▁거의 -966
▁기업 -967
▁반대 -968
▁제도 -969
▁민족 -970
ㅇㅘㅆ -971
▁ㅂㅗㄹ -972
▁ㄷㅡㄹㅇㅓ -973
▁s -974
▁교회 -975
ㄴㅎㅏㄴ -976
▁지구 -977
▁ㅇㅡㄹㅗㅆㅓ -978
▁텔 -979
▁수상 -980
▁대신 -981
▁ㄱㅓㄹ -982
▁유지 -983
비스 -984
▁평가 -985
▁색 -986
▁표현 -987
▁분류 -988
▁ㅇㅡㄹㅗㅂㅜㅌㅓ -989
▁ㅎㅐㅇㅑ -990
▁잠 -991
▁26 -992
▁홈 -993
▁! -994
▁대상 -995
▁특별 -996
▁동시 -997
▁언어 -998
ㅌㅏㄴ -999
▁기능 -1000
▁현대 -1001
▁규모 -1002
at -1003
▁이르 -1004
▁공개 -1005
▁프리 -1006
ㅡㄴㄷㅏ -1007
▁모습 -1008
▁ㄴㅏㅌㅏㄴ -1009
▁28 -1010
▁류 -1011
▁이미 -1012
▁자연 -1013
▁노동 -1014
▁ㅇㅏㄴ -1015
ㅜㄴㄷㅏ -1016
▁각각 -1017
▁연결 -1018
야기 -1019
▁마지 -1020
▁개인 -1021
▁승리 -1022
▁27 -1023
▁이론 -1024
▁녹 -1025
▁졸 -1026
▁2019 -1027
▁인정 -1028
▁단체 -1029
▁여기 -1030
▁응 -1031
▁지도 -1032
▁진출 -1033
ㅇㅎㅏㄴ -1034
▁브라 -1035
ㄴㅣ -1036
▁ㅅㅣㅋㅕㅆ -1037
북도 -1038
▁임명 -1039
▁ㄱㅡㄹ -1040
▁웨 -1041
ㅊㅕㅆ -1042
▁핵 -1043
▁마지막 -1044
▁2005 -1045
▁ㄱㅏㅈㅣㄴ -1046
▁V -1047
▁2000 -1048
▁시장 -1049
ㄱㅏㅆ -1050
▁울 -1051
ㄷㅡㄹ -1052
▁목적 -1053
머니 -1054
▁시절 -1055
▁수도 -1056
▁아르 -1057
▁전문 -1058
▁ㅇㅏㄹㄹㅕㅈㅕ -1059
▁정의 -1060
▁상황 -1061
▁경상 -1062
▁정책 -1063
▁난 -1064
▁목록 -1065
▁기간 -1066
어지 -1067
▁족 -1068
▁희 -1069
▁직접 -1070
▁ㄴㅐ -1071
▁ㅇㅘㅆ -1072
▁산업 -1073
ic -1074
ㅂㄴㅣ -1075
▁이야기 -1076
al -1077
▁서로 -1078
스크 -1079
▁야구 -1080
▁압 -1081
▁계약 -1082
▁ㅎㅐㅆㅇㅡㄴㅏ -1083
▁오스트 -1084
▁불리 -1085
ㄱㅕㅆ -1086
▁힘 -1087
▁혁 -1088
▁밴 -1089
▁ㅇㅕㄹㄹㅣㄴ -1090
▁기원 -1091
▁ㅇㅣㄹㅇ -1092
▁추가 -1093
▁건설 -1094
BS -1095
▁공동 -1096
▁모델 -1097
▁2004 -1098
▁개최 -1099
▁콜 -1100
▁눈 -1101
▁샤 -1102
▁FC -1103
▁건물 -1104
▁먹 -1105
▁플레이 -1106
▁공간 -1107
▁경찰 -1108
▁형성 -1109
▁50 -1110
▁활약 -1111
▁찾 -1112
▁푸 -1113
▁결혼 -1114
▁스페인 -1115
▁ㄱㅏㄹ -1116
▁부산 -1117
▁자동 -1118
▁ㅌㅐㅇㅓㄴㅏㅆ -1119
▁ㄱㅘㄴㅎㅏㄴ -1120
▁31 -1121
▁훈 -1122
ㅇㅣㄴ -1123
ㅂㄴㅣㄷㅏ -1124
▁넘 -1125
▁ㅂㅗㅇㅕ -1126
▁29 -1127
학자 -1128
▁졸업 -1129
▁변화 -1130
▁거리 -1131
▁노래 -1132
▁사상 -1133
▁칸 -1134
▁교수 -1135
▁변경 -1136
▁b -1137
▁국회 -1138
▁TV -1139
▁뿐 -1140
▁ㅇㅡㅁㅕㄴ -1141
▁의하 -1142
▁그것 -1143
▁인물 -1144
ㅇㅕㅆ -1145
▁ㄴㅏㄴ -1146
is -1147
▁나이 -1148
▁마을 -1149
▁완전 -1150
re -1151
it -1152
▁공화국 -1153
▁텔레 -1154
▁ㅅㅔㅇㅝ -1155
▁벨 -1156
▁너 -1157
▁궁 -1158
▁ㄴㅣ -1159
▁부르 -1160
▁ㄸㅓㄹ -1161
▁비롯 -1162
▁190 -1163
ㅇㅓㅈㅕ -1164
▁퍼 -1165
▁사랑 -1166
▁망 -1167
▁노선 -1168
▁역시 -1169
▁인민공 -1170
ㄷㅡㄴ -1171
▁인민공화국 -1172
▁휴 -1173
이드 -1174
비전 -1175
▁둘 -1176
▁2020 -1177
▁학생 -1178
▁ㅂㅣ -1179
▁중학교 -1180
어나 -1181
ou -1182
▁맥 -1183
▁보통 -1184
▁실제 -1185
▁최대 -1186
ㅎㅏㄴㄷㅏ -1187
▁서비스 -1188
▁요구 -1189
▁볼 -1190
▁지금 -1191
▁잉 -1192
▁탑 -1193
▁속하 -1194
▁보호 -1195
대로 -1196
▁전국 -1197
▁슬 -1198
▁낮 -1199
ㅇㅎㅐ -1200
프리카 -1201
▁나타 -1202
▁소설 -1203
▁의회 -1204
▁지지 -1205
▁ㄱㅔㅆ -1206
▁우주 -1207
▁중화 -1208
▁ㅈㅓ -1209
▁ㄱㅓㅊㅕ -1210
▁메이 -1211
▁실시 -1212
▁없이 -1213
▁지하 -1214
▁기본 -1215
르트 -1216
▁혹 -1217
▁황제 -1218
역시 -1219
▁자기 -1220
▁판매 -1221
운드 -1222
▁가수 -1223
▁ㄱㅜ -1224
▁다이 -1225
▁전통 -1226
▁싱글 -1227
▁비판 -1228
▁달리 -1229
▁밴드 -1230
▁원래 -1231
▁옥 -1232
▁따라 -1233
▁기반 -1234
▁ㅎㅏㄴㄷㅏㄴㅡㄴ -1235
ㅈㅏ -1236
▁퇴 -1237
▁론 -1238
▁종교 -1239
▁ㅇㅗㄴ -1240
▁2002 -1241
▁차이 -1242
▁어떤 -1243
▁견 -1244
▁경기도 -1245
▁세력 -1246
▁위하 -1247
▁딸 -1248
로스 -1249
▁40 -1250
▁탐 -1251
▁ㅇㅣㄹㅜ -1252
▁ㄷㅗㄹㅇㅏ -1253
▁ㅁㅗㅅㅎㅐㅆ -1254
▁자료 -1255
▁소련 -1256
스탄 -1257
▁겸 -1258
▁수행 -1259
▁몰 -1260
▁환경 -1261
▁2003 -1262
▁기타 -1263
▁회의 -1264
ㄹㄹㅕ -1265
▁ㅇㅏㄴㅣㄴ -1266
▁센터 -1267
▁모양 -1268
▁전기 -1269
▁월드컵 -1270
▁운행 -1271
▁시설 -1272
▁부대 -1273
▁도쿄 -1274
▁밖 -1275
▁전자 -1276
나다 -1277
▁특징 -1278
▁ㄷㅐㅎㅐㅅㅓ -1279
러스 -1280
▁공연 -1281
▁그래 -1282
▁교황 -1283
▁기념 -1284
▁컵 -1285
▁승강 -1286
▁나오 -1287
▁뮤 -1288
▁분야 -1289
▁명칭 -1290
▁놓 -1291
▁설명 -1292
▁예술 -1293
▁기독 -1294
le -1295
▁이동 -1296
▁통합 -1297
▁ㅈㅓㄴ -1298
▁텔레비전 -1299
▁작업 -1300
mp -1301
▁연방 -1302
▁남자 -1303
▁도입 -1304
▁동물 -1305
▁염 -1306
ㅊㅣㄴ -1307
▁득 -1308
▁구역 -1309
▁행동 -1310
▁따라서 -1311
▁선정 -1312
▁전라 -1313
▁애니 -1314
▁ㅇㅢㅎㅏㄴ -1315
▁바로 -1316
▁군대 -1317
▁벌 -1318
스타 -1319
▁능력 -1320
▁ㄱㅓㄴ -1321
▁작용 -1322
▁남쪽 -1323
▁가족 -1324
▁출시 -1325
▁소프트 -1326
▁숙 -1327
ㄲㅏ -1328
▁할 -1329
▁방향 -1330
▁증가 -1331
▁북쪽 -1332
▁확인 -1333
▁기존 -1334
▁지휘 -1335
너지 -1336
▁행위 -1337
▁제외 -1338
▁문학 -1339
▁= -1340
▁교통 -1341
▁이때 -1342
▁차량 -1343
▁기독교 -1344
▁ㅅㅏㄹ -1345
의원 -1346
▁작가 -1347
▁비슷 -1348
▁사고 -1349
▁클럽 -1350
▁형식 -1351
▁ㅁㅡㄹㅗ -1352
▁국내 -1353
ㅇㅎㅐㅆ -1354
▁십 -1355
▁윌 -1356
▁어머니 -1357
▁혁명 -1358
▁도로 -1359
ㅣㅁ -1360
▁작곡 -1361
▁빈 -1362
▁효과 -1363
▁역임 -1364
▁태양 -1365
▁승강장 -1366
▁낙 -1367
▁몽 -1368
▁캐나다 -1369
▁왕국 -1370
▁유일 -1371
▁컴퓨 -1372
▁FI -1373
▁과거 -1374
▁열차 -1375
ㅡㅁ -1376
▁사무 -1377
▁챔 -1378
▁이적 -1379
▁ㅎㅏㄴㄷㅏㄱㅗ -1380
▁착 -1381
BC -1382
▁ㅂㅜㄹ -1383
▁협회 -1384
▁높이 -1385
▁혹은 -1386
▁남부 -1387
리오 -1388
▁ㅆㅡ -1389
▁ㅈㅜ -1390
▁ㄴㅗ -1391
ㄱㅣㄴ -1392
▁추정 -1393
▁비교 -1394
▁뉴욕 -1395
▁솔 -1396
▁지배 -1397
▁공산 -1398
▁흥 -1399
▁정당 -1400
자리 -1401
▁담당 -1402
▁ㅅㅗㄱ -1403
▁육군 -1404
▁ㄷㅏㄹ -1405
▁넓 -1406
▁이사 -1407
▁시민 -1408
▁이끌 -1409
▁동일 -1410
▁흐 -1411
▁주변 -1412
▁획 -1413
▁베이 -1414
▁런 -1415
▁1990 -1416
▁2001 -1417
▁동쪽 -1418
▁적용 -1419
▁인기 -1420
▁장관 -1421
▁즈 -1422
▁홀 -1423
▁대사 -1424
ㅜㅁ -1425
▁ㅁㅗㅇ -1426
▁스포 -1427
▁스트 -1428
▁챔피 -1429
▁X -1430
▁ㅅㅣㅋㅕ -1431
▁세포 -1432
▁윈 -1433
▁쪽 -1434
▁건축 -1435
▁예정 -1436
▁공사 -1437
▁사단 -1438
▁p -1439
▁데이터 -1440
▁갑 -1441
▁구간 -1442
▁개념 -1443
▁성장 -1444
▁곧 -1445
▁상당 -1446
▁컴퓨터 -1447
▁마음 -1448
▁오늘 -1449
▁조지 -1450
▁차례 -1451
▁징 -1452
▁크기 -1453
▁품 -1454
▁서쪽 -1455
▁189 -1456
▁에너지 -1457
▁마르 -1458
▁버스 -1459
▁돈 -1460
▁멤 -1461
▁대하 -1462
▁맨 -1463
▁흑 -1464
▁충청 -1465
▁넣 -1466
▁ㅁㅏㄴㄷㅡㄴ -1467
이지 -1468
ㄴㅏㄴ -1469
▁록 -1470
▁액 -1471
▁엄 -1472
▁작전 -1473
▁땅 -1474
▁민주주의 -1475
▁자체 -1476
▁조건 -1477
▁다르 -1478
ㅇㅡㅋ -1479
▁실패 -1480
▁어느 -1481
▁나가 -1482
▁디자 -1483
▁잔 -1484
▁연기 -1485
▁율 -1486
▁반응 -1487
▁이런 -1488
▁덕 -1489
▁선언 -1490
▁FIFA -1491
▁이어 -1492
▁d -1493
▁ㅁㅏㄷㅏ -1494
▁ㅇㅟㅎㅐㅅㅓ -1495
▁연주 -1496
▁버전 -1497
▁종류 -1498
▁부족 -1499
▁특정 -1500
▁컨 -1501
▁애니메 -1502
▁페르 -1503
▁피해 -1504
▁국립 -1505
▁연속 -1506
▁방영 -1507
드리 -1508
카이 -1509
▁쌍 -1510
▁대체 -1511
▁선택 -1512
el -1513
▁공항 -1514
▁규정 -1515
▁해군 -1516
▁대구 -1517
▁고대 -1518
et -1519
▁ㄹㅓ -1520
가지 -1521
ㄹㅣㄴ -1522
▁내부 -1523
▁체제 -1524
▁ㅈㅣㄴㅐㅆ -1525
버스 -1526
▁멤버 -1527
▁조약 -1528
▁북부 -1529
▁속도 -1530
▁결승 -1531
▁수록 -1532
루스 -1533
▁기원전 -1534
▁정신 -1535
▁아시아 -1536
▁연대 -1537
▁명령 -1538
▁선출 -1539
▁들어 -1540
▁헌법 -1541
글랜드 -1542
▁애니메이션 -1543
▁ㄴㅡㄴㅈㅣ -1544
▁왜 -1545
▁크리스 -1546
▁ㅂㅏㄺㅎㅕㅆ -1547
▁인천 -1548
거리 -1549
▁포르 -1550
▁풀 -1551
▁옛 -1552
▁ㅇㅗㄻ -1553
▁가치 -1554
▁개혁 -1555
▁단계 -1556
ion -1557
▁ㄱㅓㄹㅊㅕ -1558
▁영어 -1559
웨어 -1560
▁최종 -1561
▁ㅇㅣㄹㅇㅡㅋ -1562
▁물질 -1563
ㅓㅇㅜㄴ -1564
▁친구 -1565
▁자치 -1566
ing -1567
▁달러 -1568
ㅈㅣㄴㄷㅏ -1569
ㅈㅊ -1570
▁설계 -1571
▁최근 -1572
▁분석 -1573
▁척 -1574
▁밤 -1575
▁ㅅㅐㅇ -1576
▁의사 -1577
▁출판 -1578
▁비행 -1579
트남 -1580
▁강화 -1581
▁평균 -1582
▁ㅇㅔㄴ -1583
시마 -1584
▁1999 -1585
▁지명 -1586
▁더욱 -1587
▁ㅂㅏㄲ -1588
▁로스 -1589
▁물리 -1590
▁체계 -1591
▁소비 -1592
▁ㅂㅗㅇㅣㄴㄷㅏ -1593
ol -1594
▁술 -1595
라스 -1596
▁표준 -1597
▁걸 -1598
▁배치 -1599
▁법원 -1600
▁1998 -1601
▁잉글랜드 -1602
메리카 -1603
▁집단 -1604
▁쥐 -1605
널리 -1606
▁익 -1607
▁머리 -1608
▁치료 -1609
▁Y -1610
▁북한 -1611
▁팬 -1612
▁관심 -1613
▁언급 -1614
▁씩 -1615
▁cm -1616
▁개월 -1617
▁획득 -1618
▁부문 -1619
21 -1620
▁o -1621
▁ㅊㅣㄹ -1622
▁하이 -1623
▁뛰 -1624
▁헬 -1625
▁분리 -1626
ㅂㅎ -1627
▁함수 -1628
▁현상 -1629
▁하계 -1630
▁먼 -1631
▁지속 -1632
▁1980 -1633
▁유사 -1634
▁부상 -1635
▁엔진 -1636
▁공원 -1637
▁실험 -1638
▁파리 -1639
▁조정 -1640
▁벤 -1641
▁60 -1642
▁당하 -1643
렇게 -1644
▁스테 -1645
▁처리 -1646
▁선발 -1647
▁스포츠 -1648
▁확장 -1649
스코 -1650
▁베르 -1651
▁제품 -1652
리지 -1653
▁대중 -1654
▁입단 -1655
▁관할 -1656
▁35 -1657
▁챔피언 -1658
▁흔 -1659
▁ㅈㅜㄹ -1660
▁마리 -1661
▁맺 -1662
▁가리 -1663
▁공립 -1664
▁겨 -1665
▁소유 -1666
▁ㅇㅓㅇㅑ -1667
▁통일 -1668
▁ㄱㅣㄴ -1669
▁목표 -1670
▁시도 -1671
▁장군 -1672
▁도움 -1673
▁요소 -1674
▁재판 -1675
▁칭 -1676
▁문자 -1677
▁이해 -1678
▁자동차 -1679
▁주도 -1680
디어 -1681
▁에스 -1682
▁요시 -1683
▁정규 -1684
▁mm -1685
▁외국 -1686
▁점령 -1687
▁거주 -1688
▁구단 -1689
▁후반 -1690
▁나무 -1691
▁꽃 -1692
▁ㄱㅗㅈㅏ -1693
ㅇㅔ -1694
ㅇㅓㅈㅕㅆ -1695
▁주인 -1696
▁지나 -1697
▁기사 -1698
▁시험 -1699
▁편성 -1700
▁원자 -1701
▁네덜 -1702
▁네덜란드 -1703
▁ㅇㅣㅁ -1704
▁주민 -1705
▁학자 -1706
▁n -1707
▁행사 -1708
▁ㄹㅕㄱㅗ -1709
광역시 -1710
▁앤 -1711
▁통신 -1712
▁사령 -1713
▁동맹 -1714
▁결합 -1715
▁일종 -1716
▁파이 -1717
▁안정 -1718
▁혈 -1719
▁투표 -1720
▁붙 -1721
▁웹 -1722
▁고속 -1723
▁알렉 -1724
▁수준 -1725
▁느 -1726
▁불교 -1727
▁예선 -1728
▁ㄷㅔ -1729
om -1730
▁앙 -1731
▁길이 -1732
▁장치 -1733
▁개봉 -1734
▁언론 -1735
야마 -1736
나무 -1737
▁깊 -1738
▁아프리카 -1739
젝트 -1740
▁불구 -1741
▁1997 -1742
▁디자인 -1743
▁본선 -1744
▁문서 -1745
▁준비 -1746
▁광주 -1747
▁촉 -1748
ㅈㅣㄹ -1749
일랜드 -1750
▁방문 -1751
▁베트남 -1752
▁사진 -1753
▁캠 -1754
▁바르 -1755
▁신문 -1756
▁싸 -1757
▁책임 -1758
▁ㅂㅣㅎㅐ -1759
ㅝㅆ -1760
▁휘 -1761
▁가문 -1762
▁ㄱㅏㅆ -1763
▁ㄲㅡ -1764
▁칠 -1765
메달 -1766
▁유전 -1767
▁정권 -1768
▁ㅇㅣㄴㄷㅔ -1769
st -1770
▁가정 -1771
▁정확 -1772
▁ㄴㅐㄹ -1773
▁구분 -1774
▁폴란드 -1775
▁1996 -1776
▁제조 -1777
▁경험 -1778
▁The -1779
ㅇㅓㅆ -1780
▁그림 -1781
▁성적 -1782
▁1995 -1783
▁요리 -1784
▁ㅇㅗㄹㄹㅏㅆ -1785
▁믿 -1786
▁비디오 -1787
▁핀 -1788
▁평화 -1789
▁용어 -1790
▁amp -1791
▁오늘날 -1792
▁부인 -1793
▁ㅇㅏㄹㄹㅕㅈㅣㄴ -1794
▁정리 -1795
▁원인 -1796
▁통과 -1797
▁32 -1798
▁부여 -1799
▁밝 -1800
▁70 -1801
▁일제 -1802
▁ㅁㅓㄴ -1803
▁ㄴㅏㅁ -1804
▁왕조 -1805
▁프로젝트 -1806
특별 -1807
▁아마 -1808
▁아직 -1809
▁거두 -1810
▁ㄷㅏㅁㅕㄴ -1811
▁추진 -1812
▁런던 -1813
▁찬 -1814
▁ㄹㅕㄴㅡㄴ -1815
▁덴 -1816
▁병원 -1817
▁빠 -1818
▁쉽 -1819
스로 -1820
▁이곳 -1821
▁방어 -1822
▁은퇴 -1823
▁종합 -1824
▁신라 -1825
▁프레 -1826
스턴 -1827
▁빛 -1828
인트 -1829
▁해석 -1830
▁슈퍼 -1831
▁멸 -1832
▁ㅅㅡ -1833
▁500 -1834
▁통치 -1835
▁영역 -1836
▁폐지 -1837
▁이듬 -1838
▁경쟁 -1839
▁몬 -1840
▁인터넷 -1841
▁널리 -1842
▁입장 -1843
▁경영 -1844
▁움 -1845
웨이 -1846
▁훈련 -1847
▁미사 -1848
▁발달 -1849
▁노력 -1850
▁ㅍㅕ -1851
▁보도 -1852
▁제주 -1853
▁the -1854
▁츠 -1855
▁파괴 -1856
▁총리 -1857
▁면적 -1858
▁제안 -1859
레일 -1860
am -1861
▁일어나 -1862
▁주연 -1863
▁주제 -1864
▁멀 -1865
▁기여 -1866
▁부정 -1867
▁80 -1868
▁회장 -1869
▁만화 -1870
▁미술 -1871
▁유래 -1872
▁서부 -1873
▁민주당 -1874
▁번호 -1875
▁오르 -1876
ㅎㅏㄹ -1877
▁이듬해 -1878
▁도서 -1879
▁야마 -1880
▁188 -1881
▁경기장 -1882
▁완전히 -1883
▁국회의원 -1884
▁값 -1885
리트 -1886
▁그런 -1887
▁생물 -1888
▁ㅇㅕㄱㅕ -1889
▁남성 -1890
▁연맹 -1891
▁UE -1892
▁빅 -1893
▁식민 -1894
▁ㄴㅏㅇㅗㄴ -1895
▁요청 -1896
▁습 -1897
▁자주 -1898
라인 -1899
▁동부 -1900
▁경계 -1901
▁투수 -1902
▁잃 -1903
▁ㅂㅜㅌ -1904
▁궤 -1905
▁정상 -1906
▁법률 -1907
▁+ -1908
▁폰 -1909
il -1910
▁1994 -1911
▁행성 -1912
▁1970 -1913
▁UEFA -1914
▁무기 -1915
▁금지 -1916
▁수용 -1917
▁소재 -1918
▁등록 -1919
▁삼성 -1920
톨릭 -1921
▁인식 -1922
▁연구소 -1923
▁제한 -1924
ac -1925
▁바탕 -1926
▁괴 -1927
▁링 -1928
▁라디오 -1929
▁무대 -1930
▁지진 -1931
▁영토 -1932
▁철학 -1933
▁강원 -1934
▁외교 -1935
머지 -1936
▁ㅇㅣㄹㅇㅓㄴㅏㄴ -1937
▁발사 -1938
▁박물 -1939
▁아시 -1940
▁나머지 -1941
▁노르 -1942
▁접근 -1943
▁반면 -1944
▁지대 -1945
▁KBS -1946
ㅏㄱㅗ -1947
▁스스로 -1948
▁업무 -1949
▁거부 -1950
▁린 -1951
▁더불 -1952
▁표기 -1953
▁뉴스 -1954
▁뇌 -1955
▁정식 -1956
▁조각 -1957
▁마찬 -1958
▁마찬가지 -1959
▁아일랜드 -1960
ㅣㅋ -1961
▁오스 -1962
▁결성 -1963
▁벽 -1964
▁서식 -1965
▁오래 -1966
▁필리 -1967
▁ㄷㅏㅇㅎㅐㅆ -1968
▁상호 -1969
▁1992 -1970
▁은행 -1971
▁펜 -1972
ㄴㄷㅏ -1973
▁ㄹㅜ -1974
▁다수 -1975
▁ㄱㅏㄲㅏ -1976
요일 -1977
▁기초 -1978
▁가톨릭 -1979
▁공작 -1980
▁45 -1981
▁논란 -1982
▁아카 -1983
▁보수 -1984
▁의식 -1985
▁복귀 -1986
ㄹㅗ -1987
▁박사 -1988
ro -1989
임스 -1990
▁득점 -1991
▁주의 -1992
▁스웨 -1993
▁임시 -1994
▁트리 -1995
▁성격 -1996
▁수학 -1997
시코 -1998
▁다리 -1999
▁바다 -2000
▁장애 -2001
▁36 -2002
▁ㅈㅓㄴㅎㅐ -2003
▁꼬 -2004
▁of -2005
ed -2006
모토 -2007
▁짧 -2008
▁윌리 -2009
▁지도자 -2010
▁ㄹㅗㅆㅓ -2011
▁해결 -2012
▁그대로 -2013
▁실제로 -2014
▁장소 -2015
▁브라질 -2016
▁소리 -2017
▁초대 -2018
▁총선 -2019
▁검사 -2020
워드 -2021
▁박물관 -2022
▁유로 -2023
▁이스 -2024
▁마이크 -2025
▁ㅋㅓ -2026
▁스위 -2027
▁패배 -2028
▁여행 -2029
▁긴 -2030
▁바뀌 -2031
▁ㅇㅗㄹㄹㅏ -2032
▁ㅅㅡㄹ -2033
▁카드 -2034
▁강력 -2035
▁ㄸㅟ -2036
▁표시 -2037
▁여름 -2038
아가 -2039
▁차원 -2040
▁식물 -2041
▁집합 -2042
▁묘사 -2043
▁화학 -2044
▁오브 -2045
▁기구 -2046
ㅗㄹ -2047
▁제시 -2048
▁ㅅㅡㅂㄴㅣㄷㅏ -2049
▁1960 -2050
▁계열 -2051
ig -2052
▁이외 -2053
▁관측 -2054
▁인사 -2055
▁단순 -2056
▁연극 -2057
▁차트 -2058
▁에이 -2059
▁쓰이 -2060
▁안전 -2061
▁1991 -2062
▁유니 -2063
토리 -2064
▁스웨덴 -2065
▁활용 -2066
로나 -2067
▁무역 -2068
▁권력 -2069
▁ㅊㅏ -2070
▁멕 -2071
▁디지 -2072
▁파일 -2073
▁회원 -2074
▁오스트리아 -2075
▁곤 -2076
▁ㄱㅏㄹㅣㅋ -2077
▁개국 -2078
▁잇 -2079
▁히로 -2080
▁ㄲㅡㅌ -2081
부르크 -2082
▁기계 -2083
▁형제 -2084
▁1993 -2085
▁근처 -2086
레일리아 -2087
▁33 -2088
▁캐릭 -2089
▁먼저 -2090
▁보다 -2091
▁ㅂㅏㄺㅎㅕ -2092
▁반란 -2093
▁조성 -2094
▁지적 -2095
▁소프트웨어 -2096
▁중간 -2097
▁붕 -2098
▁분포 -2099
트리 -2100
▁아무 -2101
▁중단 -2102
▁흡 -2103
배우 -2104
▁위험 -2105
베이 -2106
▁세대 -2107
▁발행 -2108
▁일정 -2109
▁시행 -2110
ㅐㄴㄷㅏ -2111
▁도착 -2112
ㅏㄹㅡㄴ -2113
▁ㄷㅡㄴ -2114
트로 -2115
▁스코 -2116
▁기자 -2117
▁량 -2118
▁스튜 -2119
▁협력 -2120
특별시 -2121
▁ㅁㅏㄴㄴ -2122
▁여객 -2123
od -2124
버트 -2125
▁서울특별시 -2126
▁사이트 -2127
사카 -2128
▁윈도 -2129
▁다만 -2130
▁단어 -2131
▁캐릭터 -2132
▁하루 -2133
▁해안 -2134
주시 -2135
▁186 -2136
▁ㅁㅣ -2137
▁나타나 -2138
▁지하철 -2139
▁죽음 -2140
▁", -2141
ㅇㅣㄴㄷㅏ -2142
▁렌 -2143
ve -2144
니스 -2145
▁파견 -2146
워크 -2147
▁수많 -2148
▁세상 -2149
▁ㅊㅣ -2150
▁연장 -2151
▁코드 -2152
▁ㅈㅣㄴㅏㄴ -2153
▁통하 -2154
as -2155
▁혜 -2156
▁순위 -2157
▁내각 -2158
▁다카 -2159
▁전시 -2160
▁오스트레일리아 -2161
▁공장 -2162
▁본부 -2163
▁투자 -2164
▁경상남도 -2165
나이 -2166
▁겪 -2167
▁후기 -2168
▁삶 -2169
지션 -2170
▁감소 -2171
▁혐 -2172
▁생성 -2173
▁번역 -2174
▁카이 -2175
▁케이 -2176
▁죄 -2177
▁근거 -2178
▁ㅉ -2179
소년 -2180
▁뮤직 -2181
▁윌리엄 -2182
▁제기 -2183
▁경상북도 -2184
▁확대 -2185
▁옹 -2186
▁네트 -2187
▁지상 -2188
▁귀족 -2189
▁보유 -2190
▁떠 -2191
▁유형 -2192
▁보존 -2193
▁지식 -2194
▁태평 -2195
▁양식 -2196
▁나타내 -2197
▁? -2198
▁관광 -2199
▁균 -2200
▁ㄷㅜ -2201
▁위기 -2202
무원 -2203
▁바꾸 -2204
▁1988 -2205
▁동생 -2206
▁멜 -2207
▁달성 -2208
▁ㅅㅔㅇㅝㅆ -2209
▁상징 -2210
▁ㄸㅓㄹㅇㅓㅈㅣㄴ -2211
▁187 -2212
▁ㅆㅏ -2213
▁유대 -2214
▁촬 -2215
▁ㅋㅔ -2216
▁전략 -2217
▁ㅇㅣㄴㅈㅣ -2218
▁멕시코 -2219
▁극장 -2220
▁캘 -2221
▁수사 -2222
▁ㅁㅜ -2223
▁h -2224
▁원소 -2225
▁상업 -2226
▁당선 -2227
▁촌 -2228
▁유리 -2229
▁완성 -2230
▁디지털 -2231
▁성립 -2232
▁근무 -2233
▁ㄴㅐㄹㅕ -2234
▁영상 -2235
▁학위 -2236
▁대응 -2237
▁굴 -2238
▁단위 -2239
▁특수 -2240
▁34 -2241
▁이렇게 -2242
▁계승 -2243
▁ㄸㅏㄹㅡㄴ -2244
ㄱㅏㄴ -2245
▁체포 -2246
▁촬영 -2247
▁옆 -2248
▁이슬 -2249
티아 -2250
▁ㅂㅗㅇㅕㅆ -2251
▁님 -2252
▁올리 -2253
▁나중 -2254
▁몇몇 -2255
▁수비 -2256
▁체결 -2257
▁식민지 -2258
▁38 -2259
▁ㅇㅣㄹㅜㅇㅓㅈㅣㄴ -2260
▁코치 -2261
▁그렇 -2262
▁권리 -2263
▁ㅇㅓㄹㅕ -2264
id -2265
▁마사 -2266
▁전달 -2267
회사 -2268
▁이집 -2269
▁이집트 -2270
▁보내 -2271
▁ㅆㅡㄴ -2272
▁알렉산 -2273
▁ㅇㅏㅍ -2274
▁생명 -2275
가리 -2276
▁듀 -2277
▁90 -2278
▁국왕 -2279
▁종목 -2280
가와 -2281
아시아 -2282
▁ㅇㅡㅁㅡㄹㅗ -2283
▁시티 -2284
ㄹㅕㅆ -2285
▁판단 -2286
▁아내 -2287
▁직후 -2288
▁미래 -2289
▁승격 -2290
▁맹 -2291
▁톤 -2292
▁타이틀 -2293
▁헨 -2294
▁1989 -2295
▁이주 -2296
▁크로 -2297
ㄹㅏ -2298
▁관찰 -2299
모리 -2300
▁ㅁㅗㅅㅎㅏㄴ -2301
▁주식 -2302
▁시청 -2303
▁률 -2304
▁도서관 -2305
▁대륙 -2306
▁측정 -2307
▁개통 -2308
▁미군 -2309
▁2021 -2310
▁소수 -2311
▁젊 -2312
▁싶 -2313
▁48 -2314
▁ㅇㅣㄹㅏㄱㅗ -2315
ec -2316
▁다루 -2317
▁깨 -2318
▁동계 -2319
▁자본 -2320
▁밑 -2321
▁낳 -2322
▁ㅈㅜㄴ -2323
▁채널 -2324
▁엘리 -2325
us -2326
▁전환 -2327
▁발매되 -2328
▁세르 -2329
▁홍콩 -2330
▁설정 -2331
▁스키 -2332
▁정치인 -2333
▁문화재 -2334
▁라인 -2335
ㅇㅝㅆ -2336
NA -2337
▁ㅇㅗㄹ -2338
▁ㄷㅐㄹㅗ -2339
▁특성 -2340
and -2341
▁포르투 -2342
▁개정 -2343
▁새로 -2344
▁얼마 -2345
▁', -2346
▁납 -2347
▁텍 -2348
▁시위 -2349
▁의견 -2350
▁미사일 -2351
▁종료 -2352
▁신경 -2353
▁ㄴㅡㄹ -2354
▁ㄴㅓㅁ -2355
▁취임 -2356
▁ㅂㅜㄹㅡㄴㄷㅏ -2357
▁제정 -2358
▁지위 -2359
▁1950 -2360
▁기획 -2361
▁| -2362
▁300 -2363
▁후쿠 -2364
▁ㄱㅏㄹㅣㅋㅣㄴㄷㅏ -2365
▁본관 -2366
▁결승전 -2367
▁은하 -2368
▁ㅇㅏㅅㅓ -2369
▁천황 -2370
▁사회주의 -2371
▁ㅈㅏㄹ -2372
▁교체 -2373
▁청년 -2374
▁ㄸㅟㅇ -2375
▁전차 -2376
디아 -2377
스티 -2378
▁MBC -2379
코드 -2380
▁주인공 -2381
▁헝 -2382
▁범죄 -2383
▁아키 -2384
▁출생 -2385
ad -2386
▁e -2387
▁제임스 -2388
▁예수 -2389
▁주목 -2390
▁셀 -2391
▁충돌 -2392
▁해외 -2393
▁ㅃㅜㄴ -2394
▁전라남도 -2395
▁소개 -2396
▁수정 -2397
ㅓㅅ -2398
▁계산 -2399
▁춘 -2400
▁녹음 -2401
▁장기 -2402
교회 -2403
▁ㄱㅏㅇㅎㅏㄴ -2404
▁바이러스 -2405
▁스티 -2406
▁비용 -2407
▁1945 -2408
▁즉위 -2409
▁개선 -2410
▁본래 -2411
▁음식 -2412
▁남북 -2413
전히 -2414
▁소장 -2415
▁자격 -2416
▁비밀 -2417
▁카운 -2418
리학 -2419
▁공부 -2420
▁합류 -2421
▁건강 -2422
▁ㅂㅗㄴㅐㅆ -2423
ent -2424
▁ㅈㅕ -2425
▁계기 -2426
▁공급 -2427
▁ㅎㅑ -2428
▁이래 -2429
▁ㅇㅓㄹㅣㄴ -2430
▁부모 -2431
▁펠 -2432
▁네트워크 -2433
▁배경 -2434
▁만드 -2435
스카 -2436
▁체육 -2437
▁궤도 -2438
▁에드 -2439
▁늘 -2440
▁제거 -2441
▁시내 -2442
▁인근 -2443
50 -2444
▁ㅇㅗㄻㄱㅕ -2445
▁홈런 -2446
▁원정 -2447
▁셰 -2448
▁컬 -2449
▁작성 -2450
▁각종 -2451
▁오후 -2452
▁거대 -2453
▁ㅇㅡㅁㅕㄴㅅㅓ -2454
▁물론 -2455
▁공군 -2456
▁감염 -2457
▁명예 -2458
▁자원 -2459
▁신학 -2460
▁ㅅㅏ -2461
▁입학 -2462
▁ㅁㅏㅈ -2463
▁집중 -2464
▁왼 -2465
▁가리키 -2466
▁가입 -2467
▁듣 -2468
▁ㅅㅣㅋㅣㄴ -2469
▁국경 -2470
▁피아 -2471
▁군인 -2472
▁가격 -2473
▁베네 -2474
▁객 -2475
▁성우 -2476
▁전사 -2477
▁천문 -2478
▁ㄱㅏㅈㅊ -2479
▁ㅆㅓㅆ -2480
베르 -2481
▁병력 -2482
▁나누 -2483
▁명단 -2484
▁통제 -2485
▁저항 -2486
▁울산 -2487
▁포지션 -2488
▁이슬람 -2489
티나 -2490
▁강조 -2491
▁끌 -2492
ㅓㅇ -2493
▁ㄱㅏㄲㅏㅇㅜㄴ -2494
니어 -2495
▁농업 -2496
▁신호 -2497
▁측면 -2498
▁찰 -2499
피아 -2500
▁소송 -2501
리포 -2502
▁기후 -2503
▁인수 -2504
▁질량 -2505
▁만약 -2506
▁ㄷㅡ -2507
▁St -2508
▁학문 -2509
▁ㅁㅔ -2510
▁실행 -2511
▁블랙 -2512
▁세이 -2513
▁ㅇㅣㄹㅜㅇㅓㅈㅕ -2514
▁병사 -2515
▁터미 -2516
▁플로 -2517
▁마치 -2518
▁움직 -2519
▁콩 -2520
ㄷㅇㅏ -2521
▁터키 -2522
ot -2523
▁오른 -2524
도로 -2525
▁강원도 -2526
ㅇㅣ -2527
▁너무 -2528
▁기회 -2529
▁겨울 -2530
▁최소 -2531
▁약간 -2532
▁정착 -2533
▁증명 -2534
▁변호 -2535
▁x -2536
▁비트 -2537
▁엑 -2538
ㅎㅕ -2539
▁이번 -2540
▁ㄱㅏㅈㅕ -2541
ㄱㅏㄴㄷㅏ -2542
▁읽 -2543
▁잎 -2544
▁미디어 -2545
▁무장 -2546
▁노동자 -2547
▁광고 -2548
동안 -2549
▁외부 -2550
un -2551
▁환자 -2552
▁해방 -2553
▁ㅍㅕㄹ -2554
▁아우 -2555
▁몽골 -2556
ow -2557
▁37 -2558
▁in -2559
▁국방 -2560
▁다니 -2561
▁편집 -2562
▁마쓰 -2563
▁마리아 -2564
▁제목 -2565
▁ㄱㅏㅈㅕㅆ -2566
▁터미널 -2567
철도 -2568
▁ㄷㅏㄹㄹ -2569
▁들어가 -2570
▁놀 -2571
▁태평양 -2572
스키 -2573
▁무렵 -2574
▁지점 -2575
▁ㄴㅏㅇㅘㅆ -2576
▁냉 -2577
▁전반 -2578
▁표면 -2579
▁도중 -2580
▁밀도 -2581
▁금융 -2582
▁라운드 -2583
▁ㅇㅣㄴㅎㅏㄴ -2584
▁마련 -2585
▁혐의 -2586
▁바람 -2587
▁허용 -2588
▁유도 -2589
▁1987 -2590
오카 -2591
▁가스 -2592
▁카르 -2593
▁충분 -2594
▁그해 -2595
▁만나 -2596
▁힐 -2597
▁짓 -2598
▁재산 -2599
▁학년 -2600
소리 -2601
▁여전히 -2602
▁쇠 -2603
▁합병 -2604
▁인디 -2605
▁루이 -2606
▁윈도우 -2607
▁갖추 -2608
▁충청남도 -2609
▁래 -2610
▁전력 -2611
▁오사카 -2612
▁민간 -2613
▁가르 -2614
▁재직 -2615
▁꼬리 -2616
▁고전 -2617
▁모리 -2618
▁숲 -2619
▁포르투갈 -2620
▁영화배우 -2621
▁전역 -2622
▁양성 -2623
▁w -2624
▁등급 -2625
▁현실 -2626
▁뒷 -2627
마크 -2628
▁헝가리 -2629
▁킹 -2630
▁선수단 -2631
▁41 -2632
ㅜㄹㄹㅓㅆ -2633
▁령 -2634
▁붕괴 -2635
드로 -2636
▁재정 -2637
▁라이브 -2638
▁지내 -2639
▁계급 -2640
▁51 -2641
▁1986 -2642
▁공주 -2643
▁동료 -2644
▁공공 -2645
▁1984 -2646
▁보고 -2647
ur -2648
▁강제 -2649
▁적극 -2650
▁엔터 -2651
▁이하 -2652
▁위원장 -2653
▁캘리포 -2654
▁스튜디오 -2655
▁승인 -2656
▁봄 -2657
▁대대 -2658
▁인하 -2659
▁전선 -2660
▁털 -2661
▁위협 -2662
▁군주 -2663
▁조치 -2664
▁대수 -2665
▁근대 -2666
▁상하 -2667
▁구축 -2668
▁온도 -2669
ㄱㅏㄹ -2670
▁샌 -2671
▁수입 -2672
▁ㅂㅜㄹㄹㅣㄴㄷㅏ -2673
▁롤 -2674
▁범위 -2675
▁유엔 -2676
▁전하 -2677
▁ㅂㅏㄷㅇㅏ -2678
▁임무 -2679
▁이미지 -2680
▁클라 -2681
▁오리 -2682
▁점차 -2683
▁논문 -2684
▁캘리포니아 -2685
▁위성 -2686
▁출발 -2687
▁업체 -2688
▁경력 -2689
▁교사 -2690
▁양자 -2691
▁ㅈㅜㄴㄷㅏ -2692
▁대학원 -2693
▁고구 -2694
▁다섯 -2695
▁원칙 -2696
▁공산당 -2697
▁항상 -2698
▁ㅂㅏㄷㅇㅏㄷㅡㄹ -2699
▁전개 -2700
▁미치 -2701
▁핀란드 -2702
▁거래 -2703
▁후지 -2704
▁확보 -2705
▁채택 -2706
▁성인 -2707
▁토론 -2708
▁수단 -2709
▁회복 -2710
▁잭 -2711
▁필리핀 -2712
▁공업 -2713
마스 -2714
▁섭 -2715
▁수립 -2716
▁강의 -2717
▁증거 -2718
▁잡지 -2719
▁아시안 -2720
테르 -2721
▁드래 -2722
주교 -2723
▁남아 -2724
ch -2725
▁ㄷㅏㄴ -2726
▁첨 -2727
▁ㅊㅏㅈ -2728
▁39 -2729
▁ㅈㅔ -2730
▁남편 -2731
▁ㅅㅐ -2732
▁400 -2733
▁ㄷㅓㄹ -2734
▁개편 -2735
▁매년 -2736
▁얼굴 -2737
▁합의 -2738
▁스파 -2739
▁기지 -2740
▁일원 -2741
▁그래서 -2742
▁만족 -2743
ㅇㅛ -2744
ㅇㅜㄹ -2745
▁의료 -2746
▁사례 -2747
▁선생 -2748
ㄷㅏㄹ -2749
고리 -2750
바이 -2751
▁시인 -2752
▁꿈 -2753
▁나카 -2754
▁스위스 -2755
▁폭발 -2756
▁부근 -2757
▁ㄴㅐㅆ -2758
▁이스라 -2759
▁ㄷㅚㅁ -2760
▁1985 -2761
▁모스크 -2762
▁간주 -2763
▁64 -2764
▁장비 -2765
▁이승 -2766
로드 -2767
▁ㅅㅓㄴ -2768
▁대형 -2769
▁종종 -2770
▁ㄹㅏㅁㅕ -2771
데미 -2772
▁끼 -2773
▁붉 -2774
▁대기 -2775
▁군단 -2776
▁답 -2777
▁스리 -2778
▁띠 -2779
▁경주 -2780
ay -2781
▁토지 -2782
▁장면 -2783
ir -2784
▁아주 -2785
▁불가 -2786
▁이스라엘 -2787
▁규칙 -2788
▁분자 -2789
▁욕 -2790
▁항성 -2791
▁종이 -2792
▁롭 -2793
▁어린 -2794
▁게이 -2795
▁경향 -2796
▁II -2797
▁ㄱㅡㄹㅕ -2798
ut -2799
▁수원 -2800
▁ㅇㅕㄹㄹㅕㅆ -2801
▁알리 -2802
▁조합 -2803
▁낭 -2804
▁캄 -2805
백질 -2806
▁ㅂㅜㄹㄹㅓㅆ -2807
▁아랍 -2808
▁꾸 -2809
▁해체 -2810
키아 -2811
▁귀국 -2812
ㅏㄷㅗ -2813
▁진화 -2814
고기 -2815
▁탑재 -2816
▁확실 -2817
▁레코드 -2818
um -2819
▁ㅇㅔㄱㅔㅅㅓ -2820
▁그곳 -2821
우드 -2822
▁ㄴㅡ -2823
▁쉬 -2824
레이드 -2825
▁강점 -2826
▁버리 -2827
▁ㅇㅣㄹㅇㅓㄴㅏㅆ -2828
▁대장 -2829
▁이제 -2830
▁43 -2831
▁기억 -2832
▁아카데미 -2833
▁서양 -2834
▁br -2835
▁기대 -2836
▁짐 -2837
▁향상 -2838
▁평양 -2839
▁신화 -2840
▁세우 -2841
▁장식 -2842
▁아나 -2843
▁스피 -2844
▁좀 -2845
▁클래 -2846
▁투어 -2847
▁아메리카 -2848
▁고양 -2849
▁ㅌㅐㅇㅓㄴㅏㄴ -2850
im -2851
▁청소년 -2852
▁침공 -2853
▁틀 -2854
▁란 -2855
▁보장 -2856
▁의학 -2857
▁융 -2858
▁박쥐 -2859
▁어떻 -2860
▁42 -2861
▁청나라 -2862
▁ㄸㅓㄹㅇㅓㅈㅕ -2863
▁ㅎㅐㄷㅗ -2864
요시 -2865
▁만큼 -2866
▁ㅂㅗㄴㅐ -2867
▁고구려 -2868
▁사후 -2869
▁폼 -2870
▁랭 -2871
▁카운티 -2872
▁불과 -2873
▁남동 -2874
오스 -2875
▁선고 -2876
▁메이저 -2877
▁켄 -2878
▁자금 -2879
▁가사 -2880
▁에피 -2881
▁보병 -2882
▁카메 -2883
ㅏㅈㅕ -2884
네스 -2885
보드 -2886
▁잠시 -2887
ver -2888
▁성과 -2889
▁소년 -2890
▁신설 -2891
▁ㅅㅔㅇㅜㄴ -2892
▁스타일 -2893
라비아 -2894
▁나치 -2895
▁1982 -2896
▁이끄 -2897
▁빠르 -2898
▁감정 -2899
▁독자 -2900
▁고문 -2901
▁맛 -2902
▁단백질 -2903
▁ㄱㅡ -2904
ㅇㅣㄹ -2905
▁만주 -2906
타인 -2907
▁55 -2908
▁살해 -2909
에르 -2910
▁우선 -2911
라노 -2912
▁라틴 -2913
▁중화민국 -2914
▁단지 -2915
▁숭 -2916
▁우수 -2917
▁확정 -2918
▁편입 -2919
▁스카 -2920
▁철도역 -2921
틀랜드 -2922
▁ㄸㅏㄹㅏㅅㅓ -2923
▁ㅇㅏㄹㄹㅕㅈㅕㅆ -2924
▁함대 -2925
네시아 -2926
▁신앙 -2927
▁ㅇㅢㅎㅐㅅㅓ -2928
▁복잡 -2929
▁스케 -2930
▁지시 -2931
▁광역시 -2932
▁모르 -2933
▁나폴 -2934
▁ㄱㅏㅈㅊㅜㄴ -2935
▁차별 -2936
▁비율 -2937
▁의장 -2938
▁1983 -2939
▁왕위 -2940
▁덴마크 -2941
▁예상 -2942
다이 -2943
▁i -2944
▁44 -2945
▁세종 -2946
▁재단 -2947
ㅅㅓㅆ -2948
▁태풍 -2949
▁창설 -2950
▁온라인 -2951
▁구체 -2952
▁마크 -2953
누스 -2954
▁삭 -2955
▁법인 -2956
▁LG -2957
일러 -2958
▁ㄸㅟㅇㅓㄴㅏㄴ -2959
▁고향 -2960
▁검찰 -2961
▁공유 -2962
▁전설 -2963
▁ㄷㅏㅇㅎㅏㄴ -2964
▁성당 -2965
▁나뉘 -2966
▁전화 -2967
▁ㅆㅡㅇㅣㄴㄷㅏ -2968
FC -2969
▁역대 -2970
▁동의 -2971
ㅇㅡㄹ -2972
▁브리 -2973
▁선거구 -2974
▁ㄱㅡㄹㅣㄴ -2975
▁참석 -2976
▁ㅁㅜㄹㄹ -2977
▁대립 -2978
▁반도 -2979
▁솔로 -2980
하라 -2981
▁육상 -2982
▁판결 -2983
▁47 -2984
트라 -2985
▁킬 -2986
▁보급 -2987
▁삼국 -2988
▁브랜드 -2989
▁ㅅㅣㅋㅣㄹ -2990
▁하늘 -2991
운동 -2992
▁수출 -2993
▁유학 -2994
싱턴 -2995
▁ㄱㅓㄴㄴ -2996
▁ㅎㅏㅂ -2997
의회 -2998
▁고정 -2999
▁ㄴㅏㅇㅘ -3000
▁ㅎㅐㅆㅇㅓㅆ -3001
▁노예 -3002
이크 -3003
▁저장 -3004
▁이루어지 -3005
▁ㄴㅑ -3006
비드 -3007
▁협상 -3008
▁ㅇㅗㄹㄹㅕㅆ -3009
▁후손 -3010
▁핵심 -3011
▁집행 -3012
▁카를 -3013
▁애플 -3014
▁ㅌㅗㅇㅎㅏㄴ -3015
▁본격 -3016
▁75 -3017
없이 -3018
▁보안 -3019
▁강점기 -3020
▁오픈 -3021
▁180 -3022
▁산맥 -3023
오프 -3024
▁184 -3025
▁초반 -3026
▁ㄴㅔ -3027
▁앞두 -3028
▁탄생 -3029
▁자세 -3030
▁Z -3031
▁마드리 -3032
▁회전 -3033
▁중반 -3034
▁대비 -3035
▁사전 -3036
▁암살 -3037
▁대항 -3038
셔널 -3039
원군 -3040
반도 -3041
▁숫 -3042
각형 -3043
▁주교 -3044
▁연고 -3045
▁옷 -3046
▁이성 -3047
▁듯 -3048
▁까 -3049
문화 -3050
▁헤이 -3051
▁1972 -3052
▁ㅈㅣㄴㅏ -3053
▁로버트 -3054
▁아르헨 -3055
▁마드리드 -3056
▁베이스 -3057
▁사라 -3058
▁법칙 -3059
▁플랫 -3060
▁권한 -3061
▁ㅊㅏㅈㅇㅏ -3062
▁지키 -3063
리스트 -3064
어들 -3065
▁ㅂㅜ -3066
▁어린이 -3067
▁켈 -3068
▁전혀 -3069
▁프란 -3070
▁공학 -3071
소드 -3072
▁단일 -3073
▁46 -3074
▁사우 -3075
▁전용 -3076
▁순서 -3077
▁의무 -3078
ㅇㅏㄴ -3079
▁공기 -3080
▁이란 -3081
▁1920 -3082
▁ㄷㅜㄴ -3083
▁말기 -3084
▁이익 -3085
▁베를 -3086
▁아르헨티나 -3087
▁직원 -3088
▁조금 -3089
▁ㅎㅡㄹ -3090
▁인상 -3091
▁떨 -3092
으키 -3093
레이션 -3094
▁유적 -3095
▁요한 -3096
▁시각 -3097
▁수여 -3098
▁중심지 -3099
▁운전 -3100
▁공포 -3101
CA -3102
터리 -3103
▁1979 -3104
▁ㄹㅣ -3105
▁별도 -3106
▁빨 -3107
▁ㄹㅏㅁㅕㄴ -3108
▁사항 -3109
▁아스 -3110
▁아미 -3111
▁흔히 -3112
▁비난 -3113
▁보조 -3114
▁전라북도 -3115
▁스크 -3116
▁잘못 -3117
▁효소 -3118
▁상품 -3119
▁협정 -3120
▁워싱턴 -3121
▁글로 -3122
▁롯 -3123
▁원주 -3124
▁변호사 -3125
▁전후 -3126
▁CD -3127
▁을 -3128
▁kg -3129
▁쌓 -3130
▁관료 -3131
▁아파 -3132
▁ㄷㅡㅅ -3133
▁ㅇㅔㅅㅓㄴ -3134
▁통계 -3135
▁파크 -3136
▁인권 -3137
▁창조 -3138
▁방면 -3139
▁우크 -3140
정부 -3141
ㅁㅏ -3142
▁1930 -3143
▁튀 -3144
ㅕㄴ -3145
▁작곡가 -3146
ra -3147
퍼드 -3148
▁투입 -3149
▁ㅍㅓ -3150
▁레드 -3151
▁ㄴㅗㅎ -3152
▁1981 -3153
▁ㄴㅡㄲ -3154
▁In -3155
▁소식 -3156
▁장착 -3157
▁저서 -3158
▁ㅈㅓㅂ -3159
▁금메달 -3160
▁현장 -3161
무라 -3162
▁1973 -3163
▁심각 -3164
ㄹㄹㅕㅆ -3165
▁항복 -3166
▁텐 -3167
▁정복 -3168
▁셋 -3169
▁아침 -3170
▁150 -3171
▁드러 -3172
▁하드 -3173
▁호텔 -3174
▁훨 -3175
▁벡 -3176
사키 -3177
▁공무원 -3178
▁중세 -3179
▁엠 -3180
퍼스 -3181
10 -3182
▁강하 -3183
▁니콜 -3184
▁본인 -3185
▁갈등 -3186
▁ㅈㅜㄱ -3187
리어 -3188
▁숨 -3189
▁헨리 -3190
▁교류 -3191
▁공화 -3192
▁건국 -3193
▁노스 -3194
▁교토 -3195
▁공산주의 -3196
▁훨씬 -3197
▁오히 -3198
▁오른쪽 -3199
▁마이클 -3200
os -3201
▁어떻게 -3202
▁요새 -3203
▁중부 -3204
▁논의 -3205
▁성경 -3206
▁출마 -3207
▁v -3208
▁오랜 -3209
▁김정 -3210
▁코미 -3211
▁산하 -3212
▁빙 -3213
▁무리 -3214
▁플레이어 -3215
▁유전자 -3216
▁세인트 -3217
▁한때 -3218
▁건조 -3219
▁왼쪽 -3220
▁플라 -3221
▁인정받 -3222
▁인류 -3223
▁연합군 -3224
▁오토 -3225
▁창립 -3226
▁추측 -3227
▁서기 -3228
▁방출 -3229
▁금속 -3230
▁로드 -3231
▁1940 -3232
▁베이징 -3233
30 -3234
▁예산 -3235
▁원작 -3236
▁투쟁 -3237
▁끊 -3238
▁성질 -3239
▁주위 -3240
▁1974 -3241
▁태국 -3242
▁185 -3243
BO -3244
▁노르웨이 -3245
▁릴 -3246
▁형사 -3247
em -3248
▁에피소드 -3249
▁북서 -3250
일보 -3251
▁에어 -3252
▁제자 -3253
▁일으키 -3254
▁군수 -3255
▁복합 -3256
▁열리 -3257
▁코스 -3258
▁사령관 -3259
▁사태 -3260
ter -3261
▁플레이오프 -3262
▁운용 -3263
▁효율 -3264
▁모스크바 -3265
▁ㅂㅐㅇ -3266
▁논쟁 -3267
▁ㅂㅣㄴ -3268
ㅗㅊ -3269
▁오전 -3270
▁절대 -3271
▁멸망 -3272
▁정비 -3273
▁SBS -3274
▁반복 -3275
▁집안 -3276
▁구별 -3277
▁제출 -3278
▁입자 -3279
▁전철 -3280
▁스코틀랜드 -3281
카와 -3282
▁해양 -3283
▁노부 -3284
▁합성 -3285
▁ㄴㅐㄹㅕㅆ -3286
▁1948 -3287
▁메시 -3288
▁숫자 -3289
▁사법 -3290
▁인종 -3291
▁연산 -3292
▁주기 -3293
▁거절 -3294
▁ㄷㅔㄹ -3295
▁탁 -3296
▁미니 -3297
▁블루 -3298
▁포위 -3299
▁흡수 -3300
듀서 -3301
▁이어지 -3302
▁프로듀서 -3303
머스 -3304
▁54 -3305
▁각본 -3306
▁중대 -3307
▁출장 -3308
▁1968 -3309
▁댄 -3310
▁인조 -3311
▁ㅂㅜㄹㄹㅕㅆ -3312
▁델 -3313
▁인공 -3314
▁오히려 -3315
▁마침 -3316
▁원리 -3317
ㄹㅓ -3318
▁연관 -3319
▁ㅅㅣㅋㅣㄴㄷㅏ -3320
▁활발 -3321
▁1976 -3322
▁시점 -3323
▁웨스트 -3324
▁목사 -3325
▁베를린 -3326
▁슬로 -3327
▁ㄸㅏ -3328
도르 -3329
▁수송 -3330
▁경성 -3331
라크 -3332
▁포기 -3333
▁해상 -3334
▁ㅂㅜㅌㅇㅕ -3335
▁신체 -3336
▁개시 -3337
▁소녀 -3338
▁전공 -3339
▁이민 -3340
▁북동 -3341
▁출입 -3342
▁건립 -3343
▁취급 -3344
다리 -3345
▁인터뷰 -3346
▁주전 -3347
▁1975 -3348
▁보스 -3349
▁ㅂㅏㄲㅇㅔ -3350
▁지니 -3351
▁ㄷㅡㄹㅇㅓㄱㅏㅆ -3352
▁우스 -3353
▁음력 -3354
▁사령부 -3355
▁읍 -3356
▁파라 -3357
▁명성 -3358
▁가로 -3359
▁디스 -3360
▁고용 -3361
▁ㄹㅏㅇ -3362
▁히데 -3363
op -3364
데스 -3365
시스 -3366
▁국도 -3367
▁축제 -3368
▁동원 -3369
▁트랙 -3370
▁ㅌㅗㅇㅎㅐㅅㅓ -3371
▁취득 -3372
▁분쟁 -3373
▁활성 -3374
나이티 -3375
▁영화제 -3376
▁농민 -3377
▁어렵 -3378
▁프라 -3379
ㅡㅁㄷㅏ -3380
▁장악 -3381
▁주택 -3382
▁ㅇㅏㄹㅡㅁㄷㅏ -3383
▁유나이티 -3384
▁신성 -3385
▁비록 -3386
▁빼 -3387
▁1978 -3388
▁1971 -3389
▁ㅈㅣㅋ -3390
▁56 -3391
▁생기 -3392
▁구속 -3393
▁갤 -3394
▁미드 -3395
▁국장 -3396
ag -3397
▁죽이 -3398
▁총독 -3399
▁진보 -3400
▁ㄴㅐㄴ -3401
▁보컬 -3402
▁일치 -3403
▁고유 -3404
▁견해 -3405
▁소스 -3406
▁1963 -3407
▁ㄹㅏㄷㅗ -3408
▁전부 -3409
서트 -3410
▁ㅅㅗㄱㅎㅏㄴㄷㅏ -3411
▁52 -3412
산시 -3413
에트 -3414
▁불법 -3415
▁유물 -3416
▁북아 -3417
▁직전 -3418
▁부활 -3419
▁ㄴㅏㄹ -3420
▁후원 -3421
▁49 -3422
▁보험 -3423
▁관점 -3424
▁자이 -3425
▁한자 -3426
▁하위 -3427
▁ㅎㅐㅈㅕㅆ -3428
쿠라 -3429
▁폭력 -3430
▁코미디 -3431
▁65 -3432
키스탄 -3433
▁ㅈㅣㄴㅐㄴ -3434
▁포도 -3435
▁정체 -3436
▁ㄷㅓㄹㅏㄷㅗ -3437
▁교차 -3438
▁학습 -3439
▁연료 -3440
▁주관 -3441
▁도달 -3442
▁여객철도 -3443
▁떠나 -3444
▁편지 -3445
▁대리 -3446
▁닌 -3447
▁혼란 -3448
▁타이완 -3449
▁약속 -3450
▁수술 -3451
▁이기 -3452
메리 -3453
▁철수 -3454
세이 -3455
▁항공기 -3456
▁아테 -3457
▁상당히 -3458
ce -3459
▁ㅈㅣㄴㄷㅏ -3460
▁1969 -3461
▁관직 -3462
▁시리아 -3463
▁ㅇㅣㄹㅇㅡㅋㅕㅆ -3464
▁천체 -3465
▁179 -3466
▁둥 -3467
▁한국어 -3468
▁반영 -3469
▁여부 -3470
▁Q -3471
기에 -3472
릭스 -3473
▁직업 -3474
▁선교 -3475
젤레스 -3476
▁취하 -3477
▁고종 -3478
▁하나님 -3479
▁본사 -3480
▁백제 -3481
▁수집 -3482
▁임금 -3483
자기 -3484
▁그리스도 -3485
리케 -3486
▁미나 -3487
▁ㅇㅐㄴ -3488
▁명명 -3489
▁ㄸㅓㄴㅏㅆ -3490
▁00 -3491
▁장교 -3492
▁브레 -3493
ㅓㅈㅣㄴ -3494
▁넷 -3495
▁제어 -3496
▁상륙 -3497
▁팝 -3498
▁데이비드 -3499
▁의존 -3500
▁논리 -3501
▁테러 -3502
▁성능 -3503
▁1946 -3504
▁주간 -3505
▁예비 -3506
▁ㅆㅡㄹ -3507
▁보관 -3508
▁무엇 -3509
▁화물 -3510
▁아사 -3511
▁내리 -3512
▁ㄷㅏㅁㅕ -3513
▁심리 -3514
▁영업 -3515
▁부임 -3516
▁일대 -3517
▁백작 -3518
▁학술 -3519
▁프리미 -3520
▁대화 -3521
▁톰 -3522
▁스미 -3523
▁폴리 -3524
공항 -3525
OS -3526
▁소방 -3527
▁주식회사 -3528
▁불상 -3529
▁도구 -3530
아내 -3531
▁콘서트 -3532
▁해산 -3533
▁정지 -3534
▁53 -3535
▁교환 -3536
▁전파 -3537
▁십자 -3538
▁개체 -3539
▁연재 -3540
▁프로세 -3541
▁허가 -3542
▁스마 -3543
▁하우스 -3544
▁접하 -3545
이어 -3546
▁전문가 -3547
▁제일 -3548
▁코로나 -3549
▁박정 -3550
oc -3551
미터 -3552
▁ㅁㅓㅁ -3553
▁반발 -3554
▁1964 -3555
▁정원 -3556
▁ㄹㅗㅇㅜㄴ -3557
▁대략 -3558
▁자살 -3559
▁판서 -3560
▁핑 -3561
▁니시 -3562
▁방사 -3563
▁충청북도 -3564
▁헤르 -3565
▁그런데 -3566
▁살인 -3567
▁영향력 -3568
▁간단 -3569
▁ㅃㅏㄹㅡㄴ -3570
▁진입 -3571
▁ㄲㅡㅌㄴ -3572
▁화성 -3573
▁ㅂㅜㄹㄹㅓ -3574
프리 -3575
▁거기 -3576
▁김영 -3577
▁상승 -3578
▁보건 -3579
ㅈㅜㄴㄷㅏ -3580
▁ㄱㅓㄷ -3581
▁재료 -3582
▁베스트 -3583
▁공통 -3584
▁안타 -3585
병대 -3586
▁리스 -3587
▁학부 -3588
▁미터 -3589
뿌리 -3590
ㅅㅡㄹ -3591
▁ㄱㅏㄴ -3592
▁겐 -3593
▁신분 -3594
▁벨기에 -3595
▁소비에트 -3596
▁US -3597
▁항구 -3598
▁포트 -3599
▁영입 -3600
▁서버 -3601
▁피아노 -3602
▁바라 -3603
▁and -3604
▁승진 -3605
▁사장 -3606
▁국제공항 -3607
ri -3608
▁가을 -3609
▁학원 -3610
▁지붕 -3611
▁파트 -3612
▁인도네시아 -3613
▁꼭 -3614
▁58 -3615
▁부장 -3616
▁외국인 -3617
▁그레 -3618
▁고리 -3619
▁기도 -3620
▁진압 -3621
▁학회 -3622
▁99 -3623
▁시호 -3624
▁1000 -3625
노스 -3626
▁ㄹㅔ -3627
▁스프 -3628
ㅏㅈㅕㅆ -3629
▁사운드 -3630
▁질병 -3631
▁루이스 -3632
▁랜 -3633
어스 -3634
▁ㅇㅏㅇㅑ -3635
▁횡 -3636
▁발언 -3637
▁스토 -3638
▁아라 -3639
▁구성원 -3640
하마 -3641
▁ㅂㅏㄹ -3642
▁콤 -3643
▁창단 -3644
▁현역 -3645
▁저지 -3646
▁브루 -3647
▁주년 -3648
▁탈출 -3649
▁참전 -3650
▁채용 -3651
▁식품 -3652
▁계통 -3653
▁복무 -3654
▁공동체 -3655
▁리더 -3656
▁변환 -3657
▁탈락 -3658
▁트랜 -3659
▁감사 -3660
▁임대 -3661
▁한반도 -3662
▁응용 -3663
▁픽 -3664
▁PC -3665
저우 -3666
▁통상 -3667
▁합격 -3668
▁의도 -3669
▁1977 -3670
▁찍 -3671
▁요코 -3672
▁ㄱㅓㄴㄴㅓ -3673
▁모드 -3674
▁작사 -3675
▁장수 -3676
▁민법 -3677
▁임의 -3678
천군 -3679
다가 -3680
아버지 -3681
▁벼 -3682
▁ㄷㅡㄹㅇㅓㄱㅏ -3683
▁망명 -3684
▁고도 -3685
▁친일 -3686
▁문헌 -3687
▁조작 -3688
▁신청 -3689
▁말레이 -3690
▁SK -3691
▁위반 -3692
아들 -3693
▁롯데 -3694
▁포로 -3695
▁페이 -3696
▁1949 -3697
▁화면 -3698
▁ㅅㅡㄹㅓㅇㅜㄴ -3699
▁로스앤 -3700
▁로스앤젤레스 -3701
▁마케 -3702
성군 -3703
▁흐르 -3704
▁에도 -3705
▁문장 -3706
▁트라 -3707
▁방송국 -3708
▁부부 -3709
▁라이트 -3710
▁학과 -3711
igh -3712
▁동남 -3713
▁탄소 -3714
▁저작 -3715
문화재 -3716
▁이치 -3717
▁ㅂㅗㄴㅐㄴ -3718
▁FA -3719
▁트로 -3720
▁ㅍㅣ -3721
▁변형 -3722
▁88 -3723
▁선조 -3724
▁연출 -3725
▁배출 -3726
▁분열 -3727
▁절차 -3728
▁캠퍼스 -3729
▁1962 -3730
▁수영 -3731
▁상원 -3732
▁청구 -3733
▁예측 -3734
▁ㅇㅣㄹㅝ -3735
정식 -3736
▁수소 -3737
려움 -3738
▁자녀 -3739
▁엑스 -3740
▁.. -3741
▁시카 -3742
▁메모리 -3743
▁요인 -3744
▁주둔 -3745
▁코파 -3746
▁62 -3747
ation -3748
▁레오 -3749
▁조절 -3750
▁1967 -3751
▁신인 -3752
▁누구 -3753
▁택 -3754
▁전동 -3755
▁이중 -3756
▁ㅌㅐㅇㅓㄴㅏㅆㅇㅡㅁㅕ -3757
드시 -3758
▁레스 -3759
▁큐 -3760
▁기호 -3761
▁정기 -3762
▁기하 -3763
▁막부 -3764
▁선전 -3765
▁화재 -3766
카이도 -3767
▁국무 -3768
▁좁 -3769
▁ㅅㅣㅁ -3770
타르 -3771
▁처형 -3772
▁로켓 -3773
▁출간 -3774
▁서원 -3775
▁r -3776
▁호수 -3777
ㅅㅓㄴ -3778
크스 -3779
로그 -3780
페라 -3781
▁57 -3782
▁수리 -3783
▁실수 -3784
▁이승만 -3785
▁ㅇㅛ -3786
▁스럽 -3787
▁광장 -3788
천시 -3789
▁방지 -3790
▁남서 -3791
▁증상 -3792
▁황금 -3793
▁이시 -3794
▁달하 -3795
▁어떠 -3796
▁기법 -3797
▁동작 -3798
▁취소 -3799
▁오스만 -3800
▁카메라 -3801
▁루트 -3802
▁지급 -3803
▁흑인 -3804
▁앵 -3805
▁연안 -3806
▁왕자 -3807
▁동성 -3808
▁You -3809
▁장르 -3810
▁흉 -3811
▁콘스탄 -3812
라드 -3813
▁생존 -3814
브리 -3815
▁개조 -3816
▁서구 -3817
▁ㄴㅏㅁㄱㅕㅆ -3818
▁등지 -3819
▁현지 -3820
▁Ch -3821
바르 -3822
▁롱 -3823
포르 -3824
▁ㄴㅡㄴㄱㅏ -3825
▁히트 -3826
▁위상 -3827
▁고지 -3828
▁ㄴㅜ -3829
▁농구 -3830
▁기체 -3831
▁여단 -3832
▁좌우 -3833
▁반드시 -3834
▁ㅆㅓ -3835
▁전주 -3836
▁임진 -3837
▁ㄴㅏㄱㅏㅆ -3838
▁천연 -3839
▁공정 -3840
ㅟㄴㄷㅏ -3841
▁진주 -3842
▁크리 -3843
▁일본군 -3844
▁ㄴㅏㅌㅏㄴㅏㅆ -3845
아오 -3846
▁희망 -3847
▁제대로 -3848
▁무덤 -3849
▁181 -3850
비치 -3851
▁터널 -3852
▁톱 -3853
▁ㅊㅣㄹㅓㅆ -3854
▁동아 -3855
▁전면 -3856
▁도전 -3857
▁분명 -3858
▁코르 -3859
▁싸움 -3860
ㄱㅣㄹ -3861
▁파악 -3862
방송 -3863
▁ㄷㅚㄴㄷㅏㄴㅡㄴ -3864
▁스탠 -3865
▁1966 -3866
▁둘째 -3867
▁압력 -3868
▁전형 -3869
nd -3870
▁특이 -3871
▁녹색 -3872
▁66 -3873
▁짜 -3874
▁%, -3875
▁글자 -3876
▁이온 -3877
▁미국인 -3878
▁ㄷㅜㄹㄹㅓㅆ -3879
▁ㅇㅣㅂㄴㅣㄷㅏ -3880
▁그레이 -3881
▁경로 -3882
▁ㅁㅗㅇㅏ -3883
▁독립운동 -3884
▁독특 -3885
▁바둑 -3886
▁리처 -3887
라이언 -3888
▁ㅁㅗㅇㅕ -3889
▁매일 -3890
▁노벨 -3891
▁법정 -3892
바라 -3893
▁1965 -3894
▁해리 -3895
▁방정식 -3896
▁아프 -3897
▁에르 -3898
▁KBO -3899
▁68 -3900
▁목소리 -3901
▁부사 -3902
▁183 -3903
티브 -3904
▁타임 -3905
▁유기 -3906
▁물체 -3907
▁ㅊㅟ -3908
▁인지 -3909
더스 -3910
에이 -3911
▁성향 -3912
▁신뢰 -3913
▁체코 -3914
▁뿌리 -3915
▁개신 -3916
ㄹㄹㅣㄴ -3917
▁동기 -3918
▁ㅁㅗㄹ -3919
▁즐 -3920
▁61 -3921
▁나들 -3922
▁알렉산드 -3923
▁일식 -3924
▁클레 -3925
▁돌아가 -3926
치아 -3927
▁분해 -3928
▁지리 -3929
▁처벌 -3930
ST -3931
▁밥 -3932
베스 -3933
▁간행 -3934
▁일찍 -3935
▁ㅇㅣㄴㄱㅏ -3936
▁퀸 -3937
▁유행 -3938
▁타격 -3939
▁김일 -3940
르타 -3941
▁찰스 -3942
▁분할 -3943
▁홋 -3944
▁방해 -3945
▁화산 -3946
▁실질 -3947
▁완료 -3948
이치 -3949
▁ㅇㅣㄹㅜㄴㄷㅏ -3950
▁풍부 -3951
▁추구 -3952
▁내전 -3953
▁사립 -3954
▁ㄲㅡㅌㄴㅏㄴ -3955
▁범주 -3956
▁구하 -3957
▁손자 -3958
ㅏㅈㅣㄴ -3959
▁싸우 -3960
▁묵 -3961
▁나들목 -3962
질랜드 -3963
▁아동 -3964
▁맞이 -3965
▁우려 -3966
▁평등 -3967
▁ㅈㅓㅇㅎㅐ -3968
▁던 -3969
▁ㅂㅘ -3970
▁순환 -3971
▁먹이 -3972
▁복지 -3973
▁1961 -3974
▁삽 -3975
▁뉴질랜드 -3976
▁아리 -3977
▁대개 -3978
ㅅㅔ -3979
먼트 -3980
▁웅 -3981
▁별명 -3982
▁갈색 -3983
▁희생 -3984
▁마르크 -3985
ER -3986
▁플래 -3987
▁아파트 -3988
▁비평 -3989
▁ㅈㅣㄴㅣㄴ -3990
art -3991
▁800 -3992
▁부진 -3993
▁ㅌㅏ -3994
▁오프 -3995
▁흰 -3996
▁ㅁㅏㄴㄴㅏ -3997
▁ㅂㅓㄹㅕㅆ -3998
▁최다 -3999
▁마침내 -4000
▁닥 -4001
ice -4002
▁리가 -4003
▁시조 -4004
▁분기 -4005
▁파르 -4006
▁가까 -4007
▁집권 -4008
▁가상 -4009
▁올라 -4010
▁창원 -4011
▁600 -4012
▁시드 -4013
▁ㅎㅑㅇㅎㅐ -4014
▁전원 -4015
▁점점 -4016
▁한정 -4017
▁사냥 -4018
▁향하 -4019
▁첼 -4020
▁86 -4021
▁구현 -4022
ON -4023
▁기둥 -4024
▁대법 -4025
▁한계 -4026
▁마시 -4027
▁모형 -4028
▁판사 -4029
▁가시 -4030
▁완공 -4031
▁벡터 -4032
▁IS -4033
유럽 -4034
▁120 -4035
▁근본 -4036
▁테이 -4037
▁메리 -4038
텐츠 -4039
▁훗 -4040
▁중기 -4041
▁ㄴㅏㅌㅏㄴㅏㄴㄷㅏ -4042
▁명확 -4043
▁부하 -4044
▁웨이 -4045
▁프린 -4046
▁스토리 -4047
▁사임 -4048
▁충격 -4049
▁확산 -4050
▁의지 -4051
▁교향 -4052
▁날개 -4053
est -4054
▁일본인 -4055
▁분위 -4056
틀러 -4057
▁무게 -4058
▁오페라 -4059
▁늦 -4060
은행 -4061
투스 -4062
피스 -4063
▁사원 -4064
▁출범 -4065
▁맞추 -4066
▁대공 -4067
▁물리학 -4068
▁단독 -4069
▁1919 -4070
▁사형 -4071
ia -4072
▁사마 -4073
▁re -4074
▁호주 -4075
▁캔 -4076
▁레인 -4077
디션 -4078
▁카라 -4079
▁닛 -4080
▁상위 -4081
▁마법 -4082
▁뚜 -4083
▁명나라 -4084
▁ㅅㅐㅇㄱㅕ -4085
▁ㅁㅏㅈㅊ -4086
리히 -4087
▁가나 -4088
▁이자 -4089
▁통산 -4090
▁알파 -4091
▁제이 -4092
ap -4093
▁의혹 -4094
▁렀 -4095
▁98 -4096
▁연구원 -4097
TV -4098
▁적절 -4099
▁훌 -4100
▁편찬 -4101
▁ㄷㅚㄴㄷㅏㄱㅗ -4102
▁악화 -4103
▁모토 -4104
▁서명 -4105
▁ㅇㅡㄹㅕ -4106
▁ㄴㅏㅆ -4107
▁1944 -4108
▁당초 -4109
▁의심 -4110
▁유치 -4111
▁조종 -4112
▁영웅 -4113
▁끝나 -4114
사스 -4115
▁넓이 -4116
▁꺾 -4117
▁인접 -4118
ak -4119
▁문명 -4120
▁발굴 -4121
라이나 -4122
▁무시 -4123
▁ㄷㅏㅁ -4124
▁새롭 -4125
▁도쿠 -4126
▁인증 -4127
▁회담 -4128
▁샘 -4129
▁연간 -4130
▁추천 -4131
▁포인트 -4132
▁함락 -4133
▁모임 -4134
▁저술 -4135
▁ㅇㅗㄹㄹㅕ -4136
▁ㄱㅗㄴ -4137
▁곽 -4138
▁사실상 -4139
ㅓㄴㅏㄹ -4140
▁자극 -4141
▁광복 -4142
사자 -4143
▁각지 -4144
▁접촉 -4145
▁개입 -4146
▁동서 -4147
▁징역 -4148
▁고속도로 -4149
ㅁㅊ -4150
▁포항 -4151
▁1941 -4152
▁프리미어 -4153
▁득표 -4154
▁ㅃㅏㅈㅕ -4155
▁63 -4156
▁홍보 -4157
▁독일군 -4158
▁사정 -4159
우리 -4160
▁ㄸㅓㄴㅏ -4161
▁세르비아 -4162
▁순수 -4163
▁밝히 -4164
▁골든 -4165
▁ㅌㅐㅇㅓㄴㅏ -4166
▁순간 -4167
▁드라이 -4168
▁95 -4169
▁악기 -4170
▁기온 -4171
AR -4172
연히 -4173
▁ㅅㅐㄱㅕ -4174
▁멘 -4175
▁기기 -4176
▁올해 -4177
▁루스 -4178
▁느끼 -4179
▁개막 -4180
▁탐사 -4181
▁뮤지 -4182
▁정하 -4183
▁74 -4184
▁구원 -4185
▁그때 -4186
▁그라 -4187
▁오랫 -4188
▁공로 -4189
▁ㅂㅗㅇㅎㅐ -4190
▁등판 -4191
▁임기 -4192
▁학살 -4193
민주 -4194
버그 -4195
숭이 -4196
▁여론 -4197
▁DNA -4198
▁59 -4199
▁경전 -4200
▁바위 -4201
▁시카고 -4202
▁ㄷㅗㅇㅘ -4203
▁성분 -4204
▁행렬 -4205
▁178 -4206
믹스 -4207
학생 -4208
▁이닝 -4209
▁Lo -4210
▁락 -4211
▁변수 -4212
무부 -4213
▁추산 -4214
▁한국인 -4215
▁수석 -4216
▁벗 -4217
▁실현 -4218
▁앤드 -4219
▁태도 -4220
ct -4221
▁닉 -4222
▁백성 -4223
▁예전 -4224
일리 -4225
▁팽 -4226
▁공헌 -4227
▁입법 -4228
▁보고서 -4229
대부 -4230
▁네이 -4231
▁자전 -4232
▁확률 -4233
▁언제 -4234
▁스마트 -4235
▁아티 -4236
▁양쪽 -4237
▁훗날 -4238
▁혼합 -4239
▁오랫동안 -4240
▁떨어지 -4241
▁페르시아 -4242
▁심사 -4243
ㅂㅗㅇ -4244
▁1958 -4245
▁튜 -4246
▁감시 -4247
▁프로그래 -4248
▁ㅂㅓㅅ -4249
▁미쓰 -4250
▁ㅈㅡㄹ -4251
▁방위 -4252
▁매장 -4253
▁IC -4254
ul -4255
▁ㅅㅣㄴ -4256
▁균형 -4257
▁ㅇㅕㅇㅑ -4258
▁뱅 -4259
ㅎㅣㄴ -4260
▁ㅍㅏㄹ -4261
▁특별시 -4262
러리 -4263
▁1947 -4264
▁에드워드 -4265
▁ㅎㅏㅂㅊㅕ -4266
▁왕실 -4267
▁피터 -4268
▁리처드 -4269
▁to -4270
▁160 -4271
▁출력 -4272
▁ㅋㅡㄹ -4273
▁82 -4274
▁침략 -4275
▁영지 -4276
코스 -4277
ㅗㅂㅎ -4278
▁개신교 -4279
▁내려 -4280
▁커뮤 -4281
▁원형 -4282
▁;/ -4283
▁신부 -4284
▁조별 -4285
▁ㅊㅣㄴ -4286
▁ㅎㅏㄴㄷㅏㅁㅕㄴ -4287
▁경남 -4288
▁76 -4289
▁대량 -4290
▁저녁 -4291
▁단편 -4292
▁분위기 -4293
▁다케 -4294
▁1956 -4295
▁줄기 -4296
▁자라 -4297
▁춤 -4298
이너 -4299
▁시사 -4300
▁안토 -4301
▁72 -4302
ㄱㅓㅇㅜㄴ -4303
▁여왕 -4304
▁ㄱㅕ -4305
▁랜드 -4306
▁승객 -4307
▁프라이 -4308
▁텍사스 -4309
▁멀리 -4310
ㅇㅡㅁ -4311
ㅝㄴ -4312
▁승부 -4313
▁그래픽 -4314
▁이라크 -4315
▁SS -4316
▁ㅇㅔㅅㅓㅂㅜㅌㅓ -4317
▁제사 -4318
▁권위 -4319
▁발발 -4320
▁대선 -4321
▁무사 -4322
▁미야 -4323
▁가와 -4324
▁타자 -4325
▁아이돌 -4326
▁ㅅㅏㄴ -4327
▁흐름 -4328
▁ㅇㅓㄹㅕㅇㅜㄴ -4329
리노 -4330
▁커뮤니 -4331
▁안동 -4332
▁ㅍㅐ -4333
ie -4334
▁재건 -4335
▁동명 -4336
▁마무 -4337
▁작위 -4338
▁프랑크 -4339
▁바깥 -4340
▁교구 -4341
▁복원 -4342
▁데스 -4343
ㄱㅎㅏㄴ -4344
▁확립 -4345
ㄹㄹㅏ -4346
▁77 -4347
▁참고 -4348
ㅇㅗㄹ -4349
▁입력 -4350
▁ㅂㅏㄷㅇㅏㄷㅡㄹㅇㅕ -4351
▁석유 -4352
▁과학자 -4353
▁일상 -4354
▁1939 -4355
▁ㅂㅔ -4356
▁테스트 -4357
▁ㅅㅗㄱㅎㅏㄴ -4358
▁ㅋㅣ -4359
▁잠수 -4360
▁축구단 -4361
▁67 -4362
레나 -4363
메리칸 -4364
▁점수 -4365
▁긍 -4366
▁Th -4367
▁ㅂㅏㄺㅎㅕㅈㅕㅆ -4368
▁폭탄 -4369
▁리버 -4370
▁시상 -4371
▁어깨 -4372
▁도요 -4373
▁침입 -4374
▁비상 -4375
▁수익 -4376
▁민중 -4377
▁복수 -4378
▁포켓 -4379
▁ㅊㅓ -4380
▁타워 -4381
▁ㅂㅓㄹㅇㅕㅆ -4382
▁당국 -4383
ud -4384
▁신자 -4385
▁복음 -4386
▁기소 -4387
▁일시 -4388
▁병합 -4389
▁사자 -4390
▁AFC -4391
▁브라운 -4392
▁한글 -4393
일스 -4394
▁시마 -4395
▁자식 -4396
▁주최 -4397
▁재배 -4398
ㅅㅜㄹ -4399
▁더블 -4400
ly -4401
레옹 -4402
og -4403
▁부지 -4404
▁ㄱㅏㅈㅣㄴㄷㅏ -4405
▁다운 -4406
▁대왕 -4407
▁도모 -4408
메이 -4409
▁본질 -4410
▁혁신 -4411
▁정수 -4412
▁신고 -4413
▁움직이 -4414
▁가공 -4415
▁빅토 -4416
▁연예 -4417
▁계층 -4418
▁보물 -4419
▁85 -4420
▁대성 -4421
▁나폴레옹 -4422
에른 -4423
ist -4424
▁가량 -4425
▁동양 -4426
▁사제 -4427
▁내셔널 -4428
▁지형 -4429
th -4430
▁1954 -4431
▁가담 -4432
▁심지 -4433
▁평안 -4434
▁공중 -4435
▁암호 -4436
▁창작 -4437
이센 -4438
▁어디 -4439
▁ㄷㅗㄹㅇㅏㅇㅘㅆ -4440
보이 -4441
마니아 -4442
▁힌 -4443
▁훈장 -4444
▁파워 -4445
▁우라 -4446
▁국기 -4447
▁빌보드 -4448
▁인쇄 -4449
레인 -4450
▁구글 -4451
▁폐쇄 -4452
▁후계 -4453
▁쌀 -4454
▁돕 -4455
왜란 -4456
▁임진왜란 -4457
▁노출 -4458
▁산화 -4459
아티아 -4460
▁크로아티아 -4461
▁그렇게 -4462
AS -4463
▁참모 -4464
▁ㅇㅏㅍㅅㅓ -4465
ight -4466
▁1952 -4467
▁평론 -4468
▁고기 -4469
▁ㅎㅣㅁ -4470
▁급제 -4471
▁총회 -4472
▁움직임 -4473
▁가설 -4474
▁비서 -4475
▁누르 -4476
▁ㅇㅏㄹㅡㅁㄷㅏㅇㅜㄴ -4477
▁탱 -4478
▁력 -4479
▁세리 -4480
▁다소 -4481
▁73 -4482
▁아테네 -4483
▁ㅁㅏㄴㄷㅡㄹ -4484
▁가이 -4485
▁실력 -4486
▁고통 -4487
▁전신 -4488
▁발음 -4489
▁라스 -4490
▁박정희 -4491
▁조조 -4492
▁스타디 -4493
▁동방 -4494
▁후속 -4495
조합 -4496
▁대지 -4497
▁오카 -4498
▁보상 -4499
▁람 -4500
▁96 -4501
▁타운 -4502
▁상관 -4503
▁따로 -4504
▁탈퇴 -4505
▁81 -4506
▁* -4507
▁뮤지컬 -4508
필더 -4509
▁뷰 -4510
▁절반 -4511
▁행복 -4512
▁미드필더 -4513
▁무한 -4514
▁수도원 -4515
바로 -4516
▁Al -4517
AT -4518
▁셔 -4519
▁국정 -4520
▁비례 -4521
▁뤼 -4522
▁장남 -4523
▁인용 -4524
▁청주 -4525
▁78 -4526
▁뽑 -4527
▁개설 -4528
▁로봇 -4529
▁ㄴㅏㄴㅟㄴㄷㅏ -4530
ㅂㅗㄹ -4531
시오 -4532
▁김대 -4533
▁재학 -4534
▁센트 -4535
▁화이트 -4536
▁도덕 -4537
▁전투기 -4538
▁피해자 -4539
마르 -4540
▁가까이 -4541
▁소득 -4542
▁이혼 -4543
▁ㅇㅗㄻㄱㅕㅆ -4544
▁젠 -4545
▁심장 -4546
▁화장 -4547
▁ㄱㅣㅇㅔ -4548
▁기리 -4549
▁김성 -4550
▁하인 -4551
▁안드로 -4552
▁중력 -4553
▁뮌 -4554
▁전남 -4555
▁전직 -4556
▁불만 -4557
너스 -4558
의정 -4559
▁아트 -4560
▁바닥 -4561
▁천안 -4562
▁여섯 -4563
▁손상 -4564
체스터 -4565
▁바이에른 -4566
▁ㄴㅏㅌㅏㄴㅐㄴㄷㅏ -4567
▁보르 -4568
▁블라 -4569
타이 -4570
▁산소 -4571
▁지향 -4572
▁202 -4573
▁묻 -4574
▁NH -4575
▁지사 -4576
▁1959 -4577
▁ㄲㅣ -4578
▁국군 -4579
▁생물학 -4580
▁포스트 -4581
▁교리 -4582
▁177 -4583
▁빌딩 -4584
하여 -4585
▁레알 -4586
▁질환 -4587
ess -4588
▁주력 -4589
▁윗 -4590
▁ㅁㅐ -4591
▁당나라 -4592
자치 -4593
▁Li -4594
▁백만 -4595
▁벌이 -4596
▁사무소 -4597
BA -4598
인물 -4599
▁문신 -4600
▁검토 -4601
▁상역 -4602
▁작동 -4603
▁콘스탄티 -4604
▁녀 -4605
▁피하 -4606
▁71 -4607
토스 -4608
▁ㄴㅡㄴㄷㅏㄴㅡㄴ -4609
▁부담 -4610
▁포스 -4611
▁와이 -4612
ㅁㅊㅓㅇ -4613
▁ㅇㅓㅁㅊㅓㅇ -4614
▁AT -4615
▁관여 -4616
▁패션 -4617
▁황후 -4618
직자 -4619
▁91 -4620
▁화합 -4621
▁사우스 -4622
▁인생 -4623
▁총장 -4624
▁피부 -4625
▁마무리 -4626
▁DV -4627
▁기상 -4628
▁호소 -4629
클리 -4630
▁신사 -4631
▁메시지 -4632
세포 -4633
▁유통 -4634
▁상실 -4635
▁결론 -4636
▁;, -4637
▁가마 -4638
▁선박 -4639
▁액션 -4640
▁사유 -4641
▁승려 -4642
▁깃 -4643
▁디아 -4644
▁설득 -4645
▁아웃 -4646
▁1942 -4647
▁하원 -4648
▁ㅊㅕ -4649
▁골드 -4650
▁가슴 -4651
가락 -4652
▁ㅇㅣㅇㅓㅈㅕㅆ -4653
쿠스 -4654
스트라 -4655
▁약물 -4656
▁ㅇㅕㄱㅕㅈㅣㄴㄷㅏ -4657
▁개방 -4658
▁역학 -4659
▁프로이센 -4660
▁오직 -4661
▁혼인 -4662
▁심지어 -4663
▁페이지 -4664
▁결의 -4665
▁분노 -4666
ㅊㅣㄹ -4667
▁글로벌 -4668
▁수요 -4669
▁햄 -4670
▁ㅅㅐㅇㄱㅣㄴ -4671
▁덜 -4672
▁동해 -4673
▁모바 -4674
▁좌상 -4675
▁규제 -4676
▁모터 -4677
▁연습 -4678
▁조카 -4679
▁ㄴㅏㅇㅏ -4680
▁김일성 -4681
▁디스크 -4682
▁가요 -4683
▁적합 -4684
▁ㅇㅓㅁㅊㅓㅇㄴㅏㄴ -4685
▁처분 -4686
▁매체 -4687
▁위키 -4688
나가 -4689
▁그린 -4690
미야 -4691
▁87 -4692
▁앉 -4693
▁진정 -4694
IV -4695
ㄱㅣㄴㄷㅏ -4696
▁이명 -4697
ub -4698
▁구매 -4699
▁진단 -4700
▁1943 -4701
ㄹㅣㄹ -4702
▁st -4703
▁159 -4704
▁왕비 -4705
▁ㅅㅟ -4706
▁비치 -4707
▁선임 -4708
▁심판 -4709
▁통화 -4710
▁ㄷㅓ -4711
▁ㄲㅡㄹ -4712
▁위대 -4713
가니 -4714
▁부산광역시 -4715
▁개성 -4716
▁홋카이도 -4717
▁ㄷㅗㄹㅇㅏㅇㅘ -4718
▁1955 -4719
▁끝내 -4720
▁말레이시아 -4721
▁띄 -4722
▁야스 -4723
▁원년 -4724
▁서식지 -4725
드리히 -4726
▁잭슨 -4727
▁ㄴㅏㅇㅗㄴㄷㅏ -4728
▁발탁 -4729
ㅏㅁ -4730
▁억제 -4731
▁스타디움 -4732
▁보살 -4733
IA -4734
▁소멸 -4735
▁쿠데 -4736
▁\ -4737
▁1953 -4738
▁드래프트 -4739
▁ㅇㅕㅆㅇㅡㄹ -4740
▁일기 -4741
▁프랭 -4742
▁퀴 -4743
▁예방 -4744
▁주석 -4745
▁테크 -4746
▁ㄱㅘㄴ -4747
▁왕후 -4748
▁1936 -4749
▁싱가 -4750
▁무료 -4751
▁싱가포르 -4752
▁크루 -4753
▁조지아 -4754
▁ㅇㅣㄹㅡㄴㄷㅏ -4755
미르 -4756
▁일컫 -4757
▁음악가 -4758
▁ㅈㅜㅇㅓㅈㅣㄴ -4759
▁긍정 -4760
▁사도 -4761
▁어려움 -4762
▁ㅈㅕㅆㅇㅡㅁㅕ -4763
▁ㅂㅓㄹㅇㅓㅈㅣㄴ -4764
ab -4765
▁덮 -4766
▁프리드리히 -4767
▁84 -4768
▁AP -4769
▁700 -4770
▁필드 -4771
▁톨 -4772
▁사격 -4773
▁일체 -4774
▁일본어 -4775
▁자이언 -4776
▁사무실 -4777
▁거듭 -4778
▁진영 -4779
▁폭격 -4780
▁유형문화재 -4781
▁티베 -4782
▁힙 -4783
▁태조 -4784
▁여우 -4785
▁유고 -4786
▁루마니아 -4787
▁이와 -4788
▁즉시 -4789
▁카스 -4790
▁모바일 -4791
▁궁전 -4792
▁정차 -4793
▁곱 -4794
▁세자 -4795
▁대책 -4796
▁인원 -4797
▁타인 -4798
▁천주교 -4799
▁불안 -4800
▁쿠데타 -4801
데이 -4802
▁1910 -4803
▁쾌 -4804
주군 -4805
▁기동 -4806
유산 -4807
▁창당 -4808
▁시나 -4809
▁ㄷㅔㄴ -4810
▁전북 -4811
▁ㅇㅜㅁ -4812
▁후쿠오카 -4813
▁리드 -4814
▁크로스 -4815
▁ㅂㅓㅅㅇ -4816
ine -4817
▁김종 -4818
▁히틀러 -4819
▁ㅆㅡㅇㅕ -4820
▁스티븐 -4821
▁전동차 -4822
▁깊이 -4823
▁막대 -4824
▁Re -4825
▁대체로 -4826
▁연설 -4827
▁ㅈㅏㄴㅡㄴ -4828
▁에서 -4829
▁ㄱㅏㄹㅡ -4830
▁학사 -4831
▁개칭 -4832
아들이 -4833
▁ㅇㅓㄷㅗ -4834
▁ㅅㅓㄴㅂㅗㅇ -4835
▁딜 -4836
▁상속 -4837
▁전당 -4838
▁챔피언십 -4839
▁남아프리카 -4840
란색 -4841
▁구입 -4842
▁ㅂㅗㄴㄷㅏ -4843
▁오이 -4844
▁97 -4845
▁강릉 -4846
▁1957 -4847
▁아메리칸 -4848
▁진격 -4849
구리 -4850
▁딘 -4851
▁알고리 -4852
▁ㅅㅗㄱㅎㅐ -4853
▁원주민 -4854
▁요금 -4855
리나 -4856
▁ㅂㅗㅇㅕㅈㅜㄴㄷㅏ -4857
▁누리 -4858
베르트 -4859
▁본명 -4860
ew -4861
▁자국 -4862
▁조상 -4863
▁콘텐츠 -4864
▁독재 -4865
▁타이거 -4866
▁발명 -4867
▁추방 -4868
독부 -4869
▁휴대 -4870
▁대우 -4871
▁필수 -4872
머리 -4873
▁스미스 -4874
히로 -4875
▁ㄴㅓㅁㅇㅓ -4876
▁광범 -4877
▁검색 -4878
▁생태 -4879
▁초점 -4880
▁부동 -4881
ㅂㅗㄴ -4882
ㅎㅕㅆ -4883
▁1914 -4884
▁메이지 -4885
▁전송 -4886
원경 -4887
▁69 -4888
▁음성 -4889
▁수호 -4890
▁세트 -4891
▁동북 -4892
▁이즈 -4893
▁테마 -4894
미니 -4895
▁알고리즘 -4896
▁느낌 -4897
▁사기 -4898
▁렀다 -4899
▁92 -4900
ue -4901
▁=" -4902
▁이마 -4903
▁주소 -4904
▁인디언 -4905
▁포켓몬 -4906
▁ㅂㅕ -4907
시스코 -4908
▁급격 -4909
▁천만 -4910
▁덩 -4911
▁토론토 -4912
▁도마 -4913
▁알바 -4914
구치 -4915
▁신도 -4916
▁수업 -4917
리그 -4918
▁사과 -4919
▁신장 -4920
▁후임 -4921
▁1900 -4922
▁1938 -4923
▁최우 -4924
▁불가리아 -4925
▁업적 -4926
▁림 -4927
▁원수 -4928
▁코리아 -4929
▁핫 -4930
▁미리 -4931
▁세부 -4932
▁랑 -4933
▁연락 -4934
▁완벽 -4935
▁ㅎㅐㅇㅎㅐ -4936
래프트 -4937
▁이내 -4938
▁클로 -4939
▁상인 -4940
▁섹 -4941
▁부위 -4942
▁펑 -4943
지사 -4944
▁미술관 -4945
▁서술 -4946
▁게다가 -4947
▁석사 -4948
▁전술 -4949
▁ㅍㅕㄹㅊㅕ -4950
EC -4951
자키 -4952
▁스탈 -4953
▁유효 -4954
▁스프링 -4955
▁주니어 -4956
▁화려 -4957
▁배포 -4958
▁101 -4959
비히 -4960
▁고시 -4961
▁바르셀 -4962
▁똑 -4963
▁노트 -4964
▁라이프 -4965
▁바르셀로나 -4966
▁고급 -4967
▁ㄹㅕㅁㅕㄴ -4968
▁ㄲㅔ -4969
▁재즈 -4970
▁해발 -4971
▁HD -4972
▁빌리 -4973
총리 -4974
▁영양 -4975
▁언덕 -4976
▁오키 -4977
▁01 -4978
▁안드 -4979
▁ㄱㅣㄹ -4980
▁ㅇㅘㅅㅓ -4981
▁물건 -4982
▁라틴어 -4983
▁연평 -4984
▁늑 -4985
▁1918 -4986
로지 -4987
▁립 -4988
▁선형 -4989
▁암컷 -4990
▁닥터 -4991
▁ㅅㅜㅁ -4992
▁윙 -4993
▁각국 -4994
▁그만 -4995
▁소비자 -4996
▁마스터 -4997
산화 -4998
▁소형 -4999
▁DVD -5000
▁마르크스 -5001
▁션 -5002
▁웰 -5003
▁개량 -5004
▁랩 -5005
오르 -5006
▁등장인물 -5007
ㅂㅜㅌ -5008
▁ㄷㅡㅅㅇㅣ -5009
총독부 -5010
▁ㅍㅜㄹ -5011
▁조선총독부 -5012
▁질문 -5013
▁풋 -5014
▁유산 -5015
▁실천 -5016
ㄱㅎㅕ -5017
ㄸㅡㄹ -5018
▁1951 -5019
▁손실 -5020
▁일련 -5021
▁묶 -5022
▁저자 -5023
▁시내버스 -5024
▁상주 -5025
▁1932 -5026
▁백인 -5027
ㄹㄹㅓ -5028
제국 -5029
▁고위 -5030
▁언스 -5031
▁ㅁㅏㄴㄴㅏㅆ -5032
BM -5033
▁집회 -5034
▁운항 -5035
▁화석 -5036
▁on -5037
▁반사 -5038
▁사퇴 -5039
▁게르 -5040
▁계곡 -5041
▁추기 -5042
▁{ -5043
▁국적 -5044
▁1937 -5045
여금 -5046
▁메달 -5047
▁알레 -5048
▁정교회 -5049
무늬 -5050
▁감각 -5051
ㄷㅏㄹㅏㄴ -5052
ㅢㄴ -5053
▁경비 -5054
▁블록 -5055
▁영주 -5056
▁미스 -5057
▁ㄴㅡㄴㅑ -5058
▁갑자기 -5059
▁미시 -5060
▁개별 -5061
▁주체 -5062
▁짝 -5063
▁노리 -5064
▁ㅅㅐㅇㄱㅕㅆ -5065
▁설치류 -5066
▁만든 -5067
▁선포 -5068
▁격파 -5069
▁진학 -5070
▁차단 -5071
▁흰색 -5072
민주당 -5073
▁프랑스군 -5074
▁상수 -5075
▁대만 -5076
▁마틴 -5077
ㅜㄹㄹㅓ -5078
▁용인 -5079
▁의문 -5080
ㅊㅣㄴㄷㅏ -5081
▁첩 -5082
▁고객 -5083
▁방언 -5084
▁부친 -5085
▁엘리자 -5086
▁ㅈㅓㅂㅎㅏㄴㄷㅏ -5087
▁89 -5088
▁1935 -5089
필드 -5090
▁광범위 -5091
▁올스타 -5092
ect -5093
▁변하 -5094
▁환승 -5095
펙트 -5096
▁자본주의 -5097
▁넥 -5098
▁실업 -5099
▁182 -5100
▁ㄱㅘㄴㅎㅐ -5101
▁우크라 -5102
▁재개 -5103
▁후계자 -5104
▁분교 -5105
▁타율 -5106
▁이웃 -5107
▁찬성 -5108
▁거짓 -5109
▁칭호 -5110
▁화제 -5111
▁이스트 -5112
▁비스 -5113
▁받아들이 -5114
▁비행기 -5115
▁93 -5116
▁트레이드 -5117
▁다스 -5118
▁사찰 -5119
▁크라 -5120
사전 -5121
바키아 -5122
▁로렌 -5123
▁뮌헨 -5124
▁중추 -5125
▁당원 -5126
▁경제학 -5127
▁Be -5128
▁수치 -5129
▁구상 -5130
▁추기경 -5131
ㅅㅜㄹㅗㄱ -5132
동생 -5133
▁커버 -5134
▁퀘 -5135
▁항의 -5136
▁싱어 -5137
가시 -5138
브라 -5139
▁항공사 -5140
▁기부 -5141
▁탄압 -5142
▁면역 -5143
▁ㅁㅜㄴ -5144
▁고양이 -5145
▁줄이 -5146
▁수백 -5147
하이 -5148
▁꾸준 -5149
▁내놓 -5150
▁발간 -5151
▁질서 -5152
▁파티 -5153
▁사양 -5154
▁체험 -5155
▁허락 -5156
▁회로 -5157
▁증언 -5158
▁남기 -5159
▁촉진 -5160
▁겉 -5161
▁ㄹㅣㅇ -5162
▁ㅇㅣㄹㅇㅡㅋㅕ -5163
▁최후 -5164
▁분화 -5165
▁자산 -5166
▁남녀 -5167
▁이념 -5168
▁클리 -5169
▁법학 -5170
▁화폐 -5171
▁구멍 -5172
▁양산 -5173
▁쿨 -5174
▁곡선 -5175
▁마루 -5176
ㅇㅜㅁ -5177
▁공신 -5178
런스 -5179
▁반지 -5180
▁ㄴㅡㄹㅇ -5181
▁OS -5182
▁시트 -5183
▁아티스트 -5184
센트 -5185
▁성남 -5186
▁ㅈㅣㄹ -5187
저스 -5188
ore -5189
▁거치 -5190
▁클래식 -5191
▁영원 -5192
다수 -5193
▁시모 -5194
ㅂㅎㅕ -5195
슈타인 -5196
▁습격 -5197
▁대법원 -5198
▁FM -5199
▁소화 -5200
▁1933 -5201
▁94 -5202
▁목성 -5203
▁물고기 -5204
▁보편 -5205
▁가속 -5206
▁극단 -5207
▁소위 -5208
▁잠수함 -5209
▁개척 -5210
▁탕 -5211
▁ㅎㅏㅂㄴㅣㄷㅏ -5212
▁티베트 -5213
▁오버 -5214
리우스 -5215
▁소집 -5216
▁강남 -5217
IN -5218
▁수십 -5219
▁툴 -5220
▁축소 -5221
▁지수 -5222
our -5223
▁탄핵 -5224
▁ㅆㅡㅇㅕㅆ -5225
▁쿼 -5226
▁아오 -5227
▁1928 -5228
▁운송 -5229
▁선호 -5230
▁유배 -5231
▁CP -5232
▁줄어들 -5233
돼지 -5234
도사 -5235
▁군부 -5236
▁동화 -5237
▁원시 -5238
▁베리 -5239
▁동경 -5240
▁ㄷㅏㅇㅎㅐ -5241
▁태종 -5242
▁팩 -5243
▁전적 -5244
▁조항 -5245
▁프랑스어 -5246
ell -5247
▁1924 -5248
▁핸 -5249
▁혼자 -5250
▁약화 -5251
▁료 -5252
▁치르 -5253
▁시신 -5254
▁ㅇㅓㄷ -5255
▁하여금 -5256
▁콜로 -5257
▁충분히 -5258
▁오가 -5259
▁상대식 -5260
공사 -5261
▁누스 -5262
▁칠레 -5263
▁ㅊㅐㅇ -5264
▁영구 -5265
▁지불 -5266
▁국토 -5267
▁용도 -5268
프레 -5269
▁주일 -5270
▁개명 -5271
▁79 -5272
▁간부 -5273
뜨리 -5274
▁ㄷㅓㅅ -5275
▁대로 -5276
▁ㅈㅗㅊ -5277
른바 -5278
▁돌아오 -5279
▁당신 -5280
▁ㅈㅗㅊㅏ -5281
▁익스 -5282
▁정면 -5283
▁조기 -5284
▁펼 -5285
▁사막 -5286
▁댄스 -5287
▁세월 -5288
▁직무 -5289
▁그리하여 -5290
▁ㅇㅣㅇㅓㅈㅣㄴ -5291
▁김해 -5292
▁이행 -5293
▁발레 -5294
▁전망 -5295
닉스 -5296
▁메트로 -5297
▁이른바 -5298
▁재능 -5299
▁09 -5300
벤트 -5301
▁회색 -5302
ㅈㅣㄱ -5303
▁토대 -5304
▁ㄷㅗㄹㅇㅏㅇㅗㄴ -5305
▁펀 -5306
▁개장 -5307
▁110 -5308
▁프로그래밍 -5309
슬링 -5310
▁콜롬 -5311
▁입대 -5312
▁실내 -5313
▁형상 -5314
▁토마스 -5315
드라 -5316
▁정통 -5317
▁대칭 -5318
▁러브 -5319
▁종사 -5320
end -5321
▁열매 -5322
▁의정부 -5323
ㄴㅏ -5324
사이 -5325
▁액체 -5326
▁이재 -5327
▁합동 -5328
▁ㄱㅓㄹㅊㅣㄴ -5329
▁멀티 -5330
▁존스 -5331
▁파키스탄 -5332
▁동굴 -5333
▁브로 -5334
▁04 -5335
▁토착 -5336
▁지중 -5337
코프 -5338
▁빚 -5339
▁구름 -5340
▁가난 -5341
▁진실 -5342
▁170 -5343
▁웃 -5344
▁법안 -5345
▁판정 -5346
▁매치 -5347
▁쟁 -5348
▁가깝 -5349
▁단순히 -5350
ill -5351
▁초상 -5352
리다 -5353
▁원자력 -5354
▁무용 -5355
▁손해 -5356
어도 -5357
ain -5358
베리아 -5359
▁해제 -5360
ID -5361
▁안토니 -5362
▁08 -5363
▁총재 -5364
▁베네치아 -5365
과이 -5366
▁빼앗 -5367
▁하와 -5368
▁ㅇㅡㄴㅣ -5369
▁고교 -5370
▁정류 -5371
▁퓨 -5372
▁수컷 -5373
▁대승 -5374
▁밀리 -5375
▁ㄸㅓㄴㅏㄴ -5376
▁Co -5377
▁흔적 -5378
▁틴 -5379
테스 -5380
▁자랑 -5381
▁개찰 -5382
▁무력 -5383
▁유아 -5384
▁당대 -5385
▁세로 -5386
▁안티 -5387
▁재생 -5388
▁뼈 -5389
ㅋㅡㅁ -5390
ㄴㅏㅆ -5391
▁스카이 -5392
ers -5393
▁부속 -5394
▁엄격 -5395
▁전제 -5396
▁룸 -5397
▁우에 -5398
▁프로토 -5399
▁경북 -5400
▁스톤 -5401
▁인민군 -5402
▁83 -5403
▁들어오 -5404
▁경고 -5405
▁소문 -5406
▁주문 -5407
▁안쪽 -5408
▁사이드 -5409
▁오케 -5410
▁서방 -5411
▁힙합 -5412
▁장로 -5413
▁배열 -5414
▁ㅅㅔㅇㅝㅈㅕㅆ -5415
▁비잔 -5416
페이스 -5417
▁늑대 -5418
▁다큐 -5419
▁오류 -5420
▁ㅎㅢㄴ -5421
티스 -5422
▁지표 -5423
▁벼슬 -5424
데르 -5425
▁ㅇㅜ -5426
▁일단 -5427
▁함경 -5428
▁국방부 -5429
▁주재 -5430
ard -5431
▁강도 -5432
▁레닌 -5433
▁양국 -5434
▁메탈 -5435
▁페리 -5436
▁평면 -5437
▁행하 -5438
▁경찰서 -5439
▁한성 -5440
▁분산 -5441
▁혈액 -5442
▁할아버지 -5443
▁로즈 -5444
▁스크린 -5445
고속 -5446
▁아프가니 -5447
▁호흡 -5448
▁강요 -5449
▁대가 -5450
▁ㅁㅏㄹ -5451
▁ㄴㅗㅎㅇㅕ -5452
어로 -5453
▁동지 -5454
▁성서 -5455
▁마감 -5456
▁중동 -5457
▁1934 -5458
조선 -5459
▁선로 -5460
▁편의 -5461
▁ㄷㅓㅅㅂㅜㅌ -5462
▁대원 -5463
▁메르 -5464
▁이벤트 -5465
▁MS -5466
AN -5467
▁추적 -5468
ㅓㅈㅕㅆ -5469
야스 -5470
▁철거 -5471
▁요코하마 -5472
▁빵 -5473
▁주자 -5474
▁중지 -5475
▁대사관 -5476
▁닐 -5477
▁De -5478
▁자매 -5479
키퍼 -5480
▁포드 -5481
▁농장 -5482
▁골키퍼 -5483
▁탓 -5484
유키 -5485
▁구사 -5486
▁입구 -5487
▁보스턴 -5488
▁놀이 -5489
▁ㅁㅏㄴㅋㅡㅁ -5490
▁판타 -5491
▁히어로 -5492
▁ㄴㅏㅅㅓㅆ -5493
세대 -5494
▁장례 -5495
▁흘 -5496
▁근육 -5497
▁북미 -5498
▁투스 -5499
▁스케이 -5500
▁노동당 -5501
▁쏘 -5502
▁광산 -5503
▁동구 -5504
▁살아 -5505
▁스탈린 -5506
▁봉기 -5507
아르 -5508
▁쿠바 -5509
▁본토 -5510
▁유키 -5511
▁Me -5512
▁현존 -5513
▁130 -5514
레오 -5515
▁대동 -5516
▁글리 -5517
▁정확히 -5518
▁토머스 -5519
▁동메달 -5520
▁나이트 -5521
즈니 -5522
공업 -5523
▁정조 -5524
베르크 -5525
▁뱀 -5526
▁드물 -5527
▁거점 -5528
▁은메달 -5529
▁도쿠가와 -5530
▁밸 -5531
제르 -5532
무르 -5533
▁코어 -5534
▁젤 -5535
▁남극 -5536
▁140 -5537
▁아프가니스탄 -5538
▁카리 -5539
ne -5540
▁ㅎㅔ -5541
▁항해 -5542
▁ㅇㅝㄴ -5543
▁사카 -5544
▁선물 -5545
▁부처 -5546
▁레지 -5547
▁야당 -5548
▁접속 -5549
▁돔 -5550
▁시계 -5551
▁식량 -5552
▁사망자 -5553
레아 -5554
ㅎㅏㅁ -5555
▁중계 -5556
▁페이스 -5557
▁철학자 -5558
▁복사 -5559
ㄲㅡㄹ -5560
▁알렉산더 -5561
▁Sh -5562
▁테르 -5563
▁김구 -5564
▁필립 -5565
▁새끼 -5566
▁발전소 -5567
▁대다수 -5568
▁초청 -5569
▁칼리지 -5570
▁재판소 -5571
우치 -5572
▁맨체스터 -5573
위대 -5574
▁중성 -5575
▁ㅌㅏㄴ -5576
▁ㅇㅜㅁㅈㅣㄱ -5577
▁농촌 -5578
▁매주 -5579
▁안내 -5580
돌프 -5581
▁ㅎㅟ -5582
▁관계자 -5583
▁특별히 -5584
▁곤충 -5585
▁독점 -5586
성기 -5587
안군 -5588
▁경사 -5589
▁ㅈㅜㅇㅓㅈㅕㅆ -5590
▁화합물 -5591
▁th -5592
▁증권 -5593
▁ㅂㅗㅇㅎㅐㅈㅕㅆ -5594
OR -5595
므로 -5596
▁구로 -5597
▁새벽 -5598
▁교향곡 -5599
크래프트 -5600
▁역전 -5601
▁로맨 -5602
▁1931 -5603
▁훼 -5604
▁르네 -5605
▁위안 -5606
▁토너 -5607
▁세금 -5608
▁유력 -5609
▁재임 -5610
▁강등 -5611
▁생애 -5612
▁ㅁㅣㄹㄹㅕ -5613
▁체육관 -5614
▁오염 -5615
▁휘하 -5616
▁풍속 -5617
▁부호 -5618
▁타카 -5619
▁파울 -5620
▁간격 -5621
▁일곱 -5622
베리 -5623
▁존슨 -5624
▁ㄴㅏㅃ -5625
▁그러므로 -5626
▁금강 -5627
ㄷㅏㄴ -5628
▁그리스어 -5629
▁히로시마 -5630
▁멸종 -5631
▁종전 -5632
▁ㅍㅕㄹㅊㅕㅆ -5633
▁펄 -5634
▁이정 -5635
▁석방 -5636
▁목포 -5637
▁클래스 -5638
▁계수 -5639
▁진동 -5640
▁ㄷㅏㄹㄹㅕ -5641
▁타점 -5642
▁cod -5643
▁기병 -5644
▁명시 -5645
▁모노 -5646
▁부품 -5647
▁대변 -5648
▁코너 -5649
all -5650
▁비중 -5651
▁아비 -5652
▁뚜렷 -5653
게이 -5654
▁자유주의 -5655
▁미카 -5656
▁감옥 -5657
▁훌륭 -5658
▁ST -5659
▁타원 -5660
▁ㄴㅗㅍ -5661
ㅇㅔㄷㅗ -5662
ㅇㅗ -5663
▁무늬 -5664
▁버지 -5665
레이크 -5666
▁뻗 -5667
▁관객 -5668
▁하사 -5669
▁다다 -5670
▁원조 -5671
ㅎㅇㅏ -5672
▁176 -5673
▁An -5674
나르 -5675
AM -5676
▁힘들 -5677
▁꾼 -5678
▁좌파 -5679
▁킬로 -5680
▁합리 -5681
▁해협 -5682
▁1921 -5683
사르 -5684
▁숙종 -5685
▁아이스 -5686
▁250 -5687
▁ㅂㅐㅇㅝㅆ -5688
▁그래프 -5689
▁기생 -5690
▁장점 -5691
▁지휘관 -5692
느님 -5693
▁캠프 -5694
▁지칭 -5695
▁하버 -5696
▁심리학 -5697
▁ㅇㅗㄹㅡㄴ -5698
▁마그 -5699
▁공룡 -5700
▁교도 -5701
▁구리 -5702
▁수비수 -5703
ang -5704
▁가구 -5705
▁하느님 -5706
▁연호 -5707
▁유발 -5708
▁1929 -5709
▁코트 -5710
널드 -5711
▁박근 -5712
▁후퇴 -5713
▁필라 -5714
▁스트라이 -5715
▁윤리 -5716
▁특허 -5717
▁동성애 -5718
▁토너먼트 -5719
둥이 -5720
▁ㅋㅓㄷㅏㄹㅏㄴ -5721
▁닮 -5722
▁소요 -5723
▁조문 -5724
▁유대인 -5725
▁트랜스 -5726
수량 -5727
▁비즈 -5728
▁아틀 -5729
▁강전 -5730
▁폭풍 -5731
▁목숨 -5732
▁문재 -5733
▁사관 -5734
▁운동가 -5735
▁단장 -5736
▁도메 -5737
▁수반 -5738
▁일환 -5739
▁집필 -5740
▁착용 -5741
▁대결 -5742
▁05 -5743
▁공세 -5744
▁성명 -5745
▁칙 -5746
▁캡 -5747
▁스테이션 -5748
▁y -5749
▁키스 -5750
▁덕분 -5751
▁기갑 -5752
시스트 -5753
▁자이언츠 -5754
▁첫째 -5755
▁갤럭 -5756
▁극복 -5757
▁바이올 -5758
▁라트 -5759
▁약탈 -5760
▁ㅅㅠ -5761
▁1925 -5762
▁ㄷㅟ -5763
▁부작 -5764
▁ㄱㅏㄴㄷㅏ -5765
▁마라 -5766
▁1923 -5767
투아 -5768
▁연상 -5769
▁김대중 -5770
▁인터페이스 -5771
▁연평균 -5772
▁동반 -5773
▁롬 -5774
▁평론가 -5775
▁쯤 -5776
산물 -5777
▁번지 -5778
ss -5779
미아 -5780
▁ㅋㅗ -5781
▁입사 -5782
▁삼각 -5783
▁건담 -5784
▁공국 -5785
▁조화 -5786
▁지부 -5787
▁ㄴㅡㄴㄷㅏㄱㅗ -5788
▁매니 -5789
▁첸 -5790
▁도호 -5791
▁갤럭시 -5792
▁성직자 -5793
▁협약 -5794
▁고고 -5795
▁과일 -5796
ㅇㅕㅅㅓ -5797
▁북아메리카 -5798
▁옮 -5799
▁플로리다 -5800
무게 -5801
▁몸무게 -5802
▁빠지 -5803
▁추대 -5804
밀리 -5805
▁가끔 -5806
▁원장 -5807
▁AC -5808
▁요원 -5809
▁틱 -5810
타카 -5811
▁의석 -5812
▁압축 -5813
▁07 -5814
▁샤를 -5815
▁연계 -5816
클린 -5817
▁장갑 -5818
▁북서쪽 -5819
ity -5820
▁관리자 -5821
▁발렌 -5822
▁불화 -5823
▁대한제국 -5824
▁섬유 -5825
▁시게 -5826
베이스 -5827
▁추락 -5828
▁웨일스 -5829
▁램 -5830
▁남아메리카 -5831
카스 -5832
▁단선 -5833
▁유비 -5834
▁유성 -5835
▁얀 -5836
▁영감 -5837
▁임신 -5838
▁이수 -5839
▁ㅎㅡㄴ -5840
▁캘리포니아주 -5841
마이 -5842
▁우드 -5843
▁사당 -5844
▁선교사 -5845
대문 -5846
▁발휘 -5847
ㅜㅇㅜㄴ -5848
▁근로 -5849
▁모험 -5850
▁미분 -5851
▁망원경 -5852
▁영혼 -5853
▁중립 -5854
▁페루 -5855
▁트레이 -5856
키스 -5857
▁카페 -5858
▁살아남 -5859
▁갱 -5860
▁ㅁㅏㅈㅅㅓ -5861
▁ㅇㅕㅆㅇㅡㅁ -5862
느리 -5863
추어 -5864
▁북극 -5865
▁딱 -5866
▁하와이 -5867
▁진흥 -5868
▁타입 -5869
▁필름 -5870
▁리스트 -5871
▁SC -5872
▁박스 -5873
▁161 -5874
▁ㄱㅡㄹㅕㅈㅕ -5875
▁수직 -5876
▁고분 -5877
▁진술 -5878
▁삭제 -5879
▁서인 -5880
▁종로 -5881
▁모로 -5882
▁똑같 -5883
▁일자 -5884
▁향토 -5885
ㅇㅣㅁ -5886
▁다이묘 -5887
▁기관차 -5888
▁모시 -5889
▁민속 -5890
▁ㅁㅔㅇㅣㄴ -5891
▁사거리 -5892
▁지역구 -5893
▁데리 -5894
▁동인 -5895
ㅊㅣ -5896
▁영광 -5897
▁마주 -5898
▁레벨 -5899
▁준우 -5900
▁카자 -5901
▁ㄷㅗㄹㅇㅏㄱㅏㅆ -5902
ff -5903
▁쫓 -5904
▁ㅋㅜ -5905
▁그랜드 -5906
▁도마뱀 -5907
▁비하 -5908
▁빅토리아 -5909
▁codice -5910
▁압도 -5911
▁채권 -5912
▁결심 -5913
▁복구 -5914
슬리 -5915
▁EP -5916
▁제약 -5917
▁모음 -5918
▁1922 -5919
▁삼각형 -5920
▁프로세서 -5921
▁청동 -5922
즈키 -5923
행성 -5924
▁돌파 -5925
▁변신 -5926
▁박근혜 -5927
▁파운드 -5928
▁유가 -5929
▁이조 -5930
▁문인 -5931
▁잠재 -5932
▁175 -5933
▁홀로 -5934
▁엽 -5935
▁성씨 -5936
▁ㅈㅣㅋㅕ -5937
▁de -5938
▁수장 -5939
▁레이블 -5940
▁명사 -5941
▁곰 -5942
▁주류 -5943
▁화가 -5944
ㅓㅈㅕ -5945
▁중시 -5946
▁철저 -5947
일본 -5948
▁윤치 -5949
▁교과 -5950
▁바오 -5951
▁루트비히 -5952
▁버지니아 -5953
▁ㄴㅏㅇㅏㄱㅏ -5954
▁틸 -5955
▁무릎 -5956
▁중구 -5957
▁평생 -5958
▁ㅇㅣㄹㅏㄴ -5959
애나 -5960
▁피트 -5961
▁규슈 -5962
▁프레임 -5963
▁서적 -5964
▁칼리 -5965
▁인천광역시 -5966
▁My -5967
▁모래 -5968
▁부탁 -5969
▁가톨릭교회 -5970
오리 -5971
▁부유 -5972
▁공격수 -5973
▁투구 -5974
▁엘리자베스 -5975
▁나서 -5976
▁고안 -5977
▁ㄴㅓㅁㄱㅕ -5978
▁유역 -5979
▁각자 -5980
▁1912 -5981
▁여인 -5982
▁토벌 -5983
▁황태 -5984
▁올라가 -5985
▁직위 -5986
▁최상 -5987
▁트럼 -5988
▁리치 -5989
▁직선 -5990
▁교차로 -5991
▁건너 -5992
▁설비 -5993
ㅇㄱ -5994
▁아과 -5995
▁이날 -5996
프란 -5997
▁유용 -5998
▁지연 -5999
▁자치구 -6000
▁음모 -6001
부사 -6002
양군 -6003
▁왕가 -6004
▁파트너 -6005
▁ㅁㅗㅅㅎㅏㄴㄷㅏ -6006
메니아 -6007
▁164 -6008
▁수상자 -6009
▁글씨 -6010
▁구미 -6011
▁국민당 -6012
▁KT -6013
눅스 -6014
니즘 -6015
▁문법 -6016
▁사토 -6017
▁포유 -6018
▁네이션 -6019
▁동일본 -6020
▁ㅌㅗ -6021
▁Love -6022
▁아기 -6023
ㅁㅏㅇ -6024
▁Go -6025
▁무산 -6026
▁왈 -6027
▁부서 -6028
▁크레 -6029
▁노무 -6030
▁벨라 -6031
▁봉사 -6032
▁블라디 -6033
타운 -6034
▁도어 -6035
▁리눅스 -6036
▁리아 -6037
ong -6038
▁"" -6039
▁드리 -6040
▁퍼시 -6041
▁소설가 -6042
▁고르 -6043
▁영조 -6044
▁1908 -6045
멘트 -6046
▁간섭 -6047
▁납치 -6048
▁주사 -6049
▁아르메니아 -6050
라이터 -6051
▁목조 -6052
▁지중해 -6053
▁1906 -6054
야수 -6055
▁노비 -6056
▁표지 -6057
ㅇㅎㅏㄹ -6058
▁보통학교 -6059
▁며 -6060
▁모니 -6061
▁무인 -6062
▁인력 -6063
up -6064
▁경유 -6065
▁랭킹 -6066
▁돼지 -6067
▁아마추어 -6068
▁06 -6069
▁어워드 -6070
보살 -6071
▁건축물 -6072
▁상처 -6073
▁ㅇㅗㄹㄹㅣㄴ -6074
▁사촌 -6075
▁자책 -6076
▁패턴 -6077
▁베타 -6078
▁토르 -6079
▁MV -6080
▁ㄴㅏㅁㄱㅕ -6081
▁마카 -6082
▁장사 -6083
▁태자 -6084
▁ㅅㅔㄴ -6085
▁침해 -6086
▁남동쪽 -6087
▁ㄷㅗㅁㅏㅇ -6088
▁릭 -6089
▁SM -6090
▁플레 -6091
지마 -6092
▁교역 -6093
▁스케이팅 -6094
▁연령 -6095
멘터리 -6096
▁1917 -6097
ip -6098
▁뜨 -6099
▁연소 -6100
▁옮기 -6101
▁이종 -6102
▁히가시 -6103
▁베토 -6104
▁호조 -6105
▁준우승 -6106
▁전향 -6107
▁다양체 -6108
사관 -6109
▁정자 -6110
▁크림 -6111
슬로 -6112
▁제주도 -6113
▁1927 -6114
▁JR -6115
▁과도 -6116
도니아 -6117
▁배상 -6118
▁에스파 -6119
IS -6120
ld -6121
▁삽입 -6122
▁적응 -6123
▁모듈 -6124
▁이토 -6125
▁통로 -6126
▁안양 -6127
▁앨런 -6128
▁명문 -6129
▁03 -6130
▁북동쪽 -6131
▁커피 -6132
▁매각 -6133
▁조명 -6134
▁적어도 -6135
ant -6136
▁ㅅㅔㅇㅝㅈㅣㄴ -6137
▁우익 -6138
▁굿 -6139
▁둔 -6140
▁육성 -6141
▁시상식 -6142
▁몬테 -6143
▁배급 -6144
▁탐험 -6145
▁호르 -6146
▁수지 -6147
▁시아 -6148
▁BBC -6149
OM -6150
▁과장 -6151
▁관하 -6152
▁전승 -6153
▁1907 -6154
▁우크라이나 -6155
▁석조 -6156
ㄷㅏㄹㅡㄴ -6157
▁대행 -6158
▁보좌 -6159
▁창간 -6160
▁럭 -6161
영상 -6162
▁라우 -6163
▁스와 -6164
▁쇠퇴 -6165
▁인자 -6166
▁전작 -6167
▁출현 -6168
▁1926 -6169
▁흙 -6170
다드 -6171
스팅 -6172
▁유인 -6173
▁정서 -6174
▁사라지 -6175
▁옹호 -6176
▁밀라노 -6177
이즈 -6178
▁산악 -6179
▁외계 -6180
▁항목 -6181
▁다큐멘터리 -6182
ED -6183
▁옵 -6184
▁노인 -6185
▁산타 -6186
▁앱 -6187
▁폐기 -6188
▁ㅇㅣㄹㅇㅡㅋㅣㄴ -6189
▁SN -6190
▁협의회 -6191
▁색상 -6192
▁체인 -6193
▁표본 -6194
▁상하이 -6195
▁대교 -6196
▁별로 -6197
▁부동산 -6198
▁문하 -6199
▁의병 -6200
▁ㄴㅏㅌㅏㄴㅏㄴ -6201
▁단행 -6202
▁ㄱㅏㅂ -6203
▁송라이터 -6204
ㅏㅈㅣㄴㄷㅏ -6205
av -6206
생물 -6207
▁관중 -6208
▁왕립 -6209
▁자문 -6210
▁슐 -6211
▁168 -6212
몬드 -6213
▁사신 -6214
▁포크 -6215
스토 -6216
▁탑승 -6217
페이지 -6218
▁자전거 -6219
▁He -6220
▁비틀 -6221
▁해설 -6222
▁ㅁㅏㅈㅊㅝ -6223
▁종족 -6224
티움 -6225
▁수감 -6226
▁지름 -6227
▁동아시아 -6228
▁무선 -6229
▁묘지 -6230
▁세조 -6231
▁때로 -6232
▁유입 -6233
▁ㅇㅣㄹㅇㅓㄴㅏㄴㄷㅏ -6234
슬라 -6235
▁모자 -6236
▁비전 -6237
다이라 -6238
▁연고지 -6239
▁틈 -6240
▁PD -6241
▁상영 -6242
▁패러 -6243
ind -6244
▁디즈니 -6245
▁렉 -6246
▁호남 -6247
▁ㄱㅏㄹㄹ -6248
▁ㅎㅐㅈㅣㄴ -6249
▁NHK -6250
▁베토벤 -6251
런트 -6252
▁내장 -6253
▁동사 -6254
▁스틸 -6255
▁ㅁㅏㅈㅓ -6256
로프 -6257
▁노조 -6258
▁실점 -6259
▁ㅃㅏㄹ -6260
튜브 -6261
▁아가 -6262
▁166 -6263
▁1905 -6264
▁사료 -6265
▁레이다 -6266
se -6267
텐도 -6268
▁콩고 -6269
▁닌텐도 -6270
▁ㅇㅣㅇㅓㅈㅕ -6271
▁선제 -6272
▁하천 -6273
▁아무런 -6274
ame -6275
▁기종 -6276
▁좌익 -6277
▁|| -6278
▁시에 -6279
▁합계 -6280
▁162 -6281
▁오리지 -6282
▁최우수 -6283
AC -6284
▁에릭 -6285
▁룩 -6286
▁산지 -6287
▁안보 -6288
▁들어서 -6289
▁문화유산 -6290
▁홈페이지 -6291
▁기아 -6292
▁제후 -6293
▁겨우 -6294
▁연금 -6295
▁칭하 -6296
▁유튜브 -6297
라지 -6298
▁정사 -6299
▁진지 -6300
▁급속 -6301
세스 -6302
▁Sp -6303
▁독일어 -6304
브스 -6305
▁민족주의 -6306
▁떼 -6307
▁버그 -6308
▁151 -6309
▁꾸준히 -6310
▁비평가 -6311
▁헤드 -6312
▁기하학 -6313
▁엄마 -6314
▁유신 -6315
▁ㅇㅠ -6316
▁아울 -6317
▁원로 -6318
▁ㅎㅑㅇㅎㅏㄴ -6319
총장 -6320
▁비단 -6321
▁ㄱㅡㄹㅓㅁ -6322
▁꼽 -6323
페인 -6324
▁시외 -6325
▁데이터베이스 -6326
▁예외 -6327
▁주말 -6328
▁가쓰 -6329
▁ㄴㅏㅌㅏㄴㅏ -6330
▁대조 -6331
▁역과 -6332
▁가르치 -6333
ry -6334
▁참조 -6335
ES -6336
ㄷㅚ -6337
▁스승 -6338
▁158 -6339
▁사이클 -6340
나카 -6341
무네 -6342
▁조선인 -6343
▁수명 -6344
▁요미 -6345
▁증기 -6346
▁트럭 -6347
▁드래곤 -6348
▁정류장 -6349
▁ㄱㅡㅊㅕㅆ -6350
플레이 -6351
▁스페셜 -6352
▁펼치 -6353
▁품질 -6354
▁상소 -6355
▁색깔 -6356
▁크리스토 -6357
▁목격 -6358
▁ㅈㅓㄴㅎㅐㅈㅣㄴㄷㅏ -6359
ith -6360
▁지바 -6361
▁ㄱㅔㄴ -6362
▁원산 -6363
어트 -6364
▁아크 -6365
▁수천 -6366
▁ㅂㅓㄴ -6367
▁리듬 -6368
▁모집 -6369
▁커뮤니티 -6370
다니 -6371
▁선진 -6372
▁나폴리 -6373
▁곧바로 -6374
스케 -6375
ort -6376
▁광역 -6377
▁문과 -6378
▁칩 -6379
▁마일 -6380
▁둘러 -6381
▁유고슬 -6382
▁유고슬라비아 -6383
▁굳 -6384
▁반환 -6385
▁셋째 -6386
▁자바 -6387
▁주거 -6388
▁02 -6389
▁구마 -6390
▁리얼 -6391
▁남서쪽 -6392
▁라마 -6393
▁점성 -6394
▁악장 -6395
▁흥미 -6396
엘라 -6397
▁야생 -6398
▁주파 -6399
스티벌 -6400
▁기압 -6401
▁라이온 -6402
▁굽 -6403
▁가미 -6404
▁대안 -6405
▁할리 -6406
▁라이벌 -6407
▁주의자 -6408
▁옛날 -6409
▁플루 -6410
▁ㅈㅝㅆ -6411
▁레이스 -6412
▁수수 -6413
▁페스티벌 -6414
▁향년 -6415
▁입문 -6416
▁도리 -6417
▁무관 -6418
ok -6419
▁신비 -6420
▁협의 -6421
▁유닛 -6422
▁이리 -6423
▁토니 -6424
▁특급 -6425
▁베이스볼 -6426
▁기점 -6427
▁인텔 -6428
▁방안 -6429
프란시스코 -6430
▁동치 -6431
▁재무 -6432
▁주한 -6433
▁브라이언 -6434
▁도심 -6435
▁샌프란시스코 -6436
▁운명 -6437
▁운반 -6438
▁스피드 -6439
▁입증 -6440
▁사직 -6441
▁소니 -6442
▁안드로이드 -6443
▁기념물 -6444
▁십자군 -6445
▁ㄱㅓㅊㅣㄴ -6446
▁단층 -6447
▁디자이너 -6448
▁쿠르 -6449
▁오디션 -6450
▁한나라 -6451
▁ㅇㅣㄹㅜㅇㅓㅈㅣㄴㄷㅏ -6452
▁미네 -6453
▁일행 -6454
▁되찾 -6455
▁우르 -6456
회의 -6457
▁한나라당 -6458
프스 -6459
▁사면 -6460
▁서북 -6461
▁동영상 -6462
▁콜롬비아 -6463
▁ㅁㅗㄴ -6464
해군 -6465
▁기용 -6466
▁와카 -6467
▁적색 -6468
▁렌즈 -6469
▁오리지널 -6470
▁마스 -6471
▁묘소 -6472
▁이오 -6473
▁1904 -6474
▁석탑 -6475
▁ㅁㅜㄷ -6476
▁ㅇㅕㅅㅓ -6477
▁프랜 -6478
▁출산 -6479
▁연주자 -6480
▁미만 -6481
▁출판사 -6482
▁마케도니아 -6483
▁ㅇㅣㄹㅇㅓㄴㅏ -6484
▁직장 -6485
▁케이블 -6486
▁알라 -6487
▁지휘자 -6488
▁걷 -6489
▁정교 -6490
▁개수 -6491
▁배제 -6492
▁분배 -6493
▁신임 -6494
▁ㄷㅏㄴㅕㅆ -6495
▁인치 -6496
▁복제 -6497
▁서경 -6498
▁진도 -6499
▁왕족 -6500
▁평소 -6501
▁관장 -6502
▁마쓰다이라 -6503
▁초래 -6504
▁165 -6505
▁ㅆㅡㄴㄷㅏ -6506
▁빗 -6507
▁템 -6508
▁Un -6509
▁예술가 -6510
▁심하 -6511
루살 -6512
▁ㅎㅡㄹㄹㅓ -6513
▁교전 -6514
▁급행 -6515
▁상무 -6516
▁파생 -6517
▁센트럴 -6518
▁챌 -6519
▁아서 -6520
▁의거 -6521
프라 -6522
루살렘 -6523
▁ㄴㅐㄴㄷㅏ -6524
▁겹 -6525
▁가하 -6526
▁부패 -6527
러지 -6528
▁예언 -6529
리케이션 -6530
▁기재 -6531
▁용기 -6532
▁판타지 -6533
▁긴급 -6534
▁154 -6535
▁내륙 -6536
▁자사 -6537
▁스테이지 -6538
▁계단 -6539
▁동전 -6540
▁폭스 -6541
▁ㄱㅡㄹㅓㅁㅇㅔㄷㅗ -6542
▁무신 -6543
▁비즈니스 -6544
▁콘스탄티노 -6545
▁WW -6546
ob -6547
ord -6548
▁수면 -6549
▁오타 -6550
▁Se -6551
▁Wh -6552
▁받침 -6553
▁당사자 -6554
▁모순 -6555
qu -6556
▁단종 -6557
▁합작 -6558
▁ㄹㅏㄱ -6559
▁신하 -6560
▁걸리 -6561
▁여동생 -6562
▁엉 -6563
▁파나 -6564
▁가게 -6565
▁기름 -6566
▁좌석 -6567
▁ㄱㅓㄹㄹㅕ -6568
터스 -6569
▁트레 -6570
▁ㅁㅏㄴㄴㅏㄴ -6571
▁권고 -6572
▁사르 -6573
▁156 -6574
▁넘어 -6575
▁도메인 -6576
▁163 -6577
문학 -6578
모니 -6579
▁사범 -6580
▁연애 -6581
▁용산 -6582
▁SF -6583
▁스펙트 -6584
▁링크 -6585
▁항일 -6586
디스 -6587
▁신용 -6588
▁167 -6589
가스 -6590
우옌 -6591
▁무슬 -6592
▁예루살렘 -6593
아보 -6594
▁DJ -6595
▁리투아 -6596
▁리투아니아 -6597
ate -6598
▁압박 -6599
▁그랑 -6600
▁스쿨 -6601
▁정계 -6602
▁진상 -6603
▁크리스티 -6604
▁상임 -6605
▁호환 -6606
▁바이올린 -6607
▁ㄷㅓㅍ -6608
▁타마 -6609
▁스펙트럼 -6610
▁ㅍㅓㅈㅕ -6611
아하 -6612
▁여신 -6613
▁900 -6614
▁무슬림 -6615
▁회원국 -6616
PS -6617
교육 -6618
경기 -6619
▁AM -6620
▁끼리 -6621
▁충남 -6622
식물 -6623
▁스마트폰 -6624
카르 -6625
▁아인 -6626
▁부리 -6627
▁자회사 -6628
▁ㅁㅓㅁㅜㄹㄹㅓㅆ -6629
▁밀접 -6630
▁어항 -6631
▁ㅁㅏㅊㅕㅆ -6632
▁조류 -6633
▁싫 -6634
▁챌린 -6635
▁한양 -6636
ㅟㄴ -6637
▁니스 -6638
▁혜성 -6639
페이 -6640
▁부수 -6641
껍질 -6642
▁분지 -6643
▁비로 -6644
▁우지 -6645
▁전염 -6646
▁선사 -6647
▁장편 -6648
ㅂㅓㄹ -6649
▁서울시 -6650
▁샹 -6651
▁발효 -6652
▁착륙 -6653
▁미얀 -6654
▁바그 -6655
▁게시 -6656
▁대단 -6657
▁번식 -6658
▁무라 -6659
▁지주 -6660
▁ㅁㅗㅅㅎㅐ -6661
▁오다 -6662
▁조국 -6663
▁포맷 -6664
▁피렌 -6665
▁훼손 -6666
▁비잔티움 -6667
IC -6668
▁팅 -6669
길이 -6670
▁ㅅㅓㄴㅂㅗㅇㅕㅆ -6671
▁교섭 -6672
▁주립 -6673
▁ㅆㅏㅇㅝㅆ -6674
▁지장 -6675
▁ㅋㅏㄴ -6676
커스 -6677
▁우루 -6678
▁친정 -6679
리크 -6680
킨스 -6681
▁일요일 -6682
▁고립 -6683
▁이지 -6684
▁좋아하 -6685
▁노무현 -6686
▁얼음 -6687
▁서브 -6688
▁애국 -6689
▁UN -6690
▁피스 -6691
▁진나라 -6692
랑이 -6693
▁예능 -6694
▁식사 -6695
▁쇼군 -6696
▁오케스트라 -6697
▁농도 -6698
▁요크 -6699
럼비아 -6700
▁아베 -6701
▁최신 -6702
▁139 -6703
▁옌 -6704
잡이 -6705
▁AS -6706
▁ㄷㅜㄹㄹㅓㅆㅏ -6707
예프 -6708
▁구장 -6709
▁낱 -6710
▁도망 -6711
▁융합 -6712
▁참판 -6713
▁이명박 -6714
▁행정부 -6715
▁알바니아 -6716
▁과제 -6717
▁대령 -6718
▁하트 -6719
▁ㄷㅡㄹㅇㅓㄱㅏㄴ -6720
▁바티 -6721
▁물려 -6722
ET -6723
마치 -6724
부인 -6725
▁사리 -6726
▁성종 -6727
▁하드웨어 -6728
아지 -6729
▁시체 -6730
▁와중 -6731
▁브라우 -6732
▁부흥 -6733
▁개발자 -6734
▁아이디 -6735
▁월간 -6736
▁차관 -6737
▁쿠스 -6738
▁ㅂㅣㄹ -6739
▁주머니 -6740
▁소나 -6741
▁145 -6742
▁마리오 -6743
▁벌어지 -6744
▁킬로미터 -6745
▁용량 -6746
▁디비전 -6747
ast -6748
▁기타리스트 -6749
로디 -6750
▁강연 -6751
▁공과 -6752
▁전이 -6753
▁발족 -6754
▁번주 -6755
▁선두 -6756
▁지질 -6757
▁ㅅㅏㄹㅏㅈㅕㅆ -6758
DP -6759
▁투명 -6760
▁파동 -6761
▁부통령 -6762
▁학파 -6763
▁스트리트 -6764
▁몸길이 -6765
▁피렌체 -6766
▁미나미 -6767
▁ㄷㅏㄹㅜㄴ -6768
▁임상 -6769
들리 -6770
▁보전 -6771
▁해인 -6772
▁관광객 -6773
▁위주 -6774
▁빨리 -6775
▁페어 -6776
▁중국어 -6777
▁응우옌 -6778
▁ㅅㅣㅁㅎㅏㄴ -6779
수아 -6780
▁야기 -6781
▁전지 -6782
▁김동 -6783
▁관찰사 -6784
▁ㅂㅓㄹㅇㅓㅈㅕㅆ -6785
▁고조 -6786
▁규명 -6787
▁착수 -6788
데이트 -6789
▁MVP -6790
▁배정 -6791
▁부시 -6792
▁충성 -6793
▁마케팅 -6794
▁거인 -6795
▁아세 -6796
▁성공회 -6797
if -6798
▁간접 -6799
ㄴㅐㅆ -6800
레이터 -6801
▁아이디어 -6802
▁부자 -6803
▁이에 -6804
▁저기 -6805
▁전임 -6806
▁업데이트 -6807
▁1896 -6808
랑크 -6809
▁마산 -6810
▁정벌 -6811
▁HIV -6812
▁디오 -6813
▁피에르 -6814
▁넬 -6815
▁DS -6816
▁사바 -6817
▁ㅇㅏㄹㄹㅕㅆ -6818
▁제네 -6819
▁측근 -6820
▁공용 -6821
▁하노 -6822
▁굉 -6823
트니 -6824
ack -6825
ive -6826
▁전류 -6827
ㅂㅎㅕㅆ -6828
▁부도 -6829
▁전두 -6830
아리 -6831
▁귀환 -6832
▁가득 -6833
▁권유 -6834
▁로빈 -6835
▁완화 -6836
▁점유 -6837
▁히라 -6838
▁스콧 -6839
ure -6840
▁공전 -6841
▁여덟 -6842
▁출구 -6843
▁형법 -6844
▁IP -6845
▁경선 -6846
▁맥스 -6847
IT -6848
▁붓 -6849
▁중도 -6850
▁차체 -6851
▁다이아 -6852
란트 -6853
▁중독 -6854
▁험 -6855
▁게이트 -6856
▁수학자 -6857
트롤 -6858
▁친선 -6859
▁연수 -6860
▁스타크래프트 -6861
악기 -6862
▁성벽 -6863
▁애플리케이션 -6864
균관 -6865
▁보드 -6866
▁요미우리 -6867
▁샬 -6868
▁턴 -6869
▁짙 -6870
리티 -6871
ㅅㅣㄴ -6872
▁152 -6873
▁174 -6874
운서 -6875
▁미하 -6876
▁옐 -6877
▁섞 -6878
ock -6879
▁트윈 -6880
▁아나운서 -6881
iv -6882
▁마운 -6883
▁수산 -6884
▁우즈 -6885
▁서열 -6886
▁관습 -6887
▁소송법 -6888
▁시드니 -6889
▁ㄷㅡㄹㅇㅓㅇㅘ -6890
루미 -6891
▁오렌 -6892
▁5000 -6893
▁붙이 -6894
▁세례 -6895
▁테일러 -6896
주곡 -6897
▁구동 -6898
▁지각 -6899
▁검증 -6900
▁메디 -6901
▁서일본 -6902
▁플라스 -6903
▁노동조합 -6904
▁석탄 -6905
▁조용 -6906
▁존경 -6907
▁뱅크 -6908
▁쇼핑 -6909
▁정찰 -6910
결승 -6911
▁피난 -6912
▁157 -6913
토미 -6914
▁전문학교 -6915
▁Ar -6916
▁사명 -6917
▁뷔 -6918
▁련 -6919
▁밀양 -6920
▁변동 -6921
▁장성 -6922
사기 -6923
▁규격 -6924
▁사인 -6925
▁실용 -6926
▁ㄱㅗㅅㅓ -6927
ck -6928
▁금성 -6929
츠키 -6930
▁전장 -6931
▁꼴 -6932
▁행진 -6933
문관 -6934
▁한화 -6935
▁루수 -6936
▁번뇌 -6937
▁전진 -6938
▁프로세스 -6939
▁ㅇㅓㄹㅣㄹ -6940
▁좌표 -6941
▁청와 -6942
▁수신 -6943
▁하버드 -6944
▁인과 -6945
▁ㄴㅜㄹ -6946
▁ㅉㅣ -6947
▁한강 -6948
▁준공 -6949
▁디젤 -6950
▁신칸 -6951
▁빌헬 -6952
▁테오 -6953
▁얼마나 -6954
ㄹㄹㅏㅆ -6955
▁드러내 -6956
▁미스터 -6957
▁책봉 -6958
▁청와대 -6959
가루 -6960
▁백신 -6961
▁카나 -6962
▁염색 -6963
▁자율 -6964
폴리스 -6965
▁고개 -6966
▁급진 -6967
▁복소 -6968
▁킨 -6969
▁가즈 -6970
▁관현 -6971
▁이슈 -6972
▁장인 -6973
ㅇㅓㄴ -6974
▁ㄸㅡ -6975
▁구제 -6976
▁퇴각 -6977
▁해전 -6978
▁ㅈㅏㅁㅕㄴ -6979
▁호평 -6980
원숭이 -6981
▁ㄷㅗㄹㄹㅕ -6982
▁신전 -6983
▁취약 -6984
외선 -6985
▁ㄱㅏㅈㅣㄹ -6986
▁회수 -6987
▁j -6988
포스 -6989
▁국어 -6990
▁상상 -6991
▁성균관 -6992
▁뿔 -6993
붙이 -6994
▁MP -6995
▁메가 -6996
▁해임 -6997
▁ㄴㅐㅅㅔ -6998
▁자손 -6999
▁할당 -7000
▁닫 -7001
전자 -7002
산군 -7003
▁적대 -7004
니스트 -7005
▁연구자 -7006
카드 -7007
▁판매량 -7008
▁관념 -7009
▁카시 -7010
▁흥행 -7011
▁무효 -7012
▁105 -7013
▁아울러 -7014
자와 -7015
▁연루 -7016
▁ㄱㅓㅅㅡㄹ -7017
▁몰락 -7018
▁제휴 -7019
▁소총 -7020
▁ㅂㅏㄴ -7021
▁비극 -7022
▁식당 -7023
악단 -7024
▁통행 -7025
하르트 -7026
트랙 -7027
▁ㅍㅏ -7028
▁상류 -7029
▁소금 -7030
▁지분 -7031
▁히스 -7032
▁이순 -7033
▁125 -7034
▁박영 -7035
▁파스 -7036
▁146 -7037
▁1500 -7038
수수 -7039
▁남인 -7040
▁ㅍㅣㅎㅐ -7041
▁승차 -7042
▁ㅉㅗㅊ -7043
혁명 -7044
▁쥬 -7045
▁여수 -7046
▁김용 -7047
▁루터 -7048
▁서독 -7049
▁천문학 -7050
ㅜㄹㄹㅕ -7051
▁1911 -7052
▁남양 -7053
▁이노 -7054
▁강사 -7055
▁응답 -7056
12 -7057
▁나미 -7058
▁술탄 -7059
▁젖 -7060
▁악마 -7061
▁착공 -7062
▁윌슨 -7063
▁3000 -7064
▁에티 -7065
▁창업 -7066
▁패전 -7067
▁마찰 -7068
▁외무 -7069
▁신칸센 -7070
▁동남아시아 -7071
▁저기압 -7072
ime -7073
▁유출 -7074
▁이복 -7075
▁성전 -7076
▁153 -7077
▁자책점 -7078
▁쇄 -7079
▁민국 -7080
▁나열 -7081
▁우정 -7082
고속도로 -7083
▁원나라 -7084
▁비아 -7085
메르 -7086
▁노드 -7087
▁마오 -7088
▁여래 -7089
▁충족 -7090
▁프로토콜 -7091
▁매출 -7092
▁소관 -7093
▁문제점 -7094
▁석가 -7095
▁저택 -7096
▁ㄷㅙㅆㅇㅡㅁㅕ -7097
▁얇 -7098
▁믿음 -7099
▁소닉 -7100
▁항공모 -7101
▁하마 -7102
one -7103
ㅇㅓㅈㅣㄹ -7104
▁고원 -7105
▁곳곳 -7106
▁사지 -7107
▁순천 -7108
라트 -7109
▁PS -7110
▁소재지 -7111
▁Le -7112
▁디비 -7113
▁사사 -7114
▁시집 -7115
▁청사 -7116
일드 -7117
▁과목 -7118
▁일렉 -7119
▁조언 -7120
▁시외버스 -7121
▁ㄱㅣㅇㅜㄹ -7122
▁ㄷㅡㄹㅓㄴ -7123
▁단원 -7124
▁로고 -7125
▁카트 -7126
▁ㄴㅏㄱㅏ -7127
서양 -7128
제프 -7129
▁배구 -7130
▁예배 -7131
▁이이 -7132
▁문재인 -7133
▁서서 -7134
▁유언 -7135
▁증후 -7136
▁희극 -7137
▁매개 -7138
▁강수량 -7139
▁마천 -7140
팩트 -7141
▁아즈 -7142
▁지목 -7143
▁폴리스 -7144
▁동위 -7145
▁중점 -7146
▁내내 -7147
ㄱㅜㄴ -7148
▁103 -7149
대군 -7150
▁소지 -7151
▁빌헬름 -7152
네이 -7153
▁보잉 -7154
▁ㅂㅕㄴ -7155
▁ㄸㅓㄹㅇㅓㅈㅕㅆ -7156
▁환원 -7157
▁ISO -7158
▁우주선 -7159
▁지지자 -7160
▁이글 -7161
▁Pro -7162
▁카자흐 -7163
토시 -7164
▁고무 -7165
▁환상 -7166
▁회견 -7167
▁클린 -7168
▁힌두 -7169
▁고베 -7170
▁미얀마 -7171
▁MC -7172
▁따위 -7173
▁조르 -7174
▁주권 -7175
▁연인 -7176
▁중장 -7177
▁특유 -7178
▁회계 -7179
델피아 -7180
▁필라델피아 -7181
▁개업 -7182
▁공자 -7183
▁매사 -7184
▁천사 -7185
▁찌 -7186
▁편곡 -7187
▁법령 -7188
▁취재 -7189
▁선원 -7190
▁오클 -7191
ML -7192
▁시립 -7193
▁비틀즈 -7194
AP -7195
▁기장 -7196
▁포장 -7197
▁해역 -7198
▁셈 -7199
▁제트 -7200
▁후자 -7201
▁참가자 -7202
기니 -7203
노리 -7204
▁겸임 -7205
▁으 -7206
▁성모 -7207
즈카 -7208
▁ㅂㅘㅆ -7209
▁출입구 -7210
▁머물 -7211
▁155 -7212
ㄷㅚㄴ -7213
▁굵 -7214
▁각본가 -7215
▁제의 -7216
▁공인 -7217
▁중종 -7218
▁ㅊㅏㄴ -7219
OC -7220
▁닭 -7221
▁나리 -7222
▁별개 -7223
▁최적 -7224
▁ㄷㅚㄷㅗ -7225
▁독립운동가 -7226
▁삿 -7227
▁근접 -7228
▁반격 -7229
마사 -7230
▁일관 -7231
▁친척 -7232
▁협동 -7233
▁각기 -7234
▁진리 -7235
▁보충 -7236
▁카타 -7237
▁토크 -7238
▁공략 -7239
▁버튼 -7240
▁우편 -7241
▁ㅍㅏㄴ -7242
받침 -7243
▁ㅇㅓㄴ -7244
시온 -7245
어리 -7246
▁추모 -7247
▁오렌지 -7248
▁ㄱㅓㄷㅜㄴ -7249
▁주파수 -7250
▁사가 -7251
▁유해 -7252
▁회화 -7253
▁와인 -7254
▁점프 -7255
▁정치가 -7256
te -7257
▁ㅈㅗ -7258
▁앞면 -7259
▁증후군 -7260
동물 -7261
소스 -7262
▁눈물 -7263
▁토리 -7264
▁늘어나 -7265
▁벗어나 -7266
▁별자리 -7267
▁이원 -7268
▁허브 -7269
▁둘러싸 -7270
▁ㅇㅑㄱㅎㅏㄴ -7271
▁밭 -7272
▁게재 -7273
▁법무 -7274
▁유격 -7275
▁포수 -7276
▁108 -7277
▁위장 -7278
▁항공모함 -7279
노프 -7280
▁격렬 -7281
▁리메 -7282
▁민영 -7283
▁패스 -7284
▁Bo -7285
▁미소 -7286
▁성주 -7287
▁북동부 -7288
▁오키나 -7289
▁이어서 -7290
▁동등 -7291
▁모으 -7292
▁상자 -7293
▁생일 -7294
▁사물 -7295
▁인형 -7296
▁트라이 -7297
▁앞서 -7298
▁이바 -7299
▁ㅇㅠㅎㅏㄴ -7300
▁컨트롤 -7301
▁실종 -7302
▁즐기 -7303
▁내지 -7304
▁아군 -7305
▁영동 -7306
▁평행 -7307
▁개찰구 -7308
▁두산 -7309
▁오디오 -7310
리언 -7311
산면 -7312
▁나고 -7313
▁Con -7314
▁토요일 -7315
▁담배 -7316
▁대답 -7317
▁유교 -7318
▁ㄹㅏㄹ -7319
▁민사 -7320
▁아바 -7321
▁인격 -7322
▁베르크 -7323
▁합법 -7324
플러 -7325
▁매력 -7326
▁일찍이 -7327
▁사우디아 -7328
▁이인 -7329
▁룰 -7330
▁감지 -7331
▁테스 -7332
때로 -7333
▁레전 -7334
▁금액 -7335
▁ㄴㅗㄴ -7336
▁ㅇㅣㄱ -7337
▁준결승 -7338
▁서해 -7339
▁하우 -7340
▁스파이 -7341
io -7342
산리 -7343
▁상부 -7344
▁채무 -7345
▁승무원 -7346
▁아리스 -7347
상스 -7348
▁퍼시픽 -7349
▁히데요시 -7350
▁에디 -7351
▁외곽 -7352
▁고체 -7353
▁양상 -7354
▁일족 -7355
▁나고야 -7356
ber -7357
▁ㅋㅓㅆ -7358
▁하인리히 -7359
가타 -7360
▁건의 -7361
▁야간 -7362
▁이영 -7363
▁입상 -7364
▁자발 -7365
▁교장 -7366
▁스터 -7367
▁아케 -7368
▁박탈 -7369
▁화살 -7370
▁이사장 -7371
▁IT -7372
▁전두환 -7373
▁드라이브 -7374
러미 -7375
▁브래 -7376
베이터 -7377
▁에이스 -7378
▁전례 -7379
▁ㄷㅡㄹㅇㅕ -7380
▁상장 -7381
▁해운 -7382
▁때때로 -7383
▁상대방 -7384
▁크리스마스 -7385
▁세균 -7386
▁호세 -7387
▁ㅇㅓㄷㅜㅇㅜㄴ -7388
▁멈 -7389
▁앙리 -7390
▁ㅁㅏㅌ -7391
▁1909 -7392
▁생명체 -7393
▁서서히 -7394
▁외국어 -7395
▁태어나 -7396
항공 -7397
▁던지 -7398
▁트럼프 -7399
퍼니 -7400
▁사다 -7401
▁시청자 -7402
▁교단 -7403
▁대주교 -7404
▁ㅇㅣㄹㅡㄴ -7405
▁이슬람교 -7406
▁ㄱㅓㅅㅡㄹㄹㅓ -7407
화점 -7408
▁ㅈㅏㄱㅗ -7409
▁추격 -7410
▁김영삼 -7411
▁ㅎㅏㄴㄷㅔ -7412
▁149 -7413
▁128 -7414
▁ㅁㅏㅊㅣㄴ -7415
▁복장 -7416
▁캠페인 -7417
▁ㄴㅏㅁㄱㅣㄴ -7418
▁톈 -7419
▁기금 -7420
▁궁정 -7421
▁부착 -7422
▁콜라 -7423
▁향교 -7424
▁ㅁㅣㄹ -7425
▁보스니아 -7426
모어 -7427
▁102 -7428
▁메타 -7429
▁물자 -7430
▁아우구 -7431
Pa -7432
▁만세 -7433
▁명의 -7434
▁연도 -7435
람회 -7436
▁홍수 -7437
▁수성 -7438
▁시라 -7439
▁전도 -7440
▁건축가 -7441
▁사용자 -7442
▁고발 -7443
▁제작자 -7444
▁ㅁㅜㄹㄹㅓㄴㅏㅆ -7445
구장 -7446
라이트 -7447
칠리아 -7448
▁ㄱㅏㅁ -7449
▁운동장 -7450
▁무려 -7451
▁안장 -7452
▁# -7453
▁골프 -7454
▁대군 -7455
▁ㅎㅓㄴ -7456
▁가르침 -7457
▁배틀 -7458
▁트위 -7459
▁호칭 -7460
▁ㅂㅓㄹㅣㄴ -7461
▁ㅍㅜㄹㅡㄴ -7462
▁고가 -7463
▁어드 -7464
▁치세 -7465
▁후안 -7466
▁트루 -7467
▁기다리 -7468
ㅅㅣ -7469
▁발원 -7470
▁짜리 -7471
▁최저 -7472
▁ㅈㅏㅁㅏ -7473
▁르네상스 -7474
▁사우디아라비아 -7475
ge -7476
age -7477
▁대외 -7478
▁주지사 -7479
▁텍스트 -7480
▁긴장 -7481
▁에스파냐 -7482
▁차남 -7483
▁정밀 -7484
먼드 -7485
▁남한 -7486
▁발현 -7487
▁집계 -7488
트릭 -7489
▁슬라 -7490
라미 -7491
▁계절 -7492
▁셸 -7493
iz -7494
집합 -7495
▁전대 -7496
▁직책 -7497
백과 -7498
▁여주 -7499
▁키프 -7500
▁중국인 -7501
▁가라 -7502
▁중재 -7503
▁아미타 -7504
▁Bl -7505
▁섭취 -7506
▁네이버 -7507
▁자유당 -7508
▁존중 -7509
▁$ -7510
▁세미 -7511
▁ㅈㅏㅁㅏㅈㅏ -7512
▁시오 -7513
▁사이버 -7514
▁송나라 -7515
▁포도주 -7516
▁대니 -7517
▁포괄 -7518
▁문양 -7519
창기 -7520
▁원자로 -7521
▁피고 -7522
▁에우 -7523
▁지나치 -7524
▁고래 -7525
▁향후 -7526
▁레이저 -7527
▁다중 -7528
▁강경 -7529
▁리오 -7530
▁ㄷㅜㅇㄱ -7531
▁룽 -7532
▁단기 -7533
ㅜㅁㅕ -7534
AD -7535
▁여의 -7536
▁레전드 -7537
▁팔레스 -7538
우라 -7539
▁조반 -7540
▁청장 -7541
▁충주 -7542
▁최소한 -7543
차례 -7544
▁상세 -7545
▁ㅎㅡ -7546
▁팽창 -7547
▁얘 -7548
생활 -7549
▁수평 -7550
▁태생 -7551
▁토마 -7552
▁턱 -7553
▁사절 -7554
▁패하 -7555
▁127 -7556
▁로프 -7557
▁탐지 -7558
▁CPU -7559
▁ㅋㅣㄹ -7560
▁댐 -7561
▁여진 -7562
▁노란색 -7563
▁고사 -7564
▁스릴 -7565
▁ㄱㅜㄴ -7566
▁블루스 -7567
▁프랭크 -7568
▁왜성 -7569
▁원하 -7570
▁토스 -7571
▁손가락 -7572
▁아미노 -7573
▁그랑프리 -7574
나리 -7575
▁147 -7576
▁경부 -7577
▁1915 -7578
▁방침 -7579
▁엘리베이터 -7580
▁기수 -7581
▁케네 -7582
▁갓 -7583
▁볼리 -7584
▁단점 -7585
▁역명 -7586
ㄲㅇㅕ -7587
▁굉장 -7588
▁속성 -7589
sp -7590
▁끈 -7591
▁명목 -7592
▁하이드 -7593
▁ㅈㅜㄱㅇㅕㅆ -7594
노부 -7595
수엘라 -7596
▁메인 -7597
▁무죄 -7598
▁수군 -7599
▁난민 -7600
▁로맨스 -7601
▁가져 -7602
▁객관 -7603
▁1913 -7604
▁알코 -7605
▁초연 -7606
▁캄보 -7607
▁겔 -7608
서리 -7609
행위 -7610
▁촉구 -7611
orld -7612
▁딩 -7613
▁제곱 -7614
▁추증 -7615
▁황해 -7616
▁마비 -7617
▁전함 -7618
▁북구 -7619
▁171 -7620
▁동독 -7621
▁유소년 -7622
▁동당 -7623
▁숭배 -7624
▁주축 -7625
▁김태 -7626
▁부천 -7627
▁취지 -7628
▁오키나와 -7629
▁라파 -7630
ㅈㅜㄴ -7631
▁후일 -7632
▁윌리엄스 -7633
▁쉐 -7634
▁낙선 -7635
▁분광 -7636
▁심의 -7637
▁입체 -7638
▁이어받 -7639
▁캐스팅 -7640
▁북방 -7641
▁협조 -7642
ㄷㅓㄴ -7643
▁테니스 -7644
▁위키백과 -7645
ik -7646
워하 -7647
▁음원 -7648
창군 -7649
▁진군 -7650
▁ㅂㅜㄹㅡㄴ -7651
▁투르크 -7652
▁김재 -7653
▁둘레 -7654
▁침몰 -7655
▁문학상 -7656
▁유니폼 -7657
▁천문학자 -7658
▁베네수엘라 -7659
▁김수 -7660
▁신흥 -7661
▁광년 -7662
▁동년 -7663
▁동래 -7664
▁부과 -7665
▁창건 -7666
▁상당수 -7667
▁따뜻 -7668
▁마하 -7669
▁타르 -7670
기지 -7671
▁추상 -7672
▁ㅂㅜㄴ -7673
▁ㄱㅏㅎㅐ -7674
▁태수 -7675
▁ㅇㅏㄷㅗ -7676
시티 -7677
▁강과 -7678
▁대포 -7679
▁출토 -7680
▁보리 -7681
▁초창기 -7682
▁ㄷㅏㄹㄹㅣㄴ -7683
▁ㄱㅓㄹㄹ -7684
▁개미 -7685
▁컬러 -7686
▁팜 -7687
▁서사 -7688
▁시그 -7689
▁옥스 -7690
▁닿 -7691
▁센서 -7692
ㅓㅇㅝ -7693
명사전 -7694
자치도 -7695
▁제주특별 -7696
▁제주특별자치도 -7697
▁원고 -7698
▁창시 -7699
▁원반 -7700
포구 -7701
▁대역 -7702
▁언제나 -7703
▁이민자 -7704
▁수령 -7705
▁ㅁㅣㅊㅕㅆ -7706
▁ㄱㅏㅈㅕㅇㅘㅆ -7707
▁GT -7708
▁수렴 -7709
▁이틀 -7710
▁169 -7711
▁CE -7712
▁병역 -7713
▁탈환 -7714
▁1895 -7715
▁ㄱㅏㄹㅡㅊㅕㅆ -7716
▁라이언 -7717
▁스파르타 -7718
▁어업 -7719
▁조리 -7720
▁카탈 -7721
▁코프 -7722
▁디스플레이 -7723
▁ㅈㅓㄴㅎㅏㄴㄷㅏ -7724
▁나가사키 -7725
▁바흐 -7726
▁수동 -7727
▁al -7728
▁남원 -7729
▁링컨 -7730
▁머신 -7731
▁무제 -7732
▁리메이크 -7733
평군 -7734
▁SP -7735
▁딴 -7736
▁뚫 -7737
▁기습 -7738
▁141 -7739
▁총선거 -7740
▁프레스 -7741
▁팔레스타인 -7742
▁모스 -7743
▁아폴 -7744
▁통칭 -7745
▁광부 -7746
박쥐 -7747
▁ㅇㅔㄷㅏ -7748
▁인재 -7749
▁WWE -7750
▁아사히 -7751
▁김진 -7752
▁ㅂㅕㄹ -7753
▁ㅅㅟㅇㅜㄴ -7754
포트 -7755
▁Tr -7756
▁법제 -7757
▁종결 -7758
▁언론인 -7759
▁대처 -7760
▁유수 -7761
네스코 -7762
▁135 -7763
공신 -7764
▁총괄 -7765
MS -7766
▁나주 -7767
▁주차 -7768
▁비문 -7769
▁하부 -7770
▁다운로드 -7771
▁유연 -7772
▁국사 -7773
▁동력 -7774
▁온천 -7775
▁적자 -7776
▁초상화 -7777
▁한동안 -7778
▁재미 -7779
▁거느리 -7780
▁드러나 -7781
▁북서부 -7782
▁ㄷㅡㄴㅈㅣ -7783
무기 -7784
▁엔지 -7785
그라드 -7786
벌레 -7787
▁탤 -7788
보기 -7789
▁대제 -7790
▁도호쿠 -7791
▁자기장 -7792
ust -7793
▁풋볼 -7794
▁걱 -7795
자스 -7796
▁소실 -7797
석기 -7798
▁섭정 -7799
▁양주 -7800
▁수용소 -7801
▁문화방송 -7802
▁계몽 -7803
와라 -7804
▁멈추 -7805
▁서머 -7806
▁신세 -7807
▁이진 -7808
▁후세 -7809
ep -7810
▁111 -7811
▁해병대 -7812
▁시공 -7813
▁어스 -7814
▁ㅈㅣㄴㅐㅆㅇㅡㅁㅕ -7815
▁청원 -7816
▁효력 -7817
▁144 -7818
▁개관 -7819
▁귀중 -7820
▁정말 -7821
▁반박 -7822
▁후대 -7823
▁ㅂㅓㄹㅕ -7824
▁고백 -7825
▁번영 -7826
▁영리 -7827
▁서울대 -7828
▁저명 -7829
▁차기 -7830
선거 -7831
▁중순 -7832
▁ㄷㅔㄹㅕ -7833
▁더글 -7834
▁바실 -7835
▁신중 -7836
▁끊임 -7837
▁김포 -7838
▁스핀 -7839
▁ㅈㅏㄹㅏㅆ -7840
▁ㄷㅜㅇㄱㅡㄴ -7841
▁폐위 -7842
▁함유 -7843
▁스티브 -7844
▁식별 -7845
▁풍경 -7846
▁ㅇㅕㄱㅕㅆ -7847
태우 -7848
▁첨가 -7849
▁아레나 -7850
▁hPa -7851
int -7852
▁오빠 -7853
▁십자가 -7854
▁연세대 -7855
▁대위 -7856
▁장미 -7857
▁제수 -7858
▁기요 -7859
▁평야 -7860
▁119 -7861
▁스릴러 -7862
▁컬럼비아 -7863
누엘 -7864
▁정전 -7865
▁리버풀 -7866
▁컴퍼니 -7867
▁내외 -7868
▁ㅂㅗㅇㅣㄴ -7869
▁ㄷㅜㄹㄹㅓㅆㅏㄴ -7870
▁TH -7871
▁공채 -7872
▁날짜 -7873
▁무상 -7874
▁조달 -7875
▁휴식 -7876
▁캄보디아 -7877
▁두루 -7878
▁정무 -7879
▁천도 -7880
▁파업 -7881
▁It -7882
▁인산 -7883
▁신학교 -7884
▁케네디 -7885
▁이광 -7886
▁다니엘 -7887
▁도스 -7888
▁불편 -7889
▁언더 -7890
트리올 -7891
▁몬트리올 -7892
▁매카 -7893
크리트 -7894
▁별칭 -7895
▁삼진 -7896
▁ㅇㅜㄹ -7897
▁큰 -7898
키지 -7899
▁교양 -7900
▁드럼 -7901
▁원내 -7902
▁172 -7903
▁CO -7904
▁병조 -7905
▁요르 -7906
▁중소 -7907
▁편리 -7908
GC -7909
푸스 -7910
▁아종 -7911
▁충실 -7912
▁간호 -7913
▁소환 -7914
▁총사 -7915
▁유니버 -7916
▁ㄱㅡㄹㅕㅆ -7917
EN -7918
▁루시 -7919
▁관통 -7920
▁며칠 -7921
▁평일 -7922
▁ㅆㅓㅅㅓ -7923
▁걱정 -7924
▁사회학 -7925
▁우연히 -7926
▁친일인 -7927
▁친일인명사전 -7928
▁룡 -7929
시로 -7930
▁이글스 -7931
▁유네스코 -7932
ib -7933
▁묘역 -7934
▁전성기 -7935
▁ㅆㅡㅇㅣㄴ -7936
▁교원 -7937
▁껍질 -7938
▁명백 -7939
▁선구 -7940
▁애덤 -7941
▁ㅅㅗ -7942
▁106 -7943
▁신학자 -7944
▁미주 -7945
▁바퀴 -7946
▁ㅎㅡㅌ -7947
▁니콜라 -7948
▁아틀레 -7949
▁페르난 -7950
▁꽤 -7951
리에 -7952
릴라 -7953
ome -7954
▁북위 -7955
▁장안 -7956
▁총대 -7957
▁테레 -7958
▁카리브 -7959
▁ㅈㅓㅇㅎㅏㄴ -7960
▁베드 -7961
▁선종 -7962
ian -7963
ude -7964
▁해수 -7965
▁휴전 -7966
▁스페이스 -7967
▁엔지니어 -7968
그로 -7969
니치 -7970
▁바치 -7971
▁아벨 -7972
▁위임 -7973
▁당일 -7974
라리 -7975
▁공모 -7976
▁관람 -7977
▁중량 -7978
▁겸하 -7979
▁김상 -7980
▁의상 -7981
▁제갈 -7982
▁공직 -7983
▁리어 -7984
▁신기 -7985
▁고민 -7986
▁미즈 -7987
▁연패 -7988
▁증진 -7989
케이션 -7990
▁프랑수아 -7991
▁슈트 -7992
▁승점 -7993
▁한성부 -7994
러드 -7995
▁초과 -7996
▁표명 -7997
▁콘크리트 -7998
▁콰 -7999
▁모방 -8000
▁평범 -8001
▁We -8002
▁에스토 -8003
▁도주 -8004
▁등재 -8005
▁마츠 -8006
▁서남 -8007
▁좌절 -8008
▁지혜 -8009
▁세계관 -8010
▁낱말 -8011
▁보완 -8012
▁정렬 -8013
▁아이슬 -8014
▁ㄷㅗㅇㅘㅆ -8015
▁지폐 -8016
▁쇼트 -8017
▁생전 -8018
▁소통 -8019
내셔널 -8020
▁인터내셔널 -8021
세츠 -8022
페르 -8023
▁마인 -8024
▁케이스 -8025
ere -8026
▁충북 -8027
▁해변 -8028
▁ㄴㅏㄴㄷㅏ -8029
▁방패 -8030
▁열대 -8031
▁아이템 -8032
말라 -8033
▁돌연 -8034
▁영남 -8035
▁장려 -8036
▁진짜 -8037
▁매사추 -8038
▁책임자 -8039
▁미토 -8040
▁전압 -8041
선스 -8042
▁고수 -8043
▁매사추세츠 -8044
▁기울 -8045
▁대웅 -8046
▁상서 -8047
▁일화 -8048
▁합창 -8049
▁외교관 -8050
▁ㄲㅔㅅㅓ -8051
블로 -8052
▁그루 -8053
▁배신 -8054
▁탱크 -8055
▁우라늄 -8056
치오 -8057
▁공단 -8058
▁중추원 -8059
▁ㅇㅣㄹㅇㅓㄴㅏㄹ -8060
▁단식 -8061
주의자 -8062
▁아이슬란드 -8063
▁ㄷㅡㄹㅇㅓㅇㅗㄴ -8064
ire -8065
▁발트 -8066
▁암석 -8067
▁치열 -8068
▁황태자 -8069
루션 -8070
▁ㅂㅓㅅㅇㅓㄴㅏ -8071
▁ㄷㅡㄹㅇㅓㅇㅘㅆ -8072
실록 -8073
▁도라 -8074
▁일조 -8075
▁입지 -8076
▁투르 -8077
유행 -8078
▁불명 -8079
▁양도 -8080
▁청하 -8081
▁포격 -8082
▁나스 -8083
▁공의회 -8084
▁역설 -8085
라이더 -8086
▁퍼센트 -8087
▁스페인어 -8088
▁부채 -8089
▁시흥 -8090
▁교외 -8091
▁영장 -8092
ment -8093
▁바라보 -8094
pe -8095
▁레바 -8096
▁호위 -8097
▁도루 -8098
▁지나가 -8099
▁ㅇㅓㅇㅛ -8100
ace -8101
▁도르 -8102
▁호프 -8103
▁소유자 -8104
▁시나리오 -8105
▁에스토니아 -8106
▁ㅁㅜㄱㅓㅇㅜㄴ -8107
▁신속 -8108
▁에버 -8109
▁횟 -8110
▁상담 -8111
▁실전 -8112
▁덤 -8113
▁친왕 -8114
▁라이선스 -8115
야시 -8116
▁로열 -8117
▁업계 -8118
▁통근 -8119
▁닝 -8120
▁쿤 -8121
ide -8122
▁평택 -8123
▁오사 -8124
▁김기 -8125
▁오세 -8126
마드 -8127
▁우울 -8128
▁중심부 -8129
▁물리학자 -8130
▁오비 -8131
▁대전광역시 -8132
석탑 -8133
▁고령 -8134
▁육지 -8135
▁카이사르 -8136
▁사슬 -8137
▁서정 -8138
▁창고 -8139
▁푼 -8140
▁오노 -8141
▁인연 -8142
▁항소 -8143
오피아 -8144
층석탑 -8145
▁에티오피아 -8146
▁마약 -8147
▁봉쇄 -8148
▁애틀 -8149
▁물러 -8150
▁바리 -8151
▁장난 -8152
▁ㅊㅣㄹㅓ -8153
▁기인 -8154
▁리비아 -8155
▁ㄴㅐㄹㅣㄴ -8156
▁여지 -8157
▁치즈 -8158
리케인 -8159
바이잔 -8160
▁148 -8161
ㄹㄹㅓㅆ -8162
▁즈음 -8163
▁시선 -8164
▁전라도 -8165
▁슬로바키아 -8166
▁부재 -8167
▁차종 -8168
▁현금 -8169
▁1916 -8170
▁할리우드 -8171
▁ㄴㅏㅃㅡㄴ -8172
제리 -8173
▁HT -8174
▁탈당 -8175
▁협주곡 -8176
▁허리케인 -8177
▁신생 -8178
▁격투 -8179
▁지능 -8180
▁136 -8181
▁ㅅㅜㅁㄱㅕ -8182
▁마이너 -8183
▁닛폰 -8184
▁파장 -8185
▁아제르 -8186
▁실시간 -8187
▁스튜어트 -8188
▁서재 -8189
▁해소 -8190
▁그로 -8191
▁바닷 -8192
▁순회 -8193
▁위탁 -8194
지리아 -8195
▁NBA -8196
▁나이지리아 -8197
▁밟 -8198
중국 -8199
▁TO -8200
▁극동 -8201
▁병행 -8202
▁네이션스 -8203
▁아제르바이잔 -8204
위원 -8205
▁성운 -8206
▁의뢰 -8207
▁아드 -8208
▁파이어 -8209
IM -8210
▁낭만 -8211
▁ㄷㅏㄹㅡㄴ -8212
▁추출 -8213
▁IBM -8214
아이 -8215
▁동상 -8216
▁입당 -8217
▁조연 -8218
▁명제 -8219
▁하락 -8220
▁원숭이 -8221
▁이사회 -8222
▁다항 -8223
▁작센 -8224
▁산림 -8225
▁특집 -8226
▁호기 -8227
▁결혼식 -8228
▁돌리 -8229
▁말리 -8230
의자 -8231
하면 -8232
▁막내 -8233
▁추세 -8234
▁앓 -8235
시피 -8236
▁부적 -8237
▁ㅂㅏㄲㅝ -8238
▁솜 -8239
바다 -8240
▁기단 -8241
▁노부나가 -8242
▁ㅃㅏㅈㅕㅆ -8243
▁워드 -8244
▁의약 -8245
▁허리 -8246
▁급격히 -8247
▁배터리 -8248
람쥐 -8249
▁시초 -8250
▁우루과이 -8251
▁쌍둥이 -8252
▁ㅅㅏㄴㄷㅏ -8253
▁국무총리 -8254
▁ㅈㅓㄴㅎㅏㄴ -8255
▁구릉 -8256
▁안성 -8257
▁138 -8258
▁패키지 -8259
▁ㅂㅓㄹㅣㄴㄷㅏ -8260
▁DC -8261
▁구도 -8262
▁바스 -8263
▁실리 -8264
▁약칭 -8265
▁한스 -8266
ㅂㅎㅣㄴ -8267
▁사헌 -8268
▁신탁 -8269
▁실장 -8270
▁전념 -8271
▁평원 -8272
▁브라우저 -8273
▁니아 -8274
▁되게 -8275
▁유동 -8276
▁닷 -8277
▁면허 -8278
▁반감 -8279
▁세션 -8280
▁지류 -8281
▁데이비스 -8282
cl -8283
▁구이 -8284
▁ㅊㅣㄹㅓㅈㅣㄴ -8285
▁격퇴 -8286
▁구호 -8287
▁아마도 -8288
▁가동 -8289
▁중위 -8290
▁현종 -8291
▁페르디 -8292
▁리틀 -8293
▁잦 -8294
▁주행 -8295
▁리우스 -8296
▁박해 -8297
▁저하 -8298
▁해밀 -8299
▁ㅅㅣㄹ -8300
▁딕 -8301
▁이세 -8302
타로 -8303
▁경연 -8304
▁신한 -8305
▁백화점 -8306
승지 -8307
▁거론 -8308
▁거제 -8309
▁백색 -8310
▁수습 -8311
▁시즈 -8312
▁회고 -8313
▁후쿠시마 -8314
▁la -8315
▁객체 -8316
▁분당 -8317
▁우세 -8318
▁첼시 -8319
▁지선 -8320
▁360 -8321
▁ㄴㅏㅌㅏㄴㅐㄹ -8322
아나 -8323
▁레논 -8324
▁신규 -8325
▁얘기 -8326
▁개그 -8327
▁구조물 -8328
▁고성 -8329
▁중성자 -8330
▁치명 -8331
▁시칠리아 -8332
▁ㅂㅜㅌㅇㅕㅆ -8333
▁상공 -8334
리니 -8335
타나 -8336
▁오바 -8337
▁토성 -8338
▁포터 -8339
▁영의정 -8340
▁재위 -8341
▁춘천 -8342
▁바이오 -8343
▁ㅇㅕㄱㅕㅈㅕㅆ -8344
토모 -8345
▁극히 -8346
▁최상위 -8347
▁라이브러리 -8348
여래 -8349
▁거행 -8350
▁결선 -8351
▁복선 -8352
▁사헌부 -8353
▁냉각 -8354
▁성숙 -8355
래스카 -8356
▁고소 -8357
▁탐구 -8358
▁104 -8359
▁도미 -8360
▁아부 -8361
▁라트비아 -8362
곡리 -8363
▁가면 -8364
▁깨달 -8365
마쓰 -8366
▁ㄱㅏㅂㅕ -8367
▁릉 -8368
대신 -8369
▁En -8370
▁생식 -8371
▁LP -8372
▁ㄴㅓ -8373
▁감리 -8374
▁트래 -8375
▁횟수 -8376
▁ㅈㅓㄴㅎㅐㅆ -8377
▁한쪽 -8378
▁ㅅㅐㄱㅕㅈㅕ -8379
▁그램 -8380
▁도장 -8381
▁장학 -8382
▁애틀랜 -8383
▁펌 -8384
▁비시 -8385
▁피에 -8386
▁ㅃㅐㅇ -8387
▁게르만 -8388
양함 -8389
▁어휘 -8390
▁임용 -8391
▁택시 -8392
▁오피스 -8393
▁후방 -8394
▁다스리 -8395
▁랄 -8396
▁기어 -8397
▁해적 -8398
▁혈통 -8399
브레 -8400
ark -8401
▁모니터 -8402
▁테이블 -8403
▁송시 -8404
▁주가 -8405
▁춘추 -8406
스틴 -8407
은색 -8408
하시 -8409
▁성체 -8410
▁제독 -8411
▁차장 -8412
▁109 -8413
회장 -8414
▁행적 -8415
▁반도체 -8416
▁Pr -8417
▁개원 -8418
▁고인 -8419
▁고치 -8420
▁목판 -8421
▁잔류 -8422
▁환영 -8423
▁최악 -8424
▁스톡 -8425
▁없애 -8426
▁재현 -8427
▁주름 -8428
▁스트레스 -8429
데시 -8430
▁그날 -8431
▁교황청 -8432
▁이케 -8433
▁칼라 -8434
▁123 -8435
▁방송사 -8436
▁나비 -8437
베르토 -8438
▁코무네 -8439
타고 -8440
▁가짜 -8441
▁정점 -8442
▁ㅇㅔㄹ -8443
▁대학생 -8444
▁옴 -8445
▁동점 -8446
▁공수 -8447
▁우위 -8448
더슨 -8449
▁아홉 -8450
▁축하 -8451
▁대표작 -8452
▁ㄱㅚ -8453
▁휴스턴 -8454
고쿠 -8455
리안 -8456
▁민회 -8457
▁소매 -8458
▁통증 -8459
▁하워드 -8460
▁바나 -8461
▁반경 -8462
푸르트 -8463
▁ㅇㅑㄱ -8464
▁뢰 -8465
▁햇 -8466
▁펜실 -8467
▁폭동 -8468
베이니아 -8469
▁펜실베이니아 -8470
▁견제 -8471
▁부당 -8472
▁왜냐 -8473
▁명령어 -8474
▁매입 -8475
▁억압 -8476
▁현저 -8477
▁공산주의자 -8478
▁ㅂㅕㄹㄷㅏㄹㅡㄴ -8479
포드 -8480
헤이 -8481
▁ㄷㅣ -8482
▁루프 -8483
▁ㅅㅣㄹㄹㅕ -8484
▁성취 -8485
▁인플 -8486
▁종로구 -8487
▁타이거즈 -8488
▁AK -8489
▁광물 -8490
▁시바 -8491
▁적당 -8492
▁순교 -8493
▁아담 -8494
▁힘입 -8495
▁143 -8496
▁연합회 -8497
▁카자흐스탄 -8498
란히 -8499
▁터치 -8500
▁야구장 -8501
▁ㄴㅏㄴㅜㄹ -8502
▁너비 -8503
▁노바 -8504
▁분기점 -8505
차기 -8506
▁주역 -8507
▁한인 -8508
랜트 -8509
▁NC -8510
▁주주 -8511
▁AR -8512
▁경관 -8513
▁벌금 -8514
▁여당 -8515
바시 -8516
▁다발 -8517
▁분비 -8518
▁상점 -8519
▁수련 -8520
▁청춘 -8521
법인 -8522
▁리우 -8523
▁비리 -8524
▁산란 -8525
▁신조 -8526
▁ㅌㅓㄴ -8527
은이 -8528
▁열정 -8529
▁이식 -8530
▁처녀 -8531
ㅀㅇㅓ -8532
▁베스 -8533
▁사모 -8534
▁상단 -8535
▁육체 -8536
▁부르크 -8537
▁호랑이 -8538
▁이화 -8539
▁축적 -8540
▁동아일보 -8541
▁ㄷㅏㅅㅡㄹ -8542
▁모이 -8543
▁ㄷㅓㅅㅂㅜㅌㅇㅕ -8544
▁팡 -8545
글리 -8546
▁토모 -8547
▁히메 -8548
AL -8549
▁CS -8550
▁요하 -8551
▁피츠 -8552
▁이에야스 -8553
▁암시 -8554
▁유한 -8555
▁존속 -8556
▁염기 -8557
▁성사 -8558
▁신주 -8559
▁ㄴㅔㄴ -8560
▁마야 -8561
▁출처 -8562
▁col -8563
▁롤링 -8564
▁비자 -8565
▁ㄲㅗㅂㅎ -8566
산동 -8567
▁응원 -8568
▁컴파 -8569
▁팔라 -8570
▁ㄱㅘㄴㅎㅐㅅㅓ -8571
▁자민 -8572
▁제프 -8573
▁박람회 -8574
▁블라디미르 -8575
ile -8576
▁CC -8577
▁목재 -8578
▁남동부 -8579
▁펑크 -8580
▁소나타 -8581
▁플라이 -8582
▁관구 -8583
▁근교 -8584
▁왓 -8585
▁통영 -8586
▁ㅁㅗㅅㅎㅏㄹ -8587
▁맵 -8588
▁휠 -8589
▁김경 -8590
러스트 -8591
▁룬 -8592
▁래퍼 -8593
▁해명 -8594
ㄷㅡㄹㅇㅕ -8595
▁음료 -8596
브리지 -8597
▁알코올 -8598
▁ㅂㅜㄷㅡㄹ -8599
▁유로파 -8600
▁친일파 -8601
▁부설 -8602
▁상반 -8603
▁경상도 -8604
▁기적 -8605
▁오해 -8606
▁이윤 -8607
▁차이점 -8608
▁태양계 -8609
▁블로그 -8610
▁광학 -8611
▁법조 -8612
▁살리 -8613
▁설탕 -8614
▁폭행 -8615
▁ㄷㅜㄹㅕ -8616
▁ㄴㅗㄹㄹㅏ -8617
▁Op -8618
▁보석 -8619
▁상용 -8620
▁적분 -8621
▁티스 -8622
ies -8623
▁운하 -8624
▁황실 -8625
▁ㄲㅡㄹㅇㅓ -8626
▁나트 -8627
▁ㅁㅗㅇㅏㅆ -8628
▁다이아몬드 -8629
▁가죽 -8630
▁누이 -8631
▁유죄 -8632
▁충전 -8633
▁조선일보 -8634
면체 -8635
▁사육 -8636
▁시골 -8637
▁신념 -8638
▁생산량 -8639
▁킥 -8640
비나 -8641
살이 -8642
▁그동안 -8643
▁규범 -8644
라클 -8645
▁무지 -8646
▁ㄷㅏㄹㅎㅐㅆ -8647
xt -8648
기업 -8649
▁증대 -8650
▁CON -8651
▁만남 -8652
▁경찰청 -8653
▁아예 -8654
▁카롤 -8655
▁중의원 -8656
▁ㄸㅡㄱㅓㅇㅜㄴ -8657
▁동국 -8658
▁라오스 -8659
▁베어스 -8660
도리 -8661
▁공익 -8662
▁말라 -8663
▁이타 -8664
달리 -8665
▁단단 -8666
▁어원 -8667
▁히사 -8668
▁112 -8669
▁RNA -8670
▁ㅃㅏㅈㅣㄴ -8671
▁ㅅㅗㄱㅎㅐㅆ -8672
▁ㅇㅝㄴㅎㅐㅆ -8673
▁공습 -8674
▁국소 -8675
▁빨간 -8676
▁브라더스 -8677
▁ㄴㅡㄹㅇㅓㄴㅏㅆ -8678
▁흠 -8679
▁부제 -8680
▁상사 -8681
▁뛰어나 -8682
▁키프로스 -8683
▁107 -8684
▁ㅊㅕㅆ -8685
▁공관 -8686
▁미르 -8687
ite -8688
▁시어 -8689
▁ㄱㅏㄷ -8690
▁우유 -8691
▁사업자 -8692
▁트윈스 -8693
▁삼층석탑 -8694
▁시베리아 -8695
▁공천 -8696
▁비유 -8697
▁후사 -8698
▁구축함 -8699
▁루이지 -8700
▁레일 -8701
▁장거리 -8702
▁창원시 -8703
▁가군 -8704
▁아랍어 -8705
권자 -8706
▁is -8707
▁신민 -8708
▁조세 -8709
▁우승자 -8710
▁깔 -8711
고래 -8712
▁발해 -8713
▁언니 -8714
▁옆면 -8715
▁Te -8716
▁당주 -8717
▁성단 -8718
▁126 -8719
▁트위터 -8720
▁카를로스 -8721
▁거북 -8722
▁잊 -8723
도바 -8724
▁수법 -8725
▁확신 -8726
▁이산화 -8727
▁사우루스 -8728
▁이순신 -8729
▁줄무늬 -8730
스부르크 -8731
▁왜냐하면 -8732
레기 -8733
▁신선 -8734
▁품종 -8735
▁탐사선 -8736
랑카 -8737
▁소셜 -8738
▁헤비 -8739
▁117 -8740
▁대웅전 -8741
▁ㅇㅣㄱㅣㄴ -8742
ft -8743
▁깨닫 -8744
▁맥락 -8745
▁범인 -8746
▁조종사 -8747
▁플러스 -8748
▁ㄷㅡㄹㅓㄴㅏㅆ -8749
지붕 -8750
▁맥주 -8751
▁송시열 -8752
▁여파 -8753
▁구출 -8754
▁대폭 -8755
▁동문 -8756
▁제재 -8757
▁협박 -8758
▁도마뱀붙이 -8759
▁ㅂㅏㄷㅇㅏㄷㅡㄹㅇㅕㅆ -8760
▁누나 -8761
▁연쇄 -8762
▁천장 -8763
▁포럼 -8764
▁ㄷㅡㅁ -8765
▁굉장히 -8766
▁실체 -8767
▁퐁 -8768
갈색 -8769
▁왜곡 -8770
▁허위 -8771
▁드로 -8772
아다니 -8773
▁법무부 -8774
▁나르 -8775
▁핸드 -8776
▁평의회 -8777
ㅇㅏㄴㅐㅆ -8778
▁ㄸㅣㄴㄷㅏ -8779
▁ㅈㅏㄹㅏㄴ -8780
수리 -8781
▁교과서 -8782
▁살아가 -8783
▁ㄱㅜㅎㅐ -8784
▁교정 -8785
▁근원 -8786
▁소원 -8787
▁지평 -8788
▁네스 -8789
▁할머니 -8790
▁SE -8791
▁그만두 -8792
▁내려오 -8793
▁경보 -8794
▁우호 -8795
▁입원 -8796
▁제니 -8797
▁ㄷㅏㄴㅕ -8798
▁이경 -8799
▁ㅅㅐㅇㄱㅕㄴㅏㅆ -8800
▁곡인 -8801
▁몰리 -8802
▁키우 -8803
▁ㄷㅏㅁㄱㅕ -8804
▁빈곤 -8805
▁아카데미상 -8806
▁ㄷㅏㅁㄱㅣㄴ -8807
▁ㄱㅓㄴㄴㅓㄱㅏ -8808
▁인문 -8809
▁인체 -8810
▁가마쿠라 -8811
▁ㄴㅗㄹ -8812
▁양키스 -8813
▁희생자 -8814
▁ㄴㅡㄲㅕ -8815
다지 -8816
▁마디 -8817
▁고속도 -8818
▁빨간색 -8819
▁ㄷㅜㄷㅡㄹ -8820
▁갈라 -8821
▁날씨 -8822
▁탐색 -8823
ㅈㅣㅁ -8824
ㅣㄹㅏ -8825
▁121 -8826
▁350 -8827
▁물리치 -8828
▁몰래 -8829
▁진급 -8830
▁com -8831
▁화장실 -8832
▁ㅂㅣㄹㄹㅕ -8833
ath -8834
▁ㅌㅓ -8835
▁데모 -8836
▁세라 -8837
▁신약 -8838
조부 -8839
▁137 -8840
▁일반인 -8841
▁ㅇㅘㅆㅇㅡㅁㅕ -8842
▁필터 -8843
▁173 -8844
▁전자기 -8845
▁삼성전자 -8846
무스 -8847
의장 -8848
▁주이 -8849
▁통틀 -8850
▁펠리 -8851
ound -8852
▁바오로 -8853
▁연합국 -8854
▁필리프 -8855
▁ㅊㅏㅈㅇㅏㅂㅗㄹ -8856
ㄷㅣ -8857
▁CF -8858
▁거울 -8859
▁비르 -8860
▁이브 -8861
▁일방 -8862
▁테이프 -8863
▁킴 -8864
ond -8865
OL -8866
시타 -8867
▁가축 -8868
▁제대 -8869
▁후궁 -8870
▁ㅇㅣㅇㅓㅈㅣㄴㄷㅏ -8871
▁방화 -8872
▁수용체 -8873
▁ㄷㅏㄹㅇㅏㄴ -8874
승부 -8875
연합 -8876
▁문예 -8877
▁샘플 -8878
▁해고 -8879
▁라이너 -8880
▁성별 -8881
게이머 -8882
▁1894 -8883
▁ㄴㅏㄴㅝ -8884
▁프로게이머 -8885
▁끄 -8886
나스 -8887
마루 -8888
ory -8889
▁결함 -8890
▁승계 -8891
▁왕복 -8892
▁자아 -8893
▁포병 -8894
▁총독부 -8895
▁ㄱㅓㅊㅕㅆ -8896
▁양측 -8897
▁ㄷㅜㄹ -8898
▁물려받 -8899
▁맘 -8900
▁헥 -8901
▁워터 -8902
▁믹스 -8903
베니아 -8904
▁113 -8905
▁클라우드 -8906
▁냄 -8907
끼리 -8908
▁다크 -8909
▁무어 -8910
▁태권 -8911
▁ㅂㅏㄴㅎㅐ -8912
▁개교 -8913
▁진공 -8914
로니 -8915
▁지미 -8916
▁근로자 -8917
▁가장자리 -8918
▁크리스토퍼 -8919
▁아야 -8920
▁핵무기 -8921
▁쏟 -8922
▁레온 -8923
▁만일 -8924
▁철회 -8925
▁투옥 -8926
ㅜㄹㅕ -8927
ov -8928
수소 -8929
▁수색 -8930
▁슬로베니아 -8931
▁땃 -8932
▁궁극 -8933
▁나아가 -8934
▁대의원 -8935
대기 -8936
▁문구 -8937
▁바티칸 -8938
▁브로드 -8939
▁드레 -8940
▁미션 -8941
▁세속 -8942
▁ㅎㅣㅁㄷㅡㄴ -8943
단체 -8944
▁공방 -8945
▁보증 -8946
▁요동 -8947
▁화해 -8948
man -8949
▁공민 -8950
▁알제리 -8951
그레이드 -8952
번스 -8953
▁계정 -8954
▁극심 -8955
▁둥지 -8956
▁뒷면 -8957
▁대피 -8958
▁바우 -8959
▁일가 -8960
▁적도 -8961
규모 -8962
▁로이 -8963
▁서민 -8964
▁최강 -8965
▁도미니 -8966
▁코스타 -8967
▁ㅂㅏㄹㅡㄴ -8968
▁헐 -8969
▁업그레이드 -8970
로이 -8971
톨레 -8972
▁치안 -8973
▁혈관 -8974
▁주어지 -8975
ㅌㅏ -8976
▁농림 -8977
▁성도 -8978
▁하동 -8979
▁용병 -8980
▁유년 -8981
▁게스트 -8982
아키 -8983
▁캐시 -8984
▁몬스터 -8985
▁ㅂㅜㅌㅇㅣㄴ -8986
▁z -8987
크라 -8988
▁LC -8989
▁강서 -8990
iver -8991
▁124 -8992
▁ㄸㅏㅆ -8993
▁멜로디 -8994
▁ㅎㅐㅈㅕ -8995
셰비 -8996
▁개종 -8997
▁제인 -8998
▁최대한 -8999
▁IM -9000
▁On -9001
▁칭찬 -9002
퍼런스 -9003
아프리카 -9004
▁관음 -9005
▁군정 -9006
▁먼지 -9007
▁서진 -9008
▁시뮬 -9009
▁즉각 -9010
▁판본 -9011
▁게이지 -9012
▁". -9013
▁신시 -9014
▁ㅁㅏㅅ -9015
▁독일인 -9016
▁공백 -9017
▁자연수 -9018
▁탤런트 -9019
박스 -9020
▁be -9021
▁결코 -9022
▁횡단 -9023
▁국내외 -9024
▁카카 -9025
▁륙 -9026
▁김현 -9027
▁상표 -9028
▁ㄷㅏㄹㅜㄴㄷㅏ -9029
▁미루 -9030
▁타당 -9031
블리 -9032
▁가루 -9033
▁모친 -9034
▁성문 -9035
▁야마토 -9036
겨나 -9037
▁ㄹㅐ -9038
▁그냥 -9039
▁스캔 -9040
▁World -9041
▁피오 -9042
대원군 -9043
▁남서부 -9044
▁곤란 -9045
▁서초 -9046
▁고고학 -9047
▁커뮤니케이션 -9048
▁곁 -9049
▁김정일 -9050
린스 -9051
▁구절 -9052
▁체크 -9053
▁초록 -9054
▁프랑크푸르트 -9055
mer -9056
▁ㅇㅕㄴ -9057
▁SU -9058
▁욕구 -9059
▁학계 -9060
▁내정 -9061
▁디렉 -9062
▁야쿠 -9063
▁베네딕 -9064
▁ㅃㅗㅂㅎ -9065
▁ㄷㅓㄴㅈㅕ -9066
▁CR -9067
▁감자 -9068
▁양호 -9069
▁일생 -9070
▁항쟁 -9071
▁원전 -9072
▁풍자 -9073
▁1890 -9074
▁아랫 -9075
▁영산 -9076
▁New -9077
▁고장 -9078
▁데르 -9079
▁미키 -9080
▁우파 -9081
▁초월 -9082
ich -9083
▁브리지 -9084
▁오리콘 -9085
▁윤치호 -9086
▁ㄷㅡㅁㅜㄴ -9087
드르 -9088
줄기 -9089
축구 -9090
▁러시 -9091
▁검찰청 -9092
▁114 -9093
▁돌격 -9094
▁유저 -9095
▁자선 -9096
▁땃쥐 -9097
▁배후 -9098
▁조부 -9099
▁시위대 -9100
▁라이온즈 -9101
▁사로 -9102
▁맑 -9103
▁로우 -9104
▁평정 -9105
프레스 -9106
▁선비 -9107
▁아름 -9108
▁자비 -9109
▁정세 -9110
▁기업인 -9111
▁사쿠라 -9112
ㄱㅎㅣㄴ -9113
▁김규 -9114
▁에미 -9115
▁제압 -9116
▁소규모 -9117
▁안토니오 -9118
▁그대 -9119
▁미노 -9120
▁베니 -9121
▁자오 -9122
▁오프닝 -9123
▁EC -9124
▁대명 -9125
▁ㄱㅕㅂ -9126
▁이소 -9127
▁정주 -9128
▁침투 -9129
▁므 -9130
▁증손 -9131
▁팔리 -9132
▁구스타 -9133
▁기질 -9134
▁이준 -9135
▁과반 -9136
▁자택 -9137
▁분명히 -9138
▁사상자 -9139
ial -9140
▁ㄹㅠ -9141
▁그치 -9142
▁예조 -9143
타리오 -9144
▁ㅂㅗㅇㅣㄹ -9145
▁뉘 -9146
렉스 -9147
▁구와 -9148
▁냉전 -9149
▁어미 -9150
▁118 -9151
▁알루미 -9152
▁관세 -9153
▁자음 -9154
▁지침 -9155
▁흔하 -9156
▁ㅋㅣㄴ -9157
▁일리노 -9158
▁드라이버 -9159
IP -9160
▁옵션 -9161
▁악단 -9162
▁이남 -9163
▁ㅇㅓㅉ -9164
▁블랙홀 -9165
▁히어로즈 -9166
▁파이널 -9167
▁플래시 -9168
▁ㄱㅗㅊㅕ -9169
▁가드 -9170
▁대거 -9171
▁이드 -9172
▁학명 -9173
▁일리노이 -9174
▁만료 -9175
▁시정 -9176
▁프로덕 -9177
▁ㅈㅜㄹㅇㅕㅅㅓ -9178
▁연이 -9179
▁징계 -9180
▁군중 -9181
▁대부 -9182
▁도청 -9183
▁말씀 -9184
▁서자 -9185
▁주부 -9186
▁미하일 -9187
▁파란색 -9188
▁Sc -9189
▁예시 -9190
▁원로원 -9191
▁1898 -9192
ign -9193
▁스칼 -9194
▁체스 -9195
▁체조 -9196
▁크리스티안 -9197
▁봉건 -9198
▁종착 -9199
▁퍼지 -9200
▁ㅍㅜㄹㄹ -9201
▁디비시온 -9202
hn -9203
황후 -9204
▁재상 -9205
▁매니저 -9206
▁괴물 -9207
▁요정 -9208
▁저널 -9209
▁하르 -9210
▁경신 -9211
▁연승 -9212
▁용이 -9213
▁태극 -9214
▁115 -9215
▁경찰관 -9216
▁극장판 -9217
▁진사 -9218
▁트로이 -9219
▁컷 -9220
▁헬리 -9221
▁ㅁㅔㄴ -9222
▁빔 -9223
하루 -9224
▁ㄴㅜㄱㅏ -9225
▁벵 -9226
▁순조 -9227
▁인명 -9228
▁지인 -9229
닐라 -9230
▁남구 -9231
▁봉안 -9232
▁승부차기 -9233
저지 -9234
▁중형 -9235
▁모로코 -9236
▁반지름 -9237
▁방사선 -9238
▁비로소 -9239
▁통치자 -9240
▁우측 -9241
▁계열사 -9242
▁물러나 -9243
▁우즈베 -9244
▁솟 -9245
벨트 -9246
ㅇㅗㄴㄷㅏ -9247
조건 -9248
▁로그 -9249
▁커널 -9250
▁내주 -9251
고스 -9252
▁SD -9253
▁세이브 -9254
▁챌린지 -9255
▁ㅇㅓㄹㅕㅆ -9256
지스 -9257
▁카우 -9258
교도 -9259
▁공조 -9260
▁밀집 -9261
▁앵글 -9262
▁헬기 -9263
▁희귀 -9264
▁축출 -9265
▁키르 -9266
▁레바논 -9267
▁시가지 -9268
▁웨스턴 -9269
▁ㄴㅏㅇㅗㄹ -9270
▁공감 -9271
▁매매 -9272
▁본국 -9273
▁필사 -9274
▁외야수 -9275
▁남미 -9276
기념 -9277
▁패럴 -9278
보르 -9279
▁가옥 -9280
▁무성 -9281
▁선도 -9282
▁전년 -9283
▁ㅇㅣㄲ -9284
▁무승부 -9285
▁GS -9286
▁동정 -9287
▁범유행 -9288
▁극작 -9289
▁센티 -9290
▁넘어가 -9291
▁ㄷㅏㄹㅎㅏㄴㄷㅏ -9292
▁` -9293
▁JT -9294
▁변이 -9295
▁뉴저지 -9296
▁성리학 -9297
마이오스 -9298
타니 -9299
▁직면 -9300
▁통보 -9301
▁129 -9302
▁소모 -9303
▁웹툰 -9304
▁케냐 -9305
▁하프 -9306
▁렐 -9307
▁붐 -9308
▁GP -9309
▁답변 -9310
▁정변 -9311
▁컨셉 -9312
▁혜택 -9313
▁대변인 -9314
▁캉 -9315
히코 -9316
▁기증 -9317
▁왕세 -9318
▁취업 -9319
▁켈리 -9320
▁그레고 -9321
▁핑크 -9322
▁기각 -9323
▁뉴턴 -9324
▁외모 -9325
▁사위 -9326
▁ㅅㅣㅁㅎㅐ -9327
▁ㅇㅣㄲㅡㄴ -9328
▁맏 -9329
ㄷㅜㄴ -9330
▁의약품 -9331
바닥 -9332
rom -9333
▁ㄲㅏ -9334
▁코카 -9335
▁광해군 -9336
▁스타리그 -9337
▁럼 -9338
▁믹 -9339
개미 -9340
미사 -9341
▁개막전 -9342
▁캔자스 -9343
펴보 -9344
▁ㅁㅓ -9345
▁글루 -9346
▁비주 -9347
▁살펴보 -9348
▁젊은이 -9349
▁폭넓 -9350
▁체코슬로 -9351
▁체코슬로바키아 -9352
▁말미 -9353
▁ㄷㅡㄹㅇㅓㄱㅏㄴㄷㅏ -9354
▁쯔 -9355
▁러셀 -9356
▁숙청 -9357
ㅇㅓㅅㅓ -9358
▁재혼 -9359
▁쾌속 -9360
▁한족 -9361
▁벨라루스 -9362
레타 -9363
문트 -9364
▁맥도 -9365
▁미세 -9366
▁부스 -9367
▁중산 -9368
▁학업 -9369
▁황족 -9370
▁ㄷㅜㄹㅕㅇㅝ -9371
▁Ne -9372
▁발급 -9373
▁예하 -9374
▁종속 -9375
▁첨단 -9376
▁호출 -9377
▁회관 -9378
▁마운트 -9379
▁연예인 -9380
타리 -9381
▁알루미늄 -9382
▁괘 -9383
쟁이 -9384
▁리뷰 -9385
▁바빌 -9386
▁승자 -9387
▁퇴임 -9388
▁옳 -9389
▁뇌물 -9390
▁스크립 -9391
▁총사령 -9392
▁밝기 -9393
▁빌라 -9394
방송공사 -9395
▁ㄱㅜㅎㅏㄹ -9396
▁로비 -9397
▁오오 -9398
▁스트리 -9399
▁장례식 -9400
먼스 -9401
느러미 -9402
ph -9403
▁벽돌 -9404
▁III -9405
▁중공 -9406
▁ㄲㅣㅊㅕㅆ -9407
▁종래 -9408
▁척추 -9409
▁조지프 -9410
▁천문대 -9411
▁ㅈㅓㄱㅎㅕ -9412
▁남작 -9413
▁무명 -9414
▁천재 -9415
우트 -9416
▁부피 -9417
▁창출 -9418
▁카디 -9419
▁ㅅㅕㅆ -9420
▁1899 -9421
그리 -9422
천리 -9423
치기 -9424
▁재선 -9425
▁142 -9426
▁레슬링 -9427
▁월요일 -9428
▁ㅎㅡㄴㅎㅏㄴ -9429
▁웬 -9430
▁실망 -9431
TS -9432
▁각도 -9433
▁유라 -9434
▁커지 -9435
▁케빈 -9436
▁ㅇㅡㄴㄷㅔ -9437
▁ㄸㅏㄹㅡㄴㄷㅏ -9438
슬러 -9439
▁난징 -9440
▁생체 -9441
▁서신 -9442
▁양반 -9443
▁요건 -9444
▁응시 -9445
▁일컬 -9446
▁케임 -9447
▁브리튼 -9448
수록 -9449
▁어른 -9450
▁워너 -9451
▁임원 -9452
▁지우 -9453
▁토끼 -9454
▁토양 -9455
▁세이부 -9456
▁청주시 -9457
테르부르크 -9458
▁ㅎㅣㅁㅆㅓ -9459
▁옹립 -9460
▁부여받 -9461
진군 -9462
urn -9463
▁토미 -9464
▁폭포 -9465
▁화력 -9466
▁퉁 -9467
화물 -9468
▁배수 -9469
▁사간 -9470
▁기술자 -9471
▁룩셈 -9472
▁발병 -9473
▁설화 -9474
▁예고 -9475
▁워크 -9476
코딩 -9477
▁관제 -9478
▁유방 -9479
▁전속 -9480
롤라이나 -9481
▁프로덕션 -9482
▁ㅈㅗㅎㅇㅏ -9483
▁룩셈부르크 -9484
▁소생 -9485
▁총칭 -9486
▁마르티 -9487
▁플라스틱 -9488
아먹 -9489
함수 -9490
▁대패 -9491
▁리프 -9492
▁모나 -9493
▁무함 -9494
▁저주 -9495
▁축물 -9496
셰비키 -9497
▁ㄸㅓㅇ -9498
▁타임스 -9499
▁ㄷㅜㄴㄷㅏ -9500
포로 -9501
▁구경 -9502
▁성폭 -9503
▁학기 -9504
▁더글러스 -9505
▁사본 -9506
▁콕 -9507
▁대치 -9508
▁자크 -9509
▁파산 -9510
▁뒷받침 -9511
▁확실히 -9512
ction -9513
틱스 -9514
▁유진 -9515
▁정려 -9516
▁스즈키 -9517
▁프란츠 -9518
▁ㄱㅏㅇㅎㅐ -9519
로우 -9520
▁싸이 -9521
▁거래소 -9522
▁대서양 -9523
▁ㅇㅓㄹㅕㅇㅝ -9524
▁닦 -9525
럴드 -9526
버리 -9527
시즘 -9528
▁광주광역시 -9529
토르 -9530
▁CJ -9531
▁마력 -9532
▁미들 -9533
▁온타리오 -9534
▁시범 -9535
▁오크 -9536
도스 -9537
▁ch -9538
▁감행 -9539
▁안테 -9540
파이어 -9541
▁부의장 -9542
▁1902 -9543
▁만성 -9544
▁컴백 -9545
▁ㅅㅔㄹ -9546
▁금요일 -9547
▁힌두교 -9548
브르 -9549
▁혼동 -9550
ㅌㅔ -9551
▁ID -9552
▁가야 -9553
▁중복 -9554
▁지옥 -9555
▁지출 -9556
▁덧 -9557
덩이 -9558
▁보위 -9559
▁왼손 -9560
▁화상 -9561
ens -9562
▁공적 -9563
▁광둥 -9564
▁연산자 -9565
▁플랫폼 -9566
MA -9567
타주 -9568
▁등기 -9569
▁명종 -9570
▁ㄷㅓㄴㅣ -9571
pp -9572
▁독서 -9573
▁동네 -9574
▁신원 -9575
▁운수 -9576
▁Man -9577
▁도카이 -9578
▁ㅇㅣㅀㅇㅓ -9579
▁ㅇㅣㅀㅇㅓㅂㅓㄹ -9580
두리 -9581
▁화자 -9582
▁대성당 -9583
▁키보드 -9584
▁병기 -9585
▁우체 -9586
▁프톨레 -9587
▁프톨레마이오스 -9588
lan -9589
▁발리 -9590
▁설교 -9591
▁수분 -9592
▁그래미 -9593
▁연꽃 -9594
▁의자 -9595
▁형조 -9596
▁니코 -9597
▁위쪽 -9598
▁채소 -9599
▁피겨 -9600
▁ㅍㅣㄹ -9601
▁ㄱㅓㄹㄹㅕㅆ -9602
▁발기 -9603
▁기사단 -9604
▁'' -9605
▁원천 -9606
▁코시 -9607
▁시코 -9608
▁그릇 -9609
▁대손 -9610
▁물품 -9611
▁피신 -9612
ㅆㅏㄴ -9613
▁ㅇㅚ -9614
▁드림 -9615
▁스턴 -9616
▁아리아 -9617
▁지식인 -9618
TA -9619
▁늘리 -9620
▁사슴 -9621
▁원종 -9622
▁체류 -9623
▁희곡 -9624
▁바깥쪽 -9625
▁마녀 -9626
▁촉매 -9627
▁시가 -9628
▁탄도 -9629
▁감마 -9630
▁강변 -9631
▁페널 -9632
샤바 -9633
lic -9634
▁게리 -9635
▁비석 -9636
▁포획 -9637
▁머무르 -9638
▁ㅉㅗㅊㄱㅕ -9639
▁개소 -9640
▁국영 -9641
▁표적 -9642
▁고양시 -9643
▁아돌프 -9644
▁ㄸㅏㅇㅗㄴ -9645
▁교통국 -9646
▁ㄱㅏㅂㅕㅇㅜㄴ -9647
▁벨트 -9648
▁영등 -9649
▁참의 -9650
▁하단 -9651
▁ㅇㅣㄹㅜㄴ -9652
▁기차 -9653
▁버드 -9654
▁외관 -9655
▁ㅂㅜㄹㅡㄹ -9656
▁서류 -9657
▁선배 -9658
▁비행장 -9659
크로 -9660
폴리 -9661
▁깃발 -9662
▁ㄴㅡㄲㅕㅆ -9663
▁BS -9664
▁단절 -9665
▁대합 -9666
▁청산 -9667
ㅏㅅ -9668
▁간선 -9669
▁기니 -9670
▁영문 -9671
▁정적 -9672
ㅐㄹㅕ -9673
▁소나무 -9674
▁끊임없이 -9675
▁ㅊㅏㅈㅇㅏㄱㅏ -9676
▁밍 -9677
글라 -9678
▁강동 -9679
▁정성 -9680
▁생생 -9681
▁유체 -9682
▁갈수록 -9683
▁마스크 -9684
▁페르디난 -9685
국사 -9686
▁익스프레스 -9687
TC -9688
▁김지 -9689
▁동행 -9690
▁보이스 -9691
▁토착종 -9692
▁단축 -9693
▁스폰 -9694
▁주조 -9695
▁드러머 -9696
▁ㅊㅐㅇㅝ -9697
▁가환 -9698
▁동학 -9699
▁의의 -9700
▁해밀턴 -9701
▁매카트니 -9702
▁ㄴㅏㅅㅓㄴ -9703
ary -9704
▁광명 -9705
▁울프 -9706
▁입성 -9707
▁혐오 -9708
▁부회장 -9709
▁이용자 -9710
▁코끼리 -9711
▁단의 -9712
▁아산 -9713
▁스위치 -9714
▁제국주의 -9715
▁포켓몬스터 -9716
카가 -9717
▁압둘 -9718
▁경성부 -9719
▁코믹스 -9720
▁선행 -9721
▁세비 -9722
▁함정 -9723
▁화강 -9724
▁제네바 -9725
▁호르몬 -9726
ㅎㅇㅏㅆ -9727
▁ㅆㅏㅎㅇㅏㅆ -9728
구르 -9729
그룹 -9730
▁브뤼 -9731
▁ㅇㅓㅇ -9732
▁사이토 -9733
▁몫 -9734
▁공리 -9735
▁직결 -9736
▁헌신 -9737
▁폭격기 -9738
▁1901 -9739
▁러시아어 -9740
ach -9741
▁수확 -9742
▁정동 -9743
▁초신 -9744
▁나노 -9745
▁어류 -9746
▁아이오 -9747
▁간토 -9748
▁광대 -9749
▁여운 -9750
테인 -9751
▁고아 -9752
out -9753
▁ㅅㅑ -9754
▁복용 -9755
▁본문 -9756
▁생략 -9757
▁소시 -9758
▁열도 -9759
▁이단 -9760
▁축조 -9761
▁ㅈㅛ -9762
▁약자 -9763
▁색채 -9764
▁쓰촨 -9765
▁ㄲㅜㅁㅕ -9766
▁ㅇㅓㄹㅕㅅㅓ -9767
▁No -9768
▁일산 -9769
▁임관 -9770
▁퀘벡 -9771
▁알렉산드르 -9772
ert -9773
▁입국 -9774
▁서유럽 -9775
▁울산광역시 -9776
▁ㅇㅣㄹㅇㅡㅋㅣㄹ -9777
모스 -9778
속기 -9779
짓점 -9780
▁민감 -9781
▁보트 -9782
▁역량 -9783
▁염증 -9784
▁채우 -9785
▁다항식 -9786
▁부작용 -9787
피어 -9788
▁부가 -9789
▁코코 -9790
▁꼭짓점 -9791
미트 -9792
▁면제 -9793
▁조립 -9794
▁하치 -9795
▁ㅎㅏㄴㅌㅔ -9796
디나 -9797
▁권총 -9798
▁매수 -9799
▁꾀 -9800
▁체르 -9801
▁현은 -9802
▁연기자 -9803
▁렘 -9804
자르 -9805
▁김창 -9806
▁수축 -9807
▁습지 -9808
▁바이킹 -9809
▁ㅈㅔㅎㅏㄴ -9810
▁무궁 -9811
▁자작 -9812
▁영국인 -9813
▁쿄 -9814
▁갱신 -9815
▁정문 -9816
▁삿포로 -9817
▁ㅍㅐㅎㅐㅆ -9818
▁드라 -9819
▁성지 -9820
▁체중 -9821
▁ㄱㅏㄲㅏㅇㅝ -9822
타임 -9823
▁경과 -9824
▁기숙 -9825
▁서문 -9826
▁카미 -9827
나우 -9828
루아 -9829
▁보복 -9830
▁치아 -9831
▁표방 -9832
▁점성술 -9833
▁아시카가 -9834
LE -9835
▁낫 -9836
▁갈릴 -9837
▁이현 -9838
▁커스 -9839
IG -9840
링턴 -9841
▁MB -9842
▁엔딩 -9843
ys -9844
▁고산 -9845
▁실버 -9846
▁정립 -9847
▁간단히 -9848
▁그다지 -9849
▁사회당 -9850
▁입각 -9851
▁크롬 -9852
▁페니 -9853
LS -9854
파르 -9855
▁검열 -9856
▁전방 -9857
▁염색체 -9858
▁ㅇㅣㄱㅕㅆ -9859
▁케임브리지 -9860
▁토기 -9861
▁특권 -9862
▁134 -9863
▁례 -9864
어내 -9865
▁동조 -9866
▁조이 -9867
▁아라비아 -9868
▁ㄴㅏㄱㅏㄹ -9869
▁누적 -9870
▁두께 -9871
▁조수 -9872
레슬링 -9873
▁광저우 -9874
▁푸에르 -9875
▁대구광역시 -9876
노미야 -9877
▁요르단 -9878
▁장기간 -9879
ug -9880
▁} -9881
▁보헤 -9882
▁스님 -9883
▁차르 -9884
▁태그 -9885
▁호모 -9886
▁크레이 -9887
▁김제 -9888
▁분수 -9889
베트남 -9890
▁파이터 -9891
▁ㅍㅐㅎㅏㄴ -9892
▁가역 -9893
▁상금 -9894
▁원료 -9895
▁학대 -9896
▁ㄷㅏㄷ -9897
▁무함마드 -9898
▁동이 -9899
▁제치 -9900
▁캐서 -9901
▁KIA -9902
▁트리플 -9903
펜하 -9904
▁독성 -9905
▁남매 -9906
▁둥글 -9907
▁마우 -9908
▁THE -9909
▁모서리 -9910
▁사업가 -9911
▁옥스퍼드 -9912
ase -9913
▁대두 -9914
▁미륵 -9915
▁박지 -9916
▁연봉 -9917
▁ㅈㅓㅇㅎㅐㅈㅣㄴ -9918
기스 -9919
▁오쿠 -9920
카미 -9921
▁천하 -9922
▁카프 -9923
▁갈리아 -9924
▁ㅂㅓㄹㅇㅣㄴ -9925
▁공명 -9926
▁직경 -9927
▁토요 -9928
▁All -9929
▁1903 -9930
▁미시시피 -9931
▁프로레슬링 -9932
▁기르 -9933
▁레즈 -9934
▁명하 -9935
▁원본 -9936
정리 -9937
▁삼촌 -9938
▁섹스 -9939
▁쓰레기 -9940
▁1884 -9941
대장 -9942
퀘어 -9943
▁Gr -9944
▁노보 -9945
▁다마 -9946
▁불꽃 -9947
▁소말 -9948
▁만주국 -9949
▁신도비 -9950
▁홈구장 -9951
그라 -9952
▁불신 -9953
▁아브 -9954
▁ㅅㅡㄴ -9955
▁개인전 -9956
▁언어학 -9957
▁공고 -9958
▁좌측 -9959
테르담 -9960
▁One -9961
▁쟈 -9962
▁공예 -9963
▁산출 -9964
▁이병 -9965
▁퇴역 -9966
▁관광지 -9967
▁이성계 -9968
▁아인슈타인 -9969
▁ㄷㅏㅇㅎㅏㄴㄷㅏ -9970
리코 -9971
▁교대 -9972
▁선동 -9973
▁쥐과 -9974
▁하리 -9975
▁ㄴㅜㄱㅜㄴ -9976
▁ㅈㅜㄷㅚㄴ -9977
ㄷㅡㄹㅇㅕㅆ -9978
처스 -9979
▁구형 -9980
▁극대 -9981
▁라그 -9982
▁트로피 -9983
▁표기법 -9984
▁아리스토 -9985
▁EX -9986
▁강간 -9987
▁중령 -9988
ke -9989
▁로저 -9990
▁슈팅 -9991
▁이관 -9992
▁패널 -9993
▁하비 -9994
▁쓰시마 -9995
▁알렉산드리아 -9996
아웃 -9997
카타 -9998
▁AN -9999
▁개화 -10000
▁질소 -10001
▁루타 -10002
▁에콰 -10003
▁에콰도르 -10004
사리 -10005
▁군산 -10006
▁타케 -10007
▁노태우 -10008
▁도널드 -10009
▁전염병 -10010
▁니콜라이 -10011
▁어둠 -10012
▁패밀리 -10013
▁야마구치 -10014
▁메커 -10015
▁정선 -10016
▁피고인 -10017
텍처 -10018
▁퇴적 -10019
▁회상 -10020
▁ㅅㅏㄹㅍ -10021
▁아키텍처 -10022
▁릿 -10023
▁Cl -10024
▁클라이 -10025
▁비타 -10026
▁스텔 -10027
▁히타 -10028
▁아폴로 -10029
▁구스 -10030
▁도요토미 -10031
히토 -10032
▁제로 -10033
▁ㅅㅓㅁ -10034
▁꼭대기 -10035
▁당연히 -10036
▁조반니 -10037
▁충청도 -10038
▁발렌시아 -10039
▁ㄸㅏㅇㅘㅆ -10040
▁ㄷㅡㄹㅇㅓㄱㅏㄹ -10041
▁우치 -10042
▁헌정 -10043
▁검출 -10044
▁대문 -10045
▁어뢰 -10046
▁드레스 -10047
▁복합체 -10048
▁프란체 -10049
▁페널티 -10050
▁1800 -10051
▁마키 -10052
▁뮤지션 -10053
▁ㅃㅐㅇㅏㅅ -10054
▁공황 -10055
▁비뉴 -10056
▁마르틴 -10057
▁지도부 -10058
▁ㄲㅡㄹㄹㅕ -10059
방울 -10060
올로 -10061
▁군함 -10062
▁실재 -10063
▁정유 -10064
▁콤팩트 -10065
▁LA -10066
▁달걀 -10067
▁삼국지 -10068
▁ㅈㅣㄴㅕㅆ -10069
▁실무 -10070
▁조형 -10071
▁철폐 -10072
▁마르코 -10073
▁히로시 -10074
라이언트 -10075
ree -10076
▁뒤쪽 -10077
▁해남 -10078
▁소방서 -10079
▁슬라브 -10080
그레 -10081
▁당수 -10082
▁이태 -10083
▁장벽 -10084
▁함선 -10085
▁방글라 -10086
▁프레드 -10087
▁방글라데시 -10088
▁클라이언트 -10089
▁곡물 -10090
▁기분 -10091
▁반공 -10092
▁발칸 -10093
▁의결 -10094
▁흥선 -10095
▁기념관 -10096
라이어 -10097
사이드 -10098
테이션 -10099
▁강대 -10100
▁농부 -10101
▁선우 -10102
▁전위 -10103
▁터보 -10104
▁토시 -10105
니시 -10106
▁경작 -10107
▁도선 -10108
▁유부 -10109
▁소행성 -10110
▁가오 -10111
▁염소 -10112
▁인질 -10113
▁ㅍㅣㄴ -10114
▁ㅎㅏㄹㅈㅣ -10115
나미 -10116
▁까닭 -10117
▁우회 -10118
▁원더 -10119
▁카사 -10120
▁카를로 -10121
▁강희 -10122
▁김홍 -10123
▁단면 -10124
▁밀란 -10125
가와현 -10126
▁ㄴㅓㄼ -10127
▁기념비 -10128
▁일렉트로 -10129
▁북아프리카 -10130
▁분출 -10131
▁더욱이 -10132
▁방사성 -10133
가르 -10134
간지 -10135
▁자형 -10136
▁팟 -10137
▁경인 -10138
▁물가 -10139
▁상가 -10140
▁상경 -10141
▁전복 -10142
▁코믹 -10143
▁복소수 -10144
불교 -10145
▁로라 -10146
▁에밀 -10147
▁우물 -10148
▁전구 -10149
▁하차 -10150
▁활주 -10151
네마 -10152
▁IN -10153
▁건륭 -10154
▁분량 -10155
▁남동생 -10156
▁with -10157
▁팰 -10158
개골 -10159
▁기슭 -10160
▁리더십 -10161
▁무너지 -10162
▁소수자 -10163
산맥 -10164
하키 -10165
▁권장 -10166
▁모모 -10167
▁발령 -10168
▁가브리 -10169
▁뉴욕주 -10170
▁스토어 -10171
▁그레이트 -10172
▁총대주교 -10173
▁중앙아시아 -10174
▁진전 -10175
▁파병 -10176
▁현감 -10177
▁기관총 -10178
▁모리스 -10179
▁오사카부 -10180
▁ㄲㅐ -10181
▁궁중 -10182
▁상트 -10183
▁세바 -10184
▁수목 -10185
▁아미노산 -10186
act -10187
▁ㄸㅓ -10188
▁가산 -10189
▁상응 -10190
▁메커니즘 -10191
ass -10192
▁뒤집 -10193
▁러스 -10194
▁취항 -10195
▁회피 -10196
▁220 -10197
구역 -10198
번뇌 -10199
▁감안 -10200
▁미라 -10201
▁116 -10202
▁ㅂㅜㄷㅡㄹㅓㅇㅜㄴ -10203
▁견인 -10204
▁막스 -10205
▁브란 -10206
▁세키 -10207
▁창녕 -10208
▁에디션 -10209
▁ㅈㅡㄹㄱㅕ -10210
▁ㅅㅐㄱㅕㅈㅣㄴ -10211
▁Ad -10212
▁냄새 -10213
▁대출 -10214
▁후작 -10215
▁교도소 -10216
▁아나키 -10217
11 -10218
▁Br -10219
▁교량 -10220
▁등용 -10221
▁용서 -10222
▁이북 -10223
▁준주 -10224
▁다케다 -10225
▁민간인 -10226
▁전시회 -10227
▁관절 -10228
▁소자 -10229
▁거짓말 -10230
▁ㅆㅏㅇㅝ -10231
▁ㅂㅏㄺㅎㅣㄴ -10232
곡동 -10233
사우 -10234
▁CN -10235
▁반군 -10236
▁신축 -10237
▁안경 -10238
▁정화 -10239
▁추첨 -10240
▁거주지 -10241
▁각색 -10242
▁평창 -10243
▁와일드 -10244
▁기저 -10245
▁포스터 -10246
▁한국방송공사 -10247
사업 -10248
▁돌기 -10249
▁보성 -10250
ㄹㅣㅁ -10251
▁캐서린 -10252
▁1897 -10253
▁볼리비아 -10254
▁ㄷㅗㄹㅇㅏㄱㅏ -10255
▁가계 -10256
▁티코 -10257
▁컨트리 -10258
▁페이스북 -10259
▁ㅇㅑㄱㅎㅐ -10260
pt -10261
▁낙동 -10262
▁맞붙 -10263
▁취미 -10264
▁효고 -10265
▁가열 -10266
▁상법 -10267
▁샌드 -10268
▁시야 -10269
▁마카오 -10270
▁스트라이크 -10271
▁ㅁㅗㄹㅡㄴㄷㅏ -10272
▁무슨 -10273
▁요약 -10274
▁방송인 -10275
▁버클리 -10276
▁일부분 -10277
역학 -10278
쿠버 -10279
▁델타 -10280
▁침체 -10281
▁태백 -10282
ream -10283
▁일자리 -10284
▁카스티 -10285
▁농사 -10286
▁안산 -10287
▁일파 -10288
▁강남구 -10289
▁교육청 -10290
▁1860 -10291
▁홉 -10292
▁간신 -10293
▁반전 -10294
▁상고 -10295
▁아소 -10296
▁절단 -10297
▁폭로 -10298
▁데스크 -10299
▁ㅇㅡㄹㅕㄱㅗ -10300
벤처 -10301
▁갈래 -10302
▁델라 -10303
▁올드 -10304
▁한층 -10305
▁어드벤처 -10306
▁ㅇㅗㄹㄹㅏㄱㅏㄴㄷㅏ -10307
▁깨끗 -10308
▁르노 -10309
▁오로 -10310
▁배우자 -10311
▁GO -10312
▁마블 -10313
▁마니 -10314
▁사살 -10315
▁장자 -10316
▁효종 -10317
▁연대기 -10318
▁ㄷㅏㅇㅜㄴ -10319
▁꿀 -10320
파리 -10321
▁나루 -10322
▁리조 -10323
▁확진 -10324
▁이주하 -10325
ㅔㄴ -10326
▁휴가 -10327
기념물 -10328
▁홍문관 -10329
▁데카 -10330
▁수료 -10331
▁음향 -10332
▁장제 -10333
▁알프레 -10334
▁ㄱㅡㄹㅕㅈㅣㄴ -10335
▁Is -10336
▁가의 -10337
▁마가 -10338
▁타우 -10339
▁ㅅㅣㅋㅕㅆㅇㅡㅁㅕ -10340
▁구약 -10341
▁득표율 -10342
▁Ex -10343
▁네오 -10344
▁접수 -10345
▁대관 -10346
▁저렴 -10347
▁전산 -10348
▁스크립트 -10349
▁;& -10350
▁공손 -10351
▁민정 -10352
▁청색 -10353
▁추론 -10354
▁카즈 -10355
▁카타르 -10356
▁넘기 -10357
▁샌디 -10358
▁심화 -10359
▁체력 -10360
▁쿠니 -10361
캐롤라이나 -10362
▁ㅈㅏㅂㅎㅕ -10363
▁다가 -10364
▁리히 -10365
▁사카이 -10366
▁경제학자 -10367
▁북경 -10368
▁석불 -10369
스카르 -10370
▁122 -10371
▁아름답 -10372
ㅂㅏㄹㅡㄴ -10373
▁중공업 -10374
▁앰 -10375
나드 -10376
츠크 -10377
피언 -10378
▁가신 -10379
▁글래 -10380
▁미네소 -10381
▁바르샤바 -10382
부리 -10383
▁서리 -10384
▁이반 -10385
▁쥐속 -10386
▁모티브 -10387
▁깎 -10388
반구 -10389
▁안드레아 -10390
산성 -10391
푸르 -10392
▁적군 -10393
▁ㅈㅏㅁ -10394
▁떡 -10395
▁이빨 -10396
▁스퀘어 -10397
▁유닉스 -10398
도비 -10399
퍼슨 -10400
포터 -10401
▁소행 -10402
▁중원 -10403
▁후반기 -10404
▁2022 -10405
▁마애 -10406
▁입주 -10407
▁전격 -10408
▁집결 -10409
▁동형 -10410
▁막시 -10411
▁석회 -10412
▁ㅈㅜㅇㅓㅈㅣㄴㄷㅏ -10413
▁느리 -10414
▁수중 -10415
▁ㄹㅠㄴ -10416
▁게릴라 -10417
▁아마존 -10418
▁클라크 -10419
▁ㅂㅕㄴㅎㅏㄴ -10420
▁죠 -10421
▁버마 -10422
▁종파 -10423
▁타협 -10424
▁ㄱㅓㄷㅝㅆ -10425
▁브룩 -10426
▁윤보 -10427
▁화순 -10428
▁가져오 -10429
▁ㅁㅜㄹㄹㅣ -10430
콥터 -10431
▁갑옷 -10432
▁고토 -10433
▁짐작 -10434
▁합당 -10435
▁몰아내 -10436
▁솔루션 -10437
▁인테르 -10438
푸아 -10439
▁모용 -10440
▁상트페 -10441
▁지지율 -10442
▁상트페테르부르크 -10443
ii -10444
▁보강 -10445
▁ㄷㅏㄹㅡㄹ -10446
▁ㅇㅕㄹㄹㅣㄴㄷㅏ -10447
▁돌입 -10448
▁무술 -10449
▁사적 -10450
▁찰리 -10451
▁창의 -10452
▁con -10453
▁두개골 -10454
▁설립자 -10455
▁흥선대원군 -10456
▁군청 -10457
▁메릴 -10458
▁세네 -10459
▁안치 -10460
▁종점 -10461
▁특색 -10462
▁공용어 -10463
▁1880 -10464
거진 -10465
▁신동 -10466
▁애리 -10467
▁호쿠 -10468
▁NGC -10469
▁급수 -10470
▁리만 -10471
▁신정 -10472
▁갤러리 -10473
▁그리스인 -10474
▁강철 -10475
▁유대교 -10476
▁BM -10477
▁격차 -10478
▁과실 -10479
▁메라 -10480
▁정경 -10481
▁청소 -10482
▁마라톤 -10483
▁새로이 -10484
▁옥수수 -10485
네시 -10486
▁빈도 -10487
▁약하 -10488
▁용암 -10489
▁유정 -10490
▁호응 -10491
▁진행자 -10492
▁공약 -10493
▁마당 -10494
▁무로 -10495
▁어로 -10496
▁예명 -10497
▁장원 -10498
▁나란히 -10499
▁제작사 -10500
▁제리 -10501
▁콘테 -10502
▁함양 -10503
ㅁㅏㄹ -10504
▁133 -10505
▁키예프 -10506
▁그레고리오 -10507
▁셜 -10508
▁가가 -10509
▁벽화 -10510
▁실적 -10511
다르 -10512
리즘 -10513
iss -10514
▁루크 -10515
▁복권 -10516
▁이장 -10517
▁함부르크 -10518
▁천연기념물 -10519
▁ㅇㅕㅆㅇㅡㅁㅡㄹㅗ -10520
▁가네 -10521
▁노이 -10522
▁스노 -10523
▁이언 -10524
▁ㅊㅣㄹㅡㄴ -10525
▁ㅇㅗㄻㄱㅕㅈㅕㅆ -10526
▁기성 -10527
▁번성 -10528
▁입양 -10529
▁확고 -10530
▁극작가 -10531
▁ㄴㅡㄲㅣㄴ -10532
▁ㅂㅜㅌㅇㅕㅈㅣㄴ -10533
니지 -10534
ake -10535
▁등극 -10536
▁소령 -10537
▁일괄 -10538
▁자결 -10539
▁종말 -10540
▁팔레 -10541
▁프렌 -10542
▁ㄲㅡㄶ -10543
▁파라과이 -10544
타케 -10545
▁디트로 -10546
▁ㅈㅣㅋㅕㅆ -10547
▁디트로이트 -10548
own -10549
▁타지 -10550
몰로지 -10551
▁왕정 -10552
자치시 -10553
사관학교 -10554
▁ㄸㅏㄹㅏㅆ -10555
▁ㅇㅗㄴㄷㅏ -10556
▁특별자치시 -10557
▁연동 -10558
▁연못 -10559
▁이동하 -10560
▁쑤 -10561
기구 -10562
올리 -10563
▁ㅅㅕ -10564
▁선장 -10565
▁출석 -10566
▁준결승전 -10567
케이 -10568
▁블리 -10569
▁수녀 -10570
▁Mus -10571
▁사로잡 -10572
▁그렇지만 -10573
▁ㄷㅓㅍㅇㅕ -10574
▁ㅈㅏㄹㄹㅏ -10575
▁몽고 -10576
▁심야 -10577
▁이규 -10578
▁교육부 -10579
▁그림자 -10580
▁법정동 -10581
▁일러스트 -10582
▁유령 -10583
▁랍 -10584
▁극도 -10585
▁진료 -10586
▁경쟁력 -10587
▁무궁화 -10588
▁추종 -10589
▁평민 -10590
▁CBS -10591
▁포도당 -10592
ㅇㅡㄴㅣ -10593
▁제왕 -10594
▁조계 -10595
▁펜싱 -10596
▁랴 -10597
▁농어 -10598
▁오락 -10599
▁장흥 -10600
▁헬륨 -10601
▁고추 -10602
▁CEO -10603
▁미생물 -10604
▁그레고리 -10605
▁애틀랜타 -10606
▁파우 -10607
ㄸㅏㄹ -10608
▁GDP -10609
▁위나라 -10610
▁사무총장 -10611
▁무스 -10612
▁열심 -10613
▁자생 -10614
▁자카 -10615
▁아래쪽 -10616
▁엘리트 -10617
▁ES -10618
▁국유 -10619
▁겉보기 -10620
clude -10621
▁ㅎㅏㄴㅈㅣ -10622
▁개항 -10623
▁도사 -10624
▁명분 -10625
▁문경 -10626
▁아치 -10627
▁위생 -10628
▁앨리스 -10629
▁미셸 -10630
▁빛나 -10631
▁숙주 -10632
▁스로 -10633
▁탁월 -10634
▁132 -10635
▁지방산 -10636
▁ㅁㅗㄹㄹㅕ -10637
미스 -10638
▁가볍 -10639
▁프랭클린 -10640
▁ㅇㅡㄹㄲㅏ -10641
그래 -10642
세우 -10643
타마 -10644
▁니카 -10645
▁수년 -10646
▁우상 -10647
▁칼뱅 -10648
▁ㅅㅏㄹㄹㅕ -10649
▁이득 -10650
▁지청 -10651
▁스리랑카 -10652
▁스트라이커 -10653
HO -10654
림픽 -10655
원장 -10656
▁듀얼 -10657
▁ㄷㅚㄴㄷㅏㅁㅕㄴ -10658
UR -10659
old -10660
▁수심 -10661
▁유스 -10662
▁정인 -10663
▁총무 -10664
▁대성전 -10665
▁더비 -10666
▁반역 -10667
ㄸㅡㄹㅕㅆ -10668
Hz -10669
▁툰 -10670
세기 -10671
▁결핍 -10672
▁재난 -10673
▁재해 -10674
▁주지 -10675
▁프롤 -10676
▁동성애자 -10677
멘스 -10678
▁듀오 -10679
▁아데 -10680
▁글로브 -10681
▁시뮬레이션 -10682
▁ㅎㅐㅈㅣㄴㄷㅏ -10683
에미 -10684
헌영 -10685
▁리모 -10686
▁애칭 -10687
▁이데 -10688
▁인프라 -10689
ㄲㅡㄹㅓㅇㅜㄴ -10690
▁섀 -10691
▁++ -10692
▁감동 -10693
▁광양 -10694
▁자르 -10695
ㅇㅑㄴ -10696
위성 -10697
▁동요 -10698
▁상연 -10699
▁정관 -10700
▁진수 -10701
▁삼국사기 -10702
▁인디애나 -10703
스기 -10704
▁김민 -10705
▁빈번 -10706
▁어리 -10707
▁ㅅㅣㅋㅣㅁ -10708
미즈 -10709
▁ㄹㅑ -10710
▁결제 -10711
▁초원 -10712
▁대지진 -10713
▁온갖 -10714
▁워치 -10715
▁원격 -10716
바야시 -10717
▁마다가 -10718
▁얹 -10719
ork -10720
▁NE -10721
▁주화 -10722
버러 -10723
▁격자 -10724
▁조병 -10725
▁ㅂㅜㅌㅈㅏ -10726
보내 -10727
▁극락 -10728
▁베른 -10729
▁속편 -10730
▁파이프 -10731
▁ㅇㅏㄴㅣㄹ -10732
ix -10733
▁동참 -10734
▁시종 -10735
▁타석 -10736
▁마우스 -10737
▁무조건 -10738
렉션 -10739
▁브랜 -10740
▁현직 -10741
▁미주리 -10742
▁쾰 -10743
거래 -10744
파크 -10745
▁호족 -10746
▁요제프 -10747
▁ㅅㅔㅇㅝㅈㅕ -10748
GA -10749
메다 -10750
벨라 -10751
▁or -10752
▁까지 -10753
▁대사헌 -10754
▁복음서 -10755
▁ㄱㅓㄹㄹㅣㄴ -10756
▁국수 -10757
▁부드 -10758
▁현행 -10759
▁기상청 -10760
▁보헤미아 -10761
▁패럴림픽 -10762
▁속주 -10763
▁울리 -10764
▁pro -10765
해튼 -10766
▁강풍 -10767
▁대국 -10768
▁현황 -10769
() -10770
lo -10771
▁김옥 -10772
▁상기 -10773
▁암흑 -10774
▁농산물 -10775
▁자세히 -10776
▁저널리 -10777
▁ㄷㅜㄹㄹㅓㅆㅏㅇㅕ -10778
천사 -10779
▁대각 -10780
▁발각 -10781
▁신상 -10782
▁요법 -10783
위원회 -10784
▁ㅎㅏㄱㅗ -10785
▁ㅂㅜㅌㅇㅕㅈㅕㅆ -10786
▁Ro -10787
▁청자 -10788
▁평안남도 -10789
ick -10790
▁kt -10791
▁단과 -10792
ence -10793
▁우체국 -10794
▁ㅁㅗㅇㅡㄴ -10795
루냐 -10796
▁라오 -10797
▁맹세 -10798
▁피로 -10799
▁아니하 -10800
▁통틀어 -10801
▁볼셰비키 -10802
ㅂㄴㅣㄲㅏ -10803
▁파문 -10804
마리 -10805
▁후속작 -10806
▁합스부르크 -10807
변이 -10808
CAF -10809
▁La -10810
▁총기 -10811
▁투항 -10812
▁호의 -10813
▁활주로 -10814
▁돌연변이 -10815
▁슛 -10816
를테 -10817
▁PR -10818
▁가타 -10819
▁불행 -10820
▁황도 -10821
를테면 -10822
▁1870 -10823
▁이를테면 -10824
▁공파 -10825
▁세손 -10826
▁페로 -10827
▁해부 -10828
▁ㅈㅝ -10829
▁감금 -10830
▁낙하 -10831
▁쳐 -10832
▁ㅉㅏ -10833
▁낮추 -10834
▁초고 -10835
▁ㅋㅐ -10836
▁ㅌㅟ -10837
▁공표 -10838
▁밀러 -10839
▁의과 -10840
▁재질 -10841
▁호리 -10842
▁Mar -10843
▁단행본 -10844
▁매거진 -10845
▁평안북도 -10846
▁숀 -10847
라기 -10848
▁서장 -10849
▁소울 -10850
▁장대 -10851
▁표창 -10852
브리아 -10853
▁모터스 -10854
▁창시자 -10855
▁ㅇㅏㄴㅣ -10856
삭스 -10857
▁관동 -10858
▁만년 -10859
▁생계 -10860
▁왜구 -10861
▁저격 -10862
▁정국 -10863
▁중앙부 -10864
▁트리니 -10865
울리 -10866
홀름 -10867
▁아빠 -10868
▁뾰 -10869
▁To -10870
▁시국 -10871
▁제너 -10872
▁ㅇㅗㄹㅂㅏㄹㅡㄴ -10873
▁댓 -10874
▁쓸 -10875
▁DM -10876
▁말년 -10877
▁양육 -10878
▁우아 -10879
▁소피아 -10880
플로 -10881
할시 -10882
▁루비 -10883
▁머스 -10884
ance -10885
▁NAS -10886
▁타이베이 -10887
공산 -10888
▁김병 -10889
▁아쿠 -10890
▁450 -10891
▁청동기 -10892
▁1885 -10893
▁프랜시스 -10894
▁엥 -10895
▁계시 -10896
▁복식 -10897
▁비늘 -10898
▁입수 -10899
▁애리조 -10900
▁국악 -10901
▁로페 -10902
▁배속 -10903
▁이븐 -10904
▁기병대 -10905
▁내려가 -10906
▁아스널 -10907
▁우즈베키스탄 -10908
▁른 -10909
▁돌출 -10910
▁포고 -10911
▁USS -10912
▁1871 -10913
ㄷㅐ -10914
▁Ph -10915
▁대장군 -10916
▁오로지 -10917
▁ㄲㅗㅂㅎㅣㄴㄷㅏ -10918
EM -10919
▁짱 -10920
▁리터 -10921
▁세븐 -10922
▁카바 -10923
▁비주얼 -10924
ection -10925
▁아이스하키 -10926
▁ㅂㅓ -10927
▁붙잡 -10928
▁다람쥐 -10929
▁활발히 -10930
▁알래스카 -10931
▁ㄷㅡㄹㅓㄴㅏㄴ -10932
티시 -10933
ear -10934
▁un -10935
▁난이 -10936
▁성령 -10937
▁수염 -10938
▁신종 -10939
▁앞쪽 -10940
십자 -10941
타이드 -10942
▁로렌스 -10943
테리아 -10944
▁앤더슨 -10945
▁마르크스주의 -10946
제이 -10947
▁전날 -10948
▁중생 -10949
▁ㅉㅣㄴ -10950
▁양성자 -10951
▁1600 -10952
▁쿡 -10953
지로 -10954
▁맷 -10955
▁감수 -10956
lass -10957
▁선보이 -10958
▁프레이 -10959
▁ㅎㅏㅇㅑㄴ -10960
▁ㅈㅏㄹㅏㄴㄷㅏ -10961
지오 -10962
▁내면 -10963
▁유러 -10964
▁휴게 -10965
▁흉노 -10966
▁내무부 -10967
▁편집자 -10968
▁only -10969
▁오클랜드 -10970
▁ㅁㅗㅇㅣㄴ -10971
▁벤치 -10972
▁참사 -10973
▁카터 -10974
▁경질 -10975
▁로리 -10976
▁원심 -10977
▁중상 -10978
▁빅토르 -10979
ild -10980
▁내성 -10981
▁이양 -10982
▁퇴장 -10983
▁수원시 -10984
▁유러피언 -10985
▁낚 -10986
▁시애 -10987
▁위스 -10988
▁박헌영 -10989
▁센고쿠 -10990
▁꺼 -10991
irl -10992
▁부조 -10993
▁자칭 -10994
▁테일 -10995
▁파나마 -10996
▁1200 -10997
쩌둥 -10998
▁오라 -10999
▁유료 -11000
▁마오쩌둥 -11001
테쓰 -11002
▁매직 -11003
▁역도 -11004
▁청룡 -11005
▁화랑 -11006
▁마닐라 -11007
▁케이프 -11008
▁GN -11009
▁봉수 -11010
▁중서 -11011
▁지성 -11012
▁콜레 -11013
▁ㅈㅜㄹㅇㅕ -11014
▁관행 -11015
▁루카 -11016
▁볼프 -11017
▁장단 -11018
▁해저 -11019
ㄹㅇㅏ -11020
▁예정자 -11021
▁능선 -11022
▁반성 -11023
▁탑신 -11024
▁ㅅㅏㄹㅇㅏ -11025
▁ㅇㅗㄹㄹㅏㅆㅇㅡㅁㅕ -11026
▁뛰어 -11027
▁수인 -11028
▁친분 -11029
▁윤보선 -11030
▁마다가스카르 -11031
▁즘 -11032
▁민요 -11033
▁케라 -11034
▁240 -11035
▁반란군 -11036
체고 -11037
파이 -11038
▁재외 -11039
▁카니 -11040
▁김정은 -11041
체고비나 -11042
▁ㄴㅜㄱㅜㄴㄱㅏ -11043
▁SL -11044
▁갈리 -11045
▁구니 -11046
▁이모 -11047
▁출가 -11048
▁티켓 -11049
▁김규식 -11050
ㅇㅡㅁㅡㄹㅗ -11051
▁ㄴㅏㄱㅏㄴㄷㅏ -11052
▁리바 -11053
▁바디 -11054
▁스태 -11055
▁다나카 -11056
▁부원군 -11057
▁시애틀 -11058
▁오른손 -11059
▁ㅂㅜㄹㄹㅣㄴ -11060
▁교실 -11061
▁ㅇㅡㄹㅈㅣ -11062
▁ㄲㅡㅌㄴㅏㅆ -11063
▁이방 -11064
▁증인 -11065
▁플랜 -11066
▁시달리 -11067
▁실험실 -11068
▁구마모토 -11069
관리 -11070
맥스 -11071
▁vs -11072
▁국당 -11073
▁놀라 -11074
▁사쿠 -11075
▁조광 -11076
▁조례 -11077
▁초빙 -11078
▁ㅅㅣㄷㅏ -11079
▁프로리그 -11080
▁ㄱㅓㄴㅡㄹ -11081
▁콘스탄티노폴리스 -11082
▁당내 -11083
▁생선 -11084
▁맨해튼 -11085
▁알렉스 -11086
▁앤드루 -11087
▁해리슨 -11088
▁ㄹㅕㄷㅓㄴ -11089
▁ㅌㅣ -11090
▁수교 -11091
텔레스 -11092
▁역사가 -11093
▁AD -11094
▁성실 -11095
▁정제 -11096
▁제동 -11097
▁부드럽 -11098
▁프라하 -11099
OV -11100
▁서산 -11101
▁시리 -11102
▁지쿠 -11103
▁파인 -11104
▁제조업 -11105
▁ㄴㅏㅌㅏㄴㅐㄴ -11106
메스 -11107
▁몸통 -11108
▁시중 -11109
▁징병 -11110
▁통역 -11111
천면 -11112
▁관문 -11113
▁궁궐 -11114
▁무척 -11115
▁반하 -11116
▁요지 -11117
▁이완 -11118
▁ㄴㅓㄹ -11119
▁돌려 -11120
▁리비 -11121
▁상급 -11122
▁송도 -11123
▁재활 -11124
▁동물원 -11125
▁미군정 -11126
▁헬리콥터 -11127
▁ㅅㅐㅇㄱㅣㄴㄷㅏ -11128
코토 -11129
▁Sy -11130
▁ㅎㅜ -11131
▁개헌 -11132
▁루돌프 -11133
▁왕세자 -11134
▁ㅁㅣㅊㅣㄴ -11135
올라 -11136
ans -11137
▁경희 -11138
▁부각 -11139
▁함자 -11140
ㅏㅈㅣㄹ -11141
ivers -11142
▁괄 -11143
▁경시 -11144
▁국보 -11145
▁남용 -11146
▁오미 -11147
▁허드 -11148
▁ㅇㅣㅅ -11149
▁공민왕 -11150
ㄲㅇㅣㄴ -11151
▁ㄴㅓㅁㅇㅓㄱㅏㅆ -11152
▁고쿠 -11153
▁섬세 -11154
ype -11155
▁CM -11156
▁남산 -11157
▁호크 -11158
▁대대로 -11159
▁성남시 -11160
▁신문사 -11161
▁하노이 -11162
▁ㄴㅑㄴㅡㄴ -11163
▁아리스토텔레스 -11164
▁다투 -11165
▁창문 -11166
▁커플 -11167
▁EBS -11168
▁동대문 -11169
▁제퍼슨 -11170
무소 -11171
▁구청 -11172
▁분과 -11173
▁차용 -11174
사상 -11175
어사 -11176
▁알아 -11177
▁이룩 -11178
▁아무것 -11179
▁ㅊㅓㅎㅐ -11180
▁총통 -11181
▁줄거리 -11182
▁클린턴 -11183
include -11184
▁남해 -11185
▁뉴클 -11186
▁드미 -11187
▁바트 -11188
▁뾰족 -11189
▁위너스 -11190
▁클레이 -11191
▁얕 -11192
▁개개 -11193
▁리조트 -11194
▁러시아인 -11195
▁각성 -11196
▁테라 -11197
▁사각형 -11198
▁서재필 -11199
▁ㄴㅏㅌㅏㄴㅐㅆ -11200
ish -11201
▁배려 -11202
▁총애 -11203
▁카지 -11204
▁칼럼 -11205
▁화기 -11206
▁동유럽 -11207
▁레이크 -11208
▁생겨나 -11209
▁솔로몬 -11210
▁퍼스트 -11211
▁농경 -11212
▁에프 -11213
▁통용 -11214
▁가늘 -11215
▁김원 -11216
▁시합 -11217
▁ㅊㅏㄹ -11218
▁크라이 -11219
▁엮 -11220
▁안녕 -11221
▁주임 -11222
▁퍼스 -11223
▁하반 -11224
▁MTV -11225
▁싣 -11226
컨대 -11227
▁": -11228
▁시노 -11229
▁학설 -11230
▁선거법 -11231
▁나우 -11232
▁하키 -11233
▁화엄 -11234
ㅐㄱ -11235
▁산호 -11236
▁씨앗 -11237
▁약혼 -11238
▁경영자 -11239
▁브루스 -11240
▁자치체 -11241
▁해리스 -11242
GM -11243
▁돌보 -11244
▁지오 -11245
▁푸르 -11246
▁대합실 -11247
▁브레이크 -11248
▁NT -11249
▁갑작 -11250
▁나선 -11251
▁독창 -11252
▁보로 -11253
▁스가 -11254
▁효자 -11255
▁케플러 -11256
▁올림피아 -11257
▁ㄴㅐㄹㅕㅈㅕㅆ -11258
▁돋 -11259
oun -11260
▁광도 -11261
▁실존 -11262
▁주입 -11263
▁처하 -11264
▁천왕 -11265
▁퍼포 -11266
▁포착 -11267
▁허정 -11268
▁ㅍㅕㄴ -11269
▁ㄴㅡㄴㄷㅏㅁㅕㄴ -11270
▁겁 -11271
라니 -11272
에스 -11273
▁관청 -11274
▁시부 -11275
▁하류 -11276
▁함경남도 -11277
▁ㅇㅓㄹㅕㅇㅝㅆ -11278
▁모의 -11279
▁진해 -11280
▁아키라 -11281
▁퍼포먼스 -11282
▁@ -11283
원수 -11284
▁독도 -11285
▁모호 -11286
▁수양 -11287
▁전래 -11288
▁칙령 -11289
▁예선전 -11290
RA -11291
▁되돌 -11292
▁성화 -11293
▁유혹 -11294
▁요시다 -11295
▁Jo -11296
▁ex -11297
▁메뉴 -11298
▁자제 -11299
▁파도 -11300
▁스테파 -11301
▁유치원 -11302
▁총사령관 -11303
fe -11304
토랑 -11305
▁보라 -11306
▁일당 -11307
▁분류군 -11308
▁레스토랑 -11309
OD -11310
▁경호 -11311
▁케인 -11312
지르 -11313
▁로버 -11314
▁지로 -11315
▁내야수 -11316
정원 -11317
▁검정 -11318
▁극한 -11319
▁메카 -11320
▁수필 -11321
▁트릭 -11322
▁평형 -11323
▁ㅌㅡㄴ -11324
▁긴테쓰 -11325
ey -11326
▁다테 -11327
▁마차 -11328
▁분파 -11329
▁카테 -11330
▁호스 -11331
▁비밀리 -11332
▁유권자 -11333
통일 -11334
▁sc -11335
▁만장 -11336
▁ㄷㅏㄱ -11337
▁네이션스컵 -11338
나오 -11339
▁문고 -11340
▁신발 -11341
▁전무 -11342
▁예수회 -11343
히트 -11344
▁리보 -11345
▁보행 -11346
▁찬사 -11347
▁테리 -11348
▁아키타 -11349
▁어군 -11350
▁뉴클레오 -11351
바흐 -11352
창호 -11353
▁블로 -11354
▁욕망 -11355
▁제물 -11356
ical -11357
▁비타민 -11358
▁스톡홀름 -11359
▁뻔 -11360
등식 -11361
▁카피 -11362
▁알프스 -11363
▁컴퓨팅 -11364
▁ㅇㅓㅉㅓㄹ -11365
환경 -11366
▁마술 -11367
▁원통 -11368
▁서대문 -11369
▁잡아먹 -11370
▁ㄷㅚㄷㅗㄹㅇㅏ -11371
▁실정 -11372
▁캐롤 -11373
신문 -11374
lat -11375
▁ㅆㅏㅎ -11376
▁ㄷㅡㄴㄷㅏ -11377
러브 -11378
▁김유 -11379
▁타스 -11380
▁포식 -11381
▁보수당 -11382
▁오리온 -11383
▁자치주 -11384
▁드루 -11385
▁박종 -11386
▁절망 -11387
▁다저스 -11388
TP -11389
▁도교 -11390
▁맞대 -11391
▁엄밀 -11392
▁이점 -11393
▁스폰서 -11394
▁친위대 -11395
▁ㅅㅣㄹㄹㅣㄴ -11396
EG -11397
▁넷째 -11398
▁마셜 -11399
▁묘비 -11400
▁블레 -11401
▁수복 -11402
▁프론 -11403
▁ㅅㅏㅆ -11404
▁유아기 -11405
▁플라톤 -11406
▁와이번스 -11407
▁ㅆㅡㅇㅕㅈㅣㄴ -11408
암동 -11409
▁강령 -11410
▁리베 -11411
▁방콕 -11412
▁소음 -11413
▁이렇 -11414
▁ABC -11415
▁바이트 -11416
▁방어선 -11417
▁프린스 -11418
▁도둑 -11419
▁모어 -11420
▁색소 -11421
▁ㅎㅏㅇ -11422
▁마천루 -11423
▁ㅎㅑㅇㅎㅐㅆ -11424
▁ㅇㅗㄹㄹㅏㄱㅏㅆ -11425
메드 -11426
▁고든 -11427
▁본성 -11428
▁북아일랜드 -11429
▁천국 -11430
▁치과 -11431
▁황소 -11432
▁ATP -11433
▁멧 -11434
▁CH -11435
▁나인 -11436
▁럭비 -11437
▁불변 -11438
▁웨인 -11439
▁장시 -11440
▁파손 -11441
▁로드리 -11442
▁ㅂㅗㄴㄸ -11443
▁ㅂㅜㄹㄹㅓㅇ -11444
▁전담 -11445
▁천거 -11446
▁헬싱 -11447
▁대원군 -11448
▁정의당 -11449
▁AV -11450
▁DD -11451
▁구내 -11452
▁구실 -11453
▁동로 -11454
▁추이 -11455
▁톈진 -11456
▁투자자 -11457
▁피라미 -11458
▁피아니스트 -11459
▁샐 -11460
▁무실 -11461
▁상행 -11462
▁야드 -11463
▁포토 -11464
▁폭파 -11465
▁개구리 -11466
▁나트륨 -11467
▁노론 -11468
▁마켓 -11469
▁벤처 -11470
▁시몬 -11471
▁실권 -11472
▁연산군 -11473
▁튀르크 -11474
매매 -11475
▁침묵 -11476
▁마누엘 -11477
덴부르크 -11478
▁연극배우 -11479
▁ㅎㅏㅂㅊㅣㄴ -11480
▁대본 -11481
▁영유 -11482
▁210 -11483
▁Fr -11484
▁선천 -11485
▁소극 -11486
▁쾰른 -11487
▁정부군 -11488
▁콘테스트 -11489
▁당연 -11490
▁리사 -11491
▁삼존 -11492
▁슬하 -11493
▁퇴직 -11494
▁화약 -11495
▁용인시 -11496
▁화강암 -11497
▁ㄹㅏㅅㅓ -11498
▁헤르체고비나 -11499
군다 -11500
are -11501
▁스텝 -11502
▁제노 -11503
▁찬양 -11504
▁토스카 -11505
▁ㅇㅏㄹㅡㅁㄷㅏㅇㅜㅁ -11506
▁pr -11507
▁야전 -11508
▁약사 -11509
▁특전 -11510
▁프레데 -11511
▁가브리엘 -11512
FL -11513
▁휩 -11514
놀이 -11515
대교 -11516
티넘 -11517
▁넘치 -11518
▁릴리 -11519
▁백두 -11520
▁소중 -11521
▁스칸 -11522
▁왕권 -11523
▁ㅇㅣㅈ -11524
▁선구자 -11525
▁알파벳 -11526
▁적외선 -11527
▁주차장 -11528
▁플래티넘 -11529
▁결별 -11530
▁마에 -11531
▁아나톨 -11532
EL -11533
ica -11534
▁Ma -11535
▁국공 -11536
▁본작 -11537
▁정거 -11538
▁중퇴 -11539
▁차출 -11540
▁목요일 -11541
▁오바마 -11542
▁ㅈㅜㄱㅇㅣㄴ -11543
▁채취 -11544
▁가이드 -11545
▁경전철 -11546
▁유격수 -11547
수스 -11548
▁ㄱㅕㄴ -11549
▁동시대 -11550
▁ㅈㅡㄹㄱㅣㄹ -11551
사고 -11552
▁ㅎㅣ -11553
▁사방 -11554
▁위그 -11555
▁이의 -11556
▁he -11557
▁별세 -11558
▁유선 -11559
▁준수 -11560
▁ㅈㅕㅅㅓ -11561
▁ㅇㅣㄹㅝㅈㅕㅆ -11562
대표 -11563
▁감찰 -11564
▁대북 -11565
▁리본 -11566
▁봉화 -11567
▁일리 -11568
▁1889 -11569
▁ㄴㅏㄱㅏㄴ -11570
▁가락 -11571
▁방치 -11572
▁밸리 -11573
▁삼림 -11574
▁ㄹㅓㅅㅓ -11575
▁ㅇㅏㄹㅇㅏ -11576
▁로크 -11577
▁아날 -11578
▁여유 -11579
▁영정 -11580
▁요충 -11581
▁추리 -11582
▁한미 -11583
공산당 -11584
▁ㄹㅕㄷㅏ -11585
▁가맹 -11586
▁맞서 -11587
▁반포 -11588
▁슬픔 -11589
▁리프트 -11590
난성 -11591
언스 -11592
▁강렬 -11593
▁송신 -11594
▁종식 -11595
▁안테나 -11596
▁초신성 -11597
▁스카우트 -11598
지기 -11599
클레 -11600
60 -11601
천동 -11602
▁불참 -11603
▁실록 -11604
▁여권 -11605
▁켈트 -11606
▁아이폰 -11607
▁ㄱㅏㅈㅕㅇㅗㄴ -11608
▁베트 -11609
▁우림 -11610
▁하시 -11611
▁호대 -11612
▁기관지 -11613
▁패트릭 -11614
▁ㅊㅟㅎㅐㅆ -11615
소통 -11616
▁모하 -11617
▁직통 -11618
▁딥 -11619
충류 -11620
▁공존 -11621
▁비엔 -11622
▁투여 -11623
▁메이커 -11624
▁가솔 -11625
▁정형 -11626
테이너 -11627
▁So -11628
▁끼치 -11629
▁담보 -11630
▁대영 -11631
▁영예 -11632
▁임정 -11633
▁중합 -11634
▁ㅅㅓㄹ -11635
▁밴쿠버 -11636
▁멍 -11637
▁니혼 -11638
▁산성 -11639
▁의류 -11640
▁이송 -11641
▁전전 -11642
▁주계 -11643
▁처지 -11644
▁칸국 -11645
▁엔트리 -11646
▁타이거스 -11647
▁늙 -11648
▁간첩 -11649
▁다윈 -11650
▁불량 -11651
▁야시 -11652
▁말미암 -11653
▁의사소통 -11654
▁ㅂㅓㄹㅇㅕ -11655
▁김형 -11656
▁모금 -11657
▁유목 -11658
와라노 -11659
▁ㅂㅏㄲㅟㄴ -11660
▁후지와라노 -11661
▁구두 -11662
▁연말 -11663
▁왕건 -11664
▁메디치 -11665
▁ㄸㅓㅇㅗ -11666
▁CONCA -11667
▁ㅂㅏㄲㅝㅆ -11668
부로 -11669
위안 -11670
▁건전 -11671
▁매트 -11672
▁미수 -11673
▁비야 -11674
▁집정 -11675
▁플리 -11676
▁ㅂㅗㄴㅐㄴㄷㅏ -11677
▁끓 -11678
카리 -11679
▁중수 -11680
▁판례 -11681
▁ㅇㅣㄲㅡㄹ -11682
▁감상 -11683
▁감성 -11684
▁격리 -11685
▁사설 -11686
▁종자 -11687
▁지자 -11688
▁펌프 -11689
▁형질 -11690
▁For -11691
▁타이어 -11692
▁Live -11693
▁CONCACAF -11694
드레 -11695
▁로트 -11696
▁열강 -11697
▁작물 -11698
▁ㄱㅣㄷㅏ -11699
▁고속버스 -11700
▁센티미터 -11701
AF -11702
바나 -11703
▁그저 -11704
▁김준 -11705
▁사서 -11706
▁시크 -11707
▁인가 -11708
▁두려움 -11709
▁똑같이 -11710
▁ㅎㅣㅁㅆㅓㅆ -11711
▁금호 -11712
▁서임 -11713
▁수락 -11714
▁예약 -11715
▁절정 -11716
▁정읍 -11717
▁피지 -11718
▁ㄱㅜㄷ -11719
▁ㅌㅡㄹ -11720
▁로마인 -11721
▁소말리아 -11722
▁ㄴㅏㄹㅇㅏ -11723
▁라리 -11724
▁라자 -11725
▁무형 -11726
▁의령 -11727
▁낙동강 -11728
▁발라드 -11729
sh -11730
▁앙골 -11731
▁후배 -11732
▁JTBC -11733
▁프란체스코 -11734
▁훙 -11735
▁원군 -11736
▁미야자키 -11737
▁ㄱㅗㅊㅕㅆ -11738
▁사탕 -11739
▁정종 -11740
▁캐리 -11741
▁하야 -11742
▁생존자 -11743
▁ㅁㅗㅅㅕ -11744
▁들이 -11745
▁마땅 -11746
▁사역 -11747
▁애정 -11748
▁쿠퍼 -11749
▁ㅇㅣㄱㅕ -11750
bo -11751
휴일 -11752
▁메소 -11753
▁은거 -11754
▁시네마 -11755
▁열심히 -11756
란토 -11757
블랜드 -11758
▁스트로 -11759
▁ㅁㅓㅁㅊ -11760
▁가나가와현 -11761
망디 -11762
유예 -11763
▁가도 -11764
▁백과 -11765
▁정작 -11766
▁Sou -11767
▁드디어 -11768
▁레이싱 -11769
▁나카무라 -11770
▁카탈루냐 -11771
가미 -11772
프로 -11773
▁도피 -11774
▁목회 -11775
▁잠정 -11776
도르프 -11777
부르 -11778
캐슬 -11779
▁극우 -11780
▁리옹 -11781
▁송출 -11782
▁치환 -11783
에미리트 -11784
▁자유민주당 -11785
▁아랍에미리트 -11786
▁공소 -11787
▁금산 -11788
▁기이 -11789
▁습윤 -11790
▁요격 -11791
▁제명 -11792
▁징수 -11793
바이트 -11794
▁장학금 -11795
▁ㄱㅏㄹㅕ -11796
▁ㄱㅏㄹㅗ -11797
▁피라미드 -11798
EE -11799
▁모색 -11800
▁반기 -11801
▁연정 -11802
추부사 -11803
▁클리블랜드 -11804
▁ㄸㅟㅇㅓㄴㅏㅆ -11805
▁ㅅㅏㄹㅏㅈㅣㄴ -11806
IL -11807
▁미야기 -11808
▁고딕 -11809
▁볼트 -11810
하이오 -11811
tern -11812
▁여배우 -11813
▁오하이오 -11814
▁프랑스인 -11815
▁ㅈㅣㄴㅣㄴㄷㅏ -11816
▁비준 -11817
▁트렌 -11818
마르크 -11819
▁캅 -11820
▁유의 -11821
지능 -11822
▁GB -11823
▁거미 -11824
▁로얄 -11825
▁유희 -11826
▁평평 -11827
▁AKB -11828
▁간신히 -11829
▁광복군 -11830
▁유니버설 -11831
▁인공지능 -11832
▁김명 -11833
▁벨리 -11834
▁항만 -11835
▁Com -11836
▁int -11837
▁ㅇㅣㄹㅇㅡㅋㅣㄴㄷㅏ -11838
간다 -11839
대사 -11840
ood -11841
▁"& -11842
▁무네 -11843
▁순종 -11844
▁카카오 -11845
▁츄 -11846
자루 -11847
▁격추 -11848
▁삼중 -11849
▁Col -11850
▁검은색 -11851
▁교통부 -11852
ost -11853
▁성곽 -11854
▁여고 -11855
▁자서 -11856
▁ㅈㅔㄴ -11857
▁레이트 -11858
▁마이어 -11859
▁Part -11860
▁Time -11861
풀이 -11862
현동 -11863
▁EU -11864
▁무과 -11865
▁암스 -11866
▁워커 -11867
▁ㅊㅟㅎㅐ -11868
▁헛 -11869
ㅂㅆ -11870
▁수로 -11871
▁악보 -11872
▁페트 -11873
▁ㅈㅏㄴ -11874
▁1848 -11875
▁ㅇㅣㄹㅝㅈㅣㄴ -11876
▁사쓰 -11877
▁서태 -11878
▁뉴캐슬 -11879
▁토리노 -11880
▁ㅃㅏㄹㄱㅏㄴ -11881
▁ㄷㅡㄹㅓㄴㅐㅆ -11882
나마 -11883
▁바지 -11884
▁추력 -11885
▁탄약 -11886
▁티아 -11887
▁한림 -11888
▁한중 -11889
▁레이더 -11890
▁벅 -11891
▁모욕 -11892
▁문집 -11893
▁익숙 -11894
▁기숙사 -11895
에몽 -11896
화문 -11897
row -11898
▁포털 -11899
▁해태 -11900
span -11901
거스 -11902
지부 -11903
▁비추 -11904
▁추억 -11905
▁부총리 -11906
▁ㄴㅗㄹㄹㅏㅇㅜㄴ -11907
▁급여 -11908
▁꼽히 -11909
▁댄서 -11910
▁ㄱㅕㅁ -11911
▁onlyinclude -11912
▁하행 -11913
▁해피 -11914
▁ㅍㅜㄹㄹㅕㄴ -11915
uc -11916
애미 -11917
▁김광 -11918
▁오만 -11919
▁재팬 -11920
▁줄리 -11921
프랑크 -11922
▁공휴일 -11923
▁여의도 -11924
▁마이애미 -11925
의사 -11926
▁라이더 -11927
▁브레이 -11928
▁튀니지 -11929
▁ㅈㅕㅆㅇㅡㄴㅏ -11930
▁도래 -11931
▁라르 -11932
▁매킨 -11933
▁볼로 -11934
▁바그너 -11935
▁프랑스령 -11936
ㅟㄹ -11937
▁남군 -11938
▁셀레 -11939
▁양심 -11940
▁우한 -11941
▁종군 -11942
▁토트 -11943
▁에이즈 -11944
▁지상파 -11945
▁카스티야 -11946
정동 -11947
lay -11948
▁보령 -11949
▁재일 -11950
▁절벽 -11951
▁해독 -11952
▁대니얼 -11953
▁스타트 -11954
ㅇㅎㅏㄴㄷㅏ -11955
ous -11956
▁국한 -11957
▁워즈 -11958
▁조인 -11959
▁특화 -11960
▁고인돌 -11961
▁클라우 -11962
▁프란치 -11963
▁대승불교 -11964
▁어시스트 -11965
ㅈㅣㄹㄹㅓ -11966
▁병자 -11967
▁어찌 -11968
▁여사 -11969
▁유식 -11970
▁음절 -11971
▁우루스 -11972
▁일본국 -11973
▁페트로 -11974
▁공대 -11975
▁비토 -11976
▁사민 -11977
▁천주 -11978
페스트 -11979
▁교의 -11980
▁무안 -11981
▁산둥 -11982
▁업자 -11983
▁코리 -11984
▁국제법 -11985
▁법원장 -11986
▁정치학 -11987
▁ㅎㅟㅂㅆ -11988
▁가혹 -11989
▁치카 -11990
▁합치 -11991
▁ㄴㅜㄹㅕㅆ -11992
▁ㄴㅡㄹㅣㄴ -11993
▁ㅅㅣㅋㅕㅅㅓ -11994
파니아 -11995
olog -11996
▁지배자 -11997
메니 -11998
orn -11999
ows -12000
▁EM -12001
▁굴절 -12002
▁다치 -12003
▁방대 -12004
▁어긋 -12005
▁인칭 -12006
▁제위 -12007
▁SNS -12008
▁시멘트 -12009
▁시코쿠 -12010
▁관현악단 -12011
지아 -12012
▁랴오 -12013
▁리카 -12014
▁비대 -12015
▁안개 -12016
▁총격 -12017
▁클러 -12018
해살이 -12019
▁그랜트 -12020
▁명확히 -12021
▁아이즈 -12022
▁ㅂㅏㄹㅏ -12023
▁로키 -12024
▁비정 -12025
▁정거장 -12026
▁보수주의 -12027
▁가쿠 -12028
▁공성 -12029
▁부평 -12030
▁Bla -12031
▁단결 -12032
▁대리인 -12033
▁하노버 -12034
브로 -12035
ann -12036
▁경복 -12037
▁모건 -12038
▁선명 -12039
▁숙부 -12040
▁마법사 -12041
▁저지대 -12042
▁제우스 -12043
▁카메룬 -12044
▁ㅂㅏㄲㅜㄹ -12045
OP -12046
▁거란 -12047
▁문단 -12048
▁항체 -12049
메이카 -12050
▁API -12051
▁자메이카 -12052
▁줄기세포 -12053
az -12054
▁김인 -12055
▁사수 -12056
▁신곡 -12057
▁용액 -12058
▁평지 -12059
▁황색 -12060
도라 -12061
▁류큐 -12062
▁마테 -12063
▁명소 -12064
▁연립 -12065
▁오디 -12066
클리드 -12067
▁131 -12068
▁Your -12069
▁부다 -12070
▁케르 -12071
▁ㄸㅢ -12072
▁귀신 -12073
▁대마 -12074
▁대나무 -12075
▁대단히 -12076
▁정보원 -12077
▁NASA -12078
틀리 -12079
▁at -12080
▁베어 -12081
▁부합 -12082
▁안방 -12083
▁점포 -12084
▁지법 -12085
▁레드삭스 -12086
서스 -12087
▁ㅇㅞ -12088
▁도키 -12089
▁메일 -12090
▁선봉 -12091
▁적료 -12092
▁대법관 -12093
▁ㅈㅓㅂㅎㅏㄴ -12094
▁쾨 -12095
▁BC -12096
▁검거 -12097
▁고로 -12098
▁글꼴 -12099
▁서귀 -12100
▁설문 -12101
빌라이 -12102
▁ref -12103
▁ㅅㅣㅋㅕㅇㅑ -12104
▁동산 -12105
▁모범 -12106
▁종양 -12107
▁하코 -12108
▁항우 -12109
칼리 -12110
▁모빌 -12111
▁재편 -12112
▁전한 -12113
ㄹㅣㄴㄷㅏ -12114
▁욱 -12115
시노 -12116
▁응급 -12117
▁최진 -12118
▁OST -12119
▁1883 -12120
▁녕 -12121
▁공영 -12122
▁기와 -12123
▁사림 -12124
▁지석 -12125
른스트 -12126
▁제이슨 -12127
▁패러디 -12128
▁ㅅㅐㅇㄱㅕㄴㅏㄴ -12129
▁곶 -12130
으로 -12131
히사 -12132
▁골격 -12133
▁남방 -12134
▁홀리 -12135
드리아 -12136
▁가솔린 -12137
▁영화상 -12138
관계 -12139
▁관상 -12140
▁초콜 -12141
▁혼다 -12142
네그로 -12143
▁라파엘 -12144
▁u -12145
▁계주 -12146
▁동진 -12147
▁소외 -12148
▁수식 -12149
▁연희 -12150
▁전보 -12151
▁한신 -12152
▁ㅅㅓㅆ -12153
▁방사능 -12154
▁줄리아 -12155
▁ㄸㅐㄹㅕ -12156
▁그라운드 -12157
▁ㅂㅏㅊㅕㅆ -12158
▁ㅍㅏㄹㄹㅕㅆ -12159
▁다듬 -12160
▁다툼 -12161
▁무작 -12162
▁중엽 -12163
▁탄자 -12164
▁ㄹㅏㄱㅣ -12165
▁기세 -12166
▁식스 -12167
▁진로 -12168
레스트 -12169
▁노르망디 -12170
▁텍사스주 -12171
거지 -12172
▁속력 -12173
▁부상자 -12174
▁판소리 -12175
▁교향악단 -12176
▁녹화 -12177
▁대좌 -12178
▁도박 -12179
▁쌍대 -12180
▁코소 -12181
▁큐브 -12182
▁비서관 -12183
80 -12184
▁깜 -12185
▁피리 -12186
▁형벌 -12187
▁연구회 -12188
▁경위 -12189
▁근사 -12190
▁삽화 -12191
▁실증 -12192
▁유공 -12193
▁이터 -12194
▁tv -12195
▁가우 -12196
▁간략 -12197
▁병마 -12198
▁산요 -12199
▁평판 -12200
▁ㄷㅏㅇ -12201
▁해상도 -12202
▁가토 -12203
▁라바 -12204
▁외치 -12205
▁자명 -12206
▁하남 -12207
▁에스페 -12208
▁프로그래머 -12209
▁펴 -12210
▁GM -12211
▁공무 -12212
▁야외 -12213
▁유우 -12214
▁카네 -12215
▁카마 -12216
▁편견 -12217
▁달라지 -12218
▁리마 -12219
▁리즈 -12220
▁봉인 -12221
▁온난 -12222
▁은혜 -12223
▁절감 -12224
▁조교 -12225
▁최선 -12226
▁흘러 -12227
▁고분군 -12228
센스 -12229
▁우산 -12230
▁에이전 -12231
▁위구르 -12232
▁파일럿 -12233
▁촛 -12234
▁Ge -12235
▁가중 -12236
▁꿈꾸 -12237
▁니키 -12238
▁단군 -12239
▁토마토 -12240
▁쿠빌라이 -12241
▁노면 -12242
▁송파 -12243
▁열전 -12244
▁타락 -12245
▁만화가 -12246
▁ㅇㅣㅀㅇㅓㅂㅓㄹㅣㄴ -12247
합성 -12248
▁고생 -12249
▁발상 -12250
▁요절 -12251
▁월터 -12252
▁콘솔 -12253
▁이용객 -12254
▁체인지 -12255
ern -12256
▁ㅋㅣㅇㅝ -12257
▁야마가타 -12258
▁RP -12259
▁부왕 -12260
▁성동 -12261
▁안나 -12262
▁유생 -12263
▁후진 -12264
▁해안선 -12265
▁ㄷㅏㄹㄹㅏㅆ -12266
▁콥 -12267
용차 -12268
▁고흥 -12269
▁권역 -12270
▁기량 -12271
▁함량 -12272
▁1882 -12273
▁봇 -12274
버른 -12275
제품 -12276
▁관례 -12277
▁북군 -12278
▁엔드 -12279
▁학력 -12280
▁Day -12281
▁Wind -12282
▁ㄱㅕㅂㅊㅕ -12283
40 -12284
▁멋 -12285
▁고노 -12286
▁모세 -12287
▁상어 -12288
▁수위 -12289
▁ㅇㅓㅄ -12290
▁ㅇㅗㄹㄹㅏㄱㅏ -12291
워스 -12292
프턴 -12293
▁간사 -12294
▁거성 -12295
▁국교 -12296
▁국외 -12297
▁기전 -12298
▁라디 -12299
▁세습 -12300
▁스루 -12301
▁위로 -12302
스트리 -12303
▁슈퍼컵 -12304
▁스칼라 -12305
▁연장전 -12306
▁원산지 -12307
▁중소기업 -12308
▁ㄷㅏㄹㅇㅏㄴㅏㅆ -12309
II -12310
▁덮개 -12311
▁루키 -12312
▁친족 -12313
▁헬레 -12314
▁다이어 -12315
▁올리브 -12316
▁ㄱㅓㄹㅊㅕㅅㅓ -12317
에고 -12318
ink -12319
▁RS -12320
▁SA -12321
▁가고 -12322
▁예컨대 -12323
▁통신사 -12324
CC -12325
포시 -12326
▁고의 -12327
돌이 -12328
토프 -12329
▁배분 -12330
▁왕궁 -12331
▁유서 -12332
▁데니스 -12333
▁전반기 -12334
▁ㅂㅏㄲㅜㄴ -12335
들이 -12336
▁내일 -12337
▁단정 -12338
▁정월 -12339
▁조셉 -12340
▁주선 -12341
▁ㄷㅜㄲ -12342
▁아이언 -12343
▁아날로그 -12344
교통 -12345
▁FK -12346
▁새우 -12347
▁우시 -12348
치히 -12349
▁수다 -12350
▁요양 -12351
▁파벌 -12352
▁플러 -12353
오르크 -12354
▁공화정 -12355
▁카스트 -12356
RT -12357
▁이회 -12358
▁장덕 -12359
▁직속 -12360
▁항원 -12361
▁330 -12362
▁단체전 -12363
▁대표자 -12364
▁관계없이 -12365
▁뫼 -12366
▁앗 -12367
려가 -12368
▁관악 -12369
▁도네 -12370
▁Sch -12371
▁선진국 -12372
▁ㅁㅜㄷㅎㅕㅆ -12373
▁강당 -12374
▁결사 -12375
▁급증 -12376
▁단속 -12377
▁사영 -12378
▁아목 -12379
▁자수 -12380
▁제천 -12381
다운 -12382
▁관목 -12383
▁부교 -12384
▁상록 -12385
▁지극 -12386
▁내세우 -12387
▁미스터리 -12388
▁정정 -12389
▁타수 -12390
▁국정원 -12391
▁중공군 -12392
▁해운대 -12393
▁ㅇㅗㄻㄱㅣㄴ -12394
데라 -12395
▁램프 -12396
▁성원 -12397
▁위조 -12398
▁재래 -12399
▁ㄸㅣㄴ -12400
▁노벨상 -12401
▁브루클린 -12402
▁시즈오카 -12403
▁몹 -12404
서니 -12405
▁딜런 -12406
▁배달 -12407
▁시안 -12408
▁최영 -12409
▁협업 -12410
▁경주시 -12411
▁미토콘 -12412
▁영원히 -12413
▁테네시 -12414
▁호스트 -12415
▁ㅂㅜㄷㅣ -12416
▁미토콘드리아 -12417
▁ㅎㅡㄹㅡㄴㄷㅏ -12418
▁내걸 -12419
▁동포 -12420
▁몰타 -12421
▁보루 -12422
▁사학 -12423
▁씨족 -12424
▁외래 -12425
▁조슈 -12426
여객 -12427
▁산시 -12428
▁정은 -12429
▁주창 -12430
▁4000 -12431
▁Girl -12432
▁ㄴㅡㄲㅣㄹ -12433
▁ㄴㅗㅎㅇㅣㄴ -12434
게스 -12435
▁랭크 -12436
▁북유럽 -12437
▁지붕돌 -12438
▁파푸아 -12439
▁필립스 -12440
본부 -12441
▁부르주 -12442
▁제갈량 -12443
▁휴게소 -12444
나기 -12445
팡이 -12446
▁보름 -12447
▁염려 -12448
▁레오폴 -12449
▁사업소 -12450
▁넬슨 -12451
▁빙하 -12452
▁소프 -12453
▁천수 -12454
▁콜럼 -12455
▁new -12456
▁단말 -12457
▁영덕 -12458
▁너무나 -12459
▁대상자 -12460
▁멜버른 -12461
▁ㅂㅣㅎㅐㅅㅓ -12462
융합 -12463
▁규탄 -12464
▁남하 -12465
▁발동 -12466
▁사치 -12467
▁수열 -12468
▁군사력 -12469
▁베이커 -12470
▁산티아 -12471
▁메릴랜드 -12472
▁유클리드 -12473
▁컨테이너 -12474
US -12475
▁괌 -12476
지리 -12477
▁라미 -12478
▁맡기 -12479
▁번창 -12480
▁서면 -12481
▁선대 -12482
▁잠깐 -12483
▁지르 -12484
▁표정 -12485
스탄불 -12486
▁안티오 -12487
▁1868 -12488
▁이스탄불 -12489
▁ㅊㅣㄹㅓㅈㅕㅆ -12490
OT -12491
▁양보 -12492
▁일각 -12493
▁회귀 -12494
▁OB -12495
▁과테 -12496
▁어파 -12497
▁제단 -12498
▁할인 -12499
▁앙골라 -12500
▁요충지 -12501
▁과테말라 -12502
▁컨트롤러 -12503
▁대인 -12504
▁종영 -12505
▁태후 -12506
▁피핀 -12507
티모어 -12508
▁알아보 -12509
▁핵융합 -12510
▁사이타마 -12511
▁냥 -12512
oll -12513
▁Or -12514
▁군벌 -12515
▁범행 -12516
▁신입 -12517
▁형편 -12518
▁ㅂㅣㅊ -12519
▁동적 -12520
▁받들 -12521
▁사안 -12522
▁스캔들 -12523
▁오스틴 -12524
▁ㅅㅔㅇㅛ -12525
▁몬테네그로 -12526
▁사회민주당 -12527
▁우의정 -12528
▁지켜 -12529
▁후예 -12530
▁라인업 -12531
▁ㅅㅏㅇㅎㅐ -12532
▁노사 -12533
▁전수 -12534
▁충렬 -12535
▁급속히 -12536
▁떠오르 -12537
▁파시즘 -12538
해자 -12539
▁ㅁㅜㄹ -12540
▁어울리 -12541
▁이바지 -12542
협회 -12543
▁객차 -12544
▁고트 -12545
▁농지 -12546
▁사천 -12547
▁우월 -12548
펜하겐 -12549
▁뛰어들 -12550
▁주계열 -12551
▁폐기물 -12552
▁코펜하겐 -12553
▁노후 -12554
▁버터 -12555
▁ㅎㅜㅁ -12556
▁기념일 -12557
▁ㅆㅏㅇㅜㄴ -12558
▁강행 -12559
▁뒤이 -12560
▁영월 -12561
▁오아 -12562
▁청도 -12563
▁프랜차 -12564
▁ㅍㅣㅎㅏㄹ -12565
히드 -12566
▁법관 -12567
▁장병 -12568
▁하의 -12569
웨이트 -12570
▁부파 -12571
▁성산 -12572
▁초안 -12573
▁항로 -12574
▁아케이드 -12575
▁사운드트랙 -12576
▁colspan -12577
▁교직 -12578
▁다우 -12579
▁영암 -12580
▁우왕 -12581
▁위촉 -12582
▁저조 -12583
▁독수리 -12584
▁무실점 -12585
▁커리어 -12586
▁히브리 -12587
ㄷㅡㄹㅇㅓ -12588
▁ㅊㅟㅎㅏㄴ -12589
▁너머 -12590
▁러일 -12591
▁식용 -12592
▁카세 -12593
ㄲㅡㅁ -12594
▁320 -12595
▁ㅅㅕㄴ -12596
▁신주쿠 -12597
▁ㅇㅓㅄㅇ -12598
▁요하네스 -12599
▁ㅅㅐㄱㅣㄴ -12600
▁프란시스코 -12601
▁외과 -12602
▁외형 -12603
▁차선 -12604
▁LED -12605
▁김옥균 -12606
▁좌의정 -12607
▁베르나르 -12608
▁ㄱㅔㄲㅡㅁ -12609
▁ㅈㅜㄹㅇㅓ -12610
▁대청 -12611
▁사비 -12612
▁이메 -12613
▁절제 -12614
▁청계 -12615
▁사이먼 -12616
▁추서 -12617
▁헌장 -12618
▁수요일 -12619
▁야마모토 -12620
ㅣㄹㅇㅡㅋ -12621
▁ㄷㅡㄹㅣㅁ -12622
▁암스테르담 -12623
▁ㅂㅜㄹㄹㅓㅇㅣㄹㅇㅡㅋ -12624
호란 -12625
▁밀레 -12626
▁배리 -12627
▁복종 -12628
▁아유 -12629
▁족보 -12630
▁종신 -12631
▁준장 -12632
▁증폭 -12633
▁카툰 -12634
▁end -12635
▁프랜차이즈 -12636
▁ㅎㅡㅌㅇㅓㅈㅕ -12637
▁뭉 -12638
공주 -12639
우에 -12640
▁고이 -12641
▁대덕 -12642
▁상국 -12643
▁소아 -12644
▁안무 -12645
▁양수 -12646
▁은신 -12647
▁치유 -12648
▁타리 -12649
▁피드 -12650
▁효고현 -12651
▁ㅇㅏㅆㅇㅓㅆ -12652
바오 -12653
▁거처 -12654
▁치하 -12655
▁리믹스 -12656
디나비아 -12657
▁스칸디나비아 -12658
▁렛 -12659
▁슌 -12660
▁금전 -12661
▁대도 -12662
▁도상 -12663
▁스콜 -12664
▁우연 -12665
▁이항 -12666
▁정령 -12667
▁컨설 -12668
▁오일러 -12669
▁게오르크 -12670
▁DF -12671
▁고온 -12672
▁교부 -12673
▁위력 -12674
▁증오 -12675
▁직행 -12676
▁출동 -12677
토리코 -12678
▁니콜라스 -12679
▁여성주의 -12680
꼬리 -12681
▁네티 -12682
▁매리 -12683
▁샤프 -12684
▁세련 -12685
▁시비 -12686
▁양대 -12687
▁전세 -12688
▁조영 -12689
▁피치 -12690
▁ㄴㅓㄴ -12691
▁자서전 -12692
▁산티아고 -12693
▁ㅇㅟㅎㅏㅁ -12694
ㅏㄹㅗㅇㅜㄴ -12695
gin -12696
▁꾀하 -12697
▁성악 -12698
▁슈테 -12699
▁자재 -12700
▁축산 -12701
▁출자 -12702
▁타일 -12703
▁데이브 -12704
▁서해안 -12705
▁ㄲㅡㅌㄴㅏㄹ -12706
걸이 -12707
amp -12708
▁by -12709
▁공안 -12710
▁내분 -12711
▁동향 -12712
▁분사 -12713
▁순차 -12714
▁습관 -12715
▁타로 -12716
▁피우 -12717
▁ㄴㅜㄴ -12718
▁로마자 -12719
▁브뤼셀 -12720
▁헤이안 -12721
▁에른스트 -12722
▁쿠웨이트 -12723
▁TR -12724
▁국철 -12725
▁압록 -12726
▁코스타리카 -12727
익스 -12728
▁노아 -12729
▁문종 -12730
▁정몽 -12731
▁ㅇㅕㄴㅎㅏㄴ -12732
▁육군사관학교 -12733
LA -12734
단지 -12735
▁김윤 -12736
▁아흐 -12737
▁첼로 -12738
▁해치 -12739
▁어웨이 -12740
▁천안시 -12741
니파 -12742
셀러 -12743
▁거지 -12744
▁김선 -12745
▁리코 -12746
▁바울 -12747
▁시트콤 -12748
▁함경북도 -12749
ㄴㅏㄱㅏㅆ -12750
▁푸에르토리코 -12751
계승 -12752
어넣 -12753
웍스 -12754
▁주심 -12755
▁호아 -12756
ㅈㅜㄹ -12757
▁결과물 -12758
▁발전기 -12759
▁법조인 -12760
▁각료 -12761
▁능동 -12762
▁모차 -12763
▁잔인 -12764
▁주성 -12765
▁함흥 -12766
▁텔레콤 -12767
aw -12768
▁갯 -12769
▁결핵 -12770
▁내무 -12771
▁데드 -12772
▁라카 -12773
▁브릿 -12774
▁서주 -12775
▁켄트 -12776
▁퍼즐 -12777
▁280 -12778
▁동맹국 -12779
▁서사시 -12780
▁위안부 -12781
▁윗부분 -12782
▁유학자 -12783
▁복음주의 -12784
▁ㅈㅓㅇㅎㅐㅆ -12785
▁맬 -12786
▁천마 -12787
▁칭송 -12788
▁피크 -12789
▁펠릭스 -12790
▁포르노 -12791
▁화장품 -12792
▁ㄴㅏㅌㅏㄴㅏㄹ -12793
▁긴밀 -12794
▁수량 -12795
▁점거 -12796
▁짐승 -12797
▁코네 -12798
▁폐렴 -12799
▁루이지애나 -12800
▁늪 -12801
▁문무 -12802
▁박성 -12803
▁백악 -12804
▁온화 -12805
▁전락 -12806
▁측량 -12807
▁IOC -12808
▁장로교 -12809
▁1893 -12810
북구 -12811
▁Fe -12812
▁김승 -12813
▁리튬 -12814
▁배드 -12815
▁전학 -12816
▁정재 -12817
▁차츰 -12818
▁톰슨 -12819
▁편향 -12820
▁학장 -12821
▁후유 -12822
▁흡사 -12823
▁203 -12824
▁가고시마 -12825
▁영천 -12826
▁원활 -12827
▁유족 -12828
▁한번 -12829
▁그만큼 -12830
▁이탈리아어 -12831
▁ㅂㅗㅇㅕㅈㅜㄴ -12832
gr -12833
게임 -12834
▁이황 -12835
▁척도 -12836
▁축전 -12837
▁해왕 -12838
ㅈㅕㅅㅓ -12839
퍼레이션 -12840
▁ㄷㅏㅇㅎㅏㄹ -12841
▁ㅇㅓㅆㅇㅓㅆ -12842
▁ㅁㅏㄴㄴㅏㄴㄷㅏ -12843
OW -12844
▁놈 -12845
세유 -12846
▁le -12847
▁배양 -12848
▁생리 -12849
▁심포 -12850
▁이아 -12851
▁집착 -12852
▁하타 -12853
ㅅㅓㄹ -12854
▁교육자 -12855
▁민병대 -12856
▁부르고 -12857
▁철저히 -12858
▁해안가 -12859
▁탄자니아 -12860
▁ㄴㅗㅍㅇㅕ -12861
▁고집 -12862
▁선인 -12863
▁소대 -12864
▁조제 -12865
▁천천 -12866
▁ㅊㅜㄹ -12867
▁트리오 -12868
les -12869
▁Mo -12870
▁접종 -12871
▁충무 -12872
로이드 -12873
▁도자기 -12874
▁로베르 -12875
▁마이크로 -12876
상시 -12877
ung -12878
▁관우 -12879
▁레프 -12880
▁우두 -12881
라이드 -12882
▁Rock -12883
화학 -12884
▁김치 -12885
▁도우 -12886
▁ㄷㅗㅇ -12887
몬트 -12888
▁격려 -12889
▁금동 -12890
▁톱니 -12891
▁헤로 -12892
▁ㅇㅕㅅ -12893
▁노미야 -12894
▁데일리 -12895
▁서초구 -12896
▁아라곤 -12897
▁어긋나 -12898
▁유적지 -12899
▁Comp -12900
▁톡 -12901
▁혀 -12902
독립 -12903
▁간직 -12904
▁대종 -12905
▁림프 -12906
▁박상 -12907
▁분단 -12908
▁조니 -12909
▁한문 -12910
▁천천히 -12911
▁후쿠오카현 -12912
▁NP -12913
▁관성 -12914
▁김천 -12915
▁앤디 -12916
▁하급 -12917
▁한큐 -12918
▁비스타 -12919
▁ㄱㅏㅎㅐㅆ -12920
▁과시 -12921
▁불경 -12922
▁주세 -12923
▁헌터 -12924
▁녹색당 -12925
▁접어들 -12926
▁ㅅㅏㄹㅍㅕ -12927
티에 -12928
eth -12929
▁마타 -12930
▁미성 -12931
▁자진 -12932
▁칼슘 -12933
▁탈취 -12934
▁동맹군 -12935
▁컬렉션 -12936
▁플랑크 -12937
▁ㅇㅘㅆㅇㅡㄴㅏ -12938
레드 -12939
▁아츠 -12940
▁Univers -12941
▁핏 -12942
▁버섯 -12943
▁애인 -12944
▁전미 -12945
▁Car -12946
ㅗㄴㅡㄴ -12947
▁ㄷㅗㄹㅗㄴㅡㄴ -12948
▁도출 -12949
▁장녀 -12950
▁정반 -12951
▁강화도 -12952
▁도야마 -12953
▁스포르 -12954
▁ㄴㅏㄹㅋ -12955
▁레인저스 -12956
▁갚 -12957
업자 -12958
▁버러 -12959
▁숨기 -12960
▁심부 -12961
▁아메 -12962
▁에마 -12963
▁불계승 -12964
▁픽처스 -12965
익스피어 -12966
▁미나모토 -12967
▁ㅂㅜㄷㅣㅈ -12968
들러 -12969
▁노랑 -12970
▁라흐 -12971
▁막판 -12972
▁합하 -12973
루이스 -12974
▁TBS -12975
▁ㄹㅓㄴ -12976
▁초콜릿 -12977
▁셰익스피어 -12978
▁촐 -12979
▁Am -12980
▁ㄱㅟ -12981
▁구금 -12982
▁도이 -12983
▁서스 -12984
▁시속 -12985
▁심상 -12986
▁오하 -12987
▁발사체 -12988
▁우울증 -12989
▁도카이도 -12990
IR -12991
ㅂㅘ -12992
▁공양 -12993
▁라즈 -12994
▁바비 -12995
▁휴양 -12996
▁케이크 -12997
▁명인 -12998
▁소사 -12999
▁Rec -13000
▁게오르 -13001
▁참모총장 -13002
▁ㄴㅗㅍㅇㅕㅆ -13003
▁ㅂㅏㄺㅎㅕㅈㅣㄴ -13004
oth -13005
▁미츠 -13006
▁월트 -13007
▁점검 -13008
▁페더 -13009
▁황산 -13010
▁고려대 -13011
▁로스쿨 -13012
▁부르고뉴 -13013
▁AB -13014
▁까마 -13015
▁현판 -13016
▁230 -13017
▁순양함 -13018
▁인공위성 -13019
▁ㄷㅏㅅㅡㄹㅕㅆ -13020
태평 -13021
▁에로 -13022
▁유영 -13023
▁GNU -13024
▁ㅅㅗㄴ -13025
▁베르타 -13026
▁스탠리 -13027
▁from -13028
▁ㄴㅐㅂㅗㄴ -13029
▁에스페란토 -13030
▁플로리다주 -13031
폭탄 -13032
▁겹치 -13033
▁구치 -13034
▁기쁨 -13035
▁반동 -13036
▁이우 -13037
▁Sup -13038
▁글래스 -13039
▁ㄱㅣㅎㅐ -13040
▁ㅂㅗㄴㅐㄹ -13041
▁ㅁㅐㄲㅡㄹㅓㅇㅜㄴ -13042
▁핼 -13043
국적 -13044
트르 -13045
▁강진 -13046
▁낚시 -13047
▁노프 -13048
▁당뇨 -13049
▁대주 -13050
▁상정 -13051
▁특사 -13052
ㅃㅡㄴ -13053
▁가와사키 -13054
▁상관없이 -13055
▁견고 -13056
▁귀속 -13057
▁무단 -13058
▁배역 -13059
▁조롱 -13060
▁사상가 -13061
ublic -13062
▁가르시아 -13063
▁러시아군 -13064
▁구독 -13065
▁마트 -13066
▁심문 -13067
민스터 -13068
▁서바이 -13069
▁마르세유 -13070
▁중앙은행 -13071
▁슈타 -13072
▁이범 -13073
▁파편 -13074
▁ㄹㅏㅁ -13075
▁지바현 -13076
▁프리스 -13077
▁ㄱㅏㅈㅕㄷㅏ -13078
▁ㄲㅡㅌㄴㅐㅆ -13079
▁ㄷㅡㄹㅇㅓㅅㅓㅆ -13080
▁Do -13081
▁미아 -13082
▁발목 -13083
▁스킴 -13084
▁운임 -13085
▁재차 -13086
▁피사 -13087
▁향기 -13088
▁흥분 -13089
▁로빈슨 -13090
▁IV -13091
▁가부 -13092
▁대진 -13093
▁스투 -13094
▁용품 -13095
▁기업가 -13096
▁수나라 -13097
▁ㅈㅓㅈㅣㄹ -13098
▁ㄷㅜㄹㄹㅓㅆㅏㅇㅣㄴ -13099
바리 -13100
▁동종 -13101
▁청량 -13102
▁청송 -13103
▁1888 -13104
유사 -13105
헤드 -13106
▁대접 -13107
▁대차 -13108
▁울릉 -13109
▁유포 -13110
▁쇠고기 -13111
▁지켜보 -13112
▁율리우스 -13113
▁ㅅㅡㄹㅓㄴ -13114
▁Su -13115
▁감싸 -13116
▁시우 -13117
▁페오 -13118
▁찾아내 -13119
▁노스캐롤라이나 -13120
▁닉슨 -13121
▁명부 -13122
▁경계선 -13123
▁세비야 -13124
▁수차례 -13125
▁이바라 -13126
▁펠리페 -13127
▁하이퍼 -13128
▁백자 -13129
▁국제선 -13130
▁로이드 -13131
그마 -13132
▁사커 -13133
▁아와 -13134
▁온대 -13135
▁애덤스 -13136
▁박테리아 -13137
▁ㄷㅏㅁㅕㄴㅅㅓ -13138
둘기 -13139
▁Sw -13140
▁붕어 -13141
▁사키 -13142
▁산수 -13143
▁카야 -13144
▁다이빙 -13145
▁평안도 -13146
▁허드슨 -13147
▁1892 -13148
▁푹 -13149
▁데미 -13150
▁리차 -13151
▁메틸 -13152
▁시문 -13153
▁어의 -13154
▁웃음 -13155
▁입헌 -13156
▁재발 -13157
▁제철 -13158
▁ㅂㅔㄹ -13159
▁프로모 -13160
▁ar -13161
▁공법 -13162
▁무르 -13163
▁에바 -13164
▁지난 -13165
▁우에스기 -13166
연수 -13167
홍색 -13168
▁물결 -13169
▁사변 -13170
▁유무 -13171
▁이봉 -13172
▁주먹 -13173
▁펠트 -13174
▁산스크 -13175
▁소학교 -13176
▁절도사 -13177
▁ㅎㅜㅎㅏㄴ -13178
▁산스크리트 -13179
▁견디 -13180
▁납부 -13181
▁모던 -13182
▁새뮤 -13183
▁연회 -13184
▁제창 -13185
▁코사 -13186
▁다카라 -13187
▁대전차 -13188
▁케이트 -13189
▁ㄱㅓㅅㅔ -13190
AI -13191
▁고스 -13192
▁나뭇 -13193
▁낙양 -13194
▁농축 -13195
▁원유 -13196
▁재앙 -13197
▁조선왕 -13198
▁활동가 -13199
▁ㄷㅏㄷㅎㅣㄴ -13200
▁펩 -13201
자동 -13202
▁계량 -13203
▁미식 -13204
▁산청 -13205
미디어 -13206
▁대공국 -13207
▁대명사 -13208
▁문자열 -13209
▁ㅂㅏㄹㄹㅏ -13210
비크 -13211
암리 -13212
티노 -13213
▁자립 -13214
▁해병 -13215
▁볼로냐 -13216
▁사간원 -13217
▁스탠드 -13218
▁스테판 -13219
▁아브라 -13220
▁니켈 -13221
▁옥타 -13222
▁자코 -13223
ㄱㅓㄴ -13224
▁공방전 -13225
▁관현악 -13226
▁차세대 -13227
▁데스크톱 -13228
▁ㅂㅓㅅㅇㅓㄴㅏㄴ -13229
AE -13230
▁강성 -13231
▁소동 -13232
▁순례 -13233
▁하임 -13234
▁더블린 -13235
▁레이디 -13236
▁지리학 -13237
▁1876 -13238
보리 -13239
▁wh -13240
▁공시 -13241
▁선양 -13242
▁애초 -13243
▁위계 -13244
▁직계 -13245
▁북조선 -13246
▁ㅈㅓㅂㅎㅐ -13247
▁CG -13248
▁군데 -13249
▁배기 -13250
▁불사 -13251
▁생모 -13252
▁침례 -13253
로니아 -13254
▁ㄱㅏㅌ -13255
▁논리학 -13256
▁세네갈 -13257
▁앤서니 -13258
사태 -13259
▁두려 -13260
▁완도 -13261
▁이나 -13262
▁조개 -13263
▁중고 -13264
▁터지 -13265
▁USB -13266
▁고려사 -13267
▁성매매 -13268
▁후원자 -13269
ㅂㅎㅏㄴ -13270
▁페르난도 -13271
▁프레임워크 -13272
▁ㄸㅓㄴㅏㄴㄷㅏ -13273
ah -13274
▁맥아 -13275
▁반주 -13276
▁복싱 -13277
▁손녀 -13278
▁장래 -13279
▁축성 -13280
▁토이 -13281
▁통폐 -13282
▁사단장 -13283
▁올리버 -13284
▁1866 -13285
▁가면라이더 -13286
▁뱃 -13287
네트 -13288
▁두드 -13289
▁이산 -13290
▁ㅋㅓㅅㅓ -13291
▁알렉산드로스 -13292
광성 -13293
▁간혹 -13294
▁로브 -13295
▁세레 -13296
▁전주시 -13297
▁프린스턴 -13298
너드 -13299
로쿠 -13300
▁대금 -13301
▁미미 -13302
▁발의 -13303
▁수력 -13304
▁알폰 -13305
▁전권 -13306
▁채색 -13307
▁카레 -13308
▁포탄 -13309
르타뉴 -13310
▁사절단 -13311
▁서기관 -13312
▁헤라클 -13313
▁1886 -13314
▁베네딕토 -13315
▁브르타뉴 -13316
▁펫 -13317
▁군관 -13318
▁불러 -13319
▁송환 -13320
▁260 -13321
▁Gre -13322
▁보좌관 -13323
▁덱 -13324
네임 -13325
뮬러 -13326
▁거룩 -13327
▁메스 -13328
▁파파 -13329
분열 -13330
▁두각 -13331
▁면모 -13332
▁부양 -13333
▁저우 -13334
▁죄수 -13335
▁교구장 -13336
▁도르트 -13337
▁장제스 -13338
▁구스타프 -13339
▁베이시스트 -13340
▁웨스트민스터 -13341
EST -13342
▁co -13343
▁당황 -13344
▁댓글 -13345
▁라드 -13346
▁아디 -13347
▁조소 -13348
▁풍습 -13349
▁생리학 -13350
▁이즈미 -13351
▁카운트 -13352
▁ㅍㅓㅈㅕㅆ -13353
▁인플레이션 -13354
▁ㄷㅓㅅㅂㅜㅌㅇㅕㅆ -13355
철수 -13356
▁바시 -13357
▁소용 -13358
▁앨리 -13359
▁브래드 -13360
▁조나라 -13361
▁드미트리 -13362
▁집행유예 -13363
라르 -13364
▁너스 -13365
▁번갈 -13366
▁바이어 -13367
▁뮐 -13368
큐어 -13369
▁마린 -13370
▁임계 -13371
▁초전 -13372
▁파커 -13373
▁펀드 -13374
▁필하 -13375
▁합천 -13376
▁게시판 -13377
▁코소보 -13378
레시 -13379
코르 -13380
▁서예 -13381
▁신진 -13382
▁약점 -13383
▁유능 -13384
리카락 -13385
▁270 -13386
▁민영화 -13387
▁새뮤얼 -13388
▁통폐합 -13389
▁페미니 -13390
▁Tour -13391
▁머리카락 -13392
직경 -13393
▁긴키 -13394
▁마나 -13395
▁본체 -13396
▁부류 -13397
▁엘런 -13398
▁간사이 -13399
▁덩어리 -13400
▁스테인 -13401
우회 -13402
ron -13403
▁깃털 -13404
▁이호 -13405
▁조현 -13406
▁퇴위 -13407
▁경영학 -13408
▁시직경 -13409
▁프란치스코 -13410
▁펭 -13411
▁과연 -13412
▁구르 -13413
▁아자 -13414
▁위패 -13415
▁유다 -13416
▁음운 -13417
▁현과 -13418
▁갑작스 -13419
▁보살상 -13420
▁삼각주 -13421
▁1887 -13422
▁브리티시 -13423
▁도약 -13424
▁도하 -13425
▁수하 -13426
▁원상 -13427
▁일진 -13428
▁포츠 -13429
▁프루 -13430
▁독립군 -13431
▁ㄴㅐㄹㅣㄴㄷㅏ -13432
꿈치 -13433
▁박수 -13434
▁산물 -13435
▁제르 -13436
▁강서구 -13437
▁금나라 -13438
▁사쓰마 -13439
▁서포터 -13440
▁주니치 -13441
▁축구팀 -13442
▁마르쿠스 -13443
▁경무 -13444
▁역사학 -13445
라호 -13446
슈타 -13447
쓰기 -13448
▁동창 -13449
▁사내 -13450
▁Wii -13451
▁근거지 -13452
▁이어주 -13453
▁화요일 -13454
ave -13455
ble -13456
▁ML -13457
▁도제 -13458
▁물류 -13459
▁배척 -13460
▁살라 -13461
▁여타 -13462
▁중개 -13463
▁출혈 -13464
▁편안 -13465
land -13466
▁도미니카 -13467
▁ㅁㅗㄹㄹㅏㅆ -13468
▁ㄱㅏㄹㄹㅏㅈㅕ -13469
왕후 -13470
▁KB -13471
▁Up -13472
▁무수 -13473
▁비지 -13474
▁악곡 -13475
▁에두 -13476
▁오산 -13477
▁자궁 -13478
▁코호 -13479
▁타구 -13480
▁펠로 -13481
▁행방 -13482
▁용의자 -13483
▁유전학 -13484
▁1861 -13485
▁모차르트 -13486
▁Dream -13487
▁ㅇㅡㄹㅕㄴㅡㄴ -13488
비안 -13489
제비 -13490
클라 -13491
▁나름 -13492
▁레트 -13493
▁지아 -13494
▁프리미엄 -13495
19 -13496
▁고창 -13497
▁박자 -13498
▁단거리 -13499
▁베이비 -13500
▁부분군 -13501
▁Life -13502
▁가로지르 -13503
▁재단법인 -13504
▁ㅇㅕㄹㄹㅕ -13505
코타 -13506
▁it -13507
▁도성 -13508
▁유머 -13509
▁직사 -13510
▁돌아다니 -13511
▁ㄱㅏㅈㅊㅝ -13512
하임 -13513
▁놓이 -13514
▁모라 -13515
▁버크 -13516
▁성기 -13517
▁유타 -13518
▁형용 -13519
▁해결책 -13520
짜기 -13521
▁SV -13522
▁과잉 -13523
▁광선 -13524
▁급히 -13525
▁습득 -13526
▁올레 -13527
▁1864 -13528
▁볼티모어 -13529
▁클레멘스 -13530
▁세분 -13531
▁슬램 -13532
▁신세계 -13533
▁가닥 -13534
▁특기 -13535
▁아무리 -13536
▁모닝 -13537
▁수이 -13538
▁오대 -13539
▁완결 -13540
▁집정관 -13541
▁황해도 -13542
▁석가모니 -13543
▁카르타고 -13544
ult -13545
▁기밀 -13546
▁불분 -13547
▁왕관 -13548
▁위시 -13549
솔리니 -13550
▁장애물 -13551
▁후세인 -13552
▁ㅇㅕㄷㅗ -13553
▁ㄷㅏㄹㄹㅏㅈㅣㄴㄷㅏ -13554
DA -13555
▁오지 -13556
▁천지 -13557
▁당선자 -13558
▁데이빗 -13559
▁홈경기 -13560
ㅎㅐㅅㅓ -13561
▁SH -13562
▁교지 -13563
▁모국 -13564
▁몰두 -13565
▁세무 -13566
▁오메 -13567
▁외환 -13568
▁익명 -13569
▁장전 -13570
▁정예 -13571
▁공연장 -13572
▁음악원 -13573
▁좌표계 -13574
▁프랑코 -13575
▁스트리밍 -13576
콘신 -13577
▁구문 -13578
▁라시 -13579
▁빅뱅 -13580
▁승단 -13581
▁양현 -13582
▁바로크 -13583
▁백악기 -13584
▁위스콘신 -13585
즐리 -13586
▁내포 -13587
▁마구 -13588
▁매달 -13589
▁페스 -13590
▁환관 -13591
▁뛰어넘 -13592
▁1850 -13593
플린 -13594
▁RT -13595
▁지면 -13596
▁포화 -13597
▁다카라즈카 -13598
디슨 -13599
열차 -13600
▁ㄴㅛ -13601
▁철강 -13602
▁파직 -13603
▁혼혈 -13604
▁홀딩 -13605
▁가라앉 -13606
▁코스트 -13607
동자 -13608
▁TC -13609
▁경건 -13610
▁다행 -13611
▁리트 -13612
▁발톱 -13613
▁촛불 -13614
▁홍성 -13615
▁남베트남 -13616
▁레버 -13617
▁실각 -13618
▁평탄 -13619
▁모나코 -13620
▁ㅇㅘㄹㅏ -13621
▁ㅎㅐㄴㅐㅆ -13622
진우 -13623
▁만점 -13624
▁복위 -13625
▁암모 -13626
▁네티즌 -13627
ition -13628
▁마을버스 -13629
▁ㄴㅏㄴㅜㄴ -13630
ational -13631
▁깁 -13632
▁렙 -13633
▁무자 -13634
▁스모 -13635
▁여건 -13636
▁오일 -13637
▁잔디 -13638
▁추존 -13639
▁허블 -13640
▁컨텐츠 -13641
▁1881 -13642
▁ㅅㅓㄲㅇㅕ -13643
EP -13644
orm -13645
▁증세 -13646
▁개정안 -13647
▁보너스 -13648
▁카이로 -13649
▁ㅂㅐㅇㅜㄴ -13650
▁ㅈㅣㄴㅏㄱㅏㄴㄷㅏ -13651
▁공판 -13652
▁에반 -13653
▁자릿 -13654
▁접합 -13655
▁쿼크 -13656
▁하얀 -13657
▁히토 -13658
바도르 -13659
▁바람직 -13660
▁생성물 -13661
▁참의원 -13662
▁토트넘 -13663
▁행정동 -13664
브웨 -13665
▁워킹 -13666
▁토목 -13667
▁푸아 -13668
▁홈즈 -13669
▁가해자 -13670
▁사나이 -13671
▁Music -13672
▁ㅁㅏㄴㄴㅏㄹ -13673
▁뭐 -13674
니오 -13675
다오 -13676
▁구례 -13677
▁리에 -13678
▁백업 -13679
▁재결 -13680
▁짐바 -13681
▁노동력 -13682
▁재판관 -13683
▁if -13684
▁객원 -13685
▁군세 -13686
▁근래 -13687
▁도산 -13688
▁마요 -13689
▁ㄲㅡㄴ -13690
▁요금소 -13691
ton -13692
▁en -13693
▁관내 -13694
▁삼척 -13695
▁쓰루 -13696
▁예의 -13697
▁황자 -13698
▁보안법 -13699
▁아카이 -13700
▁재판부 -13701
▁ㄱㅕㄴㄷ -13702
▁두려워하 -13703
▁미네소타 -13704
예술 -13705
▁구획 -13706
▁잠실 -13707
▁차수 -13708
▁카와 -13709
▁대교구 -13710
▁루스벨트 -13711
▁크리에이 -13712
▁ㄱㅏㅆㅇㅡㅁㅕ -13713
▁ㅇㅣㄴㅎㅐㅅㅓ -13714
▁계보 -13715
▁괘불 -13716
▁방공 -13717
▁침대 -13718
▁대표단 -13719
▁무작위 -13720
▁유니버스 -13721
▁돗 -13722
린트 -13723
▁매진 -13724
▁민물 -13725
▁아타 -13726
▁왕성 -13727
▁응하 -13728
▁자판 -13729
라호마 -13730
▁ㅂㅔㄴ -13731
▁압록강 -13732
른베르크 -13733
▁1830 -13734
▁오클라호마 -13735
렌스 -13736
▁산기 -13737
▁승지 -13738
▁승하 -13739
▁요괴 -13740
▁이력 -13741
▁판관 -13742
▁흘리 -13743
▁합창단 -13744
▁도라에몽 -13745
▁컴파일러 -13746
뛰기 -13747
▁AG -13748
▁남조 -13749
▁뒤늦 -13750
▁뷰티 -13751
▁전리 -13752
▁헌납 -13753
▁관련자 -13754
▁외무부 -13755
▁장난감 -13756
▁동차 -13757
▁말단 -13758
▁목욕 -13759
▁오우 -13760
▁패권 -13761
▁화성시 -13762
아메리카 -13763
▁강세 -13764
▁소라 -13765
▁이별 -13766
▁재벌 -13767
▁코난 -13768
ject -13769
▁iOS -13770
▁ㄷㅜㄹㄹㅓ -13771
▁XP -13772
▁관용 -13773
▁러닝 -13774
▁벌레 -13775
▁세간 -13776
▁스몰 -13777
▁이누 -13778
▁전교 -13779
▁현미 -13780
▁마르셀 -13781
▁야구단 -13782
ㄷㅡㄴㄷㅏ -13783
▁훔 -13784
두르 -13785
화경 -13786
▁경도 -13787
▁다비 -13788
▁스기 -13789
▁아편 -13790
▁익산 -13791
▁쿠로 -13792
▁로맨틱 -13793
▁헤라클레스 -13794
▁닛산 -13795
▁미상 -13796
▁발포 -13797
▁별장 -13798
▁정황 -13799
▁까마귀 -13800
▁반대파 -13801
▁여학생 -13802
라이어티 -13803
▁버라이어티 -13804
▁Ed -13805
▁남송 -13806
▁부전 -13807
▁스윙 -13808
▁파주 -13809
▁감리교 -13810
ㄱㅅㅡㄹ -13811
▁세르게이 -13812
ION -13813
▁시원 -13814
▁조심 -13815
▁파열 -13816
▁팔작 -13817
ㅍㅡㄴ -13818
▁불분명 -13819
▁이메일 -13820
▁1872 -13821
▁무솔리니 -13822
▁이시카와 -13823
▁ㄴㅏㄹㅋㅏㄹㅗㅇㅜㄴ -13824
평리 -13825
▁an -13826
▁경매 -13827
▁알맞 -13828
▁종업 -13829
▁라치오 -13830
▁Open -13831
▁ㅃㅗㅂㅎㅕㅆ -13832
림사 -13833
비오 -13834
타입 -13835
▁금고 -13836
▁기고 -13837
▁김희 -13838
▁당진 -13839
▁레비 -13840
▁발자 -13841
▁배트 -13842
▁삭스 -13843
▁신봉 -13844
▁조경 -13845
슬라프 -13846
▁피닉스 -13847
▁해석학 -13848
▁낭만주의 -13849
▁ㅁㅜㄷㅎㅕ -13850
께끼 -13851
▁루나 -13852
▁마티 -13853
▁애슬 -13854
▁흑백 -13855
▁농어촌 -13856
▁주나라 -13857
▁수수께끼 -13858
▁트레이닝 -13859
달마 -13860
▁고모 -13861
▁등등 -13862
▁몸돌 -13863
▁양조 -13864
▁이은 -13865
▁켄터 -13866
▁태우 -13867
▁트란 -13868
▁750 -13869
▁라이스 -13870
▁모멘트 -13871
▁베일 -13872
▁복직 -13873
▁승상 -13874
▁여호 -13875
▁용사 -13876
▁의례 -13877
▁종묘 -13878
▁중랑 -13879
▁롬바르 -13880
▁유라시아 -13881
▁엡 -13882
나파 -13883
덕왕 -13884
▁BL -13885
▁te -13886
▁교동 -13887
▁꼬마 -13888
▁콘티 -13889
브리드 -13890
▁다비드 -13891
▁ㅋㅔㅇㅣ -13892
▁대중교통 -13893
▁교제 -13894
▁두어 -13895
▁야망 -13896
▁양면 -13897
▁원동 -13898
▁의용 -13899
▁주고 -13900
▁필연 -13901
태평양 -13902
▁센다이 -13903
▁대한항공 -13904
▁ㄱㅏㅌㅇㅣ -13905
▁부다페스트 -13906
▁ㄷㅡㄹㅓㄴㅏ -13907
▁ㅇㅏㅍㅅㅓㄴ -13908
어드 -13909
▁그란 -13910
▁기통 -13911
▁음주 -13912
ㅗㅈㅏ -13913
▁도망치 -13914
▁부르주아 -13915
ㅈㅏㄱㅅㅡㄹ -13916
▁ㅇㅕㄹㄹㅣㄹ -13917
더지 -13918
데자 -13919
리드 -13920
ics -13921
▁경량 -13922
▁레아 -13923
▁샤이 -13924
▁캐피 -13925
▁햇빛 -13926
▁허목 -13927
▁Don -13928
▁범죄자 -13929
▁아이콘 -13930
▁초록색 -13931
▁하얀색 -13932
▁화학자 -13933
데자네이 -13934
▁ㅁㅜㅅㅓ -13935
▁ㅊㅏㄱㅏ -13936
ru -13937
쿠니 -13938
▁도봉 -13939
▁모란 -13940
▁발산 -13941
▁복역 -13942
▁불타 -13943
▁브렌 -13944
▁선율 -13945
▁진흙 -13946
▁청년회 -13947
▁ㅂㅜㄹㅌ -13948
▁오스트리 -13949
▁ㅍㅕㅇㅎㅐㅆ -13950
▁튼 -13951
번에 -13952
클럽 -13953
▁생도 -13954
▁친밀 -13955
▁격투기 -13956
▁세군다 -13957
▁호크스 -13958
▁ㅅㅏㄹㅗㅈㅏ -13959
▁ㅈㅓㄴㅎㅐㅈㅕㅆ -13960
ier -13961
▁가든 -13962
▁지경 -13963
▁탄산 -13964
▁하이브리드 -13965
▁Sm -13966
▁넥센 -13967
▁대강 -13968
▁반죽 -13969
▁순항 -13970
▁오트 -13971
▁이례 -13972
▁투하 -13973
▁티모 -13974
▁계승자 -13975
▁다시금 -13976
▁파충류 -13977
▁1863 -13978
▁도르트문트 -13979
리쿠 -13980
바인 -13981
▁Ab -13982
▁가독 -13983
▁배향 -13984
▁보정 -13985
▁슈고 -13986
▁옹주 -13987
▁장쑤 -13988
▁작품상 -13989
▁탐험가 -13990
▁1865 -13991
▁"- -13992
▁납작 -13993
▁섬기 -13994
▁인제 -13995
▁파기 -13996
리아스 -13997
▁개체군 -13998
▁밀가루 -13999
▁박영효 -14000
▁항아리 -14001
▁ㅁㅣㅊㅣㄹ -14002
▁ㅈㅜㄱㅇㅕ -14003
리야 -14004
매김 -14005
워즈 -14006
▁닌자 -14007
▁단국 -14008
▁당과 -14009
▁봉황 -14010
▁피셔 -14011
▁시간대 -14012
▁쵸 -14013
▁과다 -14014
▁덴쇼 -14015
▁변종 -14016
▁엄청 -14017
▁작년 -14018
▁편제 -14019
▁피카 -14020
▁기획사 -14021
▁난이도 -14022
▁HTML -14023
▁ㄲㅡㅌㄴㅏㄴㄷㅏ -14024
단위 -14025
루크 -14026
▁가두 -14027
▁감추 -14028
▁왓슨 -14029
▁이니 -14030
▁탐정 -14031
▁페라 -14032
▁챌린저 -14033
▁공군기지 -14034
▁교통사고 -14035
데자네이루 -14036
▁리우데자네이루 -14037
▁청문 -14038
▁코마 -14039
▁클릭 -14040
▁승정원 -14041
▁유전체 -14042
▁타임즈 -14043
▁1891 -14044
▁오카야마 -14045
▁Night -14046
▁ㅇㅕㅆㅇㅡㅁㅇㅡㄹ -14047
▁살짝 -14048
▁조공 -14049
▁조시 -14050
▁고성군 -14051
▁발기인 -14052
▁우간다 -14053
▁ㄴㅡㄹㄹㅕ -14054
▁ㅁㅏㅌㄱㅕㅆ -14055
▁ㄸㅓㄹㅇㅓㅈㅣㄴㄷㅏ -14056
ode -14057
▁곱셈 -14058
▁대의 -14059
▁어촌 -14060
▁경복궁 -14061
▁유니언 -14062
친왕 -14063
ool -14064
▁AL -14065
▁ㅇㅖ -14066
▁경마 -14067
▁곡면 -14068
▁란스 -14069
▁처방 -14070
▁아이디얼 -14071
▁자리매김 -14072
▁거스 -14073
▁메츠 -14074
▁애완 -14075
▁취향 -14076
▁태아 -14077
▁선제골 -14078
▁안산시 -14079
▁ㅈㅣㄴㅎㅏㄴ -14080
훈장 -14081
▁미인 -14082
▁법전 -14083
▁철종 -14084
▁포대 -14085
▁ret -14086
▁앤드류 -14087
▁여진족 -14088
▁조선소 -14089
▁켄터키 -14090
▁대목 -14091
▁매스 -14092
▁완비 -14093
▁요즘 -14094
▁직관 -14095
▁1873 -14096
▁베스트셀러 -14097
TE -14098
쿠르 -14099
▁경지 -14100
▁열렬 -14101
▁카슈 -14102
올로기 -14103
▁ㄱㅚㄹㅗ -14104
▁ㅇㅓㄺㅎ -14105
▁세계유산 -14106
▁짐바브웨 -14107
▁ㅂㅣㅆㅏㄴ -14108
▁이데올로기 -14109
▁ㄷㅜㄲㅓㅇㅜㄴ -14110
▁씻 -14111
타스 -14112
ise -14113
▁굴복 -14114
▁내재 -14115
▁루즈 -14116
▁배아 -14117
▁픽셀 -14118
QL -14119
UC -14120
▁-- -14121
▁거꾸 -14122
▁반점 -14123
▁손꼽 -14124
▁쇼크 -14125
▁입시 -14126
▁정명 -14127
▁조장 -14128
▁충당 -14129
▁다국적 -14130
▁받침돌 -14131
▁수시로 -14132
▁자유형 -14133
▁려 -14134
미쓰 -14135
▁계좌 -14136
▁구강 -14137
▁단조 -14138
▁상파 -14139
▁시진 -14140
▁어는 -14141
▁재고 -14142
▁해킹 -14143
이스케 -14144
▁승용차 -14145
▁알아내 -14146
▁와이드 -14147
▁리브 -14148
▁여대 -14149
▁코뮌 -14150
▁한창 -14151
▁혈압 -14152
▁몰도바 -14153
▁포항시 -14154
ai -14155
▁PM -14156
▁단자 -14157
▁도도 -14158
▁매립 -14159
▁부실 -14160
▁잡히 -14161
▁촉발 -14162
▁노르드 -14163
▁릴레이 -14164
▁온타리오주 -14165
▁샨 -14166
▁NS -14167
▁고마 -14168
▁과격 -14169
▁마모 -14170
▁모함 -14171
▁킹스 -14172
▁그나마 -14173
▁발가락 -14174
▁제너럴 -14175
▁테무르 -14176
▁ㅇㅣㄹㅝㅈㅣ -14177
동맹 -14178
che -14179
▁걸작 -14180
▁리키 -14181
▁자켓 -14182
▁필두 -14183
stem -14184
▁공통점 -14185
▁국민회 -14186
린더 -14187
▁MA -14188
▁등단 -14189
▁신대 -14190
▁외상 -14191
▁토로 -14192
▁튼튼 -14193
플렉스 -14194
▁시티즌 -14195
▁샵 -14196
레반 -14197
▁볼넷 -14198
▁착취 -14199
▁합금 -14200
▁백악관 -14201
▁제프리 -14202
▁두드러지 -14203
▁팔작지붕 -14204
▁Black -14205
▁ㅇㅏㄴㅣㄴㄱㅏ -14206
▁ㅁㅜㄹㄹㅓㄴㅏㄴ -14207
▁계엄 -14208
▁리자 -14209
▁반항 -14210
▁신의 -14211
▁야심 -14212
▁입술 -14213
▁현무 -14214
부아르 -14215
합중국 -14216
무제 -14217
진구 -14218
▁국호 -14219
▁양궁 -14220
▁인위 -14221
▁최장 -14222
▁페인 -14223
▁하스 -14224
▁헤어 -14225
▁Can -14226
▁공식전 -14227
▁슬로건 -14228
▁야쿠르트 -14229
▁ㄷㅏㄹㄹㅏ -14230
▁ㄱㅏㄹㅣㅋㅕ -14231
성경 -14232
▁교서 -14233
▁극찬 -14234
▁분경 -14235
▁유태 -14236
▁김성수 -14237
▁종업원 -14238
70 -14239
바지 -14240
세다 -14241
▁당당 -14242
▁라면 -14243
▁라크 -14244
▁불로 -14245
▁에치 -14246
▁연화 -14247
▁위법 -14248
▁적발 -14249
▁조준 -14250
▁체내 -14251
▁키즈 -14252
▁해시 -14253
ower -14254
▁Good -14255
NG -14256
▁믈 -14257
킨슨 -14258
▁병단 -14259
▁용감 -14260
▁스테이트 -14261
▁구시 -14262
▁버펄 -14263
▁거꾸로 -14264
▁삼국유사 -14265
▁section -14266
▁간판 -14267
▁광배 -14268
▁네임 -14269
▁산책 -14270
▁서위 -14271
▁소작 -14272
▁양양 -14273
▁이강 -14274
▁토유 -14275
▁헌병 -14276
▁550 -14277
▁다마스 -14278
▁트로트 -14279
▁이바라키 -14280
▁콧 -14281
▁구슬 -14282
▁머니 -14283
▁문정 -14284
▁병과 -14285
▁부에 -14286
▁우마 -14287
▁을사 -14288
▁파랑 -14289
선거구 -14290
타나베 -14291
▁지자체 -14292
▁아비달마 -14293
▁피츠버그 -14294
▁qu -14295
▁나탈 -14296
▁증강 -14297
▁터빈 -14298
▁705 -14299
▁Let -14300
▁하반기 -14301
▁ㅇㅏㅍㄷㅜㄴ -14302
▁괜 -14303
▁댈 -14304
▁무고 -14305
▁베풀 -14306
▁아델 -14307
▁앵커 -14308
▁연행 -14309
▁취리히 -14310
▁1862 -14311
▁무로마치 -14312
▁페르디난트 -14313
▁ㄱㅏㅂㅈㅏㄱㅅㅡㄹ -14314
▁q -14315
티야 -14316
펠러 -14317
▁산신 -14318
▁오즈 -14319
▁캐논 -14320
▁통지 -14321
▁반정부 -14322
▁캐스트 -14323
▁1867 -14324
ank -14325
▁El -14326
▁MM -14327
▁국부 -14328
▁주저 -14329
▁진언 -14330
▁진원 -14331
▁채굴 -14332
▁현도 -14333
스코트 -14334
▁650 -14335
▁앨버트 -14336
내리 -14337
려들 -14338
▁모반 -14339
▁무도 -14340
▁서지 -14341
▁후미 -14342
드라마 -14343
▁아오모리 -14344
▁이노우에 -14345
▁코호몰로지 -14346
▁ㄲㅗ -14347
▁광자 -14348
▁농성 -14349
▁맞춤 -14350
▁사하 -14351
▁황폐 -14352
▁ㅁㅓㅅ -14353
▁미카엘 -14354
▁스코어 -14355
▁스테이 -14356
▁찾아가 -14357
ㅓㅇㅜㅁ -14358
레타리아 -14359
해살이풀 -14360
▁미합중국 -14361
▁ㅊㅓㅎㅏㄴ -14362
▁ㅋㅓㅈㅕㅆ -14363
▁ㅅㅏㄹㅏㅈㅕ -14364
▁프롤레타리아 -14365
상어 -14366
정사 -14367
▁AI -14368
▁경은 -14369
▁독주 -14370
▁조어 -14371
▁증발 -14372
▁타도 -14373
▁IMF -14374
▁연주회 -14375
▁용산구 -14376
대전 -14377
방군 -14378
▁투신 -14379
▁활자 -14380
ings -14381
▁알폰소 -14382
▁자외선 -14383
▁ㅍㅐㅎㅐ -14384
▁세단 -14385
▁수퍼 -14386
▁온건 -14387
▁흡연 -14388
▁경희대 -14389
▁폼페이 -14390
▁대담 -14391
▁박진 -14392
▁심정 -14393
▁전멸 -14394
▁휩쓸 -14395
세우스 -14396
▁갈라지 -14397
▁변광성 -14398
▁증조부 -14399
▁사교 -14400
▁스킬 -14401
▁열쇠 -14402
▁엑스포 -14403
▁조선왕조 -14404
▁ㅅㅜㅁㄱㅕㅈㅣㄴ -14405
포타 -14406
▁AU -14407
▁광업 -14408
▁조서 -14409
▁손잡이 -14410
▁언론사 -14411
▁국민학교 -14412
▁ㅁㅣㅊㅣㄴㄷㅏ -14413
DS -14414
고르 -14415
참찬 -14416
▁노브 -14417
▁연달 -14418
▁증식 -14419
절도사 -14420
▁크루즈 -14421
▁사이타마현 -14422
▁ㅇㅜㅁㅈㅣㄱㅇㅣㄹ -14423
렐라 -14424
활약 -14425
▁Ac -14426
▁엘라 -14427
▁예종 -14428
▁옥시 -14429
▁완수 -14430
▁유구 -14431
▁체하 -14432
▁사보이 -14433
▁연출가 -14434
▁타이탄 -14435
ㅝㄴㅎㅏㄴ -14436
▁ㅅㅐㄱㅕㅆ -14437
▁캣 -14438
곡면 -14439
▁가비 -14440
▁걸프 -14441
▁군자 -14442
▁들리 -14443
▁접전 -14444
▁MSL -14445
▁ㅇㅓㄱ -14446
▁ㅌㅗㄹ -14447
포타미아 -14448
▁신한은행 -14449
▁ㄷㅡㄹㄹㅕ -14450
▁메소포타미아 -14451
센터 -14452
▁UC -14453
▁보직 -14454
▁북벌 -14455
▁양군 -14456
▁저축 -14457
▁쿠라 -14458
▁노르만 -14459
▁레인저 -14460
▁맹활약 -14461
▁6000 -14462
lar -14463
▁기묘 -14464
▁성수 -14465
▁온두 -14466
▁위헌 -14467
▁잔존 -14468
▁캐치 -14469
▁코모 -14470
▁키릴 -14471
▁ㄱㅡㄹㅐ -14472
▁온두라스 -14473
▁라이프치히 -14474
북면 -14475
▁LS -14476
▁장신 -14477
▁푸드 -14478
▁사무국 -14479
▁페드로 -14480
▁ㅂㅐㅇㅝ -14481
▁ㄱㅏㄹㅡㅊㅕ -14482
비언 -14483
인구 -14484
▁꽃잎 -14485
▁나사 -14486
▁처장 -14487
▁감염증 -14488
▁일본식 -14489
▁출입문 -14490
▁편집장 -14491
ㄹㄹㅣㄹ -14492
▁궐 -14493
▁-& -14494
▁간결 -14495
▁논하 -14496
▁상선 -14497
▁서한 -14498
▁횡령 -14499
▁기원후 -14500
ㄸㅡㄹㅕ -14501
중추부사 -14502
▁다이노스 -14503
▁낡 -14504
디언 -14505
▁엘레 -14506
▁조석 -14507
▁충칭 -14508
▁협동조합 -14509
ㅈㅣㄹㅏㄷㅗ -14510
▁ㅁㅏㅈㅊㅜㄴ -14511
tr -14512
▁강호 -14513
▁국력 -14514
▁동탁 -14515
▁버진 -14516
▁변증 -14517
▁세토 -14518
▁신해 -14519
▁1878 -14520
▁프로모션 -14521
▁미나모토노 -14522
ky -14523
할린 -14524
▁루피 -14525
▁유망 -14526
▁대리석 -14527
▁부여군 -14528
▁신기록 -14529
▁치료제 -14530
▁컴파일 -14531
▁타타르 -14532
▁ㅈㅜㄱㅇㅣㅁ -14533
▁ㅈㅓㅈㅣㄹㅡㄴ -14534
▁밋 -14535
▁싹 -14536
사화 -14537
▁동자 -14538
▁시역 -14539
▁유림 -14540
▁작중 -14541
▁웨이브 -14542
▁ㅌㅗㄹㅗㄱ -14543
▁ㄷㅓㄴㅈㅕㅆ -14544
▁샴 -14545
위치 -14546
젤로 -14547
▁Qu -14548
▁당파 -14549
▁번개 -14550
▁변모 -14551
▁자행 -14552
▁지탱 -14553
▁직교 -14554
▁차림 -14555
▁필명 -14556
rist -14557
▁Ser -14558
▁마그네 -14559
▁제조사 -14560
▁백과사전 -14561
▁ㄱㅔㄴㅈㅣ -14562
▁ㅊㅕㄷㅡㄹㅇㅓ -14563
ta -14564
조리 -14565
퉁이 -14566
▁가극 -14567
▁도발 -14568
▁사드 -14569
▁옥천 -14570
▁절약 -14571
▁사대부 -14572
▁ㅈㅜㄹㅇㅣㄹ -14573
hem -14574
▁고찰 -14575
▁매도 -14576
▁스톰 -14577
▁오보 -14578
▁이끼 -14579
▁중용 -14580
▁지그 -14581
▁참패 -14582
플로러 -14583
▁주고받 -14584
▁프리츠 -14585
▁홀딩스 -14586
▁ㅊㅟㅎㅏㄹ -14587
▁익스플로러 -14588
▁팍 -14589
시게 -14590
▁괄호 -14591
▁충신 -14592
▁표출 -14593
▁피어 -14594
▁하중 -14595
▁HMS -14596
▁이성질 -14597
▁비스마르크 -14598
▁ㅎㅐㅇㅎㅐㅈㅕㅆ -14599
빌리 -14600
▁국인 -14601
▁급성 -14602
▁봉하 -14603
▁완만 -14604
▁자부 -14605
▁회유 -14606
▁후드 -14607
▁건륭제 -14608
▁입법부 -14609
▁프로테 -14610
▁고등학생 -14611
▁DR -14612
▁바쿠 -14613
▁히노 -14614
▁802 -14615
▁And -14616
▁ㅂㅐㄴ -14617
▁경쟁자 -14618
▁뉴기니 -14619
▁무사히 -14620
▁플러그 -14621
▁ㄱㅓㅊㅕㅅㅓ -14622
ee -14623
▁킷 -14624
▁팻 -14625
산부 -14626
▁부군 -14627
▁시르 -14628
▁영사 -14629
▁일설 -14630
▁임하 -14631
▁적정 -14632
▁청각 -14633
▁글로브상 -14634
▁스케이트 -14635
▁요리토모 -14636
▁프라이즈 -14637
▁ㄴㅗㄹㅏㄴ -14638
▁일리노이주 -14639
루엔 -14640
일치 -14641
▁길드 -14642
▁다량 -14643
▁라다 -14644
▁지린 -14645
뉴기니 -14646
▁액세스 -14647
▁플루토 -14648
▁핵분열 -14649
벤션 -14650
▁매슈 -14651
▁보류 -14652
▁손님 -14653
▁정박 -14654
▁참수 -14655
▁ㅍㅡㄹ -14656
▁ㄸㅓㄴㅏㄹ -14657
▁밧 -14658
다발 -14659
▁부두 -14660
▁스에 -14661
▁애기 -14662
▁용해 -14663
▁육식 -14664
▁일선 -14665
▁행군 -14666
시아드 -14667
▁해부학 -14668
▁와타나베 -14669
▁tr -14670
▁과자 -14671
▁서점 -14672
▁소피 -14673
▁잉크 -14674
▁점진 -14675
▁ㅇㅏㅅ -14676
▁와세다 -14677
▁이브스 -14678
▁자릿수 -14679
▁1869 -14680
▁ㅍㅏㄹㄹㅣㄴ -14681
▁유니버시아드 -14682
▁ㄹㅏㅁㅕㄴㅅㅓ -14683
ㅏㅇ -14684
▁Ag -14685
▁개기 -14686
▁수레 -14687
▁피처 -14688
▁마포구 -14689
▁업로드 -14690
▁특별법 -14691
▁포뮬러 -14692
누마 -14693
다스 -14694
▁직물 -14695
▁현악 -14696
ㅅㅏㄹ -14697
▁불가피 -14698
▁페르미 -14699
▁ㄱㅓㄹㄹㅣㄴㄷㅏ -14700
▁엇 -14701
셔주 -14702
▁객실 -14703
▁고국 -14704
▁북대 -14705
▁수급 -14706
▁저해 -14707
▁방위군 -14708
▁봉우리 -14709
▁수비대 -14710
▁외교부 -14711
▁쿠르드 -14712
▁코퍼레이션 -14713
내티 -14714
▁면직 -14715
▁몸체 -14716
▁벵골 -14717
▁솔라 -14718
▁수당 -14719
▁잔해 -14720
변속기 -14721
▁아이젠 -14722
▁원자핵 -14723
▁신시내티 -14724
▁ㄴㅏㄹㄹㅕ -14725
▁다목 -14726
▁추후 -14727
▁표절 -14728
▁형주 -14729
▁베르나 -14730
▁인지도 -14731
▁제작진 -14732
▁키르기스 -14733
▁후지와라 -14734
▁ㅅㅐㅇㄱㅣㄹ -14735
정보 -14736
▁SO -14737
▁근방 -14738
▁기조 -14739
▁버티 -14740
▁서거 -14741
▁아뢰 -14742
▁정진 -14743
▁지체 -14744
▁포천 -14745
▁포탑 -14746
▁행보 -14747
ae -14748
▁썬 -14749
▁대타 -14750
▁로시 -14751
▁무비 -14752
▁박원 -14753
▁용수 -14754
▁텍스 -14755
▁1592 -14756
▁명성황후 -14757
▁강우 -14758
▁모티 -14759
▁목동 -14760
▁패킷 -14761
▁항생 -14762
▁사생활 -14763
▁안동시 -14764
▁영유권 -14765
▁장로회 -14766
▁ㄴㅐㅅㅔㅇㅝ -14767
▁ㅇㅣㅇㅓㅅㅓ -14768
▁고을 -14769
▁성품 -14770
▁유화 -14771
▁골짜기 -14772
▁기동전 -14773
▁스파이더 -14774
▁친선경기 -14775
▁AA -14776
▁ㅍㅛ -14777
▁부관 -14778
▁시시 -14779
스타인 -14780
▁수도회 -14781
▁운동량 -14782
▁인코딩 -14783
▁프라임 -14784
▁ㄴㅓㅁㄱㅕㅆ -14785
▁ㄴㅐㅅㅔㅇㅝㅆ -14786
▁탬 -14787
▁금색 -14788
▁무색 -14789
▁위도 -14790
▁이목 -14791
▁축일 -14792
▁토라 -14793
ount -14794
▁생화학 -14795
▁오스카 -14796
▁ㅁㅗㅅㅣㄴ -14797
▁ㅊㅣㅇㅎㅐㅆ -14798
암사 -14799
▁글렌 -14800
▁논산 -14801
▁빈민 -14802
▁사부 -14803
▁오자 -14804
▁자처 -14805
▁치사 -14806
▁콜드 -14807
▁헤더 -14808
ㅈㅏㅇ -14809
▁ㅆㅓㄴ -14810
▁부등식 -14811
▁유엔군 -14812
ㅈㅣㄹㄹㅓㅆ -14813
▁ㅂㅏㄺㅎㅕㅈㅕ -14814
마디 -14815
세르 -14816
티컷 -14817
▁민심 -14818
▁상의 -14819
▁자정 -14820
▁컴필 -14821
▁로타르 -14822
▁며느리 -14823
▁지하역 -14824
▁코네티컷 -14825
▁컴필레이션 -14826
▁크리스티나 -14827
▁ㅁㅓㅅㅈㅣㄴ -14828
수염 -14829
▁국세 -14830
▁토키 -14831
가르트 -14832
▁금강산 -14833
▁목적지 -14834
▁여객기 -14835
▁팔꿈치 -14836
▁ㅂㅜㄹㄹㅕ -14837
자원 -14838
▁PL -14839
▁그물 -14840
▁내란 -14841
▁린다 -14842
▁반입 -14843
▁사소 -14844
▁위즈 -14845
▁절친 -14846
▁포자 -14847
▁바닷물 -14848
▁연예계 -14849
▁1840 -14850
▁Song -14851
▁파시스트 -14852
▁프랑스와 -14853
▁ㄴㅐㄹㅕㅇㅘ -14854
BI -14855
네르 -14856
려오 -14857
작전 -14858
▁겨루 -14859
▁단역 -14860
▁빅터 -14861
▁소박 -14862
▁숙소 -14863
▁폴라 -14864
▁Mon -14865
노르 -14866
쳐지 -14867
ata -14868
▁RC -14869
▁가방 -14870
▁헤겔 -14871
▁516 -14872
▁네이트 -14873
▁다가오 -14874
▁마스코트 -14875
▁힐베르트 -14876
▁로드리게스 -14877
구스 -14878
▁가곡 -14879
▁귀인 -14880
▁분별 -14881
▁아어 -14882
▁지문 -14883
▁출국 -14884
▁캐슬 -14885
▁강력히 -14886
▁리차드 -14887
▁유년기 -14888
▁여우원숭이 -14889
pr -14890
per -14891
▁닉스 -14892
▁암수 -14893
▁쿼터 -14894
▁티저 -14895
▁레지스터 -14896
▁랙 -14897
블릿 -14898
ade -14899
▁me -14900
▁ㅆㅗ -14901
▁고제 -14902
▁디나 -14903
▁벤츠 -14904
▁병풍 -14905
▁이거 -14906
▁자취 -14907
▁추축 -14908
▁튜브 -14909
▁하라 -14910
▁하수 -14911
▁헤일 -14912
▁에이전트 -14913
▁공상 -14914
▁넘버 -14915
▁다쓰 -14916
▁변질 -14917
▁상식 -14918
▁입히 -14919
▁자루 -14920
▁풀리 -14921
▁과반수 -14922
▁시니어 -14923
▁창립자 -14924
▁ㄴㅑㄱㅗ -14925
▁사이언스 -14926
▁Heart -14927
▁ㄱㅡㄹㅓㄹ -14928
▁아나톨리아 -14929
▁return -14930
▁ㄷㅗㅁㅏㅇㅊㅕㅆ -14931
▁볶 -14932
찬성 -14933
▁KN -14934
▁단서 -14935
▁블러 -14936
▁심소 -14937
▁얼룩 -14938
▁유이 -14939
▁글러브 -14940
▁필사본 -14941
▁심리학자 -14942
▁ㄷㅚㅂㄴㅣㄷㅏ -14943
▁널 -14944
▁벳 -14945
효소 -14946
히메 -14947
▁거창 -14948
▁국화 -14949
▁백조 -14950
▁영수 -14951
▁유자 -14952
▁입출 -14953
▁처치 -14954
▁최하 -14955
▁그래도 -14956
▁종착역 -14957
▁패스트 -14958
▁히타치 -14959
▁매킨토시 -14960
▁지장보살 -14961
ㅇㅏㄴㅐㄴ -14962
▁ㄴㅡㄹㅇㅓㄴㅏㄴ -14963
▁ab -14964
▁계룡 -14965
▁성가 -14966
▁수만 -14967
▁영미 -14968
▁자질 -14969
▁출세 -14970
▁탁구 -14971
▁패망 -14972
▁휘발 -14973
이치로 -14974
▁ㅌㅟㅇ -14975
▁구단주 -14976
▁맥아더 -14977
▁ㄱㅡㄹㅐㅆ -14978
90 -14979
테랑 -14980
▁Pe -14981
▁ㅌㅡ -14982
▁란트 -14983
▁몰아 -14984
▁발착 -14985
▁성대 -14986
▁워스 -14987
▁유골 -14988
▁전단 -14989
▁천상 -14990
▁테크놀 -14991
▁파주시 -14992
ㄸㅏㄹㅏ -14993
사우루스 -14994
▁ㅍㅕㄹㅊㅣㄴ -14995
▁ㅁㅓㅁㅜㄹㄹㅓ -14996
▁펜실베이니아주 -14997
▁렉스 -14998
▁나치오 -14999
▁스트림 -15000
▁예언자 -15001
▁와카야마 -15002
▁Windows -15003
▁ㅈㅓㅇㅎㅐㅈㅕ -15004
날드 -15005
히데 -15006
▁ㅆㅢ -15007
▁괜찮 -15008
▁농가 -15009
▁쌍성 -15010
▁염화 -15011
▁이카 -15012
▁ㅉㅓㄴ -15013
▁8000 -15014
▁ㅋㅣㄹㅗ -15015
ium -15016
▁거사 -15017
▁겸직 -15018
▁라라 -15019
▁미학 -15020
▁사귀 -15021
▁여포 -15022
▁보유자 -15023
▁세미나 -15024
▁어도비 -15025
▁그린란드 -15026
▁ㅊㅏㅈㅇㅏㅇㅘ -15027
IX -15028
▁강인 -15029
▁라프 -15030
▁상과 -15031
▁악명 -15032
▁온실 -15033
▁청취 -15034
▁퀴즈 -15035
▁지질학 -15036
▁ㄹㅏㅇㅜ -15037
▁아우구스 -15038
▁영등포구 -15039
전선 -15040
▁Gl -15041
▁베오 -15042
▁실상 -15043
▁오시 -15044
▁흥원 -15045
▁비둘기 -15046
▁적십자 -15047
▁남아시아 -15048
▁썩 -15049
넌트 -15050
선언 -15051
▁능가 -15052
▁바인 -15053
▁반론 -15054
▁스택 -15055
▁에트 -15056
▁의주 -15057
▁초음 -15058
▁페레 -15059
▁하구 -15060
▁관심사 -15061
크라테스 -15062
▁알프레드 -15063
▁ㅇㅔㄱㅔㄴ -15064
▁아나키스트 -15065
▁ㄸㅟㅇㅓㄴㅏ -15066
▁세인트루이스 -15067
▁ㅊㅏㄱㅏㅇㅜㄴ -15068
▁ㅈㅜㄴㄷㅏㄴㅡㄴ -15069
IF -15070
욕장 -15071
▁권익 -15072
▁기행 -15073
▁문중 -15074
▁윤휴 -15075
▁조비 -15076
▁중견 -15077
▁댈러스 -15078
▁1875 -15079
던트 -15080
▁As -15081
▁규율 -15082
▁뉴런 -15083
▁시찰 -15084
▁에리 -15085
▁연중 -15086
▁의복 -15087
▁피살 -15088
▁시미즈 -15089
▁운전자 -15090
계사 -15091
테이 -15092
▁동호 -15093
▁바보 -15094
▁왜군 -15095
▁임종 -15096
▁저그 -15097
▁Out -15098
▁헤르만 -15099
▁ㄷㅏㄹㅜㄹ -15100
링겐 -15101
수단 -15102
▁상동 -15103
▁준동 -15104
▁침식 -15105
▁고문서 -15106
▁안창호 -15107
▁진주시 -15108
▁집단군 -15109
▁ㅍㅜㄹㄹㅕㄴㅏㅆ -15110
▁Aw -15111
▁노현 -15112
▁삭감 -15113
▁숙련 -15114
▁유카 -15115
▁이심 -15116
ㄱㅓㄹ -15117
▁이와테 -15118
▁ㅈㅏㄹㅏ -15119
▁데카르트 -15120
▁모자이크 -15121
▁강습 -15122
▁니케 -15123
▁다름 -15124
▁신지 -15125
▁외척 -15126
▁나리타 -15127
▁담당자 -15128
▁보리스 -15129
▁올라오 -15130
▁근본번뇌 -15131
기즈 -15132
탄두 -15133
▁독살 -15134
▁마레 -15135
▁양파 -15136
▁콜린 -15137
▁ㅅㅟㄹ -15138
구니 -15139
기아 -15140
▁도적 -15141
▁디바 -15142
▁웍스 -15143
▁질투 -15144
▁징집 -15145
▁키리 -15146
▁토요타 -15147
▁회고록 -15148
▁기린 -15149
▁몹시 -15150
▁수증 -15151
▁직렬 -15152
▁표제 -15153
▁호른 -15154
▁Gen -15155
▁예비역 -15156
▁치료법 -15157
▁고등교육 -15158
이에 -15159
itt -15160
▁VS -15161
▁김연 -15162
▁미지 -15163
▁설리 -15164
▁아다 -15165
▁예프 -15166
▁원단 -15167
▁은밀 -15168
▁철자 -15169
▁최남 -15170
▁친화 -15171
▁호그 -15172
▁사이즈 -15173
▁표트르 -15174
보당 -15175
사유 -15176
▁걸음 -15177
▁교파 -15178
▁노원 -15179
▁선상 -15180
▁여럿 -15181
▁용지 -15182
▁위크 -15183
▁한민 -15184
▁혼잡 -15185
레이트 -15186
▁KTX -15187
▁게임기 -15188
▁친환경 -15189
▁컨벤션 -15190
son -15191
▁김두 -15192
▁로사 -15193
▁문체 -15194
▁사각 -15195
▁어사 -15196
▁월화 -15197
▁이선 -15198
▁일명 -15199
▁정오 -15200
▁텐서 -15201
▁해트 -15202
▁AMD -15203
▁리스본 -15204
▁매디슨 -15205
▁ㅇㅏㅍㅈㅏㅇ -15206
▁엿 -15207
▁sh -15208
▁면담 -15209
▁볼록 -15210
▁이희 -15211
▁인승 -15212
▁잠입 -15213
▁컵스 -15214
▁돌고래 -15215
▁채권자 -15216
▁학술지 -15217
▁남양주시 -15218
▁DB -15219
▁거칠 -15220
▁교훈 -15221
▁다자 -15222
▁변혁 -15223
▁생원 -15224
▁의정 -15225
▁절충 -15226
▁출품 -15227
▁키드 -15228
▁일부러 -15229
▁통도사 -15230
▁피의자 -15231
▁뉘른베르크 -15232
▁ㅈㅣㄴㅏㅊㅣㄴ -15233
▁목장 -15234
▁열세 -15235
세데스 -15236
▁아세틸 -15237
▁칭기즈 -15238
▁파라오 -15239
▁함경도 -15240
▁땀 -15241
날레 -15242
놀드 -15243
세서 -15244
▁달콤 -15245
▁막강 -15246
▁에레 -15247
▁착각 -15248
▁첩보 -15249
▁취직 -15250
▁터너 -15251
▁ㅆㅏㄴ -15252
▁북극점 -15253
▁ㄴㅗㄹㄹ -15254
▁몽고메리 -15255
▁병자호란 -15256
▁메르세데스 -15257
▁브란덴부르크 -15258
어류 -15259
조사 -15260
▁단양 -15261
▁문관 -15262
▁비키 -15263
▁서약 -15264
▁아노 -15265
▁타쿠 -15266
에이고 -15267
▁강대국 -15268
▁강희제 -15269
▁테오도 -15270
▁샌디에이고 -15271
▁포르투갈어 -15272
ㄷㅡㄹㅇㅣㄴ -15273
▁ㅎㅏㄴㄷㅏㅁㅕ -15274
PA -15275
방향 -15276
은사 -15277
▁금정 -15278
▁리크 -15279
▁비료 -15280
▁선체 -15281
▁셔틀 -15282
▁슈투 -15283
▁안중 -15284
▁태안 -15285
▁레스터 -15286
▁이사벨 -15287
▁크메르 -15288
더링 -15289
알라 -15290
엽수 -15291
▁TS -15292
▁로큰 -15293
▁바늘 -15294
▁배반 -15295
▁순식 -15296
▁아지 -15297
▁야수 -15298
▁어부 -15299
▁외면 -15300
▁집전 -15301
able -15302
▁380 -15303
▁가환환 -15304
▁광둥성 -15305
▁다이쇼 -15306
▁성폭행 -15307
▁항공대 -15308
▁격하 -15309
▁구루 -15310
▁생쥐 -15311
▁실명 -15312
▁의성 -15313
▁체로 -15314
▁특공 -15315
▁ㅈㅣㅂ -15316
▁꽃차례 -15317
▁데이트 -15318
▁슈타인 -15319
▁스케치 -15320
▁연속극 -15321
▁장갑차 -15322
▁클리어 -15323
▁버트 -15324
▁서당 -15325
▁원효 -15326
록대부 -15327
해방군 -15328
▁야마다 -15329
▁중앙선 -15330
▁통신망 -15331
▁안드로메다 -15332
▁인민해방군 -15333
▁꽂 -15334
▁포인 -15335
▁"() -15336
▁신석기 -15337
▁이랜드 -15338
▁저널리스트 -15339
두사 -15340
부대 -15341
ale -15342
▁기판 -15343
▁레몬 -15344
▁방울 -15345
▁율법 -15346
▁로큰롤 -15347
▁베르트 -15348
▁부적절 -15349
▁송파구 -15350
▁쇼핑몰 -15351
▁스피커 -15352
▁종사자 -15353
▁코트디 -15354
▁클레어 -15355
▁페널티킥 -15356
▁코트디부아르 -15357
ng -15358
세키 -15359
▁교관 -15360
▁방호 -15361
▁세일 -15362
▁예식 -15363
▁인먼 -15364
▁폐허 -15365
▁ㅌㅐㄱ -15366
▁로버츠 -15367
▁바나나 -15368
▁비단털 -15369
▁크라운 -15370
▁ㅅㅣㄹㄹㅕㅆ -15371
몽골 -15372
촌리 -15373
▁KO -15374
▁동거 -15375
▁라울 -15376
▁로바 -15377
▁애착 -15378
▁영락 -15379
▁칸트 -15380
루엔자 -15381
▁Par -15382
▁아리랑 -15383
스코리아 -15384
▁비단털쥐 -15385
▁오프라인 -15386
▁ㄷㅗㄹㅇㅏㄱㅏㄹ -15387
▁기공 -15388
▁슬리 -15389
▁일차 -15390
▁ㄹㅓㅆ -15391
▁반감기 -15392
▁상반기 -15393
▁파스칼 -15394
▁ㅇㅗㄹㅡㄹ -15395
▁ㅍㅕㄹㅊㅕㅈㅕ -15396
르카 -15397
▁교화 -15398
▁명상 -15399
▁성행 -15400
▁수마 -15401
▁술라 -15402
▁스펜 -15403
▁안식 -15404
▁왕래 -15405
▁자장 -15406
ㅌㅡㄹ -15407
▁프론트 -15408
▁바빌로니아 -15409
▁ㅊㅣㄴㅎㅏㄴ -15410
▁ㅎㅡㄴㄷㅡㄹ -15411
니에 -15412
우주 -15413
▁가모 -15414
▁래리 -15415
▁모피 -15416
▁수은 -15417
▁실은 -15418
▁헤센 -15419
▁ㄹㅗㄹ -15420
▁맥스웰 -15421
▁정치국 -15422
▁WC -15423
▁결전 -15424
▁금환 -15425
▁기마 -15426
▁기운 -15427
▁보그 -15428
▁보우 -15429
▁야권 -15430
▁정에 -15431
▁환율 -15432
▁708 -15433
▁ㅁㅜㅇ -15434
▁선거인 -15435
▁ㄴㅣㄲㅏ -15436
▁University -15437
UN -15438
박사 -15439
시대 -15440
행파 -15441
▁구아 -15442
▁극소 -15443
▁날리 -15444
▁모사 -15445
▁사주 -15446
▁서클 -15447
▁엔젤 -15448
▁잉카 -15449
▁장정 -15450
▁중일 -15451
▁향신 -15452
▁대항전 -15453
▁형용사 -15454
▁관음보살 -15455
▁보컬리스트 -15456
▁ㄷㅙㅆㅇㅡㄴㅏ -15457
▁문수 -15458
▁위트 -15459
▁정언 -15460
▁지치 -15461
▁출격 -15462
ㄱㅣㅁ -15463
▁Vol -15464
▁라이베리아 -15465
▁탭 -15466
▁가명 -15467
▁가세 -15468
▁구세 -15469
▁동군 -15470
▁모체 -15471
▁이홍 -15472
▁정칙 -15473
▁후루 -15474
▁205 -15475
▁ATC -15476
▁데뷔작 -15477
▁합성어 -15478
▁ㅇㅣㄱㅓㄴ -15479
건설 -15480
▁At -15481
▁규약 -15482
▁망치 -15483
▁야코 -15484
▁열악 -15485
▁보호법 -15486
▁콘라트 -15487
▁벙 -15488
데기 -15489
▁경순 -15490
▁경의 -15491
▁라벨 -15492
▁샤르 -15493
▁이질 -15494
▁보조금 -15495
▁사할린 -15496
▁흔들리 -15497
▁ㄱㅏㅈㅕㅆㅇㅡㅁㅕ -15498
▁삐 -15499
연구 -15500
▁나쁘 -15501
▁데일 -15502
▁로니 -15503
▁복부 -15504
▁실사 -15505
▁조봉 -15506
▁획기 -15507
very -15508
▁되풀이 -15509
▁순식간 -15510
▁쇼트트랙 -15511
▁엑스박스 -15512
▁인플루엔자 -15513
▁ㅆㅓㅆㅇㅡㅁㅕ -15514
▁ㄷㅏㄹㄹㅣㄴㄷㅏ -15515
▁싯 -15516
르산 -15517
쿠사 -15518
▁미첼 -15519
▁아끼 -15520
▁집사 -15521
▁사학자 -15522
▁슈미트 -15523
▁캐스터 -15524
▁통계청 -15525
ㅓㅇㅝㅆ -15526
▁조선공산당 -15527
▁텅 -15528
윽고 -15529
▁JC -15530
▁경종 -15531
▁박재 -15532
▁외손 -15533
▁월남 -15534
▁치마 -15535
ㅊㅏㄴ -15536
▁NBC -15537
▁김해시 -15538
▁이윽고 -15539
▁IR -15540
▁구타 -15541
▁기미 -15542
▁박용 -15543
▁베티 -15544
▁불쾌 -15545
▁상계 -15546
▁아연 -15547
▁안톤 -15548
▁에코 -15549
▁염두 -15550
▁외할 -15551
▁토피 -15552
▁235 -15553
▁개그맨 -15554
▁물려주 -15555
▁스케줄 -15556
▁시마즈 -15557
▁터뜨리 -15558
▁name -15559
▁로베르토 -15560
▁ㅇㅣㄹㅜㄹ -15561
▁ㅎㅐㅈㅣㄹ -15562
ㅈㅓ -15563
루즈 -15564
모음 -15565
양이 -15566
▁군복 -15567
▁등산 -15568
▁시의 -15569
▁자위 -15570
▁초계 -15571
▁후한 -15572
▁DOS -15573
▁가이아 -15574
▁호흡기 -15575
ㄱㅇㅣㄴ -15576
▁ㄴㅏㅈㅊ -15577
▁ㅂㅕㄴㅎㅐ -15578
▁엣 -15579
▁배당 -15580
▁서안 -15581
▁수역 -15582
▁양극 -15583
▁양서 -15584
▁에노 -15585
▁자키 -15586
▁재화 -15587
▁칼륨 -15588
▁호로 -15589
▁ㅇㅗㄹㄹㅣㄹ -15590
▁ㄷㅏㄴㅕㅇㅘㅆ -15591
사와 -15592
▁남단 -15593
▁내림 -15594
▁비옥 -15595
▁정글 -15596
▁풀백 -15597
폴리탄 -15598
▁내보내 -15599
▁ㅂㅜㄹㅌㅐㅇ -15600
▁메트로폴리탄 -15601
co -15602
▁골절 -15603
▁나기 -15604
▁노카 -15605
▁마흐 -15606
▁사미 -15607
▁안팎 -15608
▁외삼 -15609
▁찌르 -15610
▁후이 -15611
▁흔들 -15612
▁스케일 -15613
▁그레이엄 -15614
화당 -15615
▁리나 -15616
▁불복 -15617
▁석기 -15618
▁신병 -15619
▁안기 -15620
▁유충 -15621
▁족장 -15622
▁타시 -15623
▁하산 -15624
▁tvN -15625
▁남극점 -15626
▁자격증 -15627
▁랠 -15628
▁셴 -15629
▁cc -15630
▁경화 -15631
▁대류 -15632
▁무능 -15633
▁병렬 -15634
▁솜씨 -15635
▁안심 -15636
▁웨어 -15637
▁케리 -15638
▁코바 -15639
▁화승 -15640
▁손꼽히 -15641
▁최성기 -15642
▁테두리 -15643
▁This -15644
▁ㅊㅕㅅㅓ -15645
▁지하철역 -15646
▁ㅁㅏㄹㄹㅏ -15647
▁ㅁㅜㄲㅇㅕ -15648
▁브로드웨이 -15649
▁ㅈㅓㄴㅎㅐㅈㅕ -15650
▁뤄 -15651
에쓰 -15652
황색 -15653
▁라가 -15654
▁카로 -15655
▁포니 -15656
▁사무관 -15657
▁열역학 -15658
▁조각상 -15659
▁우두머리 -15660
so -15661
▁잼 -15662
벌리 -15663
큐슈 -15664
▁버니 -15665
▁실효 -15666
▁종가 -15667
▁ㄲㅜㅁ -15668
▁간호사 -15669
▁당뇨병 -15670
▁로페스 -15671
▁ㅂㅕㄴㅎㅏㄴㄷㅏ -15672
▁ㅁㅗㅅㅎㅐㅆㅇㅡㅁㅕ -15673
18 -15674
▁가뭄 -15675
▁균일 -15676
▁나한 -15677
▁세스 -15678
▁오마 -15679
▁축복 -15680
▁통솔 -15681
▁빼앗기 -15682
▁안드레 -15683
▁안양시 -15684
▁천도교 -15685
▁미스코리아 -15686
보라 -15687
IVE -15688
▁부엌 -15689
▁소론 -15690
▁요직 -15691
▁이달 -15692
▁일간 -15693
▁창구 -15694
▁키타 -15695
▁키트 -15696
▁패치 -15697
▁협곡 -15698
▁화원 -15699
▁동아리 -15700
▁시그마 -15701
▁신호장 -15702
▁중앙아메리카 -15703
yn -15704
▁결말 -15705
▁뉴멕 -15706
▁동백 -15707
▁리시 -15708
▁시제 -15709
▁양평 -15710
▁줄곧 -15711
▁공주시 -15712
▁뉴멕시코 -15713
▁ㅁㅏㅌㄱㅕ -15714
▁파푸아뉴기니 -15715
열대 -15716
텐셜 -15717
ATO -15718
▁고층 -15719
▁마늘 -15720
▁무예 -15721
▁베크 -15722
▁산조 -15723
▁악당 -15724
▁은폐 -15725
▁일주 -15726
▁재보 -15727
▁정승 -15728
▁칠성 -15729
▁침범 -15730
▁한겨 -15731
스크림 -15732
▁거주자 -15733
▁따라가 -15734
▁반대편 -15735
▁카디널 -15736
▁유가행파 -15737
▁ㄱㅏㄹㅗㅈㅣㄹㄹㅓ -15738
▁일삼 -15739
▁잔혹 -15740
▁즐거 -15741
▁라스트 -15742
▁스틸러스 -15743
▁ㅅㅣㄷㅏㄹㄹㅕㅆ -15744
신저 -15745
악산 -15746
주크 -15747
ala -15748
▁기스 -15749
▁무가 -15750
▁숙박 -15751
▁중남 -15752
▁홍익 -15753
▁확충 -15754
▁교육감 -15755
▁1874 -15756
▁일렉트릭 -15757
▁sp -15758
▁다쿠 -15759
▁몰수 -15760
▁한복 -15761
▁향수 -15762
진보당 -15763
▁무지개 -15764
▁재미있 -15765
▁저스틴 -15766
▁트레일 -15767
▁퍼텐셜 -15768
▁ㄸㅓㄹㅊㅕㅆ -15769
시험 -15770
▁넷플 -15771
▁레나 -15772
▁발작 -15773
▁이색 -15774
어들이 -15775
올리언 -15776
▁성폭력 -15777
▁채무자 -15778
▁넷플릭스 -15779
▁컨퍼런스 -15780
▁콘퍼런스 -15781
징어 -15782
net -15783
▁놓치 -15784
▁묘호 -15785
▁잔여 -15786
▁판명 -15787
▁ㄲㅐㅇ -15788
▁가요제 -15789
▁동남쪽 -15790
▁에스컬 -15791
▁조각가 -15792
▁클로드 -15793
▁항공편 -15794
▁휴대폰 -15795
▁바그다드 -15796
▁ㄱㅣㄷㅏㄴ -15797
▁ㄴㅐㄹㅣㄹ -15798
▁ㅆㅡㅇㅣㄹ -15799
▁알렉산데르 -15800
▁에스컬레이터 -15801
▁ㅎㅐㅈㅜㄴㄷㅏ -15802
프랑 -15803
▁가온 -15804
▁눈치 -15805
▁라플 -15806
▁메모 -15807
▁받치 -15808
▁송이 -15809
▁읍성 -15810
▁인스 -15811
▁젠더 -15812
▁조동 -15813
▁캠벨 -15814
▁학당 -15815
▁204 -15816
▁대수학 -15817
▁앞바다 -15818
▁후쿠이 -15819
▁ㅇㅏㄴㄱㅕ -15820
▁벚 -15821
▁낭비 -15822
▁리타 -15823
▁미겔 -15824
▁소양 -15825
▁이문 -15826
▁쿠마 -15827
▁지리산 -15828
▁책임지 -15829
▁1877 -15830
▁바이마르 -15831
▁호소카와 -15832
me -15833
▁퀄 -15834
소문 -15835
운수 -15836
▁발판 -15837
▁손목 -15838
▁싱크 -15839
▁잉여 -15840
야누스 -15841
▁게임즈 -15842
▁오르간 -15843
▁프레슬리 -15844
▁아우구스투스 -15845
ax -15846
ody -15847
▁옥사 -15848
▁품목 -15849
▁ㅎㅓㅁ -15850
▁아우르 -15851
▁여운형 -15852
▁뉴올리언 -15853
▁슈퍼스타 -15854
▁콜럼버스 -15855
anc -15856
▁단발 -15857
▁애드 -15858
▁코크 -15859
▁루이즈 -15860
▁사하라 -15861
▁참전하 -15862
▁한겨레 -15863
▁7000 -15864
▁오아시스 -15865
▁ㅇㅏㅍㅅㅔ -15866
▁트라야누스 -15867
▁ㅇㅗㄹㄹㅏㅇㅘ -15868
더릭 -15869
▁강좌 -15870
▁사중 -15871
▁상한 -15872
▁예멘 -15873
▁주군 -15874
▁코로 -15875
▁서스펜 -15876
▁ㅆㅏㅇㅜㄹ -15877
▁서아프리카 -15878
▁SR -15879
▁격전 -15880
▁산문 -15881
▁선단 -15882
▁차오 -15883
▁클랜 -15884
▁탄수 -15885
▁하지 -15886
▁원주시 -15887
▁허베이 -15888
▁ㄲㅣㅊㅣㄴ -15889
▁멀티미디어 -15890
민당 -15891
ash -15892
oid -15893
▁도형 -15894
▁복속 -15895
▁아킬 -15896
▁에페 -15897
▁재회 -15898
▁Bab -15899
▁공학자 -15900
▁ㅅㅡㄹㅓㅇㅝ -15901
▁쿰 -15902
▁AF -15903
▁GR -15904
▁강국 -15905
▁델리 -15906
▁민원 -15907
▁본존 -15908
▁빌드 -15909
▁앞뒤 -15910
▁양천 -15911
▁행선 -15912
▁APG -15913
▁핸드볼 -15914
GB -15915
au -15916
▁맴 -15917
혈구 -15918
▁무주 -15919
▁바니 -15920
▁바투 -15921
▁순찰 -15922
▁엄지 -15923
▁지크 -15924
▁출사 -15925
▁토바 -15926
▁중거리 -15927
▁컨설팅 -15928
▁Best -15929
ㅇㅓㄴㅐㅆ -15930
▁ㅊㅜㅇㅜㄴ -15931
바드 -15932
양구 -15933
ose -15934
▁경내 -15935
▁고승 -15936
▁곤살 -15937
▁모치 -15938
▁전조 -15939
▁처마 -15940
▁총영 -15941
▁추계 -15942
▁교육학 -15943
▁브리스 -15944
ps -15945
▁툼 -15946
변수 -15947
▁두뇌 -15948
▁산체 -15949
▁석권 -15950
▁우표 -15951
▁인성 -15952
▁지령 -15953
▁카일 -15954
▁퇴진 -15955
▁518 -15956
▁Her -15957
▁비잔틴 -15958
▁셀주크 -15959
▁수백만 -15960
▁아놀드 -15961
▁콜린스 -15962
▁클러스터 -15963
▁ㅁㅜㅇㅓㄴ -15964
일기 -15965
▁AE -15966
▁et -15967
▁ㅅㅛ -15968
▁나투 -15969
▁로망 -15970
▁바야 -15971
▁부르봉 -15972
▁스타드 -15973
▁플루토늄 -15974
22 -15975
계약 -15976
를레 -15977
비에 -15978
▁밸브 -15979
▁시발 -15980
▁에볼 -15981
▁오구 -15982
▁요가 -15983
▁화염 -15984
▁ㅌㅏㅆ -15985
▁오릭스 -15986
▁청문회 -15987
▁갈릴레오 -15988
▁다카하시 -15989
ㄹㅗㅇㅜㄴ -15990
▁ㅁㅜㄹㄹㅓㄴㅏ -15991
14 -15992
피크 -15993
ict -15994
▁결장 -15995
▁공문 -15996
▁뮐러 -15997
▁블랑 -15998
▁ㄸㅏㄴ -15999
▁한국군 -16000
▁Hell -16001
▁ㅎㅡㄹㄹ -16002
▁만장일치 -16003
▁캄파니아 -16004
▁ㄷㅗㄹㄹㅕㅆ -16005
범죄 -16006
▁가선 -16007
▁감축 -16008
▁거시 -16009
▁너희 -16010
▁도안 -16011
▁라임 -16012
▁소인 -16013
▁숙명 -16014
▁유창 -16015
▁인계 -16016
▁제지 -16017
▁코린 -16018
▁해지 -16019
▁강화군 -16020
▁엘비스 -16021
▁1859 -16022
▁문맥 -16023
▁상감 -16024
▁소르 -16025
▁승률 -16026
▁자성 -16027
▁차명 -16028
▁경부선 -16029
▁포식자 -16030
▁1700 -16031
▁메모리얼 -16032
▁ㅎㅐㅆㅇㅡㅁㅡㄹㅗ -16033
남면 -16034
토크 -16035
▁YG -16036
▁관아 -16037
▁나일 -16038
▁도읍 -16039
▁레크 -16040
▁방학 -16041
▁사연 -16042
▁예금 -16043
▁완장 -16044
▁원사 -16045
▁앙드레 -16046
▁콘티넨 -16047
▁스테파노 -16048
▁KS -16049
▁두르 -16050
▁중건 -16051
▁CIA -16052
▁곧이어 -16053
▁루카스 -16054
▁전시관 -16055
▁현미경 -16056
▁사무라이 -16057
▁us -16058
▁곡식 -16059
▁니즈 -16060
▁뚜껑 -16061
▁문물 -16062
▁볼드 -16063
▁북측 -16064
▁사병 -16065
▁산재 -16066
▁선과 -16067
▁스펙 -16068
▁요도 -16069
▁원문 -16070
▁갑작스럽 -16071
▁레닌주의 -16072
▁프리큐어 -16073
▁ㅇㅝㄴㅎㅏㄴ -16074
▁ㅁㅜㅇㅓㄴㄱㅏ -16075
장사 -16076
제철 -16077
▁미켈 -16078
▁미트 -16079
▁서체 -16080
▁소주 -16081
▁스플 -16082
▁의제 -16083
▁펭귄 -16084
▁아파치 -16085
▁연방군 -16086
▁클레오 -16087
▁혼합물 -16088
▁켐 -16089
형제 -16090
▁도부 -16091
▁명왕 -16092
▁법규 -16093
▁이씨 -16094
▁태화 -16095
▁퇴치 -16096
▁게이밍 -16097
▁오리엔 -16098
▁외계인 -16099
13 -16100
15 -16101
EEE -16102
▁네브 -16103
▁대입 -16104
▁서품 -16105
▁억울 -16106
▁통찰 -16107
▁플랑 -16108
▁개화파 -16109
▁사다리 -16110
▁아키텐 -16111
▁울트라 -16112
▁인류학 -16113
▁ㅂㅏㅊㅕ -16114
▁라이센스 -16115
ㄸㅡㄹㅣㄴ -16116
▁ㅂㅏㄲㅟㄴㄷㅏ -16117
▁과세 -16118
▁리안 -16119
▁제비 -16120
▁화음 -16121
▁625 -16122
▁ㅎㅐㄴ -16123
▁우에노 -16124
나시 -16125
데일 -16126
란다 -16127
로트 -16128
▁공병 -16129
▁구가 -16130
▁모교 -16131
▁부식 -16132
▁블룸 -16133
▁투사 -16134
▁순천시 -16135
▁이론가 -16136
▁이케다 -16137
▁미야기현 -16138
▁자이언트 -16139
▁자카르타 -16140
고사 -16141
마을 -16142
매기 -16143
무장 -16144
완다 -16145
▁재물 -16146
▁전범 -16147
▁푸젠 -16148
▁함장 -16149
▁대사간 -16150
▁억제제 -16151
▁핵탄두 -16152
▁ㄱㅗㄹㄹㅏ -16153
▁테크놀로지 -16154
▁뉴클레오타이드 -16155
VA -16156
▁멱 -16157
주석 -16158
▁se -16159
▁롤러 -16160
▁앨라 -16161
▁율리 -16162
▁화소 -16163
▁제니퍼 -16164
▁ㄱㅣㄹㄹㅓ -16165
▁경합 -16166
▁구전 -16167
▁맹렬 -16168
▁바젤 -16169
▁백운 -16170
▁왕당 -16171
▁전서 -16172
▁후회 -16173
▁서태지 -16174
▁ㅂㅜㄹㄹㅣㄹ -16175
▁ㅅㅔㅇㅝㅆㅇㅡㅁㅕ -16176
▁챠 -16177
투리 -16178
uck -16179
▁만류 -16180
▁원점 -16181
▁츠카 -16182
▁ㄲㅡㅀ -16183
▁빌바오 -16184
▁이주민 -16185
▁찾아오 -16186
▁출장소 -16187
▁^ -16188
▁뮈 -16189
▁웜 -16190
동원 -16191
버터 -16192
▁박찬 -16193
▁발터 -16194
▁상환 -16195
▁원만 -16196
▁가치관 -16197
▁직사각 -16198
▁아이스크림 -16199
de -16200
다보 -16201
▁관위 -16202
▁레티 -16203
▁산남 -16204
▁아누 -16205
▁양지 -16206
▁하층 -16207
▁후견 -16208
▁난쟁이 -16209
▁환승역 -16210
▁소아시아 -16211
▁아드리아 -16212
▁크리스틴 -16213
재판 -16214
▁속국 -16215
▁자갈 -16216
▁적법 -16217
▁결의안 -16218
▁길거리 -16219
▁목표물 -16220
▁미성년 -16221
▁바스크 -16222
▁선제후 -16223
▁IEEE -16224
HC -16225
HL -16226
▁샷 -16227
나주 -16228
크리 -16229
▁거병 -16230
▁결여 -16231
▁사와 -16232
▁총감 -16233
▁평하 -16234
▁피자 -16235
reak -16236
▁ㅈㅗㅇ -16237
▁기념장 -16238
▁쓰촨성 -16239
▁출판물 -16240
▁탈레반 -16241
▁트레인 -16242
▁ㄸㅓㄹㅇㅓ -16243
▁ㅁㅗㄹㅡㄴ -16244
과학 -16245
▁군기 -16246
▁근간 -16247
▁무공 -16248
▁백지 -16249
▁변론 -16250
▁여정 -16251
▁왕명 -16252
▁주포 -16253
▁테헤 -16254
▁회차 -16255
▁후면 -16256
▁ㄲㅓㄴ -16257
▁ㅂㅓㅁ -16258
▁아이치 -16259
▁이치현 -16260
▁카리스 -16261
조류 -16262
주사 -16263
▁다윗 -16264
▁로보 -16265
▁리언 -16266
▁매기 -16267
▁발광 -16268
▁베다 -16269
▁보어 -16270
▁북인 -16271
▁사산 -16272
▁산술 -16273
▁정청 -16274
▁코이 -16275
▁하후 -16276
▁340 -16277
▁ㅇㅓㄹ -16278
▁통계학 -16279
▁고바야시 -16280
▁ㄱㅏㅁㅜㄴ -16281
oo -16282
▁짚 -16283
스톤 -16284
티지 -16285
ail -16286
▁FF -16287
▁경원 -16288
▁로코 -16289
▁수주 -16290
▁오와 -16291
▁이창 -16292
▁조회 -16293
▁튜링 -16294
▁특명 -16295
▁로저스 -16296
▁마코토 -16297
▁순교자 -16298
▁케이드 -16299
▁서바이벌 -16300
▁아미타불 -16301
르바 -16302
장조 -16303
패드 -16304
▁김학 -16305
▁뉴잉 -16306
▁도끼 -16307
▁알로 -16308
▁용맹 -16309
▁희미 -16310
▁ㅅㅜㄴ -16311
▁미트라 -16312
▁빈센트 -16313
▁셰퍼드 -16314
▁향신료 -16315
▁끔 -16316
▁as -16317
▁개경 -16318
▁관군 -16319
▁김우 -16320
▁논증 -16321
▁담양 -16322
▁로디 -16323
▁승낙 -16324
▁이만 -16325
▁일면 -16326
▁장경 -16327
▁ㅅㅓㄷ -16328
▁볼프강 -16329
▁Star -16330
▁카디널스 -16331
▁자백 -16332
▁전봉 -16333
▁진천 -16334
▁청정 -16335
▁헬스 -16336
▁화풍 -16337
게이트 -16338
▁ㄲㅏㄹ -16339
▁레이건 -16340
▁실린더 -16341
▁지석묘 -16342
스퍼 -16343
의식 -16344
▁달력 -16345
▁보국 -16346
▁오인 -16347
▁유틸 -16348
▁정역 -16349
▁퇴출 -16350
▁헤라 -16351
▁Sun -16352
▁대혁명 -16353
▁로스트 -16354
▁안철수 -16355
▁이광수 -16356
▁정착지 -16357
▁해인사 -16358
▁국가원수 -16359
▁유틸리티 -16360
▁매사추세츠주 -16361
▁ㅈㅓㅇㅎㅐㅈㅕㅆ -16362
▁펙 -16363
▁공석 -16364
▁발진 -16365
▁섹션 -16366
▁양동 -16367
▁어선 -16368
▁홀수 -16369
하마드 -16370
▁교황령 -16371
▁예문관 -16372
▁오슬로 -16373
▁나바 -16374
▁미러 -16375
▁보디 -16376
▁사생 -16377
▁상설 -16378
▁수프 -16379
▁우니 -16380
▁입찰 -16381
▁젤리 -16382
▁가우스 -16383
▁개척자 -16384
▁ㄴㅏㅁㅏ -16385
▁ㅁㅜㄴㅓ -16386
▁오토바이 -16387
▁Super -16388
플레 -16389
▁거문 -16390
▁구라 -16391
▁도매 -16392
▁베가 -16393
▁부락 -16394
▁세제 -16395
▁손수 -16396
▁안주 -16397
▁연해 -16398
▁진심 -16399
▁타파 -16400
▁폐차 -16401
▁310 -16402
▁ㅅㅓㅇ -16403
▁개막식 -16404
▁아스카 -16405
▁ㄴㅗㅎㅇㅕㅆ -16406
댓값 -16407
소니 -16408
▁my -16409
▁상층 -16410
▁아칸 -16411
▁추장 -16412
▁통감 -16413
▁호화 -16414
▁울주군 -16415
▁원정대 -16416
▁ㅈㅓㅈㅣㄹㄹㅓㅆ -16417
배마 -16418
▁교감 -16419
▁사탄 -16420
▁짝수 -16421
▁커브 -16422
▁타밀 -16423
▁평방 -16424
▁209 -16425
▁국내선 -16426
▁대제학 -16427
▁디에고 -16428
▁아니면 -16429
▁앨라배마 -16430
▁ㅈㅏㅂㅎㅣㄴ -16431
▁ㄷㅜㄷㅡㄹㅓㅈㅣㄴ -16432
구미 -16433
바퀴 -16434
vel -16435
▁교인 -16436
▁금관 -16437
▁멜라 -16438
▁you -16439
▁무신론 -16440
▁바빌론 -16441
▁브레멘 -16442
▁ㄴㅓㄼㅎㅕ -16443
▁ㅎㅟㅂㅆㅏ -16444
학파 -16445
▁과달 -16446
▁김도 -16447
▁김주 -16448
▁수문 -16449
▁시력 -16450
▁템플 -16451
▁대관식 -16452
▁셀레우 -16453
▁윤치영 -16454
▁그래픽스 -16455
▁유니코드 -16456
▁ㅅㅏㄴㅈㅣ -16457
▁뉴잉글랜드 -16458
▁후쿠시마현 -16459
▁콘스탄티누스 -16460
▁ad -16461
▁근세 -16462
▁산정 -16463
▁추밀 -16464
▁토프 -16465
ㅂㅅㅣ -16466
▁대대장 -16467
▁에이브 -16468
▁자오선 -16469
▁자치현 -16470
▁페스트 -16471
▁1812 -16472
▁ㅇㅡㄹㅓ -16473
▁ㅈㅣㄴㅏㄹ -16474
iel -16475
▁명륜 -16476
▁모션 -16477
▁선별 -16478
▁속초 -16479
▁어학 -16480
▁정실 -16481
▁타선 -16482
▁르완다 -16483
▁송진우 -16484
▁Soul -16485
▁ㄱㅏㄷㅎㅕ -16486
▁ㄸㅓㅇㅗㄹㄹㅏㅆ -16487
TF -16488
▁DO -16489
▁강유 -16490
▁넓히 -16491
▁동급 -16492
▁로컬 -16493
▁맞배 -16494
▁박경 -16495
▁산인 -16496
▁성조 -16497
▁수라 -16498
▁의인 -16499
▁지카 -16500
▁충동 -16501
▁탄두 -16502
▁터스 -16503
▁피그 -16504
▁삼거리 -16505
▁엄청나 -16506
▁에이지 -16507
▁ㅁㅐㄷㅏ -16508
▁굶 -16509
초프 -16510
티어 -16511
▁김덕 -16512
▁닷컴 -16513
▁루드 -16514
▁메드 -16515
▁문건 -16516
▁장강 -16517
▁지검 -16518
▁항문 -16519
▁호국 -16520
▁206 -16521
▁접미사 -16522
▁한자어 -16523
▁ICBM -16524
▁모니터링 -16525
▁알렉세이 -16526
▁무형문화재 -16527
▁Kn -16528
▁근위 -16529
▁나시 -16530
▁로런 -16531
▁수구 -16532
▁안면 -16533
▁장지 -16534
▁단말기 -16535
▁자본가 -16536
▁선거관리 -16537
▁아이파크 -16538
▁중앙일보 -16539
▁선거관리위원회 -16540
59 -16541
▁름 -16542
구나 -16543
그램 -16544
팩스 -16545
▁루손 -16546
▁산동 -16547
▁센타 -16548
▁아호 -16549
▁풀이 -16550
▁호이 -16551
▁슈투트 -16552
▁에세이 -16553
▁여수시 -16554
▁음식점 -16555
▁주거지 -16556
▁John -16557
▁슈투트가르트 -16558
샤오 -16559
▁동맥 -16560
▁무위 -16561
▁무진 -16562
▁빨강 -16563
▁수질 -16564
▁이건 -16565
▁점토 -16566
▁주유 -16567
▁코우 -16568
▁투니 -16569
하우스 -16570
▁서비스업 -16571
▁Christ -16572
▁쑹 -16573
네오 -16574
디드 -16575
스레 -16576
▁Mi -16577
▁Tw -16578
▁금천 -16579
▁법상 -16580
▁샤오 -16581
▁의논 -16582
▁장이 -16583
시아키 -16584
▁주제가 -16585
▁안토니우스 -16586
도감 -16587
ute -16588
▁IF -16589
▁ON -16590
▁걸스 -16591
▁배타 -16592
▁세밀 -16593
▁스쿼 -16594
▁황위 -16595
▁ㅈㅣㅁ -16596
▁연대장 -16597
▁조르주 -16598
▁북대서양 -16599
ㅂㅏ -16600
면적 -16601
▁교재 -16602
▁조던 -16603
▁집적 -16604
▁천자 -16605
▁춘계 -16606
▁카보 -16607
▁폐하 -16608
공화당 -16609
▁747 -16610
▁기생충 -16611
▁록히드 -16612
▁안데스 -16613
▁조광조 -16614
▁1879 -16615
▁건국훈장 -16616
▁막시밀리 -16617
▁베르사유 -16618
▁민주공화당 -16619
▁ㅁㅜㄹㄹㅣㅊㅕㅆ -16620
EA -16621
gh -16622
버라 -16623
탄올 -16624
▁당상 -16625
▁도자 -16626
▁변성 -16627
▁익히 -16628
▁차역 -16629
▁철기 -16630
▁초식 -16631
▁콘스 -16632
▁콜론 -16633
▁포상 -16634
▁한하 -16635
▁ㄱㅕㅌ -16636
▁로널드 -16637
▁아브라함 -16638
▁로지 -16639
▁버밍 -16640
▁범람 -16641
▁양원 -16642
▁하강 -16643
▁ㄲㅓㄹ -16644
▁보이즈 -16645
▁조봉암 -16646
▁파르마 -16647
▁얄 -16648
▁ㄲㅚ -16649
▁구비 -16650
▁규합 -16651
▁매듭 -16652
▁스완 -16653
▁정맥 -16654
▁카토 -16655
라이스 -16656
▁고지대 -16657
▁석회암 -16658
▁의병장 -16659
▁카지노 -16660
▁테헤란 -16661
▁피어스 -16662
방스 -16663
여지 -16664
▁HP -16665
▁과감 -16666
▁아람 -16667
▁영도 -16668
▁우기 -16669
▁청일 -16670
▁카펠 -16671
▁레코딩 -16672
▁바닷가 -16673
▁제이크 -16674
▁일렉트로닉 -16675
슐리 -16676
▁Mr -16677
▁고후 -16678
▁공경 -16679
▁니치 -16680
▁대방 -16681
▁도파 -16682
▁딱딱 -16683
▁양념 -16684
▁울루 -16685
▁위축 -16686
▁백두산 -16687
▁사우디 -16688
▁여러분 -16689
▁논평 -16690
▁유계 -16691
▁임실 -16692
▁자석 -16693
▁초회 -16694
▁해주 -16695
▁해커 -16696
▁호투 -16697
▁개개인 -16698
▁게이오 -16699
▁독재자 -16700
▁태블릿 -16701
▁ㅍㅏㄹㅏㄴ -16702
▁ㅇㅔㄷㅏㄱㅏ -16703
OK -16704
▁뽀 -16705
▁썰 -16706
태자 -16707
▁관개 -16708
▁부기 -16709
▁휴일 -16710
▁CoA -16711
▁des -16712
RI -16713
네프 -16714
화산 -16715
▁귀순 -16716
▁농담 -16717
▁대여 -16718
▁듀스 -16719
▁모태 -16720
▁유세 -16721
▁이코 -16722
▁App -16723
▁라그랑 -16724
▁리그컵 -16725
▁여행자 -16726
▁ㄲㅜㅁㅕㅆ -16727
▁뉴올리언스 -16728
▁ㅌㅐㅇㅓㄴㅏㄹ -16729
▁ㅂㅜㅌㅈㅏㅂㅎㅕ -16730
▁ㅍㅕㄹㅊㅕㅈㅣㄴ -16731
분투 -16732
▁국문 -16733
▁노역 -16734
▁리퍼 -16735
▁소량 -16736
▁소포 -16737
▁수족 -16738
▁유보 -16739
▁일보 -16740
▁카파 -16741
▁쿠시 -16742
▁풍요 -16743
로세서 -16744
▁420 -16745
▁기울이 -16746
▁무사시 -16747
▁아이작 -16748
ㅇㅝㅅㅓ -16749
▁ㅈㅜㄱㅇㅣㄹ -16750
▁ㄷㅗㅁㅏㅇㅊㅕ -16751
▁가창 -16752
▁군마 -16753
▁끔찍 -16754
▁노마 -16755
▁단수 -16756
▁두부 -16757
▁방탄 -16758
▁부화 -16759
▁사파 -16760
▁양정 -16761
▁예보 -16762
▁원한 -16763
▁클럭 -16764
▁호적 -16765
▁ㅊㅜㄴ -16766
▁리바이 -16767
▁사가미 -16768
리아누스 -16769
▁ㅈㅏㅂㅎㅕㅆ -16770
블릭 -16771
신보 -16772
정변 -16773
▁능숙 -16774
▁상이 -16775
▁스킨 -16776
▁스텐 -16777
▁영종 -16778
▁전열 -16779
▁컬링 -16780
▁호시 -16781
레틱스 -16782
▁그러면 -16783
▁암스트 -16784
ㅇㅡㅁㅕㄴ -16785
▁애슬레틱스 -16786
▁ㅊㅣㄹㅡㄴㄷㅏ -16787
▁ㅂㅜㄹㄹㅓㅇㅣㄹㅇㅡㅋㅕㅆ -16788
▁썸 -16789
연맹 -16790
▁기권 -16791
▁반납 -16792
▁불능 -16793
▁불문 -16794
▁빛깔 -16795
▁용역 -16796
▁조우 -16797
▁카다 -16798
▁글리제 -16799
ㅇㅣㄷㅏ -16800
▁원종공신 -16801
▁ㅈㅓㄱㅎㅣㄴ -16802
▁권투 -16803
▁동대 -16804
▁두스 -16805
▁머큐 -16806
▁반달 -16807
▁유상 -16808
▁최용 -16809
▁택하 -16810
▁현수 -16811
를레앙 -16812
▁Str -16813
▁니가타 -16814
▁변호인 -16815
▁영사관 -16816
▁인산화 -16817
▁트리스 -16818
▁파르티아 -16819
▁ㅇㅏㅇㅣㄴ -16820
▁꽝 -16821
반정 -16822
▁Gu -16823
▁강가 -16824
▁무겁 -16825
▁열람 -16826
▁인삼 -16827
▁ㅅㅐㄴ -16828
▁국방군 -16829
▁오메가 -16830
▁테크노 -16831
▁주머니쥐 -16832
▁Record -16833
링크 -16834
ull -16835
▁개표 -16836
▁김시 -16837
▁인척 -16838
▁자각 -16839
▁자네 -16840
▁처칠 -16841
▁체리 -16842
▁알칼리 -16843
▁ㄷㅏㅇㅎㅐㅆㅇㅡㅁㅕ -16844
▁쿵 -16845
ㅇㅅ -16846
VID -16847
▁감당 -16848
▁애호 -16849
▁중등 -16850
▁차차 -16851
▁440 -16852
▁아우구스트 -16853
▁퀼 -16854
자드 -16855
장군 -16856
▁"| -16857
▁PA -16858
▁광시 -16859
▁대등 -16860
▁부트 -16861
▁수아 -16862
▁시타 -16863
▁제고 -16864
▁타라 -16865
▁할구 -16866
▁잠비아 -16867
▁클라리 -16868
▁항생제 -16869
▁ㄴㅐㄱㅔ -16870
▁print -16871
▁ㄱㅣㅇㅜㄹㅇㅕㅆ -16872
티보 -16873
▁게놈 -16874
▁남경 -16875
▁도나 -16876
▁용문 -16877
▁유민 -16878
▁후추 -16879
▁군주제 -16880
▁수영장 -16881
▁엘리엇 -16882
▁타지키스탄 -16883
▁public -16884
산업 -16885
선교 -16886
▁당장 -16887
▁신익 -16888
▁실베 -16889
▁압수 -16890
▁왕녀 -16891
▁커리 -16892
▁폴로 -16893
▁항전 -16894
▁Per -16895
▁바실리 -16896
▁본거지 -16897
▁스위트 -16898
▁야구부 -16899
▁여주인 -16900
▁유기체 -16901
▁조용히 -16902
▁불법행위 -16903
▁쑨 -16904
길준 -16905
수지 -16906
▁po -16907
▁고난 -16908
▁궁주 -16909
▁미타 -16910
▁전곡 -16911
▁접목 -16912
▁투병 -16913
▁실리콘 -16914
▁엘리스 -16915
▁오토모 -16916
▁합병증 -16917
대비 -16918
▁금기 -16919
▁노엘 -16920
▁비싸 -16921
▁사체 -16922
▁상회 -16923
▁성자 -16924
▁앙상 -16925
▁역동 -16926
▁자존 -16927
▁제방 -16928
▁종실 -16929
▁쿠루 -16930
▁환산 -16931
리오스 -16932
▁즐거움 -16933
▁허버트 -16934
▁ㅅㅔㅇㅜㄹ -16935
▁엔지니어링 -16936
▁ㄷㅚㄷㅗㄹㄹㅕ -16937
▁CA -16938
▁nm -16939
▁나토 -16940
▁라쿠 -16941
▁리노 -16942
▁성현 -16943
▁소진 -16944
▁열거 -16945
▁유관 -16946
▁은평 -16947
▁증축 -16948
▁투기 -16949
▁화이 -16950
▁Hot -16951
▁산투스 -16952
▁슈트라 -16953
▁양산시 -16954
▁엔리케 -16955
▁영화관 -16956
▁페이퍼 -16957
바이러스 -16958
▁ㄷㅜㅌㅓ -16959
▁헬레니즘 -16960
▁ㄱㅜㅎㅏㄴ -16961
▁ㅇㅣㅂㅎㅕㅆ -16962
덕궁 -16963
레미 -16964
어놓 -16965
자나 -16966
▁균등 -16967
▁동두 -16968
▁무패 -16969
▁문어 -16970
▁사나 -16971
▁시영 -16972
▁아루 -16973
▁이석 -16974
▁이한 -16975
▁퀸스 -16976
로그램 -16977
▁공성전 -16978
▁바레인 -16979
▁제시카 -16980
▁카스텔 -16981
▁2500 -16982
▁리바운드 -16983
데오 -16984
황제 -16985
▁교학 -16986
▁리지 -16987
▁마거 -16988
▁명동 -16989
▁북마 -16990
▁온전 -16991
▁왕좌 -16992
▁요셉 -16993
▁콜리 -16994
▁환초 -16995
▁256 -16996
▁ㅃㅜㄹ -16997
▁오우치 -16998
▁대법원장 -16999
▁다마스쿠스 -17000
▁슈트라우스 -17001
무지 -17002
쿠치 -17003
▁담수 -17004
▁바바 -17005
▁이설 -17006
▁코니 -17007
▁고다이 -17008
▁기본법 -17009
▁시에라 -17010
▁캅카스 -17011
▁플래닛 -17012
▁ㅇㅓㄹㅏ -17013
▁천문단위 -17014
ㅁㅏㄹㄹㅗ -17015
▁ㄹㅏㄱㅗㄷㅗ -17016
ty -17017
ㅘㅆ -17018
▁식이 -17019
▁접시 -17020
▁코인 -17021
ㄸㅓㄹ -17022
▁Win -17023
▁비행사 -17024
▁초고층 -17025
▁ㄴㅜㄹㄹㅓ -17026
16 -17027
25 -17028
▁찢 -17029
발트 -17030
일체 -17031
ual -17032
▁군도 -17033
▁마다 -17034
▁매복 -17035
▁사목 -17036
▁사스 -17037
▁정직 -17038
▁중신 -17039
고로드 -17040
▁왕당파 -17041
▁ㄱㅏㅇㅎㅐㅆ -17042
포리 -17043
▁내시 -17044
▁성교 -17045
▁성형 -17046
▁우타 -17047
▁향로 -17048
ogle -17049
▁광합성 -17050
▁랴오닝 -17051
▁접근성 -17052
▁페르시 -17053
▁사이클론 -17054
▁크리스탈 -17055
▁그릴 -17056
▁동체 -17057
▁셔츠 -17058
▁아역 -17059
▁연하 -17060
▁왕릉 -17061
▁유미 -17062
▁카츠 -17063
▁피질 -17064
▁호찌 -17065
▁ㅍㅜㄹㄹㅕ -17066
▁ㅅㅓㄲㅇㅣㄴ -17067
▁ㅇㅗㄹㄹㅏㅇㅘㅆ -17068
높이 -17069
스틱 -17070
▁고독 -17071
▁반정 -17072
▁반향 -17073
▁오차 -17074
▁패자 -17075
▁힐스 -17076
▁예수교 -17077
▁이세이 -17078
▁ㅇㅣㄹㅜㅇㅓㅈㅣㄹ -17079
울루 -17080
자락 -17081
▁가결 -17082
▁광동 -17083
▁교명 -17084
▁농협 -17085
▁따지 -17086
▁라사 -17087
▁석재 -17088
▁실책 -17089
▁양구 -17090
▁탈피 -17091
▁행운 -17092
▁남북조 -17093
▁렌더링 -17094
▁매니아 -17095
▁브루노 -17096
▁요나라 -17097
▁리치먼드 -17098
▁ㅈㅡㄹㄱㅕㅆ -17099
▁ㄱㅓㄴㅡㄹㅕㅆ -17100
▁캥 -17101
커우 -17102
▁Ke -17103
▁금리 -17104
▁담임 -17105
▁바타 -17106
▁응력 -17107
그래피 -17108
▁버스터 -17109
▁예비군 -17110
▁제주시 -17111
▁조연상 -17112
▁주둔지 -17113
▁지극히 -17114
▁프리드 -17115
▁1789 -17116
다임 -17117
빨리 -17118
▁HS -17119
▁깊숙 -17120
▁아구 -17121
▁체질 -17122
▁코일 -17123
▁킬러 -17124
던지기 -17125
▁208 -17126
▁베이직 -17127
▁춘천시 -17128
▁기타큐슈 -17129
▁아미타여래 -17130
무트 -17131
▁NM -17132
▁봉분 -17133
▁부안 -17134
▁워낙 -17135
▁이보 -17136
▁칠곡 -17137
▁트램 -17138
▁오이타 -17139
▁유도탄 -17140
▁토론회 -17141
▁호기심 -17142
▁후유증 -17143
▁1801 -17144
▁Back -17145
▁플랑드르 -17146
▁ㄷㅗㄹㅇㅏㄱㅏㄴ -17147
▁ㅇㅡㄹㅅㅜㄹㅗㄱ -17148
▁ㅣ -17149
는점 -17150
▁mu -17151
▁느슨 -17152
▁미녀 -17153
▁스팀 -17154
▁시온 -17155
▁여관 -17156
▁즉흥 -17157
▁지브 -17158
▁촐라 -17159
▁할로 -17160
프리드 -17161
▁911 -17162
▁사무엘 -17163
▁스텔스 -17164
▁웨슬리 -17165
▁조제프 -17166
▁ㄴㅏㄹㄹㅕㅆ -17167
▁둠 -17168
RNA -17169
▁강타 -17170
▁기피 -17171
▁득실 -17172
▁유독 -17173
▁히코 -17174
▁머큐리 -17175
▁생산자 -17176
▁유길준 -17177
▁잠재력 -17178
▁재결합 -17179
▁1400 -17180
▁Kore -17181
▁ㅌㅐㅇㅝ -17182
▁패러다임 -17183
▁ㄱㅓㄴㄴㅔ -17184
▁ㅅㅡㅂㄴㅣㄲㅏ -17185
▁ㄷㅡㄹㅓㄴㅏㄴㄷㅏ -17186
불명 -17187
평면 -17188
▁강자 -17189
▁끌어 -17190
▁노골 -17191
▁사조 -17192
▁소노 -17193
▁폐교 -17194
▁다행히 -17195
▁아르테 -17196
▁포틀랜드 -17197
▁기한 -17198
▁내기 -17199
▁누마 -17200
▁멘델 -17201
▁쌍용 -17202
▁악어 -17203
▁전과 -17204
▁정중 -17205
▁진성 -17206
▁초석 -17207
▁총생 -17208
▁침수 -17209
▁네바다 -17210
▁이회창 -17211
▁암스트롱 -17212
ll -17213
인산 -17214
▁Fl -17215
▁MD -17216
▁동률 -17217
▁신천 -17218
▁안시 -17219
▁영성 -17220
▁원곡 -17221
▁작자 -17222
▁Get -17223
▁MIT -17224
▁사천왕 -17225
▁영문학 -17226
▁최진실 -17227
▁판매고 -17228
제사 -17229
▁KD -17230
▁구애 -17231
▁대용 -17232
▁이크 -17233
▁치킨 -17234
▁파피 -17235
▁광주시 -17236
▁길버트 -17237
▁디아스 -17238
▁로런스 -17239
▁사망률 -17240
ㅐㅎㅐㅆ -17241
▁남한산성 -17242
▁비로자나 -17243
▁ㅇㅕㅅㅂㅗㄹ -17244
▁ㅎㅐㅇㅎㅏㄴ -17245
▁ㄴㅐㅆㅇㅡㅁㅕ -17246
▁ㅈㅣㅂㅐㅎㅐㅆ -17247
로움 -17248
스텐 -17249
▁국산 -17250
▁윤곽 -17251
▁조율 -17252
▁중학 -17253
▁탄력 -17254
▁ㅃㅐㄴ -17255
▁넘어서 -17256
▁앙상블 -17257
▁NATO -17258
▁ㅁㅗㅇㅕㅆ -17259
ox -17260
▁NL -17261
▁거머 -17262
▁교란 -17263
▁군량 -17264
▁애프 -17265
▁오웬 -17266
▁370 -17267
▁내몽골 -17268
▁마거릿 -17269
▁방법론 -17270
▁브릿지 -17271
▁양평군 -17272
▁영장류 -17273
▁유물론 -17274
ㄴㅏㄴㄷㅏ -17275
▁ㅎㅐㅇㅎㅐㅈㅣㄴ -17276
▁쐐 -17277
▁킵 -17278
라과 -17279
▁NA -17280
▁가전 -17281
▁갑신 -17282
▁거품 -17283
▁기일 -17284
▁발열 -17285
▁약품 -17286
▁에픽 -17287
▁채집 -17288
▁첫날 -17289
▁청중 -17290
ames -17291
▁생물학자 -17292
▁프린세스 -17293
▁군림 -17294
▁궁수 -17295
▁균열 -17296
▁변천 -17297
▁보아 -17298
▁악의 -17299
▁총국 -17300
▁ㅇㅘㄴ -17301
▁마운틴 -17302
▁붉은색 -17303
▁드래곤즈 -17304
▁미식축구 -17305
▁렬 -17306
의금 -17307
▁관저 -17308
▁도화 -17309
▁레저 -17310
▁미로 -17311
▁신궁 -17312
▁쐐기 -17313
lect -17314
▁Mag -17315
▁급속도 -17316
▁동일시 -17317
▁선수상 -17318
▁독립선언 -17319
▁탄수화물 -17320
▁항공우주 -17321
▁Intern -17322
▁ㅂㅕㄴㅎㅐㅆ -17323
모닉 -17324
▁구명 -17325
▁극회 -17326
▁먼로 -17327
▁미디 -17328
▁민선 -17329
▁승선 -17330
▁예편 -17331
▁우디 -17332
▁출정 -17333
▁펼쳐지 -17334
▁후반전 -17335
ology -17336
▁ㄹㅏㄴㅣ -17337
▁해수욕장 -17338
▁ㅁㅏㄹㅡㄴ -17339
GO -17340
이상 -17341
▁관원 -17342
▁군위 -17343
▁깨지 -17344
▁면하 -17345
▁성부 -17346
▁세타 -17347
▁승마 -17348
▁아로 -17349
▁안건 -17350
▁장승 -17351
▁제헌 -17352
▁카인 -17353
▁커넥 -17354
▁코딩 -17355
▁타키 -17356
▁트론 -17357
▁하세 -17358
▁현관 -17359
▁후난 -17360
▁남아공 -17361
▁디렉터 -17362
▁메신저 -17363
▁알베르 -17364
▁리하르트 -17365
▁ㄷㅏㄴㅣㄹ -17366
▁셀레우코스 -17367
▁ㅇㅗㄹㄹㅣㅁ -17368
▁ㄴㅏㄴㅜㄴㄷㅏ -17369
▁가변 -17370
▁겨냥 -17371
▁노름 -17372
▁로만 -17373
▁무소 -17374
▁유재 -17375
▁책정 -17376
▁코디 -17377
▁호지 -17378
▁방문객 -17379
▁오리건 -17380
▁요시카 -17381
▁추축국 -17382
▁이마가와 -17383
▁ㄱㅗㄴㅡㄴ -17384
▁ㅁㅓㅁㅜㄹ -17385
YP -17386
레븐 -17387
피카 -17388
let -17389
▁만물 -17390
▁열기 -17391
▁의대 -17392
▁제타 -17393
▁탄성 -17394
▁ㄱㅗㄹ -17395
▁나카노 -17396
▁베테랑 -17397
▁부천시 -17398
▁와이어 -17399
▁클라인 -17400
그라운드 -17401
ature -17402
▁Baby -17403
▁니카라과 -17404
▁트로츠키 -17405
▁ㅇㅣㄱㅣㄹ -17406
▁나날 -17407
▁무쓰 -17408
▁생포 -17409
▁어둡 -17410
▁지회 -17411
▁케로 -17412
피에르 -17413
▁225 -17414
▁ㅆㅗㄴ -17415
▁미요시 -17416
▁부사장 -17417
▁레오나르 -17418
▁ㅅㅣㅋㅣㄴㄷㅏㄴㅡㄴ -17419
17 -17420
백색 -17421
투르 -17422
ove -17423
▁니트 -17424
▁무루 -17425
▁솔직 -17426
▁유익 -17427
▁장차 -17428
▁최순 -17429
▁캔터 -17430
▁캡틴 -17431
▁호전 -17432
▁효성 -17433
▁콜라보 -17434
▁태양광 -17435
▁돼지고기 -17436
▁에두아르 -17437
▁ㅈㅣㅋㅣㄹ -17438
▁베오그라드 -17439
남동 -17440
능력 -17441
득점 -17442
박이 -17443
훈련 -17444
▁다채 -17445
▁사일 -17446
▁안락 -17447
▁오랑 -17448
▁진위 -17449
▁흉내 -17450
▁블러드 -17451
▁이유로 -17452
▁서귀포시 -17453
▁ㄴㅏㅇㅘㅅㅓ -17454
경찰 -17455
락부 -17456
무실 -17457
enn -17458
▁가령 -17459
▁격화 -17460
▁고관 -17461
▁공훈 -17462
▁누에 -17463
▁리라 -17464
▁생장 -17465
▁주스 -17466
▁초판 -17467
▁친히 -17468
▁탄광 -17469
코비치 -17470
▁기네스 -17471
▁범어사 -17472
▁브루크 -17473
▁스태프 -17474
▁시나노 -17475
▁신안군 -17476
▁주세페 -17477
▁ㅅㅓㄴㅂㅗㅇㅣㄴ -17478
심원 -17479
▁BB -17480
▁BO -17481
▁Cr -17482
▁듀엣 -17483
▁박태 -17484
▁베아 -17485
▁불길 -17486
▁서곡 -17487
▁조엘 -17488
▁카노 -17489
▁카불 -17490
▁파출 -17491
▁피시 -17492
▁합장 -17493
▁황하 -17494
inal -17495
▁고스트 -17496
▁다카시 -17497
▁두더지 -17498
▁리카르 -17499
▁페라리 -17500
▁게오르기 -17501
▁로베르트 -17502
▁프레더릭 -17503
▁안티오키아 -17504
UM -17505
▁씬 -17506
ors -17507
▁강구 -17508
▁개축 -17509
▁경산 -17510
▁고취 -17511
▁김장 -17512
▁대소 -17513
▁도보 -17514
▁레반 -17515
▁매튜 -17516
▁사옥 -17517
▁수화 -17518
▁외가 -17519
▁출항 -17520
스트림 -17521
▁GPS -17522
▁Way -17523
▁강릉시 -17524
▁만주족 -17525
▁ㅁㅜㄴㅓㅈㅕ -17526
파니 -17527
▁개리 -17528
▁도식 -17529
▁명장 -17530
▁비방 -17531
▁연어 -17532
▁유감 -17533
▁천태 -17534
▁철근 -17535
▁포메 -17536
말라야 -17537
▁Res -17538
▁김종직 -17539
▁압둘라 -17540
▁이치로 -17541
▁혈액형 -17542
ㅅㅓㄴㄷㅏ -17543
▁ㄴㅏㅇㅘㅆㅇㅡㅁㅕ -17544
TN -17545
ㅍㅣ -17546
▁결투 -17547
▁공지 -17548
▁깁슨 -17549
▁라테 -17550
▁브이 -17551
▁소마 -17552
▁약수 -17553
▁출병 -17554
▁풍기 -17555
▁하츠 -17556
▁스트라 -17557
▁이리하여 -17558
금속 -17559
메랄 -17560
▁DA -17561
▁공평 -17562
▁꾸미 -17563
▁레르 -17564
▁야만 -17565
▁잔치 -17566
▁조너 -17567
▁폭주 -17568
▁한꺼 -17569
▁효모 -17570
▁365 -17571
▁알레산 -17572
▁체육회 -17573
▁타일러 -17574
▁서대문구 -17575
▁선거인단 -17576
▁한꺼번에 -17577
갱이 -17578
덱스 -17579
▁굳이 -17580
▁기형 -17581
▁베라 -17582
▁베컴 -17583
▁알마 -17584
▁운석 -17585
▁직각 -17586
▁춘향 -17587
▁키치 -17588
▁흡입 -17589
▁207 -17590
▁동북부 -17591
▁스펜서 -17592
▁아열대 -17593
▁이지스 -17594
▁인문학 -17595
▁태극기 -17596
▁해수면 -17597
▁Amer -17598
광사 -17599
즈미 -17600
▁교내 -17601
▁미추 -17602
▁봉헌 -17603
▁살레 -17604
▁증류 -17605
▁천적 -17606
▁통킹 -17607
▁풋살 -17608
▁일제히 -17609
노스아이 -17610
▁1815 -17611
▁1820 -17612
▁아르바이트 -17613
노스아이레스 -17614
▁ㄴㅐㄹㅕㄱㅏㅆ -17615
▁ㅇㅗㄹㄹㅏㄱㅏㄹ -17616
▁부에노스아이레스 -17617
▁둑 -17618
마니 -17619
시카 -17620
app -17621
▁OK -17622
▁결렬 -17623
▁도량 -17624
▁떨어 -17625
▁맞닿 -17626
▁명중 -17627
▁양위 -17628
▁핼리 -17629
▁화교 -17630
▁흑색 -17631
스티안 -17632
이즈미 -17633
▁무정부 -17634
▁어드밴 -17635
▁지방도 -17636
▁페레스 -17637
▁프린터 -17638
▁히말라야 -17639
▁소크라테스 -17640
24 -17641
▁꿰 -17642
▁쪼 -17643
▁공보 -17644
▁박동 -17645
▁사계 -17646
▁설과 -17647
▁세도 -17648
▁습도 -17649
▁신안 -17650
▁에든 -17651
▁청군 -17652
▁감마선 -17653
▁노무라 -17654
▁Cent -17655
▁에든버러 -17656
FS -17657
처럼 -17658
▁격침 -17659
▁그간 -17660
▁내역 -17661
▁북송 -17662
▁시성 -17663
▁인노 -17664
▁총수 -17665
▁퇴계 -17666
▁야행성 -17667
▁조합원 -17668
▁라이온스 -17669
▁리얼리티 -17670
▁ㅇㅏㄴㅣㅁ -17671
▁ㅇㅗㄹㅡㅁ -17672
▁레닌그라드 -17673
▁낸 -17674
가요 -17675
나비 -17676
월드 -17677
ina -17678
▁결단 -17679
▁노하 -17680
▁담장 -17681
▁모잠 -17682
▁변조 -17683
▁시편 -17684
▁아쉽 -17685
▁전극 -17686
▁죄인 -17687
▁한라 -17688
▁호박 -17689
ㄱㅡㄹ -17690
▁ㅂㅓㅌ -17691
▁국무부 -17692
▁농민군 -17693
▁사법부 -17694
▁오징어 -17695
▁전동기 -17696
▁함부로 -17697
▁모잠비크 -17698
ㅇㅏㄴㅐㄹ -17699
▁ㅁㅏㄹㄹㅕ -17700
▁ㅂㅏㄷㅇㅏㄷㅡㄹㅇㅣㄴ -17701
오드 -17702
현실 -17703
▁던전 -17704
▁떠돌 -17705
▁서역 -17706
▁치루 -17707
▁표어 -17708
▁해머 -17709
ange -17710
ater -17711
▁ㅈㅏㅂ -17712
▁시아파 -17713
▁제품군 -17714
▁후베이 -17715
로프로세서 -17716
▁System -17717
▁마이크로프로세서 -17718
▁Dr -17719
▁김석 -17720
▁술집 -17721
▁스틱 -17722
▁양분 -17723
▁월경 -17724
▁천리 -17725
▁필로 -17726
ㅕㅅㅓ -17727
▁도나우 -17728
▁디나모 -17729
▁리그전 -17730
▁유명세 -17731
▁정몽주 -17732
▁지포스 -17733
▁트럼펫 -17734
▁마쓰모토 -17735
▁ㅌㅗㅇㅊㅣ -17736
▁결실 -17737
▁김은 -17738
▁데니 -17739
▁로제 -17740
▁모질 -17741
▁에다 -17742
▁윈드 -17743
▁트롤 -17744
레이즈 -17745
▁조병옥 -17746
▁유럽연합 -17747
▁카롤루스 -17748
▁ㅇㅓㅇㅜㄹ -17749
▁ㅈㅣㄴㅇㅣ -17750
▁막시밀리안 -17751
끄럽 -17752
▁SW -17753
▁격상 -17754
▁굴욕 -17755
▁마취 -17756
▁에인 -17757
▁이부 -17758
▁재심 -17759
▁좌랑 -17760
▁지반 -17761
▁파고 -17762
▁피쳐 -17763
▁허들 -17764
▁아드리 -17765
▁모노이드 -17766
▁알베르트 -17767
▁이오니아 -17768
▁알렉산드라 -17769
za -17770
거루 -17771
▁노총 -17772
▁당사 -17773
▁리서 -17774
▁마초 -17775
▁세실 -17776
▁소켓 -17777
▁어인 -17778
▁위태 -17779
▁융기 -17780
▁조나 -17781
▁직류 -17782
▁치밀 -17783
▁쿠사 -17784
▁학도 -17785
▁힘쓰 -17786
▁유공자 -17787
▁전망대 -17788
▁1858 -17789
▁오스트로 -17790
▁ㅎㅟㅁㅏㄹ -17791
▁ㅇㅗㄹㅡㄴㄷㅏ -17792
▁ㄷㅗㄹㅇㅏㅇㅗㄹ -17793
쓰네 -17794
▁"' -17795
▁결집 -17796
▁미완 -17797
▁본진 -17798
▁산마 -17799
▁아토 -17800
▁으뜸 -17801
▁장론 -17802
▁장서 -17803
▁코넬 -17804
▁트림 -17805
▁총생산 -17806
▁혁명가 -17807
▁ㄷㅓㄹㅓ -17808
▁마그네슘 -17809
▁프로방스 -17810
▁갸 -17811
ret -17812
▁갑오 -17813
▁달마 -17814
▁벅스 -17815
▁성찬 -17816
▁옵티 -17817
▁이구 -17818
▁충고 -17819
▁특위 -17820
▁펜스 -17821
▁Mac -17822
▁ㅁㅣㄴ -17823
▁신익희 -17824
▁연습생 -17825
▁일진회 -17826
▁파블로 -17827
▁ㄲㅣㅇㅝ -17828
▁고고학자 -17829
▁이성질체 -17830
▁ㅊㅓㅇㅎㅐㅆ -17831
▁챈 -17832
니츠 -17833
입자 -17834
▁'- -17835
▁갈비 -17836
▁경구 -17837
▁만수 -17838
▁배지 -17839
▁슐레 -17840
▁영위 -17841
▁탈리 -17842
▁하카 -17843
▁ㅁㅜㅉ -17844
▁ㅇㅓㅅ -17845
▁가디언 -17846
▁모델링 -17847
▁민의원 -17848
▁조너선 -17849
▁ㅂㅘㅇㅑ -17850
▁필하모닉 -17851
▁class -17852
▁폴리네시아 -17853
▁폼페이우스 -17854
▁ㅎㅏㅂㅊㅕㅈㅕ -17855
동리 -17856
러기 -17857
비츠 -17858
토바 -17859
ons -17860
▁기욤 -17861
▁기주 -17862
▁납품 -17863
▁녹말 -17864
▁에뮬 -17865
▁엠마 -17866
▁좌천 -17867
▁창씨 -17868
▁테살 -17869
▁형광 -17870
▁도치기 -17871
▁제노바 -17872
▁중심핵 -17873
▁맞배지붕 -17874
가라 -17875
▁더빙 -17876
▁본능 -17877
▁빠져 -17878
▁사보 -17879
▁소정 -17880
▁완산 -17881
▁자막 -17882
▁장택 -17883
▁지뢰 -17884
▁합산 -17885
지먼트 -17886
ions -17887
▁라이드 -17888
▁마에다 -17889
▁봉수대 -17890
▁필리스 -17891
ㄷㅡㄴㄱㅏ -17892
▁매니지먼트 -17893
▁ㄷㅓㄴㅈㅣㄴ -17894
ley -17895
▁능하 -17896
▁만연 -17897
▁의왕 -17898
▁이삭 -17899
▁이철 -17900
▁태상 -17901
▁토의 -17902
▁특혜 -17903
▁Tra -17904
▁ㄱㅔㅅ -17905
▁그리드 -17906
▁저지르 -17907
▁지팡이 -17908
▁크레타 -17909
▁포인터 -17910
▁ㄷㅓㄹㅏ -17911
▁무궁화호 -17912
▁ㅎㅏㅂㅊㅕㅅㅓ -17913
코인 -17914
▁낙태 -17915
▁디펜 -17916
▁상해 -17917
▁새해 -17918
▁선서 -17919
▁소탕 -17920
▁육박 -17921
▁재주 -17922
▁종단 -17923
▁출루 -17924
▁군산시 -17925
▁노트북 -17926
▁목포시 -17927
▁분홍색 -17928
▁스와프 -17929
▁시게루 -17930
▁유성구 -17931
▁항소심 -17932
▁서프랑크 -17933
▁천연가스 -17934
▁ㅈㅡㄹㄱㅓㅇㅜㄴ -17935
att -17936
▁고택 -17937
▁광서 -17938
▁기민 -17939
▁동티 -17940
▁분담 -17941
▁수강 -17942
▁진구 -17943
▁펠레 -17944
▁포섭 -17945
▁푸틴 -17946
▁Int -17947
▁대학살 -17948
▁선데이 -17949
▁적절히 -17950
▁평의원 -17951
▁1814 -17952
라나 -17953
▁SG -17954
▁급사 -17955
▁농작 -17956
▁대정 -17957
▁도난 -17958
▁매질 -17959
▁실태 -17960
▁아말 -17961
▁정공 -17962
▁콘셉 -17963
▁토드 -17964
▁Not -17965
▁안티고 -17966
▁트랜싯 -17967
▁ㅇㅏㄹㅏ -17968
▁ㅇㅣㄱㅔ -17969
▁동아프리카 -17970
▁ㄱㅏㅂㅈㅏㄱㅅㅡㄹㅓㄴ -17971
ux -17972
사랑 -17973
▁견지 -17974
▁기교 -17975
▁남궁 -17976
▁니체 -17977
▁로타 -17978
▁마도 -17979
▁성제 -17980
▁수선 -17981
▁안재 -17982
▁정과 -17983
▁정현 -17984
▁테드 -17985
▁헬렌 -17986
▁USA -17987
▁ㅌㅡㅁ -17988
▁모터쇼 -17989
▁쌍방울 -17990
▁평상시 -17991
▁type -17992
▁귤 -17993
당류 -17994
정제 -17995
촌동 -17996
▁문성 -17997
▁벨벳 -17998
▁사악 -17999
▁위배 -18000
▁총살 -18001
▁핑계 -18002
▁전철역 -18003
▁직할시 -18004
▁1300 -18005
▁ㅋㅓㅈㅕ -18006
ㅇㅗㄹㄹㅕㅆ -18007
널목 -18008
실험 -18009
싸움 -18010
자유 -18011
컨드 -18012
테일 -18013
ART -18014
▁궁내 -18015
▁덕수 -18016
▁독실 -18017
▁말소 -18018
▁미자 -18019
▁민가 -18020
▁쓰리 -18021
▁음양 -18022
▁음역 -18023
▁흥덕 -18024
▁IEC -18025
▁MHz -18026
▁건너편 -18027
▁건널목 -18028
▁비올라 -18029
▁High -18030
ㄹㄹㅣㄴㄷㅏ -18031
NT -18032
거성 -18033
재단 -18034
▁Of -18035
▁손쉽 -18036
▁아약 -18037
▁이덕 -18038
▁전집 -18039
▁증직 -18040
▁키아 -18041
▁휴먼 -18042
▁ㄹㅣㄹ -18043
▁겨울철 -18044
▁수도사 -18045
▁충주시 -18046
▁보호구역 -18047
▁산업단지 -18048
▁알베르토 -18049
▁클라이맥스 -18050
▁Google -18051
BN -18052
기둥 -18053
림동 -18054
▁기근 -18055
▁마틸 -18056
▁소치 -18057
▁콤비 -18058
▁War -18059
▁깨달음 -18060
▁달아나 -18061
▁마피아 -18062
▁모조리 -18063
▁미우라 -18064
▁오나라 -18065
▁티무르 -18066
▁평택시 -18067
▁피드백 -18068
▁ㄴㅡㄹㄹㅕㅆ -18069
▁ㄴㅐㄹㅕㅇㅗㄴ -18070
니코 -18071
랭크 -18072
마일 -18073
토쿠 -18074
▁ㅎㅓ -18075
▁바사 -18076
▁버거 -18077
▁부탄 -18078
▁석등 -18079
▁시차 -18080
▁신관 -18081
▁우도 -18082
▁윗면 -18083
▁전액 -18084
▁퍼플 -18085
▁ㅁㅏㅇ -18086
▁거머쥐 -18087
▁광화문 -18088
▁맞대결 -18089
▁성북구 -18090
▁연구실 -18091
▁What -18092
▁암모니아 -18093
▁ㄷㅗㄹㅇㅏㅇㅘㅅㅓ -18094
ㅡㅅ -18095
데냐 -18096
민정 -18097
▁견훤 -18098
▁고갈 -18099
▁미에 -18100
▁비호 -18101
▁살피 -18102
▁유승 -18103
▁전란 -18104
▁주상 -18105
▁헤임 -18106
▁홍천 -18107
씨식물 -18108
▁WHO -18109
▁ㅁㅓㄱ -18110
▁ㅌㅏㄹ -18111
▁니스트 -18112
▁막아내 -18113
▁세컨드 -18114
▁액티브 -18115
▁패트리 -18116
▁프렌즈 -18117
▁플래그 -18118
▁그래미상 -18119
▁사르데냐 -18120
▁석가여래 -18121
▁ㅃㅏㄹㄹㅏ -18122
▁ㅇㅣㄹㅝㅆ -18123
▁ㅇㅓㄹㅕㅇㅜㄹ -18124
▁앳 -18125
▁kW -18126
▁고요 -18127
▁군비 -18128
▁군집 -18129
▁라지 -18130
▁레미 -18131
▁목화 -18132
▁스팅 -18133
▁제보 -18134
▁증원 -18135
▁한정판 -18136
살바도르 -18137
▁1795 -18138
▁부위원장 -18139
▁ㅅㅔㄴㄷㅏ -18140
▁ㅈㅣㄴㅈㅓ -18141
▁ㅋㅣㅇㅝㅆ -18142
▁조선왕조실록 -18143
▁ㅈㅣㄴㅈㅓㅇㅎㅏㄴ -18144
▁규장 -18145
▁바하 -18146
▁보카 -18147
▁열망 -18148
▁예일 -18149
▁완주 -18150
▁캐럴 -18151
▁퀘이 -18152
▁패퇴 -18153
▁헨드 -18154
▁미시간 -18155
▁아약스 -18156
▁혁명군 -18157
▁ㄹㅣㄹㅏ -18158
▁플레이스 -18159
▁ㄴㅐㄹㅕㄱㅏ -18160
회원 -18161
ger -18162
▁FS -18163
▁갈아 -18164
▁공해 -18165
▁군락 -18166
▁도표 -18167
▁수의 -18168
▁스쿠 -18169
▁지층 -18170
정보부 -18171
▁LCK -18172
▁국문학 -18173
▁라쿠텐 -18174
▁성명서 -18175
▁연금술 -18176
▁우승컵 -18177
▁익산시 -18178
▁통신부 -18179
▁플라자 -18180
▁다리우스 -18181
▁토스카나 -18182
▁ㅇㅕㄱㅣㄴㄷㅏ -18183
▁밈 -18184
▁윔 -18185
ㅜㅀ -18186
베인 -18187
스테 -18188
식스 -18189
전차 -18190
▁루지 -18191
▁리츠 -18192
▁발췌 -18193
▁보육 -18194
▁본초 -18195
▁우대 -18196
▁원생 -18197
▁페데 -18198
▁포진 -18199
▁훈족 -18200
▁ㄷㅐㄴ -18201
ㅇㅜ -18202
구멍 -18203
alk -18204
▁PH -18205
▁멘토 -18206
▁스톨 -18207
▁암초 -18208
▁애매 -18209
▁약학 -18210
▁에런 -18211
▁우사 -18212
▁초당 -18213
▁패드 -18214
▁290 -18215
▁TBC -18216
▁ㅁㅝㄴ -18217
▁블루어 -18218
▁주교좌 -18219
▁커티스 -18220
의금부사 -18221
▁With -18222
▁디렉터리 -18223
▁샌드위치 -18224
▁크리스천 -18225
▁ㄷㅏㄹㅡㅁ -18226
퍼트 -18227
▁로동 -18228
▁로어 -18229
▁아난 -18230
▁앨버 -18231
▁켈빈 -18232
▁프록 -18233
▁할양 -18234
▁혼돈 -18235
지스터 -18236
▁MLB -18237
▁관찰자 -18238
▁홉킨스 -18239
▁ㅁㅜㄴㅓㅈㅕㅆ -18240
▁ㅂㅏㄷㅇㅏㄷㅡㄹㅇㅣㄹ -18241
ye -18242
▁렝 -18243
▁RA -18244
▁간지 -18245
▁도정 -18246
▁북상 -18247
▁브람 -18248
▁얼터 -18249
▁총액 -18250
▁코지 -18251
▁쿠리 -18252
ㄷㅏㅇ -18253
▁Dis -18254
▁로렌초 -18255
▁스레드 -18256
▁원정군 -18257
▁재빨리 -18258
▁하모니 -18259
▁ㅁㅗㄹㅡㄹ -18260
▁ㄱㅏㅈㅕㄱㅏㅆ -18261
▁켓 -18262
부미 -18263
yle -18264
▁감기 -18265
▁모식 -18266
▁몬태 -18267
▁보훈 -18268
▁비욘 -18269
▁아랑 -18270
▁아핀 -18271
▁열풍 -18272
▁인대 -18273
▁포교 -18274
디우스 -18275
▁480 -18276
▁ㄸㅜㅀ -18277
▁남조선 -18278
▁리포트 -18279
▁선언문 -18280
▁수마트라 -18281
▁ㅁㅕㄴㅇㅡㄴ -18282
▁ㅇㅗㄹㄹㅏㅇㅗㄴ -18283
▁ㅇㅜㅁㅈㅣㄱㅇㅣㅁ -18284
▁쥘 -18285
건적 -18286
라도 -18287
카라 -18288
▁부녀 -18289
▁실크 -18290
▁아픔 -18291
▁알렌 -18292
▁에린 -18293
▁장준 -18294
▁진하 -18295
▁헬로 -18296
▁850 -18297
▁남해군 -18298
▁대항해 -18299
▁스타즈 -18300
▁에히메 -18301
▁창업자 -18302
▁트루먼 -18303
▁헬싱키 -18304
▁안드레이 -18305
▁트랜지스터 -18306
▁ㄷㅗㄹㅇㅏㄱㅏㄴㄷㅏ -18307
▁괴뢰 -18308
▁당명 -18309
▁매춘 -18310
▁보궐 -18311
▁세베 -18312
▁어쩌 -18313
▁우이 -18314
▁웰스 -18315
▁정일 -18316
▁종친 -18317
▁풍수 -18318
▁함의 -18319
▁238 -18320
▁Art -18321
▁북반구 -18322
▁정확도 -18323
▁창덕궁 -18324
▁합천군 -18325
▁ㅃㅜㄹㅕ -18326
▁아틀레틱 -18327
▁그리스도인 -18328
팽이 -18329
enc -18330
▁김세 -18331
▁니나 -18332
▁반야 -18333
▁선회 -18334
▁숭실 -18335
▁천정 -18336
주니어 -18337
▁ㄸㅐㄹ -18338
▁고조선 -18339
▁바로잡 -18340
▁드레이크 -18341
▁ㅇㅝㄴㅅㅜㄹ -18342
▁관대 -18343
▁그늘 -18344
▁급기 -18345
▁데쓰 -18346
▁미숙 -18347
▁승전 -18348
▁영재 -18349
▁유원 -18350
▁장조 -18351
▁토비 -18352
▁평신 -18353
▁허구 -18354
▁헤지 -18355
플레잉 -18356
▁개최지 -18357
▁보행자 -18358
▁충렬왕 -18359
▁ㄱㅟㅇㅕ -18360
▁가나자와 -18361
▁롤플레잉 -18362
▁ㅈㅜㄹㅇㅕㅆ -18363
레프 -18364
▁광택 -18365
▁덩굴 -18366
▁랜덤 -18367
▁버시 -18368
▁연유 -18369
ㄹㅏㅆ -18370
가하라 -18371
ough -18372
▁빅토리 -18373
▁페테르 -18374
▁프리킥 -18375
▁요시아키 -18376
▁COVID -18377
▁ㄷㅏㄴㅣㄴㄷㅏ -18378
▁ㅈㅜㄴㄷㅏㄱㅗ -18379
▁Di -18380
▁구토 -18381
▁기악 -18382
▁논설 -18383
▁머피 -18384
▁비어 -18385
▁첨부 -18386
▁남반구 -18387
▁보호관 -18388
▁안데르 -18389
▁지방관 -18390
ㅊㅕㅅㅓ -18391
▁Blue -18392
▁프로이트 -18393
▁ㅆㅡㅇㅕㅈㅕㅆ -18394
UI -18395
▁교주 -18396
▁노화 -18397
▁민권 -18398
▁박승 -18399
▁웅진 -18400
▁윈터 -18401
▁장항 -18402
▁정여 -18403
▁직권 -18404
▁팀장 -18405
네소스 -18406
▁돋보이 -18407
▁산체스 -18408
▁수번뇌 -18409
▁타블로 -18410
▁포스코 -18411
▁1793 -18412
▁카테고리 -18413
▁그리스도교 -18414
▁키르기스스탄 -18415
던스 -18416
천국 -18417
▁경이 -18418
▁국지 -18419
▁보츠 -18420
▁서강 -18421
▁소도 -18422
▁옥상 -18423
다람쥐 -18424
▁Rev -18425
▁ㄴㅗㄱ -18426
▁공직자 -18427
▁사이공 -18428
▁스타인 -18429
▁취약점 -18430
▁1846 -18431
▁MPEG -18432
▁사탕수수 -18433
▁이베리아 -18434
▁ㅇㅓㄷㅣㄴ -18435
▁ㅂㅗㅇㅕㅆㅇㅡㄴㅏ -18436
▁뿜 -18437
메트 -18438
블린 -18439
적분 -18440
que -18441
▁각광 -18442
▁골수 -18443
▁구룡 -18444
▁기시 -18445
▁리저 -18446
▁묘법 -18447
▁불평 -18448
▁쇠약 -18449
▁수렵 -18450
▁신구 -18451
▁올랭 -18452
▁율령 -18453
▁이트 -18454
▁정병 -18455
▁천구 -18456
▁효용 -18457
▁ㄹㅜㄴ -18458
▁ㅇㅗㅂ -18459
▁공기업 -18460
▁노르트 -18461
▁문하시 -18462
▁보라색 -18463
▁아산시 -18464
▁아칸소 -18465
▁이완용 -18466
▁페인트 -18467
▁물리학상 -18468
▁브루나이 -18469
▁ㅍㅏㄹㄹㅕ -18470
▁뱌 -18471
ING -18472
OVE -18473
▁ED -18474
▁걸치 -18475
▁구자 -18476
▁권하 -18477
▁대뇌 -18478
▁데메 -18479
▁멜론 -18480
▁미코 -18481
▁서보 -18482
▁설사 -18483
▁용접 -18484
▁차분 -18485
▁쿠릴 -18486
▁하순 -18487
연화경 -18488
웨스트 -18489
▁등록금 -18490
▁유격대 -18491
▁크라스 -18492
▁학생회 -18493
▁1839 -18494
▁에드먼드 -18495
▁자유민주 -18496
▁중앙정보부 -18497
▁ㄴㅡㄲㅣㄴㄷㅏ -18498
26 -18499
ump -18500
▁NX -18501
▁ㅃㅐ -18502
▁갤러 -18503
▁괴멸 -18504
▁국과 -18505
▁남포 -18506
▁니콘 -18507
▁당분 -18508
▁맛있 -18509
▁부딪 -18510
▁역모 -18511
▁오호 -18512
▁월북 -18513
▁직함 -18514
▁페터 -18515
▁손바닥 -18516
▁엉덩이 -18517
▁time -18518
▁하시모토 -18519
▁ㅃㅐㅇㅏㅅㄱㅕㅆ -18520
▁ㅊㅏㅈㅇㅏㅇㅘㅆ -18521
르모 -18522
파스 -18523
▁'. -18524
▁간디 -18525
▁과부 -18526
▁무당 -18527
▁새기 -18528
▁와해 -18529
▁이효 -18530
▁퇴단 -18531
비우스 -18532
슬라브 -18533
시우스 -18534
▁ㄴㅏㅊ -18535
▁배수량 -18536
▁시어터 -18537
▁여객선 -18538
▁중서부 -18539
▁1854 -18540
▁시즈오카현 -18541
▁아오모리현 -18542
나물 -18543
바람 -18544
[...]
