[PAD]
[UNK]
[BOS]
[EOS]
[CLS]
[SEP]
[MASK]
▁▃
▁ㅇ
▁ㅇㅡ
▁ㄷ
▁.
▁ㄱ
▁ㅇㅔ
ㅡㄴ
▁ㅇㅡㄹ
▁ㄴ
▁ㄷㅏ
▁ㅇㅢ
▁ㄴㅡㄴ
▁ㄹ
▁이
▁,
▁하
▁ㅎ
▁ㅇㅣ
ㅏㄴ
▁ㅇㅡㄴ
ㅡㄹ
▁1
ㅅㅓ
▁ㄹㅡㄹ
▁ㅇㅓ
▁ㄱㅗ
▁년
▁ㅎㅏㄴ
▁ㅇㅡㄹㅗ
▁ㅇㅔㅅㅓ
▁2
▁ㄱㅏ
▁있
▁ㄹㅗ
▁되
▁ㅇㅕ
▁대
▁사
▁ㅇㅓㅆ
▁ㅎㅐ
ㅁㅕ
ㄷㅏ
▁그
ㅈㅣ
▁일
▁시
▁ㄱㅘ
▁지
▁들
▁수
▁ㅎㅐㅆ
▁기
▁전
▁적
▁ㅇㅕㅆ
▁ㅇㅘ
▁20
▁ㄷㅗ
▁아
▁ㅇㅣㄴ
▁가
▁월
▁ㅁㅕ
▁제
▁19
▁ㄷㅚ
▁다
▁ㅂ
▁주
▁정
▁중
▁ㅈㅣ
▁자
ㅏㄹ
▁ㄷㅚㄴ
▁공
ㅎㅐ
▁경
▁인
▁ㄱㅣ
ㅓㄴ
▁개
▁것
▁세
▁유
▁3
▁"
▁조
▁부
▁등
▁ㄱㅔ
▁선
▁성
▁스
▁ㅎㅏㄴㄷㅏ
▁미
▁동
▁연
▁보
▁마
▁ㅇㅏ
▁위
▁상
▁소
▁오
▁한
▁고
▁ㅁ
▁영
▁국
▁모
ㄱㅗ
▁구
▁도
▁발
▁비
ㅎㅏㄴ
▁201
▁'
ㅕㅆ
▁여
▁나
▁4
▁서
▁ㅈ
▁후
▁명
▁ㅅ
▁신
▁ㄹㅏ
ㅣㄴ
▁5
▁ㅁㅕㄴ
▁프
▁때
▁관
▁200
▁장
▁-
▁ㄷㅓㄴ
▁방
▁의
ㅜㅌ
▁교
▁만
▁ㅎㅏㄹ
▁ㄲ
▁리
▁문
▁해
▁역
ㅜㅌㅓ
▁차
▁바
▁우
▁무
▁계
▁원
▁현
▁군
▁포
▁노
▁분
▁6
▁ㅇㅡㅁㅕ
ㅏㅈㅣ
▁당
▁또
▁화
▁않
▁남
▁학
▁ㅇㅏㅆ
▁ㄲㅏㅈㅣ
▁작
▁같
▁결
ㄱㅔ
▁출
▁ㅇㅔㄱㅔ
ㅏㄴㅡㄴ
▁파
▁생
▁진
▁내
ㅗㅇ
▁ㄷㅐ
▁강
▁단
▁7
ㅜㄴ
▁받
▁번
▁최
▁10
ㄹㄹ
▁8
▁어
▁반
▁ㄴㅏ
▁호
▁ㄷㅚㄴㄷㅏ
ㅁㅏㄴ
▁회
▁ㅈㅣㅁㅏㄴ
▁거
▁데
▁안
▁형
▁초
▁카
▁실
▁예
▁배
▁에
▁재
▁ㅂㅜㅌㅓ
▁불
▁ㅇㅟ
▁ㄸ
▁말
▁없
▁로
▁두
ㄷㅔ
▁사용
ㅇㅡ
▁9
▁미국
▁타
▁ㄹㅏㄱㅗ
▁종
▁라
▁이후
▁ㄹㅏㄴㅡㄴ
▁요
▁함
▁통
▁설
▁과
▁특
▁ㅁㅏㄴ
▁ㅁㅕㄴㅅㅓ
▁일본
▁ㅌ
▁코
▁ㄴㅡㄴㄷㅔ
▁산
▁운
ㅇㅡㅁㅕ
▁권
▁감
▁독
▁레
▁ㅈㅏ
▁활
▁왕
▁추
민국
▁김
▁베
▁지역
▁음
▁크
▁양
▁대한
▁행
▁199
▁다음
▁더
ㅇㅓ
▁민
▁ㅂㅗ
ㄱㅏ
▁많
ㅓㄹ
▁평
▁12
▁매
▁피
▁입
▁대한민국
ㅈㅣㄴ
▁18
▁간
▁ㄷㅐㅎㅏㄴ
▁참
▁및
▁경기
▁승
▁ㄷㅏㄱㅗ
▁목
▁대학
▁다른
▁;
리아
00
▁프로
▁건
▁총
스트
▁그리
▁ㅇㅟㅎㅐ
▁북
or
▁S
▁알
▁집
ㅓㄴㅏ
▁11
▁법
▁때문
▁시작
▁각
▁체
▁ㅇㅣㄹ
▁천
▁트
▁외
▁직
▁임
▁드
▁표
▁ㅋ
ㄴㅡㄴ
▁변
▁토
▁사람
▁&
▁본
▁그러
▁함께
▁처
▁A
▁또한
▁물
▁속
▁점
▁팀
▁메
▁ㅊ
▁박
▁투
▁선수
▁한국
▁항
▁ㄸㅏㄹ
▁청
▁브
▁)
▁세계
▁영화
▁사이
▁저
ㅈㅕ
▁광
▁자신
la
ㄹㅕ
▁ㅇㅗ
▁게
▁C
▁M
▁경우
▁ㅅㅣ
▁달
▁용
▁태
▁판
▁f
▁약
▁디
▁T
▁축
▁현재
▁기록
▁F
▁복
▁야
▁하나
▁국가
시아
▁존
▁198
▁이름
▁ㄷㅏㄴㅡㄴ
▁당시
▁편
▁가장
▁확
▁위치
▁네
▁삼
▁_
▁ㅇㅏㄹ
▁열
▁ㄸㅏㄹㅏ
▁ㅈㅣㄴ
▁활동
▁조선
▁테
▁학교
▁가지
▁철
주의
▁리그
▁그러나
▁버
▁필
▁(
▁15
▁ㅌㅗㅇ
▁올
▁ㅇㅣㄴㅏ
ㅈㅕㅆ
▁for
▁금
▁페
▁뒤
▁증
ㅣㄴㄷㅏ
▁째
mu
▁루
▁플
▁백
▁ㅅㅓ
▁창
mula
▁ㅇㅢㅎㅐ
▁언
▁formula
ㅣㄹ
▁16
▁식
▁대표
레이
▁연구
▁치
▁병
▁근
▁또는
ㅇㅡㄴ
▁프랑
ㅂㅜㅌㅓ
▁ㅌㅗㅇㅎㅐ
▁심
▁그리고
▁/
▁합
▁황
▁사회
ㅇㅡㄴㅏ
▁m
▁규
▁0
▁살
▁애
▁D
▁충
▁17
ㅇㅑ
▁시즌
ㅜㄹ
▁첫
▁]
▁따
▁순
▁[
▁197
ㅐㅇ
▁B
ㅗㄱ
▁완
▁ㅆ
▁히
랜드
▁아니
▁ㄷㅗㄹ
▁ㅅㅣㅋ
▁중국
▁다시
▁협
▁서울
▁클
▁정부
▁프랑스
ㅇㅜㄴ
학교
▁영국
▁K
▁I
▁패
▁:
▁시대
▁높
▁ㄷㅐㅎㅐ
▁ㅎㅏ
▁만들
▁k
▁포함
▁여러
▁도시
▁뜻
▁196
▁은
▁전쟁
▁14
▁채
ㅎㅐㅆ
▁독일
▁ㅇㅡㄴㅏ
▁ㄹㅗㅅㅓ
▁아이
▁키
ㅐㄹ
er
▁문화
▁대회
▁ㄴㅡㄴㄷㅏ
▁~
▁g
▁ㄷㅏㄱㅏ
▁13
▁축구
▁면
ㅊㅕ
▁ㅂㅏ
▁위원
▁ㅋㅡㄴ
▁가능
▁모두
▁P
▁동안
▁뉴
▁ㅂㅗㅇ
in
▁모든
ㅜㄹㄹ
▁이상
▁ㅂㅗㄷㅏ
▁곡
▁감독
▁정치
▁194
▁환
▁별
▁쓰
▁일부
▁손
▁방송
▁친
▁l
▁석
▁문제
▁길
▁대학교
▁처음
▁개발
▁ㅇㅏㄹㄹㅕ
▁지방
▁L
▁ㅁㅗ
▁ㅇㅟㅎㅏㄴ
▁허
▁제작
▁취
▁%
▁구성
ㅇㅘ
▁죽
▁검
▁ㅍ
ㅇㅏ
▁국제
▁ㅇㅕㅆㅇㅡㅁㅕ
▁러
▁배우
▁농
▁ㄷㅚㄹ
라이
▁사건
▁니
▁골
ㄱㅕ
ㅓㅁ
ㅇㅝ
▁세기
▁시간
▁새
▁이용
▁캐
▁일반
▁논
▁씨
▁존재
▁G
▁작품
▁게임
▁정도
▁운동
▁폭
▁주장
▁역사
▁gt
▁곳
▁N
▁급
▁관계
▁즉
니아
▁인구
on
▁티
▁195
▁교육
▁음악
▁ㄷㅡㄹ
▁효
▁km
▁ㄱㅓㄴㅏ
▁ㅎㅏㅁ
▁중심
▁lt
리스
▁섬
▁육
▁ㄹㅕ
▁이러
▁돌
▁U
▁ㄷㅙ
▁30
▁쿠
▁R
▁극
ㅐㅆ
▁ㅎㅐㅆㅇㅡㅁㅕ
▁ㅁㅏ
▁선거
▁경제
▁날
부분
▁블
통령
▁발견
▁귀
▁전투
이스
▁절
▁H
ㅐㄴ
▁민주
▁ㅂㅗㄴ
▁맡
화국
▁발표
▁ㄱㅓ
▁글
▁E
▁홍
▁측
ㅏㅆ
▁기술
ㅓㄴㅏㅆ
▁올림
▁암
▁아들
▁ㄷㅗㄹㅗㄱ
▁밀
▁시키
▁우승
▁터
▁책
▁막
▁ㄹㅗㅂㅜㅌㅓ
▁2010
▁공격
ㅇㅕ
▁엔
▁대통령
▁대부분
▁영향
▁올림픽
▁사망
an
ㄷㅏㄴㅡㄴ
▁케
▁결과
000
▁슈
▁송
▁질
▁라이
▁지원
▁향
▁앨
▁잘
▁프로그
▁ㅇㅗㄹㄹ
▁ㅁㅗㅅ
리카
▁담
▁193
▁과정
▁접
▁발생
▁의미
▁끝
ㅆㅓ
ㄷㅗ
▁관련
▁참여
▁중앙
▁유럽
▁헤
▁봉
▁업
▁앞
▁최초
▁c
ㅗㄴ
란드
▁진행
▁얻
20
▁준
▁25
ㅗㅇㅜㄴ
▁고등
▁부분
▁독립
▁자유
▁특히
▁범
▁결정
지만
▁제국
▁ㄷㅙㅆ
▁구조
▁다양
▁ㅅㅔ
▁설립
▁못
▁설치
버지
ㅁㅕㄴ
▁초등
나라
▁형태
▁폐
▁상태
▁ㅇㅓㅅㅓ
▁ㅌㅐㅇ
▁탄
▁W
▁발매
▁소속
▁탈
▁온
▁좌
▁러시아
▁2008
▁누
▁악
▁ㅇㅡㅁ
▁이전
▁잡
▁ㅅㅐㄹ
▁사실
▁하지만
▁21
▁침
ㅓㅆ
▁그녀
우스
▁센
▁ㅅㅐㄹㅗㅇㅜㄴ
▁스타
▁르
▁ㅇㅣㄴㅎㅐ
디오
▁같이
▁로마
▁폴
▁ㅇㅡㄹㅗㅅㅓ
▁여성
▁갖
▁인민
▁맞
▁주로
▁프로그램
▁나라
▁생각
▁타이
▁ㅃ
▁필요
▁ㅇㅕㄹㄹ
▁2012
▁2011
▁출신
▁참가
▁싱
▁이탈
▁혼
▁이것
▁관리
▁조직
ㅓㄴㅏㄴ
▁기준
▁100
▁머
▁좋
▁운영
▁위원회
en
▁2009
ㅇㅓㅈㅣㄴ
▁중요
▁여자
▁윤
▁생산
▁2007
▁계획
▁기관
▁2014
▁t
▁행정
▁등장
▁상대
▁정보
▁음반
▁이루
▁계속
▁성공
▁바이
▁지정
▁a
▁데이
▁매우
▁국민
▁콘
▁데뷔
▁ㅎㅐㅅㅓ
▁2013
▁해당
▁O
he
▁갈
▁레이
▁철도
▁아버지
▁과학
▁칼
▁고려
▁팔
스터
▁ㅂㅜㄹㄹ
▁대전
▁이탈리아
리즈
▁발전
▁몇
▁주요
프트
르크
▁자리
▁따르
▁191
▁사업
▁시스
▁와
▁23
▁24
▁묘
ㅡㄹㅗ
▁커
▁000
ar
▁2015
▁차지
▁ㅊㅓㄹ
▁방법
▁ㅊㅓㄹㅓㅁ
남도
▁2018
▁억
▁헌
▁보이
라마
▁월드
▁앨범
▁2016
레스
▁그룹
▁최고
▁쇼
▁인도
▁ㅇㅑ
▁줄
▁결국
▁능
▁마이
▁후보
ㄺㅎ
▁출연
▁아래
▁시리즈
이션
▁엘
▁J
▁전체
▁생활
es
▁고등학교
▁22
ㅇㅗㄴ
▁회사
▁2006
▁한편
▁이유
이트
▁ㅈㅕㅆ
▁내용
▁그리스
FA
▁192
비아
▁층
▁우리
▁ㅇㅕㅆㅇㅡㄴㅏ
▁격
▁제공
▁연합
▁스페
▁방식
▁인간
▁의원
▁2017
▁ㅂㅏㄺㅎ
▁공식
▁풍
운데
▁많이
▁인터
▁항공
▁못하
▁시기
▁ㅂㅓㄹ
▁컴
▁역할
▁몸
▁가운데
▁드라마
▁군사
▁시스템
ㅏㄴㄷㅏ
▁얼
▁조사
▁초기
▁워
▁빌
▁출전
▁유명
▁ㄹㅏㄴ
▁거의
▁기업
▁반대
▁제도
▁민족
ㅇㅘㅆ
▁ㅂㅗㄹ
▁ㄷㅡㄹㅇㅓ
▁s
▁교회
ㄴㅎㅏㄴ
▁지구
▁ㅇㅡㄹㅗㅆㅓ
▁텔
▁수상
▁대신
▁ㄱㅓㄹ
▁유지
비스
▁평가
▁색
▁표현
▁분류
▁ㅇㅡㄹㅗㅂㅜㅌㅓ
▁ㅎㅐㅇㅑ
▁잠
▁26
▁홈
▁!
▁대상
▁특별
▁동시
▁언어
ㅌㅏㄴ
▁기능
▁현대
▁규모
at
▁이르
▁공개
▁프리
ㅡㄴㄷㅏ
▁모습
▁ㄴㅏㅌㅏㄴ
▁28
▁류
▁이미
▁자연
▁노동
▁ㅇㅏㄴ
ㅜㄴㄷㅏ
▁각각
▁연결
야기
▁마지
▁개인
▁승리
▁27
▁이론
▁녹
▁졸
▁2019
▁인정
▁단체
▁여기
▁응
▁지도
▁진출
ㅇㅎㅏㄴ
▁브라
ㄴㅣ
▁ㅅㅣㅋㅕㅆ
북도
▁임명
▁ㄱㅡㄹ
▁웨
ㅊㅕㅆ
▁핵
▁마지막
▁2005
▁ㄱㅏㅈㅣㄴ
▁V
▁2000
▁시장
ㄱㅏㅆ
▁울
ㄷㅡㄹ
▁목적
머니
▁시절
▁수도
▁아르
▁전문
▁ㅇㅏㄹㄹㅕㅈㅕ
▁정의
▁상황
▁경상
▁정책
▁난
▁목록
▁기간
어지
▁족
▁희
▁직접
▁ㄴㅐ
▁ㅇㅘㅆ
▁산업
ic
ㅂㄴㅣ
▁이야기
al
▁서로
스크
▁야구
▁압
▁계약
▁ㅎㅐㅆㅇㅡㄴㅏ
▁오스트
▁불리
ㄱㅕㅆ
▁힘
▁혁
▁밴
▁ㅇㅕㄹㄹㅣㄴ
▁기원
▁ㅇㅣㄹㅇ
▁추가
▁건설
BS
▁공동
▁모델
▁2004
▁개최
▁콜
▁눈
▁샤
▁FC
▁건물
▁먹
▁플레이
▁공간
▁경찰
▁형성
▁50
▁활약
▁찾
▁푸
▁결혼
▁스페인
▁ㄱㅏㄹ
▁부산
▁자동
▁ㅌㅐㅇㅓㄴㅏㅆ
▁ㄱㅘㄴㅎㅏㄴ
▁31
▁훈
ㅇㅣㄴ
ㅂㄴㅣㄷㅏ
▁넘
▁ㅂㅗㅇㅕ
▁29
학자
▁졸업
▁변화
▁거리
▁노래
▁사상
▁칸
▁교수
▁변경
▁b
▁국회
▁TV
▁뿐
▁ㅇㅡㅁㅕㄴ
▁의하
▁그것
▁인물
ㅇㅕㅆ
▁ㄴㅏㄴ
is
▁나이
▁마을
▁완전
re
it
▁공화국
▁텔레
▁ㅅㅔㅇㅝ
▁벨
▁너
▁궁
▁ㄴㅣ
▁부르
▁ㄸㅓㄹ
▁비롯
▁190
ㅇㅓㅈㅕ
▁퍼
▁사랑
▁망
▁노선
▁역시
▁인민공
ㄷㅡㄴ
▁인민공화국
▁휴
이드
비전
▁둘
▁2020
▁학생
▁ㅂㅣ
▁중학교
어나
ou
▁맥
▁보통
▁실제
▁최대
ㅎㅏㄴㄷㅏ
▁서비스
▁요구
▁볼
▁지금
▁잉
▁탑
▁속하
▁보호
대로
▁전국
▁슬
▁낮
ㅇㅎㅐ
프리카
▁나타
▁소설
▁의회
▁지지
▁ㄱㅔㅆ
▁우주
▁중화
▁ㅈㅓ
▁ㄱㅓㅊㅕ
▁메이
▁실시
▁없이
▁지하
▁기본
르트
▁혹
▁황제
역시
▁자기
▁판매
운드
▁가수
▁ㄱㅜ
▁다이
▁전통
▁싱글
▁비판
▁달리
▁밴드
▁원래
▁옥
▁따라
▁기반
▁ㅎㅏㄴㄷㅏㄴㅡㄴ
ㅈㅏ
▁퇴
▁론
▁종교
▁ㅇㅗㄴ
▁2002
▁차이
▁어떤
▁견
▁경기도
▁세력
▁위하
▁딸
로스
▁40
▁탐
▁ㅇㅣㄹㅜ
▁ㄷㅗㄹㅇㅏ
▁ㅁㅗㅅㅎㅐㅆ
▁자료
▁소련
스탄
▁겸
▁수행
▁몰
▁환경
▁2003
▁기타
▁회의
ㄹㄹㅕ
▁ㅇㅏㄴㅣㄴ
▁센터
▁모양
▁전기
▁월드컵
▁운행
▁시설
▁부대
▁도쿄
▁밖
▁전자
나다
▁특징
▁ㄷㅐㅎㅐㅅㅓ
러스
▁공연
▁그래
▁교황
▁기념
▁컵
▁승강
▁나오
▁뮤
▁분야
▁명칭
▁놓
▁설명
▁예술
▁기독
le
▁이동
▁통합
▁ㅈㅓㄴ
▁텔레비전
▁작업
mp
▁연방
▁남자
▁도입
▁동물
▁염
ㅊㅣㄴ
▁득
▁구역
▁행동
▁따라서
▁선정
▁전라
▁애니
▁ㅇㅢㅎㅏㄴ
▁바로
▁군대
▁벌
스타
▁능력
▁ㄱㅓㄴ
▁작용
▁남쪽
▁가족
▁출시
▁소프트
▁숙
ㄲㅏ
▁할
▁방향
▁증가
▁북쪽
▁확인
▁기존
▁지휘
너지
▁행위
▁제외
▁문학
▁=
▁교통
▁이때
▁차량
▁기독교
▁ㅅㅏㄹ
의원
▁작가
▁비슷
▁사고
▁클럽
▁형식
▁ㅁㅡㄹㅗ
▁국내
ㅇㅎㅐㅆ
▁십
▁윌
▁어머니
▁혁명
▁도로
ㅣㅁ
▁작곡
▁빈
▁효과
▁역임
▁태양
▁승강장
▁낙
▁몽
▁캐나다
▁왕국
▁유일
▁컴퓨
▁FI
▁과거
▁열차
ㅡㅁ
▁사무
▁챔
▁이적
▁ㅎㅏㄴㄷㅏㄱㅗ
▁착
BC
▁ㅂㅜㄹ
▁협회
▁높이
▁혹은
▁남부
리오
▁ㅆㅡ
▁ㅈㅜ
▁ㄴㅗ
ㄱㅣㄴ
▁추정
▁비교
▁뉴욕
▁솔
▁지배
▁공산
▁흥
▁정당
자리
▁담당
▁ㅅㅗㄱ
▁육군
▁ㄷㅏㄹ
▁넓
▁이사
▁시민
▁이끌
▁동일
▁흐
▁주변
▁획
▁베이
▁런
▁1990
▁2001
▁동쪽
▁적용
▁인기
▁장관
▁즈
▁홀
▁대사
ㅜㅁ
▁ㅁㅗㅇ
▁스포
▁스트
▁챔피
▁X
▁ㅅㅣㅋㅕ
▁세포
▁윈
▁쪽
▁건축
▁예정
▁공사
▁사단
▁p
▁데이터
▁갑
▁구간
▁개념
▁성장
▁곧
▁상당
▁컴퓨터
▁마음
▁오늘
▁조지
▁차례
▁징
▁크기
▁품
▁서쪽
▁189
▁에너지
▁마르
▁버스
▁돈
▁멤
▁대하
▁맨
▁흑
▁충청
▁넣
▁ㅁㅏㄴㄷㅡㄴ
이지
ㄴㅏㄴ
▁록
▁액
▁엄
▁작전
▁땅
▁민주주의
▁자체
▁조건
▁다르
ㅇㅡㅋ
▁실패
▁어느
▁나가
▁디자
▁잔
▁연기
▁율
▁반응
▁이런
▁덕
▁선언
▁FIFA
▁이어
▁d
▁ㅁㅏㄷㅏ
▁ㅇㅟㅎㅐㅅㅓ
▁연주
▁버전
▁종류
▁부족
▁특정
▁컨
▁애니메
▁페르
▁피해
▁국립
▁연속
▁방영
드리
카이
▁쌍
▁대체
▁선택
el
▁공항
▁규정
▁해군
▁대구
▁고대
et
▁ㄹㅓ
가지
ㄹㅣㄴ
▁내부
▁체제
▁ㅈㅣㄴㅐㅆ
버스
▁멤버
▁조약
▁북부
▁속도
▁결승
▁수록
루스
▁기원전
▁정신
▁아시아
▁연대
▁명령
▁선출
▁들어
▁헌법
글랜드
▁애니메이션
▁ㄴㅡㄴㅈㅣ
▁왜
▁크리스
▁ㅂㅏㄺㅎㅕㅆ
▁인천
거리
▁포르
▁풀
▁옛
▁ㅇㅗㄻ
▁가치
▁개혁
▁단계
ion
▁ㄱㅓㄹㅊㅕ
▁영어
웨어
▁최종
▁ㅇㅣㄹㅇㅡㅋ
▁물질
ㅓㅇㅜㄴ
▁친구
▁자치
ing
▁달러
ㅈㅣㄴㄷㅏ
ㅈㅊ
▁설계
▁최근
▁분석
▁척
▁밤
▁ㅅㅐㅇ
▁의사
▁출판
▁비행
트남
▁강화
▁평균
▁ㅇㅔㄴ
시마
▁1999
▁지명
▁더욱
▁ㅂㅏㄲ
▁로스
▁물리
▁체계
▁소비
▁ㅂㅗㅇㅣㄴㄷㅏ
ol
▁술
라스
▁표준
▁걸
▁배치
▁법원
▁1998
▁잉글랜드
메리카
▁집단
▁쥐
널리
▁익
▁머리
▁치료
▁Y
▁북한
▁팬
▁관심
▁언급
▁씩
▁cm
▁개월
▁획득
▁부문
21
▁o
▁ㅊㅣㄹ
▁하이
▁뛰
▁헬
▁분리
ㅂㅎ
▁함수
▁현상
▁하계
▁먼
▁지속
▁1980
▁유사
▁부상
▁엔진
▁공원
▁실험
▁파리
▁조정
▁벤
▁60
▁당하
렇게
▁스테
▁처리
▁선발
▁스포츠
▁확장
스코
▁베르
▁제품
리지
▁대중
▁입단
▁관할
▁35
▁챔피언
▁흔
▁ㅈㅜㄹ
▁마리
▁맺
▁가리
▁공립
▁겨
▁소유
▁ㅇㅓㅇㅑ
▁통일
▁ㄱㅣㄴ
▁목표
▁시도
▁장군
▁도움
▁요소
▁재판
▁칭
▁문자
▁이해
▁자동차
▁주도
디어
▁에스
▁요시
▁정규
▁mm
▁외국
▁점령
▁거주
▁구단
▁후반
▁나무
▁꽃
▁ㄱㅗㅈㅏ
ㅇㅔ
ㅇㅓㅈㅕㅆ
▁주인
▁지나
▁기사
▁시험
▁편성
▁원자
▁네덜
▁네덜란드
▁ㅇㅣㅁ
▁주민
▁학자
▁n
▁행사
▁ㄹㅕㄱㅗ
광역시
▁앤
▁통신
▁사령
▁동맹
▁결합
▁일종
▁파이
▁안정
▁혈
▁투표
▁붙
▁웹
▁고속
▁알렉
▁수준
▁느
▁불교
▁예선
▁ㄷㅔ
om
▁앙
▁길이
▁장치
▁개봉
▁언론
야마
나무
▁깊
▁아프리카
젝트
▁불구
▁1997
▁디자인
▁본선
▁문서
▁준비
▁광주
▁촉
ㅈㅣㄹ
일랜드
▁방문
▁베트남
▁사진
▁캠
▁바르
▁신문
▁싸
▁책임
▁ㅂㅣㅎㅐ
ㅝㅆ
▁휘
▁가문
▁ㄱㅏㅆ
▁ㄲㅡ
▁칠
메달
▁유전
▁정권
▁ㅇㅣㄴㄷㅔ
st
▁가정
▁정확
▁ㄴㅐㄹ
▁구분
▁폴란드
▁1996
▁제조
▁경험
▁The
ㅇㅓㅆ
▁그림
▁성적
▁1995
▁요리
▁ㅇㅗㄹㄹㅏㅆ
▁믿
▁비디오
▁핀
▁평화
▁용어
▁amp
▁오늘날
▁부인
▁ㅇㅏㄹㄹㅕㅈㅣㄴ
▁정리
▁원인
▁통과
▁32
▁부여
▁밝
▁70
▁일제
▁ㅁㅓㄴ
▁ㄴㅏㅁ
▁왕조
▁프로젝트
특별
▁아마
▁아직
▁거두
▁ㄷㅏㅁㅕㄴ
▁추진
▁런던
▁찬
▁ㄹㅕㄴㅡㄴ
▁덴
▁병원
▁빠
▁쉽
스로
▁이곳
▁방어
▁은퇴
▁종합
▁신라
▁프레
스턴
▁빛
인트
▁해석
▁슈퍼
▁멸
▁ㅅㅡ
▁500
▁통치
▁영역
▁폐지
▁이듬
▁경쟁
▁몬
▁인터넷
▁널리
▁입장
▁경영
▁움
웨이
▁훈련
▁미사
▁발달
▁노력
▁ㅍㅕ
▁보도
▁제주
▁the
▁츠
▁파괴
▁총리
▁면적
▁제안
레일
am
▁일어나
▁주연
▁주제
▁멀
▁기여
▁부정
▁80
▁회장
▁만화
▁미술
▁유래
▁서부
▁민주당
▁번호
▁오르
ㅎㅏㄹ
▁이듬해
▁도서
▁야마
▁188
▁경기장
▁완전히
▁국회의원
▁값
리트
▁그런
▁생물
▁ㅇㅕㄱㅕ
▁남성
▁연맹
▁UE
▁빅
▁식민
▁ㄴㅏㅇㅗㄴ
▁요청
▁습
▁자주
라인
▁동부
▁경계
▁투수
▁잃
▁ㅂㅜㅌ
▁궤
▁정상
▁법률
▁+
▁폰
il
▁1994
▁행성
▁1970
▁UEFA
▁무기
▁금지
▁수용
▁소재
▁등록
▁삼성
톨릭
▁인식
▁연구소
▁제한
ac
▁바탕
▁괴
▁링
▁라디오
▁무대
▁지진
▁영토
▁철학
▁강원
▁외교
머지
▁ㅇㅣㄹㅇㅓㄴㅏㄴ
▁발사
▁박물
▁아시
▁나머지
▁노르
▁접근
▁반면
▁지대
▁KBS
ㅏㄱㅗ
▁스스로
▁업무
▁거부
▁린
▁더불
▁표기
▁뉴스
▁뇌
▁정식
▁조각
▁마찬
▁마찬가지
▁아일랜드
ㅣㅋ
▁오스
▁결성
▁벽
▁서식
▁오래
▁필리
▁ㄷㅏㅇㅎㅐㅆ
▁상호
▁1992
▁은행
▁펜
ㄴㄷㅏ
▁ㄹㅜ
▁다수
▁ㄱㅏㄲㅏ
요일
▁기초
▁가톨릭
▁공작
▁45
▁논란
▁아카
▁보수
▁의식
▁복귀
ㄹㅗ
▁박사
ro
임스
▁득점
▁주의
▁스웨
▁임시
▁트리
▁성격
▁수학
시코
▁다리
▁바다
▁장애
▁36
▁ㅈㅓㄴㅎㅐ
▁꼬
▁of
ed
모토
▁짧
▁윌리
▁지도자
▁ㄹㅗㅆㅓ
▁해결
▁그대로
▁실제로
▁장소
▁브라질
▁소리
▁초대
▁총선
▁검사
워드
▁박물관
▁유로
▁이스
▁마이크
▁ㅋㅓ
▁스위
▁패배
▁여행
▁긴
▁바뀌
▁ㅇㅗㄹㄹㅏ
▁ㅅㅡㄹ
▁카드
▁강력
▁ㄸㅟ
▁표시
▁여름
아가
▁차원
▁식물
▁집합
▁묘사
▁화학
▁오브
▁기구
ㅗㄹ
▁제시
▁ㅅㅡㅂㄴㅣㄷㅏ
▁1960
▁계열
ig
▁이외
▁관측
▁인사
▁단순
▁연극
▁차트
▁에이
▁쓰이
▁안전
▁1991
▁유니
토리
▁스웨덴
▁활용
로나
▁무역
▁권력
▁ㅊㅏ
▁멕
▁디지
▁파일
▁회원
▁오스트리아
▁곤
▁ㄱㅏㄹㅣㅋ
▁개국
▁잇
▁히로
▁ㄲㅡㅌ
부르크
▁기계
▁형제
▁1993
▁근처
레일리아
▁33
▁캐릭
▁먼저
▁보다
▁ㅂㅏㄺㅎㅕ
▁반란
▁조성
▁지적
▁소프트웨어
▁중간
▁붕
▁분포
트리
▁아무
▁중단
▁흡
배우
▁위험
베이
▁세대
▁발행
▁일정
▁시행
ㅐㄴㄷㅏ
▁도착
ㅏㄹㅡㄴ
▁ㄷㅡㄴ
트로
▁스코
▁기자
▁량
▁스튜
▁협력
특별시
▁ㅁㅏㄴㄴ
▁여객
od
버트
▁서울특별시
▁사이트
사카
▁윈도
▁다만
▁단어
▁캐릭터
▁하루
▁해안
주시
▁186
▁ㅁㅣ
▁나타나
▁지하철
▁죽음
▁",
ㅇㅣㄴㄷㅏ
▁렌
ve
니스
▁파견
워크
▁수많
▁세상
▁ㅊㅣ
▁연장
▁코드
▁ㅈㅣㄴㅏㄴ
▁통하
as
▁혜
▁순위
▁내각
▁다카
▁전시
▁오스트레일리아
▁공장
▁본부
▁투자
▁경상남도
나이
▁겪
▁후기
▁삶
지션
▁감소
▁혐
▁생성
▁번역
▁카이
▁케이
▁죄
▁근거
▁ㅉ
소년
▁뮤직
▁윌리엄
▁제기
▁경상북도
▁확대
▁옹
▁네트
▁지상
▁귀족
▁보유
▁떠
▁유형
▁보존
▁지식
▁태평
▁양식
▁나타내
▁?
▁관광
▁균
▁ㄷㅜ
▁위기
무원
▁바꾸
▁1988
▁동생
▁멜
▁달성
▁ㅅㅔㅇㅝㅆ
▁상징
▁ㄸㅓㄹㅇㅓㅈㅣㄴ
▁187
▁ㅆㅏ
▁유대
▁촬
▁ㅋㅔ
▁전략
▁ㅇㅣㄴㅈㅣ
▁멕시코
▁극장
▁캘
▁수사
▁ㅁㅜ
▁h
▁원소
▁상업
▁당선
▁촌
▁유리
▁완성
▁디지털
▁성립
▁근무
▁ㄴㅐㄹㅕ
▁영상
▁학위
▁대응
▁굴
▁단위
▁특수
▁34
▁이렇게
▁계승
▁ㄸㅏㄹㅡㄴ
ㄱㅏㄴ
▁체포
▁촬영
▁옆
▁이슬
티아
▁ㅂㅗㅇㅕㅆ
▁님
▁올리
▁나중
▁몇몇
▁수비
▁체결
▁식민지
▁38
▁ㅇㅣㄹㅜㅇㅓㅈㅣㄴ
▁코치
▁그렇
▁권리
▁ㅇㅓㄹㅕ
id
▁마사
▁전달
회사
▁이집
▁이집트
▁보내
▁ㅆㅡㄴ
▁알렉산
▁ㅇㅏㅍ
▁생명
가리
▁듀
▁90
▁국왕
▁종목
가와
아시아
▁ㅇㅡㅁㅡㄹㅗ
▁시티
ㄹㅕㅆ
▁판단
▁아내
▁직후
▁미래
▁승격
▁맹
▁톤
▁타이틀
▁헨
▁1989
▁이주
▁크로
ㄹㅏ
▁관찰
모리
▁ㅁㅗㅅㅎㅏㄴ
▁주식
▁시청
▁률
▁도서관
▁대륙
▁측정
▁개통
▁미군
▁2021
▁소수
▁젊
▁싶
▁48
▁ㅇㅣㄹㅏㄱㅗ
ec
▁다루
▁깨
▁동계
▁자본
▁밑
▁낳
▁ㅈㅜㄴ
▁채널
▁엘리
us
▁전환
▁발매되
▁세르
▁홍콩
▁설정
▁스키
▁정치인
▁문화재
▁라인
ㅇㅝㅆ
NA
▁ㅇㅗㄹ
▁ㄷㅐㄹㅗ
▁특성
and
▁포르투
▁개정
▁새로
▁얼마
▁',
▁납
▁텍
▁시위
▁의견
▁미사일
▁종료
▁신경
▁ㄴㅡㄹ
▁ㄴㅓㅁ
▁취임
▁ㅂㅜㄹㅡㄴㄷㅏ
▁제정
▁지위
▁1950
▁기획
▁|
▁300
▁후쿠
▁ㄱㅏㄹㅣㅋㅣㄴㄷㅏ
▁본관
▁결승전
▁은하
▁ㅇㅏㅅㅓ
▁천황
▁사회주의
▁ㅈㅏㄹ
▁교체
▁청년
▁ㄸㅟㅇ
▁전차
디아
스티
▁MBC
코드
▁주인공
▁헝
▁범죄
▁아키
▁출생
ad
▁e
▁제임스
▁예수
▁주목
▁셀
▁충돌
▁해외
▁ㅃㅜㄴ
▁전라남도
▁소개
▁수정
ㅓㅅ
▁계산
▁춘
▁녹음
▁장기
교회
▁ㄱㅏㅇㅎㅏㄴ
▁바이러스
▁스티
▁비용
▁1945
▁즉위
▁개선
▁본래
▁음식
▁남북
전히
▁소장
▁자격
▁비밀
▁카운
리학
▁공부
▁합류
▁건강
▁ㅂㅗㄴㅐㅆ
ent
▁ㅈㅕ
▁계기
▁공급
▁ㅎㅑ
▁이래
▁ㅇㅓㄹㅣㄴ
▁부모
▁펠
▁네트워크
▁배경
▁만드
스카
▁체육
▁궤도
▁에드
▁늘
▁제거
▁시내
▁인근
50
▁ㅇㅗㄻㄱㅕ
▁홈런
▁원정
▁셰
▁컬
▁작성
▁각종
▁오후
▁거대
▁ㅇㅡㅁㅕㄴㅅㅓ
▁물론
▁공군
▁감염
▁명예
▁자원
▁신학
▁ㅅㅏ
▁입학
▁ㅁㅏㅈ
▁집중
▁왼
▁가리키
▁가입
▁듣
▁ㅅㅣㅋㅣㄴ
▁국경
▁피아
▁군인
▁가격
▁베네
▁객
▁성우
▁전사
▁천문
▁ㄱㅏㅈㅊ
▁ㅆㅓㅆ
베르
▁병력
▁나누
▁명단
▁통제
▁저항
▁울산
▁포지션
▁이슬람
티나
▁강조
▁끌
ㅓㅇ
▁ㄱㅏㄲㅏㅇㅜㄴ
니어
▁농업
▁신호
▁측면
▁찰
피아
▁소송
리포
▁기후
▁인수
▁질량
▁만약
▁ㄷㅡ
▁St
▁학문
▁ㅁㅔ
▁실행
▁블랙
▁세이
▁ㅇㅣㄹㅜㅇㅓㅈㅕ
▁병사
▁터미
▁플로
▁마치
▁움직
▁콩
ㄷㅇㅏ
▁터키
ot
▁오른
도로
▁강원도
ㅇㅣ
▁너무
▁기회
▁겨울
▁최소
▁약간
▁정착
▁증명
▁변호
▁x
▁비트
▁엑
ㅎㅕ
▁이번
▁ㄱㅏㅈㅕ
ㄱㅏㄴㄷㅏ
▁읽
▁잎
▁미디어
▁무장
▁노동자
▁광고
동안
▁외부
un
▁환자
▁해방
▁ㅍㅕㄹ
▁아우
▁몽골
ow
▁37
▁in
▁국방
▁다니
▁편집
▁마쓰
▁마리아
▁제목
▁ㄱㅏㅈㅕㅆ
▁터미널
철도
▁ㄷㅏㄹㄹ
▁들어가
▁놀
▁태평양
스키
▁무렵
▁지점
▁ㄴㅏㅇㅘㅆ
▁냉
▁전반
▁표면
▁도중
▁밀도
▁금융
▁라운드
▁ㅇㅣㄴㅎㅏㄴ
▁마련
▁혐의
▁바람
▁허용
▁유도
▁1987
오카
▁가스
▁카르
▁충분
▁그해
▁만나
▁힐
▁짓
▁재산
▁학년
소리
▁여전히
▁쇠
▁합병
▁인디
▁루이
▁윈도우
▁갖추
▁충청남도
▁래
▁전력
▁오사카
▁민간
▁가르
▁재직
▁꼬리
▁고전
▁모리
▁숲
▁포르투갈
▁영화배우
▁전역
▁양성
▁w
▁등급
▁현실
▁뒷
마크
▁헝가리
▁킹
▁선수단
▁41
ㅜㄹㄹㅓㅆ
▁령
▁붕괴
드로
▁재정
▁라이브
▁지내
▁계급
▁51
▁1986
▁공주
▁동료
▁공공
▁1984
▁보고
ur
▁강제
▁적극
▁엔터
▁이하
▁위원장
▁캘리포
▁스튜디오
▁승인
▁봄
▁대대
▁인하
▁전선
▁털
▁위협
▁군주
▁조치
▁대수
▁근대
▁상하
▁구축
▁온도
ㄱㅏㄹ
▁샌
▁수입
▁ㅂㅜㄹㄹㅣㄴㄷㅏ
▁롤
▁범위
▁유엔
▁전하
▁ㅂㅏㄷㅇㅏ
▁임무
▁이미지
▁클라
▁오리
▁점차
▁논문
▁캘리포니아
▁위성
▁출발
▁업체
▁경력
▁교사
▁양자
▁ㅈㅜㄴㄷㅏ
▁대학원
▁고구
▁다섯
▁원칙
▁공산당
▁항상
▁ㅂㅏㄷㅇㅏㄷㅡㄹ
▁전개
▁미치
▁핀란드
▁거래
▁후지
▁확보
▁채택
▁성인
▁토론
▁수단
▁회복
▁잭
▁필리핀
▁공업
마스
▁섭
▁수립
▁강의
▁증거
▁잡지
▁아시안
테르
▁드래
주교
▁남아
ch
▁ㄷㅏㄴ
▁첨
▁ㅊㅏㅈ
▁39
▁ㅈㅔ
▁남편
▁ㅅㅐ
▁400
▁ㄷㅓㄹ
▁개편
▁매년
▁얼굴
▁합의
▁스파
▁기지
▁일원
▁그래서
▁만족
ㅇㅛ
ㅇㅜㄹ
▁의료
▁사례
▁선생
ㄷㅏㄹ
고리
바이
▁시인
▁꿈
▁나카
▁스위스
▁폭발
▁부근
▁ㄴㅐㅆ
▁이스라
▁ㄷㅚㅁ
▁1985
▁모스크
▁간주
▁64
▁장비
▁이승
로드
▁ㅅㅓㄴ
▁대형
▁종종
▁ㄹㅏㅁㅕ
데미
▁끼
▁붉
▁대기
▁군단
▁답
▁스리
▁띠
▁경주
ay
▁토지
▁장면
ir
▁아주
▁불가
▁이스라엘
▁규칙
▁분자
▁욕
▁항성
▁종이
▁롭
▁어린
▁게이
▁경향
▁II
▁ㄱㅡㄹㅕ
ut
▁수원
▁ㅇㅕㄹㄹㅕㅆ
▁알리
▁조합
▁낭
▁캄
백질
▁ㅂㅜㄹㄹㅓㅆ
▁아랍
▁꾸
▁해체
키아
▁귀국
ㅏㄷㅗ
▁진화
고기
▁탑재
▁확실
▁레코드
um
▁ㅇㅔㄱㅔㅅㅓ
▁그곳
우드
▁ㄴㅡ
▁쉬
레이드
▁강점
▁버리
▁ㅇㅣㄹㅇㅓㄴㅏㅆ
▁대장
▁이제
▁43
▁기억
▁아카데미
▁서양
▁br
▁기대
▁짐
▁향상
▁평양
▁신화
▁세우
▁장식
▁아나
▁스피
▁좀
▁클래
▁투어
▁아메리카
▁고양
▁ㅌㅐㅇㅓㄴㅏㄴ
im
▁청소년
▁침공
▁틀
▁란
▁보장
▁의학
▁융
▁박쥐
▁어떻
▁42
▁청나라
▁ㄸㅓㄹㅇㅓㅈㅕ
▁ㅎㅐㄷㅗ
요시
▁만큼
▁ㅂㅗㄴㅐ
▁고구려
▁사후
▁폼
▁랭
▁카운티
▁불과
▁남동
오스
▁선고
▁메이저
▁켄
▁자금
▁가사
▁에피
▁보병
▁카메
ㅏㅈㅕ
네스
보드
▁잠시
ver
▁성과
▁소년
▁신설
▁ㅅㅔㅇㅜㄴ
▁스타일
라비아
▁나치
▁1982
▁이끄
▁빠르
▁감정
▁독자
▁고문
▁맛
▁단백질
▁ㄱㅡ
ㅇㅣㄹ
▁만주
타인
▁55
▁살해
에르
▁우선
라노
▁라틴
▁중화민국
▁단지
▁숭
▁우수
▁확정
▁편입
▁스카
▁철도역
틀랜드
▁ㄸㅏㄹㅏㅅㅓ
▁ㅇㅏㄹㄹㅕㅈㅕㅆ
▁함대
네시아
▁신앙
▁ㅇㅢㅎㅐㅅㅓ
▁복잡
▁스케
▁지시
▁광역시
▁모르
▁나폴
▁ㄱㅏㅈㅊㅜㄴ
▁차별
▁비율
▁의장
▁1983
▁왕위
▁덴마크
▁예상
다이
▁i
▁44
▁세종
▁재단
ㅅㅓㅆ
▁태풍
▁창설
▁온라인
▁구체
▁마크
누스
▁삭
▁법인
▁LG
일러
▁ㄸㅟㅇㅓㄴㅏㄴ
▁고향
▁검찰
▁공유
▁전설
▁ㄷㅏㅇㅎㅏㄴ
▁성당
▁나뉘
▁전화
▁ㅆㅡㅇㅣㄴㄷㅏ
FC
▁역대
▁동의
ㅇㅡㄹ
▁브리
▁선거구
▁ㄱㅡㄹㅣㄴ
▁참석
▁ㅁㅜㄹㄹ
▁대립
▁반도
▁솔로
하라
▁육상
▁판결
▁47
트라
▁킬
▁보급
▁삼국
▁브랜드
▁ㅅㅣㅋㅣㄹ
▁하늘
운동
▁수출
▁유학
싱턴
▁ㄱㅓㄴㄴ
▁ㅎㅏㅂ
의회
▁고정
▁ㄴㅏㅇㅘ
▁ㅎㅐㅆㅇㅓㅆ
▁노예
이크
▁저장
▁이루어지
▁ㄴㅑ
비드
▁협상
▁ㅇㅗㄹㄹㅕㅆ
▁후손
▁핵심
▁집행
▁카를
▁애플
▁ㅌㅗㅇㅎㅏㄴ
▁본격
▁75
없이
▁보안
▁강점기
▁오픈
▁180
▁산맥
오프
▁184
▁초반
▁ㄴㅔ
▁앞두
▁탄생
▁자세
▁Z
▁마드리
▁회전
▁중반
▁대비
▁사전
▁암살
▁대항
셔널
원군
반도
▁숫
각형
▁주교
▁연고
▁옷
▁이성
▁듯
▁까
문화
▁헤이
▁1972
▁ㅈㅣㄴㅏ
▁로버트
▁아르헨
▁마드리드
▁베이스
▁사라
▁법칙
▁플랫
▁권한
▁ㅊㅏㅈㅇㅏ
▁지키
리스트
어들
▁ㅂㅜ
▁어린이
▁켈
▁전혀
▁프란
▁공학
소드
▁단일
▁46
▁사우
▁전용
▁순서
▁의무
ㅇㅏㄴ
▁공기
▁이란
▁1920
▁ㄷㅜㄴ
▁말기
▁이익
▁베를
▁아르헨티나
▁직원
▁조금
▁ㅎㅡㄹ
▁인상
▁떨
으키
레이션
▁유적
▁요한
▁시각
▁수여
▁중심지
▁운전
▁공포
CA
터리
▁1979
▁ㄹㅣ
▁별도
▁빨
▁ㄹㅏㅁㅕㄴ
▁사항
▁아스
▁아미
▁흔히
▁비난
▁보조
▁전라북도
▁스크
▁잘못
▁효소
▁상품
▁협정
▁워싱턴
▁글로
▁롯
▁원주
▁변호사
▁전후
▁CD
▁을
▁kg
▁쌓
▁관료
▁아파
▁ㄷㅡㅅ
▁ㅇㅔㅅㅓㄴ
▁통계
▁파크
▁인권
▁창조
▁방면
▁우크
정부
ㅁㅏ
▁1930
▁튀
ㅕㄴ
▁작곡가
ra
퍼드
▁투입
▁ㅍㅓ
▁레드
▁ㄴㅗㅎ
▁1981
▁ㄴㅡㄲ
▁In
▁소식
▁장착
▁저서
▁ㅈㅓㅂ
▁금메달
▁현장
무라
▁1973
▁심각
ㄹㄹㅕㅆ
▁항복
▁텐
▁정복
▁셋
▁아침
▁150
▁드러
▁하드
▁호텔
▁훨
▁벡
사키
▁공무원
▁중세
▁엠
퍼스
10
▁강하
▁니콜
▁본인
▁갈등
▁ㅈㅜㄱ
리어
▁숨
▁헨리
▁교류
▁공화
▁건국
▁노스
▁교토
▁공산주의
▁훨씬
▁오히
▁오른쪽
▁마이클
os
▁어떻게
▁요새
▁중부
▁논의
▁성경
▁출마
▁v
▁오랜
▁김정
▁코미
▁산하
▁빙
▁무리
▁플레이어
▁유전자
▁세인트
▁한때
▁건조
▁왼쪽
▁플라
▁인정받
▁인류
▁연합군
▁오토
▁창립
▁추측
▁서기
▁방출
▁금속
▁로드
▁1940
▁베이징
30
▁예산
▁원작
▁투쟁
▁끊
▁성질
▁주위
▁1974
▁태국
▁185
BO
▁노르웨이
▁릴
▁형사
em
▁에피소드
▁북서
일보
▁에어
▁제자
▁일으키
▁군수
▁복합
▁열리
▁코스
▁사령관
▁사태
ter
▁플레이오프
▁운용
▁효율
▁모스크바
▁ㅂㅐㅇ
▁논쟁
▁ㅂㅣㄴ
ㅗㅊ
▁오전
▁절대
▁멸망
▁정비
▁SBS
▁반복
▁집안
▁구별
▁제출
▁입자
▁전철
▁스코틀랜드
카와
▁해양
▁노부
▁합성
▁ㄴㅐㄹㅕㅆ
▁1948
▁메시
▁숫자
▁사법
▁인종
▁연산
▁주기
▁거절
▁ㄷㅔㄹ
▁탁
▁미니
▁블루
▁포위
▁흡수
듀서
▁이어지
▁프로듀서
머스
▁54
▁각본
▁중대
▁출장
▁1968
▁댄
▁인조
▁ㅂㅜㄹㄹㅕㅆ
▁델
▁인공
▁오히려
▁마침
▁원리
ㄹㅓ
▁연관
▁ㅅㅣㅋㅣㄴㄷㅏ
▁활발
▁1976
▁시점
▁웨스트
▁목사
▁베를린
▁슬로
▁ㄸㅏ
도르
▁수송
▁경성
라크
▁포기
▁해상
▁ㅂㅜㅌㅇㅕ
▁신체
▁개시
▁소녀
▁전공
▁이민
▁북동
▁출입
▁건립
▁취급
다리
▁인터뷰
▁주전
▁1975
▁보스
▁ㅂㅏㄲㅇㅔ
▁지니
▁ㄷㅡㄹㅇㅓㄱㅏㅆ
▁우스
▁음력
▁사령부
▁읍
▁파라
▁명성
▁가로
▁디스
▁고용
▁ㄹㅏㅇ
▁히데
op
데스
시스
▁국도
▁축제
▁동원
▁트랙
▁ㅌㅗㅇㅎㅐㅅㅓ
▁취득
▁분쟁
▁활성
나이티
▁영화제
▁농민
▁어렵
▁프라
ㅡㅁㄷㅏ
▁장악
▁주택
▁ㅇㅏㄹㅡㅁㄷㅏ
▁유나이티
▁신성
▁비록
▁빼
▁1978
▁1971
▁ㅈㅣㅋ
▁56
▁생기
▁구속
▁갤
▁미드
▁국장
ag
▁죽이
▁총독
▁진보
▁ㄴㅐㄴ
▁보컬
▁일치
▁고유
▁견해
▁소스
▁1963
▁ㄹㅏㄷㅗ
▁전부
서트
▁ㅅㅗㄱㅎㅏㄴㄷㅏ
▁52
산시
에트
▁불법
▁유물
▁북아
▁직전
▁부활
▁ㄴㅏㄹ
▁후원
▁49
▁보험
▁관점
▁자이
▁한자
▁하위
▁ㅎㅐㅈㅕㅆ
쿠라
▁폭력
▁코미디
▁65
키스탄
▁ㅈㅣㄴㅐㄴ
▁포도
▁정체
▁ㄷㅓㄹㅏㄷㅗ
▁교차
▁학습
▁연료
▁주관
▁도달
▁여객철도
▁떠나
▁편지
▁대리
▁닌
▁혼란
▁타이완
▁약속
▁수술
▁이기
메리
▁철수
세이
▁항공기
▁아테
▁상당히
ce
▁ㅈㅣㄴㄷㅏ
▁1969
▁관직
▁시리아
▁ㅇㅣㄹㅇㅡㅋㅕㅆ
▁천체
▁179
▁둥
▁한국어
▁반영
▁여부
▁Q
기에
릭스
▁직업
▁선교
젤레스
▁취하
▁고종
▁하나님
▁본사
▁백제
▁수집
▁임금
자기
▁그리스도
리케
▁미나
▁ㅇㅐㄴ
▁명명
▁ㄸㅓㄴㅏㅆ
▁00
▁장교
▁브레
ㅓㅈㅣㄴ
▁넷
▁제어
▁상륙
▁팝
▁데이비드
▁의존
▁논리
▁테러
▁성능
▁1946
▁주간
▁예비
▁ㅆㅡㄹ
▁보관
▁무엇
▁화물
▁아사
▁내리
▁ㄷㅏㅁㅕ
▁심리
▁영업
▁부임
▁일대
▁백작
▁학술
▁프리미
▁대화
▁톰
▁스미
▁폴리
공항
OS
▁소방
▁주식회사
▁불상
▁도구
아내
▁콘서트
▁해산
▁정지
▁53
▁교환
▁전파
▁십자
▁개체
▁연재
▁프로세
▁허가
▁스마
▁하우스
▁접하
이어
▁전문가
▁제일
▁코로나
▁박정
oc
미터
▁ㅁㅓㅁ
▁반발
▁1964
▁정원
▁ㄹㅗㅇㅜㄴ
▁대략
▁자살
▁판서
▁핑
▁니시
▁방사
▁충청북도
▁헤르
▁그런데
▁살인
▁영향력
▁간단
▁ㅃㅏㄹㅡㄴ
▁진입
▁ㄲㅡㅌㄴ
▁화성
▁ㅂㅜㄹㄹㅓ
프리
▁거기
▁김영
▁상승
▁보건
ㅈㅜㄴㄷㅏ
▁ㄱㅓㄷ
▁재료
▁베스트
▁공통
▁안타
병대
▁리스
▁학부
▁미터
뿌리
ㅅㅡㄹ
▁ㄱㅏㄴ
▁겐
▁신분
▁벨기에
▁소비에트
▁US
▁항구
▁포트
▁영입
▁서버
▁피아노
▁바라
▁and
▁승진
▁사장
▁국제공항
ri
▁가을
▁학원
▁지붕
▁파트
▁인도네시아
▁꼭
▁58
▁부장
▁외국인
▁그레
▁고리
▁기도
▁진압
▁학회
▁99
▁시호
▁1000
노스
▁ㄹㅔ
▁스프
ㅏㅈㅕㅆ
▁사운드
▁질병
▁루이스
▁랜
어스
▁ㅇㅏㅇㅑ
▁횡
▁발언
▁스토
▁아라
▁구성원
하마
▁ㅂㅏㄹ
▁콤
▁창단
▁현역
▁저지
▁브루
▁주년
▁탈출
▁참전
▁채용
▁식품
▁계통
▁복무
▁공동체
▁리더
▁변환
▁탈락
▁트랜
▁감사
▁임대
▁한반도
▁응용
▁픽
▁PC
저우
▁통상
▁합격
▁의도
▁1977
▁찍
▁요코
▁ㄱㅓㄴㄴㅓ
▁모드
▁작사
▁장수
▁민법
▁임의
천군
다가
아버지
▁벼
▁ㄷㅡㄹㅇㅓㄱㅏ
▁망명
▁고도
▁친일
▁문헌
▁조작
▁신청
▁말레이
▁SK
▁위반
아들
▁롯데
▁포로
▁페이
▁1949
▁화면
▁ㅅㅡㄹㅓㅇㅜㄴ
▁로스앤
▁로스앤젤레스
▁마케
성군
▁흐르
▁에도
▁문장
▁트라
▁방송국
▁부부
▁라이트
▁학과
igh
▁동남
▁탄소
▁저작
문화재
▁이치
▁ㅂㅗㄴㅐㄴ
▁FA
▁트로
▁ㅍㅣ
▁변형
▁88
▁선조
▁연출
▁배출
▁분열
▁절차
▁캠퍼스
▁1962
▁수영
▁상원
▁청구
▁예측
▁ㅇㅣㄹㅝ
정식
▁수소
려움
▁자녀
▁엑스
▁..
▁시카
▁메모리
▁요인
▁주둔
▁코파
▁62
ation
▁레오
▁조절
▁1967
▁신인
▁누구
▁택
▁전동
▁이중
▁ㅌㅐㅇㅓㄴㅏㅆㅇㅡㅁㅕ
드시
▁레스
▁큐
▁기호
▁정기
▁기하
▁막부
▁선전
▁화재
카이도
▁국무
▁좁
▁ㅅㅣㅁ
타르
▁처형
▁로켓
▁출간
▁서원
▁r
▁호수
ㅅㅓㄴ
크스
로그
페라
▁57
▁수리
▁실수
▁이승만
▁ㅇㅛ
▁스럽
▁광장
천시
▁방지
▁남서
▁증상
▁황금
▁이시
▁달하
▁어떠
▁기법
▁동작
▁취소
▁오스만
▁카메라
▁루트
▁지급
▁흑인
▁앵
▁연안
▁왕자
▁동성
▁You
▁장르
▁흉
▁콘스탄
라드
▁생존
브리
▁개조
▁서구
▁ㄴㅏㅁㄱㅕㅆ
▁등지
▁현지
▁Ch
바르
▁롱
포르
▁ㄴㅡㄴㄱㅏ
▁히트
▁위상
▁고지
▁ㄴㅜ
▁농구
▁기체
▁여단
▁좌우
▁반드시
▁ㅆㅓ
▁전주
▁임진
▁ㄴㅏㄱㅏㅆ
▁천연
▁공정
ㅟㄴㄷㅏ
▁진주
▁크리
▁일본군
▁ㄴㅏㅌㅏㄴㅏㅆ
아오
▁희망
▁제대로
▁무덤
▁181
비치
▁터널
▁톱
▁ㅊㅣㄹㅓㅆ
▁동아
▁전면
▁도전
▁분명
▁코르
▁싸움
ㄱㅣㄹ
▁파악
방송
▁ㄷㅚㄴㄷㅏㄴㅡㄴ
▁스탠
▁1966
▁둘째
▁압력
▁전형
nd
▁특이
▁녹색
▁66
▁짜
▁%,
▁글자
▁이온
▁미국인
▁ㄷㅜㄹㄹㅓㅆ
▁ㅇㅣㅂㄴㅣㄷㅏ
▁그레이
▁경로
▁ㅁㅗㅇㅏ
▁독립운동
▁독특
▁바둑
▁리처
라이언
▁ㅁㅗㅇㅕ
▁매일
▁노벨
▁법정
바라
▁1965
▁해리
▁방정식
▁아프
▁에르
▁KBO
▁68
▁목소리
▁부사
▁183
티브
▁타임
▁유기
▁물체
▁ㅊㅟ
▁인지
더스
에이
▁성향
▁신뢰
▁체코
▁뿌리
▁개신
ㄹㄹㅣㄴ
▁동기
▁ㅁㅗㄹ
▁즐
▁61
▁나들
▁알렉산드
▁일식
▁클레
▁돌아가
치아
▁분해
▁지리
▁처벌
ST
▁밥
베스
▁간행
▁일찍
▁ㅇㅣㄴㄱㅏ
▁퀸
▁유행
▁타격
▁김일
르타
▁찰스
▁분할
▁홋
▁방해
▁화산
▁실질
▁완료
이치
▁ㅇㅣㄹㅜㄴㄷㅏ
▁풍부
▁추구
▁내전
▁사립
▁ㄲㅡㅌㄴㅏㄴ
▁범주
▁구하
▁손자
ㅏㅈㅣㄴ
▁싸우
▁묵
▁나들목
질랜드
▁아동
▁맞이
▁우려
▁평등
▁ㅈㅓㅇㅎㅐ
▁던
▁ㅂㅘ
▁순환
▁먹이
▁복지
▁1961
▁삽
▁뉴질랜드
▁아리
▁대개
ㅅㅔ
먼트
▁웅
▁별명
▁갈색
▁희생
▁마르크
ER
▁플래
▁아파트
▁비평
▁ㅈㅣㄴㅣㄴ
art
▁800
▁부진
▁ㅌㅏ
▁오프
▁흰
▁ㅁㅏㄴㄴㅏ
▁ㅂㅓㄹㅕㅆ
▁최다
▁마침내
▁닥
ice
▁리가
▁시조
▁분기
▁파르
▁가까
▁집권
▁가상
▁올라
▁창원
▁600
▁시드
▁ㅎㅑㅇㅎㅐ
▁전원
▁점점
▁한정
▁사냥
▁향하
▁첼
▁86
▁구현
ON
▁기둥
▁대법
▁한계
▁마시
▁모형
▁판사
▁가시
▁완공
▁벡터
▁IS
유럽
▁120
▁근본
▁테이
▁메리
텐츠
▁훗
▁중기
▁ㄴㅏㅌㅏㄴㅏㄴㄷㅏ
▁명확
▁부하
▁웨이
▁프린
▁스토리
▁사임
▁충격
▁확산
▁의지
▁교향
▁날개
est
▁일본인
▁분위
틀러
▁무게
▁오페라
▁늦
은행
투스
피스
▁사원
▁출범
▁맞추
▁대공
▁물리학
▁단독
▁1919
▁사형
ia
▁사마
▁re
▁호주
▁캔
▁레인
디션
▁카라
▁닛
▁상위
▁마법
▁뚜
▁명나라
▁ㅅㅐㅇㄱㅕ
▁ㅁㅏㅈㅊ
리히
▁가나
▁이자
▁통산
▁알파
▁제이
ap
▁의혹
▁렀
▁98
▁연구원
TV
▁적절
▁훌
▁편찬
▁ㄷㅚㄴㄷㅏㄱㅗ
▁악화
▁모토
▁서명
▁ㅇㅡㄹㅕ
▁ㄴㅏㅆ
▁1944
▁당초
▁의심
▁유치
▁조종
▁영웅
▁끝나
사스
▁넓이
▁꺾
▁인접
ak
▁문명
▁발굴
라이나
▁무시
▁ㄷㅏㅁ
▁새롭
▁도쿠
▁인증
▁회담
▁샘
▁연간
▁추천
▁포인트
▁함락
▁모임
▁저술
▁ㅇㅗㄹㄹㅕ
▁ㄱㅗㄴ
▁곽
▁사실상
ㅓㄴㅏㄹ
▁자극
▁광복
사자
▁각지
▁접촉
▁개입
▁동서
▁징역
▁고속도로
ㅁㅊ
▁포항
▁1941
▁프리미어
▁득표
▁ㅃㅏㅈㅕ
▁63
▁홍보
▁독일군
▁사정
우리
▁ㄸㅓㄴㅏ
▁세르비아
▁순수
▁밝히
▁골든
▁ㅌㅐㅇㅓㄴㅏ
▁순간
▁드라이
▁95
▁악기
▁기온
AR
연히
▁ㅅㅐㄱㅕ
▁멘
▁기기
▁올해
▁루스
▁느끼
▁개막
▁탐사
▁뮤지
▁정하
▁74
▁구원
▁그때
▁그라
▁오랫
▁공로
▁ㅂㅗㅇㅎㅐ
▁등판
▁임기
▁학살
민주
버그
숭이
▁여론
▁DNA
▁59
▁경전
▁바위
▁시카고
▁ㄷㅗㅇㅘ
▁성분
▁행렬
▁178
믹스
학생
▁이닝
▁Lo
▁락
▁변수
무부
▁추산
▁한국인
▁수석
▁벗
▁실현
▁앤드
▁태도
ct
▁닉
▁백성
▁예전
일리
▁팽
▁공헌
▁입법
▁보고서
대부
▁네이
▁자전
▁확률
▁언제
▁스마트
▁아티
▁양쪽
▁훗날
▁혼합
▁오랫동안
▁떨어지
▁페르시아
▁심사
ㅂㅗㅇ
▁1958
▁튜
▁감시
▁프로그래
▁ㅂㅓㅅ
▁미쓰
▁ㅈㅡㄹ
▁방위
▁매장
▁IC
ul
▁ㅅㅣㄴ
▁균형
▁ㅇㅕㅇㅑ
▁뱅
ㅎㅣㄴ
▁ㅍㅏㄹ
▁특별시
러리
▁1947
▁에드워드
▁ㅎㅏㅂㅊㅕ
▁왕실
▁피터
▁리처드
▁to
▁160
▁출력
▁ㅋㅡㄹ
▁82
▁침략
▁영지
코스
ㅗㅂㅎ
▁개신교
▁내려
▁커뮤
▁원형
▁;/
▁신부
▁조별
▁ㅊㅣㄴ
▁ㅎㅏㄴㄷㅏㅁㅕㄴ
▁경남
▁76
▁대량
▁저녁
▁단편
▁분위기
▁다케
▁1956
▁줄기
▁자라
▁춤
이너
▁시사
▁안토
▁72
ㄱㅓㅇㅜㄴ
▁여왕
▁ㄱㅕ
▁랜드
▁승객
▁프라이
▁텍사스
▁멀리
ㅇㅡㅁ
ㅝㄴ
▁승부
▁그래픽
▁이라크
▁SS
▁ㅇㅔㅅㅓㅂㅜㅌㅓ
▁제사
▁권위
▁발발
▁대선
▁무사
▁미야
▁가와
▁타자
▁아이돌
▁ㅅㅏㄴ
▁흐름
▁ㅇㅓㄹㅕㅇㅜㄴ
리노
▁커뮤니
▁안동
▁ㅍㅐ
ie
▁재건
▁동명
▁마무
▁작위
▁프랑크
▁바깥
▁교구
▁복원
▁데스
ㄱㅎㅏㄴ
▁확립
ㄹㄹㅏ
▁77
▁참고
ㅇㅗㄹ
▁입력
▁ㅂㅏㄷㅇㅏㄷㅡㄹㅇㅕ
▁석유
▁과학자
▁일상
▁1939
▁ㅂㅔ
▁테스트
▁ㅅㅗㄱㅎㅏㄴ
▁ㅋㅣ
▁잠수
▁축구단
▁67
레나
메리칸
▁점수
▁긍
▁Th
▁ㅂㅏㄺㅎㅕㅈㅕㅆ
▁폭탄
▁리버
▁시상
▁어깨
▁도요
▁침입
▁비상
▁수익
▁민중
▁복수
▁포켓
▁ㅊㅓ
▁타워
▁ㅂㅓㄹㅇㅕㅆ
▁당국
ud
▁신자
▁복음
▁기소
▁일시
▁병합
▁사자
▁AFC
▁브라운
▁한글
일스
▁시마
▁자식
▁주최
▁재배
ㅅㅜㄹ
▁더블
ly
레옹
og
▁부지
▁ㄱㅏㅈㅣㄴㄷㅏ
▁다운
▁대왕
▁도모
메이
▁본질
▁혁신
▁정수
▁신고
▁움직이
▁가공
▁빅토
▁연예
▁계층
▁보물
▁85
▁대성
▁나폴레옹
에른
ist
▁가량
▁동양
▁사제
▁내셔널
▁지형
th
▁1954
▁가담
▁심지
▁평안
▁공중
▁암호
▁창작
이센
▁어디
▁ㄷㅗㄹㅇㅏㅇㅘㅆ
보이
마니아
▁힌
▁훈장
▁파워
▁우라
▁국기
▁빌보드
▁인쇄
레인
▁구글
▁폐쇄
▁후계
▁쌀
▁돕
왜란
▁임진왜란
▁노출
▁산화
아티아
▁크로아티아
▁그렇게
AS
▁참모
▁ㅇㅏㅍㅅㅓ
ight
▁1952
▁평론
▁고기
▁ㅎㅣㅁ
▁급제
▁총회
▁움직임
▁가설
▁비서
▁누르
▁ㅇㅏㄹㅡㅁㄷㅏㅇㅜㄴ
▁탱
▁력
▁세리
▁다소
▁73
▁아테네
▁ㅁㅏㄴㄷㅡㄹ
▁가이
▁실력
▁고통
▁전신
▁발음
▁라스
▁박정희
▁조조
▁스타디
▁동방
▁후속
조합
▁대지
▁오카
▁보상
▁람
▁96
▁타운
▁상관
▁따로
▁탈퇴
▁81
▁*
▁뮤지컬
필더
▁뷰
▁절반
▁행복
▁미드필더
▁무한
▁수도원
바로
▁Al
AT
▁셔
▁국정
▁비례
▁뤼
▁장남
▁인용
▁청주
▁78
▁뽑
▁개설
▁로봇
▁ㄴㅏㄴㅟㄴㄷㅏ
ㅂㅗㄹ
시오
▁김대
▁재학
▁센트
▁화이트
▁도덕
▁전투기
▁피해자
마르
▁가까이
▁소득
▁이혼
▁ㅇㅗㄻㄱㅕㅆ
▁젠
▁심장
▁화장
▁ㄱㅣㅇㅔ
▁기리
▁김성
▁하인
▁안드로
▁중력
▁뮌
▁전남
▁전직
▁불만
너스
의정
▁아트
▁바닥
▁천안
▁여섯
▁손상
체스터
▁바이에른
▁ㄴㅏㅌㅏㄴㅐㄴㄷㅏ
▁보르
▁블라
타이
▁산소
▁지향
▁202
▁묻
▁NH
▁지사
▁1959
▁ㄲㅣ
▁국군
▁생물학
▁포스트
▁교리
▁177
▁빌딩
하여
▁레알
▁질환
ess
▁주력
▁윗
▁ㅁㅐ
▁당나라
자치
▁Li
▁백만
▁벌이
▁사무소
BA
인물
▁문신
▁검토
▁상역
▁작동
▁콘스탄티
▁녀
▁피하
▁71
토스
▁ㄴㅡㄴㄷㅏㄴㅡㄴ
▁부담
▁포스
▁와이
ㅁㅊㅓㅇ
▁ㅇㅓㅁㅊㅓㅇ
▁AT
▁관여
▁패션
▁황후
직자
▁91
▁화합
▁사우스
▁인생
▁총장
▁피부
▁마무리
▁DV
▁기상
▁호소
클리
▁신사
▁메시지
세포
▁유통
▁상실
▁결론
▁;,
▁가마
▁선박
▁액션
▁사유
▁승려
▁깃
▁디아
▁설득
▁아웃
▁1942
▁하원
▁ㅊㅕ
▁골드
▁가슴
가락
▁ㅇㅣㅇㅓㅈㅕㅆ
쿠스
스트라
▁약물
▁ㅇㅕㄱㅕㅈㅣㄴㄷㅏ
▁개방
▁역학
▁프로이센
▁오직
▁혼인
▁심지어
▁페이지
▁결의
▁분노
ㅊㅣㄹ
▁글로벌
▁수요
▁햄
▁ㅅㅐㅇㄱㅣㄴ
▁덜
▁동해
▁모바
▁좌상
▁규제
▁모터
▁연습
▁조카
▁ㄴㅏㅇㅏ
▁김일성
▁디스크
▁가요
▁적합
▁ㅇㅓㅁㅊㅓㅇㄴㅏㄴ
▁처분
▁매체
▁위키
나가
▁그린
미야
▁87
▁앉
▁진정
IV
ㄱㅣㄴㄷㅏ
▁이명
ub
▁구매
▁진단
▁1943
ㄹㅣㄹ
▁st
▁159
▁왕비
▁ㅅㅟ
▁비치
▁선임
▁심판
▁통화
▁ㄷㅓ
▁ㄲㅡㄹ
▁위대
가니
▁부산광역시
▁개성
▁홋카이도
▁ㄷㅗㄹㅇㅏㅇㅘ
▁1955
▁끝내
▁말레이시아
▁띄
▁야스
▁원년
▁서식지
드리히
▁잭슨
▁ㄴㅏㅇㅗㄴㄷㅏ
▁발탁
ㅏㅁ
▁억제
▁스타디움
▁보살
IA
▁소멸
▁쿠데
▁\
▁1953
▁드래프트
▁ㅇㅕㅆㅇㅡㄹ
▁일기
▁프랭
▁퀴
▁예방
▁주석
▁테크
▁ㄱㅘㄴ
▁왕후
▁1936
▁싱가
▁무료
▁싱가포르
▁크루
▁조지아
▁ㅇㅣㄹㅡㄴㄷㅏ
미르
▁일컫
▁음악가
▁ㅈㅜㅇㅓㅈㅣㄴ
▁긍정
▁사도
▁어려움
▁ㅈㅕㅆㅇㅡㅁㅕ
▁ㅂㅓㄹㅇㅓㅈㅣㄴ
ab
▁덮
▁프리드리히
▁84
▁AP
▁700
▁필드
▁톨
▁사격
▁일체
▁일본어
▁자이언
▁사무실
▁거듭
▁진영
▁폭격
▁유형문화재
▁티베
▁힙
▁태조
▁여우
▁유고
▁루마니아
▁이와
▁즉시
▁카스
▁모바일
▁궁전
▁정차
▁곱
▁세자
▁대책
▁인원
▁타인
▁천주교
▁불안
▁쿠데타
데이
▁1910
▁쾌
주군
▁기동
유산
▁창당
▁시나
▁ㄷㅔㄴ
▁전북
▁ㅇㅜㅁ
▁후쿠오카
▁리드
▁크로스
▁ㅂㅓㅅㅇ
ine
▁김종
▁히틀러
▁ㅆㅡㅇㅕ
▁스티븐
▁전동차
▁깊이
▁막대
▁Re
▁대체로
▁연설
▁ㅈㅏㄴㅡㄴ
▁에서
▁ㄱㅏㄹㅡ
▁학사
▁개칭
아들이
▁ㅇㅓㄷㅗ
▁ㅅㅓㄴㅂㅗㅇ
▁딜
▁상속
▁전당
▁챔피언십
▁남아프리카
란색
▁구입
▁ㅂㅗㄴㄷㅏ
▁오이
▁97
▁강릉
▁1957
▁아메리칸
▁진격
구리
▁딘
▁알고리
▁ㅅㅗㄱㅎㅐ
▁원주민
▁요금
리나
▁ㅂㅗㅇㅕㅈㅜㄴㄷㅏ
▁누리
베르트
▁본명
ew
▁자국
▁조상
▁콘텐츠
▁독재
▁타이거
▁발명
▁추방
독부
▁휴대
▁대우
▁필수
머리
▁스미스
히로
▁ㄴㅓㅁㅇㅓ
▁광범
▁검색
▁생태
▁초점
▁부동
ㅂㅗㄴ
ㅎㅕㅆ
▁1914
▁메이지
▁전송
원경
▁69
▁음성
▁수호
▁세트
▁동북
▁이즈
▁테마
미니
▁알고리즘
▁느낌
▁사기
▁렀다
▁92
ue
▁="
▁이마
▁주소
▁인디언
▁포켓몬
▁ㅂㅕ
시스코
▁급격
▁천만
▁덩
▁토론토
▁도마
▁알바
구치
▁신도
▁수업
리그
▁사과
▁신장
▁후임
▁1900
▁1938
▁최우
▁불가리아
▁업적
▁림
▁원수
▁코리아
▁핫
▁미리
▁세부
▁랑
▁연락
▁완벽
▁ㅎㅐㅇㅎㅐ
래프트
▁이내
▁클로
▁상인
▁섹
▁부위
▁펑
지사
▁미술관
▁서술
▁게다가
▁석사
▁전술
▁ㅍㅕㄹㅊㅕ
EC
자키
▁스탈
▁유효
▁스프링
▁주니어
▁화려
▁배포
▁101
비히
▁고시
▁바르셀
▁똑
▁노트
▁라이프
▁바르셀로나
▁고급
▁ㄹㅕㅁㅕㄴ
▁ㄲㅔ
▁재즈
▁해발
▁HD
▁빌리
총리
▁영양
▁언덕
▁오키
▁01
▁안드
▁ㄱㅣㄹ
▁ㅇㅘㅅㅓ
▁물건
▁라틴어
▁연평
▁늑
▁1918
로지
▁립
▁선형
▁암컷
▁닥터
▁ㅅㅜㅁ
▁윙
▁각국
▁그만
▁소비자
▁마스터
산화
▁소형
▁DVD
▁마르크스
▁션
▁웰
▁개량
▁랩
오르
▁등장인물
ㅂㅜㅌ
▁ㄷㅡㅅㅇㅣ
총독부
▁ㅍㅜㄹ
▁조선총독부
▁질문
▁풋
▁유산
▁실천
ㄱㅎㅕ
ㄸㅡㄹ
▁1951
▁손실
▁일련
▁묶
▁저자
▁시내버스
▁상주
▁1932
▁백인
ㄹㄹㅓ
제국
▁고위
▁언스
▁ㅁㅏㄴㄴㅏㅆ
BM
▁집회
▁운항
▁화석
▁on
▁반사
▁사퇴
▁게르
▁계곡
▁추기
▁{
▁국적
▁1937
여금
▁메달
▁알레
▁정교회
무늬
▁감각
ㄷㅏㄹㅏㄴ
ㅢㄴ
▁경비
▁블록
▁영주
▁미스
▁ㄴㅡㄴㅑ
▁갑자기
▁미시
▁개별
▁주체
▁짝
▁노리
▁ㅅㅐㅇㄱㅕㅆ
▁설치류
▁만든
▁선포
▁격파
▁진학
▁차단
▁흰색
민주당
▁프랑스군
▁상수
▁대만
▁마틴
ㅜㄹㄹㅓ
▁용인
▁의문
ㅊㅣㄴㄷㅏ
▁첩
▁고객
▁방언
▁부친
▁엘리자
▁ㅈㅓㅂㅎㅏㄴㄷㅏ
▁89
▁1935
필드
▁광범위
▁올스타
ect
▁변하
▁환승
펙트
▁자본주의
▁넥
▁실업
▁182
▁ㄱㅘㄴㅎㅐ
▁우크라
▁재개
▁후계자
▁분교
▁타율
▁이웃
▁찬성
▁거짓
▁칭호
▁화제
▁이스트
▁비스
▁받아들이
▁비행기
▁93
▁트레이드
▁다스
▁사찰
▁크라
사전
바키아
▁로렌
▁뮌헨
▁중추
▁당원
▁경제학
▁Be
▁수치
▁구상
▁추기경
ㅅㅜㄹㅗㄱ
동생
▁커버
▁퀘
▁항의
▁싱어
가시
브라
▁항공사
▁기부
▁탄압
▁면역
▁ㅁㅜㄴ
▁고양이
▁줄이
▁수백
하이
▁꾸준
▁내놓
▁발간
▁질서
▁파티
▁사양
▁체험
▁허락
▁회로
▁증언
▁남기
▁촉진
▁겉
▁ㄹㅣㅇ
▁ㅇㅣㄹㅇㅡㅋㅕ
▁최후
▁분화
▁자산
▁남녀
▁이념
▁클리
▁법학
▁화폐
▁구멍
▁양산
▁쿨
▁곡선
▁마루
ㅇㅜㅁ
▁공신
런스
▁반지
▁ㄴㅡㄹㅇ
▁OS
▁시트
▁아티스트
센트
▁성남
▁ㅈㅣㄹ
저스
ore
▁거치
▁클래식
▁영원
다수
▁시모
ㅂㅎㅕ
슈타인
▁습격
▁대법원
▁FM
▁소화
▁1933
▁94
▁목성
▁물고기
▁보편
▁가속
▁극단
▁소위
▁잠수함
▁개척
▁탕
▁ㅎㅏㅂㄴㅣㄷㅏ
▁티베트
▁오버
리우스
▁소집
▁강남
IN
▁수십
▁툴
▁축소
▁지수
our
▁탄핵
▁ㅆㅡㅇㅕㅆ
▁쿼
▁아오
▁1928
▁운송
▁선호
▁유배
▁CP
▁줄어들
돼지
도사
▁군부
▁동화
▁원시
▁베리
▁동경
▁ㄷㅏㅇㅎㅐ
▁태종
▁팩
▁전적
▁조항
▁프랑스어
ell
▁1924
▁핸
▁혼자
▁약화
▁료
▁치르
▁시신
▁ㅇㅓㄷ
▁하여금
▁콜로
▁충분히
▁오가
▁상대식
공사
▁누스
▁칠레
▁ㅊㅐㅇ
▁영구
▁지불
▁국토
▁용도
프레
▁주일
▁개명
▁79
▁간부
뜨리
▁ㄷㅓㅅ
▁대로
▁ㅈㅗㅊ
른바
▁돌아오
▁당신
▁ㅈㅗㅊㅏ
▁익스
▁정면
▁조기
▁펼
▁사막
▁댄스
▁세월
▁직무
▁그리하여
▁ㅇㅣㅇㅓㅈㅣㄴ
▁김해
▁이행
▁발레
▁전망
닉스
▁메트로
▁이른바
▁재능
▁09
벤트
▁회색
ㅈㅣㄱ
▁토대
▁ㄷㅗㄹㅇㅏㅇㅗㄴ
▁펀
▁개장
▁110
▁프로그래밍
슬링
▁콜롬
▁입대
▁실내
▁형상
▁토마스
드라
▁정통
▁대칭
▁러브
▁종사
end
▁열매
▁의정부
ㄴㅏ
사이
▁액체
▁이재
▁합동
▁ㄱㅓㄹㅊㅣㄴ
▁멀티
▁존스
▁파키스탄
▁동굴
▁브로
▁04
▁토착
▁지중
코프
▁빚
▁구름
▁가난
▁진실
▁170
▁웃
▁법안
▁판정
▁매치
▁쟁
▁가깝
▁단순히
ill
▁초상
리다
▁원자력
▁무용
▁손해
어도
ain
베리아
▁해제
ID
▁안토니
▁08
▁총재
▁베네치아
과이
▁빼앗
▁하와
▁ㅇㅡㄴㅣ
▁고교
▁정류
▁퓨
▁수컷
▁대승
▁밀리
▁ㄸㅓㄴㅏㄴ
▁Co
▁흔적
▁틴
테스
▁자랑
▁개찰
▁무력
▁유아
▁당대
▁세로
▁안티
▁재생
▁뼈
ㅋㅡㅁ
ㄴㅏㅆ
▁스카이
ers
▁부속
▁엄격
▁전제
▁룸
▁우에
▁프로토
▁경북
▁스톤
▁인민군
▁83
▁들어오
▁경고
▁소문
▁주문
▁안쪽
▁사이드
▁오케
▁서방
▁힙합
▁장로
▁배열
▁ㅅㅔㅇㅝㅈㅕㅆ
▁비잔
페이스
▁늑대
▁다큐
▁오류
▁ㅎㅢㄴ
티스
▁지표
▁벼슬
데르
▁ㅇㅜ
▁일단
▁함경
▁국방부
▁주재
ard
▁강도
▁레닌
▁양국
▁메탈
▁페리
▁평면
▁행하
▁경찰서
▁한성
▁분산
▁혈액
▁할아버지
▁로즈
▁스크린
고속
▁아프가니
▁호흡
▁강요
▁대가
▁ㅁㅏㄹ
▁ㄴㅗㅎㅇㅕ
어로
▁동지
▁성서
▁마감
▁중동
▁1934
조선
▁선로
▁편의
▁ㄷㅓㅅㅂㅜㅌ
▁대원
▁메르
▁이벤트
▁MS
AN
▁추적
ㅓㅈㅕㅆ
야스
▁철거
▁요코하마
▁빵
▁주자
▁중지
▁대사관
▁닐
▁De
▁자매
키퍼
▁포드
▁농장
▁골키퍼
▁탓
유키
▁구사
▁입구
▁보스턴
▁놀이
▁ㅁㅏㄴㅋㅡㅁ
▁판타
▁히어로
▁ㄴㅏㅅㅓㅆ
세대
▁장례
▁흘
▁근육
▁북미
▁투스
▁스케이
▁노동당
▁쏘
▁광산
▁동구
▁살아
▁스탈린
▁봉기
아르
▁쿠바
▁본토
▁유키
▁Me
▁현존
▁130
레오
▁대동
▁글리
▁정확히
▁토머스
▁동메달
▁나이트
즈니
공업
▁정조
베르크
▁뱀
▁드물
▁거점
▁은메달
▁도쿠가와
▁밸
제르
무르
▁코어
▁젤
▁남극
▁140
▁아프가니스탄
▁카리
ne
▁ㅎㅔ
▁항해
▁ㅇㅝㄴ
▁사카
▁선물
▁부처
▁레지
▁야당
▁접속
▁돔
▁시계
▁식량
▁사망자
레아
ㅎㅏㅁ
▁중계
▁페이스
▁철학자
▁복사
ㄲㅡㄹ
▁알렉산더
▁Sh
▁테르
▁김구
▁필립
▁새끼
▁발전소
▁대다수
▁초청
▁칼리지
▁재판소
우치
▁맨체스터
위대
▁중성
▁ㅌㅏㄴ
▁ㅇㅜㅁㅈㅣㄱ
▁농촌
▁매주
▁안내
돌프
▁ㅎㅟ
▁관계자
▁특별히
▁곤충
▁독점
성기
안군
▁경사
▁ㅈㅜㅇㅓㅈㅕㅆ
▁화합물
▁th
▁증권
▁ㅂㅗㅇㅎㅐㅈㅕㅆ
OR
므로
▁구로
▁새벽
▁교향곡
크래프트
▁역전
▁로맨
▁1931
▁훼
▁르네
▁위안
▁토너
▁세금
▁유력
▁재임
▁강등
▁생애
▁ㅁㅣㄹㄹㅕ
▁체육관
▁오염
▁휘하
▁풍속
▁부호
▁타카
▁파울
▁간격
▁일곱
베리
▁존슨
▁ㄴㅏㅃ
▁그러므로
▁금강
ㄷㅏㄴ
▁그리스어
▁히로시마
▁멸종
▁종전
▁ㅍㅕㄹㅊㅕㅆ
▁펄
▁이정
▁석방
▁목포
▁클래스
▁계수
▁진동
▁ㄷㅏㄹㄹㅕ
▁타점
▁cod
▁기병
▁명시
▁모노
▁부품
▁대변
▁코너
all
▁비중
▁아비
▁뚜렷
게이
▁자유주의
▁미카
▁감옥
▁훌륭
▁ST
▁타원
▁ㄴㅗㅍ
ㅇㅔㄷㅗ
ㅇㅗ
▁무늬
▁버지
레이크
▁뻗
▁관객
▁하사
▁다다
▁원조
ㅎㅇㅏ
▁176
▁An
나르
AM
▁힘들
▁꾼
▁좌파
▁킬로
▁합리
▁해협
▁1921
사르
▁숙종
▁아이스
▁250
▁ㅂㅐㅇㅝㅆ
▁그래프
▁기생
▁장점
▁지휘관
느님
▁캠프
▁지칭
▁하버
▁심리학
▁ㅇㅗㄹㅡㄴ
▁마그
▁공룡
▁교도
▁구리
▁수비수
ang
▁가구
▁하느님
▁연호
▁유발
▁1929
▁코트
널드
▁박근
▁후퇴
▁필라
▁스트라이
▁윤리
▁특허
▁동성애
▁토너먼트
둥이
▁ㅋㅓㄷㅏㄹㅏㄴ
▁닮
▁소요
▁조문
▁유대인
▁트랜스
수량
▁비즈
▁아틀
▁강전
▁폭풍
▁목숨
▁문재
▁사관
▁운동가
▁단장
▁도메
▁수반
▁일환
▁집필
▁착용
▁대결
▁05
▁공세
▁성명
▁칙
▁캡
▁스테이션
▁y
▁키스
▁덕분
▁기갑
시스트
▁자이언츠
▁첫째
▁갤럭
▁극복
▁바이올
▁라트
▁약탈
▁ㅅㅠ
▁1925
▁ㄷㅟ
▁부작
▁ㄱㅏㄴㄷㅏ
▁마라
▁1923
투아
▁연상
▁김대중
▁인터페이스
▁연평균
▁동반
▁롬
▁평론가
▁쯤
산물
▁번지
ss
미아
▁ㅋㅗ
▁입사
▁삼각
▁건담
▁공국
▁조화
▁지부
▁ㄴㅡㄴㄷㅏㄱㅗ
▁매니
▁첸
▁도호
▁갤럭시
▁성직자
▁협약
▁고고
▁과일
ㅇㅕㅅㅓ
▁북아메리카
▁옮
▁플로리다
무게
▁몸무게
▁빠지
▁추대
밀리
▁가끔
▁원장
▁AC
▁요원
▁틱
타카
▁의석
▁압축
▁07
▁샤를
▁연계
클린
▁장갑
▁북서쪽
ity
▁관리자
▁발렌
▁불화
▁대한제국
▁섬유
▁시게
베이스
▁추락
▁웨일스
▁램
▁남아메리카
카스
▁단선
▁유비
▁유성
▁얀
▁영감
▁임신
▁이수
▁ㅎㅡㄴ
▁캘리포니아주
마이
▁우드
▁사당
▁선교사
대문
▁발휘
ㅜㅇㅜㄴ
▁근로
▁모험
▁미분
▁망원경
▁영혼
▁중립
▁페루
▁트레이
키스
▁카페
▁살아남
▁갱
▁ㅁㅏㅈㅅㅓ
▁ㅇㅕㅆㅇㅡㅁ
느리
추어
▁북극
▁딱
▁하와이
▁진흥
▁타입
▁필름
▁리스트
▁SC
▁박스
▁161
▁ㄱㅡㄹㅕㅈㅕ
▁수직
▁고분
▁진술
▁삭제
▁서인
▁종로
▁모로
▁똑같
▁일자
▁향토
ㅇㅣㅁ
▁다이묘
▁기관차
▁모시
▁민속
▁ㅁㅔㅇㅣㄴ
▁사거리
▁지역구
▁데리
▁동인
ㅊㅣ
▁영광
▁마주
▁레벨
▁준우
▁카자
▁ㄷㅗㄹㅇㅏㄱㅏㅆ
ff
▁쫓
▁ㅋㅜ
▁그랜드
▁도마뱀
▁비하
▁빅토리아
▁codice
▁압도
▁채권
▁결심
▁복구
슬리
▁EP
▁제약
▁모음
▁1922
▁삼각형
▁프로세서
▁청동
즈키
행성
▁돌파
▁변신
▁박근혜
▁파운드
▁유가
▁이조
▁문인
▁잠재
▁175
▁홀로
▁엽
▁성씨
▁ㅈㅣㅋㅕ
▁de
▁수장
▁레이블
▁명사
▁곰
▁주류
▁화가
ㅓㅈㅕ
▁중시
▁철저
일본
▁윤치
▁교과
▁바오
▁루트비히
▁버지니아
▁ㄴㅏㅇㅏㄱㅏ
▁틸
▁무릎
▁중구
▁평생
▁ㅇㅣㄹㅏㄴ
애나
▁피트
▁규슈
▁프레임
▁서적
▁칼리
▁인천광역시
▁My
▁모래
▁부탁
▁가톨릭교회
오리
▁부유
▁공격수
▁투구
▁엘리자베스
▁나서
▁고안
▁ㄴㅓㅁㄱㅕ
▁유역
▁각자
▁1912
▁여인
▁토벌
▁황태
▁올라가
▁직위
▁최상
▁트럼
▁리치
▁직선
▁교차로
▁건너
▁설비
ㅇㄱ
▁아과
▁이날
프란
▁유용
▁지연
▁자치구
▁음모
부사
양군
▁왕가
▁파트너
▁ㅁㅗㅅㅎㅏㄴㄷㅏ
메니아
▁164
▁수상자
▁글씨
▁구미
▁국민당
▁KT
눅스
니즘
▁문법
▁사토
▁포유
▁네이션
▁동일본
▁ㅌㅗ
▁Love
▁아기
ㅁㅏㅇ
▁Go
▁무산
▁왈
▁부서
▁크레
▁노무
▁벨라
▁봉사
▁블라디
타운
▁도어
▁리눅스
▁리아
ong
▁""
▁드리
▁퍼시
▁소설가
▁고르
▁영조
▁1908
멘트
▁간섭
▁납치
▁주사
▁아르메니아
라이터
▁목조
▁지중해
▁1906
야수
▁노비
▁표지
ㅇㅎㅏㄹ
▁보통학교
▁며
▁모니
▁무인
▁인력
up
▁경유
▁랭킹
▁돼지
▁아마추어
▁06
▁어워드
보살
▁건축물
▁상처
▁ㅇㅗㄹㄹㅣㄴ
▁사촌
▁자책
▁패턴
▁베타
▁토르
▁MV
▁ㄴㅏㅁㄱㅕ
▁마카
▁장사
▁태자
▁ㅅㅔㄴ
▁침해
▁남동쪽
▁ㄷㅗㅁㅏㅇ
▁릭
▁SM
▁플레
지마
▁교역
▁스케이팅
▁연령
멘터리
▁1917
ip
▁뜨
▁연소
▁옮기
▁이종
▁히가시
▁베토
▁호조
▁준우승
▁전향
▁다양체
사관
▁정자
▁크림
슬로
▁제주도
▁1927
▁JR
▁과도
도니아
▁배상
▁에스파
IS
ld
▁삽입
▁적응
▁모듈
▁이토
▁통로
▁안양
▁앨런
▁명문
▁03
▁북동쪽
▁커피
▁매각
▁조명
▁적어도
ant
▁ㅅㅔㅇㅝㅈㅣㄴ
▁우익
▁굿
▁둔
▁육성
▁시상식
▁몬테
▁배급
▁탐험
▁호르
▁수지
▁시아
▁BBC
OM
▁과장
▁관하
▁전승
▁1907
▁우크라이나
▁석조
ㄷㅏㄹㅡㄴ
▁대행
▁보좌
▁창간
▁럭
영상
▁라우
▁스와
▁쇠퇴
▁인자
▁전작
▁출현
▁1926
▁흙
다드
스팅
▁유인
▁정서
▁사라지
▁옹호
▁밀라노
이즈
▁산악
▁외계
▁항목
▁다큐멘터리
ED
▁옵
▁노인
▁산타
▁앱
▁폐기
▁ㅇㅣㄹㅇㅡㅋㅣㄴ
▁SN
▁협의회
▁색상
▁체인
▁표본
▁상하이
▁대교
▁별로
▁부동산
▁문하
▁의병
▁ㄴㅏㅌㅏㄴㅏㄴ
▁단행
▁ㄱㅏㅂ
▁송라이터
ㅏㅈㅣㄴㄷㅏ
av
생물
▁관중
▁왕립
▁자문
▁슐
▁168
몬드
▁사신
▁포크
스토
▁탑승
페이지
▁자전거
▁He
▁비틀
▁해설
▁ㅁㅏㅈㅊㅝ
▁종족
티움
▁수감
▁지름
▁동아시아
▁무선
▁묘지
▁세조
▁때로
▁유입
▁ㅇㅣㄹㅇㅓㄴㅏㄴㄷㅏ
슬라
▁모자
▁비전
다이라
▁연고지
▁틈
▁PD
▁상영
▁패러
ind
▁디즈니
▁렉
▁호남
▁ㄱㅏㄹㄹ
▁ㅎㅐㅈㅣㄴ
▁NHK
▁베토벤
런트
▁내장
▁동사
▁스틸
▁ㅁㅏㅈㅓ
로프
▁노조
▁실점
▁ㅃㅏㄹ
튜브
▁아가
▁166
▁1905
▁사료
▁레이다
se
텐도
▁콩고
▁닌텐도
▁ㅇㅣㅇㅓㅈㅕ
▁선제
▁하천
▁아무런
ame
▁기종
▁좌익
▁||
▁시에
▁합계
▁162
▁오리지
▁최우수
AC
▁에릭
▁룩
▁산지
▁안보
▁들어서
▁문화유산
▁홈페이지
▁기아
▁제후
▁겨우
▁연금
▁칭하
▁유튜브
라지
▁정사
▁진지
▁급속
세스
▁Sp
▁독일어
브스
▁민족주의
▁떼
▁버그
▁151
▁꾸준히
▁비평가
▁헤드
▁기하학
▁엄마
▁유신
▁ㅇㅠ
▁아울
▁원로
▁ㅎㅑㅇㅎㅏㄴ
총장
▁비단
▁ㄱㅡㄹㅓㅁ
▁꼽
페인
▁시외
▁데이터베이스
▁예외
▁주말
▁가쓰
▁ㄴㅏㅌㅏㄴㅏ
▁대조
▁역과
▁가르치
ry
▁참조
ES
ㄷㅚ
▁스승
▁158
▁사이클
나카
무네
▁조선인
▁수명
▁요미
▁증기
▁트럭
▁드래곤
▁정류장
▁ㄱㅡㅊㅕㅆ
플레이
▁스페셜
▁펼치
▁품질
▁상소
▁색깔
▁크리스토
▁목격
▁ㅈㅓㄴㅎㅐㅈㅣㄴㄷㅏ
ith
▁지바
▁ㄱㅔㄴ
▁원산
어트
▁아크
▁수천
▁ㅂㅓㄴ
▁리듬
▁모집
▁커뮤니티
다니
▁선진
▁나폴리
▁곧바로
스케
ort
▁광역
▁문과
▁칩
▁마일
▁둘러
▁유고슬
▁유고슬라비아
▁굳
▁반환
▁셋째
▁자바
▁주거
▁02
▁구마
▁리얼
▁남서쪽
▁라마
▁점성
▁악장
▁흥미
엘라
▁야생
▁주파
스티벌
▁기압
▁라이온
▁굽
▁가미
▁대안
▁할리
▁라이벌
▁주의자
▁옛날
▁플루
▁ㅈㅝㅆ
▁레이스
▁수수
▁페스티벌
▁향년
▁입문
▁도리
▁무관
ok
▁신비
▁협의
▁유닛
▁이리
▁토니
▁특급
▁베이스볼
▁기점
▁인텔
▁방안
프란시스코
▁동치
▁재무
▁주한
▁브라이언
▁도심
▁샌프란시스코
▁운명
▁운반
▁스피드
▁입증
▁사직
▁소니
▁안드로이드
▁기념물
▁십자군
▁ㄱㅓㅊㅣㄴ
▁단층
▁디자이너
▁쿠르
▁오디션
▁한나라
▁ㅇㅣㄹㅜㅇㅓㅈㅣㄴㄷㅏ
▁미네
▁일행
▁되찾
▁우르
회의
▁한나라당
프스
▁사면
▁서북
▁동영상
▁콜롬비아
▁ㅁㅗㄴ
해군
▁기용
▁와카
▁적색
▁렌즈
▁오리지널
▁마스
▁묘소
▁이오
▁1904
▁석탑
▁ㅁㅜㄷ
▁ㅇㅕㅅㅓ
▁프랜
▁출산
▁연주자
▁미만
▁출판사
▁마케도니아
▁ㅇㅣㄹㅇㅓㄴㅏ
▁직장
▁케이블
▁알라
▁지휘자
▁걷
▁정교
▁개수
▁배제
▁분배
▁신임
▁ㄷㅏㄴㅕㅆ
▁인치
▁복제
▁서경
▁진도
▁왕족
▁평소
▁관장
▁마쓰다이라
▁초래
▁165
▁ㅆㅡㄴㄷㅏ
▁빗
▁템
▁Un
▁예술가
▁심하
루살
▁ㅎㅡㄹㄹㅓ
▁교전
▁급행
▁상무
▁파생
▁센트럴
▁챌
▁아서
▁의거
프라
루살렘
▁ㄴㅐㄴㄷㅏ
▁겹
▁가하
▁부패
러지
▁예언
리케이션
▁기재
▁용기
▁판타지
▁긴급
▁154
▁내륙
▁자사
▁스테이지
▁계단
▁동전
▁폭스
▁ㄱㅡㄹㅓㅁㅇㅔㄷㅗ
▁무신
▁비즈니스
▁콘스탄티노
▁WW
ob
ord
▁수면
▁오타
▁Se
▁Wh
▁받침
▁당사자
▁모순
qu
▁단종
▁합작
▁ㄹㅏㄱ
▁신하
▁걸리
▁여동생
▁엉
▁파나
▁가게
▁기름
▁좌석
▁ㄱㅓㄹㄹㅕ
터스
▁트레
▁ㅁㅏㄴㄴㅏㄴ
▁권고
▁사르
▁156
▁넘어
▁도메인
▁163
문학
모니
▁사범
▁연애
▁용산
▁SF
▁스펙트
▁링크
▁항일
디스
▁신용
▁167
가스
우옌
▁무슬
▁예루살렘
아보
▁DJ
▁리투아
▁리투아니아
ate
▁압박
▁그랑
▁스쿨
▁정계
▁진상
▁크리스티
▁상임
▁호환
▁바이올린
▁ㄷㅓㅍ
▁타마
▁스펙트럼
▁ㅍㅓㅈㅕ
아하
▁여신
▁900
▁무슬림
▁회원국
PS
교육
경기
▁AM
▁끼리
▁충남
식물
▁스마트폰
카르
▁아인
▁부리
▁자회사
▁ㅁㅓㅁㅜㄹㄹㅓㅆ
▁밀접
▁어항
▁ㅁㅏㅊㅕㅆ
▁조류
▁싫
▁챌린
▁한양
ㅟㄴ
▁니스
▁혜성
페이
▁부수
껍질
▁분지
▁비로
▁우지
▁전염
▁선사
▁장편
ㅂㅓㄹ
▁서울시
▁샹
▁발효
▁착륙
▁미얀
▁바그
▁게시
▁대단
▁번식
▁무라
▁지주
▁ㅁㅗㅅㅎㅐ
▁오다
▁조국
▁포맷
▁피렌
▁훼손
▁비잔티움
IC
▁팅
길이
▁ㅅㅓㄴㅂㅗㅇㅕㅆ
▁교섭
▁주립
▁ㅆㅏㅇㅝㅆ
▁지장
▁ㅋㅏㄴ
커스
▁우루
▁친정
리크
킨스
▁일요일
▁고립
▁이지
▁좋아하
▁노무현
▁얼음
▁서브
▁애국
▁UN
▁피스
▁진나라
랑이
▁예능
▁식사
▁쇼군
▁오케스트라
▁농도
▁요크
럼비아
▁아베
▁최신
▁139
▁옌
잡이
▁AS
▁ㄷㅜㄹㄹㅓㅆㅏ
예프
▁구장
▁낱
▁도망
▁융합
▁참판
▁이명박
▁행정부
▁알바니아
▁과제
▁대령
▁하트
▁ㄷㅡㄹㅇㅓㄱㅏㄴ
▁바티
▁물려
ET
마치
부인
▁사리
▁성종
▁하드웨어
아지
▁시체
▁와중
▁브라우
▁부흥
▁개발자
▁아이디
▁월간
▁차관
▁쿠스
▁ㅂㅣㄹ
▁주머니
▁소나
▁145
▁마리오
▁벌어지
▁킬로미터
▁용량
▁디비전
ast
▁기타리스트
로디
▁강연
▁공과
▁전이
▁발족
▁번주
▁선두
▁지질
▁ㅅㅏㄹㅏㅈㅕㅆ
DP
▁투명
▁파동
▁부통령
▁학파
▁스트리트
▁몸길이
▁피렌체
▁미나미
▁ㄷㅏㄹㅜㄴ
▁임상
들리
▁보전
▁해인
▁관광객
▁위주
▁빨리
▁페어
▁중국어
▁응우옌
▁ㅅㅣㅁㅎㅏㄴ
수아
▁야기
▁전지
▁김동
▁관찰사
▁ㅂㅓㄹㅇㅓㅈㅕㅆ
▁고조
▁규명
▁착수
데이트
▁MVP
▁배정
▁부시
▁충성
▁마케팅
▁거인
▁아세
▁성공회
if
▁간접
ㄴㅐㅆ
레이터
▁아이디어
▁부자
▁이에
▁저기
▁전임
▁업데이트
▁1896
랑크
▁마산
▁정벌
▁HIV
▁디오
▁피에르
▁넬
▁DS
▁사바
▁ㅇㅏㄹㄹㅕㅆ
▁제네
▁측근
▁공용
▁하노
▁굉
트니
ack
ive
▁전류
ㅂㅎㅕㅆ
▁부도
▁전두
아리
▁귀환
▁가득
▁권유
▁로빈
▁완화
▁점유
▁히라
▁스콧
ure
▁공전
▁여덟
▁출구
▁형법
▁IP
▁경선
▁맥스
IT
▁붓
▁중도
▁차체
▁다이아
란트
▁중독
▁험
▁게이트
▁수학자
트롤
▁친선
▁연수
▁스타크래프트
악기
▁성벽
▁애플리케이션
균관
▁보드
▁요미우리
▁샬
▁턴
▁짙
리티
ㅅㅣㄴ
▁152
▁174
운서
▁미하
▁옐
▁섞
ock
▁트윈
▁아나운서
iv
▁마운
▁수산
▁우즈
▁서열
▁관습
▁소송법
▁시드니
▁ㄷㅡㄹㅇㅓㅇㅘ
루미
▁오렌
▁5000
▁붙이
▁세례
▁테일러
주곡
▁구동
▁지각
▁검증
▁메디
▁서일본
▁플라스
▁노동조합
▁석탄
▁조용
▁존경
▁뱅크
▁쇼핑
▁정찰
결승
▁피난
▁157
토미
▁전문학교
▁Ar
▁사명
▁뷔
▁련
▁밀양
▁변동
▁장성
사기
▁규격
▁사인
▁실용
▁ㄱㅗㅅㅓ
ck
▁금성
츠키
▁전장
▁꼴
▁행진
문관
▁한화
▁루수
▁번뇌
▁전진
▁프로세스
▁ㅇㅓㄹㅣㄹ
▁좌표
▁청와
▁수신
▁하버드
▁인과
▁ㄴㅜㄹ
▁ㅉㅣ
▁한강
▁준공
▁디젤
▁신칸
▁빌헬
▁테오
▁얼마나
ㄹㄹㅏㅆ
▁드러내
▁미스터
▁책봉
▁청와대
가루
▁백신
▁카나
▁염색
▁자율
폴리스
▁고개
▁급진
▁복소
▁킨
▁가즈
▁관현
▁이슈
▁장인
ㅇㅓㄴ
▁ㄸㅡ
▁구제
▁퇴각
▁해전
▁ㅈㅏㅁㅕㄴ
▁호평
원숭이
▁ㄷㅗㄹㄹㅕ
▁신전
▁취약
외선
▁ㄱㅏㅈㅣㄹ
▁회수
▁j
포스
▁국어
▁상상
▁성균관
▁뿔
붙이
▁MP
▁메가
▁해임
▁ㄴㅐㅅㅔ
▁자손
▁할당
▁닫
전자
산군
▁적대
니스트
▁연구자
카드
▁판매량
▁관념
▁카시
▁흥행
▁무효
▁105
▁아울러
자와
▁연루
▁ㄱㅓㅅㅡㄹ
▁몰락
▁제휴
▁소총
▁ㅂㅏㄴ
▁비극
▁식당
악단
▁통행
하르트
트랙
▁ㅍㅏ
▁상류
▁소금
▁지분
▁히스
▁이순
▁125
▁박영
▁파스
▁146
▁1500
수수
▁남인
▁ㅍㅣㅎㅐ
▁승차
▁ㅉㅗㅊ
혁명
▁쥬
▁여수
▁김용
▁루터
▁서독
▁천문학
ㅜㄹㄹㅕ
▁1911
▁남양
▁이노
▁강사
▁응답
12
▁나미
▁술탄
▁젖
▁악마
▁착공
▁윌슨
▁3000
▁에티
▁창업
▁패전
▁마찰
▁외무
▁신칸센
▁동남아시아
▁저기압
ime
▁유출
▁이복
▁성전
▁153
▁자책점
▁쇄
▁민국
▁나열
▁우정
고속도로
▁원나라
▁비아
메르
▁노드
▁마오
▁여래
▁충족
▁프로토콜
▁매출
▁소관
▁문제점
▁석가
▁저택
▁ㄷㅙㅆㅇㅡㅁㅕ
▁얇
▁믿음
▁소닉
▁항공모
▁하마
one
ㅇㅓㅈㅣㄹ
▁고원
▁곳곳
▁사지
▁순천
라트
▁PS
▁소재지
▁Le
▁디비
▁사사
▁시집
▁청사
일드
▁과목
▁일렉
▁조언
▁시외버스
▁ㄱㅣㅇㅜㄹ
▁ㄷㅡㄹㅓㄴ
▁단원
▁로고
▁카트
▁ㄴㅏㄱㅏ
서양
제프
▁배구
▁예배
▁이이
▁문재인
▁서서
▁유언
▁증후
▁희극
▁매개
▁강수량
▁마천
팩트
▁아즈
▁지목
▁폴리스
▁동위
▁중점
▁내내
ㄱㅜㄴ
▁103
대군
▁소지
▁빌헬름
네이
▁보잉
▁ㅂㅕㄴ
▁ㄸㅓㄹㅇㅓㅈㅕㅆ
▁환원
▁ISO
▁우주선
▁지지자
▁이글
▁Pro
▁카자흐
토시
▁고무
▁환상
▁회견
▁클린
▁힌두
▁고베
▁미얀마
▁MC
▁따위
▁조르
▁주권
▁연인
▁중장
▁특유
▁회계
델피아
▁필라델피아
▁개업
▁공자
▁매사
▁천사
▁찌
▁편곡
▁법령
▁취재
▁선원
▁오클
ML
▁시립
▁비틀즈
AP
▁기장
▁포장
▁해역
▁셈
▁제트
▁후자
▁참가자
기니
노리
▁겸임
▁으
▁성모
즈카
▁ㅂㅘㅆ
▁출입구
▁머물
▁155
ㄷㅚㄴ
▁굵
▁각본가
▁제의
▁공인
▁중종
▁ㅊㅏㄴ
OC
▁닭
▁나리
▁별개
▁최적
▁ㄷㅚㄷㅗ
▁독립운동가
▁삿
▁근접
▁반격
마사
▁일관
▁친척
▁협동
▁각기
▁진리
▁보충
▁카타
▁토크
▁공략
▁버튼
▁우편
▁ㅍㅏㄴ
받침
▁ㅇㅓㄴ
시온
어리
▁추모
▁오렌지
▁ㄱㅓㄷㅜㄴ
▁주파수
▁사가
▁유해
▁회화
▁와인
▁점프
▁정치가
te
▁ㅈㅗ
▁앞면
▁증후군
동물
소스
▁눈물
▁토리
▁늘어나
▁벗어나
▁별자리
▁이원
▁허브
▁둘러싸
▁ㅇㅑㄱㅎㅏㄴ
▁밭
▁게재
▁법무
▁유격
▁포수
▁108
▁위장
▁항공모함
노프
▁격렬
▁리메
▁민영
▁패스
▁Bo
▁미소
▁성주
▁북동부
▁오키나
▁이어서
▁동등
▁모으
▁상자
▁생일
▁사물
▁인형
▁트라이
▁앞서
▁이바
▁ㅇㅠㅎㅏㄴ
▁컨트롤
▁실종
▁즐기
▁내지
▁아군
▁영동
▁평행
▁개찰구
▁두산
▁오디오
리언
산면
▁나고
▁Con
▁토요일
▁담배
▁대답
▁유교
▁ㄹㅏㄹ
▁민사
▁아바
▁인격
▁베르크
▁합법
플러
▁매력
▁일찍이
▁사우디아
▁이인
▁룰
▁감지
▁테스
때로
▁레전
▁금액
▁ㄴㅗㄴ
▁ㅇㅣㄱ
▁준결승
▁서해
▁하우
▁스파이
io
산리
▁상부
▁채무
▁승무원
▁아리스
상스
▁퍼시픽
▁히데요시
▁에디
▁외곽
▁고체
▁양상
▁일족
▁나고야
ber
▁ㅋㅓㅆ
▁하인리히
가타
▁건의
▁야간
▁이영
▁입상
▁자발
▁교장
▁스터
▁아케
▁박탈
▁화살
▁이사장
▁IT
▁전두환
▁드라이브
러미
▁브래
베이터
▁에이스
▁전례
▁ㄷㅡㄹㅇㅕ
▁상장
▁해운
▁때때로
▁상대방
▁크리스마스
▁세균
▁호세
▁ㅇㅓㄷㅜㅇㅜㄴ
▁멈
▁앙리
▁ㅁㅏㅌ
▁1909
▁생명체
▁서서히
▁외국어
▁태어나
항공
▁던지
▁트럼프
퍼니
▁사다
▁시청자
▁교단
▁대주교
▁ㅇㅣㄹㅡㄴ
▁이슬람교
▁ㄱㅓㅅㅡㄹㄹㅓ
화점
▁ㅈㅏㄱㅗ
▁추격
▁김영삼
▁ㅎㅏㄴㄷㅔ
▁149
▁128
▁ㅁㅏㅊㅣㄴ
▁복장
▁캠페인
▁ㄴㅏㅁㄱㅣㄴ
▁톈
▁기금
▁궁정
▁부착
▁콜라
▁향교
▁ㅁㅣㄹ
▁보스니아
모어
▁102
▁메타
▁물자
▁아우구
Pa
▁만세
▁명의
▁연도
람회
▁홍수
▁수성
▁시라
▁전도
▁건축가
▁사용자
▁고발
▁제작자
▁ㅁㅜㄹㄹㅓㄴㅏㅆ
구장
라이트
칠리아
▁ㄱㅏㅁ
▁운동장
▁무려
▁안장
▁#
▁골프
▁대군
▁ㅎㅓㄴ
▁가르침
▁배틀
▁트위
▁호칭
▁ㅂㅓㄹㅣㄴ
▁ㅍㅜㄹㅡㄴ
▁고가
▁어드
▁치세
▁후안
▁트루
▁기다리
ㅅㅣ
▁발원
▁짜리
▁최저
▁ㅈㅏㅁㅏ
▁르네상스
▁사우디아라비아
ge
age
▁대외
▁주지사
▁텍스트
▁긴장
▁에스파냐
▁차남
▁정밀
먼드
▁남한
▁발현
▁집계
트릭
▁슬라
라미
▁계절
▁셸
iz
집합
▁전대
▁직책
백과
▁여주
▁키프
▁중국인
▁가라
▁중재
▁아미타
▁Bl
▁섭취
▁네이버
▁자유당
▁존중
▁$
▁세미
▁ㅈㅏㅁㅏㅈㅏ
▁시오
▁사이버
▁송나라
▁포도주
▁대니
▁포괄
▁문양
창기
▁원자로
▁피고
▁에우
▁지나치
▁고래
▁향후
▁레이저
▁다중
▁강경
▁리오
▁ㄷㅜㅇㄱ
▁룽
▁단기
ㅜㅁㅕ
AD
▁여의
▁레전드
▁팔레스
우라
▁조반
▁청장
▁충주
▁최소한
차례
▁상세
▁ㅎㅡ
▁팽창
▁얘
생활
▁수평
▁태생
▁토마
▁턱
▁사절
▁패하
▁127
▁로프
▁탐지
▁CPU
▁ㅋㅣㄹ
▁댐
▁여진
▁노란색
▁고사
▁스릴
▁ㄱㅜㄴ
▁블루스
▁프랭크
▁왜성
▁원하
▁토스
▁손가락
▁아미노
▁그랑프리
나리
▁147
▁경부
▁1915
▁방침
▁엘리베이터
▁기수
▁케네
▁갓
▁볼리
▁단점
▁역명
ㄲㅇㅕ
▁굉장
▁속성
sp
▁끈
▁명목
▁하이드
▁ㅈㅜㄱㅇㅕㅆ
노부
수엘라
▁메인
▁무죄
▁수군
▁난민
▁로맨스
▁가져
▁객관
▁1913
▁알코
▁초연
▁캄보
▁겔
서리
행위
▁촉구
orld
▁딩
▁제곱
▁추증
▁황해
▁마비
▁전함
▁북구
▁171
▁동독
▁유소년
▁동당
▁숭배
▁주축
▁김태
▁부천
▁취지
▁오키나와
▁라파
ㅈㅜㄴ
▁후일
▁윌리엄스
▁쉐
▁낙선
▁분광
▁심의
▁입체
▁이어받
▁캐스팅
▁북방
▁협조
ㄷㅓㄴ
▁테니스
▁위키백과
ik
워하
▁음원
창군
▁진군
▁ㅂㅜㄹㅡㄴ
▁투르크
▁김재
▁둘레
▁침몰
▁문학상
▁유니폼
▁천문학자
▁베네수엘라
▁김수
▁신흥
▁광년
▁동년
▁동래
▁부과
▁창건
▁상당수
▁따뜻
▁마하
▁타르
기지
▁추상
▁ㅂㅜㄴ
▁ㄱㅏㅎㅐ
▁태수
▁ㅇㅏㄷㅗ
시티
▁강과
▁대포
▁출토
▁보리
▁초창기
▁ㄷㅏㄹㄹㅣㄴ
▁ㄱㅓㄹㄹ
▁개미
▁컬러
▁팜
▁서사
▁시그
▁옥스
▁닿
▁센서
ㅓㅇㅝ
명사전
자치도
▁제주특별
▁제주특별자치도
▁원고
▁창시
▁원반
포구
▁대역
▁언제나
▁이민자
▁수령
▁ㅁㅣㅊㅕㅆ
▁ㄱㅏㅈㅕㅇㅘㅆ
▁GT
▁수렴
▁이틀
▁169
▁CE
▁병역
▁탈환
▁1895
▁ㄱㅏㄹㅡㅊㅕㅆ
▁라이언
▁스파르타
▁어업
▁조리
▁카탈
▁코프
▁디스플레이
▁ㅈㅓㄴㅎㅏㄴㄷㅏ
▁나가사키
▁바흐
▁수동
▁al
▁남원
▁링컨
▁머신
▁무제
▁리메이크
평군
▁SP
▁딴
▁뚫
▁기습
▁141
▁총선거
▁프레스
▁팔레스타인
▁모스
▁아폴
▁통칭
▁광부
박쥐
▁ㅇㅔㄷㅏ
▁인재
▁WWE
▁아사히
▁김진
▁ㅂㅕㄹ
▁ㅅㅟㅇㅜㄴ
포트
▁Tr
▁법제
▁종결
▁언론인
▁대처
▁유수
네스코
▁135
공신
▁총괄
MS
▁나주
▁주차
▁비문
▁하부
▁다운로드
▁유연
▁국사
▁동력
▁온천
▁적자
▁초상화
▁한동안
▁재미
▁거느리
▁드러나
▁북서부
▁ㄷㅡㄴㅈㅣ
무기
▁엔지
그라드
벌레
▁탤
보기
▁대제
▁도호쿠
▁자기장
ust
▁풋볼
▁걱
자스
▁소실
석기
▁섭정
▁양주
▁수용소
▁문화방송
▁계몽
와라
▁멈추
▁서머
▁신세
▁이진
▁후세
ep
▁111
▁해병대
▁시공
▁어스
▁ㅈㅣㄴㅐㅆㅇㅡㅁㅕ
▁청원
▁효력
▁144
▁개관
▁귀중
▁정말
▁반박
▁후대
▁ㅂㅓㄹㅕ
▁고백
▁번영
▁영리
▁서울대
▁저명
▁차기
선거
▁중순
▁ㄷㅔㄹㅕ
▁더글
▁바실
▁신중
▁끊임
▁김포
▁스핀
▁ㅈㅏㄹㅏㅆ
▁ㄷㅜㅇㄱㅡㄴ
▁폐위
▁함유
▁스티브
▁식별
▁풍경
▁ㅇㅕㄱㅕㅆ
태우
▁첨가
▁아레나
▁hPa
int
▁오빠
▁십자가
▁연세대
▁대위
▁장미
▁제수
▁기요
▁평야
▁119
▁스릴러
▁컬럼비아
누엘
▁정전
▁리버풀
▁컴퍼니
▁내외
▁ㅂㅗㅇㅣㄴ
▁ㄷㅜㄹㄹㅓㅆㅏㄴ
▁TH
▁공채
▁날짜
▁무상
▁조달
▁휴식
▁캄보디아
▁두루
▁정무
▁천도
▁파업
▁It
▁인산
▁신학교
▁케네디
▁이광
▁다니엘
▁도스
▁불편
▁언더
트리올
▁몬트리올
▁매카
크리트
▁별칭
▁삼진
▁ㅇㅜㄹ
▁큰
키지
▁교양
▁드럼
▁원내
▁172
▁CO
▁병조
▁요르
▁중소
▁편리
GC
푸스
▁아종
▁충실
▁간호
▁소환
▁총사
▁유니버
▁ㄱㅡㄹㅕㅆ
EN
▁루시
▁관통
▁며칠
▁평일
▁ㅆㅓㅅㅓ
▁걱정
▁사회학
▁우연히
▁친일인
▁친일인명사전
▁룡
시로
▁이글스
▁유네스코
ib
▁묘역
▁전성기
▁ㅆㅡㅇㅣㄴ
▁교원
▁껍질
▁명백
▁선구
▁애덤
▁ㅅㅗ
▁106
▁신학자
▁미주
▁바퀴
▁ㅎㅡㅌ
▁니콜라
▁아틀레
▁페르난
▁꽤
리에
릴라
ome
▁북위
▁장안
▁총대
▁테레
▁카리브
▁ㅈㅓㅇㅎㅏㄴ
▁베드
▁선종
ian
ude
▁해수
▁휴전
▁스페이스
▁엔지니어
그로
니치
▁바치
▁아벨
▁위임
▁당일
라리
▁공모
▁관람
▁중량
▁겸하
▁김상
▁의상
▁제갈
▁공직
▁리어
▁신기
▁고민
▁미즈
▁연패
▁증진
케이션
▁프랑수아
▁슈트
▁승점
▁한성부
러드
▁초과
▁표명
▁콘크리트
▁콰
▁모방
▁평범
▁We
▁에스토
▁도주
▁등재
▁마츠
▁서남
▁좌절
▁지혜
▁세계관
▁낱말
▁보완
▁정렬
▁아이슬
▁ㄷㅗㅇㅘㅆ
▁지폐
▁쇼트
▁생전
▁소통
내셔널
▁인터내셔널
세츠
페르
▁마인
▁케이스
ere
▁충북
▁해변
▁ㄴㅏㄴㄷㅏ
▁방패
▁열대
▁아이템
말라
▁돌연
▁영남
▁장려
▁진짜
▁매사추
▁책임자
▁미토
▁전압
선스
▁고수
▁매사추세츠
▁기울
▁대웅
▁상서
▁일화
▁합창
▁외교관
▁ㄲㅔㅅㅓ
블로
▁그루
▁배신
▁탱크
▁우라늄
치오
▁공단
▁중추원
▁ㅇㅣㄹㅇㅓㄴㅏㄹ
▁단식
주의자
▁아이슬란드
▁ㄷㅡㄹㅇㅓㅇㅗㄴ
ire
▁발트
▁암석
▁치열
▁황태자
루션
▁ㅂㅓㅅㅇㅓㄴㅏ
▁ㄷㅡㄹㅇㅓㅇㅘㅆ
실록
▁도라
▁일조
▁입지
▁투르
유행
▁불명
▁양도
▁청하
▁포격
▁나스
▁공의회
▁역설
라이더
▁퍼센트
▁스페인어
▁부채
▁시흥
▁교외
▁영장
ment
▁바라보
pe
▁레바
▁호위
▁도루
▁지나가
▁ㅇㅓㅇㅛ
ace
▁도르
▁호프
▁소유자
▁시나리오
▁에스토니아
▁ㅁㅜㄱㅓㅇㅜㄴ
▁신속
▁에버
▁횟
▁상담
▁실전
▁덤
▁친왕
▁라이선스
야시
▁로열
▁업계
▁통근
▁닝
▁쿤
ide
▁평택
▁오사
▁김기
▁오세
마드
▁우울
▁중심부
▁물리학자
▁오비
▁대전광역시
석탑
▁고령
▁육지
▁카이사르
▁사슬
▁서정
▁창고
▁푼
▁오노
▁인연
▁항소
오피아
층석탑
▁에티오피아
▁마약
▁봉쇄
▁애틀
▁물러
▁바리
▁장난
▁ㅊㅣㄹㅓ
▁기인
▁리비아
▁ㄴㅐㄹㅣㄴ
▁여지
▁치즈
리케인
바이잔
▁148
ㄹㄹㅓㅆ
▁즈음
▁시선
▁전라도
▁슬로바키아
▁부재
▁차종
▁현금
▁1916
▁할리우드
▁ㄴㅏㅃㅡㄴ
제리
▁HT
▁탈당
▁협주곡
▁허리케인
▁신생
▁격투
▁지능
▁136
▁ㅅㅜㅁㄱㅕ
▁마이너
▁닛폰
▁파장
▁아제르
▁실시간
▁스튜어트
▁서재
▁해소
▁그로
▁바닷
▁순회
▁위탁
지리아
▁NBA
▁나이지리아
▁밟
중국
▁TO
▁극동
▁병행
▁네이션스
▁아제르바이잔
위원
▁성운
▁의뢰
▁아드
▁파이어
IM
▁낭만
▁ㄷㅏㄹㅡㄴ
▁추출
▁IBM
아이
▁동상
▁입당
▁조연
▁명제
▁하락
▁원숭이
▁이사회
▁다항
▁작센
▁산림
▁특집
▁호기
▁결혼식
▁돌리
▁말리
의자
하면
▁막내
▁추세
▁앓
시피
▁부적
▁ㅂㅏㄲㅝ
▁솜
바다
▁기단
▁노부나가
▁ㅃㅏㅈㅕㅆ
▁워드
▁의약
▁허리
▁급격히
▁배터리
람쥐
▁시초
▁우루과이
▁쌍둥이
▁ㅅㅏㄴㄷㅏ
▁국무총리
▁ㅈㅓㄴㅎㅏㄴ
▁구릉
▁안성
▁138
▁패키지
▁ㅂㅓㄹㅣㄴㄷㅏ
▁DC
▁구도
▁바스
▁실리
▁약칭
▁한스
ㅂㅎㅣㄴ
▁사헌
▁신탁
▁실장
▁전념
▁평원
▁브라우저
▁니아
▁되게
▁유동
▁닷
▁면허
▁반감
▁세션
▁지류
▁데이비스
cl
▁구이
▁ㅊㅣㄹㅓㅈㅣㄴ
▁격퇴
▁구호
▁아마도
▁가동
▁중위
▁현종
▁페르디
▁리틀
▁잦
▁주행
▁리우스
▁박해
▁저하
▁해밀
▁ㅅㅣㄹ
▁딕
▁이세
타로
▁경연
▁신한
▁백화점
승지
▁거론
▁거제
▁백색
▁수습
▁시즈
▁회고
▁후쿠시마
▁la
▁객체
▁분당
▁우세
▁첼시
▁지선
▁360
▁ㄴㅏㅌㅏㄴㅐㄹ
아나
▁레논
▁신규
▁얘기
▁개그
▁구조물
▁고성
▁중성자
▁치명
▁시칠리아
▁ㅂㅜㅌㅇㅕㅆ
▁상공
리니
타나
▁오바
▁토성
▁포터
▁영의정
▁재위
▁춘천
▁바이오
▁ㅇㅕㄱㅕㅈㅕㅆ
토모
▁극히
▁최상위
▁라이브러리
여래
▁거행
▁결선
▁복선
▁사헌부
▁냉각
▁성숙
래스카
▁고소
▁탐구
▁104
▁도미
▁아부
▁라트비아
곡리
▁가면
▁깨달
마쓰
▁ㄱㅏㅂㅕ
▁릉
대신
▁En
▁생식
▁LP
▁ㄴㅓ
▁감리
▁트래
▁횟수
▁ㅈㅓㄴㅎㅐㅆ
▁한쪽
▁ㅅㅐㄱㅕㅈㅕ
▁그램
▁도장
▁장학
▁애틀랜
▁펌
▁비시
▁피에
▁ㅃㅐㅇ
▁게르만
양함
▁어휘
▁임용
▁택시
▁오피스
▁후방
▁다스리
▁랄
▁기어
▁해적
▁혈통
브레
ark
▁모니터
▁테이블
▁송시
▁주가
▁춘추
스틴
은색
하시
▁성체
▁제독
▁차장
▁109
회장
▁행적
▁반도체
▁Pr
▁개원
▁고인
▁고치
▁목판
▁잔류
▁환영
▁최악
▁스톡
▁없애
▁재현
▁주름
▁스트레스
데시
▁그날
▁교황청
▁이케
▁칼라
▁123
▁방송사
▁나비
베르토
▁코무네
타고
▁가짜
▁정점
▁ㅇㅔㄹ
▁대학생
▁옴
▁동점
▁공수
▁우위
더슨
▁아홉
▁축하
▁대표작
▁ㄱㅚ
▁휴스턴
고쿠
리안
▁민회
▁소매
▁통증
▁하워드
▁바나
▁반경
푸르트
▁ㅇㅑㄱ
▁뢰
▁햇
▁펜실
▁폭동
베이니아
▁펜실베이니아
▁견제
▁부당
▁왜냐
▁명령어
▁매입
▁억압
▁현저
▁공산주의자
▁ㅂㅕㄹㄷㅏㄹㅡㄴ
포드
헤이
▁ㄷㅣ
▁루프
▁ㅅㅣㄹㄹㅕ
▁성취
▁인플
▁종로구
▁타이거즈
▁AK
▁광물
▁시바
▁적당
▁순교
▁아담
▁힘입
▁143
▁연합회
▁카자흐스탄
란히
▁터치
▁야구장
▁ㄴㅏㄴㅜㄹ
▁너비
▁노바
▁분기점
차기
▁주역
▁한인
랜트
▁NC
▁주주
▁AR
▁경관
▁벌금
▁여당
바시
▁다발
▁분비
▁상점
▁수련
▁청춘
법인
▁리우
▁비리
▁산란
▁신조
▁ㅌㅓㄴ
은이
▁열정
▁이식
▁처녀
ㅀㅇㅓ
▁베스
▁사모
▁상단
▁육체
▁부르크
▁호랑이
▁이화
▁축적
▁동아일보
▁ㄷㅏㅅㅡㄹ
▁모이
▁ㄷㅓㅅㅂㅜㅌㅇㅕ
▁팡
글리
▁토모
▁히메
AL
▁CS
▁요하
▁피츠
▁이에야스
▁암시
▁유한
▁존속
▁염기
▁성사
▁신주
▁ㄴㅔㄴ
▁마야
▁출처
▁col
▁롤링
▁비자
▁ㄲㅗㅂㅎ
산동
▁응원
▁컴파
▁팔라
▁ㄱㅘㄴㅎㅐㅅㅓ
▁자민
▁제프
▁박람회
▁블라디미르
ile
▁CC
▁목재
▁남동부
▁펑크
▁소나타
▁플라이
▁관구
▁근교
▁왓
▁통영
▁ㅁㅗㅅㅎㅏㄹ
▁맵
▁휠
▁김경
러스트
▁룬
▁래퍼
▁해명
ㄷㅡㄹㅇㅕ
▁음료
브리지
▁알코올
▁ㅂㅜㄷㅡㄹ
▁유로파
▁친일파
▁부설
▁상반
▁경상도
▁기적
▁오해
▁이윤
▁차이점
▁태양계
▁블로그
▁광학
▁법조
▁살리
▁설탕
▁폭행
▁ㄷㅜㄹㅕ
▁ㄴㅗㄹㄹㅏ
▁Op
▁보석
▁상용
▁적분
▁티스
ies
▁운하
▁황실
▁ㄲㅡㄹㅇㅓ
▁나트
▁ㅁㅗㅇㅏㅆ
▁다이아몬드
▁가죽
▁누이
▁유죄
▁충전
▁조선일보
면체
▁사육
▁시골
▁신념
▁생산량
▁킥
비나
살이
▁그동안
▁규범
라클
▁무지
▁ㄷㅏㄹㅎㅐㅆ
xt
기업
▁증대
▁CON
▁만남
▁경찰청
▁아예
▁카롤
▁중의원
▁ㄸㅡㄱㅓㅇㅜㄴ
▁동국
▁라오스
▁베어스
도리
▁공익
▁말라
▁이타
달리
▁단단
▁어원
▁히사
▁112
▁RNA
▁ㅃㅏㅈㅣㄴ
▁ㅅㅗㄱㅎㅐㅆ
▁ㅇㅝㄴㅎㅐㅆ
▁공습
▁국소
▁빨간
▁브라더스
▁ㄴㅡㄹㅇㅓㄴㅏㅆ
▁흠
▁부제
▁상사
▁뛰어나
▁키프로스
▁107
▁ㅊㅕㅆ
▁공관
▁미르
ite
▁시어
▁ㄱㅏㄷ
▁우유
▁사업자
▁트윈스
▁삼층석탑
▁시베리아
▁공천
▁비유
▁후사
▁구축함
▁루이지
▁레일
▁장거리
▁창원시
▁가군
▁아랍어
권자
▁is
▁신민
▁조세
▁우승자
▁깔
고래
▁발해
▁언니
▁옆면
▁Te
▁당주
▁성단
▁126
▁트위터
▁카를로스
▁거북
▁잊
도바
▁수법
▁확신
▁이산화
▁사우루스
▁이순신
▁줄무늬
스부르크
▁왜냐하면
레기
▁신선
▁품종
▁탐사선
랑카
▁소셜
▁헤비
▁117
▁대웅전
▁ㅇㅣㄱㅣㄴ
ft
▁깨닫
▁맥락
▁범인
▁조종사
▁플러스
▁ㄷㅡㄹㅓㄴㅏㅆ
지붕
▁맥주
▁송시열
▁여파
▁구출
▁대폭
▁동문
▁제재
▁협박
▁도마뱀붙이
▁ㅂㅏㄷㅇㅏㄷㅡㄹㅇㅕㅆ
▁누나
▁연쇄
▁천장
▁포럼
▁ㄷㅡㅁ
▁굉장히
▁실체
▁퐁
갈색
▁왜곡
▁허위
▁드로
아다니
▁법무부
▁나르
▁핸드
▁평의회
ㅇㅏㄴㅐㅆ
▁ㄸㅣㄴㄷㅏ
▁ㅈㅏㄹㅏㄴ
수리
▁교과서
▁살아가
▁ㄱㅜㅎㅐ
▁교정
▁근원
▁소원
▁지평
▁네스
▁할머니
▁SE
▁그만두
▁내려오
▁경보
▁우호
▁입원
▁제니
▁ㄷㅏㄴㅕ
▁이경
▁ㅅㅐㅇㄱㅕㄴㅏㅆ
▁곡인
▁몰리
▁키우
▁ㄷㅏㅁㄱㅕ
▁빈곤
▁아카데미상
▁ㄷㅏㅁㄱㅣㄴ
▁ㄱㅓㄴㄴㅓㄱㅏ
▁인문
▁인체
▁가마쿠라
▁ㄴㅗㄹ
▁양키스
▁희생자
▁ㄴㅡㄲㅕ
다지
▁마디
▁고속도
▁빨간색
▁ㄷㅜㄷㅡㄹ
▁갈라
▁날씨
▁탐색
ㅈㅣㅁ
ㅣㄹㅏ
▁121
▁350
▁물리치
▁몰래
▁진급
▁com
▁화장실
▁ㅂㅣㄹㄹㅕ
ath
▁ㅌㅓ
▁데모
▁세라
▁신약
조부
▁137
▁일반인
▁ㅇㅘㅆㅇㅡㅁㅕ
▁필터
▁173
▁전자기
▁삼성전자
무스
의장
▁주이
▁통틀
▁펠리
ound
▁바오로
▁연합국
▁필리프
▁ㅊㅏㅈㅇㅏㅂㅗㄹ
ㄷㅣ
▁CF
▁거울
▁비르
▁이브
▁일방
▁테이프
▁킴
ond
OL
시타
▁가축
▁제대
▁후궁
▁ㅇㅣㅇㅓㅈㅣㄴㄷㅏ
▁방화
▁수용체
▁ㄷㅏㄹㅇㅏㄴ
승부
연합
▁문예
▁샘플
▁해고
▁라이너
▁성별
게이머
▁1894
▁ㄴㅏㄴㅝ
▁프로게이머
▁끄
나스
마루
ory
▁결함
▁승계
▁왕복
▁자아
▁포병
▁총독부
▁ㄱㅓㅊㅕㅆ
▁양측
▁ㄷㅜㄹ
▁물려받
▁맘
▁헥
▁워터
▁믹스
베니아
▁113
▁클라우드
▁냄
끼리
▁다크
▁무어
▁태권
▁ㅂㅏㄴㅎㅐ
▁개교
▁진공
로니
▁지미
▁근로자
▁가장자리
▁크리스토퍼
▁아야
▁핵무기
▁쏟
▁레온
▁만일
▁철회
▁투옥
ㅜㄹㅕ
ov
수소
▁수색
▁슬로베니아
▁땃
▁궁극
▁나아가
▁대의원
대기
▁문구
▁바티칸
▁브로드
▁드레
▁미션
▁세속
▁ㅎㅣㅁㄷㅡㄴ
단체
▁공방
▁보증
▁요동
▁화해
man
▁공민
▁알제리
그레이드
번스
▁계정
▁극심
▁둥지
▁뒷면
▁대피
▁바우
▁일가
▁적도
규모
▁로이
▁서민
▁최강
▁도미니
▁코스타
▁ㅂㅏㄹㅡㄴ
▁헐
▁업그레이드
로이
톨레
▁치안
▁혈관
▁주어지
ㅌㅏ
▁농림
▁성도
▁하동
▁용병
▁유년
▁게스트
아키
▁캐시
▁몬스터
▁ㅂㅜㅌㅇㅣㄴ
▁z
크라
▁LC
▁강서
iver
▁124
▁ㄸㅏㅆ
▁멜로디
▁ㅎㅐㅈㅕ
셰비
▁개종
▁제인
▁최대한
▁IM
▁On
▁칭찬
퍼런스
아프리카
▁관음
▁군정
▁먼지
▁서진
▁시뮬
▁즉각
▁판본
▁게이지
▁".
▁신시
▁ㅁㅏㅅ
▁독일인
▁공백
▁자연수
▁탤런트
박스
▁be
▁결코
▁횡단
▁국내외
▁카카
▁륙
▁김현
▁상표
▁ㄷㅏㄹㅜㄴㄷㅏ
▁미루
▁타당
블리
▁가루
▁모친
▁성문
▁야마토
겨나
▁ㄹㅐ
▁그냥
▁스캔
▁World
▁피오
대원군
▁남서부
▁곤란
▁서초
▁고고학
▁커뮤니케이션
▁곁
▁김정일
린스
▁구절
▁체크
▁초록
▁프랑크푸르트
mer
▁ㅇㅕㄴ
▁SU
▁욕구
▁학계
▁내정
▁디렉
▁야쿠
▁베네딕
▁ㅃㅗㅂㅎ
▁ㄷㅓㄴㅈㅕ
▁CR
▁감자
▁양호
▁일생
▁항쟁
▁원전
▁풍자
▁1890
▁아랫
▁영산
▁New
▁고장
▁데르
▁미키
▁우파
▁초월
ich
▁브리지
▁오리콘
▁윤치호
▁ㄷㅡㅁㅜㄴ
드르
줄기
축구
▁러시
▁검찰청
▁114
▁돌격
▁유저
▁자선
▁땃쥐
▁배후
▁조부
▁시위대
▁라이온즈
▁사로
▁맑
▁로우
▁평정
프레스
▁선비
▁아름
▁자비
▁정세
▁기업인
▁사쿠라
ㄱㅎㅣㄴ
▁김규
▁에미
▁제압
▁소규모
▁안토니오
▁그대
▁미노
▁베니
▁자오
▁오프닝
▁EC
▁대명
▁ㄱㅕㅂ
▁이소
▁정주
▁침투
▁므
▁증손
▁팔리
▁구스타
▁기질
▁이준
▁과반
▁자택
▁분명히
▁사상자
ial
▁ㄹㅠ
▁그치
▁예조
타리오
▁ㅂㅗㅇㅣㄹ
▁뉘
렉스
▁구와
▁냉전
▁어미
▁118
▁알루미
▁관세
▁자음
▁지침
▁흔하
▁ㅋㅣㄴ
▁일리노
▁드라이버
IP
▁옵션
▁악단
▁이남
▁ㅇㅓㅉ
▁블랙홀
▁히어로즈
▁파이널
▁플래시
▁ㄱㅗㅊㅕ
▁가드
▁대거
▁이드
▁학명
▁일리노이
▁만료
▁시정
▁프로덕
▁ㅈㅜㄹㅇㅕㅅㅓ
▁연이
▁징계
▁군중
▁대부
▁도청
▁말씀
▁서자
▁주부
▁미하일
▁파란색
▁Sc
▁예시
▁원로원
▁1898
ign
▁스칼
▁체스
▁체조
▁크리스티안
▁봉건
▁종착
▁퍼지
▁ㅍㅜㄹㄹ
▁디비시온
hn
황후
▁재상
▁매니저
▁괴물
▁요정
▁저널
▁하르
▁경신
▁연승
▁용이
▁태극
▁115
▁경찰관
▁극장판
▁진사
▁트로이
▁컷
▁헬리
▁ㅁㅔㄴ
▁빔
하루
▁ㄴㅜㄱㅏ
▁벵
▁순조
▁인명
▁지인
닐라
▁남구
▁봉안
▁승부차기
저지
▁중형
▁모로코
▁반지름
▁방사선
▁비로소
▁통치자
▁우측
▁계열사
▁물러나
▁우즈베
▁솟
벨트
ㅇㅗㄴㄷㅏ
조건
▁로그
▁커널
▁내주
고스
▁SD
▁세이브
▁챌린지
▁ㅇㅓㄹㅕㅆ
지스
▁카우
교도
▁공조
▁밀집
▁앵글
▁헬기
▁희귀
▁축출
▁키르
▁레바논
▁시가지
▁웨스턴
▁ㄴㅏㅇㅗㄹ
▁공감
▁매매
▁본국
▁필사
▁외야수
▁남미
기념
▁패럴
보르
▁가옥
▁무성
▁선도
▁전년
▁ㅇㅣㄲ
▁무승부
▁GS
▁동정
▁범유행
▁극작
▁센티
▁넘어가
▁ㄷㅏㄹㅎㅏㄴㄷㅏ
▁`
▁JT
▁변이
▁뉴저지
▁성리학
마이오스
타니
▁직면
▁통보
▁129
▁소모
▁웹툰
▁케냐
▁하프
▁렐
▁붐
▁GP
▁답변
▁정변
▁컨셉
▁혜택
▁대변인
▁캉
히코
▁기증
▁왕세
▁취업
▁켈리
▁그레고
▁핑크
▁기각
▁뉴턴
▁외모
▁사위
▁ㅅㅣㅁㅎㅐ
▁ㅇㅣㄲㅡㄴ
▁맏
ㄷㅜㄴ
▁의약품
바닥
rom
▁ㄲㅏ
▁코카
▁광해군
▁스타리그
▁럼
▁믹
개미
미사
▁개막전
▁캔자스
펴보
▁ㅁㅓ
▁글루
▁비주
▁살펴보
▁젊은이
▁폭넓
▁체코슬로
▁체코슬로바키아
▁말미
▁ㄷㅡㄹㅇㅓㄱㅏㄴㄷㅏ
▁쯔
▁러셀
▁숙청
ㅇㅓㅅㅓ
▁재혼
▁쾌속
▁한족
▁벨라루스
레타
문트
▁맥도
▁미세
▁부스
▁중산
▁학업
▁황족
▁ㄷㅜㄹㅕㅇㅝ
▁Ne
▁발급
▁예하
▁종속
▁첨단
▁호출
▁회관
▁마운트
▁연예인
타리
▁알루미늄
▁괘
쟁이
▁리뷰
▁바빌
▁승자
▁퇴임
▁옳
▁뇌물
▁스크립
▁총사령
▁밝기
▁빌라
방송공사
▁ㄱㅜㅎㅏㄹ
▁로비
▁오오
▁스트리
▁장례식
먼스
느러미
ph
▁벽돌
▁III
▁중공
▁ㄲㅣㅊㅕㅆ
▁종래
▁척추
▁조지프
▁천문대
▁ㅈㅓㄱㅎㅕ
▁남작
▁무명
▁천재
우트
▁부피
▁창출
▁카디
▁ㅅㅕㅆ
▁1899
그리
천리
치기
▁재선
▁142
▁레슬링
▁월요일
▁ㅎㅡㄴㅎㅏㄴ
▁웬
▁실망
TS
▁각도
▁유라
▁커지
▁케빈
▁ㅇㅡㄴㄷㅔ
▁ㄸㅏㄹㅡㄴㄷㅏ
슬러
▁난징
▁생체
▁서신
▁양반
▁요건
▁응시
▁일컬
▁케임
▁브리튼
수록
▁어른
▁워너
▁임원
▁지우
▁토끼
▁토양
▁세이부
▁청주시
테르부르크
▁ㅎㅣㅁㅆㅓ
▁옹립
▁부여받
진군
urn
▁토미
▁폭포
▁화력
▁퉁
화물
▁배수
▁사간
▁기술자
▁룩셈
▁발병
▁설화
▁예고
▁워크
코딩
▁관제
▁유방
▁전속
롤라이나
▁프로덕션
▁ㅈㅗㅎㅇㅏ
▁룩셈부르크
▁소생
▁총칭
▁마르티
▁플라스틱
아먹
함수
▁대패
▁리프
▁모나
▁무함
▁저주
▁축물
셰비키
▁ㄸㅓㅇ
▁타임스
▁ㄷㅜㄴㄷㅏ
포로
▁구경
▁성폭
▁학기
▁더글러스
▁사본
▁콕
▁대치
▁자크
▁파산
▁뒷받침
▁확실히
ction
틱스
▁유진
▁정려
▁스즈키
▁프란츠
▁ㄱㅏㅇㅎㅐ
로우
▁싸이
▁거래소
▁대서양
▁ㅇㅓㄹㅕㅇㅝ
▁닦
럴드
버리
시즘
▁광주광역시
토르
▁CJ
▁마력
▁미들
▁온타리오
▁시범
▁오크
도스
▁ch
▁감행
▁안테
파이어
▁부의장
▁1902
▁만성
▁컴백
▁ㅅㅔㄹ
▁금요일
▁힌두교
브르
▁혼동
ㅌㅔ
▁ID
▁가야
▁중복
▁지옥
▁지출
▁덧
덩이
▁보위
▁왼손
▁화상
ens
▁공적
▁광둥
▁연산자
▁플랫폼
MA
타주
▁등기
▁명종
▁ㄷㅓㄴㅣ
pp
▁독서
▁동네
▁신원
▁운수
▁Man
▁도카이
▁ㅇㅣㅀㅇㅓ
▁ㅇㅣㅀㅇㅓㅂㅓㄹ
두리
▁화자
▁대성당
▁키보드
▁병기
▁우체
▁프톨레
▁프톨레마이오스
lan
▁발리
▁설교
▁수분
▁그래미
▁연꽃
▁의자
▁형조
▁니코
▁위쪽
▁채소
▁피겨
▁ㅍㅣㄹ
▁ㄱㅓㄹㄹㅕㅆ
▁발기
▁기사단
▁''
▁원천
▁코시
▁시코
▁그릇
▁대손
▁물품
▁피신
ㅆㅏㄴ
▁ㅇㅚ
▁드림
▁스턴
▁아리아
▁지식인
TA
▁늘리
▁사슴
▁원종
▁체류
▁희곡
▁바깥쪽
▁마녀
▁촉매
▁시가
▁탄도
▁감마
▁강변
▁페널
샤바
lic
▁게리
▁비석
▁포획
▁머무르
▁ㅉㅗㅊㄱㅕ
▁개소
▁국영
▁표적
▁고양시
▁아돌프
▁ㄸㅏㅇㅗㄴ
▁교통국
▁ㄱㅏㅂㅕㅇㅜㄴ
▁벨트
▁영등
▁참의
▁하단
▁ㅇㅣㄹㅜㄴ
▁기차
▁버드
▁외관
▁ㅂㅜㄹㅡㄹ
▁서류
▁선배
▁비행장
크로
폴리
▁깃발
▁ㄴㅡㄲㅕㅆ
▁BS
▁단절
▁대합
▁청산
ㅏㅅ
▁간선
▁기니
▁영문
▁정적
ㅐㄹㅕ
▁소나무
▁끊임없이
▁ㅊㅏㅈㅇㅏㄱㅏ
▁밍
글라
▁강동
▁정성
▁생생
▁유체
▁갈수록
▁마스크
▁페르디난
국사
▁익스프레스
TC
▁김지
▁동행
▁보이스
▁토착종
▁단축
▁스폰
▁주조
▁드러머
▁ㅊㅐㅇㅝ
▁가환
▁동학
▁의의
▁해밀턴
▁매카트니
▁ㄴㅏㅅㅓㄴ
ary
▁광명
▁울프
▁입성
▁혐오
▁부회장
▁이용자
▁코끼리
▁단의
▁아산
▁스위치
▁제국주의
▁포켓몬스터
카가
▁압둘
▁경성부
▁코믹스
▁선행
▁세비
▁함정
▁화강
▁제네바
▁호르몬
ㅎㅇㅏㅆ
▁ㅆㅏㅎㅇㅏㅆ
구르
그룹
▁브뤼
▁ㅇㅓㅇ
▁사이토
▁몫
▁공리
▁직결
▁헌신
▁폭격기
▁1901
▁러시아어
ach
▁수확
▁정동
▁초신
▁나노
▁어류
▁아이오
▁간토
▁광대
▁여운
테인
▁고아
out
▁ㅅㅑ
▁복용
▁본문
▁생략
▁소시
▁열도
▁이단
▁축조
▁ㅈㅛ
▁약자
▁색채
▁쓰촨
▁ㄲㅜㅁㅕ
▁ㅇㅓㄹㅕㅅㅓ
▁No
▁일산
▁임관
▁퀘벡
▁알렉산드르
ert
▁입국
▁서유럽
▁울산광역시
▁ㅇㅣㄹㅇㅡㅋㅣㄹ
모스
속기
짓점
▁민감
▁보트
▁역량
▁염증
▁채우
▁다항식
▁부작용
피어
▁부가
▁코코
▁꼭짓점
미트
▁면제
▁조립
▁하치
▁ㅎㅏㄴㅌㅔ
디나
▁권총
▁매수
▁꾀
▁체르
▁현은
▁연기자
▁렘
자르
▁김창
▁수축
▁습지
▁바이킹
▁ㅈㅔㅎㅏㄴ
▁무궁
▁자작
▁영국인
▁쿄
▁갱신
▁정문
▁삿포로
▁ㅍㅐㅎㅐㅆ
▁드라
▁성지
▁체중
▁ㄱㅏㄲㅏㅇㅝ
타임
▁경과
▁기숙
▁서문
▁카미
나우
루아
▁보복
▁치아
▁표방
▁점성술
▁아시카가
LE
▁낫
▁갈릴
▁이현
▁커스
IG
링턴
▁MB
▁엔딩
ys
▁고산
▁실버
▁정립
▁간단히
▁그다지
▁사회당
▁입각
▁크롬
▁페니
LS
파르
▁검열
▁전방
▁염색체
▁ㅇㅣㄱㅕㅆ
▁케임브리지
▁토기
▁특권
▁134
▁례
어내
▁동조
▁조이
▁아라비아
▁ㄴㅏㄱㅏㄹ
▁누적
▁두께
▁조수
레슬링
▁광저우
▁푸에르
▁대구광역시
노미야
▁요르단
▁장기간
ug
▁}
▁보헤
▁스님
▁차르
▁태그
▁호모
▁크레이
▁김제
▁분수
베트남
▁파이터
▁ㅍㅐㅎㅏㄴ
▁가역
▁상금
▁원료
▁학대
▁ㄷㅏㄷ
▁무함마드
▁동이
▁제치
▁캐서
▁KIA
▁트리플
펜하
▁독성
▁남매
▁둥글
▁마우
▁THE
▁모서리
▁사업가
▁옥스퍼드
ase
▁대두
▁미륵
▁박지
▁연봉
▁ㅈㅓㅇㅎㅐㅈㅣㄴ
기스
▁오쿠
카미
▁천하
▁카프
▁갈리아
▁ㅂㅓㄹㅇㅣㄴ
▁공명
▁직경
▁토요
▁All
▁1903
▁미시시피
▁프로레슬링
▁기르
▁레즈
▁명하
▁원본
정리
▁삼촌
▁섹스
▁쓰레기
▁1884
대장
퀘어
▁Gr
▁노보
▁다마
▁불꽃
▁소말
▁만주국
▁신도비
▁홈구장
그라
▁불신
▁아브
▁ㅅㅡㄴ
▁개인전
▁언어학
▁공고
▁좌측
테르담
▁One
▁쟈
▁공예
▁산출
▁이병
▁퇴역
▁관광지
▁이성계
▁아인슈타인
▁ㄷㅏㅇㅎㅏㄴㄷㅏ
리코
▁교대
▁선동
▁쥐과
▁하리
▁ㄴㅜㄱㅜㄴ
▁ㅈㅜㄷㅚㄴ
ㄷㅡㄹㅇㅕㅆ
처스
▁구형
▁극대
▁라그
▁트로피
▁표기법
▁아리스토
▁EX
▁강간
▁중령
ke
▁로저
▁슈팅
▁이관
▁패널
▁하비
▁쓰시마
▁알렉산드리아
아웃
카타
▁AN
▁개화
▁질소
▁루타
▁에콰
▁에콰도르
사리
▁군산
▁타케
▁노태우
▁도널드
▁전염병
▁니콜라이
▁어둠
▁패밀리
▁야마구치
▁메커
▁정선
▁피고인
텍처
▁퇴적
▁회상
▁ㅅㅏㄹㅍ
▁아키텍처
▁릿
▁Cl
▁클라이
▁비타
▁스텔
▁히타
▁아폴로
▁구스
▁도요토미
히토
▁제로
▁ㅅㅓㅁ
▁꼭대기
▁당연히
▁조반니
▁충청도
▁발렌시아
▁ㄸㅏㅇㅘㅆ
▁ㄷㅡㄹㅇㅓㄱㅏㄹ
▁우치
▁헌정
▁검출
▁대문
▁어뢰
▁드레스
▁복합체
▁프란체
▁페널티
▁1800
▁마키
▁뮤지션
▁ㅃㅐㅇㅏㅅ
▁공황
▁비뉴
▁마르틴
▁지도부
▁ㄲㅡㄹㄹㅕ
방울
올로
▁군함
▁실재
▁정유
▁콤팩트
▁LA
▁달걀
▁삼국지
▁ㅈㅣㄴㅕㅆ
▁실무
▁조형
▁철폐
▁마르코
▁히로시
라이언트
ree
▁뒤쪽
▁해남
▁소방서
▁슬라브
그레
▁당수
▁이태
▁장벽
▁함선
▁방글라
▁프레드
▁방글라데시
▁클라이언트
▁곡물
▁기분
▁반공
▁발칸
▁의결
▁흥선
▁기념관
라이어
사이드
테이션
▁강대
▁농부
▁선우
▁전위
▁터보
▁토시
니시
▁경작
▁도선
▁유부
▁소행성
▁가오
▁염소
▁인질
▁ㅍㅣㄴ
▁ㅎㅏㄹㅈㅣ
나미
▁까닭
▁우회
▁원더
▁카사
▁카를로
▁강희
▁김홍
▁단면
▁밀란
가와현
▁ㄴㅓㄼ
▁기념비
▁일렉트로
▁북아프리카
▁분출
▁더욱이
▁방사성
가르
간지
▁자형
▁팟
▁경인
▁물가
▁상가
▁상경
▁전복
▁코믹
▁복소수
불교
▁로라
▁에밀
▁우물
▁전구
▁하차
▁활주
네마
▁IN
▁건륭
▁분량
▁남동생
▁with
▁팰
개골
▁기슭
▁리더십
▁무너지
▁소수자
산맥
하키
▁권장
▁모모
▁발령
▁가브리
▁뉴욕주
▁스토어
▁그레이트
▁총대주교
▁중앙아시아
▁진전
▁파병
▁현감
▁기관총
▁모리스
▁오사카부
▁ㄲㅐ
▁궁중
▁상트
▁세바
▁수목
▁아미노산
act
▁ㄸㅓ
▁가산
▁상응
▁메커니즘
ass
▁뒤집
▁러스
▁취항
▁회피
▁220
구역
번뇌
▁감안
▁미라
▁116
▁ㅂㅜㄷㅡㄹㅓㅇㅜㄴ
▁견인
▁막스
▁브란
▁세키
▁창녕
▁에디션
▁ㅈㅡㄹㄱㅕ
▁ㅅㅐㄱㅕㅈㅣㄴ
▁Ad
▁냄새
▁대출
▁후작
▁교도소
▁아나키
11
▁Br
▁교량
▁등용
▁용서
▁이북
▁준주
▁다케다
▁민간인
▁전시회
▁관절
▁소자
▁거짓말
▁ㅆㅏㅇㅝ
▁ㅂㅏㄺㅎㅣㄴ
곡동
사우
▁CN
▁반군
▁신축
▁안경
▁정화
▁추첨
▁거주지
▁각색
▁평창
▁와일드
▁기저
▁포스터
▁한국방송공사
사업
▁돌기
▁보성
ㄹㅣㅁ
▁캐서린
▁1897
▁볼리비아
▁ㄷㅗㄹㅇㅏㄱㅏ
▁가계
▁티코
▁컨트리
▁페이스북
▁ㅇㅑㄱㅎㅐ
pt
▁낙동
▁맞붙
▁취미
▁효고
▁가열
▁상법
▁샌드
▁시야
▁마카오
▁스트라이크
▁ㅁㅗㄹㅡㄴㄷㅏ
▁무슨
▁요약
▁방송인
▁버클리
▁일부분
역학
쿠버
▁델타
▁침체
▁태백
ream
▁일자리
▁카스티
▁농사
▁안산
▁일파
▁강남구
▁교육청
▁1860
▁홉
▁간신
▁반전
▁상고
▁아소
▁절단
▁폭로
▁데스크
▁ㅇㅡㄹㅕㄱㅗ
벤처
▁갈래
▁델라
▁올드
▁한층
▁어드벤처
▁ㅇㅗㄹㄹㅏㄱㅏㄴㄷㅏ
▁깨끗
▁르노
▁오로
▁배우자
▁GO
▁마블
▁마니
▁사살
▁장자
▁효종
▁연대기
▁ㄷㅏㅇㅜㄴ
▁꿀
파리
▁나루
▁리조
▁확진
▁이주하
ㅔㄴ
▁휴가
기념물
▁홍문관
▁데카
▁수료
▁음향
▁장제
▁알프레
▁ㄱㅡㄹㅕㅈㅣㄴ
▁Is
▁가의
▁마가
▁타우
▁ㅅㅣㅋㅕㅆㅇㅡㅁㅕ
▁구약
▁득표율
▁Ex
▁네오
▁접수
▁대관
▁저렴
▁전산
▁스크립트
▁;&
▁공손
▁민정
▁청색
▁추론
▁카즈
▁카타르
▁넘기
▁샌디
▁심화
▁체력
▁쿠니
캐롤라이나
▁ㅈㅏㅂㅎㅕ
▁다가
▁리히
▁사카이
▁경제학자
▁북경
▁석불
스카르
▁122
▁아름답
ㅂㅏㄹㅡㄴ
▁중공업
▁앰
나드
츠크
피언
▁가신
▁글래
▁미네소
▁바르샤바
부리
▁서리
▁이반
▁쥐속
▁모티브
▁깎
반구
▁안드레아
산성
푸르
▁적군
▁ㅈㅏㅁ
▁떡
▁이빨
▁스퀘어
▁유닉스
도비
퍼슨
포터
▁소행
▁중원
▁후반기
▁2022
▁마애
▁입주
▁전격
▁집결
▁동형
▁막시
▁석회
▁ㅈㅜㅇㅓㅈㅣㄴㄷㅏ
▁느리
▁수중
▁ㄹㅠㄴ
▁게릴라
▁아마존
▁클라크
▁ㅂㅕㄴㅎㅏㄴ
▁죠
▁버마
▁종파
▁타협
▁ㄱㅓㄷㅝㅆ
▁브룩
▁윤보
▁화순
▁가져오
▁ㅁㅜㄹㄹㅣ
콥터
▁갑옷
▁고토
▁짐작
▁합당
▁몰아내
▁솔루션
▁인테르
푸아
▁모용
▁상트페
▁지지율
▁상트페테르부르크
ii
▁보강
▁ㄷㅏㄹㅡㄹ
▁ㅇㅕㄹㄹㅣㄴㄷㅏ
▁돌입
▁무술
▁사적
▁찰리
▁창의
▁con
▁두개골
▁설립자
▁흥선대원군
▁군청
▁메릴
▁세네
▁안치
▁종점
▁특색
▁공용어
▁1880
거진
▁신동
▁애리
▁호쿠
▁NGC
▁급수
▁리만
▁신정
▁갤러리
▁그리스인
▁강철
▁유대교
▁BM
▁격차
▁과실
▁메라
▁정경
▁청소
▁마라톤
▁새로이
▁옥수수
네시
▁빈도
▁약하
▁용암
▁유정
▁호응
▁진행자
▁공약
▁마당
▁무로
▁어로
▁예명
▁장원
▁나란히
▁제작사
▁제리
▁콘테
▁함양
ㅁㅏㄹ
▁133
▁키예프
▁그레고리오
▁셜
▁가가
▁벽화
▁실적
다르
리즘
iss
▁루크
▁복권
▁이장
▁함부르크
▁천연기념물
▁ㅇㅕㅆㅇㅡㅁㅡㄹㅗ
▁가네
▁노이
▁스노
▁이언
▁ㅊㅣㄹㅡㄴ
▁ㅇㅗㄻㄱㅕㅈㅕㅆ
▁기성
▁번성
▁입양
▁확고
▁극작가
▁ㄴㅡㄲㅣㄴ
▁ㅂㅜㅌㅇㅕㅈㅣㄴ
니지
ake
▁등극
▁소령
▁일괄
▁자결
▁종말
▁팔레
▁프렌
▁ㄲㅡㄶ
▁파라과이
타케
▁디트로
▁ㅈㅣㅋㅕㅆ
▁디트로이트
own
▁타지
몰로지
▁왕정
자치시
사관학교
▁ㄸㅏㄹㅏㅆ
▁ㅇㅗㄴㄷㅏ
▁특별자치시
▁연동
▁연못
▁이동하
▁쑤
기구
올리
▁ㅅㅕ
▁선장
▁출석
▁준결승전
케이
▁블리
▁수녀
▁Mus
▁사로잡
▁그렇지만
▁ㄷㅓㅍㅇㅕ
▁ㅈㅏㄹㄹㅏ
▁몽고
▁심야
▁이규
▁교육부
▁그림자
▁법정동
▁일러스트
▁유령
▁랍
▁극도
▁진료
▁경쟁력
▁무궁화
▁추종
▁평민
▁CBS
▁포도당
ㅇㅡㄴㅣ
▁제왕
▁조계
▁펜싱
▁랴
▁농어
▁오락
▁장흥
▁헬륨
▁고추
▁CEO
▁미생물
▁그레고리
▁애틀랜타
▁파우
ㄸㅏㄹ
▁GDP
▁위나라
▁사무총장
▁무스
▁열심
▁자생
▁자카
▁아래쪽
▁엘리트
▁ES
▁국유
▁겉보기
clude
▁ㅎㅏㄴㅈㅣ
▁개항
▁도사
▁명분
▁문경
▁아치
▁위생
▁앨리스
▁미셸
▁빛나
▁숙주
▁스로
▁탁월
▁132
▁지방산
▁ㅁㅗㄹㄹㅕ
미스
▁가볍
▁프랭클린
▁ㅇㅡㄹㄲㅏ
그래
세우
타마
▁니카
▁수년
▁우상
▁칼뱅
▁ㅅㅏㄹㄹㅕ
▁이득
▁지청
▁스리랑카
▁스트라이커
HO
림픽
원장
▁듀얼
▁ㄷㅚㄴㄷㅏㅁㅕㄴ
UR
old
▁수심
▁유스
▁정인
▁총무
▁대성전
▁더비
▁반역
ㄸㅡㄹㅕㅆ
Hz
▁툰
세기
▁결핍
▁재난
▁재해
▁주지
▁프롤
▁동성애자
멘스
▁듀오
▁아데
▁글로브
▁시뮬레이션
▁ㅎㅐㅈㅣㄴㄷㅏ
에미
헌영
▁리모
▁애칭
▁이데
▁인프라
ㄲㅡㄹㅓㅇㅜㄴ
▁섀
▁++
▁감동
▁광양
▁자르
ㅇㅑㄴ
위성
▁동요
▁상연
▁정관
▁진수
▁삼국사기
▁인디애나
스기
▁김민
▁빈번
▁어리
▁ㅅㅣㅋㅣㅁ
미즈
▁ㄹㅑ
▁결제
▁초원
▁대지진
▁온갖
▁워치
▁원격
바야시
▁마다가
▁얹
ork
▁NE
▁주화
버러
▁격자
▁조병
▁ㅂㅜㅌㅈㅏ
보내
▁극락
▁베른
▁속편
▁파이프
▁ㅇㅏㄴㅣㄹ
ix
▁동참
▁시종
▁타석
▁마우스
▁무조건
렉션
▁브랜
▁현직
▁미주리
▁쾰
거래
파크
▁호족
▁요제프
▁ㅅㅔㅇㅝㅈㅕ
GA
메다
벨라
▁or
▁까지
▁대사헌
▁복음서
▁ㄱㅓㄹㄹㅣㄴ
▁국수
▁부드
▁현행
▁기상청
▁보헤미아
▁패럴림픽
▁속주
▁울리
▁pro
해튼
▁강풍
▁대국
▁현황
()
lo
▁김옥
▁상기
▁암흑
▁농산물
▁자세히
▁저널리
▁ㄷㅜㄹㄹㅓㅆㅏㅇㅕ
천사
▁대각
▁발각
▁신상
▁요법
위원회
▁ㅎㅏㄱㅗ
▁ㅂㅜㅌㅇㅕㅈㅕㅆ
▁Ro
▁청자
▁평안남도
ick
▁kt
▁단과
ence
▁우체국
▁ㅁㅗㅇㅡㄴ
루냐
▁라오
▁맹세
▁피로
▁아니하
▁통틀어
▁볼셰비키
ㅂㄴㅣㄲㅏ
▁파문
마리
▁후속작
▁합스부르크
변이
CAF
▁La
▁총기
▁투항
▁호의
▁활주로
▁돌연변이
▁슛
를테
▁PR
▁가타
▁불행
▁황도
를테면
▁1870
▁이를테면
▁공파
▁세손
▁페로
▁해부
▁ㅈㅝ
▁감금
▁낙하
▁쳐
▁ㅉㅏ
▁낮추
▁초고
▁ㅋㅐ
▁ㅌㅟ
▁공표
▁밀러
▁의과
▁재질
▁호리
▁Mar
▁단행본
▁매거진
▁평안북도
▁숀
라기
▁서장
▁소울
▁장대
▁표창
브리아
▁모터스
▁창시자
▁ㅇㅏㄴㅣ
삭스
▁관동
▁만년
▁생계
▁왜구
▁저격
▁정국
▁중앙부
▁트리니
울리
홀름
▁아빠
▁뾰
▁To
▁시국
▁제너
▁ㅇㅗㄹㅂㅏㄹㅡㄴ
▁댓
▁쓸
▁DM
▁말년
▁양육
▁우아
▁소피아
플로
할시
▁루비
▁머스
ance
▁NAS
▁타이베이
공산
▁김병
▁아쿠
▁450
▁청동기
▁1885
▁프랜시스
▁엥
▁계시
▁복식
▁비늘
▁입수
▁애리조
▁국악
▁로페
▁배속
▁이븐
▁기병대
▁내려가
▁아스널
▁우즈베키스탄
▁른
▁돌출
▁포고
▁USS
▁1871
ㄷㅐ
▁Ph
▁대장군
▁오로지
▁ㄲㅗㅂㅎㅣㄴㄷㅏ
EM
▁짱
▁리터
▁세븐
▁카바
▁비주얼
ection
▁아이스하키
▁ㅂㅓ
▁붙잡
▁다람쥐
▁활발히
▁알래스카
▁ㄷㅡㄹㅓㄴㅏㄴ
티시
ear
▁un
▁난이
▁성령
▁수염
▁신종
▁앞쪽
십자
타이드
▁로렌스
테리아
▁앤더슨
▁마르크스주의
제이
▁전날
▁중생
▁ㅉㅣㄴ
▁양성자
▁1600
▁쿡
지로
▁맷
▁감수
lass
▁선보이
▁프레이
▁ㅎㅏㅇㅑㄴ
▁ㅈㅏㄹㅏㄴㄷㅏ
지오
▁내면
▁유러
▁휴게
▁흉노
▁내무부
▁편집자
▁only
▁오클랜드
▁ㅁㅗㅇㅣㄴ
▁벤치
▁참사
▁카터
▁경질
▁로리
▁원심
▁중상
▁빅토르
ild
▁내성
▁이양
▁퇴장
▁수원시
▁유러피언
▁낚
▁시애
▁위스
▁박헌영
▁센고쿠
▁꺼
irl
▁부조
▁자칭
▁테일
▁파나마
▁1200
쩌둥
▁오라
▁유료
▁마오쩌둥
테쓰
▁매직
▁역도
▁청룡
▁화랑
▁마닐라
▁케이프
▁GN
▁봉수
▁중서
▁지성
▁콜레
▁ㅈㅜㄹㅇㅕ
▁관행
▁루카
▁볼프
▁장단
▁해저
ㄹㅇㅏ
▁예정자
▁능선
▁반성
▁탑신
▁ㅅㅏㄹㅇㅏ
▁ㅇㅗㄹㄹㅏㅆㅇㅡㅁㅕ
▁뛰어
▁수인
▁친분
▁윤보선
▁마다가스카르
▁즘
▁민요
▁케라
▁240
▁반란군
체고
파이
▁재외
▁카니
▁김정은
체고비나
▁ㄴㅜㄱㅜㄴㄱㅏ
▁SL
▁갈리
▁구니
▁이모
▁출가
▁티켓
▁김규식
ㅇㅡㅁㅡㄹㅗ
▁ㄴㅏㄱㅏㄴㄷㅏ
▁리바
▁바디
▁스태
▁다나카
▁부원군
▁시애틀
▁오른손
▁ㅂㅜㄹㄹㅣㄴ
▁교실
▁ㅇㅡㄹㅈㅣ
▁ㄲㅡㅌㄴㅏㅆ
▁이방
▁증인
▁플랜
▁시달리
▁실험실
▁구마모토
관리
맥스
▁vs
▁국당
▁놀라
▁사쿠
▁조광
▁조례
▁초빙
▁ㅅㅣㄷㅏ
▁프로리그
▁ㄱㅓㄴㅡㄹ
▁콘스탄티노폴리스
▁당내
▁생선
▁맨해튼
▁알렉스
▁앤드루
▁해리슨
▁ㄹㅕㄷㅓㄴ
▁ㅌㅣ
▁수교
텔레스
▁역사가
▁AD
▁성실
▁정제
▁제동
▁부드럽
▁프라하
OV
▁서산
▁시리
▁지쿠
▁파인
▁제조업
▁ㄴㅏㅌㅏㄴㅐㄴ
메스
▁몸통
▁시중
▁징병
▁통역
천면
▁관문
▁궁궐
▁무척
▁반하
▁요지
▁이완
▁ㄴㅓㄹ
▁돌려
▁리비
▁상급
▁송도
▁재활
▁동물원
▁미군정
▁헬리콥터
▁ㅅㅐㅇㄱㅣㄴㄷㅏ
코토
▁Sy
▁ㅎㅜ
▁개헌
▁루돌프
▁왕세자
▁ㅁㅣㅊㅣㄴ
올라
ans
▁경희
▁부각
▁함자
ㅏㅈㅣㄹ
ivers
▁괄
▁경시
▁국보
▁남용
▁오미
▁허드
▁ㅇㅣㅅ
▁공민왕
ㄲㅇㅣㄴ
▁ㄴㅓㅁㅇㅓㄱㅏㅆ
▁고쿠
▁섬세
ype
▁CM
▁남산
▁호크
▁대대로
▁성남시
▁신문사
▁하노이
▁ㄴㅑㄴㅡㄴ
▁아리스토텔레스
▁다투
▁창문
▁커플
▁EBS
▁동대문
▁제퍼슨
무소
▁구청
▁분과
▁차용
사상
어사
▁알아
▁이룩
▁아무것
▁ㅊㅓㅎㅐ
▁총통
▁줄거리
▁클린턴
include
▁남해
▁뉴클
▁드미
▁바트
▁뾰족
▁위너스
▁클레이
▁얕
▁개개
▁리조트
▁러시아인
▁각성
▁테라
▁사각형
▁서재필
▁ㄴㅏㅌㅏㄴㅐㅆ
ish
▁배려
▁총애
▁카지
▁칼럼
▁화기
▁동유럽
▁레이크
▁생겨나
▁솔로몬
▁퍼스트
▁농경
▁에프
▁통용
▁가늘
▁김원
▁시합
▁ㅊㅏㄹ
▁크라이
▁엮
▁안녕
▁주임
▁퍼스
▁하반
▁MTV
▁싣
컨대
▁":
▁시노
▁학설
▁선거법
▁나우
▁하키
▁화엄
ㅐㄱ
▁산호
▁씨앗
▁약혼
▁경영자
▁브루스
▁자치체
▁해리스
GM
▁돌보
▁지오
▁푸르
▁대합실
▁브레이크
▁NT
▁갑작
▁나선
▁독창
▁보로
▁스가
▁효자
▁케플러
▁올림피아
▁ㄴㅐㄹㅕㅈㅕㅆ
▁돋
oun
▁광도
▁실존
▁주입
▁처하
▁천왕
▁퍼포
▁포착
▁허정
▁ㅍㅕㄴ
▁ㄴㅡㄴㄷㅏㅁㅕㄴ
▁겁
라니
에스
▁관청
▁시부
▁하류
▁함경남도
▁ㅇㅓㄹㅕㅇㅝㅆ
▁모의
▁진해
▁아키라
▁퍼포먼스
▁@
원수
▁독도
▁모호
▁수양
▁전래
▁칙령
▁예선전
RA
▁되돌
▁성화
▁유혹
▁요시다
▁Jo
▁ex
▁메뉴
▁자제
▁파도
▁스테파
▁유치원
▁총사령관
fe
토랑
▁보라
▁일당
▁분류군
▁레스토랑
OD
▁경호
▁케인
지르
▁로버
▁지로
▁내야수
정원
▁검정
▁극한
▁메카
▁수필
▁트릭
▁평형
▁ㅌㅡㄴ
▁긴테쓰
ey
▁다테
▁마차
▁분파
▁카테
▁호스
▁비밀리
▁유권자
통일
▁sc
▁만장
▁ㄷㅏㄱ
▁네이션스컵
나오
▁문고
▁신발
▁전무
▁예수회
히트
▁리보
▁보행
▁찬사
▁테리
▁아키타
▁어군
▁뉴클레오
바흐
창호
▁블로
▁욕망
▁제물
ical
▁비타민
▁스톡홀름
▁뻔
등식
▁카피
▁알프스
▁컴퓨팅
▁ㅇㅓㅉㅓㄹ
환경
▁마술
▁원통
▁서대문
▁잡아먹
▁ㄷㅚㄷㅗㄹㅇㅏ
▁실정
▁캐롤
신문
lat
▁ㅆㅏㅎ
▁ㄷㅡㄴㄷㅏ
러브
▁김유
▁타스
▁포식
▁보수당
▁오리온
▁자치주
▁드루
▁박종
▁절망
▁다저스
TP
▁도교
▁맞대
▁엄밀
▁이점
▁스폰서
▁친위대
▁ㅅㅣㄹㄹㅣㄴ
EG
▁넷째
▁마셜
▁묘비
▁블레
▁수복
▁프론
▁ㅅㅏㅆ
▁유아기
▁플라톤
▁와이번스
▁ㅆㅡㅇㅕㅈㅣㄴ
암동
▁강령
▁리베
▁방콕
▁소음
▁이렇
▁ABC
▁바이트
▁방어선
▁프린스
▁도둑
▁모어
▁색소
▁ㅎㅏㅇ
▁마천루
▁ㅎㅑㅇㅎㅐㅆ
▁ㅇㅗㄹㄹㅏㄱㅏㅆ
메드
▁고든
▁본성
▁북아일랜드
▁천국
▁치과
▁황소
▁ATP
▁멧
▁CH
▁나인
▁럭비
▁불변
▁웨인
▁장시
▁파손
▁로드리
▁ㅂㅗㄴㄸ
▁ㅂㅜㄹㄹㅓㅇ
▁전담
▁천거
▁헬싱
▁대원군
▁정의당
▁AV
▁DD
▁구내
▁구실
▁동로
▁추이
▁톈진
▁투자자
▁피라미
▁피아니스트
▁샐
▁무실
▁상행
▁야드
▁포토
▁폭파
▁개구리
▁나트륨
▁노론
▁마켓
▁벤처
▁시몬
▁실권
▁연산군
▁튀르크
매매
▁침묵
▁마누엘
덴부르크
▁연극배우
▁ㅎㅏㅂㅊㅣㄴ
▁대본
▁영유
▁210
▁Fr
▁선천
▁소극
▁쾰른
▁정부군
▁콘테스트
▁당연
▁리사
▁삼존
▁슬하
▁퇴직
▁화약
▁용인시
▁화강암
▁ㄹㅏㅅㅓ
▁헤르체고비나
군다
are
▁스텝
▁제노
▁찬양
▁토스카
▁ㅇㅏㄹㅡㅁㄷㅏㅇㅜㅁ
▁pr
▁야전
▁약사
▁특전
▁프레데
▁가브리엘
FL
▁휩
놀이
대교
티넘
▁넘치
▁릴리
▁백두
▁소중
▁스칸
▁왕권
▁ㅇㅣㅈ
▁선구자
▁알파벳
▁적외선
▁주차장
▁플래티넘
▁결별
▁마에
▁아나톨
EL
ica
▁Ma
▁국공
▁본작
▁정거
▁중퇴
▁차출
▁목요일
▁오바마
▁ㅈㅜㄱㅇㅣㄴ
▁채취
▁가이드
▁경전철
▁유격수
수스
▁ㄱㅕㄴ
▁동시대
▁ㅈㅡㄹㄱㅣㄹ
사고
▁ㅎㅣ
▁사방
▁위그
▁이의
▁he
▁별세
▁유선
▁준수
▁ㅈㅕㅅㅓ
▁ㅇㅣㄹㅝㅈㅕㅆ
대표
▁감찰
▁대북
▁리본
▁봉화
▁일리
▁1889
▁ㄴㅏㄱㅏㄴ
▁가락
▁방치
▁밸리
▁삼림
▁ㄹㅓㅅㅓ
▁ㅇㅏㄹㅇㅏ
▁로크
▁아날
▁여유
▁영정
▁요충
▁추리
▁한미
공산당
▁ㄹㅕㄷㅏ
▁가맹
▁맞서
▁반포
▁슬픔
▁리프트
난성
언스
▁강렬
▁송신
▁종식
▁안테나
▁초신성
▁스카우트
지기
클레
60
천동
▁불참
▁실록
▁여권
▁켈트
▁아이폰
▁ㄱㅏㅈㅕㅇㅗㄴ
▁베트
▁우림
▁하시
▁호대
▁기관지
▁패트릭
▁ㅊㅟㅎㅐㅆ
소통
▁모하
▁직통
▁딥
충류
▁공존
▁비엔
▁투여
▁메이커
▁가솔
▁정형
테이너
▁So
▁끼치
▁담보
▁대영
▁영예
▁임정
▁중합
▁ㅅㅓㄹ
▁밴쿠버
▁멍
▁니혼
▁산성
▁의류
▁이송
▁전전
▁주계
▁처지
▁칸국
▁엔트리
▁타이거스
▁늙
▁간첩
▁다윈
▁불량
▁야시
▁말미암
▁의사소통
▁ㅂㅓㄹㅇㅕ
▁김형
▁모금
▁유목
와라노
▁ㅂㅏㄲㅟㄴ
▁후지와라노
▁구두
▁연말
▁왕건
▁메디치
▁ㄸㅓㅇㅗ
▁CONCA
▁ㅂㅏㄲㅝㅆ
부로
위안
▁건전
▁매트
▁미수
▁비야
▁집정
▁플리
▁ㅂㅗㄴㅐㄴㄷㅏ
▁끓
카리
▁중수
▁판례
▁ㅇㅣㄲㅡㄹ
▁감상
▁감성
▁격리
▁사설
▁종자
▁지자
▁펌프
▁형질
▁For
▁타이어
▁Live
▁CONCACAF
드레
▁로트
▁열강
▁작물
▁ㄱㅣㄷㅏ
▁고속버스
▁센티미터
AF
바나
▁그저
▁김준
▁사서
▁시크
▁인가
▁두려움
▁똑같이
▁ㅎㅣㅁㅆㅓㅆ
▁금호
▁서임
▁수락
▁예약
▁절정
▁정읍
▁피지
▁ㄱㅜㄷ
▁ㅌㅡㄹ
▁로마인
▁소말리아
▁ㄴㅏㄹㅇㅏ
▁라리
▁라자
▁무형
▁의령
▁낙동강
▁발라드
sh
▁앙골
▁후배
▁JTBC
▁프란체스코
▁훙
▁원군
▁미야자키
▁ㄱㅗㅊㅕㅆ
▁사탕
▁정종
▁캐리
▁하야
▁생존자
▁ㅁㅗㅅㅕ
▁들이
▁마땅
▁사역
▁애정
▁쿠퍼
▁ㅇㅣㄱㅕ
bo
휴일
▁메소
▁은거
▁시네마
▁열심히
란토
블랜드
▁스트로
▁ㅁㅓㅁㅊ
▁가나가와현
망디
유예
▁가도
▁백과
▁정작
▁Sou
▁드디어
▁레이싱
▁나카무라
▁카탈루냐
가미
프로
▁도피
▁목회
▁잠정
도르프
부르
캐슬
▁극우
▁리옹
▁송출
▁치환
에미리트
▁자유민주당
▁아랍에미리트
▁공소
▁금산
▁기이
▁습윤
▁요격
▁제명
▁징수
바이트
▁장학금
▁ㄱㅏㄹㅕ
▁ㄱㅏㄹㅗ
▁피라미드
EE
▁모색
▁반기
▁연정
추부사
▁클리블랜드
▁ㄸㅟㅇㅓㄴㅏㅆ
▁ㅅㅏㄹㅏㅈㅣㄴ
IL
▁미야기
▁고딕
▁볼트
하이오
tern
▁여배우
▁오하이오
▁프랑스인
▁ㅈㅣㄴㅣㄴㄷㅏ
▁비준
▁트렌
마르크
▁캅
▁유의
지능
▁GB
▁거미
▁로얄
▁유희
▁평평
▁AKB
▁간신히
▁광복군
▁유니버설
▁인공지능
▁김명
▁벨리
▁항만
▁Com
▁int
▁ㅇㅣㄹㅇㅡㅋㅣㄴㄷㅏ
간다
대사
ood
▁"&
▁무네
▁순종
▁카카오
▁츄
자루
▁격추
▁삼중
▁Col
▁검은색
▁교통부
ost
▁성곽
▁여고
▁자서
▁ㅈㅔㄴ
▁레이트
▁마이어
▁Part
▁Time
풀이
현동
▁EU
▁무과
▁암스
▁워커
▁ㅊㅟㅎㅐ
▁헛
ㅂㅆ
▁수로
▁악보
▁페트
▁ㅈㅏㄴ
▁1848
▁ㅇㅣㄹㅝㅈㅣㄴ
▁사쓰
▁서태
▁뉴캐슬
▁토리노
▁ㅃㅏㄹㄱㅏㄴ
▁ㄷㅡㄹㅓㄴㅐㅆ
나마
▁바지
▁추력
▁탄약
▁티아
▁한림
▁한중
▁레이더
▁벅
▁모욕
▁문집
▁익숙
▁기숙사
에몽
화문
row
▁포털
▁해태
span
거스
지부
▁비추
▁추억
▁부총리
▁ㄴㅗㄹㄹㅏㅇㅜㄴ
▁급여
▁꼽히
▁댄서
▁ㄱㅕㅁ
▁onlyinclude
▁하행
▁해피
▁ㅍㅜㄹㄹㅕㄴ
uc
애미
▁김광
▁오만
▁재팬
▁줄리
프랑크
▁공휴일
▁여의도
▁마이애미
의사
▁라이더
▁브레이
▁튀니지
▁ㅈㅕㅆㅇㅡㄴㅏ
▁도래
▁라르
▁매킨
▁볼로
▁바그너
▁프랑스령
ㅟㄹ
▁남군
▁셀레
▁양심
▁우한
▁종군
▁토트
▁에이즈
▁지상파
▁카스티야
정동
lay
▁보령
▁재일
▁절벽
▁해독
▁대니얼
▁스타트
ㅇㅎㅏㄴㄷㅏ
ous
▁국한
▁워즈
▁조인
▁특화
▁고인돌
▁클라우
▁프란치
▁대승불교
▁어시스트
ㅈㅣㄹㄹㅓ
▁병자
▁어찌
▁여사
▁유식
▁음절
▁우루스
▁일본국
▁페트로
▁공대
▁비토
▁사민
▁천주
페스트
▁교의
▁무안
▁산둥
▁업자
▁코리
▁국제법
▁법원장
▁정치학
▁ㅎㅟㅂㅆ
▁가혹
▁치카
▁합치
▁ㄴㅜㄹㅕㅆ
▁ㄴㅡㄹㅣㄴ
▁ㅅㅣㅋㅕㅅㅓ
파니아
olog
▁지배자
메니
orn
ows
▁EM
▁굴절
▁다치
▁방대
▁어긋
▁인칭
▁제위
▁SNS
▁시멘트
▁시코쿠
▁관현악단
지아
▁랴오
▁리카
▁비대
▁안개
▁총격
▁클러
해살이
▁그랜트
▁명확히
▁아이즈
▁ㅂㅏㄹㅏ
▁로키
▁비정
▁정거장
▁보수주의
▁가쿠
▁공성
▁부평
▁Bla
▁단결
▁대리인
▁하노버
브로
ann
▁경복
▁모건
▁선명
▁숙부
▁마법사
▁저지대
▁제우스
▁카메룬
▁ㅂㅏㄲㅜㄹ
OP
▁거란
▁문단
▁항체
메이카
▁API
▁자메이카
▁줄기세포
az
▁김인
▁사수
▁신곡
▁용액
▁평지
▁황색
도라
▁류큐
▁마테
▁명소
▁연립
▁오디
클리드
▁131
▁Your
▁부다
▁케르
▁ㄸㅢ
▁귀신
▁대마
▁대나무
▁대단히
▁정보원
▁NASA
틀리
▁at
▁베어
▁부합
▁안방
▁점포
▁지법
▁레드삭스
서스
▁ㅇㅞ
▁도키
▁메일
▁선봉
▁적료
▁대법관
▁ㅈㅓㅂㅎㅏㄴ
▁쾨
▁BC
▁검거
▁고로
▁글꼴
▁서귀
▁설문
빌라이
▁ref
▁ㅅㅣㅋㅕㅇㅑ
▁동산
▁모범
▁종양
▁하코
▁항우
칼리
▁모빌
▁재편
▁전한
ㄹㅣㄴㄷㅏ
▁욱
시노
▁응급
▁최진
▁OST
▁1883
▁녕
▁공영
▁기와
▁사림
▁지석
른스트
▁제이슨
▁패러디
▁ㅅㅐㅇㄱㅕㄴㅏㄴ
▁곶
으로
히사
▁골격
▁남방
▁홀리
드리아
▁가솔린
▁영화상
관계
▁관상
▁초콜
▁혼다
네그로
▁라파엘
▁u
▁계주
▁동진
▁소외
▁수식
▁연희
▁전보
▁한신
▁ㅅㅓㅆ
▁방사능
▁줄리아
▁ㄸㅐㄹㅕ
▁그라운드
▁ㅂㅏㅊㅕㅆ
▁ㅍㅏㄹㄹㅕㅆ
▁다듬
▁다툼
▁무작
▁중엽
▁탄자
▁ㄹㅏㄱㅣ
▁기세
▁식스
▁진로
레스트
▁노르망디
▁텍사스주
거지
▁속력
▁부상자
▁판소리
▁교향악단
▁녹화
▁대좌
▁도박
▁쌍대
▁코소
▁큐브
▁비서관
80
▁깜
▁피리
▁형벌
▁연구회
▁경위
▁근사
▁삽화
▁실증
▁유공
▁이터
▁tv
▁가우
▁간략
▁병마
▁산요
▁평판
▁ㄷㅏㅇ
▁해상도
▁가토
▁라바
▁외치
▁자명
▁하남
▁에스페
▁프로그래머
▁펴
▁GM
▁공무
▁야외
▁유우
▁카네
▁카마
▁편견
▁달라지
▁리마
▁리즈
▁봉인
▁온난
▁은혜
▁절감
▁조교
▁최선
▁흘러
▁고분군
센스
▁우산
▁에이전
▁위구르
▁파일럿
▁촛
▁Ge
▁가중
▁꿈꾸
▁니키
▁단군
▁토마토
▁쿠빌라이
▁노면
▁송파
▁열전
▁타락
▁만화가
▁ㅇㅣㅀㅇㅓㅂㅓㄹㅣㄴ
합성
▁고생
▁발상
▁요절
▁월터
▁콘솔
▁이용객
▁체인지
ern
▁ㅋㅣㅇㅝ
▁야마가타
▁RP
▁부왕
▁성동
▁안나
▁유생
▁후진
▁해안선
▁ㄷㅏㄹㄹㅏㅆ
▁콥
용차
▁고흥
▁권역
▁기량
▁함량
▁1882
▁봇
버른
제품
▁관례
▁북군
▁엔드
▁학력
▁Day
▁Wind
▁ㄱㅕㅂㅊㅕ
40
▁멋
▁고노
▁모세
▁상어
▁수위
▁ㅇㅓㅄ
▁ㅇㅗㄹㄹㅏㄱㅏ
워스
프턴
▁간사
▁거성
▁국교
▁국외
▁기전
▁라디
▁세습
▁스루
▁위로
스트리
▁슈퍼컵
▁스칼라
▁연장전
▁원산지
▁중소기업
▁ㄷㅏㄹㅇㅏㄴㅏㅆ
II
▁덮개
▁루키
▁친족
▁헬레
▁다이어
▁올리브
▁ㄱㅓㄹㅊㅕㅅㅓ
에고
ink
▁RS
▁SA
▁가고
▁예컨대
▁통신사
CC
포시
▁고의
돌이
토프
▁배분
▁왕궁
▁유서
▁데니스
▁전반기
▁ㅂㅏㄲㅜㄴ
들이
▁내일
▁단정
▁정월
▁조셉
▁주선
▁ㄷㅜㄲ
▁아이언
▁아날로그
교통
▁FK
▁새우
▁우시
치히
▁수다
▁요양
▁파벌
▁플러
오르크
▁공화정
▁카스트
RT
▁이회
▁장덕
▁직속
▁항원
▁330
▁단체전
▁대표자
▁관계없이
▁뫼
▁앗
려가
▁관악
▁도네
▁Sch
▁선진국
▁ㅁㅜㄷㅎㅕㅆ
▁강당
▁결사
▁급증
▁단속
▁사영
▁아목
▁자수
▁제천
다운
▁관목
▁부교
▁상록
▁지극
▁내세우
▁미스터리
▁정정
▁타수
▁국정원
▁중공군
▁해운대
▁ㅇㅗㄻㄱㅣㄴ
데라
▁램프
▁성원
▁위조
▁재래
▁ㄸㅣㄴ
▁노벨상
▁브루클린
▁시즈오카
▁몹
서니
▁딜런
▁배달
▁시안
▁최영
▁협업
▁경주시
▁미토콘
▁영원히
▁테네시
▁호스트
▁ㅂㅜㄷㅣ
▁미토콘드리아
▁ㅎㅡㄹㅡㄴㄷㅏ
▁내걸
▁동포
▁몰타
▁보루
▁사학
▁씨족
▁외래
▁조슈
여객
▁산시
▁정은
▁주창
▁4000
▁Girl
▁ㄴㅡㄲㅣㄹ
▁ㄴㅗㅎㅇㅣㄴ
게스
▁랭크
▁북유럽
▁지붕돌
▁파푸아
▁필립스
본부
▁부르주
▁제갈량
▁휴게소
나기
팡이
▁보름
▁염려
▁레오폴
▁사업소
▁넬슨
▁빙하
▁소프
▁천수
▁콜럼
▁new
▁단말
▁영덕
▁너무나
▁대상자
▁멜버른
▁ㅂㅣㅎㅐㅅㅓ
융합
▁규탄
▁남하
▁발동
▁사치
▁수열
▁군사력
▁베이커
▁산티아
▁메릴랜드
▁유클리드
▁컨테이너
US
▁괌
지리
▁라미
▁맡기
▁번창
▁서면
▁선대
▁잠깐
▁지르
▁표정
스탄불
▁안티오
▁1868
▁이스탄불
▁ㅊㅣㄹㅓㅈㅕㅆ
OT
▁양보
▁일각
▁회귀
▁OB
▁과테
▁어파
▁제단
▁할인
▁앙골라
▁요충지
▁과테말라
▁컨트롤러
▁대인
▁종영
▁태후
▁피핀
티모어
▁알아보
▁핵융합
▁사이타마
▁냥
oll
▁Or
▁군벌
▁범행
▁신입
▁형편
▁ㅂㅣㅊ
▁동적
▁받들
▁사안
▁스캔들
▁오스틴
▁ㅅㅔㅇㅛ
▁몬테네그로
▁사회민주당
▁우의정
▁지켜
▁후예
▁라인업
▁ㅅㅏㅇㅎㅐ
▁노사
▁전수
▁충렬
▁급속히
▁떠오르
▁파시즘
해자
▁ㅁㅜㄹ
▁어울리
▁이바지
협회
▁객차
▁고트
▁농지
▁사천
▁우월
펜하겐
▁뛰어들
▁주계열
▁폐기물
▁코펜하겐
▁노후
▁버터
▁ㅎㅜㅁ
▁기념일
▁ㅆㅏㅇㅜㄴ
▁강행
▁뒤이
▁영월
▁오아
▁청도
▁프랜차
▁ㅍㅣㅎㅏㄹ
히드
▁법관
▁장병
▁하의
웨이트
▁부파
▁성산
▁초안
▁항로
▁아케이드
▁사운드트랙
▁colspan
▁교직
▁다우
▁영암
▁우왕
▁위촉
▁저조
▁독수리
▁무실점
▁커리어
▁히브리
ㄷㅡㄹㅇㅓ
▁ㅊㅟㅎㅏㄴ
▁너머
▁러일
▁식용
▁카세
ㄲㅡㅁ
▁320
▁ㅅㅕㄴ
▁신주쿠
▁ㅇㅓㅄㅇ
▁요하네스
▁ㅅㅐㄱㅣㄴ
▁프란시스코
▁외과
▁외형
▁차선
▁LED
▁김옥균
▁좌의정
▁베르나르
▁ㄱㅔㄲㅡㅁ
▁ㅈㅜㄹㅇㅓ
▁대청
▁사비
▁이메
▁절제
▁청계
▁사이먼
▁추서
▁헌장
▁수요일
▁야마모토
ㅣㄹㅇㅡㅋ
▁ㄷㅡㄹㅣㅁ
▁암스테르담
▁ㅂㅜㄹㄹㅓㅇㅣㄹㅇㅡㅋ
호란
▁밀레
▁배리
▁복종
▁아유
▁족보
▁종신
▁준장
▁증폭
▁카툰
▁end
▁프랜차이즈
▁ㅎㅡㅌㅇㅓㅈㅕ
▁뭉
공주
우에
▁고이
▁대덕
▁상국
▁소아
▁안무
▁양수
▁은신
▁치유
▁타리
▁피드
▁효고현
▁ㅇㅏㅆㅇㅓㅆ
바오
▁거처
▁치하
▁리믹스
디나비아
▁스칸디나비아
▁렛
▁슌
▁금전
▁대도
▁도상
▁스콜
▁우연
▁이항
▁정령
▁컨설
▁오일러
▁게오르크
▁DF
▁고온
▁교부
▁위력
▁증오
▁직행
▁출동
토리코
▁니콜라스
▁여성주의
꼬리
▁네티
▁매리
▁샤프
▁세련
▁시비
▁양대
▁전세
▁조영
▁피치
▁ㄴㅓㄴ
▁자서전
▁산티아고
▁ㅇㅟㅎㅏㅁ
ㅏㄹㅗㅇㅜㄴ
gin
▁꾀하
▁성악
▁슈테
▁자재
▁축산
▁출자
▁타일
▁데이브
▁서해안
▁ㄲㅡㅌㄴㅏㄹ
걸이
amp
▁by
▁공안
▁내분
▁동향
▁분사
▁순차
▁습관
▁타로
▁피우
▁ㄴㅜㄴ
▁로마자
▁브뤼셀
▁헤이안
▁에른스트
▁쿠웨이트
▁TR
▁국철
▁압록
▁코스타리카
익스
▁노아
▁문종
▁정몽
▁ㅇㅕㄴㅎㅏㄴ
▁육군사관학교
LA
단지
▁김윤
▁아흐
▁첼로
▁해치
▁어웨이
▁천안시
니파
셀러
▁거지
▁김선
▁리코
▁바울
▁시트콤
▁함경북도
ㄴㅏㄱㅏㅆ
▁푸에르토리코
계승
어넣
웍스
▁주심
▁호아
ㅈㅜㄹ
▁결과물
▁발전기
▁법조인
▁각료
▁능동
▁모차
▁잔인
▁주성
▁함흥
▁텔레콤
aw
▁갯
▁결핵
▁내무
▁데드
▁라카
▁브릿
▁서주
▁켄트
▁퍼즐
▁280
▁동맹국
▁서사시
▁위안부
▁윗부분
▁유학자
▁복음주의
▁ㅈㅓㅇㅎㅐㅆ
▁맬
▁천마
▁칭송
▁피크
▁펠릭스
▁포르노
▁화장품
▁ㄴㅏㅌㅏㄴㅏㄹ
▁긴밀
▁수량
▁점거
▁짐승
▁코네
▁폐렴
▁루이지애나
▁늪
▁문무
▁박성
▁백악
▁온화
▁전락
▁측량
▁IOC
▁장로교
▁1893
북구
▁Fe
▁김승
▁리튬
▁배드
▁전학
▁정재
▁차츰
▁톰슨
▁편향
▁학장
▁후유
▁흡사
▁203
▁가고시마
▁영천
▁원활
▁유족
▁한번
▁그만큼
▁이탈리아어
▁ㅂㅗㅇㅕㅈㅜㄴ
gr
게임
▁이황
▁척도
▁축전
▁해왕
ㅈㅕㅅㅓ
퍼레이션
▁ㄷㅏㅇㅎㅏㄹ
▁ㅇㅓㅆㅇㅓㅆ
▁ㅁㅏㄴㄴㅏㄴㄷㅏ
OW
▁놈
세유
▁le
▁배양
▁생리
▁심포
▁이아
▁집착
▁하타
ㅅㅓㄹ
▁교육자
▁민병대
▁부르고
▁철저히
▁해안가
▁탄자니아
▁ㄴㅗㅍㅇㅕ
▁고집
▁선인
▁소대
▁조제
▁천천
▁ㅊㅜㄹ
▁트리오
les
▁Mo
▁접종
▁충무
로이드
▁도자기
▁로베르
▁마이크로
상시
ung
▁관우
▁레프
▁우두
라이드
▁Rock
화학
▁김치
▁도우
▁ㄷㅗㅇ
몬트
▁격려
▁금동
▁톱니
▁헤로
▁ㅇㅕㅅ
▁노미야
▁데일리
▁서초구
▁아라곤
▁어긋나
▁유적지
▁Comp
▁톡
▁혀
독립
▁간직
▁대종
▁림프
▁박상
▁분단
▁조니
▁한문
▁천천히
▁후쿠오카현
▁NP
▁관성
▁김천
▁앤디
▁하급
▁한큐
▁비스타
▁ㄱㅏㅎㅐㅆ
▁과시
▁불경
▁주세
▁헌터
▁녹색당
▁접어들
▁ㅅㅏㄹㅍㅕ
티에
eth
▁마타
▁미성
▁자진
▁칼슘
▁탈취
▁동맹군
▁컬렉션
▁플랑크
▁ㅇㅘㅆㅇㅡㄴㅏ
레드
▁아츠
▁Univers
▁핏
▁버섯
▁애인
▁전미
▁Car
ㅗㄴㅡㄴ
▁ㄷㅗㄹㅗㄴㅡㄴ
▁도출
▁장녀
▁정반
▁강화도
▁도야마
▁스포르
▁ㄴㅏㄹㅋ
▁레인저스
▁갚
업자
▁버러
▁숨기
▁심부
▁아메
▁에마
▁불계승
▁픽처스
익스피어
▁미나모토
▁ㅂㅜㄷㅣㅈ
들러
▁노랑
▁라흐
▁막판
▁합하
루이스
▁TBS
▁ㄹㅓㄴ
▁초콜릿
▁셰익스피어
▁촐
▁Am
▁ㄱㅟ
▁구금
▁도이
▁서스
▁시속
▁심상
▁오하
▁발사체
▁우울증
▁도카이도
IR
ㅂㅘ
▁공양
▁라즈
▁바비
▁휴양
▁케이크
▁명인
▁소사
▁Rec
▁게오르
▁참모총장
▁ㄴㅗㅍㅇㅕㅆ
▁ㅂㅏㄺㅎㅕㅈㅣㄴ
oth
▁미츠
▁월트
▁점검
▁페더
▁황산
▁고려대
▁로스쿨
▁부르고뉴
▁AB
▁까마
▁현판
▁230
▁순양함
▁인공위성
▁ㄷㅏㅅㅡㄹㅕㅆ
태평
▁에로
▁유영
▁GNU
▁ㅅㅗㄴ
▁베르타
▁스탠리
▁from
▁ㄴㅐㅂㅗㄴ
▁에스페란토
▁플로리다주
폭탄
▁겹치
▁구치
▁기쁨
▁반동
▁이우
▁Sup
▁글래스
▁ㄱㅣㅎㅐ
▁ㅂㅗㄴㅐㄹ
▁ㅁㅐㄲㅡㄹㅓㅇㅜㄴ
▁핼
국적
트르
▁강진
▁낚시
▁노프
▁당뇨
▁대주
▁상정
▁특사
ㅃㅡㄴ
▁가와사키
▁상관없이
▁견고
▁귀속
▁무단
▁배역
▁조롱
▁사상가
ublic
▁가르시아
▁러시아군
▁구독
▁마트
▁심문
민스터
▁서바이
▁마르세유
▁중앙은행
▁슈타
▁이범
▁파편
▁ㄹㅏㅁ
▁지바현
▁프리스
▁ㄱㅏㅈㅕㄷㅏ
▁ㄲㅡㅌㄴㅐㅆ
▁ㄷㅡㄹㅇㅓㅅㅓㅆ
▁Do
▁미아
▁발목
▁스킴
▁운임
▁재차
▁피사
▁향기
▁흥분
▁로빈슨
▁IV
▁가부
▁대진
▁스투
▁용품
▁기업가
▁수나라
▁ㅈㅓㅈㅣㄹ
▁ㄷㅜㄹㄹㅓㅆㅏㅇㅣㄴ
바리
▁동종
▁청량
▁청송
▁1888
유사
헤드
▁대접
▁대차
▁울릉
▁유포
▁쇠고기
▁지켜보
▁율리우스
▁ㅅㅡㄹㅓㄴ
▁Su
▁감싸
▁시우
▁페오
▁찾아내
▁노스캐롤라이나
▁닉슨
▁명부
▁경계선
▁세비야
▁수차례
▁이바라
▁펠리페
▁하이퍼
▁백자
▁국제선
▁로이드
그마
▁사커
▁아와
▁온대
▁애덤스
▁박테리아
▁ㄷㅏㅁㅕㄴㅅㅓ
둘기
▁Sw
▁붕어
▁사키
▁산수
▁카야
▁다이빙
▁평안도
▁허드슨
▁1892
▁푹
▁데미
▁리차
▁메틸
▁시문
▁어의
▁웃음
▁입헌
▁재발
▁제철
▁ㅂㅔㄹ
▁프로모
▁ar
▁공법
▁무르
▁에바
▁지난
▁우에스기
연수
홍색
▁물결
▁사변
▁유무
▁이봉
▁주먹
▁펠트
▁산스크
▁소학교
▁절도사
▁ㅎㅜㅎㅏㄴ
▁산스크리트
▁견디
▁납부
▁모던
▁새뮤
▁연회
▁제창
▁코사
▁다카라
▁대전차
▁케이트
▁ㄱㅓㅅㅔ
AI
▁고스
▁나뭇
▁낙양
▁농축
▁원유
▁재앙
▁조선왕
▁활동가
▁ㄷㅏㄷㅎㅣㄴ
▁펩
자동
▁계량
▁미식
▁산청
미디어
▁대공국
▁대명사
▁문자열
▁ㅂㅏㄹㄹㅏ
비크
암리
티노
▁자립
▁해병
▁볼로냐
▁사간원
▁스탠드
▁스테판
▁아브라
▁니켈
▁옥타
▁자코
ㄱㅓㄴ
▁공방전
▁관현악
▁차세대
▁데스크톱
▁ㅂㅓㅅㅇㅓㄴㅏㄴ
AE
▁강성
▁소동
▁순례
▁하임
▁더블린
▁레이디
▁지리학
▁1876
보리
▁wh
▁공시
▁선양
▁애초
▁위계
▁직계
▁북조선
▁ㅈㅓㅂㅎㅐ
▁CG
▁군데
▁배기
▁불사
▁생모
▁침례
로니아
▁ㄱㅏㅌ
▁논리학
▁세네갈
▁앤서니
사태
▁두려
▁완도
▁이나
▁조개
▁중고
▁터지
▁USB
▁고려사
▁성매매
▁후원자
ㅂㅎㅏㄴ
▁페르난도
▁프레임워크
▁ㄸㅓㄴㅏㄴㄷㅏ
ah
▁맥아
▁반주
▁복싱
▁손녀
▁장래
▁축성
▁토이
▁통폐
▁사단장
▁올리버
▁1866
▁가면라이더
▁뱃
네트
▁두드
▁이산
▁ㅋㅓㅅㅓ
▁알렉산드로스
광성
▁간혹
▁로브
▁세레
▁전주시
▁프린스턴
너드
로쿠
▁대금
▁미미
▁발의
▁수력
▁알폰
▁전권
▁채색
▁카레
▁포탄
르타뉴
▁사절단
▁서기관
▁헤라클
▁1886
▁베네딕토
▁브르타뉴
▁펫
▁군관
▁불러
▁송환
▁260
▁Gre
▁보좌관
▁덱
네임
뮬러
▁거룩
▁메스
▁파파
분열
▁두각
▁면모
▁부양
▁저우
▁죄수
▁교구장
▁도르트
▁장제스
▁구스타프
▁베이시스트
▁웨스트민스터
EST
▁co
▁당황
▁댓글
▁라드
▁아디
▁조소
▁풍습
▁생리학
▁이즈미
▁카운트
▁ㅍㅓㅈㅕㅆ
▁인플레이션
▁ㄷㅓㅅㅂㅜㅌㅇㅕㅆ
철수
▁바시
▁소용
▁앨리
▁브래드
▁조나라
▁드미트리
▁집행유예
라르
▁너스
▁번갈
▁바이어
▁뮐
큐어
▁마린
▁임계
▁초전
▁파커
▁펀드
▁필하
▁합천
▁게시판
▁코소보
레시
코르
▁서예
▁신진
▁약점
▁유능
리카락
▁270
▁민영화
▁새뮤얼
▁통폐합
▁페미니
▁Tour
▁머리카락
직경
▁긴키
▁마나
▁본체
▁부류
▁엘런
▁간사이
▁덩어리
▁스테인
우회
ron
▁깃털
▁이호
▁조현
▁퇴위
▁경영학
▁시직경
▁프란치스코
▁펭
▁과연
▁구르
▁아자
▁위패
▁유다
▁음운
▁현과
▁갑작스
▁보살상
▁삼각주
▁1887
▁브리티시
▁도약
▁도하
▁수하
▁원상
▁일진
▁포츠
▁프루
▁독립군
▁ㄴㅐㄹㅣㄴㄷㅏ
꿈치
▁박수
▁산물
▁제르
▁강서구
▁금나라
▁사쓰마
▁서포터
▁주니치
▁축구팀
▁마르쿠스
▁경무
▁역사학
라호
슈타
쓰기
▁동창
▁사내
▁Wii
▁근거지
▁이어주
▁화요일
ave
ble
▁ML
▁도제
▁물류
▁배척
▁살라
▁여타
▁중개
▁출혈
▁편안
land
▁도미니카
▁ㅁㅗㄹㄹㅏㅆ
▁ㄱㅏㄹㄹㅏㅈㅕ
왕후
▁KB
▁Up
▁무수
▁비지
▁악곡
▁에두
▁오산
▁자궁
▁코호
▁타구
▁펠로
▁행방
▁용의자
▁유전학
▁1861
▁모차르트
▁Dream
▁ㅇㅡㄹㅕㄴㅡㄴ
비안
제비
클라
▁나름
▁레트
▁지아
▁프리미엄
19
▁고창
▁박자
▁단거리
▁베이비
▁부분군
▁Life
▁가로지르
▁재단법인
▁ㅇㅕㄹㄹㅕ
코타
▁it
▁도성
▁유머
▁직사
▁돌아다니
▁ㄱㅏㅈㅊㅝ
하임
▁놓이
▁모라
▁버크
▁성기
▁유타
▁형용
▁해결책
짜기
▁SV
▁과잉
▁광선
▁급히
▁습득
▁올레
▁1864
▁볼티모어
▁클레멘스
▁세분
▁슬램
▁신세계
▁가닥
▁특기
▁아무리
▁모닝
▁수이
▁오대
▁완결
▁집정관
▁황해도
▁석가모니
▁카르타고
ult
▁기밀
▁불분
▁왕관
▁위시
솔리니
▁장애물
▁후세인
▁ㅇㅕㄷㅗ
▁ㄷㅏㄹㄹㅏㅈㅣㄴㄷㅏ
DA
▁오지
▁천지
▁당선자
▁데이빗
▁홈경기
ㅎㅐㅅㅓ
▁SH
▁교지
▁모국
▁몰두
▁세무
▁오메
▁외환
▁익명
▁장전
▁정예
▁공연장
▁음악원
▁좌표계
▁프랑코
▁스트리밍
콘신
▁구문
▁라시
▁빅뱅
▁승단
▁양현
▁바로크
▁백악기
▁위스콘신
즐리
▁내포
▁마구
▁매달
▁페스
▁환관
▁뛰어넘
▁1850
플린
▁RT
▁지면
▁포화
▁다카라즈카
디슨
열차
▁ㄴㅛ
▁철강
▁파직
▁혼혈
▁홀딩
▁가라앉
▁코스트
동자
▁TC
▁경건
▁다행
▁리트
▁발톱
▁촛불
▁홍성
▁남베트남
▁레버
▁실각
▁평탄
▁모나코
▁ㅇㅘㄹㅏ
▁ㅎㅐㄴㅐㅆ
진우
▁만점
▁복위
▁암모
▁네티즌
ition
▁마을버스
▁ㄴㅏㄴㅜㄴ
ational
▁깁
▁렙
▁무자
▁스모
▁여건
▁오일
▁잔디
▁추존
▁허블
▁컨텐츠
▁1881
▁ㅅㅓㄲㅇㅕ
EP
orm
▁증세
▁개정안
▁보너스
▁카이로
▁ㅂㅐㅇㅜㄴ
▁ㅈㅣㄴㅏㄱㅏㄴㄷㅏ
▁공판
▁에반
▁자릿
▁접합
▁쿼크
▁하얀
▁히토
바도르
▁바람직
▁생성물
▁참의원
▁토트넘
▁행정동
브웨
▁워킹
▁토목
▁푸아
▁홈즈
▁가해자
▁사나이
▁Music
▁ㅁㅏㄴㄴㅏㄹ
▁뭐
니오
다오
▁구례
▁리에
▁백업
▁재결
▁짐바
▁노동력
▁재판관
▁if
▁객원
▁군세
▁근래
▁도산
▁마요
▁ㄲㅡㄴ
▁요금소
ton
▁en
▁관내
▁삼척
▁쓰루
▁예의
▁황자
▁보안법
▁아카이
▁재판부
▁ㄱㅕㄴㄷ
▁두려워하
▁미네소타
예술
▁구획
▁잠실
▁차수
▁카와
▁대교구
▁루스벨트
▁크리에이
▁ㄱㅏㅆㅇㅡㅁㅕ
▁ㅇㅣㄴㅎㅐㅅㅓ
▁계보
▁괘불
▁방공
▁침대
▁대표단
▁무작위
▁유니버스
▁돗
린트
▁매진
▁민물
▁아타
▁왕성
▁응하
▁자판
라호마
▁ㅂㅔㄴ
▁압록강
른베르크
▁1830
▁오클라호마
렌스
▁산기
▁승지
▁승하
▁요괴
▁이력
▁판관
▁흘리
▁합창단
▁도라에몽
▁컴파일러
뛰기
▁AG
▁남조
▁뒤늦
▁뷰티
▁전리
▁헌납
▁관련자
▁외무부
▁장난감
▁동차
▁말단
▁목욕
▁오우
▁패권
▁화성시
아메리카
▁강세
▁소라
▁이별
▁재벌
▁코난
ject
▁iOS
▁ㄷㅜㄹㄹㅓ
▁XP
▁관용
▁러닝
▁벌레
▁세간
▁스몰
▁이누
▁전교
▁현미
▁마르셀
▁야구단
ㄷㅡㄴㄷㅏ
▁훔
두르
화경
▁경도
▁다비
▁스기
▁아편
▁익산
▁쿠로
▁로맨틱
▁헤라클레스
▁닛산
▁미상
▁발포
▁별장
▁정황
▁까마귀
▁반대파
▁여학생
라이어티
▁버라이어티
▁Ed
▁남송
▁부전
▁스윙
▁파주
▁감리교
ㄱㅅㅡㄹ
▁세르게이
ION
▁시원
▁조심
▁파열
▁팔작
ㅍㅡㄴ
▁불분명
▁이메일
▁1872
▁무솔리니
▁이시카와
▁ㄴㅏㄹㅋㅏㄹㅗㅇㅜㄴ
평리
▁an
▁경매
▁알맞
▁종업
▁라치오
▁Open
▁ㅃㅗㅂㅎㅕㅆ
림사
비오
타입
▁금고
▁기고
▁김희
▁당진
▁레비
▁발자
▁배트
▁삭스
▁신봉
▁조경
슬라프
▁피닉스
▁해석학
▁낭만주의
▁ㅁㅜㄷㅎㅕ
께끼
▁루나
▁마티
▁애슬
▁흑백
▁농어촌
▁주나라
▁수수께끼
▁트레이닝
달마
▁고모
▁등등
▁몸돌
▁양조
▁이은
▁켄터
▁태우
▁트란
▁750
▁라이스
▁모멘트
▁베일
▁복직
▁승상
▁여호
▁용사
▁의례
▁종묘
▁중랑
▁롬바르
▁유라시아
▁엡
나파
덕왕
▁BL
▁te
▁교동
▁꼬마
▁콘티
브리드
▁다비드
▁ㅋㅔㅇㅣ
▁대중교통
▁교제
▁두어
▁야망
▁양면
▁원동
▁의용
▁주고
▁필연
태평양
▁센다이
▁대한항공
▁ㄱㅏㅌㅇㅣ
▁부다페스트
▁ㄷㅡㄹㅓㄴㅏ
▁ㅇㅏㅍㅅㅓㄴ
어드
▁그란
▁기통
▁음주
ㅗㅈㅏ
▁도망치
▁부르주아
ㅈㅏㄱㅅㅡㄹ
▁ㅇㅕㄹㄹㅣㄹ
더지
데자
리드
ics
▁경량
▁레아
▁샤이
▁캐피
▁햇빛
▁허목
▁Don
▁범죄자
▁아이콘
▁초록색
▁하얀색
▁화학자
데자네이
▁ㅁㅜㅅㅓ
▁ㅊㅏㄱㅏ
ru
쿠니
▁도봉
▁모란
▁발산
▁복역
▁불타
▁브렌
▁선율
▁진흙
▁청년회
▁ㅂㅜㄹㅌ
▁오스트리
▁ㅍㅕㅇㅎㅐㅆ
▁튼
번에
클럽
▁생도
▁친밀
▁격투기
▁세군다
▁호크스
▁ㅅㅏㄹㅗㅈㅏ
▁ㅈㅓㄴㅎㅐㅈㅕㅆ
ier
▁가든
▁지경
▁탄산
▁하이브리드
▁Sm
▁넥센
▁대강
▁반죽
▁순항
▁오트
▁이례
▁투하
▁티모
▁계승자
▁다시금
▁파충류
▁1863
▁도르트문트
리쿠
바인
▁Ab
▁가독
▁배향
▁보정
▁슈고
▁옹주
▁장쑤
▁작품상
▁탐험가
▁1865
▁"-
▁납작
▁섬기
▁인제
▁파기
리아스
▁개체군
▁밀가루
▁박영효
▁항아리
▁ㅁㅣㅊㅣㄹ
▁ㅈㅜㄱㅇㅕ
리야
매김
워즈
▁닌자
▁단국
▁당과
▁봉황
▁피셔
▁시간대
▁쵸
▁과다
▁덴쇼
▁변종
▁엄청
▁작년
▁편제
▁피카
▁기획사
▁난이도
▁HTML
▁ㄲㅡㅌㄴㅏㄴㄷㅏ
단위
루크
▁가두
▁감추
▁왓슨
▁이니
▁탐정
▁페라
▁챌린저
▁공군기지
▁교통사고
데자네이루
▁리우데자네이루
▁청문
▁코마
▁클릭
▁승정원
▁유전체
▁타임즈
▁1891
▁오카야마
▁Night
▁ㅇㅕㅆㅇㅡㅁㅇㅡㄹ
▁살짝
▁조공
▁조시
▁고성군
▁발기인
▁우간다
▁ㄴㅡㄹㄹㅕ
▁ㅁㅏㅌㄱㅕㅆ
▁ㄸㅓㄹㅇㅓㅈㅣㄴㄷㅏ
ode
▁곱셈
▁대의
▁어촌
▁경복궁
▁유니언
친왕
ool
▁AL
▁ㅇㅖ
▁경마
▁곡면
▁란스
▁처방
▁아이디얼
▁자리매김
▁거스
▁메츠
▁애완
▁취향
▁태아
▁선제골
▁안산시
▁ㅈㅣㄴㅎㅏㄴ
훈장
▁미인
▁법전
▁철종
▁포대
▁ret
▁앤드류
▁여진족
▁조선소
▁켄터키
▁대목
▁매스
▁완비
▁요즘
▁직관
▁1873
▁베스트셀러
TE
쿠르
▁경지
▁열렬
▁카슈
올로기
▁ㄱㅚㄹㅗ
▁ㅇㅓㄺㅎ
▁세계유산
▁짐바브웨
▁ㅂㅣㅆㅏㄴ
▁이데올로기
▁ㄷㅜㄲㅓㅇㅜㄴ
▁씻
타스
ise
▁굴복
▁내재
▁루즈
▁배아
▁픽셀
QL
UC
▁--
▁거꾸
▁반점
▁손꼽
▁쇼크
▁입시
▁정명
▁조장
▁충당
▁다국적
▁받침돌
▁수시로
▁자유형
▁려
미쓰
▁계좌
▁구강
▁단조
▁상파
▁시진
▁어는
▁재고
▁해킹
이스케
▁승용차
▁알아내
▁와이드
▁리브
▁여대
▁코뮌
▁한창
▁혈압
▁몰도바
▁포항시
ai
▁PM
▁단자
▁도도
▁매립
▁부실
▁잡히
▁촉발
▁노르드
▁릴레이
▁온타리오주
▁샨
▁NS
▁고마
▁과격
▁마모
▁모함
▁킹스
▁그나마
▁발가락
▁제너럴
▁테무르
▁ㅇㅣㄹㅝㅈㅣ
동맹
che
▁걸작
▁리키
▁자켓
▁필두
stem
▁공통점
▁국민회
린더
▁MA
▁등단
▁신대
▁외상
▁토로
▁튼튼
플렉스
▁시티즌
▁샵
레반
▁볼넷
▁착취
▁합금
▁백악관
▁제프리
▁두드러지
▁팔작지붕
▁Black
▁ㅇㅏㄴㅣㄴㄱㅏ
▁ㅁㅜㄹㄹㅓㄴㅏㄴ
▁계엄
▁리자
▁반항
▁신의
▁야심
▁입술
▁현무
부아르
합중국
무제
진구
▁국호
▁양궁
▁인위
▁최장
▁페인
▁하스
▁헤어
▁Can
▁공식전
▁슬로건
▁야쿠르트
▁ㄷㅏㄹㄹㅏ
▁ㄱㅏㄹㅣㅋㅕ
성경
▁교서
▁극찬
▁분경
▁유태
▁김성수
▁종업원
70
바지
세다
▁당당
▁라면
▁라크
▁불로
▁에치
▁연화
▁위법
▁적발
▁조준
▁체내
▁키즈
▁해시
ower
▁Good
NG
▁믈
킨슨
▁병단
▁용감
▁스테이트
▁구시
▁버펄
▁거꾸로
▁삼국유사
▁section
▁간판
▁광배
▁네임
▁산책
▁서위
▁소작
▁양양
▁이강
▁토유
▁헌병
▁550
▁다마스
▁트로트
▁이바라키
▁콧
▁구슬
▁머니
▁문정
▁병과
▁부에
▁우마
▁을사
▁파랑
선거구
타나베
▁지자체
▁아비달마
▁피츠버그
▁qu
▁나탈
▁증강
▁터빈
▁705
▁Let
▁하반기
▁ㅇㅏㅍㄷㅜㄴ
▁괜
▁댈
▁무고
▁베풀
▁아델
▁앵커
▁연행
▁취리히
▁1862
▁무로마치
▁페르디난트
▁ㄱㅏㅂㅈㅏㄱㅅㅡㄹ
▁q
티야
펠러
▁산신
▁오즈
▁캐논
▁통지
▁반정부
▁캐스트
▁1867
ank
▁El
▁MM
▁국부
▁주저
▁진언
▁진원
▁채굴
▁현도
스코트
▁650
▁앨버트
내리
려들
▁모반
▁무도
▁서지
▁후미
드라마
▁아오모리
▁이노우에
▁코호몰로지
▁ㄲㅗ
▁광자
▁농성
▁맞춤
▁사하
▁황폐
▁ㅁㅓㅅ
▁미카엘
▁스코어
▁스테이
▁찾아가
ㅓㅇㅜㅁ
레타리아
해살이풀
▁미합중국
▁ㅊㅓㅎㅏㄴ
▁ㅋㅓㅈㅕㅆ
▁ㅅㅏㄹㅏㅈㅕ
▁프롤레타리아
상어
정사
▁AI
▁경은
▁독주
▁조어
▁증발
▁타도
▁IMF
▁연주회
▁용산구
대전
방군
▁투신
▁활자
ings
▁알폰소
▁자외선
▁ㅍㅐㅎㅐ
▁세단
▁수퍼
▁온건
▁흡연
▁경희대
▁폼페이
▁대담
▁박진
▁심정
▁전멸
▁휩쓸
세우스
▁갈라지
▁변광성
▁증조부
▁사교
▁스킬
▁열쇠
▁엑스포
▁조선왕조
▁ㅅㅜㅁㄱㅕㅈㅣㄴ
포타
▁AU
▁광업
▁조서
▁손잡이
▁언론사
▁국민학교
▁ㅁㅣㅊㅣㄴㄷㅏ
DS
고르
참찬
▁노브
▁연달
▁증식
절도사
▁크루즈
▁사이타마현
▁ㅇㅜㅁㅈㅣㄱㅇㅣㄹ
렐라
활약
▁Ac
▁엘라
▁예종
▁옥시
▁완수
▁유구
▁체하
▁사보이
▁연출가
▁타이탄
ㅝㄴㅎㅏㄴ
▁ㅅㅐㄱㅕㅆ
▁캣
곡면
▁가비
▁걸프
▁군자
▁들리
▁접전
▁MSL
▁ㅇㅓㄱ
▁ㅌㅗㄹ
포타미아
▁신한은행
▁ㄷㅡㄹㄹㅕ
▁메소포타미아
센터
▁UC
▁보직
▁북벌
▁양군
▁저축
▁쿠라
▁노르만
▁레인저
▁맹활약
▁6000
lar
▁기묘
▁성수
▁온두
▁위헌
▁잔존
▁캐치
▁코모
▁키릴
▁ㄱㅡㄹㅐ
▁온두라스
▁라이프치히
북면
▁LS
▁장신
▁푸드
▁사무국
▁페드로
▁ㅂㅐㅇㅝ
▁ㄱㅏㄹㅡㅊㅕ
비언
인구
▁꽃잎
▁나사
▁처장
▁감염증
▁일본식
▁출입문
▁편집장
ㄹㄹㅣㄹ
▁궐
▁-&
▁간결
▁논하
▁상선
▁서한
▁횡령
▁기원후
ㄸㅡㄹㅕ
중추부사
▁다이노스
▁낡
디언
▁엘레
▁조석
▁충칭
▁협동조합
ㅈㅣㄹㅏㄷㅗ
▁ㅁㅏㅈㅊㅜㄴ
tr
▁강호
▁국력
▁동탁
▁버진
▁변증
▁세토
▁신해
▁1878
▁프로모션
▁미나모토노
ky
할린
▁루피
▁유망
▁대리석
▁부여군
▁신기록
▁치료제
▁컴파일
▁타타르
▁ㅈㅜㄱㅇㅣㅁ
▁ㅈㅓㅈㅣㄹㅡㄴ
▁밋
▁싹
사화
▁동자
▁시역
▁유림
▁작중
▁웨이브
▁ㅌㅗㄹㅗㄱ
▁ㄷㅓㄴㅈㅕㅆ
▁샴
위치
젤로
▁Qu
▁당파
▁번개
▁변모
▁자행
▁지탱
▁직교
▁차림
▁필명
rist
▁Ser
▁마그네
▁제조사
▁백과사전
▁ㄱㅔㄴㅈㅣ
▁ㅊㅕㄷㅡㄹㅇㅓ
ta
조리
퉁이
▁가극
▁도발
▁사드
▁옥천
▁절약
▁사대부
▁ㅈㅜㄹㅇㅣㄹ
hem
▁고찰
▁매도
▁스톰
▁오보
▁이끼
▁중용
▁지그
▁참패
플로러
▁주고받
▁프리츠
▁홀딩스
▁ㅊㅟㅎㅏㄹ
▁익스플로러
▁팍
시게
▁괄호
▁충신
▁표출
▁피어
▁하중
▁HMS
▁이성질
▁비스마르크
▁ㅎㅐㅇㅎㅐㅈㅕㅆ
빌리
▁국인
▁급성
▁봉하
▁완만
▁자부
▁회유
▁후드
▁건륭제
▁입법부
▁프로테
▁고등학생
▁DR
▁바쿠
▁히노
▁802
▁And
▁ㅂㅐㄴ
▁경쟁자
▁뉴기니
▁무사히
▁플러그
▁ㄱㅓㅊㅕㅅㅓ
ee
▁킷
▁팻
산부
▁부군
▁시르
▁영사
▁일설
▁임하
▁적정
▁청각
▁글로브상
▁스케이트
▁요리토모
▁프라이즈
▁ㄴㅗㄹㅏㄴ
▁일리노이주
루엔
일치
▁길드
▁다량
▁라다
▁지린
뉴기니
▁액세스
▁플루토
▁핵분열
벤션
▁매슈
▁보류
▁손님
▁정박
▁참수
▁ㅍㅡㄹ
▁ㄸㅓㄴㅏㄹ
▁밧
다발
▁부두
▁스에
▁애기
▁용해
▁육식
▁일선
▁행군
시아드
▁해부학
▁와타나베
▁tr
▁과자
▁서점
▁소피
▁잉크
▁점진
▁ㅇㅏㅅ
▁와세다
▁이브스
▁자릿수
▁1869
▁ㅍㅏㄹㄹㅣㄴ
▁유니버시아드
▁ㄹㅏㅁㅕㄴㅅㅓ
ㅏㅇ
▁Ag
▁개기
▁수레
▁피처
▁마포구
▁업로드
▁특별법
▁포뮬러
누마
다스
▁직물
▁현악
ㅅㅏㄹ
▁불가피
▁페르미
▁ㄱㅓㄹㄹㅣㄴㄷㅏ
▁엇
셔주
▁객실
▁고국
▁북대
▁수급
▁저해
▁방위군
▁봉우리
▁수비대
▁외교부
▁쿠르드
▁코퍼레이션
내티
▁면직
▁몸체
▁벵골
▁솔라
▁수당
▁잔해
변속기
▁아이젠
▁원자핵
▁신시내티
▁ㄴㅏㄹㄹㅕ
▁다목
▁추후
▁표절
▁형주
▁베르나
▁인지도
▁제작진
▁키르기스
▁후지와라
▁ㅅㅐㅇㄱㅣㄹ
정보
▁SO
▁근방
▁기조
▁버티
▁서거
▁아뢰
▁정진
▁지체
▁포천
▁포탑
▁행보
ae
▁썬
▁대타
▁로시
▁무비
▁박원
▁용수
▁텍스
▁1592
▁명성황후
▁강우
▁모티
▁목동
▁패킷
▁항생
▁사생활
▁안동시
▁영유권
▁장로회
▁ㄴㅐㅅㅔㅇㅝ
▁ㅇㅣㅇㅓㅅㅓ
▁고을
▁성품
▁유화
▁골짜기
▁기동전
▁스파이더
▁친선경기
▁AA
▁ㅍㅛ
▁부관
▁시시
스타인
▁수도회
▁운동량
▁인코딩
▁프라임
▁ㄴㅓㅁㄱㅕㅆ
▁ㄴㅐㅅㅔㅇㅝㅆ
▁탬
▁금색
▁무색
▁위도
▁이목
▁축일
▁토라
ount
▁생화학
▁오스카
▁ㅁㅗㅅㅣㄴ
▁ㅊㅣㅇㅎㅐㅆ
암사
▁글렌
▁논산
▁빈민
▁사부
▁오자
▁자처
▁치사
▁콜드
▁헤더
ㅈㅏㅇ
▁ㅆㅓㄴ
▁부등식
▁유엔군
ㅈㅣㄹㄹㅓㅆ
▁ㅂㅏㄺㅎㅕㅈㅕ
마디
세르
티컷
▁민심
▁상의
▁자정
▁컴필
▁로타르
▁며느리
▁지하역
▁코네티컷
▁컴필레이션
▁크리스티나
▁ㅁㅓㅅㅈㅣㄴ
수염
▁국세
▁토키
가르트
▁금강산
▁목적지
▁여객기
▁팔꿈치
▁ㅂㅜㄹㄹㅕ
자원
▁PL
▁그물
▁내란
▁린다
▁반입
▁사소
▁위즈
▁절친
▁포자
▁바닷물
▁연예계
▁1840
▁Song
▁파시스트
▁프랑스와
▁ㄴㅐㄹㅕㅇㅘ
BI
네르
려오
작전
▁겨루
▁단역
▁빅터
▁소박
▁숙소
▁폴라
▁Mon
노르
쳐지
ata
▁RC
▁가방
▁헤겔
▁516
▁네이트
▁다가오
▁마스코트
▁힐베르트
▁로드리게스
구스
▁가곡
▁귀인
▁분별
▁아어
▁지문
▁출국
▁캐슬
▁강력히
▁리차드
▁유년기
▁여우원숭이
pr
per
▁닉스
▁암수
▁쿼터
▁티저
▁레지스터
▁랙
블릿
ade
▁me
▁ㅆㅗ
▁고제
▁디나
▁벤츠
▁병풍
▁이거
▁자취
▁추축
▁튜브
▁하라
▁하수
▁헤일
▁에이전트
▁공상
▁넘버
▁다쓰
▁변질
▁상식
▁입히
▁자루
▁풀리
▁과반수
▁시니어
▁창립자
▁ㄴㅑㄱㅗ
▁사이언스
▁Heart
▁ㄱㅡㄹㅓㄹ
▁아나톨리아
▁return
▁ㄷㅗㅁㅏㅇㅊㅕㅆ
▁볶
찬성
▁KN
▁단서
▁블러
▁심소
▁얼룩
▁유이
▁글러브
▁필사본
▁심리학자
▁ㄷㅚㅂㄴㅣㄷㅏ
▁널
▁벳
효소
히메
▁거창
▁국화
▁백조
▁영수
▁유자
▁입출
▁처치
▁최하
▁그래도
▁종착역
▁패스트
▁히타치
▁매킨토시
▁지장보살
ㅇㅏㄴㅐㄴ
▁ㄴㅡㄹㅇㅓㄴㅏㄴ
▁ab
▁계룡
▁성가
▁수만
▁영미
▁자질
▁출세
▁탁구
▁패망
▁휘발
이치로
▁ㅌㅟㅇ
▁구단주
▁맥아더
▁ㄱㅡㄹㅐㅆ
90
테랑
▁Pe
▁ㅌㅡ
▁란트
▁몰아
▁발착
▁성대
▁워스
▁유골
▁전단
▁천상
▁테크놀
▁파주시
ㄸㅏㄹㅏ
사우루스
▁ㅍㅕㄹㅊㅣㄴ
▁ㅁㅓㅁㅜㄹㄹㅓ
▁펜실베이니아주
▁렉스
▁나치오
▁스트림
▁예언자
▁와카야마
▁Windows
▁ㅈㅓㅇㅎㅐㅈㅕ
날드
히데
▁ㅆㅢ
▁괜찮
▁농가
▁쌍성
▁염화
▁이카
▁ㅉㅓㄴ
▁8000
▁ㅋㅣㄹㅗ
ium
▁거사
▁겸직
▁라라
▁미학
▁사귀
▁여포
▁보유자
▁세미나
▁어도비
▁그린란드
▁ㅊㅏㅈㅇㅏㅇㅘ
IX
▁강인
▁라프
▁상과
▁악명
▁온실
▁청취
▁퀴즈
▁지질학
▁ㄹㅏㅇㅜ
▁아우구스
▁영등포구
전선
▁Gl
▁베오
▁실상
▁오시
▁흥원
▁비둘기
▁적십자
▁남아시아
▁썩
넌트
선언
▁능가
▁바인
▁반론
▁스택
▁에트
▁의주
▁초음
▁페레
▁하구
▁관심사
크라테스
▁알프레드
▁ㅇㅔㄱㅔㄴ
▁아나키스트
▁ㄸㅟㅇㅓㄴㅏ
▁세인트루이스
▁ㅊㅏㄱㅏㅇㅜㄴ
▁ㅈㅜㄴㄷㅏㄴㅡㄴ
IF
욕장
▁권익
▁기행
▁문중
▁윤휴
▁조비
▁중견
▁댈러스
▁1875
던트
▁As
▁규율
▁뉴런
▁시찰
▁에리
▁연중
▁의복
▁피살
▁시미즈
▁운전자
계사
테이
▁동호
▁바보
▁왜군
▁임종
▁저그
▁Out
▁헤르만
▁ㄷㅏㄹㅜㄹ
링겐
수단
▁상동
▁준동
▁침식
▁고문서
▁안창호
▁진주시
▁집단군
▁ㅍㅜㄹㄹㅕㄴㅏㅆ
▁Aw
▁노현
▁삭감
▁숙련
▁유카
▁이심
ㄱㅓㄹ
▁이와테
▁ㅈㅏㄹㅏ
▁데카르트
▁모자이크
▁강습
▁니케
▁다름
▁신지
▁외척
▁나리타
▁담당자
▁보리스
▁올라오
▁근본번뇌
기즈
탄두
▁독살
▁마레
▁양파
▁콜린
▁ㅅㅟㄹ
구니
기아
▁도적
▁디바
▁웍스
▁질투
▁징집
▁키리
▁토요타
▁회고록
▁기린
▁몹시
▁수증
▁직렬
▁표제
▁호른
▁Gen
▁예비역
▁치료법
▁고등교육
이에
itt
▁VS
▁김연
▁미지
▁설리
▁아다
▁예프
▁원단
▁은밀
▁철자
▁최남
▁친화
▁호그
▁사이즈
▁표트르
보당
사유
▁걸음
▁교파
▁노원
▁선상
▁여럿
▁용지
▁위크
▁한민
▁혼잡
레이트
▁KTX
▁게임기
▁친환경
▁컨벤션
son
▁김두
▁로사
▁문체
▁사각
▁어사
▁월화
▁이선
▁일명
▁정오
▁텐서
▁해트
▁AMD
▁리스본
▁매디슨
▁ㅇㅏㅍㅈㅏㅇ
▁엿
▁sh
▁면담
▁볼록
▁이희
▁인승
▁잠입
▁컵스
▁돌고래
▁채권자
▁학술지
▁남양주시
▁DB
▁거칠
▁교훈
▁다자
▁변혁
▁생원
▁의정
▁절충
▁출품
▁키드
▁일부러
▁통도사
▁피의자
▁뉘른베르크
▁ㅈㅣㄴㅏㅊㅣㄴ
▁목장
▁열세
세데스
▁아세틸
▁칭기즈
▁파라오
▁함경도
▁땀
날레
놀드
세서
▁달콤
▁막강
▁에레
▁착각
▁첩보
▁취직
▁터너
▁ㅆㅏㄴ
▁북극점
▁ㄴㅗㄹㄹ
▁몽고메리
▁병자호란
▁메르세데스
▁브란덴부르크
어류
조사
▁단양
▁문관
▁비키
▁서약
▁아노
▁타쿠
에이고
▁강대국
▁강희제
▁테오도
▁샌디에이고
▁포르투갈어
ㄷㅡㄹㅇㅣㄴ
▁ㅎㅏㄴㄷㅏㅁㅕ
PA
방향
은사
▁금정
▁리크
▁비료
▁선체
▁셔틀
▁슈투
▁안중
▁태안
▁레스터
▁이사벨
▁크메르
더링
알라
엽수
▁TS
▁로큰
▁바늘
▁배반
▁순식
▁아지
▁야수
▁어부
▁외면
▁집전
able
▁380
▁가환환
▁광둥성
▁다이쇼
▁성폭행
▁항공대
▁격하
▁구루
▁생쥐
▁실명
▁의성
▁체로
▁특공
▁ㅈㅣㅂ
▁꽃차례
▁데이트
▁슈타인
▁스케치
▁연속극
▁장갑차
▁클리어
▁버트
▁서당
▁원효
록대부
해방군
▁야마다
▁중앙선
▁통신망
▁안드로메다
▁인민해방군
▁꽂
▁포인
▁"()
▁신석기
▁이랜드
▁저널리스트
두사
부대
ale
▁기판
▁레몬
▁방울
▁율법
▁로큰롤
▁베르트
▁부적절
▁송파구
▁쇼핑몰
▁스피커
▁종사자
▁코트디
▁클레어
▁페널티킥
▁코트디부아르
ng
세키
▁교관
▁방호
▁세일
▁예식
▁인먼
▁폐허
▁ㅌㅐㄱ
▁로버츠
▁바나나
▁비단털
▁크라운
▁ㅅㅣㄹㄹㅕㅆ
몽골
촌리
▁KO
▁동거
▁라울
▁로바
▁애착
▁영락
▁칸트
루엔자
▁Par
▁아리랑
스코리아
▁비단털쥐
▁오프라인
▁ㄷㅗㄹㅇㅏㄱㅏㄹ
▁기공
▁슬리
▁일차
▁ㄹㅓㅆ
▁반감기
▁상반기
▁파스칼
▁ㅇㅗㄹㅡㄹ
▁ㅍㅕㄹㅊㅕㅈㅕ
르카
▁교화
▁명상
▁성행
▁수마
▁술라
▁스펜
▁안식
▁왕래
▁자장
ㅌㅡㄹ
▁프론트
▁바빌로니아
▁ㅊㅣㄴㅎㅏㄴ
▁ㅎㅡㄴㄷㅡㄹ
니에
우주
▁가모
▁래리
▁모피
▁수은
▁실은
▁헤센
▁ㄹㅗㄹ
▁맥스웰
▁정치국
▁WC
▁결전
▁금환
▁기마
▁기운
▁보그
▁보우
▁야권
▁정에
▁환율
▁708
▁ㅁㅜㅇ
▁선거인
▁ㄴㅣㄲㅏ
▁University
UN
박사
시대
행파
▁구아
▁극소
▁날리
▁모사
▁사주
▁서클
▁엔젤
▁잉카
▁장정
▁중일
▁향신
▁대항전
▁형용사
▁관음보살
▁보컬리스트
▁ㄷㅙㅆㅇㅡㄴㅏ
▁문수
▁위트
▁정언
▁지치
▁출격
ㄱㅣㅁ
▁Vol
▁라이베리아
▁탭
▁가명
▁가세
▁구세
▁동군
▁모체
▁이홍
▁정칙
▁후루
▁205
▁ATC
▁데뷔작
▁합성어
▁ㅇㅣㄱㅓㄴ
건설
▁At
▁규약
▁망치
▁야코
▁열악
▁보호법
▁콘라트
▁벙
데기
▁경순
▁경의
▁라벨
▁샤르
▁이질
▁보조금
▁사할린
▁흔들리
▁ㄱㅏㅈㅕㅆㅇㅡㅁㅕ
▁삐
연구
▁나쁘
▁데일
▁로니
▁복부
▁실사
▁조봉
▁획기
very
▁되풀이
▁순식간
▁쇼트트랙
▁엑스박스
▁인플루엔자
▁ㅆㅓㅆㅇㅡㅁㅕ
▁ㄷㅏㄹㄹㅣㄴㄷㅏ
▁싯
르산
쿠사
▁미첼
▁아끼
▁집사
▁사학자
▁슈미트
▁캐스터
▁통계청
ㅓㅇㅝㅆ
▁조선공산당
▁텅
윽고
▁JC
▁경종
▁박재
▁외손
▁월남
▁치마
ㅊㅏㄴ
▁NBC
▁김해시
▁이윽고
▁IR
▁구타
▁기미
▁박용
▁베티
▁불쾌
▁상계
▁아연
▁안톤
▁에코
▁염두
▁외할
▁토피
▁235
▁개그맨
▁물려주
▁스케줄
▁시마즈
▁터뜨리
▁name
▁로베르토
▁ㅇㅣㄹㅜㄹ
▁ㅎㅐㅈㅣㄹ
ㅈㅓ
루즈
모음
양이
▁군복
▁등산
▁시의
▁자위
▁초계
▁후한
▁DOS
▁가이아
▁호흡기
ㄱㅇㅣㄴ
▁ㄴㅏㅈㅊ
▁ㅂㅕㄴㅎㅐ
▁엣
▁배당
▁서안
▁수역
▁양극
▁양서
▁에노
▁자키
▁재화
▁칼륨
▁호로
▁ㅇㅗㄹㄹㅣㄹ
▁ㄷㅏㄴㅕㅇㅘㅆ
사와
▁남단
▁내림
▁비옥
▁정글
▁풀백
폴리탄
▁내보내
▁ㅂㅜㄹㅌㅐㅇ
▁메트로폴리탄
co
▁골절
▁나기
▁노카
▁마흐
▁사미
▁안팎
▁외삼
▁찌르
▁후이
▁흔들
▁스케일
▁그레이엄
화당
▁리나
▁불복
▁석기
▁신병
▁안기
▁유충
▁족장
▁타시
▁하산
▁tvN
▁남극점
▁자격증
▁랠
▁셴
▁cc
▁경화
▁대류
▁무능
▁병렬
▁솜씨
▁안심
▁웨어
▁케리
▁코바
▁화승
▁손꼽히
▁최성기
▁테두리
▁This
▁ㅊㅕㅅㅓ
▁지하철역
▁ㅁㅏㄹㄹㅏ
▁ㅁㅜㄲㅇㅕ
▁브로드웨이
▁ㅈㅓㄴㅎㅐㅈㅕ
▁뤄
에쓰
황색
▁라가
▁카로
▁포니
▁사무관
▁열역학
▁조각상
▁우두머리
so
▁잼
벌리
큐슈
▁버니
▁실효
▁종가
▁ㄲㅜㅁ
▁간호사
▁당뇨병
▁로페스
▁ㅂㅕㄴㅎㅏㄴㄷㅏ
▁ㅁㅗㅅㅎㅐㅆㅇㅡㅁㅕ
18
▁가뭄
▁균일
▁나한
▁세스
▁오마
▁축복
▁통솔
▁빼앗기
▁안드레
▁안양시
▁천도교
▁미스코리아
보라
IVE
▁부엌
▁소론
▁요직
▁이달
▁일간
▁창구
▁키타
▁키트
▁패치
▁협곡
▁화원
▁동아리
▁시그마
▁신호장
▁중앙아메리카
yn
▁결말
▁뉴멕
▁동백
▁리시
▁시제
▁양평
▁줄곧
▁공주시
▁뉴멕시코
▁ㅁㅏㅌㄱㅕ
▁파푸아뉴기니
열대
텐셜
ATO
▁고층
▁마늘
▁무예
▁베크
▁산조
▁악당
▁은폐
▁일주
▁재보
▁정승
▁칠성
▁침범
▁한겨
스크림
▁거주자
▁따라가
▁반대편
▁카디널
▁유가행파
▁ㄱㅏㄹㅗㅈㅣㄹㄹㅓ
▁일삼
▁잔혹
▁즐거
▁라스트
▁스틸러스
▁ㅅㅣㄷㅏㄹㄹㅕㅆ
신저
악산
주크
ala
▁기스
▁무가
▁숙박
▁중남
▁홍익
▁확충
▁교육감
▁1874
▁일렉트릭
▁sp
▁다쿠
▁몰수
▁한복
▁향수
진보당
▁무지개
▁재미있
▁저스틴
▁트레일
▁퍼텐셜
▁ㄸㅓㄹㅊㅕㅆ
시험
▁넷플
▁레나
▁발작
▁이색
어들이
올리언
▁성폭력
▁채무자
▁넷플릭스
▁컨퍼런스
▁콘퍼런스
징어
net
▁놓치
▁묘호
▁잔여
▁판명
▁ㄲㅐㅇ
▁가요제
▁동남쪽
▁에스컬
▁조각가
▁클로드
▁항공편
▁휴대폰
▁바그다드
▁ㄱㅣㄷㅏㄴ
▁ㄴㅐㄹㅣㄹ
▁ㅆㅡㅇㅣㄹ
▁알렉산데르
▁에스컬레이터
▁ㅎㅐㅈㅜㄴㄷㅏ
프랑
▁가온
▁눈치
▁라플
▁메모
▁받치
▁송이
▁읍성
▁인스
▁젠더
▁조동
▁캠벨
▁학당
▁204
▁대수학
▁앞바다
▁후쿠이
▁ㅇㅏㄴㄱㅕ
▁벚
▁낭비
▁리타
▁미겔
▁소양
▁이문
▁쿠마
▁지리산
▁책임지
▁1877
▁바이마르
▁호소카와
me
▁퀄
소문
운수
▁발판
▁손목
▁싱크
▁잉여
야누스
▁게임즈
▁오르간
▁프레슬리
▁아우구스투스
ax
ody
▁옥사
▁품목
▁ㅎㅓㅁ
▁아우르
▁여운형
▁뉴올리언
▁슈퍼스타
▁콜럼버스
anc
▁단발
▁애드
▁코크
▁루이즈
▁사하라
▁참전하
▁한겨레
▁7000
▁오아시스
▁ㅇㅏㅍㅅㅔ
▁트라야누스
▁ㅇㅗㄹㄹㅏㅇㅘ
더릭
▁강좌
▁사중
▁상한
▁예멘
▁주군
▁코로
▁서스펜
▁ㅆㅏㅇㅜㄹ
▁서아프리카
▁SR
▁격전
▁산문
▁선단
▁차오
▁클랜
▁탄수
▁하지
▁원주시
▁허베이
▁ㄲㅣㅊㅣㄴ
▁멀티미디어
민당
ash
oid
▁도형
▁복속
▁아킬
▁에페
▁재회
▁Bab
▁공학자
▁ㅅㅡㄹㅓㅇㅝ
▁쿰
▁AF
▁GR
▁강국
▁델리
▁민원
▁본존
▁빌드
▁앞뒤
▁양천
▁행선
▁APG
▁핸드볼
GB
au
▁맴
혈구
▁무주
▁바니
▁바투
▁순찰
▁엄지
▁지크
▁출사
▁토바
▁중거리
▁컨설팅
▁Best
ㅇㅓㄴㅐㅆ
▁ㅊㅜㅇㅜㄴ
바드
양구
ose
▁경내
▁고승
▁곤살
▁모치
▁전조
▁처마
▁총영
▁추계
▁교육학
▁브리스
ps
▁툼
변수
▁두뇌
▁산체
▁석권
▁우표
▁인성
▁지령
▁카일
▁퇴진
▁518
▁Her
▁비잔틴
▁셀주크
▁수백만
▁아놀드
▁콜린스
▁클러스터
▁ㅁㅜㅇㅓㄴ
일기
▁AE
▁et
▁ㅅㅛ
▁나투
▁로망
▁바야
▁부르봉
▁스타드
▁플루토늄
22
계약
를레
비에
▁밸브
▁시발
▁에볼
▁오구
▁요가
▁화염
▁ㅌㅏㅆ
▁오릭스
▁청문회
▁갈릴레오
▁다카하시
ㄹㅗㅇㅜㄴ
▁ㅁㅜㄹㄹㅓㄴㅏ
14
피크
ict
▁결장
▁공문
▁뮐러
▁블랑
▁ㄸㅏㄴ
▁한국군
▁Hell
▁ㅎㅡㄹㄹ
▁만장일치
▁캄파니아
▁ㄷㅗㄹㄹㅕㅆ
범죄
▁가선
▁감축
▁거시
▁너희
▁도안
▁라임
▁소인
▁숙명
▁유창
▁인계
▁제지
▁코린
▁해지
▁강화군
▁엘비스
▁1859
▁문맥
▁상감
▁소르
▁승률
▁자성
▁차명
▁경부선
▁포식자
▁1700
▁메모리얼
▁ㅎㅐㅆㅇㅡㅁㅡㄹㅗ
남면
토크
▁YG
▁관아
▁나일
▁도읍
▁레크
▁방학
▁사연
▁예금
▁완장
▁원사
▁앙드레
▁콘티넨
▁스테파노
▁KS
▁두르
▁중건
▁CIA
▁곧이어
▁루카스
▁전시관
▁현미경
▁사무라이
▁us
▁곡식
▁니즈
▁뚜껑
▁문물
▁볼드
▁북측
▁사병
▁산재
▁선과
▁스펙
▁요도
▁원문
▁갑작스럽
▁레닌주의
▁프리큐어
▁ㅇㅝㄴㅎㅏㄴ
▁ㅁㅜㅇㅓㄴㄱㅏ
장사
제철
▁미켈
▁미트
▁서체
▁소주
▁스플
▁의제
▁펭귄
▁아파치
▁연방군
▁클레오
▁혼합물
▁켐
형제
▁도부
▁명왕
▁법규
▁이씨
▁태화
▁퇴치
▁게이밍
▁오리엔
▁외계인
13
15
EEE
▁네브
▁대입
▁서품
▁억울
▁통찰
▁플랑
▁개화파
▁사다리
▁아키텐
▁울트라
▁인류학
▁ㅂㅏㅊㅕ
▁라이센스
ㄸㅡㄹㅣㄴ
▁ㅂㅏㄲㅟㄴㄷㅏ
▁과세
▁리안
▁제비
▁화음
▁625
▁ㅎㅐㄴ
▁우에노
나시
데일
란다
로트
▁공병
▁구가
▁모교
▁부식
▁블룸
▁투사
▁순천시
▁이론가
▁이케다
▁미야기현
▁자이언트
▁자카르타
고사
마을
매기
무장
완다
▁재물
▁전범
▁푸젠
▁함장
▁대사간
▁억제제
▁핵탄두
▁ㄱㅗㄹㄹㅏ
▁테크놀로지
▁뉴클레오타이드
VA
▁멱
주석
▁se
▁롤러
▁앨라
▁율리
▁화소
▁제니퍼
▁ㄱㅣㄹㄹㅓ
▁경합
▁구전
▁맹렬
▁바젤
▁백운
▁왕당
▁전서
▁후회
▁서태지
▁ㅂㅜㄹㄹㅣㄹ
▁ㅅㅔㅇㅝㅆㅇㅡㅁㅕ
▁챠
투리
uck
▁만류
▁원점
▁츠카
▁ㄲㅡㅀ
▁빌바오
▁이주민
▁찾아오
▁출장소
▁^
▁뮈
▁웜
동원
버터
▁박찬
▁발터
▁상환
▁원만
▁가치관
▁직사각
▁아이스크림
de
다보
▁관위
▁레티
▁산남
▁아누
▁양지
▁하층
▁후견
▁난쟁이
▁환승역
▁소아시아
▁아드리아
▁크리스틴
재판
▁속국
▁자갈
▁적법
▁결의안
▁길거리
▁목표물
▁미성년
▁바스크
▁선제후
▁IEEE
HC
HL
▁샷
나주
크리
▁거병
▁결여
▁사와
▁총감
▁평하
▁피자
reak
▁ㅈㅗㅇ
▁기념장
▁쓰촨성
▁출판물
▁탈레반
▁트레인
▁ㄸㅓㄹㅇㅓ
▁ㅁㅗㄹㅡㄴ
과학
▁군기
▁근간
▁무공
▁백지
▁변론
▁여정
▁왕명
▁주포
▁테헤
▁회차
▁후면
▁ㄲㅓㄴ
▁ㅂㅓㅁ
▁아이치
▁이치현
▁카리스
조류
주사
▁다윗
▁로보
▁리언
▁매기
▁발광
▁베다
▁보어
▁북인
▁사산
▁산술
▁정청
▁코이
▁하후
▁340
▁ㅇㅓㄹ
▁통계학
▁고바야시
▁ㄱㅏㅁㅜㄴ
oo
▁짚
스톤
티지
ail
▁FF
▁경원
▁로코
▁수주
▁오와
▁이창
▁조회
▁튜링
▁특명
▁로저스
▁마코토
▁순교자
▁케이드
▁서바이벌
▁아미타불
르바
장조
패드
▁김학
▁뉴잉
▁도끼
▁알로
▁용맹
▁희미
▁ㅅㅜㄴ
▁미트라
▁빈센트
▁셰퍼드
▁향신료
▁끔
▁as
▁개경
▁관군
▁김우
▁논증
▁담양
▁로디
▁승낙
▁이만
▁일면
▁장경
▁ㅅㅓㄷ
▁볼프강
▁Star
▁카디널스
▁자백
▁전봉
▁진천
▁청정
▁헬스
▁화풍
게이트
▁ㄲㅏㄹ
▁레이건
▁실린더
▁지석묘
스퍼
의식
▁달력
▁보국
▁오인
▁유틸
▁정역
▁퇴출
▁헤라
▁Sun
▁대혁명
▁로스트
▁안철수
▁이광수
▁정착지
▁해인사
▁국가원수
▁유틸리티
▁매사추세츠주
▁ㅈㅓㅇㅎㅐㅈㅕㅆ
▁펙
▁공석
▁발진
▁섹션
▁양동
▁어선
▁홀수
하마드
▁교황령
▁예문관
▁오슬로
▁나바
▁미러
▁보디
▁사생
▁상설
▁수프
▁우니
▁입찰
▁젤리
▁가우스
▁개척자
▁ㄴㅏㅁㅏ
▁ㅁㅜㄴㅓ
▁오토바이
▁Super
플레
▁거문
▁구라
▁도매
▁베가
▁부락
▁세제
▁손수
▁안주
▁연해
▁진심
▁타파
▁폐차
▁310
▁ㅅㅓㅇ
▁개막식
▁아스카
▁ㄴㅗㅎㅇㅕㅆ
댓값
소니
▁my
▁상층
▁아칸
▁추장
▁통감
▁호화
▁울주군
▁원정대
▁ㅈㅓㅈㅣㄹㄹㅓㅆ
배마
▁교감
▁사탄
▁짝수
▁커브
▁타밀
▁평방
▁209
▁국내선
▁대제학
▁디에고
▁아니면
▁앨라배마
▁ㅈㅏㅂㅎㅣㄴ
▁ㄷㅜㄷㅡㄹㅓㅈㅣㄴ
구미
바퀴
vel
▁교인
▁금관
▁멜라
▁you
▁무신론
▁바빌론
▁브레멘
▁ㄴㅓㄼㅎㅕ
▁ㅎㅟㅂㅆㅏ
학파
▁과달
▁김도
▁김주
▁수문
▁시력
▁템플
▁대관식
▁셀레우
▁윤치영
▁그래픽스
▁유니코드
▁ㅅㅏㄴㅈㅣ
▁뉴잉글랜드
▁후쿠시마현
▁콘스탄티누스
▁ad
▁근세
▁산정
▁추밀
▁토프
ㅂㅅㅣ
▁대대장
▁에이브
▁자오선
▁자치현
▁페스트
▁1812
▁ㅇㅡㄹㅓ
▁ㅈㅣㄴㅏㄹ
iel
▁명륜
▁모션
▁선별
▁속초
▁어학
▁정실
▁타선
▁르완다
▁송진우
▁Soul
▁ㄱㅏㄷㅎㅕ
▁ㄸㅓㅇㅗㄹㄹㅏㅆ
TF
▁DO
▁강유
▁넓히
▁동급
▁로컬
▁맞배
▁박경
▁산인
▁성조
▁수라
▁의인
▁지카
▁충동
▁탄두
▁터스
▁피그
▁삼거리
▁엄청나
▁에이지
▁ㅁㅐㄷㅏ
▁굶
초프
티어
▁김덕
▁닷컴
▁루드
▁메드
▁문건
▁장강
▁지검
▁항문
▁호국
▁206
▁접미사
▁한자어
▁ICBM
▁모니터링
▁알렉세이
▁무형문화재
▁Kn
▁근위
▁나시
▁로런
▁수구
▁안면
▁장지
▁단말기
▁자본가
▁선거관리
▁아이파크
▁중앙일보
▁선거관리위원회
59
▁름
구나
그램
팩스
▁루손
▁산동
▁센타
▁아호
▁풀이
▁호이
▁슈투트
▁에세이
▁여수시
▁음식점
▁주거지
▁John
▁슈투트가르트
샤오
▁동맥
▁무위
▁무진
▁빨강
▁수질
▁이건
▁점토
▁주유
▁코우
▁투니
하우스
▁서비스업
▁Christ
▁쑹
네오
디드
스레
▁Mi
▁Tw
▁금천
▁법상
▁샤오
▁의논
▁장이
시아키
▁주제가
▁안토니우스
도감
ute
▁IF
▁ON
▁걸스
▁배타
▁세밀
▁스쿼
▁황위
▁ㅈㅣㅁ
▁연대장
▁조르주
▁북대서양
ㅂㅏ
면적
▁교재
▁조던
▁집적
▁천자
▁춘계
▁카보
▁폐하
공화당
▁747
▁기생충
▁록히드
▁안데스
▁조광조
▁1879
▁건국훈장
▁막시밀리
▁베르사유
▁민주공화당
▁ㅁㅜㄹㄹㅣㅊㅕㅆ
EA
gh
버라
탄올
▁당상
▁도자
▁변성
▁익히
▁차역
▁철기
▁초식
▁콘스
▁콜론
▁포상
▁한하
▁ㄱㅕㅌ
▁로널드
▁아브라함
▁로지
▁버밍
▁범람
▁양원
▁하강
▁ㄲㅓㄹ
▁보이즈
▁조봉암
▁파르마
▁얄
▁ㄲㅚ
▁구비
▁규합
▁매듭
▁스완
▁정맥
▁카토
라이스
▁고지대
▁석회암
▁의병장
▁카지노
▁테헤란
▁피어스
방스
여지
▁HP
▁과감
▁아람
▁영도
▁우기
▁청일
▁카펠
▁레코딩
▁바닷가
▁제이크
▁일렉트로닉
슐리
▁Mr
▁고후
▁공경
▁니치
▁대방
▁도파
▁딱딱
▁양념
▁울루
▁위축
▁백두산
▁사우디
▁여러분
▁논평
▁유계
▁임실
▁자석
▁초회
▁해주
▁해커
▁호투
▁개개인
▁게이오
▁독재자
▁태블릿
▁ㅍㅏㄹㅏㄴ
▁ㅇㅔㄷㅏㄱㅏ
OK
▁뽀
▁썰
태자
▁관개
▁부기
▁휴일
▁CoA
▁des
RI
네프
화산
▁귀순
▁농담
▁대여
▁듀스
▁모태
▁유세
▁이코
▁App
▁라그랑
▁리그컵
▁여행자
▁ㄲㅜㅁㅕㅆ
▁뉴올리언스
▁ㅌㅐㅇㅓㄴㅏㄹ
▁ㅂㅜㅌㅈㅏㅂㅎㅕ
▁ㅍㅕㄹㅊㅕㅈㅣㄴ
분투
▁국문
▁노역
▁리퍼
▁소량
▁소포
▁수족
▁유보
▁일보
▁카파
▁쿠시
▁풍요
로세서
▁420
▁기울이
▁무사시
▁아이작
ㅇㅝㅅㅓ
▁ㅈㅜㄱㅇㅣㄹ
▁ㄷㅗㅁㅏㅇㅊㅕ
▁가창
▁군마
▁끔찍
▁노마
▁단수
▁두부
▁방탄
▁부화
▁사파
▁양정
▁예보
▁원한
▁클럭
▁호적
▁ㅊㅜㄴ
▁리바이
▁사가미
리아누스
▁ㅈㅏㅂㅎㅕㅆ
블릭
신보
정변
▁능숙
▁상이
▁스킨
▁스텐
▁영종
▁전열
▁컬링
▁호시
레틱스
▁그러면
▁암스트
ㅇㅡㅁㅕㄴ
▁애슬레틱스
▁ㅊㅣㄹㅡㄴㄷㅏ
▁ㅂㅜㄹㄹㅓㅇㅣㄹㅇㅡㅋㅕㅆ
▁썸
연맹
▁기권
▁반납
▁불능
▁불문
▁빛깔
▁용역
▁조우
▁카다
▁글리제
ㅇㅣㄷㅏ
▁원종공신
▁ㅈㅓㄱㅎㅣㄴ
▁권투
▁동대
▁두스
▁머큐
▁반달
▁유상
▁최용
▁택하
▁현수
를레앙
▁Str
▁니가타
▁변호인
▁영사관
▁인산화
▁트리스
▁파르티아
▁ㅇㅏㅇㅣㄴ
▁꽝
반정
▁Gu
▁강가
▁무겁
▁열람
▁인삼
▁ㅅㅐㄴ
▁국방군
▁오메가
▁테크노
▁주머니쥐
▁Record
링크
ull
▁개표
▁김시
▁인척
▁자각
▁자네
▁처칠
▁체리
▁알칼리
▁ㄷㅏㅇㅎㅐㅆㅇㅡㅁㅕ
▁쿵
ㅇㅅ
VID
▁감당
▁애호
▁중등
▁차차
▁440
▁아우구스트
▁퀼
자드
장군
▁"|
▁PA
▁광시
▁대등
▁부트
▁수아
▁시타
▁제고
▁타라
▁할구
▁잠비아
▁클라리
▁항생제
▁ㄴㅐㄱㅔ
▁print
▁ㄱㅣㅇㅜㄹㅇㅕㅆ
티보
▁게놈
▁남경
▁도나
▁용문
▁유민
▁후추
▁군주제
▁수영장
▁엘리엇
▁타지키스탄
▁public
산업
선교
▁당장
▁신익
▁실베
▁압수
▁왕녀
▁커리
▁폴로
▁항전
▁Per
▁바실리
▁본거지
▁스위트
▁야구부
▁여주인
▁유기체
▁조용히
▁불법행위
▁쑨
길준
수지
▁po
▁고난
▁궁주
▁미타
▁전곡
▁접목
▁투병
▁실리콘
▁엘리스
▁오토모
▁합병증
대비
▁금기
▁노엘
▁비싸
▁사체
▁상회
▁성자
▁앙상
▁역동
▁자존
▁제방
▁종실
▁쿠루
▁환산
리오스
▁즐거움
▁허버트
▁ㅅㅔㅇㅜㄹ
▁엔지니어링
▁ㄷㅚㄷㅗㄹㄹㅕ
▁CA
▁nm
▁나토
▁라쿠
▁리노
▁성현
▁소진
▁열거
▁유관
▁은평
▁증축
▁투기
▁화이
▁Hot
▁산투스
▁슈트라
▁양산시
▁엔리케
▁영화관
▁페이퍼
바이러스
▁ㄷㅜㅌㅓ
▁헬레니즘
▁ㄱㅜㅎㅏㄴ
▁ㅇㅣㅂㅎㅕㅆ
덕궁
레미
어놓
자나
▁균등
▁동두
▁무패
▁문어
▁사나
▁시영
▁아루
▁이석
▁이한
▁퀸스
로그램
▁공성전
▁바레인
▁제시카
▁카스텔
▁2500
▁리바운드
데오
황제
▁교학
▁리지
▁마거
▁명동
▁북마
▁온전
▁왕좌
▁요셉
▁콜리
▁환초
▁256
▁ㅃㅜㄹ
▁오우치
▁대법원장
▁다마스쿠스
▁슈트라우스
무지
쿠치
▁담수
▁바바
▁이설
▁코니
▁고다이
▁기본법
▁시에라
▁캅카스
▁플래닛
▁ㅇㅓㄹㅏ
▁천문단위
ㅁㅏㄹㄹㅗ
▁ㄹㅏㄱㅗㄷㅗ
ty
ㅘㅆ
▁식이
▁접시
▁코인
ㄸㅓㄹ
▁Win
▁비행사
▁초고층
▁ㄴㅜㄹㄹㅓ
16
25
▁찢
발트
일체
ual
▁군도
▁마다
▁매복
▁사목
▁사스
▁정직
▁중신
고로드
▁왕당파
▁ㄱㅏㅇㅎㅐㅆ
포리
▁내시
▁성교
▁성형
▁우타
▁향로
ogle
▁광합성
▁랴오닝
▁접근성
▁페르시
▁사이클론
▁크리스탈
▁그릴
▁동체
▁셔츠
▁아역
▁연하
▁왕릉
▁유미
▁카츠
▁피질
▁호찌
▁ㅍㅜㄹㄹㅕ
▁ㅅㅓㄲㅇㅣㄴ
▁ㅇㅗㄹㄹㅏㅇㅘㅆ
높이
스틱
▁고독
▁반정
▁반향
▁오차
▁패자
▁힐스
▁예수교
▁이세이
▁ㅇㅣㄹㅜㅇㅓㅈㅣㄹ
울루
자락
▁가결
▁광동
▁교명
▁농협
▁따지
▁라사
▁석재
▁실책
▁양구
▁탈피
▁행운
▁남북조
▁렌더링
▁매니아
▁브루노
▁요나라
▁리치먼드
▁ㅈㅡㄹㄱㅕㅆ
▁ㄱㅓㄴㅡㄹㅕㅆ
▁캥
커우
▁Ke
▁금리
▁담임
▁바타
▁응력
그래피
▁버스터
▁예비군
▁제주시
▁조연상
▁주둔지
▁지극히
▁프리드
▁1789
다임
빨리
▁HS
▁깊숙
▁아구
▁체질
▁코일
▁킬러
던지기
▁208
▁베이직
▁춘천시
▁기타큐슈
▁아미타여래
무트
▁NM
▁봉분
▁부안
▁워낙
▁이보
▁칠곡
▁트램
▁오이타
▁유도탄
▁토론회
▁호기심
▁후유증
▁1801
▁Back
▁플랑드르
▁ㄷㅗㄹㅇㅏㄱㅏㄴ
▁ㅇㅡㄹㅅㅜㄹㅗㄱ
▁ㅣ
는점
▁mu
▁느슨
▁미녀
▁스팀
▁시온
▁여관
▁즉흥
▁지브
▁촐라
▁할로
프리드
▁911
▁사무엘
▁스텔스
▁웨슬리
▁조제프
▁ㄴㅏㄹㄹㅕㅆ
▁둠
RNA
▁강타
▁기피
▁득실
▁유독
▁히코
▁머큐리
▁생산자
▁유길준
▁잠재력
▁재결합
▁1400
▁Kore
▁ㅌㅐㅇㅝ
▁패러다임
▁ㄱㅓㄴㄴㅔ
▁ㅅㅡㅂㄴㅣㄲㅏ
▁ㄷㅡㄹㅓㄴㅏㄴㄷㅏ
불명
평면
▁강자
▁끌어
▁노골
▁사조
▁소노
▁폐교
▁다행히
▁아르테
▁포틀랜드
▁기한
▁내기
▁누마
▁멘델
▁쌍용
▁악어
▁전과
▁정중
▁진성
▁초석
▁총생
▁침수
▁네바다
▁이회창
▁암스트롱
ll
인산
▁Fl
▁MD
▁동률
▁신천
▁안시
▁영성
▁원곡
▁작자
▁Get
▁MIT
▁사천왕
▁영문학
▁최진실
▁판매고
제사
▁KD
▁구애
▁대용
▁이크
▁치킨
▁파피
▁광주시
▁길버트
▁디아스
▁로런스
▁사망률
ㅐㅎㅐㅆ
▁남한산성
▁비로자나
▁ㅇㅕㅅㅂㅗㄹ
▁ㅎㅐㅇㅎㅏㄴ
▁ㄴㅐㅆㅇㅡㅁㅕ
▁ㅈㅣㅂㅐㅎㅐㅆ
로움
스텐
▁국산
▁윤곽
▁조율
▁중학
▁탄력
▁ㅃㅐㄴ
▁넘어서
▁앙상블
▁NATO
▁ㅁㅗㅇㅕㅆ
ox
▁NL
▁거머
▁교란
▁군량
▁애프
▁오웬
▁370
▁내몽골
▁마거릿
▁방법론
▁브릿지
▁양평군
▁영장류
▁유물론
ㄴㅏㄴㄷㅏ
▁ㅎㅐㅇㅎㅐㅈㅣㄴ
▁쐐
▁킵
라과
▁NA
▁가전
▁갑신
▁거품
▁기일
▁발열
▁약품
▁에픽
▁채집
▁첫날
▁청중
ames
▁생물학자
▁프린세스
▁군림
▁궁수
▁균열
▁변천
▁보아
▁악의
▁총국
▁ㅇㅘㄴ
▁마운틴
▁붉은색
▁드래곤즈
▁미식축구
▁렬
의금
▁관저
▁도화
▁레저
▁미로
▁신궁
▁쐐기
lect
▁Mag
▁급속도
▁동일시
▁선수상
▁독립선언
▁탄수화물
▁항공우주
▁Intern
▁ㅂㅕㄴㅎㅐㅆ
모닉
▁구명
▁극회
▁먼로
▁미디
▁민선
▁승선
▁예편
▁우디
▁출정
▁펼쳐지
▁후반전
ology
▁ㄹㅏㄴㅣ
▁해수욕장
▁ㅁㅏㄹㅡㄴ
GO
이상
▁관원
▁군위
▁깨지
▁면하
▁성부
▁세타
▁승마
▁아로
▁안건
▁장승
▁제헌
▁카인
▁커넥
▁코딩
▁타키
▁트론
▁하세
▁현관
▁후난
▁남아공
▁디렉터
▁메신저
▁알베르
▁리하르트
▁ㄷㅏㄴㅣㄹ
▁셀레우코스
▁ㅇㅗㄹㄹㅣㅁ
▁ㄴㅏㄴㅜㄴㄷㅏ
▁가변
▁겨냥
▁노름
▁로만
▁무소
▁유재
▁책정
▁코디
▁호지
▁방문객
▁오리건
▁요시카
▁추축국
▁이마가와
▁ㄱㅗㄴㅡㄴ
▁ㅁㅓㅁㅜㄹ
YP
레븐
피카
let
▁만물
▁열기
▁의대
▁제타
▁탄성
▁ㄱㅗㄹ
▁나카노
▁베테랑
▁부천시
▁와이어
▁클라인
그라운드
ature
▁Baby
▁니카라과
▁트로츠키
▁ㅇㅣㄱㅣㄹ
▁나날
▁무쓰
▁생포
▁어둡
▁지회
▁케로
피에르
▁225
▁ㅆㅗㄴ
▁미요시
▁부사장
▁레오나르
▁ㅅㅣㅋㅣㄴㄷㅏㄴㅡㄴ
17
백색
투르
ove
▁니트
▁무루
▁솔직
▁유익
▁장차
▁최순
▁캔터
▁캡틴
▁호전
▁효성
▁콜라보
▁태양광
▁돼지고기
▁에두아르
▁ㅈㅣㅋㅣㄹ
▁베오그라드
남동
능력
득점
박이
훈련
▁다채
▁사일
▁안락
▁오랑
▁진위
▁흉내
▁블러드
▁이유로
▁서귀포시
▁ㄴㅏㅇㅘㅅㅓ
경찰
락부
무실
enn
▁가령
▁격화
▁고관
▁공훈
▁누에
▁리라
▁생장
▁주스
▁초판
▁친히
▁탄광
코비치
▁기네스
▁범어사
▁브루크
▁스태프
▁시나노
▁신안군
▁주세페
▁ㅅㅓㄴㅂㅗㅇㅣㄴ
심원
▁BB
▁BO
▁Cr
▁듀엣
▁박태
▁베아
▁불길
▁서곡
▁조엘
▁카노
▁카불
▁파출
▁피시
▁합장
▁황하
inal
▁고스트
▁다카시
▁두더지
▁리카르
▁페라리
▁게오르기
▁로베르트
▁프레더릭
▁안티오키아
UM
▁씬
ors
▁강구
▁개축
▁경산
▁고취
▁김장
▁대소
▁도보
▁레반
▁매튜
▁사옥
▁수화
▁외가
▁출항
스트림
▁GPS
▁Way
▁강릉시
▁만주족
▁ㅁㅜㄴㅓㅈㅕ
파니
▁개리
▁도식
▁명장
▁비방
▁연어
▁유감
▁천태
▁철근
▁포메
말라야
▁Res
▁김종직
▁압둘라
▁이치로
▁혈액형
ㅅㅓㄴㄷㅏ
▁ㄴㅏㅇㅘㅆㅇㅡㅁㅕ
TN
ㅍㅣ
▁결투
▁공지
▁깁슨
▁라테
▁브이
▁소마
▁약수
▁출병
▁풍기
▁하츠
▁스트라
▁이리하여
금속
메랄
▁DA
▁공평
▁꾸미
▁레르
▁야만
▁잔치
▁조너
▁폭주
▁한꺼
▁효모
▁365
▁알레산
▁체육회
▁타일러
▁서대문구
▁선거인단
▁한꺼번에
갱이
덱스
▁굳이
▁기형
▁베라
▁베컴
▁알마
▁운석
▁직각
▁춘향
▁키치
▁흡입
▁207
▁동북부
▁스펜서
▁아열대
▁이지스
▁인문학
▁태극기
▁해수면
▁Amer
광사
즈미
▁교내
▁미추
▁봉헌
▁살레
▁증류
▁천적
▁통킹
▁풋살
▁일제히
노스아이
▁1815
▁1820
▁아르바이트
노스아이레스
▁ㄴㅐㄹㅕㄱㅏㅆ
▁ㅇㅗㄹㄹㅏㄱㅏㄹ
▁부에노스아이레스
▁둑
마니
시카
app
▁OK
▁결렬
▁도량
▁떨어
▁맞닿
▁명중
▁양위
▁핼리
▁화교
▁흑색
스티안
이즈미
▁무정부
▁어드밴
▁지방도
▁페레스
▁프린터
▁히말라야
▁소크라테스
24
▁꿰
▁쪼
▁공보
▁박동
▁사계
▁설과
▁세도
▁습도
▁신안
▁에든
▁청군
▁감마선
▁노무라
▁Cent
▁에든버러
FS
처럼
▁격침
▁그간
▁내역
▁북송
▁시성
▁인노
▁총수
▁퇴계
▁야행성
▁조합원
▁라이온스
▁리얼리티
▁ㅇㅏㄴㅣㅁ
▁ㅇㅗㄹㅡㅁ
▁레닌그라드
▁낸
가요
나비
월드
ina
▁결단
▁노하
▁담장
▁모잠
▁변조
▁시편
▁아쉽
▁전극
▁죄인
▁한라
▁호박
ㄱㅡㄹ
▁ㅂㅓㅌ
▁국무부
▁농민군
▁사법부
▁오징어
▁전동기
▁함부로
▁모잠비크
ㅇㅏㄴㅐㄹ
▁ㅁㅏㄹㄹㅕ
▁ㅂㅏㄷㅇㅏㄷㅡㄹㅇㅣㄴ
오드
현실
▁던전
▁떠돌
▁서역
▁치루
▁표어
▁해머
ange
ater
▁ㅈㅏㅂ
▁시아파
▁제품군
▁후베이
로프로세서
▁System
▁마이크로프로세서
▁Dr
▁김석
▁술집
▁스틱
▁양분
▁월경
▁천리
▁필로
ㅕㅅㅓ
▁도나우
▁디나모
▁리그전
▁유명세
▁정몽주
▁지포스
▁트럼펫
▁마쓰모토
▁ㅌㅗㅇㅊㅣ
▁결실
▁김은
▁데니
▁로제
▁모질
▁에다
▁윈드
▁트롤
레이즈
▁조병옥
▁유럽연합
▁카롤루스
▁ㅇㅓㅇㅜㄹ
▁ㅈㅣㄴㅇㅣ
▁막시밀리안
끄럽
▁SW
▁격상
▁굴욕
▁마취
▁에인
▁이부
▁재심
▁좌랑
▁지반
▁파고
▁피쳐
▁허들
▁아드리
▁모노이드
▁알베르트
▁이오니아
▁알렉산드라
za
거루
▁노총
▁당사
▁리서
▁마초
▁세실
▁소켓
▁어인
▁위태
▁융기
▁조나
▁직류
▁치밀
▁쿠사
▁학도
▁힘쓰
▁유공자
▁전망대
▁1858
▁오스트로
▁ㅎㅟㅁㅏㄹ
▁ㅇㅗㄹㅡㄴㄷㅏ
▁ㄷㅗㄹㅇㅏㅇㅗㄹ
쓰네
▁"'
▁결집
▁미완
▁본진
▁산마
▁아토
▁으뜸
▁장론
▁장서
▁코넬
▁트림
▁총생산
▁혁명가
▁ㄷㅓㄹㅓ
▁마그네슘
▁프로방스
▁갸
ret
▁갑오
▁달마
▁벅스
▁성찬
▁옵티
▁이구
▁충고
▁특위
▁펜스
▁Mac
▁ㅁㅣㄴ
▁신익희
▁연습생
▁일진회
▁파블로
▁ㄲㅣㅇㅝ
▁고고학자
▁이성질체
▁ㅊㅓㅇㅎㅐㅆ
▁챈
니츠
입자
▁'-
▁갈비
▁경구
▁만수
▁배지
▁슐레
▁영위
▁탈리
▁하카
▁ㅁㅜㅉ
▁ㅇㅓㅅ
▁가디언
▁모델링
▁민의원
▁조너선
▁ㅂㅘㅇㅑ
▁필하모닉
▁class
▁폴리네시아
▁폼페이우스
▁ㅎㅏㅂㅊㅕㅈㅕ
동리
러기
비츠
토바
ons
▁기욤
▁기주
▁납품
▁녹말
▁에뮬
▁엠마
▁좌천
▁창씨
▁테살
▁형광
▁도치기
▁제노바
▁중심핵
▁맞배지붕
가라
▁더빙
▁본능
▁빠져
▁사보
▁소정
▁완산
▁자막
▁장택
▁지뢰
▁합산
지먼트
ions
▁라이드
▁마에다
▁봉수대
▁필리스
ㄷㅡㄴㄱㅏ
▁매니지먼트
▁ㄷㅓㄴㅈㅣㄴ
ley
▁능하
▁만연
▁의왕
▁이삭
▁이철
▁태상
▁토의
▁특혜
▁Tra
▁ㄱㅔㅅ
▁그리드
▁저지르
▁지팡이
▁크레타
▁포인터
▁ㄷㅓㄹㅏ
▁무궁화호
▁ㅎㅏㅂㅊㅕㅅㅓ
코인
▁낙태
▁디펜
▁상해
▁새해
▁선서
▁소탕
▁육박
▁재주
▁종단
▁출루
▁군산시
▁노트북
▁목포시
▁분홍색
▁스와프
▁시게루
▁유성구
▁항소심
▁서프랑크
▁천연가스
▁ㅈㅡㄹㄱㅓㅇㅜㄴ
att
▁고택
▁광서
▁기민
▁동티
▁분담
▁수강
▁진구
▁펠레
▁포섭
▁푸틴
▁Int
▁대학살
▁선데이
▁적절히
▁평의원
▁1814
라나
▁SG
▁급사
▁농작
▁대정
▁도난
▁매질
▁실태
▁아말
▁정공
▁콘셉
▁토드
▁Not
▁안티고
▁트랜싯
▁ㅇㅏㄹㅏ
▁ㅇㅣㄱㅔ
▁동아프리카
▁ㄱㅏㅂㅈㅏㄱㅅㅡㄹㅓㄴ
ux
사랑
▁견지
▁기교
▁남궁
▁니체
▁로타
▁마도
▁성제
▁수선
▁안재
▁정과
▁정현
▁테드
▁헬렌
▁USA
▁ㅌㅡㅁ
▁모터쇼
▁쌍방울
▁평상시
▁type
▁귤
당류
정제
촌동
▁문성
▁벨벳
▁사악
▁위배
▁총살
▁핑계
▁전철역
▁직할시
▁1300
▁ㅋㅓㅈㅕ
ㅇㅗㄹㄹㅕㅆ
널목
실험
싸움
자유
컨드
테일
ART
▁궁내
▁덕수
▁독실
▁말소
▁미자
▁민가
▁쓰리
▁음양
▁음역
▁흥덕
▁IEC
▁MHz
▁건너편
▁건널목
▁비올라
▁High
ㄹㄹㅣㄴㄷㅏ
NT
거성
재단
▁Of
▁손쉽
▁아약
▁이덕
▁전집
▁증직
▁키아
▁휴먼
▁ㄹㅣㄹ
▁겨울철
▁수도사
▁충주시
▁보호구역
▁산업단지
▁알베르토
▁클라이맥스
▁Google
BN
기둥
림동
▁기근
▁마틸
▁소치
▁콤비
▁War
▁깨달음
▁달아나
▁마피아
▁모조리
▁미우라
▁오나라
▁티무르
▁평택시
▁피드백
▁ㄴㅡㄹㄹㅕㅆ
▁ㄴㅐㄹㅕㅇㅗㄴ
니코
랭크
마일
토쿠
▁ㅎㅓ
▁바사
▁버거
▁부탄
▁석등
▁시차
▁신관
▁우도
▁윗면
▁전액
▁퍼플
▁ㅁㅏㅇ
▁거머쥐
▁광화문
▁맞대결
▁성북구
▁연구실
▁What
▁암모니아
▁ㄷㅗㄹㅇㅏㅇㅘㅅㅓ
ㅡㅅ
데냐
민정
▁견훤
▁고갈
▁미에
▁비호
▁살피
▁유승
▁전란
▁주상
▁헤임
▁홍천
씨식물
▁WHO
▁ㅁㅓㄱ
▁ㅌㅏㄹ
▁니스트
▁막아내
▁세컨드
▁액티브
▁패트리
▁프렌즈
▁플래그
▁그래미상
▁사르데냐
▁석가여래
▁ㅃㅏㄹㄹㅏ
▁ㅇㅣㄹㅝㅆ
▁ㅇㅓㄹㅕㅇㅜㄹ
▁앳
▁kW
▁고요
▁군비
▁군집
▁라지
▁레미
▁목화
▁스팅
▁제보
▁증원
▁한정판
살바도르
▁1795
▁부위원장
▁ㅅㅔㄴㄷㅏ
▁ㅈㅣㄴㅈㅓ
▁ㅋㅣㅇㅝㅆ
▁조선왕조실록
▁ㅈㅣㄴㅈㅓㅇㅎㅏㄴ
▁규장
▁바하
▁보카
▁열망
▁예일
▁완주
▁캐럴
▁퀘이
▁패퇴
▁헨드
▁미시간
▁아약스
▁혁명군
▁ㄹㅣㄹㅏ
▁플레이스
▁ㄴㅐㄹㅕㄱㅏ
회원
ger
▁FS
▁갈아
▁공해
▁군락
▁도표
▁수의
▁스쿠
▁지층
정보부
▁LCK
▁국문학
▁라쿠텐
▁성명서
▁연금술
▁우승컵
▁익산시
▁통신부
▁플라자
▁다리우스
▁토스카나
▁ㅇㅕㄱㅣㄴㄷㅏ
▁밈
▁윔
ㅜㅀ
베인
스테
식스
전차
▁루지
▁리츠
▁발췌
▁보육
▁본초
▁우대
▁원생
▁페데
▁포진
▁훈족
▁ㄷㅐㄴ
ㅇㅜ
구멍
alk
▁PH
▁멘토
▁스톨
▁암초
▁애매
▁약학
▁에런
▁우사
▁초당
▁패드
▁290
▁TBC
▁ㅁㅝㄴ
▁블루어
▁주교좌
▁커티스
의금부사
▁With
▁디렉터리
▁샌드위치
▁크리스천
▁ㄷㅏㄹㅡㅁ
퍼트
▁로동
▁로어
▁아난
▁앨버
▁켈빈
▁프록
▁할양
▁혼돈
지스터
▁MLB
▁관찰자
▁홉킨스
▁ㅁㅜㄴㅓㅈㅕㅆ
▁ㅂㅏㄷㅇㅏㄷㅡㄹㅇㅣㄹ
ye
▁렝
▁RA
▁간지
▁도정
▁북상
▁브람
▁얼터
▁총액
▁코지
▁쿠리
ㄷㅏㅇ
▁Dis
▁로렌초
▁스레드
▁원정군
▁재빨리
▁하모니
▁ㅁㅗㄹㅡㄹ
▁ㄱㅏㅈㅕㄱㅏㅆ
▁켓
부미
yle
▁감기
▁모식
▁몬태
▁보훈
▁비욘
▁아랑
▁아핀
▁열풍
▁인대
▁포교
디우스
▁480
▁ㄸㅜㅀ
▁남조선
▁리포트
▁선언문
▁수마트라
▁ㅁㅕㄴㅇㅡㄴ
▁ㅇㅗㄹㄹㅏㅇㅗㄴ
▁ㅇㅜㅁㅈㅣㄱㅇㅣㅁ
▁쥘
건적
라도
카라
▁부녀
▁실크
▁아픔
▁알렌
▁에린
▁장준
▁진하
▁헬로
▁850
▁남해군
▁대항해
▁스타즈
▁에히메
▁창업자
▁트루먼
▁헬싱키
▁안드레이
▁트랜지스터
▁ㄷㅗㄹㅇㅏㄱㅏㄴㄷㅏ
▁괴뢰
▁당명
▁매춘
▁보궐
▁세베
▁어쩌
▁우이
▁웰스
▁정일
▁종친
▁풍수
▁함의
▁238
▁Art
▁북반구
▁정확도
▁창덕궁
▁합천군
▁ㅃㅜㄹㅕ
▁아틀레틱
▁그리스도인
팽이
enc
▁김세
▁니나
▁반야
▁선회
▁숭실
▁천정
주니어
▁ㄸㅐㄹ
▁고조선
▁바로잡
▁드레이크
▁ㅇㅝㄴㅅㅜㄹ
▁관대
▁그늘
▁급기
▁데쓰
▁미숙
▁승전
▁영재
▁유원
▁장조
▁토비
▁평신
▁허구
▁헤지
플레잉
▁개최지
▁보행자
▁충렬왕
▁ㄱㅟㅇㅕ
▁가나자와
▁롤플레잉
▁ㅈㅜㄹㅇㅕㅆ
레프
▁광택
▁덩굴
▁랜덤
▁버시
▁연유
ㄹㅏㅆ
가하라
ough
▁빅토리
▁페테르
▁프리킥
▁요시아키
▁COVID
▁ㄷㅏㄴㅣㄴㄷㅏ
▁ㅈㅜㄴㄷㅏㄱㅗ
▁Di
▁구토
▁기악
▁논설
▁머피
▁비어
▁첨부
▁남반구
▁보호관
▁안데르
▁지방관
ㅊㅕㅅㅓ
▁Blue
▁프로이트
▁ㅆㅡㅇㅕㅈㅕㅆ
UI
▁교주
▁노화
▁민권
▁박승
▁웅진
▁윈터
▁장항
▁정여
▁직권
▁팀장
네소스
▁돋보이
▁산체스
▁수번뇌
▁타블로
▁포스코
▁1793
▁카테고리
▁그리스도교
▁키르기스스탄
던스
천국
▁경이
▁국지
▁보츠
▁서강
▁소도
▁옥상
다람쥐
▁Rev
▁ㄴㅗㄱ
▁공직자
▁사이공
▁스타인
▁취약점
▁1846
▁MPEG
▁사탕수수
▁이베리아
▁ㅇㅓㄷㅣㄴ
▁ㅂㅗㅇㅕㅆㅇㅡㄴㅏ
▁뿜
메트
블린
적분
que
▁각광
▁골수
▁구룡
▁기시
▁리저
▁묘법
▁불평
▁쇠약
▁수렵
▁신구
▁올랭
▁율령
▁이트
▁정병
▁천구
▁효용
▁ㄹㅜㄴ
▁ㅇㅗㅂ
▁공기업
▁노르트
▁문하시
▁보라색
▁아산시
▁아칸소
▁이완용
▁페인트
▁물리학상
▁브루나이
▁ㅍㅏㄹㄹㅕ
▁뱌
ING
OVE
▁ED
▁걸치
▁구자
▁권하
▁대뇌
▁데메
▁멜론
▁미코
▁서보
▁설사
▁용접
▁차분
▁쿠릴
▁하순
연화경
웨스트
▁등록금
▁유격대
▁크라스
▁학생회
▁1839
▁에드먼드
▁자유민주
▁중앙정보부
▁ㄴㅡㄲㅣㄴㄷㅏ
26
ump
▁NX
▁ㅃㅐ
▁갤러
▁괴멸
▁국과
▁남포
▁니콘
▁당분
▁맛있
▁부딪
▁역모
▁오호
▁월북
▁직함
▁페터
▁손바닥
▁엉덩이
▁time
▁하시모토
▁ㅃㅐㅇㅏㅅㄱㅕㅆ
▁ㅊㅏㅈㅇㅏㅇㅘㅆ
르모
파스
▁'.
▁간디
▁과부
▁무당
▁새기
▁와해
▁이효
▁퇴단
비우스
슬라브
시우스
▁ㄴㅏㅊ
▁배수량
▁시어터
▁여객선
▁중서부
▁1854
▁시즈오카현
▁아오모리현
나물
바람
▁ㅎㅘ
▁공덕
▁교묘
▁산불
▁순정
▁이국
▁학급
▁국무원
▁농작물
▁아테나
▁에밀리
▁추밀원
▁아나키즘
▁히로부미
▁ㅌㅡㅁㅌㅏ
IO
▁꼼
▁훅
고트
운전
질량
▁MT
▁낙타
▁독소
▁만기
▁몸집
▁유시
▁존상
▁펀치
▁표결
▁해자
▁휘트
▁아쿠아
▁전기장
▁촘
래시
뻐하
▁Vf
▁ㅈㅐ
▁감탄
▁걸맞
▁게일
▁군국
▁도색
▁망루
▁본당
▁부윤
▁성내
▁심플
▁엄정
▁정강
▁추위
▁737
▁ㅇㅐㄹ
▁기뻐하
▁대머리
▁외무성
▁체스터
▁테트라
▁ㅇㅏㅇㅛ
▁트리니다드
▁ㅊㅏㄱㅎㅏㄴ
▁중앙아프리카
뉴스
모자
der
▁경멸
▁미묘
▁심근
▁윤원
▁총체
▁클루
▁학창
▁현충
▁214
▁가시마
▁버나드
▁베일리
▁상대론
▁수증기
▁알레르
▁기념사업
▁언어학자
▁초등학생
대성
재란
후이
▁바일
▁범용
▁세탁
▁아민
▁억류
티우스
▁베드로
▁분류학
▁산둥성
▁파트리
▁팩토리
총리대신
▁어드밴스
▁자연주의
▁정유재란
▁ㄴㅏㄴㅜㅁ
▁세키가하라
▁ㅇㅏㄹㅇㅏㅊ
▁내각총리대신
▁ㄹㅓㅅㅓㄴㅡㄴ
▁ㄱㅓㄴㄴㅓㄱㅏㅆ
▁뚱
패스
▁구인
▁방조
▁손책
▁솔트
▁여과
▁인신
▁필기
▁환기
▁COM
▁가입자
▁기부금
▁윤리학
▁조계종
▁최하위
▁평화상
▁하카타
▁후임자
▁비지니스
▁여주인공
▁ㅇㅏㄴㄷㅏ
▁갑각
▁구석
▁등대
▁디디
▁마한
▁야로
▁이형
▁준하
▁Min
▁ㅋㅐㄹ
▁메이트
▁안중근
▁이브라
▁키워드
▁황태후
ㄲㅗㅂㅎ
스트리트
▁기독교인
▁ㅅㅗㄴㄲㅗㅂㅎ
우어
▁개전
▁고하
▁박준
▁브론
▁상작
▁인출
▁제식
▁참배
▁코레
▁페드
학생회
▁LCD
▁교토부
▁비행대
▁ㄱㅡㄹㅔ
▁갈릴레이
▁비트코인
▁ㅁㅗㅇㅡㅁ
▁ㅅㅏㄹㅏㅈㅣㄴㄷㅏ
▁ME
▁고압
▁디온
▁라몬
▁루머
▁매번
▁박기
▁비크
▁상투
▁석상
▁오딘
▁유폐
▁찬탈
▁치중
▁칼레
▁특례
▁팬아
▁페가
▁후시
▁경비대
▁낙하산
▁돗토리
▁보나파
▁증명서
▁초대칭
▁파출소
▁1849
▁공화주의
▁미성년자
▁총학생회
▁ㅁㅏㄴㅡㄴ
▁보나파르트
28
▁넉
▁돛
▁퓌
탐정
▁간염
▁베버
▁북해
▁새턴
▁오닐
▁이견
▁종주
▁파드
▁하디
독립당
캐스트
프랑스
▁ㄱㅏㅄ
▁넥스트
▁데포르
▁델라웨어
▁오브젝트
▁플로이드
▁ㄱㅓㄹㄹㅗ
▁한국독립당
▁견습
▁교포
▁낙랑
▁내수
▁매월
▁바덴
▁분양
▁수표
▁시경
▁시주
▁웅장
▁ㅇㅜㅅ
▁구청장
▁나가노
▁북극해
▁1856
▁Beat
▁끌어들이
▁네덜란드어
HD
사회
정권
호프
▁계투
▁광경
▁귀양
▁남로
▁미모
▁분장
▁신작
▁어이
▁오기
▁우동
▁웨일
▁장령
▁존엄
▁철원
▁틀리
직할시
쿠스틱
▁식물원
▁에리크
▁지난해
베이거스
▁ㄴㅡㄹㅏ
▁어쿠스틱
▁ㅆㅡㅇㅕㅈㅕ
▁ㅅㅔㅇㅜㄴㄷㅏ
누아
리가
▁두껍
▁분쇄
▁수류
▁육아
▁이안
▁적재
▁태세
▁화북
코스트
atch
▁변속기
▁장택상
▁포위전
▁하이든
▁1851
▁크레이그
▁하이웨이
▁ㅇㅣㄹㅡㄹ
▁라스베이거스
▁ㅈㅣㄴㅏㄴㄷㅏ
23
▁줌
담회
렁이
오린
케스
호르
▁깜짝
▁만국
▁밀스
▁변방
▁사흘
▁소란
▁씨름
▁요아
▁해일
타니아
▁시공간
▁절대로
▁해럴드
▁ㅁㅏㅈㅁ
▁스탠퍼드
▁페더레이션
▁ㄴㅐㅅㅔㅇㅜㄴ
▁ㄴㅡㄹㅇㅓㄴㅏ
OU
체어
▁낙엽
▁본디
▁사죄
▁연임
▁예속
▁유장
▁윤영
▁촌은
▁430
▁건국대
▁교직원
▁디스코
▁레인보
▁입출력
▁사보이아
▁상파울루
▁차량기지
▁PP
▁도독
▁모기
▁배설
▁비참
▁셔먼
▁수배
▁인피
▁효능
▁후백
▁419
▁갖가지
▁벤피카
▁보르도
▁캐나다인
▁캔자스시티
86
▁럴
▁씌
처리
▁단사
▁라티
▁볼륨
▁상체
▁서천
▁수서
▁실로
▁원성
▁주경
▁추궁
▁활기
리어스
▁FBI
▁Top
▁진보당
▁찬드라
▁참모장
▁캥거루
▁하동군
▁1855
▁1857
▁마음대로
▁블레이드
▁스티븐스
▁오하이오주
개혁
하늘
▁계란
▁대세
▁들여
▁메사
▁보문
▁생가
▁쇼팽
▁현령
▁상속인
▁시부야
▁애벌레
▁핵폭탄
▁소용돌이
▁크리에이티브
나들
산읍
섬유
ery
▁간장
▁내구
▁알비
▁잇달
▁적성
▁한서
▁감염자
▁다이나
▁서북쪽
▁수산물
▁휠체어
▁노동자당
▁이해관계
봉사
하르
▁경색
▁김문
▁단성
▁민생
▁반려
▁벽면
▁서상
▁수훈
▁정시
▁착안
▁카잔
트로피
cess
icro
▁공사관
▁글리코
▁기념식
▁시흥시
▁오비탈
▁작사가
▁테이크
▁폴란드인
▁여러해살이풀
▁ㅇㅕㄹㄹㅕㅆㅇㅡㅁㅕ
▁좡
▁힉
버거
▁결탁
▁봉작
▁아모
▁여생
▁외동
▁캔디
고양이
콥스키
▁Med
▁구미시
▁노스케
▁아가씨
▁어리석
▁포천시
▁갑신정변
▁다이스케
▁정사각형
BT
댄스
려나
카테
▁다지
▁담론
▁분개
▁심슨
▁압송
▁제학
▁체첸
▁치수
▁톨킨
▁페티
▁헐리
▁시우바
▁지평선
▁투데이
▁포브스
츠부르크
▁이와테현
▁프란시스
▁데포르티보
▁민족주의자
▁병마절도사
▁ㄴㅏㅊㅅㅓㄴ
▁ㅁㅗㅇㅕㅅㅓ
깨비
서구
일라
재기
천년
▁YM
▁단호
▁대광
▁비이
▁소홀
▁신영
▁정년
▁주치
▁핵산
▁223
▁대주주
▁베르디
▁봉사자
▁수수료
▁펠로폰
메니스탄
▁반공주의
▁ㅇㅡㄹㅗㄴ
▁펠로폰네소스
▁투르크메니스탄
전기
▁TG
▁국면
▁명주
▁버퍼
▁셀룰
▁악역
▁유품
▁임베
▁해금
▁211
▁301
▁동의어
▁은하단
▁일간지
▁저작물
▁임베디드
▁ㅇㅣㅈㅎㅕ
▁ㅇㅣㅅㄸㅏㄹㅏ
▁ㄷㅗㄹㅇㅏㅇㅗㄴㄷㅏ
▁깡
레토
하스
▁CL
▁롤리
▁조력
▁지소
▁크세
▁택지
▁팔자
▁포구
▁Pop
▁비엔나
▁상세히
▁헤이스
▁ㅌㅟㅇㅓㄴㅏ
니엄
증권
흐트
▁거액
▁맛보
▁반열
▁성간
▁성채
▁소망
▁수스
▁실습
▁엠블
▁역습
▁외벽
▁욕설
▁이학
▁일어
▁폰트
▁현명
▁화전
▁히나
▁그로스
▁나주시
▁집어넣
▁카운터
▁Free
▁ㅆㅏㅎㅇㅕ
▁ㅆㅡㄹㅓㅈㅕ
▁ㅂㅜㄹㄹㅓㅆㅇㅡㅁㅕ
ㅇㅢ
쇼프
ont
▁IA
▁권세
▁노회
▁랜디
▁박격
▁벚꽃
▁부풀
▁원제
▁음경
▁인테
▁쟁점
▁지병
▁카렐
▁탄원
▁NAD
▁대각선
▁1776
▁Will
▁서아시아
로아
day
▁돌핀
▁만리
▁변장
▁빌미
▁어기
▁열반
▁친절
ㄴㅐㄴ
▁보니파
▁컨디션
▁행정관
니크
테른
▁CT
▁고증
▁괴롭
▁무왕
▁슈바
▁요네
▁율곡
▁조식
▁친목
▁파격
▁현청
▁루터교
▁마그마
▁배트맨
▁수송기
▁제이스
타고라스
▁사카모토
▁플루오린
▁ㄹㅕㄷㅏㄱㅏ
▁ㅅㅡㄹㅍㅡㄴ
▁ㅁㅜㅅㅓㅇㅜㄴ
광선
스탕
왕국
지대
▁대흥
▁템포
▁퇴사
▁한참
노벨라
루리아
시오날
▁레너드
▁바이스
▁변증법
▁형무소
▁나시오날
▁무라카미
▁미주리주
▁엔트로피
▁그레고리력
▁텔레노벨라
▁간파
▁급습
▁대적
▁방한
▁윤선
▁장구
▁타오
▁다면체
▁병원체
▁오카다
▁웨이트
▁이범석
▁하이델
▁핵실험
▁ㅊㅣㄱㅏ
▁올랭피크
▁태평천국
▁ㅈㅗㅎㅇㅏㅎㅐㅆ
▁ㅇㅗㄹㄹㅏㅆㅇㅡㄴㅏ
▁뜯
바꿈
볼트
소득
투안
▁골목
▁금광
▁뇌졸
▁문교
▁부총
▁서던
▁알론
▁언약
▁중첩
▁회부
ㅌㅏㄹ
▁XML
▁달라이
▁클라라
▁ㅇㅣㅇㅑ
▁캄파니아주
▁ㄷㅡㄹㅇㅓㅇㅘㅅㅓ
가야
연대
▁개요
▁미안
▁발송
▁센스
▁오도
▁항모
▁독립국
▁스나이
▁서스펜션
▁통합진보당
▁ㅂㅏㄹㅏㄴㄷㅏ
27
ma
▁뵈
▁MW
▁끊이
▁누각
▁땅콩
▁살림
▁상시
▁성추
▁잠복
▁찬스
▁코민
▁타현
▁현생
레시브
▁가속기
▁거제시
▁동북쪽
▁심포니
▁영산회
▁청구인
▁출생지
▁ㅈㅣㄴㅐ
▁가까스로
▁국민회의
▁10000
▁프로그레시브
29
고도
를린
마타
모습
▁Po
▁ne
▁괴팅
▁네모
▁당기
▁버즈
▁양손
▁윤석
▁장타
▁진안
▁퇴화
▁하쿠
▁베르그
▁청교도
버드
▁간소
▁김한
▁누락
▁로젠
▁마고
▁산탄
▁셰이
▁시왕
▁액수
▁이로
▁한도
▁히다
▁del
▁김종필
▁마인드
▁새천년
▁황도대
▁조기어류
▁피에트로
▁레오나르도
연료
▁가메
▁교복
▁국채
▁로로
▁명지
▁미망
▁미움
▁사성
▁심신
▁역행
▁연좌
▁와트
▁최경
▁합체
들랜드
중국해
▁Bro
▁사모아
▁서기장
▁묘법연화경
▁ㅂㅓㄹㅕㅈㅣㄴ
저민
활성
aut
its
▁대열
▁듯이
▁몬트
▁비기
▁사극
▁수잔
▁입안
▁총알
▁호가
▁홀드
irst
▁메이플
▁벤저민
▁샘플링
▁네브래스카
슐린
쿠젠
평가
▁각별
▁과업
▁로미
▁본기
▁습성
▁이연
▁직제
▁케니
▁혹독
▁화신
▁논산시
▁모티프
▁크리켓
▁원내대표
▁ㅇㅕㄱㅣㄴ
▁ㄱㅏㄲㅏㅇㅝㅆ
▁ㅇㅣㅇㅓㅈㅣㄹ
▁ㅎㅑㅇㅎㅏㄴㄷㅏ
▁눌
급시
페리
▁BR
▁CV
▁공녀
▁기물
▁발주
▁부이
▁에나
▁음란
▁청화
▁콘월
▁타나
▁파사
▁Big
▁End
▁단기간
▁베리아
▁서남쪽
▁아세트
▁팰리스
▁ㄱㅏㄹㅇㅏ
▁ㅆㅗㄷㅇㅏ
▁ㅊㅏㅈㅇㅏㅇㅗㄴ
미치
어하
▁ER
▁감명
▁나나
▁노미
▁독감
▁마마
▁밑면
▁배영
▁신명
▁요세
▁재원
▁정철
▁주둥
▁포탈
▁퓨전
▁215
▁미시간주
▁스포르팅
▁캔터베리
▁코미디언
▁begin
▁DL
▁대양
▁로자
▁린드
▁반일
▁세브
▁시로
▁이공
▁장보
▁지단
▁천명
▁편하
메데스
▁가져가
▁리서치
▁ㅊㅓㅎㅐㅆ
개발
빼미
연의
▁노먼
▁레베
▁브롱
▁원가
▁위드
▁유즈
▁준위
ㅎㅣㄹ
메네스
▁DFB
▁엑스선
▁프리랜
▁ㅈㅣㅇㅝ
▁ㅋㅔㄷㅗ
▁떨어뜨리
▁포레스트
▁ㄷㅏㄹㄹㅕㅆ
▁언더그라운드
BL
니발
▁개간
▁다의
▁라비
▁우메
▁우문
▁원화
▁포에
궐선거
더니즘
▁239
▁ㄷㅗㄷ
▁돌려주
▁레이어
▁문화사
▁비정규
▁영등포
▁특공대
▁해설자
▁ㅍㅛㅎㅐㅆ
▁재보궐선거
▁거세
▁경치
▁미팅
▁방수
▁어필
▁연천
▁점하
▁쿠키
▁틈새
▁픽업
▁510
▁기장군
▁유니온
▁포위망
▁ㅅㅓㄷㅜㄹㄹㅓ
HS
▁젬
계리
코바
aff
▁HK
▁KC
▁SI
▁WH
▁낭독
▁루아
▁생사
▁서킷
▁전갈
▁종택
▁질레
▁체임
▁치이
▁코다
▁평년
▁구석기
▁에인절
▁특이점
▁1792
▁프라이스
▁ㅁㅏㅈㅅㅓㅆ
▁써
보스
▁가인
▁국고
▁니즘
▁듀크
▁서드
▁실드
▁열광
▁위니
▁위아
▁조참
▁징후
▁창안
▁칸타
▁픽션
▁한방
▁황보
파트라
▁BMW
▁권력자
▁월리스
▁전년도
ㅅㅣㅍㅣ
▁아틀라스
▁ㄷㅏㅅㅣㅍㅣ
▁클레오파트라
▁ㄷㅡㄹㅇㅓㅅㅓㄴ
br
▁까치
▁녀석
▁덧셈
▁도기
▁부원
▁살상
▁시암
▁영아
▁접착
▁정파
▁촌락
▁set
▁계약서
▁급기야
▁목걸이
▁부활절
▁사생아
▁void
▁ㅆㅡㄹㅓ
▁소선거구
ㅂㅜ
가키
oss
▁덤불
▁루소
▁메콩
▁명절
▁몰입
▁비슈
▁시료
▁우랄
▁정약
▁패주
▁포즈
▁함안
▁Des
▁게이츠
▁과선교
▁브람스
▁서로마
▁Rain
▁자동변속기
▁프로토타입
▁랏
루이
삼문
▁RE
▁바크
▁버락
▁세관
▁아그
▁예천
▁유실
▁즐겁
▁표상
▁향리
▁호엔
▁계약금
▁목격자
▁사중주
▁성추행
▁수메르
▁표준어
▁1853
▁알레르기
ㄷㅡㄴㅈㅣ
▁ㅂㅓㄹㅣㄹ
▁ㅌㅡㅇㅣㄴ
버섯
지않
▁감히
▁경수
▁난간
▁동복
▁매드
▁상피
▁시구
▁양력
▁영연
▁오쓰
▁제향
▁최북
너티브
덜랜드
▁미술가
▁부제학
▁외삼촌
▁파이브
▁동대문구
▁얼터너티브
▁엘살바도르
▁JP
▁do
▁가평
▁그려
▁금화
▁도고
▁마자
▁박중
▁산토
▁성년
▁시동
▁아속
▁춤추
▁티르
▁ㅋㅓㄹ
▁게이머
▁경기력
▁레일리
▁브레인
▁시설물
▁모하메드
▁클라리넷
▁ㄸㅢㄴㄷㅏ
▁슈퍼주니어
▁ㅊㅟㅎㅏㄴㄷㅏ
막염
이인
행사
▁ㄲㅓ
▁구급
▁다라
▁모후
▁언젠
▁으로
▁입적
▁자락
▁청탁
▁추석
▁탄환
▁튀르
▁홍백
▁꽃받침
▁무인역
▁미카사
▁프레디
▁프로파
▁1791
▁1852
▁Show
▁ㅅㅗㅅㅓ
▁사다하루
▁속씨식물
▁크래프트
▁ㄸㅏㄹㄹㅣㄴ
▁퓰
서면
▁밥상
▁방과
▁비츠
▁상권
▁실화
▁아쓰
▁안상
▁일람
▁조승
▁최치
핵생물
▁TOP
▁무안군
▁버밍엄
▁보호자
▁아르카
▁언젠가
▁요리사
▁중생대
▁퍼펙트
▁후반부
▁권위주의
▁도네츠크
경궁
그림
노동
바타
vis
▁ㅅㅜ
▁교우
▁수전
▁스커
▁시판
▁절멸
▁정량
▁카쿠
▁캄포
▁커트
▁성동구
▁지도력
▁호위함
▁LIVE
▁ㄷㅙㅅㅓ
▁인테리어
▁옅
말리
얼빈
타라
IDS
oup
▁노던
▁독신
▁메트
▁부름
▁비고
▁사구
▁셰프
▁숙성
▁약정
▁제반
▁허물
▁회중
▁후신
제르맹
▁레프트
ement
▁Mnet
▁플레이트
▁ㅎㅜㅁㅊㅕ
be
ㄷㅓ
하워
▁FN
▁갑판
▁관서
▁귀납
▁근연
▁래스
▁박인
▁북제
▁수첩
▁식료
▁실황
▁연작
▁장영
▁제법
▁플뢰
▁233
▁그려지
▁양서류
▁재정난
▁퍼레이드
▁아이젠하워
▁테러리스트
▁ㄱㅣㄷㅏㄹㅕ
▁잣
팔렌
▁구보
▁능통
▁도금
▁만다
▁불황
▁신재
▁오에
▁우쓰
▁케스
▁해동
즐랜드
▁ㄱㅜㄹ
▁동인도
▁분화구
▁에르난
▁잎자루
▁다운타운
▁ㅇㅏㅍㅈㅏㅇㅅㅓㅆ
▁빽
노헤
티드
▁EN
▁FX
▁국물
▁대검
▁색인
▁에타
▁영세
▁장터
▁착오
▁히브
ㄹㅗㅇ
▁ㄲㅣㄴ
▁ㅅㅏㅁ
▁검사장
▁음악회
▁점성가
▁황갈색
▁1847
▁Like
▁도쿠시마
▁생제르맹
▁퀸즐랜드
▁필리포스
▁ㅂㅣㄱㅣㄴ
▁히로시마현
▁뚝
▁고타
▁매너
▁벨레
▁서하
▁수온
▁여태
▁욕심
▁차가
▁친숙
▁호치
▁희박
▁212
▁개찰기
▁게이초
▁세례명
▁앵글로
▁정말로
▁조나단
ㄱㅓㅇㅝ
▁LOVE
▁루키우스
▁뱀파이어
▁ㅇㅓㅅㄱㅏㄹ
개명
에어
하트
▁EF
▁강물
▁라벤
▁수찬
▁신숙
▁쑨원
▁완투
▁요트
▁원망
▁윤상
▁은둔
▁이족
▁청진
▁상류층
▁이스턴
▁재판장
▁중학생
▁지원자
▁현악기
▁천주교회
▁ㅈㅣㄴㅎㅐ
▁롬바르디아
▁콘스탄티노플
▁귀향
▁김호
▁망상
▁보두
▁수뇌
▁슬럼
▁예견
▁월급
▁출소
▁김포시
▁릴리스
▁옹진군
▁이베이
▁저술가
▁최적화
▁퀘스트
▁레인보우
▁시트르산
▁프리랜서
▁ㅅㅓㅁㄱㅕㅆ
▁OC
▁mg
▁가봉
▁고작
▁과천
▁기노
▁독려
▁마로
▁밀턴
▁버블
▁섬멸
▁세가
▁안젤
▁야채
▁여야
▁영해
▁이계
▁제각
▁쿠페
▁포리
▁호감
하이머
▁관악구
▁다각형
▁올빼미
▁인슐린
▁핵연료
ㅏㅈㅣㅁ
▁옥타비아
▁옵티머스
▁은행나무
▁ㅂㅐㅇㅜㄹ
▁버지니아주
오세
▁NK
▁UK
▁경감
▁계파
▁고질
▁공물
▁관사
▁기치
▁마누
▁만찬
▁약국
▁얼리
▁유위
▁음색
▁음소
▁초중
리오카
▁강아지
▁명백히
▁생태학
ㅂㅗㄴㄷㅏ
▁똥
▁즌
▁찻
랄라
way
▁구면
▁남짓
▁마조
▁불펜
▁연사
▁조만
▁주술
▁최재
▁품계
▁호러
▁황성
▁회군
ㅈㅣㅂ
자위대
▁221
▁Bar
▁Red
▁레슬리
▁레오니
▁브룩스
▁세일러
▁싫어하
▁유학생
▁중대장
▁편의점
▁현저히
▁경향신문
▁Sound
▁안티고노스
귀비
비어
야구
▁es
▁계명
▁나팔
▁냉동
▁미신
▁미일
▁서간
▁송금
▁수난
▁쓰가
▁연일
▁차드
▁팔각
▁회기
ouse
▁Sec
▁뇌졸중
▁유목민
▁좀처럼
▁하얼빈
▁한마디
▁Over
▁Light
▁ㄷㅡㄹㅇㅕㅆ
WS
방식
▁대파
▁라피
▁발라
▁발화
▁보현
▁부응
▁선방
▁스벤
▁왈라
▁주어
▁진과
▁파니
▁푸시
▁혈청
▁리히텐
▁미망인
▁탈수소
브레히트
▁1100
▁Sing
▁가이우스
▁브래들리
▁창씨개명
▁카리브해
▁콘티넨털
워키
▁골자
▁나츠
▁명품
▁슬롯
▁우성
▁점심
▁클론
▁231
▁가오슝
▁세포막
▁정보국
▁찾아보
ㄹㄹㅣㅁ
▁1844
▁동명이인
색슨
▁ac
▁동족
▁신빙
▁신예
▁오목
▁외화
▁커크
▁크릭
대주의
하이드
ason
▁Eng
▁ㅁㅐㅇ
▁ㅌㅓㄹ
▁배상금
▁여름철
▁피스톤
▁요코스카
▁ㅁㅜㄹㄹㅕ
▁앵글로색슨
▁ㄱㅏㅈㅕㅇㅘ
▁즙
옹주
▁갑상
▁궁금
▁베레
▁수작
▁식년
▁안구
▁유주
▁이등
▁자력
▁정구
▁한류
▁산화물
▁계몽주의
▁곤살레스
▁랜드마크
▁ㅎㅏㄹㅅㅜㄹㅗㄱ
▁ㅇㅏㄹㄹㅕㅈㅕㅆㅇㅡㅁㅕ
aj
거슨
프슨
▁JS
▁간편
▁강수
▁고부
▁과수
▁다키
▁미오
▁색조
▁아워
▁앙주
▁오경
▁재야
▁지드
▁친하
▁쾌락
▁하체
▁학점
▁갑각류
▁경영진
▁사이다
▁수류탄
▁참가국
▁카이저
▁플랜트
▁하루카
▁사회단체
▁민속문화재
▁흩
니언
루트
타바
▁RO
▁TA
▁균류
▁마왕
▁박주
▁아론
▁요안
▁유루
▁취락
▁토토
▁필살
▁Net
▁박격포
▁현급시
▁1837
▁포리스트
▁삼국지연의
▁ㅈㅗㅎㅇㅏㅎㅏㄴㄷㅏ
시간
▁강압
▁동천
▁부결
▁북단
▁삼부
▁실바
▁이도
▁해류
▁후각
▁에버턴
▁예배당
▁정착민
▁프로필
▁오를레앙
▁알레산드로
▁ㄱㅓㄹㄹㅣㄹ
▁ㅎㅏㅂㅊㅕㅈㅣㄴ
▁덥
▁광종
▁내쫓
▁맨틀
▁숙고
▁앞장
▁운문
▁울음
▁원판
▁정연
▁체온
▁390
▁반대쪽
▁브리트
▁정찰기
▁조교수
▁시라카와
▁아시리아
오밍
iet
red
▁궤멸
▁디어
▁비약
▁선승
▁이면
▁카오
▁테츠
베를린
▁가야금
▁비스트
▁자신감
▁네덜란드인
▁꽁
승람
코로
쿠로
▁RD
▁계략
▁그람
▁레딧
▁만경
▁면접
▁봉산
▁수유
▁업소
▁오니
▁오데
▁쟁취
▁콕스
▁판별
▁흡혈
슈타트
클레스
▁Har
▁목판본
▁서산시
▁콘셉트
▁화순군
▁후견인
▁뜰
소시
슈티
임수
ana
▁Pa
▁걸즈
▁교착
▁미약
▁바예
▁벙커
▁우미
▁청렴
▁코노
▁합방
정대부
▁228
▁미스트
▁밀워키
▁유가족
▁제작소
▁평창군
▁개인주의
▁북베트남
▁오렌지색
▁ㅋㅣㄴㅡㄴ
실론
▁김응
▁노시
▁도핑
▁반민
▁비명
▁송병
▁여순
▁유흥
▁치타
▁친형
▁패미
▁한옥
▁히치
자동차
▁ㄱㅜㅂ
▁도지사
▁독립성
▁발자국
▁프런트
▁해적단
▁ㅎㅐㅇㅘㅆ
개석
보레
호크
▁ro
▁담화
▁상석
▁속이
▁아만
▁아저
▁영흥
▁의금
▁장엄
▁주앙
▁폐간
▁혹평
▁군단장
▁나뭇잎
▁이준용
HT
▁읊
부스
▁나방
▁노년
▁생김
▁성녀
▁성왕
▁성직
▁아레
▁알현
▁윤회
▁익주
▁일직
▁주청
▁총지
▁토사
▁티에
echn
▁fun
▁노원구
▁명륜당
▁모국어
▁발명가
▁부사관
▁브리즈
▁비대칭
▁아저씨
▁연장선
▁최남단
▁케네스
▁스테레오
▁트레이너
99
ech
ric
▁MX
▁거장
▁다방
▁로랑
▁반원
▁약제
▁정태
▁초보
▁추월
▁칼초
▁타코
▁홍대
노세키
▁멤피스
▁최치원
▁테레사
▁항저우
▁환경부
▁1836
▁ㅌㅏㄱㅗ
▁저널리즘
▁ㄱㅜㅇㅜㄴ
▁ㄴㅏㄴㅟㄴ
▁ㅍㅓㅈㅣㄴ
▁ㄱㅏㄹㄹㅏㅈㅣㄴ
치카
▁경학
▁반증
▁방전
▁슈가
▁연마
▁열등
▁외젠
▁유예
▁치우
▁트랩
▁판도
▁호라
▁226
▁950
▁로스터
▁버틀러
▁유리수
▁Road
▁고속철도
▁글래스고
▁요시노부
▁ㄱㅜㅎㅐㅆ
▁ㄴㅓㄼㅎㅕㅆ
▁FR
▁개년
▁건안
▁고군
▁고즈
▁고해
▁길목
▁마태
▁본적
▁북면
▁빈약
▁소변
▁스털
▁예우
▁제례
▁청풍
▁혼용
▁007
▁ㄹㅕㅆ
▁더구나
▁에리트
▁예카테
▁요시노
▁쫓아내
데하이드
▁ㅁㅏㅈㅜ
▁Hello
▁ㅁㅝㄴㄱㅏ
▁ㅈㅣㅋㅕㅇㅑ
▁ㄱㅏㅈㅕㅇㅗㄹ
▁팁
상도
ven
▁HE
▁ㅁㅑ
▁군현
▁노숙
▁말러
▁문부
▁서동
▁일신
▁정순
▁중흥
▁지터
▁티나
▁프롬
▁흐트
▁경작지
▁공로자
▁마리나
▁스타스
▁스턴트
▁울릉도
▁자연사
▁증손자
▁취임식
▁휘두르
▁모모야마
▁프라이드
▁마르티네스
▁녜
회로
▁그랜
▁난사
▁만능
▁북진
▁비오
▁소토
▁아명
▁어음
▁엘프
▁워런
▁이천
▁이프
▁익사
▁전광
▁주살
▁출진
▁포사
니우스
▁LTE
▁Sum
▁ㄷㅏㅌ
▁동식물
▁무척추
▁비디아
▁알론소
▁연천군
▁헤이룽
▁1794
▁구스타브
▁알브레히트
ner
▁Af
▁OF
▁메로
▁무방
▁반구
▁셀러
▁소단
▁여가
▁증서
▁출근
▁카멜
▁키노
vent
▁520
▁간행물
▁관동군
▁도깨비
▁베이컨
▁알렉시
▁윈스턴
코프스키
▁CCTV
▁코르테스
▁비로자나불
▁피타고라스
▁욘
시설
▁가자
▁난자
▁냉정
▁녹스
▁망막
▁물의
▁병영
▁섭씨
▁셀프
▁야르
▁용매
▁이매
▁일류
▁전폭
▁척수
▁척탄
▁코라
▁폭우
▁헌제
▁홍명
소시엄
▁757
▁게임스
▁관리국
▁밀양시
▁베르너
▁비서실
▁아타리
▁에스테
▁원통형
▁정규군
ㅝㅈㅕㅆ
▁밀리미터
▁컨소시엄
▁페미니즘
젤란
▁XX
▁el
▁고드
▁낸시
▁독단
▁매표
▁상도
▁선더
▁성충
▁예리
▁재귀
▁조위
▁증산
▁짝짓
▁타국
▁탄화
▁217
▁315
▁640
▁720
▁성범죄
▁오미야
▁ㄷㅣㅇㅗ
▁쉘
교동
전력
제곱
ism
▁거물
▁관공
▁기만
▁냉방
▁도노
▁비니
▁선지
▁설법
▁쇼니
▁심층
▁썬더
▁장현
▁편모
▁풍토
▁Sci
▁ㄸㅟㄴ
▁농경지
▁드래건
▁쓰러지
▁콩쿠르
▁블리자드
▁ㄱㅏㄹㅇㅏㅌㅏㄹ
▁ㅃㅐㅇㅏㅅㄱㅣㄴ
07
▁뿌
기술
조작
bum
▁각인
▁고어
▁때리
▁랭커
▁러더
▁린치
▁선덕
▁속죄
▁오거
▁우부
▁우화
▁이각
▁자급
▁전황
▁접경
▁집약
▁투영
▁함평
▁화사
바이크
사이클
▁거문고
▁군사령
▁호찌민
ution
▁1806
▁ㅂㅘㅅㅓ
▁콘스탄틴
▁ㅁㅏㅅㅕㅆ
▁ㅂㅏㄹㅏㅆ
▁ㅇㅜㅁㅈㅣㄱㅇㅕ
yl
▁챙
▁낙농
▁라운
▁레고
▁보사
▁슈뢰
▁조모
미사일
ator
ital
▁SQL
▁고창군
▁슐레스
▁허난성
▁Stud
▁리히텐슈타인
셔스
영향
찌르
테롤
피오
▁GL
▁PK
▁강판
▁내사
▁덴버
▁리턴
▁마포
▁벨로
▁성희
▁숙의
▁욕계
▁우트
▁임업
▁잔당
▁주시
국민당
컨트리
▁Boy
▁문화원
▁배포판
▁본회의
▁시크릿
▁야구팀
▁퍼블릭
▁매트릭스
▁ㅁㅗㄹㄹㅏ
▁팬아메리칸
▁ㅅㅜㅁㅈㅕㅆ
▁콘스탄티노스
IE
돌리
루프
서기
여왕
자재
▁IB
▁OP
▁단판
▁무너
▁박제
▁방랑
▁산간
▁액정
▁여장
▁은사
▁티노
▁RPG
▁규장각
▁불명예
▁스코트
▁신인왕
▁ㅇㅓㄷㅜ
▁무너뜨리
▁우리나라
▁크로스컨트리
▁ㄱㅣㄷㅏㄹㅕㅆ
도체
▁EV
▁GD
▁가니
▁공회
▁낙향
▁돈녕
▁라코
▁박세
▁살롱
▁선무
▁송정
▁스즈
▁오정
▁지에
▁타계
민정음
▁예산군
▁제작비
▁지린성
▁집합론
▁카리스마
▁딤
▁얽
생명
우병
장자
▁노다
▁단련
▁명맥
▁승천
▁아의
▁암벽
▁여전
▁이근
▁치역
▁칼빈
▁테베
▁토우
▁후학
▁610
▁기후현
▁인피니
▁ㄴㅜㅇㅝ
▁근본주의
▁승부조작
▁애기박쥐
▁ㅂㅜㄹㅌㅏ
▁프레데리크
08
▁쁘
▁웁
ㅋㅕ
곡선
링거
성이
▁각오
▁결속
▁김나
▁노량
▁도큐
▁만두
▁만석
▁부마
▁불순
▁사표
▁스퍼
▁시술
▁외전
▁이교
▁이발
▁주필
▁케어
▁키시
▁합전
클랜드
▁니케아
▁다이너
▁에볼라
▁옆구리
▁위클리
▁조선조
▁징병제
▁Play
▁교섭단체
▁ㅇㅓㄱㅡㅅ
▁세르비아인
▁ㄱㅏㅆㅇㅡㄴㅏ
바스
시계
외과
젠더
ony
▁군용
▁김만
▁니컬
▁동결
▁리부
▁서광
▁옴니
▁인회
▁주니
▁주방
▁체격
▁추봉
▁토고
▁해구
▁ㅅㅐㅁ
▁끊임없
▁도망가
▁연주가
▁완주군
▁족제비
▁코코넛
▁후쿠다
▁1842
▁산마리노
▁에트루리아
ㅐㅁ
요리
이나
▁관방
▁낙원
▁대축
▁모레
▁모여
▁보비
▁서라
▁순창
▁오성
▁위선
▁이륙
▁중사
▁집현
▁파벨
▁폐단
▁허영
▁회랑
스타파
oney
▁wid
▁수호자
▁헤이그
▁1796
▁레오폴트
▁매일신보
▁훈민정음
MP
uk
하나
▁궁지
▁급부
▁비닐
▁사세
▁샬럿
▁윤봉
▁이대
▁인솔
▁자의
▁전륜
▁절연
▁절터
▁정설
▁주안
▁책판
▁카밀
▁캡슐
▁탈선
▁편수
▁닭고기
▁발행인
▁윈난성
▁테슬라
▁흰개미
▁1798
▁이스마일
▁ㅁㅗㅇㅏㅅㅓ
▁ㄴㅏㅁㄱㅕㅈㅣㄴ
▁ㅂㅗㄴㅐㅆㅇㅡㅁㅕ
▁ㅂㅏㄺㅎㅕㅆㅇㅡㅁㅕ
ㅊㅜ
를로
사병
▁개회
▁데시
▁마현
▁민자
▁상향
▁쇼난
▁수생
▁쓸모
▁양부
▁자폐
▁제스
▁종과
▁채팅
▁철제
▁표범
ㅁㅗㄴ
사와라
▁마티아
▁스털링
▁아즈치
▁에탄올
▁연구관
▁임팩트
▁2030
▁라플라스
▁에드워즈
▁플라스마
▁ㅁㅏㄱㅎㅕ
▁ㅈㅣㅈㅣㄹ
▁페르난데스
고시
처분
▁구식
▁김혜
▁밀교
▁사시
▁위문
▁치소
▁켈러
▁후왕
▁희소
▁경제력
▁떠올리
▁웰링턴
▁1832
▁블레이크
▁ㄴㅗㅎㅊㅕㅆ
▁ㅇㅏㄴㅣㄴㅈㅣ
더기
전리
화가
▁김부
▁노획
▁동태
▁문묘
▁백국
▁에게
▁의화
▁인현
▁저압
▁차후
▁쳐들
▁한진
▁헌종
▁후생
port
▁라이터
▁술탄국
▁이교도
▁인구수
▁최북단
▁충실히
ㄱㅎㅕㅆ
▁ㅂㅓㅅㄱㅕ
돈나
동면
시프
타야
▁UR
▁금상
▁네프
▁돌풍
▁릭스
▁미용
▁밀착
▁부록
▁성급
▁소각
▁신간
▁염료
▁진양
▁차리
▁투고
▁푸른
▁ROM
▁ㅈㅜㅁ
▁무찌르
▁문학사
▁사사키
▁생산력
▁영화사
▁자치령
▁쿠르트
▁후백제
▁스위프트
▁ㅇㅝㄴㅊㅣ
▁오가사와라
▁얌
▁옙
ady
ush
▁간청
▁동과
▁동면
▁번번
▁알토
▁애도
▁장부
▁증여
▁최충
▁815
▁ㄱㅣㅃ
▁공모전
▁스톤스
▁엄격히
▁오보에
▁온전히
▁이주한
▁애틀랜틱
▁코민테른
▁슐레스비히
▁젯
▁칵
ㄱㅣ
공원
눌프
들레
▁국명
▁깔끔
▁누설
▁반유
▁병인
▁복고
▁소경
▁열중
▁유혈
▁인장
▁전경
▁조미
▁치앙
▁학제
▁한산
▁히바
▁Rem
▁나가토
▁연해주
▁오와리
▁포워드
여지승람
▁King
▁그레이스
▁아르눌프
▁ㄹㅗㅇㅜㅁ
▁ㅉㅗㅊㄱㅕㄴㅏㅆ
야르
▁대일
▁딸기
▁번복
▁수능
▁전소
▁탐욕
▁표류
▁하향
▁학비
▁호송
▁남양주
▁단체장
▁보두앵
▁설리번
▁안성시
▁앞부분
▁인터랙
▁하코다
▁ㅃㅏㅈㅕㄴㅏ
04
▁뺨
뿔소
lex
▁도감
▁래드
▁럭키
▁밤중
▁방계
▁불멸
▁선풍
▁습기
▁신현
▁애너
▁양재
▁인턴
▁전해
▁정토
▁정희
▁철교
▁철권
▁편차
form
▁222
▁NHL
▁감독상
▁아랍인
▁엄밀히
▁에르빈
▁좌찬성
▁주간지
▁주황색
▁학부모
▁That
▁레즈비언
▁마우리아
▁맥도널드
▁지느러미
▁헤이룽장
▁Colle
▁소선거구제
▁ㅊㅣㅇㅎㅏㄴㄷㅏ
▁ㅂㅗㅇㅕㅆㅇㅡㅁㅕ
군가
플리
▁구국
▁도합
▁로메
▁명은
▁암술
▁의종
▁토레
orce
▁EMI
▁ㄹㅣㄴ
▁대문자
▁문학가
▁미즈노
▁해산물
▁헥타르
▁상륙작전
▁외할아버지
▁ㅇㅏㅍㅅㅔㅇㅝ
농사
▁기흥
▁물병
▁벤자
▁수륙
▁외출
▁찬가
▁참봉
▁출제
▁피노
▁...
▁각운동
▁귀족원
▁미완성
▁아이유
▁이시다
▁재정부
▁ㄲㅜㄹㅕ
▁아이패드
▁프레드릭
▁젓
공간
급수
▁기함
▁누벨
▁대면
▁마수
▁마저
▁사향
▁실물
▁유추
▁질산
▁침전
▁펄스
스토크
이스터
▁min
▁ㄸㅟㄹ
▁도승지
▁메이어
▁명탐정
▁불태우
▁생김새
▁완도군
▁트래픽
▁플루트
▁한니발
▁마이니치
▁모노레일
▁이오시프
ㅇㅜㄴㄷㅏ
▁ㅇㅝㄴㅎㅏㄴㄷㅏ
▁ㅂㅏㄷㅇㅏㄷㅡㄹㅇㅕㅈㅕㅆ
UT
무덤
밍고
테아
▁간간
▁구어
▁두만
▁묵시
▁반장
▁영하
▁왜적
▁유유
▁정산
▁태사
▁232
▁Met
▁고분자
▁글리세
▁누군가
▁비행단
▁오시마
▁전사자
▁전투력
▁참정권
▁철원군
▁카네기
▁코러스
▁1790
YS
병원
체인
iew
▁박현
▁상온
▁의리
▁철로
▁페퍼
유철도
▁660
▁김유신
▁소시지
▁앙코르
▁원동력
▁의성군
▁조직원
▁ㅁㅗㅅㅕㅆ
▁트랜스젠더
▁경부고속도로
▁일본국유철도
국수
평동
▁관철
▁도립
▁소드
▁수개
▁야후
▁어판
▁연성
▁의외
▁종일
▁지토
▁티오
▁폐막
raph
▁not
▁글라스
▁다섯째
▁수감자
▁해남군
▁1810
▁시스템즈
▁ㅇㅣㅈㅔㄴ
▁멩
상가
차크
케인
▁no
▁고금
▁공생
▁괴산
▁노포
▁명회
▁방비
▁수계
▁아강
▁아코
▁알카
▁잡음
▁참호
▁피르
▁현안
▁264
▁가부장
▁사림파
▁상나라
▁실종자
▁콜레스
▁라그랑주
▁ㅍㅣㄴㄷㅏ
▁ㅅㅣㅋㅕㅆㅇㅡㄴㅏ
sc
연장
영화
▁김소
▁떨치
▁메우
▁보손
▁불어
▁비핵
▁빌레
▁승탑
▁일례
▁임사
▁존호
▁처단
▁파가
▁파샤
▁필적
수산부
연수원
▁216
▁Bad
▁괴팅겐
▁구독자
▁도리어
▁박지원
▁아즈마
▁잉글리
▁테크니
▁포터블
▁1831
▁사법연수원
▁프로테스탄
af
대왕
키타
▁노토
▁다롄
▁시메
▁유약
▁절도
▁현내
▁화친
▁황궁
▁후버
▁흐루
▁선발전
▁자위대
▁제이미
▁창세기
▁각운동량
▁다다요시
▁어니스트
▁총영사관
▁우쓰노미야
▁노스캐롤라이나주
▁ㅇㅣㄲㅡㄹㅇㅓㄴㅐㅆ
레도
루브
치니
▁pH
▁간통
▁극좌
▁디시
▁루브
▁삼남
▁성호
▁속현
▁승소
▁윤지
▁전량
▁초본
▁촉한
레이스
메이트
사우스
▁Are
▁다름없
▁도요타
▁미시마
▁비핵화
▁오리올
▁유망주
▁정나라
▁코페르
▁타이밍
▁휴양지
컬럼비아
▁that
▁다카마쓰
▁스트라스
▁width
▁알렉산드로
▁ㄱㅕㄴㄷㅣㄹ
▁브리티시컬럼비아
▁엷
날두
도나
라프
트론
elf
▁국자
▁기틀
▁레퍼
▁레흐
▁명창
▁불도
▁선왕
▁소감
▁신년
▁신변
▁어쨌
▁자객
▁조산
▁주공
▁지루
▁초조
▁최규
그래프
▁Run
▁달팽이
▁독립당
▁레인지
▁아소카
▁애슐리
▁이와키
▁주둥이
▁척탄병
▁퍼거슨
▁피난민
▁밀레니엄
▁인사이드
▁align
마켓
에즈
▁ㄱㅖ
▁군무
▁당부
▁배럴
▁살균
▁아도
▁중문
▁총합
▁코흐
▁피플
▁한지
껍데기
스트로
▁460
▁RCA
▁생산지
▁예비치
▁울타리
▁은평구
▁지원금
▁호날두
▁호프만
▁Great
▁콜레스테롤
▁ㅇㅕㅆㅇㅓㅆ
▁ㅇㅏㄴㅣㅎㅏㄴ
▁ㅂㅗㄴㄷㅏㅁㅕㄴ
pm
▁깅
▁횃
가슴
슬란
폭스
IST
ane
▁교두
▁김봉
▁루르
▁빽빽
▁서훈
▁오두
▁지파
▁청두
▁달성군
▁오로라
▁제사장
▁클리프
▁워싱턴주
▁브라이언트
▁사회주의자
WA
누이
장어
▁we
▁근해
▁꾸짖
▁남문
▁방형
▁분실
▁설가
▁성층
▁수제
▁양시
▁어셈
▁키요
▁투과
▁하일
▁노동부
▁다케시
▁로런츠
▁의금부
▁진동수
▁ㄱㅜㅇㅝ
▁요시히로
▁호몰로지
▁ㅇㅏㅍㅡㄴ
▁노브고로드
▁ㅁㅏㄴㄷㅡㄴㄷㅏ
▁ㅇㅣㄹㅅㅜㄹㅗㄱ
▁ㅈㅜㄹㅇㅓㄷㅡㄴ
▁숄
묘지
오버
▁로펌
▁린네
▁북로
▁승패
▁양당
▁차질
▁쿼드
▁클락
▁틀림
▁항거
러뜨리
▁가극단
▁부스터
▁지휘봉
▁합법화
▁나가사키현
▁무척추동물
09
▁쉼
바노
테리
ama
▁EL
▁광석
▁노릇
▁방황
▁신디
▁엣지
▁엥겔
▁여류
▁영일
▁옐친
▁중주
▁파노
▁Cor
▁복잡도
▁슈바르
▁일레븐
▁ㅂㅜㅊㅜ
▁Every
▁ㅇㅡㄴㅈㅣ
▁모터사이클
▁ㄷㅗㄹㄹㅕㅂㅗㄴ
▁핍
ㅕㅇ
넬리
우마
▁MR
▁극성
▁나자
▁당도
▁덕흥
▁머무
▁몰살
▁비사
▁석호
▁윈저
▁유색
▁임차
▁티니
▁파월
▁판권
▁410
▁군주국
▁귀퉁이
▁법학자
▁1841
▁레퍼토리
▁요시타카
▁ㅂㅏㄲㅜㄴㄷㅏ
KA
▁갈레
▁고비
▁김보
▁변제
▁봉승
▁오수
▁원예
▁정장
▁회합
▁후스
▁고르바
▁안후이
▁애프터
▁야나기
▁엡실론
▁케이지
▁터키어
▁테크닉
▁this
▁브루크너
▁브리트니
▁스토리지
▁ㅂㅏㄲㅟㄹ
▁Project
▁ㄱㅜㅎㅏㄴㄷㅏ
▁ㅇㅓㄷㅣㄴㄱㅏ
▁캇
권력
물질
살라
상부
테크
▁군왕
▁뜨겁
▁린턴
▁마더
▁멜리
▁색슨
▁생후
▁쌍방
▁열린
▁제군
▁침착
▁커비
▁핸들
▁호골
ㄷㅊㅕ
ㅊㅣㅁ
tain
▁가속도
▁리오스
▁버펄로
▁보성군
▁앙투안
▁인더스
▁칭다오
▁토착민
스티누스
▁Inst
▁스파이크
▁호쿠리쿠
넬라
복음
카레
틸렌
ene
▁곤도
▁난방
▁남측
▁맬컴
▁범하
▁분대
▁색계
▁선법
▁실격
▁심볼
▁안달
▁야인
▁연골
▁원추
▁일지
▁정대
▁청조
▁친필
▁타사
거래소
▁UAE
▁서양식
▁통영시
▁ㅁㅐㄱㅕ
▁고이즈미
▁멕시코시티
▁베른하르트
▁School
▁ㅌㅏㄱㅗㄴㅏㄴ
숭아
ney
uth
▁FL
▁Je
▁UI
▁교위
▁누명
▁다원
▁라부
▁발단
▁북조
▁안트
▁애버
▁양전
▁양제
▁울림
▁조예
▁휘그
라이즈
▁YTN
▁ㅇㅐㅆ
▁김천시
▁음식물
▁프로페
▁1843
lement
▁ㅁㅏㅈㅁㅜㄹㄹㅕ
▁ㅂㅓㅅㅇㅓㄴㅏㅆ
▁귄
▁꿇
퓨터
ize
ott
▁만과
▁몽케
▁본드
▁사멸
▁송강
▁엘튼
▁위엄
▁전군
▁전처
▁체이
▁판각
웨일스
▁구로다
▁보이저
▁인도인
▁진흥왕
▁집현전
▁총동원
▁탈바꿈
▁가선대부
▁아나스타
▁ㅋㅣㅇㅜㅁ
▁고르바초프
▁ㄱㅕㅁㅎㅐㅆ
▁ha
▁각계
▁계책
▁궤간
▁매핑
▁신창
▁어가
▁원균
▁유모
▁입교
▁정랑
▁진관
▁코팅
▁키미
▁타다
ript
▁ㅈㅓㄹ
▁강진군
▁몰아넣
▁밀어내
▁반다이
▁벤자민
▁소방관
▁위아래
▁차이나
▁뉴사우스
▁ㄱㅚㄹㅗㅂㅎ
▁뉴사우스웨일스
▁웸
미드
ins
▁감로
▁김효
▁니르
▁셰리
▁수월
▁시퀀
▁신촌
▁어간
▁연체
▁윤종
▁이따
▁자상
▁장력
▁전횡
▁차우
▁처남
▁파탄
르트르
▁234
▁로망스
▁밤하늘
▁양주군
▁에이미
▁케로로
길동
단조
렉트
퇴근
티엄
▁노블
▁동음
▁레게
▁레니
▁미혼
▁성찰
▁신파
▁업종
▁연선
▁은상
▁체의
▁통사
▁튜버
▁페론
▁프시
▁허무
▁213
▁Rad
▁미야코
▁펜티엄
▁고다이고
▁ㅊㅣㄴㄷㅏ
▁ㅇㅕㄱㅕㅈㅕ
▁ㅅㅡㄹㅓㅇㅝㅆ
▁날카
▁뒤편
▁리빙
▁보은
▁불허
▁사네
▁신데
▁아일
▁에니
▁임지
▁장직
▁주오
▁찬반
▁처우
▁총력
▁퍼드
▁key
▁거주민
▁구로구
▁남원시
▁미나토
▁설계자
▁애스턴
▁올바르
▁호르헤
▁남태평양
▁맥도날드
▁비정규직
▁오카자키
▁ㅊㅏㅈㅇㅏㄱㅏㅆ
뉴얼
로리
말로
웨시
▁가노
▁개폐
▁고우
▁꼭두
▁넥슨
▁데인
▁마의
▁매료
▁보답
▁사족
▁수완
▁울진
라리온
▁GPU
▁공예품
▁광명시
▁마애불
▁만화책
▁명명법
▁생물체
▁서보장
▁송광사
▁제이콥
▁1804
▁ㄴㅡㄹㅕ
▁술라웨시
▁score
▁안드레아스
▁옥타비아누스
경제
북동
장식
키르
티니
rag
▁Im
▁up
▁결부
▁구파
▁국판
▁도민
▁도조
▁석학
▁연필
▁재량
▁텐트
▁홍주
▁255
▁Web
▁강동구
▁기술력
▁김제시
▁버몬트
▁보이콧
▁안타깝
▁주택지
▁1809
▁ㅈㅕㅇㅑ
▁더글라스
▁원더러스
▁20120
▁ㄱㅡㅁㅏㄴ
▁농어촌버스
▁시에라리온
▁ㅇㅜㅁㅈㅣㄱㅇㅣㄴㄷㅏ
노신
마뉴
사촌
암면
조치
푸라
▁간헐
▁권선
▁권영
▁금하
▁만력
▁반가
▁배송
▁법당
▁수혈
▁예제
▁옐로
▁온양
▁특파
▁판문
▁허니
▁219
▁Mod
▁라이히
▁리스크
▁뱅크스
▁샐러드
▁양주시
▁프렌치
▁1783
▁샤를마뉴
▁신데렐라
▁카슈미르
▁코페르니
▁ㄱㅏㅎㅏㄴ
▁ㅁㅜㄴㅓㅈㅣㄴ
SI
eng
▁금품
▁급유
▁남명
▁드롭
▁머릿
▁산학
▁석물
▁수기
▁스메
▁야자
▁에렌
▁총관
▁총상
▁탈옥
▁파멸
▁하룻
▁함포
▁EOS
▁val
▁편집기
▁1623
▁1805
▁ㄱㅏㅁㅊ
▁가시광선
민턴
중미
▁DP
▁겸손
▁근심
▁난입
▁마네
▁발데
▁선주
▁우의
▁유람
▁유복
▁담양군
▁북중미
▁비트겐
▁신숙주
▁진도군
▁출퇴근
▁1835
▁궁수자리
▁와이파이
▁오키나와현
▁비트겐슈타인
▁ㄱㅡㄹㅕㅈㅕㅆ
▁ㅅㅗㄴㄲㅗㅂㅎㅣㄴㄷㅏ
EX
▁뺏
가쿠
더드
무드
사지
▁nt
▁무적
▁분립
▁뽑히
▁산군
▁외세
▁장진
▁전법
▁지세
▁취역
▁탄탄
▁홍준
▁환생
atic
▁Rob
▁감염병
▁그리핀
▁부대원
▁사토시
▁설득력
▁초능력
▁하룻밤
▁홋스퍼
라이언스
▁1813
▁1819
▁허베이성
▁ㅅㅣㅈㅣㅂ
▁헤르베르트
05
▁큼
rop
▁ㅆㅣ
▁박철
▁비안
▁아포
▁야노
▁조희
▁탁발
▁회생
▁Sub
▁괴롭히
▁마돈나
▁바이든
▁시어도
▁정반대
▁줄리엣
▁파올로
▁1799
▁1821
▁매개변수
▁클라우스
▁ㅊㅣㄹㅡㄹ
▁퀵
에타
▁고주
▁궁예
▁금주
▁길쭉
▁낙인
▁농악
▁단념
▁돌진
▁라빈
▁레노
▁마역
▁메기
▁문답
▁배재
▁생부
▁쟁탈
▁ㅇㅜㄴ
▁공포증
▁미소녀
▁안기부
▁유태인
▁하야시
▁배드민턴
▁시어도어
▁하비에르
▁애리조나주
ㅇㅓㅈㅣㄴㄷㅏ
▁샛
갈리
런드
룩스
청정
▁도당
▁레터
▁민병
▁보주
▁부역
▁셀라
▁소부
▁수미
▁수험
▁순치
▁암반
▁유랑
▁정운
▁조안
▁지국
▁최승
레우스
▁관광업
▁구조대
▁메이크
▁방문자
▁장시간
▁전쟁터
▁지구대
▁파스타
▁1803
▁디바이스
▁트랜스포
▁프로펠러
▁스파이더맨
▁ㄱㅡㄹㅣㄴㄷㅏ
▁쉴
룬궁
야카
엄경
코어
▁UF
▁그립
▁네온
▁대간
▁루빈
▁바드
▁박희
▁본점
▁사노
▁신드
▁와시
▁이변
▁장본
▁정열
▁주루
▁증설
▁창사
▁캐스
▁티미
▁포지
▁하랄
▁호우
그레브
▁막바지
▁밑부분
▁상주시
▁스포트
▁영동군
▁카세트
▁키루스
▁파룬궁
▁플뢰레
▁다이렉트
▁슈바르츠
▁슬라이드
▁아사쿠라
▁자그레브
▁크리스토프
▁ㅇㅗㄻㄱㅕㅈㅕ
na
광석
블러
입상
춘기
▁am
▁계면
▁광원
▁리포
▁명기
▁무학
▁보천
▁불의
▁선산
▁성시
▁실라
▁연례
▁오존
▁재기
▁조차
▁지망
▁지요
▁축약
▁친교
▁카도
▁타니
▁혼슈
▁275
▁Ind
▁ㅎㅟㄷ
▁비무장
▁시스터
▁형이상
▁ㄱㅜㄴㅏ
▁소프라노
▁인터랙티브
롤터
ams
▁UP
▁간척
▁교신
▁다승
▁돌방
▁병리
▁순사
▁원대
▁저마
▁진봉
▁파머
▁혈연
▁히포
즈버그
▁번역본
▁소시에
▁아이비
▁주사위
▁훈련소
▁ㄴㅣㅇㅏ
▁법무법인
▁신약성경
▁와이오밍
▁지브롤터
ations
▁ㄴㅓㅁㅇㅓㅅㅓㅆ
난히
노지
바야
조약
▁Mc
▁기류
▁레디
▁리호
▁마유
▁밀로
▁서군
▁서영
▁송영
▁순국
▁심혈
▁쓰키
▁엘렌
▁여흥
▁유쾌
▁인맥
▁크래
드랑이
▁ARM
▁Off
▁She
▁구락부
▁멧돼지
▁브란트
▁얼스터
▁함양군
▁YMCA
▁구마모토현
▁뎀
erm
▁ㄴㅟ
▁격돌
▁데릭
▁매화
▁음극
▁조밀
▁조운
▁참새
▁충절
▁Bel
▁번역가
▁아프간
▁저수지
▁ㄴㅣㄹㅏ
▁마스터스
▁전자기파
▁ㅁㅗㄹㄹㅕㅆ
▁ㄷㅐㅎㅐㅅㅓㄴ
UL
▁넵
로메
봉산
함대
oph
▁RF
▁VV
▁결점
▁겸비
▁고서
▁근친
▁다호
▁민진
▁부계
▁성상
▁속박
▁수차
▁왕전
▁주정
▁총신
▁탈라
▁혼재
복지부
▁FTA
▁내려지
▁에드윈
▁영지주의
▁킬로그램
▁플러그인
▁20100
럭스
시효
▁MY
▁WK
▁각서
▁격분
▁나크
▁나포
▁농노
▁만호
▁배합
▁버디
▁성유
▁세세
▁아령
▁양공
▁원뿔
▁유병
▁임성
▁중류
▁커맨
▁클립
적으로
▁과도기
▁근거리
▁기울기
▁로열스
▁양방향
▁오마르
▁웸블리
▁지원군
▁출연진
▁칼리파
▁혁명당
▁호스팅
▁1845
▁나카지마
▁코르도바
▁ㅈㅏㅂㅇㅏ
▁ㅉㅣㄹㄹㅓ
▁해양수산부
NS
we
미츠
▁김익
▁데루
▁로잔
▁리티
▁무마
▁분투
▁산도
▁섹시
▁애비
▁육류
▁일광
▁중창
▁지산
▁청천
▁체사
▁파면
▁OEC
▁교회법
▁모리슨
▁발레리
▁베니스
▁연나라
▁제후국
▁창녕군
▁파르티
▁피루브
▁Down
▁HTTP
▁루즈벨트
▁인기가요
▁ㄱㅗㅇㅜㄴ
▁증권거래소
▁페미니스트
두스
▁KR
▁놀랍
▁다나
▁무오
▁반탁
▁비법
▁산양
▁스무
▁시군
▁완충
▁응고
▁재가
▁저당
▁종용
▁탱화
▁헌트
리스타
프리트
▁ㄱㅝㄴ
▁금산군
▁기쿠치
▁디지몬
▁레이드
▁레이터
▁바울로
▁불안감
▁사회부
▁요시오
▁우참찬
▁음성군
▁퇴적물
▁휘트니
▁에인절스
▁핵미사일
▁ㄸㅏㄹㅡㄹ
▁평양직할시
▁댁
▁펨
가이
등기
레알
비노
칼라
콘티
▁강탈
▁경직
▁괴테
▁구지
▁만네
▁밀정
▁밀크
▁아쉬
▁왕망
▁유린
▁인방
▁임박
▁중년
▁질의
▁청양
▁횃불
티나무
▁오쿠보
▁출발점
▁현무암
▁에마누엘
▁전체주의
▁카스트로
▁트리니티
▁미네소타주
▁에리트레아
▁ㅅㅣㅁㅎㅐㅆ
xy
렌츠
별초
보전
▁EA
▁Em
▁공제
▁광무
▁군소
▁금오
▁랄프
▁목도
▁무녀
▁비장
▁상보
▁전령
▁퍼부
▁행법
▁활력
▁ㄸㅐㄴ
▁라이즈
▁마우리
▁블레어
▁영암군
▁크레인
▁파이낸
▁흑사병
▁빠져나가
▁엠파이어
▁주계열성
▁ㅇㅏㄹㅇㅏㄴㅐㅆ
▁헴
네세
르노
하리
혈병
▁결번
▁노팅
▁눈앞
▁바레
▁변의
▁세그
▁섹터
▁스물
▁앤젤
▁오코
▁우등
▁원지
▁진남
▁진폭
▁타트
▁포프
atur
▁OVA
▁ㅇㅏㅇ
▁ㅇㅕㄹ
▁모기업
▁사마의
▁사바나
▁사춘기
▁이즈모
▁작용소
▁정읍시
▁칼데라
▁파이썬
▁화물선
보스토크
▁Just
▁스트로스
▁가고시마현
▁ㅇㅓㅇㅜㄹㄹ
▁ㅇㅗㄻㄱㅣㄹ
▁금메달리스트
▁ㄱㅣㅇㅜㄹㅇㅕ
▁블라디보스토크
▁ㅂㅏㄺㅎㅕㄴㅐㅆ
▁ㅇㅕㅆㅇㅡㅁㅇㅔㄷㅗ
03
곡사
▁견과
▁루가
▁순절
▁슬러
▁신겐
▁아문
▁앵무
▁양사
▁요나
▁윙스
▁유례
▁전각
▁카렌
가르드
▁노나라
▁도에이
▁모여들
▁산사태
▁자존심
▁마츠모토
▁비스콘티
▁야마구치현
▁ㄱㅏㅈㅕㅇㅑ
▁ㅎㅐㅇㅎㅐㅆ
▁ㄸㅓㄹㅇㅓㅈㅣㄹ
▁윅
마트
▁궁녀
▁도체
▁동관
▁모계
▁목축
▁벌리
▁예거
▁오드
▁옥중
▁절개
▁팔로
▁한수
▁황조
▁회가
▁are
▁경순왕
▁고구마
▁동반자
▁로도스
▁색소폰
▁수행원
▁아르마
▁오사무
▁완성도
▁크롬웰
▁1775
▁ㅈㅓㅂㅎ
▁얼라이언스
▁이탈리아인
▁코페르니쿠스
▁International
러니
타기
▁Sk
▁계림
▁급하
▁뭉치
▁미케
▁본가
▁시보
▁야오
▁역법
▁은색
▁친근
▁투라
▁프티
▁Act
▁Ste
▁ㅈㅓㅁ
▁거창군
▁고생물
▁다이라
▁득점자
▁메이드
▁브리핑
▁빌리지
▁의석수
▁전임자
▁토레스
ㅎㅐㅈㅕ
▁1802
▁마사히로
▁스포르차
▁아랫부분
▁ㅈㅣㄴㅏㅁ
▁아케메네스
▁ㅇㅣㄹㅇㅓㄴㅏㅆㅇㅡㅁㅕ
▁팥
예보
ues
▁GE
▁게코
▁구레
▁김순
▁랭스
▁마두
▁미화
▁분청
▁산현
▁시랑
▁쌓이
▁아방
▁오귀
▁유현
▁전태
▁주법
▁지와
▁푸트
세이돈
▁227
▁POS
▁ㄴㅐㅁ
▁가로막
▁간담회
▁문교부
▁사이키
▁서커스
▁수공업
▁식료품
▁점령지
▁친동생
▁트렌드
▁학년도
▁포세이돈
▁피루브산
▁Korea
▁소시에다드
▁ㅃㅏㅈㅣㄴㄷㅏ
06
만금
air
▁VR
▁단테
▁메노
▁미쿠
▁박차
▁백금
▁병장
▁용자
▁은총
▁입선
▁자모
▁정미
▁정육
▁집시
▁추도
어머니
▁BSD
▁Che
▁ver
▁결론지
▁날아가
▁새만금
▁아르타
▁어쨌든
▁푸른색
▁홍준표
▁OECD
▁어린아이
▁Micro
▁ㅈㅣㄴㅐㄴㄷㅏ
레마
벌린
쿼이
튠즈
▁미역
▁밀수
▁오피
▁이쿠
▁자가
▁직구
▁크누
▁피력
▁흑자
▁Ang
▁박원순
▁수니파
▁아무르
▁영연방
▁음악상
▁전반전
▁전환점
▁1824
▁느티나무
▁아이튠즈
▁중합효소
▁페가수스
▁Award
▁Power
게니
슈빌
에다
클로
▁DE
▁기로
▁기즈
▁꺼내
▁드론
▁마드
▁문공
▁에그
▁이분
▁주동
▁중군
▁측도
▁한일
▁Inc
▁노키아
▁메이슨
▁스텔라
▁에이커
▁중국식
▁지원병
▁ㅂㅜㄹㄱ
▁세그먼트
▁엑스트라
▁켄터키주
▁ㅇㅚㅊㅕㅆ
▁ㅇㅓㄺㅎㅣㄴ
▁ㅎㅐㅈㅕㅅㅓ
▁ㅇㅣㅇㅑㅁㅏㄹㄹㅗ
▁웡
궤도
신기
아노
요크
▁강민
▁넓적
▁만지
▁선분
▁압승
▁에베
▁오언
▁장충
▁주미
▁차내
▁취입
▁투아
▁하녀
▁한눈
▁햇볕
▁218
▁How
▁Who
▁ㅊㅐㄱ
▁마사카
▁몽골족
▁비욘세
▁세이버
▁애호가
▁에스터
▁올라프
▁징역형
▁태권도
ㅝㅈㅣㄴ
aster
ittle
▁1808
▁9000
▁comp
▁수양대군
▁야마시타
▁야마자키
▁ㅁㅕㄴㅊㅣ
▁오스트로네시아
MC
▁콴
놀룰
튿날
파업
riv
▁고보
▁금당
▁나베
▁데어
▁라브
▁민첩
▁상아
▁어종
▁완행
▁우먼
▁원당
▁원순
▁자일
▁장방
▁특진
놀룰루
샤오핑
ates
▁224
▁316
▁325
▁동작구
▁매크로
▁문인석
▁바르트
▁보령시
▁쌍계사
▁전산망
▁중견수
▁중앙당
▁차일드
▁청년단
▁피에로
▁1807
▁1834
▁개혁주의
▁덩샤오핑
▁에스파뇰
▁호놀룰루
따르
러햄
아비
▁Bu
▁감속
▁남진
▁미처
▁신당
▁어퍼
▁엄호
▁이륜
▁주박
▁추앙
▁판독
▁해면
▁해법
▁행태
▁화의
▁305
▁ㄲㅐㅆ
▁불어넣
▁생산물
▁에이드
▁총파업
▁동프랑크
▁요시쓰네
▁이사벨라
▁아르메니아인
▁ㄴㅐㄹㅕㅈㅣㄴ
oud
▁TF
▁ㅃㅏ
▁가위
▁기예
▁누드
▁들판
▁러너
▁망하
▁비비
▁스이
▁여종
▁유파
▁타치
▁512
▁CNN
▁노선도
▁밀리언
▁이영호
▁피어슨
▁함안군
▁헤비급
티아누스
irect
▁AIDS
▁ㅁㅣㅊㅕ
▁ㅂㅗㄴㄸㅏ
▁ㄴㅡㄴㅑㄱㅗ
▁ㅊㅐㄱㅇㅣㅁ
▁ㅌㅓㄸㅡㄹㅕㅆ
▁뭄
▁기약
▁명곡
▁복건
▁상학
▁시연
▁양치
▁작화
▁접대
▁정석
▁제원
▁찬송
▁티어
리스토
오피스
▁253
▁501
▁ㅂㅣㅅ
▁ㅍㅕㅆ
▁고흥군
▁공격력
▁남대문
▁에리히
▁이튿날
▁호나우
▁확고히
▁2023
▁마리우스
▁ㄷㅗㅇㅎㅐ
▁ㅇㅗㄹㄹㅕㅆㅇㅡㅁㅕ
▁췌
기름
란도
리시
사쿠
인자
▁급식
▁김택
▁나혜
▁돌궐
▁라데
▁문항
▁미티
▁발부
▁빌럼
▁석축
▁수려
▁쉬르
▁야산
▁옥고
▁입회
▁키라
▁파란
▁괴산군
▁껍데기
▁날카롭
▁노이즈
▁마쓰이
▁무용가
▁발사대
▁안보리
▁여호와
▁유타카
▁체이스
▁평양성
▁아오야마
▁에이브러햄
▁ㅁㅗㄹㅡㄴㄷㅏㄴㅡㄴ
기군
마당
촌면
ava
▁DX
▁OR
▁계모
▁남만
▁다각
▁덩치
▁뒷날
▁문란
▁보가
▁성결
▁소하
▁오위
▁완패
▁의향
▁책상
▁특산
▁후천
샘프턴
▁ㅌㅔㄴ
▁니제르
▁덕양구
▁마산시
▁미하엘
▁스피릿
▁스피어
▁아오이
▁짝사랑
▁홍성군
ㅇㅓㅇㅑ
ㅂㅅㅣㅇㅗ
▁ㅂㅓㄹㅣㅁ
MI
▁간쑤
▁귀박
▁노우
▁뒤셀
▁랜스
▁말갈
▁반월
▁부치
▁소급
▁신보
▁아수
▁이비
▁투척
▁포체
▁행주
▁호에
트리스
▁303
▁940
▁경사면
▁관람객
▁무제한
▁미코토
▁웨이크
▁휘발유
▁Fire
▁ㄱㅡㅊㅕ
▁비상사태
▁콤플렉스
▁행방불명
▁뒤셀도르프
▁반유대주의
▁ㄴㅗㅍㅇㅣㄹ
분별
와르
▁섀도
▁쓰쿠
▁응축
▁장유
▁카고
▁행차
▁교통량
▁기업체
▁매출액
▁보상금
▁외래어
▁하르트
▁Game
▁말레이어
▁ㄷㅡㄹㄹㅓ
▁ㅅㅏㄹㄹㅏ
▁ㅇㅓㅄㅇㅐ
TR
du
랜도
바사
ape
▁Mk
▁눈길
▁백석
▁삼위
▁생년
▁세드
▁송준
▁약체
▁우여
▁지온
▁진왕
▁평온
▁합세
▁환호
간지주
다나오
▁Tim
▁all
▁ㅉㅏㄴ
▁팬클럽
▁합중국
▁당간지주
▁페니키아
▁힝
도어
문왕
정책
▁가압
▁강박
▁구드
▁김좌
▁냉장
▁시급
▁영창
▁이숙
▁폐암
▁황룡
▁후두
룸푸르
ster
▁ㄲㅜㄹ
▁감사원
▁세포질
▁쉐보레
▁유키오
▁폭발물
▁삼위일체
▁홀로코스트
▁스트라스부르
▁ㄴㅐㄹㅕㅇㅘㅆ
▁ㅊㅓㅎㅐㅈㅕㅆ
▁텃
시장
진법
▁다짐
▁도저
▁박명
▁반칙
▁봉선
▁부령
▁산세
▁소조
▁시련
▁쓰시
▁알프
▁웨딩
▁윔블
▁제석
▁처참
▁키보
▁탑비
▁터리
▁Ass
▁Hol
▁par
▁대장경
▁미카와
▁바나흐
▁발상지
▁수녀원
▁수족관
▁위안스
▁케이시
▁테레비
▁힐러리
▁아라카와
▁카롤링거
▁Dance
▁ㅈㅣㄴㅏㅆ
▁ㄲㅡㅌㄴㅐㄴ
▁ㅅㅏㄹㄹㅣㄴ
ㅗㅁ
룬디
지우
햄프
▁TP
▁가내
▁고단
▁로카
▁민방
▁불발
▁상쇄
▁속기
▁원호
▁음각
▁장화
▁전치
▁커밍
▁코토
▁토구
▁판교
▁패소
일으키
▁777
▁강우량
▁교차점
▁그레그
▁당분간
▁보수파
▁부산물
▁ㄷㅡㄹㅏ
ㅎㅣㄴㄷㅏ
▁ㅂㅓㄹㅇㅓ
▁불러일으키
▁스테로이드
▁항공우주국
▁ㅁㅏㄹㄹㅣㄴ
CO
TO
베그
비시
정지
카쓰
▁가석
▁감영
▁고레
▁공구
▁공위
▁남코
▁단락
▁드와
▁백마
▁소공
▁소현
▁손오
▁위세
▁인어
▁조망
▁체구
▁충정
▁컴포
▁티그
▁헤딩
▁헬멧
오스트
헌대부
▁Pre
▁국경선
▁뉴햄프
▁루도비
▁모니카
▁비키니
▁신생아
▁완벽히
▁윔블던
▁조사단
▁회의소
ㅇㅅㅏㄴ
▁Mark
▁ㄱㅓㄷㅝ
▁하코다테
▁시모노세키
▁잘츠부르크
45
bs
▁내통
▁리온
▁막말
▁미구
▁백범
▁비탈
▁유황
▁태클
▁하토
ield
▁Dav
▁이동식
▁철도선
▁타악기
▁하남시
▁러더퍼드
▁레버쿠젠
▁리카르도
▁우르바노
▁포츠머스
▁라이프니츠
▁프로테스탄트
▁씹
멘토
미분
정기
호텔
ARD
▁감형
▁다로
▁달인
▁동주
▁명망
▁명실
▁볼가
▁석굴
▁역간
▁예장
▁음수
▁칸토
▁코덱
▁편평
게임넷
▁Air
▁KAI
▁나바라
▁밸런스
▁상거래
▁아비뇽
▁안재홍
▁케이티
▁플레어
▁1392
▁신비주의
▁온게임넷
▁ㄴㅓㅁㄱㅣㄴ
▁ㅇㅣㅂㅎㅣㄴ
오스트레일리아
▁ㄱㅟㅇㅕㅇㅜㄴ
zy
▁쭉
▁켜
고백
바겐
학사
▁LD
▁대연
▁데크
▁반투
▁영제
▁오페
▁와다
▁자니
▁전영
▁책자
▁카누
▁쿠프
▁특보
▁티비
▁홍진
▁훔치
▁ㅍㅜㄴ
▁마인츠
▁사브르
▁상상력
▁아폴론
▁앨리슨
▁올랜도
▁행진곡
▁허정숙
▁신앙고백
▁인조반정
▁ㄱㅏㄹㄹㅏ
▁등지느러미
▁보건복지부
▁보니파시오
▁위안스카이
▁Records
▁ㅈㅓㅇㅎㅏㄴㄷㅏ
냅스
바트
터우
▁경쾌
▁납북
▁노섬
▁데라
▁따내
▁방목
▁심취
▁육조
▁최국
▁카베
▁코비
▁토후
▁퇴학
▁포경
▁포티
▁피파
▁해탈
▁999
▁Now
▁Pol
▁긴꼬리
▁동구권
▁모음곡
▁복숭아
▁스턴스
▁시냅스
▁악영향
▁에테르
▁옥타브
▁원거리
▁집대성
▁청계천
▁1597
▁스피어스
▁시리우스
▁트랜스포머
ㅂㅣ
래곤
타일
▁IL
▁각하
▁관부
▁굴뚝
▁나침
▁내과
▁다트
▁단풍
▁당산
▁두아
▁마정
▁무아
▁문리
▁벌써
▁소이
▁수모
▁승화
▁완강
▁정다
▁퀴어
▁해충
노스케
아가라
ited
▁401
▁net
▁나혜석
▁눈동자
▁두만강
▁리소스
▁마사키
▁보병대
▁에드거
▁윤선도
▁의용군
▁카오스
▁1833
▁ㅈㅝㅇㅑ
▁구약성경
▁사고방식
▁ㄱㅓㅅㅔㄴ
▁ㅂㅏㄹㅎㅐ
▁ㅂㅏㅃㅡㄴ
▁나이아가라
▁ㅇㅡㄹㅏㄱㅗ
▁ㄷㅜㅌㅓㅇㅜㄴ
▁ㅂㅗㅇㅣㄴㄷㅏㄱㅗ
▁ㄷㅡㄹㅇㅓㅇㅗㄹㄹㅕㅆ
춘추
케라
▁di
▁대시
▁더그
▁성역
▁아머
▁용법
▁응집
▁지프
▁치부
▁테너
▁판무
▁학식
로니카
▁530
▁AEK
▁Und
▁계획안
▁바바라
▁추진력
▁코나미
▁표준시
▁흘러가
▁그리피스
곡절
너리
니히
마침
비르
자브
정신
코더
ari
▁가만
▁도맡
▁록맨
▁묶음
▁병참
▁봉천
▁세아
▁입방
▁잡종
▁지기
▁집게
▁초인
▁헬라
▁힉스
▁Tri
▁ㅈㅗㄴ
▁리저브
▁에릭슨
▁접두사
▁초음파
▁툴루즈
▁홍천군
▁ㅁㅜㅉㅣ
▁바티스타
▁아이오딘
▁ㅌㅓㅈㅣㄴ
▁ㅎㅡㄹㄹㅕ
▁차이콥스키
▁ㅅㅏㄹㅍㅕㅂㅗㄹ
▁욜
공격
발라
원사
저기
전쟁
▁꾸란
▁레우
▁만인
▁면화
▁식읍
▁원초
▁입석
▁진법
▁진평
▁천성
▁최성
▁트립
ning
ring
▁237
▁Cal
▁공양왕
▁때마침
▁마쓰다
▁마틸다
▁자부심
▁지배층
▁태그팀
▁파이트
▁1787
▁크리스털
▁젝
관총
준호
토끼
통감
▁군역
▁근현
▁베넷
▁소국
▁우가
▁육사
▁접견
▁제논
▁초급
▁평단
▁호분
▁횡포
ㅈㅏㄹ
ther
▁Ver
▁가나안
▁가평군
▁계엄령
▁끌려가
▁니코스
▁데이먼
▁산기슭
▁아라키
▁아우디
▁중랑장
▁청도군
▁1816
▁1818
▁Real
▁ㅅㅟㅇㅝ
▁ㅊㅣㅇㅜ
▁우여곡절
▁ㅁㅜㄹㄹㅓ
▁파이어폭스
▁ㅎㅏㅁㅇㅣㄴ
ㄱㅜ
이츠
▁고귀
▁말엽
▁미그
▁봉토
▁사선
▁삼매
▁순응
▁재실
▁좌완
▁중경
▁쫓기
▁최윤
▁캐머
▁항법
레슈티
▁244
▁540
▁RFC
▁개정판
▁말라위
▁소유주
▁아라이
▁유미르
▁카톨릭
▁다이라노
▁블루투스
▁스키타이
▁ㅇㅣㄹㅝㅈㅕ
네일
릅쓰
징금
카시
▁MK
▁ㅅㅖ
▁고차
▁기라
▁도총
▁마름
▁명작
▁벤투
▁브렛
▁양명
▁우암
▁전업
▁회동
▁공학부
▁로미오
▁미에현
▁인디아
▁펀자브
▁프레시
other
▁거듭제곱
▁트라우마
▁파이터스
▁파트너십
▁Again
▁ㄲㅏㄹㄹㅕ
▁ㄷㅡㄹㅓㄴㅐㄴ
▁ㅇㅗㄹㄹㅣㄴㄷㅏ
▁텀
당기
무로
슈나
▁gr
▁고환
▁길가
▁김남
▁리허
▁방직
▁변태
▁산후
▁앤트
▁잡스
▁정혜
▁총명
▁풀럼
▁환각
ated
▁265
▁Mer
▁교두보
▁글쓰기
▁무릅쓰
▁박중양
▁부산시
▁성행위
▁지하수
▁캐롤라
▁킵차크
▁프로스
▁다이오드
▁ㄱㅡㄱㅓㄹ
▁ㅌㅐㄱㅎㅐㅆ
▁하이델베르크
ME
▁봅
▁툭
구동
권법
수사
와트
포도
mas
▁난부
▁뒤지
▁루벤
▁반년
▁볼링
▁생육
▁선화
▁속곡
▁시세
▁아퀴
▁저온
▁정우
▁킬리
▁풍미
▁풍산
▁풍선
▁한상
▁Fre
▁가와치
▁극소수
▁대동강
▁명목상
▁세바스
▁속임수
▁알파인
▁에이트
▁에치젠
▁프리덤
보르기니
▁ㄴㅗㄹㅏ
▁대통령령
ㄷㅏㄴㅕㅆ
▁ㅇㅡㄹㅣㄹ
▁ㅆㅡㄹㅓㅈㅕㅆ
▁ㅇㅕㅆㅇㅡㄴㅣ
▁ㄱㅕㅌㄷㅡㄹㅇㅕ
GE
계선
네즈
주제
톱스
플라
▁나니
▁난해
▁달라
▁맞먹
▁반시
▁발문
▁성안
▁소제
▁외피
▁이서
▁조중
▁칸나
▁칼날
▁포이
▁321
▁560
▁ㅋㅏㅇ
▁가석방
▁레이테
▁방어력
▁의사당
▁차라리
▁콜레라
▁히데키
케라톱스
▁사쿠라이
▁여기저기
▁오스카르
▁Never
▁람보르기니
▁ㅇㅏㄹㄹㅣㄴ
▁ㅇㅡㄹㅣㄹㅏ
▁ㅂㅓㄹㅇㅓㅈㅕ
▁ㅇㅗㄹㄹㅏㄱㅏㄴ
▁셉
미나
▁;"
▁OG
▁RX
▁간극
▁게양
▁겐지
▁고영
▁김철
▁대례
▁데프
▁레브
▁문의
▁사철
▁삼가
▁성심
▁수박
▁수탈
▁스탬
▁시한
▁실링
▁심복
▁양털
▁재림
▁전초
▁천억
▁팬텀
▁헌팅
루시아
소년단
▁680
▁강경파
▁기록물
▁달서구
▁리처즈
▁베로나
▁유배지
▁후시미
ㅂㅓㄹㅕ
▁중앙유럽
▁ㄴㅗㄹㅕㅆ
▁꽉
레네
양동
ATA
▁Si
▁ㄸㅔ
▁개천
▁고명
▁고야
▁교배
▁낙관
▁눈금
▁더미
▁명승
▁묵살
▁뮤즈
▁부추
▁선적
▁수세
▁순화
▁유토
▁조짐
▁코메
▁코칭
▁포용
▁풍력
▁호두
▁회남
▁효행
▁후량
▁SUV
▁ㅁㅔㄹ
▁나침반
▁남해안
▁바르톨
▁부안군
▁체로키
▁칠곡군
▁Home
▁ㅆㅓㅇㅑ
▁카를로만
▁형이상학
▁ㅁㅗㅅㅎㅐㅆㅇㅡㄴㅏ
부패
any
vil
▁OH
▁객사
▁고상
▁동리
▁만행
▁백련
▁샤먼
▁스탄
▁슬퍼
▁시녀
▁식단
▁양각
▁엄중
▁요사
▁저상
▁진중
▁팀원
▁풀밭
ling
▁262
▁imp
▁김원봉
▁대국민
▁모닝구
▁상록수
▁수산화
▁엘리사
▁의령군
▁정약용
▁직선제
▁홍백가
▁화학식
▁마사유키
▁프레이저
▁히타이트
▁20200
▁프로페셔널
▁ㄴㅡㄴㅑㄴㅡㄴ
DR
ek
▁농심
▁마샬
▁문호
▁박은
▁병부
▁우레
▁이충
▁정광
▁철새
▁치솟
▁태위
▁파급
▁필즈
▁행각
ㄴㅏㄹ
티스트
평대군
▁245
▁263
▁DMB
▁ㅊㅏㅁ
▁ㅎㅓㄹ
▁단양군
▁불명확
▁안도라
▁우메다
▁이따금
▁정선군
▁줄어드
▁청량리
▁초나라
▁Jour
▁레이아웃
▁부정부패
▁브롱크스
▁스탠다드
▁아세트산
▁파르티잔
▁ㄷㅏㄴㅕㅇㅗㄴ
▁뻘
보쿠
샤르
쓰키
저리
전동
카즈
ook
▁가출
▁근소
▁레위
▁모면
▁박문
▁외양
▁원류
▁인내
▁장도
▁판화
▁풍화
▁혼수
컴퓨터
▁골프장
▁관공서
▁레슬러
▁수신기
▁원작자
▁존스턴
▁쫓겨나
▁카다피
▁학술원
▁ㄴㅏㅃㅏ
▁그라나다
▁아카이브
▁인도주의
▁제네시스
gy
▁눔
▁찜
▁Ig
▁KF
▁간택
▁기뢰
▁기복
▁다인
▁대홍
▁도트
▁독학
▁메탄
▁사돈
▁산초
▁속명
▁신수
▁아보
▁악용
▁유표
▁이두
▁인왕
▁자파
▁진무
▁채식
▁통학
▁학관
▁311
▁org
▁머레이
▁성장률
▁시행령
▁신뢰도
▁아브루
▁여학교
▁이주해
▁조선족
▁2600
▁ㄱㅏㅁㅆ
▁ㄲㅓㄴㅐ
▁ㄸㅟㅇㅓ
▁마르코스
ㄸㅏㄹㅏㅆ
ㅣㅂㄴㅣㄷㅏ
▁ㅈㅓㅇㅎㅏㄹ
▁ㅅㅣㅋㅣㄴㄷㅏㄱㅗ
▁ㅁㅗㅅㅎㅏㄴㄷㅏㄴㅡㄴ
▁솅
다우
OCA
inc
▁Wr
▁고루
▁기쁘
▁눈썹
▁번가
▁변명
▁비각
▁사누
▁악몽
▁일축
▁토막
▁퓨처
▁UTC
▁대마도
▁마일스
▁스노우
▁옹정제
▁유기물
▁재방송
▁적혈구
▁항구역
Force
▁ㅂㅜㅅㅓ
▁라치오주
▁ㅇㅓㅈㅣㄹ
▁메달리스트
▁ㄴㅗㄹㄹㅏㄴ
▁ㅇㅣㄹㅝㅈㅣㅈㅣ
디트
콜라
▁걸어
▁군내
▁군의
▁금발
▁사담
▁양태
▁영공
▁크론
▁폐업
▁out
▁드레이
▁마운드
▁여고생
▁자주포
▁정신병
▁좌참찬
▁페라라
▁ㄹㅗㅇㅝ
▁국민정부
▁시라쿠사
▁플리머스
▁ㅂㅜㄹㅡㅁ
▁뽕
변사
시니
저트
히라
▁PV
▁강기
▁모씨
▁바루
▁분구
▁스매
▁역적
▁온몸
▁위급
▁일요
▁임영
▁포커
▁피코
▁휴고
트리아
ival
▁386
▁건너가
▁대륙군
▁로이스
▁비행선
▁산청군
▁수성구
▁시바타
▁야마노
▁역무원
▁이제동
▁1763
▁1778
▁ㄱㅡㄱㅔ
▁교통수단
▁레이더스
▁버펄로스
▁스포츠카
▁ㄴㅜㄹㅣㄹ
▁ㄱㅓㅊㅕㅇㅑ
▁ㅇㅣㄱㅎㅕㅆ
▁ㅂㅜㄷㅣㅈㅎㅕ
▁ㅇㅏㄹㄹㅕㅈㅜㄴㄷㅏ
도전
셀라
추얼
터슨
▁공론
▁궁핍
▁기제
▁대첩
▁딱정
▁람다
▁물량
▁방파
▁본대
▁볼레
▁분신
▁소가
▁수조
▁식생
▁식수
▁신격
▁신춘
▁양왕
▁연혁
▁캡콤
▁티탄
▁팬덤
▁편대
▁헤스
▁Ber
▁남북한
▁대사성
▁문학부
▁사이고
▁수페르
▁스파크
▁슬럼프
▁에반스
▁잠자리
▁진보신
▁후지타
▁Moon
▁ㄲㅓㄹㅕ
▁ㄷㅏㄹㅝ
▁스탠더드
▁앨프리드
▁연꽃무늬
▁해발고도
▁ㅈㅓㄴㅎㅐㅈㅣㄴ
lt
리처
발디
전설
ely
raw
▁ㅂㅐ
▁경국
▁관립
▁김화
▁노자
▁닛코
▁도원
▁도지
▁리쿠
▁비버
▁소명
▁습작
▁원광
▁월계
▁제복
▁진자
▁최단
▁타개
▁폴드
▁Fri
▁구례군
▁기관사
▁내슈빌
▁돌아보
▁문무왕
▁보일러
▁슬퍼하
▁아르키
▁야전군
▁조소앙
▁1780
▁Type
▁left
▁ㅂㅘㄷㅗ
▁트라키아
▁파피루스
▁평화통일
▁폭스바겐
▁ㅊㅣㄴㅎㅐ
▁ㅂㅜㅌㅇㅕㅅㅓ
▁ㄴㅗㅎㅇㅕㅈㅕㅆ
▁ㅍㅕㄹㅊㅕㅈㅣㄴㄷㅏ
이시
츠만
카쿠
통제
▁고라
▁교각
▁김미
▁달빛
▁맹자
▁박병
▁배차
▁심도
▁에토
▁역인
▁유괴
▁장주
▁전근
▁제청
▁즉석
▁징발
▁휴지
노비치
▁Pet
▁Soc
▁ㅈㅗㄱ
▁마땅히
▁미란다
▁시간표
▁시작점
▁앞장서
▁이동한
▁적갈색
▁조슈아
▁진안군
▁플레밍
ouble
▁머리장식
▁ㅁㅜㅇㅊㅕ
▁Summer
▁아르키메데스
▁ㄱㅚㄹㅗㅂㅎㅣㅁ
▁ㅂㅓㅅㅇㅓㄴㅏㄹ
▁ㅈㅣㄴㅎㅐㅇㅎㅏㄹ
전서
지드
▁굴곡
▁랜더
▁망가
▁부쿠
▁비에
▁성혼
▁셜록
▁속출
▁양질
▁엽록
▁월등
▁잠들
▁캐넌
▁코요
▁티타
▁푸앵
▁흥국
ㄷㅓㅍ
플러스
▁Die
▁경덕왕
▁고메스
▁반혁명
▁수뇌부
▁이자겸
▁한국전력
▁ㄷㅟㄷㅓㅍ
▁ㅎㅡㄹㅡㄴ
▁부쿠레슈티
▁ㄱㅏㄷㅎㅣㄴ
ㅇㅏㄴㅐㄴㄷㅏ
▁ㅇㅕㅅㅓㄴㅡㄴ
르템
애자
이동
케로
▁BJ
▁Hz
▁UD
▁갈대
▁동선
▁매시
▁사피
▁소신
▁수체
▁시디
▁신식
▁오퍼
▁외야
▁잉어
▁진산
▁참관
▁한학
▁현자
▁호부
▁Sil
▁Swe
▁mod
▁동역학
▁부룬디
▁사라이
▁아우렐
▁억지로
▁카트린
▁City
▁모리오카
▁사라예보
르템베르크
▁ㄱㅏㄹㅣㄹ
▁ㅈㅓㅂㅎㅏㄹ
슬론
하타
▁그분
▁다정
▁레자
▁범종
▁법대
▁빙판
▁수재
▁승문
▁약어
▁외직
▁유량
▁장막
▁조아
▁총탄
애슬론
커버리
클라베
▁def
▁ㄸㅡㄴ
▁ㅇㅏㄲ
▁겉모습
▁브라만
▁아바스
▁연기력
▁퓨처스
▁훈련장
▁1817
▁딱정벌레
▁카를루스
▁콘클라베
▁ㅊㅐㅇㅜㄴ
▁ㄷㅏㄹㄹㅏㅈㅣㄹ
▁-.
▁국권
▁누아
▁드니
▁미달
▁빙상
▁성군
▁수혜
▁시치
▁엘람
▁유르
▁육안
▁음계
▁이극
▁통수
▁학무
▁313
▁Fun
▁광산구
▁노이만
▁더욱더
▁레이철
▁매장량
▁비활성
▁세르비
▁손오공
▁애니콜
▁영천시
▁옥개석
▁코르넬
▁특산물
▁헬레나
▁1453
▁1825
▁나카가와
▁랭커스터
▁말라리아
▁무라야마
▁사실주의
▁카트리지
▁ㅇㅏㅍㄷㅏㅇ
▁ㄴㅐㅂㅗㄴㅐㅆ
▁ㄴㅓㅁㅇㅓㄱㅏ
▁ㅊㅏㅈㅇㅏㄴㅐㅆ
yr
극장
베쓰
신론
중앙
포화
lin
▁관입
▁단추
▁대월
▁무굴
▁병세
▁승무
▁신토
▁열혈
▁우뚝
▁장공
▁재킷
▁지네
▁철갑
ㄱㅡㅁ
차일드
apan
▁Vis
▁강연회
▁동인지
▁무안타
▁바하마
▁웨일즈
▁재계약
▁최우선
▁스웨덴어
▁한국은행
▁헤르메스
▁ㄷㅚㄹㅈㅣ
▁ㅆㅏㅎㅇㅣㄴ
▁ㅇㅏㄴㅣㄹㄲㅏ
▁ㅎㅡㄴㄷㅡㄹㄹㅣㅁ
간드
강도
뚜기
찰사
코이
▁NO
▁Sn
▁과대
▁관인
▁남도
▁닐스
▁다산
▁던스
▁비구
▁빈혈
▁사샤
▁석실
▁오고
▁우방
▁장동
▁제패
▁허나
▁호메
▁호종
▁훈구
곰자리
▁MLS
▁ㄴㅔㄹ
▁구사론
▁리버스
▁무자비
▁쇼펜하
▁아스타
▁연수구
▁탈리아
▁플레인
▁ㄱㅣㅃㅓ
▁Enter
▁ㅍㅕㄴㅐㄴ
▁쇼펜하우어
▁페널티킥을
▁우크라이나인
▁ㄱㅓㄷㅜㄴㄷㅏ
▁ㅂㅜㅌㅇㅣㄴㄷㅏ
덕리
델라
레즈
펠트
err
ino
▁기오
▁납세
▁노령
▁대림
▁망라
▁명료
▁미호
▁사문
▁산개
▁셰르
▁스냅
▁원구
▁이권
▁적시
▁클랩
▁팰컨
ican
▁ㅇㅗㅁ
▁고려인
▁광양시
▁금정구
▁도봉구
▁레이첼
▁레지옹
▁사진가
▁수집가
▁외조부
▁집합체
▁채플린
▁쿠알라
▁클레르
▁합격자
▁ㄱㅡㄹㅣ
▁열린집합
▁하드코어
▁Album
▁ㄲㅚㅎㅐㅆ
▁ㅂㅏㅊㅣㄴ
▁방탄소년단
▁쿠알라룸푸르
▁ㅊㅣㄹㅓㅆㅇㅡㅁㅕ
▁뮬
각시
스프
충사
페어
▁곡사
▁광릉
▁김신
▁도내
▁마장
▁백합
▁서유
▁심경
▁야나
▁양기
▁에지
▁영가
▁응모
▁의전
▁잔재
▁정액
▁코즈
▁폐비
▁핀치
본주의
work
▁980
▁노르딕
▁도저히
▁동남아
▁모듈러
▁엠블럼
▁영광군
▁자연히
▁조그마
▁분리주의
▁테네시주
▁호메로스
▁Techn
▁ㅁㅗㄹㅇㅏ
▁ㅁㅗㅈㅏㄹ
yp
그너
나잇
슈트
자카
치산
티콘
포동
ope
▁KM
▁강정
▁니더
▁루도
▁망토
▁비바
▁셔터
▁손잡
▁양광
▁우로
▁워렌
▁워프
▁출몰
▁충선
itch
reet
▁ㄱㅏㅍ
▁ㅇㅔㅅ
▁고쿠라
▁금지법
▁김홍집
▁마사코
▁미술사
▁백혈병
▁소장품
▁순환선
▁스티커
▁신조어
▁아이누
▁요크셔
▁원피스
▁장덕수
▁참으로
▁Team
▁마사무네
▁문하시중
▁비토리오
▁코린토스
▁흐루쇼프
▁ㄴㅜㄴㅂㅜ
▁크로스오버
▁ㅇㅟㅎㅐㅅㅓㄴ
▁사우스캐롤라이나
▁홑
바위
ves
▁ㅌㅐ
▁근절
▁누비
▁동궁
▁쇄신
▁아밀
▁염전
▁용모
▁원어
▁재키
▁전등
▁준용
▁콥트
▁푸코
▁한탄
▁황기
연구소
▁ㅉㅗㄱ
▁관측자
▁광무제
▁리누스
▁셰필드
▁의화단
▁충성심
▁1788
▁ㅇㅣㄹㅏ
▁초전도체
▁판타스틱
▁아우구스티누스
▁ㅅㅔㅇㅝㅈㅕㅆㅇㅡㅁㅕ
무진
일점
팔로
▁MI
▁fe
▁가용
▁검역
▁남강
▁네버
▁디랙
▁반송
▁상전
▁성신
▁소우
▁약초
▁예민
▁이요
▁초구
▁편도
▁항변
▁Cre
▁ㅈㅏㄱ
▁도로시
▁부총재
▁사업비
▁시마네
▁아리마
▁에디터
▁전봉준
▁조선어
▁카이두
▁퍼킨스
축구협회
▁1593
▁브리즈번
▁포항제철
▁First
▁앨라배마주
▁Little
▁대한축구협회
록색
스름
화사
▁AW
▁개역
▁갯벌
▁격노
▁경왕
▁고품
▁구기
▁난폭
▁녹훈
▁민스
▁오현
▁저희
▁조원
▁주현
▁질주
▁칩셋
▁케토
▁태정
▁품류
▁회자
도토스
메이슨
무스메
▁.."
▁기동성
▁뒷부분
▁레트로
▁로버스
▁시나이
▁실비아
▁아리안
▁워터스
▁장본인
▁코발트
▁필살기
▁해왕성
▁황금기
▁1828
▁ㅇㅜㄹㄹ
▁무스타파
▁민다나오
▁ㅇㅏㄱㅎㅏㄴ
▁모닝구무스메
럽트
ird
ler
▁HR
▁VL
▁ㅊㅜ
▁기득
▁무정
▁미흡
▁보크
▁비신
▁압류
▁용담
▁이그
▁침실
▁한영
▁후주
▁흑연
▁ㄸㅓㄴ
▁관측소
▁나이토
▁런타임
▁록펠러
▁매표소
▁사냥개
▁서천군
▁수사관
▁신해철
▁에디슨
▁컨셉트
▁ㄷㅙㅇㅑ
▁무한도전
▁세종실록
▁히로유키
▁자유주의자
▁ㅁㅐㄷㅏㄹㄹㅕ
▁ㅅㅏㄹㅗㅈㅏㅂㅎㅕ
▁쉰
메인
첼로
ars
▁고착
▁누출
▁도일
▁마제
▁앙헬
▁역관
▁오동
▁울라
▁임재
▁지안
▁타바
▁테루
▁표고
바니아
▁극락전
▁나오키
▁마젤란
▁미도리
▁보호령
▁빙그레
▁사이코
▁삼별초
▁안세이
▁이방인
▁진사시
▁초이스
▁모더니즘
▁물병자리
▁이브라힘
▁펩타이드
▁ㄴㅏㅅㅓㄴㄷㅏ
게르
다라
임새
패닉
환국
ike
▁Nt
▁ㅋㅕ
▁간절
▁경당
▁계비
▁교상
▁로슈
▁미우
▁바카
▁방진
▁브록
▁뼈대
▁아달
▁악행
▁어귀
▁역병
▁원각
▁원경
▁인목
▁종반
▁주걱
▁헤엄
▁860
▁960
▁꽃가루
▁나루토
▁미켈란
▁법상종
▁신경망
▁이규완
▁이스터
▁제미니
▁퓰리처
▁휘그당
▁Happ
▁SEED
▁다이애나
▁모리셔스
▁모하마드
▁한국일보
▁헐리우드
▁히스패닉
▁수페르리가
▁ㄷㅗㅇㅇㅣㄴ
▁ㅅㅜㅁㅈㅣㄴ
▁주간고속도로
장성
출마
▁Sa
▁노기
▁다뉴
▁단언
▁당면
▁도프
▁동강
▁리뉴
▁리디
▁불연
▁속옷
▁송수
▁안도
▁알콜
▁에비
▁열녀
▁우와
▁장마
▁저승
▁전편
▁카가
▁통가
▁티티
▁하목
▁혜왕
ress
▁333
▁ㅇㅏㄵ
▁몽골어
▁베이시
▁성희롱
▁에미상
▁장신구
▁정상부
▁파티마
▁헤이케
▁인터럽트
▁Stage
▁ㄱㅜㅂㅜㄹ
▁ㅇㅣㅇㅡㄹ
▁ㄱㅝㄴㅎㅐㅆ
▁ㅎㅏㄹㅈㅣㄹㅏㄷㅗ
ha
개토
지상
코니
▁굳건
▁굴드
▁금방
▁낙점
▁비우
▁빈스
▁살포
▁울창
▁인트
▁자영
▁중진
▁지라
▁진달
▁큼직
▁하대
▁혈전
▁황주
리아노
▁Dig
▁산리쿠
▁수호신
▁수호이
▁시퀀스
▁일라이
▁적시타
▁탐험대
▁패미컴
▁프랑켄
▁피오나
▁1797
▁로트링겐
▁스타트업
▁인디애나주
ㄱㄷㅏㄹㅡㄴ
▁새천년민주당
▁안드로메다자리
ts
베다
하치
▁If
▁기침
▁대박
▁로더
▁마미
▁만루
▁알란
▁역경
▁연경
▁연접
▁예기
▁의열
▁잉태
▁좡족
▁코먼
▁힐튼
머니즘
스티스
카이치
▁관박쥐
▁남동구
▁메소드
▁선인장
▁섬네일
▁슬라이
▁양성소
▁주제곡
▁지표면
▁캐머런
▁크랭크
▁클로즈
▁특파원
▁포르쉐
ㅌㅏㄲㅏ
▁1838
▁에너지원
▁이집트인
▁집적회로
▁ㄱㅣㄷㅏㄹ
▁ㄷㅗㅇㅜㄹ
▁ㄱㅏㅍㅏㄹㅡㄴ
▁ㅇㅏㄴㅌㅏㄲㅏ
켄지
키리
털루
혀내
oom
▁경리
▁공범
▁교민
▁불운
▁비웃
▁산발
▁소학
▁안국
▁정준
▁제회
▁종위
▁탐라
▁퇴거
자유당
파고스
▁229
▁POP
▁가처분
▁광개토
▁무분별
▁밝혀내
▁베니토
▁수십만
▁영양분
▁차베스
▁포병대
▁피그미
▁항등식
▁황무지
▁1636
▁Hist
▁이로쿼이
▁ㅇㅗㄴㄷㅐ
▁민주자유당
▁예카테리나
▁ㄷㅡㄹㅇㅓㅇㅗㄹ
ze
관광
롤라
리프
소프
자료
umb
▁OL
▁검교
▁구주
▁규소
▁남대
▁다드
▁단부
▁달래
▁루앙
▁명랑
▁신광
▁신승
▁올가
▁왕상
▁원세
▁질타
▁콜트
▁파시
▁편광
군주제
▁갑상선
▁고용주
▁도파민
▁동두천
▁바이런
▁스크롤
▁저소득
▁초거성
▁페드루
▁poem
▁국제기구
▁나카모리
▁보호관찰
▁차가타이
▁크로노스
▁ㄷㅓㅇㅜㄴ
▁히스파니아
▁ㅈㅓㅂㅎㅐㅆ
▁ㅅㅔㅇㅝㅆㅇㅡㄴㅏ
▁된
시드
ECT
▁ed
▁굴착
▁기내
▁도면
▁말뚝
▁무령
▁법치
▁사별
▁수고
▁시일
▁신랑
▁오레
▁은닉
▁찰나
▁천진
▁초각
▁한우
스탕스
▁공문서
▁내려놓
▁마사토
▁브라이
▁사투리
▁송준길
▁청취자
▁표지판
▁트레이시
▁트레일러
▁헝가리인
▁ㄱㅗㄹㅡㄴ
▁ㄷㅜㄹㅡㄴ
▁ㅂㅏㄱㅎㅕ
▁ㅍㅣㅎㅐㅆ
▁레지스탕스
▁프리스타일
▁ㄴㅐㄹㅕㄷㅏ
PG
지움
폭력
▁갈망
▁강태
▁기꺼
▁베인
▁보소
▁복도
▁슈만
▁아슈
▁어제
▁영내
▁용두
▁용호
▁이라
▁직역
▁최동
▁편년
▁피델
▁허적
▁호구
▁황화
▁Pla
▁TNA
▁Tom
▁가쓰라
▁경산시
▁경호원
▁공작원
▁노비타
▁대표부
▁리베라
▁리허설
▁사육신
▁역전승
▁진천군
ㅡㅁㅏㄴ
수염박쥐
▁2024
▁야마나시
▁미시시피주
▁페르세우스
▁ㄱㅓㄴㅡㄹㅣㄴ
▁ㄴㅜㄴㅂㅜㅅㅣㄴ
▁ㅇㅜㅁㅈㅣㄱㅇㅕㅆ
▁MO
▁곡성
▁능률
▁니노
▁락스
▁레몽
▁볼라
▁신증
▁어근
▁연제
▁열병
▁유임
▁증보
▁찬미
▁초명
▁평시
▁화단
▁남수단
▁서귀포
▁수에즈
▁카르타
ㅇㅜㅁㅕ
▁1777
▁대학원생
▁ㄱㅡㄹㅐㄷㅗ
yc
덕사
현리
ris
▁MG
▁고졸
▁구소
▁금과
▁내연
▁더듬
▁듀이
▁바벨
▁박순
▁반미
▁부츠
▁순열
▁약재
▁어진
▁일약
▁종별
▁주종
삼각형
▁249
▁323
▁AES
▁MBN
▁SAR
▁ㅂㅣㅈ
▁ㅇㅓㅍ
▁경사각
▁마술사
▁미추홀
▁민스크
▁스코프
▁화엄경
슈바이크
▁Plan
▁다치바나
▁레이먼드
▁로테이션
▁스케이프
▁ㄲㅏㄷㅏㄹ
▁노스웨스트
▁미켈란젤로
▁ㄴㅏㅌㅏㄴㅐ
PN
가치
무사
부시
의어
천후
텍스
▁ph
▁광교
▁구균
▁난바
▁남면
▁무량
▁방역
▁북주
▁석장
▁애용
▁용납
▁유종
▁처자
▁태실
▁학상
▁항등
▁황토
야말로
▁갈라타
▁김정희
▁영주시
▁웹스터
▁총감독
▁회색빛
▁히메지
▁네이티브
▁마티아스
▁브라이트
▁플랑크톤
▁ㄸㅓㅇㅗㄹ
▁솔트레이크
▁ㅊㅏㅁㄷㅚㄴ
▁브라운슈바이크
림리
마에
착륙
get
▁구한
▁니어
▁동질
▁멀린
▁물음
▁미끄
▁범퍼
▁볼턴
▁소품
▁인동
▁잔기
▁졸리
▁캘빈
▁판다
▁페달
uman
▁266
▁PSP
▁관리법
▁기꺼이
▁데려오
▁도플러
▁말버러
▁발트해
▁보급품
▁예천군
▁유력자
▁정여립
▁캐피탈
▁코스닥
▁크루스
▁토후국
▁편집국
▁호남선
▁ㅌㅓㅈㅕ
▁김나지움
▁나뭇가지
▁드레스덴
▁테마파크
ㄸㅡㄹㅣㄹ
▁right
▁ㅊㅐㅇㅝㅆ
▁아일랜드어
▁ㅎㅏㄴㅎㅐㅅㅓ
빌라
포츠
els
uro
▁DT
▁공비
▁내해
▁도킹
▁메토
▁붓다
▁비누
▁사공
▁솔리
▁양해
▁유두
▁인두
▁임오
▁죄목
▁질감
▁쾌적
▁파로
▁파타
ross
▁810
▁der
▁ㄸㅓㅆ
▁기무라
▁다뉴브
▁메디아
▁서울역
▁신간회
▁온건파
▁의정서
▁텅스텐
▁하인츠
▁Conc
▁ㄱㅣㄹㅕ
▁나가오카
▁ㄱㅡㄹㅣㄹ
▁ㅎㅏㄹㄲㅏ
▁브리타니아
▁판의금부사
▁ㅇㅏㄹㄹㅣㅁ
▁콜라보레이션
▁ㅂㅏㄺㅎㅣㄴㄷㅏ
▁ㅎㅐㅈㅕㅆㅇㅡㅁㅕ
▁씽
덕면
렁크
소녀
▁Ap
▁검단
▁난소
▁만슈
▁모유
▁법사
▁애쉬
▁장명
▁칙서
▁카구
▁파치
▁하한
▁353
▁구매자
▁근연종
▁너구리
▁미노루
▁미술품
▁법무관
▁오베르
▁워털루
▁은하수
▁일대기
ative
▁문화재청
▁선덜랜드
▁디스커버리
▁ㄱㅓㄹㅇㅓㅅㅓ
▁ㅅㅣㅂㅅㅣㅇㅗ
▁왁
르담
사장
켤레
키치
▁Km
▁급감
▁도가
▁로직
▁루니
▁루미
▁모성
▁분분
▁비앙
▁빗물
▁선군
▁세터
▁순방
▁암사
▁외장
▁원안
▁추수
▁풍성
▁협연
엽수림
혁명당
▁May
▁공격자
▁관중석
▁금지령
▁라이징
▁레반트
▁셰이크
▁연합체
▁외손자
▁우분투
▁재통일
▁전람회
▁조건부
▁지멘스
▁허스트
▁Gold
▁노트르담
▁모리타니
▁아브루초
▁하나하나
▁ㄷㅚㅅㅏㄹ
▁ㅁㅐㅇㅜㄴ
▁윗수염박쥐
▁ㅈㅗㄱㅡㅁㅏㄴ
▁ㅎㅟㅁㅏㄹㄹㅕ
▁function
▁쩌
랜즈
ero
▁TE
▁Vo
▁구부
▁굴리
▁뉴펀
▁니우
▁대불
▁도인
▁류성
▁면도
▁법의
▁본받
▁서른
▁서화
▁선량
▁안수
▁위화
▁의탁
▁일일
▁창법
▁천인
▁한기
바라기
ific
▁306
▁570
▁Sky
▁var
▁갈매기
▁몰려들
▁부평구
▁소작농
▁이니셜
▁진주성
▁춘추관
▁코베인
▁펌웨어
▁main
▁가와카미
▁삼성그룹
▁카나리아
▁Gener
▁뉴펀들랜드
▁ㅁㅗㅅㅕㅈㅕ
케르
티르
후미
▁Pi
▁고봉
▁과소
▁국학
▁마노
▁말레
▁분가
▁비소
▁사복
▁섭동
▁에덴
▁읍내
▁조강
▁징용
▁태즈
▁하네
▁회령
▁회송
▁효시
▁훌린
디비시
베르데
스카야
line
▁257
▁광주군
▁긴장감
▁대구경
▁대역폭
▁되돌리
▁로베스
▁발원문
▁세기말
▁스토크
▁윤원형
▁자본금
▁주원장
▁테이트
▁평신도
▁홍건적
▁1784
▁팔레르모
▁ㅂㅜㅊㅣㄴ
▁ㅍㅏㅇㅣㄴ
▁에레디비시
▁로베스피에르
▁ㅂㅓㄹㅇㅣㄴㄷㅏ
▁럽
라티
링스
언군
태영
ACK
AND
▁so
▁군공
▁대산
▁드가
▁등식
▁리야
▁막론
▁방아
▁백남
▁북문
▁삼도
▁스틴
▁엉뚱
▁에센
▁연명
▁원외
▁월성
▁은화
▁진시
▁커튼
▁콘도
▁페소
▁평영
orth
▁ㄷㅐㅁ
▁끌어내
▁라벤나
▁미크로
▁수자원
▁신대륙
▁이승훈
▁이시이
▁조언자
▁조이스
▁페르마
▁1826
▁니가타현
▁드래건스
▁매리너스
▁블록체인
▁패러데이
▁ㄷㅏㅈㅣㄴ
▁ㅇㅣㄹㄹㅓ
▁위스콘신주
▁ㄷㅏㄱㅓㄴㅏ
WC
▁내밀
▁더더
▁두목
▁랄리
▁숨지
▁이응
▁장석
▁최인
▁최정
▁화구
▁GHz
▁RAM
▁TCP
▁군포시
▁마커스
▁미적분
▁수출입
▁양양군
▁운전사
▁위스키
▁은밀히
▁인도양
▁재조합
▁저압부
▁충선왕
▁Char
▁ISIL
▁옥스포드
▁카탈로그
▁콜로라도
▁Class
▁ㅍㅏㅇㅣㄹ
▁하이라이트
▁ㄴㅏㅇㅏㄱㅏㅆ
▁ㅆㅡㄹㅓㅈㅣㄴ
야식
에나
첼리
쿠마
ful
▁ㄱㅝ
▁가꾸
▁간언
▁당구
▁성탄
▁신령
▁심재
▁어벤
▁이다
▁이혜
▁재조
▁쟁이
▁지간
▁치매
▁273
▁404
▁620
▁STX
▁Vir
▁app
▁ㅉㅣㅈ
▁ㅊㅣㅋ
▁과학부
▁관습법
▁부지사
▁슈바벤
▁시프트
▁아르민
▁에일리
▁워크스
▁통일부
▁하이데
▁TOUR
▁에노모토
▁영산회상
▁쑥
디크
엔드
왕도
▁경공
▁고뇌
▁군악
▁굶주
▁라키
▁링고
▁배서
▁변위
▁삼보
▁상비
▁성토
▁수납
▁슈마
▁액자
▁야역
▁오족
▁우고
▁이과
▁이춘
▁절실
▁천공
▁측실
▁토종
▁파블
▁파비
▁함축
▁헥사
▁환공
세서리
▁630
▁But
▁겨울잠
▁군자금
▁노후화
▁드레드
▁맘루크
▁생방송
▁애국심
▁유스티
▁장흥군
▁트렁크
▁More
▁part
▁쓰러뜨리
▁이복동생
▁하마마쓰
▁ㄱㅡㄹㅓㄴ
▁갈라파고스
▁메릴랜드주
▁ㄱㅓㄴㄴㅓㅇㅗㄴ
▁ㅍㅕㄹㅊㅕㅈㅕㅆ
▁ㅂㅜㅌㅈㅏㅂㅎㅕㅆ
놀즈
밍턴
▁Da
▁Rh
▁날로
▁레그
▁룬드
▁번사
▁보타
▁상산
▁석좌
▁스탭
▁야유
▁인화
▁질책
▁초순
▁코아
▁퍼트
▁화평
▁힘러
▁God
▁구릉지
▁대마초
▁마오리
▁문하생
▁배심원
▁부조리
▁불신임
▁세르히
▁스피너
▁야코프
▁은언군
▁저항성
▁참석자
▁하리마
ㅇㅏㄴㅐ
▁1680
▁전용도로
▁아일랜드인
olution
누르
티늄
ren
▁BP
▁가람
▁건기
▁곡률
▁교목
▁구심
▁기절
▁로쿠
▁말투
▁봉신
▁비관
▁사색
▁수르
▁수안
▁양모
▁옥산
▁저런
▁좌초
▁천호
▁토치
▁튀김
▁향유
▁허셜
▁호드
▁ㅈㅓㅇ
▁군부인
▁그로브
▁리디아
▁벨리즈
▁아메리
▁연면적
▁자라나
▁정치범
▁제트기
▁주자학
▁중남부
▁포츠담
itude
▁Dark
▁ㄴㅡㅈㅊ
▁ㅉㅏㅇㅕ
▁ㅎㅐㅇㅛ
▁나미비아
▁에히메현
▁미크로네시아
▁ㄲㅡㄹㅇㅓㄷㅡㄹㅇㅕ
▁갠
사항
장이
포항
ius
▁Sl
▁건반
▁경장
▁광천
▁대권
▁데비
▁부아
▁세나
▁세인
▁여중
▁요요
▁이찬
▁인포
▁장연
▁저빌
▁정릉
▁정호
▁코보
메이커
▁880
▁NGO
▁감독관
▁국세청
▁릴리즈
▁마테오
▁수필가
▁실력자
▁아가미
▁요아힘
▁음악인
▁제럴드
▁중앙동
▁키케로
▁혼마루
▁희극인
umber
▁Long
▁다카사키
▁언더우드
▁페데리코
▁해바라기
▁Japan
▁ㅂㅗㄴㅐㅇ
▁민코프스키
▁ㅂㅕㄴㅎㅏㅁ
▁ㅇㅓㄷㅜㅇㅝ
▁ㅇㅗㄹㄹㅕㅆㅇㅡㄴㅏ
걸스
녜스
연사
▁교점
▁궁도
▁귀부
▁날조
▁되살
▁랠리
▁레코
▁버금
▁변주
▁상군
▁설날
▁성하
▁아계
▁왼발
▁췌장
▁특검
▁한결
▁화정
▁회선
▁Fla
▁SNK
▁bes
▁남학생
▁닉네임
▁몽구스
▁볼거리
▁봉화군
▁양천구
▁의왕시
▁재래식
▁정복자
▁지치부
▁천태종
▁카이퍼
▁현대식
▁활화산
▁고전주의
▁소방본부
▁아키타현
▁크리슈나
▁ㄴㅏㅅㅓㄹ
ㅂㅎㅣㄴㄷㅏ
▁ㄷㅚㄷㅗㄹㅇㅏㅇㅘㅆ
ㅁㅐ
ㅡㅂ
데나
부치
성장
타자
▁px
▁경서
▁내년
▁리토
▁불우
▁성황
▁시럽
▁시무
▁염원
▁완봉
▁이음
▁재거
▁정평
▁패닉
▁팩터
▁폰티
▁풍조
less
▁236
▁계산기
▁고속철
▁곰팡이
▁구덩이
▁대방광
▁마니아
▁메네스
▁미국식
▁벨라스
▁상징물
▁선교회
▁셀틱스
▁아루바
▁영남대
▁인덱스
▁토바고
▁파울리
▁페트라
▁헨리크
▁8859
▁국민은행
▁잉글리시
▁진핵생물
▁다이어그램
▁ㅅㅏㄹㅇㅏㅇㅗㄴ
▁ㅇㅏㄴㅣㅎㅏㄴㄷㅏ
GS
▁솥
무역
즈다
찰청
테로
▁KP
▁__
▁nd
▁갑과
▁노고
▁노정
▁대식
▁미제
▁방산
▁병설
▁안료
▁야고
▁언양
▁오치
▁우현
▁이가
▁인부
▁입궁
▁정창
▁페놀
▁하퍼
▁호도
▁후크
▁기차역
▁리포터
▁부딪히
▁사령탑
▁소득세
▁아메바
▁이와타
▁이코마
▁휘말리
투아네트
▁Fall
▁Year
▁대검찰청
▁적십자사
▁테크니컬
▁페르미온
▁Stand
▁ㄱㅓㄷㅡㄴ
to
모트
산역
소네
쓰카
임자
지방
era
led
▁광기
▁구정
▁봉투
▁비티
▁수론
▁심해
▁악사
▁어마
▁연변
▁오펜
▁재적
▁적국
▁주례
▁진부
▁체급
▁최창
▁켤레
▁퀴리
▁폴더
▁피보
▁한두
▁헬름
▁화천
프레임
▁304
▁ㅎㅔㅇ
▁경영난
▁광진구
▁마가렛
▁아카시
▁앙카라
▁정류소
▁제레미
▁파이퍼
▁현충원
프레이즈
▁로테르담
▁석불입상
▁시마네현
▁Beaut
▁Group
▁ㄱㅓㄷㅜㄹ
▁ㅁㅣㄹㄹㅕㄴㅏㅆ
▁ㅈㅜㄱㅇㅣㄴㄷㅏ
가드
강원
▁납득
▁도니
▁독보
▁로건
▁안현
▁접영
▁정촌
▁최익
▁타슈
▁터전
▁파평
▁폭설
▁항암
▁환수
네이터
ople
▁Aut
▁공로상
▁공손찬
▁드나들
▁리아스
▁명부전
▁무한히
▁문화상
▁스트링
▁제천시
▁주동자
▁충무공
▁카니발
▁프리즘
▁1822
▁그야말로
▁남중국해
▁레이놀즈
▁아킬레스
▁체임벌린
▁Girls
▁카운트다운
▁ㅅㅏㄹㅇㅏㄴ
험자
▁OM
▁가례
▁금석
▁기년
▁대작
▁똑똑
▁마담
▁멸치
▁배교
▁북청
▁분묘
▁사타
▁산국
▁샤크
▁스스
▁시복
▁아탈
▁용골
▁위인
▁융성
▁작별
▁청백
▁프릴
▁하청
▁한시
▁확증
▁415
▁470
▁Bus
▁OFC
▁res
▁ㅂㅜㅍ
▁기동대
▁도전자
▁뒷다리
▁로리타
▁루시아
▁르베그
▁반대자
▁승문원
▁신의주
▁일반직
▁중심가
▁튀링겐
▁파열음
▁홍길동
▁1620
▁마라도나
▁스티븐슨
▁전통문화
▁표현주의
▁Sweet
▁ㄸㅏㄹㅏㅇㅑ
▁ㅍㅕㅇㅅㅏㄴ
▁ㅆㅗㄷㅇㅏㅈㅕ
▁ㅈㅜㄹㅇㅓㄷㅡㄴㄷㅏ
댑터
소수
와프
운사
▁CI
▁LL
▁게스
▁남이
▁네빌
▁농수
▁뇌터
▁도의
▁레토
▁사경
▁신나
▁아센
▁에머
▁음파
▁절기
▁제과
▁해마
ㅕㅇㅑ
달레나
▁247
▁GUI
▁고릴라
▁관리인
▁데미지
▁삼척시
▁신중도
▁안무가
▁어댑터
▁의료진
▁주성분
▁지리지
▁콜로니
▁풀타임
▁후원회
ㅂㅎㅣㄹ
iness
▁1660
▁1811
▁비엔날레
▁아유타야
▁크리스트
▁푸앵카레
▁앙투아네트
AX
르겐
메데
음악
체계
키오
▁감귤
▁곧장
▁기모
▁남초
▁머드
▁밧줄
▁병약
▁본위
▁부석
▁순진
▁알자
▁약관
▁연개
▁우당
▁의기
▁잡이
▁직할
▁청대
▁출하
▁탈영
▁태고
▁허벅
슬레이
▁Bra
▁MGM
▁UFC
▁ㅁㅓㄹ
▁로고스
▁마이트
▁변경백
▁불포화
▁비슈누
▁서라벌
▁태안군
▁하루히
▁하행선
▁ㅈㅣㅇㅛ
▁포클랜드
득이
사토
▁면세
▁묵인
▁번안
▁벌목
▁본과
▁봉급
▁북키
▁산대
▁소다
▁양안
▁이괄
▁적립
▁조프
▁체액
▁치바
▁카포
▁쿼리
▁토큰
▁파수
▁폭락
▁플롯
▁후카
텐디크
▁Ret
▁광우병
▁군부대
▁데이비
▁성주군
▁세미놀
▁외로움
▁우주국
▁조로아
▁캐리어
lease
▁LGBT
▁Roll
▁보르네오
▁헨드릭스
▁White
▁ㄱㅚㄹㅗㅇ
▁그로텐디크
▁Direct
▁ㄱㅏㄹㄹㅏㅈㅣㄴㄷㅏ
▁댕
디니
무이
배상
차오
추리
토닌
asy
▁강론
▁강선
▁검진
▁고자
▁고함
▁김안
▁내력
▁노라
▁노크
▁몬티
▁백상
▁백양
▁아톰
▁약소
▁와우
▁웨버
▁자드
▁전가
▁토가
▁티토
▁피임
▁후송
디스트
▁345
▁런던탑
▁매개체
▁메디컬
▁방어전
▁사나다
▁수세기
▁은신처
▁일일이
▁자작곡
▁출입국
▁파이리
▁헬무트
▁흩어지
▁로버트슨
▁캔자스주
▁ㄷㅏㅈㅕㅆ
▁크리스티아
▁프리메이슨
fr
▁놉
▁렴
ㅎㅏ
시안
이라
판윤
▁KL
▁교조
▁내선
▁단총
▁비드
▁상술
▁선착
▁양준
▁언행
▁웅변
▁일절
▁전생
▁절지
▁채드
▁초간
▁태원
예비치
▁SHO
▁누리꾼
▁따라잡
▁법주사
▁부코바
▁수행자
▁시발점
▁신고식
▁실업자
▁암살자
▁오세아
▁이사금
▁임진강
▁정무직
▁플라잉
▁플렉스
ㄷㅏㄱㅏ
▁Miss
▁ㅇㅏㅅㅟ
▁마요르카
▁볼리바르
▁오카모토
▁ㄷㅏㄹㅝㅆ
▁ㅍㅕㄴㅐㅆ
▁한성부판윤
▁헤로도토스
▁ㄲㅗㅂㅎㅕㅆ
거북
통신
ald
erv
▁Fi
▁가트
▁각막
▁공진
▁루주
▁미마
▁불선
▁사재
▁소독
▁소성
▁스톱
▁아롱
▁오션
▁용융
▁초승
▁행상
▁화분
▁히우
에이터
▁710
▁Cry
▁ㅈㅟㄴ
▁갈루아
▁개혁가
▁능력자
▁다득점
▁다비트
▁비변사
▁산호초
▁스트롱
▁스트립
▁알레포
▁영월군
▁유스케
▁저마다
▁청송군
▁칼리프
▁패터슨
▁피아트
▁1610
▁1770
▁가니메데
▁꼭두각시
▁사다리꼴
▁스탠포드
▁스프린트
▁요시미쓰
▁ㅊㅣㅇㅎㅐ
▁하드리아누스
▁ㅇㅓㅇㅜㄹㄹㅕ
▁ㄷㅏㄹㄹㅏㅈㅕㅆ
▁Christmas
gg
렌트
산염
좌상
▁능히
▁다임
▁뒤쫓
▁무반
▁민트
▁방광
▁쇄도
▁씨방
▁육영
▁은유
▁자퇴
순양함
테우스
▁거북이
▁괘불탱
▁나이츠
▁넥서스
▁발표회
▁식물학
▁울진군
▁이데아
▁체세포
▁ㅈㅗㅂㅎ
▁루도비코
▁슬라이더
▁지주회사
▁컴포넌트
▁해운대구
▁ㄱㅟㅎㅏㄴ
▁ㅅㅣㄴㄷㅏ
ㅂㅗㅇㅣㄴㄷㅏ
가나
대상
뎅이
종합
타다
▁검소
▁기력
▁끊기
▁라타
▁룰라
▁무모
▁물산
▁박창
▁배스
▁배추
▁부로
▁비파
▁스필
▁엑소
▁완승
▁입건
▁죄책
▁진종
▁첨탑
▁페미
▁한나
▁형평
▁효령
▁243
▁나이키
▁바우어
▁쑤저우
▁오다큐
▁포커스
▁프로메
▁히라이
▁ㅋㅣㄱㅏ
▁미쓰나리
▁아뢰야식
▁오리건주
▁포메이션
▁해군기지
▁ㅈㅣㅋㅣㄴ
▁ㅌㅓㅈㅕㅆ
▁ㅎㅔㅇㅏㄹ
▁ㅅㅡㅂㅎㅏㄴ
디브
예트
nal
▁공역
▁근신
▁난시
▁라싱
▁링스
▁막히
▁말살
▁문맹
▁별시
▁비노
▁수보
▁에콜
▁유향
▁일인
▁조업
▁충만
▁판시
▁피레
▁흥업
레인지
메랄드
▁마린스
▁마주치
▁목적물
▁분석가
▁불가침
▁수송선
▁시흥군
▁유의미
▁이스타
▁인천시
▁임실군
▁주둔군
▁카시오
▁클랜시
▁페루자
니아누스
▁1604
▁마쓰야마
▁소행성대
▁에메랄드
▁Elect
▁크리에이터
▁ㅇㅏㅍㅅㅓㅆ
▁ㅈㅜㄹㅇㅣㄴ
▁ㅇㅡㄹㅕㅁㅕㄴ
sy
떡잎
랴쿠
문제
청사
태후
▁AH
▁공교
▁기입
▁덴분
▁맥라
▁목초
▁백스
▁봄바
▁북두
▁분말
▁상봉
▁스컬
▁신채
▁액면
▁어순
▁어택
▁의관
▁자화
▁작은
▁조진
▁중임
▁차인
▁토번
▁통째
▁팬터
▁후륜
▁Mat
▁pop
▁김종서
▁끓는점
▁대구시
▁동해안
▁물방울
▁위그노
▁이방원
▁자연법
▁제이컵
▁졸업식
▁최고봉
▁카디프
▁크로마
▁클랩튼
▁하우젠
▁험프리
▁헤럴드
ㅁㅗㄴㅏㄴ
▁ㅁㅓㅁㅊㅝ
▁ㅇㅣㄹㅏㅇ
▁ㅇㅣㅂㅎㅕ
▁에르난데스
▁이바라키현
▁GeForce
▁ㅇㅏㄹㅇㅏㅊㅏㄹ
CE
▁갇
노미
엑스
잭션
fin
▁Ca
▁HM
▁Tu
▁거동
▁굽히
▁매혹
▁메티
▁명신
▁선국
▁순무
▁엘베
▁이징
▁조간
▁통설
토니오
oman
▁간사장
▁더더욱
▁데이지
▁동음이
▁모회사
▁전시실
▁참나무
▁최신형
▁코카인
▁특별상
▁홀랜드
▁확장팩
▁3500
▁Comm
▁나카소네
▁타카하시
▁트랜잭션
88
mb
뮤다
소송
워프
▁Na
▁고신
▁귀도
▁나그
▁네리
▁다도
▁등각
▁디리
▁로아
▁사포
▁오모
▁키츠
▁페름
▁하양
레흐트
▁930
▁NCA
▁경시청
▁동호회
▁로비치
▁마르키
▁마자르
▁버뮤다
▁블랙번
▁영양소
▁오랜만
▁우익수
▁유원지
▁이동해
▁인스트
▁재건축
▁전리품
▁중남미
▁초음속
▁출루율
▁침례교
▁카펠라
▁한림원
▁ㄴㅏㅇㅛ
▁ㅊㅏㄹㅕ
▁드래곤볼
▁봅슬레이
▁석불좌상
▁스테파니
▁오피스텔
▁ㄱㅡㅂㅎㅏㄴ
▁ㄲㅡㄹㄹㅕㄱㅏㅆ
▁ㅍㅓㅈㅕㄴㅏㄱㅏㅆ
bc
ka
ㅊㅓ
닝스
렐리
민관
사의
조프
▁Us
▁계양
▁교세
▁그렉
▁늦추
▁만회
▁문선
▁방망
▁성금
▁스팟
▁양화
▁어지
▁장호
▁점막
▁정각
▁주당
▁질식
▁카제
▁크롤
▁탄창
▁탱고
▁표수
▁플린
▁혈당
▁호성
▁화법
▁Mem
▁mac
▁드래그
▁마르텔
▁무용수
▁부적합
▁수사학
▁시리얼
▁재경기
▁전교조
▁중시조
▁쥐라기
▁카메오
▁IDOL
▁ㄹㅏㅇㅑ
▁아흐마드
▁에이로쿠
▁요시노리
▁중심주의
▁통정대부
▁ㅂㅕㄴㅎㅏㄹ
▁ㅃㅗㅂㅎㅣㄴ
▁캐치프레이즈
ml
▁깍
군트
규어
록스
세나
진흥
텔라
트만
BSD
▁QS
▁고케
▁귀의
▁낙후
▁답습
▁뜻밖
▁방재
▁샤론
▁서얼
▁스펠
▁양복
▁역수
▁요일
▁우량
▁육신
▁초토
▁테디
▁특무
▁팔달
▁푸이
▁피격
▁허준
▁협찬
▁후아
ents
▁달리기
▁로지스
▁몰디브
▁배급사
▁빈번히
▁에어컨
▁중합체
▁통감부
▁통행료
▁호시노
▁고생물학
▁부르군트
▁아드리안
▁지그문트
▁핀란드어
▁ㄷㅓㅍㅇㅣㄴ
▁ㅈㅏㄱㅇㅣㄴ
▁ㅉㅗㅊㄱㅕㄴㅏㄴ
▁겟
▁찹
▁폄
디시
밴드
▁LM
▁괴담
▁낙성
▁대함
▁램지
▁반짝
▁봉행
▁에라
▁옷감
▁웨스
▁종성
▁증조
▁카게
▁파베
롭스크
부쿠로
즈베리
aven
ible
▁공급원
▁랜더스
▁브라흐
▁비스듬
▁시그널
▁이홍장
▁인디펜
▁인텔리
▁지하실
▁타이타
▁헤어지
▁1519
▁1829
▁약사여래
▁탄화수소
▁파우스트
▁세바스티안
▁파이프라인
▁플루오린화
▁ㄱㅏㅈㅊㅝㅆ
▁프라이부르크
▁ㄴㅔㅁㅗㄴㅏㄴ
▁ㄷㅗㅁㅏㅇㅊㅣㄴ
▁ㄲㅡㄹㅇㅓㄷㅡㄹㅇㅕㅆ
더미
아과
아스
팬지
▁공허
▁군장
▁기선
▁두건
▁목련
▁몸소
▁사저
▁성비
▁소추
▁손견
▁신혼
▁왕사
▁유코
▁자회
▁징시
▁초의
▁코피
▁티크
▁표식
▁회개
illa
▁286
▁307
▁DDR
▁노히트
▁디오니
▁맥라렌
▁메콩강
▁미즈키
▁밀려나
▁백혈구
▁법률가
▁설계도
▁아그리
▁아스트
▁유난히
▁장성군
▁통찰력
▁플리트
▁히카리
▁1827
▁chem
▁네바다주
▁니코니코
▁롯데월드
▁조지아주
▁Staff
▁Story
▁Under
▁Young
▁ㄷㅏㄷㅏㄹ
▁Season
▁일러스트레이터
KO
▁숯
고원
스컵
und
▁UH
▁가늠
▁검문
▁고다
▁고배
▁데바
▁바브
▁방벽
▁신심
▁영안
▁완구
▁저속
▁정민
▁중정
▁청혼
▁체신
▁태인
▁하숙
▁홍영
마리아
▁고케닌
▁공백기
▁김성근
▁도호부
▁레시피
▁레이지
▁링네임
▁마르타
▁사마르
▁세이프
▁수리남
▁에리카
▁엘레나
▁초승달
▁침팬지
▁클로버
▁파비아
▁판문점
▁헤이시
▁후보자
▁Kiss
▁STER
▁갑오개혁
▁고스란히
▁달마티아
▁안티오코스
▁위트레흐트
▁챔피언스컵
ㅓㅈㅣㄴㄷㅏ
▁ㅁㅗㄹㄹㅣㄴ
▁젼
쓰구
이행
콜리
▁Er
▁검술
▁녹지
▁대잠
▁도살
▁라나
▁백군
▁벌집
▁베츠
▁불기
▁상량
▁아헨
▁역원
▁완치
▁원담
▁음표
▁잡식
▁창극
▁충적
▁피쉬
▁핑거
▁휴스
▁246
▁Sur
▁UFO
▁다이요
▁드리블
▁반역자
▁보험료
▁부주석
▁분당선
▁생활비
▁연수원
▁영락제
▁커플링
▁콜롬비
▁흥덕구
ㄱㅓㄴㅏ
▁BEST
▁char
▁리처드슨
▁상무위원
▁알카에다
▁어셈블리
▁올림푸스
▁자연환경
▁이슬람교도
▁ㅎㅏㅂㅎㅏㄴ
▁유스티니아누스
▁American
li
▁싼
처치
▁거류
▁교로
▁낭트
▁내뿜
▁배격
▁손톱
▁실외
▁양봉
▁와의
▁원회
▁정묘
▁제강
▁청담
▁파지
▁후국
▁TTC
▁공격기
▁권위자
▁발루아
▁전도사
▁존재감
▁청양군
▁흘러드
▁1823
▁디아블로
▁아데노신
▁익스트림
▁칼뱅주의
▁Child
▁ㅎㅐㅈㅣㅁ
▁카트라이더
▁ㅋㅓㅈㅣㄴㄷㅏ
▁캬
코지
하드
▁GA
▁군체
▁난류
▁동중
▁매클
▁목과
▁서프
▁석주
▁알랭
▁양키
▁유허
▁제호
▁천둥
▁흑해
바르드
사무소
프로스
▁251
▁288
▁302
▁EXO
▁근위대
▁레드불
▁목욕탕
▁문화부
▁분류법
▁세라믹
▁수개월
▁스쿼드
▁아미르
▁아쉬움
▁옥천군
▁우에다
▁털어놓
떡잎식물
르크세스
▁1018
▁1598
▁동부승지
▁실증주의
▁안드레스
▁황소자리
▁크세르크세스
▁ㄴㅏㄱㅏㅆㅇㅡㅁㅕ
▁럿
▁숍
▁춥
▁츨
구로
사위
헤르
▁격납
▁뉴딜
▁레빈
▁매점
▁병상
▁석성
▁아덴
▁왜관
▁채찍
▁친위
▁킹덤
▁폐포
▁홍가
▁화형
▁285
▁Lee
▁PCI
▁map
▁뉴타운
▁당진시
▁버팔로
▁베르토
▁사타케
▁아르투
▁여행기
▁유리창
▁자연석
▁장수군
▁장애인
▁횡성군
축구연맹
▁Spec
▁자동차도
▁대하드라마
▁ㄱㅏㄹㅡㅊㅣㄴ
▁젱
글러
더넷
도치
롭스
십리
▁JO
▁ㅈㅠ
▁골대
▁닥치
▁단가
▁레진
▁목공
▁반승
▁부토
▁서무
▁소호
▁시화
▁암행
▁염분
▁영인
▁전우
▁전패
▁조도
▁출원
▁피폐
▁히든
▁615
▁메이든
▁반자동
▁소유스
▁아세안
▁이고르
▁이더넷
▁지상군
▁진달래
▁판무관
▁1689
▁1750
▁Inter
▁ㄲㅡㅌㄴㅏ
▁스테인리스
▁ㅇㅣㄹㅇㅡㅋㅕㅆㅇㅡㅁㅕ
VF
딩턴
bit
▁jp
▁개점
▁갤리
▁국조
▁나눗
▁단형
▁뒤덮
▁록과
▁론도
▁말초
▁백기
▁베텔
▁스캐
▁실기
▁암묵
▁오군
▁원죄
▁위서
▁일찌
▁집요
▁최현
▁츠나
▁칭화
▁쾌거
▁히젠
스턴트
▁242
▁GSL
▁LNG
▁Val
▁겐로쿠
▁동래구
▁복사본
▁성악가
▁신천지
▁유사시
▁이나바
▁장방형
▁제곱근
▁주택가
▁확장자
▁mark
▁분청사기
▁요시모토
▁요한네스
▁주니어스
▁핼리팩스
▁호나우두
▁ㅂㅣㄱㅕㅆ
▁에뮬레이터
▁ㅁㅜㄷㅎㅣㄴ
▁ㅅㅡㄹㅓㅇㅜㅁ
31
by
▁궈
자매
▁기거
▁농상
▁로토
▁반디
▁반부
▁삼색
▁쇼어
▁수크
▁식욕
▁신월
▁쌍극
▁우발
▁이쪽
▁잎겨
▁적위
▁차고
▁참지
▁태초
▁통달
▁피복
ㅁㅓㄴ
▁580
▁고기압
▁나눗셈
▁메이스
▁불국사
▁성전환
▁처인구
▁총인구
▁틀림없
▁협력자
▁후이족
▁Last
▁구이저우
▁기요모리
▁뉴저지주
▁오리온스
▁하세가와
▁하토야마
▁헤이세이
▁Party
▁ㅇㅓㄺㅎㅕ
▁잎겨드랑이
▁ㄱㅕㅁㅎㅏㄴ
▁ㅊㅓㅎㅏㄴㄷㅏ
▁넛
나디
mun
▁고흐
▁공언
▁광의
▁금수
▁대보
▁대운
▁도바
▁리전
▁막심
▁반출
▁빈부
▁생강
▁샤흐
▁수운
▁시추
▁식초
▁예니
▁요로
▁용강
▁의창
▁임직
▁작풍
▁재촉
▁접점
▁조양
▁지롱
▁충효
▁카산
▁크렘
▁특질
▁희종
나이더
다이스
절제사
soft
▁Cap
▁dis
▁교육법
▁니시노
▁대축일
▁디제이
▁로이터
▁베르겐
▁분당구
▁상층부
▁알렉상
▁중립국
▁쥐아과
▁한국사
▁1774
▁ㄱㅓㅊㅓ
▁ㅆㅏㅇㅕ
▁마르코프
▁스나이퍼
▁스타워즈
▁아칸소주
▁해방전선
▁style
▁ㄱㅓㄷㅡㅂ
▁ㄷㅗㅇㅜㄴ
▁조로아스터
▁ㅅㅓㄴㅎㅏㄴ
▁ㅅㅓㅂㅜㅌㅓ
▁ㄷㅓㄹㅏㅁㅕㄴ
▁National
▁ㅎㅐㅇㅎㅐㅈㅣㄴㄷㅏ
96
▁CW
▁당근
▁메흐
▁면책
▁배위
▁부차
▁상형
▁샤토
▁앙겔
▁연의
▁연전
▁예지
▁주영
▁촘촘
▁치프
▁컬럼
▁해답
▁해미
▁협공
▁후금
베스트
ends
▁URL
▁곡성군
▁역사관
▁전화기
▁정의역
▁최고점
▁커맨드
▁ㄴㅗㄹㅕ
▁ㄷㅏㄴㅣ
▁도치기현
▁마르티노
▁바르바로
▁ㅈㅣㄴㅐㄹ
▁테오도시우스
▁ㅇㅓㅇㅜㄹㅓㅈㅕ
▁ㅇㅏㄹㄹㅕㅈㅕㅆㅇㅡㄴㅏ
UB
▁뤽
새우
장치
▁-"
▁경련
▁고심
▁데빌
▁레테
▁부팅
▁빅스
▁사루
▁세심
▁수각
▁스맥
▁슬립
▁아커
▁악성
▁이왕
▁주범
▁진척
▁쪼개
▁차녀
▁택배
▁펜타
▁평점
▁하도
빌리시
▁고이치
▁로그인
▁미라이
▁버추얼
▁법체계
▁상당구
▁신정부
▁엄정화
▁오스본
▁윤봉길
▁퀘벡주
▁테일즈
▁피터슨
▁Take
▁트빌리시
▁ㅂㅓㄹㅇㅣㄹ
▁ㅂㅐㅇㅝㅆㅇㅡㅁㅕ
ms
델리
분리
▁강직
▁교습
▁남사
▁닫힌
▁리의
▁막사
▁비축
▁산골
▁생동
▁숙적
▁시프
▁암각
▁이티
▁임수
▁자강
▁조스
▁중턱
▁캘러
▁캘리
▁토와
▁후불
▁휴즈
▁흐리
망원경
의사당
gram
ould
▁252
▁295
▁403
▁JYP
▁Son
▁per
▁그라드
▁라이플
▁루치아
▁볼프스
▁세자빈
▁아사노
▁알자스
▁에라스
▁윌리암
▁이기붕
▁지급시
▁집행부
▁카시니
▁커스텀
▁플라워
▁1603
▁1617
▁1624
▁Come
▁ㅆㅢㅇㅝ
▁간선도로
▁바이너리
▁이와쿠라
▁인스턴트
▁중성자별
▁남해고속도로
▁ㅁㅗㄹㅡㄴㄷㅏㄱㅗ
▁륭
소나
쿠프
틸라
lus
oon
▁CB
▁강주
▁건재
▁고슴
▁곱하
▁과당
▁군축
▁남우
▁넬리
▁노장
▁대미
▁롬멜
▁물망
▁박노
▁벤조
▁삼지
▁석고
▁아웅
▁악수
▁양립
▁오무
▁우바
▁원환
▁정안
▁정윤
▁천동
▁한가
▁행의
▁혜종
▁후부
ㄷㅏㄱ
arth
▁고조부
▁대유행
▁도함수
▁미라클
▁빨치산
▁소비량
▁오세훈
▁적당히
▁종교인
▁킹스턴
▁평가전
예술종합
ATION
▁Want
▁무하마드
▁베트남어
▁스테이크
▁올리비아
▁큰곰자리
▁color
▁ㄷㅏㄷㅎㅕ
▁북키프로스
예술종합학교
▁ㅌㅡㄹㄹㅣㄴ
▁한국예술종합학교
▁잿
루치
막이
몬테
펄스
▁NR
▁각류
▁각칙
▁경미
▁벤트
▁보닌
▁보부
▁소의
▁어획
▁장판
▁종인
▁트렉
▁행장
▁호퍼
벌랜드
▁274
▁670
▁add
▁리에주
▁불러오
▁세이지
▁신이치
▁알타이
▁야마나
▁에나쓰
▁키르케
▁트러스
▁헤르츠
리니스트
▁Core
▁고슴도치
▁아이러니
▁아이치현
▁액세서리
▁외무대신
▁케이블카
▁크라쿠프
▁There
▁이케부쿠로
▁바이올리니스트
▁ㄷㅡㄹㅓㄴㅐㄴㄷㅏ
▁ㅂㅏㄷㅇㅏㄷㅡㄹㅇㅣㄴㄷㅏ
ki
로빈
바니
신경
츠카
흥사
▁HC
▁결산
▁꿀벌
▁남정
▁네발
▁대모
▁도굴
▁도수
▁들려
▁루블
▁루체
▁솅겐
▁실학
▁실형
▁여산
▁연원
▁윤정
▁참회
▁통풍
▁품위
▁할레
▁현세
▁호군
레이저
▁910
▁PHP
▁ㅍㅐㄴ
▁강북구
▁갤러거
▁고품질
▁관리원
▁베르가
▁사업장
▁신속히
▁에가와
▁응원가
▁재규어
▁지부장
▁최강전
▁ㅇㅣㄺㅎ
▁ㅍㅣㅊㅣ
▁페르디난도
▁ㅁㅏㄴㅇㅡㄹ
▁ㄷㅏㄹㄹㅏㅈㅣㄴ
48
UE
yo
▁헵
ㄷㅡ
멜로
박해
삼국
임관
ISC
▁Oh
▁가운
▁남연
▁뇌전
▁대호
▁상좌
▁소백
▁수달
▁스베
▁시해
▁영변
▁예스
▁오송
▁완고
▁유마
▁천일
▁케미
▁풍년
▁하진
▁화차
rown
▁ITV
▁Que
▁Som
▁가만히
▁구치소
▁기술원
▁데려가
▁리간드
▁발원지
▁살인범
▁서태후
▁소대장
▁솔리드
▁유위법
▁이용해
▁제자리
▁투성이
▁ㅅㅣㄴㅈㅣ
▁코네티컷주
▁ㄱㅜㄷㅎㅕㅆ
▁ㅎㅣㅁㄷㅡㄹ
DC
발리
셔츠
▁IG
▁권상
▁김책
▁내심
▁대추
▁류지
▁산전
▁석관
▁성무
▁슈리
▁예부
▁외측
▁육로
▁전립
▁차륜
▁철조
▁청서
▁펀딩
▁편이
▁포물
ㅇㅣㅋ
▁경전선
▁공고히
▁맞춤법
▁매카시
▁문경시
▁새마을
▁소문자
▁수없이
▁수용액
▁에미넴
▁에번스
▁지대공
▁축구장
▁코뿔소
▁트란실
▁티라노
▁프리마
▁한양대
▁나카야마
▁베네딕트
▁스맥다운
▁주체사상
▁중선거구
▁코스모스
▁팟캐스트
▁ㄱㅡㄱㅓㄴ
▁ㅂㅏㄷㅊㅕ
▁ㅇㅣㄹㄲㅏ
▁국회의사당
▁와카야마현
▁트란실바니아
▁ㅂㅗㅇㅣㄴㄷㅏㄴㅡㄴ
▁퀀
경사
ada
▁RB
▁ㅆㅘ
▁결절
▁광구
▁교행
▁도농
▁러쉬
▁바움
▁비가
▁사암
▁샬롯
▁스팸
▁유경
▁자마
▁자임
▁진경
▁최명
▁코브
▁팽팽
▁풍물
사회당
▁248
▁ㅂㅜㅅ
▁고아원
▁기흥구
▁무색계
▁문학관
▁받침대
▁발사기
▁부유층
▁앞다리
▁클레멘
▁후쿠치
▁Boys
▁Club
▁Park
▁long
▁오리엔트
▁전기철도
▁ㅇㅣㄱㅎㅕ
▁ㅇㅣㄹㅡㅁ
▁볼프스부르크
▁ㅈㅣㄴㄷㅏㄴㅡㄴ
▁ㅅㅣㅋㅣㄴㄷㅏㅁㅕㄴ
미도
예스
토키
▁*/
▁갇히
▁감바
▁게티
▁글라
▁금연
▁기화
▁김무
▁남중
▁남침
▁대격
▁대당
▁디미
▁라싸
▁레시
▁리세
▁린스
▁멸시
▁민수
▁변절
▁샐리
▁이피
▁장문
▁청해
▁친부
▁쿠즈
▁파마
스코샤
▁USD
▁ㅈㅟㄹ
▁동급생
▁로터리
▁무한대
▁슈테판
▁스테드
▁알버트
▁오른팔
▁오야마
▁완전열
▁요시마
ㅇㅘㅅㅓ
안토니오
erson
▁1080
▁1650
▁1758
▁스페인인
▁절지동물
▁호그와트
▁Radio
▁ㄴㅗㄹㅣㄴ
▁ㅉㅣㄱㅎㅕ
▁독립선언서
▁우주망원경
▁ㅈㅣㄴㅏㄱㅏㄴ
▁룹
대리
덕동
문예
웰스
▁가재
▁감도
▁관보
▁다녀
▁랠프
▁리암
▁발하
▁밤낮
▁변함
▁분동
▁비결
▁비나
▁사행
▁설파
▁수형
▁스나
▁실러
▁심청
▁옹기
▁장손
▁증득
▁체전
▁탐진
▁폐선
▁황진
리스크
iano
▁308
▁346
▁경전차
▁고령군
▁그라스
▁남북국
▁다방면
▁도시락
▁리버티
▁매뉴얼
▁목적어
▁미네랄
▁보건부
▁비너스
▁오라클
▁월간지
▁이세민
▁전용선
▁컨버터
▁허벅지
오세티야
▁ㅋㅣㄹㅡㄹ
▁가이드라인
▁노바스코샤
ex
레트
요스
의지
총사
lad
▁건원
▁국을
▁권속
▁기강
▁기우
▁답사
▁당인
▁도브
▁딱히
▁또래
▁레슨
▁바주
▁박규
▁사대
▁신야
▁신오
▁야훼
▁예브
▁예테
▁요는
▁익룡
▁자포
▁토속
▁혈장
ㄷㅚㄹ
드리치
클레어
iter
obal
ters
▁312
▁PSV
▁과천시
▁달라붙
▁돌핀스
▁몬태나
▁산토스
▁상행선
▁순서수
▁스플릿
▁신청서
▁인버터
▁장보고
▁축전기
▁클로스
▁헌병대
▁2025
▁미야모토
▁브레스트
▁슈퍼마켓
▁신춘문예
▁예테보리
▁오디세이
▁전륜구동
▁처녀자리
▁크레이지
▁ㅇㅜㄹㄹㅕ
▁박스오피스
▁ㅈㅏㅁㄱㅡㅁ
▁ㄷㅏㄹㅇㅏㄴㅏ
46
VE
긴스
노바
반응
비지
숨에
슨스
시기
SQL
con
oul
▁나로
▁듀란
▁산로
▁산모
▁속속
▁안지
▁왜소
▁정위
▁제제
▁청어
▁초라
▁최연
▁컬트
▁탈북
iful
▁MiG
▁und
▁단숨에
▁대공포
▁리어스
▁소화기
▁신고전
▁아와지
▁알바로
▁오타쿠
▁직제학
▁채권법
▁최충헌
▁화산재
▁회사법
▁훈련기
▁1786
▁마이너스
ㅁㅐㄷㅚㄹ
▁ㅇㅖㅃㅡㄴ
▁남오세티야
▁알렉상드르
▁ㅂㅏㄹㅁㅐㄷㅚㄹ
▁ㅇㅏㄹㅇㅏㅂㅗㄹ
▁ㅆㅏㅇㅝㅆㅇㅡㄴㅏ
▁ㅅㅐㅇㄱㅕㅆㅇㅡㅁㅕ
▁ㄴㅏㅌㅏㄴㅏㅆㅇㅡㅁㅕ
대륙
돋움
물관
아라
울림
rib
▁gl
▁결방
▁금은
▁동고
▁미남
▁시파
▁예절
▁왜건
▁유탄
▁조군
▁조음
▁청국
▁체형
▁치욕
▁훌라
▁269
▁318
▁가드너
▁구리시
▁녹는점
▁다가가
▁로페즈
▁부총장
▁상대편
▁서강대
▁승강기
▁아래층
▁아바타
▁어쩌면
▁와이즈
▁이치카
▁제러미
▁톰프슨
▁회의실
▁1413
▁1506
▁1781
▁NCAA
▁PROD
▁우즈베크
▁David
▁ㅅㅏㅅㅣㄴ
▁보수주의자
▁스프링필드
▁오카야마현
▁ㅎㅐㅇㅘㅆㅇㅡㅁㅕ
LD
교구
라다
참모
fer
▁UM
▁개구
▁경동
▁고경
▁괴인
▁김이
▁넉넉
▁라만
▁미정
▁병무
▁봉지
▁비엘
▁상냥
▁선망
▁성관
▁성터
▁순결
▁아고
▁아길
▁알선
▁애들
▁역내
▁외성
▁요란
▁정영
▁캄차
▁퇴원
▁팬더
▁협소
▁휘장
▁고려조
▁구속력
▁구한말
▁나무과
▁당상관
▁라이어
▁사용법
▁샌더스
▁스키장
▁시에나
▁아오키
▁조에쓰
▁죄책감
▁지휘부
▁철광석
▁헨더슨
▁휴식기
ㅜㄹㅡㄴ
ember
▁temp
▁will
▁아시아나
▁차례차례
▁청소년기
▁입헌군주제
▁ㄴㅗㄹㄹㅏㅆ
▁ㄱㅏㄹㅣㅋㅣㄹ
▁ㅃㅐㅇㅓㄴㅏㄴ
▁레트로바이러스
▁께
성사
ube
▁관등
▁관작
▁군포
▁권신
▁대남
▁물색
▁배선
▁병용
▁불공
▁서도
▁선례
▁스도
▁스푸
▁시지
▁십육
▁에브
▁임씨
▁재치
▁종시
▁킬링
▁회도
▁241
▁276
▁299
▁490
▁OBS
▁TNT
▁감비아
▁건축학
▁고위직
▁도로망
▁드리스
▁문제삼
▁법화경
▁부산항
▁사야카
▁사유지
▁수영복
▁오두막
▁체르노
▁총연장
▁추징금
▁코브라
▁표시기
▁함평군
▁형태학
▁1785
▁Band
▁니시무라
▁드와이트
▁리얼리즘
▁ㅁㅏㅈㅇㅏ
▁안달루시아
▁카보베르데
▁ㄱㅡㄱㅎㅏㄴ
▁ㅇㅡㄴㅣㄲㅏ
▁동지중추부사
▁아시아나항공
▁하우스도르프
▁ㄴㅓㅁㅇㅓㅅㅓㄴ
▁ㅁㅗㄹㅇㅏㄴㅐㅆ
▁ㅎㅡㅌㅇㅓㅈㅣㄴ
35
다코
사람
100
▁교유
▁김중
▁나경
▁다빈
▁단맛
▁동단
▁망고
▁맞은
▁문익
▁변칙
▁분전
▁순경
▁어법
▁일소
▁자구
▁작정
▁차갑
▁탁자
▁태산
▁토륨
▁트릴
▁팔츠
▁하바
▁해달
▁헤밍
▁호앙
로니키
평장사
▁581
▁가창력
▁거듭나
▁모퉁이
▁바이크
▁발돋움
▁볼츠만
▁서고트
▁스콜라
▁알레한
▁제니스
▁지배력
▁총면적
▁치타스
▁파도바
▁피난처
earch
▁1618
▁Mach
▁ㄹㅣㅇㅏ
▁테살로니키
▁ㅌㅐㅇㅓㄴㅏㄴㄷㅏ
ㄱㅘ
렉틱
벨리
윳값
이익
킹엄
▁==
▁강산
▁굽타
▁귀결
▁노모
▁뒷산
▁방편
▁백선
▁백호
▁서수
▁성소
▁슐츠
▁신태
▁실세
▁여제
▁위정
▁입소
▁전연
▁타츠
▁파테
▁포카
▁퐁텐
▁혈중
▁호자
▁홀트
▁히가
리아나
▁258
▁525
▁970
▁Sal
▁ㅇㅜㄱ
▁고윳값
▁득표자
▁버금가
▁보은군
▁불출마
▁사라왁
▁이상재
▁지요다
▁탈북자
▁하지메
▁흥천사
▁마쓰마에
▁미네르바
▁슈베르트
▁심플렉틱
▁요구사항
▁트리오스
▁에마누엘레
▁ㅂㅣㄹㄹㅣㄴ
▁루이지애나주
▁ㅆㅡㅇㅕㅆㅇㅡㅁㅕ
VB
게티
▁BA
▁Hy
▁JK
▁Kh
▁강신
▁강착
▁공납
▁군법
▁군신
▁노런
▁매키
▁목수
▁법명
▁베시
▁비견
▁석영
▁셜리
▁얼티
▁예르
▁유조
▁일전
▁접두
▁정방
▁첨사
▁허수
▁화질
▁회이
▁희석
▁254
▁GTX
▁고위급
▁바스티
▁부득이
▁사부로
▁생명력
▁수출품
▁스쿼시
▁아토스
▁오로치
▁요시키
▁자유시
▁파슨스
▁한라산
▁한자음
▁1590
▁1614
▁독립신문
▁서베를린
▁플로렌스
▁형제자매
▁ㅁㅣㄲㅡㄹ
▁오세아니아
▁ㅇㅘㅆㅇㅓㅆ
▁자유민주연합
▁ㅆㅏㅇㅜㄴㄷㅏ
공연
열왕
체육
▁간과
▁개창
▁관복
▁구진
▁금욕
▁몸값
▁무례
▁미개
▁번트
▁셰어
▁소질
▁신일
▁양곤
▁양말
▁예매
▁용성
▁위례
▁위층
▁전상
▁초속
▁촉탁
▁폭정
▁학산
▁행실
▁홀름
가사키
izza
▁279
▁324
▁730
▁경비원
▁마그나
▁사누키
▁선전관
▁시구르
▁여행객
▁저고리
▁주고쿠
▁체사레
▁퍼블리
▁편집인
▁필리포
▁히다카
▁News
▁ㅂㅣㅊㅝ
▁도미니크
▁순회공연
▁파이낸셜
▁프레스코
▁필라멘트
▁히로히토
▁ㄱㅓㄹㅇㅓ
▁와일드카드
▁ㅎㅐㅇㅎㅏㄹ
▁ㄹㅣㄹㅏㄴㅡㄴ
청년
호쿠
ift
▁GC
▁TW
▁가칭
▁내막
▁대야
▁레기
▁망각
▁무연
▁문희
▁부검
▁비숍
▁서성
▁선의
▁섬진
▁아귀
▁엑셀
▁외주
▁좌안
▁지마
▁혈증
▁협시
▁형량
▁후나
수수색
야구장
폴리오
▁Ext
▁JAP
▁KNN
▁나세르
▁누에바
▁다무라
▁돌출부
▁메구미
▁병리학
▁삽입곡
▁신채호
▁라인란트
▁새마을호
▁시구르드
▁압수수색
▁야마우치
▁인류학자
▁폴란드어
▁동음이의어
LO
▁긋
레르
시리
▁FP
▁국책
▁단바
▁동초
▁면밀
▁본연
▁사에
▁사외
▁셀틱
▁소상
▁송사
▁아전
▁오너
▁오소
▁와타
▁유후
▁장계
▁정법
▁정씨
▁조피
▁혼례
레이라
ache
▁cle
▁게시물
▁김장생
▁나탈리
▁동화사
▁막대기
▁방화벽
▁승하차
▁영상물
▁유프라
▁장학생
▁컴팩트
▁코시모
▁크누트
▁cent
▁text
▁유한회사
▁트러스트
▁Trans
▁ㅁㅏㅅㅣㄹ
▁유프라테스
▁PRODUC
▁ㅁㅗㅅㅎㅏㅁ
▁셍
벡스
소닉
irc
sch
▁LE
▁각급
▁강병
▁경조
▁니티
▁대내
▁라모
▁랍비
▁로베
▁만민
▁몸담
▁문왕
▁반스
▁섭외
▁시이
▁썸머
▁연남
▁영묘
▁오븐
▁조속
▁징조
▁코언
▁폴스
▁해골
▁행세
▁화족
베르투
안데르
프스키
ious
▁293
▁870
▁TBN
▁ㅂㅗㅌ
▁갈고리
▁경유지
▁맞은편
▁물리량
▁밑바닥
▁상공업
▁성삼문
▁아카드
▁엥겔스
▁출신자
▁칭하이
▁테라스
▁투수진
▁파이팅
▁햄버거
▁행렬식
▁0000
▁1609
▁NADP
▁로체스터
▁스키피오
▁요시마사
ㅇㅓㄴㅐㄴ
▁ㄱㅡㅊㅣㄴ
▁ㅃㅗㅂㅎㅕ
▁포트폴리오
감치
딩거
레로
버시
소총
양성
ERT
INE
▁ㅂㅚ
▁가다
▁격변
▁나돌
▁난항
▁당해
▁보필
▁불쌍
▁브룬
▁상왕
▁앰프
▁올슨
▁유어
▁음대
▁전능
▁정가
▁조재
▁천민
▁출옥
▁코만
▁피침
▁피폭
▁한식
▁허균
▁
▃
ㅇ
ㄴ
ㅡ
ㅏ
ㄹ
ㄷ
ㅗ
ㄱ
ㅔ
.
ㅓ
이
ㅣ
ㅢ
ㅎ
ㅆ
하
,
ㅕ
1
ㅅ
ㅐ
0
사
리
ㅁ
스
2
시
지
대
기
ㅘ
년
ㅈ
있
수
자
일
전
아
그
가
국
되
정
9
주
제
인
도
부
들
성
장
구
상
적
동
로
나
3
라
원
공
다
선
ㅂ
트
ㅜ
드
마
5
중
조
4
한
8
화
월
경
우
미
고
학
소
교
유
비
어
위
르
6
오
신
세
ㅚ
보
의
문
7
개
치
계
명
역
회
연
후
서
등
것
영
관
용
프
모
발
군
산
"
작
무
ㅌ
민
방
단
레
재
당
타
e
카
여
니
해
음
러
크
반
분
안
a
포
만
체
바
생
차
행
진
간
호
식
o
노
거
파
현
t
남
내
과
양
'
출
본
r
통
물
종
요
m
때
ㄲ
실
토
속
l
임
결
형
두
코
터
설
표
데
강
i
키
-
히
각
루
법
초
디
운
승
n
업
독
에
배
함
ㅊ
직
래
입
력
S
건
버
A
점
합
피
최
예
또
번
않
C
야
매
티
태
천
같
권
ㅋ
받
베
ㅟ
브
불
약
메
왕
면
말
목
격
u
립
록
판
s
감
투
심
더
금
청
추
북
항
활
없
평
ㄸ
네
외
집
특
언
저
즈
석
테
복
편
달
T
병
류
F
광
향
른
령
처
변
B
M
족
페
게
I
근
황
란
람
축
급
총
존
랑
송
열
많
c
름
능
김
술
론
박
참
질
철
쪽
f
g
별
D
준
환
증
및
ㅑ
악
창
울
알
P
품
E
;
절
살
육
곡
료
쿠
백
d
h
플
은
애
&
순
필
망
확
량
글
림
께
규
팀
머
N
색
극
탈
쟁
범
케
패
)
클
견
련
k
O
삼
올
L
랜
탄
와
R
ㅝ
째
충
려
쓰
K
린
너
손
막
책
p
_
완
G
봉
츠
협
(
날
션
접
V
돌
뒤
퍼
런
블
는
/
담
골
채
밀
측
혼
녀
온
ㅍ
럽
든
험
즌
암
곳
H
귀
찰
할
따
길
[
앙
U
]
취
y
씨
웨
첫
슈
워
새
뉴
친
슬
누
습
허
침
효
:
칭
획
널
뜻
높
응
난
락
착
엔
커
례
센
폭
검
징
~
b
죽
득
희
논
농
픽
헌
엘
캐
홍
벌
섬
퇴
풍
틀
폴
갈
%
잡
좌
택
W
층
폐
싱
압
움
념
덕
헤
즉
혁
윤
턴
율
슨
릭
ㅙ
못
텔
익
맡
염
찬
램
v
묘
컵
벨
얼
콘
링
궁
맹
잘
렌
균
몇
흥
훈
억
앨
끝
ㅃ
객
앞
옥
칼
을
빌
칸
먼
느
델
휘
얻
콜
빈
늘
엄
맞
맥
팔
J
쇼
숙
갖
푸
뷔
괴
줄
샤
핵
좋
w
볼
템
X
흐
률
컴
탑
액
룹
쥐
혹
욕
굴
롯
십
죄
칙
덴
ㄺ
몬
잠
촌
벽
척
갑
몸
략
몰
렉
잉
졸
핀
벤
맨
먹
휴
틴
몽
넘
잔
!
녹
홈
찾
뮤
끌
컬
폰
던
렇
힘
눈
털
륙
밴
놓
탁
둘
탕
혜
끼
멸
솔
풀
톤
Y
x
혈
홀
윈
팅
넷
셀
돈
컨
뿐
쿄
를
텐
둥
롤
낮
님
탐
톨
겸
퓨
딸
헨
럼
꾸
욱
촉
칠
곤
낙
콩
떤
앤
릴
꽃
펜
걸
밖
왜
랙
뇌
렬
겨
붕
읍
킹
옹
=
싸
튜
넓
덜
섭
융
붙
춘
ㅛ
윌
슷
셔
젤
듬
닝
헬
넣
흑
챔
땅
곧
쌍
빛
딩
멘
켓
즘
빠
팬
답
큐
멤
쇄
룡
듀
롭
짓
릉
밤
닉
웅
렵
ㄻ
뢰
뛰
떠
값
흔
깨
옛
랭
흡
튼
닌
납
씩
놀
롱
젠
랫
맺
젝
쉽
숭
겐
궤
z
펠
쉬
멜
빙
섯
+
깊
웹
핑
캠
웃
|
멀
킨
틱
셰
밍
으
닥
꼬
ㅉ
짜
빅
믿
밝
텍
뷰
까
긴
잇
덤
냐
잃
잎
찍
틸
멕
럭
엽
롬
쇠
뀌
짧
폼
삭
켈
끄
첨
릿
곱
혐
랍
Z
?
켄
낭
겪
삶
딘
촬
럴
숨
캘
힐
컷
Q
콤
옆
둔
밑
첩
곽
젊
싶
낳
셜
짐
킬
옷
꿈
냥
헝
룩
큼
냉
듣
닛
뉘
톱
엑
왼
믹
퀴
븐
빨
맛
즐
벡
띠
읽
숲
얀
ㅠ
잭
봄
혀
쿨
뱅
셋
묵
샌
뒷
닐
캄
랄
괄
엇
넬
엠
붉
둑
좀
웰
첼
슴
늄
밥
씬
튀
떻
톰
앵
탱
듯
팩
팽
뤼
픈
녕
숫
떨
뱀
늬
뜨
짝
j
렐
댄
캔
셈
렴
쌓
빼
쾌
찌
훨
옌
팝
춤
륨
겔
끊
횡
뿌
샘
앗
렘
갤
룸
덩
뼈
꼭
흉
벼
늦
륜
햄
룬
봇
펙
뚜
멍
깔
딕
윗
앉
탠
퀸
랩
륭
좁
깃
딜
힌
퀘
므
궐
첸
벗
쿼
흘
슐
윙
뮌
삽
q
홋
셉
긍
펄
렛
펑
흰
꼴
빗
쌀
훌
훗
녁
툰
닫
렀
*
꺾
듭
넥
돔
펀
끔
\
밭
깥
덮
섹
곰
셸
돕
빵
묻
낌
뽑
닷
툴
콧
쳐
톡
똑
갱
깝
뿔
훼
딱
팡
닭
늑
풋
{
띄
킷
콰
콕
맷
핸
컫
꼽
콥
힙
흙
쫓
룽
룰
뮬
핫
껍
킴
묶
넌
꾼
킥
벳
쏘
밸
큰
돼
굿
져
겉
굽
턱
엉
겁
며
럿
펼
샹
왈
빚
퉁
틈
캡
홉
탓
떼
렷
ㅀ
겹
뻗
눅
닮
옮
쯤
샬
꺼
쑤
끈
붓
릇
굉
릎
쉐
듈
옵
랴
칩
웬
앱
뇨
닿
놈
퐁
툼
펴
쩌
낱
슘
굳
푼
흠
챌
걷
갓
삿
톈
쓸
쥬
젖
딴
엣
펌
쿤
섞
쯔
싫
넨
#
걱
옐
팜
륵
솜
댐
얄
덟
짙
렁
멈
탤
$
얇
떡
뚫
굵
핍
헐
솟
덱
뚝
텀
둠
밟
쁘
맵
얘
댓
맘
캉
옴
ㅖ
밋
괘
햇
빔
촨
꽤
왓
픔
펫
횟
앓
슭
잦
벵
싯
멧
휠
}
벅
붐
꿀
짱
긋
팟
돋
냄
헥
켜
잊
덧
츄
씀
샨
ㄼ
ㄶ
땃
ㅄ
죠
튬
쏟
곶
맑
곁
`
몫
낫
텝
걀
팍
닦
맏
옳
ㅞ
뭇
캅
윅
꾀
끗
멋
엥
슛
쟈
랏
쭉
앰
뱃
핏
얹
눌
깎
팰
듐
뭉
믈
깐
뚱
볍
끓
캣
훙
귤
넛
촐
쾰
숀
귄
낚
섀
쿡
썬
렝
뻔
@
뫼
찮
뭄
욘
탬
뾰
갯
푹
셴
뮈
얕
싣
엮
녜
딥
샐
싹
돗
헛
줌
웍
렙
휩
펩
낸
늙
딧
삐
슌
탭
샵
훔
쾨
깜
볶
뇽
갚
펭
써
껏
촛
꽝
몹
퀼
췌
냅
짚
늪
큘
괌
짖
깁
츰
즙
숍
엡
쿰
훤
맬
롄
룻
썩
빽
퓌
넉
쁨
핼
뮐
꽂
잼
젯
뜸
쵸
잣
퀄
똥
뭐
뿜
촘
벚
슝
뤄
샴
팻
엿
샷
릅
씻
퓰
밧
젓
벙
껑
땀
멩
궈
켐
댈
욤
괜
뻐
윽
둡
튠
텅
츨
낡
댕
킵
뽀
꼼
뇰
깅
밈
썰
캇
멱
뎀
퀀
좡
^
뜯
쑹
랠
뜰
챠
팎
뮴
헴
맴
엌
웜
딤
쿵
썸
팥
뱌
캥
칫
뵈
왁
챙
꽁
굶
ㄵ
솥
댁
쑨
윔
갸
찢
챈
옙
뎅
쉘
훅
쐐
젬
퍽
쪼
얌
꿰
앳
넴
쉰
덥
씌
욜
딪
칵
뽕
깡
돛
콴
쥘
툭
쑥
놉
눔
힉
쩍
찻
찜
룀
팁
웁
캬
옅
늠
흩
볕
엎
읊
뺨
얽
겟
썹
쭈
샛
넵
쉴
팸
퀵
븀
숄
엷
쨌
텡
쉼
횃
딛
핌
꿇
쌈
웸
젼
펨
뺏
웡
텃
힝
춧
튿
눕
텟
씹
싼
된
땡
씽
댑
봅
깍
뻘
휼
꽉
눗
솅
쎄
랗
뱉
솝
냇
홑
꺽
갠
폄
뎃
뎬
뤽
윳
쥔
귈
켤
젱
꼰
됭
숯
쭤
뢴
륀
뜩
꿩
쩡
갇
찹
숏
텁
탸
줍
춥
맙
잿
륄
푀
헵
컹
꿉
셍
잖
볜
짤
볏
옻
묄
쏠
묀
넋
랸
얏
챕
긁
빡
땜
흄
굼
낵
녘
첵
좇
껌
몯
헹
꿋
뷸
햐
밌
놋
냑
얗
줏
쩐
핥
갬
짠
챗
뻣
짬
셤
탯
쳇
쥰
썽
툇
쌔
됨
쟝
탉
똘
낯
넝
덫
눙
갭
겜
닙
쿱
넙
췬
괭
ㅒ
쇤
젭
쭝
훠
쨩
쓴
귓
뷜
솽
콸
튤
찔
꾹
닳
긱
앎
뽐
윕
헷
폿
헉
뜬
껴
벰
쏙
몐
궂
팹
셩
욧
깟
찐
햅
늉
돤
펍
쳅
톳
뷴
괵
숟
섣
뗏
숑
믐
왑
잰
끽
푈
솁
닻
뵐
쳄
겅
듄
쁠
쥴
왐
긔
톄
힛
꿍
먀
짊
맣
갉
쬐
욥
꼿
샥
묽
챤
넹
뻑
칡
샅
쩨
쳉
놔
뺄
뺑
웩
껀
셧
뵤
왠
켁
퓸
죤
휨
뭍
륌
꽈
껫
쭐
뎁
떳
줘
갛
섐
쫄
댜
됴
뚤
팃
뻬
낼
빳
휫
뜀
틋
쾡
빻
윰
윷
쾅
퍄
땔
둬
츤
녓
뢸
웻
솀
씁
켕
퉈
섕
잽
찧
홰
믄
쫑
냘
멎
뵙
냠
좨
퓔
껄
퀜
쉔
웽
녠
꽌
켠
깻
띵
짼
빤
쩔
둣
뵘
햘
쉥
쟌
튈
뼛
밉
졍
쯩
뷧
빕
쿈
깽
꿔
쏭
쇳
얍
겊
뎨
땋
홧
졔
짭
뱁
꽹
먄
롼
섶
쿳
젋
훑
멥
삯
옘
줴
틍
혓
숱
겼
헙
듸
뻥
궬
뒬
똔
쭌
켑
쌩
찡
삵
쫒
묠
읏
푄
낟
뎐
붑
찟
룅
룔
씰
낏
봐
뷘
뿍
쳔
큅
큔
씸
쏴
깬
뒹
띤
묜
녤
떫
뚬
었
튕
틔
쑈
엾
굄
뇬
뽁
숩
읫
폽
쏨
젹
쇽
큄
툐
툠
갗
겡
벋
쉿
컥
뉼
닢
츈
쮸
툽
갔
듦
똠
횔
얉
뿡
낄
졈
숴
귬
룝
퇘
퇼
믜
뱐
퓐
빰
쌤
툉
푯
띔
섄
쏜
졀
짢
펏
뒨
뽈
솎
옝
쯕
촙
밂
쇨
좆
륑
벱
큉
뮨
싀
쾃
틂
갹
궉
셱
숌
슥
웠
튄
낀
낑
넒
쐬
캑
짇
덞
떵
짦
큇
녯
옇
욀
츳
캴
텨
뭔
뱡
쓱
였
훵
뗀
뼉
삥
얭
뵬
붇
쌕
쨍
덛
뿅
샾
쌉
썻
왔
쨋
쩜
퀠
틉
꾐
묑
뺌
옭
죈
죌
퇀
푁
햏
끙
뚠
춰
횬
휙
껩
꿎
뎡
딨
몌
ㄾ
귿
됸
땝
맟
묏
벧
볘
븓
븡
잌
젔
쫀
쳥
캰
쿌
큥
냔
븨
샙
웟
푤
흭
걔
겋
곪
랖
솃
쉑
곗
랼
뼘
솨
앏
윾
굠
떰
쏸
왬
챵
긷
놘
돝
똣
랐
싁
졉
텬
ㄿ
꺅
뤠
슙
읒
잴
졌
쳬
쳰
걍
겍
꾜
륍
슉
큭
킁
퇸
퍌
꽥
밞
킈
궃
귐
덖
릐
멓
섈
쉭
쌋
좐
죗
짹
춉
췐
곬
굣
귁
끎
녈
닑
닯
엳
읗
쟉
챨
쿽
탼
풰
겯
냣
됙
뜷
롹
몆
밎
뱟
뽄
삑
옯
췰
츌
했
햔
뀨
뉵
뉸
댠
뭣
믯
붸
쀼
쌰
았
읕
읖
쟤
찿
켸
햑
흗
ㄳ
괸
궨
녬
늡
뎌
듕
똬
솬
슯
읻
죡
쵤
춍
튐
핬
혠
훕
긑
늴
댱
돐
먁
셕
셥
왝
윁
읔
쥣
즁
쫌
틑
퍈
휀
겝
괼
굘
뇩
뒴
떱
룟
왱
좃
즛
쨈
쨔
쪄
쫙
찝
쾍
튱
꿘
뀍
녑
됀
묫
믕
섰
쎌
읓
졘
쳡
햣
겻
궜
낢
녔
밪
볓
뺀
삘
슾
옉
짯
쩬
쮠
챡
캪
텽
걲
뙈
뚧
륏
륩
맻
벛
앝
엹
읃
잍
잛
쭘
쯧
촤
퀑
큠
튁
푠
횐

꺄
꼍
뇸
뉙
뙤
뜽
뢱
밷
뻰
삔
솓
썅
쎅
쒸
욺
윱
촹
츔
퀌
턔
풂
햠
휜
ㄽ
겇
곯
꼳
눞
늣
딫
땐
맽
뱔
섁
슁
쏱
엤
왹
욍
읜
읺
짫
첬
츼
픙
귑
껸
꽛
눼
닏
뎜
듧
묭
묾
뵨
븜
빋
빱
뺐
뺘
쁜
삳
얶
엊
옜
왯
욷
읠
졋
죔
쨘
쭙
쮜
켯
콀
쾬
쿙
푕
휭
갣
겿
꿕
낻
뉻
닸
덪
돟
될
둗
듁
땟
뚯
띡
띨
랬
렫
렸
롐
룐
멉
벴
쌘
쏫
얆
얾
욋
웤
잏
잗
쫏
챰
쳑
컁
켬
콱
큽
탘
퍙
픠
햤
횻
곂
곈
곷
괏
깯
깸
꽅
꾿
넗
뉨
늗
닜
닺
됩
땁
땨
땸
떄
뙡
랟
럇
룁
몃
뭏
볻
봔
븍
뺴
뻴
섥
섿
슽
쌴
씼
엶
옫
옸
쟐
좔
짔
쩝
쬼
쯘
챱
촥
쵹
쵼
춋
쾀
톺
톼
퐝
혤
훽
걈
겆
곙
굥
깆
깩
꽆
꾕
넀
넢
넫
녇
닽
댛
덨
뎰
됫
뗑
럄
롸
뢨
먈
멂
몔
뫃
뮹
믓
믾
뷁
빝
샇
쇵
싻
쎙
쑜
욈
읆
쟂
쟙
젇
쩽
찓
쳘
쳣
춈
츅
츙
콛
콬
퀍
탙
텦
툿
튽
폘
햗
헿
홤
홥
횰
횽
휑
흝
흫
힁
갂
갘
걑
걺
곌
괂
깉
꺠
껭
껶
꽦
꾄
뀀
났
넖
녣
놰
뇻
늇
덝
뎍
뎦
돴
됄
됮
둄
뒸
듫
떽
뗴
띱
럅
렢
롈
뤀
뤗
륻
몄
뫄
밣
붘
뷕
븥
빎
뽓
뿟
삠
삡
삮
샏
섓
셖
솦
솻
쇘
숰
숳
쉉
쉡
쎔
쓔
앟
앧
얖
얺
엜
엵
욌
욯
윶
읭
읳
읹
쟘
졜
졷
좽
줫
쥠
쩄
쩰
쫜
쬔
쬬
찣
챦
쵝
츕
츩
콮
툥
튝
푱
풉
퓬
핟
핮
핶
핻
홛
홱
횄
횩
훍
훓
훝
흿
갃
걋
겂
겣
곅
곘
굑
굔
궅
귝
깂
깢
깹
껙
껼
꼇
꼐
꽐
꿏
끕
냡
넎
넡
넶
녝
뇔
뉫
늚
댤
덣
뎠
돎
돚
돵
돽
됏
둰
둴
둿
뒁
뒥
뒫
듥
딷
뗌
뗘
똫
뙨
뛔
뜌
띳
랒
럐
럔
렜
렡
롑
롓
뤌
맄
맆
맜
먗
먿
몀
몴
뫙
뭅
뭘
뭰
뮝
믏
믠
밒
밨
밫
밯
뱆
뱜
벉
봍
봘
뵉
뵷
붏
붖
붛
붜
붴
뷋
뺩
뺵
뼁
뼤
삣
삻
샂
샊
섦
셑
쇗
숡
숸
슼
싈
싰
싲
싾
쎕
쎴
쏩
쏳
쐇
쑴
쒜
쓿
씃
씉
앃
앋
얅
엩
옄
옰
옲
옺
왰
윘
윟
읅
읶
읿
잋
잩
젣
젿
죰
죵
줓
쥭
즤
짗
쨉
쩸
쫃
쫍
춴
췅
칲
칳
캌
캭
컈
켙
콙
퀏
킼
턀
텉
텥
톹
퇌
퇻
퉤
틧
팈
팯
퍅
퍠
폅
폔
폳
퐈
푣
풜
핔
핳
햊
햋
혔
혿
홅
홯
횓
횢
휄
휏
힜
갅
갆
갊
갋
갌
갍
갎
갏
갞
갟
갡
갢
갥
갦
갧
갨
갩
갪
갫
갮
갰
갲
갳
갴
갵
갶
갷
갺
갻
갽
갾
갿
걁
걂
걃
걄
걅
걆
걇
걉
걊
걌
걎
걏
걐
걒
걓
걕
걖
걗
걙
걚
걛
걝
걞
걟
걠
걡
걢
걣
걤
걥
걦
걧
걨
걩
걪
걫
걬
걭
걮
걯
걳
걵
걶
걹
걻
걼
걽
걾
걿
겈
겎
겏
겑
겒
겓
겕
겖
겘
겙
겚
겛
겞
겢
겤
겥
겦
겧
겫
겭
겮
겱
겲
겳
겴
겵
겶
겷
겺
겾
곀
곃
곆
곇
곉
곊
곋
곍
곎
곏
곐
곑
곒
곓
곔
곕
곖
곚
곛
곜
곝
곲
곹
곺
괁
괍
괕
괗
괠
굇
굦
굻
궇
궎
궘
궝
궡
궷
귯
긆
긜
긧
긪
긾
깄
깋
깓
깖
꺌
껠
껬
꼈
꼮
꾈
꿧
뀜
끟
낛
낣
낲
냤
넁
넏
넑
넚
넞
녋
녙
놃
놧
놩
뇍
뇓
뇜
눋
눝
뉩
늅
늏
늕
늩
늰
늿
닁
닞
닟
닠
댇
댔
댚
댝
댸
덙
덯
뎗
뎝
돇
돍
돓
돰
됍
됢
됰
됼
둉
둏
둙
둚
둟
둧
뒵
듲
듳
듹
듼
딀
딈
딭
딯
딲
땍
땽
떘
떙
떢
떥
떦
떪
떯
뗄
뗼
뚷
뚸
뚼
뜁
띁
띅
랃
랓
랕
랛
랢
랰
랲
럈
럘
럻
렃
렆
렗
렠
렣
롣
롲
뢀
뢉
룍
룧
룯
뤈
뤘
뤨
뤰
뤳
뤵
륐
륫
륱
륽
릌
릍
릏
릘
릫
릳
맀
맃
맊
맍
맔
맕
맗
맠
맢
먓
먕
먘
먾
멏
멪
멵
몊
몪
뫂
뫈
뫔
묺
뭌
뭬
뭴
믁
밚
밠
밬
뱍
뱓
벏
벐
벓
벹
볃
볈
볿
봋
봌
봣
봥
뵛
뵝
붊
붔
붠
붵
뷀
뷃
뷤
븃
븕
븝
븟
빍
빧
빩
뺙
뺬
뺸
뺼
뻠
뻡
뻤
뻩
뻼
뽝
뿗
뿝
쀍
쁭
삜
샆
샞
섊
섡
섧
섨
섵
섷
셒
솏
솑
쇡
쇰
숔
숖
숮
쉅
쉠
슢
슦
슳
싄
싡
싦
싪
싵
싿
쌁
썊
썪
쎗
쎼
쎾
쐉
쐑
쐼
쑷
쓘
씜
앀
앆
앖
앚
앛
앹
앾
얂
얃
얊
얜
얨
엗
엪
옂
옏
옽
옾
왘
왙
왤
왿
욨
욽
욿
웆
웇
웑
웝
윋
윥
읂
읇
읋
읐
읙
읟
읷
잂
잆
잙
잚
잧
잨
쟃
쟇
쟬
젃
젆
젏
젗
젲
젵
졩
졶
좍
좧
죕
죳
줃
줜
줼
쥉
쥤
쥥
쥼
쥿
즑
즞
짎
짛
짥
쨜
쨤
쩟
쩩
쩹
쩻
쪗
쪤
쫗
쫘
쭁
찯
챂
첟
첯
첲
쳠
쳤
촏
촣
쵀
쵣
춛
춝
춟
춭
췍
췡
췩
췽
츹
칯
칱
캎
캿
컅
컺
켰
켱
켼
콭
쾁
쾩
쾻
쾽
쿸
쿹
퀩
퀫
큎
큣
큹
킄
킌
킽
탇
탣
탶
턚
텛
텤
텰
텸
텻
텼
툅
툘
툱
퉜
튭
튻
틜
틩
팉
팑
팠
팤
팦
퍁
펲
폏
폶
퐃
퐅
퐌
퐷
푓
푝
픅
픝
픞
핃
핓
핝
핞
핢
핦
핧
핱
