[PAD]	0
[UNK]	0
[BOS]	0
[EOS]	0
[CLS]	0
[SEP]	0
[MASK]	0
▁▃	-0
▁이	-1
▁하	-2
▁.	-3
▁ㄴ	-4
▁에	-5
▁는	-6
▁다	-7
▁의	-8
▁을	-9
▁가	-10
▁,	-11
▁아	-12
▁고	-13
▁어	-14
▁를	-15
▁지	-16
▁은	-17
▁으	-18
▁1	-19
▁기	-20
▁도	-21
▁있	-22
▁되	-23
▁2	-24
▁로	-25
▁었	-26
▁ㄴ다	-27
▁에서	-28
▁ㄹ	-29
▁그	-30
▁사	-31
▁으로	-32
▁시	-33
▁았	-34
▁보	-35
▁들	-36
▁대	-37
▁라	-38
▁수	-39
▁나	-40
▁자	-41
▁것	-42
▁게	-43
▁일	-44
▁전	-45
▁주	-46
▁과	-47
▁-	-48
▁면	-49
▁적	-50
▁마	-51
▁스	-52
▁만	-53
▁3	-54
▁와	-55
▁부	-56
▁정	-57
▁상	-58
▁모	-59
▁오	-60
▁20	-61
▁때	-62
▁'	-63
▁공	-64
▁년	-65
▁:	-66
▁여	-67
▁경	-68
▁인	-69
▁유	-70
▁중	-71
▁제	-72
▁한	-73
▁위	-74
▁없	-75
▁비	-76
▁소	-77
▁무	-78
▁4	-79
▁지만	-80
▁거	-81
▁성	-82
▁등	-83
▁않	-84
▁에게	-85
▁5	-86
▁개	-87
▁던	-88
▁미	-89
▁0	-90
▁조	-91
▁서	-92
▁며	-93
▁세	-94
▁바	-95
▁"	-96
▁월	-97
▁내	-98
▁201	-99
▁장	-100
▁/	-101
▁방	-102
▁동	-103
▁카	-104
▁타	-105
▁선	-106
▁말	-107
▁연	-108
▁구	-109
▁안	-110
▁영	-111
▁신	-112
▁생	-113
▁후	-114
▁화	-115
▁버	-116
▁당	-117
▁리	-118
▁차	-119
▁발	-120
▁까	-121
▁는데	-122
▁레	-123
▁더	-124
▁때문	-125
▁아서	-126
▁6	-127
▁크	-128
▁원	-129
▁강	-130
▁우	-131
▁파	-132
▁10	-133
▁아니	-134
▁까지	-135
▁명	-136
▁최	-137
▁노	-138
▁실	-139
▁데	-140
▁문	-141
▁번	-142
▁7	-143
▁같	-144
▁라고	-145
▁해	-146
▁단	-147
▁불	-148
▁라는	-149
▁포	-150
▁회	-151
▁진	-152
▁!	-153
▁나오	-154
▁관	-155
▁받	-156
▁S	-157
▁특	-158
▁8	-159
▁많	-160
▁결	-161
▁초	-162
▁반	-163
▁다고	-164
▁작	-165
▁알	-166
▁프	-167
▁보이	-168
▁드	-169
▁역	-170
▁쓰	-171
▁19	-172
▁배	-173
▁면서	-174
▁처	-175
▁피	-176
▁계	-177
▁9	-178
▁경우	-179
▁코	-180
▁어서	-181
▁공격	-182
▁분	-183
▁남	-184
▁추	-185
▁다는	-186
▁A	-187
▁물	-188
▁사용	-189
▁으며	-190
▁출	-191
▁두	-192
▁치	-193
▁야	-194
▁국	-195
▁못	-196
▁현	-197
▁자신	-198
▁매	-199
레이	-200
▁좋	-201
▁M	-202
▁점	-203
▁편	-204
▁패	-205
▁달	-206
▁이후	-207
▁니	-208
▁저	-209
▁%	-210
▁감	-211
▁그리	-212
▁호	-213
▁트	-214
▁학	-215
▁따	-216
▁요	-217
▁교	-218
▁재	-219
▁정도	-220
▁사람	-221
▁메	-222
▁통	-223
▁C	-224
▁입	-225
▁예	-226
▁또	-227
▁속	-228
스트	-229
▁플	-230
▁B	-231
▁가능	-232
▁캐	-233
▁T	-234
▁김	-235
▁설	-236
▁위하	-237
▁참	-238
▁본	-239
▁형	-240
▁함	-241
▁평	-242
▁등장	-243
▁대하	-244
▁부터	-245
▁~	-246
▁ᄆ	-247
▁D	-248
▁돌	-249
▁+	-250
▁보다	-251
▁시키	-252
▁군	-253
▁?	-254
▁음	-255
▁죽	-256
▁다른	-257
▁이나	-258
▁종	-259
▁아이	-260
▁12	-261
▁승	-262
▁토	-263
▁버리	-264
▁체	-265
▁권	-266
▁게임	-267
▁외	-268
▁살	-269
▁는다	-270
▁팀	-271
▁..	-272
er	-273
▁루	-274
▁직	-275
▁200	-276
▁애	-277
▁11	-278
▁용	-279
▁네	-280
▁L	-281
▁판	-282
▁그리고	-283
▁가지	-284
00	-285
▁키	-286
▁잘	-287
▁으나	-288
▁맞	-289
▁확	-290
▁심	-291
▁올	-292
▁하나	-293
▁그러	-294
어지	-295
▁행	-296
▁다가	-297
▁경기	-298
▁사실	-299
▁변	-300
in	-301
▁박	-302
▁못하	-303
▁듯	-304
▁만들	-305
▁필	-306
▁시간	-307
▁운	-308
▁F	-309
▁P	-310
▁뒤	-311
▁였	-312
▁베	-313
니다	-314
▁날	-315
▁투	-316
▁디	-317
▁건	-318
▁모습	-319
▁목	-320
▁간	-321
▁집	-322
▁높	-323
▁히	-324
지만	-325
▁약	-326
▁이상	-327
▁G	-328
▁활	-329
▁사이	-330
▁이름	-331
▁언	-332
▁각	-333
▁순	-334
▁표	-335
▁상대	-336
▁양	-337
▁E	-338
▁테	-339
스터	-340
an	-341
▁능	-342
▁려	-343
▁너	-344
▁시작	-345
▁하지만	-346
▁으면	-347
▁문제	-348
▁효	-349
▁존	-350
on	-351
▁15	-352
▁잡	-353
▁일본	-354
▁함께	-355
▁터	-356
▁거나	-357
▁힘	-358
▁왕	-359
▁손	-360
▁증	-361
▁생각	-362
▁겠	-363
▁병	-364
▁별	-365
▁한국	-366
▁다시	-367
▁#	-368
▁캐릭	-369
▁H	-370
▁열	-371
▁브	-372
▁아야	-373
▁막	-374
▁R	-375
▁천	-376
어나	-377
▁K	-378
▁폭	-379
▁완	-380
▁끝	-381
▁캐릭터	-382
▁따르	-383
▁능력	-384
대로	-385
▁프로	-386
▁들어	-387
▁t	-388
▁ㄴ데	-389
▁블	-390
▁총	-391
▁플레이	-392
▁클	-393
▁독	-394
▁I	-395
▁시즌	-396
▁먹	-397
▁N	-398
▁스킬	-399
▁페	-400
▁처럼	-401
▁항	-402
이트	-403
▁ㄴ지	-404
▁근	-405
▁광	-406
▁추가	-407
▁새	-408
▁복	-409
▁식	-410
▁m	-411
▁당하	-412
▁아도	-413
▁빠	-414
▁채	-415
▁상황	-416
▁검	-417
▁그렇	-418
▁가장	-419
▁누	-420
▁태	-421
▁또한	-422
▁쿠	-423
▁카드	-424
▁삼	-425
or	-426
미지	-427
▁상태	-428
▁얼	-429
▁당시	-430
▁느	-431
▁걸	-432
▁모두	-433
▁길	-434
ar	-435
▁결국	-436
▁백	-437
▁충	-438
▁효과	-439
▁다만	-440
▁곡	-441
▁업	-442
▁앞	-443
▁모든	-444
▁18	-445
▁16	-446
▁티	-447
▁ㅂ	-448
▁악	-449
▁친	-450
▁넘	-451
▁금	-452
▁많이	-453
▁눈	-454
▁O	-455
▁전투	-456
▁30	-457
▁러	-458
▁시리	-459
at	-460
▁싸	-461
▁및	-462
▁ㄴ다는	-463
▁임	-464
▁급	-465
▁커	-466
▁산	-467
▁13	-468
▁민	-469
▁선수	-470
▁s	-471
he	-472
▁레벨	-473
▁슈	-474
▁세계	-475
▁]	-476
▁머	-477
▁W	-478
▁합	-479
▁존재	-480
▁여기	-481
라이	-482
▁엔	-483
▁14	-484
▁ㅓ	-485
▁습	-486
▁현재	-487
▁[	-488
▁라이	-489
▁ㅂ니다	-490
▁매우	-491
▁그런	-492
▁시리즈	-493
▁취	-494
▁무기	-495
▁상당	-496
▁달리	-497
▁스타	-498
▁물론	-499
▁그러나	-500
▁다면	-501
▁레이	-502
▁절	-503
▁첫	-504
▁골	-505
▁통하	-506
▁마법	-507
▁극	-508
en	-509
▁엄	-510
▁c	-511
므로	-512
▁찾	-513
▁팬	-514
▁황	-515
▁얻	-516
▁17	-517
▁난	-518
▁밀	-519
▁허	-520
▁자체	-521
▁창	-522
▁기술	-523
▁뿐	-524
▁100	-525
▁00	-526
▁벌	-527
▁이런	-528
거리	-529
▁실제	-530
▁청	-531
▁주인	-532
▁놓	-533
▁모르	-534
▁이유	-535
▁줄	-536
▁떨	-537
▁25	-538
▁케	-539
▁관련	-540
ou	-541
▁같이	-542
▁탈	-543
▁인하	-544
▁이것	-545
▁V	-546
al	-547
이지	-548
▁필요	-549
▁이용	-550
▁들어가	-551
▁U	-552
▁방송	-553
▁다음	-554
▁해당	-555
▁기본	-556
▁철	-557
▁지역	-558
▁바로	-559
▁법	-560
▁역시	-561
▁처음	-562
▁워	-563
▁기록	-564
▁부르	-565
▁어야	-566
▁곳	-567
▁방어	-568
▁돌아	-569
▁일반	-570
▁거의	-571
▁ㄴ다고	-572
▁환	-573
▁째	-574
▁잠	-575
▁귀	-576
▁혼	-577
▁그래	-578
▁이야	-579
▁2017	-580
▁나가	-581
리스	-582
▁199	-583
▁피해	-584
▁다르	-585
▁북	-586
▁범	-587
▁대학	-588
▁아무	-589
이스	-590
▁냐	-591
▁좀	-592
▁2018	-593
▁붙	-594
▁사건	-595
▁여러	-596
▁몬	-597
▁미국	-598
▁란	-599
▁격	-600
▁이야기	-601
▁는지	-602
▁특히	-603
▁탄	-604
▁밖	-605
▁싶	-606
▁글	-607
▁없이	-608
▁k	-609
▁부분	-610
▁진행	-611
es	-612
리아	-613
▁영화	-614
지막	-615
▁학교	-616
▁본인	-617
▁인간	-618
▁ㄴ가	-619
▁둘	-620
▁참고	-621
▁2019	-622
▁풀	-623
▁증가	-624
▁즉	-625
▁쉽	-626
it	-627
▁담	-628
▁라면	-629
▁팔	-630
▁리그	-631
▁엘	-632
▁주인공	-633
부분	-634
▁자기	-635
▁제작	-636
▁만큼	-637
▁마지막	-638
▁속도	-639
▁헤	-640
▁몸	-641
▁준	-642
▁작품	-643
▁그냥	-644
▁몰	-645
▁의하	-646
▁21	-647
▁덕	-648
▁50	-649
▁X	-650
▁밝	-651
▁어도	-652
▁내용	-653
▁떨어지	-654
▁넣	-655
▁2016	-656
▁으니	-657
▁슬	-658
▁지나	-659
▁공격력	-660
▁계속	-661
▁수준	-662
▁대표	-663
▁우리	-664
▁대부분	-665
▁인물	-666
▁접	-667
▁생기	-668
▁&	-669
▁개요	-670
▁올리	-671
is	-672
▁갈	-673
re	-674
▁암	-675
▁몇	-676
전히	-677
▁쪽	-678
▁질	-679
▁어느	-680
▁위치	-681
▁비슷	-682
▁w	-683
▁동안	-684
▁비하	-685
▁딜	-686
▁습니다	-687
▁대신	-688
▁22	-689
▁국가	-690
le	-691
▁지금	-692
▁강하	-693
토리	-694
▁홈	-695
▁울	-696
▁상당히	-697
▁평가	-698
▁축	-699
▁기사	-700
▁타이	-701
▁활동	-702
▁관계	-703
▁일부	-704
▁만나	-705
▁이전	-706
▁낮	-707
▁영상	-708
▁J	-709
▁보스	-710
▁알리	-711
▁d	-712
▁멀	-713
▁서울	-714
▁올라	-715
▁규	-716
▁너무	-717
▁그대로	-718
▁체력	-719
▁24	-720
▁유닛	-721
▁감독	-722
▁최대	-723
▁맡	-724
▁문서	-725
▁마다	-726
▁뛰	-727
▁괴	-728
▁성공	-729
▁기준	-730
▁빠르	-731
▁죽이	-732
▁시절	-733
▁홍	-734
▁떠	-735
ing	-736
ic	-737
▁제외	-738
▁f	-739
▁밝히	-740
▁데미지	-741
▁실제로	-742
▁망	-743
▁중국	-744
▁므로	-745
▁희	-746
▁ㅏ	-747
▁몬스터	-748
▁츠	-749
as	-750
▁바람	-751
▁유저	-752
▁메이	-753
▁설정	-754
▁b	-755
▁결과	-756
▁대로	-757
라지	-758
▁논	-759
▁정보	-760
▁멤	-761
▁그녀	-762
다가	-763
시아	-764
▁전쟁	-765
▁지원	-766
▁어렵	-767
▁승리	-768
▁이미	-769
▁23	-770
▁멤버	-771
▁맨	-772
▁2015	-773
▁소속	-774
▁자리	-775
▁언급	-776
▁님	-777
▁애니	-778
▁도록	-779
▁온	-780
▁원래	-781
▁퍼	-782
▁칼	-783
▁40	-784
▁직접	-785
▁싸우	-786
▁ㄴ다면	-787
버지	-788
▁성우	-789
▁설명	-790
▁링	-791
▁육	-792
▁도시	-793
▁컨	-794
▁그것	-795
▁선택	-796
▁이동	-797
▁전체	-798
▁의미	-799
▁마음	-800
▁여자	-801
▁a	-802
▁깨	-803
▁배우	-804
▁씩	-805
운드	-806
▁듣	-807
▁뭐	-808
▁과거	-809
가지	-810
▁머리	-811
▁늘	-812
▁보내	-813
▁협	-814
▁<	-815
랜드	-816
▁봉	-817
▁엄청	-818
▁플레이어	-819
▁친구	-820
▁묘	-821
▁차이	-822
▁이루	-823
▁방법	-824
▁든	-825
▁돈	-826
▁힘들	-827
▁)	-828
▁나타	-829
▁측	-830
▁아이템	-831
▁장면	-832
▁출연	-833
▁갑	-834
▁뉴	-835
이션	-836
▁답	-837
▁소리	-838
▁거리	-839
▁버전	-840
▁씨	-841
▁스토리	-842
om	-843
▁p	-844
am	-845
▁탑	-846
▁h	-847
▁센	-848
▁향	-849
▁꽤	-850
▁빌	-851
▁즈	-852
▁놀	-853
▁다니	-854
▁류	-855
▁대사	-856
▁바뀌	-857
▁스럽	-858
▁사랑	-859
▁혹	-860
▁모드	-861
▁공식	-862
▁파이	-863
▁압	-864
▁프리	-865
벤트	-866
▁조금	-867
▁이렇	-868
▁송	-869
▁개발	-870
▁갖	-871
▁198	-872
▁대상	-873
▁초반	-874
el	-875
▁로서	-876
▁책	-877
학교	-878
▁전부	-879
▁버스	-880
▁o	-881
▁연구	-882
▁려고	-883
▁침	-884
▁남자	-885
▁이벤트	-886
▁최고	-887
▁제대로	-888
▁속성	-889
▁볼	-890
▁26	-891
▁궁	-892
▁걸리	-893
▁2014	-894
▁동시	-895
▁n	-896
▁여성	-897
▁쇼	-898
▁강화	-899
▁파괴	-900
▁나이	-901
▁빠지	-902
▁유명	-903
▁기타	-904
이도	-905
▁정말	-906
▁층	-907
▁아버지	-908
▁스테	-909
▁28	-910
▁역사	-911
▁드래	-912
▁색	-913
▁소환	-914
▁성능	-915
▁찍	-916
▁자주	-917
▁왜	-918
▁불리	-919
▁학생	-920
▁the	-921
▁빼	-922
▁샤	-923
▁27	-924
▁아직	-925
▁최종	-926
▁운영	-927
▁누구	-928
▁우승	-929
▁회복	-930
▁석	-931
▁후반	-932
▁당연	-933
▁31	-934
▁=	-935
라도	-936
▁출신	-937
이드	-938
▁앨	-939
▁농	-940
▁마이	-941
▁그런데	-942
▁라도	-943
▁특성	-944
▁인터	-945
▁강력	-946
▁이때	-947
▁공개	-948
▁마리	-949
부터	-950
▁확률	-951
▁서로	-952
▁사망	-953
▁유지	-954
▁끼	-955
▁엄청나	-956
리어	-957
▁콘	-958
▁노래	-959
▁주로	-960
▁착	-961
▁끌	-962
▁움	-963
▁노선	-964
▁잔	-965
▁발매	-966
ol	-967
▁이기	-968
▁방식	-969
▁느끼	-970
▁슈퍼	-971
▁발생	-972
▁라인	-973
▁000	-974
▁마찬	-975
▁마찬가지	-976
▁나라	-977
▁정신	-978
▁특수	-979
▁시스	-980
▁결정	-981
▁이러	-982
▁오히	-983
▁영향	-984
▁대전	-985
▁월드	-986
▁오히려	-987
▁솔	-988
아가	-989
ion	-990
▁오르	-991
et	-992
▁이제	-993
▁변경	-994
▁비교	-995
▁포함	-996
▁영웅	-997
▁장비	-998
▁어떻	-999
▁기존	-1000
▁나타나	-1001
▁먼	-1002
ac	-1003
▁빨	-1004
▁일어나	-1005
▁수록	-1006
▁역할	-1007
▁게다가	-1008
▁보통	-1009
▁드라	-1010
▁르	-1011
머니	-1012
▁인기	-1013
▁뜻	-1014
▁작중	-1015
▁32	-1016
▁억	-1017
▁사라지	-1018
▁쓰이	-1019
▁맵	-1020
▁짓	-1021
▁마을	-1022
▁차량	-1023
▁중요	-1024
▁푸	-1025
▁아예	-1026
▁어떤	-1027
▁바꾸	-1028
▁형태	-1029
▁섬	-1030
▁Y	-1031
▁술	-1032
▁일단	-1033
▁성격	-1034
▁어요	-1035
▁좌	-1036
▁싱	-1037
▁행동	-1038
▁세트	-1039
▁이번	-1040
▁난이도	-1041
▁가깝	-1042
il	-1043
us	-1044
▁대한	-1045
▁29	-1046
프트	-1047
▁과정	-1048
▁주장	-1049
우스	-1050
▁모양	-1051
▁흑	-1052
▁액	-1053
▁v	-1054
ig	-1055
▁심지	-1056
ow	-1057
▁시대	-1058
▁음악	-1059
▁부족	-1060
▁대회	-1061
▁뽑	-1062
레이드	-1063
ed	-1064
▁최초	-1065
▁2013	-1066
▁심지어	-1067
민국	-1068
▁사회	-1069
▁구하	-1070
▁맞추	-1071
너지	-1072
▁끝나	-1073
▁구성	-1074
▁빛	-1075
▁윤	-1076
▁이렇게	-1077
▁발동	-1078
▁숨	-1079
▁새롭	-1080
▁스트	-1081
▁입장	-1082
▁풍	-1083
▁휴	-1084
▁폐	-1085
▁거기	-1086
▁뜨	-1087
▁확인	-1088
▁l	-1089
▁유일	-1090
▁다이	-1091
▁바이	-1092
▁사진	-1093
▁먼저	-1094
▁획	-1095
▁정치	-1096
▁애니메	-1097
▁x	-1098
▁흔	-1099
▁응	-1100
▁60	-1101
▁아래	-1102
▁항목	-1103
▁활약	-1104
▁여담	-1105
▁조건	-1106
▁어리	-1107
▁자세	-1108
▁모델	-1109
▁어디	-1110
▁돌아오	-1111
▁훈	-1112
▁원작	-1113
▁내리	-1114
▁콜	-1115
▁덕분	-1116
▁들어오	-1117
▁35	-1118
▁득	-1119
▁하이	-1120
▁시스템	-1121
▁녹	-1122
▁완전히	-1123
▁따라	-1124
▁대한민국	-1125
id	-1126
▁던지	-1127
▁굉	-1128
▁주변	-1129
▁Lv	-1130
▁감소	-1131
▁드러	-1132
▁그래서	-1133
▁프랑	-1134
인트	-1135
▁자유	-1136
▁챔	-1137
▁순간	-1138
▁독일	-1139
▁명칭	-1140
▁라며	-1141
ay	-1142
▁날리	-1143
▁얼굴	-1144
▁전혀	-1145
▁2012	-1146
▁관리	-1147
ad	-1148
▁애니메이션	-1149
▁잃	-1150
▁경찰	-1151
▁특징	-1152
▁우주	-1153
▁차지	-1154
▁자동	-1155
▁01	-1156
버스	-1157
▁웨	-1158
▁할	-1159
▁부대	-1160
▁짜	-1161
▁적용	-1162
▁교육	-1163
▁영어	-1164
나마	-1165
▁굉장	-1166
▁무엇	-1167
▁가격	-1168
▁지키	-1169
▁듀	-1170
▁r	-1171
▁곤	-1172
▁더라도	-1173
▁정부	-1174
▁패배	-1175
▁돌아가	-1176
▁뮤	-1177
▁of	-1178
▁드래곤	-1179
▁고등	-1180
▁아군	-1181
▁마스터	-1182
▁실패	-1183
▁그렇게	-1184
▁기간	-1185
없이	-1186
▁휘	-1187
소드	-1188
▁오브	-1189
▁개인	-1190
▁생산	-1191
▁얼마	-1192
▁앨범	-1193
ot	-1194
▁죠	-1195
▁건물	-1196
▁시점	-1197
ve	-1198
▁이거	-1199
and	-1200
▁아들	-1201
▁그나마	-1202
▁견	-1203
▁혹은	-1204
▁하루	-1205
▁밖에	-1206
▁지속	-1207
▁넘어	-1208
▁상승	-1209
▁모으	-1210
▁덱	-1211
주의	-1212
▁기능	-1213
▁국내	-1214
▁처리	-1215
▁작가	-1216
▁지구	-1217
▁떠나	-1218
▁기억	-1219
디오	-1220
▁틀	-1221
▁턴	-1222
▁TV	-1223
레스	-1224
▁획득	-1225
▁발견	-1226
▁패치	-1227
▁에피	-1228
▁실력	-1229
▁반응	-1230
▁물리	-1231
▁y	-1232
▁제국	-1233
▁소개	-1234
▁정확	-1235
▁도움	-1236
▁퀘	-1237
▁참조	-1238
▁랭	-1239
▁익	-1240
▁만화	-1241
▁영국	-1242
▁동일	-1243
▁킹	-1244
20	-1245
▁홀	-1246
▁대학교	-1247
▁쏘	-1248
▁선발	-1249
▁현대	-1250
▁랑	-1251
▁반대	-1252
▁조차	-1253
아내	-1254
▁칸	-1255
▁맛	-1256
▁담당	-1257
▁올라가	-1258
ch	-1259
▁땅	-1260
▁그림	-1261
▁한테	-1262
▁출시	-1263
▁맥	-1264
▁계획	-1265
▁에피소드	-1266
▁딸	-1267
▁다며	-1268
▁기관	-1269
▁초기	-1270
▁쿨	-1271
▁량	-1272
▁드라마	-1273
▁아마	-1274
▁세대	-1275
▁단계	-1276
▁밤	-1277
▁움직	-1278
▁딱	-1279
▁롭	-1280
un	-1281
▁라서	-1282
▁판매	-1283
▁또는	-1284
▁범위	-1285
▁폴	-1286
▁헬	-1287
소리	-1288
▁퇴	-1289
▁37	-1290
▁버프	-1291
▁시청	-1292
▁데이	-1293
▁The	-1294
▁2010	-1295
▁았었	-1296
뜨리	-1297
BS	-1298
▁벨	-1299
▁패턴	-1300
▁쉬	-1301
▁회사	-1302
▁g	-1303
▁탐	-1304
▁폭발	-1305
▁문화	-1306
▁상위	-1307
▁시기	-1308
▁표현	-1309
▁등급	-1310
▁대미지	-1311
▁밀리	-1312
▁요구	-1313
▁무시	-1314
▁으므로	-1315
▁타입	-1316
▁확실	-1317
▁수비	-1318
▁80	-1319
▁어떻게	-1320
▁500	-1321
▁라운드	-1322
▁사고	-1323
▁진짜	-1324
▁굉장히	-1325
▁St	-1326
▁미치	-1327
▁인정	-1328
▁스페	-1329
▁겨	-1330
▁이미지	-1331
▁45	-1332
▁린	-1333
▁경험	-1334
▁발사	-1335
▁꾸	-1336
▁가족	-1337
▁오리	-1338
들이	-1339
▁졸	-1340
ER	-1341
▁생활	-1342
▁으로서	-1343
▁주의	-1344
▁컴	-1345
▁피하	-1346
▁소모	-1347
▁려는	-1348
▁파워	-1349
▁09	-1350
▁낙	-1351
▁묘사	-1352
▁ㅕ	-1353
▁굴	-1354
▁세이	-1355
▁*	-1356
▁심하	-1357
▁족	-1358
▁특별	-1359
▁활용	-1360
▁아주	-1361
▁율	-1362
▁중앙	-1363
▁묻	-1364
▁대체	-1365
▁헌	-1366
▁연기	-1367
▁02	-1368
▁방향	-1369
▁03	-1370
dd	-1371
▁디자	-1372
▁듯이	-1373
▁197	-1374
▁진출	-1375
로스	-1376
▁지니	-1377
▁운동	-1378
▁나쁘	-1379
▁km	-1380
▁트리	-1381
▁펼	-1382
▁한정	-1383
▁중간	-1384
▁히로	-1385
▁믿	-1386
▁꿈	-1387
▁엑	-1388
▁싸움	-1389
▁빈	-1390
▁웃	-1391
▁프랑스	-1392
▁데뷔	-1393
▁숙	-1394
▁그룹	-1395
▁생명	-1396
인물	-1397
▁준비	-1398
▁ㄹ지	-1399
▁남기	-1400
▁약하	-1401
▁그래도	-1402
▁포인트	-1403
▁핵	-1404
▁유리	-1405
▁2011	-1406
▁엔딩	-1407
▁혼자	-1408
▁당연히	-1409
▁야구	-1410
▁위험	-1411
▁흐	-1412
▁선거	-1413
▁안타	-1414
▁스테이지	-1415
ff	-1416
▁옆	-1417
▁현실	-1418
▁후보	-1419
▁시장	-1420
▁노리	-1421
▁등장인물	-1422
▁조합	-1423
▁논란	-1424
▁아르	-1425
▁욕	-1426
ir	-1427
▁05	-1428
▁순위	-1429
통령	-1430
▁무장	-1431
▁내려	-1432
▁더욱	-1433
▁얘	-1434
▁어머니	-1435
▁죄	-1436
▁흡	-1437
▁미션	-1438
▁퀘스트	-1439
▁싫	-1440
아오	-1441
▁분위	-1442
▁괜	-1443
▁런	-1444
▁사실상	-1445
▁Z	-1446
▁민주	-1447
▁표기	-1448
▁크리스	-1449
스크	-1450
os	-1451
▁(	-1452
▁비판	-1453
▁단순	-1454
▁브라	-1455
▁고등학교	-1456
▁챔피	-1457
▁참여	-1458
▁08	-1459
▁프로그	-1460
▁구조	-1461
▁70	-1462
▁90	-1463
▁분위기	-1464
▁블랙	-1465
▁계약	-1466
▁학년	-1467
▁동료	-1468
▁훨	-1469
▁07	-1470
im	-1471
▁꼬	-1472
▁약간	-1473
▁대통령	-1474
▁중심	-1475
▁조선	-1476
▁취급	-1477
▁링크	-1478
▁투수	-1479
▁바라	-1480
▁...	-1481
▁ㄹ까	-1482
▁방어력	-1483
▁그거	-1484
▁직업	-1485
▁똑	-1486
▁흥	-1487
▁설치	-1488
▁열리	-1489
▁콤	-1490
▁48	-1491
▁나무	-1492
▁보호	-1493
▁기에	-1494
▁훨씬	-1495
▁이어지	-1496
▁여전히	-1497
▁즐	-1498
▁결혼	-1499
머지	-1500
비스	-1501
▁돕	-1502
▁나머지	-1503
▁HP	-1504
▁염	-1505
▁시도	-1506
▁자면	-1507
리카	-1508
▁구간	-1509
▁계열	-1510
ter	-1511
▁다양	-1512
▁위원	-1513
▁뛰어나	-1514
▁전용	-1515
▁불구	-1516
▁방면	-1517
러지	-1518
이크	-1519
▁다루	-1520
▁06	-1521
으키	-1522
▁으면서	-1523
▁읽	-1524
니아	-1525
▁주요	-1526
▁성적	-1527
▁디자인	-1528
▁터지	-1529
▁일정	-1530
▁2000	-1531
▁축구	-1532
티브	-1533
▁300	-1534
▁보상	-1535
▁mm	-1536
▁기대	-1537
▁목적	-1538
▁탓	-1539
▁소녀	-1540
▁탱	-1541
▁연속	-1542
▁도망	-1543
▁33	-1544
▁수정	-1545
▁갤	-1546
▁배틀	-1547
▁지하	-1548
▁옵	-1549
▁고려	-1550
▁가져	-1551
ur	-1552
▁세력	-1553
▁징	-1554
▁론	-1555
▁대화	-1556
▁쌍	-1557
▁성장	-1558
▁04	-1559
▁률	-1560
▁벽	-1561
▁잘못	-1562
▁삼성	-1563
▁부산	-1564
스로	-1565
▁36	-1566
▁종류	-1567
▁각각	-1568
▁아프	-1569
▁롤	-1570
▁이해	-1571
다리	-1572
▁올라오	-1573
▁지방	-1574
▁캠	-1575
▁e	-1576
▁팩	-1577
▁해결	-1578
▁당신	-1579
▁일행	-1580
▁참가	-1581
od	-1582
▁의견	-1583
▁넘어가	-1584
▁력	-1585
▁발표	-1586
▁랜	-1587
▁th	-1588
▁털	-1589
▁부상	-1590
▁세우	-1591
▁마치	-1592
▁전설	-1593
▁변하	-1594
▁포켓	-1595
▁마저	-1596
▁느낌	-1597
▁픽	-1598
ag	-1599
▁전문	-1600
▁큐	-1601
▁거대	-1602
▁짧	-1603
▁you	-1604
▁예정	-1605
▁일으키	-1606
▁펼치	-1607
▁굳	-1608
▁벗	-1609
▁방영	-1610
▁끊	-1611
▁스피	-1612
▁힐	-1613
▁움직이	-1614
▁종족	-1615
▁센터	-1616
▁향하	-1617
▁프로그램	-1618
▁밴	-1619
▁옥	-1620
▁종료	-1621
▁과학	-1622
▁운행	-1623
▁죽음	-1624
▁전하	-1625
▁소설	-1626
▁부활	-1627
▁녀	-1628
▁충분	-1629
▁근접	-1630
▁도중	-1631
▁각성	-1632
▁조사	-1633
지션	-1634
▁FC	-1635
▁배치	-1636
ub	-1637
▁렌	-1638
▁무리	-1639
▁최근	-1640
▁장착	-1641
▁빅	-1642
▁칭	-1643
▁국민	-1644
▁삭	-1645
▁아이돌	-1646
▁러시아	-1647
▁세상	-1648
▁척	-1649
데이트	-1650
▁덤	-1651
▁안정	-1652
▁절대	-1653
▁업데이트	-1654
▁점수	-1655
▁나중	-1656
▁스카	-1657
▁가리	-1658
▁경제	-1659
▁래	-1660
▁스스로	-1661
▁제공	-1662
▁cm	-1663
▁이루어지	-1664
▁SK	-1665
▁항공	-1666
▁지도	-1667
igh	-1668
▁유니	-1669
▁엔진	-1670
▁어찌	-1671
▁제목	-1672
▁오래	-1673
▁자연	-1674
▁충격	-1675
▁붙이	-1676
▁달성	-1677
▁정상	-1678
▁곧	-1679
▁켄	-1680
▁번호	-1681
▁벌어지	-1682
▁만드	-1683
▁챔피언	-1684
▁미사	-1685
자기	-1686
▁추정	-1687
▁작전	-1688
ver	-1689
▁배경	-1690
▁목소리	-1691
▁번역	-1692
▁셈	-1693
▁똑같	-1694
▁비행	-1695
▁조직	-1696
▁정체	-1697
▁가끔	-1698
ak	-1699
ent	-1700
▁사이트	-1701
▁목록	-1702
너스	-1703
▁미래	-1704
▁요소	-1705
▁규모	-1706
스타	-1707
▁포켓몬	-1708
▁스파	-1709
▁남성	-1710
▁196	-1711
▁레어	-1712
▁34	-1713
▁이라	-1714
▁품	-1715
▁전작	-1716
▁훈련	-1717
▁벌이	-1718
어들	-1719
▁전차	-1720
▁십	-1721
▁출전	-1722
▁악마	-1723
▁파티	-1724
▁전사	-1725
▁빙	-1726
▁공중	-1727
▁타격	-1728
▁돌리	-1729
▁스타일	-1730
▁로부터	-1731
▁다리	-1732
▁클리어	-1733
▁만약	-1734
▁위기	-1735
▁타카	-1736
▁분노	-1737
▁괜찮	-1738
▁얘기	-1739
▁사냥	-1740
▁변화	-1741
▁생존	-1742
다니	-1743
▁에너지	-1744
▁혈	-1745
▁그만	-1746
▁홈런	-1747
▁나누	-1748
▁신경	-1749
▁동물	-1750
▁ㄹ로	-1751
um	-1752
▁클래	-1753
▁애초	-1754
▁자랑	-1755
▁뒷	-1756
▁득점	-1757
▁저지	-1758
▁요리	-1759
▁더불	-1760
BC	-1761
▁션	-1762
▁수상	-1763
▁연결	-1764
▁아라	-1765
▁크리	-1766
▁단점	-1767
▁75	-1768
▁필드	-1769
ut	-1770
▁한편	-1771
▁장갑	-1772
▁국제	-1773
▁로봇	-1774
▁건담	-1775
▁포지션	-1776
디어	-1777
▁소재	-1778
러스	-1779
▁으려	-1780
수록	-1781
▁냉	-1782
▁특정	-1783
▁반면	-1784
▁연합	-1785
▁니까	-1786
ec	-1787
▁기동	-1788
▁시험	-1789
▁vs	-1790
▁판정	-1791
▁비용	-1792
▁38	-1793
▁장소	-1794
▁in	-1795
▁넘기	-1796
▁전기	-1797
▁맹	-1798
▁공연	-1799
▁예상	-1800
▁사항	-1801
▁롯	-1802
▁싱글	-1803
▁항상	-1804
▁멸	-1805
▁목표	-1806
▁무대	-1807
▁화력	-1808
▁정작	-1809
▁가르	-1810
▁최소	-1811
▁연출	-1812
▁기체	-1813
▁사거리	-1814
▁늘어나	-1815
▁관심	-1816
▁사업	-1817
▁시설	-1818
▁꽃	-1819
▁55	-1820
리오	-1821
▁유럽	-1822
▁인터뷰	-1823
▁2009	-1824
▁교체	-1825
▁던전	-1826
▁내부	-1827
▁하늘	-1828
트리	-1829
▁비밀	-1830
▁지휘	-1831
▁제일	-1832
▁카이	-1833
▁인사	-1834
▁찌	-1835
▁야마	-1836
▁사격	-1837
▁별로	-1838
동안	-1839
▁찬	-1840
▁엘리	-1841
▁Q	-1842
▁철도	-1843
▁to	-1844
▁변신	-1845
▁다크	-1846
▁바르	-1847
ST	-1848
ro	-1849
▁놈	-1850
▁나름	-1851
▁수치	-1852
▁록	-1853
▁넓	-1854
▁기계	-1855
▁수도	-1856
▁정식	-1857
▁벤	-1858
▁작곡	-1859
▁스포	-1860
▁시전	-1861
▁결승	-1862
▁카운	-1863
▁옷	-1864
▁파일	-1865
▁_	-1866
▁교통	-1867
▁비롯	-1868
▁오버	-1869
▁냐고	-1870
▁쌓	-1871
▁케이	-1872
▁따로	-1873
▁각종	-1874
▁오늘	-1875
▁부여	-1876
나라	-1877
▁황제	-1878
▁언제	-1879
▁마나	-1880
▁확정	-1881
▁졸업	-1882
▁레인	-1883
▁코스	-1884
▁지상	-1885
▁쥬	-1886
▁갑자기	-1887
▁이탈	-1888
▁일러	-1889
▁병력	-1890
▁지지	-1891
▁특이	-1892
▁전반	-1893
▁치명	-1894
▁따라서	-1895
▁진화	-1896
▁이쪽	-1897
▁깔	-1898
▁북한	-1899
▁거두	-1900
▁도로	-1901
▁기업	-1902
보이	-1903
▁드러나	-1904
▁제한	-1905
▁드리	-1906
▁라이브	-1907
▁발전	-1908
▁살리	-1909
▁아키	-1910
▁때리	-1911
▁튀	-1912
▁왼	-1913
▁건설	-1914
▁쯤	-1915
▁시티	-1916
▁무슨	-1917
▁압도	-1918
▁어쩌	-1919
▁누르	-1920
▁이외	-1921
▁꺼	-1922
▁의외	-1923
▁사정	-1924
em	-1925
말로	-1926
▁더니	-1927
▁이르	-1928
▁EX	-1929
▁가사	-1930
▁2008	-1931
▁외국	-1932
▁나이트	-1933
▁아파	-1934
▁이끌	-1935
▁역대	-1936
▁일러스트	-1937
▁감정	-1938
▁탈출	-1939
▁주문	-1940
▁삭제	-1941
▁직전	-1942
▁저항	-1943
ight	-1944
▁티어	-1945
▁베이	-1946
▁띄	-1947
▁임무	-1948
▁고양	-1949
▁납	-1950
▁이닝	-1951
▁느리	-1952
▁프레	-1953
▁골드	-1954
▁위력	-1955
▁자원	-1956
▁보유	-1957
어로	-1958
▁거치	-1959
▁텐	-1960
라인	-1961
▁아카	-1962
AN	-1963
▁정하	-1964
▁로드	-1965
▁마시	-1966
▁사례	-1967
▁집중	-1968
▁세기	-1969
▁서비스	-1970
▁점프	-1971
▁깊	-1972
▁표시	-1973
▁노트	-1974
▁어둠	-1975
AR	-1976
▁마르	-1977
▁잉	-1978
▁전국	-1979
▁인구	-1980
▁상관	-1981
▁효율	-1982
▁명령	-1983
▁분류	-1984
▁작업	-1985
▁페이	-1986
▁기회	-1987
▁랭크	-1988
▁완전	-1989
▁뇌	-1990
▁아스	-1991
▁인식	-1992
젝트	-1993
▁공간	-1994
▁연습	-1995
▁오른	-1996
▁히어로	-1997
▁루트	-1998
▁기다리	-1999
▁회피	-2000
▁관하	-2001
▁물건	-2002
▁파트	-2003
ap	-2004
▁도전	-2005
▁잇	-2006
▁태어나	-2007
▁잠시	-2008
▁가수	-2009
▁경쟁	-2010
▁극장	-2011
▁지내	-2012
▁화면	-2013
▁옛	-2014
▁42	-2015
▁장점	-2016
▁버티	-2017
▁높이	-2018
▁녀석	-2019
ON	-2020
▁41	-2021
▁사기	-2022
▁부모	-2023
▁컬	-2024
▁폰	-2025
▁키우	-2026
▁별명	-2027
▁컵	-2028
▁촬	-2029
▁군사	-2030
▁개념	-2031
▁레드	-2032
그레이드	-2033
▁업그레이드	-2034
▁행정	-2035
▁단어	-2036
▁병원	-2037
무리	-2038
▁몽	-2039
▁근처	-2040
▁인천	-2041
▁추천	-2042
▁194	-2043
▁이어	-2044
▁No	-2045
▁빌리	-2046
▁발언	-2047
▁려면	-2048
▁오프	-2049
▁전력	-2050
▁은데	-2051
▁멘	-2052
▁살인	-2053
▁의식	-2054
▁포기	-2055
▁39	-2056
▁무려	-2057
▁펜	-2058
▁꾼	-2059
마자	-2060
▁불가	-2061
▁Ch	-2062
▁아파트	-2063
▁전개	-2064
▁>	-2065
▁크기	-2066
▁신체	-2067
▁정리	-2068
▁킬	-2069
▁숨기	-2070
학생	-2071
▁미니	-2072
▁',	-2073
▁겸	-2074
▁판단	-2075
▁강제	-2076
▁주제	-2077
▁촬영	-2078
▁나서	-2079
▁노력	-2080
▁밑	-2081
▁본래	-2082
▁잡히	-2083
▁히트	-2084
▁고정	-2085
ul	-2086
▁부정	-2087
▁붕	-2088
▁낫	-2089
▁타임	-2090
아들이	-2091
▁ㅓㅆ	-2092
▁kg	-2093
▁이하	-2094
페이지	-2095
▁st	-2096
▁44	-2097
▁라이트	-2098
▁공주	-2099
▁빨리	-2100
▁셋	-2101
▁병사	-2102
▁ㅏㅆ	-2103
▁데스	-2104
▁선생	-2105
▁버그	-2106
▁뿌	-2107
▁평균	-2108
ce	-2109
▁스코	-2110
ik	-2111
▁독립	-2112
▁최강	-2113
▁2020	-2114
▁;	-2115
▁왕국	-2116
▁제거	-2117
▁분명	-2118
▁끝내	-2119
▁학원	-2120
▁갖추	-2121
▁부탁	-2122
라스	-2123
▁살아	-2124
▁홈페이지	-2125
▁폭탄	-2126
▁구매	-2127
000	-2128
▁꼭	-2129
▁조종	-2130
▁칠	-2131
▁제품	-2132
▁닥	-2133
▁99	-2134
▁군대	-2135
▁동생	-2136
▁쫓	-2137
▁마법사	-2138
▁롯데	-2139
▁가드	-2140
▁속하	-2141
▁LG	-2142
▁위키	-2143
▁닌	-2144
▁중반	-2145
▁고속	-2146
▁리더	-2147
▁윈	-2148
▁앞서	-2149
▁예전	-2150
▁여행	-2151
요일	-2152
▁붉	-2153
▁행위	-2154
▁짐	-2155
▁단체	-2156
▁음식	-2157
믹스	-2158
▁겪	-2159
▁떡	-2160
▁웹	-2161
▁완벽	-2162
▁옵션	-2163
▁전자	-2164
▁2007	-2165
▁현상	-2166
▁195	-2167
▁가문	-2168
▁수행	-2169
▁모이	-2170
▁대구	-2171
all	-2172
▁탈락	-2173
▁43	-2174
▁원인	-2175
드시	-2176
▁요시	-2177
▁바다	-2178
▁그야	-2179
▁완성	-2180
▁구분	-2181
▁에게서	-2182
▁새로	-2183
야마	-2184
이치	-2185
▁반드시	-2186
IN	-2187
▁대기	-2188
▁의원	-2189
모토	-2190
▁통합	-2191
▁쓸	-2192
▁개그	-2193
란드	-2194
▁주민	-2195
▁전략	-2196
▁직후	-2197
드리	-2198
▁차원	-2199
▁MA	-2200
▁크로	-2201
▁재료	-2202
▁복귀	-2203
▁하드	-2204
▁으로써	-2205
▁단지	-2206
▁템	-2207
▁마사	-2208
▁흘	-2209
▁환경	-2210
nd	-2211
▁광역	-2212
▁걱	-2213
▁늦	-2214
▁그야말로	-2215
▁마무리	-2216
▁치료	-2217
▁기반	-2218
▁걱정	-2219
▁아쉽	-2220
튜브	-2221
타임	-2222
러리	-2223
▁연재	-2224
▁밸	-2225
▁인도	-2226
트라	-2227
▁한글	-2228
▁해군	-2229
▁46	-2230
▁서버	-2231
이어	-2232
▁47	-2233
▁다행	-2234
▁정규	-2235
▁지정	-2236
▁밥	-2237
▁연장	-2238
▁2006	-2239
▁다수	-2240
▁대장	-2241
▁해외	-2242
▁멜	-2243
▁도착	-2244
▁보병	-2245
▁심각	-2246
▁평범	-2247
▁옮	-2248
▁줄이	-2249
▁우선	-2250
▁책임	-2251
아하	-2252
조건	-2253
▁뻔	-2254
▁워낙	-2255
▁공포	-2256
▁보너스	-2257
▁월드컵	-2258
▁타이틀	-2259
▁조작	-2260
▁미사일	-2261
▁아무리	-2262
▁포스	-2263
▁입히	-2264
▁덜	-2265
▁유사	-2266
▁추측	-2267
▁실험	-2268
▁재미	-2269
▁자마자	-2270
르트	-2271
th	-2272
▁점점	-2273
▁샷	-2274
▁51	-2275
▁받아들이	-2276
▁캡	-2277
▁가면	-2278
▁굳이	-2279
▁타자	-2280
tt	-2281
루스	-2282
▁디스	-2283
▁상세	-2284
▁코스트	-2285
▁택	-2286
▁필살	-2287
▁다소	-2288
▁폼	-2289
▁접근	-2290
▁성향	-2291
▁무조건	-2292
▁좋아하	-2293
▁즐기	-2294
▁닉	-2295
▁중학교	-2296
▁실점	-2297
▁한계	-2298
▁교수	-2299
▁의사	-2300
▁대결	-2301
op	-2302
▁영혼	-2303
▁채우	-2304
▁냐는	-2305
▁부하	-2306
▁잭	-2307
▁톤	-2308
▁모자	-2309
▁무한	-2310
▁사무	-2311
운데	-2312
▁고르	-2313
▁국회	-2314
▁멋	-2315
▁SP	-2316
▁복수	-2317
st	-2318
▁비중	-2319
▁정확히	-2320
▁댄	-2321
▁암살	-2322
▁지배	-2323
▁앙	-2324
▁보조	-2325
▁함정	-2326
▁아내	-2327
▁평소	-2328
▁정의	-2329
▁엠	-2330
▁옮기	-2331
ation	-2332
▁인터넷	-2333
▁광고	-2334
▁장르	-2335
▁혁	-2336
ra	-2337
시마	-2338
▁마력	-2339
▁와중	-2340
▁범죄	-2341
▁봉인	-2342
▁알아	-2343
▁숲	-2344
▁고자	-2345
▁투표	-2346
▁1000	-2347
아지	-2348
ack	-2349
▁전화	-2350
무라	-2351
▁확장	-2352
ia	-2353
▁운용	-2354
▁채널	-2355
▁사령	-2356
▁이곳	-2357
▁합류	-2358
▁공략	-2359
나이	-2360
▁도쿄	-2361
버리	-2362
▁소련	-2363
▁장치	-2364
▁and	-2365
▁가치	-2366
▁빵	-2367
▁몇몇	-2368
▁검사	-2369
▁기념	-2370
oc	-2371
▁금지	-2372
▁아웃	-2373
▁시청자	-2374
▁에이	-2375
▁종종	-2376
▁이적	-2377
▁다운	-2378
로그	-2379
▁초등	-2380
▁소유	-2381
▁가운데	-2382
▁150	-2383
▁정당	-2384
▁충분히	-2385
▁도입	-2386
▁65	-2387
▁을지	-2388
▁오리지	-2389
▁네이	-2390
▁실수	-2391
▁특유	-2392
▁플래	-2393
시브	-2394
▁뚫	-2395
▁유튜브	-2396
▁미드	-2397
▁보컬	-2398
▁코드	-2399
▁사쿠	-2400
▁근데	-2401
▁브레이	-2402
▁잊	-2403
▁VS	-2404
▁클럽	-2405
▁줄어들	-2406
▁소년	-2407
▁화염	-2408
▁취하	-2409
▁시민	-2410
▁기지	-2411
▁본격	-2412
▁프로젝트	-2413
▁투입	-2414
▁저격	-2415
▁고대	-2416
▁개조	-2417
▁뉴스	-2418
▁무사	-2419
▁시나	-2420
▁는가	-2421
▁도망치	-2422
▁전원	-2423
▁괴물	-2424
▁종교	-2425
▁형제	-2426
▁얼마나	-2427
ie	-2428
▁수많	-2429
ill	-2430
▁%,	-2431
▁희생	-2432
▁고양이	-2433
▁셀	-2434
▁행사	-2435
려가	-2436
▁로스	-2437
▁요청	-2438
▁스포츠	-2439
▁인상	-2440
▁릴	-2441
비아	-2442
▁앤	-2443
▁이탈리아	-2444
▁흉	-2445
▁로마	-2446
로드	-2447
▁대중	-2448
▁발음	-2449
▁사태	-2450
▁원정	-2451
▁터미	-2452
▁카메	-2453
▁상징	-2454
▁2005	-2455
▁52	-2456
라이더	-2457
일러	-2458
▁KBS	-2459
▁끄	-2460
▁종합	-2461
▁쥐	-2462
▁II	-2463
▁밴드	-2464
art	-2465
▁숫	-2466
▁구역	-2467
▁넥	-2468
▁클래스	-2469
▁대형	-2470
▁64	-2471
▁군단	-2472
려오	-2473
▁따지	-2474
니까	-2475
▁올림	-2476
▁대비	-2477
▁외모	-2478
▁위협	-2479
텐츠	-2480
▁스크	-2481
▁방패	-2482
▁이사	-2483
▁조정	-2484
▁그저	-2485
▁랍	-2486
▁인원	-2487
▁뿌리	-2488
▁패러	-2489
▁서브	-2490
니티	-2491
▁서술	-2492
▁생물	-2493
▁불명	-2494
▁이라고	-2495
▁자료	-2496
▁최후	-2497
오르	-2498
▁일본어	-2499
▁장난	-2500
▁형식	-2501
▁관통	-2502
▁약점	-2503
▁컨셉	-2504
▁섞	-2505
▁몹	-2506
▁광주	-2507
▁달러	-2508
▁You	-2509
▁드러내	-2510
▁행성	-2511
▁2004	-2512
런스	-2513
▁앉	-2514
▁눈물	-2515
ri	-2516
▁정책	-2517
▁전술	-2518
▁통신	-2519
▁상자	-2520
uby	-2521
▁바닥	-2522
▁거부	-2523
▁놀라	-2524
▁빼앗	-2525
▁모험	-2526
▁액션	-2527
▁비고	-2528
▁부수	-2529
ab	-2530
▁49	-2531
시스	-2532
▁들리	-2533
▁어라	-2534
▁ㄴ지라	-2535
▁젊	-2536
▁미리	-2537
RA	-2538
▁오리지널	-2539
▁락	-2540
▁AP	-2541
▁박사	-2542
▁의도	-2543
▁명중	-2544
▁반복	-2545
▁간단	-2546
▁벗어나	-2547
▁인형	-2548
▁56	-2549
▁트랙	-2550
▁쿨타임	-2551
로우	-2552
▁회장	-2553
▁그때	-2554
est	-2555
▁ST	-2556
래프트	-2557
▁매일	-2558
▁개월	-2559
▁챙	-2560
▁400	-2561
▁의지	-2562
▁ruby	-2563
▁등록	-2564
▁영입	-2565
▁해석	-2566
▁공동	-2567
▁구단	-2568
▁대응	-2569
▁는다는	-2570
▁마크	-2571
▁지적	-2572
▁MBC	-2573
▁이치	-2574
▁언론	-2575
▁값	-2576
▁웬	-2577
▁먹이	-2578
▁열차	-2579
▁리어	-2580
▁오토	-2581
▁In	-2582
▁찾아오	-2583
▁dd	-2584
▁지명	-2585
▁목숨	-2586
▁오랜	-2587
▁개봉	-2588
▁주력	-2589
▁원거리	-2590
▁코어	-2591
ttp	-2592
AL	-2593
▁가하	-2594
스케	-2595
▁선언	-2596
▁http	-2597
▁85	-2598
▁한국어	-2599
▁혐	-2600
▁소식	-2601
▁차례	-2602
▁언어	-2603
▁윌	-2604
자리	-2605
▁흡수	-2606
▁더블	-2607
▁데이터	-2608
▁거짓	-2609
▁사상	-2610
▁사과	-2611
▁설계	-2612
▁풀리	-2613
▁지나가	-2614
▁승부	-2615
▁방해	-2616
▁자동차	-2617
▁역전	-2618
▁쓰러지	-2619
▁느냐	-2620
▁탯	-2621
▁193	-2622
▁텔	-2623
▁53	-2624
▁혜	-2625
▁편하	-2626
▁54	-2627
▁저지르	-2628
▁카즈	-2629
▁2002	-2630
리트	-2631
▁엄마	-2632
▁카페	-2633
▁긴	-2634
퓨터	-2635
▁살아남	-2636
▁대단	-2637
▁디지	-2638
▁여름	-2639
▁연계	-2640
▁망하	-2641
▁숫자	-2642
▁모티브	-2643
▁핑	-2644
▁필살기	-2645
▁합치	-2646
▁조각	-2647
▁닮	-2648
▁저주	-2649
▁원하	-2650
▁기자	-2651
▁떼	-2652
▁ㅏ서	-2653
올리	-2654
▁미스	-2655
▁유우	-2656
▁소울	-2657
▁진입	-2658
▁불과	-2659
▁겹	-2660
▁쳐	-2661
오스	-2662
▁랄	-2663
▁체육	-2664
▁아요	-2665
▁황금	-2666
▁PC	-2667
▁수리	-2668
▁상대방	-2669
▁완료	-2670
▁맺	-2671
▁질문	-2672
▁쿄	-2673
▁텍	-2674
▁가정	-2675
▁장기	-2676
▁무섭	-2677
▁수호	-2678
▁산업	-2679
▁생성	-2680
▁착용	-2681
▁적절	-2682
나가	-2683
▁덩	-2684
▁Sh	-2685
▁해제	-2686
▁공화	-2687
어내	-2688
▁컴퓨터	-2689
▁단순히	-2690
동생	-2691
▁터미널	-2692
dddd	-2693
▁dddddd	-2694
▁꼴	-2695
▁멈	-2696
▁가져오	-2697
▁표정	-2698
▁드라이	-2699
▁들이	-2700
▁필수	-2701
니스	-2702
▁카운터	-2703
▁테마	-2704
▁에이스	-2705
▁딱히	-2706
▁실시	-2707
▁컷	-2708
▁독자	-2709
▁의심	-2710
▁편성	-2711
▁ff	-2712
▁선정	-2713
▁행적	-2714
▁유도	-2715
▁비트	-2716
▁선물	-2717
▁확실히	-2718
up	-2719
▁습격	-2720
▁무력	-2721
▁전환	-2722
▁연주	-2723
▁기어	-2724
▁감안	-2725
▁당장	-2726
▁드립	-2727
▁훌	-2728
▁페르	-2729
▁꾸준	-2730
▁왼쪽	-2731
▁특기	-2732
▁날개	-2733
▁뮤직	-2734
▁걷	-2735
▁인류	-2736
▁집단	-2737
▁패시브	-2738
▁기점	-2739
▁함대	-2740
▁셰	-2741
▁아름	-2742
▁솔로	-2743
▁소비	-2744
▁안전	-2745
▁퓨	-2746
▁개선	-2747
▁제도	-2748
▁박스	-2749
▁re	-2750
▁i	-2751
▁횟	-2752
▁데리	-2753
▁59	-2754
▁잠깐	-2755
▁가스	-2756
▁날아가	-2757
▁위원회	-2758
▁확보	-2759
▁사장	-2760
▁행복	-2761
▁MP	-2762
▁로써	-2763
▁경력	-2764
▁회전	-2765
VE	-2766
▁구축	-2767
▁돌파	-2768
▁친하	-2769
▁부리	-2770
▁코치	-2771
▁마츠	-2772
▁지옥	-2773
▁스킨	-2774
▁챙기	-2775
▁희망	-2776
▁으로부터	-2777
▁테크	-2778
▁설립	-2779
▁비싸	-2780
▁Re	-2781
▁을까	-2782
▁스마	-2783
▁제압	-2784
▁올림픽	-2785
▁장군	-2786
▁일종	-2787
▁시나리오	-2788
▁진정	-2789
ate	-2790
▁블루	-2791
▁전통	-2792
▁Sp	-2793
▁가슴	-2794
▁58	-2795
레이션	-2796
▁꺼내	-2797
▁멈추	-2798
▁상처	-2799
▁시내	-2800
▁통과	-2801
▁하위	-2802
ard	-2803
▁대답	-2804
▁멀티	-2805
▁적극	-2806
▁라디오	-2807
▁횟수	-2808
▁듀얼	-2809
▁마침	-2810
▁공항	-2811
▁120	-2812
▁수사	-2813
▁공사	-2814
▁패스	-2815
▁인지	-2816
▁체제	-2817
모리	-2818
▁지나치	-2819
▁안드	-2820
▁초대	-2821
▁촉	-2822
AT	-2823
▁딜러	-2824
▁편집	-2825
▁방문	-2826
▁그라	-2827
ang	-2828
OR	-2829
▁문명	-2830
▁57	-2831
▁버튼	-2832
▁비디오	-2833
▁펀	-2834
▁의문	-2835
▁해금	-2836
연히	-2837
▁위주	-2838
▁롱	-2839
▁리스	-2840
▁현장	-2841
▁묶	-2842
▁66	-2843
▁95	-2844
▁눈치	-2845
▁처치	-2846
▁수원	-2847
▁케이스	-2848
▁태도	-2849
▁동맹	-2850
▁엉	-2851
▁댓	-2852
▁선보이	-2853
트롤	-2854
울리	-2855
▁2003	-2856
▁귀엽	-2857
▁고통	-2858
▁료	-2859
▁코너	-2860
▁작성	-2861
▁진영	-2862
▁대놓	-2863
▁투자	-2864
▁콩	-2865
▁뱀	-2866
▁전장	-2867
▁갱	-2868
▁태양	-2869
▁크로스	-2870
▁분리	-2871
▁장전	-2872
▁유키	-2873
▁계기	-2874
▁비난	-2875
▁마왕	-2876
▁노동	-2877
▁예선	-2878
▁핸	-2879
▁스페인	-2880
▁한자	-2881
▁제안	-2882
▁최악	-2883
IA	-2884
▁랩	-2885
▁제로	-2886
▁흐르	-2887
▁육군	-2888
▁공부	-2889
▁에스	-2890
▁고유	-2891
▁가까	-2892
▁후속	-2893
▁삼국	-2894
▁고서	-2895
▁게시	-2896
▁아름답	-2897
▁스위	-2898
PS	-2899
▁깎	-2900
▁겨우	-2901
▁스펙	-2902
▁레이저	-2903
▁be	-2904
ess	-2905
▁시체	-2906
ok	-2907
▁배신	-2908
▁회의	-2909
ant	-2910
▁좁	-2911
▁평화	-2912
▁Bl	-2913
▁오른쪽	-2914
▁가져가	-2915
▁BG	-2916
▁110	-2917
▁개최	-2918
▁성인	-2919
▁꼽	-2920
르크	-2921
▁아머	-2922
▁내려가	-2923
▁나카	-2924
▁조준	-2925
▁게이지	-2926
▁견제	-2927
▁on	-2928
▁여부	-2929
▁룰	-2930
▁용병	-2931
▁멀리	-2932
▁ㄹ수록	-2933
▁점령	-2934
▁컨트롤	-2935
▁궤	-2936
▁기획	-2937
▁궁극	-2938
▁ㅓ서	-2939
▁달라지	-2940
▁탑재	-2941
▁젤	-2942
▁타이밍	-2943
ell	-2944
▁청소	-2945
▁극장판	-2946
▁매치	-2947
▁보급	-2948
▁봄	-2949
▁카메라	-2950
▁춤	-2951
IC	-2952
▁SS	-2953
▁가볍	-2954
▁or	-2955
▁진실	-2956
▁어울리	-2957
머리	-2958
▁베이스	-2959
▁애매	-2960
▁자라	-2961
라리	-2962
▁쓰러	-2963
▁최대한	-2964
ct	-2965
▁충전	-2966
▁62	-2967
▁직원	-2968
▁남편	-2969
▁에어	-2970
▁373	-2971
마스	-2972
▁관광	-2973
ue	-2974
ine	-2975
▁기분	-2976
▁정령	-2977
▁잖	-2978
▁그레이	-2979
▁체인	-2980
아리	-2981
▁순서	-2982
▁게이	-2983
▁보도	-2984
▁스피드	-2985
▁댄스	-2986
▁은퇴	-2987
▁후반부	-2988
▁수단	-2989
▁온라인	-2990
래도	-2991
의원	-2992
▁오스	-2993
▁틈	-2994
▁모션	-2995
▁한화	-2996
▁민주당	-2997
▁....	-2998
▁하트	-2999
▁늘리	-3000
▁아무래도	-3001
▁NP	-3002
▁멸망	-3003
▁레전	-3004
▁허용	-3005
▁튜	-3006
▁트레	-3007
▁교회	-3008
▁Al	-3009
▁격투	-3010
▁세계관	-3011
▁밸런스	-3012
▁약속	-3013
무원	-3014
▁보수	-3015
ist	-3016
▁알렉	-3017
▁얼음	-3018
▁76	-3019
▁스코어	-3020
▁트위	-3021
▁여왕	-3022
▁치르	-3023
▁Th	-3024
▁스탠	-3025
ove	-3026
▁파이터	-3027
ore	-3028
▁우수	-3029
▁부담	-3030
▁갓	-3031
▁갤러리	-3032
▁토스	-3033
▁스프	-3034
▁대원	-3035
▁등등	-3036
▁com	-3037
워하	-3038
다르	-3039
▁빔	-3040
▁후지	-3041
▁오오	-3042
▁유용	-3043
▁헤드	-3044
▁로켓	-3045
▁울트라	-3046
▁77	-3047
▁융	-3048
▁돌격	-3049
▁61	-3050
▁뱅	-3051
▁막히	-3052
▁무게	-3053
▁삶	-3054
▁{	-3055
▁고급	-3056
▁생일	-3057
▁지식	-3058
▁규정	-3059
▁기절	-3060
▁샌	-3061
▁갈리	-3062
▁차별	-3063
▁판타	-3064
▁젠	-3065
▁본선	-3066
▁미나	-3067
▁커뮤	-3068
▁아프리카	-3069
ort	-3070
▁렉	-3071
▁자고	-3072
▁병기	-3073
▁는다고	-3074
▁88	-3075
▁끼리	-3076
피스	-3077
붙이	-3078
▁72	-3079
▁그리스	-3080
▁중단	-3081
▁가면라이더	-3082
▁측면	-3083
▁랜덤	-3084
▁장애	-3085
▁분야	-3086
심히	-3087
▁퍼지	-3088
▁자이	-3089
▁스케	-3090
▁트레이	-3091
▁지점	-3092
▁}	-3093
두르	-3094
▁2001	-3095
▁겹치	-3096
▁셔	-3097
▁닥터	-3098
▁따위	-3099
로이드	-3100
▁마녀	-3101
▁언니	-3102
▁패러디	-3103
바이	-3104
▁발휘	-3105
▁경기도	-3106
▁주목	-3107
▁자살	-3108
▁넷	-3109
▁회수	-3110
▁도서	-3111
▁드물	-3112
▁제시	-3113
ive	-3114
▁외부	-3115
▁인생	-3116
▁입수	-3117
▁피해자	-3118
▁포르	-3119
▁취소	-3120
▁살해	-3121
▁외치	-3122
▁ffff	-3123
▁웨이	-3124
▁경계	-3125
▁자르	-3126
▁공통	-3127
▁삽	-3128
▁내주	-3129
OS	-3130
▁아사	-3131
▁유래	-3132
▁미야	-3133
▁도구	-3134
ong	-3135
▁군주	-3136
▁교환	-3137
▁공원	-3138
▁커버	-3139
워드	-3140
▁릭	-3141
달리	-3142
▁개편	-3143
▁국적	-3144
▁오프닝	-3145
▁아침	-3146
▁어차	-3147
▁민족	-3148
▁SBS	-3149
▁트위터	-3150
▁공장	-3151
▁승강	-3152
▁ffffff	-3153
ers	-3154
▁어차피	-3155
AM	-3156
▁스페셜	-3157
▁장수	-3158
▁계산	-3159
오리	-3160
▁킥	-3161
▁재판	-3162
▁윙	-3163
▁서포	-3164
▁핵심	-3165
▁페이스	-3166
▁부진	-3167
크래프트	-3168
▁대놓고	-3169
▁PS	-3170
▁붕괴	-3171
▁사단	-3172
▁끌어	-3173
AS	-3174
▁98	-3175
▁이성	-3176
▁교사	-3177
▁구입	-3178
▁온갖	-3179
▁제기	-3180
▁낳	-3181
▁단독	-3182
▁191	-3183
▁바탕	-3184
▁거절	-3185
▁겨울	-3186
▁몰리	-3187
▁어린	-3188
▁소수	-3189
▁브랜드	-3190
유키	-3191
▁찌르	-3192
스티	-3193
▁출생	-3194
▁용도	-3195
니어	-3196
▁갑옷	-3197
▁영역	-3198
다수	-3199
▁ㅓ야	-3200
▁당선	-3201
▁건너	-3202
▁메탈	-3203
터리	-3204
▁펠	-3205
▁탄생	-3206
▁살짝	-3207
▁출발	-3208
▁함선	-3209
▁아시아	-3210
▁카나	-3211
▁요원	-3212
▁상하	-3213
▁은근	-3214
ED	-3215
▁납치	-3216
어리	-3217
ip	-3218
▁분석	-3219
피아	-3220
▁꾸준히	-3221
▁귀족	-3222
▁은행	-3223
▁스파이	-3224
▁페이지	-3225
▁오후	-3226
▁주연	-3227
▁작사	-3228
▁선배	-3229
▁화살	-3230
▁타워	-3231
▁순수	-3232
ain	-3233
▁자식	-3234
▁CD	-3235
즈키	-3236
▁증거	-3237
▁파악	-3238
▁재생	-3239
if	-3240
▁600	-3241
▁습득	-3242
▁가르치	-3243
▁엑스	-3244
▁대공	-3245
▁하수	-3246
하라	-3247
▁섭	-3248
▁자격	-3249
▁쏟	-3250
▁예술	-3251
▁홍보	-3252
▁업무	-3253
▁이스	-3254
가락	-3255
▁우려	-3256
▁협력	-3257
ee	-3258
▁당황	-3259
리티	-3260
▁고민	-3261
▁1990	-3262
▁무너지	-3263
거나	-3264
▁군인	-3265
▁유형	-3266
▁보정	-3267
▁|	-3268
▁훌륭	-3269
디션	-3270
▁베르	-3271
티컬	-3272
▁테러	-3273
▁플라	-3274
아나	-3275
▁사카	-3276
EN	-3277
▁밟	-3278
▁미소	-3279
▁열심히	-3280
▁레전드	-3281
▁신화	-3282
▁적당	-3283
▁폭풍	-3284
▁카르	-3285
▁경유	-3286
▁영원	-3287
▁쓰레	-3288
▁지우	-3289
▁댓글	-3290
▁마인	-3291
▁응원	-3292
▁흔히	-3293
▁MV	-3294
▁내내	-3295
▁가로	-3296
▁맡기	-3297
▁모리	-3298
▁프라	-3299
▁뒤집	-3300
▁불안	-3301
▁괴롭	-3302
▁63	-3303
▁없애	-3304
▁보물	-3305
▁비록	-3306
▁러브	-3307
▁주도	-3308
▁퀄	-3309
▁흘리	-3310
▁거래	-3311
▁틱	-3312
▁정말로	-3313
▁부인	-3314
▁왕자	-3315
▁탑승	-3316
▁만족	-3317
▁소드	-3318
▁출처	-3319
세이	-3320
▁장관	-3321
▁종점	-3322
▁혼란	-3323
▁챠	-3324
▁누리	-3325
▁68	-3326
▁무적	-3327
들리	-3328
▁채용	-3329
▁감사	-3330
▁아리	-3331
▁스트라이	-3332
▁네이버	-3333
ith	-3334
ld	-3335
▁운전	-3336
▁본명	-3337
▁컨텐츠	-3338
▁찾아가	-3339
▁대다수	-3340
▁문제점	-3341
ly	-3342
▁운명	-3343
▁실질	-3344
▁파이어	-3345
▁나뉘	-3346
▁반격	-3347
▁내놓	-3348
▁800	-3349
▁늑	-3350
▁계급	-3351
▁트라	-3352
▁옹	-3353
▁라스	-3354
▁균	-3355
▁71	-3356
▁미군	-3357
▁중계	-3358
레인	-3359
▁커뮤니티	-3360
▁정류	-3361
▁라이벌	-3362
▁오해	-3363
ind	-3364
▁김성	-3365
▁초월	-3366
▁짝	-3367
▁지급	-3368
▁돌진	-3369
▁푸르	-3370
▁오류	-3371
▁두산	-3372
▁수입	-3373
▁74	-3374
▁가까이	-3375
▁AC	-3376
▁전함	-3377
▁덴	-3378
아먹	-3379
▁전공	-3380
▁연도	-3381
▁랜드	-3382
▁파라	-3383
▁연예	-3384
OL	-3385
▁카라	-3386
▁메타	-3387
▁치명타	-3388
▁공군	-3389
▁67	-3390
▁설득	-3391
▁체계	-3392
▁낚	-3393
▁소문	-3394
▁찰	-3395
다지	-3396
▁메가	-3397
이터	-3398
▁기기	-3399
ew	-3400
▁아나	-3401
▁아트	-3402
▁캔	-3403
▁통일	-3404
▁충돌	-3405
▁아오	-3406
▁여신	-3407
▁반영	-3408
▁즉시	-3409
▁단위	-3410
▁화장	-3411
▁거주	-3412
ry	-3413
▁문자	-3414
▁73	-3415
▁코믹스	-3416
▁불꽃	-3417
바로	-3418
▁그림자	-3419
▁TH	-3420
▁편의	-3421
▁안습	-3422
ast	-3423
▁말리	-3424
시오	-3425
▁지시	-3426
▁닿	-3427
▁NC	-3428
▁96	-3429
▁홍콩	-3430
▁학과	-3431
▁레오	-3432
▁전투력	-3433
▁짜리	-3434
▁크루	-3435
▁AT	-3436
▁주년	-3437
▁걸치	-3438
▁해방	-3439
▁내려오	-3440
▁다행히	-3441
▁시야	-3442
▁me	-3443
▁크리티컬	-3444
▁비율	-3445
카와	-3446
▁둘러	-3447
▁제조	-3448
IT	-3449
▁슬롯	-3450
츠키	-3451
▁국회의원	-3452
▁제하	-3453
▁피아	-3454
▁떡밥	-3455
▁상향	-3456
▁일부러	-3457
LC	-3458
▁생명력	-3459
▁신뢰	-3460
▁정지	-3461
▁널	-3462
▁격파	-3463
▁공화국	-3464
EC	-3465
▁81	-3466
▁그다지	-3467
▁써	-3468
▁관객	-3469
▁암흑	-3470
▁심장	-3471
▁깃	-3472
▁소프트	-3473
▁신고	-3474
▁수업	-3475
▁오로	-3476
▁지켜	-3477
▁파이널	-3478
▁CP	-3479
▁쓰러뜨리	-3480
▁토모	-3481
▁닌자	-3482
▁곰	-3483
▁그만큼	-3484
▁사전	-3485
▁등판	-3486
▁무난	-3487
▁동네	-3488
▁늑대	-3489
▁판타지	-3490
▁맘	-3491
▁가득	-3492
▁마주	-3493
▁붙잡	-3494
▁j	-3495
▁엘프	-3496
FA	-3497
▁가입	-3498
사카	-3499
▁유비	-3500
▁192	-3501
▁연사	-3502
▁1999	-3503
▁별개	-3504
▁덮	-3505
나다	-3506
▁고기	-3507
▁사운드	-3508
▁압박	-3509
▁마술	-3510
▁본부	-3511
▁집안	-3512
▁NPC	-3513
▁78	-3514
▁아티	-3515
식간	-3516
▁84	-3517
▁리버	-3518
▁건강	-3519
▁근무	-3520
end	-3521
▁재능	-3522
▁창작	-3523
▁순식간	-3524
▁막장	-3525
▁91	-3526
▁짱	-3527
▁든지	-3528
▁반란	-3529
▁an	-3530
▁드디어	-3531
▁실드	-3532
고기	-3533
▁업체	-3534
▁저런	-3535
▁추적	-3536
▁룡	-3537
▁지하철	-3538
▁장식	-3539
▁지켜보	-3540
▁제주	-3541
▁뛰어	-3542
▁지형	-3543
▁화이트	-3544
▁신세	-3545
▁팝	-3546
▁묵	-3547
▁1998	-3548
▁it	-3549
▁가이	-3550
▁불만	-3551
▁전적	-3552
▁입학	-3553
▁경향	-3554
▁증명	-3555
▁!!	-3556
▁처하	-3557
▁수학	-3558
▁경험치	-3559
▁쿼	-3560
og	-3561
▁상품	-3562
세우	-3563
▁천사	-3564
▁브리	-3565
▁게이트	-3566
▁아가	-3567
▁기원	-3568
▁ㅕ서	-3569
▁사쿠라	-3570
▁대만	-3571
▁낭	-3572
▁형성	-3573
▁신청	-3574
▁쌓이	-3575
▁An	-3576
▁전방	-3577
▁테이	-3578
▁예고	-3579
▁스티	-3580
▁여동생	-3581
▁매력	-3582
▁오픈	-3583
▁겟	-3584
▁블레이드	-3585
▁쓰레기	-3586
▁노멀	-3587
▁지르	-3588
▁적히	-3589
▁절반	-3590
▁정권	-3591
▁사령관	-3592
▁콜라	-3593
▁97	-3594
▁클로	-3595
▁쿠키	-3596
아버지	-3597
▁나루	-3598
▁팅	-3599
▁주먹	-3600
▁섹	-3601
▁감염	-3602
▁마도	-3603
▁마이크	-3604
▁다시피	-3605
▁이마	-3606
▁의상	-3607
▁여론	-3608
▁룬	-3609
▁외국인	-3610
▁Ar	-3611
광역	-3612
▁He	-3613
▁령	-3614
▁오빠	-3615
▁타점	-3616
▁82	-3617
▁회차	-3618
▁강조	-3619
▁유희	-3620
▁라이더	-3621
▁69	-3622
▁키스	-3623
돼지	-3624
▁사토	-3625
▁단일	-3626
▁이론	-3627
지컬	-3628
▁메카	-3629
▁이승	-3630
▁선호	-3631
▁어택	-3632
▁근거	-3633
▁소멸	-3634
▁연상	-3635
▁복장	-3636
▁잖아	-3637
▁별도	-3638
▁엔터	-3639
▁전선	-3640
▁바보	-3641
▁코인	-3642
▁고치	-3643
▁is	-3644
▁실행	-3645
돌리	-3646
▁대륙	-3647
타로	-3648
▁250	-3649
트로	-3650
▁스톤	-3651
▁주전	-3652
▁공작	-3653
▁for	-3654
▁썰	-3655
▁작용	-3656
광역시	-3657
▁최상	-3658
▁디아	-3659
▁아무것	-3660
▁한때	-3661
▁공기	-3662
▁아메	-3663
▁180	-3664
▁핀	-3665
▁MAX	-3666
▁86	-3667
▁반지	-3668
▁부품	-3669
▁평타	-3670
▁SN	-3671
▁화려	-3672
▁요정	-3673
▁190	-3674
▁스토	-3675
▁헌터	-3676
어버리	-3677
▁흔하	-3678
▁해설	-3679
▁권력	-3680
▁찾아	-3681
▁간격	-3682
▁요새	-3683
▁출현	-3684
▁호환	-3685
파이어	-3686
▁따오	-3687
모로	-3688
▁전형	-3689
▁총기	-3690
▁뉴욕	-3691
▁몰래	-3692
▁탱크	-3693
▁퀸	-3694
▁니시	-3695
▁추격	-3696
▁출장	-3697
▁키리	-3698
둥이	-3699
▁바라보	-3700
▁박살	-3701
▁이랑	-3702
▁토리	-3703
▁굽	-3704
▁조용	-3705
▁구도	-3706
▁울산	-3707
▁사자	-3708
▁무효	-3709
▁돌아다니	-3710
▁주위	-3711
ath	-3712
▁마스	-3713
▁스카이	-3714
레나	-3715
▁경상	-3716
▁연애	-3717
▁BGM	-3718
▁프레임	-3719
▁탁	-3720
▁시드	-3721
더스	-3722
▁명예	-3723
서트	-3724
▁여러모로	-3725
▁마리오	-3726
▁권총	-3727
▁범인	-3728
av	-3729
▁폭격	-3730
▁께	-3731
▁이슬	-3732
▁경비	-3733
▁주어지	-3734
RE	-3735
▁1997	-3736
▁제이	-3737
▁추락	-3738
▁동기	-3739
50	-3740
▁대우	-3741
▁De	-3742
▁경영	-3743
▁테스트	-3744
▁심리	-3745
▁우스	-3746
▁Te	-3747
타인	-3748
▁아무런	-3749
▁자는	-3750
▁신규	-3751
▁지대	-3752
▁심판	-3753
▁폭주	-3754
▁모바	-3755
▁놓치	-3756
듀서	-3757
▁블록	-3758
▁프로듀서	-3759
▁클라	-3760
▁후쿠	-3761
▁소총	-3762
웨이	-3763
▁영업	-3764
▁갈등	-3765
▁거짓말	-3766
▁공유	-3767
▁MS	-3768
▁아크	-3769
▁하수인	-3770
se	-3771
▁변호	-3772
드라	-3773
▁일상	-3774
▁수요	-3775
▁탄약	-3776
▁계승	-3777
one	-3778
▁외교	-3779
히로	-3780
▁고교	-3781
▁전대	-3782
어스	-3783
▁환상	-3784
▁메인	-3785
▁그래픽	-3786
▁메이저	-3787
▁고전	-3788
▁학살	-3789
▁통제	-3790
▁요괴	-3791
▁브라질	-3792
▁북미	-3793
▁사양	-3794
겨나	-3795
▁렙	-3796
▁상점	-3797
▁언제나	-3798
▁Be	-3799
▁보석	-3800
▁마련	-3801
▁시각	-3802
▁입력	-3803
사키	-3804
▁변형	-3805
남도	-3806
▁이득	-3807
▁83	-3808
▁터치	-3809
▁폭력	-3810
▁띄우	-3811
▁제법	-3812
▁공학	-3813
▁훔	-3814
▁옛날	-3815
▁만든	-3816
▁탱커	-3817
▁혁명	-3818
▁맞서	-3819
▁유령	-3820
▁빗	-3821
▁불편	-3822
▁블러	-3823
▁제작진	-3824
▁통상	-3825
▁커맨	-3826
퍼스	-3827
▁그곳	-3828
▁작동	-3829
▁미츠	-3830
▁KT	-3831
▁리스트	-3832
▁믹	-3833
스트라	-3834
ust	-3835
▁92	-3836
▁용사	-3837
▁89	-3838
▁예외	-3839
▁동원	-3840
가와	-3841
▁전투기	-3842
▁조치	-3843
▁진지	-3844
▁타케	-3845
▁94	-3846
▁조심	-3847
▁휘두르	-3848
▁승강장	-3849
▁연대	-3850
▁고생	-3851
▁민간	-3852
▁구현	-3853
▁수집	-3854
▁스마트	-3855
▁미디어	-3856
▁머신	-3857
도우	-3858
▁파일럿	-3859
▁현지	-3860
ide	-3861
▁한국인	-3862
▁프로필	-3863
▁둥	-3864
▁일자	-3865
▁포탑	-3866
▁검색	-3867
▁79	-3868
려움	-3869
▁네임	-3870
▁워치	-3871
▁앵	-3872
▁쿠로	-3873
▁Le	-3874
▁입구	-3875
노스	-3876
▁이리	-3877
▁챕	-3878
▁이란	-3879
▁조조	-3880
▁메시	-3881
보내	-3882
▁사이즈	-3883
▁겐	-3884
▁쇠	-3885
▁되찾	-3886
▁신인	-3887
▁경기장	-3888
▁모바일	-3889
▁꺾	-3890
▁조절	-3891
일드	-3892
▁Se	-3893
▁멋지	-3894
▁93	-3895
나무	-3896
ity	-3897
▁동영	-3898
▁차단	-3899
▁신장	-3900
PG	-3901
▁콘서트	-3902
▁요즘	-3903
▁US	-3904
▁쟈	-3905
▁부위	-3906
▁감시	-3907
▁물러	-3908
▁표준	-3909
▁카미	-3910
▁레스	-3911
▁다이아	-3912
▁챕터	-3913
▁레인저	-3914
▁보장	-3915
▁교전	-3916
▁편지	-3917
▁긍	-3918
▁음반	-3919
▁수송	-3920
저히	-3921
▁마루	-3922
▁시행	-3923
OT	-3924
▁정류장	-3925
▁동방	-3926
▁87	-3927
▁덧	-3928
▁도발	-3929
▁폐지	-3930
어도	-3931
일리	-3932
▁공산	-3933
▁프린	-3934
▁맞이	-3935
▁스톰	-3936
▁1996	-3937
▁101	-3938
▁동영상	-3939
▁길드	-3940
▁상상	-3941
▁한방	-3942
▁연락	-3943
▁배차	-3944
▁다면서	-3945
▁패널	-3946
▁리얼	-3947
▁기습	-3948
▁AI	-3949
▁볼넷	-3950
▁으니까	-3951
▁용어	-3952
▁1995	-3953
북도	-3954
ere	-3955
▁MC	-3956
▁DJ	-3957
▁구출	-3958
▁겁	-3959
▁음성	-3960
▁자이언	-3961
AC	-3962
▁슛	-3963
▁텔레	-3964
▁프리미	-3965
▁어지	-3966
▁호평	-3967
▁루타	-3968
▁앱	-3969
▁연방	-3970
▁똑같이	-3971
▁그치	-3972
▁이재	-3973
▁태우	-3974
▁김정	-3975
▁어깨	-3976
▁특화	-3977
▁훔치	-3978
▁On	-3979
▁마냥	-3980
▁라이프	-3981
▁도달	-3982
age	-3983
▁나타내	-3984
▁쟁	-3985
▁냐며	-3986
▁추진	-3987
▁세월	-3988
▁계정	-3989
▁도서관	-3990
▁흥행	-3991
▁볼트	-3992
▁이날	-3993
▁사이드	-3994
▁연관	-3995
▁잠수	-3996
▁강철	-3997
▁간부	-3998
▁익숙	-3999
▁매니	-4000
▁핸드	-4001
▁무료	-4002
▁결승전	-4003
펙트	-4004
▁슈트	-4005
▁리아	-4006
▁농구	-4007
▁신문	-4008
▁지휘관	-4009
▁전달	-4010
▁번개	-4011
▁레이드	-4012
▁노예	-4013
▁가시	-4014
▁헤이	-4015
▁웬만	-4016
▁극단	-4017
▁삼진	-4018
자키	-4019
▁신분	-4020
▁도망가	-4021
▁향상	-4022
▁@	-4023
오프	-4024
▁고향	-4025
▁겉	-4026
▁주소	-4027
▁.....	-4028
▁전직	-4029
▁루시	-4030
▁리메	-4031
▁수술	-4032
▁신기	-4033
▁양산	-4034
메달	-4035
▁켜	-4036
▁그동안	-4037
▁출력	-4038
▁빌드	-4039
▁켈	-4040
▁묘지	-4041
▁환자	-4042
▁조지	-4043
▁사마	-4044
레이터	-4045
▁넘치	-4046
▁노출	-4047
▁신성	-4048
▁빛나	-4049
▁마구	-4050
▁캐리	-4051
▁가상	-4052
▁박근	-4053
▁아우	-4054
▁장교	-4055
▁전역	-4056
▁복잡	-4057
▁진심	-4058
▁팀원	-4059
▁제자	-4060
▁스튜	-4061
▁레이스	-4062
▁샘	-4063
조리	-4064
▁헨	-4065
▁가속	-4066
▁동작	-4067
▁적어도	-4068
▁환승	-4069
▁임명	-4070
▁글자	-4071
▁베트	-4072
▁갤럭	-4073
qu	-4074
▁부문	-4075
▁멕	-4076
▁소닉	-4077
▁px	-4078
▁세이브	-4079
▁봇	-4080
▁입단	-4081
▁커플	-4082
▁가게	-4083
▁절망	-4084
▁DLC	-4085
ood	-4086
▁캐스	-4087
▁내구	-4088
▁대체로	-4089
▁쾌	-4090
▁차리	-4091
▁AK	-4092
▁반하	-4093
▁해체	-4094
▁아시	-4095
▁기병	-4096
▁내성	-4097
▁성별	-4098
▁타마	-4099
▁망치	-4100
▁임시	-4101
창기	-4102
▁아빠	-4103
▁명중률	-4104
▁틀리	-4105
▁핫	-4106
▁종이	-4107
▁구속	-4108
▁THE	-4109
BO	-4110
▁착각	-4111
▁브레이크	-4112
▁페이즈	-4113
▁알파	-4114
▁었었	-4115
▁여유	-4116
▁MVP	-4117
▁너무나	-4118
▁전시	-4119
▁막차	-4120
▁차라리	-4121
▁근육	-4122
▁플레	-4123
▁득표	-4124
▁갤럭시	-4125
▁수영	-4126
▁육성	-4127
▁멍	-4128
▁연구소	-4129
란색	-4130
▁발매되	-4131
▁Wh	-4132
▁중화	-4133
▁뼈	-4134
IS	-4135
▁이즈	-4136
are	-4137
오카	-4138
▁고백	-4139
▁경고	-4140
▁CC	-4141
PM	-4142
▁인수	-4143
▁그럼	-4144
▁대량	-4145
▁빡	-4146
▁융합	-4147
▁공지	-4148
▁창조	-4149
▁개통	-4150
▁자매	-4151
끄럽	-4152
▁리메이크	-4153
▁이자	-4154
▁강원	-4155
▁참전	-4156
▁분기	-4157
▁1994	-4158
▁배트	-4159
▁하필	-4160
▁물질	-4161
전자	-4162
▁아끼	-4163
▁인증	-4164
▁$	-4165
▁엮	-4166
▁규칙	-4167
▁의뢰	-4168
▁카오스	-4169
▁ㅕㅆ	-4170
▁대대	-4171
▁럭	-4172
▁람	-4173
▁인연	-4174
▁묻히	-4175
▁1980	-4176
▁시즈	-4177
▁파리	-4178
▁소화	-4179
▁초창기	-4180
▁리치	-4181
▁날짜	-4182
▁지능	-4183
▁실버	-4184
▁먹히	-4185
▁글로	-4186
▁제어	-4187
▁남부	-4188
▁협회	-4189
브리	-4190
▁구체	-4191
▁게스트	-4192
▁점차	-4193
▁톱	-4194
▁식사	-4195
▁뭉	-4196
OM	-4197
▁끼치	-4198
▁카타	-4199
▁분량	-4200
▁가량	-4201
▁성과	-4202
▁이시	-4203
▁청년	-4204
ob	-4205
크스	-4206
▁악역	-4207
▁700	-4208
▁고용	-4209
▁그대	-4210
▁태그	-4211
▁둔	-4212
▁이내	-4213
▁의혹	-4214
▁객	-4215
▁미카	-4216
▁대립	-4217
▁누적	-4218
▁Tr	-4219
▁투구	-4220
▁어둡	-4221
▁흠	-4222
▁합격	-4223
▁찾아보	-4224
▁돼지	-4225
▁회원	-4226
티나	-4227
ock	-4228
▁떠올리	-4229
▁정복	-4230
▁반발	-4231
▁중대	-4232
▁여지	-4233
▁테일	-4234
▁왠	-4235
▁김영	-4236
▁협박	-4237
▁메모리	-4238
▁녹음	-4239
▁귀신	-4240
▁합체	-4241
ake	-4242
▁감옥	-4243
▁위장	-4244
▁뚜	-4245
먼트	-4246
▁의료	-4247
▁''	-4248
▁결론	-4249
▁이명	-4250
▁웅	-4251
▁아니면	-4252
▁춘	-4253
ect	-4254
▁꼬리	-4255
구리	-4256
▁체포	-4257
our	-4258
OW	-4259
▁오가	-4260
▁호감	-4261
▁는다면	-4262
▁파트너	-4263
ass	-4264
▁곧바로	-4265
▁he	-4266
▁몰아	-4267
▁어쨌	-4268
oy	-4269
▁피격	-4270
▁게시판	-4271
▁출판	-4272
▁FI	-4273
▁써먹	-4274
ire	-4275
▁외계	-4276
▁하고	-4277
▁떠오르	-4278
▁뷰	-4279
보드	-4280
▁잦	-4281
▁강의	-4282
도로	-4283
▁스턴	-4284
▁웹툰	-4285
▁모모	-4286
▁후속작	-4287
지마	-4288
ark	-4289
▁차트	-4290
▁와이	-4291
▁히데	-4292
▁츄	-4293
▁기초	-4294
▁썩	-4295
▁삼국지	-4296
▁정면	-4297
▁예비	-4298
▁아기	-4299
▁깨지	-4300
▁부서	-4301
▁합성	-4302
▁서부	-4303
▁유로	-4304
▁괴롭히	-4305
▁예쁘	-4306
▁베스트	-4307
ite	-4308
▁에다	-4309
▁림	-4310
▁마키	-4311
▁카스	-4312
▁축제	-4313
▁구멍	-4314
▁사제	-4315
▁랭킹	-4316
▁문장	-4317
웨어	-4318
▁햄	-4319
▁동화	-4320
▁블리	-4321
▁토론	-4322
▁편곡	-4323
▁본작	-4324
▁구나	-4325
▁퀄리티	-4326
▁토르	-4327
▁깜	-4328
▁공급	-4329
▁불러	-4330
▁부부	-4331
▁수련	-4332
▁저그	-4333
▁비아	-4334
▁개방	-4335
▁대가	-4336
주시	-4337
ah	-4338
▁인공	-4339
▁렛	-4340
▁안드로이드	-4341
▁단장	-4342
▁횡	-4343
▁FA	-4344
▁마리아	-4345
▁wh	-4346
▁SR	-4347
▁소형	-4348
▁다섯	-4349
▁룸	-4350
▁소원	-4351
▁매체	-4352
▁전면	-4353
▁고문	-4354
▁은하	-4355
▁곁	-4356
성기	-4357
FC	-4358
▁대폭	-4359
▁으려고	-4360
▁kt	-4361
▁마이클	-4362
ES	-4363
▁슈팅	-4364
▁Cl	-4365
▁트로	-4366
라이언	-4367
▁AR	-4368
▁유행	-4369
디아	-4370
▁립	-4371
▁더라	-4372
▁뺏	-4373
▁플랫	-4374
▁해병	-4375
▁예능	-4376
▁활성	-4377
▁캐나다	-4378
▁투어	-4379
▁과목	-4380
▁초간	-4381
UN	-4382
▁클리	-4383
▁문학	-4384
▁파견	-4385
▁뜬	-4386
▁신호	-4387
▁대략	-4388
릭스	-4389
▁일시	-4390
▁목격	-4391
▁매직	-4392
▁세이버	-4393
▁에드	-4394
▁움직임	-4395
▁손가락	-4396
▁내장	-4397
▁넉	-4398
▁커맨드	-4399
▁아일	-4400
▁왕조	-4401
▁시위	-4402
▁컬러	-4403
▁GT	-4404
▁연타	-4405
iz	-4406
ound	-4407
▁적군	-4408
▁달하	-4409
▁관중	-4410
▁외형	-4411
▁포스트	-4412
▁간혹	-4413
▁스틸	-4414
▁긍정	-4415
▁김태	-4416
▁커지	-4417
▁팬덤	-4418
▁야스	-4419
던가	-4420
▁구원	-4421
▁이지	-4422
▁박근혜	-4423
▁일원	-4424
ime	-4425
▁피부	-4426
▁의무	-4427
▁플레이오프	-4428
▁반사	-4429
▁식물	-4430
▁정글	-4431
▁희귀	-4432
▁데모	-4433
▁소지	-4434
▁다가오	-4435
▁프라이	-4436
▁최소한	-4437
▁육체	-4438
▁my	-4439
▁펀치	-4440
▁수수	-4441
▁들어서	-4442
▁SD	-4443
▁블로그	-4444
스턴	-4445
▁코우	-4446
▁PD	-4447
어나오	-4448
▁바위	-4449
▁김민	-4450
▁나아가	-4451
▁은근히	-4452
▁연인	-4453
▁크라	-4454
▁신라	-4455
LL	-4456
우드	-4457
▁상성	-4458
▁Gr	-4459
iv	-4460
▁준수	-4461
▁널리	-4462
▁타이거	-4463
▁대처	-4464
▁피스	-4465
잡이	-4466
▁SC	-4467
▁KIA	-4468
▁ㅓ도	-4469
▁굴리	-4470
▁Me	-4471
▁멘탈	-4472
▁수용	-4473
▁주말	-4474
▁대충	-4475
▁킨	-4476
▁섞이	-4477
밀리	-4478
▁는지라	-4479
▁인근	-4480
▁오카	-4481
▁파크	-4482
▁불법	-4483
버트	-4484
▁섀	-4485
▁일격	-4486
▁메뉴	-4487
ID	-4488
▁ㄴ다며	-4489
▁떨어	-4490
페인	-4491
큐어	-4492
▁각자	-4493
▁까다	-4494
▁예측	-4495
▁자치	-4496
▁개체	-4497
▁116	-4498
▁스미	-4499
▁실리	-4500
▁딩	-4501
▁특집	-4502
▁털리	-4503
▁환영	-4504
▁전철	-4505
▁영토	-4506
▁동부	-4507
▁박정	-4508
▁헤비	-4509
▁곡명	-4510
▁영문	-4511
▁냄	-4512
▁조성	-4513
▁누나	-4514
▁적대	-4515
▁쉐	-4516
▁뜯	-4517
▁다스	-4518
▁놀랍	-4519
▁대지	-4520
▁홀로	-4521
▁SM	-4522
▁멀쩡	-4523
▁My	-4524
▁기사단	-4525
▁으러	-4526
▁로즈	-4527
▁보안	-4528
▁그로	-4529
▁더더	-4530
시코	-4531
▁따라가	-4532
OP	-4533
▁국군	-4534
▁건축	-4535
▁형사	-4536
▁130	-4537
▁서양	-4538
▁소중	-4539
▁커스	-4540
▁침공	-4541
디언	-4542
▁오랫	-4543
▁원본	-4544
▁왈	-4545
▁냥	-4546
구치	-4547
미야	-4548
▁계단	-4549
▁바리	-4550
▁강남	-4551
▁바치	-4552
▁안내	-4553
▁접속	-4554
▁더더욱	-4555
▁이래	-4556
▁거인	-4557
▁어린이	-4558
▁주포	-4559
▁아바	-4560
▁갇	-4561
▁좌우	-4562
▁튀어나오	-4563
▁탄창	-4564
▁어른	-4565
▁훗	-4566
▁Pr	-4567
▁결말	-4568
▁호텔	-4569
▁{{	-4570
▁플로	-4571
▁호주	-4572
▁기독	-4573
▁첨	-4574
▁유이	-4575
▁정찰	-4576
▁지도자	-4577
▁사우	-4578
ge	-4579
데스	-4580
▁면역	-4581
▁골든	-4582
▁깡	-4583
가미	-4584
▁회상	-4585
▁처벌	-4586
▁죄다	-4587
▁허나	-4588
▁알아보	-4589
▁미안	-4590
▁까다롭	-4591
▁액티브	-4592
▁대항	-4593
▁갇히	-4594
▁시선	-4595
▁시내버스	-4596
▁{{{	-4597
▁펫	-4598
▁험	-4599
▁https	-4600
▁후기	-4601
▁절대로	-4602
▁학부	-4603
▁딘	-4604
▁치우	-4605
▁현역	-4606
▁BE	-4607
▁음원	-4608
▁씌	-4609
▁닫	-4610
▁혀	-4611
▁식당	-4612
▁작화	-4613
▁퀴	-4614
▁괴수	-4615
ax	-4616
ome	-4617
▁상당수	-4618
▁포트	-4619
▁깨닫	-4620
▁히메	-4621
▁과연	-4622
▁메르	-4623
▁요코	-4624
▁에서부터	-4625
▁해적	-4626
▁어떠	-4627
▁하야	-4628
▁취미	-4629
▁아이스	-4630
▁재미있	-4631
▁캐스팅	-4632
▁저녁	-4633
▁일기	-4634
덜란드	-4635
▁도우	-4636
▁네덜란드	-4637
▁버스터	-4638
▁DF	-4639
▁전문가	-4640
▁새벽	-4641
▁고스트	-4642
▁삐	-4643
ance	-4644
▁전진	-4645
▁프리큐어	-4646
▁느라	-4647
uc	-4648
▁꽂	-4649
▁주간	-4650
▁과제	-4651
▁로그	-4652
려주	-4653
▁라인업	-4654
ick	-4655
▁모자라	-4656
▁MF	-4657
▁천재	-4658
▁리듬	-4659
▁시계	-4660
▁한동안	-4661
▁아티스트	-4662
▁비행기	-4663
▁열쇠	-4664
▁한번	-4665
▁유치	-4666
▁고지	-4667
▁스키	-4668
▁Pl	-4669
▁ch	-4670
스탄	-4671
▁예시	-4672
닉스	-4673
▁검찰	-4674
▁오스트	-4675
▁기적	-4676
▁자금	-4677
▁하얗	-4678
▁한참	-4679
▁총선	-4680
▁방지	-4681
▁촌	-4682
▁고수	-4683
▁첫차	-4684
▁HD	-4685
▁니코	-4686
요시	-4687
▁승격	-4688
▁리드	-4689
10	-4690
▁용기	-4691
▁\	-4692
ix	-4693
▁우위	-4694
MA	-4695
▁WW	-4696
▁주사	-4697
▁익히	-4698
▁트레이드	-4699
▁트럭	-4700
ord	-4701
▁마비	-4702
mer	-4703
▁트윈	-4704
▁파츠	-4705
▁경기력	-4706
▁보고	-4707
▁방사	-4708
▁챌	-4709
▁드레	-4710
▁??	-4711
▁이슬람	-4712
▁별다르	-4713
▁어지간	-4714
▁휴대	-4715
▁안경	-4716
▁저장	-4717
▁양쪽	-4718
▁짤	-4719
▁스타크래프트	-4720
▁160	-4721
ure	-4722
아웃	-4723
▁코코	-4724
▁램	-4725
▁대리	-4726
▁한마	-4727
▁허리	-4728
▁보라	-4729
▁토끼	-4730
▁할아버지	-4731
▁개성	-4732
가시	-4733
▁농담	-4734
▁물러나	-4735
▁어쨌든	-4736
▁디지털	-4737
▁캠페인	-4738
덩이	-4739
▁GB	-4740
▁신비	-4741
▁캡틴	-4742
▁크리스마스	-4743
고리	-4744
프레	-4745
▁청소년	-4746
▁캠퍼스	-4747
이즈	-4748
▁빚	-4749
▁상급	-4750
▁동굴	-4751
▁꼽히	-4752
▁개정	-4753
▁갈수록	-4754
▁국어	-4755
▁무덤	-4756
▁영향력	-4757
특별	-4758
▁with	-4759
▁문재	-4760
▁OST	-4761
▁마침내	-4762
▁1992	-4763
▁오랫동안	-4764
▁조언	-4765
▁로우	-4766
▁체크	-4767
▁이영	-4768
▁유희왕	-4769
▁웃음	-4770
▁시아	-4771
▁북부	-4772
▁터키	-4773
▁방출	-4774
▁호위	-4775
▁화제	-4776
▁기독교	-4777
▁미술	-4778
▁마이너	-4779
▁인지도	-4780
▁김동	-4781
▁클래식	-4782
▁바퀴	-4783
▁어마	-4784
▁으라	-4785
▁KO	-4786
▁해리	-4787
▁델	-4788
▁1993	-4789
▁연료	-4790
▁아이콘	-4791
▁올해	-4792
라드	-4793
ud	-4794
▁릿	-4795
▁곽	-4796
▁칭하	-4797
▁장악	-4798
▁빼앗기	-4799
▁극복	-4800
▁안티	-4801
바라	-4802
▁원소	-4803
▁접촉	-4804
▁정원	-4805
양함	-4806
▁원수	-4807
▁클릭	-4808
▁의존	-4809
톨릭	-4810
▁베트남	-4811
▁비추	-4812
▁중독	-4813
▁국방	-4814
▁귀찮	-4815
▁시마	-4816
▁SKT	-4817
▁노인	-4818
▁일제	-4819
▁인정받	-4820
▁사도	-4821
▁결코	-4822
라이트	-4823
▁팔리	-4824
▁데려오	-4825
▁바이러스	-4826
▁라면서	-4827
▁하락	-4828
▁식량	-4829
▁선택지	-4830
▁미라	-4831
▁톰	-4832
▁140	-4833
▁흐름	-4834
▁무겁	-4835
▁생존자	-4836
▁놀이	-4837
▁무작	-4838
▁담기	-4839
▁Ex	-4840
▁모조리	-4841
▁헛	-4842
▁살아가	-4843
ame	-4844
▁수익	-4845
▁전신	-4846
▁하우스	-4847
80	-4848
▁윌리	-4849
▁우라	-4850
▁sh	-4851
▁칭찬	-4852
▁본체	-4853
쳐지	-4854
멘트	-4855
▁신설	-4856
▁보관	-4857
▁챌린	-4858
▁캐논	-4859
▁으시	-4860
▁전멸	-4861
임스	-4862
▁흔들리	-4863
▁JR	-4864
▁부장	-4865
▁투명	-4866
▁공무원	-4867
▁커리어	-4868
▁",	-4869
AD	-4870
▁손해	-4871
▁전성기	-4872
▁외전	-4873
▁어다	-4874
▁핏	-4875
▁도끼	-4876
치기	-4877
▁체육관	-4878
▁취향	-4879
▁개수	-4880
▁앞두	-4881
▁논리	-4882
몬드	-4883
▁de	-4884
▁이브	-4885
▁후방	-4886
▁치유	-4887
▁한마디	-4888
▁스승	-4889
▁노부	-4890
세스	-4891
▁씹	-4892
▁IC	-4893
▁수십	-4894
▁루수	-4895
리그	-4896
ost	-4897
▁비주	-4898
▁억지	-4899
▁우연히	-4900
▁카트	-4901
▁모래	-4902
▁어스	-4903
▁돋	-4904
▁충성	-4905
▁기종	-4906
▁무릎	-4907
▁에리	-4908
▁최다	-4909
▁데드	-4910
out	-4911
▁정비	-4912
▁김종	-4913
▁가톨릭	-4914
▁동의	-4915
▁교장	-4916
▁기아	-4917
▁Love	-4918
▁툴	-4919
▁이터	-4920
▁변호사	-4921
▁무지	-4922
▁콜라보	-4923
▁마린	-4924
▁재현	-4925
코토	-4926
old	-4927
다랗	-4928
카리	-4929
▁일반인	-4930
▁유니폼	-4931
▁레이더	-4932
▁첼	-4933
▁구경	-4934
▁불타	-4935
▁사막	-4936
▁GS	-4937
▁제작자	-4938
▁당일	-4939
▁힙	-4940
▁반동	-4941
▁세르	-4942
▁칩	-4943
▁명성	-4944
▁날아오	-4945
▁고맙	-4946
스키	-4947
▁적응	-4948
▁900	-4949
▁소라	-4950
▁Un	-4951
▁제임스	-4952
▁로고	-4953
▁이정	-4954
▁타선	-4955
▁맥스	-4956
▁충청	-4957
▁기여	-4958
▁구사	-4959
▁트랜	-4960
▁작곡가	-4961
own	-4962
▁코미	-4963
▁법률	-4964
▁증언	-4965
▁구리	-4966
▁소스	-4967
▁카츠	-4968
▁거미	-4969
▁오전	-4970
네스	-4971
▁잘리	-4972
▁사정거리	-4973
▁집어	-4974
▁수류	-4975
▁쵸	-4976
▁선전	-4977
▁합의	-4978
▁접하	-4979
▁202	-4980
▁자세히	-4981
▁업적	-4982
▁타인	-4983
▁패션	-4984
▁멕시코	-4985
▁무방	-4986
카드	-4987
▁잉글	-4988
▁개입	-4989
▁기량	-4990
▁둘째	-4991
▁아일랜드	-4992
워크	-4993
▁아즈	-4994
▁타락	-4995
▁초보	-4996
▁연금	-4997
▁바깥	-4998
▁가짜	-4999
▁유통	-5000
▁스트리	-5001
▁기도	-5002
▁다름	-5003
▁판매량	-5004
▁찢	-5005
▁법원	-5006
▁자국	-5007
▁눕	-5008
▁빨갛	-5009
▁할머니	-5010
▁잡지	-5011
▁상업	-5012
▁드라이브	-5013
▁스웨	-5014
▁울리	-5015
▁아쿠	-5016
▁폴란드	-5017
▁SH	-5018
US	-5019
시로	-5020
▁북쪽	-5021
▁신부	-5022
▁의회	-5023
▁넥센	-5024
▁취임	-5025
▁화장실	-5026
▁조연	-5027
▁정수	-5028
▁LI	-5029
다이	-5030
▁일방	-5031
▁포격	-5032
▁수류탄	-5033
▁닭	-5034
▁박히	-5035
▁EP	-5036
▁유물	-5037
▁주식	-5038
▁전후	-5039
▁루카	-5040
▁무라	-5041
▁wik	-5042
ave	-5043
미니	-5044
▁안타깝	-5045
▁복무	-5046
▁벌레	-5047
▁깔끔	-5048
▁가루	-5049
▁차기	-5050
▁그러니까	-5051
▁히나	-5052
▁똥	-5053
▁주기	-5054
▁쌍둥이	-5055
▁새끼	-5056
▁교실	-5057
▁과장	-5058
▁승점	-5059
▁출마	-5060
▁금속	-5061
▁대개	-5062
▁FF	-5063
pe	-5064
▁펑	-5065
▁IS	-5066
▁구르	-5067
▁어드	-5068
ace	-5069
▁결성	-5070
▁기르	-5071
▁오사카	-5072
▁팽	-5073
▁정착	-5074
▁남쪽	-5075
▁도주	-5076
▁인격	-5077
▁위상	-5078
▁드롭	-5079
per	-5080
▁싱크	-5081
▁인조	-5082
▁포드	-5083
▁비례	-5084
려나	-5085
▁흔적	-5086
▁연패	-5087
▁즐겁	-5088
▁XX	-5089
▁주일	-5090
▁너희	-5091
▁자폭	-5092
▁동력	-5093
▁사라	-5094
노우	-5095
▁내세우	-5096
ng	-5097
▁교차	-5098
▁처형	-5099
▁ㅣ	-5100
▁잠재	-5101
▁튕	-5102
▁냄새	-5103
▁독특	-5104
ice	-5105
▁도적	-5106
▁훗날	-5107
▁간신	-5108
▁스텔	-5109
▁방어구	-5110
▁숭	-5111
▁오라	-5112
▁공성	-5113
▁더럽	-5114
▁1991	-5115
▁거점	-5116
▁스터	-5117
네임	-5118
▁강도	-5119
▁네요	-5120
▁스마트폰	-5121
▁스프링	-5122
▁위대	-5123
▁대인	-5124
▁상호	-5125
▁화학	-5126
▁자책	-5127
▁매니저	-5128
▁일찍	-5129
ont	-5130
▁정치인	-5131
든가	-5132
▁블러드	-5133
▁라이온	-5134
▁남녀	-5135
▁국립	-5136
▁놓이	-5137
▁연승	-5138
▁클레	-5139
▁CV	-5140
▁1988	-5141
▁공룡	-5142
ov	-5143
▁패하	-5144
▁비상	-5145
▁부작	-5146
▁노르	-5147
▁포항	-5148
▁포수	-5149
▁AD	-5150
▁기용	-5151
▁클랜	-5152
▁귀환	-5153
▁몰락	-5154
▁미루	-5155
▁시너지	-5156
▁CF	-5157
▁We	-5158
▁후술	-5159
▁권한	-5160
▁제갈	-5161
▁고작	-5162
OD	-5163
▁추억	-5164
가스	-5165
▁스튜디오	-5166
▁유대	-5167
▁행보	-5168
▁크리스탈	-5169
▁타수	-5170
▁스페이스	-5171
▁런던	-5172
▁이슈	-5173
랑이	-5174
▁개량	-5175
▁적당히	-5176
▁오타	-5177
▁각본	-5178
▁사신	-5179
▁김재	-5180
▁지뢰	-5181
▁실망	-5182
▁사유	-5183
▁상술	-5184
랭크	-5185
▁시달리	-5186
▁가리키	-5187
▁시노	-5188
▁승률	-5189
나카	-5190
▁색깔	-5191
▁아케	-5192
▁아츠	-5193
▁트라이	-5194
▁흥미	-5195
▁공세	-5196
▁혐오	-5197
▁주역	-5198
▁숙련	-5199
▁개막	-5200
▁105	-5201
자드	-5202
▁어려움	-5203
▁혈액	-5204
▁다치	-5205
▁커피	-5206
▁이중	-5207
▁AM	-5208
▁광역시	-5209
▁녹색	-5210
▁루나	-5211
▁재단	-5212
▁뜬금	-5213
▁카운트	-5214
▁내지	-5215
▁미스터	-5216
로나	-5217
▁터뜨리	-5218
블린	-5219
orld	-5220
▁타로	-5221
▁자막	-5222
▁해피	-5223
▁다름없	-5224
ies	-5225
▁인민	-5226
▁소위	-5227
▁길이	-5228
▁히어로즈	-5229
▁DS	-5230
▁서포터	-5231
팡이	-5232
▁끊기	-5233
▁일람	-5234
▁리온	-5235
▁코리아	-5236
▁.."	-5237
ann	-5238
▁화성	-5239
▁학력	-5240
▁생년	-5241
▁계통	-5242
▁금융	-5243
▁색상	-5244
▁나치	-5245
▁리타	-5246
▁스트라이크	-5247
▁국왕	-5248
▁티켓	-5249
▁특전	-5250
▁SNS	-5251
▁관람	-5252
▁면모	-5253
▁ED	-5254
▁제작사	-5255
▁요금	-5256
▁흡혈	-5257
▁아마도	-5258
▁영구	-5259
▁미터	-5260
▁구슬	-5261
시타	-5262
▁펴	-5263
OC	-5264
▁심사	-5265
특별시	-5266
▁아이언	-5267
▁쪼	-5268
▁오크	-5269
고속	-5270
▁쓸모	-5271
▁차이점	-5272
▁단단	-5273
▁튕기	-5274
▁뿔	-5275
▁오직	-5276
▁하단	-5277
▁배터리	-5278
▁기숙	-5279
럼프	-5280
▁오랜만	-5281
▁ㅁ	-5282
▁들키	-5283
▁재산	-5284
▁찾아내	-5285
▁소대	-5286
▁증오	-5287
▁디지몬	-5288
▁펄	-5289
▁개시	-5290
▁세종	-5291
BA	-5292
▁시그	-5293
▁썬	-5294
▁서울특별시	-5295
▁중량	-5296
▁CPU	-5297
▁추종	-5298
▁사이버	-5299
▁미묘	-5300
▁칭호	-5301
▁어뢰	-5302
▁공공	-5303
▁호수	-5304
▁생략	-5305
▁세븐	-5306
▁잉글랜드	-5307
▁혹시	-5308
▁맛있	-5309
LE	-5310
▁중첩	-5311
▁DE	-5312
▁가만	-5313
▁고구	-5314
▁보호막	-5315
▁좌석	-5316
▁스팀	-5317
▁혐의	-5318
베르	-5319
▁민첩	-5320
▁히토	-5321
▁연령	-5322
▁오마	-5323
▁지경	-5324
▁총알	-5325
▁부지	-5326
▁편입	-5327
▁워커	-5328
▁더러	-5329
▁뎀	-5330
▁십자	-5331
▁언더	-5332
▁협상	-5333
▁치루	-5334
▁덧붙이	-5335
▁애플	-5336
▁그만두	-5337
▁마약	-5338
저스	-5339
▁엿	-5340
▁해상	-5341
려들	-5342
▁쿼터	-5343
▁메리	-5344
▁상단	-5345
▁휴식	-5346
▁전라	-5347
▁실전	-5348
▁LC	-5349
▁아저	-5350
▁단편	-5351
▁연예인	-5352
▁신사	-5353
▁네오	-5354
어마	-5355
▁하차	-5356
▁LV	-5357
▁상인	-5358
▁타율	-5359
▁아저씨	-5360
▁눈치채	-5361
▁이익	-5362
▁예언	-5363
▁노벨	-5364
▁your	-5365
▁후배	-5366
시스트	-5367
로디	-5368
▁곤란	-5369
▁가요	-5370
▁구석	-5371
▁네트	-5372
▁정화	-5373
▁찬스	-5374
▁용서	-5375
ber	-5376
▁막대	-5377
▁NE	-5378
▁딜링	-5379
▁강요	-5380
▁중국어	-5381
▁펌	-5382
바르	-5383
▁수장	-5384
▁탈퇴	-5385
▁어마어마	-5386
▁카카	-5387
▁떨어뜨리	-5388
▁기관총	-5389
ys	-5390
▁익스	-5391
▁흘러	-5392
▁예산	-5393
사자	-5394
▁임대	-5395
▁189	-5396
▁동쪽	-5397
▁언스	-5398
▁데려가	-5399
▁강자	-5400
▁공방	-5401
▁문구	-5402
▁턱	-5403
▁용량	-5404
▁SE	-5405
▁개혁	-5406
der	-5407
▁하루카	-5408
▁원칙	-5409
▁김현	-5410
aw	-5411
▁캠프	-5412
▁모노	-5413
ION	-5414
▁자극	-5415
▁진보	-5416
▁악당	-5417
▁It	-5418
▁소장	-5419
▁수호자	-5420
▁금방	-5421
▁3000	-5422
▁상실	-5423
▁잠수함	-5424
▁원주	-5425
▁부각	-5426
▁드럼	-5427
▁총리	-5428
▁기울	-5429
▁포로	-5430
60	-5431
▁에요	-5432
▁틸	-5433
▁큐브	-5434
▁상관없	-5435
▁칼리	-5436
oo	-5437
▁깨어나	-5438
▁잡아내	-5439
이너	-5440
▁마디	-5441
▁교류	-5442
▁인치	-5443
▁루이	-5444
▁학자	-5445
▁집행	-5446
▁포르투	-5447
FF	-5448
40	-5449
▁EN	-5450
▁굿	-5451
▁BPM	-5452
▁찍히	-5453
ike	-5454
▁앨리스	-5455
▁얀	-5456
▁원문	-5457
▁유효	-5458
▁자전	-5459
ream	-5460
▁메달	-5461
▁얻어	-5462
▁저작	-5463
▁결전	-5464
▁사귀	-5465
▁표지	-5466
▁간신히	-5467
▁채팅	-5468
▁일족	-5469
▁가을	-5470
▁나나	-5471
▁후계	-5472
▁뱀파이어	-5473
▁로리	-5474
▁미쿠	-5475
▁125	-5476
▁무척	-5477
▁1989	-5478
▁타운	-5479
▁활발	-5480
▁엑스트라	-5481
▁신앙	-5482
▁중립	-5483
▁입지	-5484
▁헬기	-5485
▁Com	-5486
▁엘리트	-5487
▁모토	-5488
▁메시지	-5489
위대	-5490
▁피터	-5491
▁힌	-5492
술사	-5493
▁사형	-5494
▁저렴	-5495
▁해골	-5496
▁화물	-5497
▁무렵	-5498
▁카와	-5499
▁도루	-5500
▁낚시	-5501
▁기생	-5502
▁담배	-5503
▁제트	-5504
▁마그	-5505
▁이끄	-5506
ory	-5507
▁복지	-5508
티아	-5509
▁서번	-5510
▁칼날	-5511
▁짜증	-5512
▁더군	-5513
▁묘하	-5514
월일	-5515
▁첩	-5516
▁PV	-5517
▁정예	-5518
▁사명	-5519
▁서번트	-5520
▁ww	-5521
▁요약	-5522
▁고개	-5523
▁루비	-5524
▁끈	-5525
▁안녕	-5526
▁재밌	-5527
▁추구	-5528
▁UP	-5529
▁미즈	-5530
▁나리	-5531
▁일본인	-5532
▁행운	-5533
▁거울	-5534
▁위원장	-5535
▁동아	-5536
▁레알	-5537
▁부딪	-5538
▁지라	-5539
▁존재감	-5540
iss	-5541
▁영주	-5542
팩트	-5543
▁딜레이	-5544
▁잡아먹	-5545
▁거듭	-5546
▁애정	-5547
▁그랜드	-5548
▁터널	-5549
▁생년월일	-5550
▁조이	-5551
▁엮이	-5552
▁반전	-5553
▁대학원	-5554
▁주자	-5555
▁도둑	-5556
▁구축함	-5557
▁음모	-5558
▁착하	-5559
▁바이오	-5560
▁순환	-5561
▁커다랗	-5562
▁불사	-5563
▁www	-5564
▁철학	-5565
데이	-5566
▁가동	-5567
▁격추	-5568
▁테라	-5569
▁라기	-5570
▁캐스터	-5571
▁잔뜩	-5572
▁최신	-5573
▁AS	-5574
▁사원	-5575
▁무역	-5576
▁플라이	-5577
라기	-5578
▁피아노	-5579
▁엔젤	-5580
▁텍스트	-5581
▁참석	-5582
▁언젠	-5583
▁태평	-5584
▁언젠가	-5585
▁공허	-5586
▁서쪽	-5587
▁휩	-5588
▁생겨나	-5589
무르	-5590
▁알렉산	-5591
▁기구	-5592
▁모니	-5593
▁부적	-5594
▁심심	-5595
▁기숙사	-5596
걸이	-5597
▁성남	-5598
▁->	-5599
▁부스터	-5600
▁BL	-5601
▁걸어	-5602
▁취약	-5603
▁비서	-5604
말리	-5605
▁이집	-5606
▁공용	-5607
▁주차	-5608
▁이집트	-5609
▁끔	-5610
30	-5611
▁붓	-5612
▁분신	-5613
▁의대	-5614
▁that	-5615
▁드래프트	-5616
▁비치	-5617
ian	-5618
▁분대	-5619
테르	-5620
▁되돌리	-5621
하면	-5622
▁궤도	-5623
chor	-5624
▁상기	-5625
▁옳	-5626
▁준우	-5627
▁유적	-5628
▁통산	-5629
▁CJ	-5630
▁체중	-5631
회사	-5632
▁토벌	-5633
▁쭉	-5634
▁초록	-5635
▁헤어지	-5636
▁난입	-5637
▁유나이	-5638
▁권리	-5639
▁우르	-5640
▁페널	-5641
▁교황	-5642
▁명단	-5643
▁확대	-5644
▁훼	-5645
▁탄환	-5646
▁이토	-5647
▁알아내	-5648
우마	-5649
▁윌리엄	-5650
▁식민	-5651
io	-5652
▁종목	-5653
▁Pro	-5654
▁도박	-5655
게임	-5656
▁씬	-5657
▁나츠	-5658
▁건드리	-5659
▁유나이티	-5660
▁베리	-5661
▁조리	-5662
▁복구	-5663
▁경로	-5664
▁은신	-5665
▁출입	-5666
▁신전	-5667
▁스펠	-5668
▁밍	-5669
▁이식	-5670
▁말투	-5671
▁브루	-5672
▁악명	-5673
▁대선	-5674
▁마주치	-5675
▁발리	-5676
▁하츠	-5677
소녀	-5678
▁왠지	-5679
▁외계인	-5680
▁1970	-5681
▁건조	-5682
▁동인	-5683
▁글로벌	-5684
▁코멘트	-5685
▁트랜스	-5686
▁천하	-5687
▁간접	-5688
▁형상	-5689
▁앗	-5690
▁윗	-5691
정부	-5692
▁이수	-5693
▁업로드	-5694
▁꾸미	-5695
▁에다가	-5696
▁Fl	-5697
▁가방	-5698
▁해치	-5699
▁발달	-5700
▁양성	-5701
▁레딧	-5702
▁와일드	-5703
▁레슬	-5704
▁아미	-5705
▁연맹	-5706
▁하향	-5707
▁천만	-5708
▁시라	-5709
▁김대	-5710
▁일치	-5711
▁적합	-5712
▁Br	-5713
가리	-5714
▁고도	-5715
▁명확	-5716
▁디스크	-5717
▁소유자	-5718
▁이드	-5719
▁제약	-5720
▁장탄	-5721
0000	-5722
▁내보내	-5723
▁뿜	-5724
▁유독	-5725
▁아메리카	-5726
▁빠져	-5727
▁전이	-5728
▁라이플	-5729
▁연극	-5730
▁쏟아지	-5731
▁미키	-5732
▁가라	-5733
▁그르	-5734
▁릴리	-5735
▁드라이버	-5736
▁구글	-5737
▁정황	-5738
▁사후	-5739
▁anchor	-5740
▁화재	-5741
▁;&	-5742
▁흰	-5743
▁이펙트	-5744
▁매장	-5745
▁딕	-5746
▁커녕	-5747
▁리스크	-5748
▁크림	-5749
▁끔찍	-5750
▁저택	-5751
▁팬텀	-5752
▁강점	-5753
▁헌법	-5754
▁wiki	-5755
▁WWE	-5756
▁곳곳	-5757
▁주택	-5758
▁아키라	-5759
▁띠	-5760
▁실책	-5761
▁울프	-5762
IP	-5763
포트	-5764
▁로얄	-5765
▁할인	-5766
▁인디	-5767
▁le	-5768
▁백성	-5769
▁&#	-5770
▁이민	-5771
▁170	-5772
▁웃기	-5773
▁리뷰	-5774
▁셜	-5775
▁평생	-5776
▁보완	-5777
▁암시	-5778
▁그램	-5779
▁Or	-5780
▁다이아몬드	-5781
▁문단	-5782
▁렐	-5783
UM	-5784
IG	-5785
▁비주얼	-5786
▁운동장	-5787
▁하이퍼	-5788
▁그럭	-5789
▁조별	-5790
▁라니	-5791
▁치킨	-5792
▁언덕	-5793
VD	-5794
▁마블	-5795
▁답변	-5796
▁단축	-5797
▁야수	-5798
▁허락	-5799
▁충실	-5800
▁금액	-5801
저럭	-5802
▁웨이브	-5803
▁어필	-5804
어하	-5805
▁뻗	-5806
▁만남	-5807
▁메이드	-5808
▁고위	-5809
▁치즈	-5810
▁승객	-5811
▁그럭저럭	-5812
▁새기	-5813
▁테츠	-5814
▁여우	-5815
▁토니	-5816
TE	-5817
▁걸맞	-5818
▁박물	-5819
▁플래시	-5820
▁스테이	-5821
▁딴	-5822
▁by	-5823
▁1987	-5824
▁호기	-5825
▁원자	-5826
▁시합	-5827
▁비스	-5828
▁덩치	-5829
▁샌드	-5830
▁불펜	-5831
▁뽑히	-5832
▁감각	-5833
oth	-5834
▁상식	-5835
▁자이언츠	-5836
▁항공기	-5837
▁등지	-5838
▁헤어	-5839
▁Dr	-5840
▁성립	-5841
▁위반	-5842
▁에르	-5843
▁파편	-5844
▁뛰어넘	-5845
az	-5846
▁스웨덴	-5847
▁꼼	-5848
▁라라	-5849
▁안기	-5850
▁꿀	-5851
▁트롤	-5852
▁부자	-5853
▁스크린	-5854
▁승자	-5855
▁출격	-5856
▁잃어버리	-5857
데미	-5858
▁토너	-5859
▁상영	-5860
ep	-5861
▁려던	-5862
▁시원	-5863
▁구미	-5864
▁긴장	-5865
▁헐	-5866
man	-5867
▁깔리	-5868
▁기동성	-5869
▁축복	-5870
비드	-5871
▁입대	-5872
▁배트맨	-5873
▁견디	-5874
▁선고	-5875
▁유학	-5876
▁매년	-5877
▁필리	-5878
▁집착	-5879
▁급격	-5880
OU	-5881
▁문재인	-5882
▁록맨	-5883
▁흩	-5884
▁니스	-5885
ale	-5886
▁보드	-5887
▁미네	-5888
▁;&#	-5889
▁권장	-5890
▁넘버	-5891
▁킬러	-5892
▁OP	-5893
▁동성	-5894
▁사살	-5895
▁서구	-5896
▁작년	-5897
▁지치	-5898
▁서서	-5899
▁호칭	-5900
VA	-5901
▁낮추	-5902
▁도라	-5903
▁창고	-5904
▁퇴장	-5905
▁내전	-5906
▁기인	-5907
▁아카데미	-5908
▁일대	-5909
▁플래그	-5910
▁싫어하	-5911
▁토마	-5912
▁해명	-5913
▁스폰	-5914
▁참가자	-5915
▁평점	-5916
▁맷	-5917
▁적중	-5918
▁분명히	-5919
▁우에	-5920
▁한쪽	-5921
▁리오	-5922
▁마법소녀	-5923
▁대수	-5924
▁스즈	-5925
▁결심	-5926
▁곱	-5927
▁휘말리	-5928
70	-5929
쟁이	-5930
▁RPG	-5931
ach	-5932
▁시공	-5933
▁구름	-5934
▁실종	-5935
▁교과	-5936
다나	-5937
▁ㄹ게	-5938
▁케인	-5939
▁노바	-5940
▁기운	-5941
▁신나	-5942
▁동점	-5943
▁관할	-5944
리나	-5945
▁열매	-5946
▁탐험	-5947
arg	-5948
▁뜨겁	-5949
운서	-5950
▁아나운서	-5951
▁1500	-5952
▁용인	-5953
▁중형	-5954
▁전주	-5955
▁Sc	-5956
▁학기	-5957
부르크	-5958
ook	-5959
▁그렇지만	-5960
▁사키	-5961
▁흑인	-5962
▁근거리	-5963
▁타쿠	-5964
▁읍	-5965
▁본진	-5966
▁싹	-5967
▁약화	-5968
▁결합	-5969
▁결투	-5970
무시	-5971
ows	-5972
▁경직	-5973
▁법인	-5974
▁나마	-5975
▁5000	-5976
▁정기	-5977
▁감추	-5978
▁리플	-5979
▁해안	-5980
갈리	-5981
▁팟	-5982
▁솜	-5983
▁111	-5984
▁호흡	-5985
orm	-5986
▁두들	-5987
▁토너먼트	-5988
▁수능	-5989
▁괜히	-5990
▁어판	-5991
▁생명체	-5992
▁전승	-5993
▁마스크	-5994
거지	-5995
▁헝	-5996
▁발렌	-5997
▁믹스	-5998
▁암살자	-5999
던지	-6000
▁야생	-6001
▁내일	-6002
▁센스	-6003
▁호시	-6004
ish	-6005
▁채보	-6006
▁파르	-6007
ky	-6008
▁막내	-6009
▁럼	-6010
▁연합군	-6011
▁악몽	-6012
▁Team	-6013
▁천안	-6014
▁KBO	-6015
스럽	-6016
▁완결	-6017
▁지위	-6018
▁페이스북	-6019
▁근본	-6020
▁크레	-6021
▁}}	-6022
▁동아리	-6023
▁정차	-6024
▁뮤지컬	-6025
▁줍	-6026
▁변환	-6027
▁불교	-6028
▁솔직	-6029
▁스위치	-6030
▁우정	-6031
▁본사	-6032
▁BB	-6033
▁박물관	-6034
▁엔드	-6035
▁슬라이	-6036
▁Go	-6037
▁선두	-6038
▁침략	-6039
▁망가지	-6040
▁통화	-6041
ae	-6042
▁연습생	-6043
▁침묵	-6044
GE	-6045
▁침입	-6046
▁베타	-6047
▁보이스	-6048
▁지팡이	-6049
▁마우스	-6050
▁와타	-6051
ug	-6052
▁소음	-6053
▁장인	-6054
▁리카	-6055
Hz	-6056
ade	-6057
rom	-6058
▁초인	-6059
▁동급	-6060
일보	-6061
▁마물	-6062
커스	-6063
▁유발	-6064
▁트리플	-6065
▁타석	-6066
▁물리치	-6067
ile	-6068
▁유력	-6069
▁돌입	-6070
▁통계	-6071
▁면적	-6072
▁밀어	-6073
▁유격	-6074
▁판결	-6075
든지	-6076
▁부실	-6077
yle	-6078
▁관리자	-6079
▁FIFA	-6080
▁참모	-6081
▁키타	-6082
▁지불	-6083
▁영광	-6084
▁교도	-6085
▁갈아	-6086
▁대왕	-6087
아다니	-6088
▁사인	-6089
▁지진	-6090
▁서클	-6091
▁임팩트	-6092
▁일본군	-6093
▁법정	-6094
ash	-6095
ower	-6096
irl	-6097
▁소방	-6098
ink	-6099
반도	-6100
▁수급	-6101
▁철수	-6102
프리	-6103
▁1986	-6104
▁벙	-6105
부로	-6106
데드	-6107
▁출구	-6108
▁균형	-6109
▁가죽	-6110
▁허가	-6111
▁무시무시	-6112
▁임신	-6113
▁통치	-6114
▁무작위	-6115
▁인피	-6116
펴보	-6117
▁살펴보	-6118
▁대거	-6119
▁노스	-6120
▁재정	-6121
▁더군다나	-6122
▁CH	-6123
▁무관	-6124
▁질리	-6125
▁우타	-6126
▁언데드	-6127
▁싸이	-6128
▁가디언	-6129
▁보험	-6130
▁수비력	-6131
▁프리미엄	-6132
TS	-6133
▁감지	-6134
▁세팅	-6135
▁CG	-6136
은행	-6137
▁항복	-6138
▁콜로	-6139
▁간간	-6140
atch	-6141
▁속이	-6142
▁인질	-6143
▁급하	-6144
▁채택	-6145
▁인종	-6146
▁폐쇄	-6147
▁인력	-6148
▁신발	-6149
▁썬더	-6150
▁여러분	-6151
▁FW	-6152
▁디젤	-6153
▁안개	-6154
▁막판	-6155
▁격차	-6156
▁바쁘	-6157
▁삽입	-6158
▁we	-6159
▁몽골	-6160
▁스쿨	-6161
▁반박	-6162
▁고블린	-6163
▁ㅂ시오	-6164
▁철저	-6165
▁인방	-6166
센트	-6167
▁히라	-6168
▁기름	-6169
▁이혼	-6170
▁단원	-6171
그리	-6172
▁남북	-6173
▁께서	-6174
▁제정	-6175
▁관계자	-6176
IM	-6177
▁바디	-6178
▁핑크	-6179
▁경남	-6180
▁비전	-6181
▁처지	-6182
▁DD	-6183
▁창원	-6184
▁출루	-6185
▁행하	-6186
▁유인	-6187
ial	-6188
▁리프	-6189
▁백인	-6190
▁존경	-6191
sh	-6192
머스	-6193
▁트럼프	-6194
CG	-6195
▁후계자	-6196
▁남매	-6197
▁그린	-6198
▁포위	-6199
다보	-6200
▁텟	-6201
▁여주	-6202
▁포켓몬스터	-6203
▁깨달	-6204
▁배포	-6205
▁고구려	-6206
▁스파이더	-6207
▁놀리	-6208
▁무사히	-6209
▁코르	-6210
▁아틀	-6211
▁이타	-6212
▁영원히	-6213
▁수면	-6214
▁골렘	-6215
▁투스	-6216
먼스	-6217
▁예수	-6218
▁스트레스	-6219
▁복제	-6220
▁챌린지	-6221
▁War	-6222
▁인용	-6223
▁매번	-6224
▁동양	-6225
▁일당	-6226
래시	-6227
▁김경	-6228
태우	-6229
▁끼우	-6230
▁두르	-6231
여객	-6232
▁ID	-6233
▁체인지	-6234
▁복선	-6235
▁쿠라	-6236
▁오늘날	-6237
▁어이	-6238
▁팁	-6239
▁기세	-6240
전차	-6241
▁국당	-6242
▁갑작	-6243
▁캐치	-6244
▁소송	-6245
▁학습	-6246
▁Star	-6247
▁LA	-6248
▁물량	-6249
▁중복	-6250
▁106	-6251
▁개설	-6252
▁피우	-6253
▁포르투갈	-6254
▁슬프	-6255
코드	-6256
▁지리	-6257
▁가만히	-6258
▁아테	-6259
▁메이플	-6260
▁냐면	-6261
▁up	-6262
▁보충	-6263
▁수출	-6264
▁준우승	-6265
▁탕	-6266
▁왜곡	-6267
▁펼쳐지	-6268
▁레지	-6269
▁에픽	-6270
▁동명	-6271
▁간단히	-6272
▁날카	-6273
▁즉사	-6274
필드	-6275
▁선행	-6276
▁보건	-6277
▁체험	-6278
▁해머	-6279
오루	-6280
▁코난	-6281
▁상담	-6282
▁축하	-6283
카이	-6284
▁해내	-6285
▁오디션	-6286
▁장신	-6287
▁물고기	-6288
▁분열	-6289
▁대책	-6290
▁웰	-6291
▁이글	-6292
▁토크	-6293
▁파이트	-6294
▁기상	-6295
▁정통	-6296
▁미만	-6297
▁잠입	-6298
▁피닉스	-6299
천시	-6300
▁이주	-6301
▁미나미	-6302
▁만만	-6303
▁데이트	-6304
▁네트워크	-6305
▁뽀	-6306
▁뭉치	-6307
▁중력	-6308
▁혼돈	-6309
▁코트	-6310
▁배정	-6311
▁메이커	-6312
▁닉네임	-6313
▁DVD	-6314
티스	-6315
▁오키	-6316
키지	-6317
▁버섯	-6318
▁처분	-6319
▁시크	-6320
▁멜로디	-6321
▁해킹	-6322
▁PR	-6323
▁전북	-6324
▁115	-6325
▁벼	-6326
▁항의	-6327
▁공업	-6328
▁부드	-6329
▁오우	-6330
▁포즈	-6331
화점	-6332
▁수석	-6333
▁선제	-6334
▁나미	-6335
▁ON	-6336
▁상한	-6337
▁날카롭	-6338
▁후원	-6339
▁여전	-6340
▁은지	-6341
▁단행	-6342
▁진압	-6343
▁하마	-6344
▁자전거	-6345
▁억지로	-6346
▁오메	-6347
▁102	-6348
▁야마토	-6349
▁악기	-6350
ING	-6351
▁패키지	-6352
▁트릭	-6353
▁개업	-6354
▁수백	-6355
▁fe	-6356
ous	-6357
▁아랍	-6358
▁마드리	-6359
▁벨트	-6360
▁기재	-6361
▁고리	-6362
▁사령부	-6363
▁입주	-6364
▁자본	-6365
▁유산	-6366
▁퍼포	-6367
▁둘러싸	-6368
▁배역	-6369
▁퍼포먼스	-6370
▁장거리	-6371
▁기갑	-6372
▁For	-6373
▁수명	-6374
▁꿰	-6375
▁Ne	-6376
▁기동전	-6377
▁서포트	-6378
▁플러스	-6379
▁라그	-6380
▁장탄수	-6381
▁And	-6382
att	-6383
▁악화	-6384
▁돔	-6385
amp	-6386
▁대포	-6387
세대	-6388
▁모시	-6389
▁성전	-6390
▁마드리드	-6391
▁부드럽	-6392
▁튼	-6393
▁궁금	-6394
어놓	-6395
가드	-6396
▁콘텐츠	-6397
▁오스트리아	-6398
▁사이코	-6399
▁옹호	-6400
▁닛	-6401
▁대치	-6402
▁파멸	-6403
▁호랑이	-6404
▁통로	-6405
▁분쟁	-6406
▁}}}	-6407
▁정발	-6408
▁우세	-6409
▁파동	-6410
▁전제	-6411
▁프레이	-6412
▁야구장	-6413
게이	-6414
야수	-6415
▁머무르	-6416
▁그날	-6417
▁사용자	-6418
▁가공	-6419
▁뽑아내	-6420
▁이스라	-6421
▁세부	-6422
▁신입	-6423
▁잠들	-6424
▁카구	-6425
▁GP	-6426
▁유미	-6427
▁나기	-6428
▁블라	-6429
▁도감	-6430
▁모험가	-6431
▁첼시	-6432
▁175	-6433
▁주니어	-6434
▁탐정	-6435
▁기력	-6436
바닥	-6437
▁Cr	-6438
▁논의	-6439
▁188	-6440
▁재회	-6441
▁Wind	-6442
▁배달	-6443
▁다가가	-6444
▁무술	-6445
▁조약	-6446
▁최상위	-6447
아키	-6448
▁깜짝	-6449
▁아르헨	-6450
▁김상	-6451
▁공정	-6452
자와	-6453
▁1985	-6454
▁비웃	-6455
▁처참	-6456
크로	-6457
▁행방	-6458
▁분해	-6459
▁광선	-6460
▁자꾸	-6461
▁디즈	-6462
▁세포	-6463
▁젤리	-6464
▁파생	-6465
하시	-6466
▁건네	-6467
▁진주	-6468
me	-6469
▁버드	-6470
▁끌려가	-6471
▁나비	-6472
▁산하	-6473
▁계시	-6474
▁시트	-6475
▁모터	-6476
▁부서지	-6477
▁리라	-6478
▁양상	-6479
▁bl	-6480
▁진학	-6481
▁무스	-6482
▁노조	-6483
▁체감	-6484
▁유성	-6485
▁나르	-6486
▁박지	-6487
▁차체	-6488
AY	-6489
▁위안	-6490
▁조우	-6491
▁후손	-6492
▁마코토	-6493
▁아르헨티나	-6494
▁장미	-6495
▁증폭	-6496
텐도	-6497
▁토키	-6498
▁닌텐도	-6499
▁롬	-6500
▁터스	-6501
▁레일	-6502
▁wid	-6503
▁왜냐	-6504
ms	-6505
▁즈음	-6506
▁강원도	-6507
▁고로	-6508
▁여학생	-6509
ib	-6510
▁김진	-6511
64	-6512
▁독재	-6513
▁아동	-6514
▁폭행	-6515
▁관점	-6516
▁부착	-6517
▁주둔	-6518
▁니콜	-6519
▁al	-6520
▁방치	-6521
▁규격	-6522
▁기쁘	-6523
ft	-6524
▁업계	-6525
▁난사	-6526
▁검술	-6527
▁휘하	-6528
▁페널티	-6529
▁조기	-6530
▁베네	-6531
now	-6532
▁아아	-6533
▁시카	-6534
▁드루	-6535
아이	-6536
▁한두	-6537
▁공수	-6538
▁듀오	-6539
▁만지	-6540
▁전파	-6541
▁질투	-6542
▁몫	-6543
▁350	-6544
▁무인	-6545
▁제독	-6546
벌레	-6547
▁전무	-6548
▁width	-6549
▁브레	-6550
▁중세	-6551
▁훈장	-6552
▁감싸	-6553
▁Gam	-6554
승부	-6555
▁택시	-6556
▁불량	-6557
▁톨	-6558
▁조커	-6559
MP	-6560
▁고장	-6561
▁베테	-6562
▁PP	-6563
▁파란색	-6564
ps	-6565
▁경주	-6566
렐라	-6567
▁뚫리	-6568
▁측정	-6569
▁감상	-6570
▁드론	-6571
▁IN	-6572
▁소요	-6573
▁중장	-6574
▁면허	-6575
▁방송국	-6576
▁개발자	-6577
▁나요	-6578
▁BS	-6579
▁스트리트	-6580
비전	-6581
▁감동	-6582
▁이스라엘	-6583
▁김기	-6584
▁스탠드	-6585
▁도저히	-6586
▁오염	-6587
▁능력자	-6588
▁전동	-6589
oll	-6590
▁토큰	-6591
▁승무원	-6592
▁1984	-6593
▁세인트	-6594
▁약탈	-6595
▁루스	-6596
▁최적	-6597
▁기원전	-6598
히코	-6599
▁부사	-6600
TV	-6601
▁후자	-6602
▁트루	-6603
▁추리	-6604
▁틴	-6605
▁이온	-6606
pl	-6607
▁지사	-6608
▁BR	-6609
▁시상	-6610
▁뒤지	-6611
▁발목	-6612
▁Man	-6613
12	-6614
▁신도	-6615
▁AKB	-6616
▁대단히	-6617
▁디바	-6618
▁하하	-6619
▁룩	-6620
▁산탄	-6621
▁국판	-6622
▁스캔	-6623
▁루머	-6624
▁운수	-6625
▁위성	-6626
▁피트	-6627
▁후퇴	-6628
태프	-6629
▁나루토	-6630
▁토시	-6631
▁에디	-6632
▁여야	-6633
port	-6634
▁UN	-6635
▁유니크	-6636
▁우월	-6637
▁닝	-6638
▁티아	-6639
▁루이스	-6640
▁둠	-6641
▁기장	-6642
▁All	-6643
▁우치	-6644
▁광장	-6645
▁엇	-6646
▁주행	-6647
▁선거구	-6648
▁아시안	-6649
▁벌리	-6650
▁브로	-6651
▁이종	-6652
▁스텝	-6653
번에	-6654
▁왕위	-6655
▁루크	-6656
▁식민지	-6657
▁아레나	-6658
▁코마	-6659
신교	-6660
▁상관없이	-6661
▁샷건	-6662
▁바론	-6663
▁히가시	-6664
리스트	-6665
▁ex	-6666
▁혈액형	-6667
▁소용	-6668
▁나노	-6669
▁서서히	-6670
▁반짝	-6671
▁조용히	-6672
▁자비	-6673
▁자녀	-6674
▁던가	-6675
카락	-6676
▁창단	-6677
▁머리카락	-6678
▁Part	-6679
▁철권	-6680
▁꼬이	-6681
▁SU	-6682
▁과도	-6683
▁베기	-6684
▁아쉬	-6685
▁에반	-6686
▁제출	-6687
▁112	-6688
▁토미	-6689
경기	-6690
▁드림	-6691
▁라이너	-6692
▁KR	-6693
▁까이	-6694
▁조롱	-6695
▁공백	-6696
▁기둥	-6697
▁아가씨	-6698
▁야간	-6699
▁분당	-6700
▁명의	-6701
▁다운로드	-6702
▁원리	-6703
▁En	-6704
▁붐	-6705
▁간호	-6706
▁비명	-6707
▁얻어맞	-6708
▁노가	-6709
▁일화	-6710
▁힐러	-6711
▁며칠	-6712
▁요인	-6713
ond	-6714
▁연고	-6715
▁아지	-6716
▁수월	-6717
▁뻥	-6718
세서	-6719
키퍼	-6720
▁그레	-6721
▁마감	-6722
▁투척	-6723
▁프렌	-6724
▁쇼핑	-6725
▁백작	-6726
▁대시	-6727
▁DC	-6728
▁장사	-6729
ment	-6730
▁실장	-6731
▁돌연	-6732
▁보존	-6733
▁LP	-6734
▁중시	-6735
▁캣	-6736
▁Sup	-6737
▁더빙	-6738
▁굵	-6739
필더	-6740
▁미드필더	-6741
▁절차	-6742
▁고증	-6743
▁리즈	-6744
▁라우	-6745
▁줄거리	-6746
▁루피	-6747
▁Mar	-6748
▁Fate	-6749
▁철거	-6750
더라	-6751
▁뒤늦	-6752
▁프란	-6753
▁전망	-6754
▁108	-6755
ase	-6756
▁범죄자	-6757
데레	-6758
▁시신	-6759
▁막상	-6760
▁반부	-6761
▁타이거즈	-6762
▁닐	-6763
▁무산	-6764
▁엑시	-6765
▁경악	-6766
▁AN	-6767
▁듀스	-6768
▁수동	-6769
▁수색	-6770
▁합병	-6771
▁호소	-6772
▁온천	-6773
▁쇼크	-6774
▁주류	-6775
▁모로	-6776
▁저하	-6777
▁려다	-6778
▁시외	-6779
도리	-6780
유럽	-6781
▁시바	-6782
▁오락	-6783
▁특급	-6784
▁긴급	-6785
▁세라	-6786
▁원조	-6787
▁라이온즈	-6788
ool	-6789
하르트	-6790
▁스리	-6791
▁바스	-6792
▁넘어지	-6793
▁여인	-6794
▁에릭	-6795
▁식품	-6796
▁고객	-6797
▁와카	-6798
▁골키퍼	-6799
▁나폴	-6800
▁배드	-6801
▁인권	-6802
▁평일	-6803
▁낙하	-6804
▁합계	-6805
▁360	-6806
▁유재	-6807
▁117	-6808
▁배급	-6809
▁빅토	-6810
▁막아내	-6811
▁꼬마	-6812
▁청와	-6813
▁생애	-6814
▁의자	-6815
▁우유	-6816
▁걸즈	-6817
▁마계	-6818
블로	-6819
▁ㄴ다거나	-6820
▁교단	-6821
▁성당	-6822
투스	-6823
▁지칭	-6824
▁발굴	-6825
▁타일	-6826
▁러시	-6827
런트	-6828
▁택하	-6829
▁복합	-6830
▁킷	-6831
▁실은	-6832
▁직장	-6833
▁안양	-6834
▁로빈	-6835
▁잠실	-6836
▁샤이	-6837
▁증상	-6838
▁임금	-6839
▁스포일러	-6840
▁One	-6841
▁방위	-6842
▁강림	-6843
▁GO	-6844
ph	-6845
▁팡	-6846
▁살아나	-6847
▁폭파	-6848
▁고소	-6849
▁만일	-6850
▁확장팩	-6851
▁ㅂ니까	-6852
▁청와대	-6853
비치	-6854
▁공인	-6855
▁국경	-6856
▁어시스트	-6857
▁오이	-6858
구나	-6859
▁꽉	-6860
▁여고	-6861
▁때려	-6862
▁당당	-6863
▁부임	-6864
▁개별	-6865
▁남아	-6866
▁유의	-6867
산시	-6868
▁그라운드	-6869
▁후회	-6870
▁로이	-6871
틀러	-6872
ree	-6873
▁Oh	-6874
▁기묘	-6875
▁로버트	-6876
▁뱃	-6877
▁배수	-6878
▁뱅크	-6879
▁명백	-6880
▁오로지	-6881
▁거북	-6882
▁프린세스	-6883
▁교복	-6884
▁코스튬	-6885
▁휠	-6886
▁예고편	-6887
▁특별히	-6888
▁포스터	-6889
▁선사	-6890
▁역습	-6891
▁통틀	-6892
플레이	-6893
▁시로	-6894
▁학생회	-6895
▁청주	-6896
▁개장	-6897
▁히든	-6898
▁헨리	-6899
▁집어넣	-6900
▁As	-6901
▁극도	-6902
▁아이러	-6903
▁엎	-6904
▁New	-6905
▁회담	-6906
▁쓸데	-6907
학자	-6908
▁도트	-6909
▁하이라이트	-6910
▁조명	-6911
▁되살	-6912
▁수염	-6913
ason	-6914
▁끊임	-6915
베스	-6916
우리	-6917
▁퍼즐	-6918
▁둘러보	-6919
불명	-6920
▁FM	-6921
▁니아	-6922
▁관찰	-6923
우치	-6924
▁뜬금없이	-6925
▁사야	-6926
▁여객	-6927
▁103	-6928
▁되게	-6929
카이도	-6930
▁어쩌면	-6931
ai	-6932
▁오더	-6933
aby	-6934
▁불행	-6935
▁렌즈	-6936
▁개신교	-6937
▁모집	-6938
저리	-6939
▁헷	-6940
▁성질	-6941
▁술사	-6942
불호	-6943
▁호불호	-6944
러그	-6945
릴라	-6946
▁실존	-6947
▁비스트	-6948
▁마케	-6949
▁양손	-6950
▁흰색	-6951
크라	-6952
▁세뇌	-6953
▁트레일러	-6954
▁부동	-6955
▁묶이	-6956
▁캘	-6957
▁1960	-6958
▁바지	-6959
▁유언	-6960
▁동경	-6961
▁에로	-6962
▁셔틀	-6963
▁매출	-6964
▁사리	-6965
▁장로	-6966
▁금메달	-6967
리온	-6968
▁케이드	-6969
▁220	-6970
▁보라색	-6971
▁비틀	-6972
▁유기	-6973
▁각오	-6974
▁CS	-6975
도르	-6976
▁JP	-6977
▁거든	-6978
▁물품	-6979
▁부딪히	-6980
▁결계	-6981
▁올스타	-6982
▁트레이너	-6983
▁우주선	-6984
▁과학자	-6985
▁프로토	-6986
▁지인	-6987
▁un	-6988
▁캐시	-6989
▁알라	-6990
▁모듈	-6991
▁항구	-6992
▁샵	-6993
▁손상	-6994
▁유망	-6995
▁오브젝트	-6996
▁초콜	-6997
▁타르	-6998
▁나스	-6999
▁심의	-7000
에이	-7001
▁타이탄	-7002
▁코미디	-7003
▁여파	-7004
▁웨스트	-7005
키아	-7006
▁회색	-7007
▁달려가	-7008
▁라크	-7009
▁z	-7010
▁연봉	-7011
돌이	-7012
▁UE	-7013
▁우즈	-7014
▁240	-7015
▁라즈	-7016
▁법칙	-7017
▁원곡	-7018
▁국정	-7019
▁윈드	-7020
▁비유	-7021
▁지향	-7022
▁tv	-7023
▁두렵	-7024
▁풋	-7025
oon	-7026
▁무승부	-7027
▁진격	-7028
▁포탄	-7029
▁폐기	-7030
▁이와	-7031
▁엘리자	-7032
▁태평양	-7033
▁손실	-7034
마크	-7035
▁붙잡히	-7036
▁128	-7037
싱턴	-7038
▁치열	-7039
▁김용	-7040
90	-7041
▁드로우	-7042
▁늙	-7043
▁정반	-7044
▁홀드	-7045
베이	-7046
▁유출	-7047
▁포장	-7048
MS	-7049
▁건국	-7050
▁국장	-7051
▁날뛰	-7052
▁광산	-7053
▁신선	-7054
▁브라운	-7055
▁함부로	-7056
저기	-7057
▁따뜻	-7058
▁무공	-7059
▁영지	-7060
▁리버풀	-7061
▁갤러	-7062
act	-7063
▁이글스	-7064
▁제갈량	-7065
▁즉위	-7066
▁우드	-7067
▁맥주	-7068
▁제네	-7069
ox	-7070
▁짐승	-7071
▁중순	-7072
▁임기	-7073
라노	-7074
▁두들기	-7075
▁엄밀	-7076
▁트랩	-7077
▁장판	-7078
토스	-7079
▁코믹	-7080
▁슬로	-7081
▁노동자	-7082
hen	-7083
▁클론	-7084
▁패전	-7085
▁깎이	-7086
▁단기	-7087
▁반감	-7088
▁배려	-7089
▁넘어서	-7090
▁이웃	-7091
▁닷	-7092
▁하스	-7093
▁여기저기	-7094
▁합리	-7095
ARD	-7096
▁워크래프트	-7097
▁모스	-7098
▁서머	-7099
▁안심	-7100
▁탐지	-7101
▁go	-7102
▁원더	-7103
메이	-7104
▁스핀	-7105
▁박살나	-7106
▁아바타	-7107
▁사이클	-7108
▁간주	-7109
▁TVA	-7110
▁네티	-7111
▁최우	-7112
▁하프	-7113
▁ㄹ려	-7114
▁신데	-7115
▁양자	-7116
▁쿤	-7117
▁%/	-7118
▁알렉스	-7119
▁기수	-7120
▁독점	-7121
▁커스텀	-7122
▁계수	-7123
▁백제	-7124
▁섀도우	-7125
ank	-7126
▁리안	-7127
▁트리거	-7128
▁트라우마	-7129
▁이모	-7130
▁휴가	-7131
▁로이드	-7132
▁마땅	-7133
▁쉴	-7134
▁당대	-7135
▁라틴	-7136
▁키라	-7137
▁트로피	-7138
▁흔들	-7139
뻐하	-7140
▁기뻐하	-7141
▁지연	-7142
아치	-7143
▁레온	-7144
▁관통력	-7145
▁신용	-7146
▁장난감	-7147
▁샬	-7148
▁시비	-7149
▁단검	-7150
▁사립	-7151
▁방탄	-7152
▁스나이	-7153
▁후미	-7154
▁여럿	-7155
▁상륙	-7156
깨비	-7157
▁대조	-7158
ich	-7159
▁생전	-7160
▁벤치	-7161
▁야쿠	-7162
▁김준	-7163
▁콤비	-7164
▁일요일	-7165
▁옐	-7166
▁디시	-7167
▁소프트웨어	-7168
▁World	-7169
▁날씨	-7170
▁1982	-7171
▁신자	-7172
▁디즈니	-7173
▁JT	-7174
▁우익	-7175
▁신데렐라	-7176
▁단종	-7177
포르	-7178
ear	-7179
▁시리아	-7180
▁아이러니	-7181
▁빨간	-7182
▁려다가	-7183
▁밀어내	-7184
▁시인	-7185
▁혜택	-7186
ife	-7187
▁쳐들	-7188
▁챔피언십	-7189
▁프라임	-7190
▁토요일	-7191
ary	-7192
lect	-7193
려받	-7194
▁태국	-7195
▁신속	-7196
▁Mk	-7197
▁수습	-7198
▁선임	-7199
▁음료	-7200
▁사법	-7201
블리	-7202
▁권유	-7203
란히	-7204
▁손오	-7205
▁당사자	-7206
▁변수	-7207
▁파밍	-7208
▁독일군	-7209
▁갚	-7210
▁센서	-7211
▁도장	-7212
▁허무	-7213
하나	-7214
▁방송사	-7215
▁파울	-7216
▁순양함	-7217
▁근원	-7218
▁네티즌	-7219
▁권위	-7220
하마	-7221
▁막강	-7222
▁추세	-7223
▁스트라이커	-7224
▁벡	-7225
▁스피릿	-7226
▁실내	-7227
에르	-7228
싸움	-7229
▁서바이	-7230
▁의학	-7231
▁서기	-7232
▁지목	-7233
반기	-7234
uk	-7235
AP	-7236
▁추방	-7237
▁all	-7238
▁빠져나가	-7239
▁상사	-7240
▁슬라	-7241
▁라스트	-7242
▁경호	-7243
▁후임	-7244
키리	-7245
ET	-7246
▁약물	-7247
▁LIVE	-7248
렉션	-7249
▁전생	-7250
▁끓	-7251
▁쓰리	-7252
▁버스트	-7253
▁키보드	-7254
way	-7255
▁SF	-7256
▁마카	-7257
▁짐작	-7258
쿠라	-7259
▁탭	-7260
사기	-7261
▁카더라	-7262
▁결제	-7263
▁전남	-7264
사리	-7265
▁유혹	-7266
▁나아지	-7267
▁선장	-7268
▁얽	-7269
▁표면	-7270
▁끌리	-7271
▁드레스	-7272
▁조상	-7273
▁배출	-7274
▁185	-7275
▁흡사	-7276
▁극히	-7277
▁지력	-7278
▁후반기	-7279
ple	-7280
▁침대	-7281
▁구조물	-7282
▁Day	-7283
▁유전자	-7284
▁김해	-7285
▁엽	-7286
타카	-7287
▁논쟁	-7288
▁근접전	-7289
▁Fr	-7290
▁태클	-7291
▁토하	-7292
▁1983	-7293
▁당기	-7294
▁도리	-7295
▁기호	-7296
▁실시간	-7297
▁설령	-7298
▁진상	-7299
▁패밀리	-7300
▁경북	-7301
▁정석	-7302
▁낙선	-7303
▁감수	-7304
▁마피아	-7305
▁차갑	-7306
▁좌절	-7307
▁오지	-7308
▁동속	-7309
▁강사	-7310
▁니혼	-7311
▁여서	-7312
▁are	-7313
▁합동	-7314
▁페리	-7315
▁창설	-7316
▁매니아	-7317
▁간간히	-7318
▁스타디	-7319
숭이	-7320
▁로보	-7321
▁비극	-7322
▁비비	-7323
▁119	-7324
노리	-7325
▁쏠	-7326
▁포획	-7327
나미	-7328
▁물체	-7329
▁울트라맨	-7330
▁돋보이	-7331
▁do	-7332
▁nd	-7333
▁역임	-7334
ype	-7335
ens	-7336
▁집권	-7337
▁원형	-7338
▁DPS	-7339
▁낭비	-7340
▁백화점	-7341
▁성배	-7342
▁시온	-7343
▁중상	-7344
▁lv	-7345
▁조르	-7346
▁사무소	-7347
▁전날	-7348
▁거스	-7349
▁{{{#	-7350
▁다투	-7351
▁가두	-7352
aster	-7353
▁범용	-7354
▁MB	-7355
▁빌딩	-7356
▁정교	-7357
orn	-7358
ork	-7359
▁튼튼	-7360
▁손오공	-7361
▁명목	-7362
▁소모량	-7363
▁특공	-7364
▁홀리	-7365
▁해병대	-7366
▁연구원	-7367
▁페어	-7368
▁구동	-7369
▁피로	-7370
▁퀵	-7371
▁출혈	-7372
▁동남	-7373
▁마트	-7374
▁엄격	-7375
사이	-7376
▁123	-7377
▁미궁	-7378
▁변태	-7379
▁의장	-7380
▁한반도	-7381
▁따라오	-7382
▁공감	-7383
▁104	-7384
▁위로	-7385
▁사악	-7386
▁콘솔	-7387
▁삼각	-7388
▁베어스	-7389
11	-7390
▁헤르	-7391
스티벌	-7392
▁지선	-7393
▁페스티벌	-7394
▁질병	-7395
▁생체	-7396
▁수직	-7397
▁부스트	-7398
▁호남	-7399
▁대타	-7400
▁베테랑	-7401
▁땡	-7402
▁배제	-7403
ans	-7404
▁질주	-7405
▁Ad	-7406
▁미미	-7407
▁Up	-7408
▁스태프	-7409
▁DP	-7410
▁하인	-7411
▁109	-7412
▁Wi	-7413
▁데이비드	-7414
▁복원	-7415
▁젖	-7416
▁강렬	-7417
▁제치	-7418
ons	-7419
▁동행	-7420
▁관측	-7421
▁바나	-7422
▁Sw	-7423
▁양반	-7424
▁넘어오	-7425
▁오메가	-7426
▁실상	-7427
▁AA	-7428
▁직선	-7429
▁스즈키	-7430
▁빨간색	-7431
▁래퍼	-7432
▁OVA	-7433
▁공대	-7434
▁단행본	-7435
▁개국	-7436
▁엑시즈	-7437
▁제물	-7438
버그	-7439
▁탐색	-7440
▁본토	-7441
▁특별시	-7442
▁style	-7443
ey	-7444
▁우측	-7445
▁쌀	-7446
▁진급	-7447
▁케이블	-7448
▁오니	-7449
▁거칠	-7450
▁KOF	-7451
▁토요	-7452
▁쨩	-7453
▁도깨비	-7454
▁디펜	-7455
▁페미니	-7456
▁전락	-7457
▁약자	-7458
very	-7459
▁스플	-7460
▁관여	-7461
▁sp	-7462
▁되돌	-7463
▁라그나	-7464
▁센트	-7465
▁블로	-7466
▁리코	-7467
▁장성	-7468
▁밀려나	-7469
▁브레이커	-7470
▁선조	-7471
▁광기	-7472
▁무실	-7473
▁손쉽	-7474
▁거론	-7475
▁메일	-7476
▁세금	-7477
▁을수록	-7478
▁앰	-7479
▁연쇄	-7480
▁ES	-7481
▁여의	-7482
▁자네	-7483
▁우호	-7484
▁아스카	-7485
▁잉여	-7486
▁메리트	-7487
▁변동	-7488
NA	-7489
차기	-7490
ex	-7491
ung	-7492
▁마타	-7493
▁스와	-7494
▁고무	-7495
▁총합	-7496
▁본관	-7497
▁III	-7498
▁스테이션	-7499
공항	-7500
▁친절	-7501
▁땅볼	-7502
▁논문	-7503
▁한창	-7504
▁코토	-7505
▁인재	-7506
▁유탄	-7507
▁바둑	-7508
▁백업	-7509
▁워싱턴	-7510
렉스	-7511
▁군수	-7512
▁오노	-7513
▁해양	-7514
나오	-7515
타입	-7516
▁촉수	-7517
▁히로시	-7518
▁전격	-7519
▁긁	-7520
▁훼손	-7521
박스	-7522
▁UEFA	-7523
▁위엄	-7524
▁소니	-7525
▁그랑	-7526
▁수비수	-7527
▁그러다가	-7528
▁단발	-7529
▁명문	-7530
▁하급	-7531
▁축소	-7532
▁장애물	-7533
▁대박	-7534
▁마술사	-7535
▁리모	-7536
▁카를	-7537
▁라가	-7538
EM	-7539
나기	-7540
▁응용	-7541
▁중지	-7542
▁민주주의	-7543
능력	-7544
▁프리미어	-7545
▁벅	-7546
▁형편	-7547
▁어색	-7548
▁박살내	-7549
▁마오	-7550
▁에이지	-7551
▁구장	-7552
▁돌보	-7553
▁재학	-7554
께끼	-7555
▁성실	-7556
▁수수께끼	-7557
▁취업	-7558
▁스타디움	-7559
▁치카	-7560
▁스위스	-7561
▁RA	-7562
▁할로	-7563
▁강호	-7564
▁!"	-7565
ll	-7566
▁최저	-7567
▁역량	-7568
▁안쪽	-7569
▁구성원	-7570
▁바르셀	-7571
▁as	-7572
anc	-7573
▁확산	-7574
▁고스	-7575
▁바르셀로나	-7576
▁데빌	-7577
▁창문	-7578
▁중고	-7579
▁짙	-7580
▁미지	-7581
▁우회	-7582
AK	-7583
▁리퍼	-7584
▁트윈스	-7585
▁징역	-7586
▁노란색	-7587
▁초콜릿	-7588
▁겜	-7589
▁츠카	-7590
▁유망주	-7591
▁Windows	-7592
▁고는	-7593
▁제왕	-7594
▁노가다	-7595
▁딸리	-7596
▁역명	-7597
▁워크	-7598
체스터	-7599
▁메카닉	-7600
▁썸	-7601
▁빈도	-7602
▁렉스	-7603
▁깃발	-7604
▁코바	-7605
▁no	-7606
▁인자	-7607
▁카카오	-7608
우트	-7609
▁강등	-7610
▁이현	-7611
▁키미	-7612
▁공통점	-7613
▁천연	-7614
▁윈도우	-7615
▁대행	-7616
▁원피스	-7617
▁en	-7618
▁여타	-7619
▁퇴각	-7620
▁과자	-7621
▁경상북도	-7622
▁불쌍	-7623
누스	-7624
▁온도	-7625
▁굴욕	-7626
▁책임지	-7627
▁산타	-7628
▁부작용	-7629
▁란스	-7630
▁분산	-7631
▁힙합	-7632
▁티스	-7633
▁끌어올리	-7634
▁마유	-7635
▁폴리	-7636
▁껍	-7637
▁포터	-7638
▁유료	-7639
▁최선	-7640
▁승차	-7641
▁구독	-7642
▁레이디	-7643
▁봉쇄	-7644
▁농장	-7645
ero	-7646
지막지	-7647
▁무지막지	-7648
▁우승자	-7649
35	-7650
argin	-7651
▁대령	-7652
▁엔지	-7653
▁통칭	-7654
▁어나	-7655
▁수인	-7656
▁전당	-7657
▁대접	-7658
▁취득	-7659
▁이병	-7660
▁스미스	-7661
▁드래곤볼	-7662
▁관우	-7663
▁동반	-7664
▁스노우	-7665
▁터트리	-7666
▁젬	-7667
모스	-7668
▁올드	-7669
▁187	-7670
▁시상식	-7671
▁파도	-7672
▁루프	-7673
루미	-7674
oss	-7675
▁발판	-7676
▁클린	-7677
▁평하	-7678
▁이대로	-7679
▁Ph	-7680
▁So	-7681
▁그립	-7682
▁츠바	-7683
▁Qu	-7684
▁화산	-7685
▁LO	-7686
▁성씨	-7687
벤처	-7688
▁Station	-7689
▁어드벤처	-7690
▁챔프	-7691
브라	-7692
▁어벤	-7693
▁발키리	-7694
▁발행	-7695
동자	-7696
▁천천	-7697
▁규제	-7698
▁국무	-7699
▁로맨	-7700
▁크레이	-7701
▁레이어	-7702
▁다이스	-7703
▁손님	-7704
▁원시	-7705
▁margin	-7706
▁머니	-7707
▁ㅋ	-7708
▁진에	-7709
▁번지	-7710
▁블레이	-7711
▁결혼식	-7712
▁오스만	-7713
▁공산당	-7714
▁대전차	-7715
▁잔인	-7716
▁급행	-7717
▁ML	-7718
▁공단	-7719
▁멍청	-7720
▁135	-7721
▁빙판	-7722
99	-7723
▁카마	-7724
▁강간	-7725
▁톡	-7726
▁후드	-7727
▁가난	-7728
▁요한	-7729
pt	-7730
▁매드	-7731
▁변이	-7732
▁평양	-7733
▁큰	-7734
▁씌우	-7735
▁210	-7736
▁으라고	-7737
▁침투	-7738
▁121	-7739
▁겔	-7740
▁표절	-7741
▁신중	-7742
▁황후	-7743
▁사족	-7744
▁요미	-7745
▁손꼽	-7746
▁저렇	-7747
▁렘	-7748
구장	-7749
▁으려는	-7750
ise	-7751
▁시사	-7752
▁잊히	-7753
▁아베	-7754
▁와인	-7755
▁외우	-7756
▁타치	-7757
▁주사위	-7758
▁검열	-7759
▁미오	-7760
군가	-7761
베이터	-7762
▁와이번	-7763
▁사로	-7764
▁지오	-7765
▁인과	-7766
▁쿵	-7767
▁아깝	-7768
▁여포	-7769
▁카리스	-7770
▁스케일	-7771
▁세리	-7772
▁수지	-7773
▁피카	-7774
▁예약	-7775
▁경연	-7776
ical	-7777
▁소재지	-7778
▁107	-7779
▁선출	-7780
▁개척	-7781
▁블리자드	-7782
▁천천히	-7783
네마	-7784
▁목걸이	-7785
구미	-7786
▁게이머	-7787
▁쯔	-7788
▁이라크	-7789
▁특훈	-7790
▁누군가	-7791
▁뮌	-7792
셔널	-7793
▁스택	-7794
▁신지	-7795
▁스타리그	-7796
▁Ver	-7797
▁강민	-7798
▁김수	-7799
▁난무	-7800
▁쇄	-7801
▁미국인	-7802
▁왼손	-7803
▁주체	-7804
▁케빈	-7805
▁의외로	-7806
▁여섯	-7807
▁간지	-7808
▁열혈	-7809
▁1981	-7810
▁캄	-7811
▁--	-7812
▁호크	-7813
▁강경	-7814
▁끊임없이	-7815
▁신동	-7816
▁시외버스	-7817
▁페어리	-7818
▁마인드	-7819
▁꿈꾸	-7820
▁이순	-7821
▁타츠	-7822
▁사체	-7823
▁알바	-7824
▁MG	-7825
▁지수	-7826
▁엔트리	-7827
▁불태우	-7828
모함	-7829
▁조종사	-7830
▁인칭	-7831
▁부재	-7832
▁패자	-7833
리스타	-7834
▁기부	-7835
▁덤비	-7836
▁그레이트	-7837
▁감탄	-7838
▁광물	-7839
▁끌어들이	-7840
▁명분	-7841
▁어나더	-7842
다운	-7843
▁제재	-7844
▁퍼스트	-7845
▁주관	-7846
▁워프	-7847
▁프랑스어	-7848
▁pl	-7849
▁답답	-7850
▁소통	-7851
▁사수	-7852
▁사관	-7853
베리	-7854
▁중거리	-7855
루션	-7856
ign	-7857
▁슌	-7858
▁김지	-7859
테이션	-7860
▁점검	-7861
▁혈통	-7862
하루	-7863
스레	-7864
▁모니터	-7865
▁대성	-7866
▁교토	-7867
▁고시	-7868
▁마일	-7869
▁압권	-7870
▁스티븐	-7871
▁기리	-7872
니시	-7873
▁첫째	-7874
▁이경	-7875
▁소금	-7876
gh	-7877
▁맞붙	-7878
▁무용	-7879
▁선진	-7880
▁서식	-7881
▁토지	-7882
게이머	-7883
▁프로게이머	-7884
▁자존	-7885
▁냉정	-7886
▁트윗	-7887
▁모델링	-7888
▁폭스	-7889
▁다지	-7890
▁경찰서	-7891
▁엄연히	-7892
▁이라도	-7893
▁이노	-7894
▁스컬	-7895
▁파랗	-7896
▁미정	-7897
▁철갑	-7898
▁첸	-7899
어드	-7900
▁너머	-7901
▁루리	-7902
▁love	-7903
▁김승	-7904
▁미러	-7905
▁점유	-7906
▁동해	-7907
▁물어	-7908
▁출간	-7909
▁EC	-7910
▁레인지	-7911
▁평론	-7912
▁프론	-7913
▁해산	-7914
▁사사	-7915
▁폭격기	-7916
▁공격수	-7917
▁자제	-7918
▁카시	-7919
▁헷갈리	-7920
▁흙	-7921
센스	-7922
▁오죽	-7923
▁러스	-7924
테일	-7925
▁중위	-7926
▁임의	-7927
▁쫒	-7928
▁망토	-7929
IR	-7930
▁구별	-7931
▁아스트	-7932
▁라마	-7933
▁하여	-7934
▁TR	-7935
▁맹세	-7936
ail	-7937
▁플랜	-7938
urn	-7939
▁친분	-7940
▁고사	-7941
▁연산	-7942
▁보좌	-7943
▁중동	-7944
▁장타	-7945
▁내버리	-7946
▁math	-7947
▁리나	-7948
▁크라이	-7949
▁외곽	-7950
▁페스	-7951
바나	-7952
▁날아다니	-7953
▁Sk	-7954
으로	-7955
▁라이즈	-7956
▁어이없	-7957
▁주최	-7958
▁용자	-7959
▁도어	-7960
▁왜냐하면	-7961
▁본능	-7962
▁비기	-7963
▁질서	-7964
▁열정	-7965
▁풍부	-7966
▁디오	-7967
▁화상	-7968
▁이대	-7969
▁186	-7970
▁재개	-7971
▁고집	-7972
▁엣	-7973
▁개교	-7974
▁실사	-7975
▁마산	-7976
▁JTBC	-7977
▁납득	-7978
▁카레	-7979
ence	-7980
▁항공모함	-7981
▁그릇	-7982
▁쉴드	-7983
▁영감	-7984
▁동정	-7985
▁상무	-7986
▁하나하나	-7987
▁군요	-7988
▁To	-7989
추어	-7990
▁불능	-7991
▁유니버스	-7992
민주	-7993
VER	-7994
▁유입	-7995
▁크래프트	-7996
▁="	-7997
▁시타	-7998
▁지부	-7999
틀랜드	-8000
▁사퇴	-8001
▁사무실	-8002
▁Super	-8003
▁변장	-8004
▁우울	-8005
▁스폰서	-8006
▁트릴	-8007
▁라이언	-8008
▁고속도로	-8009
▁122	-8010
▁웜	-8011
▁초능력	-8012
▁기스	-8013
▁광경	-8014
▁뉘	-8015
▁공속	-8016
▁찬성	-8017
의자	-8018
▁정신력	-8019
▁BJ	-8020
▁비리	-8021
▁작정	-8022
▁광명	-8023
▁확신	-8024
▁벙커	-8025
▁유연	-8026
바지	-8027
▁국제공항	-8028
▁어설	-8029
▁박성	-8030
▁Dream	-8031
이동	-8032
▁검정	-8033
▁근대	-8034
▁올바르	-8035
▁히틀러	-8036
▁멋대로	-8037
라미	-8038
▁우마	-8039
▁레시	-8040
▁김유	-8041
▁리틀	-8042
▁엘리베이터	-8043
▁박수	-8044
▁에디션	-8045
▁몸통	-8046
▁인벤	-8047
▁삼성전자	-8048
▁코노	-8049
▁스가	-8050
▁까마	-8051
▁기본기	-8052
▁템플	-8053
▁꺼리	-8054
▁하치	-8055
▁애칭	-8056
▁닦	-8057
▁갑작스럽	-8058
▁중점	-8059
▁토트	-8060
▁LE	-8061
▁장례	-8062
▁극대	-8063
▁1979	-8064
▁평상	-8065
▁출범	-8066
▁원숭이	-8067
▁법사	-8068
▁로키	-8069
▁슈퍼맨	-8070
배우	-8071
▁ㅔ	-8072
▁체결	-8073
ier	-8074
▁김포	-8075
▁변명	-8076
▁에버	-8077
▁아쿠아	-8078
▁총장	-8079
▁마모	-8080
▁타구	-8081
이나	-8082
▁카자	-8083
▁엘레	-8084
▁홋	-8085
▁일가	-8086
▁can	-8087
▁EXP	-8088
▁카쿠	-8089
▁투쟁	-8090
▁춥	-8091
▁145	-8092
▁쳐들어	-8093
▁유치원	-8094
▁곡인	-8095
▁민국	-8096
▁출산	-8097
▁워리어	-8098
ble	-8099
▁만능	-8100
▁청구	-8101
▁할리	-8102
▁노무	-8103
▁이어받	-8104
▁만주	-8105
▁비키	-8106
▁슬픔	-8107
▁조카	-8108
▁모임	-8109
▁퍽	-8110
▁부근	-8111
▁카네	-8112
▁도색	-8113
▁유격수	-8114
▁닥치	-8115
▁워즈	-8116
▁실현	-8117
▁블럭	-8118
IX	-8119
▁이누	-8120
▁창작물	-8121
▁무제	-8122
▁재앙	-8123
oun	-8124
▁부스	-8125
▁테이블	-8126
▁아처	-8127
▁브라더스	-8128
▁NO	-8129
▁롤러	-8130
▁부천	-8131
▁헬멧	-8132
워즈	-8133
▁방심	-8134
▁매주	-8135
▁우루	-8136
▁후일	-8137
▁113	-8138
▁무실점	-8139
▁히스	-8140
▁학급	-8141
▁가이드	-8142
▁브라이언	-8143
▁암호	-8144
▁IM	-8145
▁튜버	-8146
▁Ap	-8147
▁고등학생	-8148
▁쿠니	-8149
▁씨앗	-8150
▁철저히	-8151
역사	-8152
▁검증	-8153
▁풍선	-8154
▁165	-8155
▁펭	-8156
이치로	-8157
▁항모	-8158
▁기차	-8159
iver	-8160
▁헝가리	-8161
▁1950	-8162
▁복사	-8163
▁마운	-8164
▁스쿼	-8165
▁이이	-8166
▁엉망	-8167
▁왕복	-8168
▁터보	-8169
▁몰살	-8170
▁달려들	-8171
ott	-8172
▁각인	-8173
▁그러면	-8174
▁알레	-8175
▁케이크	-8176
▁인접	-8177
▁리가	-8178
▁손자	-8179
▁포탈	-8180
▁부시	-8181
▁글씨	-8182
▁호러	-8183
▁IT	-8184
▁144	-8185
▁사투	-8186
▁카지	-8187
▁병역	-8188
▁명사	-8189
▁사연	-8190
▁엄밀히	-8191
▁제니	-8192
▁운송	-8193
▁넬	-8194
리안	-8195
▁이카	-8196
▁인성	-8197
▁습니까	-8198
▁상주	-8199
▁155	-8200
지르	-8201
▁쿠마	-8202
▁레이블	-8203
▁유우키	-8204
▁매트	-8205
▁절친	-8206
▁옥상	-8207
▁ATK	-8208
▁at	-8209
▁쿠데	-8210
▁쫓겨나	-8211
▁간섭	-8212
▁화폐	-8213
▁통째	-8214
▁CM	-8215
▁세로	-8216
▁죄책	-8217
▁아무튼	-8218
▁마당	-8219
▁생김	-8220
▁승인	-8221
▁조국	-8222
슬라	-8223
▁알아채	-8224
▁시뮬	-8225
▁동전	-8226
▁품질	-8227
▁사로잡	-8228
eah	-8229
▁현금	-8230
▁젼	-8231
아들	-8232
▁연수	-8233
▁연전	-8234
uck	-8235
▁방학	-8236
▁영양	-8237
▁Max	-8238
진호	-8239
▁흩어지	-8240
▁114	-8241
▁마음대로	-8242
▁제리	-8243
페이	-8244
폭탄	-8245
▁일곱	-8246
▁츤	-8247
▁목사	-8248
▁독일어	-8249
▁거지	-8250
▁유재석	-8251
▁엔지니어	-8252
▁천장	-8253
▁상금	-8254
▁우연	-8255
▁깊이	-8256
▁입문	-8257
▁BD	-8258
ode	-8259
▁햇	-8260
▁비우	-8261
▁함락	-8262
▁양식	-8263
▁사나	-8264
▁ERA	-8265
▁집회	-8266
코트	-8267
▁레나	-8268
▁죄책감	-8269
▁아오이	-8270
II	-8271
▁바쿠	-8272
▁스나이퍼	-8273
oh	-8274
▁원전	-8275
▁this	-8276
▁아자	-8277
▁동대	-8278
▁뮌헨	-8279
자치	-8280
▁너스	-8281
▁현자	-8282
▁이놈	-8283
▁히카	-8284
▁샐	-8285
▁뱅가드	-8286
▁솟	-8287
▁호드	-8288
▁유메	-8289
▁시크릿	-8290
▁미르	-8291
▁수위	-8292
▁다큐	-8293
▁페르소	-8294
▁스틱	-8295
▁유카	-8296
▁기동력	-8297
▁화해	-8298
▁혁신	-8299
▁쿠스	-8300
▁승진	-8301
▁리본	-8302
▁호의	-8303
▁개구리	-8304
▁다거나	-8305
▁스티브	-8306
▁감자	-8307
▁부패	-8308
네시아	-8309
▁초록색	-8310
▁용암	-8311
▁토대	-8312
가루	-8313
끼리	-8314
▁성경	-8315
▁손꼽히	-8316
▁이케	-8317
▁ㄴ데다	-8318
▁할로윈	-8319
▁스카우트	-8320
▁시모	-8321
▁전향	-8322
▁참사	-8323
▁정문	-8324
▁멧	-8325
▁종결	-8326
▁스피어	-8327
▁최순	-8328
▁코스프레	-8329
▁고아	-8330
▁지로	-8331
▁궁합	-8332
▁러쉬	-8333
주교	-8334
▁전동차	-8335
▁녹화	-8336
▁오렌	-8337
▁미성	-8338
▁티저	-8339
▁원장	-8340
▁시게	-8341
▁750	-8342
▁맞히	-8343
▁..!	-8344
▁깨끗	-8345
▁한나라	-8346
▁친애	-8347
▁메트로	-8348
▁만점	-8349
▁아리아	-8350
▁사무라이	-8351
▁GK	-8352
▁아드	-8353
▁from	-8354
▁아이디어	-8355
▁정반대	-8356
▁한나라당	-8357
▁HE	-8358
케이션	-8359
▁ne	-8360
▁자율	-8361
▁은폐	-8362
▁대위	-8363
▁평행	-8364
▁흑마	-8365
야시	-8366
변이	-8367
▁돌연변이	-8368
▁디자이너	-8369
▁이소	-8370
▁떨치	-8371
▁잭슨	-8372
▁토우	-8373
▁미인	-8374
▁말씀	-8375
▁협의	-8376
▁???	-8377
bs	-8378
int	-8379
▁OS	-8380
▁도약	-8381
떨어지	-8382
▁교과서	-8383
▁나이프	-8384
▁항해	-8385
▁필리핀	-8386
▁페르소나	-8387
▁메이지	-8388
▁뺏기	-8389
▁기후	-8390
▁이력	-8391
▁자칭	-8392
▁풍기	-8393
▁실체	-8394
▁오퍼	-8395
▁정성	-8396
▁적절히	-8397
▁저글	-8398
▁유전	-8399
▁지분	-8400
▁합작	-8401
▁충족	-8402
▁다니엘	-8403
▁흡혈귀	-8404
▁450	-8405
▁tr	-8406
▁NBA	-8407
▁갯	-8408
▁이스트	-8409
▁진에어	-8410
▁Season	-8411
항공	-8412
운동	-8413
▁AB	-8414
▁스매	-8415
▁마에	-8416
▁이틀	-8417
▁종영	-8418
▁동서	-8419
▁좌측	-8420
▁파스	-8421
▁치안	-8422
▁부러지	-8423
▁에미	-8424
▁학문	-8425
▁자이언트	-8426
▁트래	-8427
itt	-8428
▁중원	-8429
▁리사	-8430
IL	-8431
크리	-8432
▁지혜	-8433
▁여단	-8434
▁브론	-8435
ose	-8436
▁욕설	-8437
▁시골	-8438
▁임하	-8439
▁일관	-8440
▁서류	-8441
▁ㄹ래	-8442
▁가담	-8443
▁가위	-8444
▁찔	-8445
직자	-8446
▁내기	-8447
느리	-8448
▁얼티	-8449
▁피자	-8450
▁학대	-8451
▁new	-8452
▁{{{-	-8453
▁스타트	-8454
▁이태	-8455
▁침착	-8456
▁저기	-8457
▁바이올	-8458
▁사와	-8459
▁억울	-8460
▁히드라	-8461
▁입증	-8462
▁레코드	-8463
▁흘러가	-8464
▁EXT	-8465
▁계층	-8466
▁헥	-8467
▁각지	-8468
▁매달리	-8469
▁얇	-8470
철도	-8471
▁협정	-8472
▁외국어	-8473
▁로라	-8474
▁분홍	-8475
▁스쿼드	-8476
▁포병	-8477
▁마기	-8478
▁La	-8479
렉터	-8480
▁물자	-8481
▁존중	-8482
▁해소	-8483
▁소생	-8484
▁덮치	-8485
▁Im	-8486
▁감당	-8487
▁달아나	-8488
▁EZ	-8489
▁추후	-8490
▁잔혹	-8491
▁314	-8492
▁베이징	-8493
▁함장	-8494
탐정	-8495
▁카테	-8496
reat	-8497
▁고의	-8498
▁밀도	-8499
▁무도	-8500
▁아케이드	-8501
▁미아	-8502
▁강릉	-8503
▁나이츠	-8504
▁로스트	-8505
▁초상	-8506
▁고고	-8507
▁저글링	-8508
▁툰	-8509
▁녹이	-8510
슈타인	-8511
은색	-8512
▁격려	-8513
▁Con	-8514
▁Vol	-8515
▁카리스마	-8516
▁나인	-8517
▁대동	-8518
▁갈색	-8519
▁유스	-8520
시고	-8521
▁부원	-8522
▁스탈	-8523
▁124	-8524
지능	-8525
▁학년도	-8526
▁인공지능	-8527
▁스파이더맨	-8528
▁이오	-8529
▁Sch	-8530
▁에메	-8531
▁가오	-8532
마루	-8533
철수	-8534
▁신곡	-8535
▁강타	-8536
▁잼	-8537
▁시어	-8538
▁점멸	-8539
▁존스	-8540
▁대세	-8541
▁Ed	-8542
▁부유	-8543
▁극한	-8544
▁피지컬	-8545
▁면하	-8546
부키	-8547
나베	-8548
▁rd	-8549
▁주석	-8550
▁판도	-8551
▁스타즈	-8552
▁출판사	-8553
ube	-8554
▁황당	-8555
▁기울이	-8556
▁Girl	-8557
▁워터	-8558
▁민간인	-8559
▁점심	-8560
▁물약	-8561
▁밀레	-8562
▁강전	-8563
바이트	-8564
▁힘입	-8565
▁과금	-8566
▁압력	-8567
▁정사	-8568
▁펌프	-8569
▁디아블로	-8570
▁세자	-8571
워프	-8572
▁ld	-8573
▁퀴즈	-8574
▁RE	-8575
▁표적	-8576
▁부속	-8577
슬리	-8578
▁대변	-8579
▁배구	-8580
▁대검	-8581
▁Night	-8582
▁그러므로	-8583
방송	-8584
▁그쪽	-8585
▁USB	-8586
▁이빨	-8587
▁압축	-8588
▁183	-8589
ition	-8590
ari	-8591
▁소서	-8592
▁뚱	-8593
▁괴인	-8594
usic	-8595
▁벌써	-8596
▁예의	-8597
▁산맥	-8598
오피스	-8599
▁애완	-8600
▁생김새	-8601
▁마틴	-8602
▁빙결	-8603
msys	-8604
▁후유	-8605
▁ldmsys	-8606
업자	-8607
▁법무	-8608
▁씻	-8609
▁다시금	-8610
▁일지	-8611
▁노아	-8612
▁테스	-8613
▁내역	-8614
▁마하	-8615
▁키요	-8616
▁152	-8617
▁망설	-8618
▁하지	-8619
▁중견	-8620
15	-8621
▁동구	-8622
▁병살	-8623
▁제노	-8624
▁경부	-8625
▁보스턴	-8626
▁기껏	-8627
▁소소	-8628
▁레이싱	-8629
▁퇴치	-8630
ats	-8631
▁리버스	-8632
▁TS	-8633
▁출동	-8634
▁대차	-8635
▁자아	-8636
▁데몬	-8637
▁김주	-8638
▁연설	-8639
▁마케팅	-8640
▁덩어리	-8641
▁..?	-8642
른바	-8643
▁스탭	-8644
▁재건	-8645
▁발사기	-8646
리얼	-8647
▁이른바	-8648
▁아카네	-8649
▁1200	-8650
▁만렙	-8651
▁자존심	-8652
▁Black	-8653
▁노무현	-8654
페라	-8655
▁도대	-8656
▁집계	-8657
▁박스오피스	-8658
▁BC	-8659
▁골프	-8660
▁기질	-8661
▁도덕	-8662
▁토마스	-8663
▁모형	-8664
사랑	-8665
▁자책점	-8666
▁로프	-8667
▁사촌	-8668
▁박진	-8669
▁선동	-8670
▁182	-8671
▁주축	-8672
▁농업	-8673
▁무녀	-8674
▁WC	-8675
▁얄	-8676
▁장벽	-8677
▁Bo	-8678
▁NH	-8679
13	-8680
▁모종	-8681
▁포착	-8682
▁휩쓸	-8683
▁바텀	-8684
▁서리	-8685
세지	-8686
▁들여	-8687
▁철도역	-8688
▁귀국	-8689
yn	-8690
▁ver	-8691
시대	-8692
▁일렉	-8693
▁천상	-8694
▁절벽	-8695
▁문양	-8696
▁카게	-8697
▁원판	-8698
▁통솔	-8699
▁등극	-8700
▁억제	-8701
▁유진	-8702
▁남동생	-8703
▁레아	-8704
▁구상	-8705
▁발레	-8706
▁연동	-8707
토니	-8708
▁127	-8709
▁드워프	-8710
▁각도	-8711
▁Let	-8712
▁마도카	-8713
▁킴	-8714
▁그레이드	-8715
▁불길	-8716
▁리처	-8717
▁상냥	-8718
▁머물	-8719
▁애인	-8720
▁이원	-8721
▁관장	-8722
▁부끄럽	-8723
▁이윤	-8724
▁적시타	-8725
app	-8726
▁not	-8727
▁교차로	-8728
당초	-8729
▁ㅔ요	-8730
▁오른손	-8731
▁탄핵	-8732
▁모스크	-8733
▁현황	-8734
▁발명	-8735
▁리바	-8736
▁뛰어들	-8737
▁모빌	-8738
▁앓	-8739
▁회관	-8740
▁도배	-8741
▁솔저	-8742
▁DM	-8743
▁MM	-8744
▁아담	-8745
▁서울대	-8746
▁쿠데타	-8747
▁118	-8748
▁그란	-8749
▁타이어	-8750
▁왕실	-8751
려워하	-8752
▁라인하르트	-8753
DD	-8754
▁뻘	-8755
▁제발	-8756
▁협동	-8757
▁봉사	-8758
▁육상	-8759
▁발급	-8760
▁사치	-8761
▁스크롤	-8762
▁왕비	-8763
▁아마추어	-8764
▁퓨전	-8765
▁프랜	-8766
▁원주민	-8767
▁스토어	-8768
▁베를	-8769
▁용산	-8770
ough	-8771
▁벗기	-8772
▁섬광	-8773
▁돌려주	-8774
타이	-8775
▁착륙	-8776
▁OG	-8777
▁방사능	-8778
▁사방	-8779
▁향후	-8780
▁184	-8781
▁불러오	-8782
▁까마귀	-8783
▁아포	-8784
▁전담	-8785
▁라미	-8786
▁쿄코	-8787
▁하사	-8788
▁피오	-8789
▁지장	-8790
▁환생	-8791
▁SSR	-8792
▁Am	-8793
▁챔스	-8794
▁서열	-8795
gr	-8796
▁여태	-8797
▁시안	-8798
▁시시	-8799
▁뤼	-8800
▁Op	-8801
▁학사	-8802
▁얼리	-8803
▁숙소	-8804
▁다카	-8805
▁다스리	-8806
▁얌	-8807
▁반성	-8808
▁Str	-8809
▁Col	-8810
▁AF	-8811
▁도대체	-8812
▁지루	-8813
▁베스	-8814
▁선박	-8815
▁밀리언	-8816
▁잎	-8817
▁정밀	-8818
▁이별	-8819
▁입시	-8820
▁행진	-8821
▁박자	-8822
▁시오	-8823
▁우두	-8824
▁퍼펙트	-8825
ye	-8826
▁이무	-8827
▁GM	-8828
▁인피니티	-8829
▁청춘	-8830
▁민폐	-8831
▁노랗	-8832
▁어그	-8833
▁미녀	-8834
▁서적	-8835
▁옴	-8836
▁000000	-8837
▁게끔	-8838
▁교도소	-8839
▁컴뱃	-8840
▁프롤	-8841
▁루마	-8842
어트	-8843
▁유가	-8844
▁큐어	-8845
▁필름	-8846
▁실용	-8847
▁욕심	-8848
▁팔라	-8849
▁얽히	-8850
▁보우	-8851
▁달려오	-8852
▁루미	-8853
▁Mag	-8854
CE	-8855
▁그간	-8856
▁화기	-8857
▁잠기	-8858
▁강인	-8859
▁아수	-8860
▁싱가	-8861
▁싱가포르	-8862
iel	-8863
▁카리	-8864
▁카피	-8865
▁리자	-8866
▁지크	-8867
▁스로	-8868
▁조화	-8869
▁편리	-8870
▁갱신	-8871
▁춤추	-8872
▁스타워즈	-8873
▁브래	-8874
▁친척	-8875
▁취재	-8876
▁금발	-8877
▁승패	-8878
▁직책	-8879
▁툭	-8880
▁김치	-8881
▁선원	-8882
▁모순	-8883
▁주공	-8884
▁오렌지	-8885
무지	-8886
▁테리	-8887
▁건지	-8888
▁화신	-8889
▁마을버스	-8890
▁스네	-8891
▁아무렇	-8892
▁일일	-8893
▁시호	-8894
▁AV	-8895
▁흥분	-8896
▁침몰	-8897
▁발각	-8898
▁탐사	-8899
▁욱	-8900
▁1978	-8901
▁이진	-8902
▁모나	-8903
ull	-8904
vel	-8905
▁어벤져	-8906
▁전송	-8907
▁스카웃	-8908
▁과일	-8909
▁아슬	-8910
▁한꺼	-8911
▁한꺼번에	-8912
▁AL	-8913
▁폴아웃	-8914
▁섬멸	-8915
▁우미	-8916
▁전지	-8917
▁이계	-8918
▁김광	-8919
▁완화	-8920
▁경전	-8921
프리카	-8922
▁스기	-8923
▁안무	-8924
▁흑역사	-8925
▁토라	-8926
▁능가	-8927
▁군부	-8928
▁오다	-8929
▁오토바이	-8930
▁마야	-8931
▁정답	-8932
▁쿠사	-8933
▁보강	-8934
▁흑막	-8935
▁중구	-8936
▁일어	-8937
▁시간대	-8938
▁대역	-8939
▁천국	-8940
헤이	-8941
ult	-8942
▁해운	-8943
▁토트넘	-8944
▁모욕	-8945
▁오즈	-8946
▁성명	-8947
▁178	-8948
▁구형	-8949
키스탄	-8950
서스	-8951
▁아사히	-8952
▁리부	-8953
▁가구	-8954
▁컴백	-8955
▁CL	-8956
▁도르	-8957
▁소나	-8958
▁용이	-8959
▁민감	-8960
able	-8961
▁관문	-8962
▁약혼	-8963
▁반경	-8964
바리	-8965
▁스텔스	-8966
▁이단	-8967
▁호리	-8968
▁홋카이도	-8969
▁치이	-8970
에른	-8971
▁1945	-8972
ject	-8973
▁반역	-8974
▁신관	-8975
소년	-8976
▁미소녀	-8977
구니	-8978
▁주머니	-8979
▁완공	-8980
▁엉덩이	-8981
▁인문	-8982
▁PK	-8983
▁스윙	-8984
▁경상남도	-8985
▁동계	-8986
▁카일	-8987
▁최상급	-8988
▁모에	-8989
▁CE	-8990
▁등재	-8991
▁일체	-8992
▁그리핀	-8993
▁레버	-8994
18	-8995
▁라비	-8996
▁헬리	-8997
▁Co	-8998
▁cl	-8999
eth	-9000
▁강대	-9001
▁오만	-9002
▁매각	-9003
▁소득	-9004
▁유즈	-9005
▁시카고	-9006
▁내밀	-9007
▁간판	-9008
▁직행	-9009
▁이나마	-9010
기에	-9011
▁사직	-9012
▁에코	-9013
▁얼티밋	-9014
바람	-9015
▁적자	-9016
방울	-9017
▁타카하시	-9018
▁신작	-9019
마리	-9020
틀리	-9021
▁마수	-9022
▁저자	-9023
▁코레	-9024
▁시종	-9025
▁독백	-9026
▁베이비	-9027
▁테란	-9028
▁꺼지	-9029
▁머스	-9030
▁울음	-9031
모습	-9032
▁부채	-9033
▁라이트닝	-9034
MAN	-9035
▁엘리자베스	-9036
▁맛보	-9037
▁플라스	-9038
▁정점	-9039
▁프레스	-9040
▁장남	-9041
▁약체	-9042
타리	-9043
▁수아	-9044
▁명장	-9045
▁사탕	-9046
▁패트	-9047
▁뻔하	-9048
▁요격	-9049
▁탈취	-9050
▁걸어가	-9051
▁파운드	-9052
▁스마일	-9053
▁매그	-9054
▁레시피	-9055
▁디스플레이	-9056
속기	-9057
▁여주인	-9058
▁모음	-9059
▁수천	-9060
▁카제	-9061
▁늪	-9062
▁금요일	-9063
▁눈앞	-9064
드러지	-9065
▁삼키	-9066
▁불참	-9067
▁단자	-9068
▁아랫	-9069
▁마미	-9070
▁카사	-9071
▁던지라	-9072
▁패왕	-9073
▁노릇	-9074
▁오케	-9075
▁얹	-9076
▁바이에른	-9077
▁실적	-9078
▁무능	-9079
▁파고	-9080
스크림	-9081
▁Is	-9082
▁쿠리	-9083
▁Do	-9084
▁편의점	-9085
▁소마	-9086
▁도심	-9087
▁휴먼	-9088
▁대피	-9089
▁들르	-9090
▁밈	-9091
▁교리	-9092
▁TOP	-9093
▁BO	-9094
▁레이지	-9095
ild	-9096
▁아유	-9097
▁도쿠	-9098
▁크로우	-9099
▁박정희	-9100
▁카이저	-9101
▁입사	-9102
▁욕망	-9103
▁한하	-9104
▁목욕	-9105
▁구로	-9106
▁과시	-9107
▁애용	-9108
25	-9109
▁일러스트레이터	-9110
▁태풍	-9111
▁맨체스터	-9112
▁신한	-9113
파이	-9114
▁AFC	-9115
▁신하	-9116
▁가왕	-9117
▁그러다	-9118
니코	-9119
▁4000	-9120
▁시범	-9121
▁눈동자	-9122
▁평상시	-9123
▁삽질	-9124
▁함수	-9125
생활	-9126
▁오공	-9127
▁련	-9128
▁자사	-9129
▁굶	-9130
▁곤충	-9131
▁스모	-9132
▁진동	-9133
▁좌익	-9134
inal	-9135
▁네크로	-9136
러브	-9137
▁BGA	-9138
▁물려받	-9139
▁아이디	-9140
▁공신	-9141
▁무지개	-9142
▁케리	-9143
▁집사	-9144
▁김일	-9145
▁소집	-9146
▁남학생	-9147
▁이어서	-9148
▁웨폰	-9149
▁평론가	-9150
아시아	-9151
▁드루이드	-9152
▁맷집	-9153
▁SA	-9154
▁연이	-9155
▁하이드	-9156
▁단련	-9157
▁이쿠	-9158
▁타리	-9159
▁고가	-9160
도전	-9161
▁돌려	-9162
▁ME	-9163
▁가이아	-9164
쿠스	-9165
▁유아	-9166
▁냉장	-9167
▁보르	-9168
▁스파크	-9169
▁검토	-9170
▁정우	-9171
▁중소	-9172
▁Gaming	-9173
▁사천	-9174
▁징계	-9175
▁키노	-9176
▁하도	-9177
▁CR	-9178
▁유머	-9179
▁320	-9180
▁1973	-9181
▁선회	-9182
▁리볼	-9183
▁달콤	-9184
▁포크	-9185
▁명시	-9186
▁놔	-9187
▁초과	-9188
▁아마존	-9189
▁아쉬움	-9190
▁장본	-9191
▁마마	-9192
ings	-9193
▁이용자	-9194
▁대면	-9195
▁GSL	-9196
▁모의	-9197
▁315	-9198
▁캡슐	-9199
▁성분	-9200
▁당초	-9201
▁숙련도	-9202
▁투고	-9203
▁컬렉션	-9204
▁Gl	-9205
▁장신구	-9206
DX	-9207
▁치고	-9208
▁식스	-9209
트론	-9210
▁아르바이트	-9211
TA	-9212
▁자력	-9213
▁무한도전	-9214
▁시련	-9215
▁중기	-9216
▁ㄴ가요	-9217
▁덥	-9218
▁부가	-9219
▁그루	-9220
▁협조	-9221
▁Gu	-9222
당기	-9223
▁위쪽	-9224
▁짬	-9225
▁라이드	-9226
▁중국인	-9227
▁중부	-9228
▁으려면	-9229
▁강아지	-9230
▁슬라이드	-9231
▁컨디션	-9232
reak	-9233
▁대법	-9234
▁민중	-9235
▁일명	-9236
▁유동	-9237
▁이명박	-9238
▁와타나베	-9239
▁가해	-9240
▁오로치	-9241
대사	-9242
▁진단	-9243
▁마찰	-9244
▁코끼리	-9245
▁인도네시아	-9246
히토	-9247
수리	-9248
▁궁수	-9249
ron	-9250
▁장본인	-9251
▁저항력	-9252
▁이호	-9253
▁잔류	-9254
▁미노	-9255
▁고발	-9256
▁마라	-9257
▁리리	-9258
▁ㄴ듯	-9259
▁소꿉	-9260
▁주저	-9261
▁공교	-9262
▁무늬	-9263
▁무자	-9264
▁주술사	-9265
▁so	-9266
▁캘리	-9267
▁유마	-9268
▁이니	-9269
▁금강	-9270
티니	-9271
▁급식	-9272
▁표식	-9273
▁나폴레	-9274
타운	-9275
▁앤드	-9276
▁뺨	-9277
▁재수	-9278
▁외야수	-9279
▁가령	-9280
▁급격히	-9281
▁like	-9282
▁밭	-9283
▁168	-9284
▁와이번스	-9285
▁학위	-9286
▁상시	-9287
▁벨기에	-9288
▁서바이벌	-9289
▁고인	-9290
▁도마	-9291
▁네이션	-9292
▁일리	-9293
중간	-9294
▁보로	-9295
▁판사	-9296
▁국도	-9297
▁주술	-9298
▁혼혈	-9299
▁수신	-9300
▁겸하	-9301
▁평택	-9302
▁낯	-9303
▁고이	-9304
▁찔리	-9305
▁방침	-9306
▁203	-9307
▁나폴레옹	-9308
▁will	-9309
▁이용객	-9310
▁내외	-9311
▁배리	-9312
▁휴대폰	-9313
닐라	-9314
▁공헌	-9315
▁유카리	-9316
▁크라운	-9317
14	-9318
▁NM	-9319
▁윤리	-9320
▁도미	-9321
▁부산광역시	-9322
사와	-9323
▁악행	-9324
▁라이징	-9325
▁ㄷ	-9326
▁성대	-9327
▁초청	-9328
▁개명	-9329
▁갈기	-9330
▁내각	-9331
▁보직	-9332
PA	-9333
▁쟁이	-9334
▁강동	-9335
▁승급	-9336
저래	-9337
▁몸매	-9338
▁흉악	-9339
▁조립	-9340
▁천지	-9341
성이	-9342
운수	-9343
▁218	-9344
17	-9345
▁김병	-9346
▁체코	-9347
▁이래저래	-9348
▁오페라	-9349
▁이즈미	-9350
▁헤라	-9351
▁Min	-9352
▁떨구	-9353
▁균열	-9354
▁원한	-9355
▁국토	-9356
▁쥬얼	-9357
▁수립	-9358
▁독보	-9359
▁자산	-9360
▁뚜렷	-9361
▁우기	-9362
▁시네마	-9363
마치	-9364
▁아테나	-9365
▁거세	-9366
▁고우	-9367
▁저격수	-9368
전사	-9369
▁단역	-9370
▁충청남도	-9371
▁단총	-9372
우라	-9373
▁런처	-9374
▁레이븐	-9375
▁위시	-9376
▁황혼	-9377
▁사슬	-9378
▁소우	-9379
▁베를린	-9380
▁휴게	-9381
▁볶	-9382
▁배율	-9383
▁어원	-9384
▁테크닉	-9385
GA	-9386
▁니트	-9387
▁탄압	-9388
▁서방	-9389
▁의정부	-9390
▁저승	-9391
▁one	-9392
▁부동산	-9393
▁떠돌	-9394
▁10000	-9395
▁차장	-9396
▁두려워하	-9397
르타	-9398
▁오사	-9399
▁대학생	-9400
주의자	-9401
▁필사	-9402
▁스치	-9403
▁버거	-9404
▁교역	-9405
▁설마	-9406
▁로크	-9407
ECT	-9408
▁적이	-9409
▁절단	-9410
▁빗나가	-9411
▁지지율	-9412
▁수중	-9413
▁수라	-9414
▁리믹스	-9415
▁국방부	-9416
▁충격파	-9417
▁단서	-9418
▁리츠	-9419
▁보가	-9420
▁면제	-9421
▁경사	-9422
▁Ro	-9423
▁리프트	-9424
▁이오리	-9425
▁탄막	-9426
▁iOS	-9427
▁트론	-9428
▁비자	-9429
▁난리	-9430
▁작위	-9431
▁지터	-9432
▁하츠네	-9433
▁스코틀랜드	-9434
▁김성근	-9435
▁다녀	-9436
▁RO	-9437
▁살아오	-9438
▁타키	-9439
▁마지	-9440
▁이리저리	-9441
▁대국	-9442
ICE	-9443
▁성지	-9444
▁인명	-9445
▁히사	-9446
▁견해	-9447
▁때로	-9448
▁플레임	-9449
▁na	-9450
▁걸음	-9451
▁자루	-9452
▁오역	-9453
▁원로	-9454
▁비단	-9455
▁시간표	-9456
oul	-9457
▁아수라	-9458
▁미남	-9459
▁왕족	-9460
▁더미	-9461
▁ALL	-9462
▁Play	-9463
▁엠블	-9464
▁정전	-9465
ould	-9466
▁습하	-9467
MAX	-9468
▁1974	-9469
보우	-9470
AND	-9471
▁흉내	-9472
▁팰	-9473
▁입원	-9474
▁버블	-9475
▁타우	-9476
▁칼라	-9477
▁평판	-9478
▁사물	-9479
▁성사	-9480
▁KB	-9481
▁Red	-9482
▁펑크	-9483
▁점하	-9484
▁득표율	-9485
▁Ser	-9486
▁말레이	-9487
▁극심	-9488
▁보편	-9489
▁계략	-9490
▁사이토	-9491
▁중화민국	-9492
▁해역	-9493
▁가해자	-9494
▁주황	-9495
▁완벽히	-9496
▁Type	-9497
▁요우	-9498
친구	-9499
저우	-9500
▁토비	-9501
▁지면	-9502
▁공격기	-9503
▁달인	-9504
▁격렬	-9505
ody	-9506
▁NT	-9507
▁간파	-9508
▁출석	-9509
▁캇	-9510
▁둥지	-9511
▁UC	-9512
▁전법	-9513
▁샘플	-9514
▁사우스	-9515
▁재배	-9516
▁희생자	-9517
과이	-9518
▁우두머리	-9519
▁어제	-9520
▁반장	-9521
▁177	-9522
▁se	-9523
▁연막	-9524
▁Don	-9525
▁액체	-9526
ions	-9527
▁발톱	-9528
▁탈환	-9529
▁계절	-9530
▁고난	-9531
▁다케	-9532
▁충고	-9533
▁헤드샷	-9534
▁순간이동	-9535
▁커플링	-9536
▁쑤	-9537
▁깃털	-9538
▁김윤	-9539
▁이듬	-9540
▁제의	-9541
▁주입	-9542
▁Car	-9543
▁해변	-9544
▁리볼버	-9545
▁감성	-9546
STER	-9547
▁강습	-9548
▁마르코	-9549
▁한양	-9550
▁플레이버	-9551
▁놔두	-9552
▁선로	-9553
▁갈구	-9554
▁섬기	-9555
▁진형	-9556
▁손잡이	-9557
▁의의	-9558
▁벚	-9559
▁맑	-9560
▁짝사랑	-9561
▁딥	-9562
▁랜서	-9563
▁홈경기	-9564
▁전라남도	-9565
▁태생	-9566
▁무비	-9567
▁방울	-9568
▁반도	-9569
▁스콜	-9570
▁138	-9571
▁us	-9572
▁과언	-9573
텍스	-9574
▁슬라임	-9575
▁중재	-9576
드로	-9577
▁1975	-9578
▁레슨	-9579
▁입자	-9580
▁코디	-9581
▁아이즈	-9582
▁안젤	-9583
▁이영호	-9584
▁금고	-9585
▁보루	-9586
▁두드러지	-9587
▁주교	-9588
▁서명	-9589
▁접수	-9590
▁사야카	-9591
▁병과	-9592
▁공명	-9593
▁맹독	-9594
▁크롬	-9595
▁측근	-9596
▁유지비	-9597
천군	-9598
▁동성애	-9599
▁차일드	-9600
▁Es	-9601
▁상의	-9602
16	-9603
ven	-9604
▁상어	-9605
▁중도	-9606
▁워드	-9607
▁너클	-9608
▁필립	-9609
alk	-9610
▁석유	-9611
▁자켓	-9612
▁리처드	-9613
▁메테	-9614
▁산탄총	-9615
레븐	-9616
▁아리스	-9617
▁두려움	-9618
▁부제	-9619
▁냉장고	-9620
▁찬양	-9621
▁시끄럽	-9622
▁완성도	-9623
▁데미	-9624
▁러너	-9625
▁팍	-9626
▁바이크	-9627
▁타스	-9628
라이언스	-9629
▁졸업식	-9630
▁생각나	-9631
▁테니스	-9632
▁프로스트	-9633
▁어드밴	-9634
▁이사장	-9635
▁월간	-9636
▁가히	-9637
▁백만	-9638
▁얼라이언스	-9639
▁Time	-9640
▁왓	-9641
▁원화	-9642
▁본질	-9643
▁삿	-9644
▁'''	-9645
▁교대	-9646
▁이념	-9647
af	-9648
야스	-9649
▁콘스탄	-9650
▁마스코트	-9651
▁레인보우	-9652
▁162	-9653
▁몰려오	-9654
▁고래	-9655
▁일각	-9656
▁EU	-9657
소총	-9658
▁우지	-9659
▁아울	-9660
▁have	-9661
▁126	-9662
▁긋	-9663
te	-9664
▁수감	-9665
스티스	-9666
▁분할	-9667
▁어기	-9668
▁찰스	-9669
▁끌어내	-9670
시다	-9671
▁트이	-9672
▁박명	-9673
▁아인	-9674
▁노라	-9675
▁조수	-9676
▁빙의	-9677
▁이듬해	-9678
▁엉뚱	-9679
맥스	-9680
▁스바	-9681
▁슬러그	-9682
▁테일즈	-9683
▁카오루	-9684
▁평등	-9685
▁ㄹ까요	-9686
▁키즈	-9687
▁Sum	-9688
▁WH	-9689
▁로제	-9690
▁보고서	-9691
공사	-9692
▁핑계	-9693
보기	-9694
▁스칼	-9695
▁김선	-9696
▁김두	-9697
빨리	-9698
▁권하	-9699
▁심정	-9700
ics	-9701
▁두껍	-9702
▁카렌	-9703
▁노부나가	-9704
▁지역구	-9705
▁신생	-9706
▁차림	-9707
▁폭로	-9708
▁스매시	-9709
르드	-9710
▁깨우	-9711
마르	-9712
▁자키	-9713
▁연소	-9714
▁제조사	-9715
▁대니	-9716
▁기관포	-9717
▁말기	-9718
▁응급	-9719
▁젝	-9720
▁누스	-9721
▁에드워드	-9722
▁텔레포트	-9723
▁왕가	-9724
▁클리셰	-9725
▁영화제	-9726
▁고립	-9727
랄드	-9728
▁주차장	-9729
▁초등학생	-9730
▁꼴찌	-9731
YP	-9732
▁조던	-9733
▁히카루	-9734
▁과격	-9735
▁고종	-9736
그라	-9737
▁동상	-9738
▁으리	-9739
▁손목	-9740
▁사회주의	-9741
▁무식	-9742
▁로비	-9743
▁코지	-9744
▁후반전	-9745
▁공짜	-9746
▁민병	-9747
▁솔직히	-9748
▁펙	-9749
▁나락	-9750
▁유라	-9751
▁회계	-9752
▁신상	-9753
재기	-9754
▁결과물	-9755
▁병행	-9756
시스코	-9757
▁맞먹	-9758
▁꾀	-9759
▁직위	-9760
▁카토	-9761
▁팩션	-9762
▁~"	-9763
▁득표수	-9764
ACK	-9765
▁know	-9766
미터	-9767
▁주유	-9768
▁BT	-9769
▁팜	-9770
▁멘붕	-9771
▁쫓기	-9772
▁out	-9773
▁애드	-9774
▁oh	-9775
▁포도	-9776
▁카인	-9777
▁다지만	-9778
은이	-9779
▁IIDX	-9780
보라	-9781
▁BA	-9782
▁CB	-9783
▁종로	-9784
▁김구	-9785
▁제너	-9786
▁콰	-9787
▁팬티	-9788
▁갈라지	-9789
▁브레스	-9790
▁분배	-9791
▁피드	-9792
▁방벽	-9793
▁정의당	-9794
▁보복	-9795
▁조항	-9796
▁연세대	-9797
▁제자리	-9798
▁슬슬	-9799
▁투사	-9800
▁갸	-9801
▁거꾸	-9802
▁재질	-9803
▁쳐다보	-9804
▁야망	-9805
페이스	-9806
▁난투	-9807
▁숙청	-9808
▁1976	-9809
처럼	-9810
▁군데	-9811
고사	-9812
tern	-9813
▁감기	-9814
▁후면	-9815
▁레귤	-9816
ins	-9817
▁Kore	-9818
▁극악	-9819
셉트	-9820
ict	-9821
시티	-9822
▁ㄴ단	-9823
▁지배자	-9824
▁볼드	-9825
▁이세	-9826
▁313	-9827
▁EV	-9828
▁pr	-9829
▁소꿉친구	-9830
▁리셋	-9831
▁신조	-9832
▁두루	-9833
▁발전소	-9834
긋나	-9835
▁몰아넣	-9836
▁내뱉	-9837
▁132	-9838
▁한정판	-9839
▁내면	-9840
▁상부	-9841
▁난민	-9842
▁LTE	-9843
▁페이크	-9844
▁결의	-9845
▁럭키	-9846
▁!!!	-9847
ange	-9848
▁해고	-9849
▁테이프	-9850
▁찰나	-9851
▁자포	-9852
▁미트	-9853
▁약칭	-9854
ater	-9855
▁제주도	-9856
전설	-9857
▁세츠	-9858
▁표기법	-9859
▁빈약	-9860
▁로그인	-9861
▁테르	-9862
▁Sun	-9863
▁DI	-9864
▁다저스	-9865
▁1972	-9866
▁개판	-9867
▁중후	-9868
▁채찍	-9869
▁바나나	-9870
▁카테고리	-9871
▁근로	-9872
▁페미니즘	-9873
▁수확	-9874
▁set	-9875
▁유비트	-9876
▁겨루	-9877
▁노하	-9878
▁해전	-9879
퍼니	-9880
▁캔디	-9881
▁일산	-9882
▁트랜스포	-9883
▁병종	-9884
레이크	-9885
▁연간	-9886
▁반기	-9887
▁지미	-9888
▁재벌	-9889
▁바이킹	-9890
▁수영복	-9891
▁표하	-9892
▁츤데레	-9893
▁선봉	-9894
무이	-9895
▁종전	-9896
▁접전	-9897
▁158	-9898
▁강탈	-9899
▁하지메	-9900
▁환호	-9901
▁여주인공	-9902
▁산소	-9903
▁로렌	-9904
▁메디	-9905
상가	-9906
▁feat	-9907
▁IP	-9908
▁메세지	-9909
▁자카	-9910
▁구독자	-9911
▁탁월	-9912
▁퉁	-9913
▁오딘	-9914
▁구청	-9915
19	-9916
▁GD	-9917
▁제인	-9918
▁정준	-9919
▁ㅇ	-9920
▁도사	-9921
돌프	-9922
▁사각	-9923
▁그랑프리	-9924
▁TP	-9925
▁콧	-9926
▁MO	-9927
▁자작	-9928
▁가설	-9929
▁일조	-9930
▁1977	-9931
▁힌트	-9932
▁진짜로	-9933
▁프롤로그	-9934
고속도로	-9935
▁초점	-9936
▁카이사	-9937
▁대등	-9938
▁스케줄	-9939
▁릴리스	-9940
▁교훈	-9941
▁IV	-9942
▁쿠바	-9943
▁230	-9944
▁서치	-9945
▁내정	-9946
▁응답	-9947
▁레귤러	-9948
▁미도리	-9949
▁구호	-9950
▁수여	-9951
▁르노	-9952
▁신념	-9953
▁폐선	-9954
▁야마모토	-9955
▁관료	-9956
▁진로	-9957
▁거꾸로	-9958
▁유능	-9959
▁프랭크	-9960
▁키드	-9961
▁무궁	-9962
▁High	-9963
▁댐	-9964
▁마가	-9965
▁이점	-9966
▁인트	-9967
활약	-9968
▁라시	-9969
▁뚝	-9970
▁충남	-9971
▁깡패	-9972
▁임진	-9973
▁니코니코	-9974
▁실바	-9975
▁중급	-9976
사스	-9977
▁172	-9978
▁앨런	-9979
▁랏	-9980
▁HS	-9981
▁프로그래	-9982
▁필두	-9983
▁무신	-9984
▁Light	-9985
▁껍질	-9986
▁감금	-9987
▁소비자	-9988
▁줄기	-9989
▁스바루	-9990
▁대명	-9991
▁때려잡	-9992
▁밀어붙이	-9993
▁테레	-9994
▁쥰	-9995
▁개막전	-9996
▁다녀오	-9997
▁리뉴	-9998
▁TE	-9999
천사	-10000
▁바인	-10001
▁치바	-10002
▁헐크	-10003
▁태미	-10004
▁베어	-10005
▁트러	-10006
▁꿇	-10007
che	-10008
ME	-10009
▁스나	-10010
▁피난	-10011
▁망설이	-10012
▁컴퍼니	-10013
▁양심	-10014
민주당	-10015
▁이만	-10016
▁133	-10017
▁순천	-10018
▁혹평	-10019
▁박쥐	-10020
▁정조	-10021
▁덴마크	-10022
▁섭취	-10023
지사	-10024
▁플리	-10025
▁애쉬	-10026
▁LOVE	-10027
▁주식회사	-10028
키스	-10029
▁보트	-10030
▁이순신	-10031
▁공국	-10032
차리	-10033
▁재림	-10034
▁켄지	-10035
▁배후	-10036
▁아폴	-10037
▁강서	-10038
▁무색	-10039
▁인텔	-10040
▁캐슬	-10041
▁도스	-10042
▁객관	-10043
▁렀	-10044
▁랜스	-10045
▁팀장	-10046
▁파괴력	-10047
▁차분	-10048
▁Your	-10049
▁기술력	-10050
▁진구	-10051
▁냉기	-10052
▁망상	-10053
▁최하	-10054
▁순찰	-10055
▁얼터	-10056
▁신학	-10057
▁득실	-10058
▁아비	-10059
제스	-10060
▁존슨	-10061
▁Tw	-10062
▁호응	-10063
▁la	-10064
덕션	-10065
▁연달	-10066
▁과감	-10067
▁지붕	-10068
▁미끼	-10069
▁지성	-10070
▁148	-10071
▁급속	-10072
▁수성	-10073
▁사내	-10074
▁여장	-10075
▁통보	-10076
▁박종	-10077
▁최정	-10078
▁윈터	-10079
▁NEW	-10080
▁히나타	-10081
▁고질	-10082
▁따내	-10083
▁출제	-10084
메라	-10085
▁황태	-10086
▁179	-10087
▁제작비	-10088
▁저스티스	-10089
▁Mr	-10090
▁일컫	-10091
▁펭귄	-10092
▁매지	-10093
▁앵커	-10094
▁스톡	-10095
▁복도	-10096
▁메구미	-10097
▁케리건	-10098
▁어벤져스	-10099
▁능숙	-10100
▁OF	-10101
▁찌질	-10102
▁노르웨이	-10103
▁망명	-10104
박이	-10105
▁샤오	-10106
▁조력	-10107
▁소노	-10108
ica	-10109
산역	-10110
▁두근	-10111
▁레슬러	-10112
▁세례	-10113
▁격퇴	-10114
▁파랑	-10115
▁오른팔	-10116
▁미숙	-10117
▁제지	-10118
▁모스크바	-10119
▁성벽	-10120
▁장갑차	-10121
세서리	-10122
▁라이센스	-10123
▁Gen	-10124
▁트랜스포머	-10125
▁GTA	-10126
▁립스	-10127
▁반론	-10128
▁로맨스	-10129
▁쳐들어오	-10130
▁심히	-10131
▁포니	-10132
▁리터	-10133
사고	-10134
▁교시	-10135
▁스팅	-10136
▁Mi	-10137
▁후쿠오카	-10138
▁게르	-10139
▁드로	-10140
▁제대	-10141
IK	-10142
다드	-10143
▁사지	-10144
▁156	-10145
▁철갑탄	-10146
교통	-10147
▁잠그	-10148
▁풍경	-10149
▁섹시	-10150
▁사나이	-10151
▁Em	-10152
▁노골	-10153
▁두뇌	-10154
▁am	-10155
▁염두	-10156
▁유타	-10157
▁지요	-10158
▁154	-10159
날두	-10160
▁뒤쪽	-10161
▁종말	-10162
▁ar	-10163
▁파우	-10164
리칸	-10165
▁꼼수	-10166
▁미모	-10167
▁탐구	-10168
▁호날두	-10169
▁청하	-10170
▁시조	-10171
▁사소	-10172
▁혼인	-10173
▁쫓아내	-10174
생기	-10175
▁표창	-10176
ors	-10177
▁비참	-10178
▁Par	-10179
▁교육청	-10180
▁슈가	-10181
▁밧	-10182
▁159	-10183
▁진술	-10184
FL	-10185
▁치마	-10186
▁호무	-10187
▁노래방	-10188
▁레슬링	-10189
▁능하	-10190
▁라구	-10191
▁앞세우	-10192
▁바닷	-10193
▁꾸리	-10194
▁맹활약	-10195
▁진흥	-10196
▁초코	-10197
▁음향	-10198
▁명대사	-10199
▁호구	-10200
▁미세	-10201
▁여수	-10202
▁176	-10203
▁안동	-10204
▁사가	-10205
▁죄수	-10206
▁재즈	-10207
▁222	-10208
▁알아차리	-10209
▁배신자	-10210
HT	-10211
▁사일	-10212
▁냉동	-10213
▁응시	-10214
▁MK	-10215
▁착지	-10216
▁분쇄	-10217
▁오쿠	-10218
▁전반기	-10219
▁비꼬	-10220
▁공립	-10221
▁미호	-10222
▁HARD	-10223
▁블랙홀	-10224
▁발탁	-10225
▁1971	-10226
▁기행	-10227
▁전학	-10228
▁생태	-10229
▁u	-10230
▁발발	-10231
▁달래	-10232
▁믿음	-10233
▁성폭	-10234
▁코프	-10235
물리	-10236
▁엄폐	-10237
▁테오	-10238
▁범하	-10239
▁129	-10240
▁에그	-10241
▁른	-10242
▁레오나	-10243
▁통틀어	-10244
▁대목	-10245
▁폐허	-10246
▁사르	-10247
▁남양	-10248
▁173	-10249
▁가라앉	-10250
▁현직	-10251
▁핀란드	-10252
클린	-10253
▁OCG	-10254
▁리우스	-10255
▁불리우	-10256
▁전임	-10257
▁수하	-10258
▁FPS	-10259
▁사천왕	-10260
▁계곡	-10261
바스	-10262
티지	-10263
▁굳히	-10264
퀘어	-10265
▁AE	-10266
▁무너	-10267
▁오리온	-10268
▁무너뜨리	-10269
▁책상	-10270
▁153	-10271
▁굴러	-10272
어붙	-10273
▁PL	-10274
▁천문	-10275
▁명탐정	-10276
▁의아	-10277
▁was	-10278
▁화석	-10279
▁ll	-10280
CH	-10281
▁세키	-10282
▁아니하	-10283
▁텍사스	-10284
▁캘리포	-10285
▁전도	-10286
▁나란히	-10287
▁남한	-10288
▁안드레	-10289
▁드리블	-10290
▁프로덕션	-10291
▁선포	-10292
멘터리	-10293
▁파이프	-10294
▁고음	-10295
▁신주	-10296
▁꽁	-10297
pr	-10298
▁질풍	-10299
▁시뮬레이션	-10300
▁샹	-10301
UT	-10302
▁토막	-10303
▁137	-10304
▁나카무라	-10305
▁물어보	-10306
▁에메랄드	-10307
▁가마	-10308
▁테러리	-10309
▁Kn	-10310
▁풀려나	-10311
eep	-10312
▁맞대	-10313
▁우산	-10314
▁스탈린	-10315
▁Of	-10316
▁죠죠	-10317
▁마신	-10318
▁무단	-10319
▁캘리포니아	-10320
▁지각	-10321
▁호스	-10322
▁혼다	-10323
▁러닝	-10324
▁인플	-10325
슬링	-10326
▁에필	-10327
▁잔해	-10328
▁에필로그	-10329
▁이광	-10330
▁세일러	-10331
▁절정	-10332
▁래스터	-10333
▁오락실	-10334
▁문화재	-10335
▁대안	-10336
▁로스터	-10337
▁~~	-10338
▁토가	-10339
하여	-10340
▁저거	-10341
▁What	-10342
▁영등	-10343
les	-10344
타니	-10345
▁책략	-10346
▁애쓰	-10347
▁목포	-10348
▁두목	-10349
▁라던가	-10350
▁교정	-10351
▁이행	-10352
▁GHz	-10353
▁발렌타인	-10354
▁청룡	-10355
▁예방	-10356
▁멋있	-10357
▁배리어	-10358
▁로테이션	-10359
▁스텔라	-10360
▁불문	-10361
▁아랑	-10362
▁골치	-10363
지않	-10364
▁말소	-10365
▁요코하마	-10366
▁먼지	-10367
▁십자군	-10368
▁로열	-10369
▁투성이	-10370
▁장시	-10371
▁280	-10372
▁1969	-10373
▁빅토리아	-10374
▁신세계	-10375
▁벨라	-10376
▁델타	-10377
▁총사	-10378
▁유니콘	-10379
▁숭배	-10380
▁BM	-10381
▁얼어붙	-10382
▁슬램	-10383
▁기쁨	-10384
▁야당	-10385
▁다큐멘터리	-10386
아슬	-10387
▁174	-10388
▁아슬아슬	-10389
▁서울시	-10390
▁총선거	-10391
▁레바	-10392
▁225	-10393
▁가로막	-10394
▁골목	-10395
▁면접	-10396
▁엣지	-10397
▁격하	-10398
▁대교	-10399
▁139	-10400
▁Per	-10401
▁중공	-10402
▁163	-10403
더기	-10404
▁134	-10405
▁땀	-10406
▁원망	-10407
▁주파	-10408
▁따라잡	-10409
▁카즈야	-10410
▁네스	-10411
플러스	-10412
▁깽	-10413
▁하의	-10414
▁월요일	-10415
▁167	-10416
▁보디	-10417
▁처녀	-10418
▁심연	-10419
▁열기	-10420
▁미식	-10421
▁버터	-10422
▁오바	-10423
▁143	-10424
▁단의	-10425
▁짤리	-10426
▁Fe	-10427
▁악곡	-10428
▁TO	-10429
▁나사	-10430
▁GPU	-10431
▁분포	-10432
▁Heart	-10433
▁건너가	-10434
▁이준	-10435
▁필라	-10436
볼루션	-10437
▁오타쿠	-10438
▁블라디	-10439
반신	-10440
▁스파이크	-10441
▁해상도	-10442
▁쓸데없이	-10443
▁끝장	-10444
▁스페인어	-10445
총장	-10446
▁최대치	-10447
▁루루	-10448
컨드	-10449
▁누이	-10450
▁Good	-10451
▁부처	-10452
▁로지	-10453
▁그제	-10454
▁세컨드	-10455
▁상장	-10456
▁퍼붓	-10457
▁yout	-10458
▁전광	-10459
▁함성	-10460
▁142	-10461
▁CO	-10462
▁인구수	-10463
▁청사	-10464
▁화약	-10465
▁퍼시	-10466
▁연기력	-10467
▁용의자	-10468
▁2500	-10469
agon	-10470
▁김도	-10471
▁모기	-10472
▁왕관	-10473
▁맞물리	-10474
▁태권	-10475
▁반란군	-10476
▁관광객	-10477
▁전수	-10478
▁패닉	-10479
ert	-10480
▁스윕	-10481
▁164	-10482
공화	-10483
▁항공사	-10484
▁선수단	-10485
▁히카리	-10486
▁인사이드	-10487
▁CN	-10488
▁스토커	-10489
▁트레이닝	-10490
▁무안	-10491
▁비로	-10492
▁유나	-10493
▁beat	-10494
부인	-10495
▁ㅡ	-10496
▁라든가	-10497
▁기소	-10498
▁드레드	-10499
▁미유키	-10500
▁불쾌	-10501
▁추모	-10502
▁구제	-10503
▁하후	-10504
▁pro	-10505
▁스트로	-10506
▁퓨처	-10507
▁끓이	-10508
▁실로	-10509
EL	-10510
▁해태	-10511
▁야마다	-10512
▁하우	-10513
▁진하	-10514
에몽	-10515
▁발하	-10516
▁거르	-10517
▁틀어	-10518
▁국기	-10519
▁심야	-10520
▁기이	-10521
▁라임	-10522
▁마의	-10523
▁제단	-10524
▁극우	-10525
▁ONE	-10526
▁왕후	-10527
▁음색	-10528
▁쫓아가	-10529
▁선인	-10530
▁청장	-10531
려보	-10532
▁이인	-10533
▁직격	-10534
▁페르시아	-10535
▁달라	-10536
▁뉴질	-10537
▁뉴질랜드	-10538
▁악령	-10539
▁어긋나	-10540
▁야전	-10541
▁패스트	-10542
▁동아시아	-10543
▁우투	-10544
▁홍성	-10545
▁동이	-10546
▁직통	-10547
▁136	-10548
▁뱉	-10549
▁공고	-10550
▁김연	-10551
▁김천	-10552
▁관계없이	-10553
▁지극	-10554
좀무	-10555
▁흠좀무	-10556
▁쓰러트리	-10557
▁벚꽃	-10558
▁킹덤	-10559
▁콘셉트	-10560
▁회로	-10561
▁징크스	-10562
▁참으로	-10563
▁로브	-10564
▁리부트	-10565
▁제이슨	-10566
▁Dark	-10567
}}	-10568
▁안철수	-10569
▁time	-10570
▁KC	-10571
▁템포	-10572
▁방안	-10573
▁적립	-10574
▁깃들	-10575
▁서장	-10576
디스	-10577
▁개그맨	-10578
▁아이스크림	-10579
▁더구나	-10580
▁랙	-10581
▁바닐라	-10582
▁궁전	-10583
▁일환	-10584
프란	-10585
백과	-10586
▁알렉산더	-10587
▁오프라인	-10588
▁핸드폰	-10589
립트	-10590
▁사범	-10591
▁타고	-10592
무실	-10593
▁동사	-10594
▁조준경	-10595
▁경찰청	-10596
▁유고	-10597
▁한층	-10598
▁경지	-10599
▁완구	-10600
▁번갈	-10601
▁유해	-10602
▁자부	-10603
▁어린아이	-10604
▁샤를	-10605
▁텀	-10606
▁훈훈	-10607
무게	-10608
레이트	-10609
▁몸무게	-10610
▁유선	-10611
▁157	-10612
▁1963	-10613
▁숙주	-10614
▁미라이	-10615
▁중심지	-10616
▁체격	-10617
▁죄송	-10618
▁져	-10619
▁술집	-10620
▁메이트	-10621
▁330	-10622
▁0900	-10623
▁내뿜	-10624
▁중년	-10625
other	-10626
▁모던	-10627
▁세미	-10628
▁카니	-10629
풀이	-10630
▁모양새	-10631
▁연의	-10632
▁혼동	-10633
▁화소	-10634
iew	-10635
▁열세	-10636
▁ab	-10637
▁출고	-10638
▁문신	-10639
ideo	-10640
▁Sm	-10641
▁근력	-10642
land	-10643
▁좌파	-10644
▁뮤지션	-10645
▁정서	-10646
▁순정	-10647
▁방호	-10648
▁외면	-10649
▁앞뒤	-10650
▁배우자	-10651
티넘	-10652
▁양대	-10653
▁전반전	-10654
▁플래티넘	-10655
▁브루스	-10656
▁눈빛	-10657
▁라바	-10658
▁갈리아	-10659
▁사투리	-10660
▁호박	-10661
▁레프	-10662
▁휴스턴	-10663
▁안토니	-10664
애나	-10665
▁하카	-10666
▁브이	-10667
air	-10668
▁창립	-10669
▁패드	-10670
지오	-10671
▁Sl	-10672
▁타다	-10673
▁줄리	-10674
▁연금술사	-10675
▁제사	-10676
▁주한	-10677
▁에일리	-10678
▁대중교통	-10679
▁우천	-10680
▁제우스	-10681
▁1968	-10682
▁270	-10683
▁침해	-10684
▁저조	-10685
▁설탕	-10686
▁성숙	-10687
▁시흥	-10688
▁장례식	-10689
▁출연진	-10690
▁제프	-10691
▁본의	-10692
▁플라스틱	-10693
▁농민	-10694
▁집필	-10695
▁꿰뚫	-10696
▁투신	-10697
▁Blue	-10698
▁냅	-10699
▁타당	-10700
▁Baby	-10701
▁오키나	-10702
ator	-10703
▁AG	-10704
▁나뭇	-10705
▁저러	-10706
▁해독	-10707
▁ㄹ려고	-10708
▁박상	-10709
▁미니언	-10710
▁외관	-10711
▁코즈	-10712
▁이아	-10713
▁도시락	-10714
▁클라우드	-10715
▁......	-10716
oot	-10717
▁워너	-10718
▁스케이	-10719
▁신수	-10720
▁전열	-10721
▁환사	-10722
anna	-10723
▁테러리스트	-10724
▁Ac	-10725
▁대진	-10726
▁유코	-10727
▁장풍	-10728
▁헤일	-10729
▁샤워	-10730
▁초교	-10731
▁기피	-10732
▁깨알	-10733
▁김대중	-10734
▁선교	-10735
▁저희	-10736
▁체스	-10737
▁하이브리	-10738
▁동호	-10739
▁벌금	-10740
▁수시로	-10741
▁하이브리드	-10742
▁테루	-10743
▁세스	-10744
▁전라북도	-10745
▁무수	-10746
▁부사관	-10747
▁방언	-10748
▁청나라	-10749
▁미티	-10750
▁베일	-10751
▁우상	-10752
▁자칫	-10753
ush	-10754
▁집합	-10755
▁히로시마	-10756
▁모어	-10757
▁브레인	-10758
▁취지	-10759
▁담임	-10760
▁149	-10761
▁오비	-10762
▁심상	-10763
▁방공	-10764
▁몰아붙이	-10765
▁하비	-10766
▁강세	-10767
▁브론즈	-10768
▁악하	-10769
▁센트럴	-10770
▁각국	-10771
▁사탄	-10772
▁적성	-10773
▁넉넉	-10774
▁되살리	-10775
▁희대	-10776
▁총독	-10777
▁146	-10778
▁상쇄	-10779
▁후루	-10780
▁푹	-10781
▁허브	-10782
▁경제학	-10783
▁트러블	-10784
▁황실	-10785
▁가혹	-10786
▁모함	-10787
▁확고	-10788
▁야만	-10789
▁Li	-10790
▁OK	-10791
▁공모	-10792
▁조교	-10793
▁멜론	-10794
▁쳐내	-10795
▁마켓	-10796
▁Fire	-10797
르도	-10798
카미	-10799
▁지난	-10800
▁마초	-10801
▁지문	-10802
na	-10803
▁기함	-10804
▁남미	-10805
토리얼	-10806
▁격전	-10807
▁하여금	-10808
▁연회	-10809
▁브레이브	-10810
▁거품	-10811
▁암컷	-10812
▁후쿠시마	-10813
▁ㄹ라	-10814
▁튜토리얼	-10815
▁상공	-10816
▁기하	-10817
▁줌	-10818
▁찰리	-10819
▁260	-10820
▁낡	-10821
▁공영	-10822
▁일삼	-10823
▁오리진	-10824
▁주의자	-10825
▁심화	-10826
▁종착	-10827
▁털어놓	-10828
▁프로토타입	-10829
▁리액	-10830
▁장동	-10831
▁유니온	-10832
▁El	-10833
▁sm	-10834
▁섹스	-10835
▁페이커	-10836
▁방화	-10837
▁마테	-10838
▁크롤	-10839
▁소사	-10840
▁월등	-10841
▁프렌즈	-10842
▁루키	-10843
▁빈틈	-10844
▁럴	-10845
▁라나	-10846
▁라프	-10847
▁소리치	-10848
▁경과	-10849
▁말년	-10850
단지	-10851
▁병장	-10852
▁웨인	-10853
▁아르카	-10854
▁Dis	-10855
OID	-10856
▁랩터	-10857
글라스	-10858
▁쎄	-10859
▁초상화	-10860
▁레이너	-10861
▁맥락	-10862
▁슈터	-10863
▁인체	-10864
전트	-10865
ady	-10866
▁공손	-10867
▁밀어주	-10868
▁실력자	-10869
▁일레븐	-10870
▁ㅏ야	-10871
넘기	-10872
더슨	-10873
▁다기	-10874
▁일품	-10875
▁클러	-10876
▁주가	-10877
▁BEMAN	-10878
▁kr	-10879
▁원자력	-10880
▁고추	-10881
▁브랜	-10882
▁오세	-10883
▁미스터리	-10884
▁개미	-10885
▁합법	-10886
▁타카시	-10887
▁오의	-10888
▁석상	-10889
▁중학생	-10890
▁고성	-10891
▁파격	-10892
▁므	-10893
▁신병	-10894
▁핸들	-10895
▁포워드	-10896
▁하라	-10897
두사	-10898
▁운반	-10899
▁적재	-10900
▁프로모	-10901
▁별칭	-10902
베트	-10903
▁격기	-10904
▁속력	-10905
▁편견	-10906
▁보구	-10907
▁ㅓㅆ었	-10908
▁수량	-10909
▁자질	-10910
▁DJMAX	-10911
▁미즈키	-10912
▁BEMANI	-10913
▁문법	-10914
▁무선	-10915
▁생선	-10916
▁부친	-10917
티노	-10918
▁미로	-10919
▁파손	-10920
▁도검	-10921
토랑	-10922
▁뒷면	-10923
▁레스토랑	-10924
▁fl	-10925
▁빈번	-10926
▁Champ	-10927
▁더라면	-10928
메어	-10929
▁속공	-10930
▁말아먹	-10931
▁불화	-10932
▁가성	-10933
▁연말	-10934
▁우편	-10935
나리	-10936
▁리바운드	-10937
▁성기	-10938
▁다이노스	-10939
ution	-10940
▁프랜차	-10941
▁아까	-10942
▁통행	-10943
▁STR	-10944
▁cc	-10945
▁호출	-10946
▁본가	-10947
앙스	-10948
▁주고	-10949
▁명명	-10950
▁하반기	-10951
▁발차기	-10952
▁유유	-10953
▁수령	-10954
레드	-10955
▁스트리밍	-10956
▁쐐	-10957
▁격리	-10958
레슬링	-10959
▁가브리	-10960
▁피카츄	-10961
▁유승	-10962
▁소령	-10963
▁박명수	-10964
▁데스티니	-10965
스틴	-10966
▁Pre	-10967
▁매기	-10968
▁북구	-10969
사벽	-10970
▁넘사벽	-10971
▁재빨리	-10972
▁Ev	-10973
▁프랜차이즈	-10974
▁프로레슬링	-10975
▁205	-10976
▁뚜껑	-10977
▁수컷	-10978
▁맴	-10979
▁1967	-10980
저드	-10981
더링	-10982
구역	-10983
▁솜씨	-10984
▁나이트메어	-10985
▁자각	-10986
▁평창	-10987
▁퇴역	-10988
▁당국	-10989
▁뉘앙스	-10990
엘라	-10991
▁추출	-10992
▁DB	-10993
▁정형	-10994
▁대승	-10995
▁독립운동	-10996
▁앤디	-10997
▁선곡	-10998
와라	-10999
▁증인	-11000
▁앞면	-11001
▁니나	-11002
▁프리즘	-11003
▁경질	-11004
▁박용	-11005
▁신임	-11006
▁이방	-11007
▁잊어버리	-11008
▁정체불명	-11009
▁일례	-11010
▁전염	-11011
▁하와	-11012
▁뽐	-11013
래스	-11014
▁원흉	-11015
▁탯이	-11016
▁클립	-11017
석민	-11018
▁무죄	-11019
치아	-11020
▁단식	-11021
▁간호사	-11022
ium	-11023
▁550	-11024
▁우파	-11025
▁RP	-11026
▁애국	-11027
▁GG	-11028
▁정재	-11029
▁네코	-11030
▁아메리칸	-11031
▁부관	-11032
▁타나카	-11033
▁교통사고	-11034
▁운석	-11035
▁질환	-11036
▁Summer	-11037
듈럼	-11038
▁동로	-11039
▁우가	-11040
▁가의	-11041
▁147	-11042
▁광전사	-11043
▁나열	-11044
▁강점기	-11045
▁오시	-11046
▁디비전	-11047
▁석사	-11048
▁나레이션	-11049
▁개개	-11050
▁츠바사	-11051
▁여관	-11052
리드	-11053
▁메우	-11054
▁수수료	-11055
미르	-11056
▁몹시	-11057
▁수다	-11058
▁드릴	-11059
▁Grand	-11060
▁블래	-11061
▁Rock	-11062
▁노블	-11063
▁범행	-11064
▁호그	-11065
▁조그	-11066
▁미들	-11067
▁퓨리	-11068
▁콕	-11069
▁원작자	-11070
▁back	-11071
▁넥서스	-11072
▁게임즈	-11073
▁미팅	-11074
▁우체	-11075
▁푼	-11076
▁서두르	-11077
▁무고	-11078
▁추궁	-11079
▁펜듈럼	-11080
▁플레어	-11081
▁하드웨어	-11082
▁뭔	-11083
▁동년	-11084
▁저것	-11085
▁타고나	-11086
▁무명	-11087
▁토마토	-11088
▁입국	-11089
통수	-11090
▁SCP	-11091
▁211	-11092
퍼드	-11093
▁쫓아오	-11094
gain	-11095
▁동등	-11096
▁멀리서	-11097
모어	-11098
▁내셔널	-11099
▁페인	-11100
▁브라우	-11101
▁버릇	-11102
▁탄탄	-11103
▁유신	-11104
▁전두	-11105
▁now	-11106
▁줄어드	-11107
▁총평	-11108
현우	-11109
▁특이점	-11110
▁폴리스	-11111
▁하시	-11112
▁통수	-11113
▁배속	-11114
▁복면	-11115
▁떄	-11116
▁원종	-11117
▁유무	-11118
▁Over	-11119
▁공습	-11120
▁만루	-11121
▁전례	-11122
▁체형	-11123
▁This	-11124
▁대외	-11125
▁메모	-11126
▁day	-11127
▁아이폰	-11128
▁권능	-11129
▁군림	-11130
▁사슴	-11131
▁인어	-11132
▁싣	-11133
▁재활	-11134
▁영등포	-11135
▁감전	-11136
▁퓨어	-11137
▁환수	-11138
▁게시물	-11139
▁은메달	-11140
▁강팀	-11141
고래	-11142
▁심문	-11143
노스케	-11144
ction	-11145
▁텅	-11146
▁더하	-11147
▁십자가	-11148
▁대패	-11149
▁호노	-11150
▁사교	-11151
▁에바	-11152
▁그리드	-11153
▁무슬	-11154
▁포식	-11155
▁아래쪽	-11156
▁힐링	-11157
▁LED	-11158
▁Dance	-11159
▁말레이시아	-11160
▁But	-11161
평가	-11162
▁실루	-11163
▁속박	-11164
▁온몸	-11165
▁제보	-11166
▁살인마	-11167
▁레이첼	-11168
▁리키	-11169
▁에도	-11170
▁한강	-11171
▁방과	-11172
▁광속	-11173
▁알렉산드	-11174
▁루팡	-11175
▁관절	-11176
▁파문	-11177
▁함재기	-11178
▁DR	-11179
▁별자리	-11180
▁동북	-11181
▁배송	-11182
▁염색	-11183
▁무제한	-11184
▁대군	-11185
▁홀딩	-11186
▁옌	-11187
ne	-11188
결승	-11189
▁점사	-11190
irst	-11191
▁셰프	-11192
▁노비	-11193
▁미스트	-11194
▁진도	-11195
▁거니	-11196
▁밀치	-11197
▁내구력	-11198
▁VOC	-11199
▁길거리	-11200
▁호투	-11201
▁픽셀	-11202
▁교내	-11203
▁이창	-11204
파리	-11205
▁격침	-11206
▁박탈	-11207
▁SL	-11208
▁화내	-11209
▁직속	-11210
▁노트북	-11211
▁우물	-11212
▁어느새	-11213
▁새우	-11214
▁통증	-11215
트랙	-11216
▁Wii	-11217
▁불평	-11218
▁경순	-11219
▁채취	-11220
▁라파	-11221
▁오디오	-11222
▁MSL	-11223
▁속편	-11224
▁요리사	-11225
▁공천	-11226
▁발현	-11227
▁미수	-11228
▁발라드	-11229
▁박찬	-11230
▁박재	-11231
▁가창	-11232
ount	-11233
▁무슬림	-11234
▁Ste	-11235
▁쫄	-11236
▁여배우	-11237
▁목재	-11238
기사	-11239
츠카	-11240
▁카우	-11241
▁Gold	-11242
▁보행	-11243
▁리엘	-11244
▁박영	-11245
▁기괴	-11246
▁클레이	-11247
▁자격증	-11248
▁ㄹ지라도	-11249
▁라드	-11250
▁성직자	-11251
▁네놈	-11252
▁시초	-11253
▁해적단	-11254
▁성비	-11255
박히	-11256
▁3164	-11257
▁머릿	-11258
▁HG	-11259
▁캐스트	-11260
느님	-11261
▁포효	-11262
▁격투기	-11263
콥터	-11264
▁하행	-11265
▁교양	-11266
▁상행	-11267
▁무사시	-11268
현진	-11269
▁Just	-11270
▁DX	-11271
▁닉스	-11272
▁왕좌	-11273
▁누명	-11274
▁스퀘어	-11275
▁구타	-11276
▁동문	-11277
▁셋째	-11278
▁안드로	-11279
▁자니	-11280
▁증가량	-11281
▁지지자	-11282
▁남발	-11283
▁줄줄	-11284
▁스네이크	-11285
▁동메달	-11286
▁타치바나	-11287
▁단말	-11288
▁성수	-11289
▁하느님	-11290
자동	-11291
let	-11292
▁첫날	-11293
▁1966	-11294
▁HK	-11295
ring	-11296
▁농락	-11297
▁뒤통수	-11298
줌마	-11299
▁동조	-11300
▁국민당	-11301
▁대공포	-11302
▁지온	-11303
▁일일이	-11304
▁news	-11305
▁빌보드	-11306
▁FL	-11307
▁달라붙	-11308
▁좁히	-11309
▁어설프	-11310
▁미사키	-11311
▁둥글	-11312
▁여친	-11313
▁증발	-11314
▁기획사	-11315
▁방송인	-11316
▁삼촌	-11317
저것	-11318
▁창세	-11319
▁204	-11320
▁이것저것	-11321
▁아줌마	-11322
▁수강	-11323
▁륙	-11324
▁돌아보	-11325
▁찢어지	-11326
▁멸종	-11327
▁손톱	-11328
플렉스	-11329
▁명나라	-11330
▁별점	-11331
eng	-11332
▁DNA	-11333
▁물가	-11334
▁번식	-11335
▁제스	-11336
▁대쉬	-11337
어쓰	-11338
▁쇼트	-11339
▁리턴	-11340
무네	-11341
DS	-11342
▁회견	-11343
▁샌프란	-11344
▁샌프란시스코	-11345
▁몰아내	-11346
▁혼합	-11347
▁뷔	-11348
▁166	-11349
레일	-11350
▁공존	-11351
▁크리스토	-11352
▁스킵	-11353
▁독수리	-11354
▁회복력	-11355
▁휩싸	-11356
▁카구라	-11357
▁한숨	-11358
▁비즈	-11359
▁경감	-11360
▁사망자	-11361
▁TW	-11362
ports	-11363
▁책정	-11364
▁기합	-11365
▁스크립트	-11366
▁쓸어버리	-11367
▁커트	-11368
두리	-11369
▁복용	-11370
▁급히	-11371
▁시가	-11372
▁오키나와	-11373
메스	-11374
▁pt	-11375
▁괴력	-11376
▁사모	-11377
▁친목	-11378
▁후대	-11379
▁셸	-11380
▁직무	-11381
▁공자	-11382
▁정정	-11383
▁재사	-11384
소수	-11385
▁프로모션	-11386
▁정크	-11387
▁동족	-11388
▁Can	-11389
▁사료	-11390
자재	-11391
▁트렌	-11392
▁다이스케	-11393
▁Korea	-11394
산동	-11395
▁주심	-11396
▁회귀	-11397
▁명곡	-11398
▁반짝이	-11399
▁인쇄	-11400
▁단과	-11401
▁롤링	-11402
▁악어	-11403
▁현상금	-11404
▁기술자	-11405
▁코바야시	-11406
▁회오리	-11407
▁FB	-11408
▁접어들	-11409
▁계란	-11410
▁CA	-11411
▁사우루스	-11412
▁슬로우	-11413
파크	-11414
ina	-11415
▁카이토	-11416
프라	-11417
▁호프	-11418
▁VOCAL	-11419
스트림	-11420
▁포대	-11421
▁이례	-11422
▁만행	-11423
▁비로소	-11424
▁실습	-11425
▁키트	-11426
▁박치기	-11427
▁토이	-11428
▁헬리콥터	-11429
▁회심	-11430
ally	-11431
▁아카리	-11432
▁카르마	-11433
▁분장	-11434
▁도라에몽	-11435
▁연고지	-11436
▁필터	-11437
▁박해	-11438
▁김원	-11439
상가상	-11440
▁설상가상	-11441
▁하리	-11442
▁얕	-11443
▁KTX	-11444
보그	-11445
▁캐리어	-11446
ERO	-11447
▁고조	-11448
▁인천광역시	-11449
▁반군	-11450
▁장원	-11451
▁부류	-11452
▁Sec	-11453
커녕	-11454
▁피스트	-11455
▁미하	-11456
▁경보	-11457
▁홍진호	-11458
▁가나	-11459
▁스냅	-11460
OO	-11461
▁로컬	-11462
▁비타	-11463
UR	-11464
▁니카	-11465
▁미판	-11466
▁진수	-11467
▁650	-11468
▁빠뜨리	-11469
▁브릿	-11470
▁듀크	-11471
▁문어	-11472
▁신정	-11473
▁슬퍼	-11474
조합	-11475
▁광대	-11476
▁난감	-11477
▁유정	-11478
▁MHz	-11479
소문	-11480
▁프린스	-11481
▁시부	-11482
▁At	-11483
▁디렉터	-11484
▁타시	-11485
▁Music	-11486
▁++	-11487
▁EBS	-11488
▁똑똑	-11489
▁재직	-11490
▁병살타	-11491
▁셉	-11492
▁선우	-11493
▁우메	-11494
티콘	-11495
▁루마니아	-11496
▁이속	-11497
▁미성년	-11498
▁천마	-11499
▁박경	-11500
▁유영	-11501
네이터	-11502
▁분홍색	-11503
▁살상	-11504
▁가급	-11505
▁유난	-11506
마당	-11507
▁Su	-11508
▁ㅋㅋ	-11509
▁감행	-11510
▁태극	-11511
▁보살	-11512
▁엘리스	-11513
▁개연	-11514
▁무진	-11515
▁퍼센트	-11516
▁김형	-11517
▁파수	-11518
▁로저	-11519
▁아이유	-11520
▁퐁	-11521
▁1962	-11522
▁짚	-11523
▁Ep	-11524
▁바티	-11525
▁리플렉	-11526
▁괴상	-11527
▁입양	-11528
▁실루엣	-11529
▁프랑크	-11530
▁딸기	-11531
▁총열	-11532
▁갈아타	-11533
▁조직원	-11534
▁아타	-11535
▁홈즈	-11536
▁망령	-11537
▁피치	-11538
▁열람	-11539
니카	-11540
▁해치우	-11541
▁습관	-11542
바다	-11543
▁스완	-11544
▁끼어들	-11545
▁로코	-11546
▁츠나	-11547
▁한발	-11548
▁텍스	-11549
▁Live	-11550
▁뽕	-11551
▁대마	-11552
▁레이트	-11553
▁학점	-11554
▁get	-11555
▁레즈	-11556
ART	-11557
▁장학	-11558
▁그리하여	-11559
누르	-11560
▁항아리	-11561
▁악의	-11562
▁춘천	-11563
▁단정	-11564
▁Comm	-11565
▁진리	-11566
널드	-11567
▁험하	-11568
▁GN	-11569
▁어퍼	-11570
얼거리	-11571
▁가미	-11572
▁관직	-11573
▁달빛	-11574
▁야외	-11575
▁예지	-11576
▁암울	-11577
▁고토	-11578
▁목동	-11579
▁케이지	-11580
▁카가미	-11581
▁서태	-11582
▁콜롬	-11583
장난	-11584
▁레기	-11585
▁양보	-11586
▁저렇게	-11587
▁판권	-11588
젤레스	-11589
▁요시다	-11590
▁BF	-11591
use	-11592
▁고릴라	-11593
▁ㄴ들	-11594
▁발광	-11595
▁세탁	-11596
▁금색	-11597
▁경유지	-11598
▁후문	-11599
▁주거	-11600
▁MX	-11601
▁위키백과	-11602
▁기법	-11603
▁강수	-11604
▁빼내	-11605
▁파벌	-11606
▁대인배	-11607
son	-11608
▁키무라	-11609
▁돌격소총	-11610
▁사이보그	-11611
▁리티	-11612
▁UF	-11613
▁천공	-11614
▁169	-11615
▁클라이	-11616
▁받치	-11617
▁용감	-11618
▁응하	-11619
▁`	-11620
▁바그	-11621
▁도청	-11622
▁진성	-11623
▁오케스트라	-11624
▁갈라	-11625
▁저서	-11626
▁고든	-11627
▁연발	-11628
▁뇌물	-11629
▁안보	-11630
▁man	-11631
▁사스케	-11632
▁요시노	-11633
▁똘	-11634
▁1800	-11635
일라	-11636
▁김명	-11637
▁투니	-11638
▁산책	-11639
▁레이나	-11640
▁카에	-11641
▁바주	-11642
▁구급	-11643
▁전속	-11644
▁북아	-11645
▁경쟁자	-11646
▁gr	-11647
▁한탄	-11648
▁코요	-11649
문트	-11650
▁단속	-11651
▁천둥	-11652
▁소절	-11653
▁바니	-11654
▁서민	-11655
▁베이더	-11656
itch	-11657
▁코다	-11658
관총	-11659
▁뢰	-11660
▁섀도	-11661
▁실업	-11662
▁디펜스	-11663
tr	-11664
▁번트	-11665
▁영진	-11666
▁but	-11667
▁커비	-11668
▁꽂히	-11669
▁1944	-11670
▁돌이	-11671
▁타니	-11672
reen	-11673
▁GR	-11674
▁어미	-11675
▁외롭	-11676
▁잠재력	-11677
==	-11678
▁Res	-11679
▁Power	-11680
▁수용소	-11681
▁1940	-11682
▁ㄴ다던가	-11683
▁Leg	-11684
▁Af	-11685
▁로저스	-11686
attle	-11687
▁그랜	-11688
▁급기	-11689
▁숙이	-11690
▁우습	-11691
▁주황색	-11692
▁재사용	-11693
▁귀하	-11694
inn	-11695
▁스퍼	-11696
▁페이트	-11697
▁슬퍼하	-11698
▁차용	-11699
▁배상	-11700
▁결사	-11701
▁법안	-11702
▁볼텍스	-11703
▁남작	-11704
▁행방불명	-11705
▁제다이	-11706
▁처절	-11707
▁치사	-11708
▁은혜	-11709
체스	-11710
▁Hard	-11711
▁추적자	-11712
▁RC	-11713
▁교관	-11714
▁조력자	-11715
▁MR	-11716
▁송출	-11717
▁영남	-11718
▁월급	-11719
▁Pv	-11720
▁열악	-11721
▁자판	-11722
▁청원	-11723
▁히토미	-11724
▁접점	-11725
▁혹사	-11726
▁따라다니	-11727
못미	-11728
▁감히	-11729
▁런닝	-11730
▁거스르	-11731
▁지못미	-11732
▁고산	-11733
▁넓히	-11734
▁장제스	-11735
▁공약	-11736
▁UI	-11737
▁저상	-11738
▁크리스티	-11739
▁마요	-11740
▁쿠루	-11741
▁전산	-11742
▁냉각	-11743
▁닫히	-11744
▁으리라	-11745
▁리조	-11746
▁준결승	-11747
▁ARM	-11748
▁마운드	-11749
▁워낙에	-11750
▁경선	-11751
▁채집	-11752
아라	-11753
▁코이	-11754
▁호로	-11755
징어	-11756
▁Ma	-11757
▁수복	-11758
▁쐐기	-11759
▁직결	-11760
쌔신	-11761
▁카즈마	-11762
▁Sing	-11763
▁구두	-11764
▁어쌔신	-11765
▁편안	-11766
▁Che	-11767
▁카를로스	-11768
▁배기	-11769
▁카밀	-11770
놀이	-11771
▁여정	-11772
▁노려보	-11773
▁베인	-11774
▁출근	-11775
▁출중	-11776
장이	-11777
75	-11778
▁매너	-11779
▁켈리	-11780
▁진행자	-11781
▁Life	-11782
니클	-11783
▁라오	-11784
ern	-11785
▁co	-11786
▁동요	-11787
▁기복	-11788
XT	-11789
▁공과	-11790
▁보잉	-11791
▁준공	-11792
▁미코토	-11793
▁천주교	-11794
▁독서	-11795
▁블래스트	-11796
▁제원	-11797
▁Master	-11798
▁응원가	-11799
▁트리스	-11800
▁느니	-11801
▁쪼개	-11802
▁선방	-11803
TC	-11804
▁ADV	-11805
▁모닝	-11806
▁가호	-11807
규모	-11808
▁무르	-11809
▁김두한	-11810
ars	-11811
큘라	-11812
▁키사	-11813
▁미끄	-11814
▁실정	-11815
▁여권	-11816
▁주고받	-11817
▁무효화	-11818
▁정확도	-11819
토르	-11820
▁im	-11821
▁망가	-11822
▁나들	-11823
▁슬리	-11824
▁호기심	-11825
▁무빙	-11826
▁Rem	-11827
준표	-11828
▁전두환	-11829
▁설화	-11830
▁부럽	-11831
▁코파	-11832
▁전세	-11833
▁튜닝	-11834
▁제라	-11835
▁나들목	-11836
▁예언자	-11837
▁VOCALOID	-11838
▁탈당	-11839
asy	-11840
▁화나	-11841
▁광탈	-11842
▁불신	-11843
▁징징	-11844
▁휴게소	-11845
▁훅	-11846
니스트	-11847
to	-11848
▁토로	-11849
▁LCK	-11850
▁출루율	-11851
총리	-11852
▁Lo	-11853
▁한도	-11854
▁농사	-11855
▁동탁	-11856
▁일어서	-11857
rain	-11858
▁헤매	-11859
▁반대편	-11860
▁러시아어	-11861
▁형편없	-11862
▁불어	-11863
▁뷰티	-11864
▁데우스	-11865
▁민정	-11866
▁비장	-11867
▁Fem	-11868
▁시가지	-11869
▁원활	-11870
▁야심	-11871
▁사안	-11872
▁사출	-11873
▁동체	-11874
IE	-11875
▁당첨	-11876
▁1930	-11877
▁충청북도	-11878
▁네이트	-11879
▁부흥	-11880
▁Out	-11881
▁카오리	-11882
▁쩔	-11883
▁노기	-11884
▁다짐	-11885
UE	-11886
▁이변	-11887
▁리전	-11888
▁소매	-11889
▁픽업	-11890
▁더욱이	-11891
▁실명	-11892
▁증기	-11893
▁지주	-11894
▁카디	-11895
▁부당	-11896
ana	-11897
▁열등	-11898
▁카노	-11899
▁교향	-11900
▁테일러	-11901
▁근성	-11902
▁더비	-11903
▁탬	-11904
▁매칭	-11905
▁댄서	-11906
▁야시	-11907
심장	-11908
▁농협	-11909
▁시에	-11910
▁자처	-11911
▁늦추	-11912
▁창병	-11913
▁무림	-11914
▁매출액	-11915
▁체리	-11916
▁금호	-11917
▁차후	-11918
▁OPS	-11919
마침	-11920
▁일절	-11921
차례	-11922
▁마차	-11923
▁뽐내	-11924
▁센티	-11925
▁궤적	-11926
▁사당	-11927
▁서지	-11928
▁저리	-11929
▁포트리스	-11930
▁상용	-11931
▁태자	-11932
테이	-11933
▁OB	-11934
▁금화	-11935
▁포맷	-11936
▁151	-11937
▁자회사	-11938
cl	-11939
▁간선	-11940
ield	-11941
▁구단주	-11942
▁친정	-11943
▁목적지	-11944
▁매달	-11945
▁보리	-11946
▁음주	-11947
▁이질	-11948
▁득점자	-11949
▁때마침	-11950
▁동지	-11951
▁등교	-11952
▁문고	-11953
▁999	-11954
▁어리석	-11955
▁내수	-11956
▁모범	-11957
▁유방	-11958
▁학술	-11959
▁허공	-11960
▁구마	-11961
▁막아	-11962
▁아델	-11963
24	-11964
년기	-11965
▁중전차	-11966
▁괴리	-11967
▁End	-11968
▁준하	-11969
▁256	-11970
▁지극히	-11971
riend	-11972
▁숀	-11973
▁세나	-11974
▁POP	-11975
▁Hell	-11976
▁성역	-11977
▁이은	-11978
▁군복	-11979
▁세레	-11980
▁인벤토리	-11981
무소	-11982
▁신칸	-11983
대기	-11984
▁팔찌	-11985
▁유난히	-11986
atic	-11987
▁코타로	-11988
▁아이리스	-11989
▁깽판	-11990
▁사극	-11991
▁just	-11992
▁1964	-11993
▁교감	-11994
▁동갑	-11995
▁초선	-11996
▁1965	-11997
코어	-11998
클럽	-11999
▁Fi	-12000
▁수험	-12001
▁잔디	-12002
▁이노우	-12003
▁지표	-12004
▁부대원	-12005
▁부호	-12006
▁서해	-12007
▁세세	-12008
▁필연	-12009
▁스타팅	-12010
▁고요	-12011
▁소시	-12012
▁못지않	-12013
▁이용해	-12014
▁아이언맨	-12015
▁수식	-12016
지부	-12017
▁안성	-12018
▁충북	-12019
▁함포	-12020
▁김일성	-12021
▁클레어	-12022
▁신칸센	-12023
▁""	-12024
▁불로	-12025
▁법학	-12026
▁시스터	-12027
▁휩싸이	-12028
▁확립	-12029
▁샨	-12030
▁배열	-12031
▁PVP	-12032
▁Miss	-12033
33	-12034
▁빅토르	-12035
▁신대	-12036
▁sc	-12037
▁가뜩	-12038
▁세일	-12039
▁애교	-12040
ittle	-12041
▁엿보	-12042
▁숏	-12043
▁본성	-12044
▁아몬	-12045
▁커먼	-12046
▁리마	-12047
▁절규	-12048
▁발악	-12049
▁야마구치	-12050
▁퀄컴	-12051
▁향기	-12052
▁구절	-12053
▁파파	-12054
▁Air	-12055
▁night	-12056
▁타나	-12057
▁쑥	-12058
▁쿠시	-12059
▁반갑	-12060
▁순교	-12061
▁q	-12062
▁SG	-12063
▁스캔들	-12064
▁개개인	-12065
▁what	-12066
▁애시	-12067
▁포토	-12068
▁집중력	-12069
▁대법원	-12070
▁영동	-12071
▁웨어	-12072
▁가뜩이나	-12073
▁교직	-12074
▁아카이	-12075
▁6000	-12076
▁카스미	-12077
▁조폭	-12078
LS	-12079
동원	-12080
▁반항	-12081
▁에일리언	-12082
▁중견수	-12083
▁설비	-12084
▁아홉	-12085
▁쿠노	-12086
▁김택	-12087
▁오징어	-12088
▁팔라딘	-12089
▁Vo	-12090
▁케로	-12091
▁서정	-12092
▁후예	-12093
▁연구실	-12094
▁이치고	-12095
▁380	-12096
▁트로이	-12097
▁럼블	-12098
▁가급적	-12099
▁일본식	-12100
▁악랄	-12101
▁랜턴	-12102
▁액셀	-12103
▁Hy	-12104
▁바비	-12105
▁역병	-12106
▁콜드	-12107
▁초당	-12108
▁자크	-12109
▁신흥	-12110
▁직역	-12111
▁학번	-12112
블릿	-12113
▁스타크	-12114
▁VR	-12115
▁왠만	-12116
▁쿠파	-12117
▁소감	-12118
▁소동	-12119
▁Mod	-12120
▁손아	-12121
▁수녀	-12122
▁출몰	-12123
▁고폭탄	-12124
▁자주포	-12125
▁이야말로	-12126
뮤직	-12127
▁바주카	-12128
▁샤크	-12129
▁국산	-12130
▁레몬	-12131
▁직구	-12132
▁EMP	-12133
▁볼륨	-12134
▁야드	-12135
▁임원	-12136
▁폿	-12137
▁넥슨	-12138
레스트	-12139
▁스콧	-12140
▁1920	-12141
▁게릴라	-12142
▁설계도	-12143
▁성형	-12144
▁차관	-12145
▁패미	-12146
▁포지	-12147
▁양측	-12148
▁즉각	-12149
▁그려	-12150
▁서대	-12151
▁토오루	-12152
▁쏠쏠	-12153
▁토네	-12154
▁로딩	-12155
▁페르난	-12156
28	-12157
▁강행	-12158
▁노엘	-12159
▁시코	-12160
▁Di	-12161
▁챌린저	-12162
▁승려	-12163
▁YOU	-12164
▁라틴어	-12165
▁상체	-12166
▁MT	-12167
▁차선	-12168
▁페니	-12169
▁따돌리	-12170
▁접근성	-12171
▁한심	-12172
▁강판	-12173
▁전폭	-12174
▁무전	-12175
▁마도사	-12176
▁뮬	-12177
▁연비	-12178
▁퍼부	-12179
사관	-12180
▁하타	-12181
▁패기	-12182
▁King	-12183
▁자신감	-12184
▁Sy	-12185
▁가르침	-12186
▁조영	-12187
▁공산주의	-12188
▁칙	-12189
▁예장	-12190
▁총탄	-12191
▁Ang	-12192
▁드라군	-12193
▁수상자	-12194
▁매스	-12195
▁살피	-12196
▁소규모	-12197
▁일렉트로	-12198
▁최영	-12199
▁XXX	-12200
▁마에다	-12201
▁노조미	-12202
▁상가	-12203
▁도요	-12204
▁정동	-12205
▁자수	-12206
▁타케시	-12207
▁EA	-12208
▁기성	-12209
▁노이즈	-12210
▁밋	-12211
이센	-12212
▁진료	-12213
▁바루	-12214
▁건재	-12215
▁악용	-12216
▁파이브	-12217
▁승천	-12218
▁오로라	-12219
▁수고	-12220
▁페가	-12221
▁용맹	-12222
숨에	-12223
포드	-12224
▁리에	-12225
▁시몬	-12226
▁적진	-12227
▁호쿠	-12228
▁단숨에	-12229
ony	-12230
▁tvN	-12231
▁에밀리	-12232
란트	-12233
▁첨단	-12234
▁IG	-12235
▁빈사	-12236
무기	-12237
▁리우	-12238
▁남동	-12239
테이너	-12240
▁전리	-12241
▁광신	-12242
▁밀집	-12243
▁박격	-12244
▁펠리	-12245
▁먹방	-12246
▁다비	-12247
▁허위	-12248
▁카타르	-12249
▁파인	-12250
▁초사	-12251
▁퇴출	-12252
▁태조	-12253
▁0000	-12254
▁샤프	-12255
▁크루즈	-12256
▁인터페이스	-12257
로프	-12258
▁타국	-12259
▁밉	-12260
▁콘티	-12261
▁깁	-12262
▁딱딱	-12263
▁생산력	-12264
▁UFC	-12265
▁퇴사	-12266
▁샴	-12267
▁밀란	-12268
▁말미	-12269
▁동인지	-12270
▁카무이	-12271
▁서킷	-12272
▁수비진	-12273
▁타노스	-12274
▁운운	-12275
▁리쿠	-12276
▁사임	-12277
▁우아	-12278
▁안산	-12279
▁길들이	-12280
▁오인	-12281
▁사사키	-12282
어먹	-12283
mania	-12284
▁소극	-12285
▁카린	-12286
▁대상자	-12287
▁스피커	-12288
▁STER	-12289
▁플루	-12290
ma	-12291
▁원고	-12292
▁원내	-12293
▁와이어	-12294
▁안면	-12295
▁은밀	-12296
▁선대	-12297
▁실황	-12298
▁총격	-12299
미스	-12300
▁선제골	-12301
▁드라큘라	-12302
▁로사	-12303
▁대대로	-12304
▁만료	-12305
▁재위	-12306
▁옵티	-12307
▁자연수	-12308
▁재난	-12309
▁웨이트	-12310
▁저격총	-12311
▁카탈	-12312
▁대주	-12313
▁이우	-12314
▁이선	-12315
▁대출	-12316
▁솔라	-12317
▁유토	-12318
▁프랭	-12319
▁아이작	-12320
▁투하	-12321
▁덫	-12322
▁멀쩡히	-12323
▁학회	-12324
▁Cy	-12325
▁낙인	-12326
▁보증	-12327
▁게리온	-12328
▁카지노	-12329
▁일진	-12330
▁변질	-12331
곡동	-12332
타르	-12333
▁방금	-12334
▁태세	-12335
▁Run	-12336
▁관동	-12337
▁천계	-12338
▁1600	-12339
단체	-12340
▁벅스	-12341
▁지그	-12342
▁랴	-12343
▁진가	-12344
▁소용돌이	-12345
▁가브리엘	-12346
▁포럼	-12347
▁IDOL	-12348
밀리아	-12349
▁치명상	-12350
▁태블릿	-12351
▁되살아나	-12352
be	-12353
▁공성전	-12354
▁카이사르	-12355
터스	-12356
▁초래	-12357
▁야쿠자	-12358
▁염려	-12359
▁목요일	-12360
▁스티커	-12361
ual	-12362
서야	-12363
인드	-12364
▁캐롤	-12365
▁메테오	-12366
▁131	-12367
ret	-12368
▁생산량	-12369
▁스위트	-12370
▁부평	-12371
▁주방	-12372
▁무궁화	-12373
▁좌표	-12374
▁축적	-12375
▁사에	-12376
▁청산	-12377
▁다단	-12378
▁마사키	-12379
▁물리학	-12380
하하	-12381
▁장편	-12382
▁마이트	-12383
회장	-12384
▁자유자재	-12385
▁SV	-12386
▁민원	-12387
▁케이트	-12388
▁광복	-12389
▁아야카	-12390
▁UM	-12391
▁수요일	-12392
▁white	-12393
▁서초	-12394
▁우체국	-12395
▁괴담	-12396
▁경성	-12397
▁칠레	-12398
▁MLB	-12399
▁램프	-12400
페르	-12401
▁벡터	-12402
▁호전	-12403
▁우루과이	-12404
▁빅뱅	-12405
▁외래	-12406
▁사로잡히	-12407
▁MASTER	-12408
▁전교	-12409
▁전편	-12410
▁골리	-12411
미즈	-12412
▁다중	-12413
▁don	-12414
▁내야수	-12415
ecial	-12416
▁부도	-12417
▁단골	-12418
▁이승만	-12419
▁대각	-12420
▁뒤덮	-12421
▁School	-12422
▁하야토	-12423
▁동창	-12424
▁원호	-12425
▁인맥	-12426
권자	-12427
무장	-12428
▁SO	-12429
▁가축	-12430
▁제르	-12431
셔츠	-12432
징가	-12433
▁라지만	-12434
▁마징가	-12435
▁통신사	-12436
ane	-12437
▁입학식	-12438
▁궁지	-12439
▁물들	-12440
▁미타	-12441
▁백합	-12442
▁분기점	-12443
▁달걀	-12444
▁욕하	-12445
▁테이크	-12446
▁대파	-12447
▁흑화	-12448
내리	-12449
▁결함	-12450
▁영미	-12451
▁강성	-12452
▁경매	-12453
▁Rec	-12454
▁꺾이	-12455
▁마커	-12456
▁미시	-12457
▁렀다	-12458
범죄	-12459
▁장타율	-12460
▁도도	-12461
▁소실	-12462
▁탄도	-12463
▁고속도	-12464
▁지상파	-12465
▁증권	-12466
▁막바지	-12467
▁홍준표	-12468
▁김전	-12469
▁way	-12470
질기	-12471
▁합당	-12472
ope	-12473
▁Sound	-12474
▁김희	-12475
▁여고생	-12476
▁끈질기	-12477
▁제시카	-12478
▁쉘	-12479
▁박준	-12480
▁인내	-12481
▁허구	-12482
▁Art	-12483
▁Arm	-12484
▁마운트	-12485
▁마이너스	-12486
▁Yeah	-12487
▁피에	-12488
▁피드백	-12489
▁사쿠라이	-12490
▁루카스	-12491
▁아루	-12492
티어	-12493
행위	-12494
▁일련	-12495
퇴근	-12496
▁매수	-12497
▁시집	-12498
Fat	-12499
▁이과	-12500
▁설레	-12501
▁괄	-12502
▁히노	-12503
▁둘러싸이	-12504
▁어인	-12505
▁완수	-12506
▁헌신	-12507
▁소설가	-12508
▁베가	-12509
▁계열사	-12510
니즘	-12511
어찌	-12512
▁공로	-12513
▁프로리그	-12514
▁계좌	-12515
▁이마트	-12516
려드	-12517
부시	-12518
▁바이스	-12519
바퀴	-12520
▁레지스	-12521
elf	-12522
▁강적	-12523
▁리트	-12524
베르트	-12525
▁BAS	-12526
▁소피아	-12527
▁박주	-12528
▁적료	-12529
▁고속버스	-12530
▁고어	-12531
▁그닥	-12532
▁기밀	-12533
▁동래	-12534
일으키	-12535
▁당나라	-12536
▁마모루	-12537
수수	-12538
▁EM	-12539
▁루이지	-12540
▁불러일으키	-12541
▁두부	-12542
▁컨트롤러	-12543
ision	-12544
▁작별	-12545
▁Femme	-12546
재판	-12547
▁로스앤	-12548
▁로스앤젤레스	-12549
▁오너	-12550
▁아멜	-12551
▁튀기	-12552
▁Rev	-12553
▁1961	-12554
▁부츠	-12555
▁Cat	-12556
대교	-12557
▁리베	-12558
▁양국	-12559
▁레이터	-12560
▁스코프	-12561
▁편대	-12562
▁어찌어찌	-12563
▁부식	-12564
▁소행	-12565
▁대본	-12566
▁간략	-12567
▁자진	-12568
▁플래닛	-12569
▁세르비아	-12570
▁Ge	-12571
▁경희	-12572
▁모친	-12573
▁슈퍼스타	-12574
▁WE	-12575
▁VIP	-12576
▁브라더	-12577
▁그놈	-12578
▁원천	-12579
▁아그	-12580
▁총괄	-12581
야샤	-12582
▁이누야샤	-12583
에이터	-12584
▁발칸	-12585
▁실무	-12586
▁불멸	-12587
▁꽝	-12588
▁극소수	-12589
▁김전일	-12590
▁술법	-12591
▁입술	-12592
▁비시	-12593
▁공방전	-12594
즈카	-12595
▁빨강	-12596
▁후일담	-12597
▁어드밴스	-12598
▁DO	-12599
we	-12600
▁태그팀	-12601
▁뒤집히	-12602
▁식신	-12603
▁파산	-12604
▁카가	-12605
▁우크라	-12606
수스	-12607
▁쿠르	-12608
▁지령	-12609
▁요하	-12610
▁무작정	-12611
▁여당	-12612
▁석궁	-12613
▁돌아서	-12614
▁페더	-12615
▁군기	-12616
▁족장	-12617
▁사용법	-12618
카즈	-12619
▁제멋	-12620
▁경량	-12621
▁할리우드	-12622
▁시궁	-12623
▁피처	-12624
▁발전기	-12625
Fatale	-12626
꿈치	-12627
▁자취	-12628
▁FemmeFatale	-12629
▁라지	-12630
쿠로	-12631
▁진작	-12632
▁쓸데없	-12633
▁무언	-12634
▁허세	-12635
▁ㄱ	-12636
▁아의	-12637
▁다던가	-12638
str	-12639
▁수락	-12640
▁이가	-12641
▁반말	-12642
▁정명	-12643
▁다이나	-12644
ational	-12645
같이	-12646
▁회화	-12647
▁일보	-12648
▁방황	-12649
▁이에	-12650
▁정계	-12651
▁대잠	-12652
▁크로니클	-12653
▁예명	-12654
▁하세	-12655
ouse	-12656
▁dis	-12657
수아	-12658
▁황태자	-12659
SS	-12660
▁메꾸	-12661
▁가명	-12662
appy	-12663
▁신디	-12664
▁성도	-12665
▁소진	-12666
▁양파	-12667
▁연금술	-12668
▁에이전트	-12669
▁껄	-12670
▁마작	-12671
▁하워드	-12672
▁넵	-12673
▁NHK	-12674
▁뛰쳐	-12675
▁검은색	-12676
▁그려지	-12677
▁얼핏	-12678
▁이스터	-12679
AG	-12680
▁섬유	-12681
▁헬스	-12682
▁급기야	-12683
언정	-12684
ORE	-12685
▁혼종	-12686
▁로만	-12687
▁반환	-12688
▁악세	-12689
▁스칼렛	-12690
▁키리토	-12691
▁소심	-12692
▁창업	-12693
▁효과음	-12694
▁하임	-12695
▁미츠루	-12696
▁br	-12697
▁후타	-12698
▁네모	-12699
▁호노카	-12700
▁화수	-12701
▁광석	-12702
▁병단	-12703
축구	-12704
▁배지	-12705
스트로	-12706
케인	-12707
▁애당초	-12708
▁유로파	-12709
▁하부	-12710
▁Order	-12711
▁교섭	-12712
▁상회	-12713
ness	-12714
휴일	-12715
▁당원	-12716
▁점거	-12717
▁카도	-12718
투아	-12719
▁수준급	-12720
▁1100	-12721
▁삼거리	-12722
▁신주쿠	-12723
▁난전	-12724
▁팝픈	-12725
▁팝픈뮤직	-12726
제국	-12727
▁스플래시	-12728
▁키퍼	-12729
▁교주	-12730
▁택배	-12731
▁제정신	-12732
▁MD	-12733
▁초필	-12734
▁미지수	-12735
▁바하	-12736
▁좌익수	-12737
라이나	-12738
▁아즈사	-12739
▁자잘	-12740
▁주범	-12741
▁주작	-12742
▁기미	-12743
▁토론토	-12744
▁천적	-12745
▁성채	-12746
▁호세	-12747
▁양키스	-12748
▁김혜	-12749
▁양현	-12750
▁엄지	-12751
▁Elect	-12752
▁폭동	-12753
▁조운	-12754
▁코카	-12755
▁적발	-12756
▁콜로니	-12757
▁펄스	-12758
▁이치로	-12759
▁매진	-12760
▁기마	-12761
델피아	-12762
▁필라델피아	-12763
먹이	-12764
▁소피	-12765
▁^	-12766
▁당주	-12767
▁시엘	-12768
▁정립	-12769
▁한몫	-12770
▁완전체	-12771
▁요미우리	-12772
사이드	-12773
시계	-12774
▁과부	-12775
▁미라클	-12776
▁히데요시	-12777
▁깊숙	-12778
▁라자	-12779
▁종일	-12780
inc	-12781
▁들려오	-12782
▁다인	-12783
▁흐리	-12784
▁TCG	-12785
▁빼돌리	-12786
▁파고들	-12787
▁블레이즈	-12788
▁까닭	-12789
저트	-12790
▁이안	-12791
▁EXH	-12792
▁든가	-12793
▁프로세서	-12794
▁기한	-12795
▁복싱	-12796
▁나고	-12797
▁서드	-12798
▁피곤	-12799
▁쓸모없	-12800
▁어비스	-12801
▁옵티머스	-12802
▁CON	-12803
투수	-12804
▁연예계	-12805
▁프랑켄	-12806
▁광범	-12807
▁기온	-12808
▁말장난	-12809
▁전리품	-12810
▁시한	-12811
▁수평	-12812
▁태종	-12813
▁프론트	-12814
▁본디	-12815
▁도리어	-12816
▁적색	-12817
▁선발투수	-12818
▁결장	-12819
▁대사관	-12820
▁운항	-12821
날드	-12822
▁지망	-12823
▁휴일	-12824
▁world	-12825
▁신이치	-12826
데아	-12827
▁지기	-12828
▁스왑	-12829
▁양호	-12830
▁214	-12831
▁RG	-12832
▁연하	-12833
▁일쑤	-12834
▁고령	-12835
▁볼프	-12836
▁후궁	-12837
▁씁	-12838
▁부추	-12839
히트	-12840
▁냉전	-12841
▁조형	-12842
▁유포	-12843
▁She	-12844
그룹	-12845
▁스크래	-12846
▁폴더	-12847
▁리노	-12848
▁손흥	-12849
▁사이퍼	-12850
▁작살	-12851
우루스	-12852
▁SHOW	-12853
▁정은	-12854
▁경장	-12855
▁당분	-12856
▁키워드	-12857
▁강유	-12858
▁교란	-12859
IV	-12860
▁재고	-12861
▁돌려보내	-12862
▁리브	-12863
▁루터	-12864
▁다이브	-12865
▁고독	-12866
▁비토	-12867
▁한조	-12868
day	-12869
omb	-12870
▁정거	-12871
▁1943	-12872
▁산악	-12873
▁공휴일	-12874
▁스폰지	-12875
▁제식	-12876
▁불사조	-12877
▁도호	-12878
its	-12879
▁탄종	-12880
사의	-12881
▁성추	-12882
▁후안	-12883
▁이노우에	-12884
▁도전자	-12885
▁노숙	-12886
▁소이	-12887
▁프런트	-12888
▁건전	-12889
▁승기	-12890
▁들이대	-12891
▁압살	-12892
▁유서	-12893
▁속삭	-12894
▁Da	-12895
▁임창	-12896
▁아지트	-12897
▁언행	-12898
▁대표작	-12899
▁섭외	-12900
▁손흥민	-12901
▁ap	-12902
▁명작	-12903
▁더스트	-12904
▁도쿠가와	-12905
▁다툼	-12906
▁탄소	-12907
▁예비군	-12908
▁ㅅ	-12909
퍼런스	-12910
▁초토	-12911
인간	-12912
투표	-12913
▁셀프	-12914
▁naver	-12915
▁정교회	-12916
▁**	-12917
▁340	-12918
▁정류소	-12919
▁상속	-12920
▁행태	-12921
▁beatmania	-12922
▁직감	-12923
▁에리카	-12924
▁제이드	-12925
▁1942	-12926
ham	-12927
▁141	-12928
스톤	-12929
▁해수	-12930
▁확연히	-12931
▁오버로드	-12932
▁여사	-12933
▁토탈	-12934
▁박격포	-12935
▁콜라보레이션	-12936
▁느냐는	-12937
▁미성년자	-12938
▁텔레비전	-12939
▁트린	-12940
ious	-12941
▁툼	-12942
▁겨누	-12943
▁쟁탈	-12944
▁사부	-12945
▁애프	-12946
▁폭발물	-12947
▁엑소	-12948
▁좀비	-12949
▁레스터	-12950
▁개인전	-12951
▁윌슨	-12952
댓말	-12953
▁존댓말	-12954
▁프로이센	-12955
▁공익	-12956
EX	-12957
투르	-12958
▁SW	-12959
▁어처	-12960
▁출퇴근	-12961
▁오클	-12962
아티아	-12963
▁올라서	-12964
▁크로아티아	-12965
▁게임기	-12966
▁장병	-12967
▁현명	-12968
▁불가사의	-12969
▁도피	-12970
▁캐서	-12971
세데스	-12972
▁메르세데스	-12973
▁증세	-12974
▁창당	-12975
▁서원	-12976
▁te	-12977
▁폭사	-12978
▁셜록	-12979
▁신축	-12980
▁상대식	-12981
▁상권	-12982
▁양주	-12983
▁합하	-12984
▁프로그래밍	-12985
▁지자	-12986
▁액세서리	-12987
▁까먹	-12988
▁저번	-12989
▁글러브	-12990
▁다정	-12991
▁Not	-12992
▁광범위	-12993
▁구자	-12994
▁입맛	-12995
▁진군	-12996
▁평원	-12997
▁캡콤	-12998
▁위즈	-12999
▁합창	-13000
▁정거장	-13001
▁러셀	-13002
▁스파르타	-13003
▁자연스레	-13004
▁오모	-13005
▁김창	-13006
▁옥타	-13007
▁하드코어	-13008
주리	-13009
▁군함	-13010
▁거느리	-13011
▁동봉	-13012
▁술탄	-13013
▁송구	-13014
▁종사	-13015
▁라거나	-13016
▁미끄러지	-13017
aut	-13018
▁든든	-13019
▁디디	-13020
▁시그마	-13021
ivers	-13022
▁스크래치	-13023
▁싱어	-13024
▁장안	-13025
▁국력	-13026
▁피라미	-13027
던트	-13028
▁반다이	-13029
▁표본	-13030
▁DEF	-13031
▁리액션	-13032
요환	-13033
▁막부	-13034
▁위탁	-13035
▁Ke	-13036
▁바우	-13037
▁사이오	-13038
▁로망	-13039
▁네메	-13040
▁주되	-13041
▁공동체	-13042
패스	-13043
▁With	-13044
27	-13045
▁위화	-13046
▁질량	-13047
▁상반기	-13048
▁아부	-13049
▁RAW	-13050
23	-13051
ERS	-13052
▁프리즈	-13053
데르	-13054
▁상표	-13055
▁윌리엄스	-13056
▁세션	-13057
▁화자	-13058
▁브릿지	-13059
▁랫	-13060
▁마음껏	-13061
▁Every	-13062
ANC	-13063
olution	-13064
▁체질	-13065
▁코시	-13066
레미	-13067
▁군사력	-13068
아아	-13069
▁는군	-13070
매니아	-13071
▁오재	-13072
▁내걸	-13073
▁정세	-13074
▁와우	-13075
▁꼭두	-13076
▁마이어	-13077
▁아역	-13078
▁임요환	-13079
▁전전	-13080
▁캐서린	-13081
▁열받	-13082
▁탈옥	-13083
▁망자	-13084
▁프리스트	-13085
▁정장	-13086
▁외출	-13087
▁관념	-13088
▁뾰	-13089
▁체이	-13090
▁카바	-13091
▁재임	-13092
olog	-13093
▁손바닥	-13094
▁어처구니	-13095
▁넘쳐	-13096
45	-13097
▁렴	-13098
▁왼팔	-13099
▁호르	-13100
▁ph	-13101
UC	-13102
▁평민	-13103
▁킹스	-13104
▁310	-13105
무늬	-13106
▁백미	-13107
▁제구	-13108
▁코이치	-13109
▁방정	-13110
▁김준호	-13111
▁대문	-13112
라이어	-13113
▁집결	-13114
▁커리	-13115
▁윈스턴	-13116
▁진정하	-13117
▁고장나	-13118
▁표출	-13119
▁논하	-13120
▁시즈카	-13121
▁사다	-13122
▁환각	-13123
▁원제	-13124
▁소수자	-13125
▁신원	-13126
무니	-13127
▁if	-13128
▁수원시	-13129
▁최면	-13130
▁나나미	-13131
▁순진	-13132
▁무상	-13133
▁듀티	-13134
▁박병	-13135
▁옐로	-13136
▁피츠	-13137
지리	-13138
▁Get	-13139
▁낙원	-13140
▁불상	-13141
▁생사	-13142
▁헌데	-13143
▁경찰관	-13144
▁보답	-13145
▁나날	-13146
▁Chr	-13147
▁류현진	-13148
▁1946	-13149
29	-13150
▁EB	-13151
▁007	-13152
▁도모	-13153
▁정중	-13154
▁주파수	-13155
▁촛	-13156
▁스루	-13157
66	-13158
▁짤방	-13159
▁쾌속	-13160
▁르네	-13161
데기	-13162
▁FR	-13163
▁안나	-13164
▁어우	-13165
▁가솔	-13166
▁CT	-13167
▁커터	-13168
▁해커	-13169
▁미야자키	-13170
▁메라	-13171
▁분경	-13172
▁김정은	-13173
▁최우수	-13174
▁사과문	-13175
▁시저	-13176
▁추석	-13177
▁대부	-13178
▁대명사	-13179
▁시노부	-13180
▁김세	-13181
▁줄곧	-13182
조각	-13183
ely	-13184
▁TB	-13185
▁가출	-13186
▁화요일	-13187
ty	-13188
▁Har	-13189
▁흡연	-13190
▁우시	-13191
▁탐욕	-13192
▁자발	-13193
▁Boy	-13194
▁굳어지	-13195
▁키메라	-13196
▁무자비	-13197
▁해운대	-13198
▁반칙	-13199
나드	-13200
▁토네이도	-13201
▁벵	-13202
베르토	-13203
▁비하인드	-13204
리에	-13205
킨스	-13206
▁예배	-13207
▁양아치	-13208
icro	-13209
▁빡빡	-13210
ny	-13211
▁캉	-13212
▁기총	-13213
▁1954	-13214
▁스님	-13215
▁영화판	-13216
▁연희	-13217
▁작아지	-13218
▁당당히	-13219
의사	-13220
▁마더	-13221
▁걸어오	-13222
▁담당자	-13223
▁Skill	-13224
즈마	-13225
▁아폴로	-13226
▁슈타인	-13227
▁중앙선	-13228
▁바오	-13229
ters	-13230
받침	-13231
▁민영	-13232
▁한스	-13233
▁홍대	-13234
▁후유증	-13235
▁720	-13236
▁금기	-13237
▁지침	-13238
▁추첨	-13239
▁켄타	-13240
▁부여받	-13241
▁Des	-13242
▁비오	-13243
▁에덴	-13244
▁무협	-13245
▁발상	-13246
▁혜성	-13247
▁1958	-13248
노기	-13249
▁육지	-13250
▁취직	-13251
베리아	-13252
▁괴도	-13253
▁>,	-13254
▁방어선	-13255
▁영분	-13256
▁의미심장	-13257
▁Ab	-13258
▁굴복	-13259
▁마누	-13260
▁리포트	-13261
▁이동하	-13262
▁걸작	-13263
▁섬세	-13264
▁만세	-13265
▁초고	-13266
소스	-13267
▁전태	-13268
▁설득력	-13269
▁북방	-13270
▁인즈	-13271
▁CCTV	-13272
▁단선	-13273
▁리젠	-13274
▁유대인	-13275
▁웨일	-13276
▁매복	-13277
▁추이	-13278
▁츠루	-13279
▁사마의	-13280
▁이어인	-13281
▁대용	-13282
▁예리	-13283
▁1941	-13284
▁영기	-13285
▁진흙	-13286
▁단테	-13287
테스	-13288
▁만류	-13289
▁젤다	-13290
▁지름	-13291
▁졸개	-13292
▁171	-13293
버린	-13294
▁=,	-13295
▁가든	-13296
ient	-13297
▁단조	-13298
▁다이어트	-13299
▁480	-13300
▁피어	-13301
▁생물학	-13302
▁충성심	-13303
▁DA	-13304
▁미디	-13305
▁체가	-13306
▁성체	-13307
▁시력	-13308
▁OO	-13309
▁교화	-13310
▁부메	-13311
▁수작	-13312
▁기라	-13313
▁미상	-13314
▁Big	-13315
▁조율	-13316
▁트림	-13317
라이즈	-13318
리우스	-13319
▁양념	-13320
▁잉크	-13321
▁듀엣	-13322
▁id	-13323
▁빌라	-13324
▁석화	-13325
▁1900	-13326
르기	-13327
▁성녀	-13328
▁차종	-13329
▁PSP	-13330
▁총사령	-13331
▁견인	-13332
▁자문	-13333
▁협곡	-13334
▁부메랑	-13335
▁카운티	-13336
▁Tri	-13337
▁ㄴ다면서	-13338
▁메스	-13339
▁빡세	-13340
▁유행어	-13341
▁피리	-13342
▁드리프트	-13343
▁png	-13344
▁kn	-13345
▁선공	-13346
▁임관	-13347
▁복음	-13348
▁클락	-13349
▁튜너	-13350
▁제이스	-13351
▁오피스	-13352
▁데카	-13353
▁181	-13354
▁8000	-13355
▁세간	-13356
▁경쟁력	-13357
▁UR	-13358
▁문헌	-13359
▁바바	-13360
▁빅터	-13361
▁틀어지	-13362
크리트	-13363
▁DT	-13364
▁시동	-13365
▁입체	-13366
ful	-13367
uch	-13368
▁기만	-13369
▁만회	-13370
▁태연	-13371
▁채소	-13372
▁동참	-13373
▁미련	-13374
▁어워드	-13375
▁군벌	-13376
▁상원	-13377
칼리	-13378
▁씁쓸	-13379
▁스탠다드	-13380
▁파장	-13381
▁연혁	-13382
▁격돌	-13383
▁원격	-13384
▁조장	-13385
▁고분	-13386
▁천황	-13387
느니	-13388
▁방랑	-13389
▁샤이닝	-13390
▁봉기	-13391
▁염소	-13392
▁초식	-13393
▁Ext	-13394
▁스펙터	-13395
▁난동	-13396
▁모라	-13397
무진	-13398
▁XP	-13399
▁부화	-13400
▁오디	-13401
▁낯설	-13402
▁가치관	-13403
bl	-13404
▁격노	-13405
▁성모	-13406
▁귀중	-13407
클레스	-13408
▁생몰	-13409
▁증원	-13410
▁직관	-13411
▁창의	-13412
프레스	-13413
토시	-13414
▁통용	-13415
▁불러들이	-13416
▁RS	-13417
ship	-13418
기업	-13419
▁봉황	-13420
▁기관차	-13421
▁원년	-13422
85	-13423
▁성균	-13424
▁선체	-13425
슬러	-13426
▁유감	-13427
▁STAR	-13428
▁가토	-13429
▁아제	-13430
▁제비	-13431
▁ㄹ게요	-13432
▁츠카사	-13433
▁박세	-13434
▁윤종	-13435
▁베니	-13436
▁자위대	-13437
▁성균관	-13438
▁만두	-13439
▁송병	-13440
▁샤아	-13441
▁양면	-13442
▁회고	-13443
테리	-13444
▁장기간	-13445
▁퍼스	-13446
▁나츠미	-13447
자카	-13448
▁학창	-13449
▁이성계	-13450
▁1948	-13451
▁야하	-13452
▁갈래	-13453
▁비숍	-13454
▁디테일	-13455
▁자손	-13456
▁잠복	-13457
▁흑백	-13458
기지	-13459
▁qu	-13460
▁부풀	-13461
▁역기	-13462
▁풍자	-13463
▁클로즈	-13464
▁송이	-13465
▁255	-13466
▁느긋	-13467
▁배분	-13468
▁정인	-13469
▁수리검	-13470
리케이션	-13471
▁Inf	-13472
▁모호	-13473
▁히로유키	-13474
▁조제	-13475
▁벌칙	-13476
▁Bar	-13477
▁Sil	-13478
▁우익수	-13479
▁뫼	-13480
▁타라	-13481
▁서커스	-13482
▁프레디	-13483
▁웍	-13484
▁시궁창	-13485
▁군산	-13486
▁퇴근	-13487
레트	-13488
▁KS	-13489
▁즐거	-13490
▁청량	-13491
▁그리스도	-13492
정역	-13493
▁전년	-13494
▁왕궁	-13495
▁텔레콤	-13496
▁아테네	-13497
▁커브	-13498
▁OR	-13499
▁솔로몬	-13500
▁White	-13501
▁손녀	-13502
▁오드	-13503
▁판도라	-13504
니트	-13505
▁토템	-13506
▁다이너	-13507
버릇	-13508
▁진과	-13509
▁창시	-13510
▁Win	-13511
▁프레데	-13512
▁요일	-13513
▁Back	-13514
▁송도	-13515
ump	-13516
▁크래	-13517
▁농어	-13518
▁스테이트	-13519
co	-13520
▁여의도	-13521
▁좀처럼	-13522
산물	-13523
▁작렬	-13524
혁명	-13525
공격	-13526
▁여도	-13527
▁왕따	-13528
▁콘크리트	-13529
▁파키스탄	-13530
▁치중	-13531
▁PO	-13532
▁늘어놓	-13533
모사	-13534
▁떠들	-13535
26	-13536
▁타쿠미	-13537
▁바이올린	-13538
▁특촬	-13539
▁공병	-13540
▁피에르	-13541
▁접시	-13542
▁재팬	-13543
▁하와이	-13544
튀기	-13545
ift	-13546
▁태고	-13547
▁PM	-13548
▁단신	-13549
▁바늘	-13550
▁연루	-13551
▁jp	-13552
▁고양시	-13553
▁폭포	-13554
▁아틀레	-13555
▁최전	-13556
▁Fre	-13557
▁간식	-13558
▁down	-13559
▁박민	-13560
▁뻥튀기	-13561
▁초원	-13562
▁제이크	-13563
▁NG	-13564
▁나기사	-13565
호도	-13566
노미야	-13567
RAM	-13568
▁초급	-13569
▁허영	-13570
▁이윽	-13571
▁420	-13572
▁으라는	-13573
▁실험실	-13574
틀링	-13575
▁학계	-13576
▁이윽고	-13577
▁215	-13578
▁러블리	-13579
▁색채	-13580
▁마비노기	-13581
▁제멋대로	-13582
▁관악	-13583
▁금전	-13584
▁지독	-13585
▁GL	-13586
▁카세	-13587
▁거슬리	-13588
▁맥도	-13589
▁어지간히	-13590
▁맏	-13591
▁갈고리	-13592
ENT	-13593
▁백색	-13594
▁심리학	-13595
따르	-13596
▁텐션	-13597
▁컨테이너	-13598
▁집정	-13599
▁소음기	-13600
▁어중간	-13601
▁횡단	-13602
▁하르	-13603
▁거주지	-13604
▁켄이치	-13605
▁FE	-13606
▁도타	-13607
▁off	-13608
▁1949	-13609
▁앞마당	-13610
마츠	-13611
▁오덕	-13612
▁사토시	-13613
ATION	-13614
▁친밀	-13615
▁트레이서	-13616
▁every	-13617
▁서독	-13618
▁포털	-13619
▁수소	-13620
▁포고	-13621
레인지	-13622
▁사육	-13623
▁Met	-13624
▁중얼거리	-13625
▁흘러나오	-13626
▁강변	-13627
▁욕구	-13628
▁자드	-13629
▁실천	-13630
edia	-13631
▁정유	-13632
▁시구	-13633
▁헤딩	-13634
▁쇼핑몰	-13635
▁성서	-13636
▁메아리	-13637
▁성폭행	-13638
각시	-13639
▁나츠키	-13640
▁빌미	-13641
득점	-13642
▁Sky	-13643
모니	-13644
바위	-13645
▁Hey	-13646
▁테크노	-13647
▁가차	-13648
▁열풍	-13649
▁인장	-13650
▁느냐고	-13651
▁틀림	-13652
▁하코	-13653
링크	-13654
▁쇠퇴	-13655
▁유엔	-13656
▁CEO	-13657
▁늘어지	-13658
▁육박	-13659
▁후려	-13660
▁인프라	-13661
카스	-13662
▁퍼뜨리	-13663
▁듬	-13664
▁라운	-13665
▁아론	-13666
▁선구	-13667
▁안도	-13668
▁인기투표	-13669
▁양동	-13670
▁제휴	-13671
▁이승엽	-13672
▁남용	-13673
▁변종	-13674
▁최성	-13675
ALL	-13676
▁병맛	-13677
▁208	-13678
▁현존	-13679
▁럽	-13680
▁무의	-13681
▁오퍼레이터	-13682
▁광부	-13683
▁235	-13684
▁Act	-13685
▁서진	-13686
▁동선	-13687
▁파업	-13688
ERT	-13689
▁UFO	-13690
▁}{	-13691
▁FN	-13692
▁패거리	-13693
▁대한항공	-13694
▁향수	-13695
▁거제	-13696
▁편제	-13697
▁육식	-13698
▁수배	-13699
▁1936	-13700
▁시중	-13701
▁체이스	-13702
▁비늘	-13703
케이	-13704
▁되돌아가	-13705
▁뇌격	-13706
▁대여	-13707
▁대머리	-13708
▁런닝맨	-13709
▁갭	-13710
▁바시	-13711
▁정현	-13712
▁333	-13713
BM	-13714
▁거물	-13715
▁삽화	-13716
▁사다리	-13717
oud	-13718
▁하렘	-13719
▁출생지	-13720
▁도르트	-13721
사우루스	-13722
▁병영	-13723
▁알아듣	-13724
드래	-13725
▁메소	-13726
여행	-13727
▁ve	-13728
▁마장	-13729
▁처단	-13730
▁FX	-13731
less	-13732
▁유쾌	-13733
▁휩쓸리	-13734
▁비행선	-13735
▁That	-13736
▁랄까	-13737
▁TD	-13738
니스탄	-13739
▁206	-13740
▁아픔	-13741
▁철회	-13742
지대	-13743
▁덩크	-13744
네트	-13745
ize	-13746
▁카멜	-13747
▁NL	-13748
▁본국	-13749
▁코지마	-13750
▁아이리	-13751
▁마고	-13752
▁합방	-13753
▁개틀링	-13754
▁난폭	-13755
▁어머	-13756
▁Song	-13757
▁ㅎ	-13758
▁초동	-13759
▁세츠나	-13760
▁em	-13761
▁김하	-13762
▁살라	-13763
▁극찬	-13764
▁항속	-13765
린스	-13766
▁나루호도	-13767
95	-13768
▁비약	-13769
변속기	-13770
▁디스코	-13771
▁기겁	-13772
▁다구	-13773
▁오마주	-13774
▁설사	-13775
▁심플	-13776
▁con	-13777
천동	-13778
▁경인	-13779
▁참패	-13780
▁May	-13781
▁성문	-13782
▁떨어트리	-13783
▁키바	-13784
▁미쓰	-13785
공화국	-13786
▁문의	-13787
▁아울러	-13788
러드	-13789
bps	-13790
의회	-13791
▁영리	-13792
▁피라미드	-13793
▁속옷	-13794
▁ㄹ지도	-13795
▁올라타	-13796
▁커넥	-13797
▁서부터	-13798
▁아다	-13799
▁젊은이	-13800
방향	-13801
▁부치	-13802
▁161	-13803
▁멸자	-13804
▁김인	-13805
▁성검	-13806
▁헛소리	-13807
▁마츠모토	-13808
▁와일드카드	-13809
▁누마	-13810
▁쭈	-13811
VEL	-13812
▁계보	-13813
▁이따	-13814
▁유목	-13815
▁개드	-13816
▁베라	-13817
ape	-13818
▁라트	-13819
▁팀킬	-13820
빠르	-13821
▁GAM	-13822
▁850	-13823
▁상대편	-13824
▁위나라	-13825
▁마그마	-13826
▁스플릿	-13827
▁내년	-13828
UB	-13829
▁우로	-13830
▁리오스	-13831
▁얀데레	-13832
▁김태균	-13833
▁배급사	-13834
▁페인트	-13835
▁want	-13836
▁감시자	-13837
▁유우야	-13838
▁God	-13839
▁데이브	-13840
▁명인	-13841
▁크러	-13842
▁끝판	-13843
▁표방	-13844
▁풀백	-13845
▁좌석버스	-13846
▁송곳	-13847
▁스릴	-13848
▁정벌	-13849
ger	-13850
▁장래	-13851
▁카에데	-13852
▁가까스로	-13853
▁토와	-13854
▁밴시	-13855
▁불가리아	-13856
IST	-13857
타자	-13858
96	-13859
▁일자리	-13860
▁야기	-13861
▁다나카	-13862
▁디에	-13863
▁모터스	-13864
▁가물	-13865
▁벽돌	-13866
▁여진	-13867
▁선발전	-13868
▁도마뱀	-13869
▁Rain	-13870
▁북극	-13871
aka	-13872
▁독성	-13873
▁호대	-13874
▁RAM	-13875
▁ㅂ시다	-13876
▁버금	-13877
▁소인	-13878
▁이복	-13879
▁되려	-13880
▁영장	-13881
▁오미	-13882
▁지아	-13883
실히	-13884
ita	-13885
▁언락	-13886
▁내려놓	-13887
▁영창	-13888
▁손수	-13889
▁무법	-13890
▁비욘	-13891
▁보태	-13892
▁징병	-13893
▁때우	-13894
▁인피니트	-13895
때로	-13896
▁청색	-13897
▁북두	-13898
▁어린애	-13899
▁경위	-13900
▁290	-13901
▁플라워	-13902
▁복종	-13903
▁자며	-13904
▁마드	-13905
▁도르트문트	-13906
zy	-13907
▁RF	-13908
▁불운	-13909
▁신시	-13910
▁정렬	-13911
▁심심찮	-13912
모자	-13913
▁난해	-13914
▁Top	-13915
▁무난히	-13916
▁망원	-13917
76	-13918
▁수레	-13919
▁괴로	-13920
ORM	-13921
▁단간	-13922
▁여건	-13923
▁알프레	-13924
주군	-13925
▁서면	-13926
▁열전	-13927
▁하데스	-13928
▁친일	-13929
▁당분간	-13930
▁코스타	-13931
▁페로	-13932
▁피고	-13933
▁좆	-13934
▁."	-13935
▁선도	-13936
▁대강	-13937
▁고려대	-13938
▁마니	-13939
▁포이	-13940
▁퀑	-13941
▁more	-13942
▁콘테	-13943
▁대각선	-13944
▁젯	-13945
▁데이즈	-13946
레인저	-13947
rop	-13948
▁한가	-13949
▁정규군	-13950
▁울부	-13951
▁절묘	-13952
▁특출	-13953
▁책임자	-13954
▁석탄	-13955
▁야채	-13956
▁유추	-13957
▁칼럼	-13958
▁줄줄이	-13959
연합	-13960
▁버디	-13961
▁순교자	-13962
▁Pe	-13963
운전	-13964
▁남구	-13965
▁WAR	-13966
▁친위대	-13967
▁이제동	-13968
▁전용기	-13969
▁내륙	-13970
▁역학	-13971
▁위화감	-13972
▁바실	-13973
▁축구단	-13974
렉트	-13975
암동	-13976
▁단다	-13977
▁1955	-13978
▁스몰	-13979
▁존속	-13980
▁게리	-13981
토록	-13982
▁자부심	-13983
▁드레이크	-13984
▁Battle	-13985
무스	-13986
▁스케치	-13987
▁특공대	-13988
▁뒤틀리	-13989
버거	-13990
▁라이터	-13991
▁꼭두각시	-13992
▁매트릭스	-13993
작전	-13994
▁갑판	-13995
IGHT	-13996
▁칭송	-13997
▁Moon	-13998
▁역전승	-13999
▁미셸	-14000
▁중성	-14001
▁Game	-14002
포스	-14003
▁아란	-14004
▁화속	-14005
▁가창력	-14006
▁인테르	-14007
bo	-14008
▁최재	-14009
net	-14010
▁일직	-14011
ward	-14012
▁자아내	-14013
기어	-14014
▁구만	-14015
비우스	-14016
▁행동력	-14017
▁코로나	-14018
ara	-14019
▁노브	-14020
▁과실	-14021
▁선풍	-14022
▁총통	-14023
▁TEC	-14024
▁성추행	-14025
▁플레이트	-14026
▁곡선	-14027
row	-14028
▁이신	-14029
OK	-14030
▁호타	-14031
▁영락	-14032
▁스케이팅	-14033
블랜드	-14034
com	-14035
▁분사	-14036
▁새로이	-14037
▁클리블랜드	-14038
ren	-14039
▁SUP	-14040
▁킬로	-14041
리아나	-14042
▁부추기	-14043
메다	-14044
▁경이	-14045
▁골대	-14046
▁인민공화국	-14047
▁허리케인	-14048
▁Dragon	-14049
▁새해	-14050
▁KG	-14051
▁레트	-14052
▁카야	-14053
▁태수	-14054
▁나데	-14055
▁내심	-14056
▁212	-14057
버드	-14058
▁독재자	-14059
▁반자동	-14060
▁유명세	-14061
▁max	-14062
▁터미네이터	-14063
▁NS	-14064
▁경호원	-14065
▁북유럽	-14066
▁밸리	-14067
▁개드립	-14068
▁LS	-14069
▁민지	-14070
▁의리	-14071
▁코나미	-14072
▁진나라	-14073
▁데프	-14074
▁Bra	-14075
▁오반	-14076
▁왕녀	-14077
▁치부	-14078
▁강당	-14079
▁본문	-14080
▁흑룡	-14081
▁1959	-14082
▁루시퍼	-14083
클리	-14084
▁광저우	-14085
▁울부짖	-14086
▁대담	-14087
▁부과	-14088
led	-14089
▁소중히	-14090
▁캬	-14091
▁냐면서	-14092
▁나고야	-14093
▁교육부	-14094
▁they	-14095
러기	-14096
▁LCD	-14097
▁팩토리	-14098
▁뭣	-14099
▁가메	-14100
▁니키	-14101
▁추월	-14102
부대	-14103
▁피겨	-14104
▁가솔린	-14105
▁사이언	-14106
▁티코	-14107
짜기	-14108
▁Special	-14109
니엄	-14110
▁보단	-14111
▁김현수	-14112
▁가가	-14113
▁치타	-14114
▁토요타	-14115
▁푸른	-14116
▁관제	-14117
▁할당	-14118
▁베이스볼	-14119
▁해임	-14120
▁호스트	-14121
▁목표물	-14122
▁발산	-14123
▁크림슨	-14124
▁원동	-14125
▁조달	-14126
▁밀레니엄	-14127
▁광화	-14128
▁자석	-14129
▁파괴자	-14130
▁협공	-14131
▁요건	-14132
▁잔당	-14133
▁앙리	-14134
▁핵무기	-14135
▁001	-14136
테나	-14137
▁도미니	-14138
▁연방군	-14139
▁온전히	-14140
▁서점	-14141
▁와이드	-14142
▁마티	-14143
코프	-14144
▁십상	-14145
▁의석	-14146
▁서울역	-14147
▁플로리	-14148
▁무찌	-14149
aven	-14150
▁스트레이트	-14151
▁탤	-14152
▁펜스	-14153
▁데이빗	-14154
▁전투원	-14155
▁다라	-14156
▁들려주	-14157
▁가변	-14158
▁지갑	-14159
▁무성	-14160
히사	-14161
▁마포	-14162
▁광양	-14163
▁빈스	-14164
▁종자	-14165
럭스	-14166
▁여리	-14167
▁1956	-14168
▁단단히	-14169
▁행선	-14170
▁이치카	-14171
▁카트라이더	-14172
▁휘둘	-14173
▁베드	-14174
▁우사	-14175
▁쿠미	-14176
▁활주	-14177
▁아산	-14178
▁뒷받침	-14179
▁강연	-14180
▁서사	-14181
▁주군	-14182
▁특허	-14183
▁슐	-14184
▁wiz	-14185
그레	-14186
▁Hot	-14187
LD	-14188
▁레고	-14189
▁무심	-14190
▁미완	-14191
▁Amer	-14192
▁피니시	-14193
▁뮤즈	-14194
▁머들	-14195
▁벨벳	-14196
▁기와	-14197
▁레미	-14198
▁협약	-14199
▁카즈키	-14200
▁안드로메다	-14201
▁신공	-14202
▁장막	-14203
▁Pop	-14204
▁ㅏ요	-14205
▁부회장	-14206
▁Track	-14207
▁등산	-14208
▁심리전	-14209
▁사파이어	-14210
▁되돌아오	-14211
▁에우	-14212
패드	-14213
하이	-14214
▁조회	-14215
▁DAY	-14216
▁플러그	-14217
▁는데도	-14218
▁임프	-14219
▁tw	-14220
▁귀도	-14221
▁탈것	-14222
▁인분	-14223
▁칠흑	-14224
▁토의	-14225
▁물려주	-14226
여지	-14227
▁석방	-14228
▁스켈	-14229
▁FFFF	-14230
▁온화	-14231
▁오스카	-14232
▁이상민	-14233
▁입성	-14234
▁마는	-14235
▁포르노	-14236
▁TG	-14237
▁코리	-14238
▁파드	-14239
▁국사	-14240
▁음양	-14241
▁게이밍	-14242
▁합산	-14243
▁이라든가	-14244
▁랄프	-14245
▁백신	-14246
▁선진국	-14247
▁발간	-14248
▁무찌르	-14249
▁신령	-14250
▁유민	-14251
▁차남	-14252
▁익스트림	-14253
내기	-14254
바키아	-14255
▁계약자	-14256
▁이시다	-14257
▁Cont	-14258
▁바이올렛	-14259
▁첩보	-14260
▁에스파	-14261
▁대적	-14262
▁1939	-14263
▁적정	-14264
▁경신	-14265
▁마늘	-14266
▁이분	-14267
▁나폴리	-14268
왜란	-14269
▁가네	-14270
▁우와	-14271
▁트리오	-14272
▁TN	-14273
▁네메시스	-14274
▁단절	-14275
▁프랑스군	-14276
▁각기	-14277
▁주스	-14278
▁리바이	-14279
▁임진왜란	-14280
▁아치	-14281
▁사면	-14282
▁멧돼지	-14283
▁뛰어다니	-14284
▁빵빵	-14285
▁역관	-14286
지물	-14287
▁젠지	-14288
▁황무지	-14289
▁증후	-14290
play	-14291
▁위인	-14292
▁와타루	-14293
▁팔꿈치	-14294
▁".	-14295
▁감도	-14296
▁초회	-14297
ands	-14298
▁Yes	-14299
▁명령어	-14300
▁내려찍	-14301
▁너구리	-14302
▁금성	-14303
▁뾰족	-14304
▁오피	-14305
▁이화	-14306
▁기병대	-14307
▁패트릭	-14308
▁모티	-14309
▁두드리	-14310
▁날아오르	-14311
▁광주광역시	-14312
▁207	-14313
▁이지스	-14314
34	-14315
▁화장품	-14316
▁교재	-14317
▁차세대	-14318
▁창세기	-14319
▁황자	-14320
▁플라잉	-14321
▁baby	-14322
▁노랑	-14323
두근	-14324
▁위생	-14325
▁COM	-14326
▁단백	-14327
▁청동	-14328
▁관대	-14329
▁외야	-14330
▁풋볼	-14331
▁동물원	-14332
▁티탄	-14333
▁단말기	-14334
쿠버	-14335
▁불기	-14336
ze	-14337
▁구세	-14338
▁넵튠	-14339
▁배고	-14340
▁기타리스트	-14341
바시	-14342
▁매지컬	-14343
▁분자	-14344
▁새신	-14345
▁터무니	-14346
▁래스	-14347
▁서문	-14348
▁520	-14349
▁슈타	-14350
▁유세	-14351
▁네타	-14352
▁푸드	-14353
▁각색	-14354
▁겉보기	-14355
▁good	-14356
▁바사	-14357
▁초중	-14358
▁인신	-14359
▁는구나	-14360
▁로자	-14361
▁루리웹	-14362
▁정진	-14363
▁과하	-14364
▁777	-14365
ien	-14366
▁나지	-14367
▁이터널	-14368
▁지휘자	-14369
▁채굴	-14370
그러지	-14371
▁over	-14372
▁영재	-14373
▁무어	-14374
▁트레버	-14375
▁박기	-14376
▁타협	-14377
▁붕대	-14378
▁무언가	-14379
▁나우	-14380
▁PA	-14381
아스	-14382
▁고스란히	-14383
교육	-14384
용차	-14385
▁타츠야	-14386
▁버금가	-14387
▁동거	-14388
캐스트	-14389
▁제품군	-14390
▁재해	-14391
큐버스	-14392
▁BASIC	-14393
▁들통	-14394
▁체급	-14395
▁상정	-14396
▁문호	-14397
▁친근	-14398
▁송파	-14399
▁조비	-14400
▁포화	-14401
방사기	-14402
▁화염방사기	-14403
▁천체	-14404
ited	-14405
▁Mir	-14406
▁그래프	-14407
▁최적화	-14408
▁그지	-14409
▁철벽	-14410
▁항로	-14411
▁집정관	-14412
▁몰아치	-14413
▁단연	-14414
▁독설	-14415
▁자의	-14416
▁비정	-14417
▁..'	-14418
▁IDOLM	-14419
▁보유자	-14420
▁도널드	-14421
▁성급	-14422
▁애프터	-14423
▁정제	-14424
▁라든지	-14425
겨지	-14426
▁배럴	-14427
▁일부분	-14428
▁구치	-14429
▁로로	-14430
▁한결	-14431
▁동포	-14432
▁호라이	-14433
▁크레이지	-14434
▁블라디미르	-14435
▁209	-14436
▁강호동	-14437
▁뿜어내	-14438
▁다트	-14439
▁김택용	-14440
▁부딪치	-14441
르바	-14442
▁전투복	-14443
준호	-14444
▁상류	-14445
둘기	-14446
위치	-14447
▁그토록	-14448
▁나시	-14449
▁소모품	-14450
▁미공	-14451
▁Bur	-14452
▁감속	-14453
▁순순	-14454
▁심슨	-14455
거진	-14456
파니	-14457
▁다이렉트	-14458
▁배틀필드	-14459
au	-14460
▁~'	-14461
▁선비	-14462
▁터리	-14463
▁장동민	-14464
중국	-14465
▁중령	-14466
▁col	-14467
▁자라나	-14468
▁콜롬비아	-14469
▁류지	-14470
▁선명	-14471
▁일갈	-14472
▁Project	-14473
▁억압	-14474
▁사설	-14475
블랑	-14476
▁휴전	-14477
▁로드리	-14478
▁버니	-14479
▁탈리	-14480
▁주시	-14481
▁골리앗	-14482
▁로마자	-14483
▁민병대	-14484
▁TF	-14485
▁투타	-14486
로이	-14487
▁두텁	-14488
▁김영삼	-14489
▁대제	-14490
▁시세	-14491
▁당근	-14492
▁모방	-14493
▁전류	-14494
▁은가	-14495
▁스탠딩	-14496
▁Sur	-14497
▁간장	-14498
▁신촌	-14499
▁장단	-14500
▁1400	-14501
▁안토니오	-14502
▁미유	-14503
36	-14504
▁비범	-14505
▁정직	-14506
▁단거리	-14507
▁시프트	-14508
▁마코	-14509
▁주성	-14510
▁이어폰	-14511
▁시제	-14512
▁Off	-14513
▁백수	-14514
▁차마	-14515
▁솔리드	-14516
▁최우선	-14517
▁탄수	-14518
▁투기	-14519
▁yeah	-14520
▁황족	-14521
ius	-14522
▁긴장감	-14523
▁세이지	-14524
▁현질	-14525
드리히	-14526
▁군중	-14527
▁끊이	-14528
▁운전자	-14529
▁행정부	-14530
▁비즈니스	-14531
▁톡톡	-14532
▁사바	-14533
▁사시	-14534
▁창원시	-14535
▁콥	-14536
▁증후군	-14537
▁짓밟	-14538
▁랜디	-14539
▁군단장	-14540
▁역전패	-14541
▁노마	-14542
▁써니	-14543
▁이나즈마	-14544
21	-14545
▁나탈	-14546
▁칸나	-14547
▁인스	-14548
▁KD	-14549
▁아노	-14550
▁자민	-14551
▁락스	-14552
▁글리	-14553
▁노사	-14554
▁대두	-14555
▁정연	-14556
▁침식	-14557
▁유스케	-14558
▁결별	-14559
▁찾아다니	-14560
▁사카모토	-14561
▁출세	-14562
▁아르테	-14563
▁FFFFFF	-14564
▁미토	-14565
▁제네시스	-14566
▁체조	-14567
▁선형	-14568
▁탈탈	-14569
▁Bad	-14570
▁프론티어	-14571
▁아르메	-14572
▁치히로	-14573
▁심포	-14574
▁액트	-14575
oney	-14576
HD	-14577
UK	-14578
▁루드	-14579
▁에로게	-14580
▁눌	-14581
▁동대문	-14582
▁재빠르	-14583
ata	-14584
▁마호	-14585
▁매사	-14586
▁노이	-14587
▁분전	-14588
▁템플러	-14589
AA	-14590
▁전갈	-14591
▁천도	-14592
▁스탠스	-14593
▁저력	-14594
▁WOR	-14595
▁안중	-14596
▁1938	-14597
▁가산	-14598
▁공석	-14599
▁산화	-14600
▁휘둘리	-14601
▁엠파이어	-14602
▁bo	-14603
▁순순히	-14604
▁코브라	-14605
▁욘	-14606
▁매개	-14607
▁배척	-14608
▁구애	-14609
▁관건	-14610
▁지체	-14611
▁피버	-14612
▁파열	-14613
▁데뷔작	-14614
▁Po	-14615
▁명품	-14616
▁안치	-14617
▁학업	-14618
▁유노	-14619
▁요동	-14620
▁성가시	-14621
틱스	-14622
▁Int	-14623
▁결투장	-14624
▁걸스	-14625
▁프리드리히	-14626
▁라데	-14627
▁페루	-14628
드래곤	-14629
준혁	-14630
▁면은	-14631
방식	-14632
페스트	-14633
▁ac	-14634
▁버즈	-14635
▁치프	-14636
▁리조트	-14637
INE	-14638
▁쏠리	-14639
▁티나	-14640
제이	-14641
▁산산	-14642
▁섹터	-14643
▁비올	-14644
vent	-14645
마트	-14646
▁현행	-14647
▁Are	-14648
▁영령	-14649
▁졸지	-14650
▁단번에	-14651
▁메이크	-14652
렁이	-14653
▁조류	-14654
▁오아	-14655
▁자본주의	-14656
감치	-14657
▁올리버	-14658
▁Ul	-14659
▁응징	-14660
▁조로	-14661
▁때때로	-14662
▁마리사	-14663
▁멀린	-14664
찌감치	-14665
▁메두사	-14666
▁튜브	-14667
▁DDR	-14668
토미	-14669
▁입법	-14670
▁say	-14671
▁꼼짝	-14672
▁외래어	-14673
▁아만	-14674
▁두께	-14675
▁총구	-14676
고루	-14677
▁275	-14678
▁성유	-14679
▁카논	-14680
▁츠바키	-14681
▁#,	-14682
▁잿	-14683
▁WCS	-14684
▁하늘색	-14685
▁외침	-14686
▁마공	-14687
line	-14688
▁즉석	-14689
▁다이크	-14690
▁블루스	-14691
▁애틀	-14692
▁노스케	-14693
▁팻	-14694
컨대	-14695
▁샌디	-14696
▁Ass	-14697
▁음모론	-14698
▁JC	-14699
▁대장장이	-14700
▁브리핑	-14701
▁쌩	-14702
▁엇갈리	-14703
▁광학	-14704
비언	-14705
▁'-	-14706
▁소량	-14707
▁갱단	-14708
▁프라이즈	-14709
▁거듭나	-14710
▁TWICE	-14711
▁PvP	-14712
▁법무부	-14713
▁아츠시	-14714
▁신한은행	-14715
▁로미	-14716
▁베른	-14717
▁org	-14718
홍철	-14719
▁용품	-14720
▁만화책	-14721
▁가와	-14722
▁괴멸	-14723
▁시발	-14724
▁221	-14725
툭튀	-14726
▁치아	-14727
▁쿼드	-14728
▁행각	-14729
▁릭스	-14730
▁애틀랜	-14731
UL	-14732
▁래쉬	-14733
▁몬테	-14734
▁사생활	-14735
▁건립	-14736
▁수뇌	-14737
▁노후	-14738
▁레베	-14739
▁재혼	-14740
▁쪽지	-14741
ague	-14742
▁란트	-14743
▁교직원	-14744
▁수군	-14745
▁척하	-14746
▁노동당	-14747
▁즘	-14748
규어	-14749
▁갑툭튀	-14750
▁폭군	-14751
▁폭투	-14752
세이더	-14753
▁AMD	-14754
▁크루세이더	-14755
▁발트	-14756
▁패미컴	-14757
▁거유	-14758
▁정자	-14759
▁아쉬워하	-14760
▁부합	-14761
▁에프	-14762
▁최진	-14763
그래	-14764
▁뒤바	-14765
ton	-14766
▁케미	-14767
▁ㄴ다든가	-14768
어들이	-14769
▁see	-14770
▁번거	-14771
▁Eng	-14772
▁빼놓	-14773
▁시애	-14774
▁헬로	-14775
▁여행자	-14776
▁샌드박스	-14777
▁대관	-14778
▁시오리	-14779
▁Match	-14780
▁셔츠	-14781
ck	-14782
UST	-14783
▁제드	-14784
▁경전차	-14785
▁수영장	-14786
▁경비원	-14787
78	-14788
▁희미	-14789
▁중소기업	-14790
▁커맨더	-14791
▁길목	-14792
▁피크	-14793
▁클로버	-14794
▁Char	-14795
▁모치	-14796
▁케르	-14797
▁힘쓰	-14798
▁짤막	-14799
▁릉	-14800
▁제각	-14801
▁요르	-14802
▁타케루	-14803
▁홈구장	-14804
매매	-14805
의지	-14806
피탈	-14807
▁세토	-14808
▁시르	-14809
▁여명	-14810
▁치밀	-14811
▁막아서	-14812
▁시립	-14813
▁앞쪽	-14814
▁진공	-14815
▁하얀	-14816
▁바이퍼	-14817
▁부녀	-14818
▁플로리다	-14819
▁고원	-14820
▁fr	-14821
▁수도원	-14822
▁기린	-14823
매치	-14824
▁아재	-14825
▁부두	-14826
▁메르시	-14827
▁1952	-14828
und	-14829
▁조원	-14830
▁퇴마	-14831
▁아카기	-14832
▁데스매치	-14833
▁방대	-14834
▁탈주	-14835
▁힘겹	-14836
▁데이비스	-14837
▁XY	-14838
▁케어	-14839
▁Now	-14840
나들	-14841
장구	-14842
▁가쿠	-14843
▁슬쩍	-14844
▁여덟	-14845
레즈	-14846
▁유시	-14847
▁헤븐	-14848
▁볼일	-14849
▁RED	-14850
erm	-14851
▁타가	-14852
▁슬래시	-14853
▁엘소드	-14854
ute	-14855
▁일선	-14856
▁앨리	-14857
▁노드	-14858
▁레비	-14859
▁최형	-14860
▁금곡	-14861
▁리벤	-14862
▁욕먹	-14863
▁트레인	-14864
▁티타	-14865
▁자판기	-14866
▁저스틴	-14867
천역	-14868
▁묵직	-14869
▁넘쳐나	-14870
▁사업자	-14871
▁일직선	-14872
▁리언	-14873
▁히이	-14874
자루	-14875
▁리히	-14876
▁우동	-14877
▁조인	-14878
▁우이	-14879
ILL	-14880
▁브란	-14881
▁농촌	-14882
▁위조	-14883
▁시애틀	-14884
▁일정량	-14885
▁루즈	-14886
▁216	-14887
맹이	-14888
▁흉터	-14889
▁Core	-14890
▁정적	-14891
▁선하	-14892
▁세단	-14893
▁스스	-14894
▁환불	-14895
▁햇빛	-14896
▁재규어	-14897
▁right	-14898
일관	-14899
▁소름	-14900
▁매거진	-14901
▁수속	-14902
▁츠치	-14903
▁명장면	-14904
▁발렌시아	-14905
▁도보	-14906
▁매점	-14907
▁화랑	-14908
▁바흐	-14909
▁스노	-14910
▁눈부시	-14911
▁악인	-14912
▁유배	-14913
▁Blood	-14914
▁가주	-14915
▁댈	-14916
▁로니	-14917
▁부끄	-14918
▁현수	-14919
▁티셔츠	-14920
▁다크니스	-14921
▁모건	-14922
▁농어촌	-14923
▁고모	-14924
▁눕히	-14925
▁센트리	-14926
red	-14927
▁관전	-14928
▁누님	-14929
▁오일	-14930
▁BW	-14931
▁마토	-14932
▁럭스	-14933
▁416	-14934
▁충실히	-14935
▁}}}}	-14936
▁대장군	-14937
▁2021	-14938
▁해저	-14939
아내리	-14940
hy	-14941
▁213	-14942
▁아틀라스	-14943
▁고베	-14944
▁무모	-14945
▁헤라클레스	-14946
▁숙명	-14947
▁충동	-14948
▁Joh	-14949
▁our	-14950
▁서스	-14951
▁심부	-14952
▁후후	-14953
▁세무	-14954
▁코칭	-14955
▁헌병	-14956
▁동국	-14957
▁기공	-14958
▁장녀	-14959
▁}}}}}}	-14960
▁조슈	-14961
▁아득	-14962
▁BRV	-14963
▁충공	-14964
▁Rob	-14965
▁분수	-14966
▁능동	-14967
▁건너편	-14968
▁학부모	-14969
▁선글라스	-14970
▁애리	-14971
▁햄버거	-14972
▁국물	-14973
▁후리	-14974
▁에테르	-14975
정동	-14976
▁평안	-14977
▁기염	-14978
▁시빌	-14979
▁아리사	-14980
▁레그	-14981
▁마사무네	-14982
▁간편	-14983
▁퍼시픽	-14984
55	-14985
게임넷	-14986
▁Ook	-14987
▁온게임넷	-14988
▁국정원	-14989
▁세실	-14990
▁야자	-14991
애미	-14992
▁사납	-14993
▁BBC	-14994
▁비둘기	-14995
ism	-14996
수엘라	-14997
▁짊	-14998
▁경의	-14999
▁친선	-15000
▁보이드	-15001
▁마이애미	-15002
▁선천	-15003
▁소망	-15004
코스	-15005
▁둔화	-15006
▁강남구	-15007
▁사쿠야	-15008
▁Last	-15009
▁모탈	-15010
▁속사	-15011
▁1300	-15012
▁재화	-15013
▁중사	-15014
▁병신	-15015
▁필기	-15016
▁1953	-15017
▁급상	-15018
▁방어전	-15019
▁cr	-15020
▁여하	-15021
▁친화	-15022
▁여느	-15023
▁회자	-15024
▁블리츠	-15025
III	-15026
▁테츠야	-15027
▁익스프레스	-15028
조작	-15029
▁슬라이딩	-15030
▁돌풍	-15031
어내리	-15032
OCK	-15033
▁앞장	-15034
▁미니게임	-15035
▁리시	-15036
▁임상	-15037
▁레이크	-15038
▁근래	-15039
▁필승	-15040
▁악질	-15041
▁완패	-15042
▁기생충	-15043
▁디트로	-15044
▁승부조작	-15045
▁승부차기	-15046
▁디트로이트	-15047
▁찜	-15048
▁서유	-15049
▁튀김	-15050
▁검찰청	-15051
미사	-15052
뿌리	-15053
▁기통	-15054
▁과다	-15055
▁소아	-15056
▁순삭	-15057
▁자자	-15058
▁기판	-15059
▁벤트	-15060
▁국수	-15061
▁타오르	-15062
▁서인	-15063
ets	-15064
▁쓸쓸	-15065
▁자가	-15066
▁직계	-15067
88	-15068
▁안식	-15069
▁경영학	-15070
▁통학	-15071
▁암흑기	-15072
타기	-15073
▁가세	-15074
▁세레나	-15075
▁재판소	-15076
▁구미호	-15077
▁두근두근	-15078
▁단백질	-15079
▁pe	-15080
▁토코	-15081
▁표명	-15082
미츠	-15083
▁조선일보	-15084
▁무네	-15085
▁호우	-15086
▁전고	-15087
괭이	-15088
add	-15089
▁마취	-15090
▁백룡	-15091
▁알비	-15092
▁사병	-15093
▁그해	-15094
▁눈썹	-15095
▁진해	-15096
▁풍속	-15097
▁극성	-15098
▁아종	-15099
▁희생양	-15100
▁피신	-15101
▁해프	-15102
▁유소년	-15103
▁쩌	-15104
▁토사	-15105
▁데스크	-15106
▁잽	-15107
OWN	-15108
▁NA	-15109
▁엘런	-15110
▁료마	-15111
▁시라이	-15112
▁업종	-15113
▁홉	-15114
그마	-15115
▁비석	-15116
▁재선	-15117
▁총대	-15118
▁나뭇잎	-15119
▁베네수엘라	-15120
▁암기	-15121
▁이천	-15122
▁동산	-15123
이프	-15124
▁활주로	-15125
▁데일리	-15126
▁Magic	-15127
포로	-15128
▁팬클럽	-15129
▁권고	-15130
▁7000	-15131
▁RR	-15132
▁가넷	-15133
▁초딩	-15134
▁침체	-15135
▁양도	-15136
▁이의	-15137
▁재미없	-15138
▁중화기	-15139
▁피칭	-15140
니지	-15141
▁볼리	-15142
ama	-15143
▁덤벼	-15144
▁이대호	-15145
▁농부	-15146
▁사위	-15147
▁서약	-15148
▁경희대	-15149
▁드래곤즈	-15150
▁날라	-15151
▁총사령관	-15152
▁고갈	-15153
▁포진	-15154
▁Like	-15155
▁there	-15156
▁이도	-15157
▁메탈기어	-15158
외선	-15159
▁박태	-15160
▁차출	-15161
▁사력	-15162
▁프라이드	-15163
▁이메	-15164
▁영화관	-15165
▁조세	-15166
▁갈아입	-15167
▁거미줄	-15168
▁그물	-15169
▁사단장	-15170
▁HOT	-15171
▁방관	-15172
▁Alb	-15173
▁불안감	-15174
▁니즘	-15175
▁드래그	-15176
▁첨가	-15177
▁히코	-15178
▁자멸	-15179
▁금하	-15180
▁아킬	-15181
▁자정	-15182
▁매그넘	-15183
장판	-15184
▁반달	-15185
▁정종	-15186
▁불허	-15187
▁방정식	-15188
▁카츠키	-15189
니르	-15190
▁몽땅	-15191
▁화룡	-15192
▁낙하산	-15193
▁잔여	-15194
▁수송선	-15195
▁프랭클린	-15196
▁케니	-15197
▁잘생기	-15198
▁신종	-15199
▁원어	-15200
▁거리표	-15201
▁관광지	-15202
▁Soul	-15203
▁Happy	-15204
▁이범	-15205
ther	-15206
▁해프닝	-15207
탕스	-15208
▁상하이	-15209
▁성남시	-15210
▁레지스탕스	-15211
▁권역	-15212
▁몸집	-15213
▁사역	-15214
▁악보	-15215
▁혼나	-15216
▁남극	-15217
▁RPM	-15218
▁화판	-15219
▁거니와	-15220
▁토토	-15221
▁퍼니	-15222
▁연안	-15223
▁뒤쳐지	-15224
▁테슬라	-15225
▁정윤	-15226
ader	-15227
▁쌈	-15228
▁성동	-15229
▁텐더	-15230
ERF	-15231
▁대입	-15232
▁장기전	-15233
▁범주	-15234
▁순조	-15235
▁음란	-15236
▁사비	-15237
▁철퇴	-15238
▁마키나	-15239
▁이목	-15240
▁Nor	-15241
▁기어이	-15242
▁베르크	-15243
▁포레스트	-15244
이인	-15245
▁223	-15246
▁대의	-15247
▁룽	-15248
▁미나토	-15249
▁비대	-15250
▁하자드	-15251
▁막말	-15252
▁이로	-15253
▁리포	-15254
▁본드	-15255
▁클라우	-15256
▁임용	-15257
▁체구	-15258
▁큰일	-15259
▁아레스	-15260
자국	-15261
▁미달	-15262
▁비룡	-15263
▁역설	-15264
▁전과	-15265
▁TT	-15266
▁법정동	-15267
▁체로	-15268
니치	-15269
▁란다	-15270
▁사요	-15271
▁엑셀	-15272
▁영조	-15273
▁코로	-15274
▁his	-15275
▁깜빡	-15276
▁조나	-15277
트리스	-15278
▁읊	-15279
▁김소	-15280
▁치키	-15281
▁바트	-15282
▁선역	-15283
▁정대	-15284
▁골고루	-15285
부리	-15286
▁who	-15287
▁산체스	-15288
▁하이브	-15289
▁계승자	-15290
▁마크로스	-15291
▁코팅	-15292
▁Party	-15293
▁네로	-15294
▁삽입곡	-15295
▁맨날	-15296
▁무당	-15297
▁임페	-15298
▁쿠도	-15299
▁365	-15300
▁주임	-15301
▁레프트	-15302
▁멱	-15303
ocal	-15304
베이스	-15305
▁시종일관	-15306
▁net	-15307
벅지	-15308
▁수법	-15309
▁일찌감치	-15310
▁미용	-15311
▁충공깽	-15312
▁watch	-15313
▁문성	-15314
▁백지	-15315
▁got	-15316
▁크리드	-15317
▁Side	-15318
▁투석	-15319
▁해결책	-15320
▁용왕	-15321
▁남친	-15322
▁식인	-15323
▁음식점	-15324
▁GX	-15325
▁교향곡	-15326
▁감염자	-15327
▁동명이인	-15328
▁내리치	-15329
▁1957	-15330
▁덕택	-15331
▁산호	-15332
▁성희	-15333
▁girl	-15334
▁아르메니아	-15335
▁연성	-15336
▁역과	-15337
▁도입부	-15338
uz	-15339
▁ㄴ답	-15340
▁폐하	-15341
▁Sim	-15342
▁붉은색	-15343
▁장학금	-15344
▁Show	-15345
형제	-15346
▁시위대	-15347
▁ㄴ다든지	-15348
▁노원	-15349
▁공중전	-15350
▁여대	-15351
▁청문	-15352
OWER	-15353
▁크로노스	-15354
▁장담	-15355
▁사우디아	-15356
▁격납	-15357
▁수납	-15358
▁며느리	-15359
▁IF	-15360
▁민트	-15361
▁얌전	-15362
▁적기	-15363
ga	-15364
▁성범죄	-15365
▁에티	-15366
▁이쁘	-15367
▁경합	-15368
▁후려치	-15369
▁Edition	-15370
BOX	-15371
▁Open	-15372
ONE	-15373
▁에러	-15374
▁아유미	-15375
▁feel	-15376
▁남아공	-15377
▁보급품	-15378
▁진행하	-15379
▁뜬공	-15380
ated	-15381
▁링컨	-15382
▁특출나	-15383
▁쟁탈전	-15384
▁에어리어	-15385
▁전복	-15386
▁370	-15387
▁브라이	-15388
▁이츠키	-15389
▁잣	-15390
▁크리에이터	-15391
▁일기토	-15392
▁카메오	-15393
더리	-15394
rew	-15395
▁작물	-15396
▁타지	-15397
▁스피리	-15398
▁위태	-15399
▁플랫폼	-15400
84	-15401
▁레타	-15402
▁재무	-15403
▁토카	-15404
▁능욕	-15405
▁시커	-15406
▁내려지	-15407
▁임페리얼	-15408
▁터프	-15409
▁헤지	-15410
▁Cap	-15411
▁알파벳	-15412
▁부러	-15413
▁Way	-15414
▁급상승	-15415
▁김호	-15416
▁카터	-15417
▁왕건	-15418
▁빽	-15419
▁충주	-15420
▁Und	-15421
▁만악	-15422
▁바람직	-15423
▁인플레	-15424
ASS	-15425
▁평정	-15426
ley	-15427
▁유수	-15428
▁윤성	-15429
▁대변인	-15430
▁라이토	-15431
amu	-15432
▁구루	-15433
▁신년	-15434
▁Mark	-15435
▁민족주의	-15436
▁키쿠	-15437
work	-15438
▁구라	-15439
▁떨리	-15440
▁베르나	-15441
▁아프가	-15442
▁변함	-15443
▁바운드	-15444
▁복권	-15445
▁주루	-15446
▁특권	-15447
▁활약상	-15448
▁효력	-15449
▁무서	-15450
▁시드니	-15451
▁쿠폰	-15452
▁총재	-15453
▁토우마	-15454
▁남짓	-15455
▁전령	-15456
ster	-15457
▁푸쉬	-15458
▁후카	-15459
▁지자체	-15460
▁짊어지	-15461
hammer	-15462
▁몸체	-15463
▁의존도	-15464
▁헤더	-15465
▁경순양함	-15466
ird	-15467
▁알맞	-15468
▁맞대결	-15469
▁1947	-15470
▁잠식	-15471
▁정경	-15472
▁플레인	-15473
▁선지	-15474
▁맞춤	-15475
▁상임	-15476
▁익명	-15477
▁Angel	-15478
▁돗	-15479
선거	-15480
피드	-15481
▁누락	-15482
▁소주	-15483
▁화끈	-15484
▁Pol	-15485
▁이끌리	-15486
▁디에고	-15487
▁하시모토	-15488
▁꼭대기	-15489
▁출연자	-15490
▁프레드	-15491
▁천연가스	-15492
▁퍼트	-15493
▁희박	-15494
벨트	-15495
▁생포	-15496
▁도호쿠	-15497
▁벌어들이	-15498
▁소탕	-15499
▁입상	-15500
▁중추	-15501
▁SKE	-15502
▁근황	-15503
▁저항군	-15504
▁기각	-15505
▁옵스	-15506
▁항우	-15507
▁FBI	-15508
▁성주	-15509
▁유하	-15510
▁그리폰	-15511
▁의류	-15512
▁에어컨	-15513
▁자위	-15514
▁Val	-15515
▁무패	-15516
▁미카엘	-15517
▁알루미	-15518
▁블루투스	-15519
▁어쩌다	-15520
▁Na	-15521
▁화질	-15522
▁알코	-15523
▁엠마	-15524
▁헌납	-15525
▁버퍼	-15526
▁벼락	-15527
▁분과	-15528
▁허니	-15529
▁아야노	-15530
▁하반신	-15531
▁부디	-15532
▁수족	-15533
▁절약	-15534
▁행세	-15535
▁방영일	-15536
▁배수량	-15537
▁댈러스	-15538
▁이유로	-15539
▁Comp	-15540
▁micro	-15541
▁카트리	-15542
▁통역	-15543
▁오리콘	-15544
▁한성	-15545
라비아	-15546
▁명은	-15547
▁복각	-15548
▁투표율	-15549
▁ㄴ데다가	-15550
▁흐트	-15551
레톤	-15552
▁교무실	-15553
IVE	-15554
▁유교	-15555
▁화보	-15556
더스트	-15557
▁950	-15558
▁역전재판	-15559
▁선별	-15560
▁ㄴ대	-15561
▁비열	-15562
▁재주	-15563
▁그제서야	-15564
▁스켈레톤	-15565
▁대도	-15566
▁봄버	-15567
▁234	-15568
▁금서	-15569
▁공시	-15570
▁수분	-15571
▁활기	-15572
▁트라웃	-15573
▁점포	-15574
▁추위	-15575
▁과잉	-15576
▁상경	-15577
▁물음	-15578
▁비운	-15579
▁예매	-15580
▁촛불	-15581
▁틀어막	-15582
▁애틀랜타	-15583
혀가	-15584
▁꾀하	-15585
▁엑스맨	-15586
▁아프가니스탄	-15587
캐슬	-15588
▁Stage	-15589
▁상고	-15590
부수	-15591
▁레테	-15592
▁연기자	-15593
▁잡혀가	-15594
▁로버	-15595
▁수박	-15596
▁양평	-15597
▁개화	-15598
▁부토	-15599
▁경비병	-15600
▁내공	-15601
▁구비	-15602
▁Fly	-15603
▁엎드리	-15604
▁불분	-15605
▁알몸	-15606
▁상승세	-15607
▁아스타	-15608
▁전념	-15609
▁반대쪽	-15610
▁미공개	-15611
▁life	-15612
▁시연	-15613
▁엄폐물	-15614
지기	-15615
▁249	-15616
74	-15617
고생	-15618
▁후작	-15619
해군	-15620
▁치토	-15621
▁가중	-15622
▁온전	-15623
▁박병호	-15624
▁베아	-15625
▁무방비	-15626
▁피쳐	-15627
▁번영	-15628
▁신민	-15629
▁수뇌부	-15630
▁Fall	-15631
▁090	-15632
▁전염병	-15633
▁Legend	-15634
▁검도	-15635
▁엘더스	-15636
▁First	-15637
▁단타	-15638
▁머릿속	-15639
▁거라	-15640
▁뉴캐슬	-15641
▁쥴	-15642
▁유한	-15643
무로	-15644
▁사죄	-15645
▁김구라	-15646
▁219	-15647
▁중공업	-15648
닥치	-15649
▁겸비	-15650
▁미처	-15651
▁좌완	-15652
▁중론	-15653
▁245	-15654
▁막론	-15655
▁승승	-15656
▁이석	-15657
▁중순양함	-15658
▁키사라기	-15659
치오	-15660
▁개더링	-15661
stem	-15662
▁엘릭	-15663
▁웨딩	-15664
소니	-15665
▁조현	-15666
▁검기	-15667
▁마운틴	-15668
▁불분명	-15669
ura	-15670
▁불가피	-15671
▁어설트	-15672
▁호라이즌	-15673
▁전경	-15674
▁빅토리	-15675
▁랍시고	-15676
▁갑주	-15677
▁이관	-15678
▁빌헬	-15679
▁포메	-15680
▁껴	-15681
▁진범	-15682
▁바드	-15683
▁Free	-15684
▁Perf	-15685
건설	-15686
▁코일	-15687
▁유다	-15688
▁투르	-15689
▁후세	-15690
▁오바마	-15691
▁급습	-15692
▁세조	-15693
▁그리스어	-15694
tm	-15695
▁부기	-15696
▁덩달	-15697
▁이문	-15698
▁자바	-15699
▁판과	-15700
▁경전철	-15701
슬쩍	-15702
▁손책	-15703
▁총회	-15704
▁오카다	-15705
▁알루미늄	-15706
▁오리지날	-15707
▁자유주의	-15708
▁겁쟁이	-15709
▁Break	-15710
▁메츠	-15711
▁죄인	-15712
▁540	-15713
▁스튜어트	-15714
▁Er	-15715
▁김신	-15716
▁복부	-15717
▁티거	-15718
udio	-15719
▁만화가	-15720
▁프리드	-15721
▁준장	-15722
▁질질	-15723
▁허술	-15724
▁카자마	-15725
▁언론사	-15726
레일리아	-15727
▁콩두	-15728
▁아벨	-15729
▁top	-15730
▁송병구	-15731
▁Class	-15732
가요	-15733
▁로페	-15734
▁체내	-15735
▁명백히	-15736
▁노프	-15737
▁푸른색	-15738
▁부우	-15739
▁How	-15740
▁성우진	-15741
▁명실	-15742
▁무소	-15743
▁소폭	-15744
▁운임	-15745
ling	-15746
▁Final	-15747
▁수혜	-15748
▁대리인	-15749
▁무리수	-15750
▁유죄	-15751
▁케로로	-15752
err	-15753
▁비평	-15754
▁선상	-15755
피어	-15756
▁쇼군	-15757
▁쌍용	-15758
▁악수	-15759
▁열렬	-15760
▁졸리	-15761
페어	-15762
▁잠자	-15763
▁유체	-15764
▁오우거	-15765
▁베끼	-15766
▁GDP	-15767
▁If	-15768
▁440	-15769
▁동유럽	-15770
▁뛰어내리	-15771
▁파워레인저	-15772
▁법조	-15773
TH	-15774
▁창출	-15775
yes	-15776
▁신격	-15777
▁Never	-15778
▁수제	-15779
▁앤더슨	-15780
▁지명타자	-15781
▁루기	-15782
▁망각	-15783
▁베레	-15784
▁자치령	-15785
▁쥬라기	-15786
▁로토	-15787
▁엠블럼	-15788
▁City	-15789
▁뚱뚱	-15790
▁세가	-15791
▁잔재	-15792
▁한승	-15793
▁Spring	-15794
▁나카노	-15795
▁빈센트	-15796
▁평지	-15797
▁힘내	-15798
▁김정일	-15799
arius	-15800
▁밀러	-15801
▁슬래	-15802
▁조니	-15803
영수	-15804
▁또래	-15805
▁하얀색	-15806
ux	-15807
▁번번	-15808
▁벤츠	-15809
▁중파	-15810
▁Cor	-15811
▁사우디아라비아	-15812
▁봉하	-15813
▁Down	-15814
▁제복	-15815
▁카라스	-15816
▁김제	-15817
▁224	-15818
▁동급생	-15819
AGE	-15820
▁MAN	-15821
▁안테나	-15822
▁사냥터	-15823
▁이니셜	-15824
▁무안타	-15825
▁품종	-15826
그라드	-15827
ause	-15828
▁이시카와	-15829
▁하나님	-15830
▁분화	-15831
▁1951	-15832
고쿠	-15833
▁일개	-15834
▁Mon	-15835
▁AW	-15836
▁린다	-15837
▁자재	-15838
▁한국군	-15839
▁띵	-15840
▁신태	-15841
▁난장판	-15842
▁광폭	-15843
▁우먼	-15844
▁PRO	-15845
▁체크카드	-15846
▁선후	-15847
▁우려먹	-15848
▁의뢰인	-15849
▁걷어	-15850
▁지중	-15851
▁삿포로	-15852
▁티라노	-15853
▁청주시	-15854
피온	-15855
▁버겁	-15856
▁시녀	-15857
▁섣	-15858
▁어로	-15859
▁뛰어오르	-15860
▁하쿠	-15861
즐리	-15862
tain	-15863
▁팰리스	-15864
제리	-15865
영향	-15866
▁sk	-15867
▁직진	-15868
▁편도	-15869
▁나오키	-15870
스부르크	-15871
▁도메	-15872
▁마석	-15873
▁세이부	-15874
▁KCC	-15875
▁cont	-15876
▁대전광역시	-15877
▁굴러가	-15878
▁바알	-15879
▁한중	-15880
▁GOT	-15881
▁베토	-15882
▁전우	-15883
현동	-15884
▁오스틴	-15885
▁1914	-15886
▁성품	-15887
▁메가트론	-15888
REME	-15889
라이언트	-15890
▁최원	-15891
▁사복	-15892
▁연호	-15893
▁니퍼	-15894
▁BP	-15895
▁마자	-15896
▁승계	-15897
▁오산	-15898
블루	-15899
▁ㅏ라	-15900
▁맥시	-15901
▁성령	-15902
▁반납	-15903
▁끝없이	-15904
▁클라이언트	-15905
▁젓	-15906
▁엠블렘	-15907
▁9000	-15908
▁불발	-15909
▁저음	-15910
IME	-15911
▁염동	-15912
▁서스펜	-15913
▁레니	-15914
▁이형	-15915
▁숙지	-15916
▁226	-15917
재욱	-15918
▁베로	-15919
▁청취	-15920
▁판본	-15921
▁행군	-15922
▁랠	-15923
▁짱구	-15924
▁건축물	-15925
▁투여	-15926
▁결단	-15927
리히	-15928
▁Sn	-15929
▁주주	-15930
칼리버	-15931
raft	-15932
갔다	-15933
▁인승	-15934
신기	-15935
▁수전	-15936
▁밸브	-15937
▁저널	-15938
▁현무	-15939
▁알트	-15940
▁애시당초	-15941
▁순항	-15942
▁Swe	-15943
▁야스오	-15944
▁위닝	-15945
▁시리우스	-15946
다듬	-15947
▁구이	-15948
▁마카오	-15949
▁코우지	-15950
▁이송	-15951
▁입당	-15952
▁end	-15953
erry	-15954
▁신봉	-15955
▁Mem	-15956
▁위저드	-15957
▁소란	-15958
▁허벅지	-15959
김없이	-15960
나시	-15961
▁"'	-15962
▁말살	-15963
▁서동	-15964
▁스투	-15965
▁시프	-15966
iny	-15967
▁정치력	-15968
안군	-15969
▁곡사	-15970
▁광동	-15971
▁악장	-15972
▁회유	-15973
▁공채	-15974
▁밀접	-15975
▁어지럽	-15976
코스터	-15977
▁가늠	-15978
▁최형우	-15979
▁니즈	-15980
▁야인	-15981
▁국무총리	-15982
▁꾹	-15983
평균	-15984
▁박하	-15985
▁체하	-15986
▁make	-15987
▁명왕	-15988
▁샬롯	-15989
▁슬러	-15990
▁다이빙	-15991
▁예술가	-15992
▁훈련소	-15993
▁티모	-15994
▁롤러코스터	-15995
▁사생	-15996
▁슬립	-15997
▁몸싸움	-15998
▁변속기	-15999
대표	-16000
▁리제	-16001
▁월터	-16002
▁서재	-16003
▁페달	-16004
▁숨결	-16005
▁요양	-16006
▁후하	-16007
▁쇼타	-16008
▁브래드	-16009
83	-16010
▁합금	-16011
▁보호자	-16012
▁그레이브	-16013
테라	-16014
▁011	-16015
▁빙글	-16016
▁허다	-16017
▁시메	-16018
▁평준	-16019
▁얍	-16020
▁양양	-16021
▁블로킹	-16022
▁자택	-16023
▁베네치아	-16024
소통	-16025
▁1937	-16026
▁의사소통	-16027
▁칼질	-16028
▁호각	-16029
▁APC	-16030
▁검색어	-16031
▁반죽	-16032
▁야말로	-16033
de	-16034
▁험악	-16035
▁고뇌	-16036
▁생계	-16037
▁에버튼	-16038
▁미약	-16039
▁방망	-16040
▁과반	-16041
▁노선도	-16042
▁오스트레일리아	-16043
▁폴라	-16044
ival	-16045
테리어	-16046
▁세계수	-16047
살렘	-16048
▁어시	-16049
▁play	-16050
▁토바	-16051
▁탄두	-16052
▁포자	-16053
▁사츠키	-16054
▁보성	-16055
▁조개	-16056
▁착수	-16057
▁제너럴	-16058
▁코요미	-16059
▁RX	-16060
루살렘	-16061
리즘	-16062
▁크리스토퍼	-16063
걸음	-16064
▁반려	-16065
요리	-16066
▁캠핑	-16067
▁키치	-16068
▁중산	-16069
▁애리조	-16070
▁착취	-16071
▁끌어오	-16072
▁강령	-16073
▁카르텔	-16074
▁어우러지	-16075
▁뺑	-16076
▁간절	-16077
▁린이	-16078
▁이강	-16079
▁큐트	-16080
가르드	-16081
▁연구자	-16082
▁ㅈ	-16083
▁만우	-16084
▁건의	-16085
▁사오	-16086
▁양말	-16087
▁피그	-16088
▁잔소리	-16089
▁Christ	-16090
▁김은	-16091
▁PT	-16092
▁원성	-16093
▁야마자키	-16094
사람	-16095
▁톱니	-16096
▁사상자	-16097
ATE	-16098
▁일생	-16099
▁part	-16100
▁차오르	-16101
▁원상	-16102
▁판단력	-16103
▁츳	-16104
▁쌍검	-16105
▁펠트	-16106
▁375	-16107
RO	-16108
▁라리	-16109
▁받아치	-16110
▁근위	-16111
▁래리	-16112
▁면도	-16113
▁지하실	-16114
▁경시	-16115
▁생방송	-16116
먼드	-16117
▁박차	-16118
▁춘추	-16119
▁디럭스	-16120
모델	-16121
하니	-16122
▁매도	-16123
▁흉기	-16124
22	-16125
▁사찰	-16126
▁위아	-16127
▁aqu	-16128
que	-16129
▁편애	-16130
▁233	-16131
▁슴	-16132
▁외장	-16133
▁이롭	-16134
▁찬사	-16135
▁정무	-16136
▁미도	-16137
▁사하	-16138
▁컬링	-16139
▁410	-16140
▁Hol	-16141
▁골짜기	-16142
▁Come	-16143
썰트	-16144
임수	-16145
▁고안	-16146
나가와	-16147
▁어썰트	-16148
넌트	-16149
▁성원	-16150
▁유승민	-16151
▁러스트	-16152
▁김한	-16153
▁EXTREME	-16154
ONG	-16155
▁again	-16156
린더	-16157
▁슈리	-16158
▁충원	-16159
이즈미	-16160
▁애니메이터	-16161
▁노획	-16162
▁태후	-16163
전함	-16164
▁줄리아	-16165
▁예루살렘	-16166
▁설진	-16167
▁양지	-16168
▁오보	-16169
▁악영향	-16170
▁스테이크	-16171
▁악평	-16172
▁투수진	-16173
▁애니플러스	-16174
▁고철	-16175
▁곧장	-16176
▁한복	-16177
▁아르타	-16178
▁이달	-16179
▁필적	-16180
▁Club	-16181
lo	-16182
▁KE	-16183
idd	-16184
▁레코	-16185
▁북서	-16186
▁싱크로	-16187
▁앤드류	-16188
▁깍	-16189
ino	-16190
▁급여	-16191
▁성시	-16192
▁물러서	-16193
erg	-16194
▁조승	-16195
▁화가	-16196
▁만우절	-16197
▁진전	-16198
▁노홍철	-16199
▁겉모습	-16200
▁이메일	-16201
▁식별	-16202
▁실탄	-16203
▁전패	-16204
▁포상	-16205
▁대구경	-16206
▁편집자	-16207
▁MIX	-16208
▁다마	-16209
▁레이카	-16210
▁앞장서	-16211
일기	-16212
▁명확히	-16213
▁hp	-16214
▁순례	-16215
▁파탄	-16216
▁황소	-16217
▁둔기	-16218
▁소프	-16219
▁스맥	-16220
▁블레	-16221
▁스맥다운	-16222
▁린치	-16223
▁백병	-16224
▁never	-16225
▁류우	-16226
▁수퍼	-16227
▁Cry	-16228
▁코러스	-16229
▁레전더리	-16230
▁길래	-16231
▁적과	-16232
▁항쟁	-16233
ya	-16234
▁알코올	-16235
▁에노	-16236
▁오승	-16237
▁진기	-16238
▁김종국	-16239
▁스미레	-16240
▁레볼루션	-16241
▁수산	-16242
▁폰트	-16243
베르크	-16244
▁다그	-16245
▁차우	-16246
aker	-16247
▁그분	-16248
▁재차	-16249
▁성희롱	-16250
▁개칭	-16251
▁세카	-16252
▁참모총장	-16253
▁블랑	-16254
▁성취	-16255
▁코만	-16256
▁미완성	-16257
▁어부	-16258
▁본거지	-16259
▁멩	-16260
▁유원	-16261
▁절감	-16262
▁적어지	-16263
▁안장	-16264
▁퍼플	-16265
▁슬로건	-16266
▁교목	-16267
▁시어터	-16268
MC	-16269
▁귤	-16270
▁SMG	-16271
▁미네랄	-16272
▁성소	-16273
▁강서구	-16274
▁인원수	-16275
해야	-16276
▁xx	-16277
▁WHIP	-16278
▁heart	-16279
▁음력	-16280
▁이바	-16281
▁이장	-16282
▁땜	-16283
▁라이덴	-16284
이라	-16285
▁마우	-16286
▁증표	-16287
▁틈새	-16288
공주	-16289
▁티격	-16290
▁CIA	-16291
▁독도	-16292
▁밧줄	-16293
▁어려	-16294
▁치과	-16295
▁악세사리	-16296
▁환원	-16297
▁어휘	-16298
▁동탄	-16299
▁루시안	-16300
▁벳	-16301
▁거머	-16302
▁불거지	-16303
회의	-16304
▁KA	-16305
▁카오	-16306
▁has	-16307
▁신드	-16308
▁정시	-16309
▁뻐	-16310
▁머독	-16311
BY	-16312
▁관용	-16313
▁제명	-16314
▁이에야스	-16315
▁밤중	-16316
▁신빙	-16317
▁이탈리아어	-16318
▁Ah	-16319
▁쇼코	-16320
▁수당	-16321
▁실감	-16322
▁동결	-16323
▁설문	-16324
▁하남	-16325
▁격변	-16326
▁거든요	-16327
관계	-16328
▁흥하	-16329
▁동남아	-16330
▁di	-16331
▁겐지	-16332
▁시정	-16333
▁지상군	-16334
▁수렴	-16335
▁윤종신	-16336
▁무로	-16337
▁호문	-16338
▁은혼	-16339
▁미워하	-16340
HN	-16341
cy	-16342
▁동그	-16343
▁쿄스케	-16344
▁쁘	-16345
열차	-16346
▁눈보라	-16347
▁마사토	-16348
▁개종	-16349
▁끌어당기	-16350
르슈	-16351
▁bb	-16352
▁경대	-16353
▁몰입	-16354
▁채무	-16355
▁최연	-16356
▁수사관	-16357
자치단체	-16358
▁only	-16359
▁에너	-16360
▁일루	-16361
▁데니스	-16362
▁순차	-16363
▁평이	-16364
▁고아원	-16365
NG	-16366
일본	-16367
▁Will	-16368
▁민심	-16369
anger	-16370
▁PH	-16371
▁납품	-16372
▁미우	-16373
▁세련	-16374
▁빨아들이	-16375
▁뜬금없	-16376
▁간첩	-16377
▁유부	-16378
▁NORM	-16379
▁요지	-16380
▁\]	-16381
▁매입	-16382
▁옴니	-16383
▁투항	-16384
▁해설자	-16385
▁1919	-16386
▁페미니스트	-16387
▁볶음	-16388
▁적시	-16389
▁사대	-16390
▁올인	-16391
▁카프	-16392
▁다이노	-16393
전쟁	-16394
▁카모	-16395
▁콘테스트	-16396
▁유키노	-16397
▁Girls	-16398
▁개리	-16399
▁뻔뻔	-16400
▁브로드	-16401
▁우크	-16402
▁체이서	-16403
▁화전	-16404
OUR	-16405
▁전쟁터	-16406
▁나주	-16407
▁수료	-16408
▁점치	-16409
▁컨퍼런스	-16410
▁우크라이나	-16411
▁각별	-16412
▁자음	-16413
▁전황	-16414
▁용호	-16415
▁우대	-16416
▁마이티	-16417
▁MY	-16418
▁외환	-16419
▁차크라	-16420
▁XC	-16421
▁김종민	-16422
▁최하위	-16423
ORA	-16424
▁ㅕ야	-16425
▁게재	-16426
▁열광	-16427
▁복수심	-16428
쩌둥	-16429
▁임재	-16430
▁마오쩌둥	-16431
▁메트	-16432
▁미코	-16433
▁포커	-16434
86	-16435
▁체르	-16436
전대	-16437
▁동하	-16438
▁우선시	-16439
▁트롤링	-16440
ument	-16441
▁음악가	-16442
onder	-16443
메리카	-16444
▁NORMAL	-16445
▁뿌요	-16446
▁포메이션	-16447
▁부전	-16448
▁페이퍼	-16449
▁인테리어	-16450
▁라파엘	-16451
▁서큐버스	-16452
▁천진	-16453
▁첨부	-16454
▁here	-16455
▁켐	-16456
푸스	-16457
▁에이미	-16458
▁제후	-16459
▁스턴트	-16460
▁월등히	-16461
▁프렌드	-16462
▁해인	-16463
▁성공회	-16464
▁RB	-16465
▁자백	-16466
▁정근	-16467
▁타쿠야	-16468
▁시술	-16469
▁짝퉁	-16470
폴리스	-16471
▁난쟁이	-16472
▁배반	-16473
팔로	-16474
▁액수	-16475
▁에라	-16476
▁Sol	-16477
▁Great	-16478
▁스커	-16479
▁활력	-16480
불리	-16481
▁아이젠	-16482
▁후지와라	-16483
▁여중	-16484
▁연장전	-16485
▁Best	-16486
▁소대장	-16487
▁알라딘	-16488
ball	-16489
▁문과	-16490
▁수년	-16491
▁초심	-16492
▁한판	-16493
▁보크	-16494
▁MUS	-16495
▁부상자	-16496
▁비서관	-16497
▁사드	-16498
▁우의	-16499
▁EXO	-16500
▁장대	-16501
▁궤멸	-16502
▁연마	-16503
▁SEED	-16504
▁개전	-16505
▁피노	-16506
▁조짐	-16507
▁나츠메	-16508
▁고하	-16509
▁거머쥐	-16510
▁연화	-16511
디우스	-16512
▁미식축구	-16513
osh	-16514
▁제네레이션	-16515
샤인	-16516
▁비터	-16517
▁악연	-16518
▁증강	-16519
오버	-16520
▁어르	-16521
▁남산	-16522
▁페트	-16523
▁한눈	-16524
▁북동	-16525
▁시미즈	-16526
▁옥타브	-16527
▁억양	-16528
▁철혈	-16529
▁세이야	-16530
▁낙서	-16531
▁스팟	-16532
▁호화	-16533
▁과열	-16534
▁환산	-16535
▁217	-16536
▁Net	-16537
UD	-16538
▁올리브	-16539
▁다듬	-16540
▁데미안	-16541
▁스콜피온	-16542
▁Ind	-16543
▁끊어지	-16544
▁사주	-16545
▁OM	-16546
▁업자	-16547
날리	-16548
▁이동기	-16549
▁Dest	-16550
▁슬라이더	-16551
▁내용물	-16552
▁1911	-16553
▁Little	-16554
월드	-16555
▁물류	-16556
▁주부	-16557
▁미스테리	-16558
▁초전	-16559
▁추기	-16560
▁교원	-16561
▁소나무	-16562
세포	-16563
▁부적절	-16564
▁플랜트	-16565
▁승하	-16566
▁패권	-16567
light	-16568
▁산전	-16569
▁카니발	-16570
▁레닌	-16571
▁미술관	-16572
▁오컬	-16573
▁이보	-16574
▁발령	-16575
▁별거	-16576
▁파나	-16577
▁str	-16578
▁메모리얼	-16579
▁고마	-16580
▁낭만	-16581
니컬	-16582
▁검거	-16583
▁우여	-16584
▁전곡	-16585
▁해밀	-16586
▁red	-16587
▁gu	-16588
▁정선	-16589
▁초라	-16590
티티	-16591
▁로어	-16592
▁은빛	-16593
장치	-16594
▁독단	-16595
▁서프	-16596
▁클러치	-16597
▁오자	-16598
▁고참	-16599
▁'~	-16600
▁정승	-16601
▁라이엇	-16602
▁KN	-16603
▁대기실	-16604
▁베이커	-16605
▁괴이	-16606
▁소품	-16607
▁오도	-16608
▁파주	-16609
▁부록	-16610
▁생리	-16611
▁브룩	-16612
▁폐업	-16613
▁잡아	-16614
▁통찰	-16615
▁우치하	-16616
와르	-16617
▁하노	-16618
▁허약	-16619
소년단	-16620
▁음료수	-16621
▁교명	-16622
▁나성	-16623
▁미움	-16624
▁러시아군	-16625
▁다량	-16626
▁약수	-16627
▁지탱	-16628
▁Take	-16629
▁해지	-16630
▁꼬시	-16631
▁노노	-16632
▁228	-16633
▁냉혹	-16634
▁변모	-16635
▁픽처	-16636
▁미하일	-16637
HC	-16638
▁내쫓	-16639
▁아라시	-16640
데라	-16641
▁소셜	-16642
▁앵글	-16643
▁정민	-16644
▁맹수	-16645
▁let	-16646
아오르	-16647
▁야나기	-16648
▁상반	-16649
▁재상	-16650
▁BMW	-16651
ANCED	-16652
▁기교	-16653
▁투덜	-16654
▁서태지	-16655
▁ad	-16656
▁체류	-16657
▁조선소	-16658
▁오아시스	-16659
▁FO	-16660
▁골수	-16661
▁Mix	-16662
▁카즈미	-16663
▁크류	-16664
▁어떡	-16665
▁화합	-16666
▁는커녕	-16667
▁Single	-16668
▁뮐	-16669
eek	-16670
▁액스	-16671
▁GPS	-16672
▁세바스	-16673
▁고드	-16674
▁010	-16675
▁야구부	-16676
▁남아프리카	-16677
세움	-16678
▁예민	-16679
▁유창	-16680
ASY	-16681
▁Sam	-16682
▁나리타	-16683
▁Inv	-16684
▁게르만	-16685
▁래빗	-16686
▁무트	-16687
▁로켓단	-16688
▁익산	-16689
▁환장	-16690
▁NFL	-16691
▁승낙	-16692
비지	-16693
▁가야	-16694
▁드미	-16695
▁오컬트	-16696
▁야요	-16697
▁정국	-16698
▁형벌	-16699
▁야구단	-16700
브론	-16701
▁강정	-16702
▁없음	-16703
▁피파	-16704
▁영국인	-16705
▁내레이션	-16706
▁세터	-16707
▁저축	-16708
▁마스터즈	-16709
▁티르	-16710
▁폐인	-16711
▁하계	-16712
▁Ult	-16713
▁헌트	-16714
▁광란	-16715
▁출입구	-16716
▁밝혀	-16717
▁301	-16718
▁CGV	-16719
▁백두	-16720
▁특색	-16721
▁Aut	-16722
IO	-16723
서리	-16724
▁굴림	-16725
▁의거	-16726
▁둘째치	-16727
▁타카히로	-16728
▁요령	-16729
▁촉진	-16730
▁뉴타입	-16731
ena	-16732
▁뜯어	-16733
▁빌헬름	-16734
▁페라리	-16735
94	-16736
▁프레데터	-16737
시장	-16738
▁마방	-16739
lex	-16740
▁신천	-16741
▁방탄소년단	-16742
▁반주	-16743
▁소홀	-16744
▁집요	-16745
▁ㄴ답시고	-16746
▁YG	-16747
▁이트	-16748
▁파기	-16749
▁는다며	-16750
uture	-16751
▁우디	-16752
▁타카오	-16753
▁밀가루	-16754
▁유니버	-16755
▁호위함	-16756
▁담원	-16757
▁수차례	-16758
▁하야테	-16759
▁껌	-16760
▁252	-16761
▁들여오	-16762
▁퍼블	-16763
▁케네	-16764
▁재보	-16765
▁토드	-16766
▁라다	-16767
▁하즈	-16768
▁EPL	-16769
▁서유럽	-16770
▁니르	-16771
▁하로	-16772
각형	-16773
▁거창	-16774
▁촉구	-16775
▁공직	-16776
▁초계	-16777
▁폭언	-16778
▁백종	-16779
▁항성	-16780
▁속임수	-16781
▁aquarius	-16782
빠지	-16783
▁지효	-16784
▁통솔력	-16785
모트	-16786
▁얼룩	-16787
▁껄끄럽	-16788
▁아틀란	-16789
▁헤이세이	-16790
교사	-16791
▁교제	-16792
▁그딴	-16793
▁츠네	-16794
▁대성공	-16795
▁Real	-16796
▁알프레드	-16797
▁녹스	-16798
덱스	-16799
▁메커	-16800
▁광화문	-16801
▁얏	-16802
▁처방	-16803
▁스트림	-16804
▁한국식	-16805
▁사이먼	-16806
▁ADVANCED	-16807
▁재발	-16808
▁뇨	-16809
▁mA	-16810
▁걷어차	-16811
곡절	-16812
대왕	-16813
▁멜리	-16814
▁사카이	-16815
ital	-16816
▁512	-16817
▁지저	-16818
▁포구	-16819
▁우여곡절	-16820
▁|[	-16821
▁왕성	-16822
▁DSP	-16823
▁Dec	-16824
▁Storm	-16825
▁스냅드래곤	-16826
98	-16827
▁멘토	-16828
▁코미디언	-16829
▁아날	-16830
▁카르타	-16831
▁2022	-16832
▁섬뜩	-16833
▁제때	-16834
▁최장	-16835
▁하원	-16836
세우스	-16837
▁로젠	-16838
▁문관	-16839
▁나오미	-16840
니케이션	-16841
▁스케이트	-16842
▁학파	-16843
▁저상버스	-16844
ano	-16845
▁여차	-16846
▁정관	-16847
▁야가미	-16848
네즈	-16849
▁김시	-16850
▁어선	-16851
▁아카이브	-16852
레오	-16853
▁커뮤니케이션	-16854
▁꼬박	-16855
▁횡령	-16856
▁틀림없	-16857
▁밝혀내	-16858
▁프란츠	-16859
▁텐트	-16860
▁any	-16861
▁츳코	-16862
▁운동가	-16863
▁윤석민	-16864
▁손길	-16865
▁급속도	-16866
▁닛산	-16867
▁도넛	-16868
▁브록	-16869
▁Med	-16870
▁켓	-16871
▁가즈	-16872
▁강급	-16873
▁신승	-16874
▁절도	-16875
세요	-16876
aid	-16877
▁베풀	-16878
▁쇼우	-16879
▁Def	-16880
▁Gun	-16881
▁야요이	-16882
지우	-16883
▁명지	-16884
▁샤르	-16885
▁스탬	-16886
성어	-16887
소연	-16888
▁다람	-16889
▁사춘	-16890
▁차고	-16891
조림	-16892
▁등용	-16893
공학	-16894
▁아로	-16895
▁htm	-16896
▁거액	-16897
▁아토	-16898
ude	-16899
▁선샤인	-16900
▁정찰기	-16901
▁라티	-16902
▁QP	-16903
▁매료	-16904
▁경관	-16905
▁만신	-16906
▁트렌드	-16907
▁포식자	-16908
▁youtu	-16909
소타	-16910
▁정몽	-16911
▁착공	-16912
경민	-16913
▁돌변	-16914
▁자릿	-16915
▁when	-16916
러미	-16917
▁관습	-16918
▁산출	-16919
▁베토벤	-16920
▁정착지	-16921
▁애플리케이션	-16922
▁HR	-16923
▁youtube	-16924
▁ER	-16925
▁요가	-16926
▁짜이	-16927
▁초구	-16928
▁Hero	-16929
▁부설	-16930
▁Zero	-16931
▁클럭	-16932
▁Rad	-16933
▁샌드위치	-16934
UG	-16935
마사	-16936
▁보그	-16937
▁내비치	-16938
65	-16939
apan	-16940
▁미네소타	-16941
unt	-16942
▁크래시	-16943
▁공안	-16944
▁오거	-16945
▁히다	-16946
▁데이지	-16947
▁오정	-16948
노트	-16949
▁시급	-16950
ning	-16951
32	-16952
▁추격전	-16953
쩐지	-16954
▁재탕	-16955
▁어쩐지	-16956
▁루팅	-16957
▁압승	-16958
▁사이비	-16959
▁피고인	-16960
▁스프레이	-16961
▁보이즈	-16962
▁프리킥	-16963
▁EXTRA	-16964
▁엄연	-16965
리스크	-16966
▁송곳니	-16967
▁램지	-16968
▁시놉	-16969
▁Cal	-16970
DDR	-16971
▁급증	-16972
▁암석	-16973
▁은색	-16974
▁키시	-16975
ours	-16976
▁대장간	-16977
▁툭하면	-16978
arm	-16979
ett	-16980
ler	-16981
▁은신처	-16982
ather	-16983
▁크로스오버	-16984
▁건대	-16985
▁레터	-16986
병기	-16987
▁Warhammer	-16988
폴트	-16989
▁태백	-16990
▁풀이	-16991
▁동맹군	-16992
▁대련	-16993
▁블룸	-16994
▁390	-16995
▁보리스	-16996
▁정명훈	-16997
unk	-16998
▁다나	-16999
▁콴	-17000
▁냅다	-17001
▁이여	-17002
▁다채	-17003
▁탐험가	-17004
▁자습	-17005
▁붙여지	-17006
▁시놉시스	-17007
▁백악	-17008
▁227	-17009
▁1934	-17010
▁Ry	-17011
▁총점	-17012
▁롱주	-17013
▁예하	-17014
▁Ag	-17015
▁만장	-17016
▁멱살	-17017
▁Park	-17018
▁예거	-17019
▁표준어	-17020
▁투영	-17021
레마	-17022
▁우등	-17023
▁합숙	-17024
헤치	-17025
▁숙제	-17026
▁주름	-17027
▁용납	-17028
▁경부선	-17029
▁프리퀄	-17030
▁비밀리	-17031
▁Sweet	-17032
▁분양	-17033
▁인삼	-17034
▁!!!!	-17035
lection	-17036
▁신노스케	-17037
BE	-17038
▁오현	-17039
▁웍스	-17040
▁치요	-17041
▁사춘기	-17042
irect	-17043
▁나크	-17044
▁실컷	-17045
▁게으	-17046
▁뜻밖	-17047
▁조슈아	-17048
▁주변인	-17049
▁Mbps	-17050
▁시부야	-17051
방지	-17052
une	-17053
▁BLACK	-17054
▁을시	-17055
▁정보원	-17056
▁노보	-17057
▁백웅	-17058
▁윤영	-17059
▁파비	-17060
▁휴지	-17061
▁John	-17062
하늘	-17063
▁반쪽	-17064
▁위임	-17065
▁파이팅	-17066
▁아틀란티스	-17067
▁사칭	-17068
▁서북	-17069
▁자객	-17070
▁쿠보	-17071
▁홍련	-17072
▁최민	-17073
▁떠나가	-17074
▁난도	-17075
▁포섭	-17076
▁보좌관	-17077
▁연막탄	-17078
ouble	-17079
살이	-17080
▁교가	-17081
▁세균	-17082
▁심복	-17083
ords	-17084
▁미시마	-17085
▁op	-17086
▁안즈	-17087
▁우터	-17088
▁아랍어	-17089
나타	-17090
▁공적	-17091
▁유상	-17092
▁Hel	-17093
▁명심	-17094
ople	-17095
▁홍수	-17096
▁계약서	-17097
▁핍	-17098
▁==	-17099
▁리비	-17100
▁영수	-17101
▁대지진	-17102
▁마사히로	-17103
▁몽환	-17104
▁아오키	-17105
▁주재	-17106
▁Say	-17107
▁min	-17108
▁구스	-17109
▁달려드	-17110
▁정부군	-17111
▁쿠퍼	-17112
▁샤이니	-17113
▁짓거리	-17114
▁Space	-17115
▁자물	-17116
▁햐	-17117
▁Gal	-17118
▁양방향	-17119
▁레이브	-17120
▁페가수스	-17121
▁보름	-17122
▁재기	-17123
▁진명	-17124
▁깐	-17125
사노	-17126
▁토치	-17127
ames	-17128
▁밴쿠버	-17129
▁이리스	-17130
▁거침	-17131
▁린드	-17132
▁에디터	-17133
▁중대장	-17134
uct	-17135
▁낙사	-17136
▁용족	-17137
▁오소	-17138
▁수송기	-17139
▁개머리	-17140
▁연대기	-17141
▁은근슬쩍	-17142
▁바래	-17143
▁올려	-17144
▁경상도	-17145
▁노리코	-17146
▁자물쇠	-17147
▁컷인	-17148
▁231	-17149
▁장민	-17150
▁판명	-17151
▁효용	-17152
thing	-17153
▁하가	-17154
▁옅	-17155
▁뭉개	-17156
▁구스타	-17157
uff	-17158
▁앉히	-17159
▁제련	-17160
▁흡입	-17161
▁쿠루미	-17162
▁웬디	-17163
▁Feel	-17164
▁후진	-17165
br	-17166
▁가르시아	-17167
▁폄	-17168
▁PG	-17169
▁료코	-17170
▁사념	-17171
▁유족	-17172
▁베가스	-17173
▁need	-17174
▁교활	-17175
▁아와	-17176
▁코스모스	-17177
▁근방	-17178
▁오라클	-17179
▁페드로	-17180
▁걔	-17181
▁비견	-17182
▁서바이버	-17183
▁고영	-17184
oj	-17185
▁다다르	-17186
▁불러내	-17187
KO	-17188
▁관람객	-17189
립스	-17190
▁간직	-17191
▁약품	-17192
▁옥수수	-17193
▁Je	-17194
▁코타	-17195
oe	-17196
▁브라우저	-17197
개골	-17198
▁안톤	-17199
▁LEVEL	-17200
TER	-17201
▁이부키	-17202
▁코스모	-17203
▁HT	-17204
▁이그	-17205
▁방주	-17206
거스	-17207
▁함경	-17208
▁근로자	-17209
▁피쉬	-17210
▁금단	-17211
▁법령	-17212
▁식구	-17213
END	-17214
vil	-17215
▁두각	-17216
▁집게	-17217
▁설립자	-17218
▁나가사키	-17219
yr	-17220
▁즐거움	-17221
▁텝	-17222
▁경멸	-17223
▁타타	-17224
▁견고	-17225
▁도봉	-17226
▁최준	-17227
▁뜸	-17228
교도	-17229
▁출진	-17230
▁Kim	-17231
후미	-17232
▁마쓰	-17233
▁햄튼	-17234
▁투지	-17235
▁라몬	-17236
▁주점	-17237
▁앙쥬	-17238
▁mAh	-17239
▁뜯어내	-17240
▁손발	-17241
▁판다	-17242
▁꼬맹이	-17243
▁저질	-17244
▁소양	-17245
▁지출	-17246
▁남녀공학	-17247
▁에니	-17248
비슷	-17249
▁잭스	-17250
▁오사무	-17251
▁나카지마	-17252
▁트리니티	-17253
▁바카	-17254
▁Sport	-17255
▁대첩	-17256
▁사루	-17257
▁신스	-17258
▁조공	-17259
▁청문회	-17260
▁협의회	-17261
▁난데	-17262
▁똑바로	-17263
▁병합	-17264
▁모리스	-17265
▁일간	-17266
▁피통	-17267
리아스	-17268
나우	-17269
▁JYP	-17270
▁구식	-17271
자스	-17272
▁부착물	-17273
▁them	-17274
▁막스	-17275
▁아누	-17276
▁조련	-17277
▁조그맣	-17278
분투	-17279
▁로더	-17280
▁Ret	-17281
▁치솟	-17282
▁카나코	-17283
▁벗겨지	-17284
▁some	-17285
부르	-17286
▁외지	-17287
▁흑발	-17288
▁크레인	-17289
▁조동	-17290
▁형주	-17291
▁레베카	-17292
▁변기	-17293
로그램	-17294
▁지원군	-17295
곡리	-17296
태격	-17297
▁티격태격	-17298
▁말라	-17299
▁명계	-17300
▁를르슈	-17301
▁억누르	-17302
▁마즈	-17303
▁백스	-17304
▁Dem	-17305
▁여제	-17306
▁골절	-17307
▁겸임	-17308
▁사서	-17309
▁평면	-17310
▁성물	-17311
▁지네	-17312
▁GTX	-17313
▁Sou	-17314
▁카로	-17315
▁스타킹	-17316
설수	-17317
▁어려우	-17318
▁비화	-17319
▁코아	-17320
▁하강	-17321
▁누비	-17322
▁후사	-17323
▁나이지	-17324
▁나이지리아	-17325
▁서남	-17326
▁이서	-17327
로리	-17328
▁동률	-17329
▁셔먼	-17330
▁컬트	-17331
▁톰슨	-17332
▁Kill	-17333
▁Tour	-17334
노프	-17335
▁규율	-17336
▁덴마	-17337
▁발열	-17338
▁끌어안	-17339
▁동남아시아	-17340
▁닳	-17341
ODE	-17342
▁남원	-17343
▁버팔로	-17344
▁무서워하	-17345
▁프랑켄슈타인	-17346
▁전광판	-17347
▁껴안	-17348
▁부포	-17349
▁어정	-17350
▁위아래	-17351
▁견습	-17352
▁도가	-17353
▁개머리판	-17354
뚜기	-17355
▁횃	-17356
▁잘나	-17357
▁로밍	-17358
▁역마	-17359
arth	-17360
▁GC	-17361
▁뒤바뀌	-17362
▁탤런트	-17363
▁초밥	-17364
▁430	-17365
▁더듬	-17366
▁LOL	-17367
▁근육질	-17368
동물	-17369
▁매튜	-17370
▁포커스	-17371
비야	-17372
린트	-17373
▁만년	-17374
▁입점	-17375
▁마일리	-17376
▁부대장	-17377
제트	-17378
메이트	-17379
▁원가	-17380
▁포이즌	-17381
▁라카	-17382
▁236	-17383
▁방아	-17384
▁엘사	-17385
▁참치	-17386
aser	-17387
▁지중해	-17388
▁KBL	-17389
▁치아키	-17390
onna	-17391
▁짭	-17392
▁르블랑	-17393
▁노동조합	-17394
▁철구	-17395
▁정근우	-17396
▁아스가르드	-17397
ner	-17398
▁극하	-17399
도어	-17400
▁놀러	-17401
▁스메	-17402
▁팔다리	-17403
▁사절	-17404
▁요요	-17405
▁테디	-17406
▁파병	-17407
▁Orig	-17408
▁인턴	-17409
▁타깃	-17410
▁이북	-17411
▁하피	-17412
▁플리트	-17413
▁마커스	-17414
▁스틸러스	-17415
슬로	-17416
▁한인	-17417
▁격납고	-17418
▁치어리	-17419
▁마로	-17420
▁간과	-17421
▁her	-17422
▁고야	-17423
ways	-17424
▁기대감	-17425
▁연주자	-17426
▁Beat	-17427
▁뒤집어쓰	-17428
▁목장	-17429
▁미니건	-17430
▁이라든지	-17431
▁엑스칼리버	-17432
▁열화	-17433
슐리	-17434
▁이윤열	-17435
▁감찰	-17436
▁군세	-17437
▁포츈	-17438
▁방탄복	-17439
▁WORLD	-17440
▁드럼매니아	-17441
마니	-17442
▁이규	-17443
고스	-17444
▁매크로	-17445
▁원정대	-17446
▁가로지르	-17447
▁싯	-17448
▁아브	-17449
▁셧	-17450
▁사일런트	-17451
▁파라오	-17452
▁표류	-17453
▁상병	-17454
▁265	-17455
▁옐로우	-17456
▁일파	-17457
▁질럿	-17458
숭아	-17459
▁NAS	-17460
▁다비드	-17461
▁주유소	-17462
▁일전	-17463
ormal	-17464
▁뫼비우스	-17465
▁올레	-17466
▁장문	-17467
▁Luc	-17468
팽이	-17469
▁<<	-17470
▁내신	-17471
▁아디	-17472
▁메커니즘	-17473
▁엘라	-17474
▁원사	-17475
▁하르트	-17476
▁구실	-17477
▁복식	-17478
iful	-17479
▁블러디	-17480
▁김건	-17481
▁세이프	-17482
▁PERF	-17483
▁경기관총	-17484
▁Story	-17485
▁통통	-17486
▁마츠다	-17487
UND	-17488
▁하네	-17489
▁아날로그	-17490
▁로아	-17491
▁위안부	-17492
▁이리야	-17493
▁본뜨	-17494
▁3500	-17495
▁서슴	-17496
▁지석	-17497
구멍	-17498
▁신야	-17499
▁항소	-17500
▁넥스트	-17501
배기	-17502
▁수트	-17503
▁오레	-17504
▁MAD	-17505
▁스트롱	-17506
▁밀리터리	-17507
44	-17508
▁티베트	-17509
▁When	-17510
▁쿡	-17511
▁루가	-17512
▁저술	-17513
문화	-17514
▁노미	-17515
▁바바리	-17516
▁앞머리	-17517
▁위드	-17518
▁공평	-17519
▁막시	-17520
▁she	-17521
▁곧이어	-17522
▁편찬	-17523
▁Tech	-17524
ANG	-17525
▁백과	-17526
▁약사	-17527
▁어진	-17528
▁사이킥	-17529
뉴스	-17530
▁공연장	-17531
▁피스톨	-17532
▁폭죽	-17533
▁강민호	-17534
천리	-17535
▁쓸리	-17536
▁순전히	-17537
▁온건	-17538
▁한미	-17539
▁WWF	-17540
▁리비아	-17541
▁구기	-17542
입구역	-17543
▁사우디	-17544
▁한없이	-17545
▁선율	-17546
▁정설	-17547
▁족족	-17548
▁출국	-17549
주니어	-17550
▁케네디	-17551
▁개관	-17552
레스타인	-17553
리역	-17554
발리	-17555
▁땅굴	-17556
▁수첩	-17557
▁조라	-17558
▁Album	-17559
fl	-17560
▁이모티콘	-17561
▁레티	-17562
ations	-17563
▁재결	-17564
▁DIO	-17565
▁희한	-17566
▁시속	-17567
▁참수	-17568
▁불굴	-17569
▁사학	-17570
▁Who	-17571
▁마레	-17572
▁외화	-17573
▁훌쩍	-17574
▁팔아먹	-17575
▁갈비	-17576
▁상디	-17577
▁암묵	-17578
▁이면	-17579
▁돌려받	-17580
▁루디	-17581
▁얼른	-17582
▁대나무	-17583
▁코코로	-17584
▁풀타임	-17585
▁김장	-17586
▁세인	-17587
포동	-17588
▁급감	-17589
▁라르	-17590
▁로데	-17591
▁GE	-17592
▁테드	-17593
▁정준하	-17594
▁기껏해야	-17595
▁샛	-17596
ait	-17597
▁실기	-17598
▁조부	-17599
▁Step	-17600
▁즌	-17601
▁내려치	-17602
▁픽처스	-17603
▁마개	-17604
▁가희	-17605
39	-17606
▁볼링	-17607
▁쿠즈	-17608
▁로드리게	-17609
시간	-17610
프스	-17611
▁뒤이	-17612
▁헤엄	-17613
▁곁들이	-17614
▁칼데아	-17615
실록	-17616
▁번쩍	-17617
▁232	-17618
통일	-17619
▁금세	-17620
▁명하	-17621
▁art	-17622
▁역적	-17623
▁맥크리	-17624
가키	-17625
▁드로이드	-17626
▁맨서	-17627
▁숙적	-17628
▁공구	-17629
▁물결	-17630
▁음파	-17631
▁의병	-17632
▁진중	-17633
▁호루스	-17634
▁행렬	-17635
▁힛	-17636
▁쫒아	-17637
▁의약	-17638
▁일괄	-17639
▁전위	-17640
▁다르크	-17641
▁두개골	-17642
▁산산조각	-17643
▁무례	-17644
▁손대	-17645
▁Death	-17646
▁노어	-17647
페르노	-17648
▁마성	-17649
▁엽기	-17650
▁육신	-17651
▁sec	-17652
▁언뜻	-17653
▁옥스	-17654
▁총애	-17655
▁공격대	-17656
▁왕정	-17657
▁원산	-17658
▁투혼	-17659
▁인기가요	-17660
▁인페르노	-17661
▁홍차	-17662
사무소	-17663
▁세리카	-17664
▁조건부	-17665
▁독살	-17666
예프	-17667
투사	-17668
body	-17669
▁찻	-17670
▁괄호	-17671
▁금빛	-17672
▁변속	-17673
▁도맡	-17674
▁푸딩	-17675
▁플롯	-17676
게일	-17677
▁심영	-17678
▁대북	-17679
▁서강	-17680
▁1931	-17681
▁결번	-17682
▁소굴	-17683
사전	-17684
OSS	-17685
▁비행장	-17686
▁조성주	-17687
▁about	-17688
▁푸시	-17689
▁불륜	-17690
▁노우	-17691
▁양육	-17692
▁스캇	-17693
▁비타민	-17694
▁사이다	-17695
시즘	-17696
▁벨리	-17697
▁수없이	-17698
▁들어올리	-17699
▁넬슨	-17700
▁바빌	-17701
▁천자	-17702
ene	-17703
▁대영	-17704
▁수식어	-17705
▁구가	-17706
▁최승	-17707
▁뮐러	-17708
▁지마	-17709
▁승승장구	-17710
▁팔레스타인	-17711
▁디나	-17712
▁510	-17713
▁퍼레이드	-17714
▁서경	-17715
▁혼잡	-17716
▁사이렌	-17717
▁종로구	-17718
▁이불	-17719
▁거너	-17720
▁무마	-17721
▁외교관	-17722
▁조각상	-17723
▁콘스탄티노	-17724
▁매혹	-17725
▁쟤	-17726
틀린	-17727
▁남서	-17728
▁안영	-17729
▁착안	-17730
▁포박	-17731
▁Champion	-17732
바야시	-17733
37	-17734
상부	-17735
uss	-17736
▁이크	-17737
▁리더십	-17738
▁1935	-17739
▁쿠토	-17740
▁황녀	-17741
▁SNK	-17742
▁양현종	-17743
▁교묘	-17744
▁다던	-17745
▁도면	-17746
▁삼국사기	-17747
그래피	-17748
rough	-17749
▁엘더	-17750
▁메기	-17751
▁에델	-17752
▁장지	-17753
▁첩자	-17754
▁파커	-17755
▁다는데	-17756
▁댁	-17757
스틱	-17758
ume	-17759
▁니콜라	-17760
AE	-17761
▁기색	-17762
▁족보	-17763
▁질책	-17764
▁케일	-17765
빙글	-17766
▁박원	-17767
▁비방	-17768
▁자결	-17769
▁타츠미	-17770
▁Line	-17771
▁래디	-17772
▁철자	-17773
IDE	-17774
▁꼼꼼	-17775
▁카툰	-17776
▁Tra	-17777
▁1700	-17778
파일	-17779
▁환율	-17780
▁다이어	-17781
▁미츠키	-17782
▁신뢰도	-17783
▁come	-17784
마을	-17785
▁닷컴	-17786
▁흑색	-17787
▁캡쳐	-17788
▁내던지	-17789
▁클래시	-17790
슬라비아	-17791
lease	-17792
▁유고슬라비아	-17793
하임	-17794
▁자하	-17795
▁장발	-17796
▁한테서	-17797
▁선량	-17798
▁왼발	-17799
▁이코	-17800
▁LCS	-17801
▁토모코	-17802
▁프리티	-17803
도스	-17804
▁타사	-17805
▁305	-17806
▁XBOX	-17807
▁밀짚	-17808
▁워페어	-17809
▁전면전	-17810
상스	-17811
▁Du	-17812
▁나즈	-17813
▁추축	-17814
▁사고방식	-17815
주곡	-17816
▁존기	-17817
▁떠넘기	-17818
▁탈락자	-17819
▁변칙	-17820
▁코만도	-17821
orever	-17822
ESS	-17823
▁섬머	-17824
욕장	-17825
▁Apple	-17826
▁겨냥	-17827
▁신진	-17828
▁자일	-17829
▁경비대	-17830
▁아오바	-17831
▁감격	-17832
▁딱지	-17833
▁모사	-17834
▁재킷	-17835
▁지겹	-17836
▁이민자	-17837
▁이클	-17838
self	-17839
▁Bus	-17840
ral	-17841
▁윤지	-17842
▁쾌락	-17843
▁횃불	-17844
▁TRA	-17845
▁대구광역시	-17846
▁권혁	-17847
▁달랑	-17848
▁코라	-17849
▁에리스	-17850
▁된	-17851
▁747	-17852
▁추기경	-17853
윤수	-17854
▁괴짜	-17855
▁급소	-17856
INAL	-17857
▁238	-17858
▁이따금	-17859
▁바퀴벌레	-17860
▁버크	-17861
▁셀렉	-17862
▁증차	-17863
▁공전	-17864
▁실물	-17865
▁바가지	-17866
▁아이슬	-17867
▁러프	-17868
▁애덤	-17869
▁못생기	-17870
▁물어뜯	-17871
▁스트링	-17872
▁모로코	-17873
▁원안	-17874
▁RT	-17875
▁국지	-17876
▁오기	-17877
▁기폭	-17878
▁니지	-17879
▁ind	-17880
▁공모전	-17881
▁Electr	-17882
▁짠	-17883
▁래더	-17884
▁일찍이	-17885
▁2400	-17886
▁자행	-17887
▁히로미	-17888
▁팽팽	-17889
덴티티	-17890
▁얌전히	-17891
▁아이덴티티	-17892
▁나니	-17893
▁혈압	-17894
▁사오리	-17895
▁노련	-17896
▁양의지	-17897
▁SB	-17898
▁데스노트	-17899
▁가신	-17900
법인	-17901
▁개표	-17902
▁절제	-17903
▁SUPER	-17904
▁뜯기	-17905
▁백호	-17906
elie	-17907
▁어야지	-17908
▁합격자	-17909
▁에볼루션	-17910
▁나선	-17911
▁640	-17912
▁Green	-17913
▁설날	-17914
▁수만	-17915
▁몰아가	-17916
▁타이가	-17917
▁화성시	-17918
비어	-17919
위원	-17920
▁완승	-17921
▁콜로세움	-17922
▁고프	-17923
▁초음	-17924
▁황천	-17925
▁Mal	-17926
▁주저앉	-17927
▁발효	-17928
▁장영	-17929
▁디스트로	-17930
▁페널티가	-17931
▁극동	-17932
▁망신	-17933
▁야유	-17934
▁이바라	-17935
ander	-17936
훈련	-17937
▁조경	-17938
▁삼각형	-17939
다이스	-17940
▁325	-17941
▁바사라	-17942
▁예비역	-17943
▁디스트로이어	-17944
▁악재	-17945
▁이연	-17946
▁장화	-17947
▁천왕	-17948
▁원로원	-17949
▁Dead	-17950
펙터	-17951
▁내치	-17952
▁채권	-17953
▁초연	-17954
▁Tem	-17955
▁각본가	-17956
▁아이카	-17957
▁그레이스	-17958
▁오클랜드	-17959
autiful	-17960
▁신룡	-17961
▁유괴	-17962
▁Pass	-17963
▁인계	-17964
▁루시우	-17965
▁사벨	-17966
▁잔존	-17967
ines	-17968
구스	-17969
▁연못	-17970
▁공격진	-17971
▁타케우치	-17972
▁독립운동가	-17973
▁무예	-17974
▁황폐	-17975
▁각주	-17976
▁간수	-17977
▁전주시	-17978
▁1910	-17979
바탕	-17980
▁NV	-17981
▁Ant	-17982
▁마구잡이	-17983
▁허물	-17984
▁하루히	-17985
다주	-17986
▁단도	-17987
▁비어	-17988
▁지니어스	-17989
▁강대국	-17990
▁클로이	-17991
awn	-17992
▁카자흐	-17993
▁노기자카	-17994
▁당부	-17995
▁총수	-17996
▁파충	-17997
ortex	-17998
▁이클립스	-17999
▁사업가	-18000
▁스펙트	-18001
▁에그맨	-18002
▁정신기	-18003
▁새턴	-18004
▁NAT	-18005
▁장시간	-18006
▁혹시나	-18007
▁아이슬란드	-18008
리언	-18009
▁굳건	-18010
▁1918	-18011
▁쏙	-18012
▁불계	-18013
▁IEM	-18014
▁토머스	-18015
더미	-18016
▁Home	-18017
▁들이닥치	-18018
▁EXPERT	-18019
▁아키코	-18020
▁완주	-18021
▁개인차	-18022
▁무리뉴	-18023
▁우즈베	-18024
▁노을	-18025
▁동자	-18026
▁샤인	-18027
▁껍데기	-18028
▁제각각	-18029
▁복판	-18030
▁시우	-18031
▁코퍼	-18032
현수	-18033
▁가온	-18034
▁바운	-18035
▁Lee	-18036
▁제국주의	-18037
▁League	-18038
▁넛	-18039
▁da	-18040
▁마천	-18041
▁이어주	-18042
▁흑기사	-18043
▁ah	-18044
▁각광	-18045
▁고척	-18046
▁일회	-18047
▁아이파크	-18048
▁큘	-18049
▁AAA	-18050
▁시즈쿠	-18051
▁하룻	-18052
▁이하일	-18053
▁EASY	-18054
▁sw	-18055
▁비들	-18056
▁송신	-18057
▁심해	-18058
▁앙상	-18059
▁종속	-18060
▁시티즌	-18061
▁사토미	-18062
▁실비아	-18063
▁검출	-18064
▁스쿠	-18065
▁죠셉	-18066
▁과부하	-18067
▁백종원	-18068
▁ma	-18069
▁Tom	-18070
▁Wanna	-18071
▁자초	-18072
▁돌이키	-18073
▁솔루션	-18074
▁갉	-18075
▁다리우스	-18076
▁EL	-18077
▁숙박	-18078
▁스구	-18079
▁코쿠	-18080
▁북벌	-18081
ily	-18082
▁분실	-18083
▁컵스	-18084
▁TEAM	-18085
▁이산	-18086
▁바그너	-18087
▁중심부	-18088
▁뒤섞	-18089
▁룰렛	-18090
▁인제	-18091
▁컬쳐	-18092
▁지도부	-18093
▁프라모델	-18094
볼트	-18095
▁미분	-18096
창민	-18097
▁Del	-18098
▁발사체	-18099
▁추대	-18100
▁분대장	-18101
▁선호도	-18102
▁호조	-18103
▁!!"	-18104
▁뒤떨어지	-18105
▁랠리	-18106
▁정주	-18107
▁말뚝	-18108
▁평온	-18109
▁Level	-18110
백호	-18111
▁무구	-18112
▁이효	-18113
▁트와	-18114
▁건달	-18115
▁알려주	-18116
츠미	-18117
▁눈여	-18118
▁장진	-18119
▁단호	-18120
▁IMF	-18121
▁밀라노	-18122
아르	-18123
▁이를	-18124
▁들이받	-18125
IAL	-18126
▁디언	-18127
▁제이미	-18128
▁로스쿨	-18129
트릭	-18130
▁설교	-18131
eter	-18132
테면	-18133
▁자선	-18134
▁강국	-18135
▁눈길	-18136
▁코피	-18137
▁허접	-18138
▁마리나	-18139
▁GAME	-18140
▁모자이크	-18141
▁사이코패스	-18142
▁기념일	-18143
▁정훈	-18144
▁스무	-18145
▁황룡	-18146
▁조만	-18147
▁마니아	-18148
▁자릿수	-18149
▁이를테면	-18150
▁맹렬	-18151
▁박동	-18152
▁서커	-18153
▁하오	-18154
▁히키	-18155
리카와	-18156
▁무법자	-18157
▁토착	-18158
▁용인시	-18159
벌이	-18160
▁묵묵	-18161
▁키네	-18162
▁나오토	-18163
▁품목	-18164
▁Friend	-18165
▁독소	-18166
▁아라이	-18167
▁히데키	-18168
문서	-18169
▁격분	-18170
▁나돌	-18171
▁에비	-18172
▁컨버	-18173
▁타코	-18174
▁229	-18175
▁결정력	-18176
▁동떨어지	-18177
ISS	-18178
▁가관	-18179
▁발포	-18180
▁태반	-18181
▁사이키	-18182
▁디셉	-18183
▁Cha	-18184
마드	-18185
rol	-18186
▁로건	-18187
▁bit	-18188
▁백설	-18189
▁사보	-18190
▁제아	-18191
▁조지아	-18192
▁무토	-18193
ible	-18194
ider	-18195
▁비틀즈	-18196
▁시그널	-18197
보잡	-18198
해머	-18199
▁엄하	-18200
▁장난치	-18201
▁정신병	-18202
▁라키	-18203
▁244	-18204
▁크리스티나	-18205
▁기권	-18206
▁신영	-18207
▁불량배	-18208
▁캅	-18209
▁듣보잡	-18210
▁뎁	-18211
▁라이저	-18212
▁기울어지	-18213
▁대물	-18214
▁김상수	-18215
▁니까요	-18216
▁Univers	-18217
콜로	-18218
▁레츠	-18219
▁벼슬	-18220
▁재래	-18221
ouch	-18222
▁BMS	-18223
▁박진영	-18224
▁their	-18225
72	-18226
▁실격	-18227
▁승자전	-18228
▁맥도날드	-18229
▁골격	-18230
▁나자	-18231
▁Mac	-18232
▁황인	-18233
▁클라라	-18234
▁분하	-18235
▁요크	-18236
▁정액	-18237
▁제이콥	-18238
▁글래스	-18239
▁불곰	-18240
▁hell	-18241
▁완력	-18242
▁레일건	-18243
▁풀어내	-18244
▁마르크스	-18245
31	-18246
ves	-18247
▁고라	-18248
▁성계	-18249
onic	-18250
▁알제리	-18251
▁Chap	-18252
▁에마	-18253
▁오줌	-18254
▁이큐	-18255
세이돈	-18256
▁포세이돈	-18257
▁렬	-18258
▁고군	-18259
▁돌기	-18260
▁빈민	-18261
▁765	-18262
▁DL	-18263
▁Pack	-18264
▁조종당	-18265
▁AO	-18266
▁속출	-18267
▁보살피	-18268
▁후타바	-18269
▁치세	-18270
▁스코어링	-18271
▁핑거	-18272
▁TBS	-18273
▁조선인	-18274
사관학교	-18275
▁강북	-18276
▁머큐	-18277
▁뒤돌	-18278
my	-18279
▁계책	-18280
▁영도	-18281
▁뱃지	-18282
▁일컬	-18283
▁차차	-18284
▁251	-18285
▁마르셀	-18286
▁미야코	-18287
도니아	-18288
▁르브론	-18289
▁사카키	-18290
▁조준기	-18291
▁괴로워하	-18292
▁결선	-18293
▁그늘	-18294
▁루시아	-18295
▁파헤치	-18296
마이트	-18297
▁바깥쪽	-18298
▁약탈자	-18299
oom	-18300
▁한류	-18301
▁마츠리	-18302
▁뒤엎	-18303
▁Young	-18304
▁발랄	-18305
▁버지	-18306
▁외동	-18307
▁ABC	-18308
bsp	-18309
▁업소	-18310
▁펑펑	-18311
▁클리프	-18312
▁NXT	-18313
▁Japan	-18314
▁무궁화호	-18315
▁놀림	-18316
▁반신	-18317
▁야미	-18318
▁케이스케	-18319
구석	-18320
독스	-18321
DER	-18322
▁아이오	-18323
그럽	-18324
▁모선	-18325
▁ATM	-18326
▁잠정	-18327
▁틈타	-18328
▁굶주리	-18329
▁부르크	-18330
▁제동	-18331
icle	-18332
▁소니아	-18333
▁신검	-18334
▁빙글빙글	-18335
▁순발	-18336
▁바닷가	-18337
▁스테판	-18338
▁아이코	-18339
에트	-18340
▁대칭	-18341
▁승용차	-18342
▁잠자리	-18343
▁스트레인지	-18344
▁이타치	-18345
ubl	-18346
▁신재	-18347
잣집	-18348
▁매뉴	-18349
alent	-18350
▁시게루	-18351
트니	-18352
▁살벌	-18353
▁저편	-18354
키오	-18355
회전	-18356
▁상수	-18357
▁서산	-18358
▁혐한	-18359
▁느와르	-18360
▁설리	-18361
▁징집	-18362
▁순발력	-18363
▁특혜	-18364
▁스릴러	-18365
▁유희열	-18366
▁서주	-18367
▁어웨이	-18368
플러	-18369
▁노지	-18370
▁윅	-18371
▁마담	-18372
▁보류	-18373
▁hats	-18374
송이	-18375
▁매춘	-18376
▁역행	-18377
▁켈트	-18378
▁피콜로	-18379
▁660	-18380
▁구축전차	-18381
▁이남	-18382
▁Que	-18383
▁Full	-18384
▁밀짚모자	-18385
▁동호회	-18386
▁nbsp	-18387
▁펠레	-18388
▁개헌	-18389
▁금정	-18390
▁전조	-18391
▁퇴임	-18392
▁홍익	-18393
ement	-18394
일라잇	-18395
▁프리랜	-18396
▁트와일라잇	-18397
▁낙동	-18398
▁주권	-18399
▁마음먹	-18400
ha	-18401
▁반반	-18402
▁안대	-18403
▁야루	-18404
▁형법	-18405
▁뉴비	-18406
leep	-18407
▁가차없이	-18408
▁셰이	-18409
▁이반	-18410
▁560	-18411
St	-18412
선스	-18413
▁헤카	-18414
▁res	-18415
▁Champions	-18416
▁리빌	-18417
▁분식	-18418
▁에지	-18419
▁츠지	-18420
▁동독	-18421
▁세속	-18422
▁루돌프	-18423
▁서스펜션	-18424
▁은인	-18425
▁포제	-18426
▁블리치	-18427
▁스노우볼	-18428
▁매매	-18429
▁밀수	-18430
▁노태우	-18431
press	-18432
▁피시	-18433
▁.?	-18434
▁264	-18435
▁정가	-18436
▁로렌스	-18437
헤드	-18438
▁기형	-18439
▁황색	-18440
▁관세	-18441
▁끼얹	-18442
▁생소	-18443
▁라이선스	-18444
▁척추	-18445
▁레이팅	-18446
▁다이애나	-18447
수염	-18448
▁긍지	-18449
▁로미오	-18450
▁리투아	-18451
▁리투아니아	-18452
▁다이너마이트	-18453
▁신해	-18454
▁여군	-18455
▁포톤	-18456
▁가격대	-18457
▁하룻밤	-18458
uj	-18459
제품	-18460
▁황재	-18461
▁르네상스	-18462
OTH	-18463
▁길가	-18464
▁리디	-18465
▁TSM	-18466
▁소방서	-18467
▁이광수	-18468
▁럿	-18469
수아비	-18470
▁집어던지	-18471
▁허수아비	-18472
▁버들	-18473
태인	-18474
gg	-18475
▁건만	-18476
▁탁구	-18477
▁상반신	-18478
▁카이바	-18479
▁스도	-18480
로트	-18481
▁희소	-18482
▁소고	-18483
▁des	-18484
▁경제력	-18485
▁심부름	-18486
▁어정쩡	-18487
▁차징	-18488
▁사이클론	-18489
툴루	-18490
▁남코	-18491
▁야오	-18492
▁성운	-18493
▁웬리	-18494
▁코니	-18495
▁반년	-18496
▁봉투	-18497
▁분출	-18498
▁재일	-18499
▁절실	-18500
▁지브	-18501
▁콩고	-18502
▁사토루	-18503
▁호시노	-18504
ots	-18505
▁OT	-18506
▁왕세	-18507
▁지바	-18508
▁브리스	-18509
▁줄리엣	-18510
▁창시자	-18511
▁잔잔	-18512
38	-18513
IF	-18514
▁도살	-18515
▁상층	-18516
▁hatsan	-18517
매기	-18518
펠러	-18519
▁심볼	-18520
▁오웬	-18521
그러	-18522
▁Ho	-18523
▁장자	-18524
▁판교	-18525
레이브	-18526
▁수호신	-18527
▁아카시	-18528
▁티아라	-18529
▁스타더스트	-18530
▁살육	-18531
▁환술	-18532
▁ㅓ요	-18533
▁피어스	-18534
▁경산	-18535
▁도래	-18536
▁html	-18537
멘션	-18538
▁-,	-18539
▁농도	-18540
▁모조	-18541
▁디멘션	-18542
▁호타루	-18543
▁패러독스	-18544
▁요네	-18545
▁237	-18546
▁칵	-18547
▁레진	-18548
▁마네	-18549
▁ㅠ	-18550
▁짜장	-18551
▁레인저스	-18552
바인	-18553
거래	-18554
▁발당	-18555
▁살포	-18556
▁난징	-18557
▁넷째	-18558
▁지원자	-18559
삭스	-18560
폭풍	-18561
▁GA	-18562
▁범퇴	-18563
▁성의	-18564
▁마라톤	-18565
디난	-18566
▁박건	-18567
▁히브리	-18568
▁316	-18569
▁Ele	-18570
▁미우라	-18571
▁앞부분	-18572
▁20000	-18573
▁송정	-18574
플라이	-18575
▁POWER	-18576
보스	-18577
▁감마	-18578
▁그렌	-18579
▁선단	-18580
▁큐라	-18581
▁대항해	-18582
▁로트	-18583
▁일평균	-18584
▁문파	-18585
▁수기	-18586
▁와라	-18587
▁직종	-18588
▁티오	-18589
▁알고리	-18590
▁근친	-18591
▁애착	-18592
▁가발	-18593
▁충이	-18594
▁호르몬	-18595
▁덜하	-18596
▁명치	-18597
▁지드	-18598
▁하운드	-18599
▁담그	-18600
▁김광현	-18601
▁쳇	-18602
▁약혼자	-18603
▁아사쿠라	-18604
▁유이치	-18605
▁활발히	-18606
▁파우스트	-18607
▁찬란	-18608
▁추론	-18609
▁쿠지	-18610
▁단축키	-18611
라이어티	-18612
▁Shad	-18613
▁반입	-18614
▁프리랜서	-18615
▁일면	-18616
▁버라이어티	-18617
▁보아	-18618
▁여운	-18619
▁정상급	-18620
▁금천	-18621
▁배고프	-18622
▁아우라	-18623
▁송지	-18624
▁망원경	-18625
▁아사미	-18626
▁파라다이스	-18627
▁유린	-18628
▁카나타	-18629
▁뛰쳐나가	-18630
▁꽃잎	-18631
▁노미야	-18632
미트	-18633
▁빗대	-18634
▁아코	-18635
▁양분	-18636
▁헤드폰	-18637
▁아르테미스	-18638
▁덤블	-18639
▁SUV	-18640
▁라이스	-18641
▁하야시	-18642
▁해밀턴	-18643
▁조나단	-18644
▁DH	-18645
매김	-18646
▁김남	-18647
▁유투	-18648
▁boy	-18649
▁강진	-18650
▁제천	-18651
▁체면	-18652
▁떄문	-18653
▁속죄	-18654
▁Mad	-18655
▁NMB	-18656
▁덤벼들	-18657
▁1917	-18658
▁Att	-18659
▁스타터	-18660
▁펠릭스	-18661
▁람보	-18662
▁려나	-18663
바위보	-18664
▁쿠사나기	-18665
▁가위바위보	-18666
▁재계	-18667
▁한라	-18668
▁자리매김	-18669
▁건너오	-18670
▁사나다	-18671
▁기시	-18672
▁과거사	-18673
▁메사	-18674
▁레이서	-18675
▁동성애자	-18676
대군	-18677
카르	-18678
▁주지	-18679
▁주화	-18680
▁콜트	-18681
hn	-18682
▁발도	-18683
▁전라도	-18684
▁두루마리	-18685
▁결속	-18686
▁미적	-18687
▁사타	-18688
▁시베리아	-18689
▁늄	-18690
▁계엄	-18691
▁브금	-18692
▁목욕탕	-18693
ground	-18694
▁우왕	-18695
▁배틀로	-18696
▁압둘	-18697
▁Lun	-18698
▁자이로	-18699
▁타카미	-18700
관리	-18701
▁발병	-18702
▁타도	-18703
▁254	-18704
▁There	-18705
▁주리	-18706
▁연장포	-18707
▁알고리즘	-18708
▁MUSIC	-18709
▁특례	-18710
▁김재환	-18711
▁시트콤	-18712
yo	-18713
럴드	-18714
▁실례	-18715
총사	-18716
▁도류	-18717
▁아키야마	-18718
볶이	-18719
▁내무	-18720
▁다분	-18721
▁연두	-18722
▁이재명	-18723
ori	-18724
▁향신	-18725
▁이지만	-18726
▁거하	-18727
▁워스	-18728
▁퇴직	-18729
▁Mil	-18730
서니	-18731
▁미역	-18732
덕이	-18733
▁통장	-18734
▁Mel	-18735
▁1933	-18736
▁모차	-18737
▁포신	-18738
▁한문	-18739
▁바이트	-18740
▁표지판	-18741
▁광교	-18742
▁작자	-18743
▁팬더	-18744
▁ESP	-18745
▁하나같이	-18746
▁하세가와	-18747
▁옆집	-18748
▁릴레이	-18749
▁갈망	-18750
▁넷플	-18751
▁알렌	-18752
▁넷플릭스	-18753
파르	-18754
▁명절	-18755
▁외무	-18756
▁HKT	-18757
스코	-18758
▁냉철	-18759
▁크라이시스	-18760
▁견주	-18761
▁베로니카	-18762
▁혼내	-18763
▁곡괭이	-18764
▁센고쿠	-18765
▁스크랩	-18766
▁카디널	-18767
▁뿅	-18768
▁통폐	-18769
▁매뉴얼	-18770
▁탐지기	-18771
가짐	-18772
▁국보	-18773
▁짬뽕	-18774
▁관리인	-18775
▁Hi	-18776
▁동강	-18777
▁쿠우	-18778
▁워해머	-18779
▁쟝	-18780
▁호밍	-18781
▁더욱더	-18782
▁크툴루	-18783
산리	-18784
▁시이	-18785
네이션	-18786
▁Mer	-18787
▁카미야	-18788
▁한국사	-18789
▁크리스티안	-18790
▁비겁	-18791
▁카미조	-18792
▁그리워하	-18793
▁라이브러리	-18794
▁수학여행	-18795
▁보람	-18796
▁서든	-18797
▁혹독	-18798
▁깨뜨리	-18799
▁난데없이	-18800
▁동아일보	-18801
▁Pa	-18802
▁가맹	-18803
▁도네	-18804
▁몰두	-18805
▁치하	-18806
▁242	-18807
▁맹독충	-18808
▁일렉트릭	-18809
▁신탁	-18810
▁펌웨어	-18811
▁유품	-18812
▁저속	-18813
▁성북	-18814
▁주둔지	-18815
▁증식	-18816
▁예컨대	-18817
▁네기	-18818
▁니티	-18819
▁전범	-18820
▁왕창	-18821
▁판넬	-18822
▁디바인	-18823
▁카나메	-18824
▁루니	-18825
▁장작	-18826
▁블로우	-18827
▁클라크	-18828
▁노장	-18829
▁커밍	-18830
▁식용	-18831
▁티비	-18832
▁산지	-18833
▁안주	-18834
▁무기고	-18835
▁고비	-18836
▁인조인간	-18837
▁설원	-18838
▁아귀	-18839
▁은둔	-18840
ility	-18841
▁거북이	-18842
▁마르티	-18843
▁불명예	-18844
▁낙양	-18845
▁불릿	-18846
▁기정	-18847
▁이국	-18848
▁엘리시	-18849
아프	-18850
▁가샤	-18851
▁항마	-18852
▁돌고래	-18853
▁왜냐면	-18854
▁코드네임	-18855
▁김우	-18856
▁이시스	-18857
▁궁정	-18858
▁wanna	-18859
▁Games	-18860
▁Easy	-18861
▁뒤쫓	-18862
▁적도	-18863
▁보안관	-18864
[...]
