▁▃ -0
▁ㅇ -1
ㅡㄴ -2
▁ㄱ -3
▁ㄷ -4
▁. -5
ㅡㄹ -6
▁ㄴ -7
▁ㅇㅔ -8
▁ㄴㅡㄴ -9
▁ㄹ -10
▁ㄷㅏ -11
▁ㅇㅣ -12
▁ㅎ -13
▁이 -14
▁ㅇㅡㄹ -15
▁ㅇㅢ -16
▁하 -17
ㅏㄴ -18
▁, -19
ㅅㅓ -20
▁ㄱㅏ -21
▁ㄹㅡㄹ -22
▁ㅇㅡㄴ -23
▁ㅁ -24
ㅈㅣ -25
ㄷㅏ -26
▁ㄱㅗ -27
▁1 -28
▁ㅇㅡ -29
▁ㅎㅏㄴ -30
▁ㅇㅓ -31
▁있 -32
▁2 -33
ㄹㅗ -34
▁ㄷㅗ -35
▁ㄹㅗ -36
▁ㅎㅐ -37
▁사 -38
▁그 -39
▁ㅈㅣ -40
▁ㅁㅕ -41
▁들 -42
▁시 -43
▁수 -44
▁아 -45
▁ㅂ -46
▁대 -47
▁ㄱㅔ -48
▁되 -49
▁ㄱㅣ -50
▁일 -51
▁ㄹㅏ -52
▁전 -53
▁가 -54
▁ㅇㅓㅆ -55
▁기 -56
▁- -57
▁자 -58
▁적 -59
▁ㅇㅏ -60
▁ㅁㅕㄴ -61
▁것 -62
▁다 -63
▁ㅇㅣㄴ -64
▁보 -65
▁3 -66
▁지 -67
▁스 -68
▁ㄱㅘ -69
▁주 -70
▁ㅇㅘ -71
▁ㅎㅐㅆ -72
▁마 -73
ㄴㄷㅏ -74
▁상 -75
▁정 -76
ㄱㅗ -77
▁ㄷㅚ -78
ㅏㄹ -79
▁20 -80
▁ㅈ -81
ㅕㅆ -82
ㅓㄴ -83
▁' -84
▁년 -85
▁공 -86
▁ㅎㅏㄴㄷㅏ -87
▁: -88
▁때 -89
ㄴㅡㄴ -90
▁모 -91
▁나 -92
▁경 -93
ㅁㅕ -94
▁중 -95
▁유 -96
▁제 -97
ㅎㅐ -98
▁한 -99
▁오 -100
▁없 -101
▁인 -102
▁부 -103
ㅁㅏㄴ -104
▁4 -105
ㄴㅏ -106
▁소 -107
▁ㅅ -108
▁성 -109
ㄱㅔ -110
▁등 -111
▁무 -112
▁않 -113
▁ㄴㅏ -114
▁ㅎㅏㄹ -115
▁5 -116
▁ㅂㅗ -117
▁비 -118
▁개 -119
ㄷㅔ -120
▁0 -121
▁미 -122
ㅣㄴ -123
▁ㄷㅓㄴ -124
▁여 -125
▁" -126
▁어 -127
▁월 -128
▁ㄲ -129
▁조 -130
▁ㅁㅏㄴ -131
▁201 -132
▁세 -133
▁장 -134
▁위 -135
▁/ -136
▁방 -137
▁만 -138
▁고 -139
▁동 -140
▁바 -141
▁카 -142
▁연 -143
▁선 -144
ㄹㄹ -145
▁도 -146
▁거 -147
▁영 -148
▁신 -149
▁타 -150
▁안 -151
▁말 -152
▁화 -153
▁후 -154
ㅎㅏㄴ -155
▁발 -156
▁리 -157
▁ㄴㅡㄴㄷㅔ -158
▁구 -159
▁내 -160
▁차 -161
▁레 -162
ㅁㅕㄴ -163
▁때문 -164
ㄱㅏ -165
▁6 -166
▁ㄲㅏ -167
▁생 -168
▁ㄷㅚㄴ -169
▁원 -170
▁10 -171
▁파 -172
▁명 -173
▁최 -174
▁우 -175
ㅇㅓ -176
▁ㅈㅏ -177
▁문 -178
▁실 -179
ㅜㄴ -180
▁당 -181
▁번 -182
▁노 -183
▁7 -184
▁ㅇㅕㅆ -185
▁강 -186
▁같 -187
▁포 -188
▁해 -189
▁회 -190
▁데 -191
▁서 -192
▁! -193
▁ㄷㅚㄴㄷㅏ -194
▁더 -195
▁단 -196
▁진 -197
▁S -198
▁특 -199
▁8 -200
▁ㄱㅓ -201
▁많 -202
▁결 -203
▁초 -204
▁받 -205
▁라 -206
▁ㅊ -207
▁관 -208
▁ㅇㅏㅆ -209
▁불 -210
▁ㅂㅜ -211
▁반 -212
▁의 -213
▁작 -214
▁프 -215
▁역 -216
▁19 -217
▁게 -218
▁버 -219
▁ㅁㅕㄴㅅㅓ -220
ㄷㅗ -221
ㄹㅏ -222
▁9 -223
▁경우 -224
▁계 -225
ㄴㅣ -226
▁코 -227
▁공격 -228
▁배 -229
▁분 -230
▁ㅇㅕ -231
▁ㄸ -232
▁추 -233
▁아니 -234
▁피 -235
▁드 -236
▁A -237
▁사용 -238
ㅌㅓ -239
▁출 -240
▁국 -241
▁에 -242
▁남 -243
▁현 -244
▁자신 -245
레이 -246
▁크 -247
▁물 -248
▁M -249
ㄹㅓ -250
▁이후 -251
▁매 -252
▁좋 -253
▁% -254
▁점 -255
▁편 -256
▁호 -257
ㅣㄴㄷㅏ -258
▁감 -259
▁ㄷㅐ -260
▁패 -261
▁트 -262
▁학 -263
▁로 -264
▁교 -265
▁정도 -266
▁사람 -267
▁ㅋ -268
▁재 -269
ㅇㅑ -270
▁C -271
▁요 -272
▁ㅅㅓ -273
▁또 -274
▁저 -275
▁그리 -276
스트 -277
▁두 -278
▁예 -279
▁플 -280
▁입 -281
ㄹㅕ -282
▁B -283
▁가능 -284
▁ㅆ -285
▁T -286
▁김 -287
▁설 -288
ㅣㄹ -289
▁달 -290
▁속 -291
▁참 -292
ㅇㅗ -293
▁형 -294
▁본 -295
▁캐 -296
▁함 -297
▁알 -298
▁치 -299
▁등장 -300
▁ㅇㅟ -301
ㅇㅡ -302
▁평 -303
ㅇㅜㄴ -304
▁ㅁㅗ -305
▁~ -306
▁메 -307
▁D -308
ㅇㅕ -309
▁과 -310
▁+ -311
▁ㅌ -312
▁? -313
▁다른 -314
▁종 -315
▁12 -316
▁아이 -317
▁승 -318
ㅈㅣㄴ -319
▁체 -320
▁게임 -321
▁토 -322
▁권 -323
▁ㄴㅡㄴㄷㅏ -324
▁팀 -325
▁군 -326
▁ㅇㅗ -327
▁.. -328
er -329
▁200 -330
▁11 -331
▁ㅅㅣ -332
▁직 -333
▁ㅁㅏ -334
▁용 -335
▁L -336
▁외 -337
▁판 -338
▁그리고 -339
00 -340
▁확 -341
ㅇㅏ -342
▁처 -343
▁애 -344
▁하나 -345
▁잘 -346
▁경기 -347
▁사실 -348
in -349
▁행 -350
▁ㄴㅣ -351
▁테 -352
▁시간 -353
▁필 -354
▁죽 -355
▁F -356
▁운 -357
▁키 -358
ㅇㅘ -359
▁P -360
▁쓰 -361
▁ㅂㅓ -362
ㅂㄴㅣ -363
▁박 -364
▁못 -365
▁ㅂㅏ -366
▁심 -367
▁살 -368
▁투 -369
ㅇㅎㅐ -370
▁모습 -371
▁디 -372
▁변 -373
▁목 -374
▁뒤 -375
▁간 -376
ㄴㅏㄴ -377
▁집 -378
ㅈㅕ -379
▁히 -380
▁이상 -381
▁G -382
▁네 -383
▁루 -384
▁활 -385
▁사이 -386
▁이름 -387
▁통 -388
▁베 -389
지만 -390
▁높 -391
▁각 -392
▁그러 -393
▁상대 -394
▁양 -395
▁나오 -396
▁E -397
▁순 -398
▁맞 -399
▁언 -400
ㄹㄹㅕ -401
▁ㅈㅜ -402
▁표 -403
▁야 -404
스터 -405
an -406
▁ㄹㅕ -407
▁ㄱㅓㄴ -408
▁능 -409
▁시작 -410
▁하지만 -411
▁ㄴㅐ -412
▁효 -413
▁문제 -414
▁존 -415
on -416
▁15 -417
▁돌 -418
▁일본 -419
▁함께 -420
▁왕 -421
▁증 -422
▁ㅇㅑ -423
ㅇㅝ -424
▁병 -425
▁ㄱㅔㅆ -426
▁손 -427
▁생각 -428
▁한국 -429
▁# -430
▁건 -431
▁캐릭 -432
▁약 -433
▁H -434
▁ㅎㅏ -435
▁ㄱㅡ -436
▁브 -437
▁R -438
▁천 -439
▁K -440
▁ㅊㅓ -441
▁폭 -442
ㄹㅓㅁ -443
▁완 -444
▁캐릭터 -445
ㄹㅡㄴ -446
▁별 -447
▁듯 -448
▁능력 -449
대로 -450
▁너 -451
▁프로 -452
▁t -453
▁총 -454
▁다시 -455
▁ㅍ -456
▁플레이 -457
▁클 -458
▁독 -459
▁I -460
▁블 -461
▁시즌 -462
▁잡 -463
▁N -464
▁막 -465
▁스킬 -466
▁페 -467
▁항 -468
이트 -469
▁날 -470
▁ㄸㅏ -471
▁ㅃ -472
▁근 -473
▁광 -474
▁음 -475
▁추가 -476
▁복 -477
▁m -478
▁ㄱㅓㄹ -479
▁가지 -480
▁식 -481
▁힘 -482
▁상황 -483
▁검 -484
▁가장 -485
▁따 -486
▁만들 -487
▁또한 -488
▁카드 -489
or -490
▁먹 -491
ㅈㅕㅆ -492
미지 -493
▁상태 -494
▁삼 -495
▁당시 -496
ㅓㄹ -497
▁모두 -498
ar -499
▁결국 -500
▁열 -501
▁백 -502
▁충 -503
▁효과 -504
▁곡 -505
▁업 -506
▁모든 -507
▁18 -508
▁16 -509
▁다만 -510
▁쿠 -511
ㄲㅏ -512
▁채 -513
ㄹㅣㄴ -514
▁많이 -515
▁얼 -516
▁악 -517
▁보이 -518
▁O -519
▁금 -520
▁전투 -521
ㄴㅐ -522
▁30 -523
▁끝 -524
at -525
▁티 -526
▁ㄷㅡㄹ -527
▁및 -528
▁시리 -529
▁ㄷㅚㄹ -530
ㅅㅓㄴ -531
▁ㅁㅗㅅ -532
▁산 -533
ㄴㅣㄴ -534
▁ㅅㅡ -535
▁임 -536
▁13 -537
▁눈 -538
▁급 -539
▁민 -540
▁선수 -541
▁s -542
▁올 -543
he -544
▁레벨 -545
▁태 -546
▁세계 -547
▁] -548
▁W -549
ㄹㄹㅏ -550
▁ㅂㅗㄹ -551
▁존재 -552
ㄱㅕ -553
▁친 -554
ㅇㅛ -555
라이 -556
▁엔 -557
▁14 -558
▁현재 -559
▁[ -560
▁라이 -561
▁매우 -562
▁그런 -563
▁시리즈 -564
▁ㅇㅣㄹ -565
▁무기 -566
ㅇㅗㄴ -567
▁슈 -568
▁앞 -569
▁상당 -570
▁ㅅㅐ -571
▁길 -572
▁ㅋㅡㄴ -573
▁스타 -574
▁물론 -575
▁커 -576
▁그러나 -577
▁머 -578
▁레이 -579
▁첫 -580
▁ㅌㅗ -581
▁마법 -582
▁골 -583
en -584
ㅇㅣㄴㄷㅏ -585
▁절 -586
▁c -587
▁극 -588
▁팬 -589
▁황 -590
▁17 -591
▁얻 -592
▁난 -593
▁터 -594
▁그렇 -595
▁자체 -596
▁창 -597
ㅜㄹ -598
ㅇㅘㅆ -599
▁기술 -600
▁100 -601
▁취 -602
▁00 -603
▁이런 -604
▁합 -605
▁니 -606
▁주인 -607
▁실제 -608
▁이유 -609
▁청 -610
ㅇㅣㄴ -611
▁25 -612
▁관련 -613
ou -614
거리 -615
▁누 -616
▁탈 -617
ㄹㅕㅆ -618
▁V -619
al -620
▁허 -621
ㅏㄴㄷㅏ -622
이지 -623
ㅇㅎㅏㄴ -624
▁시키 -625
▁이용 -626
▁필요 -627
▁ㄷㅡ -628
▁여기 -629
▁U -630
▁방송 -631
▁다음 -632
▁해당 -633
▁케 -634
▁ㅇㅣㄴㄷㅔ -635
▁기본 -636
▁지역 -637
▁철 -638
▁바로 -639
▁역시 -640
▁법 -641
▁은 -642
▁처음 -643
▁기록 -644
▁워 -645
▁ㄷㅓ -646
▁곳 -647
▁방어 -648
▁새 -649
▁일반 -650
▁거의 -651
▁ㄱㅣㄴ -652
▁환 -653
▁째 -654
▁그래 -655
▁2017 -656
리스 -657
▁199 -658
▁피해 -659
ㅊㅕ -660
▁혼 -661
ㄷㅡㄴ -662
▁대학 -663
▁ㅎㅐㅆㅇㅡ -664
▁북 -665
▁아무 -666
이스 -667
▁ㄴㅑ -668
▁좀 -669
▁ㅂㅣ -670
▁2018 -671
▁범 -672
▁같이 -673
▁사건 -674
▁여러 -675
▁이야 -676
▁미국 -677
▁ㅂㅘ -678
▁특히 -679
▁이야기 -680
▁ㄴㅡㄴㅈㅣ -681
▁탄 -682
▁격 -683
ㅎㅕ -684
ㅎㅐㅆ -685
ㅈㅣㄴㄷㅏ -686
▁잠 -687
▁ㅇㅡㅁ -688
▁글 -689
▁k -690
▁없이 -691
▁부분 -692
▁싶 -693
리아 -694
▁ㅌㅗㅇㅎㅐ -695
▁몬 -696
es -697
▁ㅈㅣㄴ -698
▁영화 -699
▁ㅎㅏㅁ -700
지막 -701
▁학교 -702
▁본인 -703
▁달리 -704
▁인간 -705
▁넘 -706
▁ㄷㅙ -707
▁진행 -708
▁못하 -709
▁ㅇㅔㄴ -710
▁참고 -711
▁2019 -712
▁증가 -713
▁ㄷㅡㄹㅇㅓ -714
▁즉 -715
▁귀 -716
▁싸 -717
it -718
▁버리 -719
▁줄 -720
▁ㅇㅣㄴㅈㅣ -721
ㄹㅗㄱ -722
▁리그 -723
▁엘 -724
ㅇㅔ -725
▁뿐 -726
▁주인공 -727
부분 -728
▁제작 -729
▁마지막 -730
▁자기 -731
▁속도 -732
▁준 -733
▁작품 -734
▁그냥 -735
▁몸 -736
▁찾 -737
▁21 -738
어지 -739
▁와 -740
▁덕 -741
▁50 -742
▁X -743
▁밀 -744
▁ㄷㅡㄴ -745
▁둘 -746
▁놓 -747
▁내용 -748
▁면 -749
▁걸 -750
▁2016 -751
ㄹㄹㅓ -752
▁ㅅㅡㅂㄴㅣ -753
▁공격력 -754
▁계속 -755
ㅇㅗㄴㄷㅏ -756
▁수준 -757
▁대표 -758
▁대부분 -759
▁인물 -760
▁& -761
▁개요 -762
is -763
re -764
▁암 -765
▁몇 -766
전히 -767
▁쪽 -768
▁어느 -769
▁위치 -770
▁비슷 -771
▁ㄱㅜ -772
▁w -773
▁동안 -774
ㅋㅕ -775
▁헤 -776
▁딜 -777
▁대신 -778
▁22 -779
▁국가 -780
▁ㅇㅣㄴㅎㅐ -781
▁담 -782
le -783
▁지금 -784
토리 -785
▁홈 -786
▁상당히 -787
▁평가 -788
▁엄 -789
▁축 -790
▁기사 -791
▁활동 -792
▁관계 -793
▁일부 -794
▁타이 -795
▁우리 -796
▁이전 -797
▁접 -798
ㅇㅕㅆ -799
▁영상 -800
▁J -801
▁질 -802
▁보스 -803
▁d -804
▁서울 -805
▁ㄴㅡ -806
▁규 -807
▁너무 -808
▁그대로 -809
▁체력 -810
▁24 -811
▁들어 -812
▁유닛 -813
▁감독 -814
▁최대 -815
▁문서 -816
▁성공 -817
▁슬 -818
▁기준 -819
▁낮 -820
▁시절 -821
▁홍 -822
▁팔 -823
ing -824
▁넣 -825
ic -826
▁러 -827
▁제외 -828
▁f -829
▁데미지 -830
▁ㅁㅡ -831
▁중국 -832
▁빠 -833
▁느 -834
ㄹㅇㅏ -835
▁몬스터 -836
▁츠 -837
as -838
▁실제로 -839
▁ㅅㅏ -840
▁ㅃㅏ -841
▁바람 -842
▁유저 -843
▁설정 -844
▁b -845
▁붙 -846
▁결과 -847
▁정보 -848
▁멤 -849
▁그녀 -850
시아 -851
ㄴㅏㅆ -852
▁전쟁 -853
▁지원 -854
▁갈 -855
▁승리 -856
▁이미 -857
ㅇㄱ -858
▁23 -859
▁벌 -860
▁논 -861
▁멤버 -862
▁2015 -863
▁소속 -864
▁ㄴㅗ -865
▁자리 -866
▁언급 -867
▁님 -868
▁애니 -869
▁울 -870
▁ㅈㅝ -871
▁온 -872
▁원래 -873
▁맨 -874
▁칼 -875
▁40 -876
▁직접 -877
▁ㄹㅏㄴ -878
▁맡 -879
▁풀 -880
▁성우 -881
버지 -882
▁설명 -883
▁ㅊㅣ -884
▁육 -885
▁컨 -886
▁선택 -887
▁이동 -888
▁전체 -889
ㄹㅣㄴㄷㅏ -890
▁의미 -891
▁도시 -892
▁쉽 -893
▁마음 -894
▁a -895
▁여자 -896
운드 -897
▁씩 -898
ㅡㅁ -899
▁희 -900
▁다르 -901
▁과거 -902
ㅜㄴㄷㅏ -903
▁머리 -904
▁ㅈㅜㄹ -905
▁괴 -906
▁ㅂㅗㄴ -907
▁협 -908
▁< -909
ㅂㅜ -910
랜드 -911
▁ㅁㅜ -912
▁플레이어 -913
▁친구 -914
▁방법 -915
▁돈 -916
▁) -917
▁봉 -918
▁측 -919
▁아이템 -920
▁장면 -921
▁ㅂㅏㄺ -922
▁ㄷㅙㅆ -923
▁출연 -924
▁뉴 -925
▁ㅈㅜㄴㄷㅏ -926
이션 -927
▁ㅇㅏㄹ -928
▁버전 -929
ㄷㅡㄹ -930
▁차이 -931
▁스토리 -932
om -933
▁묘 -934
▁p -935
am -936
▁탑 -937
▁h -938
▁몰 -939
▁센 -940
가지 -941
▁꽤 -942
ㄹㄹㅣㄴ -943
▁갑 -944
▁즈 -945
ㅜㅁ -946
ㅣㅁ -947
▁대사 -948
이드 -949
어나 -950
▁소리 -951
▁사랑 -952
▁모드 -953
▁공식 -954
▁혹 -955
▁압 -956
▁프리 -957
▁ㄹㅓ -958
벤트 -959
▁이것 -960
▁조금 -961
▁당하 -962
▁송 -963
▁개발 -964
▁198 -965
▁대상 -966
▁초반 -967
el -968
▁ㅇㅗㄹㄹㅏ -969
▁거리 -970
학교 -971
▁전부 -972
▁파이 -973
▁버스 -974
▁ㄸㅓㄹ -975
▁o -976
▁연구 -977
▁침 -978
▁씨 -979
▁퍼 -980
▁남자 -981
▁이벤트 -982
▁최고 -983
▁제대로 -984
ㅓㅁ -985
▁속성 -986
▁책 -987
▁ㅆㅓ -988
▁링 -989
▁26 -990
▁볼 -991
▁ㅅㅔ -992
▁ㅇㅏㄹㄹㅕ -993
▁2014 -994
▁궁 -995
ㅎㅏㄹ -996
▁동시 -997
▁만큼 -998
▁n -999
▁ㄴㅏㄹ -1000
▁여성 -1001
▁듣 -1002
▁강화 -1003
▁파괴 -1004
▁유명 -1005
ㄹㅣㄹ -1006
▁기타 -1007
이도 -1008
다가 -1009
▁정말 -1010
▁층 -1011
▁아버지 -1012
ㄱㅏㅆ -1013
▁스테 -1014
▁나이 -1015
▁28 -1016
▁역사 -1017
▁답 -1018
▁드래 -1019
▁소환 -1020
▁쇼 -1021
▁성능 -1022
▁자주 -1023
▁학생 -1024
▁the -1025
▁27 -1026
▁아직 -1027
▁류 -1028
▁최종 -1029
▁운영 -1030
▁왜 -1031
▁이렇 -1032
▁우승 -1033
▁모르 -1034
▁회복 -1035
▁ㅈㅗ -1036
ㅎㅏㄴㄷㅏ -1037
▁석 -1038
▁후반 -1039
▁색 -1040
▁당연 -1041
▁31 -1042
▁= -1043
▁출신 -1044
▁앨 -1045
▁농 -1046
▁나가 -1047
▁마이 -1048
▁ㄸㅓㄹㅇㅓ -1049
▁그런데 -1050
ㅁㅕㄴㅅㅓ -1051
▁특성 -1052
▁인터 -1053
▁강력 -1054
▁공개 -1055
▁이때 -1056
▁멀 -1057
▁빌 -1058
ㅈㅏ -1059
▁마리 -1060
▁확률 -1061
▁서로 -1062
▁사망 -1063
▁유지 -1064
리어 -1065
▁ㄷㅗㄹㅇㅏ -1066
▁콘 -1067
▁주로 -1068
ㄱㅏㄴ -1069
▁그것 -1070
▁밖 -1071
▁노래 -1072
▁노선 -1073
▁ㅅㅐㅇㄱ -1074
▁ㅈㅓ -1075
▁ㄷㅡㅅ -1076
ol -1077
▁샤 -1078
▁방식 -1079
▁잔 -1080
▁슈퍼 -1081
▁발생 -1082
▁발매 -1083
▁라인 -1084
▁000 -1085
ㅇㅓㅆ -1086
▁나라 -1087
▁마찬 -1088
▁마찬가지 -1089
▁망 -1090
▁정신 -1091
▁특수 -1092
▁ㅇㅕㅆㅇㅡ -1093
▁시스 -1094
▁결정 -1095
▁오히 -1096
▁영향 -1097
▁ㅇㅗㄴ -1098
▁대전 -1099
▁월드 -1100
▁오히려 -1101
▁솔 -1102
ion -1103
ㅊㅣㄴ -1104
et -1105
▁변경 -1106
▁비교 -1107
▁포함 -1108
▁영웅 -1109
▁장비 -1110
▁기존 -1111
ac -1112
ㄹㅡㄴㄷㅏ -1113
▁배우 -1114
▁역할 -1115
▁게다가 -1116
▁보통 -1117
▁인기 -1118
▁르 -1119
머니 -1120
▁ㅆㅡㄹ -1121
▁뜻 -1122
▁작중 -1123
▁먼 -1124
ㅇㅣ -1125
아가 -1126
▁32 -1127
▁찍 -1128
ㅁㅏ -1129
ㅐㄴ -1130
▁들어가 -1131
▁마을 -1132
▁차량 -1133
▁중요 -1134
▁ㄴㅜ -1135
▁아예 -1136
▁어떤 -1137
▁수록 -1138
▁형태 -1139
▁Y -1140
▁억 -1141
▁일단 -1142
▁술 -1143
▁성격 -1144
ㄹㄹㅕㅆ -1145
▁좌 -1146
▁행동 -1147
▁세트 -1148
▁이번 -1149
▁난이도 -1150
▁싱 -1151
▁ㅁㅗㅅㅎㅐㅆ -1152
▁ㅊㅏ -1153
il -1154
us -1155
▁대한 -1156
▁29 -1157
▁착 -1158
프트 -1159
▁섬 -1160
▁갖 -1161
▁부르 -1162
▁과정 -1163
▁주장 -1164
우스 -1165
▁모양 -1166
▁흑 -1167
▁맵 -1168
▁액 -1169
ig -1170
▁v -1171
▁ㅈㅕㅆ -1172
▁심지 -1173
ow -1174
▁시대 -1175
▁음악 -1176
▁부족 -1177
▁대회 -1178
▁드라 -1179
레이드 -1180
▁떨 -1181
▁ㅁㅣ -1182
ㄱㅓㄹ -1183
▁이러 -1184
▁ㅅㅏㄹ -1185
ed -1186
▁최초 -1187
▁ㅁㅏㄴㄷㅡㄴ -1188
▁ㅉ -1189
▁2013 -1190
▁심지어 -1191
민국 -1192
ㅔㄴ -1193
▁사회 -1194
▁구성 -1195
▁이렇게 -1196
▁발동 -1197
▁스트 -1198
▁윤 -1199
▁입장 -1200
▁휴 -1201
▁폐 -1202
▁ㅇㅘㅆ -1203
▁ㄷㅏㅇㅎㅐ -1204
▁ㄸㅓ -1205
▁확인 -1206
ㅈㅣㄹ -1207
▁깨 -1208
▁ㅋㅓ -1209
▁l -1210
▁ㄴㅏㄴ -1211
▁유일 -1212
▁거기 -1213
▁던 -1214
▁바이 -1215
▁사진 -1216
▁풍 -1217
▁다이 -1218
▁먼저 -1219
ㄹㅐ -1220
▁획 -1221
▁정치 -1222
▁빛 -1223
▁애니메 -1224
▁x -1225
▁어떻 -1226
▁60 -1227
▁아래 -1228
▁ㅆㅡ -1229
▁항목 -1230
▁활약 -1231
▁여담 -1232
▁ㅆㅏ -1233
▁조건 -1234
ㅇㅜㄹ -1235
▁자세 -1236
▁모델 -1237
▁훈 -1238
ㄱㅏㄴㄷㅏ -1239
▁원작 -1240
▁콜 -1241
▁덕분 -1242
▁이제 -1243
▁35 -1244
▁ㅎㅏㅂㄴㅣ -1245
▁바뀌 -1246
▁득 -1247
▁하이 -1248
▁시스템 -1249
ㅂㅗ -1250
▁완전히 -1251
▁ㅇㅣㅁ -1252
▁대한민국 -1253
id -1254
▁굉 -1255
ㄹㅡㄹ -1256
▁주변 -1257
▁Lv -1258
▁감소 -1259
▁까 -1260
▁응 -1261
▁그래서 -1262
▁ㄴㅓㅁ -1263
▁프랑 -1264
인트 -1265
ㅈㅊ -1266
▁ㄲㅡ -1267
▁자유 -1268
▁챔 -1269
▁뭐 -1270
▁순간 -1271
▁독일 -1272
▁명칭 -1273
ay -1274
▁따르 -1275
▁얼굴 -1276
▁메이 -1277
▁전혀 -1278
▁2012 -1279
▁관리 -1280
ad -1281
▁애니메이션 -1282
▁경찰 -1283
▁특징 -1284
▁우주 -1285
▁자동 -1286
▁차지 -1287
ㄱㅏㄹ -1288
▁01 -1289
▁지나 -1290
버스 -1291
ㅌㅏ -1292
나마 -1293
▁부대 -1294
▁적용 -1295
▁할 -1296
▁교육 -1297
▁영어 -1298
▁굉장 -1299
▁가격 -1300
▁듀 -1301
ㅇㅣㄹ -1302
▁r -1303
▁정부 -1304
▁패배 -1305
▁뛰 -1306
▁뮤 -1307
▁of -1308
▁드래곤 -1309
▁고등 -1310
▁아군 -1311
▁마스터 -1312
▁실패 -1313
▁기간 -1314
없이 -1315
▁그렇게 -1316
소드 -1317
▁오브 -1318
ㅊㅏ -1319
▁개인 -1320
▁놀 -1321
▁생산 -1322
▁힘들 -1323
▁앨범 -1324
ot -1325
▁얼마 -1326
▁건물 -1327
▁시점 -1328
ve -1329
and -1330
▁아들 -1331
▁ㅈㅜㄴ -1332
▁그나마 -1333
▁혹은 -1334
▁뽑 -1335
▁하루 -1336
▁ㅂㅏㄲ -1337
▁ㅂㅏㄲㅇㅔ -1338
▁지속 -1339
▁상승 -1340
▁ㄹㅜ -1341
▁덱 -1342
주의 -1343
▁기능 -1344
▁국내 -1345
▁처리 -1346
▁작가 -1347
▁지구 -1348
▁짓 -1349
디오 -1350
▁턴 -1351
▁TV -1352
레스 -1353
▁획득 -1354
▁발견 -1355
▁패치 -1356
▁웨 -1357
▁에피 -1358
▁기억 -1359
▁녹 -1360
▁실력 -1361
▁반응 -1362
▁y -1363
▁제국 -1364
▁소개 -1365
▁도움 -1366
▁정확 -1367
너지 -1368
▁퀘 -1369
▁참조 -1370
▁랭 -1371
▁만화 -1372
▁영국 -1373
▁동일 -1374
▁킹 -1375
20 -1376
▁대학교 -1377
▁빼 -1378
ㅇㅗㄹ -1379
▁선발 -1380
▁현대 -1381
▁반대 -1382
ㅌㅔ -1383
ㅇㅝㅆ -1384
▁떠 -1385
▁칸 -1386
▁담당 -1387
ch -1388
▁그림 -1389
▁땅 -1390
▁출시 -1391
▁맥 -1392
▁계획 -1393
▁에피소드 -1394
▁기관 -1395
▁초기 -1396
▁쿨 -1397
ㅁㅊ -1398
▁향 -1399
▁량 -1400
▁드라마 -1401
▁아마 -1402
▁세대 -1403
▁단계 -1404
▁홀 -1405
▁밤 -1406
▁ㅎㅏㄴㅌㅔ -1407
▁딱 -1408
un -1409
▁판매 -1410
▁또는 -1411
▁범위 -1412
▁폴 -1413
ㅆㅓ -1414
ㄴㅏㄴㄷㅏ -1415
▁헬 -1416
ㅁㅡ -1417
▁ㅆㅡㄴ -1418
▁퇴 -1419
▁37 -1420
▁버프 -1421
소리 -1422
▁시청 -1423
▁The -1424
ㅓㅇ -1425
▁맛 -1426
▁늘 -1427
▁2010 -1428
BS -1429
▁벨 -1430
▁패턴 -1431
▁싸우 -1432
▁따라 -1433
▁회사 -1434
▁g -1435
▁빠르 -1436
▁폭발 -1437
▁문화 -1438
▁상위 -1439
▁시기 -1440
▁빨 -1441
▁표현 -1442
▁등급 -1443
▁대미지 -1444
▁요구 -1445
ㄱㅣㄴ -1446
▁무시 -1447
▁견 -1448
ㅎㅕㅆ -1449
▁ㅁㅔ -1450
▁타입 -1451
▁데이 -1452
▁확실 -1453
▁수비 -1454
▁80 -1455
▁어떻게 -1456
▁탐 -1457
ㄹㄹㅣㄴㄷㅏ -1458
▁500 -1459
▁라운드 -1460
▁죽이 -1461
▁습 -1462
▁진짜 -1463
▁끼 -1464
▁굉장히 -1465
▁ㅈㅜㄱ -1466
▁사고 -1467
▁움 -1468
▁St -1469
▁인정 -1470
▁잃 -1471
▁스페 -1472
▁이미지 -1473
▁45 -1474
▁경험 -1475
ㅕㄴ -1476
▁발사 -1477
▁가족 -1478
▁어디 -1479
ER -1480
▁생활 -1481
▁주의 -1482
▁컴 -1483
▁소모 -1484
▁파워 -1485
▁09 -1486
ㄴㅐㅆ -1487
▁묘사 -1488
▁만나 -1489
▁세이 -1490
▁딸 -1491
▁ㄱㅏㄹ -1492
▁* -1493
▁특별 -1494
▁낙 -1495
▁활용 -1496
▁ㄷㅏㅇㅎㅏㄴ -1497
▁아주 -1498
▁율 -1499
▁족 -1500
▁ㅈㅝㅆ -1501
▁중앙 -1502
▁대체 -1503
▁헌 -1504
▁연기 -1505
▁오리 -1506
▁02 -1507
▁방향 -1508
▁03 -1509
dd -1510
▁디자 -1511
▁ㅂㅏㄺㅎㅕ -1512
▁197 -1513
▁진출 -1514
로스 -1515
▁린 -1516
▁운동 -1517
▁km -1518
▁불리 -1519
▁트리 -1520
▁한정 -1521
▁중간 -1522
▁히로 -1523
ㅎㅣㄴ -1524
▁엑 -1525
▁싸움 -1526
▁끌 -1527
▁프랑스 -1528
▁익 -1529
▁ㅇㅓㅁㅊ -1530
▁ㅇㅓㅁㅊㅓㅇ -1531
▁데뷔 -1532
▁빈 -1533
▁믿 -1534
▁그룹 -1535
▁어렵 -1536
▁생명 -1537
인물 -1538
▁준비 -1539
▁ㄲㅡㅌ -1540
▁ㄴㅔ -1541
▁졸 -1542
▁그래도 -1543
▁겨 -1544
▁물리 -1545
▁포인트 -1546
▁핵 -1547
▁유리 -1548
▁ㅂㅓㄹ -1549
▁2011 -1550
▁엔딩 -1551
▁혼자 -1552
▁ㄹㅏㅇ -1553
▁당연히 -1554
▁야구 -1555
▁위험 -1556
▁선거 -1557
▁흔 -1558
▁스테이지 -1559
ff -1560
▁옆 -1561
▁현실 -1562
▁다니 -1563
▁후보 -1564
▁시장 -1565
▁ㅇㅓㅁㅊㅓㅇㄴㅏㄴ -1566
▁꿈 -1567
▁등장인물 -1568
▁조합 -1569
ㄱㅓㄴ -1570
▁논란 -1571
▁아르 -1572
ir -1573
▁05 -1574
▁숙 -1575
▁순위 -1576
통령 -1577
▁무장 -1578
▁더욱 -1579
▁어머니 -1580
▁흡 -1581
▁미션 -1582
▁퀘스트 -1583
▁죄 -1584
▁분위 -1585
ㅝㄴ -1586
▁사실상 -1587
▁떨어지 -1588
▁Z -1589
▁표기 -1590
▁크리스 -1591
스크 -1592
▁브라 -1593
os -1594
▁( -1595
▁비판 -1596
▁단순 -1597
▁고등학교 -1598
▁민주 -1599
▁챔피 -1600
ㅊㅕㅆ -1601
▁참여 -1602
▁08 -1603
▁프로그 -1604
▁구조 -1605
▁70 -1606
▁90 -1607
▁분위기 -1608
▁블랙 -1609
▁계약 -1610
▁푸 -1611
▁학년 -1612
▁동료 -1613
ㅋㅕㅆ -1614
▁훨 -1615
▁욕 -1616
▁07 -1617
im -1618
▁괜 -1619
▁얘 -1620
▁약간 -1621
▁대통령 -1622
▁중심 -1623
▁조선 -1624
▁취급 -1625
▁링크 -1626
▁ㄱㅏㅆ -1627
▁투수 -1628
▁ㅁㅗㅅㅎㅏㄴ -1629
▁... -1630
▁방어력 -1631
▁직업 -1632
▁똑 -1633
▁콤 -1634
▁48 -1635
▁보호 -1636
▁훨씬 -1637
▁ㄸㅟ -1638
▁여전히 -1639
▁결혼 -1640
비스 -1641
리카 -1642
ㄱㅓ -1643
▁HP -1644
▁시도 -1645
▁설치 -1646
▁구간 -1647
▁쉬 -1648
▁계열 -1649
ter -1650
▁다양 -1651
▁나무 -1652
▁위원 -1653
▁염 -1654
머지 -1655
▁나머지 -1656
▁ㅇㅣㅂㄴㅣ -1657
▁전용 -1658
▁불구 -1659
▁웃 -1660
▁방면 -1661
▁올리 -1662
이크 -1663
▁06 -1664
▁ㅂㅜㄹㄹㅓ -1665
▁이루 -1666
니아 -1667
▁주요 -1668
▁성적 -1669
▁디자인 -1670
▁일정 -1671
▁2000 -1672
▁축구 -1673
티브 -1674
▁300 -1675
▁흥 -1676
▁보상 -1677
▁mm -1678
▁싫 -1679
▁목적 -1680
▁탓 -1681
▁소녀 -1682
▁탱 -1683
▁연속 -1684
▁올라 -1685
▁33 -1686
▁수정 -1687
▁ㄱㅏㅇㅎㅏㄴ -1688
▁ㅌㅓ -1689
▁갤 -1690
▁배틀 -1691
▁읽 -1692
▁지하 -1693
ur -1694
▁세력 -1695
▁고려 -1696
▁론 -1697
▁쌍 -1698
▁성장 -1699
▁기대 -1700
▁대화 -1701
▁04 -1702
▁률 -1703
▁벽 -1704
▁잘못 -1705
▁삼성 -1706
ㄱㅕㅆ -1707
▁부산 -1708
스로 -1709
▁36 -1710
▁종류 -1711
▁각각 -1712
▁이해 -1713
▁안타 -1714
▁지방 -1715
▁캠 -1716
▁ㅇㅣㄹㅇㅓ -1717
ㅋㅣㄴ -1718
▁e -1719
▁팩 -1720
▁해결 -1721
▁당신 -1722
▁일행 -1723
▁참가 -1724
od -1725
▁의견 -1726
▁력 -1727
▁ㅊㅕ -1728
▁발표 -1729
▁th -1730
▁징 -1731
▁부상 -1732
ㅋㅡㅁ -1733
ㅈㅜㄴㄷㅏ -1734
▁전설 -1735
▁포켓 -1736
▁휘 -1737
▁느낌 -1738
▁픽 -1739
ag -1740
▁전문 -1741
▁큐 -1742
▁거대 -1743
▁you -1744
▁예정 -1745
ㅈㅓ -1746
▁방영 -1747
▁ㅅㅗ -1748
▁ㅅㅓㄴ -1749
▁숨 -1750
▁ㅌㅏ -1751
▁스피 -1752
▁힐 -1753
▁짜 -1754
▁종족 -1755
▁프로그램 -1756
▁랜 -1757
▁밴 -1758
▁센터 -1759
▁ㅁㅏㄴㅋㅡㅁ -1760
▁종료 -1761
▁과학 -1762
▁운행 -1763
▁죽음 -1764
▁소설 -1765
▁부활 -1766
▁충분 -1767
▁근접 -1768
▁도중 -1769
▁각성 -1770
▁ㅈㅕ -1771
ㄴㅏㄹ -1772
지션 -1773
▁조사 -1774
▁ㅂㅘㅆ -1775
▁FC -1776
▁배치 -1777
ub -1778
▁ㄷㅜ -1779
▁녀 -1780
▁렌 -1781
▁최근 -1782
▁짧 -1783
▁무리 -1784
▁장착 -1785
▁빅 -1786
ㅈㅇㅏ -1787
▁국민 -1788
▁아이돌 -1789
▁러시아 -1790
▁세상 -1791
▁옥 -1792
▁척 -1793
▁삭 -1794
데이트 -1795
▁안정 -1796
▁절대 -1797
▁업데이트 -1798
▁ㅈㅔ -1799
▁나중 -1800
▁스카 -1801
▁엄청 -1802
▁경제 -1803
▁스스로 -1804
▁제공 -1805
▁cm -1806
▁SK -1807
▁항공 -1808
▁점수 -1809
▁지도 -1810
igh -1811
▁유니 -1812
▁ㅅㅟ -1813
▁엔진 -1814
▁제목 -1815
▁자연 -1816
▁충격 -1817
▁달성 -1818
▁정상 -1819
▁곧 -1820
▁나타 -1821
▁켄 -1822
▁틀 -1823
▁번호 -1824
ㅋㅣㄹ -1825
▁만드 -1826
▁챔피언 -1827
▁미사 -1828
자기 -1829
▁추정 -1830
▁작전 -1831
ver -1832
▁ㅋㅣ -1833
▁오래 -1834
▁배경 -1835
▁번역 -1836
▁셈 -1837
▁똑같 -1838
▁비행 -1839
▁ㅊㅏㅈㅇㅏ -1840
▁롤 -1841
▁목소리 -1842
▁조직 -1843
▁정체 -1844
▁가끔 -1845
ak -1846
ent -1847
▁사이트 -1848
▁목록 -1849
너스 -1850
▁미래 -1851
▁규모 -1852
▁요소 -1853
▁ㅁㅓ -1854
ㅅㅣ -1855
▁꾸 -1856
스타 -1857
▁포켓몬 -1858
▁ㄷㅏㅇㅎㅐㅆ -1859
▁스파 -1860
▁남성 -1861
▁196 -1862
▁레어 -1863
▁34 -1864
▁전작 -1865
▁품 -1866
▁훈련 -1867
▁전차 -1868
▁출전 -1869
▁십 -1870
▁악마 -1871
▁파티 -1872
▁전사 -1873
▁빙 -1874
▁공중 -1875
▁타격 -1876
▁굴 -1877
▁스타일 -1878
▁강하 -1879
▁클리어 -1880
▁만약 -1881
▁위기 -1882
▁타카 -1883
▁ㅌㅐ -1884
▁ㅁㅏㅈㅊ -1885
▁분노 -1886
▁누구 -1887
▁괜찮 -1888
▁사냥 -1889
▁변화 -1890
▁생존 -1891
▁에너지 -1892
▁혈 -1893
▁홈런 -1894
ㅋㅣㄴㄷㅏ -1895
▁신경 -1896
▁동물 -1897
um -1898
▁클래 -1899
▁애초 -1900
▁ㅎㅐㅆㅇㅓㅆ -1901
▁자랑 -1902
▁득점 -1903
ㄱㅎㅏㄴ -1904
▁뒷 -1905
▁굳 -1906
▁묻 -1907
▁꼬 -1908
ㅡㄹㅇㅓ -1909
▁더불 -1910
▁ㅇㅛ -1911
BC -1912
리오 -1913
▁얘기 -1914
▁수상 -1915
▁연결 -1916
▁요리 -1917
▁단점 -1918
▁75 -1919
▁필드 -1920
ut -1921
▁크리 -1922
▁한편 -1923
▁국제 -1924
▁장갑 -1925
▁로봇 -1926
▁건담 -1927
▁포지션 -1928
디어 -1929
▁소재 -1930
러스 -1931
ㅇㄱㅕ -1932
▁냉 -1933
▁특정 -1934
▁ㅊㅐ -1935
▁반면 -1936
▁연합 -1937
ec -1938
▁기동 -1939
▁덤 -1940
▁시험 -1941
▁vs -1942
▁ㅎㅏㄴㄷㅔ -1943
▁판정 -1944
▁무엇 -1945
▁비용 -1946
▁38 -1947
▁런 -1948
ㄹㄹㅣㄹ -1949
▁장소 -1950
▁in -1951
▁전기 -1952
▁공연 -1953
▁예상 -1954
▁사항 -1955
▁ㄷㅡㅅㅇㅣ -1956
라지 -1957
▁롯 -1958
▁싱글 -1959
▁ㄴㅏㅁ -1960
▁항상 -1961
▁목표 -1962
▁움직 -1963
▁무대 -1964
▁화력 -1965
▁맹 -1966
▁정작 -1967
▁옵 -1968
▁최소 -1969
▁멸 -1970
▁연출 -1971
▁기체 -1972
▁ㄷㅔ -1973
▁사거리 -1974
▁관심 -1975
▁사업 -1976
▁시설 -1977
▁55 -1978
▁유럽 -1979
▁인터뷰 -1980
▁텐 -1981
▁2009 -1982
▁교체 -1983
▁던전 -1984
▁ㅂㅜㅌ -1985
▁내부 -1986
▁하늘 -1987
▁비밀 -1988
▁지휘 -1989
▁ㄹㅣ -1990
▁제일 -1991
▁꽃 -1992
▁칭 -1993
▁카이 -1994
▁야마 -1995
▁사격 -1996
ㄴㅑ -1997
동안 -1998
▁엘리 -1999
▁찬 -2000
▁Q -2001
▁별로 -2002
▁철도 -2003
▁인사 -2004
▁to -2005
▁변신 -2006
▁란 -2007
▁다크 -2008
ST -2009
ro -2010
▁다리 -2011
ㄴㅐㄴ -2012
▁나름 -2013
▁수치 -2014
▁록 -2015
ㄹㅏㄴ -2016
▁기계 -2017
▁수도 -2018
▁정식 -2019
▁쓰이 -2020
아오 -2021
▁벤 -2022
▁작곡 -2023
▁스포 -2024
▁시전 -2025
▁결승 -2026
▁카운 -2027
▁파일 -2028
▁_ -2029
▁보내 -2030
▁ㅋㅡㄹ -2031
▁옷 -2032
▁교통 -2033
▁비롯 -2034
▁오버 -2035
나라 -2036
▁ㅎㅣㅁ -2037
▁놈 -2038
▁따로 -2039
▁케이 -2040
▁그만 -2041
▁각종 -2042
▁오늘 -2043
▁부여 -2044
▁황제 -2045
▁마나 -2046
▁확정 -2047
▁졸업 -2048
▁레인 -2049
▁코스 -2050
▁지상 -2051
▁갑자기 -2052
▁이탈 -2053
▁병력 -2054
▁일러 -2055
▁ㅈㅓㄴ -2056
▁전반 -2057
▁흐 -2058
▁치명 -2059
▁따라서 -2060
▁진화 -2061
▁이쪽 -2062
ㅕㄹ -2063
▁북한 -2064
▁끊 -2065
▁특이 -2066
▁도로 -2067
▁기업 -2068
▁제한 -2069
▁라이브 -2070
▁발전 -2071
▁돌아가 -2072
▁아키 -2073
▁왼 -2074
▁건설 -2075
▁쯤 -2076
▁시티 -2077
▁무슨 -2078
▁언제 -2079
▁압도 -2080
▁오르 -2081
▁ㅇㅜ -2082
▁이외 -2083
▁의외 -2084
아내 -2085
▁사정 -2086
▁ㅇㅣㄴㄱㅏ -2087
em -2088
ㅝㅆ -2089
▁넓 -2090
▁EX -2091
▁이기 -2092
▁가사 -2093
▁외국 -2094
▁2008 -2095
▁나이트 -2096
▁역대 -2097
▁일러스트 -2098
▁아파 -2099
▁ㅃㅜㄴ -2100
▁감정 -2101
▁탈출 -2102
▁주문 -2103
▁삭제 -2104
▁직전 -2105
▁지지 -2106
▁저항 -2107
ight -2108
▁티어 -2109
▁임무 -2110
▁납 -2111
▁마치 -2112
▁이닝 -2113
▁고양 -2114
▁프레 -2115
▁지키 -2116
라인 -2117
▁골드 -2118
▁위력 -2119
▁자원 -2120
▁보유 -2121
어로 -2122
▁아카 -2123
AN -2124
▁로드 -2125
ㄷㅓㄴ -2126
▁사례 -2127
▁집중 -2128
▁세기 -2129
▁서비스 -2130
▁점프 -2131
▁표시 -2132
▁쏘 -2133
▁깊 -2134
▁노트 -2135
▁어둠 -2136
AR -2137
▁파트 -2138
▁잉 -2139
▁ㄴㅓㅁㅇㅓ -2140
▁아프 -2141
▁전국 -2142
▁인구 -2143
▁상관 -2144
▁효율 -2145
▁명령 -2146
▁ㄱㅗㄴ -2147
▁분류 -2148
▁작업 -2149
▁페이 -2150
▁기회 -2151
▁랭크 -2152
▁ㅁㅓㄴ -2153
▁완전 -2154
▁인식 -2155
▁아스 -2156
젝트 -2157
▁공간 -2158
▁연습 -2159
▁오른 -2160
▁히어로 -2161
▁생기 -2162
▁뇌 -2163
▁루트 -2164
▁ㅍㅣ -2165
▁회피 -2166
▁물건 -2167
ap -2168
▁도전 -2169
▁잠시 -2170
▁가수 -2171
▁경쟁 -2172
▁극장 -2173
ㄱㅣㄹ -2174
▁화면 -2175
▁42 -2176
▁ㅎㅑ -2177
▁장점 -2178
▁옛 -2179
▁녀석 -2180
ON -2181
▁41 -2182
▁부모 -2183
▁컬 -2184
▁션 -2185
▁사기 -2186
▁폰 -2187
▁별명 -2188
▁ㄴㅐㄴ -2189
▁컵 -2190
▁촬 -2191
▁군사 -2192
▁개념 -2193
▁레드 -2194
▁래 -2195
그레이드 -2196
▁업그레이드 -2197
▁행정 -2198
▁단어 -2199
▁스럽 -2200
▁병원 -2201
ㅏㄹㄹㅏ -2202
▁근처 -2203
▁몽 -2204
▁인천 -2205
▁추천 -2206
▁194 -2207
▁이어 -2208
▁No -2209
ㄹㅡㅁ -2210
▁발언 -2211
▁오프 -2212
▁전력 -2213
▁ㄱㅘㄴ -2214
▁살인 -2215
▁의식 -2216
▁포기 -2217
▁39 -2218
▁무려 -2219
▁펜 -2220
▁꾼 -2221
▁ㅇㅡㄴㄷㅔ -2222
▁불가 -2223
▁Ch -2224
▁아파트 -2225
▁ㅈㅛ -2226
▁> -2227
▁크기 -2228
▁전개 -2229
ㅂㅓ -2230
▁신체 -2231
▁정리 -2232
▁킬 -2233
학생 -2234
▁ㅊㅣㄴ -2235
▁미니 -2236
▁', -2237
▁판단 -2238
어들 -2239
▁ㅁㅗㄹㄹㅏ -2240
▁주제 -2241
▁강제 -2242
▁촬영 -2243
▁노력 -2244
▁본래 -2245
▁밑 -2246
▁히트 -2247
▁고정 -2248
▁밀리 -2249
▁ㅍㅜ -2250
ul -2251
▁부정 -2252
▁붕 -2253
▁타임 -2254
▁kg -2255
▁이하 -2256
라스 -2257
페이지 -2258
▁st -2259
▁44 -2260
▁라이트 -2261
▁공주 -2262
▁셋 -2263
▁병사 -2264
▁구하 -2265
▁데스 -2266
▁선생 -2267
▁버그 -2268
무리 -2269
▁롭 -2270
ㅐㄹ -2271
▁평균 -2272
ce -2273
▁스코 -2274
▁멘 -2275
ik -2276
▁독립 -2277
▁최강 -2278
▁2020 -2279
▁; -2280
▁ㄱㅏㄴ -2281
▁ㅅㅣㅁ -2282
▁왕국 -2283
▁제거 -2284
▁분명 -2285
▁ㄱㅏㄴㄷㅏ -2286
▁학원 -2287
▁밝 -2288
▁홈페이지 -2289
▁폭탄 -2290
▁구매 -2291
000 -2292
▁조종 -2293
▁꼭 -2294
▁베이 -2295
▁ㅅㅐㅇㄱㅕㅆ -2296
▁제품 -2297
▁99 -2298
▁군대 -2299
▁동생 -2300
▁마법사 -2301
▁롯데 -2302
▁가드 -2303
▁LG -2304
▁위키 -2305
다리 -2306
▁닌 -2307
▁중반 -2308
▁고속 -2309
ㄱㅎㅕ -2310
▁리더 -2311
▁윈 -2312
▁ㅁㅝㄴ -2313
▁예전 -2314
▁여행 -2315
요일 -2316
▁행위 -2317
▁곤 -2318
▁짐 -2319
▁단체 -2320
다니 -2321
▁음식 -2322
믹스 -2323
▁부탁 -2324
▁겪 -2325
▁노리 -2326
▁떡 -2327
▁웹 -2328
▁완벽 -2329
▁옵션 -2330
▁칠 -2331
▁전자 -2332
▁2007 -2333
▁현상 -2334
트리 -2335
▁195 -2336
▁가문 -2337
▁수행 -2338
▁대구 -2339
all -2340
▁탈락 -2341
▁43 -2342
▁원인 -2343
드시 -2344
▁요시 -2345
▁그야 -2346
▁완성 -2347
▁구분 -2348
▁새로 -2349
야마 -2350
▁ㅇㅗㄹㄹㅕ -2351
▁반드시 -2352
IN -2353
▁일어나 -2354
▁겸 -2355
▁대기 -2356
▁붉 -2357
▁의원 -2358
▁바다 -2359
모토 -2360
▁드러 -2361
▁통합 -2362
▁개그 -2363
란드 -2364
▁주민 -2365
▁전략 -2366
이치 -2367
▁바꾸 -2368
▁직후 -2369
▁차원 -2370
▁MA -2371
▁크로 -2372
▁재료 -2373
▁복귀 -2374
▁하드 -2375
▁단지 -2376
▁템 -2377
▁마사 -2378
▁환경 -2379
nd -2380
▁펼 -2381
▁쥬 -2382
말로 -2383
▁광역 -2384
▁걱 -2385
▁넘어 -2386
▁그야말로 -2387
르트 -2388
▁마무리 -2389
▁치료 -2390
▁기반 -2391
▁끝나 -2392
▁걱정 -2393
튜브 -2394
이어 -2395
타임 -2396
▁ㅈㅣㄹ -2397
러리 -2398
▁연재 -2399
▁뜨 -2400
▁밸 -2401
▁인도 -2402
트라 -2403
▁한글 -2404
▁해군 -2405
▁46 -2406
▁걸리 -2407
▁서버 -2408
▁느끼 -2409
▁47 -2410
▁다행 -2411
▁정규 -2412
▁지정 -2413
▁밥 -2414
▁연장 -2415
▁2006 -2416
▁다수 -2417
▁대장 -2418
▁해외 -2419
▁멜 -2420
▁도착 -2421
▁보병 -2422
▁심각 -2423
▁평범 -2424
▁우선 -2425
조건 -2426
▁빨리 -2427
▁워낙 -2428
▁공포 -2429
▁보너스 -2430
▁월드컵 -2431
▁타이틀 -2432
▁조작 -2433
▁미사일 -2434
▁아무리 -2435
▁포스 -2436
▁ㅋㅔ -2437
▁ㅈㅣㄴㄷㅏ -2438
▁나타나 -2439
▁유사 -2440
▁추측 -2441
▁실험 -2442
th -2443
▁점점 -2444
▁샷 -2445
▁털 -2446
▁51 -2447
▁캡 -2448
▁ㅈㅏㅂ -2449
▁닥 -2450
▁가면 -2451
▁굳이 -2452
▁타자 -2453
tt -2454
루스 -2455
▁디스 -2456
▁이끌 -2457
▁상세 -2458
▁코스트 -2459
▁바라 -2460
▁필살 -2461
ㄸㅡ -2462
▁다소 -2463
▁맞추 -2464
▁폼 -2465
▁접근 -2466
▁재미 -2467
▁성향 -2468
▁무조건 -2469
▁ㄱㅓㄹㄹㅗ -2470
▁닉 -2471
▁중학교 -2472
▁실점 -2473
▁한계 -2474
▁교수 -2475
▁의사 -2476
▁대결 -2477
▁로마 -2478
op -2479
▁영혼 -2480
▁ㅅㅐㅇㄱㅣㄴ -2481
ㄹㅓㄴ -2482
▁부하 -2483
▁잭 -2484
▁톤 -2485
▁무한 -2486
운데 -2487
▁국회 -2488
ㅃㅡㄴ -2489
▁SP -2490
▁복수 -2491
st -2492
▁비중 -2493
▁ㅇㅣㄹㅇㅡ -2494
▁사무 -2495
▁암살 -2496
▁정확히 -2497
시마 -2498
▁보조 -2499
▁함정 -2500
▁아내 -2501
▁죠 -2502
▁댄 -2503
▁평소 -2504
▁정의 -2505
▁엠 -2506
▁마르 -2507
▁의하 -2508
ation -2509
▁인터넷 -2510
▁광고 -2511
▁늦 -2512
▁장르 -2513
ra -2514
▁마력 -2515
▁와중 -2516
▁범죄 -2517
▁봉인 -2518
▁숲 -2519
▁투표 -2520
▁다루 -2521
▁1000 -2522
ack -2523
▁확장 -2524
▁혁 -2525
무라 -2526
ia -2527
▁운용 -2528
▁채널 -2529
▁사령 -2530
▁깔 -2531
▁전화 -2532
▁ㅂㅏㄺㅎㅕㅆ -2533
▁ㅂㅕㄴ -2534
▁도망 -2535
▁이곳 -2536
ㅅㅜ -2537
▁합류 -2538
▁공략 -2539
▁도쿄 -2540
나이 -2541
▁소련 -2542
▁장치 -2543
▁앙 -2544
▁and -2545
▁가치 -2546
▁빵 -2547
▁쓸 -2548
▁몇몇 -2549
▁ㄴㅐㅆ -2550
▁검사 -2551
▁기념 -2552
oc -2553
▁금지 -2554
▁낫 -2555
▁아웃 -2556
▁지배 -2557
▁ㅌㅏㄴ -2558
▁살아 -2559
▁시청자 -2560
ㅇㅎㅏㄹ -2561
▁종종 -2562
▁이적 -2563
▁다운 -2564
로그 -2565
▁초등 -2566
▁ㅂㅓㄹㅇㅓ -2567
▁올라가 -2568
▁펼치 -2569
▁가운데 -2570
▁150 -2571
▁소유 -2572
▁충분히 -2573
▁정당 -2574
▁도입 -2575
▁ㄱㅣㄹ -2576
▁65 -2577
▁비하 -2578
▁오리지 -2579
▁실수 -2580
▁특유 -2581
▁네이 -2582
▁플래 -2583
시브 -2584
▁즐 -2585
▁유튜브 -2586
▁미드 -2587
▁보컬 -2588
▁코드 -2589
▁사쿠 -2590
▁근데 -2591
▁브레이 -2592
▁VS -2593
▁클럽 -2594
▁대로 -2595
▁ㅇㅏㅍ -2596
▁ㅁㅏㅈㅊㅝ -2597
▁책임 -2598
뜨리 -2599
▁소년 -2600
▁화염 -2601
▁시민 -2602
▁본격 -2603
▁ㄷㅏㄹㄹㅏ -2604
▁기지 -2605
▁프로젝트 -2606
▁투입 -2607
▁저격 -2608
▁고대 -2609
▁개조 -2610
▁뉴스 -2611
ㅈㅜㄴ -2612
ㄹㅣ -2613
▁무사 -2614
▁ㄴㅡㄴㄱㅏ -2615
▁시나 -2616
▁ㅇㅣㄴㅎㅏㄴ -2617
▁전원 -2618
▁괴물 -2619
▁뻔 -2620
▁종교 -2621
▁형제 -2622
▁얼마나 -2623
ie -2624
▁에이 -2625
▁수많 -2626
ill -2627
▁희생 -2628
▁%, -2629
▁셀 -2630
ㄴㅐㄹ -2631
▁행사 -2632
▁로스 -2633
▁고양이 -2634
▁요청 -2635
▁스포츠 -2636
▁인상 -2637
▁릴 -2638
▁벗 -2639
▁내려 -2640
▁앤 -2641
비아 -2642
▁이탈리아 -2643
▁들어오 -2644
로드 -2645
▁대중 -2646
▁발음 -2647
▁사태 -2648
▁원정 -2649
▁터미 -2650
▁카메 -2651
▁잇 -2652
▁상징 -2653
▁2005 -2654
라이더 -2655
▁52 -2656
일러 -2657
▁KBS -2658
▁종합 -2659
ㄱㅜㄴ -2660
▁II -2661
▁밴드 -2662
art -2663
▁구역 -2664
▁엄청나 -2665
▁숫 -2666
▁흉 -2667
▁ㄲㅓ -2668
ㄷㅡ -2669
▁넥 -2670
▁클래스 -2671
▁대형 -2672
▁64 -2673
▁군단 -2674
▁ㅍㅓ -2675
▁가리 -2676
▁올림 -2677
▁대비 -2678
▁외모 -2679
▁위협 -2680
▁ㅁㅝㄴㄱㅏ -2681
▁ㅎㅣㅁㄷㅡㄴ -2682
텐츠 -2683
▁스크 -2684
▁ㄱㅏㅇㅎㅐ -2685
▁ㄴㅏㄹㄹㅕ -2686
▁방패 -2687
▁조정 -2688
▁그저 -2689
▁움직이 -2690
▁이사 -2691
▁인원 -2692
▁패러 -2693
▁서브 -2694
니티 -2695
▁서술 -2696
▁생물 -2697
ㅏㄹㄹㅕ -2698
ㄲㅕ -2699
▁불명 -2700
▁자료 -2701
▁최후 -2702
▁일본어 -2703
▁형식 -2704
▁관통 -2705
▁내리 -2706
▁약점 -2707
▁가깝 -2708
▁컨셉 -2709
▁몹 -2710
▁ㅂㅐ -2711
▁광주 -2712
ㄹㅓㄹ -2713
▁달러 -2714
▁You -2715
▁행성 -2716
▁2004 -2717
런스 -2718
▁ㄷㅏㄹㄹㅕ -2719
ri -2720
▁정책 -2721
ㄴㅐㄴㄷㅏ -2722
▁전술 -2723
▁통신 -2724
▁상자 -2725
uby -2726
▁거부 -2727
▁액션 -2728
▁모험 -2729
시스 -2730
▁비고 -2731
ab -2732
▁49 -2733
▁장난 -2734
▁사라지 -2735
▁쌓 -2736
▁젊 -2737
▁미리 -2738
▁ㅁㅗㅅㅎㅏㄴㄷㅏ -2739
RA -2740
▁오리지널 -2741
ㄲㅟ -2742
▁빠지 -2743
▁AP -2744
▁박사 -2745
ㄷㅇㅏ -2746
▁의도 -2747
ㄹㅜ -2748
▁ㅆㅡㄴㄷㅏ -2749
▁명중 -2750
▁반복 -2751
▁간단 -2752
▁인형 -2753
▁ㅅㅜㅁ -2754
▁56 -2755
▁트랙 -2756
▁눈물 -2757
▁쿨타임 -2758
로우 -2759
▁회장 -2760
est -2761
▁ST -2762
래프트 -2763
▁개월 -2764
▁매일 -2765
▁ㅉㅣ -2766
▁400 -2767
▁ruby -2768
▁의지 -2769
▁등록 -2770
▁영입 -2771
▁해석 -2772
▁공동 -2773
▁구단 -2774
▁대응 -2775
ㅇㅡㄹ -2776
▁마크 -2777
▁지적 -2778
▁MBC -2779
▁이치 -2780
▁언론 -2781
▁튀 -2782
▁ㄴㅏㅆ -2783
▁리어 -2784
▁오토 -2785
▁In -2786
▁dd -2787
▁열차 -2788
▁지명 -2789
▁목숨 -2790
▁오랜 -2791
▁개봉 -2792
▁주력 -2793
▁그때 -2794
▁찌 -2795
▁원거리 -2796
▁코어 -2797
ttp -2798
▁ㅁㅏㄴㄷㅡㄹ -2799
AL -2800
스케 -2801
▁선언 -2802
▁http -2803
▁85 -2804
▁웬 -2805
▁한국어 -2806
▁혐 -2807
▁소식 -2808
▁언어 -2809
▁차례 -2810
▁윌 -2811
자리 -2812
▁더블 -2813
▁흡수 -2814
▁데이터 -2815
▁거짓 -2816
▁사상 -2817
▁설계 -2818
▁바닥 -2819
▁택 -2820
▁피하 -2821
▁방해 -2822
▁승부 -2823
▁자동차 -2824
▁역전 -2825
▁나쁘 -2826
▁탯 -2827
ㅎㅣㄴㄷㅏ -2828
▁193 -2829
▁텔 -2830
▁53 -2831
▁혜 -2832
▁ㄱㅘㄴㅎㅏㄴ -2833
▁54 -2834
▁카즈 -2835
▁2002 -2836
리트 -2837
ㅊㅣㄹ -2838
▁카페 -2839
퓨터 -2840
▁살아남 -2841
▁대단 -2842
▁사과 -2843
▁엄마 -2844
▁디지 -2845
▁여름 -2846
▁ㄲㅐ -2847
▁연계 -2848
▁숫자 -2849
▁모티브 -2850
▁핑 -2851
▁필살기 -2852
▁긴 -2853
▁닮 -2854
▁저주 -2855
▁기자 -2856
▁앉 -2857
ㄴㅣㄹ -2858
▁이르 -2859
▁미스 -2860
▁소울 -2861
▁ㄴㅡㄹㅇㅓ -2862
▁진입 -2863
▁불과 -2864
▁ㄸㅐ -2865
▁체육 -2866
▁황금 -2867
▁PC -2868
▁수리 -2869
▁상대방 -2870
▁완료 -2871
▁유우 -2872
오스 -2873
▁질문 -2874
▁쿄 -2875
▁텍 -2876
▁가정 -2877
▁장기 -2878
▁수호 -2879
▁산업 -2880
▁생성 -2881
▁착용 -2882
▁던지 -2883
▁적절 -2884
▁Sh -2885
▁해제 -2886
▁공화 -2887
▁컴퓨터 -2888
▁단순히 -2889
▁덩 -2890
동생 -2891
▁터미널 -2892
dddd -2893
▁dddddd -2894
▁조각 -2895
ㅂㅊㅕ -2896
▁떠나 -2897
▁ㅆㅓㅆ -2898
▁표정 -2899
▁모리 -2900
▁드라이 -2901
▁필수 -2902
니스 -2903
▁카운터 -2904
▁꼴 -2905
▁테마 -2906
ㅡㄹㄹㅕ -2907
▁에이스 -2908
▁딱히 -2909
▁실시 -2910
▁컷 -2911
▁독자 -2912
▁의심 -2913
▁편성 -2914
▁ff -2915
▁선정 -2916
▁행적 -2917
▁유도 -2918
▁비트 -2919
▁선물 -2920
▁확실히 -2921
up -2922
▁습격 -2923
▁무력 -2924
▁전환 -2925
▁감안 -2926
▁당장 -2927
▁드립 -2928
▁페르 -2929
▁훌 -2930
▁꾸준 -2931
▁왼쪽 -2932
▁특기 -2933
▁ㅇㅜㅁ -2934
▁날개 -2935
▁저지 -2936
▁뮤직 -2937
▁인류 -2938
▁집단 -2939
▁패시브 -2940
▁기점 -2941
▁함대 -2942
▁솔로 -2943
▁소비 -2944
▁안전 -2945
▁퓨 -2946
▁ㅇㅡㄹㅈㅣ -2947
▁맺 -2948
▁개선 -2949
▁제도 -2950
▁ㄱㅜㄴ -2951
▁보다 -2952
▁박스 -2953
▁re -2954
▁i -2955
▁횟 -2956
▁높이 -2957
▁넘어가 -2958
▁연주 -2959
▁값 -2960
▁59 -2961
▁덜 -2962
▁쥐 -2963
▁잠깐 -2964
▁ㅍㅕㄹ -2965
▁가스 -2966
▁위원회 -2967
▁확보 -2968
▁바르 -2969
▁ㅁㅗㅅㅎㅐ -2970
▁사장 -2971
▁행복 -2972
▁MP -2973
▁경력 -2974
▁회전 -2975
ㅡㄹㄹㅓ -2976
▁심하 -2977
VE -2978
▁구축 -2979
▁돌파 -2980
▁코치 -2981
▁마츠 -2982
▁지옥 -2983
▁스킨 -2984
ㅊㅣㄴㄷㅏ -2985
▁테크 -2986
▁설립 -2987
▁Re -2988
▁랍 -2989
▁스마 -2990
▁제압 -2991
▁올림픽 -2992
▁거두 -2993
▁장군 -2994
▁띄 -2995
▁일종 -2996
▁시나리오 -2997
ate -2998
▁블루 -2999
▁전통 -3000
▁Sp -3001
▁기어 -3002
▁가슴 -3003
▁58 -3004
ㅅㅣㄴ -3005
레이션 -3006
▁안드 -3007
▁시내 -3008
▁상처 -3009
▁ㅋㅜ -3010
▁통과 -3011
▁하위 -3012
ard -3013
▁대답 -3014
▁멀티 -3015
▁적극 -3016
▁라디오 -3017
▁희망 -3018
▁횟수 -3019
▁듀얼 -3020
▁마침 -3021
▁공항 -3022
▁120 -3023
▁수사 -3024
▁셰 -3025
▁공사 -3026
▁패스 -3027
▁인지 -3028
▁체제 -3029
모리 -3030
▁초대 -3031
▁촉 -3032
AT -3033
▁딜러 -3034
▁편집 -3035
▁방문 -3036
드리 -3037
ㄷㅜ -3038
ang -3039
OR -3040
▁문명 -3041
▁57 -3042
▁버튼 -3043
▁비디오 -3044
▁펀 -3045
ㄱㅔㄴ -3046
▁의문 -3047
▁해금 -3048
연히 -3049
▁위주 -3050
▁롱 -3051
▁리스 -3052
▁현장 -3053
▁이어지 -3054
▁66 -3055
▁95 -3056
▁수원 -3057
▁케이스 -3058
▁태도 -3059
▁동맹 -3060
▁댓 -3061
▁ㅃㅐ -3062
트롤 -3063
▁어찌 -3064
▁ㄷㅚㅁ -3065
ㄹㅝ -3066
▁2003 -3067
▁뚫 -3068
▁고통 -3069
▁코너 -3070
▁작성 -3071
▁처치 -3072
▁진영 -3073
▁대놓 -3074
▁투자 -3075
▁콩 -3076
▁마시 -3077
▁뱀 -3078
▁전장 -3079
▁갱 -3080
▁태양 -3081
▁크로스 -3082
▁분리 -3083
▁장전 -3084
▁유키 -3085
▁계기 -3086
▁비난 -3087
▁마왕 -3088
▁노동 -3089
▁지니 -3090
▁예선 -3091
ㅉㅐ -3092
▁핸 -3093
▁스페인 -3094
▁한자 -3095
▁제안 -3096
▁최악 -3097
IA -3098
▁ㅇㅡㄹㄲㅏ -3099
르크 -3100
▁랩 -3101
▁제로 -3102
▁육군 -3103
ㅇㅜ -3104
▁공부 -3105
▁에스 -3106
▁료 -3107
▁고유 -3108
▁가까 -3109
▁후속 -3110
▁삼국 -3111
▁스위 -3112
PS -3113
▁겨우 -3114
▁게시 -3115
▁스펙 -3116
▁레이저 -3117
▁be -3118
ess -3119
▁시체 -3120
ok -3121
▁ㅎㅟ -3122
▁배신 -3123
▁ㅅㅣㄴ -3124
▁회의 -3125
ant -3126
▁평화 -3127
▁Bl -3128
▁오른쪽 -3129
ㄷㅏㄴ -3130
▁BG -3131
▁ㅇㅗㄻ -3132
▁110 -3133
▁개최 -3134
▁가르 -3135
▁성인 -3136
ㄲㅝ -3137
▁빌리 -3138
▁그라 -3139
▁아머 -3140
▁나카 -3141
▁조준 -3142
▁게이지 -3143
▁견제 -3144
▁ㅎㅑㅇㅎㅐ -3145
▁on -3146
▁여부 -3147
▁엉 -3148
▁룰 -3149
▁용병 -3150
▁멀리 -3151
▁점령 -3152
▁컨트롤 -3153
▁궤 -3154
▁기획 -3155
▁궁극 -3156
▁ㅈㅓㄴㅎㅐ -3157
▁탑재 -3158
▁젤 -3159
▁타이밍 -3160
▁청소 -3161
ell -3162
▁ㄴㅏㄴㄷㅏ -3163
▁극장판 -3164
▁매치 -3165
▁보급 -3166
▁봄 -3167
▁카메라 -3168
IC -3169
▁SS -3170
▁락 -3171
▁or -3172
▁진실 -3173
▁ㅈㅡㄹ -3174
머리 -3175
▁베이스 -3176
▁끝내 -3177
▁애매 -3178
ㄴㅓ -3179
▁최대한 -3180
ct -3181
▁충전 -3182
▁62 -3183
▁뿌 -3184
▁직원 -3185
▁남편 -3186
▁에어 -3187
▁373 -3188
마스 -3189
▁관광 -3190
ue -3191
ine -3192
▁기분 -3193
▁정령 -3194
라리 -3195
▁그레이 -3196
▁날리 -3197
▁체인 -3198
▁순서 -3199
▁게이 -3200
▁보도 -3201
▁스피드 -3202
▁댄스 -3203
▁은퇴 -3204
▁ㅇㅗㄹ -3205
▁후반부 -3206
▁수단 -3207
▁온라인 -3208
▁오스 -3209
의원 -3210
▁쓰러 -3211
▁모션 -3212
▁한화 -3213
▁.... -3214
▁하트 -3215
▁터지 -3216
래도 -3217
▁아무래도 -3218
▁NP -3219
▁멸망 -3220
▁레전 -3221
▁허용 -3222
▁튜 -3223
▁트레 -3224
▁교회 -3225
▁Al -3226
▁격투 -3227
▁ㄷㅏㄴ -3228
▁세계관 -3229
▁밸런스 -3230
▁민주당 -3231
▁약속 -3232
무원 -3233
▁보수 -3234
▁미치 -3235
ist -3236
▁알렉 -3237
▁얼음 -3238
▁76 -3239
▁스코어 -3240
▁ㅅㅗㄱ -3241
▁트위 -3242
▁여왕 -3243
▁Th -3244
▁스탠 -3245
ove -3246
▁파이터 -3247
ore -3248
▁우수 -3249
▁부담 -3250
▁갤러리 -3251
▁토스 -3252
▁스프 -3253
▁대원 -3254
▁등등 -3255
▁com -3256
▁미나 -3257
▁빔 -3258
▁ㄴㅓ -3259
▁오오 -3260
▁쫓 -3261
▁알리 -3262
▁춤 -3263
▁유용 -3264
ㄶㅇㅏ -3265
▁헤드 -3266
▁로켓 -3267
▁울트라 -3268
▁77 -3269
▁융 -3270
▁돌격 -3271
▁61 -3272
▁뱅 -3273
▁벌이 -3274
▁무게 -3275
▁삶 -3276
▁{ -3277
▁고급 -3278
▁생일 -3279
▁지식 -3280
아리 -3281
▁규정 -3282
▁기절 -3283
▁샌 -3284
▁ㄱㅕ -3285
▁모자 -3286
▁차별 -3287
▁판타 -3288
▁본선 -3289
▁커뮤 -3290
▁돌아오 -3291
▁아프리카 -3292
ort -3293
▁렉 -3294
▁병기 -3295
▁ㄱㅓㄹㄹㅕ -3296
▁88 -3297
피스 -3298
ㅈㅣㄱ -3299
▁72 -3300
▁그리스 -3301
▁ㄴㅐㄹ -3302
▁중단 -3303
▁가면라이더 -3304
▁진정 -3305
아다니 -3306
▁측면 -3307
▁랜덤 -3308
▁끼리 -3309
▁장애 -3310
▁분야 -3311
심히 -3312
▁자이 -3313
▁나누 -3314
▁스케 -3315
▁트레이 -3316
▁지점 -3317
▁} -3318
▁2001 -3319
▁갓 -3320
▁닥터 -3321
로이드 -3322
▁누르 -3323
▁마녀 -3324
ㅇㅜㅁ -3325
▁언니 -3326
▁패러디 -3327
▁떼 -3328
▁셔 -3329
바이 -3330
▁발휘 -3331
▁경기도 -3332
▁주목 -3333
▁자살 -3334
▁넷 -3335
▁ㅎㅔ -3336
▁회수 -3337
▁도서 -3338
▁제시 -3339
ive -3340
▁외부 -3341
▁입수 -3342
▁카나 -3343
▁인생 -3344
▁피해자 -3345
▁포르 -3346
▁커버 -3347
아하 -3348
▁취소 -3349
▁살해 -3350
▁ㄴㅏㄹㅇㅏ -3351
▁ㄹㅔ -3352
▁ffff -3353
아들 -3354
▁경계 -3355
▁웨이 -3356
▁공통 -3357
아보 -3358
▁삽 -3359
OS -3360
▁유래 -3361
▁미야 -3362
▁도구 -3363
ong -3364
▁아사 -3365
▁군주 -3366
▁교환 -3367
▁공원 -3368
▁후지 -3369
▁ㅅㅡㄹ -3370
워드 -3371
▁릭 -3372
▁개편 -3373
▁국적 -3374
▁오프닝 -3375
▁아침 -3376
▁어차 -3377
▁민족 -3378
▁SBS -3379
▁기다리 -3380
▁트위터 -3381
▁아라 -3382
▁공장 -3383
▁승강 -3384
▁ffffff -3385
ers -3386
▁ㅈㅓㅇㅎㅐ -3387
▁어차피 -3388
AM -3389
▁스페셜 -3390
▁장수 -3391
▁이거 -3392
▁젠 -3393
▁계산 -3394
오리 -3395
▁킥 -3396
▁재판 -3397
▁윙 -3398
▁서포 -3399
▁핵심 -3400
▁페이스 -3401
▁부진 -3402
크래프트 -3403
ㅅㅔ -3404
▁대놓고 -3405
▁잊 -3406
▁PS -3407
▁붕괴 -3408
▁ㄷㅜㄴ -3409
▁사단 -3410
AS -3411
ㅇㅜㄴㄷㅏ -3412
▁98 -3413
ㅉㅓㄹ -3414
▁이성 -3415
ㄱㅣㄴㄷㅏ -3416
▁데리 -3417
▁교사 -3418
▁구입 -3419
▁온갖 -3420
▁제기 -3421
하라 -3422
▁단독 -3423
▁191 -3424
▁바탕 -3425
▁거절 -3426
▁겨울 -3427
▁어린 -3428
▁틈 -3429
▁소수 -3430
▁브랜드 -3431
유키 -3432
▁출생 -3433
▁용도 -3434
스티 -3435
니어 -3436
▁갑옷 -3437
▁영역 -3438
다수 -3439
▁당선 -3440
▁메탈 -3441
터리 -3442
▁펠 -3443
▁탄생 -3444
▁아야 -3445
▁ㅇㅑㄱㅎㅏㄴ -3446
▁좋아하 -3447
▁살짝 -3448
▁꺼 -3449
▁출발 -3450
▁함선 -3451
티컬 -3452
▁아시아 -3453
▁요원 -3454
▁은근 -3455
ED -3456
▁납치 -3457
ip -3458
▁분석 -3459
피아 -3460
▁꾸준히 -3461
ㅂㅗㄹ -3462
▁귀족 -3463
▁은행 -3464
▁스파이 -3465
▁페이지 -3466
▁ㅆㅗ -3467
▁오후 -3468
▁주연 -3469
▁작사 -3470
▁ㄲㅡㅌㄴㅏㄴ -3471
어리 -3472
▁화살 -3473
▁타워 -3474
▁선배 -3475
▁순수 -3476
ain -3477
ㅎㅏ -3478
▁CD -3479
즈키 -3480
▁ㅅㅜㅁㄱㅕ -3481
▁증거 -3482
▁파악 -3483
▁재생 -3484
▁자식 -3485
if -3486
▁600 -3487
▁습득 -3488
▁따지 -3489
▁엑스 -3490
▁대공 -3491
▁하수 -3492
▁좁 -3493
▁섭 -3494
▁자격 -3495
▁예술 -3496
▁홍보 -3497
▁업무 -3498
▁ㅂㅏㄷㅇㅏ -3499
▁ㅌㅟ -3500
▁이스 -3501
가락 -3502
▁협력 -3503
▁ㅂㅜㅌㅇㅕ -3504
ee -3505
▁당황 -3506
▁고민 -3507
리티 -3508
▁ㄲㅗ -3509
▁1990 -3510
▁ㅇㅜㅁㅈㅣㄱ -3511
▁군인 -3512
▁유형 -3513
▁| -3514
▁보정 -3515
▁훌륭 -3516
디션 -3517
▁베르 -3518
▁눈치 -3519
▁테러 -3520
▁ㅈㅏㄶㅇㅏ -3521
▁플라 -3522
▁사카 -3523
EN -3524
▁미소 -3525
▁프라 -3526
▁열심히 -3527
▁레전드 -3528
▁신화 -3529
▁적당 -3530
▁폭풍 -3531
▁ㅂㅗㄴㄷㅏ -3532
▁경유 -3533
▁카르 -3534
▁쓰레 -3535
▁영원 -3536
▁댓글 -3537
▁마인 -3538
▁응원 -3539
▁흔히 -3540
▁MV -3541
▁내내 -3542
▁ㄷㅏㅇㅎㅏㄴㄷㅏ -3543
▁ㅇㅕㄹㄹㅣㄴ -3544
▁ㅁㅏㅈ -3545
▁63 -3546
▁ㅍㅏ -3547
▁불안 -3548
▁보물 -3549
▁비록 -3550
▁러브 -3551
▁주도 -3552
▁퀄 -3553
▁거래 -3554
▁틱 -3555
▁정말로 -3556
▁부인 -3557
▁왕자 -3558
▁탑승 -3559
▁만족 -3560
▁소드 -3561
▁ㅂㅓㅅ -3562
▁출처 -3563
세이 -3564
▁장관 -3565
▁종점 -3566
▁버티 -3567
▁혼란 -3568
▁챠 -3569
▁68 -3570
▁무적 -3571
▁채용 -3572
▁감사 -3573
▁스트라이 -3574
▁네이버 -3575
▁지내 -3576
ith -3577
▁운전 -3578
ld -3579
▁본명 -3580
▁컨텐츠 -3581
▁대다수 -3582
▁ㄱㅓㄴㅈㅣ -3583
▁ㄷㅟ -3584
▁우려 -3585
▁문제점 -3586
ly -3587
▁운명 -3588
▁빼앗 -3589
▁실질 -3590
▁파이어 -3591
▁드리 -3592
▁반격 -3593
ㄹㅣㅁ -3594
▁800 -3595
▁ㅂㅔ -3596
▁멋 -3597
▁늑 -3598
▁계급 -3599
▁트라 -3600
▁균 -3601
▁71 -3602
▁라스 -3603
▁미군 -3604
▁중계 -3605
레인 -3606
▁커뮤니티 -3607
▁정류 -3608
▁흘 -3609
▁라이벌 -3610
▁오해 -3611
ind -3612
▁가져 -3613
▁김성 -3614
▁초월 -3615
▁옹 -3616
▁짝 -3617
▁지급 -3618
ㄱㅎㅣㄴ -3619
▁돌진 -3620
▁오류 -3621
▁두산 -3622
▁수입 -3623
▁74 -3624
▁가까이 -3625
▁AC -3626
▁돌리 -3627
▁전함 -3628
▁줄어들 -3629
▁전공 -3630
▁연도 -3631
▁파라 -3632
▁랜드 -3633
▁연예 -3634
▁모으 -3635
OL -3636
▁카라 -3637
▁메타 -3638
▁치명타 -3639
▁공군 -3640
▁67 -3641
▁설득 -3642
▁체계 -3643
▁밟 -3644
다지 -3645
▁메가 -3646
▁기기 -3647
이터 -3648
ew -3649
▁아트 -3650
ㅇㅣㄴㅈㅣ -3651
▁캔 -3652
▁통일 -3653
▁충돌 -3654
▁피아 -3655
▁여신 -3656
▁반영 -3657
▁아오 -3658
▁즉시 -3659
▁단위 -3660
▁화장 -3661
▁거주 -3662
ㄹㅐㅆ -3663
▁낳 -3664
▁깎 -3665
ry -3666
▁문자 -3667
▁73 -3668
▁코믹스 -3669
▁불꽃 -3670
바로 -3671
▁그림자 -3672
▁ㅂㅣㄴ -3673
▁TH -3674
ㄱㅣ -3675
▁ㅌㅓㄴ -3676
▁편의 -3677
▁안습 -3678
ast -3679
▁지시 -3680
▁ㅁㅗㄴ -3681
▁닿 -3682
▁NC -3683
▁96 -3684
▁홍콩 -3685
▁학과 -3686
ㅂㅘ -3687
▁레오 -3688
▁전투력 -3689
▁크루 -3690
▁AT -3691
▁주년 -3692
▁짜리 -3693
▁해방 -3694
▁다행히 -3695
아먹 -3696
▁아나 -3697
▁시야 -3698
▁me -3699
▁크리티컬 -3700
▁비율 -3701
보이 -3702
카와 -3703
▁제조 -3704
IT -3705
▁아리 -3706
ㅅㅟ -3707
나다 -3708
ㄹㅓㄴㅈㅣ -3709
▁슬롯 -3710
츠키 -3711
으키 -3712
▁국회의원 -3713
▁ㄷㅚㅂㄴㅣ -3714
▁떡밥 -3715
▁상향 -3716
LC -3717
가와 -3718
▁일부러 -3719
▁생명력 -3720
▁신뢰 -3721
▁정지 -3722
▁변하 -3723
▁약하 -3724
▁격파 -3725
▁공화국 -3726
EC -3727
▁81 -3728
▁그다지 -3729
▁관객 -3730
▁암흑 -3731
▁심장 -3732
▁소프트 -3733
▁신고 -3734
▁수업 -3735
▁오로 -3736
▁파이널 -3737
▁CP -3738
▁토모 -3739
▁닌자 -3740
▁그만큼 -3741
▁사전 -3742
▁등판 -3743
▁찰 -3744
▁무난 -3745
▁늑대 -3746
▁판타지 -3747
▁동네 -3748
▁j -3749
▁엘프 -3750
FA -3751
▁가입 -3752
사카 -3753
▁유비 -3754
▁192 -3755
▁디아 -3756
▁연사 -3757
▁1999 -3758
▁별개 -3759
▁ㄷㅗㄹㄹㅕ -3760
▁맘 -3761
▁ㄱㅐㄹ -3762
▁사운드 -3763
▁ㅁㅣㄹㄹㅕ -3764
▁압박 -3765
▁마술 -3766
ㅂㅅㅣ -3767
ㄴㅕㅆ -3768
▁본부 -3769
▁집안 -3770
▁고기 -3771
▁NPC -3772
▁78 -3773
식간 -3774
▁아티 -3775
▁84 -3776
▁리버 -3777
▁건강 -3778
▁근무 -3779
end -3780
▁재능 -3781
▁창작 -3782
▁순식간 -3783
▁막장 -3784
▁91 -3785
▁써 -3786
▁니시 -3787
▁ㄷㅡㄴㅈㅣ -3788
▁ㄴㅐㄴㄷㅏ -3789
▁ㄴㅓㄴ -3790
▁반란 -3791
▁ㅍㅐ -3792
▁an -3793
▁드디어 -3794
▁실드 -3795
▁ㅅㅐㅇㄱㅕ -3796
고기 -3797
▁저런 -3798
▁추적 -3799
▁업체 -3800
▁룡 -3801
▁지하철 -3802
▁장식 -3803
▁ㅇㅓㄴ -3804
▁제주 -3805
▁곰 -3806
▁ㅈㅜㄱㅇㅕ -3807
▁지형 -3808
▁화이트 -3809
▁팝 -3810
▁신세 -3811
▁1998 -3812
▁it -3813
▁가이 -3814
▁불만 -3815
▁전적 -3816
▁남기 -3817
▁입학 -3818
▁경향 -3819
▁증명 -3820
▁!! -3821
▁수학 -3822
▁낚 -3823
▁경험치 -3824
▁쿼 -3825
▁상품 -3826
og -3827
▁천사 -3828
▁브리 -3829
▁내놓 -3830
▁게이트 -3831
▁ㄸㅐㄴ -3832
ㄹㅡㅁㄷㅏ -3833
▁기원 -3834
▁사쿠라 -3835
▁대만 -3836
▁낭 -3837
▁형성 -3838
▁신청 -3839
▁통하 -3840
▁An -3841
▁전방 -3842
▁테이 -3843
▁예고 -3844
ㅍㅣ -3845
▁스티 -3846
▁나서 -3847
▁여동생 -3848
▁소문 -3849
▁매력 -3850
▁오픈 -3851
▁가득 -3852
▁늘어나 -3853
▁블레이드 -3854
▁지나가 -3855
▁쓰레기 -3856
▁노멀 -3857
▁ㄱㅟ -3858
▁절반 -3859
▁짱 -3860
▁정권 -3861
▁콜라 -3862
ㄹㅗㄴ -3863
▁사령관 -3864
▁ㅌㅗㅇㅎㅏㄴ -3865
▁97 -3866
▁클로 -3867
▁쿠키 -3868
▁나루 -3869
아버지 -3870
▁으 -3871
▁팅 -3872
▁주먹 -3873
▁감염 -3874
▁이마 -3875
▁묵 -3876
▁ㄱㅏㅈㅊ -3877
▁마도 -3878
▁마이크 -3879
▁묶 -3880
▁의상 -3881
▁여론 -3882
▁룬 -3883
▁외국인 -3884
▁Ar -3885
광역 -3886
▁섹 -3887
▁He -3888
▁령 -3889
▁타점 -3890
▁ㅇㅝㄴ -3891
▁82 -3892
▁회차 -3893
▁ㅇㅑㄱ -3894
▁강조 -3895
▁유희 -3896
▁라이더 -3897
▁ㅁㅏㄴㄴㅏㄴ -3898
▁69 -3899
▁키스 -3900
▁덴 -3901
돼지 -3902
▁단일 -3903
▁이론 -3904
▁사토 -3905
지컬 -3906
▁메카 -3907
▁이승 -3908
▁오빠 -3909
▁선호 -3910
▁어택 -3911
▁근거 -3912
▁소멸 -3913
▁연상 -3914
▁복장 -3915
▁별도 -3916
▁엔터 -3917
▁전선 -3918
▁가로 -3919
▁ㅉㅗ -3920
▁코인 -3921
▁바보 -3922
ㅁㅏㅇ -3923
▁is -3924
▁실행 -3925
▁대륙 -3926
타로 -3927
▁250 -3928
트로 -3929
▁스톤 -3930
▁주전 -3931
▁공작 -3932
▁쳐 -3933
▁일으키 -3934
▁for -3935
▁ㅃㅏㄹ -3936
▁작용 -3937
광역시 -3938
▁최상 -3939
▁아가 -3940
▁한때 -3941
▁아무것 -3942
▁공기 -3943
▁아메 -3944
▁180 -3945
▁핀 -3946
▁MAX -3947
▁86 -3948
▁반지 -3949
▁부품 -3950
▁평타 -3951
▁ㅎㅏㄹㅈㅣ -3952
▁SN -3953
▁화려 -3954
▁요정 -3955
▁ㄷㅓㄴㅈㅕ -3956
▁ㅂㅜㄹㄹㅓㅆ -3957
▁190 -3958
▁때리 -3959
▁스토 -3960
▁헌터 -3961
▁ㅎㅏㅂㅊㅕ -3962
▁해설 -3963
▁권력 -3964
▁대하 -3965
▁간격 -3966
▁따위 -3967
▁출현 -3968
▁ㅂㅏㄴ -3969
▁호환 -3970
파이어 -3971
모로 -3972
▁전형 -3973
▁총기 -3974
▁뉴욕 -3975
▁ㅇㅣㅂ -3976
▁몰래 -3977
▁탱크 -3978
▁퀸 -3979
▁ㅇㅗㄹㄹㅕㅆ -3980
▁추격 -3981
▁출장 -3982
▁키리 -3983
둥이 -3984
▁ㄴㅗㅎ -3985
ㅎㅣㄹ -3986
ㄹㅡ -3987
▁ㄷㅏㅇㅎㅏㄹ -3988
▁토리 -3989
▁구도 -3990
▁조용 -3991
▁요새 -3992
▁울산 -3993
▁사자 -3994
▁무효 -3995
▁주위 -3996
ath -3997
▁마스 -3998
▁스카이 -3999
▁ㄴㅘ -4000
▁벌어지 -4001
레나 -4002
▁ㄲㅣ -4003
▁경상 -4004
▁연애 -4005
▁BGM -4006
▁프레임 -4007
▁시드 -4008
더스 -4009
▁명예 -4010
서트 -4011
▁여러모로 -4012
▁마리오 -4013
▁권총 -4014
▁범인 -4015
av -4016
▁폭격 -4017
▁경비 -4018
▁이슬 -4019
RE -4020
▁1997 -4021
▁추락 -4022
▁동기 -4023
ㅊㅣ -4024
드라 -4025
50 -4026
▁De -4027
▁경영 -4028
▁대우 -4029
▁테스트 -4030
▁심리 -4031
▁제이 -4032
▁Te -4033
타인 -4034
▁아무런 -4035
▁신규 -4036
▁지대 -4037
나가 -4038
▁심판 -4039
▁폭주 -4040
▁모바 -4041
듀서 -4042
▁블록 -4043
▁프로듀서 -4044
▁우스 -4045
▁클라 -4046
▁후쿠 -4047
▁소총 -4048
웨이 -4049
▁영업 -4050
▁갈등 -4051
▁거짓말 -4052
▁공유 -4053
▁MS -4054
▁아크 -4055
▁하수인 -4056
▁ㅅㅏㄹㄹㅕ -4057
se -4058
▁변호 -4059
▁일상 -4060
▁수요 -4061
▁탄약 -4062
▁계승 -4063
one -4064
▁외교 -4065
히로 -4066
▁고교 -4067
▁전대 -4068
어스 -4069
▁환상 -4070
▁메인 -4071
▁그래픽 -4072
▁ㅁㅏㄴㄴㅏ -4073
▁꼽 -4074
▁열리 -4075
▁메이저 -4076
▁고전 -4077
▁학살 -4078
▁통제 -4079
▁요괴 -4080
▁브라질 -4081
▁밝히 -4082
▁북미 -4083
▁사양 -4084
▁렙 -4085
▁상점 -4086
▁언제나 -4087
▁탁 -4088
ㅇㅎㅐㅆ -4089
▁Be -4090
▁편하 -4091
▁보석 -4092
▁마련 -4093
▁입력 -4094
▁시각 -4095
사키 -4096
▁변형 -4097
남도 -4098
▁이득 -4099
▁83 -4100
▁갖추 -4101
▁폭력 -4102
▁ㄹㅏㄹ -4103
▁터치 -4104
▁다이아 -4105
▁제법 -4106
▁공학 -4107
▁옛날 -4108
▁만든 -4109
▁탱커 -4110
▁뒤집 -4111
▁혁명 -4112
▁유령 -4113
▁불편 -4114
▁블러 -4115
▁제작진 -4116
▁통상 -4117
ㄹㅏㅇ -4118
▁커맨 -4119
퍼스 -4120
▁지나치 -4121
▁그곳 -4122
▁작동 -4123
▁미츠 -4124
▁KT -4125
▁리스트 -4126
▁믹 -4127
스트라 -4128
ust -4129
ㅎㅏㅁ -4130
▁92 -4131
▁용사 -4132
▁89 -4133
▁예외 -4134
▁동원 -4135
▁ㅎㅡㄴ -4136
▁전투기 -4137
▁조치 -4138
▁진지 -4139
▁타케 -4140
▁94 -4141
▁조심 -4142
▁승강장 -4143
▁연대 -4144
▁고생 -4145
▁민간 -4146
▁ㄲㅔ -4147
▁구현 -4148
▁수집 -4149
▁스마트 -4150
▁미디어 -4151
▁머신 -4152
▁걷 -4153
자키 -4154
도우 -4155
▁파일럿 -4156
ㅆㅏㄴ -4157
▁현지 -4158
ide -4159
▁한국인 -4160
▁프로필 -4161
▁일자 -4162
▁포탑 -4163
▁검색 -4164
▁79 -4165
려움 -4166
▁네임 -4167
▁워치 -4168
▁쿠로 -4169
▁Le -4170
▁입구 -4171
▁뿌리 -4172
노스 -4173
▁이리 -4174
나무 -4175
▁ㅇㅏㄴ -4176
▁챕 -4177
▁ㄱㅏㅌ -4178
▁앵 -4179
▁조조 -4180
▁메시 -4181
▁사이즈 -4182
▁신인 -4183
▁되찾 -4184
▁경기장 -4185
▁깃 -4186
▁모바일 -4187
▁조절 -4188
일드 -4189
ㄱㅜㄴㄱㅏ -4190
▁Se -4191
올리 -4192
▁93 -4193
ity -4194
▁동영 -4195
▁차단 -4196
▁신장 -4197
PG -4198
▁콘서트 -4199
메달 -4200
▁요즘 -4201
▁키우 -4202
▁겐 -4203
▁US -4204
▁부위 -4205
▁감시 -4206
▁표준 -4207
▁카미 -4208
▁레스 -4209
▁ㄹㅣㅇ -4210
▁ㅅㅓㄴㅂㅗ -4211
▁챕터 -4212
▁레인저 -4213
▁ㄱㅚ -4214
▁보장 -4215
▁교전 -4216
▁부수 -4217
▁긍 -4218
▁편지 -4219
▁음반 -4220
오르 -4221
▁어쩌 -4222
저히 -4223
▁수송 -4224
▁마루 -4225
▁시행 -4226
OT -4227
▁정류장 -4228
▁동방 -4229
▁87 -4230
▁도발 -4231
▁폐지 -4232
어도 -4233
일리 -4234
▁공산 -4235
▁프린 -4236
▁스톰 -4237
▁1996 -4238
▁101 -4239
▁동영상 -4240
▁길드 -4241
▁한방 -4242
▁상상 -4243
▁ㅇㅐㄴ -4244
▁연락 -4245
▁배차 -4246
▁패널 -4247
▁리얼 -4248
▁기습 -4249
▁AI -4250
▁볼넷 -4251
▁용어 -4252
▁1995 -4253
북도 -4254
ere -4255
▁MC -4256
▁드러나 -4257
▁DJ -4258
▁전하 -4259
▁구출 -4260
▁자이언 -4261
AC -4262
▁음성 -4263
▁슛 -4264
▁텔레 -4265
▁프리미 -4266
ㅅㅓㅆ -4267
워하 -4268
▁호평 -4269
▁올라오 -4270
▁루타 -4271
▁쇠 -4272
▁앱 -4273
▁연방 -4274
▁ㅁㅓㄱ -4275
▁똑같이 -4276
▁이재 -4277
▁김정 -4278
▁어깨 -4279
▁특화 -4280
▁ㄱㅏㅌㅇㅣ -4281
▁루시 -4282
▁On -4283
▁라이프 -4284
▁뛰어 -4285
▁도달 -4286
age -4287
▁추진 -4288
▁계정 -4289
▁세월 -4290
▁도서관 -4291
▁ㅁㅏㄴㄴㅏㅆ -4292
▁흥행 -4293
▁볼트 -4294
▁이날 -4295
▁사이드 -4296
▁ㅊㅟ -4297
울리 -4298
▁잠수 -4299
▁강철 -4300
▁익숙 -4301
▁매니 -4302
▁간부 -4303
▁핸드 -4304
ㄹㄹㅓㅆ -4305
▁무료 -4306
▁결승전 -4307
▁연관 -4308
펙트 -4309
▁슈트 -4310
▁ㅁㅐ -4311
▁농구 -4312
▁신문 -4313
▁지휘관 -4314
▁전달 -4315
▁번개 -4316
▁섞 -4317
▁레이드 -4318
▁노예 -4319
▁널 -4320
▁극단 -4321
▁삼진 -4322
▁신분 -4323
▁향상 -4324
▁@ -4325
오프 -4326
▁고향 -4327
▁사마 -4328
ㄴㅣㄴㄷㅏ -4329
▁주소 -4330
▁..... -4331
▁전직 -4332
▁리메 -4333
▁겉 -4334
이즈 -4335
▁양산 -4336
▁수술 -4337
▁누리 -4338
▁쟁 -4339
▁그동안 -4340
▁출력 -4341
▁빌드 -4342
▁켈 -4343
▁묘지 -4344
▁환자 -4345
▁ㅋㅣㄹ -4346
레이터 -4347
▁노출 -4348
▁신성 -4349
▁즐기 -4350
▁마구 -4351
▁캐리 -4352
▁가상 -4353
▁신기 -4354
▁먹이 -4355
▁박근 -4356
▁장교 -4357
▁전역 -4358
▁복잡 -4359
▁진심 -4360
▁팀원 -4361
▁제자 -4362
▁스튜 -4363
▁레이스 -4364
▁샘 -4365
▁헨 -4366
▁가속 -4367
ㅍㅡㄴ -4368
▁동작 -4369
▁ㅇㅗㄴㄷㅏ -4370
▁웬만 -4371
▁적어도 -4372
▁환승 -4373
▁임명 -4374
▁글자 -4375
▁베트 -4376
▁갤럭 -4377
qu -4378
▁부문 -4379
▁소닉 -4380
▁px -4381
▁세이브 -4382
▁멕 -4383
ㄷㅡㄹㅇㅕ -4384
▁봇 -4385
ㅇㅓㄴ -4386
▁입단 -4387
▁듯이 -4388
▁커플 -4389
▁ㅇㅗㄹㄹㅏㅆ -4390
▁가게 -4391
오카 -4392
▁절망 -4393
▁DLC -4394
ood -4395
▁ㅇㅏㄹㅇㅏ -4396
▁맞이 -4397
▁캐스 -4398
▁느리 -4399
▁내구 -4400
▁겁 -4401
▁대체로 -4402
▁쾌 -4403
▁넘기 -4404
조리 -4405
▁AK -4406
▁ㅃㅏㄹㄹㅏ -4407
▁해체 -4408
▁기병 -4409
▁ㅂㅓㅅㅇㅓ -4410
▁내성 -4411
▁ㄷㅏㄹㄹㅣㄴ -4412
▁성별 -4413
▁타마 -4414
▁ㅍㅜㄹ -4415
▁임시 -4416
창기 -4417
▁명중률 -4418
▁핫 -4419
▁구속 -4420
▁THE -4421
BO -4422
▁부리 -4423
▁브레이크 -4424
▁착각 -4425
▁아우 -4426
▁아쉽 -4427
▁페이즈 -4428
ㄹㅓㅁㅇㅔ -4429
▁아빠 -4430
▁알파 -4431
▁가시 -4432
▁종이 -4433
▁ㄷㅏㅁ -4434
▁여유 -4435
▁MVP -4436
▁너무나 -4437
▁전시 -4438
▁막차 -4439
▁차라리 -4440
▁근육 -4441
▁플레 -4442
▁득표 -4443
▁갤럭시 -4444
▁수영 -4445
▁육성 -4446
▁연구소 -4447
란색 -4448
ㅃㅏ -4449
▁뛰어나 -4450
▁Wh -4451
▁중화 -4452
IS -4453
▁ㅅㅣㅁㅎㅏㄴ -4454
▁이즈 -4455
are -4456
▁고백 -4457
▁경고 -4458
▁CC -4459
PM -4460
▁인수 -4461
▁그럼 -4462
▁대량 -4463
ㄱㅜ -4464
아지 -4465
▁ㅇㅚ -4466
▁ㅅㅕㅆ -4467
▁융합 -4468
ㄲㅇㅕ -4469
▁공지 -4470
▁창조 -4471
▁개통 -4472
▁ㅎㅡ -4473
▁자매 -4474
▁리메이크 -4475
▁이자 -4476
ㅇㅡㄴ -4477
▁강원 -4478
▁참전 -4479
▁분기 -4480
▁1994 -4481
▁배트 -4482
▁하필 -4483
▁물질 -4484
전자 -4485
▁인증 -4486
▁$ -4487
▁규칙 -4488
▁의뢰 -4489
▁카오스 -4490
▁대대 -4491
▁럭 -4492
▁인연 -4493
▁1980 -4494
▁시즈 -4495
▁파리 -4496
▁이시 -4497
▁소화 -4498
▁초창기 -4499
▁리치 -4500
▁날짜 -4501
▁지능 -4502
▁실버 -4503
▁글로 -4504
▁제어 -4505
▁협회 -4506
브리 -4507
▁구체 -4508
▁게스트 -4509
▁점차 -4510
▁톱 -4511
▁식사 -4512
▁입히 -4513
OM -4514
디아 -4515
▁카타 -4516
▁분량 -4517
▁가량 -4518
▁드물 -4519
▁성과 -4520
ob -4521
▁청년 -4522
크스 -4523
▁악역 -4524
▁700 -4525
▁고용 -4526
▁도망치 -4527
▁ㄴㅓㄹ -4528
▁남부 -4529
▁태그 -4530
▁이내 -4531
▁의혹 -4532
▁객 -4533
▁미카 -4534
▁누적 -4535
▁대립 -4536
▁Tr -4537
▁투구 -4538
▁흠 -4539
▁합격 -4540
▁돼지 -4541
▁회원 -4542
티나 -4543
ock -4544
▁정복 -4545
▁조지 -4546
▁반발 -4547
▁고르 -4548
▁중대 -4549
▁어울리 -4550
▁테일 -4551
▁여지 -4552
▁왠 -4553
▁협박 -4554
▁메모리 -4555
▁녹음 -4556
▁귀신 -4557
▁합체 -4558
▁쏟 -4559
ake -4560
▁감옥 -4561
▁위장 -4562
▁ㅁㅝ -4563
▁ㅇㅏㅍㅅㅓ -4564
먼트 -4565
▁의료 -4566
▁'' -4567
▁결론 -4568
ㅇㅣㅁ -4569
▁이명 -4570
▁아니면 -4571
▁춘 -4572
ect -4573
▁인하 -4574
▁김영 -4575
구리 -4576
our -4577
▁체포 -4578
▁꼬리 -4579
OW -4580
▁호감 -4581
▁아시 -4582
▁파트너 -4583
ass -4584
▁곧바로 -4585
▁he -4586
▁어쨌 -4587
oy -4588
▁피격 -4589
▁세우 -4590
▁게시판 -4591
▁FI -4592
▁출판 -4593
▁써먹 -4594
ire -4595
▁외계 -4596
▁뷰 -4597
보드 -4598
어내 -4599
▁강의 -4600
도로 -4601
▁스턴 -4602
▁웹툰 -4603
▁모모 -4604
▁후속작 -4605
지마 -4606
ark -4607
▁차트 -4608
▁히데 -4609
▁츄 -4610
▁꺾 -4611
▁기초 -4612
▁뚜 -4613
▁삼국지 -4614
▁정면 -4615
▁예비 -4616
▁아기 -4617
▁쟈 -4618
▁ㅍㅕㄴ -4619
▁합성 -4620
▁서부 -4621
▁유로 -4622
아들이 -4623
▁베스트 -4624
ite -4625
▁ㄴㅓㅁㄱㅕ -4626
▁드러내 -4627
▁림 -4628
▁마키 -4629
▁카스 -4630
▁구멍 -4631
▁축제 -4632
▁사제 -4633
▁랭킹 -4634
▁문장 -4635
▁어지 -4636
웨어 -4637
▁햄 -4638
▁동화 -4639
▁블리 -4640
▁둥 -4641
▁토론 -4642
▁편곡 -4643
▁본작 -4644
▁퀄리티 -4645
▁토르 -4646
▁공급 -4647
▁발매되 -4648
▁부부 -4649
▁수련 -4650
▁저그 -4651
▁개방 -4652
▁돕 -4653
▁대가 -4654
주시 -4655
ah -4656
▁인공 -4657
▁렛 -4658
▁안드로이드 -4659
▁단장 -4660
▁횡 -4661
▁FA -4662
▁내주 -4663
▁ㅇㅖ -4664
▁wh -4665
▁SR -4666
ㄴㅕ -4667
▁소형 -4668
▁다섯 -4669
▁룸 -4670
▁소원 -4671
▁매체 -4672
▁전면 -4673
▁고문 -4674
▁은하 -4675
성기 -4676
▁ㄱㅓㄹㄹㅣㄴ -4677
FC -4678
▁살리 -4679
▁대폭 -4680
ㄷㅜㄴ -4681
▁kt -4682
▁마이클 -4683
ES -4684
▁슈팅 -4685
▁Cl -4686
▁트로 -4687
라이언 -4688
▁AR -4689
▁유행 -4690
▁립 -4691
▁마리아 -4692
▁앞서 -4693
▁플랫 -4694
▁해병 -4695
▁예능 -4696
▁활성 -4697
▁캐나다 -4698
▁투어 -4699
▁과목 -4700
▁초간 -4701
UN -4702
▁클리 -4703
▁문학 -4704
▁파견 -4705
▁세이버 -4706
▁뜬 -4707
▁신호 -4708
▁대략 -4709
릭스 -4710
▁일시 -4711
▁목격 -4712
려가 -4713
▁웅 -4714
▁매직 -4715
▁비아 -4716
▁흔들 -4717
▁에드 -4718
▁움직임 -4719
▁손가락 -4720
▁내장 -4721
▁넉 -4722
▁멍 -4723
▁커맨드 -4724
▁리아 -4725
▁아일 -4726
▁왕조 -4727
▁시위 -4728
▁컬러 -4729
▁GT -4730
▁연타 -4731
iz -4732
ound -4733
▁적군 -4734
▁관중 -4735
▁외형 -4736
▁포스트 -4737
▁간혹 -4738
▁스틸 -4739
▁긍정 -4740
ㄷㅎㅕ -4741
▁김태 -4742
▁뼈 -4743
▁팬덤 -4744
▁야스 -4745
▁구원 -4746
▁박근혜 -4747
▁ㅋㅐ -4748
▁일원 -4749
ime -4750
ㄷㅓㄴㄱㅏ -4751
▁피부 -4752
▁의무 -4753
▁플레이오프 -4754
▁반사 -4755
▁ㄴㅗㄹㄹㅏ -4756
▁식물 -4757
▁정글 -4758
▁이지 -4759
▁희귀 -4760
▁깜 -4761
▁소지 -4762
▁프라이 -4763
▁최소한 -4764
▁육체 -4765
▁my -4766
▁펀치 -4767
▁신라 -4768
▁가볍 -4769
▁수수 -4770
▁SD -4771
▁블로그 -4772
스턴 -4773
▁코우 -4774
▁PD -4775
▁그대 -4776
▁바위 -4777
▁김민 -4778
▁은근히 -4779
▁연인 -4780
▁크라 -4781
LL -4782
우드 -4783
▁상성 -4784
▁Gr -4785
iv -4786
▁준수 -4787
▁타이거 -4788
▁대처 -4789
▁피스 -4790
잡이 -4791
▁잦 -4792
▁ㅌㅔㄴ -4793
▁ㄷㅡㄴㄷㅏ -4794
▁SC -4795
▁빡 -4796
▁KIA -4797
▁Me -4798
ㅂㅕ -4799
▁멘탈 -4800
▁수용 -4801
▁주말 -4802
▁대충 -4803
▁둔 -4804
▁ㅇㅗㄻㄱㅕ -4805
▁킨 -4806
▁취하 -4807
▁인근 -4808
▁오카 -4809
▁파크 -4810
▁불법 -4811
버트 -4812
▁섀 -4813
▁붙이 -4814
▁일격 -4815
▁메뉴 -4816
▁나뉘 -4817
ID -4818
페인 -4819
큐어 -4820
▁상하 -4821
▁각자 -4822
▁ㅇㅑㄱㅎㅐ -4823
▁예측 -4824
▁자치 -4825
▁ㅅㅔㄴ -4826
▁개체 -4827
▁116 -4828
▁특집 -4829
▁환영 -4830
▁헤이 -4831
▁전철 -4832
▁딩 -4833
▁동부 -4834
▁영토 -4835
▁박정 -4836
▁멈 -4837
▁헤비 -4838
▁곡명 -4839
▁영문 -4840
▁냄 -4841
▁조성 -4842
▁적대 -4843
▁홀로 -4844
▁SM -4845
▁썩 -4846
▁멀쩡 -4847
▁My -4848
▁기사단 -4849
▁로즈 -4850
▁보안 -4851
▁더더 -4852
시코 -4853
OP -4854
▁국군 -4855
▁ㅂㅕㄹ -4856
▁건축 -4857
▁130 -4858
▁서양 -4859
▁소중 -4860
▁커스 -4861
▁침공 -4862
디언 -4863
▁오랫 -4864
미야 -4865
▁원본 -4866
▁왈 -4867
▁냥 -4868
▁형사 -4869
▁계단 -4870
▁바리 -4871
▁강남 -4872
ㄲㅟㄴ -4873
▁안내 -4874
▁접속 -4875
▁더더욱 -4876
▁이래 -4877
▁거인 -4878
▁어린이 -4879
▁아바 -4880
▁주포 -4881
▁좌우 -4882
▁ㅁㅝㄹ -4883
▁탄창 -4884
▁훗 -4885
▁ㅆㅘ -4886
▁Pr -4887
▁지우 -4888
▁결말 -4889
▁호텔 -4890
▁{{ -4891
▁어른 -4892
▁겹 -4893
▁대지 -4894
▁플로 -4895
ㄴㅣㄴㄱㅏ -4896
▁기독 -4897
▁첨 -4898
▁유이 -4899
▁정찰 -4900
▁지도자 -4901
▁사우 -4902
▁누나 -4903
▁호주 -4904
ge -4905
▁ㄸㅢ -4906
데스 -4907
▁면역 -4908
가미 -4909
▁골든 -4910
▁박살 -4911
▁회상 -4912
▁처벌 -4913
▁놀라 -4914
▁죄다 -4915
▁허나 -4916
▁스미 -4917
▁미안 -4918
▁액티브 -4919
▁대항 -4920
▁시선 -4921
▁시내버스 -4922
▁{{{ -4923
▁ㅇㅗㄹㄹㅣㄴ -4924
▁펫 -4925
ㅀㅇㅓ -4926
▁와이 -4927
▁ㄴㅏㅁㄱㅕ -4928
▁시마 -4929
▁https -4930
▁후기 -4931
▁절대로 -4932
▁ㅁㅏㅇ -4933
▁학부 -4934
▁현역 -4935
▁BE -4936
▁음원 -4937
▁딘 -4938
▁식당 -4939
▁작화 -4940
▁이루어지 -4941
▁괴수 -4942
ome -4943
▁상당수 -4944
ax -4945
ㅂㅜㅌ -4946
▁퀴 -4947
▁포트 -4948
▁히메 -4949
▁과연 -4950
▁메르 -4951
▁요코 -4952
▁해적 -4953
▁어떠 -4954
▁하야 -4955
▁깡 -4956
▁취미 -4957
▁아이스 -4958
▁재미있 -4959
ㅈㅔㄴ -4960
▁캐스팅 -4961
▁저녁 -4962
▁일기 -4963
덜란드 -4964
▁도우 -4965
▁네덜란드 -4966
▁버스터 -4967
▁그로 -4968
▁마주 -4969
▁DF -4970
▁전문가 -4971
▁빛나 -4972
▁바라보 -4973
▁새벽 -4974
▁고스트 -4975
ance -4976
▁전진 -4977
▁프리큐어 -4978
ㅁㅜ -4979
uc -4980
▁돌아다니 -4981
▁주간 -4982
▁과제 -4983
밀리 -4984
▁로그 -4985
ㅂㅎㅕ -4986
▁라인업 -4987
ick -4988
▁MF -4989
▁리듬 -4990
▁한동안 -4991
▁시계 -4992
▁아티스트 -4993
▁비행기 -4994
▁열쇠 -4995
▁한번 -4996
▁유치 -4997
▁고지 -4998
▁스키 -4999
▁깨닫 -5000
▁천재 -5001
▁Pl -5002
▁ch -5003
스탄 -5004
▁ㄷㅔㄴ -5005
▁예시 -5006
ㅎㅇㅏ -5007
닉스 -5008
▁검찰 -5009
▁오스트 -5010
▁기적 -5011
▁자금 -5012
▁한참 -5013
▁그러니 -5014
▁방지 -5015
▁총선 -5016
▁고수 -5017
ㅇㅎㅏㄴㄷㅏ -5018
▁첫차 -5019
▁HD -5020
▁니코 -5021
구치 -5022
요시 -5023
▁승격 -5024
10 -5025
▁ㅁㅗㄹㄹㅏㅆ -5026
▁리드 -5027
▁용기 -5028
▁\ -5029
ix -5030
▁우위 -5031
MA -5032
▁WW -5033
▁트레이드 -5034
▁트럭 -5035
ord -5036
▁ㄷㅔㄹ -5037
▁마비 -5038
mer -5039
▁트윈 -5040
▁파츠 -5041
▁경기력 -5042
▁외치 -5043
▁방사 -5044
▁챌 -5045
▁드레 -5046
▁?? -5047
▁이슬람 -5048
ㅂㅏ -5049
▁어지간 -5050
▁속하 -5051
▁주사 -5052
▁휴대 -5053
▁안경 -5054
▁저장 -5055
▁양쪽 -5056
▁ㅁㅗㅅㅎㅏㄹ -5057
▁스타크래프트 -5058
▁160 -5059
ㄹㅜㄴ -5060
ure -5061
아웃 -5062
▁코코 -5063
▁위하 -5064
▁램 -5065
▁한마 -5066
▁보라 -5067
▁ㅂㅕㄹㄷㅏ -5068
▁허리 -5069
▁개성 -5070
▁토끼 -5071
▁할아버지 -5072
▁농담 -5073
▁어쨌든 -5074
▁디지털 -5075
▁캠페인 -5076
▁ㅎㅡㄹㄹㅓ -5077
▁GB -5078
▁갈수 -5079
▁ㅈㅜㄱㅇㅣㄹ -5080
▁신비 -5081
▁ㄲㅡㄹㅇㅓ -5082
▁캡틴 -5083
덩이 -5084
▁크리스마스 -5085
고리 -5086
프레 -5087
▁청소년 -5088
▁캠퍼스 -5089
▁ㄱㅔㅅ -5090
▁상급 -5091
▁동굴 -5092
▁ㄸㅡㄴ -5093
▁개정 -5094
▁갈수록 -5095
▁국어 -5096
▁전라 -5097
▁무덤 -5098
▁영향력 -5099
▁받아들이 -5100
▁빗 -5101
특별 -5102
▁with -5103
▁문재 -5104
▁OST -5105
▁ㅅㅣㅁㅎㅐ -5106
▁ㅂㅜㄹㄹㅣㄴㄷㅏ -5107
▁마침내 -5108
▁1992 -5109
▁오랫동안 -5110
▁조언 -5111
▁체크 -5112
▁이영 -5113
지로 -5114
▁유희왕 -5115
▁웃음 -5116
▁ㄱㅓㄹㅊㅕ -5117
▁북부 -5118
▁시아 -5119
ㄴㅝ -5120
▁터키 -5121
▁방출 -5122
▁호위 -5123
▁화제 -5124
▁기독교 -5125
바라 -5126
▁미술 -5127
▁인지도 -5128
▁마이너 -5129
▁김동 -5130
▁클래식 -5131
▁바퀴 -5132
▁ㅈㅜㄹㅇㅕ -5133
▁KO -5134
▁해리 -5135
▁1993 -5136
▁델 -5137
▁연료 -5138
▁아이콘 -5139
라드 -5140
ud -5141
▁올해 -5142
▁ㅌㅔㄴㄷㅔ -5143
▁붙잡 -5144
▁곽 -5145
▁장악 -5146
▁극복 -5147
▁안티 -5148
▁원소 -5149
▁접촉 -5150
▁어마 -5151
▁정원 -5152
▁끄 -5153
양함 -5154
▁촌 -5155
치기 -5156
▁클릭 -5157
▁의존 -5158
▁베트남 -5159
톨릭 -5160
▁중독 -5161
▁국방 -5162
▁귀찮 -5163
▁ㅁㅣㄹ -5164
▁SKT -5165
▁노인 -5166
▁곁 -5167
▁일제 -5168
▁다가 -5169
▁덮 -5170
▁ㅅㅏㄹㅇㅏ -5171
▁사도 -5172
▁인정받 -5173
▁멈추 -5174
▁결코 -5175
▁ㅃㅗ -5176
라이트 -5177
▁바이러스 -5178
▁하락 -5179
▁식량 -5180
▁선택지 -5181
▁들이 -5182
▁미라 -5183
▁ㅈㅜㄱㅇㅣㄴ -5184
▁톰 -5185
▁140 -5186
▁흐름 -5187
▁생존자 -5188
▁놀이 -5189
▁무작 -5190
▁Ex -5191
▁모조리 -5192
ame -5193
▁수익 -5194
▁전신 -5195
▁하우스 -5196
80 -5197
▁윌리 -5198
▁sh -5199
▁칭찬 -5200
▁본체 -5201
멘트 -5202
▁신설 -5203
▁보관 -5204
▁챌린 -5205
▁벗어나 -5206
▁캐논 -5207
▁전멸 -5208
임스 -5209
▁JR -5210
▁부장 -5211
▁투명 -5212
▁공무원 -5213
▁대리 -5214
▁커리어 -5215
▁", -5216
AD -5217
▁로우 -5218
▁손해 -5219
▁전성기 -5220
▁외전 -5221
▁라면 -5222
▁ㅈㅓㄱㅎㅕ -5223
▁핏 -5224
▁기아 -5225
▁도끼 -5226
▁체육관 -5227
▁취향 -5228
▁개수 -5229
▁논리 -5230
▁ㄷㅜㄹ -5231
▁ㅊㅕㅆ -5232
몬드 -5233
▁ㄹㅓㄴ -5234
▁de -5235
▁이브 -5236
▁ㅎㅏㄴㅈㅣ -5237
▁후방 -5238
▁치유 -5239
▁스승 -5240
▁한마디 -5241
▁노부 -5242
▁ㅁㅓㅁ -5243
세스 -5244
▁ㅁㅓㅁㅊ -5245
▁IC -5246
▁수십 -5247
▁루수 -5248
리그 -5249
ost -5250
▁비주 -5251
ㄲㅇㅣㄴ -5252
▁갈리 -5253
▁우연히 -5254
▁카트 -5255
▁모래 -5256
▁쉐 -5257
▁충성 -5258
▁어스 -5259
▁기종 -5260
▁무릎 -5261
▁지켜 -5262
▁최다 -5263
▁데드 -5264
▁에리 -5265
out -5266
▁정비 -5267
▁김종 -5268
▁가톨릭 -5269
▁동의 -5270
▁교장 -5271
▁Love -5272
▁ㅂㅣㄹ -5273
▁이터 -5274
▁변호사 -5275
▁콜라보 -5276
▁무지 -5277
▁마린 -5278
▁ㅈㅏㅁ -5279
▁재현 -5280
코토 -5281
old -5282
카리 -5283
▁일반인 -5284
▁유니폼 -5285
▁툴 -5286
▁레이더 -5287
▁첼 -5288
▁구경 -5289
▁들리 -5290
▁사막 -5291
▁GS -5292
▁제작자 -5293
▁당일 -5294
▁힙 -5295
ㄷㅡㄴㄱㅏ -5296
▁우라 -5297
▁반동 -5298
▁세르 -5299
▁칩 -5300
▁명성 -5301
스키 -5302
▁적응 -5303
▁900 -5304
▁Un -5305
▁제임스 -5306
▁이정 -5307
▁타선 -5308
▁맥스 -5309
▁충청 -5310
▁기여 -5311
▁구사 -5312
▁ㄴㅜㄹㄹㅓ -5313
▁트랜 -5314
▁작곡가 -5315
own -5316
▁코미 -5317
▁법률 -5318
▁증언 -5319
▁카츠 -5320
▁거미 -5321
▁오전 -5322
▁ㅁㅏㅌ -5323
▁소스 -5324
네스 -5325
ㄲㅣㄹ -5326
▁사정거리 -5327
ㅇㅓㄴㄱㅏ -5328
▁수류 -5329
▁쵸 -5330
▁선전 -5331
▁합의 -5332
▁202 -5333
▁자세히 -5334
▁업적 -5335
▁타인 -5336
▁ㅃㅜ -5337
▁패션 -5338
▁멕시코 -5339
▁무방 -5340
카드 -5341
▁잉글 -5342
▁개입 -5343
▁기량 -5344
▁둘째 -5345
▁아일랜드 -5346
워크 -5347
▁날아가 -5348
▁아즈 -5349
▁타락 -5350
▁연금 -5351
▁초보 -5352
▁바깥 -5353
▁가짜 -5354
▁로고 -5355
▁유통 -5356
▁소라 -5357
▁스트리 -5358
▁다스 -5359
▁기도 -5360
▁판매량 -5361
▁다름 -5362
▁ㅈㅏㅂㅎㅕ -5363
ㅇㅑㄴ -5364
▁법원 -5365
▁ㄴㅗㅍ -5366
▁자국 -5367
▁ㅉㅗㅊ -5368
▁ㅅㅏㄴ -5369
▁향하 -5370
▁지켜보 -5371
▁할머니 -5372
▁상업 -5373
▁드라이브 -5374
▁스웨 -5375
▁잡지 -5376
▁폴란드 -5377
▁SH -5378
▁아쿠 -5379
US -5380
시로 -5381
▁ㅅㅣㄹ -5382
ㄱㅓㄹㄹㅗ -5383
▁북쪽 -5384
▁신부 -5385
▁의회 -5386
▁넥센 -5387
▁취임 -5388
▁화장실 -5389
▁조연 -5390
▁정수 -5391
▁LI -5392
다이 -5393
▁일방 -5394
▁포격 -5395
▁수류탄 -5396
려오 -5397
▁닭 -5398
▁EP -5399
▁유물 -5400
▁주식 -5401
▁씹 -5402
▁전후 -5403
▁루카 -5404
▁찌르 -5405
▁무라 -5406
▁보고 -5407
▁wik -5408
미니 -5409
ave -5410
▁복무 -5411
▁깔끔 -5412
▁벌레 -5413
▁가루 -5414
▁차기 -5415
▁히나 -5416
▁그러니까 -5417
▁똥 -5418
▁쌍둥이 -5419
▁주기 -5420
▁교실 -5421
▁과장 -5422
▁승점 -5423
▁출마 -5424
▁대개 -5425
▁금속 -5426
▁FF -5427
pe -5428
▁펑 -5429
▁IS -5430
▁빚 -5431
▁어드 -5432
ace -5433
▁결성 -5434
▁오사카 -5435
▁정착 -5436
▁남쪽 -5437
▁도주 -5438
▁인격 -5439
▁위상 -5440
▁드롭 -5441
per -5442
▁싱크 -5443
▁비싸 -5444
▁인조 -5445
▁포드 -5446
▁비례 -5447
▁ㅁㅓㅅ -5448
▁흔적 -5449
▁연패 -5450
▁XX -5451
▁주일 -5452
달리 -5453
▁자폭 -5454
ㅏㄹㄹㅣㄴ -5455
▁동력 -5456
▁사라 -5457
노우 -5458
▁채우 -5459
ng -5460
▁교차 -5461
▁처형 -5462
▁냄새 -5463
▁독특 -5464
ice -5465
▁도적 -5466
▁훗날 -5467
▁간신 -5468
▁스텔 -5469
▁방어구 -5470
▁팽 -5471
▁공성 -5472
▁1991 -5473
▁거점 -5474
▁스터 -5475
네임 -5476
▁강도 -5477
▁스마트폰 -5478
▁스프링 -5479
ㅈㅕㅆㅇㅡ -5480
▁위대 -5481
▁숭 -5482
▁대인 -5483
▁상호 -5484
▁화학 -5485
▁잡히 -5486
▁자책 -5487
▁매니저 -5488
▁일찍 -5489
ont -5490
▁정치인 -5491
▁블러드 -5492
▁라이온 -5493
▁남녀 -5494
▁국립 -5495
▁연승 -5496
▁클레 -5497
▁CV -5498
▁새끼 -5499
▁1988 -5500
▁공룡 -5501
▁람 -5502
ov -5503
▁헛 -5504
▁비상 -5505
▁부작 -5506
▁포항 -5507
▁포수 -5508
가시 -5509
러지 -5510
▁AD -5511
▁기용 -5512
▁클랜 -5513
▁귀환 -5514
▁몰락 -5515
▁시너지 -5516
▁CF -5517
▁We -5518
▁후술 -5519
▁권한 -5520
▁제갈 -5521
▁고작 -5522
OD -5523
▁추억 -5524
▁스튜디오 -5525
▁유대 -5526
▁ㄸㅡ -5527
▁행보 -5528
▁크리스탈 -5529
▁풀리 -5530
▁타수 -5531
▁스페이스 -5532
▁런던 -5533
▁이슈 -5534
랑이 -5535
▁개량 -5536
▁적당히 -5537
▁오타 -5538
▁ㅅㅠ -5539
▁각본 -5540
▁사신 -5541
▁김재 -5542
▁지뢰 -5543
▁실망 -5544
ㅆㅏ -5545
▁사유 -5546
▁상술 -5547
랭크 -5548
나카 -5549
▁시노 -5550
▁승률 -5551
▁아케 -5552
▁아츠 -5553
▁색깔 -5554
▁트라이 -5555
▁흥미 -5556
▁공세 -5557
ㄷㅐ -5558
▁혐오 -5559
▁주역 -5560
▁숙련 -5561
▁개막 -5562
▁105 -5563
자드 -5564
▁혈액 -5565
▁어려움 -5566
▁이중 -5567
▁너희 -5568
▁AM -5569
▁줄이 -5570
▁광역시 -5571
▁녹색 -5572
▁ㅅㅐㅇㄱㅣㄴㄷㅏ -5573
▁커피 -5574
▁루나 -5575
▁재단 -5576
▁거치 -5577
▁뜬금 -5578
▁카운트 -5579
▁ㅍㅕㄹㅊㅕ -5580
▁미스터 -5581
로나 -5582
ㅡㄹㄹㅣㄴ -5583
블린 -5584
orld -5585
ㄲㅡ -5586
▁타로 -5587
▁자막 -5588
▁해피 -5589
▁다름없 -5590
ies -5591
▁인민 -5592
▁소위 -5593
▁길이 -5594
▁히어로즈 -5595
▁DS -5596
▁서포터 -5597
팡이 -5598
▁일람 -5599
▁널리 -5600
▁ㅋㅓㅆ -5601
▁망치 -5602
▁코리아 -5603
▁ㅎㅜㅁ -5604
▁.." -5605
ann -5606
▁화성 -5607
▁학력 -5608
▁생년 -5609
▁계통 -5610
▁금융 -5611
▁색상 -5612
▁나치 -5613
▁리타 -5614
▁스트라이크 -5615
ㄱㅅ -5616
▁노르 -5617
▁국왕 -5618
▁티켓 -5619
▁특전 -5620
▁SNS -5621
▁관람 -5622
▁면모 -5623
▁ED -5624
▁요금 -5625
▁제작사 -5626
▁흡혈 -5627
▁ㅊㅐㅇㄱㅕ -5628
▁아마도 -5629
▁흘리 -5630
▁미터 -5631
시타 -5632
OC -5633
▁심사 -5634
특별시 -5635
▁영구 -5636
▁아이언 -5637
▁오크 -5638
▁릿 -5639
고속 -5640
▁쓸모 -5641
▁ㅊㅏㄴ -5642
▁차이점 -5643
▁단단 -5644
▁하단 -5645
▁배터리 -5646
▁오직 -5647
▁기숙 -5648
럼프 -5649
▁건너 -5650
▁오랜만 -5651
▁재산 -5652
▁소대 -5653
▁디지몬 -5654
▁증오 -5655
▁개시 -5656
▁세종 -5657
▁둘러 -5658
BA -5659
▁시그 -5660
▁몰아 -5661
▁썬 -5662
▁서울특별시 -5663
▁중량 -5664
▁CPU -5665
▁아서 -5666
▁추종 -5667
▁사이버 -5668
▁미묘 -5669
▁칭호 -5670
▁어뢰 -5671
▁공공 -5672
▁삐 -5673
▁펄 -5674
▁호수 -5675
▁생략 -5676
▁세븐 -5677
▁잉글랜드 -5678
▁혹시 -5679
▁맛있 -5680
LE -5681
▁중첩 -5682
▁DE -5683
▁고구 -5684
▁보호막 -5685
▁좌석 -5686
▁스팀 -5687
▁혐의 -5688
▁ㄹㅐ -5689
베르 -5690
▁오라 -5691
▁민첩 -5692
▁가만 -5693
▁히토 -5694
▁연령 -5695
▁총알 -5696
▁편입 -5697
▁부지 -5698
▁워커 -5699
티아 -5700
▁지경 -5701
▁뎀 -5702
▁ㅈㅗㅎㅇㅏ -5703
▁십자 -5704
▁언더 -5705
▁ㄷㅓㄴㅈㅣ -5706
▁협상 -5707
▁지르 -5708
▁애플 -5709
▁마약 -5710
저스 -5711
▁해상 -5712
▁뿔 -5713
▁쿼터 -5714
ㄷㅣㄴ -5715
ㅁㅜㄴ -5716
▁뺏 -5717
▁메리 -5718
▁상단 -5719
▁휴식 -5720
▁실전 -5721
▁LC -5722
▁ㅁㅏㄴㄴㅏㄹ -5723
▁연예인 -5724
▁단편 -5725
▁신사 -5726
어마 -5727
▁네오 -5728
▁하차 -5729
▁LV -5730
▁상인 -5731
▁타율 -5732
▁이익 -5733
▁예언 -5734
▁노벨 -5735
▁아저 -5736
▁흐르 -5737
▁your -5738
▁후배 -5739
시스트 -5740
로디 -5741
▁곤란 -5742
▁아저씨 -5743
▁네트 -5744
▁찬스 -5745
▁정화 -5746
▁용서 -5747
ber -5748
▁막대 -5749
▁NE -5750
▁딜링 -5751
▁강요 -5752
▁가져가 -5753
▁중국어 -5754
▁펌 -5755
▁ㄴㅏㅁㄱㅕㅆ -5756
▁수장 -5757
▁탈퇴 -5758
▁어마어마 -5759
▁카카 -5760
▁기관총 -5761
ys -5762
▁익스 -5763
두르 -5764
▁예산 -5765
사자 -5766
▁임대 -5767
▁189 -5768
▁구슬 -5769
▁동쪽 -5770
▁언스 -5771
▁강자 -5772
▁공방 -5773
▁문구 -5774
▁턱 -5775
▁용량 -5776
▁SE -5777
▁개혁 -5778
▁가요 -5779
▁가하 -5780
der -5781
▁닫 -5782
▁오마 -5783
▁하루카 -5784
▁원칙 -5785
▁김현 -5786
aw -5787
▁캠프 -5788
▁모노 -5789
ION -5790
▁자극 -5791
▁진보 -5792
▁악당 -5793
▁It -5794
▁ㅉㅏ -5795
▁소장 -5796
▁엮 -5797
▁금방 -5798
▁수호자 -5799
▁넘치 -5800
▁3000 -5801
▁상실 -5802
▁잠수함 -5803
▁부각 -5804
▁드럼 -5805
▁어리 -5806
▁험 -5807
▁잠재 -5808
▁총리 -5809
▁포로 -5810
60 -5811
▁틸 -5812
▁큐브 -5813
▁ㅃㅏㄹㄱㅏㄴ -5814
▁상관없 -5815
▁칼리 -5816
oo -5817
▁ㄱㅗㄹㄹㅏ -5818
▁원하 -5819
이너 -5820
▁마디 -5821
▁교류 -5822
▁인치 -5823
▁루이 -5824
▁학자 -5825
▁집행 -5826
▁포르투 -5827
FF -5828
40 -5829
▁EN -5830
▁굿 -5831
▁BPM -5832
▁없애 -5833
▁원수 -5834
ike -5835
▁앨리스 -5836
▁원문 -5837
▁유효 -5838
▁자전 -5839
버리 -5840
ream -5841
▁원주 -5842
▁메달 -5843
▁내지 -5844
▁저작 -5845
▁결전 -5846
나미 -5847
▁간신히 -5848
▁채팅 -5849
▁일족 -5850
▁가을 -5851
▁내려가 -5852
▁후계 -5853
▁뱀파이어 -5854
▁로리 -5855
▁미쿠 -5856
▁125 -5857
▁1989 -5858
▁무척 -5859
▁타운 -5860
▁활발 -5861
▁엑스트라 -5862
▁신앙 -5863
▁중립 -5864
▁입지 -5865
▁헬기 -5866
▁Com -5867
▁엘리트 -5868
▁모토 -5869
가스 -5870
위대 -5871
▁피터 -5872
▁메시지 -5873
술사 -5874
▁힌 -5875
▁사형 -5876
▁저렴 -5877
▁해골 -5878
▁화물 -5879
▁꺼내 -5880
▁무렵 -5881
▁카와 -5882
▁도루 -5883
▁낚시 -5884
▁기생 -5885
▁제트 -5886
▁이끄 -5887
▁복지 -5888
ory -5889
▁마그 -5890
▁담배 -5891
▁구석 -5892
▁서번 -5893
▁ㄴㅏㅁㄱㅣㄴ -5894
▁짜증 -5895
▁칼날 -5896
월일 -5897
▁첩 -5898
▁PV -5899
▁뜯 -5900
▁정예 -5901
▁사명 -5902
▁모이 -5903
▁서번트 -5904
▁ww -5905
▁표지 -5906
▁요약 -5907
▁루비 -5908
▁집어 -5909
▁말리 -5910
▁안녕 -5911
▁재밌 -5912
▁추구 -5913
▁UP -5914
▁ㄷㅏㄹ -5915
▁미즈 -5916
▁일본인 -5917
▁행운 -5918
▁거울 -5919
▁위원장 -5920
▁동아 -5921
▁며 -5922
▁레알 -5923
▁존재감 -5924
iss -5925
▁영주 -5926
팩트 -5927
▁딜레이 -5928
▁애정 -5929
ㄴㅔ -5930
▁그랜드 -5931
▁나리 -5932
▁오가 -5933
▁터널 -5934
▁생년월일 -5935
▁반전 -5936
▁대학원 -5937
▁꽂 -5938
▁주자 -5939
▁도둑 -5940
▁구축함 -5941
▁음모 -5942
▁바이오 -5943
▁순환 -5944
▁www -5945
▁철학 -5946
▁가동 -5947
▁격추 -5948
▁테라 -5949
데이 -5950
▁지라 -5951
▁캐스터 -5952
▁잔뜩 -5953
▁최신 -5954
▁AS -5955
▁ㅁㅓㅅㅈㅣㄴ -5956
▁사원 -5957
▁무역 -5958
▁플라이 -5959
▁얻어 -5960
라기 -5961
▁엔젤 -5962
▁피아노 -5963
▁텍스트 -5964
▁참석 -5965
▁공허 -5966
▁서쪽 -5967
▁알렉산 -5968
▁기구 -5969
▁모니 -5970
▁부적 -5971
▁심심 -5972
▁기숙사 -5973
걸이 -5974
▁성남 -5975
▁-> -5976
▁부스터 -5977
▁ㅈㅏㄹㄹㅏ -5978
▁BL -5979
▁취약 -5980
▁비서 -5981
▁이집 -5982
▁ㅈㅜㄹㅇㅓ -5983
▁ㅂㅜㄹ -5984
▁공용 -5985
▁주차 -5986
▁이집트 -5987
30 -5988
▁분신 -5989
▁that -5990
▁드래프트 -5991
ian -5992
▁분대 -5993
▁챙 -5994
테르 -5995
하면 -5996
▁궤도 -5997
chor -5998
▁상기 -5999
▁준우 -6000
▁ㄴㅗㄹㄹ -6001
▁유적 -6002
▁통산 -6003
▁CJ -6004
▁체중 -6005
▁옳 -6006
▁토벌 -6007
회사 -6008
▁쭉 -6009
▁초록 -6010
▁난입 -6011
▁유나이 -6012
▁페널 -6013
▁교황 -6014
▁권리 -6015
▁명단 -6016
▁확대 -6017
▁ㅆㅏㅎ -6018
▁탄환 -6019
▁훼 -6020
▁이토 -6021
우마 -6022
▁윌리엄 -6023
▁식민 -6024
io -6025
▁종목 -6026
▁Pro -6027
▁도박 -6028
게임 -6029
▁씬 -6030
▁나츠 -6031
▁유나이티 -6032
▁복구 -6033
▁경로 -6034
▁은신 -6035
▁출입 -6036
▁신전 -6037
▁스펠 -6038
▁밍 -6039
▁이식 -6040
▁말투 -6041
▁브루 -6042
▁악명 -6043
▁대선 -6044
▁ㄷㅜㄹㄹㅓ -6045
▁ㅋㅗ -6046
▁하츠 -6047
소녀 -6048
▁왠지 -6049
▁외계인 -6050
▁1970 -6051
▁건조 -6052
▁동인 -6053
▁글로벌 -6054
▁코멘트 -6055
▁끔 -6056
▁트랜스 -6057
▁태평 -6058
▁간접 -6059
▁형상 -6060
▁윗 -6061
정부 -6062
▁이수 -6063
▁업로드 -6064
▁Fl -6065
▁가방 -6066
▁발달 -6067
▁양성 -6068
▁고개 -6069
▁레딧 -6070
▁와일드 -6071
▁레슬 -6072
ㅢㄴ -6073
▁아미 -6074
▁연맹 -6075
▁하향 -6076
▁천만 -6077
▁시라 -6078
▁불사 -6079
▁김대 -6080
▁일치 -6081
▁숨기 -6082
▁적합 -6083
ㅈㅜㄹ -6084
▁Br -6085
▁명확 -6086
ㅅㅓㄹ -6087
▁디스크 -6088
▁소유자 -6089
▁자라 -6090
▁이드 -6091
▁제약 -6092
▁장탄 -6093
0000 -6094
ㅈㅎㅕ -6095
▁유독 -6096
▁아메리카 -6097
▁전이 -6098
▁라이플 -6099
▁얀 -6100
▁연극 -6101
▁짤 -6102
▁미키 -6103
▁릴리 -6104
▁드라이버 -6105
▁ㅂㅣㄹㄹㅕ -6106
▁구글 -6107
▁정황 -6108
▁사후 -6109
▁anchor -6110
▁화재 -6111
▁;& -6112
▁흰 -6113
▁이펙트 -6114
▁매장 -6115
▁딕 -6116
▁리스크 -6117
▁크림 -6118
▁ㅂㅏㄴㅎㅐ -6119
▁끔찍 -6120
▁저택 -6121
▁팬텀 -6122
▁강점 -6123
▁헌법 -6124
▁도라 -6125
▁wiki -6126
▁WWE -6127
▁곳곳 -6128
▁주택 -6129
▁아키라 -6130
▁실책 -6131
▁울프 -6132
리나 -6133
▁ㅁㅜㄹ -6134
IP -6135
포트 -6136
▁로얄 -6137
▁ㅇㅓㅄ -6138
▁할인 -6139
▁le -6140
▁백성 -6141
▁&# -6142
▁이민 -6143
▁170 -6144
▁리뷰 -6145
▁셜 -6146
▁보완 -6147
▁평생 -6148
▁앞두 -6149
▁암시 -6150
▁그램 -6151
▁Or -6152
▁ㅈㅕㅆㅇㅡ -6153
▁다이아몬드 -6154
▁문단 -6155
▁렐 -6156
UM -6157
IG -6158
▁비주얼 -6159
▁하이퍼 -6160
▁그럭 -6161
▁운동장 -6162
▁조별 -6163
▁치킨 -6164
VD -6165
▁마블 -6166
▁답변 -6167
▁단축 -6168
▁알아 -6169
▁야수 -6170
▁언덕 -6171
▁허락 -6172
▁우르 -6173
▁금액 -6174
저럭 -6175
▁충실 -6176
▁웨이브 -6177
▁어필 -6178
▁만남 -6179
▁메이드 -6180
▁고위 -6181
가리 -6182
▁치즈 -6183
▁그럭저럭 -6184
▁테츠 -6185
▁여우 -6186
▁승객 -6187
▁토니 -6188
TE -6189
▁걸맞 -6190
▁조리 -6191
▁ㅇㅣㄹㅈㅣ -6192
▁플래시 -6193
▁스테이 -6194
▁박물 -6195
▁by -6196
▁1987 -6197
▁호기 -6198
▁원자 -6199
▁시합 -6200
▁비스 -6201
▁덩치 -6202
▁샌드 -6203
ㅂㅎㅏㄴ -6204
▁불펜 -6205
oth -6206
▁감각 -6207
▁상식 -6208
▁자이언츠 -6209
▁ㅇㅕㅆㅇㅡㄹ -6210
▁항공기 -6211
▁딴 -6212
▁헤어 -6213
▁ㄷㅓㅅ -6214
▁Dr -6215
▁성립 -6216
▁위반 -6217
▁에르 -6218
▁파편 -6219
▁뛰어넘 -6220
az -6221
▁언젠 -6222
▁언젠가 -6223
▁스웨덴 -6224
ㄲㅟㄴㄷㅏ -6225
▁트롤 -6226
▁꼼 -6227
▁스크린 -6228
▁승자 -6229
▁출격 -6230
▁ㅇㅣㅀㅇㅓ -6231
데미 -6232
▁상영 -6233
▁토너 -6234
ep -6235
▁시원 -6236
▁구미 -6237
▁부자 -6238
▁긴장 -6239
man -6240
▁을 -6241
▁기동성 -6242
비드 -6243
▁입대 -6244
▁축복 -6245
▁ㄹㅠ -6246
▁배트맨 -6247
▁구리 -6248
▁선고 -6249
▁유학 -6250
▁ㄱㅓㄹㄹㅣㄴㄷㅏ -6251
▁매년 -6252
▁필리 -6253
▁집착 -6254
▁천하 -6255
▁급격 -6256
▁잡아먹 -6257
OU -6258
▁문재인 -6259
▁록맨 -6260
▁놓치 -6261
▁ㄱㅓㄹㅇㅓ -6262
▁니스 -6263
ale -6264
▁미네 -6265
▁;&# -6266
▁권장 -6267
▁넘버 -6268
▁킬러 -6269
▁OP -6270
▁동성 -6271
▁사살 -6272
▁서구 -6273
▁보드 -6274
▁작년 -6275
▁서서 -6276
▁호칭 -6277
VA -6278
▁ㅌㅣ -6279
▁창고 -6280
▁퇴장 -6281
▁내전 -6282
▁기인 -6283
▁ㄴㅘㅆ -6284
▁아카데미 -6285
▁일대 -6286
▁플래그 -6287
▁토마 -6288
▁해명 -6289
▁스폰 -6290
▁참가자 -6291
▁평점 -6292
▁맷 -6293
▁적중 -6294
▁ㄱㅔㄴ -6295
▁분명히 -6296
▁한쪽 -6297
▁마법소녀 -6298
▁고도 -6299
ㅁㅗ -6300
▁스즈 -6301
▁ㅁㅗㄹㄹㅕ -6302
▁나타내 -6303
▁결심 -6304
▁대수 -6305
70 -6306
▁정하 -6307
쟁이 -6308
▁RPG -6309
ach -6310
▁ㅅㅜㄴ -6311
▁ㅃㅗㅂ -6312
▁ㅁㅜㄹㄹㅓ -6313
▁시공 -6314
▁구름 -6315
▁우에 -6316
▁실종 -6317
▁교과 -6318
▁케인 -6319
▁노바 -6320
▁동점 -6321
▁ㄱㅏㅈㅊㅜㄴ -6322
군다 -6323
▁관할 -6324
▁열매 -6325
▁탐험 -6326
▁ㄲㅜ -6327
arg -6328
운서 -6329
▁아나운서 -6330
▁1500 -6331
▁중형 -6332
▁용인 -6333
▁전주 -6334
▁Sc -6335
▁학기 -6336
부르크 -6337
ook -6338
▁꿀 -6339
▁그렇지만 -6340
▁ㅈㅜㄱㅇㅕㅆ -6341
▁사키 -6342
▁흑인 -6343
▁근거리 -6344
▁타쿠 -6345
▁본진 -6346
▁랄 -6347
▁약화 -6348
▁결합 -6349
▁결투 -6350
ows -6351
▁ㅇㅓㅄㅇ -6352
▁경직 -6353
▁법인 -6354
▁5000 -6355
▁ㅁㅔㄴ -6356
▁떠올리 -6357
▁커녕 -6358
▁ㄲㅡㄹㄹㅕ -6359
▁ㅎㅢㄴ -6360
▁정기 -6361
▁치르 -6362
▁리플 -6363
▁해안 -6364
▁팟 -6365
▁솜 -6366
▁111 -6367
▁호흡 -6368
orm -6369
▁토너먼트 -6370
▁수능 -6371
▁괜히 -6372
▁어판 -6373
▁전승 -6374
▁기운 -6375
▁마스크 -6376
▁생명체 -6377
▁등지 -6378
▁호시 -6379
▁발렌 -6380
▁믹스 -6381
ㅃㅓ -6382
▁암살자 -6383
▁야생 -6384
▁내일 -6385
▁센스 -6386
ish -6387
▁채보 -6388
▁파르 -6389
ky -6390
▁ㅍㅏㄴ -6391
▁막내 -6392
▁쓰러뜨리 -6393
▁럼 -6394
▁연합군 -6395
▁악몽 -6396
▁Team -6397
▁천안 -6398
▁KBO -6399
▁완결 -6400
▁페이스북 -6401
▁지위 -6402
▁크레 -6403
▁근본 -6404
▁겹치 -6405
▁}} -6406
▁동아리 -6407
▁정차 -6408
▁뮤지컬 -6409
▁변환 -6410
▁불교 -6411
▁솔직 -6412
▁스위치 -6413
▁본사 -6414
▁우정 -6415
▁불타 -6416
▁BB -6417
▁박물관 -6418
▁엔드 -6419
▁슬라이 -6420
무시 -6421
▁Go -6422
▁선두 -6423
▁침략 -6424
ae -6425
▁휘두르 -6426
▁연습생 -6427
▁베리 -6428
▁침묵 -6429
▁통화 -6430
GE -6431
▁침입 -6432
▁베타 -6433
▁보이스 -6434
▁지팡이 -6435
▁마우스 -6436
▁와타 -6437
▁헐 -6438
ug -6439
▁알아보 -6440
▁소음 -6441
▁장인 -6442
▁리카 -6443
Hz -6444
ade -6445
▁헝 -6446
rom -6447
▁초인 -6448
▁동급 -6449
일보 -6450
▁마물 -6451
커스 -6452
▁싹 -6453
▁따라가 -6454
▁유발 -6455
▁트리플 -6456
▁타석 -6457
▁인디 -6458
▁유력 -6459
▁ㅇㅗㄹㄹㅣㄹ -6460
ile -6461
▁돌입 -6462
▁ㅉㅏㄹ -6463
▁통계 -6464
▁면적 -6465
려들 -6466
▁유격 -6467
▁판결 -6468
▁부실 -6469
yle -6470
▁관리자 -6471
▁FIFA -6472
▁참모 -6473
▁지불 -6474
▁키타 -6475
▁영광 -6476
▁교도 -6477
▁대왕 -6478
▁사인 -6479
▁지진 -6480
▁서클 -6481
▁임팩트 -6482
▁일본군 -6483
▁법정 -6484
▁새롭 -6485
ash -6486
군다나 -6487
▁끈 -6488
ower -6489
irl -6490
▁소방 -6491
▁ㄱㅓㄴㄱㅏ -6492
ink -6493
▁수급 -6494
반도 -6495
▁ㅋㅏㄴ -6496
▁철수 -6497
▁1986 -6498
프리 -6499
▁벙 -6500
부로 -6501
데드 -6502
▁출구 -6503
▁균형 -6504
▁가죽 -6505
▁허가 -6506
▁무시무시 -6507
▁쓰러지 -6508
▁임신 -6509
▁ㅣ -6510
▁통치 -6511
▁무작위 -6512
▁노스 -6513
▁인피 -6514
▁대거 -6515
▁ㄱㅓㄹㄹㅕㅆ -6516
▁재정 -6517
▁더군다나 -6518
▁CH -6519
▁무관 -6520
▁우타 -6521
▁언데드 -6522
▁가디언 -6523
▁보험 -6524
▁ㄴㅜㄴ -6525
▁수비력 -6526
▁부서 -6527
▁프리미엄 -6528
▁도망가 -6529
TS -6530
▁감지 -6531
▁세팅 -6532
▁CG -6533
은행 -6534
▁항복 -6535
▁콜로 -6536
▁간간 -6537
atch -6538
▁히라 -6539
▁인질 -6540
▁채택 -6541
▁폐쇄 -6542
▁인종 -6543
▁인력 -6544
▁신발 -6545
▁썬더 -6546
▁FW -6547
▁디젤 -6548
▁여러분 -6549
▁안개 -6550
▁이라 -6551
▁막판 -6552
▁격차 -6553
▁삽입 -6554
▁we -6555
▁몽골 -6556
▁스쿨 -6557
▁고블린 -6558
▁반박 -6559
ㄷㅣㄴㄱㅏ -6560
▁철저 -6561
▁ㅁㅏㅇㅎㅐㅆ -6562
▁인방 -6563
센트 -6564
▁이혼 -6565
▁뿜 -6566
▁단원 -6567
▁남북 -6568
▁토시 -6569
▁ㄲㅡㄶ -6570
▁아끼 -6571
▁제정 -6572
▁관계자 -6573
IM -6574
▁바디 -6575
▁ㄷㅓㅅㅂㅜㅌ -6576
▁핑크 -6577
▁경남 -6578
▁비전 -6579
▁DD -6580
▁데모 -6581
▁창원 -6582
▁출루 -6583
▁유인 -6584
ㄷㅡㄴㅈㅣ -6585
ial -6586
▁돌려 -6587
▁리프 -6588
▁백인 -6589
▁존경 -6590
sh -6591
ㄹㅏㅆ -6592
머스 -6593
▁트럼프 -6594
CG -6595
▁후계자 -6596
▁가라 -6597
▁남매 -6598
▁그린 -6599
▁포위 -6600
▁텟 -6601
▁여주 -6602
ㄴㅣㄴㄷㅔ -6603
▁포켓몬스터 -6604
▁깨달 -6605
▁배포 -6606
▁고구려 -6607
ㄲㅕㅆ -6608
▁살아가 -6609
▁스파이더 -6610
▁뻗 -6611
▁무사히 -6612
▁코르 -6613
ㅅㅕ -6614
▁아틀 -6615
▁이타 -6616
▁영원히 -6617
▁수면 -6618
▁골렘 -6619
▁투스 -6620
먼스 -6621
▁예수 -6622
▁스트레스 -6623
▁챌린지 -6624
▁War -6625
▁복제 -6626
▁인용 -6627
▁매번 -6628
▁동양 -6629
▁일당 -6630
ㅈㅜ -6631
래시 -6632
▁김경 -6633
여객 -6634
▁ID -6635
▁ㅁㅏㄹ -6636
▁체인지 -6637
▁복선 -6638
▁거듭 -6639
▁쿠라 -6640
▁오늘날 -6641
▁팁 -6642
▁어이 -6643
▁티아 -6644
▁무너지 -6645
▁기세 -6646
전차 -6647
▁국당 -6648
▁옮 -6649
▁캐치 -6650
▁소송 -6651
▁학습 -6652
▁Star -6653
ㅇㅕㅆㅇㅡ -6654
▁LA -6655
▁물량 -6656
▁중복 -6657
▁106 -6658
▁ㅇㅔㄹ -6659
▁읍 -6660
▁개설 -6661
리스트 -6662
▁포르투갈 -6663
코드 -6664
▁가만히 -6665
▁아테 -6666
▁메이플 -6667
▁ㄲㅡㅌㄴㅏㄴㄷㅏ -6668
▁up -6669
▁보충 -6670
▁수출 -6671
▁준우승 -6672
▁탕 -6673
▁왜곡 -6674
▁리오 -6675
▁레지 -6676
▁에픽 -6677
▁동명 -6678
▁간단히 -6679
▁즉사 -6680
필드 -6681
▁선행 -6682
▁보건 -6683
▁체험 -6684
▁해머 -6685
▁ㅅㅕ -6686
오루 -6687
▁코난 -6688
▁상담 -6689
▁축하 -6690
▁이란 -6691
▁오디션 -6692
▁장신 -6693
▁물고기 -6694
▁분열 -6695
▁대책 -6696
▁토크 -6697
▁자르 -6698
▁파이트 -6699
▁이글 -6700
▁웰 -6701
▁기상 -6702
▁정통 -6703
카이 -6704
▁미만 -6705
▁잠입 -6706
▁피닉스 -6707
천시 -6708
▁이주 -6709
▁미나미 -6710
▁만만 -6711
▁지리 -6712
▁데이트 -6713
▁귀엽 -6714
▁네트워크 -6715
▁중력 -6716
▁혼돈 -6717
▁코트 -6718
▁배정 -6719
▁라라 -6720
ㄲㅜㄹ -6721
▁닉네임 -6722
▁DVD -6723
티스 -6724
▁오키 -6725
▁하마 -6726
▁메이커 -6727
키지 -6728
▁버섯 -6729
▁ㄷㅡㄹㅇㅡ -6730
▁처분 -6731
▁시크 -6732
▁멜로디 -6733
▁해킹 -6734
▁PR -6735
▁전북 -6736
▁115 -6737
▁항의 -6738
▁공업 -6739
▁오우 -6740
▁포즈 -6741
화점 -6742
▁수석 -6743
▁마다 -6744
▁선제 -6745
▁나미 -6746
▁ON -6747
▁상한 -6748
▁후원 -6749
▁여전 -6750
▁진압 -6751
▁자전거 -6752
ㄱㅗㄴ -6753
▁ㄱㅓㄴㄴㅓ -6754
▁단행 -6755
▁오메 -6756
▁억지로 -6757
▁102 -6758
▁야마토 -6759
▁악기 -6760
ING -6761
▁패키지 -6762
▁트릭 -6763
▁개업 -6764
▁수백 -6765
▁fe -6766
▁뽀 -6767
ous -6768
▁아랍 -6769
▁마드리 -6770
▁벨트 -6771
▁기재 -6772
▁사령부 -6773
▁입주 -6774
▁자본 -6775
▁유산 -6776
▁퍼포 -6777
▁배역 -6778
▁퍼포먼스 -6779
▁장거리 -6780
▁기갑 -6781
▁For -6782
▁수명 -6783
▁Ne -6784
▁기동전 -6785
▁서포트 -6786
▁플러스 -6787
▁라그 -6788
▁장탄수 -6789
▁And -6790
att -6791
▁악화 -6792
▁돔 -6793
▁ㅈㅏㄹ -6794
▁기름 -6795
amp -6796
▁대포 -6797
세대 -6798
▁성전 -6799
▁마드리드 -6800
자와 -6801
붙이 -6802
가드 -6803
▁콘텐츠 -6804
▁고리 -6805
▁오스트리아 -6806
▁블라 -6807
▁사이코 -6808
▁옹호 -6809
▁ㄹㅠㄴ -6810
▁대치 -6811
▁닛 -6812
▁파멸 -6813
▁ㅂㅏㄺㅎㅣㄴ -6814
▁호랑이 -6815
▁통로 -6816
▁분쟁 -6817
▁}}} -6818
▁정발 -6819
▁우세 -6820
▁파동 -6821
▁프레이 -6822
▁전제 -6823
▁ㄱㅡㄹㄹㅓ -6824
▁신나 -6825
▁야구장 -6826
게이 -6827
▁궁금 -6828
야수 -6829
▁사용자 -6830
▁가공 -6831
▁그날 -6832
▁세부 -6833
▁신입 -6834
▁이스라 -6835
▁카구 -6836
▁GP -6837
▁유미 -6838
▁나기 -6839
▁도감 -6840
▁모험가 -6841
▁첼시 -6842
▁175 -6843
▁주니어 -6844
▁탐정 -6845
▁기력 -6846
▁Cr -6847
바닥 -6848
▁논의 -6849
▁188 -6850
▁재회 -6851
▁ㅊㅣㄴㄷㅏ -6852
▁Wind -6853
▁배달 -6854
▁무술 -6855
ㄹㄹㅐ -6856
▁조약 -6857
▁최상위 -6858
▁ㄷㅡㄹㅇㅕ -6859
아키 -6860
▁깜짝 -6861
▁아르헨 -6862
▁김상 -6863
▁공정 -6864
▁1985 -6865
▁처참 -6866
▁비웃 -6867
▁행방 -6868
크로 -6869
▁분해 -6870
▁광선 -6871
▁디즈 -6872
▁세포 -6873
▁젤리 -6874
▁파생 -6875
하시 -6876
▁커지 -6877
me -6878
▁진주 -6879
▁버드 -6880
▁산하 -6881
▁시트 -6882
▁모터 -6883
ㄷㅣ -6884
▁양상 -6885
▁bl -6886
▁진학 -6887
▁무스 -6888
▁노조 -6889
▁체감 -6890
▁유성 -6891
▁박지 -6892
▁차체 -6893
AY -6894
▁위안 -6895
▁조우 -6896
▁후손 -6897
▁마코토 -6898
▁아르헨티나 -6899
▁나비 -6900
▁장미 -6901
▁증폭 -6902
텐도 -6903
▁토키 -6904
▁닌텐도 -6905
▁롬 -6906
▁저지르 -6907
▁터스 -6908
ㅟㄴ -6909
▁레일 -6910
▁wid -6911
▁왜냐 -6912
▁조이 -6913
▁리온 -6914
ms -6915
▁강원도 -6916
▁ㄴㅡㄹㄹㅕ -6917
▁여학생 -6918
▁고로 -6919
ib -6920
▁김진 -6921
▁즈음 -6922
64 -6923
▁독재 -6924
▁아동 -6925
▁관점 -6926
▁폭행 -6927
▁퍼지 -6928
▁부착 -6929
▁주둔 -6930
ㄹㄹㅣㅁ -6931
▁니콜 -6932
▁금메달 -6933
▁al -6934
▁방치 -6935
▁규격 -6936
▁ㅊㅣㄴㅎㅐ -6937
ft -6938
▁난사 -6939
▁검술 -6940
▁업계 -6941
▁들어서 -6942
▁페널티 -6943
▁조기 -6944
▁휘하 -6945
▁베네 -6946
ㅂㅗㄴ -6947
now -6948
▁시카 -6949
▁드루 -6950
▁한두 -6951
▁공수 -6952
▁사귀 -6953
▁듀오 -6954
▁전파 -6955
▁질투 -6956
▁ㄱㅕㅂㅊㅕ -6957
▁띠 -6958
▁마냥 -6959
▁350 -6960
▁무인 -6961
아이 -6962
▁제독 -6963
벌레 -6964
▁전무 -6965
▁ㅊㅣㄴㅎㅏㄴ -6966
▁width -6967
▁벼 -6968
▁히가시 -6969
▁브레 -6970
▁중세 -6971
▁훈장 -6972
▁Gam -6973
승부 -6974
▁택시 -6975
▁불량 -6976
▁톨 -6977
▁조커 -6978
MP -6979
▁PP -6980
▁베테 -6981
▁파란색 -6982
ps -6983
▁경주 -6984
렐라 -6985
▁괴롭 -6986
▁측정 -6987
▁감상 -6988
▁드론 -6989
▁IN -6990
▁소요 -6991
▁자꾸 -6992
▁중장 -6993
▁면허 -6994
▁방송국 -6995
▁개발자 -6996
▁BS -6997
▁ㅅㅗㄱㅎㅏㄴㄷㅏ -6998
▁ㄱㅏㅁ -6999
▁스트리트 -7000
비전 -7001
▁감동 -7002
▁이스라엘 -7003
▁김기 -7004
▁스탠드 -7005
▁도저히 -7006
▁오염 -7007
▁늘리 -7008
▁능력자 -7009
▁전동 -7010
oll -7011
▁토큰 -7012
▁승무원 -7013
▁1984 -7014
▁세인트 -7015
▁약탈 -7016
▁루스 -7017
▁최적 -7018
▁기원전 -7019
히코 -7020
▁부사 -7021
TV -7022
▁후자 -7023
▁트루 -7024
▁틴 -7025
▁이온 -7026
pl -7027
▁지사 -7028
▁BR -7029
▁시상 -7030
▁발목 -7031
▁Man -7032
12 -7033
▁신도 -7034
▁AKB -7035
▁대단히 -7036
▁디바 -7037
▁하하 -7038
▁산탄 -7039
▁룩 -7040
▁국판 -7041
▁스캔 -7042
▁맡기 -7043
▁루머 -7044
▁운수 -7045
▁위성 -7046
▁피트 -7047
▁후퇴 -7048
태프 -7049
▁나루토 -7050
▁에디 -7051
port -7052
▁UN -7053
▁유니크 -7054
▁우월 -7055
▁루이스 -7056
ㄱㅡ -7057
▁둠 -7058
▁닝 -7059
▁기장 -7060
▁All -7061
▁우치 -7062
▁옮기 -7063
▁광장 -7064
▁내려오 -7065
▁주행 -7066
▁선거구 -7067
▁아시안 -7068
▁찢 -7069
▁브로 -7070
▁이종 -7071
▁스텝 -7072
번에 -7073
▁왕위 -7074
▁루크 -7075
▁아레나 -7076
▁식민지 -7077
▁코마 -7078
신교 -7079
▁상관없이 -7080
▁샷건 -7081
▁바론 -7082
▁ex -7083
아나 -7084
▁혈액형 -7085
▁선보이 -7086
▁나노 -7087
▁ㅅㅣㅂㅅㅣ -7088
▁서서히 -7089
▁조용히 -7090
▁자비 -7091
ㅋㅣ -7092
▁ㄷㅓㄴㄱㅏ -7093
카락 -7094
▁달라지 -7095
▁창단 -7096
▁머리카락 -7097
▁소용 -7098
▁Part -7099
▁철권 -7100
▁SU -7101
▁과도 -7102
▁자녀 -7103
▁베기 -7104
▁에반 -7105
▁ㅊㅣㄹ -7106
▁제출 -7107
▁ㅎㅣ -7108
▁112 -7109
▁토미 -7110
경기 -7111
▁드림 -7112
▁라이너 -7113
▁KR -7114
▁까이 -7115
▁조롱 -7116
▁공백 -7117
▁기둥 -7118
▁ㅂㅐㄴ -7119
▁야간 -7120
▁분당 -7121
▁명의 -7122
▁아가씨 -7123
▁다운로드 -7124
▁원리 -7125
▁En -7126
▁간호 -7127
▁얻어맞 -7128
▁비명 -7129
▁노가 -7130
▁일화 -7131
▁힐러 -7132
▁요인 -7133
ond -7134
▁연고 -7135
▁ㅎㅑㅇㅎㅏㄴ -7136
▁수월 -7137
세서 -7138
▁철거 -7139
키퍼 -7140
▁처지 -7141
▁투척 -7142
▁마감 -7143
▁프렌 -7144
▁쇼핑 -7145
▁백작 -7146
어놓 -7147
▁대시 -7148
▁DC -7149
ment -7150
▁실장 -7151
▁돌연 -7152
▁막히 -7153
▁장사 -7154
▁보존 -7155
▁LP -7156
▁몫 -7157
▁중시 -7158
▁캣 -7159
▁Sup -7160
▁더빙 -7161
필더 -7162
▁미드필더 -7163
▁절차 -7164
▁굵 -7165
▁고증 -7166
▁리즈 -7167
▁줄거리 -7168
▁루피 -7169
ㄹㅜㄴㄷㅏ -7170
▁Mar -7171
▁Fate -7172
▁뻥 -7173
▁뒤늦 -7174
▁프란 -7175
▁전망 -7176
▁108 -7177
ase -7178
ㅌㅡ -7179
▁범죄자 -7180
데레 -7181
▁시신 -7182
▁막상 -7183
▁반부 -7184
▁타이거즈 -7185
▁닐 -7186
▁무산 -7187
▁엑시 -7188
▁경악 -7189
ㄲㅜㄴ -7190
▁AN -7191
▁듀스 -7192
▁수동 -7193
▁합병 -7194
▁호소 -7195
▁온천 -7196
▁쇼크 -7197
▁챙기 -7198
▁주류 -7199
▁수색 -7200
▁저하 -7201
▁시외 -7202
도리 -7203
유럽 -7204
▁시바 -7205
▁오락 -7206
▁특급 -7207
▁긴급 -7208
우리 -7209
▁원조 -7210
▁라이온즈 -7211
ool -7212
하르트 -7213
▁스리 -7214
▁여인 -7215
▁에릭 -7216
▁식품 -7217
▁고객 -7218
▁와카 -7219
▁골키퍼 -7220
▁나폴 -7221
▁배드 -7222
▁인권 -7223
▁평일 -7224
▁낙하 -7225
▁360 -7226
▁합계 -7227
▁유재 -7228
ㅇㅘㅆㅇㅡ -7229
▁117 -7230
▁배급 -7231
▁모로 -7232
▁꼬마 -7233
▁빅토 -7234
▁이나 -7235
▁청와 -7236
▁생애 -7237
▁의자 -7238
▁걸즈 -7239
▁마계 -7240
블로 -7241
▁우유 -7242
▁성당 -7243
▁교단 -7244
▁세라 -7245
투스 -7246
▁지칭 -7247
▁발굴 -7248
▁타일 -7249
런트 -7250
▁복합 -7251
▁막아내 -7252
▁킷 -7253
▁실은 -7254
▁직장 -7255
▁안양 -7256
▁카시 -7257
▁로빈 -7258
▁ㅂㅕㄴㅎㅐ -7259
▁잠실 -7260
▁러시 -7261
▁샤이 -7262
▁증상 -7263
▁아아 -7264
▁임금 -7265
▁스포일러 -7266
▁One -7267
▁방위 -7268
▁며칠 -7269
▁강림 -7270
▁GO -7271
▁바스 -7272
ph -7273
▁팡 -7274
▁폭파 -7275
▁고소 -7276
▁ㅇㅗㅂ -7277
▁만일 -7278
▁확장팩 -7279
▁청와대 -7280
▁공인 -7281
▁달하 -7282
▁ㄱㅘㄴㅎㅐ -7283
▁어시스트 -7284
▁국경 -7285
▁여고 -7286
▁당당 -7287
▁부임 -7288
▁개별 -7289
▁유의 -7290
▁미루 -7291
산시 -7292
▁ㅎㅣㅁㄷㅡㄹ -7293
▁ㄷㅡㄹㄹㅕ -7294
▁그라운드 -7295
▁후회 -7296
▁로이 -7297
틀러 -7298
ree -7299
▁Oh -7300
저리 -7301
▁기묘 -7302
▁로버트 -7303
▁꽉 -7304
▁뱃 -7305
▁배수 -7306
▁뱅크 -7307
▁ㅇㅜㅅ -7308
▁명백 -7309
▁오로지 -7310
▁ㅍㅏㄹ -7311
▁거북 -7312
▁오이 -7313
▁프린세스 -7314
▁교복 -7315
▁코스튬 -7316
▁휠 -7317
▁예고편 -7318
▁특별히 -7319
▁그거 -7320
▁포스터 -7321
▁선사 -7322
▁역습 -7323
▁통틀 -7324
플레이 -7325
▁그레 -7326
▁시로 -7327
▁학생회 -7328
▁비치 -7329
▁청주 -7330
▁개장 -7331
▁히든 -7332
▁헨리 -7333
▁붐 -7334
▁집어넣 -7335
▁As -7336
도르 -7337
▁극도 -7338
▁아이러 -7339
▁ㅂㅓㄴ -7340
리온 -7341
▁ㄴㅔㄴ -7342
▁New -7343
▁회담 -7344
▁쓸데 -7345
학자 -7346
▁도트 -7347
▁하이라이트 -7348
ㅇㅏㅅ -7349
▁조명 -7350
▁찾아가 -7351
▁수염 -7352
ason -7353
▁끊임 -7354
베스 -7355
▁퍼즐 -7356
불명 -7357
▁FM -7358
▁관찰 -7359
▁엿 -7360
▁뜬금없이 -7361
▁사야 -7362
▁여객 -7363
▁103 -7364
▁되게 -7365
카이도 -7366
▁남아 -7367
▁어쩌면 -7368
ai -7369
ㄹㅜㄹ -7370
▁오더 -7371
aby -7372
▁불행 -7373
▁렌즈 -7374
▁개신교 -7375
▁모집 -7376
▁술사 -7377
불호 -7378
▁호불호 -7379
러그 -7380
릴라 -7381
▁실존 -7382
▁비스트 -7383
▁마케 -7384
▁양손 -7385
▁흰색 -7386
▁성질 -7387
▁잡아내 -7388
크라 -7389
▁세뇌 -7390
▁트레일러 -7391
▁부동 -7392
▁캘 -7393
▁1960 -7394
▁유언 -7395
▁동경 -7396
▁에로 -7397
▁매출 -7398
▁셔틀 -7399
▁흔들리 -7400
▁케이드 -7401
▁220 -7402
▁보라색 -7403
▁장로 -7404
▁유기 -7405
▁각오 -7406
▁CS -7407
▁JP -7408
▁무섭 -7409
▁물품 -7410
▁바지 -7411
그리 -7412
▁결계 -7413
▁올스타 -7414
▁트레이너 -7415
▁우주선 -7416
▁과학자 -7417
▁찾아보 -7418
▁프로토 -7419
▁지인 -7420
▁un -7421
▁캐시 -7422
▁알라 -7423
▁모듈 -7424
▁항구 -7425
▁구르 -7426
▁샵 -7427
▁손상 -7428
▁떠오르 -7429
▁유망 -7430
▁오브젝트 -7431
▁초콜 -7432
▁타르 -7433
▁나스 -7434
▁심의 -7435
에이 -7436
▁타이탄 -7437
▁코미디 -7438
▁여파 -7439
▁웨스트 -7440
ㄸㅓㄹ -7441
키아 -7442
▁회색 -7443
▁라크 -7444
▁z -7445
▁연봉 -7446
▁ㅁㅏㅈㅅㅓ -7447
▁UE -7448
▁우즈 -7449
ㄴㅑㅇ -7450
▁240 -7451
▁라즈 -7452
▁법칙 -7453
▁국정 -7454
▁윈드 -7455
ㅍㅏ -7456
▁비유 -7457
▁지향 -7458
▁원곡 -7459
▁tv -7460
▁풋 -7461
oon -7462
▁무승부 -7463
▁진격 -7464
돌이 -7465
▁ㅅㅔㄹ -7466
▁폐기 -7467
▁포탄 -7468
▁이와 -7469
▁엘리자 -7470
▁손실 -7471
러나 -7472
마크 -7473
▁ㄷㅏㅁㄱㅣㄴ -7474
▁128 -7475
싱턴 -7476
▁치열 -7477
▁김용 -7478
90 -7479
▁드로우 -7480
▁갈아 -7481
▁늙 -7482
▁가져오 -7483
▁홀드 -7484
베이 -7485
▁유출 -7486
▁추리 -7487
▁포장 -7488
MS -7489
▁건국 -7490
ㅇㅗㄹㄹㅏ -7491
▁국장 -7492
▁광산 -7493
▁신선 -7494
▁브라운 -7495
▁함부로 -7496
▁썰 -7497
저기 -7498
▁따뜻 -7499
▁무공 -7500
▁영지 -7501
▁리버풀 -7502
▁갤러 -7503
▁랑 -7504
거지 -7505
act -7506
▁이글스 -7507
▁제갈량 -7508
▁즉위 -7509
▁우드 -7510
▁맥주 -7511
▁제네 -7512
ox -7513
▁짐승 -7514
▁중순 -7515
▁임기 -7516
라노 -7517
▁태어나 -7518
▁엄밀 -7519
▁발리 -7520
▁트랩 -7521
▁장판 -7522
ㄲㅣㄴ -7523
▁코믹 -7524
토스 -7525
▁슬로 -7526
▁노동자 -7527
hen -7528
▁클론 -7529
▁패전 -7530
▁단기 -7531
▁반감 -7532
▁배려 -7533
▁하스 -7534
▁여기저기 -7535
▁합리 -7536
ARD -7537
▁워크래프트 -7538
▁모스 -7539
▁서머 -7540
▁안심 -7541
▁탐지 -7542
▁go -7543
▁원더 -7544
▁이웃 -7545
메이 -7546
▁스핀 -7547
▁튼 -7548
▁아바타 -7549
▁먹히 -7550
▁사이클 -7551
▁간주 -7552
▁TVA -7553
▁네티 -7554
▁최우 -7555
▁하프 -7556
▁나나 -7557
▁신데 -7558
▁양자 -7559
▁쿤 -7560
ㅈㅝ -7561
▁ㅅㅐㅇㄱㅣㄹ -7562
펴보 -7563
▁살펴보 -7564
▁%/ -7565
▁알렉스 -7566
▁기수 -7567
▁독점 -7568
▁커스텀 -7569
▁계수 -7570
▁백제 -7571
▁섀도우 -7572
ank -7573
▁ㄲㅡㅁ -7574
▁리안 -7575
ㅂㅗㄴㄷㅏ -7576
▁트리거 -7577
▁트라우마 -7578
▁휴가 -7579
▁로이드 -7580
▁아쉬 -7581
▁쉴 -7582
보내 -7583
▁마땅 -7584
▁당대 -7585
▁라틴 -7586
▁키라 -7587
▁트로피 -7588
▁지연 -7589
▁끌어 -7590
▁레온 -7591
▁관통력 -7592
▁신용 -7593
▁장난감 -7594
▁시비 -7595
▁단검 -7596
▁사립 -7597
▁방탄 -7598
▁스나이 -7599
▁후미 -7600
▁여럿 -7601
ㅡㄹㄹㅕㅆ -7602
우치 -7603
깨비 -7604
▁상륙 -7605
▁대조 -7606
ich -7607
▁생전 -7608
▁벤치 -7609
▁야쿠 -7610
▁때려 -7611
▁김준 -7612
▁나르 -7613
▁콤비 -7614
▁일요일 -7615
▁옐 -7616
▁소프트웨어 -7617
▁World -7618
▁날씨 -7619
▁1982 -7620
▁신자 -7621
▁태평양 -7622
▁JT -7623
▁우익 -7624
▁디즈니 -7625
▁신데렐라 -7626
▁단종 -7627
포르 -7628
ear -7629
▁이모 -7630
ㄷㅝㅆ -7631
▁시리아 -7632
▁아이러니 -7633
▁ㅎㅏㄹㄲㅏ -7634
▁빨간 -7635
▁시인 -7636
▁혜택 -7637
ife -7638
▁챔피언십 -7639
▁프라임 -7640
▁토요일 -7641
ary -7642
lect -7643
ㅁㅏㄹ -7644
▁태국 -7645
▁신속 -7646
▁Mk -7647
▁수습 -7648
ㅂㅎㅣㄴㄷㅏ -7649
▁선임 -7650
▁ㅍㅜㄹㄹㅕ -7651
▁음료 -7652
▁사법 -7653
▁그만두 -7654
블리 -7655
▁권유 -7656
란히 -7657
▁손오 -7658
▁당사자 -7659
▁변수 -7660
▁파밍 -7661
▁독일군 -7662
▁주어지 -7663
▁갚 -7664
▁센서 -7665
▁도장 -7666
하나 -7667
▁허무 -7668
▁방송사 -7669
▁파울 -7670
▁순양함 -7671
▁근원 -7672
▁네티즌 -7673
▁권위 -7674
하마 -7675
▁되돌 -7676
▁막강 -7677
▁스트라이커 -7678
▁추세 -7679
▁ㅌㅟㅇㄱㅕ -7680
▁벡 -7681
에르 -7682
▁스피릿 -7683
▁실내 -7684
▁디시 -7685
▁서바이 -7686
▁돋 -7687
싸움 -7688
▁의학 -7689
▁ㄸㅡㄴㄷㅏ -7690
▁서기 -7691
▁지목 -7692
반기 -7693
uk -7694
ㅈㅣㅁ -7695
AP -7696
▁추방 -7697
▁all -7698
▁뭉 -7699
▁상사 -7700
ㄷㅚ -7701
▁슬라 -7702
▁라스트 -7703
▁경호 -7704
▁후임 -7705
키리 -7706
더라 -7707
ET -7708
▁약물 -7709
▁LIVE -7710
렉션 -7711
▁전생 -7712
▁곱 -7713
▁버스트 -7714
▁키보드 -7715
way -7716
▁SF -7717
▁마카 -7718
ㄷㅎㅣㄴ -7719
▁짐작 -7720
쿠라 -7721
▁탭 -7722
사기 -7723
▁카더라 -7724
▁결제 -7725
▁전남 -7726
▁ㅂㅜㄹㄹㅕㅆ -7727
▁유혹 -7728
▁ㄷㅚㄹㅈㅣ -7729
▁표면 -7730
▁드레스 -7731
▁ㅎㅜㅁㅊㅕ -7732
▁ㅅㅜ -7733
▁선장 -7734
▁조상 -7735
▁배출 -7736
▁185 -7737
▁흡사 -7738
▁극히 -7739
▁아름 -7740
▁지력 -7741
▁후반기 -7742
ple -7743
▁침대 -7744
▁구조물 -7745
▁Day -7746
▁유전자 -7747
▁김해 -7748
▁엽 -7749
▁켜 -7750
타카 -7751
▁근접전 -7752
▁샬 -7753
▁논쟁 -7754
▁Fr -7755
▁태클 -7756
▁1983 -7757
▁기호 -7758
▁실시간 -7759
▁고치 -7760
▁설령 -7761
▁진상 -7762
▁경북 -7763
▁패밀리 -7764
▁정석 -7765
▁낙선 -7766
▁감수 -7767
▁몰리 -7768
▁ㅇㅏㅆㅇㅓㅆ -7769
▁마피아 -7770
▁좌절 -7771
▁ㅎㅡㄴㅎㅏㄴ -7772
▁강사 -7773
▁동속 -7774
▁니혼 -7775
▁are -7776
▁합동 -7777
▁페리 -7778
▁창설 -7779
▁매니아 -7780
사리 -7781
▁둘러보 -7782
▁간간히 -7783
▁스타디 -7784
숭이 -7785
▁로보 -7786
▁비극 -7787
▁119 -7788
노리 -7789
▁포획 -7790
▁찾아오 -7791
▁물체 -7792
▁울트라맨 -7793
▁do -7794
▁nd -7795
▁역임 -7796
ype -7797
ens -7798
▁집권 -7799
▁원형 -7800
▁DPS -7801
▁낭비 -7802
▁백화점 -7803
▁성배 -7804
▁시온 -7805
▁중상 -7806
▁lv -7807
▁사무소 -7808
▁전날 -7809
▁{{{# -7810
▁도리 -7811
aster -7812
▁범용 -7813
▁MB -7814
▁빌딩 -7815
▁정교 -7816
orn -7817
ork -7818
▁손오공 -7819
▁명목 -7820
▁튼튼 -7821
▁소모량 -7822
▁특공 -7823
▁해병대 -7824
▁연구원 -7825
▁페어 -7826
▁구동 -7827
▁피로 -7828
▁퀵 -7829
▁출혈 -7830
▁ㅍㅕㄹㅊㅕㅆ -7831
▁마트 -7832
▁엄격 -7833
▁동남 -7834
▁123 -7835
▁그치 -7836
사이 -7837
▁띄우 -7838
▁미궁 -7839
▁변태 -7840
▁의장 -7841
▁공감 -7842
▁104 -7843
▁한반도 -7844
▁위로 -7845
▁사악 -7846
▁콘솔 -7847
▁삼각 -7848
▁베어스 -7849
11 -7850
▁헤르 -7851
스티벌 -7852
▁지선 -7853
▁페스티벌 -7854
▁걸어 -7855
▁질병 -7856
▁생체 -7857
▁수직 -7858
▁부스트 -7859
▁호남 -7860
▁대타 -7861
▁베테랑 -7862
▁배제 -7863
ans -7864
▁질주 -7865
▁Ad -7866
▁미미 -7867
▁Up -7868
▁스태프 -7869
▁DP -7870
▁하인 -7871
▁109 -7872
▁Wi -7873
▁데이비드 -7874
▁ㅅㅕㄴ -7875
▁복원 -7876
▁강렬 -7877
ons -7878
▁동행 -7879
▁관측 -7880
▁바나 -7881
▁ㅁㅏㅇㄱㅏ -7882
▁Sw -7883
▁양반 -7884
▁오메가 -7885
▁실상 -7886
우트 -7887
▁AA -7888
▁직선 -7889
▁스즈키 -7890
▁빨간색 -7891
▁래퍼 -7892
▁OVA -7893
▁공대 -7894
▁개국 -7895
▁엑시즈 -7896
▁제물 -7897
▁단행본 -7898
버그 -7899
▁탐색 -7900
▁물려 -7901
▁ㅈㅡㄹㄱㅓ -7902
▁본토 -7903
▁특별시 -7904
▁style -7905
ey -7906
▁우측 -7907
▁쌀 -7908
▁에서 -7909
▁진급 -7910
▁케이블 -7911
▁KOF -7912
▁토요 -7913
▁쨩 -7914
▁도깨비 -7915
▁디펜 -7916
▁페미니 -7917
▁전락 -7918
▁비추 -7919
▁약자 -7920
very -7921
▁스플 -7922
▁닷 -7923
▁다가오 -7924
▁관여 -7925
▁sp -7926
▁라그나 -7927
▁센트 -7928
▁블로 -7929
▁리코 -7930
▁장성 -7931
▁브레이커 -7932
▁선조 -7933
▁광기 -7934
▁차리 -7935
▁무실 -7936
▁ㅅㅟㄹ -7937
▁거론 -7938
▁메일 -7939
▁세금 -7940
▁앰 -7941
▁연쇄 -7942
▁ES -7943
▁ㅇㅜㄹ -7944
▁ㅈㅠ -7945
▁우호 -7946
▁아스카 -7947
▁잉여 -7948
▁메리트 -7949
ㅇㅏㅆ -7950
▁변동 -7951
차기 -7952
NA -7953
ex -7954
ung -7955
▁마타 -7956
▁스와 -7957
▁고무 -7958
▁총합 -7959
▁본관 -7960
▁III -7961
▁스테이션 -7962
공항 -7963
▁앗 -7964
▁친절 -7965
▁땅볼 -7966
▁끼치 -7967
▁논문 -7968
▁한창 -7969
▁코토 -7970
▁인재 -7971
▁유탄 -7972
▁바둑 -7973
▁백업 -7974
▁ㅇㅕㄴ -7975
▁시달리 -7976
▁워싱턴 -7977
렉스 -7978
▁군수 -7979
▁괴롭히 -7980
▁오노 -7981
▁해양 -7982
타입 -7983
▁촉수 -7984
▁히로시 -7985
▁전격 -7986
▁훼손 -7987
박스 -7988
▁UEFA -7989
▁위엄 -7990
▁오지 -7991
▁친하 -7992
▁그랑 -7993
▁수비수 -7994
ㅋㅏ -7995
브라 -7996
▁단발 -7997
▁명문 -7998
▁하급 -7999
▁축소 -8000
다보 -8001
▁대박 -8002
▁장애물 -8003
▁마술사 -8004
▁ㅇㅡㄹㅅㅜ -8005
▁리모 -8006
▁카를 -8007
나기 -8008
EM -8009
▁응용 -8010
▁중지 -8011
▁민주주의 -8012
ㅐㅆ -8013
능력 -8014
▁프리미어 -8015
▁형편 -8016
▁어색 -8017
▁박살내 -8018
▁에이지 -8019
▁구장 -8020
▁재학 -8021
▁성실 -8022
께끼 -8023
▁수수께끼 -8024
▁마오 -8025
ㄹㄹㅣ -8026
▁취업 -8027
▁스타디움 -8028
▁치카 -8029
▁반짝 -8030
▁RA -8031
▁스위스 -8032
▁할로 -8033
▁그러다가 -8034
▁강호 -8035
ㄴㅡㄴㄷㅔ -8036
▁!" -8037
ll -8038
▁최저 -8039
▁역량 -8040
▁안쪽 -8041
▁구성원 -8042
▁해치 -8043
▁사리 -8044
▁바르셀 -8045
anc -8046
▁as -8047
▁확산 -8048
▁바르셀로나 -8049
▁데빌 -8050
▁고스 -8051
▁중고 -8052
▁창문 -8053
▁미지 -8054
▁우회 -8055
AK -8056
▁리퍼 -8057
▁트윈스 -8058
▁징역 -8059
▁노란색 -8060
▁초콜릿 -8061
▁겜 -8062
▁츠카 -8063
▁유망주 -8064
▁Windows -8065
▁제왕 -8066
▁노가다 -8067
▁역명 -8068
▁워크 -8069
체스터 -8070
▁소니 -8071
▁메카닉 -8072
▁썸 -8073
▁빈도 -8074
▁렉스 -8075
▁깃발 -8076
▁코바 -8077
▁no -8078
▁인자 -8079
▁카카오 -8080
▁이현 -8081
▁공통점 -8082
▁강등 -8083
▁묘하 -8084
▁윈도우 -8085
▁짙 -8086
▁키미 -8087
▁원피스 -8088
▁en -8089
▁대행 -8090
▁여타 -8091
▁과자 -8092
▁천연 -8093
▁퇴각 -8094
▁ㅁㅏㄱ -8095
▁경상북도 -8096
▁불쌍 -8097
누스 -8098
▁온도 -8099
▁굴욕 -8100
▁산타 -8101
▁부작용 -8102
▁ㄷㅗㄹ -8103
▁폴리 -8104
▁란스 -8105
▁분산 -8106
▁힙합 -8107
▁가리키 -8108
▁티스 -8109
▁눈치채 -8110
▁마유 -8111
▁껍 -8112
▁포터 -8113
▁최선 -8114
▁승차 -8115
▁유료 -8116
▁구독 -8117
▁레이디 -8118
▁봉쇄 -8119
▁농장 -8120
ero -8121
지막지 -8122
▁무지막지 -8123
▁우승자 -8124
▁ㄴㅏㄹㅋㅏ -8125
35 -8126
argin -8127
▁대령 -8128
▁엔지 -8129
▁통칭 -8130
▁ㅅㅏㄴㄷㅏ -8131
ㄹㅏㄴㄷㅏ -8132
▁수인 -8133
▁전당 -8134
▁대접 -8135
▁ㅊㅐㄴ -8136
▁취득 -8137
▁이병 -8138
▁스미스 -8139
▁드래곤볼 -8140
▁관우 -8141
▁동반 -8142
▁스노우 -8143
▁젬 -8144
모스 -8145
▁올드 -8146
▁187 -8147
▁칭하 -8148
▁시상식 -8149
▁루프 -8150
루미 -8151
oss -8152
▁발판 -8153
▁파도 -8154
▁클린 -8155
▁Ph -8156
▁So -8157
▁츠바 -8158
▁Qu -8159
▁화산 -8160
▁LO -8161
▁성씨 -8162
벤처 -8163
▁Station -8164
▁어드벤처 -8165
▁챔프 -8166
▁어벤 -8167
▁젖 -8168
▁발키리 -8169
▁발행 -8170
동자 -8171
▁천천 -8172
▁규제 -8173
▁국무 -8174
▁크레이 -8175
▁ㅈㅡㄹㄱㅕ -8176
▁레이어 -8177
▁다이스 -8178
비치 -8179
▁손님 -8180
▁원시 -8181
▁고장 -8182
▁margin -8183
▁머니 -8184
▁로맨 -8185
▁진에 -8186
▁블레이 -8187
▁결혼식 -8188
▁오스만 -8189
니시 -8190
▁흔하 -8191
▁공산당 -8192
▁대전차 -8193
▁잔인 -8194
▁급행 -8195
▁ML -8196
▁공단 -8197
▁멍청 -8198
▁135 -8199
▁빙판 -8200
99 -8201
▁카마 -8202
▁강간 -8203
▁톡 -8204
▁후드 -8205
▁가난 -8206
▁요한 -8207
pt -8208
▁매드 -8209
▁변이 -8210
▁ㅅㅑ -8211
▁평양 -8212
▁이대로 -8213
▁정반 -8214
▁210 -8215
▁침투 -8216
▁121 -8217
▁겔 -8218
▁표절 -8219
▁신중 -8220
▁황후 -8221
▁사족 -8222
ㅅㅝ -8223
▁렘 -8224
구장 -8225
ise -8226
▁아베 -8227
▁와인 -8228
▁타치 -8229
▁주사위 -8230
▁검열 -8231
▁털리 -8232
▁날뛰 -8233
▁미오 -8234
군가 -8235
베이터 -8236
▁와이번 -8237
▁인과 -8238
▁여포 -8239
▁ㄱㅓㄴㄷㅔ -8240
▁카리스 -8241
▁스케일 -8242
▁세리 -8243
▁쿵 -8244
▁수지 -8245
▁피카 -8246
▁예약 -8247
▁경연 -8248
ical -8249
▁소재지 -8250
▁ㅉㅗㅊㅇㅏ -8251
▁107 -8252
▁선출 -8253
▁개척 -8254
▁블리자드 -8255
▁천천히 -8256
네마 -8257
▁목걸이 -8258
구미 -8259
▁게이머 -8260
▁쯔 -8261
▁이라크 -8262
▁특훈 -8263
▁누군가 -8264
▁뮌 -8265
셔널 -8266
▁스택 -8267
▁스타리그 -8268
리안 -8269
▁Ver -8270
▁시사 -8271
▁강민 -8272
▁김수 -8273
▁난무 -8274
▁쇄 -8275
▁미국인 -8276
▁어나 -8277
▁왼손 -8278
▁주체 -8279
▁케빈 -8280
▁의외로 -8281
ㅟㄴㄷㅏ -8282
▁여섯 -8283
▁열혈 -8284
▁1981 -8285
▁캄 -8286
▁-- -8287
▁호크 -8288
▁강경 -8289
▁끊임없이 -8290
▁신동 -8291
▁시외버스 -8292
▁페어리 -8293
▁마인드 -8294
▁이순 -8295
▁타츠 -8296
▁사체 -8297
▁ㅅㅓㄲㅇㅕ -8298
▁MG -8299
▁지수 -8300
▁엔트리 -8301
모함 -8302
▁조종사 -8303
▁인칭 -8304
▁부재 -8305
▁꿰 -8306
▁패자 -8307
리스타 -8308
▁기부 -8309
▁요미 -8310
ㄴㅣㄹㄲㅏ -8311
▁그레이트 -8312
▁감탄 -8313
▁광물 -8314
▁명분 -8315
▁어나더 -8316
▁제재 -8317
▁알바 -8318
▁퍼스트 -8319
다운 -8320
▁주관 -8321
▁워프 -8322
▁프랑스어 -8323
▁pl -8324
▁답답 -8325
▁소통 -8326
▁사수 -8327
▁사관 -8328
▁ㄷㅓㅅㅂㅜㅌㅇㅕ -8329
▁중거리 -8330
루션 -8331
ign -8332
▁슌 -8333
▁김지 -8334
테이션 -8335
▁점검 -8336
▁혈통 -8337
하루 -8338
▁지오 -8339
스레 -8340
▁자네 -8341
▁모니터 -8342
▁땡 -8343
▁대성 -8344
▁교토 -8345
▁마일 -8346
▁ㅇㅣㄹㄲㅏ -8347
▁압권 -8348
▁스티븐 -8349
▁첫째 -8350
▁소금 -8351
▁이경 -8352
gh -8353
▁맞붙 -8354
▁고시 -8355
▁무용 -8356
▁선진 -8357
▁덧 -8358
▁서식 -8359
▁토지 -8360
ㄷㅝ -8361
게이머 -8362
▁프로게이머 -8363
▁처하 -8364
▁자존 -8365
▁냉정 -8366
▁트윗 -8367
▁ㅍㅣㄹ -8368
▁모델링 -8369
▁폭스 -8370
▁경찰서 -8371
▁엄연히 -8372
▁이노 -8373
▁스컬 -8374
▁미정 -8375
▁첸 -8376
어드 -8377
▁루리 -8378
▁love -8379
▁너머 -8380
▁ㅊㅏㄱㅎㅏㄴ -8381
▁김승 -8382
▁미러 -8383
▁점유 -8384
▁철갑 -8385
▁동해 -8386
▁밀어 -8387
▁출간 -8388
▁EC -8389
▁레인지 -8390
▁평론 -8391
▁가르치 -8392
▁프론 -8393
▁해산 -8394
▁폭격기 -8395
▁공격수 -8396
▁자제 -8397
▁ㅇㅕㄹㄹㅕㅆ -8398
▁흙 -8399
센스 -8400
▁ㅍㅕ -8401
▁오죽 -8402
▁러스 -8403
▁레시 -8404
테일 -8405
▁중위 -8406
▁임의 -8407
▁망토 -8408
IR -8409
▁구별 -8410
▁아스트 -8411
어하 -8412
▁하여 -8413
▁TR -8414
▁손쉽 -8415
▁맹세 -8416
ail -8417
▁플랜 -8418
urn -8419
▁친분 -8420
▁연산 -8421
▁ㄱㅏㄹㄹㅏ -8422
▁중동 -8423
▁장타 -8424
▁보좌 -8425
▁math -8426
▁리나 -8427
▁크라이 -8428
▁외곽 -8429
▁떨어 -8430
▁페스 -8431
바나 -8432
▁Sk -8433
▁ㅁㅜㅇ -8434
으로 -8435
▁라이즈 -8436
▁어이없 -8437
▁주최 -8438
▁용자 -8439
▁굴리 -8440
▁도어 -8441
▁왜냐하면 -8442
ㄷㅜㄹㄹㅓ -8443
▁본능 -8444
▁질서 -8445
▁열정 -8446
▁풍부 -8447
▁화상 -8448
▁붓 -8449
▁이대 -8450
▁186 -8451
▁재개 -8452
▁고집 -8453
▁개교 -8454
▁쫒 -8455
▁실사 -8456
▁ㅂㅓㄹㅇㅕㅆ -8457
▁고사 -8458
▁마산 -8459
▁JTBC -8460
▁납득 -8461
ence -8462
▁항공모함 -8463
▁그릇 -8464
▁쉴드 -8465
▁영감 -8466
▁동정 -8467
▁상무 -8468
▁하나하나 -8469
▁저렇 -8470
▁To -8471
추어 -8472
▁불능 -8473
▁유니버스 -8474
민주 -8475
VER -8476
▁유입 -8477
▁크래프트 -8478
▁ㅈㅣㄴㅇㅣ -8479
▁=" -8480
▁시타 -8481
베리 -8482
▁지부 -8483
틀랜드 -8484
▁사퇴 -8485
▁사무실 -8486
▁Super -8487
▁변장 -8488
▁꼽히 -8489
▁스폰서 -8490
▁트릴 -8491
▁라이언 -8492
▁고속도로 -8493
▁122 -8494
▁초능력 -8495
▁기스 -8496
▁웜 -8497
▁광경 -8498
▁공속 -8499
▁찬성 -8500
의자 -8501
▁정신력 -8502
▁BJ -8503
▁작정 -8504
▁광명 -8505
▁확신 -8506
▁벙커 -8507
▁큰 -8508
▁유연 -8509
바지 -8510
▁국제공항 -8511
▁ㅇㅣㅈㅎㅕ -8512
▁박성 -8513
▁Dream -8514
▁ㅇㅜㅁㅈㅣㄱㅇㅣㄹ -8515
ㄲㅝㅆ -8516
이동 -8517
▁검정 -8518
▁근대 -8519
▁히틀러 -8520
▁멋대로 -8521
▁ㅇㅡㄴㅈㅣ -8522
▁예쁘 -8523
▁우마 -8524
라미 -8525
▁김유 -8526
▁엘리베이터 -8527
▁박수 -8528
▁에디션 -8529
▁리틀 -8530
▁몸통 -8531
▁인벤 -8532
▁삼성전자 -8533
▁코노 -8534
▁까마 -8535
▁기본기 -8536
▁템플 -8537
▁하치 -8538
▁스가 -8539
▁애칭 -8540
▁중점 -8541
▁ㅍㅡㄹ -8542
▁토트 -8543
▁LE -8544
▁장례 -8545
▁극대 -8546
▁1979 -8547
▁평상 -8548
▁출범 -8549
▁원숭이 -8550
▁법사 -8551
▁로키 -8552
▁슈퍼맨 -8553
ㄷㅡㄹㄱㅕ -8554
배우 -8555
▁카레 -8556
이나 -8557
▁체결 -8558
ier -8559
▁김포 -8560
▁변명 -8561
▁에버 -8562
▁아쿠아 -8563
▁총장 -8564
▁타구 -8565
▁마모 -8566
▁카자 -8567
▁엘레 -8568
▁홋 -8569
ㄴㅣㄴㅈㅣ -8570
▁ㅂㅕㄴㅎㅐㅆ -8571
▁일가 -8572
▁마라 -8573
▁can -8574
▁EXP -8575
▁기르 -8576
▁카쿠 -8577
▁145 -8578
▁투쟁 -8579
▁안타깝 -8580
▁유치원 -8581
▁곡인 -8582
▁민국 -8583
▁출산 -8584
ble -8585
▁워리어 -8586
▁만능 -8587
▁청구 -8588
▁할리 -8589
▁쿠마 -8590
▁노무 -8591
▁ㄱㅏㄷㅎㅕ -8592
▁이어받 -8593
▁조카 -8594
▁만주 -8595
▁슬픔 -8596
▁모임 -8597
▁부근 -8598
▁ㅆㅏㄴ -8599
▁퍽 -8600
▁카네 -8601
▁도색 -8602
▁유격수 -8603
▁ㅂㅜㅌㅇㅣㄴ -8604
▁워즈 -8605
▁실현 -8606
▁블럭 -8607
▁ㄱㅓㅂㄴㅣ -8608
IX -8609
▁ㄱㅜㄴㅇㅛ -8610
▁싫어하 -8611
▁이누 -8612
▁창작물 -8613
▁무제 -8614
oun -8615
▁재앙 -8616
▁테이블 -8617
▁아처 -8618
▁브라더스 -8619
▁NO -8620
▁롤러 -8621
▁부천 -8622
▁헬멧 -8623
워즈 -8624
▁매주 -8625
▁방심 -8626
▁후일 -8627
▁113 -8628
▁무실점 -8629
ㅌㅣㄹ -8630
▁아지 -8631
▁히스 -8632
▁학급 -8633
▁가이드 -8634
▁브라이언 -8635
▁비틀 -8636
▁암호 -8637
▁IM -8638
▁신지 -8639
▁비리 -8640
▁튜버 -8641
▁Ap -8642
▁고등학생 -8643
▁쿠니 -8644
들이 -8645
▁씨앗 -8646
▁철저히 -8647
역사 -8648
▁검증 -8649
▁풍선 -8650
▁165 -8651
▁펭 -8652
이치로 -8653
ㄴㅣㅁ -8654
▁항모 -8655
iver -8656
▁헝가리 -8657
러가 -8658
▁1950 -8659
▁ㅂㅏㄹㄹㅏ -8660
▁복사 -8661
▁마운 -8662
▁스쿼 -8663
▁니아 -8664
▁이이 -8665
▁사사 -8666
▁엉망 -8667
▁왕복 -8668
▁터보 -8669
▁몰살 -8670
▁엮이 -8671
ott -8672
▁각인 -8673
▁그러면 -8674
▁알레 -8675
▁케이크 -8676
▁인접 -8677
▁리가 -8678
▁손자 -8679
▁포탈 -8680
▁글씨 -8681
▁호러 -8682
▁IT -8683
▁144 -8684
▁사투 -8685
▁깨지 -8686
▁카지 -8687
▁병역 -8688
ㅈㅣㄹㄹㅓㅆ -8689
▁명사 -8690
▁사연 -8691
▁엄밀히 -8692
▁닦 -8693
▁제니 -8694
▁넬 -8695
▁이카 -8696
▁인성 -8697
▁운송 -8698
▁ㅇㅓㅄㅇㅐ -8699
▁상주 -8700
▁155 -8701
페라 -8702
▁레이블 -8703
▁유우키 -8704
▁부스 -8705
▁매트 -8706
▁절친 -8707
▁옥상 -8708
▁ATK -8709
▁at -8710
▁쿠데 -8711
▁간섭 -8712
▁화폐 -8713
▁쪼 -8714
세우 -8715
▁통째 -8716
▁CM -8717
▁세로 -8718
▁아무튼 -8719
▁죄책 -8720
ㅌㅕ -8721
▁생김 -8722
▁승인 -8723
▁조국 -8724
슬라 -8725
▁시뮬 -8726
▁동전 -8727
▁바치 -8728
▁품질 -8729
ㄷㅡㅅ -8730
eah -8731
▁현금 -8732
▁ㄷㅓㅍ -8733
▁젼 -8734
▁연수 -8735
▁연전 -8736
uck -8737
▁망하 -8738
▁방학 -8739
▁영양 -8740
▁기리 -8741
▁Max -8742
진호 -8743
▁114 -8744
▁마음대로 -8745
▁제리 -8746
페이 -8747
폭탄 -8748
▁일곱 -8749
▁싸이 -8750
▁ㅂㅜㅌㅈㅏ -8751
▁츤 -8752
▁오니 -8753
▁태우 -8754
▁목사 -8755
▁독일어 -8756
▁거지 -8757
▁기차 -8758
▁유재석 -8759
▁엔지니어 -8760
▁쓰리 -8761
▁천장 -8762
▁상금 -8763
▁우연 -8764
▁간지 -8765
▁깊이 -8766
▁입문 -8767
▁BD -8768
ode -8769
▁햇 -8770
▁ㅊㅜ -8771
▁함락 -8772
▁양식 -8773
▁사나 -8774
▁ERA -8775
▁집회 -8776
▁마당 -8777
코트 -8778
▁레나 -8779
▁죄책감 -8780
▁아오이 -8781
II -8782
▁바쿠 -8783
▁스나이퍼 -8784
oh -8785
▁원전 -8786
▁this -8787
▁아자 -8788
▁동대 -8789
▁뮌헨 -8790
자치 -8791
▁너스 -8792
▁현자 -8793
▁이놈 -8794
▁히카 -8795
▁샐 -8796
▁뱅가드 -8797
▁뉘 -8798
▁호드 -8799
▁유메 -8800
▁시크릿 -8801
▁미르 -8802
▁수위 -8803
들리 -8804
야시 -8805
▁페르소 -8806
▁스틱 -8807
▁다큐 -8808
▁유카 -8809
▁기동력 -8810
▁혀 -8811
▁화해 -8812
▁혁신 -8813
▁벅 -8814
▁쿠스 -8815
▁승진 -8816
▁리본 -8817
▁호의 -8818
▁개구리 -8819
▁스티브 -8820
▁감자 -8821
▁초록색 -8822
▁부패 -8823
▁용암 -8824
네시아 -8825
▁토대 -8826
가루 -8827
끼리 -8828
▁성경 -8829
▁이케 -8830
▁할로윈 -8831
▁스카우트 -8832
▁시모 -8833
▁전향 -8834
▁참사 -8835
▁ㅇㅏㄴㄷㅏ -8836
▁정문 -8837
▁멧 -8838
▁종결 -8839
▁스피어 -8840
▁최순 -8841
▁나아가 -8842
ㅋㅣㅂㄴㅣ -8843
▁코스프레 -8844
▁고아 -8845
▁궁합 -8846
▁러쉬 -8847
주교 -8848
▁전동차 -8849
▁녹화 -8850
▁오렌 -8851
▁미성 -8852
▁티저 -8853
▁원장 -8854
▁시게 -8855
▁750 -8856
▁ㄴㅗㅍㅇㅕ -8857
▁..! -8858
▁한나라 -8859
▁친애 -8860
▁ㅁㅏㄱㅎㅕ -8861
▁메트로 -8862
▁만점 -8863
▁사무라이 -8864
▁깨끗 -8865
▁GK -8866
ㄷㅚㄴ -8867
▁아드 -8868
▁from -8869
▁아이디어 -8870
▁아리아 -8871
▁한나라당 -8872
▁ㄱㅓㄴㄴㅔ -8873
▁HE -8874
케이션 -8875
▁ne -8876
▁여의 -8877
▁자율 -8878
▁은폐 -8879
▁대위 -8880
ㄷㅡㄹㅇㅣㄴ -8881
▁평행 -8882
▁흑마 -8883
변이 -8884
▁돌연변이 -8885
▁디자이너 -8886
▁잭슨 -8887
▁토우 -8888
▁ㅈㅔㄴ -8889
▁미인 -8890
▁협의 -8891
▁??? -8892
bs -8893
int -8894
▁OS -8895
▁도약 -8896
▁말씀 -8897
▁교과서 -8898
▁나이프 -8899
▁페르소나 -8900
▁필리핀 -8901
▁메이지 -8902
▁항해 -8903
▁기후 -8904
▁이력 -8905
▁자칭 -8906
▁ㅎㅏㅂ -8907
▁실체 -8908
▁ㅊㅐㅇㄱ -8909
▁오퍼 -8910
▁정성 -8911
▁저글 -8912
▁적절히 -8913
ㄷㅇㅓ -8914
▁유전 -8915
▁지분 -8916
▁합작 -8917
▁충족 -8918
▁다니엘 -8919
▁흡혈귀 -8920
▁450 -8921
▁tr -8922
▁갯 -8923
▁NBA -8924
▁이스트 -8925
▁진에어 -8926
▁ㅇㅏㄴㅌㅏ -8927
▁Season -8928
항공 -8929
ㄷㅡㄹㅇㅓ -8930
운동 -8931
▁AB -8932
▁스매 -8933
▁이태 -8934
▁마에 -8935
▁이틀 -8936
▁종영 -8937
▁동서 -8938
▁좌측 -8939
▁파스 -8940
▁치안 -8941
▁학문 -8942
▁자이언트 -8943
▁트래 -8944
itt -8945
▁중원 -8946
▁리사 -8947
IL -8948
▁여단 -8949
▁지혜 -8950
▁ㅅㅡㄴ -8951
▁브론 -8952
ose -8953
▁욕설 -8954
▁시골 -8955
▁일관 -8956
▁서류 -8957
▁가담 -8958
▁ㅆㅗㄷㅇㅏ -8959
직자 -8960
▁내기 -8961
▁얼티 -8962
▁피자 -8963
▁학대 -8964
▁new -8965
▁스타트 -8966
▁{{{- -8967
▁침착 -8968
▁바이올 -8969
▁ㄸㅜ -8970
▁억울 -8971
▁히드라 -8972
▁입증 -8973
▁레코드 -8974
▁날아오 -8975
▁EXT -8976
▁계층 -8977
▁헥 -8978
▁각지 -8979
▁ㅍㅣㄴ -8980
▁얇 -8981
▁울리 -8982
철도 -8983
▁협정 -8984
▁외국어 -8985
▁분홍 -8986
▁우루 -8987
▁ㄸㅓㅆ -8988
▁놀랍 -8989
▁스쿼드 -8990
▁포병 -8991
▁마기 -8992
▁La -8993
렉터 -8994
▁물자 -8995
▁존중 -8996
▁해소 -8997
▁소생 -8998
▁감당 -8999
▁Im -9000
▁EZ -9001
▁추후 -9002
▁잔혹 -9003
▁ㄲㅡㅌㄴㅏㄹ -9004
▁ㅇㅣㅂㅎㅣㄴㄷㅏ -9005
▁314 -9006
▁베이징 -9007
▁함장 -9008
므로 -9009
탐정 -9010
▁갑작 -9011
▁카테 -9012
▁밀도 -9013
reat -9014
▁가위 -9015
ㅈㅇㅓ -9016
▁고의 -9017
▁무도 -9018
▁까다 -9019
▁아케이드 -9020
▁강릉 -9021
▁로스트 -9022
▁나이츠 -9023
▁고고 -9024
▁저글링 -9025
▁초상 -9026
▁툰 -9027
ㄴㅏㅆㅇㅡ -9028
슈타인 -9029
은색 -9030
▁미아 -9031
▁Con -9032
▁Vol -9033
▁격려 -9034
▁카리스마 -9035
바르 -9036
▁나인 -9037
▁대동 -9038
▁갈색 -9039
▁유스 -9040
▁부원 -9041
▁스탈 -9042
▁124 -9043
지능 -9044
▁학년도 -9045
▁인공지능 -9046
▁스파이더맨 -9047
▁이오 -9048
▁익히 -9049
▁Sch -9050
▁에메 -9051
▁가오 -9052
마루 -9053
철수 -9054
▁신곡 -9055
▁강타 -9056
▁잼 -9057
▁시어 -9058
▁점멸 -9059
▁존스 -9060
▁맞서 -9061
▁대세 -9062
▁부유 -9063
▁Ed -9064
▁피지컬 -9065
▁긁 -9066
▁극한 -9067
부키 -9068
나베 -9069
▁rd -9070
▁주석 -9071
▁스타즈 -9072
▁판도 -9073
▁쌓이 -9074
▁출판사 -9075
ube -9076
▁황당 -9077
ㅁㅏㄹㄹㅗ -9078
우라 -9079
▁Girl -9080
▁저기 -9081
▁워터 -9082
▁민간인 -9083
▁점심 -9084
▁물약 -9085
▁밀레 -9086
바이트 -9087
▁강전 -9088
▁ㅌㅡㄹㄹㅣㄴ -9089
▁우울 -9090
▁힘입 -9091
▁과금 -9092
▁압력 -9093
▁정사 -9094
▁펌프 -9095
▁디아블로 -9096
▁세자 -9097
워프 -9098
▁ld -9099
ㄹㅔ -9100
▁ㄱㅏㅇㅎㅐㅆ -9101
▁RE -9102
▁표적 -9103
▁부속 -9104
▁대변 -9105
▁건드리 -9106
▁배구 -9107
▁대검 -9108
▁Night -9109
▁라마 -9110
▁그러므로 -9111
▁ㅆㅓㄴ -9112
방송 -9113
▁그쪽 -9114
▁ㅅㅏㅆ -9115
▁USB -9116
▁ㅂㅕㄴㅎㅏㄴ -9117
▁압축 -9118
▁이빨 -9119
▁183 -9120
ition -9121
ari -9122
▁ㅌㅏㄹ -9123
▁어서 -9124
usic -9125
▁괴인 -9126
▁벌써 -9127
▁퀴즈 -9128
▁예의 -9129
▁ㅈㅏㅂㅇㅏ -9130
▁하지 -9131
▁산맥 -9132
ㄹㅗㅂ -9133
오피스 -9134
▁ㅇㅗㄹㄹㅣㄴㄷㅏ -9135
▁애완 -9136
▁잠들 -9137
▁생김새 -9138
▁마틴 -9139
▁빙결 -9140
msys -9141
▁ㅂㅓㄹㅇㅣㄴ -9142
▁후유 -9143
▁ldmsys -9144
업자 -9145
▁법무 -9146
▁다시금 -9147
▁일지 -9148
▁노아 -9149
▁테스 -9150
▁내역 -9151
▁마하 -9152
▁키요 -9153
▁152 -9154
▁ㅅㅗㄱㅎㅏㄴ -9155
15 -9156
▁동구 -9157
▁중견 -9158
▁병살 -9159
▁제노 -9160
▁경부 -9161
▁보스턴 -9162
▁기껏 -9163
▁ㅈㅡㄹㄱㅣㄹ -9164
▁소소 -9165
▁레이싱 -9166
▁퇴치 -9167
▁ㄴㅏㄹㄹㅣㄴㄷㅏ -9168
ats -9169
▁ㄱㅕㄴ -9170
▁리버스 -9171
▁TS -9172
▁지로 -9173
▁출동 -9174
▁데몬 -9175
▁김주 -9176
▁연설 -9177
▁마케팅 -9178
▁..? -9179
▁ㅁㅜㄴ -9180
른바 -9181
▁스탭 -9182
▁재건 -9183
▁발사기 -9184
리얼 -9185
끄럽 -9186
▁이른바 -9187
▁아카네 -9188
▁1200 -9189
▁만렙 -9190
▁자존심 -9191
▁Black -9192
▁노무현 -9193
▁도대 -9194
▁ㅂㅕㄴㅎㅏㄴㄷㅏ -9195
▁집계 -9196
▁박스오피스 -9197
▁BC -9198
▁골프 -9199
▁이소 -9200
ㄹㅕㅆㅇㅡ -9201
시오 -9202
▁기질 -9203
▁도덕 -9204
▁토마스 -9205
▁모형 -9206
사랑 -9207
▁자책점 -9208
▁로프 -9209
▁박진 -9210
▁사촌 -9211
▁선동 -9212
▁182 -9213
▁에미 -9214
▁뚱 -9215
▁주축 -9216
▁무녀 -9217
▁WC -9218
▁농업 -9219
▁디오 -9220
▁장벽 -9221
▁Bo -9222
▁NH -9223
▁대차 -9224
13 -9225
▁모종 -9226
▁포착 -9227
▁덩어리 -9228
▁빠져 -9229
▁자아 -9230
시대 -9231
▁바텀 -9232
세지 -9233
▁철도역 -9234
▁귀국 -9235
▁ㅌㅡㄴ -9236
yn -9237
▁ver -9238
▁일렉 -9239
아치 -9240
▁천상 -9241
▁문양 -9242
▁카게 -9243
▁절벽 -9244
▁원판 -9245
▁통솔 -9246
▁등극 -9247
▁억제 -9248
▁유진 -9249
▁남동생 -9250
▁레아 -9251
▁구상 -9252
▁발레 -9253
▁연동 -9254
토니 -9255
▁127 -9256
▁드워프 -9257
▁각도 -9258
▁Let -9259
▁마도카 -9260
▁킴 -9261
▁그레이드 -9262
▁불길 -9263
▁리처 -9264
▁상냥 -9265
▁애인 -9266
▁이원 -9267
▁관장 -9268
▁이윤 -9269
▁적시타 -9270
▁not -9271
app -9272
▁교차로 -9273
당초 -9274
▁오른손 -9275
▁탄핵 -9276
▁모스크 -9277
▁현황 -9278
▁발명 -9279
▁리바 -9280
▁모빌 -9281
▁회관 -9282
▁도배 -9283
▁솔저 -9284
▁DM -9285
▁MM -9286
▁토라 -9287
▁아담 -9288
ㅅㅡ -9289
▁ㅎㅡㅌ -9290
▁서울대 -9291
▁쿠데타 -9292
▁118 -9293
▁그란 -9294
▁타이어 -9295
▁왕실 -9296
▁라인하르트 -9297
DD -9298
▁제발 -9299
▁굽 -9300
▁협동 -9301
▁봉사 -9302
▁육상 -9303
▁발급 -9304
▁사치 -9305
▁스크롤 -9306
▁왕비 -9307
▁아마추어 -9308
▁퓨전 -9309
▁물러나 -9310
▁프랜 -9311
▁원주민 -9312
▁스토어 -9313
▁베를 -9314
▁용산 -9315
ough -9316
▁섬광 -9317
ㄹㅝㅆ -9318
타이 -9319
▁착륙 -9320
▁OG -9321
▁방사능 -9322
▁사방 -9323
▁향후 -9324
▁184 -9325
▁ㄴㅗㄴ -9326
▁까마귀 -9327
▁아포 -9328
▁전담 -9329
▁라미 -9330
▁쿄코 -9331
▁하사 -9332
▁ㄷㅓㄴㅈㅣㄴ -9333
▁피오 -9334
▁지장 -9335
▁환생 -9336
ㄷㅡㄴㄷㅏ -9337
▁SSR -9338
▁Am -9339
▁챔스 -9340
▁서열 -9341
gr -9342
▁제치 -9343
▁여태 -9344
▁시안 -9345
▁뤼 -9346
▁Op -9347
▁학사 -9348
▁시시 -9349
▁숙소 -9350
▁뻘 -9351
▁다카 -9352
▁반성 -9353
▁Str -9354
▁훔 -9355
▁얌 -9356
▁Col -9357
▁AF -9358
▁도대체 -9359
▁ㅎㅐㅆㅇㅓ -9360
▁앓 -9361
▁지루 -9362
ㄲㅡㅁ -9363
▁베스 -9364
▁밀리언 -9365
▁잎 -9366
▁정밀 -9367
▁선박 -9368
▁입시 -9369
▁행진 -9370
▁박자 -9371
▁퍼펙트 -9372
ye -9373
▁우두 -9374
▁ㅎㅜ -9375
▁이무 -9376
▁이별 -9377
▁GM -9378
▁지크 -9379
▁인피니티 -9380
▁청춘 -9381
▁민폐 -9382
▁미녀 -9383
▁서적 -9384
▁옴 -9385
▁000000 -9386
▁시오 -9387
▁교도소 -9388
▁컴뱃 -9389
▁프롤 -9390
▁루마 -9391
어트 -9392
▁유가 -9393
▁큐어 -9394
▁팔라 -9395
▁필름 -9396
▁밀어내 -9397
▁실용 -9398
▁감추 -9399
▁보우 -9400
▁루미 -9401
▁Mag -9402
CE -9403
▁화기 -9404
▁그간 -9405
▁쏠 -9406
▁강인 -9407
▁아수 -9408
▁싱가 -9409
▁싱가포르 -9410
iel -9411
▁카리 -9412
▁카피 -9413
▁리자 -9414
▁욕심 -9415
▁스로 -9416
▁조화 -9417
▁편리 -9418
▁갱신 -9419
▁스타워즈 -9420
▁브래 -9421
▁친척 -9422
▁취재 -9423
▁금발 -9424
▁승패 -9425
▁직책 -9426
▁툭 -9427
▁김치 -9428
▁모순 -9429
▁주공 -9430
▁선원 -9431
▁오렌지 -9432
▁홀리 -9433
▁테리 -9434
▁마을버스 -9435
▁고맙 -9436
▁스네 -9437
▁화신 -9438
▁까다롭 -9439
▁일일 -9440
▁시호 -9441
▁AV -9442
ㅅㅕㅆ -9443
▁흥분 -9444
▁탐사 -9445
▁발각 -9446
▁침몰 -9447
▁1978 -9448
▁이진 -9449
ull -9450
vel -9451
▁어벤져 -9452
▁전송 -9453
▁스카웃 -9454
▁과일 -9455
▁ㅈㅓㅂ -9456
▁한꺼 -9457
▁한꺼번에 -9458
▁AL -9459
▁폴아웃 -9460
▁섬멸 -9461
▁ㅎㅟㅂ -9462
▁아슬 -9463
▁우미 -9464
▁전지 -9465
▁욱 -9466
▁이계 -9467
크리 -9468
▁김광 -9469
▁완화 -9470
▁경전 -9471
▁오다 -9472
프리카 -9473
▁스기 -9474
▁안무 -9475
▁흑역사 -9476
▁군부 -9477
▁엇 -9478
▁오토바이 -9479
서스 -9480
▁마야 -9481
▁ㅁㅗㄹㅇㅏ -9482
▁보강 -9483
▁쿠사 -9484
▁흑막 -9485
▁ㅆㅢ -9486
▁중구 -9487
▁시간대 -9488
▁들키 -9489
▁ㄸㅜㅀ -9490
▁대역 -9491
▁천국 -9492
헤이 -9493
ult -9494
▁해운 -9495
▁토트넘 -9496
▁모욕 -9497
▁오즈 -9498
▁달려들 -9499
▁성명 -9500
▁178 -9501
▁구형 -9502
키스탄 -9503
▁아사히 -9504
▁리부 -9505
▁가구 -9506
▁컴백 -9507
▁CL -9508
▁소나 -9509
▁용이 -9510
▁도르 -9511
▁아름답 -9512
▁민감 -9513
able -9514
▁관문 -9515
▁능가 -9516
▁약혼 -9517
▁반경 -9518
▁스텔스 -9519
바리 -9520
마리 -9521
▁이단 -9522
▁홋카이도 -9523
▁사와 -9524
에른 -9525
▁1945 -9526
ject -9527
▁반역 -9528
▁신관 -9529
▁어그 -9530
소년 -9531
▁미소녀 -9532
▁수라 -9533
▁엣 -9534
구니 -9535
▁주머니 -9536
▁완공 -9537
▁호리 -9538
▁인문 -9539
▁PK -9540
▁스윙 -9541
▁ㅇㅓㅆㅇㅓㅆ -9542
▁경상남도 -9543
▁동계 -9544
▁카일 -9545
▁최상급 -9546
▁모에 -9547
▁ㅁㅏㄴㄴㅏㄴㄷㅏ -9548
▁CE -9549
▁ㅇㅏㄴㄱㅕ -9550
▁등재 -9551
▁일체 -9552
▁그리핀 -9553
▁엉덩이 -9554
▁ㅁㅓㄱㅇㅕ -9555
▁레버 -9556
18 -9557
▁라비 -9558
▁헬리 -9559
▁Co -9560
▁cl -9561
eth -9562
▁강대 -9563
▁매각 -9564
▁소득 -9565
▁유즈 -9566
▁시카고 -9567
▁ㅈㅜㅂㄴㅣ -9568
▁간판 -9569
▁직행 -9570
▁사직 -9571
▁에코 -9572
▁얼티밋 -9573
바람 -9574
ㄱㅇㅕ -9575
▁적자 -9576
방울 -9577
▁까지 -9578
▁오만 -9579
▁타카하시 -9580
▁신작 -9581
▁ㄱㅏㅈㅊㅝ -9582
▁마수 -9583
▁저자 -9584
▁코레 -9585
▁시종 -9586
▁독백 -9587
▁베이비 -9588
▁테란 -9589
▁정답 -9590
▁머스 -9591
▁울음 -9592
모습 -9593
▁부채 -9594
▁라이트닝 -9595
MAN -9596
▁엘리자베스 -9597
▁ㅈㅏㅂㅎㅣㄴ -9598
▁플라스 -9599
▁정점 -9600
▁프레스 -9601
▁터뜨리 -9602
▁장남 -9603
▁약체 -9604
▁수아 -9605
▁명장 -9606
▁사탕 -9607
타리 -9608
▁패트 -9609
▁요격 -9610
▁파운드 -9611
▁탈취 -9612
▁스마일 -9613
▁매그 -9614
▁레시피 -9615
▁ㄱㅓㄹㄲㅏ -9616
▁디스플레이 -9617
속기 -9618
▁여주인 -9619
▁모음 -9620
▁수천 -9621
기에 -9622
▁카제 -9623
▁늪 -9624
▁금요일 -9625
▁눈앞 -9626
▁겟 -9627
▁불참 -9628
▁단자 -9629
▁마미 -9630
▁아랫 -9631
▁카사 -9632
겨나 -9633
무지 -9634
▁노릇 -9635
▁오케 -9636
▁패왕 -9637
▁바이에른 -9638
ㄷㅎㅕㅆ -9639
▁실적 -9640
▁무능 -9641
스크림 -9642
▁Is -9643
ㄷㅡㄹㅇㅕㅆ -9644
▁쿠리 -9645
▁Do -9646
▁찾아내 -9647
▁편의점 -9648
▁휴먼 -9649
▁도심 -9650
▁소마 -9651
▁물리치 -9652
▁대피 -9653
▁밈 -9654
▁교리 -9655
▁TOP -9656
▁BO -9657
▁씻 -9658
▁레이지 -9659
ild -9660
▁도쿠 -9661
▁크로우 -9662
▁박정희 -9663
▁카이저 -9664
▁입사 -9665
▁ㅌㅏㅆ -9666
▁욕망 -9667
▁목욕 -9668
▁ㄴㅗㅎㅇㅕ -9669
▁과시 -9670
▁애용 -9671
ㅅㅓㄴㄷㅏ -9672
25 -9673
어나오 -9674
▁일러스트레이터 -9675
▁비비 -9676
▁태풍 -9677
▁맨체스터 -9678
ㄹㅏㅂㄴㅣ -9679
파이 -9680
▁신한 -9681
▁치우 -9682
▁AFC -9683
▁ㅋㅕ -9684
▁신하 -9685
▁가왕 -9686
니코 -9687
▁4000 -9688
▁급하 -9689
▁시범 -9690
▁눈동자 -9691
▁평상시 -9692
▁그러다 -9693
▁함수 -9694
▁삽질 -9695
▁오공 -9696
생활 -9697
▁자사 -9698
▁곤충 -9699
▁스모 -9700
▁진동 -9701
▁좌익 -9702
inal -9703
러브 -9704
▁네크로 -9705
▁BGA -9706
▁물려받 -9707
▁ㅈㅏㄴ -9708
▁아이디 -9709
▁공신 -9710
▁케리 -9711
▁무지개 -9712
▁집사 -9713
▁김일 -9714
▁소집 -9715
▁남학생 -9716
▁이어서 -9717
▁웨폰 -9718
▁평론가 -9719
▁드루이드 -9720
▁맷집 -9721
아시아 -9722
▁SA -9723
▁하이드 -9724
▁연이 -9725
ㄹㅣㅂㄴㅣ -9726
▁단련 -9727
▁이쿠 -9728
▁타리 -9729
▁고가 -9730
▁ㅉㅣㄹㄹㅓ -9731
도전 -9732
▁ME -9733
▁가이아 -9734
쿠스 -9735
▁유아 -9736
▁ㅎㅡㄴㄷㅡㄹ -9737
▁냉장 -9738
▁보르 -9739
▁검토 -9740
▁정우 -9741
▁중소 -9742
▁Gaming -9743
▁사천 -9744
▁징계 -9745
▁키노 -9746
▁ㅌㅡ -9747
▁하도 -9748
▁CR -9749
▁320 -9750
▁유머 -9751
▁1973 -9752
▁선회 -9753
▁ㅂㅜㄴ -9754
▁스파크 -9755
▁리볼 -9756
▁포크 -9757
▁명시 -9758
▁ㅎㅘ -9759
▁달콤 -9760
▁아마존 -9761
▁아쉬움 -9762
▁초과 -9763
▁장본 -9764
▁마마 -9765
ings -9766
▁이용자 -9767
▁GSL -9768
▁모의 -9769
▁315 -9770
▁ㅆㅣㄴ -9771
▁캡슐 -9772
▁성분 -9773
▁당초 -9774
▁숙련도 -9775
▁투고 -9776
▁컬렉션 -9777
▁Gl -9778
▁장신구 -9779
DX -9780
▁식스 -9781
트론 -9782
▁아르바이트 -9783
TA -9784
▁무한도전 -9785
▁자력 -9786
▁중기 -9787
▁시련 -9788
르타 -9789
▁부가 -9790
▁얄 -9791
▁그루 -9792
▁협조 -9793
▁Gu -9794
ㄷㅓ -9795
▁위쪽 -9796
▁ㅁㅗㅅㅈㅣ -9797
▁짬 -9798
▁라이드 -9799
▁중국인 -9800
▁중부 -9801
▁슬라이드 -9802
▁컨디션 -9803
▁대면 -9804
reak -9805
▁아유 -9806
▁민중 -9807
▁강아지 -9808
▁대법 -9809
▁일명 -9810
ㅁㅗㄴ -9811
▁유동 -9812
▁이명박 -9813
▁와타나베 -9814
▁가해 -9815
▁오로치 -9816
대사 -9817
태우 -9818
▁진단 -9819
▁마찰 -9820
ㄱㅇㅣㄴ -9821
▁코끼리 -9822
히토 -9823
▁인도네시아 -9824
수리 -9825
▁궁수 -9826
▁모나 -9827
ron -9828
▁저항력 -9829
▁장본인 -9830
▁이호 -9831
▁잔류 -9832
▁미노 -9833
▁고발 -9834
▁ㅇㅘㅆㅇㅡ -9835
▁리리 -9836
▁더럽 -9837
▁ㄷㅙㅆㅇㅡ -9838
▁소꿉 -9839
▁공교 -9840
▁무늬 -9841
▁무자 -9842
▁주술사 -9843
▁캘리 -9844
▁so -9845
▁유마 -9846
▁금강 -9847
▁접하 -9848
티니 -9849
▁급식 -9850
▁ㅋㅐㄴ -9851
▁표식 -9852
▁나폴레 -9853
타운 -9854
▁앤드 -9855
▁재수 -9856
▁외야수 -9857
▁ㅁㅓㅁㅊㅝ -9858
▁ㅅㅗㄱㅎㅐ -9859
▁가령 -9860
▁급격히 -9861
▁like -9862
▁168 -9863
▁와이번스 -9864
▁학위 -9865
▁상시 -9866
▁주저 -9867
▁벨기에 -9868
▁아무렇 -9869
▁서바이벌 -9870
▁도마 -9871
▁네이션 -9872
▁고인 -9873
▁일리 -9874
중간 -9875
▁보로 -9876
▁판사 -9877
▁국도 -9878
▁주술 -9879
▁혼혈 -9880
▁ㅈㅓㄱㅎㅣㄴ -9881
▁수신 -9882
▁ㅁㅏㅈㅊㅜㄴ -9883
▁평택 -9884
▁방침 -9885
▁203 -9886
▁나폴레옹 -9887
▁라가 -9888
▁will -9889
▁이용객 -9890
▁내외 -9891
▁휴대폰 -9892
닐라 -9893
▁공헌 -9894
▁유카리 -9895
▁크라운 -9896
14 -9897
▁ㅁㅜㄷㅎㅕ -9898
▁NM -9899
▁윤리 -9900
▁도미 -9901
▁부산광역시 -9902
사와 -9903
▁라이징 -9904
▁성대 -9905
▁악행 -9906
▁초청 -9907
▁개명 -9908
▁내각 -9909
▁보직 -9910
PA -9911
▁승급 -9912
▁강동 -9913
저래 -9914
▁몸매 -9915
▁흉악 -9916
▁ㅁㅗㄹ -9917
▁조립 -9918
▁천지 -9919
ㄴㅟㄴㄷㅏ -9920
운수 -9921
▁218 -9922
17 -9923
▁김병 -9924
▁체코 -9925
▁이래저래 -9926
▁오페라 -9927
▁이즈미 -9928
▁Min -9929
▁헤라 -9930
▁균열 -9931
▁원한 -9932
▁꿈꾸 -9933
▁국토 -9934
▁불러 -9935
▁쥬얼 -9936
▁수립 -9937
▁독보 -9938
▁모시 -9939
▁뚜렷 -9940
▁자산 -9941
▁시네마 -9942
▁아테나 -9943
▁고우 -9944
▁저격수 -9945
전사 -9946
▁단역 -9947
▁충청남도 -9948
▁단총 -9949
▁런처 -9950
▁레이븐 -9951
▁위시 -9952
▁마저 -9953
▁황혼 -9954
▁사슬 -9955
▁베를린 -9956
▁소우 -9957
▁휴게 -9958
ㄷㅓㄴㅈㅣ -9959
▁마주치 -9960
▁배율 -9961
▁볶 -9962
▁어원 -9963
ㅅㅣㄹ -9964
▁테크닉 -9965
GA -9966
▁서방 -9967
▁탄압 -9968
▁의정부 -9969
▁저승 -9970
ㅅㅜㄹ -9971
▁one -9972
▁부동산 -9973
ㄲㅣㄴㄷㅏ -9974
▁웃기 -9975
▁10000 -9976
▁니트 -9977
▁데려가 -9978
▁차장 -9979
▁오사 -9980
▁대학생 -9981
▁배리 -9982
주의자 -9983
▁필사 -9984
▁버거 -9985
▁교역 -9986
▁설마 -9987
▁로크 -9988
ECT -9989
▁정반대 -9990
성이 -9991
▁지지율 -9992
▁수중 -9993
▁리믹스 -9994
▁국방부 -9995
▁충격파 -9996
▁단서 -9997
▁리츠 -9998
▁보가 -9999
▁면제 -10000
▁튀어나오 -10001
▁피우 -10002
▁Ro -10003
▁리프트 -10004
▁이오리 -10005
▁탄막 -10006
▁iOS -10007
▁트론 -10008
▁비자 -10009
▁지터 -10010
▁하츠네 -10011
▁스코틀랜드 -10012
▁작위 -10013
▁김성근 -10014
▁난리 -10015
▁번지 -10016
▁절단 -10017
▁RO -10018
▁ㅂㅔㄴ -10019
▁타키 -10020
▁이리저리 -10021
▁대국 -10022
ICE -10023
▁성지 -10024
▁인명 -10025
▁히사 -10026
▁아수라 -10027
▁플레임 -10028
▁na -10029
▁견해 -10030
▁멋지 -10031
▁걸음 -10032
▁자루 -10033
▁오역 -10034
▁원로 -10035
▁비단 -10036
▁시간표 -10037
oul -10038
▁밭 -10039
▁미남 -10040
▁왕족 -10041
▁더미 -10042
▁ALL -10043
▁Play -10044
▁엠블 -10045
▁정전 -10046
MAX -10047
ould -10048
▁1974 -10049
보우 -10050
AND -10051
▁흉내 -10052
▁칼라 -10053
▁팰 -10054
▁ㄴㅏㄹㄹㅕㅆ -10055
▁입원 -10056
▁버블 -10057
▁타우 -10058
▁평판 -10059
▁사물 -10060
▁성사 -10061
▁KB -10062
▁Red -10063
▁ㅇㅜㅁㅈㅣㄱㅇㅕ -10064
▁펑크 -10065
▁득표율 -10066
▁극심 -10067
▁보편 -10068
▁Ser -10069
▁말레이 -10070
▁계략 -10071
▁중화민국 -10072
▁해역 -10073
▁가해자 -10074
▁주황 -10075
▁사이토 -10076
▁완벽히 -10077
▁Type -10078
친구 -10079
▁요우 -10080
저우 -10081
▁토비 -10082
▁지면 -10083
▁공격기 -10084
▁달인 -10085
▁ㄲㅡㄴ -10086
▁격렬 -10087
ody -10088
▁NT -10089
▁간파 -10090
▁출석 -10091
▁캇 -10092
▁둥지 -10093
▁UC -10094
▁전법 -10095
▁샘플 -10096
▁사우스 -10097
▁재배 -10098
▁희생자 -10099
과이 -10100
다드 -10101
▁우두머리 -10102
▁ㅇㅣㄴㄷㅡㅅ -10103
▁반장 -10104
▁177 -10105
▁se -10106
▁연막 -10107
▁Don -10108
▁액체 -10109
▁ㄷㅜㄴㄷㅏ -10110
ions -10111
▁발톱 -10112
▁탈환 -10113
▁계절 -10114
▁다케 -10115
▁충고 -10116
▁헤드샷 -10117
▁순간이동 -10118
▁커플링 -10119
▁깃털 -10120
▁김윤 -10121
▁이듬 -10122
▁Car -10123
▁주입 -10124
▁해변 -10125
▁리볼버 -10126
▁감성 -10127
STER -10128
▁강습 -10129
▁련 -10130
▁마르코 -10131
▁한양 -10132
▁플레이버 -10133
▁선로 -10134
▁스나 -10135
▁진형 -10136
▁의의 -10137
▁손잡이 -10138
▁벚 -10139
▁맑 -10140
▁ㅅㅓㄲㅇㅣㄴ -10141
▁짝사랑 -10142
보기 -10143
▁랜서 -10144
▁홈경기 -10145
▁전라남도 -10146
▁ㅁㅏㅌㄱㅕ -10147
▁딥 -10148
▁태생 -10149
▁무비 -10150
▁반도 -10151
▁ㄱㅓㄴㄷㅏ -10152
▁스콜 -10153
▁138 -10154
▁us -10155
▁과언 -10156
텍스 -10157
▁슬라임 -10158
드로 -10159
▁중재 -10160
▁1975 -10161
▁레슨 -10162
▁입자 -10163
▁코디 -10164
▁아이즈 -10165
▁안젤 -10166
ㄷㅣㄹ -10167
▁이영호 -10168
▁금고 -10169
▁주교 -10170
▁방울 -10171
▁서명 -10172
▁접수 -10173
▁사야카 -10174
▁공명 -10175
▁병과 -10176
▁맹독 -10177
▁크롬 -10178
▁측근 -10179
▁유지비 -10180
천군 -10181
▁동성애 -10182
▁차일드 -10183
▁Es -10184
▁상의 -10185
16 -10186
ven -10187
▁보루 -10188
▁상어 -10189
▁중도 -10190
▁워드 -10191
▁너클 -10192
▁필립 -10193
alk -10194
스카 -10195
▁석유 -10196
▁만지 -10197
▁자켓 -10198
▁리처드 -10199
ㅅㅐ -10200
▁메테 -10201
▁산탄총 -10202
레븐 -10203
▁아리스 -10204
▁두려움 -10205
쳐지 -10206
▁부제 -10207
▁냉장고 -10208
▁찬양 -10209
▁완성도 -10210
▁데미 -10211
▁러너 -10212
▁팍 -10213
▁낮추 -10214
▁바이크 -10215
▁타스 -10216
라이언스 -10217
▁팔리 -10218
▁졸업식 -10219
▁다치 -10220
▁다가가 -10221
▁테니스 -10222
▁프로스트 -10223
▁어드밴 -10224
▁ㄹㅏㄱ -10225
▁이사장 -10226
▁ㅁㅜㄹㅇㅓ -10227
▁월간 -10228
▁놀리 -10229
▁백만 -10230
▁떨어뜨리 -10231
▁얼라이언스 -10232
느리 -10233
▁Time -10234
▁왓 -10235
▁원화 -10236
ㅊㅏㄴ -10237
▁본질 -10238
▁부딪 -10239
▁''' -10240
▁교대 -10241
▁이념 -10242
af -10243
야스 -10244
▁콘스탄 -10245
▁마스코트 -10246
▁레인보우 -10247
▁162 -10248
▁고래 -10249
▁삿 -10250
▁일각 -10251
▁EU -10252
▁견디 -10253
소총 -10254
▁아울 -10255
▁우지 -10256
▁have -10257
▁126 -10258
te -10259
스티스 -10260
▁ㅉㅗㅊㄱㅕ -10261
▁수감 -10262
▁분할 -10263
▁가히 -10264
▁찰스 -10265
ㄴㅡ -10266
▁박명 -10267
▁아인 -10268
▁조수 -10269
▁빙의 -10270
▁이듬해 -10271
▁뺨 -10272
▁엉뚱 -10273
맥스 -10274
▁스바 -10275
▁슬러그 -10276
▁쟁이 -10277
▁테일즈 -10278
▁카오루 -10279
▁평등 -10280
▁키즈 -10281
▁Sum -10282
▁WH -10283
▁로제 -10284
▁보고서 -10285
공사 -10286
▁가나 -10287
▁핑계 -10288
▁스칼 -10289
▁구로 -10290
▁김선 -10291
빨리 -10292
▁김두 -10293
▁심정 -10294
ics -10295
▁카렌 -10296
▁노부나가 -10297
▁지역구 -10298
▁신생 -10299
▁차림 -10300
▁ㄹㅗㄹ -10301
▁폭로 -10302
▁스매시 -10303
르드 -10304
▁ㄷㅣ -10305
▁자키 -10306
▁연소 -10307
▁제조사 -10308
ㅌㅐ -10309
▁기관포 -10310
▁ㄷㅝ -10311
▁말기 -10312
▁젝 -10313
▁누스 -10314
▁부시 -10315
▁에드워드 -10316
▁텔레포트 -10317
▁응급 -10318
▁왕가 -10319
▁클리셰 -10320
▁영화제 -10321
▁고립 -10322
랄드 -10323
▁휩 -10324
▁주차장 -10325
▁초등학생 -10326
▁꼴찌 -10327
YP -10328
▁조던 -10329
▁히카루 -10330
▁과격 -10331
▁고종 -10332
▁동상 -10333
ㅅㅏㄹ -10334
뻐하 -10335
▁손목 -10336
▁기뻐하 -10337
▁사회주의 -10338
▁무식 -10339
▁로비 -10340
▁후반전 -10341
▁민병 -10342
▁솔직히 -10343
▁펙 -10344
▁나락 -10345
▁공짜 -10346
▁회계 -10347
재기 -10348
▁대니 -10349
▁결과물 -10350
ㅈㅣㄹㄹㅓ -10351
▁비키 -10352
▁신상 -10353
▁병행 -10354
시스코 -10355
▁끊기 -10356
▁맞먹 -10357
▁기울 -10358
▁직위 -10359
▁조르 -10360
▁카토 -10361
▁팩션 -10362
▁~" -10363
▁득표수 -10364
ACK -10365
▁know -10366
미터 -10367
▁주유 -10368
▁BT -10369
▁팜 -10370
무르 -10371
▁멘붕 -10372
▁애드 -10373
▁out -10374
▁oh -10375
▁포도 -10376
▁어제 -10377
▁카인 -10378
은이 -10379
▁IIDX -10380
보라 -10381
▁BA -10382
▁CB -10383
▁김구 -10384
▁제너 -10385
▁콰 -10386
▁종로 -10387
▁팬티 -10388
▁브레스 -10389
▁분배 -10390
▁피드 -10391
▁즐겁 -10392
▁방벽 -10393
▁정의당 -10394
▁연세대 -10395
▁보복 -10396
▁조항 -10397
▁투사 -10398
▁슬슬 -10399
▁재질 -10400
▁제자리 -10401
▁야망 -10402
페이스 -10403
▁난투 -10404
▁숙청 -10405
▁1976 -10406
처럼 -10407
고사 -10408
▁손꼽 -10409
ㅎㅣㅁ -10410
tern -10411
▁후면 -10412
▁군데 -10413
▁레귤 -10414
ins -10415
▁경사 -10416
▁ㅇㅐ -10417
▁Kore -10418
▁극악 -10419
셉트 -10420
ict -10421
시티 -10422
▁지배자 -10423
▁ㅅㅡㄹㅍㅡㄴ -10424
▁볼드 -10425
▁이세 -10426
▁313 -10427
▁EV -10428
▁소꿉친구 -10429
▁pr -10430
▁리셋 -10431
▁신조 -10432
▁발전소 -10433
▁몰아넣 -10434
▁ㄴㅓㅁㄱㅕㅆ -10435
▁내뱉 -10436
▁132 -10437
▁한정판 -10438
▁내면 -10439
▁두루 -10440
▁상부 -10441
▁제의 -10442
▁LTE -10443
▁페이크 -10444
▁난민 -10445
▁결의 -10446
▁럭키 -10447
▁날아다니 -10448
▁ㄱㅓㄹㄹㅣㄹ -10449
▁서리 -10450
▁!!! -10451
ange -10452
▁해고 -10453
▁찰나 -10454
▁테이프 -10455
▁자포 -10456
▁거꾸 -10457
▁미트 -10458
▁약칭 -10459
▁ㅂㅔㄹ -10460
ater -10461
▁제주도 -10462
전설 -10463
▁세츠 -10464
▁표기법 -10465
▁훔치 -10466
▁빈약 -10467
▁로그인 -10468
▁테르 -10469
▁Sun -10470
▁DI -10471
▁다저스 -10472
▁1972 -10473
▁중후 -10474
▁채찍 -10475
▁개판 -10476
▁알아내 -10477
갈리 -10478
▁바나나 -10479
▁카테고리 -10480
▁근로 -10481
▁페미니즘 -10482
▁수확 -10483
▁set -10484
▁유비트 -10485
▁해전 -10486
퍼니 -10487
▁캔디 -10488
▁일산 -10489
▁실리 -10490
▁트랜스포 -10491
▁병종 -10492
레이크 -10493
▁연간 -10494
▁지미 -10495
▁재벌 -10496
▁바이킹 -10497
▁수영복 -10498
▁츤데레 -10499
▁선봉 -10500
무이 -10501
▁종전 -10502
▁접전 -10503
▁158 -10504
▁강탈 -10505
▁하지메 -10506
▁환호 -10507
▁여주인공 -10508
▁산소 -10509
▁로렌 -10510
▁메디 -10511
상가 -10512
▁feat -10513
▁IP -10514
▁메세지 -10515
▁구독자 -10516
ㅅㄱㅏㄹ -10517
▁탁월 -10518
▁오딘 -10519
▁자카 -10520
▁구청 -10521
19 -10522
▁GD -10523
▁제인 -10524
▁정준 -10525
▁파고 -10526
▁도사 -10527
돌프 -10528
▁그랑프리 -10529
▁TP -10530
▁콧 -10531
▁MO -10532
▁자작 -10533
▁가설 -10534
▁일조 -10535
▁라시 -10536
▁다투 -10537
▁1977 -10538
▁진짜로 -10539
▁프롤로그 -10540
▁힌트 -10541
고속도로 -10542
▁초점 -10543
▁갸 -10544
▁카이사 -10545
▁대등 -10546
▁사각 -10547
▁스케줄 -10548
▁ㅇㅗㄹㅂㅏ -10549
▁적이 -10550
▁릴리스 -10551
▁교훈 -10552
▁IV -10553
▁쿠바 -10554
▁ㄴㅏㅈㅊ -10555
▁230 -10556
▁서치 -10557
▁내정 -10558
▁응답 -10559
▁레귤러 -10560
▁미도리 -10561
▁수여 -10562
▁구호 -10563
▁르노 -10564
▁빼앗기 -10565
▁퉁 -10566
▁신념 -10567
▁폐선 -10568
▁야마모토 -10569
▁관료 -10570
▁진로 -10571
▁거꾸로 -10572
▁빠져나가 -10573
▁이니 -10574
사스 -10575
▁프랭크 -10576
그마 -10577
▁유능 -10578
▁키드 -10579
▁무궁 -10580
▁High -10581
▁댐 -10582
▁마가 -10583
▁이점 -10584
▁인트 -10585
활약 -10586
▁충남 -10587
▁임진 -10588
▁니코니코 -10589
▁깡패 -10590
▁실바 -10591
▁중급 -10592
▁172 -10593
▁뚝 -10594
▁앨런 -10595
▁HS -10596
ㄸㅏ -10597
▁프로그래 -10598
▁필두 -10599
ㄲㅓ -10600
▁무신 -10601
▁Light -10602
▁껍질 -10603
▁감금 -10604
▁소비자 -10605
▁내보내 -10606
▁스바루 -10607
▁유라 -10608
▁대명 -10609
▁때려잡 -10610
▁테레 -10611
▁쥰 -10612
▁개막전 -10613
▁리뉴 -10614
▁TE -10615
▁ㅈㅜㄱㅇㅣㄴㄷㅏ -10616
천사 -10617
▁바인 -10618
▁치바 -10619
▁헐크 -10620
▁태미 -10621
▁베어 -10622
▁트러 -10623
che -10624
▁ㅍㅕㄴㅎㅏㄴ -10625
ME -10626
▁피난 -10627
▁컴퍼니 -10628
▁양심 -10629
▁ㅂㅏㄹ -10630
민주당 -10631
▁이만 -10632
▁133 -10633
▁순천 -10634
▁혹평 -10635
▁박쥐 -10636
▁정조 -10637
▁덴마크 -10638
▁섭취 -10639
지사 -10640
▁플리 -10641
▁애쉬 -10642
▁LOVE -10643
키스 -10644
▁주식회사 -10645
▁보트 -10646
▁이순신 -10647
▁공국 -10648
▁재림 -10649
▁줄기 -10650
▁배후 -10651
▁아폴 -10652
▁무색 -10653
▁인텔 -10654
▁캐슬 -10655
▁객관 -10656
▁도스 -10657
▁렀 -10658
▁강서 -10659
▁랜스 -10660
▁팀장 -10661
▁ㅆㅗㄹ -10662
▁파괴력 -10663
▁차분 -10664
▁Your -10665
▁기술력 -10666
▁진구 -10667
▁망상 -10668
▁순찰 -10669
▁최하 -10670
▁냉기 -10671
▁얼터 -10672
▁신학 -10673
제스 -10674
▁존슨 -10675
▁Tw -10676
▁호응 -10677
덕션 -10678
▁머물 -10679
▁연달 -10680
▁과감 -10681
▁지붕 -10682
ㄱㅅㅏㄹ -10683
▁미끼 -10684
▁la -10685
▁148 -10686
▁지성 -10687
▁급속 -10688
▁라우 -10689
▁수성 -10690
▁여장 -10691
▁통보 -10692
▁박종 -10693
▁최정 -10694
▁윈터 -10695
▁NEW -10696
▁히나타 -10697
▁고질 -10698
▁사내 -10699
▁출제 -10700
메라 -10701
▁황태 -10702
▁ㅇㅏㄹㄹㅕㅆ -10703
▁179 -10704
▁제작비 -10705
▁저스티스 -10706
▁Mr -10707
▁펭귄 -10708
▁매지 -10709
▁모자라 -10710
▁ㅎㅡㅌㅇㅓ -10711
▁앵커 -10712
▁ㅎㅑㅇㅎㅏㄴㄷㅏ -10713
그라 -10714
▁스톡 -10715
▁메구미 -10716
▁복도 -10717
▁케리건 -10718
▁어벤져스 -10719
▁능숙 -10720
▁OF -10721
▁찌질 -10722
▁노르웨이 -10723
▁망명 -10724
▁샤오 -10725
▁조력 -10726
▁소노 -10727
▁틀리 -10728
ica -10729
산역 -10730
▁ㅎㅗ -10731
▁득실 -10732
▁ㅁㅣㄹㅇㅓ -10733
▁레슬러 -10734
▁세례 -10735
▁격퇴 -10736
▁파랑 -10737
▁미숙 -10738
▁제지 -10739
▁오른팔 -10740
지않 -10741
▁모스크바 -10742
▁성벽 -10743
세서리 -10744
▁장갑차 -10745
▁라이센스 -10746
▁Gen -10747
▁트랜스포머 -10748
▁GTA -10749
▁립스 -10750
▁반론 -10751
▁로맨스 -10752
▁심히 -10753
▁포니 -10754
▁리터 -10755
사고 -10756
▁교시 -10757
▁스팅 -10758
▁Mi -10759
▁후쿠오카 -10760
▁드로 -10761
▁제대 -10762
IK -10763
▁사지 -10764
▁156 -10765
교통 -10766
▁풍경 -10767
▁사나이 -10768
▁Em -10769
▁노골 -10770
▁두뇌 -10771
▁am -10772
▁염두 -10773
ㅁㅓㄴ -10774
▁철갑탄 -10775
▁유타 -10776
▁154 -10777
날두 -10778
▁종말 -10779
▁뒤쪽 -10780
▁ar -10781
▁파우 -10782
▁ㅂㅏㄱㅎㅕ -10783
리칸 -10784
▁꼼수 -10785
▁미모 -10786
▁탐구 -10787
▁호날두 -10788
▁솟 -10789
▁시조 -10790
▁사소 -10791
▁혼인 -10792
▁표창 -10793
▁ㅅㅣㄴㄷㅏ -10794
ors -10795
▁비참 -10796
▁Par -10797
▁교육청 -10798
ㅂㅎㅣㄴ -10799
▁슈가 -10800
▁밧 -10801
▁159 -10802
FL -10803
▁진술 -10804
▁치마 -10805
▁호무 -10806
▁노래방 -10807
▁레슬링 -10808
▁바닷 -10809
▁ㅈㅓㅁ -10810
▁맹활약 -10811
▁ㄷㅡㄹㄹㅣㄴㄷㅏ -10812
▁진흥 -10813
▁초코 -10814
▁아비 -10815
▁음향 -10816
▁명대사 -10817
▁호구 -10818
▁미세 -10819
▁여수 -10820
▁176 -10821
▁안동 -10822
▁ㄴㅏㄹㄹㅣㄴ -10823
▁사가 -10824
▁거스 -10825
▁재즈 -10826
▁222 -10827
▁죄수 -10828
▁배신자 -10829
HT -10830
▁사일 -10831
▁냉동 -10832
▁춤추 -10833
▁응시 -10834
▁MK -10835
▁일컫 -10836
▁착지 -10837
▁분쇄 -10838
▁오쿠 -10839
▁전반기 -10840
▁공립 -10841
▁미호 -10842
▁HARD -10843
박이 -10844
▁떠돌 -10845
▁블랙홀 -10846
▁게르 -10847
▁발탁 -10848
▁1971 -10849
▁기행 -10850
▁전학 -10851
▁벨라 -10852
▁생태 -10853
▁u -10854
▁발발 -10855
▁성폭 -10856
▁코프 -10857
▁엄폐 -10858
▁믿음 -10859
▁테오 -10860
▁129 -10861
▁에그 -10862
▁른 -10863
▁레오나 -10864
▁통틀어 -10865
▁대목 -10866
▁폐허 -10867
▁남양 -10868
▁173 -10869
▁현직 -10870
▁핀란드 -10871
클린 -10872
▁OCG -10873
▁리우스 -10874
스럽 -10875
▁전임 -10876
▁FPS -10877
▁사천왕 -10878
▁수하 -10879
▁계곡 -10880
바스 -10881
티지 -10882
▁ㅈㅏㅂㅎㅕㅆ -10883
구나 -10884
퀘어 -10885
▁AE -10886
▁오리온 -10887
▁책상 -10888
▁섹시 -10889
▁153 -10890
어붙 -10891
▁사르 -10892
▁천문 -10893
▁명탐정 -10894
▁PL -10895
▁의아 -10896
▁was -10897
▁화석 -10898
▁ll -10899
▁ㄲㅏㄹㄹㅕ -10900
CH -10901
▁세키 -10902
▁텍사스 -10903
▁캘리포 -10904
▁전도 -10905
▁나란히 -10906
▁가마 -10907
▁남한 -10908
▁ㅇㅓㄺ -10909
▁안드레 -10910
▁드리블 -10911
▁프로덕션 -10912
멘터리 -10913
▁파이프 -10914
▁고음 -10915
▁선포 -10916
▁신주 -10917
▁ㅁㅏㅈㅊㅜㄹ -10918
▁ㅁㅝㄴㅈㅣ -10919
pr -10920
▁질풍 -10921
▁시뮬레이션 -10922
▁샹 -10923
UT -10924
▁꽁 -10925
▁토막 -10926
▁137 -10927
▁나카무라 -10928
▁에메랄드 -10929
▁테러리 -10930
▁Kn -10931
▁헷 -10932
eep -10933
▁우산 -10934
▁스탈린 -10935
▁Of -10936
▁죠죠 -10937
▁마신 -10938
▁무단 -10939
▁캘리포니아 -10940
▁지각 -10941
▁호스 -10942
▁혼다 -10943
▁감싸 -10944
▁러닝 -10945
▁인플 -10946
▁ㅇㅝㄴㅎㅐㅆ -10947
슬링 -10948
▁푸르 -10949
ㄹㅡㄹㄲㅏ -10950
▁에필 -10951
▁잔해 -10952
▁에필로그 -10953
▁이광 -10954
▁세일러 -10955
▁절정 -10956
▁래스터 -10957
▁오락실 -10958
▁문화재 -10959
▁로스터 -10960
▁대안 -10961
▁~~ -10962
ㄹㅡㅁㅇㅏ -10963
하여 -10964
▁토가 -10965
▁What -10966
les -10967
▁영등 -10968
타니 -10969
▁책략 -10970
▁목포 -10971
▁교정 -10972
▁두목 -10973
▁비기 -10974
▁GHz -10975
▁발렌타인 -10976
▁이행 -10977
▁얹 -10978
▁청룡 -10979
▁뛰어들 -10980
▁ㅁㅏㄹㄹㅕ -10981
▁예방 -10982
▁멋있 -10983
▁배리어 -10984
▁로테이션 -10985
▁스텔라 -10986
▁불문 -10987
ㅊㅝ -10988
▁아랑 -10989
▁골치 -10990
ㄷㅗㄹㄹㅕ -10991
▁노하 -10992
▁ㅇㅝㄴㅎㅏㄴㄷㅏ -10993
▁ㅇㅏㅍㅅㅓㄴ -10994
▁말소 -10995
▁요코하마 -10996
▁십자군 -10997
▁먼지 -10998
▁로열 -10999
▁장시 -11000
▁280 -11001
▁1969 -11002
▁빅토리아 -11003
▁신세계 -11004
▁ㄱㅓㄴㄷㅡ -11005
▁델타 -11006
▁총사 -11007
▁유니콘 -11008
▁숭배 -11009
▁BM -11010
▁얼어붙 -11011
▁슬램 -11012
▁기쁨 -11013
▁야당 -11014
▁다큐멘터리 -11015
아슬 -11016
▁174 -11017
▁아슬아슬 -11018
▁서울시 -11019
▁총선거 -11020
▁225 -11021
▁레바 -11022
ㅋㅓ -11023
▁골목 -11024
▁면접 -11025
▁엣지 -11026
▁대교 -11027
▁139 -11028
▁중공 -11029
▁Per -11030
▁163 -11031
더기 -11032
▁134 -11033
▁원망 -11034
▁주파 -11035
▁땀 -11036
▁카즈야 -11037
▁꿇 -11038
플러스 -11039
▁ㄴㅘㅆㄷㅏ -11040
▁깽 -11041
▁하의 -11042
▁월요일 -11043
▁167 -11044
▁보디 -11045
▁처녀 -11046
▁ㅇㅕㅆㅇㅡㅁ -11047
▁심연 -11048
▁열기 -11049
▁미식 -11050
▁버터 -11051
▁오바 -11052
▁143 -11053
▁단의 -11054
▁Fe -11055
▁악곡 -11056
▁ㅇㅕㄹㄹㅣㄴㄷㅏ -11057
▁TO -11058
▁어설 -11059
▁나사 -11060
▁GPU -11061
▁분포 -11062
▁Heart -11063
▁이준 -11064
▁필라 -11065
볼루션 -11066
▁오타쿠 -11067
▁투성이 -11068
▁블라디 -11069
반신 -11070
▁스파이크 -11071
▁해상도 -11072
▁쓸데없이 -11073
▁ㅆㅏㅎㅇㅕ -11074
▁스페인어 -11075
총장 -11076
▁최대치 -11077
▁루루 -11078
컨드 -11079
▁Good -11080
▁부처 -11081
▁로지 -11082
▁세컨드 -11083
▁상장 -11084
▁그제 -11085
▁yout -11086
▁전광 -11087
▁함성 -11088
▁142 -11089
▁CO -11090
▁ㄷㅗㅇ -11091
▁인구수 -11092
▁청사 -11093
▁화약 -11094
▁퍼시 -11095
▁연기력 -11096
▁용의자 -11097
▁2500 -11098
agon -11099
▁김도 -11100
▁모기 -11101
ㄸㅓㄹㅇㅓ -11102
▁왕관 -11103
▁ㄷㅓㄴㅈㅕㅆ -11104
▁태권 -11105
▁반란군 -11106
▁관광객 -11107
▁전수 -11108
▁패닉 -11109
ert -11110
▁스윕 -11111
▁164 -11112
▁네스 -11113
▁ㅁㅐㄴ -11114
공화 -11115
▁항공사 -11116
▁선수단 -11117
▁히카리 -11118
▁인사이드 -11119
▁CN -11120
▁때로 -11121
▁스토커 -11122
▁트레이닝 -11123
지오 -11124
▁무안 -11125
▁비로 -11126
▁유나 -11127
▁beat -11128
부인 -11129
어버리 -11130
▁드레드 -11131
▁미유키 -11132
▁기소 -11133
▁불쾌 -11134
▁추모 -11135
▁구제 -11136
▁하후 -11137
▁pro -11138
▁스트로 -11139
▁퓨처 -11140
ㄴㅕㅇ -11141
▁실로 -11142
EL -11143
▁해태 -11144
▁따라잡 -11145
▁야마다 -11146
▁하우 -11147
▁ㅡ -11148
에몽 -11149
▁국기 -11150
▁심야 -11151
▁ㄷㅏㅁㄱㅕ -11152
▁ㅎㅏㄹㅅㅜ -11153
▁기이 -11154
▁라임 -11155
▁마의 -11156
▁제단 -11157
▁ONE -11158
▁극우 -11159
▁누이 -11160
▁왕후 -11161
▁음색 -11162
▁선인 -11163
▁청장 -11164
▁이인 -11165
▁직격 -11166
▁페르시아 -11167
▁달라 -11168
▁뉴질 -11169
▁뽑아내 -11170
▁뉴질랜드 -11171
▁악령 -11172
▁야전 -11173
▁패스트 -11174
▁동아시아 -11175
▁우투 -11176
▁홍성 -11177
▁꾸미 -11178
▁직통 -11179
▁136 -11180
▁뱉 -11181
▁공고 -11182
▁김연 -11183
▁김천 -11184
▁관계없이 -11185
좀무 -11186
▁흠좀무 -11187
▁지극 -11188
▁쓰러트리 -11189
▁벚꽃 -11190
▁킹덤 -11191
▁콘셉트 -11192
▁회로 -11193
▁징크스 -11194
▁참으로 -11195
▁로브 -11196
▁리부트 -11197
▁제이슨 -11198
▁ㄷㅓㅁ -11199
▁Dark -11200
▁ㅃㅗㅂㅇㅏ -11201
}} -11202
▁안철수 -11203
▁time -11204
▁내세우 -11205
▁KC -11206
▁템포 -11207
▁방안 -11208
▁적립 -11209
▁ㅎㅓㄴ -11210
▁서장 -11211
▁개그맨 -11212
▁아이스크림 -11213
슬리 -11214
▁ㄴㅡㄹ -11215
▁ㄲㅏㄹ -11216
▁랙 -11217
▁바닐라 -11218
▁두근 -11219
▁일환 -11220
프란 -11221
▁궁전 -11222
백과 -11223
▁알렉산더 -11224
▁오프라인 -11225
▁핸드폰 -11226
립트 -11227
▁사범 -11228
무실 -11229
▁동사 -11230
▁조준경 -11231
▁ㅅㅣㄹㄹㅕ -11232
▁경찰청 -11233
▁유고 -11234
▁한층 -11235
리드 -11236
ㅇㄱㅣㄴ -11237
▁경지 -11238
▁완구 -11239
▁번갈 -11240
▁유해 -11241
▁어린아이 -11242
▁샤를 -11243
디스 -11244
▁자부 -11245
▁텀 -11246
▁ㄷㅗㄷ -11247
▁훈훈 -11248
무게 -11249
레이트 -11250
▁몸무게 -11251
▁유선 -11252
▁157 -11253
▁1963 -11254
▁숙주 -11255
▁미라이 -11256
▁ㄱㅖ -11257
▁중심지 -11258
▁체격 -11259
▁술집 -11260
▁죄송 -11261
▁메이트 -11262
▁330 -11263
▁0900 -11264
▁내뿜 -11265
▁중년 -11266
려나 -11267
other -11268
▁모던 -11269
▁세미 -11270
▁카니 -11271
풀이 -11272
▁모양새 -11273
▁연의 -11274
▁혼동 -11275
▁화소 -11276
iew -11277
▁열세 -11278
▁ab -11279
▁출고 -11280
▁문신 -11281
ideo -11282
▁근력 -11283
land -11284
▁좌파 -11285
▁뮤지션 -11286
▁Sm -11287
▁순정 -11288
▁정서 -11289
▁방호 -11290
▁외면 -11291
▁앞뒤 -11292
▁배우자 -11293
티넘 -11294
▁양대 -11295
▁전반전 -11296
▁플래티넘 -11297
▁브루스 -11298
▁눈빛 -11299
▁라바 -11300
▁갈리아 -11301
▁사투리 -11302
▁ㅂㅜㄹㄹㅕ -11303
▁호박 -11304
▁레프 -11305
▁휴스턴 -11306
▁안토니 -11307
애나 -11308
▁하카 -11309
▁브이 -11310
air -11311
▁계시 -11312
▁창립 -11313
▁패드 -11314
▁Sl -11315
▁합치 -11316
▁타다 -11317
▁줄리 -11318
▁연금술사 -11319
▁주한 -11320
▁에일리 -11321
▁대중교통 -11322
▁우천 -11323
▁제우스 -11324
▁1968 -11325
▁제사 -11326
▁270 -11327
▁침해 -11328
▁저조 -11329
▁설탕 -11330
▁성숙 -11331
▁시흥 -11332
▁장례식 -11333
▁출연진 -11334
▁제프 -11335
▁본의 -11336
▁플라스틱 -11337
▁집필 -11338
▁꿰뚫 -11339
▁농민 -11340
▁Blue -11341
▁투신 -11342
▁타당 -11343
▁Baby -11344
▁AG -11345
ator -11346
▁오키나 -11347
▁나뭇 -11348
▁ㄷㅏㄹㄹㅏㅆ -11349
▁고자 -11350
▁해독 -11351
▁미니언 -11352
▁박상 -11353
▁외관 -11354
▁코즈 -11355
▁이아 -11356
▁도시락 -11357
▁클라우드 -11358
▁...... -11359
oot -11360
▁워너 -11361
▁스케이 -11362
▁신수 -11363
▁전열 -11364
▁환사 -11365
anna -11366
▁테러리스트 -11367
▁Ac -11368
▁대진 -11369
▁유코 -11370
▁장풍 -11371
▁헤일 -11372
▁샤워 -11373
▁초교 -11374
▁ㅂㅜㄹㄹㅣㄹ -11375
▁기피 -11376
▁깨알 -11377
▁선교 -11378
▁김대중 -11379
▁하이브리 -11380
▁동호 -11381
▁벌금 -11382
▁하이브리드 -11383
▁수시로 -11384
▁테루 -11385
▁세스 -11386
▁전라북도 -11387
▁더구나 -11388
▁부사관 -11389
▁무수 -11390
▁방언 -11391
▁청나라 -11392
▁베일 -11393
▁우상 -11394
▁자칫 -11395
ush -11396
▁미티 -11397
▁히로시마 -11398
▁집합 -11399
▁모어 -11400
▁브레인 -11401
▁취지 -11402
▁ㄱㅕㅂ -11403
▁담임 -11404
▁하시 -11405
▁149 -11406
▁오비 -11407
▁심상 -11408
▁방공 -11409
▁하비 -11410
▁강세 -11411
▁브론즈 -11412
▁ㅆㅗㄴ -11413
▁센트럴 -11414
▁각국 -11415
▁사탄 -11416
▁적성 -11417
▁넉넉 -11418
▁ㅍㅜㄹㄹㅣㄴ -11419
▁희대 -11420
르도 -11421
▁총독 -11422
▁146 -11423
▁상쇄 -11424
▁후루 -11425
▁푹 -11426
▁허브 -11427
▁경제학 -11428
▁트러블 -11429
▁황실 -11430
▁가혹 -11431
▁로라 -11432
▁모함 -11433
▁확고 -11434
▁Li -11435
▁OK -11436
▁야만 -11437
ㅇㅟㄴ -11438
▁조교 -11439
▁멜론 -11440
▁공모 -11441
▁마켓 -11442
▁Fire -11443
카미 -11444
▁지난 -11445
▁손꼽히 -11446
▁마초 -11447
▁체스 -11448
▁지문 -11449
na -11450
▁기함 -11451
▁남미 -11452
토리얼 -11453
▁격전 -11454
▁ㅅㅣㅁㅎㅐㅆ -11455
▁하여금 -11456
▁연회 -11457
▁브레이브 -11458
▁암컷 -11459
▁거품 -11460
▁후쿠시마 -11461
▁튜토리얼 -11462
▁상공 -11463
▁줌 -11464
▁찰리 -11465
▁260 -11466
▁풍기 -11467
▁공영 -11468
▁뒤지 -11469
▁오리진 -11470
▁낡 -11471
▁일삼 -11472
▁심화 -11473
▁종착 -11474
▁프로토타입 -11475
▁리액 -11476
▁장동 -11477
▁유니온 -11478
▁El -11479
▁섹스 -11480
▁페이커 -11481
▁방화 -11482
▁마테 -11483
▁크롤 -11484
▁sm -11485
▁소사 -11486
▁저희 -11487
▁주의자 -11488
▁월등 -11489
▁프렌즈 -11490
▁ㅅㅏㅇㅎㅏㄴ -11491
▁루키 -11492
▁빈틈 -11493
▁럴 -11494
▁라프 -11495
▁가라앉 -11496
▁말년 -11497
▁경과 -11498
▁병장 -11499
▁웨인 -11500
▁ㄴㅜㄴㅊㅣ -11501
▁아르카 -11502
▁ㄱㅏㅆㅇㅡ -11503
▁Dis -11504
OID -11505
▁ㄷㅝㅆ -11506
▁랩터 -11507
글라스 -11508
▁초상화 -11509
▁레이너 -11510
▁맥락 -11511
▁슈터 -11512
▁인체 -11513
▁ㅆㅓㄹ -11514
전트 -11515
ady -11516
▁공손 -11517
▁실력자 -11518
▁일레븐 -11519
▁ㅈㅜㄹㄱㅔ -11520
더슨 -11521
▁일품 -11522
▁클러 -11523
▁주가 -11524
▁BEMAN -11525
단지 -11526
▁kr -11527
▁원자력 -11528
ㄱㅎㅕㅆ -11529
▁고추 -11530
▁브랜 -11531
▁오세 -11532
▁미스터리 -11533
ㅁㅏㅇㅊㅕ -11534
▁합법 -11535
▁개미 -11536
▁책임지 -11537
▁타카시 -11538
▁오의 -11539
▁석상 -11540
▁중학생 -11541
▁고성 -11542
▁파격 -11543
▁맞대 -11544
▁신병 -11545
▁핸들 -11546
▁포워드 -11547
두사 -11548
▁운반 -11549
▁적재 -11550
▁프로모 -11551
▁별칭 -11552
▁하라 -11553
베트 -11554
▁켄지 -11555
▁격기 -11556
▁속력 -11557
▁편견 -11558
▁놔 -11559
▁수량 -11560
▁자질 -11561
▁DJMAX -11562
▁미즈키 -11563
▁BEMANI -11564
▁문법 -11565
▁무선 -11566
▁생선 -11567
▁져 -11568
▁부친 -11569
ㄷㅡㄹㅇㅣㄹ -11570
티노 -11571
▁ㅂㅏㄱㅅㅏㄹ -11572
▁미로 -11573
▁파손 -11574
▁도검 -11575
토랑 -11576
▁니나 -11577
ㅌㅓㄴ -11578
▁뒷면 -11579
▁레스토랑 -11580
▁fl -11581
▁빈번 -11582
▁쏟아지 -11583
▁Champ -11584
메어 -11585
▁속공 -11586
▁말아먹 -11587
▁불화 -11588
▁가성 -11589
▁연말 -11590
▁우편 -11591
▁리바운드 -11592
▁다이노스 -11593
ution -11594
▁프랜차 -11595
▁다면 -11596
▁통행 -11597
▁STR -11598
▁cc -11599
▁호출 -11600
▁본가 -11601
앙스 -11602
▁주고 -11603
▁므 -11604
▁명명 -11605
▁하반기 -11606
▁발차기 -11607
▁유유 -11608
▁수령 -11609
나리 -11610
레드 -11611
▁스트리밍 -11612
▁쐐 -11613
▁격리 -11614
레슬링 -11615
▁가브리 -11616
▁피카츄 -11617
▁유승 -11618
▁소령 -11619
▁박명수 -11620
▁데스티니 -11621
스틴 -11622
▁Pre -11623
▁ㅁㅜㅇㅊㅕ -11624
▁북구 -11625
어들이 -11626
사벽 -11627
▁넘사벽 -11628
▁재빨리 -11629
▁Ev -11630
▁프랜차이즈 -11631
▁프로레슬링 -11632
▁205 -11633
▁뚜껑 -11634
▁수컷 -11635
▁1967 -11636
저드 -11637
더링 -11638
▁뭔 -11639
구역 -11640
▁나이트메어 -11641
▁자각 -11642
▁솜씨 -11643
▁평창 -11644
▁돋보이 -11645
▁퇴역 -11646
▁당국 -11647
▁뉘앙스 -11648
엘라 -11649
▁추출 -11650
▁DB -11651
▁정형 -11652
▁대승 -11653
▁독립운동 -11654
▁성기 -11655
▁앤디 -11656
▁선곡 -11657
와라 -11658
▁증인 -11659
▁앞면 -11660
▁프리즘 -11661
▁ㄸㅔ -11662
▁경질 -11663
▁박용 -11664
▁신임 -11665
▁이방 -11666
▁정체불명 -11667
▁일례 -11668
▁전염 -11669
▁하와 -11670
▁깨어나 -11671
치아 -11672
▁원흉 -11673
▁탯이 -11674
▁클립 -11675
석민 -11676
▁단식 -11677
▁무죄 -11678
▁간호사 -11679
ㅂㅎㅕㅆ -11680
ium -11681
▁550 -11682
▁우파 -11683
▁RP -11684
▁끓 -11685
▁애국 -11686
▁GG -11687
▁정재 -11688
▁네코 -11689
▁아메리칸 -11690
▁부관 -11691
▁타나카 -11692
▁교통사고 -11693
▁운석 -11694
▁질환 -11695
▁Summer -11696
듈럼 -11697
▁동로 -11698
▁우가 -11699
▁가의 -11700
▁ㄲㅡㅌㄴㅏㅆ -11701
▁147 -11702
▁광전사 -11703
▁나열 -11704
▁강점기 -11705
ㄹㅓㅆ -11706
▁디비전 -11707
▁석사 -11708
▁나레이션 -11709
▁개개 -11710
▁츠바사 -11711
▁여관 -11712
▁ㅈㅐ -11713
▁수수료 -11714
미르 -11715
▁몹시 -11716
▁오시 -11717
▁드릴 -11718
▁Grand -11719
▁블래 -11720
▁Rock -11721
▁노블 -11722
▁범행 -11723
▁호그 -11724
▁미들 -11725
▁퓨리 -11726
▁콕 -11727
▁원작자 -11728
▁back -11729
▁넥서스 -11730
▁게임즈 -11731
▁미팅 -11732
▁ㅇㅏㅍㅅㅔ -11733
▁우체 -11734
▁푼 -11735
▁무고 -11736
▁추궁 -11737
ㅁㅏㄹㄹㅕ -11738
▁ㅊㅜㄹ -11739
▁펜듈럼 -11740
▁플레어 -11741
▁하드웨어 -11742
▁헤어지 -11743
▁동년 -11744
▁무명 -11745
▁토마토 -11746
▁ㄱㅜㄹㄹㅓ -11747
▁입국 -11748
통수 -11749
▁ㄱㅜㄹㄹㅕ -11750
▁SCP -11751
▁211 -11752
▁ㅁㅜㄲㅇㅕ -11753
퍼드 -11754
▁치루 -11755
gain -11756
▁동등 -11757
▁ㅂㅣㅅ -11758
▁멀리서 -11759
모어 -11760
▁아까 -11761
▁내셔널 -11762
▁흩 -11763
▁페인 -11764
▁브라우 -11765
▁버릇 -11766
▁유신 -11767
▁전두 -11768
▁탄탄 -11769
▁줄어드 -11770
▁총평 -11771
현우 -11772
▁now -11773
▁특이점 -11774
▁폴리스 -11775
▁통수 -11776
▁배속 -11777
▁복면 -11778
▁떄 -11779
▁원종 -11780
▁유무 -11781
▁Over -11782
▁공습 -11783
▁만루 -11784
▁전례 -11785
▁체형 -11786
▁This -11787
▁대외 -11788
▁메모 -11789
▁ㅅㅏㅁ -11790
▁아이폰 -11791
▁권능 -11792
▁코지 -11793
▁day -11794
▁ㄲㅗㅂㅎㅣㄴㄷㅏ -11795
▁군림 -11796
두리 -11797
▁인어 -11798
▁데려오 -11799
▁재활 -11800
▁사슴 -11801
▁감전 -11802
▁마지 -11803
▁퓨어 -11804
▁환수 -11805
▁게시물 -11806
▁영등포 -11807
▁은메달 -11808
▁강팀 -11809
고래 -11810
▁심문 -11811
노스케 -11812
ㅇㅜㄴㄷㅔ -11813
ction -11814
▁십자가 -11815
▁텅 -11816
▁대패 -11817
▁호노 -11818
▁에바 -11819
▁그리드 -11820
▁사교 -11821
▁엎 -11822
▁무슬 -11823
▁포식 -11824
▁아래쪽 -11825
▁힐링 -11826
▁LED -11827
▁Dance -11828
▁말레이시아 -11829
▁But -11830
평가 -11831
▁실루 -11832
▁온몸 -11833
▁속박 -11834
▁제보 -11835
▁살인마 -11836
▁레이첼 -11837
▁리키 -11838
▁한강 -11839
▁방과 -11840
▁광속 -11841
▁알렉산드 -11842
▁루팡 -11843
▁관절 -11844
▁파문 -11845
▁함재기 -11846
▁DR -11847
▁별자리 -11848
▁동북 -11849
▁배송 -11850
▁염색 -11851
르바 -11852
▁무제한 -11853
▁대군 -11854
▁홀딩 -11855
▁보구 -11856
▁옌 -11857
▁잖 -11858
▁ㅅㅗㄴ -11859
ne -11860
▁펴 -11861
결승 -11862
▁닥치 -11863
▁점사 -11864
irst -11865
▁셰프 -11866
▁노비 -11867
▁미스트 -11868
▁진도 -11869
▁내구력 -11870
▁VOC -11871
▁길거리 -11872
▁호투 -11873
▁내밀 -11874
▁픽셀 -11875
▁이창 -11876
▁교내 -11877
파리 -11878
▁격침 -11879
▁박탈 -11880
▁SL -11881
▁ㅂㅗㄹㄲㅏ -11882
▁직속 -11883
▁노트북 -11884
▁통증 -11885
트랙 -11886
▁우물 -11887
▁Wii -11888
▁감기 -11889
▁ㅅㅓㄹ -11890
▁불평 -11891
ㄷㅗㄹㅇㅏ -11892
▁채취 -11893
▁경순 -11894
▁라파 -11895
▁오디오 -11896
▁MSL -11897
▁속편 -11898
▁공천 -11899
▁발현 -11900
▁어느새 -11901
▁요리사 -11902
▁발라드 -11903
▁미수 -11904
▁박찬 -11905
▁박재 -11906
▁끌려가 -11907
▁가창 -11908
ount -11909
▁Ste -11910
ㄴㅘ -11911
▁무슬림 -11912
▁목재 -11913
▁여배우 -11914
기사 -11915
츠카 -11916
▁카우 -11917
▁Gold -11918
▁보행 -11919
▁ㄱㅏㅁㅊ -11920
▁리엘 -11921
▁박영 -11922
▁기괴 -11923
▁클레이 -11924
▁자격증 -11925
▁성직자 -11926
자동 -11927
▁네놈 -11928
▁시초 -11929
▁해적단 -11930
▁성비 -11931
ㅁㅏㅇㄱ -11932
▁3164 -11933
▁머릿 -11934
▁HG -11935
▁캐스트 -11936
느님 -11937
▁포효 -11938
▁격투기 -11939
콥터 -11940
▁하행 -11941
▁교양 -11942
▁상행 -11943
ㅉㅐㅆ -11944
▁무사시 -11945
현진 -11946
▁DX -11947
▁닉스 -11948
▁왕좌 -11949
▁Just -11950
▁누명 -11951
▁스퀘어 -11952
▁동문 -11953
▁셋째 -11954
▁구타 -11955
▁안드로 -11956
▁걸어가 -11957
▁증가량 -11958
▁지지자 -11959
▁남발 -11960
▁ㅁㅜㄹㄹㅣ -11961
▁줄줄 -11962
▁스네이크 -11963
▁동메달 -11964
▁타치바나 -11965
▁냅 -11966
▁단말 -11967
▁하느님 -11968
let -11969
▁첫날 -11970
▁1966 -11971
▁HK -11972
ring -11973
▁농락 -11974
▁성수 -11975
▁뒤통수 -11976
▁동조 -11977
▁국민당 -11978
▁대공포 -11979
▁지온 -11980
▁쫄 -11981
▁일일이 -11982
줌마 -11983
▁news -11984
▁빌보드 -11985
▁FL -11986
▁달라붙 -11987
▁맴 -11988
▁미사키 -11989
▁여친 -11990
▁증발 -11991
▁기획사 -11992
▁속이 -11993
▁방송인 -11994
저것 -11995
▁창세 -11996
▁204 -11997
▁이것저것 -11998
▁삼촌 -11999
▁수강 -12000
▁륙 -12001
ㅊㅐㄴ -12002
▁멸종 -12003
▁손톱 -12004
▁ㅋㅣㄴ -12005
▁아줌마 -12006
플렉스 -12007
▁명나라 -12008
▁별점 -12009
eng -12010
▁물가 -12011
▁번식 -12012
▁제스 -12013
▁DNA -12014
▁넘어지 -12015
ㅇㅎㅏㅁ -12016
▁대쉬 -12017
▁쇼트 -12018
▁리턴 -12019
무네 -12020
DS -12021
▁회견 -12022
▁샌프란 -12023
▁샌프란시스코 -12024
▁혼합 -12025
▁뷔 -12026
▁166 -12027
레일 -12028
▁공존 -12029
▁크리스토 -12030
▁스킵 -12031
▁독수리 -12032
▁회복력 -12033
▁카구라 -12034
▁한숨 -12035
▁비즈 -12036
▁경감 -12037
▁사망자 -12038
▁TW -12039
ports -12040
▁책정 -12041
▁기합 -12042
▁스크립트 -12043
▁ㅂㅓㅅㄱㅕ -12044
▁커트 -12045
▁복용 -12046
▁급히 -12047
▁시가 -12048
메스 -12049
▁pt -12050
▁괴력 -12051
▁오키나와 -12052
▁사모 -12053
▁친목 -12054
▁후대 -12055
▁셸 -12056
▁공자 -12057
▁직무 -12058
▁소서 -12059
▁정정 -12060
▁재사 -12061
소수 -12062
▁프로모션 -12063
▁정크 -12064
▁동족 -12065
▁Can -12066
▁ㅂㅓㄹㅇㅕ -12067
▁사료 -12068
▁다스리 -12069
자재 -12070
▁트렌 -12071
▁다이스케 -12072
▁Korea -12073
산동 -12074
▁주심 -12075
▁회귀 -12076
▁명곡 -12077
▁인쇄 -12078
▁롤링 -12079
▁악어 -12080
▁현상금 -12081
▁단과 -12082
▁기술자 -12083
▁FB -12084
▁회오리 -12085
▁코바야시 -12086
▁아깝 -12087
▁계란 -12088
▁CA -12089
▁사우루스 -12090
▁슬로우 -12091
파크 -12092
▁달려가 -12093
ina -12094
▁카이토 -12095
프라 -12096
▁호프 -12097
▁VOCAL -12098
스트림 -12099
▁ㄷㅏㄹㅇㅏ -12100
▁ㅅㅣㄴㅈㅣ -12101
▁포대 -12102
▁이례 -12103
▁만행 -12104
▁비로소 -12105
▁실습 -12106
▁키트 -12107
▁박치기 -12108
▁헬리콥터 -12109
▁회심 -12110
▁아카리 -12111
▁토이 -12112
ally -12113
▁카르마 -12114
▁벌리 -12115
▁분장 -12116
▁ㅇㅓㅍ -12117
▁도라에몽 -12118
▁ㄲㅣㄴ -12119
▁ㅌㅐㄱ -12120
▁연고지 -12121
▁필터 -12122
▁김원 -12123
▁놔두 -12124
▁박해 -12125
상가상 -12126
▁설상가상 -12127
▁하리 -12128
▁ㅎㅓㅁ -12129
▁KTX -12130
▁캐리어 -12131
▁일어 -12132
ERO -12133
▁고조 -12134
▁인천광역시 -12135
▁ㅂㅓㄹㅇㅣㄴㄷㅏ -12136
보그 -12137
▁ㅆㅗㄴㄷㅏ -12138
▁반군 -12139
▁장원 -12140
▁부류 -12141
▁Sec -12142
▁피스트 -12143
▁미하 -12144
▁두르 -12145
▁되돌리 -12146
▁경보 -12147
▁홍진호 -12148
▁스냅 -12149
OO -12150
▁비타 -12151
▁로컬 -12152
UR -12153
▁니카 -12154
▁미판 -12155
▁진수 -12156
▁650 -12157
▁브릿 -12158
▁듀크 -12159
▁문어 -12160
▁신정 -12161
조합 -12162
▁광대 -12163
▁유정 -12164
▁난감 -12165
▁MHz -12166
소문 -12167
▁프린스 -12168
▁시부 -12169
▁ㅇㅓㄹ -12170
▁At -12171
▁디렉터 -12172
▁Music -12173
▁++ -12174
▁비꼬 -12175
▁타시 -12176
▁EBS -12177
▁똑똑 -12178
▁재직 -12179
▁병살타 -12180
▁가로막 -12181
▁셉 -12182
▁선우 -12183
▁우메 -12184
티콘 -12185
▁루마니아 -12186
▁이속 -12187
▁미성년 -12188
▁천마 -12189
▁박경 -12190
▁유영 -12191
▁분홍색 -12192
네이터 -12193
ㅋㅕㅆㅇㅡ -12194
▁살상 -12195
▁ㅇㅗㄻㄱㅕㅆ -12196
▁가급 -12197
▁유난 -12198
마당 -12199
▁Su -12200
▁ㅋㅋ -12201
▁감행 -12202
▁태극 -12203
ㅍㅕ -12204
▁엘리스 -12205
▁개연 -12206
▁무진 -12207
▁퍼센트 -12208
▁김형 -12209
▁그립 -12210
▁파수 -12211
ㅅㅏ -12212
▁로저 -12213
니카 -12214
▁아이유 -12215
▁퐁 -12216
▁1962 -12217
▁Ep -12218
▁바티 -12219
▁리플렉 -12220
▁괴상 -12221
▁입양 -12222
▁실루엣 -12223
▁ㅇㅜㄴ -12224
려워하 -12225
▁프랑크 -12226
▁딸기 -12227
▁총열 -12228
▁조직원 -12229
▁짚 -12230
▁홈즈 -12231
▁망령 -12232
▁아타 -12233
▁피치 -12234
▁열람 -12235
▁습관 -12236
바다 -12237
▁쿠시 -12238
▁스완 -12239
▁로코 -12240
▁츠나 -12241
▁한발 -12242
▁텍스 -12243
▁Live -12244
▁뽕 -12245
▁대마 -12246
▁레이트 -12247
▁학점 -12248
▁get -12249
▁레즈 -12250
ART -12251
▁장학 -12252
▁그리하여 -12253
▁항아리 -12254
▁악의 -12255
▁춘천 -12256
▁단정 -12257
▁Comm -12258
▁진리 -12259
널드 -12260
▁GN -12261
▁어퍼 -12262
▁에도 -12263
▁관직 -12264
▁달빛 -12265
▁사로 -12266
▁가미 -12267
▁야외 -12268
▁예지 -12269
▁무겁 -12270
▁암울 -12271
▁고토 -12272
▁목동 -12273
▁케이지 -12274
말리 -12275
▁카가미 -12276
▁서태 -12277
ㅇㄱㅏ -12278
장난 -12279
▁레기 -12280
▁양보 -12281
▁ㅁㅏㅇㅎㅐ -12282
▁저렇게 -12283
▁판권 -12284
▁ㅈㅏㄹㄹㅕ -12285
▁콜롬 -12286
젤레스 -12287
▁요시다 -12288
▁BF -12289
use -12290
▁고릴라 -12291
▁ㅁㅏㅇㅎㅏㄴ -12292
▁발광 -12293
▁세탁 -12294
▁금색 -12295
▁경유지 -12296
▁후문 -12297
▁주거 -12298
▁MX -12299
▁위키백과 -12300
▁기법 -12301
▁강수 -12302
▁파벌 -12303
▁대인배 -12304
son -12305
▁키무라 -12306
▁돌격소총 -12307
▁리티 -12308
▁UF -12309
▁천공 -12310
ㅈㅝㅆ -12311
▁169 -12312
▁사이보그 -12313
▁클라이 -12314
▁용감 -12315
▁` -12316
▁ㄴㅗㄹㄹㅏㄴ -12317
▁도청 -12318
▁진성 -12319
▁오케스트라 -12320
▁저서 -12321
▁ㅎㅏㅂㅊㅣㄴ -12322
▁고든 -12323
▁연발 -12324
▁뇌물 -12325
▁바그 -12326
▁안보 -12327
▁man -12328
▁사스케 -12329
▁요시노 -12330
▁1800 -12331
일라 -12332
▁김명 -12333
▁투니 -12334
▁산책 -12335
▁레이나 -12336
▁카에 -12337
▁바주 -12338
▁구급 -12339
▁전속 -12340
▁북아 -12341
▁경쟁자 -12342
▁gr -12343
▁한탄 -12344
▁코요 -12345
문트 -12346
▁단속 -12347
▁천둥 -12348
▁소절 -12349
▁바니 -12350
▁서민 -12351
▁베이더 -12352
itch -12353
▁코다 -12354
관총 -12355
▁섀도 -12356
▁실업 -12357
▁디펜스 -12358
tr -12359
▁번트 -12360
▁영진 -12361
▁but -12362
▁커비 -12363
▁털어놓 -12364
▁1944 -12365
▁타니 -12366
reen -12367
▁GR -12368
▁잠재력 -12369
== -12370
▁Res -12371
▁Power -12372
▁수용소 -12373
▁1940 -12374
▁Leg -12375
▁Af -12376
▁로저스 -12377
ㅇㅗㄹㄹㅏㅆ -12378
▁어미 -12379
attle -12380
▁그랜 -12381
▁급기 -12382
▁주황색 -12383
▁재사용 -12384
inn -12385
▁스퍼 -12386
▁페이트 -12387
▁차용 -12388
▁ㅁㅛ -12389
▁배상 -12390
▁결사 -12391
▁법안 -12392
▁볼텍스 -12393
▁ㅍㅕㄴㅎㅐ -12394
▁똘 -12395
▁남작 -12396
▁행방불명 -12397
▁제다이 -12398
▁처절 -12399
▁은혜 -12400
▁치사 -12401
▁Hard -12402
▁추적자 -12403
▁얕 -12404
▁RC -12405
▁교관 -12406
▁조력자 -12407
▁MR -12408
▁송출 -12409
▁영남 -12410
▁월급 -12411
▁Pv -12412
▁열악 -12413
▁자판 -12414
▁ㄴㅗㄹㄹㅏㅆ -12415
▁청원 -12416
▁히토미 -12417
▁접점 -12418
▁혹사 -12419
못미 -12420
▁감히 -12421
▁런닝 -12422
▁지못미 -12423
▁고산 -12424
▁장제스 -12425
▁UI -12426
▁공약 -12427
▁저상 -12428
▁마요 -12429
▁쿠루 -12430
▁전산 -12431
▁냉각 -12432
ㄱㅇㅣㅁ -12433
▁리조 -12434
▁준결승 -12435
▁ARM -12436
▁마운드 -12437
▁워낙에 -12438
아라 -12439
▁경선 -12440
▁채집 -12441
▁코이 -12442
▁호로 -12443
징어 -12444
▁수복 -12445
▁쐐기 -12446
▁직결 -12447
쌔신 -12448
▁Ma -12449
▁카즈마 -12450
▁Sing -12451
▁ㅇㅣㄹㅅㅜ -12452
▁어쌔신 -12453
▁편안 -12454
▁카를로스 -12455
▁카밀 -12456
놀이 -12457
▁Che -12458
▁여정 -12459
▁베인 -12460
▁출근 -12461
▁출중 -12462
장이 -12463
75 -12464
▁매너 -12465
▁켈리 -12466
▁진행자 -12467
▁Life -12468
니클 -12469
ern -12470
▁co -12471
▁동요 -12472
▁구두 -12473
▁기복 -12474
XT -12475
▁공과 -12476
▁보잉 -12477
▁준공 -12478
▁미코토 -12479
▁천주교 -12480
▁독서 -12481
▁블래스트 -12482
▁제원 -12483
▁Master -12484
▁응원가 -12485
▁트리스 -12486
▁선방 -12487
TC -12488
▁부드 -12489
▁ADV -12490
▁모닝 -12491
▁가호 -12492
규모 -12493
큘라 -12494
ars -12495
▁김두한 -12496
▁키사 -12497
▁크리스티 -12498
▁실정 -12499
▁여권 -12500
▁ㅇㅣㅂㅎㅣㄹ -12501
▁행하 -12502
▁주고받 -12503
▁무효화 -12504
▁정확도 -12505
토르 -12506
▁제라 -12507
▁돌려주 -12508
▁im -12509
▁슬리 -12510
▁나들 -12511
▁호기심 -12512
▁가두 -12513
▁무빙 -12514
▁Rem -12515
▁ㄱㅓㄹㅊㅣㄴ -12516
준표 -12517
▁전두환 -12518
▁설화 -12519
▁코파 -12520
▁전세 -12521
▁튜닝 -12522
▁나들목 -12523
▁예언자 -12524
▁ㄱㅔㄴㅈㅣ -12525
▁VOCALOID -12526
▁탈당 -12527
asy -12528
▁광탈 -12529
▁외우 -12530
▁불신 -12531
▁휴게소 -12532
▁마차 -12533
니스트 -12534
to -12535
▁ㅍㅛ -12536
▁ㅂㅜㄹㅌㅐ -12537
▁훅 -12538
▁토로 -12539
▁LCK -12540
▁출루율 -12541
총리 -12542
▁Lo -12543
▁한도 -12544
▁동탁 -12545
rain -12546
ㄷㅊㅕ -12547
▁반대편 -12548
▁러시아어 -12549
▁형편없 -12550
▁뷰티 -12551
▁데우스 -12552
▁민정 -12553
▁Fem -12554
▁시가지 -12555
▁비장 -12556
▁원활 -12557
▁농사 -12558
▁야심 -12559
▁사출 -12560
▁동체 -12561
IE -12562
▁사안 -12563
▁ㅁㅗㅅㅎㅐㅆㅇㅡ -12564
▁당첨 -12565
▁망설 -12566
▁1930 -12567
▁충청북도 -12568
▁네이트 -12569
▁부흥 -12570
▁Out -12571
▁카오리 -12572
▁노기 -12573
▁다짐 -12574
UE -12575
▁이변 -12576
▁리전 -12577
▁소매 -12578
▁픽업 -12579
▁실명 -12580
▁더욱이 -12581
▁증기 -12582
▁지주 -12583
▁카디 -12584
ana -12585
▁부당 -12586
▁열등 -12587
▁카노 -12588
▁교향 -12589
▁테일러 -12590
▁근성 -12591
▁더비 -12592
▁탬 -12593
▁매칭 -12594
▁댄서 -12595
심장 -12596
▁농협 -12597
▁시에 -12598
▁자처 -12599
▁창병 -12600
▁무림 -12601
▁매출액 -12602
▁ㅌㅏㄴㄷㅏ -12603
▁체리 -12604
▁금호 -12605
▁차후 -12606
▁OPS -12607
마침 -12608
▁일절 -12609
차례 -12610
▁센티 -12611
▁ㄷㅓㄴㅈㅣㄴㄷㅏ -12612
▁궤적 -12613
▁사당 -12614
▁서지 -12615
▁포트리스 -12616
▁상용 -12617
▁태자 -12618
테이 -12619
▁OB -12620
▁금화 -12621
▁포맷 -12622
▁151 -12623
▁자회사 -12624
cl -12625
▁간선 -12626
ield -12627
▁구단주 -12628
▁친정 -12629
▁목적지 -12630
▁ㅁㅣㄹㄹㅕㅆ -12631
▁ㅁㅣㄹㄹㅣㄴㄷㅏ -12632
▁음주 -12633
▁이질 -12634
▁득점자 -12635
▁때마침 -12636
▁동지 -12637
▁돌보 -12638
▁등교 -12639
▁문고 -12640
▁999 -12641
▁내수 -12642
▁모범 -12643
▁어리석 -12644
▁유방 -12645
▁학술 -12646
▁허공 -12647
ㅇㅜㄹㄹㅣㄴㄷㅏ -12648
▁아델 -12649
24 -12650
년기 -12651
▁괴리 -12652
▁End -12653
▁256 -12654
▁중전차 -12655
riend -12656
▁퍼붓 -12657
▁지극히 -12658
▁굶 -12659
▁숀 -12660
▁POP -12661
▁Hell -12662
▁성역 -12663
▁따내 -12664
▁이은 -12665
▁군복 -12666
▁세레 -12667
▁인벤토리 -12668
무소 -12669
▁신칸 -12670
▁팔찌 -12671
▁유난히 -12672
▁꾀 -12673
atic -12674
▁코타로 -12675
▁아이리스 -12676
▁ㅂㅏㄺㅎㅣㄴㄷㅏ -12677
▁깽판 -12678
▁사극 -12679
▁해내 -12680
▁1964 -12681
▁just -12682
▁교감 -12683
▁동갑 -12684
▁초선 -12685
▁1965 -12686
코어 -12687
클럽 -12688
▁Fi -12689
▁수험 -12690
▁ㅁㅏㅈㅁㅜ -12691
▁잔디 -12692
▁이노우 -12693
▁지표 -12694
▁부대원 -12695
▁부호 -12696
▁서해 -12697
▁세세 -12698
▁필연 -12699
▁스타팅 -12700
▁소시 -12701
▁못지않 -12702
▁이용해 -12703
▁아이언맨 -12704
▁수식 -12705
지부 -12706
▁안성 -12707
▁충북 -12708
▁함포 -12709
▁김일성 -12710
▁클레어 -12711
▁신칸센 -12712
▁불로 -12713
▁법학 -12714
▁시스터 -12715
▁"" -12716
▁확립 -12717
▁리마 -12718
▁반기 -12719
▁배열 -12720
▁PVP -12721
▁Miss -12722
33 -12723
▁ㄱㅏㄹㄹㅣㄴㄷㅏ -12724
▁빅토르 -12725
▁가뜩 -12726
▁세일 -12727
▁징징 -12728
▁sc -12729
▁애교 -12730
▁억지 -12731
ittle -12732
▁숏 -12733
▁본성 -12734
▁아몬 -12735
▁커먼 -12736
ㄴㅣㅂㄴㅣ -12737
▁절규 -12738
▁쳐다보 -12739
▁야마구치 -12740
▁ㅈㅓㄴㅎㅐㅆ -12741
▁발악 -12742
▁퀄컴 -12743
▁구절 -12744
▁파파 -12745
▁Air -12746
▁night -12747
▁순교 -12748
▁q -12749
▁SG -12750
▁거칠 -12751
지르 -12752
▁스캔들 -12753
▁개개인 -12754
▁ㅎㅏㄴㅎㅐ -12755
▁애시 -12756
▁포토 -12757
▁부드럽 -12758
▁집중력 -12759
▁what -12760
▁향기 -12761
▁신대 -12762
▁끝장 -12763
▁대법원 -12764
▁영동 -12765
▁흘러가 -12766
▁웨어 -12767
▁가뜩이나 -12768
▁교직 -12769
▁부딪히 -12770
▁아카이 -12771
▁6000 -12772
▁카스미 -12773
▁조폭 -12774
LS -12775
동원 -12776
▁에일리언 -12777
▁반항 -12778
▁중견수 -12779
▁설비 -12780
ㄴㄱㅏ -12781
▁보리 -12782
▁배기 -12783
▁김택 -12784
▁오징어 -12785
▁팔라딘 -12786
▁Vo -12787
▁아홉 -12788
▁케로 -12789
▁서정 -12790
▁연구실 -12791
▁이치고 -12792
▁380 -12793
▁ㄲㅐㄹ -12794
▁트로이 -12795
▁럼블 -12796
▁가급적 -12797
▁일본식 -12798
▁랜턴 -12799
▁악랄 -12800
▁액셀 -12801
▁Hy -12802
▁바비 -12803
▁역병 -12804
▁ㅇㅜㄹㄹㅕ -12805
▁콜드 -12806
▁초당 -12807
▁자크 -12808
▁신흥 -12809
▁직역 -12810
▁학번 -12811
블릿 -12812
▁스타크 -12813
▁VR -12814
ㄹㅡㄴㄷㅔ -12815
▁왠만 -12816
▁쿠파 -12817
▁소감 -12818
▁소동 -12819
▁Mod -12820
▁손아 -12821
▁수녀 -12822
▁출몰 -12823
▁자주포 -12824
뮤직 -12825
▁바주카 -12826
▁샤크 -12827
▁고폭탄 -12828
▁국산 -12829
▁레몬 -12830
▁직구 -12831
▁넘어서 -12832
▁EMP -12833
▁볼륨 -12834
▁야드 -12835
▁임원 -12836
▁폿 -12837
ㅍㅓ -12838
▁ㅇㅠ -12839
▁넥슨 -12840
레스트 -12841
▁스콧 -12842
▁1920 -12843
▁게릴라 -12844
▁설계도 -12845
▁성형 -12846
▁차관 -12847
▁패미 -12848
▁포지 -12849
▁양측 -12850
▁즉각 -12851
▁ㄷㅏㄹㄹㅕㅆ -12852
▁토오루 -12853
▁ㅇㅞ -12854
▁서대 -12855
▁쏠쏠 -12856
ㅈㅏㅇ -12857
▁토네 -12858
▁로딩 -12859
▁페르난 -12860
28 -12861
▁강행 -12862
▁노엘 -12863
▁시코 -12864
▁챌린저 -12865
▁승려 -12866
▁YOU -12867
▁라틴어 -12868
▁상체 -12869
▁Di -12870
▁MT -12871
▁차선 -12872
▁페니 -12873
▁접근성 -12874
ㄱㅅㅡ -12875
▁강판 -12876
▁전폭 -12877
▁한심 -12878
▁무전 -12879
▁마도사 -12880
▁뮬 -12881
▁연비 -12882
▁ㄷㅗㄹㄹㅣㄹ -12883
▁퍼부 -12884
사관 -12885
▁그려 -12886
▁하타 -12887
▁패기 -12888
▁King -12889
▁자신감 -12890
▁Sy -12891
▁가르침 -12892
▁후예 -12893
ㅇㅗㄹㄹㅕ -12894
▁조영 -12895
▁공산주의 -12896
▁칙 -12897
▁예장 -12898
▁총탄 -12899
▁Ang -12900
▁드라군 -12901
▁수상자 -12902
ㅈㅓㅇ -12903
▁소규모 -12904
▁일렉트로 -12905
▁최영 -12906
▁XXX -12907
▁마에다 -12908
▁노조미 -12909
▁상가 -12910
▁도요 -12911
▁정동 -12912
▁자수 -12913
▁타케시 -12914
▁EA -12915
▁기성 -12916
▁노이즈 -12917
ㄲㅜㄴㄷㅏ -12918
▁밋 -12919
이센 -12920
▁진료 -12921
▁ㅂㅜㅌㅇㅕㅆ -12922
▁매스 -12923
▁바루 -12924
▁건재 -12925
▁악용 -12926
▁파이브 -12927
▁승천 -12928
▁오로라 -12929
▁페가 -12930
▁씌 -12931
▁용맹 -12932
숨에 -12933
포드 -12934
▁리에 -12935
▁수고 -12936
▁시몬 -12937
▁적진 -12938
▁호쿠 -12939
▁단숨에 -12940
ony -12941
▁tvN -12942
▁에밀리 -12943
란트 -12944
▁첨단 -12945
▁IG -12946
대기 -12947
▁빈사 -12948
ㄲㅟㄹ -12949
ㄷㅜㄹ -12950
무기 -12951
▁리우 -12952
▁갈라 -12953
테이너 -12954
▁전리 -12955
▁ㅆㅏㅎㅇㅣㄴ -12956
▁광신 -12957
▁밀집 -12958
▁박격 -12959
▁ㄷㅚㄹㄲㅏ -12960
▁펠리 -12961
▁먹방 -12962
▁다비 -12963
▁허위 -12964
▁카타르 -12965
▁파인 -12966
▁초사 -12967
▁퇴출 -12968
▁ㄹㅜㄴ -12969
▁태조 -12970
▁0000 -12971
▁샤프 -12972
▁크루즈 -12973
▁인터페이스 -12974
로프 -12975
▁타국 -12976
▁콘티 -12977
▁생산력 -12978
▁UFC -12979
▁퇴사 -12980
▁밀란 -12981
▁말미 -12982
▁동인지 -12983
▁카무이 -12984
▁딱딱 -12985
▁서킷 -12986
▁수비진 -12987
▁타노스 -12988
▁운운 -12989
▁리쿠 -12990
▁사임 -12991
▁우아 -12992
▁안산 -12993
▁오인 -12994
▁사사키 -12995
어먹 -12996
mania -12997
▁카린 -12998
▁소극 -12999
▁대상자 -13000
▁스피커 -13001
▁STER -13002
▁플루 -13003
ma -13004
▁원내 -13005
▁와이어 -13006
▁섬기 -13007
▁안면 -13008
▁은밀 -13009
▁선대 -13010
▁실황 -13011
▁원고 -13012
▁총격 -13013
미스 -13014
▁선제골 -13015
▁드라큘라 -13016
▁로사 -13017
▁대대로 -13018
▁ㅁㅜㄹㄹㅕ -13019
▁만료 -13020
▁재위 -13021
▁옵티 -13022
▁자연수 -13023
▁재난 -13024
▁웨이트 -13025
▁저격총 -13026
▁카탈 -13027
▁ㄹㅏㅁ -13028
▁대주 -13029
▁이선 -13030
▁대출 -13031
▁솔라 -13032
▁유토 -13033
▁프랭 -13034
▁아이작 -13035
▁ㅃㅐㄴ -13036
▁투하 -13037
▁덫 -13038
▁멀쩡히 -13039
▁학회 -13040
▁Cy -13041
▁보증 -13042
▁게리온 -13043
▁카지노 -13044
▁일진 -13045
▁변질 -13046
▁ㅅㅡㅂㅎㅏㄴ -13047
곡동 -13048
타르 -13049
▁방금 -13050
▁준하 -13051
▁태세 -13052
▁Run -13053
▁ㅍㅜㄹㄹㅕㅆ -13054
▁관동 -13055
▁천계 -13056
▁1600 -13057
단체 -13058
▁벅스 -13059
▁진가 -13060
▁소용돌이 -13061
▁가브리엘 -13062
▁포럼 -13063
▁IDOL -13064
밀리아 -13065
▁치명상 -13066
▁태블릿 -13067
be -13068
▁공성전 -13069
▁카이사르 -13070
터스 -13071
▁초래 -13072
▁야쿠자 -13073
▁염려 -13074
▁목요일 -13075
▁스티커 -13076
ual -13077
▁새우 -13078
인드 -13079
▁캐롤 -13080
▁메테오 -13081
▁131 -13082
ret -13083
서야 -13084
▁생산량 -13085
▁스위트 -13086
▁든 -13087
▁부평 -13088
▁주방 -13089
▁무궁화 -13090
▁남동 -13091
▁좌표 -13092
▁축적 -13093
▁사에 -13094
▁청산 -13095
▁다단 -13096
▁마사키 -13097
▁물리학 -13098
하하 -13099
▁장편 -13100
▁마이트 -13101
회장 -13102
▁SV -13103
▁민원 -13104
▁자유자재 -13105
▁케이트 -13106
▁광복 -13107
▁아야카 -13108
▁UM -13109
▁지그 -13110
▁수요일 -13111
▁white -13112
▁머무르 -13113
▁우체국 -13114
▁샴 -13115
▁괴담 -13116
▁경성 -13117
▁칠레 -13118
▁MLB -13119
▁램프 -13120
▁서초 -13121
페르 -13122
▁벡터 -13123
▁우루과이 -13124
▁빅뱅 -13125
▁외래 -13126
▁MASTER -13127
▁전교 -13128
▁호전 -13129
▁전편 -13130
미즈 -13131
▁다중 -13132
▁don -13133
▁내야수 -13134
ecial -13135
▁단골 -13136
▁이승만 -13137
▁대각 -13138
▁ㅇㅜㅁㅈㅣㄱㅇㅣㅁ -13139
▁School -13140
▁하야토 -13141
▁동창 -13142
▁원호 -13143
▁인맥 -13144
무장 -13145
▁SO -13146
▁가축 -13147
권자 -13148
셔츠 -13149
징가 -13150
▁마징가 -13151
▁통신사 -13152
ane -13153
▁입학식 -13154
▁궁지 -13155
▁미타 -13156
▁백합 -13157
▁분기점 -13158
▁달걀 -13159
▁테이크 -13160
▁대파 -13161
▁흑화 -13162
▁결함 -13163
▁영미 -13164
▁세나 -13165
▁경매 -13166
▁박살나 -13167
▁강성 -13168
▁Rec -13169
▁마커 -13170
▁미시 -13171
마르 -13172
▁렀다 -13173
범죄 -13174
▁장타율 -13175
▁도도 -13176
▁소실 -13177
▁탄도 -13178
▁고속도 -13179
▁지상파 -13180
▁증권 -13181
▁막바지 -13182
▁홍준표 -13183
▁김전 -13184
▁way -13185
ope -13186
▁ㄷㅐㄴㄷㅏ -13187
▁ㅁㅏㄴㄷㅡㄴㄷㅏ -13188
▁Sound -13189
▁김희 -13190
▁여고생 -13191
▁합당 -13192
▁제시카 -13193
▁쉘 -13194
▁박준 -13195
▁인내 -13196
▁Art -13197
▁Arm -13198
▁마운트 -13199
▁마이너스 -13200
▁Yeah -13201
▁피에 -13202
▁피드백 -13203
▁사쿠라이 -13204
▁루카스 -13205
▁아루 -13206
티어 -13207
행위 -13208
▁일련 -13209
퇴근 -13210
▁매수 -13211
Fat -13212
▁괄 -13213
▁히노 -13214
▁깁 -13215
▁어인 -13216
▁완수 -13217
▁헌신 -13218
▁소설가 -13219
▁베가 -13220
▁계열사 -13221
니즘 -13222
어찌 -13223
▁공로 -13224
▁프로리그 -13225
▁계좌 -13226
▁이마트 -13227
ㄷㅏㄹㄹㅕ -13228
려드 -13229
▁쫓기 -13230
▁바이스 -13231
바퀴 -13232
▁레지스 -13233
▁두려워하 -13234
elf -13235
▁강적 -13236
▁리트 -13237
베르트 -13238
▁BAS -13239
▁소피아 -13240
▁박주 -13241
▁적료 -13242
▁고속버스 -13243
▁고어 -13244
▁그닥 -13245
▁ㅅㅣㅀㅇㅓ -13246
▁ㅇㅜㅅㄱㅣㄴ -13247
▁기밀 -13248
▁동래 -13249
▁당나라 -13250
▁마모루 -13251
수수 -13252
▁EM -13253
▁루이지 -13254
▁두부 -13255
▁컨트롤러 -13256
ision -13257
▁ㅌㅡㄹㅇㅓ -13258
▁깎이 -13259
▁Femme -13260
재판 -13261
▁작별 -13262
▁로스앤 -13263
▁로스앤젤레스 -13264
▁오너 -13265
▁아멜 -13266
▁Rev -13267
▁1961 -13268
▁ㅈㅏㅁㄱ -13269
▁부츠 -13270
▁Cat -13271
대교 -13272
▁리베 -13273
▁양국 -13274
▁레이터 -13275
▁스코프 -13276
▁편대 -13277
▁어찌어찌 -13278
▁부식 -13279
▁소행 -13280
아서 -13281
▁대본 -13282
▁자진 -13283
▁플래닛 -13284
▁세르비아 -13285
▁Ge -13286
▁ㄲㅡㅌㄴㅐ -13287
▁간략 -13288
▁경희 -13289
▁모친 -13290
▁슈퍼스타 -13291
▁WE -13292
▁VIP -13293
▁브라더 -13294
▁그놈 -13295
▁원천 -13296
▁아그 -13297
▁총괄 -13298
야샤 -13299
▁이누야샤 -13300
에이터 -13301
▁발칸 -13302
▁실무 -13303
▁불멸 -13304
▁싣 -13305
▁묻히 -13306
▁꽝 -13307
▁극소수 -13308
▁김전일 -13309
▁술법 -13310
▁입술 -13311
▁구마 -13312
▁비시 -13313
▁공방전 -13314
즈카 -13315
▁빨강 -13316
▁후일담 -13317
▁어드밴스 -13318
▁DO -13319
▁저리 -13320
we -13321
▁야시 -13322
▁ㄴㅗㄹ -13323
▁태그팀 -13324
내리 -13325
▁라드 -13326
▁식신 -13327
▁파산 -13328
▁카가 -13329
▁ㅃㅐㅅ -13330
▁우크라 -13331
수스 -13332
▁쿠르 -13333
▁지령 -13334
▁무작정 -13335
▁여당 -13336
▁석궁 -13337
▁페더 -13338
▁군기 -13339
▁매달 -13340
▁족장 -13341
▁사용법 -13342
▁제멋 -13343
▁경량 -13344
▁할리우드 -13345
▁기마 -13346
▁시궁 -13347
▁피처 -13348
▁발전기 -13349
Fatale -13350
▁자취 -13351
▁FemmeFatale -13352
꿈치 -13353
▁ㅇㅕㄹㄹㅕ -13354
▁진작 -13355
▁쓸데없 -13356
쿠로 -13357
▁무언 -13358
▁허세 -13359
▁아의 -13360
str -13361
▁반말 -13362
▁수락 -13363
▁들여 -13364
▁정명 -13365
▁튕 -13366
▁다이나 -13367
▁ㄲㅡㅌㄴㅏ -13368
ational -13369
▁잘리 -13370
ㅅㅐㅇㄱㅣㄴ -13371
같이 -13372
▁회화 -13373
▁고난 -13374
▁일보 -13375
▁정계 -13376
▁대잠 -13377
▁이에 -13378
▁제르 -13379
▁크로니클 -13380
▁예명 -13381
▁하세 -13382
ouse -13383
▁dis -13384
▁살아나 -13385
▁ㅎㅔㅅㄱㅏㄹ -13386
▁ㅁㅜㄷㅎㅕㅆ -13387
▁황태자 -13388
SS -13389
수아 -13390
▁가명 -13391
▁신디 -13392
▁ㄹㅕㅆ -13393
▁부도 -13394
▁성도 -13395
카즈 -13396
▁양파 -13397
▁연금술 -13398
▁에이전트 -13399
▁소진 -13400
appy -13401
▁마작 -13402
▁하워드 -13403
▁넵 -13404
▁NHK -13405
▁검은색 -13406
▁그려지 -13407
▁얼핏 -13408
AG -13409
▁섬유 -13410
▁이스터 -13411
▁헬스 -13412
▁급기야 -13413
ORE -13414
▁혼종 -13415
▁로만 -13416
▁반환 -13417
▁악세 -13418
▁스칼렛 -13419
▁키리토 -13420
▁소심 -13421
▁창업 -13422
▁효과음 -13423
▁하임 -13424
▁미츠루 -13425
▁br -13426
▁후타 -13427
▁호노카 -13428
▁화수 -13429
▁광석 -13430
▁병단 -13431
축구 -13432
▁배지 -13433
스트로 -13434
케인 -13435
▁애당초 -13436
▁유로파 -13437
▁Order -13438
▁교섭 -13439
▁상회 -13440
ness -13441
휴일 -13442
▁당원 -13443
▁점거 -13444
▁카도 -13445
▁하부 -13446
▁ㄴㅐㅆㅇㅡ -13447
투아 -13448
▁수준급 -13449
▁1100 -13450
▁삼거리 -13451
▁신주쿠 -13452
▁난전 -13453
▁팝픈 -13454
▁팝픈뮤직 -13455
제국 -13456
▁스플래시 -13457
▁키퍼 -13458
▁교주 -13459
▁택배 -13460
▁ㅇㅕㅅ -13461
▁MD -13462
▁초필 -13463
▁미지수 -13464
▁제정신 -13465
▁바하 -13466
ㅋㅣㅁ -13467
▁좌익수 -13468
ㅇㅓㄴㅈㅓㅇ -13469
라이나 -13470
▁아즈사 -13471
▁자잘 -13472
▁주범 -13473
▁주작 -13474
▁기미 -13475
▁토론토 -13476
▁천적 -13477
▁성채 -13478
▁호세 -13479
▁양키스 -13480
▁김혜 -13481
ㄷㅏㄱ -13482
▁갑작스럽 -13483
▁양현 -13484
▁엄지 -13485
▁Elect -13486
▁폭동 -13487
▁조운 -13488
▁적발 -13489
▁펄스 -13490
▁이치로 -13491
▁매진 -13492
▁코카 -13493
▁콜로니 -13494
델피아 -13495
▁필라델피아 -13496
▁소피 -13497
▁^ -13498
▁당주 -13499
▁시엘 -13500
▁정립 -13501
▁한몫 -13502
▁완전체 -13503
▁요미우리 -13504
사이드 -13505
시계 -13506
▁과부 -13507
▁미라클 -13508
▁히데요시 -13509
▁불어 -13510
▁깊숙 -13511
▁종일 -13512
inc -13513
▁다인 -13514
▁TCG -13515
▁블레이즈 -13516
▁까닭 -13517
저트 -13518
▁이안 -13519
▁EXH -13520
▁프로세서 -13521
▁기한 -13522
▁복싱 -13523
▁ㄷㅐㅆ -13524
ㄷㅜㄴㄷㅏ -13525
ㄷㅡㄹㅇㅣㄴㄷㅏ -13526
▁서드 -13527
▁피곤 -13528
▁사로잡 -13529
▁빌라 -13530
▁쓸모없 -13531
▁어비스 -13532
▁옵티머스 -13533
▁CON -13534
투수 -13535
▁연예계 -13536
▁프랑켄 -13537
▁광범 -13538
▁기온 -13539
▁ㅇㅕㄹ -13540
▁말장난 -13541
▁전리품 -13542
▁시한 -13543
▁수평 -13544
▁태종 -13545
▁프론트 -13546
▁ㅂㅏㄱㅎㅣㄴ -13547
▁본디 -13548
▁도리어 -13549
▁적색 -13550
▁선발투수 -13551
▁결장 -13552
▁대사관 -13553
▁운항 -13554
날드 -13555
▁지망 -13556
▁휴일 -13557
▁신이치 -13558
▁world -13559
데아 -13560
▁지기 -13561
▁ㅁㅏㅈㅁㅜㄹㄹㅕ -13562
▁스왑 -13563
▁양호 -13564
▁214 -13565
▁RG -13566
▁고령 -13567
▁볼프 -13568
▁후궁 -13569
▁씁 -13570
히트 -13571
▁냉전 -13572
▁조형 -13573
▁ㄷㅡㄴㄱㅏ -13574
▁일쑤 -13575
▁유포 -13576
▁She -13577
그룹 -13578
▁당기 -13579
▁스크래 -13580
▁폴더 -13581
▁리노 -13582
▁손흥 -13583
▁사이퍼 -13584
우루스 -13585
▁SHOW -13586
▁ㄴㅓㅁㄱㅣㄴ -13587
▁정은 -13588
▁경장 -13589
▁당분 -13590
▁키워드 -13591
▁강유 -13592
▁교란 -13593
IV -13594
▁맞히 -13595
▁재고 -13596
ㄷㅕ -13597
▁리브 -13598
▁따라오 -13599
▁루터 -13600
▁다이브 -13601
▁한조 -13602
day -13603
omb -13604
▁고독 -13605
▁비토 -13606
▁정거 -13607
▁1943 -13608
▁ㄱㅏㄴㅈㅣ -13609
▁산악 -13610
▁공휴일 -13611
▁스폰지 -13612
▁제식 -13613
▁휩쓸 -13614
▁밀어주 -13615
▁불사조 -13616
▁도호 -13617
its -13618
▁탄종 -13619
사의 -13620
▁성추 -13621
▁후안 -13622
▁이노우에 -13623
▁노숙 -13624
▁프런트 -13625
▁건전 -13626
▁승기 -13627
▁압살 -13628
▁유서 -13629
▁Da -13630
▁임창 -13631
▁아지트 -13632
▁언행 -13633
▁대표작 -13634
▁토하 -13635
▁손흥민 -13636
▁섭외 -13637
▁덥 -13638
▁ap -13639
▁명작 -13640
▁더스트 -13641
▁도쿠가와 -13642
▁탄소 -13643
▁예비군 -13644
▁다툼 -13645
▁코시 -13646
▁도전자 -13647
▁ㄲㅡㄹ -13648
퍼런스 -13649
▁초토 -13650
투표 -13651
▁셀프 -13652
▁naver -13653
▁정교회 -13654
인간 -13655
▁** -13656
▁340 -13657
▁정류소 -13658
▁행태 -13659
▁beatmania -13660
▁직감 -13661
▁상속 -13662
▁에리카 -13663
▁방황 -13664
▁제이드 -13665
▁1942 -13666
ham -13667
▁141 -13668
스톤 -13669
▁해수 -13670
▁확연히 -13671
▁오버로드 -13672
▁여사 -13673
▁토탈 -13674
▁박격포 -13675
▁콜라보레이션 -13676
▁미성년자 -13677
▁ㅇㅜㅁㅈㅣㄱㅇㅣㄴㄷㅏ -13678
▁텔레비전 -13679
▁트린 -13680
ious -13681
▁툼 -13682
▁사부 -13683
▁쟁탈 -13684
▁애프 -13685
▁엑소 -13686
▁ㄸㅡㄹ -13687
▁폭발물 -13688
▁좀비 -13689
▁레스터 -13690
▁ㄸㅏㄹ -13691
▁개인전 -13692
▁윌슨 -13693
댓말 -13694
▁존댓말 -13695
▁프로이센 -13696
▁공익 -13697
EX -13698
▁휘말리 -13699
▁SW -13700
▁어처 -13701
▁출퇴근 -13702
▁오클 -13703
아티아 -13704
▁크로아티아 -13705
▁게임기 -13706
▁장병 -13707
▁현명 -13708
▁불가사의 -13709
▁도피 -13710
▁캐서 -13711
세데스 -13712
▁메르세데스 -13713
▁증세 -13714
▁창당 -13715
▁서원 -13716
▁te -13717
▁폭사 -13718
▁ㅎㅓ -13719
▁셜록 -13720
▁신축 -13721
▁상대식 -13722
▁ㅅㅛ -13723
▁상권 -13724
▁양주 -13725
▁프로그래밍 -13726
▁지자 -13727
▁액세서리 -13728
▁까먹 -13729
▁글러브 -13730
▁다정 -13731
▁저번 -13732
▁Not -13733
▁광범위 -13734
▁ㄱㅏㄷㅎㅣㄴ -13735
▁진군 -13736
▁평원 -13737
▁입맛 -13738
지원 -13739
▁질리 -13740
▁캡콤 -13741
▁위즈 -13742
▁합창 -13743
▁정거장 -13744
▁러셀 -13745
▁스파르타 -13746
▁ㅇㅏㄱㅎㅏㄴ -13747
▁자연스레 -13748
▁ㅈㅝㅆㅇㅡ -13749
▁김창 -13750
▁하드코어 -13751
▁오모 -13752
▁옥타 -13753
▁군함 -13754
▁동봉 -13755
▁ㅂㅣㅊ -13756
▁술탄 -13757
▁송구 -13758
aut -13759
▁종사 -13760
▁든든 -13761
▁시그마 -13762
ivers -13763
▁스크래치 -13764
▁싱어 -13765
▁장안 -13766
▁국력 -13767
▁망가지 -13768
던트 -13769
▁반다이 -13770
▁피라미 -13771
▁이우 -13772
▁표본 -13773
▁DEF -13774
▁리액션 -13775
요환 -13776
▁ㅅㅣㄹㄹㅣㄴ -13777
▁막부 -13778
▁위탁 -13779
▁Ke -13780
▁바우 -13781
▁사이오 -13782
▁로망 -13783
▁꼬이 -13784
▁네메 -13785
▁공동체 -13786
패스 -13787
ㅇㅡㄹㅈㅣ -13788
▁With -13789
27 -13790
▁위화 -13791
▁질량 -13792
▁상반기 -13793
▁글래 -13794
▁RAW -13795
23 -13796
ERS -13797
▁프리즈 -13798
데르 -13799
▁치이 -13800
▁상표 -13801
▁윌리엄스 -13802
▁세션 -13803
▁아부 -13804
▁화자 -13805
▁브릿지 -13806
▁랫 -13807
▁마음껏 -13808
▁Every -13809
ANC -13810
olution -13811
▁ㅈㅓㅇㅎㅏㄴ -13812
▁체질 -13813
레미 -13814
▁군사력 -13815
매니아 -13816
▁ㄲㅏㅆ -13817
▁ㄴㅡㄴㄱㅜㄴ -13818
▁오재 -13819
▁정세 -13820
▁와우 -13821
▁꼭두 -13822
▁마이어 -13823
▁아역 -13824
▁임요환 -13825
▁ㅎㅡㄹㄹㅕ -13826
▁전전 -13827
▁캐서린 -13828
▁열받 -13829
▁탈옥 -13830
▁망자 -13831
▁프리스트 -13832
▁정장 -13833
▁외출 -13834
▁관념 -13835
▁체이 -13836
▁카바 -13837
▁쑥 -13838
▁재임 -13839
olog -13840
▁어처구니 -13841
▁우시 -13842
45 -13843
▁손바닥 -13844
▁ㅈㅣㄴㅈㅓ -13845
▁뢰 -13846
르기 -13847
▁ph -13848
▁왼팔 -13849
UC -13850
▁랏 -13851
▁평민 -13852
▁킹스 -13853
▁310 -13854
무늬 -13855
▁백미 -13856
▁제구 -13857
▁코이치 -13858
▁뾰 -13859
▁방정 -13860
ㅂㅈㅏ -13861
▁김준호 -13862
ㅂㅈㅏㄱㅅㅡ -13863
▁대문 -13864
라이어 -13865
▁집결 -13866
▁커리 -13867
▁윈스턴 -13868
▁ㅈㅣㄴㅈㅓㅇㅎㅏㄴ -13869
지리 -13870
▁헷갈리 -13871
▁표출 -13872
▁시즈카 -13873
▁사다 -13874
▁환각 -13875
▁원제 -13876
▁소수자 -13877
▁골리 -13878
▁신원 -13879
무니 -13880
▁if -13881
▁수원시 -13882
▁최면 -13883
▁나나미 -13884
▁구자 -13885
▁순진 -13886
▁무상 -13887
▁듀티 -13888
▁박병 -13889
▁옐로 -13890
▁피츠 -13891
▁Get -13892
▁부서지 -13893
▁낙원 -13894
▁생사 -13895
▁터트리 -13896
▁불상 -13897
▁헌데 -13898
▁경찰관 -13899
▁보답 -13900
▁나날 -13901
▁Chr -13902
▁류현진 -13903
▁1946 -13904
29 -13905
▁EB -13906
▁007 -13907
▁도모 -13908
▁정중 -13909
▁주파수 -13910
▁기하 -13911
▁촛 -13912
▁스루 -13913
66 -13914
▁짤방 -13915
▁쾌속 -13916
▁ㅉㅣㄱㅎㅣㄴ -13917
▁르네 -13918
데기 -13919
▁FR -13920
▁안나 -13921
▁가솔 -13922
▁CT -13923
▁호르 -13924
▁커터 -13925
▁해커 -13926
▁미야자키 -13927
▁분경 -13928
▁대부 -13929
▁김정은 -13930
▁최우수 -13931
▁메라 -13932
▁사과문 -13933
▁시저 -13934
▁추석 -13935
▁대명사 -13936
▁시노부 -13937
▁김세 -13938
▁줄곧 -13939
조각 -13940
ely -13941
▁TB -13942
▁가출 -13943
▁화요일 -13944
▁ㄴㅡㄴㄱㅜ -13945
ty -13946
리에 -13947
▁Har -13948
▁흡연 -13949
▁탐욕 -13950
▁자발 -13951
▁Boy -13952
▁키메라 -13953
▁무자비 -13954
▁해운대 -13955
▁반칙 -13956
나드 -13957
아아 -13958
▁토네이도 -13959
▁벵 -13960
베르토 -13961
▁비하인드 -13962
킨스 -13963
▁예배 -13964
▁양아치 -13965
마치 -13966
icro -13967
▁빡빡 -13968
ny -13969
▁기총 -13970
▁1954 -13971
▁스님 -13972
▁영화판 -13973
▁연희 -13974
▁당당히 -13975
의사 -13976
▁마더 -13977
▁담당자 -13978
▁Skill -13979
즈마 -13980
▁아폴로 -13981
▁슈타인 -13982
▁중앙선 -13983
▁바오 -13984
ters -13985
받침 -13986
▁민영 -13987
▁한스 -13988
▁홍대 -13989
▁후유증 -13990
▁720 -13991
▁금기 -13992
▁지침 -13993
▁추첨 -13994
▁켄타 -13995
▁부여받 -13996
▁Des -13997
▁맛보 -13998
▁에덴 -13999
▁무협 -14000
▁발상 -14001
▁혜성 -14002
▁1958 -14003
노기 -14004
▁육지 -14005
▁취직 -14006
베리아 -14007
▁괴도 -14008
▁>, -14009
▁방어선 -14010
▁영분 -14011
▁의미심장 -14012
▁ㄴㅓㅁㅊㅕ -14013
▁Ab -14014
▁굴복 -14015
▁리포트 -14016
▁이동하 -14017
▁걸작 -14018
▁마누 -14019
▁섬세 -14020
▁만세 -14021
▁초고 -14022
소스 -14023
▁전태 -14024
▁설득력 -14025
▁북방 -14026
▁CCTV -14027
▁단선 -14028
▁리젠 -14029
▁유대인 -14030
▁웨일 -14031
▁매복 -14032
▁추이 -14033
▁츠루 -14034
▁사마의 -14035
▁떨구 -14036
▁인즈 -14037
▁이어인 -14038
▁대용 -14039
▁예리 -14040
▁1941 -14041
▁영기 -14042
▁진흙 -14043
▁단테 -14044
테스 -14045
▁젤다 -14046
▁지름 -14047
▁만류 -14048
▁171 -14049
▁ㅈㅜㄹㅇㅣㄹ -14050
버린 -14051
▁=, -14052
▁가든 -14053
▁졸개 -14054
▁ㄷㅗㄷㅂㅗ -14055
ient -14056
▁다이어트 -14057
▁480 -14058
▁생물학 -14059
▁충성심 -14060
▁ㅍㅏㄴㄷㅏ -14061
▁꺼지 -14062
▁DA -14063
▁미디 -14064
▁체가 -14065
▁성체 -14066
▁시력 -14067
리우스 -14068
▁OO -14069
▁교화 -14070
▁부메 -14071
▁수작 -14072
▁겸하 -14073
▁기라 -14074
▁미상 -14075
ㄹㅗㅂㅎㅣㅁ -14076
▁Big -14077
▁트림 -14078
라이즈 -14079
▁잉크 -14080
▁조율 -14081
▁양념 -14082
체스 -14083
▁듀엣 -14084
▁id -14085
▁석화 -14086
▁1900 -14087
▁성녀 -14088
▁차종 -14089
▁PSP -14090
▁총사령 -14091
▁견인 -14092
▁자문 -14093
▁협곡 -14094
▁부메랑 -14095
▁카운티 -14096
▁Tri -14097
▁유행어 -14098
▁피리 -14099
▁드리프트 -14100
▁낙인 -14101
▁png -14102
▁두드 -14103
▁kn -14104
▁선공 -14105
▁임관 -14106
▁라오 -14107
▁복음 -14108
▁라자 -14109
▁클락 -14110
▁튜너 -14111
▁제이스 -14112
▁오피스 -14113
▁181 -14114
▁ㄷㅗㄹㄹㅕㅆ -14115
▁ㄲㅡㅀ -14116
▁8000 -14117
▁ㅂㅜㅌㅈㅏㅂㅎㅕ -14118
▁세간 -14119
▁ㅈㅜㅁ -14120
▁경쟁력 -14121
▁UR -14122
▁데카 -14123
▁문헌 -14124
▁바바 -14125
▁빅터 -14126
▁ㅌㅡㄹㄹㅕㅆ -14127
▁수다 -14128
▁이과 -14129
크리트 -14130
▁DT -14131
▁시동 -14132
▁입체 -14133
ful -14134
uch -14135
▁기만 -14136
▁만회 -14137
▁태연 -14138
▁채소 -14139
▁동참 -14140
▁어워드 -14141
▁미련 -14142
▁군벌 -14143
칼리 -14144
▁씁쓸 -14145
▁상원 -14146
▁스탠다드 -14147
▁파장 -14148
ㄷㅣㅈ -14149
▁연혁 -14150
▁격돌 -14151
▁원격 -14152
▁조장 -14153
▁고분 -14154
▁천황 -14155
▁갈기 -14156
▁샤이닝 -14157
▁방랑 -14158
ㄱㅜㄴㅈㅣ -14159
▁봉기 -14160
▁염소 -14161
▁초식 -14162
▁Ext -14163
▁스펙터 -14164
▁난동 -14165
▁ㄴㅗㄱㅇㅕ -14166
▁모라 -14167
▁ㅎㅟㅂㅆㅏ -14168
▁어둡 -14169
ㄴㅜㄴ -14170
무진 -14171
▁XP -14172
▁부화 -14173
▁오디 -14174
▁가치관 -14175
bl -14176
▁격노 -14177
▁성모 -14178
▁귀중 -14179
클레스 -14180
▁생몰 -14181
▁증원 -14182
▁직관 -14183
토시 -14184
프레스 -14185
▁창의 -14186
▁통용 -14187
▁RS -14188
ship -14189
기업 -14190
▁봉황 -14191
▁기관차 -14192
▁접어들 -14193
▁원년 -14194
85 -14195
▁성균 -14196
▁선체 -14197
▁유감 -14198
▁ㅃㅓㄴ -14199
▁가토 -14200
▁STAR -14201
▁아제 -14202
▁제비 -14203
▁츠카사 -14204
▁박세 -14205
▁윤종 -14206
▁자위대 -14207
▁되살 -14208
▁성균관 -14209
▁만두 -14210
▁뭉치 -14211
▁송병 -14212
▁샤아 -14213
▁양면 -14214
▁회고 -14215
▁장기간 -14216
테리 -14217
▁퍼스 -14218
▁ㅉㅣㄱㅎㅕ -14219
▁나츠미 -14220
자카 -14221
▁겨루 -14222
▁학창 -14223
▁이성계 -14224
▁ㄱㅏㅂㅈㅏㄱㅅㅡ -14225
▁1948 -14226
▁갈래 -14227
▁비숍 -14228
▁디테일 -14229
슬러 -14230
▁잠복 -14231
▁ㅁㅏㄹㄹㅏ -14232
▁흑백 -14233
▁역기 -14234
▁qu -14235
▁풍자 -14236
▁클로즈 -14237
ㅅㅣㄴㄷㅏ -14238
▁려 -14239
▁송이 -14240
▁255 -14241
▁ㅂㅏㄷㅊㅕ -14242
▁느긋 -14243
▁배분 -14244
▁정인 -14245
▁수리검 -14246
리케이션 -14247
▁Inf -14248
▁모호 -14249
▁히로유키 -14250
▁조제 -14251
▁벌칙 -14252
▁Bar -14253
▁Sil -14254
▁우익수 -14255
▁ㄱㅏㄹㄹㅕ -14256
▁타라 -14257
▁서커스 -14258
▁프레디 -14259
▁웍 -14260
▁시궁창 -14261
▁군산 -14262
▁퇴근 -14263
▁알아채 -14264
레트 -14265
▁KS -14266
▁베니 -14267
▁청량 -14268
▁그리스도 -14269
정역 -14270
▁ㄲㅕ -14271
▁전년 -14272
틀리 -14273
▁왕궁 -14274
▁텔레콤 -14275
ㄴㅏㅁ -14276
▁아테네 -14277
▁커브 -14278
▁OR -14279
▁White -14280
▁손녀 -14281
▁오드 -14282
니트 -14283
▁토템 -14284
▁다이너 -14285
▁불리우 -14286
▁판도라 -14287
버릇 -14288
▁뽑히 -14289
▁진과 -14290
▁Win -14291
▁솔로몬 -14292
▁프레데 -14293
▁요일 -14294
▁창시 -14295
▁송도 -14296
▁Back -14297
ump -14298
▁크래 -14299
▁농어 -14300
▁스테이트 -14301
▁바쁘 -14302
co -14303
▁여의도 -14304
▁좀처럼 -14305
▁작렬 -14306
ㅅㅠ -14307
혁명 -14308
공격 -14309
ㅇㅝㅆㅇㅡ -14310
▁왕따 -14311
▁콘크리트 -14312
▁파키스탄 -14313
▁치중 -14314
▁PO -14315
모사 -14316
산물 -14317
▁ㄷㅡㄹㅇㅣ -14318
26 -14319
▁타쿠미 -14320
러드 -14321
▁착하 -14322
▁바이올린 -14323
▁특촬 -14324
▁공병 -14325
▁피에르 -14326
▁쩔 -14327
▁재팬 -14328
▁ㄷㅓㄴㅈㅣㄹ -14329
▁하와이 -14330
튀기 -14331
ift -14332
▁접시 -14333
▁태고 -14334
▁PM -14335
▁바늘 -14336
▁연루 -14337
▁jp -14338
▁단신 -14339
▁고양시 -14340
▁폭포 -14341
▁샨 -14342
▁아틀레 -14343
▁최전 -14344
▁Fre -14345
▁간식 -14346
▁down -14347
▁박민 -14348
▁뻥튀기 -14349
▁초원 -14350
▁제이크 -14351
▁NG -14352
▁나기사 -14353
▁ㅎㅏㄹㄹㅕ -14354
기지 -14355
호도 -14356
노미야 -14357
RAM -14358
▁초급 -14359
▁허영 -14360
▁420 -14361
▁이윽 -14362
▁실험실 -14363
틀링 -14364
▁학계 -14365
▁이윽고 -14366
▁215 -14367
▁러블리 -14368
도스 -14369
▁색채 -14370
▁마비노기 -14371
▁제멋대로 -14372
▁금전 -14373
▁지독 -14374
▁GL -14375
▁카세 -14376
▁관악 -14377
▁맥도 -14378
▁어지간히 -14379
▁맏 -14380
▁갈고리 -14381
ENT -14382
▁백색 -14383
▁심리학 -14384
▁텐션 -14385
▁컨테이너 -14386
▁집정 -14387
▁소음기 -14388
▁어중간 -14389
▁횡단 -14390
▁거주지 -14391
▁켄이치 -14392
▁FE -14393
▁도타 -14394
▁off -14395
▁1949 -14396
▁뫼 -14397
▁앞마당 -14398
▁우기 -14399
마츠 -14400
▁오덕 -14401
▁하르 -14402
▁사토시 -14403
ATION -14404
▁친밀 -14405
▁트레이서 -14406
▁every -14407
▁서독 -14408
▁포털 -14409
▁수소 -14410
▁포고 -14411
레인지 -14412
▁사육 -14413
▁Met -14414
ㄱㅣㅁ -14415
▁강변 -14416
▁욕구 -14417
▁자드 -14418
▁기쁘 -14419
▁실천 -14420
edia -14421
▁정유 -14422
▁자손 -14423
▁시구 -14424
▁헤딩 -14425
▁쇼핑몰 -14426
▁성서 -14427
▁성폭행 -14428
각시 -14429
▁나츠키 -14430
▁빌미 -14431
득점 -14432
▁Sky -14433
모니 -14434
바위 -14435
▁Hey -14436
▁가차 -14437
▁테크노 -14438
▁열풍 -14439
▁인장 -14440
▁틀림 -14441
▁하코 -14442
링크 -14443
▁쇠퇴 -14444
▁유엔 -14445
▁CEO -14446
▁나고 -14447
▁육박 -14448
▁인프라 -14449
▁듬 -14450
▁라운 -14451
▁아론 -14452
▁선구 -14453
▁안도 -14454
▁인기투표 -14455
▁끼어들 -14456
▁양동 -14457
▁제휴 -14458
▁이승엽 -14459
▁남용 -14460
▁생겨나 -14461
▁변종 -14462
▁최성 -14463
ALL -14464
▁병맛 -14465
▁208 -14466
▁현존 -14467
▁럽 -14468
▁무의 -14469
▁오퍼레이터 -14470
ㅁㅓ -14471
▁광부 -14472
▁235 -14473
▁Act -14474
돌리 -14475
▁서진 -14476
▁동선 -14477
▁ㅍㅐㄴ -14478
ERT -14479
▁파업 -14480
▁UFO -14481
▁}{ -14482
▁거물 -14483
▁FN -14484
▁패거리 -14485
▁대한항공 -14486
▁향수 -14487
▁거제 -14488
▁편제 -14489
▁육식 -14490
▁수배 -14491
ㄲㅗ -14492
▁1936 -14493
▁시중 -14494
▁체이스 -14495
▁비늘 -14496
▁돌아보 -14497
케이 -14498
▁뇌격 -14499
▁대여 -14500
▁대머리 -14501
▁런닝맨 -14502
▁바시 -14503
▁정현 -14504
▁333 -14505
▁갭 -14506
BM -14507
▁삽화 -14508
▁사다리 -14509
▁ㅁㅏㄱㅎㅣㄴ -14510
▁하렘 -14511
oud -14512
▁피어 -14513
▁출생지 -14514
▁도르트 -14515
사우루스 -14516
▁병영 -14517
드래 -14518
▁메소 -14519
▁줍 -14520
여행 -14521
▁ve -14522
▁마장 -14523
▁처단 -14524
▁FX -14525
less -14526
▁유쾌 -14527
ㄴㅘㅆ -14528
▁비행선 -14529
▁That -14530
▁ㄹㅏㄹㄲㅏ -14531
▁TD -14532
니스탄 -14533
▁206 -14534
▁철회 -14535
지대 -14536
▁덩크 -14537
네트 -14538
▁아픔 -14539
어쓰 -14540
ize -14541
▁카멜 -14542
▁NL -14543
▁본국 -14544
▁코지마 -14545
▁아이리 -14546
▁펼쳐지 -14547
▁합방 -14548
▁개틀링 -14549
▁어머 -14550
▁난폭 -14551
▁Song -14552
▁초동 -14553
▁세츠나 -14554
▁넘어오 -14555
▁em -14556
▁김하 -14557
▁살라 -14558
▁항속 -14559
▁극찬 -14560
▁넘쳐 -14561
린스 -14562
▁나루호도 -14563
95 -14564
▁비약 -14565
변속기 -14566
▁디스코 -14567
▁기겁 -14568
▁오마주 -14569
▁설사 -14570
▁심플 -14571
▁con -14572
천동 -14573
▁경인 -14574
▁참패 -14575
▁May -14576
▁성문 -14577
▁메스 -14578
▁키바 -14579
▁미쓰 -14580
공화국 -14581
▁문의 -14582
▁늘어놓 -14583
▁아울러 -14584
bps -14585
의회 -14586
▁영리 -14587
▁속옷 -14588
▁피라미드 -14589
▁커넥 -14590
▁젊은이 -14591
방향 -14592
▁161 -14593
▁불태우 -14594
▁멸자 -14595
▁메아리 -14596
▁김인 -14597
▁헛소리 -14598
▁마츠모토 -14599
▁와일드카드 -14600
▁성검 -14601
▁ㅊㅜㄴ -14602
▁누마 -14603
▁소이 -14604
VEL -14605
▁계보 -14606
ㅁㅏㅇㅊㅕㅆ -14607
▁개드 -14608
▁베라 -14609
▁유목 -14610
▁ㄲㅡㅌㄴㅐㅆ -14611
ape -14612
▁라트 -14613
▁팀킬 -14614
▁GAM -14615
▁850 -14616
▁상대편 -14617
▁위나라 -14618
▁마그마 -14619
▁내년 -14620
▁슬퍼 -14621
▁스플릿 -14622
UB -14623
▁얼리 -14624
▁우로 -14625
▁리오스 -14626
▁얀데레 -14627
▁김태균 -14628
▁배급사 -14629
▁페인트 -14630
▁want -14631
▁유우야 -14632
▁God -14633
▁감시자 -14634
▁데이브 -14635
▁ㅇㅣㄴㄷㅏ -14636
▁명인 -14637
▁크러 -14638
▁끝판 -14639
▁표방 -14640
▁풀백 -14641
▁좌석버스 -14642
▁송곳 -14643
▁스릴 -14644
▁정벌 -14645
ger -14646
▁장래 -14647
▁카에데 -14648
▁가까스로 -14649
▁밴시 -14650
▁불가리아 -14651
IST -14652
타자 -14653
▁ㅍㅏㄹㄹㅕ -14654
96 -14655
▁토와 -14656
▁일자리 -14657
▁야기 -14658
▁다나카 -14659
▁ㅇㅣㅂㅎㅕ -14660
▁디에 -14661
▁모터스 -14662
▁벽돌 -14663
▁여진 -14664
▁선발전 -14665
▁도마뱀 -14666
▁Rain -14667
▁북극 -14668
aka -14669
▁독성 -14670
▁호대 -14671
▁RAM -14672
▁소인 -14673
▁이복 -14674
▁끌어들이 -14675
▁되려 -14676
▁영장 -14677
▁오미 -14678
실히 -14679
ita -14680
▁언락 -14681
▁영창 -14682
▁손수 -14683
▁ㅈㅣㄴㅎㅐ -14684
▁무법 -14685
▁비욘 -14686
▁징병 -14687
▁인피니트 -14688
때로 -14689
▁지아 -14690
▁청색 -14691
▁북두 -14692
▁성주 -14693
▁290 -14694
▁플라워 -14695
▁ㅇㅣㅂㅎㅣㄴ -14696
▁경위 -14697
▁복종 -14698
▁어린애 -14699
ㄱㅏㅆㅇㅡ -14700
▁마드 -14701
▁도르트문트 -14702
zy -14703
▁RF -14704
▁불운 -14705
▁신시 -14706
▁정렬 -14707
▁심심찮 -14708
▁눕 -14709
모자 -14710
▁난해 -14711
▁Top -14712
▁무난히 -14713
▁망원 -14714
76 -14715
▁수레 -14716
ORM -14717
▁단간 -14718
▁여건 -14719
▁알프레 -14720
▁서면 -14721
▁열전 -14722
▁하데스 -14723
▁친일 -14724
▁당분간 -14725
▁코스타 -14726
▁페로 -14727
▁임하 -14728
▁헤매 -14729
▁좆 -14730
▁." -14731
▁선도 -14732
▁대강 -14733
▁고려대 -14734
▁마니 -14735
▁포이 -14736
ㅇㅘㅆㅇㅓㅆ -14737
▁퀑 -14738
▁more -14739
▁콘테 -14740
▁우습 -14741
▁대각선 -14742
▁젯 -14743
▁데이즈 -14744
레인저 -14745
rop -14746
▁한가 -14747
▁정규군 -14748
▁울부 -14749
▁절묘 -14750
▁책임자 -14751
▁석탄 -14752
▁야채 -14753
▁유추 -14754
▁칼럼 -14755
▁줄줄이 -14756
연합 -14757
▁버디 -14758
▁순교자 -14759
▁Pe -14760
운전 -14761
▁남구 -14762
▁WAR -14763
▁친위대 -14764
▁이제동 -14765
▁전용기 -14766
▁내륙 -14767
▁역학 -14768
▁위화감 -14769
ㅇㅏㅅㄱㅣㄴ -14770
▁바실 -14771
▁피고 -14772
▁축구단 -14773
암동 -14774
▁1955 -14775
▁스몰 -14776
▁존속 -14777
▁게리 -14778
토록 -14779
기어 -14780
▁드레이크 -14781
▁Battle -14782
▁스케치 -14783
▁자부심 -14784
▁특공대 -14785
버거 -14786
▁즐거 -14787
▁라이터 -14788
▁꼭두각시 -14789
무스 -14790
▁매트릭스 -14791
작전 -14792
IGHT -14793
▁이따 -14794
▁갑판 -14795
▁칭송 -14796
▁Moon -14797
▁미셸 -14798
▁역전승 -14799
▁ㅈㅣㄹㄹㅓ -14800
▁중성 -14801
▁Game -14802
ㄸㅐ -14803
포스 -14804
▁허구 -14805
▁화속 -14806
▁가창력 -14807
bo -14808
▁최재 -14809
net -14810
▁두들 -14811
▁일직 -14812
ward -14813
비우스 -14814
▁행동력 -14815
▁코로나 -14816
▁노브 -14817
ara -14818
▁선풍 -14819
▁총통 -14820
▁TEC -14821
▁성추행 -14822
▁플레이트 -14823
▁곡선 -14824
▁과실 -14825
row -14826
▁이신 -14827
▁튕기 -14828
▁인테르 -14829
OK -14830
▁뚫리 -14831
▁호타 -14832
▁영락 -14833
▁스케이팅 -14834
블랜드 -14835
com -14836
▁분사 -14837
▁새로이 -14838
▁클리블랜드 -14839
ren -14840
▁SUP -14841
▁킬로 -14842
리아나 -14843
▁경이 -14844
▁골대 -14845
▁인민공화국 -14846
메다 -14847
▁허리케인 -14848
▁Dragon -14849
▁새해 -14850
▁ㅊㅏㄹ -14851
▁KG -14852
▁레트 -14853
▁카야 -14854
▁태수 -14855
▁나데 -14856
▁내심 -14857
▁212 -14858
버드 -14859
▁독재자 -14860
▁반자동 -14861
▁틀어 -14862
▁유명세 -14863
▁NS -14864
▁터미네이터 -14865
▁max -14866
▁ㄸㅟㄹ -14867
▁경호원 -14868
▁북유럽 -14869
▁안기 -14870
▁밸리 -14871
▁개드립 -14872
▁LS -14873
▁의리 -14874
▁코나미 -14875
▁진나라 -14876
▁데프 -14877
▁Bra -14878
▁오반 -14879
▁왕녀 -14880
▁치부 -14881
▁강당 -14882
▁본문 -14883
▁흑룡 -14884
▁1959 -14885
▁생각나 -14886
▁루시퍼 -14887
▁광저우 -14888
▁울부짖 -14889
클리 -14890
▁부과 -14891
led -14892
▁대담 -14893
▁소중히 -14894
▁캬 -14895
▁밀어붙이 -14896
▁나고야 -14897
▁알아듣 -14898
▁교육부 -14899
▁they -14900
러기 -14901
▁LCD -14902
▁팩토리 -14903
▁가메 -14904
▁니키 -14905
▁추월 -14906
부대 -14907
▁피겨 -14908
▁가솔린 -14909
▁사이언 -14910
▁티코 -14911
짜기 -14912
▁Special -14913
니엄 -14914
▁보단 -14915
▁김현수 -14916
▁치타 -14917
▁토요타 -14918
▁푸른 -14919
▁관제 -14920
▁할당 -14921
▁베이스볼 -14922
▁해임 -14923
▁호스트 -14924
▁목표물 -14925
▁크림슨 -14926
▁발산 -14927
▁원동 -14928
▁조달 -14929
▁밀레니엄 -14930
▁ㅇㅣㄹㄹㅓ -14931
▁광화 -14932
▁자석 -14933
▁파괴자 -14934
▁민지 -14935
▁협공 -14936
▁ㅈㅣㄹㄹㅕ -14937
▁잔당 -14938
▁ㅇㅏㄹㄹㅣㅁ -14939
▁앙리 -14940
▁요건 -14941
▁ㅂㅡㄴ -14942
▁핵무기 -14943
▁001 -14944
테나 -14945
▁도미니 -14946
▁연방군 -14947
▁온전히 -14948
▁서점 -14949
▁와이드 -14950
▁마티 -14951
코프 -14952
▁십상 -14953
▁의석 -14954
▁서울역 -14955
▁플로리 -14956
aven -14957
▁스트레이트 -14958
▁탤 -14959
▁펜스 -14960
▁데이빗 -14961
▁전투원 -14962
▁가변 -14963
▁지갑 -14964
▁ㄴㅓㅁㄱㅣㄹ -14965
▁무성 -14966
히사 -14967
▁광양 -14968
▁종자 -14969
럭스 -14970
▁1956 -14971
▁떠들 -14972
▁마포 -14973
▁단단히 -14974
▁슬퍼하 -14975
▁행선 -14976
▁이치카 -14977
▁카트라이더 -14978
▁빈스 -14979
▁베드 -14980
▁우사 -14981
▁쿠미 -14982
▁활주 -14983
▁아산 -14984
▁뒷받침 -14985
▁강연 -14986
▁서사 -14987
▁주군 -14988
▁특허 -14989
▁슐 -14990
▁wiz -14991
▁Hot -14992
LD -14993
▁레고 -14994
▁무심 -14995
▁Amer -14996
▁미완 -14997
▁ㅍㅕㅇㅎㅐㅆ -14998
▁피니시 -14999
▁뮤즈 -15000
▁머들 -15001
▁벨벳 -15002
▁기와 -15003
▁레미 -15004
▁협약 -15005
▁카즈키 -15006
▁안드로메다 -15007
▁신공 -15008
▁장막 -15009
▁Pop -15010
▁부회장 -15011
▁Track -15012
카스 -15013
▁등산 -15014
▁심리전 -15015
▁사파이어 -15016
패드 -15017
▁ㄴㅏㄹㄹㅣㄹ -15018
하이 -15019
▁저거 -15020
▁조회 -15021
▁DAY -15022
▁플러그 -15023
▁임프 -15024
▁tw -15025
▁귀도 -15026
▁탈것 -15027
▁인분 -15028
▁칠흑 -15029
▁토의 -15030
▁나시 -15031
▁석방 -15032
▁스켈 -15033
▁FFFF -15034
▁온화 -15035
▁ㅁㅗㄹㄹㅣㄴ -15036
▁ㅉㅏㄴ -15037
▁오스카 -15038
▁이상민 -15039
▁입성 -15040
▁포르노 -15041
ㄴㅜ -15042
▁TG -15043
▁코리 -15044
▁파드 -15045
ㅂㅇㅓ -15046
▁두드러지 -15047
▁국사 -15048
누르 -15049
▁음양 -15050
▁게이밍 -15051
▁아란 -15052
▁합산 -15053
▁랄프 -15054
▁백신 -15055
▁선진국 -15056
▁발간 -15057
▁신령 -15058
▁유민 -15059
▁차남 -15060
▁익스트림 -15061
내기 -15062
지기 -15063
▁점하 -15064
바키아 -15065
▁계약자 -15066
▁뺏기 -15067
▁이시다 -15068
▁택하 -15069
▁Cont -15070
▁바이올렛 -15071
▁첩보 -15072
▁에스파 -15073
▁대적 -15074
▁1939 -15075
▁적정 -15076
▁경신 -15077
▁마늘 -15078
▁이분 -15079
▁나폴리 -15080
왜란 -15081
▁가네 -15082
▁우와 -15083
▁트리오 -15084
▁TN -15085
▁네메시스 -15086
▁단절 -15087
▁프랑스군 -15088
▁각기 -15089
▁주스 -15090
▁리바이 -15091
▁임진왜란 -15092
▁얽 -15093
▁아치 -15094
▁사면 -15095
▁멧돼지 -15096
▁마고 -15097
▁빵빵 -15098
▁역관 -15099
지물 -15100
▁황무지 -15101
▁내려놓 -15102
▁증후 -15103
play -15104
▁위인 -15105
▁와타루 -15106
▁". -15107
▁감도 -15108
▁초회 -15109
ㄱㅇㅏ -15110
ands -15111
▁Yes -15112
▁명령어 -15113
▁팔꿈치 -15114
▁내려찍 -15115
▁너구리 -15116
▁금성 -15117
▁오피 -15118
▁기병대 -15119
▁패트릭 -15120
▁모티 -15121
▁이화 -15122
▁광주광역시 -15123
▁207 -15124
렉트 -15125
▁이지스 -15126
34 -15127
▁화장품 -15128
그래 -15129
▁교재 -15130
▁차세대 -15131
▁창세기 -15132
▁ㅌㅗㅇㅎㅏㄴㄷㅏ -15133
▁황자 -15134
다르 -15135
▁플라잉 -15136
▁baby -15137
▁노랑 -15138
▁꺼리 -15139
▁뾰족 -15140
▁위생 -15141
▁COM -15142
두근 -15143
▁단백 -15144
▁의대 -15145
▁청동 -15146
▁밀려나 -15147
▁외야 -15148
▁풋볼 -15149
▁동물원 -15150
▁티탄 -15151
▁단말기 -15152
쿠버 -15153
▁네모 -15154
▁불기 -15155
▁따라다니 -15156
ze -15157
▁구세 -15158
▁넵튠 -15159
▁기타리스트 -15160
▁매지컬 -15161
▁분자 -15162
▁새신 -15163
▁터무니 -15164
▁래스 -15165
▁서문 -15166
▁520 -15167
▁슈타 -15168
▁네타 -15169
▁유세 -15170
▁푸드 -15171
▁각색 -15172
▁에우 -15173
▁겉보기 -15174
▁good -15175
▁바사 -15176
▁초중 -15177
▁인신 -15178
바시 -15179
▁로자 -15180
▁망가 -15181
▁루리웹 -15182
▁ㅅㅏㄹㄹㅣㄹ -15183
▁777 -15184
ien -15185
▁이터널 -15186
▁지휘자 -15187
▁채굴 -15188
▁over -15189
그레 -15190
▁영재 -15191
▁트레버 -15192
▁박기 -15193
ㅊㅐㅆ -15194
▁타협 -15195
▁ㄱㅏㅁㅆㅏ -15196
▁붕대 -15197
▁무언가 -15198
▁나우 -15199
▁PA -15200
아스 -15201
ㄹㅏㄹ -15202
▁고스란히 -15203
교육 -15204
용차 -15205
▁타츠야 -15206
▁동거 -15207
캐스트 -15208
▁제품군 -15209
▁재해 -15210
큐버스 -15211
▁BASIC -15212
▁들통 -15213
▁체급 -15214
▁상정 -15215
▁문호 -15216
▁친근 -15217
▁조비 -15218
▁포화 -15219
방사기 -15220
▁화염방사기 -15221
▁천체 -15222
ited -15223
▁그래프 -15224
▁최적화 -15225
▁그지 -15226
▁송파 -15227
▁철벽 -15228
▁ㅋㅓㄹ -15229
▁항로 -15230
▁Mir -15231
▁집정관 -15232
▁저러 -15233
▁단연 -15234
▁자의 -15235
▁독설 -15236
▁비정 -15237
▁..' -15238
▁ㄷㅐㄴ -15239
▁IDOLM -15240
▁청하 -15241
▁보유자 -15242
▁도널드 -15243
▁성급 -15244
▁애프터 -15245
▁정제 -15246
▁ㄷㅓㅁㅂㅕ -15247
▁배럴 -15248
▁일부분 -15249
▁구치 -15250
▁로로 -15251
▁한결 -15252
▁동포 -15253
▁호라이 -15254
▁크레이지 -15255
▁블라디미르 -15256
▁209 -15257
▁ㄱㅝㄴ -15258
▁작살 -15259
▁강호동 -15260
▁다트 -15261
▁김택용 -15262
▁전투복 -15263
▁ㅁㅣㄹㅊㅕ -15264
준호 -15265
▁상류 -15266
둘기 -15267
위치 -15268
▁그토록 -15269
▁소모품 -15270
▁미공 -15271
▁Bur -15272
▁감속 -15273
▁순순 -15274
거진 -15275
파니 -15276
▁다이렉트 -15277
▁심슨 -15278
▁배틀필드 -15279
au -15280
▁~' -15281
▁선비 -15282
▁장동민 -15283
중국 -15284
▁이가 -15285
▁터리 -15286
▁중령 -15287
▁col -15288
▁사시 -15289
▁선명 -15290
▁일갈 -15291
▁Project -15292
▁억압 -15293
▁끌어올리 -15294
▁사설 -15295
블랑 -15296
▁휴전 -15297
▁로드리 -15298
▁버니 -15299
ㅁㅣㄴ -15300
로이 -15301
▁탈리 -15302
▁끌어내 -15303
▁콜롬비아 -15304
▁ㅅㅏㄹㄹㅣㄴ -15305
▁골리앗 -15306
▁로마자 -15307
▁민병대 -15308
▁TF -15309
▁투타 -15310
▁김영삼 -15311
▁대제 -15312
▁류지 -15313
▁시세 -15314
▁ㄴㅏㅁㄱㅣㄴㄷㅏ -15315
▁당근 -15316
▁모방 -15317
▁전류 -15318
▁스탠딩 -15319
▁Sur -15320
▁간장 -15321
▁신촌 -15322
▁장단 -15323
▁1400 -15324
▁안토니오 -15325
▁미유 -15326
36 -15327
▁비범 -15328
▁정직 -15329
▁단거리 -15330
▁시프트 -15331
▁마코 -15332
▁주성 -15333
▁이어폰 -15334
▁시제 -15335
▁Off -15336
▁가가 -15337
ㅡㄹㄹㅣㄴㄷㅏ -15338
▁백수 -15339
▁차마 -15340
▁솔리드 -15341
▁최우선 -15342
▁탄수 -15343
▁yeah -15344
ㄱㅏㅁ -15345
▁황족 -15346
ius -15347
▁어기 -15348
▁긴장감 -15349
▁세이지 -15350
▁관대 -15351
▁현질 -15352
드리히 -15353
▁쭈 -15354
▁군중 -15355
▁운전자 -15356
▁반짝이 -15357
▁행정부 -15358
▁비즈니스 -15359
▁톡톡 -15360
▁투기 -15361
긋나 -15362
▁사바 -15363
▁창원시 -15364
▁ㅊㅐㄱㅇㅣㅁ -15365
▁콥 -15366
▁증후군 -15367
▁랜디 -15368
▁무어 -15369
▁정진 -15370
▁군단장 -15371
▁역전패 -15372
▁노마 -15373
▁써니 -15374
▁이나즈마 -15375
▁ㄴㅗㄹㄹㅏㄴㄷㅏ -15376
21 -15377
▁나탈 -15378
▁칸나 -15379
▁인스 -15380
▁ㅅㅓㅆ -15381
▁KD -15382
▁자민 -15383
▁락스 -15384
▁아노 -15385
▁글리 -15386
▁노사 -15387
▁정연 -15388
▁침식 -15389
▁유스케 -15390
▁결별 -15391
▁주시 -15392
▁사카모토 -15393
▁출세 -15394
▁아르테 -15395
▁FFFFFF -15396
▁ㅇㅗㄻㄱㅣㄴ -15397
▁제네시스 -15398
▁체조 -15399
▁대두 -15400
▁미토 -15401
▁선형 -15402
▁탈탈 -15403
▁Bad -15404
▁프론티어 -15405
▁아르메 -15406
▁치히로 -15407
▁심포 -15408
▁액트 -15409
oney -15410
HD -15411
UK -15412
▁루드 -15413
▁에로게 -15414
ata -15415
▁마호 -15416
▁매사 -15417
▁분전 -15418
▁템플러 -15419
AA -15420
▁동대문 -15421
▁전갈 -15422
▁천도 -15423
▁스탠스 -15424
ㅁㅏㅇㅊㅣㄴ -15425
▁저력 -15426
▁WOR -15427
▁안중 -15428
▁1938 -15429
▁가산 -15430
▁공석 -15431
▁엠파이어 -15432
▁bo -15433
▁격하 -15434
▁산화 -15435
▁순순히 -15436
▁코브라 -15437
▁단조 -15438
▁노이 -15439
▁매개 -15440
▁배척 -15441
ㄲㅡㄴ -15442
ㄴㅜㄹ -15443
▁구애 -15444
▁관건 -15445
▁지체 -15446
▁피버 -15447
▁파열 -15448
▁데뷔작 -15449
▁Po -15450
▁명품 -15451
▁학업 -15452
▁유노 -15453
틱스 -15454
▁Int -15455
▁결투장 -15456
▁프리드리히 -15457
▁페루 -15458
드래곤 -15459
준혁 -15460
방식 -15461
페스트 -15462
▁ac -15463
▁버즈 -15464
▁치프 -15465
▁리조트 -15466
INE -15467
제이 -15468
▁산산 -15469
▁섹터 -15470
▁비올 -15471
vent -15472
마트 -15473
▁현행 -15474
▁Are -15475
▁티나 -15476
▁졸지 -15477
▁단번에 -15478
▁메이크 -15479
▁몰려오 -15480
▁영령 -15481
▁조류 -15482
▁오아 -15483
▁자본주의 -15484
감치 -15485
▁올리버 -15486
▁ㅁㅕㄴㅇㅡㄴ -15487
▁Ul -15488
▁응징 -15489
▁조로 -15490
▁마리사 -15491
▁걸스 -15492
▁멀린 -15493
찌감치 -15494
▁때때로 -15495
▁메두사 -15496
▁튜브 -15497
▁DDR -15498
토미 -15499
▁입법 -15500
▁say -15501
▁꼼짝 -15502
▁외래어 -15503
▁어도 -15504
▁두께 -15505
▁총구 -15506
▁ㅈㅏㅁㄱㅡㅁ -15507
고루 -15508
▁275 -15509
▁성유 -15510
▁카논 -15511
▁츠바키 -15512
▁#, -15513
▁WCS -15514
▁하늘색 -15515
▁잿 -15516
▁외침 -15517
▁마공 -15518
line -15519
▁즉석 -15520
▁ㄷㅏㄱ -15521
▁다이크 -15522
▁블루스 -15523
▁애틀 -15524
▁노스케 -15525
▁팻 -15526
컨대 -15527
▁샌디 -15528
▁Ass -15529
▁음모론 -15530
▁JC -15531
▁쳐들 -15532
▁대장장이 -15533
▁브리핑 -15534
▁광학 -15535
비언 -15536
▁'- -15537
▁소량 -15538
▁갱단 -15539
▁완주 -15540
▁프라이즈 -15541
▁TWICE -15542
▁PvP -15543
▁법무부 -15544
▁아츠시 -15545
▁신한은행 -15546
▁쓸어버리 -15547
▁ㅁㅗㄹㄹㅕㅆ -15548
▁로미 -15549
▁베른 -15550
홍철 -15551
▁org -15552
▁몰아내 -15553
▁용품 -15554
▁만화책 -15555
▁가와 -15556
▁괴멸 -15557
▁시발 -15558
▁221 -15559
툭튀 -15560
▁치아 -15561
▁쿼드 -15562
▁행각 -15563
▁릭스 -15564
▁애틀랜 -15565
UL -15566
▁래쉬 -15567
▁몬테 -15568
▁건립 -15569
▁수뇌 -15570
▁사생활 -15571
▁노후 -15572
▁레베 -15573
▁재혼 -15574
ague -15575
▁란트 -15576
▁교직원 -15577
▁노동당 -15578
▁ㅎㅏㄴㄱㅏ -15579
▁즘 -15580
규어 -15581
▁갑툭튀 -15582
▁폭투 -15583
세이더 -15584
▁AMD -15585
▁ㅃㅏㄹㄹㅕ -15586
▁크루세이더 -15587
▁캉 -15588
▁발트 -15589
▁패미컴 -15590
▁거유 -15591
▁정자 -15592
▁에프 -15593
▁폭군 -15594
▁부합 -15595
▁최진 -15596
ton -15597
▁케미 -15598
▁see -15599
▁Eng -15600
▁시애 -15601
▁헬로 -15602
▁여행자 -15603
▁샌드박스 -15604
▁시오리 -15605
▁대관 -15606
▁Match -15607
▁척하 -15608
ck -15609
UST -15610
▁셔츠 -15611
▁제드 -15612
▁경전차 -15613
▁수영장 -15614
▁경비원 -15615
▁ㅈㅏㄱㅇㅣㄴ -15616
78 -15617
▁희미 -15618
▁중소기업 -15619
▁쪽지 -15620
▁커맨더 -15621
▁길목 -15622
▁피크 -15623
▁클로버 -15624
▁Char -15625
▁모치 -15626
▁디디 -15627
▁짤막 -15628
▁케르 -15629
▁릉 -15630
▁제각 -15631
▁ㅉㅗㄹ -15632
▁요르 -15633
▁타케루 -15634
▁홈구장 -15635
매매 -15636
피탈 -15637
▁세토 -15638
▁시르 -15639
▁여명 -15640
의지 -15641
▁시립 -15642
▁앞쪽 -15643
▁진공 -15644
▁하얀 -15645
▁바이퍼 -15646
▁부녀 -15647
▁플로리다 -15648
▁고원 -15649
▁fr -15650
▁수도원 -15651
▁기린 -15652
매치 -15653
▁아재 -15654
▁부두 -15655
▁메르시 -15656
▁1952 -15657
und -15658
▁조원 -15659
▁퇴마 -15660
▁아카기 -15661
▁데스매치 -15662
▁탈주 -15663
▁방대 -15664
▁데이비스 -15665
▁XY -15666
▁케어 -15667
장구 -15668
▁가쿠 -15669
▁슬쩍 -15670
▁Now -15671
레즈 -15672
▁유시 -15673
▁헤븐 -15674
▁볼일 -15675
▁RED -15676
erm -15677
▁여덟 -15678
▁타가 -15679
▁슬래시 -15680
▁엘소드 -15681
ㅁㅏㅇㅊㅣㄴㄷㅏ -15682
ute -15683
▁일선 -15684
▁앨리 -15685
▁노드 -15686
▁레비 -15687
▁최형 -15688
▁금곡 -15689
▁욕먹 -15690
▁리벤 -15691
▁트레인 -15692
▁티타 -15693
▁ㄷㅚㅆ -15694
▁자판기 -15695
▁저스틴 -15696
천역 -15697
▁묵직 -15698
▁넘쳐나 -15699
▁사업자 -15700
▁일직선 -15701
▁히이 -15702
자루 -15703
▁리언 -15704
▁리히 -15705
▁우동 -15706
▁조인 -15707
ILL -15708
▁브란 -15709
▁쌩 -15710
▁농촌 -15711
▁위조 -15712
▁시애틀 -15713
▁일정량 -15714
▁루즈 -15715
▁안치 -15716
▁216 -15717
맹이 -15718
▁흉터 -15719
ㅁㅎㅏㄴ -15720
▁Core -15721
▁정적 -15722
▁세단 -15723
▁스스 -15724
▁환불 -15725
ㅇㄱㅡ -15726
▁햇빛 -15727
▁파고들 -15728
▁재규어 -15729
ㅂㅎㅣㄹ -15730
▁right -15731
일관 -15732
▁소름 -15733
▁매거진 -15734
▁시집 -15735
▁명장면 -15736
▁발렌시아 -15737
▁츠치 -15738
▁도보 -15739
▁매점 -15740
▁화랑 -15741
▁바흐 -15742
▁수속 -15743
▁스노 -15744
▁악인 -15745
▁유배 -15746
▁Blood -15747
▁가주 -15748
▁댈 -15749
▁현수 -15750
▁티셔츠 -15751
▁다크니스 -15752
▁모건 -15753
▁농어촌 -15754
▁센트리 -15755
red -15756
▁관전 -15757
▁누님 -15758
▁오일 -15759
▁BW -15760
▁마토 -15761
▁럭스 -15762
▁416 -15763
▁충실히 -15764
▁}}}} -15765
▁대장군 -15766
▁2021 -15767
▁해저 -15768
hy -15769
▁쑤 -15770
▁213 -15771
▁아틀라스 -15772
▁ㅂㅣㅅㄴㅏ -15773
▁ㄸㅏㄹㄹㅕ -15774
▁고베 -15775
▁무모 -15776
▁헤라클레스 -15777
▁숙명 -15778
▁충동 -15779
ㄴㅜㄴㄷㅏ -15780
▁Joh -15781
▁our -15782
▁서스 -15783
▁심부 -15784
▁후후 -15785
▁세무 -15786
▁우이 -15787
▁코칭 -15788
▁동국 -15789
▁보살 -15790
▁헌병 -15791
▁기공 -15792
▁장녀 -15793
▁}}}}}} -15794
▁조슈 -15795
▁ㄴㅏㅊ -15796
▁아득 -15797
▁BRV -15798
▁충공 -15799
▁Rob -15800
▁분수 -15801
ㄴㅐㅆㅇㅡ -15802
▁능동 -15803
▁건너편 -15804
▁학부모 -15805
▁선글라스 -15806
▁애리 -15807
▁햄버거 -15808
▁국물 -15809
▁에테르 -15810
정동 -15811
▁수군 -15812
▁평안 -15813
▁ㅅㅓㅁ -15814
▁ㅂㅕㄴㅎㅏㅁ -15815
▁기염 -15816
▁시빌 -15817
▁아리사 -15818
▁마사무네 -15819
▁간편 -15820
▁ㅁㅏㅈㅊㅝㅆ -15821
▁퍼시픽 -15822
55 -15823
▁빼놓 -15824
먹이 -15825
▁레그 -15826
게임넷 -15827
▁Ook -15828
▁온게임넷 -15829
▁국정원 -15830
▁세실 -15831
▁야자 -15832
애미 -15833
▁BBC -15834
▁비둘기 -15835
ism -15836
수엘라 -15837
▁경의 -15838
▁친선 -15839
▁보이드 -15840
▁마이애미 -15841
▁선천 -15842
▁소망 -15843
▁ㄸㅟㄴ -15844
코스 -15845
▁둔화 -15846
▁사쿠야 -15847
▁ㅈㅏㄹㄹㅣㄴ -15848
▁뽐 -15849
▁Last -15850
▁모탈 -15851
▁속사 -15852
▁1300 -15853
▁재화 -15854
▁중사 -15855
▁강남구 -15856
▁병신 -15857
▁필기 -15858
▁1953 -15859
▁급상 -15860
▁달아나 -15861
▁방어전 -15862
▁cr -15863
▁여하 -15864
▁친화 -15865
▁여느 -15866
▁회자 -15867
▁블리츠 -15868
III -15869
▁테츠야 -15870
▁익스프레스 -15871
조작 -15872
▁슬라이딩 -15873
▁돌풍 -15874
OCK -15875
▁미니게임 -15876
▁리시 -15877
▁라지 -15878
▁임상 -15879
▁레이크 -15880
▁근래 -15881
▁필승 -15882
▁악질 -15883
▁완패 -15884
▁기생충 -15885
▁디트로 -15886
▁승부조작 -15887
▁승부차기 -15888
▁디트로이트 -15889
▁찜 -15890
▁튀김 -15891
▁검찰청 -15892
미사 -15893
▁기통 -15894
▁과다 -15895
▁서유 -15896
▁소아 -15897
▁순삭 -15898
▁자자 -15899
ㄴㅗ -15900
▁기판 -15901
▁벤트 -15902
▁국수 -15903
▁낯 -15904
▁서인 -15905
ets -15906
▁쓸쓸 -15907
▁자가 -15908
▁직계 -15909
88 -15910
▁안식 -15911
▁경영학 -15912
▁ㅅㅏㄹㅍㅕ -15913
▁통학 -15914
▁암흑기 -15915
타기 -15916
▁가세 -15917
▁세레나 -15918
▁재판소 -15919
▁구미호 -15920
▁단백질 -15921
▁두근두근 -15922
로움 -15923
▁pe -15924
▁토코 -15925
▁표명 -15926
▁들려 -15927
미츠 -15928
▁조선일보 -15929
▁무네 -15930
▁호우 -15931
▁전고 -15932
▁ㅁㅏㅇㅎㅏㄹ -15933
괭이 -15934
add -15935
▁마취 -15936
▁백룡 -15937
▁알비 -15938
▁사병 -15939
▁그해 -15940
▁눈썹 -15941
▁진해 -15942
▁풍속 -15943
▁극성 -15944
▁아종 -15945
▁희생양 -15946
▁피신 -15947
▁해프 -15948
▁유소년 -15949
▁데스크 -15950
▁ㅁㅏㄱㅎㅕㅆ -15951
▁토사 -15952
OWN -15953
▁NA -15954
▁엘런 -15955
▁료마 -15956
▁시라이 -15957
▁업종 -15958
▁홉 -15959
▁비석 -15960
▁재선 -15961
▁총대 -15962
▁베네수엘라 -15963
▁암기 -15964
▁이천 -15965
▁나뭇잎 -15966
▁동산 -15967
이프 -15968
▁둘러싸 -15969
▁활주로 -15970
▁데일리 -15971
▁Magic -15972
포로 -15973
ㅃㅏㅆ -15974
▁팬클럽 -15975
▁권고 -15976
▁7000 -15977
▁RR -15978
▁가넷 -15979
▁초딩 -15980
▁침체 -15981
▁양도 -15982
▁이의 -15983
▁재미없 -15984
▁중화기 -15985
▁피칭 -15986
▁볼리 -15987
니지 -15988
ama -15989
▁이대호 -15990
▁농부 -15991
▁서약 -15992
▁경희대 -15993
▁드래곤즈 -15994
▁총사령관 -15995
▁고갈 -15996
▁포진 -15997
▁Like -15998
▁덤비 -15999
▁there -16000
▁메탈기어 -16001
외선 -16002
▁박태 -16003
▁차출 -16004
▁프라이드 -16005
▁사력 -16006
▁이메 -16007
▁영화관 -16008
▁조세 -16009
▁거미줄 -16010
▁사위 -16011
▁사단장 -16012
▁그물 -16013
▁HOT -16014
▁속삭 -16015
▁Alb -16016
▁불안감 -16017
▁방관 -16018
▁ㄷㅗㄹㅂㅘ -16019
▁니즘 -16020
▁드래그 -16021
▁첨가 -16022
▁히코 -16023
▁자멸 -16024
▁아킬 -16025
▁요동 -16026
▁자정 -16027
▁매그넘 -16028
장판 -16029
▁ㄷㅏㅇㄱㅕ -16030
▁반달 -16031
▁정종 -16032
▁쳐내 -16033
▁방정식 -16034
▁카츠키 -16035
▁불허 -16036
니르 -16037
▁몽땅 -16038
▁설레 -16039
▁화룡 -16040
▁낙하산 -16041
▁잔여 -16042
▁프랭클린 -16043
▁케니 -16044
▁수송선 -16045
▁신종 -16046
▁원어 -16047
▁거리표 -16048
▁관광지 -16049
▁Soul -16050
▁이범 -16051
▁Happy -16052
ther -16053
▁해프닝 -16054
탕스 -16055
▁상하이 -16056
▁성남시 -16057
▁레지스탕스 -16058
▁권역 -16059
▁몸집 -16060
▁사역 -16061
▁악보 -16062
▁ㄱㅡㅂㅎㅏㄴ -16063
▁남극 -16064
▁RPM -16065
▁화판 -16066
▁토토 -16067
▁퍼니 -16068
▁연안 -16069
▁테슬라 -16070
▁정윤 -16071
ader -16072
▁쌈 -16073
▁텐더 -16074
ERF -16075
▁대입 -16076
▁장기전 -16077
▁범주 -16078
▁성동 -16079
▁순조 -16080
▁음란 -16081
▁사비 -16082
▁마키나 -16083
▁이목 -16084
▁Nor -16085
▁기어이 -16086
▁베르크 -16087
▁포레스트 -16088
이인 -16089
▁223 -16090
▁ㅉㅣㅈㅇㅓ -16091
▁대의 -16092
▁룽 -16093
▁미나토 -16094
▁뭣 -16095
▁비대 -16096
▁철퇴 -16097
▁하자드 -16098
▁이로 -16099
ㄱㅝ -16100
▁리포 -16101
▁막말 -16102
▁본드 -16103
▁갈구 -16104
▁클라우 -16105
▁임용 -16106
▁체구 -16107
▁망설이 -16108
▁아레스 -16109
자국 -16110
▁미달 -16111
▁비룡 -16112
▁역설 -16113
▁전과 -16114
▁TT -16115
▁법정동 -16116
▁체로 -16117
▁사요 -16118
▁엑셀 -16119
▁영조 -16120
▁his -16121
▁조나 -16122
▁ㅅㅡㄹㅍㅓ -16123
트리스 -16124
▁잽 -16125
렁이 -16126
▁김소 -16127
▁고모 -16128
▁바트 -16129
▁선역 -16130
▁정대 -16131
▁코로 -16132
▁골고루 -16133
▁who -16134
▁산체스 -16135
▁하이브 -16136
▁계승자 -16137
▁마크로스 -16138
▁코팅 -16139
▁Party -16140
▁네로 -16141
▁삽입곡 -16142
▁맨날 -16143
▁무당 -16144
▁ㅎㅐㅇㅎㅐ -16145
▁임페 -16146
▁충주 -16147
▁쿠도 -16148
▁365 -16149
▁주임 -16150
▁레프트 -16151
▁멱 -16152
ocal -16153
베이스 -16154
▁시종일관 -16155
▁net -16156
벅지 -16157
▁수법 -16158
▁치밀 -16159
▁일찌감치 -16160
▁ㄹㅑ -16161
▁충공깽 -16162
▁watch -16163
니치 -16164
▁문성 -16165
▁got -16166
▁크리드 -16167
▁Side -16168
▁미용 -16169
▁투석 -16170
▁해결책 -16171
▁쩌 -16172
▁ㄷㅏㄹㄹㅣㄴㄷㅏ -16173
▁남친 -16174
▁식인 -16175
▁용왕 -16176
▁음식점 -16177
▁GX -16178
▁교향곡 -16179
▁감염자 -16180
▁동명이인 -16181
▁1957 -16182
▁덕택 -16183
▁산호 -16184
▁성희 -16185
▁girl -16186
▁아르메니아 -16187
▁연성 -16188
▁ㅇㅏㅍㄷㅜㄴ -16189
▁역과 -16190
▁도입부 -16191
uz -16192
▁Sim -16193
▁붉은색 -16194
▁장학금 -16195
▁Show -16196
형제 -16197
▁시위대 -16198
▁공중전 -16199
▁청문 -16200
OWER -16201
▁크로노스 -16202
▁노원 -16203
▁여대 -16204
▁장담 -16205
▁사우디아 -16206
▁격납 -16207
▁수납 -16208
▁IF -16209
▁민트 -16210
▁적기 -16211
▁며느리 -16212
ga -16213
▁성범죄 -16214
▁얌전 -16215
▁관하 -16216
▁에티 -16217
▁경합 -16218
▁Edition -16219
BOX -16220
▁무너 -16221
▁Open -16222
▁무너뜨리 -16223
ONE -16224
▁에러 -16225
▁불러오 -16226
▁아유미 -16227
▁feel -16228
▁ㄷㅡㄹㄹㅓ -16229
▁남아공 -16230
▁보급품 -16231
▁뜬공 -16232
ated -16233
▁링컨 -16234
▁ㅈㅣㄴㅎㅐㅇㅎㅏㄹ -16235
▁쟁탈전 -16236
▁에어리어 -16237
▁전복 -16238
▁370 -16239
▁브라이 -16240
▁이츠키 -16241
▁ㅇㅕㄲㅇㅣㄴ -16242
▁잣 -16243
▁크리에이터 -16244
▁일기토 -16245
▁카메오 -16246
더리 -16247
rew -16248
▁작물 -16249
▁스피리 -16250
▁위태 -16251
▁플랫폼 -16252
84 -16253
▁갇 -16254
▁레타 -16255
▁재무 -16256
▁토카 -16257
▁능욕 -16258
▁임페리얼 -16259
▁터프 -16260
▁Cap -16261
▁알파벳 -16262
▁Way -16263
▁급상승 -16264
▁김호 -16265
▁카터 -16266
▁왕건 -16267
▁빽 -16268
▁Und -16269
▁만악 -16270
▁바람직 -16271
▁빗나가 -16272
▁인플레 -16273
ASS -16274
▁평정 -16275
ley -16276
▁유수 -16277
▁윤성 -16278
▁대변인 -16279
▁라이토 -16280
ㅂㅏㄱㅎㅕ -16281
amu -16282
▁구루 -16283
▁폐하 -16284
▁백지 -16285
▁신년 -16286
▁Mark -16287
▁민족주의 -16288
▁키쿠 -16289
work -16290
▁구라 -16291
▁베르나 -16292
▁아프가 -16293
▁변함 -16294
▁이도 -16295
▁바운드 -16296
▁복권 -16297
▁주루 -16298
▁특권 -16299
▁활약상 -16300
▁효력 -16301
▁시드니 -16302
▁쿠폰 -16303
▁총재 -16304
넘기 -16305
▁토우마 -16306
▁남짓 -16307
▁전령 -16308
ster -16309
▁푸쉬 -16310
▁후카 -16311
▁지자체 -16312
hammer -16313
▁몸체 -16314
▁소주 -16315
▁의존도 -16316
▁헤더 -16317
ird -16318
▁알맞 -16319
▁맞대결 -16320
▁1947 -16321
▁경순양함 -16322
▁잠식 -16323
▁정경 -16324
▁플레인 -16325
▁상임 -16326
▁익명 -16327
▁Angel -16328
선거 -16329
피드 -16330
▁누락 -16331
▁Pol -16332
▁맞춤 -16333
▁디에고 -16334
▁하시모토 -16335
▁꼭대기 -16336
▁출연자 -16337
▁프레드 -16338
▁천연가스 -16339
▁퍼트 -16340
▁희박 -16341
벨트 -16342
▁생포 -16343
▁도호쿠 -16344
▁소탕 -16345
▁입상 -16346
▁중추 -16347
▁SKE -16348
▁근황 -16349
▁저항군 -16350
▁기각 -16351
▁옵스 -16352
▁항우 -16353
▁FBI -16354
ㄲㅏㄴ -16355
▁그리폰 -16356
▁의류 -16357
▁에어컨 -16358
▁ㅎㅟㅂㅆ -16359
▁자위 -16360
▁Val -16361
▁ㅅㅐㅁ -16362
▁ㅍㅕㄹㅊㅣㄴ -16363
▁깔리 -16364
▁무패 -16365
▁차갑 -16366
▁미카엘 -16367
▁알루미 -16368
▁블루투스 -16369
▁어쩌다 -16370
▁Na -16371
▁화질 -16372
▁알코 -16373
▁엠마 -16374
▁헌납 -16375
▁버퍼 -16376
▁벼락 -16377
▁분과 -16378
▁허니 -16379
▁아야노 -16380
▁하반신 -16381
▁수족 -16382
▁절약 -16383
▁행세 -16384
▁방영일 -16385
▁배수량 -16386
▁화끈 -16387
▁댈러스 -16388
▁이유로 -16389
▁Comp -16390
▁micro -16391
▁카트리 -16392
▁통역 -16393
▁ㄱㅣㅅ -16394
▁오리콘 -16395
▁부디 -16396
▁한성 -16397
라비아 -16398
▁명은 -16399
▁복각 -16400
▁투표율 -16401
레톤 -16402
▁교무실 -16403
IVE -16404
▁유교 -16405
▁화보 -16406
더스트 -16407
▁950 -16408
▁역전재판 -16409
▁선별 -16410
▁재주 -16411
▁그제서야 -16412
▁스켈레톤 -16413
▁봄버 -16414
▁비열 -16415
▁234 -16416
▁금서 -16417
▁공시 -16418
▁수분 -16419
▁트라웃 -16420
▁점포 -16421
▁추위 -16422
▁과잉 -16423
▁상경 -16424
▁물음 -16425
▁비운 -16426
▁예매 -16427
▁촛불 -16428
▁틀어막 -16429
▁애틀랜타 -16430
▁ㄷㅚㄹㅅㅜ -16431
▁엑스맨 -16432
▁아프가니스탄 -16433
캐슬 -16434
▁Stage -16435
▁상고 -16436
▁레테 -16437
▁연기자 -16438
▁로버 -16439
▁수박 -16440
▁양평 -16441
▁개화 -16442
▁부토 -16443
▁경비병 -16444
▁내공 -16445
▁Fly -16446
▁구비 -16447
▁불분 -16448
ㅁㅜㄹ -16449
▁상승세 -16450
▁아스타 -16451
▁알몸 -16452
▁전념 -16453
▁반대쪽 -16454
▁미공개 -16455
▁life -16456
▁시연 -16457
▁엄폐물 -16458
▁249 -16459
74 -16460
고생 -16461
▁후작 -16462
해군 -16463
▁치토 -16464
▁쫓아가 -16465
▁가중 -16466
▁키시 -16467
▁박병호 -16468
▁베아 -16469
▁무방비 -16470
▁온전 -16471
▁피쳐 -16472
▁번영 -16473
▁신민 -16474
▁갈아입 -16475
▁수뇌부 -16476
▁Fall -16477
▁090 -16478
▁전염병 -16479
▁Legend -16480
▁검도 -16481
▁엘더스 -16482
▁First -16483
▁단타 -16484
▁머릿속 -16485
▁뉴캐슬 -16486
▁쥴 -16487
려보 -16488
▁유한 -16489
무로 -16490
▁사죄 -16491
▁김구라 -16492
▁219 -16493
▁중공업 -16494
▁겸비 -16495
▁미처 -16496
▁좌완 -16497
▁중론 -16498
▁245 -16499
▁막론 -16500
▁승승 -16501
▁이석 -16502
▁중순양함 -16503
▁키사라기 -16504
치오 -16505
▁개더링 -16506
stem -16507
▁엘릭 -16508
▁웨딩 -16509
▁ㄱㅣㄹㄹㅓ -16510
▁조현 -16511
▁검기 -16512
▁마운틴 -16513
▁불분명 -16514
ura -16515
▁불가피 -16516
▁어설트 -16517
▁호라이즌 -16518
▁전경 -16519
▁빅토리 -16520
▁ㄹㅏㅂㅅㅣ -16521
▁갑주 -16522
▁이관 -16523
▁빌헬 -16524
▁포메 -16525
▁진범 -16526
▁바드 -16527
▁Free -16528
▁Perf -16529
건설 -16530
소니 -16531
▁코일 -16532
▁유다 -16533
▁투르 -16534
▁후세 -16535
▁오바마 -16536
▁급습 -16537
▁세조 -16538
▁오카다 -16539
▁그리스어 -16540
tm -16541
▁부기 -16542
▁ㅃㅗㅂㅎㅣㄴ -16543
▁덩달 -16544
▁이문 -16545
▁자바 -16546
▁판과 -16547
▁경전철 -16548
슬쩍 -16549
▁껴 -16550
▁손책 -16551
▁총회 -16552
▁화내 -16553
▁알루미늄 -16554
▁오리지날 -16555
▁자유주의 -16556
▁겁쟁이 -16557
▁Break -16558
▁ㄲㅡㅌㄴㅐㄹ -16559
▁메츠 -16560
▁죄인 -16561
▁540 -16562
▁스튜어트 -16563
▁Er -16564
▁김신 -16565
▁티거 -16566
udio -16567
만다 -16568
▁복부 -16569
▁만화가 -16570
▁프리드 -16571
▁준장 -16572
▁질질 -16573
▁허술 -16574
▁카자마 -16575
▁ㅈㅓㅂㅎㅏㄴ -16576
▁선지 -16577
▁언론사 -16578
레일리아 -16579
▁콩두 -16580
▁아벨 -16581
▁top -16582
▁송병구 -16583
▁Class -16584
▁ㄴㅡㄹㄹㅣㄹ -16585
▁로페 -16586
▁명백히 -16587
▁노프 -16588
▁체내 -16589
▁푸른색 -16590
가요 -16591
▁부우 -16592
▁How -16593
▁성우진 -16594
▁ㅎㅏㄴㄷㅡㄹ -16595
▁명실 -16596
▁무소 -16597
▁소폭 -16598
▁운임 -16599
ling -16600
▁Final -16601
▁ㅅㅗㄱㅇㅕ -16602
▁수혜 -16603
▁갈아타 -16604
▁대리인 -16605
▁무리수 -16606
▁유죄 -16607
▁ㅈㅣㄹㅅㅜ -16608
▁케로로 -16609
err -16610
▁반하 -16611
▁비평 -16612
▁타지 -16613
▁선상 -16614
피어 -16615
▁쇼군 -16616
▁쌍용 -16617
▁악수 -16618
▁열렬 -16619
페어 -16620
▁유체 -16621
▁오우거 -16622
▁GDP -16623
▁If -16624
▁440 -16625
▁동유럽 -16626
▁파워레인저 -16627
▁법조 -16628
TH -16629
▁창출 -16630
▁ㅈㅓㅇㅎㅏㄴㄷㅏ -16631
yes -16632
▁신격 -16633
▁Never -16634
▁수제 -16635
▁앤더슨 -16636
▁지명타자 -16637
▁루기 -16638
▁망각 -16639
▁베레 -16640
▁자치령 -16641
▁쥬라기 -16642
▁로토 -16643
▁엠블럼 -16644
▁City -16645
▁뚱뚱 -16646
▁세가 -16647
▁잔재 -16648
▁한승 -16649
▁Spring -16650
▁나카노 -16651
▁빈센트 -16652
▁평지 -16653
▁김정일 -16654
arius -16655
▁슬래 -16656
▁조니 -16657
▁ㅇㅡㄴㄱㅏ -16658
영수 -16659
▁또래 -16660
▁밀러 -16661
▁하얀색 -16662
ux -16663
▁박히 -16664
▁번번 -16665
▁벤츠 -16666
▁중파 -16667
▁Cor -16668
▁사우디아라비아 -16669
ㅇㅢ -16670
▁Down -16671
▁ㅇㅣㅈㅇㅓ -16672
▁스투 -16673
▁제복 -16674
▁카라스 -16675
▁김제 -16676
▁224 -16677
▁동급생 -16678
AGE -16679
▁MAN -16680
▁안테나 -16681
▁사냥터 -16682
▁이니셜 -16683
▁무안타 -16684
ㄴㅏㄹㅅㅜ -16685
▁품종 -16686
그라드 -16687
ause -16688
▁이시카와 -16689
▁하나님 -16690
ㄱㅐ -16691
▁분화 -16692
▁헤지 -16693
▁1951 -16694
고쿠 -16695
▁일개 -16696
▁Mon -16697
▁AW -16698
▁린다 -16699
▁자재 -16700
▁한국군 -16701
▁신태 -16702
▁난장판 -16703
▁광폭 -16704
▁우먼 -16705
▁PRO -16706
▁체크카드 -16707
▁ㄱㅜㄷㅇㅓ -16708
▁선후 -16709
▁우려먹 -16710
▁의뢰인 -16711
▁지중 -16712
▁삿포로 -16713
▁티라노 -16714
▁청주시 -16715
피온 -16716
▁시녀 -16717
▁어로 -16718
▁하쿠 -16719
즐리 -16720
tain -16721
▁팰리스 -16722
제리 -16723
영향 -16724
▁sk -16725
▁나지 -16726
▁직진 -16727
▁편도 -16728
▁나오키 -16729
스부르크 -16730
▁도메 -16731
▁마석 -16732
▁세이부 -16733
ㅇㅜㄹㄹㅕ -16734
▁KCC -16735
▁대전광역시 -16736
▁cont -16737
▁ㅎㅑㅇㅎㅐㅆ -16738
▁바알 -16739
▁한중 -16740
▁GOT -16741
▁베토 -16742
▁전우 -16743
현동 -16744
▁오스틴 -16745
▁1914 -16746
▁성품 -16747
▁메가트론 -16748
REME -16749
라이언트 -16750
ㅁㅏㅇㅊㅣㄹ -16751
▁최원 -16752
▁사복 -16753
▁연호 -16754
▁ㅎㅓㅁㅎㅏㄴ -16755
▁니퍼 -16756
▁ㄷㅏㄴㄷㅏ -16757
▁BP -16758
▁승계 -16759
▁오산 -16760
블루 -16761
▁맥시 -16762
▁성령 -16763
▁반납 -16764
▁끝없이 -16765
▁클라이언트 -16766
ㄱㅎㅐ -16767
▁엠블렘 -16768
▁9000 -16769
▁불발 -16770
▁저음 -16771
IME -16772
▁염동 -16773
▁서스펜 -16774
▁레니 -16775
▁이형 -16776
▁숙지 -16777
▁226 -16778
재욱 -16779
▁베로 -16780
▁청취 -16781
▁판본 -16782
▁행군 -16783
▁노라 -16784
▁짱구 -16785
▁건축물 -16786
▁갇히 -16787
▁투여 -16788
▁결단 -16789
리히 -16790
▁Sn -16791
▁주주 -16792
칼리버 -16793
raft -16794
▁인승 -16795
▁ㄴㅔㄹ -16796
▁ㄲㅏㄴㄷㅏ -16797
신기 -16798
▁수전 -16799
▁밸브 -16800
▁저널 -16801
▁현무 -16802
▁알트 -16803
▁애시당초 -16804
▁순항 -16805
▁Swe -16806
▁야스오 -16807
▁띵 -16808
▁시리우스 -16809
나시 -16810
다듬 -16811
▁마카오 -16812
▁코우지 -16813
▁ㅁㅣㄹㄹㅣㄴ -16814
▁위닝 -16815
▁이송 -16816
▁입당 -16817
▁end -16818
erry -16819
▁신봉 -16820
▁Mem -16821
▁위저드 -16822
▁ㄱㅏㅇㅎㅏㅁ -16823
▁소란 -16824
▁허벅지 -16825
김없이 -16826
▁"' -16827
▁말살 -16828
▁서동 -16829
▁시프 -16830
iny -16831
▁정치력 -16832
안군 -16833
▁곡사 -16834
▁광동 -16835
▁악장 -16836
▁회유 -16837
ㅇㅗㄹㄹㅕㅆ -16838
▁공채 -16839
▁밀접 -16840
▁뻔하 -16841
코스터 -16842
▁가늠 -16843
▁최형우 -16844
▁니즈 -16845
▁야인 -16846
▁국무총리 -16847
▁읊 -16848
평균 -16849
▁꾹 -16850
▁들려주 -16851
▁ㅈㅣㄴㅎㅏㄴ -16852
요리 -16853
▁make -16854
▁명왕 -16855
▁부끄 -16856
▁샬롯 -16857
▁다이빙 -16858
▁예술가 -16859
▁훈련소 -16860
▁쎄 -16861
▁티모 -16862
▁롤러코스터 -16863
▁사생 -16864
▁슬립 -16865
▁몸싸움 -16866
▁변속기 -16867
대표 -16868
▁라니 -16869
▁리제 -16870
▁월터 -16871
▁서재 -16872
▁페달 -16873
▁ㅍㅡㄴ -16874
▁숨결 -16875
▁요양 -16876
▁쇼타 -16877
▁브래드 -16878
83 -16879
▁합금 -16880
▁들이대 -16881
▁보호자 -16882
▁그레이브 -16883
▁ㅎㅗㄴ -16884
테라 -16885
▁ㅇㅣㄱㅎㅕ -16886
▁011 -16887
▁허다 -16888
▁빙글 -16889
▁시메 -16890
▁평준 -16891
▁양양 -16892
▁블로킹 -16893
▁ㄷㅏㅇㅎㅐㅆㅇㅡ -16894
▁자택 -16895
▁베네치아 -16896
ㅇㅗㅁ -16897
소통 -16898
ㅅㅔㄴ -16899
▁1937 -16900
▁의사소통 -16901
▁짓밟 -16902
▁칼질 -16903
▁호각 -16904
▁APC -16905
▁검색어 -16906
▁끊이 -16907
▁버금 -16908
de -16909
▁반죽 -16910
▁험악 -16911
▁고뇌 -16912
▁생계 -16913
▁에버튼 -16914
▁미약 -16915
▁방망 -16916
▁오스트레일리아 -16917
▁과반 -16918
▁폴라 -16919
▁노선도 -16920
ㄲㅇㅕㅆ -16921
ival -16922
테리어 -16923
▁세계수 -16924
살렘 -16925
▁play -16926
▁ㄷㅡㄹㅋㅕ -16927
▁탄두 -16928
▁토바 -16929
▁포자 -16930
▁사츠키 -16931
▁보성 -16932
▁어시 -16933
▁조개 -16934
▁착수 -16935
▁제너럴 -16936
▁코요미 -16937
▁RX -16938
루살렘 -16939
리즘 -16940
▁크리스토퍼 -16941
▁반려 -16942
▁캠핑 -16943
▁키치 -16944
▁중산 -16945
▁애리조 -16946
▁착취 -16947
▁강령 -16948
▁카르텔 -16949
▁달래 -16950
▁간절 -16951
▁린이 -16952
▁이강 -16953
▁큐트 -16954
가르드 -16955
▁만우 -16956
▁연구자 -16957
▁건의 -16958
▁양말 -16959
▁피그 -16960
▁Christ -16961
▁김은 -16962
▁PT -16963
▁원성 -16964
▁야마자키 -16965
▁일생 -16966
▁톱니 -16967
▁사상자 -16968
▁잔소리 -16969
▁ㄴㅗㅎㅇㅣㄴ -16970
▁얍 -16971
ATE -16972
▁part -16973
▁아니하 -16974
▁원상 -16975
▁판단력 -16976
▁츳 -16977
▁쌍검 -16978
▁펠트 -16979
▁375 -16980
RO -16981
▁라리 -16982
▁ㄴㅏㄹㄹㅏ -16983
▁근위 -16984
▁래리 -16985
▁면도 -16986
▁지하실 -16987
▁경시 -16988
▁생방송 -16989
먼드 -16990
하니 -16991
▁춘추 -16992
▁디럭스 -16993
모델 -16994
▁매도 -16995
22 -16996
▁사찰 -16997
▁위아 -16998
▁흉기 -16999
▁aqu -17000
que -17001
▁편애 -17002
▁233 -17003
▁쫓아내 -17004
▁뺑 -17005
▁외장 -17006
▁ㅂㅜㄹㅌㅏ -17007
▁찬사 -17008
걸음 -17009
▁정무 -17010
▁미도 -17011
▁컬링 -17012
▁ㅌㅓㄹㄹㅕㅆ -17013
▁걸치 -17014
▁410 -17015
▁Hol -17016
▁골짜기 -17017
▁Come -17018
썰트 -17019
임수 -17020
▁고안 -17021
▁어썰트 -17022
넌트 -17023
▁성원 -17024
▁유승민 -17025
▁러스트 -17026
하늘 -17027
▁EXTREME -17028
ONG -17029
▁again -17030
린더 -17031
▁김한 -17032
▁슈리 -17033
▁충원 -17034
▁나주 -17035
이즈미 -17036
▁애니메이터 -17037
▁노획 -17038
▁태후 -17039
▁줄리아 -17040
이라 -17041
▁예루살렘 -17042
전함 -17043
▁설진 -17044
▁오보 -17045
▁악영향 -17046
▁스테이크 -17047
▁ㅂㅓㄹㅇㅣㄹ -17048
▁악평 -17049
▁투수진 -17050
▁애니플러스 -17051
▁고철 -17052
▁곧장 -17053
▁한복 -17054
▁아르타 -17055
▁이달 -17056
▁Club -17057
lo -17058
▁KE -17059
▁필적 -17060
idd -17061
▁레코 -17062
▁북서 -17063
▁싱크로 -17064
▁앤드류 -17065
▁ㅅㅓㄴㅈㅣ -17066
ino -17067
▁급여 -17068
▁성시 -17069
erg -17070
▁조승 -17071
▁화가 -17072
▁만우절 -17073
▁진전 -17074
▁노홍철 -17075
▁겉모습 -17076
▁이메일 -17077
ㅈㅣㅂㄴㅣ -17078
▁깍 -17079
▁식별 -17080
▁실탄 -17081
▁전패 -17082
▁대구경 -17083
사람 -17084
▁파주 -17085
▁포상 -17086
▁편집자 -17087
▁MIX -17088
▁레이카 -17089
일기 -17090
▁명확히 -17091
▁hp -17092
▁순례 -17093
▁파탄 -17094
▁소프 -17095
▁스맥 -17096
▁둔기 -17097
▁블레 -17098
▁스맥다운 -17099
▁린치 -17100
▁백병 -17101
▁never -17102
▁류우 -17103
▁수퍼 -17104
▁황소 -17105
▁Cry -17106
▁코러스 -17107
▁레전더리 -17108
▁ㅈㅏㄹㅅㅐㅇㄱㅣㄴ -17109
▁적과 -17110
▁항쟁 -17111
ya -17112
▁알코올 -17113
▁에노 -17114
▁오승 -17115
▁진기 -17116
▁김종국 -17117
▁스미레 -17118
▁레볼루션 -17119
▁수산 -17120
▁폰트 -17121
베르크 -17122
▁차우 -17123
aker -17124
▁그분 -17125
▁재차 -17126
▁성희롱 -17127
▁ㅂㅜㅌㅇㅣㄴㄷㅏ -17128
▁개칭 -17129
▁어부 -17130
▁참모총장 -17131
▁블랑 -17132
▁성취 -17133
▁세카 -17134
▁코만 -17135
▁미완성 -17136
▁긋 -17137
▁본거지 -17138
▁ㅈㅏㅁㄷㅡㄴ -17139
▁멩 -17140
▁유원 -17141
▁절감 -17142
▁구이 -17143
▁안장 -17144
▁퍼플 -17145
▁슬로건 -17146
▁교목 -17147
▁시어터 -17148
MC -17149
▁귤 -17150
▁SMG -17151
▁미네랄 -17152
▁성소 -17153
▁인원수 -17154
해야 -17155
▁xx -17156
▁WHIP -17157
▁ㄹㅗㄴㄱㅏ -17158
▁음력 -17159
▁이바 -17160
▁heart -17161
▁이장 -17162
▁라이덴 -17163
ㅅㅏㄹㅇㅏ -17164
▁강서구 -17165
▁마우 -17166
▁젠지 -17167
▁증표 -17168
▁틈새 -17169
공주 -17170
▁ㄸㅜㅀㄹㅕ -17171
▁티격 -17172
▁CIA -17173
▁독도 -17174
▁밧줄 -17175
▁치과 -17176
▁악세사리 -17177
▁환원 -17178
▁어휘 -17179
▁동탄 -17180
▁ㅁㅓㄹ -17181
▁루시안 -17182
▁큰일 -17183
▁벳 -17184
회의 -17185
▁KA -17186
▁카오 -17187
▁신드 -17188
▁정시 -17189
▁has -17190
▁ㄲㅜㄹ -17191
▁ㅈㅏㅁㄱㅕ -17192
▁머독 -17193
BY -17194
▁겨누 -17195
▁관용 -17196
▁제명 -17197
▁이에야스 -17198
ㄸㅓ -17199
▁밤중 -17200
▁신빙 -17201
▁이탈리아어 -17202
▁Ah -17203
▁쇼코 -17204
▁수당 -17205
▁실감 -17206
▁동결 -17207
▁설문 -17208
ㄷㅡㄴㅇㅛ -17209
▁하남 -17210
▁격변 -17211
▁땜 -17212
관계 -17213
▁미주 -17214
▁시정 -17215
▁동남아 -17216
▁지상군 -17217
▁수렴 -17218
▁윤종신 -17219
▁무로 -17220
▁호문 -17221
▁di -17222
▁은혼 -17223
HN -17224
cy -17225
▁대도 -17226
▁쿄스케 -17227
▁눈보라 -17228
▁마사토 -17229
▁ㅊㅐㅇㄱㅕㅆ -17230
▁개종 -17231
▁찔 -17232
열차 -17233
르슈 -17234
▁bb -17235
▁경대 -17236
▁몰입 -17237
▁채무 -17238
▁최연 -17239
▁수사관 -17240
자치단체 -17241
▁only -17242
▁에너 -17243
▁일루 -17244
▁데니스 -17245
▁쁘 -17246
▁평이 -17247
▁고아원 -17248
▁ㄱㅣㅅㄷㅡㄴ -17249
NG -17250
▁돗 -17251
일본 -17252
▁순차 -17253
▁Will -17254
▁민심 -17255
anger -17256
▁PH -17257
▁납품 -17258
▁미우 -17259
▁뜬금없 -17260
▁간첩 -17261
▁마자 -17262
▁유부 -17263
▁NORM -17264
▁\] -17265
▁매입 -17266
▁옴니 -17267
▁투항 -17268
▁해설자 -17269
▁1919 -17270
▁페미니스트 -17271
▁볶음 -17272
▁덤벼 -17273
▁올인 -17274
▁카프 -17275
▁다이노 -17276
▁카모 -17277
▁콘테스트 -17278
▁유키노 -17279
▁Girls -17280
▁개리 -17281
▁뻔뻔 -17282
▁브로드 -17283
▁우크 -17284
▁체이서 -17285
▁화전 -17286
OUR -17287
▁전쟁터 -17288
▁수료 -17289
▁컨퍼런스 -17290
▁우크라이나 -17291
▁각별 -17292
▁자음 -17293
▁전황 -17294
▁용호 -17295
▁우대 -17296
▁마이티 -17297
▁MY -17298
▁외환 -17299
▁차크라 -17300
▁XC -17301
▁연하 -17302
▁김종민 -17303
ORA -17304
▁게재 -17305
▁다마 -17306
▁열광 -17307
▁최하위 -17308
▁복수심 -17309
▁ㅅㅐㅇㄱㅕㅆㅇㅡ -17310
쩌둥 -17311
▁임재 -17312
▁마오쩌둥 -17313
▁ㅁㅏㅅ -17314
▁메트 -17315
▁미코 -17316
▁ㅁㅓㅁㅊㅜㄹ -17317
▁포커 -17318
▁ㄴㅏㅈㅊㅝ -17319
86 -17320
▁체르 -17321
▁랠 -17322
전대 -17323
▁우선시 -17324
▁트롤링 -17325
ument -17326
▁음악가 -17327
onder -17328
메리카 -17329
▁NORMAL -17330
▁뿌요 -17331
▁포메이션 -17332
차리 -17333
▁부전 -17334
▁페이퍼 -17335
▁인테리어 -17336
▁ㄷㅗㄹㄹㅣㄴ -17337
▁ㄷㅐㄹ -17338
▁라파엘 -17339
▁서큐버스 -17340
▁천진 -17341
▁첨부 -17342
▁here -17343
▁ㅎㅏㄹㄱㅔ -17344
푸스 -17345
▁에이미 -17346
▁제후 -17347
▁스턴트 -17348
▁월등히 -17349
▁프렌드 -17350
▁켐 -17351
▁해인 -17352
▁성공회 -17353
▁RB -17354
▁자백 -17355
▁정근 -17356
▁타쿠야 -17357
▁시술 -17358
▁짝퉁 -17359
폴리스 -17360
▁난쟁이 -17361
▁배반 -17362
팔로 -17363
▁액수 -17364
▁Sol -17365
▁Great -17366
▁스커 -17367
▁ㅎㅓㄹ -17368
▁활력 -17369
▁아이젠 -17370
▁후지와라 -17371
불리 -17372
▁여중 -17373
▁뻐 -17374
▁연장전 -17375
▁Best -17376
▁소대장 -17377
▁알라딘 -17378
ball -17379
▁문과 -17380
▁수년 -17381
▁초심 -17382
▁한판 -17383
▁보크 -17384
▁MUS -17385
▁부상자 -17386
▁비서관 -17387
▁사드 -17388
▁우의 -17389
▁EXO -17390
▁장대 -17391
▁ㅈㅓㅇㅎㅐㅆ -17392
▁궤멸 -17393
▁연마 -17394
▁SEED -17395
▁개전 -17396
▁피노 -17397
▁능하 -17398
▁조짐 -17399
▁나츠메 -17400
▁시끄럽 -17401
▁연화 -17402
디우스 -17403
▁미식축구 -17404
▁사대 -17405
osh -17406
▁ㅇㅘㄴ -17407
▁제네레이션 -17408
샤인 -17409
▁악연 -17410
▁증강 -17411
오버 -17412
▁비터 -17413
▁남산 -17414
▁페트 -17415
고스 -17416
▁깜빡 -17417
▁북동 -17418
▁ㅅㅡㅁ -17419
▁시미즈 -17420
▁몰아붙이 -17421
▁억양 -17422
▁옥타브 -17423
▁철혈 -17424
▁세이야 -17425
▁낙서 -17426
▁스팟 -17427
▁호화 -17428
▁과열 -17429
▁환산 -17430
▁217 -17431
▁Net -17432
UD -17433
▁올리브 -17434
▁다듬 -17435
▁데미안 -17436
▁스콜피온 -17437
▁Ind -17438
▁OM -17439
▁업자 -17440
▁ㄲㅡㄶㅇㅓ -17441
▁패하 -17442
▁이동기 -17443
▁Dest -17444
▁잠자 -17445
▁슬라이더 -17446
▁내용물 -17447
▁1911 -17448
▁Little -17449
▁ㅃㅗㅂㅎㅕㅆ -17450
월드 -17451
▁물류 -17452
▁주부 -17453
▁찍히 -17454
▁초전 -17455
▁추기 -17456
▁미스테리 -17457
▁교원 -17458
▁어긋나 -17459
▁소나무 -17460
세포 -17461
▁고요 -17462
▁플랜트 -17463
▁패권 -17464
▁부적절 -17465
light -17466
▁산전 -17467
▁카니발 -17468
▁레닌 -17469
▁미술관 -17470
▁오컬 -17471
▁이보 -17472
▁발령 -17473
▁str -17474
▁메모리얼 -17475
▁낭만 -17476
니컬 -17477
▁검거 -17478
▁전곡 -17479
▁해밀 -17480
▁red -17481
▁gu -17482
▁우여 -17483
▁정선 -17484
▁초라 -17485
티티 -17486
▁로어 -17487
▁은빛 -17488
장치 -17489
▁독단 -17490
▁서프 -17491
▁클러치 -17492
▁오자 -17493
▁고참 -17494
▁'~ -17495
▁딸리 -17496
▁정승 -17497
▁라이엇 -17498
▁KN -17499
▁대기실 -17500
▁베이커 -17501
▁ㄴㅏㅊㅅㅓㄴ -17502
▁소품 -17503
▁부록 -17504
▁생리 -17505
▁브룩 -17506
▁폐업 -17507
▁통찰 -17508
▁우치하 -17509
와르 -17510
▁하노 -17511
▁허약 -17512
소년단 -17513
▁ㅌㅡㄹ -17514
▁사주 -17515
▁음료수 -17516
▁ㄱㅣㄹㄹㅐ -17517
▁교명 -17518
▁나성 -17519
▁미움 -17520
▁러시아군 -17521
▁다량 -17522
▁약수 -17523
▁Take -17524
▁지탱 -17525
▁노노 -17526
▁228 -17527
▁괴이 -17528
▁냉혹 -17529
▁픽처 -17530
▁변모 -17531
▁미하일 -17532
HC -17533
▁요지 -17534
▁아라시 -17535
데라 -17536
▁소셜 -17537
▁앵글 -17538
▁정민 -17539
▁맹수 -17540
▁let -17541
▁야나기 -17542
▁상반 -17543
▁재상 -17544
▁BMW -17545
ANCED -17546
▁기교 -17547
▁서태지 -17548
▁ad -17549
▁체류 -17550
▁조선소 -17551
▁오아시스 -17552
▁FO -17553
▁골수 -17554
▁Mix -17555
▁카즈미 -17556
▁크류 -17557
▁화합 -17558
▁ㄴㅡㄴㅋㅓ -17559
▁Single -17560
▁뮐 -17561
eek -17562
▁액스 -17563
▁GPS -17564
▁세바스 -17565
▁고드 -17566
ㅅㅡㄹㄹㅓ -17567
▁010 -17568
▁야구부 -17569
▁남아프리카 -17570
세움 -17571
▁예민 -17572
ASY -17573
▁유창 -17574
▁Sam -17575
▁나리타 -17576
▁Inv -17577
▁게르만 -17578
▁래빗 -17579
▁무트 -17580
▁로켓단 -17581
▁세련 -17582
▁익산 -17583
▁한눈 -17584
▁NFL -17585
▁승낙 -17586
▁환장 -17587
▁가야 -17588
▁드미 -17589
▁오컬트 -17590
▁정국 -17591
▁형벌 -17592
▁야구단 -17593
브론 -17594
▁강정 -17595
▁없음 -17596
▁피파 -17597
▁영국인 -17598
▁내레이션 -17599
▁세터 -17600
▁저축 -17601
▁마스터즈 -17602
▁티르 -17603
▁폐인 -17604
▁하계 -17605
▁Ult -17606
ㄷㅏㄹㄹㅕㅆ -17607
▁헌트 -17608
▁광란 -17609
▁어르 -17610
▁출입구 -17611
▁301 -17612
▁CGV -17613
▁백두 -17614
▁특색 -17615
▁Aut -17616
IO -17617
비지 -17618
▁굴림 -17619
▁의거 -17620
▁둘째치 -17621
▁타카히로 -17622
▁승하 -17623
▁요령 -17624
▁뉴타입 -17625
▁촉진 -17626
ena -17627
▁빌헬름 -17628
▁페라리 -17629
94 -17630
▁프레데터 -17631
시장 -17632
▁ㅁㅏㅌㄱㅕㅆ -17633
얼거리 -17634
▁마방 -17635
lex -17636
▁신천 -17637
▁방탄소년단 -17638
▁반주 -17639
▁집요 -17640
▁YG -17641
▁이트 -17642
▁파기 -17643
uture -17644
▁우디 -17645
▁타카오 -17646
▁밀가루 -17647
▁유니버 -17648
▁호위함 -17649
▁담원 -17650
▁수차례 -17651
▁하야테 -17652
▁252 -17653
▁를 -17654
▁퍼블 -17655
▁케네 -17656
▁나아지 -17657
▁재보 -17658
▁껌 -17659
▁토드 -17660
▁라다 -17661
▁하즈 -17662
▁EPL -17663
▁서유럽 -17664
▁니르 -17665
▁하로 -17666
각형 -17667
▁거창 -17668
▁슬프 -17669
▁촉구 -17670
▁초계 -17671
▁폭언 -17672
▁공직 -17673
▁백종 -17674
▁항성 -17675
▁속임수 -17676
▁aquarius -17677
▁지효 -17678
▁통솔력 -17679
모트 -17680
▁아틀란 -17681
▁헤이세이 -17682
교사 -17683
▁교제 -17684
▁그딴 -17685
▁츠네 -17686
▁대성공 -17687
▁버금가 -17688
▁Real -17689
▁알프레드 -17690
▁녹스 -17691
덱스 -17692
▁메커 -17693
▁광화문 -17694
▁별거 -17695
▁처방 -17696
▁스트림 -17697
▁한국식 -17698
서리 -17699
▁사이먼 -17700
▁ADVANCED -17701
▁재발 -17702
▁mA -17703
대왕 -17704
▁멜리 -17705
▁사카이 -17706
곡절 -17707
ital -17708
▁512 -17709
▁포구 -17710
▁|[ -17711
▁왕성 -17712
▁DSP -17713
▁Dec -17714
▁우여곡절 -17715
▁Storm -17716
▁스냅드래곤 -17717
98 -17718
▁멘토 -17719
▁파나 -17720
▁코미디언 -17721
▁아날 -17722
▁카르타 -17723
▁2022 -17724
▁ㄱㅕㄴㄷㅕ -17725
▁섬뜩 -17726
▁제때 -17727
▁최장 -17728
▁하원 -17729
세우스 -17730
▁로젠 -17731
▁문관 -17732
▁나오미 -17733
▁ㅇㅝㄴㅊㅣ -17734
니케이션 -17735
▁스케이트 -17736
▁다라 -17737
▁학파 -17738
▁저상버스 -17739
ㅁㅜㄹㄹㅓㅆ -17740
▁여차 -17741
▁정관 -17742
ano -17743
▁깨우 -17744
▁야가미 -17745
네즈 -17746
▁김시 -17747
▁아카이브 -17748
레오 -17749
려우 -17750
▁커뮤니케이션 -17751
▁꼬박 -17752
▁횡령 -17753
▁틀림없 -17754
▁프란츠 -17755
▁텐트 -17756
▁알아차리 -17757
▁츳코 -17758
▁any -17759
▁운동가 -17760
▁윤석민 -17761
▁손길 -17762
▁급속도 -17763
▁닛산 -17764
▁도넛 -17765
▁브록 -17766
▁Med -17767
▁ㅇㅕㅅㅂㅗㄹ -17768
▁켓 -17769
▁가즈 -17770
▁강급 -17771
▁신승 -17772
▁절도 -17773
요이 -17774
aid -17775
▁쇼우 -17776
▁Def -17777
▁Gun -17778
▁야요이 -17779
지우 -17780
▁명지 -17781
▁샤르 -17782
▁스탬 -17783
성어 -17784
소연 -17785
▁다람 -17786
▁사춘 -17787
조림 -17788
▁등용 -17789
▁ㅍㅜㄴ -17790
공학 -17791
▁htm -17792
▁거액 -17793
▁아토 -17794
▁거느리 -17795
ude -17796
▁발하 -17797
▁선샤인 -17798
▁정찰기 -17799
▁라티 -17800
▁QP -17801
▁매료 -17802
▁ㅁㅣㄴ -17803
▁경관 -17804
▁만신 -17805
▁트렌드 -17806
▁포식자 -17807
▁youtu -17808
소타 -17809
▁정몽 -17810
▁착공 -17811
경민 -17812
▁돌변 -17813
▁자릿 -17814
▁when -17815
러미 -17816
▁관습 -17817
▁산출 -17818
▁베토벤 -17819
▁정착지 -17820
▁애플리케이션 -17821
▁HR -17822
▁youtube -17823
▁ER -17824
▁소홀 -17825
▁요가 -17826
▁초구 -17827
▁Hero -17828
▁부설 -17829
▁Zero -17830
▁클럭 -17831
▁Rad -17832
▁샌드위치 -17833
UG -17834
마사 -17835
▁보그 -17836
65 -17837
apan -17838
▁미네소타 -17839
unt -17840
▁크래시 -17841
▁사하 -17842
▁ㄹㅏㄴㄷㅏ -17843
▁공안 -17844
▁오거 -17845
▁데이지 -17846
▁오정 -17847
▁정주 -17848
ㅁㅜㄹㄹㅓ -17849
ㅟㄹ -17850
노트 -17851
부리 -17852
▁시급 -17853
ning -17854
32 -17855
▁추격전 -17856
쩐지 -17857
▁재탕 -17858
▁어쩐지 -17859
▁루팅 -17860
▁압승 -17861
▁스프레이 -17862
▁보이즈 -17863
▁사이비 -17864
▁프리킥 -17865
▁EXTRA -17866
▁엄연 -17867
리스크 -17868
▁송곳니 -17869
▁램지 -17870
▁시놉 -17871
▁Cal -17872
DDR -17873
▁급증 -17874
▁암석 -17875
▁은색 -17876
ours -17877
▁대장간 -17878
▁툭하면 -17879
arm -17880
ett -17881
ler -17882
▁은신처 -17883
ather -17884
▁크로스오버 -17885
▁레터 -17886
▁욘 -17887
병기 -17888
▁Warhammer -17889
폴트 -17890
▁차고 -17891
▁태백 -17892
▁풀이 -17893
▁동맹군 -17894
▁ㅁㅜㄷㅎㅣㄴ -17895
▁대련 -17896
▁블룸 -17897
▁390 -17898
▁보리스 -17899
▁정명훈 -17900
unk -17901
▁콴 -17902
▁냅다 -17903
▁탐험가 -17904
▁자습 -17905
▁시놉시스 -17906
▁내걸 -17907
▁백악 -17908
▁227 -17909
▁1934 -17910
▁Ry -17911
▁총점 -17912
▁롱주 -17913
▁예하 -17914
▁Ag -17915
▁만장 -17916
▁멱살 -17917
▁Park -17918
▁예거 -17919
▁표준어 -17920
▁투영 -17921
레마 -17922
▁우등 -17923
▁합숙 -17924
▁평하 -17925
▁숙제 -17926
▁주름 -17927
▁용납 -17928
▁경부선 -17929
▁프리퀄 -17930
▁비밀리 -17931
▁피고인 -17932
▁Sweet -17933
▁ㅇㅡㄹㅅㅣ -17934
▁분양 -17935
▁인삼 -17936
▁!!!! -17937
lection -17938
▁신노스케 -17939
BE -17940
▁오현 -17941
▁웍스 -17942
▁치요 -17943
▁사춘기 -17944
irect -17945
▁나크 -17946
▁뽐내 -17947
▁실컷 -17948
▁뜻밖 -17949
▁조슈아 -17950
▁주변인 -17951
▁Mbps -17952
▁다채 -17953
▁시부야 -17954
une -17955
▁BLACK -17956
▁ㅅㅓㄴㄱㅏ -17957
▁정보원 -17958
▁노보 -17959
▁백웅 -17960
▁ㄸㅢㄴㄷㅏ -17961
▁윤영 -17962
▁파비 -17963
▁휴지 -17964
▁John -17965
▁반쪽 -17966
▁위임 -17967
▁파이팅 -17968
▁아틀란티스 -17969
▁ㄲㅡㅌㄴㅐㄴ -17970
▁사칭 -17971
▁서북 -17972
▁자객 -17973
▁홍련 -17974
▁최민 -17975
▁쿠보 -17976
▁포섭 -17977
▁보좌관 -17978
▁연막탄 -17979
ouble -17980
살이 -17981
▁교가 -17982
▁난도 -17983
▁세균 -17984
▁심복 -17985
어뜯 -17986
ords -17987
▁op -17988
▁안즈 -17989
▁우터 -17990
▁ㄴㅓㄼ -17991
▁미시마 -17992
▁아랍어 -17993
나타 -17994
▁공적 -17995
▁어떡 -17996
▁유상 -17997
▁Hel -17998
▁지저 -17999
▁ㄷㅏㄹㅎㅐㅆ -18000
▁고마 -18001
▁명심 -18002
ople -18003
▁홍수 -18004
▁ㅈㅗㅂㅎㅕ -18005
▁동이 -18006
▁계약서 -18007
▁핍 -18008
▁== -18009
▁리비 -18010
▁영수 -18011
▁대지진 -18012
▁마사히로 -18013
▁몽환 -18014
▁아오키 -18015
▁ㅁㅜㄹㅇㅡ -18016
▁주재 -18017
▁Say -18018
▁min -18019
로리 -18020
숭아 -18021
▁달려드 -18022
▁정부군 -18023
▁젓 -18024
▁쿠퍼 -18025
▁샤이니 -18026
▁짓거리 -18027
▁Space -18028
ㅁㅐ -18029
▁자물 -18030
▁Gal -18031
▁양방향 -18032
▁ㅂㅜㄹㄹㅣㄴ -18033
▁레이브 -18034
▁페가수스 -18035
▁ㄲㅞ -18036
▁보름 -18037
▁권하 -18038
▁진명 -18039
사노 -18040
▁토치 -18041
ames -18042
▁밴쿠버 -18043
▁이리스 -18044
▁거침 -18045
▁린드 -18046
▁재기 -18047
▁에디터 -18048
▁중대장 -18049
uct -18050
▁구스 -18051
▁낙사 -18052
▁용족 -18053
ㄷㅐㅆ -18054
▁수송기 -18055
▁내쫓 -18056
▁개머리 -18057
▁연대기 -18058
▁은근슬쩍 -18059
▁노리코 -18060
▁자물쇠 -18061
▁깐 -18062
▁컷인 -18063
▁231 -18064
▁경상도 -18065
▁장민 -18066
▁판명 -18067
▁효용 -18068
▁하가 -18069
thing -18070
▁옅 -18071
▁구스타 -18072
uff -18073
▁제련 -18074
▁흡입 -18075
▁쿠루미 -18076
▁웬디 -18077
▁Feel -18078
▁후진 -18079
br -18080
▁가르시아 -18081
▁폄 -18082
▁PG -18083
▁료코 -18084
▁사념 -18085
▁유족 -18086
▁베가스 -18087
▁ㄷㅏㄹㄹㅣㄹ -18088
▁교활 -18089
▁아와 -18090
▁need -18091
▁코스모스 -18092
▁ㅁㅏㅇㅅㅓㄹ -18093
▁근방 -18094
▁오라클 -18095
▁페드로 -18096
▁ㄷㅗㅇㅇㅣㄴ -18097
▁비견 -18098
▁서바이버 -18099
▁고영 -18100
oj -18101
▁ㅎㅡㄹㄹㅕㅆ -18102
KO -18103
▁관람객 -18104
립스 -18105
▁간직 -18106
▁약품 -18107
▁옥수수 -18108
▁Je -18109
▁요하 -18110
▁코타 -18111
▁ㄱㅏㄹㄱ -18112
oe -18113
▁브라우저 -18114
▁ㅂㅓㄹㄹㅕ -18115
개골 -18116
▁안톤 -18117
▁LEVEL -18118
TER -18119
▁이부키 -18120
▁코스모 -18121
▁HT -18122
질기 -18123
▁오소 -18124
▁이그 -18125
나우 -18126
▁방주 -18127
거스 -18128
▁함경 -18129
▁근로자 -18130
▁끈질기 -18131
▁햐 -18132
▁피쉬 -18133
▁금단 -18134
▁법령 -18135
END -18136
vil -18137
▁두각 -18138
▁집게 -18139
▁설립자 -18140
▁ㅇㅕㅆㅇㅓㅆ -18141
yr -18142
▁씌우 -18143
▁나가사키 -18144
▁즐거움 -18145
▁텝 -18146
▁덮치 -18147
ㅃㅡㄹ -18148
▁경멸 -18149
▁타타 -18150
▁견고 -18151
▁최준 -18152
교도 -18153
▁출진 -18154
▁Kim -18155
후미 -18156
▁마쓰 -18157
▁햄튼 -18158
▁투지 -18159
▁라몬 -18160
▁주점 -18161
▁도봉 -18162
▁앙쥬 -18163
▁mAh -18164
▁손발 -18165
▁판다 -18166
▁꼬맹이 -18167
▁더러 -18168
▁소양 -18169
▁남녀공학 -18170
▁지출 -18171
비슷 -18172
▁잭스 -18173
▁비우 -18174
▁오사무 -18175
▁나카지마 -18176
▁트리니티 -18177
▁바카 -18178
▁저질 -18179
▁Sport -18180
▁대첩 -18181
▁사루 -18182
▁신스 -18183
▁조공 -18184
▁청문회 -18185
▁협의회 -18186
▁난데 -18187
▁똑바로 -18188
▁병합 -18189
▁모리스 -18190
▁일간 -18191
▁피통 -18192
리아스 -18193
▁JYP -18194
▁구식 -18195
자스 -18196
▁부착물 -18197
▁them -18198
▁막스 -18199
▁식구 -18200
▁아누 -18201
분투 -18202
▁로더 -18203
▁조련 -18204
▁Ret -18205
▁치솟 -18206
▁카나코 -18207
▁some -18208
▁흑발 -18209
▁크레인 -18210
▁조동 -18211
▁형주 -18212
▁레베카 -18213
▁변기 -18214
로그램 -18215
▁지원군 -18216
곡리 -18217
태격 -18218
▁티격태격 -18219
▁명계 -18220
▁를르슈 -18221
▁마즈 -18222
▁백스 -18223
▁Dem -18224
▁여제 -18225
▁골절 -18226
ㅊㅜ -18227
▁겸임 -18228
▁사서 -18229
▁평면 -18230
▁성물 -18231
▁지네 -18232
▁GTX -18233
▁Sou -18234
▁카로 -18235
▁스타킹 -18236
설수 -18237
ㄱㅎㅣㄹ -18238
▁어려우 -18239
▁비화 -18240
▁코아 -18241
▁하강 -18242
ㅎㅇㅏㅆ -18243
▁ㅆㅏㅎㅇㅏㅆ -18244
마니 -18245
▁후사 -18246
▁나이지 -18247
▁나이지리아 -18248
▁서남 -18249
▁ㅅㅐㅇㄱㅏ -18250
▁동률 -18251
▁셔먼 -18252
▁컬트 -18253
▁톰슨 -18254
ㅇㅓㄹ -18255
▁Kill -18256
▁ㅂㅏㄱㅅㅏㄹㄴㅏㄴ -18257
▁Tour -18258
▁ㅅㅐㅇㄱㅏㄱ -18259
노프 -18260
▁규율 -18261
▁덴마 -18262
▁발열 -18263
▁끌어안 -18264
ODE -18265
▁남원 -18266
▁버팔로 -18267
▁프랑켄슈타인 -18268
▁둥글 -18269
▁전광판 -18270
▁동남아시아 -18271
▁껴안 -18272
▁부포 -18273
▁위아래 -18274
▁견습 -18275
▁도가 -18276
▁빼내 -18277
▁개머리판 -18278
뚜기 -18279
▁달려오 -18280
▁횃 -18281
▁로밍 -18282
▁역마 -18283
arth -18284
▁GC -18285
▁어정 -18286
▁탤런트 -18287
부수 -18288
▁430 -18289
▁초밥 -18290
▁LOL -18291
▁근육질 -18292
동물 -18293
▁매튜 -18294
▁포커스 -18295
린트 -18296
▁만년 -18297
▁입점 -18298
비야 -18299
▁마일리 -18300
▁부대장 -18301
제트 -18302
메이트 -18303
▁원가 -18304
▁포이즌 -18305
▁236 -18306
▁라카 -18307
▁방아 -18308
▁엘사 -18309
aser -18310
▁지중해 -18311
▁ㅁㅓㄱㅎㅕ -18312
▁참치 -18313
▁KBL -18314
▁치아키 -18315
▁ㅎㅜㅁㅊㅣㄴ -18316
onna -18317
▁짭 -18318
▁르블랑 -18319
▁노동조합 -18320
▁철구 -18321
▁정근우 -18322
▁아스가르드 -18323
ner -18324
도어 -18325
▁떨치 -18326
▁스메 -18327
▁팔다리 -18328
▁사절 -18329
▁요요 -18330
▁테디 -18331
▁파병 -18332
▁Orig -18333
▁라나 -18334
▁인턴 -18335
▁타깃 -18336
▁이북 -18337
▁하피 -18338
▁ㄲㅐㄴ -18339
▁플리트 -18340
▁마커스 -18341
▁스틸러스 -18342
슬로 -18343
▁한인 -18344
▁격납고 -18345
▁치어리 -18346
▁마로 -18347
▁닳 -18348
▁간과 -18349
▁her -18350
▁놓이 -18351
▁기대감 -18352
▁ㅎㅐㅆㄷㅏ -18353
ways -18354
▁날카 -18355
▁연주자 -18356
▁Beat -18357
▁목장 -18358
▁미니건 -18359
▁엑스칼리버 -18360
▁열화 -18361
ㄱㅡㅅ -18362
슐리 -18363
▁아로 -18364
▁이윤열 -18365
▁감찰 -18366
▁포츈 -18367
▁방탄복 -18368
▁군세 -18369
▁사오 -18370
▁WORLD -18371
▁드럼매니아 -18372
▁미끄 -18373
▁이규 -18374
▁매크로 -18375
▁원정대 -18376
▁ㅆㅡㄹㄹㅕ -18377
▁아브 -18378
▁사일런트 -18379
▁파라오 -18380
▁표류 -18381
▁상병 -18382
▁코라 -18383
▁265 -18384
▁옐로우 -18385
▁일파 -18386
▁질럿 -18387
▁NAS -18388
▁다비드 -18389
▁주유소 -18390
ㅇㅣㄹㅇㅡ -18391
다카 -18392
▁일전 -18393
ormal -18394
▁뫼비우스 -18395
▁올레 -18396
▁장문 -18397
팽이 -18398
▁<< -18399
▁내신 -18400
▁로니 -18401
▁메커니즘 -18402
▁엘라 -18403
▁원사 -18404
ㄷㅐㄴ -18405
▁하르트 -18406
▁구실 -18407
▁복식 -18408
iful -18409
▁휘둘 -18410
▁블러디 -18411
▁싯 -18412
상부 -18413
▁김건 -18414
▁세이프 -18415
▁PERF -18416
▁Luc -18417
▁ㄱㅓㄹㄹㅓ -18418
▁ㅅㅏㅇㅎㅐ -18419
▁경기관총 -18420
▁ㄱㅕㄴㄷㅣㄹ -18421
▁루디 -18422
▁숙이 -18423
▁통통 -18424
▁Story -18425
UND -18426
▁하네 -18427
▁마츠다 -18428
▁아날로그 -18429
▁로아 -18430
▁위안부 -18431
▁이리야 -18432
▁3500 -18433
▁서슴 -18434
▁지석 -18435
구멍 -18436
▁신야 -18437
▁항소 -18438
▁넥스트 -18439
배기 -18440
▁수트 -18441
▁MAD -18442
▁스트롱 -18443
▁밀리터리 -18444
44 -18445
▁티베트 -18446
▁When -18447
▁루가 -18448
▁저술 -18449
▁쿡 -18450
문화 -18451
▁노미 -18452
▁바바리 -18453
▁앞머리 -18454
리역 -18455
▁뒤덮 -18456
▁위드 -18457
▁공평 -18458
▁막시 -18459
▁she -18460
▁양지 -18461
▁편찬 -18462
▁곧이어 -18463
▁Tech -18464
ANG -18465
▁백과 -18466
▁약사 -18467
▁어진 -18468
▁기울이 -18469
▁사이킥 -18470
뉴스 -18471
▁공연장 -18472
▁피스톨 -18473
▁ㄴㅗㅎㅊㅕ -18474
전쟁 -18475
▁폭죽 -18476
▁강민호 -18477
천리 -18478
▁더듬 -18479
▁순전히 -18480
▁ㄴㅗㅎㅊㅕㅆ -18481
▁ㅎㅐㅆㅇㅓㅆㅇㅡ -18482
▁온건 -18483
▁한미 -18484
▁WWF -18485
▁리비아 -18486
입구역 -18487
▁사우디 -18488
▁한없이 -18489
▁선율 -18490
▁정설 -18491
▁족족 -18492
▁출국 -18493
주니어 -18494
▁케네디 -18495
▁개관 -18496
레스타인 -18497
▁땅굴 -18498
▁수첩 -18499
▁조라 -18500
▁Album -18501
fl -18502
▁이모티콘 -18503
▁레티 -18504
ations -18505
▁재결 -18506
▁DIO -18507
▁희한 -18508
▁시속 -18509
▁참수 -18510
▁불굴 -18511
▁사학 -18512
▁Who -18513
▁마레 -18514
▁범하 -18515
▁외화 -18516
▁팔아먹 -18517
▁갈비 -18518
▁상디 -18519
▁돌려받 -18520
▁겐지 -18521
▁암묵 -18522
▁대나무 -18523
▁소리치 -18524
▁코코로 -18525
▁풀타임 -18526
▁김장 -18527
▁세인 -18528
▁얼른 -18529
포동 -18530
▁급감 -18531
▁라르 -18532
▁로데 -18533
▁GE -18534
▁아디 -18535
▁테드 -18536
▁정준하 -18537
▁기껏해야 -18538
ait -18539
▁실기 -18540
▁조부 -18541
▁Step -18542
▁즌 -18543
▁픽처스 -18544
▁마개 -18545
▁가희 -18546
39 -18547
▁쿠즈 -18548
▁로드리게 -18549
시간 -18550
▁뒤이 -18551
▁볼링 -18552
▁칼데아 -18553
실록 -18554
▁232 -18555
통일 -18556
▁금세 -18557
▁art -18558
▁다지 -18559
▁역적 -18560
▁맥크리 -18561
▁드로이드 -18562
▁맨서 -18563
▁숙적 -18564
▁공구 -18565
▁무서 -18566
▁음파 -18567
▁의병 -18568
▁진중 -18569
▁호루스 -18570
▁행렬 -18571
▁ㅈㅓㄴㅎㅏㄴㄷㅏ -18572
▁ㅍㅕㄹㅊㅣㄴㄷㅏ -18573
▁힛 -18574
▁의약 -18575
▁일괄 -18576
▁전위 -18577
▁다르크 -18578
▁두개골 -18579
▁산산조각 -18580
▁무례 -18581
▁Death -18582
당기 -18583
▁노어 -18584
페르노 -18585
▁마성 -18586
▁엽기 -18587
▁육신 -18588
▁sec -18589
▁언뜻 -18590
프스 -18591
▁옥스 -18592
▁ㅊㅏㅆ -18593
▁공격대 -18594
▁왕정 -18595
▁원산 -18596
▁총애 -18597
▁투혼 -18598
▁인기가요 -18599
▁인페르노 -18600
▁체하 -18601
▁홍차 -18602
사무소 -18603
▁세리카 -18604
▁조건부 -18605
▁독살 -18606
예프 -18607
투사 -18608
body -18609
ㄷㅣㅈㅎㅕ -18610
▁찻 -18611
▁괄호 -18612
▁금빛 -18613
▁변속 -18614
▁도맡 -18615
▁푸딩 -18616
▁플롯 -18617
▁ㅈㅏㅂㅎㅣㄴㄷㅏ -18618
게일 -18619
▁심영 -18620
▁대북 -18621
▁서강 -18622
▁1931 -18623
▁결번 -18624
▁소굴 -18625
사전 -18626
OSS -18627
▁비행장 -18628
▁조성주 -18629
▁about -18630
▁ㄱㅡㄱㅎㅏㄴ -18631
▁푸시 -18632
▁불륜 -18633
▁ㅃㅣ -18634
▁노우 -18635
▁물결 -18636
▁양육 -18637
▁스캇 -18638
▁비타민 -18639
시즘 -18640
▁벨리 -18641
▁수없이 -18642
▁ㅊㅣㅇㅎㅏㄴㄷㅏ -18643
▁넬슨 -18644
▁바빌 -18645
▁천자 -18646
▁ㅃㅓㄴㅎㅏㄴ -18647
ene -18648
▁대영 -18649
▁부러지 -18650
▁수식어 -18651
▁구가 -18652
▁최승 -18653
▁ㅅㅏㅁㅋㅕ -18654
▁뮐러 -18655
▁승승장구 -18656
▁팔레스타인 -18657
▁ㅇㅣㄱㅎㅣㄴ -18658
▁디나 -18659
▁510 -18660
▁퍼레이드 -18661
▁서경 -18662
▁혼잡 -18663
▁사이렌 -18664
▁이불 -18665
▁거너 -18666
▁무마 -18667
▁외교관 -18668
▁조각상 -18669
▁종로구 -18670
▁콘스탄티노 -18671
▁매혹 -18672
틀린 -18673
▁남서 -18674
▁안영 -18675
▁착안 -18676
▁포박 -18677
▁Champion -18678
바야시 -18679
37 -18680
uss -18681
▁이크 -18682
▁리더십 -18683
▁1935 -18684
▁황녀 -18685
▁SNK -18686
▁양현종 -18687
▁교묘 -18688
▁도면 -18689
▁삼국사기 -18690
그래피 -18691
▁엘더 -18692
▁훌쩍 -18693
rough -18694
스틱 -18695
▁에델 -18696
▁첩자 -18697
▁파커 -18698
▁댁 -18699
ume -18700
▁니콜라 -18701
▁쿠토 -18702
AE -18703
▁쟤 -18704
▁기색 -18705
▁족보 -18706
▁질책 -18707
▁케일 -18708
▁하야시 -18709
▁메기 -18710
▁박원 -18711
▁번거 -18712
▁비방 -18713
[...]
