[UNK]	0
[CLS]	1
[SEP]	2
[PAD]	3
[MASK]	4
!	5
"	6
#	7
$	8
%	9
&	10
'	11
(	12
)	13
*	14
+	15
,	16
-	17
.	18
/	19
0	20
1	21
2	22
3	23
4	24
5	25
6	26
7	27
8	28
9	29
:	30
;	31
<	32
=	33
>	34
?	35
@	36
A	37
B	38
C	39
D	40
E	41
F	42
G	43
H	44
I	45
J	46
K	47
L	48
M	49
N	50
O	51
P	52
Q	53
R	54
S	55
T	56
U	57
V	58
W	59
X	60
Y	61
Z	62
[	63
\	64
]	65
^	66
_	67
`	68
a	69
b	70
c	71
d	72
e	73
f	74
g	75
h	76
i	77
j	78
k	79
l	80
m	81
n	82
o	83
p	84
q	85
r	86
s	87
t	88
u	89
v	90
w	91
x	92
y	93
z	94
{	95
|	96
}	97
~	98
	99
ᄀ	100
ᄁ	101
ᄂ	102
ᄃ	103
ᄄ	104
ᄅ	105
ᄆ	106
ᄇ	107
ᄈ	108
ᄉ	109
ᄊ	110
ᄋ	111
ᄌ	112
ᄍ	113
ᄎ	114
ᄏ	115
ᄐ	116
ᄑ	117
ᄒ	118
ᅡ	119
ᅢ	120
ᅣ	121
ᅤ	122
ᅥ	123
ᅦ	124
ᅧ	125
ᅨ	126
ᅩ	127
ᅪ	128
ᅫ	129
ᅬ	130
ᅭ	131
ᅮ	132
ᅯ	133
ᅰ	134
ᅱ	135
ᅲ	136
ᅳ	137
ᅴ	138
ᅵ	139
ᆨ	140
ᆩ	141
ᆪ	142
ᆫ	143
ᆬ	144
ᆭ	145
ᆮ	146
ᆯ	147
ᆰ	148
ᆱ	149
ᆲ	150
ᆳ	151
ᆴ	152
ᆵ	153
ᆶ	154
ᆷ	155
ᆸ	156
ᆹ	157
ᆺ	158
ᆻ	159
ᆼ	160
ᆽ	161
ᆾ	162
ᆿ	163
ᇀ	164
ᇁ	165
ᇂ	166
ㄱ	167
ㄲ	168
ㄳ	169
ㄴ	170
ㄵ	171
ㄶ	172
ㄷ	173
ㄸ	174
ㄹ	175
ㄺ	176
ㄻ	177
ㄼ	178
ㄽ	179
ㄾ	180
ㄿ	181
ㅀ	182
ㅁ	183
ㅂ	184
ㅃ	185
ㅄ	186
ㅅ	187
ㅆ	188
ㅇ	189
ㅈ	190
ㅉ	191
ㅊ	192
ㅋ	193
ㅌ	194
ㅍ	195
ㅎ	196
ㅏ	197
ㅐ	198
ㅑ	199
ㅒ	200
ㅓ	201
ㅔ	202
ㅕ	203
ㅖ	204
ㅗ	205
ㅘ	206
ㅙ	207
ㅚ	208
ㅛ	209
ㅜ	210
ㅝ	211
ㅞ	212
ㅟ	213
ㅠ	214
ㅡ	215
ㅢ	216
ㅣ	217
가	218
간	219
감	220
갑	221
갓	222
갔	223
강	224
같	225
개	226
거	227
건	228
걸	229
것	230
겄	231
게	232
겐	233
겟	234
겠	235
겨	236
곈	237
고	238
곡	239
곤	240
곰	241
곳	242
공	243
과	244
관	245
괴	246
교	247
구	248
군	249
굽	250
규	251
그	252
근	253
금	254
긋	255
긔	256
기	257
긴	258
길	259
까	260
깐	261
깝	262
깨	263
꺼	264
껀	265
껄	266
께	267
껭	268
껴	269
꼐	270
꼬	271
꾸	272
꿔	273
끄	274
끔	275
끼	276
나	277
난	278
남	279
내	280
냐	281
냔	282
냥	283
냬	284
냰	285
너	286
넌	287
네	288
넨	289
녀	290
녕	291
녜	292
노	293
논	294
놋	295
농	296
뇌	297
뇨	298
누	299
눈	300
느	301
는	302
늘	303
늠	304
능	305
늬	306
늰	307
니	308
닌	309
닛	310
닝	311
다	312
단	313
달	314
담	315
답	316
닷	317
당	318
대	319
댄	320
댑	321
댔	322
댜	323
더	324
던	325
덜	326
덧	327
덩	328
데	329
덴	330
뎁	331
뎌	332
도	333
돗	334
동	335
돠	336
되	337
두	338
둔	339
둥	340
뒈	341
드	342
득	343
든	344
들	345
듯	346
등	347
듸	348
디	349
딘	350
딩	351
따	352
떼	353
라	354
락	355
란	356
랄	357
람	358
랍	359
랏	360
랑	361
래	362
랜	363
랠	364
랩	365
랬	366
랴	367
랸	368
러	369
런	370
럴	371
럼	372
레	373
려	374
련	375
렴	376
렵	377
렷	378
렸	379
례	380
로	381
록	382
롤	383
롯	384
롱	385
롸	386
뢰	387
료	388
루	389
룩	390
류	391
르	392
른	393
를	394
리	395
린	396
릴	397
릿	398
링	399
마	400
만	401
많	402
말	403
망	404
매	405
맨	406
맹	407
먀	408
머	409
먼	410
멍	411
메	412
멘	413
며	414
면	415
모	416
목	417
몬	418
무	419
문	420
뭇	421
므	422
믄	423
미	424
민	425
바	426
밖	427
배	428
백	429
밲	430
버	431
벼	432
보	433
부	434
분	435
비	436
빈	437
뿐	438
사	439
살	440
삼	441
삽	442
상	443
새	444
샤	445
샨	446
샬	447
샴	448
샷	449
서	450
선	451
성	452
세	453
셔	454
션	455
셧	456
셨	457
셰	458
소	459
손	460
솝	461
송	462
쇠	463
쇼	464
숌	465
수	466
쉐	467
쉬	468
슈	469
스	470
슨	471
슴	472
습	473
시	474
신	475
실	476
심	477
십	478
싸	479
써	480
쎄	481
쏘	482
쏜	483
쑤	484
씨	485
씩	486
아	487
악	488
안	489
압	490
앗	491
았	492
앙	493
애	494
앱	495
앳	496
앴	497
야	498
약	499
얀	500
얄	501
얌	502
얏	503
얐	504
양	505
얘	506
얫	507
어	508
억	509
언	510
얼	511
엄	512
없	513
엇	514
었	515
엉	516
엊	517
에	518
엣	519
여	520
연	521
염	522
엿	523
였	524
영	525
예	526
옛	527
오	528
옥	529
온	530
올	531
옵	532
옷	533
와	534
완	535
왇	536
외	537
요	538
욘	539
욜	540
욤	541
욧	542
용	543
우	544
운	545
울	546
움	547
워	548
원	549
웓	550
월	551
웨	552
웬	553
웰	554
위	555
유	556
윤	557
윰	558
으	559
은	560
을	561
음	562
읍	563
응	564
의	565
이	566
인	567
일	568
잇	569
있	570
잉	571
자	572
작	573
잔	574
잖	575
잘	576
잡	577
장	578
재	579
쟈	580
쟛	581
쟤	582
저	583
정	584
제	585
젠	586
져	587
조	588
좁	589
좋	590
죠	591
죵	592
주	593
쥬	594
즈	595
즉	596
지	597
직	598
진	599
징	600
쩌	601
찌	602
차	603
처	604
치	605
침	606
카	607
캉	608
캤	609
커	610
케	611
코	612
쿠	613
큼	614
키	615
타	616
터	617
텀	618
텅	619
테	620
텨	621
투	622
튼	623
티	624
파	625
프	626
피	627
하	628
한	629
허	630
헌	631
혀	632
히	633
##ᅳ	634
##ᆿ	635
##ᄑ	636
##ᅡ	637
##ᆯ	638
##ᄀ	639
##ᅩ	640
##ᆼ	641
##ᅦ	642
##ᄉ	643
##ᅧ	644
##ᆫ	645
##ᅪ	646
##ᄋ	647
##ᅴ	648
##e	649
##a	650
##d	651
##b	652
##i	653
##l	654
##t	655
##y	656
##ᆹ	657
##ᄂ	658
##ᄆ	659
##ᅵ	660
##만	661
##r	662
##o	663
##n	664
##w	665
##m	666
##ᅮ	667
##ᄒ	668
##2	669
##8	670
##1	671
##3	672
##ᄌ	673
##ᅣ	674
##u	675
##s	676
##ᄅ	677
##ᅥ	678
##v	679
##c	680
##h	681
##ᆷ	682
##ᄎ	683
##ㄲ	684
##ᄊ	685
##z	686
##p	687
##g	688
##k	689
##ᄃ	690
##ᄇ	691
##ᆨ	692
##5	693
##9	694
##0	695
##7	696
##ᄏ	697
##ᄐ	698
##ᅢ	699
##ᆸ	700
##ᆮ	701
##4	702
##Y	703
##C	704
##U	705
##B	706
##E	707
##ᅲ	708
##ᅭ	709
##R	710
##T	711
##F	712
##X	713
##x	714
##L	715
##I	716
##O	717
##D	718
##q	719
##A	720
##G	721
##ᅰ	722
##ᅯ	723
##K	724
##J	725
##S	726
##H	727
##V	728
##6	729
##f	730
##ᅨ	731
##N	732
##ᆭ	733
##ᄍ	734
##ᆺ	735
##ᄁ	736
##ᆾ	737
##ᆽ	738
##ㅟ	739
##ㅀ	740
##W	741
##ᅱ	742
##M	743
##ᇂ	744
##j	745
##ᅬ	746
##들	747
##ㅖ	748
##ㄷ	749
##P	750
##_	751
##>	752
##ᅫ	753
##ᆻ	754
##ᄄ	755
##디	756
##"	757
##,	758
##ᄈ	759
##Z	760
##=	761
##.	762
##'	763
##ᆶ	764
##ᅤ	765
##ᆩ	766
##Q	767
##ᇁ	768
##라	769
##리	770
##ㅜ	771
##ㅍ	772
##ᆬ	773
##{	774
##-	775
##ᆱ	776
##ㄼ	777
##ㅐ	778
##ㅓ	779
##ㄹ	780
##ㅁ	781
##ㅊ	782
##!	783
##ㅝ	784
##ㅘ	785
##~	786
##/	787
##ᇀ	788
##ㅇ	789
##ㅣ	790
##네	791
##까	792
##ㅞ	793
##ㅆ	794
##ㅑ	795
##ㄽ	796
##ᆵ	797
##ㅢ	798
##ㄶ	799
##?	800
##든	801
##ㅈ	802
##*	803
##]	804
###	805
##^	806
##}	807
##+	808
##ㅚ	809
##ㄱ	810
##\	811
##래	812
##ㅋ	813
##ㅒ	814
##ㅅ	815
##ᆴ	816
##)	817
##;	818
##ᆰ	819
##ᆪ	820
##ㅙ	821
##ㅎ	822
##다	823
##요	824
##려	825
##ᆲ	826
##오	827
##`	828
##이	829
##ㄺ	830
##$	831
##[	832
##ㅌ	833
##가	834
##ㄴ	835
##ㄸ	836
##ㅂ	837
##ㅃ	838
##ㅉ	839
##ㄾ	840
##유	841
##야	842
##ㄳ	843
##:	844
##&	845
##ᆳ	846
##@	847
##(	848
##%	849
##ㅡ	850
##ㅕ	851
##ㅄ	852
##기	853
##지	854
##구	855
##나	856
##는	857
##며	858
##ㅠ	859
##ㄻ	860
##ㅔ	861
##서	862
##건	863
##고	864
##냐	865
##ㄵ	866
##소	867
##도	868
##데	869
##랍	870
##니	871
##ㅗ	872
##마	873
##군	874
##용	875
##ㅏ	876
##대	877
##|	878
##꺼	879
##시	880
##ㄿ	881
##저	882
##더	883
##ㅛ	884
##었	885
##여	886
##뎌	887
##죠	888
##면	889
##부	890
##터	891
##록	892
##교	893
##옵	894
##<	895
##셔	896
##쇼	897
##셰	898
##꾸	899
##담	900
##아	901
##피	902
##와	903
##투	904
##로	905
##답	906
##깐	907
##두	908
##껴	909
##말	910
##우	911
##즉	912
##슨	913
##던	914
##잖	915
##련	916
##큼	917
##란	918
##료	919
##람	920
##외	921
##당	922
##레	923
##그	924
##겠	925
##거	926
##주	927
##매	928
##뎁	929
##문	930
##사	931
##어	932
##치	933
##먼	934
##게	935
##하	936
##겨	937
##에	938
##테	939
##랴	940
##차	941
##은	942
##께	943
##꼬	944
##녀	945
##달	946
##믄	947
##랑	948
##러	949
##잉	950
##쿠	951
##자	952
##댔	953
##난	954
##써	955
##랏	956
##세	957
##스	958
##곳	959
##예	960
##느	961
##뇨	962
##수	963
##프	964
##선	965
##위	966
##정	967
##냔	968
##감	969
##욧	970
##룩	971
##커	972
##녕	973
##재	974
##직	975
##길	976
##밖	977
##빈	978
##무	979
##랬	980
##쥬	981
##메	982
##워	983
##손	984
##언	985
##바	986
##실	987
##져	988
##규	989
##끼	990
##댜	991
##망	992
##므	993
##파	994
##락	995
##곤	996
##드	997
##깨	998
##덴	999
##되	1000
##제	1001
##씨	1002
##닛	1003
##쇠	1004
##십	1005
##늘	1006
##동	1007
##단	1008
##렷	1009
##걸	1010
##진	1011
##논	1012
##미	1013
##티	1014
##	1015
##듯	1016
##둥	1017
##모	1018
##키	1019
##셨	1020
##댄	1021
##누	1022
##웨	1023
##신	1024
##비	1025
##랜	1026
##겐	1027
##장	1028
##런	1029
##놋	1030
##잇	1031
##숌	1032
##공	1033
##롱	1034
##른	1035
##넌	1036
##캤	1037
##노	1038
##찌	1039
##카	1040
##작	1041
##루	1042
##텨	1043
##굽	1044
##껄	1045
##개	1046
##갑	1047
##케	1048
##새	1049
##슈	1050
##머	1051
##듸	1052
##따	1053
##보	1054
##간	1055
##근	1056
##를	1057
##르	1058
##옷	1059
##안	1060
##텅	1061
##셧	1062
##양	1063
##등	1064
##온	1065
##덩	1066
##렵	1067
##샤	1068
##성	1069
##럴	1070
##으	1071
##압	1072
##냥	1073
##텀	1074
##징	1075
##뿐	1076
##쟈	1077
##멍	1078
##싸	1079
##습	1080
##꿔	1081
##닌	1082
##금	1083
##랄	1084
##강	1085
##쏘	1086
##쏜	1087
##많	1088
##넨	1089
##염	1090
##릴	1091
##끔	1092
##벼	1093
##타	1094
##럼	1095
##목	1096
##돠	1097
##침	1098
##렴	1099
##엇	1100
##껀	1101
##멘	1102
이	1103
하	1104
##ᅡᆼ	1105
##이	1106
##ᅡᆫ	1107
##ᅥᆫ	1108
##리	1109
##ᅩᆼ	1110
##ᅧᆫ	1111
##ᅧᆼ	1112
##ᅥᆼ	1113
##ᅳᆯ	1114
##ᅡᆯ	1115
##ᅮᆫ	1116
시	1117
##시	1118
##지	1119
##ᅡᆨ	1120
##스	1121
##ᅩᆨ	1122
아	1123
되	1124
그	1125
있	1126
지	1127
##ᅮᆯ	1128
가	1129
주	1130
##하	1131
##ᅧᆨ	1132
거	1133
에서	1134
사	1135
##ᅥᆨ	1136
으로	1137
ᆫ다	1138
##기	1139
##ᅩᆫ	1140
##ᅳᆼ	1141
##어	1142
들	1143
어	1144
대	1145
수	1146
##르	1147
나	1148
기	1149
##ᅢᆼ	1150
마	1151
보	1152
##ᅮᆨ	1153
##드	1154
##가	1155
것	1156
##라	1157
##로	1158
자	1159
##ᅥᆯ	1160
##나	1161
일	1162
모	1163
##ᅯᆫ	1164
다	1165
##ᅦ이	1166
전	1167
##ᅥᆷ	1168
##트	1169
##우	1170
##사	1171
적	1172
오	1173
##장	1174
##치	1175
##도	1176
##ᅧᆯ	1177
바	1178
##자	1179
년	1180
##대	1181
스	1182
##요	1183
##니	1184
##ᅪᆫ	1185
미	1186
정	1187
##러	1188
##그	1189
##미	1190
조	1191
상	1192
유	1193
20	1194
부	1195
##수	1196
##인	1197
##정	1198
화	1199
##오	1200
##ᅣᆼ	1201
##아	1202
공	1203
비	1204
##주	1205
때	1206
##상	1207
##전	1208
##ᅢᆨ	1209
##히	1210
위	1211
중	1212
인	1213
경	1214
##화	1215
제	1216
##국	1217
고	1218
##용	1219
차	1220
도	1221
##력	1222
##제	1223
한	1224
##키	1225
##ᅯᆯ	1226
소	1227
무	1228
##구	1229
##성	1230
노	1231
##신	1232
없	1233
##고	1234
등	1235
##문	1236
성	1237
##부	1238
세	1239
##ᅳᆷ	1240
지만	1241
여	1242
##래	1243
##ᅥᆸ	1244
않	1245
##원	1246
월	1247
##격	1248
만	1249
##동	1250
에게	1251
##ᅳᆨ	1252
개	1253
##마	1254
##터	1255
타	1256
##타	1257
구	1258
내	1259
리	1260
201	1261
동	1262
피	1263
##간	1264
장	1265
방	1266
선	1267
연	1268
##비	1269
##거	1270
##다	1271
후	1272
##즈	1273
##유	1274
##ᅦᆯ	1275
영	1276
드	1277
##ᅦᆫ	1278
카	1279
말	1280
치	1281
우	1282
신	1283
발	1284
당	1285
##체	1286
요	1287
안	1288
생	1289
버	1290
##소	1291
##야	1292
##작	1293
##ᅪᆼ	1294
##크	1295
는데	1296
##무	1297
##명	1298
##ᅵᆷ	1299
서	1300
##계	1301
의	1302
##ᆯ리	1303
추	1304
크	1305
파	1306
원	1307
##서	1308
포	1309
##일	1310
회	1311
때문	1312
명	1313
##재	1314
19	1315
강	1316
까지	1317
##보	1318
해	1319
아서	1320
##식	1321
##위	1322
##들	1323
##티	1324
##의	1325
최	1326
##만	1327
##00	1328
문	1329
##당	1330
##후	1331
##루	1332
아니	1333
매	1334
배	1335
##카	1336
##프	1337
데	1338
더	1339
실	1340
같	1341
##음	1342
번	1343
관	1344
##선	1345
라고	1346
##교	1347
받	1348
##물	1349
불	1350
라는	1351
##행	1352
호	1353
진	1354
코	1355
##실	1356
단	1357
##능	1358
결	1359
##내	1360
##학	1361
##역	1362
##회	1363
##단	1364
라	1365
프	1366
반	1367
초	1368
패	1369
많	1370
##ᅡᆯ리	1371
##공	1372
특	1373
나오	1374
##디	1375
##한	1376
다고	1377
##람	1378
로	1379
역	1380
작	1381
##모	1382
##속	1383
##토	1384
야	1385
으며	1386
##피	1387
계	1388
##버	1389
면서	1390
##반	1391
보이	1392
쓰	1393
##려	1394
##점	1395
##과	1396
분	1397
레	1398
##레	1399
##분	1400
남	1401
##조	1402
##산	1403
국	1404
그리	1405
그러	1406
##생	1407
경우	1408
10	1409
##ᅳᆫ	1410
두	1411
##각	1412
다르	1413
처	1414
##차	1415
##두	1416
사용	1417
어서	1418
현	1419
출	1420
##본	1421
##레이	1422
에	1423
다는	1424
물	1425
##진	1426
공격	1427
##연	1428
##중	1429
저	1430
##류	1431
이후	1432
##호	1433
##관	1434
캐	1435
예	1436
##태	1437
자신	1438
교	1439
따	1440
##면	1441
##안	1442
알	1443
못	1444
학	1445
감	1446
통	1447
점	1448
재	1449
또	1450
애	1451
##군	1452
편	1453
##민	1454
##세	1455
좋	1456
##영	1457
##런	1458
사람	1459
##코	1460
##노	1461
트	1462
##름	1463
디	1464
##바	1465
키	1466
##해	1467
입	1468
##급	1469
위하	1470
##저	1471
##금	1472
##경	1473
정도	1474
대하	1475
##방	1476
##법	1477
##ᅮᆷ	1478
##발	1479
##적	1480
메	1481
##브	1482
##종	1483
속	1484
너	1485
부터	1486
형	1487
함	1488
설	1489
과	1490
##업	1491
##습	1492
##통	1493
##스트	1494
김	1495
##포	1496
군	1497
##록	1498
참	1499
가능	1500
플	1501
게이	1502
##승	1503
##양	1504
외	1505
평	1506
본	1507
토	1508
##론	1509
시키	1510
##술	1511
##매	1512
다른	1513
종	1514
##준	1515
##료	1516
##파	1517
권	1518
승	1519
12	1520
##건	1521
##직	1522
##녀	1523
으나	1524
죽	1525
이나	1526
가지	1527
##심	1528
팀	1529
200	1530
뒤	1531
등장	1532
직	1533
##션	1534
##투	1535
는다	1536
##입	1537
아이	1538
11	1539
보다	1540
히	1541
##표	1542
그리고	1543
용	1544
판	1545
버리	1546
##어지	1547
확	1548
하나	1549
게임	1550
체	1551
행	1552
경기	1553
변	1554
심	1555
운	1556
돌	1557
##운	1558
..	1559
맞	1560
만들	1561
##개	1562
##판	1563
못하	1564
박	1565
끄	1566
##여	1567
살	1568
##약	1569
채	1570
##족	1571
##테	1572
잘	1573
##er	1574
##데	1575
##석	1576
사실	1577
달	1578
간	1579
활	1580
투	1581
##랑	1582
##설	1583
집	1584
##령	1585
시간	1586
##황	1587
다가	1588
##형	1589
##량	1590
##너	1591
목	1592
양	1593
##련	1594
필	1595
약	1596
건	1597
##출	1598
사이	1599
##릭	1600
각	1601
네	1602
##합	1603
높	1604
##츠	1605
##향	1606
모드	1607
##께	1608
테	1609
##청	1610
시작	1611
##란	1612
표	1613
루	1614
##추	1615
##품	1616
##현	1617
일본	1618
새	1619
##복	1620
이상	1621
##망	1622
모습	1623
이름	1624
왕	1625
##것	1626
##더	1627
태	1628
##니다	1629
언	1630
함께	1631
##절	1632
존	1633
순	1634
열	1635
##외	1636
##언	1637
##게	1638
따르	1639
상대	1640
독	1641
베	1642
증	1643
한국	1644
##어나	1645
##지만	1646
문제	1647
15	1648
##울	1649
프로	1650
##환	1651
##머	1652
거나	1653
병	1654
천	1655
총	1656
손	1657
##ᅳᆯ리	1658
잡	1659
브	1660
##in	1661
으면	1662
효	1663
하지만	1664
터	1665
##네	1666
##임	1667
##스터	1668
능	1669
생각	1670
음	1671
##ᅵᆨ	1672
별	1673
힘	1674
##독	1675
완	1676
##즌	1677
다시	1678
끝	1679
##송	1680
막	1681
또한	1682
##병	1683
항	1684
##목	1685
폭	1686
##천	1687
스키	1688
가장	1689
##립	1690
복	1691
들어	1692
근	1693
##ᆯ라	1694
광	1695
##배	1696
##험	1697
식	1698
날	1699
캐릭	1700
당시	1701
##대로	1702
시즌	1703
플레이	1704
##럽	1705
삼	1706
티	1707
ᆫ데	1708
듯	1709
누	1710
아야	1711
먹	1712
##막	1713
싸	1714
처럼	1715
캐릭터	1716
당하	1717
##락	1718
및	1719
18	1720
검	1721
##on	1722
능력	1723
산	1724
빠	1725
ᆫ지	1726
##년	1727
모두	1728
상황	1729
백	1730
충	1731
##색	1732
상태	1733
니	1734
그렇	1735
민	1736
##결	1737
아도	1738
임	1739
블	1740
레이	1741
길	1742
##쪽	1743
느	1744
##ᅧᆸ	1745
모든	1746
##감	1747
##퍼	1748
##근	1749
추가	1750
금	1751
결국	1752
##벨	1753
머	1754
앞	1755
라이	1756
세계	1757
##악	1758
##ᆫ드	1759
커	1760
##질	1761
선수	1762
##an	1763
##초	1764
##담	1765
16	1766
##or	1767
카드	1768
친	1769
스킬	1770
##미지	1771
곡	1772
##탄	1773
업	1774
현재	1775
##등	1776
얼	1777
합	1778
##케	1779
##살	1780
##쿠	1781
슈	1782
쿠	1783
넘	1784
##편	1785
악	1786
##말	1787
많이	1788
##쟁	1789
##남	1790
ᆫ다는	1791
통하	1792
전투	1793
쉬	1794
효과	1795
다음	1796
30	1797
다만	1798
급	1799
##메	1800
그러나	1801
눈	1802
존재	1803
##함	1804
지역	1805
##라이	1806
13	1807
미국	1808
취	1809
여기	1810
시리	1811
첫	1812
##에	1813
허	1814
##택	1815
##항	1816
청	1817
##접	1818
14	1819
199	1820
매우	1821
엔	1822
##예	1823
법	1824
황	1825
##ar	1826
창	1827
##냥	1828
이러	1829
바ᄁ	1830
페	1831
클	1832
이ᄇ	1833
달리	1834
##ᅥᆯ어지	1835
북	1836
절	1837
17	1838
##견	1839
극	1840
##존	1841
대학	1842
얻	1843
그런	1844
##강	1845
골	1846
##처	1847
##글	1848
상당	1849
뜨	1850
ᄇ니다	1851
레벨	1852
##패	1853
기록	1854
##범	1855
##he	1856
시리즈	1857
찾	1858
째	1859
스타	1860
게	1861
괴	1862
##at	1863
이유	1864
인하	1865
##집	1866
철	1867
기술	1868
##움	1869
##ᅮᆼ	1870
물론	1871
무기	1872
엄	1873
##득	1874
어ᄄ	1875
그래	1876
이용	1877
의하	1878
여러	1879
##왕	1880
올리	1881
처음	1882
##규	1883
다면	1884
놓	1885
난	1886
자체	1887
부르	1888
팬	1889
방송	1890
곳	1891
100	1892
이것	1893
##와	1894
이런	1895
은	1896
##별	1897
필요	1898
영화	1899
줄	1900
##템	1901
워	1902
실제	1903
환	1904
##커	1905
##워	1906
##널	1907
해당	1908
25	1909
들어가	1910
모르	1911
마법	1912
주인	1913
##곡	1914
귀	1915
##ᅧᆾ	1916
##열	1917
일반	1918
탈	1919
ᆫ다고	1920
돌아	1921
어야	1922
규	1923
거의	1924
꼬	1925
##끼	1926
##거리	1927
역시	1928
바로	1929
##은	1930
##느	1931
리그	1932
학교	1933
혼	1934
범	1935
나가	1936
잠	1937
사건	1938
##틀	1939
##으	1940
스ᄐ	1941
##en	1942
같이	1943
특히	1944
##달	1945
관련	1946
유니	1947
기본	1948
2017	1949
붙	1950
##착	1951
##박	1952
부분	1953
와	1954
즉	1955
위치	1956
피해	1957
##야기	1958
진행	1959
류	1960
##롭	1961
##ou	1962
겨	1963
아무	1964
방어	1965
격	1966
2018	1967
면	1968
탄	1969
##칭	1970
이야기	1971
##부분	1972
축	1973
대표	1974
글	1975
##창	1976
담	1977
마지	1978
국가	1979
좀	1980
는지	1981
없이	1982
가ᄁ	1983
##례	1984
제작	1985
##권	1986
##찰	1987
메이	1988
활동	1989
인간	1990
##난	1991
싶	1992
동안	1993
##육	1994
밝	1995
작품	1996
알리	1997
걸	1998
증가	1999
##때	2000
##변	2001
둘	2002
웨	2003
##괴	2004
풀	2005
대부분	2006
준	2007
래	2008
쉽	2009
뿐	2010
##al	2011
비스	2012
##페	2013
접	2014
마지막	2015
본인	2016
##ᆨ스	2017
##찬	2018
몸	2019
자기	2020
씨	2021
엘	2022
2019	2023
##ᆯ러	2024
일부	2025
##혼	2026
지나	2027
계속	2028
ᆫ가	2029
##활	2030
##렵	2031
##시아	2032
떨어지	2033
21	2034
암	2035
생기	2036
서울	2037
##ᇂ게	2038
몬	2039
우리	2040
##극	2041
몇	2042
내용	2043
##es	2044
샤	2045
##광	2046
러	2047
주인공	2048
벌	2049
##률	2050
넣	2051
2016	2052
덕	2053
감독	2054
##희	2055
참고	2056
속도	2057
관계	2058
50	2059
##철	2060
##애	2061
##순	2062
흐	2063
##월	2064
맡	2065
팔	2066
##린	2067
헤	2068
##전히	2069
중국	2070
##없	2071
대신	2072
수준	2073
이전	2074
그냥	2075
타이	2076
어도	2077
쪽	2078
까	2079
비슷	2080
어느	2081
으니	2082
나이	2083
##징	2084
오르	2085
전쟁	2086
##리스	2087
비하	2088
지금	2089
##블	2090
##베	2091
라면	2092
강하	2093
희	2094
##턴	2095
##날	2096
##응	2097
만나	2098
성공	2099
22	2100
스토	2101
질	2102
낮	2103
##ᅦ이스	2104
기준	2105
홍	2106
뛰	2107
짜	2108
도시	2109
##ᅦ인	2110
밝히	2111
인물	2112
##탈	2113
##돌	2114
논	2115
습니다	2116
멀	2117
떠	2118
울	2119
##불	2120
슬	2121
이루	2122
배우	2123
협	2124
도록	2125
##벌	2126
198	2127
상당히	2128
공격력	2129
그녀	2130
자리	2131
대한	2132
24	2133
##율	2134
##ᅦᆫ트	2135
최대	2136
기사	2137
올라	2138
##랴	2139
##민국	2140
결과	2141
홈	2142
지원	2143
##ᆷ버	2144
그대로	2145
평가	2146
시절	2147
밀	2148
##증	2149
너무	2150
##슨	2151
빠르	2152
육	2153
##온	2154
뉴	2155
##플	2156
##략	2157
보스	2158
제외	2159
##it	2160
므로	2161
죽이	2162
몰	2163
##할	2164
연구	2165
##림	2166
##버지	2167
의미	2168
온	2169
##씨	2170
망	2171
나타	2172
##ᅦ이지	2173
실제로	2174
##축	2175
##백	2176
측	2177
소속	2178
##북	2179
##라지	2180
이미	2181
로서	2182
봉	2183
##귀	2184
승리	2185
직접	2186
전체	2187
2015	2188
##책	2189
영상	2190
대한민국	2191
보내	2192
향	2193
23	2194
##큼	2195
어렵	2196
원래	2197
유닛	2198
퍼	2199
체력	2200
여자	2201
##을	2202
##ᆯ로	2203
마다	2204
##굴	2205
언급	2206
##부터	2207
그것	2208
##리아	2209
##획	2210
##념	2211
묘	2212
개발	2213
데미지	2214
멤버	2215
##ing	2216
유저	2217
갖	2218
##st	2219
##le	2220
갈	2221
##학교	2222
머리	2223
##ic	2224
츠	2225
휴	2226
이동	2227
##가지	2228
##앙	2229
마음	2230
설정	2231
40	2232
싸우	2233
정보	2234
책	2235
ᆫ다면	2236
맨	2237
씩	2238
방법	2239
컨	2240
문서	2241
선택	2242
애니	2243
차이	2244
님	2245
##re	2246
깨	2247
과거	2248
##늘	2249
가까	2250
##ᆷ피	2251
##운드	2252
던	2253
몬스터	2254
듣	2255
센	2256
쇼	2257
왜	2258
##평	2259
##슬	2260
출연	2261
성우	2262
불리	2263
송	2264
##몬	2265
친구	2266
포함	2267
파이	2268
##욱	2269
돈	2270
침	2271
##dd	2272
빼	2273
석	2274
##닝	2275
농	2276
##ᅦ이션	2277
갑	2278
뜻	2279
뭐	2280
압	2281
탑	2282
##짜	2283
대상	2284
##누	2285
설명	2286
거리	2287
엄청	2288
##는	2289
프리	2290
혹	2291
어ᄍ	2292
사회	2293
소리	2294
##총	2295
바람	2296
플레이어	2297
장면	2298
##딩	2299
힘들	2300
우승	2301
최고	2302
여성	2303
##봉	2304
버전	2305
사랑	2306
바뀌	2307
##델	2308
아버지	2309
즈	2310
##웅	2311
##침	2312
마이	2313
동시	2314
칼	2315
공식	2316
##팅	2317
유명	2318
시대	2319
스럽	2320
2014	2321
##켓	2322
답	2323
발생	2324
영향	2325
사망	2326
주로	2327
어떠	2328
꽤	2329
대회	2330
프랑	2331
##주의	2332
남자	2333
궁	2334
층	2335
색	2336
결정	2337
조금	2338
려고	2339
발매	2340
26	2341
주장	2342
##랜드	2343
출신	2344
아이템	2345
##ff	2346
초반	2347
000	2348
역사	2349
걸리	2350
섬	2351
빠지	2352
인터	2353
일어나	2354
학생	2355
나라	2356
전부	2357
버스	2358
공개	2359
28	2360
푸	2361
##쉬	2362
운영	2363
서로	2364
유지	2365
콘	2366
오래	2367
스토리	2368
##밀	2369
##el	2370
27	2371
##ᅦ일	2372
대사	2373
구성	2374
##염	2375
##갑	2376
파괴	2377
제대로	2378
##am	2379
정부	2380
방식	2381
만큼	2382
음악	2383
쏘	2384
강화	2385
자주	2386
31	2387
중요	2388
아직	2389
후반	2390
이때	2391
##쁘	2392
월드	2393
나타나	2394
또는	2395
노래	2396
##컬	2397
the	2398
정치	2399
과정	2400
형태	2401
밖	2402
최종	2403
새롭	2404
다니	2405
독일	2406
시스	2407
르	2408
역할	2409
휘	2410
최초	2411
억	2412
대전	2413
##벽	2414
딜	2415
##랙	2416
좌	2417
끼	2418
착	2419
뽀	2420
찍	2421
##필	2422
마리	2423
쓰이	2424
이벤트	2425
누구	2426
##om	2427
##머니	2428
강력	2429
아래	2430
정말	2431
변경	2432
회복	2433
##얼	2434
##곤	2435
##클	2436
##먹	2437
##확	2438
기존	2439
##우스	2440
싱	2441
##맨	2442
바이	2443
볼	2444
##다가	2445
그런데	2446
##잡	2447
영국	2448
보통	2449
비교	2450
드래	2451
소환	2452
잔	2453
느끼	2454
정신	2455
##아가	2456
##객	2457
폐	2458
마찬	2459
마찬가지	2460
이기	2461
##la	2462
어떤	2463
조선	2464
라도	2465
당연	2466
##측	2467
##프트	2468
특성	2469
인기	2470
##is	2471
엄청나	2472
성능	2473
늘	2474
링	2475
확률	2476
속성	2477
##뜨	2478
마을	2479
##번	2480
먼	2481
행동	2482
움	2483
##이도	2484
##훈	2485
바꾸	2486
앨	2487
2013	2488
슈퍼	2489
오히	2490
노선	2491
다이	2492
대로	2493
윤	2494
모양	2495
##덕	2496
이제	2497
오히려	2498
풍	2499
데이	2500
올	2501
드라	2502
##라도	2503
##풍	2504
가깝	2505
자유	2506
아들	2507
교육	2508
197	2509
발견	2510
차량	2511
##억	2512
라인	2513
##퇴	2514
##휘	2515
짓	2516
29	2517
사라지	2518
끌	2519
##너지	2520
게다가	2521
술	2522
32	2523
하이	2524
부족	2525
특수	2526
프랑스	2527
##et	2528
이번	2529
00	2530
대학교	2531
확인	2532
성격	2533
끝나	2534
문화	2535
유일	2536
활약	2537
차지	2538
##렌	2539
##손	2540
흑	2541
수록	2542
##ol	2543
2012	2544
장비	2545
관리	2546
케	2547
##ion	2548
##혀	2549
아예	2550
##답	2551
영웅	2552
응	2553
모델	2554
일단	2555
입장	2556
구하	2557
녹	2558
액	2559
내리	2560
생산	2561
맞추	2562
스트	2563
따라	2564
시스템	2565
빛	2566
이렇게	2567
제국	2568
##지어	2569
흔	2570
맵	2571
훈	2572
숨	2573
##폭	2574
고등	2575
뽑	2576
어리	2577
##웨	2578
##숙	2579
돌아오	2580
에피	2581
##ᆫ스	2582
들어오	2583
먼저	2584
심지어	2585
득	2586
경찰	2587
반대	2588
##디오	2589
계획	2590
주변	2591
거기	2592
##레이드	2593
운동	2594
2010	2595
앨범	2596
자동	2597
어요	2598
##골	2599
획	2600
완전히	2601
조건	2602
##ᅢᆼ크	2603
드러	2604
##램	2605
우주	2606
기간	2607
사진	2608
##엇	2609
##새	2610
##레스	2611
애니ᄆ	2612
난이도	2613
부대	2614
##옥	2615
적용	2616
발동	2617
개인	2618
기능	2619
##ow	2620
지구	2621
##럼	2622
뮤	2623
건물	2624
스ᄑ	2625
60	2626
감소	2627
위원	2628
잃	2629
##nd	2630
km	2631
##멸	2632
##20	2633
축구	2634
자세	2635
##통령	2636
##il	2637
떠나	2638
##ig	2639
어디	2640
그루	2641
##든	2642
중심	2643
으로서	2644
##ed	2645
실패	2646
##ᆨ트	2647
견	2648
##ᅦ이트	2649
지키	2650
그래서	2651
##져	2652
##곳	2653
세트	2654
혹은	2655
중앙	2656
선거	2657
##롯	2658
라며	2659
현대	2660
35	2661
##튼	2662
회사	2663
덕분	2664
##ᆼ장	2665
돌아가	2666
클리	2667
초기	2668
##뢰	2669
##ᅩᆾ	2670
전혀	2671
얼굴	2672
작가	2673
시기	2674
듀	2675
표현	2676
국내	2677
##탁	2678
원작	2679
##충	2680
민주	2681
대통령	2682
패배	2683
##웃	2684
물리	2685
처리	2686
오브	2687
순간	2688
TV	2689
하루	2690
동일	2691
날리	2692
##뷔	2693
모으	2694
지속	2695
프로그	2696
드라마	2697
반응	2698
지방	2699
##익	2700
무엇	2701
얼마	2702
열리	2703
##균	2704
##버스	2705
##먼	2706
도움	2707
더라도	2708
인정	2709
##엘	2710
참여	2711
기관	2712
맥	2713
애니메이션	2714
출시	2715
##니아	2716
칸	2717
명칭	2718
##ac	2719
판매	2720
담당	2721
데뷔	2722
##as	2723
##나마	2724
##없이	2725
꾸	2726
퇴	2727
##BS	2728
정확	2729
##압	2730
크로	2731
요구	2732
획득	2733
196	2734
땅	2735
##룡	2736
굉장	2737
생활	2738
그렇게	2739
of	2740
시점	2741
헌	2742
컴	2743
2011	2744
설치	2745
밖에	2746
작중	2747
넘어	2748
다양	2749
발표	2750
##슈	2751
후보	2752
그룹	2753
상승	2754
##아내	2755
진출	2756
선발	2757
아군	2758
구조	2759
기억	2760
롭	2761
항목	2762
Lv	2763
영어	2764
만화	2765
가격	2766
움직	2767
습	2768
탐	2769
단계	2770
족	2771
벨	2772
##소드	2773
그림	2774
##럭	2775
밤	2776
##므로	2777
특별	2778
##들이	2779
올라가	2780
마스터	2781
실력	2782
##ve	2783
그나마	2784
##놓	2785
핵	2786
##링	2787
세이	2788
으므로	2789
##죄	2790
량	2791
##싸	2792
드래곤	2793
아마	2794
##리카	2795
다며	2796
턴	2797
세우	2798
이거	2799
찌	2800
01	2801
##욕	2802
야구	2803
빌	2804
헬	2805
킹	2806
##채	2807
았었	2808
덱	2809
졸	2810
시장	2811
맛	2812
수비	2813
낙	2814
The	2815
미치	2816
가족	2817
##비스	2818
아주	2819
범위	2820
##탕	2821
##찮	2822
사고	2823
특징	2824
밀리	2825
연기	2826
##넷	2827
려는	2828
##소리	2829
경제	2830
시청	2831
방향	2832
대체	2833
딸	2834
패치	2835
경험	2836
##뜨리	2837
계약	2838
퀘	2839
고려	2840
아르	2841
##ot	2842
남기	2843
한테	2844
조차	2845
숙	2846
확실	2847
참가	2848
국제	2849
딱	2850
지니	2851
디자	2852
에피소드	2853
500	2854
발사	2855
세대	2856
어머니	2857
폭발	2858
묘사	2859
로부터	2860
##스크	2861
##덤	2862
주의	2863
프로그램	2864
##이드	2865
고등학교	2866
80	2867
던지	2868
믿	2869
활용	2870
2000	2871
트리	2872
굴	2873
어떻게	2874
피하	2875
상위	2876
결혼	2877
무시	2878
라서	2879
##으키	2880
비판	2881
목적	2882
##효	2883
더욱	2884
준비	2885
##못	2886
중간	2887
나무	2888
##밍	2889
심하	2890
각각	2891
##ad	2892
쿨	2893
보호	2894
37	2895
브라	2896
러시아	2897
45	2898
이ᄁ	2899
오리	2900
펼	2901
묻	2902
챔피	2903
버프	2904
##맹	2905
라운드	2906
굉장히	2907
이미지	2908
패턴	2909
빈	2910
국민	2911
##궁	2912
히로	2913
이르	2914
##혹	2915
이어지	2916
위험	2917
진짜	2918
옆	2919
##인트	2920
참조	2921
내려	2922
꿈	2923
##검	2924
대미지	2925
생명	2926
조직	2927
조사	2928
죄	2929
단순	2930
혼자	2931
싸움	2932
과학	2933
여담	2934
크리스	2935
약하	2936
##ᅦ임	2937
이루어지	2938
꺼	2939
전하	2940
나쁘	2941
스피	2942
타입	2943
다루	2944
##뷰	2945
흡	2946
소모	2947
세력	2948
스ᄏ	2949
현실	2950
ᆯ지	2951
파워	2952
St	2953
안타	2954
시도	2955
##씬	2956
염	2957
제공	2958
욕	2959
주요	2960
구간	2961
흥	2962
율	2963
194	2964
유리	2965
불구	2966
거치	2967
할	2968
가리	2969
전문	2970
지하	2971
유럽	2972
일으키	2973
연속	2974
웃	2975
##칙	2976
부산	2977
세기	2978
##머지	2979
나머지	2980
순위	2981
논란	2982
돕	2983
조합	2984
한정	2985
포인트	2986
괘	2987
익	2988
사실상	2989
약간	2990
##아오	2991
케이	2992
##갈	2993
론	2994
##틴	2995
아프	2996
노리	2997
동료	2998
##id	2999
70	3000
클래	3001
뛰어나	3002
오프	3003
분위	3004
성장	3005
훨	3006
09	3007
##섭	3008
##ay	3009
무장	3010
여전히	3011
바라	3012
디자인	3013
즐	3014
분위기	3015
당연히	3016
취급	3017
항공	3018
출전	3019
##스로	3020
90	3021
이해	3022
으면서	3023
학년	3024
얘	3025
일정	3026
규모	3027
등급	3028
##혁	3029
싫	3030
훨씬	3031
FC	3032
##ER	3033
지도	3034
투수	3035
소설	3036
징	3037
##나라	3038
한편	3039
예정	3040
운행	3041
블랙	3042
성적	3043
##협	3044
인구	3045
린	3046
읽	3047
부상	3048
쌍	3049
기대	3050
자연	3051
엔딩	3052
기타	3053
그래도	3054
마치	3055
##닥	3056
삼성	3057
##러지	3058
벽	3059
폴	3060
계열	3061
mm	3062
똑	3063
02	3064
해결	3065
2009	3066
03	3067
괜	3068
사업	3069
가져	3070
##ch	3071
스테이지	3072
향하	3073
센터	3074
##킹	3075
가스	3076
##완	3077
어두	3078
##혜	3079
방면	3080
연결	3081
미션	3082
300	3083
콤	3084
옥	3085
##ᆫ쪽	3086
방영	3087
플래	3088
최근	3089
##빈	3090
의견	3091
튀	3092
##낌	3093
기에	3094
연합	3095
수정	3096
##짝	3097
짧	3098
##us	3099
48	3100
변화	3101
도망	3102
종류	3103
##ir	3104
자면	3105
ᆯ까	3106
그거	3107
곧	3108
표기	3109
잘못	3110
률	3111
칭	3112
전용	3113
태어나	3114
배치	3115
##받	3116
05	3117
털	3118
퀘스트	3119
195	3120
추정	3121
33	3122
for	3123
터지	3124
##스타	3125
2008	3126
탓	3127
발전	3128
##다리	3129
벗	3130
##척	3131
소녀	3132
##혈	3133
36	3134
##엄	3135
##폰	3136
08	3137
대화	3138
변하	3139
거대	3140
정상	3141
직업	3142
##참	3143
끊	3144
안정	3145
척	3146
07	3147
움직이	3148
##ur	3149
도중	3150
언제	3151
죽음	3152
엔진	3153
충분	3154
올라오	3155
스스로	3156
큐	3157
종료	3158
##렉	3159
작전	3160
넘어가	3161
##티브	3162
##ᅡᆯ리아	3163
##파이	3164
스카	3165
수상	3166
챔피언	3167
펼치	3168
세상	3169
품	3170
나중	3171
##둥	3172
붙이	3173
십	3174
##텐	3175
##같	3176
독립	3177
일행	3178
비행	3179
요소	3180
나누	3181
##샤	3182
캠	3183
느낌	3184
속하	3185
##볼	3186
##취	3187
수도	3188
당신	3189
HP	3190
굳	3191
벌어지	3192
벌이	3193
로보	3194
##액	3195
보상	3196
에너지	3197
##륙	3198
##ᆩ이	3199
지내	3200
방어력	3201
달성	3202
비롯	3203
전설	3204
팩	3205
녀	3206
##..	3207
무리	3208
공연	3209
##od	3210
미사	3211
##센	3212
만드	3213
06	3214
력	3215
동물	3216
만큼	3217
솔	3218
배틀	3219
##BC	3220
부활	3221
특정	3222
관하	3223
장착	3224
훈련	3225
절대	3226
빅	3227
th	3228
삭	3229
졸업	3230
철도	3231
전기	3232
지지	3233
렌	3234
##자기	3235
##im	3236
기업	3237
##암	3238
위기	3239
포켓	3240
##길	3241
넓	3242
지휘	3243
행정	3244
다리	3245
싱글	3246
번역	3247
런	3248
번호	3249
근접	3250
##란드	3251
틀	3252
더불	3253
돌리	3254
제목	3255
점수	3256
건설	3257
빨	3258
04	3259
만약	3260
관심	3261
아이돌	3262
미래	3263
##어들	3264
황제	3265
##른	3266
내부	3267
남성	3268
##렬	3269
스코	3270
반면	3271
따라서	3272
득점	3273
##un	3274
충격	3275
##ut	3276
신경	3277
##겁	3278
SK	3279
시험	3280
전차	3281
##뉴	3282
요리	3283
군사	3284
가르	3285
목소리	3286
거두	3287
스페	3288
목표	3289
홈런	3290
소재	3291
인사	3292
덤	3293
뚜	3294
전사	3295
2007	3296
##데이트	3297
업데이트	3298
바르	3299
정체	3300
멸	3301
you	3302
공간	3303
##지션	3304
똑같	3305
가끔	3306
저지	3307
무대	3308
##튜	3309
카이	3310
픽	3311
어찌	3312
시설	3313
놀	3314
사이트	3315
타격	3316
셈	3317
##즘	3318
로마	3319
오늘	3320
34	3321
뒷	3322
꽃	3323
##인물	3324
##라고	3325
##컵	3326
##흥	3327
배경	3328
##트리	3329
링크	3330
록	3331
지정	3332
장소	3333
각성	3334
전작	3335
찬	3336
서비스	3337
공중	3338
마르	3339
빙	3340
최소	3341
##큐	3342
항상	3343
부여	3344
##다니	3345
##ro	3346
냉	3347
교체	3348
그만	3349
파티	3350
전국	3351
##닉	3352
맹	3353
분노	3354
베이	3355
##너스	3356
##폐	3357
생존	3358
작곡	3359
북한	3360
얘기	3361
넘기	3362
등장인물	3363
정식	3364
켄	3365
으려	3366
예상	3367
스포	3368
엘리	3369
마저	3370
자랑	3371
의원	3372
##알	3373
혀	3374
으로써	3375
작업	3376
높이	3377
##붙	3378
도로	3379
잉	3380
포켓몬	3381
사냥	3382
##디어	3383
##쇄	3384
크리	3385
분류	3386
종족	3387
늘어나	3388
랜	3389
이끌	3390
##트로	3391
##엽	3392
##층	3393
인도	3394
악마	3395
##ag	3396
벤	3397
##igh	3398
소개	3399
야마	3400
드리	3401
38	3402
올림피	3403
아키	3404
쌓	3405
겸	3406
##ver	3407
단체	3408
혈	3409
애초	3410
제한	3411
인터뷰	3412
괜찮	3413
ᆯ로	3414
가수	3415
홀	3416
필드	3417
##ec	3418
결승	3419
##동안	3420
cm	3421
판정	3422
롯	3423
듯이	3424
기계	3425
이어	3426
클리어	3427
75	3428
연출	3429
목록	3430
각종	3431
외국	3432
하늘	3433
컵	3434
이외	3435
타카	3436
명령	3437
##ᅪᆯ	3438
정하	3439
##ent	3440
2006	3441
제일	3442
초등	3443
기체	3444
병력	3445
지상	3446
깊	3447
카운	3448
재미	3449
로봇	3450
개념	3451
스타일	3452
아카	3453
##보이	3454
트위	3455
가운	3456
55	3457
놀라	3458
##드리	3459
전반	3460
확정	3461
##이트	3462
기동	3463
in	3464
##콘	3465
교통	3466
옛	3467
바다	3468
살리	3469
정작	3470
##쓰	3471
##촌	3472
193	3473
##허	3474
페이	3475
건담	3476
레어	3477
비용	3478
퀴	3479
옷	3480
##탈리아	3481
별로	3482
파일	3483
##ak	3484
##스티	3485
화력	3486
##흐	3487
##빠	3488
장갑	3489
옵	3490
올림픽	3491
수행	3492
##리오	3493
몽	3494
니까	3495
군대	3496
드러나	3497
사항	3498
가운데	3499
갖추	3500
표시	3501
크기	3502
##뮤	3503
##까	3504
따로	3505
인식	3506
시티	3507
행위	3508
사격	3509
수치	3510
경쟁	3511
라이브	3512
료	3513
##던	3514
2020	3515
사거리	3516
납	3517
##텔	3518
##겨	3519
to	3520
##um	3521
##최	3522
누르	3523
##쉽	3524
기반	3525
변신	3526
갑자기	3527
저항	3528
감정	3529
',	3530
##쿄	3531
##러스	3532
나름	3533
포지션	3534
비밀	3535
##짓	3536
잇	3537
##젝트	3538
##꾸	3539
진화	3540
이탈리아	3541
완전	3542
평균	3543
왕국	3544
단점	3545
뇌	3546
보유	3547
집중	3548
인천	3549
스티	3550
코미	3551
란	3552
교수	3553
##셉	3554
근처	3555
통합	3556
기회	3557
병원	3558
vs	3559
폰	3560
직전	3561
에이	3562
던전	3563
노력	3564
특이	3565
냐고	3566
임무	3567
띄	3568
##라인	3569
##아들이	3570
의식	3571
자원	3572
전자	3573
어쩌	3574
느리	3575
국회	3576
설립	3577
탈출	3578
스태	3579
##친	3580
놈	3581
코스	3582
##화국	3583
정의	3584
쯤	3585
##윤	3586
오버	3587
압도	3588
##ST	3589
혁	3590
레인	3591
이닝	3592
옮	3593
월드컵	3594
부모	3595
촬	3596
단어	3597
다크	3598
때리	3599
부정	3600
환경	3601
##em	3602
##앗	3603
고양	3604
마시	3605
현상	3606
##ub	3607
정리	3608
사례	3609
잠시	3610
떨	3611
사정	3612
##비아	3613
판단	3614
효율	3615
시전	3616
제품	3617
이쪽	3618
콜	3619
아파	3620
쥬	3621
펜	3622
밑	3623
극장	3624
더니	3625
치명	3626
스위	3627
본래	3628
##르트	3629
##리어	3630
##낙	3631
나서	3632
주제	3633
무슨	3634
촬영	3635
##000	3636
삭제	3637
붕	3638
상관	3639
사무	3640
의외	3641
주문	3642
위원회	3643
아스	3644
전력	3645
가문	3646
ㅏㅆ	3647
겪	3648
##븐	3649
동생	3650
고속	3651
컬	3652
##어로	3653
원인	3654
주민	3655
대구	3656
##묘	3657
여행	3658
물건	3659
옮기	3660
지배	3661
제거	3662
발언	3663
강제	3664
키우	3665
##헌	3666
소련	3667
연습	3668
곤	3669
치료	3670
병사	3671
포기	3672
골드	3673
위력	3674
요시	3675
파트	3676
도전	3677
##무리	3678
전개	3679
2005	3680
기다리	3681
이하	3682
노트	3683
역대	3684
책임	3685
새로	3686
해군	3687
##째	3688
중학교	3689
기념	3690
##요일	3691
도입	3692
정책	3693
점프	3694
앞서	3695
완성	3696
웹	3697
복귀	3698
##싱	3699
실험	3700
##ight	3701
화면	3702
42	3703
##야마	3704
려면	3705
루트	3706
유사	3707
고정	3708
공주	3709
도쿄	3710
살인	3711
의사	3712
모이	3713
음식	3714
41	3715
##학생	3716
레드	3717
칠	3718
별명	3719
차원	3720
직후	3721
선생	3722
끝내	3723
이적	3724
뿌	3725
히어로	3726
불가	3727
다수	3728
셋	3729
버티	3730
사기	3731
중반	3732
나이트	3733
##좌	3734
텔	3735
39	3736
받아들이	3737
잡히	3738
##섯	3739
티어	3740
전략	3741
숨기	3742
히트	3743
어둠	3744
밴드	3745
에게서	3746
분명	3747
마나	3748
붉	3749
공동	3750
엑	3751
도착	3752
2004	3753
무려	3754
미니	3755
쫓	3756
꼭	3757
##모토	3758
션	3759
빌리	3760
##특	3761
접근	3762
가치	3763
언어	3764
녀석	3765
짐	3766
##로스	3767
제도	3768
일러	3769
EX	3770
LG	3771
은데	3772
정당	3773
으로부터	3774
텐	3775
회피	3776
ㅓㅆ	3777
추천	3778
타임	3779
조종	3780
정규	3781
사상	3782
시민	3783
대기	3784
반드	3785
로드	3786
##젤	3787
예전	3788
##ce	3789
살아	3790
확장	3791
아파트	3792
신체	3793
빨리	3794
##숨	3795
##그레이드	3796
업그레이드	3797
##루스	3798
쥐	3799
마사	3800
구매	3801
##AR	3802
줄이	3803
연장	3804
멘	3805
롯데	3806
리더	3807
자료	3808
##셀	3809
##퓨	3810
랭크	3811
이곳	3812
반드시	3813
폭탄	3814
##os	3815
투표	3816
탈락	3817
꾼	3818
타이틀	3819
인터넷	3820
##끄	3821
##밥	3822
부탁	3823
장치	3824
닥	3825
학원	3826
단지	3827
완벽	3828
라이트	3829
미사일	3830
종교	3831
멜	3832
44	3833
##찍	3834
우선	3835
##ri	3836
일러스트	3837
소유	3838
형식	3839
닌	3840
해외	3841
고대	3842
낫	3843
##시마	3844
##AN	3845
구역	3846
장점	3847
사령	3848
셰	3849
최강	3850
힐	3851
심각	3852
산업	3853
##듀	3854
아내	3855
##ula	3856
Ch	3857
금지	3858
늦	3859
하드	3860
아라	3861
##ON	3862
수마	3863
##역시	3864
##벤	3865
앙	3866
추측	3867
버그	3868
실시	3869
탱	3870
No	3871
위키	3872
마무리	3873
##ap	3874
43	3875
99	3876
이라고	3877
대장	3878
##홍	3879
##몇	3880
클럽	3881
몇몇	3882
공포	3883
가사	3884
##나이	3885
##ᆨ정	3886
노동	3887
##and	3888
2002	3889
연재	3890
가드	3891
이사	3892
구분	3893
복수	3894
취하	3895
st	3896
검사	3897
범죄	3898
톤	3899
합류	3900
점점	3901
달러	3902
즐기	3903
서버	3904
다소	3905
로스	3906
조정	3907
##아하	3908
요청	3909
행사	3910
##이치	3911
차례	3912
form	3913
덜	3914
옵션	3915
##탑	3916
떡	3917
재료	3918
보병	3919
그야	3920
밥	3921
조작	3922
선정	3923
선언	3924
수많	3925
마법사	3926
전통	3927
택	3928
교회	3929
잭	3930
입히	3931
타자	3932
걱정	3933
프로젝트	3934
롤	3935
브레이	3936
kg	3937
##쳐	3938
그리스	3939
종종	3940
개그	3941
47	3942
스포츠	3943
자마	3944
46	3945
##빙	3946
데이터	3947
51	3948
191	3949
##첩	3950
좋아하	3951
컴퓨	3952
개월	3953
암살	3954
부하	3955
##듬	3956
광고	3957
형제	3958
열차	3959
##르크	3960
formula	3961
트레이	3962
채우	3963
템	3964
성향	3965
뉴스	3966
##말로	3967
대중	3968
##털	3969
개최	3970
##ᆯ린	3971
평범	3972
##십	3973
폼	3974
자마자	3975
##덴	3976
KBS	3977
아쉽	3978
으	3979
##조건	3980
포스	3981
숲	3982
그야말로	3983
##롱	3984
실점	3985
모자	3986
한계	3987
스페인	3988
구단	3989
고르	3990
##걸	3991
##죽	3992
채널	3993
##맞	3994
뻔	3995
대결	3996
설계	3997
##ter	3998
코드	3999
거부	4000
통신	4001
언론	4002
아무리	4003
보조	4004
##아보	4005
워낙	4006
생물	4007
다행	4008
##맥	4009
비중	4010
종합	4011
고자	4012
전화	4013
행성	4014
기지	4015
컴퓨터	4016
민족	4017
and	4018
##셜	4019
맺	4020
한글	4021
무한	4022
디스	4023
투입	4024
개봉	4025
해석	4026
값	4027
무조건	4028
##트라	4029
캡	4030
##아지	4031
본격	4032
영혼	4033
정확히	4034
연주	4035
냐는	4036
굳이	4037
운용	4038
##ul	4039
MA	4040
평소	4041
실수	4042
회장	4043
원정	4044
광주	4045
##IN	4046
지적	4047
##ᆯ리스	4048
박사	4049
소년	4050
##ᆸ히	4051
##타임	4052
##ᆺ자	4053
지명	4054
와중	4055
##무라	4056
##ᅳᆯ린	4057
인상	4058
1000	4059
##수록	4060
위협	4061
미드	4062
##버리	4063
2003	4064
닉	4065
줄어들	4066
멋	4067
젊	4068
##ᅳᆯ링	4069
회의	4070
상징	4071
충분히	4072
##꽃	4073
##op	4074
등록	4075
##몽	4076
##ᆺ수	4077
는가	4078
사태	4079
집단	4080
대형	4081
가정	4082
대응	4083
대비	4084
쓸	4085
보너스	4086
터미	4087
아웃	4088
자동차	4089
소비	4090
엠	4091
##ck	4092
전원	4093
공사	4094
보컬	4095
대로	4096
데스	4097
체제	4098
카메	4099
페르	4100
시청자	4101
%,	4102
다운	4103
뚫	4104
태양	4105
특유	4106
희생	4107
150	4108
조각	4109
먹이	4110
개조	4111
가면	4112
무사	4113
65	4114
##FA	4115
혐	4116
샷	4117
군단	4118
##ation	4119
빵	4120
편성	4121
뿌리	4122
도망치	4123
봉인	4124
##로드	4125
깔	4126
리어	4127
여름	4128
##되	4129
MBC	4130
마력	4131
흉	4132
##니스	4133
SP	4134
긴	4135
통과	4136
일종	4137
네이	4138
##ᆫ만	4139
기자	4140
떠오	4141
##ra	4142
##려가	4143
192	4144
##라스	4145
잊	4146
육군	4147
##콩	4148
##ᆯ링	4149
##펜	4150
혜	4151
##자리	4152
발음	4153
장군	4154
공항	4155
##돈	4156
스크	4157
죠	4158
생성	4159
벗어나	4160
얼마나	4161
##의원	4162
##꼬	4163
##ᅦ이크	4164
시나	4165
분리	4166
방문	4167
##스케	4168
64	4169
##리트	4170
오리지	4171
##있	4172
##셔	4173
II	4174
가하	4175
로써	4176
드러내	4177
고양이	4178
하야	4179
촉	4180
##꺼	4181
장르	4182
보다	4183
동맹	4184
빼앗	4185
장기	4186
간단	4187
##톤	4188
함정	4189
을지	4190
##줄	4191
반복	4192
##칸	4193
ㅏ서	4194
서술	4195
##튜브	4196
튜	4197
소식	4198
앉	4199
의도	4200
##려오	4201
##넘	4202
사쿠	4203
분야	4204
디지	4205
전환	4206
근데	4207
갤러	4208
52	4209
불과	4210
##깨	4211
합치	4212
유튜브	4213
랭	4214
바닥	4215
영입	4216
안전	4217
경기도	4218
그때	4219
치르	4220
괴물	4221
저격	4222
마크	4223
제안	4224
##텐츠	4225
흡수	4226
점령	4227
##찌	4228
You	4229
##ᅧ보	4230
의지	4231
밸	4232
##시스	4233
는다는	4234
예선	4235
윈	4236
초대	4237
루이	4238
필살	4239
최후	4240
##니티	4241
따지	4242
400	4243
개선	4244
공략	4245
유도	4246
##빌	4247
화염	4248
##남도	4249
##엔	4250
##빛	4251
##오스	4252
숫자	4253
독자	4254
오토	4255
전술	4256
##art	4257
코치	4258
그저	4259
블루	4260
미리	4261
방해	4262
##나가	4263
##님	4264
주력	4265
원하	4266
액션	4267
확보	4268
외모	4269
인원	4270
가져오	4271
평화	4272
매일	4273
##풀	4274
진입	4275
터미널	4276
이론	4277
##런스	4278
규정	4279
관통	4280
VS	4281
클래스	4282
수사	4283
비트	4284
라디오	4285
찾아오	4286
장난	4287
##랗	4288
49	4289
들리	4290
이치	4291
투자	4292
승부	4293
컨셉	4294
눈물	4295
체육	4296
목숨	4297
형성	4298
지나가	4299
적극	4300
패러	4301
느냐	4302
인류	4303
##드로	4304
방패	4305
AP	4306
56	4307
상자	4308
##핑	4309
음반	4310
몹	4311
모험	4312
시내	4313
사과	4314
아름	4315
서브	4316
겹	4317
왼쪽	4318
부수	4319
적절	4320
흐르	4321
한국어	4322
계기	4323
보도	4324
에스	4325
2001	4326
함대	4327
구축	4328
트래	4329
떼	4330
##동생	4331
거짓	4332
저지르	4333
##팔	4334
살아남	4335
##릿	4336
의심	4337
ᆫ지라	4338
약점	4339
챙	4340
쳐	4341
예술	4342
공화국	4343
들이	4344
역전	4345
궤	4346
인형	4347
##퀴	4348
기원	4349
53	4350
오리지널	4351
54	4352
비디오	4353
##페이지	4354
작성	4355
완료	4356
##모리	4357
...	4358
자라	4359
데리	4360
공부	4361
##논	4362
은퇴	4363
수리	4364
솔로	4365
코어	4366
회전	4367
쓰러지	4368
##라이더	4369
단순히	4370
풀리	4371
대단	4372
질문	4373
In	4374
걸치	4375
PC	4376
편집	4377
황금	4378
닮	4379
끌어	4380
민주당	4381
마침	4382
뮤직	4383
훌	4384
##래프트	4385
날개	4386
프레이	4387
##바이	4388
핑	4389
##시브	4390
홈페이지	4391
덩	4392
착용	4393
필수	4394
트랙	4395
상대방	4396
멈	4397
보수	4398
꾸준	4399
85	4400
해제	4401
##옷	4402
##삼	4403
##토리	4404
엄마	4405
아프리카	4406
드라이	4407
경상	4408
##ia	4409
사단	4410
습격	4411
장관	4412
편하	4413
1990	4414
현장	4415
사장	4416
코스트	4417
비난	4418
포르	4419
희망	4420
걷	4421
원거리	4422
##ill	4423
##깐	4424
청소	4425
수원	4426
##ie	4427
재판	4428
선보이	4429
분석	4430
하위	4431
##레이션	4432
명중	4433
테러	4434
아시아	4435
퓨	4436
진정	4437
더블	4438
앤	4439
무력	4440
오스	4441
선물	4442
##RA	4443
카페	4444
##냐	4445
##나다	4446
인지	4447
성인	4448
수호	4449
ST	4450
삶	4451
##덜	4452
모티브	4453
트로	4454
##IA	4455
##몰	4456
비고	4457
스파이	4458
에이스	4459
콩	4460
확실히	4461
아름답	4462
행복	4463
경계	4464
부리	4465
저주	4466
감안	4467
카즈	4468
중단	4469
태도	4470
가슴	4471
190	4472
##ik	4473
임명	4474
남편	4475
공원	4476
기획	4477
꼴	4478
##를	4479
쿄	4480
지식	4481
관광	4482
표정	4483
허용	4484
승강	4485
스마	4486
쿨타임	4487
장애	4488
무섭	4489
##텀	4490
수단	4491
지나치	4492
오른쪽	4493
셀	4494
탑재	4495
바탕	4496
본선	4497
멈추	4498
딱히	4499
인민	4500
제시	4501
친하	4502
소프트	4503
상처	4504
주도	4505
##무원	4506
당장	4507
59	4508
망하	4509
롱	4510
##연히	4511
처치	4512
##녕	4513
##북도	4514
의문	4515
영역	4516
유래	4517
기점	4518
테마	4519
소울	4520
테크	4521
고통	4522
이스	4523
리스	4524
보급	4525
유우	4526
##ab	4527
컷	4528
직원	4529
불명	4530
날아가	4531
비싸	4532
돌파	4533
갈리	4534
기어	4535
멀티	4536
베이스	4537
위주	4538
작용	4539
고유	4540
주목	4541
제압	4542
대답	4543
챙기	4544
120	4545
58	4546
##워드	4547
##뉘	4548
나카	4549
잠깐	4550
##마스	4551
##랄	4552
주연	4553
아요	4554
을까	4555
카운터	4556
여부	4557
##울리	4558
제기	4559
순서	4560
베르	4561
측면	4562
꺼내	4563
체계	4564
도서	4565
##춘	4566
##est	4567
탯	4568
57	4569
업무	4570
박스	4571
우수	4572
진영	4573
부인	4574
텍	4575
##th	4576
MP	4577
멀리	4578
퍼지	4579
문명	4580
그레이	4581
##픽	4582
카메라	4583
패스	4584
횟수	4585
드립	4586
후속	4587
멸망	4588
통일	4589
온라인	4590
##all	4591
공장	4592
텔레	4593
버튼	4594
낳	4595
시나리오	4596
케이스	4597
어라	4598
##푸	4599
지점	4600
거주	4601
갱	4602
귀족	4603
나뉘	4604
##ea	4605
브랜드	4606
66	4607
가ᄇ	4608
95	4609
코너	4610
문자	4611
넥	4612
당선	4613
##쇠	4614
내려가	4615
엉	4616
##뇌	4617
겨우	4618
협력	4619
특기	4620
차별	4621
계산	4622
소수	4623
펀	4624
지옥	4625
##ᆸ터	4626
후지	4627
셔	4628
댓	4629
눈치	4630
약속	4631
듀얼	4632
널	4633
삼국	4634
최악	4635
마츠	4636
##럴	4637
건너	4638
에다	4639
춤	4640
뉴욕	4641
달라지	4642
랍	4643
에어	4644
Sh	4645
시체	4646
연계	4647
##잔	4648
ᆯ수록	4649
딜러	4650
조지	4651
은행	4652
##붙이	4653
다가	4654
뱀	4655
##머리	4656
크로스	4657
락	4658
Lo	4659
##ct	4660
테이	4661
늘리	4662
살해	4663
가볍	4664
ddd	4665
나타내	4666
유키	4667
on	4668
개편	4669
상하	4670
그라	4671
오후	4672
가져가	4673
1999	4674
프레	4675
##다르	4676
융	4677
Re	4678
붕괴	4679
배신	4680
제로	4681
틈	4682
가로	4683
대놓	4684
자격	4685
미스	4686
미야	4687
혁명	4688
자치	4689
게시	4690
매치	4691
군주	4692
부담	4693
110	4694
##ddd	4695
dddddd	4696
Sp	4697
자이	4698
컨트로	4699
게이지	4700
1998	4701
##AL	4702
해금	4703
겨울	4704
국회의원	4705
어울리	4706
견제	4707
증거	4708
##핀	4709
레이저	4710
외부	4711
최대한	4712
군인	4713
장전	4714
ㅓ서	4715
교사	4716
필살기	4717
##릉	4718
##AT	4719
62	4720
출발	4721
진실	4722
제조	4723
자살	4724
핵심	4725
##PS	4726
정권	4727
##워하	4728
균	4729
어린	4730
대원	4731
웨이	4732
##륭	4733
여왕	4734
전장	4735
드물	4736
궁극	4737
미군	4738
##OR	4739
중화	4740
연방	4741
용병	4742
펠	4743
##니어	4744
마왕	4745
스프	4746
섭	4747
로켓	4748
귀엽	4749
니코	4750
아침	4751
댄스	4752
옹	4753
##VE	4754
거절	4755
충전	4756
##아리	4757
##라리	4758
룰	4759
한화	4760
타이밍	4761
출생	4762
쓰러	4763
브리	4764
봄	4765
가르치	4766
유용	4767
공산	4768
체인	4769
SS	4770
일본어	4771
##달리	4772
기분	4773
SBS	4774
미나	4775
이성	4776
##터리	4777
커뮤	4778
조준	4779
만족	4780
충돌	4781
고급	4782
도구	4783
단위	4784
취소	4785
블로	4786
##ᆨ시	4787
애매	4788
교환	4789
는다고	4790
스피드	4791
부진	4792
넷	4793
고서	4794
거래	4795
##ate	4796
스킨	4797
##사카	4798
수학	4799
흔히	4800
##ess	4801
피해자	4802
##컨	4803
극장판	4804
토스	4805
Th	4806
카르	4807
##ell	4808
61	4809
반란	4810
제주	4811
##광역시	4812
발휘	4813
세계관	4814
##킨	4815
얼음	4816
##ard	4817
무게	4818
##읍	4819
76	4820
플라	4821
오스트	4822
끼리	4823
어떻	4824
장수	4825
파악	4826
후반부	4827
##멘	4828
하트	4829
##ang	4830
단독	4831
##래도	4832
아무래도	4833
겹치	4834
인생	4835
모션	4836
레전	4837
홍콩	4838
막히	4839
패시브	4840
공통	4841
##아나	4842
##쇼	4843
##IC	4844
스파	4845
근무	4846
판타	4847
자르	4848
##ue	4849
신화	4850
비록	4851
삽	4852
격투	4853
아머	4854
한자	4855
헤드	4856
##ant	4857
##ack	4858
순수	4859
몰리	4860
##ers	4861
따위	4862
Al	4863
NP	4864
77	4865
##두르	4866
구입	4867
정령	4868
파이터	4869
##ine	4870
88	4871
공군	4872
1997	4873
##다수	4874
운전	4875
72	4876
등등	4877
혼란	4878
아메	4879
쿼	4880
계급	4881
자식	4882
가입	4883
수입	4884
##하라	4885
스코어	4886
닥터	4887
##심히	4888
빔	4889
내주	4890
회수	4891
##어내	4892
권력	4893
자고	4894
경력	4895
본부	4896
핀	4897
채용	4898
지시	4899
##세이	4900
공작	4901
근거	4902
마이크	4903
커버	4904
탄생	4905
생일	4906
밸런스	4907
해방	4908
비율	4909
엑스	4910
필리	4911
누리	4912
피아	4913
##흑	4914
외치	4915
쪼	4916
기절	4917
남부	4918
우려	4919
##촉	4920
건강	4921
지하철	4922
언니	4923
##웨이	4924
용도	4925
꾸준히	4926
##가락	4927
프라	4928
병기	4929
갓	4930
표준	4931
갤러리	4932
BG	4933
ㅕ서	4934
##헨	4935
타워	4936
실질	4937
돌격	4938
지대	4939
##ok	4940
##OS	4941
납치	4942
증명	4943
좁	4944
협회	4945
반영	4946
홍보	4947
지급	4948
##피아	4949
무너지	4950
##둑	4951
스테	4952
아사	4953
대공	4954
강조	4955
입학	4956
##밀리	4957
be	4958
오오	4959
업체	4960
##멀	4961
불안	4962
##렛	4963
랜덤	4964
373	4965
FI	4966
윙	4967
유형	4968
왕자	4969
외교	4970
요원	4971
##디션	4972
경영	4973
or	4974
덴	4975
온가	4976
##유키	4977
대륙	4978
감염	4979
경향	4980
쏟	4981
98	4982
fff	4983
온갖	4984
훌륭	4985
광역	4986
감사	4987
CD	4988
gt	4989
연대	4990
##솔	4991
노르	4992
아라	4993
마녀	4994
실행	4995
맡기	4996
장식	4997
트라	4998
문학	4999
##ive	5000
패러디	5001
페이스	5002
젠	5003
울트라	5004
기독	5005
서포	5006
덮	5007
찌르	5008
물질	5009
600	5010
원수	5011
주어지	5012
없애	5013
스펙	5014
내놓	5015
입단	5016
재생	5017
##오리	5018
가까이	5019
##크래프트	5020
##젠	5021
스페셜	5022
화살	5023
추진	5024
주년	5025
어차	5026
찾아가	5027
집안	5028
고민	5029
내내	5030
설득	5031
대다수	5032
계승	5033
1996	5034
선배	5035
승강장	5036
살짝	5037
사카	5038
어차피	5039
부문	5040
폐지	5041
##ast	5042
캐나다	5043
##고기	5044
PS	5045
고기	5046
##AS	5047
영원	5048
정지	5049
대놓고	5050
와이	5051
이슬	5052
##들리	5053
신문	5054
##피스	5055
##어리	5056
베트	5057
1995	5058
밟	5059
보물	5060
낭	5061
적당	5062
##메달	5063
킥	5064
아나	5065
오류	5066
신뢰	5067
사전	5068
##바로	5069
아리	5070
파라	5071
##멍	5072
이렇	5073
연예	5074
지우	5075
작사	5076
즉시	5077
ㅓ야	5078
기기	5079
흘리	5080
##즈키	5081
##uby	5082
",	5083
전선	5084
당황	5085
##ED	5086
미소	5087
내려오	5088
##렐	5089
함선	5090
괴롭	5091
##tt	5092
##휴	5093
아야	5094
##다지	5095
68	5096
뒤집	5097
페이지	5098
##ee	5099
폭풍	5100
브라질	5101
등판	5102
은근	5103
쇠	5104
모리	5105
lt	5106
800	5107
소문	5108
짝	5109
탑승	5110
명예	5111
헤이	5112
오픈	5113
열심히	5114
상품	5115
화장	5116
입수	5117
레전드	5118
오프닝	5119
##렘	5120
별도	5121
갑옷	5122
경유	5123
심리	5124
러브	5125
시행	5126
파리	5127
경기장	5128
령	5129
단일	5130
63	5131
말리	5132
메탈	5133
의회	5134
##렴	5135
1980	5136
변호	5137
##팩	5138
라스	5139
통제	5140
마련	5141
늑	5142
##아먹	5143
랩	5144
##카와	5145
틱	5146
공유	5147
댓글	5148
반격	5149
##ong	5150
##AM	5151
ruby	5152
운명	5153
가면라이더	5154
정류	5155
푸르	5156
응원	5157
##세우	5158
크루	5159
캔	5160
레오	5161
후쿠	5162
한때	5163
커뮤니티	5164
신청	5165
쓰레	5166
트위터	5167
격파	5168
라이벌	5169
사령관	5170
랜드	5171
##ort	5172
김성	5173
주전	5174
갤	5175
고전	5176
기독교	5177
출판	5178
공기	5179
##납	5180
습득	5181
이승	5182
##웨어	5183
컨트롤	5184
중계	5185
깃	5186
편의	5187
퀄	5188
##ith	5189
하수	5190
수업	5191
심장	5192
오해	5193
처하	5194
불만	5195
신고	5196
마인	5197
마주	5198
두산	5199
울산	5200
71	5201
##if	5202
74	5203
관객	5204
전라	5205
외국인	5206
##ᆮ히	5207
카나	5208
정말로	5209
보정	5210
주위	5211
##ly	5212
##로우	5213
스트라이	5214
##나무	5215
##fff	5216
건축	5217
##아버지	5218
출장	5219
....	5220
용어	5221
MV	5222
##ld	5223
그곳	5224
전달	5225
닿	5226
73	5227
여론	5228
67	5229
메이저	5230
아트	5231
ffffff	5232
민간	5233
사운드	5234
짜리	5235
절반	5236
조치	5237
묵	5238
가리키	5239
##티컬	5240
고치	5241
지형	5242
가토	5243
갈등	5244
여신	5245
##딘	5246
##도우	5247
붙잡	5248
임시	5249
무적	5250
##학자	5251
재능	5252
챠	5253
가득	5254
##드라	5255
요새	5256
전함	5257
아오	5258
전공	5259
##겨나	5260
둥	5261
압박	5262
NC	5263
##랜	5264
##ain	5265
리버	5266
별개	5267
엔터	5268
초월	5269
##ist	5270
96	5271
카라	5272
알렉	5273
쌓이	5274
종점	5275
연구소	5276
오로	5277
네이버	5278
##묵	5279
##쥐	5280
스튜	5281
니시	5282
##타인	5283
1994	5284
##ind	5285
북쪽	5286
전형	5287
추적	5288
팝	5289
메가	5290
TH	5291
그다지	5292
메타	5293
시각	5294
##돌리	5295
180	5296
탁	5297
컨텐츠	5298
안드로	5299
남쪽	5300
제하	5301
지ᄏ	5302
무르	5303
가이	5304
늑대	5305
보장	5306
발매되	5307
써	5308
AC	5309
돌진	5310
시야	5311
소멸	5312
##서트	5313
판타지	5314
81	5315
AT	5316
##ᆷ프	5317
결승전	5318
전시	5319
널리	5320
클라	5321
타점	5322
든지	5323
다행히	5324
파이어	5325
일부러	5326
무지	5327
##럿	5328
##렁	5329
##per	5330
동기	5331
불꽃	5332
그만큼	5333
##가와	5334
따오	5335
동네	5336
환자	5337
##듀서	5338
프로듀서	5339
##ps	5340
강원	5341
##지컬	5342
##EN	5343
서부	5344
쉐	5345
여동생	5346
문제점	5347
흔하	5348
적히	5349
화려	5350
화이트	5351
##츠키	5352
쓰러뜨리	5353
그림자	5354
선호	5355
왕조	5356
동원	5357
이마	5358
폭력	5359
##놈	5360
상향	5361
아티	5362
우스	5363
지켜보	5364
파이널	5365
회원	5366
대만	5367
##깝	5368
뛰어	5369
본명	5370
치명타	5371
신라	5372
유비	5373
유로	5374
북부	5375
맞서	5376
물러	5377
##EC	5378
소드	5379
자는	5380
##툰	5381
릭	5382
78	5383
##식간	5384
91	5385
##ᆯ릭	5386
##거나	5387
맘	5388
##OL	5389
##콤	5390
##스탄	5391
수요	5392
순식간	5393
연상	5394
무난	5395
종이	5396
곰	5397
##ew	5398
도서관	5399
##ᅫ지	5400
##어스	5401
신세	5402
테스트	5403
향상	5404
아시	5405
전역	5406
메시	5407
매력	5408
클로	5409
학과	5410
차트	5411
전적	5412
##더스	5413
틀리	5414
변형	5415
##캐	5416
최상	5417
헨	5418
전방	5419
부품	5420
##팡	5421
지르	5422
84	5423
CP	5424
체포	5425
영토	5426
성과	5427
일상	5428
수집	5429
크리티컬	5430
암흑	5431
전투력	5432
시드	5433
게이트	5434
##사키	5435
코믹스	5436
아우	5437
키스	5438
팅	5439
영업	5440
##LC	5441
킬	5442
##ᆷ치	5443
마술	5444
##따	5445
me	5446
인수	5447
토모	5448
##ry	5449
수용	5450
조절	5451
저런	5452
파견	5453
드디어	5454
오랜	5455
폭격	5456
복잡	5457
학살	5458
유전	5459
복장	5460
##려움	5461
오빠	5462
82	5463
바라보	5464
대우	5465
떡밥	5466
##lo	5467
입력	5468
구현	5469
편지	5470
##껏	5471
##융	5472
개통	5473
생명력	5474
호환	5475
현지	5476
97	5477
추락	5478
키리	5479
신인	5480
사자	5481
천사	5482
도달	5483
아무런	5484
고향	5485
콜라	5486
동부	5487
닌자	5488
사토	5489
##덜란드	5490
네덜란드	5491
청년	5492
86	5493
##찾	5494
창작	5495
반지	5496
아가	5497
경비	5498
점차	5499
밴	5500
작동	5501
맞이	5502
콘서트	5503
연관	5504
프레임	5505
교황	5506
엘프	5507
##일랜드	5508
##브리	5509
한국인	5510
쓰레기	5511
수송	5512
출현	5513
노예	5514
그치	5515
스톤	5516
기초	5517
바이오	5518
##레나	5519
낚	5520
짱	5521
모바	5522
덧	5523
추격	5524
해설	5525
it	5526
해체	5527
69	5528
객	5529
##퍼스	5530
다시	5531
다시피	5532
몰래	5533
달하	5534
토리	5535
##어버리	5536
조용	5537
구도	5538
충청	5539
묶	5540
의상	5541
##노스	5542
심판	5543
간격	5544
공급	5545
녹음	5546
나루	5547
##오카	5548
is	5549
주먹	5550
아무것	5551
##히로	5552
식물	5553
막장	5554
시위	5555
조성	5556
NPC	5557
##ᆷ새	5558
프리미	5559
전투기	5560
조조	5561
사쿠라	5562
##오프	5563
##IT	5564
제자	5565
퀸	5566
연사	5567
둘러	5568
##둥이	5569
돌아다니	5570
수술	5571
무효	5572
썰	5573
스마트	5574
연애	5575
검색	5576
슬롯	5577
실드	5578
만든	5579
마스	5580
감시	5581
##타로	5582
스카이	5583
레스	5584
US	5585
그래픽	5586
일제	5587
블록	5588
꼬리	5589
법원	5590
##스트라	5591
동쪽	5592
##특별	5593
찰	5594
마리오	5595
경험치	5596
구체	5597
MS	5598
고교	5599
룬	5600
옛날	5601
놓치	5602
까다	5603
알아	5604
An	5605
통상	5606
총기	5607
김정	5608
뼈	5609
##보내	5610
범인	5611
##ᅦ이터	5612
룡	5613
탱크	5614
##티나	5615
구속	5616
긍	5617
베트남	5618
라이더	5619
##글랜드	5620
##모로	5621
진지	5622
##ust	5623
켈	5624
마리아	5625
신분	5626
대립	5627
신규	5628
장교	5629
은하	5630
연락	5631
카미	5632
어깨	5633
국립	5634
예외	5635
쿠키	5636
앵	5637
250	5638
##주시	5639
KT	5640
토크	5641
강의	5642
##어도	5643
##칠	5644
인근	5645
춘	5646
입구	5647
지도자	5648
신성	5649
뷰	5650
다섯	5651
차단	5652
규칙	5653
글자	5654
##50	5655
##니까	5656
되찾	5657
불편	5658
대대	5659
##뜩	5660
메카	5661
디아	5662
마도	5663
평타	5664
프린	5665
창조	5666
요정	5667
언제나	5668
바보	5669
박살	5670
코인	5671
안습	5672
총선	5673
##ᆼ이	5674
유희	5675
모바일	5676
동작	5677
##헤	5678
##도로	5679
토론	5680
후기	5681
##비전	5682
##홀	5683
여러모로	5684
에드	5685
환상	5686
아크	5687
189	5688
거짓말	5689
##디아	5690
노출	5691
기여	5692
의료	5693
##파이어	5694
권총	5695
세월	5696
소총	5697
접하	5698
이래	5699
##자키	5700
이리	5701
이득	5702
농구	5703
어택	5704
일원	5705
자이언	5706
무료	5707
신호	5708
블레이드	5709
202	5710
서쪽	5711
가시	5712
##영상	5713
이날	5714
1992	5715
##버트	5716
부위	5717
##크스	5718
굽	5719
출처	5720
정복	5721
개혁	5722
음성	5723
미술	5724
폭주	5725
그르	5726
극단	5727
잠수	5728
고생	5729
##깔	5730
띄우	5731
92	5732
##옹	5733
헌터	5734
##BO	5735
##ore	5736
##ᅢᆼ이	5737
##저히	5738
간부	5739
겉	5740
Ar	5741
##ᆯ레	5742
참전	5743
반발	5744
전직	5745
교전	5746
고용	5747
투어	5748
대체로	5749
양산	5750
일자	5751
플로	5752
보석	5753
고문	5754
폴란드	5755
대량	5756
연도	5757
상점	5758
83	5759
렙	5760
글로	5761
라이프	5762
제법	5763
호평	5764
상상	5765
##리티	5766
제어	5767
사마	5768
동영상	5769
길이	5770
수영	5771
마루	5772
정류장	5773
승격	5774
전대	5775
Te	5776
##보드	5777
출력	5778
겐	5779
사양	5780
합격	5781
89	5782
기습	5783
잖아	5784
휘두르	5785
하고	5786
터치	5787
##FF	5788
101	5789
제이	5790
93	5791
1993	5792
공학	5793
##룩	5794
잉글랜드	5795
반하	5796
지휘관	5797
북미	5798
De	5799
MAX	5800
제작진	5801
태우	5802
기병	5803
윌리	5804
촌	5805
득표	5806
중대	5807
94	5808
요괴	5809
앱	5810
합성	5811
미디어	5812
이랑	5813
깎	5814
다이아	5815
머신	5816
환승	5817
인증	5818
##륜	5819
##다이	5820
법률	5821
com	5822
79	5823
끼치	5824
적어도	5825
탄약	5826
조심	5827
가량	5828
박근	5829
##일드	5830
런던	5831
실리	5832
회차	5833
구출	5834
매니	5835
요즘	5836
탱커	5837
##FC	5838
파일럿	5839
의혹	5840
##ᆨ시코	5841
원소	5842
띠	5843
re	5844
활성	5845
사이드	5846
동방	5847
샘	5848
유령	5849
포탑	5850
하수인	5851
노멀	5852
삼진	5853
침공	5854
다면서	5855
분기	5856
##덩	5857
87	5858
디지털	5859
마이클	5860
의무	5861
믹	5862
이재	5863
##란색	5864
톱	5865
개정	5866
서양	5867
멋지	5868
알파	5869
가톨릭	5870
묘지	5871
인공	5872
##ᆫ지	5873
칼리	5874
##우드	5875
홀로	5876
볼넷	5877
훔치	5878
이슬람	5879
똑같이	5880
네임	5881
첨	5882
가속	5883
결성	5884
##one	5885
예비	5886
메인	5887
대략	5888
스웨	5889
학자	5890
On	5891
가게	5892
이자	5893
히데	5894
블러	5895
패널	5896
##쩡	5897
경고	5898
이시	5899
레인저	5900
계정	5901
##폼	5902
##se	5903
축제	5904
##ip	5905
쾌	5906
헌법	5907
소화	5908
전면	5909
이내	5910
캐스	5911
아일랜드	5912
##둔	5913
##AC	5914
부부	5915
AI	5916
DJ	5917
특화	5918
겁	5919
##RE	5920
익숙	5921
용사	5922
상호	5923
나아가	5924
횡	5925
같이	5926
미츠	5927
었었	5928
갤럭	5929
##ere	5930
##먼트	5931
문장	5932
루시	5933
바이러스	5934
메모리	5935
도망가	5936
어지	5937
워치	5938
블리	5939
근육	5940
대항	5941
불법	5942
넘치	5943
##PG	5944
##닫	5945
어째	5946
슈트	5947
BGM	5948
MC	5949
슛	5950
핸드	5951
플레이오프	5952
베스트	5953
어둡	5954
오가	5955
SN	5956
자매	5957
유행	5958
묻히	5959
한방	5960
개체	5961
##ity	5962
켜	5963
도발	5964
냐며	5965
타케	5966
어린이	5967
##붕	5968
들어서	5969
##ath	5970
김영	5971
##녁	5972
핫	5973
##창기	5974
고지	5975
보안	5976
쿠로	5977
육성	5978
##넣	5979
##조리	5980
예측	5981
빛나	5982
예고	5983
신기	5984
이즈	5985
소닉	5986
빗	5987
제임	5988
자금	5989
갤럭시	5990
총리	5991
으니까	5992
##컷	5993
검찰	5994
##ᆯ리아	5995
취임	5996
멕시코	5997
형사	5998
FIFA	5999
터키	6000
정면	6001
려다	6002
결론	6003
사제	6004
길드	6005
##end	6006
리스트	6007
국방	6008
웬만	6009
차리	6010
스톰	6011
고백	6012
1991	6013
대리	6014
##끄럽	6015
루타	6016
캐리	6017
파크	6018
구멍	6019
식사	6020
움직임	6021
불러	6022
마구	6023
일시	6024
아기	6025
##ᆸ스	6026
레이스	6027
리치	6028
세이브	6029
스미	6030
호텔	6031
곧바로	6032
##컴	6033
상업	6034
앞두	6035
이명	6036
감옥	6037
여유	6038
!!	6039
##펙트	6040
저장	6041
번개	6042
절망	6043
제임스	6044
찾아보	6045
개방	6046
부서	6047
진심	6048
원자	6049
##끔	6050
##워크	6051
투구	6052
사이즈	6053
구원	6054
##라이트	6055
대가	6056
유대	6057
볼트	6058
초창기	6059
플랫	6060
세르	6061
THE	6062
700	6063
타마	6064
FA	6065
##고리	6066
피부	6067
너무나	6068
바위	6069
배차	6070
##요시	6071
박정	6072
듯이	6073
청소년	6074
오랫	6075
팀원	6076
흥행	6077
ㅕㅆ	6078
강철	6079
럭	6080
바치	6081
카타	6082
리ᄆ	6083
콜로	6084
착각	6085
좌우	6086
##특별시	6087
전철	6088
여지	6089
1988	6090
##구리	6091
파트너	6092
발달	6093
세포	6094
리메이크	6095
MVP	6096
소형	6097
##페인	6098
아끼	6099
처벌	6100
그동안	6101
서울특별시	6102
떠오르	6103
현역	6104
다스	6105
레이드	6106
##로나	6107
신설	6108
둔	6109
긍정	6110
아빠	6111
##쾌	6112
주식	6113
융합	6114
##레이터	6115
##데스	6116
##네스	6117
훗	6118
주간	6119
망치	6120
외계	6121
분량	6122
차라리	6123
프라이	6124
정착	6125
Ro	6126
위장	6127
물러나	6128
잦	6129
미카	6130
##OT	6131
인정받	6132
돼지	6133
반사	6134
챕터	6135
합의	6136
##디언	6137
식민	6138
##멜	6139
랭킹	6140
내성	6141
##성기	6142
봇	6143
목격	6144
인연	6145
누적	6146
커지	6147
협박	6148
전문가	6149
내장	6150
장악	6151
단장	6152
게스트	6153
의뢰	6154
화학	6155
빌드	6156
알레	6157
보고	6158
CC	6159
방지	6160
에서부터	6161
카스	6162
포스트	6163
##ᆨ터	6164
곁	6165
야스	6166
브레이크	6167
섞	6168
잡지	6169
박근혜	6170
Wh	6171
해병	6172
영향력	6173
공지	6174
논리	6175
방출	6176
안드로이드	6177
동의	6178
태그	6179
쟈	6180
국왕	6181
사우	6182
방사	6183
는다면	6184
AK	6185
##삭	6186
시즈	6187
깨지	6188
타이거	6189
먹히	6190
조약	6191
포트	6192
뭉	6193
각자	6194
그대	6195
꺾	6196
몰아	6197
떠올리	6198
요코	6199
배트	6200
한번	6201
룸	6202
괴롭히	6203
관할	6204
저녁	6205
지능	6206
펴	6207
##ect	6208
DLC	6209
골든	6210
하필	6211
국군	6212
칭하	6213
htt	6214
라면서	6215
대폭	6216
Se	6217
1970	6218
##롤	6219
흠	6220
의존	6221
최소한	6222
양쪽	6223
놀이	6224
멍	6225
으려고	6226
호주	6227
손가락	6228
토르	6229
Le	6230
악역	6231
마침내	6232
스턴	6233
동화	6234
연맹	6235
과목	6236
변호사	6237
대지	6238
어다	6239
실버	6240
공무원	6241
유치	6242
'.	6243
##릭스	6244
삐	6245
후속작	6246
막차	6247
기구	6248
수련	6249
수수	6250
본작	6251
그럼	6252
무역	6253
소지	6254
섞이	6255
He	6256
면역	6257
보관	6258
소원	6259
오랫동안	6260
무덤	6261
PD	6262
빡	6263
##톱	6264
##age	6265
오사카	6266
웹툰	6267
주말	6268
역임	6269
오카	6270
##IS	6271
귀신	6272
육체	6273
연인	6274
스리	6275
이지	6276
기원전	6277
al	6278
혐의	6279
스튜디오	6280
썩	6281
내구	6282
명중률	6283
확대	6284
재산	6285
카오스	6286
접촉	6287
호감	6288
어쨌	6289
불교	6290
노부	6291
다가오	6292
적대	6293
델	6294
##구치	6295
네트	6296
왼	6297
kt	6298
##잡이	6299
대처	6300
윌	6301
샌	6302
깜	6303
메리	6304
명성	6305
팔리	6306
써먹	6307
강남	6308
태평	6309
계단	6310
올해	6311
전후	6312
비행기	6313
Go	6314
연료	6315
예능	6316
정비	6317
Me	6318
출마	6319
통치	6320
씌	6321
간혹	6322
슈팅	6323
험	6324
테일	6325
오늘날	6326
딘	6327
합체	6328
트레이드	6329
피스	6330
화제	6331
로즈	6332
컬러	6333
모모	6334
예쁘	6335
정치인	6336
마키	6337
부장	6338
정원	6339
섀	6340
퀄리티	6341
흐름	6342
개성	6343
츄	6344
ᆫ다며	6345
소장	6346
리드	6347
시마	6348
안내	6349
놀랍	6350
학부	6351
오전	6352
게시판	6353
소스	6354
뺏	6355
GT	6356
놓이	6357
준수	6358
휴대	6359
접속	6360
저그	6361
수익	6362
권리	6363
1989	6364
떨어	6365
KIA	6366
권한	6367
빚	6368
특집	6369
패하	6370
연극	6371
하우스	6372
##og	6373
외형	6374
금융	6375
##ake	6376
##ide	6377
##ᆷ없	6378
##어나오	6379
박물	6380
크라	6381
선전	6382
김태	6383
오른	6384
새벽	6385
##오르	6386
허리	6387
고마	6388
상당수	6389
윌리엄	6390
톰	6391
##OM	6392
Be	6393
피격	6394
이집	6395
My	6396
초간	6397
이집트	6398
주기	6399
WW	6400
무렵	6401
따라가	6402
공공	6403
##미야	6404
뻐	6405
##흡	6406
##바라	6407
담기	6408
##ᅦ인트	6409
환영	6410
편곡	6411
페이즈	6412
일기	6413
130	6414
최다	6415
둘째	6416
시계	6417
금속	6418
포르투	6419
갇히	6420
꼽히	6421
##윈	6422
알아보	6423
##려주	6424
나치	6425
넉	6426
AR	6427
메르	6428
##ss	6429
고구	6430
원칙	6431
결합	6432
SC	6433
##ark	6434
##넬	6435
누나	6436
림	6437
##ime	6438
숭	6439
깨닫	6440
연타	6441
##ire	6442
알렉산	6443
할아버지	6444
치우	6445
SM	6446
편입	6447
식당	6448
리얼	6449
##지마	6450
유물	6451
굴리	6452
개입	6453
한동안	6454
문재	6455
캠퍼스	6456
흘	6457
기도	6458
인조	6459
매직	6460
##세스	6461
뜬	6462
어른	6463
렛	6464
웅	6465
지진	6466
주사	6467
거인	6468
188	6469
전신	6470
으러	6471
소중	6472
아니면	6473
극복	6474
wh	6475
116	6476
블로그	6477
전진	6478
시선	6479
성립	6480
영문	6481
##듭	6482
my	6483
Su	6484
##ES	6485
정찰	6486
##티아	6487
사도	6488
은근히	6489
회상	6490
헤비	6491
정글	6492
딩	6493
아바	6494
그로	6495
기사단	6496
SD	6497
협상	6498
ㅓ도	6499
캐스팅	6500
메뉴	6501
첼	6502
궤도	6503
뜯	6504
스웨덴	6505
##ID	6506
##그마	6507
시내버스	6508
팬덤	6509
##셰	6510
Tr	6511
음원	6512
부디	6513
유이	6514
는지라	6515
대개	6516
작곡가	6517
손해	6518
데모	6519
##ite	6520
익히	6521
대충	6522
튀어나오	6523
##던가	6524
독특	6525
재단	6526
수십	6527
동굴	6528
##다랗	6529
우위	6530
##칼	6531
더더	6532
별다르	6533
##아시아	6534
안티	6535
복무	6536
무겁	6537
보라	6538
고수	6539
민주주의	6540
용기	6541
##부르크	6542
식량	6543
털리	6544
트럭	6545
160	6546
젤	6547
교차	6548
리아	6549
종목	6550
이익	6551
해안	6552
##회사	6553
처형	6554
##맨드	6555
##ound	6556
조언	6557
아이스	6558
일찍	6559
뱅	6560
멀쩡	6561
SR	6562
클래식	6563
과제	6564
이끄	6565
리듬	6566
세이버	6567
위상	6568
##iv	6569
원본	6570
더더욱	6571
##가시	6572
HD	6573
''	6574
커맨드	6575
펀치	6576
신비	6577
커스	6578
##라드	6579
김민	6580
빼앗기	6581
타인	6582
박물관	6583
까다롭	6584
플라이	6585
##미니	6586
##베르	6587
힙	6588
신부	6589
##리그	6590
##가미	6591
##iz	6592
##OP	6593
삼국지	6594
##쳐지	6595
훗날	6596
##ge	6597
##마디	6598
증언	6599
해적	6600
머무	6601
천재	6602
날짜	6603
허나	6604
절대로	6605
갈수	6606
적군	6607
IC	6608
자국	6609
꽂	6610
마비	6611
일격	6612
살아가	6613
신앙	6614
위원장	6615
구사	6616
##가리	6617
##OW	6618
갈수록	6619
구나	6620
##스턴	6621
노인	6622
재미있	6623
바리	6624
각본	6625
무릎	6626
코우	6627
중독	6628
하얗	6629
##큐어	6630
기적	6631
재정	6632
죄다	6633
킨	6634
세종	6635
주포	6636
집행	6637
양성	6638
스승	6639
멘탈	6640
철학	6641
하락	6642
우라	6643
참석	6644
마이너	6645
지위	6646
##바르	6647
캠페인	6648
과연	6649
비례	6650
고리	6651
정수	6652
개시	6653
호수	6654
예산	6655
결코	6656
모자라	6657
국적	6658
적응	6659
패션	6660
호위	6661
교류	6662
관중	6663
작화	6664
크리스마스	6665
한참	6666
##리스트	6667
탄창	6668
깡	6669
매체	6670
##팀	6671
이브	6672
이중	6673
##덩이	6674
##스키	6675
##LL	6676
열쇠	6677
##프레	6678
안경	6679
히메	6680
##ome	6681
활발	6682
시아	6683
데이비	6684
경기력	6685
Gr	6686
##갛	6687
##쩍	6688
펫	6689
내세우	6690
원주	6691
선출	6692
투명	6693
십자	6694
드레	6695
##테르	6696
툴	6697
해상	6698
바퀴	6699
with	6700
냥	6701
우연히	6702
김종	6703
루수	6704
체크	6705
##BA	6706
희귀	6707
##지로	6708
명단	6709
비추	6710
녹색	6711
##UN	6712
충성	6713
화성	6714
진보	6715
곽	6716
미안	6717
스타크래프트	6718
왈	6719
데려오	6720
##슬리	6721
새기	6722
이영	6723
칭찬	6724
개수	6725
사막	6726
개막	6727
렉	6728
첫차	6729
주일	6730
로그	6731
##아웃	6732
결말	6733
IS	6734
위대	6735
행적	6736
헝	6737
전성기	6738
##겐	6739
##몬드	6740
모래	6741
제정	6742
당일	6743
의대	6744
기르	6745
인지도	6746
흔적	6747
1987	6748
상급	6749
기종	6750
챌린	6751
흔들리	6752
후방	6753
업적	6754
오스트리아	6755
de	6756
미터	6757
강점	6758
BE	6759
px	6760
임대	6761
상성	6762
140	6763
농담	6764
어지간	6765
김동	6766
포로	6767
웃음	6768
사유	6769
계통	6770
##핵	6771
대수	6772
느라	6773
도우	6774
##MA	6775
Pr	6776
버스터	6777
재현	6778
대학원	6779
취미	6780
면적	6781
무작	6782
매년	6783
##ord	6784
스프링	6785
어쨌든	6786
Love	6787
비상	6788
오직	6789
토끼	6790
어려움	6791
체육관	6792
클릭	6793
더라	6794
해리	6795
심사	6796
##ud	6797
일반인	6798
포항	6799
펑	6800
고스트	6801
피니	6802
개량	6803
사후	6804
신장	6805
거점	6806
프리큐어	6807
생존자	6808
헛	6809
유적	6810
이정	6811
##값	6812
남북	6813
어마	6814
강도	6815
기아	6816
자책	6817
과장	6818
새끼	6819
ch	6820
본체	6821
모조리	6822
##양함	6823
자본	6824
자극	6825
괴수	6826
으시	6827
##려나	6828
예수	6829
이주	6830
##코드	6831
가을	6832
##mp	6833
부지	6834
사라	6835
##케이	6836
파츠	6837
##사자	6838
화물	6839
##데미	6840
울리	6841
카트	6842
##10	6843
부작	6844
로우	6845
맥스	6846
저작	6847
전멸	6848
돋	6849
스탠	6850
##일러	6851
##ame	6852
##나미	6853
람	6854
기용	6855
소위	6856
UE	6857
어스	6858
선고	6859
##ance	6860
아메리카	6861
캡틴	6862
시달리	6863
연금	6864
추구	6865
기울	6866
아티스트	6867
SKT	6868
##ax	6869
##카드	6870
미라	6871
구리	6872
인격	6873
흥미	6874
에리	6875
자세히	6876
an	6877
##치기	6878
가짜	6879
출입	6880
행하	6881
판매량	6882
##ᆼ기	6883
JR	6884
공세	6885
##ure	6886
아카데미	6887
뮈	6888
유나이	6889
유니폼	6890
불타	6891
##ix	6892
기ᄈ	6893
900	6894
일치	6895
차기	6896
GS	6897
승점	6898
채택	6899
포격	6900
브루	6901
##뜻	6902
공룡	6903
일방	6904
단편	6905
유나이티	6906
취향	6907
아미	6908
##ick	6909
소송	6910
##mer	6911
스마트폰	6912
도주	6913
포드	6914
덧붙이	6915
탈퇴	6916
코코	6917
부자	6918
일본인	6919
##ice	6920
막대	6921
사형	6922
스트리	6923
며	6924
연패	6925
할머니	6926
기량	6927
잘리	6928
색깔	6929
타율	6930
칩	6931
피아노	6932
##ᅡᇀ	6933
바깥	6934
귀찮	6935
##our	6936
제작자	6937
한마디	6938
##긋	6939
Bo	6940
유통	6941
건조	6942
노벨	6943
코리아	6944
상실	6945
아즈	6946
타선	6947
화장실	6948
드라이브	6949
구경	6950
후계	6951
생겨나	6952
영구	6953
치유	6954
집어	6955
##이즈	6956
을	6957
라이온	6958
마린	6959
몽골	6960
측정	6961
EP	6962
닭	6963
식민지	6964
##아다니	6965
내지	6966
비주	6967
미루	6968
요금	6969
햄	6970
##시로	6971
##맛	6972
자전	6973
보존	6974
1986	6975
거듭	6976
로고	6977
##시타	6978
날아오	6979
##공화국	6980
##랭크	6981
선택지	6982
무라	6983
트레	6984
쌍둥이	6985
어드	6986
클레	6987
초코	6988
잠재	6989
1960	6990
아이콘	6991
OST	6992
##가스	6993
상인	6994
무방	6995
커피	6996
레디	6997
##켄	6998
찢	6999
빨갛	7000
사신	7001
##랑이	7002
쵸	7003
훼	7004
강요	7005
##코토	7006
레이더	7007
메시지	7008
인민공화국	7009
KO	7010
##{{	7011
Un	7012
간신	7013
언스	7014
초보	7015
이민	7016
##고속	7017
이슈	7018
통산	7019
팽	7020
가요	7021
동력	7022
가상	7023
릴	7024
박히	7025
Ex	7026
##얄	7027
포수	7028
가루	7029
신사	7030
도끼	7031
넥센	7032
조연	7033
색상	7034
등지	7035
피터	7036
다치	7037
데드	7038
##AD	7039
캐논	7040
명확	7041
오타	7042
##듈	7043
몰락	7044
##멘트	7045
연승	7046
##qu	7047
주택	7048
화재	7049
사원	7050
여객	7051
루카	7052
교장	7053
네트워크	7054
그러니	7055
주소	7056
조이	7057
타락	7058
곡명	7059
귀환	7060
##oc	7061
냄새	7062
안타깝	7063
{{{	7064
외전	7065
즐겁	7066
콜라보	7067
구르	7068
##반도	7069
유희왕	7070
모토	7071
나포	7072
터뜨리	7073
제갈	7074
실망	7075
판결	7076
##80	7077
##시스트	7078
남녀	7079
아서	7080
칭호	7081
##카리	7082
GB	7083
대선	7084
찾아내	7085
담배	7086
경로	7087
##ᆫ색	7088
수장	7089
둘러싸	7090
UEFA	7091
항공기	7092
펄	7093
이터	7094
스페이스	7095
광역시	7096
핏	7097
위반	7098
레알	7099
깔끔	7100
매니저	7101
비치	7102
포르투갈	7103
DS	7104
고구려	7105
타수	7106
연합군	7107
186	7108
##own	7109
sh	7110
##ys	7111
베네	7112
반동	7113
##나카	7114
아마도	7115
라인업	7116
순환	7117
CPU	7118
##노우	7119
혐오	7120
교실	7121
영주	7122
##스틱	7123
##럼프	7124
그만두	7125
소라	7126
항복	7127
법인	7128
ᄇ시	7129
백성	7130
이탈	7131
너희	7132
관찰	7133
복지	7134
뿔	7135
##든가	7136
타운	7137
잠수함	7138
##ber	7139
미스터	7140
단단	7141
힌	7142
비서	7143
주역	7144
주자	7145
##블리	7146
적합	7147
캠프	7148
스터	7149
배터리	7150
쟁	7151
낚시	7152
매장	7153
수류	7154
시노	7155
거미	7156
익스	7157
We	7158
스와	7159
##프리	7160
관람	7161
붓	7162
AM	7163
커다랗	7164
예시	7165
유효	7166
강원도	7167
벼	7168
커리어	7169
드래프트	7170
##괄	7171
##섬	7172
싱크	7173
##저스	7174
흘러	7175
히어로즈	7176
105	7177
끊기	7178
공성	7179
카츠	7180
공업	7181
##av	7182
아쿠	7183
##OC	7184
트라이	7185
흑인	7186
하단	7187
인치	7188
고도	7189
유학	7190
벌레	7191
##쌍	7192
이스라	7193
승객	7194
고개	7195
##old	7196
##데이	7197
예언	7198
용량	7199
##정부	7200
김재	7201
동성	7202
.."	7203
고작	7204
본사	7205
##땅	7206
상단	7207
승률	7208
국경	7209
##일보	7210
추억	7211
소프트웨어	7212
CF	7213
면모	7214
천만	7215
마약	7216
포위	7217
튕기	7218
휴식	7219
서구	7220
티켓	7221
##랭	7222
꾸미	7223
관측	7224
LI	7225
철수	7226
수출	7227
일대	7228
그러니까	7229
첩	7230
##orld	7231
웬	7232
도적	7233
곤란	7234
중립	7235
자폭	7236
카운트	7237
생략	7238
스텔	7239
개국	7240
표지	7241
적당히	7242
##로디	7243
수류탄	7244
터널	7245
상술	7246
립	7247
##곱	7248
턱	7249
변환	7250
음모	7251
오크	7252
조별	7253
클랜	7254
인디	7255
마드리	7256
기생	7257
좌석	7258
허가	7259
합병	7260
다름없	7261
추종	7262
##위대	7263
형상	7264
윗	7265
고맙	7266
소대	7267
대인	7268
곱	7269
사이버	7270
실전	7271
##늬	7272
치루	7273
정기	7274
후술	7275
아랍	7276
문구	7277
김대	7278
내전	7279
마드리드	7280
통계	7281
1984	7282
디스크	7283
더럽	7284
보험	7285
인종	7286
차이점	7287
메달	7288
마디	7289
펌	7290
##머스	7291
##김	7292
##ont	7293
1985	7294
글로벌	7295
연예인	7296
최신	7297
근본	7298
복구	7299
엿	7300
##려들	7301
지경	7302
언더	7303
액티브	7304
입지	7305
사명	7306
베리	7307
187	7308
서포터	7309
증오	7310
SH	7311
지뢰	7312
후손	7313
함수	7314
이스라엘	7315
스트라이크	7316
후배	7317
아시안	7318
용서	7319
에르	7320
구석	7321
성남	7322
3000	7323
똥	7324
사정거리	7325
위성	7326
일족	7327
타로	7328
시너지	7329
꼽	7330
크리스탈	7331
떨어뜨리	7332
AD	7333
##ies	7334
허락	7335
LC	7336
기숙	7337
고위	7338
스틸	7339
DF	7340
급격	7341
자막	7342
그랜드	7343
즉위	7344
모노	7345
끈	7346
휩	7347
리타	7348
숙련	7349
논의	7350
하차	7351
전주	7352
부각	7353
텔레비전	7354
공방	7355
lo	7356
KBO	7357
행보	7358
어뢰	7359
미묘	7360
경주	7361
굿	7362
이수	7363
##팩트	7364
토벌	7365
들키	7366
오라	7367
쓸모	7368
모니	7369
감각	7370
발행	7371
해피	7372
데려가	7373
아츠	7374
언덕	7375
##타이	7376
서식	7377
It	7378
왕위	7379
##lay	7380
연령	7381
특전	7382
네요	7383
XX	7384
준우	7385
##말리	7386
중첩	7387
태평양	7388
부딪	7389
뻗	7390
취약	7391
가만	7392
뜬금	7393
구글	7394
후원	7395
일레	7396
오랜만	7397
제약	7398
쿼터	7399
블러드	7400
루나	7401
##어마	7402
노동자	7403
무척	7404
침략	7405
파르	7406
저렴	7407
정화	7408
간신히	7409
##자드	7410
총알	7411
기관총	7412
##OD	7413
노스	7414
침입	7415
##하면	7416
눈치채	7417
릿	7418
##쓸	7419
세븐	7420
MF	7421
루비	7422
드롭	7423
간접	7424
일본군	7425
생년	7426
오마	7427
##US	7428
아르헨	7429
방어구	7430
히나	7431
제트	7432
워커	7433
흡혈	7434
분쟁	7435
씹	7436
법정	7437
입대	7438
알아내	7439
헬기	7440
학습	7441
혹시	7442
균형	7443
전이	7444
드럼	7445
놀리	7446
맛있	7447
가동	7448
찍히	7449
아테	7450
CV	7451
사귀	7452
읍	7453
진압	7454
강자	7455
카카	7456
산하	7457
WWE	7458
우르	7459
.....	7460
##PM	7461
아르헨티나	7462
릴리	7463
##ann	7464
잡아먹	7465
곳곳	7466
찬스	7467
공용	7468
텍스트	7469
소방	7470
평생	7471
##라이언	7472
양자	7473
머무르	7474
여우	7475
분열	7476
NE	7477
트랜스	7478
아이언	7479
SE	7480
어마어마	7481
네오	7482
주차	7483
모시	7484
자이언츠	7485
##40	7486
관점	7487
중세	7488
구슬	7489
신전	7490
동인	7491
약화	7492
악당	7493
금방	7494
정차	7495
아포	7496
##블린	7497
나리	7498
125	7499
##pe	7500
##첨	7501
깨어나	7502
저러	7503
이토	7504
잡아내	7505
거울	7506
##30	7507
##뚱	7508
애정	7509
부적	7510
페널	7511
결심	7512
지리	7513
경상북도	7514
딜링	7515
반전	7516
제작사	7517
다지	7518
격추	7519
옳	7520
내보내	7521
제출	7522
상기	7523
##네임	7524
성당	7525
앨리스	7526
##sh	7527
라기	7528
연고	7529
보호막	7530
your	7531
이혼	7532
되돌리	7533
##플레이	7534
통화	7535
크림	7536
스팀	7537
던지	7538
이란	7539
토너	7540
##NA	7541
호흡	7542
표면	7543
폐쇄	7544
##배우	7545
뎀	7546
사령부	7547
아저	7548
금액	7549
##마크	7550
결전	7551
큐브	7552
구축함	7553
엘리트	7554
미즈	7555
아저씨	7556
코르	7557
간주	7558
히토	7559
악화	7560
저택	7561
보완	7562
뮤지컬	7563
##픔	7564
창원	7565
구름	7566
이식	7567
인권	7568
얻어	7569
스캐	7570
뽑히	7571
충실	7572
##VD	7573
채팅	7574
스크린	7575
헤어지	7576
썬	7577
불사	7578
CJ	7579
김현	7580
선거구	7581
착하	7582
AS	7583
용인	7584
상관없	7585
라면	7586
##츄	7587
##눈	7588
참모	7589
전파	7590
플레	7591
초록	7592
게리	7593
열매	7594
주둔	7595
지불	7596
DE	7597
세인트	7598
발리	7599
인용	7600
하루카	7601
유력	7602
##은행	7603
암시	7604
대왕	7605
천안	7606
##ng	7607
##키아	7608
##io	7609
긴장	7610
정예	7611
교과	7612
분해	7613
물리치	7614
##천시	7615
묘하	7616
해치	7617
##올리	7618
흩	7619
빠져	7620
토니	7621
프란	7622
딴	7623
동양	7624
유발	7625
문재인	7626
서서	7627
보건	7628
존재감	7629
성별	7630
공정	7631
##뛰	7632
##셋	7633
경남	7634
체결	7635
시인	7636
남아	7637
배포	7638
학력	7639
상세	7640
지라	7641
얀	7642
소유자	7643
낮추	7644
##ᆫ가	7645
엮이	7646
수석	7647
커플	7648
##거지	7649
##죠	7650
우에	7651
후계자	7652
;&	7653
악기	7654
언젠가	7655
답변	7656
드라이버	7657
마주치	7658
걸어	7659
시라	7660
짜증	7661
상영	7662
##oo	7663
##라기	7664
토너먼트	7665
에요	7666
원리	7667
수호자	7668
안기	7669
재밌	7670
도둑	7671
전승	7672
도라	7673
로이	7674
엑스트라	7675
로리	7676
악명	7677
행운	7678
호기	7679
로버트	7680
개설	7681
##ᆯ드	7682
170	7683
이듬	7684
도박	7685
Pro	7686
구미	7687
##즐	7688
본관	7689
천하	7690
뜨겁	7691
업로드	7692
##ᆯ라이	7693
잔뜩	7694
미쿠	7695
기인	7696
선두	7697
은신	7698
견디	7699
##ᅪᆨ	7700
기숙사	7701
##싱턴	7702
##월일	7703
##ave	7704
씬	7705
뱀파이어	7706
양식	7707
실종	7708
쏟아지	7709
교도	7710
중량	7711
에다가	7712
지팡	7713
##포트	7714
요인	7715
테라	7716
백인	7717
##걸이	7718
쭉	7719
탐험	7720
##LE	7721
정황	7722
부임	7723
임신	7724
난입	7725
중력	7726
아동	7727
처분	7728
대책	7729
임금	7730
비아	7731
동점	7732
LV	7733
관리자	7734
캐스터	7735
미키	7736
디지몬	7737
애플	7738
심심	7739
##번트	7740
건드리	7741
만남	7742
끔	7743
방송국	7744
that	7745
논문	7746
야생	7747
칼날	7748
UP	7749
항의	7750
관계자	7751
헨리	7752
생년월일	7753
해명	7754
백작	7755
시카	7756
##센트	7757
유독	7758
탄환	7759
분명히	7760
베타	7761
##우마	7762
호칭	7763
##슬링	7764
복합	7765
도루	7766
서번트	7767
카와	7768
닫	7769
금메달	7770
말투	7771
윈도우	7772
##ION	7773
동명	7774
생명체	7775
이라	7776
진주	7777
##베이	7778
문단	7779
##ream	7780
와일드	7781
할인	7782
법칙	7783
##스럽	7784
브레	7785
##엣	7786
수백	7787
가방	7788
패키	7789
다이아몬드	7790
려던	7791
발렌	7792
ED	7793
1500	7794
단축	7795
자녀	7796
뿜	7797
절차	7798
정통	7799
잃어버리	7800
EN	7801
다니	7802
해골	7803
분신	7804
외계인	7805
무관	7806
브로	7807
영광	7808
루이스	7809
기상	7810
운동장	7811
하향	7812
지치	7813
온도	7814
이드	7815
시합	7816
조리	7817
라틴	7818
이듬해	7819
주술	7820
분대	7821
닛	7822
인력	7823
프로필	7824
리뷰	7825
##ond	7826
딜레이	7827
창고	7828
1982	7829
치즈	7830
->	7831
보드	7832
##갈리	7833
부스터	7834
##펴보	7835
살펴보	7836
이온	7837
니스	7838
끔찍	7839
##어하	7840
광장	7841
로얄	7842
기름	7843
플래시	7844
##게임	7845
##iss	7846
Com	7847
5000	7848
왠지	7849
막내	7850
사살	7851
의학	7852
기둥	7853
헐	7854
창설	7855
뛰어넘	7856
전동	7857
레지	7858
건국	7859
성질	7860
전북	7861
울프	7862
밍	7863
셜	7864
한쪽	7865
가라	7866
유인	7867
미네	7868
공허	7869
샌드	7870
체험	7871
블라	7872
레딧	7873
장인	7874
부드	7875
##에르	7876
부사	7877
퇴장	7878
그린	7879
그렇지만	7880
물고기	7881
유격	7882
렐	7883
존경	7884
집착	7885
민첩	7886
두르	7887
##태우	7888
##이어	7889
우정	7890
##운서	7891
삽입	7892
디젤	7893
웨스트	7894
##군다	7895
아나운서	7896
##탐	7897
걸맞	7898
상식	7899
참가자	7900
아키라	7901
승자	7902
1950	7903
럼	7904
##도르	7905
공산당	7906
크레	7907
##IP	7908
##11	7909
깔리	7910
창단	7911
요약	7912
휘말리	7913
엔젤	7914
시상	7915
감지	7916
시원	7917
##카이	7918
작년	7919
진학	7920
시공	7921
모터	7922
솜	7923
조기	7924
증상	7925
그램	7926
전제	7927
마블	7928
독재	7929
##올	7930
수면	7931
감추	7932
1983	7933
하츠	7934
의장	7935
불펜	7936
##60	7937
학기	7938
##펠	7939
출구	7940
##ian	7941
복제	7942
??	7943
by	7944
##비치	7945
##소녀	7946
부드럽	7947
오디션	7948
he	7949
싫어하	7950
나츠	7951
유산	7952
##커스	7953
께서	7954
힐러	7955
비전	7956
덩치	7957
철저	7958
선제	7959
발굴	7960
가공	7961
BL	7962
하이퍼	7963
헤어	7964
단원	7965
스위스	7966
투스	7967
유전자	7968
##ᆺ갈리	7969
스폰	7970
&#	7971
반박	7972
##유럽	7973
go	7974
그럭	7975
트럼프	7976
맷	7977
##그리	7978
여주	7979
항구	7980
탕	7981
타석	7982
리스크	7983
코트	7984
미만	7985
##세대	7986
돌입	7987
##저럭	7988
웃기	7989
안녕	7990
갑작	7991
##팬	7992
중형	7993
스쿨	7994
##티스	7995
사인	7996
콘텐츠	7997
스위치	7998
펼쳐지	7999
꼼	8000
비주얼	8001
꿀	8002
다카	8003
그럭저럭	8004
싹	8005
사법	8006
주니어	8007
##쟁이	8008
노바	8009
기운	8010
##Hz	8011
통로	8012
준우승	8013
배정	8014
##TV	8015
돔	8016
수명	8017
마스크	8018
사용자	8019
대거	8020
어필	8021
출격	8022
휘하	8023
기재	8024
상륙	8025
라이플	8026
논쟁	8027
웨이브	8028
##크라	8029
눕	8030
정교	8031
이펙트	8032
본진	8033
단행	8034
대조	8035
자전거	8036
##투스	8037
가죽	8038
배트맨	8039
보충	8040
폴리	8041
토마	8042
팟	8043
##ory	8044
신도	8045
##베스	8046
깨달	8047
트리플	8048
처지	8049
훈장	8050
호소	8051
##TE	8052
##우리	8053
시리아	8054
회담	8055
식품	8056
스트레스	8057
격차	8058
속이	8059
국장	8060
축복	8061
빅토	8062
인질	8063
백제	8064
##ace	8065
##rom	8066
코미디	8067
시트	8068
Co	8069
##늄	8070
##세서	8071
실책	8072
##틀러	8073
스펠	8074
근대	8075
완결	8076
위안	8077
Bl	8078
옹호	8079
학문	8080
파편	8081
##카이도	8082
태국	8083
케인	8084
평양	8085
##누스	8086
지사	8087
공화	8088
유기	8089
싸이	8090
마우스	8091
;&#	8092
경전	8093
공립	8094
갈아	8095
워싱턴	8096
카를	8097
팬텀	8098
오키	8099
부근	8100
시크	8101
적중	8102
DVD	8103
##필더	8104
승인	8105
미드필더	8106
Br	8107
원문	8108
##필드	8109
##틱	8110
토지	8111
침묵	8112
소음	8113
피우	8114
##레인	8115
슬로	8116
마케	8117
메이드	8118
디즈	8119
##부로	8120
소요	8121
기갑	8122
기동성	8123
##끈	8124
경직	8125
그레	8126
플래그	8127
이글	8128
뱅크	8129
Or	8130
##게이	8131
루스	8132
##무시	8133
히라	8134
##메이	8135
중국어	8136
세부	8137
##뚝	8138
커녕	8139
##oth	8140
두들	8141
와타	8142
근거리	8143
치킨	8144
축하	8145
배출	8146
##ows	8147
내각	8148
막판	8149
##시오	8150
결투	8151
경상남도	8152
신나	8153
보이스	8154
##산시	8155
복선	8156
시신	8157
오염	8158
솔직	8159
파동	8160
방위	8161
##MP	8162
연습생	8163
마감	8164
부실	8165
동계	8166
남매	8167
리카	8168
수능	8169
내일	8170
삼각	8171
간단히	8172
차체	8173
과학자	8174
급하	8175
후퇴	8176
동급	8177
##잠	8178
테츠	8179
기후	8180
고객	8181
임기	8182
날카	8183
##TS	8184
줍	8185
밀어	8186
센스	8187
넘버	8188
##빵	8189
슬라이	8190
우세	8191
##먼스	8192
헝가리	8193
무작위	8194
수급	8195
망가지	8196
왜곡	8197
무인	8198
상담	8199
학위	8200
손상	8201
롬	8202
##화점	8203
##신교	8204
국정	8205
랄	8206
노조	8207
한반도	8208
괜히	8209
지향	8210
규격	8211
스케	8212
##IG	8213
영지	8214
장거리	8215
바쁘	8216
리오	8217
야수	8218
안개	8219
##곽	8220
##셔널	8221
CG	8222
약탈	8223
램	8224
마법소녀	8225
일당	8226
##다보	8227
딕	8228
중시	8229
철거	8230
기세	8231
하마	8232
질리	8233
##주교	8234
무사히	8235
##그나	8236
##경기	8237
##aw	8238
##ᆫ들	8239
끼우	8240
선행	8241
185	8242
##하마	8243
요한	8244
유성	8245
날카롭	8246
##텐도	8247
닌텐도	8248
패키지	8249
스즈	8250
##에이	8251
최상위	8252
##딱	8253
멜로디	8254
장탄	8255
킬러	8256
과도	8257
##포르	8258
##크로	8259
미나미	8260
야구장	8261
##몸	8262
간간	8263
신발	8264
대포	8265
엔드	8266
##군다나	8267
양상	8268
록맨	8269
성전	8270
##ale	8271
SNS	8272
출루	8273
즈음	8274
프리미엄	8275
지칭	8276
타쿠	8277
그날	8278
골키	8279
변수	8280
개발자	8281
PV	8282
스트리트	8283
핑크	8284
##아키	8285
주류	8286
##ike	8287
대치	8288
독일군	8289
개별	8290
뭉치	8291
페이스북	8292
후자	8293
에서	8294
벙	8295
##하시	8296
무산	8297
##틀랜드	8298
##ᆯ로그	8299
특별히	8300
더군다나	8301
틴	8302
여러분	8303
영원히	8304
임팩트	8305
장사	8306
사키	8307
##밋	8308
전망	8309
초인	8310
1945	8311
입주	8312
Cl	8313
챌린지	8314
물체	8315
집권	8316
##아이	8317
##겹	8318
업계	8319
바디	8320
농업	8321
For	8322
무시무시	8323
군수	8324
부착	8325
원조	8326
데이비드	8327
흰색	8328
동남	8329
##야수	8330
암살자	8331
첼시	8332
매번	8333
RPG	8334
틸	8335
나미	8336
왜냐	8337
청주	8338
만주	8339
계시	8340
##OU	8341
중복	8342
브라운	8343
시비	8344
##자와	8345
Dr	8346
질병	8347
##지만	8348
손실	8349
야마토	8350
최적	8351
악몽	8352
##바닥	8353
서서히	8354
필리핀	8355
##ep	8356
선조	8357
피트	8358
취득	8359
##irl	8360
##man	8361
##우치	8362
폭행	8363
동아리	8364
오이	8365
##ach	8366
##ile	8367
##든지	8368
175	8369
동경	8370
수비력	8371
1981	8372
##닌	8373
슬프	8374
Sc	8375
인방	8376
BB	8377
호랑이	8378
##여객	8379
골키퍼	8380
OP	8381
벨트	8382
부동	8383
해양	8384
올스타	8385
서클	8386
여인	8387
구별	8388
102	8389
##공항	8390
잠입	8391
사리	8392
헤르	8393
117	8394
어이	8395
지팡이	8396
꿰	8397
나르	8398
진격	8399
인피	8400
파생	8401
##12	8402
고장	8403
Team	8404
106	8405
며칠	8406
배역	8407
끌려가	8408
잎	8409
교토	8410
룩	8411
##VA	8412
LA	8413
몫	8414
해킹	8415
물량	8416
##철도	8417
트루	8418
##ink	8419
플러스	8420
Sk	8421
선임	8422
일람	8423
제독	8424
상한	8425
퍼포	8426
의외로	8427
사회주의	8428
굵	8429
##둘	8430
Mo	8431
체인지	8432
퍼포먼스	8433
ᆯ게	8434
감싸	8435
페널티	8436
직장	8437
GP	8438
비비	8439
합계	8440
권위	8441
중장	8442
가만히	8443
국당	8444
기호	8445
##데드	8446
레코드	8447
모로	8448
공수	8449
청와	8450
DD	8451
##륨	8452
마물	8453
무술	8454
115	8455
ᄇ시오	8456
응용	8457
##어놓	8458
리프	8459
메이커	8460
김경	8461
해내	8462
세팅	8463
사립	8464
여야	8465
데이트	8466
코난	8467
팡	8468
원형	8469
제네	8470
이웃	8471
평점	8472
이종	8473
약물	8474
가디언	8475
기동전	8476
주행	8477
귀국	8478
언데드	8479
신입	8480
최우	8481
연산	8482
##ial	8483
FM	8484
##승부	8485
나비	8486
풋	8487
청와대	8488
건네	8489
밀도	8490
투쟁	8491
##토스	8492
개장	8493
##런트	8494
##킥	8495
##ish	8496
엘리자	8497
장로	8498
국어	8499
당대	8500
에릭	8501
SU	8502
파란색	8503
1979	8504
서기	8505
마다	8506
캄	8507
냐면	8508
##므	8509
후임	8510
여전	8511
에디	8512
긴급	8513
집합	8514
UN	8515
이와	8516
만만	8517
웰	8518
배달	8519
징역	8520
챔피언십	8521
억지로	8522
스파이더	8523
프로토	8524
##슴	8525
포즈	8526
오스만	8527
트릭	8528
선사	8529
합리	8530
쇼핑	8531
##앉	8532
개신교	8533
분포	8534
권장	8535
뽑아내	8536
히가시	8537
장신	8538
김상	8539
기장	8540
행방	8541
랑	8542
추방	8543
##ower	8544
택시	8545
저하	8546
천연	8547
다가가	8548
공백	8549
회색	8550
감동	8551
##네시아	8552
##튬	8553
안양	8554
전무	8555
해산	8556
일화	8557
댄	8558
궁금	8559
프리미어	8560
연구원	8561
독점	8562
증폭	8563
신자	8564
수동	8565
즉사	8566
모스크	8567
확산	8568
##II	8569
명의	8570
관여	8571
야간	8572
주관	8573
더러	8574
Bla	8575
면허	8576
교단	8577
여학생	8578
공인	8579
방치	8580
재회	8581
임의	8582
모집	8583
폐기	8584
##하르트	8585
듀오	8586
빌딩	8587
유미	8588
##오루	8589
아틀	8590
대단히	8591
조상	8592
혼돈	8593
잠들	8594
라이너	8595
만일	8596
명백	8597
김진	8598
##GE	8599
전남	8600
썬더	8601
코멘트	8602
감상	8603
아레나	8604
캘리	8605
바둑	8606
이란	8607
##블로	8608
성경	8609
렌즈	8610
쌀	8611
##운동	8612
버섯	8613
##ᅡᆯ린	8614
사무소	8615
택하	8616
CH	8617
매출	8618
도마	8619
##뇨	8620
##늦	8621
분당	8622
we	8623
캐치	8624
고블린	8625
자비	8626
피닉스	8627
끊임	8628
발목	8629
토시	8630
돌연	8631
BS	8632
##IM	8633
출간	8634
조명	8635
타이거즈	8636
처참	8637
Ne	8638
추리	8639
##!!	8640
불량	8641
Star	8642
##콜	8643
오메	8644
장미	8645
부서지	8646
광산	8647
닐	8648
깜짝	8649
##ᆺ이	8650
광선	8651
박지	8652
뒤지	8653
##프리카	8654
승무원	8655
김기	8656
##ᆻ다	8657
전라남도	8658
구성원	8659
포켓몬스터	8660
비웃	8661
무스	8662
##벌레	8663
스테이	8664
상관없이	8665
복원	8666
뚫리	8667
PR	8668
해머	8669
우월	8670
고소	8671
실장	8672
ID	8673
우주선	8674
##벳	8675
고로	8676
질투	8677
목사	8678
쿠라	8679
스타디	8680
되게	8681
통틀	8682
##언스	8683
하인	8684
평일	8685
만지	8686
계수	8687
간호	8688
기쁘	8689
지연	8690
난사	8691
와카	8692
##번에	8693
##히코	8694
배급	8695
##쿠라	8696
드루	8697
Wind	8698
미국인	8699
버드	8700
수색	8701
ᆫ데다	8702
화산	8703
##드레	8704
350	8705
라이온즈	8706
세리	8707
유출	8708
벌리	8709
협정	8710
닝	8711
##99	8712
유언	8713
##벅	8714
파이트	8715
수립	8716
탐정	8717
엄격	8718
시외	8719
스탠드	8720
조롱	8721
up	8722
풍부	8723
##전자	8724
붐	8725
우유	8726
짤	8727
운수	8728
##나오	8729
서포트	8730
LP	8731
재학	8732
파멸	8733
심의	8734
##첼	8735
DC	8736
골렘	8737
한두	8738
우익	8739
##리코	8740
##카락	8741
국무	8742
산맥	8743
War	8744
##잘	8745
##래시	8746
머리카락	8747
오니	8748
메이플	8749
fe	8750
체감	8751
And	8752
정발	8753
뤼	8754
시바	8755
의자	8756
호시	8757
젤리	8758
검술	8759
온천	8760
##체스터	8761
도저히	8762
##ass	8763
텟	8764
당사자	8765
청구	8766
치열	8767
##ᆺ지	8768
나기	8769
모험가	8770
센트	8771
말ᄊ	8772
합동	8773
육상	8774
토미	8775
##타카	8776
포장	8777
국제공항	8778
뒤늦	8779
사이코	8780
##ms	8781
반부	8782
##me	8783
키타	8784
루크	8785
360	8786
스텝	8787
Man	8788
##릇	8789
레일	8790
소용	8791
실내	8792
이라크	8793
오로지	8794
다운로드	8795
본토	8796
##춤	8797
112	8798
마코토	8799
축소	8800
기력	8801
권유	8802
특급	8803
로빈	8804
조용히	8805
극도	8806
에픽	8807
아쉬	8808
규제	8809
디즈니	8810
승진	8811
배수	8812
##gh	8813
바스	8814
따뜻	8815
우치	8816
##CG	8817
낙하	8818
##렐라	8819
비명	8820
루머	8821
마냥	8822
시사	8823
##가드	8824
108	8825
##뮬	8826
All	8827
라라	8828
나마	8829
묶이	8830
거스	8831
자꾸	8832
러시	8833
AKB	8834
나노	8835
티아	8836
##틀리	8837
##tle	8838
하계	8839
##pp	8840
##ble	8841
##amp	8842
충청남도	8843
반감	8844
톨	8845
범죄자	8846
지인	8847
바르셀	8848
루피	8849
오락	8850
파울	8851
출범	8852
바르셀로나	8853
##를린	8854
세라	8855
##ᆯ러스	8856
비유	8857
우즈	8858
페리	8859
##ft	8860
지목	8861
여섯	8862
수직	8863
베이징	8864
알라	8865
안쪽	8866
뮌	8867
##농	8868
토큰	8869
중지	8870
단종	8871
오우	8872
##궐	8873
일요일	8874
프렌	8875
103	8876
수월	8877
경북	8878
세금	8879
탐지	8880
폭파	8881
황후	8882
능력자	8883
전당	8884
##슬라	8885
붙잡히	8886
협의	8887
바니	8888
꼬이	8889
리즈	8890
어시스트	8891
##yle	8892
스타디움	8893
서머	8894
##70	8895
우드	8896
미르	8897
실은	8898
이글스	8899
여파	8900
##ous	8901
중순	8902
물품	8903
직선	8904
막아내	8905
##려받	8906
실현	8907
배제	8908
조우	8909
##사이	8910
모임	8911
##now	8912
##튀	8913
##atch	8914
베테	8915
##sp	8916
신학	8917
슬리	8918
넘어지	8919
리버풀	8920
카구	8921
##페라	8922
기리	8923
불행	8924
분산	8925
##졸	8926
부딪히	8927
당당	8928
조커	8929
One	8930
넘어서	8931
타르	8932
아가씨	8933
Mar	8934
모듈	8935
##orm	8936
수염	8937
미미	8938
생전	8939
손자	8940
드림	8941
김해	8942
평론	8943
얻어맞	8944
캐시	8945
토키	8946
유의	8947
신용	8948
New	8949
To	8950
##뚜	8951
ON	8952
명문	8953
퍼부	8954
거북	8955
기묘	8956
나스	8957
드론	8958
추세	8959
바론	8960
여고	8961
조르	8962
무승부	8963
ex	8964
체중	8965
막상	8966
낙선	8967
##스티벌	8968
나루토	8969
##도리	8970
진상	8971
페스티벌	8972
수비수	8973
IN	8974
경악	8975
##란히	8976
##플레	8977
살아나	8978
토요일	8979
던가	8980
BR	8981
맥주	8982
##민주	8983
천문	8984
까이	8985
Part	8986
스미스	8987
수습	8988
엽	8989
태풍	8990
가난	8991
더빙	8992
채보	8993
KR	8994
기수	8995
두렵	8996
마카	8997
연봉	8998
함락	8999
김용	9000
Gam	9001
할로	9002
##쿨	9003
강등	9004
엑시	9005
비극	9006
센서	9007
강사	9008
##저리	9009
SF	9010
주최	9011
후회	9012
패전	9013
힙합	9014
이나	9015
홋	9016
##ING	9017
대성	9018
극히	9019
##슬러	9020
집어넣	9021
잠실	9022
리온	9023
비틀	9024
산탄	9025
고속도로	9026
CS	9027
좌절	9028
적자	9029
ᆫ다거나	9030
엄밀	9031
국판	9032
듀스	9033
명목	9034
까마	9035
배려	9036
동반	9037
배드	9038
팁	9039
타일	9040
둠	9041
엎	9042
끓	9043
훼손	9044
꽉	9045
인접	9046
유망	9047
대시	9048
노가	9049
실시간	9050
개척	9051
이라	9052
코마	9053
##ment	9054
철권	9055
리가	9056
기부	9057
PP	9058
##방송	9059
에반	9060
알바	9061
사무실	9062
##ae	9063
빨간	9064
반짝	9065
케이블	9066
야쿠	9067
늙	9068
##64	9069
주체	9070
하여	9071
128	9072
뻥	9073
원시	9074
스티븐	9075
압력	9076
모스	9077
상반	9078
고증	9079
장탄수	9080
캣	9081
쇼크	9082
도리	9083
샤이	9084
젖	9085
스테이션	9086
##불명	9087
유재	9088
스핀	9089
나요	9090
혜택	9091
투척	9092
도장	9093
신속	9094
포탄	9095
닉네임	9096
##테이	9097
꼬마	9098
##버그	9099
바지	9100
인자	9101
##ase	9102
혈액	9103
쳐들	9104
호남	9105
중화민국	9106
##사기	9107
코믹	9108
농장	9109
마땅	9110
아이러	9111
각지	9112
##ree	9113
장성	9114
다투	9115
이타	9116
되돌	9117
재개	9118
##사리	9119
조카	9120
역습	9121
주교	9122
걸즈	9123
고시	9124
음료	9125
유니크	9126
휴가	9127
벤치	9128
히틀러	9129
반도	9130
##앤	9131
##밭	9132
암호	9133
시로	9134
구조물	9135
달려가	9136
짙	9137
구장	9138
날씨	9139
##어트	9140
샷건	9141
##구장	9142
때려	9143
변동	9144
번지	9145
총장	9146
En	9147
캘리포	9148
네티	9149
##킷	9150
제이스	9151
쿤	9152
확장팩	9153
퍼즐	9154
얽	9155
제갈량	9156
##노리	9157
그라운드	9158
에로	9159
시상식	9160
하프	9161
짐작	9162
믹스	9163
1978	9164
질서	9165
1973	9166
ᄇ니까	9167
근원	9168
챔	9169
레온	9170
JT	9171
함부로	9172
##브라	9173
트로피	9174
해병대	9175
동해	9176
##ᅥ하	9177
기뻐하	9178
어쩌면	9179
184	9180
사퇴	9181
로맨	9182
거론	9183
오브젝트	9184
##az	9185
튼	9186
여의	9187
##bo	9188
대행	9189
캘리포니아	9190
보라색	9191
슬라	9192
제치	9193
소니	9194
찬성	9195
라즈	9196
첫째	9197
갈색	9198
짐승	9199
AN	9200
상사	9201
가담	9202
깊이	9203
베기	9204
##놀	9205
##러그	9206
각오	9207
인재	9208
##앞	9209
사로	9210
World	9211
##ason	9212
양손	9213
구동	9214
##AY	9215
111	9216
##케이션	9217
그랑	9218
샵	9219
쿠데	9220
220	9221
여럿	9222
안심	9223
호불	9224
##iki	9225
호불호	9226
퇴각	9227
무용	9228
백화점	9229
껍	9230
최저	9231
##베리	9232
혁신	9233
거칠	9234
사야	9235
공감	9236
갚	9237
183	9238
강림	9239
메트로	9240
키보드	9241
정반	9242
##돌이	9243
결제	9244
지수	9245
##키스탄	9246
킷	9247
감수	9248
시그	9249
JP	9250
##저기	9251
오더	9252
포스터	9253
##느리	9254
사이클	9255
돌보	9256
동서	9257
프린세스	9258
말기	9259
트레이너	9260
진급	9261
마계	9262
전날	9263
계층	9264
베어스	9265
리미	9266
고무	9267
할리	9268
네티즌	9269
알렉스	9270
원더	9271
동아	9272
카리	9273
##ear	9274
So	9275
중동	9276
경호	9277
빨간색	9278
거든	9279
대령	9280
특별시	9281
동행	9282
산타	9283
흡사	9284
##hen	9285
후반기	9286
하하	9287
라크	9288
빠져나가	9289
장례	9290
셔틀	9291
노란색	9292
여기저기	9293
중부	9294
장난감	9295
마오	9296
240	9297
평하	9298
흔들	9299
사관	9300
막강	9301
타이탄	9302
패밀리	9303
리처	9304
##MS	9305
뜬금없이	9306
신선	9307
당기	9308
sp	9309
수지	9310
세뇌	9311
핀란드	9312
피로	9313
학생회	9314
가두	9315
##키스	9316
##are	9317
휠	9318
포획	9319
드레스	9320
밀어내	9321
견해	9322
려다가	9323
FW	9324
베를린	9325
탐색	9326
두들기	9327
차갑	9328
##빨	9329
보좌	9330
인과	9331
유혹	9332
GO	9333
깎이	9334
매주	9335
선수단	9336
날뛰	9337
양반	9338
ᆯ려	9339
교복	9340
유입	9341
봉쇄	9342
국도	9343
페어	9344
영감	9345
우호	9346
강렬	9347
원곡	9348
스코틀랜드	9349
연쇄	9350
뮌헨	9351
상주	9352
입자	9353
##직자	9354
케이드	9355
선진	9356
##차기	9357
##우트	9358
1974	9359
돋보이	9360
방송사	9361
무공	9362
문화재	9363
프랑스어	9364
생체	9365
끌리	9366
재건	9367
tv	9368
##클리	9369
클론	9370
우측	9371
박쥐	9372
소재지	9373
트라우마	9374
마일	9375
비기	9376
도어	9377
역명	9378
점유	9379
운송	9380
토대	9381
##이너	9382
마냥	9383
콤비	9384
##루미	9385
방탄	9386
요미	9387
경찰서	9388
아이러니	9389
드로우	9390
##케이드	9391
위로	9392
왕실	9393
결계	9394
김준	9395
아베	9396
서바이	9397
잭슨	9398
후미	9399
흙	9400
박살나	9401
약자	9402
와인	9403
신중	9404
공격수	9405
무실	9406
결혼식	9407
세로	9408
비스트	9409
##ᆺ불	9410
http	9411
부시	9412
수여	9413
##하나	9414
침대	9415
지부	9416
1972	9417
연금술	9418
복사	9419
##90	9420
##ven	9421
윈드	9422
래퍼	9423
트윈스	9424
##ife	9425
포터	9426
##아치	9427
관료	9428
화폐	9429
제물	9430
기스	9431
도덕	9432
전락	9433
집회	9434
통칭	9435
바나	9436
https	9437
##싸움	9438
쇄	9439
로이드	9440
완공	9441
튼튼	9442
트랩	9443
첸	9444
토하	9445
##기에	9446
##ade	9447
허무	9448
장판	9449
프라임	9450
순양함	9451
엔지	9452
리안	9453
밀려나	9454
##AP	9455
Wi	9456
취업	9457
##베이터	9458
홀리	9459
역량	9460
스즈키	9461
선장	9462
소금	9463
##박스	9464
콘솔	9465
폭스	9466
탐사	9467
##렉션	9468
세자	9469
덴마크	9470
영양	9471
출혈	9472
강경	9473
우회	9474
쓸데	9475
##껍	9476
빈도	9477
탭	9478
나아지	9479
##act	9480
##데레	9481
도감	9482
MB	9483
##웰	9484
글씨	9485
~!	9486
도트	9487
홀드	9488
##ai	9489
대타	9490
일곱	9491
##ank	9492
아바타	9493
##깨비	9494
##gin	9495
연설	9496
이순	9497
억제	9498
여단	9499
간섭	9500
%/	9501
관통력	9502
상무	9503
공대	9504
낭비	9505
do	9506
단행본	9507
##aby	9508
히든	9509
루프	9510
부작용	9511
노무	9512
메이지	9513
오노	9514
모형	9515
신데	9516
창문	9517
104	9518
영화제	9519
청나라	9520
라니	9521
##ᆫ바	9522
하스	9523
승차	9524
##out	9525
전동차	9526
인도네시아	9527
책임지	9528
소통	9529
마라	9530
법무	9531
Fate	9532
no	9533
트레일러	9534
##흔	9535
전격	9536
침투	9537
성씨	9538
##토니	9539
술사	9540
손꼬	9541
재직	9542
태클	9543
오지	9544
페미니	9545
워크래프트	9546
넘어오	9547
디시	9548
당초	9549
매니아	9550
한창	9551
다큐	9552
1975	9553
커스텀	9554
쿠데타	9555
마피아	9556
##lect	9557
시카고	9558
신데렐라	9559
실상	9560
히로시	9561
LIVE	9562
간간히	9563
부재	9564
##지르	9565
형편	9566
백업	9567
제재	9568
파밍	9569
123	9570
설령	9571
손오	9572
출산	9573
성실	9574
##므로	9575
손쉽	9576
깃발	9577
끊임없이	9578
##ET	9579
범용	9580
##에른	9581
공산주의	9582
장애물	9583
을수록	9584
스나이	9585
경연	9586
강간	9587
김일	9588
스트라이커	9589
딸리	9590
##oll	9591
제니	9592
NH	9593
우승자	9594
끌어들이	9595
워크	9596
전향	9597
소득	9598
스타리그	9599
시호	9600
검증	9601
조종사	9602
##UM	9603
##모스	9604
토요	9605
중점	9606
Up	9607
이른바	9608
품질	9609
왕비	9610
OS	9611
노르웨이	9612
여타	9613
카자	9614
1976	9615
라스트	9616
are	9617
클린	9618
근접전	9619
소나	9620
말레이	9621
변이	9622
항해	9623
외곽	9624
III	9625
##ork	9626
렉스	9627
##ᆯ릿	9628
##천군	9629
다스리	9630
스피릿	9631
이스트	9632
파도	9633
성분	9634
강릉	9635
최선	9636
원주민	9637
정석	9638
마산	9639
사악	9640
##더라	9641
사사	9642
크라이	9643
대접	9644
혈통	9645
섀도우	9646
##추어	9647
모니터	9648
그러므로	9649
발명	9650
따라오	9651
판사	9652
유료	9653
##바야	9654
Do	9655
단기	9656
겔	9657
##ary	9658
이어받	9659
하급	9660
마트	9661
구상	9662
큰	9663
특공	9664
선박	9665
리코	9666
리모	9667
카더라	9668
Oh	9669
제왕	9670
공통점	9671
왜냐하면	9672
검열	9673
광물	9674
##way	9675
하반	9676
티스	9677
전생	9678
##렇	9679
왼손	9680
끌어올리	9681
뉘	9682
##루션	9683
동전	9684
입문	9685
##페이	9686
119	9687
드로	9688
##와라	9689
브라이언	9690
키라	9691
유연	9692
##바지	9693
트리거	9694
벨기에	9695
포도	9696
천천	9697
##톡	9698
중상	9699
맞붙	9700
명분	9701
탄핵	9702
올드	9703
##ey	9704
쯔	9705
##ich	9706
명사	9707
공헌	9708
고종	9709
장남	9710
전송	9711
원장	9712
사로잡	9713
##께끼	9714
135	9715
수수께끼	9716
급행	9717
소모량	9718
중심지	9719
단검	9720
109	9721
##슈타인	9722
##모함	9723
초콜릿	9724
엘레	9725
중고	9726
김수	9727
박정희	9728
미지	9729
바이에른	9730
초상	9731
우울	9732
코스튬	9733
중기	9734
지선	9735
##저우	9736
##타입	9737
ES	9738
중위	9739
트롤	9740
확신	9741
대변	9742
##플링	9743
올바르	9744
Mk	9745
공단	9746
##헬	9747
입증	9748
으려는	9749
베테랑	9750
일체	9751
한나라	9752
모스크바	9753
잔인	9754
##으로	9755
##능력	9756
##키리	9757
크레이	9758
한나라당	9759
관우	9760
벅	9761
엘리베이터	9762
검토	9763
오페라	9764
시모	9765
저자	9766
수인	9767
마틴	9768
Ad	9769
잉여	9770
예약	9771
시온	9772
단발	9773
조국	9774
부패	9775
질주	9776
친절	9777
불태우	9778
손오공	9779
대법	9780
아이디어	9781
lv	9782
땅볼	9783
부유	9784
메일	9785
대동	9786
##샷	9787
히스	9788
긁	9789
꿈꾸	9790
자네	9791
##벤처	9792
교리	9793
all	9794
##동자	9795
Day	9796
어드벤처	9797
씌우	9798
존스	9799
강호	9800
앤드	9801
발판	9802
보스턴	9803
아스카	9804
성배	9805
터스	9806
유망주	9807
천황	9808
콘스탄	9809
AFC	9810
##어드	9811
케빈	9812
시외버스	9813
곡인	9814
스태프	9815
부속	9816
도쿠	9817
퀵	9818
이병	9819
##다운	9820
천천히	9821
nd	9822
체코	9823
버스트	9824
렘	9825
압축	9826
##하루	9827
충족	9828
학사	9829
##pt	9830
고는	9831
182	9832
##orn	9833
과자	9834
카카오	9835
흩어지	9836
이현	9837
메리트	9838
비리	9839
니혼	9840
고스	9841
카시	9842
굴욕	9843
구독	9844
##라미	9845
무제	9846
도깨비	9847
에이지	9848
그릇	9849
##스카	9850
갑작스럽	9851
쓰리	9852
넬	9853
프로게이	9854
프로게이머	9855
분할	9856
동정	9857
손님	9858
오메가	9859
강전	9860
화상	9861
군부	9862
자제	9863
연수	9864
나폴레	9865
##르타	9866
루마	9867
토마스	9868
친분	9869
##넌	9870
시게	9871
어색	9872
후일	9873
대박	9874
지붕	9875
위엄	9876
민중	9877
싱가	9878
싱가포르	9879
항공모함	9880
디자이너	9881
기하	9882
평등	9883
##가루	9884
기차	9885
121	9886
홋카이도	9887
치카	9888
미궁	9889
레이디	9890
이모	9891
나폴레옹	9892
마운	9893
지력	9894
##레일리아	9895
고고	9896
삼성전자	9897
라그나	9898
##스레	9899
1971	9900
땡	9901
일관	9902
머니	9903
Windows	9904
까지	9905
##의자	9906
##네마	9907
왕복	9908
얇	9909
레이블	9910
박살내	9911
와이번	9912
달아나	9913
FF	9914
이오	9915
동구	9916
테이블	9917
폭격기	9918
스택	9919
너머	9920
발레	9921
머물	9922
145	9923
사촌	9924
극대	9925
107	9926
블레이	9927
맹세	9928
디펜	9929
플랜	9930
망명	9931
##테이션	9932
##네이	9933
우루	9934
톡	9935
="	9936
이경	9937
현금	9938
RA	9939
기울이	9940
열정	9941
찰스	9942
이틀	9943
엑시즈	9944
광기	9945
합작	9946
1977	9947
진에	9948
점검	9949
강점기	9950
대전차	9951
##ah	9952
김포	9953
엔트리	9954
퍼스트	9955
##EM	9956
터트리	9957
그립	9958
하이라이트	9959
카리스	9960
여포	9961
질량	9962
유탄	9963
창립	9964
쫓겨나	9965
DP	9966
변태	9967
종결	9968
썸	9969
##사스	9970
원숭이	9971
으라고	9972
후드	9973
촉수	9974
하사	9975
##군가	9976
작위	9977
마타	9978
ML	9979
고집	9980
사체	9981
##렷	9982
AA	9983
##very	9984
신동	9985
자율	9986
리퍼	9987
##uck	9988
화해	9989
저기	9990
마술사	9991
일가	9992
보고서	9993
리틀	9994
재배	9995
존중	9996
조화	9997
누군가	9998
츠카	9999
본질	10000
그레이트	10001
독일어	10002
표절	10003
##막지	10004
사족	10005
무지막지	10006
챔프	10007
춥	10008
총합	10009
오렌	10010
외우	10011
원전	10012
ne	10013
여서	10014
천장	10015
잊히	10016
선교	10017
이대로	10018
IT	10019
공신	10020
에버	10021
평행	10022
엔지니어	10023
보르	10024
앗	10025
이이	10026
br	10027
석유	10028
부스	10029
쳐들어	10030
중거리	10031
자존	10032
감탄	10033
브라더스	10034
임진	10035
전라북도	10036
피카	10037
##ph	10038
Sw	10039
DPS	10040
호크	10041
젬	10042
자책점	10043
면하	10044
BPM	10045
게이머	10046
JTBC	10047
소집	10048
정사	10049
지분	10050
농민	10051
##아들	10052
진단	10053
물자	10054
210	10055
지오	10056
스포일러	10057
##끗	10058
메카닉	10059
카마	10060
봉사	10061
노무현	10062
연간	10063
해소	10064
178	10065
인칭	10066
##ero	10067
꺼리	10068
몸통	10069
란스	10070
스가	10071
1969	10072
마그	10073
떨치	10074
과일	10075
##자치	10076
113	10077
니아	10078
스티브	10079
유가	10080
관장	10081
리처드	10082
".	10083
대위	10084
유격수	10085
라마	10086
교과서	10087
파랗	10088
무실점	10089
##플리	10090
쿠스	10091
교차로	10092
##ool	10093
타구	10094
사수	10095
서적	10096
동속	10097
검정	10098
노가다	10099
165	10100
##바나	10101
오스트레일리아	10102
파스	10103
광명	10104
브레이커	10105
마유	10106
김지	10107
1968	10108
하치	10109
맨체스터	10110
동대	10111
솟	10112
1963	10113
냉정	10114
데빌	10115
주식회사	10116
임하	10117
철저히	10118
##ical	10119
러스	10120
총독	10121
토트	10122
쨩	10123
불쌍	10124
빙판	10125
명시	10126
출판사	10127
시골	10128
손꼽히	10129
NBA	10130
부원	10131
프랜	10132
힘입	10133
입사	10134
필름	10135
주축	10136
장타	10137
다니엘	10138
##urn	10139
부산광역시	10140
아깝	10141
가구	10142
착륙	10143
##퍼드	10144
백만	10145
겜	10146
##ype	10147
Ph	10148
병역	10149
블리자드	10150
탄압	10151
실체	10152
슬픔	10153
##ARD	10154
부천	10155
Con	10156
2021	10157
말씀	10158
에드워드	10159
윤리	10160
모순	10161
##구미	10162
##anc	10163
주사위	10164
호의	10165
##센스	10166
##지아	10167
스노우	10168
매각	10169
##ᆺ속	10170
고아	10171
광경	10172
##우라	10173
지장	10174
유치원	10175
터보	10176
미오	10177
매드	10178
불능	10179
프론	10180
마인드	10181
닦	10182
스폰서	10183
목걸이	10184
{{{#	10185
은지	10186
섹	10187
어벤	10188
부스트	10189
라이언	10190
##은색	10191
김유	10192
155	10193
서열	10194
레이어	10195
완화	10196
겸하	10197
지혜	10198
용산	10199
Cr	10200
마당	10201
파운드	10202
변장	10203
##ung	10204
참사	10205
평론가	10206
엄연히	10207
줄기	10208
유니버스	10209
날아다니	10210
이라도	10211
내버리	10212
물어	10213
멍청	10214
OVA	10215
사우스	10216
수천	10217
김승	10218
울트라맨	10219
답답	10220
명명	10221
##멧	10222
우타	10223
문양	10224
나나	10225
하나하나	10226
보편	10227
개명	10228
122	10229
Qu	10230
서류	10231
트윗	10232
상금	10233
납득	10234
##켈	10235
아아	10236
미러	10237
초청	10238
워프	10239
##항공	10240
배구	10241
모델링	10242
씨앗	10243
외국어	10244
평상	10245
##테일	10246
시뮬	10247
디오	10248
Station	10249
181	10250
레인지	10251
프로그래	10252
##업자	10253
압권	10254
TVA	10255
이노	10256
치안	10257
열혈	10258
가설	10259
144	10260
중구	10261
정문	10262
친척	10263
난무	10264
어나	10265
진동	10266
취재	10267
닥치	10268
집계	10269
디바	10270
중원	10271
에미	10272
엘리자베스	10273
박수	10274
##소년	10275
본능	10276
수위	10277
##시피	10278
LO	10279
발키리	10280
향후	10281
##ww	10282
앓	10283
절친	10284
좌익	10285
KOF	10286
재앙	10287
철갑	10288
마케팅	10289
자산	10290
서명	10291
주석	10292
리나	10293
헷갈리	10294
성명	10295
오죽	10296
카지	10297
우연	10298
녹화	10299
고등학생	10300
##끼리	10301
이케	10302
로크	10303
##iver	10304
도심	10305
케이크	10306
애칭	10307
무늬	10308
초능력	10309
##부지	10310
비우	10311
소생	10312
작정	10313
고사	10314
어나더	10315
at	10316
패자	10317
##잉	10318
행진	10319
서방	10320
강민	10321
쫒	10322
쿵	10323
매트	10324
국토	10325
햇	10326
사연	10327
사직	10328
페스	10329
시조	10330
덤비	10331
##DD	10332
신하	10333
테스	10334
곤충	10335
어이없	10336
브래	10337
152	10338
일리	10339
서울대	10340
시어	10341
드래곤볼	10342
유아	10343
용암	10344
골프	10345
가이드	10346
love	10347
결의	10348
아리아	10349
##쥬	10350
일렉트	10351
로프	10352
타츠	10353
아마추어	10354
경부	10355
실용	10356
액체	10357
학대	10358
실사	10359
##폭탄	10360
##ens	10361
경사	10362
산소	10363
국방부	10364
정성	10365
발발	10366
멋대로	10367
##겔	10368
자사	10369
쿠니	10370
카레	10371
표적	10372
츠바	10373
전지	10374
##마리	10375
as	10376
워터	10377
편리	10378
벙커	10379
좌측	10380
유엔	10381
##ost	10382
##밤	10383
스카우트	10384
아스트	10385
민간인	10386
도색	10387
##이동	10388
TR	10389
이태	10390
##드러지	10391
자칭	10392
리플	10393
침몰	10394
114	10395
엄밀히	10396
##ᆺ말	10397
워즈	10398
##마르	10399
주머니	10400
사투	10401
일커	10402
마음대로	10403
스케일	10404
##워즈	10405
##ence	10406
1930	10407
일컫	10408
다케	10409
##흉	10410
라이즈	10411
wiki	10412
몰살	10413
거지	10414
마하	10415
##리칸	10416
아지	10417
박성	10418
롤러	10419
인성	10420
만점	10421
미성	10422
##려워하	10423
IM	10424
##nt	10425
변명	10426
의정부	10427
이대	10428
직책	10429
때로	10430
##띠	10431
##마루	10432
자아	10433
개교	10434
초록색	10435
망토	10436
알아채	10437
##변이	10438
돌연변이	10439
from	10440
초점	10441
항모	10442
##ise	10443
옥상	10444
습니까	10445
각도	10446
코토	10447
각인	10448
법사	10449
웜	10450
##int	10451
리본	10452
##시스코	10453
이진	10454
기질	10455
포크	10456
모음	10457
텍사스	10458
이누	10459
1920	10460
개구리	10461
원피스	10462
템플	10463
마모	10464
아자	10465
신지	10466
스컬	10467
179	10468
##타운	10469
방학	10470
##뱅	10471
만능	10472
이념	10473
정밀	10474
유스	10475
고의	10476
달려들	10477
!"	10478
발급	10479
##탱	10480
##AK	10481
통째	10482
풍기	10483
죄책	10484
등극	10485
학급	10486
Super	10487
이원	10488
포탈	10489
매달리	10490
에디션	10491
MG	10492
##이나	10493
##하여	10494
비키	10495
Fr	10496
격려	10497
1940	10498
이명박	10499
BJ	10500
can	10501
이어서	10502
##oy	10503
지로	10504
##지능	10505
용자	10506
인공지능	10507
동성애	10508
조항	10509
아담	10510
방심	10511
##리나	10512
포병	10513
슈퍼맨	10514
미인	10515
혼인	10516
정신력	10517
##툼	10518
이빨	10519
www	10520
##ign	10521
발탁	10522
##떨어지	10523
적절히	10524
CM	10525
선동	10526
오렌지	10527
엉망	10528
관직	10529
종영	10530
인벤	10531
연전	10532
##ans	10533
극한	10534
협동	10535
스타트	10536
바쿠	10537
연이	10538
177	10539
북아	10540
마찰	10541
안동	10542
기소	10543
어설	10544
대역	10545
멧	10546
으라	10547
제사	10548
들여	10549
남동생	10550
죄책감	10551
소비자	10552
##과이	10553
튜버	10554
추후	10555
네이션	10556
리사	10557
호러	10558
##ug	10559
포착	10560
최순	10561
Dream	10562
##베트	10563
헬멧	10564
풍선	10565
펌프	10566
##팽	10567
정반대	10568
트릴	10569
부러지	10570
갯	10571
다거나	10572
##바이트	10573
장벽	10574
##바야시	10575
아케이드	10576
공속	10577
감당	10578
덮치	10579
124	10580
은폐	10581
뚜렷	10582
##전차	10583
블럭	10584
##이치로	10585
억울	10586
1967	10587
##야스	10588
금강	10589
선로	10590
너스	10591
저서	10592
유진	10593
갱신	10594
고가	10595
원로	10596
반경	10597
127	10598
다시금	10599
아이디	10600
##글링	10601
마에	10602
USB	10603
흘러가	10604
킴	10605
그해	10606
아무튼	10607
오른손	10608
교역	10609
협조	10610
페어리	10611
뛰어들	10612
정점	10613
용이	10614
씻	10615
오다	10616
도약	10617
예의	10618
##룬	10619
##써	10620
##짱	10621
아사히	10622
부동산	10623
아쿠아	10624
신곡	10625
해운	10626
this	10627
##IR	10628
내기	10629
다비	10630
유카	10631
##나베	10632
##뒤	10633
페르시아	10634
펭	10635
1200	10636
퍽	10637
중국인	10638
시오	10639
##vel	10640
분홍	10641
트윈	10642
대차	10643
쉴드	10644
타치	10645
450	10646
잔혹	10647
시타	10648
고발	10649
맞히	10650
카운티	10651
부채	10652
연동	10653
왕족	10654
##이크	10655
기본기	10656
사나	10657
녹이	10658
피오	10659
##코트	10660
##철수	10661
욕설	10662
독립운동	10663
##질랜드	10664
컴백	10665
##지사	10666
ERA	10667
##ode	10668
민감	10669
뉴질랜드	10670
출동	10671
교도소	10672
초과	10673
크래프트	10674
누스	10675
절벽	10676
선원	10677
##uk	10678
##VER	10679
옴	10680
##셈	10681
카테	10682
##젤레스	10683
수신	10684
지역구	10685
##빡	10686
비단	10687
##쭉	10688
호드	10689
시크릿	10690
수감	10691
무도	10692
후쿠오카	10693
사방	10694
베스	10695
프레스	10696
어ᄊ	10697
침착	10698
사무라이	10699
서리	10700
Fl	10701
발각	10702
방침	10703
스토어	10704
밭	10705
감자	10706
덩어리	10707
Pl	10708
후유	10709
##렉터	10710
회관	10711
청춘	10712
우마	10713
대세	10714
팔라	10715
뺏기	10716
##말로	10717
툰	10718
물려받	10719
젼	10720
보강	10721
Ver	10722
스로	10723
이소	10724
대피	10725
##역사	10726
##나기	10727
제의	10728
CE	10729
##생활	10730
얹	10731
그러면	10732
쿠마	10733
구형	10734
급격히	10735
키미	10736
스케이	10737
게끔	10738
EC	10739
종전	10740
철도역	10741
진에어	10742
디스플레이	10743
EXP	10744
##텍	10745
연소	10746
카리스마	10747
재즈	10748
##공사	10749
style	10750
내외	10751
애완	10752
함장	10753
구로	10754
이윤	10755
측근	10756
얽히	10757
##민주당	10758
발전소	10759
히카	10760
방사능	10761
도르	10762
##헤이	10763
로렌	10764
꾀	10765
스쿼	10766
코스프레	10767
코노	10768
애인	10769
가마	10770
실존	10771
선포	10772
아울	10773
레나	10774
유재석	10775
##ier	10776
에도	10777
마야	10778
게르	10779
신한	10780
궁합	10781
가위	10782
퇴치	10783
반성	10784
판도	10785
아랫	10786
강대	10787
현자	10788
카쿠	10789
리바	10790
##다드	10791
격렬	10792
기법	10793
분자	10794
워리어	10795
아비	10796
Sch	10797
가오	10798
예방	10799
잔류	10800
##페이스	10801
나인	10802
김구	10803
Girl	10804
당국	10805
Season	10806
두드러지	10807
사물	10808
##뱃	10809
인문	10810
군요	10811
1962	10812
##ash	10813
징계	10814
IP	10815
오퍼	10816
러쉬	10817
미아	10818
박자	10819
문신	10820
##속기	10821
왕가	10822
ar	10823
자이언트	10824
근로	10825
La	10826
이놈	10827
DM	10828
시시	10829
모욕	10830
전담	10831
화기	10832
약혼	10833
강타	10834
NO	10835
반역	10836
162	10837
이카	10838
흡혈귀	10839
카피	10840
유동	10841
이단	10842
정조	10843
흑마	10844
tr	10845
사치	10846
중견	10847
118	10848
종로	10849
흥분	10850
왕후	10851
리라	10852
친애	10853
지루	10854
비오	10855
화석	10856
WC	10857
시종	10858
점심	10859
쿠바	10860
퀴즈	10861
불러오	10862
고립	10863
피자	10864
제주도	10865
벗기	10866
노아	10867
기동력	10868
분배	10869
##reat	10870
1966	10871
##IX	10872
쿠리	10873
아처	10874
유우키	10875
잠기	10876
브론	10877
돌려주	10878
이용자	10879
명나라	10880
로스트	10881
위쪽	10882
부가	10883
레이싱	10884
루리	10885
단백	10886
##ib	10887
황당	10888
타이어	10889
박진	10890
경성	10891
계곡	10892
벌써	10893
이행	10894
##꿈	10895
김치	10896
314	10897
##돌프	10898
자존심	10899
학술	10900
##렙	10901
##치아	10902
##뱀	10903
생김새	10904
제노	10905
##슐	10906
스나이퍼	10907
한하	10908
태생	10909
탈환	10910
##usic	10911
월간	10912
Max	10913
##사랑	10914
중소	10915
피지컬	10916
##탐정	10917
우두	10918
관문	10919
실적	10920
모나	10921
한양	10922
망설	10923
##딸	10924
750	10925
입시	10926
##방울	10927
1964	10928
##폴	10929
바시	10930
스모	10931
건지	10932
금요일	10933
대검	10934
노랗	10935
뚱	10936
고인	10937
##시고	10938
골치	10939
그간	10940
안무	10941
적시타	10942
불길	10943
##수리	10944
Vol	10945
TS	10946
뱅가드	10947
##리얼	10948
숙소	10949
유고	10950
DNA	10951
그쪽	10952
여태	10953
정전	10954
카네	10955
토트넘	10956
라미	10957
내셔널	10958
얼티	10959
급속	10960
스파이더맨	10961
능가	10962
Ed	10963
아오이	10964
천상	10965
##}}	10966
--	10967
궁전	10968
시범	10969
중재	10970
요격	10971
##ose	10972
ld	10973
할로윈	10974
통솔	10975
오케	10976
레아	10977
남동	10978
모종	10979
성사	10980
스피어	10981
대학생	10982
코파	10983
중도	10984
##서스	10985
나이프	10986
사슬	10987
탈취	10988
진술	10989
스타즈	10990
갈라지	10991
에밀리	10992
로키	10993
이야	10994
AV	10995
존슨	10996
부끄럽	10997
에메	10998
까마귀	10999
직위	11000
한꺼	11001
치이	11002
섬기	11003
한꺼번에	11004
소소	11005
입원	11006
##시대	11007
두려워하	11008
##닛	11009
괴인	11010
과시	11011
나이츠	11012
##보기	11013
황태	11014
##프라	11015
amp	11016
욕망	11017
계절	11018
불참	11019
청하	11020
Col	11021
거세	11022
혼합	11023
##킬	11024
##부키	11025
##te	11026
야당	11027
so	11028
생태	11029
기껏	11030
##미터	11031
학년도	11032
아리스	11033
항공사	11034
GM	11035
비자	11036
저글링	11037
점멸	11038
HE	11039
건너가	11040
##사르	11041
질환	11042
미정	11043
마기	11044
극심	11045
뷔	11046
다녀	11047
##ail	11048
오만	11049
##msys	11050
모빌	11051
페르소	11052
우지	11053
##ition	11054
ldmsys	11055
원판	11056
간판	11057
그란	11058
천국	11059
충청북도	11060
스탭	11061
일지	11062
스탈린	11063
히드라	11064
이별	11065
닷	11066
도대	11067
토라	11068
필사	11069
테르	11070
알렉산드	11071
얼리	11072
과금	11073
##구니	11074
욱	11075
rd	11076
Night	11077
각국	11078
잼	11079
욕심	11080
BC	11081
차장	11082
마르코	11083
상냥	11084
토우	11085
나들	11086
강인	11087
not	11088
조립	11089
레버	11090
시안	11091
회로	11092
##당초	11093
앨런	11094
미녀	11095
련	11096
고추	11097
헤라	11098
나들목	11099
리버스	11100
##워프	11101
##IL	11102
달려오	11103
이사장	11104
지크	11105
김주	11106
뻘	11107
수라	11108
아케	11109
단자	11110
스매	11111
승패	11112
지지율	11113
테리	11114
요코하마	11115
암컷	11116
인텔	11117
공국	11118
##당기	11119
##히토	11120
##ild	11121
##무지	11122
##러브	11123
하여금	11124
얌	11125
168	11126
##틈	11127
일일	11128
김광	11129
페르소나	11130
오토바이	11131
Let	11132
수소	11133
툭	11134
##티노	11135
리프트	11136
물약	11137
도미	11138
마쓰	11139
깨끗	11140
ᆯ래	11141
병행	11142
희생자	11143
디아블로	11144
고이	11145
오사	11146
키요	11147
학회	11148
하지	11149
피난	11150
단백질	11151
굶	11152
상부	11153
난민	11154
스크롤	11155
##ody	11156
돌려	11157
바텀	11158
로비	11159
만렙	11160
테니스	11161
갸	11162
등재	11163
목욕	11164
##깃	11165
사탕	11166
빙결	11167
Black	11168
들르	11169
어원	11170
펑크	11171
159	11172
일환	11173
어서	11174
코끼리	11175
밀리언	11176
신작	11177
보로	11178
무녀	11179
스윙	11180
이승만	11181
##세지	11182
미노	11183
얄	11184
도배	11185
퍼펙트	11186
BD	11187
칼라	11188
평택	11189
무신	11190
춤추	11191
말레이시아	11192
라인하르트	11193
##바리	11194
부처	11195
아마존	11196
일어	11197
인쇄	11198
내밀	11199
리자	11200
여주인	11201
해변	11202
##진호	11203
##클린	11204
해역	11205
오즈	11206
파고	11207
호리	11208
아인	11209
신생	11210
화신	11211
금발	11212
무지개	11213
부친	11214
환생	11215
##톨	11216
둥지	11217
덥	11218
콰	11219
##빗	11220
삿	11221
마도카	11222
가해	11223
##딴	11224
직행	11225
1948	11226
mar	11227
##ough	11228
응답	11229
해전	11230
발사기	11231
아메리칸	11232
국기	11233
진흥	11234
엉덩이	11235
맑	11236
삼키	11237
AF	11238
대니	11239
늪	11240
MM	11241
챔스	11242
절단	11243
1944	11244
미소녀	11245
세례	11246
아무렇	11247
도대체	11248
모의	11249
무능	11250
스트로	11251
1965	11252
성벽	11253
OG	11254
부제	11255
히사	11256
##33	11257
##모습	11258
명장	11259
두껍	11260
맛보	11261
쿠르	11262
유머	11263
중공	11264
일조	11265
로스앤	11266
로스앤젤레스	11267
퓨전	11268
스텔스	11269
섬멸	11270
노부나가	11271
충남	11272
석사	11273
방언	11274
프랑크	11275
회계	11276
간지	11277
불상	11278
스쿼드	11279
노릇	11280
아카네	11281
##멘터리	11282
주저	11283
RE	11284
섭취	11285
아슬	11286
울음	11287
와이번스	11288
수중	11289
식스	11290
수아	11291
약체	11292
필라	11293
4000	11294
눈앞	11295
Op	11296
##gr	11297
데몬	11298
일명	11299
대국	11300
조수	11301
안토니	11302
벨라	11303
좌파	11304
전임	11305
##타리	11306
##스크림	11307
빅토리아	11308
카일	11309
사임	11310
고래	11311
동상	11312
집필	11313
객관	11314
출석	11315
##aster	11316
접수	11317
ㅔ요	11318
빌보드	11319
공교	11320
외야수	11321
##app	11322
마을버스	11323
그리스도	11324
메디	11325
##orts	11326
평상시	11327
목포	11328
확립	11329
두루	11330
비평	11331
인피니티	11332
선회	11333
사이토	11334
대안	11335
##성군	11336
그리핀	11337
뾰	11338
대승	11339
연세대	11340
유메	11341
##uc	11342
보살	11343
뺘	11344
쿄코	11345
베이비	11346
사천	11347
교향	11348
에코	11349
##벼	11350
드워프	11351
애용	11352
혼혈	11353
1946	11354
걸어가	11355
##고속도로	11356
##은이	11357
십자군	11358
아수	11359
신관	11360
아니하	11361
워드	11362
공동체	11363
성지	11364
이계	11365
주공	11366
PK	11367
다큐멘터리	11368
주입	11369
##ᅩᆯ	11370
##시티	11371
어제	11372
루미	11373
장본	11374
해고	11375
꺼지	11376
알렉산더	11377
무자	11378
옐로	11379
서울시	11380
최상급	11381
보우	11382
컨디션	11383
츤	11384
그랑프리	11385
동북	11386
위시	11387
휴게	11388
스카웃	11389
김대중	11390
##CE	11391
이무	11392
주파	11393
제발	11394
스기	11395
##ject	11396
en	11397
편의점	11398
스타워즈	11399
껍질	11400
평판	11401
라비	11402
프랭크	11403
교대	11404
##OO	11405
EXT	11406
탄소	11407
침해	11408
..?	11409
카토	11410
블라디	11411
득표율	11412
비로	11413
가령	11414
##ari	11415
단련	11416
줄리	11417
폭로	11418
math	11419
낯	11420
믿음	11421
아유	11422
카게	11423
자력	11424
컴뱃	11425
전도	11426
##그라	11427
놔	11428
방안	11429
댐	11430
면제	11431
수컷	11432
사지	11433
퍼시	11434
##긋나	11435
민폐	11436
집사	11437
le	11438
휴대폰	11439
AL	11440
흑막	11441
진도	11442
테이프	11443
CR	11444
독백	11445
정답	11446
아쉬움	11447
크롬	11448
라우	11449
히로시마	11450
솔저	11451
정서	11452
숙청	11453
섬광	11454
아르바이트	11455
EZ	11456
두려움	11457
유즈	11458
대면	11459
소마	11460
막부	11461
려	11462
성대	11463
뻔하	11464
##프란	11465
리부	11466
타우	11467
##각형	11468
와타나베	11469
구호	11470
달콤	11471
원한	11472
라가	11473
밈	11474
큐어	11475
경제학	11476
항성	11477
원자력	11478
##iel	11479
감성	11480
우미	11481
떠돌	11482
팜	11483
단서	11484
강동	11485
지각	11486
냉장	11487
남학생	11488
공명	11489
##퍼니	11490
관광객	11491
151	11492
홈경기	11493
##미르	11494
둥글	11495
찬양	11496
하와	11497
사르	11498
보복	11499
격퇴	11500
138	11501
Gu	11502
신념	11503
스틱	11504
배리	11505
신조	11506
으려면	11507
SA	11508
던지라	11509
가해자	11510
장본인	11511
쑤	11512
티저	11513
광복	11514
남양	11515
개업	11516
320	11517
케리	11518
하도	11519
172	11520
GSL	11521
눈동자	11522
은메달	11523
적이	11524
##애나	11525
점하	11526
타카하시	11527
권하	11528
정우	11529
휴먼	11530
벡터	11531
수성	11532
##오피스	11533
상시	11534
남한	11535
가이아	11536
##TA	11537
김병	11538
천주교	11539
ATK	11540
살아오	11541
어기	11542
##ats	11543
순천	11544
##도전	11545
##ye	11546
지면	11547
의의	11548
강아지	11549
어벤져	11550
단역	11551
보직	11552
우기	11553
EU	11554
##eah	11555
불화	11556
동아시아	11557
개막전	11558
사와	11559
아드	11560
자루	11561
주한	11562
315	11563
시네마	11564
1961	11565
##총장	11566
##부인	11567
##바람	11568
컬렉션	11569
풍경	11570
GD	11571
서바이벌	11572
일각	11573
천지	11574
배후	11575
테레	11576
걸음	11577
##중간	11578
얼티밋	11579
투고	11580
##운수	11581
고난	11582
트이	11583
TOP	11584
Mag	11585
오공	11586
158	11587
코레	11588
##디스	11589
균열	11590
동사	11591
대교	11592
찔리	11593
내정	11594
그리하여	11595
라이드	11596
샹	11597
CL	11598
노비	11599
표기법	11600
상원	11601
도스	11602
재질	11603
탁월	11604
다녀오	11605
깃털	11606
흑역사	11607
카사	11608
손잡이	11609
가왕	11610
악행	11611
캡슐	11612
무한도전	11613
통보	11614
##이센	11615
마미	11616
스톡	11617
시련	11618
추모	11619
로맨스	11620
AB	11621
민병	11622
NT	11623
##쑤	11624
물리학	11625
##꿉	11626
여수	11627
ver	11628
리믹스	11629
수확	11630
로제	11631
흉내	11632
스파크	11633
동메달	11634
카이저	11635
내면	11636
일산	11637
스칼	11638
숭배	11639
루마니아	11640
UC	11641
##oh	11642
치고	11643
##eth	11644
이순신	11645
매그	11646
충고	11647
표식	11648
##ron	11649
동이	11650
박스오피스	11651
소꿉	11652
쿠사	11653
슬라이드	11654
제대	11655
##성이	11656
독보	11657
결과물	11658
병살	11659
금고	11660
##ings	11661
아이즈	11662
##룸	11663
그레이드	11664
주차장	11665
마저	11666
이호	11667
김일성	11668
패트	11669
청사	11670
유마	11671
구제	11672
##내리	11673
##메리카	11674
제인	11675
사범	11676
신상	11677
어판	11678
이세	11679
볶	11680
건립	11681
레이지	11682
176	11683
공로	11684
도요	11685
컴퍼니	11686
방정	11687
크라운	11688
다저스	11689
딥	11690
삽질	11691
will	11692
간파	11693
운반	11694
지미	11695
Is	11696
ME	11697
재수	11698
예고편	11699
##트론	11700
보가	11701
##짤	11702
##떡	11703
직무	11704
##느님	11705
병과	11706
계략	11707
저항력	11708
테란	11709
호응	11710
타리	11711
발톱	11712
##inal	11713
궁수	11714
군데	11715
심정	11716
##==	11717
126	11718
차림	11719
김윤	11720
신임	11721
1949	11722
오로치	11723
정의당	11724
마수	11725
안드레	11726
주의자	11727
Am	11728
과격	11729
대명	11730
완벽히	11731
하느님	11732
자작	11733
기온	11734
폴아웃	11735
승려	11736
자카	11737
상어	11738
친일	11739
우두머리	11740
이점	11741
10000	11742
겟	11743
몸매	11744
어그	11745
보루	11746
Don	11747
테오	11748
문법	11749
팍	11750
감금	11751
타스	11752
서원	11753
갈기	11754
##ult	11755
겨루	11756
크로우	11757
라이트닝	11758
무선	11759
바이킹	11760
응급	11761
코로나	11762
리리	11763
테크노	11764
154	11765
사망자	11766
like	11767
레시피	11768
LE	11769
패왕	11770
세르비아	11771
총사	11772
쫓기	11773
흉악	11774
WH	11775
방울	11776
스치	11777
맷집	11778
{{{-	11779
KB	11780
뒤쪽	11781
풀려나	11782
Time	11783
리볼	11784
132	11785
##총리	11786
##MAN	11787
클레이	11788
주황	11789
전법	11790
##핏	11791
총선거	11792
법안	11793
유해	11794
드루이드	11795
무비	11796
도사	11797
웨폰	11798
거꾸	11799
김성근	11800
표하	11801
짬	11802
습하	11803
레슬링	11804
센트럴	11805
아테나	11806
new	11807
##넛	11808
##덕션	11809
성폭	11810
##빨리	11811
성직자	11812
강서	11813
##13	11814
멸종	11815
응시	11816
##저래	11817
지배자	11818
##마치	11819
이즈미	11820
빗나가	11821
강습	11822
천체	11823
저승	11824
이래저래	11825
반기	11826
218	11827
완성도	11828
이용객	11829
테크닉	11830
이리저리	11831
르노	11832
Mi	11833
피드	11834
##겸	11835
장신구	11836
##GA	11837
니트	11838
코디	11839
로열	11840
떨구	11841
국민당	11842
난리	11843
##ov	11844
취지	11845
##oul	11846
슌	11847
퉁	11848
급식	11849
충격파	11850
트론	11851
##18	11852
상의	11853
라이징	11854
##낭	11855
##곰	11856
손목	11857
선봉	11858
리츠	11859
##조합	11860
엠블	11861
이영호	11862
탐구	11863
유신	11864
키노	11865
당나라	11866
짝사랑	11867
더미	11868
지터	11869
##ob	11870
제너	11871
핑계	11872
보트	11873
태조	11874
전염	11875
##나르	11876
리우스	11877
야망	11878
미남	11879
과언	11880
블랙홀	11881
유능	11882
후반전	11883
어드배	11884
고조	11885
##ould	11886
##ᆼ가	11887
하우	11888
이쿠	11889
##전사	11890
통틀어	11891
으리	11892
156	11893
##보우	11894
마가	11895
..!	11896
iOS	11897
무궁	11898
Ser	11899
마마	11900
##친구	11901
카제	11902
one	11903
164	11904
스크래	11905
##alk	11906
코프	11907
버거	11908
진하	11909
##처럼	11910
엮	11911
##tern	11912
##yn	11913
재벌	11914
숙련도	11915
139	11916
나란히	11917
배율	11918
##던지	11919
필두	11920
렀다	11921
샤를	11922
##활약	11923
놔두	11924
얼라이	11925
ᆫ가요	11926
유카리	11927
이나마	11928
##15	11929
능하	11930
몰려오	11931
모에	11932
긋	11933
시간대	11934
이인	11935
미세	11936
##up	11937
구청	11938
153	11939
조던	11940
매기	11941
네크로	11942
하츠네	11943
아호	11944
먼지	11945
벚	11946
교정	11947
저격수	11948
Gaming	11949
플리	11950
하나님	11951
##레이크	11952
##reak	11953
무슬리	11954
반장	11955
콜롬	11956
감기	11957
공격기	11958
거꾸로	11959
커플링	11960
무슬림	11961
양심	11962
합법	11963
초등학생	11964
나열	11965
김두	11966
이광	11967
##고사	11968
##der	11969
##able	11970
GK	11971
오키나	11972
하드웨어	11973
유라	11974
##제스	11975
접전	11976
ᆫ듯	11977
리터	11978
전두	11979
청장	11980
엉뚱	11981
하비	11982
성숙	11983
세미	11984
후면	11985
누이	11986
지성	11987
상공	11988
오바	11989
최하	11990
148	11991
디비전	11992
가히	11993
신주	11994
Car	11995
맞먹	11996
##ions	11997
허브	11998
##로그	11999
인천광역시	12000
##사고	12001
연달	12002
탄막	12003
범하	12004
실업	12005
셋째	12006
니콜라	12007
##엘라	12008
스케줄	12009
표창	12010
동등	12011
Your	12012
얼라이언스	12013
마티	12014
타키	12015
단의	12016
벌금	12017
주유	12018
##문화	12019
167	12020
##널드	12021
ᆫ단	12022
볼드	12023
고우	12024
장시	12025
김선	12026
냉장고	12027
스마일	12028
쟁이	12029
대등	12030
맞대	12031
203	12032
동지	12033
북서	12034
봉하	12035
##바스	12036
배열	12037
달인	12038
지표	12039
몰아넣	12040
애드	12041
쫓아내	12042
황혼	12043
프로덕션	12044
##쿠스	12045
어긋나	12046
애국	12047
##타니	12048
데미	12049
SSR	12050
창작물	12051
##백과	12052
##주의자	12053
##PA	12054
사료	12055
무색	12056
1958	12057
브라우	12058
가나	12059
1941	12060
음향	12061
174	12062
이니	12063
오역	12064
주술사	12065
야마모토	12066
승급	12067
##왜	12068
아수라	12069
영화배우	12070
##ull	12071
휴스턴	12072
도모	12073
##타르	12074
공모	12075
무죄	12076
갈구	12077
꾸리	12078
사야카	12079
##프란시스코	12080
샌프란시스코	12081
전례	12082
라틴어	12083
##재기	12084
##뼈	12085
종말	12086
여주인공	12087
se	12088
유타	12089
타당	12090
노하	12091
동년	12092
시끄럽	12093
##뱉	12094
Min	12095
설탕	12096
법학	12097
깨우	12098
버블	12099
번식	12100
##ᅰ어	12101
처녀	12102
앞세우	12103
무안	12104
RO	12105
##셉트	12106
시뮬레이션	12107
142	12108
자키	12109
##니코	12110
밀라	12111
통행	12112
지지자	12113
바이크	12114
##상가	12115
LTE	12116
광범	12117
레이븐	12118
##차리	12119
굳히	12120
영등	12121
##껑	12122
문헌	12123
사내	12124
헤드샷	12125
빈약	12126
인명	12127
염색	12128
스페인어	12129
쳐들어오	12130
카인	12131
주가	12132
순간이동	12133
##무네	12134
163	12135
혼동	12136
원화	12137
런처	12138
과감	12139
박탈	12140
파이프	12141
가라앉	12142
한층	12143
##기업	12144
배상	12145
수령	12146
차일드	12147
맹활약	12148
토비	12149
레인보우	12150
생각나	12151
득실	12152
##넨	12153
이오리	12154
프로이센	12155
##ube	12156
##ECT	12157
일련	12158
러너	12159
비즈	12160
마스코트	12161
꼴찌	12162
1954	12163
우편	12164
염두	12165
BGA	12166
레바	12167
리볼버	12168
##아티아	12169
제자리	12170
졸업식	12171
네스	12172
크로아티아	12173
강수	12174
월요일	12175
제리	12176
진로	12177
안보	12178
##ll	12179
전학	12180
##크리	12181
have	12182
플레임	12183
후쿠시마	12184
사가	12185
pr	12186
태권	12187
회견	12188
##보라	12189
맥락	12190
##뤼	12191
제지	12192
단식	12193
찰나	12194
설마	12195
황실	12196
out	12197
레슨	12198
절정	12199
음력	12200
밀레	12201
오리온	12202
수하	12203
##퉁	12204
기관포	12205
페미니즘	12206
대목	12207
연막	12208
능숙	12209
른	12210
발현	12211
대외	12212
득표수	12213
크리스토	12214
장례식	12215
상속	12216
약칭	12217
이만	12218
##스티스	12219
##ICE	12220
##립트	12221
##랄드	12222
내ᄈ	12223
스캔	12224
초상화	12225
환호	12226
카렌	12227
단총	12228
연고지	12229
사소	12230
안제	12231
NM	12232
제프	12233
복음	12234
토론토	12235
미트	12236
대군	12237
파우	12238
143	12239
밀어붙이	12240
137	12241
공고	12242
대법원	12243
호스	12244
죄수	12245
부호	12246
##물리	12247
앞면	12248
당원	12249
한강	12250
무너	12251
무너뜨리	12252
소우	12253
따내	12254
시흥	12255
너클	12256
릴리스	12257
방벽	12258
공짜	12259
쳐다보	12260
##베르트	12261
투사	12262
창당	12263
313	12264
현직	12265
노골	12266
격하	12267
혹평	12268
Sum	12269
무단	12270
솔직히	12271
망설이	12272
평창	12273
다지만	12274
내뱉	12275
한정판	12276
##귄	12277
소꿉친구	12278
사당	12279
박종	12280
펙	12281
양국	12282
빙의	12283
북동	12284
##바루	12285
차분	12286
왓	12287
HS	12288
인체	12289
외관	12290
ALL	12291
플라스틱	12292
오비	12293
경찰청	12294
꿇	12295
가미	12296
자포	12297
테일즈	12298
트러	12299
두뇌	12300
무식	12301
CN	12302
IV	12303
추출	12304
랜서	12305
설비	12306
이력	12307
##구나	12308
치마	12309
##소수	12310
베어	12311
1943	12312
십자가	12313
230	12314
이준	12315
전반기	12316
앵커	12317
반란군	12318
알아차리	12319
스트레이	12320
오딘	12321
바티	12322
아테네	12323
태자	12324
뮤지션	12325
##대사	12326
델타	12327
북구	12328
##박이	12329
순찰	12330
키드	12331
맹독	12332
남미	12333
난투	12334
오케스트라	12335
프로스트	12336
기술력	12337
푼	12338
##ᅨᆫ	12339
우산	12340
157	12341
관계없이	12342
해상도	12343
몰아내	12344
##모어	12345
강탈	12346
오쿠	12347
극악	12348
133	12349
숙주	12350
ᆯ까요	12351
##FL	12352
기이	12353
슬슬	12354
공자	12355
브레스	12356
거스르	12357
갈리아	12358
바비	12359
미시	12360
un	12361
출제	12362
146	12363
팬티	12364
129	12365
극우	12366
뚝	12367
잔해	12368
윈터	12369
확고	12370
구독자	12371
세키	12372
##더슨	12373
000000	12374
플레이버	12375
1942	12376
광범위	12377
별칭	12378
지극	12379
##곧	12380
청룡	12381
화약	12382
##STER	12383
비참	12384
173	12385
시에	12386
나카무라	12387
카오루	12388
BO	12389
##트랙	12390
워너	12391
##결승	12392
종사	12393
미쓰	12394
박명	12395
섹스	12396
발하	12397
달래	12398
힌트	12399
키즈	12400
경선	12401
##드리히	12402
채찍	12403
여장	12404
리뉴	12405
리셋	12406
##천사	12407
기쁨	12408
클리셰	12409
원년	12410
진구	12411
폐허	12412
margin	12413
실바	12414
##맷	12415
수영복	12416
know	12417
서치	12418
카테고리	12419
오디오	12420
라시	12421
연안	12422
멘붕	12423
전수	12424
해태	12425
##무게	12426
호출	12427
텔레포트	12428
몸무게	12429
후대	12430
칠레	12431
폴리스	12432
팀장	12433
##MAX	12434
끓이	12435
set	12436
##무이	12437
방화	12438
##DX	12439
나락	12440
생물학	12441
청원	12442
##날두	12443
OF	12444
호날두	12445
통증	12446
기행	12447
공습	12448
공천	12449
136	12450
Play	12451
체스	12452
생애	12453
BT	12454
사나이	12455
팩션	12456
미하	12457
##던지	12458
파랑	12459
시초	12460
##ica	12461
정교회	12462
CB	12463
##믹	12464
##che	12465
##소총	12466
Of	12467
서장	12468
애쉬	12469
태종	12470
##ock	12471
히카루	12472
번갈	12473
포니	12474
바그	12475
##생기	12476
얼터	12477
As	12478
la	12479
##풀이	12480
개판	12481
미모	12482
우크라	12483
크리스티	12484
망상	12485
##YP	12486
증기	12487
제조사	12488
메세지	12489
빈번	12490
저조	12491
Red	12492
아노	12493
##회장	12494
럭키	12495
Type	12496
BM	12497
하의	12498
##제국	12499
양대	12500
##14	12501
불문	12502
##산역	12503
오른팔	12504
애쓰	12505
브루스	12506
일러스트레이터	12507
잠그	12508
조력	12509
심화	12510
므	12511
복도	12512
클라우드	12513
149	12514
다만	12515
버터	12516
대패	12517
정준	12518
바인	12519
혼다	12520
라이센스	12521
우파	12522
박영	12523
친정	12524
산탄총	12525
##에몽	12526
##전설	12527
치바	12528
교육청	12529
유선	12530
바나나	12531
때려잡	12532
트랜스포	12533
넓히	12534
샤오	12535
BA	12536
포맷	12537
오키나와	12538
##ict	12539
미끼	12540
범주	12541
##17	12542
##스틴	12543
라파	12544
스ᄂ	12545
심야	12546
134	12547
율리	12548
1900	12549
슬라임	12550
마니	12551
1956	12552
미숙	12553
인터페이스	12554
맞물리	12555
경지	12556
해독	12557
##지않	12558
가의	12559
스나	12560
로라	12561
TP	12562
입국	12563
냉동	12564
지주	12565
가혹	12566
진리	12567
목재	12568
DI	12569
##ᆺ대	12570
##ster	12571
레슬러	12572
신세계	12573
책상	12574
공손	12575
퍼센트	12576
##ange	12577
나사	12578
##ater	12579
대사관	12580
EV	12581
개미	12582
부흥	12583
운항	12584
가로막	12585
거느리	12586
밧	12587
깡패	12588
뫼	12589
진짜로	12590
##티넘	12591
김천	12592
플래티넘	12593
슈가	12594
비꼬	12595
왕관	12596
High	12597
태미	12598
슬램	12599
사일	12600
##ons	12601
캇	12602
##권자	12603
##모니	12604
##뿔	12605
무수	12606
##메라	12607
로그인	12608
##ᅣᆯ	12609
자부	12610
열세	12611
파손	12612
심히	12613
파괴력	12614
트레이닝	12615
장갑차	12616
##살리	12617
pro	12618
중후	12619
제이슨	12620
앞뒤	12621
##레슬링	12622
오세	12623
땀	12624
분쇄	12625
달라	12626
교양	12627
스매시	12628
불쾌	12629
초래	12630
개개	12631
자켓	12632
무명	12633
feat	12634
진형	12635
요우	12636
입법	12637
TE	12638
찰리	12639
원망	12640
프로그래밍	12641
NEW	12642
미들	12643
수시로	12644
섹시	12645
외면	12646
프로레슬링	12647
페이크	12648
재림	12649
슬러그	12650
축구단	12651
##나리	12652
##왜란	12653
악곡	12654
임진왜란	12655
##ple	12656
보디	12657
증인	12658
중급	12659
열기	12660
랜스	12661
트리스	12662
싱어	12663
인트	12664
경질	12665
칙	12666
방정식	12667
퇴역	12668
쇼트	12669
사천왕	12670
전두환	12671
##넉	12672
지난	12673
스바루	12674
##콕	12675
시집	12676
주고	12677
모어	12678
##교통	12679
%.	12680
뒷면	12681
콕	12682
싣	12683
연말	12684
##니스트	12685
147	12686
스팅	12687
공과	12688
골목	12689
##툴	12690
비로소	12691
Light	12692
##차례	12693
아래쪽	12694
패스트	12695
닫히	12696
미식	12697
박해	12698
호프	12699
자회사	12700
퓨처	12701
상대식	12702
심상	12703
클러	12704
AE	12705
안철수	12706
생선	12707
앰	12708
꽁	12709
##주군	12710
##무늬	12711
폐선	12712
##이스	12713
280	12714
##탈리	12715
세일러	12716
배우자	12717
실로	12718
##세서리	12719
최정	12720
엄폐	12721
2500	12722
소령	12723
제우스	12724
헐크	12725
##바다	12726
하지메	12727
저스티스	12728
드리블	12729
드라	12730
오프라인	12731
MO	12732
수용소	12733
선인	12734
##티지	12735
GHz	12736
##카미	12737
철갑탄	12738
세츠	12739
옌	12740
##텍스	12741
착지	12742
직통	12743
##지오	12744
메구미	12745
Gen	12746
아랑	12747
웨일	12748
관절	12749
222	12750
차관	12751
마켓	12752
토막	12753
##to	12754
CO	12755
의아	12756
##에트	12757
격리	12758
테일러	12759
히나타	12760
##구역	12761
편견	12762
##토랑	12763
##니즘	12764
##의회	12765
실천	12766
레스토랑	12767
가브리	12768
넥스	12769
굴러	12770
따라잡	12771
~"	12772
보잉	12773
강세	12774
수상자	12775
1939	12776
음색	12777
불리우	12778
##더기	12779
배속	12780
레프	12781
김연	12782
##CC	12783
개그맨	12784
was	12785
라임	12786
What	12787
제단	12788
소행	12789
로브	12790
메테	12791
면접	12792
꼼수	12793
템포	12794
감행	12795
레규	12796
프로세서	12797
배신자	12798
푹	12799
용의자	12800
##산동	12801
복용	12802
거르	12803
##고래	12804
Kor	12805
166	12806
라든가	12807
미호	12808
로지	12809
증권	12810
하시	12811
고음	12812
원종	12813
연기력	12814
1959	12815
##컨드	12816
물어보	12817
지요	12818
반론	12819
도쿠가와	12820
지문	12821
##ics	12822
1936	12823
타고	12824
야전	12825
프랜차	12826
명탐정	12827
세컨드	12828
동조	12829
섬유	12830
소설가	12831
롤링	12832
일삼	12833
냉기	12834
두목	12835
##사관	12836
신칸	12837
준공	12838
술집	12839
하후	12840
탈당	12841
우물	12842
재임	12843
##ACK	12844
화소	12845
Heart	12846
##투아	12847
산화	12848
러닝	12849
미도리	12850
공영	12851
Tw	12852
종착	12853
펭귄	12854
조교	12855
소노	12856
스콧	12857
프랜차이즈	12858
##les	12859
플로리	12860
케리건	12861
미수	12862
내역	12863
역학	12864
LOVE	12865
필터	12866
웨인	12867
oh	12868
1955	12869
GPU	12870
삼촌	12871
미스터리	12872
##ex	12873
##사와	12874
기피	12875
뱃	12876
병종	12877
##BM	12878
이아	12879
트랜스포머	12880
##데르	12881
모함	12882
##어붙	12883
어벤져스	12884
퍼붓	12885
랙	12886
아이스크림	12887
체격	12888
하카	12889
낡	12890
투신	12891
NHK	12892
AG	12893
##쫓	12894
투성이	12895
에그	12896
반환	12897
아이폰	12898
찌질	12899
전광	12900
성기	12901
위키백과	12902
어린아이	12903
Mr	12904
파문	12905
##니스탄	12906
신칸센	12907
책략	12908
동문	12909
루키	12910
콘셉트	12911
토가	12912
채취	12913
사모	12914
기술자	12915
Blo	12916
동호	12917
재활	12918
둘러싸이	12919
PL	12920
하이브리	12921
경보	12922
호무	12923
속편	12924
영등포	12925
참으로	12926
이방	12927
시가	12928
그제	12929
야마다	12930
물가	12931
하이브리드	12932
##lass	12933
전열	12934
더구나	12935
가르침	12936
##플렉스	12937
솔라	12938
##레드	12939
장학	12940
##16	12941
인구수	12942
특훈	12943
##테스	12944
부도	12945
응하	12946
냉각	12947
봉기	12948
레귤러	12949
자질	12950
반군	12951
FPS	12952
주되	12953
틀어	12954
MK	12955
플루	12956
##AND	12957
깃들	12958
다면	12959
부당	12960
##무실	12961
##두리	12962
준결승	12963
장편	12964
방호	12965
TO	12966
스트리밍	12967
최대치	12968
쫓아가	12969
방송인	12970
좌표	12971
서민	12972
마의	12973
##아슬	12974
아슬아슬	12975
말년	12976
Par	12977
보행	12978
정형	12979
##전트	12980
소사	12981
져	12982
##며	12983
메우	12984
##nder	12985
##플러스	12986
##규모	12987
패드	12988
인사이드	12989
스크립트	12990
모던	12991
로테이션	12992
1952	12993
쐐	12994
상행	12995
라바	12996
time	12997
포식	12998
뢰	12999
뇌물	13000
적립	13001
수량	13002
가와	13003
소매	13004
악하	13005
전반전	13006
공존	13007
범행	13008
ll	13009
330	13010
되살리	13011
수도원	13012
내뿜	13013
##교육	13014
##튠	13015
##더링	13016
하반기	13017
엣지	13018
##좀	13019
캐슬	13020
270	13021
사슴	13022
핸	13023
캔디	13024
카즈야	13025
##ors	13026
Fe	13027
##볼루션	13028
교통사고	13029
륙	13030
패닉	13031
얼어붙	13032
노래방	13033
도청	13034
##ME	13035
도호	13036
더하	13037
##란트	13038
접어들	13039
표본	13040
단과	13041
죠죠	13042
신수	13043
쥰	13044
김도	13045
LED	13046
카니	13047
정계	13048
페니	13049
불가리아	13050
경과	13051
오타쿠	13052
속력	13053
유대인	13054
서해	13055
몹시	13056
스텔라	13057
담임	13058
직속	13059
중년	13060
어미	13061
뱉	13062
끝장	13063
스윕	13064
카우	13065
태극	13066
여배우	13067
순정	13068
뚜껑	13069
매지	13070
입양	13071
에메랄드	13072
발라드	13073
멋있	13074
탈리	13075
교섭	13076
테러리스트	13077
구마	13078
함성	13079
파키스탄	13080
출고	13081
1947	13082
GTA	13083
파격	13084
동로	13085
원고	13086
##단지	13087
저거	13088
필립	13089
춘천	13090
#!	13091
솜씨	13092
##대기	13093
225	13094
평안	13095
모양새	13096
Good	13097
우체	13098
얕	13099
두근	13100
전속	13101
르네	13102
거품	13103
심문	13104
박상	13105
맴	13106
방공	13107
직격	13108
소시	13109
상쇄	13110
스퀘어	13111
짤리	13112
영동	13113
우상	13114
곡선	13115
재빨리	13116
저희	13117
무고	13118
발간	13119
현존	13120
세스	13121
Per	13122
##뿌	13123
유지비	13124
적색	13125
현황	13126
이에	13127
서두르	13128
ᆯ라	13129
따돌리	13130
다이노스	13131
프리드리히	13132
사투리	13133
핸드폰	13134
쓰러트리	13135
멜론	13136
##수수	13137
바닷	13138
영남	13139
로저	13140
자각	13141
##려보	13142
순교	13143
광대	13144
##딕	13145
쥬얼	13146
배리어	13147
호구	13148
단말	13149
자칫	13150
산악	13151
하행	13152
##글라스	13153
오락실	13154
##무기	13155
시가지	13156
스파이크	13157
프랑스군	13158
카를로스	13159
마초	13160
베일	13161
월등	13162
신흥	13163
그랜	13164
갈라	13165
벚꽃	13166
어워드	13167
##ᆺ집	13168
앤디	13169
SL	13170
##파리	13171
am	13172
##HT	13173
라프	13174
사탄	13175
텀	13176
넉넉	13177
성서	13178
털어놓	13179
석상	13180
발렌타인	13181
쎄	13182
신병	13183
적재	13184
레즈	13185
260	13186
스내	13187
급히	13188
마신	13189
##eep	13190
보리	13191
우천	13192
1800	13193
격전	13194
래스터	13195
쏠	13196
유나	13197
메이트	13198
바닐라	13199
요미우리	13200
유니콘	13201
미유키	13202
##윽	13203
MSL	13204
##뚫	13205
타이완	13206
더욱이	13207
하리	13208
선우	13209
구절	13210
부관	13211
1919	13212
리바운드	13213
홀딩	13214
본의	13215
줌	13216
호투	13217
실력자	13218
브이	13219
휩싸	13220
IIDX	13221
몰아붙이	13222
고산	13223
하라	13224
새우	13225
부사관	13226
공약	13227
추궁	13228
중학생	13229
호르	13230
불신	13231
아홉	13232
##ott	13233
받치	13234
##ᆯ리언	13235
원내	13236
즉각	13237
프로모	13238
심연	13239
질풍	13240
비타	13241
간호사	13242
야만	13243
기함	13244
상용	13245
차용	13246
핸들	13247
미티	13248
Kn	13249
쳐내	13250
ab	13251
정정	13252
상장	13253
신정	13254
일례	13255
유니온	13256
0900	13257
퐁	13258
남작	13259
군림	13260
소실	13261
징크스	13262
Li	13263
로스터	13264
ㅓㅆ었	13265
눈빛	13266
이례	13267
시부	13268
꿰뚫	13269
증발	13270
호박	13271
카이사르	13272
부류	13273
텅	13274
냅	13275
선형	13276
페이트	13277
유방	13278
장원	13279
운석	13280
EBS	13281
단정	13282
##메다	13283
적성	13284
고분	13285
다중	13286
wid	13287
헬리코	13288
유정	13289
포워드	13290
프로토타입	13291
Wii	13292
클라이	13293
##문트	13294
에바	13295
ᆯ려고	13296
츤데레	13297
##수아	13298
타고나	13299
도시락	13300
##메스	13301
최우수	13302
프롤로그	13303
소리치	13304
This	13305
근력	13306
안성	13307
호그	13308
ㅏ야	13309
드레드	13310
머스	13311
훈훈	13312
미로	13313
여관	13314
설화	13315
성비	13316
ᆯ지라도	13317
하와이	13318
악령	13319
조준경	13320
##산물	13321
축적	13322
픽셀	13323
##IV	13324
길거리	13325
헬리콥터	13326
구타	13327
##자동	13328
유무	13329
양보	13330
지름	13331
유승	13332
회귀	13333
더라면	13334
Baby	13335
##25	13336
##IK	13337
소규모	13338
본가	13339
카디	13340
페인	13341
라던가	13342
후루	13343
망원	13344
남서	13345
##anna	13346
허위	13347
격투기	13348
기관차	13349
##두사	13350
##파크	13351
루루	13352
자본주의	13353
프린스	13354
깽	13355
교훈	13356
트러블	13357
실정	13358
진수	13359
제보	13360
페르난	13361
전산	13362
농사	13363
켈리	13364
정재	13365
습관	13366
HARD	13367
Sm	13368
바오	13369
불평	13370
존대	13371
일레븐	13372
럴	13373
ONE	13374
스토커	13375
탄탄	13376
엘리스	13377
동요	13378
떄	13379
충북	13380
서정	13381
유코	13382
히데요시	13383
루터	13384
킹덤	13385
1953	13386
대중교통	13387
스콜	13388
에필로그	13389
레이트	13390
서태	13391
자문	13392
게임즈	13393
밀집	13394
대진	13395
중성	13396
샤워	13397
라구	13398
##포드	13399
##델피아	13400
필라델피아	13401
GN	13402
민정	13403
##넘기	13404
1938	13405
리키	13406
심리학	13407
##other	13408
총괄	13409
관념	13410
원작자	13411
Rock	13412
송출	13413
격침	13414
##행위	13415
첫날	13416
169	13417
프렌즈	13418
us	13419
회화	13420
단속	13421
줄어드	13422
##19	13423
박용	13424
청산	13425
석방	13426
##바키아	13427
빌라	13428
##세포	13429
미팅	13430
책정	13431
독서	13432
뽐	13433
리부트	13434
550	13435
야외	13436
브레인	13437
우가	13438
만료	13439
구두	13440
만루	13441
자격증	13442
##똑	13443
##로니	13444
##앙스	13445
총회	13446
장풍	13447
width	13448
선대	13449
고토	13450
말미	13451
양측	13452
파벌	13453
수수료	13454
##팍	13455
수평	13456
##icro	13457
Live	13458
밀어주	13459
##케인	13460
고든	13461
수복	13462
요시다	13463
일품	13464
리조	13465
김원	13466
생산량	13467
병장	13468
노트북	13469
Ac	13470
특이점	13471
온몸	13472
술탄	13473
뉘앙스	13474
보증	13475
##ins	13476
죄송	13477
내수	13478
황태자	13479
여권	13480
엇	13481
히카리	13482
멀리서	13483
유유	13484
비토	13485
리우	13486
할리우드	13487
##oss	13488
##ᆷ마	13489
미니언	13490
##ru	13491
DB	13492
크래	13493
희대	13494
결사	13495
연금술사	13496
킬로	13497
동래	13498
##잎	13499
그리드	13500
대마	13501
좁히	13502
미라이	13503
결함	13504
페이커	13505
여당	13506
니카	13507
가창	13508
##하이	13509
왕좌	13510
독수리	13511
장동	13512
펠리	13513
완구	13514
의석	13515
교내	13516
혜성	13517
##받침	13518
하부	13519
성수	13520
헥	13521
유배	13522
협약	13523
##노스케	13524
요하	13525
윌슨	13526
쇠퇴	13527
cc	13528
살피	13529
##그루	13530
교시	13531
은혜	13532
후안	13533
홈즈	13534
OK	13535
연의	13536
호세	13537
캐스트	13538
##gain	13539
##ction	13540
Blue	13541
##턱	13542
브릿	13543
정체불명	13544
경쟁자	13545
잊어버리	13546
Dark	13547
##EL	13548
버릇	13549
누명	13550
재위	13551
1957	13552
배송	13553
도라에몽	13554
사안	13555
제작비	13556
고성	13557
체형	13558
달ᄀ	13559
KTX	13560
원활	13561
가축	13562
갈아타	13563
초교	13564
우루과이	13565
##플리케이션	13566
아르카	13567
오리진	13568
텍스	13569
무사시	13570
저술	13571
메모	13572
서대	13573
##0000	13574
짚	13575
""	13576
전세	13577
자크	13578
켄지	13579
방과	13580
글리	13581
게시물	13582
토마토	13583
편안	13584
셰프	13585
진행자	13586
천마	13587
강팀	13588
주거	13589
마테	13590
마차	13591
로컬	13592
Champ	13593
자발	13594
말소	13595
환수	13596
더비	13597
##툭	13598
말아먹	13599
소비에트	13600
예배	13601
##토르	13602
속박	13603
수강	13604
특허	13605
포대	13606
원흉	13607
격기	13608
경순	13609
##na	13610
발차기	13611
분기점	13612
RC	13613
편찬	13614
빠뜨리	13615
Im	13616
주파수	13617
실루	13618
유비트	13619
분장	13620
Sun	13621
##ood	13622
첨단	13623
##agon	13624
쫓아오	13625
오시	13626
브론즈	13627
##UT	13628
유로파	13629
진군	13630
진정하	13631
##자재	13632
트로이	13633
게릴라	13634
타다	13635
넥서스	13636
바이올린	13637
++	13638
##어쓰	13639
친목	13640
OCG	13641
모친	13642
돌아보	13643
닉스	13644
Can	13645
직결	13646
일일이	13647
장제스	13648
스케이팅	13649
포럼	13650
리액	13651
아까	13652
랩터	13653
Bat	13654
해적단	13655
선곡	13656
깨알	13657
상가	13658
##스티니	13659
수녀	13660
라트	13661
MHz	13662
back	13663
타카시	13664
환사	13665
슬퍼	13666
자손	13667
니나	13668
요리사	13669
##ky	13670
북극	13671
연루	13672
코즈	13673
##버드	13674
##페르	13675
DR	13676
유영	13677
205	13678
##토리얼	13679
쓸데없이	13680
##훼	13681
탯이	13682
프랭	13683
재무	13684
센티	13685
클립	13686
##ᆯ리티	13687
매달	13688
찢어지	13689
경감	13690
미성년	13691
통수	13692
용감	13693
키트	13694
기획사	13695
정동	13696
본성	13697
튜토리얼	13698
커트	13699
이창	13700
##놀이	13701
주고받	13702
##통수	13703
달라붙	13704
na	13705
박재	13706
미즈키	13707
열람	13708
열악	13709
무제한	13710
기성	13711
피에	13712
##코스	13713
수식	13714
불어	13715
디렉터	13716
후지와라	13717
데스티니	13718
##꼴	13719
Summer	13720
대출	13721
금색	13722
RP	13723
단선	13724
권능	13725
모범	13726
니코니코	13727
##일으키	13728
요시노	13729
##ty	13730
불러일으키	13731
플레어	13732
김명	13733
##irst	13734
셰이	13735
분홍색	13736
야마구치	13737
##사벽	13738
넘사벽	13739
배기	13740
오클	13741
매수	13742
명곡	13743
##DS	13744
민영	13745
야심	13746
농촌	13747
당주	13748
살상	13749
연하	13750
브레이브	13751
빅토르	13752
##기지	13753
자판	13754
산책	13755
저것	13756
도검	13757
##ady	13758
목동	13759
양키스	13760
##무소	13761
##land	13762
Korea	13763
밀치	13764
흠좀	13765
흠좀무	13766
대대로	13767
Music	13768
탄도	13769
원천	13770
헌신	13771
##소스	13772
제스	13773
피치	13774
중추	13775
항아리	13776
창세	13777
동족	13778
하워드	13779
##박히	13780
비시	13781
스파르타	13782
##듣	13783
그래프	13784
서초	13785
아울러	13786
오디	13787
남발	13788
자처	13789
레이첼	13790
레이너	13791
##저드	13792
휴게소	13793
함재기	13794
발광	13795
소극	13796
BEMAN	13797
타나카	13798
세레	13799
루이지	13800
##균관	13801
병합	13802
급기	13803
줄줄	13804
1914	13805
행렬	13806
어느새	13807
라드	13808
아제	13809
개칭	13810
토이	13811
노동당	13812
코지	13813
계란	13814
프리즘	13815
도마뱀	13816
무진	13817
귀하	13818
안산	13819
합하	13820
카타르	13821
기괴	13822
슈터	13823
필연	13824
빼내	13825
베이스볼	13826
험하	13827
강행	13828
반대편	13829
잠재력	13830
셸	13831
합당	13832
임원	13833
##누르	13834
BEMANI	13835
장안	13836
파산	13837
실무	13838
##현우	13839
악의	13840
만행	13841
화내	13842
엿보	13843
##OID	13844
감전	13845
토로	13846
루팡	13847
나레이션	13848
Fire	13849
##석민	13850
무상	13851
다이스케	13852
설상가	13853
리턴	13854
윌리엄스	13855
프로모션	13856
설상가상	13857
제휴	13858
##스트림	13859
피에르	13860
블래	13861
##현진	13862
금호	13863
##마당	13864
인어	13865
성모	13866
재난	13867
OB	13868
now	13869
쪼개	13870
학점	13871
쩔	13872
교관	13873
솔리	13874
김형	13875
댄서	13876
##숍	13877
성균관	13878
밀란	13879
유난	13880
650	13881
야기	13882
하원	13883
살인마	13884
##셸	13885
음악가	13886
##커녕	13887
힐링	13888
정벌	13889
펜듈	13890
펜듈럼	13891
창업	13892
조직원	13893
##킨스	13894
211	13895
주심	13896
실습	13897
손톱	13898
##곡동	13899
목적지	13900
마운트	13901
화합	13902
대각	13903
문고	13904
북방	13905
입체	13906
이질	13907
위탁	13908
복면	13909
아타	13910
고자	13911
총격	13912
후궁	13913
##프스	13914
슬퍼하	13915
악어	13916
시코	13917
##니시	13918
차선	13919
포토	13920
##ium	13921
지온	13922
광속	13923
청동	13924
호기심	13925
여정	13926
평원	13927
달걀	13928
휩싸이	13929
보구	13930
미스트	13931
정립	13932
폭동	13933
늦추	13934
쐐기	13935
세션	13936
농락	13937
##테이너	13938
후예	13939
귀중	13940
듀크	13941
치사	13942
##쉐	13943
GG	13944
점사	13945
Life	13946
CA	13947
서독	13948
뒤통수	13949
미끄	13950
진나라	13951
##혁명	13952
계열사	13953
가성	13954
육지	13955
사다	13956
3164	13957
##즈카	13958
##ush	13959
냉전	13960
해수	13961
STR	13962
고령	13963
재판소	13964
로코	13965
##메어	13966
양호	13967
빈틈	13968
##기사	13969
한발	13970
소동	13971
반항	13972
실명	13973
문어	13974
성도	13975
박찬	13976
퓨리	13977
Ma	13978
분화	13979
피카츄	13980
##ount	13981
##ᆯ럿	13982
스냅	13983
마요	13984
어설프	13985
가급	13986
모닝	13987
스캔들	13988
까닭	13989
But	13990
숙이	13991
세탁	13992
리엘	13993
염려	13994
별점	13995
1951	13996
동탁	13997
호노	13998
Just	13999
똑똑	14000
어퍼	14001
##크리트	14002
로저스	14003
증가량	14004
풍속	14005
204	14006
##멋	14007
뭔	14008
자수	14009
총재	14010
숀	14011
한탄	14012
돌이	14013
진성	14014
투니	14015
월급	14016
내륙	14017
동체	14018
준하	14019
대상자	14020
##로프	14021
쓸어버리	14022
네이트	14023
진료	14024
스킵	14025
아토	14026
선제골	14027
연회	14028
##따르	14029
불로	14030
##ᅥᆫ지	14031
DX	14032
##CH	14033
코리	14034
나이트메어	14035
고속도	14036
지극히	14037
창시	14038
##궤	14039
네코	14040
대공포	14041
사로잡히	14042
시몬	14043
플로리다	14044
선방	14045
Ste	14046
##때로	14047
끌어내	14048
이복	14049
우아	14050
day	14051
캐리어	14052
레기	14053
##년기	14054
향기	14055
##르기	14056
한숨	14057
Sy	14058
##ger	14059
프로리그	14060
사면	14061
박경	14062
##퍼런스	14063
FFF	14064
하타	14065
##코프	14066
pt	14067
남극	14068
감히	14069
개개인	14070
##덮	14071
야드	14072
Dance	14073
##주리	14074
에스파	14075
사찰	14076
강연	14077
마운드	14078
드릴	14079
박명수	14080
스완	14081
일본식	14082
공익	14083
개연	14084
해임	14085
행방불명	14086
끼어들	14087
츠바사	14088
파장	14089
출근	14090
##저것	14091
이것저것	14092
할당	14093
현상금	14094
FB	14095
상표	14096
한도	14097
발칸	14098
Gold	14099
여친	14100
홍성	14101
석탄	14102
나폴리	14103
CON	14104
##엉	14105
훅	14106
지상파	14107
실루엣	14108
국산	14109
노블	14110
호로	14111
Grand	14112
주황색	14113
적료	14114
네놈	14115
이노우	14116
스퍼	14117
##블릿	14118
피츠	14119
테루	14120
##아라	14121
지휘자	14122
##그룹	14123
Pre	14124
오의	14125
회고	14126
페루	14127
저상	14128
Ev	14129
민법	14130
##티콘	14131
기복	14132
음주	14133
1600	14134
콘티	14135
광전사	14136
VOC	14137
구단주	14138
효소	14139
##ne	14140
암울	14141
##ally	14142
HK	14143
아프가	14144
채집	14145
##ution	14146
서지	14147
이속	14148
망가	14149
괄	14150
시간표	14151
LCK	14152
따라다니	14153
예언자	14154
##미스	14155
성체	14156
슬로우	14157
대주	14158
아르메	14159
기타리스트	14160
##준표	14161
괴상	14162
차후	14163
괴력	14164
아줌마	14165
##눅	14166
난감	14167
##pr	14168
지중	14169
화자	14170
영진	14171
번트	14172
일식	14173
대표작	14174
피고	14175
관동	14176
스네이크	14177
가브리엘	14178
##징어	14179
신대	14180
매너	14181
##빼	14182
전교	14183
접점	14184
구급	14185
파수	14186
파업	14187
열등	14188
수락	14189
반짝이	14190
get	14191
통신사	14192
##도스	14193
##힐	14194
세일	14195
##보그	14196
카이토	14197
부여받	14198
사우루스	14199
화나	14200
##마침	14201
논하	14202
##클럽	14203
샘플	14204
아델	14205
외롭	14206
다짐	14207
##미즈	14208
내걸	14209
TW	14210
Over	14211
대본	14212
##레스트	14213
##얼거리	14214
케이지	14215
목요일	14216
코다	14217
군복	14218
이변	14219
콘크리트	14220
꽂히	14221
부평	14222
교직	14223
투하	14224
셉	14225
램프	14226
1937	14227
카르마	14228
나고	14229
##사이드	14230
매스	14231
리마	14232
##ator	14233
ARM	14234
추기	14235
포효	14236
호쿠	14237
경찰관	14238
정확도	14239
##펄	14240
아틀레	14241
정세	14242
정자	14243
신축	14244
때마침	14245
딸기	14246
##라노	14247
beat	14248
##장난	14249
잖	14250
해치우	14251
출루율	14252
미사키	14253
출연진	14254
소피아	14255
고질	14256
전리	14257
박치기	14258
합창	14259
러셀	14260
일어서	14261
한스	14262
젝	14263
아이유	14264
쫄	14265
매출액	14266
무궁화	14267
UF	14268
##체스	14269
변질	14270
ᆫ들	14271
외래	14272
금화	14273
차종	14274
일진	14275
샐러	14276
##베르토	14277
리에	14278
선구	14279
뷰티	14280
홍진호	14281
DJMAX	14282
모리스	14283
서인	14284
행정부	14285
##봇	14286
예지	14287
회오리	14288
##air	14289
각기	14290
자진	14291
연발	14292
클레어	14293
Sec	14294
코바야시	14295
비장	14296
어리석	14297
남아프리카	14298
퇴출	14299
등교	14300
tvN	14301
##얀	14302
픽업	14303
대부	14304
챌린저	14305
처절	14306
시치	14307
크루즈	14308
대쉬	14309
##르드	14310
일절	14311
최영	14312
##네이터	14313
개인전	14314
베네치아	14315
코카	14316
백신	14317
세세	14318
파인	14319
##토시	14320
출중	14321
여진	14322
아카리	14323
##엎	14324
교향곡	14325
아프가니스탄	14326
##나드	14327
BBC	14328
부과	14329
동창	14330
Out	14331
지침	14332
조영	14333
커비	14334
영리	14335
사극	14336
접근성	14337
느니	14338
고릴라	14339
한성	14340
마누	14341
태수	14342
테이크	14343
우습	14344
신원	14345
##히트	14346
만세	14347
쾨	14348
뺨	14349
##inc	14350
광부	14351
점거	14352
간선	14353
##스톤	14354
##로이드	14355
상류	14356
헤매	14357
회심	14358
간략	14359
그려	14360
경매	14361
뽐내	14362
수험	14363
경희	14364
코요	14365
딱딱	14366
검은색	14367
이은	14368
소서	14369
##닐	14370
##축구	14371
콜드	14372
##장이	14373
##포스	14374
영조	14375
완수	14376
##ᆫ든	14377
밋	14378
부대원	14379
스피커	14380
컨트롤러	14381
케이트	14382
풍자	14383
##츠카	14384
달빛	14385
##펑	14386
상체	14387
리티	14388
양주	14389
El	14390
Dis	14391
but	14392
책임자	14393
Win	14394
체이	14395
가소	14396
전년	14397
##흙	14398
미판	14399
사이보그	14400
##꿈치	14401
사스케	14402
강판	14403
유난히	14404
##동원	14405
상하이	14406
수요일	14407
저렇게	14408
VOCAL	14409
조형	14410
##러리	14411
군함	14412
베이더	14413
에티	14414
총열	14415
빅뱅	14416
은밀	14417
리브	14418
캐서	14419
##...	14420
뒤덮	14421
이용해	14422
리플렉	14423
용맹	14424
천공	14425
후문	14426
ᆫ다던가	14427
계좌	14428
##바시	14429
콜롬비아	14430
##휴일	14431
총사령	14432
연구실	14433
소수자	14434
##ART	14435
##베이스	14436
백색	14437
촉진	14438
천둥	14439
카구라	14440
미술관	14441
UI	14442
오피	14443
소감	14444
잔디	14445
##use	14446
평민	14447
벵	14448
바우	14449
고속버스	14450
전류	14451
sc	14452
케로	14453
정크	14454
6000	14455
몬테	14456
##앵	14457
런닝	14458
##수스	14459
미코토	14460
##터스	14461
못지않	14462
자신감	14463
조제	14464
여더	14465
Mon	14466
예명	14467
스플리	14468
혹사	14469
노려보	14470
기밀	14471
웨어	14472
HG	14473
워낙에	14474
제다이	14475
김두한	14476
영장	14477
쿠시	14478
##쩌	14479
##ring	14480
성형	14481
안면	14482
민원	14483
앙리	14484
중견수	14485
판권	14486
##XT	14487
man	14488
차남	14489
비즈니스	14490
~~	14491
코시	14492
##LS	14493
매칭	14494
레이나	14495
Af	14496
조류	14497
역과	14498
##칼리	14499
오인	14500
이동하	14501
퓨어	14502
되살	14503
레몬	14504
권고	14505
장기간	14506
비요	14507
카가미	14508
힘쓰	14509
##ᆯ렛	14510
우와	14511
Power	14512
막아	14513
태블릿	14514
임관	14515
샤프	14516
학계	14517
다툼	14518
대문	14519
타니	14520
함포	14521
사출	14522
##여지	14523
##ina	14524
##대교	14525
튜닝	14526
Res	14527
철회	14528
정렬	14529
매개	14530
스님	14531
##관총	14532
체리	14533
집결	14534
우체국	14535
내야수	14536
아폴로	14537
뽕	14538
정거	14539
소절	14540
형편없	14541
망령	14542
380	14543
퀄컴	14544
매진	14545
발전기	14546
기합	14547
오피스	14548
At	14549
호전	14550
도피	14551
섀도	14552
리전	14553
무효화	14554
##소문	14555
건전	14556
OPS	14557
베인	14558
}}}	14559
바주	14560
피스트	14561
혈액형	14562
지자	14563
퇴사	14564
경쟁력	14565
여덟	14566
노엘	14567
글래	14568
256	14569
제라	14570
키무라	14571
입술	14572
추첨	14573
나고야	14574
직구	14575
똘	14576
SCP	14577
캐서린	14578
NG	14579
웨이트	14580
욕구	14581
유서	14582
전전	14583
이성계	14584
조달	14585
Fem	14586
강성	14587
금성	14588
국사	14589
##범죄	14590
당첨	14591
저리	14592
자취	14593
베니	14594
때때로	14595
동갑	14596
카지노	14597
##하하	14598
공휴일	14599
동참	14600
속공	14601
농협	14602
섬세	14603
볼리	14604
아카이	14605
존속	14606
립스	14607
볼륨	14608
##맥스	14609
이야말로	14610
맏	14611
페가	14612
타치바나	14613
##ᅢ신	14614
야시	14615
총탄	14616
김영삼	14617
어쌔신	14618
증후	14619
##ittle	14620
무빙	14621
타국	14622
영미	14623
쑥	14624
적발	14625
sm	14626
경량	14627
##베리아	14628
##아르	14629
초고	14630
유포	14631
김택	14632
Fi	14633
서사	14634
MR	14635
옵티	14636
오징어	14637
직역	14638
제르	14639
무소	14640
색채	14641
##긴	14642
성역	14643
아르메니아	14644
MX	14645
##심장	14646
악용	14647
채소	14648
명대사	14649
궤적	14650
가호	14651
##라이어	14652
방어선	14653
집중력	14654
여사	14655
##카스	14656
샴	14657
##베르크	14658
내구력	14659
애시	14660
공성전	14661
부추	14662
건재	14663
화가	14664
지그	14665
허공	14666
가급적	14667
코이	14668
대인배	14669
Sing	14670
##흘	14671
카노	14672
조력자	14673
조그마	14674
낙인	14675
거제	14676
본국	14677
1910	14678
##삐	14679
##부시	14680
FL	14681
##숨에	14682
단숨에	14683
거니	14684
노기	14685
마에다	14686
아부	14687
장병	14688
저널	14689
페더	14690
##ERO	14691
츠나	14692
SG	14693
카즈마	14694
##싹	14695
##de	14696
패미	14697
광탈	14698
##be	14699
피드백	14700
넥슨	14701
gr	14702
궁지	14703
횡단	14704
고안	14705
러시아어	14706
젊은이	14707
부식	14708
##ello	14709
이우	14710
베토	14711
갈래	14712
괴리	14713
공방전	14714
리트	14715
재고	14716
정거장	14717
사육	14718
타나	14719
MT	14720
가명	14721
태세	14722
##reen	14723
SV	14724
쿠루	14725
서진	14726
##ual	14727
윈스	14728
피라미	14729
김정은	14730
억지	14731
피처	14732
창의	14733
승천	14734
IG	14735
적진	14736
생산력	14737
족장	14738
견인	14739
##대부	14740
세조	14741
예장	14742
근성	14743
로사	14744
무전	14745
일렉트로	14746
증세	14747
튀기	14748
##라비아	14749
레닌	14750
막바지	14751
##첸	14752
기미	14753
복싱	14754
절규	14755
##코어	14756
정명	14757
줄거리	14758
돌격소총	14759
뒤이	14760
통용	14761
군사력	14762
소용돌이	14763
하임	14764
노이즈	14765
휴전	14766
##ᆺ잎	14767
주재	14768
MLB	14769
##바퀴	14770
동인지	14771
데우스	14772
Pv	14773
모방	14774
포지	14775
꺾이	14776
디펜스	14777
후후	14778
Rem	14779
다기	14780
라지만	14781
돌아서	14782
맥도	14783
건축물	14784
서킷	14785
표방	14786
허구	14787
에우	14788
카오리	14789
Ep	14790
가뜩	14791
친선	14792
추적자	14793
역병	14794
##ational	14795
##프레스	14796
원격	14797
999	14798
연예계	14799
대파	14800
타시	14801
군기	14802
돌려보내	14803
어인	14804
##스트로	14805
수군	14806
##riend	14807
##af	14808
발상	14809
아이작	14810
히토미	14811
##ars	14812
카바	14813
파이브	14814
##bs	14815
신주쿠	14816
두부	14817
설계도	14818
루카스	14819
소진	14820
결장	14821
출몰	14822
Vo	14823
깊숙	14824
카에	14825
둘러보	14826
##IE	14827
가뜩이나	14828
초당	14829
슈퍼스타	14830
정은	14831
베드	14832
홍준표	14833
##해군	14834
양파	14835
모호	14836
스타팅	14837
이선	14838
발악	14839
급기야	14840
숏	14841
##ivers	14842
주방	14843
##퇴근	14844
수비진	14845
증후군	14846
노드	14847
네모	14848
폭포	14849
흐리	14850
자유자재	14851
길들이	14852
인벤토리	14853
조폭	14854
VOCALOID	14855
양현	14856
IDOL	14857
그려지	14858
리쿠	14859
악랄	14860
꽝	14861
##ᆷ없이	14862
초선	14863
오로라	14864
판서	14865
럼블	14866
포트리스	14867
박격	14868
고양시	14869
Leg	14870
King	14871
트렌	14872
수원시	14873
상임	14874
블래스트	14875
##에이터	14876
중전차	14877
애교	14878
고원	14879
연호	14880
김희	14881
풋볼	14882
베가	14883
부럽	14884
##회의	14885
미야자키	14886
마이어	14887
병단	14888
실황	14889
깽판	14890
HT	14891
##클레스	14892
핵무기	14893
스위트	14894
YOU	14895
BF	14896
강변	14897
자유주의	14898
벽돌	14899
just	14900
시스터	14901
히노	14902
이치고	14903
무림	14904
아몬	14905
##쏠	14906
태그팀	14907
에이전트	14908
제시카	14909
상회	14910
엄지	14911
##외선	14912
물들	14913
표출	14914
징징	14915
쏠쏠	14916
분경	14917
응원가	14918
코타로	14919
추기경	14920
콘테	14921
억압	14922
##SS	14923
일자리	14924
School	14925
##MC	14926
지령	14927
신시	14928
왠만	14929
운운	14930
Miss	14931
선도	14932
김창	14933
CEO	14934
키사	14935
랜턴	14936
1935	14937
팔찌	14938
##atic	14939
수다	14940
간행	14941
##질기	14942
밉	14943
인맥	14944
UFC	14945
진가	14946
Rec	14947
삼거리	14948
GR	14949
대제	14950
끈질기	14951
##일본	14952
바루	14953
##니클	14954
유토	14955
what	14956
사사키	14957
배분	14958
수고	14959
옥타	14960
고베	14961
재사	14962
경유지	14963
???	14964
스티커	14965
##토미	14966
극소수	14967
뒷받침	14968
밀접	14969
1918	14970
치명상	14971
##ern	14972
소피	14973
티베트	14974
마르크스	14975
다단	14976
자바	14977
포고	14978
##itch	14979
코스타	14980
블루스	14981
조지아	14982
벅스	14983
당분	14984
알고리	14985
데카	14986
이노우에	14987
##ts	14988
장타율	14989
빨강	14990
STER	14991
별자리	14992
1934	14993
운동가	14994
반갑	14995
레스터	14996
본디	14997
Che	14998
허리케인	14999
쿠파	15000
131	15001
창병	15002
아이언맨	15003
되살아나	15004
하르	15005
스타크	15006
파파	15007
ADV	15008
'''	15009
기마	15010
일보	15011
국력	15012
손아	15013
임상	15014
아의	15015
##연합	15016
##사전	15017
여고생	15018
플래닛	15019
어드밴스	15020
평면	15021
게임기	15022
천도	15023
##셔츠	15024
라자	15025
고폭탄	15026
##카즈	15027
End	15028
퍼시픽	15029
프론트	15030
유하	15031
방금	15032
자주포	15033
천적	15034
##날드	15035
시중	15036
로만	15037
VR	15038
##rain	15039
Ge	15040
Di	15041
피겨	15042
##큘라	15043
##그레	15044
위나라	15045
함경	15046
도리어	15047
인내	15048
독성	15049
어우	15050
라오	15051
Air	15052
쇼군	15053
뵈	15054
##tr	15055
단골	15056
마이너스	15057
편대	15058
세간	15059
디에	15060
불러들이	15061
남구	15062
과부	15063
##투르	15064
방황	15065
##서야	15066
##루살	15067
군산	15068
새로이	15069
대명사	15070
무성	15071
입성	15072
메라	15073
고어	15074
##루살렘	15075
넓이	15076
노조미	15077
도도	15078
명령어	15079
성문	15080
알고리즘	15081
헬스	15082
##oot	15083
Mod	15084
한심	15085
줄곧	15086
마사키	15087
올라서	15088
강유	15089
##노미야	15090
글러브	15091
사부	15092
군벌	15093
if	15094
전편	15095
종일	15096
마이트	15097
야쿠자	15098
##긍	15099
그리스어	15100
단조	15101
교주	15102
인프라	15103
걸작	15104
멀쩡히	15105
뒤집히	15106
이과	15107
자민	15108
표명	15109
예술가	15110
실험실	15111
바흐	15112
안나	15113
정인	15114
경신	15115
##재판	15116
무언	15117
흡연	15118
교란	15119
##어먹	15120
##의사	15121
초사	15122
드라큘라	15123
서드	15124
취직	15125
위즈	15126
포털	15127
##ren	15128
마커	15129
피리	15130
굴복	15131
피코	15132
에일리언	15133
정유	15134
이화	15135
박주	15136
착수	15137
남용	15138
##웬	15139
관악	15140
시립	15141
우크	15142
송도	15143
솔로몬	15144
col	15145
담당자	15146
요건	15147
광신	15148
욕하	15149
##같이	15150
체질	15151
금전	15152
작별	15153
##라이나	15154
단절	15155
타케시	15156
메스	15157
샤크	15158
덫	15159
첨가	15160
##UE	15161
악장	15162
상반기	15163
EMP	15164
아이리스	15165
우크라이나	15166
지망	15167
##려드	15168
카스미	15169
##55	15170
예비군	15171
부풀	15172
집정	15173
예루살렘	15174
해운대	15175
여의도	15176
저격총	15177
PVP	15178
직관	15179
천계	15180
디디	15181
왕궁	15182
시드니	15183
스플	15184
레지스	15185
관제	15186
이치로	15187
리베	15188
학번	15189
##UR	15190
옵티머스	15191
원호	15192
휴일	15193
제후	15194
성추	15195
##데아	15196
초원	15197
추이	15198
로딩	15199
토오루	15200
광석	15201
미성년자	15202
만류	15203
##rist	15204
night	15205
주범	15206
사교	15207
비늘	15208
매사	15209
진흙	15210
손녀	15211
킹스	15212
##그램	15213
타노스	15214
도미니	15215
##ony	15216
##ma	15217
청색	15218
카린	15219
##무스	15220
Sound	15221
토착	15222
사쿠라이	15223
POP	15224
##쿠로	15225
느냐는	15226
애틀	15227
Hy	15228
지기	15229
염소	15230
키워드	15231
회복력	15232
화요일	15233
총대	15234
##중국	15235
양도	15236
제식	15237
뛰쳐	15238
##사우	15239
문과	15240
정중	15241
연희	15242
광저우	15243
하세	15244
불멸	15245
메꾸	15246
컨테이너	15247
백합	15248
무작정	15249
부치	15250
##세데스	15251
김전	15252
메르세데스	15253
##iew	15254
요동	15255
고독	15256
괴담	15257
아역	15258
프런트	15259
거주지	15260
DO	15261
유소년	15262
출퇴근	15263
상수	15264
리노	15265
군중	15266
블라디미르	15267
진작	15268
연구자	15269
팔라딘	15270
작아지	15271
don	15272
한모	15273
##ope	15274
벼슬	15275
해커	15276
행태	15277
좌익수	15278
유교	15279
##데기	15280
양면	15281
##시계	15282
조운	15283
MASTER	15284
##글리	15285
빼돌리	15286
노숙	15287
대칭	15288
오너	15289
현명	15290
요르	15291
아산	15292
성채	15293
모터스	15294
바주카	15295
애틀랜	15296
잉크	15297
##수엘라	15298
법무부	15299
인테르	15300
우시	15301
신디	15302
발트	15303
민족주의	15304
시한	15305
MD	15306
눈ᄊ	15307
고려대	15308
EM	15309
ㅋㅋ	15310
나날	15311
퍼스	15312
유수	15313
징병	15314
##ana	15315
유목	15316
손바닥	15317
미끄러지	15318
반다이	15319
아야카	15320
게리온	15321
후유증	15322
빌헬	15323
배지	15324
툼	15325
##리히	15326
먹방	15327
##atale	15328
기와	15329
##어찌	15330
드라군	15331
선비	15332
골리	15333
카무이	15334
과실	15335
제멋	15336
교육부	15337
조장	15338
커리	15339
데이비스	15340
스코프	15341
##던트	15342
프레데	15343
##메인	15344
하야토	15345
으리라	15346
굳어지	15347
Femme	15348
##oon	15349
베토벤	15350
하이드	15351
청량	15352
로망	15353
사업자	15354
콜로니	15355
효력	15356
그닥	15357
기한	15358
SO	15359
Cat	15360
사에	15361
시그마	15362
칼럼	15363
way	15364
황족	15365
##패스	15366
액셀	15367
명작	15368
이마트	15369
##ox	15370
카로	15371
해리스	15372
농어	15373
BAS	15374
이안	15375
의거	15376
애프	15377
빈사	15378
어찌어찌	15379
레이터	15380
무어	15381
##ield	15382
대용	15383
재팬	15384
언행	15385
마도사	15386
브라더	15387
금기	15388
들려오	15389
일부분	15390
득점자	15391
경인	15392
박준	15393
사우디아	15394
##천동	15395
얼핏	15396
bl	15397
내려지	15398
피어	15399
학업	15400
텔레콤	15401
섭외	15402
가치관	15403
##22	15404
애당초	15405
티코	15406
베르크	15407
파고들	15408
다나카	15409
베네수엘라	15410
역설	15411
##먹이	15412
EA	15413
미토	15414
1100	15415
##노이	15416
수산	15417
매복	15418
##티어	15419
##안군	15420
소심	15421
##지원	15422
펄스	15423
쟁탈	15424
##무장	15425
1932	15426
타협	15427
##야샤	15428
극찬	15429
이누야샤	15430
WE	15431
생사	15432
흑백	15433
경장	15434
알코	15435
각색	15436
한몫	15437
보태	15438
성주	15439
카탈	15440
즐거	15441
##의정	15442
활주	15443
친밀	15444
##olog	15445
##아스	15446
알프레	15447
트림	15448
1931	15449
그놈	15450
피라미드	15451
광학	15452
1933	15453
XP	15454
수준급	15455
민국	15456
링컨	15457
해인	15458
초토	15459
선체	15460
아루	15461
택배	15462
미지수	15463
대잠	15464
보답	15465
총통	15466
폴더	15467
겉보기	15468
친위대	15469
이윽	15470
사바	15471
이윽고	15472
증원	15473
껄	15474
재혼	15475
스루	15476
확연히	15477
패기	15478
되돌아가	15479
양념	15480
창원시	15481
아그	15482
일쑤	15483
브릿지	15484
조율	15485
중앙선	15486
광주광역시	15487
강적	15488
##변속기	15489
##Fatale	15490
전리품	15491
조선일보	15492
설레	15493
##맨더	15494
FemmeFatale	15495
아멜	15496
With	15497
든가	15498
반말	15499
병살타	15500
Hard	15501
자연스레	15502
Run	15503
다던가	15504
스테이트	15505
사위	15506
대두	15507
효과음	15508
위화	15509
카도	15510
외출	15511
빅터	15512
안토니오	15513
다정	15514
마모루	15515
건의	15516
시력	15517
미타	15518
바하	15519
##퀄	15520
피곤	15521
참패	15522
##돼지	15523
##언정	15524
XXX	15525
자잘	15526
쾌속	15527
지중해	15528
다인	15529
김전일	15530
부회장	15531
마징가	15532
추석	15533
두께	15534
임용	15535
복종	15536
CT	15537
가든	15538
칭송	15539
##구나	15540
##제이	15541
##AA	15542
연비	15543
후타	15544
탈옥	15545
번영	15546
##쿠버	15547
낯설	15548
엇갈리	15549
##블랜드	15550
수작	15551
무찌	15552
성폭행	15553
미디	15554
토머스	15555
340	15556
부화	15557
클리블랜드	15558
Not	15559
정장	15560
겨누	15561
중령	15562
커브	15563
전념	15564
폭발물	15565
탤	15566
봉황	15567
이스터	15568
App	15569
카가	15570
직감	15571
신이치	15572
진공	15573
셜록	15574
가솔린	15575
안테	15576
승기	15577
넵	15578
손흥	15579
##elf	15580
Rev	15581
슈타인	15582
가산	15583
여건	15584
##암동	15585
입맛	15586
##테리	15587
추대	15588
니콜	15589
##ouse	15590
도전자	15591
RS	15592
설득력	15593
말장난	15594
살라	15595
프랑켄	15596
1928	15597
##선거	15598
제정신	15599
214	15600
캡콤	15601
세나	15602
##사의	15603
기병대	15604
CCTV	15605
식신	15606
스폰지	15607
동봉	15608
송구	15609
흑화	15610
압살	15611
RG	15612
충주	15613
환원	15614
무찌르	15615
도널드	15616
호대	15617
토탈	15618
성공회	15619
셀프	15620
dis	15621
씁	15622
부츠	15623
명인	15624
채무	15625
##저트	15626
술법	15627
키퍼	15628
악세	15629
난전	15630
Da	15631
바늘	15632
치중	15633
꼭두	15634
미셸	15635
환각	15636
체조	15637
게재	15638
손흥민	15639
사용법	15640
##발리	15641
무의	15642
든든	15643
쓸모없	15644
##그라드	15645
들이대	15646
박격포	15647
외무	15648
듀엣	15649
아지트	15650
서문	15651
송이	15652
쇼핑몰	15653
##75	15654
VIP	15655
가출	15656
뾰족	15657
##텁	15658
##무니	15659
장래	15660
시동	15661
쓸데없	15662
의병	15663
페로	15664
접시	15665
안도	15666
서식지	15667
순진	15668
육식	15669
충성심	15670
키리토	15671
마포	15672
경위	15673
##투수	15674
SHOW	15675
피신	15676
좀처럼	15677
미라클	15678
유감	15679
##거진	15680
쇼코	15681
재사용	15682
종자	15683
재해	15684
바이스	15685
협곡	15686
반칙	15687
스왑	15688
분사	15689
고장나	15690
마작	15691
삼각형	15692
메테오	15693
서면	15694
광양	15695
도호쿠	15696
##니치	15697
안치	15698
완전체	15699
공채	15700
위생	15701
선발투수	15702
##마사	15703
아종	15704
변종	15705
카세	15706
아즈사	15707
##득점	15708
상권	15709
선진국	15710
진과	15711
릉	15712
걸어오	15713
사우디아라비아	15714
UM	15715
트린	15716
시궁	15717
계보	15718
육박	15719
Elect	15720
하코	15721
노이	15722
임창	15723
아치	15724
관습	15725
오스카	15726
마음껏	15727
꾀하	15728
사각	15729
서북	15730
기만	15731
물려주	15732
샨	15733
윈스턴	15734
시구	15735
허세	15736
RAW	15737
어처	15738
북유럽	15739
온화	15740
시위대	15741
리포트	15742
초식	15743
##방향	15744
빌미	15745
혼종	15746
불가사의	15747
폭사	15748
co	15749
##ORE	15750
미츠루	15751
Ke	15752
141	15753
She	15754
학창	15755
310	15756
##컨대	15757
대강	15758
동국	15759
뒤틀리	15760
만회	15761
사마의	15762
순조	15763
호노카	15764
체가	15765
8000	15766
데이브	15767
제비	15768
모라	15769
잠복	15770
스플래시	15771
##투표	15772
결별	15773
격돌	15774
프레디	15775
작살	15776
액세서리	15777
##we	15778
저번	15779
##ecial	15780
##쿤	15781
최전	15782
석궁	15783
버지	15784
홈구장	15785
도르트	15786
##로이	15787
동물원	15788
에리카	15789
연주자	15790
현행	15791
백미	15792
제구	15793
향수	15794
입학식	15795
늘어지	15796
철학자	15797
사과문	15798
패트릭	15799
대여	15800
조세	15801
Get	15802
낙원	15803
입당	15804
김혜	15805
협의회	15806
사다리	15807
존댓말	15808
앞쪽	15809
발산	15810
##아아	15811
만두	15812
퍼뜨리	15813
수법	15814
정적	15815
뮬	15816
##조각	15817
탄종	15818
풀백	15819
##라이즈	15820
대관	15821
단테	15822
##요환	15823
홍대	15824
틀어지	15825
가물	15826
본문	15827
##asy	15828
제이크	15829
호스트	15830
##ane	15831
아벨	15832
포르노	15833
라거나	15834
기요	15835
이ᄆ	15836
##66	15837
수렴	15838
승부차기	15839
콜라보레이션	15840
불사조	15841
레고	15842
앨리	15843
##ᆺ거리	15844
넘쳐	15845
샌디	15846
평정	15847
##its	15848
DT	15849
##레트	15850
Ang	15851
스크래치	15852
애플리케이션	15853
world	15854
샬	15855
상정	15856
##슬로	15857
##미아	15858
블레이즈	15859
사설	15860
오미	15861
치아	15862
##28	15863
비석	15864
임요환	15865
##네트	15866
수레	15867
정제	15868
와우	15869
어처구니	15870
비정	15871
구자	15872
오리콘	15873
시엘	15874
##치오	15875
무자비	15876
콧	15877
1924	15878
정류소	15879
##미사	15880
열풍	15881
까먹	15882
타라	15883
김인	15884
유죄	15885
왼팔	15886
##히사	15887
최면	15888
white	15889
크로니클	15890
당당히	15891
듀티	15892
엑소	15893
480	15894
스튜어트	15895
대담	15896
김세	15897
속삭	15898
송병	15899
설사	15900
학파	15901
벡	15902
식별	15903
소인	15904
베라	15905
##짜기	15906
캉	15907
기각	15908
##먼드	15909
순교자	15910
차세대	15911
제이드	15912
강당	15913
볼텍스	15914
거물	15915
분수	15916
##EX	15917
양동	15918
재선	15919
느냐고	15920
촉구	15921
안장	15922
##ze	15923
밸리	15924
손수	15925
SW	15926
영분	15927
알루미	15928
앞장	15929
침체	15930
007	15931
##용차	15932
원동	15933
가까스로	15934
밀라노	15935
박병	15936
수배	15937
더스트	15938
0000	15939
Cy	15940
로드리	15941
다이브	15942
한조	15943
대전광역시	15944
추산	15945
프리즈	15946
시애	15947
부합	15948
하드코어	15949
아픔	15950
부추기	15951
영락	15952
헤딩	15953
네메	15954
ᆫ다면서	15955
되돌아오	15956
자니	15957
선공	15958
탐욕	15959
열받	15960
대변인	15961
니키	15962
스칼렛	15963
##무진	15964
우익수	15965
콘스탄티노	15966
su	15967
노브	15968
##ness	15969
망원경	15970
난동	15971
720	15972
주주	15973
사이퍼	15974
가네	15975
기총	15976
착공	15977
플랫폼	15978
어비스	15979
전태	15980
##포로	15981
에덴	15982
타지	15983
Song	15984
##지대	15985
목성	15986
흘러나오	15987
Big	15988
다이어트	15989
Comm	15990
시저	15991
호조	15992
휩쓸	15993
발렌시아	15994
국무총리	15995
##24	15996
자위대	15997
비약	15998
편제	15999
합방	16000
Back	16001
선명	16002
##인간	16003
처단	16004
클로즈	16005
동포	16006
베른	16007
##appy	16008
주작	16009
데이빗	16010
도르트문트	16011
420	16012
팔꿈치	16013
강남구	16014
정무	16015
신민	16016
예리	16017
Arm	16018
류현진	16019
##매매	16020
마더	16021
##도니아	16022
선교사	16023
##즈마	16024
시애틀	16025
의미심장	16026
디트로	16027
디트로이트	16028
서점	16029
폿	16030
교구	16031
광화	16032
검찰청	16033
빌헬름	16034
유한	16035
레트	16036
커먼	16037
승계	16038
품종	16039
황자	16040
화수	16041
애리	16042
삽화	16043
바바	16044
방대	16045
여도	16046
망자	16047
익스프레스	16048
##ny	16049
유쾌	16050
출입구	16051
화장품	16052
이산	16053
격노	16054
동대문	16055
코이치	16056
대한항공	16057
오버로드	16058
매거진	16059
조선인	16060
자라나	16061
리젠	16062
##벨트	16063
##제리	16064
항로	16065
목표물	16066
##ke	16067
교감	16068
##평가	16069
랫	16070
히로유키	16071
특권	16072
창출	16073
Order	16074
유명세	16075
##제품	16076
늘어놓	16077
두텁	16078
##RAM	16079
##sc	16080
괴로	16081
##슬라비아	16082
유고슬라비아	16083
##바ᄁ	16084
적정	16085
##부대	16086
##마이	16087
1929	16088
##드래	16089
떠들	16090
으라는	16091
대각선	16092
##모자	16093
룽	16094
1911	16095
부두	16096
##틱스	16097
브란	16098
빡빡	16099
민병대	16100
와이드	16101
포화	16102
역기	16103
카야	16104
로마자	16105
후일담	16106
알루미늄	16107
대장군	16108
Skill	16109
리액션	16110
기라	16111
젤다	16112
스케치	16113
미련	16114
나우	16115
단신	16116
전복	16117
##쓸리	16118
꼭대기	16119
서재	16120
정현	16121
프리스트	16122
송파	16123
휩쓸리	16124
방랑	16125
야하	16126
커네	16127
인디언	16128
con	16129
주군	16130
>,	16131
##35	16132
이따	16133
김준호	16134
대머리	16135
법령	16136
국수	16137
KS	16138
플러그	16139
배척	16140
유추	16141
선천	16142
벌칙	16143
집정관	16144
독재자	16145
서커스	16146
농부	16147
##chor	16148
스탠다드	16149
웨일스	16150
주성	16151
매입	16152
씁쓸	16153
TB	16154
어도	16155
나주	16156
##평군	16157
케네	16158
리조트	16159
태연	16160
가가	16161
사이오	16162
퇴근	16163
안드로메다	16164
##공격	16165
산지	16166
첩보	16167
허영	16168
클락	16169
오드	16170
인즈	16171
차출	16172
UR	16173
가제	16174
발효	16175
겸임	16176
1925	16177
시즈카	16178
아론	16179
문의	16180
열전	16181
지아	16182
Every	16183
페인트	16184
사토시	16185
자택	16186
브뤼	16187
과반	16188
행선	16189
좀비	16190
##let	16191
토네이	16192
토네이도	16193
세균	16194
버금	16195
노후	16196
새해	16197
수분	16198
일직	16199
토의	16200
졸개	16201
무협	16202
정규군	16203
김정일	16204
연기자	16205
즘	16206
##느니	16207
##실히	16208
당분간	16209
오재	16210
보유자	16211
PSP	16212
cl	16213
듬	16214
조비	16215
투르	16216
서경	16217
윤종	16218
크루세이	16219
분교	16220
국정원	16221
조회	16222
디테일	16223
입상	16224
병영	16225
##푸스	16226
##러미	16227
장단	16228
난폭	16229
##UC	16230
모티	16231
경이	16232
내년	16233
태고	16234
##예프	16235
캬	16236
##AG	16237
##니트	16238
양아치	16239
운전자	16240
짤방	16241
영화판	16242
석화	16243
리히	16244
That	16245
구이	16246
가즈	16247
비행선	16248
##빠르	16249
사상자	16250
나나미	16251
위조	16252
알코올	16253
어휘	16254
속옷	16255
총사령관	16256
##각시	16257
상대편	16258
수반	16259
마늘	16260
왕녀	16261
난해	16262
1917	16263
성추행	16264
커터	16265
##자카	16266
성취	16267
느긋	16268
qu	16269
208	16270
##파니	16271
화랑	16272
해협	16273
빡세	16274
이에야스	16275
활주로	16276
간식	16277
내려놓	16278
동거	16279
##눅스	16280
가차	16281
단거리	16282
##렉트	16283
##양군	16284
지독	16285
전염병	16286
치타	16287
생리	16288
##패드	16289
추월	16290
##작전	16291
##타자	16292
합산	16293
##페스트	16294
노랑	16295
심포	16296
헌데	16297
공병	16298
괴도	16299
상경	16300
##픈	16301
갈고리	16302
펜스	16303
선발전	16304
프랭클린	16305
##폴리스	16306
te	16307
지체	16308
온전히	16309
라운	16310
춘추	16311
마장	16312
자석	16313
TCG	16314
인민군	16315
신종	16316
##비우스	16317
시노부	16318
비숍	16319
샤아	16320
복권	16321
홍수	16322
스펙트	16323
자부심	16324
에프	16325
단말기	16326
개화	16327
박세	16328
숙종	16329
거슬리	16330
##그러지	16331
212	16332
켄타	16333
##괘	16334
마는	16335
서부터	16336
츠카사	16337
리눅스	16338
공직	16339
출세	16340
역전승	16341
해저	16342
마그마	16343
원산	16344
비욘	16345
##정역	16346
심플	16347
##원수	16348
##애미	16349
세이부	16350
##나가와	16351
관광지	16352
유행어	16353
##bps	16354
Des	16355
올라타	16356
마이애미	16357
최진	16358
이어인	16359
동남아시아	16360
이관	16361
대적	16362
교재	16363
제멋대로	16364
Har	16365
##운전	16366
체이스	16367
위임	16368
프리스	16369
##바위	16370
##ert	16371
갑판	16372
교원	16373
비밀리	16374
콩고	16375
초급	16376
잔당	16377
토요타	16378
##ious	16379
##정동	16380
불운	16381
낭만	16382
볼프	16383
나츠미	16384
##끝	16385
FX	16386
등산	16387
영기	16388
171	16389
##옌	16390
##ient	16391
라이터	16392
NL	16393
Top	16394
앞마당	16395
끊이	16396
게이밍	16397
왕따	16398
타쿠미	16399
구세	16400
항쟁	16401
235	16402
튜너	16403
자아내	16404
모건	16405
##부리	16406
요일	16407
##단체	16408
올리버	16409
침식	16410
##net	16411
판본	16412
연방군	16413
채굴	16414
능동	16415
##모사	16416
크롤	16417
스펙터	16418
GL	16419
파열	16420
자의	16421
영창	16422
개종	16423
850	16424
유체	16425
Tri	16426
누마	16427
##위치	16428
심부	16429
법조	16430
의리	16431
##비히	16432
EXH	16433
##유산	16434
크리스토퍼	16435
중얼거리	16436
야채	16437
##노기	16438
##ret	16439
서스	16440
사절	16441
255	16442
이제동	16443
1927	16444
조슈	16445
FR	16446
조인	16447
농도	16448
##ideo	16449
눌	16450
후작	16451
NS	16452
..'	16453
패거리	16454
다이너	16455
악보	16456
리오스	16457
##라이언트	16458
어중간	16459
일선	16460
직계	16461
키메라	16462
##르바	16463
##라이터	16464
푸드	16465
쏠리	16466
마츠모토	16467
정진	16468
근래	16469
가변	16470
사비	16471
플레이트	16472
##튀기	16473
들려주	16474
장녀	16475
레이크	16476
일찍이	16477
비대	16478
백악	16479
법정동	16480
클라이언트	16481
##넓	16482
구치	16483
래스	16484
##pl	16485
뻥튀기	16486
주임	16487
RF	16488
한가	16489
해밀	16490
줄리아	16491
##ᆷ비	16492
푸른	16493
알아듣	16494
마드	16495
##호도	16496
##olution	16497
떨어트리	16498
##둘기	16499
신한은행	16500
Amer	16501
골대	16502
헌병	16503
는군	16504
공전	16505
중산	16506
와일드카드	16507
미완	16508
내심	16509
랏	16510
매트릭스	16511
어로	16512
쉘	16513
어지간히	16514
햇빛	16515
바트	16516
왕건	16517
##토록	16518
Em	16519
초동	16520
용품	16521
206	16522
스플릿	16523
##주곡	16524
카멜	16525
투기	16526
트리오	16527
연평	16528
특출	16529
유니버	16530
이의	16531
상고	16532
이승엽	16533
애틀랜타	16534
와이어	16535
부메	16536
자며	16537
안중	16538
PO	16539
텐션	16540
유세	16541
DEF	16542
##IST	16543
모기	16544
##자스	16545
인신	16546
드레이크	16547
##겨지	16548
LCD	16549
작렬	16550
off	16551
삿포로	16552
럽	16553
##나들	16554
##co	16555
경호원	16556
##노프	16557
##버릇	16558
소량	16559
##ERS	16560
각본가	16561
유민	16562
버디	16563
오아	16564
정직	16565
인스	16566
가메	16567
##비언	16568
리바이	16569
사역	16570
성남시	16571
알파벳	16572
##인드	16573
중공업	16574
구애	16575
벨벳	16576
이지스	16577
##러기	16578
주스	16579
우로	16580
##교도	16581
켄이치	16582
333	16583
거듭나	16584
게르만	16585
장학금	16586
피크	16587
쭈	16588
Act	16589
소이	16590
프라이즈	16591
기통	16592
##니지	16593
요지	16594
진해	16595
UFO	16596
부메랑	16597
요크	16598
프레드	16599
원제	16600
가쿠	16601
정경	16602
후려	16603
드리프트	16604
치부	16605
데뷔작	16606
209	16607
두드리	16608
이신	16609
카터	16610
메아리	16611
버니	16612
청주시	16613
##ful	16614
##밟	16615
엘런	16616
##mania	16617
ve	16618
판도라	16619
절묘	16620
과다	16621
부딪치	16622
290	16623
Pe	16624
지바	16625
kn	16626
기겁	16627
LS	16628
케르	16629
우메	16630
메소	16631
줄줄이	16632
꼭두각시	16633
남원	16634
자드	16635
작물	16636
무난히	16637
튜브	16638
KG	16639
코지마	16640
저렇	16641
##틀링	16642
여리	16643
리투아	16644
햄버	16645
토템	16646
암석	16647
리투아니아	16648
면은	16649
동선	16650
##피어	16651
이트	16652
정종	16653
소아	16654
소음기	16655
##ner	16656
##ham	16657
##고쿠	16658
뇌격	16659
TD	16660
형법	16661
##사우루스	16662
관대	16663
특공대	16664
팔레스	16665
토와	16666
주름	16667
츠루	16668
인기투표	16669
Bar	16670
Fre	16671
215	16672
받침	16673
진전	16674
고모	16675
파드	16676
선풍	16677
마고	16678
##어들이	16679
친근	16680
오바마	16681
가창력	16682
트레이서	16683
데프	16684
##힘	16685
성녀	16686
외야	16687
단단히	16688
##캐슬	16689
세단	16690
치밀	16691
Ext	16692
소중히	16693
##조선	16694
비틀즈	16695
루즈	16696
런닝맨	16697
브로드	16698
##럭스	16699
AMD	16700
시정	16701
이민자	16702
##슘	16703
시궁창	16704
가로지르	16705
God	16706
자연수	16707
데일리	16708
Str	16709
1926	16710
생계	16711
통역	16712
##서리	16713
데스크	16714
희미	16715
송곳	16716
나루호도	16717
되려	16718
레미	16719
다이묘	16720
항우	16721
뉴캐슬	16722
독립운동가	16723
나시	16724
##숭	16725
##곡리	16726
##ning	16727
동산	16728
GDP	16729
괴멸	16730
나가사키	16731
브라우저	16732
때우	16733
Hot	16734
팩토리	16735
Bea	16736
재상	16737
가중	16738
Ab	16739
경관	16740
##캐스트	16741
밀러	16742
##ERT	16743
STAR	16744
오마주	16745
규명	16746
RAM	16747
anchor	16748
덩크	16749
위화감	16750
우투	16751
어린애	16752
음양	16753
##ump	16754
아우구	16755
샤이닝	16756
가세	16757
클라우	16758
나츠키	16759
Char	16760
노사	16761
항소	16762
전폭	16763
성종	16764
자정	16765
보전	16766
고스란히	16767
김제	16768
러블리	16769
버금가	16770
'-	16771
케네디	16772
ᆯ지도	16773
##ward	16774
레비	16775
심심찮	16776
마카오	16777
Met	16778
Rain	16779
심슨	16780
시발	16781
##day	16782
점포	16783
Sil	16784
소셜	16785
초중	16786
every	16787
주시	16788
대의	16789
서남	16790
중소기업	16791
마천	16792
공시	16793
최성	16794
헛소리	16795
ᆯ게요	16796
알맞	16797
##ATION	16798
위인	16799
인장	16800
갭	16801
데이즈	16802
FN	16803
##여행	16804
금하	16805
경상도	16806
랄까	16807
무심	16808
탄수	16809
평지	16810
오일	16811
최적화	16812
동유럽	16813
간장	16814
산호	16815
박민	16816
투여	16817
**	16818
뮤즈	16819
만화가	16820
해결책	16821
수리검	16822
시르	16823
영재	16824
체류	16825
want	16826
아이리	16827
이시다	16828
성령	16829
##상스	16830
로페	16831
이목	16832
재화	16833
FE	16834
이분	16835
White	16836
##88	16837
비하인드	16838
Inf	16839
옥스	16840
헤라클레스	16841
찬사	16842
랜디	16843
최우선	16844
신촌	16845
1400	16846
헌납	16847
yout	16848
세무	16849
팔레스타인	16850
채권	16851
셔츠	16852
경의	16853
미얀	16854
인피니트	16855
##하늘	16856
기판	16857
로버	16858
대리인	16859
수주	16860
문호	16861
##매니아	16862
ᄇ시다	16863
카자흐	16864
제각	16865
발도	16866
십상	16867
##내기	16868
바사	16869
수료	16870
유우야	16871
이송	16872
계승자	16873
사생활	16874
젯	16875
코나미	16876
KD	16877
명품	16878
북두	16879
루드	16880
충동	16881
성동	16882
바람직	16883
선하	16884
군단장	16885
수영장	16886
안테나	16887
조승	16888
세토	16889
현수	16890
역관	16891
앤더슨	16892
퀑	16893
김태균	16894
제레	16895
down	16896
최재	16897
긴장감	16898
more	16899
탬	16900
포이	16901
멸자	16902
과잉	16903
황무지	16904
오덕	16905
May	16906
##트니	16907
빈스	16908
불분	16909
버지니아	16910
길목	16911
애리조	16912
##대표	16913
건너편	16914
정연	16915
207	16916
마케도니아	16917
그물	16918
키바	16919
감속	16920
스트레이트	16921
이치카	16922
Pop	16923
잔여	16924
한인	16925
찾아다니	16926
IDOLM	16927
다이렉트	16928
주부	16929
도보	16930
개틀링	16931
권역	16932
##살이	16933
오퍼레이터	16934
발령	16935
로로	16936
여행자	16937
근로자	16938
Master	16939
저스틴	16940
청문	16941
주권	16942
장막	16943
내무	16944
##소통	16945
흑룡	16946
배럴	16947
터무니	16948
대한제국	16949
##대군	16950
##레즈	16951
이가	16952
의류	16953
휘둘	16954
##켜	16955
의사소통	16956
하렘	16957
##son	16958
지자체	16959
한결	16960
창세기	16961
하데스	16962
편집자	16963
영국인	16964
##드래곤	16965
코로	16966
투항	16967
##뮤직	16968
##au	16969
부녀	16970
분과	16971
서울역	16972
유부	16973
##ANC	16974
체로	16975
PA	16976
외교관	16977
자음	16978
우사	16979
##oud	16980
과하	16981
농어촌	16982
냐면서	16983
병맛	16984
박기	16985
머들	16986
심리전	16987
##ves	16988
아르테	16989
익명	16990
사단장	16991
##지리아	16992
단연	16993
감도	16994
나이지리아	16995
포유	16996
##피탈	16997
몸체	16998
앞장서	16999
Game	17000
대입	17001
초연	17002
숙명	17003
나기사	17004
공석	17005
##밖	17006
불분명	17007
##엠	17008
이범	17009
이라든가	17010
에니	17011
무언가	17012
지갑	17013
##실록	17014
멀린	17015
노동조합	17016
랄프	17017
멧돼지	17018
무법	17019
여객철도	17020
OR	17021
사병	17022
##밑	17023
촛불	17024
플라워	17025
로자	17026
스펙트럼	17027
는데도	17028
충실히	17029
수년	17030
##뚤	17031
수뇌	17032
##마츠	17033
안식	17034
분전	17035
161	17036
경희대	17037
미분	17038
they	17039
며느리	17040
끝판	17041
감시자	17042
##지물	17043
1922	17044
사카모토	17045
##ift	17046
티탄	17047
송라이터	17048
행동력	17049
몰아치	17050
뛰어다니	17051
##리온	17052
여대	17053
체급	17054
란트	17055
보단	17056
만화책	17057
재빠르	17058
리비아	17059
엠파이어	17060
##ship	17061
즉석	17062
전용기	17063
명확히	17064
서유럽	17065
호타	17066
전과	17067
스패	17068
##ape	17069
애프터	17070
COM	17071
동독	17072
너구리	17073
쿠미	17074
##블랑	17075
유시	17076
제품군	17077
##부짖	17078
성검	17079
울부짖	17080
중심부	17081
Are	17082
##갱	17083
##도사	17084
##돔	17085
경시	17086
한중	17087
카에데	17088
신령	17089
##감치	17090
GAM	17091
그토록	17092
기공	17093
오반	17094
공적	17095
##찌감치	17096
피고인	17097
조로	17098
치세	17099
체르	17100
브랜	17101
미하일	17102
##떼	17103
들통	17104
경합	17105
리언	17106
1923	17107
열렬	17108
지출	17109
체내	17110
세츠나	17111
무로	17112
TN	17113
행각	17114
WAR	17115
기생충	17116
국물	17117
절약	17118
역전패	17119
간편	17120
터리	17121
1921	17122
기린	17123
자재	17124
고갈	17125
##현동	17126
TG	17127
외래어	17128
스노	17129
김택용	17130
##lock	17131
좌석버스	17132
레베	17133
불가피	17134
카트라이더	17135
사시	17136
차마	17137
반자동	17138
메커	17139
산출	17140
##꿀	17141
요양	17142
몸집	17143
트레인	17144
Bu	17145
맞춤	17146
가야	17147
무네	17148
Bra	17149
##또	17150
520	17151
나데	17152
후하	17153
천리	17154
only	17155
시세	17156
카프	17157
로미	17158
언론사	17159
마오쩌	17160
마오쩌둥	17161
##ien	17162
##고스	17163
뿜어내	17164
마우	17165
크러	17166
멱	17167
시프트	17168
익스트림	17169
천문학	17170
Yeah	17171
부설	17172
명하	17173
버즈	17174
경전철	17175
##관계	17176
마비노기	17177
애덤	17178
DA	17179
의약	17180
단번에	17181
##less	17182
필기	17183
준장	17184
쿼드	17185
ㅏ요	17186
이장	17187
비둘기	17188
##ize	17189
특색	17190
news	17191
학부모	17192
소망	17193
체하	17194
짓밟	17195
크림슨	17196
##산면	17197
개드	17198
말라	17199
폐하	17200
도타	17201
순순	17202
##뿌리	17203
##zy	17204
음식점	17205
루시퍼	17206
민지	17207
Cont	17208
##LD	17209
마취	17210
완패	17211
절감	17212
##니케이션	17213
메이크	17214
솔리드	17215
피니시	17216
리시	17217
헤더	17218
성급	17219
피버	17220
커뮤니케이션	17221
오스틴	17222
pl	17223
티나	17224
터미네이터	17225
신공	17226
걸스	17227
하얀색	17228
등용	17229
프란츠	17230
제네시스	17231
##EE	17232
##형제	17233
캐로	17234
탤런트	17235
밴시	17236
예하	17237
산산	17238
Hea	17239
창간	17240
서약	17241
친화	17242
케어	17243
트레버	17244
제명	17245
치소	17246
인분	17247
나지	17248
##45	17249
월터	17250
르네상스	17251
항속	17252
장대	17253
활기	17254
##led	17255
유스케	17256
##고루	17257
##omb	17258
일갈	17259
섹터	17260
강령	17261
전투원	17262
자치구	17263
아세	17264
당근	17265
포괄	17266
극동	17267
궁정	17268
##준호	17269
비범	17270
붙여지	17271
콘테스트	17272
일생	17273
영화관	17274
남아공	17275
##렁이	17276
##마트	17277
구스타	17278
설문	17279
무패	17280
급여	17281
붉은색	17282
종로구	17283
운임	17284
##똥	17285
간첩	17286
구비	17287
치키	17288
급제	17289
위태	17290
독설	17291
포진	17292
독도	17293
##기어	17294
댈러스	17295
단간	17296
출생지	17297
재차	17298
##ited	17299
Project	17300
교직원	17301
##HD	17302
##법인	17303
그지	17304
락스	17305
팀킬	17306
헤지	17307
온게임	17308
온게임넷	17309
##마드	17310
와타루	17311
7000	17312
세련	17313
리포	17314
배고	17315
##람쥐	17316
민속	17317
##문화재	17318
노마	17319
복부	17320
Joh	17321
회자	17322
##조작	17323
다이스	17324
##ALL	17325
Off	17326
자위	17327
온전	17328
Battle	17329
불허	17330
이상민	17331
TEC	17332
응징	17333
생포	17334
힘겹	17335
붕대	17336
1912	17337
척하	17338
읊	17339
TF	17340
노스케	17341
불안감	17342
플라잉	17343
정선	17344
선상	17345
팰	17346
이유로	17347
스릴러	17348
다트	17349
우동	17350
메츠	17351
계약자	17352
순순히	17353
##ita	17354
승부조작	17355
유다	17356
빼놓	17357
다이빙	17358
눈부시	17359
ᆫ대	17360
발자	17361
회유	17362
이어폰	17363
##준혁	17364
JC	17365
##소타	17366
선별	17367
Open	17368
##ORM	17369
톡톡	17370
성유	17371
##ton	17372
원상	17373
반죽	17374
태후	17375
DDR	17376
~'	17377
정국	17378
협공	17379
스몰	17380
조나	17381
성품	17382
빵빵	17383
##29	17384
순차	17385
천연가스	17386
wiz	17387
칸나	17388
Sky	17389
돌풍	17390
지못	17391
지못미	17392
패미컴	17393
##낮	17394
Moon	17395
나뭇잎	17396
브룩	17397
전투복	17398
조니	17399
브리핑	17400
##장구	17401
##레오	17402
휘둘리	17403
케미	17404
헤일	17405
아란	17406
번거	17407
##플러	17408
......	17409
조부	17410
##웹	17411
221	17412
##ENT	17413
날아오르	17414
BASIC	17415
이석	17416
모데	17417
스켈	17418
연장전	17419
노원	17420
기염	17421
관건	17422
알비	17423
미네소타	17424
소주	17425
##선스	17426
일직선	17427
777	17428
##메르	17429
얀데레	17430
맞대결	17431
good	17432
##23	17433
아이슬	17434
카르타	17435
힌두	17436
저력	17437
타츠야	17438
하늘색	17439
전라도	17440
다마	17441
백지	17442
##row	17443
##27	17444
레코	17445
1300	17446
아쉬워하	17447
##촬	17448
야자	17449
섭정	17450
꼼짝	17451
외침	17452
짤막	17453
매도	17454
급진	17455
미카엘	17456
##개골	17457
네타	17458
##푼	17459
카즈키	17460
감염자	17461
Like	17462
다듬	17463
##com	17464
##위원	17465
남짓	17466
내려찍	17467
체구	17468
아이슬란드	17469
무모	17470
성원	17471
마코	17472
라이선스	17473
청취	17474
초회	17475
수족	17476
WCS	17477
##ling	17478
인플	17479
우이	17480
벌어들이	17481
라든지	17482
소탕	17483
희박	17484
경비원	17485
김현수	17486
Special	17487
##즐리	17488
화속	17489
라리	17490
2022	17491
조개	17492
오모	17493
순항	17494
음란	17495
흉터	17496
성가시	17497
여느	17498
갱단	17499
졸지	17500
##의지	17501
beatmania	17502
니즘	17503
방어전	17504
##타기	17505
네메시스	17506
개드립	17507
Bad	17508
눈썹	17509
탈탈	17510
도메인	17511
노프	17512
샌드박스	17513
아틀라스	17514
재주	17515
비서관	17516
강호동	17517
##교회	17518
짊	17519
톱니	17520
누락	17521
검거	17522
관현	17523
막말	17524
둔화	17525
낙하산	17526
이나즈마	17527
중사	17528
음모론	17529
루리웹	17530
경영학	17531
디에고	17532
하천	17533
류지	17534
TT	17535
티셔츠	17536
탈주	17537
일정량	17538
산체스	17539
업자	17540
악인	17541
이북	17542
릭스	17543
통학	17544
데이터베이스	17545
Soul	17546
합금	17547
바이올렛	17548
##일관	17549
파병	17550
치과	17551
백수	17552
쪽지	17553
다이크	17554
넵튠	17555
밝혀	17556
추위	17557
부상자	17558
팽창	17559
졸리	17560
Med	17561
코팅	17562
뭣	17563
사납	17564
파나	17565
세이지	17566
는구나	17567
##rop	17568
미달	17569
모치	17570
프라이드	17571
주립	17572
급상	17573
ᆫ다든가	17574
탈것	17575
성범죄	17576
특촬	17577
착취	17578
원로원	17579
사죄	17580
임프	17581
타가	17582
벤츠	17583
브래드	17584
213	17585
드래곤즈	17586
##방식	17587
벤트	17588
거창	17589
반대쪽	17590
##어내리	17591
이천	17592
이시카와	17593
크레이지	17594
막아서	17595
지폐	17596
마호	17597
호라이	17598
멕	17599
진행하	17600
##UB	17601
흐트	17602
칠흑	17603
사하	17604
박태	17605
서스펜	17606
형벌	17607
end	17608
Po	17609
##vent	17610
마사무네	17611
앵글	17612
티타	17613
Hey	17614
over	17615
정관	17616
피쳐	17617
눕히	17618
환불	17619
생방송	17620
대지진	17621
FBI	17622
##산리	17623
픽처	17624
이메일	17625
##line	17626
일간	17627
##ute	17628
Now	17629
WOR	17630
무당	17631
일파	17632
조현	17633
반납	17634
자기장	17635
Dragon	17636
성희	17637
Bur	17638
여하	17639
223	17640
찜	17641
##play	17642
유노	17643
빽	17644
죄인	17645
명백히	17646
our	17647
사카이	17648
##xt	17649
파기	17650
폴라	17651
철벽	17652
275	17653
밀양	17654
밸브	17655
가주	17656
드미	17657
해프	17658
히코	17659
햄버거	17660
전갈	17661
어우러지	17662
메커니즘	17663
이로	17664
이도	17665
스탠딩	17666
바실리	17667
부통령	17668
막스	17669
baby	17670
관용	17671
자자	17672
파괴자	17673
정부군	17674
브라이	17675
래쉬	17676
##stem	17677
001	17678
##가요	17679
밝혀내	17680
니즈	17681
#,	17682
리아	17683
[...]
