[UNK]	0
[CLS]	1
[SEP]	2
[PAD]	3
[MASK]	4
!	5
"	6
#	7
$	8
%	9
&	10
'	11
(	12
)	13
*	14
+	15
,	16
-	17
.	18
/	19
0	20
1	21
2	22
3	23
4	24
5	25
6	26
7	27
8	28
9	29
:	30
;	31
<	32
=	33
>	34
?	35
@	36
A	37
B	38
C	39
D	40
E	41
F	42
G	43
H	44
I	45
J	46
K	47
L	48
M	49
N	50
O	51
P	52
Q	53
R	54
S	55
T	56
U	57
V	58
W	59
X	60
Y	61
Z	62
[	63
\	64
]	65
^	66
_	67
`	68
a	69
b	70
c	71
d	72
e	73
f	74
g	75
h	76
i	77
j	78
k	79
l	80
m	81
n	82
o	83
p	84
q	85
r	86
s	87
t	88
u	89
v	90
w	91
x	92
y	93
z	94
{	95
|	96
}	97
~	98
	99
ᄀ	100
ᄁ	101
ᄂ	102
ᄃ	103
ᄄ	104
ᄅ	105
ᄆ	106
ᄇ	107
ᄈ	108
ᄉ	109
ᄊ	110
ᄋ	111
ᄌ	112
ᄍ	113
ᄎ	114
ᄏ	115
ᄐ	116
ᄑ	117
ᄒ	118
ᅡ	119
ᅢ	120
ᅣ	121
ᅤ	122
ᅥ	123
ᅦ	124
ᅧ	125
ᅨ	126
ᅩ	127
ᅪ	128
ᅫ	129
ᅬ	130
ᅭ	131
ᅮ	132
ᅯ	133
ᅰ	134
ᅱ	135
ᅲ	136
ᅳ	137
ᅴ	138
ᅵ	139
ᆨ	140
ᆩ	141
ᆪ	142
ᆫ	143
ᆬ	144
ᆭ	145
ᆮ	146
ᆯ	147
ᆰ	148
ᆱ	149
ᆲ	150
ᆳ	151
ᆴ	152
ᆵ	153
ᆶ	154
ᆷ	155
ᆸ	156
ᆹ	157
ᆺ	158
ᆻ	159
ᆼ	160
ᆽ	161
ᆾ	162
ᆿ	163
ᇀ	164
ᇁ	165
ᇂ	166
ㄱ	167
ㄲ	168
ㄳ	169
ㄴ	170
ㄵ	171
ㄶ	172
ㄷ	173
ㄸ	174
ㄹ	175
ㄺ	176
ㄻ	177
ㄼ	178
ㄽ	179
ㄾ	180
ㄿ	181
ㅀ	182
ㅁ	183
ㅂ	184
ㅃ	185
ㅄ	186
ㅅ	187
ㅆ	188
ㅇ	189
ㅈ	190
ㅉ	191
ㅊ	192
ㅋ	193
ㅌ	194
ㅍ	195
ㅎ	196
ㅏ	197
ㅐ	198
ㅑ	199
ㅒ	200
ㅓ	201
ㅔ	202
ㅕ	203
ㅖ	204
ㅗ	205
ㅘ	206
ㅙ	207
ㅚ	208
ㅛ	209
ㅜ	210
ㅝ	211
ㅞ	212
ㅟ	213
ㅠ	214
ㅡ	215
ㅢ	216
ㅣ	217
가	218
각	219
간	220
감	221
갑	222
갓	223
갔	224
강	225
같	226
개	227
거	228
건	229
걸	230
것	231
겄	232
게	233
겐	234
겟	235
겠	236
겨	237
곈	238
고	239
곡	240
곤	241
곰	242
곳	243
공	244
과	245
관	246
괴	247
교	248
구	249
군	250
굽	251
규	252
그	253
근	254
금	255
긋	256
긔	257
기	258
긴	259
길	260
까	261
깐	262
깝	263
깨	264
꺼	265
껀	266
껄	267
께	268
껭	269
껴	270
꼐	271
꼬	272
꾸	273
꿔	274
끄	275
끔	276
끼	277
나	278
난	279
남	280
내	281
냐	282
냔	283
냥	284
냬	285
냰	286
너	287
넌	288
네	289
넨	290
녀	291
녕	292
녜	293
노	294
논	295
놋	296
농	297
뇌	298
뇨	299
누	300
눈	301
느	302
는	303
늘	304
늠	305
능	306
늬	307
늰	308
니	309
닌	310
닛	311
닝	312
다	313
단	314
달	315
담	316
답	317
닷	318
당	319
대	320
댄	321
댑	322
댔	323
댜	324
더	325
던	326
덜	327
덧	328
덩	329
데	330
덴	331
뎁	332
뎌	333
도	334
돗	335
동	336
돠	337
되	338
두	339
둔	340
둥	341
뒈	342
드	343
득	344
든	345
들	346
듯	347
등	348
듸	349
디	350
딘	351
딩	352
따	353
떼	354
라	355
락	356
란	357
랄	358
람	359
랍	360
랏	361
랑	362
래	363
랜	364
랠	365
랩	366
랬	367
랴	368
랸	369
러	370
런	371
럴	372
럼	373
레	374
려	375
련	376
렴	377
렵	378
렷	379
렸	380
례	381
로	382
록	383
롤	384
롯	385
롱	386
롸	387
뢰	388
료	389
루	390
룩	391
류	392
르	393
른	394
를	395
리	396
린	397
릴	398
릿	399
링	400
마	401
만	402
많	403
말	404
망	405
매	406
맨	407
맹	408
먀	409
머	410
먼	411
멍	412
메	413
멘	414
며	415
면	416
모	417
목	418
몬	419
무	420
문	421
뭇	422
므	423
믄	424
미	425
민	426
바	427
밖	428
배	429
백	430
밲	431
버	432
벼	433
보	434
부	435
분	436
비	437
빈	438
뿐	439
사	440
살	441
삼	442
삽	443
상	444
새	445
샤	446
샨	447
샬	448
샴	449
샷	450
서	451
선	452
성	453
세	454
셔	455
션	456
셧	457
셨	458
셰	459
소	460
손	461
솝	462
송	463
쇠	464
쇼	465
숌	466
수	467
쉐	468
쉬	469
슈	470
스	471
슨	472
슴	473
습	474
시	475
신	476
실	477
심	478
십	479
싸	480
써	481
쎄	482
쎠	483
쏘	484
쏜	485
쑤	486
씨	487
씩	488
아	489
악	490
안	491
압	492
앗	493
았	494
앙	495
애	496
앱	497
앳	498
앴	499
야	500
약	501
얀	502
얄	503
얌	504
얏	505
얐	506
양	507
얘	508
얫	509
어	510
억	511
언	512
얼	513
엄	514
없	515
엇	516
었	517
엉	518
엊	519
에	520
엣	521
여	522
연	523
염	524
엿	525
였	526
영	527
예	528
옛	529
오	530
옥	531
온	532
올	533
옵	534
옷	535
와	536
완	537
왇	538
외	539
요	540
욘	541
욜	542
욤	543
욧	544
용	545
우	546
운	547
울	548
움	549
워	550
원	551
웓	552
월	553
웨	554
웬	555
웰	556
위	557
유	558
윤	559
윰	560
으	561
은	562
을	563
음	564
읍	565
응	566
의	567
이	568
인	569
일	570
잇	571
있	572
잉	573
자	574
작	575
잔	576
잖	577
잘	578
잡	579
장	580
재	581
쟈	582
쟛	583
쟤	584
저	585
정	586
제	587
젠	588
져	589
조	590
좁	591
좋	592
죠	593
죵	594
주	595
쥬	596
즈	597
즉	598
지	599
직	600
진	601
징	602
쩌	603
찌	604
차	605
처	606
치	607
침	608
카	609
캉	610
캤	611
커	612
케	613
코	614
쿠	615
큼	616
키	617
타	618
터	619
텀	620
텅	621
테	622
텨	623
투	624
튼	625
티	626
파	627
프	628
피	629
하	630
한	631
허	632
헌	633
혀	634
히	635
##ᅩ	636
##ᆷ	637
##ᄑ	638
##ᅡ	639
##ᆫ	640
##ᄐ	641
##ᅳ	642
##ᆯ	643
##ᄅ	644
##ᅵ	645
##ᄋ	646
##ᅪ	647
##ᄇ	648
##n	649
##c	650
##l	651
##o	652
##s	653
##e	654
##8	655
##2	656
##p	657
##h	658
##b	659
##i	660
##a	661
##r	662
##ᄎ	663
##ᅦ	664
##ᄌ	665
##ᄉ	666
##ᅥ	667
##ᆼ	668
##ᄃ	669
##P	670
##E	671
##A	672
##u	673
##ᄒ	674
##ᅢ	675
##ᄁ	676
##ᅮ	677
##ᄀ	678
##ᆨ	679
##t	680
##H	681
##I	682
##N	683
##Y	684
##ᄏ	685
##z	686
##S	687
##F	688
##4	689
##1	690
##3	691
##6	692
##9	693
##7	694
##d	695
##k	696
##M	697
##f	698
##ᇂ	699
##ᄂ	700
##R	701
##5	702
##0	703
##x	704
##g	705
##m	706
##ᅨ	707
##ᅧ	708
##ᅣ	709
##ᆶ	710
##ᅯ	711
##G	712
##ᅲ	713
##y	714
##v	715
##D	716
##K	717
##q	718
##X	719
##ᄆ	720
##ᆺ	721
##ᅭ	722
##w	723
##O	724
##T	725
##냐	726
##면	727
##서	728
##W	729
##ᄊ	730
##L	731
##V	732
##ᅬ	733
##ᆭ	734
##ᆹ	735
##j	736
##Z	737
##ᆩ	738
##래	739
##ᅴ	740
##ᆮ	741
##C	742
##Q	743
##.	744
##ᆽ	745
##ᆸ	746
##ᅱ	747
##ㅖ	748
##ㅄ	749
##:	750
##J	751
##ᆪ	752
##U	753
##B	754
##ᆻ	755
##ᇁ	756
##ᅰ	757
##ᄄ	758
##ㅡ	759
##ㄴ	760
##ᄍ	761
##ㄵ	762
##ᅤ	763
##-	764
##*	765
##ᄈ	766
##ᇀ	767
##ᆿ	768
##ㅘ	769
##ㅏ	770
##ᆰ	771
##ㅍ	772
##요	773
##_	774
##,	775
##ᆾ	776
##+	777
##니	778
##데	779
##이	780
##ᆬ	781
##ㅔ	782
##ㅆ	783
##?	784
##!	785
##]	786
##~	787
##(	788
##)	789
##\	790
##"	791
##=	792
##ㅜ	793
##ㅣ	794
##ㅓ	795
##ㅢ	796
##ᆱ	797
##}	798
###	799
##ᆲ	800
##;	801
##ㅎ	802
##&	803
##'	804
##ㅒ	805
##ㅌ	806
##ㄶ	807
##ㅇ	808
##ㅂ	809
##ㄷ	810
##ㄼ	811
##ㄻ	812
##%	813
##@	814
##ㅈ	815
##ㅊ	816
##ㅋ	817
##ㄹ	818
##ㅁ	819
##ㄱ	820
##ㅅ	821
##^	822
##ㅗ	823
##ㅛ	824
##ㄺ	825
##ㄲ	826
##ㄾ	827
##라	828
##ㅕ	829
##[	830
##ㅠ	831
##ᆳ	832
##ᆵ	833
##$	834
##ㅑ	835
##까	836
##ᅫ	837
##고	838
##{	839
##새	840
##ㅙ	841
##구	842
##더	843
##러	844
##ㅝ	845
##도	846
##디	847
##다	848
##려	849
##느	850
##ᆴ	851
##가	852
##에	853
##ㅐ	854
##ㅚ	855
##ㄳ	856
##댜	857
##네	858
##/	859
##리	860
##는	861
##>	862
##야	863
##세	864
##ㅃ	865
##ㅀ	866
##ㅟ	867
##<	868
##꾸	869
##마	870
##만	871
##께	872
##ㄽ	873
##ㅉ	874
##`	875
##랴	876
##ㅞ	877
##군	878
##사	879
##지	880
##잇	881
##ㄿ	882
##|	883
##작	884
##시	885
##와	886
##던	887
##오	888
##유	889
##끼	890
##신	891
##깐	892
##등	893
##든	894
##며	895
##들	896
##랑	897
##슈	898
##대	899
##락	900
##랜	901
##밖	902
##게	903
##란	904
##당	905
##로	906
##랍	907
##었	908
##갑	909
##뎌	910
##곤	911
##여	912
##깨	913
##거	914
##나	915
##저	916
##부	917
##터	918
##강	919
##잉	920
##겨	921
##모	922
##어	923
##즉	924
##감	925
##치	926
##자	927
##런	928
##ㄸ	929
##쇼	930
##둥	931
##노	932
##말	933
##루	934
##웨	935
##르	936
##키	937
##소	938
##기	939
##바	940
##정	941
##테	942
##믄	943
##아	944
##녀	945
##두	946
##먼	947
##손	948
##드	949
##메	950
##수	951
##록	952
##교	953
##꺼	954
##우	955
##미	956
##뎁	957
##피	958
##므	959
##은	960
##랬	961
##덩	962
##매	963
##죠	964
##듯	965
##목	966
##옵	967
##스	968
##차	969
##끔	970
##용	971
##쏜	972
##잖	973
##안	974
##걸	975
##간	976
##레	977
##껀	978
##랏	979
##셔	980
##겠	981
##워	982
##개	983
##벼	984
##근	985
##징	986
##파	987
##룩	988
##선	989
##커	990
##녕	991
##난	992
##답	993
##예	994
##를	995
##제	996
##멘	997
##성	998
##각	999
##문	1000
##그	1001
##습	1002
##담	1003
##뇨	1004
##외	1005
##듸	1006
##으	1007
##꼬	1008
##큼	1009
##단	1010
##하	1011
##쎠	1012
##련	1013
##텅	1014
##주	1015
##써	1016
##카	1017
##건	1018
##직	1019
##렷	1020
##보	1021
##댔	1022
##양	1023
##따	1024
##빈	1025
##달	1026
##무	1027
##꿔	1028
##망	1029
##료	1030
##셰	1031
##되	1032
##텨	1033
##찌	1034
##냥	1035
##늘	1036
##비	1037
##져	1038
##욧	1039
##위	1040
##닌	1041
##쟈	1042
##십	1043
##렵	1044
##댄	1045
##랄	1046
##렴	1047
##쏘	1048
##티	1049
##금	1050
##동	1051
##곳	1052
##진	1053
##닛	1054
##길	1055
##롱	1056
##람	1057
##껴	1058
##머	1059
##침	1060
##온	1061
##숌	1062
##언	1063
##텀	1064
##씨	1065
##셧	1066
##실	1067
##염	1068
##돠	1069
##논	1070
##프	1071
##놋	1072
##셨	1073
##뿐	1074
##규	1075
##옷	1076
##캤	1077
##쥬	1078
##압	1079
##슨	1080
##럼	1081
##케	1082
##공	1083
##엇	1084
##쿠	1085
##재	1086
##넌	1087
##멍	1088
##샤	1089
##굽	1090
##타	1091
##럴	1092
##덴	1093
##껄	1094
##	1095
##냔	1096
##쇠	1097
##릴	1098
##많	1099
##른	1100
##누	1101
##투	1102
##겐	1103
##싸	1104
##장	1105
##넨	1106
하	1107
이	1108
##ᅡᆼ	1109
##이	1110
##ᅡᆫ	1111
##ᅥᆫ	1112
##리	1113
##ᅩᆼ	1114
##ᅧᆫ	1115
##ᅧᆼ	1116
##ᅥᆼ	1117
##ᅳᆯ	1118
##ᅡᆯ	1119
##ᅮᆫ	1120
시	1121
##시	1122
##지	1123
##ᅡᆨ	1124
##스	1125
##ᅩᆨ	1126
아	1127
되	1128
그	1129
지	1130
있	1131
##ᅮᆯ	1132
가	1133
##하	1134
주	1135
##ᅧᆨ	1136
거	1137
에서	1138
사	1139
##ᅥᆨ	1140
으로	1141
ᆫ다	1142
##기	1143
##ᅩᆫ	1144
##ᅳᆼ	1145
##어	1146
대	1147
들	1148
어	1149
##르	1150
수	1151
기	1152
##ᅢᆼ	1153
나	1154
마	1155
보	1156
##ᅮᆨ	1157
##드	1158
##가	1159
##라	1160
##로	1161
것	1162
##ᅥᆯ	1163
자	1164
##나	1165
일	1166
##ᅯᆫ	1167
다	1168
모	1169
##ᅦ이	1170
전	1171
##ᅥᆷ	1172
##트	1173
##우	1174
##사	1175
적	1176
##치	1177
##장	1178
오	1179
##도	1180
년	1181
##ᅧᆯ	1182
바	1183
##자	1184
##대	1185
##요	1186
스	1187
##니	1188
##ᅪᆫ	1189
미	1190
정	1191
##러	1192
##그	1193
##미	1194
조	1195
20	1196
상	1197
유	1198
부	1199
##수	1200
##정	1201
##인	1202
##아	1203
화	1204
##ᅣᆼ	1205
##오	1206
공	1207
비	1208
##주	1209
##상	1210
때	1211
##전	1212
##ᅢᆨ	1213
위	1214
##히	1215
중	1216
인	1217
##화	1218
제	1219
경	1220
##국	1221
고	1222
##용	1223
차	1224
도	1225
##제	1226
##ᅯᆯ	1227
##력	1228
##키	1229
한	1230
소	1231
무	1232
##구	1233
##성	1234
노	1235
##신	1236
##부	1237
세	1238
##고	1239
없	1240
##ᅳᆷ	1241
등	1242
성	1243
##문	1244
지만	1245
여	1246
##래	1247
##ᅥᆸ	1248
월	1249
않	1250
##원	1251
개	1252
##동	1253
##ᅳᆨ	1254
만	1255
##격	1256
에게	1257
##마	1258
##터	1259
타	1260
구	1261
##타	1262
내	1263
리	1264
동	1265
201	1266
피	1267
##간	1268
선	1269
장	1270
방	1271
연	1272
##비	1273
##거	1274
##다	1275
후	1276
##즈	1277
##유	1278
##ᅦᆯ	1279
영	1280
##ᅦᆫ	1281
카	1282
발	1283
드	1284
우	1285
치	1286
말	1287
신	1288
##체	1289
요	1290
당	1291
생	1292
안	1293
##소	1294
버	1295
##작	1296
##야	1297
##ᅪᆼ	1298
##크	1299
##명	1300
의	1301
##무	1302
##계	1303
는데	1304
서	1305
##ᅵᆷ	1306
##ᆯ리	1307
19	1308
추	1309
포	1310
파	1311
크	1312
##서	1313
원	1314
명	1315
##일	1316
회	1317
##재	1318
때문	1319
까지	1320
강	1321
해	1322
##보	1323
##식	1324
##위	1325
##의	1326
##00	1327
##티	1328
아서	1329
##들	1330
최	1331
##만	1332
##루	1333
##당	1334
##후	1335
문	1336
##카	1337
##프	1338
매	1339
배	1340
아니	1341
더	1342
##음	1343
데	1344
같	1345
실	1346
관	1347
번	1348
##교	1349
##선	1350
##물	1351
받	1352
##행	1353
라고	1354
호	1355
불	1356
코	1357
라는	1358
진	1359
##학	1360
##회	1361
단	1362
##역	1363
##실	1364
결	1365
프	1366
##능	1367
##내	1368
##단	1369
라	1370
반	1371
초	1372
##ᅡᆯ리	1373
##공	1374
많	1375
##한	1376
패	1377
##디	1378
특	1379
로	1380
역	1381
작	1382
으며	1383
##람	1384
##토	1385
다고	1386
야	1387
##모	1388
나오	1389
##속	1390
##피	1391
계	1392
##반	1393
##버	1394
면서	1395
분	1396
##과	1397
보이	1398
##려	1399
쓰	1400
##점	1401
##레	1402
레	1403
국	1404
남	1405
##산	1406
##분	1407
##조	1408
##ᅳᆫ	1409
##생	1410
그리	1411
그러	1412
10	1413
두	1414
경우	1415
다르	1416
##각	1417
처	1418
사용	1419
출	1420
##차	1421
현	1422
##두	1423
##본	1424
어서	1425
에	1426
##레이	1427
##진	1428
##연	1429
물	1430
다는	1431
##중	1432
저	1433
##류	1434
공격	1435
##관	1436
이후	1437
##호	1438
예	1439
교	1440
##안	1441
캐	1442
따	1443
##태	1444
통	1445
##면	1446
알	1447
자신	1448
감	1449
학	1450
또	1451
재	1452
못	1453
점	1454
##민	1455
##군	1456
애	1457
편	1458
##세	1459
##영	1460
##코	1461
##런	1462
좋	1463
##노	1464
사람	1465
트	1466
##바	1467
위하	1468
##름	1469
디	1470
##해	1471
키	1472
입	1473
##급	1474
##경	1475
대하	1476
##저	1477
##방	1478
##금	1479
##법	1480
##ᅮᆷ	1481
정도	1482
##발	1483
##적	1484
##브	1485
##종	1486
메	1487
속	1488
부터	1489
형	1490
설	1491
너	1492
함	1493
##업	1494
과	1495
군	1496
##통	1497
##포	1498
##스트	1499
##록	1500
참	1501
##습	1502
김	1503
##양	1504
플	1505
가능	1506
게이	1507
평	1508
외	1509
##승	1510
토	1511
##매	1512
본	1513
##론	1514
다른	1515
##술	1516
시키	1517
종	1518
##파	1519
##료	1520
##준	1521
권	1522
12	1523
##직	1524
승	1525
##건	1526
##녀	1527
200	1528
가지	1529
으나	1530
이나	1531
##심	1532
팀	1533
죽	1534
직	1535
뒤	1536
##션	1537
등장	1538
##투	1539
##입	1540
##표	1541
는다	1542
11	1543
아이	1544
히	1545
보다	1546
용	1547
판	1548
그리고	1549
확	1550
##어지	1551
체	1552
하나	1553
행	1554
게임	1555
버리	1556
변	1557
경기	1558
운	1559
심	1560
##운	1561
돌	1562
..	1563
##여	1564
만들	1565
맞	1566
##개	1567
##판	1568
##약	1569
박	1570
##족	1571
##테	1572
못하	1573
살	1574
끄	1575
채	1576
##er	1577
##석	1578
잘	1579
##데	1580
간	1581
활	1582
달	1583
##설	1584
투	1585
##랑	1586
##령	1587
사실	1588
집	1589
##형	1590
시간	1591
##황	1592
##량	1593
##너	1594
다가	1595
목	1596
양	1597
건	1598
약	1599
##련	1600
##출	1601
사이	1602
##합	1603
필	1604
네	1605
각	1606
##향	1607
##츠	1608
##릭	1609
높	1610
##께	1611
시작	1612
테	1613
##란	1614
모드	1615
표	1616
##현	1617
루	1618
##청	1619
##품	1620
일본	1621
##추	1622
새	1623
##망	1624
태	1625
왕	1626
이름	1627
##복	1628
이상	1629
##것	1630
##더	1631
함께	1632
언	1633
모습	1634
##절	1635
열	1636
존	1637
따르	1638
##니다	1639
순	1640
##언	1641
베	1642
##외	1643
##게	1644
독	1645
증	1646
상대	1647
##어나	1648
15	1649
한국	1650
프로	1651
문제	1652
##지만	1653
##환	1654
브	1655
##울	1656
음	1657
##머	1658
천	1659
총	1660
##ᅳᆯ리	1661
병	1662
거나	1663
##in	1664
손	1665
효	1666
##네	1667
##임	1668
잡	1669
##독	1670
으면	1671
하지만	1672
터	1673
##스터	1674
능	1675
생각	1676
별	1677
완	1678
##ᅵᆨ	1679
힘	1680
##즌	1681
또한	1682
##립	1683
다시	1684
##송	1685
끝	1686
##병	1687
항	1688
가장	1689
막	1690
##목	1691
복	1692
##천	1693
폭	1694
근	1695
광	1696
##ᆯ라	1697
##배	1698
##험	1699
스키	1700
들어	1701
식	1702
및	1703
시즌	1704
당시	1705
날	1706
##럽	1707
티	1708
플레이	1709
캐릭	1710
삼	1711
##대로	1712
18	1713
누	1714
##막	1715
아야	1716
산	1717
ᆫ데	1718
먹	1719
듯	1720
##on	1721
##락	1722
처럼	1723
싸	1724
당하	1725
캐릭터	1726
검	1727
##년	1728
능력	1729
빠	1730
모두	1731
ᆫ지	1732
니	1733
##쪽	1734
##색	1735
##결	1736
백	1737
충	1738
민	1739
임	1740
상황	1741
상태	1742
##ᅧᆸ	1743
블	1744
길	1745
##근	1746
모든	1747
레이	1748
그렇	1749
##퍼	1750
아도	1751
느	1752
##or	1753
금	1754
##감	1755
세계	1756
##질	1757
##ᆫ드	1758
선수	1759
추가	1760
##악	1761
앞	1762
##an	1763
##초	1764
라이	1765
머	1766
16	1767
결국	1768
##벨	1769
커	1770
친	1771
곡	1772
##담	1773
##탄	1774
현재	1775
합	1776
카드	1777
##등	1778
##미지	1779
스킬	1780
##쿠	1781
업	1782
##케	1783
다음	1784
슈	1785
쿠	1786
얼	1787
##살	1788
통하	1789
##쟁	1790
##편	1791
지역	1792
넘	1793
악	1794
##메	1795
##함	1796
##남	1797
미국	1798
ᆫ다는	1799
많이	1800
##말	1801
전투	1802
그러나	1803
30	1804
쉬	1805
효과	1806
급	1807
존재	1808
##라이	1809
다만	1810
눈	1811
13	1812
취	1813
첫	1814
199	1815
##에	1816
여기	1817
시리	1818
허	1819
청	1820
##항	1821
##택	1822
14	1823
##접	1824
법	1825
엔	1826
매우	1827
##예	1828
북	1829
##ar	1830
황	1831
페	1832
창	1833
이러	1834
대학	1835
클	1836
##견	1837
17	1838
##강	1839
##존	1840
바ᄁ	1841
절	1842
##냥	1843
뜨	1844
##ᅥᆯ어지	1845
이ᄇ	1846
달리	1847
째	1848
극	1849
기록	1850
골	1851
##글	1852
##처	1853
얻	1854
##he	1855
의하	1856
##범	1857
그런	1858
철	1859
상당	1860
##패	1861
##at	1862
인하	1863
스타	1864
시리즈	1865
게	1866
찾	1867
레벨	1868
##집	1869
기술	1870
ᄇ니다	1871
##ᅮᆼ	1872
괴	1873
이유	1874
##움	1875
##득	1876
여러	1877
처음	1878
##규	1879
올리	1880
어ᄄ	1881
무기	1882
엄	1883
이용	1884
영화	1885
물론	1886
그래	1887
##왕	1888
##와	1889
##별	1890
부르	1891
놓	1892
방송	1893
난	1894
은	1895
다면	1896
자체	1897
곳	1898
100	1899
이것	1900
환	1901
팬	1902
해당	1903
##템	1904
필요	1905
줄	1906
##널	1907
##커	1908
워	1909
이런	1910
##워	1911
실제	1912
##곡	1913
25	1914
일반	1915
규	1916
##열	1917
##ᅧᆾ	1918
들어가	1919
귀	1920
탈	1921
모르	1922
주인	1923
마법	1924
ᆫ다고	1925
리그	1926
##은	1927
거의	1928
돌아	1929
어야	1930
꼬	1931
##끼	1932
학교	1933
##거리	1934
역시	1935
##느	1936
혼	1937
범	1938
바로	1939
##달	1940
스ᄐ	1941
사건	1942
##틀	1943
##en	1944
잠	1945
##으	1946
나가	1947
관련	1948
특히	1949
같이	1950
위치	1951
유니	1952
##착	1953
기본	1954
축	1955
2017	1956
부분	1957
와	1958
##롭	1959
즉	1960
붙	1961
대표	1962
##박	1963
국가	1964
진행	1965
류	1966
##ou	1967
##야기	1968
피해	1969
겨	1970
면	1971
##부분	1972
제작	1973
2018	1974
##칭	1975
탄	1976
격	1977
글	1978
방어	1979
아무	1980
이야기	1981
담	1982
##례	1983
##창	1984
활동	1985
마지	1986
##권	1987
동안	1988
##찰	1989
는지	1990
없이	1991
가ᄁ	1992
알리	1993
##육	1994
좀	1995
메이	1996
##난	1997
인간	1998
작품	1999
밝	2000
##변	2001
웨	2002
걸	2003
증가	2004
대부분	2005
싶	2006
##시아	2007
일부	2008
##때	2009
접	2010
준	2011
##al	2012
둘	2013
래	2014
##괴	2015
##페	2016
풀	2017
##ᆨ스	2018
마지막	2019
뿐	2020
쉽	2021
비스	2022
##찬	2023
엘	2024
2019	2025
씨	2026
##혼	2027
몸	2028
##ᆯ러	2029
암	2030
지나	2031
본인	2032
계속	2033
자기	2034
##활	2035
21	2036
러	2037
##es	2038
##렵	2039
감독	2040
ᆫ가	2041
서울	2042
떨어지	2043
##극	2044
몇	2045
우리	2046
샤	2047
##광	2048
몬	2049
생기	2050
##ᇂ게	2051
내용	2052
##애	2053
관계	2054
흐	2055
2016	2056
중국	2057
벌	2058
맡	2059
##린	2060
##률	2061
##철	2062
헤	2063
##순	2064
##희	2065
팔	2066
넣	2067
50	2068
주인공	2069
속도	2070
##월	2071
덕	2072
이전	2073
##전히	2074
참고	2075
대신	2076
##베	2077
수준	2078
전쟁	2079
##없	2080
타이	2081
오르	2082
##징	2083
##리스	2084
나이	2085
쪽	2086
그냥	2087
비슷	2088
어도	2089
어느	2090
##응	2091
##턴	2092
까	2093
##블	2094
질	2095
으니	2096
##날	2097
기준	2098
비하	2099
지금	2100
희	2101
성공	2102
22	2103
198	2104
대한	2105
도시	2106
강하	2107
##ᅦ인	2108
만나	2109
홍	2110
협	2111
라면	2112
##민국	2113
스토	2114
낮	2115
##ᅦ이스	2116
논	2117
도록	2118
이루	2119
##탈	2120
밝히	2121
##돌	2122
뛰	2123
멀	2124
짜	2125
떠	2126
인물	2127
##불	2128
울	2129
그녀	2130
슬	2131
배우	2132
##율	2133
##벌	2134
결과	2135
24	2136
최대	2137
연구	2138
자리	2139
##증	2140
지원	2141
습니다	2142
##랴	2143
##ᅦᆫ트	2144
뉴	2145
상당히	2146
밀	2147
기사	2148
공격력	2149
올라	2150
평가	2151
홈	2152
##슨	2153
##ᆷ버	2154
시절	2155
##할	2156
##온	2157
육	2158
##플	2159
##it	2160
그대로	2161
빠르	2162
##략	2163
대한민국	2164
나타	2165
의미	2166
##림	2167
너무	2168
온	2169
##버지	2170
몰	2171
제외	2172
므로	2173
보스	2174
##축	2175
죽이	2176
##씨	2177
망	2178
측	2179
##백	2180
로서	2181
##부터	2182
소속	2183
전체	2184
실제로	2185
##책	2186
##북	2187
##ᅦ이지	2188
향	2189
##리아	2190
23	2191
봉	2192
보내	2193
2015	2194
승리	2195
직접	2196
##귀	2197
이미	2198
##라지	2199
##ᆯ로	2200
##을	2201
퍼	2202
개발	2203
원래	2204
여자	2205
영상	2206
그것	2207
##획	2208
어렵	2209
##념	2210
##큼	2211
언급	2212
##굴	2213
유닛	2214
체력	2215
000	2216
묘	2217
마다	2218
##st	2219
##ing	2220
##le	2221
갖	2222
##앙	2223
##ic	2224
##학교	2225
멤버	2226
갈	2227
휴	2228
츠	2229
포함	2230
데미지	2231
이동	2232
책	2233
유저	2234
정보	2235
머리	2236
##가지	2237
40	2238
마음	2239
방법	2240
##ᆷ피	2241
##는	2242
설정	2243
##re	2244
싸우	2245
맨	2246
문서	2247
컨	2248
선택	2249
애니	2250
뜻	2251
과거	2252
차이	2253
씩	2254
ᆫ다면	2255
##늘	2256
센	2257
출연	2258
##평	2259
쇼	2260
깨	2261
##슬	2262
님	2263
##운드	2264
가까	2265
농	2266
불리	2267
던	2268
석	2269
듣	2270
침	2271
송	2272
왜	2273
사회	2274
몬스터	2275
##ᅦ이션	2276
##몬	2277
파이	2278
친구	2279
성우	2280
발매	2281
##욱	2282
돈	2283
##누	2284
##닝	2285
압	2286
설명	2287
우승	2288
프리	2289
빼	2290
갑	2291
여성	2292
대상	2293
##dd	2294
거리	2295
탑	2296
혹	2297
뭐	2298
발생	2299
##델	2300
##총	2301
최고	2302
##봉	2303
##짜	2304
동시	2305
##딩	2306
시대	2307
엄청	2308
소리	2309
플레이어	2310
바람	2311
어ᄍ	2312
장면	2313
아버지	2314
공식	2315
마이	2316
버전	2317
힘들	2318
사망	2319
프랑	2320
사랑	2321
대회	2322
칼	2323
##침	2324
즈	2325
영향	2326
##팅	2327
바뀌	2328
##주의	2329
유명	2330
##웅	2331
2014	2332
주로	2333
스럽	2334
##켓	2335
결정	2336
##랜드	2337
또는	2338
주장	2339
층	2340
답	2341
역사	2342
어떠	2343
색	2344
궁	2345
남자	2346
출신	2347
구성	2348
26	2349
꽤	2350
##la	2351
려고	2352
정부	2353
인터	2354
일어나	2355
조금	2356
푸	2357
콘	2358
운영	2359
학생	2360
유지	2361
공개	2362
28	2363
음악	2364
나라	2365
버스	2366
##ff	2367
걸리	2368
초반	2369
##염	2370
아이템	2371
빠지	2372
오래	2373
섬	2374
서로	2375
정치	2376
중요	2377
독일	2378
전부	2379
##밀	2380
새롭	2381
27	2382
대사	2383
방식	2384
##쉬	2385
르	2386
과정	2387
시스	2388
the	2389
##ᅦ일	2390
월드	2391
스토리	2392
##el	2393
노래	2394
파괴	2395
나타나	2396
31	2397
형태	2398
##갑	2399
최초	2400
억	2401
강화	2402
자주	2403
역할	2404
제대로	2405
만큼	2406
후반	2407
##컬	2408
쏘	2409
이때	2410
아직	2411
영국	2412
##랙	2413
최종	2414
##쁘	2415
밖	2416
대전	2417
다니	2418
휘	2419
##am	2420
좌	2421
##필	2422
##om	2423
##벽	2424
아래	2425
싱	2426
착	2427
##우스	2428
마리	2429
쓰이	2430
##머니	2431
변경	2432
끼	2433
딜	2434
찍	2435
바이	2436
뽀	2437
강력	2438
##클	2439
폐	2440
누구	2441
##확	2442
이벤트	2443
##얼	2444
기존	2445
회복	2446
##곤	2447
볼	2448
정말	2449
##잡	2450
##맨	2451
##객	2452
197	2453
조선	2454
##측	2455
비교	2456
##먹	2457
보통	2458
잔	2459
##is	2460
##다가	2461
##프트	2462
그런데	2463
정신	2464
느끼	2465
드래	2466
어떤	2467
마을	2468
마찬	2469
마찬가지	2470
##아가	2471
이기	2472
소환	2473
인기	2474
특성	2475
데이	2476
발견	2477
링	2478
노선	2479
라도	2480
앨	2481
행동	2482
당연	2483
성능	2484
늘	2485
##뜨	2486
엄청나	2487
2013	2488
드라	2489
##번	2490
다이	2491
움	2492
프랑스	2493
확률	2494
윤	2495
교육	2496
먼	2497
속성	2498
##덕	2499
바꾸	2500
풍	2501
##훈	2502
슈퍼	2503
아들	2504
올	2505
모양	2506
자유	2507
##퇴	2508
##풍	2509
오히	2510
##이도	2511
대로	2512
이제	2513
차량	2514
대학교	2515
가깝	2516
오히려	2517
29	2518
##휘	2519
라인	2520
##라도	2521
##너지	2522
하이	2523
차지	2524
##억	2525
##et	2526
##렌	2527
끌	2528
부족	2529
문화	2530
짓	2531
사라지	2532
32	2533
술	2534
확인	2535
특수	2536
##손	2537
##ol	2538
활약	2539
게다가	2540
케	2541
이번	2542
생산	2543
관리	2544
##ion	2545
유일	2546
시스템	2547
끝나	2548
녹	2549
모델	2550
00	2551
2012	2552
성격	2553
##웨	2554
응	2555
제국	2556
수록	2557
흑	2558
스트	2559
액	2560
장비	2561
따라	2562
##답	2563
##디오	2564
내리	2565
고등	2566
##혀	2567
훈	2568
입장	2569
구하	2570
흔	2571
영웅	2572
맞추	2573
선거	2574
아예	2575
빛	2576
일단	2577
축구	2578
이렇게	2579
##지어	2580
##ᆫ스	2581
##폭	2582
어리	2583
숨	2584
득	2585
##숙	2586
계획	2587
운동	2588
맵	2589
돌아오	2590
반대	2591
뽑	2592
##골	2593
##램	2594
2010	2595
202	2596
획	2597
에피	2598
경찰	2599
들어오	2600
주변	2601
먼저	2602
##레스	2603
기간	2604
우주	2605
자동	2606
심지어	2607
앨범	2608
위원	2609
개인	2610
km	2611
기능	2612
완전히	2613
##레이드	2614
조건	2615
그루	2616
스ᄑ	2617
##통령	2618
##새	2619
사진	2620
거기	2621
중심	2622
##럼	2623
적용	2624
건물	2625
애니ᄆ	2626
##nd	2627
지구	2628
드러	2629
부대	2630
뮤	2631
##ow	2632
##ᅢᆼ크	2633
##엇	2634
##옥	2635
감소	2636
어요	2637
##il	2638
60	2639
##ᆨ트	2640
떠나	2641
으로서	2642
난이도	2643
##ig	2644
잃	2645
중앙	2646
발동	2647
##멸	2648
##ed	2649
##든	2650
현대	2651
##곳	2652
견	2653
회사	2654
초기	2655
열리	2656
자세	2657
실패	2658
지방	2659
##롯	2660
##ᅦ이트	2661
어디	2662
시기	2663
대통령	2664
참여	2665
혹은	2666
##니아	2667
설치	2668
##져	2669
196	2670
지키	2671
##뷔	2672
35	2673
그래서	2674
##균	2675
##튼	2676
세트	2677
표현	2678
작가	2679
드라마	2680
프로그	2681
##뢰	2682
민주	2683
##충	2684
돌아가	2685
라며	2686
클리	2687
물리	2688
다양	2689
국내	2690
##ᅩᆾ	2691
덕분	2692
##엘	2693
듀	2694
##ᆼ장	2695
얼굴	2696
##탁	2697
기관	2698
전혀	2699
##먼	2700
데뷔	2701
TV	2702
반응	2703
동일	2704
지속	2705
##익	2706
출시	2707
패배	2708
맥	2709
##웃	2710
처리	2711
칸	2712
오브	2713
인정	2714
원작	2715
발표	2716
하루	2717
##압	2718
판매	2719
도움	2720
순간	2721
##ac	2722
모으	2723
획득	2724
##슈	2725
##as	2726
애니메이션	2727
그룹	2728
퇴	2729
얼마	2730
무엇	2731
날리	2732
of	2733
##버스	2734
구조	2735
크로	2736
명칭	2737
헌	2738
담당	2739
요구	2740
더라도	2741
후보	2742
##BS	2743
컴	2744
정확	2745
생활	2746
2011	2747
꾸	2748
##룡	2749
특별	2750
##없이	2751
땅	2752
##나마	2753
진출	2754
벨	2755
시점	2756
그렇게	2757
넘어	2758
굉장	2759
롭	2760
밖에	2761
선발	2762
탐	2763
족	2764
작중	2765
단계	2766
##리카	2767
영어	2768
상승	2769
국제	2770
##아내	2771
기억	2772
움직	2773
만화	2774
경제	2775
핵	2776
가격	2777
습	2778
그림	2779
아군	2780
##ve	2781
항목	2782
##비스	2783
##들이	2784
##럭	2785
Lv	2786
밤	2787
빌	2788
##죄	2789
올라가	2790
##므로	2791
##링	2792
##소드	2793
세우	2794
마스터	2795
##욕	2796
The	2797
아마	2798
##싸	2799
시장	2800
실력	2801
##놓	2802
세이	2803
량	2804
그나마	2805
미치	2806
으므로	2807
졸	2808
가족	2809
참가	2810
로부터	2811
헬	2812
특징	2813
야구	2814
아르	2815
드래곤	2816
수비	2817
대체	2818
다며	2819
낙	2820
계약	2821
##채	2822
찌	2823
았었	2824
턴	2825
킹	2826
방향	2827
##탕	2828
이거	2829
사고	2830
딸	2831
01	2832
##넷	2833
경험	2834
2000	2835
고려	2836
려는	2837
범위	2838
러시아	2839
연기	2840
아주	2841
##ot	2842
덱	2843
프로그램	2844
밀리	2845
맛	2846
시청	2847
디자	2848
##소리	2849
##스크	2850
##뜨리	2851
남기	2852
숙	2853
##찮	2854
##이드	2855
세대	2856
묘사	2857
퀘	2858
어머니	2859
500	2860
패치	2861
확실	2862
지니	2863
발사	2864
한테	2865
고등학교	2866
결혼	2867
조차	2868
주의	2869
폭발	2870
믿	2871
##으키	2872
에피소드	2873
80	2874
트리	2875
딱	2876
##덤	2877
활용	2878
##맹	2879
굴	2880
브라	2881
각각	2882
목적	2883
피하	2884
비판	2885
보호	2886
##효	2887
던지	2888
어떻게	2889
##ad	2890
더욱	2891
이ᄁ	2892
준비	2893
상위	2894
무시	2895
##밍	2896
제공	2897
중간	2898
세기	2899
나무	2900
이르	2901
라서	2902
이어지	2903
##못	2904
인구	2905
주요	2906
국민	2907
빈	2908
조사	2909
37	2910
챔피	2911
심하	2912
45	2913
과학	2914
194	2915
조직	2916
유럽	2917
오리	2918
쿨	2919
위험	2920
펼	2921
이미지	2922
묻	2923
라운드	2924
##궁	2925
히로	2926
패턴	2927
##혹	2928
버프	2929
굉장히	2930
이루어지	2931
내려	2932
옆	2933
단순	2934
크리스	2935
전하	2936
##인트	2937
염	2938
참조	2939
진짜	2940
St	2941
생명	2942
죄	2943
전문	2944
꿈	2945
##ᅦ임	2946
##검	2947
스ᄏ	2948
다루	2949
시도	2950
스피	2951
##뷰	2952
거치	2953
세력	2954
흡	2955
꺼	2956
##틴	2957
##칙	2958
약하	2959
가리	2960
대미지	2961
혼자	2962
싸움	2963
일으키	2964
##갈	2965
##씬	2966
구간	2967
불구	2968
지하	2969
율	2970
연속	2971
현실	2972
##머지	2973
나머지	2974
나쁘	2975
여담	2976
아프	2977
할	2978
타입	2979
파워	2980
욕	2981
ᆯ지	2982
론	2983
흥	2984
유리	2985
for	2986
안타	2987
소모	2988
출전	2989
돕	2990
##id	2991
부산	2992
케이	2993
성장	2994
순위	2995
익	2996
조합	2997
규모	2998
웃	2999
약간	3000
논란	3001
동료	3002
70	3003
오프	3004
한정	3005
포인트	3006
사실상	3007
항공	3008
클래	3009
##아오	3010
지도	3011
괘	3012
훨	3013
노리	3014
여전히	3015
디자인	3016
뛰어나	3017
기타	3018
운행	3019
##ay	3020
##섭	3021
##혁	3022
폴	3023
분위	3024
바라	3025
연결	3026
이해	3027
즐	3028
무장	3029
##나라	3030
90	3031
09	3032
##스로	3033
한편	3034
195	3035
징	3036
FC	3037
소설	3038
##협	3039
자연	3040
학년	3041
분위기	3042
훨씬	3043
예정	3044
취급	3045
으면서	3046
성적	3047
일정	3048
린	3049
부상	3050
쌍	3051
당연히	3052
등급	3053
사업	3054
블랙	3055
2009	3056
투수	3057
##ER	3058
튀	3059
센터	3060
얘	3061
태어나	3062
읽	3063
마치	3064
싫	3065
02	3066
##ch	3067
벽	3068
기대	3069
해결	3070
향하	3071
변화	3072
mm	3073
연합	3074
플래	3075
##닥	3076
가스	3077
##러지	3078
삼성	3079
##ᅡᆯ리아	3080
옥	3081
##킹	3082
계열	3083
##빈	3084
가져	3085
엔딩	3086
##us	3087
그래도	3088
##ᆫ쪽	3089
최근	3090
##혜	3091
추정	3092
300	3093
똑	3094
##완	3095
2008	3096
방영	3097
##ir	3098
콤	3099
발전	3100
03	3101
방면	3102
스테이지	3103
어두	3104
괜	3105
짧	3106
률	3107
수정	3108
칭	3109
종류	3110
의견	3111
##받	3112
48	3113
곧	3114
미션	3115
배치	3116
##낌	3117
##스타	3118
##엄	3119
기에	3120
표기	3121
도망	3122
33	3123
##짝	3124
잘못	3125
##혈	3126
전용	3127
##폰	3128
##척	3129
자면	3130
ᆯ까	3131
털	3132
독립	3133
##다리	3134
그거	3135
36	3136
정상	3137
벗	3138
##렉	3139
##ur	3140
05	3141
퀘스트	3142
속하	3143
척	3144
터지	3145
작전	3146
소녀	3147
수상	3148
탓	3149
거대	3150
안정	3151
##텐	3152
대화	3153
엔진	3154
변하	3155
철도	3156
품	3157
직업	3158
수도	3159
종료	3160
나중	3161
08	3162
끊	3163
움직이	3164
충분	3165
##참	3166
죽음	3167
요소	3168
스스로	3169
스카	3170
챔피언	3171
##티브	3172
도중	3173
큐	3174
##둥	3175
십	3176
##샤	3177
언제	3178
캠	3179
##파이	3180
비행	3181
##취	3182
##륙	3183
07	3184
##액	3185
올라오	3186
에너지	3187
세상	3188
넘어가	3189
펼치	3190
기업	3191
##암	3192
나누	3193
붙이	3194
관하	3195
##란드	3196
공연	3197
##볼	3198
동물	3199
특정	3200
지내	3201
##른	3202
건설	3203
비롯	3204
달성	3205
##같	3206
지지	3207
##센	3208
##od	3209
일행	3210
느낌	3211
로보	3212
벌이	3213
행정	3214
벌어지	3215
##BC	3216
훈련	3217
전기	3218
싱글	3219
당신	3220
보상	3221
만드	3222
솔	3223
HP	3224
굳	3225
전설	3226
미사	3227
##ᆩ이	3228
졸업	3229
렌	3230
녀	3231
무리	3232
팩	3233
빅	3234
력	3235
장착	3236
##im	3237
남성	3238
신경	3239
방어력	3240
만큼	3241
##..	3242
런	3243
부활	3244
배틀	3245
지휘	3246
절대	3247
06	3248
로마	3249
넓	3250
위기	3251
황제	3252
삭	3253
다리	3254
관심	3255
군사	3256
th	3257
##자기	3258
##길	3259
따라서	3260
내부	3261
반면	3262
포켓	3263
틀	3264
번역	3265
제목	3266
##렬	3267
스코	3268
##뉴	3269
미래	3270
번호	3271
2007	3272
##ut	3273
공간	3274
더불	3275
거두	3276
##un	3277
요리	3278
목표	3279
서비스	3280
##어들	3281
돌리	3282
빨	3283
점수	3284
만약	3285
바르	3286
득점	3287
##컵	3288
근접	3289
시험	3290
전국	3291
가르	3292
아이돌	3293
04	3294
전차	3295
##겁	3296
마르	3297
소재	3298
충격	3299
##층	3300
의원	3301
스페	3302
##지션	3303
SK	3304
시설	3305
멸	3306
오늘	3307
인사	3308
목소리	3309
록	3310
뚜	3311
##즘	3312
홈런	3313
전사	3314
무대	3315
정체	3316
카이	3317
##튜	3318
##라고	3319
34	3320
덤	3321
##데이트	3322
사이트	3323
인도	3324
업데이트	3325
지정	3326
작업	3327
픽	3328
저지	3329
##트리	3330
분류	3331
##흥	3332
뒷	3333
올림피	3334
작곡	3335
베이	3336
놀	3337
you	3338
배경	3339
장소	3340
찬	3341
똑같	3342
가끔	3343
최소	3344
도로	3345
타격	3346
##큐	3347
##ro	3348
꽃	3349
부여	3350
빙	3351
스포	3352
셈	3353
어찌	3354
##인물	3355
교체	3356
혈	3357
링크	3358
으로써	3359
공중	3360
항상	3361
##폐	3362
##쇄	3363
##촌	3364
생존	3365
##디어	3366
냉	3367
북한	3368
높이	3369
전작	3370
##탈리아	3371
혀	3372
##닉	3373
각성	3374
맹	3375
잉	3376
벤	3377
엘리	3378
##알	3379
##다니	3380
파티	3381
이끌	3382
켄	3383
예상	3384
단체	3385
그만	3386
##트로	3387
분노	3388
정식	3389
193	3390
##너스	3391
넘기	3392
야마	3393
으려	3394
제한	3395
가수	3396
##흐	3397
##붙	3398
##ver	3399
등장인물	3400
겸	3401
##igh	3402
##ec	3403
사냥	3404
얘기	3405
##ag	3406
포켓몬	3407
마저	3408
자랑	3409
아키	3410
크리	3411
홀	3412
결승	3413
38	3414
컵	3415
랜	3416
##엽	3417
2020	3418
소개	3419
늘어나	3420
드리	3421
2006	3422
올림픽	3423
cm	3424
목록	3425
##쓰	3426
외국	3427
종족	3428
##ent	3429
쌓	3430
인터뷰	3431
기계	3432
이어	3433
악마	3434
깊	3435
##동안	3436
이탈리아	3437
개념	3438
명령	3439
수행	3440
필드	3441
75	3442
가운	3443
초등	3444
교통	3445
##드리	3446
스위	3447
아카	3448
##ᅪᆯ	3449
애초	3450
롯	3451
이외	3452
괜찮	3453
듯이	3454
ᆯ로	3455
판정	3456
타카	3457
스타일	3458
기반	3459
연출	3460
##이트	3461
정하	3462
각종	3463
in	3464
하늘	3465
병력	3466
지상	3467
클리어	3468
몽	3469
로봇	3470
군대	3471
55	3472
##콘	3473
##보이	3474
##허	3475
제일	3476
트위	3477
전반	3478
기체	3479
바다	3480
##던	3481
비용	3482
퀴	3483
카운	3484
##스티	3485
확정	3486
놀라	3487
가운데	3488
재미	3489
기동	3490
설립	3491
크기	3492
##텔	3493
옛	3494
페이	3495
##최	3496
살리	3497
##화국	3498
##뮤	3499
##ak	3500
표시	3501
인식	3502
파일	3503
옷	3504
경쟁	3505
갖추	3506
행위	3507
##리오	3508
건담	3509
정작	3510
##쿄	3511
사항	3512
평균	3513
시티	3514
레어	3515
옵	3516
##빠	3517
##um	3518
통합	3519
교수	3520
별로	3521
##젝트	3522
장갑	3523
라이브	3524
to	3525
드러나	3526
화력	3527
##러스	3528
포지션	3529
납	3530
##비아	3531
수치	3532
##겨	3533
코미	3534
니까	3535
정의	3536
료	3537
왕국	3538
뇌	3539
사격	3540
따로	3541
##까	3542
잇	3543
근처	3544
완전	3545
스티	3546
병원	3547
진화	3548
저항	3549
감정	3550
',	3551
월드컵	3552
국회	3553
폰	3554
보유	3555
누르	3556
집중	3557
##짓	3558
에이	3559
사거리	3560
란	3561
노력	3562
환경	3563
##라인	3564
혁	3565
전자	3566
비밀	3567
갑자기	3568
인천	3569
##쉽	3570
변신	3571
기회	3572
42	3573
##꾸	3574
##아들이	3575
임무	3576
##셉	3577
나름	3578
의식	3579
자원	3580
고양	3581
단점	3582
직전	3583
##친	3584
특이	3585
##르트	3586
정리	3587
띄	3588
옮	3589
##em	3590
부정	3591
제품	3592
스태	3593
단어	3594
코스	3595
오버	3596
부모	3597
vs	3598
현상	3599
탈출	3600
던전	3601
촬	3602
느리	3603
##윤	3604
냐고	3605
위원회	3606
사례	3607
콜	3608
##ST	3609
##ula	3610
어쩌	3611
압도	3612
마시	3613
놈	3614
이닝	3615
레인	3616
치료	3617
펜	3618
쯤	3619
소련	3620
##앗	3621
주제	3622
효율	3623
판단	3624
##ub	3625
아파	3626
잠시	3627
다크	3628
때리	3629
극장	3630
떨	3631
사정	3632
2005	3633
밑	3634
사무	3635
##리어	3636
촬영	3637
시전	3638
본래	3639
지배	3640
##헌	3641
붕	3642
쥬	3643
컬	3644
원인	3645
나서	3646
이쪽	3647
가문	3648
치명	3649
주민	3650
겪	3651
아스	3652
form	3653
더니	3654
정책	3655
제거	3656
요시	3657
유사	3658
도입	3659
대구	3660
옮기	3661
ㅏㅆ	3662
##000	3663
##낙	3664
##븐	3665
여행	3666
전력	3667
무슨	3668
상관	3669
밴드	3670
동생	3671
192	3672
삭제	3673
고속	3674
곤	3675
##루스	3676
주문	3677
공동	3678
##묘	3679
기념	3680
##싱	3681
실험	3682
도쿄	3683
강제	3684
해군	3685
웹	3686
파트	3687
의외	3688
책임	3689
formula	3690
##야마	3691
중학교	3692
병사	3693
##어로	3694
포기	3695
키우	3696
##째	3697
역대	3698
의사	3699
연습	3700
물건	3701
텔	3702
복귀	3703
이하	3704
##무리	3705
발언	3706
골드	3707
새로	3708
전개	3709
도전	3710
완성	3711
##ight	3712
언어	3713
음식	3714
##요일	3715
앞서	3716
고정	3717
기다리	3718
노트	3719
위력	3720
이적	3721
2004	3722
살인	3723
으로부터	3724
칠	3725
41	3726
차원	3727
공주	3728
모이	3729
접근	3730
다수	3731
직후	3732
화면	3733
점프	3734
려면	3735
레드	3736
루트	3737
확장	3738
제도	3739
##로스	3740
##섯	3741
##좌	3742
중반	3743
##학생	3744
불가	3745
전략	3746
39	3747
뿌	3748
받아들이	3749
정당	3750
도착	3751
음반	3752
끝내	3753
별명	3754
##모토	3755
선생	3756
셋	3757
가치	3758
시민	3759
사상	3760
텐	3761
나이트	3762
히어로	3763
사기	3764
정규	3765
히트	3766
빌리	3767
버티	3768
분명	3769
에게서	3770
##젤	3771
붉	3772
미니	3773
산업	3774
숨기	3775
##특	3776
잡히	3777
션	3778
엑	3779
##셀	3780
꼭	3781
쫓	3782
타임	3783
티어	3784
짐	3785
어둠	3786
##ce	3787
##퓨	3788
마나	3789
연장	3790
투표	3791
무려	3792
구역	3793
LG	3794
닥	3795
대기	3796
마사	3797
조종	3798
신체	3799
종교	3800
로드	3801
장치	3802
줄이	3803
소유	3804
일러	3805
##os	3806
자료	3807
추천	3808
아파트	3809
쥐	3810
ㅓㅆ	3811
녀석	3812
EX	3813
셰	3814
멜	3815
은데	3816
회피	3817
반드	3818
노동	3819
살아	3820
멘	3821
고대	3822
이곳	3823
구매	3824
##르크	3825
형식	3826
예전	3827
##숨	3828
##AR	3829
닌	3830
##ri	3831
빨리	3832
인터넷	3833
리더	3834
##끄	3835
##시마	3836
타이틀	3837
##그레이드	3838
업그레이드	3839
라이트	3840
탈락	3841
사령	3842
롯데	3843
아라	3844
폭탄	3845
반드시	3846
해외	3847
44	3848
##듀	3849
단지	3850
꾼	3851
교회	3852
아내	3853
미사일	3854
랭크	3855
금지	3856
학원	3857
Ch	3858
우선	3859
##찍	3860
앙	3861
수마	3862
완벽	3863
부탁	3864
심각	3865
힐	3866
달러	3867
##밥	3868
##벤	3869
클럽	3870
##AN	3871
이사	3872
2002	3873
실시	3874
이라고	3875
##역시	3876
일러스트	3877
##맥	3878
하드	3879
범죄	3880
장점	3881
검사	3882
낫	3883
191	3884
합류	3885
늦	3886
##ON	3887
추측	3888
구분	3889
##ap	3890
43	3891
##나이	3892
최강	3893
##and	3894
##몇	3895
몇몇	3896
선정	3897
99	3898
로스	3899
조정	3900
공포	3901
대장	3902
가사	3903
전통	3904
데이터	3905
차례	3906
##홍	3907
마무리	3908
취하	3909
열차	3910
요청	3911
행사	3912
No	3913
위키	3914
버그	3915
프로젝트	3916
그리스	3917
종종	3918
##덴	3919
톤	3920
선언	3921
구단	3922
스포츠	3923
탱	3924
##되	3925
연재	3926
##털	3927
점점	3928
대중	3929
##듬	3930
스페인	3931
복수	3932
##ᆨ정	3933
st	3934
수많	3935
즐기	3936
덜	3937
컴퓨	3938
가드	3939
개최	3940
개월	3941
다소	3942
서버	3943
##ᅳᆯ린	3944
##이치	3945
잭	3946
##탑	3947
재료	3948
설계	3949
보병	3950
##아하	3951
옵션	3952
##ᆯ린	3953
뉴스	3954
##십	3955
46	3956
롤	3957
조작	3958
형제	3959
##빙	3960
47	3961
폼	3962
밥	3963
kg	3964
51	3965
광고	3966
떡	3967
브레이	3968
택	3969
민족	3970
생물	3971
##첩	3972
##쳐	3973
그야	3974
입히	3975
타자	3976
마법사	3977
암살	3978
걱정	3979
포스	3980
트레이	3981
부하	3982
거부	3983
좋아하	3984
자마	3985
언론	3986
채우	3987
KBS	3988
##ter	3989
개그	3990
템	3991
연주	3992
숲	3993
##롱	3994
채널	3995
성향	3996
컴퓨터	3997
통신	3998
맺	3999
and	4000
해석	4001
으	4002
고자	4003
코드	4004
보조	4005
자마자	4006
평범	4007
고르	4008
한계	4009
##말로	4010
모자	4011
값	4012
종합	4013
##걸	4014
##죽	4015
##조건	4016
실점	4017
디스	4018
##셜	4019
아쉽	4020
기지	4021
개봉	4022
전화	4023
행성	4024
회의	4025
그야말로	4026
##맞	4027
회장	4028
##트라	4029
2003	4030
##아보	4031
52	4032
대결	4033
뻔	4034
##ul	4035
박사	4036
##ᆯ리스	4037
##FA	4038
투입	4039
아무리	4040
지적	4041
비중	4042
워낙	4043
지명	4044
가정	4045
다행	4046
원정	4047
본격	4048
미드	4049
운용	4050
한글	4051
캡	4052
자동차	4053
##아지	4054
광주	4055
위협	4056
무한	4057
정확히	4058
집단	4059
영혼	4060
소년	4061
소비	4062
인상	4063
등록	4064
실수	4065
##ᆸ히	4066
무조건	4067
##ᆺ자	4068
##op	4069
%,	4070
##무라	4071
MA	4072
##IN	4073
젊	4074
평소	4075
냐는	4076
상징	4077
페르	4078
1000	4079
굳이	4080
##ᅳᆯ링	4081
닉	4082
대응	4083
공사	4084
줄어들	4085
생성	4086
##타임	4087
##수록	4088
와중	4089
##버리	4090
##니스	4091
##몽	4092
카메	4093
대형	4094
체제	4095
##ck	4096
대비	4097
충분히	4098
통과	4099
멋	4100
##꽃	4101
혐	4102
사태	4103
태양	4104
##ation	4105
는가	4106
##의원	4107
##ᆺ수	4108
보컬	4109
조각	4110
엠	4111
아웃	4112
편성	4113
먹이	4114
##자리	4115
##콩	4116
쓸	4117
군단	4118
데스	4119
여름	4120
65	4121
다운	4122
전원	4123
보너스	4124
##로드	4125
육군	4126
150	4127
분리	4128
터미	4129
이론	4130
공항	4131
##셔	4132
대로	4133
희생	4134
긴	4135
##펜	4136
##라스	4137
개조	4138
형성	4139
분야	4140
시청자	4141
방문	4142
뿌리	4143
##ra	4144
뚫	4145
촉	4146
무사	4147
혜	4148
일종	4149
흉	4150
MBC	4151
특유	4152
기자	4153
##리트	4154
빵	4155
도망치	4156
가면	4157
제안	4158
고양이	4159
샷	4160
네이	4161
리어	4162
##ᆯ링	4163
##돈	4164
장군	4165
SP	4166
동맹	4167
깔	4168
치르	4169
봉인	4170
마력	4171
##려가	4172
떠오	4173
디지	4174
스크	4175
벗어나	4176
##엔	4177
##칸	4178
64	4179
전환	4180
II	4181
보다	4182
##톤	4183
잊	4184
##ᆫ만	4185
발음	4186
죠	4187
##꼬	4188
##ᅦ이크	4189
오리지	4190
장기	4191
가하	4192
얼마나	4193
로써	4194
반복	4195
시나	4196
장르	4197
##스케	4198
드러내	4199
점령	4200
안전	4201
의도	4202
튜	4203
##튜브	4204
##줄	4205
간단	4206
##있	4207
You	4208
하야	4209
경기도	4210
소식	4211
ㅏ서	4212
루이	4213
##꺼	4214
예선	4215
불과	4216
윈	4217
빼앗	4218
##넘	4219
랭	4220
유튜브	4221
서술	4222
##깨	4223
개선	4224
합치	4225
앉	4226
을지	4227
##시스	4228
함정	4229
유도	4230
사쿠	4231
바닥	4232
마크	4233
##려오	4234
흡수	4235
영입	4236
##텐츠	4237
초대	4238
##남도	4239
공화국	4240
갤러	4241
평화	4242
그때	4243
근데	4244
##빌	4245
##니티	4246
##오스	4247
##art	4248
400	4249
##찌	4250
코치	4251
규정	4252
괴물	4253
는다는	4254
##ᅧ보	4255
의지	4256
오토	4257
저격	4258
투자	4259
기원	4260
독자	4261
라디오	4262
비디오	4263
숫자	4264
밸	4265
블루	4266
확보	4267
예술	4268
전술	4269
액션	4270
최후	4271
원하	4272
에스	4273
수사	4274
방해	4275
가져오	4276
진입	4277
##님	4278
##나가	4279
이치	4280
따지	4281
매일	4282
##드로	4283
##풀	4284
##빛	4285
필살	4286
공략	4287
49	4288
화염	4289
비트	4290
2001	4291
미리	4292
주력	4293
인원	4294
##런스	4295
클래스	4296
그저	4297
인류	4298
적극	4299
은퇴	4300
외모	4301
보도	4302
56	4303
관통	4304
##랗	4305
트래	4306
##핑	4307
걸치	4308
흐르	4309
시내	4310
장난	4311
승부	4312
찾아오	4313
들리	4314
터미널	4315
체육	4316
지나가	4317
적절	4318
궤	4319
VS	4320
모험	4321
왼쪽	4322
목숨	4323
패러	4324
AP	4325
계기	4326
포르	4327
컨셉	4328
눈물	4329
브리	4330
In	4331
아름	4332
구축	4333
방패	4334
1990	4335
느냐	4336
상자	4337
겹	4338
작성	4339
서브	4340
자라	4341
회전	4342
##팔	4343
완료	4344
주연	4345
뮤직	4346
공부	4347
사과	4348
부수	4349
##동생	4350
트랙	4351
몹	4352
한국어	4353
편집	4354
54	4355
장관	4356
함대	4357
의심	4358
거짓	4359
아프리카	4360
53	4361
분석	4362
솔로	4363
떼	4364
##논	4365
살아남	4366
##모리	4367
##퀴	4368
오리지널	4369
저지르	4370
##나다	4371
##바이	4372
수리	4373
보수	4374
질문	4375
들이	4376
PC	4377
역전	4378
민주당	4379
단순히	4380
프레이	4381
약점	4382
챙	4383
데리	4384
인형	4385
필수	4386
아시아	4387
ᆫ지라	4388
##페이지	4389
코어	4390
경상	4391
마침	4392
핑	4393
임명	4394
황금	4395
덩	4396
##ia	4397
...	4398
##라이더	4399
끌어	4400
190	4401
쓰러지	4402
청소	4403
재판	4404
훌	4405
풀리	4406
날개	4407
닮	4408
장애	4409
대단	4410
85	4411
##냐	4412
사단	4413
착용	4414
##덜	4415
성인	4416
##토리	4417
인민	4418
오스	4419
해제	4420
중단	4421
멈	4422
##삼	4423
경계	4424
##래프트	4425
꾸준	4426
##ie	4427
##레이션	4428
##시브	4429
##ill	4430
홈페이지	4431
드라이	4432
쳐	4433
비난	4434
소프트	4435
현장	4436
승강	4437
작용	4438
하위	4439
상대방	4440
삶	4441
앤	4442
엄마	4443
##옷	4444
희망	4445
사장	4446
콩	4447
이스	4448
##를	4449
습격	4450
테러	4451
허용	4452
자치	4453
수원	4454
인지	4455
걷	4456
선보이	4457
퓨	4458
공원	4459
진정	4460
트로	4461
편하	4462
코스트	4463
관광	4464
더블	4465
유래	4466
제시	4467
##깐	4468
원거리	4469
무력	4470
지식	4471
선물	4472
수호	4473
셀	4474
영역	4475
##몰	4476
##RA	4477
스마	4478
남편	4479
카페	4480
기획	4481
베르	4482
가슴	4483
주도	4484
ST	4485
명중	4486
수단	4487
바탕	4488
##IA	4489
아름답	4490
##북도	4491
스파이	4492
##ik	4493
부리	4494
오른쪽	4495
태도	4496
본선	4497
촌	4498
모티브	4499
거주	4500
에이스	4501
행복	4502
##무원	4503
탑재	4504
확실히	4505
카즈	4506
비고	4507
나카	4508
저주	4509
감안	4510
리스	4511
직원	4512
체계	4513
측면	4514
쿄	4515
##워드	4516
꼴	4517
59	4518
##텀	4519
지나치	4520
롱	4521
멈추	4522
표정	4523
도서	4524
##ab	4525
무섭	4526
주목	4527
테크	4528
쿨타임	4529
돌파	4530
상처	4531
고통	4532
의문	4533
텔레	4534
##마스	4535
베이스	4536
친하	4537
##est	4538
제기	4539
나타내	4540
보급	4541
고유	4542
딱히	4543
테마	4544
뉴욕	4545
##연히	4546
##뉘	4547
72	4548
처치	4549
업무	4550
기점	4551
당장	4552
##녕	4553
지점	4554
공장	4555
##푸	4556
##랄	4557
소울	4558
58	4559
망하	4560
협력	4561
텍	4562
갈리	4563
여부	4564
멀티	4565
120	4566
기어	4567
불명	4568
부인	4569
컷	4570
##th	4571
낳	4572
비싸	4573
##춘	4574
유우	4575
57	4576
##픽	4577
62	4578
대답	4579
온라인	4580
순서	4581
통일	4582
문자	4583
날아가	4584
그레이	4585
카메라	4586
위주	4587
퍼지	4588
귀족	4589
우수	4590
연방	4591
브랜드	4592
후속	4593
널	4594
##all	4595
제압	4596
조지	4597
##울리	4598
멀리	4599
계산	4600
챙기	4601
박스	4602
잠깐	4603
소수	4604
나뉘	4605
을까	4606
아요	4607
카운터	4608
꺼내	4609
문명	4610
당선	4611
##럴	4612
MP	4613
##ea	4614
진영	4615
멸망	4616
66	4617
1999	4618
차별	4619
##잔	4620
95	4621
건너	4622
패스	4623
갱	4624
후지	4625
은행	4626
탯	4627
횟수	4628
엉	4629
##뇌	4630
버튼	4631
약속	4632
케이스	4633
가ᄇ	4634
혁명	4635
시나리오	4636
펀	4637
드립	4638
Lo	4639
내려가	4640
제조	4641
Sh	4642
셔	4643
랩	4644
##쇠	4645
어라	4646
가로	4647
##ct	4648
프레	4649
국회의원	4650
코너	4651
융	4652
에어	4653
Re	4654
넥	4655
테이	4656
오후	4657
마츠	4658
1998	4659
겨우	4660
살해	4661
붕괴	4662
춤	4663
달라지	4664
지옥	4665
그라	4666
락	4667
자격	4668
특기	4669
오스트	4670
댓	4671
삼국	4672
랍	4673
미야	4674
눈치	4675
상하	4676
최악	4677
듀얼	4678
뱀	4679
크로스	4680
on	4681
증거	4682
##붙이	4683
균	4684
연계	4685
개편	4686
외부	4687
에다	4688
ᆯ수록	4689
늘리	4690
다가	4691
펠	4692
시체	4693
##머리	4694
유키	4695
가볍	4696
딜러	4697
##다르	4698
##핀	4699
군인	4700
섭	4701
##니어	4702
Sp	4703
겨울	4704
군주	4705
핵심	4706
정권	4707
틈	4708
의회	4709
공산	4710
어린	4711
gt	4712
가져가	4713
미스	4714
매치	4715
게시	4716
중화	4717
자이	4718
ddd	4719
제로	4720
부담	4721
교사	4722
배신	4723
미군	4724
110	4725
출발	4726
컨트로	4727
##릉	4728
대놓	4729
출생	4730
##AT	4731
게이지	4732
옹	4733
##AL	4734
레이저	4735
자살	4736
웨이	4737
니코	4738
단위	4739
드물	4740
진실	4741
##ddd	4742
스프	4743
dddddd	4744
어울리	4745
##학자	4746
견제	4747
해금	4748
##ᆨ시	4749
충돌	4750
미나	4751
##PS	4752
최대한	4753
##릿	4754
아침	4755
대원	4756
##륭	4757
##워하	4758
ㅓ서	4759
거절	4760
장전	4761
여왕	4762
##터리	4763
궁극	4764
봄	4765
가르치	4766
플라	4767
##OR	4768
도구	4769
필살기	4770
##라리	4771
전장	4772
충전	4773
댄스	4774
홍콩	4775
커뮤	4776
Th	4777
로켓	4778
##아리	4779
거래	4780
유용	4781
교환	4782
카르	4783
SS	4784
용병	4785
이성	4786
룰	4787
만족	4788
##VE	4789
반란	4790
##달리	4791
취소	4792
부문	4793
SBS	4794
lt	4795
귀엽	4796
##ess	4797
##사카	4798
##멘	4799
마왕	4800
넷	4801
체인	4802
##ate	4803
##쇼	4804
피아	4805
한화	4806
고급	4807
일본어	4808
##킨	4809
부진	4810
쓰러	4811
닥터	4812
타이밍	4813
는다고	4814
##ard	4815
표준	4816
기분	4817
##ell	4818
블로	4819
흔히	4820
##광역시	4821
##컨	4822
스피드	4823
61	4824
협회	4825
조준	4826
피해자	4827
발매되	4828
Al	4829
1997	4830
남부	4831
아메	4832
근무	4833
고서	4834
##전자	4835
76	4836
애매	4837
제주	4838
##읍	4839
단독	4840
##ang	4841
무게	4842
##ue	4843
##메달	4844
마이크	4845
스킨	4846
토스	4847
공군	4848
필리	4849
공통	4850
얼음	4851
##ers	4852
신화	4853
비록	4854
##ant	4855
파악	4856
극장판	4857
하트	4858
##웨이	4859
발휘	4860
판타	4861
핀	4862
수입	4863
비율	4864
권력	4865
세계관	4866
유형	4867
스파	4868
장수	4869
삽	4870
##IC	4871
건강	4872
자르	4873
어떻	4874
끼리	4875
경력	4876
인생	4877
헤드	4878
##ine	4879
겹치	4880
가입	4881
본부	4882
##ack	4883
##하라	4884
한자	4885
후반부	4886
순수	4887
근거	4888
공작	4889
막히	4890
계급	4891
레전	4892
##헨	4893
모션	4894
##세이	4895
FI	4896
77	4897
커버	4898
##래도	4899
아무래도	4900
물질	4901
88	4902
혼란	4903
지시	4904
패시브	4905
구입	4906
격투	4907
몰리	4908
외교	4909
프라	4910
엑스	4911
##촉	4912
##다수	4913
아머	4914
쿼	4915
감염	4916
입단	4917
##두르	4918
지하철	4919
자식	4920
따위	4921
해방	4922
NP	4923
파이터	4924
연대	4925
##아나	4926
기독	4927
탄생	4928
##OS	4929
덴	4930
우려	4931
정령	4932
캐나다	4933
지대	4934
증명	4935
회수	4936
##어내	4937
강조	4938
등등	4939
##피아	4940
채용	4941
빔	4942
반영	4943
내주	4944
업체	4945
생일	4946
##젠	4947
##심히	4948
자고	4949
스코어	4950
##ᆯ레	4951
스테	4952
##흑	4953
누리	4954
홍보	4955
노르	4956
용도	4957
입학	4958
##가락	4959
##밀리	4960
실질	4961
경영	4962
승강장	4963
##ok	4964
아사	4965
좁	4966
폐지	4967
밸런스	4968
외치	4969
ㅕ서	4970
꾸준히	4971
타워	4972
##둑	4973
대륙	4974
갓	4975
1996	4976
문학	4977
언니	4978
납치	4979
쪼	4980
경향	4981
CD	4982
불안	4983
지급	4984
##ive	4985
기절	4986
병기	4987
be	4988
무너지	4989
오오	4990
덮	4991
갤러리	4992
대공	4993
실행	4994
윙	4995
돌격	4996
왕자	4997
이슬	4998
##디션	4999
BG	5000
1995	5001
주어지	5002
트라	5003
1980	5004
장식	5005
젠	5006
98	5007
추진	5008
요원	5009
베트	5010
##솔	5011
출판	5012
##멀	5013
감사	5014
광역	5015
##고기	5016
or	5017
신문	5018
##유키	5019
",	5020
랜덤	5021
373	5022
훌륭	5023
600	5024
온가	5025
계승	5026
쏟	5027
페이스	5028
파리	5029
수학	5030
맡기	5031
재생	5032
주년	5033
시행	5034
원수	5035
온갖	5036
사카	5037
브라질	5038
통제	5039
마녀	5040
아라	5041
fff	5042
##ast	5043
가까이	5044
스튜	5045
낭	5046
내내	5047
집안	5048
고기	5049
없애	5050
설득	5051
울트라	5052
내놓	5053
패러디	5054
건축	5055
단일	5056
##오리	5057
기독교	5058
스페셜	5059
대다수	5060
##렐	5061
작사	5062
쇠	5063
심리	5064
파라	5065
사전	5066
정지	5067
찌르	5068
##들리	5069
서포	5070
##AS	5071
용어	5072
아리	5073
와이	5074
헤이	5075
스펙	5076
화살	5077
##멍	5078
아나	5079
찾아가	5080
전선	5081
신뢰	5082
경기장	5083
공유	5084
고민	5085
명예	5086
오픈	5087
상품	5088
##카와	5089
북쪽	5090
##크래프트	5091
별도	5092
##피스	5093
##어리	5094
후쿠	5095
즉시	5096
영원	5097
모리	5098
오류	5099
기기	5100
##웨어	5101
선배	5102
어차	5103
##휴	5104
PS	5105
##바로	5106
살짝	5107
령	5108
폭풍	5109
##ee	5110
남쪽	5111
밟	5112
연예	5113
킥	5114
##즈키	5115
어차피	5116
##렴	5117
68	5118
적당	5119
등판	5120
##ED	5121
800	5122
가리키	5123
괴롭	5124
전달	5125
페이지	5126
지우	5127
대놓고	5128
화장	5129
짝	5130
보물	5131
내려오	5132
##스탄	5133
변호	5134
마련	5135
이렇	5136
##렘	5137
미소	5138
흘리	5139
고전	5140
63	5141
ㅓ야	5142
라스	5143
##tt	5144
##ong	5145
아야	5146
탑승	5147
##ᆸ터	5148
뒤집	5149
소문	5150
당황	5151
공기	5152
메탈	5153
함선	5154
러브	5155
##uby	5156
그곳	5157
푸르	5158
##다지	5159
경유	5160
말리	5161
틱	5162
오프닝	5163
캔	5164
은근	5165
##팩	5166
레오	5167
열심히	5168
가토	5169
##AM	5170
늑	5171
레전드	5172
커뮤니티	5173
전라	5174
입수	5175
외국인	5176
갤	5177
민간	5178
갑옷	5179
신청	5180
사령관	5181
심장	5182
##타인	5183
한때	5184
정류	5185
##아먹	5186
크루	5187
##ort	5188
랜드	5189
##ith	5190
운명	5191
##if	5192
반격	5193
신고	5194
##세우	5195
엔터	5196
조치	5197
##도우	5198
사운드	5199
##ly	5200
트위터	5201
임시	5202
##납	5203
##딘	5204
수업	5205
74	5206
댓글	5207
연구소	5208
1994	5209
##ᆮ히	5210
71	5211
응원	5212
알렉	5213
이승	5214
격파	5215
가면라이더	5216
처하	5217
##나무	5218
아트	5219
깃	5220
김성	5221
##랜	5222
##ld	5223
불만	5224
ruby	5225
쓰레	5226
라이벌	5227
마주	5228
마인	5229
82	5230
중계	5231
편의	5232
##아버지	5233
갈등	5234
컨트롤	5235
환자	5236
67	5237
절반	5238
습득	5239
울산	5240
73	5241
주위	5242
오해	5243
##로우	5244
관객	5245
##ᆷ프	5246
두산	5247
하수	5248
스트라이	5249
퀄	5250
카나	5251
메이저	5252
북부	5253
니시	5254
클라	5255
요새	5256
둥	5257
닿	5258
보정	5259
여론	5260
널리	5261
출장	5262
##ain	5263
MV	5264
정말로	5265
지형	5266
##ist	5267
전공	5268
카라	5269
대만	5270
##드라	5271
짜리	5272
유로	5273
고치	5274
서부	5275
##겨나	5276
팝	5277
전시	5278
회원	5279
묵	5280
결승전	5281
아오	5282
수용	5283
보장	5284
우스	5285
시각	5286
##fff	5287
여신	5288
주전	5289
리버	5290
....	5291
180	5292
차트	5293
##ind	5294
96	5295
붙잡	5296
재능	5297
아시	5298
가득	5299
압박	5300
##가와	5301
별개	5302
ffffff	5303
메타	5304
전형	5305
추적	5306
왕조	5307
안드로	5308
탁	5309
영토	5310
##티컬	5311
쌓이	5312
소멸	5313
무르	5314
가이	5315
챠	5316
##서트	5317
무적	5318
NC	5319
##ᆯ릭	5320
##쥐	5321
전함	5322
종점	5323
##묵	5324
AT	5325
##듀서	5326
프로듀서	5327
초월	5328
오로	5329
운전	5330
종이	5331
네이버	5332
판타지	5333
TH	5334
81	5335
흔하	5336
##돌리	5337
아티	5338
전역	5339
폭력	5340
메가	5341
동기	5342
도서관	5343
체포	5344
헨	5345
늑대	5346
AC	5347
제하	5348
녹음	5349
선호	5350
그다지	5351
아우	5352
##per	5353
지ᄏ	5354
컨텐츠	5355
시야	5356
타점	5357
따오	5358
화이트	5359
##지컬	5360
변형	5361
써	5362
파이어	5363
돌진	5364
개통	5365
##ew	5366
인수	5367
##덜란드	5368
네덜란드	5369
##ps	5370
##렁	5371
강원	5372
테스트	5373
든지	5374
무지	5375
향상	5376
동원	5377
메시	5378
##럿	5379
쉐	5380
물러	5381
##EN	5382
신라	5383
91	5384
##더스	5385
##사키	5386
맞서	5387
이마	5388
여동생	5389
공급	5390
동부	5391
다행히	5392
수요	5393
일부러	5394
불꽃	5395
##툰	5396
동네	5397
화려	5398
78	5399
동쪽	5400
조절	5401
릭	5402
파이널	5403
도달	5404
시드	5405
##EC	5406
적히	5407
##츠키	5408
성과	5409
##ᅫ지	5410
그만큼	5411
수집	5412
##융	5413
##놈	5414
문제점	5415
그림자	5416
본명	5417
파견	5418
클로	5419
##콤	5420
학과	5421
자는	5422
복잡	5423
지켜보	5424
##일랜드	5425
뛰어	5426
쓰러뜨리	5427
상향	5428
##어스	5429
##려움	5430
곰	5431
##캐	5432
##브리	5433
유비	5434
소드	5435
오랜	5436
연상	5437
##깝	5438
84	5439
기초	5440
일상	5441
##OL	5442
영업	5443
연관	5444
치명타	5445
키스	5446
식물	5447
맘	5448
틀리	5449
현지	5450
매력	5451
##식간	5452
부품	5453
전적	5454
##ry	5455
##거나	5456
최상	5457
암흑	5458
순식간	5459
폭격	5460
편지	5461
신세	5462
##lo	5463
##팡	5464
##따	5465
팅	5466
무난	5467
##오카	5468
달하	5469
작동	5470
전방	5471
학살	5472
구현	5473
CP	5474
##퍼스	5475
게이트	5476
지르	5477
교황	5478
시위	5479
점차	5480
92	5481
법원	5482
토모	5483
97	5484
##글랜드	5485
맞이	5486
킬	5487
콘서트	5488
##LC	5489
코믹스	5490
노예	5491
신인	5492
지도자	5493
세포	5494
##ᆷ치	5495
해체	5496
대우	5497
청년	5498
프레임	5499
충청	5500
바이오	5501
전투력	5502
86	5503
수송	5504
객	5505
마술	5506
me	5507
크리티컬	5508
사자	5509
입력	5510
복장	5511
고향	5512
토리	5513
둘러	5514
오빠	5515
아가	5516
국립	5517
바라보	5518
사토	5519
호환	5520
추락	5521
서쪽	5522
콜라	5523
프리미	5524
수술	5525
기여	5526
밴	5527
모바	5528
스톤	5529
저런	5530
드디어	5531
##찾	5532
그치	5533
반지	5534
경비	5535
69	5536
천사	5537
키리	5538
한국인	5539
##껏	5540
창작	5541
찰	5542
덧	5543
조성	5544
레스	5545
아무런	5546
간격	5547
스마트	5548
떡밥	5549
##오프	5550
189	5551
생명력	5552
출현	5553
##노스	5554
닌자	5555
베트남	5556
심판	5557
An	5558
##베이	5559
폴란드	5560
마스	5561
해설	5562
추격	5563
##비전	5564
제자	5565
쓰레기	5566
꼬리	5567
블록	5568
퀸	5569
조용	5570
전투기	5571
묶	5572
엘프	5573
낚	5574
짱	5575
인근	5576
뼈	5577
구체	5578
개혁	5579
##히로	5580
##렛	5581
만든	5582
##스트라	5583
##둥이	5584
##티나	5585
##어버리	5586
it	5587
검색	5588
US	5589
긍	5590
몰래	5591
의상	5592
켈	5593
고용	5594
##IT	5595
is	5596
감시	5597
다시	5598
다시피	5599
##ᆷ새	5600
의료	5601
일제	5602
그래픽	5603
구도	5604
아무것	5605
규칙	5606
사쿠라	5607
주먹	5608
##디아	5609
나루	5610
구속	5611
접하	5612
무효	5613
썰	5614
1992	5615
은하	5616
장교	5617
마리오	5618
후기	5619
다섯	5620
스카이	5621
신호	5622
##버트	5623
조조	5624
막장	5625
연애	5626
NPC	5627
##헤	5628
돌아다니	5629
마리아	5630
통상	5631
에드	5632
토론	5633
##타로	5634
##주시	5635
일원	5636
연사	5637
슬롯	5638
##ust	5639
신성	5640
실드	5641
룬	5642
MS	5643
대립	5644
대대	5645
##레나	5646
뷰	5647
김정	5648
고교	5649
알아	5650
춘	5651
차단	5652
강의	5653
길이	5654
신규	5655
신분	5656
##어도	5657
놓치	5658
연락	5659
##홀	5660
앵	5661
어깨	5662
##보내	5663
##특별	5664
까다	5665
옛날	5666
토크	5667
총기	5668
진지	5669
예외	5670
탱크	5671
잉글랜드	5672
범인	5673
카미	5674
노출	5675
경험치	5676
룡	5677
250	5678
##칠	5679
미술	5680
이래	5681
런던	5682
윌리	5683
프린	5684
##크스	5685
##옹	5686
창조	5687
입구	5688
##보드	5689
디아	5690
투어	5691
라이더	5692
모바일	5693
되찾	5694
KT	5695
글자	5696
정복	5697
부위	5698
##모로	5699
동작	5700
득표	5701
농구	5702
##ᆼ이	5703
##도로	5704
쿠키	5705
불편	5706
##50	5707
아크	5708
1993	5709
메카	5710
환상	5711
##니까	5712
글로	5713
디지털	5714
##ore	5715
요정	5716
앞두	5717
제어	5718
승격	5719
가시	5720
활성	5721
학자	5722
플로	5723
전직	5724
무료	5725
굽	5726
마도	5727
언제나	5728
겐	5729
양산	5730
##자키	5731
##뜩	5732
소총	5733
미디어	5734
바보	5735
코인	5736
고문	5737
고생	5738
Ar	5739
##파이어	5740
평타	5741
유희	5742
음성	5743
권총	5744
박살	5745
De	5746
이리	5747
거짓말	5748
안습	5749
헌법	5750
세월	5751
총선	5752
합성	5753
##BO	5754
잠수	5755
출처	5756
여러모로	5757
극단	5758
##영상	5759
자이언	5760
이득	5761
공학	5762
참전	5763
대량	5764
침공	5765
라이프	5766
대체로	5767
법률	5768
이슬람	5769
블레이드	5770
##FC	5771
반발	5772
어택	5773
이날	5774
##깔	5775
83	5776
상호	5777
##ᆨ시코	5778
수영	5779
일자	5780
그르	5781
겉	5782
가톨릭	5783
앱	5784
##다이	5785
##룩	5786
89	5787
스웨	5788
사마	5789
교전	5790
인증	5791
간부	5792
##ᅢᆼ이	5793
칼리	5794
헌터	5795
##우드	5796
##저히	5797
Te	5798
출력	5799
북미	5800
상상	5801
호평	5802
정류장	5803
93	5804
띄우	5805
중대	5806
폭주	5807
환승	5808
보석	5809
마루	5810
##ᆯ리아	5811
합격	5812
연도	5813
상점	5814
동영상	5815
101	5816
사양	5817
의무	5818
개정	5819
##리티	5820
톱	5821
총리	5822
알파	5823
제이	5824
94	5825
샘	5826
렙	5827
79	5828
기병	5829
적어도	5830
결성	5831
띠	5832
하고	5833
유대	5834
아일랜드	5835
re	5836
지휘관	5837
서양	5838
마이클	5839
제법	5840
가량	5841
전대	5842
터치	5843
원소	5844
첨	5845
인공	5846
##륜	5847
반하	5848
##FF	5849
On	5850
기습	5851
사이드	5852
다이아	5853
끼치	5854
근육	5855
예비	5856
분기	5857
휘두르	5858
머신	5859
매니	5860
태우	5861
##일드	5862
이시	5863
잖아	5864
##란색	5865
제작진	5866
com	5867
FIFA	5868
실리	5869
##one	5870
87	5871
동방	5872
이재	5873
이자	5874
MAX	5875
대략	5876
요괴	5877
##덩	5878
구출	5879
깎	5880
가속	5881
홀로	5882
경고	5883
탄약	5884
믹	5885
이랑	5886
##se	5887
바이러스	5888
조심	5889
지진	5890
##폼	5891
의혹	5892
묘지	5893
파일럿	5894
세르	5895
##둔	5896
슈트	5897
삼진	5898
유령	5899
박근	5900
소화	5901
회차	5902
AI	5903
사우	5904
전면	5905
부부	5906
요즘	5907
히데	5908
어린이	5909
##AC	5910
##ᆫ지	5911
1991	5912
##ᆸ스	5913
대항	5914
##ip	5915
포탑	5916
##먼트	5917
탱커	5918
플랫	5919
##워크	5920
횡	5921
축제	5922
화학	5923
제임	5924
이내	5925
발달	5926
메인	5927
다면서	5928
베스트	5929
멋지	5930
갤럭	5931
가게	5932
패널	5933
노멀	5934
하수인	5935
상업	5936
##로나	5937
나아가	5938
계정	5939
똑같이	5940
훔치	5941
개체	5942
예측	5943
취임	5944
문장	5945
볼넷	5946
블러	5947
##ere	5948
자금	5949
캐스	5950
현역	5951
보안	5952
불법	5953
플레이오프	5954
멕시코	5955
오가	5956
##컷	5957
쾌	5958
네임	5959
국방	5960
원자	5961
정착	5962
##ity	5963
레인저	5964
고지	5965
었었	5966
DJ	5967
호텔	5968
##쩡	5969
메모리	5970
핫	5971
자매	5972
유행	5973
핸드	5974
어둡	5975
미츠	5976
##RE	5977
특화	5978
스미	5979
익숙	5980
##PG	5981
제임스	5982
MC	5983
##닫	5984
루시	5985
청소년	5986
##ath	5987
용사	5988
갤럭시	5989
묻히	5990
##녁	5991
결론	5992
빗	5993
워치	5994
블리	5995
같이	5996
SN	5997
들어서	5998
파크	5999
넘치	6000
스튜디오	6001
##붕	6002
도망가	6003
이즈	6004
김영	6005
형사	6006
어지	6007
타케	6008
대리	6009
검찰	6010
슛	6011
신설	6012
어째	6013
무역	6014
저장	6015
##end	6016
피부	6017
구멍	6018
BGM	6019
##고리	6020
리스트	6021
움직임	6022
##창기	6023
일시	6024
육성	6025
켜	6026
예고	6027
1970	6028
도발	6029
한방	6030
연맹	6031
소닉	6032
##네스	6033
빛나	6034
리치	6035
신기	6036
개방	6037
FA	6038
사제	6039
##넣	6040
부서	6041
쿠로	6042
##요시	6043
냐며	6044
1988	6045
카타	6046
식민	6047
불러	6048
주식	6049
##끄럽	6050
##조리	6051
식사	6052
겁	6053
레이스	6054
합의	6055
보고	6056
조약	6057
아기	6058
콜로	6059
정면	6060
길드	6061
##컴	6062
관할	6063
긍정	6064
역임	6065
으니까	6066
감옥	6067
고백	6068
파트너	6069
려다	6070
대가	6071
차리	6072
700	6073
구원	6074
캐리	6075
오랫	6076
스톰	6077
루타	6078
스리	6079
곧바로	6080
##라이트	6081
마구	6082
타마	6083
프라이	6084
이명	6085
결합	6086
전철	6087
바치	6088
웬만	6089
바위	6090
Ro	6091
세이브	6092
방출	6093
찾아보	6094
##데스	6095
동의	6096
여유	6097
럭	6098
박정	6099
##코드	6100
인정받	6101
##펙트	6102
투구	6103
##페인	6104
전문가	6105
초창기	6106
볼트	6107
소형	6108
알레	6109
절망	6110
처벌	6111
번개	6112
!!	6113
다스	6114
진심	6115
THE	6116
사이즈	6117
방지	6118
주간	6119
##끔	6120
강철	6121
오늘날	6122
통치	6123
여지	6124
잡지	6125
ㅕㅆ	6126
기구	6127
배차	6128
융합	6129
국왕	6130
반사	6131
너무나	6132
훗	6133
물러나	6134
좌우	6135
##구리	6136
흥행	6137
누적	6138
리ᄆ	6139
##성기	6140
팀원	6141
돼지	6142
포스트	6143
의존	6144
듯이	6145
방사	6146
장악	6147
##특별시	6148
##레이터	6149
##디언	6150
카스	6151
영향력	6152
착각	6153
떠오르	6154
##멜	6155
리메이크	6156
##롤	6157
위장	6158
MVP	6159
둔	6160
##ect	6161
##쾌	6162
그동안	6163
네트	6164
정치인	6165
목격	6166
외계	6167
미카	6168
야스	6169
기원전	6170
에서부터	6171
서울특별시	6172
##ᆨ터	6173
아끼	6174
아빠	6175
포트	6176
레이드	6177
랭킹	6178
호주	6179
망치	6180
분량	6181
내성	6182
Wh	6183
커지	6184
봇	6185
내장	6186
잦	6187
안드로이드	6188
##OT	6189
꺾	6190
차라리	6191
논리	6192
면역	6193
##릭스	6194
곁	6195
인연	6196
의뢰	6197
단장	6198
해병	6199
챕터	6200
시즈	6201
룸	6202
혐의	6203
CC	6204
브레이크	6205
게스트	6206
협박	6207
유치	6208
섞	6209
요코	6210
칭하	6211
Se	6212
국군	6213
##삭	6214
양쪽	6215
저녁	6216
He	6217
빌드	6218
포르투	6219
지능	6220
태그	6221
마침내	6222
확대	6223
보관	6224
변호사	6225
골든	6226
Le	6227
공지	6228
각자	6229
타이거	6230
박근혜	6231
불교	6232
AK	6233
펴	6234
는다면	6235
동화	6236
윌리엄	6237
태평	6238
쟈	6239
공무원	6240
깨지	6241
뭉	6242
토르	6243
최소한	6244
괴롭히	6245
권리	6246
오카	6247
떠올리	6248
오사카	6249
델	6250
손가락	6251
Me	6252
무덤	6253
놀이	6254
접촉	6255
재산	6256
그대	6257
먹히	6258
몰아	6259
한번	6260
배트	6261
대지	6262
오랫동안	6263
박물	6264
터키	6265
##티아	6266
샌	6267
대폭	6268
1989	6269
팔리	6270
멍	6271
후속작	6272
메리	6273
으려고	6274
어다	6275
188	6276
윌	6277
라면서	6278
흠	6279
DLC	6280
##부르크	6281
##톱	6282
수수	6283
하필	6284
스턴	6285
htt	6286
##age	6287
Go	6288
출마	6289
과목	6290
실버	6291
##IS	6292
공공	6293
전후	6294
소장	6295
노부	6296
##섬	6297
연료	6298
삐	6299
악역	6300
오전	6301
주말	6302
하우스	6303
소지	6304
올해	6305
섞이	6306
##구치	6307
금융	6308
이집	6309
이집트	6310
소원	6311
본작	6312
리드	6313
'.	6314
PD	6315
연인	6316
명성	6317
웹툰	6318
소스	6319
수련	6320
이지	6321
##바라	6322
권한	6323
막차	6324
그럼	6325
흐름	6326
al	6327
육체	6328
패하	6329
딘	6330
수익	6331
비행기	6332
##og	6333
적대	6334
귀신	6335
빡	6336
주기	6337
계단	6338
정비	6339
다가오	6340
학부	6341
왼	6342
대처	6343
예능	6344
로즈	6345
##흡	6346
알렉산	6347
##잡이	6348
호수	6349
정원	6350
나치	6351
시마	6352
썩	6353
내구	6354
##아시아	6355
피스	6356
강남	6357
##미야	6358
무렵	6359
스웨덴	6360
금속	6361
트레이드	6362
놓이	6363
깜	6364
부장	6365
연극	6366
컬러	6367
##ide	6368
선출	6369
톰	6370
##ᅦ인트	6371
휴대	6372
명중률	6373
험	6374
kt	6375
원칙	6376
호감	6377
카오스	6378
어쨌	6379
Be	6380
My	6381
씌	6382
슈팅	6383
안내	6384
마키	6385
해안	6386
테일	6387
합체	6388
선전	6389
간혹	6390
GT	6391
접속	6392
숭	6393
##넬	6394
섀	6395
편입	6396
써먹	6397
##회사	6398
크라	6399
화제	6400
시계	6401
캠퍼스	6402
놀랍	6403
##ime	6404
##세스	6405
허리	6406
최다	6407
빚	6408
예쁘	6409
츄	6410
##ake	6411
개성	6412
모모	6413
뻐	6414
##셰	6415
협상	6416
ᆫ다며	6417
준수	6418
##ark	6419
130	6420
교차	6421
담기	6422
##OM	6423
메르	6424
일기	6425
개입	6426
##오르	6427
떨어	6428
퀄리티	6429
##ss	6430
둘째	6431
##윈	6432
새벽	6433
종목	6434
특집	6435
##베르	6436
궤도	6437
게시판	6438
Su	6439
작곡가	6440
SC	6441
박물관	6442
KIA	6443
##ire	6444
오른	6445
뺏	6446
상당수	6447
김태	6448
편곡	6449
##어나오	6450
외형	6451
##ᆷ없	6452
기도	6453
저그	6454
스위스	6455
환영	6456
성립	6457
인조	6458
꼽히	6459
림	6460
따라가	6461
첼	6462
고마	6463
고구	6464
갇히	6465
복무	6466
민주주의	6467
##듭	6468
유물	6469
SM	6470
##려주	6471
할아버지	6472
AR	6473
전신	6474
##바르	6475
##지마	6476
독특	6477
알아보	6478
웅	6479
주사	6480
피격	6481
초간	6482
재단	6483
이익	6484
깨닫	6485
WW	6486
한동안	6487
이끄	6488
Tr	6489
식당	6490
##가시	6491
페이즈	6492
젤	6493
지위	6494
##칼	6495
사도	6496
극복	6497
수십	6498
누나	6499
헤비	6500
딩	6501
넉	6502
흘	6503
##무르	6504
치우	6505
재정	6506
##가리	6507
##ID	6508
##ES	6509
전진	6510
렛	6511
그로	6512
어른	6513
시선	6514
철학	6515
굴리	6516
아이스	6517
매직	6518
회상	6519
116	6520
##ite	6521
데이비	6522
##ge	6523
리얼	6524
정찰	6525
HD	6526
wh	6527
160	6528
블로그	6529
위상	6530
연타	6531
##iv	6532
으러	6533
소중	6534
거인	6535
영문	6536
SD	6537
아니면	6538
##스턴	6539
무겁	6540
처형	6541
양성	6542
##ound	6543
기사단	6544
캐스팅	6545
식량	6546
뜬	6547
##라드	6548
##그마	6549
메뉴	6550
동굴	6551
정글	6552
대개	6553
데모	6554
용기	6555
오스트리아	6556
my	6557
문재	6558
면적	6559
비례	6560
안티	6561
부디	6562
##겐	6563
익히	6564
리아	6565
시내버스	6566
일찍	6567
트럭	6568
리듬	6569
은근히	6570
뜯	6571
고리	6572
##다랗	6573
손해	6574
클래식	6575
우위	6576
참석	6577
ㅓ도	6578
음원	6579
조언	6580
팬덤	6581
##리스트	6582
집행	6583
뱅	6584
힙	6585
유이	6586
과제	6587
아바	6588
튀어나오	6589
##미니	6590
보라	6591
신앙	6592
고수	6593
위원장	6594
별다르	6595
는지라	6596
##mp	6597
해상	6598
##iz	6599
대충	6600
IC	6601
플라이	6602
훗날	6603
타인	6604
각본	6605
원본	6606
##던가	6607
더더	6608
증언	6609
자국	6610
##테르	6611
노인	6612
개시	6613
SR	6614
신부	6615
이중	6616
세이버	6617
털리	6618
커스	6619
측정	6620
마비	6621
날짜	6622
##OP	6623
신비	6624
##가미	6625
##ᆺ지	6626
예산	6627
김민	6628
헝	6629
##맨드	6630
빼앗기	6631
멀쩡	6632
우라	6633
##쳐지	6634
펀치	6635
''	6636
##스키	6637
중독	6638
##슬리	6639
매체	6640
세종	6641
적응	6642
더더욱	6643
무릎	6644
살아가	6645
킨	6646
구사	6647
커맨드	6648
까다롭	6649
천재	6650
1987	6651
캠페인	6652
원주	6653
이주	6654
갈수	6655
##리그	6656
미터	6657
##마디	6658
적군	6659
바리	6660
해적	6661
삼국지	6662
##OW	6663
국적	6664
교류	6665
제정	6666
절대로	6667
꽂	6668
Gr	6669
허나	6670
##레드	6671
패션	6672
갈수록	6673
##ome	6674
하락	6675
임대	6676
대학원	6677
스승	6678
크리스마스	6679
일격	6680
활발	6681
재미있	6682
##큐어	6683
기적	6684
정수	6685
녹색	6686
툴	6687
코우	6688
하얗	6689
이브	6690
멘탈	6691
구나	6692
마이너	6693
관중	6694
결코	6695
위대	6696
화성	6697
IS	6698
명단	6699
매년	6700
시아	6701
히메	6702
주포	6703
##팀	6704
대수	6705
##BA	6706
##핵	6707
죄다	6708
호위	6709
아미	6710
##덩이	6711
십자	6712
UE	6713
과연	6714
작화	6715
개막	6716
진보	6717
with	6718
##데미	6719
##ud	6720
de	6721
투명	6722
충성	6723
계통	6724
##케이	6725
모자라	6726
Love	6727
포로	6728
##LL	6729
내세우	6730
탄창	6731
한참	6732
열쇠	6733
##몬드	6734
깡	6735
어려움	6736
##반도	6737
새기	6738
왈	6739
체크	6740
##갛	6741
바퀴	6742
희귀	6743
주일	6744
몽골	6745
##에이	6746
곽	6747
브루	6748
김종	6749
Pr	6750
우연히	6751
펫	6752
1960	6753
칭찬	6754
안경	6755
뮈	6756
유적	6757
루수	6758
남북	6759
사후	6760
##UN	6761
사막	6762
렉	6763
냥	6764
아카데미	6765
경기력	6766
##지로	6767
데려오	6768
비추	6769
흔적	6770
개수	6771
140	6772
##쩍	6773
자본	6774
채택	6775
모래	6776
##아웃	6777
로그	6778
기르	6779
##ord	6780
자극	6781
후방	6782
업적	6783
흔들리	6784
예수	6785
아메리카	6786
화물	6787
비상	6788
전성기	6789
이영	6790
당일	6791
미안	6792
피아노	6793
일치	6794
사유	6795
펑	6796
심사	6797
강점	6798
행적	6799
결말	6800
스타크래프트	6801
해리	6802
스프링	6803
##공화국	6804
보존	6805
##MA	6806
신장	6807
오직	6808
첫차	6809
상급	6810
이정	6811
강도	6812
인지도	6813
재현	6814
부지	6815
기종	6816
선고	6817
아티스트	6818
김동	6819
단편	6820
개량	6821
BE	6822
인민공화국	6823
주택	6824
사라	6825
##닉스	6826
무작	6827
농담	6828
부작	6829
기울	6830
람	6831
도우	6832
챌린	6833
출입	6834
추구	6835
거점	6836
기아	6837
취미	6838
가을	6839
웃음	6840
토끼	6841
과장	6842
##값	6843
느라	6844
저작	6845
##사자	6846
포항	6847
상성	6848
스탠	6849
자책	6850
버스터	6851
관찰	6852
고스트	6853
어지간	6854
포르투갈	6855
식민지	6856
합병	6857
px	6858
클릭	6859
1986	6860
생존자	6861
일반인	6862
네트워크	6863
어쨌든	6864
행하	6865
소위	6866
유나이	6867
소송	6868
맥스	6869
##려나	6870
구리	6871
새끼	6872
##ure	6873
울리	6874
프리큐어	6875
더라	6876
ch	6877
헛	6878
어스	6879
유나이티	6880
##일러	6881
##ance	6882
본체	6883
경로	6884
##our	6885
카트	6886
로우	6887
이민	6888
의대	6889
건조	6890
##나미	6891
어마	6892
##ᅡᇀ	6893
바깥	6894
##카드	6895
##mer	6896
스마트폰	6897
공룡	6898
기용	6899
##ix	6900
으시	6901
##양함	6902
연금	6903
괴수	6904
모조리	6905
시달리	6906
판매량	6907
흥미	6908
##ick	6909
포드	6910
EP	6911
Bo	6912
##ice	6913
막대	6914
##뜻	6915
체육관	6916
차기	6917
돋	6918
영구	6919
공세	6920
탈퇴	6921
스트리	6922
에리	6923
파츠	6924
상실	6925
잠재	6926
자세히	6927
덧붙이	6928
전멸	6929
후계	6930
가짜	6931
##이즈	6932
이스라	6933
an	6934
기ᄈ	6935
인격	6936
일본인	6937
UEFA	6938
며	6939
코코	6940
##켄	6941
##치기	6942
미라	6943
캡틴	6944
아즈	6945
사형	6946
유통	6947
국경	6948
포격	6949
JR	6950
타율	6951
##ax	6952
유니폼	6953
186	6954
제작자	6955
칩	6956
GS	6957
코리아	6958
노벨	6959
900	6960
도주	6961
터널	6962
연패	6963
부자	6964
불타	6965
일방	6966
##ᆼ기	6967
승점	6968
피터	6969
색상	6970
자전	6971
SKT	6972
클레	6973
Un	6974
생겨나	6975
무라	6976
판결	6977
색깔	6978
상인	6979
관측	6980
둘러싸	6981
명확	6982
할머니	6983
취향	6984
팽	6985
드라이브	6986
릴	6987
햄	6988
##랭크	6989
가상	6990
잘리	6991
통산	6992
항공기	6993
메시지	6994
요금	6995
커피	6996
레이더	6997
기량	6998
화장실	6999
##시타	7000
거듭	7001
##가스	7002
을	7003
베네	7004
로고	7005
치유	7006
선거구	7007
닭	7008
비주	7009
화재	7010
나포	7011
어드	7012
쌍둥이	7013
내지	7014
구경	7015
강요	7016
언스	7017
순환	7018
귀찮	7019
라이온	7020
마린	7021
여객	7022
##oc	7023
한마디	7024
##시로	7025
등지	7026
타선	7027
미루	7028
모토	7029
##랑이	7030
훼	7031
레디	7032
집어	7033
##AD	7034
이스라엘	7035
##맛	7036
Ex	7037
##아다니	7038
##시스트	7039
쵸	7040
##멘트	7041
동력	7042
루카	7043
초코	7044
오타	7045
위반	7046
사신	7047
사원	7048
소프트웨어	7049
신사	7050
##qu	7051
칭호	7052
수출	7053
비치	7054
날아오	7055
찢	7056
가루	7057
아마도	7058
##ᆫ색	7059
이슈	7060
아이콘	7061
187	7062
빨갛	7063
##듈	7064
##코토	7065
선택지	7066
주소	7067
승객	7068
포수	7069
가요	7070
OST	7071
다치	7072
##10	7073
힌	7074
데드	7075
고개	7076
트라이	7077
간신	7078
터뜨리	7079
몰락	7080
레알	7081
##own	7082
##괄	7083
무방	7084
##고속	7085
초보	7086
조이	7087
KO	7088
박히	7089
대선	7090
조연	7091
##얄	7092
연합군	7093
양자	7094
##{{	7095
영주	7096
스페이스	7097
##스틱	7098
##ber	7099
아서	7100
펄	7101
도끼	7102
교장	7103
귀환	7104
수장	7105
##나카	7106
##데이	7107
남녀	7108
담배	7109
광역시	7110
매장	7111
적합	7112
즐겁	7113
연승	7114
고도	7115
냄새	7116
구르	7117
함수	7118
GB	7119
캐논	7120
##80	7121
본사	7122
넥센	7123
We	7124
타락	7125
서식	7126
복지	7127
##ys	7128
##프리	7129
실망	7130
1984	7131
동성	7132
콜라보	7133
외전	7134
매니저	7135
DS	7136
타운	7137
항복	7138
##20	7139
이터	7140
텔레비전	7141
그러니	7142
안타깝	7143
뿔	7144
찾아내	7145
고구려	7146
미스터	7147
트레	7148
흑인	7149
곡명	7150
캠프	7151
##카리	7152
제갈	7153
배터리	7154
핏	7155
백성	7156
익스	7157
비서	7158
{{{	7159
라인업	7160
개국	7161
유희왕	7162
##av	7163
##곱	7164
통계	7165
단단	7166
이탈	7167
인치	7168
유효	7169
변환	7170
그만두	7171
교실	7172
잠수함	7173
아랍	7174
1985	7175
아시안	7176
예시	7177
스와	7178
AM	7179
타수	7180
##노우	7181
붓	7182
발행	7183
커리어	7184
혐오	7185
공업	7186
##블리	7187
간주	7188
깔끔	7189
##정부	7190
소라	7191
일대	7192
법인	7193
주자	7194
반동	7195
##럼프	7196
쟁	7197
sh	7198
철수	7199
스터	7200
##랭	7201
천만	7202
인종	7203
마드리	7204
CPU	7205
정기	7206
포위	7207
##ame	7208
주역	7209
중립	7210
에르	7211
레코드	7212
##orld	7213
유학	7214
벼	7215
##old	7216
용량	7217
서구	7218
시노	7219
논의	7220
ᄇ시	7221
드래프트	7222
허가	7223
105	7224
관람	7225
노동자	7226
표지	7227
##크로	7228
너희	7229
인디	7230
글로벌	7231
마드리드	7232
조별	7233
낚시	7234
카츠	7235
커다랗	7236
##든가	7237
##저스	7238
##OC	7239
거미	7240
후손	7241
기생	7242
##일보	7243
흘러	7244
턱	7245
수류	7246
마약	7247
내전	7248
김재	7249
예언	7250
끊기	7251
립	7252
히어로즈	7253
첩	7254
아쿠	7255
공성	7256
##쌍	7257
##머스	7258
하단	7259
즉위	7260
위성	7261
사이버	7262
벌레	7263
상단	7264
휴식	7265
티켓	7266
##NA	7267
복구	7268
##늬	7269
디스크	7270
곱	7271
연령	7272
음모	7273
구글	7274
##로디	7275
##땅	7276
보험	7277
메달	7278
생략	7279
CF	7280
##위대	7281
##lay	7282
꾸미	7283
2021	7284
LI	7285
승률	7286
.."	7287
고위	7288
태평양	7289
##긋	7290
고작	7291
스텔	7292
곤란	7293
분쟁	7294
웬	7295
근본	7296
##ont	7297
윗	7298
면모	7299
베리	7300
##김	7301
좌석	7302
펌	7303
추억	7304
형상	7305
##ies	7306
도적	7307
김대	7308
감각	7309
급격	7310
오크	7311
튕기	7312
이수	7313
문구	7314
표면	7315
최신	7316
노스	7317
카운트	7318
차이점	7319
추종	7320
준우	7321
후원	7322
파르	7323
그러니까	7324
그랜드	7325
적당히	7326
자폭	7327
중세	7328
수류탄	7329
클랜	7330
소대	7331
AD	7332
언덕	7333
사명	7334
##타이	7335
상술	7336
대인	7337
치루	7338
경주	7339
아르헨	7340
It	7341
실전	7342
모노	7343
모니	7344
왕위	7345
마디	7346
언더	7347
학습	7348
관점	7349
허락	7350
성남	7351
다름없	7352
끈	7353
고맙	7354
KBO	7355
정차	7356
더럽	7357
연예인	7358
스틸	7359
입지	7360
굿	7361
후술	7362
균형	7363
엿	7364
SH	7365
##팩트	7366
일족	7367
제약	7368
꼽	7369
3000	7370
구석	7371
전주	7372
아르헨티나	7373
타로	7374
##려들	7375
후배	7376
휩	7377
분열	7378
지뢰	7379
용서	7380
떨어뜨리	7381
지리	7382
뻗	7383
일레	7384
지경	7385
액티브	7386
DF	7387
증오	7388
취약	7389
스트라이크	7390
기숙	7391
체결	7392
서포터	7393
똥	7394
토벌	7395
크리스탈	7396
폐쇄	7397
하차	7398
공방	7399
침략	7400
오라	7401
리타	7402
숙련	7403
진압	7404
아츠	7405
전이	7406
머무르	7407
시너지	7408
데려가	7409
사정거리	7410
자막	7411
침입	7412
코르	7413
산하	7414
행보	7415
제출	7416
미묘	7417
lo	7418
주차	7419
금메달	7420
해피	7421
부각	7422
어뢰	7423
저렴	7424
우르	7425
##말리	7426
법정	7427
부딪	7428
쓸모	7429
일본군	7430
입대	7431
들키	7432
간접	7433
##플레이	7434
제트	7435
XX	7436
##라이언	7437
분해	7438
트랜스	7439
텍스트	7440
LC	7441
이듬	7442
워커	7443
##키아	7444
##마크	7445
드럼	7446
##하면	7447
무척	7448
특전	7449
루비	7450
정화	7451
##OD	7452
중첩	7453
이란	7454
오마	7455
루나	7456
읍	7457
##US	7458
##크라	7459
네요	7460
약화	7461
블러드	7462
아테	7463
호흡	7464
평생	7465
##ann	7466
기관총	7467
쿼터	7468
가만	7469
간신히	7470
소방	7471
세븐	7472
##쓸	7473
총알	7474
##어마	7475
논문	7476
오랜만	7477
유발	7478
연고	7479
뜬금	7480
##자드	7481
가동	7482
인권	7483
알아내	7484
드롭	7485
CV	7486
이토	7487
사령부	7488
눈치채	7489
MF	7490
생년	7491
신전	7492
릴리	7493
통화	7494
##첨	7495
거울	7496
히나	7497
잡아먹	7498
헬기	7499
경상북도	7500
씹	7501
찍히	7502
NE	7503
흡혈	7504
카카	7505
악화	7506
여우	7507
크림	7508
공용	7509
로버트	7510
곳곳	7511
동인	7512
방어구	7513
아포	7514
모시	7515
나리	7516
사귀	7517
SE	7518
놀리	7519
남아	7520
이혼	7521
##pe	7522
전파	7523
혹시	7524
인용	7525
프란	7526
강자	7527
125	7528
##PM	7529
네오	7530
다카	7531
결심	7532
토너	7533
지불	7534
부적	7535
아이언	7536
##블린	7537
성당	7538
##40	7539
맛있	7540
세인트	7541
뮤지컬	7542
보건	7543
찬스	7544
자이언츠	7545
##sh	7546
저택	7547
공정	7548
WWE	7549
윈도우	7550
.....	7551
악당	7552
이듬해	7553
페널	7554
스캐	7555
다지	7556
구슬	7557
자녀	7558
중력	7559
어마어마	7560
주둔	7561
성별	7562
아동	7563
미즈	7564
반전	7565
히토	7566
앨리스	7567
애정	7568
깨어나	7569
제작사	7570
암시	7571
요인	7572
##30	7573
금방	7574
내보내	7575
보완	7576
플레	7577
상기	7578
##뚱	7579
이식	7580
스크린	7581
구름	7582
복합	7583
##io	7584
잡아내	7585
저러	7586
금액	7587
되돌리	7588
수석	7589
##VD	7590
엘리트	7591
격추	7592
AS	7593
##올	7594
참모	7595
얀	7596
양식	7597
시상	7598
토니	7599
온도	7600
긴장	7601
옳	7602
En	7603
##네임	7604
게리	7605
스팀	7606
시카	7607
애플	7608
라기	7609
용인	7610
딜링	7611
##싱턴	7612
##픔	7613
##은행	7614
1950	7615
원리	7616
시인	7617
구미	7618
악기	7619
큐브	7620
발리	7621
배포	7622
라틴	7623
##ᆯ라이	7624
##네이	7625
1982	7626
이온	7627
보호막	7628
충실	7629
구축함	7630
your	7631
물리치	7632
후계자	7633
뎀	7634
아저	7635
##거지	7636
로이	7637
##천시	7638
헤어지	7639
던지	7640
##츄	7641
아저씨	7642
교과	7643
유력	7644
##눈	7645
CJ	7646
백작	7647
결전	7648
뽑히	7649
동양	7650
썬	7651
김현	7652
낮추	7653
토너먼트	7654
사인	7655
부임	7656
착하	7657
대왕	7658
의학	7659
라면	7660
헨리	7661
개설	7662
##배우	7663
이라	7664
##올리	7665
초록	7666
##셋	7667
절차	7668
불사	7669
얻어	7670
흩	7671
천안	7672
;&	7673
채팅	7674
딴	7675
우에	7676
유전자	7677
백인	7678
임신	7679
DE	7680
상세	7681
서서	7682
시라	7683
상관없	7684
열매	7685
Pro	7686
기상	7687
소유자	7688
해치	7689
야생	7690
임금	7691
##oo	7692
##죠	7693
빠져	7694
브로	7695
하루카	7696
상영	7697
웨스트	7698
170	7699
##뛰	7700
##슬링	7701
교도	7702
##라기	7703
본관	7704
베타	7705
정예	7706
##에르	7707
증상	7708
루이스	7709
탐험	7710
##센트	7711
로리	7712
비아	7713
공산당	7714
호기	7715
뜨겁	7716
드라이버	7717
1983	7718
창원	7719
묘하	7720
답변	7721
안기	7722
전승	7723
실종	7724
기인	7725
법칙	7726
##즐	7727
선두	7728
존재감	7729
지라	7730
코미디	7731
학력	7732
##ᆫ가	7733
##ᆯ드	7734
마주치	7735
##도르	7736
동명	7737
도둑	7738
수백	7739
커플	7740
광장	7741
견디	7742
언젠가	7743
걸어	7744
방송국	7745
##ave	7746
업로드	7747
도라	7748
창설	7749
도박	7750
악명	7751
리뷰	7752
항의	7753
엮이	7754
##비치	7755
발렌	7756
처분	7757
뱀파이어	7758
Com	7759
문재인	7760
테라	7761
천하	7762
짜증	7763
강원도	7764
중량	7765
##포트	7766
대책	7767
행운	7768
수호자	7769
엑스트라	7770
관리자	7771
동점	7772
에요	7773
##ream	7774
##펠	7775
관계자	7776
재밌	7777
모터	7778
닫	7779
패키	7780
미키	7781
그린	7782
분명히	7783
##ond	7784
기숙사	7785
은신	7786
##LE	7787
만남	7788
의장	7789
씬	7790
##누스	7791
미쿠	7792
쏟아지	7793
승인	7794
##ᅪᆨ	7795
생명체	7796
다이아몬드	7797
정통	7798
전동	7799
진주	7800
##걸이	7801
인력	7802
잔뜩	7803
##팡이	7804
닛	7805
##월일	7806
that	7807
블라	7808
조리	7809
치즈	7810
기둥	7811
와일드	7812
에다가	7813
이드	7814
카와	7815
1500	7816
정황	7817
토지	7818
니스	7819
폴리	7820
호칭	7821
끔	7822
물고기	7823
캐스터	7824
##를린	7825
단축	7826
농업	7827
칼날	7828
쭉	7829
기름	7830
난입	7831
##엣	7832
##iss	7833
디지몬	7834
##스럽	7835
건국	7836
유산	7837
##ION	7838
건드리	7839
보드	7840
LV	7841
UP	7842
무관	7843
기후	7844
##IP	7845
##번트	7846
##우마	7847
심심	7848
감지	7849
성질	7850
도루	7851
창단	7852
레지	7853
잃어버리	7854
유독	7855
창고	7856
부드	7857
할인	7858
문단	7859
생년월일	7860
부사	7861
지치	7862
해명	7863
투스	7864
탄환	7865
려던	7866
EN	7867
가방	7868
ED	7869
##프레	7870
학위	7871
영광	7872
말투	7873
참가자	7874
서번트	7875
논쟁	7876
출구	7877
다니	7878
미네	7879
##군다	7880
##탐	7881
##필더	7882
막내	7883
미드필더	7884
외계인	7885
삽입	7886
##펴보	7887
살펴보	7888
운동장	7889
##ian	7890
시공	7891
릿	7892
##갈리	7893
하향	7894
유기	7895
가라	7896
해골	7897
내각	7898
뿜	7899
부근	7900
프로필	7901
샌드	7902
5000	7903
상륙	7904
##유럽	7905
분신	7906
식품	7907
울프	7908
플래시	7909
밍	7910
존경	7911
##틱	7912
유인	7913
시합	7914
##이어	7915
항구	7916
헐	7917
경남	7918
주술	7919
분대	7920
한쪽	7921
복제	7922
장인	7923
가공	7924
미만	7925
끔찍	7926
발굴	7927
비전	7928
사살	7929
렐	7930
##태우	7931
레딧	7932
##어하	7933
셜	7934
그램	7935
콘텐츠	7936
조기	7937
부드럽	7938
사법	7939
유격	7940
부스터	7941
진학	7942
딜레이	7943
##티스	7944
우정	7945
뛰어넘	7946
준우승	7947
정교	7948
럼	7949
주니어	7950
디젤	7951
->	7952
로얄	7953
##투스	7954
요약	7955
##게임	7956
코트	7957
그렇지만	7958
왠지	7959
아키라	7960
전제	7961
수면	7962
카를	7963
승자	7964
퇴장	7965
손상	7966
두르	7967
밀도	7968
집착	7969
슬로	7970
탕	7971
독재	7972
##늄	7973
태국	7974
선제	7975
통로	7976
대조	7977
공허	7978
민첩	7979
오디션	7980
시리아	7981
솜	7982
##커스	7983
상식	7984
##운서	7985
2022	7986
스위치	7987
아나운서	7988
마블	7989
걸맞	7990
##TV	7991
체험	7992
휘말리	7993
by	7994
크레	7995
엔젤	7996
동계	7997
학기	7998
깔리	7999
시트	8000
##카이	8001
워싱턴	8002
감추	8003
루스	8004
헝가리	8005
분포	8006
##텐도	8007
닌텐도	8008
##60	8009
시원	8010
he	8011
##셔널	8012
BL	8013
학문	8014
작년	8015
브레	8016
수명	8017
Br	8018
스쿨	8019
하츠	8020
##닌	8021
Co	8022
헤어	8023
과학자	8024
##세대	8025
훈장	8026
호소	8027
께서	8028
불펜	8029
##ᆺ갈리	8030
철저	8031
싫어하	8032
##우리	8033
전북	8034
빅토	8035
보충	8036
##그리	8037
마케	8038
##베스	8039
돔	8040
갑작	8041
힐러	8042
근대	8043
단원	8044
반박	8045
회담	8046
##소녀	8047
##팬	8048
나츠	8049
맷	8050
여주	8051
국장	8052
하이퍼	8053
배정	8054
방위	8055
자전거	8056
??	8057
공화	8058
노바	8059
공립	8060
덩치	8061
트럼프	8062
##rom	8063
##ory	8064
##틀러	8065
사용자	8066
스폰	8067
그레	8068
go	8069
중형	8070
비주얼	8071
##레인	8072
질병	8073
펼쳐지	8074
옹호	8075
##ace	8076
스트레스	8077
기재	8078
111	8079
배출	8080
Bl	8081
돌입	8082
단행	8083
##게이	8084
고객	8085
타석	8086
##Hz	8087
지사	8088
휘하	8089
##메이	8090
오키	8091
안녕	8092
격차	8093
평양	8094
##쟁이	8095
&#	8096
기운	8097
185	8098
꿀	8099
토마	8100
깨달	8101
마스크	8102
1945	8103
그럭	8104
대거	8105
리스크	8106
삼각	8107
##카이도	8108
##세서	8109
가죽	8110
##포르	8111
웃기	8112
경전	8113
꼼	8114
싹	8115
##필드	8116
눕	8117
##저럭	8118
백제	8119
임기	8120
팟	8121
본진	8122
디즈	8123
소요	8124
데이비드	8125
세부	8126
웨이브	8127
인질	8128
출격	8129
오염	8130
히라	8131
위안	8132
그럭저럭	8133
싸이	8134
시신	8135
##신교	8136
트리플	8137
속이	8138
신도	8139
어필	8140
##TE	8141
DVD	8142
처지	8143
마감	8144
마우스	8145
케인	8146
요한	8147
기갑	8148
##oth	8149
경상남도	8150
하마	8151
미나미	8152
배트맨	8153
뱅크	8154
축복	8155
Or	8156
##산시	8157
파편	8158
라이플	8159
##주교	8160
영지	8161
하계	8162
파동	8163
이펙트	8164
토시	8165
##틀랜드	8166
스펠	8167
나미	8168
한반도	8169
축하	8170
시크	8171
실책	8172
동남	8173
철거	8174
중국어	8175
헤르	8176
완결	8177
소음	8178
장거리	8179
##me	8180
##뚝	8181
롬	8182
과도	8183
피우	8184
해양	8185
개별	8186
후퇴	8187
지향	8188
변수	8189
차체	8190
##하마	8191
갈아	8192
침묵	8193
틴	8194
원문	8195
팬텀	8196
이글	8197
보이스	8198
1981	8199
리카	8200
복선	8201
##곽	8202
와타	8203
##ows	8204
##부로	8205
;&#	8206
구별	8207
물체	8208
군수	8209
적중	8210
##MP	8211
골키	8212
메이드	8213
날카	8214
약탈	8215
사회주의	8216
상담	8217
막판	8218
치킨	8219
플래그	8220
우세	8221
##TS	8222
스트리트	8223
취득	8224
##끈	8225
무인	8226
경직	8227
기동성	8228
스케	8229
후자	8230
필리핀	8231
간단히	8232
남매	8233
##먼스	8234
왜곡	8235
연습생	8236
약물	8237
손실	8238
노조	8239
결투	8240
슬라이	8241
리오	8242
##무시	8243
내일	8244
근거리	8245
솔직	8246
브라운	8247
랄	8248
부실	8249
두들	8250
무작위	8251
성전	8252
램	8253
신나	8254
집합	8255
규격	8256
##잠	8257
오이	8258
1979	8259
지칭	8260
##륨	8261
주류	8262
##ᆫ들	8263
부착	8264
집권	8265
수능	8266
동급	8267
급하	8268
흰색	8269
##화점	8270
국정	8271
테츠	8272
선행	8273
개발자	8274
##빵	8275
날카롭	8276
중시	8277
패키지	8278
넘버	8279
센스	8280
멜로디	8281
##IG	8282
밀어	8283
##aw	8284
교토	8285
##경기	8286
만주	8287
##ale	8288
줍	8289
딕	8290
커녕	8291
수급	8292
독일군	8293
CG	8294
제네	8295
스즈	8296
바쁘	8297
야수	8298
전망	8299
골키퍼	8300
망가지	8301
Sc	8302
그날	8303
유전	8304
피트	8305
유성	8306
##그나	8307
##다보	8308
질리	8309
안개	8310
파생	8311
킬러	8312
최상위	8313
일당	8314
캄	8315
특별히	8316
##딱	8317
무산	8318
영화제	8319
신발	8320
최적	8321
양상	8322
기세	8323
For	8324
엔드	8325
원조	8326
무사히	8327
캘리	8328
괜히	8329
##프리카	8330
서기	8331
베를린	8332
즈음	8333
##아키	8334
##ike	8335
##뇨	8336
끼우	8337
##하시	8338
대포	8339
##겹	8340
핑크	8341
싱크	8342
모스크	8343
틸	8344
마법소녀	8345
프리미엄	8346
사키	8347
##야수	8348
##네시아	8349
##몸	8350
타쿠	8351
##ep	8352
잎	8353
업계	8354
SNS	8355
##자와	8356
간간	8357
선조	8358
##ach	8359
Cl	8360
여러분	8361
##man	8362
##공항	8363
출루	8364
##아이	8365
이웃	8366
야구장	8367
청주	8368
페이스북	8369
장탄	8370
주행	8371
Dr	8372
영원히	8373
대치	8374
##ᆯ로그	8375
응용	8376
175	8377
바디	8378
권위	8379
진격	8380
히가시	8381
뭉치	8382
##군다나	8383
왜냐	8384
##irl	8385
랑	8386
기호	8387
##우치	8388
입주	8389
록맨	8390
모로	8391
뤼	8392
첼시	8393
##ile	8394
##밋	8395
Mo	8396
부동	8397
장사	8398
PV	8399
##OU	8400
룩	8401
계시	8402
서서히	8403
임팩트	8404
이와	8405
협정	8406
중복	8407
RPG	8408
동경	8409
벙	8410
시비	8411
해산	8412
##바닥	8413
호랑이	8414
여인	8415
더군다나	8416
선임	8417
야마토	8418
102	8419
폭행	8420
챌린지	8421
투쟁	8422
원형	8423
당대	8424
며칠	8425
초인	8426
암살자	8427
##둘	8428
매번	8429
벨트	8430
후임	8431
프리미어	8432
관여	8433
직장	8434
올스타	8435
무시무시	8436
106	8437
117	8438
최우	8439
GP	8440
플러스	8441
트루	8442
귀국	8443
풋	8444
연산	8445
나르	8446
챔피언십	8447
프로토	8448
악몽	8449
개신교	8450
사리	8451
##토스	8452
오스만	8453
FM	8454
##지만	8455
개장	8456
##ink	8457
리프	8458
OP	8459
연구원	8460
슬프	8461
신자	8462
확산	8463
추방	8464
BB	8465
##ial	8466
서클	8467
##철도	8468
동아리	8469
세리	8470
고장	8471
##하르트	8472
천연	8473
몫	8474
Sk	8475
아틀	8476
사립	8477
합계	8478
잠입	8479
##든지	8480
엘리자	8481
수비력	8482
끌려가	8483
퍼포	8484
도마	8485
퍼포먼스	8486
꿰	8487
어이	8488
수립	8489
페널티	8490
합리	8491
인방	8492
구성원	8493
LA	8494
지팡이	8495
제독	8496
##ish	8497
115	8498
공수	8499
웰	8500
중장	8501
에릭	8502
무술	8503
징역	8504
##여객	8505
권장	8506
조상	8507
인피	8508
선사	8509
팡	8510
##VA	8511
주관	8512
성경	8513
배역	8514
굵	8515
해킹	8516
긴급	8517
UN	8518
Team	8519
감싸	8520
에서	8521
상한	8522
수동	8523
배급	8524
Bla	8525
여야	8526
드레	8527
체인지	8528
독점	8529
이종	8530
돌연	8531
##승부	8532
##ᅡᆯ린	8533
물량	8534
장로	8535
##므	8536
CH	8537
파란색	8538
임의	8539
비비	8540
##런트	8541
메이커	8542
에디	8543
기동전	8544
폐기	8545
데이트	8546
DD	8547
의외로	8548
나비	8549
국어	8550
국당	8551
김경	8552
가디언	8553
ᆯ게	8554
##킥	8555
청와	8556
하인	8557
SU	8558
회색	8559
닐	8560
저하	8561
미국인	8562
가만히	8563
사무소	8564
쇼핑	8565
##콜	8566
풍부	8567
ᄇ시오	8568
##데드	8569
##어놓	8570
신입	8571
댄	8572
해내	8573
일람	8574
##슴	8575
##II	8576
쌀	8577
##ower	8578
출간	8579
평점	8580
마물	8581
김상	8582
건네	8583
##쿠라	8584
세팅	8585
코난	8586
모집	8587
조명	8588
복원	8589
렌즈	8590
Ne	8591
배달	8592
##앉	8593
##운동	8594
트릭	8595
청와대	8596
언데드	8597
야간	8598
공백	8599
면허	8600
스타디	8601
명백	8602
공인	8603
지연	8604
##튬	8605
포즈	8606
스파이더	8607
바둑	8608
안양	8609
화산	8610
마다	8611
광산	8612
전라남도	8613
여전	8614
장신	8615
증폭	8616
교단	8617
라이너	8618
전무	8619
만만	8620
일화	8621
##IM	8622
##첼	8623
냐면	8624
목사	8625
행방	8626
육상	8627
유미	8628
억지로	8629
감동	8630
만일	8631
다가가	8632
와카	8633
택시	8634
##시오	8635
듀오	8636
간호	8637
명의	8638
기장	8639
빌딩	8640
뽑아내	8641
재회	8642
엄격	8643
이라크	8644
방치	8645
김진	8646
##슬라	8647
아레나	8648
무스	8649
##ᆻ다	8650
거스	8651
이란	8652
##블로	8653
끊임	8654
승무원	8655
여학생	8656
##GE	8657
더러	8658
분당	8659
즉사	8660
Star	8661
택하	8662
자비	8663
##오루	8664
감상	8665
궁금	8666
혼돈	8667
장미	8668
평일	8669
BS	8670
잠들	8671
##언스	8672
우주선	8673
피닉스	8674
썬더	8675
대단히	8676
발목	8677
신학	8678
버섯	8679
매출	8680
우즈	8681
산맥	8682
스테이	8683
규제	8684
##벳	8685
유출	8686
계수	8687
불량	8688
광선	8689
##늦	8690
타이거즈	8691
추리	8692
캐치	8693
##키스탄	8694
##리코	8695
통틀	8696
천문	8697
청구	8698
부서지	8699
수색	8700
오메	8701
김기	8702
##ᆺ이	8703
we	8704
##99	8705
센트	8706
닝	8707
국무	8708
포켓몬스터	8709
쿠라	8710
코멘트	8711
뮌	8712
DC	8713
고소	8714
##벌레	8715
시사	8716
수비수	8717
페리	8718
베이징	8719
And	8720
ID	8721
350	8722
고블린	8723
깜짝	8724
All	8725
PR	8726
우월	8727
국제공항	8728
##타카	8729
뒤지	8730
우드	8731
재학	8732
되게	8733
##!!	8734
처참	8735
상관없이	8736
우익	8737
해머	8738
Wind	8739
##드레	8740
실장	8741
출범	8742
박지	8743
##히코	8744
Man	8745
본토	8746
버드	8747
드루	8748
우유	8749
붐	8750
합동	8751
배수	8752
벌리	8753
축소	8754
시상식	8755
실내	8756
시바	8757
기쁘	8758
##체스터	8759
War	8760
##ass	8761
뚫리	8762
바르셀	8763
만지	8764
포장	8765
안쪽	8766
질투	8767
바르셀로나	8768
혈액	8769
고로	8770
##농	8771
비웃	8772
스탠드	8773
심의	8774
유언	8775
조롱	8776
##틀리	8777
##번에	8778
다운로드	8779
톨	8780
라이온즈	8781
탐정	8782
승진	8783
레일	8784
난사	8785
디즈니	8786
##나오	8787
당사자	8788
운수	8789
##벅	8790
파이트	8791
토미	8792
바스	8793
호시	8794
수직	8795
온천	8796
알라	8797
LP	8798
##gh	8799
##11	8800
세금	8801
협의	8802
로빈	8803
여섯	8804
##래시	8805
리가	8806
치열	8807
스타디움	8808
ᆫ데다	8809
태풍	8810
에픽	8811
따뜻	8812
##카락	8813
##잘	8814
평론	8815
##궐	8816
##ib	8817
##뮬	8818
##pp	8819
머리카락	8820
##춤	8821
108	8822
360	8823
메이플	8824
말ᄊ	8825
충청남도	8826
짤	8827
스미스	8828
파멸	8829
up	8830
의자	8831
서포트	8832
세라	8833
112	8834
루크	8835
##orm	8836
한두	8837
캘리포	8838
파울	8839
권유	8840
fe	8841
##ft	8842
##페라	8843
실현	8844
체감	8845
골렘	8846
##졸	8847
젤리	8848
극도	8849
키타	8850
##민주	8851
압력	8852
##사이	8853
소용	8854
시외	8855
나기	8856
스텝	8857
인접	8858
기리	8859
우치	8860
정발	8861
오로지	8862
기력	8863
뒤늦	8864
검술	8865
전당	8866
여파	8867
황후	8868
도저히	8869
티아	8870
타르	8871
텟	8872
모험가	8873
특급	8874
1978	8875
##tle	8876
스테이션	8877
New	8878
사이코	8879
슬리	8880
손자	8881
탐지	8882
낙하	8883
One	8884
캘리포니아	8885
나노	8886
모임	8887
조용히	8888
마코토	8889
반부	8890
중지	8891
배제	8892
##ous	8893
##ᆯ러스	8894
##릇	8895
비유	8896
오락	8897
##스티벌	8898
러시	8899
페스티벌	8900
미르	8901
##렐라	8902
라라	8903
분산	8904
103	8905
아쉬	8906
단종	8907
지인	8908
지목	8909
직선	8910
SF	8911
물품	8912
마카	8913
루머	8914
Mar	8915
반감	8916
##CG	8917
묶이	8918
##앤	8919
비명	8920
나마	8921
범죄자	8922
전남	8923
신용	8924
엽	8925
스티븐	8926
중순	8927
마냥	8928
자꾸	8929
일요일	8930
맥주	8931
프렌	8932
AKB	8933
서머	8934
가난	8935
리즈	8936
어시스트	8937
모듈	8938
##려받	8939
##sp	8940
조르	8941
로맨	8942
강등	8943
붙잡히	8944
주최	8945
1973	8946
주교	8947
폭파	8948
케이블	8949
오우	8950
바니	8951
넘어서	8952
##amp	8953
동반	8954
##가드	8955
함락	8956
##now	8957
토큰	8958
힙합	8959
나스	8960
##ms	8961
##ment	8962
재개	8963
리버풀	8964
이글스	8965
미미	8966
드림	8967
기부	8968
센서	8969
생전	8970
루피	8971
캐시	8972
##70	8973
꼬이	8974
거북	8975
조커	8976
수월	8977
##yle	8978
실은	8979
농장	8980
To	8981
부딪히	8982
추세	8983
불행	8984
무승부	8985
강사	8986
##atch	8987
##튀	8988
베테	8989
유의	8990
184	8991
스핀	8992
토키	8993
암호	8994
조우	8995
낙선	8996
홋	8997
젖	8998
막아내	8999
체중	9000
넘어지	9001
명문	9002
##버그	9003
능력자	9004
타일	9005
##란히	9006
인자	9007
IN	9008
고속도로	9009
알바	9010
카구	9011
김해	9012
기수	9013
할로	9014
이나	9015
ex	9016
수염	9017
좌절	9018
비틀	9019
토요일	9020
중부	9021
연봉	9022
Part	9023
##도리	9024
당당	9025
비극	9026
##뚜	9027
대성	9028
드론	9029
원시	9030
아가씨	9031
신속	9032
개척	9033
명목	9034
##플레	9035
ON	9036
중화민국	9037
여고	9038
적자	9039
##테이	9040
모스	9041
깊이	9042
##쿨	9043
기묘	9044
김용	9045
얻어맞	9046
진상	9047
빨간	9048
퍼부	9049
수습	9050
더빙	9051
훼손	9052
CS	9053
음료	9054
128	9055
배드	9056
끓	9057
조카	9058
##슬러	9059
구조물	9060
입자	9061
BR	9062
##케이션	9063
패전	9064
두렵	9065
주체	9066
바론	9067
쿤	9068
실시간	9069
살아나	9070
후회	9071
막상	9072
경악	9073
극히	9074
엄밀	9075
야쿠	9076
##hen	9077
KR	9078
##브라	9079
Gam	9080
던가	9081
고시	9082
183	9083
믹스	9084
도리	9085
히틀러	9086
리온	9087
##ING	9088
코마	9089
까이	9090
각지	9091
영감	9092
변동	9093
##어트	9094
##ree	9095
억제	9096
산탄	9097
##저리	9098
혜택	9099
1974	9100
채보	9101
하여	9102
쿠데	9103
유망	9104
##ae	9105
##ase	9106
나루토	9107
엑시	9108
듀스	9109
##킷	9110
소니	9111
집어넣	9112
에반	9113
혁신	9114
상반	9115
까마	9116
PP	9117
리처	9118
배려	9119
샤이	9120
엎	9121
총장	9122
질서	9123
팁	9124
##64	9125
장성	9126
잠실	9127
둠	9128
경북	9129
되돌	9130
World	9131
캣	9132
대시	9133
하프	9134
구동	9135
재건	9136
ᆫ다거나	9137
국판	9138
꽉	9139
복사	9140
번지	9141
##놀	9142
휴가	9143
코믹	9144
도장	9145
구장	9146
핀란드	9147
바지	9148
1972	9149
늙	9150
노가	9151
호남	9152
선수단	9153
날씨	9154
다투	9155
시로	9156
찬성	9157
철권	9158
이라	9159
반짝	9160
쇼크	9161
##밭	9162
포탄	9163
견해	9164
말기	9165
계층	9166
해병대	9167
꼬마	9168
벤치	9169
얽	9170
이타	9171
그랑	9172
대행	9173
마땅	9174
##불명	9175
쳐들	9176
##구장	9177
지수	9178
나요	9179
##베리	9180
##az	9181
슬라	9182
고증	9183
##사리	9184
스코틀랜드	9185
투척	9186
첫째	9187
사퇴	9188
동해	9189
##방송	9190
에로	9191
닉네임	9192
아이러	9193
천황	9194
유재	9195
수여	9196
뻥	9197
장탄수	9198
그라운드	9199
갈색	9200
##노리	9201
카리	9202
짙	9203
사무실	9204
메트로	9205
트로피	9206
퍼즐	9207
사이클	9208
제이스	9209
레온	9210
역습	9211
껍	9212
##기에	9213
가담	9214
달려가	9215
운송	9216
걸즈	9217
제치	9218
근원	9219
할리	9220
거론	9221
유니크	9222
JT	9223
중동	9224
사로	9225
동행	9226
##빨	9227
공격수	9228
프랑스어	9229
네티	9230
장례	9231
샷건	9232
수지	9233
##ear	9234
때려	9235
동서	9236
최저	9237
짐작	9238
ᄇ니까	9239
산타	9240
거칠	9241
감수	9242
확장팩	9243
##ᅥ하	9244
기뻐하	9245
AN	9246
키보드	9247
휠	9248
동아	9249
여의	9250
##ason	9251
튼	9252
제갈량	9253
라즈	9254
첸	9255
유입	9256
보라색	9257
220	9258
##12	9259
평하	9260
빨간색	9261
공감	9262
1975	9263
뮌헨	9264
So	9265
무용	9266
챔	9267
함부로	9268
상사	9269
인재	9270
세자	9271
돌보	9272
##클리	9273
어쩌면	9274
부시	9275
포스터	9276
고무	9277
래퍼	9278
##러그	9279
노란색	9280
패밀리	9281
마일	9282
잭슨	9283
짐승	9284
오브젝트	9285
인과	9286
퇴각	9287
백화점	9288
##느리	9289
##AY	9290
GO	9291
리미	9292
재직	9293
여럿	9294
샵	9295
영양	9296
왕실	9297
특별시	9298
매주	9299
가구	9300
덴마크	9301
시그	9302
보좌	9303
##돌이	9304
갚	9305
마오	9306
대령	9307
##MS	9308
인도네시아	9309
##직자	9310
결제	9311
진급	9312
##앞	9313
각오	9314
기스	9315
1976	9316
사관	9317
엔지	9318
알렉스	9319
베기	9320
##are	9321
소재지	9322
라크	9323
베어스	9324
양손	9325
안심	9326
피로	9327
전날	9328
정반	9329
반도	9330
JP	9331
##이너	9332
세로	9333
##iki	9334
##우트	9335
페어	9336
장난감	9337
호불	9338
호불호	9339
강림	9340
원더	9341
와인	9342
탐색	9343
경호	9344
사야	9345
상주	9346
셔틀	9347
후반기	9348
비기	9349
##웰	9350
##사기	9351
완공	9352
트레이너	9353
240	9354
드레스	9355
여단	9356
차갑	9357
관료	9358
킷	9359
오더	9360
연쇄	9361
##토니	9362
도덕	9363
흔들	9364
포획	9365
모형	9366
메이지	9367
신선	9368
##지르	9369
카자	9370
시카고	9371
##차기	9372
##저기	9373
프린세스	9374
##키스	9375
당기	9376
포도	9377
도어	9378
빠져나가	9379
네티즌	9380
연설	9381
봉쇄	9382
오니	9383
##ng	9384
흡사	9385
마계	9386
문화재	9387
토대	9388
지부	9389
우호	9390
##케이드	9391
생체	9392
가두	9393
역명	9394
##bo	9395
국도	9396
아베	9397
탐사	9398
밀어내	9399
화폐	9400
타이탄	9401
sp	9402
막강	9403
점유	9404
거든	9405
##베이터	9406
##ife	9407
여기저기	9408
하하	9409
선진	9410
##박스	9411
쇄	9412
##루미	9413
유혹	9414
결혼식	9415
역량	9416
우측	9417
##gin	9418
루프	9419
학생회	9420
세뇌	9421
집회	9422
양반	9423
##ven	9424
강렬	9425
소금	9426
##슈타인	9427
요미	9428
뜬금없이	9429
콘솔	9430
##렉션	9431
OS	9432
끌리	9433
려다가	9434
말레이	9435
클론	9436
시모	9437
FW	9438
출산	9439
##레일리아	9440
케이드	9441
쿠데타	9442
벨기에	9443
두들기	9444
경찰서	9445
신중	9446
흙	9447
##껍	9448
##AP	9449
방탄	9450
약자	9451
깎이	9452
날뛰	9453
방송사	9454
무실	9455
교복	9456
성분	9457
ᆯ려	9458
tv	9459
다큐	9460
원곡	9461
서바이	9462
청나라	9463
후미	9464
우회	9465
돋보이	9466
콤비	9467
선박	9468
##ade	9469
침대	9470
부작용	9471
Wi	9472
무공	9473
모스크바	9474
일곱	9475
기차	9476
트라우마	9477
빈도	9478
위로	9479
바나	9480
겔	9481
박쥐	9482
간섭	9483
법무	9484
중심지	9485
AFC	9486
윈드	9487
발명	9488
트윈스	9489
노르웨이	9490
공산주의	9491
폭스	9492
프라임	9493
아이디어	9494
전동차	9495
김준	9496
비스트	9497
스즈키	9498
원주민	9499
제물	9500
##에른	9501
통칭	9502
소득	9503
아이러니	9504
##90	9505
##ᆫ바	9506
침투	9507
포터	9508
##ᆺ불	9509
변이	9510
마라	9511
##하나	9512
출혈	9513
마냥	9514
로이드	9515
트랩	9516
##act	9517
당초	9518
연금술	9519
이스트	9520
취업	9521
NH	9522
드로우	9523
##ank	9524
전락	9525
##헬	9526
결계	9527
창문	9528
홀리	9529
튼튼	9530
리안	9531
밀려나	9532
##out	9533
소통	9534
강경	9535
##천군	9536
박살나	9537
품질	9538
토하	9539
http	9540
중점	9541
MB	9542
오노	9543
104	9544
##싸움	9545
##아치	9546
상무	9547
탭	9548
노무	9549
소나	9550
##ork	9551
콘스탄	9552
##lect	9553
##oll	9554
선장	9555
체코	9556
글씨	9557
판사	9558
123	9559
허무	9560
순양함	9561
이순	9562
단행본	9563
부재	9564
저자	9565
장판	9566
항해	9567
https	9568
하스	9569
##와라	9570
아바타	9571
히로시	9572
도쿠	9573
제재	9574
크라이	9575
라니	9576
전향	9577
홀드	9578
##aby	9579
Do	9580
명명	9581
기하	9582
손꼬	9583
1971	9584
혈통	9585
명사	9586
독일어	9587
이른바	9588
책임지	9589
강간	9590
성씨	9591
검토	9592
##흔	9593
리코	9594
낭비	9595
다스리	9596
나아지	9597
도감	9598
##데레	9599
##깨비	9600
##므로	9601
공대	9602
##ET	9603
대타	9604
쓸데	9605
##ich	9606
입증	9607
##ai	9608
분할	9609
조종사	9610
외곽	9611
구상	9612
시호	9613
앤드	9614
도트	9615
발레	9616
오지	9617
검증	9618
##루션	9619
워크	9620
클린	9621
찰스	9622
Up	9623
전송	9624
승차	9625
장남	9626
스트라이커	9627
티스	9628
신데	9629
##ey	9630
바이에른	9631
1977	9632
~!	9633
공헌	9634
히스	9635
토요	9636
페미니	9637
마틴	9638
트레일러	9639
단기	9640
관통력	9641
##ary	9642
%/	9643
한창	9644
경연	9645
히든	9646
do	9647
모니터	9648
##추어	9649
깃발	9650
III	9651
장애물	9652
끌어들이	9653
왕비	9654
광물	9655
존스	9656
우승자	9657
전격	9658
오페라	9659
김일	9660
끊임없이	9661
대법	9662
디시	9663
브라이언	9664
백업	9665
싱가	9666
태클	9667
싱가포르	9668
유연	9669
넘어오	9670
루마	9671
Fate	9672
##way	9673
마피아	9674
부유	9675
오스트레일리아	9676
진단	9677
사사	9678
질량	9679
술사	9680
no	9681
실상	9682
매니아	9683
그러므로	9684
엘리베이터	9685
182	9686
신데렐라	9687
성실	9688
##페이	9689
을수록	9690
워크래프트	9691
형편	9692
라스트	9693
LIVE	9694
보고서	9695
커스텀	9696
대변	9697
강릉	9698
마트	9699
크레이	9700
우울	9701
##니시	9702
부패	9703
렉스	9704
파도	9705
간간히	9706
드로	9707
입문	9708
교리	9709
##바야	9710
충족	9711
손오	9712
스나이	9713
##저우	9714
딸리	9715
##ᆯ릿	9716
최선	9717
범용	9718
손쉽	9719
고고	9720
동전	9721
큰	9722
135	9723
설령	9724
엘레	9725
학사	9726
##스카	9727
재배	9728
중기	9729
리모	9730
왜냐하면	9731
파밍	9732
올드	9733
원장	9734
검열	9735
이어받	9736
유료	9737
대동	9738
박정희	9739
고종	9740
Ad	9741
119	9742
##UM	9743
레이블	9744
창립	9745
연간	9746
확신	9747
사로잡	9748
천천	9749
ES	9750
여타	9751
특공	9752
##바지	9753
쯔	9754
대접	9755
하반	9756
사악	9757
are	9758
올바르	9759
탄핵	9760
보스턴	9761
하급	9762
나폴레	9763
압축	9764
초상	9765
키라	9766
Day	9767
일체	9768
109	9769
스타리그	9770
스피릿	9771
뉘	9772
급행	9773
1969	9774
##톡	9775
마산	9776
근접전	9777
중위	9778
맞붙	9779
중상	9780
섀도우	9781
##플링	9782
단백	9783
1968	9784
예약	9785
지선	9786
공통점	9787
나폴레옹	9788
끌어올리	9789
왼손	9790
토마스	9791
평등	9792
Oh	9793
카시	9794
따라오	9795
정석	9796
##넌	9797
##벤처	9798
명분	9799
제왕	9800
일관	9801
어드벤처	9802
##orn	9803
##타입	9804
초콜릿	9805
##더라	9806
한나라	9807
시게	9808
##pt	9809
##모스	9810
중고	9811
한나라당	9812
넬	9813
유엔	9814
시온	9815
미지	9816
전생	9817
##렇	9818
부속	9819
조국	9820
석유	9821
벅	9822
쿠스	9823
디자이너	9824
김수	9825
##께끼	9826
수수께끼	9827
으려는	9828
잔인	9829
카더라	9830
강전	9831
자네	9832
트리거	9833
렘	9834
##르타	9835
케빈	9836
트롤	9837
##모함	9838
곡인	9839
불태우	9840
마운	9841
공단	9842
##사스	9843
##동자	9844
저기	9845
구독	9846
본질	9847
##으로	9848
지붕	9849
이현	9850
천천히	9851
얇	9852
##어드	9853
단검	9854
흩어지	9855
베테랑	9856
Mk	9857
터스	9858
##의자	9859
소모량	9860
강호	9861
군부	9862
수인	9863
친절	9864
엔지니어	9865
##능력	9866
꿈꾸	9867
리처드	9868
스태프	9869
코스튬	9870
##가루	9871
보르	9872
망명	9873
잉여	9874
민중	9875
메일	9876
우루	9877
질주	9878
##퍼드	9879
머물	9880
긁	9881
121	9882
##키리	9883
동구	9884
발판	9885
단발	9886
홋카이도	9887
##라미	9888
관우	9889
all	9890
연수	9891
갑작스럽	9892
손오공	9893
이병	9894
선교	9895
아스카	9896
사촌	9897
동정	9898
##샷	9899
화상	9900
카카오	9901
씌우	9902
치카	9903
##하루	9904
유망주	9905
145	9906
땅볼	9907
br	9908
이오	9909
비리	9910
주식회사	9911
성배	9912
톡	9913
1963	9914
그릇	9915
기울이	9916
총독	9917
고스	9918
니혼	9919
lv	9920
플랜	9921
이틀	9922
##다운	9923
과자	9924
손님	9925
무제	9926
퀵	9927
고는	9928
##렷	9929
굴욕	9930
후일	9931
버스트	9932
이모	9933
너머	9934
nd	9935
##네마	9936
에이지	9937
레이디	9938
농민	9939
테이블	9940
쓰리	9941
자제	9942
친분	9943
소집	9944
107	9945
##플리	9946
프로게이	9947
프로게이머	9948
전라북도	9949
##ah	9950
메리트	9951
도깨비	9952
리퍼	9953
하사	9954
##iver	9955
삼성전자	9956
폭격기	9957
##테이션	9958
오메가	9959
열정	9960
="	9961
머니	9962
합작	9963
극대	9964
178	9965
맹세	9966
현금	9967
달아나	9968
명시	9969
교차로	9970
작위	9971
Windows	9972
어색	9973
퍼스트	9974
항공모함	9975
위엄	9976
자율	9977
##마르	9978
브라더스	9979
RA	9980
평행	9981
김포	9982
IT	9983
에드워드	9984
강점기	9985
왕복	9986
단백질	9987
쫓겨나	9988
춥	9989
FF	9990
미궁	9991
그레이트	9992
종결	9993
##스레	9994
블레이	9995
땡	9996
조화	9997
디펜	9998
지력	9999
스택	10000
##ph	10001
엔트리	10002
마그	10003
라그나	10004
원숭이	10005
니아	10006
ML	10007
필름	10008
이경	10009
화해	10010
점검	10011
서명	10012
165	10013
리틀	10014
마타	10015
##EM	10016
존중	10017
백만	10018
Sw	10019
파운드	10020
시외버스	10021
대박	10022
윤리	10023
천장	10024
박살내	10025
썸	10026
부스	10027
##uck	10028
스티브	10029
오렌	10030
카리스	10031
에버	10032
지분	10033
자책점	10034
가설	10035
대전차	10036
와이번	10037
후드	10038
일가	10039
평론가	10040
파스	10041
완화	10042
광기	10043
##켈	10044
프랜	10045
임진	10046
AA	10047
신동	10048
봉사	10049
그립	10050
DP	10051
화석	10052
출판사	10053
하이라이트	10054
분자	10055
감자	10056
##urn	10057
진에	10058
계곡	10059
##군가	10060
피카	10061
물자	10062
유치원	10063
이이	10064
터트리	10065
정사	10066
인칭	10067
과일	10068
촉수	10069
변태	10070
으라고	10071
서적	10072
공신	10073
젬	10074
매각	10075
다니엘	10076
엑시즈	10077
고집	10078
유탄	10079
사체	10080
섹	10081
##우라	10082
1930	10083
여포	10084
대위	10085
보편	10086
##소년	10087
러스	10088
##ool	10089
츠카	10090
원전	10091
지오	10092
##아들	10093
스가	10094
시골	10095
자존	10096
##ero	10097
면하	10098
누군가	10099
113	10100
관장	10101
마술사	10102
초점	10103
Con	10104
표절	10105
".	10106
##끗	10107
잊히	10108
해소	10109
Ph	10110
교과서	10111
사우스	10112
입사	10113
ne	10114
병역	10115
맨체스터	10116
앗	10117
181	10118
사족	10119
유가	10120
몸통	10121
카마	10122
진동	10123
여서	10124
탄압	10125
하치	10126
총합	10127
프로그래	10128
JTBC	10129
노무현	10130
##바나	10131
수천	10132
호크	10133
##ical	10134
외우	10135
꺼리	10136
210	10137
무실점	10138
지역구	10139
쳐들어	10140
자산	10141
감탄	10142
챔프	10143
줄기	10144
착륙	10145
1920	10146
이대로	10147
산소	10148
##막지	10149
무지막지	10150
까지	10151
##anc	10152
주축	10153
경사	10154
게이머	10155
마케팅	10156
떨치	10157
NBA	10158
란스	10159
서열	10160
사수	10161
중거리	10162
모순	10163
광명	10164
터보	10165
서방	10166
BPM	10167
Cr	10168
솟	10169
임하	10170
파랗	10171
손꼽히	10172
도심	10173
스포일러	10174
검정	10175
실체	10176
친척	10177
DPS	10178
개명	10179
##구미	10180
부원	10181
초청	10182
메카닉	10183
유격수	10184
155	10185
타구	10186
디오	10187
김지	10188
프론	10189
힘입	10190
부천	10191
선로	10192
국방부	10193
지혜	10194
토트	10195
말씀	10196
179	10197
마유	10198
표적	10199
액체	10200
동대	10201
라이언	10202
철저히	10203
##겔	10204
고아	10205
테스	10206
##지아	10207
##ung	10208
슬픔	10209
브레이커	10210
발발	10211
호의	10212
1940	10213
##은색	10214
제니	10215
결의	10216
##ype	10217
부산광역시	10218
닦	10219
##센스	10220
향후	10221
냉정	10222
배구	10223
장타	10224
동속	10225
데빌	10226
시뮬	10227
노가다	10228
Qu	10229
엘리자베스	10230
성명	10231
122	10232
152	10233
로프	10234
##업자	10235
용산	10236
매트	10237
불쌍	10238
빙판	10239
불능	10240
##변이	10241
돌연변이	10242
겸하	10243
144	10244
동성애	10245
매드	10246
미오	10247
쨩	10248
##ARD	10249
에미	10250
겜	10251
곤충	10252
지장	10253
스노우	10254
at	10255
라마	10256
이노	10257
브래	10258
##잉	10259
마인드	10260
주석	10261
블리자드	10262
##ᆺ속	10263
1967	10264
서류	10265
북아	10266
모델링	10267
참사	10268
##ens	10269
이케	10270
일렉트	10271
우타	10272
중구	10273
##리칸	10274
집계	10275
일리	10276
유니버스	10277
레이어	10278
때로	10279
골프	10280
외국어	10281
그해	10282
광경	10283
치안	10284
스폰서	10285
김유	10286
아깝	10287
목걸이	10288
앓	10289
발탁	10290
마당	10291
##very	10292
은지	10293
다케	10294
비우	10295
##질랜드	10296
##멧	10297
로크	10298
미러	10299
가이드	10300
변장	10301
실용	10302
뉴질랜드	10303
기질	10304
씨앗	10305
행진	10306
문양	10307
모음	10308
상금	10309
부스트	10310
페스	10311
마하	10312
김승	10313
사직	10314
어벤	10315
아마추어	10316
민간인	10317
고사	10318
내버리	10319
##ence	10320
##드러지	10321
중원	10322
##시피	10323
amp	10324
유아	10325
취재	10326
케이크	10327
텍사스	10328
기소	10329
무늬	10330
##항공	10331
시어	10332
좌익	10333
정문	10334
카지	10335
{{{#	10336
##시스코	10337
워터	10338
트윗	10339
##테일	10340
도르	10341
학대	10342
수위	10343
주사위	10344
##ost	10345
아리아	10346
날아다니	10347
박수	10348
울트라맨	10349
멍청	10350
엄연히	10351
워프	10352
##상시	10353
##젤레스	10354
OVA	10355
애칭	10356
##끼리	10357
재앙	10358
이라도	10359
근로	10360
닥치	10361
나나	10362
시조	10363
Station	10364
누스	10365
전지	10366
답답	10367
리나	10368
포크	10369
물어	10370
이빨	10371
우연	10372
질환	10373
레인지	10374
하나하나	10375
녹화	10376
정점	10377
자사	10378
납득	10379
LO	10380
##타운	10381
아지	10382
아아	10383
예의	10384
소비자	10385
본능	10386
햇	10387
절친	10388
스카우트	10389
##nt	10390
국토	10391
쿠니	10392
서울대	10393
from	10394
신하	10395
고등학생	10396
직책	10397
##룬	10398
디바	10399
저서	10400
각도	10401
##ble	10402
열혈	10403
이태	10404
##베트	10405
TVA	10406
난무	10407
압권	10408
##마리	10409
어나	10410
좌측	10411
##ise	10412
Fr	10413
소생	10414
철갑	10415
네이션	10416
편리	10417
경부	10418
강민	10419
##int	10420
##ww	10421
as	10422
관직	10423
쿵	10424
발키리	10425
워즈	10426
패자	10427
초능력	10428
##부지	10429
주머니	10430
정밀	10431
일커	10432
일컫	10433
KOF	10434
실사	10435
혼인	10436
헷갈리	10437
라이즈	10438
용암	10439
침몰	10440
##팽	10441
정성	10442
##밤	10443
114	10444
자칭	10445
카레	10446
오죽	10447
##과이	10448
조항	10449
작정	10450
이념	10451
개교	10452
어나더	10453
##폭탄	10454
드래곤볼	10455
##DD	10456
페르시아	10457
TR	10458
만점	10459
타츠	10460
장벽	10461
##려워하	10462
의정부	10463
쫒	10464
IM	10465
##흉	10466
##쥬	10467
##지능	10468
인공지능	10469
덤비	10470
##ans	10471
##ign	10472
사연	10473
##뱅	10474
도색	10475
이원	10476
love	10477
유스	10478
스케일	10479
발급	10480
어이없	10481
미성	10482
반경	10483
아스트	10484
교역	10485
##띠	10486
이진	10487
##워즈	10488
177	10489
당국	10490
예방	10491
##탱	10492
멋대로	10493
가마	10494
대역	10495
츠바	10496
원로	10497
자아	10498
##이동	10499
엄밀히	10500
포병	10501
롤러	10502
에도	10503
뚜렷	10504
중국인	10505
벙커	10506
아자	10507
리플	10508
남동	10509
사투	10510
웜	10511
거지	10512
박성	10513
마음대로	10514
DNA	10515
아담	10516
코토	10517
재즈	10518
CM	10519
1962	10520
##미터	10521
학급	10522
에디션	10523
이어서	10524
몰살	10525
이대	10526
##리나	10527
리본	10528
##ᆺ말	10529
변명	10530
인성	10531
비키	10532
킴	10533
프레스	10534
옥상	10535
##ug	10536
##야스	10537
고가	10538
안동	10539
마찰	10540
습니까	10541
마모	10542
Super	10543
MG	10544
고의	10545
템플	10546
제사	10547
##민주당	10548
이누	10549
초록색	10550
##툼	10551
개구리	10552
wiki	10553
##oy	10554
알아채	10555
##AK	10556
포착	10557
오렌지	10558
협동	10559
망토	10560
아케이드	10561
##마루	10562
펌프	10563
갱신	10564
방학	10565
스타트	10566
Dream	10567
각인	10568
신지	10569
죄책	10570
지로	10571
초과	10572
격려	10573
튜버	10574
##프라	10575
1966	10576
124	10577
매달리	10578
부채	10579
법사	10580
항모	10581
남동생	10582
민감	10583
명나라	10584
이명박	10585
툰	10586
##이나	10587
극한	10588
##하여	10589
127	10590
선동	10591
스컬	10592
##셈	10593
풍기	10594
혼합	10595
디스플레이	10596
게르	10597
수신	10598
시오	10599
만능	10600
피오	10601
용이	10602
아사히	10603
바쿠	10604
카운티	10605
등극	10606
베스	10607
독립운동	10608
멧	10609
미인	10610
달려들	10611
부동산	10612
통째	10613
너스	10614
1964	10615
다비	10616
원피스	10617
##바야시	10618
CE	10619
수감	10620
연이	10621
!"	10622
##자치	10623
##지사	10624
##텍	10625
적절히	10626
비평	10627
들여	10628
풍선	10629
##떨어지	10630
BJ	10631
연소	10632
마에	10633
리사	10634
can	10635
오다	10636
종영	10637
선포	10638
죄책감	10639
덮치	10640
포탈	10641
코파	10642
슈퍼맨	10643
금강	10644
추후	10645
용자	10646
유진	10647
방심	10648
정신력	10649
대피	10650
USB	10651
헬멧	10652
교도소	10653
로렌	10654
쿠바	10655
협조	10656
www	10657
카테	10658
발전소	10659
으라	10660
후쿠오카	10661
호러	10662
##돌프	10663
아비	10664
연전	10665
##이치로	10666
부러지	10667
엉망	10668
450	10669
고발	10670
##이크	10671
갯	10672
유고	10673
인벤	10674
##뱀	10675
감당	10676
종전	10677
아이디	10678
도약	10679
기법	10680
스케이	10681
다시금	10682
선원	10683
정반대	10684
##바이트	10685
은폐	10686
어설	10687
벨라	10688
신곡	10689
연동	10690
Pl	10691
##vel	10692
학술	10693
내셔널	10694
씻	10695
비단	10696
뛰어들	10697
팔라	10698
트윈	10699
억울	10700
##치아	10701
오른손	10702
스토어	10703
##IR	10704
##나베	10705
최순	10706
트릴	10707
해운	10708
이소	10709
##코트	10710
다거나	10711
블럭	10712
##전차	10713
대차	10714
##철수	10715
펭	10716
왕족	10717
흘러가	10718
스로	10719
분홍	10720
옴	10721
##ode	10722
##페이스	10723
컴백	10724
급격히	10725
IP	10726
덩어리	10727
##뒤	10728
잔혹	10729
this	10730
공속	10731
방침	10732
시타	10733
물려받	10734
유카	10735
##폴	10736
철도역	10737
경성	10738
위쪽	10739
##다드	10740
아울	10741
우마	10742
절벽	10743
##uk	10744
아쿠아	10745
구로	10746
밭	10747
내기	10748
##글링	10749
##쭉	10750
두드러지	10751
보강	10752
아무튼	10753
Sch	10754
페어리	10755
타치	10756
##생활	10757
빌보드	10758
아인	10759
##써	10760
크래프트	10761
녹이	10762
알렉산드	10763
EC	10764
제의	10765
출동	10766
##렉터	10767
득표율	10768
##짱	10769
구형	10770
고립	10771
퍽	10772
사나	10773
뷔	10774
Ver	10775
##ier	10776
발각	10777
욕설	10778
서리	10779
유동	10780
청춘	10781
쉴드	10782
학회	10783
사방	10784
##VER	10785
맞히	10786
얽히	10787
왕가	10788
후유	10789
그러면	10790
162	10791
공동체	10792
사슬	10793
무도	10794
잔류	10795
사무라이	10796
생태	10797
격렬	10798
오케	10799
시크릿	10800
ERA	10801
인문	10802
기본기	10803
침착	10804
##헤이	10805
측근	10806
쿠마	10807
La	10808
내외	10809
사물	10810
Girl	10811
##빡	10812
##속기	10813
코노	10814
##ash	10815
진술	10816
게끔	10817
꾀	10818
비오	10819
호드	10820
어ᄊ	10821
회관	10822
##말로	10823
##나기	10824
대세	10825
##reat	10826
얹	10827
실존	10828
수소	10829
이윤	10830
분배	10831
아랫	10832
마야	10833
애완	10834
리바	10835
키미	10836
나인	10837
강대	10838
젼	10839
##역사	10840
뺏기	10841
문신	10842
마쓰	10843
1200	10844
야당	10845
바시	10846
히카	10847
현자	10848
궁전	10849
방사능	10850
우크라	10851
이행	10852
정조	10853
레이싱	10854
ar	10855
118	10856
이단	10857
미아	10858
카리스마	10859
신한	10860
약혼	10861
박자	10862
전담	10863
Season	10864
애인	10865
탄소	10866
##공사	10867
레나	10868
시시	10869
왕후	10870
함장	10871
##usic	10872
퇴치	10873
징계	10874
부가	10875
스쿼	10876
제주도	10877
월간	10878
반성	10879
중재	10880
style	10881
직위	10882
쿠리	10883
모욕	10884
NO	10885
카쿠	10886
태생	10887
워리어	10888
카피	10889
반역	10890
EXP	10891
판도	10892
사치	10893
DM	10894
가위	10895
존슨	10896
로스앤	10897
로스앤젤레스	10898
진에어	10899
강타	10900
흥분	10901
Col	10902
오퍼	10903
계절	10904
가오	10905
코스프레	10906
제노	10907
테르	10908
중소	10909
1965	10910
러쉬	10911
상부	10912
tr	10913
인쇄	10914
##뱃	10915
타이어	10916
잠기	10917
유재석	10918
이용자	10919
##꿈	10920
노아	10921
이카	10922
김구	10923
화기	10924
충청북도	10925
탈환	10926
궁합	10927
물리학	10928
브론	10929
모나	10930
아리스	10931
급속	10932
리라	10933
종로	10934
자이언트	10935
지루	10936
WC	10937
갈라지	10938
스모	10939
카네	10940
1948	10941
군요	10942
Vol	10943
##te	10944
한양	10945
로스트	10946
암컷	10947
중견	10948
시종	10949
앨런	10950
박진	10951
벗기	10952
말레이시아	10953
건너가	10954
##IX	10955
점심	10956
피자	10957
스탈린	10958
아처	10959
750	10960
오사	10961
정전	10962
이놈	10963
돌려주	10964
콰	10965
금요일	10966
불러오	10967
Ed	10968
흑마	10969
도미	10970
흡혈귀	10971
##사르	10972
##수리	10973
일환	10974
##딸	10975
안토니	10976
중도	10977
입원	10978
비자	10979
##티노	10980
기동력	10981
우지	10982
친애	10983
##ose	10984
##슐	10985
퀴즈	10986
우두	10987
Max	10988
항공사	10989
1944	10990
유우키	10991
##ail	10992
Night	10993
회로	10994
은메달	10995
난민	10996
노랗	10997
사임	10998
관문	10999
실적	11000
등재	11001
한하	11002
314	11003
루리	11004
공국	11005
고인	11006
부처	11007
황당	11008
시범	11009
마르코	11010
##방울	11011
에밀리	11012
김치	11013
레아	11014
생김새	11015
안무	11016
청하	11017
##리얼	11018
자존심	11019
방언	11020
입시	11021
학년도	11022
동메달	11023
황태	11024
섬기	11025
피지컬	11026
섭취	11027
##사랑	11028
벌써	11029
라미	11030
대검	11031
두려워하	11032
##렙	11033
방정	11034
AV	11035
스나이퍼	11036
능가	11037
TS	11038
성사	11039
##탐정	11040
로키	11041
숙소	11042
천상	11043
망설	11044
적시타	11045
조립	11046
막부	11047
코로나	11048
##보기	11049
건지	11050
--	11051
치이	11052
대학생	11053
극심	11054
골치	11055
뚱	11056
그간	11057
욕망	11058
##닛	11059
##ition	11060
응답	11061
토트넘	11062
요격	11063
불길	11064
168	11065
##ild	11066
1946	11067
석사	11068
잼	11069
GM	11070
##톨	11071
닷	11072
욱	11073
불참	11074
프랑크	11075
##킬	11076
스타즈	11077
탈취	11078
##서스	11079
거세	11080
에메	11081
해역	11082
차장	11083
스파이더맨	11084
##시고	11085
아오이	11086
그란	11087
리프트	11088
쿠르	11089
얼티	11090
아메리칸	11091
각국	11092
##시대	11093
뱅가드	11094
통솔	11095
과시	11096
토라	11097
까마귀	11098
절단	11099
무신	11100
확립	11101
할로윈	11102
오만	11103
라우	11104
여태	11105
나이프	11106
그쪽	11107
펑크	11108
##부키	11109
이야	11110
스피어	11111
련	11112
피난	11113
칼라	11114
모종	11115
Black	11116
페르소	11117
159	11118
HE	11119
부끄럽	11120
나이츠	11121
한꺼	11122
헤라	11123
희생자	11124
한꺼번에	11125
##바리	11126
다녀	11127
필사	11128
천국	11129
##구니	11130
BC	11131
Let	11132
이별	11133
요코하마	11134
##}}	11135
대안	11136
so	11137
인텔	11138
하여금	11139
ld	11140
레버	11141
필라	11142
신생	11143
##클린	11144
미정	11145
간판	11146
경제학	11147
테리	11148
국기	11149
고추	11150
얼리	11151
소소	11152
아마존	11153
##히토	11154
부친	11155
기껏	11156
나들	11157
모빌	11158
괴인	11159
이사장	11160
테니스	11161
강인	11162
시안	11163
나들목	11164
아케	11165
마기	11166
##IL	11167
해변	11168
원판	11169
일지	11170
로비	11171
일조	11172
저글링	11173
점멸	11174
##멘터리	11175
스탭	11176
Op	11177
로맨스	11178
병행	11179
어원	11180
히드라	11181
##당기	11182
욕심	11183
집필	11184
##ody	11185
도대	11186
##msys	11187
이승만	11188
1961	11189
ldmsys	11190
토우	11191
깨끗	11192
과금	11193
rd	11194
들르	11195
사탕	11196
고이	11197
김주	11198
미노	11199
목욕	11200
단자	11201
미녀	11202
스트로	11203
not	11204
상냥	11205
스매	11206
리버스	11207
##성군	11208
페르소나	11209
##깃	11210
코끼리	11211
키요	11212
얌	11213
김광	11214
툭	11215
수라	11216
##워프	11217
평택	11218
지지율	11219
교향	11220
달려오	11221
블라디	11222
두껍	11223
지크	11224
##뼈	11225
주한	11226
성벽	11227
굶	11228
대니	11229
##러브	11230
사망자	11231
승패	11232
##미르	11233
##타리	11234
보로	11235
회계	11236
오토바이	11237
스윙	11238
히사	11239
가해	11240
메디	11241
##무지	11242
##당초	11243
항성	11244
사이토	11245
뻘	11246
진도	11247
호리	11248
하지	11249
##틈	11250
돌려	11251
그리스도	11252
오즈	11253
삼키	11254
일일	11255
고래	11256
갸	11257
세례	11258
##gr	11259
멸종	11260
둥지	11261
빅토리아	11262
수컷	11263
삿	11264
스크롤	11265
다큐멘터리	11266
ᆯ래	11267
주파	11268
중공	11269
사르	11270
얄	11271
파고	11272
광범	11273
프랭크	11274
늪	11275
디아블로	11276
BD	11277
신작	11278
##ough	11279
##딴	11280
##빗	11281
덥	11282
유머	11283
전도	11284
여주인	11285
동사	11286
직행	11287
##uc	11288
물약	11289
AF	11290
춤추	11291
##각형	11292
객관	11293
해전	11294
엉덩이	11295
맑	11296
바텀	11297
전임	11298
침해	11299
댐	11300
수중	11301
만렙	11302
식스	11303
내밀	11304
환생	11305
조수	11306
퍼펙트	11307
믿음	11308
동북	11309
무녀	11310
##세지	11311
밀리언	11312
어서	11313
그랑프리	11314
좌파	11315
동상	11316
빙결	11317
라인하르트	11318
부제	11319
##진호	11320
리자	11321
##퍼니	11322
도배	11323
##프란	11324
화신	11325
보살	11326
정서	11327
일어	11328
##33	11329
퓨전	11330
마도카	11331
##메리카	11332
MM	11333
해고	11334
대승	11335
무지개	11336
북서	11337
맛보	11338
세르비아	11339
원자력	11340
상원	11341
금발	11342
GD	11343
루마니아	11344
진흥	11345
모의	11346
무능	11347
mar	11348
껍질	11349
알렉산더	11350
발사기	11351
접수	11352
지각	11353
벡터	11354
도요	11355
외야수	11356
노부나가	11357
십자군	11358
RE	11359
테이프	11360
출석	11361
##시티	11362
주저	11363
수아	11364
4000	11365
워드	11366
김대중	11367
불상	11368
##모습	11369
스텔스	11370
두루	11371
##app	11372
간지	11373
목포	11374
미소녀	11375
개업	11376
명장	11377
##aster	11378
관광객	11379
울음	11380
1949	11381
섬멸	11382
뾰	11383
에코	11384
스쿼드	11385
##그라	11386
약체	11387
도대체	11388
138	11389
노릇	11390
아무렇	11391
카토	11392
아슬	11393
챔스	11394
주입	11395
연세대	11396
##은이	11397
크롬	11398
동아시아	11399
##스크림	11400
방안	11401
팜	11402
서울시	11403
줄리	11404
##애나	11405
베이비	11406
아카네	11407
##이센	11408
OG	11409
휴게	11410
일명	11411
운반	11412
Is	11413
구호	11414
en	11415
대국	11416
눈앞	11417
하와	11418
무자	11419
151	11420
두려움	11421
둥글	11422
면제	11423
혼혈	11424
공교	11425
교대	11426
카일	11427
퍼시	11428
공명	11429
##ari	11430
샹	11431
알프	11432
공로	11433
북동	11434
##CE	11435
타우	11436
##orts	11437
와이번스	11438
아니하	11439
선회	11440
스기	11441
##ject	11442
데몬	11443
비로	11444
평판	11445
사천	11446
폭로	11447
성지	11448
##벼	11449
마을버스	11450
걸어가	11451
##총장	11452
천주교	11453
신념	11454
평상시	11455
AL	11456
옐로	11457
컬렉션	11458
ㅔ요	11459
아유	11460
172	11461
뺘	11462
보우	11463
루미	11464
인피니티	11465
히로시마	11466
라비	11467
사지	11468
보복	11469
위시	11470
그리핀	11471
##고속도로	11472
유메	11473
격퇴	11474
PK	11475
아수	11476
숙청	11477
광범위	11478
쿄코	11479
드워프	11480
대사관	11481
##OO	11482
신관	11483
휴대폰	11484
이계	11485
배리	11486
가령	11487
낯	11488
컨디션	11489
어제	11490
애용	11491
Gu	11492
CR	11493
집사	11494
주공	11495
남양	11496
꺼지	11497
라가	11498
##긋나	11499
풍경	11500
가해자	11501
편의점	11502
##ᅩᆯ	11503
큐어	11504
정우	11505
EU	11506
장본	11507
숭배	11508
노비	11509
최상급	11510
158	11511
le	11512
이무	11513
리부	11514
카사	11515
##디스	11516
##아티아	11517
츤	11518
크로아티아	11519
스타워즈	11520
스카웃	11521
컴퍼니	11522
소마	11523
려	11524
SA	11525
신조	11526
Am	11527
천체	11528
##iel	11529
밈	11530
##TA	11531
컴뱃	11532
대면	11533
단련	11534
제발	11535
와타나베	11536
단서	11537
성대	11538
스틱	11539
감성	11540
자력	11541
남한	11542
레슬링	11543
찬양	11544
수성	11545
달콤	11546
##0000	11547
320	11548
EXT	11549
##부인	11550
##oh	11551
..?	11552
카게	11553
휴먼	11554
냉장	11555
놔	11556
스칼	11557
유즈	11558
우미	11559
김병	11560
떠돌	11561
Time	11562
정답	11563
math	11564
일련	11565
으려면	11566
##ye	11567
독백	11568
원한	11569
테레	11570
민폐	11571
쑤	11572
광복	11573
아르바이트	11574
아쉬움	11575
섬광	11576
Mag	11577
솔저	11578
홈경기	11579
흑막	11580
구제	11581
권하	11582
기온	11583
케리	11584
강동	11585
테오	11586
티저	11587
점하	11588
효소	11589
EZ	11590
법안	11591
뻔하	11592
수확	11593
주차장	11594
스톡	11595
불화	11596
제인	11597
시네마	11598
건립	11599
가이아	11600
남학생	11601
추모	11602
도스	11603
대교	11604
상시	11605
##eth	11606
지면	11607
상어	11608
뒤쪽	11609
어기	11610
보직	11611
타카하시	11612
무선	11613
##ings	11614
##쿠스	11615
서바이벌	11616
##ats	11617
균열	11618
표기법	11619
하도	11620
아드	11621
176	11622
코레	11623
##조합	11624
라이드	11625
개막전	11626
장본인	11627
눈동자	11628
AB	11629
통보	11630
던지라	11631
##룸	11632
민병	11633
Don	11634
신임	11635
사범	11636
적이	11637
일각	11638
##오피스	11639
살아오	11640
사와	11641
##ron	11642
이점	11643
TOP	11644
의의	11645
안드레	11646
하우	11647
배후	11648
트이	11649
딥	11650
리믹스	11651
지미	11652
단역	11653
우기	11654
GSL	11655
UC	11656
센트럴	11657
대명	11658
걸음	11659
강아지	11660
투고	11661
내정	11662
승려	11663
자루	11664
주의자	11665
청사	11666
문헌	11667
315	11668
CL	11669
패트	11670
카이저	11671
탁월	11672
오공	11673
쿠사	11674
순천	11675
손잡이	11676
고난	11677
깃털	11678
##eah	11679
아이즈	11680
ATK	11681
##덕션	11682
##낭	11683
천지	11684
어벤져	11685
내면	11686
재질	11687
NT	11688
전염	11689
문법	11690
얼티밋	11691
다녀오	11692
로제	11693
##바람	11694
실업	11695
그리하여	11696
직무	11697
탐구	11698
무슬리	11699
김일성	11700
무슬림	11701
일산	11702
126	11703
찔리	11704
##쑤	11705
제대	11706
캡슐	11707
여수	11708
유해	11709
국민당	11710
자카	11711
##중간	11712
결과물	11713
시련	11714
충남	11715
##도전	11716
##내리	11717
##운수	11718
슬라이드	11719
보트	11720
가나	11721
마미	11722
이호	11723
볶	11724
타스	11725
악행	11726
밀라	11727
##ult	11728
154	11729
##총리	11730
##마치	11731
1958	11732
응급	11733
타리	11734
블랙홀	11735
동이	11736
##꿉	11737
성직자	11738
132	11739
이순신	11740
염색	11741
스파크	11742
ver	11743
흉내	11744
자작	11745
표식	11746
금고	11747
##성이	11748
164	11749
흑역사	11750
총사	11751
충고	11752
##나르	11753
신상	11754
크라운	11755
미세	11756
총선거	11757
박스오피스	11758
매그	11759
소꿉	11760
김윤	11761
로열	11762
독보	11763
ME	11764
발톱	11765
테크노	11766
샤를	11767
하나님	11768
치고	11769
이세	11770
1941	11771
정의당	11772
마저	11773
서원	11774
친일	11775
##트론	11776
예고편	11777
병살	11778
리터	11779
그레이드	11780
##inal	11781
##ov	11782
무한도전	11783
유마	11784
피드	11785
리우스	11786
라틴어	11787
다저스	11788
고조	11789
호응	11790
레이지	11791
토론토	11792
어판	11793
##뤼	11794
합법	11795
습하	11796
보가	11797
코프	11798
표하	11799
will	11800
감금	11801
iOS	11802
심정	11803
풀려나	11804
팍	11805
비즈	11806
무비	11807
재수	11808
르노	11809
병과	11810
가왕	11811
콜롬	11812
계략	11813
지지자	11814
당나라	11815
간파	11816
##느님	11817
클레이	11818
도사	11819
new	11820
궁수	11821
KB	11822
마가	11823
차림	11824
과격	11825
군데	11826
1954	11827
##떡	11828
우두머리	11829
성폭	11830
바이킹	11831
##널드	11832
강수	11833
LE	11834
하느님	11835
동등	11836
주황	11837
##로그	11838
삽질	11839
저항력	11840
라이트닝	11841
퉁	11842
겟	11843
렀다	11844
Mi	11845
보루	11846
이즈미	11847
##넛	11848
성숙	11849
방울	11850
##짤	11851
##타르	11852
완벽히	11853
겨루	11854
WH	11855
니트	11856
배열	11857
테란	11858
##oul	11859
쫓기	11860
가미	11861
강서	11862
방정식	11863
폴아웃	11864
몸매	11865
156	11866
139	11867
##GA	11868
##ᆼ가	11869
갈기	11870
사료	11871
유신	11872
매기	11873
##alk	11874
태조	11875
##==	11876
거꾸	11877
안보	11878
취지	11879
리리	11880
##바스	11881
거스르	11882
Ser	11883
인천광역시	11884
어그	11885
구청	11886
지표	11887
통틀어	11888
크로우	11889
진하	11890
##tern	11891
니콜라	11892
아호	11893
플리	11894
오로치	11895
like	11896
허브	11897
##yn	11898
하드웨어	11899
전법	11900
스치	11901
##ob	11902
Your	11903
리볼	11904
응시	11905
하비	11906
리츠	11907
강습	11908
218	11909
153	11910
흉악	11911
레시피	11912
##리히	11913
제너	11914
##드리히	11915
##up	11916
패왕	11917
손목	11918
2023	11919
##엘라	11920
지배자	11921
Car	11922
##핏	11923
##빨리	11924
유라	11925
세미	11926
프로덕션	11927
아테나	11928
마수	11929
맷집	11930
##MAN	11931
오키나	11932
저승	11933
생물학	11934
{{{-	11935
##베르트	11936
발현	11937
번식	11938
이용객	11939
프로이센	11940
청장	11941
##겸	11942
나란히	11943
##주의자	11944
트론	11945
드루이드	11946
김성근	11947
슌	11948
##넨	11949
공모	11950
무색	11951
먼지	11952
테크닉	11953
##활약	11954
상공	11955
웨폰	11956
장신구	11957
른	11958
코디	11959
##곰	11960
후쿠시마	11961
지터	11962
상의	11963
태권	11964
이인	11965
교정	11966
빗나가	11967
완성도	11968
##프란시스코	11969
반기	11970
이쿠	11971
미시	11972
야망	11973
샌프란시스코	11974
더미	11975
##ould	11976
선봉	11977
디비전	11978
급식	11979
이리저리	11980
버거	11981
어드배	11982
##저래	11983
148	11984
엠블	11985
유능	11986
##제스	11987
마티	11988
##레이크	11989
맥락	11990
##reak	11991
봉하	11992
이래저래	11993
키노	11994
벌금	11995
지성	11996
충격파	11997
##ions	11998
짬	11999
누이	12000
난리	12001
셋째	12002
라이징	12003
후면	12004
섬유	12005
레바	12006
으리	12007
마마	12008
떨구	12009
짝사랑	12010
핑계	12011
전두	12012
##보우	12013
설탕	12014
오바	12015
후반전	12016
동년	12017
167	12018
브라우	12019
##der	12020
엮	12021
나열	12022
카제	12023
재벌	12024
이광	12025
동지	12026
법학	12027
##13	12028
미남	12029
신주	12030
163	12031
필두	12032
스크래	12033
양심	12034
이영호	12035
##able	12036
우편	12037
표창	12038
상속	12039
##18	12040
##타니	12041
142	12042
음향	12043
Fl	12044
감기	12045
one	12046
174	12047
대법원	12048
김선	12049
초등학생	12050
과언	12051
긋	12052
능하	12053
워너	12054
전례	12055
무궁	12056
시간대	12057
조던	12058
맞대	12059
거꾸로	12060
##친구	12061
##처럼	12062
파이프	12063
접전	12064
통행	12065
##사고	12066
1943	12067
##전사	12068
##고사	12069
..!	12070
종말	12071
얼라이	12072
모에	12073
203	12074
벚	12075
복음	12076
시뮬레이션	12077
양국	12078
네스	12079
ᆫ가요	12080
숙련도	12081
##ᅰ어	12082
커플링	12083
이나마	12084
휴스턴	12085
무죄	12086
##차리	12087
범하	12088
놔두	12089
배상	12090
몰려오	12091
오케스트라	12092
저격수	12093
김두	12094
도모	12095
호스	12096
네크로	12097
박탈	12098
유카리	12099
배율	12100
스페인어	12101
##던지	12102
타키	12103
##왜	12104
최하	12105
반장	12106
연달	12107
혼동	12108
사가	12109
애국	12110
공격기	12111
파우	12112
하츠네	12113
야마모토	12114
당원	12115
##무네	12116
Gaming	12117
스케줄	12118
볼드	12119
##문화	12120
GK	12121
이니	12122
장시	12123
타당	12124
추출	12125
크리스토	12126
1942	12127
자키	12128
##결승	12129
고우	12130
엉뚱	12131
ᆫ단	12132
부호	12133
유타	12134
##백과	12135
통증	12136
##트랙	12137
종사	12138
스마일	12139
오역	12140
10000	12141
##ull	12142
##기업	12143
단의	12144
SSR	12145
##15	12146
애드	12147
어긋나	12148
쫓아내	12149
대등	12150
맞먹	12151
##ll	12152
ᆫ듯	12153
주유	12154
데미	12155
가히	12156
##니코	12157
꾸리	12158
##셉트	12159
얼라이언스	12160
수도원	12161
냉장고	12162
장례식	12163
제프	12164
제리	12165
137	12166
쟁이	12167
맹활약	12168
사내	12169
처녀	12170
Min	12171
수령	12172
TP	12173
절정	12174
143	12175
1956	12176
se	12177
##크리	12178
플라스틱	12179
달인	12180
몰아넣	12181
연안	12182
버블	12183
탄막	12184
인명	12185
황실	12186
CN	12187
황혼	12188
무안	12189
창당	12190
카인	12191
단식	12192
RO	12193
대외	12194
pr	12195
##투아	12196
앞세우	12197
가라앉	12198
창작물	12199
회견	12200
약칭	12201
##터스	12202
시끄럽	12203
주가	12204
굳히	12205
미쓰	12206
칠레	12207
월요일	12208
스캔	12209
##니즘	12210
시에	12211
여주인공	12212
제자리	12213
노하	12214
숙주	12215
아수라	12216
연고지	12217
마스코트	12218
주술사	12219
염두	12220
##FL	12221
##껑	12222
한층	12223
초상화	12224
생애	12225
승급	12226
역학	12227
범주	12228
정교회	12229
바이크	12230
깨우	12231
##니스탄	12232
##재기	12233
음력	12234
갈구	12235
##상가	12236
##립트	12237
157	12238
밀레	12239
##ᅨᆫ	12240
산화	12241
수하	12242
원화	12243
진로	12244
쳐들어오	12245
사야카	12246
빈약	12247
##뱉	12248
원년	12249
이준	12250
미하	12251
미트	12252
차일드	12253
사소	12254
릴리스	12255
현직	12256
##더슨	12257
영등	12258
바비	12259
태자	12260
레인보우	12261
레이븐	12262
##ube	12263
토비	12264
전학	12265
##퉁	12266
##랄드	12267
증기	12268
LTE	12269
제지	12270
과감	12271
바티	12272
펙	12273
인체	12274
##보라	12275
능숙	12276
##모어	12277
오리온	12278
죄수	12279
왓	12280
플레임	12281
NM	12282
공고	12283
129	12284
순간이동	12285
##ECT	12286
득실	12287
IV	12288
런처	12289
러너	12290
졸업식	12291
안제	12292
헤드샷	12293
have	12294
므	12295
꼴찌	12296
오디오	12297
레슨	12298
사우루스	12299
시흥	12300
외관	12301
리볼버	12302
한강	12303
오비	12304
대군	12305
무너	12306
무너뜨리	12307
앞면	12308
이오리	12309
트러	12310
찰나	12311
평창	12312
133	12313
클라우드	12314
델타	12315
생각나	12316
별칭	12317
out	12318
잔해	12319
라시	12320
연막	12321
오쿠	12322
갈리아	12323
##ICE	12324
남미	12325
이만	12326
##물리	12327
사당	12328
관계없이	12329
초래	12330
##소수	12331
유대인	12332
카렌	12333
투사	12334
##귄	12335
기관포	12336
섹스	12337
해상도	12338
BGA	12339
관절	12340
축구단	12341
몰아내	12342
싱어	12343
페미니즘	12344
대목	12345
환호	12346
Sum	12347
146	12348
알아차리	12349
세키	12350
이력	12351
베어	12352
호프	12353
##스티스	12354
반란군	12355
가와	12356
무단	12357
노골	12358
설마	12359
박종	12360
##니스트	12361
1939	12362
득표수	12363
격하	12364
뮤지션	12365
내ᄈ	12366
경찰청	12367
밀어붙이	12368
소우	12369
체스	12370
두뇌	12371
136	12372
따내	12373
바그	12374
230	12375
설비	12376
순찰	12377
313	12378
전반기	12379
십자가	12380
북구	12381
173	12382
공습	12383
청룡	12384
단총	12385
방벽	12386
폴리스	12387
한정판	12388
입법	12389
HS	12390
혹평	12391
확고	12392
크리스티	12393
후대	12394
목재	12395
차분	12396
자포	12397
너클	12398
극우	12399
##박이	12400
쳐다보	12401
##의회	12402
##ica	12403
un	12404
망설이	12405
##대사	12406
공짜	12407
우산	12408
키드	12409
##에트	12410
기이	12411
마니	12412
스바	12413
1959	12414
스트레이	12415
화약	12416
꿇	12417
##교통	12418
경선	12419
자회사	12420
앵커	12421
소꿉친구	12422
기술력	12423
내뱉	12424
파키스탄	12425
브레스	12426
솔직히	12427
푼	12428
나카무라	12429
프로그래밍	12430
구독자	12431
##제국	12432
율리	12433
##회장	12434
1900	12435
다지만	12436
웨일	12437
치마	12438
호출	12439
##che	12440
빙의	12441
기쁨	12442
ALL	12443
##믹	12444
BM	12445
Play	12446
태종	12447
인터페이스	12448
테일즈	12449
영화배우	12450
쇼트	12451
As	12452
방화	12453
아래쪽	12454
##맷	12455
##구나	12456
끓이	12457
공자	12458
무식	12459
1955	12460
아테네	12461
##티넘	12462
플래티넘	12463
BO	12464
랜서	12465
지주	12466
오딘	12467
표본	12468
프로스트	12469
##권자	12470
149	12471
##ict	12472
친정	12473
빈번	12474
닫히	12475
##무게	12476
지극	12477
입국	12478
몸무게	12479
1936	12480
브루스	12481
강탈	12482
실바	12483
##뿔	12484
키즈	12485
난투	12486
비참	12487
폐허	12488
뚝	12489
우파	12490
##토랑	12491
제조사	12492
발하	12493
번갈	12494
레스토랑	12495
##세포	12496
진구	12497
ᆯ까요	12498
맹독	12499
오키나와	12500
동로	12501
카테고리	12502
공천	12503
##스틴	12504
134	12505
극악	12506
남서	12507
바인	12508
도쿠가와	12509
##곧	12510
라파	12511
출제	12512
슬슬	12513
000000	12514
팬티	12515
Red	12516
달래	12517
시초	12518
아노	12519
##던지	12520
뢰	12521
가로막	12522
카오루	12523
미들	12524
리뉴	12525
전수	12526
##ock	12527
##콕	12528
팀장	12529
칙	12530
넓히	12531
서장	12532
해태	12533
채찍	12534
플레이버	12535
##STER	12536
set	12537
##YP	12538
박명	12539
BT	12540
힌트	12541
심화	12542
혼다	12543
뫼	12544
##날두	12545
##천사	12546
얼터	12547
경보	12548
포니	12549
호날두	12550
프리드리히	12551
##이스	12552
la	12553
샤오	12554
사나이	12555
부흥	12556
수영복	12557
##ater	12558
서치	12559
공과	12560
OF	12561
CB	12562
하의	12563
찰리	12564
여장	12565
know	12566
저조	12567
리셋	12568
퍼센트	12569
클리셰	12570
파랑	12571
진리	12572
나사	12573
CO	12574
포맷	12575
운항	12576
수용소	12577
147	12578
EV	12579
##DX	12580
잠그	12581
##무이	12582
망상	12583
대패	12584
##주군	12585
margin	12586
##ons	12587
미모	12588
멘붕	12589
히카루	12590
가혹	12591
텔레포트	12592
##IV	12593
유선	12594
1952	12595
##ange	12596
##MAX	12597
나락	12598
Of	12599
콕	12600
##풀이	12601
수상자	12602
##ster	12603
청원	12604
애쉬	12605
오세	12606
High	12607
Type	12608
가의	12609
해독	12610
럭키	12611
##ᅣᆯ	12612
밧	12613
##생기	12614
일러스트레이터	12615
##소총	12616
양대	12617
스ᄂ	12618
박영	12619
1947	12620
복도	12621
테일러	12622
라이센스	12623
퇴역	12624
팩션	12625
장갑차	12626
바나나	12627
##데르	12628
박해	12629
클러	12630
불문	12631
##탈리	12632
무수	12633
거느리	12634
재임	12635
애쓰	12636
조력	12637
##사관	12638
슬램	12639
심야	12640
실천	12641
냉동	12642
아이폰	12643
##산역	12644
로라	12645
BA	12646
소행	12647
파손	12648
불가리아	12649
오른팔	12650
둘러싸이	12651
치바	12652
##카미	12653
개판	12654
##무늬	12655
플루	12656
시집	12657
정준	12658
교육청	12659
메세지	12660
선형	12661
Light	12662
구마	12663
준결승	12664
생선	12665
곡선	12666
뒷면	12667
맞물리	12668
다만	12669
롤링	12670
스콧	12671
공손	12672
왕관	12673
##나리	12674
##전설	12675
가브리	12676
지자	12677
##왜란	12678
교양	12679
산탄총	12680
##to	12681
임진왜란	12682
pro	12683
소매	12684
##란트	12685
플로리	12686
소령	12687
개미	12688
트랜스포	12689
미숙	12690
##에몽	12691
경지	12692
미스터리	12693
제이슨	12694
스나	12695
##ple	12696
열세	12697
불쾌	12698
분쇄	12699
##ᆺ대	12700
보디	12701
##PA	12702
미끼	12703
배속	12704
경질	12705
차관	12706
배우자	12707
##14	12708
슈가	12709
앰	12710
책상	12711
Gen	12712
무명	12713
자부	12714
때려잡	12715
증권	12716
루키	12717
##지않	12718
증인	12719
종착	12720
TE	12721
레슬러	12722
신세계	12723
슬라임	12724
로지	12725
##바다	12726
166	12727
모어	12728
트레이닝	12729
사일	12730
옌	12731
복용	12732
개개	12733
##BM	12734
AG	12735
##살리	12736
김천	12737
Heart	12738
랙	12739
땀	12740
연말	12741
격리	12742
악곡	12743
비로소	12744
편견	12745
NEW	12746
앞뒤	12747
어워드	12748
로그인	12749
상대식	12750
주고	12751
##메라	12752
##ics	12753
280	12754
레프	12755
깡패	12756
##레슬링	12757
전두환	12758
재림	12759
지난	12760
트리스	12761
패스트	12762
싣	12763
달라	12764
봉기	12765
프랜차	12766
캇	12767
비꼬	12768
파괴력	12769
필터	12770
하이브리	12771
진짜로	12772
하시	12773
프로레슬링	12774
스매시	12775
외면	12776
태미	12777
##차례	12778
##테스	12779
퓨처	12780
기행	12781
##교육	12782
랜스	12783
하이브리드	12784
What	12785
##17	12786
인트	12787
프로세서	12788
수시로	12789
##규모	12790
반환	12791
원망	12792
##넉	12793
중급	12794
##고래	12795
요우	12796
시가	12797
라임	12798
심히	12799
스트리밍	12800
##지오	12801
중후	12802
좌표	12803
섹시	12804
보잉	12805
AE	12806
열기	12807
안철수	12808
로브	12809
프랜차이즈	12810
##툴	12811
소설가	12812
##les	12813
feat	12814
##구역	12815
포식	12816
MO	12817
미식	12818
심상	12819
자켓	12820
was	12821
스팅	12822
##모니	12823
진형	12824
오프라인	12825
스바루	12826
실로	12827
##세서리	12828
마켓	12829
사천왕	12830
제우스	12831
페이크	12832
르네	12833
##즈카	12834
##티지	12835
삼촌	12836
푹	12837
드라	12838
1919	12839
웨인	12840
제단	12841
직통	12842
동조	12843
반군	12844
%.	12845
Tw	12846
강세	12847
##산동	12848
골목	12849
준공	12850
Kor	12851
슬러그	12852
##CC	12853
폐선	12854
최정	12855
222	12856
야전	12857
선인	12858
장학	12859
Blo	12860
꽁	12861
탈당	12862
감행	12863
##nder	12864
세일러	12865
가르침	12866
메구미	12867
사모	12868
냉각	12869
드리블	12870
용의자	12871
넥스	12872
러닝	12873
GHz	12874
템포	12875
NHK	12876
##텍스	12877
보행	12878
Fe	12879
카우	12880
음색	12881
글리	12882
하지메	12883
면접	12884
필립	12885
동문	12886
장편	12887
##더기	12888
##ex	12889
적색	12890
엄폐	12891
조교	12892
소노	12893
착지	12894
야마다	12895
아랑	12896
저스티스	12897
원종	12898
토막	12899
김연	12900
따라잡	12901
재활	12902
헐크	12903
얕	12904
히나타	12905
성기	12906
타고	12907
지그	12908
이아	12909
입양	12910
산악	12911
지문	12912
##수수	12913
세츠	12914
우물	12915
신칸	12916
불리우	12917
개그맨	12918
##lass	12919
철갑탄	12920
기피	12921
공영	12922
##대기	12923
굴러	12924
의아	12925
술집	12926
말년	12927
메테	12928
##컨드	12929
DI	12930
Par	12931
세컨드	12932
속편	12933
~"	12934
1953	12935
##사와	12936
도호	12937
킬로	12938
채취	12939
##전트	12940
일삼	12941
거르	12942
소사	12943
반론	12944
기술자	12945
펭귄	12946
정계	12947
미수	12948
미호	12949
콘셉트	12950
GPU	12951
라바	12952
위키백과	12953
##ACK	12954
PL	12955
망원	12956
꼼수	12957
화소	12958
레규	12959
##두리	12960
배신자	12961
모함	12962
TO	12963
고음	12964
미도리	12965
Mr	12966
아이스크림	12967
하카	12968
부당	12969
명탐정	12970
방송인	12971
##ors	12972
응하	12973
LOVE	12974
낡	12975
연기력	12976
주되	12977
내역	12978
체격	12979
##플렉스	12980
신칸센	12981
라든가	12982
두목	12983
##쫓	12984
뱃	12985
토가	12986
호르	12987
물가	12988
##바키아	12989
지요	12990
발라드	12991
이방	12992
교섭	12993
평안	12994
하후	12995
time	12996
발간	12997
소시	12998
솔라	12999
원고	13000
물어보	13001
##어붙	13002
카니	13003
서해	13004
파문	13005
냉기	13006
케리건	13007
부도	13008
전광	13009
프랑스군	13010
Good	13011
고분	13012
뇌물	13013
경과	13014
스크립트	13015
투신	13016
에그	13017
정형	13018
픽셀	13019
이에	13020
트랜스포머	13021
모던	13022
현존	13023
oh	13024
##딕	13025
춘천	13026
투성이	13027
어린아이	13028
전열	13029
버터	13030
캔디	13031
고산	13032
륙	13033
330	13034
심문	13035
퍼붓	13036
동호	13037
스퀘어	13038
자질	13039
LED	13040
접어들	13041
기관차	13042
어벤져스	13043
270	13044
쐐	13045
병종	13046
핸	13047
패드	13048
##무실	13049
책략	13050
화합	13051
여배우	13052
단과	13053
어미	13054
축적	13055
ᆯ라	13056
사슴	13057
##수아	13058
그제	13059
로저	13060
##AND	13061
MK	13062
라트	13063
##무기	13064
공존	13065
중성	13066
수량	13067
영등포	13068
다면	13069
찌질	13070
1938	13071
레즈	13072
범행	13073
교통사고	13074
마의	13075
메우	13076
Live	13077
캐슬	13078
참으로	13079
##튠	13080
더하	13081
성서	13082
2500	13083
최우수	13084
하부	13085
전속	13086
##좀	13087
대중교통	13088
하반기	13089
##더링	13090
방호	13091
틀어	13092
거품	13093
호무	13094
다중	13095
윈터	13096
도청	13097
더구나	13098
##며	13099
구절	13100
Per	13101
카를로스	13102
태극	13103
최대치	13104
쫓아가	13105
테러리스트	13106
클라이	13107
보리	13108
레귤러	13109
비타	13110
인사이드	13111
특훈	13112
직속	13113
깃들	13114
로테이션	13115
광대	13116
심리학	13117
하리	13118
FPS	13119
탈리	13120
특허	13121
악하	13122
##아슬	13123
엣지	13124
아슬아슬	13125
그랜	13126
져	13127
전반전	13128
순교	13129
##볼루션	13130
상행	13131
속력	13132
되살리	13133
##플러스	13134
##ME	13135
몹시	13136
석방	13137
신수	13138
##파리	13139
더욱이	13140
소규모	13141
협약	13142
1957	13143
김도	13144
소실	13145
음악가	13146
총회	13147
방공	13148
우체	13149
세스	13150
얼어붙	13151
패닉	13152
225	13153
요미우리	13154
서민	13155
담임	13156
뚜껑	13157
내뿜	13158
적립	13159
라프	13160
스텔라	13161
영남	13162
무고	13163
즉각	13164
##16	13165
갈라	13166
솜씨	13167
중년	13168
SL	13169
불신	13170
##단지	13171
오타쿠	13172
우상	13173
남작	13174
죠죠	13175
ll	13176
유방	13177
시가지	13178
인구수	13179
현황	13180
파벌	13181
바닷	13182
총괄	13183
##뿌	13184
쥰	13185
카즈야	13186
에메랄드	13187
생산량	13188
뱉	13189
단말	13190
신흥	13191
스윕	13192
순정	13193
상쇄	13194
서두르	13195
파격	13196
출고	13197
저술	13198
빌라	13199
부류	13200
영동	13201
멋있	13202
자본주의	13203
##턱	13204
노래방	13205
사탄	13206
하와이	13207
스파이크	13208
박상	13209
홀딩	13210
끝장	13211
재빨리	13212
아홉	13213
##글라스	13214
##eep	13215
베일	13216
신병	13217
상장	13218
함성	13219
간호사	13220
매지	13221
두근	13222
앤디	13223
카디	13224
루터	13225
##포드	13226
260	13227
모양새	13228
자문	13229
헬리코	13230
퐁	13231
저거	13232
하라	13233
GTA	13234
수평	13235
텀	13236
스내	13237
프로모	13238
차용	13239
마초	13240
혜성	13241
This	13242
Sm	13243
Wii	13244
따돌리	13245
석상	13246
직격	13247
#!	13248
머스	13249
##ott	13250
멜론	13251
다이노스	13252
적재	13253
소비에트	13254
페르난	13255
저희	13256
신정	13257
카이사르	13258
원내	13259
Rock	13260
""	13261
##플리케이션	13262
상용	13263
호구	13264
##HT	13265
자각	13266
장원	13267
##윽	13268
사투리	13269
메이트	13270
헬리콥터	13271
am	13272
핸드폰	13273
짤리	13274
##때로	13275
##문트	13276
급히	13277
벚꽃	13278
유지비	13279
하행	13280
지름	13281
줌	13282
유나	13283
로스터	13284
여관	13285
쎄	13286
예배	13287
GN	13288
배리어	13289
발렌타인	13290
월등	13291
쓰러트리	13292
##델피아	13293
쥬얼	13294
필라델피아	13295
고토	13296
아제	13297
오락실	13298
증발	13299
##메스	13300
새우	13301
하원	13302
##산물	13303
이례	13304
##려보	13305
##ᆺ집	13306
1800	13307
털어놓	13308
Kn	13309
시부	13310
프로토타입	13311
넉넉	13312
쇠퇴	13313
리조	13314
켈리	13315
Li	13316
##하이	13317
양측	13318
자칫	13319
래스터	13320
호투	13321
허위	13322
휩싸	13323
미티	13324
부사관	13325
EBS	13326
유정	13327
##두사	13328
브이	13329
만료	13330
ab	13331
바닐라	13332
주거	13333
행렬	13334
격전	13335
양보	13336
핸들	13337
##받침	13338
윌슨	13339
선우	13340
부관	13341
우천	13342
공약	13343
유니콘	13344
군림	13345
할리우드	13346
여권	13347
쏠	13348
ㅓㅆ었	13349
선대	13350
마신	13351
야만	13352
정정	13353
포워드	13354
미유키	13355
회화	13356
설화	13357
바오	13358
관념	13359
레이트	13360
중학생	13361
미로	13362
##파크	13363
도마뱀	13364
결함	13365
##뚫	13366
리바운드	13367
추궁	13368
실력자	13369
아르메	13370
구타	13371
유니온	13372
풍속	13373
##ᆯ리언	13374
농사	13375
적성	13376
본의	13377
텅	13378
가축	13379
단정	13380
에바	13381
프린스	13382
후루	13383
습관	13384
받치	13385
MSL	13386
밀집	13387
술탄	13388
169	13389
Baby	13390
##메다	13391
타고나	13392
몰아붙이	13393
라구	13394
야외	13395
길거리	13396
유로파	13397
기함	13398
노동당	13399
##닐	13400
페이트	13401
냅	13402
안성	13403
서정	13404
일례	13405
호박	13406
진수	13407
편찬	13408
IIDX	13409
리키	13410
쳐내	13411
심연	13412
히데요시	13413
호세	13414
자발	13415
세션	13416
##행위	13417
재무	13418
유무	13419
엘리스	13420
동요	13421
페인	13422
질풍	13423
대진	13424
게임즈	13425
징크스	13426
그래프	13427
운석	13428
근력	13429
눈빛	13430
펠리	13431
##anna	13432
꿰뚫	13433
ᆯ지라도	13434
유승	13435
RC	13436
##토르	13437
니카	13438
유배	13439
송출	13440
격투기	13441
주파수	13442
도시락	13443
럴	13444
ㅏ야	13445
의석	13446
소리치	13447
0900	13448
##other	13449
DB	13450
교훈	13451
##자동	13452
불평	13453
##케인	13454
요시다	13455
정재	13456
호그	13457
리우	13458
Ac	13459
우루과이	13460
고든	13461
악령	13462
조준경	13463
드레드	13464
민정	13465
본가	13466
프롤로그	13467
카타르	13468
탄탄	13469
##IK	13470
실정	13471
스콜	13472
츤데레	13473
피에	13474
ᆯ려고	13475
우크	13476
단속	13477
##ins	13478
악어	13479
베르크	13480
##팍	13481
헥	13482
일레븐	13483
성비	13484
훈훈	13485
더라면	13486
후안	13487
##icro	13488
바이올린	13489
서태	13490
책정	13491
트러블	13492
wid	13493
##라이나	13494
##ᆯ리티	13495
전산	13496
브레인	13497
제보	13498
청산	13499
킹덤	13500
##oss	13501
회귀	13502
우크라이나	13503
깽	13504
구두	13505
550	13506
루루	13507
Blue	13508
요하	13509
독서	13510
유코	13511
미팅	13512
여당	13513
포럼	13514
수수료	13515
스케이팅	13516
Can	13517
대출	13518
서독	13519
후지와라	13520
아프가	13521
##ction	13522
라던가	13523
첫날	13524
ONE	13525
##ru	13526
##버드	13527
청동	13528
재판소	13529
자격증	13530
원작자	13531
분화	13532
연루	13533
말미	13534
황태자	13535
us	13536
##일으키	13537
불러일으키	13538
1914	13539
특이점	13540
수복	13541
중추	13542
밀란	13543
스토커	13544
존대	13545
HARD	13546
재위	13547
샤워	13548
타다	13549
우가	13550
독수리	13551
자손	13552
줄어드	13553
개칭	13554
##코프	13555
##페르	13556
보증	13557
##ood	13558
에필로그	13559
촉진	13560
##기지	13561
자크	13562
##코스	13563
Dark	13564
##훼	13565
##르기	13566
떄	13567
김원	13568
달ᄀ	13569
박용	13570
동래	13571
경쟁자	13572
##넘기	13573
프렌즈	13574
배송	13575
1951	13576
##똑	13577
##세기	13578
리부트	13579
##gain	13580
할당	13581
내수	13582
트로이	13583
마차	13584
격침	13585
뽐	13586
농촌	13587
마테	13588
Sun	13589
만루	13590
성수	13591
왕좌	13592
크래	13593
맴	13594
가창	13595
노트북	13596
편안	13597
##앙스	13598
병장	13599
첨단	13600
##na	13601
##소스	13602
##19	13603
오클	13604
정동	13605
그리드	13606
장풍	13607
북극	13608
셰이	13609
진군	13610
##ᆷ마	13611
살피	13612
요시노	13613
OK	13614
좁히	13615
원활	13616
온몸	13617
기타리스트	13618
은혜	13619
멀리서	13620
유유	13621
캐스트	13622
##잎	13623
사안	13624
장동	13625
히카리	13626
진행자	13627
##킨스	13628
밀어주	13629
비토	13630
사다	13631
분기점	13632
Music	13633
##land	13634
일품	13635
결사	13636
##EL	13637
프랭	13638
엇	13639
해저	13640
메모	13641
센티	13642
야마구치	13643
야기	13644
아틀레	13645
총재	13646
서대	13647
입체	13648
남아프리카	13649
모친	13650
홈즈	13651
Im	13652
대마	13653
피에르	13654
오시	13655
연금술사	13656
더비	13657
cc	13658
##25	13659
##그루	13660
뉘앙스	13661
죄송	13662
병합	13663
지중	13664
아프가니스탄	13665
width	13666
장제스	13667
원천	13668
완구	13669
키트	13670
토마토	13671
로컬	13672
헌신	13673
민영	13674
당주	13675
빅토르	13676
텍스	13677
##꼴	13678
희대	13679
파산	13680
교내	13681
셰프	13682
##궤	13683
##ty	13684
##노스케	13685
진정하	13686
수녀	13687
아르카	13688
KTX	13689
윌리엄스	13690
누명	13691
미라이	13692
연의	13693
체형	13694
제작비	13695
상가	13696
게릴라	13697
피치	13698
미니언	13699
##DS	13700
짚	13701
페이커	13702
##셸	13703
고성	13704
방과	13705
갈아타	13706
교시	13707
##균관	13708
모리스	13709
제휴	13710
게시물	13711
말소	13712
아울러	13713
베른	13714
빠뜨리	13715
때때로	13716
수강	13717
MHz	13718
정체불명	13719
피츠	13720
열악	13721
##UT	13722
##irst	13723
셸	13724
잊어버리	13725
본성	13726
오리진	13727
폭동	13728
에티	13729
##agon	13730
Bat	13731
버릇	13732
하워드	13733
산책	13734
수식	13735
무사시	13736
##ky	13737
디렉터	13738
내륙	13739
매달	13740
오디	13741
닉스	13742
실루	13743
비시	13744
켄지	13745
도라에몽	13746
포대	13747
Life	13748
용감	13749
실무	13750
속박	13751
요리사	13752
Champ	13753
유영	13754
클립	13755
BBC	13756
루이지	13757
아르메니아	13758
##자재	13759
초교	13760
천마	13761
DR	13762
##놀이	13763
++	13764
205	13765
분장	13766
마운트	13767
배기	13768
강팀	13769
기획사	13770
일렉트로	13771
기성	13772
안산	13773
환수	13774
돌아보	13775
휴게소	13776
단선	13777
미성년	13778
해임	13779
##툭	13780
성균관	13781
주고받	13782
##어쓰	13783
##ady	13784
니나	13785
해수	13786
대대로	13787
직결	13788
타카시	13789
모범	13790
불어	13791
재난	13792
브론즈	13793
육지	13794
격기	13795
Korea	13796
경순	13797
고령	13798
발차기	13799
박재	13800
커트	13801
원흉	13802
분홍색	13803
쫓아오	13804
##크리트	13805
제스	13806
창업	13807
말아먹	13808
일일이	13809
찢어지	13810
Summer	13811
경감	13812
Fire	13813
1937	13814
베이스볼	13815
임원	13816
연하	13817
매수	13818
##통수	13819
선곡	13820
슬퍼	13821
유비트	13822
열람	13823
반대편	13824
아까	13825
발광	13826
야심	13827
##아르	13828
라드	13829
플로리다	13830
back	13831
##무소	13832
양키스	13833
김명	13834
넥서스	13835
목동	13836
##ium	13837
페루	13838
##스티니	13839
리액	13840
살상	13841
금색	13842
탄도	13843
OCG	13844
달라붙	13845
RP	13846
자판	13847
정벌	13848
총격	13849
석탄	13850
블래	13851
환사	13852
친목	13853
깨알	13854
##토리얼	13855
잠재력	13856
냉전	13857
코지	13858
##따르	13859
백신	13860
통수	13861
포토	13862
##로프	13863
플레어	13864
미끄	13865
##혁명	13866
쓸데없이	13867
후궁	13868
탯이	13869
Ma	13870
권능	13871
튜토리얼	13872
무진	13873
프로모션	13874
차선	13875
스파르타	13876
목적지	13877
니코니코	13878
미즈키	13879
토이	13880
##베르크	13881
계란	13882
항아리	13883
무제한	13884
세레	13885
베네치아	13886
파업	13887
##ount	13888
여정	13889
합당	13890
달걀	13891
자처	13892
소극	13893
필연	13894
na	13895
동족	13896
평원	13897
합하	13898
댄서	13899
Sy	13900
장안	13901
데스티니	13902
창시	13903
명곡	13904
벵	13905
진료	13906
김형	13907
일자리	13908
솔리	13909
성모	13910
650	13911
이창	13912
매개	13913
##눅	13914
충북	13915
레이첼	13916
시코	13917
토로	13918
##커녕	13919
무상	13920
아타	13921
브레이브	13922
##사벽	13923
넘사벽	13924
에스파	13925
도검	13926
귀하	13927
##박히	13928
##숍	13929
타나카	13930
실습	13931
개인전	13932
##퍼런스	13933
행정부	13934
회고	13935
저것	13936
빼내	13937
밀치	13938
비즈니스	13939
저널	13940
서초	13941
정립	13942
##스트림	13943
금호	13944
문고	13945
강행	13946
##듣	13947
성도	13948
나폴리	13949
마요	13950
북방	13951
CA	13952
남발	13953
급기	13954
숀	13955
스캔들	13956
레이너	13957
흠좀	13958
흠좀무	13959
##테이너	13960
부과	13961
엿보	13962
##ush	13963
OB	13964
코즈	13965
귀중	13966
대각	13967
리턴	13968
악의	13969
##쉐	13970
하타	13971
이복	13972
이질	13973
샘플	13974
##현우	13975
후예	13976
조직원	13977
교관	13978
슈터	13979
증후	13980
어느새	13981
기괴	13982
줄줄	13983
사면	13984
위탁	13985
여진	13986
네이트	13987
##누르	13988
고속도	13989
쪼개	13990
쐐기	13991
만행	13992
호기심	13993
쩔	13994
프리즘	13995
몬테	13996
함재기	13997
소동	13998
쾨	13999
야드	14000
리마	14001
험하	14002
로코	14003
학점	14004
BEMAN	14005
계열사	14006
##사이드	14007
늦추	14008
듀크	14009
적료	14010
광속	14011
해적단	14012
남극	14013
다이스케	14014
##곡동	14015
시몬	14016
치사	14017
상류	14018
설상가	14019
Just	14020
루팡	14021
설상가상	14022
##베이스	14023
스냅	14024
인어	14025
부여받	14026
나레이션	14027
미스트	14028
휩싸이	14029
코리	14030
감전	14031
주심	14032
파인	14033
##ne	14034
##석민	14035
한스	14036
211	14037
콘크리트	14038
BEMANI	14039
힐링	14040
Ste	14041
화내	14042
선구	14043
시간표	14044
지휘자	14045
##ger	14046
##현진	14047
고자	14048
##마당	14049
자수	14050
유난	14051
역과	14052
상표	14053
레기	14054
타이완	14055
피카츄	14056
까닭	14057
파장	14058
모닝	14059
반항	14060
살인마	14061
화자	14062
##OID	14063
손톱	14064
now	14065
##주리	14066
러셀	14067
204	14068
문어	14069
대상자	14070
박찬	14071
뒤통수	14072
피고	14073
슬퍼하	14074
##도스	14075
연회	14076
시치	14077
로저스	14078
가브리엘	14079
이우	14080
사찰	14081
공익	14082
동체	14083
드릴	14084
퓨리	14085
영장	14086
우아	14087
아토	14088
FB	14089
강연	14090
음주	14091
##ᆯ럿	14092
펜듈	14093
펜듈럼	14094
세탁	14095
볼프	14096
사로잡히	14097
지온	14098
##베르토	14099
But	14100
진나라	14101
지침	14102
교향곡	14103
성체	14104
염려	14105
GG	14106
서인	14107
양호	14108
복면	14109
선제골	14110
Pre	14111
바우	14112
##얀	14113
실명	14114
##pr	14115
Ev	14116
##펄	14117
보구	14118
어퍼	14119
슬로우	14120
##기사	14121
농락	14122
##ution	14123
가성	14124
CON	14125
돌이	14126
박경	14127
호노	14128
점사	14129
민법	14130
##블릿	14131
##년기	14132
준하	14133
숙이	14134
빈틈	14135
똑똑	14136
##CH	14137
불로	14138
투니	14139
Gold	14140
수락	14141
미술관	14142
네코	14143
Out	14144
뷰티	14145
바흐	14146
콘티	14147
한탄	14148
노블	14149
##멋	14150
지상파	14151
3164	14152
리엘	14153
발칸	14154
램프	14155
어설프	14156
가급	14157
##메어	14158
STR	14159
영리	14160
##체스	14161
지극히	14162
끌어내	14163
Over	14164
출근	14165
선방	14166
DX	14167
##미스	14168
경찰관	14169
한도	14170
한발	14171
월급	14172
훅	14173
동탁	14174
##덮	14175
조류	14176
별점	14177
망가	14178
캐리어	14179
##ᅥᆫ지	14180
주재	14181
스킵	14182
Dance	14183
스완	14184
진성	14185
주황색	14186
책임자	14187
채집	14188
일본식	14189
합창	14190
증후군	14191
권고	14192
Grand	14193
뭔	14194
##ally	14195
대표작	14196
대공포	14197
이노우	14198
리브	14199
##ator	14200
증가량	14201
##징어	14202
셉	14203
1600	14204
##앵	14205
마누	14206
쓸어버리	14207
day	14208
개개인	14209
관동	14210
##산화	14211
##미즈	14212
정렬	14213
구급	14214
##inc	14215
가소	14216
서지	14217
예언자	14218
호로	14219
괄	14220
세일	14221
sc	14222
스퍼	14223
코다	14224
나이트메어	14225
##그룹	14226
대주	14227
마운드	14228
홍성	14229
##GC	14230
각기	14231
통신사	14232
##로이드	14233
##엉	14234
내걸	14235
향기	14236
정자	14237
부평	14238
한숨	14239
테루	14240
행방불명	14241
감히	14242
호쿠	14243
신대	14244
프로리그	14245
샤프	14246
##라노	14247
논하	14248
아델	14249
기복	14250
콜롬비아	14251
UF	14252
pt	14253
구단주	14254
개연	14255
##토시	14256
예명	14257
끼어들	14258
##레스트	14259
실루엣	14260
현상금	14261
저상	14262
변질	14263
투하	14264
HK	14265
전년	14266
친선	14267
##클럽	14268
FFF	14269
일식	14270
츠바사	14271
신축	14272
##air	14273
Sec	14274
여친	14275
##저것	14276
이것저것	14277
스네이크	14278
대본	14279
외래	14280
##아라	14281
전교	14282
리히	14283
장기간	14284
##러리	14285
고안	14286
박명수	14287
목요일	14288
정확도	14289
교직	14290
젝	14291
신원	14292
##수스	14293
추기	14294
소피아	14295
리에	14296
정세	14297
매스	14298
콜드	14299
##칼리	14300
차후	14301
##나드	14302
암울	14303
따라다니	14304
열등	14305
상하이	14306
매너	14307
괴상	14308
전세	14309
네놈	14310
지자체	14311
조영	14312
오의	14313
##준표	14314
앙리	14315
El	14316
소수자	14317
조달	14318
##포스	14319
##로니	14320
군복	14321
번트	14322
케이지	14323
차남	14324
출연진	14325
접근성	14326
Dis	14327
외롭	14328
페니	14329
tvN	14330
코시	14331
광전사	14332
get	14333
화나	14334
코카	14335
접점	14336
VOC	14337
##퇴근	14338
아줌마	14339
이속	14340
##마침	14341
반짝이	14342
캐서	14343
샐러	14344
전류	14345
##티콘	14346
괴력	14347
풍자	14348
##빼	14349
테이크	14350
난감	14351
1910	14352
한성	14353
검은색	14354
추첨	14355
케이트	14356
##첸	14357
영진	14358
학계	14359
여더	14360
TW	14361
전리	14362
퇴출	14363
컨트롤러	14364
차종	14365
다짐	14366
출루율	14367
이변	14368
대부	14369
비장	14370
이동하	14371
크루즈	14372
##ina	14373
##바시	14374
철회	14375
미사키	14376
백색	14377
ARM	14378
리트	14379
##보그	14380
간선	14381
건축물	14382
##얼거리	14383
때마침	14384
카이토	14385
어리석	14386
카르마	14387
클레어	14388
완수	14389
##쩌	14390
##흙	14391
픽업	14392
금화	14393
##베리아	14394
꽂히	14395
사육	14396
자진	14397
Mon	14398
동창	14399
이은	14400
조제	14401
최영	14402
딸기	14403
알고리	14404
베토	14405
밀접	14406
##펑	14407
총사령	14408
ᆫ들	14409
고질	14410
Af	14411
시정	14412
경매	14413
##꿈치	14414
나고	14415
beat	14416
Win	14417
수험	14418
포효	14419
##장난	14420
간략	14421
리티	14422
예지	14423
군함	14424
세세	14425
코바야시	14426
화가	14427
##축구	14428
서진	14429
##스톤	14430
영조	14431
일어서	14432
볼리	14433
만세	14434
해치우	14435
##라비아	14436
일진	14437
매출액	14438
잔디	14439
야시	14440
##휴일	14441
##use	14442
점거	14443
체이	14444
등교	14445
무궁화	14446
##네이터	14447
웨어	14448
일절	14449
At	14450
박치기	14451
Power	14452
잖	14453
계좌	14454
아이유	14455
조형	14456
스피커	14457
도피	14458
딱딱	14459
쫄	14460
##봇	14461
레닌	14462
크리에이	14463
연발	14464
횡단	14465
느니	14466
경희	14467
예술가	14468
간행	14469
양주	14470
여덟	14471
기밀	14472
커비	14473
SV	14474
쿠시	14475
1935	14476
성형	14477
출중	14478
글래	14479
연구실	14480
사극	14481
마르크스	14482
은밀	14483
욕구	14484
아카리	14485
고릴라	14486
러시아어	14487
회오리	14488
Fla	14489
홍진호	14490
밋	14491
처절	14492
알코	14493
태수	14494
파수	14495
UI	14496
오피	14497
고원	14498
임관	14499
아부	14500
힘쓰	14501
DJMAX	14502
6000	14503
뺨	14504
부대원	14505
그려	14506
강판	14507
평민	14508
##ᆫ든	14509
##엎	14510
츠나	14511
##ᆯ렛	14512
대쉬	14513
서사	14514
존속	14515
태블릿	14516
카가미	14517
##츠카	14518
캐서린	14519
빅뱅	14520
Res	14521
##장이	14522
용맹	14523
휴전	14524
##힐	14525
소감	14526
베니	14527
##ring	14528
헤매	14529
우와	14530
타니	14531
뒤덮	14532
##여지	14533
금성	14534
1934	14535
아폴로	14536
스님	14537
안면	14538
오피스	14539
경쟁력	14540
정거	14541
챌린저	14542
뽐내	14543
회심	14544
##동원	14545
갈래	14546
자신감	14547
천공	14548
but	14549
상체	14550
체리	14551
집결	14552
우습	14553
수요일	14554
레몬	14555
내야수	14556
##카스	14557
판권	14558
비요	14559
소서	14560
코요	14561
##프레스	14562
달빛	14563
##르드	14564
##...	14565
입술	14566
모방	14567
총열	14568
베이더	14569
데이비스	14570
미코토	14571
##맥스	14572
매칭	14573
##ART	14574
1918	14575
유난히	14576
Fi	14577
타시	14578
아카이	14579
이용해	14580
혈액형	14581
미판	14582
스플리	14583
민원	14584
사이보그	14585
케로	14586
##범죄	14587
다툼	14588
##대부	14589
오인	14590
256	14591
견인	14592
우체국	14593
채소	14594
전전	14595
후문	14596
천둥	14597
##ittle	14598
티베트	14599
김영삼	14600
##LS	14601
man	14602
카바	14603
유서	14604
저렇게	14605
공휴일	14606
카구라	14607
대문	14608
380	14609
모호	14610
##라이어	14611
리플렉	14612
바주	14613
##de	14614
##XT	14615
정크	14616
ᆫ다던가	14617
##ational	14618
시드니	14619
여사	14620
자유주의	14621
VOCAL	14622
오징어	14623
발트	14624
Sing	14625
퇴사	14626
런닝	14627
원격	14628
##관총	14629
샴	14630
조지아	14631
Rem	14632
매진	14633
풋볼	14634
상임	14635
레이나	14636
쇼군	14637
악장	14638
튀기	14639
##소문	14640
강성	14641
무소	14642
못지않	14643
평면	14644
페더	14645
혹사	14646
리전	14647
초고	14648
튜닝	14649
##흘	14650
##외선	14651
방어선	14652
퓨어	14653
중견수	14654
유소년	14655
카지노	14656
MR	14657
되살	14658
독성	14659
블루스	14660
알고리즘	14661
상수	14662
##be	14663
노려보	14664
김두한	14665
호전	14666
함포	14667
CEO	14668
##대교	14669
제다이	14670
젊은이	14671
제라	14672
막아	14673
워낙에	14674
창의	14675
피드백	14676
하임	14677
FL	14678
유포	14679
볼륨	14680
자바	14681
사출	14682
MX	14683
인프라	14684
섬세	14685
기미	14686
맏	14687
경량	14688
국사	14689
이성계	14690
피처	14691
색채	14692
~~	14693
동참	14694
제르	14695
뒷받침	14696
##ello	14697
로만	14698
건전	14699
피스트	14700
소절	14701
노엘	14702
양파	14703
LCK	14704
낙인	14705
##ivers	14706
영미	14707
퀄컴	14708
EM	14709
##글리	14710
애틀	14711
베인	14712
OPS	14713
적발	14714
재고	14715
본국	14716
연구자	14717
웨이트	14718
형편없	14719
뽕	14720
사스케	14721
코이	14722
정은	14723
부식	14724
궤적	14725
gr	14726
패미	14727
##루살	14728
페가	14729
망령	14730
그리스어	14731
키무라	14732
자취	14733
하르	14734
##루살렘	14735
줄거리	14736
로사	14737
##긴	14738
직구	14739
고속버스	14740
섀도	14741
카노	14742
총탄	14743
##ual	14744
무효화	14745
타국	14746
기합	14747
자민	14748
에우	14749
발전기	14750
부추	14751
정거장	14752
립스	14753
저리	14754
맥도	14755
가명	14756
베드	14757
출퇴근	14758
##삐	14759
똘	14760
이야말로	14761
HT	14762
##아스	14763
Rec	14764
}}}	14765
공방전	14766
가호	14767
동갑	14768
장병	14769
애틀랜	14770
MT	14771
대칭	14772
폭포	14773
뒤이	14774
쿠루	14775
군사력	14776
SCP	14777
##부시	14778
핵무기	14779
##reen	14780
농협	14781
나고야	14782
당첨	14783
Fem	14784
타치바나	14785
애시	14786
라자	14787
하이드	14788
마에다	14789
타나	14790
코스타	14791
운동가	14792
##스트로	14793
피라미	14794
악용	14795
허공	14796
공성전	14797
노이즈	14798
성역	14799
sm	14800
무빙	14801
쑥	14802
##하하	14803
속공	14804
신시	14805
퍼스	14806
족장	14807
정명	14808
SG	14809
##ᅢ신	14810
어쌔신	14811
직역	14812
##해군	14813
거제	14814
표방	14815
##바퀴	14816
벽돌	14817
옵티	14818
집중력	14819
메스	14820
김정은	14821
수군	14822
김택	14823
식별	14824
##ern	14825
윈스	14826
복싱	14827
##심장	14828
빌헬	14829
조그마	14830
태세	14831
넥슨	14832
루카스	14833
판서	14834
마이어	14835
##af	14836
King	14837
트렌	14838
실험실	14839
궁지	14840
조력자	14841
선도	14842
건재	14843
가급적	14844
포지	14845
유하	14846
##ox	14847
##회의	14848
노기	14849
명대사	14850
강변	14851
##숨에	14852
단숨에	14853
예루살렘	14854
거니	14855
허구	14856
##ERO	14857
세조	14858
노드	14859
랩터	14860
서킷	14861
내구력	14862
첨가	14863
결장	14864
억압	14865
##싹	14866
통용	14867
억지	14868
두부	14869
대인배	14870
시립	14871
소용돌이	14872
##ars	14873
표명	14874
블래스트	14875
아이작	14876
##riend	14877
생산력	14878
##코어	14879
연예계	14880
주방	14881
카즈마	14882
Ep	14883
적진	14884
뵈	14885
##bs	14886
증세	14887
수원시	14888
막바지	14889
##스부르크	14890
괴리	14891
분경	14892
역병	14893
발상	14894
신주쿠	14895
##토미	14896
미야자키	14897
광탈	14898
에이전트	14899
승천	14900
MLB	14901
지중해	14902
군기	14903
숏	14904
999	14905
돌려보내	14906
##연합	14907
디펜스	14908
IG	14909
집정	14910
초당	14911
돌아서	14912
예장	14913
게임기	14914
무전	14915
콘테	14916
##ts	14917
초선	14918
서식지	14919
깊숙	14920
블라디미르	14921
이선	14922
School	14923
단절	14924
꺾이	14925
프론트	14926
세균	14927
파이브	14928
근성	14929
대제	14930
고양시	14931
슈퍼스타	14932
동인지	14933
흐리	14934
요르	14935
데우스	14936
소진	14937
데카	14938
히토미	14939
히노	14940
베가	14941
고베	14942
##클레스	14943
돌격소총	14944
절규	14945
Ge	14946
Leg	14947
End	14948
다기	14949
대파	14950
김창	14951
Pv	14952
길들이	14953
##ᆺ잎	14954
둘러보	14955
단조	14956
##노미야	14957
수비진	14958
후후	14959
##itch	14960
##IE	14961
바루	14962
포고	14963
1933	14964
추적자	14965
삼거리	14966
어인	14967
무성	14968
김희	14969
박격	14970
스위트	14971
피리	14972
카오리	14973
추기경	14974
라지만	14975
남용	14976
Miss	14977
##SS	14978
엄지	14979
출몰	14980
##메인	14981
##악기	14982
##rist	14983
양현	14984
리베	14985
허리케인	14986
##ᆷ없이	14987
지령	14988
수다	14989
가뜩	14990
급기야	14991
Di	14992
홍준표	14993
미토	14994
경신	14995
매사	14996
1932	14997
스타팅	14998
그려지	14999
##그레	15000
리쿠	15001
설계도	15002
함경	15003
임상	15004
기마	15005
1931	15006
##tr	15007
##atic	15008
착수	15009
카에	15010
요건	15011
배지	15012
성문	15013
##사전	15014
대명사	15015
표출	15016
민족주의	15017
시스터	15018
자유자재	15019
131	15020
네모	15021
VR	15022
레스터	15023
별자리	15024
포트리스	15025
사사키	15026
벅스	15027
퍼시픽	15028
##일본	15029
제시카	15030
꽝	15031
상회	15032
소피	15033
파파	15034
입성	15035
베토벤	15036
조폭	15037
발악	15038
라오	15039
##질기	15040
YOU	15041
가뜩이나	15042
배분	15043
UFC	15044
중전차	15045
광학	15046
오로라	15047
유토	15048
병단	15049
##날드	15050
옥타	15051
인벤토리	15052
Air	15053
부럽	15054
아몬	15055
끈질기	15056
카탈	15057
광부	15058
악랄	15059
IDOL	15060
BF	15061
##ma	15062
이노우에	15063
just	15064
실황	15065
애교	15066
양도	15067
피겨	15068
천도	15069
토착	15070
환원	15071
도미니	15072
##무스	15073
흡연	15074
럼블	15075
아의	15076
극소수	15077
##투르	15078
인맥	15079
카로	15080
1928	15081
물들	15082
스티커	15083
초원	15084
GR	15085
디에	15086
다단	15087
솔로몬	15088
VOCALOID	15089
##수엘라	15090
##rain	15091
어드밴스	15092
##의사	15093
위즈	15094
티코	15095
쿠파	15096
##니클	15097
스타크	15098
사부	15099
품종	15100
깽판	15101
##쏠	15102
외무	15103
밉	15104
무림	15105
##oot	15106
연호	15107
빨강	15108
##카즈	15109
헬스	15110
사우디아	15111
장타율	15112
선비	15113
인테르	15114
팔찌	15115
쏠쏠	15116
세간	15117
진가	15118
천적	15119
징징	15120
랜턴	15121
모터스	15122
수고	15123
응원가	15124
과부	15125
시중	15126
코타로	15127
당분	15128
이치고	15129
일보	15130
무어	15131
교란	15132
올라서	15133
Mod	15134
교육부	15135
태그팀	15136
운운	15137
안나	15138
##재판	15139
UM	15140
왠만	15141
플래닛	15142
스코프	15143
새로이	15144
##ony	15145
명령어	15146
치명상	15147
경유지	15148
##셔츠	15149
what	15150
이화	15151
군벌	15152
##노이	15153
키사	15154
넓이	15155
여고생	15156
도도	15157
해리스	15158
인내	15159
징병	15160
##ope	15161
##ren	15162
정유	15163
본디	15164
커리	15165
재사	15166
col	15167
되살아나	15168
염소	15169
손아	15170
불러들이	15171
편대	15172
Che	15173
포털	15174
내려지	15175
총대	15176
메라	15177
아이언맨	15178
남구	15179
자주포	15180
???	15181
송도	15182
STER	15183
if	15184
Sound	15185
마커	15186
정인	15187
서드	15188
베네수엘라	15189
Hy	15190
걸작	15191
국력	15192
다나카	15193
반갑	15194
피코	15195
단골	15196
ADV	15197
툼	15198
유목	15199
비늘	15200
고어	15201
##큘라	15202
관제	15203
창병	15204
샤크	15205
거주지	15206
방금	15207
방황	15208
금전	15209
종일	15210
군중	15211
##그램	15212
취직	15213
철학자	15214
굴복	15215
초사	15216
도리어	15217
직관	15218
고폭탄	15219
어우	15220
미끄러지	15221
전편	15222
우시	15223
예비군	15224
'''	15225
사교	15226
유수	15227
학업	15228
밀라노	15229
이과	15230
마이너스	15231
킹스	15232
마사키	15233
두께	15234
담당자	15235
글러브	15236
교주	15237
왕궁	15238
##중국	15239
##쿠버	15240
진흙	15241
##던트	15242
뒤집히	15243
##사우	15244
위나라	15245
부풀	15246
노조미	15247
재팬	15248
무언	15249
국산	15250
##긍	15251
마이트	15252
유교	15253
해인	15254
제후	15255
상반기	15256
작별	15257
정중	15258
##서야	15259
디디	15260
노이	15261
줄곧	15262
##슬라비아	15263
유고슬라비아	15264
야쿠자	15265
민국	15266
지기	15267
손녀	15268
DO	15269
부치	15270
##안군	15271
Vo	15272
토머스	15273
한심	15274
각색	15275
리노	15276
요동	15277
강유	15278
체질	15279
##원군	15280
치아	15281
진공	15282
알코올	15283
역설	15284
연주자	15285
추이	15286
프레데	15287
법무부	15288
##어먹	15289
원호	15290
##olog	15291
드라큘라	15292
광석	15293
사업자	15294
##iew	15295
타케시	15296
컨테이너	15297
청색	15298
##UE	15299
에일리언	15300
광저우	15301
관습	15302
반다이	15303
박주	15304
미성년자	15305
노숙	15306
멀쩡히	15307
조장	15308
이치로	15309
##세데스	15310
휴일	15311
메르세데스	15312
안토니오	15313
##ana	15314
지망	15315
레지스	15316
덫	15317
황족	15318
##같이	15319
아이리스	15320
POP	15321
앞쪽	15322
슈타인	15323
천계	15324
프런트	15325
##데기	15326
성추	15327
##UR	15328
아역	15329
광신	15330
##55	15331
여의도	15332
육식	15333
연희	15334
만류	15335
서북	15336
문과	15337
화요일	15338
의거	15339
번영	15340
욕하	15341
벼슬	15342
재선	15343
양면	15344
게재	15345
##AA	15346
사바	15347
##려드	15348
군산	15349
효력	15350
농도	15351
즐거	15352
##데아	15353
하세	15354
아치	15355
현명	15356
잉크	15357
학번	15358
애프	15359
카린	15360
전념	15361
EMP	15362
MD	15363
눈ᄊ	15364
망원경	15365
해커	15366
스플	15367
피어	15368
불멸	15369
가솔린	15370
##쿠로	15371
카스미	15372
옵티머스	15373
주범	15374
토오루	15375
해운대	15376
작아지	15377
로딩	15378
손바닥	15379
사쿠라이	15380
PVP	15381
고독	15382
저격총	15383
느냐는	15384
애플리케이션	15385
성채	15386
리투아	15387
고려대	15388
리투아니아	15389
night	15390
SO	15391
득점자	15392
유죄	15393
##의정	15394
플랫폼	15395
##ield	15396
타노스	15397
신디	15398
나날	15399
성주	15400
부회장	15401
경인	15402
친위대	15403
타협	15404
괴담	15405
칼럼	15406
재혼	15407
뛰쳐	15408
회복력	15409
로망	15410
과실	15411
기한	15412
타지	15413
사우디아라비아	15414
##제이	15415
##그라드	15416
제식	15417
금기	15418
메꾸	15419
활주	15420
백합	15421
흑백	15422
레이터	15423
Cat	15424
행태	15425
CT	15426
후유증	15427
시한	15428
스테이트	15429
엇갈리	15430
스루	15431
링컨	15432
도널드	15433
##변속기	15434
오너	15435
삼각형	15436
매복	15437
이안	15438
친밀	15439
겉보기	15440
트림	15441
빼돌리	15442
##미아	15443
청량	15444
Not	15445
기와	15446
사위	15447
With	15448
하야토	15449
무작정	15450
App	15451
조운	15452
수분	15453
다정	15454
좌익수	15455
한모	15456
don	15457
아산	15458
콜로니	15459
바주카	15460
##oon	15461
생사	15462
##거진	15463
게리온	15464
으리라	15465
진작	15466
대용	15467
나우	15468
김전	15469
아야카	15470
골리	15471
XP	15472
굳어지	15473
팔라딘	15474
일부분	15475
키워드	15476
임용	15477
사에	15478
##무장	15479
##티어	15480
##패스	15481
제멋	15482
1924	15483
피라미드	15484
대두	15485
극찬	15486
펄스	15487
MASTER	15488
##천동	15489
빅터	15490
먹방	15491
조율	15492
건의	15493
시그마	15494
빌헬름	15495
총통	15496
이윽	15497
추대	15498
가치관	15499
이윽고	15500
선체	15501
박준	15502
되돌아가	15503
EA	15504
WE	15505
BAS	15506
ㅋㅋ	15507
양념	15508
아그	15509
텔레콤	15510
농어	15511
시력	15512
##시계	15513
가든	15514
안테	15515
##ouse	15516
##atale	15517
##슬로	15518
카무이	15519
미셸	15520
##웬	15521
Run	15522
##어찌	15523
재해	15524
폴더	15525
way	15526
복종	15527
Hard	15528
브릿지	15529
브라더	15530
미타	15531
체조	15532
섭외	15533
니콜	15534
드라군	15535
시위대	15536
변종	15537
Femme	15538
##러미	15539
보태	15540
광주광역시	15541
분사	15542
다인	15543
교구	15544
파고들	15545
이마트	15546
그닥	15547
들려오	15548
칭송	15549
1100	15550
조선일보	15551
##블랜드	15552
RS	15553
빈사	15554
쟁탈	15555
액셀	15556
340	15557
아루	15558
가산	15559
중령	15560
카세	15561
초토	15562
탤	15563
언행	15564
##돼지	15565
참패	15566
클리블랜드	15567
부화	15568
소심	15569
살라	15570
##elf	15571
바하	15572
설레	15573
Rev	15574
낯설	15575
무찌	15576
명작	15577
##its	15578
보답	15579
세나	15580
##마사	15581
출입구	15582
얼핏	15583
마도사	15584
그놈	15585
##먹이	15586
어찌어찌	15587
성공회	15588
창원시	15589
1929	15590
추산	15591
대잠	15592
외출	15593
페로	15594
샨	15595
데이빗	15596
성폭행	15597
경장	15598
애당초	15599
위생	15600
서문	15601
폭발물	15602
한몫	15603
호대	15604
촉구	15605
미디	15606
##니치	15607
정장	15608
넵	15609
중앙선	15610
택배	15611
승부차기	15612
도호쿠	15613
스펙트	15614
아종	15615
기요	15616
카도	15617
미지수	15618
확연히	15619
아멜	15620
##야샤	15621
이누야샤	15622
Da	15623
후타	15624
기병대	15625
뾰족	15626
전리품	15627
채무	15628
협곡	15629
협의회	15630
수렴	15631
버지	15632
##퀄	15633
수준급	15634
XXX	15635
일쑤	15636
학파	15637
투르	15638
HG	15639
무찌르	15640
껄	15641
오스카	15642
쾌속	15643
##테리	15644
커브	15645
피신	15646
##맨더	15647
##방향	15648
##치오	15649
의병	15650
자연스레	15651
강적	15652
셀프	15653
여건	15654
연비	15655
바이스	15656
피곤	15657
마모루	15658
병살타	15659
스튜어트	15660
카자흐	15661
214	15662
셜록	15663
정적	15664
탈옥	15665
##먼드	15666
캡콤	15667
동남아시아	15668
위화	15669
패기	15670
종자	15671
효과음	15672
쇼핑몰	15673
안도	15674
봉황	15675
##저트	15676
Get	15677
접시	15678
추석	15679
설득력	15680
##Fatale	15681
벡	15682
다던가	15683
프랑켄	15684
명인	15685
CCTV	15686
FemmeFatale	15687
반말	15688
든가	15689
바늘	15690
데이브	15691
##발리	15692
수작	15693
동국	15694
겨누	15695
##언정	15696
시구	15697
무의	15698
장래	15699
카가	15700
도전자	15701
듀엣	15702
가로지르	15703
서면	15704
##암동	15705
자잘	15706
근로자	15707
이관	15708
마징가	15709
단층	15710
##구나	15711
공채	15712
이스터	15713
경위	15714
초식	15715
동물원	15716
콘스탄티노	15717
꾀하	15718
김전일	15719
신이치	15720
본문	15721
##ane	15722
선진국	15723
충주	15724
패트릭	15725
dis	15726
부츠	15727
직감	15728
입당	15729
릉	15730
##텁	15731
브뤼	15732
손흥	15733
광양	15734
박격포	15735
Elect	15736
대관	15737
입맛	15738
선교사	15739
물려주	15740
키퍼	15741
승기	15742
1925	15743
조세	15744
환각	15745
정제	15746
동봉	15747
토탈	15748
##사의	15749
말장난	15750
141	15751
결별	15752
발효	15753
계보	15754
온화	15755
송구	15756
웨일스	15757
시동	15758
Song	15759
홈구장	15760
사각	15761
사용법	15762
제정신	15763
스폰지	15764
아벨	15765
##로이	15766
식신	15767
북유럽	15768
충성심	15769
##we	15770
안치	15771
현행	15772
케네	15773
Ke	15774
하코	15775
순진	15776
꼭두	15777
이ᄆ	15778
분수	15779
##75	15780
수반	15781
기각	15782
##매매	15783
##득점	15784
쓸모없	15785
목성	15786
흑화	15787
순조	15788
익스프레스	15789
치중	15790
모라	15791
VIP	15792
가출	15793
든든	15794
특권	15795
알루미	15796
She	15797
압살	15798
발산	15799
유감	15800
씁	15801
타라	15802
손흥민	15803
마포	15804
반칙	15805
##마이	15806
룽	15807
홍수	15808
포르노	15809
##제리	15810
밸리	15811
안장	15812
유한	15813
들이대	15814
샌디	15815
아지트	15816
8000	15817
##무니	15818
캉	15819
310	15820
##미사	15821
대변인	15822
RG	15823
bl	15824
진과	15825
난전	15826
트린	15827
악세	15828
212	15829
발렌시아	15830
오미	15831
쓸데없	15832
대여	15833
산지	15834
프레디	15835
앨리	15836
송이	15837
윈스턴	15838
상권	15839
기만	15840
##컨대	15841
레트	15842
좀처럼	15843
쇼코	15844
착공	15845
액세서리	15846
SHOW	15847
침체	15848
##슘	15849
아즈사	15850
##투수	15851
1911	15852
니키	15853
##ecial	15854
퍼뜨리	15855
사다리	15856
호스트	15857
미라클	15858
팔레스	15859
완전체	15860
리포트	15861
육박	15862
향수	15863
집정관	15864
뮬	15865
생리	15866
술법	15867
스왑	15868
고장나	15869
매거진	15870
co	15871
레고	15872
브란	15873
빌미	15874
##쿤	15875
제비	15876
법령	15877
잠복	15878
##asy	15879
차세대	15880
키리토	15881
선발투수	15882
최전	15883
학창	15884
뒤틀리	15885
마작	15886
##라이즈	15887
샬	15888
재사용	15889
걸어오	15890
메테오	15891
콧	15892
##MC	15893
가물	15894
콜라보레이션	15895
창출	15896
시애	15897
##레트	15898
사설	15899
##라이터	15900
리조트	15901
수법	15902
호조	15903
대담	15904
체가	15905
마음껏	15906
비정	15907
##제품	15908
만회	15909
시궁	15910
도르트	15911
가가	15912
대강	15913
에리카	15914
허세	15915
작물	15916
임창	15917
##히사	15918
정무	15919
불가사의	15920
어처	15921
구자	15922
평정	15923
풀백	15924
Back	15925
가네	15926
설사	15927
격돌	15928
주주	15929
상정	15930
엑소	15931
영락	15932
김인	15933
RAW	15934
##눅스	15935
최면	15936
##투표	15937
##ORE	15938
비석	15939
혼종	15940
1917	15941
##주곡	15942
##푸스	15943
수레	15944
성취	15945
폭사	15946
미츠루	15947
단테	15948
베라	15949
로드리	15950
과반	15951
농부	15952
오리콘	15953
제이크	15954
호노카	15955
편제	15956
콩고	15957
##조각	15958
김혜	15959
##지대	15960
삽화	15961
##ze	15962
사마의	15963
제구	15964
##폴리스	15965
##나가와	15966
##네트	15967
저번	15968
##원수	15969
Ang	15970
Big	15971
##66	15972
석궁	15973
아세	15974
Comm	15975
원동	15976
앞장	15977
시애틀	15978
##도니아	15979
작살	15980
1927	15981
입학식	15982
꼭대기	15983
탐욕	15984
순교자	15985
스플래시	15986
늘어지	15987
부합	15988
틀어지	15989
Cy	15990
DT	15991
백미	15992
알루미늄	15993
선천	15994
운전자	15995
480	15996
리눅스	15997
신민	15998
가즈	15999
##용차	16000
디트로	16001
사과문	16002
디트로이트	16003
만두	16004
교감	16005
##ᆺ거리	16006
자택	16007
암석	16008
포화	16009
광화	16010
시엘	16011
소인	16012
부두	16013
홍대	16014
720	16015
world	16016
스크래치	16017
존댓말	16018
지바	16019
팔레스타인	16020
악보	16021
공직	16022
탄종	16023
부추기	16024
낙원	16025
##유산	16026
SW	16027
거물	16028
##벨트	16029
승계	16030
검찰청	16031
##아아	16032
선명	16033
##짜기	16034
##ness	16035
해협	16036
넘쳐	16037
와우	16038
무자비	16039
매입	16040
불사조	16041
##요환	16042
프리즈	16043
라거나	16044
방대	16045
##양군	16046
수배	16047
크로니클	16048
동포	16049
양동	16050
열풍	16051
블레이즈	16052
항로	16053
겸임	16054
노브	16055
##ke	16056
대전광역시	16057
바바	16058
인민군	16059
강당	16060
애리	16061
##EX	16062
사상자	16063
느냐고	16064
민병대	16065
개종	16066
화장품	16067
황자	16068
스칼렛	16069
##ton	16070
007	16071
어처구니	16072
젤다	16073
팔꿈치	16074
다이어트	16075
차출	16076
심플	16077
왼팔	16078
하드코어	16079
가까스로	16080
Every	16081
김세	16082
임요환	16083
##옌	16084
전복	16085
white	16086
되돌아오	16087
아픔	16088
전염병	16089
##평군	16090
더스트	16091
제이드	16092
국무총리	16093
##포로	16094
듀티	16095
420	16096
손수	16097
와이드	16098
su	16099
서점	16100
목표물	16101
당당히	16102
##ny	16103
조선인	16104
속삭	16105
투여	16106
파열	16107
까먹	16108
정류소	16109
휩쓸	16110
Arm	16111
스릴러	16112
영분	16113
##예프	16114
볼텍스	16115
아우구	16116
##패드	16117
송병	16118
스케치	16119
사절	16120
박병	16121
##르바	16122
##히트	16123
0000	16124
첩보	16125
##sc	16126
##appy	16127
난동	16128
로마자	16129
구이	16130
바트	16131
인디언	16132
에덴	16133
커네	16134
자위대	16135
다이브	16136
con	16137
유니버	16138
즘	16139
흘러나오	16140
위임	16141
##평가	16142
##페스트	16143
예리	16144
비대	16145
That	16146
##비히	16147
우익수	16148
##ᆷ비	16149
##지리아	16150
적정	16151
네메	16152
나이지리아	16153
대장군	16154
헤딩	16155
##노프	16156
GDP	16157
한조	16158
##선거	16159
어도	16160
자니	16161
ᆫ다면서	16162
여도	16163
마더	16164
선공	16165
도르트문트	16166
해밀	16167
사이퍼	16168
##부대	16169
심부	16170
TB	16171
이민자	16172
위조	16173
행선	16174
두텁	16175
가제	16176
커먼	16177
괴로	16178
자라나	16179
강남구	16180
어비스	16181
분교	16182
이에야스	16183
열받	16184
나주	16185
유쾌	16186
기총	16187
##28	16188
처단	16189
플러그	16190
지아	16191
##무진	16192
##인간	16193
시저	16194
유체	16195
##틱스	16196
에프	16197
메커	16198
비약	16199
체르	16200
페인트	16201
모티	16202
서커스	16203
Har	16204
클로즈	16205
유명세	16206
스펙트럼	16207
전태	16208
합방	16209
폿	16210
원산	16211
망자	16212
동대문	16213
사비	16214
어휘	16215
프리스	16216
코이치	16217
격노	16218
##부리	16219
대한항공	16220
심포	16221
화수	16222
배척	16223
##쓸리	16224
Amer	16225
주작	16226
카야	16227
##작전	16228
휩쓸리	16229
총사령관	16230
##UC	16231
의미심장	16232
대각선	16233
##RAM	16234
류현진	16235
랫	16236
레이크	16237
노후	16238
입상	16239
독재자	16240
동거	16241
떠들	16242
KS	16243
##바ᄁ	16244
히로유키	16245
##24	16246
이따	16247
클락	16248
오버로드	16249
주성	16250
qu	16251
##파니	16252
##드래	16253
보유자	16254
Order	16255
정현	16256
서재	16257
UR	16258
으라는	16259
아론	16260
리젠	16261
주군	16262
토의	16263
매트릭스	16264
오드	16265
요크	16266
방랑	16267
신종	16268
##애미	16269
프리스트	16270
늘어놓	16271
국수	16272
능동	16273
마이애미	16274
##노기	16275
프랭클린	16276
침식	16277
Des	16278
1926	16279
##35	16280
모건	16281
##교도	16282
마늘	16283
##모자	16284
활주로	16285
미련	16286
서경	16287
송파	16288
유추	16289
발령	16290
경이	16291
역기	16292
크리스토퍼	16293
캬	16294
낭만	16295
안드로메다	16296
상경	16297
단신	16298
빡빡	16299
소셜	16300
야하	16301
미얀	16302
##니지	16303
대머리	16304
조회	16305
사토시	16306
서스	16307
후일담	16308
숙종	16309
##AG	16310
새해	16311
퇴근	16312
기라	16313
리액션	16314
정규군	16315
##비우스	16316
마카오	16317
채굴	16318
Skill	16319
내려놓	16320
관광지	16321
무협	16322
라운	16323
Pe	16324
치타	16325
출세	16326
브로드	16327
가변	16328
올리버	16329
일직	16330
비밀리	16331
김정일	16332
토요타	16333
스탠다드	16334
##공격	16335
나가사키	16336
케네디	16337
##니트	16338
문의	16339
태연	16340
시즈카	16341
복권	16342
벌칙	16343
씁쓸	16344
조비	16345
병영	16346
합산	16347
지체	16348
김준호	16349
인즈	16350
##운전	16351
버금	16352
일찍이	16353
토네이	16354
토네이도	16355
허영	16356
단말기	16357
>,	16358
산호	16359
##chor	16360
게이밍	16361
##자스	16362
단거리	16363
당분간	16364
개화	16365
춘추	16366
선발전	16367
비행선	16368
##렉트	16369
마는	16370
PSP	16371
열전	16372
메소	16373
공병	16374
사이오	16375
##실히	16376
te	16377
자석	16378
누마	16379
##괘	16380
장학금	16381
중산	16382
피크	16383
디테일	16384
좀비	16385
옥스	16386
장단	16387
윤종	16388
##비언	16389
온전히	16390
소아	16391
추월	16392
교원	16393
##ious	16394
208	16395
성추행	16396
오재	16397
Tri	16398
졸개	16399
정진	16400
속옷	16401
송라이터	16402
크루세이	16403
난폭	16404
푸드	16405
란트	16406
##픈	16407
간식	16408
듬	16409
장녀	16410
튜브	16411
Act	16412
프레드	16413
##위치	16414
##넓	16415
235	16416
와이어	16417
왕녀	16418
마장	16419
커터	16420
NS	16421
##자카	16422
##각시	16423
판본	16424
항쟁	16425
이트	16426
국정원	16427
##느니	16428
연평	16429
##즈마	16430
Top	16431
상대편	16432
난해	16433
GL	16434
애틀랜타	16435
느긋	16436
##타자	16437
랏	16438
어로	16439
눌	16440
자부심	16441
영화판	16442
석화	16443
펜스	16444
교재	16445
태고	16446
상고	16447
게르만	16448
공전	16449
노랑	16450
후작	16451
세이부	16452
##빠르	16453
Em	16454
사역	16455
##ert	16456
갈고리	16457
##pl	16458
양아치	16459
시노부	16460
지독	16461
나나미	16462
##라이언트	16463
짤방	16464
박세	16465
다이묘	16466
서부터	16467
케르	16468
이어인	16469
171	16470
##net	16471
가차	16472
플레이트	16473
RF	16474
##정동	16475
법조	16476
Str	16477
클라이언트	16478
850	16479
이의	16480
비숍	16481
내년	16482
초급	16483
수산	16484
연기자	16485
1922	16486
마그마	16487
비틀즈	16488
자의	16489
##상스	16490
##피어	16491
체이스	16492
최진	16493
괴도	16494
갑판	16495
##단체	16496
구세	16497
알파벳	16498
빡세	16499
주스	16500
##그러지	16501
조슈	16502
항소	16503
주권	16504
##ient	16505
화랑	16506
줄리아	16507
##힘	16508
끊이	16509
##co	16510
대적	16511
라이터	16512
가쿠	16513
##개골	16514
비욘	16515
가메	16516
##olution	16517
역전승	16518
카멜	16519
위저	16520
찬사	16521
1923	16522
켄타	16523
초연	16524
헌데	16525
나시	16526
각본가	16527
동독	16528
카터	16529
마드	16530
트리오	16531
제멋대로	16532
소량	16533
츠카사	16534
거슬리	16535
모기	16536
야채	16537
직계	16538
밀러	16539
TCG	16540
불운	16541
올라타	16542
데스크	16543
잔당	16544
FX	16545
샤아	16546
프라이즈	16547
##바위	16548
클라우	16549
유행어	16550
스펙터	16551
조인	16552
주임	16553
햇빛	16554
##지원	16555
헌병	16556
##끝	16557
##정역	16558
오아	16559
인신	16560
255	16561
UFO	16562
FR	16563
과다	16564
##고쿠	16565
리오스	16566
##bps	16567
자아내	16568
이송	16569
##둘기	16570
보전	16571
크롤	16572
용품	16573
근래	16574
안중	16575
##IST	16576
투기	16577
영창	16578
포유	16579
##랑카	16580
래스	16581
의리	16582
##ret	16583
206	16584
일선	16585
유세	16586
##서리	16587
미완	16588
정경	16589
쉘	16590
천문학	16591
나츠미	16592
타쿠미	16593
중공업	16594
앞마당	16595
영기	16596
미분	16597
노사	16598
요일	16599
##모사	16600
다이너	16601
성남시	16602
cl	16603
진전	16604
왕따	16605
중심부	16606
편집자	16607
NL	16608
수년	16609
형법	16610
와일드카드	16611
'-	16612
동유럽	16613
들려주	16614
브라우저	16615
튜너	16616
##러기	16617
버디	16618
왕립	16619
##ideo	16620
해결책	16621
구치	16622
데프	16623
로페	16624
Ab	16625
LCD	16626
##ner	16627
쏠리	16628
중얼거리	16629
드레이크	16630
골대	16631
등산	16632
청주시	16633
데뷔작	16634
가중	16635
요지	16636
독립운동가	16637
법정동	16638
호우	16639
1921	16640
마츠모토	16641
Bea	16642
럽	16643
연방군	16644
푸른	16645
신한은행	16646
##나들	16647
삿포로	16648
메커니즘	16649
주름	16650
기통	16651
서남	16652
정직	16653
..'	16654
LS	16655
앤더슨	16656
EXH	16657
생계	16658
키메라	16659
외교관	16660
한가	16661
디비	16662
루즈	16663
이제동	16664
##ful	16665
왕건	16666
오일	16667
패거리	16668
떨어트리	16669
초동	16670
##토록	16671
ve	16672
어중간	16673
구애	16674
리비아	16675
노동조합	16676
거듭나	16677
Fre	16678
데일리	16679
PO	16680
우로	16681
버니	16682
부르크	16683
##럭스	16684
소이	16685
오바마	16686
내무	16687
알아듣	16688
경호원	16689
파드	16690
God	16691
한인	16692
off	16693
세단	16694
선하	16695
경관	16696
박민	16697
290	16698
Bar	16699
Met	16700
##튀기	16701
평지	16702
##ham	16703
텐션	16704
내심	16705
레비	16706
두드리	16707
스플릿	16708
유민	16709
벨벳	16710
333	16711
Sil	16712
리바이	16713
특출	16714
체류	16715
Hot	16716
##ward	16717
##소통	16718
불분	16719
뻥튀기	16720
는군	16721
우메	16722
관대	16723
고모	16724
특공대	16725
##ning	16726
영국인	16727
209	16728
의사소통	16729
부메	16730
작렬	16731
##겨지	16732
어지간히	16733
미하일	16734
자며	16735
##호도	16736
지출	16737
규명	16738
##ERS	16739
이승엽	16740
포괄	16741
원제	16742
##캐스트	16743
##캐슬	16744
과잉	16745
드리프트	16746
쭈	16747
면은	16748
인스	16749
DEF	16750
중소기업	16751
##son	16752
힌두	16753
대한제국	16754
이지스	16755
##사우루스	16756
산출	16757
마고	16758
성종	16759
##트니	16760
215	16761
레미	16762
마천	16763
치부	16764
말라	16765
재상	16766
항우	16767
엘런	16768
##인드	16769
##버릇	16770
AMD	16771
##어들이	16772
시르	16773
Inf	16774
##레오	16775
관악	16776
##밟	16777
메아리	16778
부딪치	16779
이신	16780
뉴캐슬	16781
켄이치	16782
팽창	16783
희미	16784
##day	16785
정종	16786
진해	16787
우즈베	16788
대리인	16789
의류	16790
##조선	16791
인장	16792
부메랑	16793
Char	16794
애덤	16795
팩토리	16796
수영장	16797
단단히	16798
##틀링	16799
여리	16800
로버	16801
채권	16802
##mania	16803
러시아군	16804
Rain	16805
대의	16806
불분명	16807
판도라	16808
자정	16809
선풍	16810
꼭두각시	16811
후려	16812
통역	16813
토와	16814
탄수	16815
친근	16816
TD	16817
자드	16818
버지니아	16819
송곳	16820
RAM	16821
##곡리	16822
궁정	16823
받침	16824
1912	16825
자치구	16826
햄버	16827
코지마	16828
츠루	16829
증원	16830
바람직	16831
절묘	16832
자연수	16833
마우	16834
줄줄이	16835
kn	16836
수료	16837
동선	16838
White	16839
Ext	16840
무난히	16841
주립	16842
동산	16843
토템	16844
재화	16845
척추	16846
마케도니아	16847
가창력	16848
기겁	16849
치밀	16850
##let	16851
##뮤직	16852
저렇	16853
##au	16854
경상도	16855
이분	16856
도보	16857
의약	16858
충동	16859
##마트	16860
김제	16861
##고스	16862
만화가	16863
가세	16864
##ATION	16865
우투	16866
최성	16867
뇌격	16868
소음기	16869
경의	16870
##마드	16871
외야	16872
주시	16873
##ERT	16874
전폭	16875
성녀	16876
두개골	16877
바사	16878
##숭	16879
익명	16880
##선스	16881
소중히	16882
최적화	16883
무로	16884
서유럽	16885
##생물	16886
급여	16887
르네상스	16888
인기투표	16889
안테나	16890
수주	16891
세토	16892
발도	16893
코나미	16894
헤라클레스	16895
창간	16896
버즈	16897
트레이서	16898
애리조	16899
음양	16900
여행자	16901
Are	16902
괴멸	16903
시발	16904
##oud	16905
뮤즈	16906
마취	16907
젯	16908
갭	16909
May	16910
KD	16911
그물	16912
알맞	16913
간장	16914
오마주	16915
사생활	16916
성령	16917
##레즈	16918
기판	16919
자음	16920
시궁창	16921
코로	16922
심슨	16923
FE	16924
되려	16925
라이선스	16926
STAR	16927
건너편	16928
FN	16929
주부	16930
##ump	16931
셔츠	16932
비평가	16933
Pop	16934
나루호도	16935
세무	16936
데이즈	16937
최우선	16938
버금가	16939
분과	16940
피고인	16941
1400	16942
포이	16943
초중	16944
잔여	16945
점포	16946
런닝맨	16947
루드	16948
금하	16949
랜디	16950
프란츠	16951
공시	16952
저스틴	16953
샤이닝	16954
배럴	16955
탬	16956
명확히	16957
영재	16958
##대표	16959
헌납	16960
이치카	16961
이시다	16962
고스란히	16963
이목	16964
때우	16965
권역	16966
투항	16967
덩크	16968
이가	16969
제레	16970
무심	16971
현수	16972
##라트	16973
기생충	16974
노프	16975
##대군	16976
스노	16977
207	16978
데이터베이스	16979
창세기	16980
트레인	16981
무네	16982
계승자	16983
나츠키	16984
위화감	16985
위인	16986
어린애	16987
##여행	16988
anchor	16989
마오쩌	16990
마오쩌둥	16991
최재	16992
청문	16993
성동	16994
제품군	16995
아이리	16996
러블리	16997
##살이	16998
빈스	16999
only	17000
want	17001
브랜	17002
down	17003
군단장	17004
혈관	17005
헛소리	17006
앞장서	17007
##돔	17008
##실록	17009
##메르	17010
ᆯ지도	17011
이시카와	17012
**	17013
다이렉트	17014
every	17015
##하늘	17016
유다	17017
심심찮	17018
긴장감	17019
##니케이션	17020
아르테	17021
PA	17022
안식	17023
##EE	17024
신촌	17025
##내기	17026
로로	17027
인플	17028
키바	17029
커뮤니케이션	17030
##22	17031
치세	17032
비하인드	17033
ᆯ게요	17034
북서쪽	17035
공석	17036
아이슬	17037
고갈	17038
##88	17039
맞춤	17040
급진	17041
랄까	17042
제각	17043
월터	17044
우사	17045
인피니트	17046
##ves	17047
북두	17048
친화	17049
감도	17050
정연	17051
리언	17052
##엠	17053
Game	17054
역관	17055
Master	17056
##떼	17057
자재	17058
도메인	17059
감속	17060
161	17061
##밑	17062
공적	17063
##산면	17064
조부	17065
구스	17066
##ape	17067
장막	17068
체로	17069
ᄇ시다	17070
문호	17071
수리검	17072
애프터	17073
랄프	17074
##마츠	17075
스트레이트	17076
yout	17077
카프	17078
아이슬란드	17079
멧돼지	17080
경합	17081
간첩	17082
Joh	17083
황무지	17084
##도사	17085
유부	17086
사단장	17087
로자	17088
길목	17089
대입	17090
##매니아	17091
##켜	17092
OR	17093
more	17094
원로원	17095
TN	17096
##HD	17097
경시	17098
찾아다니	17099
여객철도	17100
라리	17101
##석기	17102
유우야	17103
터무니	17104
다마	17105
Open	17106
개틀링	17107
절약	17108
남원	17109
오스틴	17110
플라워	17111
김태균	17112
요양	17113
Cont	17114
##less	17115
체내	17116
사카모토	17117
극동	17118
구스타	17119
리시	17120
##드래곤	17121
오덕	17122
제명	17123
국물	17124
민속	17125
오퍼레이터	17126
몸체	17127
퀑	17128
Bu	17129
한결	17130
멸자	17131
열렬	17132
쿼드	17133
##피탈	17134
며느리	17135
급제	17136
하렘	17137
##밖	17138
펠트	17139
휘둘	17140
심리전	17141
IDOLM	17142
조니	17143
과하	17144
무언가	17145
카트라이더	17146
기압	17147
부녀	17148
흑룡	17149
조로	17150
명하	17151
박기	17152
레코	17153
스패	17154
숙명	17155
경전철	17156
##ien	17157
설문	17158
##ift	17159
하데스	17160
기공	17161
##소타	17162
##플러	17163
COM	17164
서울역	17165
Hea	17166
가야	17167
지갑	17168
호타	17169
무법	17170
사병	17171
이범	17172
##zy	17173
불가피	17174
제네시스	17175
모로코	17176
단연	17177
멀린	17178
전과	17179
체급	17180
절감	17181
해발	17182
they	17183
만화책	17184
##ANC	17185
기린	17186
수뇌	17187
충실히	17188
일생	17189
촛불	17190
체하	17191
케어	17192
엠파이어	17193
경희대	17194
운임	17195
몸집	17196
농어촌	17197
end	17198
분전	17199
언론사	17200
##ship	17201
머들	17202
나기사	17203
즉석	17204
냐면서	17205
하천	17206
정선	17207
부설	17208
사시	17209
병맛	17210
티탄	17211
미네소타	17212
강령	17213
간편	17214
##푼	17215
이라든가	17216
발병	17217
콘테스트	17218
##지물	17219
520	17220
회자	17221
##관계	17222
준장	17223
오반	17224
쿠미	17225
##뚤	17226
유시	17227
한중	17228
복부	17229
치프	17230
명품	17231
레베	17232
예하	17233
천리	17234
TG	17235
통근	17236
DA	17237
이장	17238
몰아치	17239
여대	17240
뛰어다니	17241
##led	17242
감시자	17243
선별	17244
##갱	17245
는데도	17246
##현동	17247
로미	17248
##부짖	17249
울부짖	17250
섭정	17251
전용기	17252
터리	17253
탤런트	17254
그토록	17255
너구리	17256
외래어	17257
보단	17258
##감치	17259
##lock	17260
##위원	17261
##찌감치	17262
행동력	17263
칼리지	17264
##ize	17265
영화관	17266
신령	17267
재빠르	17268
발자	17269
##파르	17270
##형제	17271
비둘기	17272
막스	17273
Bra	17274
톱니	17275
후하	17276
관용	17277
행각	17278
걸스	17279
##LD	17280
활기	17281
헤더	17282
시프트	17283
성검	17284
붙여지	17285
NG	17286
특색	17287
정착지	17288
들통	17289
GAM	17290
반죽	17291
역전패	17292
댈러스	17293
브룩	17294
티나	17295
다이빙	17296
반자동	17297
연장전	17298
pl	17299
멱	17300
##리온	17301
조나	17302
온전	17303
리포	17304
카르타	17305
카에데	17306
끝판	17307
익스트림	17308
나데	17309
차마	17310
폐하	17311
필기	17312
##또	17313
노마	17314
시세	17315
##법인	17316
메이크	17317
Moon	17318
서약	17319
순차	17320
음식점	17321
무패	17322
노스케	17323
장대	17324
크러	17325
솔리드	17326
Like	17327
등용	17328
세츠나	17329
WAR	17330
설립자	17331
소망	17332
##omb	17333
1907	17334
자선	17335
세속	17336
##ited	17337
헤일	17338
##뿌리	17339
Yeah	17340
맞대결	17341
Bad	17342
Project	17343
성급	17344
피버	17345
치소	17346
김택용	17347
짓밟	17348
컬럼	17349
Off	17350
세련	17351
단번에	17352
민지	17353
옥수수	17354
좌석버스	17355
##꿀	17356
캐로	17357
종속	17358
하얀색	17359
학부모	17360
위태	17361
크림슨	17362
다트	17363
뿜어내	17364
ㅏ요	17365
news	17366
##오피아	17367
피니시	17368
에티오피아	17369
트레버	17370
생포	17371
재차	17372
완패	17373
##ita	17374
1905	17375
전투원	17376
헤지	17377
붉은색	17378
##45	17379
천연가스	17380
Sky	17381
나지	17382
##준호	17383
당근	17384
##교회	17385
대지진	17386
Med	17387
나트	17388
선상	17389
산산	17390
마비노기	17391
정국	17392
태후	17393
순순	17394
교직원	17395
메츠	17396
독도	17397
패미컴	17398
토사	17399
출생지	17400
이유로	17401
다이스	17402
ᆫ대	17403
도타	17404
개드	17405
검거	17406
마르티	17407
자위	17408
스몰	17409
포진	17410
직면	17411
알비	17412
##똥	17413
구비	17414
##열차	17415
터미네이터	17416
플라잉	17417
7000	17418
부통령	17419
남아공	17420
전라도	17421
Now	17422
섹터	17423
루시퍼	17424
원나라	17425
항속	17426
##row	17427
치키	17428
##렁이	17429
Comp	17430
TF	17431
락스	17432
소주	17433
##부르	17434
##람쥐	17435
밴시	17436
성품	17437
##즐리	17438
인분	17439
신공	17440
막시	17441
유스케	17442
조개	17443
비범	17444
치과	17445
결선	17446
##고루	17447
회유	17448
케미	17449
Battle	17450
코팅	17451
##ute	17452
바실리	17453
서스펜	17454
배고	17455
칸나	17456
드미	17457
이북	17458
콜리	17459
아이오	17460
감염자	17461
수족	17462
불허	17463
검출	17464
##ALL	17465
일갈	17466
이상민	17467
팰	17468
221	17469
이탈리아어	17470
##문화재	17471
원상	17472
읊	17473
불안감	17474
브래드	17475
Way	17476
계약자	17477
이메일	17478
성유	17479
백지	17480
착취	17481
관현	17482
와타루	17483
척하	17484
##낮	17485
부상자	17486
브리핑	17487
##vent	17488
##소니	17489
미카엘	17490
JC	17491
독설	17492
응징	17493
자기장	17494
##기어	17495
##조작	17496
눈부시	17497
그지	17498
청취	17499
1300	17500
관세	17501
단간	17502
지폐	17503
우동	17504
야자	17505
돌풍	17506
사업가	17507
연대기	17508
일간	17509
희박	17510
장려	17511
밝혀	17512
종로구	17513
Soul	17514
아란	17515
모데	17516
업자	17517
경영학	17518
힘겹	17519
체구	17520
비행장	17521
우이	17522
##내셔널	17523
정부군	17524
인터내셔널	17525
정관	17526
승부조작	17527
기염	17528
##stem	17529
협공	17530
Special	17531
over	17532
팀킬	17533
빈센트	17534
노원	17535
릭스	17536
붕대	17537
알제리	17538
세비	17539
##준혁	17540
순순히	17541
파병	17542
Po	17543
TEC	17544
남짓	17545
전투복	17546
온게임	17547
온게임넷	17548
##ENT	17549
이바	17550
눈썹	17551
##장구	17552
빼놓	17553
777	17554
다발	17555
순례	17556
스켈	17557
이어폰	17558
소탕	17559
##시온	17560
번거	17561
비서관	17562
화합물	17563
흐트	17564
벤츠	17565
개관	17566
폴라	17567
디에고	17568
벌어들이	17569
FBI	17570
BASIC	17571
모치	17572
DDR	17573
톡톡	17574
신탁	17575
누락	17576
##rop	17577
사카이	17578
다듬	17579
픽처	17580
##96	17581
노보	17582
산체스	17583
휘둘리	17584
##ORM	17585
wiz	17586
~'	17587
태백	17588
순항	17589
빵빵	17590
마코	17591
TT	17592
산림	17593
솔루션	17594
니즘	17595
날아오르	17596
졸리	17597
바이올렛	17598
일직선	17599
##ling	17600
##xt	17601
브라이	17602
음란	17603
합금	17604
아틀라스	17605
##com	17606
오모	17607
프라이드	17608
네타	17609
플랑	17610
지못	17611
흉터	17612
지못미	17613
반대쪽	17614
하늘색	17615
Alb	17616
음모론	17617
타츠야	17618
미얀마	17619
경비원	17620
바깥쪽	17621
초회	17622
꼼짝	17623
매도	17624
앵글	17625
낙하산	17626
하버드	17627
파나	17628
외침	17629
......	17630
무모	17631
여느	17632
올리브	17633
송신	17634
갱단	17635
프리드	17636
크레이지	17637
성원	17638
관건	17639
##웹	17640
튀김	17641
밝혀내	17642
밸브	17643
급증	17644
얀데레	17645
good	17646
아쉬워하	17647
저력	17648
213	17649
성범죄	17650
멕	17651
##산리	17652
짤막	17653
양육	17654
티타	17655
둔화	17656
설교	17657
탈주	17658
나뭇잎	17659
Cent	17660
##촬	17661
형벌	17662
호라이	17663
##oney	17664
북동쪽	17665
카즈키	17666
무당	17667
##의지	17668
피쳐	17669
반납	17670
재주	17671
벤트	17672
덮이	17673
미코	17674
타가	17675
전위	17676
티셔츠	17677
진행하	17678
[...]
