[PAD]	0
[UNK]	0
[BOS]	0
[EOS]	0
[CLS]	0
[SEP]	0
[MASK]	0
▁ᄋ	-0
▁으	-1
▁하	-2
다	-3
▁.	-4
▁에	-5
▁ᄀ	-6
▁이	-7
ᅳᆫ	-8
는	-9
▁다	-10
▁의	-11
▁는	-12
▁ᆫ	-13
▁ᄅ	-14
▁,	-15
▁을	-16
▁어	-17
▁아	-18
▁은	-19
▁1	-20
서	-21
▁되	-22
▁이	-23
ᅳᆯ	-24
▁를	-25
▁었	-26
▁고	-27
▁년	-28
로	-29
▁으로	-30
▁에서	-31
▁2	-32
▁있	-33
▁았	-34
▁대	-35
▁로	-36
▁가	-37
▁사	-38
▁지	-39
▁그	-40
며	-41
▁일	-42
▁시	-43
▁ᄃ	-44
▁여	-45
▁ᆫ다	-46
▁들	-47
▁과	-48
▁수	-49
▁가	-50
▁기	-51
▁전	-52
지	-53
▁적	-54
▁아	-55
▁20	-56
▁와	-57
▁도	-58
▁월	-59
▁주	-60
▁제	-61
▁며	-62
▁19	-63
▁다	-64
▁ᆯ	-65
▁정	-66
▁자	-67
▁중	-68
▁위	-69
▁인	-70
▁였	-71
▁공	-72
▁보	-73
▁세	-74
▁경	-75
▁것	-76
▁지	-77
▁개	-78
▁부	-79
▁라	-80
▁기	-81
▁오	-82
▁유	-83
▁3	-84
▁"	-85
▁조	-86
▁나	-87
▁등	-88
▁게	-89
▁스	-90
▁선	-91
▁성	-92
▁미	-93
▁동	-94
▁연	-95
▁마	-96
▁상	-97
▁소	-98
▁모	-99
▁한	-100
▁고	-101
▁비	-102
▁으며	-103
▁의	-104
▁영	-105
▁구	-106
나	-107
▁국	-108
▁도	-109
고	-110
▁발	-111
▁여	-112
▁서	-113
▁201	-114
마	-115
▁'	-116
▁4	-117
▁후	-118
▁관	-119
▁명	-120
만	-121
▁신	-122
▁만	-123
▁프	-124
▁5	-125
▁면	-126
▁때	-127
▁200	-128
▁장	-129
▁더	-130
▁-	-131
▁방	-132
▁던	-133
▁바	-134
▁교	-135
▁해	-136
▁리	-137
▁문	-138
▁내	-139
▁역	-140
▁차	-141
▁ᄇ	-142
▁당	-143
터	-144
ᅮ터	-145
▁무	-146
▁우	-147
▁원	-148
▁통	-149
▁계	-150
▁현	-151
▁남	-152
▁군	-153
▁노	-154
▁포	-155
▁분	-156
▁어	-157
▁6	-158
▁또	-159
▁화	-160
▁않	-161
▁거	-162
까	-163
▁학	-164
▁생	-165
▁까	-166
▁까지	-167
▁작	-168
▁같	-169
▁결	-170
▁강	-171
▁출	-172
게	-173
▁에게	-174
▁파	-175
▁대하	-176
▁받	-177
▁진	-178
▁크	-179
▁단	-180
▁7	-181
▁번	-182
▁최	-183
▁반	-184
▁불	-185
▁10	-186
▁8	-187
▁알	-188
▁데	-189
▁위하	-190
▁호	-191
▁두	-192
▁회	-193
▁지만	-194
▁배	-195
▁안	-196
▁카	-197
▁실	-198
▁형	-199
▁초	-200
▁말	-201
▁따	-202
▁예	-203
▁재	-204
▁에	-205
▁부터	-206
▁없	-207
▁타	-208
▁로	-209
데	-210
▁사용	-211
▁9	-212
▁미국	-213
▁라고	-214
▁종	-215
▁라	-216
▁이후	-217
▁라는	-218
▁요	-219
▁함	-220
▁설	-221
▁과	-222
자	-223
▁특	-224
▁면서	-225
▁일본	-226
▁는데	-227
▁코	-228
▁산	-229
▁운	-230
▁권	-231
▁감	-232
▁독	-233
▁레	-234
▁활	-235
▁추	-236
▁행	-237
▁베	-238
▁자	-239
▁왕	-240
▁피	-241
민국	-242
▁김	-243
▁그리	-244
▁더	-245
▁음	-246
▁지역	-247
▁양	-248
▁으나	-249
▁대한	-250
▁매	-251
▁199	-252
▁다음	-253
▁민	-254
▁평	-255
▁태	-256
▁많	-257
▁ᄆ	-258
▁입	-259
▁12	-260
▁따르	-261
▁건	-262
▁참	-263
▁간	-264
▁대한민국	-265
▁18	-266
▁및	-267
▁경기	-268
▁승	-269
▁가지	-270
▁열	-271
▁다고	-272
▁목	-273
▁다른	-274
▁대학	-275
▁;	-276
▁의하	-277
리아	-278
00	-279
▁프로	-280
▁드	-281
▁총	-282
▁속	-283
▁만	-284
스트	-285
▁북	-286
▁S	-287
or	-288
▁집	-289
▁때문	-290
▁법	-291
▁11	-292
▁시작	-293
▁트	-294
▁물	-295
▁외	-296
▁체	-297
▁각	-298
▁시키	-299
▁변	-300
▁달	-301
▁천	-302
▁직	-303
▁메	-304
▁임	-305
▁표	-306
▁올	-307
▁처	-308
▁그러	-309
▁토	-310
▁사람	-311
▁본	-312
▁&	-313
▁점	-314
▁저	-315
▁쓰	-316
▁함께	-317
▁또한	-318
▁A	-319
어지	-320
▁박	-321
▁팀	-322
어나	-323
▁치	-324
▁투	-325
▁한국	-326
▁청	-327
▁선수	-328
▁아서	-329
▁항	-330
▁브	-331
▁사이	-332
▁세계	-333
▁)	-334
▁영화	-335
▁버	-336
▁자신	-337
▁새	-338
▁광	-339
▁약	-340
la	-341
▁C	-342
▁게	-343
▁M	-344
▁경우	-345
▁통하	-346
▁용	-347
▁판	-348
▁나	-349
▁디	-350
▁f	-351
▁기록	-352
▁T	-353
▁축	-354
▁F	-355
▁현재	-356
▁복	-357
▁아니	-358
▁하나	-359
▁국가	-360
▁야	-361
시아	-362
▁존	-363
▁네	-364
▁이름	-365
▁다는	-366
▁198	-367
▁편	-368
▁당시	-369
▁확	-370
▁가장	-371
▁삼	-372
▁위치	-373
▁_	-374
▁보이	-375
▁활동	-376
▁조선	-377
▁학교	-378
▁뒤	-379
▁철	-380
▁만들	-381
주의	-382
▁그러나	-383
▁리그	-384
▁필	-385
▁15	-386
▁(	-387
▁이나	-388
▁살	-389
▁금	-390
▁페	-391
▁증	-392
▁for	-393
▁합	-394
▁째	-395
▁루	-396
mu	-397
▁플	-398
▁백	-399
▁테	-400
▁심	-401
▁창	-402
▁언	-403
가	-404
▁애	-405
mula	-406
▁formula	-407
▁식	-408
▁16	-409
▁못	-410
▁대표	-411
레이	-412
▁병	-413
▁연구	-414
▁근	-415
▁또는	-416
▁프랑	-417
부터	-418
▁그리고	-419
▁/	-420
▁황	-421
▁사회	-422
▁돌	-423
▁규	-424
▁m	-425
▁0	-426
▁D	-427
▁충	-428
▁17	-429
▁시즌	-430
▁]	-431
▁패	-432
▁어서	-433
▁[	-434
▁첫	-435
야	-436
▁순	-437
▁197	-438
▁B	-439
▁완	-440
▁못하	-441
▁이루	-442
랜드	-443
▁히	-444
▁다시	-445
▁높	-446
▁중국	-447
▁협	-448
▁알리	-449
▁길	-450
▁서울	-451
▁정부	-452
▁클	-453
▁프랑스	-454
▁채	-455
▁영국	-456
▁K	-457
학교	-458
▁시대	-459
▁I	-460
▁:	-461
▁는다	-462
▁키	-463
▁도시	-464
▁k	-465
▁포함	-466
▁여러	-467
▁뜻	-468
▁196	-469
▁전쟁	-470
▁은	-471
▁14	-472
▁아이	-473
▁독일	-474
▁로서	-475
▁죽	-476
▁면	-477
er	-478
▁문화	-479
▁대회	-480
▁~	-481
▁g	-482
▁취	-483
▁13	-484
▁배우	-485
▁축구	-486
니	-487
▁모두	-488
▁허	-489
▁가능	-490
▁위원	-491
▁별	-492
▁서	-493
▁다가	-494
▁동안	-495
▁P	-496
▁뉴	-497
▁보	-498
▁모든	-499
in	-500
▁보다	-501
▁이상	-502
▁친	-503
▁손	-504
▁곡	-505
▁감독	-506
▁정치	-507
▁환	-508
▁194	-509
▁일부	-510
▁문제	-511
▁석	-512
▁방송	-513
▁l	-514
▁처음	-515
▁개발	-516
▁대학교	-517
▁L	-518
▁지방	-519
▁%	-520
▁제작	-521
▁구성	-522
▁검	-523
▁인하	-524
▁캐	-525
▁국제	-526
▁러	-527
▁농	-528
▁사건	-529
▁골	-530
▁터	-531
라이	-532
▁끝	-533
▁니	-534
▁세기	-535
▁시간	-536
▁논	-537
▁거	-538
▁이용	-539
▁씨	-540
▁일반	-541
▁부르	-542
▁존재	-543
▁향	-544
▁작품	-545
▁날	-546
▁G	-547
▁밀	-548
▁게임	-549
▁정도	-550
▁폭	-551
▁운동	-552
▁주장	-553
▁급	-554
▁역사	-555
▁나오	-556
▁gt	-557
록	-558
▁관계	-559
▁앞	-560
▁곳	-561
▁즉	-562
▁N	-563
▁ᄉ	-564
▁섬	-565
니아	-566
▁교육	-567
▁인구	-568
▁음악	-569
▁티	-570
▁효	-571
on	-572
▁195	-573
▁려	-574
▁km	-575
▁접	-576
▁거나	-577
▁중심	-578
▁나타	-579
▁이러	-580
▁lt	-581
▁육	-582
▁맡	-583
리스	-584
▁극	-585
▁U	-586
▁귀	-587
▁맞	-588
▁30	-589
▁절	-590
▁R	-591
▁쿠	-592
▁경제	-593
▁선거	-594
▁블	-595
부분	-596
통령	-597
▁민주	-598
▁발견	-599
▁전투	-600
▁담	-601
▁H	-602
▁도록	-603
▁봉	-604
▁발표	-605
화국	-606
▁갖	-607
▁측	-608
▁홍	-609
▁글	-610
▁E	-611
▁누	-612
▁기술	-613
▁막	-614
▁올림	-615
▁암	-616
▁아들	-617
이스	-618
▁책	-619
▁우승	-620
▁로부터	-621
▁공격	-622
▁엔	-623
▁2010	-624
▁들어	-625
▁대통령	-626
▁ㄴ	-627
▁대부분	-628
▁잘	-629
▁영향	-630
▁걸	-631
▁사망	-632
▁올림픽	-633
an	-634
▁결과	-635
▁케	-636
▁질	-637
▁헤	-638
▁밝	-639
▁여기	-640
▁열리	-641
000	-642
▁새롭	-643
▁슈	-644
▁불리	-645
▁송	-646
▁지원	-647
▁앨	-648
▁라이	-649
▁프로그	-650
리카	-651
▁과정	-652
▁잡	-653
▁193	-654
▁발생	-655
▁의미	-656
▁관련	-657
▁참여	-658
▁중앙	-659
▁유럽	-660
▁업	-661
▁진행	-662
▁최초	-663
▁머	-664
▁얻	-665
▁c	-666
란드	-667
▁범	-668
▁준	-669
20	-670
▁25	-671
써	-672
▁부분	-673
▁특히	-674
▁고등	-675
▁독립	-676
▁자유	-677
지만	-678
▁결정	-679
▁제국	-680
▁태어나	-681
▁구조	-682
▁세우	-683
▁다양	-684
▁설립	-685
▁팔	-686
▁당하	-687
▁ᆫ다는	-688
버지	-689
▁설치	-690
면	-691
▁속하	-692
▁상태	-693
▁W	-694
나라	-695
▁폐	-696
▁형태	-697
▁발매	-698
▁악	-699
▁초등	-700
▁탈	-701
▁벌	-702
▁탄	-703
▁온	-704
▁소속	-705
▁좌	-706
▁러시아	-707
▁2008	-708
▁사실	-709
▁하지만	-710
▁좋	-711
▁침	-712
▁이전	-713
▁그녀	-714
▁21	-715
▁일어나	-716
우스	-717
▁줄	-718
▁스타	-719
▁센	-720
▁르	-721
라	-722
▁같이	-723
▁커	-724
▁로마	-725
디오	-726
▁이것	-727
▁으로서	-728
▁여성	-729
▁폴	-730
▁생각	-731
▁인민	-732
▁나라	-733
▁주로	-734
▁프로그램	-735
▁타이	-736
▁아야	-737
▁필요	-738
▁갈	-739
▁2011	-740
▁2012	-741
▁출신	-742
▁혼	-743
▁싱	-744
▁참가	-745
▁이탈	-746
▁조직	-747
▁관리	-748
▁보내	-749
▁100	-750
▁기준	-751
▁오르	-752
▁운영	-753
▁위원회	-754
▁중요	-755
▁생산	-756
en	-757
▁2009	-758
▁윤	-759
▁여자	-760
▁계획	-761
▁2007	-762
▁기관	-763
▁2014	-764
▁t	-765
▁상대	-766
▁행정	-767
▁등장	-768
▁이르	-769
▁정보	-770
▁성공	-771
▁계속	-772
▁음반	-773
▁바이	-774
▁지나	-775
▁데이	-776
▁국민	-777
▁지정	-778
▁매우	-779
▁콘	-780
▁a	-781
▁넘	-782
▁데뷔	-783
▁밝히	-784
▁해당	-785
▁2013	-786
러	-787
▁O	-788
he	-789
▁레이	-790
도	-791
▁과학	-792
▁철도	-793
▁아버지	-794
▁고려	-795
▁칼	-796
스터	-797
▁대전	-798
▁발전	-799
▁몇	-800
▁이탈리아	-801
리즈	-802
▁주요	-803
▁자리	-804
프트	-805
▁사업	-806
▁191	-807
▁찾	-808
▁시스	-809
▁ᄎ	-810
▁묘	-811
▁와	-812
▁24	-813
▁23	-814
▁억	-815
ᅳ로	-816
ᅥ러	-817
ᅥ럼	-818
▁처럼	-819
▁차지	-820
▁방법	-821
▁지내	-822
▁000	-823
▁2015	-824
ar	-825
▁2018	-826
남도	-827
▁헌	-828
▁월드	-829
▁앨범	-830
▁얼	-831
라마	-832
▁능	-833
▁돌아	-834
▁2016	-835
레스	-836
▁최고	-837
▁쇼	-838
▁그룹	-839
▁인도	-840
▁결국	-841
▁후보	-842
▁빌	-843
▁관하	-844
▁마이	-845
르크	-846
▁출연	-847
▁아래	-848
▁시리즈	-849
▁엘	-850
▁생활	-851
▁전체	-852
이션	-853
▁J	-854
▁빠	-855
▁떨	-856
▁22	-857
es	-858
▁우리	-859
▁이루어지	-860
▁고등학교	-861
▁한편	-862
▁회사	-863
▁이유	-864
▁음	-865
▁내용	-866
▁2006	-867
▁그리스	-868
▁ᆫ다고	-869
이트	-870
▁격	-871
▁거치	-872
FA	-873
▁192	-874
▁나가	-875
비아	-876
▁풍	-877
▁층	-878
▁제공	-879
▁인간	-880
▁연합	-881
▁힘	-882
▁스페	-883
▁방식	-884
▁의원	-885
▁2017	-886
▁공식	-887
▁많이	-888
운데	-889
▁인터	-890
▁항공	-891
▁시기	-892
▁희	-893
▁역할	-894
▁잠	-895
▁컴	-896
▁몸	-897
▁군사	-898
▁가운데	-899
▁조사	-900
▁시스템	-901
▁드라마	-902
▁초기	-903
▁기업	-904
▁거의	-905
▁워	-906
▁출전	-907
▁유명	-908
▁제도	-909
▁반대	-910
▁민족	-911
▁놓	-912
▁나타나	-913
▁으로써	-914
▁류	-915
▁s	-916
▁퍼	-917
▁둘	-918
▁지구	-919
▁쓰이	-920
▁교회	-921
▁푸	-922
▁떠	-923
▁색	-924
▁수상	-925
▁가리	-926
▁대신	-927
▁텔	-928
▁유지	-929
▁평가	-930
▁달리	-931
▁표현	-932
비스	-933
▁란	-934
▁울	-935
▁으로부터	-936
▁분류	-937
▁몰	-938
▁동시	-939
▁26	-940
▁홈	-941
▁올리	-942
▁대상	-943
▁특별	-944
▁!	-945
▁현대	-946
▁녹	-947
▁기능	-948
▁규모	-949
▁언어	-950
▁이미	-951
▁모습	-952
▁공개	-953
at	-954
▁응	-955
▁마지	-956
▁프리	-957
▁노동	-958
▁야	-959
▁자연	-960
▁28	-961
▁승리	-962
▁어야	-963
▁개인	-964
야기	-965
▁졸	-966
▁각각	-967
▁들어가	-968
▁웨	-969
▁연결	-970
▁이론	-971
▁27	-972
▁전하	-973
▁인정	-974
▁뛰	-975
▁붙	-976
▁2019	-977
▁시	-978
▁진출	-979
▁단체	-980
▁지도	-981
▁브라	-982
▁임명	-983
▁마지막	-984
북도	-985
▁핵	-986
▁V	-987
▁시장	-988
▁떨어지	-989
▁2005	-990
▁상황	-991
▁목적	-992
▁2000	-993
머니	-994
▁수도	-995
▁시절	-996
▁아르	-997
▁정책	-998
▁너	-999
▁전문	-1000
▁눈	-1001
▁난	-1002
▁멀	-1003
▁메이	-1004
▁기간	-1005
▁정의	-1006
▁경상	-1007
▁직접	-1008
▁산업	-1009
▁목록	-1010
▁족	-1011
▁이야기	-1012
▁먹	-1013
▁서로	-1014
ic	-1015
al	-1016
▁압	-1017
▁계약	-1018
▁혁	-1019
▁오스트	-1020
스크	-1021
▁야구	-1022
▁추가	-1023
▁밴	-1024
▁슬	-1025
▁기원	-1026
▁으면	-1027
▁공동	-1028
BS	-1029
▁건설	-1030
▁모델	-1031
▁2004	-1032
▁콜	-1033
▁개최	-1034
니다	-1035
▁샤	-1036
▁경찰	-1037
▁FC	-1038
▁플레이	-1039
▁건물	-1040
▁공간	-1041
▁망	-1042
▁형성	-1043
▁50	-1044
▁활약	-1045
▁그것	-1046
▁자동	-1047
▁결혼	-1048
▁거리	-1049
▁부산	-1050
▁스페인	-1051
▁31	-1052
▁훈	-1053
▁변화	-1054
▁29	-1055
학자	-1056
▁노래	-1057
▁사상	-1058
▁졸업	-1059
▁교수	-1060
▁뿐	-1061
▁변경	-1062
으키	-1063
▁칸	-1064
▁니	-1065
▁국회	-1066
▁b	-1067
▁TV	-1068
▁인물	-1069
▁완전	-1070
▁나이	-1071
▁마을	-1072
is	-1073
▁다르	-1074
re	-1075
▁공화국	-1076
▁궁	-1077
it	-1078
▁텔레	-1079
▁벨	-1080
▁비롯	-1081
▁사랑	-1082
▁역시	-1083
▁190	-1084
▁낮	-1085
▁흐	-1086
▁노선	-1087
▁인민공	-1088
▁느	-1089
▁휴	-1090
▁인민공화국	-1091
비전	-1092
▁ㅏ	-1093
▁지지	-1094
▁2020	-1095
▁학생	-1096
▁실제	-1097
ou	-1098
▁맥	-1099
▁최대	-1100
▁중학교	-1101
▁보통	-1102
▁만나	-1103
▁요구	-1104
▁볼	-1105
▁따라	-1106
▁지금	-1107
▁서비스	-1108
이드	-1109
▁견	-1110
대로	-1111
▁잉	-1112
▁겠	-1113
▁싸	-1114
▁보호	-1115
▁탑	-1116
▁전국	-1117
▁일으키	-1118
프리카	-1119
▁우주	-1120
▁소설	-1121
▁의회	-1122
▁중화	-1123
▁딸	-1124
▁겸	-1125
▁없이	-1126
▁실시	-1127
▁자기	-1128
▁기본	-1129
▁판매	-1130
▁지하	-1131
▁혹	-1132
▁황제	-1133
운드	-1134
▁가수	-1135
▁비판	-1136
▁다이	-1137
역시	-1138
▁전통	-1139
▁싱글	-1140
르트	-1141
▁마	-1142
▁엄	-1143
▁차이	-1144
▁높이	-1145
▁밴드	-1146
▁떠나	-1147
▁원래	-1148
▁옥	-1149
▁기반	-1150
▁론	-1151
▁퇴	-1152
너지	-1153
▁종교	-1154
▁세력	-1155
▁어떤	-1156
▁버리	-1157
▁내리	-1158
▁2002	-1159
▁경기도	-1160
▁탐	-1161
로스	-1162
▁40	-1163
▁소련	-1164
▁이끌	-1165
▁자료	-1166
스탄	-1167
▁수행	-1168
▁환경	-1169
▁기타	-1170
▁2003	-1171
▁가리키	-1172
▁회의	-1173
▁전기	-1174
▁모양	-1175
▁풀	-1176
▁센터	-1177
▁ᄂ	-1178
▁월드컵	-1179
▁밖	-1180
▁부대	-1181
▁시설	-1182
▁운행	-1183
▁나타내	-1184
▁그래	-1185
▁특징	-1186
▁공연	-1187
▁전자	-1188
러스	-1189
▁도쿄	-1190
▁걸치	-1191
▁교황	-1192
나다	-1193
▁설명	-1194
▁뮤	-1195
▁통합	-1196
▁컵	-1197
▁기념	-1198
▁이동	-1199
▁예술	-1200
▁분야	-1201
▁기독	-1202
▁승강	-1203
▁명칭	-1204
▁작업	-1205
le	-1206
▁득	-1207
mp	-1208
▁남자	-1209
▁텔레비전	-1210
▁행동	-1211
▁도입	-1212
▁동물	-1213
▁염	-1214
▁따라서	-1215
▁연방	-1216
▁구역	-1217
▁선정	-1218
▁바로	-1219
▁군대	-1220
▁숙	-1221
들이	-1222
▁전라	-1223
▁능력	-1224
▁애니	-1225
스타	-1226
▁출시	-1227
▁가족	-1228
▁증가	-1229
▁작용	-1230
▁넓	-1231
▁할	-1232
▁확인	-1233
▁기존	-1234
▁남쪽	-1235
▁방향	-1236
▁소프트	-1237
▁행위	-1238
▁지휘	-1239
▁북쪽	-1240
▁제외	-1241
▁이때	-1242
▁문학	-1243
▁교통	-1244
▁기독교	-1245
▁차량	-1246
▁착	-1247
▁옮	-1248
▁작가	-1249
▁=	-1250
의원	-1251
▁국내	-1252
▁비슷	-1253
▁형식	-1254
▁사고	-1255
▁십	-1256
▁므로	-1257
▁강하	-1258
▁클럽	-1259
▁그렇	-1260
▁어머니	-1261
▁혁명	-1262
▁윌	-1263
▁작곡	-1264
▁도로	-1265
▁빈	-1266
▁마르	-1267
▁효과	-1268
▁지배	-1269
▁낙	-1270
▁거두	-1271
▁몽	-1272
▁왕국	-1273
▁역임	-1274
▁태양	-1275
▁과거	-1276
▁유일	-1277
▁컴퓨	-1278
▁캐나다	-1279
▁승강장	-1280
▁챔	-1281
▁FI	-1282
▁옮기	-1283
▁사무	-1284
▁열차	-1285
▁이적	-1286
▁갑	-1287
BC	-1288
▁혹은	-1289
▁협회	-1290
▁남부	-1291
리오	-1292
▁비교	-1293
▁흥	-1294
▁추정	-1295
▁생기	-1296
▁공산	-1297
▁베이	-1298
▁정당	-1299
▁솔	-1300
▁뉴욕	-1301
▁흔	-1302
▁이어지	-1303
▁담당	-1304
▁갖추	-1305
▁시민	-1306
자리	-1307
▁적용	-1308
▁이사	-1309
▁동일	-1310
▁늘	-1311
▁획	-1312
▁육군	-1313
▁주변	-1314
▁런	-1315
▁1990	-1316
▁장관	-1317
▁홀	-1318
▁인기	-1319
▁대사	-1320
▁2001	-1321
▁즈	-1322
▁챔피	-1323
▁동쪽	-1324
▁물리	-1325
▁넣	-1326
▁스포	-1327
▁스트	-1328
▁쪽	-1329
▁세포	-1330
▁X	-1331
▁곧	-1332
▁윈	-1333
▁건축	-1334
▁상당	-1335
▁예정	-1336
▁ᆫ데	-1337
▁공사	-1338
▁사단	-1339
▁성장	-1340
▁마음	-1341
▁개념	-1342
▁데이터	-1343
▁p	-1344
▁컴퓨터	-1345
▁구간	-1346
▁오늘	-1347
▁징	-1348
▁조지	-1349
▁차례	-1350
▁품	-1351
▁크기	-1352
드리	-1353
▁돈	-1354
▁에너지	-1355
▁비하	-1356
▁멤	-1357
▁맨	-1358
▁서쪽	-1359
▁189	-1360
▁버스	-1361
▁흑	-1362
▁바꾸	-1363
▁바르	-1364
▁어리	-1365
이지	-1366
▁치르	-1367
▁충청	-1368
▁액	-1369
▁록	-1370
▁자체	-1371
▁어느	-1372
▁땅	-1373
▁실패	-1374
▁칭	-1375
▁조건	-1376
▁작전	-1377
▁민주주의	-1378
▁디자	-1379
▁연기	-1380
▁잔	-1381
▁이런	-1382
▁율	-1383
▁반응	-1384
▁돌아오	-1385
▁덕	-1386
▁이어	-1387
▁선언	-1388
▁연주	-1389
▁FIFA	-1390
▁움	-1391
▁쉽	-1392
▁피해	-1393
▁부족	-1394
▁컨	-1395
▁종류	-1396
▁특정	-1397
▁d	-1398
▁연속	-1399
▁버전	-1400
▁페르	-1401
▁마다	-1402
가지	-1403
▁선택	-1404
메이션	-1405
▁익	-1406
▁국립	-1407
▁대체	-1408
▁규정	-1409
▁쌍	-1410
▁러	-1411
▁방영	-1412
카이	-1413
el	-1414
▁다루	-1415
▁해군	-1416
▁대구	-1417
거리	-1418
▁공항	-1419
▁고대	-1420
라지	-1421
▁내부	-1422
루스	-1423
▁멤버	-1424
▁체제	-1425
et	-1426
▁속도	-1427
▁결승	-1428
▁조약	-1429
버스	-1430
▁정신	-1431
▁아시아	-1432
▁북부	-1433
▁명령	-1434
▁기원전	-1435
▁수록	-1436
▁는지	-1437
▁왜	-1438
▁연대	-1439
글랜드	-1440
▁선출	-1441
▁헌법	-1442
▁인천	-1443
▁크리스	-1444
▁쥐	-1445
▁ㅓ	-1446
▁애니메이션	-1447
▁휘	-1448
▁단계	-1449
▁가치	-1450
▁옛	-1451
▁포르	-1452
▁개혁	-1453
ion	-1454
▁친구	-1455
▁최종	-1456
▁물질	-1457
▁영어	-1458
웨어	-1459
▁분석	-1460
▁자치	-1461
▁달러	-1462
▁최근	-1463
ing	-1464
▁나누	-1465
▁밤	-1466
▁설계	-1467
▁ᆫ지	-1468
▁척	-1469
트남	-1470
▁의사	-1471
▁가깝	-1472
▁강화	-1473
▁더욱	-1474
▁평균	-1475
▁출판	-1476
아가	-1477
▁비행	-1478
▁소비	-1479
시마	-1480
▁롭	-1481
▁1999	-1482
▁지명	-1483
▁체계	-1484
▁로스	-1485
▁술	-1486
널리	-1487
▁북한	-1488
▁법원	-1489
▁집단	-1490
ol	-1491
라스	-1492
▁배치	-1493
▁잉글랜드	-1494
▁머리	-1495
▁남기	-1496
▁관심	-1497
▁1998	-1498
▁표준	-1499
메리카	-1500
▁언급	-1501
▁팬	-1502
▁개월	-1503
▁Y	-1504
▁치료	-1505
▁획득	-1506
▁부문	-1507
▁씩	-1508
▁엔진	-1509
▁파이	-1510
▁cm	-1511
▁하이	-1512
21	-1513
▁현상	-1514
▁겨	-1515
▁o	-1516
▁이라	-1517
▁먼	-1518
▁헬	-1519
▁지속	-1520
▁조정	-1521
▁분리	-1522
▁부상	-1523
▁실험	-1524
▁1980	-1525
▁유사	-1526
▁맺	-1527
▁선발	-1528
▁60	-1529
▁하계	-1530
▁함수	-1531
▁파리	-1532
▁벤	-1533
▁처리	-1534
▁지니	-1535
▁스테	-1536
▁확장	-1537
▁스포츠	-1538
▁마치	-1539
▁챔피언	-1540
▁공원	-1541
스코	-1542
▁대중	-1543
▁베르	-1544
▁소유	-1545
리지	-1546
▁제품	-1547
▁35	-1548
▁마리	-1549
▁입단	-1550
▁관할	-1551
▁시도	-1552
▁빠르	-1553
▁어렵	-1554
▁통일	-1555
▁목표	-1556
▁이해	-1557
▁도움	-1558
▁자동차	-1559
▁장군	-1560
▁요소	-1561
▁공립	-1562
▁재판	-1563
▁향하	-1564
▁주도	-1565
▁정규	-1566
▁후반	-1567
디어	-1568
▁문자	-1569
▁mm	-1570
▁에스	-1571
▁점령	-1572
▁외국	-1573
▁꽃	-1574
▁고자	-1575
▁요시	-1576
▁나무	-1577
▁거주	-1578
▁구단	-1579
▁주인	-1580
▁려고	-1581
▁미치	-1582
▁편성	-1583
▁바뀌	-1584
▁기사	-1585
▁주민	-1586
▁잃	-1587
▁시험	-1588
▁원자	-1589
▁가르	-1590
▁네덜	-1591
▁네덜란드	-1592
▁스럽	-1593
▁학자	-1594
▁책임	-1595
▁행사	-1596
▁괴	-1597
▁끌	-1598
▁통신	-1599
▁안정	-1600
▁n	-1601
광역시	-1602
▁앤	-1603
▁동맹	-1604
▁사령	-1605
▁결합	-1606
▁투표	-1607
▁수준	-1608
▁혈	-1609
▁일종	-1610
▁알렉	-1611
▁웹	-1612
▁모르	-1613
▁고속	-1614
▁언론	-1615
▁깊	-1616
▁불구	-1617
▁끝나	-1618
▁잇	-1619
▁장치	-1620
▁예선	-1621
▁앙	-1622
▁불교	-1623
om	-1624
▁디자인	-1625
▁길이	-1626
▁아프리카	-1627
▁개봉	-1628
야마	-1629
▁준비	-1630
▁1997	-1631
나무	-1632
젝트	-1633
▁정하	-1634
▁베트남	-1635
▁문서	-1636
▁빛	-1637
▁본선	-1638
▁촉	-1639
▁방문	-1640
▁광주	-1641
▁칠	-1642
일랜드	-1643
▁사진	-1644
▁캠	-1645
▁신문	-1646
▁정권	-1647
▁가문	-1648
▁다니	-1649
▁유전	-1650
▁믿	-1651
▁경험	-1652
▁가정	-1653
▁정확	-1654
▁드러	-1655
▁구	-1656
▁구분	-1657
메달	-1658
st	-1659
▁성적	-1660
▁1996	-1661
▁The	-1662
▁폴란드	-1663
▁제조	-1664
▁그림	-1665
▁평화	-1666
▁1995	-1667
▁비디오	-1668
▁오늘날	-1669
▁핀	-1670
▁요리	-1671
▁원인	-1672
▁amp	-1673
▁통과	-1674
▁부인	-1675
▁용어	-1676
▁왕조	-1677
▁부여	-1678
▁다면	-1679
어	-1680
▁찬	-1681
▁아직	-1682
▁32	-1683
▁정리	-1684
▁려는	-1685
▁70	-1686
▁일제	-1687
▁ㄹ	-1688
▁추진	-1689
▁값	-1690
▁아마	-1691
▁깨	-1692
▁런던	-1693
▁프로젝트	-1694
스로	-1695
▁방어	-1696
특별	-1697
▁올라	-1698
었	-1699
▁민주당	-1700
▁병원	-1701
▁이곳	-1702
▁종합	-1703
므로	-1704
▁덴	-1705
▁신라	-1706
▁널리	-1707
▁은퇴	-1708
▁입장	-1709
▁해석	-1710
▁멸	-1711
스턴	-1712
▁프레	-1713
▁으므로	-1714
▁경쟁	-1715
▁경영	-1716
▁슈퍼	-1717
▁통치	-1718
▁발달	-1719
인트	-1720
▁끼	-1721
▁500	-1722
▁영역	-1723
▁습	-1724
▁몬	-1725
▁이듬	-1726
▁노력	-1727
▁인터넷	-1728
▁폐지	-1729
▁훈련	-1730
아들이	-1731
▁보도	-1732
▁죽이	-1733
▁파괴	-1734
▁미사	-1735
웨이	-1736
▁그런	-1737
▁제주	-1738
▁츠	-1739
▁제안	-1740
▁주제	-1741
▁총리	-1742
▁부정	-1743
▁the	-1744
▁놀	-1745
am	-1746
레일	-1747
▁회장	-1748
▁면적	-1749
▁주연	-1750
▁80	-1751
▁기여	-1752
▁미술	-1753
▁지키	-1754
▁완전히	-1755
▁모으	-1756
▁서부	-1757
▁이듬해	-1758
▁만화	-1759
▁유래	-1760
▁접하	-1761
▁번호	-1762
▁요청	-1763
리트	-1764
▁정상	-1765
▁188	-1766
▁국회의원	-1767
▁빅	-1768
▁경기장	-1769
▁도서	-1770
▁스	-1771
▁야마	-1772
▁식민	-1773
▁남성	-1774
▁자주	-1775
▁투수	-1776
▁생물	-1777
▁연맹	-1778
▁UE	-1779
라인	-1780
▁법률	-1781
▁벌이	-1782
▁경계	-1783
▁동부	-1784
▁궤	-1785
▁+	-1786
▁루	-1787
▁폰	-1788
▁1994	-1789
▁무기	-1790
il	-1791
▁1970	-1792
▁돕	-1793
▁행성	-1794
▁나뉘	-1795
▁금지	-1796
▁움직	-1797
▁수용	-1798
▁UEFA	-1799
▁인식	-1800
▁습	-1801
▁등록	-1802
▁소재	-1803
▁ᄇ니다	-1804
▁삼성	-1805
▁제한	-1806
톨릭	-1807
▁철학	-1808
▁펼	-1809
▁무대	-1810
▁연구소	-1811
▁더불	-1812
▁바탕	-1813
▁외교	-1814
▁링	-1815
▁영토	-1816
ac	-1817
▁빠지	-1818
머지	-1819
▁나머지	-1820
▁라디오	-1821
▁반면	-1822
▁접근	-1823
▁스스로	-1824
▁꼬	-1825
▁지진	-1826
▁지대	-1827
▁강원	-1828
▁노르	-1829
▁KBS	-1830
▁업무	-1831
▁발사	-1832
▁거부	-1833
▁아시	-1834
▁조각	-1835
▁박물	-1836
▁린	-1837
▁오래	-1838
▁돌아가	-1839
▁뉴스	-1840
▁뇌	-1841
▁받아들이	-1842
▁다리	-1843
▁정식	-1844
▁표기	-1845
▁마찬	-1846
▁마찬가지	-1847
▁벽	-1848
▁아일랜드	-1849
▁오스	-1850
▁결성	-1851
▁붙이	-1852
▁상호	-1853
▁은행	-1854
▁서식	-1855
▁논란	-1856
▁보수	-1857
▁필리	-1858
▁의식	-1859
▁이렇	-1860
▁굴	-1861
▁펜	-1862
▁1992	-1863
▁다수	-1864
▁이기	-1865
▁기초	-1866
▁득점	-1867
▁소리	-1868
▁짧	-1869
▁ㅕ	-1870
▁공작	-1871
▁복귀	-1872
▁45	-1873
요일	-1874
▁가톨릭	-1875
▁주의	-1876
▁박사	-1877
▁성격	-1878
▁트리	-1879
▁아카	-1880
임스	-1881
▁바다	-1882
▁임시	-1883
▁스웨	-1884
ro	-1885
▁실제로	-1886
시코	-1887
▁수학	-1888
▁패배	-1889
▁해결	-1890
▁총선	-1891
▁장애	-1892
▁그대로	-1893
▁36	-1894
▁로써	-1895
모토	-1896
▁윌리	-1897
▁of	-1898
▁검사	-1899
ed	-1900
워드	-1901
▁지도자	-1902
▁느끼	-1903
▁장소	-1904
▁초대	-1905
▁습니다	-1906
▁브라질	-1907
▁유로	-1908
▁긴	-1909
▁에이	-1910
▁강력	-1911
▁마이크	-1912
▁이스	-1913
트리	-1914
▁박물관	-1915
▁스위	-1916
▁여행	-1917
▁차원	-1918
▁제시	-1919
▁표시	-1920
▁묘사	-1921
▁여름	-1922
▁오브	-1923
▁카드	-1924
▁기구	-1925
▁화학	-1926
▁식물	-1927
▁인사	-1928
▁차트	-1929
▁단순	-1930
▁1960	-1931
▁집합	-1932
▁안전	-1933
ig	-1934
▁이외	-1935
▁계열	-1936
▁관측	-1937
▁유니	-1938
▁연극	-1939
▁권력	-1940
▁뛰어나	-1941
▁활용	-1942
▁1991	-1943
토리	-1944
▁스웨덴	-1945
▁곤	-1946
▁무역	-1947
▁싸우	-1948
▁히로	-1949
▁멕	-1950
▁오스트리아	-1951
▁꾸	-1952
▁먼저	-1953
▁지적	-1954
▁회원	-1955
▁기계	-1956
▁아무	-1957
▁디지	-1958
▁자라	-1959
▁파일	-1960
▁보다	-1961
▁개국	-1962
▁캐릭	-1963
로나	-1964
▁취하	-1965
부르크	-1966
▁아도	-1967
▁형제	-1968
▁근처	-1969
▁1993	-1970
▁33	-1971
▁반란	-1972
▁조성	-1973
레일리아	-1974
▁위험	-1975
▁중단	-1976
▁중간	-1977
▁세대	-1978
▁붕	-1979
▁소프트웨어	-1980
▁흡	-1981
▁일정	-1982
▁발행	-1983
▁도착	-1984
▁분포	-1985
▁시행	-1986
베이	-1987
배우	-1988
▁협력	-1989
▁기자	-1990
▁스코	-1991
▁스튜	-1992
▁량	-1993
트로	-1994
▁띠	-1995
특별시	-1996
버트	-1997
od	-1998
▁다만	-1999
▁사이트	-2000
▁여객	-2001
▁캐릭터	-2002
▁ᆫ가	-2003
▁죽음	-2004
▁서울특별시	-2005
▁하루	-2006
▁죄	-2007
▁단어	-2008
사카	-2009
▁들어오	-2010
▁해안	-2011
▁186	-2012
▁지하철	-2013
▁",	-2014
▁윈도	-2015
▁파견	-2016
주시	-2017
▁렌	-2018
ve	-2019
▁세상	-2020
▁연장	-2021
▁수많	-2022
워크	-2023
▁삶	-2024
니스	-2025
▁카이	-2026
▁내려	-2027
▁순위	-2028
▁혜	-2029
▁투자	-2030
▁겪	-2031
as	-2032
▁공장	-2033
▁코드	-2034
▁제기	-2035
▁태평	-2036
▁혐	-2037
▁감소	-2038
나이	-2039
▁본부	-2040
▁전시	-2041
▁뮤직	-2042
▁내각	-2043
▁다카	-2044
▁확대	-2045
▁근거	-2046
▁오스트레일리아	-2047
▁이라고	-2048
▁후기	-2049
소년	-2050
▁경상남도	-2051
▁번역	-2052
지션	-2053
▁생성	-2054
▁케이	-2055
▁옹	-2056
▁윌리엄	-2057
▁귀족	-2058
▁?	-2059
▁위기	-2060
▁듣	-2061
▁지상	-2062
▁경상북도	-2063
▁지식	-2064
▁네트	-2065
▁보유	-2066
▁달성	-2067
▁보존	-2068
▁균	-2069
▁양식	-2070
▁구하	-2071
▁유형	-2072
▁숨	-2073
무원	-2074
▁관광	-2075
▁1988	-2076
▁동생	-2077
▁상징	-2078
▁멜	-2079
▁전략	-2080
▁촬	-2081
▁유대	-2082
▁187	-2083
▁h	-2084
▁수사	-2085
▁멕시코	-2086
▁극장	-2087
▁당선	-2088
▁성립	-2089
▁유리	-2090
▁완성	-2091
▁캘	-2092
ᅮᆫ	-2093
▁촌	-2094
▁상업	-2095
▁영상	-2096
▁원소	-2097
▁대응	-2098
▁근무	-2099
▁이렇게	-2100
▁학위	-2101
▁디지털	-2102
▁님	-2103
▁짓	-2104
▁특수	-2105
▁계승	-2106
▁촬영	-2107
▁34	-2108
▁단위	-2109
티아	-2110
▁체포	-2111
▁이슬	-2112
아내	-2113
▁흐르	-2114
▁옆	-2115
▁나중	-2116
▁수비	-2117
▁권리	-2118
▁38	-2119
▁식민지	-2120
▁체결	-2121
▁몇몇	-2122
▁싶	-2123
▁코치	-2124
▁미래	-2125
▁전달	-2126
▁발매되	-2127
▁이집	-2128
가리	-2129
▁이집트	-2130
회사	-2131
▁오	-2132
▁생명	-2133
id	-2134
▁마사	-2135
▁벌어지	-2136
▁알렉산	-2137
▁듀	-2138
▁대	-2139
▁판단	-2140
▁걸리	-2141
▁낳	-2142
▁90	-2143
▁타이틀	-2144
▁맹	-2145
아시아	-2146
▁시티	-2147
▁국왕	-2148
▁아내	-2149
▁직후	-2150
▁종목	-2151
▁헨	-2152
가와	-2153
▁관찰	-2154
▁승격	-2155
▁1989	-2156
▁시청	-2157
▁크로	-2158
▁자본	-2159
▁이주	-2160
▁률	-2161
▁톤	-2162
▁측정	-2163
▁펼치	-2164
▁틀	-2165
▁주식	-2166
▁젊	-2167
▁맞추	-2168
▁미군	-2169
▁대륙	-2170
모리	-2171
▁즐	-2172
▁소수	-2173
▁전환	-2174
▁개통	-2175
▁밑	-2176
▁도서관	-2177
▁2021	-2178
▁48	-2179
▁설정	-2180
ec	-2181
▁채널	-2182
▁엘리	-2183
▁얼마	-2184
▁동계	-2185
▁세르	-2186
▁대로	-2187
us	-2188
▁라인	-2189
▁스키	-2190
▁새로	-2191
▁의견	-2192
▁',	-2193
▁특성	-2194
▁홍콩	-2195
에	-2196
▁쌓	-2197
▁정치인	-2198
▁납	-2199
NA	-2200
▁개정	-2201
▁시위	-2202
▁문화재	-2203
and	-2204
▁포르투	-2205
▁종료	-2206
▁신경	-2207
▁텍	-2208
▁지위	-2209
▁취임	-2210
▁제정	-2211
▁|	-2212
▁미사일	-2213
▁상하	-2214
▁달하	-2215
▁1950	-2216
▁기획	-2217
▁답	-2218
▁은하	-2219
▁교체	-2220
▁주어지	-2221
▁헝	-2222
▁300	-2223
▁사회주의	-2224
▁으면서	-2225
▁결승전	-2226
▁주인공	-2227
디아	-2228
▁천황	-2229
▁후쿠	-2230
▁MBC	-2231
스티	-2232
▁본관	-2233
▁예수	-2234
▁범죄	-2235
▁청년	-2236
▁빼	-2237
▁주목	-2238
▁전차	-2239
코드	-2240
▁벗	-2241
▁ᄈ	-2242
▁뿐	-2243
▁소개	-2244
▁충돌	-2245
▁출생	-2246
▁해외	-2247
ad	-2248
▁제임스	-2249
▁장기	-2250
▁았었	-2251
▁녹음	-2252
▁수정	-2253
▁셀	-2254
▁아키	-2255
▁e	-2256
▁비용	-2257
▁춘	-2258
▁계산	-2259
▁개선	-2260
교회	-2261
▁스티	-2262
▁전라남도	-2263
전히	-2264
▁본래	-2265
▁남북	-2266
▁1945	-2267
▁바이러스	-2268
▁음식	-2269
▁모이	-2270
▁즉위	-2271
▁계기	-2272
▁비밀	-2273
▁자격	-2274
리학	-2275
▁합류	-2276
▁드	-2277
▁공부	-2278
▁공급	-2279
▁소장	-2280
▁건강	-2281
▁건너	-2282
▁카운	-2283
▁이래	-2284
▁부모	-2285
ent	-2286
▁누구	-2287
▁만드	-2288
▁펠	-2289
▁원정	-2290
▁배경	-2291
▁홈런	-2292
▁물론	-2293
▁제거	-2294
▁네트워크	-2295
스카	-2296
▁체육	-2297
▁털	-2298
▁에드	-2299
▁궤도	-2300
50	-2301
▁오후	-2302
▁ㅏㅆ	-2303
▁각종	-2304
▁거대	-2305
▁인근	-2306
▁시내	-2307
▁컬	-2308
▁셰	-2309
보이	-2310
▁작성	-2311
▁자원	-2312
▁명예	-2313
▁집중	-2314
▁신학	-2315
▁가격	-2316
▁입학	-2317
▁감염	-2318
▁가입	-2319
▁공군	-2320
▁읽	-2321
▁왼	-2322
▁피아	-2323
▁객	-2324
▁베네	-2325
▁국경	-2326
▁군인	-2327
▁병력	-2328
▁전사	-2329
베르	-2330
▁천문	-2331
▁강조	-2332
▁저항	-2333
▁통제	-2334
▁성우	-2335
▁이슬람	-2336
티나	-2337
▁측면	-2338
▁울산	-2339
▁명단	-2340
▁아우	-2341
▁찰	-2342
▁농업	-2343
▁줄이	-2344
▁신호	-2345
피아	-2346
▁소송	-2347
▁포지션	-2348
▁인수	-2349
▁병사	-2350
▁만약	-2351
▁세이	-2352
▁학문	-2353
▁기후	-2354
리포	-2355
▁이번	-2356
▁나서	-2357
▁너무	-2358
▁블랙	-2359
▁실행	-2360
▁질량	-2361
▁기회	-2362
▁St	-2363
▁던	-2364
▁플로	-2365
▁피하	-2366
▁터미	-2367
▁콩	-2368
ot	-2369
▁오른	-2370
▁변호	-2371
▁태평양	-2372
▁터키	-2373
도로	-2374
▁증명	-2375
▁최소	-2376
▁약간	-2377
니어	-2378
▁겨울	-2379
▁강원도	-2380
▁광고	-2381
▁정착	-2382
▁노동자	-2383
▁엑	-2384
▁비트	-2385
동안	-2386
▁마리아	-2387
▁x	-2388
▁쉬	-2389
▁무장	-2390
▁외부	-2391
▁잎	-2392
▁해방	-2393
▁미디어	-2394
un	-2395
▁환자	-2396
▁쇠	-2397
▁몽골	-2398
▁37	-2399
▁사라지	-2400
▁바라	-2401
▁전반	-2402
▁바람	-2403
▁국방	-2404
ow	-2405
▁냉	-2406
▁편집	-2407
▁제목	-2408
▁in	-2409
▁마쓰	-2410
▁도중	-2411
▁터미널	-2412
▁ᆫ다면	-2413
▁무렵	-2414
▁표면	-2415
▁마련	-2416
▁허용	-2417
스키	-2418
▁지점	-2419
▁리	-2420
▁금융	-2421
철도	-2422
▁라운드	-2423
▁혐의	-2424
▁충분	-2425
▁재산	-2426
▁밀도	-2427
▁가스	-2428
소리	-2429
▁유도	-2430
▁1987	-2431
▁카르	-2432
▁여전히	-2433
▁빨	-2434
▁ㅕ서	-2435
▁힐	-2436
오카	-2437
▁그해	-2438
▁학년	-2439
▁루이	-2440
▁고전	-2441
▁인디	-2442
▁합병	-2443
▁가져	-2444
▁현실	-2445
▁전력	-2446
▁래	-2447
▁민간	-2448
▁뒷	-2449
▁윈도우	-2450
▁헝가리	-2451
▁숲	-2452
▁재직	-2453
▁오사카	-2454
▁충청남도	-2455
▁꼬리	-2456
▁전역	-2457
▁양성	-2458
▁재정	-2459
▁킹	-2460
▁등급	-2461
▁41	-2462
▁포르투갈	-2463
▁영화배우	-2464
▁오리	-2465
▁w	-2466
마크	-2467
▁붕괴	-2468
▁적극	-2469
▁후지	-2470
▁령	-2471
▁행하	-2472
▁계급	-2473
▁동료	-2474
▁선수단	-2475
드로	-2476
▁51	-2477
▁라이브	-2478
▁강제	-2479
▁위협	-2480
▁보고	-2481
▁공주	-2482
▁1986	-2483
▁공공	-2484
▁조치	-2485
▁엔터	-2486
▁이하	-2487
▁대대	-2488
▁근대	-2489
▁위원장	-2490
ur	-2491
▁1984	-2492
▁승인	-2493
▁온도	-2494
▁스튜디오	-2495
▁봄	-2496
▁군주	-2497
▁전선	-2498
▁캘리포	-2499
▁유엔	-2500
▁구축	-2501
▁수입	-2502
▁롤	-2503
▁이미지	-2504
▁범위	-2505
▁이제	-2506
▁점차	-2507
▁대수	-2508
▁샌	-2509
▁업체	-2510
▁논문	-2511
▁원칙	-2512
▁꿈	-2513
▁클라	-2514
▁임무	-2515
▁확보	-2516
▁둥	-2517
▁항상	-2518
▁출발	-2519
▁경력	-2520
▁거래	-2521
▁앞서	-2522
▁다섯	-2523
▁위성	-2524
러지	-2525
▁전개	-2526
▁공산당	-2527
▁회복	-2528
▁양자	-2529
▁교사	-2530
▁잭	-2531
▁채택	-2532
▁캘리포니아	-2533
▁대학원	-2534
▁고구	-2535
▁올라가	-2536
▁수단	-2537
▁성인	-2538
요	-2539
▁증거	-2540
▁공업	-2541
▁수립	-2542
마스	-2543
▁토론	-2544
▁핀란드	-2545
▁섭	-2546
▁필리핀	-2547
▁강의	-2548
▁잡지	-2549
주교	-2550
테르	-2551
▁어떻	-2552
▁첨	-2553
▁합의	-2554
▁그래서	-2555
▁아시안	-2556
▁드래	-2557
ch	-2558
▁남아	-2559
▁39	-2560
▁부근	-2561
▁얼굴	-2562
▁남편	-2563
▁만족	-2564
▁사례	-2565
▁스파	-2566
▁개편	-2567
▁400	-2568
▁의료	-2569
▁일원	-2570
▁라며	-2571
▁선생	-2572
바이	-2573
▁폭발	-2574
▁매년	-2575
▁기지	-2576
▁시인	-2577
▁앞두	-2578
▁나카	-2579
고리	-2580
▁욕	-2581
▁이승	-2582
▁이스라	-2583
▁간주	-2584
▁스위스	-2585
▁장면	-2586
▁끊	-2587
▁1985	-2588
▁대형	-2589
▁모스크	-2590
▁붉	-2591
▁장비	-2592
▁64	-2593
▁군단	-2594
▁종종	-2595
▁아름	-2596
▁토지	-2597
▁튀	-2598
로드	-2599
다리	-2600
▁불가	-2601
▁대기	-2602
▁스리	-2603
▁아주	-2604
▁둘러	-2605
데미	-2606
▁경향	-2607
▁뜨	-2608
▁규칙	-2609
ay	-2610
▁든	-2611
▁움직이	-2612
▁이스라엘	-2613
ir	-2614
▁경주	-2615
▁어린	-2616
▁기대	-2617
▁분자	-2618
▁종이	-2619
▁수원	-2620
▁ㅏ서	-2621
▁까	-2622
▁게이	-2623
키아	-2624
▁캄	-2625
▁항성	-2626
ut	-2627
▁II	-2628
▁조합	-2629
▁기억	-2630
▁확실	-2631
▁심하	-2632
▁에게서	-2633
▁낭	-2634
▁진화	-2635
▁저지	-2636
▁아랍	-2637
▁그곳	-2638
백질	-2639
▁귀국	-2640
▁해체	-2641
▁탑재	-2642
▁맛	-2643
레이드	-2644
▁향상	-2645
▁43	-2646
▁레코드	-2647
▁대장	-2648
우드	-2649
고기	-2650
어들	-2651
▁좀	-2652
um	-2653
▁장식	-2654
▁서양	-2655
▁강점	-2656
▁짐	-2657
▁아카데미	-2658
▁스피	-2659
▁br	-2660
▁평양	-2661
▁신화	-2662
▁투어	-2663
▁변하	-2664
▁클래	-2665
▁아나	-2666
▁침공	-2667
▁보장	-2668
▁아메리카	-2669
▁아름답	-2670
▁청소년	-2671
▁만큼	-2672
▁란	-2673
▁고양	-2674
▁청나라	-2675
▁융	-2676
▁불과	-2677
im	-2678
▁의학	-2679
▁42	-2680
▁폼	-2681
▁선고	-2682
▁감정	-2683
요시	-2684
▁박쥐	-2685
▁랭	-2686
오스	-2687
▁가로	-2688
▁자금	-2689
▁가사	-2690
▁사후	-2691
▁고구려	-2692
▁켄	-2693
▁성과	-2694
보드	-2695
▁새기	-2696
▁보병	-2697
▁잠시	-2698
▁남동	-2699
▁메이저	-2700
▁카운티	-2701
▁스타일	-2702
▁에피	-2703
▁카메	-2704
네스	-2705
▁독자	-2706
▁이끄	-2707
ver	-2708
▁고문	-2709
▁우선	-2710
▁소년	-2711
▁신설	-2712
라비아	-2713
▁나치	-2714
▁확정	-2715
▁55	-2716
▁단지	-2717
▁살해	-2718
▁1982	-2719
▁만주	-2720
타인	-2721
▁바	-2722
▁중화민국	-2723
▁단백질	-2724
▁우수	-2725
무르	-2726
▁숭	-2727
라노	-2728
에르	-2729
▁라틴	-2730
▁지시	-2731
▁스카	-2732
▁신앙	-2733
▁편입	-2734
▁합치	-2735
틀랜드	-2736
▁함대	-2737
▁복잡	-2738
▁스케	-2739
▁태풍	-2740
▁삭	-2741
▁나폴	-2742
▁비율	-2743
▁철도역	-2744
▁예상	-2745
▁광역시	-2746
▁차별	-2747
네시아	-2748
▁왕위	-2749
▁검찰	-2750
▁구체	-2751
▁전화	-2752
▁44	-2753
▁의장	-2754
누스	-2755
▁마크	-2756
▁1983	-2757
▁덴마크	-2758
다이	-2759
▁재단	-2760
뜨리	-2761
▁대립	-2762
▁창설	-2763
▁고향	-2764
▁세종	-2765
▁i	-2766
▁동의	-2767
▁법인	-2768
▁판결	-2769
▁LG	-2770
▁성당	-2771
▁역대	-2772
일러	-2773
▁온라인	-2774
▁공유	-2775
▁짜	-2776
▁전설	-2777
FC	-2778
트라	-2779
▁참석	-2780
▁가하	-2781
▁수출	-2782
▁듯	-2783
▁브리	-2784
▁보급	-2785
▁솔로	-2786
▁묻	-2787
▁선거구	-2788
▁반도	-2789
▁47	-2790
▁육상	-2791
라도	-2792
▁킬	-2793
▁하늘	-2794
▁둘러싸	-2795
▁냐	-2796
▁브랜드	-2797
▁삼국	-2798
뿌리	-2799
운동	-2800
싱턴	-2801
▁유학	-2802
▁고정	-2803
없이	-2804
▁무엇	-2805
▁노예	-2806
▁집행	-2807
의회	-2808
▁협상	-2809
▁핵심	-2810
이크	-2811
▁본격	-2812
▁저장	-2813
▁후손	-2814
비드	-2815
▁카를	-2816
▁애플	-2817
▁헤이	-2818
반도	-2819
오프	-2820
▁75	-2821
▁보안	-2822
▁탄생	-2823
▁초반	-2824
▁자세	-2825
하라	-2826
▁184	-2827
▁180	-2828
▁대비	-2829
▁오픈	-2830
▁강점기	-2831
▁중반	-2832
▁산맥	-2833
▁사전	-2834
▁주교	-2835
▁대항	-2836
▁Z	-2837
▁마드리	-2838
▁암살	-2839
▁이성	-2840
▁옷	-2841
▁전혀	-2842
▁회전	-2843
▁아르헨	-2844
▁사우	-2845
▁숫	-2846
원군	-2847
셔널	-2848
각형	-2849
▁연고	-2850
▁로버트	-2851
문화	-2852
▁1972	-2853
▁의무	-2854
▁플랫	-2855
▁권한	-2856
▁베이스	-2857
▁이익	-2858
▁마드리드	-2859
▁법칙	-2860
▁어린이	-2861
리스트	-2862
▁프란	-2863
▁단일	-2864
▁켈	-2865
▁공기	-2866
▁직원	-2867
▁조금	-2868
▁아르헨티나	-2869
▁인상	-2870
▁전용	-2871
▁46	-2872
소드	-2873
▁공학	-2874
▁ᄌ	-2875
바르	-2876
▁이란	-2877
▁1920	-2878
▁순서	-2879
▁말기	-2880
▁베를	-2881
▁운전	-2882
▁시각	-2883
터리	-2884
레이션	-2885
▁라면	-2886
▁요한	-2887
▁공포	-2888
▁가르치	-2889
▁사항	-2890
▁모리	-2891
▁비난	-2892
▁유적	-2893
▁잘못	-2894
▁수여	-2895
▁별도	-2896
▁중심지	-2897
▁1979	-2898
▁아스	-2899
CA	-2900
▁을	-2901
▁협정	-2902
▁보조	-2903
▁상품	-2904
▁아미	-2905
▁흔히	-2906
▁밀리	-2907
▁원주	-2908
▁스크	-2909
▁변호사	-2910
▁덮	-2911
▁창조	-2912
▁전라북도	-2913
▁워싱턴	-2914
▁효소	-2915
▁기하	-2916
▁아파	-2917
▁인권	-2918
▁글로	-2919
▁롯	-2920
▁전후	-2921
▁관료	-2922
▁kg	-2923
정부	-2924
▁CD	-2925
▁투입	-2926
▁통계	-2927
▁파크	-2928
▁작곡가	-2929
▁장착	-2930
▁방면	-2931
▁소식	-2932
퍼드	-2933
▁마시	-2934
ra	-2935
▁1930	-2936
▁넘어	-2937
▁우크	-2938
▁심각	-2939
▁현장	-2940
▁셋	-2941
▁레드	-2942
▁갈등	-2943
▁오히	-2944
▁정복	-2945
▁저서	-2946
▁항복	-2947
▁훨	-2948
▁엠	-2949
▁In	-2950
▁1981	-2951
▁금메달	-2952
▁아침	-2953
▁150	-2954
▁1973	-2955
▁하드	-2956
▁ㄴ다	-2957
▁본인	-2958
무라	-2959
▁놓이	-2960
▁중세	-2961
▁어떻게	-2962
▁듯	-2963
▁헨리	-2964
▁호텔	-2965
▁공무원	-2966
퍼스	-2967
▁출마	-2968
▁물러	-2969
▁니콜	-2970
10	-2971
사키	-2972
▁훨씬	-2973
▁공산주의	-2974
▁교류	-2975
▁벡	-2976
▁v	-2977
▁공화	-2978
▁논의	-2979
▁마이클	-2980
▁성경	-2981
▁무리	-2982
▁요새	-2983
겨나	-2984
▁건국	-2985
▁교토	-2986
▁오랜	-2987
▁노스	-2988
▁오른쪽	-2989
os	-2990
리어	-2991
▁택	-2992
▁중부	-2993
▁뿌리	-2994
▁건조	-2995
▁패하	-2996
▁유전자	-2997
▁인류	-2998
▁코미	-2999
▁김정	-3000
▁한때	-3001
▁플라	-3002
▁연합군	-3003
▁산하	-3004
▁오토	-3005
▁인정받	-3006
▁빙	-3007
▁방출	-3008
▁플레이어	-3009
▁예산	-3010
▁드러나	-3011
▁세인트	-3012
▁왼쪽	-3013
▁추측	-3014
▁형사	-3015
▁으ᄅ	-3016
▁로드	-3017
▁금속	-3018
▁서기	-3019
▁벗어나	-3020
▁창립	-3021
▁성질	-3022
30	-3023
▁주위	-3024
▁투쟁	-3025
▁찍	-3026
▁1940	-3027
▁에어	-3028
▁사태	-3029
▁베이징	-3030
▁아프	-3031
일보	-3032
▁태국	-3033
▁오전	-3034
▁원작	-3035
▁릴	-3036
▁1974	-3037
▁185	-3038
▁사령관	-3039
▁절대	-3040
▁노르웨이	-3041
BO	-3042
▁북서	-3043
▁에피소드	-3044
▁탁	-3045
▁제자	-3046
em	-3047
▁코스	-3048
▁복합	-3049
▁플레이오프	-3050
▁멸망	-3051
ter	-3052
▁군수	-3053
▁효율	-3054
▁운용	-3055
▁논쟁	-3056
▁반복	-3057
▁가져오	-3058
▁SBS	-3059
▁뽑	-3060
▁제출	-3061
▁모스크바	-3062
▁집안	-3063
▁오히려	-3064
▁스코틀랜드	-3065
▁구별	-3066
▁메시	-3067
▁정비	-3068
▁입자	-3069
카와	-3070
▁해양	-3071
▁해상	-3072
▁인공	-3073
▁합성	-3074
▁포위	-3075
▁전철	-3076
▁마침	-3077
▁1948	-3078
▁사법	-3079
▁중대	-3080
▁노부	-3081
▁숫자	-3082
▁거절	-3083
붙이	-3084
▁인종	-3085
▁미니	-3086
▁흡수	-3087
아오	-3088
▁주기	-3089
듀서	-3090
▁빌리	-3091
▁출장	-3092
▁프로듀서	-3093
▁퍼지	-3094
▁54	-3095
▁블루	-3096
▁연산	-3097
머스	-3098
▁원리	-3099
▁연관	-3100
▁인조	-3101
▁시점	-3102
▁활발	-3103
▁1968	-3104
▁댄	-3105
▁각본	-3106
▁포기	-3107
▁델	-3108
▁목사	-3109
▁1976	-3110
▁웨스트	-3111
▁인터뷰	-3112
▁수송	-3113
▁슬로	-3114
▁베를린	-3115
▁소녀	-3116
이	-3117
도르	-3118
▁신체	-3119
▁밖	-3120
▁개시	-3121
▁밖에	-3122
▁넘기	-3123
▁이민	-3124
▁경성	-3125
▁북동	-3126
▁우스	-3127
▁취급	-3128
▁주전	-3129
▁출입	-3130
▁전공	-3131
▁건립	-3132
▁즐기	-3133
▁프라	-3134
▁안타	-3135
▁1975	-3136
▁보스	-3137
▁고용	-3138
▁명성	-3139
▁던지	-3140
▁분쟁	-3141
▁읍	-3142
▁라도	-3143
▁동원	-3144
▁파라	-3145
▁실리	-3146
▁음력	-3147
▁디스	-3148
▁주택	-3149
데스	-3150
▁히데	-3151
▁사령부	-3152
▁취득	-3153
op	-3154
▁장악	-3155
▁비록	-3156
나이티	-3157
▁구속	-3158
▁축제	-3159
시스	-3160
▁트랙	-3161
▁끝내	-3162
▁진보	-3163
▁활성	-3164
▁신성	-3165
▁유나이티	-3166
▁국도	-3167
▁어도	-3168
▁농민	-3169
▁일치	-3170
▁봉하	-3171
▁영화제	-3172
▁견해	-3173
▁56	-3174
▁전부	-3175
▁보컬	-3176
▁1978	-3177
서트	-3178
▁1971	-3179
▁국장	-3180
▁총독	-3181
▁미드	-3182
▁하나님	-3183
▁불법	-3184
▁갤	-3185
라크	-3186
▁늘어나	-3187
▁고유	-3188
ag	-3189
▁부활	-3190
▁1963	-3191
▁텐	-3192
▁유물	-3193
▁더라도	-3194
▁직전	-3195
▁소스	-3196
▁52	-3197
산시	-3198
에트	-3199
▁관점	-3200
▁보험	-3201
▁북아	-3202
▁49	-3203
▁후원	-3204
▁편지	-3205
▁대리	-3206
▁폭력	-3207
▁약속	-3208
▁정체	-3209
▁도달	-3210
▁자이	-3211
키스탄	-3212
▁상당히	-3213
▁하위	-3214
▁혼란	-3215
▁65	-3216
▁누리	-3217
▁연료	-3218
▁코미디	-3219
▁주관	-3220
▁한자	-3221
▁교차	-3222
▁학습	-3223
▁항공기	-3224
비치	-3225
▁철수	-3226
▁포도	-3227
▁타이완	-3228
▁그리스도	-3229
▁시리아	-3230
▁수술	-3231
▁닌	-3232
▁직업	-3233
▁스미	-3234
▁여부	-3235
ce	-3236
▁다며	-3237
세이	-3238
▁물러나	-3239
자기	-3240
▁반영	-3241
▁1969	-3242
▁여객철도	-3243
메리	-3244
▁아테	-3245
▁임금	-3246
▁선교	-3247
▁관직	-3248
▁179	-3249
릭스	-3250
▁천체	-3251
▁Q	-3252
▁고종	-3253
▁브레	-3254
▁한국어	-3255
▁상륙	-3256
기에	-3257
▁팝	-3258
▁대화	-3259
젤레스	-3260
▁명명	-3261
▁백제	-3262
쿠라	-3263
▁수집	-3264
▁성능	-3265
▁논리	-3266
▁의존	-3267
▁장교	-3268
▁00	-3269
▁제어	-3270
리케	-3271
▁본사	-3272
▁넷	-3273
▁주간	-3274
▁미나	-3275
▁모시	-3276
▁심리	-3277
▁테러	-3278
어스	-3279
▁부임	-3280
▁데이비드	-3281
▁1946	-3282
▁교환	-3283
▁십자	-3284
▁보관	-3285
▁화물	-3286
▁백작	-3287
▁판서	-3288
▁일대	-3289
▁그런데	-3290
▁프리미	-3291
▁학술	-3292
▁영업	-3293
▁콘서트	-3294
▁톰	-3295
▁아사	-3296
▁해산	-3297
▁정지	-3298
▁좁	-3299
▁도구	-3300
▁개체	-3301
▁폴리	-3302
▁나아가	-3303
▁주식회사	-3304
공항	-3305
▁허가	-3306
▁53	-3307
▁불상	-3308
▁소방	-3309
▁스마	-3310
OS	-3311
▁전파	-3312
▁상승	-3313
▁하우스	-3314
▁반발	-3315
▁자살	-3316
▁전문가	-3317
▁거기	-3318
▁김영	-3319
▁박정	-3320
▁연재	-3321
▁프로세	-3322
▁제일	-3323
▁방사	-3324
▁영향력	-3325
▁핑	-3326
▁살인	-3327
▁진입	-3328
▁코로나	-3329
▁원하	-3330
미터	-3331
▁1964	-3332
oc	-3333
▁대략	-3334
병대	-3335
▁간단	-3336
▁정원	-3337
▁먹이	-3338
▁헤르	-3339
▁공통	-3340
▁화성	-3341
▁고리	-3342
▁드리	-3343
▁니시	-3344
▁리스	-3345
▁영입	-3346
▁충청북도	-3347
▁베스트	-3348
▁보건	-3349
▁재료	-3350
▁신분	-3351
▁미터	-3352
▁약하	-3353
▁학부	-3354
▁피아노	-3355
▁스프	-3356
▁US	-3357
▁소비에트	-3358
▁겐	-3359
▁사장	-3360
▁승진	-3361
이어	-3362
▁파트	-3363
▁항구	-3364
▁벨기에	-3365
▁가을	-3366
▁꼭	-3367
▁포트	-3368
▁외국인	-3369
▁도망	-3370
▁99	-3371
▁부장	-3372
▁학원	-3373
▁서버	-3374
▁한반도	-3375
▁발언	-3376
▁and	-3377
▁그레	-3378
▁기도	-3379
▁지붕	-3380
노스	-3381
▁국제공항	-3382
▁진압	-3383
▁58	-3384
▁1000	-3385
ri	-3386
▁누르	-3387
▁사운드	-3388
▁인도네시아	-3389
▁그치	-3390
▁학회	-3391
▁탈락	-3392
▁감사	-3393
▁질병	-3394
오르	-3395
▁탈출	-3396
▁현역	-3397
▁횡	-3398
▁다스	-3399
▁레	-3400
▁머무르	-3401
▁랜	-3402
▁구성원	-3403
▁시호	-3404
▁루이스	-3405
▁닥	-3406
▁주년	-3407
▁채용	-3408
▁쫓	-3409
▁의도	-3410
하마	-3411
▁리더	-3412
▁스토	-3413
▁아라	-3414
▁신청	-3415
▁브루	-3416
▁참전	-3417
▁통상	-3418
▁창단	-3419
▁콤	-3420
▁식품	-3421
▁공동체	-3422
▁트랜	-3423
다가	-3424
▁합격	-3425
▁픽	-3426
▁벼	-3427
▁복무	-3428
▁장수	-3429
▁PC	-3430
▁계통	-3431
천군	-3432
▁응용	-3433
▁임대	-3434
▁1977	-3435
▁모드	-3436
▁변환	-3437
▁고도	-3438
저우	-3439
아버지	-3440
▁망명	-3441
▁조작	-3442
▁위반	-3443
▁포로	-3444
▁민법	-3445
▁SK	-3446
▁요코	-3447
▁임의	-3448
▁작사	-3449
▁문헌	-3450
▁1949	-3451
▁띄	-3452
▁롯데	-3453
▁말레이	-3454
▁친일	-3455
▁화면	-3456
▁마케	-3457
▁페이	-3458
▁..	-3459
▁트라	-3460
프리	-3461
▁청구	-3462
▁부부	-3463
▁동남	-3464
성군	-3465
▁문장	-3466
▁절차	-3467
▁로스앤	-3468
▁로스앤젤레스	-3469
▁FA	-3470
▁방송국	-3471
▁라이트	-3472
igh	-3473
▁요인	-3474
▁에도	-3475
▁이치	-3476
려움	-3477
▁저작	-3478
▁분열	-3479
▁신인	-3480
▁탄소	-3481
▁예측	-3482
▁트로	-3483
▁배출	-3484
▁변형	-3485
▁학과	-3486
▁지급	-3487
▁수영	-3488
▁연출	-3489
▁1962	-3490
드시	-3491
문화재	-3492
▁88	-3493
▁선조	-3494
▁엑스	-3495
▁캠퍼스	-3496
▁상원	-3497
▁조절	-3498
▁레오	-3499
▁주둔	-3500
정식	-3501
▁수소	-3502
▁자녀	-3503
▁선전	-3504
▁시카	-3505
▁칭하	-3506
▁62	-3507
ation	-3508
▁전동	-3509
▁코파	-3510
▁이중	-3511
▁메모리	-3512
▁국무	-3513
▁1967	-3514
▁막부	-3515
▁레스	-3516
▁선보이	-3517
▁출간	-3518
▁큐	-3519
▁흉	-3520
▁광장	-3521
▁정기	-3522
▁처형	-3523
타르	-3524
▁기호	-3525
▁수리	-3526
▁이승만	-3527
▁화재	-3528
▁힘들	-3529
▁실수	-3530
▁콘스탄	-3531
크스	-3532
▁취소	-3533
▁황금	-3534
페라	-3535
로그	-3536
▁방지	-3537
▁등지	-3538
▁서원	-3539
천시	-3540
카이도	-3541
▁로켓	-3542
▁어떠	-3543
▁기법	-3544
▁생존	-3545
▁r	-3546
▁는가	-3547
▁장르	-3548
▁오스만	-3549
▁57	-3550
▁호수	-3551
▁흑인	-3552
▁남서	-3553
▁You	-3554
▁서구	-3555
▁이시	-3556
▁증상	-3557
▁왕자	-3558
▁카메라	-3559
▁동작	-3560
▁동성	-3561
▁앵	-3562
▁연안	-3563
▁현지	-3564
▁반드시	-3565
라드	-3566
▁개조	-3567
브리	-3568
▁루트	-3569
▁예비	-3570
▁히트	-3571
▁늦	-3572
▁롱	-3573
▁제대로	-3574
▁희망	-3575
▁ᄏ	-3576
아나	-3577
▁고지	-3578
▁Ch	-3579
▁좌우	-3580
▁위상	-3581
▁기체	-3582
포르	-3583
▁맞서	-3584
▁농구	-3585
▁여단	-3586
▁고치	-3587
▁전주	-3588
▁무덤	-3589
▁분명	-3590
▁톱	-3591
▁공정	-3592
▁임진	-3593
▁도전	-3594
▁맞이	-3595
▁싸움	-3596
▁크리	-3597
▁노리	-3598
▁천연	-3599
▁진주	-3600
▁일본군	-3601
▁전면	-3602
▁으려	-3603
▁181	-3604
▁파악	-3605
▁랑	-3606
▁동아	-3607
▁터널	-3608
▁압력	-3609
▁엄청	-3610
▁둘째	-3611
▁전형	-3612
▁코르	-3613
▁꺾	-3614
▁흘	-3615
▁독특	-3616
▁1966	-3617
nd	-3618
▁특이	-3619
▁해리	-3620
▁묵	-3621
▁스탠	-3622
▁목소리	-3623
▁돌리	-3624
방송	-3625
▁미국인	-3626
▁이온	-3627
▁66	-3628
라이언	-3629
▁%,	-3630
▁그레이	-3631
▁녹색	-3632
▁리처	-3633
▁매일	-3634
▁법정	-3635
▁경로	-3636
▁성향	-3637
▁물체	-3638
이치	-3639
▁글자	-3640
▁드물	-3641
▁에르	-3642
▁동기	-3643
▁독립운동	-3644
▁타임	-3645
▁1965	-3646
▁노벨	-3647
▁바둑	-3648
▁아리	-3649
▁우려	-3650
▁덧	-3651
▁인지	-3652
▁부사	-3653
▁신뢰	-3654
▁어디	-3655
▁68	-3656
▁유기	-3657
▁방정식	-3658
▁183	-3659
▁KBO	-3660
더스	-3661
▁체코	-3662
티브	-3663
베스	-3664
▁처벌	-3665
▁가시	-3666
▁지리	-3667
▁묶	-3668
▁클레	-3669
▁개신	-3670
에이	-3671
▁추구	-3672
▁알렉산드	-3673
▁방해	-3674
▁실질	-3675
▁밥	-3676
▁61	-3677
치아	-3678
▁분해	-3679
▁일찍	-3680
▁타격	-3681
ST	-3682
▁일식	-3683
▁유행	-3684
▁김일	-3685
▁퀸	-3686
▁웅	-3687
▁완료	-3688
▁찰스	-3689
▁간행	-3690
▁분할	-3691
▁풍부	-3692
다르	-3693
▁찌	-3694
▁내전	-3695
▁부진	-3696
질랜드	-3697
▁홋	-3698
▁화산	-3699
▁빼앗	-3700
▁복지	-3701
▁아동	-3702
▁사립	-3703
▁희생	-3704
▁마르크	-3705
▁아파트	-3706
▁뉴질랜드	-3707
▁범주	-3708
▁손자	-3709
▁순환	-3710
바라	-3711
▁평등	-3712
먼트	-3713
▁삽	-3714
▁나들	-3715
▁나들목	-3716
▁마침내	-3717
▁엄청나	-3718
▁대개	-3719
▁1961	-3720
▁별명	-3721
▁비평	-3722
▁플래	-3723
▁최다	-3724
▁집권	-3725
▁가까	-3726
▁오프	-3727
▁갈색	-3728
▁점점	-3729
▁800	-3730
ER	-3731
art	-3732
▁첼	-3733
▁한정	-3734
▁한계	-3735
▁흰	-3736
▁시조	-3737
▁전원	-3738
▁파르	-3739
▁곱	-3740
▁86	-3741
▁600	-3742
▁으니	-3743
▁분기	-3744
▁사냥	-3745
▁판사	-3746
▁가상	-3747
▁리가	-3748
▁대법	-3749
▁시드	-3750
ice	-3751
▁구현	-3752
▁창원	-3753
▁분위	-3754
▁120	-3755
▁의지	-3756
▁테이	-3757
▁기둥	-3758
유럽	-3759
▁근본	-3760
▁모형	-3761
▁부하	-3762
르타	-3763
▁명확	-3764
투스	-3765
▁훗	-3766
▁충격	-3767
▁바치	-3768
▁사원	-3769
▁교향	-3770
ON	-3771
▁완공	-3772
텐츠	-3773
▁IS	-3774
▁웨이	-3775
▁일본인	-3776
▁메리	-3777
▁무게	-3778
▁중기	-3779
▁사임	-3780
▁사형	-3781
▁들어서	-3782
▁벡터	-3783
▁확산	-3784
▁오페라	-3785
▁스토리	-3786
▁프린	-3787
▁출범	-3788
디션	-3789
▁날개	-3790
▁단독	-3791
▁마법	-3792
est	-3793
▁드러내	-3794
▁1919	-3795
▁대공	-3796
▁통산	-3797
은행	-3798
피스	-3799
▁호주	-3800
▁사마	-3801
틀러	-3802
▁물리학	-3803
▁상위	-3804
▁의혹	-3805
▁캔	-3806
▁렀	-3807
▁레인	-3808
▁악화	-3809
▁뚜	-3810
▁적절	-3811
세우	-3812
▁회담	-3813
ia	-3814
▁훌	-3815
▁의심	-3816
▁re	-3817
▁이자	-3818
TV	-3819
▁영웅	-3820
▁명나라	-3821
▁98	-3822
▁닛	-3823
▁모토	-3824
▁무시	-3825
▁제이	-3826
▁연구원	-3827
▁당초	-3828
▁득표	-3829
▁알파	-3830
▁조종	-3831
▁유치	-3832
▁굽	-3833
▁서명	-3834
▁가나	-3835
나가	-3836
ap	-3837
▁편찬	-3838
▁1944	-3839
▁키우	-3840
사자	-3841
▁함락	-3842
▁이닝	-3843
▁문명	-3844
▁발굴	-3845
▁추천	-3846
▁사실상	-3847
▁쏘	-3848
사스	-3849
▁인접	-3850
▁징역	-3851
ak	-3852
▁그때	-3853
▁자극	-3854
▁샘	-3855
▁광복	-3856
▁넓이	-3857
▁연간	-3858
▁포인트	-3859
▁개입	-3860
▁인증	-3861
▁포항	-3862
▁생겨나	-3863
▁모임	-3864
라이나	-3865
▁여론	-3866
▁순간	-3867
▁저술	-3868
▁접촉	-3869
▁도쿠	-3870
▁곽	-3871
▁각지	-3872
▁진정	-3873
아보	-3874
▁올해	-3875
▁사정	-3876
▁카라	-3877
▁등판	-3878
▁순수	-3879
▁느	-3880
연히	-3881
▁세르비아	-3882
▁프리미어	-3883
▁홍보	-3884
▁악기	-3885
▁동서	-3886
▁구원	-3887
▁1941	-3888
▁기리	-3889
▁고속도로	-3890
▁개막	-3891
▁63	-3892
▁독일군	-3893
▁언제	-3894
▁골든	-3895
▁오랫	-3896
우리	-3897
▁멘	-3898
▁95	-3899
▁루스	-3900
▁드라이	-3901
AR	-3902
▁기온	-3903
▁뮤지	-3904
▁탐사	-3905
▁꼽	-3906
▁기기	-3907
일리	-3908
▁태도	-3909
메이	-3910
▁학살	-3911
▁74	-3912
▁팽	-3913
▁DNA	-3914
민주	-3915
학생	-3916
▁Lo	-3917
버그	-3918
▁59	-3919
▁실현	-3920
무부	-3921
▁임기	-3922
▁공로	-3923
▁백성	-3924
▁한국인	-3925
▁바위	-3926
▁수석	-3927
▁네이	-3928
▁변수	-3929
▁시카고	-3930
믹스	-3931
▁그라	-3932
▁성분	-3933
▁경전	-3934
▁예전	-3935
▁행렬	-3936
▁락	-3937
숭이	-3938
▁공헌	-3939
▁178	-3940
▁보고서	-3941
▁앤드	-3942
▁스마트	-3943
▁줄어들	-3944
▁입법	-3945
▁아티	-3946
▁양쪽	-3947
▁오랫동안	-3948
▁추산	-3949
ct	-3950
▁심사	-3951
▁훗날	-3952
▁페르시아	-3953
▁닉	-3954
▁감시	-3955
대부	-3956
▁확률	-3957
▁뱅	-3958
▁춤	-3959
▁튜	-3960
▁균형	-3961
▁혼합	-3962
▁자전	-3963
▁방위	-3964
▁1958	-3965
▁프로그래	-3966
▁매장	-3967
▁침략	-3968
▁미쓰	-3969
▁분위기	-3970
▁왕실	-3971
▁특별시	-3972
▁에드워드	-3973
ul	-3974
러리	-3975
▁영지	-3976
▁리처드	-3977
▁IC	-3978
▁출력	-3979
▁1947	-3980
▁신부	-3981
▁82	-3982
▁피터	-3983
리히	-3984
▁160	-3985
▁승부	-3986
▁커뮤	-3987
코스	-3988
▁조별	-3989
▁대량	-3990
▁to	-3991
▁원형	-3992
▁저녁	-3993
▁개신교	-3994
▁무사	-3995
▁대선	-3996
▁타자	-3997
▁이라크	-3998
▁시사	-3999
▁멀리	-4000
▁팔리	-4001
이너	-4002
▁76	-4003
▁단편	-4004
▁1956	-4005
▁안토	-4006
ᅳᆷ	-4007
▁경남	-4008
▁다케	-4009
▁프라이	-4010
▁;/	-4011
▁72	-4012
▁줄기	-4013
▁기울	-4014
▁에서부터	-4015
▁권위	-4016
▁여왕	-4017
▁ᄁ	-4018
▁승객	-4019
▁미야	-4020
▁고르	-4021
▁그래픽	-4022
▁마무	-4023
▁흐름	-4024
▁텍사스	-4025
▁랜드	-4026
▁발발	-4027
▁제사	-4028
▁프랑크	-4029
▁재건	-4030
▁아이돌	-4031
▁SS	-4032
▁커뮤니	-4033
▁가와	-4034
▁점수	-4035
▁앉	-4036
▁확립	-4037
ie	-4038
▁안동	-4039
▁동명	-4040
▁77	-4041
▁바깥	-4042
▁복원	-4043
▁작위	-4044
▁일상	-4045
▁긍	-4046
▁석유	-4047
▁데스	-4048
▁비치	-4049
▁과학자	-4050
▁참고	-4051
▁원수	-4052
▁교구	-4053
리노	-4054
▁섞	-4055
▁비상	-4056
▁침입	-4057
▁복수	-4058
▁수익	-4059
▁테스트	-4060
▁입력	-4061
▁1939	-4062
▁잠수	-4063
▁당국	-4064
레나	-4065
▁폭탄	-4066
▁Th	-4067
▁시상	-4068
▁67	-4069
▁어깨	-4070
▁리버	-4071
메리칸	-4072
▁민중	-4073
▁겹	-4074
▁브라운	-4075
▁심지	-4076
▁신자	-4077
▁축구단	-4078
▁복음	-4079
▁도요	-4080
▁사자	-4081
▁일시	-4082
▁본질	-4083
▁포켓	-4084
레옹	-4085
▁자식	-4086
▁기소	-4087
▁타워	-4088
▁재배	-4089
ud	-4090
▁더블	-4091
▁AFC	-4092
▁계층	-4093
▁연예	-4094
▁병합	-4095
일스	-4096
▁신고	-4097
▁나폴레옹	-4098
▁그렇게	-4099
▁덜	-4100
▁한글	-4101
▁혁신	-4102
▁주최	-4103
마르	-4104
▁시마	-4105
▁가공	-4106
▁대왕	-4107
▁부지	-4108
▁끼치	-4109
▁파워	-4110
▁빌보드	-4111
▁도모	-4112
ly	-4113
og	-4114
에른	-4115
▁가량	-4116
▁다운	-4117
이센	-4118
▁정수	-4119
▁빅토	-4120
▁동양	-4121
▁85	-4122
▁지형	-4123
▁사제	-4124
▁가담	-4125
▁보물	-4126
▁대성	-4127
▁창작	-4128
th	-4129
▁공중	-4130
▁내셔널	-4131
▁거듭	-4132
▁암호	-4133
▁평안	-4134
▁1954	-4135
▁힌	-4136
▁깃	-4137
마니아	-4138
▁움직임	-4139
ist	-4140
▁폐쇄	-4141
▁네	-4142
▁노출	-4143
레인	-4144
아티아	-4145
▁크로아티아	-4146
▁가설	-4147
▁들이	-4148
▁인쇄	-4149
▁후계	-4150
▁훈장	-4151
▁급제	-4152
▁쌀	-4153
▁국기	-4154
▁산화	-4155
▁구글	-4156
▁평론	-4157
▁총회	-4158
▁고통	-4159
▁우라	-4160
ight	-4161
▁비서	-4162
왜란	-4163
▁1952	-4164
▁임진왜란	-4165
AS	-4166
아지	-4167
▁고기	-4168
▁참모	-4169
▁다소	-4170
▁력	-4171
▁가이	-4172
▁탱	-4173
▁세리	-4174
▁실력	-4175
▁채우	-4176
▁보상	-4177
▁전신	-4178
▁박정희	-4179
▁73	-4180
▁후속	-4181
▁동방	-4182
▁상관	-4183
▁보살	-4184
▁바닥	-4185
▁오가	-4186
▁아테네	-4187
느리	-4188
▁대지	-4189
▁96	-4190
▁김대	-4191
조합	-4192
▁그만	-4193
▁행복	-4194
▁도덕	-4195
▁람	-4196
▁따로	-4197
▁절반	-4198
아하	-4199
▁발음	-4200
▁국정	-4201
▁라스	-4202
▁탈퇴	-4203
▁조조	-4204
▁뮤지컬	-4205
▁우	-4206
▁스타디	-4207
▁오카	-4208
▁타운	-4209
▁비례	-4210
바로	-4211
▁81	-4212
▁인용	-4213
▁소득	-4214
▁무한	-4215
▁*	-4216
▁ᆯ지	-4217
▁Al	-4218
▁개설	-4219
필더	-4220
▁셔	-4221
▁피해자	-4222
▁미드필더	-4223
▁수도원	-4224
▁불만	-4225
▁뤼	-4226
▁뷰	-4227
▁젠	-4228
하여	-4229
▁심장	-4230
▁78	-4231
▁좋아하	-4232
▁로봇	-4233
▁장남	-4234
▁가까이	-4235
▁부담	-4236
▁청주	-4237
AT	-4238
시오	-4239
▁재학	-4240
체스터	-4241
▁살리	-4242
▁처하	-4243
▁화이트	-4244
의정	-4245
▁전투기	-4246
▁화장	-4247
▁손상	-4248
▁센트	-4249
▁전남	-4250
▁안드로	-4251
너스	-4252
▁전직	-4253
▁김성	-4254
▁이혼	-4255
▁바이에른	-4256
▁여섯	-4257
▁지향	-4258
▁는다는	-4259
▁중력	-4260
▁뮌	-4261
타이	-4262
▁아트	-4263
▁교리	-4264
▁국군	-4265
▁하인	-4266
▁포스트	-4267
▁천안	-4268
▁콘스탄티	-4269
▁주력	-4270
▁산소	-4271
▁검토	-4272
▁보르	-4273
▁작동	-4274
▁인생	-4275
▁총장	-4276
▁1959	-4277
▁202	-4278
▁붓	-4279
▁백만	-4280
▁기상	-4281
▁지사	-4282
▁NH	-4283
▁블라	-4284
▁마무리	-4285
▁결론	-4286
▁레알	-4287
▁생물학	-4288
▁177	-4289
BA	-4290
▁윗	-4291
ess	-4292
▁당나라	-4293
자치	-4294
▁관여	-4295
직자	-4296
▁빌딩	-4297
▁질환	-4298
▁와이	-4299
▁심지어	-4300
▁상실	-4301
▁사무소	-4302
인물	-4303
토스	-4304
▁Li	-4305
▁포스	-4306
▁녀	-4307
▁91	-4308
▁화합	-4309
▁황후	-4310
▁AT	-4311
▁설득	-4312
▁호소	-4313
▁71	-4314
▁아웃	-4315
▁패션	-4316
▁문신	-4317
▁메시지	-4318
▁상역	-4319
▁;,	-4320
▁피부	-4321
▁사우스	-4322
▁사유	-4323
▁선박	-4324
▁유통	-4325
가락	-4326
▁가마	-4327
▁DV	-4328
클리	-4329
▁수요	-4330
▁처분	-4331
▁개방	-4332
▁신사	-4333
▁결의	-4334
▁일컫	-4335
스트라	-4336
▁분노	-4337
세포	-4338
쿠스	-4339
▁오직	-4340
▁여야	-4341
▁골드	-4342
▁프로이센	-4343
▁가슴	-4344
▁규제	-4345
▁액션	-4346
▁승려	-4347
▁1942	-4348
▁의대	-4349
▁하원	-4350
▁약물	-4351
▁연습	-4352
▁이명	-4353
▁모터	-4354
▁햄	-4355
▁가요	-4356
▁내려오	-4357
▁넘어가	-4358
▁역학	-4359
▁혼인	-4360
▁글로벌	-4361
▁적합	-4362
▁동해	-4363
▁김일성	-4364
▁페이지	-4365
▁매체	-4366
IV	-4367
▁조카	-4368
▁선임	-4369
▁구매	-4370
▁심판	-4371
▁디스크	-4372
▁그린	-4373
▁모바	-4374
▁개성	-4375
▁위대	-4376
▁좌상	-4377
▁87	-4378
드리히	-4379
▁왕비	-4380
▁통화	-4381
▁진단	-4382
▁잭슨	-4383
미야	-4384
▁위키	-4385
ub	-4386
▁소멸	-4387
▁159	-4388
▁st	-4389
▁1943	-4390
▁지나가	-4391
▁프랭	-4392
▁1955	-4393
▁긍정	-4394
▁부산광역시	-4395
▁야스	-4396
▁억제	-4397
IA	-4398
▁발탁	-4399
▁크루	-4400
▁서식지	-4401
▁원년	-4402
▁쿠데	-4403
▁말레이시아	-4404
가니	-4405
▁홋카이도	-4406
▁일기	-4407
▁프리드리히	-4408
▁1953	-4409
▁스타디움	-4410
▁퀴	-4411
▁주석	-4412
▁진영	-4413
▁어려움	-4414
▁예방	-4415
▁음악가	-4416
▁불안	-4417
▁왕후	-4418
▁드래프트	-4419
▁톨	-4420
▁테크	-4421
히로	-4422
▁700	-4423
▁\	-4424
▁일체	-4425
▁필드	-4426
▁무료	-4427
▁사도	-4428
ab	-4429
▁1936	-4430
▁대책	-4431
▁굳	-4432
▁싱가	-4433
▁싱가포르	-4434
미르	-4435
▁84	-4436
▁나쁘	-4437
▁사격	-4438
▁사무실	-4439
▁자이언	-4440
▁힙	-4441
▁카스	-4442
▁즉시	-4443
▁AP	-4444
▁시나	-4445
▁폭격	-4446
▁유고	-4447
▁타인	-4448
▁태조	-4449
▁디아	-4450
▁일본어	-4451
▁루마니아	-4452
▁티베	-4453
▁인원	-4454
▁여우	-4455
▁쾌	-4456
▁궁전	-4457
▁쿠데타	-4458
▁천주교	-4459
▁조지아	-4460
▁유형문화재	-4461
▁세자	-4462
데이	-4463
▁리드	-4464
▁막대	-4465
▁1910	-4466
▁이와	-4467
▁상속	-4468
▁사라	-4469
▁모바일	-4470
▁기동	-4471
버리	-4472
▁김종	-4473
▁크로스	-4474
▁정차	-4475
▁창당	-4476
▁자는	-4477
▁깊이	-4478
▁연설	-4479
▁전북	-4480
▁대체로	-4481
냐	-4482
▁스티븐	-4483
주군	-4484
▁몰리	-4485
ine	-4486
▁닫	-4487
▁전동차	-4488
유산	-4489
올리	-4490
▁후쿠오카	-4491
▁ᄒ	-4492
▁Re	-4493
▁히틀러	-4494
▁97	-4495
▁구입	-4496
▁딜	-4497
▁요금	-4498
▁전당	-4499
▁학사	-4500
▁에서	-4501
▁진격	-4502
▁챔피언십	-4503
▁딘	-4504
▁개칭	-4505
달리	-4506
▁독재	-4507
ᅮ록	-4508
▁남아프리카	-4509
▁오이	-4510
▁1957	-4511
▁아메리칸	-4512
구리	-4513
란색	-4514
▁강릉	-4515
▁원주민	-4516
우치	-4517
▁검색	-4518
▁늘리	-4519
▁발명	-4520
▁자국	-4521
▁느낌	-4522
▁대우	-4523
▁조상	-4524
▁추방	-4525
▁부동	-4526
▁초점	-4527
▁알고리	-4528
구치	-4529
머리	-4530
▁본명	-4531
▁스미스	-4532
▁광범	-4533
▁필수	-4534
ew	-4535
▁콘텐츠	-4536
▁사과	-4537
베르트	-4538
▁타이거	-4539
독부	-4540
▁수호	-4541
▁휴대	-4542
▁동북	-4543
▁급격	-4544
▁생태	-4545
▁음성	-4546
▁흔하	-4547
▁담기	-4548
▁전송	-4549
▁1914	-4550
▁께	-4551
▁세트	-4552
▁기다리	-4553
▁69	-4554
▁렀다	-4555
▁테마	-4556
▁메이지	-4557
▁사기	-4558
미니	-4559
원경	-4560
▁신장	-4561
▁천만	-4562
다랗	-4563
▁빚	-4564
▁이즈	-4565
▁92	-4566
시스코	-4567
▁이마	-4568
▁덩	-4569
▁수업	-4570
▁핫	-4571
▁주소	-4572
▁인디언	-4573
▁알고리즘	-4574
ue	-4575
▁끌어	-4576
▁알바	-4577
▁업적	-4578
▁포켓몬	-4579
▁="	-4580
▁연락	-4581
▁미리	-4582
▁잡히	-4583
▁신도	-4584
▁완벽	-4585
▁똑	-4586
▁게다가	-4587
▁랑	-4588
▁이내	-4589
▁불가리아	-4590
▁토론토	-4591
▁도마	-4592
▁최우	-4593
▁후임	-4594
▁1900	-4595
▁세부	-4596
▁전술	-4597
▁클로	-4598
▁코리아	-4599
▁1938	-4600
▁림	-4601
▁상인	-4602
▁섹	-4603
▁닥터	-4604
▁서술	-4605
▁스프링	-4606
래프트	-4607
▁유효	-4608
▁려면	-4609
▁펑	-4610
▁스탈	-4611
지사	-4612
▁부위	-4613
▁화려	-4614
▁고급	-4615
▁미술관	-4616
▁다스리	-4617
EC	-4618
▁물건	-4619
▁라이프	-4620
▁고시	-4621
▁석사	-4622
▁숨기	-4623
▁재즈	-4624
▁노트	-4625
다니	-4626
▁배포	-4627
▁언덕	-4628
▁주니어	-4629
▁질문	-4630
▁101	-4631
▁바르셀	-4632
▁소비자	-4633
▁암컷	-4634
▁바르셀로나	-4635
자키	-4636
▁오키	-4637
비히	-4638
▁연평	-4639
▁각국	-4640
총리	-4641
▁늑	-4642
▁안드	-4643
▁영양	-4644
▁마르크스	-4645
▁1918	-4646
▁듯이	-4647
▁01	-4648
▁HD	-4649
로지	-4650
▁해발	-4651
▁립	-4652
▁라틴어	-4653
▁션	-4654
리그	-4655
▁개량	-4656
▁윙	-4657
▁소형	-4658
▁내놓	-4659
산화	-4660
▁손실	-4661
▁고위	-4662
▁느냐	-4663
▁랩	-4664
▁실천	-4665
▁마스터	-4666
▁선형	-4667
▁백인	-4668
▁일련	-4669
▁갑자기	-4670
▁사퇴	-4671
여금	-4672
▁언스	-4673
▁DVD	-4674
▁등장인물	-4675
▁집회	-4676
총독부	-4677
▁조선총독부	-4678
▁유산	-4679
▁풋	-4680
▁웰	-4681
▁상주	-4682
▁1951	-4683
▁저자	-4684
▁경비	-4685
▁화석	-4686
제국	-4687
▁프랑스군	-4688
▁1932	-4689
▁시내버스	-4690
▁감각	-4691
▁게르	-4692
▁추기	-4693
▁반사	-4694
▁운항	-4695
▁주체	-4696
▁계곡	-4697
BM	-4698
▁국적	-4699
▁메달	-4700
▁미스	-4701
▁영주	-4702
▁알레	-4703
▁개별	-4704
▁on	-4705
▁격파	-4706
▁1937	-4707
▁블록	-4708
▁용인	-4709
▁{	-4710
▁정교회	-4711
▁선포	-4712
▁의문	-4713
▁차단	-4714
무늬	-4715
▁말리	-4716
▁짝	-4717
▁거짓	-4718
▁번지	-4719
▁미시	-4720
▁자본주의	-4721
▁고객	-4722
▁만든	-4723
▁대만	-4724
▁진학	-4725
▁마틴	-4726
민주당	-4727
▁상수	-4728
필드	-4729
▁올스타	-4730
▁부친	-4731
▁89	-4732
▁엘리자	-4733
가시	-4734
펙트	-4735
▁이웃	-4736
▁흰색	-4737
▁설치류	-4738
▁화제	-4739
▁넥	-4740
▁당원	-4741
▁첩	-4742
▁광범위	-4743
▁둥글	-4744
▁재개	-4745
▁사양	-4746
▁방언	-4747
▁실업	-4748
바키아	-4749
▁곤	-4750
▁찬성	-4751
▁타율	-4752
▁후계자	-4753
▁182	-4754
▁1935	-4755
▁환승	-4756
▁비스	-4757
▁칭호	-4758
▁항의	-4759
ect	-4760
▁되돌	-4761
▁우크라	-4762
▁93	-4763
▁수치	-4764
▁비행기	-4765
수록	-4766
▁트레이드	-4767
▁기부	-4768
▁분교	-4769
▁크라	-4770
▁퀘	-4771
▁이스트	-4772
▁구상	-4773
▁뮌헨	-4774
▁데리	-4775
▁꾸준	-4776
동생	-4777
▁시트	-4778
▁탄압	-4779
▁Be	-4780
▁로렌	-4781
▁추기경	-4782
▁사찰	-4783
▁베리	-4784
▁경제학	-4785
▁허락	-4786
▁커버	-4787
▁중추	-4788
▁파티	-4789
▁항공사	-4790
브라	-4791
사전	-4792
▁수백	-4793
▁질서	-4794
▁고양이	-4795
▁싱어	-4796
▁증언	-4797
▁최후	-4798
▁어요	-4799
▁구멍	-4800
▁발간	-4801
▁체험	-4802
▁면역	-4803
▁촉진	-4804
▁자산	-4805
▁웃	-4806
▁반지	-4807
▁분화	-4808
▁겉	-4809
▁화폐	-4810
▁극단	-4811
다수	-4812
▁남녀	-4813
▁회로	-4814
▁성남	-4815
▁클리	-4816
▁덧붙이	-4817
▁이념	-4818
▁곡선	-4819
▁마주	-4820
▁아티스트	-4821
▁목성	-4822
▁법학	-4823
▁내세우	-4824
센트	-4825
▁소문	-4826
▁양산	-4827
▁공신	-4828
▁소화	-4829
▁마루	-4830
▁쿨	-4831
▁습격	-4832
▁푸르	-4833
▁영원	-4834
▁소위	-4835
▁클래식	-4836
▁가속	-4837
슈타인	-4838
런스	-4839
저스	-4840
▁개척	-4841
리우스	-4842
ore	-4843
▁보편	-4844
▁대법원	-4845
▁시모	-4846
▁94	-4847
▁강남	-4848
▁축소	-4849
▁약화	-4850
▁OS	-4851
▁1933	-4852
▁잠수함	-4853
▁소집	-4854
▁탕	-4855
▁물고기	-4856
▁FM	-4857
▁운송	-4858
▁조	-4859
▁탄핵	-4860
our	-4861
▁티베트	-4862
▁수십	-4863
▁유배	-4864
▁툴	-4865
▁쿼	-4866
▁충분히	-4867
▁펴	-4868
▁선호	-4869
차	-4870
리나	-4871
▁조차	-4872
IN	-4873
▁지수	-4874
▁하여금	-4875
▁그리하여	-4876
▁핸	-4877
▁매치	-4878
▁1928	-4879
른바	-4880
▁군부	-4881
▁아오	-4882
▁혼자	-4883
▁동화	-4884
▁원시	-4885
▁CP	-4886
▁영구	-4887
돼지	-4888
려가	-4889
▁무너지	-4890
▁전적	-4891
▁조항	-4892
▁주일	-4893
▁지불	-4894
▁태종	-4895
▁이른바	-4896
도사	-4897
▁당신	-4898
▁대로	-4899
▁경사	-4900
▁어둡	-4901
▁직무	-4902
▁동경	-4903
▁지나치	-4904
▁누스	-4905
▁걷	-4906
▁팩	-4907
▁국토	-4908
▁뼈	-4909
▁세월	-4910
▁칠레	-4911
▁1924	-4912
ell	-4913
공사	-4914
▁시신	-4915
▁프랑스어	-4916
▁콜로	-4917
▁료	-4918
▁멈	-4919
▁용도	-4920
▁틈	-4921
▁이행	-4922
▁간부	-4923
▁정통	-4924
프레	-4925
▁발레	-4926
▁하	-4927
▁개명	-4928
▁재능	-4929
▁전망	-4930
▁상대식	-4931
▁댄스	-4932
▁79	-4933
▁익스	-4934
▁정면	-4935
▁조기	-4936
▁토대	-4937
▁사막	-4938
▁토마스	-4939
벤트	-4940
들리	-4941
▁메트로	-4942
▁반하	-4943
▁펀	-4944
▁09	-4945
▁김해	-4946
닉스	-4947
▁손해	-4948
▁110	-4949
▁의정부	-4950
▁형상	-4951
▁실내	-4952
▁입대	-4953
▁이재	-4954
▁종사	-4955
▁따오	-4956
▁브로	-4957
▁콜롬	-4958
사이	-4959
▁프로그래밍	-4960
▁개장	-4961
▁회색	-4962
▁가난	-4963
▁단순히	-4964
▁대칭	-4965
슬링	-4966
티스	-4967
▁170	-4968
▁진실	-4969
▁러브	-4970
▁쟁	-4971
end	-4972
▁04	-4973
▁수컷	-4974
▁액체	-4975
▁파키스탄	-4976
▁구름	-4977
▁지중	-4978
▁동굴	-4979
▁판정	-4980
▁합동	-4981
▁열매	-4982
▁오버	-4983
▁존스	-4984
▁초상	-4985
▁ㅓㅆ	-4986
▁무력	-4987
▁토착	-4988
과이	-4989
▁자랑	-4990
▁해제	-4991
▁사이드	-4992
어도	-4993
코프	-4994
큼	-4995
▁양국	-4996
▁무용	-4997
▁베네치아	-4998
ain	-4999
▁부리	-5000
▁유아	-5001
▁하와	-5002
ill	-5003
▁안토니	-5004
▁경고	-5005
▁법안	-5006
▁엄격	-5007
▁전제	-5008
▁뻗	-5009
▁고교	-5010
▁당대	-5011
▁총재	-5012
▁흔적	-5013
▁로즈	-5014
▁자르	-5015
베리아	-5016
ID	-5017
▁원자력	-5018
테스	-5019
▁안티	-5020
▁플로리	-5021
사르	-5022
▁08	-5023
▁틴	-5024
▁대승	-5025
▁재생	-5026
ers	-5027
▁룸	-5028
▁멀티	-5029
▁분산	-5030
▁일단	-5031
▁주문	-5032
▁인민군	-5033
▁불러	-5034
▁세로	-5035
▁퓨	-5036
▁Co	-5037
▁정류	-5038
▁힙합	-5039
▁부속	-5040
▁오케	-5041
▁경북	-5042
▁개찰	-5043
▁스카이	-5044
▁강도	-5045
▁스톤	-5046
▁늑대	-5047
▁서방	-5048
▁우에	-5049
▁장로	-5050
▁주재	-5051
▁대가	-5052
▁부서	-5053
▁비잔	-5054
▁프로토	-5055
▁다큐	-5056
▁오류	-5057
▁83	-5058
▁안쪽	-5059
▁한성	-5060
▁맡기	-5061
▁배열	-5062
▁쌓이	-5063
▁국방부	-5064
데르	-5065
▁레닌	-5066
▁지표	-5067
페이스	-5068
▁페리	-5069
▁동지	-5070
▁벼슬	-5071
▁MS	-5072
▁만큼	-5073
ard	-5074
▁호흡	-5075
▁함경	-5076
▁강요	-5077
▁찾아가	-5078
▁마감	-5079
▁메탈	-5080
▁스크린	-5081
▁중동	-5082
▁혈액	-5083
▁경찰서	-5084
▁추적	-5085
▁평면	-5086
▁할아버지	-5087
▁편의	-5088
▁선로	-5089
▁탓	-5090
▁주자	-5091
▁포드	-5092
▁거스	-5093
▁이벤트	-5094
▁중지	-5095
고속	-5096
야스	-5097
▁메르	-5098
▁성서	-5099
▁대사관	-5100
조선	-5101
▁느리	-5102
▁대원	-5103
▁기에	-5104
키퍼	-5105
▁농장	-5106
▁쿠바	-5107
AN	-5108
어로	-5109
▁철거	-5110
▁링	-5111
▁1934	-5112
▁골키퍼	-5113
▁아프가니	-5114
워하	-5115
▁북미	-5116
▁자매	-5117
▁투스	-5118
▁De	-5119
세대	-5120
▁입구	-5121
▁빵	-5122
▁스케이	-5123
▁요코하마	-5124
▁가볍	-5125
▁구사	-5126
▁멈추	-5127
베르크	-5128
▁놀이	-5129
▁스탈린	-5130
▁보스턴	-5131
▁닐	-5132
▁근육	-5133
▁판타	-5134
유키	-5135
▁동구	-5136
▁거느리	-5137
▁노동당	-5138
▁히어로	-5139
▁본토	-5140
▁봉기	-5141
▁장례	-5142
▁정확히	-5143
▁떼	-5144
▁밸	-5145
▁광산	-5146
레오	-5147
▁130	-5148
▁페이스	-5149
▁현존	-5150
공업	-5151
드라	-5152
성기	-5153
▁Me	-5154
▁야당	-5155
▁풍속	-5156
▁식량	-5157
▁정조	-5158
▁나이트	-5159
아르	-5160
▁토머스	-5161
▁대동	-5162
▁철학자	-5163
▁거점	-5164
제르	-5165
▁유키	-5166
▁동메달	-5167
▁사망자	-5168
▁뱀	-5169
즈니	-5170
▁항해	-5171
▁젤	-5172
▁글리	-5173
ne	-5174
▁선물	-5175
▁은메달	-5176
▁내려가	-5177
▁카리	-5178
▁코어	-5179
▁접속	-5180
▁140	-5181
▁관계자	-5182
▁도쿠가와	-5183
▁시계	-5184
▁대다수	-5185
▁맨체스터	-5186
▁남극	-5187
므로	-5188
▁부처	-5189
▁중계	-5190
보내	-5191
하이	-5192
▁아프가니스탄	-5193
▁사카	-5194
▁필립	-5195
▁초청	-5196
▁돔	-5197
▁레지	-5198
▁새끼	-5199
▁모자	-5200
▁알렉산더	-5201
▁복사	-5202
▁Sh	-5203
▁김구	-5204
▁발전소	-5205
▁테르	-5206
▁재판소	-5207
레아	-5208
▁중성	-5209
▁특별히	-5210
▁역전	-5211
▁칼리지	-5212
위대	-5213
▁훼	-5214
▁안내	-5215
▁건너가	-5216
▁교향곡	-5217
▁독점	-5218
▁그러므로	-5219
돌프	-5220
▁농촌	-5221
▁매주	-5222
▁겸하	-5223
▁증권	-5224
안군	-5225
▁새벽	-5226
▁화합물	-5227
▁커다랗	-5228
▁곤충	-5229
▁세금	-5230
▁위안	-5231
▁토너	-5232
▁유력	-5233
▁휘하	-5234
▁르네	-5235
▁합리	-5236
OR	-5237
▁구로	-5238
▁th	-5239
▁로맨	-5240
크래프트	-5241
▁1931	-5242
▁오염	-5243
베리	-5244
▁이정	-5245
▁재임	-5246
▁문재	-5247
▁파울	-5248
▁부호	-5249
▁생애	-5250
▁체육관	-5251
▁구리	-5252
▁비중	-5253
▁물리치	-5254
▁모노	-5255
▁타점	-5256
▁달라지	-5257
▁강등	-5258
▁일곱	-5259
레이크	-5260
▁히로시마	-5261
▁간격	-5262
▁부드	-5263
▁진동	-5264
▁종전	-5265
▁코너	-5266
▁훌륭	-5267
▁관객	-5268
▁석방	-5269
▁아비	-5270
▁펄	-5271
▁기병	-5272
▁존슨	-5273
▁폭풍	-5274
▁그리스어	-5275
▁계수	-5276
▁뚜렷	-5277
▁박근	-5278
▁타카	-5279
▁대변	-5280
▁클래스	-5281
▁부품	-5282
▁감옥	-5283
▁금강	-5284
▁찾아오	-5285
▁멸종	-5286
▁명시	-5287
▁미카	-5288
▁목포	-5289
▁도망치	-5290
▁기르	-5291
▁원조	-5292
밀리	-5293
▁두	-5294
느님	-5295
all	-5296
▁ST	-5297
▁후퇴	-5298
▁하사	-5299
▁하느님	-5300
▁자유주의	-5301
게이	-5302
▁cod	-5303
AM	-5304
▁대결	-5305
▁타원	-5306
▁심리학	-5307
▁1921	-5308
▁무늬	-5309
▁장점	-5310
▁꾼	-5311
▁해협	-5312
나르	-5313
▁버지	-5314
▁An	-5315
▁교도	-5316
▁좌파	-5317
▁176	-5318
▁250	-5319
▁가구	-5320
▁숙종	-5321
▁윤리	-5322
▁킬로	-5323
▁아이스	-5324
▁캠프	-5325
▁지휘관	-5326
▁그래프	-5327
▁수비수	-5328
▁공룡	-5329
▁기생	-5330
▁유발	-5331
▁지칭	-5332
▁올라오	-5333
널드	-5334
ang	-5335
▁마그	-5336
▁목숨	-5337
▁동성애	-5338
▁스트라이	-5339
▁토너먼트	-5340
▁덕분	-5341
▁유대인	-5342
▁일환	-5343
▁부드럽	-5344
▁코트	-5345
▁필라	-5346
▁하버	-5347
시스트	-5348
둥이	-5349
▁착용	-5350
▁첫째	-5351
▁1929	-5352
▁닮	-5353
▁연호	-5354
▁성명	-5355
▁소요	-5356
▁비틀	-5357
▁김대중	-5358
▁트랜스	-5359
▁빗	-5360
▁공세	-5361
▁단장	-5362
▁칙	-5363
▁강전	-5364
▁무겁	-5365
▁극복	-5366
▁조문	-5367
▁특허	-5368
▁수반	-5369
▁집필	-5370
수량	-5371
▁비즈	-5372
▁아틀	-5373
▁약탈	-5374
▁마라	-5375
▁캡	-5376
▁05	-5377
▁사관	-5378
▁운동가	-5379
▁스테이션	-5380
▁자이언츠	-5381
▁키스	-5382
▁쯤	-5383
▁살아	-5384
▁도메	-5385
▁는다고	-5386
▁기갑	-5387
▁부작	-5388
▁y	-5389
▁연상	-5390
▁동반	-5391
▁1923	-5392
▁평론가	-5393
▁조화	-5394
▁1925	-5395
▁다다	-5396
▁라트	-5397
▁공국	-5398
산물	-5399
▁매니	-5400
투아	-5401
▁갤럭	-5402
▁의석	-5403
▁첸	-5404
슬리	-5405
▁잠재	-5406
▁롬	-5407
▁인터페이스	-5408
▁며	-5409
미아	-5410
▁성직자	-5411
▁건담	-5412
▁삼각	-5413
▁연평균	-5414
▁북아메리카	-5415
▁램	-5416
ss	-5417
▁입사	-5418
▁협약	-5419
▁고고	-5420
▁가끔	-5421
▁섬유	-5422
▁도호	-5423
▁지부	-5424
▁과일	-5425
▁요원	-5426
▁딱	-5427
▁플로리다	-5428
마이	-5429
▁발휘	-5430
무게	-5431
클린	-5432
▁몸무게	-5433
▁갤럭시	-5434
▁장갑	-5435
▁추대	-5436
▁원장	-5437
▁틱	-5438
▁근로	-5439
▁불화	-5440
▁연계	-5441
▁쿠	-5442
▁영감	-5443
▁임신	-5444
타카	-5445
▁요	-5446
▁관리자	-5447
▁07	-5448
▁AC	-5449
▁발렌	-5450
▁지역구	-5451
▁샤를	-5452
▁압축	-5453
▁얀	-5454
▁이수	-5455
▁중립	-5456
▁타입	-5457
▁북서쪽	-5458
▁영혼	-5459
▁우드	-5460
▁추락	-5461
▁선교사	-5462
▁웨일스	-5463
▁대한제국	-5464
▁시게	-5465
▁살아남	-5466
ity	-5467
▁트레이	-5468
대문	-5469
▁똑같	-5470
▁모험	-5471
▁카페	-5472
▁슈	-5473
추어	-5474
카스	-5475
베이스	-5476
▁갱	-5477
▁고분	-5478
▁유성	-5479
▁진술	-5480
▁남아메리카	-5481
▁사당	-5482
▁영광	-5483
▁단선	-5484
▁삭제	-5485
▁일자	-5486
▁박근혜	-5487
▁유비	-5488
시	-5489
키스	-5490
▁이조	-5491
▁박스	-5492
▁망원경	-5493
▁하와이	-5494
▁캘리포니아주	-5495
▁수직	-5496
▁레벨	-5497
▁페루	-5498
▁161	-5499
▁리스트	-5500
▁채권	-5501
▁북극	-5502
▁미분	-5503
▁진흥	-5504
▁필름	-5505
▁서인	-5506
▁압도	-5507
▁꼽히	-5508
▁주사	-5509
▁결심	-5510
▁모로	-5511
▁제약	-5512
▁종로	-5513
▁다이묘	-5514
▁동인	-5515
▁기관차	-5516
▁돌파	-5517
▁철저	-5518
▁SC	-5519
▁그랜드	-5520
▁사거리	-5521
▁민속	-5522
▁준우	-5523
▁변신	-5524
▁곰	-5525
▁부탁	-5526
▁향토	-5527
ff	-5528
▁홀로	-5529
▁설비	-5530
▁유가	-5531
▁주류	-5532
▁카자	-5533
▁EP	-5534
▁복구	-5535
▁빅토리아	-5536
▁청동	-5537
▁교과	-5538
▁트럼	-5539
▁파운드	-5540
부사	-5541
▁WW	-5542
▁때로	-5543
▁성씨	-5544
▁피트	-5545
▁도마뱀	-5546
▁175	-5547
▁중시	-5548
▁프로세서	-5549
▁1922	-5550
▁바오	-5551
▁codice	-5552
▁모음	-5553
▁부유	-5554
▁칼리	-5555
▁무릎	-5556
▁삼각형	-5557
▁각자	-5558
▁수장	-5559
▁청하	-5560
▁이란	-5561
▁엽	-5562
행성	-5563
▁문인	-5564
▁레이블	-5565
즈키	-5566
▁여인	-5567
▁틸	-5568
▁둔	-5569
▁없애	-5570
▁이날	-5571
▁부수	-5572
▁평생	-5573
▁화가	-5574
▁프레임	-5575
▁de	-5576
▁명사	-5577
▁서적	-5578
애나	-5579
▁My	-5580
일본	-5581
▁중구	-5582
저	-5583
▁아기	-5584
▁엘리자베스	-5585
▁모래	-5586
▁인천광역시	-5587
태우	-5588
▁윤치	-5589
▁규슈	-5590
▁음모	-5591
▁버지니아	-5592
▁투구	-5593
▁공격수	-5594
오리	-5595
▁유역	-5596
▁지연	-5597
▁루트비히	-5598
▁고안	-5599
▁1912	-5600
▁가톨릭교회	-5601
▁토벌	-5602
▁황태	-5603
▁유용	-5604
▁직위	-5605
▁리치	-5606
프란	-5607
▁직선	-5608
▁파트너	-5609
▁최상	-5610
▁표지	-5611
▁도어	-5612
▁KT	-5613
▁노무	-5614
▁아과	-5615
▁국민당	-5616
▁Love	-5617
▁왕가	-5618
메니아	-5619
▁교차로	-5620
니즘	-5621
▁무산	-5622
▁164	-5623
▁자치구	-5624
양군	-5625
▁무인	-5626
▁어워드	-5627
▁네이션	-5628
▁크레	-5629
▁구미	-5630
▁수상자	-5631
▁인력	-5632
눅스	-5633
▁간섭	-5634
▁글씨	-5635
▁봉사	-5636
▁문법	-5637
▁Go	-5638
▁벨라	-5639
▁사토	-5640
▁왈	-5641
ong	-5642
▁베토	-5643
▁영조	-5644
▁납치	-5645
▁포유	-5646
▁동일본	-5647
▁패턴	-5648
▁퍼시	-5649
▁""	-5650
▁상처	-5651
▁리눅스	-5652
▁소설가	-5653
타운	-5654
▁아르메니아	-5655
▁침해	-5656
▁블라디	-5657
▁1908	-5658
▁SM	-5659
▁모니	-5660
멘트	-5661
▁노비	-5662
▁MV	-5663
▁장사	-5664
▁릭	-5665
라이터	-5666
▁아마추어	-5667
▁지중해	-5668
▁랭킹	-5669
▁목조	-5670
▁경유	-5671
▁자책	-5672
▁1906	-5673
▁사촌	-5674
▁실점	-5675
▁호조	-5676
▁연령	-5677
▁보통학교	-5678
야수	-5679
▁건축물	-5680
▁06	-5681
▁연소	-5682
▁이종	-5683
▁스케이팅	-5684
up	-5685
▁돼지	-5686
▁제주도	-5687
▁교역	-5688
▁베타	-5689
▁전향	-5690
▁태자	-5691
보살	-5692
▁토르	-5693
▁마카	-5694
멘터리	-5695
▁남동쪽	-5696
▁1917	-5697
사관	-5698
슬로	-5699
아리	-5700
▁과도	-5701
▁배상	-5702
▁플레	-5703
도니아	-5704
▁준우승	-5705
ip	-5706
▁매각	-5707
▁수지	-5708
▁히가시	-5709
▁삽입	-5710
▁적응	-5711
▁정자	-5712
▁1927	-5713
마치	-5714
▁커피	-5715
▁크림	-5716
▁적어도	-5717
▁육성	-5718
▁다양체	-5719
▁에스파	-5720
▁싫	-5721
▁JR	-5722
▁조명	-5723
▁시상식	-5724
ant	-5725
▁안양	-5726
ld	-5727
▁전승	-5728
▁통로	-5729
▁리아	-5730
▁북동쪽	-5731
IS	-5732
▁출현	-5733
▁03	-5734
▁명문	-5735
스팅	-5736
▁우익	-5737
▁옵	-5738
▁앨런	-5739
ED	-5740
▁쇠퇴	-5741
▁이토	-5742
▁모듈	-5743
▁시집	-5744
▁1907	-5745
▁시아	-5746
▁굿	-5747
▁스와	-5748
▁몬테	-5749
▁유인	-5750
▁과장	-5751
OM	-5752
▁렉	-5753
▁배급	-5754
▁정서	-5755
▁대행	-5756
▁커지	-5757
▁탐험	-5758
▁전작	-5759
▁보좌	-5760
▁외계	-5761
▁BBC	-5762
영상	-5763
▁라우	-5764
▁석조	-5765
▁인자	-5766
다드	-5767
▁호르	-5768
▁럭	-5769
▁옹호	-5770
▁부동산	-5771
▁노인	-5772
▁색상	-5773
▁밀라노	-5774
▁다큐멘터리	-5775
▁우크라이나	-5776
▁창간	-5777
▁1926	-5778
▁마저	-5779
▁흙	-5780
▁기압	-5781
▁별로	-5782
▁종족	-5783
▁폐기	-5784
▁표본	-5785
▁베토벤	-5786
▁체인	-5787
몬드	-5788
▁관중	-5789
▁사신	-5790
▁항목	-5791
▁산타	-5792
▁SN	-5793
▁단행	-5794
▁협의회	-5795
▁앱	-5796
▁산악	-5797
▁의병	-5798
▁호남	-5799
▁자문	-5800
▁험	-5801
▁포크	-5802
▁왕립	-5803
▁꺼	-5804
av	-5805
▁슐	-5806
▁놀라	-5807
▁동아시아	-5808
▁탑승	-5809
페이지	-5810
▁168	-5811
▁상하이	-5812
▁무선	-5813
▁He	-5814
▁아무런	-5815
▁송라이터	-5816
생물	-5817
티움	-5818
▁문하	-5819
▁선제	-5820
▁대교	-5821
▁해설	-5822
▁유입	-5823
이즈	-5824
▁다가	-5825
▁노조	-5826
▁머물	-5827
▁수감	-5828
▁아가	-5829
스토	-5830
▁내장	-5831
▁안보	-5832
▁연금	-5833
▁PD	-5834
▁패러	-5835
▁겨우	-5836
▁급속	-5837
▁꾸미	-5838
▁지름	-5839
▁자전거	-5840
▁세조	-5841
▁묘지	-5842
▁비전	-5843
▁상영	-5844
ind	-5845
▁스틸	-5846
▁연고지	-5847
슬라	-5848
▁아울	-5849
▁헤드	-5850
▁디즈니	-5851
런트	-5852
▁사료	-5853
튜브	-5854
▁진지	-5855
다이라	-5856
▁162	-5857
▁NHK	-5858
▁에릭	-5859
▁하천	-5860
▁166	-5861
▁꾸준히	-5862
▁동사	-5863
▁좌익	-5864
로프	-5865
▁기종	-5866
▁합계	-5867
▁레이다	-5868
▁최우수	-5869
▁1905	-5870
▁유신	-5871
▁홈페이지	-5872
ame	-5873
▁정사	-5874
AC	-5875
나카	-5876
▁제후	-5877
se	-5878
▁기름	-5879
▁물려	-5880
▁원로	-5881
▁콩고	-5882
▁유튜브	-5883
▁오리지	-5884
텐도	-5885
▁대조	-5886
▁엄마	-5887
▁닌텐도	-5888
▁민족주의	-5889
▁룩	-5890
▁예외	-5891
▁시에	-5892
▁기하학	-5893
▁비평가	-5894
▁Sp	-5895
▁||	-5896
▁산지	-5897
▁비단	-5898
▁ㄴ다고	-5899
▁151	-5900
▁독일어	-5901
▁바이올	-5902
▁묻히	-5903
▁문화유산	-5904
브스	-5905
세스	-5906
페인	-5907
려나	-5908
▁버그	-5909
▁사이클	-5910
총장	-5911
▁엉	-5912
▁증기	-5913
▁조선인	-5914
▁뚫	-5915
▁색깔	-5916
▁스승	-5917
▁시외	-5918
▁가쓰	-5919
▁주말	-5920
▁곧바로	-5921
▁바라보	-5922
▁품질	-5923
ry	-5924
▁수천	-5925
▁트럭	-5926
▁흥미	-5927
▁모집	-5928
▁데이터베이스	-5929
ES	-5930
▁참조	-5931
▁158	-5932
▁수명	-5933
▁목격	-5934
▁역과	-5935
▁요미	-5936
▁우르	-5937
플레이	-5938
▁운명	-5939
▁드래곤	-5940
▁스페셜	-5941
지마	-5942
▁도리	-5943
▁리듬	-5944
▁리얼	-5945
▁마일	-5946
▁셋째	-5947
어트	-5948
▁악장	-5949
▁커뮤니티	-5950
▁선진	-5951
무네	-5952
스케	-5953
▁아크	-5954
▁칩	-5955
▁광역	-5956
▁상소	-5957
ith	-5958
▁문과	-5959
스티벌	-5960
▁반환	-5961
▁유고슬	-5962
▁정류장	-5963
▁크리스토	-5964
▁유고슬라비아	-5965
▁라마	-5966
▁지바	-5967
엘라	-5968
▁원산	-5969
▁주한	-5970
▁주의자	-5971
▁조르	-5972
▁협의	-5973
▁나폴리	-5974
▁02	-5975
▁유닛	-5976
▁페스티벌	-5977
▁대안	-5978
▁이오	-5979
▁점성	-5980
▁십자군	-5981
잡히	-5982
▁주거	-5983
▁남서쪽	-5984
▁라이온	-5985
▁가미	-5986
▁방안	-5987
▁빨리	-5988
▁입증	-5989
ort	-5990
▁신비	-5991
▁야생	-5992
▁옛날	-5993
▁자바	-5994
▁할리	-5995
▁일행	-5996
▁라이벌	-5997
▁수수	-5998
▁주파	-5999
▁이리	-6000
▁레이스	-6001
▁사리	-6002
▁플루	-6003
▁도심	-6004
▁입문	-6005
ok	-6006
▁브라이언	-6007
▁무관	-6008
▁소니	-6009
▁토니	-6010
▁날리	-6011
▁스피드	-6012
프란시스코	-6013
▁되찾	-6014
▁기점	-6015
▁오디션	-6016
▁샌프란시스코	-6017
▁구마	-6018
▁운반	-6019
▁특급	-6020
▁향년	-6021
▁재무	-6022
▁기용	-6023
▁인텔	-6024
▁동치	-6025
▁사면	-6026
▁베이스볼	-6027
▁디자이너	-6028
▁적색	-6029
▁저지르	-6030
▁안드로이드	-6031
▁서북	-6032
▁배제	-6033
▁사직	-6034
▁한나라	-6035
해군	-6036
▁분배	-6037
▁연주자	-6038
ᅥᆫ	-6039
▁쿠르	-6040
▁한나라당	-6041
회의	-6042
▁인치	-6043
▁콜롬비아	-6044
▁단층	-6045
▁기념물	-6046
▁동영상	-6047
▁출판사	-6048
프스	-6049
▁미네	-6050
▁미만	-6051
▁마스	-6052
▁케이블	-6053
▁마케도니아	-6054
▁와카	-6055
루살	-6056
▁렌즈	-6057
▁정교	-6058
▁초래	-6059
▁묘소	-6060
▁오리지널	-6061
▁신임	-6062
▁직장	-6063
▁1904	-6064
▁출산	-6065
▁평소	-6066
▁부시	-6067
▁아서	-6068
루살렘	-6069
▁복제	-6070
▁프랜	-6071
▁당사자	-6072
▁지휘자	-6073
쳐지	-6074
▁개수	-6075
▁석탑	-6076
▁알라	-6077
▁부패	-6078
▁긴급	-6079
▁폭스	-6080
▁스테이지	-6081
▁템	-6082
▁예술가	-6083
▁콘스탄티노	-6084
▁예언	-6085
▁왕족	-6086
▁관장	-6087
▁단종	-6088
▁사로	-6089
▁165	-6090
▁용기	-6091
▁진도	-6092
▁교전	-6093
▁서경	-6094
▁기재	-6095
▁의거	-6096
▁좌석	-6097
▁Un	-6098
▁챌	-6099
▁파생	-6100
프라	-6101
▁센트럴	-6102
▁마쓰다이라	-6103
▁Wh	-6104
▁모순	-6105
▁상무	-6106
▁자사	-6107
▁가게	-6108
▁급행	-6109
▁입히	-6110
▁판타지	-6111
▁신하	-6112
▁내륙	-6113
▁154	-6114
리케이션	-6115
▁계단	-6116
▁여동생	-6117
ob	-6118
교육	-6119
▁트레	-6120
ord	-6121
▁비즈니스	-6122
문학	-6123
▁수면	-6124
▁오타	-6125
▁파나	-6126
▁합작	-6127
▁Se	-6128
▁동전	-6129
▁무신	-6130
▁예루살렘	-6131
▁권고	-6132
▁무슬	-6133
qu	-6134
▁받침	-6135
▁사르	-6136
▁겹치	-6137
터스	-6138
▁압박	-6139
▁용산	-6140
페이	-6141
▁신용	-6142
▁163	-6143
▁156	-6144
▁바이올린	-6145
▁정계	-6146
▁스펙트	-6147
▁항일	-6148
가스	-6149
▁링크	-6150
▁연애	-6151
▁도메인	-6152
▁무슬림	-6153
▁DJ	-6154
모니	-6155
우옌	-6156
▁가득	-6157
▁사범	-6158
▁167	-6159
려오	-6160
▁그랑	-6161
▁크리스티	-6162
▁SF	-6163
▁스쿨	-6164
디스	-6165
▁상임	-6166
▁여신	-6167
▁리투아	-6168
▁스펙트럼	-6169
▁리투아니아	-6170
▁진상	-6171
▁얼음	-6172
ate	-6173
▁호환	-6174
▁훼손	-6175
경기	-6176
▁회원국	-6177
▁끼리	-6178
▁아인	-6179
▁깔	-6180
▁900	-6181
▁밀접	-6182
PS	-6183
▁AM	-6184
▁대단	-6185
▁전염	-6186
랑이	-6187
식물	-6188
▁타마	-6189
▁이지	-6190
▁비로	-6191
▁서울시	-6192
▁이명박	-6193
▁충남	-6194
▁시달리	-6195
▁자회사	-6196
▁조국	-6197
▁한양	-6198
▁스마트폰	-6199
지르	-6200
카르	-6201
▁참판	-6202
▁조류	-6203
▁노무현	-6204
▁장편	-6205
▁씌	-6206
▁번식	-6207
▁챌린	-6208
껍질	-6209
▁게시	-6210
▁고립	-6211
▁니스	-6212
▁바그	-6213
▁우지	-6214
▁친정	-6215
▁발효	-6216
▁과제	-6217
▁어항	-6218
▁미얀	-6219
▁선사	-6220
▁우루	-6221
▁지주	-6222
▁비잔티움	-6223
▁샹	-6224
▁분지	-6225
▁혜성	-6226
▁애국	-6227
▁었었	-6228
▁착륙	-6229
킨스	-6230
▁기아	-6231
▁무라	-6232
▁쇼군	-6233
▁저기	-6234
▁일요일	-6235
▁ᆯ수록	-6236
▁교섭	-6237
▁와중	-6238
▁팅	-6239
▁오케스트라	-6240
IC	-6241
▁예능	-6242
▁주립	-6243
▁지장	-6244
▁오다	-6245
▁UN	-6246
▁식사	-6247
▁차관	-6248
▁피렌	-6249
길이	-6250
▁끄	-6251
▁포맷	-6252
커스	-6253
▁시체	-6254
▁139	-6255
▁서브	-6256
▁농도	-6257
▁파동	-6258
▁피스	-6259
잡이	-6260
▁진나라	-6261
▁성종	-6262
▁선두	-6263
▁아베	-6264
▁알바니아	-6265
▁옌	-6266
▁구장	-6267
▁융합	-6268
▁요크	-6269
▁최신	-6270
▁행정부	-6271
▁부흥	-6272
럼비아	-6273
▁고서	-6274
▁AS	-6275
▁대령	-6276
▁145	-6277
예프	-6278
▁하트	-6279
▁디비전	-6280
로디	-6281
▁쿠스	-6282
▁낱	-6283
▁바티	-6284
▁소나	-6285
ET	-6286
▁뜨겁	-6287
▁월간	-6288
▁유하	-6289
▁기타리스트	-6290
▁강연	-6291
▁용량	-6292
▁잊	-6293
부인	-6294
ast	-6295
▁공과	-6296
▁발족	-6297
▁야기	-6298
▁부자	-6299
▁위주	-6300
▁아이디	-6301
▁하드웨어	-6302
▁개발자	-6303
▁거인	-6304
▁보전	-6305
▁전이	-6306
▁투명	-6307
▁관찰사	-6308
▁주머니	-6309
▁킬로미터	-6310
▁점유	-6311
▁충성	-6312
▁마리오	-6313
▁브라우	-6314
▁간접	-6315
▁학파	-6316
▁해인	-6317
▁MVP	-6318
▁착수	-6319
▁부통령	-6320
▁스트리트	-6321
▁지질	-6322
DP	-6323
▁김동	-6324
▁번주	-6325
▁고조	-6326
▁임상	-6327
▁HIV	-6328
▁굉	-6329
▁전임	-6330
▁몸길이	-6331
▁피렌체	-6332
▁아이디어	-6333
▁부도	-6334
▁응우옌	-6335
▁중국어	-6336
▁사사	-6337
▁페어	-6338
랑크	-6339
▁제네	-6340
▁관광객	-6341
▁마케팅	-6342
▁미나미	-6343
▁넬	-6344
▁마산	-6345
▁전지	-6346
▁차체	-6347
▁측근	-6348
▁거스르	-6349
수아	-6350
▁규명	-6351
if	-6352
▁배정	-6353
▁아세	-6354
▁완화	-6355
데이트	-6356
▁정벌	-6357
▁하노	-6358
▁업데이트	-6359
▁디오	-6360
▁이에	-6361
▁전두	-6362
▁전류	-6363
▁맥스	-6364
▁1896	-6365
어내	-6366
▁권유	-6367
트니	-6368
▁성공회	-6369
▁샬	-6370
레이터	-6371
▁피에르	-6372
트롤	-6373
ack	-6374
ive	-6375
▁경선	-6376
주곡	-6377
▁DS	-6378
▁공용	-6379
▁귀환	-6380
▁사바	-6381
▁중도	-6382
▁형법	-6383
란트	-6384
▁출구	-6385
▁공전	-6386
▁뱅크	-6387
▁보드	-6388
▁여덟	-6389
IT	-6390
균관	-6391
▁제의	-6392
▁구동	-6393
ure	-6394
▁로빈	-6395
▁트윈	-6396
▁턴	-6397
▁스콧	-6398
▁게이트	-6399
▁친선	-6400
▁짙	-6401
▁연수	-6402
리티	-6403
▁IP	-6404
▁성벽	-6405
▁검증	-6406
▁디젤	-6407
▁둘러싸이	-6408
악기	-6409
▁중독	-6410
▁스타크래프트	-6411
▁젖	-6412
▁174	-6413
▁존경	-6414
▁수학자	-6415
▁석탄	-6416
▁오렌	-6417
▁살아가	-6418
▁청와	-6419
▁애플리케이션	-6420
루미	-6421
▁마운	-6422
▁실용	-6423
▁152	-6424
▁요미우리	-6425
▁관습	-6426
▁세례	-6427
▁노동조합	-6428
▁수산	-6429
▁옐	-6430
운서	-6431
츠키	-6432
▁우즈	-6433
▁지각	-6434
▁플라스	-6435
▁5000	-6436
▁미하	-6437
▁히라	-6438
iv	-6439
ock	-6440
▁서열	-6441
▁정찰	-6442
▁인과	-6443
▁조용	-6444
▁피난	-6445
문관	-6446
▁시드니	-6447
▁청와대	-6448
▁아나운서	-6449
▁쇼핑	-6450
▁테일러	-6451
▁메디	-6452
▁전장	-6453
▁소송법	-6454
▁변동	-6455
▁사명	-6456
결승	-6457
▁으	-6458
▁157	-6459
▁서일본	-6460
▁행진	-6461
▁뷔	-6462
▁얼마나	-6463
▁곁	-6464
토미	-6465
▁전진	-6466
▁련	-6467
▁Ar	-6468
▁전문학교	-6469
▁사인	-6470
▁테오	-6471
▁기울이	-6472
▁꼴	-6473
▁밀양	-6474
▁WWE	-6475
▁자면	-6476
▁장성	-6477
ck	-6478
▁금성	-6479
폴리스	-6480
▁루수	-6481
▁규격	-6482
▁준공	-6483
▁자율	-6484
▁한강	-6485
▁호평	-6486
▁한화	-6487
▁해전	-6488
▁빌헬	-6489
▁퇴각	-6490
▁저기압	-6491
▁쏟	-6492
▁고개	-6493
▁수신	-6494
▁프로세스	-6495
▁신전	-6496
▁염색	-6497
▁좌표	-6498
▁뿔	-6499
▁번뇌	-6500
▁이슈	-6501
▁회수	-6502
▁다이아	-6503
▁아울러	-6504
▁미스터	-6505
▁상상	-6506
▁하버드	-6507
▁킨	-6508
▁구제	-6509
▁적대	-6510
▁판매량	-6511
▁관현	-6512
▁급진	-6513
가루	-6514
▁책봉	-6515
▁카나	-6516
▁신칸	-6517
사기	-6518
▁관념	-6519
▁여의	-6520
▁성균관	-6521
▁연구자	-6522
▁취약	-6523
▁가즈	-6524
외선	-6525
▁백신	-6526
▁장인	-6527
▁문재인	-6528
▁카시	-6529
▁흥행	-6530
▁힘쓰	-6531
▁무효	-6532
산군	-6533
트랙	-6534
▁복소	-6535
▁비극	-6536
▁지분	-6537
▁해임	-6538
▁응답	-6539
▁자손	-6540
원숭이	-6541
끄럽	-6542
▁MP	-6543
전자	-6544
수수	-6545
▁김용	-6546
▁몰락	-6547
▁제휴	-6548
니스트	-6549
▁연루	-6550
▁휩	-6551
▁국어	-6552
▁상류	-6553
▁125	-6554
▁j	-6555
▁쳐	-6556
카드	-6557
▁들리	-6558
▁따위	-6559
▁식당	-6560
▁할당	-6561
포스	-6562
▁메가	-6563
▁이순	-6564
하르트	-6565
▁146	-6566
▁서독	-6567
▁소금	-6568
▁통행	-6569
▁쇄	-6570
▁마찰	-6571
▁에티	-6572
▁천문학	-6573
악단	-6574
▁105	-6575
▁달아나	-6576
▁쥬	-6577
▁악마	-6578
혁명	-6579
▁소총	-6580
▁승차	-6581
▁히스	-6582
메르	-6583
▁아니하	-6584
▁1500	-6585
자와	-6586
▁문제점	-6587
▁흩	-6588
▁두드	-6589
▁적히	-6590
▁패전	-6591
▁믿음	-6592
▁남양	-6593
▁충족	-6594
▁끈	-6595
▁파스	-6596
▁박영	-6597
▁남인	-6598
▁루터	-6599
▁여수	-6600
▁창업	-6601
▁동남아시아	-6602
▁나미	-6603
▁3000	-6604
▁강사	-6605
▁매출	-6606
▁술탄	-6607
▁유출	-6608
12	-6609
▁마오	-6610
▁외무	-6611
▁1911	-6612
▁우정	-6613
▁이노	-6614
▁착공	-6615
▁서서	-6616
▁저택	-6617
▁노드	-6618
▁소지	-6619
▁민국	-6620
▁윌슨	-6621
ime	-6622
▁자책점	-6623
고속도로	-6624
▁곳곳	-6625
▁신칸센	-6626
▁이복	-6627
▁얇	-6628
▁두르	-6629
라트	-6630
▁성전	-6631
▁153	-6632
▁원나라	-6633
▁지지자	-6634
▁나열	-6635
▁조언	-6636
▁단원	-6637
▁소닉	-6638
▁항공모	-6639
▁내내	-6640
일드	-6641
▁하마	-6642
▁갈라지	-6643
▁떠오르	-6644
▁프로토콜	-6645
▁고원	-6646
▁소관	-6647
▁PS	-6648
▁여래	-6649
▁소재지	-6650
▁석가	-6651
▁일렉	-6652
one	-6653
▁이이	-6654
▁청사	-6655
서양	-6656
▁Le	-6657
▁순천	-6658
▁중점	-6659
▁지목	-6660
▁과목	-6661
▁디비	-6662
▁로고	-6663
▁찾아보	-6664
▁사지	-6665
▁매개	-6666
▁카트	-6667
▁예배	-6668
▁희극	-6669
▁빌헬름	-6670
▁유언	-6671
▁회견	-6672
▁폴리스	-6673
▁MC	-6674
제프	-6675
▁103	-6676
▁환원	-6677
▁시외버스	-6678
▁고무	-6679
▁힌두	-6680
▁아즈	-6681
▁강수량	-6682
▁증후	-6683
네이	-6684
▁환상	-6685
▁우주선	-6686
토시	-6687
▁동위	-6688
▁매기	-6689
▁배구	-6690
▁눈물	-6691
▁편곡	-6692
▁회계	-6693
▁셈	-6694
▁비아	-6695
대군	-6696
▁와인	-6697
팩트	-6698
펴보	-6699
▁마천	-6700
▁후자	-6701
▁살펴보	-6702
▁보잉	-6703
▁중장	-6704
▁특유	-6705
▁Pro	-6706
▁연인	-6707
▁이글	-6708
▁미얀마	-6709
▁카자흐	-6710
▁법령	-6711
ML	-6712
▁클린	-6713
▁비틀즈	-6714
▁성모	-6715
▁주권	-6716
▁천사	-6717
▁터지	-6718
▁ISO	-6719
▁참가자	-6720
▁오클	-6721
▁개업	-6722
▁공자	-6723
▁취재	-6724
▁포장	-6725
델피아	-6726
▁필라델피아	-6727
▁고베	-6728
▁일관	-6729
▁채무	-6730
▁기장	-6731
▁진리	-6732
▁매사	-6733
노프	-6734
▁겸임	-6735
▁제트	-6736
▁공략	-6737
▁나리	-6738
▁선원	-6739
어리	-6740
▁반격	-6741
▁공인	-6742
▁해역	-6743
▁친척	-6744
Pa	-6745
즈카	-6746
▁버튼	-6747
▁우편	-6748
▁점프	-6749
▁이어서	-6750
AP	-6751
노리	-6752
▁별개	-6753
▁시립	-6754
기니	-6755
▁굵	-6756
▁근접	-6757
▁최적	-6758
▁오렌지	-6759
OC	-6760
▁삿	-6761
▁패스	-6762
▁닭	-6763
▁상자	-6764
▁155	-6765
▁출입구	-6766
받침	-6767
▁각기	-6768
▁중종	-6769
▁추모	-6770
▁토크	-6771
▁각본가	-6772
▁빼앗기	-6773
▁회화	-6774
▁독립운동가	-6775
▁격렬	-6776
▁테스	-6777
▁협동	-6778
▁보충	-6779
마사	-6780
동물	-6781
리크	-6782
▁대답	-6783
▁두드러지	-6784
▁게재	-6785
▁허브	-6786
▁밭	-6787
▁아군	-6788
▁유해	-6789
▁인격	-6790
▁카타	-6791
▁주파수	-6792
▁유격	-6793
▁이원	-6794
▁컨트롤	-6795
▁위장	-6796
▁정치가	-6797
▁Bo	-6798
▁동등	-6799
시온	-6800
▁태우	-6801
▁별자리	-6802
te	-6803
▁법무	-6804
▁사가	-6805
▁실종	-6806
소스	-6807
▁금액	-6808
▁담배	-6809
▁사물	-6810
▁인형	-6811
▁오키나	-6812
▁앞면	-6813
▁증후군	-6814
▁가라	-6815
▁민영	-6816
▁항공모함	-6817
▁생일	-6818
▁이인	-6819
▁토리	-6820
▁포수	-6821
▁108	-6822
▁리메	-6823
▁성주	-6824
▁미소	-6825
▁이영	-6826
▁평행	-6827
▁북동부	-6828
▁매력	-6829
▁합법	-6830
▁이바	-6831
▁오디오	-6832
▁레전	-6833
▁유교	-6834
▁내지	-6835
▁미루	-6836
▁민사	-6837
▁토요일	-6838
▁아라	-6839
▁감지	-6840
▁지우	-6841
▁두산	-6842
▁영동	-6843
▁트라이	-6844
▁얘	-6845
플러	-6846
▁Con	-6847
▁아바	-6848
▁일찍이	-6849
▁룰	-6850
▁스터	-6851
▁자발	-6852
▁아리스	-6853
때로	-6854
▁서서히	-6855
▁양상	-6856
▁베르크	-6857
▁스파이	-6858
▁사우디아	-6859
▁히데요시	-6860
▁나고	-6861
▁서해	-6862
▁외곽	-6863
▁개찰구	-6864
▁전두환	-6865
▁준결승	-6866
산면	-6867
상스	-6868
▁건의	-6869
▁하우	-6870
▁상대방	-6871
io	-6872
▁승무원	-6873
▁상부	-6874
▁고체	-6875
▁박탈	-6876
항공	-6877
▁일족	-6878
▁에디	-6879
▁이사장	-6880
▁퍼시픽	-6881
▁꾀	-6882
ber	-6883
▁아케	-6884
▁에우	-6885
▁화살	-6886
▁시청자	-6887
▁교장	-6888
▁자고	-6889
산리	-6890
▁브래	-6891
▁앙리	-6892
▁추격	-6893
▁에이스	-6894
▁트럼프	-6895
▁야간	-6896
▁때때로	-6897
▁드라이브	-6898
▁입상	-6899
▁나고야	-6900
▁크리스마스	-6901
▁전례	-6902
▁호세	-6903
▁생명체	-6904
▁하인리히	-6905
▁섞이	-6906
베이터	-6907
▁김영삼	-6908
▁상장	-6909
▁만세	-6910
▁무려	-6911
▁물자	-6912
▁갓	-6913
▁IT	-6914
러미	-6915
▁1909	-6916
▁싸이	-6917
▁홍수	-6918
▁아우구	-6919
▁세균	-6920
▁해운	-6921
퍼니	-6922
화점	-6923
▁고발	-6924
▁교단	-6925
▁궁정	-6926
▁자마	-6927
▁외국어	-6928
▁부착	-6929
▁대주교	-6930
▁기금	-6931
▁이슬람교	-6932
▁사다	-6933
▁보스니아	-6934
▁128	-6935
▁캠페인	-6936
▁149	-6937
▁그만두	-6938
가타	-6939
▁콜라	-6940
▁수성	-6941
▁가르침	-6942
▁긴장	-6943
▁명의	-6944
▁연도	-6945
▁102	-6946
▁톈	-6947
▁트위	-6948
▁네이버	-6949
▁시라	-6950
▁전도	-6951
▁향교	-6952
▁운동장	-6953
모어	-6954
▁복장	-6955
▁맵	-6956
칠리아	-6957
▁사용자	-6958
▁#	-6959
구장	-6960
▁자마자	-6961
▁골프	-6962
▁메타	-6963
▁짜리	-6964
▁트루	-6965
▁대군	-6966
▁건	-6967
▁고가	-6968
▁호칭	-6969
▁배틀	-6970
▁정밀	-6971
▁제작자	-6972
라이트	-6973
▁대외	-6974
▁안장	-6975
▁집계	-6976
▁건축가	-6977
▁펼쳐지	-6978
▁존중	-6979
▁피고	-6980
▁ᆯ까	-6981
나리	-6982
▁어드	-6983
▁치세	-6984
▁르네상스	-6985
▁슬라	-6986
▁후안	-6987
람회	-6988
▁중재	-6989
▁중국인	-6990
▁남한	-6991
▁최저	-6992
▁에스파냐	-6993
▁사우디아라비아	-6994
▁발원	-6995
▁텍스트	-6996
▁직책	-6997
ge	-6998
트릭	-6999
▁주지사	-7000
▁쉐	-7001
▁전대	-7002
▁레이저	-7003
▁계절	-7004
▁송나라	-7005
age	-7006
▁발현	-7007
먼드	-7008
▁며칠	-7009
▁차남	-7010
▁어다	-7011
▁리오	-7012
▁흘러	-7013
▁셸	-7014
▁여주	-7015
라미	-7016
▁Bl	-7017
▁넓히	-7018
▁자유당	-7019
▁섭취	-7020
▁포괄	-7021
▁방침	-7022
▁팽창	-7023
iz	-7024
▁사절	-7025
▁세미	-7026
▁시오	-7027
▁최소한	-7028
생활	-7029
집합	-7030
▁키프	-7031
▁레전드	-7032
▁강경	-7033
▁단기	-7034
백과	-7035
▁문양	-7036
▁향후	-7037
▁아미타	-7038
▁$	-7039
▁상세	-7040
▁초창	-7041
▁손가락	-7042
▁사이버	-7043
▁턱	-7044
언스	-7045
▁대니	-7046
▁수평	-7047
▁원자로	-7048
▁포도주	-7049
▁댐	-7050
▁낙선	-7051
▁뽑히	-7052
▁굉장	-7053
▁다중	-7054
차례	-7055
▁토스	-7056
▁프랭크	-7057
▁객관	-7058
▁청장	-7059
▁갑작	-7060
▁고래	-7061
▁고사	-7062
AD	-7063
▁촉구	-7064
▁팔레스	-7065
▁충주	-7066
▁캄보	-7067
▁탐지	-7068
▁147	-7069
▁조반	-7070
▁유니폼	-7071
▁룽	-7072
▁보리	-7073
▁태생	-7074
울리	-7075
▁로프	-7076
▁그랑프리	-7077
▁조리	-7078
▁127	-7079
▁단점	-7080
▁수군	-7081
▁블루스	-7082
▁동독	-7083
▁속성	-7084
▁토마	-7085
▁CPU	-7086
▁명목	-7087
▁볼리	-7088
▁경부	-7089
수엘라	-7090
▁노란색	-7091
▁스릴	-7092
▁기수	-7093
▁1915	-7094
▁여진	-7095
▁아미노	-7096
▁엘리베이터	-7097
행위	-7098
▁초연	-7099
▁캐스팅	-7100
▁딩	-7101
서리	-7102
▁무죄	-7103
▁메인	-7104
▁왜성	-7105
▁전함	-7106
▁음원	-7107
▁171	-7108
▁겔	-7109
▁입체	-7110
▁진군	-7111
▁케네	-7112
노부	-7113
▁숭배	-7114
▁주축	-7115
▁협조	-7116
▁hPa	-7117
▁취지	-7118
▁컬러	-7119
▁하이드	-7120
▁침몰	-7121
▁로맨스	-7122
▁역명	-7123
▁1913	-7124
▁윌리엄스	-7125
sp	-7126
orld	-7127
두르	-7128
▁난민	-7129
▁심의	-7130
▁알코	-7131
▁오키나와	-7132
우라	-7133
▁이어받	-7134
▁마비	-7135
▁북구	-7136
▁북방	-7137
▁황해	-7138
▁유소년	-7139
▁라파	-7140
▁제곱	-7141
▁상당수	-7142
▁내주	-7143
▁따뜻	-7144
▁추증	-7145
라리	-7146
▁후일	-7147
▁천문학자	-7148
▁베네수엘라	-7149
▁부천	-7150
▁원고	-7151
▁투르크	-7152
▁언제나	-7153
ik	-7154
▁김재	-7155
▁낮추	-7156
▁동당	-7157
창군	-7158
▁광년	-7159
▁김수	-7160
▁김진	-7161
▁신흥	-7162
▁부과	-7163
▁수동	-7164
▁문학상	-7165
▁동년	-7166
▁마하	-7167
▁옥스	-7168
▁테니스	-7169
▁분광	-7170
▁추상	-7171
▁출토	-7172
시티	-7173
▁재미	-7174
▁창건	-7175
▁위키백과	-7176
▁센서	-7177
▁초창기	-7178
▁이틀	-7179
▁이민자	-7180
▁닿	-7181
▁둘레	-7182
▁타르	-7183
▁서사	-7184
▁팜	-7185
기지	-7186
▁동래	-7187
▁탈환	-7188
▁태수	-7189
▁기습	-7190
▁대포	-7191
▁강과	-7192
▁코프	-7193
▁울리	-7194
▁169	-7195
▁수렴	-7196
▁시그	-7197
▁쓰러지	-7198
▁개미	-7199
자치도	-7200
▁제주특별	-7201
▁제주특별자치도	-7202
▁머신	-7203
▁창시	-7204
▁GT	-7205
▁어업	-7206
▁에다	-7207
▁병역	-7208
▁원반	-7209
포구	-7210
▁수령	-7211
▁CE	-7212
명사전	-7213
▁디스플레이	-7214
▁대역	-7215
▁바흐	-7216
▁종결	-7217
▁청원	-7218
▁스파르타	-7219
▁든지	-7220
크리트	-7221
▁1895	-7222
▁유수	-7223
▁찾아내	-7224
▁SP	-7225
▁광부	-7226
▁모스	-7227
▁카탈	-7228
여지	-7229
▁인재	-7230
▁정말	-7231
▁프레스	-7232
▁나가사키	-7233
▁리메이크	-7234
▁걱	-7235
▁링컨	-7236
▁아폴	-7237
▁대처	-7238
▁때리	-7239
▁무제	-7240
▁총선거	-7241
▁흩어지	-7242
▁딴	-7243
▁al	-7244
포트	-7245
▁대제	-7246
▁141	-7247
▁한동안	-7248
▁팔레스타인	-7249
석기	-7250
▁남원	-7251
▁초상화	-7252
평군	-7253
▁유연	-7254
▁효력	-7255
▁135	-7256
▁계몽	-7257
▁적자	-7258
▁통칭	-7259
▁아사히	-7260
▁주차	-7261
▁언론인	-7262
▁엔지	-7263
▁끊임	-7264
▁반박	-7265
MS	-7266
▁래	-7267
▁동력	-7268
▁법제	-7269
▁비문	-7270
▁섭정	-7271
박쥐	-7272
▁시공	-7273
▁다운로드	-7274
▁Tr	-7275
▁총괄	-7276
▁신세	-7277
▁께서	-7278
공신	-7279
▁고백	-7280
▁나주	-7281
▁삼진	-7282
▁하부	-7283
▁후세	-7284
네스코	-7285
▁북서부	-7286
▁국사	-7287
▁김태	-7288
▁탤	-7289
벌레	-7290
▁양주	-7291
▁온천	-7292
무기	-7293
ust	-7294
▁바실	-7295
▁소실	-7296
▁차기	-7297
▁111	-7298
와라	-7299
▁번영	-7300
그라드	-7301
▁수용소	-7302
▁십자가	-7303
보기	-7304
자스	-7305
▁서머	-7306
▁도호쿠	-7307
▁중순	-7308
▁풋볼	-7309
▁자기장	-7310
ep	-7311
선거	-7312
▁나르	-7313
▁오빠	-7314
▁이진	-7315
▁문화방송	-7316
▁귀중	-7317
▁대위	-7318
▁신중	-7319
▁어스	-7320
▁저명	-7321
▁개관	-7322
▁해병대	-7323
▁면하	-7324
▁영리	-7325
▁서울대	-7326
▁캄보디아	-7327
▁144	-7328
▁더글	-7329
▁날짜	-7330
▁명백	-7331
▁후대	-7332
▁몰아내	-7333
▁내외	-7334
▁큰	-7335
▁원내	-7336
▁첨가	-7337
▁스핀	-7338
▁풍경	-7339
▁폐위	-7340
▁스티브	-7341
▁김포	-7342
▁두루	-7343
▁함유	-7344
따르	-7345
▁식별	-7346
▁교원	-7347
▁병조	-7348
▁휴식	-7349
▁리버풀	-7350
▁걱정	-7351
▁당일	-7352
▁조달	-7353
▁연세대	-7354
▁기요	-7355
▁정전	-7356
▁파업	-7357
▁평하	-7358
▁전성기	-7359
▁컴퍼니	-7360
int	-7361
▁불편	-7362
▁장미	-7363
▁천도	-7364
▁아레나	-7365
▁무상	-7366
▁알아	-7367
▁정무	-7368
▁제수	-7369
▁평야	-7370
▁It	-7371
▁이광	-7372
▁충실	-7373
누엘	-7374
키지	-7375
▁119	-7376
▁관통	-7377
▁스릴러	-7378
▁컬럼비아	-7379
▁꽤	-7380
▁공채	-7381
▁소환	-7382
▁중소	-7383
▁CO	-7384
▁TH	-7385
▁드럼	-7386
▁편리	-7387
▁신학교	-7388
▁우연히	-7389
EN	-7390
▁총사	-7391
▁다니엘	-7392
▁매카	-7393
트리올	-7394
▁몬트리올	-7395
▁교양	-7396
▁신기	-7397
▁인산	-7398
▁카이사르	-7399
▁간호	-7400
▁고민	-7401
▁모방	-7402
▁별칭	-7403
▁언더	-7404
▁위임	-7405
▁172	-7406
▁케네디	-7407
▁도스	-7408
▁북위	-7409
▁룡	-7410
▁사회학	-7411
▁총대	-7412
GC	-7413
릴라	-7414
▁선구	-7415
▁요르	-7416
▁휴전	-7417
▁유니버	-7418
스럽	-7419
푸스	-7420
시로	-7421
▁아종	-7422
▁덤	-7423
▁관람	-7424
▁니콜라	-7425
▁엔지니어	-7426
ib	-7427
▁루시	-7428
▁리어	-7429
▁테레	-7430
▁신학자	-7431
▁이글스	-7432
▁연패	-7433
▁106	-7434
▁껍질	-7435
▁미주	-7436
▁미즈	-7437
▁바퀴	-7438
▁베드	-7439
▁평일	-7440
▁해수	-7441
▁의상	-7442
▁장안	-7443
▁증진	-7444
▁진짜	-7445
그로	-7446
▁김상	-7447
▁선종	-7448
▁친일인	-7449
▁스페이스	-7450
▁유네스코	-7451
▁친일인명사전	-7452
ian	-7453
▁세계관	-7454
▁아틀레	-7455
ome	-7456
▁묘역	-7457
▁보완	-7458
▁쇼트	-7459
▁애덤	-7460
▁좌절	-7461
▁평범	-7462
▁한성부	-7463
▁아이템	-7464
니치	-7465
▁공모	-7466
▁페르난	-7467
▁장난	-7468
▁카리브	-7469
ude	-7470
▁서남	-7471
▁중량	-7472
▁표명	-7473
▁초과	-7474
케이션	-7475
▁소통	-7476
▁공직	-7477
▁도주	-7478
▁승점	-7479
▁장려	-7480
▁미토	-7481
▁아벨	-7482
▁열대	-7483
▁슈트	-7484
▁영남	-7485
▁항소	-7486
▁케이스	-7487
▁멋	-7488
▁차종	-7489
▁콘크리트	-7490
▁마인	-7491
▁제갈	-7492
페르	-7493
▁고수	-7494
▁치열	-7495
▁프랑수아	-7496
▁잦	-7497
▁콰	-7498
▁마츠	-7499
▁지혜	-7500
▁에스토	-7501
▁쿤	-7502
▁훔	-7503
▁We	-7504
▁등재	-7505
▁배신	-7506
▁방패	-7507
▁돌연	-7508
▁해변	-7509
▁아이슬	-7510
▁책임자	-7511
▁생전	-7512
▁정렬	-7513
▁탱크	-7514
▁포격	-7515
▁그루	-7516
▁낱말	-7517
▁외교관	-7518
ere	-7519
▁일화	-7520
▁충북	-7521
▁역설	-7522
▁지폐	-7523
내셔널	-7524
주의자	-7525
▁인터내셔널	-7526
루션	-7527
▁전압	-7528
블로	-7529
세츠	-7530
▁우울	-7531
▁합창	-7532
▁영장	-7533
선스	-7534
말라	-7535
▁불명	-7536
▁양도	-7537
▁업계	-7538
▁요하	-7539
▁공단	-7540
▁입지	-7541
▁투르	-7542
▁매사추	-7543
실록	-7544
ire	-7545
▁일조	-7546
▁황태자	-7547
치오	-7548
▁단식	-7549
▁발트	-7550
▁공의회	-7551
▁매사추세츠	-7552
▁부채	-7553
▁상서	-7554
▁괴롭	-7555
▁나스	-7556
▁퍼센트	-7557
▁아이슬란드	-7558
▁대웅	-7559
▁바리	-7560
▁시흥	-7561
▁도라	-7562
▁호위	-7563
▁우라늄	-7564
▁중추원	-7565
▁신속	-7566
▁암석	-7567
▁에버	-7568
▁기어	-7569
유행	-7570
▁부재	-7571
라이더	-7572
▁소유자	-7573
▁시나리오	-7574
▁구이	-7575
▁밟	-7576
▁다치	-7577
▁레바	-7578
▁협주곡	-7579
▁김기	-7580
▁도르	-7581
▁탈당	-7582
오피아	-7583
▁에티오피아	-7584
ace	-7585
▁교외	-7586
▁도루	-7587
▁어쩌	-7588
▁오비	-7589
▁내려지	-7590
▁위탁	-7591
▁지능	-7592
▁친왕	-7593
▁오노	-7594
▁오세	-7595
▁스페인어	-7596
▁에스토니아	-7597
▁고령	-7598
▁인연	-7599
▁친하	-7600
▁호프	-7601
ment	-7602
▁견디	-7603
▁실전	-7604
▁육지	-7605
pe	-7606
▁마약	-7607
▁얘기	-7608
▁여지	-7609
▁대전광역시	-7610
▁횟	-7611
▁봉쇄	-7612
▁상담	-7613
▁기인	-7614
▁신탁	-7615
▁조이	-7616
리케인	-7617
▁중심부	-7618
▁라이선스	-7619
▁닝	-7620
▁로열	-7621
▁서정	-7622
▁물리학자	-7623
야시	-7624
▁창고	-7625
▁평택	-7626
ide	-7627
마드	-7628
▁리비아	-7629
▁허리케인	-7630
▁슬로바키아	-7631
▁통근	-7632
▁파장	-7633
▁해소	-7634
▁푼	-7635
▁오사	-7636
▁하락	-7637
▁시선	-7638
▁즈음	-7639
▁136	-7640
▁현금	-7641
바이잔	-7642
▁148	-7643
▁사슬	-7644
▁전라도	-7645
▁할리우드	-7646
▁병행	-7647
▁배터리	-7648
▁애틀	-7649
▁흘리	-7650
석탑	-7651
▁의뢰	-7652
제리	-7653
▁신생	-7654
▁NBA	-7655
▁끓	-7656
▁호기	-7657
층석탑	-7658
의자	-7659
중국	-7660
하면	-7661
▁추세	-7662
▁이사회	-7663
▁1916	-7664
▁격투	-7665
▁부적	-7666
▁치즈	-7667
▁아제르	-7668
▁알아내	-7669
▁가로지르	-7670
▁스튜어트	-7671
▁극동	-7672
▁덮이	-7673
▁결혼식	-7674
▁낭만	-7675
▁순회	-7676
▁실시간	-7677
▁마이너	-7678
▁아제르바이잔	-7679
▁HT	-7680
▁바닷	-7681
▁TO	-7682
▁추출	-7683
▁갈리	-7684
▁닛폰	-7685
▁특집	-7686
▁허리	-7687
▁앓	-7688
승지	-7689
▁막내	-7690
▁아드	-7691
▁주행	-7692
▁파이어	-7693
아이	-7694
위원	-7695
▁서재	-7696
▁급격히	-7697
▁그로	-7698
▁성운	-7699
▁입당	-7700
▁우루과이	-7701
▁우세	-7702
지리아	-7703
▁나이지리아	-7704
▁동상	-7705
▁바스	-7706
▁조연	-7707
▁명제	-7708
▁사헌	-7709
▁솜	-7710
▁격퇴	-7711
▁IBM	-7712
▁네이션스	-7713
IM	-7714
▁라이언	-7715
▁되	-7716
▁동이	-7717
▁세션	-7718
▁첼시	-7719
▁아마도	-7720
▁패키지	-7721
▁작센	-7722
▁국무총리	-7723
▁DC	-7724
▁구도	-7725
▁다항	-7726
▁산림	-7727
▁원숭이	-7728
시피	-7729
▁기단	-7730
▁거론	-7731
▁되게	-7732
▁실장	-7733
▁전념	-7734
▁의약	-7735
▁쌍둥이	-7736
▁데이비스	-7737
바다	-7738
▁시초	-7739
▁138	-7740
▁노부나가	-7741
▁수습	-7742
▁워드	-7743
▁유동	-7744
▁박해	-7745
▁닷	-7746
거지	-7747
람쥐	-7748
▁가동	-7749
▁개그	-7750
▁저하	-7751
▁중위	-7752
▁포터	-7753
▁현종	-7754
▁구릉	-7755
▁솟	-7756
▁면허	-7757
▁반감	-7758
▁안성	-7759
▁한스	-7760
▁딕	-7761
▁객체	-7762
▁니아	-7763
▁분당	-7764
▁고소	-7765
▁신규	-7766
▁돌려	-7767
▁안기	-7768
▁페르디	-7769
▁브라우저	-7770
▁백색	-7771
▁약칭	-7772
▁평원	-7773
▁회고	-7774
▁리우스	-7775
▁백화점	-7776
▁구호	-7777
▁지류	-7778
▁깨달	-7779
▁극히	-7780
▁반경	-7781
▁후방	-7782
▁사헌부	-7783
cl	-7784
▁리틀	-7785
▁섬기	-7786
▁외치	-7787
▁치명	-7788
파르	-7789
▁경연	-7790
▁어울리	-7791
▁la	-7792
▁신한	-7793
나오	-7794
▁레논	-7795
▁360	-7796
▁구조물	-7797
▁시칠리아	-7798
타로	-7799
▁거제	-7800
▁시즈	-7801
▁해밀	-7802
▁펌	-7803
▁지선	-7804
▁성숙	-7805
▁냉각	-7806
▁후쿠시마	-7807
▁탐구	-7808
▁영의정	-7809
▁거행	-7810
▁환영	-7811
▁중성자	-7812
▁어라	-7813
▁뭉	-7814
▁고성	-7815
▁상공	-7816
▁토성	-7817
▁도미	-7818
▁이세	-7819
▁재위	-7820
양함	-7821
▁돌보	-7822
타나	-7823
▁최악	-7824
▁춘천	-7825
▁최상위	-7826
토모	-7827
▁그날	-7828
▁복선	-7829
▁익히	-7830
▁104	-7831
▁아부	-7832
▁바이오	-7833
▁가면	-7834
▁오바	-7835
▁LP	-7836
▁재현	-7837
▁피에	-7838
▁한쪽	-7839
▁라이브러리	-7840
▁결선	-7841
▁생식	-7842
▁게르만	-7843
대신	-7844
▁택시	-7845
▁해적	-7846
여래	-7847
래스카	-7848
▁En	-7849
▁감리	-7850
▁혈통	-7851
▁반도체	-7852
▁라트비아	-7853
▁그램	-7854
▁임용	-7855
곡리	-7856
리에	-7857
▁비리	-7858
▁별다르	-7859
▁동점	-7860
▁비시	-7861
▁차장	-7862
▁횟수	-7863
회장	-7864
▁성체	-7865
▁장학	-7866
▁춘추	-7867
베르토	-7868
마쓰	-7869
▁도장	-7870
▁트래	-7871
▁휴스턴	-7872
▁랄	-7873
▁송시	-7874
▁애틀랜	-7875
▁테이블	-7876
▁릉	-7877
데시	-7878
은색	-7879
타고	-7880
▁가짜	-7881
▁우위	-7882
▁주가	-7883
▁모니터	-7884
▁혀	-7885
▁어휘	-7886
▁올바르	-7887
ark	-7888
어버리	-7889
▁스트레스	-7890
브레	-7891
▁제독	-7892
오	-7893
▁데모	-7894
▁오피스	-7895
▁나비	-7896
▁왜냐	-7897
▁잔류	-7898
▁힘입	-7899
▁109	-7900
리니	-7901
▁Pr	-7902
▁소	-7903
▁주름	-7904
푸르트	-7905
▁개원	-7906
▁고인	-7907
▁뢰	-7908
하시	-7909
▁축하	-7910
▁행적	-7911
▁목판	-7912
▁현저	-7913
▁123	-7914
▁방송사	-7915
▁스톡	-7916
▁이케	-7917
▁옴	-7918
▁부당	-7919
▁하워드	-7920
▁정점	-7921
▁칼라	-7922
▁대학생	-7923
▁견제	-7924
▁호랑이	-7925
▁교황청	-7926
▁랄	-7927
▁억압	-7928
▁통증	-7929
▁성취	-7930
▁폭동	-7931
▁대표작	-7932
▁아홉	-7933
▁사우루스	-7934
▁여당	-7935
▁코무네	-7936
▁햇	-7937
면체	-7938
▁공수	-7939
▁육체	-7940
▁주주	-7941
고쿠	-7942
▁소매	-7943
▁열정	-7944
▁야구장	-7945
차기	-7946
▁매입	-7947
▁바나	-7948
▁공산주의자	-7949
란히	-7950
포드	-7951
던	-7952
더슨	-7953
▁공천	-7954
▁한인	-7955
▁루프	-7956
▁이식	-7957
▁축적	-7958
▁민회	-7959
▁적당	-7960
▁고장	-7961
▁순교	-7962
▁연하	-7963
▁타이거즈	-7964
▁헐	-7965
▁NC	-7966
▁아담	-7967
▁펜실	-7968
베이니아	-7969
▁펜실베이니아	-7970
랜트	-7971
▁연합회	-7972
▁벌금	-7973
▁시바	-7974
▁명령어	-7975
▁인플	-7976
헤이	-7977
▁휠	-7978
▁143	-7979
▁카자흐스탄	-7980
▁노바	-7981
▁응원	-7982
▁주역	-7983
▁터치	-7984
▁종로구	-7985
은이	-7986
▁AK	-7987
▁AR	-7988
▁경관	-7989
▁광물	-7990
▁분비	-7991
▁암시	-7992
▁처녀	-7993
▁팔라	-7994
글리	-7995
▁너비	-7996
▁분기점	-7997
법인	-7998
▁가죽	-7999
▁아예	-8000
▁동아일보	-8001
▁수련	-8002
▁오해	-8003
▁누이	-8004
▁상점	-8005
▁리우	-8006
▁베스	-8007
▁부르크	-8008
바시	-8009
▁다발	-8010
▁청춘	-8011
▁신조	-8012
▁제하	-8013
▁해명	-8014
▁돋	-8015
▁롤링	-8016
▁사모	-8017
▁상단	-8018
▁이화	-8019
▁놀랍	-8020
▁산란	-8021
▁성사	-8022
▁유한	-8023
▁폭행	-8024
▁팡	-8025
▁CS	-8026
▁존속	-8027
▁피츠	-8028
▁이에야스	-8029
▁기적	-8030
▁목재	-8031
▁발해	-8032
▁신주	-8033
▁증대	-8034
▁토모	-8035
▁소나타	-8036
▁이윤	-8037
▁히메	-8038
AL	-8039
스틴	-8040
▁비싸	-8041
▁염기	-8042
▁자민	-8043
▁제프	-8044
▁출처	-8045
▁김경	-8046
▁마야	-8047
▁차이점	-8048
▁비자	-8049
▁플라이	-8050
▁킥	-8051
▁계시	-8052
▁근교	-8053
▁상반	-8054
▁신념	-8055
▁다이아몬드	-8056
▁CC	-8057
▁col	-8058
▁유로파	-8059
▁조선일보	-8060
▁다투	-8061
▁블라디미르	-8062
산동	-8063
▁에미	-8064
▁컴파	-8065
▁펑크	-8066
ile	-8067
▁규범	-8068
▁경상도	-8069
▁그동안	-8070
▁남동부	-8071
▁블로그	-8072
▁광학	-8073
▁내보내	-8074
▁박람회	-8075
▁생산량	-8076
▁관구	-8077
▁유죄	-8078
▁음료	-8079
▁지르	-8080
▁통영	-8081
▁왓	-8082
▁부설	-8083
▁래퍼	-8084
▁법조	-8085
▁시골	-8086
▁보석	-8087
▁충전	-8088
러스트	-8089
▁알코올	-8090
▁룬	-8091
▁갈라	-8092
▁상용	-8093
▁운하	-8094
▁친일파	-8095
▁나트	-8096
브리지	-8097
권자	-8098
라클	-8099
ies	-8100
▁다녀	-8101
▁만남	-8102
▁깨닫	-8103
▁부제	-8104
▁태양계	-8105
▁무지	-8106
▁설탕	-8107
▁카롤	-8108
▁황실	-8109
▁갇	-8110
나스	-8111
▁Op	-8112
▁시어	-8113
▁적분	-8114
▁단단	-8115
기업	-8116
▁동국	-8117
▁사육	-8118
▁이타	-8119
▁티스	-8120
비나	-8121
살이	-8122
▁누나	-8123
▁확신	-8124
▁흠	-8125
▁거칠	-8126
▁상사	-8127
▁조세	-8128
▁라오스	-8129
레기	-8130
▁비유	-8131
xt	-8132
▁공관	-8133
▁공습	-8134
▁공익	-8135
▁말라	-8136
▁경찰청	-8137
▁베어스	-8138
▁왜냐하면	-8139
수리	-8140
▁대폭	-8141
▁히사	-8142
▁트위터	-8143
▁브라더스	-8144
▁126	-8145
▁중의원	-8146
▁카를로스	-8147
▁마디	-8148
▁신민	-8149
▁합하	-8150
▁CON	-8151
▁장거리	-8152
도리	-8153
▁협박	-8154
▁112	-8155
▁빨간	-8156
▁트윈스	-8157
▁레일	-8158
▁미르	-8159
▁품종	-8160
▁루이지	-8161
ite	-8162
▁어원	-8163
▁굉장히	-8164
▁구축함	-8165
▁이산화	-8166
▁시베리아	-8167
▁국소	-8168
▁후사	-8169
▁107	-8170
▁법무부	-8171
▁경보	-8172
▁우유	-8173
▁RNA	-8174
▁키프로스	-8175
▁수법	-8176
▁이순신	-8177
▁거북	-8178
▁언니	-8179
▁제재	-8180
▁사업자	-8181
▁창원시	-8182
▁Te	-8183
▁왜곡	-8184
▁우호	-8185
▁갇히	-8186
▁헤비	-8187
▁구출	-8188
▁범인	-8189
▁허위	-8190
▁삼층석탑	-8191
든	-8192
▁is	-8193
▁우승자	-8194
▁조종사	-8195
▁신선	-8196
▁교과서	-8197
▁플러스	-8198
▁가군	-8199
▁아랍어	-8200
고래	-8201
▁당주	-8202
▁성단	-8203
▁입원	-8204
▁곡인	-8205
▁맥락	-8206
▁여파	-8207
▁옆면	-8208
▁117	-8209
▁할머니	-8210
도바	-8211
▁몰래	-8212
▁소셜	-8213
▁실체	-8214
▁줄무늬	-8215
▁탐사선	-8216
스부르크	-8217
▁뉘	-8218
랑카	-8219
▁송시열	-8220
▁보증	-8221
▁천장	-8222
▁포럼	-8223
▁근원	-8224
▁진하	-8225
ft	-8226
▁결함	-8227
▁맥주	-8228
▁거울	-8229
▁꾀하	-8230
▁지평	-8231
▁풀리	-8232
▁핸드	-8233
▁연쇄	-8234
▁인문	-8235
▁대웅전	-8236
▁동문	-8237
▁드로	-8238
▁퐁	-8239
갈색	-8240
지붕	-8241
▁소원	-8242
▁임하	-8243
▁피우	-8244
▁빈곤	-8245
다지	-8246
▁네스	-8247
▁인체	-8248
▁평의회	-8249
▁도마뱀붙이	-8250
▁다지	-8251
▁이경	-8252
▁희생자	-8253
▁SE	-8254
▁교정	-8255
▁세라	-8256
▁일방	-8257
▁350	-8258
▁가마쿠라	-8259
▁제니	-8260
▁일반인	-8261
▁이브	-8262
▁화장실	-8263
▁신약	-8264
▁com	-8265
▁통틀	-8266
▁성별	-8267
▁제대	-8268
▁줄리	-8269
▁양키스	-8270
▁테이프	-8271
▁탐색	-8272
ound	-8273
시타	-8274
▁해고	-8275
▁121	-8276
▁빨간색	-8277
▁삼성전자	-8278
▁아카데미상	-8279
승부	-8280
▁날씨	-8281
▁만일	-8282
▁샘플	-8283
▁후궁	-8284
▁고속도	-8285
끼리	-8286
▁자아	-8287
▁진급	-8288
▁CF	-8289
▁노	-8290
▁173	-8291
▁맘	-8292
▁엿	-8293
▁철회	-8294
▁택하	-8295
▁펠리	-8296
▁필터	-8297
▁137	-8298
▁개교	-8299
▁승계	-8300
▁바오로	-8301
▁전자기	-8302
무스	-8303
▁가져가	-8304
ath	-8305
▁요동	-8306
조부	-8307
▁결코	-8308
▁비추	-8309
▁ㅓ서	-8310
▁연합국	-8311
의장	-8312
ond	-8313
▁지미	-8314
▁근로자	-8315
▁킴	-8316
연합	-8317
▁불타	-8318
▁비르	-8319
▁양측	-8320
▁포병	-8321
▁물려받	-8322
▁가축	-8323
▁놓치	-8324
▁방화	-8325
▁서진	-8326
▁라이너	-8327
▁필리프	-8328
OL	-8329
▁냄	-8330
▁뒤집	-8331
▁문예	-8332
▁진공	-8333
▁1894	-8334
▁궁극	-8335
▁바우	-8336
▁화해	-8337
▁수용체	-8338
▁헥	-8339
▁왕복	-8340
게이머	-8341
▁총독부	-8342
▁프로게이머	-8343
ory	-8344
▁가장자리	-8345
마루	-8346
▁투옥	-8347
베니아	-8348
▁다크	-8349
▁문구	-8350
▁아야	-8351
▁태권	-8352
▁세속	-8353
▁워터	-8354
▁주이	-8355
▁최강	-8356
man	-8357
▁미션	-8358
▁수색	-8359
▁일가	-8360
▁ㅁ	-8361
그레이드	-8362
▁붐	-8363
수소	-8364
▁믹스	-8365
▁113	-8366
▁클라우드	-8367
규모	-8368
크라	-8369
▁공민	-8370
▁레온	-8371
▁칭찬	-8372
▁슬로베니아	-8373
▁공방	-8374
▁크리스토퍼	-8375
대기	-8376
▁핵무기	-8377
▁업그레이드	-8378
▁낫	-8379
▁용병	-8380
▁도미니	-8381
▁알제리	-8382
▁극심	-8383
▁IM	-8384
▁유년	-8385
▁카카	-8386
▁멜로디	-8387
ov	-8388
▁농림	-8389
▁뒷면	-8390
▁게스트	-8391
▁대의원	-8392
▁최대한	-8393
▁LC	-8394
▁계정	-8395
▁대피	-8396
▁서민	-8397
▁즉각	-8398
▁바티칸	-8399
▁땃	-8400
단체	-8401
톨레	-8402
▁드레	-8403
▁적도	-8404
그리	-8405
▁군정	-8406
▁성도	-8407
▁브로드	-8408
로이	-8409
번스	-8410
▁그냥	-8411
▁로이	-8412
▁신시	-8413
▁치안	-8414
▁두껍	-8415
▁공백	-8416
▁둥지	-8417
▁곤란	-8418
▁하동	-8419
▁코스타	-8420
▁124	-8421
▁강서	-8422
▁김현	-8423
▁무어	-8424
▁혈관	-8425
셰비	-8426
▁".	-8427
▁먼지	-8428
▁미키	-8429
▁초월	-8430
▁타당	-8431
퍼런스	-8432
iver	-8433
▁프랑크푸르트	-8434
▁게이지	-8435
▁독일인	-8436
아키	-8437
▁명하	-8438
▁부딪	-8439
▁몬스터	-8440
▁개종	-8441
▁모친	-8442
▁캐시	-8443
▁국내외	-8444
▁넘치	-8445
▁로우	-8446
▁제인	-8447
▁시뮬	-8448
▁z	-8449
▁On	-8450
아프리카	-8451
▁횡단	-8452
▁라ᄀ	-8453
▁륙	-8454
로니	-8455
mer	-8456
▁관음	-8457
▁판본	-8458
▁탤런트	-8459
박스	-8460
▁스캔	-8461
▁제치	-8462
▁야마토	-8463
▁닫히	-8464
▁서초	-8465
▁항쟁	-8466
▁구절	-8467
블리	-8468
▁상표	-8469
▁피오	-8470
▁자연수	-8471
▁World	-8472
▁기질	-8473
▁내정	-8474
▁성문	-8475
▁욕구	-8476
▁오리콘	-8477
▁커뮤니케이션	-8478
▁SU	-8479
▁be	-8480
▁가루	-8481
▁배후	-8482
▁고고학	-8483
▁일생	-8484
▁학계	-8485
▁그대	-8486
▁돌격	-8487
▁말씀	-8488
▁제압	-8489
린스	-8490
▁발리	-8491
▁야쿠	-8492
▁초록	-8493
▁쑤	-8494
▁디렉	-8495
▁원전	-8496
▁이거	-8497
▁자선	-8498
대원군	-8499
▁김정일	-8500
▁감자	-8501
▁예조	-8502
▁체크	-8503
▁남서부	-8504
▁양호	-8505
▁유저	-8506
▁검찰청	-8507
▁베네딕	-8508
▁아랫	-8509
▁영산	-8510
▁풍자	-8511
▁다가오	-8512
▁New	-8513
▁1890	-8514
▁CR	-8515
▁분명히	-8516
ich	-8517
▁옵션	-8518
▁우파	-8519
▁침투	-8520
▁자비	-8521
▁소규모	-8522
줄기	-8523
축구	-8524
▁브리지	-8525
▁라이온즈	-8526
▁데르	-8527
▁맑	-8528
▁시위대	-8529
▁윤치호	-8530
▁러시	-8531
▁어미	-8532
▁오프닝	-8533
드르	-8534
▁정세	-8535
▁평정	-8536
▁연이	-8537
▁조부	-8538
▁다녀오	-8539
▁베니	-8540
▁선비	-8541
▁114	-8542
▁냉전	-8543
▁이준	-8544
▁뭐	-8545
▁대거	-8546
▁안토니오	-8547
▁땃쥐	-8548
▁이소	-8549
▁사상자	-8550
▁EC	-8551
▁과반	-8552
▁김규	-8553
▁떨치	-8554
▁알루미	-8555
▁디	-8556
▁시정	-8557
프레스	-8558
▁깎	-8559
▁자오	-8560
▁자택	-8561
▁징계	-8562
▁기업인	-8563
▁알아보	-8564
▁므	-8565
▁대명	-8566
▁매매	-8567
▁구스타	-8568
▁을지	-8569
▁컷	-8570
▁미노	-8571
▁정주	-8572
▁증손	-8573
▁블랙홀	-8574
▁빛나	-8575
▁군중	-8576
▁어긋	-8577
▁원로원	-8578
IP	-8579
▁관세	-8580
▁봉건	-8581
▁연승	-8582
▁태극	-8583
렉스	-8584
ign	-8585
▁가드	-8586
▁이남	-8587
▁지침	-8588
▁118	-8589
▁이드	-8590
▁경신	-8591
▁구와	-8592
▁방사선	-8593
ial	-8594
▁괴물	-8595
▁중형	-8596
타리오	-8597
▁히어로즈	-8598
▁일리노	-8599
▁파이널	-8600
▁드라이버	-8601
러드	-8602
조건	-8603
▁만료	-8604
▁주부	-8605
▁매니저	-8606
▁풀려나	-8607
▁대부	-8608
▁악단	-8609
▁요정	-8610
지스	-8611
▁도청	-8612
▁예시	-8613
▁자음	-8614
▁비로소	-8615
▁플래시	-8616
▁1898	-8617
▁일리노이	-8618
▁크리스티안	-8619
▁답변	-8620
▁세이브	-8621
▁파란색	-8622
▁프로덕	-8623
▁승부차기	-8624
▁Sc	-8625
▁본국	-8626
▁재상	-8627
▁갑작스럽	-8628
▁럼	-8629
▁벵	-8630
▁서자	-8631
▁학명	-8632
▁115	-8633
▁경찰관	-8634
▁빔	-8635
▁용이	-8636
▁저널	-8637
▁진사	-8638
▁체스	-8639
hn	-8640
저지	-8641
▁공조	-8642
▁비기	-8643
▁체조	-8644
▁미하일	-8645
▁SD	-8646
▁공감	-8647
▁두려	-8648
▁스칼	-8649
▁인명	-8650
황후	-8651
▁종착	-8652
▁디비시온	-8653
▁하르	-8654
▁통치자	-8655
▁극장판	-8656
닐라	-8657
▁순조	-8658
▁지인	-8659
▁트로이	-8660
교도	-8661
▁우측	-8662
▁헬리	-8663
벨트	-8664
▁변이	-8665
▁컨셉	-8666
▁우즈베	-8667
▁뉴턴	-8668
▁전년	-8669
▁무승부	-8670
고스	-8671
▁밀집	-8672
▁키르	-8673
▁반지름	-8674
하루	-8675
▁한족	-8676
▁희귀	-8677
▁계열사	-8678
아먹	-8679
▁남구	-8680
▁동정	-8681
▁축출	-8682
▁봉안	-8683
▁앵글	-8684
▁직면	-8685
▁하프	-8686
▁모로코	-8687
▁기각	-8688
▁카우	-8689
▁레바논	-8690
▁챌린지	-8691
히코	-8692
▁케	-8693
▁극작	-8694
▁로그	-8695
▁천하	-8696
▁뉴저지	-8697
▁시가지	-8698
▁`	-8699
▁커널	-8700
▁웨스턴	-8701
▁통보	-8702
▁JT	-8703
▁남미	-8704
▁대변인	-8705
문트	-8706
▁무성	-8707
▁선도	-8708
▁외모	-8709
▁혜택	-8710
▁쫓겨나	-8711
마이오스	-8712
바닥	-8713
보르	-8714
▁가옥	-8715
▁외야수	-8716
▁기증	-8717
▁소모	-8718
▁취업	-8719
▁필사	-8720
▁헬기	-8721
▁그레고	-8722
기념	-8723
▁정변	-8724
▁성리학	-8725
▁왕세	-8726
▁패럴	-8727
▁광해군	-8728
▁연예인	-8729
▁체코슬로	-8730
▁체코슬로바키아	-8731
▁모나	-8732
▁부스	-8733
▁사위	-8734
▁케냐	-8735
▁GS	-8736
▁마력	-8737
▁말미	-8738
▁센티	-8739
▁129	-8740
▁범유행	-8741
타니	-8742
▁켈리	-8743
▁더니	-8744
레타	-8745
▁ㅕㅆ	-8746
▁렐	-8747
▁믹	-8748
▁캉	-8749
▁코카	-8750
▁폭넓	-8751
▁개막전	-8752
▁웹툰	-8753
▁젊은이	-8754
부리	-8755
▁핑크	-8756
▁학업	-8757
▁닦	-8758
먼스	-8759
쟁이	-8760
타리	-8761
▁GP	-8762
▁실망	-8763
▁맏	-8764
미사	-8765
▁맥도	-8766
▁미세	-8767
▁비주	-8768
▁의약품	-8769
▁글루	-8770
▁뇌물	-8771
▁러셀	-8772
▁발급	-8773
▁캔자스	-8774
▁알루미늄	-8775
rom	-8776
▁빌라	-8777
▁종속	-8778
▁은데	-8779
▁옳	-8780
▁리뷰	-8781
▁중산	-8782
▁천재	-8783
▁쾌속	-8784
▁척추	-8785
▁터뜨리	-8786
▁숙청	-8787
▁승자	-8788
▁종래	-8789
▁총사령	-8790
▁스타리그	-8791
개미	-8792
▁호출	-8793
▁마운트	-8794
▁예하	-8795
▁첨단	-8796
▁케빈	-8797
▁쯔	-8798
▁퉁	-8799
▁바빌	-8800
▁재선	-8801
▁재혼	-8802
▁회관	-8803
▁로비	-8804
▁어른	-8805
▁황족	-8806
▁감싸	-8807
▁기차	-8808
▁요건	-8809
▁퇴임	-8810
▁끌어들이	-8811
▁벨라루스	-8812
▁Ne	-8813
▁창출	-8814
ph	-8815
속기	-8816
▁사간	-8817
▁서신	-8818
▁화력	-8819
▁남작	-8820
▁넘어서	-8821
▁확실히	-8822
슬러	-8823
▁두려워하	-8824
▁밝기	-8825
▁예고	-8826
▁괘	-8827
▁웬	-8828
수록	-8829
▁벽돌	-8830
▁일컬	-8831
▁카디	-8832
▁III	-8833
▁기술자	-8834
▁스크립	-8835
방송공사	-8836
TS	-8837
▁오오	-8838
▁토미	-8839
▁스트리	-8840
▁장례식	-8841
▁각도	-8842
▁유방	-8843
▁중공	-8844
우트	-8845
▁옹립	-8846
▁전속	-8847
▁파산	-8848
▁형조	-8849
느러미	-8850
▁조지프	-8851
천리	-8852
▁난징	-8853
▁부피	-8854
▁양반	-8855
▁응시	-8856
▁142	-8857
▁무명	-8858
▁임원	-8859
화물	-8860
▁등기	-8861
▁생체	-8862
▁토양	-8863
▁브리튼	-8864
▁1899	-8865
▁감행	-8866
▁워크	-8867
▁부여받	-8868
▁월요일	-8869
▁천문대	-8870
▁타임스	-8871
테르부르크	-8872
▁대패	-8873
▁어긋나	-8874
▁관제	-8875
▁미들	-8876
▁뒷받침	-8877
▁레슬링	-8878
▁세이부	-8879
▁유라	-8880
▁마르티	-8881
▁청주시	-8882
▁프란츠	-8883
▁콕	-8884
진군	-8885
urn	-8886
▁워너	-8887
▁케임	-8888
▁플라스틱	-8889
시즘	-8890
포로	-8891
▁대치	-8892
▁배수	-8893
▁컴백	-8894
▁토끼	-8895
▁폭포	-8896
▁더글러스	-8897
▁성폭	-8898
▁저주	-8899
▁찌르	-8900
▁학기	-8901
셰비키	-8902
코딩	-8903
▁무함	-8904
▁소생	-8905
롤라이나	-8906
▁ch	-8907
▁리프	-8908
▁발병	-8909
▁얹	-8910
▁구경	-8911
▁설화	-8912
▁지출	-8913
▁힌두교	-8914
▁CJ	-8915
▁룩셈	-8916
▁시범	-8917
▁총칭	-8918
▁하얗	-8919
▁거래소	-8920
▁프로덕션	-8921
로우	-8922
▁유진	-8923
▁축물	-8924
▁룩셈부르크	-8925
▁거세	-8926
▁청산	-8927
토르	-8928
함수	-8929
▁안테	-8930
▁자크	-8931
▁정려	-8932
▁사쿠라	-8933
ction	-8934
▁사본	-8935
▁오크	-8936
▁지켜	-8937
▁대서양	-8938
틱스	-8939
▁페널	-8940
▁스즈키	-8941
도스	-8942
럴드	-8943
▁신원	-8944
▁지옥	-8945
▁설교	-8946
▁화상	-8947
▁화자	-8948
▁혼동	-8949
▁희곡	-8950
▁1902	-8951
▁만성	-8952
▁원천	-8953
▁온타리오	-8954
▁광주광역시	-8955
두리	-8956
▁동네	-8957
▁벨트	-8958
▁의자	-8959
▁지치	-8960
파이어	-8961
▁금요일	-8962
▁잃어버리	-8963
▁가야	-8964
▁왼손	-8965
▁부의장	-8966
브르	-8967
ens	-8968
▁운수	-8969
▁중복	-8970
▁Man	-8971
▁그래미	-8972
▁ID	-8973
▁공적	-8974
▁피신	-8975
▁광둥	-8976
▁명종	-8977
▁프톨레	-8978
▁프톨레마이오스	-8979
MA	-8980
덩이	-8981
▁보위	-8982
▁위쪽	-8983
▁붙잡히	-8984
▁플랫폼	-8985
치기	-8986
lan	-8987
▁독서	-8988
▁물품	-8989
▁병기	-8990
▁스턴	-8991
▁끊임없이	-8992
타주	-8993
▁발기	-8994
▁피겨	-8995
▁키보드	-8996
pp	-8997
▁그릇	-8998
▁니코	-8999
▁연산자	-9000
▁대성당	-9001
▁감마	-9002
▁우체	-9003
▁체류	-9004
▁지식인	-9005
샤바	-9006
▁정성	-9007
▁태그	-9008
▁표적	-9009
▁혐오	-9010
▁도카이	-9011
▁수분	-9012
▁바깥쪽	-9013
테	-9014
▁연꽃	-9015
▁서류	-9016
▁한	-9017
▁''	-9018
▁강변	-9019
▁단절	-9020
▁뛰어	-9021
▁시코	-9022
▁채소	-9023
▁코시	-9024
▁포획	-9025
▁아리아	-9026
▁BS	-9027
▁대손	-9028
▁원종	-9029
▁의의	-9030
글라	-9031
▁마녀	-9032
▁선배	-9033
▁영등	-9034
▁기사단	-9035
▁간선	-9036
▁게리	-9037
▁드림	-9038
▁시가	-9039
▁외관	-9040
TA	-9041
▁국영	-9042
▁비석	-9043
▁사슴	-9044
▁응하	-9045
▁코끼리	-9046
▁으려고	-9047
▁촉매	-9048
▁탄도	-9049
▁하단	-9050
lic	-9051
▁개소	-9052
▁갈수록	-9053
▁참의	-9054
▁고양시	-9055
▁아돌프	-9056
▁흔들리	-9057
▁죠	-9058
▁깃발	-9059
▁동행	-9060
▁영문	-9061
▁주조	-9062
▁밍	-9063
▁함정	-9064
▁한테	-9065
▁춥	-9066
▁마스크	-9067
▁비행장	-9068
▁얽	-9069
▁버드	-9070
▁서리	-9071
▁교통국	-9072
▁페르디난	-9073
▁기니	-9074
▁부회장	-9075
▁제네바	-9076
폴리	-9077
▁유체	-9078
크로	-9079
▁김지	-9080
▁정적	-9081
▁헌신	-9082
▁소나무	-9083
▁몫	-9084
▁김창	-9085
▁입성	-9086
▁매카트니	-9087
그룹	-9088
▁단축	-9089
▁대합	-9090
▁매수	-9091
▁선행	-9092
▁강동	-9093
▁생생	-9094
▁정동	-9095
▁이용자	-9096
TC	-9097
카가	-9098
▁수확	-9099
▁드러머	-9100
▁스위치	-9101
▁제국주의	-9102
▁습지	-9103
▁익스프레스	-9104
국사	-9105
▁단의	-9106
▁동학	-9107
▁부가	-9108
▁스폰	-9109
▁보이스	-9110
▁토착종	-9111
▁포켓몬스터	-9112
ary	-9113
▁광대	-9114
▁광명	-9115
▁아산	-9116
▁울프	-9117
▁해밀턴	-9118
히토	-9119
out	-9120
▁가환	-9121
▁간토	-9122
▁압둘	-9123
▁초신	-9124
▁폭격기	-9125
▁직결	-9126
▁서유럽	-9127
▁고아	-9128
▁역량	-9129
▁화강	-9130
▁경성부	-9131
▁부작용	-9132
▁ᄐ	-9133
▁면제	-9134
▁색채	-9135
▁이단	-9136
▁아이오	-9137
▁호르몬	-9138
▁1901	-9139
▁러시아어	-9140
구르	-9141
▁약자	-9142
▁어류	-9143
▁입국	-9144
▁코믹스	-9145
ert	-9146
▁브뤼	-9147
▁생략	-9148
▁세비	-9149
▁일산	-9150
▁조립	-9151
▁트리플	-9152
짓점	-9153
▁공리	-9154
▁열도	-9155
▁사이토	-9156
▁나노	-9157
▁민감	-9158
▁본문	-9159
▁전방	-9160
▁축조	-9161
▁꼭짓점	-9162
테인	-9163
ach	-9164
▁경과	-9165
▁논하	-9166
▁복용	-9167
▁퀘벡	-9168
▁쓰촨	-9169
피어	-9170
▁갱신	-9171
▁보트	-9172
▁성지	-9173
▁여운	-9174
▁임관	-9175
▁크롬	-9176
▁알렉산드르	-9177
타임	-9178
▁No	-9179
▁소시	-9180
나우	-9181
▁체르	-9182
▁울산광역시	-9183
모스	-9184
▁권총	-9185
▁날카	-9186
▁염증	-9187
▁표방	-9188
▁코코	-9189
▁특권	-9190
▁하치	-9191
▁그다지	-9192
▁삿포로	-9193
▁연기자	-9194
▁영국인	-9195
미트	-9196
▁다항식	-9197
디나	-9198
▁자작	-9199
▁주되	-9200
▁커스	-9201
▁지켜보	-9202
ys	-9203
▁기숙	-9204
▁버티	-9205
▁수축	-9206
▁체중	-9207
▁입각	-9208
▁정립	-9209
▁정문	-9210
▁아시카가	-9211
▁렘	-9212
▁염색체	-9213
자르	-9214
▁누적	-9215
▁무궁	-9216
▁불꽃	-9217
▁실버	-9218
▁바이킹	-9219
▁점성술	-9220
LE	-9221
▁검열	-9222
▁드라	-9223
▁손꼽	-9224
▁현은	-9225
일으키	-9226
▁불러일으키	-9227
▁쿄	-9228
▁MB	-9229
▁갈릴	-9230
▁김제	-9231
▁동조	-9232
▁보복	-9233
▁원료	-9234
▁카미	-9235
▁간단히	-9236
LS	-9237
▁서문	-9238
▁이현	-9239
▁차르	-9240
루아	-9241
▁엔딩	-9242
IG	-9243
▁치아	-9244
▁사회당	-9245
▁옥스퍼드	-9246
링턴	-9247
▁두께	-9248
▁슈팅	-9249
▁박지	-9250
▁페니	-9251
▁134	-9252
▁고산	-9253
▁조수	-9254
▁토기	-9255
▁학대	-9256
레슬링	-9257
▁개인전	-9258
▁공고	-9259
▁선동	-9260
▁호모	-9261
▁광저우	-9262
▁장기간	-9263
▁파이터	-9264
▁케임브리지	-9265
▁보헤	-9266
▁원본	-9267
▁카프	-9268
▁크레이	-9269
▁}	-9270
▁썰	-9271
내리	-9272
▁어뢰	-9273
▁모서리	-9274
▁쓰레기	-9275
▁요르단	-9276
▁무함마드	-9277
▁아라비아	-9278
▁례	-9279
그라	-9280
사리	-9281
▁분수	-9282
▁연봉	-9283
▁하비	-9284
▁KIA	-9285
▁푸에르	-9286
▁공예	-9287
▁대두	-9288
▁불신	-9289
▁토요	-9290
베트남	-9291
▁마우	-9292
▁상금	-9293
▁스님	-9294
노미야	-9295
▁갈리아	-9296
▁대구광역시	-9297
ug	-9298
펜하	-9299
▁독성	-9300
▁삼촌	-9301
▁All	-9302
대장	-9303
▁샤	-9304
▁소말	-9305
▁시리	-9306
▁THE	-9307
▁노태우	-9308
▁사업가	-9309
▁1903	-9310
기스	-9311
▁레즈	-9312
▁좌측	-9313
▁직경	-9314
▁전염병	-9315
▁가역	-9316
▁공명	-9317
▁극대	-9318
▁섹스	-9319
▁훔치	-9320
▁아리스토	-9321
▁루타	-9322
▁산출	-9323
▁캐서	-9324
▁프로레슬링	-9325
▁쟈	-9326
ase	-9327
▁남매	-9328
▁미륵	-9329
▁트로피	-9330
▁패밀리	-9331
▁피고인	-9332
▁1884	-9333
카미	-9334
▁개화	-9335
▁군산	-9336
▁One	-9337
▁페널티	-9338
▁미시시피	-9339
▁아인슈타인	-9340
▁Gr	-9341
▁회상	-9342
▁노보	-9343
▁오쿠	-9344
▁어찌	-9345
▁타케	-9346
▁홈구장	-9347
아웃	-9348
▁패널	-9349
테르담	-9350
▁당연히	-9351
▁신도비	-9352
정리	-9353
카타	-9354
▁교대	-9355
▁다마	-9356
▁날카롭	-9357
▁만주국	-9358
▁이성계	-9359
▁아브	-9360
▁쓰시마	-9361
▁알렉산드리아	-9362
처스	-9363
퀘어	-9364
▁강간	-9365
▁구형	-9366
▁어둠	-9367
▁이병	-9368
▁터보	-9369
▁언어학	-9370
▁EX	-9371
▁메커	-9372
▁정선	-9373
▁중령	-9374
▁지도부	-9375
올로	-9376
▁라그	-9377
▁퇴역	-9378
▁하리	-9379
▁관광지	-9380
▁뮤지션	-9381
ke	-9382
▁로저	-9383
▁이관	-9384
▁쥐과	-9385
▁도널드	-9386
▁AN	-9387
▁스텔	-9388
▁표기법	-9389
▁릿	-9390
▁에콰	-9391
▁질소	-9392
▁드레스	-9393
▁프레드	-9394
▁에콰도르	-9395
라이어	-9396
▁검출	-9397
▁니콜라이	-9398
▁군함	-9399
▁클라이	-9400
▁강대	-9401
▁이태	-9402
▁조형	-9403
▁퇴적	-9404
▁헌정	-9405
▁아폴로	-9406
▁야마구치	-9407
▁Cl	-9408
▁깨지	-9409
▁실재	-9410
▁방글라	-9411
▁충청도	-9412
▁방글라데시	-9413
▁비타	-9414
▁제로	-9415
▁함선	-9416
▁히타	-9417
▁1800	-9418
▁도요토미	-9419
텍처	-9420
▁구스	-9421
▁기분	-9422
▁대문	-9423
▁우치	-9424
▁원더	-9425
▁파병	-9426
▁조반니	-9427
▁발렌시아	-9428
▁아키텍처	-9429
▁LA	-9430
▁공황	-9431
▁김홍	-9432
▁실무	-9433
▁슬라브	-9434
▁우회	-9435
▁꼭대기	-9436
▁더욱이	-9437
▁프란체	-9438
▁농부	-9439
▁뒤쪽	-9440
▁묶이	-9441
▁물가	-9442
▁복합체	-9443
▁내걸	-9444
▁전위	-9445
▁마르틴	-9446
▁히로시	-9447
▁경작	-9448
▁반공	-9449
라이언트	-9450
그레	-9451
푸르	-9452
▁의결	-9453
▁정유	-9454
▁득표율	-9455
리코	-9456
▁도선	-9457
▁비뉴	-9458
사이드	-9459
테이션	-9460
▁마르코	-9461
▁곡물	-9462
▁인질	-9463
▁장벽	-9464
▁하차	-9465
▁클라이언트	-9466
방울	-9467
▁건륭	-9468
▁단면	-9469
▁달걀	-9470
▁마키	-9471
▁삼국지	-9472
▁컨트리	-9473
▁카사	-9474
사우	-9475
▁까닭	-9476
▁당수	-9477
▁돌기	-9478
▁발칸	-9479
▁상고	-9480
▁철폐	-9481
▁해남	-9482
▁기념관	-9483
▁콤팩트	-9484
▁회피	-9485
아들	-9486
ree	-9487
▁진전	-9488
▁토시	-9489
▁거짓말	-9490
니시	-9491
▁흥선	-9492
▁소방서	-9493
나미	-9494
▁간신	-9495
▁기념비	-9496
▁총대주교	-9497
▁가오	-9498
▁상가	-9499
▁선우	-9500
▁전복	-9501
▁리더십	-9502
간지	-9503
▁밀란	-9504
▁방사성	-9505
▁분출	-9506
▁염소	-9507
▁유부	-9508
▁가브리	-9509
▁감안	-9510
▁미라	-9511
▁상경	-9512
▁용서	-9513
▁소행성	-9514
▁그레이트	-9515
▁일렉트로	-9516
▁북아프리카	-9517
▁강희	-9518
▁에밀	-9519
▁활주	-9520
▁소수자	-9521
▁아나키	-9522
▁에디션	-9523
개골	-9524
▁분량	-9525
▁전구	-9526
▁창녕	-9527
▁취항	-9528
▁코믹	-9529
▁카를로	-9530
▁을까	-9531
가르	-9532
▁IN	-9533
▁경인	-9534
▁자형	-9535
가와현	-9536
▁메커니즘	-9537
▁팟	-9538
불교	-9539
산맥	-9540
하키	-9541
▁권장	-9542
▁기슭	-9543
▁로라	-9544
▁무슨	-9545
▁우물	-9546
▁남동생	-9547
▁모리스	-9548
▁팰	-9549
▁가산	-9550
▁궁중	-9551
▁냄새	-9552
▁대출	-9553
▁상응	-9554
▁중앙아시아	-9555
네마	-9556
▁CN	-9557
▁시야	-9558
▁신축	-9559
▁정화	-9560
▁되돌리	-9561
▁복소수	-9562
ass	-9563
▁데카	-9564
▁이북	-9565
▁with	-9566
▁견인	-9567
▁깨끗	-9568
▁발령	-9569
▁상트	-9570
▁한층	-9571
▁교도소	-9572
▁민간인	-9573
▁스토어	-9574
▁세바	-9575
▁현감	-9576
▁다케다	-9577
▁러스	-9578
▁맞붙	-9579
▁모모	-9580
▁반군	-9581
▁소자	-9582
▁220	-9583
▁관절	-9584
▁등용	-9585
▁수목	-9586
▁기관총	-9587
▁뉴욕주	-9588
▁와일드	-9589
▁볼리비아	-9590
▁Br	-9591
▁막스	-9592
라고	-9593
▁116	-9594
▁거주지	-9595
▁오사카부	-9596
▁페이스북	-9597
구역	-9598
act	-9599
▁안경	-9600
▁침체	-9601
▁아미노산	-9602
▁브란	-9603
▁세키	-9604
▁일자리	-9605
곡동	-9606
사업	-9607
▁각색	-9608
▁기저	-9609
▁준주	-9610
▁폭로	-9611
번뇌	-9612
▁Ad	-9613
▁가계	-9614
▁홍문관	-9615
▁1897	-9616
▁농사	-9617
▁평창	-9618
▁전시회	-9619
파리	-9620
▁낙동	-9621
▁상법	-9622
▁추첨	-9623
▁후작	-9624
▁일부분	-9625
▁포스터	-9626
11	-9627
▁교량	-9628
▁일파	-9629
▁가의	-9630
▁장자	-9631
▁취미	-9632
▁지지율	-9633
쿠버	-9634
▁요약	-9635
▁강남구	-9636
▁스트라이크	-9637
▁한국방송공사	-9638
▁가열	-9639
▁반전	-9640
▁샌드	-9641
▁심화	-9642
▁티코	-9643
▁보성	-9644
▁버클리	-9645
▁갈래	-9646
▁격차	-9647
▁마가	-9648
▁절단	-9649
▁캐서린	-9650
pt	-9651
▁델타	-9652
▁안산	-9653
▁접수	-9654
▁태백	-9655
▁효고	-9656
ream	-9657
▁마카오	-9658
▁방송인	-9659
▁카스티	-9660
▁1860	-9661
역학	-9662
▁마니	-9663
▁버마	-9664
▁엇	-9665
▁홉	-9666
▁리조	-9667
▁구약	-9668
▁오로	-9669
▁올드	-9670
▁앰	-9671
▁네오	-9672
▁음향	-9673
▁추론	-9674
▁교육청	-9675
▁데스크	-9676
▁꿀	-9677
▁나루	-9678
▁르노	-9679
▁민정	-9680
▁아소	-9681
▁체력	-9682
▁효종	-9683
▁ㄴ지	-9684
▁쓸	-9685
벤처	-9686
▁마블	-9687
▁연대기	-9688
▁어드벤처	-9689
▁델라	-9690
▁북경	-9691
▁;&	-9692
▁GO	-9693
▁사살	-9694
▁배우자	-9695
▁이주하	-9696
▁공약	-9697
▁대관	-9698
▁수료	-9699
▁장제	-9700
▁타우	-9701
▁휴가	-9702
▁알프레	-9703
▁바르샤바	-9704
▁Ex	-9705
▁중원	-9706
▁찰리	-9707
▁글래	-9708
▁안치	-9709
▁저렴	-9710
▁확진	-9711
▁Is	-9712
▁고이	-9713
▁적군	-9714
기념물	-9715
▁샌디	-9716
▁애리	-9717
▁전산	-9718
▁카타르	-9719
▁후반기	-9720
나드	-9721
▁가신	-9722
▁특색	-9723
▁122	-9724
▁중공업	-9725
▁청색	-9726
▁치우	-9727
▁합당	-9728
▁경제학자	-9729
▁스크립트	-9730
캐롤라이나	-9731
▁공손	-9732
▁카즈	-9733
▁쿠니	-9734
▁게릴라	-9735
포터	-9736
▁돌입	-9737
▁이반	-9738
▁청소	-9739
▁살피	-9740
▁사카이	-9741
▁안드레아	-9742
▁죠	-9743
츠크	-9744
▁리히	-9745
▁집결	-9746
▁떡	-9747
▁석불	-9748
▁수중	-9749
스카르	-9750
▁미네소	-9751
산성	-9752
퍼슨	-9753
▁세네	-9754
▁신정	-9755
▁짐작	-9756
▁타협	-9757
반구	-9758
▁이빨	-9759
▁전격	-9760
▁마라톤	-9761
▁모티브	-9762
▁솔루션	-9763
▁클라크	-9764
▁석회	-9765
▁쥐속	-9766
▁타지	-9767
▁2022	-9768
▁막시	-9769
▁보강	-9770
▁브룩	-9771
▁소행	-9772
▁실적	-9773
▁입주	-9774
▁종파	-9775
도비	-9776
▁스퀘어	-9777
▁유닉스	-9778
▁갑옷	-9779
▁고토	-9780
▁과실	-9781
▁괴롭히	-9782
▁새로이	-9783
▁1880	-9784
▁눕	-9785
푸아	-9786
▁마애	-9787
▁벽화	-9788
▁인테르	-9789
▁돌아다니	-9790
거진	-9791
▁동형	-9792
▁두개골	-9793
▁상트페	-9794
▁아마존	-9795
▁상트페테르부르크	-9796
콥터	-9797
▁감추	-9798
▁루크	-9799
▁신동	-9800
▁창의	-9801
▁호응	-9802
▁화순	-9803
▁옥수수	-9804
▁무로	-9805
▁정경	-9806
▁쳐들	-9807
▁ᆫ다며	-9808
▁그레고리오	-9809
▁강풍	-9810
▁윤보	-9811
▁나란히	-9812
▁유대교	-9813
▁뻔	-9814
▁BM	-9815
▁모용	-9816
▁빈도	-9817
▁con	-9818
▁갤러리	-9819
▁설립자	-9820
▁엮	-9821
▁메릴	-9822
▁무술	-9823
▁사적	-9824
▁처지	-9825
▁흥선대원군	-9826
ii	-9827
▁강철	-9828
▁선장	-9829
▁연동	-9830
▁종말	-9831
▁그리스인	-9832
▁군청	-9833
▁종점	-9834
▁팔레	-9835
▁확고	-9836
▁가가	-9837
▁메라	-9838
▁유정	-9839
▁호쿠	-9840
니까	-9841
▁NGC	-9842
▁공용어	-9843
▁진행자	-9844
▁파라과이	-9845
▁셜	-9846
리즘	-9847
▁복권	-9848
▁용암	-9849
▁출석	-9850
▁133	-9851
▁극작가	-9852
▁급수	-9853
▁리만	-9854
▁마당	-9855
▁어로	-9856
▁이언	-9857
▁함부르크	-9858
기구	-9859
▁극도	-9860
▁열심	-9861
▁입양	-9862
▁장원	-9863
▁제리	-9864
▁콘테	-9865
▁함양	-9866
▁손꼽히	-9867
▁제작사	-9868
네시	-9869
▁기성	-9870
▁추리	-9871
▁경쟁력	-9872
▁등극	-9873
▁무스	-9874
▁예명	-9875
▁일괄	-9876
▁제왕	-9877
▁붙여지	-9878
▁릴리	-9879
▁소령	-9880
▁연못	-9881
▁자결	-9882
▁추종	-9883
▁그림자	-9884
▁이동하	-9885
▁키예프	-9886
▁그렇지만	-9887
니지	-9888
타케	-9889
iss	-9890
▁노이	-9891
▁블리	-9892
▁수녀	-9893
▁이장	-9894
▁데	-9895
▁가네	-9896
▁번성	-9897
▁오락	-9898
▁진료	-9899
자치시	-9900
▁디트로	-9901
▁디트로이트	-9902
▁특별자치시	-9903
ake	-9904
own	-9905
▁스노	-9906
▁교육부	-9907
▁기상청	-9908
사관학교	-9909
▁천연기념물	-9910
▁왕정	-9911
▁프렌	-9912
▁준결승전	-9913
어뜨리	-9914
▁랍	-9915
케이	-9916
▁Mus	-9917
▁오지	-9918
▁엘리트	-9919
▁몽고	-9920
▁숙주	-9921
▁심야	-9922
▁유령	-9923
▁즐겁	-9924
몰로지	-9925
▁명분	-9926
▁프랭클린	-9927
▁프롤	-9928
▁CBS	-9929
▁사쿠	-9930
▁스로	-9931
▁아치	-9932
▁앞장	-9933
▁CEO	-9934
▁아래쪽	-9935
▁국유	-9936
▁이규	-9937
▁이데	-9938
▁평민	-9939
▁사무총장	-9940
▁일러스트	-9941
▁랴	-9942
▁듀얼	-9943
▁우상	-9944
▁미생물	-9945
▁법정동	-9946
▁낚	-9947
▁싣	-9948
▁원격	-9949
▁위생	-9950
▁탁월	-9951
▁파우	-9952
▁무궁화	-9953
▁ES	-9954
▁미셸	-9955
▁이득	-9956
▁코리	-9957
▁위나라	-9958
세기	-9959
해지	-9960
▁수년	-9961
▁장흥	-9962
▁GDP	-9963
▁포도당	-9964
▁애틀랜타	-9965
▁고추	-9966
▁도사	-9967
▁조계	-9968
▁펜싱	-9969
▁그레고리	-9970
▁농어	-9971
▁반역	-9972
▁온갖	-9973
▁재난	-9974
▁타석	-9975
▁헬륨	-9976
▁대사헌	-9977
▁앨리스	-9978
▁스트라이커	-9979
▁개항	-9980
▁문경	-9981
▁자카	-9982
미스	-9983
▁자생	-9984
▁겉보기	-9985
▁결핍	-9986
▁무조건	-9987
▁동성애자	-9988
▁섀	-9989
▁툰	-9990
▁김민	-9991
▁132	-9992
clude	-9993
▁스리랑카	-9994
멘스	-9995
원장	-9996
타마	-9997
old	-9998
▁속편	-9999
▁워치	-10000
Hz	-10001
UR	-10002
▁감동	-10003
▁까지	-10004
▁빈번	-10005
▁정인	-10006
▁주지	-10007
▁지청	-10008
▁지방산	-10009
그래	-10010
▁니카	-10011
▁더비	-10012
▁유스	-10013
▁진수	-10014
▁대성전	-10015
HO	-10016
▁칼뱅	-10017
▁해치	-10018
림픽	-10019
▁동요	-10020
▁정관	-10021
▁시뮬레이션	-10022
버러	-10023
에미	-10024
▁듀오	-10025
▁상연	-10026
▁수심	-10027
▁대지진	-10028
▁속이	-10029
▁애칭	-10030
▁총무	-10031
▁글로브	-10032
▁인프라	-10033
▁삼국사기	-10034
▁꿈꾸	-10035
▁동참	-10036
▁아데	-10037
▁마우스	-10038
▁파이프	-10039
위성	-10040
헌영	-10041
▁결제	-10042
▁광양	-10043
▁리모	-10044
▁기병대	-10045
▁슛	-10046
스기	-10047
▁++	-10048
▁베른	-10049
▁인디애나	-10050
미즈	-10051
▁NE	-10052
▁랴	-10053
▁막히	-10054
▁시종	-10055
메다	-10056
▁vs	-10057
▁불행	-10058
▁초원	-10059
거래	-10060
ork	-10061
▁두렵	-10062
▁속주	-10063
▁조병	-10064
▁현직	-10065
▁현행	-10066
▁맹세	-10067
▁주화	-10068
▁하고	-10069
GA	-10070
렉션	-10071
▁빠져	-10072
▁신상	-10073
바야시	-10074
▁마다가	-10075
▁격자	-10076
▁암흑	-10077
▁호족	-10078
▁자세히	-10079
ix	-10080
파크	-10081
▁대국	-10082
▁발각	-10083
▁상기	-10084
▁La	-10085
▁극락	-10086
▁루비	-10087
▁미주리	-10088
▁요제프	-10089
▁통틀어	-10090
▁보헤미아	-10091
▁쾰	-10092
▁헛	-10093
▁kt	-10094
▁브랜	-10095
▁재해	-10096
ence	-10097
▁농산물	-10098
▁or	-10099
▁호의	-10100
벨라	-10101
할시	-10102
▁가타	-10103
▁복음서	-10104
▁국수	-10105
위원회	-10106
러피	-10107
변이	-10108
해튼	-10109
ick	-10110
▁요법	-10111
▁돌연변이	-10112
▁패럴림픽	-10113
천사	-10114
▁Ro	-10115
▁김병	-10116
▁라오	-10117
▁숨지	-10118
▁파문	-10119
▁pro	-10120
마리	-10121
▁단과	-10122
▁무르	-10123
▁초고	-10124
▁피로	-10125
▁해부	-10126
▁볼셰비키	-10127
()	-10128
lo	-10129
▁른	-10130
▁공표	-10131
▁김옥	-10132
▁대각	-10133
▁현황	-10134
▁호리	-10135
▁저널리	-10136
▁감금	-10137
▁의과	-10138
▁평안남도	-10139
▁공파	-10140
▁아빠	-10141
▁청자	-10142
▁투항	-10143
라기	-10144
▁세손	-10145
▁우체국	-10146
▁활주로	-10147
루냐	-10148
▁소울	-10149
▁1870	-10150
▁합스부르크	-10151
를테	-10152
▁밀러	-10153
를테면	-10154
▁후속작	-10155
▁이를테면	-10156
▁뾰	-10157
▁낙하	-10158
▁양육	-10159
▁입수	-10160
▁저격	-10161
▁페로	-10162
▁따라가	-10163
▁매거진	-10164
▁댓	-10165
▁생계	-10166
▁재질	-10167
▁총기	-10168
▁황도	-10169
▁휩쓸	-10170
CAF	-10171
▁만년	-10172
▁서장	-10173
▁포고	-10174
▁소피아	-10175
▁오로지	-10176
▁PR	-10177
▁제너	-10178
▁표창	-10179
브리아	-10180
▁모터스	-10181
▁타이베이	-10182
▁이븐	-10183
▁장대	-10184
▁정국	-10185
▁틀리	-10186
▁Mar	-10187
▁NAS	-10188
▁창시자	-10189
▁숀	-10190
▁관동	-10191
▁난이	-10192
▁우아	-10193
▁단행본	-10194
삭스	-10195
플로	-10196
▁부조	-10197
ance	-10198
▁대장군	-10199
▁아스널	-10200
▁중앙부	-10201
▁트리니	-10202
▁리터	-10203
▁비늘	-10204
▁시국	-10205
▁애리조	-10206
▁평안북도	-10207
홀름	-10208
▁To	-10209
▁말년	-10210
▁맞대	-10211
▁머스	-10212
▁왜구	-10213
▁매끄럽	-10214
▁1885	-10215
▁엥	-10216
▁내면	-10217
▁돌출	-10218
▁앞쪽	-10219
▁450	-10220
▁우즈베키스탄	-10221
▁전날	-10222
▁청동기	-10223
▁활발히	-10224
▁un	-10225
▁국악	-10226
▁1871	-10227
EM	-10228
공산	-10229
▁DM	-10230
▁감수	-10231
▁로페	-10232
▁배속	-10233
▁복식	-10234
▁성령	-10235
▁중상	-10236
▁수원시	-10237
▁프랜시스	-10238
▁아이스하키	-10239
▁마르크스주의	-10240
▁아쿠	-10241
▁원심	-10242
▁짱	-10243
▁Ph	-10244
▁벤치	-10245
▁퇴장	-10246
테리아	-10247
십자	-10248
▁신종	-10249
▁차리	-10250
▁비주얼	-10251
▁세븐	-10252
▁수염	-10253
▁USS	-10254
▁로렌스	-10255
쩌둥	-10256
▁참사	-10257
▁카바	-10258
▁마오쩌둥	-10259
▁반성	-10260
▁이모	-10261
▁편집자	-10262
▁1600	-10263
▁쿡	-10264
▁리바	-10265
▁매직	-10266
▁중생	-10267
▁끌려가	-10268
▁다람쥐	-10269
▁알래스카	-10270
ection	-10271
ear	-10272
irl	-10273
▁빅토르	-10274
▁맷	-10275
제이	-10276
티시	-10277
▁경질	-10278
▁볼프	-10279
▁증인	-10280
▁케라	-10281
러피언	-10282
타이드	-10283
▁콘스탄티노폴리스	-10284
▁국당	-10285
▁수교	-10286
▁지성	-10287
▁흉노	-10288
▁앤더슨	-10289
▁프레이	-10290
▁이양	-10291
▁자칭	-10292
▁휴게	-10293
▁양성자	-10294
▁유러피언	-10295
어오	-10296
지로	-10297
▁내성	-10298
▁카터	-10299
▁티켓	-10300
lass	-10301
▁내무부	-10302
▁오클랜드	-10303
▁관행	-10304
▁시애	-10305
▁오라	-10306
▁즘	-10307
돌리	-10308
틀리	-10309
▁유료	-10310
▁콜레	-10311
▁화랑	-10312
▁마닐라	-10313
▁only	-10314
▁로리	-10315
▁스태	-10316
▁위스	-10317
▁청룡	-10318
▁센고쿠	-10319
▁1200	-10320
ild	-10321
▁바디	-10322
▁테일	-10323
▁박헌영	-10324
▁반란군	-10325
▁냐는	-10326
테쓰	-10327
▁제동	-10328
▁240	-10329
▁알렉스	-10330
파이	-10331
▁당내	-10332
▁루카	-10333
▁이완	-10334
▁잡아먹	-10335
▁파나마	-10336
▁수인	-10337
▁장단	-10338
▁중서	-10339
▁해저	-10340
▁불태우	-10341
▁GN	-10342
▁능선	-10343
▁민요	-10344
▁빨갛	-10345
▁역도	-10346
▁이룩	-10347
▁친분	-10348
텔레스	-10349
▁케이프	-10350
▁봉수	-10351
▁조광	-10352
▁다나카	-10353
▁프로리그	-10354
▁SL	-10355
▁부각	-10356
▁성실	-10357
▁이방	-10358
▁탑신	-10359
▁김정은	-10360
▁역사가	-10361
▁려던	-10362
관리	-10363
체고	-10364
▁카니	-10365
▁예정자	-10366
체고비나	-10367
▁플랜	-10368
▁부원군	-10369
▁시애틀	-10370
▁개개	-10371
▁윤보선	-10372
▁마다가스카르	-10373
▁무척	-10374
▁분과	-10375
▁재외	-10376
▁초빙	-10377
▁출가	-10378
▁오른손	-10379
올라	-10380
▁교실	-10381
▁구니	-10382
▁남용	-10383
▁상급	-10384
▁김규식	-10385
▁앤드루	-10386
▁제조업	-10387
맥스	-10388
▁궁궐	-10389
▁몸통	-10390
▁섬세	-10391
▁실험실	-10392
▁프라하	-10393
▁하노이	-10394
▁정제	-10395
▁조례	-10396
▁맨해튼	-10397
▁아무것	-10398
▁왕세자	-10399
▁아리스토텔레스	-10400
▁AD	-10401
▁구마모토	-10402
▁리비	-10403
▁바트	-10404
▁생선	-10405
▁송도	-10406
▁통역	-10407
▁한하	-10408
▁공민왕	-10409
▁해리슨	-10410
▁시중	-10411
▁루돌프	-10412
▁미군정	-10413
▁성남시	-10414
메스	-10415
컨대	-10416
ans	-10417
▁재활	-10418
▁징병	-10419
▁총애	-10420
▁허드	-10421
▁동물원	-10422
▁신문사	-10423
▁요지	-10424
▁차용	-10425
▁창문	-10426
▁파인	-10427
OV	-10428
▁경희	-10429
▁관문	-10430
▁오미	-10431
▁지쿠	-10432
▁동대문	-10433
▁겁	-10434
사상	-10435
▁개헌	-10436
▁서산	-10437
▁호크	-10438
▁헬리콥터	-10439
천면	-10440
▁고쿠	-10441
▁칼럼	-10442
▁대대로	-10443
▁각성	-10444
▁경시	-10445
▁국보	-10446
▁뾰족	-10447
▁실존	-10448
▁위너스	-10449
▁러시아인	-10450
▁괄	-10451
코토	-10452
▁Sy	-10453
▁농경	-10454
▁독창	-10455
▁배려	-10456
▁퍼포	-10457
▁줄거리	-10458
▁EBS	-10459
▁크라이	-10460
ivers	-10461
무소	-10462
▁CM	-10463
▁남산	-10464
▁커플	-10465
▁퍼스	-10466
▁함자	-10467
▁경영자	-10468
▁리조트	-10469
▁유권자	-10470
▁퍼포먼스	-10471
▁수필	-10472
▁얕	-10473
▁구청	-10474
▁약혼	-10475
▁제퍼슨	-10476
어사	-10477
ype	-10478
▁시합	-10479
▁포착	-10480
▁하반	-10481
▁퍼스트	-10482
▁에프	-10483
▁지오	-10484
▁칙령	-10485
▁동유럽	-10486
▁브레이크	-10487
▁티	-10488
▁남해	-10489
▁뉴클	-10490
▁화기	-10491
▁김원	-10492
▁나선	-10493
▁총통	-10494
▁MTV	-10495
▁클레이	-10496
▁클린턴	-10497
▁경호	-10498
▁드미	-10499
▁파도	-10500
include	-10501
▁학설	-10502
▁사각형	-10503
▁올림피아	-10504
ish	-10505
▁통용	-10506
▁브루스	-10507
▁서재필	-10508
▁선거법	-10509
▁솔로몬	-10510
▁는다면	-10511
▁독도	-10512
▁시노	-10513
▁안녕	-10514
▁유혹	-10515
▁하류	-10516
▁레이크	-10517
▁스테파	-10518
▁카지	-10519
▁효자	-10520
▁데려오	-10521
▁유치원	-10522
▁해리스	-10523
▁가늘	-10524
▁모의	-10525
▁모호	-10526
GM	-10527
▁Jo	-10528
▁마차	-10529
▁산호	-10530
▁스가	-10531
▁욕망	-10532
▁주임	-10533
▁차갑	-10534
▁트릭	-10535
▁나우	-10536
▁주입	-10537
라니	-10538
토랑	-10539
▁":	-10540
▁신발	-10541
▁씨앗	-10542
▁전래	-10543
▁허정	-10544
▁레스토랑	-10545
▁관청	-10546
▁들여	-10547
▁성화	-10548
▁일당	-10549
▁일리	-10550
▁절망	-10551
▁하키	-10552
▁화엄	-10553
▁케플러	-10554
▁가솔	-10555
▁자제	-10556
▁자치체	-10557
▁총사령관	-10558
원수	-10559
oun	-10560
▁NT	-10561
▁광도	-10562
▁반기	-10563
▁보로	-10564
▁수양	-10565
▁시부	-10566
▁대합실	-10567
에스	-10568
▁보행	-10569
▁천왕	-10570
▁평형	-10571
▁호스	-10572
▁함경남도	-10573
OD	-10574
▁실정	-10575
▁진해	-10576
▁카테	-10577
▁케인	-10578
▁분류군	-10579
▁예선전	-10580
통일	-10581
▁아키라	-10582
▁예수회	-10583
▁요시다	-10584
fe	-10585
▁@	-10586
히트	-10587
▁로버	-10588
▁테라	-10589
▁정의당	-10590
AF	-10591
신문	-10592
▁만장	-10593
▁메뉴	-10594
▁보라	-10595
▁찬사	-10596
▁포식	-10597
▁ex	-10598
▁무실	-10599
▁분파	-10600
▁제물	-10601
▁지로	-10602
▁뛰어들	-10603
▁멍	-10604
▁마술	-10605
▁전무	-10606
▁긴테쓰	-10607
▁비밀리	-10608
정원	-10609
▁검정	-10610
▁극한	-10611
▁보수당	-10612
▁나인	-10613
▁침묵	-10614
▁테리	-10615
▁폭파	-10616
▁메이커	-10617
환경	-10618
are	-10619
▁고든	-10620
▁박종	-10621
▁소음	-10622
▁이점	-10623
▁내야수	-10624
▁방어선	-10625
창호	-10626
▁리보	-10627
▁메카	-10628
▁벅	-10629
▁sc	-10630
▁다테	-10631
▁플라톤	-10632
▁당연	-10633
▁도둑	-10634
▁블레	-10635
▁원통	-10636
▁뉴클레오	-10637
▁네이션스컵	-10638
바흐	-10639
▁매리	-10640
▁문고	-10641
▁시몬	-10642
▁다저스	-10643
▁비타민	-10644
▁서대문	-10645
▁아키타	-10646
▁아요	-10647
▁스톡홀름	-10648
▁본성	-10649
▁어군	-10650
▁엄밀	-10651
▁천국	-10652
▁캐롤	-10653
▁컴퓨팅	-10654
▁김유	-10655
▁넷째	-10656
▁마셜	-10657
▁블로	-10658
▁카피	-10659
▁프론	-10660
ical	-10661
▁ABC	-10662
▁바이트	-10663
▁알프스	-10664
등식	-10665
▁수복	-10666
▁드루	-10667
▁색소	-10668
▁전담	-10669
▁유아기	-10670
러브	-10671
▁강령	-10672
▁대북	-10673
▁타스	-10674
▁파손	-10675
▁개구리	-10676
메드	-10677
lat	-10678
▁방콕	-10679
▁자치주	-10680
▁와이번스	-10681
▁도교	-10682
▁동로	-10683
▁리베	-10684
▁묘비	-10685
▁나트륨	-10686
▁오리온	-10687
▁친위대	-10688
▁프린스	-10689
TP	-10690
암동	-10691
▁소극	-10692
▁웨인	-10693
▁찬양	-10694
▁황소	-10695
▁스폰서	-10696
▁노론	-10697
▁대본	-10698
▁백두	-10699
▁소중	-10700
▁리프트	-10701
▁앞장서	-10702
▁라서	-10703
▁북아일랜드	-10704
EG	-10705
IR	-10706
▁리사	-10707
▁모어	-10708
▁멧	-10709
매매	-10710
▁선천	-10711
▁스텝	-10712
▁영유	-10713
▁투자자	-10714
▁피아니스트	-10715
부르	-10716
▁럭비	-10717
▁마켓	-10718
▁불변	-10719
▁실권	-10720
▁천거	-10721
▁치과	-10722
▁로드리	-10723
▁마천루	-10724
▁샐	-10725
▁구실	-10726
▁왕권	-10727
▁장시	-10728
▁채취	-10729
▁추이	-10730
▁홀리	-10731
▁ATP	-10732
▁대원군	-10733
▁가브리엘	-10734
지능	-10735
▁DD	-10736
▁담보	-10737
▁슬픔	-10738
▁책임지	-10739
▁인공지능	-10740
▁CH	-10741
▁Fr	-10742
▁포토	-10743
▁화약	-10744
▁용인시	-10745
▁피라미	-10746
▁AV	-10747
▁상행	-10748
▁야전	-10749
▁퇴직	-10750
▁한미	-10751
▁헬싱	-10752
▁마누엘	-10753
군다	-10754
대표	-10755
▁결별	-10756
▁구내	-10757
▁국공	-10758
▁벤처	-10759
▁야드	-10760
▁여유	-10761
▁톈진	-10762
▁210	-10763
▁연산군	-10764
▁토스카	-10765
▁튀르크	-10766
▁로크	-10767
▁사방	-10768
▁정거	-10769
▁정부군	-10770
덴부르크	-10771
▁따지	-10772
▁이의	-10773
▁특전	-10774
▁동시대	-10775
▁연극배우	-10776
▁헤르체고비나	-10777
말리	-10778
▁감찰	-10779
▁삼존	-10780
▁제노	-10781
▁쾰른	-10782
▁선구자	-10783
▁화강암	-10784
▁구두	-10785
▁슬하	-10786
▁가이드	-10787
▁적외선	-10788
▁콘테스트	-10789
FL	-10790
놀이	-10791
▁Ma	-10792
▁간첩	-10793
▁스칸	-10794
▁유격수	-10795
티넘	-10796
▁방치	-10797
▁약사	-10798
▁차출	-10799
▁아나톨	-10800
▁플래티넘	-10801
ey	-10802
▁pr	-10803
▁강렬	-10804
▁별세	-10805
▁펌프	-10806
▁알파벳	-10807
▁주차장	-10808
▁프레데	-10809
EL	-10810
대교	-10811
▁위그	-10812
▁잇따르	-10813
다운	-10814
ica	-10815
▁로얄	-10816
▁마에	-10817
▁뭉치	-10818
▁유선	-10819
▁준수	-10820
▁중퇴	-10821
▁려다	-10822
▁가락	-10823
▁왕건	-10824
▁목요일	-10825
사고	-10826
▁본작	-10827
▁부치	-10828
▁켈트	-10829
▁사로잡	-10830
▁안테나	-10831
▁오바마	-10832
▁딥	-10833
수스	-10834
▁그저	-10835
▁경전철	-10836
▁리본	-10837
▁모하	-10838
▁불참	-10839
▁삼림	-10840
▁종식	-10841
▁초신성	-10842
▁he	-10843
▁공존	-10844
▁봉화	-10845
▁실록	-10846
▁임정	-10847
▁칸국	-10848
▁두려움	-10849
▁접어들	-10850
▁1889	-10851
▁아날	-10852
▁유목	-10853
▁스카우트	-10854
클레	-10855
▁밸리	-10856
▁이송	-10857
▁기관지	-10858
▁도망가	-10859
▁엔트리	-10860
60	-10861
▁늙	-10862
▁김형	-10863
▁반포	-10864
▁영예	-10865
▁영정	-10866
▁요충	-10867
난성	-10868
천동	-10869
▁건전	-10870
▁산성	-10871
▁여권	-10872
▁예약	-10873
▁전전	-10874
▁직통	-10875
▁집정	-10876
▁하시	-10877
공산당	-10878
와라노	-10879
▁말미암	-10880
▁아이폰	-10881
▁후지와라노	-10882
소통	-10883
▁가맹	-10884
▁로트	-10885
▁마땅	-10886
▁새우	-10887
▁송신	-10888
▁아끼	-10889
▁중합	-10890
▁형질	-10891
▁ㅓ야	-10892
▁밴쿠버	-10893
▁타이어	-10894
▁고속버스	-10895
부로	-10896
▁갈아	-10897
▁모금	-10898
▁사역	-10899
▁연말	-10900
▁드디어	-10901
▁패트릭	-10902
▁다윈	-10903
▁대영	-10904
▁라자	-10905
▁베트	-10906
▁정형	-10907
▁플리	-10908
충류	-10909
▁불량	-10910
▁우림	-10911
▁절정	-10912
▁치루	-10913
▁투여	-10914
테이너	-10915
▁열심히	-10916
▁구르	-10917
▁능하	-10918
▁호대	-10919
▁감성	-10920
▁비엔	-10921
▁사설	-10922
▁인가	-10923
▁간신히	-10924
▁의사소통	-10925
▁타이거스	-10926
▁So	-10927
▁니혼	-10928
▁열강	-10929
▁의류	-10930
▁판례	-10931
▁로마인	-10932
▁떨어뜨리	-10933
▁소말리아	-10934
▁권하	-10935
▁극우	-10936
▁라리	-10937
▁비야	-10938
▁수락	-10939
▁야시	-10940
▁피지	-10941
▁똑같이	-10942
▁스트로	-10943
▁매트	-10944
▁종자	-10945
▁캐리	-10946
▁For	-10947
▁메디치	-10948
▁챙	-10949
카리	-10950
▁김준	-10951
▁악보	-10952
▁주계	-10953
▁발라드	-10954
위안	-10955
▁미수	-10956
▁받치	-10957
▁작물	-10958
▁지자	-10959
▁쿠퍼	-10960
▁감상	-10961
▁격리	-10962
▁애정	-10963
추부사	-10964
▁낙동강	-10965
바나	-10966
▁사탕	-10967
▁시크	-10968
▁정작	-10969
블랜드	-10970
▁CONCA	-10971
드레	-10972
휴일	-10973
▁사서	-10974
▁중수	-10975
▁생존자	-10976
▁JTBC	-10977
bo	-10978
유예	-10979
▁의령	-10980
▁Live	-10981
▁센티미터	-10982
▁프란체스코	-10983
▁CONCACAF	-10984
가미	-10985
▁무형	-10986
▁삼중	-10987
▁금호	-10988
▁서임	-10989
▁원군	-10990
▁정읍	-10991
▁후배	-10992
▁클리블랜드	-10993
▁훙	-10994
▁나카무라	-10995
sh	-10996
망디	-10997
▁도피	-10998
▁메소	-10999
▁모색	-11000
▁목회	-11001
▁정종	-11002
▁제명	-11003
▁징수	-11004
▁하야	-11005
▁가솔린	-11006
▁미야자키	-11007
▁앙골	-11008
▁요격	-11009
▁잠정	-11010
▁고딕	-11011
▁김명	-11012
▁은거	-11013
▁Sou	-11014
▁부딪히	-11015
▁프랑스인	-11016
나마	-11017
▁가두	-11018
▁공소	-11019
▁페트	-11020
▁카카오	-11021
캐슬	-11022
▁기이	-11023
에미리트	-11024
▁아랍에미리트	-11025
▁가도	-11026
▁바지	-11027
▁백과	-11028
▁비준	-11029
▁송출	-11030
바이트	-11031
▁시네마	-11032
IL	-11033
란토	-11034
풀이	-11035
프로	-11036
▁금산	-11037
▁볼트	-11038
▁레이싱	-11039
▁여배우	-11040
▁장학금	-11041
▁가나가와현	-11042
▁습윤	-11043
▁유의	-11044
도르프	-11045
마르크	-11046
하이오	-11047
▁오하이오	-11048
▁카탈루냐	-11049
▁자유민주당	-11050
▁깜	-11051
▁당기	-11052
▁연정	-11053
▁치환	-11054
▁트렌	-11055
▁한중	-11056
▁어시스트	-11057
▁피라미드	-11058
EE	-11059
▁리옹	-11060
▁성곽	-11061
▁유희	-11062
▁익숙	-11063
tern	-11064
지기	-11065
▁EU	-11066
▁모욕	-11067
▁서태	-11068
▁평평	-11069
▁광복군	-11070
▁교통부	-11071
▁Com	-11072
▁검은색	-11073
▁에이즈	-11074
▁벨리	-11075
▁미야기	-11076
화문	-11077
ood	-11078
▁격추	-11079
▁김광	-11080
▁무네	-11081
▁레이더	-11082
▁Time	-11083
▁순종	-11084
▁자서	-11085
▁항만	-11086
▁Col	-11087
▁캅	-11088
간다	-11089
▁거미	-11090
▁워커	-11091
▁마이어	-11092
▁유니버설	-11093
▁츄	-11094
ost	-11095
▁"&	-11096
▁GB	-11097
▁귀신	-11098
▁양심	-11099
▁AKB	-11100
▁스타트	-11101
▁Part	-11102
대사	-11103
▁매킨	-11104
▁수로	-11105
▁암스	-11106
▁여고	-11107
▁여사	-11108
▁탄약	-11109
▁int	-11110
▁기숙사	-11111
▁1848	-11112
자루	-11113
▁급여	-11114
▁문집	-11115
▁포털	-11116
▁뉴캐슬	-11117
▁토리노	-11118
현동	-11119
▁추억	-11120
▁티아	-11121
▁라이더	-11122
▁레이트	-11123
▁프랑스령	-11124
찌르	-11125
▁무과	-11126
▁우루스	-11127
지부	-11128
▁사쓰	-11129
▁천주	-11130
▁최진	-11131
▁브레이	-11132
▁도래	-11133
▁해태	-11134
▁여의도	-11135
row	-11136
▁추력	-11137
▁한림	-11138
▁해피	-11139
▁프란치	-11140
거스	-11141
▁사민	-11142
▁오만	-11143
▁명확히	-11144
▁바그너	-11145
에몽	-11146
▁공휴일	-11147
▁지상파	-11148
도라	-11149
애미	-11150
의사	-11151
▁국한	-11152
▁재팬	-11153
▁조인	-11154
span	-11155
▁대리인	-11156
▁부총리	-11157
▁마이애미	-11158
▁TR	-11159
▁댄서	-11160
▁워즈	-11161
▁하행	-11162
▁지배자	-11163
▁가혹	-11164
▁모건	-11165
▁토트	-11166
▁해독	-11167
▁튀니지	-11168
▁onlyinclude	-11169
uc	-11170
정동	-11171
ous	-11172
▁남군	-11173
▁볼로	-11174
▁재일	-11175
▁절벽	-11176
lay	-11177
▁공성	-11178
▁우한	-11179
▁종군	-11180
프랑크	-11181
▁대니얼	-11182
▁정치학	-11183
▁카스티야	-11184
▁공대	-11185
▁라르	-11186
▁비정	-11187
▁셀레	-11188
▁클러	-11189
▁무찌르	-11190
▁굴절	-11191
▁방대	-11192
▁병자	-11193
▁업자	-11194
▁총격	-11195
▁클라우	-11196
orn	-11197
▁EM	-11198
▁무안	-11199
▁보령	-11200
▁비토	-11201
▁산둥	-11202
▁정거장	-11203
▁Your	-11204
▁로키	-11205
▁안개	-11206
▁특화	-11207
파니아	-11208
▁고인돌	-11209
▁법원장	-11210
▁일본국	-11211
▁대승불교	-11212
▁보수주의	-11213
▁부합	-11214
▁비대	-11215
▁대단히	-11216
▁페트로	-11217
▁교의	-11218
▁김인	-11219
▁유식	-11220
▁음절	-11221
페스트	-11222
▁마법사	-11223
▁제위	-11224
▁치카	-11225
▁국제법	-11226
▁대법관	-11227
관계	-11228
으로	-11229
▁리카	-11230
▁부평	-11231
▁선봉	-11232
▁설문	-11233
▁SNS	-11234
▁관현악단	-11235
ann	-11236
ows	-11237
▁경복	-11238
▁랴오	-11239
▁몰아	-11240
▁신곡	-11241
▁인칭	-11242
olog	-11243
▁시코쿠	-11244
메니	-11245
▁가쿠	-11246
▁단결	-11247
▁선명	-11248
▁그랜트	-11249
▁아이즈	-11250
OP	-11251
aw	-11252
▁모빌	-11253
▁문단	-11254
▁시멘트	-11255
▁헤어지	-11256
브로	-11257
▁사수	-11258
▁숙부	-11259
▁케르	-11260
해살이	-11261
▁NASA	-11262
▁고로	-11263
▁류큐	-11264
▁마테	-11265
▁용액	-11266
▁Bla	-11267
▁저지대	-11268
▁하노버	-11269
az	-11270
히사	-11271
▁공영	-11272
▁대마	-11273
▁지법	-11274
▁OST	-11275
▁제우스	-11276
▁BC	-11277
▁GM	-11278
▁거란	-11279
▁동산	-11280
▁서귀	-11281
▁소외	-11282
▁연립	-11283
▁항체	-11284
▁131	-11285
▁동진	-11286
▁진로	-11287
메이카	-11288
▁대나무	-11289
▁카메룬	-11290
▁자메이카	-11291
▁줄기세포	-11292
▁꺼내	-11293
▁부다	-11294
▁오디	-11295
▁평지	-11296
▁황색	-11297
▁API	-11298
▁방사능	-11299
▁정보원	-11300
▁쪼	-11301
서스	-11302
▁검거	-11303
▁국교	-11304
▁메일	-11305
▁베어	-11306
▁초콜	-11307
▁1883	-11308
지아	-11309
▁명소	-11310
클리드	-11311
▁레드삭스	-11312
▁도키	-11313
▁안방	-11314
▁재편	-11315
▁적료	-11316
▁점포	-11317
드리아	-11318
▁영화상	-11319
▁줄리아	-11320
▁라기	-11321
▁앗	-11322
▁쾨	-11323
▁골격	-11324
▁전보	-11325
▁형벌	-11326
▁욱	-11327
▁at	-11328
▁가중	-11329
▁모범	-11330
▁사림	-11331
▁종양	-11332
▁최선	-11333
▁항우	-11334
빌라이	-11335
▁ref	-11336
▁라파엘	-11337
▁부상자	-11338
▁그라운드	-11339
칼리	-11340
▁글꼴	-11341
▁남방	-11342
▁메스	-11343
▁속력	-11344
▁연희	-11345
▁지석	-11346
▁제이슨	-11347
▁다듬	-11348
▁혼다	-11349
▁패러디	-11350
▁기와	-11351
▁녹화	-11352
▁다툼	-11353
▁라디	-11354
▁실증	-11355
▁중엽	-11356
▁하코	-11357
레스트	-11358
▁날아가	-11359
▁도박	-11360
▁전한	-11361
▁절감	-11362
▁편견	-11363
네그로	-11364
른스트	-11365
▁노르망디	-11366
▁녕	-11367
시노	-11368
용차	-11369
▁가토	-11370
▁수식	-11371
▁응급	-11372
▁평판	-11373
▁한신	-11374
▁곶	-11375
▁고생	-11376
▁관상	-11377
▁비서관	-11378
▁교향악단	-11379
▁ㄴ다면	-11380
▁기세	-11381
▁무작	-11382
▁본뜨	-11383
▁봉인	-11384
▁탄자	-11385
▁판소리	-11386
▁u	-11387
▁촛	-11388
합성	-11389
▁계주	-11390
▁기량	-11391
▁산요	-11392
▁송파	-11393
▁은혜	-11394
▁코소	-11395
▁타락	-11396
▁하남	-11397
▁후진	-11398
▁연구회	-11399
▁체인지	-11400
▁파일럿	-11401
▁니키	-11402
▁대좌	-11403
▁범하	-11404
▁삽화	-11405
▁식스	-11406
▁쌍대	-11407
▁경위	-11408
▁큐브	-11409
▁에스페	-11410
▁해상도	-11411
▁텍사스주	-11412
80	-11413
제품	-11414
▁간략	-11415
▁리즈	-11416
▁야외	-11417
▁열전	-11418
▁자명	-11419
▁피리	-11420
▁고분군	-11421
▁tv	-11422
▁공무	-11423
▁근사	-11424
▁라바	-11425
▁유공	-11426
▁조교	-11427
▁콘솔	-11428
▁예컨대	-11429
센스	-11430
▁무섭	-11431
▁온난	-11432
▁이터	-11433
▁가우	-11434
▁발상	-11435
▁병마	-11436
▁이회	-11437
▁카네	-11438
▁연장전	-11439
▁프로그래머	-11440
▁뫼	-11441
▁램프	-11442
▁리마	-11443
▁세습	-11444
▁위로	-11445
▁카마	-11446
▁단군	-11447
▁유우	-11448
▁우산	-11449
▁유생	-11450
▁에이전	-11451
▁위구르	-11452
▁Ge	-11453
▁고의	-11454
▁노면	-11455
▁받들	-11456
▁수위	-11457
▁월터	-11458
▁전반기	-11459
▁쿠빌라이	-11460
▁단속	-11461
▁도네	-11462
▁배분	-11463
▁상어	-11464
▁엔드	-11465
▁요절	-11466
▁토마토	-11467
▁권역	-11468
▁안나	-11469
▁이용객	-11470
▁으리	-11471
▁봇	-11472
치히	-11473
ink	-11474
▁관례	-11475
▁부왕	-11476
▁지극	-11477
▁학력	-11478
▁함량	-11479
▁만화가	-11480
▁1882	-11481
▁중소기업	-11482
돌이	-11483
워스	-11484
ern	-11485
▁국외	-11486
▁북군	-11487
▁다이어	-11488
▁통신사	-11489
▁해안선	-11490
에고	-11491
▁단정	-11492
▁멋지	-11493
▁모세	-11494
▁부교	-11495
▁성동	-11496
▁요양	-11497
▁헬레	-11498
▁330	-11499
▁관계없이	-11500
▁야마가타	-11501
CC	-11502
▁RP	-11503
▁간사	-11504
▁고흥	-11505
▁왕궁	-11506
▁Day	-11507
▁Wind	-11508
40	-11509
▁콥	-11510
버른	-11511
포시	-11512
프턴	-11513
▁내일	-11514
▁루키	-11515
▁주선	-11516
▁친족	-11517
▁슈퍼컵	-11518
▁사로잡히	-11519
▁거성	-11520
▁고노	-11521
▁기전	-11522
▁동포	-11523
▁몰타	-11524
▁보루	-11525
▁스루	-11526
▁유서	-11527
스트리	-11528
▁올리브	-11529
토프	-11530
▁덮개	-11531
▁세련	-11532
▁수다	-11533
▁아이언	-11534
갈리	-11535
▁교부	-11536
▁급증	-11537
▁범행	-11538
▁위조	-11539
▁파벌	-11540
▁너무나	-11541
▁단체전	-11542
▁대표자	-11543
▁데니스	-11544
▁스칼라	-11545
▁원산지	-11546
▁셔	-11547
▁가고	-11548
▁관악	-11549
▁국정원	-11550
▁필립스	-11551
II	-11552
교통	-11553
여객	-11554
▁RS	-11555
▁SA	-11556
▁사학	-11557
▁씨족	-11558
▁장덕	-11559
▁정월	-11560
▁조셉	-11561
▁공화정	-11562
▁카스트	-11563
▁여서	-11564
▁아날로그	-11565
▁몹	-11566
▁붙잡	-11567
오르크	-11568
▁레오폴	-11569
▁결사	-11570
▁배달	-11571
▁어기	-11572
▁자수	-11573
▁타수	-11574
▁부르주	-11575
▁선진국	-11576
▁영원히	-11577
▁Girl	-11578
▁직속	-11579
▁플러	-11580
▁미토콘	-11581
▁미토콘드리아	-11582
▁FK	-11583
▁베풀	-11584
▁산시	-11585
▁시안	-11586
▁우시	-11587
▁정정	-11588
▁최영	-11589
▁Sch	-11590
▁미스터리	-11591
▁성원	-11592
▁제천	-11593
▁후예	-11594
▁강당	-11595
▁상록	-11596
▁선대	-11597
▁재래	-11598
▁주창	-11599
▁태후	-11600
▁표정	-11601
▁항원	-11602
데라	-11603
▁강행	-11604
▁랭크	-11605
▁중공군	-11606
▁4000	-11607
팡이	-11608
▁남하	-11609
▁사영	-11610
▁아목	-11611
▁염려	-11612
▁형편	-11613
▁군사력	-11614
▁북유럽	-11615
▁관목	-11616
▁넬슨	-11617
▁잠깐	-11618
▁협업	-11619
▁노벨상	-11620
▁무실점	-11621
▁해운대	-11622
▁시즈오카	-11623
US	-11624
▁괌	-11625
▁경주시	-11626
▁브루클린	-11627
서니	-11628
▁신입	-11629
▁양보	-11630
▁외래	-11631
▁천수	-11632
▁독수리	-11633
▁테네시	-11634
▁호스트	-11635
▁냥	-11636
게스	-11637
▁딜런	-11638
▁사치	-11639
▁서면	-11640
▁조슈	-11641
▁안티오	-11642
▁규탄	-11643
▁발동	-11644
▁정은	-11645
▁콜럼	-11646
▁파푸아	-11647
아	-11648
▁밝혀	-11649
▁제단	-11650
본부	-11651
▁보름	-11652
▁빙하	-11653
▁사안	-11654
▁소프	-11655
▁얽히	-11656
▁우의정	-11657
▁지붕돌	-11658
▁파시즘	-11659
▁휴게소	-11660
▁우월	-11661
▁일각	-11662
▁급속히	-11663
▁사업소	-11664
▁산티아	-11665
▁제갈량	-11666
▁1868	-11667
융합	-11668
▁노사	-11669
▁단말	-11670
▁영덕	-11671
티모어	-11672
▁대상자	-11673
▁베이커	-11674
OT	-11675
▁하의	-11676
▁할인	-11677
▁회귀	-11678
▁LED	-11679
▁new	-11680
▁라인업	-11681
▁멜버른	-11682
▁메릴랜드	-11683
대	-11684
▁뒤이	-11685
▁라미	-11686
▁번창	-11687
▁종영	-11688
▁데려가	-11689
▁컨테이너	-11690
해자	-11691
▁OB	-11692
▁Or	-11693
▁고트	-11694
▁과테	-11695
▁대인	-11696
▁수열	-11697
▁아유	-11698
스탄불	-11699
▁과테말라	-11700
▁유클리드	-11701
▁이스탄불	-11702
지리	-11703
협회	-11704
oll	-11705
▁겨루	-11706
▁저조	-11707
▁족보	-11708
▁핵융합	-11709
▁사이타마	-11710
▁오아	-11711
▁밝혀내	-11712
▁스캔들	-11713
▁요충지	-11714
▁이바지	-11715
▁컨트롤러	-11716
▁몬테네그로	-11717
▁사운드트랙	-11718
▁객차	-11719
▁동적	-11720
▁어파	-11721
▁외형	-11722
▁전수	-11723
▁출자	-11724
▁피핀	-11725
▁앙골라	-11726
▁오스틴	-11727
▁사회민주당	-11728
▁렛	-11729
당기	-11730
▁군벌	-11731
▁증폭	-11732
▁청계	-11733
▁찢	-11734
▁농지	-11735
▁영월	-11736
▁절제	-11737
▁충렬	-11738
▁켄트	-11739
▁리믹스	-11740
▁좌의정	-11741
▁프랜차	-11742
▁금전	-11743
▁성산	-11744
▁장병	-11745
▁법관	-11746
▁사천	-11747
▁기념일	-11748
▁커리어	-11749
▁폐기물	-11750
▁너머	-11751
▁노후	-11752
▁라카	-11753
▁우왕	-11754
▁위력	-11755
▁잔인	-11756
▁초안	-11757
▁트이	-11758
▁항로	-11759
펜하겐	-11760
▁코펜하겐	-11761
히드	-11762
▁러일	-11763
▁망치	-11764
▁복종	-11765
▁영암	-11766
▁위촉	-11767
▁증오	-11768
▁차선	-11769
▁션	-11770
▁주계열	-11771
▁베르나르	-11772
▁야마모토	-11773
▁거처	-11774
▁교직	-11775
▁버터	-11776
▁사비	-11777
▁안무	-11778
웨이트	-11779
끔	-11780
▁밀레	-11781
▁배리	-11782
▁스콜	-11783
▁양수	-11784
▁은신	-11785
▁청도	-11786
▁출동	-11787
▁아케이드	-11788
▁요하네스	-11789
▁게끔	-11790
▁부파	-11791
▁320	-11792
▁히브리	-11793
▁프란시스코	-11794
바오	-11795
어넣	-11796
▁타리	-11797
▁신주쿠	-11798
▁프랜차이즈	-11799
▁colspan	-11800
▁다우	-11801
▁대도	-11802
▁동향	-11803
▁식용	-11804
▁외과	-11805
▁이메	-11806
▁주심	-11807
▁카세	-11808
▁피드	-11809
▁헌장	-11810
▁수요일	-11811
▁암스테르담	-11812
리안	-11813
▁고온	-11814
▁도상	-11815
▁성악	-11816
▁정몽	-11817
▁치유	-11818
▁공안	-11819
▁내분	-11820
▁네티	-11821
▁이항	-11822
▁종신	-11823
▁김옥균	-11824
▁사이먼	-11825
▁슌	-11826
공주	-11827
호란	-11828
▁끊기	-11829
▁대청	-11830
▁분단	-11831
▁우연	-11832
▁준장	-11833
▁추서	-11834
▁피치	-11835
▁DF	-11836
▁능동	-11837
▁대덕	-11838
▁분사	-11839
▁습관	-11840
▁end	-11841
▁동맹국	-11842
▁자서전	-11843
디나비아	-11844
▁게오르크	-11845
▁니콜라스	-11846
▁스칸디나비아	-11847
▁상국	-11848
▁소아	-11849
▁슈테	-11850
▁시비	-11851
▁양대	-11852
▁치하	-11853
▁카툰	-11854
▁컨설	-11855
아다니	-11856
▁효고현	-11857
▁여성주의	-11858
▁놈	-11859
우에	-11860
익스	-11861
▁김윤	-11862
▁순차	-11863
▁전세	-11864
▁그만큼	-11865
▁산티아고	-11866
걸이	-11867
▁국철	-11868
▁긴밀	-11869
▁바울	-11870
▁자재	-11871
▁정령	-11872
▁조영	-11873
▁첼로	-11874
▁축산	-11875
토리코	-11876
▁오일러	-11877
RT	-11878
▁김선	-11879
▁직행	-11880
▁타일	-11881
▁톰슨	-11882
▁결과물	-11883
▁서해안	-11884
▁육군사관학교	-11885
꼬리	-11886
▁by	-11887
▁모차	-11888
▁샤프	-11889
▁압록	-11890
▁전락	-11891
▁함흥	-11892
▁호아	-11893
amp	-11894
gin	-11895
▁거지	-11896
▁데드	-11897
▁문종	-11898
▁데이브	-11899
▁헤이안	-11900
▁에른스트	-11901
▁쿠웨이트	-11902
니파	-11903
려들	-11904
▁노아	-11905
▁서주	-11906
▁차츰	-11907
▁타로	-11908
▁브뤼셀	-11909
▁서사시	-11910
▁시트콤	-11911
▁늪	-11912
독립	-11913
셀러	-11914
웍스	-11915
▁점거	-11916
▁칭송	-11917
▁한번	-11918
▁280	-11919
▁로마자	-11920
▁철저히	-11921
▁루이지애나	-11922
▁코스타리카	-11923
단지	-11924
▁김승	-11925
▁브릿	-11926
▁정반	-11927
▁퍼즐	-11928
▁발전기	-11929
▁위안부	-11930
▁텔레콤	-11931
▁내무	-11932
▁아흐	-11933
▁주성	-11934
▁어웨이	-11935
▁윗부분	-11936
▁장로교	-11937
▁푸에르토리코	-11938
LA	-11939
▁고집	-11940
▁문무	-11941
▁원활	-11942
▁전학	-11943
▁짐승	-11944
▁천천	-11945
▁흡사	-11946
▁203	-11947
▁가라앉	-11948
▁법조인	-11949
▁천안시	-11950
▁결핵	-11951
▁리코	-11952
▁박성	-11953
▁천마	-11954
▁펠릭스	-11955
▁화장품	-11956
▁함경북도	-11957
▁촐	-11958
계승	-11959
▁각료	-11960
▁수량	-11961
▁정재	-11962
▁후유	-11963
▁IOC	-11964
▁데일리	-11965
▁유학자	-11966
▁포르노	-11967
▁1893	-11968
▁백악	-11969
▁소대	-11970
▁유족	-11971
▁이우	-11972
▁척도	-11973
▁편향	-11974
▁부르고	-11975
OW	-11976
▁갯	-11977
▁격려	-11978
▁리튬	-11979
▁박상	-11980
▁배드	-11981
▁앤디	-11982
▁온화	-11983
▁축전	-11984
▁충무	-11985
▁폐렴	-11986
▁피크	-11987
▁학장	-11988
▁도자기	-11989
▁트리오	-11990
▁복음주의	-11991
▁맬	-11992
게임	-11993
▁Fe	-11994
▁과시	-11995
▁레프	-11996
▁생리	-11997
▁코네	-11998
▁천천히	-11999
퍼레이션	-12000
북구	-12001
▁이아	-12002
▁집착	-12003
▁측량	-12004
▁민병대	-12005
업자	-12006
▁대종	-12007
▁서스	-12008
▁영천	-12009
라이드	-12010
▁가고시마	-12011
gr	-12012
나기	-12013
세유	-12014
ung	-12015
▁막판	-12016
▁자진	-12017
▁헌터	-12018
▁교육자	-12019
▁이탈리아어	-12020
▁기쁨	-12021
▁선인	-12022
▁이황	-12023
▁해왕	-12024
▁해안가	-12025
▁마이크로	-12026
▁탄자니아	-12027
▁Mo	-12028
▁NP	-12029
▁김치	-12030
▁배양	-12031
▁조니	-12032
▁조제	-12033
▁탈취	-12034
▁로베르	-12035
상시	-12036
les	-12037
▁le	-12038
▁심포	-12039
▁우두	-12040
▁접종	-12041
▁하급	-12042
▁하타	-12043
▁헤로	-12044
▁동맹군	-12045
▁톡	-12046
▁도우	-12047
▁서초구	-12048
▁Rock	-12049
▁갚	-12050
티에	-12051
화학	-12052
▁간직	-12053
▁도출	-12054
로이드	-12055
▁덥	-12056
▁관우	-12057
▁김천	-12058
▁애인	-12059
▁노미야	-12060
▁초콜릿	-12061
▁핏	-12062
eth	-12063
▁도이	-12064
▁미성	-12065
▁심상	-12066
▁유영	-12067
▁톱니	-12068
▁아라곤	-12069
▁아우르	-12070
▁Comp	-12071
▁후쿠오카현	-12072
들러	-12073
몬트	-12074
▁관성	-12075
▁금동	-12076
▁불경	-12077
▁사귀	-12078
▁한문	-12079
▁한큐	-12080
▁유적지	-12081
▁컬렉션	-12082
익스피어	-12083
▁격하	-12084
▁공양	-12085
▁림프	-12086
▁플랑크	-12087
▁가르시아	-12088
▁셰익스피어	-12089
레드	-12090
▁구금	-12091
▁귀속	-12092
▁심부	-12093
▁점검	-12094
▁주세	-12095
▁칼슘	-12096
루이스	-12097
▁고려대	-12098
▁비스타	-12099
▁굳히	-12100
▁마타	-12101
▁오하	-12102
▁전미	-12103
▁녹색당	-12104
▁레인저스	-12105
▁끓이	-12106
▁바비	-12107
▁아츠	-12108
▁조롱	-12109
▁흥분	-12110
▁서바이	-12111
▁케이크	-12112
▁픽처스	-12113
▁Univers	-12114
▁Am	-12115
▁견고	-12116
▁버섯	-12117
▁강화도	-12118
▁글래스	-12119
▁스포르	-12120
▁미나모토	-12121
▁부르고뉴	-12122
oth	-12123
▁라흐	-12124
▁장녀	-12125
▁현판	-12126
▁Rec	-12127
▁도야마	-12128
▁사상가	-12129
▁우울증	-12130
▁다면서	-12131
▁구독	-12132
▁까마	-12133
▁명인	-12134
▁버러	-12135
▁소사	-12136
▁아메	-12137
▁에마	-12138
▁TBS	-12139
▁상관없이	-12140
▁AB	-12141
▁대주	-12142
▁발목	-12143
▁배기	-12144
▁배역	-12145
▁시속	-12146
▁온대	-12147
▁페더	-12148
▁불계승	-12149
▁휘말리	-12150
▁노랑	-12151
▁비지	-12152
▁에로	-12153
▁월트	-12154
▁휴양	-12155
▁게오르	-12156
▁로스쿨	-12157
▁밀려나	-12158
▁발사체	-12159
▁순양함	-12160
▁러시아군	-12161
태평	-12162
▁구치	-12163
▁대차	-12164
▁라즈	-12165
▁무단	-12166
▁물결	-12167
▁도카이도	-12168
▁인공위성	-12169
트르	-12170
▁마트	-12171
▁상정	-12172
▁심문	-12173
▁재차	-12174
▁지난	-12175
▁특사	-12176
▁참모총장	-12177
▁낚시	-12178
▁미츠	-12179
▁청량	-12180
▁황산	-12181
▁230	-12182
그마	-12183
▁반동	-12184
▁에바	-12185
▁침례	-12186
▁카레	-12187
▁후하	-12188
폭탄	-12189
▁Do	-12190
▁노프	-12191
▁물려주	-12192
▁베르타	-12193
▁프리스	-12194
▁from	-12195
▁플로리다주	-12196
▁핼	-12197
▁끼우	-12198
▁대접	-12199
▁미아	-12200
▁연회	-12201
▁파편	-12202
▁GNU	-12203
▁스탠리	-12204
▁가와사키	-12205
▁에스페란토	-12206
▁꾸리	-12207
▁대진	-12208
▁향기	-12209
▁Sup	-12210
▁국제선	-12211
▁기업가	-12212
▁마르세유	-12213
▁율리우스	-12214
국적	-12215
바리	-12216
▁강진	-12217
▁나뭇	-12218
▁당뇨	-12219
▁슈타	-12220
▁용품	-12221
▁평안도	-12222
▁프로모	-12223
ublic	-12224
▁뮐	-12225
헤드	-12226
▁스투	-12227
▁울릉	-12228
▁유포	-12229
▁이범	-12230
▁재발	-12231
▁수차례	-12232
▁중앙은행	-12233
▁IV	-12234
▁가부	-12235
▁동종	-12236
▁소용	-12237
▁운임	-12238
▁철강	-12239
민스터	-12240
▁로빈슨	-12241
▁지바현	-12242
▁펠리페	-12243
▁으려는	-12244
▁Su	-12245
▁리차	-12246
▁매달	-12247
▁산수	-12248
▁원유	-12249
▁피사	-12250
▁수나라	-12251
▁허드슨	-12252
▁1888	-12253
▁박테리아	-12254
▁사커	-12255
▁스킴	-12256
▁애초	-12257
▁웃음	-12258
▁장래	-12259
▁제창	-12260
▁페오	-12261
▁조선왕	-12262
▁하이퍼	-12263
유사	-12264
▁제철	-12265
▁카야	-12266
▁쫓아내	-12267
▁깁	-12268
▁네모	-12269
▁성기	-12270
▁청송	-12271
▁경계선	-12272
▁다이빙	-12273
▁로이드	-12274
▁이바라	-12275
▁1892	-12276
▁노스캐롤라이나	-12277
둘기	-12278
▁닉슨	-12279
▁데미	-12280
▁명부	-12281
▁시우	-12282
▁사간원	-12283
▁세네갈	-12284
▁쇠고기	-12285
▁CG	-12286
▁Sw	-12287
▁공법	-12288
▁납부	-12289
▁소동	-12290
▁재앙	-12291
▁Car	-12292
▁케이트	-12293
AI	-12294
▁메틸	-12295
▁유무	-12296
▁세비야	-12297
▁자라나	-12298
▁차세대	-12299
연수	-12300
홍색	-12301
▁고스	-12302
▁군데	-12303
▁백자	-12304
▁아와	-12305
▁활동가	-12306
▁우에스기	-12307
▁푹	-12308
▁맥아	-12309
▁붕어	-12310
▁사변	-12311
▁사키	-12312
▁옥타	-12313
▁애덤스	-12314
▁절도사	-12315
AE	-12316
티노	-12317
▁ar	-12318
▁강성	-12319
▁공시	-12320
▁과잉	-12321
▁모던	-12322
▁순례	-12323
▁시문	-12324
▁어의	-12325
▁입헌	-12326
▁주먹	-12327
▁관현악	-12328
▁소학교	-12329
▁굶	-12330
▁과연	-12331
▁새뮤	-12332
▁펠트	-12333
로니아	-12334
▁스탠드	-12335
▁헤라클	-12336
▁낙양	-12337
▁라드	-12338
▁면모	-12339
▁불사	-12340
▁살라	-12341
▁위계	-12342
▁레이디	-12343
▁뱃	-12344
암리	-12345
철수	-12346
▁이봉	-12347
▁자립	-12348
미디어	-12349
▁공방전	-12350
▁논리학	-12351
▁대명사	-12352
▁대전차	-12353
▁문자열	-12354
▁산스크	-12355
▁산스크리트	-12356
▁펩	-12357
사태	-12358
▁반주	-12359
▁코사	-12360
▁고려사	-12361
▁다카라	-12362
▁대공국	-12363
▁더블린	-12364
▁스테판	-12365
▁알렉산드로스	-12366
▁씻	-12367
네트	-12368
다보	-12369
▁농축	-12370
▁미미	-12371
▁미식	-12372
▁세레	-12373
▁자코	-12374
▁하임	-12375
▁해병	-12376
▁사절단	-12377
▁아브라	-12378
▁지리학	-12379
▁카운트	-12380
▁1876	-12381
▁으시	-12382
비크	-12383
자동	-12384
▁IR	-12385
▁계량	-12386
▁산청	-12387
▁직계	-12388
▁필하	-12389
▁후원자	-12390
▁프린스턴	-12391
▁니켈	-12392
▁도르트	-12393
▁볼로냐	-12394
▁성매매	-12395
▁올리버	-12396
▁데스크톱	-12397
▁펫	-12398
다오	-12399
보리	-12400
▁깃털	-12401
▁대금	-12402
▁죄수	-12403
▁중고	-12404
▁USB	-12405
▁북조선	-12406
▁전주시	-12407
ah	-12408
▁나름	-12409
▁노랗	-12410
▁생모	-12411
▁선양	-12412
▁사단장	-12413
▁리라	-12414
▁wh	-12415
▁당황	-12416
▁댓글	-12417
▁두각	-12418
▁이나	-12419
▁이산	-12420
▁정진	-12421
▁채색	-12422
▁아무리	-12423
▁앤서니	-12424
▁집행유예	-12425
▁프레임워크	-12426
로쿠	-12427
▁거룩	-12428
▁단조	-12429
▁로브	-12430
▁부양	-12431
▁손녀	-12432
▁수력	-12433
▁조개	-12434
▁통폐	-12435
▁풍습	-12436
▁Gre	-12437
▁브래드	-12438
▁1866	-12439
▁페르난도	-12440
▁가면라이더	-12441
▁베이시스트	-12442
▁물류	-12443
▁발의	-12444
▁수하	-12445
▁에반	-12446
▁완도	-12447
▁축성	-12448
▁토이	-12449
리카락	-12450
▁260	-12451
▁1886	-12452
▁머리카락	-12453
▁덱	-12454
▁간혹	-12455
▁복싱	-12456
▁송환	-12457
▁알폰	-12458
▁이호	-12459
▁전권	-12460
▁포탄	-12461
▁보좌관	-12462
▁서기관	-12463
광성	-12464
▁부류	-12465
▁약점	-12466
▁펴내	-12467
▁프란치스코	-12468
너드	-12469
네임	-12470
뮬러	-12471
▁군관	-12472
▁비우	-12473
▁조현	-12474
▁파파	-12475
르타뉴	-12476
▁게시판	-12477
▁장제스	-12478
▁베네딕토	-12479
▁브르타뉴	-12480
▁펭	-12481
코르	-12482
▁너스	-12483
▁번갈	-12484
▁아쉽	-12485
▁앨리	-12486
▁일진	-12487
▁저우	-12488
▁조소	-12489
▁교구장	-12490
▁생리학	-12491
▁조나라	-12492
▁인플레이션	-12493
▁꽂	-12494
▁도성	-12495
▁본체	-12496
▁아디	-12497
▁유능	-12498
▁스테인	-12499
▁Tour	-12500
EST	-12501
▁표하	-12502
▁합천	-12503
러뜨리	-12504
▁270	-12505
▁구스타프	-12506
분열	-12507
▁co	-12508
▁마린	-12509
▁바시	-12510
▁박수	-12511
▁얼룩	-12512
▁엘런	-12513
▁펀드	-12514
▁바이어	-12515
▁코소보	-12516
▁웨스트민스터	-12517
라호	-12518
▁신진	-12519
▁원상	-12520
▁잘리	-12521
▁덩어리	-12522
▁독립군	-12523
▁베이비	-12524
▁이즈미	-12525
▁페미니	-12526
▁드미트리	-12527
▁무수	-12528
▁서예	-12529
▁유다	-12530
▁강서구	-12531
▁민영화	-12532
▁해결책	-12533
꿈치	-12534
레시	-12535
큐어	-12536
▁긴키	-12537
▁배척	-12538
▁에리	-12539
▁임계	-12540
▁초전	-12541
▁파커	-12542
▁행방	-12543
▁새뮤얼	-12544
▁통폐합	-12545
▁도약	-12546
▁악곡	-12547
▁서포터	-12548
▁쏟아지	-12549
▁역사학	-12550
▁용의자	-12551
▁장난감	-12552
▁마르쿠스	-12553
▁카르타고	-12554
우회	-12555
ron	-12556
▁도하	-12557
▁산물	-12558
▁제르	-12559
▁현과	-12560
▁간사이	-12561
▁주니치	-12562
▁1887	-12563
▁모차르트	-12564
직경	-12565
짜기	-12566
▁마나	-12567
▁망하	-12568
▁빅뱅	-12569
▁슬램	-12570
▁중개	-12571
▁퇴위	-12572
▁경영학	-12573
▁삼각주	-12574
▁프리미엄	-12575
쓰기	-12576
▁KB	-12577
▁ML	-12578
▁경무	-12579
▁모라	-12580
▁위패	-12581
▁음운	-12582
▁타구	-12583
▁프루	-12584
▁금나라	-12585
▁바람직	-12586
▁시직경	-12587
▁이어주	-12588
▁1861	-12589
지오	-12590
▁도제	-12591
▁박자	-12592
▁아자	-12593
▁여타	-12594
▁포츠	-12595
land	-12596
▁보살상	-12597
▁사쓰마	-12598
▁불러들이	-12599
▁브리티시	-12600
슈타	-12601
▁동창	-12602
▁레트	-12603
▁유전학	-12604
▁집정관	-12605
▁축구팀	-12606
▁화요일	-12607
ave	-12608
ble	-12609
▁광선	-12610
▁급히	-12611
▁습득	-12612
▁출혈	-12613
▁근거지	-12614
▁Dream	-12615
19	-12616
왕후	-12617
▁위시	-12618
▁지아	-12619
▁페스	-12620
▁클레멘스	-12621
▁싹	-12622
비안	-12623
하임	-12624
▁Up	-12625
▁고창	-12626
▁마구	-12627
▁무자	-12628
▁오산	-12629
▁유머	-12630
▁편안	-12631
▁Wii	-12632
른베르크	-12633
▁재단법인	-12634
제비	-12635
▁가닥	-12636
▁자궁	-12637
▁펠로	-12638
▁장애물	-12639
▁도미니카	-12640
▁볼티모어	-12641
클라	-12642
▁세분	-12643
▁여건	-12644
▁코호	-12645
▁홈경기	-12646
▁Life	-12647
동자	-12648
▁SV	-12649
▁몰두	-12650
▁특기	-12651
▁1864	-12652
코타	-12653
▁it	-12654
▁버크	-12655
▁올레	-12656
▁정예	-12657
▁직사	-12658
▁형용	-12659
▁환관	-12660
▁단거리	-12661
▁부분군	-12662
▁라시	-12663
▁유타	-12664
▁천지	-12665
DA	-12666
라르	-12667
ult	-12668
▁꺼리	-12669
▁레버	-12670
▁슬프	-12671
▁외환	-12672
▁익명	-12673
▁촛불	-12674
▁포화	-12675
▁당선자	-12676
▁만점	-12677
▁모국	-12678
▁사내	-12679
▁사하	-12680
▁오대	-12681
▁자릿	-12682
▁황해도	-12683
▁다행	-12684
▁불분	-12685
▁뛰어넘	-12686
▁신세계	-12687
▁코스트	-12688
▁후세인	-12689
▁모닝	-12690
▁양현	-12691
▁완결	-12692
▁교지	-12693
▁기밀	-12694
▁내포	-12695
▁수이	-12696
▁착하	-12697
▁데이빗	-12698
▁바로크	-12699
▁1850	-12700
▁석가모니	-12701
열차	-12702
▁에두	-12703
▁왕관	-12704
▁장전	-12705
솔리니	-12706
린트	-12707
▁RT	-12708
▁발톱	-12709
▁세무	-12710
▁오메	-12711
▁지면	-12712
▁파직	-12713
▁런	-12714
▁공연장	-12715
▁네티즌	-12716
▁보안법	-12717
▁음악원	-12718
▁좌표계	-12719
▁프랑코	-12720
▁스트리밍	-12721
▁SH	-12722
▁경건	-12723
▁재결	-12724
▁개정안	-12725
▁백악기	-12726
▁재판부	-12727
▁카이로	-12728
▁휘두르	-12729
예술	-12730
즐리	-12731
콘신	-12732
▁뇨	-12733
▁구문	-12734
▁뒤늦	-12735
▁리트	-12736
▁스모	-12737
▁승단	-12738
▁어우	-12739
▁증세	-12740
▁혼혈	-12741
▁홍성	-12742
▁가해자	-12743
▁노동력	-12744
▁위스콘신	-12745
디슨	-12746
▁건네	-12747
▁복위	-12748
▁실각	-12749
▁잔디	-12750
▁토목	-12751
▁모나코	-12752
▁TC	-12753
▁근래	-12754
▁예의	-12755
▁이력	-12756
▁홈즈	-12757
▁다카라즈카	-12758
ational	-12759
▁홀딩	-12760
ition	-12761
▁남베트남	-12762
▁렙	-12763
니오	-12764
▁눈치	-12765
▁접합	-12766
▁평탄	-12767
▁하얀	-12768
▁히토	-12769
orm	-12770
▁부풀	-12771
▁승하	-12772
▁암모	-12773
▁보너스	-12774
▁사들이	-12775
▁주나라	-12776
▁컨텐츠	-12777
▁토트넘	-12778
▁마을버스	-12779
▁Music	-12780
플린	-12781
▁객원	-12782
▁고모	-12783
▁공판	-12784
▁쓰루	-12785
▁오일	-12786
▁허블	-12787
라호마	-12788
▁사나이	-12789
▁재판관	-12790
▁1830	-12791
▁오클라호마	-12792
▁계보	-12793
▁관내	-12794
▁군세	-12795
▁승지	-12796
▁추존	-12797
▁헌납	-12798
▁생성물	-12799
▁1881	-12800
EP	-12801
▁AG	-12802
▁기통	-12803
▁왕성	-12804
바도르	-12805
▁아카이	-12806
▁헤라클레스	-12807
브웨	-12808
ton	-12809
▁강세	-12810
▁구례	-12811
▁더하	-12812
▁도산	-12813
▁마요	-12814
▁워킹	-12815
▁침대	-12816
▁쿼크	-12817
▁푸아	-12818
▁참의원	-12819
▁행정동	-12820
▁루스벨트	-12821
▁en	-12822
▁리에	-12823
▁매진	-12824
▁이별	-12825
▁조심	-12826
▁짐바	-12827
▁패권	-12828
▁ㄹ라	-12829
▁유니버스	-12830
▁크리에이	-12831
▁고하	-12832
▁방공	-12833
▁백업	-12834
▁삼척	-12835
▁알맞	-12836
▁잠실	-12837
▁필연	-12838
▁황자	-12839
▁미네소타	-12840
▁if	-12841
▁말단	-12842
▁민물	-12843
▁선율	-12844
▁요괴	-12845
▁정황	-12846
▁대표단	-12847
▁압록강	-12848
▁요금소	-12849
▁돗	-12850
▁남송	-12851
▁발하	-12852
▁엿보	-12853
▁재벌	-12854
▁차수	-12855
▁카와	-12856
▁관련자	-12857
▁대교구	-12858
▁무작위	-12859
▁화성시	-12860
▁구획	-12861
▁목욕	-12862
▁아타	-12863
▁전리	-12864
▁챙기	-12865
▁편하	-12866
▁돋보이	-12867
▁여학생	-12868
▁합창단	-12869
▁DR	-12870
▁괘불	-12871
▁배트	-12872
▁세간	-12873
▁판관	-12874
▁남조	-12875
▁마티	-12876
▁복직	-12877
▁산기	-12878
▁스몰	-12879
▁자판	-12880
▁로맨틱	-12881
▁야구단	-12882
▁외무부	-12883
▁1872	-12884
▁낭만주의	-12885
▁도라에몽	-12886
▁컴파일러	-12887
▁트레이닝	-12888
렌스	-12889
▁경도	-12890
▁다비	-12891
▁러닝	-12892
▁생도	-12893
▁인제	-12894
▁전교	-12895
▁찍히	-12896
▁해석학	-12897
뛰기	-12898
화경	-12899
▁Ed	-12900
▁경매	-12901
▁관용	-12902
▁닛산	-12903
▁동차	-12904
▁벌레	-12905
▁뷰티	-12906
▁소라	-12907
▁스윙	-12908
▁오우	-12909
▁종업	-12910
▁현미	-12911
ject	-12912
▁까마귀	-12913
▁반대파	-12914
▁대한항공	-12915
▁오스트리	-12916
▁발자	-12917
▁신봉	-12918
▁아편	-12919
▁이누	-12920
▁조경	-12921
▁흑백	-12922
▁마르셀	-12923
▁선제골	-12924
라이어티	-12925
아메리카	-12926
▁버라이어티	-12927
타입	-12928
평리	-12929
▁XP	-12930
▁대강	-12931
▁딸리	-12932
▁별장	-12933
▁익산	-12934
▁코난	-12935
▁iOS	-12936
▁부르주아	-12937
▁꿰	-12938
▁등등	-12939
▁미상	-12940
▁발포	-12941
▁스기	-12942
▁콘티	-12943
▁파주	-12944
▁ㄴ데	-12945
▁감리교	-12946
▁다비드	-12947
▁삭스	-12948
▁지경	-12949
▁쿠로	-12950
▁투하	-12951
▁불분명	-12952
▁이메일	-12953
▁기고	-12954
▁레비	-12955
▁시원	-12956
▁체하	-12957
▁세르게이	-12958
▁이시카와	-12959
께끼	-12960
ION	-12961
ᇀ이	-12962
▁김희	-12963
▁부전	-12964
▁양면	-12965
▁용사	-12966
▁의례	-12967
▁파기	-12968
▁파열	-12969
▁750	-12970
▁피닉스	-12971
▁수수께끼	-12972
▁같이	-12973
덕왕	-12974
▁교제	-12975
▁금고	-12976
▁루나	-12977
▁여호	-12978
▁팔작	-12979
▁다시금	-12980
▁무솔리니	-12981
림사	-12982
비오	-12983
▁an	-12984
▁당진	-12985
▁배아	-12986
▁야망	-12987
▁이례	-12988
▁종묘	-12989
▁중랑	-12990
▁트란	-12991
브리드	-12992
슬라프	-12993
▁라치오	-12994
▁롬바르	-12995
▁범죄자	-12996
▁Open	-12997
▁엡	-12998
▁꼬마	-12999
▁두어	-13000
▁레아	-13001
▁매스	-13002
▁승상	-13003
▁애슬	-13004
▁원동	-13005
▁진흙	-13006
▁친밀	-13007
▁햇빛	-13008
태평양	-13009
▁난이도	-13010
▁도르트문트	-13011
나파	-13012
루크	-13013
▁BL	-13014
▁교동	-13015
▁메우	-13016
▁베일	-13017
▁애완	-13018
▁이은	-13019
▁청문	-13020
▁켄터	-13021
▁농어촌	-13022
▁라이스	-13023
▁센다이	-13024
▁화학자	-13025
▁대중교통	-13026
▁유라시아	-13027
달마	-13028
쿠니	-13029
▁te	-13030
▁몸돌	-13031
▁양조	-13032
▁캐피	-13033
▁Don	-13034
▁모멘트	-13035
▁하얀색	-13036
번에	-13037
어드	-13038
클럽	-13039
▁그란	-13040
▁당과	-13041
▁배향	-13042
▁복역	-13043
▁주고	-13044
▁기획사	-13045
▁아이콘	-13046
▁앞세우	-13047
▁튼	-13048
▁경량	-13049
▁반죽	-13050
▁변종	-13051
▁샤이	-13052
▁음주	-13053
▁부다페스트	-13054
▁Ab	-13055
▁단국	-13056
▁도봉	-13057
▁브렌	-13058
▁의용	-13059
▁인위	-13060
변속기	-13061
▁개체군	-13062
▁청년회	-13063
▁초록색	-13064
▁호크스	-13065
▁하이브리드	-13066
ru	-13067
데자	-13068
▁리브	-13069
▁조시	-13070
▁승용차	-13071
▁타임즈	-13072
데자네이	-13073
▁1865	-13074
▁쵸	-13075
더지	-13076
ics	-13077
▁Sm	-13078
▁닌자	-13079
▁모란	-13080
▁발산	-13081
▁순항	-13082
▁장쑤	-13083
▁탄산	-13084
▁허목	-13085
▁격투기	-13086
▁유전체	-13087
▁기쁘	-13088
▁넥센	-13089
▁취향	-13090
▁통지	-13091
▁휩싸	-13092
리아스	-13093
올로기	-13094
▁파충류	-13095
▁폼페이	-13096
▁1863	-13097
▁이데올로기	-13098
매김	-13099
▁살짝	-13100
▁열렬	-13101
▁작년	-13102
▁계승자	-13103
▁세군다	-13104
▁안산시	-13105
바인	-13106
ier	-13107
▁가독	-13108
▁가든	-13109
▁거꾸	-13110
▁보정	-13111
▁슈고	-13112
▁오트	-13113
▁그나마	-13114
▁탐험가	-13115
워즈	-13116
▁내재	-13117
▁대의	-13118
▁옹주	-13119
▁티모	-13120
▁페라	-13121
▁피카	-13122
▁밀가루	-13123
▁박영효	-13124
▁시간대	-13125
▁작품상	-13126
▁과다	-13127
▁납작	-13128
▁잠기	-13129
▁토로	-13130
▁한창	-13131
▁경복궁	-13132
▁항아리	-13133
▁1873	-13134
▁"-	-13135
▁AL	-13136
▁왓슨	-13137
▁이니	-13138
▁입시	-13139
▁처방	-13140
▁챌린저	-13141
▁1891	-13142
▁머니	-13143
▁반항	-13144
▁봉황	-13145
▁부실	-13146
▁조공	-13147
▁직관	-13148
▁충당	-13149
▁편제	-13150
▁피셔	-13151
▁고성군	-13152
▁여도	-13153
단위	-13154
리쿠	-13155
▁덴쇼	-13156
▁조장	-13157
▁코마	-13158
▁승정원	-13159
▁우간다	-13160
▁Good	-13161
▁HTML	-13162
▁교통사고	-13163
▁오카야마	-13164
▁자리매김	-13165
데자네이루	-13166
▁Night	-13167
▁리우데자네이루	-13168
ool	-13169
▁대목	-13170
▁박진	-13171
▁벌리	-13172
▁입술	-13173
▁클릭	-13174
▁탐정	-13175
▁포대	-13176
▁발기인	-13177
▁제프리	-13178
▁공군기지	-13179
친왕	-13180
▁계좌	-13181
▁고난	-13182
▁볼넷	-13183
▁재고	-13184
▁킹스	-13185
▁유니언	-13186
▁걸작	-13187
▁경지	-13188
▁곡면	-13189
▁메츠	-13190
▁요즘	-13191
▁정명	-13192
▁태아	-13193
▁앤드류	-13194
▁샵	-13195
리야	-13196
스레	-13197
▁곱셈	-13198
▁구슬	-13199
▁두텁	-13200
▁부추	-13201
▁야심	-13202
▁어촌	-13203
▁착취	-13204
▁공식전	-13205
▁공통점	-13206
▁베스트셀러	-13207
훈장	-13208
▁경마	-13209
▁굴복	-13210
▁란스	-13211
▁루즈	-13212
▁모함	-13213
▁병단	-13214
▁페인	-13215
▁아이디얼	-13216
▁괜	-13217
▁쩔	-13218
미쓰	-13219
참찬	-13220
쿠르	-13221
▁가비	-13222
▁나탈	-13223
▁법전	-13224
▁시진	-13225
▁철종	-13226
▁촉발	-13227
▁해킹	-13228
▁조선소	-13229
▁켄터키	-13230
▁구강	-13231
▁급하	-13232
▁미인	-13233
▁반점	-13234
▁픽셀	-13235
▁ret	-13236
▁국민회	-13237
▁발가락	-13238
▁여진족	-13239
▁려	-13240
▁완비	-13241
▁최장	-13242
▁와이드	-13243
▁짐바브웨	-13244
TE	-13245
UC	-13246
타스	-13247
ise	-13248
▁--	-13249
▁고마	-13250
▁과격	-13251
▁여대	-13252
▁자켓	-13253
▁적발	-13254
▁카슈	-13255
이스케	-13256
▁수시로	-13257
▁세계유산	-13258
린더	-13259
바지	-13260
che	-13261
▁쇼크	-13262
▁필두	-13263
▁후미	-13264
▁제너럴	-13265
QL	-13266
▁매립	-13267
▁상파	-13268
▁위법	-13269
▁다국적	-13270
▁받침돌	-13271
▁자유형	-13272
▁테무르	-13273
▁단자	-13274
▁마모	-13275
▁세단	-13276
▁어는	-13277
▁외상	-13278
▁튼튼	-13279
▁합금	-13280
▁매달리	-13281
▁시티즌	-13282
▁포항시	-13283
NG	-13284
ai	-13285
우	-13286
▁NS	-13287
▁계엄	-13288
▁극찬	-13289
▁도도	-13290
▁리자	-13291
▁분경	-13292
▁불로	-13293
▁비키	-13294
▁유태	-13295
▁코뮌	-13296
▁혈압	-13297
▁릴레이	-13298
▁몰도바	-13299
▁PM	-13300
▁국호	-13301
▁라크	-13302
▁매도	-13303
▁신대	-13304
부아르	-13305
플렉스	-13306
stem	-13307
▁IMF	-13308
▁노르드	-13309
▁백악관	-13310
▁종업원	-13311
▁온타리오주	-13312
▁샨	-13313
동맹	-13314
▁등단	-13315
▁리키	-13316
▁용감	-13317
▁키즈	-13318
▁크루즈	-13319
레타리아	-13320
▁프롤레타리아	-13321
▁댈	-13322
▁켜	-13323
레반	-13324
무제	-13325
▁당당	-13326
▁소작	-13327
▁신의	-13328
▁오즈	-13329
▁주저	-13330
▁650	-13331
▁Can	-13332
ode	-13333
▁MA	-13334
▁구시	-13335
▁병과	-13336
▁해시	-13337
▁헤어	-13338
▁거꾸로	-13339
▁캐스트	-13340
▁야쿠르트	-13341
▁Black	-13342
성경	-13343
킨슨	-13344
▁무고	-13345
▁에치	-13346
▁연행	-13347
▁을사	-13348
▁하스	-13349
▁흔들	-13350
▁다마스	-13351
▁하반기	-13352
▁무로마치	-13353
▁팔작지붕	-13354
세다	-13355
▁간판	-13356
▁교서	-13357
▁연화	-13358
▁체내	-13359
▁현무	-13360
합중국	-13361
▁슬로건	-13362
▁믈	-13363
▁콧	-13364
상어	-13365
▁네임	-13366
▁산책	-13367
▁서지	-13368
▁아뢰	-13369
▁양궁	-13370
▁양양	-13371
▁조준	-13372
▁김성수	-13373
▁트로트	-13374
70	-13375
▁라면	-13376
▁서위	-13377
▁파랑	-13378
ower	-13379
▁연주회	-13380
▁스테이트	-13381
▁증강	-13382
▁채굴	-13383
선거구	-13384
▁반정부	-13385
▁서두르	-13386
▁용산구	-13387
▁지자체	-13388
▁삼국유사	-13389
▁이바라키	-13390
▁페르디난트	-13391
▁삐	-13392
▁강호	-13393
▁버펄	-13394
▁황폐	-13395
▁550	-13396
▁피츠버그	-13397
▁광배	-13398
▁앵커	-13399
▁연달	-13400
▁우마	-13401
▁이강	-13402
▁헌병	-13403
▁조선왕조	-13404
▁section	-13405
조리	-13406
▁qu	-13407
▁농성	-13408
▁부에	-13409
▁전멸	-13410
▁증발	-13411
▁진원	-13412
▁토유	-13413
▁미카엘	-13414
▁1867	-13415
고르	-13416
▁국부	-13417
▁문정	-13418
▁아델	-13419
▁엘라	-13420
▁터빈	-13421
타나베	-13422
▁705	-13423
▁Let	-13424
▁앨버트	-13425
▁취리히	-13426
▁아비달마	-13427
▁심정	-13428
▁진언	-13429
▁타도	-13430
▁피어	-13431
▁스코어	-13432
▁1862	-13433
▁빠져나가	-13434
티야	-13435
ank	-13436
▁군자	-13437
▁대담	-13438
▁독주	-13439
▁맞춤	-13440
▁무도	-13441
▁송진	-13442
▁접전	-13443
▁캐논	-13444
▁자외선	-13445
▁q	-13446
대전	-13447
진구	-13448
펠러	-13449
▁El	-13450
▁사교	-13451
▁산신	-13452
▁열쇠	-13453
▁해지	-13454
스코트	-13455
▁경희대	-13456
▁스테이	-13457
▁엑스포	-13458
▁AI	-13459
▁MM	-13460
▁경은	-13461
▁국력	-13462
▁모반	-13463
▁온건	-13464
▁조어	-13465
▁현도	-13466
▁활자	-13467
▁광업	-13468
▁사드	-13469
▁씌우	-13470
▁예종	-13471
드라마	-13472
▁아오모리	-13473
▁이노우에	-13474
▁코호몰로지	-13475
활약	-13476
▁광자	-13477
▁조서	-13478
▁투신	-13479
▁노르만	-13480
▁언론사	-13481
해살이풀	-13482
▁미합중국	-13483
▁라이프치히	-13484
루	-13485
방군	-13486
정사	-13487
▁루피	-13488
▁북벌	-13489
▁수퍼	-13490
▁스킬	-13491
▁위헌	-13492
▁잔존	-13493
▁지탱	-13494
ings	-13495
▁손잡이	-13496
▁알폰소	-13497
곡면	-13498
리언	-13499
포타	-13500
▁저축	-13501
▁처장	-13502
▁치이	-13503
▁흡연	-13504
▁MSL	-13505
▁맹활약	-13506
▁다이노스	-13507
렐라	-13508
▁AU	-13509
▁증조부	-13510
▁프로모션	-13511
▁Ac	-13512
▁걸프	-13513
▁서한	-13514
▁완수	-13515
▁유구	-13516
▁증식	-13517
▁처치	-13518
세우스	-13519
▁변광성	-13520
▁타이탄	-13521
중추부사	-13522
▁국민학교	-13523
▁간결	-13524
▁노브	-13525
▁양군	-13526
▁장신	-13527
▁표절	-13528
▁페드로	-13529
포타미아	-13530
▁6000	-13531
▁사이타마현	-13532
▁메소포타미아	-13533
DS	-13534
▁도발	-13535
▁상선	-13536
▁오보	-13537
▁지그	-13538
▁연출가	-13539
▁썩	-13540
투르	-13541
▁LS	-13542
▁변모	-13543
▁변증	-13544
▁보직	-13545
▁옥시	-13546
▁유망	-13547
절도사	-13548
▁건륭제	-13549
▁레인저	-13550
▁낡	-13551
▁캣	-13552
비언	-13553
▁UC	-13554
▁기묘	-13555
▁무너	-13556
▁성수	-13557
▁티저	-13558
▁횡령	-13559
▁사무국	-13560
▁사보이	-13561
▁무너뜨리	-13562
인구	-13563
lar	-13564
▁번개	-13565
▁캐치	-13566
▁곁들이	-13567
▁신한은행	-13568
센터	-13569
▁신해	-13570
▁쿠라	-13571
▁신기록	-13572
▁편집장	-13573
▁-&	-13574
▁꽃잎	-13575
▁온두	-13576
▁유림	-13577
▁코모	-13578
▁키릴	-13579
▁푸드	-13580
▁감염증	-13581
▁기원후	-13582
▁대리석	-13583
▁온두라스	-13584
북면	-13585
위치	-13586
▁가물	-13587
▁고찰	-13588
▁나사	-13589
▁자행	-13590
▁조석	-13591
▁충칭	-13592
▁일본식	-13593
▁출입문	-13594
▁프로테	-13595
▁라면서	-13596
ky	-13597
▁궐	-13598
디언	-13599
사화	-13600
▁동자	-13601
▁무사히	-13602
▁1878	-13603
▁미나모토노	-13604
tr	-13605
▁세토	-13606
▁엘레	-13607
▁절약	-13608
▁참패	-13609
▁고등학생	-13610
▁협동조합	-13611
▁샴	-13612
▁팍	-13613
젤로	-13614
▁모	-13615
▁그거	-13616
▁버진	-13617
▁스톰	-13618
▁작중	-13619
▁직교	-13620
▁차림	-13621
▁표출	-13622
▁하중	-13623
▁회유	-13624
rist	-13625
▁웨이브	-13626
▁자릿수	-13627
▁치료제	-13628
▁타타르	-13629
▁비스마르크	-13630
퉁이	-13631
할린	-13632
▁내란	-13633
▁동탁	-13634
▁경쟁자	-13635
▁제조사	-13636
▁되돌아가	-13637
▁뵈	-13638
▁당파	-13639
▁완만	-13640
▁지린	-13641
▁Ser	-13642
▁갈아타	-13643
▁마그네	-13644
▁부여군	-13645
▁컴파일	-13646
ee	-13647
ta	-13648
▁밋	-13649
▁Qu	-13650
▁보류	-13651
▁시역	-13652
▁자부	-13653
▁필명	-13654
▁행군	-13655
▁백과사전	-13656
▁가극	-13657
▁국인	-13658
▁급성	-13659
▁옥천	-13660
▁적정	-13661
▁정박	-13662
▁중용	-13663
▁충신	-13664
▁후드	-13665
▁히노	-13666
플로러	-13667
▁외교부	-13668
▁주고받	-13669
▁익스플로러	-13670
빌리	-13671
hem	-13672
▁바쿠	-13673
▁시르	-13674
▁점진	-13675
▁청각	-13676
▁HMS	-13677
▁사대부	-13678
▁입법부	-13679
▁프리츠	-13680
▁해부학	-13681
▁으러	-13682
▁널	-13683
일치	-13684
▁Ag	-13685
▁고국	-13686
▁다량	-13687
▁벵골	-13688
▁서거	-13689
▁손님	-13690
▁이끼	-13691
▁불가피	-13692
▁홀딩스	-13693
시게	-13694
▁개기	-13695
▁괄호	-13696
▁라다	-13697
▁영사	-13698
▁저해	-13699
▁지체	-13700
▁현악	-13701
시아드	-13702
▁And	-13703
▁이성질	-13704
▁인지도	-13705
▁플러그	-13706
내티	-13707
다스	-13708
산부	-13709
▁길드	-13710
▁부군	-13711
▁일설	-13712
▁잉크	-13713
▁직물	-13714
▁뉴기니	-13715
▁유엔군	-13716
▁스케이트	-13717
▁신시내티	-13718
▁유니버시아드	-13719
▁ㅣ	-13720
▁킷	-13721
ᅥ나	-13722
▁북대	-13723
▁스에	-13724
▁일선	-13725
▁참수	-13726
▁802	-13727
▁액세스	-13728
▁이브스	-13729
▁1869	-13730
▁프라이즈	-13731
▁일리노이주	-13732
▁팻	-13733
▁맛보	-13734
▁매슈	-13735
▁서점	-13736
▁수당	-13737
▁수레	-13738
▁용해	-13739
▁유화	-13740
▁지문	-13741
▁행보	-13742
뉴기니	-13743
▁골짜기	-13744
▁수비대	-13745
▁특별법	-13746
사우루스	-13747
▁글로브상	-13748
▁요리토모	-13749
▁후지와라	-13750
▁밧	-13751
다발	-13752
루엔	-13753
▁가방	-13754
▁과자	-13755
▁몸체	-13756
▁잔해	-13757
▁피처	-13758
▁베르나	-13759
▁업로드	-13760
▁와세다	-13761
▁제작진	-13762
▁플루토	-13763
▁핵분열	-13764
마디	-13765
벤션	-13766
▁SO	-13767
▁박원	-13768
▁부두	-13769
▁상의	-13770
▁수급	-13771
▁애기	-13772
▁봉우리	-13773
▁코퍼레이션	-13774
▁썬	-13775
▁tr	-13776
▁강우	-13777
▁객실	-13778
▁근방	-13779
▁기조	-13780
▁대타	-13781
▁소피	-13782
▁육식	-13783
▁이목	-13784
▁마포구	-13785
▁와타나베	-13786
정보	-13787
▁변질	-13788
▁용수	-13789
▁추후	-13790
▁토라	-13791
▁락	-13792
▁방위군	-13793
▁사생활	-13794
▁쿠르드	-13795
누마	-13796
▁며느리	-13797
▁아이젠	-13798
▁영유권	-13799
▁포뮬러	-13800
▁스파이더	-13801
▁프랑스와	-13802
▁민심	-13803
▁저그	-13804
▁쫓기	-13805
▁헤더	-13806
▁페르미	-13807
▁아우구스	-13808
셔주	-13809
▁모티	-13810
▁솔라	-13811
▁자정	-13812
▁포천	-13813
▁수도회	-13814
▁원자핵	-13815
▁Song	-13816
ae	-13817
▁로시	-13818
▁면직	-13819
가르트	-13820
▁강력히	-13821
▁기동전	-13822
▁1840	-13823
▁낯	-13824
▁글렌	-13825
▁다목	-13826
▁무비	-13827
▁시시	-13828
▁자처	-13829
▁토키	-13830
▁포탑	-13831
▁형주	-13832
스타인	-13833
▁1592	-13834
▁냐고	-13835
▁키르기스	-13836
노르	-13837
▁무색	-13838
▁반입	-13839
▁치사	-13840
▁텍스	-13841
▁패킷	-13842
▁516	-13843
▁명성황후	-13844
▁목동	-13845
▁성품	-13846
▁오자	-13847
▁축일	-13848
▁콜드	-13849
▁연예계	-13850
▁오스카	-13851
▁장로회	-13852
▁프라임	-13853
▁데카르트	-13854
▁친선경기	-13855
▁탬	-13856
세르	-13857
▁고을	-13858
▁귀인	-13859
▁벤츠	-13860
▁부관	-13861
▁항생	-13862
▁안동시	-13863
▁팔꿈치	-13864
▁PL	-13865
▁금색	-13866
▁단서	-13867
▁소박	-13868
▁수증	-13869
▁숙소	-13870
▁위도	-13871
▁절친	-13872
▁떠올리	-13873
▁생화학	-13874
▁운전자	-13875
▁매킨토시	-13876
암사	-13877
▁AA	-13878
▁가곡	-13879
▁그물	-13880
▁단역	-13881
▁빈민	-13882
▁사소	-13883
▁위즈	-13884
▁컴필	-13885
ount	-13886
▁맥아더	-13887
▁바닷물	-13888
▁운동량	-13889
▁인코딩	-13890
▁사이언스	-13891
▁컴필레이션	-13892
▁벳	-13893
자원	-13894
▁사부	-13895
▁헤겔	-13896
▁금강산	-13897
▁목적지	-13898
▁유년기	-13899
▁파시스트	-13900
티컷	-13901
▁괜찮	-13902
▁넘버	-13903
▁논산	-13904
▁린다	-13905
▁바쁘	-13906
▁자취	-13907
▁출국	-13908
▁쿼터	-13909
▁포자	-13910
▁로타르	-13911
▁리차드	-13912
▁부등식	-13913
▁여객기	-13914
▁코네티컷	-13915
▁크리스티나	-13916
수염	-13917
찬성	-13918
▁RC	-13919
▁공상	-13920
▁렉스	-13921
▁분별	-13922
▁상식	-13923
▁최하	-13924
▁지하역	-13925
pr	-13926
구스	-13927
네르	-13928
▁국세	-13929
▁빅터	-13930
▁영미	-13931
▁인승	-13932
▁추축	-13933
▁폴라	-13934
▁풍기	-13935
▁하수	-13936
▁Mon	-13937
▁로드리게스	-13938
작전	-13939
ade	-13940
per	-13941
▁끌리	-13942
▁성가	-13943
▁수만	-13944
▁자루	-13945
▁패망	-13946
▁채권자	-13947
▁랙	-13948
▁암수	-13949
▁그래도	-13950
▁네이트	-13951
▁예언자	-13952
▁패스트	-13953
▁레지스터	-13954
▁마스코트	-13955
ata	-13956
▁고제	-13957
▁병풍	-13958
▁악명	-13959
▁영수	-13960
▁캐슬	-13961
▁튜브	-13962
▁휘발	-13963
▁힐베르트	-13964
▁Heart	-13965
▁아나톨리아	-13966
부시	-13967
은	-13968
▁닉스	-13969
▁다쓰	-13970
▁마레	-13971
▁아어	-13972
▁천상	-13973
▁과반수	-13974
▁시니어	-13975
▁엇갈리	-13976
▁파주시	-13977
▁휩싸이	-13978
▁8000	-13979
▁여우원숭이	-13980
블릿	-13981
▁거창	-13982
▁블러	-13983
▁양파	-13984
▁유자	-13985
▁하라	-13986
▁구단주	-13987
▁뒤따르	-13988
크라테스	-13989
▁니까	-13990
▁심리학자	-13991
날드	-13992
▁me	-13993
▁강인	-13994
▁농가	-13995
▁능가	-13996
▁디나	-13997
▁유이	-13998
▁자질	-13999
▁헤일	-14000
▁댈러스	-14001
▁스트림	-14002
▁에이전트	-14003
▁볶	-14004
효소	-14005
▁Pe	-14006
▁직렬	-14007
▁출세	-14008
▁글러브	-14009
▁창립자	-14010
▁아나키스트	-14011
▁return	-14012
▁KN	-14013
▁ab	-14014
▁규율	-14015
▁란트	-14016
▁박히	-14017
▁백조	-14018
▁삭감	-14019
▁성대	-14020
▁심소	-14021
▁에트	-14022
▁염화	-14023
▁전단	-14024
▁중견	-14025
▁세미나	-14026
▁필사본	-14027
90	-14028
어하	-14029
히메	-14030
▁DB	-14031
▁Gl	-14032
▁계룡	-14033
▁국화	-14034
▁반론	-14035
▁발착	-14036
▁유골	-14037
▁입출	-14038
▁청취	-14039
▁관심사	-14040
▁안타깝	-14041
▁적십자	-14042
▁종착역	-14043
▁테크놀	-14044
▁히타치	-14045
▁지장보살	-14046
선언	-14047
테랑	-14048
▁겸직	-14049
▁라라	-14050
▁시찰	-14051
▁실상	-14052
▁워스	-14053
▁초음	-14054
▁탁구	-14055
▁흥원	-14056
이치로	-14057
▁나치오	-14058
ium	-14059
▁거사	-14060
▁김연	-14061
▁뒤지	-14062
▁문중	-14063
▁미학	-14064
▁변혁	-14065
▁쌍성	-14066
▁의주	-14067
▁이카	-14068
▁임종	-14069
▁비둘기	-14070
▁되돌아오	-14071
▁Windows	-14072
▁펜실베이니아주	-14073
수단	-14074
히데	-14075
▁다름	-14076
▁바보	-14077
▁스택	-14078
▁온실	-14079
▁이심	-14080
▁페레	-14081
▁담당자	-14082
▁지질학	-14083
▁고등교육	-14084
▁와카야마	-14085
전선	-14086
조사	-14087
▁권익	-14088
▁들르	-14089
▁라프	-14090
▁상과	-14091
▁해트	-14092
▁보유자	-14093
▁크메르	-14094
▁라우	-14095
▁남아시아	-14096
▁영등포구	-14097
▁세인트루이스	-14098
▁걸음	-14099
▁여포	-14100
▁왜군	-14101
▁퀴즈	-14102
▁피살	-14103
▁어도비	-14104
▁그린란드	-14105
IX	-14106
던트	-14107
어가	-14108
▁As	-14109
▁Aw	-14110
▁기행	-14111
▁바인	-14112
▁베오	-14113
▁설리	-14114
▁연중	-14115
▁오시	-14116
▁외면	-14117
▁하구	-14118
▁안창호	-14119
▁피의자	-14120
▁1875	-14121
▁알프레드	-14122
IF	-14123
▁뉴런	-14124
▁니케	-14125
▁몹시	-14126
▁윤휴	-14127
▁은밀	-14128
▁침식	-14129
▁호그	-14130
▁치료법	-14131
▁토요타	-14132
구니	-14133
넌트	-14134
놀드	-14135
뻐하	-14136
▁막강	-14137
▁볼록	-14138
▁숙련	-14139
▁의복	-14140
▁정오	-14141
▁질투	-14142
▁기뻐하	-14143
▁예비역	-14144
링겐	-14145
욕장	-14146
테이	-14147
▁디바	-14148
▁신지	-14149
▁어부	-14150
▁외척	-14151
▁잠입	-14152
▁조비	-14153
▁호른	-14154
▁시미즈	-14155
▁진주시	-14156
▁헤르만	-14157
▁모자이크	-14158
▁동호	-14159
▁상동	-14160
▁열세	-14161
▁위크	-14162
▁키드	-14163
▁Out	-14164
▁집단군	-14165
계사	-14166
날레	-14167
▁강습	-14168
▁귀엽	-14169
▁면담	-14170
▁사각	-14171
▁착각	-14172
▁친화	-14173
▁컵스	-14174
▁키리	-14175
▁파랗	-14176
보당	-14177
▁교파	-14178
▁교훈	-14179
▁미지	-14180
▁유카	-14181
▁준동	-14182
▁콜린	-14183
▁KTX	-14184
▁고문서	-14185
▁나리타	-14186
▁노현	-14187
▁불복	-14188
▁웍스	-14189
▁출품	-14190
세데스	-14191
▁Gen	-14192
▁강대국	-14193
▁보리스	-14194
▁이와테	-14195
▁뉘른베르크	-14196
기즈	-14197
▁기린	-14198
▁독살	-14199
▁방울	-14200
▁타나	-14201
▁혼잡	-14202
▁이랜드	-14203
▁학술지	-14204
▁근본번뇌	-14205
▁메르세데스	-14206
기아	-14207
탄두	-14208
▁김두	-14209
▁도적	-14210
▁예프	-14211
▁이선	-14212
▁인먼	-14213
▁표제	-14214
▁사이즈	-14215
▁종사자	-14216
▁친환경	-14217
▁표트르	-14218
▁회고록	-14219
▁로니	-14220
▁문체	-14221
▁슈투	-14222
▁어사	-14223
▁원단	-14224
▁의정	-14225
▁일명	-14226
▁징집	-14227
▁철자	-14228
▁폐허	-14229
▁일부러	-14230
사유	-14231
이에	-14232
itt	-14233
son	-14234
▁VS	-14235
▁노원	-14236
▁선상	-14237
▁아다	-14238
▁야수	-14239
▁여럿	-14240
▁최남	-14241
▁취직	-14242
레이트	-14243
▁클리어	-14244
▁쳐들어오	-14245
▁페널티킥	-14246
▁로사	-14247
▁목장	-14248
▁생원	-14249
▁셔틀	-14250
▁실명	-14251
▁한민	-14252
▁380	-14253
▁게임기	-14254
▁리스본	-14255
▁끌어올리	-14256
▁남양주시	-14257
▁눌	-14258
▁sh	-14259
▁순식	-14260
▁용지	-14261
▁절충	-14262
▁차명	-14263
▁첩보	-14264
▁터너	-14265
▁컨벤션	-14266
▁안드로메다	-14267
BI	-14268
세서	-14269
▁다자	-14270
▁닥치	-14271
▁서약	-14272
▁월화	-14273
▁텐서	-14274
에이고	-14275
▁AMD	-14276
▁데이트	-14277
▁돌고래	-14278
▁매디슨	-14279
▁송파구	-14280
▁최성기	-14281
▁함경도	-14282
▁샌디에이고	-14283
▁달콤	-14284
▁리크	-14285
▁에레	-14286
▁의성	-14287
▁이희	-14288
▁즐거	-14289
▁집전	-14290
록대부	-14291
▁성폭행	-14292
▁테오도	-14293
▁땀	-14294
▁TS	-14295
▁기운	-14296
▁아노	-14297
▁율법	-14298
▁태안	-14299
▁스케치	-14300
▁스피커	-14301
▁칭기즈	-14302
▁통도사	-14303
▁몽고메리	-14304
▁병자호란	-14305
▁브란덴부르크	-14306
▁로큰	-14307
▁버트	-14308
▁성행	-14309
▁특공	-14310
▁강희제	-14311
▁아세틸	-14312
▁통신망	-14313
▁파라오	-14314
PA	-14315
방향	-14316
ale	-14317
▁디디	-14318
▁문관	-14319
▁비료	-14320
▁아지	-14321
▁예식	-14322
▁왕래	-14323
▁활기	-14324
▁부적절	-14325
▁북극점	-14326
▁쇼핑몰	-14327
▁이사벨	-14328
▁장갑차	-14329
▁중앙선	-14330
▁채무자	-14331
▁클레어	-14332
▁항공대	-14333
▁행해지	-14334
더링	-14335
어류	-14336
▁금정	-14337
▁기판	-14338
▁단양	-14339
▁선체	-14340
▁안중	-14341
▁일차	-14342
▁타쿠	-14343
able	-14344
▁레스터	-14345
▁신석기	-14346
▁싫어하	-14347
▁크라운	-14348
▁포르투갈어	-14349
니에	-14350
은사	-14351
▁바늘	-14352
▁배반	-14353
▁마주치	-14354
▁베르트	-14355
▁상반기	-14356
▁슈타인	-14357
▁코트디	-14358
▁코트디부아르	-14359
UN	-14360
▁싯	-14361
알라	-14362
엽수	-14363
▁감기	-14364
▁극소	-14365
▁생쥐	-14366
▁야권	-14367
▁양지	-14368
▁정언	-14369
▁체로	-14370
▁환율	-14371
▁획기	-14372
▁가환환	-14373
▁광둥성	-14374
▁다이쇼	-14375
▁로큰롤	-14376
▁KO	-14377
▁구루	-14378
▁레몬	-14379
▁명상	-14380
▁슬리	-14381
▁영락	-14382
▁원효	-14383
해방군	-14384
▁롤	-14385
▁꽃차례	-14386
▁연속극	-14387
▁프론트	-14388
▁쇼트트랙	-14389
▁바빌로니아	-14390
▁인민해방군	-14391
ng	-14392
부대	-14393
세키	-14394
윽고	-14395
▁결전	-14396
▁동거	-14397
▁서당	-14398
▁세일	-14399
▁술라	-14400
▁장정	-14401
▁칸트	-14402
▁포인	-14403
▁로버츠	-14404
▁야마다	-14405
▁이윽고	-14406
▁파스칼	-14407
▁교관	-14408
▁기공	-14409
▁"()	-14410
▁아리랑	-14411
▁저널리스트	-14412
두사	-14413
르카	-14414
몽골	-14415
크리	-14416
▁가세	-14417
▁교화	-14418
▁라울	-14419
▁모질	-14420
▁박재	-14421
▁실은	-14422
▁중일	-14423
▁되풀이	-14424
▁바나나	-14425
▁벙	-14426
시대	-14427
▁거머	-14428
▁구세	-14429
▁기마	-14430
▁방호	-14431
▁스펜	-14432
▁안식	-14433
▁안톤	-14434
▁애착	-14435
▁출격	-14436
▁건너오	-14437
▁비단털	-14438
▁오프라인	-14439
촌리	-14440
▁구타	-14441
▁로바	-14442
▁모체	-14443
▁모피	-14444
▁보우	-14445
▁엔젤	-14446
▁이질	-14447
루엔자	-14448
▁Par	-14449
▁보호법	-14450
스코리아	-14451
▁비단털쥐	-14452
▁보컬리스트	-14453
▁가모	-14454
▁사주	-14455
▁수마	-14456
▁수은	-14457
▁염두	-14458
▁케리	-14459
▁헤센	-14460
▁반감기	-14461
데기	-14462
박사	-14463
우주	-14464
▁가명	-14465
▁경의	-14466
▁래리	-14467
▁문수	-14468
▁샤르	-14469
▁위트	-14470
▁잉카	-14471
▁자장	-14472
▁대항전	-14473
▁순식간	-14474
▁정치국	-14475
▁랠	-14476
▁WC	-14477
▁보그	-14478
▁열악	-14479
▁정에	-14480
▁205	-14481
▁708	-14482
▁ᄇ시	-14483
▁맥스웰	-14484
▁선거인	-14485
▁University	-14486
▁구아	-14487
▁금하	-14488
▁금환	-14489
▁기미	-14490
▁모사	-14491
▁에코	-14492
▁이홍	-14493
▁개그맨	-14494
▁데뷔작	-14495
▁합성어	-14496
▁관음보살	-14497
▁텅	-14498
연구	-14499
행파	-14500
▁서클	-14501
▁향신	-14502
▁후루	-14503
very	-14504
▁사학자	-14505
▁형용사	-14506
▁라이베리아	-14507
▁탭	-14508
▁경순	-14509
▁대류	-14510
▁동군	-14511
▁무능	-14512
▁실사	-14513
▁NBC	-14514
▁Vol	-14515
▁스케줄	-14516
▁아우구스투스	-14517
▁엣	-14518
건설	-14519
▁규약	-14520
▁복부	-14521
▁수역	-14522
▁야코	-14523
▁정칙	-14524
▁ATC	-14525
▁보조금	-14526
▁At	-14527
▁경종	-14528
▁배당	-14529
▁월남	-14530
▁재화	-14531
▁사할린	-14532
▁콘라트	-14533
▁통계청	-14534
양이	-14535
▁cc	-14536
▁라벨	-14537
▁미첼	-14538
▁불쾌	-14539
▁안팎	-14540
▁외손	-14541
▁집사	-14542
▁한겨	-14543
▁슈미트	-14544
▁테두리	-14545
쿠사	-14546
▁데일	-14547
▁시의	-14548
▁안심	-14549
▁외할	-14550
▁조봉	-14551
▁타시	-14552
▁캐스터	-14553
▁엑스박스	-14554
▁인플루엔자	-14555
루즈	-14556
▁GR	-14557
▁군복	-14558
▁등산	-14559
▁띄우	-14560
▁뮐러	-14561
▁박용	-14562
▁베티	-14563
▁양서	-14564
▁웨어	-14565
▁치마	-14566
▁235	-14567
▁김해시	-14568
▁조선공산당	-14569
▁JC	-14570
▁내림	-14571
▁상계	-14572
▁서안	-14573
▁아연	-14574
▁양극	-14575
▁가이아	-14576
▁name	-14577
▁로베르토	-14578
▁맴	-14579
벌리	-14580
anc	-14581
net	-14582
▁남단	-14583
▁자위	-14584
▁재보	-14585
▁정글	-14586
▁족장	-14587
▁초계	-14588
▁칼륨	-14589
▁토피	-14590
▁후이	-14591
▁시마즈	-14592
▁안양시	-14593
모음	-14594
주크	-14595
ody	-14596
▁가뭄	-14597
▁균일	-14598
▁나기	-14599
▁비옥	-14600
▁손목	-14601
▁외삼	-14602
▁우기	-14603
▁후한	-14604
▁DOS	-14605
▁스케일	-14606
▁호흡기	-14607
보라	-14608
화당	-14609
IVE	-14610
▁골절	-14611
▁신병	-14612
▁실효	-14613
▁에노	-14614
▁자키	-14615
▁줄곧	-14616
▁축복	-14617
▁포니	-14618
▁풀백	-14619
▁호로	-14620
폴리탄	-14621
▁tvN	-14622
▁다가가	-14623
▁오르간	-14624
▁메트로폴리탄	-14625
▁퀄	-14626
사와	-14627
황색	-14628
▁고층	-14629
▁노카	-14630
▁마흐	-14631
▁세스	-14632
▁솜씨	-14633
▁이달	-14634
▁일간	-14635
▁젠더	-14636
▁키트	-14637
▁패치	-14638
▁하산	-14639
▁자격증	-14640
▁그레이엄	-14641
▁뤄	-14642
나들	-14643
▁기스	-14644
▁사미	-14645
▁석기	-14646
▁오마	-14647
▁창구	-14648
▁반대편	-14649
▁서스펜	-14650
▁지하철역	-14651
▁셴	-14652
열대	-14653
▁가온	-14654
▁경화	-14655
▁나한	-14656
▁리나	-14657
▁버니	-14658
▁유충	-14659
▁정승	-14660
▁코바	-14661
▁통솔	-14662
▁화승	-14663
▁간호사	-14664
▁교육감	-14665
▁남극점	-14666
▁동아리	-14667
▁사무관	-14668
▁열역학	-14669
▁조각상	-14670
▁1874	-14671
▁This	-14672
▁우두머리	-14673
▁라가	-14674
▁병렬	-14675
▁일삼	-14676
▁카로	-14677
▁확충	-14678
▁카디널	-14679
▁한겨레	-14680
▁브로드웨이	-14681
▁잼	-14682
에쓰	-14683
▁베크	-14684
▁시제	-14685
▁잔여	-14686
▁잔혹	-14687
▁로페스	-14688
▁신호장	-14689
▁안드레	-14690
▁일렉트릭	-14691
18	-14692
so	-14693
그램	-14694
르산	-14695
큐슈	-14696
▁무가	-14697
▁부엌	-14698
▁소양	-14699
▁요직	-14700
▁종가	-14701
▁침범	-14702
▁코로	-14703
▁키타	-14704
진보당	-14705
▁거주자	-14706
▁당뇨병	-14707
▁알렉산데르	-14708
악산	-14709
ATO	-14710
▁결말	-14711
▁마늘	-14712
▁발판	-14713
▁소론	-14714
▁양평	-14715
▁향수	-14716
▁공주시	-14717
▁조각가	-14718
▁천도교	-14719
▁슈퍼스타	-14720
▁미스코리아	-14721
▁낭비	-14722
▁뉴멕	-14723
▁빌드	-14724
▁석권	-14725
▁은폐	-14726
▁일주	-14727
▁잉여	-14728
▁품목	-14729
▁협곡	-14730
▁화원	-14731
▁라스트	-14732
▁시그마	-14733
▁뉴멕시코	-14734
▁중앙아메리카	-14735
▁파푸아뉴기니	-14736
▁동백	-14737
▁리시	-14738
▁몰수	-14739
▁밸브	-14740
▁숙박	-14741
▁악당	-14742
▁칠성	-14743
▁홍익	-14744
▁무지개	-14745
▁재미있	-14746
▁스틸러스	-14747
▁오아시스	-14748
▁컨퍼런스	-14749
텐셜	-14750
▁무예	-14751
▁볼드	-14752
▁산조	-14753
▁중남	-14754
▁한복	-14755
스크림	-14756
▁204	-14757
▁가요제	-14758
▁바그다드	-14759
▁유가행파	-14760
▁콘퍼런스	-14761
시험	-14762
신저	-14763
▁다쿠	-14764
▁발작	-14765
▁산문	-14766
▁이색	-14767
▁점하	-14768
야누스	-14769
▁성폭력	-14770
▁아놀드	-14771
▁저스틴	-14772
▁항공편	-14773
▁호소카와	-14774
ala	-14775
▁사	-14776
▁강국	-14777
▁리타	-14778
▁맞물	-14779
▁메모	-14780
▁싱크	-14781
▁재회	-14782
▁코크	-14783
▁트레일	-14784
프랑	-14785
▁sp	-14786
▁기닿	-14787
▁레나	-14788
▁판명	-14789
▁동남쪽	-14790
▁청문회	-14791
▁퍼텐셜	-14792
▁기울어지	-14793
▁트라야누스	-14794
징어	-14795
▁나일	-14796
▁넷플	-14797
▁라플	-14798
▁인스	-14799
▁조동	-14800
▁쿠마	-14801
▁흐리	-14802
어나오	-14803
▁셀주크	-14804
▁클로드	-14805
▁넷플릭스	-14806
▁벚	-14807
▁강좌	-14808
▁델리	-14809
▁묘호	-14810
▁미겔	-14811
▁송이	-14812
▁인성	-14813
▁학당	-14814
▁대수학	-14815
▁에스컬	-14816
▁휴대폰	-14817
▁바이마르	-14818
▁에스컬레이터	-14819
ax	-14820
me	-14821
▁격전	-14822
▁공문	-14823
▁되살	-14824
▁법규	-14825
▁벗기	-14826
▁사중	-14827
▁앨라	-14828
▁옥사	-14829
▁읍성	-14830
▁주군	-14831
▁캠벨	-14832
▁행선	-14833
▁Bab	-14834
▁게임즈	-14835
▁앞바다	-14836
▁지리산	-14837
▁핸드볼	-14838
▁후쿠이	-14839
▁1877	-14840
▁콜럼버스	-14841
운수	-14842
▁SR	-14843
▁YG	-14844
▁감축	-14845
▁깔리	-14846
▁모치	-14847
▁복속	-14848
▁상한	-14849
▁이문	-14850
▁클랜	-14851
▁하지	-14852
▁화염	-14853
▁뉴올리	-14854
▁참전하	-14855
au	-14856
co	-14857
소문	-14858
▁AE	-14859
▁너희	-14860
▁단발	-14861
▁선단	-14862
▁에페	-14863
▁예금	-14864
▁중거리	-14865
▁7000	-14866
▁프레슬리	-14867
▁서아프리카	-14868
더릭	-14869
▁도형	-14870
▁민원	-14871
▁앞뒤	-14872
▁애드	-14873
▁총영	-14874
▁출사	-14875
▁탄수	-14876
▁퇴진	-14877
▁화음	-14878
▁루이즈	-14879
▁여운형	-14880
▁포식자	-14881
▁허베이	-14882
▁돌려보내	-14883
yn	-14884
비에	-14885
▁곤살	-14886
▁그르	-14887
▁바니	-14888
▁북측	-14889
▁예멘	-14890
▁교육학	-14891
▁사하라	-14892
▁한국군	-14893
▁Best	-14894
높이	-14895
민당	-14896
▁그립	-14897
▁김우	-14898
▁엄지	-14899
▁차오	-14900
▁처마	-14901
▁Her	-14902
▁대사간	-14903
▁수백만	-14904
▁원주시	-14905
▁쿰	-14906
계약	-14907
범죄	-14908
ash	-14909
▁AF	-14910
▁아킬	-14911
▁양천	-14912
▁전조	-14913
▁지령	-14914
▁CIA	-14915
▁비잔틴	-14916
▁컨설팅	-14917
▁멀티미디어	-14918
GB	-14919
를레	-14920
oid	-14921
▁건지	-14922
▁결장	-14923
▁두뇌	-14924
▁무주	-14925
▁본존	-14926
▁블랑	-14927
▁승낙	-14928
▁에볼	-14929
▁의제	-14930
▁재물	-14931
▁지크	-14932
▁518	-14933
▁공학자	-14934
▁스타드	-14935
▁콘티넨	-14936
▁갈릴레오	-14937
▁레닌주의	-14938
▁툼	-14939
▁고승	-14940
▁상환	-14941
▁소인	-14942
▁요가	-14943
▁APG	-14944
▁브리스	-14945
▁오릭스	-14946
바드	-14947
혈구	-14948
▁경내	-14949
▁노하	-14950
▁바야	-14951
▁산체	-14952
▁순찰	-14953
▁시발	-14954
▁우표	-14955
▁제지	-14956
▁토바	-14957
▁펭귄	-14958
▁외계인	-14959
▁클러스터	-14960
ps	-14961
양구	-14962
일기	-14963
ose	-14964
▁머	-14965
▁로망	-14966
▁추계	-14967
▁거머쥐	-14968
▁1859	-14969
HC	-14970
변수	-14971
ict	-14972
▁et	-14973
▁거시	-14974
▁도읍	-14975
▁방학	-14976
▁소주	-14977
▁인계	-14978
▁카일	-14979
▁코린	-14980
▁부르봉	-14981
▁연방군	-14982
▁콜린스	-14983
▁1700	-14984
▁만장일치	-14985
▁사무라이	-14986
22	-14987
▁곡식	-14988
▁나투	-14989
▁사연	-14990
▁소르	-14991
▁숙명	-14992
▁승률	-14993
▁쓰리	-14994
▁억울	-14995
▁원사	-14996
▁유창	-14997
▁하층	-14998
▁강화군	-14999
▁Hell	-15000
▁다카하시	-15001
▁캄파니아	-15002
▁플루토늄	-15003
장사	-15004
피크	-15005
▁대입	-15006
▁라임	-15007
▁맹렬	-15008
▁문물	-15009
▁스펙	-15010
▁오구	-15011
▁완장	-15012
▁통찰	-15013
▁달려가	-15014
▁쓰러뜨리	-15015
14	-15016
의식	-15017
▁도부	-15018
▁도안	-15019
▁뒤덮	-15020
▁변론	-15021
▁경부선	-15022
▁곧이어	-15023
▁엘비스	-15024
▁켐	-15025
제철	-15026
▁가선	-15027
▁경합	-15028
▁관아	-15029
▁문맥	-15030
▁자성	-15031
▁퇴치	-15032
▁현미경	-15033
▁메모리얼	-15034
▁스테파노	-15035
▁결여	-15036
▁과세	-15037
▁뚜껑	-15038
▁레크	-15039
▁미켈	-15040
▁보어	-15041
▁사병	-15042
▁산재	-15043
▁상감	-15044
▁이씨	-15045
▁후회	-15046
▁람	-15047
▁난쟁이	-15048
▁루카스	-15049
▁이주민	-15050
▁클레오	-15051
▁챠	-15052
남면	-15053
무장	-15054
토크	-15055
▁만지	-15056
▁율리	-15057
▁제비	-15058
▁타선	-15059
▁허물	-15060
▁625	-15061
▁게이밍	-15062
▁돌려주	-15063
▁앙드레	-15064
▁전시관	-15065
배마	-15066
버터	-15067
▁KS	-15068
▁se	-15069
▁구가	-15070
▁니즈	-15071
▁서품	-15072
▁스플	-15073
▁중건	-15074
▁오리엔	-15075
▁이케다	-15076
▁라이센스	-15077
▁앨라배마	-15078
▁프리큐어	-15079
▁us	-15080
▁미트	-15081
▁서체	-15082
▁선과	-15083
▁여정	-15084
▁요도	-15085
▁원문	-15086
▁개화파	-15087
▁억제제	-15088
▁울트라	-15089
▁혼합물	-15090
▁짚	-15091
형제	-15092
▁블룸	-15093
▁투사	-15094
▁플랑	-15095
▁사다리	-15096
▁아키텐	-15097
▁아파치	-15098
▁이론가	-15099
▁인류학	-15100
▁ᆫ단	-15101
▁멱	-15102
동원	-15103
EEE	-15104
▁리안	-15105
▁만류	-15106
▁명왕	-15107
▁일어	-15108
▁적법	-15109
▁태화	-15110
▁불러오	-15111
▁셰퍼드	-15112
▁순천시	-15113
13	-15114
15	-15115
▁끔	-15116
란다	-15117
▁구전	-15118
▁네브	-15119
▁모교	-15120
▁부식	-15121
▁결의안	-15122
▁길거리	-15123
▁안철수	-15124
데일	-15125
마을	-15126
▁공병	-15127
▁자네	-15128
▁후견	-15129
▁미트라	-15130
▁우에노	-15131
▁튀어나오	-15132
▁뮈	-15133
고사	-15134
나시	-15135
로트	-15136
▁관위	-15137
▁백운	-15138
▁북인	-15139
▁왕당	-15140
▁자갈	-15141
▁푸젠	-15142
▁함장	-15143
▁트레인	-15144
▁미야기현	-15145
▁소아시아	-15146
▁자이언트	-15147
▁자카르타	-15148
▁테크놀로지	-15149
▁뉴클레오타이드	-15150
▁웜	-15151
과학	-15152
매기	-15153
완다	-15154
▁원만	-15155
▁원점	-15156
▁전범	-15157
▁전서	-15158
▁츠카	-15159
▁제니퍼	-15160
▁출장소	-15161
▁카리스	-15162
▁핵탄두	-15163
VA	-15164
▁긋	-15165
▁샷	-15166
어놓	-15167
주석	-15168
투리	-15169
▁군기	-15170
▁롤러	-15171
▁바젤	-15172
▁바투	-15173
▁박찬	-15174
▁베다	-15175
▁알로	-15176
▁화소	-15177
▁가치관	-15178
▁서태지	-15179
▁크리스틴	-15180
재판	-15181
티지	-15182
uck	-15183
▁근간	-15184
▁무공	-15185
▁발터	-15186
▁일면	-15187
▁타파	-15188
reak	-15189
▁미성년	-15190
▁빈센트	-15191
▁빌바오	-15192
▁서바이벌	-15193
▁아드리아	-15194
▁^	-15195
▁미러	-15196
▁백지	-15197
▁사와	-15198
▁이만	-15199
▁이창	-15200
▁헬스	-15201
▁후면	-15202
▁직사각	-15203
▁페스트	-15204
구나	-15205
장조	-15206
▁거병	-15207
▁다윗	-15208
▁레티	-15209
▁속국	-15210
▁아누	-15211
▁장경	-15212
▁예문관	-15213
▁출판물	-15214
▁환승역	-15215
▁아이스크림	-15216
de	-15217
▁김학	-15218
▁덮치	-15219
▁문건	-15220
▁산남	-15221
▁왕명	-15222
▁테헤	-15223
▁희미	-15224
▁목표물	-15225
▁선제후	-15226
▁탈레반	-15227
▁IEEE	-15228
▁관군	-15229
▁로보	-15230
▁오인	-15231
▁진심	-15232
▁피자	-15233
▁홀수	-15234
▁로저스	-15235
▁바스크	-15236
▁순교자	-15237
▁실린더	-15238
▁케이드	-15239
▁카디널스	-15240
HL	-15241
▁공석	-15242
▁도끼	-15243
▁사산	-15244
▁산술	-15245
▁용맹	-15246
▁자백	-15247
▁정청	-15248
▁주포	-15249
▁총감	-15250
▁퇴출	-15251
▁호투	-15252
▁회차	-15253
▁기념장	-15254
▁쓰촨성	-15255
르바	-15256
스톤	-15257
조류	-15258
▁경원	-15259
▁금관	-15260
▁논증	-15261
▁로코	-15262
▁발광	-15263
▁상층	-15264
▁수주	-15265
▁하후	-15266
▁호화	-15267
떨어지	-15268
▁340	-15269
▁아스카	-15270
▁아이치	-15271
▁이치현	-15272
▁정착지	-15273
▁통계학	-15274
▁Star	-15275
▁아미타불	-15276
나주	-15277
주사	-15278
▁뉴잉	-15279
▁로디	-15280
▁리언	-15281
▁안주	-15282
▁코이	-15283
▁튜링	-15284
▁특명	-15285
거나	-15286
▁대제학	-15287
▁마코토	-15288
▁고바야시	-15289
oo	-15290
ail	-15291
▁FF	-15292
▁달력	-15293
▁보디	-15294
▁어선	-15295
▁오와	-15296
▁조회	-15297
▁화풍	-15298
하마드	-15299
▁어우러지	-15300
구	-15301
스퍼	-15302
패드	-15303
▁개경	-15304
▁발진	-15305
▁섹션	-15306
▁청정	-15307
▁교황령	-15308
▁대혁명	-15309
▁로스트	-15310
▁볼프강	-15311
▁향신료	-15312
▁오토바이	-15313
▁콘스탄티누스	-15314
소니	-15315
▁as	-15316
▁교인	-15317
▁김덕	-15318
▁담양	-15319
▁보국	-15320
▁상설	-15321
▁세제	-15322
▁수라	-15323
▁수문	-15324
▁수프	-15325
▁진천	-15326
▁타밀	-15327
▁통감	-15328
▁헤라	-15329
게이트	-15330
▁디에고	-15331
▁레이건	-15332
▁아니면	-15333
▁펙	-15334
▁도매	-15335
▁사탄	-15336
▁우니	-15337
▁유틸	-15338
▁의인	-15339
▁전봉	-15340
▁호적	-15341
▁310	-15342
▁지석묘	-15343
▁해인사	-15344
▁나마	-15345
▁국가원수	-15346
▁유틸리티	-15347
▁DO	-15348
▁구라	-15349
▁김도	-15350
▁동급	-15351
▁사생	-15352
▁양동	-15353
▁정역	-15354
▁젤리	-15355
▁지검	-15356
▁폐차	-15357
▁Sun	-15358
▁개척자	-15359
▁국내선	-15360
▁대관식	-15361
▁오슬로	-15362
▁원정대	-15363
▁이광수	-15364
▁매사추세츠주	-15365
팩스	-15366
▁거문	-15367
▁김주	-15368
▁연해	-15369
▁짝수	-15370
▁터스	-15371
▁중앙일보	-15372
▁뽀	-15373
▁나바	-15374
▁떠돌	-15375
▁뚫리	-15376
▁멜라	-15377
▁베가	-15378
▁부락	-15379
▁손수	-15380
▁입찰	-15381
▁추장	-15382
▁커브	-15383
▁you	-15384
▁가우스	-15385
▁개막식	-15386
▁대대장	-15387
▁브레멘	-15388
▁Super	-15389
▁얄	-15390
플레	-15391
▁my	-15392
▁센타	-15393
▁수구	-15394
▁어학	-15395
▁호이	-15396
▁리바이	-15397
▁슈투트	-15398
▁여러분	-15399
▁슈투트가르트	-15400
구미	-15401
댓값	-15402
바퀴	-15403
▁교감	-15404
▁근세	-15405
▁모션	-15406
▁산정	-15407
▁시력	-15408
▁아칸	-15409
▁템플	-15410
▁209	-15411
▁무사시	-15412
▁에이브	-15413
▁울주군	-15414
▁1812	-15415
vel	-15416
▁과달	-15417
▁선별	-15418
▁속초	-15419
▁평방	-15420
▁폐하	-15421
▁무신론	-15422
▁바빌론	-15423
▁셀레우	-15424
▁자본가	-15425
▁조르주	-15426
▁뉴잉글랜드	-15427
학파	-15428
▁강유	-15429
▁메드	-15430
▁무위	-15431
▁추밀	-15432
▁충동	-15433
▁그래픽스	-15434
▁모니터링	-15435
▁늦추	-15436
▁명륜	-15437
▁방탄	-15438
▁배타	-15439
▁빨강	-15440
▁카파	-15441
▁피그	-15442
▁에세이	-15443
▁윤치영	-15444
▁유니코드	-15445
▁안토니우스	-15446
▁후쿠시마현	-15447
초프	-15448
▁ad	-15449
▁걸스	-15450
▁닷컴	-15451
▁로컬	-15452
▁루드	-15453
▁손쉽	-15454
▁스쿼	-15455
▁장지	-15456
▁정실	-15457
▁토프	-15458
▁항문	-15459
▁해커	-15460
▁자오선	-15461
▁자치현	-15462
▁클라리	-15463
▁Soul	-15464
▁아이파크	-15465
TF	-15466
티어	-15467
iel	-15468
▁Kn	-15469
▁근위	-15470
▁나시	-15471
▁당상	-15472
▁박경	-15473
▁산인	-15474
▁성조	-15475
▁세밀	-15476
▁어지	-15477
▁하강	-15478
▁황위	-15479
▁르완다	-15480
▁송진우	-15481
▁에이지	-15482
▁북대서양	-15483
▁서비스업	-15484
▁선거관리	-15485
▁무형문화재	-15486
▁선거관리위원회	-15487
▁Tw	-15488
▁과감	-15489
▁맞배	-15490
▁산동	-15491
▁수질	-15492
▁안면	-15493
▁조던	-15494
▁지카	-15495
▁쪼개	-15496
▁탄두	-15497
▁호국	-15498
하우스	-15499
▁206	-15500
▁삼거리	-15501
▁접미사	-15502
▁주거지	-15503
▁John	-15504
▁알렉세이	-15505
▁Christ	-15506
▁루손	-15507
▁마다	-15508
▁의논	-15509
▁장강	-15510
▁점토	-15511
▁주유	-15512
▁풀이	-15513
시아키	-15514
▁단말기	-15515
▁여수시	-15516
▁음식점	-15517
▁한자어	-15518
▁ICBM	-15519
▁으리라	-15520
▁름	-15521
▁규합	-15522
▁논평	-15523
▁로런	-15524
▁이건	-15525
▁천자	-15526
▁코우	-15527
▁조광조	-15528
59	-15529
디드	-15530
샤오	-15531
▁ON	-15532
▁개표	-15533
▁고후	-15534
▁그늘	-15535
▁끔찍	-15536
▁매듭	-15537
▁아호	-15538
▁위축	-15539
▁카보	-15540
▁콘스	-15541
▁투니	-15542
▁연대장	-15543
▁주제가	-15544
▁막시밀리	-15545
네오	-15546
▁교재	-15547
▁귀순	-15548
▁금천	-15549
▁니치	-15550
▁도자	-15551
▁동맥	-15552
▁로지	-15553
▁무진	-15554
▁법상	-15555
▁포상	-15556
공화당	-15557
▁록히드	-15558
▁1879	-15559
▁민주공화당	-15560
gh	-15561
▁쑹	-15562
버라	-15563
ute	-15564
▁Mi	-15565
▁샤오	-15566
▁스완	-15567
▁영도	-15568
▁장이	-15569
▁철기	-15570
▁춘계	-15571
▁개개인	-15572
▁보이즈	-15573
▁베르사유	-15574
TR	-15575
도감	-15576
탄올	-15577
▁IF	-15578
▁Mr	-15579
▁솔리	-15580
▁집적	-15581
▁747	-15582
▁기생충	-15583
▁레코딩	-15584
▁로널드	-15585
▁안데스	-15586
▁건국훈장	-15587
▁아브라함	-15588
EA	-15589
▁썸	-15590
면적	-15591
▁가창	-15592
▁구비	-15593
▁버밍	-15594
▁범람	-15595
▁양정	-15596
▁해주	-15597
▁휴일	-15598
라이스	-15599
▁고지대	-15600
▁슈트라	-15601
▁의병장	-15602
▁테헤란	-15603
▁파르마	-15604
무지	-15605
▁김시	-15606
▁동대	-15607
▁변성	-15608
▁소량	-15609
▁원한	-15610
▁유세	-15611
▁전열	-15612
▁차역	-15613
▁청일	-15614
▁초식	-15615
▁카토	-15616
▁콜론	-15617
▁그러면	-15618
▁사우디	-15619
▁석회암	-15620
▁리바운드	-15621
▁에다가	-15622
방스	-15623
▁관개	-15624
▁농담	-15625
▁슬러	-15626
▁양원	-15627
▁용역	-15628
▁카펠	-15629
▁백두산	-15630
▁조봉암	-15631
▁파르티아	-15632
▁슈트라우스	-15633
▁일렉트로닉	-15634
태자	-15635
▁그릴	-15636
▁낯설	-15637
▁단수	-15638
▁듀스	-15639
▁딱딱	-15640
▁부기	-15641
▁상이	-15642
▁아람	-15643
▁양념	-15644
▁울루	-15645
▁자각	-15646
▁정맥	-15647
▁체질	-15648
▁독재자	-15649
▁바닷가	-15650
▁카지노	-15651
▁피어스	-15652
▁HP	-15653
▁공경	-15654
▁도파	-15655
▁리퍼	-15656
▁불문	-15657
▁소포	-15658
▁예보	-15659
▁자석	-15660
▁풍요	-15661
▁des	-15662
▁제이크	-15663
분투	-15664
블릭	-15665
슐리	-15666
▁노역	-15667
▁대방	-15668
▁모태	-15669
▁유계	-15670
▁유보	-15671
▁유상	-15672
▁임실	-15673
▁게이오	-15674
▁태블릿	-15675
▁군마	-15676
▁당장	-15677
▁대여	-15678
▁보아	-15679
▁빛깔	-15680
▁실베	-15681
▁이코	-15682
▁일보	-15683
▁중등	-15684
▁차차	-15685
▁초회	-15686
▁쿠시	-15687
▁트림	-15688
▁420	-15689
▁뉴올리언스	-15690
OK	-15691
▁뜯	-15692
▁쑨	-15693
네프	-15694
화산	-15695
▁감당	-15696
▁게놈	-15697
▁대등	-15698
▁부화	-15699
▁비오	-15700
▁수족	-15701
로세서	-15702
를레앙	-15703
▁CoA	-15704
▁라그랑	-15705
▁불법행위	-15706
▁ᆯ지라도	-15707
반정	-15708
정변	-15709
▁기권	-15710
▁노마	-15711
▁능숙	-15712
▁두부	-15713
▁불능	-15714
▁상회	-15715
▁스킨	-15716
▁영종	-15717
▁잇달	-15718
▁현수	-15719
▁App	-15720
▁리그컵	-15721
▁변호인	-15722
▁사가미	-15723
▁암스트	-15724
▁여행자	-15725
▁영사관	-15726
▁최진실	-15727
▁트리스	-15728
▁더라	-15729
신보	-15730
▁국문	-15731
▁사체	-15732
▁사파	-15733
▁애호	-15734
▁온전	-15735
▁조우	-15736
▁최용	-15737
▁클럭	-15738
▁440	-15739
▁Str	-15740
▁아이작	-15741
리아누스	-15742
▁강가	-15743
▁끊이	-15744
▁반달	-15745
▁스텐	-15746
▁열람	-15747
▁전곡	-15748
▁제고	-15749
레틱스	-15750
▁국방군	-15751
▁즐거움	-15752
▁애슬레틱스	-15753
▁Record	-15754
VID	-15755
▁반납	-15756
▁인삼	-15757
▁컬링	-15758
▁호시	-15759
▁들어올리	-15760
연맹	-15761
의금	-15762
자드	-15763
▁광시	-15764
▁남경	-15765
▁두스	-15766
▁앉히	-15767
▁촐라	-15768
▁카다	-15769
▁타라	-15770
▁투기	-15771
▁글리제	-15772
▁본거지	-15773
▁여주인	-15774
▁테크노	-15775
▁원종공신	-15776
▁꽝	-15777
▁쿵	-15778
ull	-15779
▁Gu	-15780
▁권투	-15781
▁노엘	-15782
▁도나	-15783
▁동하	-15784
▁머큐	-15785
▁인척	-15786
▁처칠	-15787
▁후추	-15788
▁군주제	-15789
▁니가타	-15790
▁불거지	-15791
▁수영장	-15792
▁알칼리	-15793
▁인산화	-15794
▁사이클론	-15795
▁퀼	-15796
산업	-15797
▁수아	-15798
▁역동	-15799
▁왕좌	-15800
▁유민	-15801
▁자존	-15802
▁접목	-15803
▁체리	-15804
▁항전	-15805
▁흐트	-15806
▁ㄹ로	-15807
▁부추기	-15808
▁엘리엇	-15809
▁오메가	-15810
▁유기체	-15811
▁조용히	-15812
▁주머니쥐	-15813
링크	-15814
선교	-15815
수지	-15816
▁레저	-15817
▁성자	-15818
▁소진	-15819
▁유관	-15820
▁증축	-15821
▁커리	-15822
▁매니아	-15823
▁야구부	-15824
▁페르시	-15825
▁플래닛	-15826
▁아우구스트	-15827
박이	-15828
장군	-15829
▁시타	-15830
▁제방	-15831
▁공성전	-15832
▁엘리스	-15833
▁잠비아	-15834
▁2500	-15835
▁헬레니즘	-15836
▁엔지니어링	-15837
티보	-15838
▁"|	-15839
▁PA	-15840
▁부트	-15841
▁압수	-15842
▁할구	-15843
▁Per	-15844
▁광합성	-15845
▁바실리	-15846
▁양산시	-15847
▁지극히	-15848
▁항생제	-15849
▁print	-15850
▁다마스쿠스	-15851
말	-15852
▁금기	-15853
▁라쿠	-15854
▁아로	-15855
▁안락	-15856
▁양구	-15857
▁왕릉	-15858
▁용문	-15859
▁이석	-15860
▁폴로	-15861
▁환산	-15862
로그램	-15863
▁춘천시	-15864
▁합병증	-15865
말로	-15866
▁타지키스탄	-15867
▁public	-15868
▁을수록	-15869
길준	-15870
덕궁	-15871
▁CA	-15872
▁궁주	-15873
▁동두	-15874
▁리지	-15875
▁무패	-15876
▁미타	-15877
▁신익	-15878
▁앙상	-15879
▁열거	-15880
▁왕녀	-15881
▁요셉	-15882
▁쿠루	-15883
▁화이	-15884
▁256	-15885
▁스위트	-15886
▁실리콘	-15887
▁이회창	-15888
▁제시카	-15889
▁페이퍼	-15890
대비	-15891
▁po	-15892
▁리노	-15893
▁매복	-15894
▁종실	-15895
▁탈피	-15896
▁투병	-15897
▁Hot	-15898
▁부서지	-15899
▁엔리케	-15900
▁영화관	-15901
▁오토모	-15902
▁허버트	-15903
▁호기심	-15904
▁대법원장	-15905
▁균등	-15906
▁기시	-15907
▁작자	-15908
▁콜리	-15909
▁파고	-15910
▁행운	-15911
▁바레인	-15912
▁살아오	-15913
바이러스	-15914
레미	-15915
발트	-15916
황제	-15917
▁nm	-15918
▁고독	-15919
▁나토	-15920
▁마거	-15921
▁명동	-15922
▁문어	-15923
▁성현	-15924
▁은평	-15925
▁이한	-15926
▁퀸스	-15927
▁헐리	-15928
▁맞물리	-15929
▁산투스	-15930
▁카스텔	-15931
빨리	-15932
일체	-15933
자나	-15934
▁ER	-15935
▁내시	-15936
▁바바	-15937
▁북마	-15938
▁사나	-15939
▁사스	-15940
▁시영	-15941
▁아루	-15942
▁워낙	-15943
▁이설	-15944
▁정직	-15945
▁환초	-15946
▁버스터	-15947
▁부러지	-15948
16	-15949
25	-15950
ty	-15951
데오	-15952
▁광동	-15953
▁교학	-15954
▁담수	-15955
▁사목	-15956
▁식이	-15957
▁향로	-15958
▁기본법	-15959
▁오우치	-15960
▁왕당파	-15961
▁접근성	-15962
▁초고층	-15963
▁판매고	-15964
쿠치	-15965
▁가결	-15966
▁득실	-15967
▁셔츠	-15968
▁실책	-15969
▁중신	-15970
▁코니	-15971
▁호찌	-15972
▁Win	-15973
▁고다이	-15974
▁깨어나	-15975
▁비행사	-15976
▁시에라	-15977
▁캅카스	-15978
▁천문단위	-15979
▁크리스탈	-15980
▁습니까	-15981
포리	-15982
▁군도	-15983
▁담임	-15984
▁성형	-15985
▁접시	-15986
▁코인	-15987
▁킬러	-15988
▁패자	-15989
▁먼	-15990
▁생산자	-15991
다임	-15992
ual	-15993
▁기한	-15994
▁바타	-15995
▁반향	-15996
▁석재	-15997
▁성교	-15998
▁우타	-15999
▁카츠	-16000
고로드	-16001
▁랴오닝	-16002
▁재결합	-16003
▁후반전	-16004
▁둠	-16005
는점	-16006
▁깊숙	-16007
▁내기	-16008
▁동률	-16009
▁아역	-16010
▁여관	-16011
▁오차	-16012
▁피질	-16013
ogle	-16014
▁웨슬리	-16015
▁토론회	-16016
▁후유증	-16017
자락	-16018
▁Ke	-16019
▁강자	-16020
▁노골	-16021
▁농협	-16022
▁동체	-16023
▁미녀	-16024
▁쌍용	-16025
▁유미	-16026
▁즉흥	-16027
▁칠곡	-16028
▁렌더링	-16029
▁이세이	-16030
▁프리드	-16031
스틱	-16032
울루	-16033
▁HS	-16034
▁mu	-16035
▁겨냥	-16036
▁교명	-16037
▁느슨	-16038
▁대용	-16039
▁멘델	-16040
▁반정	-16041
▁브이	-16042
▁침수	-16043
▁할로	-16044
▁힐스	-16045
▁911	-16046
▁브루노	-16047
▁예비군	-16048
▁예수교	-16049
▁요나라	-16050
▁주둔지	-16051
▁리치먼드	-16052
▁패러다임	-16053
커우	-16054
▁금리	-16055
▁기피	-16056
▁녹이	-16057
▁라사	-16058
▁스팀	-16059
▁준하	-16060
▁지브	-16061
▁남북조	-16062
▁사무엘	-16063
▁스텔스	-16064
▁알베르	-16065
▁잠재력	-16066
▁조연상	-16067
▁1789	-16068
▁1801	-16069
▁Back	-16070
▁캥	-16071
불명	-16072
▁관저	-16073
▁도화	-16074
▁사조	-16075
▁악어	-16076
▁예쁘	-16077
▁응력	-16078
▁이보	-16079
▁코일	-16080
그래피	-16081
▁208	-16082
▁베이직	-16083
▁제주시	-16084
▁플랑드르	-16085
무트	-16086
스텐	-16087
▁NM	-16088
▁강타	-16089
▁군림	-16090
▁봉분	-16091
▁부안	-16092
▁아구	-16093
▁유독	-16094
▁정중	-16095
▁진성	-16096
▁초석	-16097
▁탄력	-16098
던지기	-16099
▁오이타	-16100
▁기타큐슈	-16101
▁아미타여래	-16102
▁곱하	-16103
▁조율	-16104
▁치밀	-16105
▁트램	-16106
프리드	-16107
▁광주시	-16108
▁다행히	-16109
▁방법론	-16110
▁유도탄	-16111
▁조제프	-16112
▁Kore	-16113
▁쐐	-16114
▁누마	-16115
▁소노	-16116
▁시온	-16117
▁치킨	-16118
▁히코	-16119
▁길버트	-16120
▁들여오	-16121
▁유길준	-16122
▁트럼펫	-16123
▁1400	-16124
▁암스트롱	-16125
▁포틀랜드	-16126
RNA	-16127
▁Fl	-16128
▁KD	-16129
▁구애	-16130
▁군량	-16131
▁로만	-16132
▁솔직	-16133
▁신천	-16134
▁악의	-16135
▁원곡	-16136
▁전과	-16137
▁총생	-16138
▁머큐리	-16139
▁폼페이우스	-16140
평면	-16141
▁기일	-16142
▁쐐기	-16143
▁폐교	-16144
리오스	-16145
▁옵	-16146
▁네바다	-16147
▁브릿지	-16148
▁아르테	-16149
▁흘러가	-16150
ll	-16151
득점	-16152
로움	-16153
▁MD	-16154
▁세타	-16155
▁애프	-16156
▁에픽	-16157
▁우디	-16158
▁청중	-16159
▁MIT	-16160
▁디아스	-16161
▁영장류	-16162
▁인문학	-16163
▁NATO	-16164
▁독립선언	-16165
▁뿜	-16166
인산	-16167
▁가전	-16168
▁교란	-16169
▁구부	-16170
▁궁수	-16171
▁성부	-16172
▁안시	-16173
▁영성	-16174
▁윤곽	-16175
▁이크	-16176
▁파피	-16177
▁370	-16178
▁Get	-16179
▁동일시	-16180
▁마운틴	-16181
▁브루크	-16182
▁사망률	-16183
▁사천왕	-16184
▁선수상	-16185
▁앙상블	-16186
▁영문학	-16187
▁유물론	-16188
▁지배하	-16189
▁드래곤즈	-16190
제사	-16191
차리	-16192
▁NL	-16193
▁갑신	-16194
▁거품	-16195
▁책정	-16196
▁첫날	-16197
lect	-16198
▁내몽골	-16199
▁로런스	-16200
▁붉은색	-16201
▁스태프	-16202
▁작아지	-16203
▁남한산성	-16204
▁비로자나	-16205
ox	-16206
이상	-16207
▁NA	-16208
▁국산	-16209
▁균열	-16210
▁변천	-16211
▁오웬	-16212
▁유감	-16213
▁중학	-16214
▁채집	-16215
▁총국	-16216
▁최순	-16217
▁급속도	-16218
▁마거릿	-16219
▁고는	-16220
▁Intern	-16221
▁킵	-16222
라과	-16223
▁구명	-16224
▁발열	-16225
▁약품	-16226
▁열기	-16227
▁만주족	-16228
▁양평군	-16229
▁이유로	-16230
▁추축국	-16231
▁Baby	-16232
▁생물학자	-16233
▁탄수화물	-16234
남동	-16235
▁가령	-16236
▁격화	-16237
▁극회	-16238
▁다채	-16239
▁청군	-16240
▁출정	-16241
▁트론	-16242
ames	-16243
▁225	-16244
▁미식축구	-16245
▁프린세스	-16246
▁렬	-16247
ove	-16248
▁나날	-16249
▁만물	-16250
▁미디	-16251
▁예편	-16252
▁유재	-16253
▁코디	-16254
▁호전	-16255
▁클라인	-16256
▁항공우주	-16257
YP	-16258
모닉	-16259
▁격침	-16260
▁관원	-16261
▁김장	-16262
▁먼로	-16263
▁미로	-16264
▁민선	-16265
▁박태	-16266
▁승선	-16267
▁신궁	-16268
▁안건	-16269
▁유익	-16270
▁장승	-16271
▁장차	-16272
▁커넥	-16273
▁코딩	-16274
▁탄성	-16275
▁현관	-16276
▁후난	-16277
▁흑색	-16278
▁Mag	-16279
▁단	-16280
▁거듭나	-16281
▁디렉터	-16282
▁부천시	-16283
▁요시카	-16284
ology	-16285
▁리하르트	-16286
▁셀레우코스	-16287
GO	-16288
레븐	-16289
파니	-16290
▁Cr	-16291
▁고관	-16292
▁도식	-16293
▁생포	-16294
▁수표	-16295
▁오랑	-16296
▁제헌	-16297
▁카인	-16298
▁황하	-16299
inal	-16300
▁남아공	-16301
▁메신저	-16302
▁오리건	-16303
▁와이어	-16304
▁서귀포시	-16305
▁이리하여	-16306
▁이마가와	-16307
▁해수욕장	-16308
▁둑	-16309
▁강구	-16310
▁공훈	-16311
▁교내	-16312
▁군위	-16313
▁노름	-16314
▁명장	-16315
▁무소	-16316
▁승마	-16317
▁야만	-16318
▁얼리	-16319
▁지회	-16320
▁타키	-16321
▁하세	-16322
▁미요시	-16323
▁방문객	-16324
▁부사장	-16325
ature	-16326
▁레오나르	-16327
▁트로츠키	-16328
▁안티오키아	-16329
피카	-16330
▁가변	-16331
▁공평	-16332
▁조엘	-16333
▁진위	-16334
▁호지	-16335
▁기네스	-16336
▁나카노	-16337
▁베테랑	-16338
▁니카라과	-16339
백색	-16340
훈련	-16341
let	-16342
▁배지	-16343
▁제타	-16344
▁출항	-16345
▁캔터	-16346
▁캡틴	-16347
▁케로	-16348
▁통킹	-16349
▁효성	-16350
▁콜라보	-16351
▁타일러	-16352
그라운드	-16353
▁라니	-16354
▁로베르트	-16355
▁소크라테스	-16356
▁갸	-16357
능력	-16358
▁결렬	-16359
▁결투	-16360
▁듀엣	-16361
▁무쓰	-16362
▁소마	-16363
▁직각	-16364
▁초판	-16365
▁친히	-16366
▁탄광	-16367
▁흉내	-16368
피에르	-16369
▁고스트	-16370
▁블러드	-16371
▁시나노	-16372
▁돼지고기	-16373
▁에두아르	-16374
▁베오그라드	-16375
17	-16376
심원	-16377
▁BO	-16378
▁개축	-16379
▁그간	-16380
▁누에	-16381
▁니트	-16382
▁대소	-16383
▁리라	-16384
▁무루	-16385
▁비방	-16386
▁사일	-16387
▁수화	-16388
▁약수	-16389
▁양위	-16390
▁죄인	-16391
▁총수	-16392
▁카노	-16393
스트림	-16394
코비치	-16395
▁리카르	-16396
▁태양광	-16397
▁씬	-16398
경찰	-16399
메랄	-16400
무실	-16401
▁굳이	-16402
▁던전	-16403
▁명중	-16404
▁사옥	-16405
▁알마	-16406
▁피시	-16407
▁화교	-16408
▁Way	-16409
▁신안군	-16410
▁주세페	-16411
▁해수면	-16412
▁프레더릭	-16413
TN	-16414
락부	-16415
처럼	-16416
enn	-16417
▁고취	-16418
▁공지	-16419
▁라테	-16420
▁생장	-16421
▁서곡	-16422
▁외가	-16423
▁주스	-16424
▁출병	-16425
▁한꺼	-16426
▁합장	-16427
▁다카시	-16428
▁범어사	-16429
▁사법부	-16430
▁스트라	-16431
▁아열대	-16432
▁어드밴	-16433
▁태극기	-16434
▁페라리	-16435
▁함부로	-16436
▁한꺼번에	-16437
금속	-16438
▁BB	-16439
▁MR	-16440
▁경산	-16441
▁도보	-16442
▁레반	-16443
▁베아	-16444
▁불길	-16445
▁인노	-16446
▁천태	-16447
▁카불	-16448
▁파출	-16449
▁두더지	-16450
▁이치로	-16451
▁항소심	-16452
▁혈액형	-16453
▁게오르기	-16454
UM	-16455
ors	-16456
▁개리	-16457
▁결단	-16458
▁매튜	-16459
▁미끄	-16460
▁증류	-16461
▁철근	-16462
▁춘향	-16463
▁하츠	-16464
▁효모	-16465
▁207	-16466
▁GPS	-16467
▁Res	-16468
▁강릉시	-16469
▁김종직	-16470
▁알레산	-16471
▁압둘라	-16472
▁알아차리	-16473
▁깁슨	-16474
▁레르	-16475
▁봉헌	-16476
▁연어	-16477
▁윈드	-16478
▁잔치	-16479
▁재심	-16480
▁틈타	-16481
▁흡입	-16482
말라야	-16483
▁스펜서	-16484
▁시아파	-16485
▁일제히	-16486
▁리얼리티	-16487
▁아르바이트	-16488
가요	-16489
갱이	-16490
▁굴욕	-16491
▁내역	-16492
▁베라	-16493
▁베컴	-16494
▁사계	-16495
▁에인	-16496
▁운석	-16497
▁조너	-16498
▁폭주	-16499
▁국무부	-16500
▁동북부	-16501
▁무정부	-16502
▁정몽주	-16503
의금부사	-16504
▁1820	-16505
▁서대문구	-16506
즈미	-16507
▁DA	-16508
▁결실	-16509
▁미추	-16510
▁북송	-16511
▁살레	-16512
▁시편	-16513
▁365	-16514
▁이지스	-16515
▁조합원	-16516
▁직할시	-16517
▁체육회	-16518
▁1815	-16519
▁선거인단	-16520
▁이오니아	-16521
덱스	-16522
월드	-16523
app	-16524
▁기형	-16525
▁김석	-16526
▁도량	-16527
▁맞닿	-16528
▁습도	-16529
▁에든	-16530
▁이구	-16531
▁키치	-16532
▁페레스	-16533
노스아이	-16534
든가	-16535
▁Amer	-16536
▁에든버러	-16537
노스아이레스	-16538
▁부에노스아이레스	-16539
광사	-16540
나비	-16541
마니	-16542
시카	-16543
▁"'	-16544
▁Dr	-16545
▁OK	-16546
▁결집	-16547
▁담그	-16548
▁박동	-16549
▁비이	-16550
▁세도	-16551
▁신안	-16552
▁천적	-16553
▁토의	-16554
▁퇴계	-16555
▁풋살	-16556
▁필로	-16557
▁핼리	-16558
스티안	-16559
어들이	-16560
▁Cent	-16561
▁카롤루스	-16562
▁공보	-16563
▁김은	-16564
▁산마	-16565
▁설과	-16566
▁술집	-16567
▁좌랑	-16568
▁토하	-16569
▁해내	-16570
이즈미	-16571
▁유명세	-16572
▁지방도	-16573
▁프린터	-16574
▁라이온스	-16575
▁히말라야	-16576
24	-16577
▁앳	-16578
▁격상	-16579
▁변조	-16580
▁해머	-16581
레이즈	-16582
▁감마선	-16583
▁노무라	-16584
▁모터쇼	-16585
▁일진회	-16586
▁유럽연합	-16587
▁낸	-16588
ret	-16589
▁담장	-16590
▁로제	-16591
▁모잠	-16592
▁서역	-16593
▁시성	-16594
▁양분	-16595
▁영위	-16596
▁조나	-16597
▁천리	-16598
ange	-16599
▁군	-16600
▁리그전	-16601
▁야행성	-16602
▁연습생	-16603
▁오징어	-16604
▁전동기	-16605
▁제품군	-16606
▁후베이	-16607
▁모잠비크	-16608
로프로세서	-16609
▁레닌그라드	-16610
▁막시밀리안	-16611
▁마이크로프로세서	-16612
오드	-16613
현실	-16614
ina	-16615
▁만수	-16616
▁분담	-16617
▁스틱	-16618
▁으뜸	-16619
▁전극	-16620
▁쿠사	-16621
▁표어	-16622
▁학도	-16623
▁한라	-16624
▁호박	-16625
ater	-16626
▁농민군	-16627
▁도나우	-16628
▁혁명가	-16629
FS	-16630
▁마취	-16631
▁충고	-16632
▁테살	-16633
▁트롤	-16634
▁피쳐	-16635
▁System	-16636
니츠	-16637
▁리서	-16638
▁본능	-16639
▁본진	-16640
▁시차	-16641
▁어인	-16642
▁월경	-16643
▁장서	-16644
▁디나모	-16645
▁조병옥	-16646
▁지포스	-16647
▁1858	-16648
▁고고학자	-16649
▁마쓰모토	-16650
▁알베르트	-16651
▁갑오	-16652
▁기욤	-16653
▁데니	-16654
▁부이	-16655
▁성내	-16656
▁세실	-16657
▁에다	-16658
▁위태	-16659
▁융기	-16660
▁지반	-16661
▁펜스	-16662
▁모델링	-16663
▁아드리	-16664
▁연금술	-16665
▁지팡이	-16666
▁알렉산드라	-16667
za	-16668
베인	-16669
▁SW	-16670
▁노총	-16671
▁달마	-16672
▁당사	-16673
▁디펜	-16674
▁마초	-16675
▁벅스	-16676
▁슐레	-16677
▁이삭	-16678
▁출루	-16679
▁퍼플	-16680
▁합산	-16681
▁허들	-16682
▁형광	-16683
지먼트	-16684
▁넘어지	-16685
▁선데이	-16686
▁유공자	-16687
▁중심핵	-16688
▁총생산	-16689
▁모노이드	-16690
▁프로방스	-16691
▁매니지먼트	-16692
▁써	-16693
거루	-16694
비츠	-16695
ons	-16696
▁경구	-16697
▁광서	-16698
▁만연	-16699
▁사보	-16700
▁사악	-16701
▁성찬	-16702
▁소정	-16703
▁소켓	-16704
▁실태	-16705
▁자막	-16706
▁직류	-16707
▁코넬	-16708
▁탈리	-16709
▁겟	-16710
▁군산시	-16711
▁전망대	-16712
▁오스트로	-16713
▁챈	-16714
쓰네	-16715
▁라지	-16716
▁미완	-16717
▁아토	-16718
▁장론	-16719
▁종단	-16720
▁특혜	-16721
▁Int	-16722
▁Mac	-16723
▁가디언	-16724
▁라이드	-16725
▁민의원	-16726
▁스와프	-16727
▁적절히	-16728
▁마그네슘	-16729
입자	-16730
토바	-16731
퍼트	-16732
ley	-16733
▁'-	-16734
▁기주	-16735
▁도난	-16736
▁매질	-16737
▁엠마	-16738
▁옵티	-16739
▁위배	-16740
▁전액	-16741
▁지뢰	-16742
▁특위	-16743
▁날아오	-16744
▁모조리	-16745
▁신익희	-16746
▁안티고	-16747
▁조너선	-16748
▁크레타	-16749
▁파블로	-16750
▁이성질체	-16751
▁필하모닉	-16752
▁폴리네시아	-16753
러기	-16754
▁갈비	-16755
▁견지	-16756
▁궁내	-16757
▁기민	-16758
▁녹말	-16759
▁상해	-16760
▁새해	-16761
▁선서	-16762
▁육박	-16763
▁음양	-16764
▁콘셉	-16765
▁하카	-16766
▁대학살	-16767
▁도치기	-16768
▁목포시	-16769
▁분홍색	-16770
▁제노바	-16771
▁알베르토	-16772
▁class	-16773
ux	-16774
동리	-16775
▁납품	-16776
▁더빙	-16777
▁에뮬	-16778
▁정현	-16779
▁좌천	-16780
▁창씨	-16781
▁테드	-16782
ions	-16783
▁Tra	-16784
▁필리스	-16785
▁맞배지붕	-16786
▁천연가스	-16787
가라	-16788
▁급사	-16789
▁기교	-16790
▁기근	-16791
▁달래	-16792
▁모여	-16793
▁소탕	-16794
▁수강	-16795
▁애쓰	-16796
▁완산	-16797
▁이철	-16798
▁장택	-16799
▁정공	-16800
▁태상	-16801
▁포섭	-16802
▁프록	-16803
▁핑계	-16804
▁USA	-16805
▁관찰자	-16806
▁광화문	-16807
▁노트북	-16808
▁마에다	-16809
▁밀어내	-16810
▁봉수대	-16811
▁시게루	-16812
▁High	-16813
실험	-16814
정제	-16815
▁낙태	-16816
▁남궁	-16817
▁농작	-16818
▁니체	-16819
▁덕수	-16820
▁수선	-16821
▁의왕	-16822
▁재주	-16823
▁토드	-16824
▁펠레	-16825
▁그리드	-16826
▁넘어오	-16827
▁마피아	-16828
▁유성구	-16829
▁포인터	-16830
▁무궁화호	-16831
던스	-16832
라나	-16833
사랑	-16834
싸움	-16835
코인	-16836
att	-16837
▁NX	-16838
▁귀하	-16839
▁대정	-16840
▁마도	-16841
▁안재	-16842
▁정과	-16843
▁진구	-16844
▁콤비	-16845
▁푸틴	-16846
▁Not	-16847
▁전철역	-16848
▁진정하	-16849
▁평상시	-16850
▁서프랑크	-16851
▁엎	-16852
▁훅	-16853
컨드	-16854
테일	-16855
▁고택	-16856
▁독실	-16857
▁동티	-16858
▁마틸	-16859
▁말소	-16860
▁민가	-16861
▁총살	-16862
지스터	-16863
▁막아내	-16864
▁평의원	-16865
▁1300	-16866
▁1814	-16867
▁ᄇ니까	-16868
▁조선왕조실록	-16869
▁SG	-16870
▁기악	-16871
▁미자	-16872
▁벨벳	-16873
▁성제	-16874
▁아말	-16875
▁알렌	-16876
▁앨버	-16877
▁예일	-16878
▁음역	-16879
▁증원	-16880
▁패퇴	-16881
▁헤지	-16882
▁TBC	-16883
▁베일리	-16884
▁비올라	-16885
▁트랜싯	-16886
▁티무르	-16887
▁플래그	-16888
▁피드백	-16889
▁동아프리카	-16890
▁클라이맥스	-16891
▁귤	-16892
당류	-16893
촌동	-16894
토쿠	-16895
▁공해	-16896
▁급기	-16897
▁로어	-16898
▁로타	-16899
▁문성	-16900
▁우도	-16901
▁유승	-16902
▁제보	-16903
▁주상	-16904
▁헬렌	-16905
▁휴먼	-16906
▁MHz	-16907
▁수도사	-16908
▁쌍방울	-16909
▁What	-16910
▁type	-16911
랭크	-16912
재단	-16913
ART	-16914
▁고갈	-16915
▁군비	-16916
▁보육	-16917
▁비욘	-16918
▁소치	-16919
▁아약	-16920
▁이덕	-16921
▁키아	-16922
▁허구	-16923
▁건너편	-16924
▁맞대결	-16925
▁미우라	-16926
▁성명서	-16927
▁보호구역	-16928
▁트랜지스터	-16929
기둥	-16930
널목	-16931
자유	-16932
▁Of	-16933
▁RA	-16934
▁목화	-16935
▁스팅	-16936
▁애매	-16937
▁전집	-16938
▁퀘이	-16939
▁흥덕	-16940
▁290	-16941
▁IEC	-16942
▁건널목	-16943
▁겨울철	-16944
▁깨달음	-16945
▁세컨드	-16946
▁액티브	-16947
▁그래미상	-16948
BN	-16949
거성	-16950
데냐	-16951
마일	-16952
▁고요	-16953
▁구석	-16954
▁보카	-16955
▁북상	-16956
▁비호	-16957
▁완주	-16958
▁우대	-16959
▁전란	-16960
▁증직	-16961
▁총액	-16962
▁쿠리	-16963
▁튀기	-16964
▁홍천	-16965
▁수증기	-16966
▁오나라	-16967
▁우승컵	-16968
▁재빨리	-16969
▁충주시	-16970
▁커티스	-16971
▁평택시	-16972
▁사르데냐	-16973
▁산업단지	-16974
▁토스카나	-16975
▁Google	-16976
림동	-16977
민정	-16978
▁수의	-16979
▁스쿠	-16980
▁신관	-16981
▁열망	-16982
▁War	-16983
▁연구실	-16984
▁주교좌	-16985
▁한정판	-16986
▁혁명군	-16987
▁암모니아	-16988
▁크리스천	-16989
니코	-16990
▁kW	-16991
▁간지	-16992
▁규장	-16993
▁미에	-16994
▁바사	-16995
▁버거	-16996
▁부탄	-16997
▁석등	-16998
▁아픔	-16999
▁윗면	-17000
▁포진	-17001
정보부	-17002
▁라쿠텐	-17003
▁성북구	-17004
▁패트리	-17005
▁1795	-17006
▁그리스도인	-17007
▁견훤	-17008
▁군집	-17009
▁바하	-17010
▁옥상	-17011
▁정일	-17012
▁캐럴	-17013
▁할양	-17014
▁헤임	-17015
씨식물	-17016
▁MLB	-17017
▁WHO	-17018
▁니스트	-17019
▁아약스	-17020
▁프렌즈	-17021
▁석가여래	-17022
고나	-17023
ger	-17024
▁FS	-17025
▁레미	-17026
▁선회	-17027
▁실크	-17028
▁열풍	-17029
▁지층	-17030
▁직권	-17031
▁초당	-17032
▁페데	-17033
▁헨드	-17034
▁혼돈	-17035
▁훈족	-17036
▁LCK	-17037
▁고조선	-17038
▁미시간	-17039
▁포스코	-17040
▁프리킥	-17041
살바도르	-17042
▁부위원장	-17043
▁샌드위치	-17044
구멍	-17045
전차	-17046
▁도표	-17047
▁루지	-17048
▁멘토	-17049
▁스톨	-17050
▁아난	-17051
▁에린	-17052
▁켈빈	-17053
▁사이공	-17054
▁익산시	-17055
▁통신부	-17056
▁트루먼	-17057
▁플라자	-17058
▁다리우스	-17059
▁플레이스	-17060
▁윔	-17061
식스	-17062
회원	-17063
▁군락	-17064
▁발췌	-17065
▁비어	-17066
▁세베	-17067
▁아랑	-17068
▁암초	-17069
▁원생	-17070
▁잊히	-17071
▁포교	-17072
▁Dis	-17073
▁국문학	-17074
▁리포트	-17075
▁원정군	-17076
▁정확도	-17077
▁홉킨스	-17078
▁프로이트	-17079
ye	-17080
▁밈	-17081
alk	-17082
▁PH	-17083
▁괴뢰	-17084
▁도정	-17085
▁리츠	-17086
▁매춘	-17087
▁본초	-17088
▁에런	-17089
▁인대	-17090
▁춤추	-17091
▁패드	-17092
▁850	-17093
▁대항해	-17094
▁With	-17095
▁렝	-17096
▁그	-17097
▁모식	-17098
▁몬태	-17099
▁약학	-17100
▁우사	-17101
▁이효	-17102
▁헬로	-17103
▁480	-17104
▁블루어	-17105
▁창업자	-17106
▁디렉터리	-17107
▁면은	-17108
yle	-17109
▁로동	-17110
▁미숙	-17111
▁부녀	-17112
▁브람	-17113
▁쇠약	-17114
▁얼터	-17115
▁웅진	-17116
▁장조	-17117
▁풍수	-17118
▁남조선	-17119
▁선언문	-17120
▁스타즈	-17121
▁창덕궁	-17122
▁하모니	-17123
▁카테고리	-17124
▁뱌	-17125
▁쥘	-17126
부미	-17127
enc	-17128
▁관대	-17129
▁광택	-17130
▁보훈	-17131
▁코지	-17132
▁토비	-17133
▁학급	-17134
▁함의	-17135
주니어	-17136
▁Art	-17137
▁남해군	-17138
▁로렌초	-17139
▁보행자	-17140
▁스레드	-17141
▁타블로	-17142
▁합천군	-17143
▁수마트라	-17144
NT	-17145
▁켓	-17146
라도	-17147
▁김세	-17148
▁머피	-17149
▁보궐	-17150
▁아핀	-17151
▁우이	-17152
▁유원	-17153
▁종친	-17154
▁첨부	-17155
디우스	-17156
▁안드레이	-17157
▁COVID	-17158
건적	-17159
카라	-17160
팽이	-17161
▁당명	-17162
▁랜덤	-17163
▁미코	-17164
▁반야	-17165
▁웰스	-17166
▁유시	-17167
▁장준	-17168
▁천정	-17169
▁공직자	-17170
▁등록금	-17171
▁에히메	-17172
▁페테르	-17173
▁헬싱키	-17174
▁사탕수수	-17175
▁아틀레틱	-17176
▁요시아키	-17177
▁그리스도교	-17178
뉴스	-17179
스테	-17180
▁Di	-17181
▁경이	-17182
▁굶주	-17183
▁니나	-17184
▁소도	-17185
▁승전	-17186
▁윈터	-17187
▁차분	-17188
▁효용	-17189
▁238	-17190
▁덴	-17191
▁개최지	-17192
▁북반구	-17193
▁지방관	-17194
▁충렬왕	-17195
▁Blue	-17196
▁드레이크	-17197
▁교묘	-17198
▁구자	-17199
▁국지	-17200
▁더럽	-17201
▁숭실	-17202
▁씨름	-17203
▁엄정	-17204
▁연유	-17205
▁영재	-17206
▁팀장	-17207
▁평신	-17208
▁돌아서	-17209
IO	-17210
렁이	-17211
블린	-17212
▁각광	-17213
▁감탄	-17214
▁논설	-17215
▁덩굴	-17216
▁데쓰	-17217
▁맛있	-17218
▁불평	-17219
▁설사	-17220
플레잉	-17221
ough	-17222
▁남반구	-17223
▁바로잡	-17224
▁빅토리	-17225
▁손바닥	-17226
▁스타인	-17227
▁학생회	-17228
▁가나자와	-17229
▁롤플레잉	-17230
▁자연주의	-17231
▁꼼	-17232
레프	-17233
▁남포	-17234
▁민권	-17235
▁박승	-17236
▁버시	-17237
▁세탁	-17238
▁율령	-17239
▁장항	-17240
▁존엄	-17241
가하라	-17242
▁넥스트	-17243
▁보호관	-17244
▁산체스	-17245
▁1793	-17246
▁이베리아	-17247
전쟁	-17248
천국	-17249
▁골수	-17250
▁구토	-17251
▁당분	-17252
▁리저	-17253
▁몸집	-17254
▁수렵	-17255
▁와해	-17256
▁이트	-17257
▁정여	-17258
네소스	-17259
독립당	-17260
▁공기업	-17261
▁안데르	-17262
▁여객선	-17263
▁이완용	-17264
▁아나키즘	-17265
▁자유민주	-17266
▁중앙정보부	-17267
▁한국독립당	-17268
UI	-17269
ING	-17270
▁교주	-17271
▁내구	-17272
▁노화	-17273
▁데메	-17274
▁만기	-17275
▁멜론	-17276
▁묘법	-17277
▁신구	-17278
▁역모	-17279
▁쿠릴	-17280
▁하디	-17281
▁보라색	-17282
▁수번뇌	-17283
▁에밀리	-17284
▁유격대	-17285
▁취약점	-17286
▁페인트	-17287
▁키르기스스탄	-17288
que	-17289
▁ED	-17290
▁Vf	-17291
▁꼬	-17292
▁갤러	-17293
▁과부	-17294
▁국과	-17295
▁미묘	-17296
▁보츠	-17297
▁서강	-17298
▁올랭	-17299
▁용접	-17300
▁정병	-17301
▁직함	-17302
▁페터	-17303
▁하순	-17304
다람쥐	-17305
연화경	-17306
▁Rev	-17307
▁문하시	-17308
▁크라스	-17309
스트리트	-17310
▁1846	-17311
▁MPEG	-17312
▁물리학상	-17313
▁에드먼드	-17314
▁자동변속기	-17315
26	-17316
고트	-17317
메트	-17318
적분	-17319
OVE	-17320
▁괴멸	-17321
▁구룡	-17322
▁대뇌	-17323
▁무당	-17324
▁민생	-17325
▁오호	-17326
▁윤원	-17327
▁이국	-17328
▁천구	-17329
비우스	-17330
웨스트	-17331
▁노르트	-17332
▁아산시	-17333
▁아칸소	-17334
▁지난해	-17335
▁1839	-17336
▁브루나이	-17337
▁어드밴스	-17338
르모	-17339
바람	-17340
운전	-17341
ump	-17342
▁간디	-17343
▁삼키	-17344
▁서보	-17345
▁참배	-17346
▁펀치	-17347
시우스	-17348
▁농작물	-17349
▁메이트	-17350
▁엉덩이	-17351
▁윤리학	-17352
▁이브라	-17353
▁중서부	-17354
▁포위전	-17355
▁기념사업	-17356
▁하시모토	-17357
후이	-17358
▁'.	-17359
▁니콘	-17360
▁월북	-17361
▁인출	-17362
▁총체	-17363
▁퇴단	-17364
▁가입자	-17365
▁버나드	-17366
▁베드로	-17367
▁변속기	-17368
▁시어터	-17369
▁추밀원	-17370
▁1854	-17371
▁time	-17372
▁느라	-17373
▁여주인공	-17374
▁넉	-17375
▁뚱	-17376
나물	-17377
대성	-17378
래시	-17379
파스	-17380
▁경멸	-17381
▁귀양	-17382
▁낙타	-17383
▁사흘	-17384
▁산불	-17385
▁순정	-17386
▁억류	-17387
▁표결	-17388
▁학창	-17389
슬라브	-17390
▁LCD	-17391
▁국무원	-17392
▁배수량	-17393
▁아테나	-17394
▁체스터	-17395
▁최하위	-17396
▁테트라	-17397
▁히로부미	-17398
▁시즈오카현	-17399
▁아오모리현	-17400
질량	-17401
der	-17402
▁걸맞	-17403
▁게일	-17404
▁공덕	-17405
▁구인	-17406
▁도색	-17407
▁망루	-17408
▁박기	-17409
▁솔트	-17410
▁윤석	-17411
▁잠들	-17412
▁추위	-17413
▁해자	-17414
▁휘트	-17415
▁상속인	-17416
▁외무성	-17417
▁키워드	-17418
▁초등학생	-17419
▁갑각	-17420
▁개전	-17421
▁군국	-17422
▁깜짝	-17423
▁독소	-17424
▁본당	-17425
▁심플	-17426
▁이견	-17427
▁이형	-17428
▁존상	-17429
▁클루	-17430
티우스	-17431
▁기부금	-17432
▁아쿠아	-17433
▁알레르	-17434
▁전기장	-17435
▁파트리	-17436
▁황태후	-17437
▁후임자	-17438
▁기독교인	-17439
▁이해관계	-17440
▁촘	-17441
모자	-17442
재란	-17443
▁내수	-17444
▁범용	-17445
▁부윤	-17446
▁심근	-17447
▁인신	-17448
▁정강	-17449
▁치중	-17450
▁톨킨	-17451
▁현충	-17452
학생회	-17453
▁214	-17454
▁737	-17455
▁대머리	-17456
▁상대론	-17457
▁팩토리	-17458
▁하카타	-17459
▁정유재란	-17460
▁마는	-17461
▁트리니다드	-17462
▁중앙아프리카	-17463
▁루머	-17464
▁방조	-17465
▁분양	-17466
▁아민	-17467
▁여과	-17468
▁유폐	-17469
▁칼레	-17470
▁특례	-17471
▁환기	-17472
코스트	-17473
▁ㄴ가	-17474
▁가시마	-17475
▁분류학	-17476
▁산둥성	-17477
▁시공간	-17478
▁평화상	-17479
▁언어학자	-17480
▁총학생회	-17481
우어	-17482
패스	-17483
▁유	-17484
▁교포	-17485
▁미모	-17486
▁바일	-17487
▁야로	-17488
▁찬탈	-17489
▁파드	-17490
▁필기	-17491
▁후시	-17492
▁낙하산	-17493
▁절대로	-17494
총리대신	-17495
▁마음대로	-17496
▁미성년자	-17497
▁세키가하라	-17498
▁내각총리대신	-17499
BT	-17500
▁등대	-17501
▁라몬	-17502
▁매번	-17503
▁매월	-17504
▁박준	-17505
▁브론	-17506
▁비참	-17507
▁상작	-17508
▁석상	-17509
▁손책	-17510
▁악역	-17511
▁어이	-17512
▁오닐	-17513
▁오딘	-17514
▁웅장	-17515
▁육아	-17516
▁종주	-17517
▁코레	-17518
캐스트	-17519
쿠스틱	-17520
▁COM	-17521
▁Min	-17522
▁경비대	-17523
▁돗토리	-17524
▁보나파	-17525
▁조계종	-17526
▁증명서	-17527
▁비지니스	-17528
▁어쿠스틱	-17529
▁보나파르트	-17530
▁돛	-17531
▁뺏	-17532
▁BR	-17533
▁마한	-17534
▁상투	-17535
▁새턴	-17536
▁소홀	-17537
▁수류	-17538
▁이부	-17539
▁장령	-17540
▁페드	-17541
프랑스	-17542
▁가파르	-17543
▁안중근	-17544
▁에리크	-17545
▁1849	-17546
▁Beat	-17547
▁드라	-17548
▁플로이드	-17549
▁줌	-17550
▁퓌	-17551
▁ME	-17552
▁광경	-17553
▁단성	-17554
▁분장	-17555
▁유품	-17556
▁제식	-17557
▁제학	-17558
▁팬아	-17559
▁교토부	-17560
▁북극해	-17561
▁비행대	-17562
▁갈릴레이	-17563
▁공화주의	-17564
▁비트코인	-17565
▁견습	-17566
▁고압	-17567
▁디온	-17568
▁바덴	-17569
▁베버	-17570
▁비크	-17571
▁사죄	-17572
▁시경	-17573
▁실로	-17574
▁엠블	-17575
▁인피	-17576
▁적재	-17577
▁태세	-17578
▁페가	-17579
▁화북	-17580
▁갖가지	-17581
▁데포르	-17582
▁초대칭	-17583
▁파출소	-17584
▁하이든	-17585
▁1856	-17586
▁오브젝트	-17587
▁페더레이션	-17588
28	-17589
▁깡	-17590
담회	-17591
사회	-17592
섬유	-17593
탐정	-17594
▁간염	-17595
▁계투	-17596
▁담론	-17597
▁북해	-17598
▁분쇄	-17599
▁신작	-17600
▁해일	-17601
▁현령	-17602
직할시	-17603
▁430	-17604
▁건국대	-17605
▁구청장	-17606
▁나가노	-17607
▁델라웨어	-17608
HD	-17609
▁럴	-17610
누아	-17611
▁낙랑	-17612
▁남로	-17613
▁모기	-17614
▁반열	-17615
▁본디	-17616
▁소란	-17617
▁수배	-17618
▁시주	-17619
▁역습	-17620
▁예속	-17621
▁우동	-17622
▁웨일	-17623
▁이안	-17624
▁철원	-17625
▁교직원	-17626
▁아가씨	-17627
▁찬드라	-17628
▁노동자당	-17629
▁소용돌이	-17630
▁네덜란드어	-17631
오린	-17632
정권	-17633
호르	-17634
호프	-17635
▁대세	-17636
▁봉작	-17637
▁연임	-17638
▁오기	-17639
▁파격	-17640
타니아	-17641
atch	-17642
▁식물원	-17643
▁어리석	-17644
▁해럴드	-17645
베이거스	-17646
▁캐나다인	-17647
▁크레이그	-17648
▁하이웨이	-17649
23	-17650
케스	-17651
▁반려	-17652
▁배설	-17653
▁요아	-17654
▁적성	-17655
▁추궁	-17656
▁헤엄	-17657
▁화전	-17658
▁효능	-17659
▁장택상	-17660
▁1851	-17661
▁스탠퍼드	-17662
▁캔자스시티	-17663
▁라스베이거스	-17664
OU	-17665
개혁	-17666
체어	-17667
▁만국	-17668
▁메사	-17669
▁밀스	-17670
▁변방	-17671
▁볼륨	-17672
▁유장	-17673
▁조승	-17674
▁촌은	-17675
▁한서	-17676
▁419	-17677
▁감염자	-17678
▁공사관	-17679
▁다이나	-17680
▁참모장	-17681
▁상파울루	-17682
▁차량기지	-17683
▁크리에이티브	-17684
▁PP	-17685
▁간장	-17686
▁김문	-17687
▁낙엽	-17688
▁단호	-17689
▁셔먼	-17690
▁원성	-17691
▁윤영	-17692
▁친절	-17693
▁후백	-17694
트로피	-17695
▁FBI	-17696
▁Top	-17697
▁디스코	-17698
▁레인보	-17699
▁벤피카	-17700
▁보르도	-17701
▁입출력	-17702
▁테이크	-17703
▁투데이	-17704
▁블레이드	-17705
▁사보이아	-17706
처리	-17707
하스	-17708
▁계란	-17709
▁국면	-17710
▁단사	-17711
▁도독	-17712
▁라티	-17713
▁발송	-17714
▁상체	-17715
▁서천	-17716
▁수서	-17717
▁심슨	-17718
▁알비	-17719
▁외동	-17720
▁치수	-17721
▁노스케	-17722
▁오비탈	-17723
▁진보당	-17724
▁집어넣	-17725
▁하동군	-17726
츠부르크	-17727
▁서스펜션	-17728
▁스티븐스	-17729
▁프란시스	-17730
▁오하이오주	-17731
86	-17732
▁힉	-17733
전기	-17734
하늘	-17735
ery	-17736
▁결탁	-17737
▁경색	-17738
▁대광	-17739
▁쇼팽	-17740
▁아모	-17741
▁정시	-17742
▁주경	-17743
▁착안	-17744
고양이	-17745
▁기념식	-17746
▁시부야	-17747
▁애벌레	-17748
▁올라서	-17749
▁캥거루	-17750
▁핵폭탄	-17751
▁1855	-17752
▁1857	-17753
▁정사각형	-17754
▁폴란드인	-17755
왕국	-17756
천년	-17757
투안	-17758
▁TG	-17759
▁대열	-17760
▁랜디	-17761
▁명주	-17762
▁보문	-17763
▁분개	-17764
▁빌미	-17765
▁생가	-17766
▁언약	-17767
▁여생	-17768
▁욕설	-17769
▁조력	-17770
▁카잔	-17771
▁페티	-17772
▁Med	-17773
▁대주주	-17774
▁배트맨	-17775
▁상세히	-17776
▁수산물	-17777
▁시흥시	-17778
▁작사가	-17779
▁휠체어	-17780
▁갑신정변	-17781
▁다이스케	-17782
▁민족주의자	-17783
깨비	-17784
버거	-17785
봉사	-17786
산읍	-17787
일라	-17788
카테	-17789
▁거액	-17790
▁벽면	-17791
▁서상	-17792
▁한참	-17793
cess	-17794
▁모자라	-17795
▁베르디	-17796
▁봉사자	-17797
▁서북쪽	-17798
▁수수료	-17799
▁일간지	-17800
▁행정관	-17801
▁반공주의	-17802
증권	-17803
하르	-17804
▁YM	-17805
▁권세	-17806
▁무왕	-17807
▁성채	-17808
▁수훈	-17809
▁캔디	-17810
▁핵산	-17811
▁현명	-17812
icro	-17813
▁211	-17814
▁Pop	-17815
▁구미시	-17816
▁글리코	-17817
▁Will	-17818
▁여러해살이풀	-17819
▁좡	-17820
▁쟁점	-17821
▁정년	-17822
▁택지	-17823
콥스키	-17824
▁301	-17825
▁시우바	-17826
▁웨이트	-17827
▁제이스	-17828
▁지평선	-17829
▁포천시	-17830
▁데포르티보	-17831
댄스	-17832
레토	-17833
테른	-17834
▁롤리	-17835
▁압송	-17836
▁인테	-17837
▁주치	-17838
▁체첸	-17839
▁친목	-17840
▁템포	-17841
▁포구	-17842
▁해금	-17843
루리아	-17844
▁동의어	-17845
▁은하단	-17846
▁저작물	-17847
▁펠로폰	-17848
▁포브스	-17849
▁이와테현	-17850
▁병마절도사	-17851
▁펠로폰네소스	-17852
버드	-17853
서구	-17854
소득	-17855
재기	-17856
지대	-17857
▁김한	-17858
▁까다	-17859
▁듯이	-17860
▁버퍼	-17861
▁셀룰	-17862
▁신영	-17863
▁폰트	-17864
이다	-17865
▁223	-17866
▁변증법	-17867
▁컨디션	-17868
메니스탄	-17869
▁서아시아	-17870
▁투르크메니스탄	-17871
흐트	-17872
▁돌핀	-17873
▁변장	-17874
▁선하	-17875
▁소망	-17876
▁수스	-17877
▁실습	-17878
▁외벽	-17879
▁이학	-17880
▁임베	-17881
▁지소	-17882
▁크세	-17883
▁탄원	-17884
▁팔자	-17885
▁스나이	-17886
▁카운터	-17887
▁헤이스	-17888
▁임베디드	-17889
▁려다가	-17890
바꿈	-17891
쇼프	-17892
연대	-17893
▁CL	-17894
▁간파	-17895
▁노회	-17896
▁대적	-17897
▁만리	-17898
▁미안	-17899
▁벚꽃	-17900
▁액수	-17901
▁찬스	-17902
▁퇴사	-17903
▁히나	-17904
▁NAD	-17905
▁그로스	-17906
▁나주시	-17907
▁늘어지	-17908
▁비엔나	-17909
▁1776	-17910
▁Free	-17911
▁엔트로피	-17912
니엄	-17913
니크	-17914
▁급습	-17915
▁박격	-17916
▁성간	-17917
▁슈바	-17918
▁신명	-17919
▁한도	-17920
▁회부	-17921
▁XML	-17922
▁모여들	-17923
▁오카다	-17924
▁핵실험	-17925
▁클라리넷	-17926
▁통합진보당	-17927
로아	-17928
ont	-17929
▁FR	-17930
▁IA	-17931
▁고증	-17932
▁방한	-17933
▁알론	-17934
▁열반	-17935
▁원제	-17936
▁율곡	-17937
▁음경	-17938
▁읽히	-17939
▁장구	-17940
▁지병	-17941
▁총알	-17942
▁카렐	-17943
▁항모	-17944
시오날	-17945
▁대각선	-17946
▁뽑아내	-17947
타고라스	-17948
▁나시오날	-17949
▁플루오린	-17950
day	-17951
▁골목	-17952
▁이공	-17953
▁재원	-17954
▁현청	-17955
▁다면체	-17956
▁보니파	-17957
▁수송기	-17958
▁타고나	-17959
▁하이델	-17960
▁가까스로	-17961
▁무라카미	-17962
▁미주리주	-17963
27	-17964
스탕	-17965
▁대흥	-17966
▁버즈	-17967
▁센스	-17968
▁요네	-17969
▁조식	-17970
▁코민	-17971
▁현생	-17972
중국해	-17973
▁독립국	-17974
▁루터교	-17975
▁마그마	-17976
▁바이스	-17977
▁형무소	-17978
▁사카모토	-17979
▁태평천국	-17980
광선	-17981
▁UR	-17982
▁과업	-17983
▁뇌졸	-17984
▁문교	-17985
▁부총	-17986
▁윤선	-17987
▁잠복	-17988
▁타오	-17989
노벨라	-17990
리어스	-17991
▁거제시	-17992
▁급기야	-17993
▁레너드	-17994
▁병원체	-17995
▁이범석	-17996
▁올랭피크	-17997
▁원내대표	-17998
▁그레고리력	-17999
▁텔레노벨라	-18000
활성	-18001
▁Po	-18002
▁개요	-18003
▁금광	-18004
▁사극	-18005
▁오도	-18006
▁와트	-18007
▁중첩	-18008
▁호가	-18009
▁새천년	-18010
▁아세트	-18011
가야	-18012
볼트	-18013
aut	-18014
▁MW	-18015
▁누각	-18016
▁상시	-18017
▁서던	-18018
▁성추	-18019
▁양손	-18020
▁언젠	-18021
▁입안	-18022
▁조참	-18023
궐선거	-18024
레시브	-18025
▁가속기	-18026
▁달라이	-18027
▁동북쪽	-18028
▁청교도	-18029
▁출생지	-18030
▁클라라	-18031
▁재보궐선거	-18032
▁캄파니아주	-18033
▁프로그레시브	-18034
피	-18035
모습	-18036
▁누락	-18037
▁땅콩	-18038
▁몬트	-18039
▁살림	-18040
▁심신	-18041
▁영아	-18042
▁원가	-18043
▁장타	-18044
▁준위	-18045
▁질리	-18046
▁케니	-18047
시피	-18048
▁김종필	-18049
▁비정규	-18050
▁언젠가	-18051
▁국민회의	-18052
▁피에트로	-18053
▁다시피	-18054
29	-18055
ma	-18056
를린	-18057
쿠젠	-18058
평가	-18059
its	-18060
▁CV	-18061
▁간소	-18062
▁로로	-18063
▁만다	-18064
▁명지	-18065
▁산탄	-18066
▁이연	-18067
▁천명	-18068
▁타현	-18069
▁퇴화	-18070
▁혹독	-18071
▁히다	-18072
▁굳어지	-18073
▁마인드	-18074
▁모티프	-18075
▁심포니	-18076
▁어지럽	-18077
▁영산회	-18078
▁청구인	-18079
▁10000	-18080
▁레오나르도	-18081
고도	-18082
마타	-18083
▁ne	-18084
▁계파	-18085
▁괴팅	-18086
▁교복	-18087
▁국고	-18088
▁기물	-18089
▁미망	-18090
▁미움	-18091
▁발주	-18092
▁방수	-18093
▁본기	-18094
▁시왕	-18095
▁역행	-18096
▁음란	-18097
▁지단	-18098
▁직제	-18099
▁진안	-18100
▁체임	-18101
▁파사	-18102
▁표상	-18103
▁하쿠	-18104
▁합체	-18105
▁End	-18106
▁가로막	-18107
▁베르그	-18108
▁영등포	-18109
▁묘법연화경	-18110
연료	-18111
페리	-18112
▁각별	-18113
▁로젠	-18114
▁마고	-18115
▁사성	-18116
▁셰이	-18117
▁수잔	-18118
▁연좌	-18119
▁이로	-18120
▁최경	-18121
▁화신	-18122
들랜드	-18123
▁Bro	-18124
▁del	-18125
▁단기간	-18126
▁메이플	-18127
▁베리아	-18128
▁빠뜨리	-18129
▁사모아	-18130
▁살아나	-18131
▁에인절	-18132
▁황도대	-18133
▁조기어류	-18134
저민	-18135
oss	-18136
▁가메	-18137
▁감명	-18138
▁국채	-18139
▁습성	-18140
▁어필	-18141
▁홀드	-18142
메네스	-18143
메데스	-18144
▁215	-18145
▁벤저민	-18146
▁샘플링	-18147
▁서기장	-18148
▁치우치	-18149
▁팰리스	-18150
▁포위망	-18151
▁이야	-18152
개발	-18153
▁로미	-18154
▁반일	-18155
▁비비	-18156
▁콘월	-18157
▁포에	-18158
irst	-18159
▁Big	-18160
▁DFB	-18161
든지	-18162
▁네브래스카	-18163
니발	-18164
미치	-18165
슐린	-18166
▁나나	-18167
▁대양	-18168
▁배영	-18169
▁에나	-18170
▁포즈	-18171
▁포탈	-18172
▁퓨전	-18173
▁황보	-18174
▁까다롭	-18175
▁논산시	-18176
▁리서치	-18177
▁크리켓	-18178
▁캔터베리	-18179
BL	-18180
계리	-18181
급시	-18182
▁DL	-18183
▁공녀	-18184
▁노미	-18185
▁로자	-18186
▁생사	-18187
▁세브	-18188
▁열광	-18189
▁우문	-18190
▁장보	-18191
▁청화	-18192
▁픽업	-18193
▁게이츠	-18194
▁서남쪽	-18195
▁특공대	-18196
▁으라	-18197
▁미시간주	-18198
▁스포르팅	-18199
▁코미디언	-18200
▁포레스트	-18201
ᅦᆫ	-18202
▁랏	-18203
빼미	-18204
▁개간	-18205
▁노먼	-18206
▁독감	-18207
▁린드	-18208
▁마마	-18209
▁밑면	-18210
▁시로	-18211
▁요세	-18212
▁정철	-18213
▁주둥	-18214
▁엉	-18215
▁경기력	-18216
▁문화사	-18217
▁부제학	-18218
▁begin	-18219
▁WH	-18220
▁가인	-18221
▁경치	-18222
▁니즘	-18223
▁라비	-18224
▁레베	-18225
▁몰입	-18226
▁미팅	-18227
▁원화	-18228
▁위드	-18229
▁위아	-18230
▁코다	-18231
▁브레인	-18232
▁엑스선	-18233
▁프리랜	-18234
▁해설자	-18235
HS	-18236
br	-18237
연의	-18238
지않	-18239
코바	-18240
▁매드	-18241
▁메콩	-18242
▁브롱	-18243
▁살상	-18244
▁서드	-18245
▁서킷	-18246
▁실드	-18247
▁연천	-18248
▁유즈	-18249
▁접착	-18250
▁정약	-18251
▁징후	-18252
▁추석	-18253
▁틈새	-18254
▁한방	-18255
더니즘	-18256
▁239	-18257
▁구석기	-18258
▁부활절	-18259
▁서로마	-18260
▁월리스	-18261
▁전년도	-18262
▁특이점	-18263
▁언더그라운드	-18264
▁다의	-18265
▁루소	-18266
▁우메	-18267
▁전갈	-18268
▁정파	-18269
▁질레	-18270
▁쿠키	-18271
▁패주	-18272
▁계약금	-18273
▁기장군	-18274
▁레이어	-18275
▁목걸이	-18276
▁수메르	-18277
▁유니온	-18278
▁후반부	-18279
▁1792	-18280
▁Mnet	-18281
▁소선거구	-18282
▁HK	-18283
▁경수	-18284
▁낭독	-18285
▁내쫓	-18286
▁래스	-18287
▁비슈	-18288
▁시동	-18289
▁창안	-18290
▁촌락	-18291
▁칸타	-18292
▁픽션	-18293
▁향리	-18294
▁510	-18295
▁BMW	-18296
▁Des	-18297
▁계약서	-18298
▁권력자	-18299
▁미카사	-18300
▁보호자	-18301
▁사중주	-18302
▁젬	-18303
가키	-18304
보스	-18305
aff	-18306
▁KC	-18307
▁녀석	-18308
▁다라	-18309
▁루아	-18310
▁시암	-18311
▁아그	-18312
▁우랄	-18313
▁종택	-18314
▁평년	-18315
▁호치	-18316
파트라	-18317
▁브리트	-18318
▁사생아	-18319
▁Rain	-18320
▁이루	-18321
▁프라이스	-18322
▁클레오파트라	-18323
▁까치	-18324
▁덤불	-18325
▁도기	-18326
▁듀크	-18327
▁명절	-18328
▁부원	-18329
▁세관	-18330
▁시료	-18331
▁위니	-18332
▁유실	-18333
▁제반	-18334
▁청탁	-18335
▁재정난	-18336
▁동대문구	-18337
▁모하메드	-18338
▁아틀라스	-18339
▁프로토타입	-18340
▁누	-18341
▁감히	-18342
▁귀납	-18343
▁금화	-18344
▁대검	-18345
▁덧셈	-18346
▁마자	-18347
▁안상	-18348
▁영연	-18349
▁이족	-18350
▁정량	-18351
▁제향	-18352
▁커트	-18353
▁set	-18354
▁게이머	-18355
▁다다르	-18356
▁따돌리	-18357
▁미술가	-18358
▁브람스	-18359
▁외삼촌	-18360
▁퍼펙트	-18361
▁1853	-18362
▁LIVE	-18363
▁void	-18364
▁알레르기	-18365
▁플레이트	-18366
▁슈퍼주니어	-18367
▁독신	-18368
▁비츠	-18369
▁성년	-18370
▁예천	-18371
▁욕심	-18372
▁잠그	-18373
▁함안	-18374
덜랜드	-18375
▁안	-18376
▁과선교	-18377
▁목격자	-18378
▁성추행	-18379
▁파이브	-18380
▁권위주의	-18381
루이	-18382
막염	-18383
삼문	-18384
타라	-18385
▁RE	-18386
▁do	-18387
▁그려	-18388
▁난간	-18389
▁바크	-18390
▁버락	-18391
▁불황	-18392
▁산토	-18393
▁시판	-18394
▁약정	-18395
▁양력	-18396
▁카쿠	-18397
▁케스	-18398
▁쿠페	-18399
▁티르	-18400
▁호엔	-18401
너티브	-18402
메이트	-18403
제르맹	-18404
▁움	-18405
▁명백히	-18406
▁시설물	-18407
▁퍼뜨리	-18408
▁표준어	-18409
▁Show	-18410
▁인테리어	-18411
▁얼터너티브	-18412
노동	-18413
버섯	-18414
IDS	-18415
▁CT	-18416
▁JP	-18417
▁가평	-18418
▁도고	-18419
▁동복	-18420
▁라벤	-18421
▁박중	-18422
▁상피	-18423
▁섬멸	-18424
▁숙성	-18425
▁시구	-18426
▁아속	-18427
▁오쓰	-18428
▁으로	-18429
▁절멸	-18430
▁최북	-18431
▁홍백	-18432
▁레일리	-18433
▁요리사	-18434
▁지도력	-18435
▁1791	-18436
▁1852	-18437
▁경향신문	-18438
▁엘살바도르	-18439
▁퓰	-18440
그림	-18441
▁SI	-18442
▁구급	-18443
▁수첩	-18444
▁아쓰	-18445
▁연작	-18446
▁입적	-18447
▁자락	-18448
▁최치	-18449
▁튀르	-18450
▁TOP	-18451
▁정말로	-18452
▁중생대	-18453
▁프레디	-18454
▁프로파	-18455
▁벌어들이	-18456
▁테러리스트	-18457
얼빈	-18458
이인	-18459
행사	-18460
▁갑판	-18461
▁만찬	-18462
▁모후	-18463
▁밥상	-18464
▁상권	-18465
▁성하	-18466
▁수온	-18467
▁스커	-18468
▁슬럼	-18469
▁영세	-18470
▁일람	-18471
▁제각	-18472
▁착오	-18473
▁캄포	-18474
▁탄환	-18475
▁검사장	-18476
▁꽃받침	-18477
▁무안군	-18478
▁무인역	-18479
▁버밍엄	-18480
▁아르카	-18481
▁양서류	-18482
▁호위함	-18483
▁소서	-18484
▁사다하루	-18485
▁생제르맹	-18486
▁속씨식물	-18487
▁크래프트	-18488
▁콘스탄티노플	-18489
▁옅	-18490
▁잣	-18491
바타	-18492
서면	-18493
티드	-18494
하워	-18495
▁FN	-18496
▁강물	-18497
▁메트	-18498
▁방과	-18499
▁부름	-18500
▁사구	-18501
▁수전	-18502
▁실화	-18503
▁예견	-18504
▁오에	-18505
▁출소	-18506
핵생물	-18507
▁레프트	-18508
▁에르난	-18509
▁조나단	-18510
▁지원자	-18511
▁한마디	-18512
▁도네츠크	-18513
▁아이젠하워	-18514
be	-18515
▁빽	-18516
경궁	-18517
vis	-18518
▁교우	-18519
▁근연	-18520
▁매너	-18521
▁부응	-18522
▁북제	-18523
▁비고	-18524
▁선방	-18525
▁수뇌	-18526
▁실황	-18527
▁에타	-18528
▁월급	-18529
▁친숙	-18530
▁회중	-18531
▁후신	-18532
▁희박	-18533
즐랜드	-18534
▁212	-18535
▁그려지	-18536
▁끊어지	-18537
▁성동구	-18538
▁재판장	-18539
▁중학생	-18540
ement	-18541
▁퍼레이드	-18542
방식	-18543
oup	-18544
▁관서	-18545
▁구보	-18546
▁노던	-18547
▁도금	-18548
▁독려	-18549
▁셰프	-18550
▁식료	-18551
▁신재	-18552
▁여야	-18553
▁완투	-18554
▁음색	-18555
▁동인도	-18556
▁점성가	-18557
▁퀸즐랜드	-18558
▁찻	-18559
귀비	-18560
팔렌	-18561
하트	-18562
▁EN	-18563
▁FX	-18564
▁박인	-18565
▁불펜	-18566
▁우쓰	-18567
▁원망	-18568
▁장영	-18569
▁제법	-18570
▁플뢰	-18571
▁히브	-18572
▁233	-18573
▁ㄴ대	-18574
▁게이초	-18575
▁관악구	-18576
▁부끄럽	-18577
▁에버턴	-18578
▁좀처럼	-18579
오세	-18580
▁고질	-18581
▁귀향	-18582
▁능통	-18583
▁벨레	-18584
▁보두	-18585
▁색인	-18586
▁서하	-18587
▁수찬	-18588
▁여태	-18589
▁은둔	-18590
▁장터	-18591
▁필살	-18592
▁해동	-18593
▁호감	-18594
▁경영진	-18595
▁분화구	-18596
▁상류층	-18597
▁앵글로	-18598
▁유목민	-18599
▁잎자루	-18600
▁황갈색	-18601
▁1847	-18602
▁Like	-18603
▁다운타운	-18604
▁천주교회	-18605
▁히로시마현	-18606
▁뚝	-18607
▁즌	-18608
노헤	-18609
▁고작	-18610
▁국물	-18611
▁기치	-18612
▁김호	-18613
▁따내	-18614
▁박주	-18615
▁발화	-18616
▁요트	-18617
▁윤상	-18618
▁청진	-18619
▁Bar	-18620
▁레오니	-18621
▁음악회	-18622
▁이스턴	-18623
▁최적화	-18624
▁퀘스트	-18625
▁현저히	-18626
▁LOVE	-18627
▁도쿠시마	-18628
▁루키우스	-18629
▁뱀파이어	-18630
▁필리포스	-18631
▁Sound	-18632
▁롬바르디아	-18633
에어	-18634
way	-18635
▁EF	-18636
▁고타	-18637
▁남짓	-18638
▁망상	-18639
▁미일	-18640
▁수난	-18641
▁쑨원	-18642
▁점심	-18643
▁차가	-18644
▁쾌락	-18645
▁팔각	-18646
▁품계	-18647
하이머	-18648
▁개찰기	-18649
▁세례명	-18650
▁옹진군	-18651
▁플랜트	-18652
▁현악기	-18653
▁옥타비아	-18654
▁콘티넨털	-18655
개명	-18656
▁경감	-18657
▁대파	-18658
▁마조	-18659
▁신숙	-18660
▁이계	-18661
▁학점	-18662
▁릴리스	-18663
▁베이컨	-18664
▁올빼미	-18665
▁시트르산	-18666
▁프리랜서	-18667
▁똥	-18668
비어	-18669
▁OC	-18670
▁강압	-18671
▁과천	-18672
▁관사	-18673
▁버블	-18674
▁세가	-18675
▁안젤	-18676
▁약국	-18677
▁연일	-18678
▁영해	-18679
▁초중	-18680
▁최재	-18681
▁포리	-18682
▁황성	-18683
▁강아지	-18684
▁김포시	-18685
▁다각형	-18686
▁더구나	-18687
▁이베이	-18688
▁저술가	-18689
▁핵연료	-18690
▁가이우스	-18691
▁레인보우	-18692
▁은행나무	-18693
▁Light	-18694
▁안티고노스	-18695
▁NK	-18696
▁es	-18697
▁mg	-18698
▁가봉	-18699
▁공물	-18700
▁구면	-18701
▁궁금	-18702
▁기노	-18703
▁나팔	-18704
▁냉동	-18705
▁마로	-18706
▁미신	-18707
▁밀턴	-18708
▁수작	-18709
▁슬롯	-18710
▁야채	-18711
▁연사	-18712
▁오목	-18713
▁조만	-18714
▁주술	-18715
▁지드	-18716
▁진과	-18717
▁회군	-18718
▁브룩스	-18719
▁생태학	-18720
▁유학생	-18721
▁인슐린	-18722
▁피스톤	-18723
▁하얼빈	-18724
▁Over	-18725
▁옵티머스	-18726
▁버지니아주	-18727
WS	-18728
리	-18729
▁읊	-18730
▁젓	-18731
랄라	-18732
▁UK	-18733
▁골자	-18734
▁궤멸	-18735
▁낙인	-18736
▁동족	-18737
▁마누	-18738
▁발라	-18739
▁베레	-18740
▁왈라	-18741
▁유위	-18742
▁음소	-18743
▁자력	-18744
▁카멜	-18745
▁파니	-18746
▁혈청	-18747
리오카	-18748
▁221	-18749
▁뇌졸중	-18750
▁레슬리	-18751
▁카이저	-18752
▁Sing	-18753
▁뿌	-18754
▁강수	-18755
▁계명	-18756
▁라피	-18757
▁삼가	-18758
▁서간	-18759
▁송금	-18760
▁신예	-18761
▁외화	-18762
▁우성	-18763
▁이면	-18764
▁차드	-18765
▁클론	-18766
▁푸시	-18767
▁호러	-18768
▁후각	-18769
자위대	-18770
ouse	-18771
▁Red	-18772
▁가오슝	-18773
▁미망인	-18774
▁세일러	-18775
▁수류탄	-18776
▁유가족	-18777
▁중대장	-18778
▁편의점	-18779
▁해적단	-18780
▁브래들리	-18781
루트	-18782
야구	-18783
임수	-18784
타바	-18785
▁고부	-18786
▁색조	-18787
▁스벤	-18788
▁쓰가	-18789
▁주어	-18790
▁커크	-18791
▁한류	-18792
▁회기	-18793
▁Sec	-18794
▁세포막	-18795
▁탈수소	-18796
브레히트	-18797
▁계몽주의	-18798
▁시라카와	-18799
▁카리브해	-18800
거슨	-18801
색슨	-18802
워키	-18803
▁RO	-18804
▁계략	-18805
▁그랜	-18806
▁명품	-18807
▁보현	-18808
▁북진	-18809
▁비약	-18810
▁슬퍼	-18811
▁신빙	-18812
▁앙주	-18813
▁추월	-18814
▁콕스	-18815
▁판별	-18816
▁나뭇잎	-18817
▁리히텐	-18818
▁배상금	-18819
▁정보국	-18820
▁1100	-18821
▁곤살레스	-18822
▁창씨개명	-18823
▁앵글로색슨	-18824
▁즙	-18825
시간	-18826
옹주	-18827
▁JS	-18828
▁고해	-18829
▁굴리	-18830
▁나츠	-18831
▁아워	-18832
▁업소	-18833
▁유주	-18834
▁혹평	-18835
대주의	-18836
ason	-18837
▁231	-18838
▁Eng	-18839
[...]
