[PAD]
[UNK]
[BOS]
[EOS]
[CLS]
[SEP]
[MASK]
▁▃
▁ㅇ
ㅡㄴ
▁⊸
▁⊸⊸
▁하
▁ㄱ
▁.
▁ㄷ
ㅡㄹ
ㄴㅡㄴ
▁이
▁ㄴㅡㄴ
▁ㅇㅔ
▁ㄹ
▁ㄷㅏ
▁ㅇㅢ
▁ㅇㅡㄹ
▁ㅇㅓ
▁ㅇㅣ
▁ㅇㅏ
▁,
ㅅㅓ
▁ㄹㅡㄹ
▁ㄱㅏ
▁ㅇㅡㄴ
▁ㅇㅡ
▁ㄱㅗ
ㄷㅏ
ㅁㅕ
▁있
▁되
ㅈㅣ
▁1
ㄹㅗ
▁ㄷㅗ
▁ㅇㅓㅆ
ㄴㄷㅏ
▁ㄹㅗ
▁그
▁사
▁2
▁ㅇㅏㅆ
▁들
▁아
▁시
▁ㅈㅣ
▁ㅁㅕ
▁대
▁가
▁수
▁보
▁것
▁지
▁ㄹㅏ
▁ㄱㅣ
ㅁㅏ
▁전
▁일
▁나
▁기
▁ㄱㅔ
ㅁㅏㄴ
▁주
▁다
▁자
▁적
▁ㅁㅕㄴ
▁-
▁스
▁ㄱㅘ
▁마
▁정
▁ㅇㅘ
▁상
▁때
ㄱㅗ
▁'
▁모
▁오
ㄴㅏ
▁3
▁년
▁공
▁인
▁중
▁20
▁부
▁유
▁경
▁제
▁한
▁없
▁위
▁등
▁비
▁무
▁성
▁소
▁:
▁어
▁않
▁ㄷㅓ
▁만
ㄷㅔ
▁미
ㄱㅔ
▁개
▁여
▁ㄷㅓㄴ
▁4
▁세
▁바
▁고
▁"
▁내
▁거
▁조
▁장
▁5
▁동
▁방
▁카
▁도
▁타
▁월
▁연
▁신
▁말
ㄲㅏ
▁선
▁ㅂ
▁ㅁㅏㄴ
▁안
▁구
▁당
▁영
▁후
▁때문
▁201
▁생
▁화
▁버
▁ㄴㅡㄴㄷㅔ
▁/
▁발
ㅁㅕㄴ
▁리
▁차
▁레
▁크
▁아니
▁원
▁0
ㄴㅣ
▁파
▁ㄲㅏ
▁ㅇㅕ
▁강
▁ㅈ
▁우
▁실
▁노
▁의
▁최
▁나오
▁데
▁서
▁명
▁문
▁같
▁많
▁더
▁해
▁번
▁불
▁단
▁포
▁관
▁특
▁작
▁6
▁받
▁역
▁경우
▁쓰
▁결
▁반
▁진
▁게
▁프
▁ㅈㅏ
▁10
▁라
▁알
▁초
▁드
▁배
▁계
▁ㅁㅕㄴㅅㅓ
▁보이
▁S
▁회
▁7
▁코
ㄱㅏ
ㄷㅗ
▁19
▁남
▁ㄴㅏ
▁!
▁8
▁물
▁분
▁피
▁편
▁현
▁에
▁사용
▁국
▁출
▁치
▁못
▁정도
▁그리
▁사람
▁두
▁매
▁추
▁이후
▁공격
▁달
▁자신
ㅌㅓ
▁좋
▁9
▁따
레이
▁점
▁호
▁저
▁로
▁패
▁A
▁트
▁감
▁메
▁요
▁재
▁캐
▁M
▁통
▁교
▁등장
▁학
▁또
▁참
▁예
▁가능
▁입
▁형
▁설
ㅇㅑ
▁위하
▁속
스트
▁본
▁플
▁ㅂㅜ
▁함
▁과
▁군
▁죽
▁T
▁다른
▁C
▁대하
▁평
▁ᄆ
▁시키
▁외
▁판
▁권
▁게임
▁ㅂㅗ
▁애
▁버리
▁200
▁종
▁살
▁돌
▁용
▁..
▁토
▁아이
▁D
▁ㄴㅡㄴㄷㅏ
▁김
▁가지
▁그리고
▁B
▁사실
▁%
▁체
▁직
▁~
▁키
▁심
▁ㅅㅓ
▁잘
▁처
▁하나
▁맞
▁만들
▁그러
어지
▁변
▁승
▁운
▁못하
▁행
▁올
▁ㄱㅓ
▁ㄴㅣ
▁확
▁필
▁히
▁+
ㄹㅏ
▁디
▁베
▁뒤
▁?
▁간
▁사이
▁일본
▁팀
er
▁이름
▁높
▁12
▁모습
▁박
▁P
▁약
▁건
▁야
▁투
▁네
▁시간
▁집
▁목
지만
00
▁이상
▁날
▁ㅇㅕㅆ
▁존
▁ㅅ
▁활
▁표
스터
▁언
▁L
▁능
▁캐릭
▁양
▁한국
▁하지만
▁문제
▁루
▁각
▁ㄹㅕ
▁상대
▁테
▁캐릭터
▁F
▁왕
▁듯
▁생각
▁G
▁별
▁힘
▁병
ㄹㅓ
▁함께
▁잡
▁순
in
▁터
ㄴㄷㅔ
▁손
▁시작
▁천
▁11
대로
▁따르
어나
▁항
▁E
▁열
▁완
ㄴㅈㅣ
▁경기
▁독
▁ㅊ
▁브
▁프로
▁당시
▁막
▁들어
▁능력
▁ㄱㅔㅆ
▁블
▁먹
▁폭
▁식
▁ㅊㅓ
ㄹㅓㅁ
▁효
▁근
▁너
▁끝
▁가장
▁당하
▁K
이트
▁복
▁그렇
▁음
▁다시
▁시리
▁또한
on
▁증
▁총
▁ㄴ
▁클
▁삼
▁광
▁검
▁빠
ㅂㄴㅣ
▁페
▁태
▁다만
an
▁15
▁플레이
▁새
▁얼
▁H
▁상황
▁결국
▁상태
▁걸
▁시리즈
▁R
▁시즌
▁많이
▁카드
▁I
미지
▁악
▁누
▁N
▁채
▁모두
▁충
▁쿠
▁백
▁길
▁싸
▁넘
▁ㅇㅑ
▁세계
▁곡
▁m
▁급
▁존재
▁친
▁물론
▁금
▁전투
▁추가
▁커
▁모든
▁업
▁앞
▁엔
▁상당
or
▁그런
▁눈
▁t
▁여기
라이
▁슈
▁산
▁스킬
▁기술
▁머
▁임
▁현재
▁매우
▁라이
▁티
▁이런
▁극
▁자체
▁달리
▁취
▁실제
▁효과
▁및
▁그러나
▁#
▁무기
▁선수
▁합
▁O
▁절
▁느
▁엄
▁레이
▁레벨
▁이것
▁팬
ar
▁스타
▁민
▁이유
ㅁㅡ
▁거의
▁W
▁통하
▁마법
▁난
▁이용
▁놓
▁주인
▁창
▁벌
▁철
▁니
▁모르
▁부르
▁황
▁16
▁관련
▁허
▁30
▁줄
▁찾
▁역시
▁ㅁㅏ
▁밀
▁떨
▁인하
at
▁얻
▁환
▁미국
▁들어가
▁케
▁그래
he
거리
▁일반
▁바로
▁처음
▁18
▁첫
▁다르
▁해당
▁지역
▁13
▁북
▁작품
▁은
▁곳
▁붙
▁참고
▁청
▁골
이지
▁워
이스
▁기본
▁탈
▁특히
▁여러
▁아무
▁귀
▁격
▁ㅅㅣ
▁199
▁나가
▁이야
▁필요
▁돌아
▁인간
▁100
▁혼
▁다음
▁좀
▁부분
▁c
▁몬
ㄴㄱㅏ
▁이야기
▁14
부분
▁영화
▁잠
▁s
▁같이
▁대학
en
리스
▁ㄴㅡㄴㅈㅣ
▁사건
▁법
▁그냥
▁즉
▁팔
▁V
▁없이
▁기록
▁의하
▁뿐
▁방송
▁대부분
▁탄
▁범
▁덕
지막
리아
▁인물
▁쉽
▁주인공
▁면
▁째
▁수준
▁자기
▁비슷
▁글
▁둘
▁본인
ㅇㅛ
▁엘
▁몸
▁ㅇㅡㅁ
▁ㄴㅑ
▁몇
ㄹㅗㄱ
▁담
▁17
▁제작
▁25
▁생기
▁풀
▁싶
▁방어
▁몰
▁쪽
▁마지막
▁비하
▁헤
▁k
al
▁U
▁떨어지
▁상당히
▁내용
전히
▁암
▁일부
▁와
▁어느
▁강하
▁리그
▁진행
▁00
▁시절
▁관계
▁실제로
▁X
▁학교
▁국가
▁갈
▁대신
▁성우
▁슬
▁넣
▁이전
▁그대로
▁지나
▁대표
▁맡
▁설정
▁질
▁계속
▁밝
▁애니
▁속도
▁지금
ou
▁접
▁준
토리
▁전쟁
▁괴
es
▁올리
▁알리
▁축
▁죽이
▁보스
▁ㄹㅏㄴ
▁타이
▁규
▁활동
▁낮
ㅇㅔ
시아
▁위치
▁원래
▁러
▁울
▁몬스터
▁서울
▁제외
▁2015
▁동안
▁뛰
▁기사
▁멀
▁ㅁㅡ
▁피해
▁만나
▁감독
▁우리
▁너무
▁츠
▁기준
it
▁의미
▁평가
▁망
▁올라
▁육
버지
▁]
▁묘
▁싸우
▁배우
라지
▁언급
▁홈
▁공격력
▁이미
▁중국
▁떠
▁도시
▁50
▁직접
▁온
▁J
▁성공
▁어렵
▁그녀
▁문서
▁증가
▁메이
가지
▁맨
▁빠르
이션
▁그것
▁유저
▁홍
▁데미지
▁과거
▁엄청
▁장면
▁밝히
▁퍼
▁차이
▁머리
▁[
▁칼
▁꽤
▁자리
is
▁여자
▁논
▁던
▁&
▁유명
▁희
▁최대
▁정보
▁멤
▁유닛
▁바람
▁돈
▁지원
▁버전
▁봉
▁힘들
▁2016
▁2014
▁늘
▁ㄷㅡ
▁개요
▁멤버
re
▁설명
▁출연
▁보내
▁개발
▁씩
le
▁이루
▁뭐
랜드
▁듣
▁바뀌
▁결과
▁전체
▁까
▁깨
▁체력
▁류
▁21
▁혹
▁ㄹㅓ
▁소속
▁측
▁ㄷㅡㄴ
▁나타
▁거리
▁님
▁마음
▁d
▁방법
▁소리
▁친구
▁딜
▁파이
ic
▁뉴
▁이렇
▁역사
▁즈
▁스토리
▁스럽
▁영상
▁협
▁갖
▁선택
▁당연
▁컨
▁198
다가
▁프리
as
▁아버지
▁22
▁그런데
▁센
▁불리
▁씨
▁제대로
▁남자
▁드래
▁갑
▁자주
▁조금
▁전부
▁ㅅㅡ
▁아이템
▁이동
▁놀
▁<
▁노선
▁플레이어
▁답
▁최고
▁공식
▁압
▁탑
▁책
▁w
▁주로
▁인기
▁ㅅㅡㅂㄴㅣ
▁대전
▁슈퍼
▁여성
▁빌
▁발매
▁게다가
▁24
▁엄청나
▁보통
▁다니
▁2017
▁침
▁대사
▁나이
▁나라
▁빼
▁40
▁최종
▁걸리
▁정말
▁초반
▁2013
▁향
▁파괴
▁인터
▁송
▁빠지
▁사랑
▁쓰이
▁출신
▁승리
▁이러
ing
▁시스
▁농
▁만큼
ㅇㅓ
▁2018
▁버스
▁영향
▁색
▁모드
▁찍
▁마찬
▁마찬가지
▁기타
▁대상
▁쇼
▁방식
▁ㄷㅐ
▁성능
▁연구
▁작중
▁ㄷㅡㅅ
▁동시
이드
▁비교
▁끼
▁아예
▁성격
▁사망
▁항목
이도
▁시대
▁이때
운드
▁후반
▁오히
▁정신
⊸⊸
⊸⊸⊸
▁뜻
▁샤
▁오히려
▁우승
▁서로
▁궁
▁일단
▁아직
▁착
▁가깝
▁볼
ㅇㅓㅆ
▁형태
▁왜
▁a
ㅂㅜ
▁일어나
▁강력
▁b
▁f
▁차량
ㅁㅕㄴㅅㅓ
▁유지
▁마이
▁23
▁심지
▁앨
▁드라
▁ㅎ
▁역할
프트
▁밖
▁수록
▁느끼
▁스테
▁발생
학교
▁심지어
▁학생
▁특성
▁애니메
▁콘
▁속성
▁포함
▁링
▁끌
▁마리
▁소환
머니
▁누구
▁모양
▁노래
▁술
▁만화
▁운영
▁2012
▁월드
▁원작
▁특수
om
▁오르
▁기존
벤트
▁바꾸
▁짓
우스
▁잔
아가
▁사라지
▁어떤
▁중요
▁나타나
▁h
▁o
▁ㅎㅏ
▁자세
▁변경
▁사회
▁억
▁최초
▁르
▁애니메이션
▁좌
▁섬
▁이기
▁풍
▁액
▁유일
▁층
▁석
▁음악
▁결정
▁폐
▁흑
▁빨
▁이렇게
▁거기
el
▁덕분
▁어떻
▁과정
▁구하
▁그래서
▁푸
▁이벤트
▁움
▁회복
리어
▁시스템
▁마을
▁우주
▁모델
▁먼
버스
am
▁강화
▁장비
▁행동
▁주장
▁부대
ion
▁p
▁솔
▁싱
▁참조
▁흔
▁독일
▁국내
▁여담
▁어리
레이드
▁맞추
▁부족
▁대한
▁영어
▁명칭
▁난이도
▁라인
▁완전히
▁2019
소드
▁프랑
▁지구
▁구성
▁휴
▁작가
▁바이
나마
▁드래곤
▁스트
▁확률
▁훈
▁굉
▁이제
민국
▁아래
▁전혀
▁뜨
▁ㅂㅏ
▁발동
주의
▁사진
▁끝나
▁입장
▁활약
▁에피
▁n
▁the
▁오브
▁새롭
▁특징
▁현대
▁혹은
▁숨
▁26
▁그나마
▁가격
▁짜
▁뽑
▁따라
▁아들
▁어디
▁이거
▁정치
▁2010
▁주변
▁날리
▁콜
▁대회
▁영국
▁다이
▁들어오
▁얼굴
▁굉장
▁하이
▁에피소드
▁내리
▁28
너지
ac
▁먼저
▁자동
ol
▁맵
▁녹
▁차지
▁드러
▁할
▁TV
▁영웅
▁응
▁빛
▁드라마
▁27
▁제국
없이
▁돌아오
▁잃
▁정확
ㄲㅇㅔ
▁ㅂㅏㄲㅇㅔ
▁하루
▁히로
▁확인
▁대한민국
▁묘사
▁넘어
▁시점
▁공개
▁마스터
▁회사
▁반대
▁휘
▁얼마
▁윤
▁2011
▁시기
디오
▁표현
▁초기
▁견
▁담당
▁익
▁돌아가
▁웨
▁기능
인트
▁000
▁연기
ㅇㅣ
▁아마
레스
▁동일
▁실력
▁관리
▁폴
인물
▁ㅈㅗ
ㅊㅏ
▁계획
▁생산
▁딱
▁쏘
▁지키
▁=
▁무엇
ㅜㄴ
et
▁딸
▁맥
▁자유
▁듀
▁모으
▁판매
▁실패
▁정부
▁엔딩
▁야구
▁건물
▁등장인물
▁그렇게
▁습
▁맛
▁순간
▁사고
▁헬
▁ㅇㅏㅆㅇㅓㅆ
▁기관
▁개인
il
▁컴
ig
▁뮤
ed
▁그림
▁이미지
▁Y
▁틀
▁적용
▁교육
▁심하
▁인정
▁당연히
▁스페
▁앨범
▁고등
▁세대
▁경찰
▁떠나
▁반응
▁조건
ow
▁km
▁세이
▁60
▁올라가
▁파워
▁엑
▁챔
▁벨
▁기억
▁ㄹㅜ
▁오리
소리
▁패치
▁족
us
▁문화
▁기간
▁퀘
▁진짜
BS
▁표기
▁미치
▁발견
▁방면
▁움직
▁디자
▁생활
▁확실
▁of
▁굉장히
▁패턴
▁취급
ㅌㅔ
▁퇴
▁프랑스
▁도움
▁타입
▁땅
로스
▁ㅎㅏㄴ
▁ㅎㅏㄴㅌㅔ
▁29
▁출시
▁현실
▁무시
▁처리
▁아주
▁소개
▁롭
▁홀
▁무장
▁패배
▁데이
들이
뜨리
ㅆㅓ
▁칸
▁또는
▁킹
▁대체
▁건담
▁Z
▁헌
▁약하
▁폭발
▁지니
▁굴
▁중간
▁소설
▁프로그
▁197
▁단순
▁겨
▁구간
▁그래도
▁지속
▁결혼
▁한정
▁던지
▁훨
▁단계
▁계열
▁가족
▁대학교
아내
▁35
▁콤
▁싸움
스크
▁꾸
▁주의
▁흡
▁31
▁발사
▁랭
▁나쁘
▁약간
▁사실상
▁방향
▁v
▁조선
▁The
▁밀리
▁어머니
▁이번
▁구조
▁훨씬
▁아르
▁어떻게
▁빈
▁상승
▁경험
▁중심
ad
ㅈㅏ
▁다루
▁세트
▁쉬
▁위험
▁아군
ㄹㅈㅣ
▁블랙
▁덱
▁죄
▁노리
▁운동
▁동료
▁싫
▁특별
▁믿
▁피하
▁남기
▁활용
▁상위
▁더욱
▁분위
▁2000
▁린
▁운행
▁졸
▁범위
▁r
▁포켓
▁읽
▁욕
▁요구
▁낙
ㅡㅁ
▁80
▁쿨
으키
이크
▁숙
▁분위기
▁똑
▁쌍
▁탐
▁디자인
▁핵
▁감소
니아
▁물리
▁수비
▁탓
▁ㄹㅏㅇ
▁St
▁소모
▁불구
▁혼자
ER
▁시장
▁중앙
▁유리
▁목적
▁옆
▁지하
▁여전히
▁그룹
비스
▁뛰어나
▁얘
▁트리
▁37
▁밤
▁흐
▁500
id
▁웃
▁나중
ot
▁다양
▁염
머지
and
▁나머지
▁론
▁진출
▁내려
▁켄
▁항공
▁율
ay
▁설치
▁브라
▁묻
▁전용
▁방영
ㅅㅣ
▁기체
▁흥
▁괜
스로
▁세력
ㄹㅕ
▁프로그램
▁그거
▁전차
아오
▁부산
▁꿈
ve
▁축구
▁포인트
▁갤
▁이어지
▁즐
ch
▁일으키
ㄹㄹㅗ
리카
▁잘못
▁번역
▁미사
▁선발
▁러시아
러지
▁고려
▁느낌
▁세우
▁종족
▁포켓몬
▁넘어가
▁90
▁미션
▁시청
▁퀘스트
▁성장
▁변하
un
▁스테이지
▁붙이
▁각각
▁꼬
▁대미지
▁스피
티브
▁주요
20
▁계약
▁득
▁시도
▁크리스
▁mm
▁획
▁굳
▁참여
▁l
▁비판
▁열리
▁성적
▁고등학교
dd
▁로봇
▁타카
▁어찌
▁돕
▁턴
▁도망
▁데뷔
▁투수
ㄹㄲㅏ
▁짧
▁가리
▁전문
ㅋㅡㅁ
▁거대
▁과학
▁유니
▁절대
▁부활
▁녀
▁벗
▁70
▁나무
▁ㅇㅗ
▁척
▁애초
▁셈
▁렌
▁훈련
▁배틀
▁만드
▁지방
▁충격
▁준비
▁해결
▁논란
▁털
▁챔피
▁이해
▁g
▁가끔
▁ㅁㅏㄴㅋㅡㅁ
▁칭
▁생명
▁배경
▁비행
▁스스로
▁바라
▁터지
▁경제
▁일행
▁소녀
▁펼
ㅈㅓ
▁오래
▁전설
▁철도
▁삭
▁요소
▁전작
ro
▁엔진
▁야마
▁량
▁률
▁조직
▁부상
▁똑같
통령
▁규모
▁2009
▁징
▁정상
▁발표
▁큐
▁벌이
▁자랑
▁도중
▁움직이
▁삼성
▁이루어지
▁벌어지
▁끊
▁01
▁일정
▁학년
▁의견
▁무리
▁덤
▁스파
▁벽
▁기대
▁변화
▁충분
▁밴
▁죽음
▁스카
▁팩
▁사이트
▁직업
▁혈
▁45
▁최근
▁...
▁스타일
▁빅
▁정체
▁기동
▁옥
▁유럽
어들
▁마치
▁종류
▁예정
▁작전
▁이쪽
▁공중
▁보호
▁랜
▁300
▁대통령
▁목소리
▁제목
▁아프
▁록
▁조합
▁연속
▁품
▁전하
다니
▁근접
▁올라오
▁정작
스타
다리
▁전사
▁버프
▁별로
▁십
ir
▁력
▁장착
▁ㄷㅡㅅㅇㅣ
▁안타
▁신경
▁지도
▁요리
▁연출
▁빙
▁아키
▁32
▁세상
▁추정
▁나름
▁반면
▁다리
▁자연
▁악마
▁캠
▁소재
▁카이
▁냉
▁번호
ter
▁라운드
▁란
▁대화
▁전기
▁수도
▁타격
▁그만
▁남성
▁등급
▁국제
▁ㄴㅡ
▁196
▁탱
▁제공
▁참가
▁획득
▁다크
▁뒷
▁방어력
▁ㄱㅜ
▁멸
▁링크
▁연합
▁저지
▁판정
▁동물
▁늘어나
im
▁따로
▁후보
▁)
▁수정
▁비롯
▁정식
▁아이돌
▁의외
▁롯
▁레어
▁당신
▁교통
▁각종
▁48
▁극장
▁배치
디어
▁연결
▁케이
▁던전
▁곧
▁만약
자기
▁관심
▁위기
▁안정
▁센터
▁가르
▁개념
▁수상
▁나누
▁항상
▁사업
▁특정
▁시험
▁사례
▁레인
▁2008
▁찌
지션
▁내부
러스
▁에너지
▁이외
▁얘기
▁민주
▁분노
▁황제
▁가져
▁맹
리오
▁변신
BC
▁북한
ub
▁돌리
▁단점
▁파일
▁ㄴㅔ
▁옵
▁단어
▁종료
▁필드
▁롤
▁사격
▁cm
▁지휘
ag
▁제일
▁나이트
나라
▁36
▁힐
▁ㄹㅣ
▁크리
▁루트
▁조사
▁놈
▁발전
▁y
▁공연
▁장갑
▁따라서
▁쯤
▁더불
▁지상
▁향하
▁넓
▁물건
▁스포
너스
▁미래
▁33
▁사정
▁넘기
▁인터뷰
▁챔피언
▁한편
동안
▁클래
▁런
▁서비스
▁괜찮
▁이르
▁각성
▁엘리
▁사냥
▁선거
▁기계
▁x
▁외국
▁거치
▁점수
▁*
라인
▁Lv
▁펼치
데이트
▁특이
▁업데이트
이치
▁군사
▁기업
▁아카
▁파티
▁최소
▁ㅃ
▁별명
▁옷
믹스
▁ㅃㅜㄴ
▁e
트리
▁이탈
▁닥
▁사항
▁인구
▁살리
▁코스
▁인식
▁완전
ur
▁시티
▁05
▁시설
od
▁어쩌
▁깔
▁시전
▁일러
▁해군
야마
▁국민
▁튀
▁도로
▁세기
▁띄
os
▁고속
▁바르
어로
▁화력
▁히트
▁하늘
▁로드
▁조종
▁납
▁제한
▁02
▁위력
▁달성
▁닌
▁프레
▁제품
▁최강
▁가수
▁th
▁직전
▁개그
▁SK
▁생존
▁비밀
▁상관
▁마나
▁03
▁오프
▁쌓
ST
▁죠
▁그야
▁점프
▁삭제
▁순위
▁',
▁마시
▁드러나
▁교체
▁일러스트
▁히어로
▁싱글
▁옛
▁감정
▁위원
▁홈런
▁때리
▁EX
▁벤
▁사기
▁장소
▁보유
▁전국
▁역대
말로
▁녀석
▁학원
▁목록
▁본래
▁언제
▁목표
▁몽
▁그야말로
▁요시
ㄷㅓ
▁왼
▁부모
▁압도
▁분류
▁군대
▁뇌
▁명령
▁이끌
▁출전
▁가드
▁깊
▁주제
▁꽃
보이
▁2007
▁펜
▁느리
▁ㅇㅡㄴㄷㅔ
▁독립
▁잇
▁붕
모토
▁픽
▁마사
▁잉
▁포지션
▁누르
um
▁무슨
▁예전
▁연재
▁갑자기
▁공간
▁위키
▁진화
igh
▁사거리
▁34
▁데스
▁워낙
▁속하
▁어둠
ff
▁아스
라스
▁표시
▁라이트
▁HP
▁작곡
▁전개
▁탈출
▁폰
ut
ent
▁작업
▁지내
▁병원
▁고양
▁떡
▁중반
▁태어나
50
▁크기
▁병력
▁09
▁예상
아들이
▁베이
▁레드
▁가문
▁곤
▁04
▁컬
▁소련
▁수치
▁ㄱㅗㄴ
▁톤
▁포기
▁의식
▁원인
▁건설
▁꺼
ak
▁낫
▁텐
▁밑
▁노트
▁겸
▁보상
트라
▁현상
ㄴㅑ
▁병사
▁살인
▁겪
ver
AR
▁멘
▁노력
▁높이
▁정하
▁거두
▁07
▁무대
▁키우
▁살아
▁08
▁포스
시마
▁장점
▁행위
▁마르
▁전력
▁졸업
▁강제
▁갖추
▁클리어
▁06
▁윈
▁카운
▁미사일
▁웹
학생
▁도쿄
▁찬
ec
▁오른
▁전자
▁동생
▁아파
▁무려
▁칠
▁롯데
▁비중
▁효율
▁부정
젝트
▁경쟁
▁194
▁ㅋ
▁임무
▁차원
▁확정
▁Q
▁인천
▁숨기
▁뿌
▁크로
▁고정
▁도입
▁쥬
▁발음
▁새로
▁티어
▁드리
▁이어
▁짐
▁이하
▁2006
무라
▁가면
▁해외
▁전반
▁필살
▁화면
▁관하
▁근처
AN
▁부하
▁주문
▁인터넷
▁완성
▁잠시
▁음식
▁촬
▁오리지
▁집중
▁신체
▁덜
▁무한
▁꼭
▁보병
▁파트
▁공주
▁래
▁인사
▁셋
▁지지
▁정확히
▁평균
▁하드
▁결승
ㄷㅡㄴ
▁인도
▁38
▁라이브
▁마법사
▁가사
▁한글
▁아무리
▁분명
▁평범
▁션
▁잡히
▁타임
▁근데
▁쫓
▁>
▁밸
▁붉
▁빌리
▁쓸
▁택
▁여행
▁재미
▁유사
▁행정
▁판단
▁버티
▁환경
▁굳이
▁옮
▁주민
▁kg
▁수행
▁나서
루스
▁종종
▁종교
▁촬영
▁캡
▁꾼
페이지
▁몇몇
이어
란드
▁폭탄
▁비용
▁기반
▁줄이
아하
▁발언
▁완벽
▁반드
▁홈페이지
▁대장
▁반드시
▁랭크
▁선생
▁단체
▁로마
▁광고
▁패러
▁제거
▁실험
▁플래
▁받아들이
▁즐기
조건
▁다수
▁봉인
▁직후
래프트
▁성향
르트
▁심각
▁뻔
▁아내
▁공포
▁운용
▁좋아하
▁페이
▁밴드
▁버그
▁옵션
▁미니
▁in
▁빨리
▁FC
▁오버
▁LG
▁치료
▁킬
▁자원
▁아파트
▁잭
▁대구
▁점점
▁기다리
▁조작
▁무조건
▁암살
▁전략
러리
무리
▁코드
▁도전
▁단지
▁함정
▁앞서
▁지배
▁디스
▁구분
▁컵
▁특유
▁샷
▁다소
▁대중
▁옮기
▁바다
▁대결
▁본격
▁통합
로그
▁한계
▁끝내
▁골드
▁개조
그레이드
▁업그레이드
▁기회
▁소년
▁왕국
▁다행
▁모이
▁월드컵
▁연장
▁접근
▁흘
▁사쿠
▁따지
▁저항
▁늦
▁you
▁외모
em
▁밥
▁금지
▁시나
▁추측
▁모자
운데
▁의사
▁군단
스케
▁쿄
▁빵
▁앙
▁수많
▁최후
▁오늘
▁템
▁오리지널
▁정리
▁확장
ON
▁열차
▁책임
▁복수
아보
▁범죄
▁복귀
▁장치
▁타이틀
▁다운
▁치명
▁일본어
▁MA
▁디지
▁구매
▁소유
라이더
▁스코
▁2005
▁ㄴㅡㄴㄱㅏ
▁멋
▁부탁
▁언어
▁웬
▁줄어들
▁멜
▁형제
▁부여
▁에이
▁광역
▁교수
▁젊
▁브레이
▁고대
ight
▁대기
▁득점
▁vs
▁to
버리
요일
ation
▁상징
▁우선
▁55
▁삼국
▁평소
▁투입
ㅅㅜ
▁터미
▁혁
▁75
▁불가
▁인상
드리
▁II
▁가운데
▁사령
▁99
▁흉
▁스포츠
▁장르
▁대단
▁달러
아지
▁간단
▁형식
▁추천
▁영혼
▁ㅇㅡㄹㅈㅣ
▁유우
▁2004
▁고르
▁해석
▁이곳
▁ㅈㅛ
▁앤
퓨터
ce
▁숫
▁정의
▁대로
▁가치
▁자동차
▁대형
▁기념
▁Ch
▁사무
▁이닝
▁희생
IN
▁걱
리트
▁충분히
▁리더
▁생물
▁걱정
▁주력
▁일종
▁카오
▁입히
▁아쉽
▁얼마나
▁사상
▁탈락
▁와중
▁카즈
ap
▁마크
▁망하
▁뚫
▁KBS
▁극장판
▁스크
▁불명
▁이탈리아
비아
런스
▁42
▁마력
▁컴퓨터
▁행성
▁마무리
▁사태
▁비싸
▁이치
▁인류
▁채우
▁도착
▁폼
▁네이
▁전화
000
▁필살기
▁재료
▁취하
▁공화
▁39
▁1000
▁섞
▁통신
▁PC
▁지정
▁MBC
▁육군
▁회피
▁잊
▁서버
▁무사
▁닉
▁기지
▁프로젝트
▁그저
ul
▁셀
▁전통
▁엠
▁액션
▁공략
▁거부
일러
▁2002
▁가정
▁행사
▁먹이
▁쥐
▁끄
▁로스
▁도망치
▁서술
▁올림
▁비트
▁구단
▁빼앗
▁한국어
▁시민
▁단순히
▁장난
▁자료
▁41
니티
▁대비
▁보너스
▁_
▁목숨
▁보조
▁넥
▁더블
▁닮
▁살아남
▁값
▁의도
▁드립
동생
▁뿌리
▁데이터
▁집단
▁불과
▁박사
▁전원
▁아웃
▁덩
▁연주
▁합류
▁구역
▁제로
레이션
나가
▁괴물
▁의지
▁료
▁컨셉
▁전술
▁검사
▁눈물
▁합치
▁저지르
▁카메
▁라디오
▁흡수
▁딱히
▁실수
▁빔
ri
▁윌
▁벗어나
▁제도
▁겹
▁장군
▁숫자
▁적절
▁클럽
▁후속
▁화염
▁오토
▁고양이
▁유키
▁상대방
▁맺
▁조정
▁44
▁정규
▁함대
▁마츠
▁텔
▁대응
▁드러내
▁타자
▁위협
▁모티브
▁편하
▁수리
▁장기
▁연습
▁드라이
▁듀얼
▁독자
▁시내
크래프트
▁케이스
▁감안
려가
▁저격
자리
▁앉
▁릴
▁꼴
려오
▁날개
▁보컬
▁약점
▁테마
▁격투
▁기어
▁무섭
▁반복
▁43
▁몹
▁터미널
니스
모리
▁떼
▁지나가
▁에이스
나이
RA
▁풀리
▁테크
▁개월
nd
▁들이
▁꾸준
▁상세
▁닥터
▁들리
▁대놓
▁분리
▁설계
▁바닥
▁공항
▁이적
▁시나리오
▁종합
▁회전
▁BG
▁확실히
▁보다
▁공동
▁오랜
▁이사
▁2003
타임
▁서브
all
▁코어
▁댄
▁에어
▁그때
▁친하
▁패러디
▁숲
▁투표
▁미리
▁성인
▁페르
▁ㄱㅓㄴ
▁지나치
AL
▁필수
▁세계관
▁ST
ia
▁유도
▁51
▁지명
▁체제
▁클래스
▁가하
▁컷
▁스탠
▁병기
▁요청
▁메탈
ack
st
▁계기
▁훌
▁인지
▁소식
▁지옥
tt
로드
▁정책
▁착용
▁날아가
▁펀
▁광주
로우
▁쓰러지
▁오오
uby
▁채널
연히
▁꼽
▁전환
▁스페인
▁150
▁쳐
▁지적
▁195
▁당장
오르
시스
▁초등
▁미스
▁스마
▁인원
▁파이터
▁아머
▁부수
oc
▁긴
▁47
▁뉴스
▁소울
▁촉
▁편성
▁부리
▁온라인
▁산업
▁방패
▁선언
▁승부
▁진정
▁SP
▁가슴
▁관통
▁베이스
▁중학교
▁ruby
▁궤
▁회장
▁나카
▁방해
▁VS
▁한자
▁배신
▁크로스
▁보급
▁모험
▁찾아오
▁공사
▁등등
▁PS
▁무력
▁원거리
▁소비
▁차례
▁46
어내
art
▁핑
▁리어
▁원하
▁은퇴
래도
▁아무래도
▁등록
▁울트라
▁에스
▁올림픽
▁가면라이더
▁습격
▁그리스
▁관광
▁안습
▁st
▁64
▁언론
▁원정
▁특기
▁셰
▁상처
▁잠깐
올리
▁걷
ra
▁드물
▁연계
▁묶
▁카페
▁저주
▁흔히
▁안전
▁판타
▁적극
▁혐
PC
울리
▁놀라
▁통과
▁후지
▁버튼
▁인형
▁엉
▁토스
▁실시
▁공부
▁여름
▁마왕
▁무게
▁후반부
▁i
▁구축
▁가스
▁MP
▁승강
라리
▁동맹
▁유래
▁멸망
▁의심
▁데리
▁위주
▁아사
▁선정
▁미군
▁명중
▁국회
▁or
▁블루
유키
▁and
▁혜
▁마침
▁카운터
▁No
▁실점
▁핸
▁게이
▁오프닝
▁거짓
▁가볍
ㄱㅓ
▁초대
▁흐르
▁교회
▁ㅁ
▁공군
▁역전
▁겨우
▁코치
▁뱀
▁In
▁엄마
▁퓨
AT
▁진입
▁달라지
▁스펙
▁아름
▁게시
▁레이저
▁개선
▁락
▁정당
시브
레인
▁코스트
▁밸런스
op
▁체인
▁사장
▁태도
▁수호
▁민족
▁영입
▁최악
▁투자
▁리스
▁자라
▁왼쪽
▁희망
▁그레이
▁태양
▁코믹스
▁373
▁안드
▁계급
ㄹㅅㅜ
▁코너
하라
ie
▁400
▁질문
▁시체
▁눈치
▁표정
▁미야
▁설립
▁어울리
▁가까
▁멀티
▁고통
▁챙
▁텍
▁은근
▁모션
▁조각
▁미나
르크
est
▁dd
▁스위
▁쓰러
▁깎
▁삽
▁하트
▁갓
▁수단
▁탑재
▁솔로
▁황금
▁퍼지
▁분야
▁룰
▁하위
▁킥
트롤
▁대원
▁스피드
▁2001
▁CD
▁사단
OR
▁비디오
▁따위
IA
▁남편
▁소드
무원
▁매일
▁군인
▁방문
▁끼리
▁막장
▁프라
▁경력
▁셔
▁제압
▁귀엽
▁의문
ill
▁대놓고
▁콩
▁진영
▁용병
다수
▁애매
▁주연
머리
▁가져오
▁견제
▁행적
▁기자
▁기점
붙이
▁확보
▁193
▁튜
▁멈
▁수원
▁엑스
▁선보이
▁아름답
▁중단
▁대답
▁비난
▁자식
▁본선
▁아라
▁좁
OS
▁차별
▁구입
▁개봉
▁청소
dddd
▁오스
▁dddddd
▁고급
▁사카
▁지식
▁자살
▁온갖
▁탯
▁사과
세이
▁겹치
▁꺼내
▁노동
▁ㅋㅜ
워하
▁해제
▁돌파
▁롱
▁52
▁유용
▁1990
ik
▁패스
▁라이벌
▁어린
▁ㅇㅡㄹㄲㅏ
▁브랜드
▁살해
▁로켓
▁낳
▁메가
▁기획
▁트랙
▁외치
▁아시아
▁Re
▁개편
▁ㅇㅛ
PS
▁장전
▁닌자
▁융
ate
▁%,
▁선물
▁그라
▁공통
▁예선
다르
▁진실
▁조준
▁렉
▁편집
▁체계
▁단위
▁컨트롤
▁은행
▁스파이
▁내려가
▁자이
워드
▁늘리
▁멀리
▁장애
터리
▁아야
▁이스
다지
▁어차
▁미드
▁시청자
▁전장
▁발휘
달리
▁65
▁어차피
▁붕괴
▁용도
즈키
▁멈추
▁신화
▁계산
▁경계
th
▁Sh
▁룡
▁오른쪽
사카
▁랩
▁경유
▁틈
▁인생
IC
▁연예
▁부담
▁납치
▁건너
▁스트라이
▁순수
▁행복
▁외부
▁평화
▁대다수
▁널
▁창작
▁실질
▁의원
▁펠
▁횟
▁떡밥
▁궁극
▁가르치
▁가이
▁소프트
ttp
▁정령
▁우수
▁현장
▁도서
▁갱
▁http
▁56
▁여왕
▁내놓
▁젤
▁귀족
▁스케
▁최대한
▁게이지
▁그다지
▁점령
▁포르
▁탄생
▁측면
▁챙기
▁영역
▁작성
▁주목
▁탑승
▁헤드
▁커뮤
▁갤러리
바이
▁니시
ED
▁체육
▁승강장
카와
▁규정
▁찌르
▁여부
리티
▁순서
▁제안
▁바탕
▁러브
로이드
▁갈리
▁경향
▁생성
▁정류
▁꾸준히
가락
▁얼음
▁Sp
▁업체
어리
▁도구
▁치르
▁몰리
▁상자
▁넷
▁요원
▁모리
▁카메라
▁박스
두르
▁판타지
▁개최
▁살짝
▁유희
▁완료
▁릭
▁54
▁오해
▁120
▁횟수
▁2020
▁운전
▁트위
▁공화국
▁부인
▁타이밍
▁쿨타임
▁돌격
▁막히
▁동네
AS
▁테러
▁이성
▁고유
마스
▁49
▁저런
▁훌륭
▁선배
▁짜리
▁뮤직
▁마녀
▁제시
▁랍
▁지하철
▁53
▁정말로
▁장수
▁통일
▁반영
▁블레이드
▁전대
▁레전
▁비고
▁나뉘
아먹
▁뱅
▁디아
▁생일
▁보정
▁춤
▁SBS
▁약속
▁카나
▁자르
▁삶
▁문명
▁습득
ess
ab
▁You
EN
▁갑옷
▁회의
▁기분
▁한화
▁퀄
▁파이어
▁문자
▁동방
▁왕자
▁일부러
▁편의
▁교사
▁공원
▁집안
▁미츠
▁아오
▁자격
▁페이지
▁수요
▁신세
▁폭풍
▁짝
▁ㄹㅔ
▁공장
▁윙
▁Bl
스티
심히
▁군주
▁85
▁스프
▁대우
▁라스
▁허용
▁마도
▁예술
▁캔
▁커버
▁플라
▁응원
피스
▁걸치
▁지점
▁베르
▁없애
▁괴롭
▁업무
▁유비
▁키리
▁천사
▁상품
▁토모
▁알렉
▁마인
▁여신
▁한때
▁노멀
▁흔하
▁써
▁대공
▁비록
▁짱
▁낚
튜브
▁홍보
▁유튜브
▁출발
▁이론
▁공기
▁적당
▁커맨
ct
▁파일럿
▁직원
▁스페셜
▁쏟
▁끌어
아리
▁단독
▁비율
eat
▁소수
▁기기
▁다가
▁후쿠
▁보수
▁재생
▁지우
▁레오
▁소문
▁그래픽
ard
▁협력
▁가로
ㅇㅏ
▁거주
▁충돌
▁보도
▁설득
텐츠
▁겨울
▁뒤집
ㅍㅣ
▁거절
▁혼란
▁환승
▁회수
▁미소
▁여동생
이터
▁대륙
▁문제점
▁댓
▁57
▁트레이
▁무적
▁전함
▁파악
up
▁그만큼
▁출처
▁근무
▁따오
▁수사
▁이슬
▁AT
▁트위터
▁취소
▁66
▁쓰레
▁영원
▁충전
▁격파
▁봄
▁MS
▁용어
▁맡기
▁팝
▁메이저
▁패시브
▁DJ
▁본명
▁ㄷㅡㄴㅈㅣ
▁흘리
▁아리
▁사이즈
▁가입
▁랜덤
LC
▁반란
▁1999
트로
▁NPC
▁우려
▁AC
▁묵
▁실행
▁건강
▁전형
▁커뮤니티
ine
▁운명
▁언니
▁나루
▁사쿠라
▁사운드
티컬
EC
▁오류
▁핵심
▁사토
▁분석
▁가까이
▁수입
▁박살
ant
▁장교
니어
ist
▁수학
▁밟
▁별개
▁연상
아버지
▁내려오
가와
▁76
▁주년
▁타케
▁웨이
히로
▁ㅇㅜ
▁예외
▁형성
▁화살
▁전투력
▁머신
▁샌
▁아침
▁95
▁아메
자키
▁섹
OL
▁거래
▁증거
▁카미
▁BGM
▁AP
▁제조
▁열심히
▁쓰러뜨리
▁초월
▁바보
▁내내
▁섭
▁심장
▁서포
▁상하
▁CP
▁연애
▁연방
모로
▁카르
▁58
▁암흑
▁상향
▁이마
▁개통
▁신뢰
▁만족
▁레전드
▁전투기
▁강조
▁헌터
▁스코어
사키
▁처하
▁ㄲ
▁권력
▁제법
▁고기
▁본부
▁피아
▁변형
디션
▁붙잡
▁피해자
▁늑
▁화이트
▁위원회
▁77
▁푸르
▁정권
▁여러모로
나다
▁복장
피아
▁고교
▁TH
파이어
▁연사
▁re
▁아나
▁오로
ue
▁다행히
타인
▁재능
▁기절
▁매치
▁마스
▁72
▁주먹
▁찾아가
▁뛰어
▁옛날
▁주도
▁페이스
▁쿠로
▁고민
PG
더스
▁말리
▁불꽃
ip
▁키스
▁파이널
▁1998
타로
▁민간
▁찰
▁com
도우
▁62
▁트라
▁우스
▁댄스
AM
▁별도
ind
▁대만
▁네이버
▁마술
▁엘프
▁98
▁실드
▁88
▁제기
▁발매되
▁전공
▁무너지
▁부진
▁Al
▁삼국지
ore
▁게이트
▁덴
▁총기
▁절반
▁함선
▁옹
겨나
▁고생
▁심리
▁가져가
츠키
▁크루
▁채용
돼지
▁스티
one
▁사전
오리
아나
▁지급
ang
▁검색
▁프레임
▁Th
▁적히
▁아프리카
고기
▁덮
▁간부
▁레인저
▁후속작
▁낭
▁해방
▁추적
▁라이더
▁화장
▁폭주
▁표준
▁선호
▁동영
▁웬만
▁입력
▁재판
▁불만
▁블러
▁고전
▁한국인
▁요즘
▁당황
IT
▁합체
▁학살
▁계승
▁히데
▁경기도
▁근거
▁조조
▁동원
▁'.
▁고치
▁쇠
▁크리티컬
세우
▁800
▁아가
▁작용
▁마이크
▁균
▁돌아다니
▁추락
▁화려
▁동영상
▁커플
▁어택
▁진지
스트라
▁SS
ell
▁학과
▁카오스
▁랜드
▁띄우
▁믹
식간
▁명예
▁아트
▁지형
▁....
어스
▁틱
▁테이
▁순식간
▁대대
▁오빠
▁통제
▁요새
▁곰
▁일상
▁외국인
▁늑대
▁누리
▁600
▁제하
▁교환
▁현지
▁쓰레기
▁전철
의원
▁카라
▁권총
▁59
바로
▁최상
▁해병
▁메카
▁핀
▁환상
▁양산
▁시야
▁해설
▁젠
▁지르
▁부품
▁반지
▁닿
▁미디어
▁클라
어버리
둥이
▁사마
들리
if
▁드디어
▁토리
▁구현
▁요괴
▁제작진
▁덧
▁혁명
▁김성
▁타워
▁수술
창기
▁사자
▁!!
▁ㄱㅜㄴ
▁지대
▁증명
▁시드
▁불편
돌리
▁정류장
▁시각
▁트레
▁전선
▁지시
▁소멸
▁퀸
▁정지
▁소총
▁제자
▁수송
▁1997
▁리메
▁호환
▁탱크
FA
▁매체
▁파라
▁처치
▁유형
▁대체로
ort
▁61
▁영업
▁레스
▁캐스
▁쌓이
▁아무런
▁근육
▁갈등
▁이승
▁중계
ㄱㅣ
▁연대
▁소닉
▁스토
▁매력
▁폐지
▁마구
▁리버
▁전적
퍼스
▁마련
▁전직
▁초창기
▁쾌
▁네임
▁테스트
▁겉
이즈
▁즉시
▁클로
▁스카이
▁령
▁복잡
▁어지
▁불안
▁배트
ive
▁깃
▁반격
▁수업
큐어
▁191
▁프린
▁테일
도로
▁경비
▁알아
▁경영
▁몰래
▁작사
▁폭격
ld
ok
▁공작
▁출현
▁묘지
▁두산
▁상상
▁해금
▁신장
저히
▁동기
▁마루
▁굽
▁스마트
▁커맨드
▁공유
▁출판
▁둘러
▁볼트
VE
▁텔레
어도
▁극단
▁신고
▁스톰
▁작동
▁지켜
▁",
ers
▁탁
▁조절
▁콜라
▁룬
▁잠수
▁KO
▁배차
▁리메이크
▁맞서
▁인수
▁폭력
▁아티
▁1980
▁연관
▁참전
▁브리
▁장관
지컬
▁압박
▁구도
▁요정
▁국적
▁휘두르
▁연도
▁태우
▁동작
▁악역
▁조지
▁마주
▁그림자
▁알파
▁가득
▁농구
▁장식
ove
ㅌㅇㅣ
▁ㄱㅏㅌㅇㅣ
▁조용
▁반하
▁오픈
▁An
▁렙
▁전방
▁이리
▁묻히
▁NC
▁한방
▁공산
▁신분
▁언제나
▁뉴욕
▁널리
▁외계
▁사령관
ain
▁환자
▁등판
▁출생
▁프리큐어
▁평타
▁왠
일리
▁어깨
▁지켜보
▁서양
▁브라질
▁흥행
▁찾아보
▁엮
▁똑같이
▁74
▁출장
▁물질
지마
▁절망
▁아크
▁나타내
▁모바
조리
▁분기
▁돌진
▁시행
드라
▁간격
▁익숙
▁스타크래프트
오카
▁Se
▁은근히
▁간혹
▁게시판
▁착각
▁사양
▁63
▁적어도
▁노출
▁노예
▁글자
▁신청
▁남부
▁미카
▁유령
▁팅
▁프리미
▁코우
광역
▁내주
서트
▁겐
웨이
▁중대
ong
▁신문
▁96
▁경험치
MA
▁어쨌
▁입학
▁사이드
▁범인
▁슈트
▁1996
▁주위
▁종점
▁자이언
ㅂㅅㅣ
▁강철
▁고향
▁유희왕
ㄹㅏㅇ
▁되찾
▁브레이크
▁DLC
▁메모리
▁저그
▁무난
▁으
▁탄약
▁71
▁68
전자
▁an
▁추진
▁훔
ith
▁유행
▁전시
▁써먹
▁MAX
▁스톤
▁보장
▁주어지
▁AK
▁구출
▁대량
▁챠
▁KT
▁97
▁보물
▁이시
보내
▁딜러
▁썰
▁부위
▁출력
▁전역
▁이즈
▁아무것
▁스킨
▁통상
▁세월
광역시
▁틀리
웨어
ast
▁문장
▁주소
EM
▁ㅇㅓㅆㅇㅓㅆ
▁감사
성기
▁흠
▁감염
▁당선
▁창조
▁객
▁시즈
▁해체
▁도서관
펙트
▁제이
▁매직
▁핸드
end
▁공학
▁북미
▁대략
▁멋지
▁맞이
▁댓글
▁하야
ㄷㅡㄴㄱㅏ
▁끼치
▁대립
og
▁호평
▁차라리
▁기독
▁만든
▁넘치
▁73
▁베트
▁부문
▁US
▁은하
▁하필
▁상당수
▁기습
▁중화
▁겁
▁샘
▁스튜
▁플레
▁1995
ew
레이터
톨릭
▁융합
▁제주
위대
▁ㄹㅣㅇ
▁종이
▁실리
▁리얼
▁리치
▁듯이
▁인증
▁김정
▁무료
▁멕
▁빗
라이언
▁돼지
▁라이프
▁모바일
▁서부
ㄷㅓㄴㄱㅏ
▁거짓말
▁신성
요시
▁도망가
▁용사
▁번개
▁타마
▁대충
▁회원
▁결말
▁둥
▁ㅈㅏㄶ
▁앱
▁유이
▁이슬람
▁67
▁멀쩡
▁빡
▁녹음
▁입수
▁외교
▁갤럭
▁이자
▁추격
▁고백
▁둔
▁엔터
▁꺾
▁점차
▁퀄리티
▁음성
▁오카
▁앵
▁육체
려움
▁야스
▁ff
▁세이버
▁편지
▁달하
▁결론
▁블로그
▁타점
▁관객
▁수련
미야
▁기원
▁He
▁;
▁메시
▁78
▁신인
▁ㄷㅏㄴ
▁특화
▁81
▁훔치
▁향상
▁이래
▁요코
▁콘서트
▁먹히
▁츄
▁죄다
▁가톨릭
av
▁예비
구치
▁가속
▁THE
▁루시
▁긍
▁단일
▁정복
▁공급
▁유로
▁카타
▁음반
듀서
디아
▁프로듀서
▁캐스팅
▁맘
▁협회
▁동화
▁아기
▁기독교
▁JR
▁조치
▁너무나
▁ㄲㅔ
▁헨
버트
▁놓치
▁192
▁마리아
▁신기
▁위장
▁슛
▁가게
▁들어서
▁아우
▁기병
▁그곳
리그
▁갤럭시
PM
▁훗
▁무효
▁180
▁91
레나
▁가상
▁펀치
▁프라이
▁전달
▁소화
▁현역
▁바라보
▁}
▁웹툰
ly
▁게스트
▁반발
▁블리
▁깨지
▁메인
▁피부
▁국회의원
▁마키
▁과목
▁가량
▁뭉
▁주전
▁세이브
▁오가
▁HD
▁일원
▁고용
▁썩
▁쟈
러나
▁꼬리
쟁이
▁오후
▁횡
▁리스트
▁마리오
▁입구
▁국군
▁문학
가시
▁신규
▁태그
se
나무
▁바리
OT
▁기사단
▁울산
보드
▁메타
▁SD
▁수집
▁팔리
▁임시
▁250
▁진심
▁홍콩
▁짤
▁뜯
▁섀
▁헤이
▁털리
▁베스트
▁조심
▁후기
▁1994
▁내구
▁청년
▁내장
▁연구소
IS
▁심판
▁전면
▁이득
란색
AC
▁84
▁신라
▁파리
▁차리
BO
▁길드
▁제어
▁잡지
▁상점
▁지능
아웃
▁킨
▁대개
▁수영
▁j
▁고문
▁쿼
▁켈
▁립
▁ㄹㅏㄹ
▁익히
▁부부
▁작화
▁파트너
▁카스
▁MV
▁인공
▁뼈
ㄷㅓㄴ
▁괴롭히
티나
▁침공
▁섞이
잡이
▁육성
▁슬롯
▁구멍
구리
▁기종
▁의무
▁디지몬
▁아일
▁헤비
▁경상
▁톱
▁시마
▁불러
▁자매
▁Le
▁Ar
▁쿠키
▁타이거
▁SN
▁아끼
▁여론
▁강의
코토
▁어른
▁노부
▁연타
▁그치
▁손가락
▁영토
▁망치
▁De
FC
▁본작
▁원수
▁외전
▁어린이
▁한번
▁여지
릭스
▁예능
▁지휘관
▁연인
▁아시
▁MC
크스
▁인근
▁69
▁사우
브리
▁명중률
▁정면
▁일반인
▁에드
▁82
▁한마
어나오
▁방사
▁190
▁인지도
▁터키
▁ㅈㅏㄶㅇㅏ
▁파견
호사
▁최소한
▁몰아
▁감시
▁특집
▁소형
▁성과
끄럽
▁대항
▁시내버스
▁86
▁회차
▁안경
▁오랫
▁결승전
▁가시
▁터치
▁식사
▁아바
▁클리
▁포탑
▁여유
▁교전
▁왕조
▁고지
▁기초
▁트윈
▁사도
▁규칙
ry
▁PD
ES
▁대폭
▁아니면
▁어쨌든
▁실버
▁어둡
가미
▁더더
▁한동안
▁강남
▁요금
▁어지간
▁국어
▁허나
▁험
▁합성
▁is
▁칭하
▁반사
▁잦
▁해적
▁왈
▁컬러
▁연락
▁의상
▁림
▁더더욱
▁스미
▁AI
▁스페이스
▁{
▁차단
▁매니
▁동부
▁레이스
▁냄
우드
▁전성기
▁프로필
▁바치
▁괴수
▁첨
지로
▁버스터
▁경기장
▁주포
▁분량
▁재미있
▁입단
▁렛
▁국방
▁절대로
▁휴대
▁좌우
▁협박
▁의료
▁치명타
▁한참
▁럭
▁핫
▁아빠
▁고수
▁로즈
▁움직임
▁떠올리
▁for
▁천재
▁튀어나오
▁안티
▁예고
▁굴리
오프
▁민주당
▁부서
▁다스
▁블록
▁캐논
▁GS
▁허리
▁비행기
▁체포
▁다섯
▁식물
▁히메
▁영문
▁웅
노스
▁카츠
▁인정받
ity
▁누나
▁''
▁로우
▁주말
▁농담
▁감옥
▁구체
▁일자
먼트
▁수십
▁대가
▁트랜
▁챕
밀리
카드
▁비아
▁쉐
▁꼽히
▁아즈
▁FI
▁데모
▁수수
▁체크
▁깡
▁뷰
▁처벌
▁일제
▁도달
▁갈수
▁한마디
▁92
▁취미
▁커지
▁불법
시로
▁신호
▁싱크
▁레이드
▁드레
▁임명
▁목격
▁합격
▁갈수록
▁소지
▁챕터
▁치우
▁귀신
▁해리
▁멍
바라
▁오사카
▁마비
▁110
▁크라
▁씌
▁모자라
ㄴㄷ
▁멘탈
▁양쪽
▁김영
▁안내
▁이지
▁AR
▁자치
▁be
▁재현
▁그동안
▁구속
▁떠오르
▁트레이드
▁전신
▁컨텐츠
▁뚜
고속
▁적대
▁뺏
▁봇
▁소원
▁안드로이드
닉스
▁상성
남도
프레
▁취향
▁복무
▁오랫동안
▁캐나다
▁할아버지
▁모모
▁상업
▁훗날
▁놀랍
▁94
▁개체
▁의뢰
▁뜬
▁구사
▁기아
▁접하
▁79
▁홀로
▁혀
▁까다
▁대지
▁가리키
▁촌
▁글로
▁춘
▁일격
▁개량
페인
▁씹
▁캠퍼스
▁예시
▁깨닫
▁나아가
▁북부
▁별다르
▁다이아
▁상급
▁지도자
▁이식
▁퀴
▁스턴
▁93
▁회상
▁떨어
▁투어
▁디지털
▁전후
▁IC
▁바퀴
▁원본
▁결코
▁수용
▁클래식
디언
▁83
▁명성
▁삼진
▁SC
▁데드
▁포트
OM
▁랭킹
ㅇㅗ
라드
▁딩
▁모조리
▁공지
▁플로
▁켜
시코
▁미묘
ass
▁베트남
▁예쁘
▁알아보
▁귀찮
▁FA
▁박정
▁무겁
▁조성
▁축제
▁마린
▁바위
▁어스
▁700
▁경고
▁도발
▁일시
▁까다롭
▁일기
▁갇
▁편입
▁노인
다이
▁각자
▁정비
▁토르
▁따라가
▁외형
▁수익
▁빚
스탄
▁ffff
▁팬덤
▁접속
▁구원
▁승격
her
▁갇히
▁영향력
▁89
▁파츠
▁트로
▁유니폼
려주
▁GB
▁긍정
▁꽂
▁노벨
데스
▁룸
age
▁커스
▁내성
▁아케
▁어드
구려
▁청소년
▁동인
▁형사
▁유통
▁OST
덜란드
▁네덜란드
▁스승
▁방지
▁유대
▁시계
▁건축
▁연료
▁곧바로
▁개성
▁무덤
▁스틸
▁바이러스
임스
▁메뉴
▁리듬
ide
▁무라
ID
▁ffffff
▁87
▁하우스
▁거인
▁성별
▁펫
▁하얗
▁니코
▁전멸
▁보안
치기
▁레이더
▁곁
▁빼앗기
▁대인
▁햄
▁CC
▁환영
▁이명
UN
▁빛나
▁이터
▁집어
메달
▁투구
▁자국
▁GT
▁깜
▁정찰
▁단장
VA
▁사정거리
▁리아
ark
▁이내
▁이영
▁주식
▁헛
▁부작
▁DS
▁개방
▁어떠
▁패널
▁딘
▁보석
▁Tr
▁로고
▁코미
▁오타
▁드라이브
▁나치
▁저장
▁그럼
▁이날
▁메르
▁톰
▁자세히
▁윌리
▁쵸
▁김태
▁KIA
▁타인
세스
▁논리
▁연금
▁소중
▁호주
▁블러드
▁원소
▁식당
▁빌드
▁생략
▁곽
▁스키
▁와이
▁자금
▁놀이
▁계통
▁오스트
▁마침내
▁과연
▁학부
▁칩
▁인격
ep
▁플레이오프
▁기르
▁주역
ax
나미
▁플랫
▁WW
▁제임스
▁맥스
▁우라
▁사이버
▁스트라이크
스키
▁똥
▁어마
▁다름
▁의존
▁우연히
▁골든
▁마이클
▁탄창
▁계단
▁극복
▁인연
▁도우
▁미술
▁전진
▁사라
▁예측
▁개정
▁사신
▁전문가
▁악당
▁호텔
▁테츠
ire
▁On
▁트럭
▁아일랜드
▁이브
▁판매량
북도
▁캠페인
▁타로
▁그러니
▁차트
▁1992
▁on
▁더럽
▁무릎
▁준수
▁연예인
▁좌석
▁살아가
ood
▁사형
▁보관
▁차기
▁충성
▁제갈
▁모토
아다니
▁사제
ge
▁조언
▁캡틴
▁독특
▁소위
▁기적
▁무방
▁화제
▁탱커
▁저작
▁혈액
▁실전
▁대처
▁유치
▁록맨
▁접촉
▁구경
▁CPU
▁잘리
▁용기
ust
▁내지
ect
▁결성
▁고스트
ob
ock
▁단편
▁램
ㄱㅜ
▁특전
▁학자
▁조연
▁포스트
▁네오
일드
가스
▁스마트폰
▁피스
▁피격
덩이
▁숭
▁강원
▁박히
▁하루카
▁길이
▁시선
AD
▁흐름
▁드럼
▁화학
▁제작자
▁인조
▁삐
▁몰락
▁커피
▁1993
▁아키라
▁커리어
▁하차
고리
▁생명력
▁왠지
▁덧붙이
▁호감
▁호위
▁130
▁툴
자드
▁신설
▁아이스
▁저렴
▁슈팅
▁발달
▁it
▁후배
▁람
▁불타
멘트
▁오크
다랗
▁묘하
▁본체
▁타락
▁안타깝
▁델
▁파크
▁시달리
▁스텔
▁하락
스턴
▁원주
▁카와
▁일람
▁내세우
mer
워크
▁Be
▁가짜
▁냄새
▁자전
▁익스
▁해상
▁결전
▁아마도
▁우위
▁IS
▁국립
▁중독
▁처형
▁초보
▁아티스트
▁소스
▁미라
▁증오
▁활성
▁그러니까
▁SM
▁음모
▁북쪽
▁후방
▁금속
▁미터
▁닫
▁둘째
▁계정
▁장악
▁위상
▁트랜스
▁노르
▁지경
▁다름없
▁닭
▁펴
▁가루
아시아
▁고작
▁포수
▁AM
팩트
▁무지
▁시노
▁의대
▁신부
▁구리
▁ㅅㅠ
▁외계인
▁패션
▁일본인
▁핏
양함
▁과제
▁플래그
▁표지
▁공무원
▁뜬금
▁업적
▁루타
▁디스크
▁.."
▁인민
▁남쪽
▁미스터
▁투명
▁보라
▁쌍둥이
▁|
▁동굴
▁EN
▁주사
▁자폭
▁일족
▁Te
▁터널
▁데려오
▁me
▁음원
▁선전
네스
are
▁로리
▁폴란드
▁편곡
▁세르
▁그로
▁펄
▁기동전
▁포로
▁금융
▁정차
나카
▁바이오
▁아쿠
▁동력
▁강도
몬드
▁아저
▁에리
▁날아오
▁찢
▁체중
▁자막
▁아저씨
▁기도
▁1988
▁개수
VD
▁차이점
▁완결
▁트라이
▁신비
▁라이온
▁열쇠
▁행보
▁히어로즈
▁다가오
▁ㄷㅓㄴㅈㅣ
▁아이언
▁무척
▁연령
▁잉글
▁구르
▁넉
▁전라
학자
▁Me
▁비상
카리
▁101
iv
▁부각
▁액티브
▁눕
CG
▁심심
▁공룡
▁캐리
▁.....
▁웃음
그마
▁적응
랑이
▁격추
▁멕시코
▁면모
ance
▁팽
▁최신
▁ch
▁엮이
▁지라
▁미즈
▁적당히
▁인치
▁간신
▁벌레
▁의혹
▁제작사
▁이집
▁이집트
▁SR
▁정글
▁승객
▁@
▁색깔
ㄷㅡㄴㅈㅣ
▁천하
▁할머니
▁코인
▁부장
▁칭호
▁나츠
▁볼넷
특별
▁흡혈
▁상술
▁담기
▁헬기
▁ㄱㅔㅅ
▁잠수함
▁대리
▁후계
▁과장
▁돋
▁교황
▁개입
▁스터
▁시아
▁담배
qu
▁저녁
▁튕
▁일방
▁후술
▁냥
▁일찍
▁첼
▁각본
▁위대
▁예언
our
ound
LL
▁리타
US
iz
▁로그
▁방출
▁귀환
▁My
▁새벽
▁십자
로디
▁해피
ord
▁생겨나
려나
▁물러나
▁페이즈
▁스튜디오
▁공성
▁화성
▁총알
▁도끼
▁정착
▁넥센
▁광역시
▁모래
▁라이플
▁클레
▁네트
▁팀원
▁이중
▁어판
▁신사
이너
▁사귀
▁마디
▁흥미
▁썬
▁정발
라기
▁도라
▁비추
▁ㅣ
▁곤란
▁원칙
팡이
▁수장
▁식량
▁악명
쳐지
▁깔끔
▁새끼
▁이정
ime
▁소라
▁ㅌ
▁활발
▁식민
▁이노
▁무렵
▁사후
▁호기
▁동의
▁교류
ix
▁XX
▁반동
▁토끼
▁라면
▁Cl
▁녹색
▁다치
▁마약
▁Com
▁애플
▁1970
▁하단
▁손해
▁항공기
▁레슬
▁패하
▁비주
▁제트
▁상관없
▁1991
pe
▁드롭
▁엿
▁재산
▁토론
▁크리스마스
▁펌
▁사막
▁구석
▁원자
▁쓸모
▁칭찬
▁주일
▁중국어
▁바깥
▁증언
▁뱀파이어
▁리플
▁릿
▁배터리
▁엔젤
우마
▁작곡가
▁이드
▁SE
▁루카
▁수류
▁애정
▁자극
▁태평
▁상기
▁잠재
▁부지
▁모노
▁정원
▁포항
▁막대
▁그만두
▁최다
▁튕기
▁등지
▁끊기
▁주기
▁도주
▁미안
▁엑스트라
▁턱
▁MVP
OP
▁팬텀
어마
▁올해
▁놓이
▁흑인
▁추구
▁배트맨
▁씬
uc
회사
저스
▁펑
▁이재
▁호칭
ite
▁그럭
▁흔적
▁할인
▁앞두
▁동쪽
▁AD
▁어마어마
▁막차
▁궤도
▁첩
▁국왕
▁CV
▁스웨
▁강자
▁그대
저럭
▁상실
▁미루
▁얻어
▁마이너
▁클릭
하면
▁충실
▁플래시
▁불교
▁거미
▁승점
주시
▁면역
▁언더
▁그럭저럭
▁용량
OW
▁코코
▁가동
▁참모
▁뿔
▁아이콘
▁분대
▁160
▁고구려
▁스즈
▁기숙
▁결합
▁시라
▁탈퇴
▁시합
▁이익
▁140
▁김동
게임
▁거듭
▁남녀
▁히나
▁앨리스
▁타율
▁수류탄
▁SH
▁포격
▁신앙
▁강요
▁찍히
▁관중
▁용서
▁무술
말리
▁숙련
▁예산
▁나리
▁이토
▁화장실
▁기생
ure
▁미키
▁BPM
▁소대
▁디젤
▁테라
▁짜증
▁아메리카
려들
▁오늘날
▁의회
▁자책
▁루수
▁고도
▁런던
▁입지
▁구슬
▁아츠
▁윌리엄
▁단행
▁딴
▁영구
▁통산
▁눈치채
OD
▁매장
▁잡아먹
▁교차
▁종목
▁적군
▁혐오
바르
▁900
▁문구
▁입대
▁성립
▁오직
▁예수
사관
▁옳
▁공방
▁간접
▁빨갛
▁사키
▁잉글랜드
▁포켓몬스터
▁가요
▁기구
▁DVD
▁출구
▁우에
▁하향
▁구글
▁기여
▁동급
▁모니
▁토시
▁도박
▁일본군
여객
▁형상
▁쪼
▁1989
▁$
▁공공
▁클랜
▁하이퍼
▁리오
▁지뢰
▁힙
▁철권
▁낚시
▁덩치
▁Pr
▁웃기
▁오라
BA
▁존재감
▁말투
▁Wh
▁ㄹㅐ
▁백성
ake
▁아미
▁부자
▁딕
▁야마토
▁실망
▁며
▁Pl
▁KR
▁제약
▁민첩
▁아서
▁떨어뜨리
▁Ex
어하
▁윗
▁크림
▁발리
▁Un
▁소유자
머스
▁Pro
▁찾아내
소녀
▁보고
▁백인
▁피터
RE
▁일치
▁간신히
▁주간
▁서쪽
▁금방
러가
ION
▁기관총
▁착하
▁히가시
▁중량
▁연합군
▁상인
▁본사
▁초인
▁울리
▁이슈
▁치루
▁추억
▁뎀
▁칼날
▁흔들리
▁일대
▁동성
▁쭉
▁몽골
▁어려움
▁천만
▁매년
▁들키
▁단단
베르
▁NE
▁이스라
▁사유
▁붓
▁RPG
▁힌
▁순환
▁콜라보
▁포드
▁총리
▁와타
▁내전
▁의외로
▁법률
▁유독
▁임팩트
▁화물
군다
▁수비력
Hz
▁아랍
▁싫어하
무시
▁근본
▁그렇지만
▁분신
특별시
▁믹스
▁메이드
▁건조
▁호수
▁시공
▁난입
▁오마
▁개혁
▁스크린
시즈
▁권한
▁너희
▁지위
oy
▁세븐
▁심사
은행
▁스탠드
▁선택지
▁리드
▁이끄
▁가만
▁전동
▁재단
▁개막
▁유물
▁평생
▁침략
▁타선
▁비스
▁색상
ows
▁연극
▁괜히
▁소장
화점
ud
▁Gr
▁상식
▁스펠
▁란스
▁뛰어넘
▁명확
▁서울특별시
▁건드리
▁커다랗
▁우르
▁불사
▁인종
▁메달
▁세종
▁악기
▁with
IG
▁반전
OC
▁끈
▁곡명
▁합의
▁개업
▁집착
▁기숙사
▁생존자
▁되돌리
▁맛있
▁뿜
▁그랜드
신교
▁히토
▁크리스탈
▁유적
▁변호사
▁정통
▁ㅅㅗ
▁협상
▁양성
▁BL
▁스팀
▁헐
▁헤어지
사자
▁딜레이
▁잔뜩
▁터뜨리
▁복선
▁서구
▁센스
갈리
▁브루
▁승률
▁인디
▁재정
▁렐
▁휘말리
▁복지
▁단축
▁암시
▁울프
▁해치
▁일화
▁걸맞
▁집행
▁복구
▁총선
▁카카
랭크
▁기인
▁엘리트
orld
▁메리
▁신나
▁이스라엘
▁교과
▁열매
▁영주
▁흰
▁동양
▁KOF
전차
▁걸어
▁출입
▁기울
무르
▁김종
▁항복
▁무시무시
▁he
▁포르투
▁체육관
데레
▁임신
▁고위
▁정수
▁타쿠
▁휩
히코
▁구축함
▁스트리트
▁부딪
▁무역
▁상단
▁레지
▁즐겁
▁비례
▁105
▁미나미
▁정치인
▁자전거
▁치즈
▁채택
▁급격
▁고로
그리
▁라인업
▁치킨
▁빠져
군다나
▁BS
▁꾸미
▁수출
▁코난
▁진보
▁깨어나
부로
▁경직
▁성남
▁당일
aw
▁기량
▁국판
▁김민
▁간단히
▁이펙트
▁존경
▁확대
▁굿
▁War
▁깔리
▁꼼
▁부스터
▁더군다나
▁망가지
▁두들
▁넘버
▁사이코
▁을
▁적합
▁끔
▁금액
▁대단히
▁코리아
▁OVA
▁재밌
▁도둑
▁에로
▁누적
▁칼리
▁강점
라이트
ace
▁스파이더
▁ED
▁사령부
▁키타
▁갈아
▁랄
▁상호
▁EP
▁화재
▁스폰
▁사살
▁통계
데이
▁철저
▁비치
▁정화
우치
80
▁후손
▁메이플
ave
▁전이
▁콜로
▁DD
▁유학
▁CG
▁Love
▁서포터
티아
ame
▁제독
▁우정
▁메시지
▁뻗
▁썬더
▁알아내
데드
▁이민
▁자이언츠
▁띠
▁혹시
▁뽑히
▁원문
▁허락
▁내보내
▁이혼
아키
▁대수
▁간간
▁마블
▁마법소녀
▁치유
▁언데드
▁가공
▁가을
ㄹㅏㄴ
▁잃어버리
▁한쪽
▁행하
▁권리
▁우타
▁대거
▁토너
▁가라
▁끔찍
▁후계자
▁기갑
▁탄환
▁수능
▁LV
▁견디
▁검술
▁사원
▁변환
▁수백
▁천안
▁오락
▁까이
▁통치
▁ㄹㅓㄴ
▁철수
▁면허
▁수명
▁업계
▁1987
▁루이
▁부적
▁능력자
▁토마
▁쏟아지
▁주택
▁해머
▁피아노
▁드라이버
▁헤어
▁고개
▁하츠
유럽
▁노가
▁언스
▁커녕
▁코멘트
▁나루토
▁루나
▁워크래프트
▁실존
▁개신교
▁초간
자와
▁분명히
▁독재
▁매니저
▁알렉산
▁끼우
▁동명
▁삽입
▁트롤
▁쟁
ice
▁지불
▁박물
▁물리치
▁낮추
▁맷
▁3000
ies
▁타운
chor
▁202
▁WWE
▁소음
▁오랜만
▁싸이
▁크레
▁제정
▁히라
▁생명체
▁읍
▁세인트
▁거울
▁배역
▁마코토
▁중립
▁프리미엄
포트
▁곳곳
▁유효
데미
▁해안
▁Wind
▁파생
▁데려가
▁캐치
own
▁자본
IM
▁싹
▁기용
▁폐쇄
▁sh
▁원조
▁시위
▁언젠
▁구미
▁약화
▁플러스
▁중첩
▁언젠가
▁뮤지컬
▁루비
▁마스크
로나
거지
▁보험
▁감각
▁대왕
▁레딧
▁결투
▁지리
▁큐브
▁충청
per
▁서서
▁원리
▁실종
▁지팡이
▁코믹
▁요약
▁체인지
게이
▁니혼
▁스프링
▁인질
▁주자
▁아카데미
▁킬러
▁??
▁중세
▁엔드
▁우월
▁무관
▁토너먼트
▁만남
걸이
▁워커
▁여객
▁하마
▁철학
하시
ath
▁보드
TE
반도
▁성전
▁리카
▁취약
▁anchor
▁리스크
man
▁더빙
▁TVA
▁리프
▁니스
▁이라
▁기동성
▁전파
가드
▁처지
▁de
▁정기
리온
▁카트
▁사야
▁날짜
▁유산
▁방위
▁새기
▁이나
▁KBO
▁무공
▁속이
▁곱
▁나미
▁시크
▁중형
▁드래프트
▁호시
▁배포
틀러
운서
▁밀어
▁아나운서
▁딜링
▁장탄
▁결심
▁시바
▁추종
▁베타
▁PV
▁티켓
▁고맙
▁도적
▁개시
old
ere
▁나기
▁베리
▁왜곡
▁사명
▁We
▁허가
▁마주치
▁측정
▁와일드
▁해병대
▁대학원
▁줍
▁PR
▁여우
▁보충
▁틸
▁스트레스
▁돌입
▁1986
카이
센트
시스트
▁시원
▁휘하
▁야구장
▁필리
▁마우스
▁연패
▁ID
▁무인
▁복제
▁시외
▁유격
▁헌법
술사
▁용인
▁저택
▁네트워크
스럽
▁관할
텐도
▁AS
▁보완
▁닌텐도
▁분당
▁이글
▁승무원
▁고장
▁파이트
▁부실
▁후자
▁장거리
▁억지로
▁중시
10
▁조리
▁인피
ick
▁관점
▁수호자
▁박물관
ber
▁토미
▁안기
▁희귀
▁서클
▁언덕
▁셜
▁주둔
▁우치
▁".
▁문단
▁혐의
▁악화
▁엄밀
▁쿠라
▁막내
▁미네
▁연고
▁조약
▁불량
▁당대
▁캠프
▁기묘
▁세포
▁톨
▁법원
네임
▁꿀
▁유니크
▁학력
▁엑시즈
▁롬
▁여전
▁잠입
GE
▁->
▁오키
▁기상
▁감추
ory
▁유발
▁모로
▁방송국
▁조이
▁단원
▁지칭
▁식민지
▁럼
ov
▁버드
▁인용
▁다이아몬드
▁그린
▁페널
▁카구
▁단행본
▁채보
▁취임
▁김대
▁로얄
▁지진
래시
▁연맹
▁인방
▁스웨덴
▁오메
▁코마
▁AKB
▁데이트
▁남매
▁프라임
▁벨트
▁울트라맨
▁기름
▁챌
ond
▁레일
▁만만
▁반부
▁my
▁멜로디
▁즈음
TS
부르크
▁면적
▁가죽
▁피우
▁고증
▁웰
펴보
▁살펴보
▁캐스터
▁흩
▁En
▁도루
필드
▁GP
가리
▁디즈
▁택시
▁법정
▁근거리
▁케이드
▁부드
▁선행
▁매번
▁자비
그나
▁ㅁㅗ
▁배달
▁질리
▁거점
비드
▁중장
▁포위
▁아르헨
▁중복
ream
▁혈액형
▁아테
▁공수
프리
▁방어구
▁이주
▁준우
▁신도
▁진압
▁스텝
▁FIFA
▁분쟁
▁굵
▁교도
▁레알
▁웨이브
▁CJ
▁파르
▁득표
ah
▁라틴
▁미쿠
▁소요
▁호랑이
▁꿰
▁실은
▁이수
티스
out
▁Dr
▁차체
태우
▁일당
▁전승
▁행방
▁독일군
▁아이러
▁연승
크로
▁도저히
시타
블린
▁아르헨티나
미니
▁깨달
▁참석
▁189
▁용자
커스
▁wh
카락
▁답변
▁휴식
▁DC
▁머리카락
▁릴리
▁균형
▁법칙
▁부드럽
IP
▁미만
▁첫차
타카
▁헝
▁공인
▁케인
▁창원
▁오전
ost
▁1500
▁때려
세서
▁암살자
▁kt
아이
▁시로
▁셔틀
▁비전
▁마계
▁이온
▁로이
▁유인
▁관람
▁한두
▁무작
▁학기
▁주류
▁발렌
▁초록
▁챌린
▁토키
▁코트
▁규격
▁슬라이
60
▁포탄
▁스위치
▁중력
▁리뷰
베스
러그
▁비틀
바닥
▁본진
▁트리플
▁\
UM
▁평일
▁피닉스
런트
▁에반
▁주차
▁왜냐
▁질투
LE
▁전주
▁1985
렐라
▁솔직
▁에르
▁둘러싸
▁쇼크
▁에이지
▁루머
▁닛
▁토벌
▁For
▁드래곤볼
▁전제
▁영원히
▁침입
▁김재
▁통틀
▁유력
▁무사히
▁식품
▁클론
▁장인
▁교실
▁남북
▁모시
▁글로벌
▁훼
▁ㄷㅓㄴㄱㅏ
▁조커
▁비주얼
▁격차
테르
▁스테이션
ile
▁트루
▁포르투갈
블로
▁박근
▁소방
▁시너지
▁개설
▁공업
▁스태
▁바쁘
▁오디션
야수
▁ㅌㅣ
▁안개
▁1984
▁경로
▁구름
▁베기
▁김경
▁합병
▁보이스
▁전무
▁놀리
▁항의
▁법인
▁히로시
▁조기
▁재회
코드
▁이종
▁인력
▁창고
▁집어넣
▁아틀
▁은신
▁감지
▁탐정
▁노바
▁지치
▁배수
▁돔
▁유성
▁급하
▁정황
▁아가씨
▁논쟁
ont
▁확장팩
▁아동
▁벼
▁유미
▁진학
▁파동
▁선고
▁백화점
리나
▁긴장
▁무스
▁주행
▁뜨겁
▁트릭
▁어뢰
▁신전
▁공허
▁추리
쿠라
▁제네
▁토크
▁그르
▁안녕
▁어필
▁호흡
▁하수
▁난사
▁얀
▁우즈
▁쓸데
▁감동
더라
▁통화
▁양반
▁기운
▁윈드
▁막판
▁코르
▁단종
ome
▁사인
▁카더라
▁여주
▁소송
▁시카
▁역명
▁배드
▁토니
▁리온
▁가방
▁신용
▁급행
하르트
▁생년
번에
▁It
▁어이
▁감상
▁범죄자
▁수염
▁변태
▁왕위
▁위성
▁특별히
▁바디
▁마물
세대
▁김현
▁보존
▁5000
▁뭉치
▁메이커
▁스쿨
▁장미
▁과도
▁명의
▁신자
▁학습
▁뽑아내
▁프란
키지
▁비유
▁Star
▁개발자
정부
투스
노리
▁요인
▁손오
▁박살나
▁자녀
▁서포트
▁분열
io
▁갑작
▁패키지
▁벙
▁섀도우
▁블라
▁직장
▁막상
▁슬프
▁수면
▁진주
▁창단
▁운동장
▁추세
▁백제
타입
▁과학자
▁노스
▁DE
▁FM
▁영광
▁의학
▁야쿠
▁만지
▁가디언
▁에디
▁제갈량
▁발굴
▁성당
▁신발
▁뚫리
▁광선
▁잉여
▁아이러니
▁스캔
▁태평양
▁경기력
▁팟
▁정예
▁끌려가
az
▁106
▁1960
▁비웃
▁매니아
▁성질
▁오우
▁라이온즈
▁ww
▁SNS
▁극히
▁EZ
▁나폴
▁카운트
▁기재
에이
▁기력
▁유재
▁라라
▁쇼핑
▁복합
▁임금
▁상관없이
▁체감
▁오노
도르
▁산하
▁최상위
▁타이거즈
▁준우승
▁탐험
▁진급
▁몫
▁우유
▁로버트
▁170
▁프린세스
▁로보
▁대책
▁러시
▁루스
▁세라
▁룩
▁라즈
크라
▁Fl
▁윈도우
사기
▁극도
▁서서히
▁도감
▁스타리그
▁얻어맞
▁판결
▁만일
▁위엄
▁걸즈
▁행운
▁시상
불명
▁마냥
ian
▁양자
30
▁에서
▁물량
▁데빌
▁Station
벌레
▁공정
저리
▁대조
▁손상
▁여인
▁샌드
▁www
일보
▁피트
▁우주선
▁워치
▁카시
▁국경
▁천연
▁해골
▁사관
▁오스트리아
▁와카
▁헷
▁티아
능력
▁대치
▁야수
▁출격
▁Sc
▁여학생
▁체험
▁플라이
▁AN
ade
▁늙
▁Or
▁관계자
▁무산
▁콤비
▁통로
▁증상
▁사족
▁야간
▁하프
▁처참
▁ㄴㅗ
▁꼬이
▁소프트웨어
▁퇴장
▁키라
▁엘리자
▁빙판
▁가만히
릴라
▁머무르
▁뜬금없이
▁불행
▁그레
어놓
▁상담
▁드림
▁조상
▁오염
▁경주
▁손오공
▁장로
▁결제
▁바스
▁부서지
▁Fate
▁고객
▁택하
▁LC
▁캐시
▁투스
▁Go
▁리즈
▁포장
▁타수
▁심의
▁출간
▁흡사
▁간주
▁상륙
▁ㅈㅠ
▁캣
▁포터
▁원피스
저기
▁스핀
▁쳐들
▁약물
▁중고
▁즉사
▁세뇌
▁연봉
▁오로지
구미
▁디바
▁마케
▁모터
▁파란색
▁날카
ason
▁CF
▁아바타
▁Br
▁태클
▁사립
▁나르
▁마유
▁SF
리스트
▁베테
▁위반
▁남아
▁아시안
▁시온
▁여기저기
▁함부로
▁렌즈
▁파편
▁Windows
▁백작
▁철거
▁브로
▁콘솔
▁배정
▁샤이
▁이웃
40
▁BR
▁난무
▁뱃
▁비극
▁동아리
▁붙잡히
▁뒤지
▁비스트
▁루크
▁당당
▁되살
▁불펜
▁창작물
▁본토
▁이와
▁처분
▁폐기
▁파멸
▁캘
▁대령
▁지력
토스
▁교장
▁니콜
▁실상
▁역습
▁맥주
키아
▁갤러
▁두들기
▁수색
▁코미디
sh
▁악몽
▁혜택
메이
▁날카롭
▁지향
베이
▁후미
▁해킹
▁명목
▁이타
▁나스
▁유전자
도리
▁거북
▁스포일러
려받
▁동남
▁후퇴
▁이란
▁즉위
▁125
▁JP
▁경남
▁시신
▁CH
카이도
▁전동차
▁프로토
하마
▁핑크
▁키보드
▁도장
▁동경
▁시트
▁경악
▁상사
tle
ㄴㅑㅇ
▁타르
비전
▁두르
▁여럿
▁고리
▁장사
▁제왕
ug
▁창설
▁대포
▁360
▁신데
▁헨리
▁조우
▁UN
▁물체
▁교단
▁짐작
▁디즈니
▁감싸
▁케이블
▁교토
▁원곡
불호
▁호불호
▁혼돈
▁잡아내
▁양손
다보
▁OP
▁발행
▁휴가
▁랑
먼스
▁스테이
▁샷건
▁기둥
▁해내
▁장탄수
▁엄격
▁승차
▁선조
▁흰색
▁기세
▁LA
▁막강
▁노조
▁https
▁반박
▁권위
▁야생
▁나노
▁뒤늦
▁한반도
▁얽
▁폭파
▁신입
▁손실
▁조종사
▁잠들
▁며칠
▁타석
▁신데렐라
브라
▁축복
▁최적
▁노가다
렉스
▁지선
▁광장
▁내일
우리
▁포즈
▁풋
▁프랑스어
▁개국
▁정교
▁배출
▁하급
▁스트라이커
▁낙하
▁모스
▁부착
월일
▁BE
▁미오
▁트라우마
▁버섯
▁임대
▁프레이
▁츤
ower
ach
▁회색
▁딸리
▁승자
▁복원
▁텍스트
▁기장
▁펼쳐지
▁실사
▁커스텀
▁표면
▁패밀리
▁채팅
천시
▁공세
▁베네
▁여파
▁응용
▁근접전
▁오이
▁옹호
나기
▁대시
▁어쩌면
▁대전차
iss
▁근원
▁넘어서
▁조별
▁바지
▁히틀러
▁잠실
▁유기
▁세팅
▁생년월일
▁구동
▁여고
▁유언
▁Wi
▁뽀
▁장신
▁전북
▁개장
▁끊임
▁물고기
▁통칭
▁열혈
MP
▁첼시
▁방치
▁올스타
▁루이스
▁투척
▁초능력
▁전락
▁브레
▁ㅅㅕ
▁명백
▁신지
▁팡
▁마다
▁호소
▁김상
▁미국인
▁관우
▁이순
▁밍
▁궁금
▁출루
▁솜
ash
▁소용
▁대접
▁굴욕
▁이글스
▁비명
▁배려
▁시인
ARD
▁반감
▁이라크
▁카자
▁건네
라딘
▁장성
ㄹㅐ
▁쌀
▁마드리
▁되게
▁좌절
▁간간히
▁그램
▁뻥
▁저하
▁카리스
ㄹㅣ
▁탕
▁부작용
▁마드리드
▁꽉
ook
▁약자
▁타츠
▁결계
▁1982
▁엽
▁살아나
▁대차
▁상영
▁여타
▁양상
산역
ial
OU
▁선사
▁성씨
▁여의
▁논의
▁디시
▁진격
▁틴
▁스태프
▁마감
▁빌딩
▁올드
▁기수
▁민주주의
▁스케일
▁묶이
▁정반
지막지
▁무지막지
▁갚
▁스나이
▁로이드
▁아스카
▁긁
▁발목
▁여러분
▁계시
▁센트
▁축하
▁근대
▁스노
▁거스
▁공대
▁모빌
사이
▁다운로드
▁수월
▁지인
▁엎
▁프론
▁해명
▁마트
▁공백
▁깜짝
ann
▁사이클
▁가난
▁하하
▁수동
돌이
▁약탈
▁기본기
▁합리
▁wik
▁인자
▁최우
▁그날
▁레온
▁ㅅㅕㄴ
ps
▁사악
▁집권
▁텟
TV
포르
▁퍼포
▁고소
▁생전
▁퍼포먼스
▁하인
ss
▁나나
▁다투
▁브라운
▁강렬
▁세금
럼프
▁넘어지
철도
▁특급
▁손꼽
▁개별
▁시외버스
▁이누
▁박살내
▁중동
▁둠
▁구별
▁꼬마
▁실책
▁대박
▁후일
버그
▁한창
▁엄밀히
▁독일어
▁폴아웃
▁로빈
▁보건
▁닐
▁우세
▁노동자
▁1983
▁설령
▁조용히
▁오메가
▁교복
ky
▁조롱
▁MB
▁라크
▁슬로
란히
▁깎이
▁이용객
irl
▁우드
▁스즈키
누스
▁권장
▁아쉬
▁삼각
▁성경
모함
▁단검
▁에픽
▁사리
▁대선
센스
▁업로드
▁검찰
ib
▁음료
역사
▁Mk
▁왼손
▁훈장
▁토하
▁마도카
70
▁전격
▁라이너
▁조명
ish
▁비서
▁페널티
비치
▁your
바야
▁그레이트
▁폭행
▁토요
▁나아지
▁불쌍
▁페이스북
▁스피릿
▁감수
▁원전
▁웨스트
▁명문
▁선제
▁산탄
ㄹㄹㅕ
▁사사
▁CS
▁닝
▁GO
▁that
우트
▁포획
▁세부
▁고속도로
▁튼
▁빠져나가
▁제물
숭이
▁지사
▁소니
▁넘어오
▁형편
▁호크
▁독점
▁인권
▁다가가
▁트랩
오스
하나
▁건국
▁온도
▁명사
▁아스트
▁도리
▁직선
▁휠
▁PP
▁선진
▁분해
rom
▁홀리
▁위안
▁항구
▁마땅
▁공통점
▁수직
▁날뛰
▁루프
▁상반
▁중지
공항
▁저렇
▁에릭
▁카를
▁유망
▁도트
▁구장
▁학생회
▁블레이
▁벡
▁유혹
▁질병
▁후임
루미
탐정
▁김해
▁페리
진호
▁le
▁팁
▁겟
▁츠바
▁주니어
▁강간
orm
▁신선
▁혈통
라노
▁Ne
▁ON
▁잔인
▁각오
▁경부
▁평양
▁유나이
게이머
▁프로게이머
▁술사
▁부딪히
▁매드
▁범용
▁타치
▁샵
▁오죽
▁후원
차기
▁찬스
▁부동
▁물품
블리
▁추방
▁적중
▁토요일
▁라스트
▁엄연히
▁항공모함
▁고무
▁축소
▁루피
▁헷갈리
▁350
▁스컬
▁ML
▁유나이티
▁원더
▁스와
▁강원도
▁레인지
▁동행
▁베테랑
▁ㄷㅜ
▁{{
사리
▁압권
▁증폭
▁진상
▁엔지
▁하치
경기
▁검열
▁두렵
벤처
▁어드벤처
▁거론
싱턴
▁메리트
▁쿠마
이치로
▁후회
▁스폰서
테일
▁원형
▁선두
▁트윈스
▁관찰
▁하반
▁젖
으로
▁기후
▁TR
▁성배
▁킷
▁김기
▁출마
▁지연
▁경전
▁땡
전설
▁마카
▁{{{
▁이어받
▁변이
▁인칭
▁논문
▁허무
에르
▁골렘
▁주체
▁스리
▁합동
amp
▁운수
▁메트로
▁부임
▁쨩
▁요한
▁교과서
▁해양
ft
▁장난감
▁표절
▁도색
▁중순
▁유니버스
구장
▁쿄코
▁쓰리
▁평하
▁바나
▁유출
▁SKT
▁흡혈귀
▁히든
▁영지
ype
▁베어스
▁친절
▁UE
▁유의
▁붐
▁기쁘
▁슌
▁블로
▁쉴
▁하여
▁쿤
루션
▁거칠
▁지목
▁ㅁㅗㄴ
▁피카
▁구성원
▁결혼식
▁보라색
▁권유
▁초콜
마크
▁쿠데
▁사무라이
▁타이탄
▁전망
▁다이스
▁Mar
▁코스튬
▁시게
▁!"
▁절차
페라
▁박근혜
ous
▁역량
▁잊히
▁우익
니시
▁벌리
배우
아치
▁어색
▁특공
▁컴뱃
▁헤르
▁동대
▁니아
▁과자
▁치열
▁폴리
▁우울
▁버스트
▁뱅크
▁빈도
▁마술사
▁줄거리
▁페르소
▁by
▁여단
▁취업
▁당기
▁유료
▁안양
TR
▁긴급
▁애칭
▁시리아
▁엇
▁이케
베리
싸움
▁자네
▁ex
▁되돌
▁제치
▁끓
▁카네
▁돌보
▁의자
트론
▁다큐
▁기호
▁서기
▁사투
▁청주
▁조르
▁동서
▁공용
▁튼튼
▁히카
▁Sup
▁막아내
▁손자
▁나이프
▁캄
▁상한
▁토우
시대
추어
▁리나
▁어설
▁고블린
산시
▁명단
▁수습
▁나비
뻐하
▁기뻐하
▁관여
▁우회
▁빨간
▁유탄
▁we
▁LP
▁징역
▁수급
▁GSL
▁센서
!!
▁터스
▁강호
▁광명
▁번지
▁히스
FF
플레이
▁침묵
▁퍼즐
▁젼
▁유전
▁풍부
▁관통력
▁일요일
▁규제
▁보호막
▁대성
▁고스
▁자꾸
▁bl
▁가두
▁정사
슈타인
▁동점
▁외우
▁가오
▁드레스
▁순양함
▁중상
▁의장
▁학문
▁페어리
바나
▁큐어
▁짙
▁쳐들어
▁이놈
▁포스터
▁스플
▁평행
▁우승자
▁전생
▁호드
▁페르소나
▁겔
▁웜
▁102
▁오브젝트
ey
▁촉수
▁오스만
▁특별시
승부
▁앰
▁태국
▁카마
▁프렌
▁미미
▁아무튼
▁불능
▁인재
▁손꼽히
ING
▁부스트
▁도어
도전
▁분산
▁침대
▁끌어들이
▁기스
▁마인드
▁크라이
▁서바이
▁시모
▁III
▁선장
▁메카닉
▁밀려나
▁트레이너
▁생김
▁러스
▁후반기
▁인과
키퍼
▁동반
▁평상
▁동해
▁금메달
▁관측
▁배제
▁아케이드
▁강림
▁철갑
▁모집
▁오지
▁달려가
MS
렉션
▁수석
AK
▁백업
▁관리자
▁워리어
▁아깝
▁지부
▁참가자
▁쏠
▁빅토
▁World
폭탄
▁출산
▁신속
▁시상식
▁날아다니
▁스위스
▁취득
▁날씨
하루
▁모에
▁정석
▁현금
▁낭비
▁안심
▁유우키
▁토라
▁박지
▁무한도전
▁레이디
▁스탭
필더
▁미드필더
▁패전
▁마타
▁시그
▁간지
▁모니터
▁껍
▁짐승
▁ㅇㅡㄹㅅㅜ
대사
▁꺼리
der
▁왜냐하면
▁원판
oll
▁블리자드
워즈
▁유재석
▁화산
▁김용
NA
▁리모
▁모험가
▁장타
▁벤치
▁스피어
▁플랜
▁시비
▁성실
▁연산
▁통째
▁New
▁옐
ink
▁씌우
▁se
▁친분
▁골키퍼
▁피로
▁All
▁공감
ET
▁대세
▁리틀
▁역임
▁조카
▁대위
▁뱅가드
▁최저
▁슬라
▁원주민
▁책임지
▁워프
▁프리미어
▁냉정
▁111
▁강사
▁데몬
▁al
▁만주
▁덤비
▁OG
▁방송사
코트
▁카리스마
▁미소녀
▁사무소
▁스기
▁108
▁일가
▁작년
▁DP
항공
▁미인
▁쿼터
▁호러
▁흑역사
▁강등
▁따뜻
▁생체
▁품질
▁노란색
어드
▁IM
▁IN
▁단발
▁변장
▁생애
▁포병
▁빨간색
▁유카
▁워즈
리안
▁Season
▁메일
▁광산
▁미지
▁영양
▁뉘
▁카지
▁리버스
▁호남
▁스미스
▁출판사
▁오즈
▁후드
▁절친
▁국무
▁재개
▁무용
▁당사자
▁소모량
▁SU
▁닥치
▁루리
▁풍기
주교
▁여포
▁un
▁손쉽
▁하나하나
▁ㅇㅡㄴㅈㅣ
▁트릴
▁국제공항
▁카레
▁방사능
▁명분
▁슈퍼맨
▁디펜
▁115
▁넬
▁OS
▁단기
▁자제
▁클린
▁사로
▁각지
▁유입
▁연쇄
▁폭스
▁마모
느리
▁안쪽
▁무도
▁장판
▁코스프레
▁봉쇄
▁장례
▁김포
▁발급
▁전당
▁애인
▁차갑
▁쿠데타
▁몰살
▁선임
▁위원장
모스
▁리안
이나
▁MF
▁스네
IX
떨어지
▁자칭
페이
▁미러
▁마운
▁워크
▁수라
▁마오
▁항해
▁와인
▁카쿠
▁해산
▁워싱턴
▁동정
께끼
네마
▁수인
▁수수께끼
▁임기
▁리처
▁끌리
▁국장
▁왕복
▁스티븐
DX
▁마음대로
▁시크릿
당초
▁아베
▁자존
▁곡인
▁트론
▁동속
▁수위
▁고등학생
▁레이지
▁퍼스트
▁부근
▁실현
▁병역
▁자책점
▁게이머
▁사와
베이터
▁바르셀
▁브레이커
▁바르셀로나
35
▁디자이너
▁렘
▁DF
▁불태우
▁멋대로
셔널
▁공단
▁lv
▁엉망
▁마그
▁어벤
▁드로우
▁제출
▁데이비드
▁문재
▁메이지
▁1981
▁구형
▁끊임없이
▁라이징
▁1950
▁확산
▁And
▁흔들
▁유망주
▁할리
▁멍청
▁스텔스
▁188
▁BGA
▁NM
동자
ank
▁생김새
▁쿠리
▁탐지
▁우호
▁쫓겨나
▁스탈
▁닦
▁원시
▁비기
▁개구리
▁존스
▁양식
▁돋보이
▁To
▁부원
ai
▁민간인
▁힙합
▁만능
▁종영
▁침투
▁터보
▁고집
▁아아
▁기부
▁목사
▁z
운수
▁레이어
▁맞붙
▁경호
▁그랑
▁어원
▁얇
▁1979
MAX
▁동전
▁방탄
▁수지
▁디아블로
▁정반대
틀랜드
▁철저히
▁전남
▁px
▁카게
▁아수
우라
▁렉스
▁엘레
▁후유
▁산맥
▁엔지니어
▁함장
▁카피
▁내버리
▁작정
▁머니
▁따라오
▁니트
▁브라이언
스티벌
▁페스티벌
▁실체
▁자사
▁이스트
▁변동
▁애완
▁화해
▁정신력
ary
▁로맨
▁농장
ero
▁치안
▁투쟁
▁유비트
▁밀어내
▁리본
▁알렉스
▁ㄷㅚ
▁쇄
▁몸통
▁부스
▁첫째
▁가이아
나베
▁매그
▁오렌
▁라그나
▁원숭이
▁요미
▁능가
▁중위
▁간섭
바야시
▁까지
▁군부
▁대역
▁실내
므로
▁sp
▁미르
▁압력
▁Cr
▁세자
▁춥
▁하스
▁트랜스포
▁Bo
▁재학
▁함락
▁김준
▁모형
▁토지
▁다카
▁떨치
▁운송
▁트레일러
ng
스레
▁세리
▁폭격기
▁크레이
▁쿠스
▁입주
▁이즈미
▁마하
바이트
▁사야카
▁광기
▁종결
▁예약
▁템플
군가
▁티스
▁오더
▁스나이퍼
▁고가
▁금발
▁여섯
▁테스
▁홀드
레븐
▁시골
▁뻘
▁실시간
▁물자
▁헬멧
▁거지
▁쿵
▁Vol
ife
▁세로
▁전향
▁이모
▁퍽
▁출범
저래
▁마미
AY
ich
바지
▁계층
▁스카우트
▁비비
▁아자
▁사수
▁이래저래
▁올바르
▁UEFA
▁압축
aster
IVE
▁입문
▁탐색
▁128
▁습하
▁펌프
▁그러므로
네시아
▁콘텐츠
▁누군가
▁광경
▁삽질
▁주관
▁통솔
▁고고
▁Day
▁겜
ree
▁납득
▁쿠사
▁반역
▁잔혹
▁밀도
▁젬
▁나폴레
▁베를
▁신하
▁스크롤
▁깃발
ons
▁Ad
끼리
▁시사
▁죄책
▁오른손
▁플라스
▁임의
▁표기법
▁항모
아들
▁민폐
▁en
▁반짝
▁ㅇㅗㅂ
▁그립
▁기질
▁대타
▁마산
▁영감
▁젤리
▁학대
▁소금
▁트리거
▁마라
른바
▁부러지
▁김유
▁이른바
▁나폴레옹
▁커플링
▁얄
▁군수
▁초콜릿
▁서적
▁직통
▁갈색
▁부유
▁캡슐
▁파도
▁소생
▁대행
▁강경
▁드론
▁망토
ans
▁무승부
▁닉네임
▁죄책감
▁엘리베이터
▁파스
▁동아
▁흑막
▁스파이더맨
라미
▁관장
▁황당
▁기리
▁기껏
▁친척
무지
▁라이언
pl
리얼
act
▁일렉
▁수비수
▁고사
▁그란
▁간판
▁감탄
부키
▁시시
▁부재
▁큰
▁아오이
▁어나
▁트랜스포머
▁매출
▁신중
▁하사
▁WC
▁실적
▁김일
▁외국어
▁깨끗
▁착륙
▁도덕
▁러쉬
▁프랜
▁화기
▁스타즈
▁김진
▁챔프
러브
ase
▁개척
▁방학
▁강대
▁애용
▁챌린지
렉터
▁카이저
▁GD
▁선로
▁호의
▁죠죠
▁정문
▁페어
▁엘리자베스
▁코토
▁가령
▁판도
▁김치
▁입시
▁육상
▁위로
▁고아
▁승진
▁미궁
▁그쪽
▁목걸이
▁신작
ple
▁츤데레
▁아이디어
▁에미
▁힐러
uk
▁어나더
▁탭
▁오다
▁깊이
▁얽히
▁덩어리
▁스가
▁ㅊㅣ
12
▁들여
▁IIDX
고속도로
▁케빈
▁리리
▁성분
ear
▁알바
▁부시
▁출혈
리드
▁미녀
▁예의
▁마케팅
▁공산당
▁서방
▁스타워즈
ment
▁감자
▁퇴각
▁--
▁시뮬
▁와이번
▁이소
▁왕비
▁레아
▁아리아
▁하도
▁짬
▁만점
▁지수
▁끌어올리
▁가위
▁워터
▁침몰
▁극대
▁이오
▁고시
▁창문
▁슬픔
▁가이드
▁발레
▁오락실
▁쫒
▁자이언트
▁마피아
▁필리핀
▁검증
ction
▁오페라
▁혼혈
▁리사
▁적절히
▁매트
▁이병
▁카리
▁샐
어트
▁제노
▁AV
▁DM
▁김수
▁괴인
▁쉴드
▁앓
▁AA
▁머스
▁쿠니
업자
▁디오
▁라이트닝
▁박자
▁츠카
▁비키
90
▁우마
슬라
▁모음
▁레이븐
ㄹㄹㅐ
▁Part
▁치카
▁합작
▁크래프트
▁tv
▁마에
▁무제
▁연수
▁레이블
▁매각
▁토대
▁사로잡
▁마기
▁사촌
▁구상
▁뚱
▁찔
▁소꿉
▁어이없
▁드루
▁존중
▁닷
▁노부나가
▁질서
좀무
▁흠좀무
▁만렙
ool
▁현자
▁바쿠
oon
▁천국
▁One
▁구조물
▁주축
▁아카네
▁모임
▁총합
▁호리
ode
▁시타
▁개명
▁모델링
▁여주인
▁중거리
지르
▁리버풀
▁터트리
▁at
▁라미
▁복사
▁리퍼
▁우연
▁유머
▁외곽
▁해운
▁도쿠
▁220
번트
▁로키
▁편리
▁런처
▁원로
야스
▁초상
▁공속
▁너스
사랑
▁유연
▁글씨
▁103
▁도심
▁고의
▁오케
▁박수
▁왕실
▁우측
▁175
▁웨폰
헤이
▁실용
▁부사관
▁변명
▁연구원
▁톡
▁물려받
VER
▁사천
▁갑작스럽
▁승인
▁등극
▁지분
▁찌질
▁최선
▁삼성전자
▁화폐
▁부천
▁장애물
▁NBA
▁명대사
▁서번트
▁240
▁다스리
▁잭슨
▁스카웃
▁Ap
▁아사히
▁오역
▁포탈
▁매달리
▁황후
▁레코드
▁전지
▁출동
▁직책
▁타일
▁표적
▁FF
▁경찰서
▁타이어
▁ES
▁이카
▁보좌
▁모듈
▁달려들
▁면하
▁감당
▁테이블
▁전담
▁적자
▁명장
▁일일
▁전날
▁각도
▁파울
▁참사
▁서식
▁체결
▁LO
▁중부
▁마야
▁지로
▁무녀
▁어시스트
ㅆㅇㅓㅆ
▁재건
▁힘입
▁비리
▁1945
▁노릇
IR
▁교리
▁듀오
AP
▁돌연
▁이무
▁아수라
▁암호
▁선동
▁검정
▁자력
▁완공
▁자존심
▁네티
▁워드
▁아마추어
프리카
▁물어
▁사연
▁그릇
▁본능
▁천천
▁싱가
▁패자
▁흩어지
라이언스
▁싱가포르
▁첸
▁NH
▁오토바이
▁약혼
▁Sw
▁가담
▁기차
깨비
▁보가
▁마찰
▁아담
슬리
이동
▁미남
▁변수
▁평상시
▁얼라이언스
▁뮌
▁모순
▁브라더스
▁철도역
은색
▁오니
▁리코
▁마일
▁해소
▁신동
▁아드
▁수천
▁모종
▁리믹스
친구
▁민감
▁베스
▁점유
▁사법
▁사치
▁마을버스
▁본관
▁무능
▁답답
bs
시오
▁유가
ㅡㅅ
▁벅
▁이단
▁함수
▁소우
▁CM
▁라인하르트
▁달인
▁타카하시
▁온천
▁트로피
▁선출
▁테일즈
▁씻
▁농업
▁알아채
▁흙
▁몸매
▁해전
▁오공
▁크로우
▁대동
▁말기
▁서열
▁견해
▁퇴치
▁알레
▁보직
▁천장
▁벗기
려워하
▁아르바이트
▁열정
▁꿈꾸
▁화상
사와
▁nd
▁뺏기
▁남동생
▁후쿠시마
▁레귤
▁건지
▁파랗
▁평론
▁이경
▁프로스트
▁한꺼
▁불러오
▁한꺼번에
▁발명
▁브래
드러지
▁오로치
▁아유
▁타우
▁바둑
▁산타
▁그라운드
▁입자
▁박정희
▁테리
▁발판
▁부속
▁맹세
▁ㅁㅓ
▁자키
▁어드밴
▁전법
▁가히
▁사무실
▁일관
▁112
▁스트리
▁천천히
마루
▁확신
▁소마
▁공신
yle
▁카카오
▁일체
▁단역
II
▁덮치
▁비우
▁요격
워프
▁오렌지
▁카테
ike
▁레나
▁트래
▁리처드
▁Man
orn
atch
▁이오리
▁너클
▁Up
▁재수
▁너머
▁소나
▁헬리
▁로프
▁보편
▁아레나
▁휴먼
▁세일러
▁툭
▁펭
▁보로
ence
▁상냥
▁에디션
▁로스트
▁최상급
리스타
▁곤충
운동
▁일컫
▁마스코트
▁테란
생활
▁바이올
▁장벽
▁서울대
▁정점
▁케리
▁필름
▁에메
다운
▁모스크
▁상무
▁네티즌
▁아무렇
▁EC
▁둘러보
▁천지
▁NO
직자
▁한하
키스탄
▁유격수
▁기동력
hen
▁국도
▁홋
▁인접
키리
▁연동
스크림
▁피자
▁메구미
▁퀵
▁매주
▁지혜
▁억울
▁극한
▁클리셰
▁흉악
ens
▁혁신
▁협정
▁서류
▁레이싱
▁면제
▁다지
▁시카고
▁얼티
iver
▁레귤러
▁Ed
▁일명
▁인문
▁저글
▁밀레
now
▁까마
▁로크
▁지장
▁1978
▁노아
▁상주
ph
▁와타나베
▁루미
▁임하
▁탄압
▁미아
▁선박
▁인피니티
▁용이
▁휩쓸
▁소득
니코
▁겸하
▁도르
▁베를린
▁이순신
▁다시금
▁이영호
▁작위
타운
▁미노
타이
▁마틴
▁신한
▁회담
▁히카루
▁우루
▁청춘
▁우기
▁강민
▁키요
▁들르
▁페스
▁엉덩이
▁계수
▁손님
▁아쿠아
▁떠돌
▁욕설
▁트윗
▁USB
▁입증
▁이빨
▁팬티
박스
▁GM
▁장남
▁페이크
▁So
▁솔저
▁퍼펙트
ㄷㅓㄴㅈㅣ
▁지터
ㄴㄷㅡㅅ
▁탈취
▁사나
▁사회주의
▁정밀
▁섬광
▁헝가리
▁수신
▁자아
▁아포
▁옥상
▁드워프
▁백만
▁선거구
▁일곱
▁크롬
▁격려
민주
▁프레스
pt
▁일지
▁Mag
ail
▁발사기
▁과시
▁장본
▁스틱
▁배구
▁기울이
▁그레이드
▁녹이
구니
▁스티브
▁IT
▁쯔
▁리가
▁점검
▁시호
▁공격수
▁부패
▁슬러그
▁과언
▁학사
▁저글링
ork
▁전송
▁얹
케이션
▁트럼프
▁에드워드
▁멘붕
▁미성
▁블럭
▁소꿉친구
▁연설
▁궁합
ition
▁RE
▁뛰어들
▁재앙
▁Super
▁사방
▁귀국
마리
▁신곡
▁파운드
▁한정판
토니
▁이현
99
▁절단
▁펑크
▁주사위
▁골프
▁녹화
▁OCG
▁학년도
▁솟
체스터
▁RA
▁보우
ㄲㅡㅁ
▁공헌
디움
▁석유
▁임진
▁맛보
▁시오
▁인명
가루
▁up
덕션
▁갈구
▁머물
▁장본인
▁테니스
▁토큰
▁오사
▁DJMAX
▁맞먹
스카
▁호무
▁Ph
▁아지
▁BD
▁Fr
▁엔트리
▁희생자
▁노하
▁pl
▁야망
▁무비
▁퀴즈
▁테크닉
바람
▁박성
▁도깨비
▁봉사
▁시간대
▁이대로
방송
▁햇
▁박명
▁오만
▁충족
▁히사
▁리부
▁자루
▁치이
▁카오루
▁돌려주
▁코레
▁주최
▁얌
▁풍선
▁루마
▁마당
▁에일리
▁샬
▁TP
▁억제
▁원한
▁유동
페이스
▁당초
▁화신
볼루션
세지
▁광물
ㅁㅏㄹㄹㅗ
▁놔
▁네크로
틀리
▁라이즈
▁스모
▁카인
▁환생
▁프로그래
▁신관
▁편의점
▁질주
▁대학생
▁자포
inal
▁저상
▁위시
▁가설
▁무식
▁소재지
▁모의
▁아리스
▁과일
▁라이센스
▁유즈
서스
▁스칼
▁흥분
▁련
▁제재
▁김승
▁달아나
▁무실
▁스윙
▁플레임
▁벙커
▁조화
▁찬양
▁정성
▁킴
▁씨앗
▁이이
▁엣
▁방심
▁123
▁경북
▁리뉴
▁굶
▁제리
▁고자
▁대검
▁인벤
▁동성애
▁강전
▁내기
▁스콜
▁직행
수리
usic
ble
▁그러면
▁기술력
▁김성근
▁목욕
▁선회
▁스타트
▁초록색
▁SA
▁비단
▁타키
▁캘리
▁국토
▁보르
▁이호
▁Qu
te
모습
▁중기
▁일어
▁일러스트레이터
▁104
▁스마일
지능
▁인공지능
▁치바
▁코끼리
▁반도
▁야마모토
▁Dream
▁옴
▁두껍
▁일산
▁두드러지
▁제니
▁멧
▁레버
▁프로덕션
▁시종
▁are
▁갈기
바리
▁고우
▁유아
▁국방부
▁1973
▁도미
▁롤러
▁재질
▁흘러가
▁쥰
다드
▁지루
▁급격히
▁교대
▁평판
▁일레븐
▁109
그라
▁포크
▁리츠
▁문양
▁계략
▁덥
▁아랫
▁이리저리
▁대명
▁나락
▁병과
▁동이
▁맷집
▁마지
▁분홍
▁원화
▁프롤
▁소소
▁카제
▁스타디움
▁스코틀랜드
▁뺨
▁발각
▁이윤
▁DPS
▁수중
▁숙청
▁의의
▁케이크
▁달려오
전사
▁세키
▁칼라
▁사이토
▁동구
▁이쿠
▁강릉
▁대면
▁무자
▁중원
▁차림
▁오타쿠
▁제너
▁135
▁갸
▁쥬얼
▁완성도
▁흉내
▁밀리언
▁이력
▁발전소
사르
▁Mi
▁진동
▁히드라
▁집계
▁샘플
▁총장
▁명시
▁강인
▁게르
▁거꾸
▁앤드
▁에버
▁스토어
▁토마스
▁트러
▁레슬러
▁중점
▁완화
▁떨구
기에
▁카토
▁155
▁순천
▁상금
IK
▁여주인공
ㄱㅜㄴ
▁바이크
▁김두
▁친애
▁고인
▁도대
▁무신
▁공교
▁여장
▁자율
▁학위
▁무궁
▁과격
▁여태
▁피오
▁라이드
▁외야수
▁갱신
▁관료
▁반경
anc
▁무늬
▁인도네시아
▁챔피언십
▁다케
▁킹덤
▁도배
▁완구
▁툰
▁때려잡
▁침착
▁배리
▁난리
▁항공사
▁중견
▁지오
▁뚜렷
▁젝
히토
▁리볼
▁관문
천사
▁AB
▁해태
ㄹㄱㅔ
▁갯
▁하이드
▁스페인어
▁체코
uck
▁악행
▁휴게
▁짝사랑
▁국정
▁이듬
▁불리우
티니
▁단련
▁걸어가
▁남한
테이션
▁발키리
▁각인
▁독보
▁1200
▁두려워하
IL
▁퓨전
▁185
못미
▁지못미
TA
PER
▁사가
▁정전
▁태권
▁이대
▁go
▁스파크
ise
▁부가
▁명탐정
방울
▁조립
▁wiki
▁심히
▁강타
▁이틀
의자
의회
▁MM
▁도스
▁찔리
▁켄지
▁손잡이
▁부끄럽
▁내밀
▁몰아넣
▁뮌헨
▁제의
▁천상
▁휴대폰
▁신주
▁Ver
▁스탈린
▁아이즈
▁스로
▁UP
▁아타
▁맞히
▁1974
▁방언
▁중구
▁거꾸로
▁연기력
▁팍
▁민국
▁사체
▁무작위
▁내외
▁공산주의
▁울음
▁지온
쿠스
텍스
▁성지
▁iOS
▁하수인
▁시안
▁놔두
▁단자
▁AL
▁HE
▁교역
▁교도소
▁중소
▁반성
▁찰스
▁부제
▁창세
▁바인
▁시네마
▁썸
▁세츠
▁모욕
▁섬기
▁나이츠
ung
▁보강
▁지크
▁포니
무이
▁예고편
▁꾀
▁JT
▁강동
▁기관포
▁DI
▁유니콘
▁뻔하
▁얼리
▁초등학생
▁경사
▁코노
스티스
▁이계
▁좌측
▁라마
▁기행
▁릴리스
리칸
▁MG
▁구로
▁극심
▁개판
▁냉장
▁tr
▁주석
백과
▁아폴
▁도대체
▁사천왕
▁입사
▁향후
▁장갑차
▁부채
▁분할
▁야마다
▁ㄹㅗㄹ
▁레슬링
▁간파
▁도약
▁찬성
▁성대
멘터리
▁이듬해
▁적이
▁패왕
vel
▁뤼
▁미유키
▁살아오
▁엉뚱
▁버블
▁공격기
▁종전
oun
▁극악
▁배급
에른
▁심정
▁폐선
▁필사
▁보스턴
▁권하
▁겨루
▁CL
▁가구
파이
▁격렬
▁마징
보기
▁노무
▁마징가
▁소통
▁돌려
11
▁깽
▁르노
▁앗
▁노랗
▁107
▁테이프
▁신생
▁훼손
▁CR
▁서머
▁유메
▁채찍
느님
oo
▁as
▁동아시아
▁Team
▁186
▁깡패
▁유능
▁플리
▁결과물
▁래퍼
▁벨기에
▁은폐
에몽
▁BB
▁망설
▁내각
▁장풍
▁비참
▁중공
▁때로
▁이니
▁눈앞
▁양대
▁그간
▁하느님
▁할로
▁주술
▁미판
▁다큐멘터리
▁잼
▁일리
▁와이번스
▁빈약
way
urn
▁자산
▁재벌
▁헤라
보우
▁소비자
▁신학
▁119
▁반장
▁헥
▁김병
▁불길
▁갈라지
▁엠블
▁레시
▁all
사스
▁유스
▁브레스
▁지면
▁모던
▁인텔
르타
▁초과
▁눈동자
▁욕망
▁ㅋㅔ
▁왕족
▁잎
사벽
▁넘사벽
▁얼티밋
▁Black
▁원작자
▁탐사
▁1975
▁모기
▁충고
▁no
구역
▁대등
▁중국인
▁진짜로
▁나카무라
▁116
과이
▁오퍼
▁취재
0000
은이
▁이념
▁파괴력
▁산소
▁용산
▁헤일
▁LTE
▁필립
▁바이에른
▁인성
▁정형
▁조국
▁홍진호
▁주유
gh
▁후대
▁신조
▁출고
세서리
▁망명
▁스노우
▁챔스
▁주입
▁리우스
▁이원
▁삼키
구나
▁Col
▁주머니
▁냉동
▁사지
더링
▁아울
▁집사
▁숙련도
▁상부
▁나인
▁문재인
▁사나이
▁버거
▁식스
▁187
ale
▁케리건
노스케
진영
▁델타
▁math
▁일례
FL
▁시범
▁유라
▁소령
▁망상
▁대피
▁라가
▁재즈
▁추후
▁쓸데없이
▁do
▁Night
▁저항력
▁청룡
▁메테
▁근로
▁충격파
▁수립
티어
ject
▁순정
▁유치원
속기
▁종착
▁(
▁MO
▁남학생
▁성사
▁ERA
▁비자
▁혼동
▁종로
시티
▁경상북도
ier
▁금강
중간
▁주교
▁FPS
▁구호
▁에코
▁주저
▁리플렉
▁요코하마
▁HS
▁퇴역
▁투니
▁병행
▁통틀어
▁Type
▁아처
ult
▁말년
▁트러블
▁협조
▁어벤져
▁동사
▁고래
▁그루
▁도사
▁키드
▁절정
▁쳐들어오
▁군데
▁앨런
▁한양
▁not
▁피난
ㄴㄷㅡㄹ
▁니코니코
▁리볼버
▁750
▁입원
▁대목
▁직위
▁욱
▁욕심
▁마가
▁플라스틱
▁저스티스
▁독백
▁영등
▁해고
▁TS
들목
키스
▁ㅅㅑ
▁122
▁~"
▁짤리
▁나들목
▁Girl
▁마작
▁중년
▁절벽
▁투고
▁용암
▁연전
▁중심지
메다
▁질풍
▁중화민국
긋나
▁고립
▁시어
▁게리온
▁소서
▁113
▁서리
▁포도
드립
▁고이
▁연간
DD
▁동계
▁재배
▁적립
▁약칭
▁평택
▁레인보우
돌프
▁국기
▁급속
▁퍼시
니발
▁오른팔
▁왕가
▁노블
생기
▁카사
▁홋카이도
▁이용자
▁아인
▁말씀
▁쿠바
▁진단
▁집필
▁카즈야
▁빙의
▁초청
▁미코토
▁1977
▁까마귀
슬링
▁두목
▁누스
▁손목
▁beat
ose
▁불문
▁내역
▁병장
▁유카리
▁어기
▁격투기
▁Gam
▁사탄
▁트이
▁제자리
▁1976
▁이만
▁144
▁미식
▁렀
▁방공
▁완벽히
▁강탈
▁섭취
▁끌어내
▁실로
▁사투리
▁인체
▁포착
▁450
▁합계
▁희대
성이
▁일각
▁본질
▁스나
▁꼼수
▁대교
▁옵티
▁Con
▁잠기
▁전수
▁쫓기
상가
▁긋
▁불참
▁야전
▁존슨
▁4000
ox
▁교향
▁캇
자치
▁승패
▁크롤
▁하후
▁두루
▁헐크
▁정조
▁한나라
▁공짜
▁저격수
GA
▁인플
▁지극
▁조던
마치
▁한나라당
▁뮤지션
▁브레이브
▁안젤
▁무실점
▁누이
▁딥
▁베이비
▁차장
▁Max
▁Do
▁퉁
▁히로시마
▁미트
able
▁공명
▁동상
▁민중
▁염두
▁점심
▁탈환
▁320
뮤직
▁무지개
▁악하
▁감기
▁숭배
▁ne
▁호구
▁훈훈
▁래스터
▁토오
▁의정부
▁일조
네이터
▁Op
▁팜
▁부산광역시
▁MSL
터스
ron
▁도마
▁하행
▁서치
▁도검
▁핑계
▁검토
▁행진
▁능하
▁리터
▁로렌
very
▁이태
▁EV
▁키노
▁리셋
ign
▁단총
▁속편
▁152
▁철갑탄
▁동인지
int
▁오딘
▁제인
▁패미
▁위쪽
▁김광
▁OF
▁제발
▁기원전
▁대인배
지않
▁하지
물리
▁교차로
▁145
▁패트
▁립스
▁상행
ㄴㅡㄴㄷㅔ
▁사퇴
▁처녀
▁주식회사
▁사내
▁세례
PA
▁계곡
▁아랑
▁평점
▁격하
▁스톡
▁후쿠오카
▁BC
▁동호
▁경지
▁벌써
▁월간
▁배신자
▁원자력
▁스치
▁제주도
EL
▁삿
큘라
▁액체
▁자켓
▁측근
▁거세
▁회관
ㅇㅡㄴ
▁냉장고
▁베이징
태자
▁각국
▁ㄷㅔ
고사
▁꺼지
▁화약
▁도라에몽
▁사직
박이
▁신칸
▁신세계
카미
▁일품
▁앞면
▁텔레포트
▁데미
▁응급
▁춤추
▁콰
▁에일리언
▁조교
사고
▁맹독
▁김전
▁사일
▁남양
▁황혼
▁1972
▁내뱉
퍼드
▁건너가
▁우지
▁쿠르
▁패닉
▁전도
▁레이너
▁팰
▁신칸센
▁사물
▁테러리
▁참으로
미터
▁태풍
▁초필
▁아이디
▁금요일
▁물약
▁시조
▁토비
▁생각나
▁궤적
▁베어
▁KTX
▁토가
▁사소
▁솔직히
▁청나라
▁마초
▁타구
▁수하
타니
▁남미
▁노골
▁수감
▁시초
▁콧
ild
▁인사이드
당기
▁랜서
닐라
▁키미
▁토막
▁210
▁메디
▁법사
▁김전일
▁연이
▁페르시아
▁총사
▁투사
▁밭
▁줄기
▁더미
15
▁파고
▁김구
▁더구나
iel
▁판권
▁La
▁PSP
▁정우
▁{{{#
▁주파
▁초점
▁대변
▁서태
▁일환
▁Gre
드로
▁아슬
▁브루스
퀘어
▁BJ
▁설마
▁영화제
▁고난
▁음향
▁카일
▁부동산
▁Am
▁사탕
▁볼드
▁두려움
▁스매
▁장동
▁스바
▁해상도
▁코즈
▁연소
▁윤리
▁태생
▁김지
▁관광객
▁상의
▁비꼬
랄드
▁등재
▁서울시
▁격기
▁저승
▁타리
▁껍질
▁라틴어
▁이점
▁나레이션
▁다니엘
▁프랜차
▁캘리포
▁사극
하여
▁객관
▁깨알
▁프랭크
▁맑
▁피지컬
▁심야
▁랜스
▁쟁이
▁접수
▁텍사스
▁감금
▁과금
▁보트
▁안드로
▁럭키
▁프랜차이즈
ANC
▁안동
▁어퍼
▁정준
▁메이트
▁바닷
▁슬램
▁알라
▁왕후
▁탁월
▁핀란드
▁본의
▁연금술사
▁다이스케
컨드
▁디스플레이
▁리키
▁어서
▁박명수
▁~!
▁파밍
▁우두
▁타스
▁세컨드
▁BM
▁선원
▁우미
▁환호
▁주황
▁컬렉션
▁암컷
▁에필
▁에필로그
▁약체
부인
▁사우스
ae
▁치마
▁목동
▁무색
▁시뮬레이션
▁보복
▁스팅
▁캘리포니아
▁발발
▁중급
▁165
▁별칭
▁전학
▁DR
▁고질
▁이별
▁공국
▁바이킹
▁명나라
▁아쉬움
▁팝픈
▁옵티머스
▁팝픈뮤직
▁주한
▁밀어붙이
▁개그맨
▁맞물리
▁무단
▁GHz
▁보디
▁브레인
▁히나타
▁골치
▁탄막
▁Wii
▁스택
▁아테나
▁feat
▁잔류
▁타카시
▁시끄럽
▁어린아이
▁섹스
▁장시
▁십자가
▁노무현
▁강습
▁외관
▁지미
▁배후
▁구청
▁능숙
▁슬슬
▁강점기
▁카구라
▁카이토
▁사슬
AND
▁조준경
차리
▁마수
▁마의
▁노르웨이
▁진하
ANI
▁마켓
▁경제학
▁몰려오
▁시흥
▁요우
▁아메리칸
▁CN
▁청구
▁저자
▁내면
▁오리진
▁저거
▁유해
▁바나나
▁혼인
교사
▁호응
▁점하
▁방침
▁저러
▁1969
aby
▁무수
▁서바이벌
▁개미
▁Time
▁UC
소총
▁신상
▁월등
레이크
▁평론가
▁..?
▁네이션
▁rd
▁달라
보라
▁스네이크
▁화석
매니아
▁가라앉
▁스토커
메라
▁끝장
▁술집
▁파우
▁바론
▁토오루
ull
gin
▁고종
▁좌익
▁나란히
▁교정
▁점멸
▁음색
ical
나리
티지
▁편견
▁1971
▁무슬
▁드라큘라
▁자작
▁전두
▁체격
▁}}
▁수컷
STER
▁무사시
▁10000
▁문법
▁빗나가
..
▁모어
마르
▁투신
앙스
▁GN
▁캔디
▁필두
▁계절
▁낯
▁뚝
▁퓨처
▁중후
총장
▁격퇴
▁방울
▁선인
▁드리블
▁인트
▁직격
▁협동
▁MHz
▁from
▁로지
▁반기
▁질환
맥스
▁관절
▁본가
▁유코
▁댐
▁단의
▁신념
ㄹㄹㅏ
▁응원가
레일
▁평등
▁마저
▁풀려나
▁엣지
▁라비
▁순간이동
▁후루
▁타치바나
▁모스크바
▁궁수
▁주차장
▁펭귄
▁반론
▁최하
▁덴마크
▁인구수
▁늪
▁비로
▁무슬림
▁컨디션
▁뉘앙스
철수
▁멸종
▁자부
▁가해
▁정서
▁강아지
▁미도리
▁쫓아내
▁두뇌
▁빙결
▁레기
oul
▁마르코
▁마신
▁주공
▁BEM
▁테레
빨리
▁냅
▁상장
▁종말
▁일본식
베트
▁부관
▁조수
▁아카리
소수
▁관계없이
콥터
공사
▁천문
▁KB
▁센트럴
▁테러리스트
▁빈번
▁생태
▁김주
▁가혹
던지
▁양심
▁차분
▁위키백과
▁오키나
▁에메랄드
▁다녀
▁현황
▁반란군
▁헤드샷
▁유고
▁저기
플렉스
▁프로토타입
▁동등
▁목포
▁징계
▁NEW
▁말레이
▁DX
▁분포
▁스파이크
▁성숙
▁제조사
▁Gu
▁벚
▁Gl
▁상어
천군
▁우투
▁HARD
▁알아차리
▁슬라이드
▁수령
▁혼다
▁AFC
▁스케줄
▁아르카
▁멋있
▁카렌
▁꼴찌
▁미모
▁타당
ㄴㅕ
▁아마존
▁JTBC
▁서명
▁굳히
▁파문
▁하라
바스
▁영등포
▁정답
▁웨인
▁ATK
▁솜씨
▁ㅡ
레슬링
▁유진
▁콘스탄
tern
▁발차기
▁어긋나
▁Ro
▁샤아
▁유유
▁수여
▁국산
▁스바루
▁대쉬
▁숙소
▁프롤로그
▁샹
▁벨라
▁유마
▁확고
재기
▁숙주
▁TCG
▁신병
▁흑마
▁ㄱㅜㄴㅇㅛ
▁라우
▁복용
▁프로레슬링
▁레오나
▁수수료
▁이방
▁워낙에
▁나사
▁new
▁갈아타
TC
▁폐허
▁하드웨어
▁로열
▁타고
▁극우
ㄴㅕㅇ
▁리부트
▁고음
▁네스
▁케로
▁별자리
idth
▁발톱
▁이어서
▁모함
▁매지
▁몹시
▁에그
▁근성
▁맥락
▁예방
▁카테고리
▁Co
▁메세지
▁하와
▁궁전
▁미끼
gr
▁구제
▁패드
▁단말
▁미숙
▁보행
▁회계
▁cl
▁EU
▁관직
▁에도
▁가해자
▁BEMANI
▁싣
▁마마
▁상대식
▁헬리콥터
▁체형
▁가의
▁합법
▁간호
▁믿음
▁응시
▁군림
▁우편
▁시가
▁집합
플러스
▁섬멸
▁외래
▁콕
▁동체
▁로컬
▁고발
▁실장
▁파손
▁모양새
레이트
▁Mr
▁드릴
▁미스트
▁사르
▁이광
시스코
▁풍경
▁그랜
▁선봉
▁노비
▁천마
▁미즈키
▁분배
▁유신
▁샤워
▁기법
▁파격
▁러시아어
▁코지
▁할로윈
▁수성
▁지붕
app
▁생선
▁피카츄
▁밧
▁오케스트라
▁전염
ough
▁경상남도
▁Ser
▁꿇
▁IP
▁연의
13
▁기하
▁브론
▁도시락
메어
ERO
▁에바
▁기피
교통
▁난민
▁출제
▁연고지
▁중도
▁원장
▁이세
▁환수
▁유정
▁IV
▁직속
▁청사
대교
▁유방
▁단서
▁하이라이트
▁Sk
▁캐스트
eel
▁소집
▁기함
▁깨우
▁루루
▁114
▁스트로
▁제우스
▁액셀
▁크라운
▁유선
▁후면
▁UM
▁캐슬
▁ㄹㅏㄱ
▁오디오
▁LE
▁조력
▁인쇄
▁width
▁가창
▁뒤쪽
▁나이트메어
▁격침
▁매기
▁오쿠
▁can
▁제사
▁내뿜
▁창립
▁성명
글라스
▁노래방
▁다저스
▁랙
▁CE
▁농민
▁배송
▁스쿼
▁소노
▁한층
▁미사키
▁밀어주
현우
▁가미
▁부류
▁AF
▁박쥐
▁제작비
▁NT
▁장례식
퍼니
▁개교
▁Heart
▁성비
▁이에
▁Dark
▁하이브리
▁부사
▁하이브리드
▁컴백
me
▁쓰러트리
▁명곡
▁차용
▁Sch
▁추모
▁츠바사
▁이인
쳐나
▁키사
지오
▁Car
▁거품
▁무선
▁걸음
▁ㅅㅜ
▁뒷면
▁츠나
▁해변
ll
통수
▁레바
▁수시로
▁드로
▁오바
▁응답
▁통수
▁파이프
▁히데요시
와라
▁일삼
▁안토니
처럼
▁대니
▁앞뒤
전트
▁지배자
▁낙선
▁불쾌
▁상시
▁방호
▁섹시
▁페인
활약
▁라드
▁자각
▁길거리
▁상쇄
▁홈즈
ye
▁버릇
▁레이트
▁알렉산드
▁아비
▁하의
▁브릿
▁난감
▁명명
▁전례
▁가브리
▁괴상
▁불화
▁오비
▁연세대
소문
▁사각
▁되살리
▁결의
▁보루
ution
▁주의자
▁이노우
▁로브
▁리프트
▁타다
저것
▁블랙홀
▁이것저것
▁패스트
▁PK
▁보고서
▁땀
▁말아먹
▁투성이
츠카
▁그제
▁로저
지사
▁가마
▁Em
▁발하
쌔신
▁조항
▁어쌔신
▁중학생
줌마
▁UFC
▁손톱
▁코요
▁깃털
▁클라우드
▁부친
▁}}}
바시
▁연회
▁튜닝
▁내구력
무게
▁몸무게
▁아줌마
박히
▁슈터
저드
▁간선
▁배리어
ee
▁윈터
▁천주교
▁카이사르
▁Is
▁커먼
▁하시
▁노트북
▁하여금
▁BT
▁교관
▁폴리스
▁악령
▁원흉
▁아이작
▁제이슨
▁Bat
▁기이
▁콜로니
공화
▁this
oh
▁강서
▁공존
▁키무라
▁1968
▁벌금
▁타고나
보그
▁성역
▁지각
▁지성
▁산탄총
▁혹평
ings
▁프로리그
▁꾸리
▁전광
▁강세
▁김두한
자재
▁마모루
▁SL
▁발탁
▁포대
▁네코
▁줄줄
▁김대중
▁미호
▁비타
▁뚜껑
▁시에
▁원망
▁공영
▁교양
▁여배우
▁민병
▁아이폰
reak
▁홈경기
▁쑤
▁한강
▁컴퍼니
▁플레어
▁괴력
▁뒤통수
▁배우자
▁발현
▁문신
▁가로막
▁코타로
풀이
▁로라
▁라프
▁심화
▁로비
▁자주포
▁라임
▁상공
▁시궁
▁오시
▁주가
▁초상화
▁미들
▁일일이
▁발렌타인
듈럼
▁시스터
▁코바야시
▁동북
▁오프라인
▁보잉
▁북아
▁망설이
▁깽판
▁무림
▁듀크
▁면접
▁끓이
▁핸들
▁EBS
▁사범
▁적성
▁하우
▁전라남도
▁감성
▁리자
▁센티
▁행방불명
▁선포
▁무너
▁재활
▁타케시
▁무너뜨리
▁방화
▁우가
▁틀어
▁고토
▁TO
▁표하
▁빅토리아
▁폭로
▁저서
▁꽁
▁포맷
단지
icro
▁달라붙
두사
어쓰
▁Su
▁기합
▁총독
▁슬라임
▁암울
▁캐리어
▁저것
▁증발
▁김일성
ict
▁유난
▁테루
▁직결
▁열악
니클
▁문고
▁전두환
▁펜듈럼
▁져
▁로맨스
▁친목
▁그랑프리
▁맨체스터
CH
▁남발
▁캡콤
▁시코
▁연달
▁허브
▁저조
▁~~
▁랜턴
▁처절
▁당나라
▁교통사고
▁나열
▁앵커
▁203
▁Light
▁환사
▁십자군
▁니나
▁실력자
▁뱉
노기
▁야만
▁둥지
▁짤방
▁자위대
▁꿰뚫
▁운석
▁성직자
▁계란
▁미세
▁외면
▁맹활약
▁우두머리
▁이행
▁요리사
▁오키나와
▁도타
▁대외
▁듀스
▁스텔라
▁침해
▁안무
▁무협
▁회로
▁Kore
▁ver
ors
▁둥글
▁요시노
▁Im
▁달래
▁사이보그
▁요시다
▁이치고
▁개막전
▁레즈
▁퍼붓
장난
▁직역
▁박치기
▁애쓰
▁수영복
▁단식
▁LED
▁테오
▁ADV
mania
▁구절
▁북두
▁연막
▁쫄
▁샤프
▁부처
▁따라잡
▁애국
▁힌트
▁켄이치
▁마사키
▁험하
▁럴
▁넉넉
▁다녀오
▁Sy
▁코디
▁117
▁GTA
레드
▁127
▁BO
▁자칫
▁접어들
▁공고
▁신수
▁프랑켄
▁어드밴스
셉트
▁변호
▁개개
▁뉴질
▁뉴질랜드
▁냉전
▁적재
▁케이지
▁Ev
▁파랑
▁사료
▁볶
▁어미
▁AE
▁성수
▁착지
스트림
▁126
무네
▁롤링
▁배속
▁고속버스
▁184
▁주되
▁혼합
▁진정하
▁괴리
▁물가
▁pro
▁죄수
▁도요
▁그리하여
▁실바
▁므
▁푼
▁잔해
▁깃들
민주당
ACK
▁여관
▁메모
▁줄어드
▁쳐다보
▁공모
▁추적자
▁영미
▁호쿠
▁타나카
▁뭔
▁고조
▁번갈
▁확립
▁사쿠라이
▁아이스크림
▁스퀘어
▁야쿠자
▁대안
▁우습
▁장신구
▁이사장
모어
▁땅볼
▁기쁨
▁고든
▁김윤
토랑
▁야마구치
▁제지
▁레스토랑
14
▁담임
▁라파
▁특훈
▁왓
▁찢어지
ics
▁그려
▁찰나
▁드레드
더슨
▁플래닛
▁빈틈
▁우상
▁수용소
▁자회사
▁max
▁먼지
▁실루
▁신이치
▁지극히
▁진로
▁동족
▁속력
▁자격증
▁범하
▁ar
▁수확
▁대법
▁시부
▁앤디
▁어벤져스
▁하반기
▁will
치아
▁금고
▁니카
▁줌
▁군복
▁비로소
일라
▁좌파
▁블라디
▁몰아붙이
▁병종
▁설화
▁정체불명
▁크리스토
▁만행
▁셸
▁유토
▁무진
▁설탕
▁휴게소
▁간호사
▁중앙선
▁유무
▁유타
▁183
▁GPU
▁온몸
▁해역
디스
▁청하
▁화소
니카
▁테르
▁DNA
▁저렇게
야샤
▁가브리엘
▁이누야샤
휴일
▁가나
주의자
▁178
▁스크래
▁인어
▁성기
▁공손
▁준하
▁호프
▁As
▁버터
▁쪼개
▁실업
▁중전차
▁광전사
▁기괴
▁불평
▁아이유
산동
▁영화판
▁이준
▁김연
▁지주
▁명작
▁내셔널
▁1967
▁스쿼드
▁퓨리
▁사스케
▁오덕
▁대대로
요환
▁쾌속
▁리쿠
▁미수
▁팩션
코어
▁연말
▁후타
▁Let
▁동년
ex
▁트레이닝
af
▁텀
▁실정
▁중재
▁심상
▁클레이
▁잊어버리
▁과감
▁섀도
▁통보
▁HG
▁마비노기
▁당국
▁못지않
▁창세기
무기
▁데스티니
▁무궁화
▁여수
▁시가지
▁포트리스
▁WH
▁마장
▁접점
ammer
소년
▁프린스
▁us
▁슈가
즈마
▁Of
▁상용
▁샤크
넘기
▁몰아내
▁물리학
▁임요환
▁사망자
▁세미
▁Red
▁로코
ㅇㅘ
▁Your
▁책상
▁태조
▁182
▁코이치
요이
▁넵
▁사모
▁운반
▁이성계
IGH
▁농협
▁토트
▁호스
▁신주쿠
▁어설프
▁수량
퇴근
▁MX
▁출루율
▁괴담
▁오의
▁총선거
▁무명
▁부평
▁급기
▁거르
▁냉기
▁순찰
▁게임기
▁사교
▁루터
▁샤를
▁시엘
▁우체
트랙
▁페이트
▁농락
▁168
▁골목
▁제프
▁대중교통
▁리바
▁자판
▁진수
▁Rock
▁엄폐
▁인터페이스
▁카우
▁베이더
▁스크래치
▁른
▁호로
▁쎄
▁키즈
▁계열사
▁레시피
▁사이퍼
르도
▁단과
▁매스
▁황실
▁고속도
▁예비군
▁해치우
▁타니
▁바티
▁LIVE
che
▁Tw
▁단속
▁아몬
ㄴㄷㅏㄴ
▁법무
▁빠뜨리
ica
▁내정
▁하비
▁..!
other
ody
▁공휴일
▁FW
▁농사
▁이선
▁박종
▁후일담
▁찰리
▁더욱이
쿠로
▁밈
테이
▁사출
▁쫓아가
▁플루
▁습관
▁오세
▁시궁창
규모
▁1963
▁세세
▁통행
▁330
▁키바
▁슬퍼
▁배기
▁서해
▁염색
▁브라더
▁유난히
▁이노우에
고래
▁페가
▁한도
크리
▁타국
LS
▁거스르
▁셋째
▁고성
▁제스
▁Don
ㅋㅓ
▁성형
▁출중
▁해적단
▁전임
▁달콤
아슬
▁관동
▁망가
▁브랜
▁아슬아슬
▁리턴
▁Min
▁주고
▁열등
16
▁다면
▁통신사
▁낡
애나
▁막부
▁신임
▁커트
▁경찰청
▁카노
oth
▁시련
▁코다
▁코프
▁유니온
▁본디
▁수식
▁파수
▁러너
▁진리
▁추출
▁Sun
▁징징
▁끼어들
변이
▁돌연변이
자동
▁졸개
▁듀티
▁부흥
▁키트
▁클레어
▁애쉬
▁하세
▁소설가
▁륙
▁아즈사
▁하야토
▁have
▁피드
▁혹사
▁용의자
▁카오리
▁나뭇
▁분장
ins
▁오인
▁고릴라
▁클러
▁라바
▁이명박
▁빼내
▁불로
정역
▁블래
▁이질
▁장편
▁정립
▁통증
▁2500
▁복싱
▁핸드폰
▁코나미
현진
▁단테
▁탄탄
▁학점
▁SCP
▁치사
▁쓸어버리
투표
▁쿠루
▁선수단
▁그려지
▁가르침
▁신대
▁미하
▁결사
▁독립운동
▁줄리
레인저
▁MK
▁도호
▁메우
▁스캔들
▁멀쩡히
▁고폭탄
▁162
▁접근성
더기
▁브라우
▁모범
▁조폭
▁공습
▁탐구
▁TOP
▁앞세우
▁푹
미르
▁BAS
▁자질
▁좌석버스
▁진구
카즈
▁동탁
▁퐁
▁Rev
▁귀하
▁OB
▁감행
▁방안
▁정명
▁ㄷㅡㄴㄱㅏ
▁미티
▁클라이
티콘
▁애프
▁제대
▁정교회
▁출연진
▁야심
▁함포
▁전속
▁연예계
▁대국
▁극소수
▁단정
▁브이
▁임관
▁필터
▁후예
▁애당초
▁UF
▁진도
▁통용
▁군기
▁따내
▁미스터리
▁근력
▁하타
기어
▁가급
▁자유자재
로프
▁리전
▁카무이
agon
▁매너
▁증권
▁호출
▁158
▁에로게
스틴
▁Per
▁세일
▁대명사
▁미성년
▁악곡
▁Sum
▁슬퍼하
▁트로이
▁물어보
▁판사
▁구타
▁한발
▁실루엣
▁석상
▁승려
케인
▁재빨리
프라
▁월요일
▁소매
▁프로모
▁STER
GB
▁인맥
▁장학
▁연방군
재판
▁형편없
▁뽐
평가
▁샤오
상가상
▁마이어
▁카가미
▁사우루스
▁설상가상
▁월급
▁Gen
17
▁어인
▁TEC
▁am
▁살상
▁볼텍스
▁호박
▁바닐라
▁beatmania
▁Sl
▁바주
▁특촬
▁태자
ECT
▁교내
▁넓히
▁연발
▁패기
▁출퇴근
▁노기
▁토이
▁후문
▁제다이
▁딱딱
▁부도
▁더하
▁비즈
▁성폭
▁애시
▁1944
▁서킷
토시
▁이례
ater
▁one
▁게임즈
▁책정
▁박탈
▁시몬
▁충남
▁트렌
▁DO
▁경연
▁수강
▁하지메
▁장병
▁격전
▁루키
▁숏
▁누명
기지
테리
▁어그
▁파벌
▁마이트
▁디렉터
▁1966
▁삼촌
▁동래
▁신흥
▁동봉
▁멀리서
▁커비
▁발칸
▁태종
▁레지스
▁일절
▁독수리
ium
▁이치로
▁고어
▁가토
▁복음
▁단골
▁세스
▁우파
▁열세
▁분기점
▁소규모
▁베인
▁얼터
티노
▁신정
▁저리
▁태극
▁love
▁닉스
▁홍성
패스
▁OK
▁132
▁벡터
ions
▁세탁
▁사사키
▁하워드
▁대군
▁사에
▁재고
▁선우
클린
▁벚꽃
▁한몫
▁갈리아
▁패미컴
▁도쿠가와
▁레이터
DS
▁부럽
▁LOVE
기사
▁꽂히
▁자처
▁토네
그룹
▁영동
▁전열
▁질량
▁당주
▁소사
▁음주
▁자카
▁ㄷㅣ
심장
UR
▁전세
▁징크스
▁승급
▁159
▁리티
▁빅뱅
▁ㅇㅠ
▁대공포
▁청와
▁서대
▁입양
▁따라다니
▁탄소
▁히카리
▁네놈
▁하카
▁받치
▁절규
▁입국
▁카를로스
▁공성전
▁로저스
▁셉
▁그리스도
니즘
▁샴
▁건재
▁133
▁반다이
▁카린
▁와이어
▁유대인
▁DT
▁성벽
ould
▁뽕
▁출근
▁반군
▁얼핏
▁집회
▁리엘
▁최정
▁사용자
려보
▁뜯어
▁발악
port
▁High
▁천둥
▁Oh
▁말장난
▁동조
▁박찬
▁술법
▁124
▁아래쪽
▁PL
▁오너
파크
▁필연
▁EXT
▁시그마
▁아폴로
▁리에
ange
미즈
▁배율
▁퇴사
▁동갑
▁구단주
▁바주카
▁액세서리
▁나고
▁IDOL
▁가변
▁동문
▁사당
▁러닝
▁대본
▁번식
▁냉각
▁제식
▁김택
▁시즈카
▁FX
▁경보
▁맞대
▁쩔
▁휩싸
바다
ott
▁공방전
▁게릴라
▁본성
▁인천광역시
▁악어
▁데우스
▁베가
▁기온
▁서민
▁HK
▁태미
▁블레이즈
▁픽셀
▁마크로스
▁퇴출
▁크로니클
프란
▁우물
▁학급
▁모닝
▁방송인
les
▁상가
▁직구
▁슈퍼스타
▁얕
▁셰프
▁사다
▁마운트
▁Par
▁마이너스
▁프로그래밍
▁미로
▁허공
▁광대
▁구급
▁280
▁박영
▁흑화
어붙
▁동요
▁조직원
▁최대치
부지
▁BW
▁1962
▁짚
▁EM
▁보살
▁파이브
▁반항
▁비장
니스트
ator
▁MLB
파리
▁세레
▁주술사
▁의아
노미야
▁156
▁분쇄
▁차선
▁밀집
IE
▁악용
▁1940
▁결함
▁굳어지
▁경질
▁데카
▁배상
▁br
▁계좌
▁인기투표
▁드루이드
▁El
▁볼륨
▁연비
▁힐링
▁스칼렛
▁악랄
▁학번
▁Ang
▁was
▁Master
어찌
▁광복
▁기소
▁새우
▁Arm
▁반말
▁복도
▁총열
▁일렉트로
▁무죄
▁청와대
▁뷔
▁코카
▁지그
즈카
▁원호
▁헌데
▁함재기
▁런닝
▁퍼센트
UT
▁한탄
▁구두
▁파인
▁230
▁다이노스
▁심슨
▁흡연
▁엿보
▁필라
▁전편
▁무안
란트
▁GG
▁시간표
▁RP
▁금색
▁실습
▁허세
▁나츠미
▁쫓아오
▁쑥
▁체질
▁여고생
▁이승만
▁기라
▁118
▁성서
▁제시카
▁어찌어찌
인간
▁관념
▁매달
징어
▁실황
▁체스
▁현상금
▁카도
▁토로
18
▁무르
▁배열
▁정재
▁가성
▁추궁
▁아이언맨
두리
▁광속
▁운운
▁ARM
댓말
▁존댓말
▁감히
▁광탈
▁메테오
▁장타율
나드
널드
▁화내
▁138
▁밋
▁터미네이터
▁콜드
▁경쟁자
▁접전
프레스
▁펠리
▁기술자
▁자드
▁취지
▁퓨어
▁화자
ICE
▁소실
▁포워드
▁스매시
▁텅
▁열풍
▁노이즈
19
▁대패
▁베일
▁성도
▁남작
꿈치
▁미끄
▁네이트
립트
▁웨어
▁문어
▁게시물
▁전반기
▁훅
▁똑똑
▁이용해
▁히노
▁팔라딘
▁페미니
▁동로
▁비시
▁장안
▁회오리
▁치명상
▁라오
▁탯이
▁강수
▁바우
▁탄도
▁리조
▁심문
▁허구
▁콘셉트
▁시집
▁Sec
▁경성
▁148
▁알렉산더
▁수험
▁수상자
▁공로
▁당첨
▁불신
▁시저
▁악세
▁마에다
▁점사
▁차후
▁카탈
▁어느새
조합
▁이진
▁운항
▁얼어붙
▁말레이시아
▁호노
▁토마토
▁국당
▁Fire
lect
▁효과음
▁1930
▁억지
▁학술
▁까닭
▁안산
▁소시
▁해독
날드
▁하렘
alk
▁제르
▁거느리
▁경유지
▁서울역
▁스콧
▁위화
▁교시
▁안면
ㅈㅓㅇ
▁로망
▁넥서스
▁빌보드
▁분홍색
▁제정신
▁스플래시
▁메소
▁콜롬
밀리아
▁호전
▁원활
▁성모
▁드라군
▁cc
▁급기야
▁550
▁수준급
▁CA
▁반대편
▁영남
▁말미
▁지상파
칼리
▁스타팅
▁구마
▁소동
olution
▁상권
▁가명
▁자손
▁하츠네
▁급히
▁대출
▁돌이
▁이마트
▁김선
니스탄
▁렀다
▁풍자
▁조운
▁바이올린
▁셜록
▁007
▁넥슨
▁북구
▁일쑤
▁제라
ty
▁균열
리우스
▁지휘자
▁축적
▁랩터
▁시중
▁대표작
▁루마니아
▁간략
land
▁일보
▁가뜩
▁호르
▁pr
▁스피커
▁왕관
▁원고
▁군사력
▁정류소
테스
▁270
▁되살아나
엘라
▁제멋
베리아
▁머릿
▁제단
▁초래
▁kr
▁부호
▁염려
젤레스
▁아야카
▁style
▁고추
▁백합
▁프로세서
▁악의
▁체이
▁나나미
▁레프
▁보증
▁야시
▁나고야
▁""
▁모친
▁이아
▁팔찌
누르
▁불어
▁개개인
▁이시다
▁발광
▁김원
▁털어놓
▁스피리
▁172
ony
▁채취
▁최면
▁가뜩이나
▁외래어
▁발라드
▁에이전트
▁주황색
▁1964
▁금호
▁피처
▁디펜스
▁테이크
▁딸기
▁창시
▁숀
▁그놈
▁서초
일으키
▁불러일으키
▁sm
▁가축
▁경과
▁병단
방향
▁FB
▁대용
▁전폭
▁양보
▁안드로메다
▁제원
▁Li
▁so
▁급식
▁춘천
▁레이첼
▁에리카
▁커터
▁키리토
▁일련
▁피에
▁오징어
▁열받
축구
▁진행자
▁국력
▁궁지
▁안성
▁투하
▁프리즘
▁해운대
▁할리우드
수스
▁리브
▁예언자
▁다단
▁도피
▁안드레
▁고산
▁대마
▁바비
▁BRV
pr
▁라시
▁파파
▁항아리
▁컨트롤러
▁프로모션
▁초교
테이너
▁일어서
▁메탈기어
▁껄
▁쿠시
▁호투
▁스탠다드
▁튜너
▁회화
▁회고
마침
▁우산
▁정정
▁우크라
▁이나즈마
▁뮬
놀이
▁브릿지
▁조력자
▁양국
▁우천
▁마츠모토
▁자잘
▁Rem
▁가넷
▁설비
▁연하
▁임원
▁체가
▁카지노
▁편대
▁Dis
▁정확도
▁테일러
▁닫히
▁열전
▁가급적
▁병맛
▁Blue
▁메가트론
르기
▁노숙
▁유나
▁때마침
▁샤이닝
▁코파
▁시력
▁와우
▁153
▁1965
▁Power
▁블래스트
BM
ert
▁바하
▁무작정
▁아테네
▁체크카드
▁천공
▁포효
▁Fi
▁보리
▁덩크
클럽
▁피치
비우스
▁XY
▁떄
▁주범
▁초코
▁개드립
▁무제한
▁프론트
▁Good
▁열람
홍철
▁FL
▁177
▁들이대
▁로그인
▁Champ
▁천적
▁군함
▁로딩
▁지표
▁스위트
차례
ㄴㅈㅓㅇ
▁솔리드
▁로제
▁야외
이프
▁하드코어
메스
▁은혜
▁칠레
▁히로유키
▁증세
▁스타크
▁복면
▁갈라
▁쇠퇴
▁나기사
▁둘러싸이
▁논하
▁주고받
▁양키스
▁깁
ㄴㅡ
▁카디
▁오버로드
포드
▁na
▁외롭
▁주거
▁제휴
▁프런트
▁사로잡히
▁귀도
▁도리어
ㅇㅓㄴㅈㅓㅇ
▁예지
▁총격
게임넷
▁온게임넷
▁뇌물
▁마도사
▁목적지
▁두근
▁증기
▁창업
▁바사
▁대주
▁체리
▁우체국
▁건전
▁여의도
▁요하
▁공과
▁영진
▁Pv
▁기총
▁도청
▁메스
▁바니
▁슬리
▁응하
▁넵튠
▁바그
▁ALL
행위
▁SO
▁휴일
▁충청남도
▁자취
▁쓸데없
OID
▁코시
▁주파수
▁교향곡
관총
▁생물학
▁용감
▁얀데레
▁경매
▁여권
▁저격총
▁발상
▁리마
▁진에
▁사용법
▁ME
라이즈
▁타쿠미
▁BA
▁소행
▁쏠쏠
▁STR
▁수작
▁mar
이센
▁Sm
▁민원
▁집정
▁우루과이
왜란
▁르네
▁완전체
▁%.
▁동창
▁개연
▁천계
▁프리스트
▁원제
▁해수
▁임진왜란
▁적색
석민
▁소극
토리얼
▁방황
▁서장
▁레이나
▁상표
▁그리드
▁부대원
ART
▁재직
▁코이
라이나
▁Play
▁종사
tr
▁강유
▁야당
▁출석
▁튜토리얼
▁글러브
▁열기
▁슬로우
▁방정
▁탄핵
▁스파르타
▁260
▁맥도
▁GDP
▁눈빛
▁미정
▁박재
▁산악
▁빼돌리
부대
▁기성
▁서드
▁생산량
▁기미
▁박경
▁병살
▁엑소
▁폴더
▁단백
▁횡단
▁북유럽
▁경량
▁입체
▁카스미
▁프론티어
▁상속
▁지망
▁???
▁러셀
▁바이스
▁EMP
▁양측
▁포식
▁미츠루
히사
▁초사
▁사슴
▁미시
▁갭
▁카타르
▁학계
▁아니하
▁적진
같이
▁청량
스트로
▁샌프란
▁샌프란시스코
마당
▁다이어트
▁헤매
▁괄
▁금화
▁첨단
▁프리즈
▁리트
▁아의
▁야하
▁합하
▁적시타
버릇
▁송도
▁친정
▁심심찮
▁후유증
▁휩싸이
▁650
토르
내리
▁감전
▁정벌
▁팀장
▁호기심
▁독재자
무장
▁내수
▁다이나
ERS
얼거리
▁어리석
▁밀란
▁페더
▁막아
▁다툼
▁나데
▁마커
▁송출
▁137
25
▁아카이
▁돌격소총
▁지문
▁WCS
▁개더링
▁Dance
▁실명
▁당당히
▁연금술
숨에
장이
▁마더
▁지령
▁단숨에
▁루시퍼
▁토네이도
▁선대
▁소심
▁엘더스
▁화나
▁Over
▁동지
▁늦추
▁만화책
▁부메
▁원천
▁유목
▁레몬
▁작살
▁초토
▁매수
의사
▁부츠
▁크루즈
▁텔레비전
▁157
▁충공
▁서독
▁속옷
▁적발
▁부메랑
▁카르마
▁원종
버드
▁154
▁179
▁대사관
air
▁Ac
▁CO
▁슈타인
▁부당
▁중성
▁Str
페르
베르트
▁Ke
▁경감
▁토트넘
▁대문
▁메꾸
▁세르비아
저우
▁정장
▁내야수
▁미니언
▁광신
▁파산
▁164
▁확연히
대기
틀링
▁스윕
▁취직
▁공립
▁금곡
▁황무지
▁카즈키
▁금서
▁독서
▁섬유
▁미성년자
▁사임
▁박상
▁회귀
▁공동체
▁연습생
▁장기간
▁징병
▁무전
무실
▁생사
▁Music
oot
▁단간
▁미디
▁텔레콤
라이어
▁Ep
▁출몰
▁왼팔
▁Kn
▁삽화
▁우메
▁129
▁DDR
▁입맛
▁가출
ittle
려드
▁유서
▁고장나
▁뫼
▁양주
▁어처
▁최우수
ern
▁기판
▁표식
▁친일
▁금기
▁쇼트
▁드리프트
▁225
▁파워레인저
▁편안
▁광범
▁직무
▁트리스
▁팀킬
▁와타루
▁맴
▁민영
매치
▁기밀
▁잖
▁NL
▁돌아보
▁데스매치
▁빡세
▁창병
▁설득력
▁현명
▁양호
레트
▁심리학
▁본국
▁오리온
▁교란
산물
▁NHK
▁만료
▁씁
▁공병
▁괴도
▁은혼
▁초식
▁오반
▁콘티
▁아이리
▁김형
▁세간
▁폭사
▁한심
▁망령
▁택배
▁전용기
▁콜라보레이션
▁대각
▁NS
▁툼
▁바시
▁퍼부
▁'''
▁쓸모없
▁서점
▁켄타
▁지역구
▁ㄱㅡ
▁수복
▁우로
▁최영
▁쐐
▁내걸
▁발간
▁텍스
▁만화가
AG
셔츠
▁왠만
▁손바닥
▁네타
▁저상버스
▁홀딩
▁순진
▁천황
▁내륙
▁때우
▁타나
▁강적
▁역과
▁윌리엄스
▁두부
▁Pre
▁개틀링
▁선진국
▁펙
▁>,
▁고령
▁북방
▁불멸
▁젊은이
▁Comm
▁솔라
천역
▁어처구니
▁그닥
▁티탄
▁스코프
▁중령
▁광범위
▁1800
▁글래
▁박격
▁평민
▁후궁
▁크리스티
▁걸스
바위
▁비범
▁Korea
▁변질
▁기타리스트
▁서정
▁256
hammer
▁뽐내
▁밉
▁RC
▁리액
▁장동민
▁포지
▁돌아서
▁산책
▁허리케인
▁똘
▁예명
▁카자마
▁모호
oss
▁방벽
▁유행어
▁클로즈
▁MR
▁대진
▁포토
▁이승엽
▁에덴
▁좌표
▁FR
▁곡선
▁End
마츠
▁욕하
▁육박
▁진료
▁사이언
▁핵무기
ield
▁알아듣
▁베이스볼
▁백미
▁하와이
▁공익
▁서커스
ENT
▁낙인
▁라이터
▁재위
▁화수
동원
▁Leg
▁out
▁칙
아라
▁범행
▁케이트
▁가솔
▁김명
▁검은색
▁충성심
▁파장
▁아란
▁134
▁139
▁쿄스케
자카
▁불사조
▁마차
▁자진
▁코지마
▁목재
▁Life
▁스냅
RAM
▁LCD
eng
▁색채
▁신디
▁점거
▁163
▁VOC
▁EXH
▁중사
결승
▁견인
▁136
▁사토시
슬러
edia
평균
▁999
▁가창력
▁기관차
▁작아지
▁Gold
외선
▁JC
▁첫날
▁yout
▁트린
레미
▁설사
▁잠그
▁숙이
▁스님
▁정계
▁헛소리
▁Cy
▁거유
▁모나
▁살피
▁분자
▁BASIC
▁앙쥬
▁진작
▁176
▁선풍
▁강성
▁오미
▁man
▁충공깽
▁대여
▁방과
▁엘소드
▁협의
▁173
▁단말기
▁자연스레
IST
▁XXX
▁뉴타입
▁피리
▁UFO
▁노홍철
▁헌신
▁무빙
▁지독
▁하리
▁경인
▁토탈
▁하자드
ek
▁바트
▁무고
▁167
▁나츠키
▁142
▁토우마
리에
▁애프터
▁XP
▁MT
▁펄스
▁선곡
▁즉각
사우
▁초딩
▁이스터
▁전라북도
inc
▁MD
▁까먹
▁전전
▁에우
▁SW
▁카가
▁환각
▁꺾이
▁존속
▁SG
▁뒤덮
▁}{
▁스왑
러나오
▁양아치
▁대승
▁라자
▁초선
▁헬스
▁램프
▁로마자
▁집정관
▁강행
▁초고
▁테크노
▁co
▁왕좌
▁포르노
▁더비
▁6000
▁어지간히
▁고양시
▁Summer
▁경전철
러드
▁단백질
▁세츠나
무니
▁신공
▁충북
▁경순
▁루리웹
▁......
▁강변
▁부추
▁손녀
▁용맹
미스
▁키워드
▁후반전
▁책략
irst
▁149
▁말소
▁위탁
받침
범죄
▁야드
▁시노부
▁케로로
▁파고들
▁기획사
▁수리검
▁수원시
▁국사
▁행태
▁뒤집히
▁자크
거진
▁OR
▁격리
▁로자
▁애드
▁380
▁미지수
질기
▁에스파
▁IDOLM
수아
카스
▁백신
▁본드
▁영창
▁왕따
▁청산
▁끈질기
▁아치
▁프레데
▁요미우리
▁서두르
▁고베
▁정거
▁퍼니
▁천연가스
서야
▁페달
▁행선
▁제멋대로
▁권능
▁뷰티
▁여사
▁수군
▁수평
▁캐서
▁King
▁번트
▁관제
▁1961
용차
ual
▁AG
gain
운전
▁박해
▁살인마
제국
YP
▁흑룡
비언
▁남동
▁미쓰
▁총괄
▁위화감
▁다인
▁은밀
세데스
▁막바지
▁메르세데스
문트
▁단선
▁스퍼
▁하부
▁피스트
▁쳐내
▁버금
▁지자
▁UI
▁강판
▁특공대
▁판본
▁학창
▁..'
▁파키스탄
▁ONE
▁위나라
던트
▁성체
▁튀기
▁류현진
▁Win
▁유명세
데기
패드
▁봉황
▁키퍼
▁143
▁입술
▁전년
▁회견
▁완수
▁전교
▁디비전
토미
▁멜론
▁아홉
▁틀어지
준혁
▁노이
▁옐로
▁한숨
▁댄서
▁가치관
▁어린애
▁가차
▁표방
▁게리
▁깊숙
▁원격
▁이안
▁스티커
▁치부
▁뢰
▁영분
OO
aj
▁바오
▁상회
▁기와
▁정중
▁현존
▁헤븐
▁Can
▁어비스
▁그리스어
▁무언
▁타케루
▁타츠야
▁무상
▁이과
▁기마
▁세나
▁VOCAL
▁역학
▁캐서린
▁코우지
▁오리지날
미츠
▁계보
▁황태자
▁포럼
▁돌려보내
▁경의
▁마누
▁첨가
▁u
▁유노
▁차종
▁리우
▁조형
▁인내
▁정거장
▁리히
크리트
▁키메라
▁사파이어
▁수고
▁제비
▁노려보
▁봉기
▁선형
▁청색
▁백색
▁진공
▁표본
▁한스
▁진가
▁휴스턴
령관
툭튀
▁테츠야
▁쉘
▁흑백
▁준장
▁카논
▁Out
▁This
▁미끄러지
yn
▁Vo
▁따돌리
▁프랑크
▁아제
▁페니
▁현직
▁오피스
▁커맨더
▁단신
▁백룡
먹이
▁골리
▁속공
▁갑툭튀
▁부풀
▁카에
▁합창
▁친위대
▁타시
▁물려주
▁본문
ube
▁시동
▁걸작
▁단조
▁이분
▁크래
▁Int
▁1942
▁What
하이
▁무의
▁서지
▁다짐
▁무효화
▁커브
▁SEED
▁아멜
▁잔당
IV
▁우사
▁프로이센
▁베니
▁실무
▁최전
▁여하
▁추월
▁매진
▁빡빡
▁거리표
▁사마의
▁세션
▁죄송
▁1943
▁두께
▁Da
▁어워드
▁후려
▁우시
▁마리사
▁아카기
▁분사
▁미야자키
▁OPS
▁플러그
타르
▁세이지
▁tvN
▁바바
▁속박
▁츠루
조작
▁육지
▁가든
▁어중간
▁모탈
▁빨강
▁애교
▁배수량
▁이터널
▁각색
▁치프
▁끝판
▁리젠
▁유지비
▁승부조작
▁난폭
▁섬세
▁지아
▁스크립트
▁제이크
▁대두
▁등교
▁MASTER
▁심포
▁121
ady
▁Live
▁오마주
▁의미심장
▁자발
▁활주
▁뭣
레스트
▁사이오
▁설계도
▁재팬
▁판과
▁신시
▁씁쓸
▁피어
▁레미
▁디테일
▁소진
▁ㅇㅜㅁ
▁고독
▁교훈
ATION
▁TD
▁안보
▁재난
▁미라이
▁사카모토
▁교주
▁대부
▁Hard
시계
▁장원
▁뾰
▁가가
▁초중
▁Act
▁대머리
▁치중
▁매거진
▁콘크리트
▁연희
▁석사
▁네모
▁선구
▁시르
튀기
▁김도
let
▁성녀
▁왕건
▁처단
작전
▁무성
▁강팀
riend
▁잉크
전대
▁구독
▁세가
ush
▁격돌
▁관대
▁요동
▁재임
▁칭송
▁뻥튀기
▁매트릭스
▁경장
▁관악
▁신축
로리
▁배지
▁서인
▁득표율
▁로스앤
▁로스앤젤레스
▁튜버
▁노브
▁당분
▁폭발물
iew
▁독설
▁되려
▁174
미사
킨스
▁1920
▁수다
▁언행
▁매그넘
▁군산
▁수녀
▁십상
▁흘러나오
▁양면
▁괴멸
▁수소
▁문화재
▁인벤토리
▁역관
테나
▁능욕
▁이속
▁좁히
▁혜성
▁배틀필드
중국
▁시세
▁음모론
eet
▁유우야
▁가물
UC
▁베드
▁욕구
▁루팡
▁조비
베르토
▁자신감
▁바늘
▁엄지
▁205
▁쇼핑몰
▁잠재력
▁ㄹㅏㄹㄲㅏ
▁콥
▁비약
bps
ational
▁아역
▁호세
▁나우
▁볼프
▁이어인
▁이제동
▁크리드
▁소용돌이
▁이상민
▁워너
▁BF
▁섭외
▁송병
▁호그
▁아프가
▁피에르
▁출세
rain
▁나오키
▁라이토
▁누님
▁어제
▁엑스맨
ORE
▁버금가
▁준결승
▁EA
▁TG
▁성검
▁겉보기
▁족장
▁조인
ESS
▁난해
▁반칙
▁Air
조각
▁CB
▁꼭두
▁부치
▁여건
▁제구
▁도호쿠
총리
▁종일
페어
▁베가스
▁표출
사이드
여지
ita
▁줄곧
▁반환
▁폭동
▁난동
▁법안
▁느긋
▁다중
▁포털
▁성우진
▁1946
UE
ane
▁쐐기
▁유포
▁이에야스
▁솔로몬
▁자부심
▁줄줄이
▁송이
▁호대
▁작별
▁퍼스
▁히코
▁보유자
▁문헌
▁배럴
▁앙리
▁템포
니트
무진
▁박용
▁틀림
버린
▁덕택
▁늘어놓
무소
▁검도
▁레슨
▁루기
▁임페
▁평원
▁미상
▁하르
ㅇㅗㄴ
▁은메달
▁아프가니스탄
▁만루
▁양념
▁언락
▁외출
▁조그
▁VOCALOID
▁승기
▁밀치
▁켈리
▁Warhammer
케이
▁무자비
도스
▁sc
▁박격포
▁소리치
▁time
▁하데스
▁즘
때로
▁거물
▁비오
▁부우
▁유쾌
▁홍대
모델
▁국물
▁웍
▁부토
▁윌슨
▁주작
▁심리전
▁꽝
▁유영
블릿
▁가네
▁병신
▁달빛
▁사병
▁동대문
▁담당자
▁왕궁
▁폭포
▁새로이
주리
▁예배
▁임페리얼
▁만세
▁총통
▁카메오
▁이신
▁역전재판
▁웨이트
▁히토미
▁되돌아가
▁여친
▁리바이
▁지지자
▁교섭
▁료마
▁데뷔작
▁도모
퍼런스
▁아부
▁겨누
▁흐리
▁빈사
▁상반기
클레스
▁Cat
▁유로파
▁준공
공화국
here
▁블루스
▁피라미
▁교재
▁단절
▁세토
▁졸지
ness
▁츠카사
▁Hell
▁각기
▁용호
제스
▁남극
▁퀄컴
▁사부
▁수락
▁부여받
▁대한항공
▁빵빵
▁벌어
▁비토
▁굴복
▁김정일
▁GR
▁기한
▁랜디
▁채집
▁1941
▁`
eth
▁법학
▁퍼뜨리
▁q
▁At
▁ll
▁타지
▁단거리
▁판도라
▁컨테이너
▁전류
▁킬로
▁티거
▁벵
▁김창
▁노엘
▁조제
▁팔꿈치
▁밴시
▁증후
▁Res
EX
소스
▁la
▁불상
▁산화
▁페인트
▁싱크로
▁나날
▁내심
▁허영
▁미완
▁탈옥
▁호타
유리
▁한조
▁자본주의
▁GX
▁마니
▁성균
▁진술
▁센트리
▁대제
ne
▁괴로
▁킹스
▁연구실
▁자치령
ret
▁피곤
▁학회
▁이동하
▁손아
▁파업
itch
▁심연
▁진형
▁Sound
▁빅터
▁작렬
▁치아
▁도미니
▁성균관
▁유스케
▁총탄
▁비정
▁익스트림
▁래스
▁든
아아
▁id
▁벤트
▁유년
▁스탠스
컨대
▁김택용
▁삼거리
▁창원시
▁아까
▁주군
▁물들
▁이니셜
▁내공
▁만두
▁추석
▁명인
▁염소
▁이은
▁베라
▁레베
▁부녀
▁마음껏
▁단연
▁듀엣
▁야기
▁보단
▁역병
▁이복
▁대장군
▁우려먹
신기
▁유엔
▁미타
▁레볼루션
▁늘어지
▁오로라
▁참모총장
▁신원
▁코브라
▁사바
▁직감
▁지지율
무늬
▁알코
▁듬
▁장래
▁자수
▁퇴마
▁포고
▁SKE
▁동메달
코스
▁사안
▁어설트
▁도도
사우루스
▁불러들이
▁리베
▁차세대
▁조달
▁아울러
▁미련
▁태연
▁night
제품
▁들통
▁옥타
▁유키노
▁만류
▁셀프
▁Rec
▁대상자
▁휩쓸리
na
▁항우
▁신노스케
열차
▁서원
▁시발
럭스
▁대적
▁147
▁해저
▁조장
▁세이야
▁직관
▁백수
▁연루
▁김정은
▁떠들
▁빌미
▁채소
▁제너럴
▁Hy
▁시구
▁적료
▁146
▁과실
▁사육
더스트
▁가주
▁후세
▁후안
▁경쟁력
▁증후군
▁인민공화국
▁ㄲㅗ
▁파드
▁진흥
IGHT
▁김영삼
▁오디
▁슈타
▁할당
▁와이드
eath
▁Big
▁스케치
▁상원
▁편제
▁피츠
▁익스프레스
▁이변
▁크림슨
ㄴㅔ
▁ㅅㅏ
▁서태지
▁방대
▁집결
▁미팅
▁차남
▁특허
▁복종
▁몽땅
▁화랑
▁org
▁낙원
▁민정
▁뿌요
▁성채
아티아
▁크로아티아
▁갈래
▁근래
▁Heav
▁플레이트
▁기겁
교육
▁노스케
▁그지
▁노후
▁1600
▁스트레이트
▁싱어
▁교감
▁빼놓
▁클립
▁스펙터
▁서면
▁난전
▁매개
▁자문
▁GK
▁제각
▁222
▁Des
▁고원
▁피니시
▁술탄
▁아유미
버거
▁오클
▁가솔린
▁미라클
▁동참
▁고모
▁정크
▁like
▁일직
▁진군
▁RAM
▁부록
▁증원
▁news
asy
▁의리
모니
▁상류
▁Mod
▁Battle
▁대담
▁맥시
▁회자
▁페르난
▁1954
▁정종
▁하코
▁가왕
▁마토
▁북극
▁연안
▁체급
▁트리오
▁조류
▁체이스
▁휴전
▁204
▁뒷받침
여행
▁스탠딩
수수
포스
▁스킵
▁태세
ny
▁구치
캐스트
▁구미호
▁티저
▁헤지
▁166
고쿠
▁아지트
▁무찌
▁위생
▁재혼
▁Che
OK
▁박준
▁주성
방사기
▁전투복
▁1958
▁인피니트
▁키사라기
▁화염방사기
▁스루
▁저희
▁차관
ven
▁결별
ORM
▁과부
▁극찬
▁명왕
▁유교
▁지름
▁캐롤
▁행각
▁정의당
▁옌
▁천도
▁클락
▁좆
르슈
린스
▁미도
▁유배
▁호우
▁fl
▁구세
▁시오리
르드
▁친근
▁밸리
▁커리
▁탤
▁동거
▁득실
▁인프라
▁한국군
▁태블릿
피온
▁등산
▁아킬
▁츠바키
▁노마
▁칼럼
▁명장면
▁대잠
▁배분
▁향기
▁다정
▁웨일
▁럼블
▁온화
▁인즈
▁간편
▁박병
▁전산
▁협약
▁동유럽
arm
▁우이
▁트림
▁세레나
▁타협
▁들려오
틱스
▁난투
▁변종
▁영락
사의
▁ㅋㅋ
▁SSR
▁원어
티넘
ALL
▁호노카
▁플래티넘
▁엠블렘
▁일부분
▁DB
▁수전
▁를
저트
▁승하
ouse
▁반갑
▁베른
▁상정
▁손수
▁특출
▁로테이션
날두
모사
▁철벽
▁부추기
▁연기자
▁1948
각시
▁SV
▁공자
▁마그마
▁호날두
▁웬리
▁아이리스
▁부두
▁유감
내기
벨트
▁치타
▁대각선
▁기복
▁두텁
▁매칭
무스
방식
타리
▁누마
▁대파
▁한가
파니
▁동포
▁이창
▁무찌르
▁대입
▁플라잉
코프
▁마테
▁하반신
▁자위
▁진흙
▁8000
▁KD
▁병영
▁선체
▁아이젠
▁뒤틀리
렉트
▁일선
▁절묘
▁짝퉁
▁이가
▁회복력
이팅
▁쇼군
▁진과
▁평창
▁제네시스
ru
▁츳
▁퍼시픽
▁레트
▁청동
▁1949
▁프라이즈
바퀴
▁소중히
▁범주
▁운임
▁정신기
▁예리
▁용품
▁종자
▁알프레
▁갑판
▁넘쳐나
▁Sing
▁잔재
▁사생활
이인
▁안도
▁영리
겨지
곡동
▁라트
▁프렌즈
▁활주로
▁유추
▁참패
▁but
▁소음기
▁잽
▁액트
▁올라서
▁선천
▁에노
▁런닝맨
▁자의
▁목요일
▁불가사의
▁엠파이어
▁석화
▁바실
▁발트
▁직계
▁사단장
따르
권자
러기
▁동급생
▁가메
▁세이부
▁동맹군
영수
▁외환
▁무어
▁생몰
▁안중
▁엘리스
▁코요미
▁대강
▁아종
▁평안
칼리버
▁쌩
▁주방
▁남아공
▁카멜
▁BBC
데르
▁수뇌
▁육식
▁귀중
▁다나카
▁마운드
▁화장품
회장
▁푸른
▁책임자
▁카트리
▁박진
▁하임
▁하쿠
▁리포트
▁동명이인
▁걸어오
ari
▁예하
▁음양
▁랫
링크
▁부과
▁사츠키
▁Edition
▁뛰어다니
혁명
ina
▁~'
▁탈것
ount
▁노선도
▁제네레이션
지원
토록
▁금전
▁즐거
▁탄두
해군
▁욕먹
▁하야테
▁프레디
▁벽돌
▁표창
▁현행
자루
▁총대
클리
▁터무니
▁토론토
▁불가리아
▁슬쩍
▁유승
▁특이점
드래
▁기만
▁신촌
▁구애
▁지중
▁NG
▁사위
▁성원
▁이문
▁치히로
ivers
▁선하
▁저력
▁콘테
▁빅토리
모자
▁if
▁태수
▁수비진
▁로로
▁박차
▁외야
▁충실히
▁빌라
▁일진
▁카바
▁운전자
▁하루히
▁XC
▁루즈
▁매복
▁템플러
▁1900
cl
▁끊이
▁마호
▁제보
▁차마
▁문의
▁경부선
▁노조미
▁Song
▁과다
▁공중전
▁양동
▁교육청
마사
▁가산
▁독도
▁히이
▁베끼
▁스몰
▁체구
▁드럼매니아
▁향수
▁경전차
▁know
▁뮤즈
▁340
▁기염
▁석궁
▁안나
▁조슈
▁친밀
▁알몸
▁고스란히
▁위조
▁목표물
▁쩌
▁거제
▁젤다
▁리언
▁칸나
▁모방
▁보답
▁비올
▁재해
▁점포
▁멸자
▁짱구
▁떨어트리
▁막론
투아
지대
▁알코올
▁스스
▁군단장
▁때때로
▁이따
▁카야
▁폭군
▁Run
▁im
▁방랑
▁키치
▁나리타
▁쥴
▁길들이
▁초전
▁배척
ters
▁실험실
▁중공업
▁맏
실히
▁라운
▁RAW
HN
▁미토
▁설레
▁잔디
▁태고
▁소감
▁포이
▁But
▁사쿠야
▁눌
use
▁도메
▁퇴근
▁황족
▁부딪치
▁Magic
▁카운티
천동
▁발산
▁디스코
▁신한은행
▁덫
▁체조
▁품종
▁WAR
▁CEO
▁데이브
고생
▁정자
▁를르슈
▁토와
▁성공회
▁안철수
공격
▁090
피어
▁원년
기업
▁국수
▁사역
▁악질
▁우아
지물
▁부합
▁신령
▁여진
▁AMD
▁왕녀
▁하이브
▁'-
▁서문
▁천체
▁방정식
▁프라이드
▁선방
▁송파
▁333
ars
▁공약
▁코일
▁HOT
▁이지스
▁료코
▁레이브
▁위저드
▁뿜어내
▁피라미드
스기
▁Ab
▁란트
▁삼국사기
나들
▁소피아
▁되돌아오
▁거슬리
▁국민당
▁반자동
ke
▁랄프
▁선역
▁원사
덱스
▁츠치
스톤
erm
▁마키나
▁방어선
▁프리드
▁슬래
▁관용
▁섹터
▁720
▁아그
▁득표수
▁프랑스군
OUR
▁성문
▁정대
▁치토
▁민족주의
▁올리버
▁송곳
▁심플
▁지난
▁RS
▁보태
▁경시
▁day
나시
▁침체
▁에러
바키아
▁고려대
▁선글라스
XT
르바
▁휘둘
▁SNK
▁경찰관
su
▁든든
리케이션
▁로스터
고루
▁오컬
▁쟁탈
▁꼭두각시
▁토의
▁펜스
▁차크라
블루
▁터프
▁문성
▁랏
규어
▁헌병
매매
▁명실
▁민병대
▁홈구장
▁번거
▁좀비
단체
하하
▁에티
▁바운드
▁경위
▁로만
▁칼질
▁명령어
▁에밀리
▁동물원
▁사업자
▁아츠시
LD
▁Not
▁드래그
▁암흑기
▁거듭나
탕스
▁인스
▁Tri
▁패거리
▁레지스탕스
위치
▁소주
▁GAM
▁여명
▁칠흑
▁비운
▁요르
▁시한
▁악보
▁치밀
▁행군
ecial
▁네기
▁야채
▁알파벳
▁인신
디우스
▁Grand
▁뒤바
▁만악
▁원동
▁조율
EME
▁음란
▁Boy
▁PVP
▁비룡
▁스완
▁시프
▁아델
▁월터
▁전과
▁초당
▁올라타
▁ㅁㅐ
▁네메
▁체내
▁임창
▁정동
▁더스트
▁호라이
▁얌전
▁추첨
▁퍼트
▁며느리
▁야구단
▁오스카
▁가호
▁순순
▁터리
▁화판
▁격변
사람
▁첩보
▁스폰지
레오
▁허다
▁증가량
▁래쉬
▁짤막
▁양방향
▁오우거
▁비즈니스
주군
▁성추
▁카터
▁덤벼
▁진에어
▁오컬트
}}
▁TF
▁루카스
▁1959
▁시빌
▁탐욕
▁프랭
그러지
ship
AA
▁수레
▁옴니
▁울부
▁바람직
▁KC
▁비평
▁슬러
▁슐
연합
▁츳코
▁격노
▁수족
▁통학
▁이탈리아어
▁코팅
▁단번에
▁빌헬
▁희생양
▁벌어들이
▁Dragon
▁PO
▁Baby
▁압살
▁God
▁명품
▁브란
▁수분
▁아르메
▁가까스로
UL
▁시애
▁오드
나가와
세우스
▁개인전
▁김혜
▁픽업
▁화룡
노트
▁김희
ana
rop
▁실천
▁체이서
▁도마뱀
▁현질
▁결장
▁장녀
▁김인
▁승천
형제
▁슬라이딩
▁ㄴㅡㄴㄱㅜ
▁농촌
▁바이퍼
▁1955
▁'~
▁마티
▁조나
▁재규어
레일리아
▁드레이크
ift
▁업종
▁MAN
▁볼일
▁무궁화호
▁고갈
▁디셉
▁역설
▁영조
▁청장
▁대법원
▁정몽
▁탈탈
립스
▁수법
▁해임
▁단단히
▁성폭행
▁일평균
▁크러
메리카
오피스
▁151
▁거주지
▁Beat
▁창의
▁쌈
▁수요일
▁젯
▁ab
▁광양
▁양파
▁입성
▁평정
▁POP
▁다이너
유기
▁경희
▁광화
ys
▁수아
▁OM
▁뾰족
▁어휘
▁일개
▁비행선
▁시애틀
▁불운
▁지침
▁케르
라비아
▁순순히
▁그토록
▁Spr
▁마사토
▁훈련소
▁1956
▁애시당초
45
ㅅㅔ
elf
▁억양
▁이어폰
▁토리코
▁노어
▁아득
omb
▁아날
▁미카엘
▁야요이
▁악장
▁전고
▁다이브
▁가와
▁건립
둘기
▁둔화
▁뒤이
▁푸쉬
▁ㅇㅜㄹ
▁아랍어
▁니즈
▁뚱뚱
베다
소니
▁강급
▁서유럽
▁아틀라스
▁엘런
▁키쿠
▁페루
▁졸업식
▁탄수
▁NAS
▁오리콘
▁염동
ally
▁리바운드
▁RO
▁장단
▁주임
▁앞마당
투르
▁게르만
▁상대편
▁울부짖
▁온전히
▁무심
▁추기
▁교직
▁마취
▁이바
▁블라디미르
▁부러
▁일갈
▁전염병
▁남용
▁불허
▁서진
▁초계
▁ㄹㅏㅂㅅㅣ
ren
▁파열
▁001
▁디트로
▁페이커
▁중얼거리
▁총사령관
▁디트로이트
▁아르메니아
▁려
▁도보
▁버디
▁좀처럼
▁챌린저
▁릉
▁Es
▁송구
▁김준호
벅지
▁GL
▁괴이
▁산산
▁바사라
▁쇼타
▁들려주
▁카츠키
▁화질
▁페라리
▁다이렉트
▁남짓
▁앞쪽
리아스
IF
▁찾아다니
▁백지
▁식인
▁제복
▁밀접
▁169
▁트레인
니지
olog
슬쩍
▁Lo
▁학업
▁난쟁이
▁짓밟
▁사벨
▁쌍용
▁당분간
▁Cont
▁구자
▁눕히
▁Bar
▁릭스
▁포커
▁포화
▁건너편
▁에어컨
▁부화
▁수납
▁연성
▁케네
빠르
▁관습
▁성품
▁피버
▁NAT
▁클라우
▁휘둘리
▁간식
▁덩달
▁푸드
장구
▁포터블
데라
▁정은
▁토코
▁불분
▁여정
▁죠셉
▁항쟁
▁시프트
▁전반전
▁활약상
영웅
▁제품군
▁후려치
포로
▁전태
▁풋볼
▁블리치
히트
▁메라
▁미셸
▁세무
▁필적
▁광학
▁어우
▁마공
▁수박
변속기
▁김태균
▁qu
▁루드
▁자판기
▁선도
병기
▁야마자키
▁IF
▁침식
▁토토
ited
▁다트
▁외장
▁임상
▁Inf
▁음식점
▁이유로
▁전갈
▁체로
▁삽입곡
▁불분명
▁쿠도
입구역
▁WOR
▁카즈마
▁프라모델
III
▁나시
▁오일
▁들여오
▁양현
▁주스
▁필기
리아나
▁박주
▁저음
▁허위
▁알루미
▁Gaming
▁일직선
▁중견수
▁선교
▁오스트레일리아
▁몬테
▁럽
▁투항
▁XBO
▁world
HD
부시
▁지기
호도
▁사면
▁야인
▁수배
▁악인
▁아르테
▁글리
▁라이덴
▁루이지
▁스트리밍
▁과하
▁권역
▁백병
▁000000
▁정적
▁With
▁Angel
그래
모트
▁DA
▁로사
마트
▁310
▁레닌
▁밀러
▁발전기
▁마포
▁유부
▁소피
▁츠네
▁잘생기
▁나루호도
▁흉터
▁집중력
▁경이
▁꾀하
▁맨날
▁차출
▁코리
▁COM
▁중화기
▁박스오피스
▁요건
▁진해
appy
▁이시카와
row
▁충동
▁VIP
▁라지
▁말살
▁지갑
▁메두사
▁빅토르
▁금성
▁방금
▁소량
짜기
▁미유
▁예비역
▁사설
▁셔츠
▁정세
▁무언가
▁스콜피온
▁충청북도
▁수영장
▁나탈
▁즉석
▁아쉬워하
▁폐하
▁미나토
▁열렬
▁접시
미코
▁VR
▁그물
▁임용
▁컷인
▁con
▁재미없
▁플리트
▁엇갈리
▁중대장
▁리그베다
▁비늘
▁시립
▁수뇌부
▁데스크
▁마코
▁다크니스
▁빽
▁기린
▁형벌
▁하르트
▁봉하
▁사다리
▁사납
▁임재
▁해커
▁진나라
▁사우디아
▁희박
▁후리
▁법정동
▁아라시
▁분화
▁특권
▁131
▁진성
▁코로
▁micro
▁="
▁ER
▁총재
콜로
혀가
▁경비원
▁명은
▁행세
▁흥하
ious
▁잡혀가
▁마사무네
▁폿
ful
▁배반
▁복부
▁항로
▁손책
▁파탄
▁폐인
▁협곡
▁환장
제리
▁FE
▁강연
▁붕대
▁악평
▁She
▁자라나
로이
전함
▁옵스
▁하얀
▁Ste
▁사카이
보잡
atic
만다
타기
▁PvP
▁골고루
▁능동
▁항속
▁동남아
해야
▁쇼우
▁재사
그라드
▁관광지
▁반짝이
▁RX
▁255
▁듣보잡
▁신빙
드리히
▁CIA
▁자자
감치
▁몸집
▁무모
▁밸브
▁슬립
▁카이지
▁구라
찌감치
▁최우선
▁내레이션
▁스테이트
▁어로
▁강호동
▁젓
▁피드백
▁가쿠
▁외화
▁마스터즈
▁알루미늄
▁이관
그레
▁부식
▁철회
▁기생충
▁1939
▁더러
▁또래
▁낙하산
▁피콜로
▁STAR
▁윳
▁영국인
▁이클
▁하나님
aut
▁이데
▁베르크
▁토요타
▁만회
▁헬로
▁카에데
▁1952
▁White
▁다마
▁사오
▁성령
▁매지컬
▁호위함
TREME
▁TW
▁잠복
▁중산
▁햄버거
▁짊
▁아픔
▁티타
▁오바마
▁카라스
▁성시
▁조공
▁청취
▁키시
ㄴㄷㅐ
▁암기
▁기아스
▁안테나
▁연호
▁플레인
시장
▁볼리
▁류우
▁NCR
▁강남구
▁러시아군
MC
전쟁
▁컬트
▁힘쓰
▁NFL
day
▁둔기
▁선상
▁쿠폰
▁미시마
▁사과문
▁티셔츠
▁노원
▁몸체
▁장막
▁계승자
▁브래드
일기
▁달걀
▁묵직
▁위인
▁쿠루미
▁복권
▁청원
▁한성
▁FBI
▁비틀즈
사포
▁임프
▁프랑켄슈타인
▁라다
▁비욘
▁내려지
▁지자체
▁한니발
▁프리드리히
▁세실
▁여당
▁뒤쳐지
오버
▁라니
▁오자
▁치과
ara
▁Pe
세이더
▁Sky
▁미식축구
▁크루세이더
bl
▁폰트
▁오토봇
▁스튜어트
▁ㅇㅡㄴㄱㅏ
부수
▁햇빛
세포
▁420
▁인플레
리히
▁재주
▁장학금
델피아
▁필라델피아
▁환불
▁무리수
▁Project
INE
▁해프
▁콜롬비아
▁FN
▁쏠리
▁증인
▁ㄹㅏㅁ
▁850
▁소모품
▁레그
▁재상
▁ㅇㅣㄴ
▁긴장감
영향
▁노획
▁구비
▁사시
▁여행자
▁일기토
▁자유주의
이즈미
▁DIO
▁그래프
▁호스트
▁보구
▁쿠토
▁포진
▁타츠미
리역
▁베레
▁세단
▁용왕
▁EXTREME
▁눈썹
▁동산
▁마개
▁샌디
▁정렬
▁후하
▁클라라
▁타카오
▁이클립스
▁급상
▁서사
▁141
75
▁아론
▁나츠메
▁안토니오
와르
▁친화
▁모터스
▁슬래시
▁로젠
▁유다
▁카나코
▁OO
▁골수
▁소프
▁헤라클레스
▁시술
▁척하
트리스
▁코스타
▁대관
▁선공
▁커넥
민수
▁농부
▁억압
▁신세기
▁패트릭
▁RR
▁치아키
▁부기
▁새턴
▁투타
▁원상
▁호각
▁비둘기
▁조선소
▁부전
▁토사
▁아벨
▁슬레이
▁읊
▁오사무
▁Just
▁고뇌
▁기시
▁Get
▁아날로그
▁ㅁㅕㄴㅇㅡㄴ
▁주부
▁도입부
맹이
▁개종
▁반납
▁양도
▁Gun
▁ㅇㅏㅅ
▁겁쟁이
▁워페어
▁리시
▁최진
아내리
▁파괴자
넌트
▁진기
▁정치력
나타
▁사생
▁어르
▁자석
큐버스
▁브론즈
▁플랜트
▁해프닝
▁망원
▁그딴
▁디에
▁로미
▁본거지
▁원로원
▁타카히로
▁ㄴㅜ
▁블레
어내리
즐리
▁정인
▁앤더슨
▁가세
▁고안
▁금하
▁길목
▁머독
▁데이빗
▁레니
▁셔먼
▁여대
▁이우
▁팩토리
ger
▁겸비
▁꼼짝
▁낯설
▁벌칙
▁앞장
스코
▁응징
reat
▁중추
▁대의
▁유수
▁저널
▁환율
▁대항해
▁붉은색
▁생리
수엘라
▁PRO
▁사일런트
▁경신
▁그해
▁스릴
▁허니
▁축구단
▁크리스토퍼
▁777
▁노랑
▁변함
▁신드
▁여느
▁잠자
▁토카
다카
▁선명
▁실탄
▁뫼비우스
▁우대
▁항성
▁해결책
uch
▁상병
▁유하
▁정설
▁한결
전생
▁권고
▁코만
▁리조트
준호
▁이화
▁마운틴
▁수도원
▁크류
▁기공
▁납품
▁철퇴
▁대지진
▁티라노
▁사우디아라비아
ㄸㅏ
장치
▁카세
▁로드리
치오
▁니즘
▁쓸쓸
▁한복
▁군중
▁자가
▁정시
리카와
▁막아서
▁무당
▁초원
▁함경
▁환원
▁디럭스
▁야가미
▁Game
애미
▁바알
▁우등
▁사이킥
▁코미디언
▁공채
▁네로
▁마이애미
무로
▁리오스
▁악영향
ric
▁사대
▁520
▁꼬박
▁바흐
▁겉모습
▁레이카
▁월등히
▁투기
▁현무
▁시라이
ㅇㅜ
공주
▁보성
▁신검
▁정윤
▁노사
▁라몬
▁백두
▁제드
▁화요일
▁LS
▁레비
▁혼나
▁적정
▁정직
▁잿
타자
▁위즈
▁클로버
▁검기
▁그러다가
갔다
▁류지
▁반달
▁평준
▁사력
▁CCTV
▁개리
▁생계
▁재래
▁조니
▁우치하
▁악세사리
▁자대
암동
▁앨리
▁재무
▁후작
▁ㅅㅡㅁ
▁자아내
▁Back
▁Side
▁카이바
▁케네디
니치
▁레이크
▁요지
▁처방
▁나뭇잎
▁최적화
▁특출나
▁허벅지
윽고
▁감도
▁초급
▁이윽고
▁소대장
▁Last
▁베네수엘라
▁박기
▁벤츠
▁조현
▁평지
less
▁빈센트
▁절감
하임
▁절약
▁뜬금없
▁back
▁크로스오버
▁School
리즘
▁레코
▁선비
▁자민
▁중론
▁off
▁아스타
aka
▁Ge
▁480
▁엽기
툴루
▁개칭
▁나크
▁미약
▁열광
▁외침
▁이북
▁정경
▁제이드
드래곤
▁통솔력
▁지중해
▁총구
▁Zero
▁대장장이
▁꼬시
▁냉혹
▁제후
▁피쳐
▁TECHN
▁naver
▁우크
▁샨
bsp
▁모티
▁벅스
▁Ass
▁연대기
▁우크라이나
▁죄인
▁페가수스
co
▁다그
▁결투장
펙터
▁KS
▁xx
▁석방
▁셀렉
▁크레이지
▁동남아시아
▁귤
후미
▁타가
▁ATM
▁가늠
▁근친
▁우동
▁좌완
▁토치
▁펠트
▁남구
▁알맞
▁Sil
▁짊어지
ㄴㄷㅏㅂㅅㅣ
일관
▁초동
▁탈당
▁전우
▁비숍
▁상고
▁시부야
▁가즈
▁춘추
▁히지
▁기병대
▁리액션
레스타인
IME
▁미처
▁편애
▁합당
푸스
▁모치
▁이를
▁nbsp
▁소탕
▁서스
▁이의
▁쿼드
▁텐션
▁화가
▁예술가
▁발렌시아
테면
▁간장
▁일생
▁212
▁빌헬름
▁송병구
▁팬클럽
▁퀑
▁오토메
관계
▁라티
▁심부
▁멧돼지
▁스플릿
▁리벤
▁바루
페스트
▁하늘색
▁이를테면
▁텝
▁급여
▁무서
▁알비
베이스
▁정명훈
▁Chr
▁사이퍼즈
▁캬
▁광석
▁무네
▁톡톡
사전
소통
▁페로
▁도널드
▁의사소통
▁잣
이라
▁세균
부리
▁개화
▁디디
▁틈새
bo
▁WE
▁노프
▁에프
▁증차
레인지
▁날라
▁맞춤
▁써니
라이언트
▁하시모토
▁클라이언트
▁ㄹㅑ
▁290
▁결번
▁우의
▁전념
▁골리앗
▁좌익수
▁사죄
▁수혜
▁조로
▁경호원
▁삿포로
▁추기경
▁프레드
▁성추행
▁스타킹
▁Open
▁강령
▁순삭
▁통근
▁디셉티콘
▁jp
▁학파
▁합금
▁급상승
▁전투원
▁승부차기
▁승승
▁절판
▁Amer
▁Di
▁고참
▁오승
렁이
▁티격
▁재빠르
▁XBOX
▁소름
▁검색어
▁유세이
▁사루
▁유상
▁철자
에이터
▁룽
▁피신
▁블리츠
▁야나기
▁뇌격
▁미달
팔로
▁빈스
▁심복
▁사요
▁전황
▁갈고리
니컬
레즈
ORA
▁자바
▁무난히
▁Blood
▁수당
▁웨딩
▁협공
▁브라우저
▁엑스칼리버
UST
▁우와
▁너구리
▁프레데터
▁멩
투수
▁베아
▁유원
▁조회
▁편도
▁몰아치
▁야구부
▁켄시로
▁동독
▁연주자
▁Moon
▁중소기업
▁군벌
▁불발
▁경비병
▁라파엘
▁재사용
▁크툴루
▁소아
▁원성
▁한중
▁1400
▁경대
▁대도
▁의류
▁통역
▁피그
자위대
코스터
▁시미즈
▁중순양함
▁생포
▁파나
▁음악가
▁미니게임
▁선발투수
ely
▁전복
▁적어지
▁타쿠야
▁장담
▁전쟁터
▁소림
▁저스틴
▁에볼루션
▁강정
▁스커
▁해밀
▁두드리
▁인승
▁정준하
▁그렌
▁주주
▁하네
▁소수자
▁롤러코스터
니르
▁액수
▁족보
▁성남시
▁일정량
▁툭하면
▁팔레스타인
▁찜
▁분과
▁TB
▁명백히
▁데스노트
▁트와
ideo
▁일자리
▁margin
▁맹수
▁착공
▁엄연
▁질질
▁APC
▁Final
▁낭만
▁배고
▁나오미
▁Soul
▁화끈
▁대구경
▁가신
▁모선
▁보호자
▁선제골
▁스턴트
▁나카지마
▁껌
▁성동
▁지방도
▁태그팀
▁마즈
▁비견
▁절도
▁휴지
▁Yes
▁파이팅
▁촛
득점
▁극성
▁시커
▁탈주
▁미워하
▁사이비
▁사복
▁Art
▁아리사
▁쥬라기
▁카미조
▁박태
▁엑셀
▁타라
▁효용
▁마사히로
au
▁1953
▁버즈
▁실감
▁치요
▁급습
▁내년
▁신격
▁건의
▁기교
▁일파
ning
▁미완성
▁프리퀄
DER
▁일찌감치
▁석탄
▁간첩
▁홍준
▁거미줄
▁공격대
▁분당선
ism
▁고분
▁남산
▁엘다
▁생산력
▁미용
▁오아
▁7000
▁크라이시스
비슷
▁웬디
▁승계
▁플로리
▁헤이세이
▁만년
▁밤중
▁Mix
▁교육부
▁수송기
▁방망
▁에너
HC
파치
▁BMW
▁비화
▁투르
▁흉기
▁모건
▁쌍검
▁험악
고스
▁Du
▁아사쿠라
▁매도
▁소망
▁회유
▁내려놓
▁트리니티
IKA
▁변모
▁요요
▁유세
▁Met
▁명확히
▁사상자
▁어쩌다
85
▁리노
▁졸리
▁찬사
▁내려찍
▁유이치
▁크로노스
정동
▁재일
▁냅다
ward
▁경상도
▁구식
▁오현
stem
▁박병호
▁빨아들이
▁호라이즌
▁공시
32
▁pt
▁Top
▁김구라
▁미술관
▁익명
▁개전
▁애틀
▁히데키
▁뛰어내리
▁미우
▁소이
▁스쿠
▁반대쪽
▁블루투스
▁문관
▁부끄
▁천진
▁쿠즈
▁부회장
▁후지와라
▁뺑
▁무방비
▁이치카
▁푸른색
▁1947
▁멀린
▁체하
▁내용물
▁둘째치
▁선발전
▁동국
▁완급
▁미스테리
사노
led
▁아산
▁폐업
▁불가피
▁여신전생
▁시속
▁양평
▁헤딩
to
▁망각
▁수제
▁MiG
▁기어이
▁래리
일라잇
▁브로드
▁영화관
▁해설자
▁페미니즘
▁트와일라잇
▁쭈
▁착취
▁피노
▁배달부
▁유민
▁Eng
▁그제서야
▁네메시스
▁피겨
▁방어전
▁투표율
▁도가
▁마로
▁버니
▁MIX
월드
▁구판
▁대격
▁면도
▁아키야마
▁어시
▁붙여지
▁ㄷㅏㄴㄷㅏ
▁마늘
▁선후
▁어정
▁야자
▁표준어
▁제이스
▁서남
▁역마
▁way
▁하얀색
▁홍준표
폴트
▁손발
▁근육질
▁이츠키
▁짓거리
대왕
▁가야
▁매사
▁액스
▁지체
▁애틀랜
▁테슬라
욕장
▁달랑
▁무로
▁미움
▁장대
▁최재
▁레베카
▁로켓단
ute
▁TE
▁저축
▁파치
▁허약
ㄲㅏㄴ
▁페이퍼
▁Core
▁끌어오
▁토템
▁한족
▁출입구
▁시종일관
ata
▁벼락
▁이큐
▁조영
▁Off
▁문파
▁시게루
ision
eah
▁ZZ
▁뭉개
▁EXP
드런
뿌리
현동
▁올인
요리
ump
▁te
▁순항
▁오보
▁내리치
▁반쪽
▁사나다
사관학교
▁1957
▁스타더스트
린트
▁악연
▁영웅전설
▁쿠사나기
▁신봉
▁교제
▁슈우
▁케니
▁타사
▁포톤
아스
▁CT
▁박세
▁조세
▁IMF
▁Track
ㄷㅐ
쩐지
▁난장
▁매입
▁어진
▁허술
▁어쩐지
네트
▁수년
▁태권도
▁메트
▁새신
▁천왕
▁폴라
▁에디터
▁프란츠
▁별거
▁영재
▁위아
▁희한
▁RPM
▁병합
▁쪽지
▁끊어지
▁호루스
▁쁘
▁메츠
▁테드
▁데이즈
▁팔아먹
▁밀리터리
▁켓
▁바퀴벌레
▁^
▁탬
세움
▁로더
▁수렴
▁스미레
괭이
하니
▁합산
▁각본가
빠지
▁걷어
▁숙명
▁참수
▁치키
▁개인차
▁카프
▁카미야
▁신민
▁안식
▁이산
▁구스타
GN
▁랑그
▁에이미
지우
▁농어
▁요금제
▁식별
▁정현
▁투석
블랜드
▁209
▁나카노
▁보리스
▁ㄴㅡㄴㄱㅜㄴ
▁BP
▁비대
▁요일
▁천자
▁충주
▁클리블랜드
▁린치
▁저질
▁정액
▁토바
▁황자
▁Ext
비안
▁베토
▁정제
▁{{{-
▁북서
▁수퍼
oney
▁연구자
▁Mark
제트
▁ve
▁리제
▁적기
▁포제
▁Cap
▁김종국
▁아사미
선스
악기
▁공적
▁원산
▁에어리어
▁ADVANC
BY
▁다듬
▁대첩
▁갈아입
눅스
▁독단
▁문과
▁카니발
▁튜브
▁환산
▁사냥터
▁크레용
▁공전
▁급속도
▁진전
▁첨부
▁학부모
▁튀김
▁티베트
▁1914
▁라이선스
▁은근슬쩍
▁Little
▁이끌리
▁긴토
▁증강
▁Special
▁모라
▁큰일
▁맹장
▁링컨
▁서재
▁음력
▁애니메이터
▁홉
▁쇼코
▁아노
▁1938
▁동방신기
뮬러
▁린다
▁회심
▁ph
▁의뢰인
▁신약
▁셰퍼드
▁엔도
▁도전자
▁급증
▁발효
▁우여
▁후카
▁사카키
▁호르몬
린더
▁UR
▁번번
▁업자
▁입점
▁자멸
▁조짐
▁사토미
▁우선시
▁갱단
▁송신
▁경영학
▁느와르
▁러블리
▁TT
▁경선
▁상체
▁형주
▁하야시
▁켐
▁계책
▁막말
▁홍수
▁그분
▁성가시
▁gr
▁광교
▁방관
▁보그
▁체르
▁평이
ross
▁리눅스
▁역전승
▁That
▁기껏해야
▁초음
▁Free
메일
▁우먼
▁아오키
▁모용
▁위태
▁레이코
▁음료수
▁가중
▁블러디
red
▁포메
▁아틀레
▁Comp
실록
▁세속
▁재선
▁파병
▁황소
테리어
▁칸자키
▁날아오르
▁ㄹㅏㄴㄷㅏ
▁격납
▁이남
▁근황
▁누락
▁변속
▁희미
▁now
▁ap
▁순례
▁시녀
▁성취
▁숙지
▁식신
▁해인
▁지니어스
파일
▁아캄
▁한국식
두근
▁ac
▁사주
▁최연
▁카툰
▁수송선
CE
▁구스
▁암묵
▁짜이
▁토드
▁힘겹
▁조슈아
▁주변인
프스
▁++
ocal
▁만우
▁정유
▁구축전차
▁장민
▁체류
▁화합
▁net
▁껄끄럽
▁지폐
▁피칭
▁뜯어내
▁업소
▁호화
▁이민자
ner
▁굴러
▁태반
▁순전히
▁아레스
주곡
▁서프
닥치
▁멜리
▁고철
▁도류
▁버팔로
▁학군
▁1100
▁스팟
▁사념
▁성급
▁심영
▁재기
▁불안감
▁비밀리
▁em
▁티나
▁상경
▁일루
▁마르크스
▁PT
▁구가
▁Bad
aid
▁데프
▁치세
▁레프트
ird
▁요양
▁무예
▁아키코
▁제국주의
▁팻
▁베풀
▁일컬
▁판명
▁왕성
▁꾹
▁독성
▁못생기
▁대전광역시
▁악단
▁열화
▁의거
▁지저
▁MOV
▁츠지
방지
▁친선
▁틀림없
▁땜
ASS
▁구작
▁기통
▁대함
▁지탱
▁토착
▁의존도
▁1300
OCK
▁자객
▁512
▁코스모스
▁플롯
▁앞장서
▁샌드위치
▁쿠보
▁만우절
▁도르트
▁양양
▁다량
▁의석
▁추이
▁가격대
▁콘테스트
투사
▁FO
▁섣
▁화속
▁Rob
▁Every
뚜기
▁경원
▁무법
▁적과
▁아이카
▁난데
▁이강
▁풀백
▁야스오
▁정규군
▁주름
▁!!!
▁팔다리
▁피스톨
▁블랑
▁어도
▁get
▁마츠다
▁궤멸
▁반주
▁퍼플
▁#,
▁서바이버
▁KA
▁컬쳐
▁카르타
▁크레인
곡절
상부
ton
▁부피
▁매점
▁어려
▁흡입
▁우여곡절
▁설문
▁각별
▁센고쿠
▁평면
▁픽션
▁카자흐
▁토모야
▁유파
▁한눈
▁바가지
▁코스모
소연
▁실컷
▁540
▁경제력
▁mA
▁Orig
▁스케이팅
▁ㄴㅡㄴㅋㅓ
lection
먼드
▁불곰
▁이트
▁자재
▁호조
▁365
▁HR
▁공석
▁나돌
▁사찰
▁자음
▁착안
▁평시
▁유한
▁작물
▁쟁탈전
스부르크
▁로어
▁말라
▁경비대
▁서스펜
▁프리티
▁what
24
▁거액
▁소품
▁연화
▁이쁘
▁분대장
▁뛰어오르
▁게재
▁무패
▁초밥
▁포뮬러
▁강대국
its
▁명심
▁사서
트릭
▁저번
▁호문
▁ADVANCED
일본
▁매뉴
▁스켈
▁고하
▁아디
▁복수심
▁시트콤
▁어지럽
▁남아프리카
시간
▁이범
▁창시자
▁Rain
▁사고방식
어먹
▁망자
▁번영
▁여차
▁옥스
▁초라
▁돌풍
▁카나메
▁맥도날드
▁폄
▁Af
▁노라
▁NA
▁아틀란
▁카르텔
▁투수진
▁플랫폼
▁광부
▁윤영
▁하오
▁짭
▁세바스
▁하세가와
▁벨벳
티티
▁거창
▁추위
▁Order
▁라리
▁그리핀
▁슬로건
▁사이코패스
▁민지
▁티코
▁May
▁다이빙
▁암석
▁카밀
vent
▁206
▁변속기
영웅전설
▁은하영웅전설
▁입법
▁창당
▁하계
베르크
tm
마을
▁언뜻
▁투덜
▁꼭대기
▁Po
▁재탕
▁TBS
▁비열
▁애리
▁에지
▁오피
▁껴
캐슬
▁sw
▁노보
▁베토벤
바인
▁don
▁플로리다
▁멘토
▁선별
▁태백
▁디바인
▁코러스
▁라이브러리
▁봄버
살렘
▁방아
▁비타민
▁수식어
▁멱
▁블룸
▁필승
orts
▁공구
▁소홀
▁판넬
▁아랑전설
마니
▁수만
▁특색
루살렘
▁근위
▁어감
▁벗겨지
트니
▁편집자
▁새해
▁앵글
▁아카시
▁오거
▁온건
ura
▁바빌
▁스투
▁뉴캐슬
▁각광
▁색기
▁뱌
▁당원
▁바드
▁파충
▁노동당
▁아우구
▁수산
▁숙적
▁전범
▁코피
▁공천
▁재판소
▁틀어막
▁동결
▁등용
▁오모
▁오산
▁인테르
▁행정부
▁굴림
▁세련
▁순조
▁안톤
▁포신
▁잔소리
▁가맹
▁역적
▁PA
▁온전
▁초회
▁스트롱
▁이리야
▁카즈미
▁트렌드
태격
▁수료
▁장발
▁최성
▁Are
▁티격태격
▁자선
▁패권
▁스트림
▁알라딘
▁고드
▁낙서
▁요령
▁레고
▁서슴
▁징집
▁포섭
▁운동가
▁활기
▁후진
리스크
▁게으
▁럿
▁여덟
▁자결
▁채굴
▁효력
▁구루
▁조동
▁흑발
▁성범죄
▁캅
▁분수
▁풍속
김없이
▁아머드
▁나선
▁여객기
▁뒤떨어지
▁인테리어
▁표류
▁아브
▁성주
▁성희
▁png
▁미소년
▁정신병
▁도르트문트
▁소셜
▁야미
▁역기
▁깐
son
▁자서
▁재림
▁최장
니엄
▁농도
▁허접
▁Best
스틱
▁괴짜
▁동선
▁만장
▁레일건
▁9000
▁밀레니엄
▁콜로세움
살이
▁민트
▁근로자
▁Stri
ape
▁골격
▁골대
▁마성
▁고아원
▁사오리
▁아르타
▁난장판
▁베네치아
xt
▁남친
▁로버
▁린이
▁메이크
▁코우타
▁진범
▁형법
▁호족
▁굴러가
▁판단력
▁단타
▁신차
▁티모
▁아서스
▁아토
▁MI
▁길티
▁소양
▁예매
▁카로
ster
▁Pack
ize
▁제각각
▁아틀란티스
▁힛
▁내쫓
anna
▁제명
▁티르
▁뒤집어쓰
▁예루살렘
교도
▁pe
▁밝혀
▁버겁
▁착수
▁미하일
▁GA
▁근방
▁조부
▁주시
▁정부군
▁트롤링
▁kn
▁다라
▁아즈텍
▁NP
▁무토
▁파커
▁리비아
▁마쓰
▁슈리
▁통찰
▁파기
▁프리덤
▁원안
▁호밍
▁매뉴얼
▁경멸
▁오카다
너드
▁간과
▁물류
▁서동
▁웍스
▁사비
▁초심
▁디언
▁히로미
err
▁리포
▁악수
▁미우라
문화
▁대련
▁쿠우
▁포자
임수
▁고온
▁마자
▁재결
▁줄리아
▁항공대
포동
▁동탄
▁그레이브
▁행동력
▁옅
네즈
황후
▁유체
▁앞머리
AKA
▁상임
▁미니건
▁1951
▁PH
▁여리
▁짬뽕
▁370
▁밝혀내
▁동떨어지
▁스코어링
▁슬라이더
28
슬로
▁진중
▁전면전
▁니퍼
▁독소
▁은어
▁탤런트
oud
▁남코
▁한판
▁his
▁칠드런
▁tw
▁유족
▁조종당
▁조그맣
▁타오르
피탈
▁결단
▁대칭
▁불륜
▁they
▁이매
▁ㅇㅏㄴ
▁노리코
▁타노스
▁기형
▁윤성
▁차우
▁Joh
▁마일리
개골
▁마고
▁은색
▁Mir
▁정찰기
▁식구
▁잡아
▁사이먼
▁역전패
▁Mbps
▁인조인간
상스
▁쿠파
▁메커
▁하남
▁끝없이
▁뒤바뀌
잣집
▁원가
자국
▁앤드류
▁자일
▁클러치
▁두각
▁람보
▁설교
▁걷어차
▁코만도
OSS
▁교원
▁무쌍
자스
IDE
▁쿠노
▁달려드
▁다채
▁말뚝
▁벼슬
▁앉히
▁피크
▁하가
▁홍차
▁747
▁mAh
▁흑색
▁조선인
ma
불리
▁관현
▁깜빡
▁"..
▁크래시
▁경순양함
UG
지기
▁미분
▁캐쉬
▁통장
폴리스
▁미츠키
나오
▁이장
▁표명
▁갑주
▁당근
▁무소
ze
ama
▁노노
▁서북
▁직종
▁초연
▁노하라
▁레이서
▁불량배
zy
썰트
▁몰입
▁어썰트
▁유괴
▁세계수
▁장시간
▁대물
▁인분
hy
▁외지
▁척추
▁171
▁울버린
▁토머스
▁반열
▁ㅁㅐㄴ
▁나오토
▁왕정
▁촉한
▁미카도
▁주점
▁이방원
▁극동
▁창법
▁이부키
▁First
▁국지
▁총회
▁215
▁나이지
▁나이지리아
SS
▁광화문
▁앰프
▁선량
▁마라톤
▁우익수
▁브룩
▁양지
▁텐트
▁아돌프
▁아오바
▁데이비스
▁즌
▁거머
▁신야
▁어머
▁음파
▁NORM
▁파밀리아
▁캉
END
▁도요토미
▁도키
▁분파
▁에라
▁오기
▁이연
▁히키
▁이세이
헤드
▁교구
▁카모
▁컨버
▁니티
▁순차
▁지출
▁철구
▁아라이
▁도부
▁불거지
▁덴마
▁발령
▁치솟
▁애틀랜타
▁천리
▁충원
▁혈압
▁동하
▁부설
▁161
▁게이밍
훈련
▁금정
▁미코
▁복식
▁실비아
▁정신줄
▁저술
▁강서구
▁독살
▁사학
▁여군
▁피고
▁181
▁기념일
▁HT
▁속삭
▁아로
▁넬슨
▁발도
▁벳
어처
▁유창
▁이목
▁호머
▁미니어처
기수
너티브
▁포메이션
▁얼터너티브
▁잔존
▁전광판
라이어티
로트
▁맨손
▁손대
▁아루
▁추축
▁MAD
▁라이저
▁1936
▁Perf
▁타케우치
▁버라이어티
▁급감
▁골짜기
▁상반신
▁각주
▁우터
▁익산
레마
▁분전
▁오재
▁유죄
▁코타
▁NORMAL
▁수기
▁자행
▁탄피
▁승용차
▁Down
▁피파
▁235
▁Miss
▁브라이트
▁거침
▁교포
▁마천
▁NMB
시즘
▁용납
▁요시카
특기
▁비터
▁은빛
▁주특기
ume
▁쳇
▁로데
▁시연
▁City
yes
▁실물
▁정선
▁사우디
▁프렌드
▁오퍼레이터
▁전곡
▁허준
슬라비아
▁유고슬라비아
▁물음
▁탄종
▁데니스
▁메사
▁박하
▁포상
▁Hot
▁Mem
▁토미노
▁Char
▁승승장구
▁사하
▁선단
▁총애
▁통폐
▁미노리
▁수없이
▁알제리
▁북동
▁예민
▁wiz
▁데미안
▁자연히
36
net
▁뻔뻔
▁육신
▁출생지
▁AGE
▁에그맨
▁페러
▁한류
▁한없이
ga
▁여제
▁일면
▁향신
▁안장
▁파주
▁판교
▁275
▁이케다
▁카트리지
▁공안
▁벨리
▁약사
▁열폭
▁동그
▁혐한
▁데일리
▁시베리아
▁엄하
▁칵
설수
▁시급
▁마카오
▁엎드리
▁Happy
UD
▁나즈
▁시영
▁케미
▁DEF
▁207
▁억누르
회전
▁매춘
▁명절
▁역행
▁횡령
만화
▁낙양
▁돌변
▁발병
▁알트
▁집게
▁대성공
▁이메일
▁왕창
▁어정쩡
▁단도
▁서경
▁얼룩
▁강국
▁김천
▁완력
▁몬스터즈
▁Break
▁Class
▁관건
▁거머쥐
▁넥스트
▁NATO
▁마구잡이
독스
▁Ret
▁조나단
▁세인
▁약품
▁RED
▁다이크
▁탑승자
▁겸임
▁도맡
▁재발
▁컬처
▁dis
▁눈보라
▁재수없
awn
▁뜯기
▁이송
▁제때
▁종파
▁Und
▁곁들이
▁백병전
▁풍습
▁스트라
▁ㄱㅓㄴㅁㅏㄴ
▁신종
▁일병
▁어르신
▁우울증
▁헤일로
▁규율
▁분실
▁치즈루
▁유토피아
조림
▁골절
▁궁예
▁올레
▁잘나
▁유리카
▁just
▁뻐
▁교묘
▁니르
▁잭스
▁몸싸움
나우
▁옥수수
분투
▁MUS
▁다다르
▁펩
▁가발
▁ㄱㅣㄹㄹㅐ
샤인
▁#!
▁도봉
▁베로
▁전경
▁211
▁르네상스
48
덴티티
▁SHD
▁아이덴티티
▁샤르
▁첩자
26
▁TN
▁북벌
▁Dec
▁선동열
▁Stage
꼬박
▁발해
▁헌트
▁꼬박꼬박
▁감마
▁구기
▁사옥
▁스톨
제이
▁버크
▁머릿속
▁앞부분
▁헤드폰
▁관전
▁성의
▁토모코
IAL
▁순발
▁요가
▁가차없이
▁뜸
▁콴
▁친숙
▁호시노
▁외교관
▁말버릇
▁만담
▁역도
▁지겹
▁러스트
▁위아래
▁쿼터백
ius
▁기폭
▁수렵
▁순화
▁스테이크
ONE
▁오소
▁입석
▁전위
▁아키하
▁자그마
▁철학자
▁단수
▁망신
▁풍미
▁동호회
▁머들
▁실록
▁총검
▁하로
▁순발력
27
가키
▁경관
▁본뜨
▁정품
▁유키코
▁견습
▁코퍼
▁성희롱
▁Elect
▁폭언
▁핑거
▁프리랜
▁과반
▁STA
▁노하우
▁클라크
▁분비
▁합숙
▁힌두
ORPG
▁통폐합
람쥐
▁감속
▁승낙
▁조개
로그램
ole
▁주재
▁황폐
▁드래곤즈
▁경산
▁덜하
▁마니아
▁엄폐물
▁GAME
대상
que
▁노화
▁혈관
▁레기온
▁전라도
▁동성애자
▁닷컴
▁로페
▁개머리
▁over
▁떨리
▁바카
▁선지
▁키네
▁950
▁포이즌
▁행렬
▁드러머
▁시드니
att
▁레스터
▁재생성
▁요코야마
▁막스
▁한신
▁혼잡
▁방영일
플러
비야
▁매매
▁나폴리
▁다케다
▁두개골
▁최하위
▁예거
▁우왕
▁우에노
▁패러독스
▁포레스트
▁애니플러스
▁곧장
▁로니
▁매튜
▁촉진
▁화보
▁베르나
▁랠
▁무서워하
95
▁퀀
▁노미
▁빙글
▁765
▁돼지고기
▁찻
날리
▁!!"
▁플라워
▁콩고
▁판다
▁440
▁ESP
▁예컨대
▁일렉트릭
구멍
▁레츠
▁반죽
▁디에고
▁부상자
▁코즈믹
▁어우러지
▁빗대
▁풀이
▁Cor
▁샤이니
▁주둔지
▁두근두근
▁Legend
멘션
삭스
▁ㅇㅜㄴ
▁디멘션
▁윈스턴
블랑
▁소란
오피아
▁MOD
▁수차례
▁every
▁에티오피아
▁가관
▁숙박
▁양말
▁진행하
▁다리우스
▁중남
▁수사관
▁2021
▁oh
▁왕세
▁최형
▁이로
▁전리
▁Fly
▁EXTRA
▁군세
▁동강
▁반신
▁훌쩍
▁Rad
▁our
▁속임수
▁경음
▁다분
▁로트
▁세카
▁족족
▁208
▁주유소
▁쿠로사키
▁광주광역시
▁래빗
▁애착
▁Fre
▁htm
▁알고리
▁알프레드
▁코드네임
com
▁약혼자
▁컨퍼런스
▁넛
▁에비
▁산호
▁불러내
irect
▁어려우
마드
▁덤블
▁잠식
▁주루
▁탈영
▁내던지
▁다이묘
▁단축키
▁대대장
▁마사루
▁부잣집
▁과열
▁영장
▁다이노
GM
▁명언
▁아발
▁엘더
▁짜장
▁TRA
▁타이완
▁유니버
▁히로키
▁명실상부
▁고마
▁양재
▁Aut
▁니키
get
▁**
▁보름
▁이도
▁Dest
▁포유
arth
▁EXPER
▁구실
▁물러
▁천차
▁팬더
▁메커니즘
▁차고
▁EXO
▁한국사
레톤
▁기로
▁딱지
▁박진영
▁Level
▁볶음
▁역장
▁Mac
각형
발리
벌이
▁Ry
▁죠타
▁지간
▁스켈레톤
IO
▁올려
▁펑펑
▁황색
▁이정훈
▁출연자
▁클리프
▁향신료
▁치하
▁페트
▁214
▁닳
▁내치
▁이크
카이저
▁NASA
노부
▁사칭
▁생소
▁위스키
▁시리우스
▁브라이
▁제타
▁풍신
▁헤더
▁건너오
▁미야코
바탕
▁교활
INAL
▁CGV
▁프리랜서
OTH
▁양분
▁대나무
▁down
23
▁섬뜩
▁스메
▁자속
▁포구
▁Tech
▁노기자카
다듬
▁검거
▁작자
▁사업가
▁알고리즘
▁냉철
▁역세
▁잔여
▁집요
▁ㅈㅔ
▁노년
▁보옥
▁위드
▁한인
글러브
▁노미야
▁골든글러브
▁건축물
▁이따금
▁자서전
▁파충류
▁산산조각
▁TECHNIKA
▁분경
▁사보
▁이비
▁훈련병
▁셰이
▁301
▁곧잘
▁취항
해머
▁미적
▁적도
▁정관
▁클럭
▁혈연
가르드
▁보이드
▁피어스
▁Port
▁김응
▁탄산
▁공연장
▁이승현
▁자이로
▁하야미
▁more
▁백마
▁Ul
▁대영
▁제동
▁화전
▁Pol
▁컴플렉스
리언
▁경합
▁백스
▁빈민
▁윤종
숭아
▁기각
▁수병
▁에뮬
▁그랜트
TER
▁요네
거스
우먼
▁과잉
▁복서
▁아재
▁최순
▁언론사
▁카트라이더
선거
▁외동
▁EXPERT
enc
▁구이
▁권법
▁권력자
▁가르시아
▁나주
▁어웨이
▁개머리판
▁모자이크
동물
▁마이티
▁된
헤치
ano
▁이어주
▁지명타자
▁AO
▁노우
▁이롭
▁타타
▁410
노프
피드
▁누비
▁주제가
▁지상군
▁헤비급
▁난데없이
▁=,
▁차차
▁켄신
▁RGB
▁등록금
▁물러서
펠러
▁닛산
▁국교
▁편찬
▁환술
ya
▁페널티가
▁자백
▁쿠퍼
ated
▁싸구려
▁애리조
▁여중
▁마츠이
도나
▁덴오
▁아와
뚤어지
▁블로우
▁쏙
▁공황
▁Hol
▁생몰년
▁올리브
▁아소
▁펠레
▁푸시
▁하피
▁도카이
▁아키오
▁제이미
▁AW
▁켈트
▁놀림
▁모차
▁송곳니
▁공문
▁담그
▁레토
▁홍련
▁오레
▁자릿
▁카니
▁투지
▁떠넘기
▁하이스
무쌍
▁ABC
▁방탄복
▁파라오
소타
▁렐름
▁밧줄
▁포박
▁농어촌
▁라이스
니케이션
▁마이스터
▁조선일보
tor
▁ㅈㅑ
▁광저우
▁동시대
▁물어뜯
▁WHIP
▁독립운동가
▁위용
▁특촬물
▁Line
▁괴로워하
▁커뮤니케이션
▁다의
▁원대
▁이면
▁정가
바위보
▁노태우
▁스사노
▁가위바위보
▁선더
▁쾌락
▁이나바
▁송지
▁돌려받
▁선샤인
에트
uro
▁이윤열
▁미네소타
수염
ouble
▁해부
▁졸지에
▁즐거움
▁레인저스
▁댁
매기
▁방주
▁진풍
▁Hey
▁비행장
▁Fall
▁호연
▁GPS
▁거북이
▁서큐버스
▁자정
▁코칭
▁도메인
▁타카미
▁활발히
▁강당
▁속출
▁채무
▁하긴
▁안치
▁증식
도니아
ague
▁AAA
▁내려치
▁good
성어
피디아
▁볼드모트
▁레터
▁들어맞
▁베이커
▁명맥
▁위키피디아
▁다테
▁몬드
▁Val
▁보급품
▁뒤엎
▁품목
아오르
비지
▁마리나
▁바이트
▁집어던지
▁산전
▁요마
▁라르
▁이룩
ther
▁경희대
▁차오르
be
▁명계
▁모성
▁오줌
▁팽창
▁소스케
▁아이슬
▁장기전
▁watch
츠미
▁뒤섞
▁티오
▁노이드
▁덤벼들
▁반입
▁Ant
96
▁갈비
▁고구
▁코라
▁고라
▁타무라
we
▁급소
▁영령
▁라이엇
▁연장선
▁"'
▁메모리얼
▁케이스케
▁번쩍
▁일전
▁후지타
▁개중
▁내무
▁레너드
▁살포
▁완투
▁지바
▁유희열
▁Kill
▁하나같이
▁white
걸음
▁감격
▁남서
▁인계
▁흐트
▁Show
▁강북
▁노드
▁복판
▁방사선
▁요스케
팽이
▁앤트
▁이펙터
도어
UND
▁OT
▁소굴
ITAD
und
▁간직
▁보크
▁속주
▁투여
▁희소
▁병살타
▁녹스
▁피통
line
▁설립자
▁우즈베
▁Spring
▁쿡
타마
▁낙동
▁발랄
▁영수
▁008
▁Pop
▁매크로
부르
▁EL
▁오스틴
▁해밀턴
▁목성
▁장문
▁가락
▁머큐
▁황천
배기
키오
▁견주
▁몽환
▁가요제
▁장제스
ck
▁꼼꼼
▁펌웨어
▁투영
▁팍팍
▁010
▁스타터
▁튠
▁라카
▁리라
▁조련
▁취역
▁Cal
▁박지성
조선
▁괄호
▁봉지
▁총수
▁호신
▁바티칸
▁아이슬란드
▁Ind
▁공모전
▁연합국
▁한자어
비어
▁마요
▁알버트
▁정상급
▁트랭크
▁디스트로
ㅓㄴ
▁에니
▁구세주
▁도래
▁의약
▁깍
▁상층
▁청혼
▁캠핑
▁Way
▁중심부
▁동자
▁발열
▁조종석
▁Dead
▁디스트로이어
▁소폭
▁Girls
구석
럴드
▁내신
▁묵시
▁외견
▁인파
▁포괄
▁EPL
▁천문학
매김
▁와해
▁한술
▁헤엄
▁마츠리
▁인민군
▁카디널
▁수두
▁포츈
▁동해선
▁국무총리
그러
▁아다
▁꼬맹이
▁받아치
▁은지원
▁자리매김
▁GITAD
▁상수
▁목욕탕
▁Club
▁들어올리
▁바이올렛
▁허물
▁여하튼
▁환상향
▁궁궐
▁나토
▁민심
▁1937
▁도살
▁연무
▁조지아
▁영도
▁자물
▁공포증
▁이대호
▁원정대
▁타카기
▁퍼니셔
▁후타바
▁히데오
▁오블리
▁완패
▁편차
▁형용
ault
노세
▁사적
▁자습
▁카나타
ipedia
그럽
▁이석
▁흐지
▁방아쇠
▁브리핑
▁생활관
▁세리카
▁자물쇠
▁흐지부지
▁뻑
▁김시
▁How
▁부적절
▁비행단
AV
▁분식
▁장화
프레이
▁로엔
▁신탁
▁적시
▁스케이트
▁MMORPG
gy
▁노다
▁재킷
▁사이키
연의
▁전조
▁혹독
▁내비치
▁사나에
▁큘
▁sk
▁간절
▁건달
▁반공
▁데이지
▁SPEC
▁아카이브
▁내비
▁돌기
▁원나라
▁퀘이크
▁티아라
▁WORLD
러미
▁성룡
▁이규
▁일찍이
▁신천
▁읽히
▁들이받
▁모차르트
▁비닐
▁샤먼
▁조디
게이트
▁쓸리
▁얼라
▁Now
▁뿅
▁반려
▁버지
▁힘내
▁윤석민
▁오블리비언
▁심볼
▁판인
ayer
▁에스퍼
▁프랭클린
▁스탬
▁특례
▁해지
▁동호인
▁똑바로
▁이광수
▁프로페
▁헤이즈
▁일회
▁XI
▁과묵
▁달렉
▁톰슨
ling
▁거주민
▁계약자
▁DL
▁군용
▁권속
▁경계선
▁싸그리
▁위안부
▁별점
▁숨결
▁요도
플라이
▁HKT
▁다이어
▁로렌스
제프
회의
▁격분
▁길동
▁실기
▁절제
▁한문
▁Hi
▁래더
▁추격전
▁기권
▁햐
▁공민
▁안구
페르노
▁떠나가
▁여운
▁Har
▁모로코
▁돗
▁훤
▁빈곤
▁슈츠
▁원반
▁제라드
대군
▁뺨치
▁위임
▁일식
▁Med
▁사이렌
▁은신처
▁름
▁백호
▁승조
▁연마
갯소리
▁EXE
▁이마이
▁끌어안
▁1934
▁인페르노
▁귀속
▁만성
▁유품
▁Sam
▁구매자
▁눈부시
▁호타루
▁공평
▁Death
▁Space
▁샘플링
▁워해머
▁분하
▁야유
▁주화
▁MOVIE
▁인술
▁황룡
▁GITADORA
야구
▁KE
▁레티
▁루팅
▁아세
▁양팔
▁코쿠
▁타깃
안군
▁더듬
▁세조
▁선교사
▁테크놀
▁걸어다니
통일
▁-!
▁안주
▁마음먹
▁보컬로이드
▁XG
▁수모
▁창간
▁Def
▁연장전
▁태양계
▁Pass
▁홈플러스
▁고글
▁금빛
▁인가
▁감염자
▁번역본
▁오아시스
▁Sweet
▁도핑
▁수속
▁유타카
▁Friend
▁금단
▁속칭
▁인턴
▁바운
▁성종
▁장자
▁인플레이션
▁드미
덩어리
▁시위대
▁Park
▁짠
▁EB
▁무마
▁발단
▁바닷가
▁부착물
▁스펙트
iny
▁눈여
▁무트
▁수반
▁수첩
▁엠블럼
▁우스갯소리
팔구
▁야오
▁톱니
▁팔라
▁하룻
▁ISO
▁니스트
▁소방서
▁템페스트
▁독고
▁이견
▁종속
▁함성
▁bit
▁선호도
▁아즈마
▁드로이드
▁만연
▁잠자리
ortex
▁십중
▁지마
이시
▁고압
▁스구
▁엠마
▁포식자
▁삼국지연의
제비
▁그람
▁받침
▁번화
▁비겁
ople
▁십중팔구
▁플레이버
실신
하늘
▁HY
▁미얀
▁백과
▁자상
▁껍데기
▁떡실신
▁레이팅
▁사토루
▁정박
▁한큐
▁그지없
UK
▁보살피
나크
ASY
▁구수
▁양육
다이스
▁관현악
▁부르크
▁그리워하
▁조라
▁헌납
▁협의회
▁Story
바꿈
▁식용
▁세이프
▁MY
▁김연아
▁거너
▁검출
▁노장
ental
▁나지
▁머슬
▁밀수
▁실격
▁안대
▁전근
▁로드리게
꿀멍
▁Bu
▁If
▁금세
▁모란
▁셋쇼
▁has
▁데꿀멍
▁셋쇼마루
▁카빈
▁신뢰도
▁쳐들어가
▁린코
▁정국
▁Inv
▁Sur
▁WWF
unk
▁김세
▁탈리
▁디폴트
가요
송이
▁계투
▁아톰
▁재차
ander
▁비어
▁엘릭
▁직급
깃거리
▁숙제
▁카키
▁min
▁땅굴
▁슈테
재욱
▁경례
▁요절
▁헐리
▁합격자
▁라멘
▁원내
▁태후
▁거하
▁막시
▁칩셋
▁통통
▁슬럼프
▁지원자
66
ubl
▁라그
▁음역
▁잠정
▁캡쳐
▁평온
▁삼각형
▁발진
▁변칙
▁Cha
▁병풍
▁사스
▁신승
▁지네
일비
▁달구
▁중파
▁미국식
▁맨몸
▁주지
▁이바라
▁지원군
▁무구
▁속사
▁스톱
▁유흥
▁점장
▁창출
우로스
▁광해군
▁연옥
▁이보
▁무례
▁본점
▁은둔
▁인제
▁환승역
▁타이베이
▁클라이맥스
▁생식
▁Never
거래
▁인삼
▁점치
▁하원
▁마일리지
▁가희
▁반년
▁수트
▁지드
▁혼용
▁아야노
▁John
str
▁GE
▁발기
▁안즈
▁유린
▁트란
▁빗자루
곡역
ley
▁나트
▁사절
▁의병
▁케이이치
▁팥
걸스
미아
▁발성
▁성북
▁케어
▁쾌적
▁DSP
▁과거사
▁돌이키
▁블로킹
▁점프력
▁사이클론
▁몽키
▁밀짚
▁바텀
▁일괄
▁다르크
▁상승세
더리
▁겨냥
▁변기
▁요크
▁LOL
▁평의회
▁핫토리
폭풍
RAS
▁di
▁관세
▁살육
▁서주
▁스맥
▁양천
▁스냅드래곤
▁군장
▁부팅
ords
▁스맥다운
ope
▁ㄸㅏ
▁거들
▁고딕
▁제아
▁득점자
▁미치루
▁성물
▁저편
▁두루마리
거나
▁노련
▁봉신
메이트
▁바깥쪽
▁야마노
▁RT
▁YG
▁난도
▁샤인
ㅇㅕ
▁연혁
▁그리폰
자치단체
▁미노루
▁노블레스
▁지선버스
▁GU
▁Tra
▁코마츠
▁키쿠치
▁법령
▁키리코
▁3500
승우
▁음질
▁존기
▁질럿
▁결정타
▁치우치
▁멱살
▁백설
▁223
▁김유진
▁부지기수
▁파우스트
▁쟝
테라
▁정근
고로
▁감명
▁이코
▁입찰
▁끌어당기
ux
▁살벌
udio
▁거리낌
▁몰아가
▁표지판
▁갉
▁군청
▁연못
▁타도
▁고고학
▁연장자
▁Will
서리
▁껴안
▁몸값
▁분출
▁콘스
네이션
tain
▁Bro
▁포스팅
▁\]
▁샤우
▁안영
▁외주
프릭스
▁가로지르
▁기타프릭스
▁와드
▁제천
▁ㅇㅡㄹㅅㅣ
▁디어
▁마우
미사일
▁Cry
▁Mer
▁아리마
▁아마노
▁몰두
▁우버
마이트
▁대천사
▁혹시나
▁압둘
▁그늘
▁차츰
▁페드로
▁wikipedia
▁Net
▁Set
▁there
▁내력
▁리토
▁수이
▁웅장
▁정진
▁로스쿨
▁다승
▁볼링
▁추대
▁불명예
▁수호신
토메
▁자택
▁파프
raft
▁영웅전
▁하룻밤
▁Party
▁사채
▁에델
▁해협
▁아나킨
isode
▁비석
▁신진
▁샛
▁사춘
▁신룡
▁신혼
▁알렌
▁동아일보
▁Single
▁다비드
▁불상사
▁스크랩
▁핵폭탄
▁오클랜드
▁노량
▁분단
▁입상
▁우에다
ino
▁소인
▁스캇
▁SHOW
▁미네르바
▁NV
카타
▁hp
▁이블
▁타란
▁루돌프
▁살인범
▁다이너마이트
▁은인
▁이건
▁처자
▁390
▁마유미
▁질책
▁life
▁PM
▁과대
▁USA
▁fr
▁엄친
▁관내
▁역이
▁체면
▁쌍방울
▁뮐
▁아귀
▁왕권
▁공용어
▁마석
▁저속
▁조만
▁252
▁클레멘
▁와이파이
eed
▁수교
▁저절
▁주박
그래피
▁동맹국
▁보이즈
▁부조리
프레이즈
▁최종병기
▁경부고속도로
▁권투
▁물결
테라스
▁등짝
▁깨뜨리
▁나이스
BE
rol
▁바크
▁일간
▁조예
▁드래건
▁토에이
▁헬리오
▁훈련장
▁궁정
▁나자
▁시정
▁총신
▁타루
▁이신형
▁탈바꿈
▁Gener
▁의인
▁이형
▁컵스
▁쿠가
▁호적
▁216
▁계약서
▁저절로
▁청주시
▁와일드카드
아르
▁-.
▁눌리
▁라벨
▁애호
▁탄력
▁횃
▁긍지
▁로토
▁애덤
▁나가사키
▁숄
▁거란
▁미네랄
ement
ations
▁쫒아
▁유가족
▁아마테라스
▁애플리케이션
▁캐치프레이즈
융합
▁숙종
▁달력
▁맹렬
세이돈
▁핵융합
▁포세이돈
▁불시
▁온리
▁외할
▁번역가
==
▁기증
▁사타
▁SKY
▁국외
▁김남
▁Hero
▁미야모토
▁분담
▁송정
▁스필
▁375
▁File
예프
▁김호
▁생방송
▁수두룩
인드
▁익사
ball
빙글
▁개관
▁쿠페
▁큐리
▁터빈
▁밑바닥
▁지하실
▁김제
▁반찬
▁손길
▁쿠와
▁흘러
▁격납고
▁교황청
▁레바논
▁불어넣
▁전리품
▁정보원
▁무라카미
▁별반
▁폐교
▁피시
▁현종
▁music
▁큼
보트
▁뒷담
▁방전
▁뱌쿠
▁인장
▁메이슨
▁몰려들
▁휴재
ient
▁글래스
▁유목민
▁걔
▁권혁
▁인위
▁모니카
▁PG
▁비방
▁셔터
▁직진
▁밀가루
▁실린더
▁유시
▁1935
▁만신
▁산요
▁오나라
▁충실하
레프
이야
▁상서
▁링고
▁가우스
▁기념관
의지
▁속아
▁외판
▁더욱더
▁매출액
▁사춘기
oe
▁Ma
▁묵묵
▁실례
▁조경
▁루가
▁박동
▁발포
▁불굴
▁사이다
포역
▁원체
▁폄하
▁옥타브
▁투르크
▁흑기사
LY
▁셧
▁대모
▁충신
▁구룡
▁분양
▁속죄
▁1919
▁댈
▁자급
▁정승
▁타코
▁계급장
▁포르쉐
▁김신
▁현세
ival
▁불어나
▁Tour
▁금천
▁퇴직
▁환관
▁유키오
▁까칠
▁워스
▁육탄
▁바리에
▁매그너스
▁례
▁et
▁통영
▁802
▁조준기
▁콘스탄티노
▁Christ
다주
▁두세
▁수양
▁오랑
▁Sou
▁상급자
▁준이치
▁판박이
▁견고
▁세터
▁충무
▁USS
▁케이타
▁레진
▁엘렌
▁적국
▁부대장
▁스파이럴
더미
▁게인
▁내분
▁징벌
▁틈타
▁메이스
▁무리뉴
▁플루토
핑크
▁농성
▁서커
▁자릿수
브로
▁백발
▁지코
▁방향키
▁1911
부치
유산
▁국한
▁루니
▁소이치로
▁BLACK
▁신해
▁큐트
▁DAY
▁리투아
▁미사토
▁리투아니아
▁ㄴㅛ
▁pop
▁열등감
▁네버
▁뛰쳐
▁로아
▁스도
TH
나멀
▁가열
▁김한
▁섭정
▁스니
▁315
▁머나멀
▁자가용
루가
▁위닝
일비재
▁1700
▁비일비재
▁레퀴
▁마귀
▁매료
▁모태
▁SSD
▁왜냐면
▁후부키
▁그레이스
ISS
▁극명
▁도넛
▁마담
▁의기
▁재계
▁강남역
▁마사시
▁머큐리
▁파라다이스
▁서든
▁활력
▁YOU
▁op
▁굵직
▁에리스
▁지식인
▁구위
▁손색
▁폐위
▁바닥나
▁연산군
▁대전차포
밍고
백호
▁보전
▁영차
▁적잖
▁직설
주니어
▁살라딘
press
▁굶주리
▁끼얹
▁심부름
▁밀짚모자
▁사카가미
차원
▁TA
▁멩스
▁수원역
▁아우라
▁하버드
▁Storm
▁신형
▁황녀
vil
▁가계
▁사치코
▁엑스포
날레
▁양정
▁연필
▁종반
▁서대문
▁츳코미
▁음주운전
보스
▁마제
▁목장
▁핸디
▁KN
▁승룡
▁영력
▁이너
▁잔치
▁한미
▁굳건
▁본업
▁세이라
▁뛰쳐나가
▁가우
▁미화
▁신스
▁장이
▁파란
▁IEM
▁경기관총
▁렴
▁Sn
▁주저앉
▁1910
총사
▁교직원
▁알아주
▁얌전히
쩌둥
▁외과
▁하강
▁이타치
▁풀타임
▁마오쩌둥
une
▁교배
▁나약
▁브렛
▁이덕
▁재편
onder
▁성대모사
▁SPECIAL
▁쏴
▁노역
▁조차
▁묵시록
공원
▁스펜
▁영정
▁이완
▁히타
▁305
▁Hel
▁경의선
▁동양인
▁원자로
▁cont
▁손견
▁코니
osh
▁기색
▁소자
▁호가
▁타마키
천리
ILL
▁순교
▁ACE
▁들이닥치
▁라울
▁발주
▁엘라
▁재보
▁적장
▁주선
▁밀크
▁수회
▁이불
▁성매매
▁Take
▁이징
▁포커스
미트
▁고군
▁기울어지
▁소비에트
저곳
▁음절
▁혼종
▁맹독충
▁파헤치
▁이곳저곳
▁MH
▁금물
▁대림
▁손잡
▁sec
ㅁㅏㄴㅇㅡㄴ
▁Mon
▁이카리
▁TRPG
정사
▁양덕
▁횃불
라이터
▁555
▁옐로우
▁키리시마
▁북아프리카
▁돌발
▁부포
▁Key
▁말려들
▁퍼레이드
ta
▁김은
▁루디
▁먹방
▁복각
▁선율
▁추론
▁서스펜션
건설
▁결속
▁니콜라
▁팰리스
브레
▁광동
▁명동
▁반반
▁셔플
▁치어리
▁마케도니아
파시
▁김장
▁미역
▁얼른
▁BMS
▁Que
▁모사
▁증표
▁무용지물
▁야인시대
RO
센터
▁에마
▁적의
▁함유
▁연막탄
▁모의고사
▁프로그래머
▁브렌
▁자우
▁흉노
▁히트맨
▁빙하
▁헤카
▁건방지
▁메피스
▁콤플렉스
▁가늘
▁태사
▁후사
ider
▁김기태
▁나가토
마키
▁스에
▁옆집
▁떠다니
▁사들이
▁남대
▁재조
▁돌고래
▁요르단
▁FS
▁도화
▁민망
만별
베트남
▁천차만별
WAR
▁강기
▁신태
▁폭락
▁girl
산부
▁가뭄
▁바벨
▁아린
ense
▁666
판지
▁자초
▁촛불
▁코바
▁가트
▁쾌감
▁시이나
▁명색
▁왓슨
work
▁거시
▁남궁
▁린스
▁쟈니
▁무의미
▁PTS
▁Sol
▁전기톱
▁너트
▁미형
▁용신
▁프록
▁them
▁미츠루기
▁겨자
▁압승
▁스탠리
▁걍
하고
▁라디
▁성불
신저
▁동백
▁진명
▁문화사
▁아이린
▁우루스
▁영화배우
▁렬
▁JD
▁커밍
▁펀트
▁Nor
▁모모코
▁텔레파시
▁눈매
▁명하
▁보류
▁설리
▁씨름
▁이반
▁501
▁vol
▁시제
▁중용
▁청각
▁하청
▁레퀴엠
▁칼로리
▁통조림
▁문호
▁식칼
▁실권
누마
▁감찰
▁이효
▁방망이
▁라나
▁원서
▁장려
▁리아스
터지
▁광란
▁없음
▁추앙
웨이트
▁연구생
▁html
▁하이스쿨
▁법조
▁친부
onic
▁416
▁나루미
▁뒤쫓
▁무함
▁촌장
ible
▁밀라노
▁상하이
▁ZERO
▁프라이스
▁youtube
경지
효과
ELL
▁성계
▁시브
ㄱㅓㄹ
▁end
▁Cortex
▁발당
▁최준
▁맞대결
▁아라타
▁XIII
▁대항해시대
▁비들
▁Dem
▁망원경
가짐
사태
▁백모
▁타오
▁노무라
▁적나라
▁아이파크
▁어쨌거나
▁견훤
▁딴지
▁명랑
▁바키
▁버트
▁삭스
▁주리
▁!!!!
▁Great
▁이야깃거리
▁보패
▁소나무
▁키네시스
▁해수욕장
idd
▁오성
▁우주인
▁유투
▁아무로
▁핍
가타
▁최형우
▁0000
▁쿠웨이트
서니
와리
▁MUSIC
▁NR
▁남해
▁전일
apan
▁차량기지
▁VF
▁마조
▁짤짤
▁ARC
▁다이고
▁알려주
br
▁뎁
▁로케
▁채권
▁총평
▁내지르
▁넘어뜨리
▁Skill
▁단결
▁말썽
▁심해
▁샌드백
▁종착역
▁튀르크
▁리디
▁천룡
▁표범
▁ㅌㅡㄴ
▁로미오
▁Univers
▁바래
▁슈마
▁용접
▁자림
88
▁냄비
▁민수
▁베로니카
▁감차
▁논외
▁도산
▁사파
▁푸치
▁헬싱
▁갈아엎
▁크루저
▁욘
▁모하
프레소
성장
▁갈망
▁시메
▁온의
ㅁㅓㄴ
▁대한제국
▁망나
▁모리스
올로
▁say
▁연두
▁완주
▁쿠지
▁탈모
▁검법
▁숨지
▁오션
▁윤회
▁장창
▁Die
▁무진장
▁Apple
ami
▁부디
▁인대
▁충당
▁카카시
▁우디
▁아스가르드
▁수프
▁하체
페리온
▁천성
▁두들겨
▁배급사
▁Real
고짜
광이
▁다짜
▁섬머
▁시우
▁근위대
▁박찬호
▁블라인
▁시발점
▁시험장
▁타이가
▁다짜고짜
▁카자흐스탄
▁숟
▁간수
▁단호
▁Shad
▁권수
▁미어
▁에밀
▁탁구
▁승하차
▁오라클
▁니콜라스
▁위압
▁크랙
▁430
▁Like
ATE
▁명지
▁비주류
▁극단주의
▁트레이스
▁포르투갈어
▁nm
▁서강
▁염증
▁출국
▁현수
▁want
▁안락
▁짜내
▁회식
▁CU
▁원군
▁249
▁광명시
▁일제히
▁레드삭스
고치
ori
▁야크
▁투창
▁아오야마
▁버퍼
▁폭죽
▁소외
▁순종
▁유유히
▁빼먹
▁수난
▁악재
▁웅진
▁자타
▁자하
▁재우
▁추상
▁장난치
▁2022
메트
▁불기
▁와다
▁슈이치
▁아르마
▁경복
▁관례
▁별장
▁국내외
▁삼총사
▁시공간
▁줄리엣
▁루미너스
▁판타스틱
▁페라
▁적외선
▁Winter
▁고졸
▁앙상
▁강민호
▁무함마드
▁넷째
▁신오
▁사마귀
▁둔갑
▁상디
▁조반
▁SUV
▁이리스
▁레전더리
▁역정
▁잇세
마르크
▁사유리
▁해적판
▁다이나믹
▁코퍼레이션
ude
▁죠니
▁Mad
▁네이밍
▁오오타
65
▁사샤
▁토아
▁Trans
de
▁은평
▁피쉬
▁Doc
▁라이어
▁Force
so
부쿠로
▁맘대로
▁무기고
▁정근우
▁part
▁stay
▁위급
▁리어스
▁펠릭스
▁에스프레소
▁리크
▁자경
덕지
▁개표
▁누드
▁왜구
▁UTC
▁Road
uz
▁번작
▁열강
▁하노
▁아케미
▁트레버
▁금수
▁보아
▁228
▁전자기
▁Step
▁로디
▁번들
▁셔틀버스
34
드기
▁AH
▁막사
▁비호
▁참호
ames
▁교통부
▁에버튼
uture
링턴
▁성자
▁Champions
▁입당
▁주립
▁짧아지
▁다이애나
▁루갈
▁아누
▁파스타
light
▁빙글빙글
▁Je
▁홍설
▁비트매니아
▁뜻밖
▁에루
▁츠요시
▁포르테
▁보람
▁입김
▁war
▁마사미
▁아이샤
▁저항군
▁스틸러스
▁미마
▁번성
▁웨스
▁곧이어
▁에미야
▁Av
▁야사
▁페퍼
토모
▁떄문
▁잠적
▁케일
▁기대감
▁단기간
▁비웃음
▁Feel
▁쟤
▁챈
▁Ag
▁독주
▁락스
▁참치
▁조성주
▁종로구
▁코로나
▁수학여행
▁잠재우
WS
▁길가
▁어부
위원
▁번외
▁총체
▁640
▁이브스
▁크나크
▁테이머
▁VI
▁보좌관
▁차일드
▁가닥
▁대기실
▁아야세
▁이동기
▁고해
▁포옹
▁아이비
▁프랑코
▁브록
▁신의
▁정훈
▁지석
▁다이버
▁뒷부분
당선
▁내림
▁식감
▁234
▁ACT
▁김현수
▁도우미
▁브리스
▁유대교
▁미치광이
놀드
▁잔잔
▁팔콤
▁iP
▁고비
▁수조
▁열도
▁Her
▁칵테일
▁현저히
거시
▁오정
ital
▁325
▁CON
▁mg
▁멸시
▁장보
▁토도
▁효도
▁백두산
▁신타로
란다
▁랠리
▁울릉
▁치환
▁반역자
anger
드릭
사쿠
▁로또
▁세습
▁열연
▁한수
▁초토화
▁틀어박히
▁싯
▁알마
▁청라
▁보안관
▁웨일스
▁주택가
▁타이머
워지
▁교화
▁니어
▁분투
▁마나미
▁스기타
▁종업
▁죄악
베로스
▁Gal
▁대니얼
▁레스큐
▁부적합
▁수리비
▁조각상
나츠
보레
▁로밍
▁편향
▁덜덜
▁브금
▁초판
▁축출
현역
▁광폭
▁낙태
▁바그너
▁종사자
39
슐리
bum
▁당진
▁명수
▁영판
▁징표
▁행크
▁깨달음
▁엘리시
▁Mal
▁루시안
▁쇼타로
▁에테르
▁ㅠ
▁다발
▁방수
▁시치
▁실크
▁오유
수아비
▁매끄럽
▁하운드
▁허수아비
▁깡통
▁라피
▁제패
▁탐험대
▁풀어내
▁SDRAM
22
▁만인
▁이용한
자마
▁눈알
래스카
▁add
▁간간이
▁Vita
알라
▁뱃속
▁일색
▁침범
▁퇴임
▁톡톡히
▁밀폐
▁Knight
▁경화
▁서고
▁심도
▁상류층
▁시그널
▁크랭크
▁EASY
▁스프레이
▁파이어볼
국수
▁gu
▁고쿠
▁구레
▁자궁
▁플랑
▁구설수
▁빠져나오
위성
▁남원
▁소말
▁신판
▁양날
▁진이
▁칠곡
▁김풍
▁로건
▁영통
▁구독자
▁들어주
쓸이
▁Pa
▁단군
▁미켈
▁승선
▁코그
▁265
▁스레드
▁앞당기
▁이하일
▁퍼스널
플린
▁HA
▁수완
▁비너스
▁정윤종
▁카우보이
라면
▁로카
▁양복
▁증대
▁로터스
▁스릴러
▁찝
lex
▁교명
▁구내
▁근교
▁애원
▁넘버링
▁사냥감
▁pack
▁김갑
▁변조
▁art
▁고세이
▁검투사
▁암살단
▁천안시
▁낱
티엄
▁개역
▁경차
▁대작
▁약초
▁필명
▁외무
▁여성향
▁전문점
▁펜티엄
▁메피스토
▁신분당선
▁Direct
블러
▁신창
▁제논
▁우리나라
▁카게야마
37
▁라데
▁제츠
elie
▁아야네
▁유년기
▁TC
▁순하
▁운하
▁시마즈
▁정무
▁태아
▁케이코
▁슈퍼주니어
fl
윤수
DDR
▁카루
▁리더십
▁지구력
▁짤짤이
▁우에스기
hem
▁기뢰
▁돌핀
▁라엘
▁라쿠
▁헤치
▁반도체
▁유소년
▁ad
▁뮐러
▁성욕
▁황재
▁입학식
코르
▁가람
▁대망
▁바바리
▁Heaven
불복
사슬
▁발군
▁참신
▁폭넓
바라기
▁복불복
▁중남미
▁보드게임
▁again
▁괘
▁리비
▁본심
▁원투
▁댈러스
▁부끄러
▁1933
▁붉히
▁소각
▁스무
▁예견
▁철판
▁MSX
▁Tom
▁리벤지
▁배고프
산성
▁숨통
▁위축
▁작명
▁헌팅
▁코에이
▁System
▁지브
▁002
▁마리카
출력
OWN
▁밀양
▁발작
▁신년
▁캄보
reet
▁사업소
▁타쿠마
▁키아
▁아케치
나길
▁위그
▁Luc
▁기나길
▁2400
▁Come
▁PTSD
▁에인
▁직면
▁투혼
▁티비
▁이종범
▁로드리게스
▁따름
▁무수히
▁서초구
▁티타늄
생물
▁OC
▁당직
▁프롬
▁ㄹㅣㄴ
▁브리지
▁심포니
▁엎어지
▁Days
▁상록
▁상봉
▁의역
▁일신
프리트
▁경춘
▁데어
▁보보
▁촉구
▁용인시
▁only
▁RB
▁구걸
▁도태
▁역이용
▁원동력
▁GF
▁마레
▁수목
▁시디
icle
▁골판지
▁일일히
▁제레미
▁안팎
▁천수
▁호모
▁우르스
▁노동조합
▁어드밴티지
▁우즈베키스탄
67
버둥
▁월광
▁샐러드
▁핸들링
▁왼손잡이
▁KV
▁코아
▁마나카
▁소용없
▁이지선
▁걸레
▁선점
▁쭉쭉
▁펜타
커버리
▁쇠사슬
▁용기사
▁장단점
진창
▁스러
▁앵그리
▁행선지
▁아르테미스
▁룰렛
▁유구
▁브루드
▁오카베
▁1931
▁망가뜨리
▁heart
▁주권
▁마사유키
▁Intern
메르
에나
▁강진
▁램지
▁설날
▁신변
▁허드
합중국
▁엉망진창
▁LPDDR
사메
▁메키
▁봉투
▁페티
▁글라스
▁대구광역시
St
hn
▁얍
등병
▁벌집
▁산림
▁중증
▁혼수
▁삼국전
38
▁충이
▁이름값
세어
▁손흥
▁쑤시
▁로빈슨
▁미얀마
▁크래쉬
▁아이패드
ㄷㅡㄴㅇㅛ
▁교량
▁뉴비
▁능통
▁병자
▁Mil
▁오키타
들러
▁신교
▁장료
▁포가
▁기동대
▁진풍경
▁사이타마
▁ㅇㅇ
▁용시
▁동력원
▁마르크
▁버지니아
uss
▁감축
▁굴절
▁담보
▁롤리
▁의왕
▁per
▁ㄹㅣㅅ
▁뿌리치
▁미합중국
뱅이
▁독신
▁부비
▁시이
▁철제
▁JYP
▁Ult
▁인원수
▁시라이시
▁요시유키
du
▁그릴
▁원만
▁하울
▁갑작스레
▁송라이터
▁꿍
▁LB
▁계룡
▁디노
▁청계
▁최지
▁특무
▁황해
▁비키니
▁핵전쟁
성군
태인
▁겁먹
▁윅
메탈
▁메즈
▁바꿔
▁신인왕
▁ㄷㅓㄴㄷㅔ
▁내포
▁순양
▁개소리
▁거주자
십자
▁ㅁㅔ
▁봉건
▁키르
▁태엽
▁발버둥
▁데이터베이스
에리
▁도수
▁율리
▁서투르
▁탐험가
달프
▁에토
▁한진
▁자치구
▁엑스박스
▁카츠라기
셀러
unt
▁노쇠
▁백상
테이커
▁KBL
▁까발리
▁대리인
▁라이오
▁토레스
▁STAND
▁중앙아시아
겨우
라트
사상
▁두꺼
▁비야
▁장정
▁중전
▁퇴화
ines
▁동대구
구르
▁신겐
▁이륙
▁푸틴
▁환기
▁성행
▁외양
▁장조
▁제련
▁245
▁블라인드
▁스펙트럼
▁캄보디아
▁House
ler
▁린드
▁면세
▁미자
▁방한
▁산출
▁임정
▁혼내
▁강정호
▁언더테이커
틀린
▁her
▁남다르
▁손흥민
▁코랄
▁221
▁GOT
▁이사벨
도시
비티
▁전패
▁칠성
▁태커
▁릴리즈
▁몰아주
▁당부
▁신음
▁엘사
▁호쾌
▁510
▁Champion
▁단추
▁방위군
▁잡아먹히
▁객차
▁거진
▁맨서
▁메기
▁제끼
▁직할
▁GBA
▁프로펠러
▁난징
▁떠도
▁잠잠
▁오거리
▁침략자
쿠버
▁걸프
내셔널
▁who
▁버로우
▁인터내셔널
부진
임새
▁굽히
▁동차
▁마부
▁산체
▁워킹
▁뒤섞이
▁아타리
▁오가타
▁"...
체어
▁도원
▁뒤돌
▁역순
▁스터디
alent
수단
▁급진
▁다리아
▁프랑스인
▁."
▁라사
▁병법
▁불패
▁살림
▁세분
▁소켓
▁원이
▁윤지
▁절실
▁하천
ANCE
▁로리콘
▁친일파
▁휠체어
▁렝
▁ㅅㅔ
▁반월
▁러시아인
▁재력
enn
▁남색
▁린네
▁매카
▁처칠
▁패망
▁교통카드
▁군포
▁눈길
▁애증
▁해괴
▁질투심
▁다급
▁하키
▁날라가
▁사가라
▁제니퍼
▁토모미
▁고귀
▁까치
▁등신
▁왼발
▁조시
▁데저트
▁HL
▁망언
▁명상
▁장지
▁지략
▁좌회전
▁피셔
▁217
▁시어터
ology
모으
▁건과
▁디안
▁럭스
▁빙빙
▁쟁쟁
▁주현
▁최승
▁메인보드
oom
▁약국
▁위선
▁점원
▁체자
▁초신
▁편법
▁김광현
▁수비대
▁고층
▁동두
▁믿기
▁여력
▁Del
▁마커스
▁영업소
▁제이콥
thing
▁유야
▁복음서
▁손아귀
▁유리창
▁ed
▁리세
▁전륜
▁정민
▁주조
body
클레
▁장검
▁적재량
▁코야마
간다
▁색소
▁오열
▁파이로
▁크리스틴
▁넋
게티
▁가도
▁붕어
▁사생아
▁재결합
▁카즈토
▁순정만화
▁기니
▁수로
▁왕세자
▁한바탕
익스
▁심경
▁피지
▁힘드
▁치료제
▁야마시타
▁로메
▁본즈
▁소거
▁의과
▁재량
▁즈이
▁소나타
워커
VEL
▁독하
▁레디
▁부차
▁모모카
21
▁셴
▁휘발
▁테레비
▁Full
▁퀼
▁듀란
▁셰리
▁진홍
▁갖가지
▁전주시
▁키카
▁전문학교
▁오퍼레이션
▁동면
▁펀드
▁231
▁캔자스
▁떡칠
▁심기
▁한기
▁과부하
▁마르티
▁아이치
my
테인
파르
▁마리코
▁무신론
▁섣불리
▁오펜
▁장작
▁조원
▁함량
▁회랑
▁NTR
▁뒤따르
▁리얼리티
▁Remix
호크
▁사선
▁월화
▁최용
▁항시
▁게오르
▁웨스턴
▁고카이저
동역
▁개찰
▁종식
▁호라
▁머스탱
▁아키토
▁간선버스
▁해바라기
▁히데아키
▁단가
▁동귀
▁신림
▁싹쓸이
▁버나
▁오구
▁219
레로
저버
▁대소
▁폭주족
▁헬레나
▁레오나르도
▁스타스크림
ARK
▁es
▁당뇨
▁진위
▁물방울
▁수색대
▁옵저버
▁이승기
▁이즈모
▁스카이워커
▁역수
▁육아
▁일류
▁퓨처스
치우
▁쥐어
▁증진
▁영상물
▁정치가
▁석가
▁신통
▁재화
▁직사
▁패티
▁활로
▁슈퍼볼
ene
▁도안
▁양준혁
▁주제곡
▁카미유
▁1917
▁Mach
▁차징
어머니
▁귓
tus
▁계주
▁대북
▁뱃지
▁하락세
▁트레이서
▁론도
▁지프
스타인
쿨루스
▁협주곡
▁엥
러붙
▁EG
▁낙타
▁느슨
▁불릿
▁애너
▁원료
▁키프
▁des
▁red
▁미흡
▁Mat
▁독일인
▁마땅히
▁선후배
▁안산시
▁엉터리
▁윤종신
▁피츠버그
▁자동변속기
▁왁
림돌
▁마방
▁문희
▁뒷모습
▁아놀드
▁아이오
▁카디널스
아프
▁난관
▁레노
▁메로
그라들
▁공손찬
▁부녀자
▁어윤수
▁Spir
▁SUPER
▁도련
▁장합
▁트렉
▁파묻
타니아
▁유우나
▁이케부쿠로
▁아구
리케
산군
▁케스
▁광신도
▁링크스
▁뼈아프
▁승리자
▁에이핑크
▁중기관총
말라
▁리빌
미디어
▁피부색
▁디바이스
▁데블
▁삼가
▁전업
▁조아
▁준말
▁서해안
sp
미온
▁거구
▁노구
▁독창
▁레반
▁미행
▁성소
▁항문
▁용족
▁후우
▁피고인
▁행정동
▁옴니버스
▁ml
▁단락
▁묵인
▁김경훈
▁도무지
▁센다이
▁전국구
곡리
▁강희
▁단맛
▁치에
▁가인
▁설원
▁에트
스턴트
▁헤르메스
▁da
▁남인
▁산적
▁세기말
▁인스턴트
▁their
▁PE
▁신마
▁연휴
▁용돈
▁308
▁불사신
ONG
▁등대
▁모국
▁속속
▁아코
▁초심자
▁수서
▁실세
▁정주
▁흉부
▁목격자
HA
▁신명
▁영영
▁판례
▁울트론
▁스테레오
유예
▁경쾌
▁낙사
▁주원
▁푸딩
▁LCS
▁볼프강
▁생물체
▁겨우겨우
box
▁계양
▁226
▁FINAL
▁구토
▁노카
▁렌지
▁이천
▁재물
▁걸림돌
▁변함없
▁스트링
▁바로잡
▁아츠코
▁도카이도
▁never
▁티라노사우루스
순환
엔드
▁쉐보레
▁아발론
▁조건부
▁서프라이즈
▁Secret
▁원탑
▁파피
▁황궁
▁다람쥐
▁부통령
▁이슬람교
▁두어
▁뛰어가
▁릴레이
▁모기업
▁규명
▁북위
▁번화가
▁금상
▁본기
▁218
▁기념비
44
자락
▁도용
▁빨래
▁생생
▁친족
▁관람객
▁리츠코
▁피아니스트
불사
▁IG
▁남방
▁셀러
▁초구
▁화살표
▁꿀리
▁박원
▁수세
▁우키
▁플러그인
▁고요
▁리지
▁무뚝
▁차오
▁줄무늬
▁치어리더
▁타카야마
▁성산
▁위세
SE
▁공양
▁문예
▁골머리
▁러프
rive
▁무뚝뚝
▁마드
▁시망
BL
일체
▁게일
▁기모
▁모세
▁사조
▁세밀
▁끝장내
▁오피셜
▁세공
▁장만
▁str
▁고구마
▁메이든
▁발사체
▁프로텍
▁호크스
31
▁액터
▁페일
▁카즈오
▁폐기물
orever
rew
▁JK
▁Inc
▁Tem
▁ser
▁김종민
▁마음가짐
탄불
▁레브
▁분분
▁수순
▁저쪽
ㄹㅅㅔ
레우스
▁레거시
▁빙그레
▁스펜서
▁이리나
▁가져다주
▁파라과이
키치
▁과천
▁군마
▁굴곡
▁무투
▁방청
▁오트
▁중랑
▁Att
▁프리킥
▁크리에이터
원군
▁강좌
▁마역
▁혹자
▁맥시멈
▁필리스
▁here
▁홀로그램
▁디나
▁방귀
▁스텐
unch
▁관중석
▁힌두교
pm
차림
▁전단
▁col
▁간사이
▁신문사
릿사
▁국보
▁의구
ader
▁Sin
▁랑그릿사
▁야쿠르트
가나
ets
▁몰이
▁문경
▁카본
▁항렬
▁고우키
▁곡사포
▁옆구리
▁오리엔
▁클로드
▁후쿠다
고르
재호
▁둔하
▁아야메
▁IR
▁번안
▁연격
▁Old
▁see
▁Home
▁다물
▁비관
▁엄호
▁출진
▁변화구
▁쓰레기통
▁얏
▁극회
▁무참
▁사황
▁서약
▁일침
▁팽팽
▁GEN
▁Rep
▁플로우
관리
루냐
테크
▁강압
▁거처
▁메신저
▁픽시브
덕이
▁태화
▁구덩이
▁Japan
▁라간
▁유폐
▁영락없
▁Green
▁ㄱㅓㄴㄷㅐ
비행
식물
지부
▁깨물
▁보면
▁CBS
▁백모래
두고
▁성악
▁스캐
▁신예
▁우치다
▁피에로
ily
▁금연
▁사미
▁재연
▁한승
▁
▃
⊸
ㅇ
ㄴ
ㅡ
ㅏ
ㄹ
하
ㄷ
이
ㄱ
ㅗ
ㅓ
ㅔ
.
ㅣ
ㅢ
ㅆ
,
리
ㅁ
ㅅ
지
스
사
1
기
ㅕ
시
0
ㅈ
가
대
나
아
2
있
되
수
그
들
자
전
어
ㅘ
보
정
인
오
상
일
주
장
것
로
마
도
우
다
드
제
트
라
부
적
성
3
미
모
치
신
고
공
르
유
비
무
소
구
동
중
문
e
히
5
-
한
위
타
만
니
경
때
국
년
4
화
레
원
용
'
9
카
거
내
크
당
a
후
조
세
선
없
명
등
작
력
터
버
키
개
실
6
서
연
o
의
생
바
8
방
러
계
7
격
i
영
안
단
역
프
간
:
발
여
물
r
t
차
체
반
않
n
ㅂ
재
분
관
파
진
말
노
데
S
해
"
교
점
월
포
회
속
요
학
래
코
행
능
ㄲ
더
식
본
A
토
저
게
호
피
두
s
과
루
강
임
음
통
군
즈
/
결
각
C
야
초
배
ㅑ
종
매
번
l
디
현
입
출
불
ㅜ
메
같
최
m
설
형
T
판
남
M
티
추
많
편
직
심
산
승
받
태
에
P
특
외
람
브
d
급
쓰
감
건
양
D
E
투
알
면
h
달
금
운
예
패
B
약
!
살
표
함
u
업
ㅌ
법
못
c
목
런
민
I
언
플
R
병
너
처
L
복
O
권
네
준
테
돌
따
애
술
G
좋
독
습
참
천
막
평
른
름
절
황
변
캐
론
존
머
집
N
합
근
려
또
박
왕
F
베
청
항
츠
록
죽
쿠
g
별
션
활
환
악
열
필
페
날
확
망
블
류
ᄆ
y
김
향
K
릭
순
족
담
맞
p
V
~
올
석
울
품
잘
%
량
k
곡
잡
렇
탄
광
H
증
먹
커
?
련
느
손
료
퍼
팀
질
쪽
총
+
폭
케
녀
뒤
ㅊ
클
란
f
워
탈
백
얼
접
글
극
은
랑
송
범
창
높
난
완
령
색
누
철
효
새
혼
와
검
벌
벨
X
v
께
충
듯
든
힘
싸
밀
채
빠
몬
삼
U
괴
락
걸
b
길
귀
W
린
험
끝
북
친
끼
w
슬
슈
립
움
즌
럽
놓
넘
킬
림
육
취
엄
엔
틀
온
희
골
견
랜
착
맨
곳
덕
축
냥
택
눈
앞
쟁
규
허
칭
템
붙
엘
줄
득
링
#
ㅛ
팬
롭
및
갈
늘
봉
찾
책
징
갑
응
널
쉽
떨
턴
침
팔
째
할
몇
측
짜
암
찬
얻
꾸
첫
굴
몰
률
좀
잠
답
율
풀
J
풍
혹
헤
씨
억
묘
즉
압
둘
획
몸
뿐
으
벤
센
협
훈
슷
까
넣
멀
휘
던
궁
먼
례
홍
싶
뜨
찰
렵
염
논
볼
돈
퇴
맡
Y
곤
뉴
칼
뛰
깨
떠
벽
밝
익
숙
님
액
빌
콘
낮
x
딩
끌
컬
닛
탑
찍
갖
샤
렌
슨
웃
]
앙
폐
컨
략
짓
홈
ㅐ
옥
큼
찌
웨
층
을
죄
[
멸
욕
킹
쉬
&
좌
롯
델
꽤
싱
듣
멤
켓
놀
뀌
깝
팅
숨
윤
뭐
쇼
닝
씩
덤
념
웅
콜
딜
빈
솔
잔
흑
롤
욱
<
낙
뜻
혈
객
농
척
폰
빼
픽
푸
ㅋ
맥
뮤
빛
Z
혀
룡
랙
겨
큐
렉
쁘
닥
폴
왜
빨
맹
섬
닉
흥
밖
ㅎ
휴
칸
헌
앨
램
흔
듀
떤
컴
넷
럭
톤
탁
떻
맛
랭
빙
엇
균
털
콤
텐
튼
딱
텔
홀
믹
굉
십
끔
z
럼
땅
=
뽑
맵
혁
쿨
씬
섭
녹
흐
딸
밥
짝
쿄
헬
는
흡
잃
멘
쌍
팩
봇
컵
퀘
쏘
옷
탐
뢰
켄
몽
뷰
펜
꽃
졸
져
젤
탕
릴
엑
즐
꼬
찮
혜
릿
챔
삭
튜
놈
칠
윈
핵
덱
뇌
끄
밤
둥
셀
똑
룹
훨
겁
밍
틴
꿈
납
쳐
킨
낌
싫
믿
읽
깔
묻
덜
탓
퓨
옆
뷔
셈
밴
얘
핑
갤
잉
괜
죠
칙
벗
붕
탱
굳
롱
돕
Q
짧
빅
륙
촌
펼
셔
튀
엽
짐
곧
끊
쓸
꺼
랍
틱
>
냉
*
펙
캠
젠
잇
쇄
닌
힐
쩌
)
덴
폼
멜
콩
둠
뒷
셋
즘
넓
핀
촉
덩
셉
쥬
떡
렬
옵
앗
쯤
젝
첩
빵
쇠
ㅃ
겸
띄
쥐
븐
늦
깊
펠
뿌
컷
j
값
쌓
셜
웹
샷
밑
융
옛
촬
왼
쫓
퀴
낫
랫
흉
텍
꼭
겪
겹
묵
꼽
럿
춘
톨
멋
꾼
뻔
캡
앉
흘
밸
웬
앤
렛
랩
붉
랄
슴
잭
옮
셰
뚫
멍
옹
톰
넥
{
켜
}
헨
쾌
걱
엠
를
딘
톱
젊
섞
렐
긴
킥
숫
틸
섯
_
꼴
둔
빔
떼
캔
듬
궤
텀
닮
잊
펀
ㅠ
깐
뱀
윙
춤
윌
뱅
숲
맺
엉
뉘
틈
닫
럴
댄
겐
탠
읍
짱
몹
팡
훌
혐
갱
멈
깃
롬
핸
숭
써
랗
갓
룰
걷
묶
챙
렘
볍
댓
퀄
녕
툰
삽
깎
첨
룩
좁
츄
빗
륭
렙
탯
곰
켈
낳
낭
밟
팝
룬
픈
횟
릉
덮
렴
ㅍ
펴
릇
빡
냐
삶
q
짤
곽
낚
룸
봄
렁
쏟
섹
쿼
넬
끈
샌
윗
늑
썰
퀸
돼
닿
팽
굽
둑
첼
쩡
뼈
덧
긍
껏
;
앵
곱
샘
뭉
뚜
닐
핏
뜯
흠
툴
뜩
얄
뚱
닭
겉
륜
킷
딴
썩
톡
횡
챠
쭉
왠
엮
긋
왈
얀
쉐
훔
쨌
뱃
멕
넉
맘
슛
훗
띠
웰
쟈
붓
ㄶ
앱
펫
꺾
똥
씌
펄
딕
삐
엣
큰
섀
뿔
핫
턱
햄
뿜
며
펑
둡
깡
뜬
쩍
냄
잦
얗
눕
벅
꽂
씹
뮬
맷
챕
뚝
쵸
뺏
껍
깜
벼
칩
돋
갇
헛
빚
괄
탭
싹
곁
닷
@
릎
녁
듭
딧
훼
뎀
꼼
꿀
엿
몫
텝
밋
멧
펌
썬
|
슐
겔
므
찢
갛
잎
튕
밭
엎
힌
헐
돔
\
깥
퉁
쪼
$
줌
캣
옳
팟
힙
줍
딪
풋
듈
맙
굿
툭
쏠
벙
흰
휩
콥
벳
쿤
밌
콧
뻗
팍
쌀
캄
벡
늬
뽀
픔
굵
땡
챌
뻐
샵
쑤
뱉
흩
툼
흙
꿰
늄
츤
헝
깽
귤
냅
큘
뻥
늙
튬
푼
겟
갚
솜
갯
헷
킴
첸
텟
끓
솟
캘
칫
뭇
얽
붐
끗
ㅚ
넌
콕
륨
젖
쿵
꽉
젼
긁
찔
궐
휠
앰
얹
쉴
팁
뤼
슌
쨩
셸
퍽
튠
잖
뻘
웜
짙
캇
옴
옐
덥
닦
콰
샬
쯔
팜
얇
짖
춥
젬
짬
겜
잣
앓
짚
삿
뽕
뮌
귄
쑥
샐
쫒
볶
꿉
펭
렷
꽁
쌔
젓
잼
씻
홋
넛
쎄
퀵
컫
갸
얌
햇
썸
홉
씀
놔
쥰
굶
넨
뺨
꾀
맑
땀
헥
퐁
샹
껑
껄
(
텅
쩔
댐
쫄
렀
딥
낯
팰
맣
푹
윽
젯
벚
늪
탬
뜸
욘
밧
싣
눌
꿇
똘
뇨
왓
꽝
캉
숍
밈
킵
륵
윕
쁨
뭔
깁
넵
쉘
랏
옌
룻
낡
훤
웍
샴
밉
룽
뽐
숏
훅
멩
캅
탤
얕
빽
숀
뚤
벵
뫼
눅
찜
떄
싯
텁
샨
^
핍
쭈
갭
쌈
윅
맴
씁
왑
쐐
`
랴
뾰
쌩
댕
썹
뺑
걀
깍
뭣
꿍
퀀
덫
늠
뻑
쩐
좆
돗
츳
잽
꾹
꿋
폿
낱
괘
팻
췌
쥴
맏
ㄸ
칵
캬
슘
찝
윳
껌
땜
팥
짊
뎅
잿
솥
읊
갔
껴
즙
퀑
켐
뱌
힛
뭄
촛
괭
쳇
뇽
댁
뿅
렝
콴
릅
깅
퀼
딛
썽
왁
짭
섣
멱
폄
덟
찻
쏙
옅
된
씽
궂
츈
쿡
펩
츰
셴
닳
랠
놉
팸
쿰
뷸
곶
엥
솝
햐
딤
짠
샛
핥
넴
뎃
봐
갉
쟝
얏
뮐
숄
걔
횃
핌
댈
셧
꺽
숱
쏴
촘
숟
걍
ㅞ
뎁
뵈
챈
찡
컥
쟤
쾅
뜰
낸
팎
뮈
꿔
얍
넋
ㅖ
귓
헉
쓴
휙
끽
믈
띵
듄
꼰
슝
놋
굼
촐
쉼
튤
컹
엡
삑
앳
캥
쾨
돛
줏
텃
톳
낄
헴
쉔
듐
삥
륀
쟌
뒹
쓱
핼
웡
뿍
찐
휼
톈
쫙
뼛
찹
녜
엌
숯
뇰
쾰
꿎
쿈
녘
쬐
옇
왔
퓰
뻣
퓌
쑹
댑
멓
윔
묠
갬
궈
춧
볕
떳
끙
웁
괌
힉
낑
슥
펍
훑
뿡
쌤
홧
쇳
쨋
쉰
빤
욤
첵
닙
낵
딨
듦
쏜
긱
낼
롄
뵙
샅
츨
쩧
넝
횬
꺄
맬
냠
칰
둬
닢
욜
삘
쭐
땋
큭
늉
싼
겅
빰
슭
퓸
꿩
눗
꽈
챗
챤
ㅉ
헹
쫑
텡
빕
죤
겋
랖
굇
눔
닻
샥
쑨
켠
씸
즛
벰
쑈
넙
잰
딫
쏭
쿱
윷
냑
틋
힝
뗏
탉
깻
웸
훙
엾
뮴
촨
햏
욥
햅
헵
뭍
땔
펨
멥
혓
쩝
뤄
킁
됨
흄
쭘
빳
꼿
좇
뷜
씰
뮨
냇
몆
깟
뜀
숑
떵
멎
젭
쫀
뀨
봅
찧
쐬
돡
볏
챰
큅
옙
웩
캑
큥
묀
쨍
튿
뒈
젔
쿳
콱
옭
뻬
쮸
콸
젋
짢
뤽
뺌
쌰
훠
꽥
숴
죗
휑
욧
뭥
볜
솩
옻
쳉
넒
짦
휀
샙
둣
썅
붑
쥘
쩜
큔
줘
긔
썻
띔
믐
셩
셍
뽈
쩨
냘
맟
좡
팃
뜷
뵐
붇
룀
겼
곪
틔
쥔
섕
됭
잌
쳄
쉿
귈
탸
꼐
릏
촙
쯧
슉
었
햣
흣
뎐
ㅝ
엷
뎬
읏
츔
묽
띨
갠
솅
왐
곯
뉵
빻
뺀
묜
겍
껸
뺴
떫
켤
닯
뽁
윰
춋
웠
쨰
춉
쾡
퀜
앍
갗
줴
뱁
챵
뼉
꽐
쭤
핳
홑
랸
쨔
겡
륄
솎
닼
짹
슼
큄
푀
쭝
퐈
퉤
쌉
쪄
퍄
앜
았
좔
칡
옼
쳅
챳
땁
쌕
꺅
춰
쇽
퇘
뷁
읭
꿏
졋
굣
믄
켁
횽
삵
쉑
ㅟ
삯
쫌
눙
똬
왱
벛
팹
밞
쇤
훍
갹
겊
븀
떽
뢴
땃
촤
곗
묄
ㅄ
밎
샾
켕
뵘
뷘
헣
웻
롈
ㅒ
큿
벱
읆
컁
랬
왘
꺠
궨
뺄
푈
첬
뎨
쁠
똠
솀
푯
쉭
돚
뷴
켑
뼘
쀼
넹
뺐
췬
돤
괵
먀
늅
븅
헙
섶
꽹
벞
솁
홱
낀
늡
솬
젱
옉
됴
츙
볘
찟
맆
촥
궜
쏩
윾
묭
숌
뱐
졔
뵤
꾐
졍
좍
셤
훵
됸
겻
쫘
멬
챱
쨉
룔
였
뫄
흭
쳔
겆
궃
븨
쒸
믕
쏨
웽
낢
앎
읇
쭙
휨
큠
풉
듸
톄
휄
뗌
휭
뤠
쩄
캰
섥
붸
깄
났
옯
좃
웤
튽
핡
핰
뱡
뾱
밣
귯
빱
쳬
텨
곬
껫
믓
몐
뉼
먄
짯
홰
뚠
롹
춍
퀠
긷
쨜
쬬
ㄳ
읺
폽
묫
퓬
녓
앏
푄
꼇
믜
솽
슾
쪙
헿
귐
뙤
뚥
찿
낟
릐
옘
땟
뙇
섐
맻
솨
웟
툐
ㄺ
헠
섄
튐
묏
됫
벧
싴
훓
멂
쥠
귁
쵼
퀭
걼
뽄
뗑
섰
엪
했
끅
눝
뵹
꽌
밷
숔
잴
좨
촹
뻇
삡
섈
찣
귿
낏
슙
흫
륌
엊
쉠
줫
퓽
녈
뒬
룅
혠
ㅙ
왝
큇
몌
췐
켯
풔
햝
횻
휫
랲
뽜
쁜
앟
읖
큣
댜
렸
뭅
쬔
푱
웝
눞
밐
븝
쉥
툽
흝
껨
닠
똣
젹
쭌
쿽
펏
곂
졌
훕
듕
럇
벋
쟘
츌
튈
튱
햔
싀
쎾
읔
쯩
툇
될
봣
쏼
쥿
떈
똔
랼
맠
큡
냣
쟙
퉈
퓔
뇬
뗴
뼝
섧
쎼
쑴
짫
퓐
햘
뱟
쨘
뎡
떙
읗
챨
툿
흽
걲
녠
돝
띡
핲
휸
떰
뚯
꾜
덷
땍
랐
삣
셕
숩
춈
힣
묾
봑
셱
솓
왤
욬
즤
쳣
캪
콯
톩
뺘
짇
핬
혔
섵
쨈
훝
떱
벴
슁
앝
큉
팤
삷
솃
쿙
쎔
옜
읎
춫
궉
꾿
뢸
쟉
홓
ㄻ
퐝
꺵
댔
덪
뜽
얆
쯋
쳰
횐
ㄼ
눼
읕
컽
갞
뀽
늣
몪
뮻
봙
씼
얶
좝
ㄵ
괞
귬
넼
먕
뭏
앚
쳥
캎
튄
틉
뵨
핧
댱
덬
뗀
뷕
썪
긺
딮
븟
뺙
뿟
죌
퉷
ㄽ
꿘
맕
솰
엏
읒
쳘
츕
캌
틍
틑
곘
끠
쓔
엶
쟐
졀
즁
튭
ㄾ
룝
볓
뻰
읜
졈
촵
핱
쉣
쓩
엙
ㄿ
ㅀ
뚧
빋
뻉
앺
죔
챡
쵤
흗
덞
맢
몿
믾
뷧
뺭
쁑
솊
싿
윱
쾀
툠
퐄
픕
괍
굥
넖
덖
몀
썖
씡
읶
쭁
쳤
캿
풂
걋
뀩
닺
쥑
쫗
햤
혤
굄
깸
띱
륍
븍
븜
뿝
쐇
쒜
씅
읻
죙
캭
퓩
깹
꿧
놘
뎌
땐
뙈
뚸
룐
륑
륫
먐
뺸
앋
얔
옝
읃
잆
좐
쥼
캢
훽
굷
귑
깉
껒
뉸
돐
뜌
몃
뷀
옾
욺
칲
킄
띁
뱍
뺩
삠
싈
쏫
앖
욍
졷
줜
츼
켬
큽
킈
꼳
늴
뒨
롮
롷
룟
벜
뺵
쀍
쌥
썡
쎅
쮜
쯕
챦
췰
캴
캼
툥
궆
끎
끕
녤
뇻
됩
뚬
뜹
랔
롼
맜
벫
쎠
웦
죡
쪘
쵱
퀫
픠
햑
꺨
넗
뚭
샄
숮
쑝
엨
욹
젧
짋
췍
켔
텬
톺
톼
걺
냨
늗
됄
됏
땨
룁
릍
먈
뼤
솧
왬
읷
죨
쩬
츗
켸
콬
튁
퍅
훚
냡
뎠
돨
둟
딲
륏
봘
셒
슶
쌐
얉
엤
쾍
킅
틩
겠
곷
깩
녔
뒴
뚀
럄
쌋
쌜
욌
윶
읅
췩
팖
픗
횔
겯
놧
뇩
듁
롑
밨
붱
엹
잍
졘
쥣
챂
췃
탶
푕
롶
밪
빝
뻴
섴
슽
얺
옿
읠
컾
퇼
튑
틊
퍈
곈
긇
끉
낛
낪
덯
뛔
뢱
몯
볫
븃
뻡
쑵
옺
졉
좂
쯥
찦
칬
톸
퇸
펲
햡
휏
긑
껀
껠
꾄
녯
닜
띤
먁
뱔
볠
뵬
븡
뽝
삳
샼
섁
앶
잨
죳
줭
쥽
쫍
콦
킼
훰
꺙
끟
낰
놰
뇸
돇
둏
땝
똏
럐
뢔
맽
먺
뮹
뱝
봔
뽂
샏
쇨
쎆
쏀
쏵
엳
왚
웈
잋
쥡
쨤
쫏
쯱
쵝
춀
칯
쾬
쿸
팊
푠
긘
꺘
냤
넀
녂
녑
댠
댸
덛
뗘
륩
뫃
밊
벹
볻
봥
븥
빧
쁩
앆
얊
얖
엵
옄
웱
윜
읋
좄
쥤
쩃
챃
쳑
헑
횅
곌
귱
깺
꺔
끵
댤
돎
둉
럅
롓
롣
맀
몄
벐
봊
붏
붗
붴
쀳
삻
샇
셥
솦
싑
쌘
얭
옧
욋
욯
윘
잛
줸
쪠
찎
쳌
췻
컶
켙
퀧
턍
퉅
푿
풰
퓻
핓
헼
홇
힜
힠
갘
곹
궝
궬
깆
꺗
넊
눋
늧
덨
돟
똟
똭
랕
맇
멉
뫙
묙
뭡
뱊
붊
뺍
뻩
쀏
썌
쒕
앒
앧
얋
엃
쟎
쟞
짘
짞
쨕
쩰
쪾
쯰
켰
켱
쾩
퀌
팏
햬
홥
횰
횸
훟
겞
괏
굘
껶
꾈
뀀
뀰
낍
넢
놂
놜
덭
됀
듫
떔
떪
렡
릳
몔
밦
밯
벍
벓
볐
뻠
뾸
뿨
쀠
쁭
샊
섡
솸
쉅
쉡
싾
쏱
쏸
쐉
쓿
씜
얙
엫
욷
욿
읉
쳡
쵀
쵹
캍
톲
핟
핣
햛
훡
휵
힁
굔
궷
껩
껭
껼
뎍
떘
떯
뜅
뤈
맫
맼
밬
벎
볽
붘
붯
빪
뼸
뿛
쁌
섊
솹
싢
웷
잫
쟂
쟬
죰
죶
쥭
쩠
쵭
컄
쾃
톹
퇀
퉨
퐌
풿
횝
흇
갂
곲
굻
긂
긿
껙
꼍
꿕
뀍
뀵
끨
넸
뇐
늒
늫
덍
뎔
됌
뛟
랰
럈
럷
롸
먫
멭
뭠
벖
볔
봍
봡
뵷
붤
빍
빩
뻆
뻤
뻿
삧
샆
샠
셑
숸
슸
싵
썛
쎗
쑌
쑛
씃
엍
옫
윁
읪
젏
젴
줗
짪
쬽
쵮
켚
쿗
텤
텦
텰
퉹
팦
폘
푝
픖
픙
핻
햌
햙
햠
햫
홤

갊
곀
곖
곸
궅
궛
긜
꺌
꼈
꼻
뀬
뉙
뉨
닸
댇
덣
뎄
뎊
뎦
됵
듵
딈
딍
땗
땽
뗍
뚦
띳
랎
렿
롫
룍
뤂
륽
맄
맍
멌
뫀
뫌
묑
묷
믇
밡
볱
뵥
빂
빎
빞
뺼
뻈
뿓
쀄
쁙
삾
샒
셊
솤
쌞
쌱
앀
왯
웉
읓
잏
좊
줆
짔
쩟
쩼
쭸
춸
캏
컼
쿔
탙
탼
턀
펔
폯
핮
홐
괃
궭
깬
꺆
꾁
뀡
낲
넠
녬
뇔
눨
늇
닁
닽
덿
뎧
듼
뙨
뚊
랃
렜
뤗
뤤
륻
릘
맂
맊
멏
몾
뫈
믁
믘
믙
뱦
벆
벏
벝
벟
벩
벸
볌
봆
뷥
빢
빴
뿕
쁐
삒
삱
슟
싄
싦
싰
싷
쌂
쎴
쏝
쏳
쑉
앛
옒
옰
왹
욛
웆
읐
읹
잗
잚
잪
쟃
짆
짥
쭵
챼
쳴
촷
췡
췤
츱
칟
캆
켘
탹
텼
툉
틂
퍗
퍙
퐐
푤
핝
햩
횞
훜
흨
힗
갅
걑
곺
굑
궘
귪
귺
긌
꾾
꿑
꿿
뀜
끋
낔
넜
넽
녛
놎
뇟
뉭
닏
닶
닾
댯
댼
덝
돜
됍
됒
둫
뒝
뒥
듰
딯
떢
뗼
똻
뜛
띾
럤
렫
롴
뢈
뢉
뢨
룃
룄
뤌
륷
릌
맒
먜
먿
몋
뭌
뭤
뮷
밂
밗
뱓
뱜
볃
붖
븰
빟
뼁
뽤
뾔
뾲
뿎
쀽
삮
숞
숼
슢
쌴
쌵
쌸
쎕
쎙
쎽
쐑
쓲
씉
씝
엗
옂
옸
윝
읨
젛
젶
졩
즥
쨥
쩻
쪨
쫩
쬼
쭀
쭃
쮀
쯍
쯘
챞
첡
쳠
쵇
쵠
쵷
췽
칮
캋
켭
탏
툵
팉
퍌
폮
풐
풾
픤
핔
핕
햋
햟
홅
훱
힏
갴
걩
굡
궻
귚
귝
긏
긩
긲
깢
깤
꺤
꼉
꼮
꽆
꽇
꽜
뀫
끆
끍
끡
끤
낋
넑
넫
뇹
닧
닰
댛
덗
덢
뎈
뎜
됙
둇
둗
둙
둴
듷
땈
뗵
똙
똡
뚮
뜳
뜵
띙
랓
랟
랣
럔
뢇
뢍
뢐
룱
뤨
륧
릠
맗
먖
먾
멊
뫚
묨
뭎
뭘
뭩
뭵
뮛
밢
밮
봃
봌
붒
뷫
븸
빏
빖
빸
뻢
뻭
뼌
뽇
뽘
뽱
뾼
쀓
쀾
삤
삲
삸
섦
셖
솢
숛
숳
쉨
쉪
슦
슧
슲
슳
슿
싕
싻
썜
썭
쎵
쏉
쐤
쑐
쑦
쑻
쒯
쒹
쓘
쓺
씺
얃
얒
얾
얿
엒
엺
옪
옽
욉
욣
웊
웕
윀
읿
잞
쟠
졤
좢
죹
짛
짮
쫭
쬲
쭊
쭛
쮹
쯉
찯
챷
챸
챺
첅
쳗
촏
촾
춣
춱
췁
췹
췼
츅
츩
칢
칽
컈
켝
켣
쾈
퀍
퀏
퀙
큟
탘
탣
턔
텊
텩
텻
텽
톧
폕
폣
퐅
풑
풩
풸
퓅
퓍
햾
헭
홝
훋
흒
흼
힡
갮
겧
곻
궞
궢
궸
궹
궼
귕
귻
귾
긕
깈
깓
껵
꽊
꿂
꿜
꿯
꿻
뀙
뀝
끾
낞
낣
냈
냔
넚
넾
놑
놥
눤
눽
뉏
늚
늨
늰
닊
닑
닲
댘
댥
돞
돩
돶
둚
둪
둰
뒁
뒑
듓
듧
딋
딿
떣
똇
똫
똰
똴
똵
뙭
뚄
뚕
뚷
뛃
뜃
뜐
랋
랒
렄
롇
롥
룯
뤔
뤕
륶
릋
릾
맃
맓
먑
먗
멑
멛
멞
멫
멮
몊
몭
뫅
묩
묯
뭆
뭷
뮝
믂
밫
뱕
뱨
벑
벾
볎
볾
봋
봎
뵫
뵭
뵳
뵶
붝
붰
붹
붼
뷱
뷹
븠
븩
빹
뺃
뺔
뺚
뺶
뻟
뻨
뼏
뼬
뽟
뽠
뽥
뽭
쁏
쁥
삝
샃
섢
섪
섮
섻
셐
쇌
쇘
숖
숝
쉛
슆
슻
싺
싽
쌑
쌙
썎
썐
썫
썲
쎀
쎤
쐙
씔
씤
씪
앐
앑
얬
엜
엯
엱
옦
왉
욮
욾
웗
웛
웧
윹
읙
읫
읰
읾
잩
쟜
젇
젗
젵
졎
좉
좽
죢
줃
쥇
즹
쨟
쨨
쫜
쬈
쬤
쬭
쭂
쮠
찱
첰
쳿
촊
촞
촟
촠
촢
촴
쵯
춭
춴
캜
캽
컭
컿
콀
콙
쾻
큳
큾
킸
킾
탇
탰
퇄
퉥
퉭
튓
튝
틤
틧
틷
팈
팓
폅
폔
퐙
퐞
풒
풹
퓜
픝
픨
햎
헔
헡
헯
혬
혯
혱
홛
홯
횩
휅
ᄀ
갋
갲
갵
걈
걉
겂
겕
겢
겤
곅
곕
곩
괆
괬
괱
괳
궋
궫
궳
궶
귍
귖
귛
귡
긄
긐
긓
긤
긮
깋
깏
깑
깛
깞
깪
꺕
꺢
꺴
껃
꼯
꽅
꽣
꽦
꽨
꾑
꾫
꾭
꿃
꿱
뀁
뀱
뀻
끑
냙
냟
냫
넡
녇
녋
놐
놞
놯
뇄
뇜
뇡
눜
눟
뉫
늕
늼
닒
닞
닟
닡
닣
닪
댝
댬
덀
덌
덙
덠
덦
뎂
돆
돖
돠
됈
됑
됰
둅
뒓
뒵
뒺
듟
듥
듮
듳
듹
딀
딹
딺
딻
땇
땛
떧
떭
떷
뗃
뗆
뗠
똒
똗
똝
뙁
뙍
뙡
뚁
뚂
뚔
뚞
뚢
뚵
뛉
뛻
뜁
띃
띧
랅
랻
럂
럲
럶
럸
럻
렆
렏
렠
렢
렺
렼
롐
롕
롵
룥
뤀
뤘
뤡
뤵
릆
릣
릯
릵
맅
맋
맔
맚
먆
먘
먚
먛
먽
멁
멪
멷
몁
몓
몱
몲
몳
몼
묗
묦
뭊
뭑
뭨
뭭
뮉
뮘
뮥
뮽
믉
믠
믱
믻
밁
밇
밠
밲
밻
뱛
뱤
뱩
뱽
벘
벲
볟
볹
봀
봁
봈
봨
봫
봴
뵉
붂
붆
붋
붚
붛
뷮
븉
븓
븽
빘
빥
빮
빷
뺅
뺓
뺛
뺜
뺠
뺣
뺫
뻒
뻙
뻞
뻪
뻽
뼇
뼙
뼠
뼥
뽴
뾆
뾻
뿏
뿑
뿘
뿙
뿧
뿩
쀒
쁀
쁋
쁎
쁟
쁢
쁶
삗
삜
샂
샢
샻
섑
섟
섨
섫
섲
섷
섺
섿
셙
솑
솖
솘
솼
쇈
쇱
쇴
쇵
쉈
쉏
쉤
쉩
슀
슄
슡
슮
슺
싁
싐
싨
싪
싲
쌇
쌒
썀
썋
썍
썮
썯
쎃
쎥
쎨
쎿
쏄
쏚
쏢
쏶
쏽
쐔
쐽
쑞
쑩
쑼
쒓
쒝
쒰
쒱
쒴
쓉
쓋
씄
씋
씥
씯
앢
앩
앫
앸
앾
얂
얅
얎
얩
얷
엋
엩
엸
옑
옱
옶
왒
왛
왭
왰
왷
욈
욙
욝
욟
욡
욢
욨
웒
웥
윞
윲
윸
읈
읧
잀
잂
잢
잧
쟗
쟢
젒
젟
젨
젮
젺
졜
졵
좹
좼
죕
죸
줋
줐
줓
줠
줵
쥉
즂
즑
짂
짒
짗
짷
쨧
쨴
쩅
쩖
쩗
쪗
쫴
쬡
쬰
쬴
쬷
쭨
쭹
쯪
찫
찭
챀
챯
첞
첟
첧
첯
첲
촡
쵁
쵕
쵬
춛
춝
춢
춨
춪
춮
췄
췅
췔
췸
칀
캵
켮
켼
콛
콮
콻
쾔
쿜
쿭
퀨
킇
킐
킫
탖
탵
턑
텂
텉
텋
텥
텹
톋
톽
퉀
퉆
튮
튺
틜
팛
팣
퍘
퍚
펁
폂
폇
퐂
퐃
퐆
퐉
푴
푾
풬
풱
풴
퓟
픅
픋
픞
핛
핤
핶
헒
헗
헚
헲
홣
훛
훞
훸
휗
흖
흟
흿
힑
힚
갃
갣
갥
갨
걁
걂
걏
걓
걥
걳
걹
걽
걿
겇
겈
겓
겥
겦
겳
겾
겿
곃
곟
곴
괐
괗
괙
괠
괧
괩
괺
굅
굈
굗
굠
굸
굾
궄
궇
궔
궖
궮
귔
귘
귥
귵
귽
긃
긎
긒
긞
긡
긢
긣
긧
긶
깂
깇
깖
깣
깧
깳
꺀
꺃
꺍
꺐
꺑
꺓
껖
껗
껬
껰
꼄
꼑
꼔
꼠
꼲
꽛
꽭
꽯
꽸
꾔
꾕
꾴
꾺
꿆
꿝
뀂
뀟
뀠
뀢
끚
끛
끰
낐
낧
낻
냀
냌
냩
넎
넏
넟
녿
놁
놅
놇
놏
놕
놤
놨
놩
놬
놴
놶
뇝
뇠
눁
눶
뉍
뉔
뉩
뉽
늩
늭
닚
닱
댊
댋
댖
댗
댦
댶
덳
덾
뎉
뎒
뎗
뎙
뎟
뎢
뎰
뎽
돊
돍
돒
돘
돰
돵
돽
돿
됓
됗
됢
됧
됺
됻
됼
둈
둍
둩
둿
뒉
뒕
뒗
뒫
뒾
뒿
듇
듑
듛
듞
듶
딉
딦
딳
딵
딶
땊
땕
땞
땣
땥
땩
땳
땻
땼
떅
떋
떌
떑
떗
떥
떦
뗉
뗋
뗗
뗜
뗝
뗞
뗡
뗣
뗳
뗶
뗸
뗻
똛
똤
똧
똩
똷
똽
똿
뙜
뙬
뙮
뙱
뙴
뚆
뚣
뚩
뚳
뚶
뚼
뛀
뛇
뛈
뛓
뛗
뛛
뛝
뛣
뛧
뛷
뛹
뛼
뜏
뜔
뜫
뜴
뜼
뜾
띅
띇
띎
띕
띯
띻
띿
랆
랤
랮
랳
럑
럪
렓
렚
렞
렣
렦
렳
렾
롁
롊
롲
롳
롽
뢀
뢓
뢘
뢤
뢥
뢯
룛
룪
룳
룴
룷
룺
뤁
뤃
뤅
뤙
뤯
뤱
뤻
륐
륔
륝
륞
륡
릃
릈
릊
릔
릞
릟
릮
맪
맮
먃
먅
먍
먏
먓
먙
먪
먳
먵
멃
멆
멇
멐
멒
멦
멯
멹
멽
몉
몟
몥
몮
몴
몷
몺
뫁
뫔
뫘
뫞
뫠
뫤
뫵
뫽
묈
묍
묚
묟
묡
묬
묱
묳
묺
뭀
뭁
뭃
뭈
뭋
뭗
뭟
뭧
뭰
뭺
뮔
뮧
뮯
뮳
뮶
뮿
믌
믏
믗
믛
믺
밒
밓
밙
밚
뱏
뱒
뱚
뱞
뱷
뱸
뱺
벇
벉
벊
벒
벻
볅
볙
볳
볿
봂
봏
봒
봗
봠
봢
봵
봽
뵑
뵛
뵧
뵲
뵴
뵸
뵻
붃
붌
붍
붵
붷
뷇
뷉
뷋
뷏
뷐
뷓
뷛
뷟
뷤
뷦
뷩
뷭
뷵
뷷
뷼
븈
븎
븏
븕
븘
븞
븧
븬
빆
빒
빣
빫
빶
빺
빾
뺒
뺝
뺟
뺡
뺥
뺦
뺧
뺮
뺳
뺹
뺿
뻄
뻕
뻖
뻚
뻛
뻦
뻼
뼐
뼞
뼡
뼢
뼦
뼱
뽆
뽊
뽒
뽓
뽔
뽖
뽙
뽚
뽛
뽞
뽧
뽷
뽸
뾂
뾃
뾄
뾅
뾇
뾘
뾥
뾹
뿁
뿃
뿉
뿋
뿒
뿗
뿚
뿞
뿮
뿯
뿷
쀌
쀎
쀐
쀑
쀬
쀲
쀿
쁉
쁍
쁓
쁕
쁖
쁚
쁣
쁴
쁼
삂
삚
삹
샓
샟
샪
샫
샭
섚
섳
셟
셣
셦
셷
솈
솏
솒
솕
솗
솚
솛
솞
솠
솻
쇀
쇇
쇔
쇗
쇙
쇝
쇡
쇰
숁
숓
숕
숚
숢
숤
숥
숦
숪
숬
숰
쉙
쉚
쉜
쉟
쉵
슂
슅
슏
슓
슠
슫
싊
싘
싞
싧
싩
싮
싳
쌆
쌊
쌎
쌖
쌚
쌛
쌟
쌷
쌺
쌻
썁
썃
썗
썱
썳
썴
썷
쎋
쎞
쎟
쎡
쎫
쏌
쏏
쏔
쐅
쐏
쐠
쐣
쐥
쐩
쐼
쑀
쑁
쑍
쑟
쑫
쑱
쑷
쑽
쒂
쒄
쒐
쒠
쒧
쒨
쒺
쓀
쓈
쓕
쓚
쓜
쓤
쓷
앇
앦
앲
앷
앻
얓
얰
엓
엕
엟
엦
엻
옃
옓
옡
옲
왂
왖
욀
욚
욦
욵
웄
웇
웋
웎
웚
웞
웴
윚
윟
윢
윧
윪
윮
윺
읁
읂
읟
읤
읩
잒
잓
잕
잙
잜
잟
쟆
쟏
쟑
쟔
쟟
쟥
쟴
쟸
쟹
젂
젃
젆
젘
젚
젻
젿
졁
졂
졏
졐
졒
졥
졧
졬
졺
졽
졾
졿
좈
좒
좜
좟
좠
좧
좬
좸
죥
죧
죱
죷
죻
줅
줈
줊
줎
줒
줙
줮
쥥
쥮
쥻
즊
즠
즡
즨
즯
짡
짣
짩
짴
쨖
쨢
쨱
쩁
쩎
쩒
쩱
쩸
쩽
쪈
쪔
쫅
쫋
쫖
쫠
쫫
쫰
쬥
쭟
쭬
쮕
쮬
쯇
쯈
쯜
쯫
쯬
쯸
찃
찖
찗
찛
찥
찲
찳
찴
찺
챁
챣
챲
챴
챶
챹
챻
챽
첄
첐
첚
첛
첢
첣
첥
첦
첪
첮
첳
쳈
쳋
쳕
쳧
쳫
쳭
쳼
촁
촍
촎
촑
촒
촓
촕
촖
촣
촻
쵿
춇
춏
춗
춠
춡
춦
춬
췛
츀
츆
츎
츷
칚
칻
캟
캧
컛
켇
켳
콉
콫
쾁
쾋
쾐
쾹
쾽
쿌
쿏
쿧
쿩
쿪
퀡
큫
큱
킆
킦
킭
탂
탃
탆
탊
탍
탒
탗
탚
탺
탿
턁
턉
턋
턌
턐
턒
턓
턕
턚
턩
턹
턺
턻
텆
텈
텓
텗
텞
텠
텣
텪
텳
텸
톁
톃
톗
톙
톮
퇍
퇙
퇜
퇣
툄
툑
툓
툔
툘
툝
툡
툩
툫
툯
툷
툸
툹
툺
퉃
퉇
퉐
퉜
퉝
퉠
퉱
튎
튙
튟
튦
튲
튳
튵
튶
틐
틒
틓
틘
틥
팂
팄
팒
팗
팚
팮
퍐
퍠
퍿
펅
펋
펎
펖
펗
펡
펬
펰
펵
펻
폃
폡
폳
퐠
퐤
퐳
푥
푧
푩
푫
푭
푷
풄
풇
풏
풕
풘
풜
퓙
퓝
퓡
퓳
퓴
퓵
퓹
픁
픓
픟
픱
픳
핁
핃
핎
핖
핗
핚
핞
핦
핪
핽
핿
햍
햚
햭
햰
햼
햿
헁
헏
헓
헫
헺
혂
혅
혉
혒
혭
홒
홨
홪
홬
홴
횂
횄
횓
횜
횦
횹
횾
훁
훃
훇
훎
훒
훯
휋
휌
휍
휔
휢
휬
휰
휳
휽
흢
흪
힋
힍
갆
갌
갍
갎
갏
갟
갡
갢
갦
갧
갩
갪
갫
갳
갶
갷
갺
갻
갽
갾
갿
걃
걄
걅
걆
걇
걊
걌
걎
걐
걒
걕
걖
걗
걙
걚
걛
걝
걞
걟
걠
걡
걢
걣
걤
걦
걧
걨
걪
걫
걬
걭
걮
걯
걵
걶
걻
걾
겎
겏
겑
겒
겖
겗
겘
겙
겚
겛
겣
겫
겭
겮
겱
겲
겴
겵
겶
겷
겺
곆
곇
곉
곊
곋
곍
곎
곏
곐
곑
곒
곓
곔
곙
곚
곛
곜
곝
곞
곢
곣
곥
곦
곫
곭
곮
곾
곿
괁
괂
괅
괇
괈
괉
괊
괋
괎
괒
괓
괔
괕
괖
괚
괛
괝
괟
괡
괢
괣
괤
괥
괦
괨
괪
괫
괮
괯
괰
괲
괶
괷
괹
괻
괽
괾
괿
굀
굁
굂
굃
굆
굊
굋
굌
굍
굎
굏
굒
굓
굕
굖
굙
굚
굛
굜
굝
굞
굟
굢
굤
굦
굧
굨
굩
굪
굫
굮
굯
굱
굲
굹
굺
궀
궊
궍
궎
궏
궑
궒
궓
궕
궗
궙
궚
궟
궠
궡
궣
궥
궦
궧
궩
궪
궯
궰
궱
궲
궴
궵
궺
궽
궾
궿
귂
귃
귅
귆
귇
귉
귊
귋
귌
귎
귏
귒
귗
귙
귞
귟
귢
귣
귦
귧
귨
귩
귫
귭
귮
귰
귲
귳
귴
귶
귷
긅
긆
긊
긖
긗
긙
긚
긛
긝
긟
긠
긥
긦
긨
긪
긫
긬
긭
긯
긳
긵
긹
긻
긼
긽
긾
깒
깕
깗
깘
깙
깚
깦
깫
깭
깮
깯
깱
깲
깴
깵
깶
깷
깾
깿
꺁
꺂
꺇
꺈
꺉
꺊
꺋
꺎
꺏
꺒
꺖
꺚
꺛
꺜
꺝
꺞
꺟
꺡
꺣
꺥
꺦
꺧
꺩
꺪
꺫
꺬
꺭
꺮
꺯
꺰
꺱
꺲
꺳
꺶
꺷
꺸
꺹
꺺
꺻
꺿
껁
껂
껅
껆
껇
껈
껉
껊
껋
껎
껓
껔
껕
껚
껛
껝
껞
껟
껡
껢
껣
껤
껥
껦
껧
껪
껮
껯
껱
껲
껳
껷
껹
껺
껻
껽
껾
껿
꼀
꼁
꼂
꼃
꼅
꼆
꼊
꼋
꼌
꼎
꼏
꼒
꼓
꼕
꼖
꼗
꼘
꼙
꼚
꼛
꼜
꼝
꼞
꼟
꼡
꼢
꼣
꼤
꼥
꼦
꼧
꼨
꼩
꼪
꼫
꼱
꼵
꼶
꼷
꼸
꼹
꼺
꼾
꽀
꽄
꽋
꽍
꽎
꽏
꽑
꽒
꽓
꽔
꽕
꽖
꽗
꽘
꽙
꽚
꽞
꽟
꽠
꽡
꽢
꽧
꽩
꽪
꽫
꽬
꽮
꽰
꽱
꽲
꽳
꽴
꽵
꽶
꽷
꽺
꽻
꽼
꽽
꽾
꽿
꾂
꾃
꾅
꾆
꾇
꾉
꾊
꾋
꾌
꾍
꾎
꾏
꾒
꾓
꾖
꾗
꾘
꾙
꾚
꾛
꾝
꾞
꾟
꾠
꾡
꾢
꾣
꾤
꾥
꾦
꾧
꾨
꾩
꾪
꾬
꾮
꾯
꾰
꾱
꾲
꾳
꾵
꾶
꾷
꾻
꾽
꿁
꿄
꿅
꿊
꿌
꿐
꿒
꿓
꿖
꿗
꿙
꿚
꿛
꿞
꿟
꿠
꿡
꿢
꿣
꿤
꿥
꿦
꿪
꿫
꿬
꿭
꿮
꿲
꿳
꿵
꿶
꿷
꿹
꿺
꿼
꿽
꿾
뀃
뀅
뀆
뀇
뀈
뀉
뀊
뀋
뀎
뀏
뀑
뀒
뀓
뀕
뀖
뀗
뀘
뀚
뀛
뀞
뀣
뀤
뀥
뀦
뀧
뀪
뀭
뀮
뀯
뀲
뀳
뀴
뀶
뀷
뀸
뀹
뀺
뀼
뀾
뀿
끀
끁
끂
끃
끇
끏
끐
끒
끖
끘
끜
끞
끢
끣
끥
끦
끧
끩
끪
끫
끬
끭
끮
끯
끱
끲
끳
끴
끶
끷
끸
끹
끺
끻
끿
낁
낂
낃
낅
낆
낇
낈
낉
낊
낎
낒
낓
낕
낖
낗
낝
낤
낥
낦
낶
낷
낹
낺
낽
낾
낿
냁
냂
냃
냆
냊
냋
냍
냎
냏
냒
냓
냕
냖
냗
냚
냛
냜
냝
냞
냢
냦
냧
냪
냭
냮
냯
냱
냲
냳
냴
냵
냶
냷
냸
냹
냺
냻
냼
냽
냾
냿
넁
넂
넃
넄
넅
넆
넇
넍
넔
넕
넞
넦
넧
넩
넪
넭
넮
넯
넰
넱
넲
넳
넶
넺
넻
넿
녃
녅
녆
녉
녊
녌
녍
녎
녏
녒
녖
녗
녙
녚
녝
녞
녟
녡
녢
녣
녥
녦
녧
녨
녩
녪
녫
녭
녮
녰
녱
녲
녳
녴
녵
녶
녷
녺
녻
녽
녾
놃
놄
놆
놊
놌
놖
놗
놙
놚
놛
놝
놟
놠
놡
놢
놣
놦
놪
놫
놭
놮
놱
놲
놳
놵
놷
놸
놹
놺
놻
놼
놽
놾
놿
뇀
뇁
뇂
뇃
뇅
뇆
뇇
뇈
뇉
뇊
뇋
뇍
뇎
뇏
뇑
뇒
뇓
뇕
뇖
뇗
뇘
뇙
뇚
뇛
뇞
뇢
뇣
뇤
뇥
뇦
뇧
뇪
뇫
뇭
뇮
뇯
뇱
뇲
뇳
뇴
뇵
뇶
뇷
뇺
뇼
뇾
뇿
눀
눂
눃
눆
눇
눉
눊
눍
눎
눏
눐
눑
눒
눓
눖
눘
눚
눛
눡
눢
눣
눥
눦
눧
눩
눪
눫
눬
눭
눮
눯
눰
눱
눲
눳
눵
눷
눸
눹
눺
눻
눾
눿
뉀
뉁
뉂
뉃
뉄
뉅
뉆
뉇
뉈
뉉
뉊
뉋
뉌
뉎
뉐
뉑
뉒
뉓
뉕
뉖
뉗
뉚
뉛
뉝
뉞
뉟
뉡
뉢
뉣
뉤
뉥
뉦
뉧
뉪
뉬
뉮
뉯
뉰
뉱
뉲
뉳
뉶
뉷
뉹
뉺
뉻
뉾
뉿
늀
늁
늂
늃
늆
늈
늊
늋
늌
늍
늎
늏
늓
늖
늛
늜
늝
늞
늟
늢
늤
늮
늯
늱
늲
늳
늵
늶
늷
늸
늹
늺
늻
늽
늾
늿
닀
닂
닃
닄
닅
닆
닇
닋
닍
닎
닓
닔
닕
닖
닗
닩
댂
댃
댅
댆
댉
댌
댍
댎
댏
댒
댙
댚
댞
댟
댡
댢
댣
댧
댨
댩
댪
댫
댭
댮
댰
댲
댳
댴
댵
댷
댹
댺
댻
댽
댾
댿
덁
덂
덃
덄
덅
덆
덇
덈
덉
덊
덋
덎
덏
덐
덑
덒
덓
덚
덡
덲
덵
덶
덹
덺
덻
덼
덽
뎆
뎇
뎋
뎎
뎏
뎑
뎓
뎕
뎖
뎘
뎚
뎛
뎝
뎞
뎣
뎤
뎥
뎩
뎪
뎫
뎭
뎮
뎯
뎱
뎲
뎳
뎴
뎵
뎶
뎷
뎸
뎹
뎺
뎻
뎼
뎾
뎿
돀
돁
돂
돃
돉
돏
돑
돓
돢
돣
돥
돦
돧
돪
돫
돬
돭
돮
돯
돱
돲
돳
돴
돷
돸
돹
돺
돻
돾
됁
됂
됃
됅
됆
됇
됉
됊
됋
됎
됔
됕
됖
됚
됛
됝
됞
됟
됡
됣
됤
됥
됦
됪
됮
됯
됱
됲
됳
됶
됷
됹
됽
됾
됿
둀
둁
둂
둃
둄
둆
둊
둋
둌
둎
둒
둓
둕
둖
둛
둜
둝
둞
둢
둤
둦
둧
둨
둭
둮
둯
둱
둲
둳
둵
둶
둷
둸
둹
둺
둻
둼
둽
둾
뒂
뒃
뒄
뒅
뒆
뒇
뒊
뒋
뒌
뒍
뒎
뒏
뒐
뒒
뒔
뒖
뒘
뒙
뒚
뒛
뒜
뒞
뒟
뒠
뒡
뒢
뒣
뒦
뒧
뒩
뒪
뒭
뒮
뒯
뒰
뒱
뒲
뒳
뒶
뒸
뒻
뒼
뒽
듂
듃
듅
듆
듉
듊
듋
듌
듍
듎
듏
듒
듔
듖
듗
듘
듙
듚
듡
듢
듨
듩
듪
듲
듴
듺
듻
듽
듾
듿
딁
딂
딃
딄
딅
딆
딇
딊
딌
딎
딏
딐
딑
딒
딓
딖
딗
딙
딚
딝
딞
딟
딠
딡
딢
딣
딬
딭
딷
딼
딽
딾
땂
땆
땉
땎
땏
땑
땒
땓
땖
땘
땙
땚
땢
땤
땦
땧
땪
땫
땬
땭
땮
땯
땰
땱
땲
땴
땵
땶
땷
땸
땹
땺
땾
땿
떀
떁
떂
떃
떆
떇
떉
떊
떍
떎
떏
떐
떒
떓
떕
떖
떚
떛
떜
떝
떞
떟
떩
떬
떮
떲
떶
떸
떹
떺
떾
떿
뗁
뗂
뗅
뗇
뗈
뗊
뗎
뗒
뗓
뗔
뗕
뗖
뗙
뗚
뗛
뗟
뗢
뗤
뗥
뗦
뗧
뗨
뗩
뗪
뗫
뗭
뗮
뗯
뗰
뗱
뗲
뗷
뗹
뗺
뗽
뗾
뗿
똀
똁
똂
똃
똄
똅
똆
똈
똉
똊
똋
똌
똍
똎
똓
똕
똖
똚
똜
똞
똢
똦
똨
똪
똮
똯
똱
똲
똳
똶
똸
똹
똺
똼
똾
뙀
뙂
뙃
뙄
뙅
뙆
뙉
뙊
뙋
뙌
뙎
뙏
뙐
뙑
뙒
뙓
뙔
뙕
뙖
뙗
뙘
뙙
뙚
뙛
뙝
뙞
뙟
뙠
뙢
뙣
뙥
뙦
뙧
뙩
뙪
뙫
뙯
뙰
뙲
뙳
뙵
뙶
뙷
뙸
뙹
뙺
뙻
뙼
뙽
뙾
뙿
뚃
뚅
뚇
뚈
뚉
뚋
뚌
뚍
뚎
뚏
뚐
뚑
뚒
뚓
뚖
뚗
뚘
뚙
뚚
뚛
뚟
뚡
뚨
뚪
뚰
뚲
뚴
뚹
뚺
뚻
뚽
뚾
뚿
뛁
뛂
뛄
뛅
뛆
뛊
뛋
뛌
뛍
뛎
뛏
뛐
뛑
뛒
뛕
뛖
뛘
뛙
뛚
뛜
뛞
뛠
뛡
뛢
뛤
뛥
뛦
뛨
뛩
뛪
뛫
뛬
뛭
뛮
뛯
뛱
뛲
뛳
뛵
뛶
뛺
뛽
뛾
뛿
뜂
뜄
뜆
뜇
뜈
뜉
뜊
뜋
뜍
뜎
뜑
뜒
뜓
뜕
뜖
뜗
뜘
뜙
뜚
뜜
뜝
뜞
뜟
뜠
뜡
뜢
뜣
뜤
뜥
뜦
뜧
뜪
뜭
뜮
뜱
뜲
뜶
뜺
뜿
띀
띂
띆
띉
띊
띋
띍
띏
띐
띑
띒
띓
띖
띗
띘
띚
띛
띜
띝
띞
띟
띢
띣
띥
띦
띩
띪
띫
띬
띭
띮
띲
띴
띶
띷
띸
띹
띺
랁
랂
랇
랈
랉
랊
랚
랛
랝
랞
랡
랢
랥
랦
랧
랪
랯
랱
랶
랷
랹
랺
랽
랾
랿
럀
럁
럃
럆
럊
럋
럌
럍
럎
럏
럒
럓
럕
럖
럗
럘
럙
럚
럛
럜
럝
럞
럟
럠
럡
럢
럣
럥
럦
럧
럨
럩
럫
럮
럯
럱
럳
럵
럹
럺
럾
렂
렃
렅
렊
렋
렍
렎
렑
렒
렔
렕
렖
렗
렟
렧
렩
렪
렭
렮
렯
렰
렱
렲
렶
렻
렽
롂
롃
롅
롆
롉
롋
롌
롍
롎
롏
롒
롔
롖
롗
롘
롙
롚
롛
롞
롟
롡
롢
롦
롧
롨
롩
롪
롰
롺
롻
롾
롿
뢁
뢂
뢃
뢄
뢅
뢆
뢊
뢋
뢌
뢎
뢏
뢑
뢒
뢕
뢖
뢗
뢙
뢚
뢛
뢜
뢝
뢞
뢟
뢠
뢡
뢢
뢣
뢦
뢧
뢩
뢪
뢫
뢬
뢭
뢮
뢲
뢳
뢵
뢶
뢷
뢹
뢺
뢻
뢼
뢽
뢾
뢿
룂
룆
룇
룈
룉
룊
룋
룎
룏
룑
룒
룓
룕
룖
룗
룘
룙
룚
룜
룞
룠
룢
룣
룤
룦
룧
룫
룭
룮
룲
룵
룶
룼
룾
룿
뤆
뤇
뤉
뤊
뤋
뤍
뤎
뤏
뤐
뤑
뤒
뤓
뤖
뤚
뤛
뤜
뤝
뤞
뤟
뤢
뤣
뤥
뤦
뤧
뤩
뤪
뤫
뤬
뤭
뤮
뤰
뤲
뤳
뤴
뤶
뤷
뤸
뤹
뤺
뤾
뤿
륁
륂
륃
륅
륆
륇
륈
륉
륊
륋
륎
륒
륓
륕
륖
륗
륚
륛
륟
륢
륣
륤
륥
륦
륪
륬
륮
륯
륰
륱
륲
륳
륹
륺
륾
륿
릀
릁
릂
릑
릒
릓
릕
릖
릗
릙
릚
릛
릜
릝
릡
릢
릤
릥
릦
릧
릨
릩
릪
릫
릱
릲
릶
릷
릸
릹
릺
릻
맖
맦
맧
맩
맭
맯
맰
맱
맲
맳
맶
맾
맿
먂
먇
먉
먊
먋
먌
먎
먒
먔
먝
먞
먟
먠
먡
먢
먣
먤
먥
먦
먧
먨
먩
먬
먭
먮
먯
먰
먱
먲
먴
먶
먷
먻
멄
멅
멖
멗
멙
멚
멝
멟
멠
멡
멢
멣
멨
멲
멳
멵
멶
멺
멻
멼
멾
멿
몂
몈
몍
몎
몏
몑
몒
몕
몖
몗
몘
몙
몚
몛
몜
몝
몞
몠
몡
몢
몣
몤
몦
몧
몵
몶
뫂
뫆
뫇
뫉
뫊
뫋
뫍
뫎
뫏
뫐
뫑
뫒
뫓
뫕
뫖
뫗
뫛
뫜
뫝
뫟
뫡
뫢
뫣
뫥
뫦
뫧
뫨
뫩
뫪
뫫
뫬
뫭
뫮
뫯
뫰
뫱
뫲
뫳
뫴
뫶
뫷
뫸
뫹
뫺
뫻
뫾
뫿
묁
묂
묃
묅
묆
묇
묉
묊
묋
묌
묎
묐
묒
묓
묔
묕
묖
묛
묝
묞
묢
묣
묤
묥
묧
묪
묮
묰
묲
묹
묿
뭂
뭒
뭓
뭕
뭖
뭙
뭚
뭛
뭜
뭝
뭞
뭢
뭦
뭪
뭫
뭮
뭯
뭱
뭲
뭳
뭴
뭶
뭸
뭹
뭻
뭼
뭽
뭾
뭿
뮀
뮁
뮂
뮃
뮄
뮅
뮆
뮇
뮊
뮋
뮍
뮎
뮏
뮑
뮒
뮓
뮕
뮖
뮗
뮙
뮚
뮜
뮞
뮟
뮠
뮡
뮢
뮣
뮦
뮩
뮪
뮫
뮭
뮮
뮰
뮱
뮲
뮵
뮸
뮺
뮼
뮾
믃
믅
믆
믊
믋
믍
믎
믑
믒
믔
믖
믚
믝
믞
믟
믡
믢
믣
믤
믥
믦
믧
믨
믩
믪
믫
믬
믭
믮
믯
믰
믲
믳
믴
믵
믶
믷
믽
밃
밄
밅
밆
밳
밵
밶
밹
밺
밼
밽
밾
밿
뱂
뱆
뱇
뱈
뱋
뱎
뱑
뱖
뱗
뱘
뱙
뱠
뱢
뱣
뱥
뱧
뱪
뱫
뱬
뱭
뱮
뱯
뱰
뱱
뱲
뱳
뱴
뱵
뱶
뱹
뱻
뱼
뱾
뱿
벀
벁
벂
벃
벢
벣
벥
벦
벪
벬
벭
벮
벯
벶
벷
벺
벿
볁
볂
볆
볇
볈
볉
볊
볋
볒
볖
볗
볚
볛
볝
볞
볡
볢
볣
볤
볥
볦
볧
볨
볩
볪
볬
볭
볮
볯
볰
볲
볷
볺
봓
봕
봖
봚
봛
봜
봝
봞
봟
봦
봧
봩
봪
봭
봮
봯
봰
봱
봲
봳
봶
봷
봸
봹
봺
봻
봼
봾
봿
뵁
뵂
뵃
뵄
뵅
뵆
뵇
뵊
뵋
뵍
뵎
뵏
뵒
뵓
뵔
뵕
뵖
뵗
뵚
뵝
뵞
뵟
뵠
뵡
뵢
뵣
뵦
뵩
뵪
뵮
뵯
뵰
뵱
뵵
뵺
뵼
뵽
뵾
뵿
붅
붎
붔
붞
붟
붠
붡
붢
붣
붥
붦
붧
붨
붩
붪
붫
붬
붭
붮
붲
붳
붶
붺
붻
붽
붾
붿
뷂
뷃
뷄
뷅
뷆
뷈
뷊
뷌
뷍
뷎
뷑
뷒
뷖
뷗
뷙
뷚
뷝
뷞
뷠
뷡
뷢
뷣
뷨
뷪
뷬
뷯
뷲
뷳
뷶
뷺
뷻
뷽
뷾
뷿
븁
븂
븄
븆
븇
븊
븋
븑
븒
븖
븗
븙
븚
븛
븢
븣
븤
븦
븪
븫
븭
븮
븯
븱
븲
븳
븴
븵
븶
븷
븹
븺
븻
븼
븾
븿
빀
빁
빃
빇
빉
빊
빐
빑
빓
빜
빦
빬
빭
빯
빲
빿
뺁
뺂
뺆
뺇
뺈
뺉
뺊
뺋
뺎
뺕
뺖
뺗
뺞
뺢
뺤
뺪
뺬
뺯
뺰
뺱
뺲
뺷
뺺
뺻
뺽
뺾
뻀
뻁
뻂
뻃
뻅
뻊
뻋
뻌
뻍
뻎
뻏
뻓
뻜
뻝
뻧
뻫
뻮
뻯
뻱
뻲
뻳
뻵
뻶
뻷
뻸
뻹
뻺
뻻
뻾
뼀
뼂
뼃
뼄
뼅
뼆
뼊
뼋
뼍
뼎
뼑
뼒
뼓
뼔
뼕
뼖
뼗
뼚
뼟
뼣
뼧
뼨
뼩
뼪
뼫
뼭
뼮
뼯
뼰
뼲
뼳
뼴
뼵
뼶
뼷
뼹
뼺
뼻
뼼
뼽
뼾
뼿
뽃
뽅
뽉
뽋
뽌
뽍
뽎
뽏
뽗
뽡
뽢
뽣
뽦
뽨
뽩
뽪
뽫
뽬
뽮
뽯
뽰
뽲
뽳
뽵
뽶
뽹
뽺
뽻
뽼
뽽
뽾
뽿
뾀
뾁
뾈
뾉
뾊
뾋
뾌
뾍
뾎
뾏
뾐
뾑
뾒
뾓
뾕
뾖
뾗
뾙
뾚
뾛
뾜
뾝
뾞
뾟
뾠
뾡
뾢
뾣
뾤
뾦
뾧
뾨
뾩
뾪
뾫
뾬
뾭
뾮
뾯
뾳
뾴
뾵
뾶
뾷
뾺
뾽
뾾
뾿
뿀
뿂
뿄
뿆
뿇
뿈
뿊
뿖
뿢
뿣
뿤
뿥
뿦
뿪
뿫
뿬
뿭
뿰
뿱
뿲
뿳
뿴
뿵
뿶
뿸
뿹
뿺
뿻
뿼
뿽
뿾
뿿
쀀
쀁
쀂
쀃
쀅
쀆
쀇
쀈
쀉
쀊
쀋
쀔
쀕
쀖
쀗
쀘
쀙
쀚
쀛
쀜
쀝
쀞
쀟
쀡
쀢
쀣
쀤
쀥
쀦
쀧
쀨
쀩
쀪
쀫
쀭
쀮
쀯
쀰
쀱
쀴
쀵
쀶
쀷
쀸
쀹
쀺
쀻
쁁
쁂
쁃
쁄
쁅
쁆
쁇
쁈
쁊
쁒
쁔
쁗
쁛
쁝
쁞
쁡
쁤
쁦
쁧
쁪
쁫
쁬
쁮
쁯
쁰
쁱
쁲
쁳
쁵
쁷
쁸
쁹
쁺
쁻
쁽
쁾
쁿
삀
삁
삃
삄
삅
삆
삇
삈
삉
삊
삋
삌
삍
삎
삏
삓
삕
삖
삙
삛
삞
삟
삢
삦
삨
삩
삪
삫
삺
샋
샍
샎
샑
샔
샕
샖
샗
샚
샞
샡
샣
샦
샧
샩
샮
샯
샰
샱
샲
샳
샶
샸
샺
샽
샿
섂
섃
섅
섆
섇
섉
섋
섌
섍
섎
섏
섒
섓
섔
섖
섗
섘
섙
섛
섩
섽
셁
셂
셃
셄
셅
셆
셇
셎
셏
셓
셗
셚
셛
셝
셞
셠
셡
셢
셨
셪
셫
셬
셭
셮
셯
셲
셳
셵
셶
셹
셺
셻
셼
셽
셾
셿
솂
솄
솆
솇
솉
솋
솙
솣
솪
솫
솭
솮
솯
솱
솲
솳
솴
솵
솶
솷
솺
솾
솿
쇁
쇂
쇃
쇅
쇆
쇉
쇊
쇋
쇍
쇎
쇏
쇐
쇑
쇒
쇓
쇕
쇖
쇚
쇛
쇜
쇞
쇟
쇢
쇣
쇥
쇦
쇧
쇩
쇪
쇫
쇬
쇭
쇮
쇯
쇲
쇶
쇷
쇸
쇹
쇺
쇻
쇾
쇿
숂
숃
숅
숆
숇
숈
숉
숊
숋
숎
숐
숒
숗
숡
숣
숧
숵
숶
숷
숹
숺
숻
숽
숾
숿
쉀
쉁
쉂
쉃
쉄
쉆
쉇
쉉
쉊
쉋
쉌
쉍
쉎
쉒
쉓
쉕
쉖
쉗
쉝
쉞
쉢
쉦
쉧
쉫
쉮
쉯
쉱
쉲
쉳
쉶
쉷
쉸
쉹
쉺
쉻
쉾
슃
슇
슊
슋
슍
슎
슑
슒
슔
슕
슖
슗
슚
슜
슞
슣
슩
슪
슯
슰
슱
싂
싃
싅
싆
싇
싉
싋
싌
싍
싎
싏
싒
싓
싔
싖
싗
싙
싚
싛
싟
싡
싥
쌁
쌃
쌄
쌅
쌏
쌗
쌝
쌠
쌡
쌢
쌣
쌦
쌧
쌪
쌫
쌬
쌭
쌮
쌯
쌲
쌳
쌶
쌹
쌼
쌽
쌾
쌿
썂
썄
썆
썇
썈
썉
썊
썏
썑
썒
썓
썔
썕
썘
썙
썚
썝
썞
썟
썠
썢
썣
썤
썥
썦
썧
썵
썶
썺
썾
썿
쎁
쎂
쎇
쎉
쎊
쎍
쎎
쎏
쎐
쎑
쎒
쎓
쎖
쎚
쎛
쎜
쎝
쎢
쎣
쎦
쎧
쎩
쎪
쎬
쎭
쎮
쎯
쎰
쎱
쎲
쎳
쎶
쎷
쎸
쎹
쎺
쎻
쏁
쏂
쏃
쏅
쏆
쏇
쏈
쏊
쏋
쏍
쏎
쏐
쏑
쏒
쏓
쏕
쏖
쏗
쏛
쏞
쏡
쏣
쏤
쏥
쏦
쏧
쏪
쏬
쏮
쏯
쏰
쏲
쏷
쏹
쏺
쏻
쏾
쏿
쐀
쐁
쐂
쐃
쐄
쐆
쐊
쐋
쐌
쐍
쐎
쐒
쐓
쐕
쐖
쐗
쐘
쐚
쐛
쐜
쐝
쐞
쐟
쐡
쐢
쐦
쐧
쐨
쐪
쐫
쐭
쐮
쐯
쐱
쐲
쐳
쐵
쐶
쐷
쐸
쐹
쐺
쐻
쐾
쐿
쑂
쑃
쑄
쑅
쑆
쑇
쑊
쑋
쑎
쑏
쑑
쑒
쑓
쑔
쑕
쑖
쑗
쑘
쑙
쑚
쑜
쑠
쑡
쑢
쑣
쑧
쑪
쑭
쑮
쑯
쑰
쑲
쑳
쑶
쑸
쑺
쑾
쑿
쒁
쒃
쒅
쒆
쒇
쒈
쒉
쒊
쒋
쒌
쒍
쒎
쒏
쒑
쒒
쒖
쒗
쒘
쒙
쒚
쒛
쒞
쒟
쒡
쒢
쒣
쒤
쒥
쒦
쒩
쒪
쒫
쒬
쒭
쒮
쒲
쒳
쒵
쒶
쒷
쒻
쒽
쒾
쒿
쓁
쓂
쓃
쓄
쓅
쓆
쓇
쓊
쓌
쓍
쓎
쓏
쓐
쓑
쓒
쓓
쓖
쓗
쓙
쓛
쓝
쓞
쓟
쓠
쓡
쓢
쓣
쓥
쓦
쓧
쓨
쓪
쓫
쓬
쓭
쓮
쓯
쓳
쓵
쓶
쓹
쓻
쓼
쓽
쓾
씂
씆
씇
씈
씊
씍
씎
씏
씑
씒
씓
씕
씖
씗
씘
씙
씚
씛
씞
씟
씠
씢
씣
씦
씧
씫
씭
씮
씱
씲
씳
씴
씵
씶
씷
씾
씿
앁
앂
앃
앣
앥
앪
앬
앭
앮
앯
앹
앿
얁
얈
얚
얛
얝
얞
얟
얡
얢
얣
얤
얥
얦
얧
얨
얪
얮
얯
얱
얲
얳
엀
엁
엂
엖
엚
엛
엝
엞
엢
엧
엲
옊
옋
옍
옎
옏
옔
옕
옖
옗
옚
옞
옟
옠
옢
옣
옩
왃
왅
왆
왊
왋
왌
왍
왎
왏
왗
왙
왞
왟
왡
왢
왣
왥
왦
왧
왨
왩
왪
왫
왮
왲
왳
왴
왵
왶
왺
왻
왽
왾
왿
욁
욂
욃
욄
욅
욆
욇
욊
욎
욏
욐
욑
욒
욓
욖
욗
욞
욠
욪
욫
욭
욲
욳
욶
욻
욼
욽
웂
웏
웑
웖
웘
웙
웢
웣
웪
웫
웭
웮
웯
웲
웳
웵
웶
웺
웼
웾
웿
윂
윃
윆
윇
윉
윊
윋
윍
윎
윏
윐
윑
윒
윓
윖
윛
윣
윥
윦
윩
윫
윬
윭
윯
윴
윻
윿
읚
읛
읝
읞
읡
읢
읣
읥
읦
읬
읮
읯
읱
읲
읳
잁
잝
잮
잯
잱
잲
잳
잵
잶
잷
잸
잹
잺
잻
잾
쟄
쟅
쟇
쟊
쟋
쟍
쟒
쟓
쟕
쟖
쟚
쟡
쟣
쟦
쟧
쟩
쟪
쟫
쟭
쟮
쟯
쟰
쟱
쟲
쟳
쟵
쟶
쟷
쟺
쟻
쟼
쟽
쟾
쟿
젅
젉
젌
젍
젎
젙
젞
젡
젢
젣
젥
젦
젩
젪
젫
젰
젲
젳
젷
젽
젾
졃
졄
졅
졆
졇
졊
졑
졓
졕
졖
졗
졙
졚
졛
졝
졞
졟
졠
졡
졢
졣
졦
졨
졪
졫
졭
졮
졯
졲
졳
졶
졹
졻
졼
좎
좏
좑
좓
좕
좖
좗
좘
좙
좚
좛
좞
좣
좤
좥
좦
좩
좪
좫
좭
좮
좯
좰
좱
좲
좳
좴
좵
좶
좷
좺
좻
좾
좿
죀
죁
죂
죃
죅
죆
죇
죉
죊
죋
죍
죎
죏
죐
죑
죒
죓
죖
죚
죛
죜
죝
죞
죟
죣
죦
죩
죪
죫
죬
죭
죮
죯
죲
죴
죺
죾
죿
줁
줂
줇
줉
줔
줕
줖
줚
줛
줝
줞
줟
줡
줢
줣
줤
줥
줦
줧
줨
줩
줪
줯
줰
줱
줲
줳
줶
줷
줹
줺
줻
줼
줽
줾
줿
쥀
쥁
쥂
쥃
쥄
쥅
쥆
쥈
쥊
쥋
쥌
쥍
쥎
쥏
쥒
쥓
쥕
쥖
쥗
쥙
쥚
쥛
쥜
쥝
쥞
쥟
쥢
쥦
쥧
쥨
쥩
쥪
쥫
쥯
쥱
쥲
쥳
쥵
쥶
쥷
쥸
쥹
쥺
쥾
즀
즃
즄
즅
즆
즇
즋
즍
즎
즏
즒
즓
즔
즕
즖
즗
즚
즜
즞
즟
즢
즣
즦
즧
즩
즪
즫
즬
즭
즮
즰
즱
즲
즳
즴
즵
즶
즷
즸
즺
즻
즼
즽
즾
즿
짃
짅
짉
짌
짍
짎
짏
짟
짨
짲
짳
짵
짶
짺
짻
짽
짾
짿
쨁
쨂
쨃
쨄
쨅
쨆
쨇
쨊
쨎
쨏
쨐
쨑
쨒
쨓
쨗
쨙
쨚
쨛
쨝
쨞
쨠
쨡
쨣
쨦
쨪
쨫
쨬
쨭
쨮
쨯
쨲
쨳
쨵
쨶
쨷
쨸
쨹
쨺
쨻
쨼
쨽
쨾
쨿
쩀
쩂
쩆
쩇
쩈
쩉
쩊
쩋
쩏
쩑
쩓
쩕
쩘
쩙
쩚
쩛
쩞
쩢
쩣
쩤
쩥
쩦
쩩
쩪
쩫
쩭
쩮
쩯
쩲
쩳
쩴
쩵
쩶
쩷
쩹
쩺
쩾
쩿
쪀
쪁
쪂
쪃
쪅
쪆
쪇
쪉
쪊
쪋
쪌
쪍
쪎
쪏
쪐
쪑
쪒
쪓
쪕
쪖
쪚
쪛
쪜
쪝
쪞
쪟
쪡
쪢
쪣
쪤
쪥
쪦
쪧
쪩
쪪
쪫
쪬
쪭
쪮
쪯
쪰
쪱
쪲
쪳
쪴
쪵
쪶
쪷
쪸
쪹
쪺
쪻
쪿
쫁
쫂
쫃
쫆
쫇
쫈
쫉
쫊
쫎
쫐
쫔
쫕
쫚
쫛
쫝
쫞
쫟
쫡
쫢
쫣
쫤
쫥
쫦
쫧
쫨
쫪
쫮
쫯
쫱
쫲
쫳
쫵
쫶
쫷
쫸
쫹
쫺
쫻
쫼
쫽
쫾
쫿
쬀
쬁
쬂
쬃
쬄
쬅
쬆
쬇
쬉
쬊
쬋
쬌
쬍
쬎
쬏
쬑
쬒
쬓
쬕
쬖
쬗
쬙
쬚
쬛
쬜
쬝
쬞
쬟
쬢
쬣
쬦
쬧
쬨
쬩
쬪
쬫
쬮
쬯
쬱
쬳
쬵
쬶
쬸
쬹
쬺
쬻
쬾
쬿
쭄
쭅
쭆
쭇
쭋
쭍
쭎
쭏
쭑
쭒
쭓
쭔
쭕
쭖
쭗
쭚
쭜
쭞
쭠
쭡
쭢
쭣
쭥
쭦
쭧
쭩
쭪
쭫
쭭
쭮
쭯
쭰
쭱
쭲
쭳
쭴
쭶
쭷
쭺
쭻
쭼
쭽
쭾
쭿
쮁
쮂
쮃
쮄
쮅
쮆
쮇
쮈
쮉
쮊
쮋
쮌
쮍
쮎
쮏
쮐
쮑
쮒
쮓
쮔
쮖
쮗
쮘
쮙
쮚
쮛
쮝
쮞
쮟
쮡
쮢
쮣
쮤
쮥
쮦
쮧
쮨
쮩
쮪
쮫
쮭
쮮
쮯
쮰
쮱
쮲
쮳
쮴
쮵
쮶
쮷
쮺
쮻
쮼
쮽
쮾
쮿
쯀
쯁
쯂
쯃
쯄
쯅
쯆
쯊
쯌
쯎
쯏
쯐
쯑
쯒
쯓
쯖
쯗
쯙
쯚
쯛
쯝
쯞
쯟
쯠
쯡
쯢
쯣
쯦
쯨
쯭
쯮
쯯
쯲
쯳
쯴
쯵
쯶
쯷
쯹
쯺
쯻
쯼
쯽
쯾
쯿
찀
찁
찂
찄
찅
찆
찇
찈
찉
찊
찋
찏
찑
찒
찓
찕
찘
찙
찚
찞
찠
찤
찪
찵
찶
찷
챆
챇
챉
챊
챋
챍
챎
챏
챐
챑
챒
챓
챖
챚
챛
챜
챝
챟
챢
챥
챧
챩
챪
챫
챬
챭
챮
챾
챿
첀
첁
첂
첃
첆
첇
첈
첉
첊
첋
첌
첍
첎
첏
첑
첒
첓
첔
첕
첖
첗
첝
첤
첱
첶
첷
첹
첺
첻
첽
첾
첿
쳀
쳁
쳂
쳃
쳆
쳊
쳍
쳎
쳏
쳒
쳓
쳖
쳙
쳚
쳛
쳜
쳝
쳞
쳟
쳢
쳦
쳨
쳩
쳪
쳮
쳯
쳱
쳲
쳳
쳵
쳶
쳷
쳸
쳹
쳺
쳻
쳽
쳾
촀
촂
촃
촄
촅
촆
촇
촋
촔
촗
촚
촜
촦
촧
촩
촪
촫
촭
촮
촯
촰
촱
촲
촳
촶
촸
촺
촼
촽
촿
쵂
쵃
쵄
쵅
쵆
쵈
쵉
쵊
쵋
쵌
쵍
쵎
쵏
쵐
쵑
쵒
쵓
쵔
쵖
쵗
쵘
쵙
쵚
쵛
쵞
쵟
쵡
쵢
쵣
쵥
쵦
쵧
쵨
쵩
쵪
쵫
쵰
쵲
쵳
쵴
쵵
쵶
쵺
쵻
쵽
쵾
춁
춂
춃
춄
춅
춆
춊
춌
춎
춐
춑
춒
춓
춖
춙
춚
춞
춟
춯
춲
춳
춵
춶
춷
춹
춺
춻
춼
춽
춾
춿
췀
췂
췆
췇
췈
췉
췊
췋
췎
췏
췑
췒
췓
췕
췖
췗
췘
췙
췚
췜
췝
췞
췟
췠
췢
췣
췥
췦
췧
췪
췫
췭
췮
췯
췱
췲
췳
췴
췵
췶
췷
췺
췾
췿
츁
츂
츃
츇
츉
츊
츋
츍
츏
츐
츑
츒
츓
츖
츘
츚
츛
츜
츝
츞
츟
츢
츣
츥
츦
츧
츪
츫
츬
츭
츮
츯
츲
츴
츶
츸
츹
츺
츻
츽
츾
츿
칁
칂
칃
칄
칅
칆
칇
칈
칉
칊
칋
칌
칍
칎
칏
칐
칑
칒
칓
칔
칕
칖
칗
칛
칝
칞
칣
칤
칥
칦
칧
칪
칱
칳
칶
칷
칹
칺
칾
칿
캀
캁
캂
캃
캈
캊
캒
캓
캕
캖
캗
캙
캚
캛
캝
캞
캦
캨
캩
캫
캮
캯
캱
캲
캳
캶
캷
캸
캹
캺
캻
캾
컀
컂
컃
컅
컆
컇
컉
컊
컋
컌
컍
컎
컏
컐
컑
컒
컓
컔
컕
컖
컗
컘
컙
컚
컜
컝
컞
컟
컠
컡
컢
컣
컦
컧
컩
컪
컮
컯
컰
컱
컲
컳
컺
컻
켂
켃
켅
켆
켉
켊
켋
켌
켍
켎
켏
켒
켖
켗
켛
켞
켟
켡
켢
켥
켦
켧
켨
켩
켪
켫
켲
켴
켵
켶
켷
켹
켺
켻
켽
켾
켿
콁
콂
콃
콄
콅
콆
콇
콈
콊
콋
콌
콍
콎
콏
콐
콑
콒
콓
콖
콗
콚
콝
콞
콟
콠
콡
콢
콣
콨
콪
콭
콲
콳
콵
콶
콷
콹
콺
콼
콽
콾
콿
쾂
쾄
쾆
쾇
쾉
쾊
쾎
쾏
쾑
쾒
쾓
쾕
쾖
쾗
쾘
쾙
쾚
쾛
쾜
쾝
쾞
쾟
쾠
쾢
쾣
쾤
쾥
쾦
쾧
쾪
쾫
쾭
쾮
쾯
쾱
쾲
쾳
쾴
쾵
쾶
쾷
쾸
쾺
쾼
쾾
쾿
쿀
쿁
쿂
쿃
쿅
쿆
쿇
쿉
쿊
쿋
쿍
쿎
쿐
쿑
쿒
쿓
쿕
쿖
쿘
쿚
쿛
쿝
쿞
쿟
쿢
쿣
쿥
쿦
쿫
쿬
쿮
쿯
쿲
쿴
쿶
쿷
쿹
쿺
쿻
쿾
쿿
퀁
퀂
퀃
퀅
퀆
퀇
퀈
퀉
퀊
퀋
퀎
퀐
퀒
퀓
퀔
퀕
퀖
퀗
퀚
퀛
퀝
퀞
퀟
퀢
퀣
퀤
퀥
퀦
퀩
퀪
퀬
퀮
퀯
퀰
퀱
퀲
퀳
퀶
퀷
퀹
퀺
퀻
퀽
퀾
퀿
큀
큁
큂
큃
큆
큈
큊
큋
큌
큍
큎
큏
큑
큒
큓
큕
큖
큗
큙
큚
큛
큜
큝
큞
큢
큤
큦
큧
큨
큩
큪
큮
큯
큲
큵
큶
큷
큸
큹
큺
큻
킀
킂
킃
킉
킊
킋
킌
킍
킎
킏
킑
킒
킓
킔
킕
킖
킗
킘
킙
킚
킛
킜
킝
킞
킟
킠
킡
킢
킣
킧
킩
킪
킮
킯
킰
킱
킲
킳
킶
킺
킻
킽
킿
탅
탋
탌
탎
탛
탞
탟
탡
탢
탥
탦
탧
탨
탩
탪
탫
탮
탲
탳
탴
탷
탻
탽
탾
턂
턃
턄
턅
턆
턇
턈
턊
턎
턏
턖
턗
턘
턙
턛
턜
턝
턞
턟
턠
턡
턢
턣
턤
턥
턦
턧
턨
턪
턫
턬
턭
턮
턯
턲
턳
턵
턶
턷
턼
턽
턾
턿
텇
텎
텏
텑
텒
텕
텖
텘
텙
텚
텛
텢
텧
텫
텭
텮
텯
텱
텲
텴
텵
텶
텷
텺
텾
텿
톀
톂
톅
톆
톇
톉
톊
톌
톍
톎
톏
톐
톑
톒
톓
톔
톕
톖
톘
톚
톛
톜
톝
톞
톟
톢
톣
톥
톦
톪
톫
톬
톭
톯
톴
톶
톷
톻
톾
톿
퇁
퇂
퇃
퇅
퇆
퇇
퇈
퇉
퇊
퇋
퇌
퇎
퇏
퇐
퇑
퇒
퇓
퇔
퇕
퇖
퇗
퇚
퇛
퇝
퇞
퇟
퇠
퇡
퇢
퇤
퇥
퇦
퇧
퇨
퇩
퇪
퇫
퇬
퇭
퇮
퇯
퇰
퇱
퇲
퇳
퇵
퇶
퇷
퇹
퇺
퇻
퇽
퇾
퇿
툀
툁
툂
툃
툅
툆
툈
툊
툋
툌
툍
툎
툏
툒
툕
툖
툗
툙
툚
툛
툜
툞
툟
툢
툣
툤
툦
툧
툨
툪
툮
툱
툲
툳
툶
툻
툾
퉂
퉄
퉉
퉊
퉋
퉌
퉍
퉎
퉏
퉑
퉒
퉓
퉔
퉕
퉖
퉗
퉘
퉙
퉚
퉛
퉞
퉟
퉡
퉢
퉣
퉦
퉧
퉩
퉪
퉫
퉬
퉮
퉯
퉰
퉲
퉳
퉴
퉵
퉶
퉸
퉺
퉻
퉼
퉽
퉾
퉿
튂
튃
튅
튆
튇
튉
튊
튋
튌
튍
튏
튒
튔
튖
튗
튘
튚
튛
튞
튡
튢
튣
튥
튧
튨
튩
튪
튫
튯
튰
튴
튷
튻
튾
틁
틃
틄
틅
틆
틇
틌
틎
틏
틕
틖
틗
틙
틚
틛
틝
틞
틟
틠
틡
틢
틣
틦
틨
틪
틫
틬
틭
틮
틯
틲
틳
틵
틶
틹
틺
틻
틼
틽
틾
틿
팆
팇
팋
팑
팕
팘
팙
팞
팢
팧
팪
팫
팭
팯
팱
팲
팳
팴
팵
팶
팷
팺
팾
팿
퍀
퍁
퍂
퍃
퍆
퍇
퍉
퍊
퍋
퍍
퍎
퍏
퍑
퍒
퍓
퍔
퍕
퍖
퍛
퍜
퍝
퍞
퍟
퍡
퍢
퍣
퍤
퍥
퍦
퍧
퍨
퍩
퍪
퍫
퍬
퍭
퍮
퍯
퍰
퍱
퍲
퍳
퍴
퍵
퍶
퍷
퍸
퍹
퍺
퍻
퍾
펂
펃
펆
펇
펈
펉
펊
펒
펓
펕
펚
펛
펝
펞
펟
펢
펣
펤
펥
펦
펧
펪
펮
펯
펱
펳
펶
펷
펹
펺
펽
펾
펿
폀
폁
폆
폊
폋
폌
폍
폎
폏
폑
폒
폓
폖
폗
폙
폚
폛
폜
폝
폞
폟
폠
폢
폤
폥
폦
폧
폨
폩
폪
폫
폱
폲
폵
폶
폷
폸
폹
폺
폻
폾
퐀
퐇
퐊
퐋
퐍
퐎
퐏
퐑
퐒
퐓
퐔
퐕
퐖
퐗
퐘
퐚
퐛
퐜
퐟
퐡
퐢
퐣
퐥
퐦
퐧
퐨
퐩
퐪
퐫
퐬
퐭
퐮
퐯
퐰
퐱
퐲
퐴
퐵
퐶
퐷
퐸
퐹
퐺
퐻
퐼
퐽
퐾
퐿
푁
푂
푃
푅
푆
푇
푉
푊
푋
푌
푍
푎
푏
푐
푑
푒
푓
푔
푖
푗
푘
푙
푚
푛
푞
푟
푡
푢
푣
푦
푨
푪
푬
푮
푰
푲
푳
푵
푶
푺
푻
푽
풁
풃
풅
풆
풊
풌
풎
풓
풖
풗
풙
풚
풛
풝
풞
풟
풠
풡
풢
풣
풤
풥
풦
풧
풨
풪
풫
풭
풮
풯
풲
풳
풵
풶
풷
풺
풻
풼
풽
퓀
퓁
퓂
퓃
퓄
퓆
퓇
퓈
퓉
퓊
퓋
퓎
퓏
퓑
퓒
퓓
퓕
퓖
퓗
퓘
퓚
퓛
퓞
퓠
퓢
퓣
퓤
퓥
퓦
퓧
퓪
퓫
퓭
퓮
퓯
퓱
퓲
퓶
퓷
퓺
퓼
퓾
퓿
픀
픂
픃
픆
픇
픉
픊
픍
픎
픏
픐
픑
픒
픘
픚
픛
픜
픡
픢
픣
픥
픦
픧
픩
픪
픫
픬
픭
픮
픯
픰
픲
픴
픵
픶
픷
픸
픹
픺
픻
픾
픿
핂
핅
핆
핇
핈
핉
핊
핋
핐
핒
핢
핯
핷
핹
핺
핾
햀
햁
햂
햃
햆
햊
햒
햓
햕
햖
햗
햜
햞
햢
햦
햧
햨
햪
햮
햯
햱
햲
햳
햴
햵
햶
햷
햸
햹
햺
햻
햽
헂
헃
헄
헅
헆
헇
헊
헋
헍
헎
헕
헖
헞
헟
헢
헦
헧
헩
헪
헮
헰
헱
헳
헶
헻
헽
헾
혃
혆
혇
혊
혋
혌
혍
혎
혏
혖
혗
혘
혙
혚
혛
혝
혞
혟
혡
혢
혣
혥
혦
혧
혨
혩
혪
혫
혮
혰
혲
혳
혴
혵
혶
혷
혺
혻
혽
혾
혿
홁
홂
홃
홄
홆
홊
홌
홎
홏
홖
홗
홙
홚
홞
홟
홠
홡
홢
홦
홫
홭
홮
홲
홳
홵
홶
홷
홸
홹
홺
홻
홼
홽
홾
홿
횀
횁
횆
횇
횈
횉
횊
횋
횎
횏
횑
횒
횕
횖
횗
횘
횙
횚
횛
횠
횢
횣
횤
횥
횧
횪
횫
횭
횮
횯
횱
횲
횳
횴
횵
횶
횷
횺
횼
횿
훀
훂
훆
훉
훊
훏
훐
훖
훘
훢
훣
훥
훦
훧
훩
훪
훫
훬
훭
훮
훲
훳
훴
훶
훷
훹
훺
훻
훾
훿
휁
휂
휃
휆
휇
휈
휉
휊
휎
휐
휒
휓
휕
휖
휚
휛
휝
휞
휟
휡
휣
휤
휥
휦
휧
휪
휮
휯
휱
휲
휶
휷
휹
휺
휻
휾
휿
흀
흁
흂
흃
흅
흆
흈
흊
흋
흌
흍
흎
흏
흓
흕
흚
흛
흜
흞
흤
흦
흧
흮
흯
흱
흲
흳
흵
흶
흷
흸
흹
흺
흻
흾
힀
힂
힃
힄
힅
힆
힇
힊
힎
힒
