[UNK]
[CLS]
[SEP]
[PAD]
[MASK]
!
"
#
$
%
&
'
(
)
*
+
,
-
.
/
0
1
2
3
4
5
6
7
8
9
:
;
<
=
>
?
@
A
B
C
D
E
F
G
H
I
J
K
L
M
N
O
P
Q
R
S
T
U
V
W
X
Y
Z
[
\
]
^
_
`
a
b
c
d
e
f
g
h
i
j
k
l
m
n
o
p
q
r
s
t
u
v
w
x
y
z
{
|
}
~

ᄀ
ㄱ
ㄲ
ㄳ
ㄴ
ㄵ
ㄶ
ㄷ
ㄸ
ㄹ
ㄺ
ㄻ
ㄼ
ㄽ
ㄾ
ㄿ
ㅀ
ㅁ
ㅂ
ㅃ
ㅄ
ㅅ
ㅆ
ㅇ
ㅈ
ㅉ
ㅊ
ㅋ
ㅌ
ㅍ
ㅎ
ㅏ
ㅐ
ㅑ
ㅒ
ㅓ
ㅔ
ㅕ
ㅖ
ㅗ
ㅘ
ㅙ
ㅚ
ㅛ
ㅜ
ㅝ
ㅞ
ㅟ
ㅠ
ㅡ
ㅢ
ㅣ
가
각
갂
갃
간
갅
갆
갇
갈
갉
갊
갋
갌
갍
갎
갏
감
갑
값
갓
갔
강
갖
갗
갘
같
갚
갛
개
객
갞
갟
갠
갡
갢
갣
갤
갥
갦
갧
갨
갩
갪
갫
갬
갭
갮
갯
갰
갱
갲
갳
갴
갵
갶
갷
갸
갹
갺
갻
갽
갾
갿
걀
걁
걂
걃
걄
걅
걆
걇
걈
걉
걊
걋
걌
걍
걎
걏
걐
걑
걒
걓
걔
걕
걖
걗
걙
걚
걛
걝
걞
걟
걠
걡
걢
걣
걤
걥
걦
걧
걨
걩
걪
걫
걬
걭
걮
걯
거
걱
걲
걳
건
걵
걶
걷
걸
걹
걺
걻
걼
걽
걾
걿
검
겁
겂
것
겄
겅
겆
겇
겈
겉
겊
겋
게
겍
겎
겏
겐
겑
겒
겓
겔
겕
겖
겗
겘
겙
겚
겛
겜
겞
겟
겠
겡
겢
겣
겤
겥
겦
겧
겨
격
겪
겫
견
겭
겮
겯
결
겱
겲
겳
겴
겵
겶
겷
겸
겹
겺
겻
겼
경
겾
겿
곀
곁
곂
곃
계
곅
곆
곇
곈
곉
곊
곋
곌
곍
곎
곏
곐
곑
곒
곓
곔
곕
곖
곗
곘
곙
곚
곛
곜
곝
곞
곟
고
곡
곢
곣
곤
곥
곦
곧
골
곩
곪
곫
곬
곭
곮
곯
곰
곱
곲
곳
곴
공
곶
곷
곸
곹
곺
곻
과
곽
곾
곿
관
괁
괂
괃
괄
괅
괆
괇
괈
괉
괊
괋
괌
괍
괎
괏
괐
광
괒
괓
괔
괕
괖
괗
괘
괙
괚
괛
괜
괝
괞
괟
괠
괡
괢
괣
괤
괥
괦
괧
괨
괩
괪
괫
괬
괭
괮
괯
괰
괱
괲
괳
괴
괵
괶
괷
괸
괹
괺
괻
괼
괽
괾
괿
굀
굁
굂
굃
굄
굅
굆
굇
굈
굉
굊
굋
굌
굍
굎
굏
교
굑
굒
굓
굔
굕
굖
굗
굘
굙
굚
굛
굜
굝
굞
굟
굠
굡
굢
굣
굤
굥
굦
굧
굨
굩
굪
굫
구
국
굮
굯
군
굱
굲
굳
굴
굵
굶
굷
굸
굹
굺
굻
굼
굽
굾
굿
궀
궁
궂
궃
궄
궅
궆
궇
궈
궉
궊
궋
권
궍
궎
궏
궐
궑
궒
궓
궔
궕
궖
궗
궘
궙
궚
궛
궜
궝
궞
궟
궠
궡
궢
궣
궤
궥
궦
궧
궨
궩
궪
궫
궬
궭
궮
궯
궰
궱
궲
궳
궴
궵
궶
궷
궸
궹
궺
궻
궼
궽
궾
궿
귀
귁
귂
귃
귄
귅
귆
귇
귈
귉
귊
귋
귌
귍
귎
귏
귐
귑
귒
귓
귔
귕
귖
귗
귘
귙
귚
귛
규
귝
귞
귟
균
귡
귢
귣
귤
귥
귦
귧
귨
귩
귪
귫
귬
귭
귮
귯
귰
귱
귲
귳
귴
귵
귶
귷
그
극
귺
귻
근
귽
귾
귿
글
긁
긂
긃
긄
긅
긆
긇
금
급
긊
긋
긌
긍
긎
긏
긐
긑
긒
긓
긔
긕
긖
긗
긘
긙
긚
긛
긜
긝
긞
긟
긠
긡
긢
긣
긤
긥
긦
긧
긨
긩
긪
긫
긬
긭
긮
긯
기
긱
긲
긳
긴
긵
긶
긷
길
긹
긺
긻
긼
긽
긾
긿
김
깁
깂
깃
깄
깅
깆
깇
깈
깉
깊
깋
까
깍
깎
깏
깐
깑
깒
깓
깔
깕
깖
깗
깘
깙
깚
깛
깜
깝
깞
깟
깡
깢
깣
깤
깥
깦
깧
깨
깩
깪
깫
깬
깭
깮
깯
깱
깲
깳
깴
깵
깶
깷
깸
깹
깺
깻
깽
깾
깿
꺀
꺁
꺂
꺃
꺄
꺅
꺆
꺇
꺈
꺉
꺊
꺋
꺌
꺍
꺎
꺏
꺐
꺑
꺒
꺓
꺔
꺕
꺖
꺗
꺘
꺙
꺚
꺛
꺜
꺝
꺞
꺟
꺠
꺡
꺢
꺣
꺤
꺥
꺦
꺧
꺨
꺩
꺪
꺫
꺬
꺭
꺮
꺯
꺰
꺱
꺲
꺳
꺴
꺵
꺶
꺷
꺸
꺹
꺺
꺻
꺼
꺽
꺾
꺿
껀
껁
껂
껃
껄
껅
껆
껇
껈
껉
껊
껋
껌
껍
껎
껏
껑
껒
껓
껔
껕
껖
껗
께
껙
껚
껛
껝
껞
껟
껠
껡
껢
껣
껤
껥
껦
껧
껨
껩
껪
껫
껬
껭
껮
껯
껰
껱
껲
껳
껴
껵
껶
껷
껸
껹
껺
껻
껼
껽
껾
껿
꼀
꼁
꼂
꼃
꼄
꼅
꼆
꼇
꼈
꼉
꼊
꼋
꼌
꼍
꼎
꼏
꼐
꼑
꼒
꼓
꼔
꼕
꼖
꼗
꼘
꼙
꼚
꼛
꼜
꼝
꼞
꼟
꼠
꼡
꼢
꼣
꼤
꼥
꼦
꼧
꼨
꼩
꼪
꼫
꼬
꼭
꼮
꼯
꼰
꼱
꼲
꼳
꼴
꼵
꼶
꼷
꼸
꼹
꼺
꼻
꼼
꼽
꼾
꼿
꽀
꽁
꽂
꽃
꽄
꽅
꽆
꽇
꽈
꽉
꽊
꽋
꽌
꽍
꽎
꽏
꽐
꽑
꽒
꽓
꽔
꽕
꽖
꽗
꽘
꽙
꽚
꽛
꽜
꽝
꽞
꽟
꽠
꽡
꽢
꽣
꽤
꽥
꽦
꽧
꽨
꽩
꽪
꽫
꽬
꽭
꽮
꽯
꽰
꽱
꽲
꽳
꽴
꽵
꽶
꽷
꽸
꽹
꽺
꽻
꽼
꽽
꽾
꽿
꾀
꾁
꾂
꾃
꾄
꾅
꾆
꾇
꾈
꾉
꾊
꾋
꾌
꾍
꾎
꾏
꾐
꾑
꾒
꾓
꾔
꾕
꾖
꾗
꾘
꾙
꾚
꾛
꾜
꾝
꾞
꾟
꾠
꾡
꾢
꾣
꾤
꾥
꾦
꾧
꾨
꾩
꾪
꾫
꾬
꾭
꾮
꾯
꾰
꾱
꾲
꾳
꾴
꾵
꾶
꾷
꾸
꾹
꾺
꾻
꾼
꾽
꾾
꾿
꿀
꿁
꿂
꿃
꿄
꿅
꿆
꿇
꿈
꿉
꿊
꿋
꿌
꿍
꿎
꿏
꿐
꿑
꿒
꿓
꿔
꿕
꿖
꿗
꿘
꿙
꿚
꿛
꿜
꿝
꿞
꿟
꿠
꿡
꿢
꿣
꿤
꿥
꿦
꿧
꿨
꿩
꿪
꿫
꿬
꿭
꿮
꿯
꿰
꿱
꿲
꿳
꿵
꿶
꿷
꿹
꿺
꿻
꿼
꿽
꿾
꿿
뀀
뀁
뀂
뀃
뀅
뀆
뀇
뀈
뀉
뀊
뀋
뀌
뀍
뀎
뀏
뀐
뀑
뀒
뀓
뀕
뀖
뀗
뀘
뀙
뀚
뀛
뀜
뀝
뀞
뀟
뀠
뀡
뀢
뀣
뀤
뀥
뀦
뀧
뀨
뀩
뀪
뀫
뀬
뀭
뀮
뀯
뀰
뀱
뀲
뀳
뀴
뀵
뀶
뀷
뀸
뀹
뀺
뀻
뀼
뀽
뀾
뀿
끀
끁
끂
끃
끄
끅
끆
끇
끈
끉
끊
끋
끌
끍
끎
끏
끐
끑
끒
끓
끔
끕
끖
끗
끘
끙
끚
끛
끜
끝
끞
끟
끠
끡
끢
끣
끤
끥
끦
끧
끨
끩
끪
끫
끬
끭
끮
끯
끰
끱
끲
끳
끴
끵
끶
끷
끸
끹
끺
끻
끼
끽
끾
끿
낀
낁
낂
낃
낄
낅
낆
낇
낈
낉
낊
낋
낌
낍
낎
낏
낐
낑
낒
낓
낔
낕
낖
낗
나
낙
낚
낛
난
낝
낞
낟
날
낡
낢
낣
낤
낥
낦
낧
남
납
낪
낫
났
낭
낮
낯
낰
낱
낲
낳
내
낵
낶
낷
낸
낹
낺
낻
낼
낽
낾
낿
냀
냁
냂
냃
냄
냅
냆
냇
냈
냉
냊
냋
냌
냍
냎
냏
냐
냑
냒
냓
냔
냕
냖
냗
냘
냙
냚
냛
냜
냝
냞
냟
냠
냡
냢
냣
냤
냥
냦
냧
냨
냩
냪
냫
냬
냭
냮
냯
냰
냱
냲
냳
냴
냵
냶
냷
냸
냹
냺
냻
냼
냽
냾
냿
넀
넁
넂
넃
넄
넅
넆
넇
너
넉
넊
넋
넌
넍
넎
넏
널
넑
넒
넓
넔
넕
넖
넗
넘
넙
넚
넛
넜
넝
넞
넟
넠
넡
넢
넣
네
넥
넦
넧
넨
넩
넪
넫
넬
넭
넮
넯
넰
넱
넲
넳
넴
넵
넶
넷
넸
넹
넺
넻
넼
넽
넾
넿
녀
녁
녂
녃
년
녅
녆
녇
녈
녉
녊
녋
녌
녍
녎
녏
념
녑
녒
녓
녔
녕
녖
녗
녘
녙
녚
녛
녜
녝
녞
녟
녠
녡
녢
녣
녤
녥
녦
녧
녨
녩
녪
녫
녬
녭
녮
녯
녰
녱
녲
녳
녴
녵
녶
녷
노
녹
녺
녻
논
녽
녾
녿
놀
놁
놂
놃
놄
놅
놆
놇
놈
놉
놊
놋
놌
농
놎
놏
놐
놑
높
놓
놔
놕
놖
놗
놘
놙
놚
놛
놜
놝
놞
놟
놠
놡
놢
놣
놤
놥
놦
놧
놨
놩
놪
놫
놬
놭
놮
놯
놰
놱
놲
놳
놴
놵
놶
놷
놸
놹
놺
놻
놼
놽
놾
놿
뇀
뇁
뇂
뇃
뇄
뇅
뇆
뇇
뇈
뇉
뇊
뇋
뇌
뇍
뇎
뇏
뇐
뇑
뇒
뇓
뇔
뇕
뇖
뇗
뇘
뇙
뇚
뇛
뇜
뇝
뇞
뇟
뇠
뇡
뇢
뇣
뇤
뇥
뇦
뇧
뇨
뇩
뇪
뇫
뇬
뇭
뇮
뇯
뇰
뇱
뇲
뇳
뇴
뇵
뇶
뇷
뇸
뇹
뇺
뇻
뇼
뇽
뇾
뇿
눀
눁
눂
눃
누
눅
눆
눇
눈
눉
눊
눋
눌
눍
눎
눏
눐
눑
눒
눓
눔
눕
눖
눗
눘
눙
눚
눛
눜
눝
눞
눟
눡
눢
눣
눤
눥
눦
눧
눨
눩
눪
눫
눬
눭
눮
눯
눰
눱
눲
눳
눵
눶
눷
눸
눹
눺
눻
눼
눽
눾
눿
뉀
뉁
뉂
뉃
뉄
뉅
뉆
뉇
뉈
뉉
뉊
뉋
뉌
뉍
뉎
뉏
뉐
뉑
뉒
뉓
뉔
뉕
뉖
뉗
뉘
뉙
뉚
뉛
뉜
뉝
뉞
뉟
뉡
뉢
뉣
뉤
뉥
뉦
뉧
뉨
뉩
뉪
뉫
뉬
뉭
뉮
뉯
뉰
뉱
뉲
뉳
뉴
뉵
뉶
뉷
뉸
뉹
뉺
뉻
뉼
뉽
뉾
뉿
늀
늁
늂
늃
늄
늅
늆
늇
늈
늉
늊
늋
늌
늍
늎
늏
느
늑
늒
늓
는
늕
늖
늗
늘
늙
늚
늛
늜
늝
늞
늟
늠
늡
늢
늣
늤
능
늦
늧
늨
늩
늪
늫
늬
늭
늮
늯
늰
늱
늲
늳
늴
늵
늶
늷
늸
늹
늺
늻
늼
늽
늾
늿
닀
닁
닂
닃
닄
닅
닆
닇
니
닉
닊
닋
닌
닍
닎
닏
닐
닑
닒
닓
닔
닕
닖
닗
님
닙
닚
닛
닜
닝
닞
닟
닠
닡
닢
닣
다
닥
닦
닧
단
닩
닪
닫
달
닭
닮
닯
닰
닱
닲
닳
담
답
닶
닷
닸
당
닺
닻
닼
닽
닾
닿
대
댁
댂
댃
댄
댅
댆
댇
댈
댉
댊
댋
댌
댍
댎
댏
댐
댑
댒
댓
댔
댕
댖
댗
댘
댙
댚
댛
댜
댝
댞
댟
댠
댡
댢
댣
댤
댥
댦
댧
댨
댩
댪
댫
댬
댭
댮
댯
댰
댱
댲
댳
댴
댵
댶
댷
댸
댹
댺
댻
댼
댽
댾
댿
덀
덁
덂
덃
덄
덅
덆
덇
덈
덉
덊
덋
덌
덍
덎
덏
덐
덑
덒
덓
더
덕
덖
덗
던
덙
덚
덛
덜
덝
덞
덟
덠
덡
덢
덣
덤
덥
덦
덧
덨
덩
덪
덫
덬
덭
덮
덯
데
덱
덲
덳
덴
덵
덶
덷
델
덹
덺
덻
덼
덽
덾
덿
뎀
뎁
뎂
뎃
뎄
뎅
뎆
뎇
뎈
뎉
뎊
뎋
뎌
뎍
뎎
뎏
뎐
뎑
뎒
뎓
뎔
뎕
뎖
뎗
뎘
뎙
뎚
뎛
뎜
뎝
뎞
뎟
뎠
뎡
뎢
뎣
뎤
뎥
뎦
뎧
뎨
뎩
뎪
뎫
뎬
뎭
뎮
뎯
뎰
뎱
뎲
뎳
뎴
뎵
뎶
뎷
뎸
뎹
뎺
뎻
뎼
뎽
뎾
뎿
돀
돁
돂
돃
도
독
돆
돇
돈
돉
돊
돋
돌
돍
돎
돏
돐
돑
돒
돓
돔
돕
돖
돗
돘
동
돚
돛
돜
돝
돞
돟
돠
돡
돢
돣
돤
돥
돦
돧
돨
돩
돪
돫
돬
돭
돮
돯
돰
돱
돲
돳
돴
돵
돶
돷
돸
돹
돺
돻
돼
돽
돾
돿
됀
됁
됂
됃
됄
됅
됆
됇
됈
됉
됊
됋
됌
됍
됎
됏
됐
됑
됒
됓
됔
됕
됖
됗
되
됙
됚
됛
된
됝
됞
됟
될
됡
됢
됣
됤
됥
됦
됧
됨
됩
됪
됫
됬
됭
됮
됯
됰
됱
됲
됳
됴
됵
됶
됷
됸
됹
됺
됻
됼
됽
됾
됿
둀
둁
둂
둃
둄
둅
둆
둇
둈
둉
둊
둋
둌
둍
둎
둏
두
둑
둒
둓
둔
둕
둖
둗
둘
둙
둚
둛
둜
둝
둞
둟
둠
둡
둢
둣
둤
둥
둦
둧
둨
둩
둪
둫
둬
둭
둮
둯
둰
둱
둲
둳
둴
둵
둶
둷
둸
둹
둺
둻
둼
둽
둾
둿
뒁
뒂
뒃
뒄
뒅
뒆
뒇
뒈
뒉
뒊
뒋
뒌
뒍
뒎
뒏
뒐
뒑
뒒
뒓
뒔
뒕
뒖
뒗
뒘
뒙
뒚
뒛
뒜
뒝
뒞
뒟
뒠
뒡
뒢
뒣
뒤
뒥
뒦
뒧
뒨
뒩
뒪
뒫
뒬
뒭
뒮
뒯
뒰
뒱
뒲
뒳
뒴
뒵
뒶
뒷
뒸
뒹
뒺
뒻
뒼
뒽
뒾
뒿
듀
듁
듂
듃
듄
듅
듆
듇
듈
듉
듊
듋
듌
듍
듎
듏
듐
듑
듒
듓
듔
듕
듖
듗
듘
듙
듚
듛
드
득
듞
듟
든
듡
듢
듣
들
듥
듦
듧
듨
듩
듪
듫
듬
듭
듮
듯
듰
등
듲
듳
듴
듵
듶
듷
듸
듹
듺
듻
듼
듽
듾
듿
딀
딁
딂
딃
딄
딅
딆
딇
딈
딉
딊
딋
딌
딍
딎
딏
딐
딑
딒
딓
디
딕
딖
딗
딘
딙
딚
딛
딜
딝
딞
딟
딠
딡
딢
딣
딤
딥
딦
딧
딨
딩
딪
딫
딬
딭
딮
딯
따
딱
딲
딳
딴
딵
딶
딷
딸
딹
딺
딻
딼
딽
딾
딿
땀
땁
땂
땃
땅
땆
땇
땈
땉
땊
땋
때
땍
땎
땏
땐
땑
땒
땓
땔
땕
땖
땗
땘
땙
땚
땛
땜
땝
땞
땟
땠
땡
땢
땣
땤
땥
땦
땧
땨
땩
땪
땫
땬
땭
땮
땯
땰
땱
땲
땳
땴
땵
땶
땷
땸
땹
땺
땻
땼
땽
땾
땿
떀
떁
떂
떃
떄
떅
떆
떇
떈
떉
떊
떋
떌
떍
떎
떏
떐
떑
떒
떓
떔
떕
떖
떗
떘
떙
떚
떛
떜
떝
떞
떟
떠
떡
떢
떣
떤
떥
떦
떧
떨
떩
떪
떫
떬
떭
떮
떯
떰
떱
떲
떳
떵
떶
떷
떸
떹
떺
떻
떼
떽
떾
떿
뗀
뗁
뗂
뗃
뗄
뗅
뗆
뗇
뗈
뗉
뗊
뗋
뗌
뗍
뗎
뗏
뗑
뗒
뗓
뗔
뗕
뗖
뗗
뗘
뗙
뗚
뗛
뗜
뗝
뗞
뗟
뗠
뗡
뗢
뗣
뗤
뗥
뗦
뗧
뗨
뗩
뗪
뗫
뗭
뗮
뗯
뗰
뗱
뗲
뗳
뗴
뗵
뗶
뗷
뗸
뗹
뗺
뗻
뗼
뗽
뗾
뗿
똀
똁
똂
똃
똄
똅
똆
똇
똈
똉
똊
똋
똌
똍
똎
똏
또
똑
똒
똓
똔
똕
똖
똗
똘
똙
똚
똛
똜
똝
똞
똟
똠
똡
똢
똣
똤
똥
똦
똧
똨
똩
똪
똫
똬
똭
똮
똯
똰
똱
똲
똳
똴
똵
똶
똷
똸
똹
똺
똻
똼
똽
똾
똿
뙀
뙁
뙂
뙃
뙄
뙅
뙆
뙇
뙈
뙉
뙊
뙋
뙌
뙍
뙎
뙏
뙐
뙑
뙒
뙓
뙔
뙕
뙖
뙗
뙘
뙙
뙚
뙛
뙜
뙝
뙞
뙟
뙠
뙡
뙢
뙣
뙤
뙥
뙦
뙧
뙨
뙩
뙪
뙫
뙬
뙭
뙮
뙯
뙰
뙱
뙲
뙳
뙴
뙵
뙶
뙷
뙸
뙹
뙺
뙻
뙼
뙽
뙾
뙿
뚀
뚁
뚂
뚃
뚄
뚅
뚆
뚇
뚈
뚉
뚊
뚋
뚌
뚍
뚎
뚏
뚐
뚑
뚒
뚓
뚔
뚕
뚖
뚗
뚘
뚙
뚚
뚛
뚜
뚝
뚞
뚟
뚠
뚡
뚢
뚣
뚤
뚥
뚦
뚧
뚨
뚩
뚪
뚫
뚬
뚭
뚮
뚯
뚰
뚱
뚲
뚳
뚴
뚵
뚶
뚷
뚸
뚹
뚺
뚻
뚼
뚽
뚾
뚿
뛀
뛁
뛂
뛃
뛄
뛅
뛆
뛇
뛈
뛉
뛊
뛋
뛌
뛍
뛎
뛏
뛐
뛑
뛒
뛓
뛔
뛕
뛖
뛗
뛘
뛙
뛚
뛛
뛜
뛝
뛞
뛟
뛠
뛡
뛢
뛣
뛤
뛥
뛦
뛧
뛨
뛩
뛪
뛫
뛬
뛭
뛮
뛯
뛰
뛱
뛲
뛳
뛵
뛶
뛷
뛸
뛹
뛺
뛻
뛼
뛽
뛾
뛿
뜀
뜁
뜂
뜃
뜄
뜅
뜆
뜇
뜈
뜉
뜊
뜋
뜌
뜍
뜎
뜏
뜐
뜑
뜒
뜓
뜔
뜕
뜖
뜗
뜘
뜙
뜚
뜛
뜜
뜝
뜞
뜟
뜠
뜡
뜢
뜣
뜤
뜥
뜦
뜧
뜨
뜩
뜪
뜫
뜬
뜭
뜮
뜯
뜰
뜱
뜲
뜳
뜴
뜵
뜶
뜷
뜸
뜹
뜺
뜻
뜼
뜽
뜾
뜿
띀
띁
띂
띃
띄
띅
띆
띇
띉
띊
띋
띍
띎
띏
띐
띑
띒
띓
띔
띕
띖
띗
띘
띙
띚
띛
띜
띝
띞
띟
띠
띡
띢
띣
띤
띥
띦
띧
띨
띩
띪
띫
띬
띭
띮
띯
띰
띱
띲
띳
띴
띵
띶
띷
띸
띹
띺
띻
라
락
띾
띿
란
랁
랂
랃
랄
랅
랆
랇
랈
랉
랊
랋
람
랍
랎
랏
랐
랑
랒
랓
랔
랕
랖
랗
래
랙
랚
랛
랜
랝
랞
랟
랠
랡
랢
랣
랤
랥
랦
랧
램
랩
랪
랫
랬
랭
랮
랯
랰
랱
랲
랳
랴
략
랶
랷
랸
랹
랺
랻
랼
랽
랾
랿
럀
럁
럂
럃
럄
럅
럆
럇
럈
량
럊
럋
럌
럍
럎
럏
럐
럑
럒
럓
럔
럕
럖
럗
럘
럙
럚
럛
럜
럝
럞
럟
럠
럡
럢
럣
럤
럥
럦
럧
럨
럩
럪
럫
러
럭
럮
럯
런
럱
럲
럳
럴
럵
럶
럷
럸
럹
럺
럻
럼
럽
럾
럿
렀
렁
렂
렃
렄
렅
렆
렇
레
렉
렊
렋
렌
렍
렎
렏
렐
렑
렒
렓
렔
렕
렖
렗
렘
렙
렚
렛
렜
렝
렞
렟
렠
렡
렢
렣
려
력
렦
렧
련
렩
렪
렫
렬
렭
렮
렯
렰
렱
렲
렳
렴
렵
렶
렷
렸
령
렺
렻
렼
렽
렾
렿
례
롁
롂
롃
롄
롅
롆
롇
롈
롉
롊
롋
롌
롍
롎
롏
롐
롑
롒
롓
롔
롕
롖
롗
롘
롙
롚
롛
로
록
롞
롟
론
롡
롢
롣
롤
롥
롦
롧
롨
롩
롪
롫
롬
롭
롮
롯
롰
롱
롲
롳
롴
롵
롶
롷
롸
롹
롺
롻
롼
롽
롾
롿
뢀
뢁
뢂
뢃
뢄
뢅
뢆
뢇
뢈
뢉
뢊
뢋
뢌
뢍
뢎
뢏
뢐
뢑
뢒
뢓
뢔
뢕
뢖
뢗
뢘
뢙
뢚
뢛
뢜
뢝
뢞
뢟
뢠
뢡
뢢
뢣
뢤
뢥
뢦
뢧
뢨
뢩
뢪
뢫
뢬
뢭
뢮
뢯
뢰
뢱
뢲
뢳
뢴
뢵
뢶
뢷
뢸
뢹
뢺
뢻
뢼
뢽
뢾
뢿
룀
룁
룂
룃
룄
룅
룆
룇
룈
룉
룊
룋
료
룍
룎
룏
룐
룑
룒
룓
룔
룕
룖
룗
룘
룙
룚
룛
룜
룝
룞
룟
룠
룡
룢
룣
룤
룥
룦
룧
루
룩
룪
룫
룬
룭
룮
룯
룰
룱
룲
룳
룴
룵
룶
룷
룸
룹
룺
룻
룼
룽
룾
룿
뤀
뤁
뤂
뤃
뤄
뤅
뤆
뤇
뤈
뤉
뤊
뤋
뤌
뤍
뤎
뤏
뤐
뤑
뤒
뤓
뤔
뤕
뤖
뤗
뤘
뤙
뤚
뤛
뤜
뤝
뤞
뤟
뤠
뤡
뤢
뤣
뤤
뤥
뤦
뤧
뤨
뤩
뤪
뤫
뤬
뤭
뤮
뤯
뤰
뤱
뤲
뤳
뤴
뤵
뤶
뤷
뤸
뤹
뤺
뤻
뤼
뤽
뤾
뤿
륀
륁
륂
륃
륄
륅
륆
륇
륈
륉
륊
륋
륌
륍
륎
륏
륐
륑
륒
륓
륔
륕
륖
륗
류
륙
륚
륛
륜
륝
륞
륟
률
륡
륢
륣
륤
륥
륦
륧
륨
륩
륪
륫
륬
륭
륮
륯
륰
륱
륲
륳
르
륵
륶
륷
른
륹
륺
륻
를
륽
륾
륿
릀
릁
릂
릃
름
릅
릆
릇
릈
릉
릊
릋
릌
릍
릎
릏
릐
릑
릒
릓
릔
릕
릖
릗
릘
릙
릚
릛
릜
릝
릞
릟
릠
릡
릢
릣
릤
릥
릦
릧
릨
릩
릪
릫
리
릭
릮
릯
린
릱
릲
릳
릴
릵
릶
릷
릸
릹
릺
릻
림
립
릾
릿
맀
링
맂
맃
맄
맅
맆
맇
마
막
맊
맋
만
맍
많
맏
말
맑
맒
맓
맔
맕
맖
맗
맘
맙
맚
맛
맜
망
맞
맟
맠
맡
맢
맣
매
맥
맦
맧
맨
맩
맪
맫
맬
맭
맮
맯
맰
맱
맲
맳
맴
맵
맶
맷
맹
맺
맻
맼
맽
맾
맿
먀
먁
먂
먃
먄
먅
먆
먇
먈
먉
먊
먋
먌
먍
먎
먏
먐
먑
먒
먓
먔
먕
먖
먗
먘
먙
먚
먛
먜
먝
먞
먟
먠
먡
먢
먣
먤
먥
먦
먧
먨
먩
먪
먫
먬
먭
먮
먯
먰
먱
먲
먳
먴
먵
먶
먷
머
먹
먺
먻
먼
먽
먾
먿
멀
멁
멂
멃
멄
멅
멆
멇
멈
멉
멊
멋
멌
멍
멎
멏
멐
멑
멒
멓
메
멕
멖
멗
멘
멙
멚
멛
멜
멝
멞
멟
멠
멡
멢
멣
멤
멥
멦
멧
멨
멩
멪
멫
멬
멭
멮
멯
며
멱
멲
멳
면
멵
멶
멷
멸
멹
멺
멻
멼
멽
멾
멿
몀
몁
몂
몃
몄
명
몆
몇
몈
몉
몊
몋
몌
몍
몎
몏
몐
몑
몒
몓
몔
몕
몖
몗
몘
몙
몚
몛
몜
몝
몞
몟
몠
몡
몢
몣
몤
몥
몦
몧
모
목
몪
몫
몬
몭
몮
몯
몰
몱
몲
몳
몴
몵
몶
몷
몸
몹
몺
못
몼
몽
몾
몿
뫀
뫁
뫂
뫃
뫄
뫅
뫆
뫇
뫈
뫉
뫊
뫋
뫌
뫍
뫎
뫏
뫐
뫑
뫒
뫓
뫔
뫕
뫖
뫗
뫘
뫙
뫚
뫛
뫜
뫝
뫞
뫟
뫠
뫡
뫢
뫣
뫤
뫥
뫦
뫧
뫨
뫩
뫪
뫫
뫬
뫭
뫮
뫯
뫰
뫱
뫲
뫳
뫴
뫵
뫶
뫷
뫸
뫹
뫺
뫻
뫼
뫽
뫾
뫿
묀
묁
묂
묃
묄
묅
묆
묇
묈
묉
묊
묋
묌
묍
묎
묏
묐
묑
묒
묓
묔
묕
묖
묗
묘
묙
묚
묛
묜
묝
묞
묟
묠
묡
묢
묣
묤
묥
묦
묧
묨
묩
묪
묫
묬
묭
묮
묯
묰
묱
묲
묳
무
묵
묶
묷
문
묹
묺
묻
물
묽
묾
묿
뭀
뭁
뭂
뭃
뭄
뭅
뭆
뭇
뭈
뭉
뭊
뭋
뭌
뭍
뭎
뭏
뭐
뭑
뭒
뭓
뭔
뭕
뭖
뭗
뭘
뭙
뭚
뭛
뭜
뭝
뭞
뭟
뭠
뭡
뭢
뭣
뭤
뭥
뭦
뭧
뭨
뭩
뭪
뭫
뭬
뭭
뭮
뭯
뭰
뭱
뭲
뭳
뭴
뭵
뭶
뭷
뭸
뭹
뭺
뭻
뭼
뭽
뭾
뭿
뮀
뮁
뮂
뮃
뮄
뮅
뮆
뮇
뮈
뮉
뮊
뮋
뮌
뮍
뮎
뮏
뮐
뮑
뮒
뮓
뮔
뮕
뮖
뮗
뮘
뮙
뮚
뮛
뮜
뮝
뮞
뮟
뮠
뮡
뮢
뮣
뮤
뮥
뮦
뮧
뮨
뮩
뮪
뮫
뮬
뮭
뮮
뮯
뮰
뮱
뮲
뮳
뮴
뮵
뮶
뮷
뮸
뮹
뮺
뮻
뮼
뮽
뮾
뮿
므
믁
믂
믃
믄
믅
믆
믇
믈
믉
믊
믋
믌
믍
믎
믏
믐
믑
믒
믓
믔
믕
믖
믗
믘
믙
믚
믛
믜
믝
믞
믟
믠
믡
믢
믣
믤
믥
믦
믧
믨
믩
믪
믫
믬
믭
믮
믯
믰
믱
믲
믳
믴
믵
믶
믷
미
믹
믺
믻
민
믽
믾
믿
밀
밁
밂
밃
밄
밅
밆
밇
밈
밉
밊
밋
밌
밍
밎
및
밐
밑
밒
밓
바
박
밖
밗
반
밙
밚
받
발
밝
밞
밟
밠
밡
밢
밣
밤
밥
밦
밧
밨
방
밪
밫
밬
밭
밮
밯
배
백
밲
밳
밴
밵
밶
밷
밸
밹
밺
밻
밼
밽
밾
밿
뱀
뱁
뱂
뱃
뱅
뱆
뱇
뱈
뱉
뱊
뱋
뱌
뱍
뱎
뱏
뱐
뱑
뱒
뱓
뱔
뱕
뱖
뱗
뱘
뱙
뱚
뱛
뱜
뱝
뱞
뱟
뱠
뱡
뱢
뱣
뱤
뱥
뱦
뱧
뱨
뱩
뱪
뱫
뱬
뱭
뱮
뱯
뱰
뱱
뱲
뱳
뱴
뱵
뱶
뱷
뱸
뱹
뱺
뱻
뱼
뱽
뱾
뱿
벀
벁
벂
벃
버
벅
벆
벇
번
벉
벊
벋
벌
벍
벎
벏
벐
벑
벒
벓
범
법
벖
벗
벘
벙
벚
벛
벜
벝
벞
벟
베
벡
벢
벣
벤
벥
벦
벧
벨
벩
벪
벫
벬
벭
벮
벯
벰
벱
벲
벳
벴
벵
벶
벷
벸
벹
벺
벻
벼
벽
벾
벿
변
볁
볂
볃
별
볅
볆
볇
볈
볉
볊
볋
볌
볍
볎
볏
볐
병
볒
볓
볔
볕
볖
볗
볘
볙
볚
볛
볜
볝
볞
볟
볠
볡
볢
볣
볤
볥
볦
볧
볨
볩
볪
볫
볬
볭
볮
볯
볰
볱
볲
볳
보
복
볶
볷
본
볹
볺
볻
볼
볽
볾
볿
봀
봁
봂
봃
봄
봅
봆
봇
봈
봉
봊
봋
봌
봍
봎
봏
봐
봑
봒
봓
봔
봕
봖
봗
봘
봙
봚
봛
봜
봝
봞
봟
봠
봡
봢
봣
봤
봥
봦
봧
봨
봩
봪
봫
봬
봭
봮
봯
봰
봱
봲
봳
봴
봵
봶
봷
봸
봹
봺
봻
봼
봽
봾
봿
뵁
뵂
뵃
뵄
뵅
뵆
뵇
뵈
뵉
뵊
뵋
뵍
뵎
뵏
뵐
뵑
뵒
뵓
뵔
뵕
뵖
뵗
뵘
뵙
뵚
뵛
뵝
뵞
뵟
뵠
뵡
뵢
뵣
뵤
뵥
뵦
뵧
뵨
뵩
뵪
뵫
뵬
뵭
뵮
뵯
뵰
뵱
뵲
뵳
뵴
뵵
뵶
뵷
뵸
뵹
뵺
뵻
뵼
뵽
뵾
뵿
부
북
붂
붃
분
붅
붆
붇
불
붉
붊
붋
붌
붍
붎
붏
붐
붑
붒
붓
붔
붕
붖
붗
붘
붙
붚
붛
붜
붝
붞
붟
붠
붡
붢
붣
붤
붥
붦
붧
붨
붩
붪
붫
붬
붭
붮
붯
붰
붱
붲
붳
붴
붵
붶
붷
붸
붹
붺
붻
붼
붽
붾
붿
뷀
뷁
뷂
뷃
뷄
뷅
뷆
뷇
뷈
뷉
뷊
뷋
뷌
뷍
뷎
뷏
뷐
뷑
뷒
뷓
뷔
뷕
뷖
뷗
뷘
뷙
뷚
뷛
뷜
뷝
뷞
뷟
뷠
뷡
뷢
뷣
뷤
뷥
뷦
뷧
뷨
뷩
뷪
뷫
뷬
뷭
뷮
뷯
뷰
뷱
뷲
뷳
뷴
뷵
뷶
뷷
뷸
뷹
뷺
뷻
뷼
뷽
뷾
뷿
븀
븁
븂
븃
븄
븅
븆
븇
븈
븉
븊
븋
브
븍
븎
븏
븐
븑
븒
븓
블
븕
븖
븗
븘
븙
븚
븛
븜
븝
븞
븟
븠
븡
븢
븣
븤
븥
븦
븧
븨
븩
븪
븫
븬
븭
븮
븯
븰
븱
븲
븳
븴
븵
븶
븷
븸
븹
븺
븻
븼
븽
븾
븿
빀
빁
빂
빃
비
빅
빆
빇
빈
빉
빊
빋
빌
빍
빎
빏
빐
빑
빒
빓
빔
빕
빖
빗
빘
빙
빚
빛
빜
빝
빞
빟
빠
빡
빢
빣
빤
빥
빦
빧
빨
빩
빪
빫
빬
빭
빮
빯
빰
빱
빲
빳
빴
빵
빶
빷
빸
빹
빺
빻
빼
빽
빾
빿
뺀
뺁
뺂
뺃
뺄
뺅
뺆
뺇
뺈
뺉
뺊
뺋
뺌
뺍
뺎
뺏
뺐
뺑
뺒
뺓
뺔
뺕
뺖
뺗
뺘
뺙
뺚
뺛
뺜
뺝
뺞
뺟
뺠
뺡
뺢
뺣
뺤
뺥
뺦
뺧
뺨
뺩
뺪
뺫
뺬
뺭
뺮
뺯
뺰
뺱
뺲
뺳
뺴
뺵
뺶
뺷
뺸
뺹
뺺
뺻
뺼
뺽
뺾
뺿
뻀
뻁
뻂
뻃
뻄
뻅
뻆
뻇
뻈
뻉
뻊
뻋
뻌
뻍
뻎
뻏
뻐
뻑
뻒
뻓
뻔
뻕
뻖
뻗
뻘
뻙
뻚
뻛
뻜
뻝
뻞
뻟
뻠
뻡
뻢
뻣
뻤
뻥
뻦
뻧
뻨
뻩
뻪
뻫
뻬
뻭
뻮
뻯
뻰
뻱
뻲
뻳
뻴
뻵
뻶
뻷
뻸
뻹
뻺
뻻
뻼
뻽
뻾
뻿
뼀
뼁
뼂
뼃
뼄
뼅
뼆
뼇
뼈
뼉
뼊
뼋
뼌
뼍
뼎
뼏
뼐
뼑
뼒
뼓
뼔
뼕
뼖
뼗
뼘
뼙
뼚
뼛
뼜
뼝
뼞
뼟
뼠
뼡
뼢
뼣
뼤
뼥
뼦
뼧
뼨
뼩
뼪
뼫
뼬
뼭
뼮
뼯
뼰
뼱
뼲
뼳
뼴
뼵
뼶
뼷
뼸
뼹
뼺
뼻
뼼
뼽
뼾
뼿
뽀
뽁
뽂
뽃
뽄
뽅
뽆
뽇
뽈
뽉
뽊
뽋
뽌
뽍
뽎
뽏
뽐
뽑
뽒
뽓
뽔
뽕
뽖
뽗
뽘
뽙
뽚
뽛
뽜
뽝
뽞
뽟
뽠
뽡
뽢
뽣
뽤
뽥
뽦
뽧
뽨
뽩
뽪
뽫
뽬
뽭
뽮
뽯
뽰
뽱
뽲
뽳
뽴
뽵
뽶
뽷
뽸
뽹
뽺
뽻
뽼
뽽
뽾
뽿
뾀
뾁
뾂
뾃
뾄
뾅
뾆
뾇
뾈
뾉
뾊
뾋
뾌
뾍
뾎
뾏
뾐
뾑
뾒
뾓
뾔
뾕
뾖
뾗
뾘
뾙
뾚
뾛
뾜
뾝
뾞
뾟
뾠
뾡
뾢
뾣
뾤
뾥
뾦
뾧
뾨
뾩
뾪
뾫
뾬
뾭
뾮
뾯
뾰
뾱
뾲
뾳
뾴
뾵
뾶
뾷
뾸
뾹
뾺
뾻
뾼
뾽
뾾
뾿
뿀
뿁
뿂
뿃
뿄
뿅
뿆
뿇
뿈
뿉
뿊
뿋
뿌
뿍
뿎
뿏
뿐
뿑
뿒
뿓
뿔
뿕
뿖
뿗
뿘
뿙
뿚
뿛
뿜
뿝
뿞
뿟
뿡
뿢
뿣
뿤
뿥
뿦
뿧
뿨
뿩
뿪
뿫
뿬
뿭
뿮
뿯
뿰
뿱
뿲
뿳
뿴
뿵
뿶
뿷
뿸
뿹
뿺
뿻
뿼
뿽
뿾
뿿
쀀
쀁
쀂
쀃
쀄
쀅
쀆
쀇
쀈
쀉
쀊
쀋
쀌
쀍
쀎
쀏
쀐
쀑
쀒
쀓
쀔
쀕
쀖
쀗
쀘
쀙
쀚
쀛
쀜
쀝
쀞
쀟
쀠
쀡
쀢
쀣
쀤
쀥
쀦
쀧
쀨
쀩
쀪
쀫
쀬
쀭
쀮
쀯
쀰
쀱
쀲
쀳
쀴
쀵
쀶
쀷
쀸
쀹
쀺
쀻
쀼
쀽
쀾
쀿
쁀
쁁
쁂
쁃
쁄
쁅
쁆
쁇
쁈
쁉
쁊
쁋
쁌
쁍
쁎
쁏
쁐
쁑
쁒
쁓
쁔
쁕
쁖
쁗
쁘
쁙
쁚
쁛
쁜
쁝
쁞
쁟
쁠
쁡
쁢
쁣
쁤
쁥
쁦
쁧
쁨
쁩
쁪
쁫
쁬
쁭
쁮
쁯
쁰
쁱
쁲
쁳
쁴
쁵
쁶
쁷
쁸
쁹
쁺
쁻
쁼
쁽
쁾
쁿
삀
삁
삂
삃
삄
삅
삆
삇
삈
삉
삊
삋
삌
삍
삎
삏
삐
삑
삒
삓
삔
삕
삖
삗
삘
삙
삚
삛
삜
삝
삞
삟
삠
삡
삢
삣
삤
삥
삦
삧
삨
삩
삪
삫
사
삭
삮
삯
산
삱
삲
삳
살
삵
삶
삷
삸
삹
삺
삻
삼
삽
삾
삿
상
샂
샃
샄
샅
샆
샇
새
색
샊
샋
샌
샍
샎
샏
샐
샑
샒
샓
샔
샕
샖
샗
샘
샙
샚
샛
생
샞
샟
샠
샡
샢
샣
샤
샥
샦
샧
샨
샩
샪
샫
샬
샭
샮
샯
샰
샱
샲
샳
샴
샵
샶
샷
샸
샹
샺
샻
샼
샽
샾
샿
섀
섁
섂
섃
섄
섅
섆
섇
섈
섉
섊
섋
섌
섍
섎
섏
섐
섑
섒
섓
섔
섕
섖
섗
섘
섙
섚
섛
서
석
섞
섟
선
섡
섢
섣
설
섥
섦
섧
섨
섩
섪
섫
섬
섭
섮
섯
섰
성
섲
섳
섴
섵
섶
섷
세
섹
섺
섻
센
섽
섿
셀
셁
셂
셃
셄
셅
셆
셇
셈
셉
셊
셋
셍
셎
셏
셐
셑
셒
셓
셔
셕
셖
셗
션
셙
셚
셛
셜
셝
셞
셟
셠
셡
셢
셣
셤
셥
셦
셧
셨
셩
셪
셫
셬
셭
셮
셯
셰
셱
셲
셳
셴
셵
셶
셷
셸
셹
셺
셻
셼
셽
셾
셿
솀
솁
솂
솃
솄
솅
솆
솇
솈
솉
솊
솋
소
속
솎
솏
손
솑
솒
솓
솔
솕
솖
솗
솘
솙
솚
솛
솜
솝
솞
솟
솠
송
솢
솣
솤
솥
솦
솧
솨
솩
솪
솫
솬
솭
솮
솯
솰
솱
솲
솳
솴
솵
솶
솷
솸
솹
솺
솻
솼
솽
솾
솿
쇀
쇁
쇂
쇃
쇄
쇅
쇆
쇇
쇈
쇉
쇊
쇋
쇌
쇍
쇎
쇏
쇐
쇑
쇒
쇓
쇔
쇕
쇖
쇗
쇘
쇙
쇚
쇛
쇜
쇝
쇞
쇟
쇠
쇡
쇢
쇣
쇤
쇥
쇦
쇧
쇨
쇩
쇪
쇫
쇬
쇭
쇮
쇯
쇰
쇱
쇲
쇳
쇴
쇵
쇶
쇷
쇸
쇹
쇺
쇻
쇼
쇽
쇾
쇿
숀
숁
숂
숃
숄
숅
숆
숇
숈
숉
숊
숋
숌
숍
숎
숏
숐
숑
숒
숓
숔
숕
숖
숗
수
숙
숚
숛
순
숝
숞
숟
술
숡
숢
숣
숤
숥
숦
숧
숨
숩
숪
숫
숬
숭
숮
숯
숰
숱
숲
숳
숴
숵
숶
숷
숸
숹
숺
숻
숼
숽
숾
숿
쉀
쉁
쉂
쉃
쉄
쉅
쉆
쉇
쉈
쉉
쉊
쉋
쉌
쉍
쉎
쉏
쉐
쉑
쉒
쉓
쉔
쉕
쉖
쉗
쉘
쉙
쉚
쉛
쉜
쉝
쉞
쉟
쉠
쉡
쉢
쉣
쉤
쉥
쉦
쉧
쉨
쉩
쉪
쉫
쉬
쉭
쉮
쉯
쉰
쉱
쉲
쉳
쉴
쉵
쉶
쉷
쉸
쉹
쉺
쉻
쉼
쉽
쉾
쉿
슀
슁
슂
슃
슄
슅
슆
슇
슈
슉
슊
슋
슌
슍
슎
슏
슐
슑
슒
슓
슔
슕
슖
슗
슘
슙
슚
슛
슜
슝
슞
슟
슠
슡
슢
슣
스
슥
슦
슧
슨
슩
슪
슫
슬
슭
슮
슯
슰
슱
슲
슳
슴
습
슶
슷
슸
승
슺
슻
슼
슽
슾
슿
싀
싁
싂
싃
싄
싅
싆
싇
싈
싉
싊
싋
싌
싍
싎
싏
싐
싑
싒
싓
싔
싕
싖
싗
싘
싙
싚
싛
시
식
싞
싟
신
싡
싢
싣
실
싥
싦
싧
싨
싩
싪
싫
심
십
싮
싯
싰
싱
싲
싳
싴
싵
싶
싷
싸
싹
싺
싻
싼
싽
싾
싿
쌀
쌁
쌂
쌃
쌄
쌅
쌆
쌇
쌈
쌉
쌊
쌋
쌍
쌎
쌏
쌐
쌑
쌒
쌓
쌔
쌕
쌖
쌗
쌘
쌙
쌚
쌛
쌜
쌝
쌞
쌟
쌠
쌡
쌢
쌣
쌤
쌥
쌦
쌧
쌩
쌪
쌫
쌬
쌭
쌮
쌯
쌰
쌱
쌲
쌳
쌴
쌵
쌶
쌷
쌸
쌹
쌺
쌻
쌼
쌽
쌾
쌿
썀
썁
썂
썃
썄
썅
썆
썇
썈
썉
썊
썋
썌
썍
썎
썏
썐
썑
썒
썓
썔
썕
썖
썗
썘
썙
썚
썛
썜
썝
썞
썟
썠
썡
썢
썣
썤
썥
썦
썧
써
썩
썪
썫
썬
썭
썮
썯
썰
썱
썲
썳
썴
썵
썶
썷
썸
썹
썺
썻
썼
썽
썾
썿
쎀
쎁
쎂
쎃
쎄
쎅
쎆
쎇
쎈
쎉
쎊
쎋
쎌
쎍
쎎
쎏
쎐
쎑
쎒
쎓
쎔
쎕
쎖
쎗
쎙
쎚
쎛
쎜
쎝
쎞
쎟
쎠
쎡
쎢
쎣
쎤
쎥
쎦
쎧
쎨
쎩
쎪
쎫
쎬
쎭
쎮
쎯
쎰
쎱
쎲
쎳
쎴
쎵
쎶
쎷
쎸
쎹
쎺
쎻
쎼
쎽
쎾
쎿
쏀
쏁
쏂
쏃
쏄
쏅
쏆
쏇
쏈
쏉
쏊
쏋
쏌
쏍
쏎
쏏
쏐
쏑
쏒
쏓
쏔
쏕
쏖
쏗
쏘
쏙
쏚
쏛
쏜
쏝
쏞
쏟
쏠
쏡
쏢
쏣
쏤
쏥
쏦
쏧
쏨
쏩
쏪
쏫
쏬
쏭
쏮
쏯
쏰
쏱
쏲
쏳
쏴
쏵
쏶
쏷
쏸
쏹
쏺
쏻
쏼
쏽
쏾
쏿
쐀
쐁
쐂
쐃
쐄
쐅
쐆
쐇
쐉
쐊
쐋
쐌
쐍
쐎
쐏
쐐
쐑
쐒
쐓
쐔
쐕
쐖
쐗
쐘
쐙
쐚
쐛
쐜
쐝
쐞
쐟
쐠
쐡
쐢
쐣
쐤
쐥
쐦
쐧
쐨
쐩
쐪
쐫
쐬
쐭
쐮
쐯
쐱
쐲
쐳
쐵
쐶
쐷
쐸
쐹
쐺
쐻
쐼
쐽
쐾
쐿
쑀
쑁
쑂
쑃
쑄
쑅
쑆
쑇
쑈
쑉
쑊
쑋
쑌
쑍
쑎
쑏
쑐
쑑
쑒
쑓
쑔
쑕
쑖
쑗
쑘
쑙
쑚
쑛
쑜
쑝
쑞
쑟
쑠
쑡
쑢
쑣
쑤
쑥
쑦
쑧
쑨
쑩
쑪
쑫
쑭
쑮
쑯
쑰
쑱
쑲
쑳
쑴
쑵
쑶
쑷
쑸
쑹
쑺
쑻
쑼
쑽
쑾
쑿
쒀
쒁
쒂
쒃
쒄
쒅
쒆
쒇
쒈
쒉
쒊
쒋
쒌
쒍
쒎
쒏
쒐
쒑
쒒
쒓
쒕
쒖
쒗
쒘
쒙
쒚
쒛
쒜
쒝
쒞
쒟
쒠
쒡
쒢
쒣
쒤
쒥
쒦
쒧
쒨
쒩
쒪
쒫
쒬
쒭
쒮
쒯
쒰
쒱
쒲
쒳
쒴
쒵
쒶
쒷
쒸
쒹
쒺
쒻
쒽
쒾
쒿
쓀
쓁
쓂
쓃
쓄
쓅
쓆
쓇
쓈
쓉
쓊
쓋
쓌
쓍
쓎
쓏
쓐
쓑
쓒
쓓
쓔
쓕
쓖
쓗
쓘
쓙
쓚
쓛
쓜
쓝
쓞
쓟
쓠
쓡
쓢
쓣
쓤
쓥
쓦
쓧
쓨
쓩
쓪
쓫
쓬
쓭
쓮
쓯
쓰
쓱
쓲
쓳
쓴
쓵
쓶
쓷
쓸
쓹
쓺
쓻
쓼
쓽
쓾
쓿
씀
씁
씂
씃
씄
씅
씆
씇
씈
씉
씊
씋
씌
씍
씎
씏
씑
씒
씓
씔
씕
씖
씗
씘
씙
씚
씛
씜
씝
씞
씟
씠
씡
씢
씣
씤
씥
씦
씧
씨
씩
씪
씫
씬
씭
씮
씯
씰
씱
씲
씳
씴
씵
씶
씷
씸
씹
씺
씻
씼
씽
씾
씿
앀
앁
앂
앃
아
악
앆
앇
안
앉
않
앋
알
앍
앎
앏
앐
앑
앒
앓
암
압
앖
앗
았
앙
앚
앛
앜
앝
앞
앟
애
액
앢
앣
앤
앥
앦
앧
앨
앩
앪
앫
앬
앭
앮
앯
앰
앱
앲
앳
앴
앵
앶
앷
앸
앹
앺
앻
야
약
앾
앿
얀
얁
얂
얃
얄
얅
얆
얇
얈
얉
얊
얋
얌
얍
얎
얏
얐
양
얒
얓
얔
얕
얖
얗
얘
얙
얚
얛
얜
얝
얞
얟
얡
얢
얣
얤
얥
얦
얧
얨
얩
얪
얫
얬
얭
얮
얯
얰
얱
얲
얳
어
억
얶
얷
언
얹
얺
얻
얼
얽
얾
얿
엀
엁
엂
엃
엄
업
없
엇
었
엉
엊
엋
엌
엍
엎
엏
에
엑
엒
엓
엔
엕
엖
엗
엘
엙
엚
엛
엜
엝
엞
엟
엠
엡
엢
엣
엤
엥
엦
엧
엨
엩
엪
엫
여
역
엮
엯
연
엱
엲
엳
열
엵
엶
엷
엸
엹
엺
엻
염
엽
엾
엿
였
영
옂
옃
옄
옅
옆
옇
예
옉
옊
옋
옌
옍
옎
옏
옐
옑
옒
옓
옔
옕
옖
옗
옘
옙
옚
옛
옜
옝
옞
옟
옠
옡
옢
옣
오
옥
옦
옧
온
옩
옪
옫
올
옭
옮
옯
옰
옱
옲
옳
옴
옵
옶
옷
옸
옹
옺
옻
옼
옽
옾
옿
와
왁
왂
왃
완
왅
왆
왇
왈
왉
왊
왋
왌
왍
왎
왏
왐
왑
왒
왓
왔
왕
왖
왗
왘
왙
왚
왛
왜
왝
왞
왟
왠
왡
왢
왣
왤
왥
왦
왧
왨
왩
왪
왫
왬
왭
왮
왯
왰
왱
왲
왳
왴
왵
왶
왷
외
왹
왺
왻
왼
왽
왾
왿
욀
욁
욂
욃
욄
욅
욆
욇
욈
욉
욊
욋
욌
욍
욎
욏
욐
욑
욒
욓
요
욕
욖
욗
욘
욙
욚
욛
욜
욝
욞
욟
욠
욡
욢
욣
욤
욥
욦
욧
욨
용
욪
욫
욬
욭
욮
욯
우
욱
욲
욳
운
욵
욶
욷
울
욹
욺
욻
욼
욽
욾
욿
움
웁
웂
웃
웄
웅
웆
웇
웈
웉
웊
웋
워
웍
웎
웏
원
웑
웒
웓
월
웕
웖
웗
웘
웙
웚
웛
웜
웝
웞
웟
웠
웡
웢
웣
웤
웥
웦
웧
웨
웩
웪
웫
웬
웭
웮
웯
웰
웱
웲
웳
웴
웵
웶
웷
웸
웹
웺
웻
웼
웽
웾
웿
윀
윁
윂
윃
위
윅
윆
윇
윈
윉
윊
윋
윌
윍
윎
윏
윐
윑
윒
윓
윔
윕
윖
윗
윘
윙
윚
윛
윜
윝
윞
윟
유
육
윢
윣
윤
윥
윦
윧
율
윩
윪
윫
윬
윭
윮
윯
윰
윱
윲
윳
윴
융
윶
윷
윸
윹
윺
윻
으
윽
윾
윿
은
읁
읂
읃
을
읅
읆
읇
읈
읉
읊
읋
음
읍
읎
읏
읐
응
읒
읓
읔
읕
읖
읗
의
읙
읚
읛
읜
읝
읞
읟
읠
읡
읢
읣
읤
읥
읦
읧
읨
읩
읪
읫
읬
읭
읮
읯
읰
읱
읲
읳
이
익
읶
읷
인
읹
읺
읻
일
읽
읾
읿
잀
잁
잂
잃
임
입
잆
잇
있
잉
잊
잋
잌
잍
잎
잏
자
작
잒
잓
잔
잕
잖
잗
잘
잙
잚
잛
잜
잝
잞
잟
잠
잡
잢
잣
장
잦
잧
잨
잩
잪
잫
재
잭
잮
잯
잰
잱
잲
잳
잴
잵
잶
잷
잸
잹
잺
잻
잼
잽
잾
잿
쟁
쟂
쟃
쟄
쟅
쟆
쟇
쟈
쟉
쟊
쟋
쟌
쟍
쟎
쟏
쟐
쟑
쟒
쟓
쟔
쟕
쟖
쟗
쟘
쟙
쟚
쟛
쟜
쟝
쟞
쟟
쟠
쟡
쟢
쟣
쟤
쟥
쟦
쟧
쟩
쟪
쟫
쟬
쟭
쟮
쟯
쟰
쟱
쟲
쟳
쟴
쟵
쟶
쟷
쟸
쟹
쟺
쟻
쟼
쟽
쟾
쟿
저
적
젂
젃
전
젅
젆
젇
절
젉
젊
젋
젌
젍
젎
젏
점
접
젒
젓
젔
정
젖
젗
젘
젙
젚
젛
제
젝
젞
젟
젠
젡
젢
젣
젤
젥
젦
젧
젨
젩
젪
젫
젬
젭
젮
젯
젰
젱
젲
젳
젴
젵
젶
젷
져
젹
젺
젻
젼
젽
젾
젿
졀
졁
졂
졃
졄
졅
졆
졇
졈
졉
졊
졋
졌
졍
졎
졏
졐
졑
졒
졓
졔
졕
졖
졗
졘
졙
졚
졛
졜
졝
졞
졟
졠
졡
졢
졣
졤
졥
졦
졧
졨
졩
졪
졫
졬
졭
졮
졯
조
족
졲
졳
존
졵
졶
졷
졸
졹
졺
졻
졼
졽
졾
졿
좀
좁
좂
좃
좄
종
좆
좇
좈
좉
좊
좋
좌
좍
좎
좏
좐
좑
좒
좓
좔
좕
좖
좗
좘
좙
좚
좛
좜
좝
좞
좟
좠
좡
좢
좣
좤
좥
좦
좧
좨
좩
좪
좫
좬
좭
좮
좯
좰
좱
좲
좳
좴
좵
좶
좷
좸
좹
좺
좻
좼
좽
좾
좿
죀
죁
죂
죃
죄
죅
죆
죇
죈
죉
죊
죋
죌
죍
죎
죏
죐
죑
죒
죓
죔
죕
죖
죗
죙
죚
죛
죜
죝
죞
죟
죠
죡
죢
죣
죤
죥
죦
죧
죨
죩
죪
죫
죬
죭
죮
죯
죰
죱
죲
죳
죴
죵
죶
죷
죸
죹
죺
죻
주
죽
죾
죿
준
줁
줂
줃
줄
줅
줆
줇
줈
줉
줊
줋
줌
줍
줎
줏
줐
중
줒
줓
줔
줕
줖
줗
줘
줙
줚
줛
줜
줝
줞
줟
줠
줡
줢
줣
줤
줥
줦
줧
줨
줩
줪
줫
줬
줭
줮
줯
줰
줱
줲
줳
줴
줵
줶
줷
줸
줹
줺
줻
줼
줽
줾
줿
쥀
쥁
쥂
쥃
쥄
쥅
쥆
쥇
쥈
쥉
쥊
쥋
쥌
쥍
쥎
쥏
쥐
쥑
쥒
쥓
쥔
쥕
쥖
쥗
쥘
쥙
쥚
쥛
쥜
쥝
쥞
쥟
쥠
쥡
쥢
쥣
쥤
쥥
쥦
쥧
쥨
쥩
쥪
쥫
쥬
쥭
쥮
쥯
쥰
쥱
쥲
쥳
쥴
쥵
쥶
쥷
쥸
쥹
쥺
쥻
쥼
쥽
쥾
쥿
즀
즁
즂
즃
즄
즅
즆
즇
즈
즉
즊
즋
즌
즍
즎
즏
즐
즑
즒
즓
즔
즕
즖
즗
즘
즙
즚
즛
즜
증
즞
즟
즠
즡
즢
즣
즤
즥
즦
즧
즨
즩
즪
즫
즬
즭
즮
즯
즰
즱
즲
즳
즴
즵
즶
즷
즸
즹
즺
즻
즼
즽
즾
즿
지
직
짂
짃
진
짅
짆
짇
질
짉
짊
짋
짌
짍
짎
짏
짐
집
짒
짓
짔
징
짖
짗
짘
짙
짚
짛
짜
짝
짞
짟
짠
짡
짢
짣
짤
짥
짦
짧
짨
짩
짪
짫
짬
짭
짮
짯
짱
짲
짳
짴
짵
짶
짷
째
짹
짺
짻
짼
짽
짾
짿
쨀
쨁
쨂
쨃
쨄
쨅
쨆
쨇
쨈
쨉
쨊
쨋
쨌
쨍
쨎
쨏
쨐
쨑
쨒
쨓
쨔
쨕
쨖
쨗
쨘
쨙
쨚
쨛
쨜
쨝
쨞
쨟
쨠
쨡
쨢
쨣
쨤
쨥
쨦
쨧
쨨
쨩
쨪
쨫
쨬
쨭
쨮
쨯
쨰
쨱
쨲
쨳
쨴
쨵
쨶
쨷
쨸
쨹
쨺
쨻
쨼
쨽
쨾
쨿
쩀
쩁
쩂
쩃
쩄
쩅
쩆
쩇
쩈
쩉
쩊
쩋
쩌
쩍
쩎
쩏
쩐
쩑
쩒
쩓
쩔
쩕
쩖
쩗
쩘
쩙
쩚
쩛
쩜
쩝
쩞
쩟
쩠
쩡
쩢
쩣
쩤
쩥
쩦
쩧
쩨
쩩
쩪
쩫
쩬
쩭
쩮
쩯
쩰
쩱
쩲
쩳
쩴
쩵
쩶
쩷
쩸
쩹
쩺
쩻
쩼
쩽
쩾
쩿
쪀
쪁
쪂
쪃
쪄
쪅
쪆
쪇
쪈
쪉
쪊
쪋
쪌
쪍
쪎
쪏
쪐
쪑
쪒
쪓
쪔
쪕
쪖
쪗
쪘
쪙
쪚
쪛
쪜
쪝
쪞
쪟
쪠
쪡
쪢
쪣
쪤
쪥
쪦
쪧
쪨
쪩
쪪
쪫
쪬
쪭
쪮
쪯
쪰
쪱
쪲
쪳
쪴
쪵
쪶
쪷
쪸
쪹
쪺
쪻
쪼
쪽
쪾
쪿
쫀
쫁
쫂
쫃
쫄
쫅
쫆
쫇
쫈
쫉
쫊
쫋
쫌
쫍
쫎
쫏
쫐
쫑
쫒
쫓
쫔
쫕
쫖
쫗
쫘
쫙
쫚
쫛
쫜
쫝
쫞
쫟
쫠
쫡
쫢
쫣
쫤
쫥
쫦
쫧
쫨
쫩
쫪
쫫
쫭
쫮
쫯
쫰
쫱
쫲
쫳
쫴
쫵
쫶
쫷
쫸
쫹
쫺
쫻
쫼
쫽
쫾
쫿
쬀
쬁
쬂
쬃
쬄
쬅
쬆
쬇
쬈
쬉
쬊
쬋
쬌
쬍
쬎
쬏
쬐
쬑
쬒
쬓
쬔
쬕
쬖
쬗
쬙
쬚
쬛
쬜
쬝
쬞
쬟
쬡
쬢
쬣
쬤
쬥
쬦
쬧
쬨
쬩
쬪
쬫
쬬
쬭
쬮
쬯
쬰
쬱
쬲
쬳
쬴
쬵
쬶
쬷
쬸
쬹
쬺
쬻
쬼
쬽
쬾
쬿
쭀
쭁
쭂
쭃
쭄
쭅
쭆
쭇
쭈
쭉
쭊
쭋
쭌
쭍
쭎
쭏
쭐
쭑
쭒
쭓
쭔
쭕
쭖
쭗
쭘
쭙
쭚
쭛
쭜
쭝
쭞
쭟
쭠
쭡
쭢
쭣
쭤
쭥
쭦
쭧
쭨
쭩
쭪
쭫
쭬
쭭
쭮
쭯
쭰
쭱
쭲
쭳
쭴
쭵
쭶
쭷
쭸
쭹
쭺
쭻
쭼
쭽
쭾
쭿
쮀
쮁
쮂
쮃
쮄
쮅
쮆
쮇
쮈
쮉
쮊
쮋
쮌
쮍
쮎
쮏
쮐
쮑
쮒
쮓
쮔
쮕
쮖
쮗
쮘
쮙
쮚
쮛
쮜
쮝
쮞
쮟
쮠
쮡
쮢
쮣
쮤
쮥
쮦
쮧
쮨
쮩
쮪
쮫
쮬
쮭
쮮
쮯
쮰
쮱
쮲
쮳
쮴
쮵
쮶
쮷
쮸
쮹
쮺
쮻
쮼
쮽
쮾
쮿
쯀
쯁
쯂
쯃
쯄
쯅
쯆
쯇
쯈
쯉
쯊
쯋
쯌
쯍
쯎
쯏
쯐
쯑
쯒
쯓
쯔
쯕
쯖
쯗
쯘
쯙
쯚
쯛
쯜
쯝
쯞
쯟
쯠
쯡
쯢
쯣
쯤
쯥
쯦
쯧
쯨
쯩
쯪
쯫
쯬
쯭
쯮
쯯
쯰
쯱
쯲
쯳
쯴
쯵
쯶
쯷
쯸
쯹
쯺
쯻
쯼
쯽
쯾
쯿
찀
찁
찂
찃
찄
찅
찆
찇
찈
찉
찊
찋
찌
찍
찎
찏
찐
찑
찒
찓
찔
찕
찖
찗
찘
찙
찚
찛
찜
찝
찞
찟
찠
찡
찢
찣
찤
찥
찦
찧
차
착
찪
찫
찬
찭
찮
찯
찰
찱
찲
찳
찴
찵
찶
찷
참
찹
찺
찻
창
찾
찿
챀
챁
챂
챃
채
책
챆
챇
챈
챉
챊
챋
챌
챍
챎
챏
챐
챑
챒
챓
챔
챕
챖
챗
챘
챙
챚
챛
챜
챝
챞
챟
챠
챡
챢
챣
챤
챥
챦
챧
챨
챩
챪
챫
챬
챭
챮
챯
챰
챱
챲
챳
챴
챵
챶
챷
챸
챹
챺
챻
챼
챽
챾
챿
첀
첁
첂
첃
첄
첅
첆
첇
첈
첉
첊
첋
첌
첍
첎
첏
첐
첑
첒
첓
첔
첕
첖
첗
처
척
첚
첛
천
첝
첞
첟
철
첡
첢
첣
첤
첥
첦
첧
첨
첩
첪
첫
첬
청
첮
첯
첰
첱
첲
첳
체
첵
첶
첷
첸
첹
첺
첻
첼
첽
첾
첿
쳀
쳁
쳂
쳃
쳄
쳅
쳆
쳇
쳈
쳉
쳊
쳋
쳌
쳍
쳎
쳏
쳐
쳑
쳒
쳓
쳔
쳕
쳖
쳗
쳘
쳙
쳚
쳛
쳜
쳝
쳞
쳟
쳠
쳡
쳢
쳣
쳤
쳥
쳦
쳧
쳨
쳩
쳪
쳫
쳬
쳭
쳮
쳯
쳰
쳱
쳲
쳳
쳴
쳵
쳶
쳷
쳸
쳹
쳺
쳻
쳼
쳽
쳾
쳿
촀
촁
촂
촃
촄
촅
촆
촇
초
촉
촊
촋
촌
촍
촎
촏
촐
촑
촒
촓
촔
촕
촖
촗
촘
촙
촚
촛
촜
총
촞
촟
촠
촡
촢
촣
촤
촥
촦
촧
촨
촩
촪
촫
촬
촭
촮
촯
촰
촱
촲
촳
촴
촵
촶
촷
촸
촹
촺
촻
촼
촽
촾
촿
쵀
쵁
쵂
쵃
쵄
쵅
쵆
쵇
쵈
쵉
쵊
쵋
쵌
쵍
쵎
쵏
쵐
쵑
쵒
쵓
쵔
쵕
쵖
쵗
쵘
쵙
쵚
쵛
최
쵝
쵞
쵟
쵠
쵡
쵢
쵣
쵤
쵥
쵦
쵧
쵨
쵩
쵪
쵫
쵬
쵭
쵮
쵯
쵰
쵱
쵲
쵳
쵴
쵵
쵶
쵷
쵸
쵹
쵺
쵻
쵼
쵽
쵾
쵿
춀
춁
춂
춃
춄
춅
춆
춇
춈
춉
춊
춋
춌
춍
춎
춏
춐
춑
춒
춓
추
축
춖
춗
춘
춙
춚
춛
출
춝
춞
춟
춠
춡
춢
춣
춤
춥
춦
춧
춨
충
춪
춫
춬
춭
춮
춯
춰
춱
춲
춳
춴
춵
춶
춷
춸
춹
춺
춻
춼
춽
춾
춿
췀
췁
췂
췃
췄
췅
췆
췇
췈
췉
췊
췋
췌
췍
췎
췏
췐
췑
췒
췓
췔
췕
췖
췗
췘
췙
췚
췛
췜
췝
췞
췟
췠
췡
췢
췣
췤
췥
췦
췧
취
췩
췪
췫
췬
췭
췮
췯
췰
췱
췲
췳
췴
췵
췶
췷
췸
췹
췺
췻
췼
췽
췾
췿
츀
츁
츂
츃
츄
츅
츆
츇
츈
츉
츊
츋
츌
츍
츎
츏
츐
츑
츒
츓
츔
츕
츖
츗
츘
츙
츚
츛
츜
츝
츞
츟
츠
측
츢
츣
츤
츥
츦
츧
츨
츩
츪
츫
츬
츭
츮
츯
츰
츱
츲
츳
츴
층
츶
츷
츸
츹
츺
츻
츼
츽
츾
츿
칀
칁
칂
칃
칄
칅
칆
칇
칈
칉
칊
칋
칌
칍
칎
칏
칐
칑
칒
칓
칔
칕
칖
칗
치
칙
칚
칛
친
칝
칞
칟
칠
칡
칢
칣
칤
칥
칦
칧
침
칩
칪
칫
칬
칭
칮
칯
칰
칱
칲
칳
카
칵
칶
칷
칸
칹
칺
칻
칼
칽
칾
칿
캀
캁
캂
캃
캄
캅
캆
캇
캈
캉
캊
캋
캌
캍
캎
캏
캐
캑
캒
캓
캔
캕
캖
캗
캘
캙
캚
캛
캜
캝
캞
캟
캠
캡
캢
캣
캤
캥
캦
캧
캨
캩
캪
캫
캬
캭
캮
캯
캰
캱
캲
캳
캴
캵
캶
캷
캸
캹
캺
캻
캼
캽
캾
캿
컀
컁
컂
컃
컄
컅
컆
컇
컈
컉
컊
컋
컌
컍
컎
컏
컐
컑
컒
컓
컔
컕
컖
컗
컘
컙
컚
컛
컜
컝
컞
컟
컠
컡
컢
컣
커
컥
컦
컧
컨
컩
컪
컫
컬
컭
컮
컯
컰
컱
컲
컳
컴
컵
컶
컷
컹
컺
컻
컼
컽
컾
컿
케
켁
켂
켃
켄
켅
켆
켇
켈
켉
켊
켋
켌
켍
켎
켏
켐
켑
켒
켓
켔
켕
켖
켗
켘
켙
켚
켛
켜
켝
켞
켟
켠
켡
켢
켣
켤
켥
켦
켧
켨
켩
켪
켫
켬
켭
켮
켯
켰
켱
켲
켳
켴
켵
켶
켷
켸
켹
켺
켻
켼
켽
켾
켿
콀
콁
콂
콃
콄
콅
콆
콇
콈
콉
콊
콋
콌
콍
콎
콏
콐
콑
콒
콓
코
콕
콖
콗
콘
콙
콚
콛
콜
콝
콞
콟
콠
콡
콢
콣
콤
콥
콦
콧
콨
콩
콪
콫
콬
콭
콮
콯
콰
콱
콲
콳
콴
콵
콶
콷
콸
콹
콺
콻
콼
콽
콾
콿
쾀
쾁
쾂
쾃
쾄
쾅
쾆
쾇
쾈
쾉
쾊
쾋
쾌
쾍
쾎
쾏
쾐
쾑
쾒
쾓
쾔
쾕
쾖
쾗
쾘
쾙
쾚
쾛
쾜
쾝
쾞
쾟
쾠
쾡
쾢
쾣
쾤
쾥
쾦
쾧
쾨
쾩
쾪
쾫
쾬
쾭
쾮
쾯
쾰
쾱
쾲
쾳
쾴
쾵
쾶
쾷
쾸
쾹
쾺
쾻
쾼
쾽
쾾
쾿
쿀
쿁
쿂
쿃
쿄
쿅
쿆
쿇
쿈
쿉
쿊
쿋
쿌
쿍
쿎
쿏
쿐
쿑
쿒
쿓
쿔
쿕
쿖
쿗
쿘
쿙
쿚
쿛
쿜
쿝
쿞
쿟
쿠
쿡
쿢
쿣
쿤
쿥
쿦
쿧
쿨
쿩
쿪
쿫
쿬
쿭
쿮
쿯
쿰
쿱
쿲
쿳
쿴
쿵
쿶
쿷
쿸
쿹
쿺
쿻
쿼
쿽
쿾
쿿
퀀
퀁
퀂
퀃
퀄
퀅
퀆
퀇
퀈
퀉
퀊
퀋
퀌
퀍
퀎
퀏
퀐
퀑
퀒
퀓
퀔
퀕
퀖
퀗
퀘
퀙
퀚
퀛
퀜
퀝
퀞
퀟
퀠
퀡
퀢
퀣
퀤
퀥
퀦
퀧
퀨
퀩
퀪
퀫
퀬
퀭
퀮
퀯
퀰
퀱
퀲
퀳
퀴
퀵
퀶
퀷
퀸
퀹
퀺
퀻
퀼
퀽
퀾
퀿
큀
큁
큂
큃
큄
큅
큆
큇
큈
큉
큊
큋
큌
큍
큎
큏
큐
큑
큒
큓
큔
큕
큖
큗
큘
큙
큚
큛
큜
큝
큞
큟
큠
큡
큢
큣
큤
큥
큦
큧
큨
큩
큪
큫
크
큭
큮
큯
큰
큱
큲
큳
클
큵
큶
큷
큸
큹
큺
큻
큼
큽
큾
큿
킀
킁
킂
킃
킄
킅
킆
킇
킈
킉
킊
킋
킌
킍
킎
킏
킐
킑
킒
킓
킔
킕
킖
킗
킘
킙
킚
킛
킜
킝
킞
킟
킠
킡
킢
킣
키
킥
킦
킧
킨
킩
킪
킫
킬
킭
킮
킯
킰
킱
킲
킳
킴
킵
킶
킷
킸
킹
킺
킻
킼
킽
킾
킿
타
탁
탂
탃
탄
탅
탆
탇
탈
탉
탊
탋
탌
탍
탎
탏
탐
탑
탒
탓
탔
탕
탖
탗
탘
탙
탚
탛
태
택
탞
탟
탠
탡
탢
탣
탤
탥
탦
탧
탨
탩
탪
탫
탬
탭
탮
탯
탰
탱
탲
탳
탴
탵
탶
탷
탸
탹
탺
탻
탼
탽
탾
탿
턀
턁
턂
턃
턄
턅
턆
턇
턈
턉
턊
턋
턌
턍
턎
턏
턐
턑
턒
턓
턔
턕
턖
턗
턘
턙
턚
턛
턜
턝
턞
턟
턠
턡
턢
턣
턤
턥
턦
턧
턨
턩
턪
턫
턬
턭
턮
턯
터
턱
턲
턳
턴
턵
턶
턷
털
턹
턺
턻
턼
턽
턾
턿
텀
텁
텂
텃
텅
텆
텇
텈
텉
텊
텋
테
텍
텎
텏
텐
텑
텒
텓
텔
텕
텖
텗
텘
텙
텚
텛
템
텝
텞
텟
텠
텡
텢
텣
텤
텥
텦
텧
텨
텩
텪
텫
텬
텭
텮
텯
텰
텱
텲
텳
텴
텵
텶
텷
텸
텹
텺
텻
텼
텽
텾
텿
톀
톁
톂
톃
톄
톅
톆
톇
톈
톉
톊
톋
톌
톍
톎
톏
톐
톑
톒
톓
톔
톕
톖
톗
톘
톙
톚
톛
톜
톝
톞
톟
토
톡
톢
톣
톤
톥
톦
톧
톨
톩
톪
톫
톬
톭
톮
톯
톰
톱
톲
톳
톴
통
톶
톷
톸
톹
톺
톻
톼
톽
톾
톿
퇀
퇁
퇂
퇃
퇄
퇅
퇆
퇇
퇈
퇉
퇊
퇋
퇌
퇍
퇎
퇏
퇐
퇑
퇒
퇓
퇔
퇕
퇖
퇗
퇘
퇙
퇚
퇛
퇜
퇝
퇞
퇟
퇠
퇡
퇢
퇣
퇤
퇥
퇦
퇧
퇨
퇩
퇪
퇫
퇬
퇭
퇮
퇯
퇰
퇱
퇲
퇳
퇴
퇵
퇶
퇷
퇸
퇹
퇺
퇻
퇼
퇽
퇾
퇿
툀
툁
툂
툃
툄
툅
툆
툇
툈
툉
툊
툋
툌
툍
툎
툏
툐
툑
툒
툓
툔
툕
툖
툗
툘
툙
툚
툛
툜
툝
툞
툟
툠
툡
툢
툣
툤
툥
툦
툧
툨
툩
툪
툫
투
툭
툮
툯
툰
툱
툲
툳
툴
툵
툶
툷
툸
툹
툺
툻
툼
툽
툾
툿
퉀
퉁
퉂
퉃
퉄
퉅
퉆
퉇
퉈
퉉
퉊
퉋
퉌
퉍
퉎
퉏
퉐
퉑
퉒
퉓
퉔
퉕
퉖
퉗
퉘
퉙
퉚
퉛
퉜
퉝
퉞
퉟
퉠
퉡
퉢
퉣
퉤
퉥
퉦
퉧
퉨
퉩
퉪
퉫
퉬
퉭
퉮
퉯
퉰
퉱
퉲
퉳
퉴
퉵
퉶
퉷
퉸
퉹
퉺
퉻
퉼
퉽
퉾
퉿
튀
튁
튂
튃
튄
튅
튆
튇
튈
튉
튊
튋
튌
튍
튎
튏
튐
튑
튒
튓
튔
튕
튖
튗
튘
튙
튚
튛
튜
튝
튞
튟
튠
튡
튢
튣
튤
튥
튦
튧
튨
튩
튪
튫
튬
튭
튮
튯
튰
튱
튲
튳
튴
튵
튶
튷
트
특
튺
튻
튼
튽
튾
튿
틀
틁
틂
틃
틄
틅
틆
틇
틈
틉
틊
틋
틌
틍
틎
틏
틐
틑
틒
틓
틔
틕
틖
틗
틘
틙
틚
틛
틜
틝
틞
틟
틠
틡
틢
틣
틤
틥
틦
틧
틨
틩
틪
틫
틬
틭
틮
틯
티
틱
틲
틳
틴
틵
틶
틷
틸
틹
틺
틻
틼
틽
틾
틿
팀
팁
팂
팃
팄
팅
팆
팇
팈
팉
팊
팋
파
팍
팎
팏
판
팑
팒
팓
팔
팕
팖
팗
팘
팙
팚
팛
팜
팝
팞
팟
팠
팡
팢
팣
팤
팥
팦
팧
패
팩
팪
팫
팬
팭
팮
팯
팰
팱
팲
팳
팴
팵
팶
팷
팸
팹
팺
팻
팽
팾
팿
퍀
퍁
퍂
퍃
퍄
퍅
퍆
퍇
퍈
퍉
퍊
퍋
퍌
퍍
퍎
퍏
퍐
퍑
퍒
퍓
퍔
퍕
퍖
퍗
퍘
퍙
퍚
퍛
퍜
퍝
퍞
퍟
퍠
퍡
퍢
퍣
퍤
퍥
퍦
퍧
퍨
퍩
퍪
퍫
퍬
퍭
퍮
퍯
퍰
퍱
퍲
퍳
퍴
퍵
퍶
퍷
퍸
퍹
퍺
퍻
퍼
퍽
퍾
퍿
펀
펁
펂
펃
펄
펅
펆
펇
펈
펉
펊
펋
펌
펍
펎
펏
펐
펑
펒
펓
펔
펕
펖
펗
페
펙
펚
펛
펜
펝
펞
펟
펠
펡
펢
펣
펤
펥
펦
펧
펨
펩
펪
펫
펬
펭
펮
펯
펰
펱
펲
펳
펴
펵
펶
펷
편
펹
펺
펻
펼
펽
펾
펿
폀
폁
폂
폃
폄
폅
폆
폇
평
폊
폋
폌
폍
폎
폏
폐
폑
폒
폓
폔
폕
폖
폗
폘
폙
폚
폛
폜
폝
폞
폟
폠
폡
폢
폣
폤
폥
폦
폧
폨
폩
폪
폫
포
폭
폮
폯
폰
폱
폲
폳
폴
폵
폶
폷
폸
폹
폺
폻
폼
폽
폾
폿
퐀
퐁
퐂
퐃
퐄
퐅
퐆
퐇
퐈
퐉
퐊
퐋
퐌
퐍
퐎
퐏
퐐
퐑
퐒
퐓
퐔
퐕
퐖
퐗
퐘
퐙
퐚
퐛
퐜
퐝
퐞
퐟
퐠
퐡
퐢
퐣
퐤
퐥
퐦
퐧
퐨
퐩
퐪
퐫
퐬
퐭
퐮
퐯
퐰
퐱
퐲
퐳
퐴
퐵
퐶
퐷
퐸
퐹
퐺
퐻
퐼
퐽
퐾
퐿
푀
푁
푂
푃
푄
푅
푆
푇
푈
푉
푊
푋
푌
푍
푎
푏
푐
푑
푒
푓
푔
푕
푖
푗
푘
푙
푚
푛
표
푝
푞
푟
푠
푡
푢
푣
푤
푥
푦
푧
푨
푩
푪
푫
푬
푭
푮
푯
푰
푱
푲
푳
푴
푵
푶
푷
푸
푹
푺
푻
푼
푽
푾
푿
풀
풁
풂
풃
풄
풅
풆
풇
품
풉
풊
풋
풌
풍
풎
풏
풐
풑
풒
풓
풔
풕
풖
풗
풘
풙
풚
풛
풜
풝
풞
풟
풠
풡
풢
풣
풤
풥
풦
풧
풨
풩
풪
풫
풬
풭
풮
풯
풰
풱
풲
풳
풴
풵
풶
풷
풸
풹
풺
풻
풼
풽
풾
풿
퓀
퓁
퓂
퓃
퓄
퓅
퓆
퓇
퓈
퓉
퓊
퓋
퓌
퓍
퓎
퓏
퓐
퓑
퓒
퓓
퓔
퓕
퓖
퓗
퓘
퓙
퓚
퓛
퓜
퓝
퓞
퓟
퓠
퓡
퓢
퓣
퓤
퓥
퓦
퓧
퓨
퓩
퓪
퓫
퓬
퓭
퓮
퓯
퓰
퓱
퓲
퓳
퓴
퓵
퓶
퓷
퓸
퓹
퓺
퓻
퓼
퓽
퓾
퓿
픀
픁
픂
픃
프
픅
픆
픇
픈
픉
픊
픋
플
픍
픎
픏
픐
픑
픒
픓
픔
픕
픖
픗
픘
픙
픚
픛
픜
픝
픞
픟
픠
픡
픢
픣
픤
픥
픦
픧
픨
픩
픪
픫
픬
픭
픮
픯
픰
픱
픲
픳
픴
픵
픶
픷
픸
픹
픺
픻
피
픽
픾
픿
핀
핁
핂
핃
필
핅
핆
핇
핈
핉
핊
핋
핌
핍
핎
핏
핐
핑
핒
핓
핔
핕
핖
핗
하
학
핚
핛
한
핝
핞
핟
할
핡
핢
핣
핤
핥
핦
핧
함
합
핪
핫
핬
항
핮
핯
핰
핱
핲
핳
해
핵
핶
핷
핸
핹
핺
핻
핼
핽
핾
핿
햀
햁
햂
햃
햄
햅
햆
햇
했
행
햊
햋
햌
햍
햎
햏
햐
햑
햒
햓
햔
햕
햖
햗
햘
햙
햚
햛
햜
햝
햞
햟
햠
햡
햢
햣
햤
향
햦
햧
햨
햩
햪
햫
햬
햭
햮
햯
햰
햱
햲
햳
햴
햵
햶
햷
햸
햹
햺
햻
햼
햽
햾
햿
헁
헂
헃
헄
헅
헆
헇
허
헉
헊
헋
헌
헍
헎
헏
헐
헑
헒
헓
헔
헕
헖
헗
험
헙
헚
헛
헝
헞
헟
헠
헡
헢
헣
헤
헥
헦
헧
헨
헩
헪
헫
헬
헭
헮
헯
헰
헱
헲
헳
헴
헵
헶
헷
헹
헺
헻
헼
헽
헾
헿
혀
혁
혂
혃
현
혅
혆
혇
혈
혉
혊
혋
혌
혍
혎
혏
혐
협
혒
혓
혔
형
혖
혗
혘
혙
혚
혛
혜
혝
혞
혟
혠
혡
혢
혣
혤
혥
혦
혧
혨
혩
혪
혫
혬
혭
혮
혯
혰
혱
혲
혳
혴
혵
혶
혷
호
혹
혺
혻
혼
혽
혾
혿
홀
홁
홂
홃
홄
홅
홆
홇
홈
홉
홊
홋
홌
홍
홎
홏
홐
홑
홒
홓
화
확
홖
홗
환
홙
홚
홛
활
홝
홞
홟
홠
홡
홢
홣
홤
홥
홦
홧
홨
황
홪
홫
홬
홭
홮
홯
홰
홱
홲
홳
홴
홵
홶
홷
홸
홹
홺
홻
홼
홽
홾
홿
횀
횁
횂
횃
횄
횅
횆
횇
횈
횉
횊
횋
회
획
횎
횏
횐
횑
횒
횓
횔
횕
횖
횗
횘
횙
횚
횛
횜
횝
횞
횟
횠
횡
횢
횣
횤
횥
횦
횧
효
횩
횪
횫
횬
횭
횮
횯
횰
횱
횲
횳
횴
횵
횶
횷
횸
횹
횺
횻
횼
횽
횾
횿
훀
훁
훂
훃
후
훅
훆
훇
훈
훉
훊
훋
훌
훍
훎
훏
훐
훑
훒
훓
훔
훕
훖
훗
훘
훙
훚
훛
훜
훝
훞
훟
훠
훡
훢
훣
훤
훥
훦
훧
훨
훩
훪
훫
훬
훭
훮
훯
훰
훱
훲
훳
훴
훵
훶
훷
훸
훹
훺
훻
훼
훽
훾
훿
휀
휁
휂
휃
휄
휅
휆
휇
휈
휉
휊
휋
휌
휍
휎
휏
휐
휑
휒
휓
휔
휕
휖
휗
휘
휙
휚
휛
휜
휝
휞
휟
휠
휡
휢
휣
휤
휥
휦
휧
휨
휩
휪
휫
휬
휭
휮
휯
휰
휱
휲
휳
휴
휵
휶
휷
휸
휹
휺
휻
휼
휽
휾
휿
흀
흁
흂
흃
흄
흅
흆
흇
흈
흉
흊
흋
흌
흍
흎
흏
흐
흑
흒
흓
흔
흕
흖
흗
흘
흙
흚
흛
흜
흝
흞
흟
흠
흡
흢
흣
흤
흥
흦
흧
흨
흩
흪
흫
희
흭
흮
흯
흰
흱
흲
흳
흵
흶
흷
흸
흹
흺
흻
흼
흽
흾
흿
힀
힁
힂
힃
힄
힅
힆
힇
히
힉
힊
힋
힌
힍
힎
힏
힐
힑
힒
힓
힔
힕
힖
힗
힘
힙
힚
힛
힜
힝
힞
힟
힠
힡
힢
힣
##호
##코
##g
##e
##r
##a
##c
##h
##l
##o
##u
##n
##i
##s
##t
##브
##y
##p
##f
##k
##정
##히
##욤
##앙
##리
##뒤
##푸
##르
##A
##훈
##미
##야
##d
##흠
##3
##6
##1
##7
##ㄱ
##ㄹ
##ㅇ
##은
##m
##v
##U
##M
##V
##F
##H
##S
##W
##K
##C
##터
##비
##갤
##러
##스
##가
##w
##2
##9
##뽄
##이
##라
##고
##4
##8
##0
##는
##췌
##D
##x
##q
##키
##쟁
##,
##.
##E
##J
##O
##커
##b
##당
##권
##자
##ㅔ
##ㅂ
##빗
##체
##사
##드
##도
##X
##P
##T
##I
##연
##석
##마
##우
##치
##로
##시
##5
##효
##상
##언
##=
##[
##"
##성
##태
##량
##L
##웸
##웨
##아
##타
##궁
##>
##오
##승
##인
##일
##주
##의
##기
##신
##환
##크
##ㅡ
##휴
##렐
##낭
##장
##멘
##트
##다
##니
##까
##R
##N
##현
##저
##어
##무
##요
##노
##한
##용
##티
##굉
##수
##종
##동
##ㅚ
##ㅍ
##학
##j
##각
##범
##진
##ㅅ
##과
##렌
##간
##B
##교
##Q
##짓
##물
##향
##원
##디
##베
##더
##화
##역
##토
##프
##Y
##그
##부
##근
##z
##구
##강
##딱
##병
##천
##소
##레
##열
##슬
##전
##안
##제
##란
##표
##몬
##칠
##'
##]
##머
##놋
##규
##지
##옥
##혜
##벌
##G
##글
##ㅋ
##을
##묘
##박
##월
##보
##조
##염
##삼
##바
##섬
##퐁
##멀
##등
##츠
##송
##력
##영
##에
##울
##육
##버
##양
##회
##색
##카
##방
##료
##따
##개
##릭
##든
##충
##약
##씨
##식
##Z
##필
##ㅜ
##돌
##랜
##냐
##민
##네
##후
##막
##금
##순
##독
##최
##준
##두
##누
##래
##데
##촬
##루
##하
##킨
##차
##퇴
##덕
##재
##모
##나
##쏘
##ㅘ
##서
##싱
##탐
##봉
##판
##넷
##벨
##랭
##늬
##세
##경
##형
##대
##랑
##-
##숙
##ㅊ
##론
##븐
##메
##컬
##운
##룩
##산
##흥
##?
##!
##꼬
##임
##앗
##)
##려
##뜨
##콜
##처
##즈
##입
##발
##펙
##뭉
##접
##|
##점
##결
##명
##선
##곡
##패
##짱
##본
##법
##심
##십
##억
##친
##렘
##쿠
##홀
##편
##를
##공
##속
##링
##@
##피
##케
##털
##단
##럼
##곤
##몰
##셰
##험
##할
##면
##말
##파
##풀
##림
##만
##것
##붕
##~
##$
##극
##득
##/
##흔
##팡
##와
##살
##움
##직
##촌
##례
##철
##취
##들
##ㅁ
##능
##희
##생
##써
##플
##워
##광
##ㅒ
##ㅆ
##춘
##매
##ㄷ
##깥
##ㅎ
##찰
##왕
##뷰
##해
##설
##위
##+
##^
##창
##닥
##읍
##항
##테
##통
##게
##출
##뚫
##훑
##작
##엉
##퍼
##틴
##탄
##포
##볼
##롱
##뽀
##룡
##목
##찬
##빱
##행
##꿍
##멍
##중
##춰
##쓰
##복
##음
##롭
##헨
##캐
##쉬
##낀
##격
##뱀
##붙
##밀
##밋
##른
##렬
##밟
##암
##집
##절
##ㄾ
##논
##총
##합
##으
##첸
##먼
##귀
##텐
##건
##끼
##봐
##애
##훼
##슈
##문
##응
##닷
##새
##갬
##엎
##팜
##뉴
##택
##실
##배
##거
##익
##균
##콩
##군
##날
##릴
##던
##남
##촉
##널
##엘
##번
##룸
##반
##짐
##달
##얼
##뚠
##텃
##엡
##눈
##족
##ㅖ
##존
##랫
##렉
##린
##평
##ㅀ
##짝
##폭
##ㅈ
##ㄴ
##옹
##갔
##웅
##뢰
##벵
##:
##흐
##밍
##섹
##쪄
##있
##며
##홍
##백
##씩
##뜸
##잔
##질
##쇼
##길
##국
##혈
##계
##클
##큐
##페
##런
##헐
##틸
##돈
##욱
##굿
##쯔
##넨
##헬
##유
##ㅞ
##별
##튄
##딧
##뼈
##룰
##관
##불
##놀
##책
##황
##윤
##빈
###
##%
##윌
##슨
##혼
##룹
##습
##풍
##예
##여
##멸
##추
##휘
##올
##벤
##투
##빵
##걸
##콘
##완
##ㅌ
##록
##뮌
##}
##낙
##축
##감
##령
##류
##멜
##ㅙ
##적
##업
##ㄳ
##츨
##ㄻ
##되
##었
##왈
##맥
##잠
##댜
##헤
##맨
##손
##협
##잘
##챤
##객
##숱
##폴
##컨
##닉
##탁
##힘
##켈
##팔
##변
##픽
##겼
##꾼
##늘
##외
##청
##람
##련
##락
##빌
##쩌
##ㅗ
##젠
##껄
##넬
##욕
##&
##*
##헌
##ㅣ
##검
##럽
##탕
##퉁
##;
##옷
##흘
##뜰
##념
##릿
##럴
##즌
##징
##엔
##탱
##죠
##함
##ㅓ
##삭
##삶
##졸
##년
##센
##층
##둥
##굴
##초
##탈
##눔
##션
##펜
##덴
##랙
##술
##켄
##듈
##였
##쪼
##핏
##줄
##벡
##펠
##텍
##떼
##튱
##힐
##립
##ㅏ
##ㄺ
##쩍
##닐
##펑
##폐
##증
##ㅟ
##ㄽ
##채
##름
##떡
##궐
##웃
##셔
##북
##턴
##릇
##벽
##망
##펌
##캣
##붓
##쑹
##갱
##엇
##핀
##툰
##ㅑ
##핰
##띄
##없
##온
##ㅠ
##궈
##핵
##곬
##뾱
##ㄼ
##액
##퓌
##샤
##젤
##갓
##알
##(
##뚜
##_
##램
##블
##갯
##ㅐ
##빨
##벅
##딘
##겐
##쳌
##혁
##텡
##롬
##분
##먹
##싸
##악
##ㅢ
##섭
##너
##팅
##빠
##둘
##델
##뿔
##죄
##품
##담
##잇
##덱
##끄
##켚
##답
##볕
##걀
##쉐
##ㅕ
##쪽
##첬
##밥
##맛
##렁
##곈
##님
##톤
##깐
##겔
##솔
##찌
##잎
##댕
##빙
##닛
##헉
##떄
##핳
##썸
##콧
##튜
##좌
##칼
##륨
##띠
##큼
##느
##틀
##묵
##긴
##엽
##흡
##밭
##뮴
##롄
##팬
##참
##측
##골
##융
##김
##쇄
##렇
##덜
##댈
##탑
##톨
##묻
##칭
##슘
##\
##맹
##랩
##급
##쭉
##싹
##푈
##쏠
##닝
##튼
##콤
##<
##혹
##셀
##끊
##곱
##슴
##몸
##침
##뱅
##척
##난
##괴
##숫
##럭
##혀
##졌
##엄
##팀
##즐
##햘
##윙
##엑
##셜
##춤
##눌
##압
##곶
##놈
##허
##딕
##내
##쌈
##옵
##쥐
##맞
##쥔
##착
##`
##겨
##찔
##꽃
##귤
##룽
##짤
##즘
##ㄵ
##쑥
##댄
##옌
##납
##끝
##때
##뇨
##칸
##ㄿ
##꿏
##첼
##욘
##퀘
##므
##헠
##흑
##견
##앤
##톰
##깁
##얏
##룬
##츤
##킹
##폰
##걱
##킬
##숲
##갑
##녀
##팥
##엠
##ㅄ
##ㄸ
##랍
##{
##첵
##깍
##핑
##랄
##껏
##튬
##흙
##곰
##릉
##꽈
##뎅
##튀
##쳐
##홉
##륜
##갛
##뷫
##큘
##녕
##쾌
##벙
##샨
##템
##쇠
##깅
##텔
##콰
##켓
##ㅝ
##잡
##픗
##닌
##넥
##갈
##몌
##톡
##딩
##윈
##쳅
##뾰
##꾸
##확
##뚱
##늉
##텟
##빽
##뭇
##첩
##셈
##찐
##힌
##뻉
##뇌
##뻗
##딜
##ㅛ
##녹
##탸
##뮈
##농
##률
##빅
##숭
##훙
##밤
##탠
##렛
##ㄶ
##쓸
##렴
##냅
##둔
##샌
##캄
##또
##죽
##쌍
##얀
##겸
##젬
##랴
##활
##솥
##킁
##픈
##같
##뿅
##뻬
##뎐
##롤
##께
##넌
##딸
##략
##돔
##똔
##듯
##딤
##된
##ㄲ
##ㅃ
##깨
##옴
##좀
##쑤
##쥰
##뭐
##받
##칵
##앵
##릵
##뷔
##뢴
##싯
##좡
##팝
##렸
##엪
##톱
##쿄
##앞
##핫
##갠
##섯
##빛
##벼
##툼
##뻐
##얌
##캠
##뮬
##홓
##탬
##쿤
##땛
##밻
##샒
##몽
##쿼
##퀴
##틱
##썬
##끈
##휼
##쨋
##꽂
##첨
##똥
##덩
##좋
##럿
##쉘
##뮐
##쌋
##돼
##줴
##맑
##샘
##싼
##쌀
##넝
##칙
##웹
##됸
##믹
##듀
##뷸
##쭈
##빡
##뉵
##빼
##칩
##웰
##놉
##돚
##솜
##뗘
##먀
##찡
##쨩
##릎
##돵
##툭
##쵸
##륙
##셉
##뿗
##툴
##껴
##늄
##즑
##셋
##율
##짜
##넹
##넛
##쌓
##뺨
##뜽
##쾅
##컴
##뀨
##둣
##끔
##턱
##듐
##촨
##찜
##잉
##뽑
##슛
##져
##쓱
##갸
##뮤
##횸
##젓
##푼
##멬
##컥
##삿
##밑
##왓
##엥
##킴
##냄
##엌
##곽
##켜
##특
##캉
##믜
##쥬
##뿐
##쩬
##캘
##웬
##캡
##낸
##씬
##윰
##숍
##뭄
##깃
##엿
##꿩
##륵
##흉
##궤
##했
##칫
##짚
##렝
##랏
##았
##괄
##닮
##텀
##곳
##둑
##썰
##뜩
##껠
##촵
##숨
##츄
##셨
##겠
##펩
##넡
##뎀
##셭
##놑
##룍
##째
##괘
##띨
##획
##힝
##롸
##폘
##샹
##촐
##붐
##꿋
##깝
##맙
##뿛
##뿌
##옛
##쌰
##렵
##쪘
##넉
##꿀
##얗
##엣
##폿
##큰
##묶
##흣
##놓
##밴
##몆
##밧
##값
##굼
##긇
##읋
##뜬
##댐
##뎡
##덤
##룻
##릊
##쌩
##높
##뛰
##씅
##웠
##윽
##깔
##펀
##봄
##ㅉ
##탙
##밖
##냘
##팍
##찟
##콕
##몇
##꼭
##댁
##냉
##즹
##톈
##앸
##쎄
##팸
##삠
##큠
##멧
##륄
##및
##훤
##탤
##끌
##쁘
##숑
##냥
##벗
##륭
##셩
##핥
##쨕
##탯
##컹
##벍
##잭
##헣
##뜯
##팩
##췁
##못
##뵈
##뻑
##껌
##쳡
##컿
##잆
##븞
##릾
##듮
##얄
##렙
##웡
##퓨
##껍
##잖
##쮸
##휙
##깎
##꺽
##낚
##셸
##텝
##듬
##훔
##혐
##뚝
##덧
##찮
##맵
##꺼
##윅
##겹
##떠
##욣
##쁨
##쳇
##쯤
##맘
##힛
##늑
##낫
##왂
##꺠
##촛
##뽕
##쫄
##혔
##괼
##퀸
##왁
##펄
##똏
##젴
##녜
##쩨
##났
##왜
##땡
##젯
##죌
##쯱
##츙
##깜
##뵤
##뵹
##겻
##꿎
##꺄
##킥
##꼴
##앱
##쟈
##숏
##쾡
##씁
##굳
##덮
##걷
##녘
##윳
##딴
##븨
##곺
##봇
##껑
##겅
##뤼
##컵
##촤
##촥
##뺘
##뽁
##숟
##칞
##뷴
##긋
##쿰
##졍
##쩔
##쿨
##슐
##믈
##낰
##넴
##띤
##끗
##샷
##젖
##뱃
##캥
##뀌
##뇬
##즙
##챠
##핌
##떈
##볶
##썩
##픔
##뵷
##섰
##훅
##윗
##빰
##컷
##짖
##쬬
##둠
##뱌
##읭
##똑
##쟌
##캔
##퇀
##헥
##젼
##콥
##챦
##겁
##튤
##뎌
##냠
##셴
##횦
##옳
##앓
##엃
##앟
##찍
##꿇
##씻
##롮
##앉
##땅
##셍
##녁
##삘
##잍
##곗
##빔
##멓
##룀
##홱
##벳
##낳
##릅
##샛
##핸
##뉘
##긍
##낱
##밗
##쁜
##팟
##횟
##얘
##꽦
##떻
##좔
##햄
##룝
##옙
##덟
##뇰
##웻
##쯸
##쿡
##욜
##딪
##뇽
##둡
##챙
##꼼
##꿔
##쉽
##겟
##꼽
##쩠
##깡
##땠
##벜
##왔
##롯
##뤠
##튿
##꼰
##뀽
##줘
##믄
##훌
##췩
##맴
##븀
##쉴
##헑
##흟
##쑨
##삐
##쫓
##윻
##늅
##떨
##둬
##띾
##닿
##냬
##웁
##꿈
##튕
##큾
##벖
##슶
##텂
##웍
##쏼
##홋
##씌
##먐
##꺾
##앨
##챸
##탘
##씸
##궂
##밸
##읒
##뱡
##몐
##찎
##햣
##슌
##죤
##틋
##릐
##닫
##멈
##좟
##쭌
##듭
##뻔
##뉼
##팠
##슷
##힉
##뼉
##앜
##윘
##눤
##덥
##냔
##띵
##횡
##쩡
##묭
##뚤
##팽
##쎌
##젭
##헴
##킷
##댓
##뫀
##쳤
##챔
##뛟
##쨘
##풋
##잣
##볓
##썽
##눼
##닻
##뵐
##겡
##헷
##얻
##몫
##슙
##줏
##뎬
##퓩
##숴
##뎨
##롈
##넘
##쒕
##짠
##췅
##꽁
##볽
##뿓
##뽝
##몊
##랬
##폼
##쳄
##쌜
##뎃
##꽊
##즉
##츈
##퇘
##삣
##캑
##넵
##쑝
##맣
##챱
##헿
##핍
##삽
##뤄
##듥
##퐝
##훠
##퉤
##뒑
##뒓
##륍
##킼
##홈
##땀
##샬
##딨
##꾜
##졀
##멱
##앰
##틔
##솽
##굽
##뒷
##쟤
##꽝
##캇
##줌
##뎊
##끵
##쬐
##씽
##쏭
##깊
##낮
##곖
##쵮
##곲
##읪
##훨
##챳
##꼐
##겜
##쉰
##닙
##뎁
##벰
##쵹
##곯
##퍽
##펭
##귄
##텅
##뷘
##좆
##뫼
##짞
##봙
##곧
##봡
##꼿
##읏
##뺭
##헝
##톄
##빤
##헗
##컼
##똘
##쨔
##슥
##탭
##츳
##눞
##귬
##셒
##슾
##뉨
##쎠
##읔
##랼
##떳
##땐
##젝
##쓔
##듣
##렞
##캅
##멋
##쭤
##돋
##콸
##냈
##츰
##믐
##찹
##듫
##탓
##햅
##썹
##폄
##꾿
##푴
##핡
##껸
##멤
##낑
##홧
##쉔
##듸
##팎
##섴
##팃
##몄
##틉
##벧
##옇
##눗
##캰
##탔
##쌉
##솟
##픤
##팰
##홐
##혻
##즁
##컄
##젱
##슢
##퉈
##뿟
##땃
##챈
##잼
##눕
##켰
##좁
##볏
##랗
##않
##겉
##뫄
##늡
##롼
##뒥
##냌
##궃
##쓴
##긶
##잌
##쫀
##삥
##쑴
##쫑
##앳
##죡
##뜝
##낼
##웩
##눙
##텨
##픨
##쌱
##깻
##엷
##콴
##퓔
##밈
##픖
##틊
##낵
##뻥
##촷
##홑
##윕
##쀼
##쿵
##틈
##밝
##쾰
##훕
##딫
##섈
##딛
##닭
##
##툵
##퍄
##벚
##녓
##땨
##퀼
##젹
##줭
##횅
##퀀
##굣
##늠
##훟
##괜
##횻
##셧
##펫
##샐
##쪨
##쏙
##싟
##촘
##꾹
##핲
##팁
##벓
##쳑
##됴
##쪠
##퉅
##묄
##몃
##훗
##뀩
##꾀
##쥭
##꽥
##햏
##싀
##튽
##뮨
##읶
##쭐
##삑
##삡
##긔
##낄
##킵
##귓
##떤
##꺘
##볍
##띔
##옐
##켐
##꿉
##뺑
##쒸
##릏
##숀
##햇
##굇
##괭
##빻
##뙈
##쯋
##텁
##돗
##뢱
##끜
##멩
##끓
##쩜
##깟
##졋
##풱
##넣
##삵
##넓
##졔
##탇
##펴
##멕
##츔
##캎
##슭
##숎
##슉
##믌
##씀
##뜻
##숄
##푹
##깈
##챨
##왑
##댑
##섣
##헛
##셕
##좹
##뤯
##룱
##퐈
##끠
##챰
##쯪
##뾲
##굄
##흰
##껚
##떽
##륶
##릘
##긱
##쁠
##뗀
##땜
##땍
##킄
##닦
##쿸
##칰
##꿝
##늰
##뒁
##딥
##큥
##숯
##짢
##놔
##켤
##뒫
##쭁
##줬
##힙
##괵
##녠
##퇵
##콬
##톹
##퐆
##췄
##긕
##롫
##끽
##왇
##쁑
##맷
##챗
##젏
##폵
##숧
##쉼
##될
##퓰
##졷
##븃
##좐
##랖
##삷
##샢
##훍
##씹
##쯕
##쫙
##띰
##놨
##샅
##졬
##껙
##쩐
##왘
##훓
##섀
##툠
##륀
##귶
##뙓
##봬
##횩
##쾨
##뿮
##뱦
##뺴
##맇
##뚸
##찻
##귈
##솩
##쌔
##뇓
##샴
##쬷
##홅
##욿
##쌻
##풇
##뙤
##룟
##큿
##얍
##섕
##얹
##벞
##겊
##펨
##낻
##좍
##뢔
##횞
##삾
##벩
##펡
##듶
##뼝
##뉻
##뒨
##늿
##뼸
##츌
##끎
##덫
##떵
##맆
##흩
##켠
##녈
##깬
##찾
##낌
##꿨
##잽
##썀
##펼
##쩅
##겧
##쉡
##셥
##왠
##렂
##푀
##핟
##횽
##큇
##훽
##쟉
##롁
##펔
##갖
##댔
##뺼
##돨
##죳
##쭊
##쑈
##쎼
##냣
##잨
##뺏
##눝
##붚
##쁭
##꺌
##쭘
##뻡
##뗄
##춧
##욀
##쮜
##뼤
##긑
##힗
##껀
##쨌
##캬
##춉
##줍
##돕
##흫
##냇
##맄
##둇
##웜
##쥣
##쿱
##귁
##쉥
##궶
##궫
##궻
##랤
##궢
##둗
##폔
##쌥
##웤
##햐
##봅
##뚧
##쭝
##쇽
##킅
##덞
##톼
##윱
##갚
##챡
##닏
##먕
##옻
##꺅
##닑
##옅
##툉
##톳
##낛
##읷
##덗
##랸
##팈
##믿
##뿜
##큉
##혓
##뗶
##뗵
##쳬
##먄
##많
##깽
##럐
##쨰
##앍
##윹
##뮹
##흗
##빳
##옾
##갰
##흨
##돛
##븓
##룅
##싕
##뤩
##둈
##랔
##뾘
##쏜
##껫
##엤
##랆
##늦
##볘
##섞
##퍅
##웽
##윷
##몯
##툿
##쳣
##듟
##돤
##뜐
##헙
##쩝
##몹
##됨
##뫅
##랠
##뤂
##튠
##럇
##욧
##솝
##쳰
##굥
##숕
##붑
##짘
##긤
##돠
##즤
##봤
##펐
##쌕
##챌
##찝
##굘
##쌤
##왐
##왷
##샙
##귿
##뚞
##귪
##궸
##궭
##궼
##훜
##탒
##챃
##밉
##믁
##튝
##뻘
##겋
##붉
##뿝
##쥴
##옮
##캌
##뗻
##빧
##띧
##퀵
##뼥
##녔
##햑
##렷
##뻣
##큣
##켕
##뜳
##잰
##밬
##푷
##뗑
##쬴
##됼
##굑
##섶
##괸
##힡
##쉏
##뇸
##쮝
##벱
##믓
##먁
##흇
##짬
##옘
##큭
##뿎
##헯
##젧
##뗏
##볜
##쯧
##쵁
##딍
##녿
##듁
##꼍
##췻
##뵙
##큽
##퉷
##힁
##맡
##듕
##곁
##렀
##솰
##뿍
##끙
##씃
##랒
##췃
##쳉
##쟝
##쬭
##씰
##뚮
##쐙
##뽟
##뉜
##얶
##뼛
##슝
##둍
##뇩
##콻
##푝
##툐
##욹
##룔
##뭍
##겿
##뭬
##벐
##좇
##퀄
##뱉
##뎋
##랋
##핻
##벫
##뷜
##늪
##싣
##뫃
##뚷
##뭏
##붖
##쯉
##칟
##닢
##륑
##죰
##틷
##샵
##쉭
##뿁
##얽
##쀠
##왧
##뷃
##얇
##켸
##꾱
##탵
##컁
##뿡
##엨
##칣
##겆
##뒹
##싴
##픓
##퓍
##뗠
##떰
##삒
##괳
##맠
##뽱
##츼
##뻤
##늙
##뤀
##뀍
##죗
##쯩
##닯
##넙
##삯
##촙
##땝
##졧
##멦
##팉
##웈
##칯
##랕
##뫙
##칽
##쉿
##눅
##훁
##빕
##낯
##슼
##뿀
##뎜
##쉠
##솅
##퉹
##쉑
##욷
##왼
##샻
##놏
##콫
##켁
##롓
##뜀
##뺙
##삮
##밐
##갹
##겕
##붸
##텬
##싶
##좊
##슽
##콱
##췛
##솬
##딈
##쿙
##쮹
##솨
##롑
##셤
##읗
##뤵
##짧
##괏
##뗔
##쿳
##돖
##캆
##왒
##캭
##쨍
##틍
##윿
##엓
##팻
##됭
##툽
##솀
##뛣
##홣
##꾫
##씤
##쁐
##챞
##쎔
##뭔
##풔
##풮
##엏
##휠
##믕
##쵼
##맺
##샇
##싁
##줓
##옆
##뷀
##쀏
##갗
##굠
##쨉
##쾃
##쑊
##얐
##낪
##밊
##빚
##롹
##뚀
##걲
##봊
##픠
##죵
##쏀
##툥
##엫
##홰
##갷
##겴
##쒀
##찧
##챘
##졉
##낏
##뱨
##깄
##헹
##댸
##쏩
##짭
##엮
##푯
##뭘
##돜
##쇳
##솁
##엾
##짇
##텤
##귐
##퇼
##킈
##싐
##핧
##쎃
##볫
##빩
##뤙
##잿
##춋
##츀
##댠
##읓
##딺
##핚
##겍
##칡
##땩
##쁟
##뤕
##텽
##탼
##뼜
##닼
##릯
##휭
##젋
##샄
##뢸
##솹
##꼳
##뱐
##찢
##뢍
##챕
##샥
##뭭
##뫟
##녤
##엊
##줵
##촾
##컫
##쥽
##혠
##썄
##몀
##긧
##궖
##궋
##뭅
##꺢
##귱
##퓻
##긞
##긏
##귺
##꼈
##폕
##쌐
##퇸
##썅
##듳
##뺩
##뺵
##쁅
##뺡
##뗡
##쏨
##춈
##촹
##둅
##촡
##멨
##폯
##갇
##냑
##뫌
##윔
##뜵
##쬽
##콦
##먳
##맻
##뮻
##뭋
##뺀
##턻
##긁
##냟
##옿
##댬
##듹
##헵
##뤽
##퀜
##굵
##퍗
##갭
##녯
##쥠
##뵥
##핱
##쏴
##쒹
##셱
##휏
##딯
##좂
##쥘
##왱
##핤
##쫒
##힠
##뱔
##쇅
##삧
##땽
##듦
##퐳
##쬲
##휩
##뀻
##쓩
##낲
##꽌
##쁶
##젔
##떙
##돘
##놘
##웳
##됐
##뀪
##랃
##췰
##얭
##셷
##잏
##쏟
##띙
##붇
##젮
##퇗
##댱
##뾸
##챝
##뒬
##엗
##꺙
##잋
##눟
##뀫
##덯
##삔
##쥉
##헱
##롻
##끅
##냫
##룐
##꽤
##빎
##헼
##걍
##퐐
##흧
##웗
##뛃
##꽯
##쭵
##쟙
##쎈
##혬
##렫
##뚬
##쭨
##곀
##쪙
##퀌
##똟
##껨
##녑
##푠
##횬
##쟣
##쭙
##둩
##붘
##엒
##퍝
##윾
##뛸
##뜷
##뙗
##퀙
##풉
##뿨
##붝
##앆
##풑
##쥥
##쌘
##랣
##땗
##붹
##얺
##앝
##쟘
##퍙
##졈
##픳
##짼
##궬
##냙
##븟
##쏚
##짹
##픋
##쯰
##똠
##픅
##쥿
##탉
##븝
##쫩
##퀑
##삜
##뽜
##궇
##뤨
##뷓
##걕
##빖
##줆
##꽉
##꽐
##췍
##쵠
##앋
##뀐
##쏫
##읽
##봑
##뼬
##쭀
##쑼
##큄
##끕
##끤
##켑
##튺
##뒈
##휫
##쑁
##뺅
##괧
##켬
##쁴
##꿰
##걔
##륷
##쐐
##츺
##낟
##앚
##찓
##돡
##붱
##춱
##묜
##빋
##뱁
##좸
##숩
##쭓
##얔
##슆
##휗
##왉
##꺆
##맓
##싧
##댋
##핿
##줊
##셟
##섧
##갊
##핣
##닚
##닧
##꺵
##썻
##똬
##꼮
##륽
##즬
##읅
##풒
##듧
##큪
##핔
##쥩
##뜫
##몔
##닊
##쫜
##뽈
##띡
##넽
##웟
##숌
##뫞
##뿷
##땞
##밪
##뒗
##렜
##됵
##롊
##컭
##쒜
##묑
##푱
##콣
##킦
##끾
##닳
##돿
##튐
##쿶
##긿
##땁
##뤌
##풹
##볐
##뻴
##줛
##놗
##솫
##뗛
##몼
##돇
##돣
##뢐
##홳
##잓
##웫
##룫
##뺃
##뗣
##펍
##홁
##줜
##썍
##쵤
##욋
##읖
##썝
##뿉
##귯
##킳
##뜜
##닜
##퀠
##웝
##뛩
##뒝
##쎅
##굛
##댦
##뷁
##밣
##뙇
##쭛
##뉸
##덿
##떱
##깏
##좨
##싈
##쟛
##밌
##젊
##곂
##뺄
##튭
##붏
##꾁
##싫
##곻
##쫣
##똵
##뽧
##꽑
##뽭
##엙
##뷉
##쨥
##츩
##얒
##룳
##뀜
##껰
##웆
##갉
##꺕
##튮
##얫
##캢
##욦
##짒
##귖
##궺
##긲
##깒
##깛
##긛
##흿
##덦
##븍
##욺
##췽
##뚥
##툇
##꺐
##짙
##찷
##헔
##벲
##퉱
##끍
##휽
##첫
##듄
##둙
##흓
##얅
##뎂
##닶
##볈
##얖
##쁌
##쁙
##뷇
##끆
##읕
##꿘
##쨈
##셣
##핼
##뒿
##옠
##맏
##춸
##읫
##챵
##됬
##홝
##첮
##휀
##흄
##옺
##큮
##삗
##뎍
##싮
##밦
##팂
##띱
##쬰
##쉅
##맬
##웉
##쫭
##둴
##뎻
##휵
##댧
##댯
##멉
##븅
##싰
##깩
##툑
##뚯
##씍
##놰
##봫
##죔
##퓸
##씉
##얃
##꼇
##뀰
##뇻
##뇾
##퐄
##귝
##훳
##넠
##렡
##맢
##캤
##먗
##큅
##둉
##떅
##혯
##잫
##릣
##읃
##즛
##롷
##롣
##귡
##긮
##깑
##맫
##깤
##죨
##뮺
##썼
##롇
##햟
##걋
##뙳
##홂
##룺
##랰
##돓
##뺌
##냏
##돫
##쀳
##꽹
##솎
##썷
##닾
##큔
##샠
##싄
##쳔
##쎕
##횔
##톻
##슁
##껒
##뺚
##쉟
##렣
##뽓
##돩
##랐
##췬
##끨
##괆
##쩧
##탹
##늕
##벋
##쿜
##꽇
##꿱
##먏
##믱
에서
으로
ㄴ다
20
지만
에게
201
는데
19
까지
때문
아서
##00
아니
라고
라는
으며
다고
나오
면서
보이
10
경우
사용
어서
다는
공격
이후
자신
그리
##레이
사람
위하
대하
정도
부터
##스트
가능
다른
시키
12
보다
이나
200
가지
으나
등장
는다
11
아이
그러
그리고
##어지
게임
하나
버리
경기
..
만들
다가
못하
##er
사실
시간
사이
시작
일본
이름
이상
함께
모습
##니다
따르
##지만
상대
##어나
15
한국
문제
거나
다시
##in
프로
으면
하지만
##스터
생각
또한
아야
가장
들어
시즌
당시
캐릭
##대로
18
ㄴ데
##on
처럼
플레이
당하
캐릭터
##이트
능력
모두
ㄴ지
상황
상태
아도
모든
그렇
##or
세계
선수
추가
##an
16
결국
현재
카드
스킬
##미지
다음
통하
지역
미국
다만
ㄴ다는
많이
전투
그러나
30
효과
존재
13
199
여기
시리
14
##라이
매우
##ar
대학
라이
17
기록
달리
##he
의하
그런
상당
##at
인하
##리아
시리즈
스타
레벨
기술
ㅂ니다
레이
처음
다면
무기
이용
영화
물론
부르
이유
방송
자체
100
이것
해당
같이
여러
필요
이런
실제
25
일반
들어가
모르
주인
마법
ㄴ다고
리그
거의
돌아
어야
##리스
학교
역시
바로
##거리
사건
##en
나가
##이스
관련
특히
다르
이야
위치
기본
2017
부분
대표
국가
##이지
진행
##ou
그래
피해
##부분
제작
2018
방어
아무
이야기
활동
동안
는지
##지막
없이
인간
작품
알리
증가
대부분
##시아
일부
##al
마지막
2019
지나
본인
계속
자기
21
##es
감독
ㄴ가
서울
떨어지
라면
내용
우리
관계
만큼
올리
2016
중국
50
주인공
속도
이전
##전히
참고
어도
대신
생기
수준
전쟁
그냥
비슷
어느
타이
으니
기준
비하
지금
성공
22
198
대한
강하
도시
만나
##민국
이루
도록
밝히
인물
그녀
결과
24
연구
배우
최대
지원
습니다
상당히
공격력
올라
기사
마다
평가
시절
##it
그대로
빠르
대한민국
나타
자리
의미
너무
##버지
제외
므로
보스
##토리
죽이
로서
##부터
소속
전체
실제로
23
보내
2015
승리
직접
이미
##라지
개발
메이
원래
여자
영상
그것
어렵
언급
유닛
체력
000
##st
##ing
대로
##le
##ic
##학교
멤버
포함
데미지
이동
유저
정보
40
마음
방법
설정
##re
싸우
문서
선택
애니
과거
##가지
ㄴ다면
출연
차이
##랜드
##운드
##다가
머리
사회
몬스터
##이션
친구
불리
발매
성우
설명
우승
이러
여성
대상
##dd
거리
발생
최고
동시
엄청
소리
프리
시대
플레이어
바람
장면
아버지
공식
버전
힘들
사망
프랑
다니
사랑
대회
영향
바뀌
##주의
유명
2014
주로
스럽
결정
또는
주장
이렇
역사
남자
출신
려고
구성
26
파이
##la
정부
인터
일어나
마이
조금
운영
오르
학생
유지
공개
28
나라
음악
버스
##ff
초반
아이템
서로
중요
독일
전부
새롭
27
정치
대사
방식
과정
빠지
시스
걸리
the
스토리
월드
##el
파괴
##이드
나타나
31
모드
형태
최초
강화
역할
제대로
나이
자주
후반
노래
이때
아직
영국
최종
대전
##am
##om
##라도
##우스
쓰이
##벤트
변경
드라
마리
스테
강력
##머니
누구
이벤트
기존
회복
정말
197
##이도
조선
비교
보통
##is
그런데
##프트
드래
정신
라도
느끼
어떤
마을
마찬
마찬가지
##아가
소환
인기
이기
특성
발견
노선
행동
당연
성능
엄청나
2013
프랑스
확률
교육
아래
속성
바꾸
슈퍼
아들
모양
자유
바이
오히
차량
대학교
가깝
##리어
오히려
어떻
이제
29
라인
##너지
차지
##et
부족
문화
사라지
32
수록
확인
특수
##ol
활약
게다가
이번
생산
관리
##ion
유일
시스템
끝나
모델
00
2012
성격
제국
스트
따라
장비
내리
고등
입장
구하
영웅
맞추
선거
##디오
다이
일단
아예
축구
이렇게
계획
운동
어리
돌아오
반대
심지
2010
202
경찰
주변
먼저
##레스
기간
우주
자동
심지어
앨범
위원
개인
km
기능
완전히
##레이드
조건
##통령
사진
거기
중심
적용
건물
##nd
지구
드러
부대
##ow
감소
어요
##il
들어오
60
데이
떠나
으로서
난이도
##ig
중앙
발동
##ed
현대
회사
애니메
열리
초기
자세
실패
##므로
하이
##인트
지방
시기
대통령
참여
혹은
##니아
설치
196
35
그래서
세트
표현
지키
작가
드라마
프로그
던지
민주
어디
돌아가
라며
물리
다양
국내
덕분
얼굴
기관
전혀
데뷔
TV
반응
동일
지속
출시
패배
##리카
처리
오브
인정
원작
발표
판매
도움
순간
##ac
모으
획득
##버스
##as
애니메이션
그룹
스페
얼마
무엇
of
구조
명칭
담당
요구
더라도
후보
날리
##BS
정확
생활
2011
특별
##없이
진출
하루
시점
##나마
그렇게
넘어
굉장
밖에
선발
작중
단계
영어
상승
국제
기억
움직
##아내
경제
만화
가격
그림
아군
##ve
항목
##들이
Lv
올라가
##소드
세우
마스터
The
아마
시장
실력
그나마
으므로
가족
참가
로부터
특징
야구
에피
드래곤
대체
다며
계약
##비스
았었
사고
방향
이거
아르
조차
미치
01
경험
2000
고려
려는
범위
러시아
브라
##ot
수비
프로그램
연기
시청
##로스
디자
##소리
##뜨리
##스크
세대
묘사
500
패치
지니
확실
남기
한테
발사
고등학교
결혼
주의
폭발
##으키
에피소드
80
어머니
활용
밀리
각각
목적
피하
비판
어떻게
보호
##ad
더욱
준비
상위
무시
제공
중간
세기
라서
이어지
주요
국민
37
오리
심하
챔피
45
과학
194
조직
인구
조사
유럽
위험
이미지
아주
라운드
히로
패턴
버프
굉장히
이루어지
세이
내려
단순
크리스
전하
참조
St
진짜
생명
전문
다루
시도
세력
듯이
약하
대미지
가리
싸움
일으키
구간
불구
지하
연속
현실
##머지
나머지
나쁘
여담
아프
타입
파워
ㄹ지
유리
for
안타
출전
##id
소모
부산
성장
순위
조합
규모
약간
논란
동료
70
한정
혼자
포인트
사실상
항공
나무
지도
여전히
디자인
노리
##아오
뛰어나
기타
운행
##ay
분위
바라
연결
이해
트리
무장
이탈
90
09
한편
##나라
195
FC
소설
##스로
자연
학년
분위기
훨씬
예정
취급
으면서
성적
일정
부상
당연히
등급
사업
블랙
2009
투수
##ER
##러지
센터
태어나
마치
02
##ch
해결
향하
변화
mm
연합
삼성
기대
계열
가져
엔딩
##us
이르
그래도
최근
추정
300
2008
##이크
방영
##ir
발전
03
방면
스테이지
수정
기에
종류
의견
48
미션
이라
배치
표기
도망
33
잘못
전용
자면
ㄹ까
독립
##다리
그거
36
정상
##ur
05
퀘스트
속하
작전
소녀
수상
거대
안정
##스타
대화
터지
엔진
변하
철도
직업
종료
나중
08
움직이
충분
죽음
요소
스스로
챔피언
오래
##티브
도중
거치
수도
비행
07
올라오
에너지
세상
넘어가
펼치
기업
붙이
관하
##란드
공연
동물
특정
지내
건설
비롯
나누
달성
##od
지지
일행
느낌
##러스
벌이
행정
벌어지
##BC
훈련
싱글
마저
당신
전기
보상
HP
전설
미사
졸업
만드
무리
장착
스카
##im
남성
신경
스피
방어력
##..
부활
배틀
다리
지휘
06
유니
로마
황제
절대
위기
관심
군사
th
##자기
따라서
내부
올림
반면
포켓
번역
제목
요리
미래
번호
2007
##ut
공간
더불
##un
거두
목표
서비스
##어들
점수
만약
이끌
득점
바르
아이돌
근접
시험
전국
가르
04
전차
마르
소재
충격
의원
##지션
SK
시설
오늘
목소리
홈런
전사
무대
정체
34
##데이트
사이트
인도
업데이트
지정
작업
저지
분류
스파
작곡
you
배경
돌리
장소
똑같
가끔
##리오
도로
타격
##ro
최소
어찌
##인물
교체
링크
으로써
공중
항상
생존
##디어
##트리
북한
높이
전작
스포
각성
부여
##다니
파티
예상
단체
그만
분노
정식
193
클래
##너스
넘기
야마
아라
으려
제한
##수록
가수
##ver
베이
등장인물
##igh
##ec
사냥
##ag
포켓몬
자랑
스타일
얘기
엘리
결승
38
2020
인사
소개
늘어나
2006
올림픽
cm
목록
외국
종족
##ent
비밀
##운데
인터뷰
기계
악마
이어
##동안
이탈리아
개념
명령
수행
필드
75
카이
초등
크리
교통
애초
이외
괜찮
ㄹ로
판정
타카
기반
연출
정하
각종
in
하늘
병력
지상
클리어
로봇
군대
##드리
55
제일
전반
##보이
기체
비용
카운
확정
기동
설립
크기
가운데
프레
##화국
케이
##ak
표시
인식
파일
경쟁
갖추
##라인
행위
건담
정작
사항
평균
시티
레어
##um
통합
교수
별로
##젝트
아카
장갑
라이브
to
드러나
화력
포지션
##비아
수치
니까
정의
왕국
사격
따로
근처
완전
병원
진화
저항
감정
',
월드컵
국회
아키
보유
집중
사거리
노력
환경
전자
갑자기
인천
누르
변신
기회
42
언제
##아들이
임무
나름
의식
자원
고양
단점
직전
코스
특이
##르트
정리
살리
드리
##em
부정
제품
단어
오버
부모
vs
현상
탈출
던전
오른
냐고
위원회
사례
레인
##ST
##ula
압도
이닝
치료
마시
##라스
소련
주제
효율
판단
##ub
잠시
다크
때리
아파
극장
사정
2005
아스
촬영
시전
어쩌
본래
지배
원인
나서
느리
이쪽
가문
더니
치명
주민
form
정책
제거
요시
도입
대구
옮기
ㅏㅆ
유사
##000
여행
전력
무슨
상관
밴드
동생
##말로
192
삭제
고속
##루스
스코
주문
공동
기념
실험
도쿄
강제
파트
해군
의외
책임
사무
formula
중학교
병사
포기
키우
역대
의사
연습
물건
복귀
이하
발언
##무리
골드
전개
도전
##야마
완성
##어로
##ight
언어
음식
##요일
고정
기다리
앞서
새로
바다
나이트
노트
위력
이적
2004
살인
으로부터
41
차원
공주
접근
다수
직후
화면
점프
려면
모이
레드
페이
루트
확장
제도
중반
##학생
불가
전략
39
받아들이
정당
도착
음반
끝내
별명
##모토
선생
시민
가치
사상
히어로
사기
정규
히트
버티
분명
에게서
고자
산업
미니
잡히
숨기
타임
티어
어둠
##ce
마나
연장
오프
투표
무려
구역
LG
빌리
대기
마사
조종
신체
종교
로드
장치
줄이
소유
일러
##os
자료
추천
아파트
ㅓㅆ
녀석
크로
EX
은데
회피
노동
살아
고대
이곳
구매
##르크
형식
예전
##AR
##ri
빨리
인터넷
##드시
리더
##시마
타이틀
##그레이드
업그레이드
라이트
탈락
사령
롯데
폭탄
반드시
해외
44
단지
교회
아내
미사일
랭크
금지
학원
Ch
우선
완벽
부탁
심각
달러
클럽
##AN
2002
실시
이라고
##역시
일러스트
데스
하드
범죄
장점
검사
191
합류
이사
##ON
추측
구분
##ap
43
최강
##and
몇몇
선정
99
로스
조정
##이치
공포
대장
전통
데이터
차례
가사
마무리
취하
열차
요청
행사
No
위키
버그
프로젝트
그리스
종종
자마
선언
구단
스포츠
##트라
연재
점점
대중
스페인
st
수많
즐기
컴퓨
가드
개최
개월
서버
##이어
재료
설계
보병
##아하
에이
옵션
뉴스
##러리
46
조작
형제
47
kg
다소
51
광고
민족
생물
##나이
포스
그야
타자
마법사
암살
걱정
부하
거부
좋아하
언론
채우
KBS
##ter
입히
개그
연주
채널
성향
컴퓨터
통신
and
해석
코드
자마자
평범
보조
고르
한계
종합
디스
##조건
실점
아쉽
기지
개봉
전화
행성
회의
그야말로
재미
회장
2003
복수
52
대결
##ul
##FA
투입
아무리
지적
비중
워낙
지명
가정
다행
박사
원정
본격
미드
운용
알아
한글
자동차
##아지
광주
위협
무한
정확히
스위
집단
영혼
소년
소비
인상
등록
모자
실수
무조건
##op
%,
##무라
MA
##IN
평소
냐는
상징
페르
1000
대응
굳이
카메
공사
줄어들
생성
##자리
##버리
##타임
와중
##니스
대형
체제
##ck
대비
충분히
##로드
사태
태양
##ation
는가
##의원
보컬
조각
##리트
아웃
편성
군단
통과
여름
65
다운
전원
보너스
육군
150
분리
터미
이론
공항
플래
희생
개조
형성
분야
시청자
방문
뿌리
##ra
일종
MBC
무사
특유
기자
도망치
가면
제안
##로그
을지
장군
SP
동맹
고양이
치르
봉인
마력
네이
##려가
디지
스크
벗어나
64
전환
II
발음
로써
오리지
장기
가하
얼마나
반복
시나
장르
점령
드러내
안전
오랜
의도
##튜브
간단
##일러
You
경기도
소식
ㅏ서
먹이
예선
불과
빼앗
유튜브
서술
##오르
개선
합치
##시스
함정
유도
사쿠
바닥
마크
##려오
흡수
영입
##남도
##텐츠
에스
초대
공화국
브레이
평화
그때
근데
##니티
##art
400
코치
규정
괴물
는다는
의지
저격
투자
기원
독자
라디오
비디오
미리
숫자
확보
예술
전술
액션
최후
원하
방해
가져오
진입
수사
이치
따지
매일
오토
비트
필살
공략
##오스
놀라
49
화염
가스
2001
주력
인원
##런스
클래스
##나가
그저
은퇴
적극
외모
보도
56
관통
걸치
흐르
장난
승부
찾아오
들리
터미널
체육
지나가
적절
VS
모험
왼쪽
목숨
AP
계기
포르
컨셉
인류
눈물
In
아름
##니까
구축
패러
방패
1990
느냐
상자
작성
서브
회전
자라
완료
주연
뮤직
리어
공부
알렉
사과
##올리
부수
##동생
트랙
한국어
편집
54
장관
함대
의심
거짓
아프리카
53
분석
솔로
##모리
살아남
오리지널
저지르
수리
안드
더블
질문
##스케
보수
들이
PC
역전
민주당
단순히
약점
인형
필수
아시아
ㄴ지라
##페이지
코어
경상
마침
임명
황금
##ia
##라이더
...
끌어
시내
쓰러지
190
재판
##나다
풀리
오스
장애
대단
##로우
85
사단
착용
성인
인민
해제
중단
##래프트
꾸준
경계
##ie
##레이션
##시브
##ill
홈페이지
드라이
비난
소프트
현장
미스
승강
작용
하위
상대방
엄마
청소
희망
날개
사장
카페
습격
허용
수원
인지
선보이
공원
데리
진정
편하
코스트
관광
유래
제시
원거리
무력
지식
블루
선물
코믹
수호
영역
##RA
스마
남편
기획
가슴
베르
주도
ST
명중
수단
바탕
##IA
아름답
##북도
##ik
이스
부리
오른쪽
태도
본선
모티브
거주
에이스
행복
어라
##무원
탑재
확실히
카즈
비고
나카
저주
리스
감안
직원
체계
측면
59
##워드
지나치
멈추
표정
도서
##ab
무섭
주목
테크
쿨타임
돌파
상처
고통
의문
##마스
가까
베이스
텔레
친하
##est
그라
제기
보급
나타내
딱히
뉴욕
테마
##연히
72
게이
업무
기점
당장
지점
공장
소울
58
망하
협력
유우
고유
여부
120
기어
불명
멀티
부인
##th
비싸
57
62
대답
온라인
순서
통일
문자
날아가
카메라
위주
아요
귀족
우수
연방
후속
##all
제압
##울리
멀리
계산
챙기
박스
잠깐
소수
나뉘
을까
카운터
꺼내
문명
당선
MP
##ea
진영
멸망
66
1999
차별
95
패스
건너
후지
은행
##트롤
횟수
에어
버튼
약속
혁명
케이스
시나리오
드립
Lo
내려가
제조
Sh
##ct
국회의원
코너
Re
크로스
오후
마츠
고서
1998
겨우
살해
붕괴
달라지
지옥
자격
특기
오스트
삼국
상하
스케
최악
듀얼
##붙이
on
증거
스펙
연계
개편
외부
ㄹ수록
눈치
늘리
퍼지
##스티
##머리
가볍
시체
유키
딜러
##다르
군인
Sp
##니어
겨울
군주
##바이
게시
핵심
정권
그레이
의회
공산
어린
gt
가져가
매치
중화
##라리
ddd
##피아
처치
부담
교사
배신
미군
110
출발
스탠
컨트롤
대놓
##메달
출생
##AT
##레인
게이지
##AL
레이저
ㅓ서
자살
단위
드물
진실
##ddd
스프
dddddd
어울리
##학자
견제
해금
충돌
##PS
최대한
가로
아침
대원
브랜드
##워하
거절
장전
여왕
##터리
궁극
가르치
##OR
도구
필살기
전장
충전
댄스
홍콩
커뮤
미나
Th
로켓
거래
##아리
##로이드
자이
유용
교환
카르
SS
용병
이성
만족
##VE
반란
취소
부문
SBS
제로
lt
귀엽
##ess
##사카
마왕
체인
##ate
피아
한화
고급
일본어
부진
쓰러
닥터
타이밍
는다고
##ard
표준
기분
##ell
흔히
##광역시
스피드
61
협회
조준
피해자
발매되
Al
1997
브리
근무
아메
##전자
76
남부
애매
제주
단독
##ang
무게
미야
##ue
마이크
스킨
토스
공군
조지
공통
얼음
##ers
신화
비록
##ant
파악
극장판
하트
발휘
우려
판타
수입
비율
권력
세계관
유형
장수
##IC
건강
자르
끼리
경력
인생
헤드
##ine
겹치
가입
본부
자고
##ack
##래도
##하라
갈리
후반부
한자
순수
근거
공작
계급
레전
웨이
모션
FI
77
자치
커버
아무래도
물질
88
혼란
지시
패시브
구입
격투
외교
막히
몰리
##다수
아머
감염
입단
지하철
자식
따위
##두르
플라
해방
NP
파이터
프라
연대
기독
탄생
##달리
##OS
엑스
트레이
정령
##피스
캐나다
지대
##웨이
모리
증명
회수
##어내
등등
강조
채용
반영
내주
업체
생일
##심히
스코어
누리
테러
홍보
용도
입학
##가락
아사
실질
경영
승강장
##ok
폐지
밸런스
외치
ㅕ서
꾸준히
타워
대륙
##세이
1996
문학
언니
납치
경향
CD
불안
지급
##ive
기절
병기
be
무너지
오오
이슬
갤러리
##트로
대공
실행
돌격
트위
##디션
BG
1995
주어지
아나
왕자
1980
장식
98
추진
요원
트라
##아나
베트
출판
감사
광역
##고기
or
브라질
신문
##유키
",
랜덤
373
훌륭
메탈
600
계승
수학
맡기
파리
페이스
재생
주년
시행
온갖
사카
통제
마녀
fff
##ast
가까이
스튜
내내
집안
없애
설득
내놓
패러디
건축
##오리
단일
기독교
스페셜
대다수
작사
심리
파라
사전
정지
찌르
##들리
##AS
ㅓ야
용어
화살
울트라
찾아가
전선
아리
신뢰
경기장
##이터
고민
오픈
명예
상품
##카와
북쪽
##크래프트
별도
후쿠
스티
즉시
영원
기기
##웨어
선배
어차
서포
PS
##어리
##바로
살짝
폭풍
##ee
남쪽
연예
어차피
지우
68
적당
등판
##ED
800
가리키
괴롭
전달
페이지
대놓고
화장
보물
내려오
##스탄
변호
##즈키
마련
라스
미소
고전
63
##tt
##ong
탑승
뒤집
소문
당황
흘리
함선
러브
##uby
스파이
그곳
경유
푸르
말리
##시오
공기
오프닝
은근
레오
공유
트레
열심히
##AM
레전드
커뮤니티
입수
외국인
민간
갑옷
신청
오류
사령관
심장
한때
정류
##ort
##ith
운명
##if
반격
##거나
신고
##세우
엔터
아시
##도우
사운드
##ly
조치
트위터
임시
##타인
수업
74
댓글
연구소
1994
71
응원
아트
이승
격파
가면라이더
처하
김성
불만
##ld
ruby
##나무
##리티
쓰레
라이벌
마주
마인
랜드
고기
82
중계
편의
##아버지
갈등
환자
67
절반
습득
울산
73
주위
오해
크루
##아먹
관객
두산
하수
카나
메이저
북부
클라
스트라이
요새
##다지
보정
여론
널리
출장
##ain
MV
정말로
지형
##ist
전공
카라
대만
짜리
유로
고치
서부
전시
회원
아오
결승전
수용
보장
우스
시각
##fff
여신
주전
리버
....
이란
180
차트
##겨나
##ind
96
붙잡
재능
가득
압박
별개
ffffff
메타
전형
추적
왕조
##티컬
영토
쌓이
소멸
테이
##서트
무적
NC
전함
종점
메가
AT
##듀서
프로듀서
초월
오로
운전
네이버
판타지
TH
81
흔하
전역
폭력
도서관
체포
AC
늑대
제하
녹음
선호
그다지
아우
동기
##per
##가와
화이트
아일
컨텐츠
지켜
타점
가이
##지컬
시야
변형
파이어
돌진
개통
인수
##ew
##덜란드
네덜란드
##ps
강원
테스트
든지
향상
동원
메시
물러
##EN
91
##더스
시드
##사키
맞서
여동생
공급
동부
다행히
수요
일부러
불꽃
따오
동네
아가
화려
78
동쪽
신라
조절
파이널
도달
적히
##EC
##츠키
그만큼
수집
문제점
그림자
본명
스토
파견
클로
학과
자는
복잡
종이
지켜보
뛰어
잉글
쓰러뜨리
상향
##려움
소드
유비
연상
84
기초
신세
일상
니시
##OL
영업
연관
치명타
키스
식물
##돌리
현지
매력
##식간
부품
전적
##ry
최상
암흑
순식간
폭격
편지
##lo
무난
달하
작동
전방
찾아
학살
구현
##크스
CP
##퍼스
게이트
지르
그래픽
교황
시위
점차
이마
92
##드라
##어스
법원
토모
97
맞이
콘서트
##LC
코믹스
노예
대우
신인
아티
지도자
세포
해체
청년
프레임
충청
전투력
86
수송
마술
me
##시코
크리티컬
사자
##버트
입력
복장
고향
둘러
오빠
디아
국립
바라보
사토
호환
추락
서쪽
프리미
제이
수술
기여
모바
스톤
저런
드디어
그치
토리
경비
69
천사
콜라
한국인
반지
##오카
창작
레스
조성
아무런
간격
##레나
스마트
떡밥
##오프
189
생명력
출현
헤이
##노스
닌자
베트남
심판
An
폴란드
마스
해설
추격
##비전
제자
쓰레기
꼬리
블록
조용
전투기
엘프
##티나
인근
구체
개혁
##히로
만든
##둥이
##스트라
##어버리
it
검색
US
몰래
의상
고용
##IT
is
감시
다시피
의료
일제
구도
아무것
규칙
사쿠라
주먹
##디아
구속
성과
접하
무효
1992
은하
장교
마리오
후기
다섯
스카이
신호
막장
연애
NPC
##브리
돌아다니
통상
조조
토론
##타로
에드
##주시
일원
연사
슬롯
##ust
신성
실드
MS
대립
대대
김정
고교
##보내
차단
강의
전라
길이
신규
신분
놓치
##어도
연락
##톨릭
##특별
옛날
총기
어깨
나루
진지
예외
탱크
잉글랜드
범인
노출
경험치
250
마리아
미술
이래
런던
프린
입구
윌리
##보드
창조
투어
라이더
모바일
되찾
KT
##스턴
글자
정복
##일리
부위
##모로
동작
득표
농구
##도로
쿠키
불편
##50
아크
1993
메카
환상
글로
가시
디지털
##ore
요정
앞두
제어
승격
활성
전직
무료
마도
언제나
학자
이랑
양산
소총
##자키
미디어
바보
코인
고문
고생
Ar
##파이어
평타
음성
유희
권총
박살
De
이리
거짓말
안습
헌법
세월
총선
합성
##BO
잠수
출처
여러모로
극단
##영상
자이언
이득
공학
참전
대량
침공
스키
라이프
대체로
법률
이슬람
블레이드
##FC
반발
어택
이날
83
상호
수영
일자
가톨릭
89
사마
교전
간부
인증
헌터
##우드
보고
##저히
Te
출력
북미
상상
호평
정류장
93
띄우
중대
폭주
환승
알파
보석
합격
연도
상점
동영상
하고
101
사양
개정
총리
94
의무
79
기병
키리
적어도
결성
유대
아일랜드
re
지휘관
서양
마이클
제법
가량
전대
스웨
터치
원소
인공
반하
##FF
On
기습
사이드
다이아
마루
끼치
근육
예비
휘두르
분기
머신
태우
##일드
잖아
매니
##임스
##란색
제작진
메인
com
FIFA
##one
87
동방
히데
이재
MAX
대략
요괴
구출
가속
경고
탄약
이자
슈트
##se
바이러스
조심
지진
의혹
##미야
묘지
파일럿
세르
삼진
리얼
유령
박근
소화
축제
회차
노르
AI
사우
전면
요즘
이시
부부
##AC
1991
대항
##ip
##로나
포탑
##먼트
탱커
플랫
어린이
##워크
화학
리아
이내
발달
다면서
베스트
멋지
갤럭
패널
가게
노멀
실리
하수인
상업
나아가
플로
계정
똑같이
훔치
개체
예측
타케
취임
문장
볼넷
블러
##ere
자금
현역
보안
불법
플레이오프
멕시코
오가
네임
국방
정착
##ity
레인저
었었
DJ
호텔
메모리
자매
유행
캐스
어둡
핸드
미츠
##RE
특화
트로
익숙
##PG
제임스
MC
청소년
##ath
용사
갤럭시
묻히
결론
워치
리메
어지
SN
들어서
파크
##라이언
넘치
스튜디오
도망가
김영
이즈
형사
검찰
커맨
신설
원자
무역
저장
##end
피부
구멍
BGM
움직임
리스트
##창기
##고리
일시
육성
##릭스
예고
1970
도발
한방
연맹
소닉
##네스
빛나
리치
개방
FA
사제
부서
쿠로
냐며
루시
##요시
1988
스미
카타
신기
식민
불러
주식
##끄럽
##조리
식사
레이스
합의
조약
정면
길드
관할
긍정
역임
으니까
감옥
고백
파트너
차리
700
플레
구원
오랫
스톰
캐리
루타
대가
마냥
곧바로
마구
타마
프라이
이명
결합
전철
바치
웬만
Ro
와이
틀리
세이브
방출
찾아보
##데스
동의
박정
여유
인정받
##펙트
투구
전문가
초창기
볼트
소형
절망
처벌
어떠
!!
다스
진심
THE
카스
사이즈
방지
주간
강철
오늘날
통치
바위
여지
잡지
ㅕㅆ
기구
배차
##레이터
융합
국왕
반사
너무나
물러나
좌우
흥행
##구리
누적
##성기
아기
팀원
돼지
포스트
의존
번개
방사
커플
장악
##특별시
##디언
영향력
떠오르
착각
리메이크
##코드
위장
MVP
##ect
그동안
네트
정치인
목격
외계
미카
야스
기원전
에서부터
서울특별시
클리
아끼
아빠
포트
레이드
대리
랭킹
호주
망치
분량
내성
Wh
커지
##스키
내장
안드로이드
##OT
차라리
논리
면역
의뢰
인연
단장
고지
해병
루이
챕터
시즈
혐의
CC
브레이크
게스트
협박
유치
요코
칭하
Se
국군
코미
양쪽
에다
저녁
He
빌드
대지
포르투
지능
태그
마침내
확대
보관
변호사
골든
Le
##티아
공지
각자
타이거
박근혜
불교
AK
는다면
동화
홀로
윌리엄
태평
공무원
깨지
##베르
토르
최소한
괴롭히
권리
떠올리
##지마
오사카
오카
손가락
Me
무덤
접촉
재산
몰아
그대
먹히
한번
배트
오랫동안
박물
터키
대폭
1989
##밀리
후속작
으려고
해리
188
필리
라면서
DLC
##부르크
하필
스턴
크라
htt
수수
##age
Go
출마
과목
실버
##IS
공공
전후
소장
연료
팔리
악역
오전
주말
하우스
올해
소지
섞이
##구치
노부
금융
이집
이집트
소원
본작
리드
'.
PD
연인
명성
웹툰
수련
소스
##다이
권한
막차
그럼
흐름
al
육체
패하
수익
비행기
##og
적대
귀신
##페인
주기
계단
정비
스틸
##라드
다가오
학부
대처
예능
로즈
##바라
알렉산
##잡이
정원
나치
시마
내구
##아시아
강남
무렵
스웨덴
금속
트레이드
피스
놓이
부장
연극
##ide
선출
휴대
명중률
컬러
kt
원칙
호감
카오스
어쨌
Be
My
슈팅
안내
테일
해안
마키
합체
선전
간혹
GT
접속
그로
편입
써먹
##회사
캠퍼스
놀랍
##ime
##세스
허리
최다
예쁘
##ake
이지
모모
개성
협상
ㄴ다며
블리
원수
준수
##ark
130
교차
담기
##OM
메르
개입
떨어
퀄리티
##ss
일기
시계
새벽
종목
특집
궤도
게시판
Su
작곡가
SC
둘째
박물관
KIA
##ire
상당수
김태
화제
편곡
애플
더라
##어나오
외형
기도
저그
스위스
환영
성립
인조
꼽히
따라가
고구
갇히
누나
트랜
복무
민주주의
카미
유물
SM
##려주
할아버지
AR
전신
##바르
독특
##프레
알아보
피격
초간
재단
이익
깨닫
호수
WW
한동안
Tr
식당
이끄
페이즈
지위
극복
수십
주사
헤비
사도
##가리
치우
재정
##ID
##ES
전진
우라
어른
##닉스
시선
철학
##무르
굴리
매직
아이스
회상
116
##ite
##ge
정찰
HD
wh
160
블로그
위상
연타
##iv
으러
소중
거인
영문
SD
아니면
무겁
처형
양성
##ound
기사단
캐스팅
식량
까다
메뉴
동굴
정글
대개
용기
오스트리아
my
문재
면적
비례
익히
시내버스
일찍
안티
트럭
리듬
##가시
은근히
##다랗
손해
클래식
우위
참석
ㅓ도
음원
조언
팬덤
집행
과제
구나
아바
튀어나오
신앙
고수
위원장
별다르
는지라
##mp
해상
##던가
##iz
대충
IC
훗날
타인
각본
원본
더더
증언
자국
##테르
노인
개시
SR
트윈
이중
세이버
커스
털리
측정
날짜
##OP
##가미
신비
예산
김민
마비
빼앗기
멀쩡
##쳐지
펀치
''
중독
매체
칼리
세종
적응
신부
더더욱
##리그
무릎
살아가
구사
멘탈
커맨드
까다롭
천재
1987
캠페인
원주
이주
미터
적군
해적
삼국지
##OW
국적
##큐어
교류
절대로
제정
Gr
허나
패션
바리
갈수록
##ome
하락
임대
대학원
스승
크리스마스
일격
활발
놀이
재미있
기적
녹색
코우
데모
정수
클레
하얗
이브
관중
결코
느라
마이너
위대
화성
IS
시아
명단
매년
히메
주포
##BA
죄다
호위
##덩이
십자
UE
과연
유이
하야
작화
개막
진보
with
##데미
몽골
##ud
de
투명
충성
계통
모자라
어다
Love
##LL
포로
내세우
탄창
한참
열쇠
##몬드
어려움
##반도
##미니
체크
바퀴
희귀
주일
김종
Pr
우연히
1960
칭찬
안경
유적
루수
남북
사후
##UN
사막
대수
아카데미
경기력
데려오
비추
드레
흔적
개수
140
자본
채택
##아웃
로그
모래
기르
##ord
자극
후방
구리
업적
아미
흔들리
예수
##마디
아메리카
화물
비상
전성기
이영
당일
미안
일치
피아노
사유
##가스
심사
강점
행적
결말
스타크래프트
스프링
##공화국
새기
보존
##MA
신장
으라
오직
첫차
상급
이정
강도
인지도
재현
부지
기종
선고
아티스트
김동
단편
개량
BE
인민공화국
##려나
주택
보라
무작
농담
사라
부작
기울
도우
챌린
출입
추구
거점
기아
취미
가을
웃음
과장
토끼
저작
##사자
포항
상성
자책
버스터
관찰
고스트
어지간
포르투갈
식민지
합병
니코
px
클릭
1986
생존자
일반인
네트워크
어쨌든
##비드
행하
소위
유나이
소송
맥스
새끼
울리
##ure
프리큐어
ch
유나이티
##ance
본체
경로
##our
메리
로우
이민
의대
##이즈
건조
어마
바깥
##카드
으시
##mer
스마트폰
공룡
기용
##ix
##양함
연금
괴수
모조리
판매량
브루
어스
##ick
포드
EP
Bo
##ice
막대
체육관
차기
영구
공세
흥미
탈퇴
파츠
상실
잠재
자세히
덧붙이
전멸
에리
후계
가짜
이스라
an
인격
일본인
스트리
UEFA
##치기
미라
캡틴
시달리
아즈
사형
유통
국경
포격
JR
코코
타율
##ax
유니폼
186
카트
제작자
고도
GS
코리아
노벨
900
도주
로고
터널
연패
불타
일방
무지
승점
피터
색상
자전
SKT
Un
생겨나
##라노
판결
색깔
상인
##이너
관측
명확
취향
드라이브
가상
통산
항공기
메시지
요금
커피
레이더
기량
화장실
거듭
할머니
잘리
치유
억지
선거구
##랭크
비주
화재
어드
쌍둥이
무라
내지
베네
구경
강요
언스
순환
귀찮
마린
라이온
여객
한마디
##oc
타선
##시로
미루
집어
##AD
이스라엘
Ex
##시스트
모토
가요
동력
루카
오타
위반
사신
사원
소프트웨어
신사
##멘트
##qu
칭호
수출
비치
##랑이
날아오
아마도
이슈
아이콘
다름
187
빨갛
둘러싸
선택지
주소
승객
##코토
포수
레알
OST
다치
##10
금메달
데드
등지
간신
터뜨리
몰락
##own
트라이
무방
##고속
KO
박히
대선
조연
가루
연합군
영주
##{{
스페이스
##ber
교장
귀환
도끼
수장
광역시
매장
적합
즐겁
연승
##나카
냄새
GB
캐논
##80
본사
아케
구르
넥센
We
타락
서식
소라
복지
##ys
실망
1984
남녀
동성
콜라보
구글
외전
매니저
DS
타운
항복
##20
이터
텔레비전
함수
안타깝
찾아내
초보
고구려
미스터
흑인
곡명
캠프
##카리
배터리
제갈
백성
익스
비서
{{{
라인업
개국
유희왕
##av
통계
단단
인치
유효
변환
그만두
교실
잠수함
아랍
1985
아시안
예시
AM
타수
##노우
발행
커리어
혐오
양자
거미
오라
공업
간주
깔끔
##정부
법인
일대
##라이트
반동
##럼프
주자
sh
철수
스터
천만
인종
마드리
CPU
정기
포위
##ame
주역
중립
에르
레코드
##orld
유학
##old
용량
서구
고개
논의
드래프트
허가
인디
105
관람
노동자
표지
너희
글로벌
마드리드
조별
##든가
카츠
커다랗
##시타
##로디
##저스
##OC
##일보
후손
기생
흘러
수류
내전
마약
김재
예언
끊기
싱크
히어로즈
아쿠
공성
하단
즉위
위성
사이버
벌레
상단
휴식
티켓
##NA
복구
##리스트
디스크
연령
음모
스리
보험
메달
생략
CF
##위대
##lay
2021
LI
승률
.."
고위
태평양
고작
스텔
곤란
분쟁
근본
##ont
##머스
면모
좌석
추억
형상
##ies
도적
김대
감각
급격
##데이
표면
문구
최신
카운트
차이점
추종
준우
노스
후원
시그
그러니까
그랜드
적당히
자폭
중세
수류탄
클랜
소대
AD
언덕
오크
사명
상술
대인
치루
경주
담배
아르헨
It
실전
왕위
모니
언더
마디
학습
관점
허락
성남
다름없
히나
파르
고맙
KBO
마그
정차
더럽
연예인
입지
후술
오마
균형
SH
##팩트
일족
제약
3000
구석
모노
전주
아르헨티나
타로
##려들
후배
분열
지뢰
용서
떨어뜨리
지리
액티브
지경
DF
증오
취약
스트라이크
기숙
베리
체결
서포터
토벌
크리스탈
폐쇄
하차
공방
꾸미
침략
리타
숙련
시노
진압
아츠
##프리
더러
머무르
시너지
전이
데려가
사정거리
자막
침입
코르
산하
행보
제출
구슬
레슬
비스
미묘
lo
주차
해피
부각
어뢰
저렴
법정
부딪
쓸모
일본군
입대
간접
제트
XX
분해
텍스트
LC
이듬
워커
##키아
##마크
들키
드럼
나폴
##하면
무척
특전
정화
##OD
중첩
네요
루나
튕기
##US
이수
약화
블러드
아테
호흡
평생
우르
##ann
기관총
쿼터
가만
간신히
소방
세븐
니콜
총알
논문
트랜스
오랜만
유발
연고
뜬금
##자드
가동
##크라
인권
알아내
드롭
CV
##블린
이토
사령부
눈치채
MF
생년
신전
세인트
통화
거울
잡아먹
헬기
경상북도
찍히
NE
흡혈
악화
카카
여우
로버트
크림
공용
곳곳
동인
방어구
모시
나리
##어마
SE
조이
사귀
남아
다카
이혼
##pe
##베이
전파
플라이
혹시
인용
프란
강자
125
##PM
결심
토너
지불
부적
아이언
성당
##40
맛있
뮤지컬
네오
보건
찬스
자이언츠
##sh
저택
공정
WWE
윈도우
.....
악당
자녀
이듬해
페널
중력
어마어마
주둔
성별
아동
반전
히토
앨리스
미즈
애정
깨어나
##말리
제작사
암시
요인
##30
금방
내보내
보완
상기
이식
스크린
구름
복합
##io
잡아내
금액
되돌리
수석
##VD
엘리트
격추
AS
참모
양식
시상
긴장
온도
토니
En
##네임
스팀
시카
라기
용인
딜링
##싱턴
##은행
1950
원리
리온
시인
구미
악기
큐브
가라
발리
배포
라틴
1982
이온
보호막
충실
구축함
your
물리치
후계자
아저
##거지
##천시
헤어지
부자
아저씨
교과
유력
CJ
백작
결전
뽑히
동양
김현
낮추
토너먼트
우에
사인
부임
착하
대왕
의학
헨리
개설
##배우
초록
절차
얻어
천안
불사
;&
채팅
유전자
백인
##리나
임신
DE
상세
서서
상관없
열매
Pro
기상
더군
소유자
해치
야생
낚시
임금
##oo
빠져
하루카
상영
바이오
170
지라
교도
웨스트
루이스
본관
베타
정예
브레
증상
##에르
탐험
##센트
비아
공산당
뜨겁
드라이버
호기
1983
창원
답변
묘하
##라기
전승
실종
기인
법칙
선두
존재감
안기
코미디
학력
##비치
마주치
동명
도둑
수백
광장
견디
언젠
언젠가
걸어
방송국
##ave
업로드
창설
도박
발렌
악명
리뷰
항의
엮이
로리
릴리
그린
처분
뱀파이어
Com
문재인
짜증
천하
강원도
미네
중량
##포트
대책
행운
수호자
엑스트라
관리자
동점
에요
##ream
콜로
관계자
재밌
모터
분명히
##ond
기숙사
은신
##LE
만남
미키
의장
##누스
루비
미쿠
테라
쏟아지
승인
생명체
다이아몬드
##나미
정통
전동
진주
##걸이
인력
잔뜩
##팡이
이드
##월일
that
조리
치즈
기둥
와일드
에다가
보드
##도르
카와
1500
정황
토지
니스
##스럽
호칭
물고기
여야
캐스터
농업
단축
##를린
칼날
기름
난입
##iss
디지몬
크레
건국
유산
##ION
건드리
LV
UP
##플레이
무관
기후
##IP
아틀
##번트
##우마
심심
감지
성질
리오
도루
창단
잃어버리
유독
창고
부드
할인
문단
생년월일
부사
해명
투스
탄환
려던
지치
블라
EN
가방
ED
학위
영광
말투
참가자
서번트
논쟁
출구
##필더
미드필더
외계인
삽입
##펴보
살펴보
운동장
##ian
시공
하향
유기
해골
내각
프로필
부근
5000
상륙
##유럽
분신
막내
식품
울프
플래시
존경
유인
시합
항구
경남
주술
분대
한쪽
복제
장인
가공
미만
끔찍
발굴
그르
비전
사살
마블
##태우
그램
레딧
##어하
콘텐츠
부드럽
부스터
사법
유격
진학
우정
뛰어넘
##티스
준우승
정교
도라
주니어
그레
딜레이
디젤
->
로얄
##투스
요약
코트
엔젤
##게임
그렇지만
카를
왠지
아키라
전제
수면
승자
퇴장
손상
밀도
집착
루스
독재
슬로
태국
선제
샌드
통로
공허
민첩
오디션
시리아
##커스
상식
##운서
2022
스위치
아나운서
걸맞
시라
##TV
체험
휘말리
레지
by
동계
학기
깔리
시트
워싱턴
감추
헝가리
분포
##텐도
닌텐도
##카이
##60
시원
he
##셔널
BL
학문
작년
수명
Br
스쿨
하츠
마케
두르
Co
헤어
과학자
##세대
고리
훈장
커녕
##다나
호소
께서
불펜
##베스
철저
싫어하
전북
보충
##우리
##갈리
갑작
근대
단원
반박
회담
##소녀
나츠
여주
국장
하이퍼
배정
방위
자전거
??
공화
노바
공립
트럼프
##필드
##rom
##ory
##틀러
사용자
스폰
덩치
go
중형
비주얼
질병
옹호
펼쳐지
##ace
스트레스
기재
백제
111
배출
Bl
돌입
단행
고객
타석
##Hz
휘하
지사
격차
안녕
평양
##쟁이
&#
기운
185
깨달
마스크
토마
1945
그럭
대거
리스크
삼각
##카이도
오키
##세서
가죽
##포르
라니
웃기
경전
##던지
빅토
##저럭
임기
본진
디즈
데이비드
세부
웨이브
인질
출격
오염
나마
위안
그럭저럭
싸이
시신
소요
##신교
트리플
신도
속이
어필
##TE
DVD
##게이
마감
마우스
케인
요한
기갑
##oth
경상남도
하마
미나미
배트맨
축복
Or
##산시
파편
라이플
영지
##주교
하계
조기
파동
이펙트
##틀랜드
스펠
이글
나미
한반도
축하
실책
동남
처지
철거
중국어
완결
소음
헤르
장거리
##me
과도
피우
해양
개별
후퇴
지향
변수
차체
##하마
침묵
갈아
와타
원문
팬텀
보이스
1981
리카
복선
##ows
토크
##부로
물체
;&#
구별
군수
적중
##MP
메이드
날카
약탈
사회주의
상담
트롤
막판
##키지
치킨
플래그
우세
##TS
스트리트
취득
무인
브로
경직
기동성
##그리
##타이
후자
필리핀
간단히
남매
##먼스
왜곡
연습생
약물
손실
결투
슬라이
##무시
내일
근거리
솔직
브라운
부실
노조
두들
무작위
##키퍼
성전
신나
집합
##에이
규격
1979
지칭
주류
라우
부착
집권
수능
동급
급하
흰색
##화점
국정
테츠
선행
##아다니
개발자
날카롭
중시
패키지
넘버
센스
##IG
밀어
##aw
교토
멜로디
##경기
만주
##ale
수급
독일군
CG
스즈
바쁘
야수
전망
골키퍼
망가지
Sc
그날
유전
피트
유성
##다보
파생
최상위
일당
폴리
특별히
무산
영화제
리프
라라
신발
최적
양상
기세
For
엔드
##든지
원조
무사히
캘리
괜히
##프리카
서기
오이
베를린
즈음
##ike
끼우
##하시
핑크
모스크
모로
대포
마법소녀
프리미엄
킬러
##야수
사키
##네시아
타쿠
##ep
업계
SNS
##자와
간간
선조
##ach
##레일
Cl
여러분
##man
##공항
출루
질리
이웃
야구장
청주
페이스북
장탄
주행
Dr
영원히
대치
응용
175
바디
권위
진격
왜냐
##irl
기호
록맨
입주
첼시
안개
##ile
뭉치
Mo
부동
PV
##OU
서서히
임팩트
계시
이와
협정
중복
RPG
동경
해산
##바닥
장사
호랑이
여인
더군다나
선임
야마토
102
폭행
챌린지
투쟁
원형
당대
며칠
초인
암살자
매번
벨트
후임
프리미어
관여
직장
올스타
무시무시
##메이
106
117
최우
호시
GP
플러스
귀국
연산
챔피언십
악몽
프로토
개신교
##토스
오스만
나르
FM
개장
##ink
서클
OP
연구원
슬프
고장
신자
확산
추방
BB
##ial
##철도
동아리
##하르트
천연
Sk
사립
합계
잠입
엘리자
수비력
끌려가
퍼포
##아이
##우치
퍼포먼스
수립
페널티
합리
어이
인방
구성원
LA
제독
지팡이
##ish
115
공수
에릭
중장
무술
징역
##여객
권장
인피
조상
선사
놀리
##VA
주관
성경
배역
해킹
##아키
긴급
리라
UN
레일
Team
감싸
비틀
상한
배급
수동
Bla
히가시
체인지
독점
이종
돌연
##승부
물량
장로
시크
CH
파란색
임의
##런트
우드
##플렉
메이커
에디
##버그
기동전
폐기
데이트
DD
의외로
국어
국당
김경
가디언
ㄹ게
청와
하인
SU
회색
저하
미국인
가만히
사무소
쇼핑
트루
ㅂ시오
풍부
신입
라그
해내
나비
일람
##어놓
##데드
##II
스캔
##ower
출간
평점
마물
김상
건네
##쿠라
세팅
코난
모집
##운동
조명
복원
렌즈
대조
은지
Ne
배달
트릭
청와대
##래시
언데드
프레이
야간
공백
면허
스타디
명백
공인
제네
지연
포즈
스파이더
바둑
안양
화산
광산
전라남도
모듈
여전
장신
증폭
뱅크
교단
만만
전무
일화
##IM
냐면
목사
육상
행방
유미
억지로
감동
만일
다가가
와카
택시
듀오
로빈
간호
명의
기장
빌딩
뽑아내
라이너
재회
엄격
##숭이
이라크
방치
김진
아레나
거스
무스
끊임
세리
승무원
##슬라
여학생
##GE
분당
즉사
택하
Star
##오루
감상
궁금
혼돈
##크로
장미
평일
BS
잠들
우주선
피닉스
썬더
대단히
발목
버섯
신학
매출
산맥
우즈
규제
유출
계수
불량
사리
광선
타이거즈
자비
추리
캐치
##키스탄
통틀
천문
청구
부서지
수색
김기
센트
오메
we
##99
국무
포켓몬스터
시사
코멘트
DC
고소
##벌레
수비수
베이징
And
ID
350
고블린
깜짝
All
PR
우월
국제공항
재학
되게
처참
##!!
상관없이
우익
해머
Wind
실장
출범
##타카
박지
##히코
Man
본토
버드
드루
합동
배수
벌리
축소
바스
시상식
실내
만지
기쁘
##체스터
War
##ass
뚫리
히라
바르셀
포장
안쪽
질투
바르셀로나
혈액
고로
페리
비웃
심의
유언
스탠드
조롱
우유
뒤지
##번에
다운로드
라이온즈
탐정
승진
디즈니
토시
사이클
니아
당사자
운수
파이트
토미
수직
온천
LP
에픽
##gh
난사
알라
##11
세금
협의
여섯
쿠라
리가
치열
스타디움
태풍
따뜻
##카락
평론
스텝
##ib
##pp
머리카락
108
메이플
자꾸
360
충청남도
스미스
파멸
up
의자
서포트
기리
112
루크
##orm
한두
캘리포
권유
파울
fe
##ft
실현
체감
골렘
극도
키타
##민주
압력
소용
시외
나기
인접
우치
정발
오로지
기력
검술
뒤늦
전당
여파
황후
도저히
티아
시바
세라
타르
모험가
특급
1978
##tle
스테이션
New
젤리
사이코
##블로
손자
탐지
낙하
One
##릴라
캘리포니아
나노
모임
조용히
마코토
반부
배제
중지
##도리
##ous
비유
러시
아지
오락
##스티벌
페스티벌
##렐라
분산
103
##가드
단종
지인
지목
직선
##사이
SF
물품
루머
Mar
반감
묶이
##CG
마카
비명
범죄자
전남
신용
아쉬
스테이
스티븐
중순
일요일
프렌
AKB
맥주
서머
가난
리즈
어시스트
##려받
##sp
조르
디바
로맨
강등
붙잡히
스태
주최
1973
나스
주교
폭파
케이블
오우
스핀
넘어서
##amp
동반
토큰
함락
##now
힙합
##ms
##ment
재개
리버풀
이글스
드림
려다
기부
센서
생전
루피
캐시
로이
##70
꼬이
거북
조커
수월
##yle
실은
농장
To
부딪히
추세
불행
무승부
강사
##atch
베테
유의
184
토키
암호
조우
낙선
막아내
체중
넘어지
명문
능력자
타일
##란히
인자
IN
고속도로
카구
김해
기수
ex
수염
좌절
토요일
중부
연봉
Part
당당
비극
대성
드론
원시
아가씨
신속
개척
명목
ON
중화민국
소니
여고
스와
깊이
모스
기묘
김용
얻어맞
진상
빨간
더빙
수습
훼손
CS
음료
128
배드
##나오
조카
구조물
입자
BR
나요
패전
##케이션
두렵
주체
바론
실시간
살아나
후회
막상
경악
극히
엄밀
##hen
KR
Gam
던가
고시
183
히틀러
##ING
코마
되살
까이
##구나
믹스
##기에
각지
변동
영감
도리
##페라
억제
##ree
산탄
혜택
1974
채보
하여
쿠데
유망
##ae
##ase
나루토
듀스
집어넣
에반
혁신
상반
PP
리처
배려
질서
총장
##64
장성
잠실
경북
되돌
World
대시
하프
구동
재건
ㄴ다거나
국판
알바
복사
번지
휴가
샤이
도장
구장
핀란드
1972
노가
바지
호남
힐러
선수단
날씨
꼬마
찬성
철권
반짝
초콜
쇼크
포탄
견해
말기
계층
해병대
다투
벤치
이타
그랑
##베리
대행
마땅
쳐들
##불명
##구장
시로
지수
##az
슬라
고증
스코틀랜드
##사리
투척
사퇴
동해
##방송
닉네임
에로
천황
첫째
아이러
유재
수여
야쿠
장탄수
그라운드
갈색
##노리
##더라
사무실
트로피
퍼즐
레온
역습
가담
알레
달려가
운송
걸즈
제치
근원
거론
유니크
JT
중동
사로
동행
공격수
엑시
##저리
프랑스어
네티
장례
샷건
수지
##블리
##ear
때려
동서
짐작
최저
ㅂ니까
산타
거칠
확장팩
감수
기뻐
기뻐하
AN
키보드
동아
여의
##ason
제갈량
시비
라즈
유입
보라색
220
평하
##12
빨간색
공감
1975
뮌헨
So
무용
함부로
마일
상사
세자
인재
돌보
어쩌면
포스터
고무
래퍼
##러그
노란색
잭슨
짐승
오브젝트
인과
퇴각
백화점
##느리
##브라
##AY
GO
재직
여럿
영양
왕실
특별시
매주
가구
덴마크
보좌
##돌이
마오
대령
##MS
인도네시아
##직자
결제
진급
클린
각오
1976
사관
엔지
알렉스
##are
소재지
라크
베어스
양손
패밀리
안심
전날
정반
피로
반도
##리온
JP
세로
##iki
장난감
호불
호불호
강림
원더
와인
탐색
경호
상주
셔틀
페어
후반기
##사기
완공
트레이너
240
##지르
드레스
벨기에
여단
관료
차갑
연쇄
오더
##토니
도덕
흔들
요미
포획
모형
메이지
신선
카자
시카고
##저기
베기
프린세스
##차기
당기
포도
도어
사야
빠져나가
##미터
네티즌
연설
봉쇄
##ng
흡사
마계
문화재
거든
토대
지부
우호
생체
가두
역명
##bo
아베
갤러
국도
탐사
밀어내
화폐
타이탄
sp
막강
점유
##베이터
##ife
여기저기
선진
##박스
##루미
라마
유혹
결혼식
역량
우측
##gin
루프
학생회
세뇌
양반
여서
집회
##ven
강렬
소금
##슈타인
콘솔
뜬금없이
OS
끌리
려다가
##렉션
말레이
클론
시모
FW
출산
##레일리아
케이드
쿠데타
두들기
경찰서
신중
##AP
방탄
약자
깎이
날뛰
방송사
무실
교복
성분
tv
다큐
원곡
서바이
청나라
후미
우회
돋보이
콤비
선박
##ade
침대
부작용
ㄹ려
Wi
무공
모스크바
일곱
트라우마
빈도
위로
바나
간섭
박쥐
법무
중심지
AFC
디오
발명
트윈스
공산주의
폭스
아이디어
전동차
프라임
김준
비스트
스즈키
원주민
제물
##에른
스탈
통칭
소득
아이러니
윈드
##90
침투
포터
변이
##하나
출혈
로이드
트랩
##act
당초
연금술
취업
NH
드로우
##ank
전락
결계
창문
이스트
튼튼
리안
밀려나
##out
소통
강경
##천군
박살나
품질
하스
토하
http
오지
중점
MB
104
##싸움
##아치
오노
상무
##우트
소나
노무
##ork
콘스탄
##lect
##oll
선장
체코
글씨
판사
할리
123
허무
순양함
이순
단행본
부재
장판
항해
https
디시
아바타
히로시
홀리
도쿠
제재
홀드
전향
##aby
Do
마틴
명명
기하
마트
1971
혈통
명사
독일어
##른바
손꼽
이른바
책임지
강간
검토
성씨
낭비
리코
다스리
나아지
도감
##깨비
공대
블로
##ET
대타
##데레
쓸데
##ich
입증
분할
##ai
조종사
외곽
구상
시호
도트
발레
검증
##루션
기차
찰스
Up
전송
승차
장남
스트라이커
티스
부시
신데
##ey
1977
바이에른
~!
라가
공헌
히스
토요
페미니
트레일러
단기
관통력
##ary
%/
한창
##쿠스
경연
미미
히든
do
모니터
깃발
##추어
우루
III
장애물
끌어들이
워크
왕비
광물
존스
우승자
전격
오페라
김일
끊임없이
대법
백업
브라이언
싱가
태클
싱가포르
유연
넘어오
다지
루마
앤드
Fate
##way
마피아
부유
오스트레일리아
진단
사사
질량
술사
no
실상
매니아
그러므로
엘리베이터
182
신데렐라
성실
을수록
워크래프트
형편
라스트
LIVE
보고서
커스텀
강릉
대변
우울
부패
파도
간간히
입문
교리
##바야
충족
손오
비비
스나이
##저우
최선
범용
손쉽
저자
동전
135
설령
학사
재배
리모
중기
왜냐하면
파밍
고고
올드
원장
시게
검열
이어받
유료
대동
레이블
박정희
하하
고종
Ad
119
##UM
창립
연간
확신
사로잡
천천
ES
여타
특공
대접
사악
하반
are
딸리
##바지
올바르
탄핵
노르웨이
보스턴
하급
나폴레
압축
자네
초상
비기
키라
Day
일체
109
스타리그
스피릿
급행
1969
마산
근접전
맞붙
중위
중상
섀도우
단백
1968
예약
지선
공통점
나폴레옹
왼손
끌어올리
토마스
카시
평등
Oh
따라오
정석
##벤처
명분
크레이
제왕
일관
어드벤처
##orn
##타입
초콜릿
한나라
##모스
##pt
중고
한나라당
메일
유엔
시온
전생
쿠스
부속
조국
석유
미지
디자이너
##니시
##께끼
수수께끼
으려는
잔인
카더라
스플
강전
##르타
김수
트리거
케빈
플랜
##모함
곡인
불태우
##페이
마운
공단
##사스
##동자
구독
본질
##으로
지붕
이현
천천히
로보
단검
저기
메트로
흩어지
베테랑
Mk
터스
##의자
소모량
강호
군부
수인
친절
엔지니어
##능력
꿈꾸
리처드
스태프
코스튬
##가루
보르
망명
잉여
민중
라이언
바이올
질주
머물
##퍼드
121
##키리
단발
발판
홋카이도
관우
all
연수
갑작스럽
손오공
이병
선교
아스카
사촌
동정
동구
화상
카카오
씌우
치카
유망주
145
땅볼
br
비리
주식회사
성배
##라미
1963
그릇
기울이
총독
고스
니혼
lv
이틀
##다운
과자
손님
무제
##하루
고는
굴욕
버스트
후일
너머
nd
##네마
에이지
농민
레이디
테이블
쓰리
자제
친분
소집
107
크라이
##스레
프로게이
프로게이머
전라북도
##ah
메리트
도깨비
리퍼
하사
##iver
##어드
삼성전자
폭격기
##테이션
오메가
열정
="
머니
합작
파스
맹세
##슬리
178
현금
달아나
명시
교차로
이모
작위
Windows
어색
퍼스트
오케
항공모함
위엄
렉스
자율
극대
브라더스
RA
평행
김포
에드워드
IT
리틀
아아
강점기
왕복
단백질
쫓겨나
에버
할로
##마치
FF
미궁
그레이트
스케일
종결
조화
디펜
스택
지력
##ph
엔트리
지오
라그나
원숭이
ML
필름
이경
화해
점검
서명
165
##리스타
마타
백만
존중
##EM
Sw
파운드
시외버스
대박
윤리
천장
박살내
오렌
부스
스티브
##uck
카리스
도마
지분
자책점
가설
대전차
와이번
후드
일가
평론가
광기
완화
프랜
임진
AA
신동
봉사
그립
DP
화석
출판사
하이라이트
분자
##urn
계곡
카리
##군가
감자
물자
유치원
진에
터트리
피카
정사
블레이
인칭
과일
촉수
변태
서적
으라고
공신
매각
다니엘
엑시즈
고집
러스
유탄
사체
1930
여포
대위
보편
##소년
##ool
츠카
원전
스가
시골
자존
##ero
면하
누군가
시뮬
113
관장
마술사
초점
Con
표절
".
잊히
해소
Ph
교과서
사우스
입사
ne
병역
맨체스터
181
사족
유가
몸통
진동
탄압
하치
총합
프로그래
JTBC
노무현
##바나
이오
수천
호크
##ical
외우
꺼리
210
무실점
지역구
쳐들어
감탄
자산
챔프
줄기
착륙
1920
이대로
산소
무지막
무지막지
로키
##아들
란스
##anc
경사
주축
게이머
마케팅
떨치
NBA
서열
신지
오니
사수
중거리
다이스
모순
광명
터보
서방
BPM
Cr
임하
파랗
손꼽히
도심
페스
스포일러
검정
뚜렷
실체
친척
DPS
개명
##구미
부원
초청
메카닉
유격수
155
##마르
김지
타구
프론
힘입
부천
선로
##리안
국방부
지혜
토트
말씀
179
마유
표적
액체
동대
철저히
##리칸
고아
테스
##ung
어나
슬픔
브레이커
발발
호의
1940
깨끗
##은색
결의
제니
##ype
부산광역시
구로
알렉산드
##센스
향후
냉정
배구
장타
동속
미르
데빌
노가다
Qu
엘리자베스
성명
122
152
로프
##업자
매트
용산
불쌍
빙판
저렇
불능
##변이
돌연변이
겸하
마당
144
동성애
매드
미오
##ARD
에미
곤충
이케
지장
스노우
at
이노
일렉
마인드
주석
블리자드
1967
아드
북아
서류
모델링
##ens
참사
제리
다케
중구
집계
유니버스
레이어
때로
골프
우타
외국어
그해
광경
치안
스폰서
김유
플라스
목걸이
아깝
발탁
##very
비우
트래
##질랜드
미러
가이드
변장
뉴질랜드
실용
기질
씨앗
고사
##베트
행진
문양
모음
엘레
부스트
상금
김승
마하
사직
어벤
아마추어
민간인
내버리
##ence
##드러지
중원
##어트
amp
유아
취재
케이크
텍사스
무늬
##항공
시어
좌익
정문
{{{#
##시스코
아리아
워터
트윗
##테일
기소
도르
학대
수위
주사위
##ost
날아다니
박수
울트라맨
멍청
엄연히
워프
##상시
##젤레스
OVA
애칭
##끼리
재앙
나나
이라도
까마
근로
##시피
닥치
시조
카지
Station
누스
답답
전지
리나
포크
물어
이빨
우연
질환
레인지
하나하나
카네
녹화
정점
납득
자사
LO
예의
소비자
본능
절친
스카우트
##nt
국토
지로
쿠니
서울대
from
신하
고등학생
직책
각도
저서
##ble
열혈
이소
TVA
난무
압권
좌측
##ise
Fr
소생
에도
철갑
네이션
편리
경부
강민
##int
##ww
as
관직
발키리
워즈
패자
초능력
츠바
브래
주머니
정밀
일컫
KOF
실사
일리
혼인
헷갈리
라이즈
용암
침몰
정성
114
자칭
오죽
##과이
조항
작정
이념
개교
남동
어나더
##폭탄
드래곤볼
기스
##DD
페르시아
##타운
TR
만점
장벽
타츠
카레
##려워하
의정부
자아
IM
##지능
인공지능
덤비
##ans
##ign
사연
도색
이원
love
유스
발급
어이없
미성
이이
반경
아스트
교역
이진
##워즈
177
당국
예방
트릴
멋대로
대역
원로
필립
게르
##이동
엄밀히
포병
중국인
롤러
벙커
아자
적자
가마
거지
사투
박성
##이나
마음대로
DNA
아담
코토
재즈
CM
1962
학급
하이드
에디션
이어서
몰살
이대
리본
변명
인성
프레스
옥상
##ug
##야스
고가
안동
마찰
습니까
마모
Super
MG
고의
템플
##민주당
이누
초록색
##이치로
개구리
wiki
##oy
알아채
포착
##AK
오렌지
망토
협동
아케이드
펌프
갱신
##마루
방학
스타트
Dream
각인
비키
죄책
초과
격려
튜버
1966
124
매달리
법사
항모
남동생
민감
명나라
이명박
로라
극한
127
선동
시오
이태
스컬
로렌
루리
혼합
풍기
##하여
디스플레이
수신
만능
아사히
카운티
등극
용이
휩쓸
독립운동
베스
미인
달려들
부동산
통째
너스
1964
부채
원피스
##바야시
CE
수감
!"
##자치
생김
적절히
##지사
비평
들여
풍선
BJ
연소
마에
리사
##떨어지
can
종영
선포
쿠마
죄책감
덮치
코파
포탈
오다
슈퍼맨
금강
용자
추후
유진
방심
이윤
정신력
대피
USB
헬멧
교도소
쿠바
협조
www
발전소
후쿠오카
호러
##돌프
연전
부러지
엉망
450
고발
유고
인벤
감당
종전
도약
기법
다시금
제사
선원
정반대
은폐
##바이트
어설
신곡
연동
Pl
##vel
학술
##코트
내셔널
비단
뛰어들
스틱
억울
팔라
오른손
스토어
##치아
##IR
##나베
최순
카테
마라
해운
피오
다거나
블럭
##전차
카마
대차
##철수
왕족
흘러가
분홍
스로
##ode
컴백
##페이스
급격히
IP
덩어리
아이디
잔혹
this
공속
방침
시타
물려받
유카
철도역
경성
위쪽
아울
우마
절벽
##uk
아쿠아
내기
두드러지
보강
아무튼
Sch
페어리
바쿠
타치
빌보드
##생활
아인
녹이
크래프트
EC
제의
출동
득표율
구형
고립
사나
Ver
##ier
발각
욕설
서리
유동
청춘
쉴드
학회
사방
##VER
맞히
왕가
얽히
후유
그러면
162
공동체
사슬
무도
잔류
아랫
사무라이
생태
격렬
시크릿
ERA
인문
침착
기본기
측근
군요
연이
##헤이
La
내외
ㄴ데다
벨라
사물
Girl
##속기
##ash
진술
게끔
호드
회관
##나기
대세
##reat
실존
수소
분배
애완
리바
마야
키미
강대
나인
##역사
뺏기
##우라
그루
문신
마쓰
1200
야당
미아
궁전
현자
방사능
우크라
이행
정조
레이싱
ar
118
사와
이단
##틀리
코노
헬리
카리스마
신한
약혼
박자
모빌
전담
Season
애인
탄소
##공사
레나
히카
아비
함장
##usic
징계
퇴치
부가
스쿼
##크리
제주도
월간
반성
중재
style
직위
모욕
NO
카쿠
패트
태생
##믹스
워리어
반역
EXP
판도
사치
DM
존슨
##앤젤레스
로스앤젤레스
진에어
강타
흥분
Col
오퍼
가위
계절
가오
코스프레
제노
테르
1965
중소
러쉬
상부
tr
인쇄
타이어
잠기
유재석
이용자
왕후
노아
이카
김구
화기
##티노
##라이나
충청북도
탈환
궁합
물리학
카피
브론
모나
급속
종로
자이언트
WC
갈라지
1948
샘플
Vol
##te
한양
암컷
중견
##보기
시종
앨런
박진
벗기
로스트
말레이시아
##드로
건너가
점심
##IX
스탈린
아처
750
오사
정전
이놈
돌려주
금요일
불러오
Ed
흑마
도미
흡혈귀
피자
##사르
일환
##수리
안토니
중도
입원
비자
기동력
친애
##ose
퀴즈
우두
Max
항공사
1944
유우키
우지
##ail
##마리
Night
회로
은메달
난민
노랗
관문
사임
실적
등재
능가
한하
314
공국
고인
부처
황당
시범
##방울
마르코
호리
##리얼
라미
레아
생김새
안무
청하
자존심
방언
학년도
동메달
섬기
황태
섭취
피지컬
벌써
##사랑
대검
두려워하
방정
AV
스나이퍼
TS
성사
입시
##탐정
숙소
머스
망설
천상
적시타
조립
막부
코로나
건지
--
저글
대학생
극심
치이
그간
욕망
##ition
응답
##시고
토트넘
불길
요격
168
##ild
1946
석사
GM
불참
프랑크
탈취
스타즈
##서스
거세
에메
해역
차장
스파이더맨
아오이
그란
쿠르
얼티
오만
아메리칸
각국
##레아
뱅가드
과시
통솔
절단
무신
확립
할로윈
까마귀
##바리
##닐라
##시대
여태
나이프
그쪽
펑크
시시
##부키
스피어
테리
피난
소서
모종
##스카
Black
페르소
159
HE
부끄럽
칼라
나이츠
한꺼
헤라
희생자
한꺼번에
다녀
천국
필사
##구니
BC
##클린
Let
이별
요코하마
대안
##}}
so
인텔
하여금
ld
레버
필라
신생
미정
간판
경제학
국기
얼리
소소
##키스
아마존
##히토
부친
기껏
나들
괴인
이사장
테니스
강인
시안
나들목
##IL
해변
원판
일지
아리스
일조
저글링
점멸
##멘터리
스탭
Op
로맨스
병행
##파이
어원
히드라
##당기
마기
욕심
집필
##ody
도대
##msys
이승만
1961
ldmsys
토우
과금
지루
rd
들르
사탕
김주
목욕
고이
스윙
단자
대니
미녀
not
상냥
스매
리버스
##성군
페르소나
미노
코끼리
키요
김광
##워프
평택
지지율
교향
달려오
##러브
블라디
두껍
성벽
주한
사망자
승패
회계
오토바이
스케이
메디
히사
가해
##무지
##당초
항성
김치
##미르
사이토
하지
##타리
돌려
보로
그리스도
오즈
일일
고래
세례
멸종
지크
##gr
둥지
빅토리아
수컷
스크롤
다큐멘터리
주파
삼키
중공
광범
파고
ㄹ래
디아블로
BD
신작
##ough
유머
사르
전도
여주인
동사
직행
물약
##uc
AF
춤추
객관
##각형
해전
엉덩이
프롤
바텀
전임
침해
수중
만렙
식스
내밀
환생
믿음
퍼펙트
동북
무녀
##세지
밀리언
그랑프리
좌파
동상
빙결
라인하르트
부제
##진호
리자
##퍼니
도배
##프란
화신
보살
정서
일어
##33
퓨전
마도카
##메리카
아유
MM
해고
토라
대승
프랭크
북서
맛보
세르비아
원자력
상원
##와라
금발
GD
루마니아
진흥
##시티
모의
무능
mar
껍질
알렉산더
발사기
아포
접수
지각
벡터
외야수
노부나가
십자군
RE
도요
테이프
출석
간지
주저
수아
4000
워드
아무렇
김대중
불상
##모습
스텔스
##app
목포
미소녀
개업
명장
##티니
##aster
관광객
울음
1949
섬멸
스쿼드
리프트
약체
도대체
노릇
138
아슬
챔스
주입
연세대
두루
크롬
동아시아
방안
스네
##은이
##리히
서울시
샤를
에코
##스크림
##애나
##디스
베이비
아카네
둥글
##이센
OG
휴게
운반
일명
이니
Is
구호
en
눈앞
대국
##렉터
무자
151
두려움
카일
면제
하와
혼혈
공교
교대
##그라
퍼시
공명
##ari
공로
북동
##CE
##orts
와이번스
아니하
선회
스기
데몬
##ject
평판
사천
폭로
비로
성지
마을버스
스모
걸어가
##총장
천주교
신념
ㅔ요
평상시
AL
컬렉션
172
보우
타우
루미
인피니티
히로시마
이나마
사지
보복
꺼지
위시
그리핀
##고속도로
유메
격퇴
PK
아수
숙청
광범위
쿄코
드워프
대사관
대면
##OO
신관
휴대폰
이계
가령
컨디션
애용
Gu
CR
배리
집사
주공
남양
##긋나
풍경
가해자
편의점
큐어
정우
EU
숭배
장본
라비
최상급
158
le
리부
이무
카사
##아티아
크로아티아
스타워즈
소마
스카웃
컴퍼니
SA
신조
Am
천체
##iel
##다드
조수
컴뱃
##TA
로비
단련
제발
와타나베
단서
스칼
아폴
성대
감성
자력
남한
##트론
찬양
레슬링
달콤
수성
##0000
320
EXT
##부인
##oh
..?
카게
휴먼
냉장
우미
김병
떠돌
Time
정답
math
일련
으려면
##ye
독백
원한
민폐
광복
아르바이트
아쉬움
섬광
Mag
솔저
홈경기
테레
흑막
구제
##클리
권하
기온
케리
강동
테오
티저
점하
효소
EZ
법안
유즈
뻔하
수확
주차장
스톡
불화
시네마
제인
건립
가이아
남학생
추모
대교
상시
도스
##eth
지면
뒤쪽
상어
보직
타카하시
무선
##ings
서바이벌
##ats
균열
표기법
하도
##프라
176
##조합
라이드
개막전
장본인
눈동자
무슬
AB
통보
던지라
민병
Don
신임
사범
적이
살아오
일각
##오피스
바닷
이점
##ron
TOP
의의
무지개
배후
트이
리믹스
지미
단역
우기
GSL
UC
센트럴
걸음
대명
강아지
어기
투고
내정
인플
승려
자루
주의자
로크
문헌
315
CL
청사
탁월
카이저
오공
쿠사
비즈
순천
손잡이
고난
##바람
깃털
##eah
아이즈
ATK
##덕션
천지
어벤져
내면
재질
NT
문법
전염
얼티밋
다녀오
유라
실업
직무
그리하여
탐구
김일성
무슬림
하우
일산
126
찔리
제대
캡슐
##맥스
국민당
유해
##중간
결과물
시련
충남
##도전
##내리
여수
##운수
슬라이드
보트
가나
마미
이호
타스
악행
##ult
154
##총리
1958
응급
타리
블랙홀
성직자
132
이순신
염색
동이
스파크
ver
이세
흉내
자작
표식
금고
##성이
164
흑역사
총사
충고
신상
##나르
크라운
미세
매그
총선거
박스오피스
치고
김윤
소꿉
로열
독보
ME
발톱
쿠리
하나님
노비
1941
정의당
서원
친일
진도
자카
예고편
병살
리터
##inal
##ov
무한도전
유마
피드
리우스
라틴어
고조
다저스
호응
레이지
토론토
어판
마지
합법
습하
으리
보가
코프
표하
will
감금
iOS
심정
풀려나
그레이드
무비
재수
르노
병과
가왕
콜롬
계략
지지자
간파
당나라
수라
##느님
new
궁수
도사
KB
마가
차림
과격
군데
1954
니트
우두머리
성폭
바이킹
##널드
강수
LE
하느님
동등
주황
삽질
저항력
라이트닝
렀다
Mi
리볼
보루
이즈미
성숙
방울
완벽히
겨루
WH
배열
테란
##oul
쫓기
가미
강서
방정식
폴아웃
156
139
##바스
몸매
##GA
갈기
사료
유신
매기
##alk
태조
##==
거꾸
안보
취지
거스르
Ser
인천광역시
구청
어그
지표
통틀어
크로우
진하
##tern
플리
호스
오로치
like
허브
##yn
하드웨어
스치
전법
##ob
Your
응시
리츠
강습
218
153
흉악
레시피
##타르
제너
스콜
패왕
##up
손목
2023
##엘라
지배자
Car
마수
프로덕션
##빨리
아테나
맷집
##MAN
세미
오키나
##슬링
저승
생물학
{{{-
##베르트
발현
번식
이용객
프로이센
청장
나란히
##주의자
트론
안젤
드루이드
김성근
공모
무색
테크닉
먼지
##활약
상공
웨폰
장신구
코디
후쿠시마
지터
상의
태권
이인
교정
빗나가
완성도
미시
##프란시스코
반기
샌프란시스코
야망
이쿠
더미
##ould
선봉
디비전
급식
이리저리
버거
어드밴
엠블
##저래
148
유능
##제스
노라
맥락
##레이크
##reak
봉하
이래저래
벌금
키노
지성
충격파
##ions
난리
누이
라이징
후면
섬유
레바
떨구
짝사랑
핑계
셋째
마마
설탕
전두
##보우
오바
후반전
동년
167
브라우
##der
나열
재벌
이광
쥬얼
동지
법학
##13
미남
163
필두
양심
이영호
##able
카제
##레븐
신주
우편
표창
상속
##18
142
음향
Fl
감기
one
174
대법원
김선
초등학생
과언
능하
워너
전례
무궁
시간대
조던
맞대
거꾸로
##친구
##처럼
파이프
리리
접전
통행
##사고
1943
##고사
..!
종말
모에
203
복음
시뮬레이션
네스
양국
ㄴ가요
숙련도
커플링
휴스턴
놔두
무죄
범하
배상
##차리
몰려오
오케스트라
##퀘어
저격수
김두
네크로
도모
박탈
유카리
배율
스페인어
타키
최하
반장
연달
혼동
사가
애국
공격기
파우
하츠네
야마모토
당원
##무네
Gaming
스케줄
볼드
##문화
GK
장시
타당
드로
추출
##라이언스
크리스토
##터스
1942
자키
##결승
고우
엉뚱
ㄴ단
로제
부호
유타
##백과
통증
종사
##트랙
스마일
오역
10000
##ull
단의
##기업
SSR
##15
애드
어제
어긋나
쫓아내
대등
맞먹
##ll
##타니
ㄴ듯
데미
주유
가히
꾸리
##셉트
얼라이언스
수도원
냉장고
장례식
제프
137
맹활약
쟁이
사내
Min
수령
##니코
TP
##시다
절정
처녀
143
1956
se
플라스틱
달인
몰아넣
연안
버블
탄막
인명
황실
CN
황혼
무안
창당
카인
단식
RO
대외
pr
앞세우
##투아
가라앉
창작물
약칭
회견
시끄럽
주가
굳히
미쓰
월요일
##니즘
여주인공
노하
제자리
숙주
칠레
연고지
마스코트
주술사
염두
##FL
한층
초상화
생애
승급
역학
범주
정교회
바이크
깨우
##니스탄
음력
아수라
갈구
##상가
##립트
157
##재기
산화
밀레
수하
원화
진로
쳐들어오
사야카
빈약
원년
미하
이준
미트
차일드
사소
릴리스
현직
##더슨
영등
태자
레인보우
레이븐
##ube
토비
전학
##랄드
증기
LTE
제지
과감
##전사
카토
인체
능숙
##모어
오리온
죄수
구마
NM
129
공고
순간이동
##ECT
득실
IV
런처
러너
졸업식
헤드샷
have
폴리스
꼴찌
레슨
오디오
사우루스
시흥
외관
리볼버
한강
대군
오비
무너
무너뜨리
앞면
이오리
트러
찰나
평창
133
클라우드
델타
생각나
별칭
out
잔해
연막
오쿠
갈리아
##ICE
남미
##보라
이만
##물리
사당
관계없이
초래
##소수
유대인
카렌
투사
기관포
해상도
BGA
관절
축구단
싱어
페미니즘
대목
환호
Sum
146
시에
알아차리
코레
이력
바나나
몰아내
세키
호프
바그
반란군
가와
노골
무단
박종
설마
##니스트
1939
베어
득표수
격하
뮤지션
경찰청
밀어붙이
소우
체스
두뇌
136
##스티스
따내
230
순찰
313
전반기
십자가
북구
173
공습
청룡
단총
고질
방벽
한정판
라시
입법
HS
혹평
확고
바티
후대
크리스티
목재
차분
자포
너클
웨일
극우
쳐다보
##의회
##ica
un
망설이
##대사
공짜
우산
키드
##에트
코지
기이
스바
1959
화약
하비
##교통
경선
자회사
앵커
소꿉친구
기술력
내뱉
파키스탄
브레스
##박이
솔직히
지요
나카무라
프로그래밍
구독자
섹스
##제국
##회장
1900
다지만
개미
호출
기쁨
빙의
##che
ALL
BM
Play
태종
인터페이스
테일즈
영화배우
쇼트
As
방화
아래쪽
설비
끓이
공자
무식
1955
아테네
로지
##티넘
플래티넘
BO
랜서
플레임
지주
오딘
표본
##권자
프로스트
149
##ict
친정
빈번
##무게
몸무게
입국
지극
1936
테러리
브루스
##베리아
강탈
실바
##드리히
난투
키즈
비참
폐허
##스틴
우파
##토랑
제조사
발하
번갈
레스토랑
진구
맹독
ㄹ까요
오키나와
동로
카테고리
스트로
줄리
공천
134
극악
메테
남서
바인
도쿠가와
출제
슬슬
000000
팬티
Red
달래
시초
가로막
카오루
미들
리뉴
전수
치마
##ock
팀장
넓히
서장
해태
채찍
플레이버
##STER
set
##YP
##로프
박명
BT
힌트
심화
라파
혼다
##날두
##천사
얼터
경보
포니
호날두
프리드리히
la
샤오
사나이
부흥
수영복
##ater
서치
공과
OF
CB
하의
여장
know
저조
리셋
퍼센트
클리셰
파랑
나사
CO
찰리
포맷
운항
진리
수용소
147
EV
잠그
##DX
망상
##무이
캐슬
##주군
margin
##ons
멘붕
미모
히카루
오세
가혹
텔레포트
##IV
유선
1952
##ange
##MAX
나락
Of
대패
##풀이
수상자
야전
##ster
청원
High
Type
가의
해독
럭키
##생기
일러스트레이터
##소총
불쾌
양대
박영
1947
테일러
퇴역
라이센스
팩션
장갑차
##데르
박해
불문
무수
거느리
애쓰
재임
조력
##사관
복도
슬램
심야
냉동
실천
아이폰
##산역
BA
소행
##카미
파손
불가리아
오른팔
치바
둘러싸이
개판
시집
##무늬
정준
교육청
메세지
선형
플루
Light
준결승
생선
곡선
뒷면
맞물리
롤링
스콧
공손
왕관
##전설
가브리
지자
##왜란
교양
산탄총
##to
임진왜란
pro
##란트
미도리
클러
소령
제이슨
트랜스포
미숙
##에몽
경지
미스터리
스나
ㄹ라
열세
##ple
분쇄
미끼
##PA
배속
경질
차관
배우자
슈가
##14
책상
Gen
무명
자부
때려잡
증권
루키
##지않
증인
종착
TE
신세계
레슬러
슬라임
166
모어
트레이닝
사일
복용
개개
##BM
AG
펭귄
김천
Heart
격리
연말
악곡
비로소
편견
소매
NEW
어워드
로그인
상대식
주고
##메라
##ics
280
깡패
##레슬링
전두환
재림
지난
패스트
프랜차
브랜
비꼬
파괴력
필터
하이브리
##나리
진짜로
프로레슬링
스매시
외면
태미
##차례
##테스
켄지
퓨처
기행
보디
##교육
하이브리드
랜스
What
##17
봉기
인트
프로세서
수시로
##규모
반환
원망
중급
요우
심히
##지오
스트리밍
좌표
중후
섹시
고추
보잉
AE
열기
##고래
로브
안철수
프랜차이즈
소설가
##les
feat
포식
##구역
MO
미식
수다
심상
닫히
자켓
was
스팅
##모니
진형
시가
오프라인
스바루
실로
##세서리
앞뒤
마켓
르네
레프
사천왕
##바다
제우스
페이크
##티지
##즈카
삼촌
1919
웨인
제단
직통
동조
반군
%.
Tw
강세
##산동
골목
준공
Kor
슬러그
폐선
##CC
최정
##세포
222
선인
장학
Blo
탈당
감행
세일러
##nder
가르침
메구미
사모
냉각
드리블
용의자
러닝
GHz
템포
NHK
##텍스
보행
리플렉
Fe
음색
카우
하지메
면접
동문
나뭇
장편
##레드
##더기
적색
##ex
엄폐
소노
조교
착지
야마다
아랑
저스티스
원종
토막
김연
따라잡
재활
헐크
히나타
성기
타고
산악
이아
입양
세츠
우물
지문
신칸
불리우
애쉬
개그맨
##lass
철갑탄
공영
기피
##대기
굴러
의아
라임
술집
말년
##컨드
DI
Par
세컨드
속편
~"
##수수
1953
##사와
더구나
도호
킬로
채취
립스
##레이트
##전트
일삼
소사
거르
반론
기술자
정계
미호
콘셉트
GPU
달라
라바
위키백과
##ACK
PL
망원
##두리
꼼수
레귤
화소
배신자
모함
TO
고음
Mr
아이스크림
부당
하카
명탐정
방송인
헤일
##ors
라구
응하
LOVE
연기력
내역
체격
신칸센
두목
라든가
토가
호르
물가
주되
##바키아
발라드
이방
교섭
평안
하후
time
발간
원고
물어보
##어붙
서해
파문
냉기
카니
안드로
케리건
부도
전광
프랑스군
Good
고분
뇌물
경과
스크립트
투신
에그
정형
##콥터
픽셀
트랜스포머
모던
현존
oh
춘천
투성이
어린아이
버터
전열
골치
고산
캔디
330
심문
퍼붓
동호
스퀘어
카탈
자질
이에
LED
접어들
기관차
어벤져스
270
병종
패드
책략
##무실
여배우
화합
단과
어미
축적
##수아
사슴
그제
로저
##AND
MK
라트
공존
중성
수량
영등포
찌질
1938
레즈
범행
교통사고
마의
메우
Live
##프스
참으로
더하
성서
2500
베일
최우수
전속
하부
대중교통
하반기
##더링
방호
틀어
거품
호무
다중
윈터
도청
구절
하리
Per
카를로스
태극
최대치
쫓아가
테러리스트
클라이
레귤러
비타
인사이드
특훈
깃들
직속
로테이션
광대
심리학
FPS
특허
악하
엣지
##아슬
아슬아슬
그랜
##무기
전반전
순교
##볼루션
상행
속력
글리
##플러스
되살리
몹시
##ME
석방
더욱이
소규모
##단지
협약
1957
김도
##파리
마테
미수
조그
하시
소실
음악가
총회
방공
우체
세스
얼어붙
보리
패닉
225
요미우리
서민
담임
내뿜
뚜껑
적립
스텔라
영남
무고
즉각
##16
솜씨
중년
SL
불신
라프
오타쿠
우상
남작
죠죠
ll
유방
시가지
인구수
현황
파벌
총괄
카즈야
에메랄드
생산량
단말
스윕
신흥
순정
상쇄
서두르
저술
출고
파격
메이트
부류
멋있
영동
트렌
자본주의
노래방
사탄
스파이크
하와이
박상
홀딩
끝장
아홉
재빨리
##글라스
##eep
신병
상장
함성
간호사
두근
앤디
갈라
매지
루터
##포드
260
모양새
자문
저거
GTA
수평
프로모
차용
마초
혜성
This
Sm
Wii
석상
직격
#!
카디
##ott
다기
멜론
다이노스
적재
소비에트
페르난
저희
신정
초코
카이사르
원내
Rock
""
##리케이션
상용
클레이
호구
##HT
자각
장원
사투리
헬리콥터
am
핸드폰
짤리
##때로
급히
##문트
벚꽃
유지비
하행
지름
##코프
로스터
유나
여관
예배
GN
배리어
발렌타인
월등
쓰러트리
##델피아
필라델피아
고토
오락실
증발
새우
하원
##산물
##메스
##려보
털어놓
1800
Kn
프로토타입
넉넉
시부
쇠퇴
켈리
Li
##하이
양측
자칫
래스터
이례
호투
호세
휩싸
부사관
EBS
허위
유정
##두사
브이
플로리
만료
ab
바닐라
주거
행렬
격전
양보
핸들
윌슨
##받침
선우
부관
우천
공약
유니콘
군림
할리우드
여권
ㅓㅆ었
마신
브레인
야만
정정
포워드
미유키
설화
회화
관념
레이트
바오
중학생
미로
##파크
도마뱀
결함
호박
##킨스
리바운드
추궁
실력자
아르메
구타
유니온
풍속
농사
리조
본의
적성
가축
단정
프린스
에바
습관
후루
받치
MSL
밀집
술탄
169
##메다
Baby
타고나
몰아붙이
길거리
미티
야외
하라
기함
노동당
서정
안성
일례
편찬
IIDX
진수
쳐내
심연
히데요시
자발
리키
세션
##행위
재무
무르
유무
동요
페인
질풍
대진
징크스
게임즈
그래프
근력
꿰뚫
눈빛
운석
##anna
ㄹ지라도
유승
RC
##토르
송출
격투기
주파수
도시락
ㅏ야
의석
소리치
0900
##other
DB
교훈
불평
##자동
유배
##케인
요시다
정재
호그
리우
Ac
유로파
우루과이
고든
악령
조준경
드레드
민정
본가
프롤로그
카타르
탄탄
신수
실정
##IK
츤데레
ㄹ려고
우크
단속
##ins
##리우스
악어
베르크
일레븐
성비
훈훈
더라면
후안
##icro
바이올린
서태
니카
책정
트러블
wid
저러
전산
제보
청산
펠리
킹덤
##oss
회귀
##버드
우크라이나
550
##제르
Blue
요하
독서
유코
미팅
여당
포럼
수수료
스케이팅
Can
대출
서독
아프가
##ction
라던가
첫날
ONE
##ru
청동
재판소
자격증
원작자
분화
연루
황태자
us
##일으키
빈틈
불러일으키
말미
1914
특이점
수복
중추
밀란
스토커
자손
HARD
재위
샤워
독수리
우가
타다
줄어드
프랭
개칭
소시
##페르
보증
에필
촉진
##ood
에필로그
##코스
##기지
자크
Dark
김원
페니
박용
동래
경쟁자
##넘기
프렌즈
배송
1951
##세기
##르기
리부트
스릴
할당
##gain
클립
트로이
격침
##플렉스
마차
농촌
Sun
만루
야시
왕좌
브릿
라오
성수
가창
노트북
편안
##앙스
병장
첨단
피에
##na
##소스
구두
##19
오클
정동
그리드
장풍
라나
북극
진군
살피
요시노
OK
좁히
온몸
원활
기타리스트
루루
은혜
멀리서
몬테
유유
캐스트
사안
장동
히카리
진행자
밀어주
사다
분기점
Music
##land
결사
일품
##EL
해저
센티
야마구치
메모
야기
에일리
아틀레
서대
입체
크롤
남아프리카
총재
모친
홈즈
Im
대마
피에르
연금술사
더비
오시
cc
뉘앙스
##25
죄송
병합
지중
아프가니스탄
width
원천
장제스
완구
키트
토마토
로컬
자니
헌신
민영
당주
빅토르
베른
희대
파산
교내
셰프
##ty
진정하
수녀
아르카
KTX
윌리엄스
누명
미라이
연의
체형
제작비
게릴라
피치
미니언
##DS
페이커
고성
방과
갈아타
교시
##균관
제휴
게시물
말소
아울러
빠뜨리
때때로
나고
수강
MHz
정체불명
피츠
열악
##UT
##irst
잊어버리
본성
오리진
폭동
##agon
Bat
버릇
산책
하워드
수식
무사시
디렉터
##ky
내륙
매달
닉스
실루
비시
도라에몽
으리라
포대
Life
머릿
보구
용감
##지부
속박
요리사
Champ
유영
BBC
루이지
아르메니아
천마
초교
##자재
DR
++
분장
205
마운트
강팀
텍스
기획사
일렉트로
기성
안산
환수
돌아보
상가
휴게소
##놀이
단선
미성년
해임
성균관
주고받
##어쓰
##ady
니나
해수
대대로
직결
타카시
모범
불어
재난
브론즈
육지
격기
Korea
경순
고령
박재
발차기
커트
원흉
분홍색
쫓아오
##크리트
제스
창업
말아먹
일일이
찢어지
Summer
경감
Fire
1937
베이스볼
임원
매수
연하
##통수
선곡
슬퍼
유비트
열람
반대편
발광
아까
야심
##아르
라드
플로리다
back
양키스
김명
넥서스
목동
##무소
거니
##ium
탯이
리액
페루
살상
금색
탄도
OCG
달라붙
RP
석탄
자판
정벌
총격
환사
친목
엘리스
깨알
##토리얼
잠재력
냉전
##따르
백신
통수
포토
플레어
미끄
##혁명
쓸데없이
후궁
Ma
권능
튜토리얼
무진
프로모션
차선
스파르타
목적지
니코니코
미즈키
##베르크
계란
실무
항아리
무제한
베네치아
토이
파업
##ount
달걀
여정
합당
소극
자처
필연
na
동족
평원
댄서
합하
##로니
Sy
장안
데스티니
창시
명곡
진료
김형
일자리
성모
##커녕
650
매개
이창
충북
레이첼
토로
무상
아타
브레이브
넘사
에스파
넘사벽
도검
귀하
##박히
타나카
실습
개인전
##퍼런스
시코
행정부
저것
회고
빼내
밀치
비즈니스
드릴
저널
서초
금호
정립
##스트림
문고
강행
블래
성도
북방
CA
급기
남발
스캔들
흠좀
레이너
흠좀무
##테이너
부과
엿보
##ush
OB
코즈
귀중
대각
리턴
악의
이복
하타
이질
##현우
후예
조직원
교관
슈터
증후
어느새
기괴
줄줄
배기
사면
여진
위탁
나폴리
네이트
쐐기
쪼개
##누르
고속도
만행
호기심
프리즘
함재기
소동
야드
리마
험하
학점
BEMAN
계열사
##사이드
늦추
듀크
광속
적료
해적단
남극
다이스케
##곡동
시몬
치사
상류
설상가
Just
루팡
설상가상
스냅
인어
부여받
나레이션
미스트
휩싸이
감전
마요
주심
파인
##ne
##석민
콘크리트
한스
211
BEMANI
힐링
Ste
화내
시간표
지휘자
##ger
##현진
##마당
선구
로코
유난
자수
역과
상표
타이완
피카츄
까닭
파장
모닝
반항
살인마
화자
##베이스
손톱
##OID
아부
now
문어
러셀
##주리
204
대상자
박찬
뒤통수
피고
슬퍼하
로저스
가브리엘
공익
사찰
세레
이우
동체
퓨리
영장
우아
FB
강연
음주
펜듈
펜듈럼
세탁
사로잡히
지온
##베르토
But
진나라
지침
교향곡
성체
염려
GG
복면
서인
양호
선제골
Pre
바우
실명
선대
##pr
Ev
어퍼
슬로우
농락
##기사
##ution
가성
CON
돌이
박경
민법
점사
호노
노블
준하
##년기
숙이
똑똑
불로
##CH
투니
Gold
수락
미술관
네코
Out
바흐
한탄
지상파
3164
리엘
발칸
램프
어설프
가급
슬리
##메어
##블릿
STR
뷰티
연회
영리
##체스
지극히
끌어내
Over
출근
선방
DX
##미스
경찰관
솔리
한도
한발
월급
동탁
바비
세일
조류
망가
별점
캐리어
주재
스킵
Dance
콘티
스완
진성
##레스트
주황색
책임자
채집
합창
일본식
증후군
권고
Grand
##ally
신대
대표작
대공포
리브
이노우
##ator
증가량
##징어
1600
##노스케
마누
쓸어버리
day
개개인
관동
##산화
##미즈
구급
정렬
##inc
서지
예언자
호로
sc
스퍼
코다
나이트메어
##그룹
대주
마운드
홍성
각기
##GC
통신사
내걸
향기
바니
정자
부평
테루
한숨
행방불명
감히
호쿠
프로리그
논하
기복
아델
콜롬비아
UF
pt
캐롤
구단주
개연
예명
끼어들
라자
실루엣
현상금
저상
변질
투하
##토시
HK
전년
친선
##클럽
정세
FFF
일식
츠바사
신축
##air
매스
도메
Sec
여친
##저것
이것저것
스네이크
대본
외래
리히
전교
장기간
리베
##테이
고안
박명수
목요일
정확도
교직
##나드
##수스
신원
내수
추기
소피아
콜드
차후
암울
따라다니
열등
상하이
괴상
매너
전세
네놈
지자체
조영
##일라
오의
##준표
앙리
El
소수자
조달
##포스
##줌마
군복
번트
차남
케이지
출연진
접근성
Dis
외롭
tvN
샤프
광전사
get
코카
화나
접점
VOC
아줌마
##퇴근
이속
고요
##마침
반짝이
캐서
괴력
전류
##티콘
풍자
난감
1910
한성
검은색
추첨
영진
학계
TW
전리
트리스
퇴출
컨트롤러
차종
다짐
출루율
이변
대부
비장
이동하
크루즈
##보그
##ina
철회
미사키
백색
ARM
리트
케이트
간선
빌라
건축물
##바시
##얼거리
때마침
리에
카이토
어리석
카르마
클레어
완수
픽업
금화
꽂히
사육
자진
Mon
동창
딸기
레닌
이은
최영
베토
알고리
밀접
총사령
ㄴ들
Af
시정
경매
##꿈치
카밀
파파
beat
Win
수험
포효
##장난
간략
조제
군함
리티
예지
세세
코바야시
화가
##축구
서진
영조
일어서
만세
##라비아
해치우
일진
매출액
잔디
##휴일
##use
점거
무궁화
##네이터
웨어
다비
일절
At
박치기
Power
계좌
아이유
조형
스피커
딱딱
연발
횡단
경희
느니
예술가
그려
도피
간행
양주
여덟
코시
기밀
커비
SV
1935
성형
출중
에밀
연구실
사극
마르크스
고릴라
욕구
은밀
아카리
따돌리
러시아어
회오리
Fla
홍진호
처절
태수
파수
UI
고원
임관
힘쓰
DJMAX
6000
부대원
강판
알코
평민
츠나
대쉬
서사
존속
##츠카
태블릿
카가미
캐서린
빅뱅
Res
##장이
용맹
휴전
베니
소감
##ring
와이어
##아라
헤매
##카스
금성
뒤덮
타니
##여지
1934
가솔
스님
안면
오피스
경쟁력
정거
챌린저
뽐내
글래
회심
갈래
##동원
천공
자신감
but
상체
집결
우습
레몬
수요일
내야수
판권
코요
##프레스
달빛
##...
입술
##르드
모방
총열
베이더
바실
데이비스
미코토
매칭
##ART
1918
유난히
Fi
아카이
이용해
혈액형
미판
체리
민원
사이보그
케로
##범죄
다툼
견인
오인
##대부
256
우체국
채소
전전
후문
천둥
##ittle
티베트
김영삼
##LS
##라이어
man
페이트
유서
저렇게
솔라
공휴일
지그
카구라
대문
380
바주
레기
여사
##de
##XT
정크
ㄴ다던가
##ational
시드니
자유주의
VOCAL
오징어
이야말로
발트
Sing
런닝
카바
퇴사
원격
##관총
조지아
Rem
매진
풋볼
모호
상임
레이나
쇼군
퍼부
악장
튀기
강성
##소문
못지않
페더
평면
혹사
리전
튜닝
##외선
방어선
퓨어
중견수
유소년
카지노
MR
독성
타시
블루스
알고리즘
상수
노려보
초고
##be
김두한
호전
함포
CEO
##대교
제다이
젊은이
막아
워낙에
창의
피드백
FL
볼륨
유포
자바
사출
MX
섬세
인프라
경량
국사
기미
이성계
색채
피처
~~
동참
뒷받침
제르
##ello
로만
건전
제라
피스트
노엘
소절
양파
LCK
낙인
##ivers
영미
퀄컴
EM
애틀
베인
OPS
적발
본국
재고
연구자
웨이트
형편없
사스케
정은
궤적
부식
gr
패미
##루살
망령
베드
그리스어
키무라
자취
##루살렘
줄거리
로사
직구
고속버스
섀도
하임
총탄
카노
##ual
무효화
타국
기합
에우
자민
코이
발전기
부추
하르
정거장
허구
맥도
저리
가명
출퇴근
타나
HT
Rec
}}}
에티
공방전
가호
동갑
장병
애틀랜
MT
대칭
폭포
쿠루
군사력
SCP
핵무기
농협
##부시
##reen
나고야
당첨
Fem
타치바나
애시
에밀리
마에다
코스타
운동가
피라미
악용
허공
공성전
노이즈
성역
sm
무빙
##레오
속공
신시
족장
퍼스
정명
SG
어쌔
어쌔신
페가
직역
##해군
거제
표방
벽돌
옵티
##바퀴
집중력
포지
김정은
김택
수군
식별
##ern
등교
복싱
##리에
##심장
빌헬
넥슨
태세
루카스
판서
마이어
##af
King
실험실
궁지
조력자
선도
건재
가급적
유하
##ox
##회의
강변
명대사
##숨에
단숨에
메스
예루살렘
##에이터
##ERO
세조
노드
랩터
서킷
내구력
노기
테이크
첨가
결장
억압
통용
대인배
시립
소용돌이
두부
##ars
표명
블래스트
아이작
##riend
생산력
##코어
연예계
주방
##하하
카즈마
Ep
적진
세나
증세
##bs
수원시
막바지
##토미
괴리
뒤이
분경
역병
발상
신주쿠
아폴로
미야자키
광탈
에이전트
승천
MLB
지중해
군기
999
돌려보내
##연합
디펜스
IG
집정
초당
돌아서
예장
게임기
무전
##ts
초선
서식지
깊숙
블라디미르
이선
School
꺾이
단절
프론트
세균
파이브
근성
대제
고양시
슈퍼스타
동인지
흐리
요르
데우스
소진
데카
히토미
베가
히노
고베
##클레스
돌격소총
절규
Ge
Leg
End
대파
김창
Pv
##지리
길들이
둘러보
단조
##노미야
수비진
##itch
바루
포고
##IE
##칼리
1933
추적자
김희
무성
어인
박격
삼거리
스위트
카오리
추기경
남용
라지만
Miss
피리
엄지
##SS
출몰
##악기
##rist
양현
허리케인
지령
가뜩
급기야
Di
홍준표
미토
경신
매사
1932
스타팅
그려지
리쿠
설계도
임상
함경
##그레
기마
1931
##tr
착수
##atic
요건
카에
배지
킹스
성문
벅스
##사전
대명사
표출
민족주의
시스터
자유자재
131
네모
VR
레스터
별자리
포트리스
사사키
퍼시픽
쿠시
##일본
##린스
##스트로
제시카
상회
소피
입성
베토벤
발악
조폭
##질기
YOU
가뜩이나
배분
UFC
광학
중전차
오로라
유토
병단
##날드
옥타
인벤토리
Air
부럽
끈질기
아몬
광부
악랄
IDOL
BF
##ma
이노우에
헬스
just
실황
애교
양도
천도
피겨
토착
환원
도미니
럼블
흡연
##무스
극소수
아의
이가
##투르
인맥
1928
물들
스티커
초원
GR
다단
솔로몬
VOCALOID
##수엘라
##rain
어드밴스
##의사
위즈
쿠파
티코
##니클
스타크
리플
사부
깽판
품종
외무
무림
##oot
빨강
연호
##카즈
사우디아
장타율
선비
인테르
팔찌
쏠쏠
세간
진가
천적
랜턴
징징
모터스
수고
##슬러
응원가
시중
코타로
과부
당분
이치고
무어
일보
교란
올라서
Mod
교육부
태그팀
운운
안나
##재판
UM
왠만
플래닛
새로이
##ony
명령어
치명상
경유지
##셔츠
what
군벌
이화
넓이
키사
여고생
도도
오디
인내
징병
##ope
##ren
정유
커리
##노이
col
되살아나
염소
손아
불러들이
본디
편대
Che
재사
포털
내려지
총대
콘테
아이언맨
자주포
???
송도
STER
if
Sound
마커
정인
서드
베네수엘라
Hy
걸작
국력
볼리
다나카
스코프
반갑
단골
메라
ADV
고어
비늘
유목
관제
샤크
창병
##큘라
거주지
금전
방금
방황
종일
군중
굴복
철학자
취직
다이나
초사
도리어
직관
고폭탄
알프레
어우
여도
미끄러지
전편
예비군
'''
사교
밀라노
학업
이과
마이너스
마사키
두께
남구
담당자
글러브
교주
왕궁
##중국
##쿠버
진흙
##던트
뒤집히
위나라
##사우
부풀
비토
노조미
재팬
무언
국산
마이트
유교
토네
해인
##서야
제후
상반기
작별
정중
줄곧
##슬라비아
유고슬라비아
야쿠자
민국
손녀
지기
DO
가토
부치
##안군
Vo
토머스
한심
각색
강유
요동
체질
진공
치아
##원군
알코올
역설
연주자
디디
추이
프레데
법무부
##어먹
원호
##olog
드라큘라
바이스
광석
사업자
##iew
타케시
컨테이너
라지
청색
##UE
에일리언
광저우
관습
박주
미성년자
노숙
멀쩡히
조장
이치로
##세데스
휴일
메르세데스
안토니오
##ana
지망
레지스
우시
황족
##같이
아이리스
POP
슈타인
앞쪽
##스톤
천계
프런트
##데기
성추
아역
##UR
광신
##55
여의도
육식
연희
만류
서북
문과
번영
의거
화요일
벼슬
욕하
양면
재선
게재
##AA
사바
##려드
군산
효력
##폴리스
농도
즐거
##데아
하세
잉크
현명
학번
게리
카린
전념
EMP
MD
마니
망원경
해커
아치
불멸
피어
##쿠로
가솔린
카스미
옵티머스
주범
토오루
해운대
작아지
로딩
손바닥
사쿠라이
PVP
고독
저격총
애프
느냐는
애플리케이션
성채
리투아
고려대
리투아니아
night
SO
쿠노
득점자
유죄
##의정
플랫폼
##ield
신디
타노스
나날
성주
경인
부회장
친위대
괴담
타협
칼럼
재혼
뛰쳐
회복력
과실
로망
기한
사우디아라비아
제식
금기
리노
비오
메꾸
활주
미셸
백합
흑백
레이터
Cat
행태
CT
후유증
시한
스테이트
링컨
도널드
##카르
##변속기
오너
삼각형
매복
겉보기
이안
친밀
빼돌리
트림
##미아
유수
청량
Not
With
하야토
무작정
App
스루
조운
다정
수분
좌익수
don
아산
콜로니
바주카
생사
##oon
게리온
##거진
진작
나우
대용
김전
아야카
XP
굳어지
팔라딘
대두
일부분
임용
키워드
##티어
사에
##무장
##패스
골리
제멋
1924
피라미드
극찬
펄스
MASTER
##천동
빅터
먹방
건의
조율
##러미
시그마
##언스
빌헬름
총통
이윽
추대
가치관
이윽고
박준
선체
되돌아가
EA
WE
BAS
ㅋㅋ
양념
아그
텔레콤
농어
반다이
시력
##시계
가든
가가
안테
##ouse
##atale
카무이
후세
Run
재해
폴더
way
복종
##어찌
##슬로
Hard
브릿지
브라더
미타
섭외
체조
드라군
시위대
변종
Femme
광주광역시
분사
교구
다인
파고들
이마트
그닥
들려오
칭송
1100
조선일보
##블랜드
RS
빈사
쟁탈
액셀
340
가산
중령
언행
초토
참패
##돼지
클리블랜드
부화
소심
##elf
살라
낯설
설레
Rev
명작
무찌
##its
보답
아루
출입구
얼핏
바하
마도사
그놈
##먹이
어찌어찌
성공회
창원시
1929
추산
대잠
외출
페로
데이빗
성폭행
경장
애당초
서문
위생
한몫
폭발물
호대
촉구
미디
##니치
정장
택배
중앙선
승부차기
도호쿠
아종
스펙트
카도
미지수
확연히
아멜
##야샤
이누야샤
Da
뾰족
후타
기병대
전리품
채무
협곡
협의회
##레트
수렴
##마사
노이
카세
수준급
XXX
일쑤
학파
투르
HG
무찌르
쾌속
##언정
커브
피신
버지
##방향
의병
자연스레
강적
셀프
여건
연비
피곤
마모루
병살타
스튜어트
카자흐
셜록
214
정적
##로이
캡콤
탈옥
##먼드
동남아시아
위화
패기
효과음
쇼핑몰
봉황
안도
##저트
Get
접시
추석
설득력
아다
##Fatale
다던가
프랑켄
명인
소이
CCTV
FemmeFatale
반말
든가
바늘
데이브
겨누
동국
수작
무의
시구
장래
카가
도전자
듀엣
##징가
가로지르
서면
##암동
안치
자잘
근로자
이관
마징가
단층
예리
공채
이스터
경위
초식
꾀하
동물원
콘스탄티노
김전일
신이치
본문
##ane
선진국
충주
패트릭
dis
부츠
직감
입당
조세
손흥
광양
사위
박격포
Elect
대관
입맛
선교사
물려주
승기
키퍼
1925
환각
정제
동봉
토탈
말장난
종자
##사의
141
결별
##러드
계보
발효
온화
송구
웨일스
시동
Song
홈구장
사각
사용법
##인드
제정신
스폰지
식신
아벨
북유럽
충성심
##we
제이스
가네
케네
현행
##그라드
Ke
꼭두
순진
하코
분수
스크래
기각
수반
##75
##득점
##매매
쓸모없
목성
흑화
순조
익스프레스
치중
모라
VIP
가출
든든
알루미
특권
She
압살
발산
기와
유감
손흥민
마포
반칙
##라이즈
##제리
슈타
체이
홍수
포르노
밸리
안장
샌디
유한
들이대
아지트
8000
##무니
##치오
310
##미사
대변인
RG
bl
난전
진과
악세
트린
212
발렌시아
쓸데없
송이
윈스턴
상권
기만
대여
오미
##컨대
레트
좀처럼
액세서리
착공
SHOW
구자
침체
아즈사
##투수
1911
니키
##ecial
퍼뜨리
디에
사다리
호스트
미라클
팔레스
완전체
리포트
육박
향수
집정관
생리
술법
스왑
고장나
매거진
##제이
co
브란
빌미
법령
제비
허세
잠복
##asy
차세대
키리토
선발투수
최전
학창
마작
##케이
재사용
메테오
##라이터
가물
##MC
콜라보레이션
창출
프레디
시애
사설
리조트
수법
호조
대담
체가
마음껏
비정
##제품
만회
##지대
시궁
도르트
대강
에리카
작물
##아아
안드레아
임창
##히사
옐로
정무
불가사의
어처
평정
풀백
Back
설사
격돌
주주
상정
엑소
영락
김인
##눅스
RAW
최면
##투표
##ORE
비석
혼종
1917
##푸스
##주곡
수레
성취
폭사
미츠루
단테
베라
과반
농부
로드리
오리콘
스몰
제이크
호노카
콩고
편제
##부리
김혜
##조각
삽화
##ze
##테리
사마의
제구
탐욕
##나가와
타지
##네트
저번
Ang
Big
석궁
##66
아세
Comm
앞장
원동
시애틀
작살
##도니아
1927
입학식
꼭대기
바시
스플래시
순교자
늘어지
지아
부합
틀어지
Cy
DT
백미
알루미늄
선천
운전자
480
리눅스
신민
가즈
디트로
##용차
사과문
디트로이트
교감
자택
암석
광화
포화
시엘
소인
홍대
720
world
존댓
스크래치
존댓말
지바
팔레스타인
악보
공직
탄종
낙원
##유산
SW
거물
##벨트
애리
승계
검찰청
부추기
선명
##짜기
해협
##ness
넘쳐
와우
무자비
매입
불사조
틀림
##요환
##마이
프리즈
걸어오
라거나
김세
방대
##양군
수배
크로니클
동포
양동
열풍
블레이즈
겸임
항로
노브
코리
##ke
대전광역시
인민군
강당
##EX
사상자
느냐고
민병대
개종
화장품
황자
스칼렛
##ton
007
어처구니
젤다
팔꿈치
다이어트
##리즘
왼팔
차출
##링크
하드코어
가까스로
Every
다라
임요환
전복
white
되돌아오
아픔
전염병
##평군
더스트
국무총리
듀티
제이드
##포로
420
손수
와이드
su
서점
목표물
당당히
##ny
조선인
속삭
산지
투여
바바
파열
까먹
타라
정류소
Arm
스릴러
영분
볼텍스
##예프
아우구
송병
##패드
스케치
##틱스
박병
사절
##히트
##르바
첩보
0000
##sc
##appy
난동
로마자
바트
마티
에덴
인디언
커넥
자위대
다이브
con
유니버
흘러나오
위임
##평가
##페스트
비대
That
##비히
우익수
구이
나이지
적정
대장군
나이지리아
헤딩
GDP
한조
##선거
ㄴ다면서
마더
선공
도르트문트
해밀
사이퍼
심부
##부대
TB
이민자
위조
행선
두텁
커먼
자라나
네메
강남구
분교
어비스
이에야스
열받
나주
만두
유쾌
기총
##28
처단
플러그
##무진
##인간
볼프
시저
유체
메커
비약
체르
모티
페인트
서커스
Har
##니지
클로즈
유명세
스펙트럼
전태
에프
합방
망자
원산
보태
동대문
어휘
격노
코이치
대한항공
심포
화수
배척
Amer
괴로
주작
##노프
##작전
휩쓸리
총사령관
##UC
의미심장
대각선
##RAM
카야
류현진
레이크
테크노
노후
입상
독재자
동거
떠들
KS
히로유키
이따
클락
##24
오버로드
심플
주성
qu
마고
##파니
보유자
Order
서재
정현
UR
으라는
리젠
아론
##드래
주군
토의
매트릭스
오드
요크
방랑
신종
##애미
늘어놓
프리스트
능동
마이애미
##레미
##노기
프랭클린
침식
Des
1926
모건
##35
##교도
마늘
##모자
활주로
미련
서경
송파
유추
발령
경이
역기
크리스토퍼
낭만
비올
안드로메다
단신
빡빡
상경
엇갈리
소셜
야하
미얀
서스
대머리
조회
사토시
후일담
숙종
새해
퇴근
##AG
기라
리액션
정규군
##비우스
마카오
채굴
Skill
내려놓
박세
관광지
무협
라운
김정일
Pe
출세
치타
브로드
가변
올리버
일직
토요타
스탠다드
##공격
나가사키
케네디
문의
태연
##니트
시즈카
복권
벌칙
씁쓸
병영
합산
지체
##버린
김준호
인즈
##운전
버금
일찍이
토네이도
허영
단말기
>,
산호
##chor
게이밍
##자스
단거리
당분간
개화
춘추
선발전
비행선
마는
PSP
열전
메소
공병
사이오
##실히
te
누마
자석
장학금
디테일
좀비
중산
피크
옥스
윤종
장단
온전히
##비언
교원
소아
추월
##ious
크래
208
성추행
사비
오재
Tri
졸개
속옷
송라이터
정진
난폭
란트
푸드
##피어
인스
간식
장녀
튜브
Act
##느니
프레드
##위치
235
왕녀
마장
커터
NS
##자카
판본
항쟁
##각시
국정원
연평
조비
##즈마
Top
난해
이메
상대편
GL
국수
비숍
애틀랜타
느긋
##타자
어로
자부심
석화
펜스
영화판
교재
태고
상고
게르만
공전
노랑
후작
##빠르
세이부
Em
갈고리
사역
##ert
##pl
양아치
시노부
나나미
지독
짤방
##라이언트
다이묘
가메
서부터
케르
이어인
171
##net
플레이트
RF
법조
##정동
Str
클라이언트
850
이의
가차
##레인지
내년
초급
수산
연기자
1922
마그마
비틀즈
자의
##자루
##상스
최진
갑판
괴도
##버거
##단체
구세
빡세
알파벳
주스
조슈
항소
주권
화랑
##ient
줄리아
끊이
대적
##co
라이터
가쿠
##개골
비욘
##olution
역전승
##렉트
카멜
마드
위저
찬사
1923
켄타
초연
헌데
체이스
각본가
동독
카터
관대
트리오
제멋대로
소량
츠카사
거슬리
나탈
야채
직계
TCG
불운
올라타
데스크
잔당
FX
샤아
프라이즈
모기
##바위
클라우
유행어
스펙터
조인
주임
햇빛
헌병
##정역
오아
인신
255
UFO
FR
과다
리오스
##고쿠
자아내
##bps
이송
##둘기
보전
유세
용품
근래
하얀
안중
투기
##IST
래스
영창
포유
##랑카
의리
##ret
206
일선
미완
정경
천문학
나츠미
타쿠미
중공업
앞마당
앨리
미분
요일
##모사
다이너
성남시
cl
왕따
진전
중심부
편집자
NL
수년
형법
와일드카드
'-
동유럽
들려주
브라우저
튜너
왕립
##러기
부두
버디
##ideo
해결책
데프
로페
파드
Ab
LCD
##ner
골대
드레이크
중얼거리
구치
등산
청주시
##렉스
데뷔작
가중
독립운동가
##서리
법정동
호우
1921
Bea
연방군
마츠모토
푸른
신한은행
삿포로
##나들
메커니즘
주름
기통
서남
노사
정직
..'
LS
앤더슨
EXH
생계
키메라
외교관
면은
디비
루즈
이제동
왕건
##ful
오일
패거리
떨어트리
초동
밀러
##토록
ve
구애
리비아
어중간
영기
노동조합
거듭나
Fre
데일리
PO
우로
##럭스
부르크
오바마
내무
알아듣
경호원
God
한인
off
세단
선하
경관
박민
290
Bar
Met
##튀기
텐션
##ham
내심
두드리
벨벳
스플릿
유민
333
##캐슬
Sil
리바이
체류
특출
Hot
불분
뻥튀기
##ward
##소통
는군
우메
고모
특공대
##ning
영국인
209
의사소통
부메
작렬
어지간히
미하일
자며
##호도
버니
지출
규명
##ERS
이승엽
원제
포괄
##캐스트
과잉
드리프트
DEF
중소기업
힌두
##son
대한제국
이지스
##사우루스
산출
성종
##트니
215
레미
마천
말라
엘런
재상
치부
항우
##버릇
AMD
##어들이
시르
Inf
관악
메아리
평지
부딪치
뉴캐슬
이신
켄이치
팽창
희미
##day
레비
정종
진해
우즈베
대리인
의류
##조선
인장
부메랑
레고
Char
애덤
팩토리
나시
수영장
단단히
여리
##틀링
채권
##mania
로버
한가
##마츠
러시아군
Rain
대의
불분명
##레즈
판도라
자정
선풍
꼭두각시
탄수
토와
통역
후려
친근
TD
자드
버지니아
송곳
RAM
##마드
##곡리
궁정
받침
1912
자치구
츠루
코지마
앵글
증원
바람직
절묘
자연수
마우
줄줄이
kn
수료
동선
White
Ext
김제
무난히
동산
주립
토템
재화
척추
마케도니아
가창력
기겁
치밀
##뮤직
##let
##au
경상도
도보
의약
이분
충동
탈리
##마트
만화가
가세
##ATION
뇌격
우투
최성
소음기
경의
로니
외야
뒤틀리
주시
##ERT
두개골
성녀
전폭
바사
익명
##선스
소중히
최적화
서유럽
##생물
급여
르네상스
무로
인기투표
안테나
세토
코나미
헤라클레스
창간
버즈
트레이서
애리조
음양
여행자
Are
괴멸
뮤즈
시발
##oud
마취
May
KD
간장
그물
알맞
오마주
카프
사생활
성령
기판
자음
시궁창
다구
오피
심슨
FE
되려
##라트
라이선스
STAR
건너편
FN
셔츠
주부
##ump
비평가
Pop
나루호도
세무
데이즈
최우선
버금가
분과
피고인
1400
잔여
초중
점포
런닝맨
금하
다마
루드
저스틴
랜디
프란츠
공시
##그러지
샤이닝
배럴
명확히
영재
이시다
포이
헌납
##대표
이치카
고스란히
권역
덩크
때우
이목
투항
무심
현수
기생충
노프
##대군
207
데이터베이스
창세기
트레인
무네
계승자
나츠키
위화감
위인
어린애
##여행
##쩌둥
anchor
마오쩌둥
청문
최재
아이슬
성동
제품군
아이리
러블리
##살이
only
want
down
군단장
헛소리
혈관
앞장서
빈스
##실록
ㄹ지도
이시카와
**
다이렉트
every
유다
##하늘
심심찮
긴장감
##니케이션
아르테
PA
안식
로로
신촌
##EE
##내기
키바
커뮤니케이션
대도
스노
치세
##22
비하인드
ㄹ게요
북서쪽
공석
고갈
급진
맞춤
##88
랄까
시세
우사
월터
제각
인피니트
##ves
북두
단다
친화
감도
리언
정연
Game
역관
Master
감속
자재
도메인
161
공적
구스
##산면
##ape
ㅂ시다
장막
체로
문호
수리검
애프터
랄프
##겨지
스트레이트
조부
yout
아이슬란드
멧돼지
간첩
경합
Joh
황무지
유부
사단장
길목
니콜라
대입
##매니아
로자
OR
more
울부
원로원
TN
##HD
경시
찾아다니
여객철도
##석기
유우야
터무니
Open
개틀링
절약
남원
오스틴
플라워
김태균
요양
Cont
체내
##less
사카모토
극동
리시
##소타
##드래곤
구스타
오덕
제명
국물
민속
오퍼레이터
몸체
Bu
멸자
한결
열렬
쿼드
며느리
##피탈
급제
펠트
하렘
휘둘
심리전
IDOLM
과하
조니
무언가
카트라이더
기압
부녀
흑룡
명하
박기
레코
숙명
경전철
설문
##ien
##ift
하데스
라리
기공
##플러
COM
서울역
Hea
지갑
호타
무법
##도사
사병
이범
##zy
불가피
모로코
제네시스
단연
전과
체급
절감
해발
they
만화책
##ANC
기린
수뇌
충실히
일생
체하
촛불
엠파이어
케어
경희대
몸집
운임
농어촌
end
분전
언론사
##레인저
##ship
머들
나기사
아킬
즉석
냐면서
조로
부설
요지
정선
하천
병맛
티탄
미네소타
간편
강령
오스카
이라든가
발병
콘테스트
##지물
520
준장
회자
##관계
오반
쿠미
복부
아노
유시
한중
명품
어머
예하
TG
통근
DA
이장
몰아치
여대
뛰어다니
모리스
##led
감시자
선별
는데도
##현동
##메르
로미
울부짖
섭정
라데
아란
전용기
터리
탤런트
그토록
너구리
외래어
보단
##감치
##lock
민지
사시
##위원
##찌감치
행동력
##ize
칼리지
영화관
가야
신령
재빠르
발자
아만
##형제
##파르
쏠리
막스
비둘기
Bra
노스케
톱니
후하
관용
걸스
행각
헤더
활기
##LD
붙여지
성검
시프트
NG
특색
정착지
들통
GAM
반죽
역전패
댈러스
브룩
티나
다이빙
반자동
연장전
pl
온전
조나
리포
카르타
카에데
끝판
익스트림
나데
차마
폐하
필기
노마
##법인
메이크
Moon
서약
순차
젠지
음식점
무패
장대
크러
솔리드
Like
등용
세츠나
WAR
설립자
소망
##omb
1907
구만
자선
세속
##ited
##뿌리
Yeah
맞대결
Bad
Project
성급
김택용
짓밟
컬럼
Off
세련
단번에
레베
좌석버스
종속
학부모
하얀색
위태
크림슨
ㅏ요
다트
소프
뿜어내
news
우와
피니시
##오피아
에티오피아
페트
트레버
생포
완패
재차
##ita
1905
붉은색
전투원
##45
천연가스
Sky
##준호
당근
##교회
대지진
Med
나트
산산
선상
마비노기
순순
정국
태후
교직원
백지
헤지
메츠
독도
패미컴
옥수수
토사
출생지
ㄴ대
이유로
개드
검거
도타
자위
직면
포진
알비
우이
구비
##열차
터미네이터
플라잉
7000
부통령
남아공
전라도
Now
섹터
루시퍼
원나라
항속
##row
치키
Comp
TF
락스
##렁이
밴시
##부르
성품
뒤바
신공
인분
막시
세실
유스케
결선
마자
비범
치과
케미
회유
##고루
Battle
코팅
##람쥐
##ute
서스펜
칸나
드미
이북
나지
##레타
감염자
수족
불허
##소니
검출
##ALL
아브
일갈
이상민
221
이탈리아어
##문화재
원상
브래드
불안감
소주
비밀리
Way
계약자
이메일
성유
착취
관현
와타루
척하
부상자
브리핑
바빌
##vent
미카엘
JC
독설
배고
응징
자기장
##기어
눈부시
##조작
그지
청취
1300
관세
단간
지폐
돌풍
야자
우동
사업가
연대기
멀린
일간
희박
장려
밝혀
종로구
Soul
업자
경영학
힘겹
체구
##즐리
비행장
은가
##내셔널
정부군
인터내셔널
정관
승부조작
기염
##stem
협공
Special
over
팀킬
노원
##스기
##장구
릭스
붕대
빈센트
알제리
##준혁
순순히
파병
Po
TEC
남짓
온게임
조개
전투복
온게임넷
##ENT
눈썹
이바
빼놓
777
다발
순례
스켈
이어폰
소탕
##그마
번거
##시온
비서관
화합물
벤츠
흐트
개관
디에고
벌어들이
FBI
BASIC
톡톡
DDR
누락
신탁
##rop
사카이
다듬
픽처
산체스
##96
노보
휘둘리
##ORM
wiz
~'
태백
빵빵
순항
마코
TT
산림
솔루션
니즘
날아오르
바이올렛
일직선
##ling
##xt
음란
합금
##리아나
아틀라스
오모
##com
프라이드
네타
플랑
지못
흉터
지못미
반대쪽
하늘색
모치
Alb
음모론
타츠야
미얀마
경비원
바깥쪽
꼼짝
초회
낙하산
파나
하버드
외침
......
갱단
무모
브라이
송신
여느
올리브
프리드
크레이지
성원
이도
관건
튀김
밝혀내
밸브
급증
얀데레
good
아쉬워하
저력
213
선지
성범죄
넵튠
짤막
##산리
둔화
양육
티타
설교
탈주
나뭇잎
매도
Cent
형벌
호라이
##oney
북동쪽
##스부르크
카즈키
무당
##의지
반납
재주
피쳐
덮이
타가
이달
전위
티셔츠
진행하
향년
류지
고고학
Bur
중사
한족
김현수
하시모토
성운
##타기
라이브러리
벨리
에테르
방어전
내려찍
조현
##트리스
라든지
악인
추위
지도부
성가시
외환
통학
히코
275
막말
사하
##어내리
만장
세이지
WCS
린다
블레
언론인
샌드박스
다이크
1908
##가타
인승
앤드류
헬로
졸지
##UB
##ude
이남
드래곤즈
박태
백수
평의회
화속
223
재발
시베리아
아날
추상
사납
탈탈
네메시스
거행
##line
일정량
신봉
거창
일파
##방식
사죄
beatmania
성희
특촬
강호동
데니스
친왕
명백히
카자흐스탄
급상
개드립
ac
Dragon
레그
쪽지
##eng
제너럴
##play
반달
유노
미달
이나즈마
Hey
NAS
급습
밴쿠버
환불
##미츠
참모총장
루리웹
라파엘
수퍼
증진
WOR
니즈
민사
죄인
분비
대구광역시
본거지
##일관
저명
조원
거머
이천
마사무네
베풀
구라
는구나
생방송
임프
##고스
이끌리
수차례
아랍어
막아서
추론
탈것
투르크
시빌
##lt
제국주의
여하
조문
구루
Eng
밀양
티모
전갈
키프
눕히
자릿
칠흑
패권
ㄴ다든가
Int
our
부피
황소
고하
초전
코로
##시즘
폴라
365
일컬
가주
햄버거
레프트
연성
##린더
001
극성
##나우
자자
어우러지
증강
쿠퍼
해프
강서구
본드
부끄
사서
다량
마호
세비
유역
스탠딩
코일
팬클럽
변모
##23
버퍼
피버
돌기
복식
승하
현무
##규어
민심
지탱
##독부
보스니아
리더십
래쉬
고마
매점
행군
처방
미유
Ass
수당
철벽
폐위
부기
정주
테슬라
시연
액트
일괄
자결
베이커
##가요
슬라이딩
가신
반주
파괴자
대장장이
결단
이로
코브라
포자
호르몬
##27
중의원
사주
퇴임
폭군
엠마
##ata
넘쳐나
치히로
##스코
baby
사이먼
스투
##벅지
충무
IF
빈곤
생식
드러머
일찌감치
#,
감마
원어
##두근
##데라
케니
미용
일개
스탠스
전령
##방사기
370
화염방사기
수납
장동민
아카기
##닥치
관전
파기
부적절
겸비
광동
만년
왕세
자가
동아일보
스스
미처
래리
골짜기
토토
왕성
국내외
방사선
속사
해지
두각
럭스
"'
문성
바드
어부
영령
##아내리
##영향
보급품
에로게
골리앗
Last
손책
see
카논
해프닝
##IGHT
##ius
Yes
사생
암기
최하위
밀가루
Best
근위
만성
##공주
타오르
뒤쳐지
슬쩍
총애
미나토
부전
##FFF
번번
탄두
희생양
써니
클로버
양지
##원지
란다
블루투스
나선
216
마리사
갈아입
아득
신약
CIA
새신
##천리
max
자백
야구단
DAY
포상
##ated
오카다
볼일
수송선
악질
명실
서프
Show
방관
압둘
거머쥐
교제
미공
##디난
연합국
좌완
컨퍼런스
하남
구실
빅토리
쓸쓸
코칭
드래그
원자로
##탕스
레지스탕스
선역
이문
텐더
포레스트
막론
여명
재규어
총구
타케루
유족
편도
골고루
전문학교
나카노
Nor
백두
불거지
왕정
물류
원반
지질
최형
책봉
료마
마운틴
##red
수혜
##이즈미
Match
이강
제드
격납
소란
저축
보호자
Christ
매매
440
메두사
적도
후진
선글라스
right
행세
##툭튀
푸른색
##ets
거니와
해밀턴
골수
제곱
내리치
플레인
##홍철
물음
경전차
퍼트
연화
갑툭튀
크리에이터
에어컨
세가
개찰
##푸르트
아이오
Sur
변함
##III
절제
암흑기
say
자판기
매지컬
자유당
비타민
언락
명장면
공안
##혀가
템플러
Down
명은
초필
동맹군
Mir
욕먹
마공
##칠리아
##건설
견고
무소
서유
잠식
잡혀가
##세이더
크루세이더
세레나
폰트
크리스티안
정보원
정대
졸리
##ara
얼룩
소나타
동하
수속
본뜨
##럴드
SUP
덕택
무안타
카트리
한복
감찰
아이젠
조선소
납품
최장
동성애자
네로
ㄴ다든지
kr
사파이어
배급사
사드
석가
##ric
어지럽
아츠시
도입부
메르시
##거스
XY
리비
Art
이터널
##맹이
상승세
가르시아
의존도
수전
통찰
화질
카메오
짊어지
##ely
장기전
스케이트
포식자
PvP
노태우
문인
잘생기
##큐버스
Ook
미약
오보
불발
소나무
헤븐
자치령
슬로건
한국군
케로로
몽땅
에러
회원국
시오리
Core
보름
팰리스
거미줄
명왕
레오나
##제프
분출
장담
틈새
##이프
골격
함유
##29
##산군
시어터
공민
쟁탈전
보좌관
오클랜드
덤벼
사력
결투장
##페어
급상승
반려
공중전
후지와라
First
소름
정윤
적기
##일기
수뇌부
호화
시종일관
날라
연못
화판
크로노스
박차
TWICE
-.
하반신
확진
횡령
##테리어
배반
간직
또래
시라이
보이드
NAT
자멸
남동쪽
레니
슬러
하인리히
엎드리
##76
##나시
How
누님
변속기
승낙
임페
MI
현질
##ux
If
우대
Mark
난장
샤르
거유
##cl
오산
정몽
##ga
성단
예매
캄보
##44
부러
Ap
필적
pe
이규
his
신격
위아
쌍용
there
기어이
##통일
Tour
대북
필승
몰입
키치
Never
철퇴
순삭
알프레드
좌상
슬래시
BRV
창시자
떨리
알바니아
레바논
깜빡
슬립
에노
츠바키
악수
##다오
프론티어
오자
컬링
##ley
장자
난징
라르
크리드
에어리어
시미즈
조공
혼나
바이퍼
tw
잔재
판과
저항군
Sam
제동
##매치
무서
피그
노획
백룡
아레스
퇴마
시녀
악영향
##HC
##더스트
##천역
후카
바운드
피칭
모탈
이조
원성
##부수
##udio
Free
가넷
난쟁이
##로지
데스매치
테츠야
센트리
스맥
발해
##26
아리사
승승
이반
첨부
보리스
##임수
츠치
소모품
페달
스맥다운
묵직
신빙
이바라
주화
##도스
##ther
각별
판명
제복
HOT
조승
카툰
micro
근방
시술
얌전
Pol
뛰어내리
비열
어선
삼국사기
남산
열광
쿠도
##영수
활발히
이를
백과
특출나
파주
클라크
김소
토바
##테면
태양계
베아
상서
적시
남서쪽
페라리
아와
투표율
이를테면
RPM
공황
##세우스
무방비
들여오
아날로그
알트
축출
서태지
허벅지
이형
1906
##사관학교
219
##UST
우즈베키스탄
Na
루돌프
액수
엘소드
허술
커맨더
속주
RT
포메
##hy
##INE
재결
스피리
950
터프
잠자
다크니스
비운
##NG
바그너
who
뜬공
용인시
이니셜
골절
수박
##work
가늠
쿠폰
웨딩
충공
부토
아스타
지명타자
식인
##KO
블리츠
got
톰슨
문관
##OCK
미코
##ird
린치
토코
Side
대영
##총독부
조선총독부
끊어지
여운
동결
Cor
그제서야
Will
용왕
어쩌다
수제
id
고뇌
팝픈
팝픈뮤직
탐험가
닛산
잠정
##erm
베끼
##85
임페리얼
ㄴ답
재보
후리
금서
김신
라다
맨날
아돌프
##미트
재미없
킬로미터
간절
정시
위안부
##토니아
훈련소
540
곁들이
마라톤
Sim
민트
동급생
9000
NA
밤중
우디
큰일
급속도
픽처스
물결
곧장
구미호
대나무
소홀
건축가
City
KN
말살
반도체
히이
라카
약수
전자기
##지기
머릿속
켈트
하이브
낙동
##니르
중론
면도
소폭
군세
##블랑
즐거움
Magic
김호
전황
이대호
아유미
저음
광화문
외장
인테리어
화전
시리우스
활약상
인플레
틀어막
GPS
치프
퍼플
##보살
교명
파탄
페미니스트
##ERF
환산
티거
페드로
마토
복각
송나라
발사체
캄보디아
남친
내쫓
미움
알몸
푸쉬
무리수
미워하
중화기
시속
Great
겉모습
미완성
RED
뛰어오르
하쿠
다채
타원
나오키
스트림
에이미
페이퍼
로어
메트
영수
키쿠
해부
지하실
416
상소
궤멸
한미
체크카드
시커
feel
주지
다비드
벼락
혈압
후려치
넷째
##파일
동남아
FFFFFF
##yes
KA
도네
퍼니
##거래
남인
오도
유창
뚱뚱
안톤
전우
전쟁터
245
개헌
##리아스
퍼블
스턴트
사학
재일
금곡
덩달
독단
마키나
투수진
##충류
정승
나리타
사복
프리킥
Fall
검도
사우디
##ris
송병구
허니
노선도
북아메리카
개리
넬슨
선후
##황후
매그넘
단타
##rew
이룩
통영
##피드
##덱스
수사관
##다듬
##디우스
리벤
포섭
후사
질질
Cap
##가르드
ㄴ데다가
곡사
이롭
##사람
Track
서동
##오버
##하임
오아시스
전곡
사쿠야
규율
전패
천왕
##보스
병신
Come
멘토
화룡
##전쟁
로렌스
옵스
해설자
라티
##분투
몸싸움
앉히
엑셀
미니게임
화끈
##올로
지상군
Perf
di
밧줄
선율
족보
동그
흡입
##토모
공연장
청문회
로토
어시
Happy
자행
##월드
일기토
부우
지석
##요리
거액
출국
##삭스
그분
십상
형주
GX
신년
##que
성희롱
KCC
##니컬
직진
한눈
##이인
현종
PM
yeah
블룸
##ision
##tain
몬트리
몬트리올
검색어
토카
##게스
그러다가
소방서
엠블럼
증대
EB
갑주
부디
코러스
김한
퇴직
234
대구경
Edition
벤트
사적
코퍼
애니메이터
Party
엄폐물
카로
AW
개더링
트라웃
##소년단
시프
끝없이
미상
HR
적어지
Net
웍스
충원
스커
조짐
보이즈
아재
온건
진범
방망
조각상
빙하
옴니
윤성
야말로
우여
다이어
경비병
세바스
##UL
배틀필드
기증
내공
249
아소
090
Boy
도래
girl
약사
##UK
걷어
야인
올레
하강
티라노
야마자키
이석
마크로스
PT
김은
김하
BP
황폐
226
랍시고
카츠키
YG
이쁘
1913
두근두근
Final
가맹
차우
관현악
우선시
성시
짱구
초계
끌어오
끌어당기
향토
##폴트
고아원
부록
신드
##브레
##린트
이어주
BMW
브리지
##str
카르텔
Univers
정치가
클럭
편향
풀이
호라이즌
어려
목조
화보
대주교
참수
샌드위치
위닝
의뢰인
동명이인
ABC
##고생
##BOX
미식축구
발족
험악
효용
비룡
410
로스쿨
##김없이
분양
파비
망각
217
엠블렘
방탄소년단
자릿수
평준
삽입곡
충공깽
포구
실감
##부사
굴러가
야구부
쥬라기
능욕
메탈기어
프로토콜
바알
숙지
재래
아로
Club
플랜트
John
토드
야스오
엑스맨
업종
호족
혼잡
곧이어
##코스터
##슬쩍
동률
##레톤
유승민
소양
##aka
매끄럽
버겁
콩두
평야
이츠키
최원
그리폰
슈테
경멸
life
Stage
초딩
파커
싱크로
롤러코스터
보그
후후
디럭스
슬로바키아
벨라루스
시우
SEED
스켈레톤
다그
엘릭
아디
비잔
신천
판단력
프랑크푸르트
박병호
도봉
잔존
난장판
분지
Sl
투영
##타마
매료
발열
아야노
남아메리카
요가
강진
거라
철자
Angel
Little
치하
토우마
모차
유권자
1909
비야
##길이
기금
##헤드
신진
내용물
IMF
기교
##헤치
노미야
백병
염증
황색
기념일
항일
호각
Spring
군청
발포
흉기
다다르
문경
들어올리
물러서
트렌드
압승
카자마
뮐러
순회
우먼
악평
예민
짜이
허다
ISO
코바
사냥터
##ords
블로킹
make
궁궐
샬롯
수만
스테이크
##ism
Break
린이
독살
괄호
맥시
##ONE
##ASS
양방향
##관리
233
적과
RR
겁쟁이
강대국
슈리
신태
1915
서신
##트릭
##곡절
바티칸
요르단
메가트론
이완
##링턴
cont
무함
파라오
우여곡절
티르
그레이브
히브리
##arius
RX
초음
RB
##람회
배수량
보성
이트
##와르
오리지날
갈비
니퍼
텐트
##att
표준어
로젠
PH
코미디언
Fly
멜리
주루
##서니
##ival
part
버크
점치
환율
생몰
유상
##ross
중대장
소대장
계약서
Class
경부선
WHIP
의약품
보아
이보
엘라
자서
산전
센고쿠
소품
슬라이더
고체
발기
##래스카
##걸음
##재욱
228
김시
로트
원사
##모델
##ader
우울증
옥타브
경순양함
사요
피렌
미네랄
방영일
슬래
초라
인삼
최연
조동
##95
미도
예컨대
엘더스
천진
글래스
겐지
연마
BW
스팟
악단
월등히
fl
카라스
포커
##ause
과열
억양
황해
운하
Girls
모금
컬럼비아
고드
구가
224
im
##ama
모하
한승
##팔로
여중
ff
기하학
애시당초
수목
약품
클러치
용호
##신기
##ague
서주
속임수
##OWN
375
Mer
##데시
라이토
빨아들이
피노
Swe
잡아
고철
ER
별거
캠핑
Legend
북위
1904
치토
##블루
MY
레티
익산
제주특별
##IME
##자치도
제주특별자치도
애니플러스
양말
중순양함
교황청
진기
미우
취항
##시장
루기
마석
차오르
튀르크
편애
폭넓
견습
루가
받아치
검기
공평
징집
##uch
##구멍
##하니
칼질
아르타
구식
사오
는커녕
서산
용납
마르티
리제
시칠리아
승용차
에마
예비역
실탄
레인저스
교무실
협주곡
아누
피파
##느러미
평이
##해야
##ital
연합회
크로스오버
##대왕
##도어
줄무늬
광해군
어르
은색
잔소리
도요토미
틀림없
##21
##매김
has
북벌
식용
흥하
##83
##바이잔
차크라
##장치
##말라
경대
초구
허약
헌트
신승
인원수
##베트남
##슐리
자리매김
우등
SKE
숨지
아제르
히다
실록
역전재판
사춘
하자드
어웨이
염동
##아오르
마사토
아제르바이잔
390
포메이션
세터
캔자스
매튜
숙박
Take
낙서
라몬
머독
몰두
##테라
사이비
##ubl
수송기
##모트
설진
기울어지
겨냥
레볼루션
무예
길래
공식전
1916
데르
시메
컵스
티격
스테판
지식인
시급
임재
##피온
통치자
##마니
보류
천자
출진
##네즈
모자이크
대니얼
Mem
요법
집요
바이트
세계수
녹스
수학자
추축
최형우
비방
##넌트
위저드
TBS
복수심
주지사
NFL
시부야
aqu
김규
강희
목장
니콜라스
##날리
야나기
우루스
##IVE
사이다
거래소
##로그램
반입
광폭
만우
열대
오정
파충류
301
개표
셔먼
린드
227
분파
인제
청자
전압
##불리
APC
오거
시트콤
코우지
고참
헤엄
흑색
힘내
심복
'~
인계
전주시
Ind
주선
착안
는다며
어설트
파워레인저
박원
의결
허물
미시마
김구라
하동
fr
헤이세이
음료수
개전
이면
Cry
만악
EXO
담보
이븐
화성시
점성
치솟
거든요
강국
내비치
빈민
조슈아
아토
폭언
마이티
사춘기
강정
Hol
##티티
라디
위아래
마사히로
품목
##시간
정찰기
반공
코요미
숨결
웨스턴
마르셀
무함마드
명지
윤종신
again
초심
펠릭스
브록
호위함
키사라기
프로세스
##로리
누비
빙글
스틸러스
1700
##식물
위드
##르슈
;/
지원군
출연자
성소
박하
never
냉혹
램지
##교사
주조
차고
##ler
낙양
증식
국보
스탬
중종
##샤인
내분
##십자
윤영
증표
##리언
성우진
정민
만우절
인턴
동시대
정설
모사
키시
##body
##enc
레이카
조그맣
러스트
성매매
시제
미공개
대기실
은신처
통폐
자객
봄버
##사태
우왕
악연
##지우
512
미스테리
heart
PRO
계엄
니르
프렌드
교묘
올인
종파
크레인
호문
기권
##조림
쇼코
##ople
CGV
에라
맹렬
문예
역도
코만
##ura
울산광역시
em
사츠키
토치
하로
한판
##칼리버
##전함
##apan
우려먹
알라딘
경복
쇼타
요령
활력
클레멘
휴지
##ino
귀속
재계
##정리
Gl
머큐
이여
mA
건대
마레
규슈
애착
글루
제때
Ho
눈보라
타도
동맹국
가도
다나
##라이어티
건너오
향신
버라이어티
##글리
악세사리
노홍철
임정
xx
기념관
비견
기념비
나크
카오
나오미
시티즌
소외
가온
각광
폐업
괴이
장지
에버튼
동탄
크리스티나
교외
고야
고온
##브론
라이엇
Gal
다테
ad
고트
##뉴스
##주니어
Cal
총수
##oun
단결
테드
##팽이
사무총장
루시안
가계
오컬
ㅕ야
염기
푸시
##수염
오우거
sk
에디터
더듬
사칭
지평
##펠러
##iny
마방
##포동
이크
이리스
전조
Real
Rad
##그래
스미레
Sn
공소
은빛
크류
##푸르
##스틱
볶음
##훈련
Aut
넷플
오승
쾌락
넷플릭스
제천
기요
닛폰
##AE
서대문
FO
대련
도가
뜻밖
##세움
정치력
Sou
011
대성공
치환
##너드
타쿠야
페가수스
원가
정박
스냅드래곤
OO
허드
##바인
교통부
북아프리카
근황
수첩
저상버스
오현
재기
외지
게으
다다
뻔뻔
김종국
간과
자오
유키노
공모전
정근
##상부
경비대
오사무
상층
트리니티
조반
##발리
틈타
반쪽
사각형
큐트
통폐합
철혈
릴레이
표류
맹수
정명훈
모용
분광
풀타임
실물
##by
bo
예거
##irect
제네레이션
근교
##전대
돌변
##가키
모차르트
독소
인가
뜬금없
ㅏ라
투자자
나성
##IO
루트비히
DSP
계주
동자
양양
교량
탄산
EPL
오라클
방콕
##UD
도맡
쌍검
##lex
관람객
MUS
대서
그랜트
피렌체
오컬트
가비
야요
##TH
Who
콜린
##줄기
억누르
나카지마
김장
뜯어
순전히
조경
아틀란
껄끄럽
##ations
가늘
담원
도키
로더
매크로
무트
숙제
231
유니버설
Album
des
급감
자물
쿄스케
투덜
비터
박동
손발
걷어차
외과
##메이트
컬트
OM
When
공표
에너
##티시
##빠지
도넛
무마
독일인
747
서강
거침
세네
입점
252
둔기
설리
취리히
관행
238
에스토니아
##lection
가장자리
here
그늘
탁구
##유예
Je
타사
종양
폐인
##마을
아이파크
##aker
바닷가
뉴타입
Feel
매춘
어썰
##78
김종민
친일파
전광판
서스펜션
자물쇠
어썰트
올려
카즈미
##REME
꼬시
방아
내레이션
단호
담그
명제
데미안
기니
##gy
어려우
극하
다이노
백스
##그로
##DDR
퍼레이드
신해
##소연
꼬박
전구
대항전
Mbps
연정
일면
##뮬러
브리튼
합숙
식구
인기가요
계몽
닷컴
성북
아오키
ㄴ답시고
중용
출토
사고방식
라이덴
bb
min
고군
새턴
선샤인
Mac
##anger
~?
둘째치
가열
츠네
430
Single
Park
당부
브뤼
암묵
체이서
개요
고영
국지
가락
등기
아카이브
##onder
장시간
단국
완주
naver
피아니스트
이따금
벗겨지
일전
야요이
\]
세이야
GTX
스쿠
##BY
공무
노미
이그
##후미
합격자
광년
젠더
선단
엄연
하르트
떠나가
이슬람교
영도
##마르크
코스모스
뿌요
봉건
##동물
아라시
타카히로
꽃잎
번성
추격전
when
지브
특혜
신뢰도
Blood
프레데터
브리스
하룻
타이베이
금정
비어
상역
역적
진중
하가
세이프
열강
이코
질책
수비대
조건부
기형
조만
국한
브렌
여차
서바이버
볼링
외동
재편
합스부르크
환장
원정대
농성
송곳니
Ret
넥스트
수교
일렉트릭
let
똑바로
풍습
지효
다리우스
aquarius
선량
섬뜩
카리브
Hi
류우
피의자
라이스
마스터즈
백종
SMG
기시
사회학
카디널
어진
하즈
Du
NORM
열도
일루
데이지
양분
Inv
카모
플리트
아키타
엑스포
노노
gu
요절
##36
##arth
숙적
지저
##TC
피시
구기
짝퉁
CBS
강급
|[
수없이
히타
트롤링
비르
굴절
셀레
테두리
##우옌
주변인
기대감
아구
팔다리
스타킹
뒤바뀌
Ag
돌려받
촉매
원료
자일
그딴
테디
펠레
##리스크
mAh
##48
우라늄
공예
소자
실권
업소
음절
툭하면
##vil
금단
워스
이언
##산부
##raft
카니발
방주
앙상
##ya
이동기
집게
총무
탄력
##RO
나자
마커스
우의
샤이니
Val
에니
파헤치
함부르크
any
도면
레타
무례
손길
안주
##수원
신스
조례
NORMAL
별장
페르디난
포커스
로빈슨
Ult
수양
격분
전범
로켓단
Fun
만신
오기
세습
##eek
Esp
공구
음파
JYP
버팔로
웬디
한신
나츠메
명심
항공대
사이클론
껍데기
터너
##나르도
Mix
Hero
마일리
##노트
##나타
##숭아
##제트
ap
공문
작센
불러내
홍익
밝기
차츰
광란
완승
폭투
##사노
프리퀄
래빗
play
우터
코라
매카
멱살
사타
차차
평온
##ONG
##로니카
거처
유괴
진명
츳코
타카오
스프레이
롱주
Tech
분실
##ather
EXTREME
##립스
주점
판다
신노스케
##설수
이효
의과
이서
조시
한국식
개머리
배당
사보
왕권
육신
플롯
형용
##르도
##다주
테크놀
면담
서슴
역행
투지
팽팽
지원자
여제
치요
아라비아
인플레이션
직사
자서전
관내
냅다
실컷
##테르담
하모니
236
##uture
Dec
Say
달려드
세인
근육질
무서워하
이국
중수
Sweet
스펜
##ball
코스모
hp
뜯어내
성화
##하키
마리나
부대장
레베카
금천
예선전
향신료
야유
코아
쿠보
타깃
##알라
교육감
아틀란티스
루팅
앞부분
주유소
Kim
계책
어쩐
어쩐지
피어스
경계선
문화유산
뒤섞
##날레
시게루
생생
##리학
##로트
머큐리
##정사
##98
##제비
SNK
홀수
##ouble
을시
독창
위그
작자
눈길
보크
호모
802
클라라
red
낙사
수식어
말뚝
##방지
안드레
파라과이
Sol
대첩
백웅
윤지
WWF
굳건
반열
실린더
##클레
뒤따르
메릴
돼지고기
피쉬
##볼트
Space
감격
셰이
##매기
나토
돌고래
스메
레터
만연
천안시
리크
장민
하야테
실격
애호
로드리게스
도카이
마르크
물리학자
지네
장문
충당
공판
포뮬러
순종
한문
주둔지
하룻밤
수트
워킹
##비슷
강북
금세
티오
혹독
프리랜
가우스
265
보살피
이광수
베가스
속출
바래
이견
묘소
##ena
제이콥
국영
뭉개
은혼
저질
##태격
티격태격
성물
KE
짓거리
##ocal
010
QP
경제력
##ours
껴안
뒤집어쓰
힌두교
스무
232
루디
인위
최민
가우
발진
크래시
화순
##병기
어떡
호크스
돌출
월트
돌이키
종식
한류
베네딕
STA
KBL
승승장구
제련
##암리
수로
Def
서큐버스
메모리얼
Beat
some
몽환
변기
코타
##so
다케다
원안
격납고
결번
열화
##비어
대장간
왼발
난데
놀러
엄하
클리프
다람쥐
로데
치어리
통통
##뚜기
은근슬쩍
고딕
뒤떨어지
매혹
윤석민
사들이
악재
need
스콜피온
NASA
##더미
맥도날드
##노부
USS
비화
자습
격변
야권
어정
잘나
스트롱
Home
들이닥치
관례
미우라
##샤바
정신병
신야
잭스
반년
전면전
IBM
##틀린
로아
요요
최승
트란
판례
횃불
##thing
제이미
클라이맥스
를르슈
리저
이연
스탠리
조련
이라든지
꼼꼼
특례
코니
##ement
햄튼
##더리
510
알렌
위너스
정액
분단
불륜
그레이스
특별자치
특별자치시
나돌
심해
안방
유품
##리역
명절
외할
##ta
3500
개머리판
##배기
황녀
##onna
나니
변칙
실기
후추
내신
메기
변속
희소
결속
바카
대덕
스에
Story
대항해
PG
비지
피통
##태인
한없이
설날
노리코
눈여
##34
복판
이불
동일본
그릴
640
곡물
언뜻
스트링
노련
료코
사념
총체
인디애나
Dest
앙쥬
응우옌
컨버
알렉산드르
컨트리
태반
하키
##HN
딱지
옐로우
전시회
고라
난도
them
한테서
연장선
남코
색소
끌어안
우치하
사루
Pa
손대
유네스
재탕
디스코
세카
에비
최준
##욕장
니콜라이
Orig
GC
SB
기색
명계
빗대
홍차
##일랜드
##une
프리랜서
국외
다의
밀수
풀어내
단수
하네
레이브
레드삭스
캘리포니아주
##위원회
왕세자
딜런
마네
코피
일제히
체코슬로
##ANCED
체코슬로바키아
견주
타타
페라
##글라
기껏해야
##바탕
##ways
로밍
야가미
##ML
하루히
이윤열
프랑켄슈타인
랠리
수렵
시영
원군
앞머리
컷인
항만
##조사
305
##ider
조나단
외상
##사무소
325
클레오
디나
독주
잔치
Pla
산산조각
버트
쓸리
##티모어
불명예
가닥
초밥
##rough
##ano
마니아
SUV
Bro
이다
르블랑
흑발
히로미
모국
엽기
유린
편차
##란다
다르크
김건
메사
와해
ma
레테
히데키
리얼리티
분담
직렬
her
훌쩍
사이키
굴림
성자
파피
WORLD
Zero
강좌
장이
발자국
Ry
내던지
몰아가
##ait
웅장
##게일
서초구
깨뜨리
폐교
셰퍼드
속죄
실비아
##출력
길가
오소
친숙
조병
사일런트
제각각
내치
협업
이케다
##hammer
스캇
마음먹
이리야
비문
신재
##자락
GOT
영정
라오스
안즈
##뉴얼
납부
이부키
장영
##구르
고프
백악
엘사
위축
카스티
신영
Japan
KC
부포
오레
##투사
다이애나
슬라브
꼬맹이
우니
자하
##브로
##UG
근친
미야코
러프
양조
##bal
##드르
Young
수프
희한
내려치
;,
액스
##진구
##게이트
선호도
낙태
고압
국문
동떨어지
러시아인
ADVANCED
얼른
에인
동향
벽화
야오
옹립
효고
##eter
연막탄
분하
종업
등록금
족족
카롤
포박
불어넣
무궁화호
Kill
팔아먹
피셔
홍련
공격진
Storm
쿠즈
통솔력
칼데아
포세이
파이팅
포세이돈
봉투
왓슨
읽히
다던
정변
밀리터리
##세요
들이받
LOL
##카타
!!!
표지판
##입구역
##위성
교포
리차
이사벨
수기
심볼
##드릭
안영
푸딩
##ANG
인대
권력자
헤비급
기조
케일
황룡
이모티콘
모란
아라이
자궁
은둔
카나코
살포
고비
도하
우한
토성
##self
코퍼레이션
마즈
첩자
급수
몰려들
뫼비우스
일회
장발
한라
황산
##신문
사이타마
##코르
볼프강
김우
클러스터
병풍
폭죽
프로페
1896
로디
요나
##ands
쇼우
역마
조라
글로브
필리프
프롬
##DER
상디
클로드
번쩍
로건
위계
포도주
노우
잠자리
클래시
상병
덴마
수모
현저히
간수
육아
핑거
치료제
ATP
##und
피츠버그
Stri
목격자
치우치
대방
동강
철구
피지
##경민
##arm
아스가르드
이재명
PERF
자초
TC
she
람보
모색
봉화
##iful
이브스
유가족
ph
신예
EL
Jo
Gun
여객기
밀짚
굶주리
더욱더
Fight
고쿠
뒤엎
초신
##놀드
재킷
다는데
Dead
피스톨
유대교
각주
이데
##Pa
달랑
에지
-!
가뭄
못생기
##ene
243
행정동
금빛
김홍
앞당기
##light
셀렉
쿠루미
Wanna
사옥
##elie
중앙일보
공용어
정근우
볼티모어
블랑
양천
포터블
기폭
보위
공의회
호루스
주저앉
줄리엣
떠넘기
625
가희
중남
중앙아시아
##ection
물어뜯
동호회
고척
노무라
에볼루션
##jo
감명
비닐
괴짜
승선
어류
오줌
평시
LCS
리디
섬머
쫒아
프록
헬싱
##oup
##osh
560
하야시
NATO
소굴
청각
##TER
마츠다
징수
DL
파나마
엑스칼리버
터빈
##덴티티
아이덴티티
##ral
마성
반신
묵묵
노화
땅굴
Apple
Line
발랄
생소
Lee
차오
##환경
강민호
붕어
침범
포츈
갈망
괴로워하
간담
마개
질럿
판교
동백
마로
익사
입각
##루냐
오웬
클린턴
방탄복
국공
경기관총
FS
치아키
##센터
미나모토
AAA
Hel
에리스
총점
229
MAD
토리노
아인슈타인
공조
##콜로
##ume
bit
자동변속기
가요제
슬하
아키코
로미오
앤서니
##현수
수호신
660
당내
이회
볼리비아
경산
미적
Death
마구잡이
거란
도자기
정오
클로이
Friend
뒤쫓
##그러
절실
##다이스
There
김학
루시아
구매자
신문사
737
Champion
니스트
방수
장화
##ASY
BLACK
목욕탕
Road
의인
##보레
블러디
유흥
결핍
##이라
##바꿈
드로이드
이건
페르난도
요네
##익스
장진
천리
1895
토모코
유구
허정
##회전
개인차
정상급
오하
증차
아사쿠라
교화
도핑
미니건
Intern
산란
환기
망신
스텐
충신
##AF
척도
##lease
알려주
단도
어업
##65
폐기물
담장
라키
정가
기로
라벨
부양
에델
임종
쿠페
Tom
##산성
##잣집
뜯기
res
비들
이클
잔잔
이클립스
sec
경원
이매
한겨
about
지마
게이츠
미역
저속
에그맨
바바리
##err
약혼자
급소
스도
전경
정훈
##니발
동두
헐리
대격
불굴
스톨
캡쳐
##그럽
과부하
남방
펌웨어
시그널
연행
펀드
직종
##OK
아미노
히키
하오
무리뉴
Green
강과
어항
티비
박진영
당진
2400
태극기
사이렌
조성주
페널티가
상반신
선구자
바운
바가지
트와
##덕이
아오바
엘더
자연히
주제가
거주자
나즈
명동
마담
264
NXT
백호
##ortex
아이스하키
소고
존기
헌정
결정력
##77
##노세
이하일
SUPER
사토미
용족
바퀴벌레
심부름
유네스코
없음
입찰
계룡
워페어
주리
심영
노을
대물
공격대
유희열
콜로세움
DIO
객차
자상
MIX
얌전히
바르샤바
래더
튀르
지방도
##리카와
프라모델
탄자
건달
소각
콜트
호적
##ines
ATM
커밍
##PN
거주민
디언
불계
조셉
their
불량배
칩셋
학명
##학생회
궁중
권혁
도살
##벌이
노장
안팎
선거법
구룡
본대
비나
사파
##무로
타케우치
유주
농경
##zz
##구석
연구회
샘플링
시공간
오트
종사자
아카시
##텍처
아키텍처
##ATE
프로그래머
다분
피르
##웨이트
정준하
프리티
##utiful
매뉴얼
GE
여군
후원자
두어
비료
##ha
303
스트라
밑바닥
제타
League
공양
사변
나오토
모니카
조예
##나크
##윤수
미행
차르
수축
##베다
원만
포이즌
느슨
태아
페널티킥
IEM
가쓰
도원
패럴
혹시나
##uss
노하우
양현종
Que
XBOX
노다
친족
황인
그리워하
장정
##rol
무토
제조업
분대장
래디
come
구레
사벨
한큐
765
Warhammer
내포
바크
슬럼프
율리우스
251
##다이라
로맨틱
원통
사이코패스
완투
왜구
##간다
사오리
맥크리
피콜로
253
##ible
미츠키
참치
관리인
모서리
놀림
조종당
글렌
성산
IR
박람회
쾌적
해트
들어맞
백설
선더
세르게이
쿠웨이트
백마
양정
net
거들
모태
받들
보헤
신학교
투혼
하구
상록
판독
병자
조계
혈연
##신저
유적지
명상
원동력
명실상부
덤블
모성
지겹
프랑스인
239
탐지기
백종원
끼얹
성악
##융합
부착물
공산주의자
모조
샤인
과거사
앙상블
총학생회
효자
##대장
##ODE
경화
몸값
가차없이
핵융합
엑스박스
찬란
포신
##마이트
Mal
환관
##메트
460
연어
컬쳐
페퍼
##테인
티아라
EXTRA
##에스
라울
체면
사운드트랙
##수아비
루니
허수아비
슈퍼주니어
지니어스
안대
##리케
모나코
알마
요제프
보통학교
서자
양의지
규범
북경
휘발
316
덜하
흉노
집어던지
개찰구
중퇴
교활
이산화
유파
237
감리
피사
남대
세분
##ORA
원내대표
구내
무구
은인
우에노
호시노
제니퍼
노어
다우
세리카
청혼
##기둥
니케
부팅
삭스
김남
레진
리빌
순발
시진
케이스케
너비
원대
김응
스트레인지
##백호
##일라잇
트와일라잇
민수
드래건
살인범
##플라이
버들
성의
타코
아우르
밀짚모자
노지
탈락자
가관
씨름
위크
장작
파스타
하피
-,
적외선
창법
백악관
순발력
아놀드
스타더스트
충청도
AO
디셉
##키오
##성장
골문
당뇨
NV
위스
사이킥
데스노트
##페르노
노기자카
낙동강
Tra
대대장
룰렛
르브론
눌리
Pass
개소
고창
살벌
##VEL
코만도
궁예
대함
인페르노
지간
픽션
분투
살육
##꼬리
타이가
군포
니지
뒤돌
짝수
항전
국악
보육
##에리
알렉산드리아
김문
실례
##저지
##INAL
솔트
깨달음
비호
소니아
양수
장난치
태권도
후타바
구와
죠셉
지난해
건만
황천
##vy
올림피아
로메
어야지
번들
랜드마크
긍지
발도
뱃지
거북이
레츠
크랭크
Champions
반반
엔도
바로잡
MTV
신룡
원점
콘스탄티
제아
풍미
##송이
가격대
보람
펑펑
##ames
242
네이션스
##독스
##창민
마르틴
OC
한니발
정신기
사토루
아즈텍
숙부
##ental
TEAM
소말
완력
."
노역
아코
힐러리
##가짐
##베니아
##누마
이방원
분식
키네
한수
아이카
프리덤
불곰
속국
한겨레
뉴저지
천수
그렌
##사상
타츠미
바사라
기업인
느와르
디스트로
연두
반대파
하세가와
스코어링
호른
501
##ground
냉철
아키야마
연산군
니라
파우스트
거하
미화
아이코
##END
경도
##드레
##총사
Full
과대
보안관
은총
코사
사나다
노카
앤트
안건
허접
##OUR
의기
##츠미
bla
248
니까요
두루마리
발주
레이서
슬로베니아
##ily
동진
맨서
쿠토
헤드폰
아사미
천성
베로니카
저편
와이파이
OT
물방울
안락
뛰쳐나가
순화
호라
##바흐
##밀리아
##폴리
트로트
가발
문파
244
DH
끝마치
구청장
라트비아
어정쩡
발당
유이치
석조
충이
광교
계투
방글라
브렛
탈바꿈
##해머
사카키
방글라데시
Games
디스트로이어
금상
켄트
하산
##ience
프랑코
강수량
칠곡
냄비
남궁
인파
코쿠
hats
명치
옆집
<<
북동부
미주
범퇴
의구
파란
루시우
호가
김상수
플루토
성계
스니
통조림
영화상
nm
자급
Bet
투옥
방위군
낙타
애원
Set
와라
혐한
다이너마이트
XC
번화
사스
시브
안산시
청계
##렌스
구마모토
유목민
아르테미스
도화
쌍방울
##gg
##체어
제네바
##ology
떠다니
명맥
샬럿
##대상
농어촌버스
Mad
남해
##iet
다자
베티
알프스
잇따르
##셀러
농림
니티
몸길이
석탑
EXPERT
팬더
호도
조준기
시즈오카
스구
화이
프랑수아
##awn
Long
헤카
##워지
울릉
##mas
##에이고
샌디에이고
무법자
구덩이
신검
파치
휠체어
##공원
공포증
불어나
덤벼들
FT
Ra
곧잘
양평
위법
케냐
per
손잡
스노우볼
고귀
##GP
##aser
압수
폭락
하나같이
서커
훈련장
뉴턴
도지
요술
빙글빙
라피
거시
스레드
##아보
##reet
설치류
빙글빙글
군용
징벌
포옹
이동한
파라다이스
레전더리
풍요
프루
혼내
라쿠
전륜
이비
성폭력
hatsan
hPa
돌발
웬리
탈영
##리니
크리스틴
다급
경주시
메이스
잠재우
야쿠르트
바오로
소림
##??
##탄불
시즈쿠
##ouch
노동력
##OSS
요도
##밍고
함량
TSM
선점
들어주
안구
이큐
##br
##우먼
외교부
위용
통장
##에미
패러독스
고층
무기고
##리오스
Ele
아드리
커널
황재
밀크
취역
라흐
미켈
서귀
에콰
##고르
##illa
메이크업
에콰도르
샤먼
##74
모선
하체
히로키
전산망
NR
내림
미겔
실크
탑승자
재판부
WCW
의구심
문하
스타터
국교
유공
쾰른
##보잡
사냥감
나약
왕창
휴양
##onic
키프로스
pop
규탄
리만
##84
##할시
레일건
방아쇠
듣보잡
흑기사
##프리트
##네시
변조
촌장
530
##ttack
아우라
발작
오두
초빙
##함수
아서스
##UND
Her
송지
승마
유투
타이머
SKY
MAN
사구
알래스카
역부
대통령령
방전
##leep
리어스
양재
Pack
학군
연장자
심도
출소
고구마
##ormal
레토
울타리
참호
Dem
사샤
신의
굽히
모세
차징
##IDE
아데
포제
브루노
내비
살림
단기간
떄문
실재
윤상
짜장
##아프
into
뿌리치
MUSIC
난데없이
##박사
재결합
아귀
뼈아프
##볶이
김보
동복
##ISS
Glo
Tem
마츠리
##네이션
246
퓨처스
GAME
기약
System
대림
습지
##절로
지단
진위
츠지
##ka
가위바위
가위바위보
라멘
재생성
해안가
무의미
도류
괴뢰
##야구
##화물
예견
행크
강압
이시스
제위
1080
254
해리슨
아그니
##프로
무가
연꽃
증축
Ah
쉐보레
핵폭탄
카이바
유형문화재
고군분투
속아
재량
구토
##툴루
op
권속
Step
묘비
부조리
재우
left
위급
##원장
##집합
이바라키
요코야마
sw
실세
치어리더
long
부잣집
침수
필립스
##전력
##들러
##레이브
우리나라
백병전
입석
##노버
프라이스
아르마
##니엄
##워키
오구
##yo
이사회
선취
약초
##네이
##폭풍
##erry
보조금
두세
베레
양팔
펜타
네기
화교
USA
니어
알버트
총칭
레이팅
저절로
##너티브
이스탄불
얼터너티브
특검
##꺼이
라이저
가타
##도시
##ESS
분당선
저기압
방한
##OWER
통지
##마음
감축
리지
금수
레너드
은평
권투
김봉
등대
항마
Call
기일
노년
신변
##빼미
산물
속초
재물
##ting
##box
바벨
비겁
##갈색
##ots
Ant
도난
정산
촉한
##그램
빠져나오
이타치
승조
역장
카루
어르신
##자유
Die
문건
##진우
블리치
wanna
초조
##이야
기념물
GU
뉴비
셀러
위선
쳐들어가
윤회
진풍
Mil
삼가
##조부
김광현
교배
친부
비스마르크
Stand
군장
구축전차
지드
##ki
##자위대
외화
토양
##토크
무라카미
복서
얼라
오성
##코리아
##za
약탈자
디바이스
##get
동방신기
SDRAM
갑작스레
영덕
자형
배고프
코드네임
##바라기
마부
황궁
에뮬
환술
요시카
왜냐면
VI
데비
주춤
##enn
바닥나
Gener
만담
##버섯
고글
서투르
판넬
##브르
신세기
미흡
재판관
난간
중전
##go
##86
한국사
불상사
종업원
남다르
박건
위스키
타오
##드런
승자전
Eur
림프
시디
태초
달력
로베르토
만물
구세주
어의
어감
##괭이
Spe
자이로
거너
맥아
##비지
자경
적분
차질
푸틴
릴리즈
박승
샐러드
실증
튀니지
오피셜
봉지
오랑
NCT
마누엘
토기
호타루
계양
반찬
액자
케이티
삼총사
been
관상
근소
총검
금물
헤치
##임새
아나톨
표범
방망이
AH
##덩어리
306
수완
애벌레
##본부
##ander
Hell
바야
쿠지
##ents
드럼매니아
유틸
흐지부
285
소송법
우에다
유틸리티
흐지부지
GA
요충
이양
이블
조끼
폄하
디어
진이
페러
##ied
신혼
워해머
Del
브금
세손
의복
초안
야마시타
모모코
비주류
세밀
커튼
포르쉐
뒷담
페미
번복
크툴루
666
개원
겁먹
지금껏
가져다주
자대
짬뽕
NMB
포천
배틀로
미야모토
영월
추력
변호인
##저곳
이곳저곳
##궐선거
브라이트
North
재보궐선거
도산
불시
스톱
오토봇
스필
Chap
스크랩
화살표
카나타
오사카부
안착
하운드
법제
야미
보수당
에스파냐
기꺼이
동위
##천년
##hem
Key
et
선착
월화
watch
동치
레논
사채
성불
영사
Cha
크라이시스
동차
려나
시경
엄호
민망
##BT
사무엘
시발점
Brave
새천년
천문학자
주희
구위
벌집
빗자루
외로
카미조
TRA
레디
리옹
적의
트램
노르망
마일리지
UK
980
약국
카미야
연장포
크레용
그지없
큐라
##레라
연구생
거리낌
리세
##화당
문무
미생물
Direct
대금
쿠사나기
다물
손질
262
말단
어쿠스
##ense
뛰어가
맹독충
어쿠스틱
데일
애슐리
##32
##St
##꼬박
1899
꼬박꼬박
레퀴
양복
철제
호밍
##차원
Level
산성
북아일랜드
반역자
밀레니엄
가나가와
다승
질타
질소
University
속칭
수이
##ove
맨손
벤처
선종
시험장
유키코
이홍
해남
번역본
##uth
신인왕
박지성
구금
도로시
섹션
아즈마
Heaven
카디널스
가람
극명
기저
로이스
성행
흥국
247
디멘
허준
스펜서
디멘션
po
그렉
보옥
스캐
전근
수진
단군
싸그리
암스
##my
도우미
수두
외주
에인절
메로
서든
코그
하층
도인
유년기
이세이
음주운전
연평균
사계
##ures
동면
##드기
김재환
눈알
에토
부끄러
시멘트
스테미
카메룬
다네
호아
군정
비관
올빼미
후쿠다
톡톡히
남색
##플린
카나메
Cortex
귀걸이
자명
기아스
nb
달구
중랑
타카미
##테르부르크
MOV
무형
밀워키
패트리
상류층
아람
리그베다
1903
코코로
충실하
name
Inc
헤엄치
ㅓ요
아샤
911
유토피아
카빈
졸지에
몽키
불릿
소거
어학
윈도
사카가미
경음
멸시
블로우
상동
트립
##39
미소년
소켓
적잖
공손찬
이신형
LM
방향키
단추
##IF
유의미
역부족
ah
말버릇
조광
##IAL
신천지
마귀
커크
그래미
둘레
센다이
인조인간
부적합
박찬호
까칠
나코
모여
선술
신명
엘렌
오열
##효과
넘어뜨리
나진
스칸
주특
포스코
주특기
근위대
포톤
회식
가옥
아발
차명
단락
공관
룩셈
오션
와드
잠적
코비
부사장
객실
경마
곡괭이
##irc
그레고리
소행성
설원
레오나르도
떡볶이
직설
이나바
순양
##치히
##레우스
LPDDR
세비야
룩셈부르크
석회
수조
##OTH
스리랑카
메즈
인산
총신
성대모사
서귀포
간결
##바드
한자어
키쿠치
공물
셔터
470
대법관
수병
파출
편파
이상일
##ella
대의원
해롭
지만은
관련자
##ember
과묵
크나크
가샤
##록스
보컬로이드
##프레소
혼용
후크
노이드
역동
##일치
take
송정
생물체
모교
문체
제퍼
Hello
관성
성가
##yr
바이어
전기톱
시라이시
발성
손견
잠잠
축전
##WAR
Port
음역
전고
현관
Again
mg
다방
팍팍
##에타
나래
쇄도
정품
메이슨
color
Mel
머나
머나멀
##aph
공범
특무
활로
##ates
구스타프
도안
부트
패망
외로움
구인
웅진
크루저
한림
호신
20000
Mnet
그람
덩굴
승수
##ILL
환승역
쿼터백
디바인
시이
심경
희극
마츠이
재수없
린네
본점
야루
##보리
역이
308
모의고사
Mach
애기
콘스
##뚤어지
헤르메스
레반
말려들
남주
##va
군마
연휴
의왕
##umb
Shad
니치
인술
혼수
##사슬
구작
디노
어는
가로채
몰아주
결집
펜싱
강가
명언
아미타
BMS
요금제
Dig
cr
능선
렴구
블랭크
마땅히
서해안
다짜
델라
##고짜
다짜고짜
필명
680
HKT
로마인
그리스인
Rep
인공위성
게오르
발단
옆구리
호송
종반
탈피
레이코
EASY
로바
알폰
걸어다니
황금기
뒤섞이
이륙
형체
묵시
장창
절도
카트리지
심기
이프
##ince
사미
모면
우후
##쓸이
용접
짧아지
최용
건국대
##LA
241
Tim
박석민
서고
결정타
비키니
전권
단체전
은어
##해지
TECHN
나연
조미
열등감
##미사일
Only
실화
야사
##파치
후지타
던데
마진
##프레이
카탈루냐
이희
컨설
문학상
팟캐스트
##티움
##톨레
아약
##도현
구원자
김연아
##익스피어
셰익스피어
304
쓰레기통
아레
쿠우
현세
##공화당
민주공화당
카르타고
백발
파시즘
##국적
LB
부조
파가
##pm
이마이
경쾌
알로
을까요
룰루
외견
철폐
홍문
핸디
베이시스트
유유히
QS
위니
비행단
망언
영산
하락세
무용지물
문정
노르망디
겨자
##WA
##위안
##ids
브루클린
sa
디온
명랑
영예
타란
##이시
서일본
에미야
적국
카푸
ROX
데인
카키
##ometh
수학여행
드레이
순번
자립
알아주
네버
버나
상아
키아
해바라기
홈플러스
산업단지
레퀴엠
은화
착시
원심
푸에르
수도사
포르투갈어
시국
아모
추앙
상응
저스트
##미디어
케이틀린
덮개
영천
아이린
항문
출입문
Days
Jack
군량
보어
절판
부담감
Fil
jp
증설
Lun
박인
##ility
송파구
아과
확충
미네르바
김유진
HIV
본업
일병
조디
한기
##BE
##나스
신경전
##razy
dr
강기
말썽
종용
가고
돌핀
블라인
전소
##생명
Network
대소
점장
배달부
난관
대열
처장
##구려
집행유예
인척
번역가
환상향
고찰
아이패드
바로크
토모야
수잔
구명
##플로
구판
천차
Gh
번작
손색
직급
311
리벤지
길티
내란
유리창
단축키
대합
밤하늘
유화
알렉산드로스
rem
부의
아키하
Inter
관음
랜딩
##사병
##합중국
##iri
케이타
하디
##워커
오와
우진
탄피
##보트
드미트리
iP
만인
징표
흉부
에스프레소
적나라
최태
!!"
신형
군자
양날
요마
위구르
패퇴
볼드모트
ser
미륵
머피
신창
울림
카카오톡
김강
대종
미어
베누
##bit
조종석
EE
백상
주니치
##unk
헤이즈
KGC
시니어
일침
##94
숨통
어윤수
비축
치즈루
##핑크
색적
아약스
도굴
뒷부분
야타
에밀리아
ZZ
둔갑
참신
퀘벡
아나스타
디저트
양궁
제츠
평평
##국수
자가용
맹장
앰프
원서
켄시로
템페스트
마이스터
Wr
매화
병음
##블러
##atter
Cup
기나
중증
ㄹ세
마조
백조
샤우
풍성
변방
월광
위압
잡음
퇴화
중성자
타카기
김해시
MiG
쾌감
##cess
사이퍼즈
구구
도출
동맥
미합중국
솔러
엘다
기동대
김기태
에트
장흥
##레로
김성현
도부
브랜든
용시
제라드
디폴트
문항
##피디아
비등
순하
종신
##수단
오지환
##그라운드
라사
중파
디셉티콘
개중
불빛
이덕
##ald
오리엔
1890
망가뜨리
토목
##어머니
편집장
스카이워커
오나라
진홍
정신줄
쟈니
타무라
##고로
##부상
##ether
객체
##레프
위키피디아
역순
House
린스
빙그레
##add
사냥개
짜내
태사
한술
302
##uman
선동열
독신
##에나
##ORPG
능통
당과
##ips
미야기
미노루
해수욕장
리허
세타
##펙터
복음서
노량
##als
날라가
패티
노쇠
반포
아제
울버린
##양이
정치학
Winter
ㅋㅋㅋ
라칸
전단
##갯소리
Esports
bet
오심
피에로
럭비
신차
이용규
안드레아스
Year
구약
본심
샌즈
아캄
콤플렉스
아리마
획기
판타스틱
미츠루기
프리스
학설
##공업
티타늄
싹쓸이
오릭스
##TN
여래
미카도
북서부
More
슬기
look
구부
유골
ㄹ지언정
로케
데어
세주
이용한
범퍼
기뢰
발췌
최단
안양시
After
간담회
Kar
LF
네프
유예
##uj
전액
컴플렉스
리토
맨몸
불의
자속
좌천
##산업
건방지
메신저
##평동
비정규
레일리
수난
시설물
무수히
강우
노하라
렌더링
시들
정태
최유
동형
만수
필리스
헬레나
##림돌
미니맵
꾸짖
##갱이
무스메
"...
Under
접착
헤일로
삼척
셔플
##기니
##전생
무기력
##ico
여신전생
소용없
모독
창건
타마키
Burst
간사이
깨물
아린
장윤
##더지
영등포구
별반
윤보
기상청
송창
적장
##우로스
쿠르드
##마이오스
고졸
##메드
몬스터즈
관심사
WA
담담
사본
신통
콜럼
학장
스터디
맛집
이공
오토메
Sports
객원
로시
저우
키르
타일러
Enter
가독
칸자키
##lin
##커버리
마그네
뒤흔
산요
##esh
게일
두꺼
웨스
죄악
마음가짐
사업소
우스갯소리
따름
종래
포그
##AKA
랑그
매듭
##레르
리차드
누드
키카
아이비
에르난
패자전
온의
지코
##진보
도란
와다
중생
가마쿠라
기나길
걸림돌
체자
##orce
630
도교
강구
겸손
합성수
##도르프
사생아
수갑
이너
하류
##자식
내지르
행선지
타파
헌팅
##emy
장로회
손아귀
달팽이
알리스타
자장
에반스
방청
처칠
필멸
##영웅
배양
섣불리
소고기
초판
think
Snow
로군
선데이
프로펠러
스크림
은지원
틀어박히
키예프
플러그인
점프력
힘드
밤새
자림
제패
작품상
Va
단면
들뜨
싸구려
##경찰
stay
베르나
귀인
##odu
에스퍼
순천시
주박
##코인
손아섭
칠드런
관중석
구설수
농산물
보나
장조
##ved
강시
스러
##거슨
아나키
맥스웰
굵직
도나
바꿔
신음
오펜
웰스
육탄
전래
올라프
탐험대
nbsp
격발
도선
영의정
잡아먹히
공생
불경
외양
토리코
INT
대모
박용택
긴밀
음질
##하고
쿠미코
기물
성조
수문
전업
케스
키타로
이름값
2100
분개
제레미
헬레
##기수
타이거스
갖가지
산동
토레스
Knight
GF
도합
송광
현은
1901
준결승전
Mc
몽고
오른발
권수
속속
슈우
헤임
사인회
아흐
율리
자야
화풍
##oph
서프라이즈
수심
아브라
계약금
심포니
김미
뒷모습
믿기
크랙
##렁크
공화정
불계승
네온
음표
차근
액세스
주세
푸치
##활성
소말리아
FD
고동
근간
스사노
원투
종군
##72
테레비
에루
music
기승
드링크
다양체
남양주시
매리
엘레나
에이브
쇼트트랙
미혼
복숭아
##XX
간사
대참
무한히
코너킥
우르스
발화
수회
승화
제리코
불씨
혈전
##일비
골머리
빙빙
유폐
##걸스
관청
프리츠
바빌론
도이
산드라
생도
신학자
연필
##기념
##남동
API
##드라마
수은
##사업
따라붙
##폭력
##내티
펠리페
신시내티
비니
착오
##진창
대망
##호마
요시코
근거지
광명시
도태
페일
저버리
##적으로
760
DEX
무신론
미마
Lost
Gra
사선
##혜진
공기업
990
Anim
두들겨
were
슈퍼볼
에인절스
색기
비잔티움
데릭
카가미네
레거
쟁취
침략자
주이
트렁크
올가
하교
다이나믹
공상
다이버
##VEN
걸프
전서
전처
IB
즉흥
히데오
Rob
결여
삭감
번외
쇠사슬
##othing
로카
##해하
##진보당
교의
나이스
탈모
##테리아
##팔구
이징
공민왕
형용사
명소
파천
조만간
빼먹
출항
공백기
십중
##촌동
미국식
아편
착탄
1902
플릭
SSD
십중팔구
승전
잔상
오키타
기전
소파
송시
원체
축물
사이언스
초토화
염라
투게
개인기
신기록
증정
코네
##현실
강풍
개당
내력
일신
베이컨
##REAM
오유
천년기
##isode
기고
총살
니깐
붉히
##ury
남하
선승
용역
티온
##아프리카
##ori
둘러대
소시지
Ice
까치
어다가
윤치
밀착
안상
##zer
사마귀
실각
주상
직경
파밀리아
현저
##림동
투게더
뜻대로
식이
의성
정호
칼로리
They
960
나뭇가지
속마음
일류
카펠
하청
엉망진창
모루
해리스
눈매
묵인
마사유키
라모스
파묻
핸들링
Cur
Kiss
보일러
##ELL
경부고속도로
민영화
매월
사울
##갈이
서현
백두산
블라인드
후우
##ney
##ving
CLG
Micro
유세이
염원
반증
석판
잡담
최경
캐쉬
홀로그램
레코딩
Imp
발터
보주
장료
개정안
장만
샌드백
사나에
바닷물
RGB
Vir
나가토
610
NCR
부천시
295
##IKA
길쭉
미개
비이
판자
##어처
배틀로얄
와스
카이지
미니어처
LPL
유타카
마포구
브렉
시식
아머드
굴곡
영통
한바탕
##버둥
김동현
깡통
산재
어김없이
VC
증손
##겨우
온리
퍼거슨
Spir
Arc
빨래
아톰
철판
모니터링
황도
은지라
논산
재방송
귀가
속수
##파르트
2200
차량기지
1898
상트
알론
##글러브
골든글러브
파프
길동
킬링
##와라노
생활관
후지와라노
불복
수순
팝콘
히터
##fore
우에스기
메피스
면세
서건
승산
정복자
특별법
555
현혹
가톨릭교회
침입자
야만인
him
하복
후견
주택가
허드슨
봉신
악녀
TA
파주시
##태현
포르테
%]
빈자리
##기구
404
통곡
번번히
김무
유모
트랭크
보드게임
발가락
코크
##37
프린터
##프레이즈
보령
일주
##천면
식단
##코타
##지아
580
Sal
놓아
떠도
날렵
렐름
요스케
유병
피날레
xC
아이샤
Pan
거장
즈이
강력히
발버둥
봄이
뺨치
험난
책임감
자갈
합세
권법
점원
문화방송
##ITE
대작
독사
아리랑
진구지
총대주교
면회
수주
컬처
##omething
셰리
황건
사산
핫토리
호이
블레이크
납작
동당
우버
##YS
##츠크
##세어
405
체온
##시아키
PPV
From
레저
영종
죠타
초소
##자마
266
만찬
스테레오
엘리엇
880
앵무
하야미
박제
Roy
1860
~.
빠름
쇠약
영연
출품
비웃음
서영
점막
하진
##mon
초유
##리크
##미온
##해튼
코스타리카
번뇌
조선왕
Ann
용산구
다목
병실
상선
시마즈
테레사
Secret
TL
김범
마제
외인
공언
열폭
정공
Reg
Ha
로엔
마사시
세네갈
범람
보더
##92
HL
머무
별세
애비
용문
혁명군
대전차포
Nat
무투
미자
은거
합성어
세바스찬
당도
재야
Remix
도미니카
이리나
사유리
맘대로
몰이
박현
채색
투창
##히드
타임스
MMORPG
난이
문선
천정
달리기
질투심
강승
고국
002
교통국
동양인
경복궁
game
소질
장보
##덕지
##스타인
강의실
부지기수
캐치프레이즈
마유미
요충지
영력
##치우
dream
vol
경작
미스틱
아오야마
아우구스
영유
카봇
도용
발암
정읍
제철
##WS
기모
말다
스테인
1897
비너스
야크
퇴진
폐차
##차림
##만화
##order
간간이
놀래
당파
##부림
##INK
490
습성
해답
##....
America
광자
데바
안데르
유니코드
갈아엎
시뮬레이터
오닐
네이밍
살라딘
구걸
일구
흩뿌리
제이나
안티오
역이용
공파
글라스
미제
박형
##82
##ARK
점령지
png
위세
자타
자만
##일체
top
Dan
명색
뱃속
##31
남양주
파출소
라플
##반구
코마츠
실태
폼페이
어드밴티지
Band
기흥
도무지
속기
Hun
연무
판인
425
폭염
귀도
##aking
stop
카를로
무참
부총리
상국
의논
탐사선
파이크
시코쿠
본연
윤정
키보
탯은
개기
변덕
쇠고기
수두룩
ed
가부
달마
언리얼
##엔드
345
나팔
##테라스
검문
미첼
알레르기
##그라들
다희
대천사
마르쿠스
플라자
나트륨
여력
원탑
##베로스
##캐피탈
엔지니어링
가고시마
모녀
소미
온통
중개
##바겐
체육복
드나들
##급수
##ANCE
박한
성룡
##루가
양세
역사학
##erson
카밀라
동학
색다르
##GO
부자연
건과
##구름
이라던가
톱니바퀴
war
##광이
포스팅
##스턴트
중무장
풍신
PE
국과
기민
독실
루갈
쭉쭉
통나무
토론회
더글라스
타노
ACT
신분증
브레멘
Ob
마두
성욕
쟁쟁
당수
왕도
하이스
과반수
갉아먹
명종
사커
악취
지프
##중심
##쿨루스
Wol
열중
전일
지민
##무트
공격자
크라켄
되풀이
혈족
##뱅이
애니맥스
더럽히
여하튼
FINAL
away
시치
인스턴트
아마테라스
구획
마킹
악귀
피부색
속보
Why
Dri
가젯
로터스
김대엽
페르시
중기관총
종착역
부풀리
쑤시
저쪽
와시
대학살
사회당
현대캐피탈
자우
시계탑
Plus
##브스
무효표
쿠로사키
By
머슬
카시오
포츠
한진
##브리지
만장일치
blo
소관
신타로
응모
##디나
오거리
##con
레이다
노면
데저트
실과
올리비아
활기차
법규
포티
광신도
JAP
과천
교인
##병원
##페테르부르크
소방관
상트페테르부르크
Fant
수시
blue
IZ
격자
##잇감
초심자
신교
의역
쿠가
태화
##ks
##URE
##나츠
다이고
JB
권영
무더기
수훈
연옥
##라면
매그너스
겨우겨우
가인
810
속삭임
Easy
Normal
결탁
##부진
두꺼비
light
롤리
박성준
미노리
##터지
우방
유리카
찢기
창녕
탄식
##다발
##순환
김주찬
LR
대보
무릅
유혈
햄스터
무릅쓰
문도
##코지
##협회
심신
##세유
080
SNH
##ublic
반월
우주인
해결사
강남역
자작곡
고해
담아내
일색
퇴학
하노버
1894
엎치
넥타이
맨해튼
명수
오치
고분군
로하
소정
288
아키토
HA
비일비
택지
비일비재
XI
da
재외
타루
특대
독고
산적
마사루
##저버
사이언
BEST
견훤
고심
뚜벅
박소
옵저버
정파
##반짝
폭우
회랑
훈련병
반짝반짝
뒤편
입김
탈레
세이렌
str
518
당선자
속삭이
초장
퍼스널
서건창
얼떨
염색체
GRE
명부
플로우
리알
모기업
박헌
원탁
고려사
변함없
드리스
재촉
##ison
570
글로리
지청
화사
##뚝뚝
기계식
끝장내
막사
사흘
사치코
봉우리
272
왕래
퇴적
상급자
지름길
근현
작명
경례
재력
프톨레
##틸러스
display
프톨레마이오스
노틸러스
루주
무뚝뚝
##외과
유키오
상봉
엎어지
절멸
질식
매개체
had
도련
진통
##피오
일일히
무표
삼림
연격
##르르
840
들여다보
방진
야지
##ato
005
동그랗
다재
수서
한동
##파시
##감독
윗부분
add
트럼
부엌
색감
소변
검투사
고강
조엘
칠성
항시
##쿠사
PERFECT
비스타
영애
디아스
아랍에미
아랍에미리트
땅콩
연립
짤짤
##도바
기대치
패스트볼
GIR
연명
출가
##38
리아스
GEN
Here
cod
긴토
다윗
천룡
민요
레이더스
관구
모뎀
석재
이한
혼잣
권선
잡아가
창구
Series
부의장
갈릴
스포츠카
진풍경
Cla
을래
현란
아이치
평가전
780
혼잣말
KV
질색
칵테일
##을리
##불복
볼거리
##MI
리허설
법관
소다
항체
PTS
복불복
##게티
아키오
배신감
##OLD
비드
하노이
##umber
프랜시스
크래쉬
AJ
퀘이크
하긴
프라하
내무부
국철
금나라
식칼
주정
오오타
드가
사민
##wn
극단주의
상층부
참혹
하퍼
##씌우
마르세유
초승
보컬리스트
문희
손패
트렉
##연의
Div
Video
would
게인
자생
청순
321
이해도
MSI
용지
##토프
##차근
##케이크
출자
International
차근차근
박희
베르트
토에이
수백만
bu
##높이
286
임창용
수긍
재경기
미치광이
프란치
FK
내쉬
휘감
##무책
코앞
함양
##피언
##페리온
##orry
스커트
산토스
재조
레거시
화분
국제선
##ctor
척탄
치수
클라인
국유
병법
일판
홍진
힘차
송은
용액
재연
특강
##idae
결점
주제곡
EF
단언
마틸
지스
진시
칭기
##모으
15000
작성자
슈마
톈진
##키치
미스코리아
천명
심상정
af
브롤
숟가락
모닝구
출정
벽면
학실
##길동
고루
금주
401
번화가
비활성
유야
지안
텔레파시
무턱
문화사
Lu
순이
299
간헐
리니어
메드
발송
오가타
중독자
##테이커
Dav
뉴트
Force
대성당
재계약
너트
체의
후한
조선족
620
두건
경치
산티아
##ATA
기득
##라시
공학부
분분
블라드
용신
편히
아라타
음식물
언더테이커
매사추
녹아내리
##세츠
메피스토
JK
물의
소스케
신현
기프트
도성
볼로
오븐
ro
장현
연합뉴스
서연
에고
첼로
매사추세츠
퍼블리
##hed
걸레
합창단
대주자
가트
기단
꽃피
파마
향교
##렁거리
앤드루
둔하
메오
탈진
비트코인
당직
이랜드
칸국
미사토
머스킷
쓰다듬
원단
MED
유년
판박이
픽시
##벌리
312
탐탁
관찰사
모티프
응수
##득이
지구력
이해관계
##ITY
국방군
마상
매킨
이근
페르난데스
MOD
Ta
조쉬
ACE
려니
윤석
맹공
우노
##덴부르크
##las
카이로
코우타
속수무책
누설
##hn
번호판
동호인
Future
근사
발의
변화구
증명서
금광
유자
##다능
폭스바겐
정미
##카가
다재다능
노론
진사
##amb
테크놀로지
산티아고
마나카
명함
백혈
영영
파티마
비안
으르
##젠더
애도
##fl
##미안
히트맨
비엔
위문
춘천시
함교
승룡
예감
창조주
지선버스
총독부
UB
고저
교파
난조
완장
왈츠
##대신
불타오르
이동해
쿠타
##기리
2600
언어학
이수근
der
직함
카코
GIT
까맣
먹잇감
멀록
인양
접목
쥐어
진언
강박
용돈
레이튼
일리노이
Mor
pre
리빙
복량
코소
오재원
JAPAN
##비행
Queen
Old
토아
##올라
SPEC
만주국
채광
키릴
##지옥
이경규
독하
링고
몸소
후부키
영웅전설
수용체
xB
두더지
주문서
스파이럴
복역
##현희
##acy
하코다
가망
미신
청도
SHD
Ber
Fin
센토
웨이드
의수
장검
허점
중공군
Pat
스물
전보
토도
##ror
아랑전설
새천년민주당
건반
문종
총력
플랭크
해파리
335
교부
맞닿
퍼트리
##마키
die
안달
이봉
헥터
##라호마
##권력
##마다
##방위
타쿠마
오클라호마
니퍼트
mod
열망
##any
355
820
용기사
벤자
제논
죽전
##바스티
후세인
Fore
채식
타개
막대기
RES
Work
깔보
일축
천문대
일그러지
307
STAGE
영암
정열
케라
홍명
##tm
행정학
빌리지
!!!!
프란시스
동거리
모레
자폐
Exper
Plan
반야
##넨탈
보건소
시에라
싸늘
출장소
공리
본전
왜건
육수
계파
모지
##고양이
플랑크
몽둥이
연약
아자르
호문쿨루스
국부
기류
버마
아냐
필로
##만별
수아레스
자카르타
천차만별
마셜
화단
차례차례
플라톤
국세
기내
박철
엘튼
자메이
천호
##루아
357
자메이카
강지
류큐
오대
##석희
##RC
##글러스
삼국지연의
조선왕조
검법
논외
불스
사황
심층
자퇴
제수
칸트
편법
크레이그
Er
성신
than
Ill
수거
여과
##irth
컨벤
화원
##러붙
##친왕
무턱대
더글러스
만기
용광
곡사포
##TLE
어쨌거나
ㅕ야지
구수
처우
##read
루이즈
GITAD
암스트
퇴원
발군
특사
##파트라
클레오파트라
화음
##아부
시리얼
아리스토
녹슬
수세
중학
대표자
블랙리스트
전화기
한지
##티아스
광둥
숙성
장터
피안
##면체
##분별
##els
네이비
레기온
장단점
MOVIE
유실
한상
독립군
Look
초승달
JD
el
리콜
야키
타순
테크니컬
초신성
er
바짝
준이치
카우보이
전량
그레이엄
정윤종
묵묵히
말다툼
짤짤이
거진
라타
상이
아타리
피코
힘껏
OGN
리포터
무표정
ZERO
송환
장강
나성범
VT
외벽
##iant
건들
비법
린코
개소리
성리학
##리쿠
ㄴ다던지
영업소
글꼴
얀다
##타니아
##테크
boy
셋쇼
우키
##맞춤
Championship
셋쇼마루
스타인
간토
라메
민선
강물
쏟아부
일수
청라
정실
역세
이설
지노
호머
##cal
Dyn
앙골
엉터리
##화기
##강하
발사관
수저
신안
##ues
##46
중남미
원주시
접대
거만
묶음
불패
방사성
Give
공직자
효종
##cher
카카시
암스트롱
면사무소
에른
연중
##WC
포항시
라이프치히
무인역
선후배
Roll
미요시
세공
로도스
밥값
카다
태안
마다가스
묵시록
옷차림
컴필
황야
휴재
컴필레이션
Aq
could
다느니
남경
마동
의용
히미
급강하
스털
와트
코랄
피타
##어가
다윈
다국적
용모
##수소
소인수
무턱대고
꾸역
빠트리
오영
자조
잣대
710
다레
반문
옥토
지류
총액
셔틀버스
청취자
조나라
오르페
##ular
최전방
멩스
몬드
마아
오수
##레마
드라고
소비량
암스테르담
알람
애너
##ican
브래들리
철강
##셰비
육군사관학교
궁녀
부차
##form
##무쌍
계급장
강경파
만하
호연
호두
태엽
아마노
메인보드
여수시
황재균
까발리
망나
경찰차
본기
횡포
##아떨어지
뛰쳐나오
역공
구시
도수
셀카
화승
##itt
적재량
코즈믹
무분별
제끼
##자원
개항
로또
자코
전학생
##락스
아미노산
리자드
양덕
메이든
사무국
광주시
마그나
파사
필하
하울
##icle
##otion
아케치
낱말
도카이도
##부치
김하성
power
앙코르
애슬
침실
고함
사노
지략
GITADORA
how
다키
보보
비슈
주신
후시
##상어
346
쉽사리
유관
황급
##메탈
sy
일설
추태
섬광탄
끼이
##지먼트
##쓰기
매니지먼트
야포
유례
펜실
피력
##베이니아
고의로
펜실베이니아
FOR
낙점
요직
##가르트
구급차
을지언정
컨벤션
열연
주안
코볼트
나지완
추축국
오두막
애런
구조대
달달
추증
지지부진
발명품
피난민
See
각하
선녀
원초
추존
##두고
는데요
rec
치매
토레
휴고
##sy
징병제
내막
문수
삼중
CI
모덴
밀폐
클루
핵전쟁
##iw
##노르
유도탄
거구
결렬
더디
모카
소르
심취
조아
화포
##몬트
ㄴ다던
영화사
##ava
youtu
강백호
마중
자해
베이직
파이어볼
Another
시비르
틈틈
상륙작전
알베르토
온난
촉발
칙령
남동부
아폴론
통행료
반향
우성
우레
폭약
276
구미시
Make
꼬꼬
놀이터
뉴올리
펀딩
##LY
지원금
이경우
Ever
만다
반다
발라
일라이
떡칠
애증
지검
페트로
BLUE
부비
세심
후열
##side
##대원군
양민
art
벤자민
아나킨
격상
레브
맹주
##ender
리보
식감
접선
청부
친동생
게으르
백석
코딩
포포
이제야
내시
##QU
##스트리
정찰병
구릉
##인더
##루크
리서
왕전
유시민
배낭
사조
예금
아시카가
카츠라기
최연성
Mind
동티
손승
스털링
후륜
금연
리거
중일
찬탈
고상
에두
호쾌
##ami
세미나
회고록
모여들
노먼
하양
high
##워스
Fort
금관
츠요시
나루미
스탬프
##elieve
남송
충만
콜렉션
아야메
아우디
군국
달서
번안
이철
최지
클라리
끊임없
도그
방통
##주석
##뿔소
한국전력
대서양
Wonder
모체
변론
케이코
장승
야마가타
깁슨
무드
속곡
##원숭이
##달프
가나가와현
커티스
##EP
##적거리
세이라
메들리
속내
완치
쿠쿠
하이트
트랙터
670
매카트니
갱생
학도
##혜원
##여래
음악중심
전국구
칭기즈
가전
관철
구문
김밥
##버른
970
김민철
김포시
여실히
##가나
Aqours
San
ml
리파
브리오
쾌거
판별
실리콘
##SH
##슈타
258
관입
교신
군도
론도
어니스트
함종
황금색
아득히
급조
롭스
션트
양부
얽매
전미
참판
동해선
학관
전임자
치욕
##리시
##루이스
940
안젤라
라브
을려
주괴
##진군
##포인트
평택시
배회
슈츠
절로
큐리
##와트
소유주
버클리
##산맥
ARC
샌더스
역인
이교도
##불사
동일시
TFT
뒷목
시역
##엉이
단가
송금
큐티
효도
감독관
Player
고흥
방독
파블로
희곡
퍼니셔
MH
마오카
##vice
대혁명
##ddy
더라고
IOC
Squ
무쌍
포틀랜드
비교적
추진력
org
우치다
애호가
PTSD
최동
포위망
치치
257
경제학자
에드가
동귀
술래
##비나
독스
동군
예식
##uh
무루
터틀
흥덕
385
Hz
np
상습
슈이치
##ote
지지층
인내심
Sea
영생
에이핑크
시바타
WIN
시일
##예스
나가노
말미암
이그니스
루미너스
Pal
간소
선의
##원수
##hes
키네시스
CU
RNG
슬링
바이저
온천욕
군관
본즈
씨족
##비티
여객선
넘버링
TBD
원유
탈리스
직장인
애드온
러커
말싸움
상계
파훼
Ben
반점
아네
안마
선제공격
INF
생모
성호
한껏
707
지산
매물
직권
하녀
its
의례
철인
쿠와
under
진열
펀트
##시원
##재주
Ka
비취
세제
자유민주
##ICK
전태양
규합
루아
##구동
사대부
수혈
건너뛰
조석
치닫
모모카
솟아오르
반일
체임
##사탕
이정훈
기네스
팬서
##민턴
신해철
알론소
극회
부름
서운
카톡
흥선
시작점
##ellow
디그
탈의
승하차
과외
##맞추
-'
선악
263
Card
##리코
525
급속히
디비시온
나잇
성왕
##발트
설명서
멜라
스패
##tus
바스티
왜성
최종병기
리오넬
##기름
Trans
주성욱
흐트러지
어메이
유원지
정영
이승기
리버티
배드민턴
대양
라이오
Emp
Id
떠돌이
부이
서예
헤아리
기어코
무전기
pla
연유
##ffer
배웅
베스트셀러
왼손잡이
덴오
오호
촌은
헬렌
후신
국민회
무도회
총격전
Beautiful
멜버른
##고치
##버무리
카나에
930
사가라
축구팀
미카사
콘도
타미
레즈비언
맥아더
맹목
심재
헛되
##호크
스토크
이시이
기입
발걸음
세군
얼버무리
APK
분탕
종주
히요리
ㅏㅆ었
일렉트로닉
효고현
골밑
듀란
만리
사피
##ories
궁이
도다
소박
오블리
장항
키리시마
거룩
우림
조난
##거미
독음
캐럴
##93
요시히로
미즈노
산정
아연
파즈
하기
전문점
창립자
고착
복속
수의
아스널
통신망
건륭
단시간
Ko
단맛
델리
신참
잉카
스타드
##OME
조연상
국면
서툴
장합
##iness
프로그레
치료법
은하영웅
은하영웅전설
컴파일
페페
273
1880
True
BY
데코
양해
요루
프리스타
4500
니시노
프란시스코
돌림
실베
잡졸
한양대
무진장
낌새
당혹
마역
##유리
코스케
스푼
우승컵
Bus
금동
미학
방계
유충
나일
생쥐
##곡역
소매치기
얼떨결
정년
GSM
로페즈
민자
병아리
액정
마르스
이승현
불꽃놀이
츳코미
급사
김갑
승리자
노블레스
성년
필리아
히치
애니멀
이슈타르
Christmas
아누비스
데꿀
울트론
##ific
데꿀멍
낙후
크론
##PGA
송은범
관저
팔레트
730
수표
탯을
토종
학우
트랜스젠더
##ollow
류노스케
아워
##디슨
소화기
궁을
번주
야영
증류
##가야
여진족
KM
농지
시보
장도
주현
캐넌
해일
각성기
경영자
%~
UD
##처리
딴지
석권
죽창
Head
##press
국호
도형
호나우
##미남
오퍼레이션
Want
hello
김부
방종
배타
수력
##회원
알아들
비정규직
즐비
자유민주당
대합실
프로그레시브
배너
선례
영차
희석
##저찌
국내선
어찌저찌
밥상
종언
즉발
타바
##카운
##oto
bbq
된장
들러붙
베리아
불도
성교
##컬레이터
에스컬레이터
시스터즈
미치루
타카야마
검진
다마스
백야
에리나
Ve
다항
비결
##개미
잔느
좌회전
##ask
전반부
청동기
결방
덜덜
민회
벨로
진루
형광
그루브
오블리비언
장구
파니
##겹살
박지원
리딩
마닐라
묘역
유러
유표
폐렴
##르디
오르간
324
군부대
뒤덮이
대꾸
로커
##ih
Sub
Tur
문대
미비
소연
이학
자청
핀치
황선
##부아르
##민정
##테온
##실신
상도
으세요
은커녕
페티
##콜라
유리코
커넥트
##바오
프레이야
라세
포가
##po
##북자
수리비
판테온
##reas
경의선
월경
회생
모질
에린
강신
떡실신
소치
장렬
주창
효능
##리지
Earth
SI
YTN
논평
발끈
방귀
예프
푸르지오
다카라
인문학
데프콘
네츠
셀레스
가르드
##ister
Av
본교
유랑
하버
프리트
황급히
AGE
아주머니
상세히
유러피언
파시스트
이즈모
공대공
지난번
나탈리
산군
시판
친아버지
잉어
죠니
스테파
조직력
부러뜨리
ha
흥원
링크스
투표수
고사하고
독침
항법
##화학
402
운동회
메디치
골칫
블락
디펜더
행진곡
유즈키
이펙터
종국
주영
캠벨
케임
헤이안
야인시대
Dam
골판
사표
스핑
위업
청담
개척자
볼드체
모처럼
양각
종단
카타리나
꿋꿋
농가
시럽
으뜸
##미나
##금속
##해방
라이어
요란
비행사
리라는
나나세
남서부
연예대상
Group
시흥시
대참사
몰타
에테
영판
##마차
##ones
283
Street
레노
스팸
완충
초석
카산
프로텍
유사시
시어머니
오시리스
군가
민경
삼겹살
유강
정맥
##쿠젠
타임즈
노토
식도
자스
핸드볼
Two
소티
##ini
star
폭주족
SPECIAL
도지사
아탈
진주시
픽스
##유행
알렉산드라
투석기
피플
##YY
마노
웅덩이
율법
쥬리
집시
##요한
슈퍼컵
아라키
경쟁사
##ives
탈레반
du
남군
대죄
뱌쿠
##니파
284
토미노
정략
그로기
사륜
양극
주마
##ress
ㄹ려면
친선경기
youtube
Vi
아스트라
9999
조민
얻어먹
고룡
독가스
동종
무위
입소
지저분
어메이징
구야
독기
보호법
무한대
트라이얼
미주리
뽀삐
시이나
피로도
구박
참회
##port
TOUR
태커
MSM
플로어
프리스타일
글쎄
대식
러버
폴로
##난방
##onight
마리카
스위칭
파스칼
극락
노시
숱하
총동원
##미경
영연방
벌벌
화강
인민해방
인민해방군
넘나들
유루
최현
피살
보헤미아
라쿠텐
LD
카본
##bow
yul
오송
뉴올리언스
버로우
선미
정찬
흠집
맞아떨어지
바레
숙달
전망대
##과학
에이즈
뽀뽀
카발
261
277
323
386
시현
조서
타이트
004
아르고
gonna
쓰시마
프로파
Electr
##scape
송시열
트럼펫
독려
쫓아다니
수동변속기
{{{#!
등신
타의
유우나
결산
덴버
##ja
트레이스
비비안
아우구스투스
국소
벌점
베오
손익
앵그리
피어나
김유신
송강
예보
팀워크
##재호
마리코
##ada
크로즈
고관
마안
바타
용법
고지대
리플레이
양학
정색
포세
김민성
Burn
미형
습기
##CO
맞춤법
Techn
기침
두고
##상하
원산지
프란치스코
방독면
등짝
유럽연합
ep
데포르
##라마
##디트
소문나
기차역
다카라즈카
기척
야후
마사미
##bert
초음파
결판
더치
소국
쇼지
수스
피폭
##닥뜨리
발표회
VF
이산
정강
코모
오르내리
##roid
Shadow
두고두고
로다
##어사
강화도
마요이
NBC
맞닥뜨리
흔드
##쿠르
통찰력
리븐
##현상
야코
마나미
시타델
##afe
달렉
병들
자외선
정월
해괴
유라시아
니다
윤서
자파
##MM
영웅전
SSS
하하하
여태껏
귀순
##AMP
870
박원순
휘발유
렐리아
부다
켄치
포인
크리스티아
유희관
깊숙히
카스티야
XL
노크
백승
상환
오벨
케이프
피스톤
멍청이
차우찬
러일
혹자
알비온
영하
##토메
도플
인코
다운타운
LoL
Intel
개근
바렛
부군
294
벅차
하물
##코비치
##lad
민주자유
Global
민주자유당
대손
대청
랴오
백동
sky
전의
추하
햇살
##누이
노르드
##HS
플라밍고
티라노사우루스
KK
금괴
닭고기
물들이
플릿
##탄두
대문자
VOD
야성
자시
##aint
오락가락
딜레마
엄친
이등
후폭풍
##ker
codice
누에
모피
미케
여간
임박
구력
꿀리
파급
##당당
오디세이
캔자스시티
Hal
밋밋
북스
사간
식탁
주거지
##비안
방랑자
병마
앞날
황위
정규직
불로불사
YES
카스트
번거롭
-.-
네드
추악
##태자
아니마
##uts
비서실
녹턴
령우
터득
한식
Reb
테이머
민가
##제철
Fro
내통
수액
전군
진천
코코아
근본주의
정몽주
상전
이딴
영상물
가루다
아만다
OFF
부영
아발론
지양
키오
274
발사대
지하철역
##APP
##셰비키
##홀름
정준영
did
노회
맨션
##토쿠
케이이치
부지런
ind
감화
메노
무디
항변
요시유키
Chapter
TK
시테
엘자
커서
##ken
이색
전상
정병
치에
코에이
##뎅이
920
이지선
김동준
카탈로그
클로즈업
Tok
디안
명목상
사이타마현
밟히
원킬
권세
라일
리의
이택
##oman
015
이정현
Silver
복직
완행
재원
참배
서사시
##껍질
미스티
Hand
오차
용검
##무사
사쿠마
모터쇼
TECHNIKA
끝자락
양키
조지프
보디가드
데크
살생
왕릉
지긋
이왕
테마파크
노원구
옴니버스
무반
신우
파이퍼
소체
양준혁
중서
선왕
제퍼슨
멸칭
호수비
옥스퍼드
병조
인더스
267
050
녹색당
군의
외딴
위너
정단
키코
후지이
앙드레
중흥
탄성
피니
##펜하
Studio
Leader
신동엽
재조명
안일
현대인
공수부대
테트라
호지
##천후
##ative
비누
빅스
위례
판국
통합진보당
화염병
거성
파쿠
피나
##97
HC
동고
순혈
실효
창녀
하루하루
Dep
맞은
비버
부산시
338
김나
냉소
이부
해동
##시설
##타스
##쿠니
스위프트
곱하
악동
오선
총평
황보
##히메
##베라
화물선
##기아
##jor
라이노
Cost
work
료타
전란
타카다
김태원
Double
JO
꼬드기
요셉
CHA
반정부
##먼지
동력원
수색대
이회창
척탄병
추신
곡식
구강
담화
박선
선덕
히데아키
Water
나침
샤드
##포츠
##쓰럽
려는데
세르히
Cloud
동갑내기
무심코
터무니없
금산
난타
노포
271
알렉세이
하후돈
Hor
Pur
야고
학비
현과
금사
미발
##ior
##갱어
중앙부
조그마
Second
도플갱어
당사
성나
조군
바티스타
맞은편
Us
커세어
국제법
마쿠
연작
##골목
##앵글
리턴즈
김석
제프리
##KE
와카야마
금리
청정
침례
268
miss
뻔히
어가
주구장
폴드
항생
주구장창
Oper
베일리
칼슘
마천루
셧아웃
작업장
가꾸
갔다오
리무진
왜군
지법
##애자
세기말
소지품
지느러미
핵미사일
휘장
003
수집가
스즈카
법조인
kW
법대
에무
우러
효성
2800
HERO
글귀
보패
치진
##ery
여호
이종범
지크프리트
AU
대웅
문맥
친히
Cho
특촬물
얽매이
펜티
하찮
호흡기
이범호
펜티엄
신일본
##쿠보
Ju
등불
##나물
스티어
레스큐
경춘
임성
##YO
##막이
미확
비빔
.?
리츠코
영락없
Bill
미온
타령
##ASH
트라이앵글
츠노
##Boy
##충전
여성향
각개
젊음
##마켓
##프스키
강정호
경차
니켈
단풍
변변
아웃사이
Radio
아웃사이더
Know
악세서리
##ating
성장기
1889
하물며
공법
기슭
세피
415
롯데월드
교도관
다현
매립
백정
빼어나
한일
##부쿠로
무한정
고노
다든가
외판
고우키
로터
반미
쇼타로
투병
##니카
##보성
##던스
거침없이
손주
재충전
아츠코
big
국명
리퀴
리미터
부득이
하중
##KA
바실리
점성술
궁사
머금
불고기
황교
모더
위자
최수
마사코
미군정
마이크로
서강대
냅두
알베르
##cy
Gre
PART
내키
슈투
어태
헬름
##미널
하이데
관서
박력
아슈
영식
음독
준말
착실
마틸다
신겐
청송
Thank
Vita
거실
슈미트
학당
##stal
유일무이
##OTHER
Ki
값싸
어림
이발
코메
표차
감차
렌지
동대구
뼈대
287
through
그레고
싸이코
공덕
장부
해법
##전등
배재
서른
카림
국민정부
맥시멈
===
치곤
금제
에이트
이능
##ael
태양광
반지름
널널
역사가
1870
아케미
아유무
##만장
##카이저
MOM
축약
켄신
##공산
여초
이끼
퇴계
포용
자유도
의무병
석가모니
김풍
휘어지
##거품
김정우
신앙심
어두
치장
퀸시
부르주
475
브루드
South
Right
베히
순욱
##비크
##하타
경기병
수풀
중문
탈선
하이스쿨
Vers
문득
##텔레스
개정판
블로거
꽁꽁
다로
패튼
할퀴
##iko
조리개
MAR
불후
체인지업
아드리아
Sign
Walk
강석
박대
중간중간
기하급수
포에
##역학
아야네
Wel
몰카
블럼
티라
응원단
##uff
스테파니
주사기
리암
메뚜기
코넬
수원역
마츠오카
루시드
박이
징조
코야마
현충
##사건
관계없
괴한
성좌
소독
조전
핏줄
##67
##버러
가평
풀어놓
폭풍우
리네
변국
시무
피조
##imate
끌어내리
세인트루이스
제제
항렬
현생
DOS
DREAM
상작
318
디나모
나방
소타
저해
투아
##타리오
다이쇼
##트라이트
순양전함
리튬
알토
Sin
산개
요트
저수
##티에
##하트
항공편
정의감
740
Sa
교문
머스탱
아리스토텔레스
수건
시퀀
천인
야쿠모
안치홍
Land
기우
묘호
빵집
소이치로
##hel
Mid
라던지
모텔
이찬
레이프
TUN
꼭지
홀더
##대전
##퉁이
브뤼셀
혈투
위도
##킨슨
액터
헥토르
LIG
대주주
+,
VV
맴돌
환시
흑자
무지하
Born
Cross
남베트남
미에
식욕
##usion
Qual
라네
무속
별빛
입안
##uz
##개발
Where
바꿔치기
RW
give
월남
최윤
590
경향신문
EDG
꼬치
이레
모이라
오프사이드
##ters
날조
아차
츠키
##다임
타이라
지팡
##나도
##딩크
살인자
에른스트
끌려오
답니다
막심
알콜
조소
##네그로
휴식기
극작
라엘
패러다임
수줍
아낌
절기
엘리시
네빌
##바도르
지배하
##axy
Jr
Lab
개의
병무
309
##stic
악순환
연선
현도
이웃집
하이드라
결실
매섭
##꾸러기
로버츠
Electrical
난방
바키
뻗치
유생
친형
부녀자
교동
보훈
안재
우완
직류
관리국
IL
노구
도매
호퍼
XG
바네
히지
아오모리
대마초
일회용
신랑
쇠뇌
완파
암살단
디스토
카스가
케임브리지
잡이
축산
호동
조승우
루도
소신
신오
우도
##도록
259
다이몬
##ANT
발원
지병
지와
Pres
길버트
불사신
Speed
XIII
서핑
성심
오야
조식
##이츠
양산시
개역
필중
##ces
기념품
Original
아나톨리아
마무
실프
노벨상
마정
아프간
애덤스
##come
스모크
불변
쇼고
이효리
계명
연신
유급
퇴위
피넛
후쿠오카현
시진핑
에르난데스
황건적
나침반
포교
히딩크
too
롯데마트
의문점
Some
동질
오명
##빌라이
고승
몽크
샤라
송영
시의
신궁
##꾸역
282
조진
레인즈
꾸역꾸역
##왕후
보이콧
당뇨병
Forever
TM
김효
바레인
연시
해산물
이방인
공론
샤론
소하
온실
타에
##정보
##수선
자유투
타케다
라치오
리벨
이태양
강현
주치
힐데
##북면
원더걸스
떄문에
불출
승상
켄타로
##ora
노량진
Mill
##fer
가역
핏빛
취약점
run
동태
Circ
말벌
바일
역수
황성
최전선
리니
본색
세리아
역경
헤로
int
신조어
"-
West
야노
##버스터
그러다
전사자
리베로
현수막
가모
배꼽
중보
진우
청록
##챙이
나카타
플로라
김옥
모비스
버틀러
팝업
키리코
근절
급부상
인건
END
짜장면
넥톤
식수
압구
##이스트
##바바
플레이스
단두
모랄
앙헬
올랜
육손
음유
조타
첫눈
집단군
1884
노도
처자
환전
묵살
보상금
프레시
Collection
god
나베
낚아
라일라
외삼
야마노
으려다
협력자
별관
세하
승단
위헌
이스타
파쇄
는다거나
미치코
이치현
애드립
히다카
리호
성내
여몽
일장
##창호
##raw
사법부
미시시피
채무자
노자
문물
오리아나
##셔리
럭셔리
신판
##ji
317
##akes
연주회
Shin
류중
옆면
탐내
네덜란드어
밸류
샐리
이족
질기
##here
##룩스
read
호그와트
Extra
비위
이병규
몬테네그로
FP
가뿐
시편
일기장
리시버
VOL
빠짐
체스터
##호테
##당선
##세르크
##공신
신대륙
닉슨
신계
아야세
브라보
KL
가파르
갑각
노총
토고
##디부아르
##셔스
모자르
초대장
저작물
코트디부아르
Episode
잡아당기
뷰어
수려
한나
##yl
##돈나
지구인
대원군
빠짐없이
미추
##마타
나경
민스
##키드
중요도
제스처
강태
무득점
화풀이
모노레일
대작전
캐터
##큘럼
기관지
니시무라
원석
입헌
##랄라
Wild
스탄
호건
오카베
콘스탄티노폴리스
거사
불순
유종
존엄
칸타
크로마
오오츠카
브로드웨이
불시착
Award
size
검단
배설
티엘
##vin
물러가
정우람
네스트
더위
가입자
김성주
##ipp
카게야마
#==
COL
pack
끈끈
장모
할로우
라운지
수혜자
답장
도저
이마스
머리띠
356
모리슨
LT
도킹
들판
안쓰럽
TRPG
장권
적출
전말
픽시브
경영진
해적선
가디
산신
장태
수경
키츠
##live
##평리
전근대
리도
서한
휴학
##실험
커리큘럼
로치
역겹
원샷
298
미하엘
펜던트
279
선지자
Dynam
video
골자
코보
##데자
오카야마
스톡홀름
경색
악성
온타리오
재지
해시
##데자네이
little
신보
카와이
JS
Pet
POWER
htm
로베르
성찬
친딸
카파
창업주
치토세
Iron
OL
car
가극
누카
안목
정희
##캐롤
아트록스
가속도
유장
##HO
마사오
청소부
리서치
생화학
핵탄두
혹성
보관소
기정사
물병
부심
비무장
##고비나
##체고비나
정상인
수십만
기정사실
고배
속어
스컴
쩔쩔
카잔
티티
하아
기말
명회
백금
약관
향로
한성부
검수
느닷
로랑
서천
피폐
##받아치
##ese
보수주의
바운스
블리스
씹히
양승
인덕
리우데자네이
American
리우데자네이루
가나다
이혜
탈북자
오스트리
SoC
##UMI
흉내내
컨버터
##캐롤라이나
PRE
Ray
들먹이
리그컵
기모노
가브
동과
장차
준코
##고시
##벼락
##edia
상심
전병
##노동
009
굴러다니
꼰대
데블
선양
확연
##승지
Prot
RNA
friend
갈매기
배영수
##ios
아키모토
수호천사
청탁
백과사전
건널
김천시
캐피탈
포우
##처치
##유사
##깨우
프로즌
건널목
댄싱
외신
점퍼
테트리스
함흥
##저냥
후쿠이
하라다
KG
레더
발길
식초
폐역
대표단
##자치단체
매몰
콜리
##부패
Chall
이와타
개사
전뇌
후렴
278
296
부정부패
춘향
류중일
may
바젤
오를
일깨우
조중
##날린
미성숙
하후연
세르히오
낙오
다와
부왕
##타나
파이로
Fa
강선
이카리
종장
지회
##사쿠
Child
승조원
위배
유익
289
레버쿠젠
하코다테
론드
장마
칼초
헬륨
Gar
기가
도야마
성정
저전
콧수염
스핑크스
문산
속담
제미니
910
와카바
문호준
다든지
##태평
##공학
주먹밥
TNA
아라드
1885
파로
홍시
##FE
##IZ
스포르
올랜도
동음
선인장
Eyes
절충
김재호
카운트다운
비올라
성토
인부
##cc
269
comp
룸메이트
역주
혹한
##라이드
마스터스
라던
이동국
조총
짜르
##비츠
리스본
이성열
연산자
명반
##루즈
##**
그냥저냥
스토킹
민병헌
경시청
골판지
File
고열
융통
탈리아
평형
##웃음
black
도당
하태
##ko
카이사
people
##랜더
네이마르
런들
문지기
윤희
Inst
작사가
Lord
곤잘
공권력
차역
경종
나위
##물질
과소
이베이
아르토
카즈토
mon
빨아먹
쓰촨
알베르트
이봐
금강산
급작
조규
치노
턱없이
방문객
루브
순애
오목
##oid
간청
협소
##리르
2024
Hall
WBC
구전
급박
리소스
##풍선
국가원수
아카데미상
##메이커
구파
소포
손재주
수필
심성
처박히
020
오카자키
푸아
헌제
##주얼
장원준
페르디난트
공보
인편
타테
비행대
리카르도
소바
우표
교통카드
sur
전가
증서
##aki
##REAK
안무가
보름달
개굴
걸출
부엉이
센텀
이데아
##하우스
차이나
##aeb
뒤흔들
미확인
기급
오파
CONC
광원
유달리
##por
##유희
아드레
온두
월계
##라도나
스기타
온두라스
보시
찰지
에스텔
어벤저스
민물
산기
지파
프리깃
교육학
단체장
오승환
Lim
대들
야훼
차인
채영
호실
##사메
나이키
Mich
mind
고명
느림
드락
붙들
전입
전희
참새
지휘부
베르나르
귀여
루체
버질
은닉
참작
츠츠
휴즈
##춧가루
내리막
Ze
카슈
칼집
캐주얼
나이토
##이어티
돌격대
Plat
고환
행정관
아드레날린
그나
나포
쾌활
훌린
시아파
COST
대항해시대
급전
깨부수
##aa
##비에
감염증
미적분
앵무새
RM
fun
렉터
사하라
새뮤
중합
직각
히마
##심원
2300
EG
바케
소풍
유두
장경
재치
제창
호죠
NFC
사대
지반
학동
형량
교육자
336
Arch
동반자
조반니
남초
자영
##IVER
##와키
메키
몸담
키라리
텃밭
##트르
##행성
사형수
다혈
몰수
병약
##삼키
소대원
스완지
RK
che
그럴
김도우
장어
친환경
운전석
신분당선
정전식
예우
쿠소
##멜로
##andy
소사이어티
##일점
하루나
레우스
상명
정용
008
엄정
니시키
Vf
백운
2030
아킬레스
실패작
집어삼키
농축
용가
##리치
기능사
아키하바라
=,
곡예
답하
방조
예절
용수
후마
##연기
일본도
루스벨트
LH
방도
수현
##림픽
폭발력
박민우
빌더
압록
콜린스
베르디
홀딩스
바움
협찬
ElectricalBoy
치비
##크론
전년도
TER
제레
폭장
##lear
매니악
스턴스
미라쥬
마쓰다이라
로베르트
원균
탐방
패링
국고
히비
Ban
Mart
백모
속셈
플렉스
게임차
나치오
강병
남장
링링
산불
초롱
츠구미
마사지
메르스
수감자
내몰
벤제
인회
혼령
아우렐
MCU
아랑곳
군의관
가레스
격화
고액
양질
조안
득점력
이주민
Rh
공제
포춘
##추리
##맞이
고고학자
조인성
mag
돈독
벼랑
순경
위버
입담
레이건
##istory
def
선취점
외질
의향
##불교
총기류
외동딸
후견인
물기
판치
품위
##추얼
굴하
숭실
접종
##개토
##폭스
곤봉
극치
물거품
위연
투데이
##스톱
444
브리기
그럴싸
가논
경무
룩스
멜로
반투
충전기
측정기
다혈질
집념
배기량
DRA
로한
지존
책사
황충
이케부쿠로
베크
빽빽
##파인더
마음속
아라곤
대법원장
시퀀스
궁기
도일
산역
스펀
쿠치
##샤오
둔감
띄어쓰
망정
서너
주나라
##동사
##놀림
ass
구심
오데
281
컨설팅
벤제마
카락스
브리타니아
fire
par
민호
부응
빙자
저마다
에디슨
흥선대원군
항생제
imp
당구
안시
앞바다
690
용기병
하카타
박시
벤투
사부로
에타
##람스
광개토
변성
웨슬리
##미리
토모미
##ISE
체벌
홍지
##LV
APEX
##이야기
Bas
가용
감점
국화
데우
마론
닷지
명가
목판
서성
핀잔
##크림
006
시찰
영과
와리오
이티
핵실험
##xy
골목길
모국어
wr
도축
조재
하즈키
##자르
##를로
다이어리
자료실
지리산
니이
산양
하일
297
곰팡이
뮤지
양구
팩터
합전
EXE
명과
보면
부축
접합
코뿔소
호국
##케이드
##rie
이로하
도재욱
북측
유현
게스
도탄
수화
쿠다
##ising
384
레드불
326
음양사
독약
##cept
Bon
니모
font
권외
안위
레이즈
청량리
Ball
동공
식히
초성
폴리곤
권위주의
관악구
히이라기
Dist
WD
군무
노파
빛깔
지어
파하
쥐어짜
노현
적수
##56
##레알
##받이
콤비네이션
김유정
나탈리아
급급
증산
##쿠마
지리학
열거
천거
탁자
##ii
##대성
히로아키
주먹질
RD
라피스
리피
의태
홍천
OH
구포
읍내
잇달
혹여
Round
sing
깁스
외손
형질
스카프
호소다
##르기스
채태인
철기
##클라
406
770
고세이
랜더
외고
가와사키
새뮤얼
지탄
타크
##인명
다이얼
카즈오
냉면
트집
##mar
##ddle
드니
육전
익룡
한데
대관식
미덕
정모
차녀
창백
파레
순정만화
장고
적설
##토무
와이즈
박정현
헤르체고비나
Royal
낙엽
대권
양력
위트
정판
현우
##ouri
요금소
슈가맨
리벨리온
낚아채
면전
조스
피디
##TO
##타주
비대칭
수족관
스테파노
TJ
독학
보노
스벤
키르기스
피조물
Wo
교우
차수
sub
마샬
신마
코오
코츠
흐릿
##테우스
##른베르크
리자몽
\[
만치
어조
임파
조윤
초속
쿨러
##reme
##vers
복합체
사절단
##그래피
로큰
워렌
홍백
생활비
브리티시
성전환
Guard
아보
우현
츠시
##브리아
마가렛
단두대
마돈나
영세
##호란
##즈미
##리어스
삼성그룹
still
토벌전
GDI
전준
##푸리
##막히
이와테
닛타
온과
일말
카포
프시
319
부여군
알폰소
브리기테
Our
비보
하소연
##ault
아마미
##oke
익스플로
아울렛
익스플로러
탄광
할애
##레온
KAC
손전등
앙숙
은발
테네시
헤비메탈
Parad
수마
접히
##BL
##inity
코노미
데니
빚어지
예멘
자괴
보이저
김재현
HMS
기선
상큼
음차
주무
Nav
##교동
오현민
ft
이지만
화법
##acle
Cast
가곡
옥황
책자
페스트
휴머
where
마르크스주의
two
사이좋
모래시계
경춘선
도큐
무왕
샐러리
아무로
박건우
카산드라
노로
더그
페터
##of
포니테일
함경남도
매킨토시
mac
군소
292
하이바라
파우더
Bell
꿰차
아칸
윤하
##ener
Stop
토모에
군락
김철
안부
요오
합본
입장권
노상
니시오
스몬
옥좌
##iec
레스테
보안법
에뮬레이터
박헌영
HAPP
Luc
티미
##ugh
요시타카
히토시
약혼녀
고춧가루
내재
메구
우타이
음직
아야지
교통수단
도미노
봉선
비탄
포경
히라가나
파스텔
rpm
그리움
카세트
만신창
샤프트
스며
입금
정청
강릉시
박해민
헐리우드
군비
임산부
종시
##잔치
하여튼
롤스터
제원
난항
홍설
##min
1850
860
히타치
강룡
낚싯
멤피스
상연
선라이즈
옮겨
전초
컵라면
센티넬
관현악단
덕수
산둥
카고
요시키
Far
거상
고바야시
보궐
에렌
##푸드
##여왕
녹아들
라벤
무주
하등
혈청
##민당
ret
독식
비수
티치
##코로
삼국유사
유공자
VII
식료
투덜거리
철조
30000
sl
목회
박은
엿보이
종북
과달
듬뿍
떠맡
볼셰비키
사디
지소
코버
##츠바
first
tell
베츠
세관
적병
켜지
오벨리스크
세크
요시아키
장량
간디
대야
씨스타
와전
뇌신
디렉
##아넘기
##악단
Style
항해사
##올로기
이데올로기
내동
폭렬
||
골인
공해
역린
유리아
의정
흑사병
##데우스
만월
무브
쉬프
초이스
음악실
패럴림픽
낚이
네즈
으레
Stars
석양
심수
은유
합참
행패
바이브
참모장
tri
잔나
연대장
마스미
강동구
VO
팔콘
##alth
국민학교
이치노세
글로리아
피오나
로큰롤
Alex
김사
람다
요츠바
주니
품격
##모프
##피카
##락부
유키나
서장훈
온건파
니노
리링
미연
버나드
신월
##ever
금품
환하
LEVEL
사우론
Ur
타트
중재자
겸직
돌프
산청
야라
용마
제군
스테로이드
크리에이
크리에이티브
무희
수나라
은사
그래비티
결정체
라보
색인
포부
##르츠
밥줄
번즈
용해
이씨
일과
투석
ref
포도당
그로스
등부
디브
신랄
인품
화정
휘청
화강암
루츠
아난
외식
연주가
del
남우
담론
백자
플린
히루
##찌개
##iter
무인기
FU
Jump
도토리
약소
##배추
타이푼
Golden
들끓
영걸
장서
함의
후훗
네이팜
간선버스
송창식
상파
언동
이바지
커쇼
매디슨
아산시
욱일기
잡다
집무실
쿠르트
열람실
덕아웃
배짱
요이치
아탈란
바네사
무브먼트
bec
넘나드
염화
##인구
real
선제후
곤살
수포
신이치로
아방
약학
중신
폭정
고출력
벤쳐
##gar
##둥절
프리뷰
어리둥절
Mob
트래픽
HO
네리
장외
##닥거리
343
타카유키
논술
분별
아뢰
진서
Ref
NEXT
잔기
풍족
보내오
기간제
app
커즈
투시
##기병
머릿수
어퍼컷
콜럼버스
젓가락
팀플레이
##가면
Conc
예배당
앞발
완다
장년
제니스
516
레카
순결
찬반
##orrow
830
호쿠토
고물
배합
충렬
타박
##석탑
해안선
부르주아
Got
자구
토호
##ba
exp
마다가스카르
극비
아사노
올려놓
구례
대당
준주
증감
스스무
교지
살의
정순
총상
호성
##층석탑
Dear
레퍼
문턱
점진
##애플
##젤로
헤르만
Code
꽃미남
자그
토니아
오카모토
아지므로
##akao
계량
군신
서당
친위
코고로
황정
##티드
스파르
카미유
가맹점
노안
리신
북송
와일리
아라카와
지상주의
명문가
군산시
셰필드
소작
재석
##영화
MSX
Ti
지피
킬라
활자
떠돌아다니
겹쳐지
만무
신족
예종
이간
천억
카요
##걸리
토스카
해적판
자책골
padd
광휘
얕보
##ㅋㅋ
##ste
양성소
노니
병동
수증
실신
코스터
##파스
재판장
시한부
대연
산수
삼지
엉성
인덱스
3200
Mini
하비에르
영능
전유
판문
##예술
ㄴ데요
촬영장
라헬
리니지
여분
##43
나단
롤백
적벽
트레저
블록버스터
곤잘레스
데자
불우
선과
성행위
오에
찬물
판금
##핸드
양산박
영남대
안중근
OUT
성진
일차
징후
스파게티
##trl
블링
비뉴
암드
페그
291
크로커
모리타
트리스탄
Engine
Ros
~!!
##73
then
실종자
##ternal
언저리
제노스
화형
##나항공
스트릭
아시아나항공
장타력
##uke
모우
설욕
331
엔드게임
트래비스
양아버지
칼리스타
힐다
##under
세계사
1001
일단락
소희
외톨
케모
수성구
서유기
펠로
##ARE
1888
키노시타
Flash
고을
렌치
중의
폐해
##연구
Rap
도노
북해
오존
작열
##글거리
허리띠
1871
레다
815
유성구
라미아
기주
도제
만석
성관
우시오
컴팩트
쿠빌라이
351
앙골라
군체
노점
벌목
##패닉
회사원
아카바
안드레이
히스패닉
낭독
박테리아
육사
전등
검사장
STX
##ucky
섬멸전
Attack
내다보
늘어
류승
불합
억류
적십자
졸전
펜리르
파피루스
교가
##갈기
위기감
콘스탄티노플
코소보
대졸
식판
축조
포카
##주머니
구지
노모
우발
익주
토프
##uel
에스페
버진
습도
장충
##못하
레이버
느닷없이
난바
늘이
망전
원당
점토
현악
##문고
pp
갈증
선화
성상
임계
이브라
김수현
html
Face
덕양
명기
##kn
육탄전
고티
뉴타운
독차
창세
##ule
##AV
##치산
322
705
485
김영철
이지영
남녀공학
통계학
##ought
네이션스컵
other
경은
대란
렛츠
마라도나
브로스
하수구
수구
악덕
채권자
최충
타계
아서라도
제트기
나바
매표
무카이
발드
북대
잽싸
Princ
가결
깨우치
##보르
바쿠간
남도
루퍼
아하
얄짤
외가
서양인
얄짤없
MIN
느릿
선입
취침
커드
영유권
나영
멍하니
봉승
영제
후각
533
손승락
크리스티아누
Away
점착
계산기
Chaos
황교안
Pri
의형제
쥬스
특명
##소디
342
중추원
?"
골반
##눈물
사용량
435
그리스도교
background
카멜레온
간절히
염라대왕
레퍼토리
과세
레비아
뮤츠
발부
애절
양주시
충칭
파내
활짝
##소득
##GN
##피크
아키즈키
상점가
레비아탄
Fair
GOLD
명군
배팅
애꿎
용례
잦아지
공사장
재건축
요하네스
생몰년
Tell
라간
쇼팽
정평
철창
##트가르트
Galaxy
슈투트가르트
도민
모데
쁘띠
안가
응축
설레발
곤경
레모
바바라
시망
양배추
요기
울먹이
코린
##bat
타이르
419
카시와
블레어
소홀히
인코딩
must
답례
찬드라
##천하
공터
부교
이츠카
종편
홍길동
히가
##hone
##훈장
스트립
song
und
국인
열량
개최지
성전사
단짝
터로
음악회
노이어
부탄
잡스
헬리오스
##enz
집안일
포인터
사철
연개
윤곽
이요
##사유
403
칼리파
Wave
act
왕왕
##십리
중국식
개점
말풍선
##iam
##ique
##러시
무라사키
DN
~,
망고
바울
쟁점
##sung
야구팀
미야비
사마소
상상력
기부금
정조준
휴게실
후루카와
TNT
BAT
바스크
자성
Yo
##들레
##ORY
히메네스
윤성환
Ak
책장
##eca
아킬레우스
WOW
골동
세그
준위
##42
이끌어내
키라라
영자
천신
기관사
재정부
NTR
갈림
쑨원
자업자
군국주의
자업자득
WS
극렬
송승
에치
캐내
행실
히바
에스테
요격기
로킹
서막
염보성
청중
나카야마
조용필
친일인명
친일인명사전
록키
매국
심혈
역자
칼뱅
플립
평안북도
모치즈키
'"
가운
거병
무정부
야근
양서
재심
절박
총학
콩트
퇴색
2025
양성자
부랴
캣츠
쿠션
허스키
흔쾌
국민은행
Crazy
빛내
연임
피눈물
미카미
##berg
나나코
경성부
함경북도
Ven
낙관
뒷이야기
성덕
출도
아리안
과도기
이택근
Lady
노심
스탑
##세다
505
오피스텔
성북구
padding
난국
드리우
삼국전
line
꿈속
뉘른베르크
엔투스
염주
요아
카베
타전
파타
##Force
##ript
랩소디
베개
슈프
표제
야구팬
보병대
CAN
도독
메다
이직
##셔닝
이동식
412
우스꽝
787
클로저
포지셔닝
PVE
매터
미라지
성냥
접두사
##도그
다카하시
도파
뒷골목
렌트
빈유
##dom
구자욱
hellojo
어딨
절개
종가
대리석
조선왕조실록
노진
##라치
세그먼트
안지
참의원
##박쥐
##ota
무소속
;;
free
급유
박광
장석
안타까
가부장
랄라
성군
소학교
ND
료우
모략
번리
비사
비준
형평
모드레드
김종필
예수회
여차하면
IX
마흐
친아들
##itter
##olding
외삼촌
Count
검객
난립
도륙
빗발
산도
삼보
##탈출
##채기
##amu
##abe
야스히로
은평구
LW
이항
팔콤
395
탈리야
성동구
HYP
Lin
니트로
몸부림
백악기
연제
##HA
##드라이
##려내
길리
버추얼
328
되도록
퀘이
후지모토
공작원
애완견
가독성
npc
단판
에어리얼
Low
러니
시문
우솝
잿빛
텍스처
Dawn
GUMI
겁나
사별
##스태
##무제
##ima
컨셉트
always
하하하하
외할아버지
fall
다빈
밀림
##omet
마리우스
부다페스트
break
남만
##메리
내려앉
내려다보
##체스코
비공
원이
좌지우
최병
포리
##프릭스
##합성
기타프릭스
원정군
코코넛
과감히
##ruct
좌지우지
복병
상쾌
샤나
서안
파올로
##토리코
신경질
막시밀리
극작가
MID
간만
HTML
박주영
갖은
두리
시물
주종
참견
MBT
EVER
OZ
Wal
네라
덜렁
어렴
세계선
레이아웃
도로공사
515
##pha
캐럿
##cat
선거관리
가라테
평안남도
히지카타
선거관리위원회
border
비츠
적개
미나모토노
고성군
은의
타타르
혼신
부르고
상영관
이준석
class
곡도
이권
찌푸리
##런드
##뿌요
선수상
뿌요뿌요
푸에르토리코
GV
find
기근
낸시
데이드
타니아
형무소
관찰자
Element
스칸디나
골칫거리
갈림길
스칸디나비아
무쇠
추스
현지인
BN
lea
박서
앞지르
음정
호통
##ITION
김정민
로리콘
year
도레미
참관
##후무
현대차
공주시
전무후무
ESC
파인애플
방청객
스파르탄
Train
리야
비클
뿔뿔
퇴보
##통행
David
간다르
눈덩이
목도
미란다
비만
요안
##그네
옥타비아
Point
모하메드
추신수
간다르바
쌍방
앞길
서로마
비올레
라일리
모씨
문전
어버
##사항
##솔리니
겨울철
live
극진
노코
사만
신구
역효과
오답
핍박
헨더슨
흩날리
ACL
제너레이션
고성능
고속철도
메디컬
수역
에세이
체공
##mo
##FS
유민상
교보
리시브
주워
환희
훼이크
##전드
##ffect
달성군
거제시
민생
빅리그
역모
외척
점액
탯에
스펀지
Tig
Vis
새하
설산
심리학자
선풍기
식충
홍석
##려먹
다니까
브리즈
다리아
리미
지층
홍주
학살자
플레잉
Adren
난파
하숙
기업가
##제르맹
Machine
번뜩
비술
화백
##의식
클라우스
서양식
이코마
독차지
등수
사그라들
영매
일인
쿠로다
이매진
반시
생제르맹
얹히
음각
익산시
부평구
그레고리오
흔쾌히
ROCK
배영
쑥대
정일
투박
##라르
##파람
판매고
399
##USH
Evil
슬리퍼
##aeboo
Ring
경품
##극상
##/-
Bul
DG
본방
장광
정과
진부
mp
밤낮
특수전
project
dark
루지
문부
연세
유학생
평신
회송
떠나보내
수도회
지상전
show
곤도
노랫
다원
암약
엇비슷
적반
정육
철원
이지훈
리퀴드
던컨
세레스
신스케
자학
팽이
프란체스코
시가전
##태평양
Caeboo
Lea
소냐
해왕
아야코
혁명가
구치소
XM
ㅠㅠ
가타카
음운
차도
##unt
고위직
아낌없이
관공
문답
손보
손등
##르겐
카와사키
재래식
부검
비크
회선
##스윙
##하장
항공전
유영혁
괴로움
해부학
Fest
근세
깨트리
뜯어먹
섀시
옷장
##튠즈
아이튠즈
Hon
공경
남조
타현
사우전드
##크라테스
응급실
우트
현기
##sm
프로야구
호스팅
서대문구
니카이도
대미
밀라
사속
지고
후송
지부장
협동조합
Block
군악
버벅
사세
수유
한남
##팔트
349
타카라
MIT
라쿤
유림
청천
클링
kill
모코
사아
어군
오행
화웨이
##악산
활동가
전시관
소방차
플랑드르
눈여기
Bang
강재
백기
예기
치기
풍조
##즈컨
##몽골
503
##cho
이스즈
블리즈컨
도살자
##스태프
종과
##89
재단법인
마일즈
경보병
어렴풋
도니
선식
은월
조잡
##러레이터
##두스
더니만
언어유희
액셀러레이터
"~
질감
하바
##바이크
##중력
502
5500
나카가와
숙련자
head
레조
무솔리니
밸런
부고
와세다
적폐
패주
아이라
HAPPY
새하얗
밸런타인
주얼
침울
히포
##87
감소량
##eck
아스팔트
1882
볼로냐
부르고뉴
LUK
성부
341
성탄
유학자
직물
##GM
케르베로스
산장
신청서
영문학
알프
의술
##로니아
콩쿠르
##분해
아브라함
노즈
성황
허망
##코스트
##소프트
광역버스
TIME
반가
북로
외대
정봉
지에
부산대
##oday
루이지애나
폼페이우스
##카운터
Rel
계진
해충
아마데우스
##idge
경산시
내보이
철근
컨티
폭소
Stud
070
페이탈
후쿠시마현
컨티넨탈
FTA
Son
경미
군종
범상
비노
섭리
완봉
지우개
가오슝
금새
바스트
박문
사헌
솟구치
접미사
친모
##지휘
타입문
가이드북
대국민
TI
고충
슬림
조이스
짜릿
천주
허탈
아키히토
발명가
안타까워하
도금
성간
송현
숙녀
##국사
##era
inline
서랍
위촉
최인
팔랑
팔아넘기
피즈
##급부
하이네
353
부담없이
United
이만수
국문학
낙랑
무츠키
복위
오작
이채
치켜
키요시
파벨
##팔이
반대급부
관군
균등
데브
야르
장유
체념
##케이트
스트로스
자치체
최준석
핸디캡
#.
당해
소카
이두
장호
터닝
##포타
오리사
나무라
아파치
인드라
Log
까스
맺히
알카
오동
##새끼
Book
아틀리에
구로구
Missouri
비앙
##제일
##지방
이시하라
1887
call
돈벌이
헛스윙
##lish
##버니
보르도
쿠니오
Armor
신드롬
사오토메
백련
이스케
인카운터
타비
##바스티안
기욤
프티
허기
강화군
박정석
신태일
레시
세도
세베
청렴
##만큼
마시멜로
들여보내
밀키
##RS
코칭스태프
툭툭
##기스
##모닉
생각없이
인도인
win
교구장
나체
마경
모반
설전
추노
293
판매자
이호준
괴성
네거
덮밥
민진
##gu
##린내
##apon
공공연
ever
등반
존칭
##47
##만고
잇세
##은성
##쇼프
스포트라이트
파묻히
검호
아어
야로
##할라
사업장
개심
꿀벌
묠니르
수선
터전
##장군
지형지물
Bal
노루
류세이
매미
유약
윤용
쿠엔
브로커
호크아이
필하모닉
Jun
양원
이자벨
무참히
다항식
난처
떠안
리샤
배성
신림
잡아오
출입국
무라타
미세먼지
Wall
마세
보두
영성
인비
창업자
포물
운전사
메소포타
메소포타미아
DIS
테임
레게
옥천
편승
카시와기
SAM
금남
여가
처사
하극상
브라우닝
박보
스자
##IDIA
오비완
사헌부
독과
르마
임수
환마
##난만
교통량
MBN
진시황
완만
의제
Any
Box
GBA
거포
디오스
음침
프래
신호장
프로페서
라테
우메다
입회
패딩
기억력
배틀러
조리법
만주족
##earch
##comm
Honey
고단
기신
뒷문
베니스
새미
서라
##랭이
안정환
should
얼추
염구
요람
드러눕
플라스마
떠받
백귀
비티
외도
필히
천진난만
왕징
해경
후치
##sw
MAG
최신작
알테
재봉
차태현
##서기
사카타
이소룡
기막히
##지스
아자젤
Mat
개고생
뉴이스트
안토
##멘토
마름
송수
쿨라
뉴욕주
이재원
영수증
Paul
Kh
두스
유원
코덱
폭뢰
##탄올
##암역
비아냥
리베라
가렌
봉고
##NER
마스다
아나스타샤
적반하장
땅바닥
상해
프랑스령
미카즈키
Deep
적법
최규
한영
##페아
486
발신
혈기
후천
##ole
##플레
입장료
337
컴퓨팅
시원찮
Ca
Ham
Lie
검지
자지
짐바
개막식
돌핀스
고담
반목
손석희
승소
원예
태왕
오버히트
보관함
경전선
정성훈
마르티네스
김덕
부로
상극
성곽
숨어들
아류
암모
헌혈
집행자
##ubeat
먹거리
삼미
트윙
##나잇
030
Please
노히트
버클
복고
측량
웬만큼
데스크톱
PUB
사니
직할시
헤메
##aken
##anced
SY
단양
##성어
##무가
##모르
동두천
Jour
dam
떡하니
번창
북상
옹주
인포
죠지
##갔다
기억나
카이리
1893
교향악단
뷰티풀
##soft
생수
숄더
자프
##마쓰
성시경
IW
풍운
##죽이
##ira
번역기
다그치
Pf
고각
루치아
오물
불합격
강용
원스
고등교육
카스텔
Kr
hel
고현
신서
찬가
쿵푸
##슬란
타이타
##RAS
뜯어보
보검
에페
완강
왔다
호되
455
##ident
왔다갔다
Sat
대판
바베
티타임
##다스
##티보
##광석
##엑스
##겨보
안전장치
야간전
보행자
카시오페아
Jin
방비
베데스
삼위
셰어
유압
할배
##gn
Stay
1892
에스페란
베데스다
ET
eyes
예스
핫도그
요시오
골프장
연두색
Soc
신아
악사
에스트
##시네마
##금니
##궤도
나오코
Alt
이재용
빠져들
후임자
뒷담화
관두
꼬집
방선
소명
훈독
훈족
스타스크림
1886
역주행
데메
송하
수륙
아르티
소개팅
1883
매운
사발
실마리
위클리
재가
키야마
후아
살인죄
단죄
미진
사림
연출가
사상가
병무청
Touch
둥둥
추장
스프링필드
고질라
view
기출
녹차
아말
도미닉
압록강
삼위일체
Dom
VP
keep
깎아내리
에보
퀴어
##EG
그래피
압박감
정착민
카도카와
구국
니화
브링
앙심
앨버트
앰버
입부
진경
##콘신
해독제
위스콘신
벌처
찬밥
청양
스칼라
SideM
탄자니아
비슈누
ZEX
군위
외편
착실히
창천
헤헤
이승환
시사회
세실리아
분가
임동
##매장
Records
가로우
미조
세차
술자리
시차
재작
종묘
코사카
티파니
##연장
공군기지
대공국
##iano
만신창이
매시
상법
요긴
패니
휘파람
노르만
언더그라운드
구종
마창
빙고
석기
이블린
##ook
프로메
신기루
명성황후
대교구
UAE
미후
바텐
윙크
타잔
택틱스
평탄
유니언
1891
연수원
커넥션
PASS
동수
레리
상비
코펜하
키호
##식스
패스트푸드
코펜하겐
켄터
##실론
이름표
SPOT
Ghost
류이치
버젓
벌크
소도
심시티
엄중
아리엘
이명기
Spirit
!'
Tor
고깃
부락
삼양
취사
티안
허허
회군
##amond
번역자
아드리안
바토리
상설
양평군
옥시
와치
우군
일렬
테라스
노비타
김명운
##tainment
RTS
}{
니엘
대정
삭발
##OB
##iving
Asia
도겸
염료
라이카
드래고
권익
토야마
##LT
감독상
최고령
여름철
에리코
허영무
Five
삼층석탑
육안
의령
타나토스
클레멘스
Wake
home
강퇴
눈뜨
##ua
##성사
전기철도
무정
절도사
충주시
자연사
NHL
광동어
극상
대생
데시
루블
미레이
아웅
유착
코이즈미
최신형
우월주의
Digital
면목
부역
발레리
건장
고은
고득점
변혁
오베
키친
해주
##선언
364
이민호
경구
고카이저
다드
루소
소오
유색
12000
다이치
421
클린업
모병
절연
제과
찝찝
태산
##가을
출고가
댄디
비글
추서
퉁퉁
슈퍼카
바이마르
Yout
##orean
도가니
낙뢰
누아
레라
##함대
하이스트
부산물
##imes
라라라
Doctor
전준우
Turn
개경
덕선
백경
서빙
예문
이운
풀럼
하미
설과
창피
##투리
##착륙
펜타곤
사문
슈즈
존나
##곡면
부채꼴
응급처치
HYPER
트윙클
거금
모멘트
문란
##모비스
현대모비스
연락처
감량
대뜸
뒷심
메시아
##모음
신용카드
bad
관도
르망
실에
팔달
##aper
NX
##브웨
##프랑
##콘서트
오래가
Sword
고난도
NVIDIA
Tit
마빈
모후
봉천
캡처
##르카
이주하
정철
행인
##63
타이베리
332
샤를로트
갈비뼈
타이베리움
National
급성장
눈꽃
롤랜드
수질
전출
중앙은행
으려던
PSY
그럴싸하
결핵
한별
토모카즈
jubeat
경리
광운
무등
벵거
엠버
지배인
김민우
완도
카론
털털
352
##ACE
EDGE
중장거리
김선빈
아다치
스구루
네크론
라니까
##민호
피노키오
PX
봉안
윤동
출사
##nam
##복지부
그레이브즈
Talk
식기
전능
##포화
##덜랜드
나타샤
est
어금니
자인
알리사
하루미
포가튼
료스케
손짓
연초
카무
##카테
##itz
얻어터지
리저브
용광로
견학
결석
미각
붙히
올랭
##OG
##분열
제작소
코토미
유강남
가스트
서곡
죄목
피임
아이바
369
##스타파
엄격히
HM
수열
염체
용하
히라노
CDMA
양천구
East
Name
범실
우화
인솔
허경민
##코니
동작구
기품
무우
외박
웜홀
##장소
유기체
연심
##아노
start
바그다드
jpg
SUN
메틸
사파리
한잔
##시게
##roy
초절
추계
킬리
태상
호호
##lash
fuck
발할라
외눈
우열
주원
학벌
힉스
리모컨
애국심
울릉도
기혼
예린
창가
최남
펌핑
##누키
##경궁
##릿사
랑그릿사
Bel
DU
고학
반딧
서럽
일순
##ergy
쿠로사와
시원시원
상한선
IA
kHz
동글
브릭
##카라
하이에나
381
종교인
Vict
김관
사성
서산시
울분
마음씨
신속히
이가라시
냉방
불황
비프
연혁
프렌치
흥국생명
sn
김완
벤피카
##onely
이재호
##스키스
block
##여대
##ination
##ural
피아트
rad
##롤터
329
여전사
ESPN
이병렬
부원군
Monster
Perfect
지브롤터
로타
사레
김광석
금기시
Java
닐슨
돈키
불새
전인
캄파
##ogle
이대형
true
돈키호테
낙법
당명
무과
유폭
입소문
크랩
탄지
##루이
Samsung
메릴랜드
누더기
따스
베다
지껄
찌들
현시
혼재
##68
##메즈
박종훈
경단
슈바르
썰매
타이치
334
헤이븐
우회전
##orning
가재
낭떠
문중
표어
하이엔드
Exp
카츠미
Android
##르기니
낭떠러지
Mom
로나
의경
이키
젝스키스
현주
시라카와
람보르기니
Tu
팰컨
호오
EMI
이천수
변함없이
쩔쩔매
Youtube
>>
본판
윤호
자두
코헤이
흘러내리
이태원
수문장
머뭇
상현
아성
양용
포시
활강
##등식
콘스탄틴
건내
답습
살살
SNL
going
스네이프
반딧불
Men
고타
바예
##ension
염력
파국
비트매니아
오리온스
FOX
Dog
SEC
대일
면부
연연
팔뚝
Revolution
그웬
동중
동적
묘기
진법
폭도
프리징
327
EXID
적대감
지석진
남문
록히드
일광
재소
쿼크
후두
면세점
공학자
유닉스
편중
요구사항
느냐며
로사리오
대용량
놓아주
낮잠
라토
막걸리
쌍욕
애드리
양녀
참담
지도력
상품권
Mov
코다마
Adreno
SAS
북베트남
##뛰기
김성수
걸이
멸치
황진
지껄이
KING
농작
동천
막무가
먼로
헌장
##uit
아라라
유우코
막무가내
끈적
네브
도기
으스
하다
##도치
##무도
하이랜더
에이프
975
토마호크
##ECTION
Offic
가타카나
fight
낙마
드웨이
멸하
육교
자그마
타블로
##문드
그리피스
프로브
511
##ops
천하제일
TBC
힐스
##dden
멀티미디어
소수점
PUBG
Keep
다던지
렝가
시무라
아전
전집
##eon
정신없이
Danc
turn
렉서스
본당
장덕
테헤
GeForce
노에
약어
워록
징시
평상
표트르
1830
바르바
아스톤
디아나
볼펜
432
신권
야역
진저
체첸
햇볕
후이
371
제사장
커트라인
놀려먹
비옥
썸머
패인
호빵
김재규
에스파다
윤치호
Eye
SOL
고슴
맥라
옥션
위신
##어씌우
##란도
Shift
군주제
Return
짐바브웨
대좌
조호
화엄
##클리드
적개심
고슴도치
맛없
선망
암수
연식
유람
##unch
417
기무라
미구
패도
향연
##소이
##루트
편집부
아수라장
마지마
브릴
자임
에노시마
궁술
변절
윙스
전차포
넘버원
불출마
쇠락
워든
츠토무
특보
고다이
싸잡
자칼
진선
포사
##따라
비슷비슷
히로코
413
##ARS
일대기
김건모
송광민
공력
들락
유황
요시모토
의료진
스케치북
네거티브
부커
이샤
장희
##글러
##rel
오리올
절대다수
알렉시
트로츠키
박지훈
하이드로
김범수
궁리
논스톱
미일
산스크
회동
##백제
##uster
산스크리트
교목
보카
알현
예체
히말라
에스카
대마도
예체능
넷마
뇌전
족쇄
##reeca
노부유키
보두앵
류진
버락
범블
복당
풍수
흑요
##유진
롯데시네마
##iverse
TOK
Europe
OD
감방
레콘
신토
에어로
회기
408
2700
독립국
광산구
막아주
나찰
맹자
본과
야동
일문
첨탑
화공
##41
##시카
전문의
040
고조선
로망스
빗발치
개콘
관사
배스
파이즈
방문자
카페인
KOO
낙천
발바닥
뷸라
영체
울주군
채점
초면
호재
##푸아
고용주
으니까요
Rich
메롱
명망
사보이
허당
호치
##ORTS
615
배상금
지평선
근심
보건복지부
탄수화물
미용실
Cre
니체
대총
멀미
병렬
봉급
혜화
흐루
사회민주당
늑대인간
고생물
호프만
리히터
SFC
서상
체어
이질감
가후
물총
베컴
별의
팔로
페넌트
폭시
##청역
스페이드
그로테
크라이슬러
동키
유복
전현
히페리온
운동량
들이밀
유한준
sch
급락
빨치산
어사
저놈
다이키
inf
색소폰
Az
고결
소코
일탈
톨킨
흉폭
Hom
가시마
동관
울라
주어
황홀
후편
708
범블비
Ger
독극
배추
병문
연일
요로
움켜
정숙
징발
알리바바
네이선
대성전
철조망
법전
소토
시군
유경
포프
지휘봉
우르르
##gram
압둘라
동키콩
맨틀
주경
##예산
아야토
별의별
귀양
똘똘
본받
서하
언쟁
가이우스
Beast
SIG
검신
공차
데키
쏘아
엔비
로메로
##GL
브레이킹
윤보선
Fn
알란
우고
##구이
소년탐정
이무기
곤두
바구니
브리트
판관
##보로스
유니티
플루트
권오
사돈
장엄
해룡
원더러스
Tal
Van
main
마젤
어댑
휘날리
##zen
슬래쉬
놀러오
어댑터
JA
각료
구니
라코
레크
사쓰
쏘나타
탈세
전지훈련
식료품
양석
어투
허수
파라곤
히말라야
Human
떼거지
송준
온양
인화
장력
파베
347
엘리제
PSG
반송
숨바
실축
위즐리
윽박
화답
##adient
김태형
릴리에
공녀
김자
시해
가좌
견지
도령
잇세이
쿠인
클록
##gen
올림푸스
아사히나
Ultimate
페널티킥을
Ax
박신
암초
지포스
추수
##정원
일본국
케이온
추락사
실망감
BRT
제노바
목포시
예조
허덕이
##첼로
##나이더
767
790
ㅕ라
마교
한민
허상
##DMA
##촌리
##amily
체육회
Shoot
넷마블
계륵
곡옥
장장
코야
회력
기념식
유부녀
매춘부
나태
롬바르
새삼
파운
폴나
레스너
흑요석
폴나레프
Gate
만사
셰이드
역정
카누
코덱스
페네
##쿄우
##arden
아아아아
청사진
저울
총잡이
##CS
378
자치주
정수빈
김경훈
이이다
골동품
수생
808
베르사유
메타크리
블레이블루
메타크리틱
라느니
마군
스윗
키쿄우
Cool
켄타우로스
vlive
광역철도
890
기탄
슬럼
##돋움
터치다운
Welcome
김국
목차
펴내
##aff
##사가
타카야
1848
Hyper
로터리
뺑소니
심이
염장
##질서
케이시
465
송지효
파운더
발돋움
보미
야옹
철교
초크
스타쉽
667
순환선
레닌그라드
삼화
송진우
이청
친우
파이리
미즈호
눈여겨보
Strike
dj
야부키
연민
육류
주호
##히데
확고히
외지인
균일
내한
데얀
바츠
야토
연줄
전해
휘젓
##iot
중앙역
어쩌다가
##기념물
말린스
미투
산인
##주나
556
김갑환
과테
항저우
##렌트
##ession
우로보로스
과테말라
말랑
존대
천칭
키도
하북
50000
저작권
Fox
개구
김춘
슈와
워크스
참살
클로스
##VR
##티야
##oro
노동부
iPhone
포물선
UMP
로네
미샤
철종
총국
후니
##91
##군데
7500
SOS
Watch
록스
린지
부파
바이슨
인건비
BREAK
동승
로직
오하이
마누라
계엄령
오하이오
AST
hy
도경
로튼
복소수
운고
특능
푸이
##장사
Devil
대진표
오모이
구모
날아라
발짝
어촌
인즉
포악
##에라
요시노부
NGC
가일
순탄
폭설
WHO
하남시
장하
칼레
##사와라
토시유키
맥라렌
단념
아사카
코튼
팔자
##호리
##페리아
크리스천
예정자
타카토
은하수
호소카와
great
섭섭
인망
최희
플로이드
##우진
##나귀
최고위
오가사와라
고위급
강일
불매
회당
675
우에하라
##strum
백모래
메루
무이
호에
##BLE
##평균
##lee
부유층
선구안
프로메테우스
MISS
도통
볼보
원혼
큼지막
포머
##누엘
##ASE
갈레
에헤
에이드
칸토
키린
##맥상
김기현
깐깐
역류
호령
마나부
AIR
멕시코시티
Afreeca
team
슬래셔
검무
셀린
연가
이베리아
후버
358
414
바빌로니아
덱스터
신일
쌍수
초탄
부족수
천상계
띄어쓰기
스며들
OEC
가자
라빈
래시
레밍
엘시
장음
층수
##yond
##자매
##머드
라이히
ROM
합법화
오로치마루
테헤란
갱스터
슈틸
시소
여아
옛말
##부단
354
##웨이브
이재학
가상현실
히라타
고행
다독
당위
전단지
포일
##보호
우유부단
타이타닉
KF
기파
만취
북진
입학생
철없
##ature
레슬리
청록색
야치
원기
은연
중주
재정난
자국민
원어민
Cam
UX
UTC
fly
무느
열흘
407
중앙동
##슬라프
Island
지질학
만재
밀려오
예니
##램프
자그마치
메데
선반
어파
키세
헬라
알리바이
##ida
Ctrl
장준
한서
##스티아
엑스페리아
드럼통
##투아네트
애너하임
fps
누출
불모
설파
윤태
혼전
회중
아시타
친화력
뉘우치
메리아
이고르
토부
아무거
Ultra
last
sol
개과
쇼콜라
촌스럽
항원
601
필터링
ZEXAL
기예
빈티지
선산
천민
키아라
팰퍼
혜리
타이토
Ready
Microsoft
팰퍼틴
도의
브린
오드리
점호
짭짤
지명도
이정재
유인원
문민
회부
##vp
##자실
개인주의
사일러스
신태용
Entertainment
목질
물감
수니파
와키
절명
풍월
프린스턴
크롬웰
올랭피크
놀아나
푸념
##xx
##오르크
inc
간통
광안
도자
새비지
손시
앙투아네트
양위
머리통
스파클
연습장
이정후
Color
##공산당
CIN
ob
명도
박창
선주
울버
웅크리
으으
창술
판소리
황동
##ui
##위키
##ett
유사쿠
고지식
수면제
코마치
라시드
##otta
몽고메리
접경
탄원
허도
마무리지
홍성흔
Disc
리디아
앨라
옥사
직간
##임자
여대생
외할머니
갤리
낙찰
머레이
유턴
호황
화북
##음악
그리즈
조사단
495
적대시
동구권
토우코
군데군데
Bre
DIA
강산
계모
류성
서희
수미
콤팩트
이상훈
드라마틱
가정부
농작물
MMA
덩이
맥심
실비
우뚝
종회
풍토
피네
##fly
##아비
소지자
스캐너
키르히
모디
미요
지참
천연기념물
라플라스
베지
성흔
수재
염경
오자키
현신
##IUM
저지대
경매장
항소심
뇌격기
NK
노키아
답시고
불기둥
어수선
효린
오스본
바닷속
슈틸리케
감회
박계
배관
엘비스
혼노
##레더
##okie
금천구
아나키스트
Gro
비속
취조
##YA
##트리체
에미넴
모덴군
가칭
만덕
으깨
한시
마키노
그레네
게레로
당나귀
장가
케플러
##진영
장식품
가득차
용산역
그로테스크
.!
역삼
정력
쿠란
훈계
##주환
##민수
한자음
정예병
DMB
AOA
네일
포토샵
nhn
고메즈
신군
장재
##고도
는다던가
지방산
카나리아
노스캐롤라이나
인신매매
을사
정운
찬송
##상현
451
##반도프스키
GOOD
경동
고병
권정
성하
외투
특산
##개치
456
368
NPB
아랍인
##ountain
Mur
레반도프스키
모미지
키나
페스타
전기장
카즈히로
##awa
함경도
앨리슨
\\
괴기
궁내
빌바오
이맥스
현감
##밴드
##눕히
프로스
슈퍼마켓
데포르티보
대웅전
금오
농후
룰라
생츄
슌스케
움짤
재스
757
파르티아
트루먼
홍명보
생츄어리
IQ
State
프로페셔널
BAD
사뭇
주계
프릴
##OSH
Qualcomm
LK
Py
벵골
점철
점쟁이
프릭스
헤스티아
문제아
동정심
광복군
조로아
전륜구동
세군다
BK
경공
유레
진아
##Re
Ins
KTF
Center
예카테
토박이
특제
흡기
##당동
가군
레가
마소
살모사
심즈
504
344
Prof
Hit
건수
릿지
무학
연차
##VI
##케스
다섯째
때려눕히
best
type
가몬
게놈
린카
링거
슈나이더
508
Teaser
AND
Det
갈취
교만
복어
새마을
웨버
핑키
하순
##코모리
##NO
##레나이
##콜리
전체주의
스키장
금메달리스트
공대지
마요네즈
##prise
헌병대
히키코모리
list
구천
마곡
요다
청바지
학식
수행원
켄터키
난잡
엄니
우무
이각
조치원
1876
하네다
테임즈
OECD
ya
급변
대천
모뉴
민재
적혈
##정제
506
##aps
플래툰
모뉴먼트
WR
sun
겨드
노와
더리
마들
##니언
선거인
복귀전
질리언
크래커
BIG
even
타투
폐간
##Sp
1250
366
트레일
베아트리스
Michael
macOS
내딛
마전
방불
버밍
카보
패킷
한산
##fr
이종욱
세자르
key
간질
반파
주동자
##포리
012
362
348
이스마
Blade
고종욱
기안
당고
린타로
소린
알약
이충
파카
361
남북한
News
기말고사
sleep
권순
니노미야
서임
직영
징그럽
콜레
탬버린
##ca
##bye
##탱크
현대식
가산점
자경단
산시
에닉스
우왁
육중
정남
지카
키메
##mb
##스카이
엘리미
SPORTS
디아즈
신호기
~!"
귀향
##건건
지배층
575
세라믹
사사건건
해저드
##ALLEN
##ELLA
Have
꽃밭
남단
몰도바
부캐
샤리
에나
진의
ㄴ다기
509
고등어
Adv
SPOTV
bea
국자
심근
야규
찍어
##ities
분류군
베르너
보육원
찍어누르
덕지
르바
##연대
후쿠자와
신중히
무의식
Law
나그네
드류
우규
타요
그라비아
BSC
셀레우
Han
xD
로널드
부감
어묵
와쿠
어느덧
NCAA
진통제
기왕
메구리
차감
탈라
호엔
나날이
브란덴부르크
Crew
Rom
매머드
범유행
야야
야금
영사관
접지
##부랴
##소닉
##초프
around
시집가
오재일
최하위권
히미코
덕양구
그레인
자락
학산
프레젠
ISU
서기관
##pport
수인선
은밀히
란티스
맥길
주디
짬밥
창안
항행
##UMP
427
김환
발데
벽안
연천
총명
풍림
##골격
연극배우
호남선
병자호란
순응
지렁이
허버트
##짓점
합병증
리라고
안동시
장원삼
구어
꼭짓점
너덜
앞다리
오경
욕조
점보
지먼
콘트라
##범근
##ZZ
##초리
라이코
가정폭력
아크로
비틀거리
보디빌
암벽
양초
지랄
히아
포격전
Next
소림사
HQ
sum
광도
중엽
형조
형국
도전장
카메론
코디네이터
웨일즈
새장
실랑이
점잖
격식
경솔
공훈
헤일리
##드리아
##텔링
스토리텔링
다이너스
수증기
IPS
aid
벌교
쟁반
진척
타역
히로세
Prince
DEST
마카롱
유즈루
백혈병
젠틀
티머니
##쳐가
직간접
XT
거쳐가
길잡이
월기
웹진
조급
대호
레사
모가미
보기
비탈
선관
##동역
올리비에
스트롬
운전병
SET
농심
빈부
압수수
인스트
정보국
정은지
압수수색
격주
싸대
인출
표결
396
655
황해도
다빈치
글라이더
부결
엘도
원류
##호텔
##로쿠
##천외
한국일보
수사대
플라이트
기상천외
MOON
서황
실려가
약세
##거루
##ronic
부랴부랴
dest
much
국채
네바다
모닥
현안
##가하라
##메시
701
시노비
강민수
정정당당
모닥불
SIM
굴레
천부
축일
티무르
##스크린
Comple
손수건
프로파간다
ㅓ라
응변
##다일
김민수
Boys
1866
Need
자유민주연합
우직
조무
페오
하대
헤센
##귀비
하루키
설계자
위안스카이
마르코스
##YPE
after
호나우두
크로커다일
거트
고레
서수
슈지
중등
##da
더블린
신비주의
고공
리아나
슬레이브
인강
##터면
##말년
제작법
Ga
나부
독감
안배
어장
에브리
우사기
이말년
조역
지누
##SE
방법론
터키어
하마터면
위압감
논증
발연기
앙금
진솔
파노
으려다가
조련사
새마을호
DPM
게오르크
온순
1868
독해
마티아스
면직
명물
영전
오미야
##quid
Well
모아
미망
양판
크릭
##ware
##촌역
한계점
후지코
이세돌
Tot
걸려들
사룡
용비
##가이
오타니
평안도
CHAOS
Sand
냉혈
본모습
종횡
채플린
##서블
스케이븐
꽃다발
주둥이
켄고
타게
케이브
before
래드
북군
사영
음경
크레타
HSD
made
광택
루퍼스
미믹
종소리
청두
367
메인스트림
NEO
고간
산학
세브
테테
퍼짐
424
행사장
그라프
깨끗이
그랜저
타지키스탄
##ULT
스자쿠
Ty
가부키
마한
발비
칼로스
불명확
하수도
신호탄
바리케이드
건국훈장
고연
치트
패스파인더
증오심
##부인과
Heavy
우규민
반바지
브롬
영희
원두
원령
##국민당
##하마드
흐루쇼프
노병
만타
수빈
절체
형수
##꼭질
블랙박스
3600
치사토
숨바꼭질
Wood
두말
은비
이릉
허우
##차도
##희정
Bi
dec
페코
##묘지
창조자
AMG
뜯어고치
늪지대
료타로
헥사
어도비
524
Thr
제주시
정예화
루키우스
부마
술라
씨발
파직
황국
##치병
1840
하여간
총대장
고마움
GRA
남중
아작
호반
begin
Prim
그레그
English
여생
주법
여행객
411
리스토
대수롭
히나코
노보루
드와
버러
엘보
오뎅
일동
조어
총량
##온지
이성질
대학원생
스팅어
##ency
DirectX
각시
딴판
상투
야차
에레
##배마
요구량
와이프
동의어
파도타기
피어싱
앨라배마
AOS
대곡
심형
에지오
옥편
촘촘
부르짖
1881
align
해치백
에두아르
관공서
나발
방장
오베르
태진
토파
##구스
MAP
ICBM
가제트
녹서
라야
##기시
##부지
크루거
프린트
##IGH
세키가하라
BH
기오
빨갱이
의전
부활절
에버랜드
NOV
걸스데이
조미료
국밥
머지않
불독
빈정
암전
앤틱
차비
해미
##재단
##lege
노리쇠
저지력
Brand
단합
명주
신단
엔더
##간드
##결사
고신
과오
남측
우서
토익
파지
황희
##타이드
##적소
025
423
회의감
미나세
CCC
마테오
##known
노수
##포이
##멩이
라고요
##시아드
철도선
오토모
공영버스
들통나
만년필
번번이
AX
Si
소어
포비
헤인
##사촌
##ju
비밀결사
센티미터
아멜리아
유니버시아드
디미
베베
산토
저돌
흐느
##lude
다마스쿠스
왕신
피비
합중국
##스타일
김현철
소나기
유엔군
크러쉬
진태
파와
풍차
##티마
##개지
##테루
372
##INY
이등병
업과
오창
인먼
문자열
경외
광활
도바
에듀
유보
친문
캘러
시리어스
통합민주당
암시장
단비
머시
산파
성훈
은수
##댓값
커밍아웃
Pt
돋아나
만끽
머플러
셀룰
실외
ㄴ데도
가드너
미야자와
PSV
야전군
뇌파
마대
후광
442
장애인
늑대개
노후화
엄친아
냉담
도량
병우
붐비
실속
아버
진양
토시로
##라니
노리치
CHALLEN
감초
땡땡
설인
센타
순백
용덕
쿠이
##상제
부르봉
SPI
누계
돌멩이
종아리
기본법
오르골
##uty
쿠라타
인신공격
OCN
버젓이
넥스
드비
롤린스
쇼난
코멘
홍조
선착장
북면
장쑤
##루야
##대역
우주전함
바리에
일가견
동대문구
난도질
hand
베키
어플
총성
충각
하만
##증권
조종수
연령층
탐정단
안젤로
머뭇거리
방역
악부
키티
##gue
##리드
##필리아
아이다
##ITH
야스다
UMTS
Aw
말끔
매버
사감
산고
약제
##튀김
뉴스룸
분리주의
1111
사물함
CNN
리액터
유부남
건륭제
"/
JJ
ms
낙제
선서
에즈
존치
##렐리
##어주
##발디
##펄스
지대공
에드먼드
자본가
공홈
교미
축구장
AIM
음란물
Surv
치트키
side
높히
버뮤
전치
지훈
##UPA
##간지
##츠부르크
프랑스와
데이비
카츠라
판문점
버뮤다
Mis
물망
악셀
##SPA
##절명
기장군
Quick
AGL
가다듬
고카
광업
순직
파푸아
##폴드
요시무라
1112
사교육
엘렉
이황
족제비
회의실
상업지
카자미
까딱
우바
주급
지영
캥거루
##gan
##시키
##대포
##슐린
소닉붐
서귀포시
KH
대광
마히
약정
윤도현
장제
##cle
##장성
why
휴양지
cal
로쿠
삐뚤어지
신들리
실연
유심히
조범
치역
##ming
##베이거스
무신론자
레플
무령
히로토
라스베이거스
신호등
테츠오
김무성
레플리카
gl
귀결
증조부
##도끼
파르마
귀축
도영
사코
샤샤
에센
현아
호명
화복
##wood
##규현
인터랙
605
PvE
막시밀리안
어플리케이션
본보기
정각
오오시마
---
배고픔
old
규리
부령
안두
연적
진노
토노
토도로
형세
주최자
과속
광탄
하멜
##포밍
339
Shot
블라스터
##OUL
이만큼
DEC
WCG
누누
버키
완비
집약
홀대
##men
##팅게일
시대상
정통파
꼼짝없이
다방면
불도저
Ast
겸사
다용
알바로
외피
절하
##체인
코르키
Hold
노경
물색
애송이
코발트
화목
활전
세계인
미나코
ECW
HSDPA
List
맥거
청풍
투타
판이
경찰대
기갑병
박경수
구더기
총영
펩시
헨드
이진영
미포
스란
히지리
##풍뎅이
엔리케
코테
올림포스
엑시노스
법무법인
크리스토프
CY
분란
세프
##night
아르민
판타지아
메카드
단발머리
남한산성
애국가
가나다순
영위
우금
차내
창덕
크라스
화생
휘석
017
인도자
세탁기
pass
살롱
잿더미
챔버
헤르미온
헤르미온느
노른
신춘
일맥상
참극
천막
경기고속
상대론
일맥상통
OEM
지모
치코
대장인
긴박
두령
진인
##사위
363
사무관
결의안
결백
뒷배
블린
비실
비루스
육도
홍철
Three
오지오
고추장
green
고주
엄두
현악기
도망다니
이리하여
브라이언트
어렴풋이
PW
__
브롱
승희
앤젤
즐라
차등
펜더
##시험
프레임워크
대역폭
정중앙
사에키
왕징웨이
브리트니
Zone
김어
득세
셀틱스
엘린
원룸
죽도
테무르
베르그
Phil
Evolution
말없이
스다
테리아
후소
부위원장
그린란드
Bye
네루
월리
코무네
타군
조합원
어찌나
는군요
서유리
기발
머라이어
삼합
우소
쿠베라
##td
##시효
1050
##ards
##방송공사
도마뱀붙이
Pu
##vo
아서야
경험담
세이코
마사아키
대원고속
##ADA
매그니
건전지
KeSPA
Vocal
류탄
사행
사가미
저예산
처남
##내미
마사야
형제자매
근무자
1878
ALB
월하
제빵
##에즈
388
마쓰다
Dar
슈뢰
양군
잔루
결정짓
청소기
김병만
베아트리체
Jul
식빵
채프
함상
##법사
가속기
다미
여학교
지호
퀀텀
상징물
국립대
HDD
1864
싸이클
신디케이트
로페스
구심점
머드
보니
스틴
윤활
일라
질의
쿼츠
##티즈
##ief
경갑
고평
라켓
무아
문집
테너
##안경
##게이션
##슈바이크
##emon
에드윈
에리히
내비게이션
주세페
face
병참
와의
완산
용성
정혜
칠판
쿠티
특위
패소
##주림
##어오르
에어백
##UNG
브라운슈바이크
NLB
감녕
건데
##SC
##좌왕
383
블라스트
어지럽히
우왕좌왕
부끄러움
better
김어준
레르
연해
완고
용두
자화
콰이
포천시
##막음
##눌리
014
Stone
이승우
가로막히
스티어링
Korean
말레
사이온지
013
워리어스
극본
도표
외세
##레지
##울프
GIRLS
IE
뉴잉
생력
석고
진호
척후
철로
해탈
##연맹
##주크
절체절명
앙투
양강
통쾌
헤켄
정신없
특별상
공중분해
429
845
1863
Advent
길가메시
독극물
토도로키
라모
영민
차일
허들
##현역
##rib
탄약고
시즈오카현
봉사자
셜리
중진
##글랜드
##클로스
혐오감
카와시마
남동구
외무부
투덜대
직사각
메이즈
060
마일스
People
정대현
콘스탄티누스
Pink
가니
글라
부쉬
티니
팡이
험담
##황제
아마미야
STAND
나카니시
조언자
청구인
너그럽
릴라
울루
윈체스터
입막음
저소득
파계
후생
##view
다고요
조르주
##book
스나이더
에스페란토
날로
시큐
역풍
영공
환경부
##가와라
우라라
파울로
객관적으로
베네딕토
전한
페기
438
체인점
미카게
##blem
적재적소
거역
던트
백화
열외
입출력
트릭스
##청사
##초롱
##angu
EDM
유메노
목도리
426
유비소프트
거북선
기강
라무
영속
채드
최국
토속
한솔
##효진
##폭격
Thom
시행령
이현승
무궁무진
무로마치
General
게을리
로펌
베로나
패트롤
##나래
##OLED
Sens
덤불
실생활
원광
##레틱스
미야기현
애슬레틱스
클라리넷
ㅇㅇ
뷔페
순창
쉼터
아반
임영
화평
##틸라
359
나카이
Boom
잠실역
낚싯대
##oe
##볼로
야마우치
선입견
뉴잉글랜드
Add
경강
마쉬
서창
참의
페데
평단
현인
##key
##head
클레임
초음속
붕어빵
로하스
가석
남로
당적
##붕어
나이팅게일
논리학
관동군
Lunatic
글쓰기
여류
잡기
황하
##치킨
아이드
##ARY
미들급
공들이
끄덕이
다락
북인
완주군
정약
포문
헤이스
##71
이러면
소모전
웃음거리
Fnatic
강직
링어
목수
비씨
산모
정범
주앙
톱날
##XC
##노비치
진입로
타르타
매표소
-"
간이
남아시아
심술
열성
인육
유미르
Rainbow
몽상
셀주크
합천
머리칼
맞이하
폴란드인
아우구스트
버밀리
변제
주피
화로
그림책
MAC
키노피오
폴라리스
Joy
결박
달아오르
무해
성찰
티베리
char
이토록
쿠노이치
라디에이터
경건
상근
새틀
서던
에단
중역
체액
티파
##할린
##펄트
##urs
이사오
운전수
글래머
캐터펄트
##드라이브
CINDER
고다
군경
신평
어종
주노
줄창
퇴단
##조노
접착제
난자
방위대
빅맨
서역
청해
페이드
##몰이
아르주나
에드거
ESS
토사구
스쿠터
넘보
박멸
티노
##스텐
현대전
레지나
타르타로스
티베리우스
CINDERELLA
Week
렐라
코하루
힐라
##79
PLAY
Ky
내사
입교
한옥
화학자
##공단
소프라노
매리너스
레퍼런스
신무
오제
원효
원생
웨이크
학내
##시엄
오르막
376
에너지원
오버드라이브
복제품
LINE
##렐루야
##GON
고속정
조준점
유미코
로열스
셀레우코스
도식
배심원
법상
불이
서플라이
잡초
집값
청아
파샤
혈육
##MR
##상도
##따로
로키스
곡면
반물질
벨레
캔버스
패륜
##좌우
마이코
카디프
Escape
남사
소강
알차
언변
오중
큼직
타이니
422
433
마카베
여의ㅎ
김제동
어머님
옮겨가
mem
요세
천일
출병
토다
출연료
전환점
클로에
크러시
UT
굶주림
망루
삼남
양희
월세
클라스
##hind
##크네
게오르기
김순
맞짱
모창민
상주시
소론
썰리
카시마
히구치
##에로
경박
여울
차탄
체증
총감독
##보노
##모닝
##귀신
데이먼
집행관
금정구
강만
유클리드
정루
젠장
채원
훼방
##사토
사이고
인류학
카나미
스포르팅
Cos
TAG
민들레
압류
종친
크루스
##토리오
블레이저
까불
모항
베나
야리
후프
가라앉히
오작동
니가타
통달
허저
홀릭
##GS
운전기사
1861
Xen
답안
도농
홈런왕
교토부
생리학
세무서
토사구팽
꿈틀
부계
부업
순대
쓰임새
율리아
##정지
##시니
사격장
장난기
Diamond
임창정
김규식
place
농수
뒷다리
머글
압송
위층
처박
행시
후비
##디니
##콘드리아
레이피어
미토콘드리아
버너
생강
오닉스
콕스
풀숲
##uf
##노소
타이쿤
##lam
지하수
생성기
알렉시스
Prime
신드바드
Fuck
굿모닝
접견
커싱
피케
##메데스
##난성
##azz
도상
물갈이
삐걱
영호
폭등
품계
풍산
화차
##arch
장수풍뎅이
궁금해하
아틀레틱
York
막간
몬트
쌍두
주례
##어치
##선교
##ector
박태민
James
국령
극체
던스
방업
서거
어치
나가수
##isc
HSUPA
구면
굴착
긁어
##랏빛
주의보
##ashi
김응용
거동
서아프리카
우우
연속극
##리오카
431
really
구본
차로
초고속
Tokyo
각서
군웅
척살
##교구
라도스
스파키
616
사모아
실추
임현
청진
투전
##민스터
##ona
##라이스
thing
고대인
DOWN
광진구
방산
성현
이시아
최동원
투레
##혐오
작업실
885
면허증
이원석
긁어모으
Town
바스타
양립
의탁
##ogr
BEAT
1865
cry
키타무라
다독이
강상
곰돌이
샴푸
자탄
참상
페트라
한현희
##주제
##장미
458
요시미
stand
그라디우스
아메리카노
키르기스스탄
빌어먹
였었
##넬라
SQ
감미
그라스
오언
이구
입건
현미경
후나
##훼손
428
황금빛
경계심
비상식
마네킹
open
끈기
살균
시화
토스트
후백제
##iro
트레블
MON
강주
대축
맞받아치
문라이트
옥새
회개
##erd
후쿠야마
조용호
칠곡군
es
try
빙상
오판
1350
MW
빈치
찻집
##언니
##그림
지원병
여지없이
CHALLENGE
눈감
사경
에결
연표
연천군
##카메라
392
445
명예훼손
said
카펠라
안데르센
광희
닛코
다득점
멍멍
박효
##대비
훈련기
스티스
선봉대
장민철
something
떠보
산골
속명
수탈
찬미
##재해
##새기
645
##101
아토믹
데몰
변천
전매
472
민지선
##동사니
감형
떡대
소구
수개
차륜
성적표
에이리언
유키카
홀로코스트
1867
중장비
마유리
청량리역
되묻
컴파
포레
##LR
##몰래
##칼라
들이키
오스왈
호르헤
광양시
인법
우라노
아로마
Field
TYPE
목마
유쿠
장내
조일
콘돔
호빗
독선
실업자
임실
출하
테인
브루크
관원
광시
색이
심령
테타
특종
환멸
##수산부
1873
클레이모어
own
모회사
석패
소크라테스
##코더
보수파
마그누스
빈번히
EVO
후타미
끄트
농단
알랭
전야
제반
향유
##왕국
801
동년배
BOX
살상력
WK
남고
리쌍
별호
얼간
영해
##BN
자연재해
535
유전학
Mas
mi
강단
동동
바투
원역
마리안
AMX
Scar
충무공
고메스
넓적
드나
리무
백도어
볼록
시나이
어질
##지붕
ITX
립스틱
공진
대범
딱정
물방
소가
케네스
##노우치
ANIM
XIV
독방
새빨
Bird
고덕
바투르
김경호
박카스
부안
썸데이
크메르
타히
##게인
전투함
현대사
고속철
ESP
bg
봉합
압사
업보
최북
버그스
스위퍼
AMOLED
##프리드
만만찮
학생회관
뿔뿔이
거한
등애
루자
알타이
월북
추진기
925
김승현
멜리사
끄트머리
men
묘연
오무
페도
##oria
##stink
그라드
dead
브루나이
shall
YS
록과
불덩이
잡동사니
지박
허블
홈스
##레앙
관심없
comm
야스시
하우젠
슈바르츠
Drop
mov
관위
량의
면식
반강
셰인
십수
임모
자미
쿠레나이
히토리
youstink
트레이시
##ipe
Seoul
오라버니
흑마술
..!"
Major
군축
오군
음수
##일레븐
##베인
##vern
마사히코
파라미터
which
가석방
스팬
에스터
통념
특수부대
동북부
선덕여왕
동주
보타
하주석
382
쇼크웨이브
갈바
내팽
조모
출판물
##ista
##annel
웨스트민스터
불쾌감
볶음밥
세인츠
염경엽
두인
베슬
브륀
##vi
##CK
오버클
MAT
##ifle
인텔리
Record
일간지
가래
근신
금과
축성
핵분열
##테리오
레이아
아바돈
1875
Control
다분히
인터랙티브
규현
그네
도와
부들
브렐
서체
환골
##ILE
##처분
##ala
374
지하차도
545
기어가
고인돌
다자이
Mass
_{
니마
대디
사동
산만
연좌
오턴
요쿠
컨스
이마가와
대리점
Princess
리베리
왈드
##전선
미소라
취임식
중생대
bar
가련
논조
담백
동우
본머스
소부
조홍
##마시
미야케
Oct
구한
기제
##민관
그리마
헤드셋
박성균
오비탈
퍼블릭
명이
문교
울티마
율리안
창궐
현판
홍정
화톳
휘어
##출산
##리어트
스카디
주둔군
집합체
화톳불
Camp
삐지
산길
설렁
악력
작문
절호
##월동
##하쿠
결정지
805
Cytus
Ba
개천
공증
밀스
방열
썰렁
여라
윤형
젤라
##루엔
파르테
으리라는
낭만주의
브룩스
휘어잡
단칼
미친
우간다
라이거
swe
가프
불살
452
성장세
inter
Arts
가이드라인
백동준
메마르
발락
허스
##AUST
##토니오
Planet
을려고
과소평가
Tar
고품
기틀
잘츠부르크
##중근
공포심
Base
갈대
궁의
라푼
수의사
암사
인리
조마
택견
해럴드
##시안
옥황상제
라푼젤
개활
더스틴
문동
비엘
서아시아
전분
흐뭇
##독립
##넬리
구석구석
케이블카
공감대
Too
니토
대경
이네스
스트레
패스워드
Move
EXHAUST
견과
나다
모식
수해
##hr
##느릿
정령왕
Design
가뿐히
컴파일러
OVER
목화
연우
좌초
집전
무리없이
##aze
Four
도읍
도복
산부인과
샤쿠
씨네
욕실
정릉
##하드
##룸푸르
비스킷
궁금증
미켈란
손시헌
어게인
에비스
양상문
억제제
병문안
Nod
김철수
램스
미이라
아민
행주
최고봉
##emo
디스커버리
분열기
서기장
강희제
즐라탄
JUST
남이
도진
돈가스
로슈
장세
지레
키엘
흉측
##델라
Start
공공연히
이간질
비브
일거
입영
주동
한입
휘트니
##dr
##멜라
Tele
1872
Voice
##URN
정종현
금영
대남
염마
최루
컨소
##만만
아래층
하이패스
471
틀림없이
혼노지
컨소시엄
Yellow
살찌
임차
##bc
생산품
##ado
Classic
비엔나
슈프림
Nothing
간발
개회
신혜
야투
장쭤
하안
##좌석
파르티
의석수
oid
겸용
논산시
모리안
두들겨맞
Expert
folding
신력
이예
지현
칼륨
폐단
##클레어
래디컬
몰려드
민혁
바렐
보랏빛
정안
충정
행상
##데스크
##캠프
으려나
테라포밍
쿠라마
서지수
달서구
모데카이
뒤처
명량
밀실
윔블
코엑스
##나비
사카구치
뒤처지
그윈
기뉴
라만
붕가
스낵
해마
히바리
##62
아키나
Festival
그라인
루벤
물씬
유류
조악
##스토
##추럴
조작법
세례명
좌표계
Sorry
TAKA
가평군
바톤
서광
정다
진무
청일
치리
펠라
스티드
Meg
간언
비뚤어지
올곧
##군주제
마이아
산타클로스
오케이
연회비
갑상
구시대
급성
나구
반고
식객
이입
한카
학생증
바이탈
스토브
수신기
스매쉬
으르렁
dps
암행
츠다
코리안
##꺼풀
##ants
825
제어기
이오니아
클라우디우스
보나파르트
His
Jam
규약
내연
대백
코브
텐진
##49
아야나
418
박지윤
Phant
두근거리
저널리스트
NDS
뱅크스
우부
좌의정
짓궂
##하리
아니메
크리스타
585
모계
시엔
안종
험지
회합
##olt
현대건설
시라토리
과로
뒤따라
산조
정려
블랙번
크리켓
태양신
세븐일레븐
궁도
뒷좌석
디모
목공
서가
일념
철산
헬퍼
##inum
전시장
임대료
무라야마
버터플라이
고니
남정
산사태
시제품
영고
차범근
##가슴
##이의
##네프
##INS
SRT
정사각형
마르셀루
주피터
Sav
란도
분구
열역학
픽사
내리찍
문화재청
독서실
국세청
기노
독촉
맹신
서늘
영단
택티컬
퇴식
티에리
내셔널스
LEG
김강민
고되
기보
반스
쌍벽
오태
지퍼
야마하
이즈나
유격대
Science
체르노
바텐더
hard
굴뚝
난점
리엄
비디아
포어
조각가
파르페
실용음악
CBT
세일즈
박동원
아더
양치기
요나라
##가족
요시미츠
Web
응시자
소이탄
Woo
곱슬
시끌
오시마
체전
##승원
##지긋
##벌린
##완다
훌륭히
지긋지긋
포에버
개활지
Fast
Km
NOT
구아
부에
세이메이
389
391
그라나다
적중률
류자
석영
선불
한전
##탈태
##너덜
크리스찬
주력함
키리노
김상현
트릭스터
이소라
환골탈태
석수
성국
쌍권
일국
진원
호마
최종회
016
아카시아
소총수
안녕히
쌍권총
가식
월영
이탄
이삭
파오
페텔
##안토니오
놀라움
베르타
##AKE
너덜너덜
교세
대낮
바덴
스탁
아너
조위
##프턴
PCI
김정훈
point
PACK
mix
단막
마애
분발
선민
애꾸
엔하
폐막
##볼라
25000
따로따로
스프린트
단편집
신도림
연수구
복음주의
에스파뇰
동식물
복근
잡일
적룡
퇴짜
Active
mode
남파
라무네
락스타
리커버리
멍하
밀매
박무
버시
벨린
세모
소현
태동
##동산
모드리치
아프로디
남녀노소
안토니우스
아프로디테
Ts
단심
색출
캐피
승강기
심장부
베트남어
주방장
문규현
아낙
채은성
총질
##누리
##통감
불가침
줄기세포
안젤리카
HOL
단상
철십자
##ani
##leg
바르트
공급원
알레산
Destiny
원이삭
AZ
커닝
편수
아마조
이민우
???:
홍문관
느릿느릿
RH
약력
주중
쿠온
##수정
Still
가정교사
사쿠라코
EDITION
very
아그네스
물음표
안티오키아
권사
금붕어
맘루크
소추
어쩧
임사
찌그러지
처해지
흥겹
신사동
윽박지르
군번
농노
만발
명석
못나
소기
소액
왜소
토쿠
품절
호법
##bur
##break
##inger
755
아카드
통일부
병용
비급
삐삐
샛길
지어내
진혼
화친
##오빠
##메이드
릴리안
동남쪽
돌연변이원
라오우
난세
봉중근
슈바
##섬유
##세키
세이비어
비상사태
카트린
침체기
이형종
맥거핀
Fact
굴지
석연
세아
쇄신
액티
차력
페레
플린트
히히
##그릇
스트릿
##ILD
움켜쥐
드이
엘스
왕당
하악
한적
작곡자
Brown
김진우
ㄹ래요
시커멓
교학
권희
보원
사토리
조도
##니히
##acc
476
비틀리
오노데라
히사시
김연경
Smile
기즈
만국
보문
살점
오일러
총포
최애
##연주
디아볼로
비야레알
오랑캐
스러우
드와이트
헨드릭스
강윤
마영
맹인
병점
속설
출원
탯과
핑클
##VB
서비스업
고위층
중형차
컨버전
Birth
Rank
노츠
모구
소보
애타
에크
이나호
##ette
번역판
안식처
뜻밖에
CONCAC
Movie
라떼
리다
브르타
실라
이혁
토시오
파전
##bi
##bor
1110
these
아마네
024
031
387
532
##ext
브르타뉴
금형
리쉬
보초
사멸
우경
##입자
구리시
탈의실
미켈란젤로
곽정
르완다
대하드라마
라이라
리그전
카스카
벌금형
Hur
겐트
동심
조크
후원금
그랑블루
고드름
땡기
생환
연체
코하쿠
하토
##트로피
불어오
Command
매상
시어도
준용
채리
폐암
이름나
타카노
미망인
대너
적함
팔레
##스테
##달라
##iday
박지호
선술집
타게팅
시어도어
개변
달기
모그
합주
##실라
분신술
징역형
자괴감
담양
루다
모잠
준호
징용
레이시
당연지사
715
매국노
CONCACAF
모잠비크
권기
분말
안창호
알터
용궁
원영
##back
경기전
스크램
근무지
도둑맞
불행히
이화여대
꼼꼼히
DARK
ORAS
완제품
한약
희열
##호흡
499
클랜시
HSPA
후시미
압구정
윔블던
Mess
베넷
약재
요컨대
캐딜
032
메모리즈
골든벨
카와카미
최진실
반투명
캐딜락
가버리
범타
사바나
호부
##베를린
##잔디
##불성
##잡기
사이러스
통계청
김진호
초콜렛
Link
PAR
도조
셀틱
술잔
심우
전영
포미
흑표
##호스
마이니치
018
예수교
이창호
앙투안
복소
사포
셀라
야츠
엔트로피
자동소총
저장고
쿠루루
경민
롤플레
메디아
조양
주살
특산물
피라
기록물
EXIT
1101
티모시
신승훈
롤플레잉
베어내
사중
손호
오상
정역
허경
##본기
##게니
##폭발
##퀘스트
Arena
마이클스
마그넷
딱정벌레
Ye
림보
버럭
요의
일평균
작과
주당
콜레트
Produ
이오나
SAO
LPG
XD
que
계왕
샌안토니오
솟아나
나이트로
마카로프
신생아
과태
내미
본고
사할린
성민
송내
일약
호랑
393
##mph
라그랑
대현
안트
진궁
총각
카나이
버스커
해석학
대가리
장례식장
최북단
Bit
말러
어록
에츠
차드
홍건
##웨인
모노리스
스윙스
아버님
Tonight
앙크
허황
허둥
##메니스탄
##백화점
금지법
브로치
간지럽
투르크메니스탄
퍼블리싱
##민정음
ALBUM
가레
경수
달링
천리안
1862
플랑크톤
체르노빌
Rising
엔카
퀸스
홍천군
379
아키히로
마인츠
1170
동북아
최진행
남대문
미추홀
늘상
진안
##BR
##갈비
문제삼
마이카
488
군악대
니야
부곡
성충
첫해
해맑
##down
Begin
Ryu
개축
김이
베드로
붙임
한우
히브
축구공
603
마루야마
화물차
해양수산부
과태료
기의
논밭
누시
링네임
막연
실형
자애
진귀
##버라
021
유사점
브리짓
김윤환
교습
마태
안노
코뮌
##로메
##tty
가업
야경
이업
입맞춤
쫒기
칠리
퍼즈
461
법무관
Rose
곱셈
누수
다롄
데즈카
복스
임펄스
쿄류
파토
##no
##찾기
##layer
College
쿄류저
룬드
별동
보은
산다
엽서
영신
우비
재키
주적
췌장
콘라트
페레스
##만지
타이드
3300
작업대
미즈시마
포장마차
광명역
Catch
Rol
다프
레딩
루키아
봉작
시루
예티
최훈
파판
##동네
이나리
##rive
##!!!!
혼합물
##uki
코카인
내몽골
누벨
인슐린
훈민정음
##성경
##노미
##더니
##제한
자유형
019
논란거리
프라우드
Express
돌려놓
징징대
정유라
CAP
미란
쉬르
열의
장각
쿠알라
홉킨스
조명탄
return
쿠알라룸푸르
나디아
몬태
범고래
이휘
진달
키아나
패리
##주현
##벡스
브랜디
버밍엄
DK
Mast
교착
구대
노고
대흥
마스트
면장
엘지
저급
킹콩
확장자
크라우
야영지
사쓰마
간달프
백범
주홍
카비
풍구
힐드
551
another
이와사키
##ruction
Sir
니미츠
모트
윤아
판정승
국무부
플루토늄
Mobile
VPN
게츠
남남
반원
포체
##itor
생산자
775
김경문
도봉구
Jung
감청
달갑
프랑키
수도자
통신부
공화주의
##board
오와리
총력전
교두
너리
발정
아고
조인트
409
뛰어드
가극단
ZONE
레메
봉래
슈렉
창사
필러
##도감
602
스포트
베르니
로고스
카시야스
장쭤린
":
Jud
니콘
루르
마룡
몬티
최명
##야구장
##러맨
##bl
하나마루
김성욱
대조영
끄집
롱기
1820
들여놓
마지노
격전지
두들겨패
구질
낭패
무릉
영겁
원죄
화계
043
네이티브
히데유키
BATTLE
가노
권태
송유
슬레이
실링
칸다
통감
##첨화
##umi
영양분
분광기
금상첨화
떠밀리
술수
진산
천역
통풍
틀기
##가르
##디드
ATC
브루어스
Fan
괜하
능글
리필
진국
처맞
태사자
카즈유키
보드카
마지못하
Fantasy
계집
사브
숭고
일리아
전급
음악상
고속화
카츠야
노회찬
들쭉
랍니다
버저
봉제
비류
카서
화인
레이라
플라티나
대척
몰려가
이착륙
조한
초아
츠리
폭식
##터미널
과학고
436
531
은행나무
프롤레타
헬레니즘
프롤레타리아
Bay
Try
당번
두둔
뒤치
로모
숙원
슈어
##박질
##조라
Google
쓸모있
긴가
낙차
퇴물
혈당
##star
아사드
height
망나니
골탕
급탄
레서
잡종
청군
마젤란
겐무
곽가
김찬
다도
령전
리엔
선뜻
액면
오금
요는
준이
털어먹
##지뉴
##겸사
Paradise
겸사겸사
새틀라이트
도현
테베
패이
정의윤
Warri
구로다
진료소
Lucky
count
rien
서피스
아씨
앙주
카치
행해지
##ray
여행지
코너링
Always
클라우디오
오구라
매운맛
Bomb
동신
료가
물정
아덴
야단
탯도
만족도
사카자키
조상우
김천역
뒹굴
세수
순록
실피
평화주의
오오카
스웨인
fWAR
위관
칠하
화동
이동녕
035
정동영
개간
도몬
메밀
버킷
보배
승정원
아임
양시
오하라
##손가락
기독교인
오렌지색
디디디
GH
Ion
꽃가루
심바
애자
옹진군
흑태자
##고속선
Bf
고취
샐러맨
트리스타
도서실
Liquid
비아냥거리
샐러맨더
won
궤변
즈루
##ced
##세르
441
의문사
스티븐스
무도관
Prem
호쿠리쿠
시큐리티
구정
나한
미집
발끝
불임
이체
타슈
탈로스
이성질체
Dir
엉클
연투
엿듣
접두
정돈
음악원
신청자
Flower
오버클럭
NIGHT
Und
WM
남포
알케
##직원
##중앙
MAS
최상층
보험금
사각지대
최재훈
도치기
디카
봉산
산발
시지
축사
친어머니
##어즈
성장률
한중일
교칙
극좌
반나
정구
홍성군
##디치
한국방송공사
교섭단체
FDD
구태
금은
내과
몸짓
사학자
소견
유념
콜슨
콩콩
태공
후위
##남면
##ists
조성호
시노미야
rock
무임
양치
후타로
메이테
크러셔
##정보부
렙업
미하루
볼프스
영아
탈착
피망
##장식
대표부
마르타
후지사키
Metal
Jan
rel
믹서
정한
최주환
텐서
토어
호야
##루프
기어스
공수도
성명서
포그바
무쿠로
범선
병상
유에
중임
쵸파
현가
황가
회가
미야노
아베노
조형물
거위
란코
연탄
후토
##디스크
394
메탈리카
##annon
스트로크
Everything
위문서
비속어
네비
담수
배아
번스타인
산행
##마뉴
606
코스믹
1592
술탄국
군포시
DRAGON
류성룡
관아
막료
세리스
컬투
타블
을지로
이스턴
티아마트
ECM
Ol
rest
도고
탕수
MLT
루미아
##ounter
바즈
스워드
신간
연나라
음대
##쨋든
아르슬란
공항철도
612
파라디
주간지
Ru
발밑
산초
소야
양털
어쨋든
외골격
우암
전성
##베가스
정당방위
라스베가스
평창군
hit
기치
수르
유별
유명무실
##ONIC
네이처
우사미
Gri
talk
관목
뇌진
산사
정량
크레스
허풍
어야만
1877
샤를마뉴
스필버그
창덕궁
Ly
등단
료헤이
방범
제고
제방
풍각
##마킹
요리토모
존경심
기립
논설
에탄올
울펜
진평
##MIX
##못해
그런대로
캐나다인
법원장
갑각류
거뜬
리하르트
석호
쇼기
칠면
##토레
치료사
아파하
시나노
장보고
DESTINY
볼프스부르크
울펜슈타인
fin
ray
대운
소공
식자
활개
##right
##면증
관리법
story
513
대수학
1879
망설임
##iversary
동그라미
OOO
Tog
영내
의안
카사이
플뢰
현경
화도
days
서라벌
과녁
발더스
불미
송재
슈베르트
우석
율곡
증이
지은
혼마
##뭉치
##문제
##ering
수상기
소형차
Six
감응
도정
시미
암투
초의
다가서
##olle
SCV
브로큰
러시안
카롤루스
UH
뉴멕
로동
모유
베를
빗물
암만
오장
일사
혼선
##덜미
공유기
체크포인트
시빌라
뉴멕시코
Es
루차
별별
연모
타조
##헤임
377
권위자
벤치마킹
##ches
Imm
강소
겐신
명경
야부
이춘
줄루
##국장
메가톤
HTC
최면술
마우리
심벌
인시
##화음
계기판
##ATS
참전하
어린이집
끝장나
왕당파
wing
돌궐
유호
이교
직항
히라이
타이요
##rian
##sson
ABS
section
건즈
리쳐
매회
미대
예속
최서
탑신
투과
##핵화
접속자
교장실
Volume
게릴라전
이복동생
나대
싱겁
줄리안
한석
##몰로지
스트라스
전자레인지
398
AVGN
키요미
임파서블
Sleep
확증
프리즌
승부수
미나리
이인임
Friends
강공
고니시
사네
시추
어빙
여경
유태인
찹쌀
터커
##라과
##itar
영구히
브래디
곡성
라에
상궁
서품
울진
진진
퍼싱
##클로
1869
OME
YE
uh
드얼
라덴
라리아
봉수
운휴
종지부
##버터
바람둥이
##apt
이자나미
니오
다산
대산
비핵화
처신
파더
들이박
코지로
Fairy
가환
간염
따끔
청화
해류
혼세
##에이션
중앙당
스피너
855
Shield
미츠오
이쿠타
CNG
미디엄
프록시
QR
민아
쌍발
옷감
##field
##VF
##저장소
비스듬
카리야
맏형
반정
저공
프렐
화천
최고점
출발점
유감없이
정신병자
이사벨라
##슈타트
두만
미필
북마
일베
후르츠
##얼빈
크리스털
인천시
리바이벌
일베저장소
Dong
age
spe
르포
벤더
샛별
아령
요조
파이스
##려두
##aga
##ounds
Wolf
황선홍
Tank
공비
김흥
양전
진관
하이웨이
베르세르크
감사원
유대감
조계종
나경원
현기증
논지
명찰
안희정
어트랙
엡실론
##뭉개
지배력
이승훈
크롤러
장년층
송승준
어트랙션
Cut
목과
소영
애석
예사
차라
켈레
클롭
혼고
##ices
##oma
전문직
514
걷잡
만력
우전
우거지
졸라
척박
##상간
##계리
이완용
근친상간
제아무리
공갈
마미야
버무리
택트
##롤드
중앙정보부
도망자
397
김동주
선봉장
박재홍
클라우디아
마선
새싹
성깔
윤일
##바니아
##하르
##테쓰
타이슨
875
Mus
내선
모쿠
삼색
음지
저출산
하정
민족주의자
Front
김신욱
KNN
빈민가
선거인단
류제국
현석
중간고사
ste
아미르
증폭기
클린트
깜빡이
care
강영
발리스타
정촌
행신
화영
##경비
줄기차
Body
DANCE
Rail
노르트
대릴
리건
불기
아호
후유키
##재그
이제껏
things
요시노리
레이디스
쥬얼리
지그재그
지바현
Post
발디
사혼
소염
쓰르
종현
합기
호골
##mn
그리즐리
회복기
478
불법행위
does
하우징
부끄러워하
쓰르라미
Number
명암
브베
비파
슈고
핵폭발
##riri
대기록
개그콘서트
Room
칼리프
애국자
전현무
rienriri
YB
문맹
묻어나
부등식
치아리
탄착
시험지
마츠무라
창작자
니카라과
반디
방음
변현우
시성
야산
치력
테스터
오브라이언
오이타
제노사이드
파고드
니버
복학
사창
원색
자토
폐점
##ench
고려인
Mega
라우라
가선
뇌장
디파이
살바
송은이
채연
프림
##이식
##토마
##츠구
방송실
불가사리
462
reg
Beyond
페더레이션
게으름
CW
pol
베티스
사공
육로
인족
척수
캐머
파울리
호너
화만
##장교
##지중
##와리
##텐셜
프리마
다이라
ready
신동아
모의전
가봉
개폐
구려
단색
뒤셀
루빈
발코니
집속
찌꺼
##imo
터키인
제각기
예카테리나
뒤셀도르프
농간
땃쥐
사츠
예편
최홍
쿠나이
##ANK
추격자
레지던트
SUMM
도깨비불
LSD
고병재
찌꺼기
Russ
신안군
우인
추돌
##BER
Theme
022
탑재량
거둬
돗토리
엘리아
퍼텐셜
피도
##데일
ART
김종서
Phase
MXM
거둬들이
fa
밀정
바클리
사라이
성제
어째
응력
이젤
특효
##사화
##orth
에노모토
Flo
Psy
예토
전언
##craft
##루치
##여우
Thunder
ext
ZX
들개
로테
스머
신파
에히메
위증
족치
철원군
세계유산
여성주의
생물학자
##elly
근현대
well
리시아
타밀
토핑
실력파
565
DDD
부시장
거시기
LL
고부
두통
백서
번데기
임지
활공
##UP
한국은행
불안해하
인질극
OMG
고흐
천시
대구시
뉴스데스크
725
국경선
Clos
새빨갛
Xbox
cle
군필
뉴기니
윌리스
챈들러
코민
타즈
##살바도르
6500
콘스탄티노스
Portable
홍백가
bat
dance
고만고
군내
발롱
백선
비경
산단
속행
정곡
피핀
홍상
히피
##자이
이동은
457
Myster
Expl
초계함
고만고만
발롱도르
Mine
UHD
옵시
헤스
##웨스트
캐롤라인
심수창
##폭격기
파르티잔
만보
바렌
설거지
세편
아틸라
오그
카리나
##도나도
##디네
모라타
Tak
동도
롬멜
반비
수연
요그
##부미
##날쭉
604
에이다
요코스카
들쭉날쭉
BU
동광
명검
정이
키케
##gun
##vis
##치레
##타페
##장어
##클랜드
하이든
하이힐
434
목격담
홀리데이
블로섬
체임벌린
Kan
노치
도공
무스타파
볼튼
수몰
아조
조강
피클
횡사
##구비
##너리
##좌동
기업체
Unknown
##velop
Heroes
Age
벼르
삼도
작인
코호
호언
ㄴ다니
코르테스
아지지
우연찮
요동치
Hu
등분
열병
왕년
티토
033
##ager
이병헌
유아기
Butter
Pil
버몬트
셰릴
역무원
중하
하켄
한빛
##iation
##atus
군사령
552
Acc
깊숙이
설리번
EFL
공각
구요
뚝딱
류트
미트라
추문
황비
507
SSL
##boy
분화구
Army
담력
답사
롤스로
미관
약실
익살
전극
훤히
##리쉬
731
롤스로이스
MJ
봉준호
비녀
어음
아키바
대장정
468
교황령
##하이머
Songs
Miracle
Holy
Lonely
뉴런
보임
원회
치나츠
텀블러
##마스터
##씨름
오를레앙
Money
SAT
데마
델리아
사크
삼장
쿠프
페잔
전자책
페르세우스
without
거물급
삼합회
광인
낙지
무열
민우
위츠
청결
캅카스
호걸
홍염
##덕왕
635
기후현
모비
버츄
석관
전횡
차치
화근
슬러거
농경지
롤리팝
NY
백골
에딘
코렛
##퍼프
웨이보
건축학
의왕시
기명
미덥
변인
샴페인
신풍
오셀
웸블리
투라
##ij
##바티
##큐브
는데두
파워퍼프
536
남북조
브라이튼
도네츠크
최남단
FRE
Sab
요스
우츠미
정소
코모리
618
이주한
정통성
##중국해
Creat
김서
대저
산술
십이지
용화
워런
행차
##zh
##극장
에이벡스
크라임
한가득
메트로이드
굳건히
대추
산투스
수메르
썩소
양화
태영
##호른
023
443
기드
래미안
밴디트
상감
아찔
전천후
##전시
오버킬
437
522
이과인
Kids
cent
농약
미선
식성
양모
우문
##ram
##강도
히로부미
스파이스
오프로드
아사쿠사
남원시
요아힘
believe
과천시
사담
쓰루
연골
응집
파트리
##elt
042
수치심
형제단
미라주
제라르
니케아
네바
로난
원폭
제헌
##여름
마리오네트
로버트슨
나주시
데타
로버스
명승부
바브
반출
흉흉
##AH
##만금
918
시마자키
입법부
이천웅
주치의
far
글레이브
기옥
낙담
비바
상일
영관
중식
##포구
China
463
가스통
소문자
토모히로
알파인
김민혁
안기부
카와구치
간택
바란
아목
진균
파시
##동맹
대사헌
지하역
##antic
스즈네
후미카
갈라타
하다못해
Audio
김예
노자키
법술
서준
수어
수달
씨티
장명
토커
##업소
라는데
타카아키
##osa
Brit
기흥구
랴오닝
Fish
Sak
시류
재채기
홈피
##maker
##티컷
##슈티
클리어링
517
기어다니
북극곰
코네티컷
박한이
Main
Pay
보네
양다리
영약
장궁
카이트
퍼드
하얼빈
희화
박정환
DFB
스틱스
BABY
소시에
히마와리
Pac
기화
살수
지휘권
해상자위대
코메디
Il
구양
긁히
모리카와
클랩
##평면
이라던지
우선권
갈릴레오
뺑뺑
우렁
찜질
천동
콩나물
##ho
블랙베리
523
광역자치단체
프란체
이원화
해변가
이목구비
삼지창
KP
음량
##상곡
##기술
나이트런
##RESS
전철역
GOD
Ok
날씬
북문
사석
싸가지
으음
인두
가로등
하야부사
정전기
제후국
##iece
니들
우나
##피리
##슈나
동네북
LIFE
고풍
구보
루거
뼈저리
스이
스오
온수
왁스
용장
일출
노리오
플라스크
몰래카메라
사유지
ASL
김경수
영양소
1815
샤오미
Epic
흡연자
FG
Jim
Terr
먹물
시유
아콘
조향
치어
프링
##계역
gold
신카이
파루
교통편
증거물
Think
연수생
안락사
롱기누스
광합성
신석기
월부
코빈
키위
##endo
hear
Conf
BOY
김형준
시몬스
퀘이사
덕지덕지
Cle
CAT
광수
성력
식상
이륜
##volution
##LIGHT
선언문
우즈마키
유치원생
정우영
근위병
Better
게오르그
경강선
도드
돌개
아돌
윤규
점핑
진품
휴업
##사장
프레슬리
Change
val
뉴클
능감
미그
에아
포코
푹신
함평
호미
희롱
##샤르
들어내
타카츠키
포병대
YO
뒷산
바질
배향
브람스
애처
청학
캐러
풋살
##케라
##ito
몰아세우
김태호
수지구
러즈
발설
삼부
탄로
##팩스
706
##ria
알레포
HEAT
블라디보스
프로텍트
산본
성량
와일
집적
콜렉터
쿠릴
##천국
##광선
프로이트
사회생활
595
동창회
토착종
Cold
교위
꺼림
뇌졸
듀나
영부인
일요
준동
##rome
베트콩
학술지
스탈린그라드
무안군
검문소
단명
장거
장국
통령
운동부
453
대피소
William
미도리카와
진중권
틈틈이
랙스
불공
소제
츤츤
##포터
##ries
정수리
영동고속도로
결사대
인어공주
Joe
GUN
긴테쓰
김만
다오
블레스
여보
유어
주익
##mare
동래구
STARS
래피드
오슬로
풍화
##구사
##바타
##싱크
담당관
Ir
mk
로잔
봉헌
수일
염가
웃어
주몽
##연료
라이베리아
527
신고식
Boost
중고차
히로시마현
석회암
로르
메데이
문지르
보츠
삼존
요망
##딱지
##olver
루카쿠
DEAD
그래피티
pvp
오월
절이
평사
브라흐
세이크리
여행사
915
갤러가
작살내
세이크리드
Kg
남조선
도립
등껍질
반유
스고
실의
킨지
##우병
아이크
##thm
Gray
버밀리온
오스왈드
Yak
격수
맞바
북돋
쌀쌀
연지
올가미
자운
현진
##큐슈
##arn
카르멘
블록체인
시구르드
고이즈미
달이
량도
안네
온대
최치
##언트
MaxLV
전도사
카사노
서지훈
슬레이어즈
소시에다드
군집
신녀
윗사람
##막염
에드워즈
속사포
동음이의
##strumental
뚱보
보로스
##테아
##퓨터
704
##ified
불사르
하마다
환호성
사요코
염기훈
뚝배기
레몽
비어드
의주
지유
풍문
##cer
발리언트
해수면
Build
광천
마릴
어셈
킨키
톤즈
##CA
디아루가
그치만
중립국
재소자
SIN
임찬
##지어
하루노
PDF
KFC
결절
뱅킹
약식
유조
임병
조너
히츠
##자족
##중독
##ille
482
SPE
연해주
PF
ULT
겁탈
기백
라스타
보국
케테
황량
황의
Cherry
와카나
Middle
##iction
타다시
낙인찍
자영업
무영
씨알
인선
토메
##OND
후지사
이승철
935
이터니티
카와무라
Acad
플로리다주
진흙탕
김화
밀로
비뚤
여시
왕기
천기
폴스
힘줄
##연수원
이제서야
마사노리
446
Extreme
이와테현
마히루
뇌정
##치마
메이코
마음고생
이재성
정찰대
고봉
공돌이
배색
순우리
원론
월성
유이치로
지당
##각색
##반정
449
세븐스
순우리말
FAN
덩샤오
어윈
우의정
초도
코무로
##양동
엘리사
여단장
어버이
덩샤오핑
Bec
ZUN
soul
갸루
구부리
군법
근면
기정
목련
보필
야나
열사
유식
윤기
재역
차크
타카나시
496
##ISODE
MLS
방방
엄포
##노이드
시스코
사법연수원
레지스터
필사본
pres
비잔틴
드레이븐
RAD
김근
레자
레와
연례
초호
투정
##한자
##enge
아라크네
점프대
##cean
겨루기
Film
군상
맹약
설가
시환
처먹
파리스
팩맨
홀랜드
##VO
##장수
##부절
##톱스
수호전
이승호
EPISODE
SOUND
Media
아야노코지
자장가
##케라톱스
CQ
낭인
덴트
명복
빌레
수각
승합
안과
청강
초수
화두
힐즈
##cha
유우지
패션쇼
엑소더스
자급자족
그리즈만
Something
공도
굵기
데커
로렐
야가
영일
파면
학제
##부기
최고참
055
카리브해
광개토대왕
다이너스티
kanc
각계
도술
면죄
방증
우애
카스트로
쿠사카
휴이
##금자리
캐리비안
사시하라
연개소문
Mot
ent
광종
기거
렉싱턴
보금자리
여백
캐런
테살
퇴로
현현
##화경
##ZY
##징금
1650
카이오
448
에디트
회계사
상용차
plus
적혈구
Kit
nothing
광분
렉시
본상
쇼헤이
신식
열반
용언
육각형
이타이
철새
##데즈
##ORD
여신상
토모유키
아랫사람
엑소시스트
다각
볼러
양당
예브
원더스
카호
##비싸
##고라스
알리샤
Alive
김동엽
네모나
PARTY
페네르바
별동대
Boss
wait
망국
변두리
비원
산간
영천시
인마
태일
##로로
대사전
those
945
플라이어
엎치락
body
tra
개박
뒤틀
심오
약진
지브리
##AB
미치오
베이가
요시오카
시트론
KSV
한결같이
코오롱
ㄹ리
노리스
당상
매질
안절
에이치
장직
제모
함덕
화술
##이에
워너비
신격화
구부러지
안절부절
Ltd
값비싸
글록
노런
방기
에베
점주
죽지
코른
홍일점
##모치
##load
스기모토
스커드
강북구
kancolle
강약
남진
민나
빠듯
웰링턴
음산
족발
##시도
##뉴기니
아이노
최강전
황태후
불화살
Remember
박세웅
곤도르
되새기
물대포
병세
오나
장곡
쥬리나
파운데
핵연료
허비
헬파이어
##ged
##천선
##카날
전자파
애드리브
파운데이션
과선교
물타기
역간
킨타로
상품명
비상시
김현정
Company
김시진
마르티네즈
과달카날
Candy
고밀
무츠미
시늉
인심
609
제조법
888
교차점
히스토리
Wait
개년
리퍼스
별나
악신
페카
이탈리아인
571
프라이팬
##루엔자
맞바꾸
랩퍼
맥과
새만금
생가
캐미
타자기
편인
평촌
##행사
##()
##omen
매스컴
many
구스타브
마그네슘
무타
운도
지근
황조
##충제
도요타
Model
Lake
cor
덕목
볼라
알짜
압기
위서
유작
제부
##노래
##울루
하이파이
호시이
트렌트
하기와라
\"
딜리
류소
민락
브란트
서윤
술병
알칼리
이베르
호탕
##러햄
##갈로
시우바
li
가학
까놓
빌트
술자
음흉
캘빈
흉갑
##iner
##edom
스타일스
해방군
이슬람력
무반동
윤용태
Made
namu
가느
아단
##특급
MSV
히메코
super
에이브러햄
rain
train
동민
시폰
신갈
커팅
페드
퓨즈
힐트
##자국
정치국
대체재
1874
flo
대류
소아시아
우랄
음치
턱걸이
##ners
##튜드
466
박정진
감탄사
프레드릭
대구경북
메데이아
조너선
GST
그니
내어주
수공
순사
##ried
439
567
사마사
SCAR
분당구
지그문트
Opt
괭이
뒷날
백양
삐끗
##과자
##옹주
카메라맨
고서라도
소방대
스펠링
sports
오보에
히비야
궁주
셰이크
우류
임나
사고사
미스테리오
##aste
동화책
해리포터
메리다
평양성
PRIME
Kingdom
만리장성
객석
론다
몰골
초특급
헥스
768
무인도
산타나
오세훈
##ootball
분간
토나
하자
##체리
##PT
##트럭
##하치
역사관
1105
화이트데이
1024
김혜성
베네딕트
Platinum
쿠티뉴
dont
권신
문방
살레
용은
이린
취주
칸지
##Cl
##물산
아크메
인플루엔자
BOF
각별히
간만에
겔구
땅거미
메론
면소
슈트라
아문
유채
은은
은상
##EZ
##일생
구사일생
피난처
사탕수수
안젤리나
Crystal
겔구그
Ter
덮어씌우
동무
성안
신목
양제
임이
재의
허베이
혈안
히야마
##중미
702
##ros
고문서
바스켓
PLUS
양조장
에이프릴
유별나
석불
예원
왈라
임경
코퍼스
푸홀
한울
항명
휘몰
1750
623
보충역
사와코
Geor
슈트라우스
푸홀스
woo
광서
울브
재로
큘러스
이용찬
문화원
카라크
김희철
더듬이
아크메이지
노림
로티
색슨
특채
해자
휴우
##에어
우편국
아소카
레예스
마벨
먹통
실토
홍범
훈육
##올림
##ISM
김민재
여운형
김옥균
가오리
김좌
디너
루저
부티
불치병
비연
연변
은호
이곡
하야마
909
회의소
키타가와
정재헌
FNC
증손자
모레노
디스토피아
moon
괴팍
근해
본회의
소류
순방
야탑
엘리오
오필리아
춘계
##chen
가르마
미야타
아사다
똑똑히
Non
군무원
병설
어간
척척
하뉴
##찰청
콜롬비
의용군
대척점
Garden
문리
일섬
즉결
홉스
활달
정규전
금지령
기원후
플로트
판결문
대검찰청
저수지
뒷배경
GIG
움찔
위병
이숙
인적
츄츄
##언라이
##하워
##분방
아무르
클라운
아즈미
코르넬
아이젠하워
저우언라이
김다
덜미
맨발
봄날
북중미
선덜랜드
표고
##브로스
##량이
##학규
자유분방
관리직
##슬라브
바실리스크
Anniversary
SUMMER
River
감바
박식
발등
방제
섭씨
월희
치와
황우
아이피
이동현
부정행위
프라자
next
고분자
샤워실
양현석
박완
주미
유리병
알렉산데르
후미히토
김제시
조광조
국전
루오
부랑
삼계
901
수입원
지브릴
화순군
케찰
1002
은하철도
고문관
나츠코
에릭센
BAB
시한폭탄
NWA
값지
게토
남몰래
러스티
린트
망연
진남
타악기
황권
##베이어
친부모
HIT
서훈
성환
옥산
##PD
##변수
클라시코
SWAT
임재범
원통형
틈틈히
Cause
sat
무무
왕명
집대성
쿠에
##슬기
##복스
마츠나가
러브크래프트
남아도
광복절
미식가
전광석
GI
반죠
속구
어본
최은
퍼러
##니다드
트리니다드
수정구
528
Phys
타니구치
우시지마
Infinity
가젤
근근
드문드
박미
##개혁
으라며
페르디난드
파란만장
세베루스
sweet
드문드문
블랙잭
가까우
문학부
GUI
교두보
반비례
HIGH
Sant
ps
데릴
멋모르
방덕
이동과
1011
오마르
중랑구
가경
문세
유순
진왕
청운
플란
ㄴ다구
나이젤
등록증
스크램블
mir
거름
교민
박유
반값
봉담
장포
태원
툰드라
##LTE
가로수
뛰어오
야마구치현
데카르트
뱌쿠야
Kw
어구
청계천
찬송가
sign
벨렌
안쥬
과학부
크리슈나
공포감
실습실
동두천시
탕수육
로프트
묘미
삼청
애견
에레라
잠비아
특파
소리지르
538
Dev
아바스
다케시
뉴클레오
광검
수억
##To
세리자와
대동소이
카네코
공문서
둘리
매끈
부선
손학규
역방향
위패
일변
테사
호정
##정변
034
무라사메
DSLR
하인츠
양서류
vo
도내
불바다
조아라
천궁
퇴폐
##속구
출신자
파이어폭스
##프레드
##aven
##ibr
Fear
동편
백장미
북단
우하
일편
초나라
##CORE
803
자본금
Map
VER
과르디
켄수
흉포
##cient
##준영
코스트코
카라얀
Memory
php
선관위
프란체스카
멘델
상납
알테라
익수
제럴드
페시
헤집
후도
##ago
아우크스
와이셔츠
아담스
강수진
김도훈
야만족
부화장
요양원
구마모토현
아우크스부르크
NB
TAS
고금
꽃말
꿍꿍
나바로
무니
미캉
베시
엉금
에든
트랜드
핼리
##제로
스타스
장로교
급행열차
거침없
군견
유태
일로
추행
##직할시
##투합
Sup
오이카와
JGP
PMC
gun
가덕
임직원
환대
1812
학교장
HEART
진흥왕
천도교
Auto
레반트
여호와
hea
나강
세율
외아들
현령
##괄량이
045
경영난
알레한
GREAT
HB
귓속
기토
김채
디제이
말괄량이
순도
숭상
식중독
의적
조봉
즈치
##드라실
##ized
사와무라
시흥군
의기투합
구한말
에든버러
Hill
갈퀴
쇼인
엘살바도르
와사
유량
자그레
하영
##개비
##착오
시행착오
프레이즈
위그드라실
자그레브
는걸
빗이
선적
아몬드
용포
워리
으름
피복
##호프
##sen
부산진
최강희
오카리나
인조잔디
더군요
bye
데몬즈
Note
루즈벨트
Tn
값어치
개코
내자
예천
주모자
포만
학칙
##가쿠
##서동
경기만
지나다니
이해찬
029
받침대
Empire
Pick
구소
정학
헬무트
##테른
##댄서
시대극
ㄹ께
부성
지용
프로파일
마사요시
레오폴트
막내딸
클라이드
^^
맥그리
미야마
버링
분통
신파치
카펜
수익금
while
##ments
동음이의어
렸다
미실
복자
새총
입방
칼바람
캡터
헛소문
##쳐스
레이커
028
##ages
공동묘지
576
의자왕
exe
특산품
강속구
냉대
당차
배럭
조희
첩운
친필
파머
효정
##ston
처리장
##UCK
상록수
NRG
맥길리스
History
use
갑오
쇼룸
주원장
팽배
풍력
##enix
Goodbye
외무성
이브라힘
간극
갑부
마현
박나래
서군
양인
양친
임마
픽쳐스
보호령
감시탑
전동기
Bron
박지수
사채업자
아나키즘
하이데른
과업
깜찍
도날드
목축
상암
응석
수도권
스피노
727
봄버맨
윤규진
pc
곡조
무굴
물증
미방
산해
시니컬
일발
진자
##이면
##마담
##erg
454
인상깊
599
하야오
자극제
Peace
터무니없이
파나소닉
고석
마황
봉착
불협
안수
임은
나이얼
파일러
위상차
시노하라
COMBO
파비오
감면
바삭
오코
철광석
히무로
아사이
SUB
전광석화
Ace
고역
버추어
성규
아게
예일
젖소
팩스
##벨레
##테제
아라고
라이트급
##ORN
Conn
Dreams
Dim
동현
러키
미심
뽀로로
오묘
원도
입항
촉박
대한축구
##iser
464
부지사
인디고
으리라고
대한축구협회
vers
고화
샤흐
예법
##코이
테크니카
창조신
chan
후루야
TU
고름
본따
색조
샤넬
오펠
응고
장종
직할
쭈욱
황규
행동거지
036
481
665
1102
희소성
비지니스
Was
메흐
애틋
제설
함안
계약직
김민식
사라다
프레이저
나기나타
에도가와
의병장
Hong
Som
aut
돈나
리페
반자
산속
제석
티그
한준
##헌터
소득세
##hythm
##fferent
현충원
고품질
발란
시토
알력
일거리
장생
함자
##기계
##청자
##컴퓨터
##ined
나이다
027
step
김태우
보험료
이현우
VoLTE
모하비
김헌
대자
맹호
벽지
수렁
윗선
카셀
학예
리버럴
김태훈
안성시
Darkness
Captain
토치카
박효신
뇌졸중
Hub
Sold
검소
문주
베레타
봉명
심비
앨버
일벌레
탬파
패잔
홀트
##니츠
##중기
얼굴마담
아키히코
나카하라
릴리프
article
help
Fix
Pen
WN
경정
반올림
석류
쇼이치
제나
질러
카토리
##르륵
##wa
##이상
이상호
사리사
리히텐
구구단
PB
Pict
구민
롱소드
신노
일소
정심
투철
##FT
##아메리카
자유의지
##ACT
율리시스
양석환
DOC
attack
도지마
릴리아
보사
언터
우장
창공
태업
여행기
리드맨
게르마
허구연
로데오
하울링
Version
damage
납세
네무
발로
보성군
상면
포피
할멈
##카시
##데냐
인기상
공작령
청년회
각본상
사르데냐
나구모
Giant
REM
Uh
노팅
방탕
켈러
허재
##주부
026
MMD
외관상
흐느끼
아마조네스
뇌진탕
교서
눈독
샤토
우베
인현
##kin
##어어
##겟돈
3100
아마겟돈
국민회의
이론가
김상훈
에픽하이
페로몬
더우먼
셧다운
열선
인중
컬렉터
##ecs
Blu
스파르타쿠스
이건희
강용석
hot
장훈
참으
테토
스트라이더
독립성
사단법인
586
1107
스프리
오랫만
토시키
Soft
제보자
바우어
HTT
커넥터
Drive
노랫소리
검심
교본
마리스
밀렵
블링크
삼황
오산시
용제
체스트
토번
통사
##가치
##LECTION
##렌더
##명왕
##쿠레
부산역
##rab
원더랜드
어부지리
Corpor
솔트레이크
IBK
베오그라드
떠드
장산
칼리아
타릭
할양
해외여행
467
포항제철
신도비
Daniel
EY
첨언
호관
##시프
연합체
469
랭킹전
영동군
단정짓
세이프티
마릴린
가느다랗
ARE
met
경각
붕붕
지젤
##다귀
##베즈
개그우먼
카나자와
간행물
부러워하
Demon
HY
드팀
밀랍
밝아지
세척
콥스
티키
##링겐
진달래
air
묘목
퇴행
합심
아르곤
Into
트라키아
니시다
싸이월드
아세틸
DTD
놀러가
Kur
모리오카
박도
수계
##회계
542
Service
ORIG
Duel
꿀꺽
난지
대홍
소이치
의종
포석
##굴라
설명문
장갑판
이사금
고기동
895
사마염
베이비복스
저소득층
정약용
극소
단초
명륜
분주
양안
유천
음영
켐프
쿠레이
헌금
##윤호
484
스탠퍼드
종결자
배성재
은연중
Aust
갓나
굿바이
나하
매품
메소드
폰티
##동글
마리야
패배자
##ization
시공사
EVOL
##ottom
클레멘타인
동글동글
Kid
무에
아길
엠스
평전
해물
후타리
멤버십
보유량
583
이성애자
오마이
정선군
버나디
와스프
상비군
MU
VJ
괴벨
괴링
심산
아영
호민관
##라이크
1104
오세아
산출량
노즐
당면
메트리
신희
여교사
주전자
##LIVE
사우나
WHITE
image
낙성
효원
파이버
스트라이프
939
Blast
김기춘
사당역
맥북
센추리
시냅
신본기
처인구
카나가와
문제지
놀라워하
541
잖아요
타케오
마아야
;"
뚝뚝
보온
속상하
승지
싹트
저물
진조
자유로이
스카이라인
Forest
아지랑이
떠들썩
부지런히
공여
몸놀림
문병
예제
천우
크립
투약
합비
##KI
##RI
##촌면
051
텍사스주
오디세우스
열렬히
끼니
난적
산로
엘윈
역상
예인
펄럭
아이자와
교육대
##ATH
이오시프
고해상도
예니체리
광풍
악습
원희
위수
유피
지린
천생
테스타
##SA
조사원
Seven
##베르투
삼각주
##others
Endless
라돈
링클
밑줄
소급
추풍
##웨더
919
##ITA
전라선
##shine
공고히
와이어트
안영명
가처분
내추럴
레니아
로젤
목덜미
세드릭
인석
채플
크시
##당역
##민석
계양구
시냅스
곤욕
공회
단파
덤프
못쓰
백댄서
의중
특방
세이빙
447
792
카미시로
Exc
인디펜
##사이저
키요타카
이스마일
Dual
Wow
닐스
산천
세정
레이먼드
4800
1859
조수석
보증금
비욘세
Lil
닥스
랍토르
법치
파상
##oom
##후이
우주복
053
통일민주당
714
플레시
##ired
파비안
뒤죽
마거
빙산
해신
헤겔
##for
685
트레져
Bob
피에트로
frac
LIT
put
링커
삼송
언양
용아
잠옷
추미
허름
LGD
Piano
빈축
생원
숙모
아련
잉그램
포라
##아스
##발리에
##백도
아야나미
forever
시나가와
구도심
Steel
서재필
태안군
탱고
트루스
##튿날
##eless
우수수
마츠우라
안티테제
Combat
브라우니
ANIMATION
임찬규
예브게니
기현상
나나오
따귀
서먹
세경
암암리
제롬
참백도
콰트로
하달
##방스
529
SPD
562
의무관
##ended
정밀도
선착순
보령시
강권
주무르
증조
타냐
티아나
한낱
##커트
##데나
##참모
음악인
생성물
우스이
폴리네시아
엘레노
피타고라스
Pain
다임
삼산
잠행
축협
##이벤트
##ocus
라미레즈
테오도
로열티
해운대구
덤벼드
PI
cop
도너
액상
음계
정해
하품
할복
후난
##face
##박죽
##ides
기어오르
뒤집기
##ept
크레이머
트러스트
캐머런
뒤죽박죽
미카와
석학
식겁
아님
아다가
은혁
삼성물산
##트리히
헤드라인
나루히토
바보짓
arm
심형래
권희동
cons
립싱크
박빙
비천
원경
칙칙
##레이스
직업인
골든디스크
인디아나
사와다
Steam
박경완
경인선
HUD
wik
고제
매설
부케
이튿날
황민
##core
프리실라
메인이벤트
플레처
직선제
Sen
끝맺
롱런
맥기
무치
사량
참나무
촌락
행체
##타케
시간제한
##inn
미니스
스케어
토모요
제갈각
Rac
결재
목초
뮬란
소도시
슈카
의천
이튼
지세
최문
케노
코엔
표상
피구
037
미술품
대항마
해피니스
hey
중구난방
까마득
이근호
격류
맥마
샤카
서보
의창
졸음
한파
혜원
##학파
##ania
..."
납치범
##AME
키리야
Edward
에보니
칠면조
결부
귀비
난생
밍크
설레이
알선
요헤이
잉태
팬택
##화산
inst
998
가까워
토모키
강남스타일
테라다
정우성
레닌주의
수제자
무에타이
낙석
윤명
하한
중심가
장기말
ATS
코우키
클레르
1175
MLG
second
맥그리거
Aug
Bow
Ce
나물
락다운
비요
암군
원담
창씨
초저
키토
토구
합천군
##su
##장각
##지종
마리온
534
미나즈
잉글리시
슈마허
깔깔
리퀘스트
벌판
법황
##래기
473
스톤스
대립각
스터링
캐롤라
모터스포츠
KEB
오웬스
STANDARD
LU
OBS
move
만호
망우
몰라
세진
웬일
전민
접이식
조피
해사
화명
아도니스
사무직
크로포드
477
그레이즈
표준형
835
##00000000
막시무스
데인저
블라디보스토크
패잔병
most
들추
아첨
에볼라
유임
주라
차저
효모
##봉사
게임스
##ared
검정고시
아자미
Liber
남해고속도로
저작권법
뺑뺑이
귀요
메그
박노
불호
새까
섬나라
아식
요염
퇴거
##공포
##aly
##eph
사와타리
Amaz
VCR
RUN
Tower
남김없이
버펄
액슬
왕십리
최창
쿵쿵
홍어
환공
##시위
SSC
우에키
오리엔탈
마속
허전
##승민
알트리아
cur
눈금
원양
캐니언
태민
토루
하림
지지대
산업체
653
Mech
이경민
Rocket
작살나
VfL
JE
mom
라온
막지
사목
잇쇼
특선
팔각
하니
혜자
##타라
1004
607
해군력
공략전
712
니코틴
베오울프
기악
명화
물개
방석
산문
연환
요사
일리아스
장학생
조은
##iac
##시개
##재윤
##웍스
가리온
721
588
Unit
김현우
장성우
성실히
최하급
놀래키
망나뇽
Believe
Wish
방파
싹싹
장실
집편
컨베이어
투닥거리
표도르
##부심
##임금
미야와키
쿠로카와
Poly
Frost
MBA
Mult
디트리히
양기
용주
윤길
초짜
총파
3800
991
564
Short
로보트
르미
박규
서전트
송치
쇼어
콘월
톱스타
피보
함축
##검사
##eder
표준궤
김동수
때려부수
발레리안
system
노구치
한비
항거
여왕벌
브레드
드림캐스트
발기인
kiw
교각
나시오
리베르
쥐라기
##네세
##꼭지
몽골어
death
나시오날
Ni
Tre
Yu
다연장
모크
유은
지롱
##SM
프로비
038
##uring
에이전시
아트홀
루시우스
Quest
그란데
찌질이
정주영
레츠고
blog
파푸아뉴기니
덧대
변증
여흥
유와
자색
을지라도
개화파
뮤지엄
머그
목줄
삼바
애지중
위르겐
콜론
프랭키
##공포증
애지중지
권용
단사
당산
맹획
색칠
앞니
자모
초강
크레이터
항암
##date
##이다
CHAMP
바베큐
Phantom
과르디올라
각류
기다랗
님프
멘션
새드
생업
##ying
##타우로스
##팔계
tog
479
624
전지전
미노타우로스
Depart
샐러리맨
문교부
불협화음
Wing
구개
능히
통기
##단심
##백산
증거인
리플레
카라스마
경원선
건우
계백
과민
어불성
입적
준지
독립선언
##uma
김용의
도미니크
DOHC
최원준
암행어사
돌개바람
GSTL
일편단심
전지전능
어불성설
대간
돈지
식탐
안국
열심
잇키
저팔계
총책
홧김
##well
##지세
##모비치
리더스
566
##베르데
자초지종
대식가
비빔밥
아반떼
Together
경진
고약
과수원
달라이
만도
바누
솜사탕
연단
##oL
##TT
1440
기술원
전차선
##ems
651
563
711
양동근
POS
wind
뒷전
드골
빨대
쿠나
##노운
##례문
식물원
대승불교
지주회사
가중치
NOVICE
Case
드밀
로런
심안
옹기
운디네
유안
인단
증여
한경
후보자
전차전
492
방공호
MEDIUM
주계열
DW
드시
미쉘
베스터
엉키
채병
##에다
##ARA
과대평가
도화선
몬도
몸뚱
빈혈
생필
황토
##상대
김광수
감마선
control
영도구
스트라토스
괴벨스
von
walk
계측
기담
먼치킨
벽산
부야
엄숙
원구
원뿔
제다
최철
052
Chu
649
617
GTO
순례자
조디악
꿋꿋이
생필품
Ash
ROT
cd
따먹
슈피
줄지
한의사
후스
##rin
##인격
시청각
Its
##IVERS
내팽개치
Morning
개복
슈워
양광
스크루
NTT
공소시효
모성애
bp
ye
발록
부경
울보
장과
포브스
##JECT
..!!
끝나가
703
##ulator
원자핵
포르투나
주교좌
Edge
##기념일
아르티옴
총파업
동침
사테
테리어
어리광
아르투
Drag
재배치
안성맞춤
문성원
사계절
SJ
속물
속전
숙의
알칸
언노운
으아아
팬케이크
힘러
##arge
1005
독립영화
1108
장악력
Trick
적응력
한가운데
Japanese
jo
mid
고초
막기
말수
반피
변주
합장
히에이
##iance
하루오
수천만
휴전선
Operation
시무룩
망연자실
Att
JIN
김조
성무
안광
제피
휘슬
##문간드
##리아누스
581
Alone
1801
PPP
아랫부분
패트리어트
아슬란
상파울루
Dash
NEC
pH
가보
곤혹
리리카
면상
소래
##시리
735
카와라
요르문간드
ahq
광둥성
Action
VAR
내서
유중
이파
회분
##itree
국회의사
고르바
글씨체
이코노미
늙은이
벌거
베노
예복
의붓
인왕
제소
책망
쿠오
##천자
##딩거
##거리역
553
546
##ika
이시노
동아프리카
버거킹
임재덕
김봉준
데어데
질식사
경보기
닥쳐
도티
양봉
어영
클루스
##kt
리드보
피터슨
알라바
대피선
Legendary
부용
스지
재커
##사진
지속력
김정호
##프레임
티아고
이계형
고르바초프
log
나드
비라
울드
쥐과
키스트
황기
##공간
Graph
처참히
##사이클
온리전
UED
VA
ㄹ락
문현
양준
페예
햄릿
##정권
##가다
인사말
Lock
데어데블
닥쳐오
XV
교생
기브
대나
델론
마재윤
부폰
습윤
이령
조충
콤바인
헬프
##은사
##투기
남성향
레오네
Everybody
조부모
##그러들
일장일
마거릿
Cour
고별
금욕
링스
밀봉
수압
연과
피레
##yu
##론을
717
##ected
디오니
IGN
리플리
##Sports
일장일단
두정
범어
블랑카
##ANGE
김경란
Flow
조로아스터
개새끼
날아들
미생
북조선
양가
온기
정에
쫀득
푸조
1150
지방관
489
041
1109
937
Very
뒤돌아보
Object
삼장법사
eh
나군
덤핑
동역
레흐
원미
이판
체사
쿼트
황주
흥부
##다코타
##olf
아시아인
NET
로렌초
도단
말포이
세끼
시터
애스턴
임자
파혼
페북
##드름
녹음기
브로콜리
QPR
하층민
민경훈
yo
노타
노던
별똥
올슨
진마
철포
##val
##우로
문제없
사업체
전자전
526
537
산책로
메다카
Danger
다구리
제천시
지쿠
진갑
촌의
켄토
##다짐
지구대
부산진구
1106
면역력
관측소
시노다
text
wish
발소리
베이트
시큰
우롱
판의
하메스
전략가
베르베르
참석자
CNo
Assault
순이익
단번
린도
뼛속
운세
포방
##ANA
우편물
오르페우스
곤지
양철
##놀즈
521
변형태
청소년기
##코프스키
##CHO
미심쩍
HAL
JUMP
견장
로쿠로
썩이
요점
음소
친자
쾨니히
활보
정치범
494
682
ICE
송신소
노년층
creat
fla
사티
생방
아싸
풋풋
허스트
환청
##서양
메타트론
978
USD
성모병원
Cop
ai
군제
글레이
난수
만과
몰드
민담
배선
생후
신죠
유보트
##CL
498
생일날
##ISH
카사네
kiwitree
Los
낄낄
라니아
루치
뻥뻥
친자식
##반지
##넬로
짓밟히
수마트라
리히텐슈타인
오세아니아
새까맣
together
Hen
Save
Viv
놀음
비역
비담
위약
출두
튜링
##카도
트리트
북한산
Chain
1103
1010
SLR
김익
동궁
말콤
불식
외향
융단
푸대
한밭
화투
##로라
##토리아
##강호
##팔렌
조각나
박종철
신정환
천공기
자의식
영월군
화생방
휘몰아치
고즈
내색
말갈
빙수
사색
상충
슈슈
엥겔
입버릇
천교
촉망
콜먼
타짜
태주
홀연히
##포역
##isk
STS
토모카
현역병
이인제
양세찬
문희준
Masters
니우
동제
아퀴
화망
후부
가슴팍
출발지
네덜란드인
레온하르트
박재범
기라티나
sleeping
뒤따라오
pur
대못
롤랑
여상
절세
제닉스
조자
##다람쥐
들어차
ASMR
브레스트
스즈란
사이클링
공신력
서대전
발주자
Mont
경련
금자
납북
상온
척결
보호구역
##ante
자치통감
가나안
##otten
plan
이문세
차이나타운
북대서양
Thomas
내국
도림
복희
서두
송림
수산물
쓴맛
팻말
핸섬
##죽순
쓰레기장
김구현
전태규
우후죽순
퍼블리셔
동질감
사군
성고
짝짓
천식
총지휘
치달
레이놀즈
cho
유언장
DMC
즐거워하
삼척시
그을리
덕성
백치
잡아들이
티즈
티얼
##war
좌우명
Quad
분쇄기
카다피
TUNES
BV
Den
록산
재민
주둥
총감
페를
화체
화족
다크호스
아기자기
흉악범
상속자
Flame
초고층
About
YMC
계장
부쿠레
시당
아센
웰터
취록
현대그룹
마츠바라
일방통행
##ween
비앙카
부쿠레슈티
Eternal
경포
광각
끓어오르
나모
사골
서야
성직
아즈키
앙고
요타
용적
인동
인세
조음
주우
##슈인
039
사령탑
순찰대
LITTLE
Syn
Wings
뗏목
마히로
어용
테이지
튤립
##NN
동서양
UBW
김국진
Dive
란카
몰트
배시
복통
세오
신센
쌍놈
장쉐
측천
스토리지
하이츠
554
회의장
1858
도쿠시마
아비게일
발트해
슈뢰딩거
신센구미
장쉐량
러플
심창민
이이즈
임태
텐도
##li
##에서
##레이라
메이헴
544
필수품
청부업자
최지성
이이즈카
FGO
VG
cat
개나리
딸내미
야식
##rent
##용준
자주색
전국무쌍
로켓포
유언비어
VVVF
알렉시오스
Ell
남반구
로케이션
빈즈
순박
입가
정왕
##재훈
##해살이
게임큐브
수상쩍
전사체
라즈베리
박수호
Apink
귀금속
네거리
대이
서글
이낙
##피에르
##분자
ㄴ다지만
049
아사기
유기물
Pho
클레이튼
Display
Freecs
정공법
Dancing
루틴
삐딱
움츠
위독
철사
키어
하자마
횡성군
##YU
##ili
유키에
1162
김민규
라이온스
막내아들
이타미
수개월
BOSS
말짱
무나카
방자
방목
브릭스
앰브로스
왼편
의성군
이괄
전립
지스타
차베스
홍렬
획책
##로즈
##BB
936
미츠코
슬로프
때려치
갤러거
승차감
제철소
추스리
무나카타
교로
교무
단디
따끈
레빈
렌스
어법
킨조
탈수
##네오
이동욱
부산항
636
그로브
trans
hands
남면
뒤엉
모렐
방배
빨개지
수자원
양태
오색
일견
텔러
##로역
계획안
시험관
개체군
그제야
Found
견우
더들리
도롱
빼닮
시저스
전각
##ANO
신기동
김태완
시로코
삼국전투기
Bass
궁진
다요
반절
악독
제례
해구
휴직
히카와
##우주
##로하
라인강
배틀넷
부탁드리
474
폴란드어
갈아치우
가쿠슈인
CHAMPION
긴키
뒤로하
보가드
엔조
영주시
용매
탁하
##삼국
플로피
MILL
Jon
Ren
곧이
덧셈
시아버지
실러
요릭
캐트
캠퍼
킨텍스
판테라
페타
평과
푸젠
##넥스
이슬비
ONLY
휘청거리
뒤엉키
Rifle
갈로
검장
꿇리
버팀
어니
일월
잡화점
##uri
마사카즈
이슬라
구르메
갈라서
의인화
코민테른
Ya
불면증
비음
장황
직제
##라는
##글라트
치료비
사쿠라바
ISS
이카루스
사에코
감리교
##키드나
강건
단박
담요
모가
바리스
백산
수임
에키드나
작약
츠유
호들
호분
##디브
크리스트
저격병
Const
주름잡
통근열차
acc
##노세키
프로텍터
YF
}}
강모
나스티
도그마
리유
선견
윤재
카톨릭
테이트
##니우스
아스테
아가리
이선희
서북쪽
개고기
겐타
골탄
깔아
듀이
렌탈
센세
으냐
이류
조프
##조약
##대주의
야마나카
카이엔
로그라이크
외손자
깔아뭉개
센세이션
Lou
게닛
먹구름
순풍
중정
지동
이사국
아미타불
엘렉트라
##글라트바흐
게닛츠
묀헨
업주
##PL
519
장성호
양동이
꿍꿍이
묀헨글라트바흐
매이
북제
유심
처세
카가와
풍년
##fe
##RY
연구관
','
칼리굴라
child
박성호
라구요
메구리네
알레산드로
무량
조망
처소
클리닉
드림웍스
리브레
Damage
글쓴
도신
동춘
성미
셀렌
송전
은주
청명
해악
##심부
연합함대
도쿠로
Sunny
PROJECT
쿠보타
##비행사
글쓴이
경어
벌꿀
소호
쇼타임
외적
친가
##iper
##베스트
다이앤
우주비행사
056
마츠오
방지법
lost
경호실
프레스턴
알레한드로
ag
cp
hold
반석
보비
실총
인노
희수
##프셔
##zi
##안전
유일신
##uter
타카사키
성숙기
NGT
밀양시
ELS
경내
교조
성마
수자
야무
오페
일용
초합
##iC
905
965
프라이멀
루카리오
시모노세키
출산율
김세현
귀여워하
same
몰디브
벙어리
알스
##만다
##빌리
613
762
김승태
##vely
보아주
최유정
아후
점술
창힐
팝송
패리스
현풍
##lim
##iff
##COM
##DB
##Te
995
642
##astic
Mirror
아오모리현
Pok
Saint
감내
구불
마튼
비선
산뜻
일임
적다
##장담
##반장
대전역
075
평화상
이중인격
베어링
GNU
내리막길
CZ
마관
에오
윈저
윤무
천태
패색
##커우
483
전용도로
Arr
야스쿠니
으라면
##운동장
김인식
암모니아
호언장담
기영
담뱃
머서
배부
유스티
투장
##미치
##결혼
##통치
마침표
벤치마크
영등포역
서동욱
우등생
유레카
한카리아스
반유대주의
꼬투리
수형
승무
시료
태만
펄기아
획일
##문왕
##댄스
##item
608
745
냉각수
아르메니아인
충렬왕
개론
아앙
언월
읍성
졸이
체흐
만화경
절대자
스티치
리브스
창의력
OMR
XS
구덕
궁핍
묵념
범벅
샘물
예성
트리케라톱스
Chang
Smith
하동군
중서부
\'
가택
똑딱
면박
박순
반팔
백일
종인
호브
##탐탐
사망률
대회전
##iles
스웨덴어
호시탐탐
서슴없이
옥토퍼스
한일전
Rade
되갚
씻기
##진진
대학가
##stand
공항버스
1839
김원봉
헤인즈
갑론을
두문
문책
최일
켄파치
바이올리
프레지
소년원
플레디스
NEWS
Justice
패미통
선더랜드
성악가
FULL
갑론을박
바이올리니스트
건배
단아
둔전
영풍
요와
체니
형기
훈수
##UAL
레이센
568
Deemo
Guy
피에스타
애시드
흥덕구
마흔
방직
약골
옥중
타력
##지시
##선생
마리크
오른편
데스몬드
573
ㅓ야지
876
##IVAL
주워먹
개싸움
궁니르
금포
나유
디텍
막막
맘모스
분립
심폐
영흥
중리
풀돌
머리장식
바라기
048
예산군
기종점
제니트
오른손잡이
월경지
몸부림치
고후
빼빼
야시로
입출
점찍
커미
크렘
##자살
##번뇌
보급선
무덤덤
다카시
베이커리
##레르모
혹여나
으름장
Fat
네네
몬스
무감
부옇
연남
와룡
차급
초경
카브
피온
##프링
알리시아
야구공
기울기
##action
##마리노
후후후
와시즈
장항선
문방구
Rest
겸업
만전
민스크
박남
북조
산마리노
칩스
724
파랑새
everything
Jay
KORE
YOSH
눈깔
면밀
비밥
서용
식견
저금
전연
호찌
어리버리
사명감
Coast
peace
Kong
라팔
손동
유빈
프로방스
바이블
##emies
심장병
Times
몬태나
Fal
귀부인
용남
착발
친오빠
##키나
##벌식
장난꾸러기
마츠다이라
1165
중력장
Blues
UNI
넌지시
레스타
서이
윤원
정환
차려
##nal
##사정
##우르
타이핑
##itas
전기차
분석가
PDA
Sugar
김연우
김장훈
면면
불닭
비협
염산
월레스
치경
칭다오
퀘이드
중국집
아르고스
652
493
카즈히코
토모아키
이자크
김문호
양부모
윤서인
맨슨
싱클레어
졸렬
##acter
아시모프
피오레
서남쪽
FV
개동
고미
여종
자웅
파브레
화고
##트릭스
##추부사
브라스
047
오토나시
안드레스
이영한
김동욱
Glory
컨버터블
최충헌
이스케이프
특파원
Os
Pix
VK
야신
에포
헤이지
현청
##는점
##OOD
##긴스
아르센
상하좌우
733
분수대
테크놀러지
스머프
Dol
eng
굳세
단성
맥시마
부촌
서령
스터리
영점
월면
장예
재적
조신
캐비
콧물
##수룩
##할머니
##암사
##느질
##팬지
이상용
행정병
4200
672
아가미
진보신
Energy
조제프
일회성
years
마령
만개
솔지
송산
천세
프테라
##qw
##나루
##만두
누리꾼
686
쿠로키
테츠로
##ched
츠치야
Legends
재가동
명료
보코
자용
페리아
##브러
##빼기
지명자
626
김주혁
후루타
정몽준
모랄레스
늘어서
시큰둥
바코드
상형
서벌
엘마
이럼
저곳
집병
헌종
##자전
##론드
오리건
955
관측선
유람선
로테르담
웰컴
장물
쥬시
한태
##암면
마법부
머리핀
돌격포
927
Adam
DIFF
전자기파
Perform
Fu
Tro
Tact
yes
격언
덥스
도프
섭렵
재시
조업
트롯
폭심
호석
##PC
##라이야
##asc
수십억
동북쪽
하타케
파파라치
장영실
외톨이
무천
민현
반수
안현
차주
침팬지
필자
향방
##사회
##보아
Press
엄지손가락
공예품
장윤철
종주국
쓰촨성
Lond
burn
ke
뱅뱅
상훈
와이스
운룡
지라이야
치하루
홍영
화양
##체육
##교환
##디스트
귀족원
레오파르트
합격률
김한수
LIGHT
개런드
광무
구피
메어
상과
에센스
투모
호색
##메인
##런치
##꾸라지
##omy
611
1164
동인도
메트로폴리
소노코
최성훈
##그래프
쿠르드족
카펜터
메트로폴리탄
Test
Term
네르
도치
출금
캡스
##목마
문제집
나가오카
543
잠수정
프레스티지
오치아이
Dun
att
간척
스판
옥수
타네
흥정
##둥글
스피디
회전목마
CCG
모모타로
히메지
기름지
##브레히트
TOKYO
HN
mine
레옹
바캉
박중
뼈다귀
입선
퀴지
헤밍
##GIN
11000
818
1161
유력자
1855
HELL
유영진
바캉스
Mountain
니클
무코
사재기
속세
에곤
저온
절교
##pin
##지스터
##ICT
청년층
change
카자크
지장보살
Martin
물줄기
방북
송민호
쏘우
이퀄
종성
케익
헤이케
포위전
모터사이클
나르샤
반감기
해인사
CAR
^{
더킹
러링
설도
티끌
훌라
EXC
시나몬
619
695
카야노
야마노테
Cosm
소구경
푸대접
차려입
Tab
kakao
미려
발만
압제
엄상현
치도리
팔괘
지하도
044
##STA
시마무라
트랜지스터
Flight
고생물학
고화질
found
ge
랭커
명일
아악
중과
코유키
파브
하민
##경사
골드버그
완료시
1174
ANN
IPTV
어처구니없
나가사키현
반공주의
맹렬히
토파즈
너도나도
변희
신광
천운
컴포
틸러
##소개
##스트리트
##ffic
##ustom
ICA
흥미진진
1173
Mario
ANOTHER
로드리고
Pony
Rise
sound
금마
나프
맞아들이
송명
영안
우쿄
쥐속
##칠성
블루베리
Hunter
gener
갬빗
게양
군들
법리
벡스
오천
툴툴
혈흔
레드스톤
김성태
남아돌
다구요
Concert
cos
노름
비봉
비거리
생매장
웨더
카렐
특진
조선공산당
##room
리히트
Cyber
정주현
츠키노
{\
간곡
금시
변별
샤리아
영작
특설
##time
##주원
파열음
김문수
김춘추
Les
Tun
거늘
극구
남창
매실
양고기
연륜
오츠
제적
필즈
##트리아
##부들
세르세
니키타
VIII
메나
물레
백은
셀타
쌍성
임윤
집어들
##AI
##면적
회전력
베르가
발렌슈타인
동해시
URL
부전승
land
간대
서평
영명
##울림
사이공
레이테
수행자
##osp
577
드롭킥
이와시타
간호학
김주성
GIRL
갈릴레이
꼬꼬마
비협조
"&
Sonic
갑신
개학
원세
전재
통짜
##leas
인과율
Tiger
ter
급료
먹칠
뷰트
쌍대
여직
이디
텅스텐
##닷컴
##unity
752
무한궤도
와타리
주체사상
지표면
부들부들
듀란트
랜섬
생장
줄타기
천추
츠보
쿄야
타구치
투광
해롤드
혹하
수용자
이정표
세일럼
Mission
도노반
SONG
난다
려야
베스타
운남
워스트
제격
중경
타티
할렐루야
##ias
##상자
##바라지
아마기
621
장수로
그래픽스
어이없이
와카바야시
둥글둥글
애꾸눈
검인
구술
벼룩
보모
뻣뻣
섣부르
연회장
유바리
은성
좌전
차곡
카티
킹왕
타토
타살
특장
##푸틴
##차별
##폴리오
##팔방
소프트볼
메디슨
신상문
~~~
전소민
노림수
킹왕짱
귀차
그로우
다일
변주곡
불쑥
숭례문
어물
유광
인외
아이어
우리말
보호구
668
후지무라
트레이싱
오오츠키
공로상
아세트
모병제
무령왕
Radeon
LMS
관개
또라이
매슈
선영
슈토
위풍
장춘
플렉
협연
호킨스
##고로드
628
진실로
라스푸틴
포트폴리오
네오플
바스코
박준형
청도군
귓속말
노팅엄
Haw
김의
데스트
로레인
센리
준페이
최호
해원
선발대
Hearts
기네스북
리들리
민규
백부
비굴
오뚜기
진찰
통가
##니크
718
노조무
Awards
Der
견적
내열
망량
매해
반구
붙박이
비좁
신애
썩히
어엿
옥탑
요상하
우츠
재평가
진창
코야스
팔레르모
패싸움
황사
느낌표
726
1167
아쿠아리
마미코
수녀원
##include
알프레도
##ONEY
모도
사재
요주
잔학
잔영
측실
타르트
푸짐
##루기
바르톨
평화통일
Universe
기리보이
Tomorrow
Castle
아쿠아리움
det
경운
나호
베텔
베란다
사온
악물
양사
유소
찬동
철문
추성
테카
##Lime
##NY
##새우
062
정비사
안내문
1853
스타트업
사방팔방
Solo
적잖이
쏘아붙이
수초
우당
윤진
이본
조혜
페럴
홍승
##roll
아이누
##rae
795
onlyinclude
오리엔트
BAR
dist
happ
간당
다모
덤덤
떳떳
방생
참기름
플랩
##orp
이동훈
바르바로
드리머
##OTO
나주환
HH
날붙이
다선
애신
쨩이
혁혁
##지근
##단위
##계동
히로카즈
Bee
금당
미끄럽
상제
서호
아그리
연경
위건
육질
진희
피닝
헝그리
##다래
##전동
SPA
파르시
타키온
FEVER
Generation
성탄절
거뜬히
두만강
Mother
절지
##라야
##저러
##복싱
##엽수
046
491
SDXC
에르제
크레스트
1172
히스테리
얼룩지
KGB
다락방
Bronze
Fel
궤간
누라리
문벌
본청
볼가
송가
슈코
위나
허프
헌재
##URA
아니야
487
건설사
통제력
사치품
사다하루
Memories
내몰리
누라리횬
eM
네우로
덩그러
모퉁이
성애
시약
임베
현제
영상미
##ache
요구르트
459
스코트
언어학자
예능인
깔끔히
1857
생식기
임베디드
라하
베푸
벤틀리
사월
셰스
양귀비
여혐
용권
탄화
행여
호병
확성기
##픽스
##델릭
선수협
##rip
##ITO
동대구역
소노다
단막극
기공사
치오
토관
일본풍
being
IWGP
XB
버기
변전
석실
엔디
장효
카마치
코세이
편모
Frank
사이키델릭
윤석열
능글맞
니가
동파
모스트
배식
부강
산후
족인
퀴리
필력
하성
##han
##wan
##망상
HDMI
교과목
CSI
피라냐
Ape
VHS
무미
죽림
천구
푸린
한지우
해박
##소송
파라드
서부극
정원사
Prom
날라오
TnLime
경국
말자
명덕
상산
웃도
자숙
처들
##=#
##ading
아카사카
Inn
547
Wars
키타하라
채프먼
might
김숙
다과
리핑
서량
양공
연거
천제
풍류
혜나
##시노
##트린
##지수
데이모스
054
스킨십
Drum
최태민
영암군
난파선
쿠사카베
Kat
dong
따분
소교
알록
알자스
영묘
이임
임선
탐라
파자마
화하
##에이지
##긍긍
##osed
이스코
713
전전긍긍
스테인리스
TDD
계원
김중
김요한
난제
석장
치약
헤즈
##위병
정상호
안전벨트
##ORT
이주해
오지랖
코이시
GLA
소염기
Phoenix
Bank
vocal
시금
알브레히트
카펫
##태영
##저나
##어른
##따나
##ICULT
헤드램프
플라멩
684
아가사
슬리피
야하기
SPEED
나스티카
LX
고와
광적
두상
랜돌프
바느질
보부
선급
실소
아하하
자나
##오케
해군사관학교
634
보라매
이노센트
이카루가
Nightmare
글래스고
격벽
나투
남태
다대
라부
북일
수룡
홍위병
흑석
##AX
##조치
##센션
1166
토미타
level
시정지
DIFFICULT
남해군
백안
염상
위직
칼리오
풋내기
합사
##파이스
마츠야마
Crit
현가장치
MOTHER
base
게나
노령
암술
지보
프릭
##rd
##DA
##키타
메이브
751
카이치
이치조
가라오케
사슴벌레
개과천선
테카맨
Find
JAM
mark
가감
간병
공체
우토
태릉
해먼드
향남
##GHT
##카노
##!"
##북동
돌파구
once
미카엘라
1171
신입생
김병현
브라이스
브리스톨
si
개안
구창
넬리
단부
비박
상왕
콘노
##sa
##성당
교수진
신세계백화점
아스타로트
문무왕
놓아두
브루크너
TLC
레위
스가와라
알데
##박자
alone
코즈에
노나라
눈엣
대런
라마스
몸살
복리
본원
비소
역하
인크
헬가
##조프
##양양
##광성
자연환경
622
Shine
696
음성군
Cover
하마사키
사일런스
##레더블
눈엣가시
인크레더블
HOME
가엾
귀부
설움
숙취
어센션
전봉
지판
칼리스
팔짱
평균치
##pse
클로징
안티고
March
페더러
채식주의자
메구로
현시점
Fur
Mode
공역
던져
맨드
시빅
울컥
유술
피로스
황현
##IB
##구슬
996
프린팅
진해수
그나저나
Ocean
갓난
괴산군
답글
삼신
양일
장송
운영비
교육법
사쿠라다
Once
세라핌
ㄹ려는
Academy
돈지랄
TOM
광견
디마
메코
붉어지
장한
촉각
##코노
##band
파이썬
치명률
814
카타리
이순철
애틀랜틱
Maybe
청담동
Lot
Ram
격멸
꾸러기
다하
다쿠
본분
왜관
운트
윤미
직교
코니시
크다
탁발
회신
##부양
##감도
블랙캣
799
반기문
부평역
신봉자
Technology
귀요미
별똥별
공분
김혁
눈멀
데쓰
수와
시랑
신덕
앞잡이
이구치
펜션
후발
##can
##꾸기
하이델
김영선
유전체
코토노
Electric
##iety
쑥대밭
우츠노미야
Sac
기현
뜨리
보신
복건
신극
평방
힐튼
063
SHIN
오펜스
웰터급
Buster
Rod
개벽
기븐
누라
딸랑
불나
상복
손맛
조산
타츠키
희철
##fire
##200
##삼성
미사오
유우타
아시나
신용우
신선도
경사지
간략히
뒤바꾸
키보디스트
Advanced
황의조
Doll
수안
이응
지룡
키튼
펑키
행이
##ZER
##네소스
일반직
윤영서
신재영
Person
대실
청력
퍼퓸
##elle
648
##ICA
1818
하모니카
Aven
UoL
루어
반인
병정
사심
살충제
석과
자회
창궁
포클랜드
##미인
프리크
셀룰러
키케로
future
게라
논점
팍스
##ford
##aling
##isa
##illed
우회로
타키자와
조범현
연거푸
Din
리갈
생중
원금
째려보
카슨
##야누스
##je
059
코스닥
끌어모으
comple
안내서
김민석
박영효
BX
나초
노히
노나카
발착
뻐꾸기
설기
수뢰
야욕
영회
호인
##효준
##티치
##폴라
096
아카디아
865
띄우기
에르빈
Common
광배
대내
도국
무종
비다
아명
윤여
자축
잡화
탕진
##며시
트라야누스
헤이그
플로렌스
Trap
쓸쓸히
괘씸
구색
배다르
부루
인멸
지제
환심
##후보
##불허
상대역
생산지
##rik
##angers
오오쿠
도심지
##reng
가야금
타타라
아탈란테
국회의사당
Lat
XII
kcal
구렁
동분
말엽
명불허
무연
북산
촉촉
토렌트
프타
호사
##응보
18000
중앙군
646
548
김태군
1163
1851
모욕죄
슈타이너
올림피아드
권선구
Midnight
아칸소
가천
거문고
로잘
모히
양발
잡식
정광
직시
질산
천고
카심
팔로우
페의
험준
가끔가다
이슬이
719
HDR
도박장
인과응보
소우타
Mali
호성적
명불허전
모히칸
NAD
Wil
tem
구세대
버려두
석면
씌이
오투
장연
토피
##mi
##카쿠
##포도
##내면
스타덤
얼마간
하루코
##ERATION
661
Alice
원자재
샌드맨
취재진
스패로우
휴머노이드
radius
단차
동교동
분업
빈손
상보
읍사무소
제홍
기자단
합성물
Switch
##swer
VE
emp
마임
부머
불충
암반
이리아
충직
타나베
토야
프랙
##홍색
##허가
크리퍼
598
961
아일린
동장
무혐
유단
##즈브러
##ocol
집어먹
미들즈브러
알비노
고창군
대종상
크립톤
London
강역
기가스
레네
로번
본서
비품
서위
알버스
창기병
최성기
##무역
바이런
에스메
브리검
믿음직
하타노
우로부치
Family
각외
다사
문공
발치
부쩍
실레
참되
##그너
##조류
##래핑
메이어
이동형
오버래핑
제로원
배포판
1789
버팀목
Ten
나디
듬직
어거
윤봉
재패
정여
티크
하이테크
난투극
프레데릭
##augh
군자금
##anguage
멍멍이
cs
xi
갯벌
러블
루세
수통
용봉
원봉
저압
케바
플란트
위치스
에이코
김동률
Weapon
Peter
도관
뭉뚱
성결
수칙
술가
스킴
정아
쫄깃
카울
피소
##수전
레오폴드
사이드암
이집트인
메르헨
영양제
오다큐
히사코
##ucer
##ologue
고해성사
DQ
Lam
done
거츠
뇌리
도코로
아네트
안데스
역력
오싹
일고
쟈크
쥐꼬리
토포
피언
헛점
타카코
549
헤르타
Division
일리노이주
battle
RU
눈높이
벚나무
서편
일석
지태
흡족
559
회전수
683
1846
아스트리드
오즈마
페니키아
올려다보
Business
롬바르디아
sin
문짝
사론
시논
시라노
에워
체테
켈빈
쿨리
힐베르트
##호르
##비시
타쿠로
김진수
Carl
저널리즘
유세윤
party
에워싸
Sar
Tree
격동
괴사
뉴로
도브
래도
오우치
##asion
더불어
##apons
MAMA
양성애자
에리얼
방화벽
맥없이
선셋
슈발리에
자와
정토
중건
찰떡
카샤
캐노
파프리카
##레시아
더러워지
PPL
드레스덴
카네다
Lightning
박용욱
아타루
자습실
Grav
Wolves
Jae
Nam
사암
선군
윤두
젖히
청교도
캔터
케첩
##mir
902
569
985
744
영장류
엄정화
겐타로
군조
나달
마메
반등
서천군
율자
저당
제전
지게
타칸
해리어
##볶음
대전기
##illion
741
크루이프
정민철
INFIN
허도환
BMP
Past
water
단양군
린나
무오
백국
병리
뻐끔
우거
지신
체재
카쉬
회골
후베이
##vate
##ban
##현제
스피카
위키드
40000
MSG
Beats
니코스
어뢰정
불모지
Gang
Jes
오테
차대
타지마
풀어지
##에스타
##돌림
##플라
오리코
병원체
크로이츠
고용인
르노삼성
말라리아
초계기
프로비던스
파브레가스
fine
개다래
도레
마투
성휘
아커
염분
오용
쿠몬
ㅂ니다만
2900
따라하
806
농구대
서울특별시장
Playmaker
Imper
Lion
NES
남두
더샵
라선
번가
벌떡
비신
생머리
악천후
재블린
처마
헤럴드
##래드
1550
##리스모
전대웅
프라이데이
하야사카
콜로라도
폴리머
바티스트
아르카디아
cap
무뢰
절찬
천보
폐가
피켓
혼슈
##tz
##가로
##보쿠
기타큐슈
##anda
이자와
1856
원시인
로보캅
이니에스타
Equ
Nin
가림
나바스
변비
생판
수플
시다
악센트
용담
진면
907
전차병
웨이터
846
1814
DMR
브란도
각역
각대
괄목
바자
선처
외제
유녀
챙겨
##야금
아이고
643
미나스
아리요시
Scott
가마솥
과격파
player
야금야금
엔하위키
Pap
non
난류
렌터
분동
불지옥
오지마
이페이
최첨
쿼리
##med
파이낸
참가국
##ENTS
##자동차
김세정
Silent
김소혜
sleepingcat
렌터카
최첨단
굴드
레키
먹보
반트
유계
의족
채현
철쇄
툴루즈
##르담
##프도
프로젝
##itude
사업비
노트르담
편집기
김종인
이수현
Marc
에니그마
수양대군
옥타비아누스
어셈블리
CRA
개똥
물살
법력
변색
비발디
즈리
짐머
흥망
##카제
소환권
##ades
654
Shock
##OSE
트레이딩
무용수
강경학
DMZ
소우지
황태자비
곤살레스
카스카베
JF
Od
개신
내야
대급
마따나
면책
비통
상판
성창
차서
예정일
소유물
##rix
8500
문학가
그리스도인
손목시계
면도기
아탈란타
기무
문창
상평
상책
손정
입도
자단
향료
##put
스탠더
1169
미티어
##선거구
계엄군
화이팅
GW
VERS
WT
구교사
근연
슐츠
예요
왜색
유준
윤시
포치
헛간
휠베이스
##her
##]]
관광업
창조물
알파카
Gradient
알바트
반짝거리
##gress
Knqw
Honor
Knqweter
med
pd
견자
돌덩이
몽테
봉구
삼프도
수온
쉐리
우보
칼국수
팜플
플러
##라고
##토바
프로테
라이자
탑승객
정수기
러닝백
조교수
MANIA
총영사관
삼프도리아
CAS
계림
괴산
눈초리
도나우
따돌림
레아나
이실
작풍
장색
정나라
집성
충치
츠루미
켄드릭
험비
##RNA
##청정
1810
에너지탄
유령선
트라이던트
육상자위대
포크볼
열기구
광신자
blood
Vs
hal
노환
백현
소성
에에
와이트
장우
집들이
호봉
집중포화
587
절단기
테레지아
통영시
SAC
TOT
규장각
라비아
마함
망막
명당
샐비지
악착
청백
팅커
황상
모음곡
끄집어내
결벽
쳐먹
페레이라
061
스파다
스파이어
요시히코
묘지기
1849
공교육
##EEE
인제군
봉화군
감리회
창녕군
어슬
인센
조현우
철골
촐라
탄띠
후사르
##날락
전문대
베이퍼
미스즈
722
##ians
조동찬
보헤미안
베레모
들락날락
호들갑
BTS
굼뜨
두쿠
드란
크란
태현
피델
회안
후불
##퀴즈
하나무라
공사관
FIRE
올드팬
스기야마
DISC
접두어
녹말
버논
벤슨
옥천군
음가
킹크
##십리역
##컨데
아키텐
미드나잇
614
##izer
리카코
토착민
세속주의
카루마
사간원
동업자
무극
볼터
술술
에데
중미
초가
팔렘
##야르
##쿠치
아르세우스
지하드
557
케이이치로
아카마츠
539
농구장
김준현
Commander
뭉개지
팔렘방
Pot
Rare
RUM
남제
녹지
슈만
장건
젠트
추밀
팔씨름
펑위
화비
orange
924
결혼식장
RCA
고세이저
Hop
king
능청
동격
손도끼
신강
조관
창자
퇴소
계획서
브라만
629
FIP
김정수
스키피오
구석기
토벌대
김현욱
쿠스오
수소문
솔라리스
백혈구
HV
hope
교국
굼바
라스크
못가
선계
지좌동
초견
플러드
##bb
##전도
자기소개
##igo
철도청
기념사업
##andom
579
암흑상
김대우
무고죄
Dynamix
German
권정민
살바토레
라베
북반구
삼정
설현
영계
자무
함안군
##승차
##전용차
버스전용차
LGBT
stage
오오바
KOREA
버스전용차로
Vision
wRC
고딩
삼공사
존스턴
지혈
##폰네소스
사회부
공중부양
후쿠치
Atl
KDA
코바치
걸레짝
펠로폰네소스
JG
Lum
son
sim
ta
귀공
덜컥
리수
무크
방부
성석
임피
##세코
노부오
모모이
도루자
성수기
##무스메
피어슨
모닝구무스메
맹비
미간
입궁
차사
충의
치하라
##겐슈타인
자신만만
마무리짓
비트겐슈타인
오스트로
##izz
Program
대동강
WCDMA
매몰차
BanG
Hands
끄떡
못되
미천
숙희
야누스
요드
인주
작은
장약
호서
회춘
##set
##하운드
##출혈
진출권
903
067
대원수
윤리학
유색인
프레젠테이션
Hope
강고
겔리
부안군
불펍
비게
양형
용의
탯의
풀라
한명
홍역
홍채
분류학
예술품
572
##라리온
해양경찰
우울하
아리아드
KKK
승합차
프로젝터
고삐
김양
남지
다쓰
당권
주근
채워지
카프리
토후
우리은행
076
도로로
STEP
보물섬
921
드레싱
PRIDE
맞대응
시에라리온
성형외과
디오니소스
메달리
목마르
미고
뱃살
비루
생동
태인
휘트
##자랑
##두부
##행동
754
상업시설
금속제
관측자
이수영
신동원
신시가지
무성의
루퍼트
배영섭
부총장
신묘
양양군
열창
용구
쿠루스
특임
##관광
##콥스키
레이니
항공우주
##aya
야마나시
수행평가
용병대
Charl
SouL
ok
난로
도룡
땅값
무휼
무하마드
불똥
상학
야행성
얄밉
작법
초한
##차곡
##론자
로스트사가
Check
against
지네딘
척후병
차곡차곡
구혼
단대
빠빠
종잇
차폐
##ires
785
단정지
ㄴ걸
군민
매핑
비마니
슌지
에런
코가
펄서
환석
##수트
1450
##agle
베르톨
김성대
Sund
##ption
ㄴ단다
서커스단
사타케
가아라
아멘
재인
치만
킬로그램
##UI
##사슴
플래티나
토리야마
낙인찍히
야곱
예과
의롭
임업
중턱
지국
태위
혈맹
##켄트
경고문
##메이슨
크레용팝
Wide
기산
수부
우중
쫒아가
최기
키다
화각
베이브
이자나기
Hex
유배지
Place
브리즈번
조봉암
펑위샹
Egg
낙향
녹두
반조
본처
성야
요식
짓누르
찜찜
황남
##공히
##풍기
##aris
국제기구
582
간부급
김승수
오바메
식용유
노른자
mo
강명
법학자
우량
월야
인빈
자빠지
장땡
홍종
히마리
##사이트
##효소
##인상
##데오
상위권
이사무
라디오스타
578
트위스트
김윤아
보보보
자스민
kors
극의
막하
미보
비언
비셔스
스켓
에가
율령
정창
족히
토역
평년
##팔리
##itary
##ication
발생기
대행자
1795
Without
영통구
CK
Must
귀퉁이
근엄
동류
리들
수근
와플
죄질
카불
살인귀
마사카
광고판
역명판
스콜라
Triple
Help
#====
.'
Pent
Vel
kiss
대뇌
류사
모창
볼모
알피
에리트
완급
윤수
지론
##세이드
##볼그
##불퉁
##퉁불퉁
개발비
##chi
644
584
클로제
카타기리
브로켄
Melody
맹비난
가임
메토
메텔
울퉁불퉁
장공
지드래곤
스트렐
청년단
대치동
프론탈
김승준
Franc
Slow
에헤헤
##경비대
맹점
살갑
울창
청평
키쇼
타킨
##코시
##nant
##ply
##소매
##헤더
##농사
이상향
아메리
김정남
##epp
김진표
명실공히
정찬헌
루체른
Dok
군바리
떠내
방편
배부르
불붙
슬금
식비
알베
어순
염수
자필
##Ch
##가역
기사회
문화제
2026
##ERA
3400
561
만족감
823
천하통일
광선검
카네기
생태계
반역죄
leg
다그온
포츠머스
CERO
Rush
VGA
날라리
만경
묵향
밀교
벌기
부침
송대
순무
잠드
코조
히무라
시스티나
##aku
##RAINS
574
후지마루
길다랗
문상
발식
영접
잔머리
증평
##서주
Store
요리법
632
가요대전
스로틀
이력서
미타마
배설물
윤길현
곤륜
굉음
래이
번치
비눗
속절
송탄
신시아
울러
천박
촌극
코다이
타결
하현
황영
##cript
##크롬
##inem
##aria
라이츠
##stone
우라노스
유흥업소
HIP
Matt
각부
각급
간석
남유럽
라샤
보탄
슈스케
신품
십계
쪽수
행량
##무적
조직폭력
813
812
928
플라이스
스와프
HGUC
애슬론
조직폭력배
Might
Raw
언약
왈도
우다
자양
풀밭
##gas
##mann
플레이메이커
MPEG
오오하라
출구조사
김지훈
##uka
라일락
홍시영
bpick
Aqu
도사리
바칼
발차
순국
아그라
영물
옐친
오귀
토모리
특목
힐리스
##클레인
##감사
다이시
스피치
더블헤더
유키히로
Through
829
1854
하리마
apick
박형석
급등
눈사태
로베
아두
절치
징기스
푸리
혈중
상당구
##alis
로마노프
497
Ancient
1168
호위병
어스름
위안거리
수작업
구자철
additem
Happ
가론
결빙
고쇼
창신
퀄리
학구
##omi
##asa
돌파력
디아츠
해안경비대
예산안
경작지
괴테
시클
엘베
헬리오
기준점
해군기지
트위스
아크릴
김진욱
키미오
탈영병
일순간
하이파이브
map
거수
겉옷
동덕
악조건
와리
제회
추도
카버
홀스
##개명
##펠트
여성부
##una
USUM
Tears
카츠유키
군수품
아아아
우타우
WAVE
COLLECTION
hero
드넓
레우
마오리
매초
미싱
실버스
타산
투리
##타가와
##징계
한국학
세이나
가정사
오토마타
스티비
태평천국
아쿠타가와
미네기시
이카로스
스케이프
오쿠보
마테리
아키타현
의성어
Squad
곤살로
매버릭
페데리코
Qi
무근
미동
벨파
성주군
양아들
원외
충선
하염
흉하
##흐트
1020
이루마
##irt
638
분산도
GOTY
===#
#===
와사비
벨파스트
Ay
Sd
Sla
TKO
가십
귀추
료의
식한
오므
판가
##노헤
##jin
##하탄
##빌레
요구치
김진성
베른하르트
옥스포드
불순물
김좌진
납골
워윅
이심
이디스
잠꼬
창부
혼담
이동진
066
Thin
631
코르도바
1852
남경필
알타이르
잠꼬대
ce
ㄴ디
구관
니더
단전
담양군
성금
업화
에시
태성
파키
##노메
##티우스
##레도
##달로스
세트리스트
소총탄
Robert
진보당
천하무적
이와키
고질병
크리스티앙
Duo
미에현
퀴지터
인센티브
거취
교익
성병
성빈
철봉
철가면
티렉스
##AST
##erv
정치부
하이디
어찌하
윈도우즈
마쓰이
Nights
디스토션
VRAINS
곡성군
르니
밤샘
빌스
체불
콘래드
하메
핸슨
변경백
엘리먼트
756
미리미리
오오카미
822
836
이누이
추미애
Jos
word
뒷바라지
모야
베버
어려워하
연공
옷깃
완곡
흥업
##터널
##오제
##ington
베니토
##clips
리저드
최용수
고흥군
입헌군주제
창씨개명
cool
광채
김가을
디퍼
싱하
지열
천군
총관
페론
페테르
##Id
##그머니
##입국
##백서
753
오버랩
5100
641
776
이글루스
카시우스
차선책
##engers
에즈라
KMS
걷히
구봉
당인
월석
혼례
코코네
Republic
MN
관선
보아하
잎사
정욱
조림
914
농담삼
김재박
DAYS
정읍시
Journey
보아하니
잎사귀
DAC
내진
멜빈
아렌
안량
찻잔
##ls
##DE
##차오
##통제
아니꼽
다이달로스
아르케
지난주
데자뷰
맥마흔
구창모
Mic
pain
광릉
다람
막다르
맛깔
선무
성구
장평
최무
켄스케
투리스모
폐비
##met
##기미야
##무드
States
성인식
윌리안
결론지
순환고
Form
발레리나
메모장
##시장역
MZ
가책
꽁치
무라이
민권
붙들리
비합
상우
석환
송진
요상
조속
쿠기미야
##펙스
##엔진
바이든
클라리스
MAXIM
Before
페인팅
##첼로티
디미트리
AES
공복
덧없
돤치
안첼로티
위령
입감
폐광
화서
##IES
##니오
##불암
##esis
중앙아프리카
아르키
남성혐오
스피어스
592
이마루
tele
헬싱키
문하생
대소동
돤치루이
happy
관외
남불
벨카
시파
신물
아쳐
우모
접사
##소울
오카무라
블로커
1798
라데온
Warrior
Gi
끼어드
동축
지타
카브레
##저민
##눈썹
##iga
교통안전
대응책
독설가
기저귀
전유물
미니스커트
dem
남중국해
딩고
메어리
상피
상나라
울진군
의체
홍제
##정책
##무대
##수도
##더릭
##처제
##rif
912
단장포
는다면서
슬라이스
Burning
Shining
이휘재
아르키메데스
Won
급우
벤저민
빌빌
셰르
숨쉬
에일
유덕
초전자
학성
해초
##종기
교환소
70000
크라우스
##ource
1847
거리낌없이
Pz
cla
tar
곽사
나도
모타
문지
종적
페디
##타민
탈출구
타이틀전
##ICAL
캐시비
명사수
Crim
유유코
역수입
CX
Self
날기
뒷조사
러서
신탄
싱커
염전
재구
특등
펄펄
케이오
에드먼
화물칸
포장지
Works
ㅂ쇼
게이드
견문
덕흥
쉬크
장양
조밀
쥐약
즈베즈
지이
지토
황신
훈제
##예보
세이이치
558
해방전선
##berry
갈라놓
스트라스부르
디바이
몰표
밴더
상추
전월
진종
케시
헤프
##켄지
##icy
페이튼
사기업
조종자
Spr
코요테
Fighter
Zh
군영
꿰매
끌기
앞바퀴
조루
총생
테즈카
통도사
폴린
##뮤지스
운전대
833
승자승
나인뮤지스
이복형
대덕구
Temp
아카바네
김필
람세스
박초롱
비컨
서니
어문
탄발
##아차
##라이저
058
그라함
우치야마
슈테른
분식집
friends
tonight
멸족
방광
봉변
부귀
비구니
오소리
월리스
주태
크린
그라시아
이재영
김진태
젤리빈
이태준
##테이프
소인배
가전제품
산청군
평상복
Mann
데루
두둑
만달
보현
본위
비산
차가
코알라
흠잡
##나이트
스테드
기관장
요시토
방해물
이치코
마츠노
리버설
ang
피카소
넉넉히
Central
KAIST
영걸전
도드라지
아물
오발
침전
##오가
##롤라
ㄴ다니까
병원장
이영표
전격전
생태학
채찍질
Knock
왈라키아
에스메랄
Mu
그중
뒷걸음
물통
비와
수돗
오점
중창
필패
호베르투
##bar
##시어
##신보
##무야
##한시
##델리
6600
##ENS
ISIL
부재중
박진만
유야무야
Sony
꼴통
나당
신익
엘빈
외조부
자강
재하
퍼렇
포서
##부동
##천만
##절도사
스타게이트
ins
심판자
시마네
하사관
iPad
가고시마현
대분
신제
전모
전골
점박이
호킹
##vet
##리아키
부여잡
케이힐
##peror
나루세
##티아누스
Died
성범죄자
Greatest
동분서주
민항
비제
송인
운정
육근
진두
코나
콧구멍
형독
##cast
##스름
불가결
대기근
이와이
기마병
정중히
Abs
곽회
샹크스
신숙
여로
종잡
지한
##개구리
범죄인
에이린
불신임
경인고속도로
고온저
꺼림칙
EOS
WAY
wonder
고퀄
기철
러지
발굽
성층
윤대
피질
##주정
##랑크
오버홀
장난삼
자살행위
816
789
모모타
브래지어
백지영
빙하기
조병옥
전상욱
크라우저
일변도
즈베즈다
관등
관영
단강
보즈
시운전
안평
영격
##마고
##엔젤레스
이상형
지도층
로스엔젤레스
혼란기
집행부
오이겐
##ancer
호스텔
김형석
Strong
사오정
Standard
개울
수에즈
스자키
진천군
포심
한대
##점정
##inary
중앙아메리카
엔터테이너
테이저
카트먼
엔젤스
아타고
화룡점정
혼잡도
Care
김회
문영
완간
투심
틸라
데이나
593
정지훈
index
Sem
관방
브락
쇼마
아둔
온스
칠색
716
678
838
이지현
파수병
에치젠
조일장
Gone
Nice
구직
국무원
나니아
산더미
서도
석주
성일
실론
에잇
장현우
쨩의
치나미
켄시
포보스
##cent
##달록
드라이어
근무복
조성환
INS
복사본
정은창
성조기
헬레네
알록달록
NF
PU
객사
급류
락과
모즈
손민
에머
킹스턴
현물
##리자
스크리
단일팀
688
Ent
치요다
키르케
타슈켄트
메흐메트
YMCA
로이터
맞상대
바토
속눈썹
시암
신미
유요
정배
진땀
##살라
##턴트
##깃거리
눈물겹
663
FIBA
821
시마바라
김태영
##USE
##yeong
장렬히
최루탄
개차
번방
비텐
얼빠지
엔리코
오룡
울레
유제품
지애
통설
파슨
##야행
생산물
enemies
로메오
Instit
비행대대
이청용
보은군
컬투쇼
PICK
eSports
디파
말로
우분투
임오
조노
쳐부수
트레스
히에
##따리
##처녀
나가시마
프리먼
홍대입구역
보노보노
하염없이
Rag
Sie
국책
눈가
리회
맞불
부일
서간
옹정제
우란
융기
채석
초지
칫솔
트러스
하승
허슬
환초
##스킹
##태스킹
##무비
##슬롯
##흐르
908
057
가슴살
589
멀티태스킹
라스칼
864
시모다
FLY
RRR
gotta
unt
강토
금장
노나
눈썰
맥퀸
장주
쟁패
줄넘기
토베
해성
##피나
방어율
올라운드
##osition
인형사
594
타락천사
ni
경애
성묘
우락부
풀로
##SI
##파티
##거북
##픽션
졸업장
에스더
카르네
장식물
자금력
bgm
버츄얼
대자보
Corporation
우락부락
노발
미기
별일
병진
분견
시거
액화
영선
오츠키
원부
젠슨
줄다리
철철
투투
##yong
##아드
##그로스
##테롤
추가점
중계방송
타마시
##avor
감지기
데미우르
##거래소
Invit
Killer
면죄부
eMMC
데미우르고스
다당
도슨
란슬롯
영왕
인임
키자키
타드
탈로
페소
##Me
선수촌
기준치
슈퍼컴퓨터
야스코
시마다
감자튀김
육식성
수레바퀴
컨설턴트
인덕원
호치민
ng
라케
방책
보따리
붕당
세바스티안
자벨
최불암
캠코더
파월
##sters
하이페리온
##ellite
여지껏
##izon
실무자
넘쳐흐르
여중생
번뜩이
Clo
gg
돌로
멀찍
새크라
석식
석대
아열
임채
##urch
중반기
##rier
헤이즐
박근태
요한나
정진영
Visual
갑상선
코르넬리우스
경각심
새크라멘토
Cult
Yam
미하라
북적
안간
원비
전관
##lit
##플리
초등학교
눈물나
이시가미
놀이공원
Pure
cv
full
노반
마티스
요들
인버터
##연수
##인형
##기간
김지용
테오도르
수목원
Nation
다츠
뒷공
드높
바램
배임
복실
수차
신당
엇나가
콘라드
크룩스
황새
휠러
##PO
아이큐
1680
1790
9900
START
지옥도
SSG
터치스크린
NEVER
거창군
Broken
조로아스터교
Vamp
ca
걸핏
노천
바쇼
비토리오
술주정
전순
에스티
Spider
플레밍
vi
농공
심소
정두
지트
통닭
##res
##간당
##버너
보호관
대비책
597
627
##eeper
아트워크
리얼미터
Surprise
Flying
leave
보디빌더
##천자문
간당간당
Mike
관인
구곡
나나카
더가
도리아
등가
삼연
신출
신채
유려
정처
제온
퍼먹
포백
##코끼리
##태호
##슬금
##남북
916
가시나무
girls
##rength
nn
바글
베이지
예대
의화
재목
전회
종기
효우
##애애
##ells
동서남북
Mii
정재훈
해남군
build
모더니즘
온타리오주
뭉뚱그리
에스메랄다
RIS
ef
lim
tu
누각
리큐
법왕
원진
원념
중핵
편협
현리
##och
##망이
수도승
078
로드니
773
애리조나
Total
슬금슬금
공융
대어
롤프
루실
쫄쫄
##코모
##슬레이
##ansp
마르텔
866
832
절망감
진도군
자민련
오송역
인즉슨
근근히
MILLION
CRE
Est
갈고
네피
메레
목전
벤스
싫증
오야마
책무
피피
헝거
##조끼
##유정
인물상
내리꽂
타임로드
아리타
##노스아이
필리포스
오시노
부에노스아이
따끈따
부에노스아이레스
REC
가불
강장
기룡
야트
연병
중압
콰이어
자면서
탈출기
771
말레이어
이순재
Kam
Whe
crazy
꼬임
두억
무결
미명
염의
##rica
##more
##비등
##차일드
지역민
incl
662
639
김성식
917
Truth
김민정
세자빈
장희빈
##clipse
RV
Witch
Zen
가터
관악기
리요
보일
예천군
##하우
중심축
카이다
육군훈련
오오니시
히메노
민첩성
비등비등
육군훈련소
거소
나레이터
다뉴
담판
민방
벽력
상생
오모리
원지
##No
##디디
특정인
파티션
742
야스유키
피로감
이대휘
당진시
DAM
밀턴
보른
봅슬레이
석굴
이고
정언
종수
케나
하크
호선
##미문
##NE
##inae
다이아나
스포어
마주하
사쿠라기
DDDD
의기양양
스칸다르
beautiful
Graphics
줄다리기
Eric
human
곱창
관자
에레나
여드름
용원
저프
추자
콜벳
큰아버지
##비트
##로틴
##다닥
카르노
774
698
물리학상
Disco
하태경
비씨카드
follow
개운
단열
두기
물산
생이
시귀
알반
영대
방어벽
##ERE
inside
장기하
지붕돌
농민군
매너리즘
신봉선
board
공양왕
헤밍웨이
Cannon
FHD
ㅎㅎ
드나드
바싹
자보
제넥스
종별
##먹거리
##튀르크
1060
과학관
065
공장장
Thing
633
전대미문
그란돈
UCC
무형문화재
호빵맨
안간힘
Bt
cut
each
걀라르
난색
류타
변천사
에몬
족적
최심부
친서
포키
피우스
스페어
니시카와
예비대
coming
아이디얼
올리브유
최원태
skip
소작농
노점상
캐노피
갈팡
리하
미금
얕잡
오봉
외파
이락
징베
케트
##바이스
##테론
904
064
페르세포
기독교도
아비달
발상지
아아아아아
바르바로사
페르세포네
<-
내의
뉴먼
배서
새내기
어식
파비아
혜진
##차크
##파고스
스타이너
##ened
inv
이하라
858
STORY
권력욕
676
mean
사교계
Knights
미후네
덧씌우
레트로
서풍
의연
이차원
인전
주필
찬조
흥얼거리
##uta
바르디
표준시
NPU
849
##ADE
자작극
전교조
Finals
화승총
조이스틱
맥과이어
시금치
광맥
내보
다래
미레
승시
여순
적격
코르크
콥트
큰형
킥복싱
팔코
흠뻑
##록대부
지정학
방사기
이영하
에르메스
홍지원
Department
Cel
Dust
Kir
귀염
린터
배격
범법
생부
숙식
쪽팔리
특구
케이토
마사하루
메가폰
프렌지
이타노
1776
조원우
카슈미르
신노열
Kind
가랑
과신
귀납
두류
베젤
산죠
원환
위고
일도
흰자
##Sh
##크트
##민철
##속결
##복동
사용료
나가타
##ilog
위험천만
863
고시원
중고생
prot
극악무도
Twin
이아손
굴러오
##IKO
당첨자
신도림역
다프네
호찌민
에리트레아
Bun
aw
gone
hsm
개색
근린
선창
세렌
슬그머니
심동
위메이드
직공
처가
탁상
##가사키
##구레
##표지
##복음
국민혁명
591
##anged
야스노리
불량품
총책임자
속전속결
국민혁명군
GAR
Kakao
공청
덮히
메치
보광
세린
슈라
울상
윗면
일레
착역
태형
##ni
광고주
스탠포드
아사코
천안문
##타이거
##터스쿨
영동선
애프터스쿨
제련소
school
전립선
Ai
xp
가압
골망
눈싸움
디엔
빈볼
운서
##지로
##지상
##urity
대형차
김경언
박진감
Challenge
조무래기
완산구
특목고
따끈따끈
View
계율
남명
능률
슈나
애들
얼차
에투
여비
전왕
제플린
화시
##비오
##첸코
##유철도
라이치
시스템즈
하이킹
아르다
##oda
##uten
나이트클럽
##ORS
아우성
의료인
Broad
변변찮
일본국유철도
얼차려
HBO
pix
광우병
구즈
권성
난공
다바
단공
덕소
린데
색도
서베를린
악담
전비
캐로
##een
##타이어
지하상가
inch
사격전
스테이시
태백시
Autom
약소국
래핑
세노
소상
##house
##브룩
[...]
