[PAD]
[UNK]
[CLS]
[SEP]
[MASK]
!
"
#
$
%
'
(
)
*
+
,
-
.
/
0
1
2
3
4
5
6
7
8
9
:
;
=
?
@
A
B
C
D
E
F
G
H
I
J
K
L
M
N
O
P
Q
R
S
T
U
V
W
X
Y
Z
[
\
]
^
_
`
a
b
c
d
e
f
g
h
i
j
k
l
m
n
o
p
q
r
s
t
u
v
w
x
y
z
{
|
}
~
©
®
·
ᄀ
ᄁ
ᄂ
ᄃ
ᄄ
ᄅ
ᄆ
ᄇ
ᄈ
ᄉ
ᄊ
ᄋ
ᄌ
ᄍ
ᄎ
ᄏ
ᄐ
ᄑ
ᄒ
ᅡ
ᅢ
ᅣ
ᅤ
ᅥ
ᅦ
ᅧ
ᅨ
ᅩ
ᅪ
ᅫ
ᅬ
ᅭ
ᅮ
ᅯ
ᅰ
ᅱ
ᅲ
ᅳ
ᅴ
ᅵ
ᆨ
ᆩ
ᆪ
ᆫ
ᆬ
ᆭ
ᆮ
ᆯ
ᆰ
ᆱ
ᆲ
ᆳ
ᆴ
ᆵ
ᆶ
ᆷ
ᆸ
ᆹ
ᆺ
ᆻ
ᆼ
ᆽ
ᆾ
ᆿ
ᇀ
ᇁ
ᇂ
‼
⁉
⃣
ℹ
↔
↕
↖
↗
↘
↙
↩
↪
∼
⌚
⌛
⌨
⏩
⏪
⏬
⏰
⏳
▪
▫
▶
◀
◼
◽
◾
☀
☁
☂
☃
☄
☎
☑
☔
☕
☘
☝
☠
☢
☣
☦
☪
☮
☯
☹
☺
♀
♂
♈
♉
♋
♌
♏
♐
♑
♓
♟
♠
♣
♥
♦
♨
♾
♿
⚒
⚓
⚔
⚕
⚖
⚙
⚛
⚜
⚠
⚡
⚪
⚫
⚰
⚱
⚽
⚾
⛄
⛅
⛈
⛏
⛑
⛓
⛔
⛩
⛪
⛰
⛱
⛲
⛳
⛴
⛵
⛷
⛸
⛺
⛽
✂
✅
✈
✉
✊
✋
✌
✍
✏
✒
✔
✖
✝
✡
✨
✳
✴
❄
❇
❌
❎
❓
❔
❕
❗
❣
❤
➕
➖
➡
➰
⤴
⤵
⬅
⬆
⬇
⬛
⭐
⭕
〰
ㄱ
ㄲ
ㄳ
ㄴ
ㄵ
ㄶ
ㄷ
ㄸ
ㄹ
ㄺ
ㄻ
ㄼ
ㄽ
ㄾ
ㄿ
ㅀ
ㅁ
ㅂ
ㅃ
ㅄ
ㅅ
ㅆ
ㅇ
ㅈ
ㅉ
ㅊ
ㅋ
ㅌ
ㅍ
ㅎ
ㅏ
ㅐ
ㅑ
ㅒ
ㅓ
ㅔ
ㅕ
ㅖ
ㅗ
ㅘ
ㅙ
ㅚ
ㅛ
ㅜ
ㅝ
ㅞ
ㅟ
ㅠ
ㅡ
ㅢ
ㅣ
ㅤ
ㆀ
ㆁ
ㆍ
㈜
㉠
㉦
㉨
㉪
㉮
㉯
㉰
㉱
㉵
㉻
㉿
㊗
㊙
㎉
㎍
㎎
㎏
㎓
㎚
㎛
㎜
㎝
㎞
㎡
㎢
㎥
㎾
㎿
㏄
㏊
㖈
㛪
㛶
㝠
㬜
㳞
䃧
䎛
䕶
一
丁
七
万
丈
三
上
下
不
与
丑
专
且
丕
世
丙
业
东
丝
両
丢
两
严
並
丧
丨
个
丬
中
丰
临
丸
丹
为
主
丽
举
丿
乁
乃
久
么
义
之
乌
乎
乐
乖
乗
乘
乙
乚
乛
九
乞
也
习
乡
书
买
乱
乳
乾
亂
了
争
事
二
于
云
互
五
井
亚
些
亜
亞
亡
亢
交
亥
亦
产
亨
享
京
亭
亮
亲
人
亿
什
仁
仇
仈
今
介
从
仔
仕
他
付
仙
代
令
以
仪
们
仰
仲
件
价
任
份
仿
企
伊
伏
休
众
优
伙
会
伝
伞
伟
传
伤
伦
伯
估
伴
伸
似
伽
但
位
低
住
佐
佑
体
何
余
佛
作
你
佩
佬
佯
佳
併
使
來
例
侍
供
依
侠
価
侮
侵
侶
便
係
促
俄
俊
俑
俔
俗
保
俟
信
修
俯
俱
俳
俸
俺
倀
倂
個
倍
們
倒
候
倚
借
倣
値
倦
倫
倭
值
偃
假
偉
偏
做
停
健
側
偵
偶
偷
偽
傀
傍
傘
備
傢
催
傭
傲
傳
債
傷
傻
傾
僊
働
像
僑
僕
僚
僞
僣
僨
價
儀
億
儉
儒
儖
償
儡
優
儿
兀
允
元
兄
充
兆
先
光
克
免
兎
児
兒
兔
党
入
內
全
兩
兪
八
公
六
兰
共
关
兴
兵
其
具
典
兹
养
兼
兽
内
円
冊
再
冒
冕
写
军
农
冠
冢
冥
冬
冰
冲
决
况
冻
净
凄
准
凉
凌
减
凝
几
凡
処
凭
凯
凱
凶
凸
凹
出
击
函
凿
刀
刁
刃
分
切
刊
刎
刑
划
列
刘
则
刚
创
初
删
判
別
利
刪
别
到
制
刷
券
刺
刻
剁
剂
剃
則
削
剋
剌
前
剑
剖
剛
剤
剥
剧
剩
副
割
創
剽
劇
劈
劉
劍
劓
力
办
功
加
务
劣
动
助
努
劫
励
劳
労
効
劾
势
勁
勃
勅
勇
勉
勒
動
勘
務
勝
勞
勢
勤
勧
勲
勳
勸
勿
匂
包
匈
化
北
匙
匚
匠
匡
匪
匹
区
医
區
十
千
升
午
半
卍
华
协
卑
卒
協
单
卖
南
単
博
卜
卞
占
卡
卧
卫
印
危
即
却
卵
卽
卿
厂
厄
历
厉
压
厌
厓
厚
原
厭
厳
去
县
参
參
又
及
友
双
反
収
发
叔
取
受
变
叙
叛
叡
口
古
句
另
叩
只
叫
召
叭
可
台
史
右
号
司
吁
吃
各
合
吉
吊
同
名
后
吏
吐
向
吗
君
吠
否
吧
含
听
吮
吳
吵
吸
吹
吼
吾
呀
呂
呃
呆
告
呐
呑
呕
员
呢
呦
周
味
呵
呸
呻
呼
命
咋
和
咎
咒
咖
咬
咱
咸
哀
品
哄
哇
哈
哉
响
哎
哒
哔
哗
哟
員
哥
哦
哧
哨
哪
哭
哲
唇
唉
唐
唔
唜
唤
售
唯
唱
唾
商
啊
問
啓
啡
啥
啦
啧
喂
善
喇
喊
喘
喜
喝
喧
喪
單
喰
営
喷
喽
嗎
嗚
嗤
嗨
嗬
嗯
嗾
嘉
嘗
嘘
嘚
嘛
嘩
嘲
嘴
嘻
嘿
噗
噢
器
噫
嚴
嚼
囊
四
回
因
团
団
园
囯
困
図
围
固
国
图
圄
圈
圊
國
園
圖
團
土
圣
在
地
圳
场
圾
址
均
坊
坏
坐
块
坚
坛
坠
坡
坦
坪
坱
垂
垃
型
垢
垫
垮
埃
埋
城
域
埴
執
培
基
堂
堅
堈
堡
堯
報
場
堵
塊
塗
塚
塞
填
境
墊
墓
増
墙
墜
增
墨
墳
壁
壊
壓
壞
壤
士
壬
壯
声
売
壳
壽
处
备
変
复
夏
夕
外
多
夜
够
夢
大
天
太
夫
央
失
头
夷
夸
夹
夾
奀
奇
奈
奉
奋
奎
奏
套
奥
奨
奪
奮
女
奴
奵
奸
她
好
如
妃
妄
妇
妈
妊
妋
妎
妒
妓
妖
妙
妛
妥
妨
妬
妷
妹
妻
妾
始
姍
姐
姑
姒
姓
委
姕
姚
姜
姡
姦
姫
姬
姹
姻
威
娅
娋
娘
娝
娠
娨
娭
娱
娸
娼
婊
婎
婚
婢
婦
婪
婴
婼
婾
媁
媒
媚
媛
媟
媠
媢
媤
媽
嫁
嫂
嫉
嫌
嬉
嬢
嬰
子
孔
孕
字
存
孙
孝
孟
孤
学
孩
孫
學
宁
它
宅
宇
守
安
宋
完
宗
官
宙
定
宜
宝
实
実
审
客
宣
室
宥
宮
害
家
宸
容
宽
宿
寄
寅
密
寇
富
寐
寒
寘
寝
察
寡
寤
實
寧
審
寫
寬
寶
寸
对
寺
寻
导
対
寿
封
専
射
将
將
專
尊
對
導
小
少
尔
尘
尙
尚
尝
尤
尨
就
尸
尹
尺
尼
尽
尾
尿
局
屁
层
居
屈
届
屋
屌
屍
屎
展
属
屠
層
履
屬
屯
山
屹
岁
岂
岛
岡
岩
岳
岸
峙
峡
峰
峴
島
崇
崎
崔
崖
崛
崩
崽
嶺
嶽
巌
川
州
巡
巢
工
左
巧
巨
巫
差
己
已
巳
巴
巾
币
市
布
帅
师
希
帖
帝
帥
带
師
席
帮
帰
帶
常
帽
幕
幟
幢
幣
干
平
年
并
幸
幹
幻
幼
幾
广
庁
広
庆
庇
床
序
库
应
底
店
庚
府
庞
废
度
座
庫
庭
庶
康
庸
廃
廉
廢
廣
廳
延
廷
建
廿
开
弁
异
弃
弄
弊
式
弑
弓
弔
引
弗
弘
弟
张
弧
弱
張
強
弹
强
弾
彈
彊
彌
归
当
录
彘
彙
彡
形
彦
彩
彪
彬
彭
影
役
彻
彼
往
征
待
很
律
後
徐
徒
従
得
從
御
復
徭
微
徳
徴
徵
德
徹
心
必
忌
忍
志
忘
忙
応
忠
快
念
忽
怀
态
怎
怒
怕
怖
怜
思
怠
急
性
怨
怪
怯
总
怼
恃
恋
恐
恒
恕
恢
恣
恥
恨
恩
恭
息
恰
恵
恶
恼
悔
悖
悚
悟
悠
患
您
悪
悲
悼
悽
情
惊
惑
惜
惟
惠
惡
惨
惩
惯
想
惹
惻
愎
意
愚
愛
感
愣
愤
愧
愼
愾
愿
慄
慇
慈
態
慎
慕
慘
慢
慧
慮
慰
慶
慾
憂
憎
憤
憨
憫
憲
憶
憺
憾
懂
應
懋
懒
懲
懶
懷
懸
懺
懼
懿
戈
戊
戌
戍
戏
成
我
戒
或
战
戦
截
戮
戰
戳
戴
戶
户
戸
戻
房
所
扁
扇
手
扌
才
扑
扒
打
扔
払
托
扣
执
扪
扫
扬
扮
扯
扰
扶
批
扼
找
承
技
抄
把
抑
抓
投
抗
折
抛
抜
択
抠
抢
护
报
抨
披
抱
抵
抹
押
抽
拂
担
拉
拍
拒
拔
拘
拙
招
拜
拠
拥
择
括
拭
拯
拳
拶
拷
拿
持
挂
指
按
挑
挖
挙
挥
挨
挫
振
挺
挽
挾
捏
捐
捕
捞
损
换
捧
捨
据
捲
掃
授
掉
掌
排
掘
掠
探
接
控
推
掩
措
掲
掴
描
提
揖
揚
換
握
揪
揭
揮
援
揷
損
搏
搜
搞
搬
搭
搶
携
摀
摆
摠
摧
摩
摯
摸
撃
撐
撒
撕
撚
撞
撤
撫
播
撮
撰
撲
撼
擁
擇
擊
擋
操
擒
擔
擘
據
擦
擧
攀
攄
攒
攝
支
收
改
攻
放
政
故
效
敌
敍
敎
敏
救
敖
敗
教
敛
敢
散
敬
数
敲
整
敵
數
斂
文
斌
斑
斗
料
斡
斤
斥
斧
斫
斬
断
斯
新
斷
方
於
施
旁
旅
旋
族
旗
无
既
旣
日
旧
旨
早
旬
旭
旮
旯
旱
时
旷
旺
旻
昇
昊
昌
明
昏
易
昔
昖
星
映
春
昧
昨
昭
是
時
晉
晋
晓
晕
晚
晝
晦
晨
晩
普
景
晴
智
暂
暇
暖
暗
暮
暴
曉
曖
曝
曰
曲
更
書
曹
曺
曾
替
最
會
月
有
朋
服
朔
朕
朗
望
朝
期
木
未
末
本
札
术
朱
朴
朵
机
杀
杂
权
李
材
村
杖
杜
束
杠
条
来
杯
杰
東
松
板
极
构
枉
析
林
枚
果
枝
枠
枪
枭
枳
架
柅
某
染
柔
柘
柠
查
柯
柱
柳
柴
査
柾
栃
标
栗
校
栢
株
样
核
根
格
桂
桃
案
桌
桑
桓
桥
桶
梁
梅
條
梦
梨
梯
检
棄
棋
棒
棘
森
棱
棺
植
検
楚
業
極
楼
楽
榮
構
槍
様
槪
槽
槾
槿
樂
樓
樞
模
樣
権
横
樹
樽
橋
橘
機
橫
檀
檢
檬
權
欝
欠
次
欢
欧
欲
欸
欺
款
歉
歌
歐
歓
歟
歡
止
正
此
步
武
歧
歩
歪
歯
歲
歳
歴
歷
歸
歹
死
殃
殆
殊
残
殖
殘
殲
段
殺
殿
毁
毅
毋
母
毎
每
毒
比
毕
毖
毙
毛
毫
氏
民
氓
气
気
氣
水
氷
永
汁
求
汇
汉
汎
汗
汚
汝
江
池
污
汤
汰
決
汽
沈
沉
沒
沙
沛
沟
没
沫
河
沸
油
治
沾
沿
況
泄
泉
泊
法
泛
泡
波
泣
泥
注
泪
泯
泰
泼
泽
洋
洑
洗
洙
洛
洞
津
洪
洲
活
派
流
浅
济
浓
浜
浦
浩
浪
浮
浴
海
浸
消
涉
涓
涛
涤
润
涯
液
淆
淋
淑
淘
淚
淡
淨
淫
淮
深
淵
混
淸
淹
添
清
済
渗
減
渡
渣
港
渴
游
渽
渾
湖
湮
湯
湾
湿
満
溃
源
準
溝
溪
溫
溶
滅
滋
滑
滓
滚
满
滲
滴
滿
漁
漏
演
漠
漢
漬
漸
潁
潘
潜
潤
潮
澄
澡
澤
澳
澹
激
濕
濟
濤
濫
瀆
瀋
瀦
瀬
灣
火
灬
灭
灰
灵
災
灾
炉
炎
炙
炫
炭
炮
炯
炳
炸
点
為
炼
烂
烈
烏
烙
烟
烦
热
烹
焕
焚
無
焦
然
焼
煙
煞
煤
照
煩
煮
煽
熊
熏
熙
熟
熱
熹
燈
燒
燔
燕
營
燭
爆
爬
爭
爱
爲
父
爷
爸
爹
爾
牆
片
版
牌
牙
牛
牝
牟
牢
牧
物
牲
特
牺
牽
犊
犒
犟
犧
犬
犯
状
犹
狀
狂
狐
狗
狡
狩
独
狭
狱
狹
狼
狽
猖
猛
猢
猪
猫
献
猴
猶
猾
猿
獃
獄
獍
獙
獣
獨
獪
獲
獵
獸
獻
玄
率
玉
王
玏
玛
玩
环
现
玲
玷
玻
珍
珠
珥
班
現
球
理
琉
琢
琦
琪
琳
琴
瑗
瑞
瑟
璃
環
璹
璽
瓔
瓜
瓦
瓶
瓷
甁
甘
甚
甜
生
產
産
用
甩
田
由
甲
申
电
男
町
画
界
畏
留
畜
畢
略
番
異
畵
當
疆
疊
疎
疏
疑
疝
疥
疫
疯
疲
疹
疾
病
症
痒
痔
痕
痛
痰
痲
痴
痹
痺
痼
瘠
瘤
瘦
療
癌
癎
癒
癖
癡
癰
癲
癸
発
登
發
白
百
的
皆
皇
皐
皮
皿
盃
盈
益
盐
监
盖
盗
盘
盛
盜
盟
盡
監
盤
盧
目
盲
直
相
盼
盾
省
看
県
眞
真
眠
眯
眶
眼
着
睛
督
睦
睫
睹
睿
瞅
瞎
瞒
瞞
瞧
矛
矣
知
矩
短
矮
矯
石
码
砂
砍
研
砧
砲
破
砸
硅
硏
硬
确
碍
碎
碑
碗
碰
確
碾
磋
磕
磨
礙
示
礼
社
祀
祈
祉
祐
祕
祖
祗
祚
祝
神
祥
票
祭
祸
祿
禁
禍
福
禦
禧
禪
禮
离
禽
禾
秀
私
秊
秋
种
科
秘
租
秤
秦
秩
积
称
移
稀
稅
程
税
稔
稚
稟
種
稱
稲
稳
稷
稼
稽
稿
積
穗
穢
穩
穴
究
穷
空
穽
穿
突
窃
窄
窓
窗
窘
窟
窮
立
站
竝
竞
竟
章
童
竪
竭
端
競
竹
竽
竿
笑
笔
笠
符
笨
第
笼
筆
等
筋
筑
筒
答
策
筷
签
简
箋
算
管
箭
箱
節
範
篆
篇
築
篠
篮
籍
米
类
粉
粒
粗
粘
粤
粪
粹
精
糊
糕
糖
糞
糟
糠
系
紀
約
紅
紊
紋
納
紒
純
紙
級
紛
素
索
紧
細
紳
紹
紺
終
組
絆
経
結
絡
給
絮
統
絲
絵
絶
綏
經
継
続
綠
維
綱
網
綴
綺
綻
綾
綿
緊
総
緒
緘
線
緡
緣
編
緩
練
縁
縋
縛
縣
縮
總
績
繁
織
繩
繼
纠
红
约
级
纪
纯
纲
纳
纵
纷
纸
纽
线
练
组
细
织
终
绍
经
绒
结
给
络
绝
统
绥
继
绩
续
维
综
绿
缠
缺
网
罒
罔
罕
罗
罚
罢
罩
罪
置
罰
署
罵
罽
羅
羊
美
羔
羞
羡
群
羨
義
羯
羽
翁
習
翔
翰
翻
翼
耀
老
考
者
而
耍
耐
耗
耙
耳
耶
耻
耽
聊
聋
职
联
聖
聘
聚
聞
聪
聯
聰
聲
聴
職
聽
肅
肇
肉
肋
肏
肖
肚
肛
肝
肠
股
肢
肥
肮
肯
育
肴
肺
胁
背
胎
胖
胜
胞
胡
胤
胩
胱
胶
胸
能
脅
脈
脊
脏
脑
脚
脣
脫
脱
脳
脸
腊
腋
腌
腎
腐
腑
腝
腥
腦
腰
腸
腹
腺
腿
膏
膣
膽
膾
臟
臣
臥
臨
自
臭
至
致
臺
舆
與
興
舊
舌
舐
舒
舔
舘
舜
舞
舟
航
般
舵
船
艦
良
色
艸
艹
艺
艾
节
花
芳
芸
苍
苏
苔
苛
若
苦
英
茂
范
茶
草
荊
荐
荒
荡
荣
药
荷
莊
莎
莒
莫
获
菅
菌
菜
華
菱
菴
萄
萊
萝
营
萨
萩
萬
落
葉
著
葛
葡
董
葬
葳
蒋
蒙
蒜
蒼
蓄
蓋
蓬
蓮
蔓
蔚
蔣
蔬
蔭
蔽
蕁
蕙
蕞
蕩
蕾
薄
薛
薦
薪
薬
藁
藍
藏
藝
藤
藥
蘇
蘊
蘋
虎
虐
虔
處
虚
虛
虜
號
虫
虽
蚊
蛆
蛇
蛋
蛙
蛮
蜀
蜂
蜜
蜡
蝓
蝕
蝨
螂
融
螳
蟑
蟲
蠢
蠶
蠻
血
衅
衆
行
術
街
衛
衝
衞
衣
补
表
衷
袈
袋
袍
被
袭
袴
裁
裂
装
裆
裏
裔
裕
補
裝
裟
裤
裳
裵
裸
製
複
褒
褙
襟
西
要
覆
覇
見
規
視
覚
覧
親
観
覺
觀
见
观
规
视
觉
角
解
触
言
訃
計
訊
討
訓
託
記
訝
訪
設
許
訳
訴
診
註
証
詐
評
試
詩
詫
詮
話
該
詳
誅
誇
誌
認
誓
誔
誕
誘
語
誠
誣
誤
說
説
読
誰
課
誼
調
談
請
諍
論
諜
諡
諭
諶
諷
諸
諺
謀
謁
謂
謖
謙
講
謝
謹
譃
證
識
譚
譜
警
譯
議
護
譽
讀
變
讐
讓
讚
计
订
认
讨
让
训
议
讯
记
讲
许
论
讽
设
访
证
评
诅
识
诉
诊
诋
词
译
试
诗
诚
诛
话
该
详
诫
语
误
诱
说
请
诸
诺
读
谁
调
谅
谈
谋
谍
谎
谐
谓
谢
谦
谨
谴
谷
豆
豊
豕
豚
象
豪
豫
豬
豺
貊
貌
貝
負
財
貢
貧
貨
販
貪
貫
責
貰
貴
買
費
貽
賀
資
賊
賓
賛
賞
賠
賢
賣
賤
賦
質
賴
賻
購
賽
贊
贝
负
贡
责
败
账
货
质
贩
贪
贫
贬
购
贯
贱
贴
贵
贸
费
贺
贼
资
赖
赚
赛
赞
赠
赢
赤
赦
赫
走
赶
起
超
越
趕
趙
趣
足
跑
距
跟
跪
路
践
踏
踩
踪
蹊
蹦
躇
躊
躍
身
軀
軆
車
軋
軍
転
軸
載
輒
輕
輩
輪
輸
輿
轄
轉
轍
车
轩
转
轮
软
轰
较
辈
辉
输
辛
辜
辞
辣
辨
辩
辭
辯
辰
辱
農
边
辺
辽
达
迁
过
迈
迎
运
近
返
还
这
进
远
违
连
迟
迦
迪
迫
迭
述
迷
迹
追
退
送
适
逃
逆
选
透
逐
递
途
這
通
逝
逞
速
造
連
逮
週
進
逼
遄
遅
遇
遊
運
遍
過
道
達
違
遗
遠
遥
適
遭
遮
遲
遷
選
遺
遼
避
還
邊
邑
邓
那
邦
邪
邱
邻
郎
郞
郡
部
郭
郵
都
鄒
鄕
鄙
鄧
鄭
鄰
酉
配
酒
酖
酩
酷
酸
醉
醋
醒
醜
醫
采
释
釋
里
重
野
量
金
釜
針
鈴
鉄
鉉
銀
銃
銓
銘
鋄
錄
錐
錢
錦
錫
錯
録
鍊
鍋
鍍
鍼
鍾
鎔
鎖
鎧
鎬
鎭
鎮
鏡
鐘
鐵
鑄
鑫
针
钞
钟
钥
钱
铁
银
铺
链
销
锁
锅
错
锤
锦
键
镇
镜
長
长
門
閉
開
閑
間
閔
関
閣
閥
閱
閻
闔
關
门
闭
问
闲
间
闹
闻
阁
阅
阔
队
阪
阮
防
阳
阴
阶
阻
阿
附
际
陆
陈
降
限
陛
院
陣
除
陥
险
陰
陳
陵
陸
陽
隆
隊
隋
隍
随
隐
隔
隘
際
障
隠
隣
隨
隱
隶
隷
隻
难
雄
雅
集
雇
雕
雖
雙
雛
雜
雞
離
難
雨
雪
雲
零
雷
雺
電
雾
需
震
霊
霜
霧
露
霾
靂
靈
靑
青
靖
静
靜
非
靠
靡
面
革
靴
鞅
鞋
鞨
鞭
韋
韓
韜
韩
韬
音
響
頂
頃
項
順
須
頑
頓
領
頭
頸
頹
頻
頼
題
額
顏
顔
願
顚
類
顧
顯
页
顶
顺
须
顿
预
领
频
颗
题
風
风
飛
飞
食
飮
飯
飲
飾
養
餐
餓
餘
館
饥
饭
饰
饱
饼
饿
首
香
馬
馮
馳
駄
駅
駆
駐
駒
駙
騃
騎
騒
験
驅
驕
驗
驚
驛
驥
马
驻
驾
骂
骄
骆
验
骑
骗
骚
骨
骯
骸
髒
髓
體
高
髪
髮
鬖
鬥
鬪
鬱
鬻
鬼
魁
魂
魃
魄
魏
魔
魚
魯
鮮
鯨
鰤
鰥
鱗
鱼
鲜
鲺
鳖
鳞
鳥
鳩
鳳
鳴
鴻
鵜
鷄
鸟
鸡
鸣
鸦
鸭
鹅
鹊
鹽
鹿
麒
麗
麟
麤
麦
麻
麼
黃
黄
黎
黑
黒
默
黙
點
黨
黴
鼎
鼓
鼠
鼻
齊
齋
齐
齒
齔
齡
齢
齪
齿
龄
龍
龙
龟
ꇴ
ꈍ
ꉂ
ꌂ
ꐦ
꒨
꒰
꒱
꒳
ꙍ
꜀
꜂
꜄
꜆
ꥶ
ꥼ
％
🀄
🃏
🅰
🅱
🅾
🆎
🆗
🆘
🆙
🆚
🇦
🇧
🇨
🇩
🇪
🇫
🇬
🇭
🇮
🇯
🇰
🇱
🇲
🇳
🇴
🇵
🇶
🇷
🇸
🇹
🇺
🇻
🇼
🇽
🇾
🇿
🈚
🈲
🈳
🈵
🈶
🈸
🈹
🈺
🉐
🉑
🌀
🌁
🌂
🌃
🌄
🌅
🌆
🌇
🌈
🌊
🌋
🌌
🌍
🌎
🌏
🌐
🌑
🌒
🌓
🌔
🌕
🌖
🌗
🌘
🌙
🌚
🌛
🌜
🌝
🌞
🌟
🌠
🌤
🌧
🌨
🌩
🌪
🌫
🌬
🌭
🌮
🌯
🌰
🌱
🌲
🌳
🌴
🌵
🌶
🌷
🌸
🌹
🌺
🌻
🌼
🌽
🌾
🌿
🍀
🍁
🍂
🍃
🍄
🍅
🍆
🍇
🍈
🍉
🍊
🍋
🍌
🍍
🍎
🍏
🍐
🍑
🍒
🍓
🍔
🍕
🍖
🍗
🍘
🍙
🍚
🍛
🍜
🍝
🍞
🍟
🍠
🍡
🍢
🍣
🍤
🍥
🍦
🍧
🍨
🍩
🍫
🍬
🍭
🍮
🍯
🍰
🍱
🍲
🍳
🍴
🍵
🍶
🍷
🍸
🍹
🍺
🍻
🍼
🍽
🍾
🍿
🎀
🎁
🎂
🎃
🎄
🎅
🎆
🎇
🎈
🎉
🎊
🎋
🎌
🎍
🎎
🎏
🎐
🎒
🎓
🎗
🎙
🎚
🎟
🎠
🎡
🎢
🎣
🎤
🎥
🎧
🎨
🎩
🎪
🎫
🎬
🎭
🎯
🎱
🎲
🎳
🎴
🎵
🎶
🎷
🎸
🎹
🎺
🎻
🎼
🎽
🎾
🎿
🏀
🏁
🏃
🏄
🏅
🏆
🏇
🏈
🏊
🏋
🏌
🏏
🏑
🏒
🏓
🏔
🏕
🏖
🏗
🏘
🏚
🏜
🏞
🏟
🏠
🏡
🏢
🏤
🏥
🏧
🏨
🏫
🏭
🏮
🏯
🏰
🏳
🏴
🏵
🏹
🏺
🏻
🏼
🏽
🏾
🏿
🐀
🐁
🐂
🐃
🐄
🐅
🐆
🐇
🐈
🐉
🐊
🐋
🐌
🐍
🐎
🐏
🐐
🐑
🐒
🐓
🐔
🐕
🐖
🐗
🐘
🐙
🐚
🐛
🐜
🐝
🐞
🐟
🐠
🐡
🐢
🐣
🐤
🐥
🐦
🐧
🐨
🐩
🐪
🐫
🐬
🐭
🐮
🐯
🐰
🐱
🐲
🐳
🐴
🐵
🐶
🐷
🐸
🐹
🐺
🐻
🐼
🐽
🐾
🐿
👀
👁
👂
👃
👄
👅
👆
👇
👈
👉
👊
👋
👌
👍
👎
👏
👐
👑
👒
👓
👔
👕
👖
👗
👘
👙
👚
👛
👜
👞
👟
👠
👡
👢
👣
👤
👥
👦
👧
👨
👩
👪
👫
👬
👭
👮
👯
👱
👲
👳
👴
👵
👶
👸
👹
👺
👻
👼
👽
👾
👿
💀
💁
💂
💃
💄
💅
💆
💇
💉
💊
💋
💌
💍
💎
💏
💐
💑
💒
💓
💔
💕
💖
💗
💘
💙
💚
💛
💜
💝
💞
💟
💠
💡
💢
💣
💤
💥
💦
💧
💨
💩
💪
💫
💬
💭
💮
💯
💰
💱
💲
💳
💴
💵
💶
💷
💸
💹
💻
💼
💿
📀
📇
📈
📉
📊
📌
📍
📎
📐
📕
📖
📗
📙
📚
📛
📡
📢
📣
📦
📧
📭
📮
📯
📱
📲
📷
📸
📹
📺
📻
📼
🔀
🔁
🔄
🔅
🔆
🔇
🔈
🔉
🔊
🔋
🔌
🔍
🔎
🔐
🔑
🔒
🔔
🔕
🔖
🔗
🔘
🔙
🔚
🔜
🔝
🔞
🔟
🔣
🔥
🔦
🔧
🔨
🔩
🔪
🔫
🔬
🔭
🔮
🔯
🔱
🔲
🔴
🔵
🔶
🔷
🔸
🔹
🔺
🔻
🔼
🔽
🕊
🕐
🕑
🕒
🕔
🕕
🕖
🕗
🕘
🕙
🕥
🕦
🕧
🕯
🕰
🕴
🕵
🕶
🕷
🕸
🕹
🕺
🖐
🖕
🖤
🖥
🖲
🖼
🗃
🗑
🗒
🗜
🗝
🗞
🗡
🗣
🗨
🗳
🗻
🗼
🗽
🗾
🗿
😀
😁
😂
😃
😄
😅
😆
😇
😈
😉
😊
😋
😌
😍
😎
😏
😐
😑
😒
😓
😔
😕
😖
😗
😘
😙
😚
😛
😜
😝
😞
😟
😠
😡
😢
😣
😤
😥
😦
😧
😨
😩
😪
😫
😬
😭
😮
😯
😰
😱
😲
😳
😴
😵
😶
😷
😸
😹
😺
😻
😼
😽
😾
😿
🙀
🙁
🙂
🙃
🙄
🙅
🙆
🙇
🙈
🙉
🙊
🙋
🙌
🙍
🙎
🙏
🚀
🚁
🚂
🚃
🚄
🚅
🚆
🚉
🚌
🚍
🚏
🚐
🚑
🚒
🚓
🚔
🚕
🚖
🚗
🚘
🚚
🚛
🚜
🚞
🚢
🚣
🚥
🚦
🚨
🚩
🚪
🚫
🚬
🚭
🚮
🚯
🚱
🚲
🚴
🚶
🚷
🚸
🚹
🚺
🚻
🚼
🚽
🚾
🚿
🛂
🛄
🛋
🛍
🛎
🛐
🛑
🛠
🛡
🛢
🛩
🛫
🛬
🛰
🛳
🛴
🛵
🛶
🛸
🟢
🟣
🤍
🤎
🤏
🤐
🤑
🤒
🤓
🤔
🤕
🤖
🤗
🤘
🤙
🤚
🤛
🤜
🤝
🤞
🤟
🤠
🤡
🤢
🤣
🤤
🤥
🤦
🤧
🤨
🤩
🤪
🤫
🤬
🤭
🤮
🤯
🤰
🤲
🤳
🤴
🤵
🤶
🤷
🤸
🤹
🤺
🤼
🤽
🥀
🥁
🥂
🥄
🥅
🥇
🥊
🥌
🥎
🥐
🥑
🥒
🥔
🥕
🥖
🥗
🥘
🥙
🥚
🥜
🥝
🥞
🥟
🥠
🥡
🥢
🥣
🥤
🥥
🥦
🥨
🥩
🥫
🥬
🥭
🥮
🥯
🥰
🥱
🥳
🥴
🥵
🥶
🥺
🥾
🥿
🦀
🦁
🦂
🦃
🦄
🦅
🦆
🦇
🦈
🦉
🦊
🦋
🦌
🦍
🦎
🦏
🦐
🦑
🦒
🦓
🦔
🦕
🦖
🦗
🦘
🦚
🦛
🦜
🦝
🦞
🦟
🦠
🦡
🦢
🦧
🦮
🦰
🦱
🦲
🦳
🦴
🦵
🦶
🦷
🦸
🦹
🦺
🦻
🦼
🦾
🧀
🧂
🧄
🧅
🧆
🧇
🧈
🧐
🧒
🧓
🧔
🧘
🧙
🧚
🧛
🧜
🧞
🧟
🧠
🧡
🧢
🧣
🧤
🧥
🧧
🧨
🧭
🧯
🧲
🧳
🧴
🧸
🧹
🧻
🧿
🩳
🩸
🪁
🪓
##ᅮ
##ᆯ
##ᄅ
##ᅵ
##ᄄ
##ᅢ
##ᅩ
##ᅥ
##ᄋ
##ᅧ
##ᆼ
##ᄐ
##ᄆ
##ᅡ
##ᆫ
##ᄃ
##ᅳ
##ᆻ
##ᄂ
##ᅦ
##ㅋ
##ᄌ
##ᄉ
##ᄀ
##ᅪ
##ᄒ
##ᆨ
##ᆺ
##ᄇ
##ᄊ
##ᅣ
##ᆸ
##ᅬ
##ᄎ
##ᄑ
##ᅨ
##ᆷ
##ᅭ
##ᄁ
##ᄏ
##ᅴ
##4
##ᅯ
##ㅇ
##ㅁ
##ᅱ
##ᅫ
##ᆹ
##ᅲ
##ᇁ
##ᇂ
##ᄈ
##ᆽ
##ᄍ
##ㅜ
##ᆩ
##ㆍ
##ᆭ
##ᇀ
##ㅡ
##l
##a
##s
##t
##i
##c
##ᆰ
##1
##2
##ᅤ
##0
##ㅠ
##ᆮ
##v
##ㄹ
##j
##ᅰ
##7
##8
##3
##ㅊ
##ᆬ
##ㅎ
##u
##ᆾ
##5
##9
##e
##ᆶ
##ㅂ
##b
##ㅅ
##ㄲ
##O
##ᆱ
##6
##ㅍ
##w
##h
##m
##n
##p
##👊
##y
##k
##ᆲ
##🐶
##f
##ㄱ
##ㅉ
##A
##ㅈ
##ㄷ
##ᆪ
##o
##r
##G
##ㄴ
##ㅐ
##g
##ㅣ
##C
##T
##V
##😧
##I
##ㅌ
##B
##ㅑ
##U
##x
##d
##🐕
##😁
##😡
##👎
##👏
##👍
##ᆿ
##N
##F
##⏪
##R
##♥
##E
##D
##S
##ᆳ
##X
##ㅕ
##😊
##J
##P
##M
##💥
##💙
##ㅓ
##H
##❗
##ㅏ
##🐖
##🇯
##🇵
##K
##🙏
##✌
##🇳
##🇷
##🇺
##🇰
##🇮
##🦶
##ㅒ
##😱
##🔊
##♠
##ㄺ
##ㄳ
##💖
##⛏
##🛠
##🍉
##ㅆ
##😆
##😃
##🐒
##ㅃ
##🔴
##🐦
##🔑
##😠
##😣
##💕
##Z
##ㅔ
##z
##👿
##🥥
##💚
##➡
##Y
##🙂
##L
##🤮
##👉
##🏻
##👈
##ㄸ
##💛
##🐯
##🔹
##▶
##❤
##🌟
##🎶
##ᆴ
##😤
##🤕
##🌹
##🌸
##🍃
##ㅢ
##✨
##🍑
##🙆
##ㅗ
##🤣
##🐓
##💔
##💩
##😎
##🚩
##🗝
##🎵
##🎻
##🎺
##🎷
##q
##W
##🧡
##🤬
##ㅛ
##🔥
##🐷
##🐽
##㎉
##🕷
##🦓
##✔
##🖐
##💜
##😗
##🇸
##⚠
##😮
##🐀
##😨
##🍀
##ᆵ
##🖕
##🚣
##♀
##🔇
##😭
##🎃
##😻
##✊
##ㅟ
##😄
##🏼
##🤟
##☢
##🐉
##😉
##🎗
##🙉
##👄
##⭕
##☺
##㎡
##🐧
##🐮
##🤐
##Q
##😈
##⃣
##🎄
##🍈
##⬛
##❣
##🍼
##🤴
##😩
##😀
##☠
##😝
##🍟
##♂
##👮
##🚓
##🚔
##🤔
##💪
##💫
##ㅚ
##😫
##🌋
##🚴
##➰
##🎊
##🙊
##🤪
##🌶
##💨
##👴
##🙋
##💢
##㎓
##❌
##🤗
##🥗
##💑
##🔞
##🇨
##🥶
##💝
##😅
##👹
##💀
##👺
##🕺
##🦍
##🐵
##ㅞ
##👟
##🇲
##🎉
##🤩
##💗
##ㅄ
##📌
##ㅖ
##🤨
##🌨
##🌪
##❄
##💧
##🌊
##🥦
##🥬
##🥒
##🌽
##🥕
##🥔
##🍆
##🥑
##🍅
##🥝
##🍓
##🍒
##🍐
##🍏
##🍎
##🥭
##🍍
##🍌
##🍋
##🍊
##🍇
##🌼
##🌺
##🐰
##😍
##ㅝ
##💎
##👼
##🐩
##🔪
##👅
##😏
##💣
##🎼
##🎸
##🔔
##📯
##📣
##📢
##㎞
##🌷
##☕
##⚡
##😪
##🥁
##😘
##👨
##👩
##👧
##👦
##🐂
##🎤
##✴
##❓
##🐸
##🚫
##☝
##🤖
##💃
##😂
##👆
##ㄶ
##🎈
##🙄
##🐚
##💋
##🔫
##🗡
##💅
##♨
##⛔
##🦺
##🦮
##🐈
##🔖
##👌
##😔
##🎀
##⚰
##💤
##🦴
##🐗
##🐥
##😢
##🤎
##🐟
##🥰
##👸
##🤶
##🎅
##☹
##🐔
##💓
##💞
##☘
##😬
##🤯
##🤦
##🌔
##🔨
##🌙
##😙
##😥
##👑
##🕊
##🏿
##🧛
##🦉
##🎽
##😯
##🧠
##🥳
##🐍
##🐢
##🌻
##😐
##🚢
##ㅙ
##🎧
##🐎
##🍾
##🌞
##😚
##👞
##😜
##㎜
##☀
##🔸
##🐅
##🐆
##🐇
##🐴
##🐑
##😞
##😾
##🔺
##😓
##🔵
##🐤
##🌈
##🐾
##🎢
##🎡
##✋
##∼
##😖
##🚬
##🦜
##🙈
##😺
##🤭
##🤤
##🤺
##🏽
##👇
##↖
##🕯
##🍯
##⚜
##🏓
##🤚
##🦐
##♦
##🚀
##🖤
##😋
##🐣
##😛
##🍗
##🍖
##📺
##🤓
##💟
##🙃
##⭐
##💰
##😵
##🥵
##🧨
##👋
##🐏
##🍨
##🍣
##😰
##↔
##✝
##🧅
##🧄
##🍄
##🥜
##🌰
##🍞
##🥐
##🥖
##🥨
##🥩
##🧀
##🧇
##🥯
##🌯
##🥙
##🧆
##🥚
##🍳
##🥘
##🍲
##🍱
##🥫
##🧂
##🧈
##🍙
##🍚
##🍜
##🍝
##🥟
##🦑
##🦀
##🥡
##🥠
##🍦
##🍧
##⚒
##😒
##🌍
##🌚
##🐭
##🐙
##👠
##👡
##🚨
##💐
##🍭
##🇼
##🇹
##😳
##♣
##🦅
##🐁
##💄
##🧿
##☔
##🦠
##🦋
##🤛
##💬
##🤑
##🕸
##😟
##😕
##🍿
##🦝
##🙌
##ㅘ
##ㄻ
##🤜
##💦
##🗽
##😿
##😇
##🤸
##⬆
##🙁
##🙅
##✈
##⚽
##⚾
##🤠
##👽
##👣
##🚮
##🦷
##🤝
##🌌
##🐫
##➕
##⛵
##⤵
##💌
##🦊
##🦒
##🤷
##🛂
##🦇
##💮
##⏳
##🎹
##⛑
##📸
##❎
##💯
##🧐
##🛐
##ㄿ
##😷
##🌀
##🇾
##😌
##💇
##🐺
##🚆
##👤
##🌲
##🌿
##✳
##🔧
##🧴
##🔗
##㎛
##🔲
##💸
##☁
##🏾
##🤏
##🦄
##👾
##💁
##🤢
##⤴
##🌬
##🐝
##🇫
##🦆
##◀
##🥎
##🏌
##㏊
##🏭
##🐛
##🦵
##🌜
##😶
##🐨
##😲
##㊗
##🇩
##🇪
##💍
##🛑
##🏧
##🔕
##👵
##🦲
##🤧
##🍺
##❔
##✖
##👥
##😴
##🚑
##🚷
##🥾
##☣
##📛
##⛳
##🔷
##🏅
##👕
##🐡
##🎂
##💉
##💊
##🕹
##📀
##💿
##🎥
##㎏
##🟣
##🟢
##🆗
##🌝
##😑
##🧟
##🔶
##🇱
##🗣
##📙
##✏
##💘
##📚
##🍶
##🔮
##🇦
##🤞
##🤥
##🗜
##🇭
##🦁
##🐃
##📷
##🔐
##🌾
##🙇
##🤫
##🛫
##㎿
##🧤
##♐
##🌱
##🎋
##🤒
##🏵
##🥀
##🚹
##🐱
##💵
##🇻
##🛳
##🏆
##🍻
##🎯
##🥂
##🤹
##👀
##💲
##🤳
##🇿
##🏃
##👒
##🦳
##🤙
##🔉
##🥢
##🥺
##🗿
##⚱
##⛽
##🎁
##🤡
##⛸
##㎍
##⚔
##📮
##😸
##🌵
##🐲
##▫
##🌭
##🍘
##ㅀ
##🎨
##💒
##⬇
##♓
##🎭
##💴
##💶
##💷
##🛩
##®
##💭
##🎓
##🗼
##⚕
##🥴
##🎴
##🍁
##🧹
##💏
##🌠
##☑
##👁
##✉
##➖
##🐠
##🦃
##🇬
##🍂
##ㄽ
##🦹
##🗑
##👪
##🌴
##🥞
##🛎
##👻
##🐳
##🐋
##🐹
##↗
##👫
##🛢
##🏮
##🙀
##♟
##🎇
##🎆
##🇧
##🏑
##🏒
##🏏
##🐪
##🐞
##🐜
##🧻
##👐
##🔎
##🚾
##🌆
##🧢
##❕
##🍹
##👭
##🎬
##✂
##🏀
##🚶
##◼
##👗
##🔆
##🌛
##🌏
##🦻
##🐘
##🪓
##🔟
##🚅
##🇽
##🥅
##🧧
##🧭
##⚫
##☎
##㉱
##☮
##🥊
##🕰
##🦎
##🏘
##🔻
##🐻
##✅
##😽
##㉪
##🏄
##💡
##👶
##🧚
##㎾
##⛪
##🆙
##🛡
##㉯
##🥇
##🦱
##↘
##🎎
##👃
##👢
##🅱
##🏴
##🐄
##🏹
##🌎
##🏫
##⛲
##🥱
##👂
##🚿
##🤵
##👱
##㎥
##♿
##🙍
##⛱
##🦰
##🕵
##📍
##📹
##🏥
##🚒
##✒
##👲
##🚍
##🥤
##⌚
##↕
##📕
##📗
##ㄼ
##🌳
##🦕
##㎝
##🎿
##👖
##👛
##㉮
##🌫
##🕐
##🕑
##🕒
##🕔
##🕕
##🕖
##🕗
##🕙
##🎌
##🤘
##🚗
##🍬
##📱
##🌄
##🍢
##🌑
##⏩
##🏺
##🏈
##💆
##🌩
##ㄾ
##🆘
##🎙
##🐐
##🅾
##👜
##🔦
##🏢
##🚏
##⬅
##🗻
##🏯
##🗾
##😦
##🔜
##🤰
##ㄵ
##🉑
##🥿
##▪
##🍛
##🍰
##↙
##☄
##㉵
##🤍
##🚕
##㎢
##🌕
##🌂
##ꉂ
##🌅
##💻
##㉻
##🐬
##🐊
##⚙
##💼
##🍫
##🀄
##🐿
##👘
##👙
##🤽
##👬
##♑
##🆚
##🍮
##🧸
##🦡
##🦖
##⛓
##🕘
##🎒
##😹
##🌮
##🦢
##🔈
##🚃
##🈹
##🤼
##⛰
##🍔
##🍕
##🦘
##🧜
##🧣
##🍩
##🎟
##🃏
##🎫
##🇶
##📈
##🚞
##🚂
##🍤
##🍸
##🍴
##🍵
##🧒
##♾
##❇
##🔬
##🔱
##🥣
##♉
##🗨
##🇴
##🧞
##🔅
##🦌
##🦏
##🦔
##🐼
##🦈
##🐌
##🦗
##🦂
##🔽
##🌒
##☃
##🎚
##©
##🉐
##📉
##🈲
##🏡
##🏕
##🪁
##⚪
##🏔
##🌁
##🎳
##🦧
##🎍
##🥮
##⚖
##⛈
##🏞
##ㆀ
##🚌
##⛴
##📼
##🔼
##📐
##🎏
##🚄
##↩
##↪
##🕥
##🕦
##🕧
##🏁
##🏳
##🍡
##🍥
##♋
##🦛
##🚽
##☦
##🌓
##🌗
##🌘
##ꥶ
##🔣
##🏊
##🌐
##🦚
##🍽
##☯
##⏬
##👳
##💂
##🍠
##🥄
##📧
##🚲
##🦟
##🚁
##🚚
##🚛
##🎐
##🌃
##🌧
##🛶
##📇
##🗃
##🙎
##👯
##🖲
##🔄
##🕴
##🤲
##⛺
##📡
##꜂
##🔩
##🏗
##㎚
##🔀
##🅰
##ㅤ
##🦞
##🍷
##🏟
##🈸
##📲
##🔍
##🏠
##🛄
##🛬
##🩸
##⛷
##🎣
##㏄
##㉦
##🚭
##◾
##🔙
##🏇
##🛴
##✡
##🔝
##🏤
##🎠
##ꈍ
##🦼
##🗳
##🧥
##🛍
##🛋
##🗒
##🆎
##🧳
##😼
##🔘
##🛸
##🛰
##🚜
##📦
##🚐
##🚖
##🚘
##🛵
##🚦
##🚥
##🚻
##⚛
##🔯
##🔚
##㎎
##🎾
##💱
##🔌
##🔭
##㈜
##⌛
##⚓
##💳
##🎩
##이
##ᅳᆫ
##ᅡᆫ
##ᅳᆯ
##다
##는
##지
##고
이
##가
##ᅡᆯ
##ᅥᆫ
##하
##라
##도
##ᅵᆫ
##들
##ᅡᆼ
##ᅮᆨ
##ᅥᆼ
##ᅧᆫ
##에
##ᅮᆫ
##어
##은
##로
##니
##리
##서
##나
##거
##게
##시
##한
##을
##해
##아
아
##ᅧᆼ
##ᅩᆼ
##기
그
##자
##으
##인
##면
어
##ᅮᆯ
##국
하
##의
##야
##요
지
##ᅯᆫ
##보
나
##만
사
가
##사
##데
##주
##ᅥᆨ
##대
##ᅩᆨ
##러
대
##네
조
##냐
##ᅢᆼ
정
##려
자
##를
##민
거
##그
모
다
시
##제
마
##ᅩᆫ
##부
##수
##정
한
기
있
국
##당
##ᅥᆯ
바
안
##스
##구
##으로
문
##하는
주
##과
##까
일
##들이
##여
보
해
##치
##ᆸ니
##원
##마
##하고
##되
##ᆻ다
##ᅳᆼ
여
##ᅩᆯ
##ᆸ니다
없
저
##일
##재
##상
##장
미
ㅋㅋ
##금
##신
우
##것
##세
무
##바
##에서
##건
말
##람
수
##런
##조
개
##화
아니
##는데
##ᅢᆨ
##ᅥᆷ
##무
##드
##말
##간
##적
인
전
##ᅥᆸ
국민
##노
##르
##통
##래
##와
진
되
##동
부
공
내
중
##히
##선
더
##유
차
##성
##내
##본
##이다
##이라
##문
못
##권
##겨
##겠
##들은
##할
##소
잘
##전
생
사람
##모
##짜
##회
##는거
너
세
그러
노
왜
##안
니
##우
제
##차
##때
뭐
문재
##각
나라
##진
유
##미
##단
고
비
##ᇂ게
##명
화
##심
##없
##음
##산
##생
당
##오
##식
##있
오
##령
##년
우리
민
경
##파
##같
##비
##던
일본
것
##ᅧᆯ
##실
##으면
##다고
##교
과
만
##개
##테
##체
같
알
##라고
##었
##하면
##든
##임
##중
살
##력
##레
##용
##위
소
##해서
않
위
##질
구
신
이런
생각
요
##발
##했
##운
중국
야
할
##터
##경
남
##분
##워
##업
진짜
문재인
북
많
선
##키
##관
##통령
불
##하게
반
##끼
##한다
##처
한국
##더
##져
하는
##직
##디
##먹
##하지
##봐
##나라
도
##까지
지금
의
##두
##트
##세요
피
쓰
##ᅳᆷ
##이나
##번
##리고
##계
##찰
##작
들
좋
돈
죽
##냥
조국
##혀
누
좌
##준
##앙
##타
상
##속
##하다
##저
##대로
##방
검
집
##법
##론
##놈
##걸
받
애
##ㅋㅋ
##된
##행
참
대통령
##불
##공
김
대한
재
빨
박
##글
##님
##에게
##호
이제
##지만
##인데
민주
##천
##른
입
북한
감
그냥
좀
##버
##난
##연
##해야
##란
장
ㅋㅋㅋ
와
##닌
##해라
서
맞
정치
##며
또
##는게
때
##표
##못
##죄
##한테
##네요
##족
##럼
##물
##ᅵᆷ
언
##민국
처
역
그래
##린
동
##짓
최
##ᅮᆼ
##ᆨ이
정부
##군
##능
적
##듯
##랑
##레기
##구나
##면서
##보다
##급
##피
어ᄄ
법
##청
얼
방
##살
##니까
인간
드
##학
##받
##같은
##줄
대한민국
친
교
청
강
##씨
##감
문제
##판
하고
이러
##00
##쳐
##았
##이고
##남
현
##새
##부터
성
있는
원
##영
##라도
모르
정신
##ᆺ글
##ᅢᆼ이
외
##ᅡᆨ
##길
##베
##망
##습니다
물
##석
##들어
##슨
실
##역
아닌
##집
결
치
발
정말
##함
분
##돼
##매
##ᅣᆼ
##ᅳᆨ
배
매
했
##들아
새
##주의
그런
##사람
##켜
##좀
##죠
##근
미국
검찰
##울
무슨
##등
##반
##애
##려고
##ᆸ다
민주당
##태
##야지
##합니다
관
경제
망
댓글
정권
힘
올
##녀
같은
##박
연
먹
##적으로
돌
##ᆻ다고
너무
##혜
##프
##소리
##이지
##배
영
달
##크
##벌
추
본
##친
욕
지지
##놓
##인가
##으니
##OO
##ᆼ이
기사
넘
머
##희
근
난
예
안되
##어서
건
하나
계
##달
있다
총
통
##료
저런
문재앙
##날
에
##출
##빠
##입
단
##처럼
##이냐
##병
손
##ᅮᆷ
##격
##종
##ᆭ아
##긴
코
어ᄍ
끄
뭔
놈
막
##빨
자기
##입니다
세금
##리는
##한당
##들의
양
심
우리나라
어디
##것도
아무
한다
타
##갱이
##창
몰
##하네
하지
독
확
##는지
국가
##는건
찌
이게
##적인
잡
##들을
종
##자가
어떠
좌파
##이라고
두
##루
걸
없다
따
##북
##깨
자한당
##지고
얼마
##책
버
쓰레기
간
봐
##느
싸
뒤
그리고
눈
까
스
##겠다
죄
##들도
##겠지
##월
들어
##아서
##양
##쓰
##형
싶
초
판
##ᆸ시
느
##문에
그렇게
평
없는
##결
##줘
##말고
##폐
##가리
아직
후
제발
행
자유
앞
##셔
허
당신
잘못
##이가
##잖아
OOO
쳐
##럽
절
##이네
아니라
##순
##천지
누가
##악
임
##예
##잡
어떻게
끝
다른
파
##ᅥᆯ어
명
열
줄
학
##하냐
##복
나오
##지도
빨갱이
##ᅩᆸ
군
투
##인이
##정부
믿
똑
##온
속
##정권
등
##라는
##언
##열
조선
##억
며
##인지
##시키
토
##름
된
목
##류
##해도
##끄
이렇게
##놓고
##후
##근혜
##하는거
특
##현
언론
##꺼
##점
그럼
##이야
##한거
사회
##로나
##하나
##증
국회
##의원
##머
많이
##티
##록
필
##없는
신천지
##너
##변
소리
##편
그만
##어야
떠
##갈
악
##더니
##스크
직
##자들
엄
##않
웃
##핵
똥
게
##ᆻ네
##ᅲ스
##가는
싫
##거리
##는다
##절
천
광
탄
##ᆻ는데
이상
##총
친일
얼마나
황
윤
이번
태
##했다
##돼지
##된다
몇
##에는
ㅉㅉ
##외
삼
##충
코로나
##있는
운
##활
##ᆸ시다
살아
벌
##독
##어요
공산
##송
##국민
얘
국민들
증
##보고
##따
##께
혀
표
돼
##험
##강
##ᆸ니까
설
보고
거짓
사람이
수준
박근혜
권
여기
폭
보수
##하는데
##꾸
회
네
##착
##을까
##패
온
##락
##었다
꼬
##가서
마스크
##어도
수사
##ᅯᆯ
##넘
될
##정은
아니고
편
제대로
뭘
##봐라
정의
나라가
아주
선동
##는것
##약
##싶
##ᅥᆷ죄
##포
해야
##색
##와대
##에도
##엔
호
##지마
필요
##득
완
사실
세상
변
피해
##쟁
날
##늘
##지는
##다가
##아니
##품
##랄
##돈
ㅎㅎ
작
##탄
책
##이는
##굴
##기는
##투
##주고
여자
짓
응
만들어
이해
##찬
모든
내가
근데
##향
이미
##올
##황
언제
##팔
##정도
##ᆷ이
##혁
출
니가
##겠네
뽑
꼴
##설
먼
말고
##율
##구만
선거
##추
##나요
10
쪽
##ᆩ에
다시
좋아
갈
돌아
##승
포
모두
##ᆫ데
아이
하면
##릴
계속
빼
철
청와대
조사
##시켜
##하자
니들
##이랑
아베
아직도
##하시
##왜
미친
누구
받아
20
아닌가
##새끼
놀
##합
이건
만들
##리가
##목
##하기
##였
##알
개돼지
##검
틀
##환
논
라
##초
##가지
##어나
##죽
조작
##련
저러
답
보내
좌빨
대깨
큰
좋은
서울
##이면
보면
##립
##이라도
##습
존
취
##택
이유
꼭
##먼
##다니
찍
##없이
빠
홍
##폭
##러운
해라
##ᆷ에
말이
병
탄핵
##하라
팔
겨
##즘
짜
한심
##육
한번
대깨문
##하니
백
알고
역시
그래서
##같이
사람들
많은
##극
##다는
##값
함
그게
금
짱
##싸
패
##자는
##ᅳᆺ
##먹고
##하면서
대구
쉬
책임
##거다
트
깨
당연
써
약
##없다
##써
##텐데
##쪽
새끼
무능
자식
범죄
바로
##기를
##혼
##보면
재앙
##기에
국민이
##던데
##찌
##한다고
##익
부모
##누
나와
100
그렇
순
경찰
##만원
##돌
##철
##광
총선
##하는게
환
##휴
뭐가
##염
##인들
별
##림
글
결국
김정은
씨
니들이
##시민
퍼
극
없어
##어라
##해주
##당이
토착
##있다
가짜
##더라
기업
##치고
절대
국민들이
국회의원
##술
##뿐
##꼴
가족
##별
##성이
황교
##수가
산
바ᄁ
국민을
완전
위해
반대
세계
##중에
##범
이거
늘
때문에
##기업
나라를
##될
빨리
탈
##척
##움
준
##아야
폐
##이니
합
자신
아니다
##카
전라도
##퇴
##ᆻ으면
##는거지
##겠냐
적폐
##사가
##토
딸
##기가
질
있는데
어떤
요즘
정도
##규
베
떨어
같이
세월
너희
무서
사기
기자
##거지
이용
인정
독재
뻔
여론
##대체
##쁜
##좋
뇌
핵
##견
충
##많
##일보
##대통령
##지말고
##접
권력
장관
##는걸
##동안
더불
밝
##려라
월
##딱
##전에
귀
##거나
##무원
도대체
시키
##맞
##큼
데
##코
##ᆮ고
딱
찾
##ㅋㅋㅋ
없고
##평
##곳
##체가
사람들이
##담
달창
혼
거짓말
##손
다음
합니다
##것들
전부
##ᆸ게
##왜구
##지않
항
##것이
##때문에
지들
밥
##놈들
##ᆻ냐
##하여
##잘
구속
안보
보여
##사는
##아라
##지가
##백
##례
시작
##치는
세월호
##시간
##플
##탓
먼저
아님
멍
##되는
마음
##꾼
##가고
용
다니
##주는
##장이
희
메
##조건
키
##이상
##뉴스
국민의
##ᆺ불
남자
현실
입국
아니면
그래도
걱
##운동
있었
##징
식
##옥
##자리
협
어느
##응
##이라는
##경원
##라이
##참
##좌
##웃
머리
이젠
##막
사고
끼
##이란
##들에게
처벌
음
##탈
##량
##씩
##장관
어쩌
걱정
얘기
정상
나경원
그리
어려
내려
무조건
뉴스
공무원
30
리
##욕
##ᆱ은
앞으로
##하며
그걸
##셨
사과
##케
토착왜구
본인
길
어찌
##꼬
##하세요
시간
대단
얼굴
##되면
지원
응원
##첩
능
##존
##렴
##국가
썩
문죄
##머니
하는데
황교안
니네
##려는
행동
##시고
##와서
외교
##밖에
외국
##해야지
##당은
쇼
나도
##기도
##건데
억
엄청
상황
기레기
##주세요
있을
해도
##스로
##했는데
솔
정책
카
못한
##리면
각
하루
##들고
하는거
터
##뻔
둘
윤석
지역
##할수
##ᆺ다
##것이다
넌
##한데
사이
##념
아무리
끌
삼성
우리가
프
지랄
##기고
역사
##보니
##뜨
##라지
중요
모르는
아니냐
복
촛불
##팅
##쌍
##민주
##려면
##괴
##럼프
가장
대통령이
형
가능
대가리
##생각
시민
##럽다
##덕
더불어
##봉
궁
##아먹
이래
난리
##조사
검사
것이
꺼
##이러
점
##메
된다
먹고
##았다
##되고
사건
집단
저렇게
것이다
나쁜
갖
##깐
휴
개인
##대가
##채
공수
트럼프
오늘
징
미래
괘
볼
가지고
##나오
##ᆻ을
법무
진정
##력이
ㅡㅡ
일베
중국인
압
문재인이
##닥
##가요
##취
바라
쪼
은
지지율
ㅠㅠ
밀
50
##협
승
시켜
일반
##남불
##받고
해서
친일파
##킨
##대가리
##ᆻ나
##하던
쓸
증거
같다
##끼리
해결
##로남불
##간다
##딴
공수처
줘
##려서
##항
팩
숨
올라
##었는데
##대는
##도록
##리지
뿐
이나라
놓
##르고
울
방송
18
높
몰라
가서
##퍼
무식
찬
서민
##들만
최고
부끄
##나서
##거야
일본이
이야
페
##한게
##할때
##대표
##몰
암
되는
헛
##인간
정부가
힘들
##개혁
나는
전쟁
##해보
만든
면
##자들이
없이
##내고
##찍
##확
공개
##지마라
매국
진보
관심
##층
##난다
알바
불법
##브
창
따라
더러운
괜
로
양심
개소리
##드시
##혹
풀
팩트
급
##귀
착
##엇
반일
그때
##기사
##마라
갑
##에서는
##십
##튼
챙
##슬
##것들이
##페
##어가
##는거야
##답
##대한
거지
나가
있네
##야한다
진실
##세먼
##리를
##하는건
##허
부정
##이버
없애
정신차
나온
지켜
##드는
침
##놔
##자를
불쌍
##쉬
조국이
같은데
##경제
##심히
##라면
교육
그런데
가만
애들
골
붙
##조작
있나
크
##ᆺ지
미쳐
유시민
우한
##일이
스스로
여러
있으면
디
확실
해외
지나
##란다
살인
멍청
##마다
못하는
##원이
인권
잠
업
##칠
밝혀
##고있
##프로
했다
체
투표
전세
말을
너네
여성
##명이
##바리
##아요
제일
있고
##봐야
##탁
##ᆻ어
어디서
##겠지만
공부
담
무시
으
곳
내로남불
평화
있어
##식이
솔직
##진다
듯
사람은
사는
결과
조용
헤
##한건
커
맞는
맘
돼지
좋게
##문제
열심히
한국당
쥐
당장
##ᆻ지
##지면
##수도
안된다
##침
바보
##릇
하시
##폰
뻔뻔
위한
맨
국민들은
문빠
이명
가짜뉴스
문제가
개혁
##훈
미세먼
노무
##린다
종교
밖에
##보네
윤석열
잡아
##했다고
##랴
##마디
민주주의
##한국
##차피
네이버
이름
축
안타
##인은
학교
다들
불매
인생
지키
느끼
##덜
##금지
##동산
##즈
사형
반드시
간첩
의료
교회
##얼
월급
##부분
어차피
##학생
처음
술
##압
못하고
##는거다
거기
짱깨
##스트
틀딱
국내
##욱
않고
안되는
##워서
대표
규
##국에
##스럽
채
화이
##정신
##갖
택
##아치
##땅
##적이
번
##들과
##째
과거
하네
##아닌
것도
나이
공산주의
정은
##만큼
대체
해야지
듣
##은거
임명
노무현
정신병
탓
말도
##잔
기회
봉
반성
##져라
알아
뭐냐
안하고
하면서
봐라
사퇴
보다
##ᆮ어
사회주의
##뇌
##상이
##필
##라리
##던가
인간이
그러니
##틀
부동산
##으면서
있냐
궁금
##거라
있으니
##같다
##지지
바뀌
앉
조금
공산당
색
##쁘
결혼
##ㅡㅡ
학생
않는
안타까
좃
##버려
감사
종북
##벼
지가
역겨
일본은
보니
##단체
않은
것은
##에서도
##숨
##수준
공정
의원
원래
##을때
##이러스
모르고
##기로
##거든
격
##밀
뜨
##시대
##보자
서로
솔직히
능력
걍
혼자
퇴
년
##짝
괴
확진
##떠
모습
생각이
##구요
조선족
군대
##들한테
##사일
끝나
받고
##으니까
마라
이명박
당연히
젊은
##인다
헌
##하라고
멀
##앞
판단
차라리
있지
곧
이기
평생
비교
##핑
##빠져
조선일보
##멸
##그러
##장을
니들은
어린
##는구나
##밥
##쇼
사진
몸
하지만
##뒤
##인거
##조선
##순실
##숙
하여
이것
##놈이
사람들은
고마
##찮
##수있
40
지들이
국민은
법무부
##해요
##보내
뒷
싫어
운동
않았
도와
##히려
진심
##ᆯ까
나서
문죄인
정치인
##없고
자꾸
##자나
##골
들어가
기본
맨날
##아가
##국이
이재
오래
비판
잔
##정희
##말이
##선거
##져야
인간들
##삼
최저
문재인은
##지를
##식으로
싶다
한심한
##는거냐
사법
##우고
내년
오히려
보이
##눈
##축
읽
회사
##빵
아는
그거
다르
자살
##왕
검찰개혁
거의
답다
##둥이
감염
이유가
쓴
교수
하냐
##이라면
##하다고
무엇
##시키고
##했던
혹
##ᆻ고
##센
지금은
일부
매국노
##률
위해서
사라
##되어
클
태극
때문
##멍
없네
장난
싹
좋겠다
##자고
애국
있다고
치료
한마디
##그래
현재
있습니다
정부는
야당
쪽바리
##넣
##상도
했는데
사랑
그동안
##로운
##또
문통
친구
하는게
뿌
집값
티
항상
박정희
##라서
##노총
비리
##쩝
국정
대부분
졸
아냐
사용
그나
##성을
미세먼지
빌
닭
최순실
되어
흐
옳
정당
낮
##껄
##커
신경
놈들
이제는
넣
##됨
##에선
##들이다
고생
생겨
##가지고
##빼
##갑
##공자
활
화이팅
##수사
##더만
심판
일이
##에요
##힌
##만이
한다고
헛소리
##풀
너는
##님이
##지요
뜻
##나는
낙
알았
판사
그건
땅
분명
##시길
그럴
라고
존재
힘내
아들
##킹
그것도
기부
대학
##것을
##맹
주변
##었으면
가지
##뢰
아파
관련
##격이
##하겠
없는데
개판
끝까지
##0년
##사파
##집단
##하지만
##사람이
찾아
##시장
일단
전문
##르는
감옥
시장
이야기
##도가
##싶다
있음
드러
논리
눈치
##듯이
##둑
자리
돈이
##군요
보는
##할까
##바로
##똥
광주
최소
##인줄
직접
국제
##퀴
테
여행
기생
강제
견
##심이
##주면
##효
겁
##뭐
어이
전세계
##던지
레
깜
##분이
##싫
나올
##ᆻ다는
전혀
남의
이걸
할머니
물어
강남
15
##18
##봐도
변호
노조
기다
##때는
피해자
엄마
##정이
내용
##지게
##ᆸ고
##했으면
우리는
바이러스
##씀
심각
##하는지
##롱
##껴
왕
올려
미사일
##나게
독립
##쇄
##하지말고
의사
똑같은
선택
일제
응원합니다
쓰고
광화
##업자
것을
원수
##세력
##사건
자체가
믿고
함께
위선
미국이
대변
민족
슬
역대
병원
##것은
##시아
##쯤
사이비
맛
##논
##겠다고
검찰이
##거냐
아마
양아치
상관
무능한
##임금
아까
집회
우파
##더라도
털
##분들
너도
석
의혹
인터
##먹는
노력
주장
돈을
훨
떨
나중에
##시는
아닌데
태극기
##줘야
철저
ㅉㅉㅉ
사망
방법
공감
연예
##문회
이해가
##액
농
한국인
넘어
##가라
말하는
것들이
중국에
##우는
혈
##총장
이정도
늙
##쓴
##ᆻ던
##쟁이
##끗
##ᆷ마
200
하니
입니다
끌어
##기만
위험
하늘
사기꾼
누군
##두환
##가족
세금으로
##버리
##안부
온갖
하다
##정치
재앙이
##건지
##쓰고
##여서
답답
대책
접
어쩔
시대
##갱
##사고
가만히
그저
상식
##웅
기대
비난
없음
##해야한다
알아서
##수록
일을
##ᆷ새
##곡
##놈들이
특히
잊
준비
##클
##든지
##습니까
##아도
##략
##둥
재산
많다
뭔가
##볼
##보는
##상을
최악
ㅎㅎㅎ
말은
사태
##껏
느그
##온다
하자
말로
##당히
자빠져
엉
##지말
##하네요
자유한국
일자리
흔
기억
##있네
몰아
##ᆻ음
자영
##하니까
고소
싶은
밑
그러면
되고
##풍
##많은
부터
하세요
##느라
택시
혐
대기업
물론
##하려고
##부대
##낸
대해
전두환
##합시다
##지원
##선동
안전
처럼
##나면
페미
즉
똑같
##나고
주사파
##을거
##낙
##이라니
##팔이
당신이
##할거
무너
사람을
북한에
##붙
더이상
##정을
것들
대선
확인
바랍니다
##른다
통일
본다
이럴
억울
수출
똑같이
목숨
가져
만드
뭉
##철수
않는다
애초
에휴
##만명
그대로
아니라고
25
의심
조용히
보호
살고
기술
##세금
##려야
나베
여당
##딸
##자기
자랑
##건가
##스럽다
##만에
일본에
아니지
위안부
안가
##는가
덮
##위해
미통
##어야지
##ᆻ으니
##관계
##냐고
돌아가
놈들이
빼고
##맛
이리
수도
##정책
염
##둬
수준이
##단다
북한이
2년
##이들
짱개
국개
문재앙이
동네
보기
에라이
가는
옹
##그네
##중동
바꿔
##생활
##자로
깨끗
노동
##한다는
##엘
##똑
만들고
##튜
건강
여기서
##씬
대응
##져서
##딩
모자
영화
휘
청문회
##블
##라니
죽여
##교육
##겠나
칼
진정한
되었
가라
받을
쩝
생각하는
중국이
들고
의미
관계
인사
운전
##레임
고통
##탕
##주도
##인가요
##만한
남편
막말
집권
하나도
힘든
##사회
꿈
지난
기생충
자국민
민노총
아파트
가진
는
떼
##픈
못하게
과연
이놈
##물이
뛰
정은이
##수를
##특
왜구
##ᆻ는지
##해봐라
한국은
##해봐
##사람들
##자들은
벌써
##잖
기가
표현
분노
깔
괜찮
##둔
##줘라
##범죄
광화문
굴
지도
##나가
및
웃기
판결
##렬
##잖아요
##되지
아무것도
때려
아예
지금까지
##둘
최저임금
##슈
##받아
시진
서울대
악마
금지
##ᆺ날
##민주주의
봐도
투자
아프
주고
지금도
뽑아
되지
##진국
진중
##두고
저게
##했네
안돼
한심하다
##하러
상대
해주
##덩
그나마
##하려
##가가
이상한
##겠네요
쏘
출신
우선
문씨
뭐라
청원
보도
인간들이
##명을
딴
시위
##방송
##내는
아가리
어휴
러
포기
##력을
##녕
##댓글
##으며
할수
까지
조중동
잃
잘못된
낳
문제인
하는짓
##다면
민주당이
대한민국의
놈이
없어서
족
##언론
옹호
##한것
##었나
##따위
대한민국을
##일까
좌좀
치매
##ㅎㅎ
다녀
##최
이래서
바꾸
부산
더럽
범
죽은
저지
발언
하지말고
전화
입장
대놓고
##좌파
##자도
늦
척
국방
##박이
##없어
##겠습니다
##을텐데
애들이
없지
법을
애초에
설치
두고
##트남
강력
벗
저거
옆
한테
##잡고
##객
본인이
관리
집에
이딴
헐
가격
일어나
유튜
덜
입국금지
##폐렴
##춰
##공산
노인
##뽑
닥
생각을
##돌아
중앙
그렇지
##당한
단체
삭
##놀
그래야
갑자기
덕
발전
불러
진중권
불매운동
실제
한국이
정확
##농
##ᆺ네
극우
사업
##미향
##여행
대한민국이
조심
말씀
쓰는
##겠죠
안나
문정부
훨씬
##반도
##묵
되면
죄다
생긴
말아
칭
##쓸
아버
##하는것
싫다
투기
혜
자가
##으려고
가스
굳
님
##사를
통합
##을듯
유치
##있고
##있냐
묻
주둥이
##머리
##서는
##독교
ㅜㅜ
부족
##드리
##황이
##슬람
악플
당선
##인의
비례
##OOO
선동질
물러
##시켜라
돌려
없으면
##깔
영원
##쓰레기
##혐
제정신
제목
쌍
##년이
##가능
똑바로
##는건지
##버리고
을
남한
##인듯
원숭이
##슷
멋
윤미향
##균
##시킨
경제가
##구리
부르
##힘
벌어
지지하는
범죄자
꼬라지
인민
나라는
도둑
##루킹
##하더니
##사태
이번에
부탁
집안
ㅈㄹ
##수는
짐
행복
자격
우리도
##하겠다
##질이
생활
##지로
##했냐
##이트
##위에
삶
##제에
든
짜증
##고도
##체를
##자식
##같은데
캐
알려
기사를
##달라고
##였다
12
##가락
충분
##떨어
베트남
조국은
거리
무식한
##니깐
없다고
##인을
##있는데
미개
재판
민주화
박원
민주당은
희생
불안
물타
호구
소득
##짓을
똘
정권이
전에
밀어
이익
있어야
아닙니다
구라
##없네
##가면
청년
많아
##자의
얻
##완
수십
않나
짓거리
쪽팔
##는건가
손혜
경험
##먹은
신고
따로
##끝
자유한국당
환경
살아라
방사
자기가
##헌
당신은
장사
##하신
송
##간에
있을까
##학교
##러워
3년
쑈
이중
##미터
나라냐
##겠다는
##한번
##었던
지겨
##ᆫ다
##칙
이러니
특검
##인들이
감성
##ㅉㅉ
##롭
##수수
지방
##받는
재미
60
폭망
꾸
핑
전국민
잘하고
어째
있다는
##미애
##빨갱이
##쥐
혹시
##에만
##먹을
직원
##대중
##넷
##개월
육
##려나
이런거
##하지마라
등등
있는지
##애들
도움
하는지
놓고
비슷
쓰레기들
##땐
미군
##했지
빈
다행
푸
놔
효
##지역
10년
찬성
국민들을
대통령님
쩝쩝
##조차
518
문정권
언제까지
분열
시진핑
북괴
##19
##었네
운영
보여주
##떼
수입
##폭행
개가
유공자
나오는
##콩
우리나라는
가해
##독재
##보수
멍청한
올리
받는
맞다
생기
아닌가요
생산
기준
##부로
매일
##쿠
점점
당시
##당에
##측
맡
헬
빠져
확진자
##까봐
처리
19
##션
싸우
##는건데
걸려
##몽
##기들
승리
##ᆫ드
##할듯
뇌가
중국은
##득권
쟤
발표
##털
##걸로
적당히
있는거
신뢰
##구먼
희망
교활
##화가
입만
있어서
##나간
빨아
세상이
꼴통
##집회
뒤집
총장
프레임
저질
하던
발생
##ᅭᆫ
##치가
##재앙
미안
##준표
죽을
유지
##ᆽ어
##했고
##좋은
##ㅠㅠ
##해주세요
##짐
품
삐
너같은
##일을
만드는
정보
법무부장관
썩은
어제
##공개
안철수
##하다가
##졸
감방
아나
방역
바란다
##어리
##000
저기
##지네
전국
받은
한국에
씨부
##있나
##말로
ㅅㅂ
##양이
숙
주는
문대통령
만약
##레이
공격
인구
조국을
##장에
흘
대통령은
잇
##준다
끊
##렁
##본다
##끔
##잇
##춘
요구
가고
밝히
명단
##ᆻ습니다
나라에서
가면
아니야
그러니까
쯧
없으니
돈으로
자유민주주의
##었지
##싶은
##헤
원전
빚
##라인
남탓
고민
##칭
친중
##벽
##끌
##듣
사람도
돈벌
죽어
##대고
무서운
드루킹
인터넷
문가
격리
##쯧
##아닌가
헌법
##도로
게임
##짱
1년
없나
홍준표
혜택
##리네
정의당
못할
##믿
훈
고발
취급
바른
하기
예전
##치를
쉽게
70
소비
받았
존나
떡
새끼들
경우
##검사
가르
히
##들이나
##사람은
##부모
기득권
##까요
무죄
방사능
##상에
확실히
의료진
##ᆻ구나
십
즐
##석이
만나
웃긴
던
##새끼들
##진짜
##심을
어이가
누굴
##님들
##만도
옷
정경
대처
옛날
들이
##ᆻ을까
믿을
성공
##보기
손혜원
노예
##악한
감정
답이다
나라에
자한당은
##보단
주식
비싸
협박
##도를
정치를
물타기
##오는
쉴
철저히
일본의
대통
##로는
##었고
자신의
##츠
나ᄂ
지껄
개발
##픽
##엄
목사
##감정
뭔지
##용이
좋아하는
저리
##놓은
하지마라
##부가
의견
자한당이
마세요
##길래
##턴
굳이
##구석
표창
보인다
그러나
##때문
대한민국은
가까
결정
정작
느껴
착각
지옥
지구
대해서
##혈
하긴
##하지않
##보다는
물고
답이
살기
##납
됩니다
나라의
선생
이후
##한다면
힘을
관광
##장은
추미애
##으라고
##말을
##ᆯ리
냄새
죄가
##타령
유니
이지
똑똑
달라
한거
통계
국가가
##했나
찍어
많네
없습니다
##기관
##겠어요
힘들어
기독교
단식
이제와서
##안하고
##저리
유럽
마찬
군사
전염
##되서
문제는
떠나
미국은
##겠어
취업
어려운
세상에
여자가
나오면
##쳐서
바람
이만
신문
두려
##스테
나와서
##김
많은데
##때도
일으
져
듣고
말아먹
존경
변호사
##의를
한반도
가정
우린
##때까지
집에서
일본을
배워
꼼
뭐라고
하나님
##랙
유튜브
참으로
갖고
둘다
또라이
아무도
##궁
평등
국민들의
늘어
##누리
##겁니다
보자
강간
##지막
대출
##싼
##받을
남북
##섭
여러분
했던
운운
리얼
광고
##적이고
이민
##바ᄁ
버티
##복을
##일뿐
이낙
##일본
수구
삶은
##빈
OOO들
최소한
빵
발악
##이든
##상은
근거
조직
용서
##으로서
시원
여론조사
##가를
다를
##맨
자빠졌네
##돈으로
##출신
규제
##하겠지
##화를
##소년
##짜리
동물
##한테는
거다
##된다고
##봤
죽창
미통당
왠
##웨
##낼
힘내세요
##연금
갖다
##보지
대깨문들
자기들
자존
한명
뽑은
타령
대신
마약
##수수색
##바닥
법이
없냐
##일은
기소
##해줘
외치
않을
첨
##도는
##있어
등신
##조리
##ᆻ다가
20대
##테니
도덕
씹
눈물
정신나간
댓
##이를
대단한
##낀
##햇
##지어
챙겨
감싸
##리기
우한폐렴
워
풍
도망
##없음
했으면
통과
한번도
##거고
애비
합시다
말만
##널
쉴드
##그리
이시
대다
러시아
##민족
##얘
##하길
정치적
아줌마
##아니냐
##로지
없을
##었냐
ㅂㅅ
##상으로
기분
##느냐
검찰은
##있으면
손해
##았는데
씌
##시켜야
납
##씨가
생각하고
##청산
마치
김대중
수가
실망
문슬람
##움이
##것들은
빙
자동
##신도
좃선
맞지
##뜻
##억이
이낙연
주세요
##짓거리
주민
해체
죄를
움
풀어
##벙
##땜에
성폭행
##필요
##거면
빨갱
폐지
쫌
퉤
일은
자영업
##시절
경상도
무기
유니클
##누라
필요한
자본
대단하다
크게
##가야
홍콩
##ᆿㅋㅋ
어리
##이지만
##당하고
##분에
철수
대변인
팔아
동원
연구
##셔서
##아니라
상황이
##넘들
압수수색
홍어
##아니고
##었음
##검찰
마지막
##우면
우리나라가
시절
외국인
정신병자
칭찬
##됩니다
김일
털어
##스러운
오르
부끄럽
넘어가
진행
좋다
싸움
실패
죽이
##한거지
흑
##권을
##무시
프로
##금을
이것도
##졌다
나온다
##리게
##아지
긴
##여자
한국의
겁니다
생각은
##책임
정권을
직장
저도
##시면
##쓰는
문제다
##농단
믿는
향
우리의
하게
중요한
##이로
아베가
##아냐
##참에
##긋
##이네요
자녀
이만희
가야
##위를
##속에
더욱
빡
정부의
마찬가지
한달
눈에
간다
좋다고
##나와
정권의
못해
##달라
소대가리
문화
자주
튀
참여
초등
##받은
이루
거부
개돼지들
##민주당
세력
달려
아웃
##되는데
오로지
일본과
##닝
를
옮
##뛰
##말은
##캐
##성은
괜히
또한
##어준
김경
적극
와서
라는
깡
늙은
최악의
박원순
배달
##바라
##시에
직업
포함
짓을
뇌물
##원에
뭔데
##안이
##빠진
##ᆻ어요
인물
##으나
##놈들은
봐야
통제
##뿔
단순
되는거
그지
이재명
받아야
##할것
##원도
소설
후보
해봐라
##활동
핑계
하야
되는데
묵
##위가
##시키는
보상
공짜
어른
##잘못
합의
##떨
##예요
##사실
화가
##림픽
##르게
끌어내
북한은
무섭
##비리
##이도
놀라
##쳐먹
거기에
안타깝
쯧쯧
이해찬
한일
##ᆺ고
뭐하냐
##상황
##하는거지
##닫
있다면
무리
블
무지
살려
역겹다
나눠
완전히
물건
##질을
##투표
##쩡
현대
이유는
1도
##교수
##았네
임기
##있음
진실을
감사합니다
이참에
벌레
##놈은
##께서
연예인
몽
자연
책임을
##으려
##시기
설명
##공산당
##혁이
배신
지능
나쁘
창피
재난
그런거
##꼴통
생각해
마이
브
으로
미리
##했는지
맹
좀비
상태
##물고
전체
##하는구나
##통수
##기전에
내부
##오면
쌀
유니클로
하여간
언론이
##좋아
영원히
김정은이
##원은
큰일
구분
##관이
##놈의
##줌
우습
현정부
부모가
##친다
두번
11
욕먹
됨
300
한국을
##는것이
##대한민국
##시오
나불
정부에서
쫄
유승
나타
산다
활동
별로
##감이
##ᆺ이
하라고
하라
소름
민생
죽음
##되냐
몇년
##리냐
혈세
##하고는
##획
정권은
공장
짤
한국에서
뭐하는
##입국
##일에
##위기
팬
##네들
후손
##휘
정상적인
##운전
미치
당연한
##사람들이
벼
흥
반도
##십시
나머
움직
##는다고
선진국
80
내고
##스럽게
##제품
저래
##석희
총선에서
##조가
국민에게
그것
만들어서
##법을
노래
중국에서
맞아
##겠니
욕하는
##뷰
배우
국개의원
##위원
##기나
이겨
부끄러운
##든가
##지에
일어
##벌레
개념
변명
동맹
합리
너가
낫
##쓴다
함부로
맘대로
##내서
##겠는데
##ᅩᆫ대
놀아
섬
##아이
봅니다
##다운
위에
숫
않으면
팔아먹
전형
##그릇
##버린
황교활
아빠
좆
##푼
전교
챙기
저딴
되냐
단어
##잡아
있지만
불리
다시는
걷
전문가
##만으로
나대
##주택
아닐까
성장
##르스
##꺼다
##으세요
검색
좌빨들
순간
##하지마
경제는
세금을
경쟁
불편
애들은
충분히
##륜
불쌍한
세뇌
법무장관
달창들
높은
문재인과
한다는
##나네
##발이
흉
부패
##ㅜㅜ
##대를
찬양
마누라
##많이
사법부
해보
알지
잡고
##ᆨ스
##해놓고
천벌
자위
벌금
굶
분들
##듬
치고
음주
좌파들
뚜
##했을
##라시
갔다
임금
##리자
##ᅡᆼ비
속이
고려
원하는
##믄
##아리
##었어
공천
빨갱이들
있어요
모른다
##소득
혁
느낌
거기서
웨
##디어
영향
##하셨
##제를
##거리는
동의
일부러
이혼
대화
모르겠다
시급
클럽
##원에서
만큼
##위로
혐오
##마트
##아주
##정당
나라꼴
아쉬
중소
##판에
잘한다
##스런
너나
##수로
대통령을
##임을
국민세금
예산
##드립니다
부정선거
##전쟁
타고
한미
##보험
##안에
조만
##인도
이라고
##원전
쿠
모조리
##셔야
##늠
안하는
한두
##을까요
무뇌
에이
기도
아래
보유
몰려
결론
##맘
보통
##와라
##즈아
이어
##방에
그만해라
하더니
있는게
지지합니다
지금의
국민들에게
뭐야
안나오
예배
##세상
사실을
##서야
하는구나
##것같
아이들
##하시는
##레스
추종
##했다는
꺼져라
##하려는
##리아
반미
퍼주
##지사
비정
말한
득
자체
틀린
##았으면
##씨는
양반
논문
목소리
##봄
모를
90
##따라
사장
안다
떳
의무
당하고
##국의
##지나
일본으로
하지말
했다고
박그네
아깝다
##라스
무섭다
##상태
##줄알
##되는거
##리라
##이여
갑질
##하긴
윤석렬
스트
##촌
너거
난다
짐승
명예
폭행
이성
자유당
##떳
##아님
운동권
##장에서
겨우
##앞에
##겟
##소미
널
차별
생명
201
##의식
##지라
##촉
##치면
##회사
##슴
입으로
##재산
지하
재수
짖
하지마
예수
##이에
꿀
낸
##쳐라
##대의
소리를
수백
이용해
##찾
심지어
참고
##타고
##나온다
##치기
새로운
이분
왜곡
머리가
뼈
당당
그렇다고
##뇬
주제에
쉐
##패스
고위
훌
개학
##리나
장기
##노조
경찰이
##만들어
북으로
고용
김일성
##이래
여론조작
이다
문재앙은
돈은
##이며
냉
복지
##해지
윗
사죄
먹을
모른
같아
##정권이
손석희
##안함
시험
뒤집어
민심
##곳에
한남
밖
ㄷㄷ
입에
질문
##뚱
옳은
뻥
##겁
##흐
##10
봉사
건물
취소
##저기
몰라도
##이유
구조
설마
데려
##신이
망해
##뤄
보복
그렇고
아닐
쳐먹
정도로
##쉐
저는
하여튼
대한민국에
지소미
박근혜가
케
##썬
이란
근무
남은
##비스
##제가
##하거나
쌓
겪
메르스
##대에
위조
먹는
제품
중공
전기
엄청난
기관
##ᆻ다면
폭력
##아버
일하는
뺏
유리
증명
##있지
그만큼
이념
임대
정신차려라
사회적
아이고
##륭
특혜
##워라
욕을
##발전
지겹다
줄어
신도
일도
이명박근혜
조만간
지급
낫다
##하다는
재벌
정경심
마음이
권력을
졸라
##수의
##좌빨
모두가
있었다
##제도
가득
멸
##들면
생각하면
##그만
##더냐
##룩
##하시고
국산
적어도
음식
남자가
앞에서
썩어
녹
##했음
징역
##의가
##알바
##죄로
##암
알게
대중
이정도면
##주지
않다
##에게는
꺼져
사상
위협
해주세요
##내야
중에
##사기
평소
개나
축하
1억
멀쩡
된다고
##져도
##국으로
##비가
괴롭
우려
인성
가지가지
이쯤
중국몽
부자
정치적으로
동안
정유
##해주고
500
이전
후회
너의
태어나
차단
가자
말이다
않냐
젤
##이기
##주가
##쪼
##선을
##세를
아버지
##년에
김어준
하려고
이런게
김정
방탄
##었을
다니는
절대로
유치원
버려
##이자
생각한다
겁나
놈들은
없어요
경제를
맞는말
##닭
##역이
##오고
##경이
초딩
잘살
떳떳
첫
하며
##쩌
##봐요
놀고
문재인을
##님은
저건
##새키
##으시
오직
민식이
박살
연금
##덩어리
어디가
##해줄
##부는
충성
공공
중도
인증
##법이
##신문
정리
##20
쓸데
이모
예상
이것이
고작
총리
안달
되나
추천
##입니까
데모
뿐이다
##댓
##석은
싫은
##인들은
##느니
##성장
여기저기
맞고
안될
허위
경기
ㅅㄲ
이런데
##제동
모지
신상
##빨리
##럭
##히고
시끄
식민
##줘서
##내려
##함을
##하죠
##자인
##롭게
유일
하니까
모여
##bs
사드
##대변
##마니
정치인들
전광
거야
붕
##ᆻ지만
##들에
엘
중국의
##있게
##짖
지네
꽃
각종
20년
남녀
고등
버닝
앉아
부들
쏴
##않아
트럼프가
##으신
##뜯
##과는
하는건
죽이고
##통합
적용
아이가
비핵
##하다니
코스
##하나요
콩
##이라서
뛰어
자존심
##매매
데리고
##라마
##제로
피해를
##한척
이슈
##남아
##유공자
##BS
##을수
못한다
##끼들
막아
이라
5년
##개발
##되나
안되고
##이터
힘들게
##정부는
##훠
##간첩
탈원전
제외
##동네
경북
기사가
지시
개돼지로
담배
깜빵
##롤
해야한다
잘하는
한게
걸린
전교조
꼰대
##차별
친북
##추행
모양
말라
작은
##하지도
정의로운
베네
매우
행사
##텔
알면서
##처리
생각합니다
##ᆫ트
훌륭
그러게
##껀
##럽게
##챙
비싼
##뿌
자영업자
감히
아닌지
##기자
사전
##망신
죽어나
여자들
정신이
죽일
##점이
##정부가
##흥
##보세요
##학의
제가
공급
산업
올림픽
##정보
비행
문재인의
만세
##음이
그만하고
모르나
연봉
시키고
너희들
##교회
적폐청산
이승
반박
미개한
보면서
##지키
지령
##롯
지적
흔들
있어도
##고가
분이
##사람들은
도로
##재판
해당
유명
##구멍
##뽕
##경찰
빤
지소미아
파악
돈도
시간이
##원을
남아
##했어
##계가
##래기
통해
안하면
키우
##ᆮ아
##bc
북한과
##곤
신기
제2
청산
##므
중소기업
##쪽으로
자신이
북한으로
##지못
리얼미터
비례대표
##득이
대박
인간은
##세대
짜파
반도체
남성
##가도
갱
개입
하는것
##잉
##30
##퓨
##칸
##당을
김제동
삭발
##세가
군인
달고
##한지
##리다
전광훈
##걱
기록
짝
##ᅥᆫ드
##ᆸ시고
##ᆻ네요
많아서
판매
좋아요
잘못을
다른나라
다가
인간들은
##잡이
민간
##ᆷ을
##매국
탈북
##르면
##바뀌
##시나
민폐
##었는지
##홍
마시고
##에겐
보이는
바다
##여야
진작
엮
일베충
##리스트
장학
##다녀
오늘도
올해
##할게
버스
##드려
안됨
##공화
살다
키워
인도
할말
##거임
장애
너무나
못하
##리는데
독재자
##만을
때문이다
가치
버리고
##장으로
##장난
늘어나
이래도
##자체
##바른
않아
추방
전염병
##엘라
##했으니
##이리
고집
돌아다니
신천지가
해봐
무시하고
##큰
##전히
##좃
웃기는
수많은
국익
어떻게든
##한가
겉
해놓고
##대응
##논리
폭동
것들은
문제지
##위한
##때마다
##반대
##시마
비상
##할려고
가즈아
교통
조작질
앵
장악
주둥
##ᆷ비
있게
지지율이
##때가
##ᆯ수
##일도
##규직
##싱
미국의
##50
##격리
지지자
어쩔수
앞에
보수가
인재
미국에
##때부터
추경
할줄
##기지
##성애
가난
안쓰
##대도
이니
##단이
같습니다
지금이
##ᆸ지
도움이
특별
염병
방해
##함이
한나라
##벨
##관련
##애들이
참석
떠나서
조롱
보소
당신의
##떡
지식
##없으면
연기
같아요
북한의
##하에
효과
##ᆻ더니
자본주의
##윤
내놓
윤총장
언젠
##업체
스트레스
니들도
##처벌
티비
있나요
최대
기사는
안됩니다
떨어지
##러가
측
##하든
싹다
처먹
##정도로
##in
##민이
약속
##자체가
불가능
추가
죄인
##있다고
당신들
가게
버닝썬
어떻
##이죠
멋지
최고의
##중에도
순실
공약
##정권은
바닥
싼
공평
##청원
영상
기자가
중국과
##았나
확산
국정농단
쌩
주면
##권력
주인
엿
뻔뻔한
잣
못된
##몰라
##국을
국가를
부추
할까
##국민이
해산
##가며
이순
없다는
떠들어
힘이
##장도
성범죄
##탄핵
맥
청구
살아야
남을
땡
정치에
4월
실수
상대로
##위는
##일베
##로만
우습게
보네
삼성이
##부들
없었다
##통일
1000
제주도
부분
성추행
14
##시죠
싶어
근본
##들이네
##아들
참나
계획
하나같이
자격이
구매
엉망
##인것
언급
30년
##로서
##셈
조장
##도안
깊
불쌍하다
보이지
##몇
##총선
사라지
##당의
때는
선전
저능
인상
##ᅪᆨ
내는
역할
해명
개뿔
그네
뜯어
안한다
ㅇㅇ
폐기
##후보
패거리
시민단체
감성팔이
플
집어
##인건
오죽
##히는
목적
악질
한마디로
##나라가
##됐다
17
고유
##안을
맙시다
##으라
보험
국민연금
화장
##생이
##비를
알았다
##빼고
##기면
되겠네
이사람
이언
##쎄
거냐
미래가
인해
있구나
##것다
못차
##개가
핵심
##재인
교사
않았다
##데로
서초
촉
어울
뭐니
구역
명복을
한걸
##으로는
재앙아
ㅈㄴ
##구니
것입니다
이번엔
##보이
김경수
불과
보세요
밥그릇
눈이
대한민국에서
##쑈
더한
##프레
지금이라도
시청
부디
맘에
##슥
##도소
영웅
##치지
열받
##하는거야
끼리
##💙💙
떠들
##준다고
정답
##마냥
알아야
욕하고
##모르
자동차
##부를
떨어져
망하게
태양
##부장관
##율이
위반
##인드
많고
##시지
##ᆻ겠지
사실이
21
##되어야
##는거임
##하시길
이새끼
##하하
망할
##였으면
##내라
김학의
은행
말자
##만하고
##되니
자식들
##만은
시킨
수치
써라
##거라고
##군이
욕심
인터뷰
퇴출
여자는
어지
##결과
독립운동
##후에
그것이
국가의
뒤에
##없는데
##빠리
무역
온라인
##BC
계산
현금
##기다
40대
덕분에
우리나라에
깡패
##통이
##합니까
노릇
일당
안타깝다
있던
##선이
못하면
재인
자료
에서
어디로
찌질
16
##ᆻ을때
##치한
##날이
##앗
##아파
##엉
세상을
##인게
아닌듯
불구
찢어
##끈
##럴
찌라시
##들여
궁금하다
거래
##었습니다
전형적인
빕니다
행태
##리세요
##리도
끌려
이미지
누구나
출산
##올라
문죄앙
##빡
보지
이득
검증
처음부터
죽어라
##익이
##인척
니네가
건설
##아니다
##들이랑
있어라
건가
같음
##다시
손가락
비핵화
##시설
##잠
##는것은
##하지말
역대급
북한을
폰
죄송
대우
생각도
성과
그러고
시국에
무서워
##샤
##만들
중앙일보
뻘
망신
어쩌고
하네요
대북
같냐
##자연
업무
진심으로
##에다
##년은
환자
세워
칠
그딴
##마스크
##잔아
밟
##어주
##걸고
##있으니
안좋
##년도
##수호
왕따
##분열
##보도
ㄹㅇ
도시
그러냐
##호사
##구로
능력이
##가자
나서서
##감을
멈
찍소리
경영
또는
부담
뜯
못살
##혀서
갈아
징징
펴
##처먹
1위
그들이
흠
##id
##는거고
5천
##겠습니까
적화
이런걸
##취급
넘들
##펴
하다가
아침
낼
평가
할일
반대로
언제부터
##하던데
##사업
##크로
##하겠네
##0년대
모든게
논란
필요하다
파렴
현실을
뒤에서
성매매
걔
짜파구리
가해자
##닫고
조센
한겨
같네요
실업
##이구나
앞뒤
지들은
기사에
객
문재인대통령
모아
##맞고
하겠다
##님의
동참
##시간에
내세
박사
새누리
시스테
배운
##싫다
청소
##되게
##권이
모르냐
좋은데
##만의
##해봐야
서민들
##북한
##들이지
##하는거냐
##났다
들어오
선거법
##융
컨
역사를
압박
##묘
##ᅰ손
##알고
대가리가
나아
##못하는
닮
오른
관종
갚
개같은
인데
국가에서
작작
동양
##세로
독일
명분
해줘
강요
2차
1인
비용
##했습니다
띄
네가
##답다
죽어도
##한거다
##보소
위기
끔
청와대가
지들끼리
##거같
환장
역겨운
투명
##미가
##톡
##팡
값
하겠지
새키
동남아
##가다
##시킬
안정
##적폐
##겨서
세금이
##쩍
여경
검찰을
##콘
기업이
안하냐
절반
니는
원칙
나오지
이사
##비는
힘들다
일이다
강화
이길
정부를
제재
##인사
봄
어케
##국은
퍼트
거짓말을
##비로
##화자
홍보
도와주
이하
횡
날뛰
##계를
##ᆻ니
뒈
##것만
뿌리
##자금
한가
소신
##영상
조폭
둘이
##이스
##보복
##였는데
##피해
코로나로
##센터
드라마
베네수
##시다
##벌이
정책을
후쿠
나랏
영어
뭐지
##하자고
개인의
경기도
안그래
##봤자
그렇다
너희들이
공직
수사를
13
했지
##식을
민나
같네
않습니다
##마저
##저씨
##on
##인으로
##충들
미국과
출마
피의
시켜라
좌우
이웃
갈수록
녀
바쁘
할배
천안함
##마리
아니지만
##는데도
##지기
시행
것으로
아무런
애가
대형
부모님
족속
당신들이
##흘
상식적으로
##뭔
혼란
##자유
조국의
다만
댓글이
인간아
##버려라
##똘
살아있는
보니까
합법
머저리
꼼수
##댕이
댓글조작
##구가
얻어
##an
##ᆶ고
##하더라
소속
##답게
없어져야
##당과
의도
끌고
집중
정의를
그들의
뭐하나
분들이
##일세
검찰의
진단
장학금
##좀해라
빨간
무르
전라
카드
##픔
요새
심상
웬
짜고
##치네
이런식으로
이를
##솔
대충
요즘은
##ᆸ네
유투
교도소
포장
독도
테러
##이들이
##아는
##컷
실력
##해주는
##영웅
줄서
허구
집행
대법
##듣고
찍은
정도면
##했지만
옥
##들어가
기어
일관
민정
이루어
마땅
입학
자국
##못하고
자유대한민국
반대하는
필요가
30대
##다른
대학생
##렸다
가족이
##하셔
##덤
##맥
##한테도
##운데
추잡
쏟아
##양반
##힐
##그런
자식이
##집에
##화자찬
상처
유승민
##물을
##곳이
##틀딱
입맛
총선때
수천
##쳐먹고
##스타
##나보네
헬조선
김치
코로나19
##병원
##점을
건데
공산화
찔
탐
아는데
싸이
남이
##톱
##적이다
##하려면
야이
악의
일본에서
##만하면
##악이
바퀴
##르기
##없지
조금만
##할지
스타
##지영
했냐
행정
그러면서
황교안이
##저히
폐쇄
뭐든
##말에
##관리
##한걸
세대
##하노
한사람
##푸
##ᆻ구만
##회에
중국을
##수석
표창장
속보
매번
파업
존중
올리고
##복이
##쳐야
##옷
장자연
여태
##모습
이와
그정도
##없다고
앞장
싫으면
##행위
음주운전
##무리
##십니다
대상
##정권의
나가서
##내가
우리국민
##소년단
##너무
모지리
이재용
전자
안되지
##뻐
사람의
##분들이
##지않고
전략
살았
##팬
##고생
##주의자
자화자찬
##대상
##물에
봉쇄
##겠군
했는지
사람들도
경고
##새기
후쿠시마
말이야
똥꼬
알아라
##띠
##줄이
마련
안해
##니다
##기술
##사랑
진영
##사에
##랜드
의문
개무시
분명히
샤
빛
##25
##조국
##빙
간신
##빌
##긴다
아들이
협조
발광
##은게
안되면
위로
##추고
소중
탁
이단
내일
바라는
장제
##이니까
근로
게다가
제1
댓글들
되어야
##법으로
클라스
##야말로
##ᆻ잖아
##주민
##싸움
대비
최근
##정의
쓰면
추진
동성애
기존
고향
##시작
##으러
결국은
다름
말인가
예전에
##었다고
##둬라
##산업
죽고
언론에
이순신
인지
방탄소년단
뜬
걸레
개그
거품
시체
문어
##고있네
행동을
##드만
차려라
##ᅲᆼ
##나니
말하고
##지마세요
수시
밝혀라
##색히
만만
유학
받아서
##청장
##못한
몇십
나머지
##팍
세금은
베네수엘라
누구를
##마음
##진이
구린
올린
좌표
##쟈
지내
호남
냅
않을까
##대강
오만
##었으니
##라며
##코로나
양심이
어린이
틀딱들
망가
바래
살면
댓글을
지나가는
##쳐도
주변에
##거는
##서도
##질러
나오고
이넘
##제한
소득주도
증거가
날이
결과가
뭐하러
나라도
저걸
정권에
##미디
##념이
##안되는
일으키
부부
읽어
##다리
##팀
저질러
##꿀
##이런
##하는거다
소리하고
글을
##상공
애쓴다
지역구
죽인
햇
저정도
##거품
닫
들어서
여야
싶으면
더럽게
##ㅅㄲ
##없어서
##살이
하던데
말라고
되었다
정수
다같이
##랑스
구역질
서비스
휴가
특정
위선자
순수
##명은
##중국
문천지
끝이
사시
통합당
그쪽
수호
##인간들
검찰총장
나라로
울산
길거리
시키는
둔
아부
어마
파탄
##명의
싸워
할말이
##는것을
영업
##격을
하는짓이
밤
없네요
가슴
자발
##보호
하려
##앉
##여라
##보다도
돌대가리
특징
망한다
어딜
끔찍
대갈
수석
다이
수꼴
먼지
##기네
정부에
##사퇴
라도
큰소리
##것처럼
##ᆼ크
아동
닥치고
##튀
누군가
삥
고맙다
##해져
탈탈
99
심각한
잘라
수고
좌익
오지게
어서
하수
어느나라
미래를
##가면서
##핵이
않게
##할꺼
감시
##가게
사람들을
이시국에
뭣
당연한거
줘야
커녕
하늘을
##용으로
##받아야
블랙
##붕
좌파들은
습
##밖
목표
##이라는게
##외교
##르신
##적은
무능력
차기
파괴
초기
방위
##능력
작년
건지
##서를
멍멍
저지른
자가격리
공산국가
안맞
실제로
##하구
면상
갈등
협상
##구라
모르겠
지하철
##해야할
절라도
진상
##성도
##성에
##차가
##든다
이쯤되면
쭉
한참
조선시대
기름
보내고
##ᆺ데
##경북
옹호하는
##썩
들은
조국과
##겠지요
받아라
소리가
잡혀
억지
벗어나
##높
##하겠냐
핵무
##시켜서
##지니
대국민
흡
##찐
슈
##가는데
나간
##정에
##중이
국민과
##았냐
##리니
가려
인간의
##리는거
컴
들어와
늬
##나도
맞네
마인드
보고도
나무
암튼
##회견
프랑스
##드라
과학
##주기
일상
배려
##승리
상황에
연합
중국인들
댓글에
##자에
돈만
된다는
지는
생각좀
##경욱
전파
##폭망
##전문
막고
박수
제한
##얘기
일본인
방향
폭등
강제로
일본한테
하셨
##겠구나
신경쓰
여전히
이탈
말하면
나라다
나경원이
##므로
##러움
항의
수령
##끼고
넘쳐
현명
마녀
##너스
말로만
머리에
할때
웃긴다
단속
##ᅪᆯ
특수
광우
삽
제2의
집구석
##리카
콜
분위기
색히
##폭탄
물가
상황에서
##ᆽ은
당대표
드디어
덤
의해
자유를
가능한
대다수
##인걸
걸고
##말도
##뿐이다
문제를
잘했다
기다려
빽
저것들
그러다
감옥에
파면
웃기고
더럽고
명령
##여도
##행동
##년간
##님을
애기
투쟁
감당
할수있
사무
놈은
대통령도
신청
태극기부대
나라망
새끼가
180
배상
##하라는
넘게
##학이
##딩이
저런게
실험
착한
한데
일본도
계약
무엇을
##꼬라지
##사로
붙어
##대변인
##겠는가
##우리
상승
맞춰
강경
가관
망언
대만
낭비
1등
##시가
좌파는
##수있는
원인
걸어
##공감
중간
박영
##적을
쫓
훠
##된거
먹고살
폐렴
이따위
민낯
##할텐데
왜이리
인천
반복
박멸
오염
##되었다
##지말자
조치
##종교
대통령의
우리나라도
힘드
식민지
해먹
2주
공작
공포
왜냐
노답
상상
잔인
남자들
말할
것이고
몇명
후진국
올바른
랄
살게
하는거지
기초
애플
이나라가
언론사
안내
명백
못하면서
##으로써
주한
웃기네
아녀
의식
##생겨
요청
달라고
이것들은
타이
공기
상황을
것처럼
든다
김진
부인
##ᆻ어야
입을
##친구
어느정도
소송
##났네
##했다면
##이라며
미국에서
웃고
##얼굴
망쳐
귀족
##제는
박근혜는
강력한
아닙니까
몇번
사리
천지
이용해서
##넘이
이기적인
인기
##을려고
민경욱
비서
여기에
있었는데
더듬
당사
딸이
##조치
비열
언제나
좌파가
이유로
##해야함
적이
사망자
중국으로
이러다
미국도
자칭
없애고
떨어진
##걱정
묻고
캬
##좋게
편가
밑에
공식
##하겠다고
어때
모습이
우덜
처단
인건
적자
아닌거
10억
이익을
개선
##흉
모욕
모습을
무료
사실상
살인마
입시
##다니는
잘난
##애들은
아시아
##먼저
이런건
고맙
해석
##률이
어디에
자제
옆에
나만
굽
내보내
##리는게
걸리면
중립
##들이야
죄값
##마자
정유라
##내자
기레기들
문재앙과
말에
##쥬
살면서
부들부들
들여
##래도
##는걸로
왜이러
그들은
정부와
임영웅
유전
자기들이
KBS
쓰지
방문
##원봉
##내용
덮어
익
전정권
일주
##및
정치는
시켜야
비슷한
화웨
이럴때
이꼴
입고
##몰이
##바이러스
북조선
뒤로
이나라는
개정은
##새끼가
몰래
코미디
슬프
31
찐
사면
##개혁이
열면
코로나가
먹여
당한
정확히
##다니엘
더불당
##ns
##는거죠
##못해
##써라
##법은
##숭
날려
##쇠
##쿨
견찰
해대
애를
코스프레
아픈
##ᆸ쓸
대답
##MF
객관
강한
선수
할것
##겨라
##궈
##버려야
##할래
##핑이
어떨
##행을
##시네
##였음
공동
정신좀
몰고
##등등
기레기야
토론
문빠들
아닥
띠
##사도
국민들도
양보
##가네
##직원
빠는
##총리
##놈아
믿어
환영
가벼
##지도않
때가
이유를
훈련
패스트
했을
##자와
않음
이끌
법원
영혼
##자에게
##비용
자극
##산다
학생들
지원금
##앞에서
비호
한국당이
받으면
와이
##놔라
##힌다
부끄럽다
증가
지그
##라는게
##봤다
한국당은
얼굴에
법적
없지만
보낸
못해서
##델
공지영
##읽
##같네
좋았
##당시
##국에서
24
##하느라
##하는것도
없구나
그놈의
##뱉
외면
탈출
##사진
##라지가
보장
어르신
휴대
##2시간
태양광
000
같으니
어쩜
##중대
##었지만
##기간
도저히
##묻
목포
후원
고인의
스페
사서
조민
쎄
##시위
##일로
OOO아
한글
##살인
수업
동일
굶어
##은데
식당
##아나
소방
인식
침략
사유
말아라
제조
##는것도
##밝
권력에
##수저
앞으로도
##마나
안된다고
##자다
살지
기자회견
##거래
##터리
차지
##가는구나
##냄새
잘해
대구경북
##의로
아우
안들
발목
편하게
놀러
보수는
##십시요
바퀴벌레
한쪽
##종석
권리
무릎
말장난
생각해보
##질은
무서워서
##수당
의전
깝
##카페
##사이
서서
정치권
있는가
선관
궤
비롯
강다니엘
할거
김종
##순간
##그냥
위장
연결
매달
사는게
잘못이
##춤
##부러
##만원씩
물려
주둥아리
소통
한다면
동생
##하잖아
두둔
무엇이
어짜
가족들
썩을
##사냥
##한거야
중단
이지경
##적도
정치하는
##딘
북에
정체
유가족
개돼지들이
##하고있
혁신
인가
새벽
지지자들
전수
##년전
말아야
##방이
국회의원이
##였던
엎
##이게
미성
##모가
모여서
재앙이가
##밍
##투기
##밭
##봅니다
광신도
쓸어
마트
묶
기자야
그런가
##개입
한걸레
##기위해
식으로
글로
그돈
했나
얼른
매년
##녁
질질
범법
##안되
##문화
시기
##달창
사라져
똘마니
조건
비행기
업체
##까지는
보여주는
인정하고
##뜩
맞는데
##er
지배
##스가
경호
새끼들이
김진태
깍
##하도록
##노동
답변
자리에
##자들의
치우
금융
##넣고
##들로
그에
올라가
거기다
롯데
했네
한표
덩
##줘도
##빛
##운영
##성공
낯
IMF
법은
##마이
신천지는
시대가
불륜
탄핵이
##여론
모르겠네
마구
안들어
##주를
##까리
저희
차이
아니네
먹은
산불
##ᆸ은
똑같다
아이들이
투기꾼
구입
##놈들아
##배는
##린다고
##당하는
살자
민주당과
##정하고
##ᆰ은
하루빨리
##무슨
그러지
협력
##장님
##ㅈㄹ
##모두
어떡
##다음
정신을
역적
제대로된
##선언
제거
비겁
피눈
웃음
얘네
줘라
바뀌면
현정권
##어난
있네요
불만
외치는
대가리에
반일감정
싶어서
근혜
견제
하도
일자
##버리는
수작
짧
##평등
안먹
여기가
아무나
종식
알았는데
##컨
부대
질병
##올려
##일듯
된장
시간에
##나지
비하
싸이코
정의가
##태우
김성
태풍
##아버지
아이폰
##드러
박탈
맞다고
뉴
좌파들이
끝날
발악을
가증
뱉
몰라서
50대
스마트
한겨레
못받
사회에
##노릇
차고
##인생
나누
학원
기업들
맞게
##지르
##밑
##의도
##리오
느낀
좀더
양심도
낙태
##나다
##지랄
준다
긴급
빠진
##였어
어쩌다
어머니
차이나
편의
일제시대
여자들이
##끼는
어렵
해외여행
##하구나
일본여행
퍼뜨
없는거
이나
내란
##아니면
구나
##많아
엄벌
말대로
##해야합니다
##점에
##실히
이것들
법대로
이라는
할려고
없애라
##대학
##수있다
내리
강하게
안된
##ᆫ드폰
작업
##이팅
##번째
개혁이
##낳
공정한
##만해도
##뚜
##주냐
##펀드
지경
뚫
주한미
##큐
##번에
##차는
민주당만
문닫
국회에서
##파악
##쏘
##오지
죽는
지진
석방
막아야
##십시오
법치
에효
##우파
빨갱이가
너희들은
미친거
생색
##인데도
간단
원내
허허
짓이
##스터
##어디
중심
왈
시대에
성인
정치가
답답하다
##꺼야
안사
##이지요
서초동
마음대로
들먹
주도
탄압
국민청원
기회에
##👍👍
##것같다
##해준
##구속
##이란다
그자리
##걸이
커피
자들이
누가봐도
##자들을
##기야
청와대에
##겠구만
어처
제도
따지
아름
##치게
##경영
냄새가
인류
##xx
사회가
권한
##모로
장관이
제시
비하면
##원수
##량이
시도
홀
##ᆺ냐
까고
투입
들어간
##었구나
마스크를
##보여
##아프
안받
나오네
##엄마
제공
비정상
진짜로
똑같네
아니잖아
##왔다
대통령으로
연락
##불가
##한거냐
청와대는
오는
더더
금방
어짜피
보건
훠훠
능력도
조센징
깨끗한
폐간
으이
이대로
##금이
꼴보기
##알아
쳐다
백수
자진
##핀
이언주
##깡
다죽
##테고
수구꼴통
##했어요
강행
##메라
꼬리
##싶어
마음에
##버릴
학부모
##셨네
침묵
##벅
정말로
문어벙
뒤통수
##문이
이승만
단지
평균
##ᆺ지긋
댓글부대
기자님
##ᆻ든
젓
싫어하는
##잖어
루
역사에
##는거네
모든걸
멀쩡한
##시급
##수준이
##개를
법안
##플레이
정신차려
좋을
리더
빨갱이들이
살아남
각오
정직
오지
##였고
정의연
출근
##거부
##대기
##에게도
어리석은
안해도
치는
더러
할머니들
한건
좋고
##리며
야당이
수도권
##동맹
소상공
수단
인물이
분리
##할거다
젊
전범
##하는가
남자는
앙
##여러
폭탄
좋겠습니다
잡아서
##정한
자신들의
펼
것인가
감빵
보내라
##ᆸ이
##서가
##삭
하지않
수술
##자만
##년들
싸그리
##부지
##평화
휘둘
인간을
사모
머가
문죄인이
발사
##친일
홧
고대
##ᆺ는데
##으려는
며칠
우리를
문재인정부
##폭력
아시
취재
고스
될까
던져
TV
넓
##중인
어처구니
얘는
그니까
쫒
##점은
필리
온통
잘한
##40
많음
정확한
우리나라에서
미래통합
##인멸
##자라
사례
##ㄷㄷ
뭐고
엉뚱
방어
멀리
극혐
영국
##안보
모르면
확진자가
안간다
갤
가입
다스
적은
##ᆺ어
##지오
##거리고
##이란게
##걸려
이완
구걸
못가
##씌
##메디
##분들은
거덜
건드
##충이
##나라도
법으로
##판사
시비
다를게
##퉤
##뉴
##차를
위대한
##몸
안되나
미성년
조상
핸드폰
문재인도
특권
한녀
죽을때
벤
##곳에서
넘겨
##집권
열어
필요없다
ㅁㅊ
##노무
##내면
자세
##공무원
본인의
집을
아프리카
##같으면
지긋지긋
있었던
갓
##으로만
##막고
시발
##강간
굿
슬슬
확실한
##릭
쓰러
했으니
##였네
행위
##텅
차명
더불어민주당
공짜로
너희가
##하기도
현장
앉아서
뒤지
표를
##뻥
주범
좋아서
검찰에
열등
##점에서
끼리끼리
나라꼴이
우롱
##같아
언론은
##사상
부칸
갈라
##최고
보다는
##맘대로
##딱이
박영선
확실하게
미투
좋지
부활
내려와라
아마도
무기징
일방
더블
공안
곳이
학살
해골
삶을
이것들이
먹어
##위해서
고만
이런기사
##항공
김정숙
##주자
##찍고
전국민이
##스럽고
없어도
##리면서
겸
전원
모르지
아저씨
OOO들아
사세요
낮은
##ᆮ가락
##년을
맞습니다
나면
지역감정
##콜
안보고
##하고도
##탱이
##or
말이냐
##조를
##그램
새끼야
행동이
자신을
징글
휴대폰
낫지
전면
할듯
어쩌라고
끝나면
##스러워
##밟
밥먹
##주니
##뭉
내려오
침몰
막을
꽁
정권잡
저능아
주택
걸러
받는다
극복
대접
##소가
김영
무능하고
쪽발이
청와대에서
##건가요
장제원
새로
##갈등
##전이
도데
정치인이
악플러
##즌
해줄
피해자가
목숨을
손잡고
꼴이
증거인멸
훌륭한
##룰
가능성이
팍
다는
매출
불가
안되는데
##분은
##지않은
##어마
이러면
어용
올리는
##하는걸
##소나
떨어지는
##있을
유사
##국회
도입
503
마녀사냥
이간
배급
##라구
일개
##신고
땜에
##신을
##문재인
##준비
자기네
의미가
일삼
아이를
말해
끝난
##쁨
##트랙
쪽빠리
LG
##가나
아직까지
##동원
차리
만들어야
앞잡이
##보내고
세우
구경
마이너스
##세끼
##속으로
##륙
웃겨
본인은
##궐
진실이
##랭이
##파탄
짤라
싫어서
당당하게
없었
재인이
터진
##페미
눈치보
없는게
공무원들
##젠
##감염
베댓
##지않나
꽤
인간들아
이정부
##구려
추악한
어쩌구
##간히
어디까지
##토록
트집
##상에서
성적
##으셨
개독
인종
##쯔
방구석
지나가
공유
대안
걸로
##뇨
상위
좋겠네요
##하는건지
쳐먹고
##민들
나름
##통에
싸가지
##콧
제출
##하겠다는
있도록
##ᅥᆫ다
여기는
이자
기자들
즈
교체
애미
##칼
잘도
이땅
##수밖에
졸업
청소년
해요
반응
음모
한방
해외로
##켓
##조원
하나만
너네가
##세기
않나요
무소
못하냐
##사람도
##면피
인턴
자라
도발
##영화
됐다
알겠다
이제야
가야지
정권바뀌
##거든요
이뤄
##성과
##회담
동조
진작에
sns
정도는
##것들아
##시키면
##ᆺ대
##야할
모양이
있잖아
##할줄
##효과
역시나
모자라
망치
##쾌
똥개
방법이
##국당
조카
##동이
##첨
읽고
모르겠지만
##것네
잘했다고
##무능
죽으면
평범
비웃
현실은
유죄
받지
민좃
##발언
조사해서
##15
##졌
##ᆺ나
##하실
북한에서
##량한
있겠지
##ㆍㆍ
아니니
철저하게
##tbc
심상정
수장
퍼주고
주한미군
판사가
##오르
허용
차량
정치검찰
좌파들의
##치료
누구는
천박
다음에
2019
다양
나오냐
나이가
##사무
수상
##달고
민주주의를
##틴
##100
좋으면
월세
쇠
주지
소릴
##2년
중국한테
당신도
대가
대로
##비도
##린거
위원
개검
##서에
끝내
쓸데없는
군대가
부끄러운줄
국가에
싸게
조금이라도
##수하고
##속에서
##께요
있다가
마냥
본인들
좌파의
##였나
뻔히
들아
사람에게
삭제
뽑았
주장하는
##게이트
조국딸
맞음
만들어라
몇백
##지원금
오면
##혼자
##단을
도데체
##네ㅋㅋ
##들이고
##공화국
정신승리
민주당에
##력으로
##주로
돈주고
##연히
이정권
##부인
주작
원자
지속
멀어
##기와
##깝
대깨문들은
전세계가
팔고
깽
##적이지
##립니다
당하는
금액
숨어
##기준
보게
##꺄
##추어
어려워
##들어서
마음을
뽀
댓글알바
아베는
##😱😱
##없으니
##같음
체포
못함
울나라
파헤
되니
잘못한
몰랐다
하느
사악한
넣어
한국인이
넘는
##목사
##상관
동영상
기가막
구멍
코메디
위험한
##겠음
##자라고
결과는
문통이
##는겁니다
상속
##욕을
쉽
##인간이
##텐
무장
걸려서
돈에
일반인
실천
잘나
했고
연애
딸은
##되었
마스크도
##삐
명심
##윈
방치
우방
찌그러
##맹이
4대강
하다니
병역
앞장서
기각
조국수호
##해주면
##살아
손을
부탁드립니다
엄중
눌
대권
국가와
일하고
라면
##갔다
긍
웅
너그
빠른
드러나
쩝쩝이
쑤
##조직
죽이는
##이크
##없나
##산이
조사해라
종북좌파
우리나라를
수익
##비에
##찮아
슈퍼
##인권
박지원
콘
##정으로
안한
다르다
노인네
##간의
##질에
입이
물러나
사는데
##하자는
편파
채용
안할
말이지
##86
##없냐
있으니까
##에서만
눈깔
선거때
##바꾸
쓰레기들이
##선수
제정신이
범죄를
이놈의
##자료
625
멋진
매장
예의
나오는데
##하겠습니다
비밀
##이구만
손바닥
어마어마
완벽
##징글
죽어야
국민들한테
국적
트럼프는
##처먹고
관심이
무고
고문
날라
##곳은
##없애
##대국
그때는
상식이
##판결
##박살
소주
정은이가
동양대
뇬
##릿
한강
100만원
##려도
##경우
만원
돌아가는
나빠
숟가락
개도
##짓은
##절한
즉각
##고기
##소에
하더라
##있는지
아니라면
있는것
살리
##당으로
전과
##꾸로
얼굴이
##하는건가
임대료
있어야지
팽
##세워
엘지
##년동안
##놈을
통화
##차고
사냐
##치도
충격
하나요
받게
좌빨들은
회복
머가리
세금도
철면피
오랜
다음은
갑니다
모름
##돈이
##원들
##왈
누군지
교주
고유정
남편이
가까운
##낭비
##사나
##인에
안좋은
부품
기획
##망이
한두번
유일한
나은
##근성
망하는
##떨어진
##하고있네
되는지
나발
들어갈
때도
못믿
##겸
죽었다
제주
대해서는
##했을까
##환자
먼저다
페미니
말아먹고
아내
허가
##사관
유족
나갈
못난
유투브
여가
맞나
터져
원내대표
##으려면
개돼지들은
혹은
##분을
내려와
빤스
더럽다
하든
##문서
균
##해진
##분의
억지로
윤석열이
시나
옛
관심도
##한건지
##아파트
다닌
##어진
기어나
것만
유시민이
##못차
무기징역
진실은
kbs
##내지
오바
##소리를
장군
들어가서
짖어
##대책
못배
확보
전부다
##센트
##소를
경찰은
글고
희망이
곤
그만좀
항공
빼돌
##유총
대통령과
주댕이
안타까운
파렴치한
남조선
##육이
최대한
넘이
계시
이모양
추락
빼앗
실체
##쿄
연장
하락
전남
공항
여당이
깨어
전라도는
##아먹는
공소
##개념
##싫어
사람들의
처벌을
##하의
##지금
일본제품
차이가
##하진
##층이
못하지
##디언
각자
##인민
하고는
소용
넘들이
##풀이
까는
써야
글로벌
##ᆨ시
나팔
##투자
기사로
통신
##ᆻ을텐데
시스템
카메라
그땐
##많다
그의
파기
실질
##텨
타다
숨겨
돌아서
탑
김현
죽는다
여유
사람만
감동
최초
살아서
유출
##편이
택배
다해
센
안하
좃국
##댕
근처
검토
##스러
정부탓
민정수석
떨어질
변태
보이는데
##약이
##되네
심판을
지도자
국무
##대갈
##킬
윤지오
하나로
만들지
##갖고
최소한의
##ᅪᆼ
이동
작전
##만들고
뭐하고
##사람을
인한
##관광
찍고
사라져야
##시험
마시
##리에
조씨
뒤져
유학생
살길
수요
맞냐
연관
##뒤에
하다하다
중국도
##력은
불공
##ㅂㄷ
양성
공기업
조차
걸리
결론은
##부정
사과를
##전부터
##인거지
쌔
##보니까
무상
민주노총
패스트트랙
최저시급
생겼네
기원
##는건가요
놓은
만족
##세계
##세훈
수용
망치고
하겠냐
##통을
##였지
자금
국민세금으로
믿음
##퓰리
아니죠
무책임
##하루
##미사일
##돌아가
엄마가
유포
##키들
동급
이때
##리로
고쳐
##지냐
없으면서
많아요
급여
사전투표
##소에서
##랑이
그대
책임은
##옹
##위반
공산당이
설득
쯔
그날
##일텐데
##해야된다
법의
경제도
몇개
또라
선거에
법적으로
##해질
##나온
이쁘
차려
까발
정수기
안남
되게
상품
이번에는
짜증난다
엔
##놀이
몬
한유총
##있는거
생각하지
반납
##이후
작살
무한
나라경제
살해
많을
똥을
##궁창
하는가
다른데
세계가
꿈꾸
##프레임
그림
편향
자체를
문제야
단체로
권력의
발견
##집에서
더듬어
##거니
하신
당신을
모임
모르게
##이익
없던
부역
많습니다
장모
점령
하셔
총살
피눈물
공익
치킨
징글징글
따라서
##ᆷ시
##♥♥
##조금
순진
오지네
만들면
썩어빠진
처먹고
##대통령이
##봐서
친문
쉬운
죽게
언론의
세금만
고민정
그러고도
##우지
촛불집회
의혹이
비리가
민주당의
누구냐
얹
주차
똑똑한
그려
안중에도
##즉
##순이
정책이
##규모
##사냐
##재가
지지한다
##수작
##만명이
내야
##선생
후에
하늘이
있죠
##려구
##치다
이탈리아
대대
##두면
마당에
입장에서
정규직
다니고
##인양
거임
##간다고
중국산
반역
것임
같으면
현실이
즉시
끝나고
사람이다
뭉가
대법원
의한
##향이
##부터가
##싹
드립
될듯
##퓰리즘
미국을
방위비
##한것도
문재인씨
##복지
강력하게
걷어
등교
뉴스에
때려잡
숫자
소수
잘해라
분들은
삼가
##ou
유통
있기
##투쟁
##셜
만나서
##질로
싱
축구
##넘들이
총선에
준다고
##벗
##니가
선진
지랄을
##인지도
거고
##력도
극단
있으
##미래
버리
사이코
스마트폰
지자체
있긴
피해가
##위병
남들
##부도
##개는
섞
개혁을
억울한
몽둥이
##거늘
##자한당
저녁
피곤
##지않는
주위
##세에
입다
깎
이용하는
개인이
것이지
##거운
##유지
알바들
화웨이
##아내
##예산
초등학생
뜻을
##지않아
##바다
##믿고
봤는데
대리
힘들고
##포기
분석
##ᆻ군
곱게
##국인
영장
댓글은
대부분이
##이드
오지라
요금
##릉
저런거
정준
도배
고마워
사재
와중에
탈을
가치가
##혁명
##방식
툭
##로부터
##매국노
##의사
잘해서
소환
민주당을
싫어요
합격
국민혈
##살다
이렇
6개월
진술
##해가
같고
가세요
안찍
##집니다
##할것이다
줄줄이
##카드
많았
가슴이
중재
입원
##간이
##의혹
개돼지들아
서울시
지은
##쩝쩝
개정
지금처럼
관광객
싶네
이러고
싶네요
##ᆻ어야지
참고로
배가
맘충
너희는
까불
밀고
##했겠지
##룹
##로써
부정부
주제
헌금
길을
수두
생각해봐라
어려울
시기에
##안하면
조현
전쟁을
일만
순실이
인성이
회사가
풉
##지는데
정의는
내주
등록
더불어공산당
재인아
아작
지정
것에
##하고있다
명확
##al
닦
중국발
넘어서
평양
곳에
사생활
빨고
##ᆻ어도
##쓰면
##배상
##세는
한국도
매도
표현의
##이름
죄인이
주머니
구속수사
##할머니
황대표
##색이
틀니
##까진
사고가
화장실
##으론
김무
욕할
듣는
있는거지
##폴
우기
이번기
국토
듣기
올릴
##안된다
하는거야
##ar
하나는
##60
##것이고
35
150
인민재판
하시는
사퇴해라
##대지
##여러분
뭐래
##천만원
안에
##구는
##사리
##공장
싶은데
##화는
왔다
##이었다
하루에
야동
공중
##새끼들이
##하기는
하고싶
##우기
등에
아는게
들어가는
한자리
파는
아이디
백성
사고를
수수
잡을
인공
##거리가
목숨걸고
바꿔라
모범
민주화운동
그걸로
숨기
##종일
##그렇게
욱
국정원
광화문에
토착왜구들
한전
##군데
은퇴
야비
##천원
가격이
동아
꽂
내년에
김성태
##펑
아무말
상대방
마다
##연구
오세훈
##놈도
떠나라
선동에
새끼들은
##일이다
##눌
용기
내용이
##응이
있겠냐
들을
안되니
싶지
퇴직
아픔
##정에서
개거품
##우선
##꺼면
저런걸
##한듯
하던가
채널
어릴
##진보
고객
하려면
##되길
최순실이
##조는
냄비
##느끼
##일가
##형이
명품
##는다는
##에대한
시계
똘똘
폭발
##맞아
평화를
##들끼리
##끼야
부채
본인들이
댓글로
공수처가
다물
맞을
훔
##한줄
인격
##저분
##보인다
맞아요
국론
##껀데
했다는
정신들
천국
신상공개
신종
잘못은
쳐넣
개성공
신분
문재앙의
정치판
성별
모르니
##등급
정도껏
##만든
뉘
시골
안믿
되서
쓰레기같은
뭔소리
깜방
의도가
사회에서
붕괴
##있습니다
진동
알면
사태가
##긍
##시키자
교활한
추구
도쿄
온다
크다
계엄
##낮
##신교
악랄
적와대
이런데도
숭
시궁창
생명을
##받아서
잠깐
물러나라
아들은
마귀
##진당
소유
꽉
검찰개혁이
##자들에게
카페
비해
달리
##구녕
##수에
##생긴
##내기
들통
좌빨들이
종로
옳고
흘러
##죄를
##ct
곰
##ᆨ트
##있어서
똥싸
출연
##명도
입에서
추모
강아지
주체
못봐
철회
궤변
##대해
앉혀
황교안은
무관
연설
수준의
##돠
분양
##티비
##하던가
안락
푼
못하니
은폐
강제징
##빠는
돌아간다
##ᆻ는데도
수두룩
기념
말든
너를
알아야지
사건이
방법을
둬
험
##가격
##르지
지키고
사과하고
##멘
따져
인생을
찍소리도
소리는
잡는
##미는
##는것들이
##ᆯ때
국민도
이제부터
드는
##할수도
잠시
##민당
그렇다면
생각함
만들려고
펑
한계
##남자
##님도
같지
계신
하나가
달러
욕도
##규제
이나라를
##훼손
##성으로
어렵다
좋겠네
힘든데
생각해서
##방해
정신못차
죄없는
두려워
안봐도
##탄압
잡으면
##덕에
##ᆻ죠
공매
##행이
허락
공범
믿지
##섹
세계에서
##체크
인간도
##ᆻ나요
##나올
느낌이
채워
괴물
##드네
사람들에게
무덤
##했다가
없어져
바보로
그릇
공화
##퓨터
##보유
위하는
##줘야지
가끔
득실
##바람
##00원
기회를
ㅂㄷ
집값이
이와중에
일에
새퀴
된거
애국자
아니라는
나와도
##흔
눈물이
광우병
먹으면
싫고
책임이
##부족
##청구
개인적으로
사건을
저러고
합리적
연평
##싶네
조구
했지만
한마디도
지롤
고통을
김원봉
추하다
우스
노란
선언
##이란걸
##아웃
마니
##아래
사람으로
숨기고
##순위
여긴
국회의원들
31번
오리
모독
맞는거
질본
거지같은
정신차리
이완용
자한당과
##될듯
뒷통수
시나리오
문준
보이콧
망하고
눈을
##주는게
##되는게
짜증나
##쿡
안함
생존
박쥐
성경
나라와
##옴
이상하게
합니까
댕
##만하는
땐
##애가
##자격
무시하는
웃겠다
군대도
지어
따뜻
박근혜때
되도
안타깝네요
소리하네
날아
조국도
수는
##좋다
보태
빅
직권
몰락
당신들은
##사들
자는
했음
후예
##한심
모인
어디다
##하던지
누구도
##국방
이름으로
##받아라
##넘어
역사의
쌈
세습
##들임
카톡
일본가서
##실이
양산
별거
##저러
바른말
##하듯
잠재
##문을
실컷
게이
워낙
부정부패
왜케
##해서는
보수의
##고있는데
인건비
##죄가
눈감
사랑하는
##되야
알수
##디오
##열면
임종석
작성
##드냐
포퓰리즘
##미로
촉새
바쁜
남겨
트위
나중
담당
그치
##것냐
##번호
##가진
##투리
##주라
##세력이
##남용
오죽하면
븅
##입고
정의로
학생들이
##는것이다
혐한
##한사람
말과
사모펀드
##그럼
부도
##쑤
##장군
할텐데
안되냐
생각하냐
##할땐
##하더만
끝판
이번에도
알면서도
내편
##버는
##개돼지
봅시다
국군
셀
##국민들
##신은
가까이
##부에
##하는것이
##차례
빨개
막상
일어난
##멀
##어로
책임질
허위사실
북한도
앞서
웃을
여름
##권분
유공
안그래도
하시고
수능
가리
돕
법과
##버리면
접촉
자슥
한대
일본에게
##들지
꼬라지가
##것지
노벨
지지하고
키우는
##들하고
##그라
##년아
##11
##과의
##집어
민주당도
비정규직
필리핀
##절히
그것을
##모양
일으켜
좋냐
일어날
##쪽에
나몰라
이간질
해방
##누구
선물
에게
죠
보이냐
##보면서
교묘
개누리
##더군요
책임지고
대책을
##공격
걸릴
정치인들이
##스라
희대의
소재
탄생
시각
재앙이다
운전자
높아
22
있는건
##었을까
##저런
뻔뻔하게
##까지도
노망
해야할
과거에
대기
없잖아
##안한
토왜
떨고
모자란
쟤네
와이프
이런일이
안쓰고
##가냐
노출
벙
떨거지
드럽게
팩트는
뭐라도
법조
망치는
시설
핵을
깨진
내수
여자들은
지킬
노동자
개성공단
안심
건너
감수
네일베
입맛에
공영
나경원은
##리스
##내내
보여주기
##바꿔
안희
되는게
##랜
##지켜
치사
뭘까
##무서
##할때는
##세여
경제적
서류
입법
실업자
쓰레기가
이들이
호주
이것은
궁금하네
##주제에
수습
##배로
난민
##사의
줄이고
개똥
쏙
##뚝
결코
202
##사항
##일만
해주고
석탄
어벙
폐업
아오
##제재
저렴
##까고
당이
##불매
외쳐
약국
180석
##꼽
직무
##들만의
눌러
떵
##실한
얘기를
전직
##소서
역사가
서울시장
권력이
##도없는
##권은
##트롤
겨울
하던지
우와
아닌것
많으니
설레
##에나
##단계
취직
나의
##배가
토나온다
ㅡㅡㅡ
##라는데
생길
##감이다
돌아오
불구하고
잘먹고
##았지
정준영
##나오네
뚝
##걸린
##새끼야
이새
했을까
지저분
미래는
##려니
##왔는데
##식의
국고
##한거고
부류
##중인데
OOO이
##양아치
##야당
길이
전수조사
##속도로
아휴
손에
결과를
젖
##했구나
등장
##이제
오해
듣지
영원한
고개
생기면
받아들이
##시원
확대
세상은
##돈을
틀어
정신차리고
못하네
않지만
##감은
##로가
##기레기
제발좀
전환
##는것들
존경합니다
이름을
최강
원망
생겼다
##해보지
아침부터
못사
##급한
벌을
같아서
대구시민
삼성은
##원으로
##전을
폄
얼마전
폭락
어쩌면
무너뜨
그들
징계
몫
제기
기여
사태를
##것입니다
것과
증거를
평화가
##일때
더러워
장애인
불행
##파이
민식이법
##껍
이것들아
그러는
편히
독재정권
인생이
듣보
3억
비율
개나소나
안그러
##저래
임신
증언
에혀
언제고
했더니
액
##환경
##아야지
모르면서
곡
사람한테
##처분
##치냐
정부도
##한국당
##쌀
왜이렇게
없게
기사화
팔아서
택시기사
자유가
쓴다
안뽑
심한
##멋
##말종
간섭
##눔
뜬금
##도한
배부
대깨문들아
##훈련
##시네요
실행
세상에서
이번기회에
##주나
우리집
대마
##어야한다
뺘
남자들이
못잡
##병이
넣고
맞추
##한민국
사표
ㅂㄷㅂㄷ
말하는거
따지면
허구헌
늠
북돼지
##총장이
생각만
언플
죽을때까지
쇄
##븐
##선에서
가는데
##흡
박사모
왜놈
나옴
명절
잘사는
##하기전에
블랙리스트
##ᆻ는
노후
##반하
솔까
문재인이가
싸지
최선을
##데타
##찬다
##정말
있다는게
##팔아
숨쉬
##리들
##다니고
##퍼센트
있다니
3대
한숨
밑에서
나가는
##와는
공적
##분간
어쩌냐
공무원이
문자
jtbc
##자마자
공통
자식을
26
저것들은
철거
니도
없애야
##공부
##카오
##기때문에
고정
기부금
##길이
젊은이
##본데
뭘로
##안무
주둔
싫지만
닫고
##진영
##팽
##없게
자업자
##해줘야
작품
조사를
##시리
폴
개신교
저러니
팍팍
##ㄹㄱ
버텨
##보게
생각나네
##협회
##입장
친박
홍위병
부끄러움
아무튼
##분별
ㅠㅠㅠ
##움을
##한건데
##르르
##7년
##넘은
다행이다
신념
우리나라의
선생님
고의
등을
언론에서
비리를
더더욱
적화통일
세종
짓은
만든다
감염자
##만으로도
계좌
틀딱이
바뀐
##시도
일찍
부엉
조공
노인들
재정
낚
수준으로
선거에서
묘
##구조
섹
##at
경남
몇몇
마스크는
선동하는
시켜서
짜장
##와도
불통
##행사
##00만원
골프
가슴에
숙청
컴퓨터
감추
똥인지
##하시네
##묻은
이인
개미
##준거
수준을
털어서
할아버지
많지
회담
##스를
써서
36
애들도
하는거다
##장사
보내야
##ᆺ속
신중
굽신
입은
##성향
엉뚱한
54
하고싶은
이렇게까지
국회에
측근
미워
살펴
##테니까
할지
마스크가
대부분의
##권분립
##짓이
닭그네
내용을
하더라도
뻔뻔함
목을
##짤
##HO
니미
할매
쥐어
##도와
##만장
##드립
##레오
서민들은
굉
보이네
저항
제로
적반하
당신같은
언젠가
##5년
말이되냐
정도가
한통
전달
강연
촌
신속
버린
##누가
##모르는
쓰냐
##달러
쪼개
##낄
##료를
초등학교
한방에
##히면
유흥
민심을
##같지도
새기
그당시
사탄
##기전
영구
면허
##해지고
생각하니
##ᆼ입니다
##파는
몇달
지키는
##해야죠
##집안
##햐
##이용
이해를
##치는데
##조심
##실패
받아야지
골라
명박이
쩌
서울에
오를
맘카페
##만하다
##깨문
스펙
최후
몰아가
깨달
23
허구헌날
뻐
일산
손절
하나라도
##랄까봐
멸망
법도
안나온다
##안다
##늦
##었다면
1번
##좆
틀려
지들도
##못하게
챙피
최종
색깔
역쉬
##셔요
출동
뒤질
##변호사
##려다
기타
##나라로
다하고
주가
##임이
사회를
우울
살수
실현
선량한
##봤는데
사람인데
고3
##갈이
역사는
의학
안했
새삼
올려서
한민족
##장애
##TBC
말하지
##시대에
##게요
##모르고
##죽이고
##이요
사라질
##ᅪᆯ영
개탄
북핵
않아요
강용
##안하는
##옆
##혐의
평범한
##뻘
##지는게
##증상
##만개
평소에
##뀌
후안무
관련된
##었어요
서해
때리고
##12
콩밥
강제징용
중고
재앙이는
엄청나게
아까운
이는
은근
##사오
경우가
주문
관여
꺼내
지나면
든든
##짱깨
직원들
52시간
되니까
천벌을
보는데
##셨나
시민들
한것
지지를
단독
##폐기
속아
##주네
##히지
하나하나
너만
댁
##들이냐
##상승
여자를
##보로
부러
정권에서
MBC
대구시장
선조
여러가지
조선일보는
나타나
##봅시다
되어서
지금껏
쓰래기
##같은소리
걱정이다
이네
##라나
##종자
##차이
##매한
했어야지
폭로
실검
소위
경제폭망
##실을
설쳐
여론이
##이면서
영입
사주
##종북
논리가
##는거랑
##표가
##전환
##연대
##었다는
좌좀들
##질하는
하려는
총장님
되길
##눈치
멘
##om
##으로도
되야
고기
처형
##요금
시킬
믿음이
선전선동
4년
잘한다고
소년
의지
사건은
여적
모르지만
접근
개고생
당연하지
음성
자산
고졸
비아
잉
조국장관
##아베
신재
싶냐
##룬
몇일
오픈
##혜택
##지길
돈받고
다르게
나를
위치
개소리를
편의점
한국인들
##공직
형사
##꼭
문재인정권
감소
하나씩
의견을
조로남불
반성하고
유튜버
민좃당
추한
기간
오줌
때까지
했다면
안민
없으니까
좌파정권
일주일
박통
성희
조원
##살고
드러운
1차
말해라
한국경제
저주
치졸
##시스테
##이라는데
##관을
훼손
##he
건보
뵈
##리어
사대
고사
막장
깔끔
##상의
목적이
자식은
실명
귀걸이
##임명
##퉁
##ᆺ값
동시에
살아온
고급
통해서
##가로
자기는
손님
행동은
아버지가
##ᆺ다고
##당해서
기계
##받았
팩트를
척결
##대면
오르고
적게
여자도
##맞는
하자고
##인해
기울
##하지는
변화
박정희가
노조가
이들은
쇼를
말한마디
회장
하필
모순
##끼가
입증
##집행
교육을
좃선일보
미국으로
##받지
ㄷㅅ
생각없이
##죽을
하루종일
##로당
##식은
애는
놈들아
쓰레기들아
집단이
하겠다고
##소대가리
##됐네
사법개혁
뿌려
문재앙을
어렵게
##요일
2중대
##랩
##판을
##돌이
애도
속이고
##앵
전락
##교체
타격
간호사
호도
##럽고
이스라
##신천지
##모를
거꾸로
판을
어이없다
모가지
##죽일
JTBC
말종
##노예
집합
백번
##난리
혜택을
##80
##드니
정확하게
제압
압도
유엔
화이트
분야
##돌려
신호
쿠팡
쭈
자들
구체
##할거면
주말
##엽
참가
##꾸라지
60대
명백한
##공작
세월호는
##덩이
##치매
##겠고
중국인이
단단
우리에게
정치꾼
강의
돌리
싸고
5000
금수저
들어온
이슬람
그런데도
가난한
매크로
사회의
회계
편법
잃어
##ㅎㅎㅎ
편가르기
이스라엘
vs
메갈
모아서
##드나
그돈으로
오마이
짱께
공개해라
##사장
신뢰가
끈
2번
김재
##회의
문제지만
찐따
훠훠훠
##뎌
##ᆻ나보네
WHO
##할걸
실화
웃는다
예비
뭔지도
썪
문준용
##안하냐
2000
보나
생각하나
머리는
네이버는
가르쳐
##받는다
자영업자들
##도에
일본이랑
##실험
##또한
자기편
똥만
천막
정권바뀌면
구별
##두기
사이트
국격
최선
따위
태어난
100년
##할수가
북한한테
텐데
##통제
돌아가신
잘만
어두
##왔
북미
##시키지
선관위
경유
##영호
봐야지
다른건
전투
위법
모를까
##일당
##배우
##취소
다주택
저놈
좋겠어요
##할까요
유행
##듯한
##셨으면
역사상
북한군
대깨문들이
바꿀
##더라고
힘으로
이기주의
##되도
영감
거짓으로
##다닌
##로도
##사용
버릇
##들갑
힘없는
싸울
회의
정신차릴
세무
검사가
그런말
##인지는
##피셜
하나님이
필수
##할수있
기자는
##하십니다
배워라
펑펑
##줄도
##는걸까
늦게
개표
휘두
뷔
##안한다
##고발
우째
것들아
달아
떠드는
나쁜놈
국제사회
옮겨
손바닥으로
이상황
그리도
굉장
##만봐도
따른
호소
사실이라면
온국민이
##생산
죽여야
##근무
하라는
누구한테
##낸다
##화로
##했을때
공산주의자
압수
갔
마무리
않을까요
따까리
검찰개혁을
안써
댓글달
나왔다
기억이
멋대로
틈
이상이
##넘게
기본적인
기준이
##NS
##조기
스포
나와야
고양이
몸에
##탐
조져
##씨도
형평
판에
나몰라라
말도안되는
##이유가
서서히
구글
떠들고
만들어놓고
ㄷㄷㄷ
장하
천재
사실은
빌붙
무지한
유재
##인데요
소름끼
정시
##나라에
후보자
그놈
문쩝쩝
전쟁이
고등학생
래
##문재앙
##집이
기사라고
건가요
국가는
##힘들
민심이
의심이
버리는
##연합
신의
확정
인권을
국민에
유독
##개로
줘도
씌우
##없어요
의존
##감도
들어와서
자식들이
##어를
자리에서
##ㄱㄱ
부모는
곽
##나라를
##억원
개는
##시키들
##나오면
스티
뽑아서
가지가지한다
주요
외국에서
##가리고
개웃
색출
##동생
##키트
##했어야
##그렇
##촉새
의료보험
그래요
검찰수사
##팩
쓰레기는
시간을
하시길
빌려
생각으로
##70
고로
쿵
갇
##un
사이다
부를
역풍
내면
정부야
현혹
호텔
##안에서
시원하게
저소득
##입학
기사도
##잔치
강원도
튀어나
있던데
또다시
했어
하는거냐
##깟
정당한
집이
지켜야
배불
위하여
올리면
옆에서
못하나
##였냐
##값이
##받으면
##주는데
차리고
##렌
임마
##해결
##일으
##버리자
##해진다
강조
차명진
그래놓고
##걸리
언행
예방
카카오
활용
##잖은
한나라당
##대에서
##드로
##소수
##뿐만
살림
##mf
##나라에서
의사가
##번방
비열한
3일
사람이냐
보수를
##몬
이태
생각해라
뽕
##거네
##오게
여론몰이
수소
못사는
선심
##나와서
안철
전체가
##듣는
##보가
아베의
안하지
##안돼
넘은
##출산
여기도
##이잖아
##해달라고
쓰나
것인지
##박혀
도둑질
##보네요
다리
화력
대한항공
##녀가
##중의
##대비
경향
가로
보입니다
죄지
소리만
글구
문죄인은
골로
밝히고
공정하게
않는데
##버리네
찰
##하냐고
쳐맞
찍을
바꾸고
##무새
신이
선동하고
충청
무엇인지
믿는다
##할수있는
햐
거라고
안막
제작
잘하면
##거짓
완성
정도의
떨어지고
현실이다
##어려
##대출
해줘야
이제서야
##더라구요
입만열면
##나쁜
아기
다수
개를
비유
종자들
증오
##패거리
빌어
##면제
느그들
##자빠져
##부리
이중성
비참
경계
했어야
어딘
배고
##하니깐
새끼는
##별로
##바랍니다
사나
시선
물리
호들갑
축소
치워
보낼
국산화
대폭
경제에
수준이다
개소리야
문제냐
학교에서
패스
##뭐냐
안통
모르네
외노
싸우고
##문제가
퍼부
일으킨
##데기
##입국금지
밥은
하실
##것임
이상하다
대구는
##집은
##위조
비싸게
뮈
##주에
조정
##란게
치가
나팔수
##👏👏
##라우
가시
##같은거
##나오는
대학교
지럴
대상이
개수작
##오니
##월에
둘러
국익을
홧팅
##구를
집사
10만원
인력
찢
##기냐
미련
##스럽네
춤
##인상
##무가
##아닌가요
장난하냐
종자
교활이
##톤
갑시다
쓸모
신발
모델
안하나
임진
##한건가
외부
자한당의
글쎄
버는
##했잖아
##담이
##라는거
노트
전재산
쓰레
##하시면
강도
챙기는
괜찮은
유도
##평가
할게
##강산
불의
##방법
자중
이러한
끝났다
뉴스를
##당해
말투
노는
그런다고
기업은
떡검
국뽕
창출
성향
냉정
차례
개돼지가
상관없이
##주사파
일가
내놔
당할
홈
##심에
않았나
하수인
##섯
중산
형제
만드네
저번
##았어
작가
올인
외신
이인영
가는게
잡은
수사권
##도없고
##국적
하겠네
##인정
인원
부럽다
##안해
도박
하지도
펀드
교수가
낄
도움을
아랫
오지랖
죽어서
잡아야
미세먼지가
외출
유승준
될것이다
대량
보임
소독
##기부
70년
##웅이
소득주도성장
##ᆺ으면
국민들만
45
어설
많으면
종전
꼬박
##왜란
살인자
##게임
사립
맡겨
부럽
##았던
##홀
이전에
##인에게
여권
##바이
김건
##호식
##채로
##인증
토착빨갱이
논리로
##건만
눈에는
협의
사라져라
동원해서
기업을
안일
많다고
문통은
##❤❤
SNS
지오
##당께
것인데
##블릿
##당에서
있을때
나가라
간첩이
##돋
##실에
아무러
##설치
오늘은
##있어요
맛이
미군철수
울고
2억
고마해라
퉷
내내
##실장
치밀
열일
선거철
청렴
다른사람
##들인
##성화
횡령
##들인데
일자리가
##개표
이런말
법에
욕하면
봐주
우익
유권
반성해라
아니겠지
##학년
##러니
인간말종
하나의
검찰과
아베한테
늘려
골라서
##서로
하는건지
##된게
##야지요
##의원이
로또
잃은
##전한
##리는건
형량
밖에서
북한만
##물어
정보를
사안
성격
적폐로
브랜드
봤다
##릴수
차가
따르
태국
##지맙시다
새끼들아
##소로
##물로
##일까요
끼고
낙하
##여성
##했어야지
찔러
한푼
법인
없다면
피해는
아이들을
의원님
부작
##란걸
반일선동
안에서
시민들이
##스는
꼬봉
니네들
##아까
제조업
벤츠
안가고
끝장
본인도
##광이
빡대가리
욕만
증말
보유세
호구로
##이는데
##심은
이제라도
혈안이
문대통령님
분위
##생각을
붙여
##다르
시바
##ᆨ이네
바꿔야
##질만
거짓과
나발이고
##시적
##당할
아마추어
지고
젠
##방에서
문제로
배민
##형을
군림
조선일보가
##되어서
##징이
북한이랑
태영호
##될까
##라면서
##구장
##하기를
대표가
다른게
처벌해야
설레발
안하는데
에어
청와대와
프리
혐의
아닐까요
돼지로
광화문에서
왜들
##쭈
##납니다
개망신
나한테
되잖아
완장
중요한게
##차에
원조
눈먼
se
##정상
출입
##숭이
##깜
##NA
안팔
##하고싶
##회장
나가면
어이없네
##이겠지
##키는
다닐
##그대로
있었으면
##말아
왜그러
심하게
##째로
마음으로
어지간히
게이트
물어뜯
적극적으로
아가
살려고
정신병자들
찌그러져
똥줄
독재를
성희롱
##미친
##꽈
해고
해봐야
##중요
감찰
연방
##겟지
이름이
##뮤
##ᆻ자
발상
쉽지
가르치
하나님의
하태
##전자
미쳤다
명예훼손
가족을
흙
삶이
당을
뿐만
손학
대책이
있을까요
열등감
가수
##소리가
귀족노조
한가지
##하다면
현직
##국민들이
있었나
대통령이란
없었으면
자주국방
내놓고
허경영
받으
거시기
##많네
바이러스가
상당히
이인간
문화재
피가
답답한
##ᆿㅋㅋㅋ
그다음
그런게
모자랄
윤총장님
00
##였구나
수수료
##나갈
##무지
걱정된다
##국가가
##써서
##re
##진게
##물은
유시민은
그간
그들을
않네
어떠한
초반
이명박이
짓밟
영향을
괜찮아
조사하고
##새끼들은
다니면서
본질을
인신
몰카
다르지
도시락
앞으로는
뒷북
소각
엄한
떨어뜨
강남구
보일
소식
##어놓고
있겠지만
프로그램
지휘
##심으로
##해보면
##치않
교통사고
기능
사회악
##자랑
##자본
##말대로
삼청
터질
죽창들고
없는지
두고보자
##역시
여론을
빨갱이는
아이돌
인정하는
사케
다운
한개
##증이
약한
대상으로
엘리
짝이
없어질
국민성
틀림
##내요
신나
알고나
##프로가
단순히
보며
개박살
고위공직
의원들
##기까지
자고
##졌는데
외교를
전쟁나면
쾌
##인거야
김무성
있구만
수행
제명
근대
##읍니다
우병
##말든
머냐
너네는
분노가
##선에
##몫
##하더라도
조국아
##배를
확신
민주당에서
100만
골수
인종차별
##들이라
##애비
##어린
칼을
홍준표가
소상공인
##넌
##그로
구제
남자들은
청탁
술집
기준으로
##쌔
##당도
황제
##쪽은
말안
##니까요
찾아서
그따위
머리를
촛불을
징용
껴
##운운
맹목
겸손
전통
학대
문희
##는거는
망친
##도시
일본놈들
무력
미국한테
2천
지킨
달라지
##염이
되는거지
일본산
부족한
있으면서
인구가
##ᆷ버
이준
##을거다
가도
말입니다
##우니
애쓰
침해
수학
##명으로
대구에
될수
말좀
##독립
자신들이
여군
##질이나
사이비종교
다루
우동
이고
기분이
##들에겐
정으니
##급이
스토
파이팅
밀어붙
정황
저들이
잠잠
##들에게는
조국사태
##았으니
저것도
##위원회
긍정
400
앱
맞서
##좀비
부끄럽지
##자꾸
개구리
정상이
하루하루
##삽
아니랄까봐
그랬
##따구로
무개념
반영
자손
우상
정신차리지
컨트롤
##뜯어
##ho
정체가
세계적으로
바가지
셋
##염병
살다살다
##걷
외모
여기까지
보여줘
진보가
##내에
##저나
##공항
뻔한
사퇴하고
##사과
안봐
##나라냐
추잡한
나머지는
세력이
튼
##아비
있는거다
필요합니다
##해보자
쩔
좆선
##질하고
들어가면
좌빨들의
취임
백신
투명하게
##도못
##연이
손으로
##거리며
만들자
댓가를
아따
보이고
보좌
김문
주적
제3
##단체가
이나라에
##겄다
방송에서
못하겠
예를
##실에서
고등학교
있니
##공동
양승
##케이
공영방송
##장악
일본차
##교통
남에게
##나라는
##받게
쓰레기야
너부터
##씩이나
교회가
조성
여지
말려
죄는
한심하고
불쌍타
넘기
디지
##되는지
공권력
짱깨들
응징
ㄱㅐ
일본보다
팩트체크
노무현이
##3년
##지들
언론과
맞지만
소중한
##대신
실시
##새퀴
OOO들이
악용
시진핑이
안고
되나요
##보며
다신
나불대
한국사람
##았고
바보가
##엎
댓글다는
벽
아니에요
반발
둘째
전두환이
겪어
##구야
다시한번
달창들은
행동으로
철저한
자발적으로
내뱉
은혜
역할을
골빈
관심을
검찰개혁은
앞뒤가
부모도
뇌피셜
해도해도
##면에
##입으로
속에
##돈은
엉터리
##가에
해준
신라
될거
굉장히
안좋아
##포함
##줄께
키운
진료
못하는데
싫다고
##아니야
꼴을
미쳤네
##하지마세요
##침에
할것이다
##쪽에서
의원직
텅
오고
구성
싸다
민주주의가
뺨
그밥
자들은
##차로
##명단
배치
언젠가는
정숙
비방
##셔야죠
안락사
살다가
챙기고
향해
또다른
##잡는
바미
##먹어
어쩐
##세다
잘한거
단기
현명한
##도아니고
안간
얘기가
##문제는
##거죠
거절
##이야기
##스럽습니다
놀아나는
으이구
퍼줄
검사를
한미일
밉
검은
간절히
표정
김영삼
##치자
실시간
##의원님
##놨네
mbc
미화
삼권분립
##올리고
한미동맹
연대
##바란다
바꾼
알겠지
수사는
답없다
펜
##래요
##분도
##하시오
집착
속도
ㅇㅈㄹ
소문
##ᆯ까요
##꺼리
##새끼는
많은지
피해보
정책은
임명한
##달라는
흐름
연예인들
##을겁니다
##책을
저지르고
퍼주기
##없습니다
장담
체제
시장경제
어거지
없죠
배울
내로남불의
##속이
성역
니들끼리
##돌아간다
섭
자폭
백날
공수처는
기반
주의
무사
오버
김여
##해야하는
깔아
지능이
##항이
자한당을
##en
거짓말로
되겠다
경비
교과
이세
들어도
자한
범죄자가
감방에
##때문이다
일등
유촉새
들어라
소리냐
박원숭
뽑는
현기
신천지에
복귀
털고
할줄아
긁
##마시고
미래통합당
턱
초기에
##제목
수신
망한
느낀다
##제발
안속
##상식
일할
##것인가
##택시
딜
안된다는
왠지
올려라
체크
닭대가리
##더러
기가차
임진왜란
##가보네
##데요
구상
난리를
##함에
##ㅡㅡㅡ
외치고
손해배상
##쩌고
세균
##랑께
OOO야
냐
##키고
##룡
끼어
##사에서
##주인
저들은
길게
터지
갤럭
##같지
조선이
다니냐
터트
쫓아
##하겠지만
일이나
신천지를
##환이
손학규
##있던
##죄인
밝혀야
환경단체
한명도
##어떠
끓
돌리고
통수
석열
모른척
할말은
줄이
친구가
주위에
부적
가져다
내지
줄여
수석대변인
형편
##잖냐
##란히
단합
방법은
##뎅이
곳에서
떨어진다
여가부
인스타
잘하세요
생계
놈을
##된다는
만들었
백퍼
꾸준
발언을
##이들아
남았다
그런건
##정부의
얍
##망정
낙선
국민한테
철도
깨닫
판단을
경험하지
낙하산
않도록
얘기는
##뜨고
사재기
현상
몇천
보내는
푸하하
안죽
##호가
총알
잘못하면
남한테
듣보잡
단단히
작정
지켜보고
##기록
개한민국
저것들이
말고는
원숭
추악
놔두
##만나
거주
댓글도
살아가는
퇴근
국립
찌질이
사퇴하라
땅에
알지도
날조
길로
이쁜
자리가
##불러
3번
불교
놈아
들어야
쑥
짠
해쳐먹
감독
쒸
심심
##억을
꼬투리
부끄러워
팀
5G
##욕이
##땀
규정
1인당
부엉이
박수를
놀랍
보고싶
##밤
예측
##국가에서
사학
시국
정치인들은
트위터
##네가
뜻이
맞은
거리는
일식
지성
안걸
전국에
##오냐
##st
언제는
나왔는데
##ᆺ기
거죠
언론들
금강산
총선은
짓거리를
국회의
위해서는
아름다운
발끈
우짜
##말씀
우리한테
현충
안했다
흥분
이기사
##치는거
생각보다
했습니다
느끼는
시체팔이
##면허
우수
##억씩
메르스때
##파괴
일본하고
많구나
한국으로
기다리고
무소불
그런지
빨갱이들은
극치
##아줌마
1조
##화된
본질
달창들아
의심스럽다
풍년
고스톱
조국같은
언론을
자식들은
파렴치
된장인지
ㅆㄹㄱ
##의미
가둬
뽑아야
반대를
먹고사는
tv
##보를
100프로
기업들이
이야기를
지오영
님이
상종
##쪽이
ㅅㅋ
수밖에
내리고
많냐
대통령이라고
수사해라
금태
##쉽
줄서서
국민만
지금부터
버려라
##정도면
이냐
이석
호의
쪽발
##해보세요
##대니
##진거
##경쟁
책임지
교육부
##수지
남로당
버릴
태워
쏠
##되니까
동료
##꺼냐
전세계에
아나운
용돈
가능성
공수처법
##런지
참모
스쿨
중요하지
핵무기
##린게
##돼서
불리하면
천만
이나라의
큰일이다
##인다고
한결
식구
식량
##자너
##도없이
주어
문제임
막아라
된다면
깐
##거려
##올림픽
##컴
장례
자업자득
미친듯이
##자리에
##💙💙💙💙
나라다운
의원이
##박고
욕나온다
쿠데타
##하기가
캠
##ㅇㅇ
떨어지면
낯짝
모금
##유예
##색을
민족의
나고
배우고
살아가
얼굴을
이놈은
정당이
##하는건데
##린지
압승
너무하네
##국가로
숨어서
내년총선
즈그
째
사회생활
##자들도
가냐
보이나
##꽃
##전으로
##했니
##았음
코로나는
병원에
아이러니
##뜯고
잊지
유일하게
멈추
지민
검찰조사
임시
해외에서
껌
##중이다
##ctv
탕
##보드
##되기
우리민족
불법을
괜찮다
##깽이
##회찬
소나
##읍시다
##말이다
경제성장
백두
씨를
시민이
페미니즘
삼청교육
##산물
뒤로는
믿습니다
다르냐
판결을
##유치
도지사
안되네
싶습니다
안해서
##말만
라이
너네들
뽑아준
할일이
왕창
먹여살
##간을
경험해보지
##일수도
네이버에
##재단
생각해도
전라도가
검새
드러내
정계
바랄
이런일
##정도는
면제
알겠냐
나오나
내라
까라
정책으로
부끄럽지도
28
안다고
##찔
당분간
놈의
##목으로
자한당에
않았는데
##쓰레기들
어쨌든
##안가
어이없는
심각하다
하더만
땀
도둑놈
사유재산
안철수가
##소는
만약에
툭하면
##했어도
덕에
멋지다
촛불로
쌓아
##출마
삶은소대가리
차릴
##저자
귀신
공사
속은
##국민을
잠수
엄격
감싸고
한편
모르는데
허접
교수님
그나저나
조금씩
##면이
##이라면서
하고있네
사과는
29
##룸
동포
저럴
끝판왕
곳은
첨부터
헝
왔
여성이
준표
아갈
##하는것은
믿냐
10대
금태섭
##숨이
못들어
##이야말로
데이터
쓰네
이주
자리를
깨끗한척
굶어죽
김씨
될것
징그
##나이
했겠지
##시켜야한다
##해줘라
##구에
범죄자를
디자인
##이하
조작이
쉰
이거지
자격도
죄송합니다
##ᆨ서
##인거다
##신분
킹크
각성
시장이
말이나
배후
평생을
##클럽
##버림
보단
##넘들은
림
##사한
비공
구한
잘못한거
높다
국방부
1명
##라는걸
세비
##볶
먹어라
쪼다
3월
그전에
니들의
##세먼지
건강보험
절라
기사만
##확인
양승태
##가루
##시나요
##용지
인간이냐
##1위
##인격
##와의
압력
복수
스포츠
중독
사냥
조두
해주는
개념이
어린이집
유발
##씹
에라
있는거냐
##이라곤
진보는
##할까봐
불러서
거론
깨시민
##하단
##재난
자율
받았다
폼
의전원
적으로
문제인이
어리석
조국가족
혈세로
새누리당
##갸
##뽀
안한다고
없나요
나라망신
방식
알고도
인권이
억울하게
가관이다
사지
다까
와라
심히
뻘짓
표본
볼수
기가찬다
허수
지랄도
##금으로
지지자들이
##시라
문빨
뭐든지
보여주고
##꼬박
아재
진중권이
공평하게
신재민
##얻
바둑
##먹기
간다고
정의당은
##어날
그분
##더기
채우
##치면서
##현실
무식하고
잔뜩
할수있는
##새기들
하는것도
피를
검찰에서
수준하고는
조종
창궐
육아
##겟다
왔다가
꼴값
시키면
퇴임
효과가
경기가
##경기
와우
친척
지혜
##었겠지
살어
죽어가
##난거
속으로
지지율은
기관총
##뚤
##되겠네
헌신
잔치
탱
##야함
종특
맘이
##으냐
선거운동
##턱
알겠네
이상은
이국
하잖아
수정
부처
홍영
대구에서
무릎꾸
지나가던
사정
차를
##있는게
분단
정의와
중요하다
중요한건
혼자서
##고대
진압
##건강
유착
##위에서
##한다는게
3개월
##에다가
당해
##개소리
죄앙
응답
캡
창피하다
이에
##가야지
당당히
애써
모르쇠
##등을
퇴진
##털어
당해도
구청
생각해봐
현대차
뭡니까
##했더니
##연한
슬프다
##ut
##심판
##등이
자유한국당은
##ᆺ을
##여당
##린데
##권도
중국이나
싸질러
군부
##릴려고
양도
게시
증여
좋은거
##선은
못쓰
언어
예정
##덜이
##제대로
##줄은
##이라고는
##층은
기밀
해보자
묻어
국민여러분
##이라는걸
세운
당원
외고
어딨냐
싸구려
기껏
##선택
##됐다고
##댄다
에너
##증거
무법
##시게
##신청
황당
헷
낳고
합리적인
##가봐
정신상태
종이
걱정이
2020년
지인
##능력이
추측
2월
이빨
일해서
될지
나아가
욕이
##ㅉㅉㅉ
원자력
공인
##ㄱㅋ
쓰라고
종료
사람들만
좋아하네
사형시켜라
알겠는데
생각했는데
언론도
이용한
바뀔
일인데
##위의
청화
총장이
저런것들이
나오니
유리한
남발
##졌네
군인들
될텐데
미안하다
비롯한
싸이코패스
사이코패스
##대통
개만도
속지
문씨가
집으로
인간이다
떠넘
빼면
납니다
xx
훅
##링
##직을
통치
희한
쪽바리들
수령님
죽었는데
##부랭이
지원을
쥐새끼
빙신
이정부는
##은거냐
##주길
##스쿨
##였습니다
뚱
##죽이
기다려라
푹
##체제
상실
하태경
가는구나
적어
발로
천안
용감
내용은
##인트
영토
##월급
하겠다는
기만
##있다는
억압
##땡
##들게
거울
뒤져라
직시
힘내라
녹취
##당초
씁쓸
축제
반중
##하겠나
끊어
##법도
조선은
##두각
수사가
소리나
##폭동
##리지말고
##부담
아무래도
단어를
전시
##같으니
##약한
##정책을
##발표
##직도
빨대
탄핵을
이들
알고있
자멸
선출
안되서
가중
악화
##많고
교회는
##빨아
니네는
##버렸다
##oo
##하곤
저사람
##테타
최우선
입다물고
꼽
##렸네
만날
##판단
##나네요
자원
개꿀
조국이가
##댄
벌벌
##관계를
추종하는
춘
##드는데
##지않게
쌍욕
치면
관대
있을텐데
포기하고
##위원장
보라
##리려고
보는게
않지
4차
##교사
욕심이
폭도
이익이
오류
버려야
##탱
개독교
##왕이
##등에
뭔가요
점심
##이군
쓰세요
박근혜대통령
짝짝
거대
불량
인권은
뻔뻔하고
에이즈
되겠냐
화를
##이냐고
조치를
##두로
지긋지긋하다
다양한
둥
##주는거
개헌
##혀라
상대가
꼴페미
없어지
##함은
##겠다는데
찍는
넘어갈
##아빠
##래미
3천
##계는
독점
##현이
##다나
##보지도
누구의
종교가
##족을
##아이가
어따
망상
##벌어
획
나와라
##퇴근
외교는
##만큼은
란
##지지율
대고
##랑은
재난지원금
동사무
거짓말쟁이
안들면
##으로부터
저것
안희정
##무사
##무를
중국이랑
경찰에
##6년
##부부
신앙
김의
미사일을
하이
저따위
일본군
출생
쪽바
##쩔
막가
##팔고
27
사상이
몸이
귀를
이리도
조지
##할건
추적
뭐만
죽기
후진
좋네
같은거
돌아갈
공매도
일정
##국민은
야당은
소설을
갸
##일지
##했구만
배제
욕은
혁명
##홍어
##자야
##사라
##파가
설치는
##😡😡
있는거야
##모음
이런것
처벌이
##스도
##들이여
돋
집도
첩
나왔
촛불들고
니나
새해
심하다
##하시죠
##지말라고
아쉽
어디가서
우병우
##조장
##모독
됐
사실이면
##말아먹
전체를
안전을
주둥이만
이틀
##함께
##따구
해야합니다
대깨문이
##아닌데
세무조사
섬나라
주는게
범죄가
말로는
노회찬
그랬냐
타협
##됐
공개하고
##난다고
정신적
패배
꺼지
##대요
꼴갑
만들기
암살
##집을
버저
범인
쿵ᄏ
##닐
##시요
한달에
맥주
##팅입니다
##찾아
자전
않아도
치료비
##리니까
하청
미통당이
잃고
##쫌
2019년
##ll
##리만
강성
##였다면
공시
법률
두들
미쳤구나
바른미래
가식
##사유
주접
망하면
깜짝
핑계로
지상
안오
##비어
친미
가기
막는
뽑고
뜰
정치적인
파란
2명
##원의
뭐해
신천
##관계가
이후로
소름돋
유명한
80년대
될거다
만들었다
즐기
문다
생각없는
역겨워
##치며
손해보
##포로
계엄령
정권과
죽음을
##감으로
직전
해야함
소방관
건보료
##건이
##법에
스쿨존
수준에
뉴스가
어이구
캐나다
##악질
주5
예외
imf
하죠
알권
죗값
작작해라
부르는
##했네요
발빼
황씨
거짓선동
진정성
그지같은
정권이다
에구
##케팅
얼굴도
##TV
전역
##살아라
믿을수
지식인
잠재적
##으라는
##닉
한마리
응원하고
이러면서
매매
두개
보기엔
괜찮고
행복하게
##하셨습니다
##챙기
##하는거임
노친
화재
부르짖
한기
문베
##세연
##이긴
내린
##발광
빠르게
즐거
도망가
기를
잘하는게
설사
방송에
기원합니다
##미달
가족들이
##음에
##버린다
얼마든지
작년에
친일파가
##경제가
고생이
직권남용
이가
저승
들어오는
##세우
##한적
박근혜를
외교부
퀴
소멸
맺
허리
더욱더
누구보다
##목숨
시작해서
지극
정상이냐
자발적
한통속
##구장창
어버
조국에
마음은
감옥에서
류
나가고
의대
줄도
##싶냐
주먹
##안됨
##타는
슬픈
후퇴
##을까봐
신용
좋지만
##벗고
후배
##질않
##분야
##한다는데
뉴스는
언론플레이
태평
최고다
##캬
##아픈
반려
으휴
##없다는
의혹을
건강한
문정부는
##유럽
못보
잘되
동정
입국을
기회가
##렴이
##까는
쳐들어
김정은의
미필
비굴
##해야하는데
관계가
##해지는
##대네
##투사
자빠
의석
##줄게
포기한
삭감
순식
뻔하다
문정부가
##다니면서
싱가
탈세
소대가리가
우주
무작
사랑합니다
안타깝지만
몽땅
모셔
않아서
##불쌍
눈가리고
비아냥
가능하다
##고를
##서울
##낱
##나는데
저인간
##작업
##장의
비겁한
욕하지
확률
써도
##손손
##셨어요
지불
##금은
##빚
얼만
##박근혜
고맙습니다
##꿈
##승이
미루
선포
##계속
학력
형님
##힘든
해주면
##낭
##댈
##았을
통째로
##끊
##들인가
주디
못받고
망해라
싸우는
모르겠고
우물
구독
종족
##꼼
죄값을
댓글러
국회의원은
##뿐이
쯔쯔
분탕
##하시네요
DNA
##읍
핫
국가보
수사해서
모자이크
##떤
##하구만
##섬
##짓고
말인데
뭐임
뺑
상당
애낳
정의의
꼴깝
1월
자를
내버려
수사하라
조사해야
달창들이
발사체
있는듯
망해도
아베야
국정운영
아껴
부정하는
년이
주옥
아무렇
이글
딱봐도
##인디
싸돌아
##UT
꼭두각
##생각은
휴전
삶의
##일수
벌고
총선이
노력을
##꿔
##미수
##있어야
사실이다
감기
놈이다
질투
ㅇㅈ
내돈
막히
##약을
곽상도
안주
##동물
##생들
꿈도
부려
##차원에서
정신줄
공부를
120
##노인
초토
##빽
해찬
##있어라
타도
복잡
지켜보
##이랍시고
반공
서양
않으니
달인
이걸로
공안검사
촬영
맞죠
##귄
##세금으로
쪽팔린다
찬양하는
##대깨문
##무식
딱히
거두
##급으로
몰표
쓰레기를
종합
##이건
##탑
받으면서
심리
길이다
##이탈
무효
김상
경제보복
연동
안되는거
괴롭히
##청문회
##편향
볼모로
갔는데
민변
답글
몸통
기래기
##상품
##한텐
그럼에도
멈춰
##세포
원인이
약자
##곳으로
국내에서
자유한국당이
##조차도
다를바
아빠가
일좀
보안
##차게
구석
##지않는다
착취
거는
백배
##괘
하위
##생을
쓰는데
쳐도
찾아가
##인대
##일어나
##악을
기본적으로
주구장창
집은
업적
할인
##잡혀
방송국
안하무
안보는
##있어도
얄
##메달
최신
위대
그런걸
종북좌빨
##호구
국가로
양심은
그야말로
거들
##수입
따르는
깨어나
##le
##주교
거잖아
극좌
핑크
개념없는
##이오
애들을
치자
계속해서
##손으로
##지르고
생각난다
후려
##기사는
말라는
##때매
##나옴
##들한테는
중대
터지면
비판하는
나쁘다
피의자
##거같은데
하는걸
##음을
넘들은
엠비
종교의
##틀러
깊이
지워
##무기
진영논리
오리발
않은가
전라디언
3000
예술
##쓰냐
이외
##바지
##들어라
읍
선택을
##기업이
니네들이
표창원
##수출
주거
##선다
##잡을
비상식
##해지면
##셨다
현재의
시키들
쓸데없이
그외
##것같은데
2018
5억
##지경
오너
죽었
한번씩
전부터
페북
뜨고
##하지않고
##보이는
적대
광복
다수의
있겠나
못했다
위에서
##면서도
##팔아먹
역사적
깨끗하게
말아야지
퍽
노골
머라
무식하면
##보라
없겠지
경인
65
가치를
겁니까
버티고
늙은이
##떵
살만
강용석
이양반
##부끄
국가적
##색기
대단해
케이스
##중독
##몰랑
##수있게
##사회주의
일상생활
고래
##청정
봤냐
있었고
1년에
##대냐
구청장
훗날
##쏴
##정권을
##언이
애비가
떳떳하면
중산층
##어지
##해체
놈들이다
포항
미쳤나
자처
부풀
##키로
##줬으면
속국
군대를
외제
##종이
묻은
깊은
자세히
##멋대로
어그로
좁
노태우
저런것들
끝은
윤총
아이들은
대깨문은
##치로
잘들
있었네
##고시
나씨
##내에서
##견이
sk
대규모
##비판
좋을듯
정신과
폭파
위해서라도
분노를
강경화
유입
윈
선거개입
##토착
##길을
북송
글러
아침에
##상한
세끼
맞아야
양쪽
그만두
지껄이
국무총리
##왔던
##서니
저들의
유기
올리지
피해자는
##아니라고
진단키트
##단에
##개들
2030
직무유
바글
해줘라
##되네요
##전은
가족은
공수처를
놔두고
가봐라
##둘이
cctv
말던
##리는구나
봐서
그렇지만
돈많은
조국처럼
공부좀
##ᇀ은
##는거잖아
##영장
몰수
##만세
##사님
써먹
밖으로
##만이라도
가동
부분이
##할건데
우리보다
한국과
쓰는게
최악이다
쌍판
말했다
지지자들은
##사는데
장본
예쁘
##지않냐
민간인
조구기
고인
##봐야지
##합의
당하지
이러니까
##덴
개솔
##진다고
토착왜구당
##구도
앞두고
##하는거고
필요없고
현실적으로
청년들
모르겠네요
차리세요
##증명
못배운
##가니
##오네
원한다
이용하고
순수한
##법안
열폭
타이틀
##직전
##새끼들아
사이에
시전
개혁은
##사기꾼
##화에
검경
필요도
##ing
이왕
우리만
##토막
##꼬리
디스
##이해
부모의
잊어
귀여
굴욕
있는건지
놀랍다
##지처
##사이트
##대처
##부장
타는
파티
꼴도
조원진
한기총
주인이
에고
글쓴
세우고
부패한
한때
##급여
##싶어서
##확진
우파가
##무죄
이긴
##생각이
얼어
예약
##폐지
급식
모으
주기
##통과
##형으로
##지않다
수법
비공감
오빠
선동해서
##시장이
덩어리
##빠지게
윤석열은
지도자가
##아녀
그와
##덮
번호
생각할
실체를
모른다고
못하는게
##00만
이상해
##락이
사노
##같고
방법으로
김종인
자유롭게
답은
천박한
안녕
참담
따지고
##게하고
문을
짬
혼밥
갤럭시
##갓
##여자가
##티즌
##찬성
책임져야
불리한
##됐는데
좌표찍고
사리사
사리분별
##국주의
##조로
신뢰를
##뵈
##나가서
아놔
그것은
해쳐
##유학
##씨를
거짓말이
아니가
먹지
##놓으면
희망을
집행유예
##국회의원
##이틀
도태
아이구
처벌해라
내릴
닥쳐라
윤미향이
##불어
발정
##후손
중동
천황
사살
##그룹
지금보다
그깟
때리
지랄들
쟁
내정
총동원
50년
불법으로
대표적인
없었던
눈과
까도
##브라
있습니까
아깝
기웃
##드리고
##못할
책임져
결국엔
월급은
NO
##잼
아베를
아프다
##전문가
##보냐
##단말
##는지도
장관님
##은혜
부자들
치명
이명박그네
무엇인가
한번이라도
시대의
기술이
##간거
##같냐
##타임
쉬쉬
안하는게
하는것이
##잡아서
문빠들은
전세계에서
이지랄
##ᆨ으로
##비율
뇌에
삥뜯
어깨
정권교체
뿌린
##일뿐이다
보냐
중간에
이런글
상징
##터진
맞벌이
##렸
##들일
해소
끼들
부끄러
##놔서
명단공개
짜고치는
다하네
방관
##가튼
정치인은
국회가
뽑을
정상적으로
재발
나치
싶어도
표가
보여준
킹크랩
무기고
##심도
##딜
똥물
입으로만
시끄럽게
이적
해달라고
받는게
신천지와
존나게
자위대
41
요양
돈과
책임져라
똑같아
다물고
##일자리
쓰는거
##학과
족속들
멍멍이
원흉
파산
공무원은
밀어부
뭘해도
증거도
##딸이
안타깝습니다
정부다
##찌라시
안민석
못알아
성숙
목적으로
누군데
문슬람들
홍영표
##CD
##명이나
민좆
불로
짧은
##나불
시다
##구역
##미를
사람들한테
이재명이
하는건데
##좋겠다
왼
목사가
빠지
자식도
자민당
세탁
똥칠
##버렸네
이라도
보내서
##범이
지들만
정당화
국제적
##리트
말았
수사하고
##나오고
이년
##십니까
댓글모음
일방적으로
##떄
##방위
##함과
아닥하고
코로나에
있는데도
농락
##들처럼
##관은
##얼마나
미통당은
국민분열
예전부터
오르면
##졌으면
김기
##고집
수갑
사람이라면
구원
##혐오
##목이
개그맨
##독이
##셋
유감
##집값
놀이터
아직은
여론조
저기서
##쩌구
이때다
##이미
##대전
되는것
고려대
붕어
찌질한
##감독
대항
봤나
##하십시
##토론
독립군
조두순
누구든
각하
거짖
배신자
##들보다
터지고
##교육을
##불능
##늦게
##의료
가질
##오줌
할래
전체주의
21세기
조회
아니니까
##우한
이런것도
처넣
이거는
역겹
연합뉴스
삽질
기재
매수
약점
집값은
TK
연루
출국
##나오게
수시로
##때려
구호
자한당도
이중인격
##지에서
그가
10월
바껴
음모론
##민은
천주교
꿰
일보
맞춤
의협
핵폭탄
대선때
ㄱㄱ
##줄까
키우고
저정도면
##컵
##한태
조아
차원에서
살리는
태도
밥맛
하지마세요
문제라고
##강도
도라이
천하의
찾고
폄하
일본놈
할거면
선정
검찰도
욕설
나이에
재산을
이겨내
자치
내밀
헝가리
할려면
도우
##짓만
국가유공자
백종
장관을
##인간들이
닭근혜
신경써
국경
##먹으면
엥
개인정보
끝이다
##갈때
관심없다
외치던
잖아
북한가서
어머
##신가
유능
##아니지
움직이는
##대사
##횡
##땜시
불평
힘들다고
골목
하길
##것으로
되기
화나요
안보이냐
##멍청
객관적으로
선의
장관은
체육
광우뻥
이끌어
##주면서
##부탁
주로
못이
반면
지극히
##로워
니같은
왔는데
조심해라
과잉
하시지
초토화
사람입니다
##활용
경찰서
띨
##고에
##마가
##세월
##역사
역사적으로
착용
##보임
##하듯이
부메
공무
선배
이러다가
보고싶다
지켜라
##떼기
##금의
##연기
방가
신천지랑
##가족이
자유민주주의를
정신차리세요
애들한테
##뱅
하고있
엑스
커서
사진을
정유라는
왜냐면
아니었
##차단
##대며
##경화
법정
두달
##죄는
망해야
##료가
쓰레기들은
했다가
똑똑히
사항
##소리는
군대는
##않는
출발
올라서
기회주의자
웃긴게
잘하네
만한
외국에
##지말라
망가뜨
가성
##계로
매춘
꼴랑
##촛불
가져가
##즐
##거에요
##그리고
우릴
살릴
공개하라
##금도
인간쓰레기
국익에
이유도
강남에
감정적으로
##미국
붙어서
너넨
지능순
##자녀
##사서
뿐이지
씨부리
##뜰
주장을
개돼
쓰면서
살아갈
철판
분은
몰아내
있으나
애꾸
##당하게
굴복
어쩐지
보조금
과반
##모아
고마운
대다수가
찿
욕먹을
절차
민심은
뭐여
나라야
##직에
너무너무
경찰들
김건모
심재
잡아라
##자로서
문프
빵에
##놓는
팔아먹는
아니란
만나면
조국이나
때부터
떠드
벌써부터
섹스
##쓰기
처참
사법농단
사라지고
##데이
##건은
개방
##키우
들었
증상
이정도로
훤
##쿵
아사
##마는
소리야
레기
칼로
으이그
바라고
보는거
100억
##궁금
##대접
미처
유병
돌리는
코로나를
쇼핑
막말로
있을지
그때도
목소리를
월북
줘야지
어르신들
그들만의
##쌓
짱개들
들여다
멘탈
##의식이
안듣
헛소리를
빨갱이라고
##봇
어린애
벗고
##전파
##질환
초대
이상의
편안
##듭
전정부
힘들지
##ᆺ는
많다는
그렇게도
선택적
무너지고
노예로
##것이지
날리고
꾸준히
##없네요
무슨죄
비공개
됐고
갱상도
꼬박꼬박
고립
##개판
해결책
미쿡
진리
우파는
사망자가
지역이
한거지
##던거
할꺼
##더라면
##유공
##족이
##왜곡
자전거
여튼
개개
관행
##싶으면
미쳐도
않았으면
##자동
도전
작자가
##뭘
거긴
대단하네
지껄이는
##하고있는
##독한
세계에
떳떳하게
##요청
##님께
물갈이
됐네
##쟁이들
씹어
헷갈
MB
사는거
##앱
그토록
소굴
쓰지마라
조사해
비난하는
장사꾼
앵무새
미성년자
바빠
너한테
##등록
적폐가
##뽄
아이는
##졌다고
그랬다
경제파탄
돼지가
##발전소
짜장면
##정지
맞나요
윤리
넷
무얼
##식에
남경
잘못했다고
가짜뉴스로
뭉개
##최악
##리즘
물량
댓글보니
일반인이
##줄알고
나을
원인은
카풀
##치나
쓰레기네
삼성을
##구절
##문학
##계에
검사들
뒷돈
출산율
내려라
##질도
권리를
압색
##떨고
##쭉
##길로
100명
##플레
몰라요
통일을
이득을
거네
##했었는데
##출동
이게나라냐
##셨나요
##서비스
문치매
부하
민중
중국공산당
논리적으로
챙겨라
장식
서울시민
어떤지
귀찮
보여줘야
얻은
엄벌에
##행위를
악성
상속세
왔다갔다
그는
##없지만
독재가
교육감
어처구니가
깽판
하하
속시원
##ᆺ발
양념
없는듯
파고
날씨
##셨네요
윗대가리
##se
##부채
유신
괴뢰
##말던
박대통령
암덩어리
기다리
나랏돈
깨어있는
##ᆻ노
선한
##쓰네
얘들아
알바비
##보낸
생겼는데
존재하는
일삼는
이사람은
계란
됐는데
##있다면
탈취
시급하다
##주시
##국민들은
편협
제목만
행복한
##기사가
##대왕
전용
짓이다
키울
##각이
낮춰
##괄
맞는지
손실
판국에
##자들이다
지겨워
##가스
주권
무례
##같아요
빨갱이를
야비한
문재앙이가
##편을
놀이
쥐고
학생이
비판을
좁은
문씨는
쪽팔려서
건물주
##😂😂
하노
주진
성능
뽑으면
기자양반
난리인데
##인과
##당하지
최악이
난리치
##또라이
##어떻게
##라니까
가재
##굽
##짝이
수준은
##하기에
논리는
볼만
헛발
##이나하고
발병
마시길
행정부
빚내서
##시스템
신체
예능
사고방식
##무는
##유학생
쥐박이
정의로운척
국론분열
##기생
##국이다
안지키
살짝
북한하고
##학대
먹어야
거리두기
##꽁
##한마디
소가
빈부
##되는건
도를
기사제목
건들
##OOO들
무증상
##는거보면
##차반
신천지로
김정은이가
멍충
끼워
르
국민들아
오십
선고
##편에
싫은데
탐욕
##수술
##조정
부르고
##실하게
##키야
실어
간신배
회사에서
스타일
##안해도
하는말
경제적으로
##인가보네
양파
안했는데
누리고
##물러
앞세워
변경
##죽여
안하니
지지층
##자들과
두렵
##기라도
##ᆸ니꽈
##킹이
쓰지말고
대구가
586
##콕
문주
일들이
유체
생각하는데
감정이
##등신
딸도
궁금해서
##상황이
무단
위태
몰살
속상
천만원
과거사
대해선
고속도로
재건
성조기
선거조작
둘중
우한에서
디질
이국종
이면
피같은
2위
##흑
저새끼
##천만
본보
얘들은
느끼고
술먹고
이녀
문재앙아
나오게
귀한
용납
사악
현장에서
연일
받아도
이름도
3개
##뼈
##할려면
외국으로
발전이
쯤
##뷔
펙트
없어야
말하는게
튼튼
김문수
##ic
잘알
##지진
##병으로
##강점
##목을
메인
자존심도
##km
한발
좋습니다
누구에게
있었지
창원
져야
문서
##지마시고
양심을
아끼
피땀
5월
##ᆯ케
간만에
##찍어
##꾹
김태우
잡아먹
등골
어려움
##젼
##나가는
할거다
암울
그러니깐
장기집권
##문제로
##뽑아
실패한
여당은
유급
했잖아
망나니
편집
찾는
딴나라
옛날에
n번방
##시를
마비
##았습니다
##적이네
##내역
알수가
선별
때마다
명문
과거의
퉤퉤
##을지
##전화
찔리
##거리지
짭
귀가
덜떨어진
김정일
우기는
좌지
설문
향후
##드려요
##한대
##바글
부여
단교
보냅니다
여럿
##해산
까면
권고
##먹어라
2년만에
##다보니
마디
##할일
욕하면서
한번에
인정한다
##스럽네요
단호
토해
##더니만
적폐세력
##원숭이
아나운서
##화점
고령
##좋고
살리고
##훼
##구마
며느
여성단체
ㄴㄴ
##자신
##젤
해보고
경우는
##위험
##면서요
청와
달래
철밥
기자들이
##본적
본토
선거가
로스쿨
렉서
바람에
1시간
##질이냐
설립
##직한
워마
##빤
##수고
미꾸라지
##오는데
문제의
앞날이
생활비
덥
가나
부부가
##정권에
##규명
난리네
이들의
되겠지
북한처럼
건방
주특
유언
대통령이냐
##따리
서민들이
행태를
##자식이
살살
영웅이
다른거
시달
보편
##동강
돈좀
##절하게
인정하지
이성윤
핥
재단
##버스
빼박
잡아다
##공동체
정세
밤에
##화수
포용
환자가
저출산
##톨
만난
##트로
교육이
눈치만
혹시나
아네
##움에
대통령이라는
##집단이
연평도
38
이북
##들까지
임산
시원찮
사장이
쫒아
이론
##대회
소련
강대국
균형
유흥업
##자살
사로
중국입국
##속히
##편은
##하는데도
봉사활동
인과
국민혈세
##아무
말야
권영
진정으로
안나와
더블어
##ᆻ겠냐
##바가지
##겹
비리는
대통령에게
논의
소비자
브라
살고있
##삼아
죽여도
##묵고
운영하는
##저것
확률이
노인네들
앞장서서
영부인
##꺼라
말아먹은
징글징글하다
좃불
일로
##없을
포토
늘리
다니지
겁박
흔들어
이놈아
적반하장
##기의
##마진
기레기가
바보냐
주둥이로
방향으로
안보를
##사건은
##상대로
요리
##져요
낳은
독립운동가
##따로
않는가
오냐
지금이나
단어가
학습
##않고
##시킨다
사람과
##버리지
조사하면
응원한다
먹고살기
##식도
##분들도
##법무
##된다면
세월호때
않은데
말아먹는
아세요
하고도
##태를
##익을
핵개발
##봉쇄
심재철
##im
##하믄
조기
##학원
똥은
해군
발급
경제나
없구만
일본기업
##계층
미국이나
##거리네
됐지
같은데요
국내에
매국노들
드러난
재수없는
죽겠다
##할겁니다
##쳤다
똥구멍
철새
확인하고
허수아비
##데가
##생명
만일
the
##무역
엠
적폐다
안보인다
##싫은
대다수의
이정
수색
물어야
##하시지
싹쓸
##띨
후안무치
주딩이
생기는
이런것들이
판결이
##빨고
명분이
##절대
회피
##을땐
맞잖아
##류가
상태에서
학폭
될것을
##삶
대일
보이면
무마
독선
돈벌이
껍
##도의
그름
대하여
##부르
할까요
장외
##석을
몇푼
김현미
##인한
노숙
그런식으로
종사
하고있다
종부
조현병
문다혜
##없는거
너무한다
콧
##코스
이재용이
##거잖아
그사람
줄을
##될지
그를
##맡
##챙겨
못한다고
한심해
털면
문정권은
##og
##식구
창조
나가야
반성은
선거는
안전한
무고한
꼭두각시
##은행
##기능
주워
##줬다
##게이
진지
보내자
좌빨들아
입맛대로
할짓
신천지도
좌빨이
않았을
제정신인가
놀아나
가방
고액
##언제
##해주지
있을듯
비교가
잔머리
걔네
들러
##한거임
할머니가
생각안
출세
뿐입니다
기본이
사용하는
저래도
가네
##민을
그러는데
본질은
뻔뻔하다
굴러
##롭지
났다
사니
애들아
##물며
중학생
행위를
10명
사회주의자
사기를
살아야지
언제쯤
##곳도
옳다고
##쪽바리
외국인들
경인선
유체이탈
##업을
당황
##대구
더민주
포르
기쁨
동해
한다는게
잡아넣
##해제
안가는
##이라는거
##소니
##오염
씩
귀국
##계약
조국이랑
호의호식
##이에요
없을듯
##질까
##먹지
눈으로
싶고
조작으로
어쩌나
대장
시점
남에
동영
##있다가
중국인들이
자국민을
괜찮다고
문희상
아웅
##왔네
문제인데
앞에서는
등의
내기
알고보니
시키지
진보의
투표로
땅을
인재가
없었는데
##부터는
환수
##ot
알텐데
##광고
그나물에
미군이
김의겸
##렸는데
동감
찍어서
30프로
##계의
댓글들이
출퇴근
개인적인
하자는
일입니다
##명한
##망상
대책도
##비아
같다고
안되는게
팩트다
바뀌고
젊은이들이
줄어들
공직자
두들겨
카더라
공정하고
실화냐
##하지요
의지가
속고
오랜만에
##심한
##유의
친인척
##문제를
때문이지
##제공
생각에
쓰레기다
##양심
당신들의
친일매국노
남자도
앵벌이
무언
##한다며
문제고
연령
누가보면
사고로
##협정
버젓이
##ᆯ레
##안고
짓고
장하성
그중
##할뿐
엄연히
긴장
대거
대전
악수
있을수
동맹국
54조
2개
##프라
신천지나
##찬양
아베와
대응을
##만들어서
##하군
소녀
구속시켜라
이따위로
과정
##워야
왕이
양키
볼때
이리저리
틀린말
##적으로는
##뱀
열린
부산대
문정권이
##쟎아
무료로
깔끔하게
##이던
##같아서
서민을
텐트
진즉
한국인은
양극
심정
출처
사이버
돌이
딸을
조주
다하는
개차반
끝을
속에서
덮으려고
롤
##연예
그런거지
영양
추접
해야죠
김정은은
비교를
심각하게
안했으면
개천
##인거냐
200만
마찬가지다
가운데
우매한
##에게만
난독
뿐인데
화이팅입니다
다녀라
답이없다
쯧쯧쯧
더큰
솜
석유
지구상에서
여지껏
##신다
별걸
리스트
OUT
##면을
가는거
##ᆨ이고
글이
딸랑
꿈꾸는
##대나
서울에서
##났는데
뭐했냐
결단
매입
쏜
수당
만주
물에
##대단
##위선
막았
보내면
연방제
##이거나
##할라고
치루
마땅하다
지잡
##군다나
##합리
많네요
이만희가
##있나요
야합
##감에
똥오줌
##랍시고
자르고
여전
무려
두꺼
무너져
효율
지돈
##보려고
##창출
국가원수
##시키려고
##검증
사고는
옳다
하아
주소
##피아
영변
박근혜도
결혼을
광주시민
아이들에게
급격
24시간
자숙
여의도
그러다가
##망을
등돌
뜬금없이
##면에서
지만원
자초
북쪽
들어올
민족주의
직업이
##대밭
모시고
##발로
##했죠
자기들은
##결혼
앞세
이해불가
금메달
패널
독재국가
정은아
조장하는
되도록
##파리
쓰게
정신이상
파견
##자들만
##허가
쩐다
안하면서
너랑
아무데
학교에
##깍
소득이
##한답시고
도적
나올까
좌지우지
있더라
여으
간부
웃는
팔면
나왔네
조선족들
납득
기고
##원지
되네
들으면
##ᆨ이지
망했다
##종의
떠벌
##한채
정쟁
바치
부러워
죄냐
승차
##ㄹㅇ
보관
##었네요
생각하는게
원치
##소릴
##오래
사과도
침뱉
가해자가
이준석
600
입도
뇌없는
판단이
얻을
구상권
##늬
##ᆶ은
국채
피부
##태가
활성화
##나봐
##대서
##믿어
##질이야
언론들이
선거를
밥도
기레기들이
진핑이
경력
뿌리고
##자나요
##수다
경찰도
돌아가라
생긴대로
##성해
못하다
##라곤
##든말든
성소수
경찰을
##취업
알려주
못할망정
의견이
죽창으로
이성을
되었으면
##회용
오토
과도한
상상도
입장을
##아야한다
악랄한
##방문
배현
따뜻한
7억
##보는데
받는데
하러
##만드는
부실
이런식
법위에
##벤
치를
쪽팔리
말살
들어가고
문빠들이
덮고
칭송
무작정
세치
본격
있다는걸
##입은
너희들의
지랄하고
이말
저쪽
##님께서
지지하지
나오는지
느그들이
##한들
##무니
본적이
##뻔뻔
젊은이들
저소득층
##자니
외압
뺄
걱정하는
슬퍼
만드는데
이러고도
먹는다
늘리고
숭배
동선
성폭력
##에서나
아이디어
지키기
사는지
##재를
한테는
단순한
감금
막지
천천
이상하네
편드는
##꼴이
이것저것
울산시장
빨개이
주는데
못해도
안되니까
집어넣
##ir
##해보고
일본만
남들이
좌빠
일본이나
몇이나
약간
가리고
전에는
되려
##소한
골때
혈압
문대통령이
33
시부
##와야
관료
##머리가
거짓을
하루라도
##자면
##할배
구구절
써야지
다음엔
흠집
면마스크
레이
정국
안하네
국민청
이상하지
설리
집단이다
환장한
이래라
대변인이
손혜원이
한말
잘한게
##비서
장비
맞으면
통일이
세계적인
잠복
대책은
무책임한
셀프
##it
해대는
멍청아
납품
##소송
비위
##긴데
얘들
편을
일제강점
발전을
봤
목숨이
##넘아
구속하라
가지말
히틀러
3차
##깽
유은혜
촛불이
팔아먹고
##하거라
##친거
자유민주
순서
순공감
##보내라
숫자가
입니까
##성한
고추
잘못한게
되는거야
##겠노
군인이
얘기하는
찾아가서
강력히
의료진들
##😱😱😱😱
역활
법대
댓글다
번역
일자리를
도덕적
그자리에
아몰랑
보지도
벌어서
변하지
##될거
증거는
앵커
##가는게
##어져
앗
개떡
생명이
당나라
신나게
정의당이
좋아라
위안부할머니
바꿔서
조주빈
##1년
빨갱이들아
서민은
보이네요
껄
##도하고
##주변
##때처럼
교안
민감
나오는거
정상인
욱일
제보
##쳐먹는
애국심
운운하는
##겄네
##시효
##해온
더구나
한국만
중권
못막
##었죠
##ᆺ음
기상
관계를
주52시간
북에서
레알
조중동이
감추고
##틱
미래의
악마같은
수십년
무릎꿇고
이놈들
##자체를
높이
모양이네
일왕
않니
##운다
##님들이
원장
불법이
##치니
##전용
퍼져
격려
재산이
사노맹
##해준다
낱
##이라더니
설령
수준이네
교묘하게
##검이
##타워
독도는
국회는
낮추
후원금
##걸까
이것을
넘어가는
벌레들
##겟냐
이분은
##자한
주냐
차로
##한테만
##외로
시작이다
기세
##화하고
##드가
##할께
##진은
화나
토착왜구들이
##하셔서
보는것
아니잖아요
기업에
늙어서
외치면서
어떨까
있겠다
##란을
##의원들
2배
##🇰🇷
##해달라
도무지
입닥
##린가
##레기들
##하면서도
있지요
##논문
돈벌어
첫번째
##대선
시세
미사
니놈
선동꾼
양심에
도와주는
지난번
냉정하게
##ve
예쁜
합작
끊임
조작을
공공기관
민망
남기
좋아하고
##다니며
빠르
상식적인
만드는게
어른들이
##보이지
미중
뭐다
소원
선을
공기청정
##4년
##차도
##테러
참수
잘하는거
살라고
박혀
좌파독재
입장에서는
부작용
성형
단결
##하네ㅋㅋ
맛을
핸
북한주민
세금내
##침을
##교수님
닌
##해야하는거
친구들
지겹
나랑
했어도
먹히
기사나
들었다
능지처
##할때가
느낄
바글바글
그립
국민투표
개판으로
정경심이
감싸는
헉
##지는거
말던가
##회를
과장
코리아
편한
##ᆻ으면서
공부하고
색기
##000원
녀석
##하거든
##사망
말하는데
구축
##버릇
영세
##던데요
장관으로
여러번
자국민은
이여자
나두
무대
##방역
직원이
##이렇게
##놔야
만드냐
태어나서
세입
고고
살처분
중국놈들
빠져서
##해봤자
한것도
무섭고
어찌되
시대를
경쟁력
꾹
##하란
##원칙
발의
줘서
년놈들
멸종
순진한
가리지
##빨갱
밟아
ㆍㆍ
##데리고
한몫
##십쇼
황교활이
인수
##권에
먹어서
##것에
만에
혓
날로
늑
이영
##하든지
##막이
경제정책
뭉쳐
빨갱이라
이들을
##자이
지네들
##숫
##유출
##명에
물어봐라
##해줘서
##치우고
부과
##교주
치부
떨어져서
화이트리스트
한번만
우한폐
걸려도
빨아대는
##햇다
우리나
것들을
하루이틀
의사협회
육갑
대립
비극
분류
닥쳐
최강욱
##불안
##ᆻ을까요
집합소
양육
품격
##요구
##터져
##공사
##차량
반으로
선동으로
팩트로
빼고는
정은이한테
보훈
##성의
왜그래
대통령이다
##달아
민주주의는
알아보고
고딩
불쾌
재활용
먹어도
버림
동맹이
추석
책임도
대대손손
천천히
##가져
마케팅
더군다나
잘한건
소개
##감사
놈도
해서는
묵묵
##수령
##신경
우월
문재인에게
승인
처음으로
탈북자
ㅎㄷㄷ
안해주
하는건가
##방으로
잘못이지
조작미터
미세먼지는
ㅅㄲ들
##나가고
아들도
##김에
뇌는
청문회에서
##인구
##인들의
놈이네
이건뭐
##값에
상황은
정책에
9월
##때나
집회를
연예인이
개처럼
왤케
조국이는
줄줄
출석
급급
능력은
끔찍하다
잔인한
룸
밀려
해결할
나이도
근거로
##씸
사찰
문제앙
연속
##병을
##싸고
반대한다
밥먹고
과거를
정답이다
##사지
너처럼
##까지만
실드
통한
방송을
생겨서
##모델
중국에게
##봤냐
종교를
장난질
##뻑
##is
국대
##당하면
##여자는
##모양이
위기를
돌파
넘는다
##절로
니들이나
쪽팔린
##들입니다
위생
드루
교민
원본
두드러
민노총이
흘려
주민센터
고스란히
##가세요
거듭
부지
생기고
말이죠
몰아내자
낳아
개망
인가요
왜자꾸
정권도
오랫
자연스럽게
##동의
입국금
변호사가
노조는
25때
흉악
##드릴
##침해
처음에
낄낄
3만
갱이
썅
할머
문재인아
돌아가고
집회는
##주장
꼴에
삽시다
맡기
##교육이
##력에
##트가
##거리면서
친일이
구속해라
사야
가계
돈이나
##표현
##물도
욕먹고
국회를
미치겠다
##가는거
인용
유린
이번선거
이해할
암만
가득한
##새키들
불구속
1호
다른가
뺀
##뿐이지
수십억
이땅에
사단
아무말도
조작하고
규탄
몸을
문가야
더러워서
쑥대밭
하물며
##끼들아
답을
분명하다
시장에
##🤣🤣
아닌게
순시리
짝퉁
##대면서
##였는지
답없는
##다오
적을
##하기로
OE
안잡
모르겠는데
##역할
궁금하네요
흡연
바짝
##더미
머지
전도
오지마라
때린
문제도
피해의식
##극우
##내미
##전략
##표를
##았구나
민주주의의
아닐텐데
이룬
개잡
이름만
대기업이
구라미터
지출
밤새
견디
묵시적
##상황에
가치도
더하면
차관
경원
##감정을
##넘어가
##듣지
근거가
그전
##러스
저축
##모는
트럼프도
알았지
못하겠다
내세워
개탄스럽다
본능
놀러가
가벼운
##스레
##말하는
살아도
80년
##ᆨ션
##꿍
전공
##우스
검열
싶을
세계를
있었냐
레임
초딩도
##마저도
이만큼
어긋
니돈
##발생
나옵니다
짜리
##될것이다
마음의
하늘에서
##한이
저년
공갈
뱀
상황인데
##닦
상호
##맞다
사건에
보기싫다
짚
스럽다
패싱
망해가는
##한다니
##탁이
두껍
월급을
##가보다
모녀
권력은
##도둑
물을
배송
##견을
옮기
##흘려
불공정
층
##보라고
무혐의
도요
했구만
##줬는데
자살한
국정을
제정신이냐
믿을수가
꼼짝
##간섭
##파티
걸리고
##꺼고
봉준
멀었다
##경험
총기
해결될
올려놓고
##자리가
해임
살던
원천
싶은거
흔들고
자원봉
만나고
한수
말해도
OOO같은
부르지
##르텔
흉내
쟈
하는구만
##두리
방지
달린
부모들
산다고
##ᆻ을듯
페이스
병원에서
갖다바
이성적으로
난무
네티즌
응급
##하시나요
##전부
무엇보다
넣어라
당선된
과감
내려야
##나베
미국처럼
트라우
월급이
구구절절
저런건
접수
사죄하고
##밑에
한숨만
##치는게
##금액
침투
참여연대
고맙다고
##다하고
대결
말던지
##었잖아
치뤄
치워라
친일매국
돌아다녀
##하기위해
논리면
냅둬
부도덕
막가파
##뱅이
##나쁘
종양
덕분
##대장
사람이면
##대통령은
##쇼를
다르면
보여주기식
나부랭이
부인이
공연
논다
찍으면
당연하다
50프로
##문제다
궁금해
저지르
안받고
오후
##애미
쇼는
하기야
불이
##행정
좋아할
##쁠
나게
일인가
##문재
알수있
좋다는
설훈
##잇는
이정권은
당근
남는
##연봉
도대체가
음악
##을거고
한놈
내서
잘돌아간다
적페
미친개
5g
성관계
무능의
있었음
알았냐
##생기
##업이
도라
친한
몰빵
찍는다
다르다고
##싶은데
넘어가면
##력과
기사네
이해는
반대하고
##맞은
내려놓
1500
##바닥에
하느님
바르게
못내
##올리
살인을
닭년
벼락
ㅍㅎㅎ
뭐만하면
##못한다
어렵고
도와줄
성공한
얽
보아
잘가라
그만해
세계의
##평생
면죄
##들여서
##에대해
##그림
우리동네
생각과
알아봤다
옹호하고
됩니까
당해봐야
저런식으로
##꼰대
##주니까
##일날
화난다
좋음
##복무
좋은일
베스트
너네들이
##눈에
땡깡
끔찍한
##시계
한복
잘못되
보수꼴통
날리
바로잡
대표님
말씀이
개정은이
중심으로
##거리냐
사고방
##존재
잣대로
사귀
없도록
나라꼬라지
오라
소시오
들면
재검
댓글만
사회주의로
##되었다고
하기사
말지
서슴
##핏
조선의
이나라에서
케이
시점에
##세도
우리땅
들어오면
##하십니까
나쁜짓
면접
이득이
##중앙
간접
수사하는
세계적
부정하고
3류
일가족
개소
총리가
눈빛
줄고
음흉
노가다
비자
할수가
##초에
##죽은
순식간에
##🐕🐕
##시기에
##한놈
주뎅이
여혐
링크
중요하냐
저딴게
노비
##했을텐데
투자를
세상이다
입국제한
##웃음
##짱개
##주시길
##대상이
##마을
말한다
##는거보니
싫음
꼬우면
범죄자들
하루가
깜도
흡수
연동형
자행
우르르
전복
아닌건
타이밍
결사
##프트
전액
셈
잔당
전세계적으로
##많은데
그로
##해야하나
관한
틀딱들이
##정치를
콜라
청와대로
중증
불체
##곳을
크고
이베
어우
##되요
##일수록
입금
예언
떠오
자신은
띄워
여윽시
국어
##마시
뻔하지
내려놓고
사건의
부추기는
##옹호
##아아
하느라
마저
##타도
흑인
##캔
그러게요
새벽에
##관에
올바
언론인
태반
##세습
##겠소
니덜
##헛
확실하다
##리는지
공소시효
이수
아메
##안은
사건도
깡통
마누라가
OECD
려
가뜩
해볼
##전사
##경은
불을
경제활동
편들
김정은을
##뿐인
만든다고
능력을
회사에
이럴줄
남탓만
안갈
##진을
않습니까
##판이
스카
일자리는
아멘
##직으로
##긴한데
악법
사실인데
딸년
똑같음
##듀
##TS
되돌아
했구나
##이니깐
잊혀
##밝혀
조합
기승
말같지도
##보고도
나베는
기가막히
##가짜
##롭다
##했나요
발버
빨갱이로
기업의
보여주세요
곳곳에
농담
있었다면
몽둥이가
##사모
과대
##능후
미국인
##폼
챙길
국가보안
상가
##론하고
##불통
입장이
판치는
작금의
만들어진
판사들
##ae
##인냥
죽지
##방을
##하기만
이정도는
눈감고
32
이사태
언능
기사쓰
아니라서
##정권때
자신들
우동사리
좇
쪽으로
나서야
못살겠다
이하도
말할수
당하면
일본인들
매주
##입장에서
##대표가
새키들
까발려
##사례
거라
##줄아냐
##소리냐
심어
한정
안티
돌고
체감
한나라의
##댜
##뉘
나네
대학이
보존
참패
앞잡
잘못한건
10만
##줄아나
대가리는
못생긴
사람이네
것보다
##해야됨
국회의원을
##거같다
옴
식사
2만원
##나나
시즌
##박한
50만원
살인미수
없는것
자유망
코로나바이러스
입장에선
선동질에
분별
셔
말그대로
항복
디져라
##왕따
옆집
철밥통
##ᆺ든
부른
애완
행동하는
검사도
박원숭이
제1야당
##장과
성립
##였을
##경제를
구한말
그보다
##스코
##더러운
엘리트
##명령
동북
발달
##시키는게
가장한
팔아먹은
##해를
아산
갔다가
##계에서
법원이
강아
파리
못하도록
##기구
##치에
비트
불화수
##청와대
##역겨
##들좀
##어울
##서민
실형
실업률
##거에
##진창
반칙
##종자들
등이
어울리는
##샷
##인물
되었는데
내다
비닐
델
##커녕
프레임을
시다바리
썰
##한것이
하든지
잘하지
##년들이
모든것을
이용수
클릭
능지처참
##을라고
한심하네
##았다는
만든게
장난하나
님은
두려운
충청도
가뜩이나
타격이
마스크나
교회에
근본적인
나지
화학
##넘의
용인
진정성이
처음엔
##수준으로
##뽑은
반토막
##듯하다
계집
##시하는
너보다
개소리냐
##ow
자네
##박스
속을
변질
깨져도
인식이
전북
##워요
특기
슬픔
2년동안
아우성
사스
재고
막대한
바라보는
양반이
그자체
있기에
아니란다
국민으로
공주
해야하는데
공개적으로
눈치를
똘아이
비록
뜻대로
악플러들
3명
우체
말바꾸
안되요
##는것만
뻔한데
##사건건
합리화
낫다고
##신들
교인
키보드
죽여라
유투버
정통
일기
못하는거
국회로
탓을
##만드
##부대가
영남
지랄하네
추구하는
##ㅅㅋ
보석
##운이
난리가
##품을
뿐이
##엿
##계획
##등은
건드려
씻
웃기지
##해선
##전도
남쪽
교류
취득
쏟아부
구역질난다
이르
일치
않겠다
니들만
##끝나면
벼슬
##ong
aid
##사니
주말에
##였다고
실세
태블릿
올라갈
체험
쿠테타
무능력한
7시
없는거지
따름
증인
씨부려
못차리고
자의
##체류
서버
정말이지
꼴통들
전국적으로
허허허
##세탁
##천명
잇는
얻고
##유착
왜놈들
만행
도찐
성접
##양간
##지는구나
안감
##정권에서
##값은
돈버는
목에
하시죠
낙인
신문사
1주
토지
몸으로
##구름
혜택은
원숭아
레임덕
사전에
대화를
여자의
어쩌니
##민주화
면역
렉서스
곁
기레기들아
이해찬이
##관심
누나
##병에
손자
쇼하고
난리나
##땡이
##베이
##할때까지
추미애가
거슬
##같아도
몇시간
적폐를
응원하는
사라진
웃기다
해보세요
짐승만도
캡쳐
낱낱
4대
일한
샛
믿으면
삼청교육대
##XX
되는거냐
고백
##교수가
듭니다
싶어요
때문입니다
##ᆻ으니까
##지옥
아니더라도
##교가
북이
박아
##해야한다고
연말
절망
역겹고
늙어
폭격
##잘하는
가라앉
출신이
법무부장관이
이석기
##건설
##콤
집단들
##사기단
없어져야할
##립시
참내
완전한
##략이
기회주의
##비례
부모를
메뉴
벗겨
일어나는
하겠나
##주려고
주면서
##ᆻ다는데
나라인데
문제입니다
머니
막은
줄여라
##탈출
##할때도
마셔
일이지
한국남
하는일
박능후
##놓은거
총출동
모두다
3040
##을때는
##자네
하도록
##장비
인제
부당
유아
##천이
##강행
고등어
##강간당
##스스로
오른다
할때는
봤으면
남의나라
짓거리가
거르
주는거
일년
알지만
상납
##럽네
부모들이
##구멍으로
##ᆽ고
바지
새기들
뒤가
편들어
뒷전
텅텅
##내로
적절한
초기대응
##가의
##수없는
무게
##진행
##천국
시인
##모든
짓이냐
문재인대통령님
동아일보
해본
##권력을
당첨
정치판에
##정부를
나이를
##조선족
##려다가
저번에
##개도
##라고는
생각해보면
##지못한
핀
되는거다
##었니
바다에
##부턴
##식민
위성
불평등
##겠단
##소환
##안되면
불만이
따질
등으로
##투어
악마의
제외한
냅두
얍삽
1만
##모가지
싶음
##퍼주고
혈세를
너무나도
종전선언
거세
알았네
딴지
불안해
모아놓고
대안을
##하는군
미세
회사는
대처를
간에
퍼주는
아니었나
이게다
논리를
전라도에
7시간
났는데
한명이
먹으면서
##리는대로
대가리를
대통이
하겠지만
사탕
부리
초래
##욕에
공산주의가
재밌
운운하며
##자빠졌네
##화해서
고장
##중심
##군을
조사도
없어지면
투표권
사사건건
조국에게
헤어
윤석열총장
주둥이를
도덕성
빌붙어
##박아
물건너
2017년
완벽한
##보나
비디오
망조
##하시나
하소
사명
우유
거짓뉴스
행동에
느껴진다
늬들
민낯을
시집
##수급
인간적으로
실무
김정은에게
질러
형이
천벌받을
쉑
95
자부
중국가서
세계최고
##응원
이후에
보건복지
##라는건
##니들
한없이
##치산
않네요
접속
논란이
부끄러움을
할줄아는게
발뺌
##라네
그닥
가래
공간
현지
공감합니다
표현을
물러가라
문가놈
공화국
BTS
SK
그룹
거대한
우호
##적이라
##품이
형성
##주소
##원인
말이네
적임
관제
##점으로
수사에
##값도
잡아다가
박정희는
##렁이
부리는
못합니다
이야기가
주시
최태
성질
다음날
날뛰는
##어떤
하향
한거냐
##말의
##쳐먹은
되는구나
##찍은
조심해야
죽이기
의무를
하하하
지맘대로
##주행
다르고
마누
한계가
김연
보수우파
미친짓
##될거다
##ᆸ션
사먹
한줄
유유
##판매
발버둥
정서
국격이
모르는게
간호
##국민의
김정은과
신경안
잊고
##김정은
##하래
아시죠
##짜증
청와대를
다니면
암것도
꿈을
##지네요
##물건
추가요
목줄
갖은
고위공직자
##는대
말해서
신세
##더구만
##했다는데
표현이
##ㄱㅋㅋ
그이상
주무
구만
돼지들
국제적으로
의미를
훈장
나네요
##마리가
중국처럼
언젠데
##맞추
중국인은
감염자가
상대를
코스피
습관
입사
자기의
심사
서울은
사형이
외치며
you
##개찐
상장
나온게
가라고
##부리고
문이
##동을
비꼬
알릴
분들도
배워서
##근로
알고있다
엉덩이
또라이들
##캠
바미당
정년
개콘
사람인가
##걸레
거짓이
꼬라
조작하는
반대하면
인생은
똑같냐
신도시
발광을
6월
PC
pc
갭
받은거
기생충들
신도들
여기저기서
ㅈ같은
말하네
남침
처분
너무도
되었네
집안이
경우도
##94
##가입
지면
중화
없어지고
스스로가
##16
##90
##고요
내쪼
돈없는
해야하나
상관없다
낭
생각한다면
##등으로
연습
백만
##량을
##주권
##재팬
##공신
속아서
떠오르
호기
##할수록
##풀어
조또
##내냐
##모임
실체가
교회를
할머니들을
거리가
일조
니편
떠는
##죽음
죽음으로
1만원
해온
개재앙
국민일보
부리고
##젓
정부나
운명
머리로
상관없는
주민들
너거들
대갈통
sid
비비
방한
있는건가
배아파
##사람만
나베가
조중동은
##헐
해킹
체력
억울하면
##끌어
KT
##못함
허술
조직적으로
대중교통
뵈는게
##겄냐
##래기들
##같네요
피우
##호중
국민들과
깨져
감염된
쪽팔려
21세
고정간첩
##말이냐
독감
##줘요
천문학
##지않으면
있으며
수록
힘써
##귀를
바이러스를
일주일에
켜
한채
무주택
구치
##말라
못참
함박
품질
보상금
그놈이
중에서
##있을까
##개의
대통령에
##하자면
세월호가
터뜨
수신료
오락
##호는
좀만
피해자의
어디갔냐
두둔하는
##느낌
##티비씨
여경이
##문빠
##발의
배출
재앙을
가족도
불가능한
##거로
일본인이
지금와서
저런데
나오는게
합쳐
납치
이은
##으시고
문제에
성찰
양정
찝
찌르
뽑지
##다닐
패륜
특이
딸래미
공무원들이
남편은
등신들
차이나게이트
주옥순
##껑
##까이
##음식
안되나요
광주사태
페미니스트
한장
도려
##시키려
토막
백년
사기치고
어쩔건데
기대합니다
대선후보
착각하는
이낙연이
##8년
##석아
날짜
청와대의
늦었다
1분
헌법을
쓸모없는
빈부격
자작
##구조가
돈버
문재앙도
기다리는
가격을
곤란
##하리
최하
##새가
라인
난리야
##쇼핑
발언은
아쉽다
##쉑
##대는데
##제일
문구라
들지
##영향
가득찬
기어들어
발목잡
사대주의
##없어도
똥이
백인
시국이
##화이팅
##학기
톡
그들에게
##경을
##방지
##놈들도
실수로
난리냐
죽어가는
##hin
거북
차원이
알만하다
##든다고
##끝나고
어른이
##스러울
##대라
문의
주적은
##바타
전술
##남편
열고
부정입학
안하무인
뷰
하는일이
쓰잘
애초부터
삽살
##중단
멍청이
##가치
나는데
일일이
차는
일본처럼
알어
핏
시작된
전화해서
나설
졷
내게
했어요
연명
풀고
하야해라
##인건가
하드
지향
##전라도
박근
미국이랑
현실에
쉴드치는
두번째
뺑소니
##잣
거둬
아이콘
30분
감사드립니다
국방장관
이길수
##산을
##친다고
설치고
##아침에
조국씨
건드리
출시
미래에
투표를
생긴거
납득이
무리한
75
##도다
한판
표시
주진우
지리
대사
##부의
보지말고
반란
통장
무섭네
다물라
##ᇂ고
##장구
개구라
욕먹는
##시켜야지
이거야
군사독재
미디어
책임지는
##광덕
핵시설
##탓을
일베들
밝혀진
지키지
수출규제
##기밀
##주차
자력
##우려
##렉
책임감
##만큼도
노무현때
궁금합니다
고위직
늘어나고
패거리들
나간다
성인이
하나를
해야된다
팔이
걱정마
볼때마다
사업을
그많은
국세
기회는
떨린다
묻고싶다
시정
##일인데
##명씩
종자들이
널리
뉘우
##원들이
##세키
되는건
위기에
불어
정권때
손씨
뜨거운
때문이
하지말자
##낮은
보증
##바위
##획이
세게
신봉
잼
##같은게
이해한다
##꼬라지가
250
휩쓸
님들
에너지
아니면서
##사람들도
막무가
권리가
퍼다
졸개
386
##전에서
타락
문죄인과
##세력들
특혜를
자유대한민국을
범법자
##조절
누리
천하에
폐기물
의도적으로
sid1
만도
동결
##군대
기사좀
단계
종교는
박살내
한선
실종
##께서는
만들어낸
2시간
5만원
새겨
누구인지
형태
신경도
안가면
##맛을
가격은
5천만
##회가
##형에
##지지자
##해줘도
엉망진창
##ᆻ던데
여친
##준게
인간이네
초중
머릿
막말을
집에가서
자백
장병
물가가
##늘어
쉬고
오늘날
모시
일이냐
##우니까
드립니다
자유는
해야하는
안보이
기득권을
루저
사기업
자괴
소수의
문재인한테
시키자
우한코로나
저급한
불태
박지
치욕
회식
백만원
가짜뉴스라고
정지
마주
있는걸
주관
수리
고치
##싶네요
모두들
범죄는
솔로
명심해라
다안다
우발
##는거여
비율이
빨가
##자식은
갇혀
전전
죄책
##알지
환율
여성의
##갑니다
##줍
동지
청정
##한거는
약탈
집회에
몰아가는
바꾸면
현정부가
나을듯
##당아
비추
당은
##령이
##비하
3위
가구
##업계
##올린
논리도
대륙
##부에서
무거
##살기
외양간
실상은
권위
탄핵은
백제
인도적
##밖으로
##끼다
다니는데
준비나
보급
유분
또또
빠뜨
골든
규모
정당하게
##버리고싶다
씌워
플레이
이새끼는
##튀기
뭣도
##하내
##단속
##못하면
그래봤자
##살자
판사는
커버
구분도
##들인지
그짝
##국대
기성
조사가
##친일파
##로다
나같으면
##사정
##족속
청춘
모습은
##그제
##마련
넘치는
통하는
꼬락
##떨어지는
정치질
동등
##했는데도
외노자
조언
화합
선처
받으려고
현역
검찰청
##온다고
낮아
헬기
조리
행세
백프로
순위
촛불은
정신병원
이럴땐
끌어내려야
34
AI
##부리는
교훈
자기만
국회의원도
데려다
열불
##코인
두번다시
법치주의
기뻐
없더라
되겠네요
##쓰지
군면제
##참사
청문회를
불과하다
외제차
415
##ea
##화폐
##군은
근성
안철수는
용서가
##기엔
하거나
지름
##연장
똥묻은
붉은
##없는게
##셨는데
있었을
돼지새끼
518유공자
700
이색
수급
##토리
어려울때
##인것을
주사
만만한
신규
원인을
보수도
##는것들은
탈퇴
붙잡고
되었는지
아니구나
인간으로
뭔상관
메이
머리속에
바보야
##대다
부친
야기
있는한
뒤늦게
##사면
##동포
중지
##안되고
것이라고
안중
보살
할아버
방호
예견
계기로
얘도
반대만
##해볼
안가네
착각하고
##대우
바탕
반증
방식으로
##넘들아
용접
공정과
버틸
이러지
초청
앞으론
편가르
##낫다
살피
감형
이기회에
##축제
황금
회수
뉴스도
뉴스에서
결혼해서
##아이들
진출
잘가
남자를
외국인이
오늘부터
학생들은
도와주고
어지럽
오세요
우리공화
샘
가족들은
##정치인
부탁합니다
짐작
존경하는
실망이다
우울증
주목
##원짜리
##노래
##생에
알기나
피로
현행
##빨간
달창아
방구석에서
국민정
신났네
##잘하고
있었는지
몰랐다고
혈안
##시끼
갔으면
##대화
정녕
##개국
저런인간
능력없는
물어보고
걷어서
##퇘
모이는
재대로
##해야하고
막걸리
##깨진
먼가
##탓으로
토착왜구가
얼굴은
양아치들
##ᆽ이
선제
대통령한테
하시네
가짜뉴스를
어려운데
축하합니다
##토착왜구
다섯
주광덕
많이들
탄도
일반시민
쓴다고
##한것은
문디
여편
사람에
경각
약을
##잖니
최후의
도찐개찐
##잇다
##서트
뱃
잡히
인권변호사
쥐닭
결혼은
물어보
##언론이
늦은
유전자
##님과
얼빠진
##길이다
##배기
우리나라만
그만하자
딴소리
하나님을
##아는데
##야합니다
늘고
워마드
ㅅㄱ
##op
##하는척
##드시고
당해서
반은
영탁
노벨상
청화대
##숴
아비
대입
한건데
개최
그러는거
##미리
##물질
팔아먹을
##쪄
안내고
국민으로서
##산에
신사
지구를
##불매운동
가성비
##ᅪᆼ이
우두
그럴까
몰상식
##꼴라
누군가는
상식을
일본과의
낫겠다
왜냐하면
##코스프레
##마누라
구질
모릅니다
세상의
메세
썩었다
흔드는
죄인아
다닌다
49
이뻐
지만
마눌
서리
취약
하는짓거리
어여
삽니다
##개정
미쳤다고
왜저러
쓰리
암적인
잠이나
자랑스러운
핵심은
##도없다
주휴
##이징
막힌다
국가간
부모님이
충견
공부해서
경유차
기냥
나락으로
한국땅
도끼
김용
찌끄
모든것이
적폐는
귀에
개판이다
깔고
불안해서
정의롭고
##이어
할수도
죄질이
웃음이
평화는
좀비들
##아저씨
##차려라
빨게
문제인은
무뇌아
##일치
##냄
##내리고
##비싸
##까짓
원하지
됐다고
앉았네
##사건이
수괴
얌
들린다
단군
사과해라
비판하면
가거라
##일거다
무신
먹이
증상이
##넘는
여자들도
식의
##보이는데
##시아가
대수
해처먹
적응
서민이
##완전
근거를
화가난다
##대협
계급
단죄
눈도
쟤는
##는거에
애잔
모두에게
##나가면
빚을
끌어내려
##아깝다
##꺽
같지도
##저지
물가는
아가리를
지대로
##사들이
이러는
##끌고
지옥으로
자수
##부다
못받는
먹칠
##으니깐
최고로
디져
곳으로
다행입니다
용서를
훔쳐
쿨
##는데는
감정을
최성해
떠받
##협력
##프로는
바보들
국정조사
한적
주장이
조국보다
##펜
웅앵
##더라고요
2018년
##나보다
여겨
##체로
김지
재조사
처신
in
##되나요
봐주고
##맞네
나온거
헌법재판
몽골
대안이
인지도
죽자
발휘
사법부가
프레임으로
이벤트
##툼
##이거
하구
말이라고
나라팔아먹
알리
애매
실력이
놈들도
앞에선
잘못돼
좋아하지
환불
##협박
얼만데
재건축
##되는것
말인지
누워
받으세요
달게
싸지르
테이
벌어진
##기라
##때보다
##표는
인간들도
소리도
필요하다고
사실로
조선족이
생긴다
쟤들은
태평양
##갚
##한날
아내가
사교육
검사는
저렇
않고서야
묻지마
김일성이
페이스북
하찮
##과학
##었을텐데
받기
##보다가
기사들
단일
봐요
조사는
이땅에서
##하고자
없을까
제동
##슬쩍
제목이
YG
전가
##석탄
##ᆯ링
뺏어
떠들어라
뻑
압니다
##보이고
내놔라
##자슥
##부제
일본편
자기도
예배를
약속을
늬들이
A4
##민들이
한치
일인
국민이다
대표하는
임산부
##TN
개털
제안
쳐맞고
착한척
##지니까
내몰
북유럽
방학
드네요
이야기는
관심없고
시절에
지속적으로
맑
##프다
특징이
##떠는
테스트
하니깐
원숭이가
모기
살수있
##공약
방씨
따르면
빼먹
아는가
갔냐
##사구
##실로
운행
위험하다
비난을
##둘러
위원장
##자냐
시시
##제기
있기는
우리끼리
재선
그랬어
질이
디자
뚫린
소주성
소시오패스
oid
꾀
##ed
##하느
##롭고
노통
##론을
교인들
##의원은
선동을
능력있는
노력하는
훈훈
우려먹
이용만
##고있으니
학교도
밥먹듯이
연출
어디있냐
싫어도
시작한
##시간이
##인거고
벙어리
이마트
##미나
서명
##하는거랑
핵폐기
고생하는
밝히면
짤라라
차에
반반
필요없는
##하든가
영광
가짜뉴스에
깨끗하고
낫네
아닌척
댓글보면
##정부에서
이거냐
불쌍해
광화문으로
다녀온
인신공격
무당
전반
진입
내팽
##때를
천년
##죽고
##앞잡이
##나무
나뿐
있단
##있네요
정치보복
##길에
##범으로
어쩌다가
##봉사
있음을
나대지
비호감
신라젠
뇌를
잘살고
SBS
##나하고
이제까지
언니
성지
성실히
달성
총선을
핵보유
거짓말에
실업급여
##👍👍👍👍
받았다고
나왔으면
사돈
우겨
된게
틀리
No
아지
소리지
##충들이
느끼게
##정책으로
우덜식
##ᅣᆫ
이기는
이룩
핵포기
##덕분에
삐뚤
쭈욱
##하야
##니티
##인배
##발을
흙수저
ㅠㅜ
##겄지
주입
##해서라도
이런걸로
##키우는
계십니다
씨부리는
##뜬
없는거야
##할만한
동반
##살면
##소리도
##정부에
시민의식
##싫으면
하다못해
##색히들
가볍게
유공자가
39
##것들을
조국한테
날치기
세월호를
갖추
회사를
아는척
##떨어져
해골찬
아니여
새꺄
종편
언제든
따라가
솔직하게
문재인이나
머지않아
담보로
끝났어
자살골
선택한
미통닭
##던게
조국일가
박근혜보다
##고있냐
처음이다
##좋아하는
좆국
닮아
이기고
##어머니
자질
많으시
돌아올
##수준의
올려야
고소득
사드보복
##텐츠
놀랍지도
조오
##되는거지
누릴
예민
걸림
##ᆻ을거다
들어가라
사문서
##단지
불필요
참신
##줄이야
아이큐
권력과
##하겠어
위선과
통일은
모자라서
이슈화
포토라인
lg
사람이라고
하는군
언제적
올랐다
##경제는
낚시
한거야
저급
정치도
답게
갖춰
기술을
제외하고
대응이
##생도
배를
신천지교
아이의
하루아침에
지역에
시절이
우습다
보좌관
수장이
내리는
못찾
그랬지
##앤
민주당이나
##좌좀
##햇는데
어떨지
소년법
##리핑
##중에서
기생하는
뇌물현
무리들
##시국에
사료
##드신
역으로
됐냐
수준도
활개
마이크
지명
##애액
##고있고
윤석렬이
되지만
신선
박힌
일반적인
파헤쳐
배부른
애꿎은
엊
왜이래
야근
때리는
안보여
내려가
신기하다
##ip
이라니
##어는
다니네
높게
뭉쳐서
말씀을
##고루
제사
화해
##청소
올림
안되죠
손잡
얼굴공개
학교는
자국민이
든게
교과서
봉준호
out
##넥션
##상이다
##정책이
1일
뱅
##수구
##과정
##세상이
결집
발암
##릴까
##맞지
없애자
미쳐서
##사건을
쏟
적패
증세
회개
더불어민주
사건으로
하는짓은
품위
재수없다
지꺼
언주
##씨의
지지도
삼성전자
##갖다
예수님
쌩쑈
52
##컬
##보군
김부
##형은
광주는
즐겨
특수부
##때기
간판
얘가
밑바닥
본적
그만두고
거짓말은
기본도
##는디
국민앞에
##든데
##작전
누른
##함의
걸까
따위가
##열심히
한번더
격추
대학원
웃김
갖다붙
어마어마한
##펀
##희가
아베에게
각본
되는줄
운동을
빌빌
##상황에서
나불나불
노망난
개웃기네
생선
##없구나
##실수
단절
##폭등
무능하다
풀려
윤석열을
네이버가
읽는
쌍용
주제파악
자르
한잔
##하는듯
중궈
못따라
알겠
물이
단체가
##느껴
이미지가
달창이
##기사를
##시대의
##퀴들
슬쩍
##받아야지
예전엔
에어컨
##지급
대외
##여대
사람들아
불이익
##계좌
##루즈
파시
인정을
다르네
한국인들은
아픔을
짝짝짝
1순위
시녀
원가
##es
누드
입당
막론하고
자한당에서
득표
주특기
대화가
##수거
법원에서
##매일
낙마
아까워
##하는짓
##문은
박찬
있는것도
##투성이
유튜브에
보훈처
##썅
##기기
인맥
오랑
##연방
추정
개판이네
##자식들
홰
한쪽으로
당한다
잘못해서
##는다면
##1도
그짓
가혹
사람이나
너들
입좀
답답하네
##맛에
부족해서
그말
가정을
대모
한국보다
자기를
국가안보
대마도
##볶이
민좆당
자국의
진화
많지만
이러냐
탓으로
이태원
##지능
##왔냐
입대
문제인지
전라도에서
충실
##떠나
##똑바로
##돌아가는
목적을
##고는
안주고
저여자
##상종
아니까
안되게
받아들여
권력형
대표로
나베야
받았는데
##냉
저들
김호중
입이라고
##집도
탄핵당
가족의
한국당을
의료진이
늘어날
후손들이
긁어
드루킹이
전철
신혼
구속하고
그와중에
아니길
##단은
의해서
##군사
자유와
수준인데
##시켜놓고
끼야
있을거
결과다
이놈들아
국방의
노답이다
해제
차리자
##불법
방구
##받는게
침범
술을
틀딱들은
최순실은
##시기를
일처리
##재는
우찌
##비교
남용
##길만
버리지
평상
태클
놀아라
신경써라
잊은
우선이다
생긴게
목사님
##화법
재료
친하게
##반역
얼마를
회원
호황
진중권은
녹음
성과급
림종석
찜
더는
여성을
사상을
한순간
##람프
야구
성금
열라
사퇴하세요
비싸서
YTN
일안하고
반만
도가
##배치
막으면
##거릴
##왕조
내용도
아사히
문정
##는거니
경상
것이냐
정상화
하루도
##눈엔
대부분은
안그러면
7년
났
국민적
같던데
불신
반기
방패
##하나는
##뿐인데
이래놓고
##밥그릇
##끝나
어때서
##수나
일회용
##무장
##와이
않다고
왔으면
빨갱이들의
찾을
##슬림
##이유는
노골적으로
##시당초
이런것들
##발정
##셔도
임종
수사도
피해자를
##핑계
##붙어
kt
사자
##진않
##방망이
##청탁
##영이
자유시장
중요하지만
냄새나는
##필요가
자원봉사
4억
##냔
한창
미제
##안전
##있구나
지금쯤
##애는
경제발전
이상한거
##꾼들
##탈을
보다도
지저분한
공시지가
종부세
##장이나
되는건가
##각한
있는건데
##점도
10배
만든거
사진은
문정권의
박원순이
피의사실
is
지발
##신지
##간다는
##중한
##태는
##배워
뽑아라
##엄청
감축
##벌고
헛짓거리
맘껏
관계자
##띄
##하느냐
##구질
##예배
명목으로
네이
급하게
결혼하고
##하겠죠
민족을
노력해서
남한에
비슷하게
힘들어서
##시절에
화폐
##된건
현장에
속는
조사하라
써글
밥이
밥을
결혼도
이종
##하는구만
##적인데
이해하고
##하자나
보낸다
반성도
않는다고
김대중이
양정철
##부수
있단다
##동에
재혼
##열을
백원
##냄새가
##팩트
넘었다
두배
당신네
쟤들
문과
##르장
과도
망국
##소리야
빼액
아베랑
팩트가
살인죄
꼬라지를
찬성하는
잇다
없에
ㅋㅋ진짜
##모으
노브라
발작
통곡
대구를
##할수밖에
업소
아프네요
안지
우회
중학교
실효
발생한
##측이
800
##자루
대국
봐줄
삼가고
병이
집단으로
몰아내고
묵묵히
아시는
거르는
##치던
무방
오타
드리
##쪽팔
##인들에게
뛰어나
아쉬운
권영진
앞날
하냐고
무너진
당하고도
시기가
##구매
##권자
사람죽
곱
상습
장악한
##거리로
날아가
승진
하시오
뜻이다
영향이
바둑이
유병언
##한단다
##사형
절실
##아닙니다
접대
저기요
CC
이OOO
##분해
##키가
매너
살기좋은
색히들
어설픈
##ec
##랍니다
##수업
더부러
댓글창
##였지만
교회에서
노무현은
떵떵
내정간섭
하겠습니다
없었고
##할꼬
빗
연예계
덤비
죄지은
정화
보고만
환호
퇴보
##높은
##부품
##진핑
##체계
들었는데
법관
기자도
##다르크
##겟네
##부림
안본다
인내
##살을
##머리를
공산당은
놀래
석고대
##이답
민원
돈이면
어디냐
##만하지
가릴
해먹고
전멸
##할거냐
생각이나
필요는
##참여
##극이
미칠
##신아
되지도
냄
못먹
##놈이다
받으며
이제껏
좌빨은
좌빨의
이윤
둘로
웃기지도
인터넷에
인과응
##기본
어준
해상
##임ㅋㅋ
##짓는
눈알
있었다고
거기다가
일어나지
뭐하는짓
선의의
##다보면
아니구
##두는
명명
100배
정상회담
정세균
슨
대재앙
##여명
잘해야
##라고요
많던데
##저라
##살림
통역
##한거네
보고싶은
물어봐
##어찌
##주겠다
와도
강압
뭔짓을
심장
스파이
짱깨가
우기고
##터지고
빨아먹
##반일
스웨
행위는
저러는
##하지않는
어릴때
백종원
끊임없이
##🤬🤬
그라
기피
##직이
없다는게
피해자들
첫째
짝사랑
상처를
한선교
sbs
##보러
가여
말들이
강원
위해선
땅에서
변호인
왜구들
##하는것들은
보여주네
교활아
##푼이
엄중한
3배
##하셔야
##기위한
나가지
들어간다
소리로
호위
완치
##플루
비교하면
자랑스런
##하려나
아가리에
##힘을
향한
주체사상
일시
보조
니들을
나라인가
남았
불참
##대표님
문빠들아
부동산투기
광주에
기준을
주둥아
##할매
장면
넘을
터진다
학교가
2분
##기억
사위
문가가
일어서
좌천
##걸려서
언론통제
##뒷
이모양이
##사와
조양
##었구만
##터지게
##처먹는
망가지
걸리는
대깨문아
낮짝
공동체
##밍아웃
실질적으로
안속는다
48
##당선
수순
##적이라고
##남은
얼마전에
초미
잘못이다
##시키네
외교가
싫어합니다
뜻은
불매운동은
##가능한
##보는게
수없이
맞어
잡힌
뒤를
10프로
자극적인
##야하는데
나참
거른다
##되었는데
개보다
##할테니
제도를
##열이
##로로
문닫고
미만
부자가
짓만
불법체류
청년들이
자녀들
남이하면
르노
##츄
##am
이행
##하리라
##매고
둘은
집값을
대똥
전후
##군의
##살짜리
허무
겉으로는
##DP
##하는사람
않으면서
북한이나
망해서
기자의
항일
키트
안타깝고
한남들
냅둬라
55
7월
몹쓸
해가
북한에게
적절
명박
##시키냐
죽여놓고
##TO
가세연
대박이
없기
니그
구하라
##한다면서
한국산
##살에
친절
##먹을려고
199
장례식
##라가
사도
문재인이랑
##천하에
기업과
흰
멘트
솔선수
사진찍
심각성을
도둑이
##5천
##주들
문가는
보네요
못했
알까
살포
선호
##시킴
좃국이
흑자
싱가폴
##넉
##셉
애시당초
던지고
폴더
##ᆫ다고
##기미
##야된다
자란
##수야
한짓
재개발
무슨짓을
##변호
염치
최근에
스티브
##리본
##소속
상생
##방은
하고있는
##반응
책을
갈기
있었지만
40년
힘내시고
눈치보고
치매가
누군가의
##집으로
##놓구
##형님
정신차리자
뿌리는
요구하는
옷을
나뉘
##♥♥♥♥
##거를
뭔죄
철없는
맞는듯
공감순
몰아내야
뛰어난
##ㅅㅂ
나아지
기저
안이
##치지말고
##유린
너와
민초
구하기
기업들은
개소리는
헐뜯
당해야
##함도
삼류
갈아치
쥐뿔
##잘못을
주자
무인
##화학
##본부
##소도
##두지
빨아라
커뮤
월급도
법이다
분담
##였으니
한반도에
##앉아
잘난척
징그럽다
하이에
나같은
대는
돈있는
누르
성도
##쓰는거
허나
똥고집
평화경제
비난하고
아무데나
말구
##비자
##준다는
김돼지
##남이
코로나도
합당한
역겹네
통합당이
지껄이고
당사자
##마귀
화풀이
경악
##었어도
##방향
외에
##밀고
빚이
이쪽
##겁니까
##시는지
사실에
포인트
5일
사러
저분
##번이나
때려라
몆
그럴거면
엄마는
시위를
자슥아
유재수
쭝
이긴다
코로
##순간에
##온나
속셈
백화점
손가락질
묶어
형사처벌
뮤
##안나
##빕니다
죽도록
##폐쇄
혀를
15년
##하셨어요
저가
차도
##질듯
연쇄
막혀
##귀신
골고루
국개들
불편한
경제와
놈현
패망
무식하게
##기사에
자살을
첨단
보험료
##보장
##ᆸ니돠
##왔고
그런소리
연세대
기사냐
잘못했다
##시키려는
짱꼴라
##례를
골치
##본다고
##회복
오지마
중국유학생
세금이나
숨길
##정신병
사태에
지네가
희한한
##지는건
정무
부양
빠져나가
익숙
구체적으로
##지시
##자들아
##받으면서
학종
포털
창의
아프면
원숭이들
미안해
우물안
사대강
보신
일반화
어린아이
받을수
악마가
##지역에
김제동이
가면서
##등의
뉴스로
##억이상
마찬가지로
대남
20억
보여줄
샤오
신경쓰지
안남았다
치우고
분란
아무생각
이래저래
##대가리는
##답네
넣어야
흑우
부분은
훼
##야죠
저기에
배짱
국가전
어떠냐
속이는
해외에
개혁의
노친네
##기는게
##볼까
##짜고
오거
과정에서
인간들이다
관세
죄도
##채용
명예를
유리하게
쫓겨
젠장
##ᆷ은
다알
##되었고
오라고
##줬더니
##랄까
사람들이다
바라보고
뜯고
분열을
주인공
시스템이
여태까지
이지경까지
##렷
부유
빼라
처음본다
특별한
이세상
오르는
##끼들이
잡지
절단
승객
기승전
##10년
못구
##근데
##결정
철학
교수는
빌미로
가관이네
공중파
##보상
구혜
##외과
찍혀
##허다
개판이
##바라기
1개
2달
조문
거랑
##애들도
싸워라
금수
##대통령을
안보이나
##이상이
혓바닥
하든가
##사는게
마감
수를
##중입니다
##해야겠다
평창
니넨
하는거고
비판하고
뼈속
##썩은
해대고
##체적
도주
##영업
##애국
받아먹
상관이
이순신장군
##여자들
말해봐
전향
##속도
똥꾸
##련다
##값을
사기꾼들
##당이나
보이니
##할거야
사람인지
상담
분신
봤을
줄여야
##백만
틀딱들아
배척
증권
빠지고
산으로
정신병원에
농단
##기관이
납부
시키는대로
세종대왕
##ap
##니스
일말의
추운
토사구
##하는거보면
떠나고
한국당에
##헬
나대는
##경협
##급식
강사
전기세
플래
현금으로
문베충
캥
자해
자사고
개이버
문재인이는
장관에
힘들어도
꽃뱀
정직하게
실리
미쳤냐
##상황을
언젠간
##et
##하오
##주지말고
이런사람이
그래봐야
##쳐넣
돈벌고
현기차
저절로
미달
이상으로
놀고있네
##손에
공수처설치
##딸은
뜬구름
그후
안재
융
강효
열받아
선거로
패고
세계최
캄
실제로는
빨갱이다
##하지말자
##ᆯ라
말해봐라
위증
안나올
저래라
사지로
##수만
부장
##싶지
멤버
나쁜놈들
이놈들은
그따위로
뿔
ㅇㅋ
가담
주니
너두
우리편
알겠지만
건국
천지네
한심하기
얘기하고
전쟁은
지켜주
##인원
##던말던
##놈들의
관상
집단은
한국인들이
198
헌법에
근로자
배현진
##당장
해달라
못가고
##처먹은
보내지
업고
월급쟁이
밑으로
웃긴건
폐지하고
한일전
안중근
이보다
이토록
##게시
계획이
총칼
얘네들
식물
하시면
위험에
밑밥
같다는
반정부
좌빠리
시민들은
사형시켜야
주변에서
윤미향은
받았으면
편향된
##사다
정식
죽이지
##준화
경찰의
리스크
돌려보내
##인이다
##대는거
넘으면
##온거
##강한
편이
저러면
금리
별짓을
두고봐라
소비자가
사장님
니돈으로
##았는지
정신적으로
실정
변절
모습에
기대를
##늠들
맞춰서
조절
시장을
남지
적도
시간은
로봇
##털고
##ᆸ박
뭐하노
당의
##받기
사회적으로
밝혀지면
##대던
##놈들을
드네
외계
지원해주
복무
몇명이나
부메랑
##만하네
당에
당했다
##있지만
##버스터
코리
특성
##거지로
공격하는
열받네
거품물고
잘되는
욕나오네
절로
패션
세월이
##싫고
사태로
뉴욕
자력갱
나가리
무전
눈앞에
돼서
급한
강남좌파
러시아가
이딴거
그릇이
잃어버린
##유치원
대동
너때문에
우리사회
결정을
단정
##긴다고
상태가
팬티
42
모가
신입
##더나
##이나마
지지한다고
사기친
닥치
2016년
이슈가
8월
대사관
안산
##내리
##줬
국회의원들이
항명
##례가
시작하면
네이버에서
어이가없네
측은
오만방
트라우마
5시간
께
없을텐데
집유
믿으라고
승리는
올라오
활짝
핵무장
치졸한
되기를
최전
종신
먼데
##될텐데
똘똘뭉
푼돈
이력
아구
그린
인줄
##미화
탈당
##할수있다
준비하고
생명과
엿먹
넓은
##옆에
유유상종
거면
기적
##오를
남양
##받는데
사기극
##이상은
일베가
##얼마
병원비
집안에
강간당
하지말라고
##ᆯ러
나보다
인명
##팔아서
시작도
염려
도덕적으로
공식적으로
색깔론
##자동차
실직
쓰레기통
이럴거면
않는다는
쫒겨
퍽이나
구질구질
보기에
우좀
##말이야
내역
중대한
도착
입닫고
##못해서
추하게
조선아
된거지
난리도
트럼프한테
붙이고
기대된다
보유국
진상규명
모자랄판에
##랍
청주
##함으로
공개하면
##장기
말처럼
힘들면
양심없는
하시네요
끝나는
##결과가
##ED
##고만
있잖아요
같은게
단두
가족과
##가즈아
장사가
총사퇴
싸잡아
탄핵에
보다가
저격
들키
버르장
바보같은
해주지
가지도
##러지
##굼
아니었으면
고무
참전
건전한
황당한
봉급
이익만
대우를
내세우
못되
야만
사실대로
머리카
삼성도
##쉽게
뒷감
폐지해라
현정부는
촉구
같으니라고
뽀록
이눔
자자
수사해야
니들한테
반성을
제목을
평등하게
근거도
추종자들
자질이
소문이
생각한
성차별
##종양
##책이
외교적
해결해라
명단을
솔선수범
9억
##아주고
##스러움
개새
내신
##오늘
하는것은
절친
##열고
무시한
총을
해야하는거
필요해
귓
물어보면
##지말아라
취급하는
IT
##고한
하거라
기차
안했다고
구형
의뢰
깽깽이
##으란
##세이
##유죄
노리고
당파
##락을
모두를
한심스럽다
착하게
스스로를
자기들끼리
덮어씌
런
힌
##긋다
##수들
##내세요
알라
없는가
##절에
내로남불이
너도나도
빵빵
47
##애를
기사의
심보
똥이나
보도를
##쫄
##13
구차
발라
없는것들이
끝도
##꺼라고
20만원
바꾸는
90년대
거리고
국격을
##하는것들
##바퀴
##임에도
중국에는
치안
했을때
허세
쳐라
악한
##강화
선동이
빠가
복직
##정신이
좌좀들은
##맥주
생각좀하고
##ᅭᆼ
##지다
##부패
없겠지만
##재로
고가
재능
소리다
진보를
합법화
불로소득
진지하게
보라고
감이
손이
얼굴만
그럴수도
##세력의
길거리에서
##증명서
뿜
개들이
오호
맞는거지
동작
의사들
그자리에서
내주변
국밥
##건너
되지않
참에
##감각
무너질
##해져서
##이라던데
맞이
계층
씨가
트럼프의
##특혜
뽑아놓고
충분한
개같이
##권력이
인간들을
강기
명재
##운동을
지나친
농업
접어
안전하게
어째서
시청료
일으키고
이끄
다수가
##당한다
주동
참을
##근처
##는것보다
극히
압류
널려
극단적인
수탈
##소유
노리는
OOO가
구속이
밝혀질
##눈에는
가중처벌
유흥업소
일이라고
되어가
불순
명을
호칭
글에
알려주세요
하야하라
상태로
##뭔데
난독증
##늉
알아요
구더기
얘기하면
저지랄
모르겠음
##nd
없지요
선봉
##불고
##하여야
3년동안
몰려와서
##셰
한해
##올리는
많은거
정상으로
살인범
안믿는다
##잣대
##려요
안바뀌
##구민
##위협
무식해서
어쩔수없이
못살게
명백히
극단적
##ig
##수기
안듣고
없었을
개들
고난
##오세요
##설이
이랑
##댐
있겠네
소모
피고
받는거
##공급
##해야만
탄핵으로
월드
세월호로
창문
간첩들
##밀어
##뺏
옛날부터
대해서도
무역전쟁
##해본
까먹
성장률
장악하고
목적은
가는지
가야한다
문재인보다
##연의
결제
독도를
아이들의
##침략
모지리들
가관이
##여기
보상을
할망
분배
미국에게
공산독재
정신병자들이
기회다
문대통령은
노래방
사무실
룰
##생은
##버티
##시키야
지역은
이재정
##하가
아니라도
##한테나
막을수
##아니네
토착왜구는
사진이
통계청
공익제
오마이뉴스
##시니
##시대로
##사카
닮은
부천
##받이
친일청산
환자들
애국보수
사리사욕
##나야
아에
##으실
거역
##내려고
고의로
고개를
##직업
쓰기
##악마
탄핵하자
##눈깔
##ᆻ거나
##아들이
모이
##세무
수감
개의
##석도
안되겠다
공부는
담마진
위선자들
##힘들어
댓통
그들도
거기가
##일이나
내는데
요번
##키워
OOO들은
필요함
커넥션
대책없이
뱉어
44
##ㅌㅌ
##가만
##세우고
##드라마
동무
적국
어쩌라
추가로
##깡패
##부정선거
차리지
상도
힘도
영상을
싶다고
넣어서
낙제
일어나서
생기지
##짓거리를
포함해서
살길이다
##기념
##대해서
##있을때
잡종
##맞게
장사하는
홍준표는
횡단
옵션
##었군
정권잡고
##언정
됐으면
알고싶다
##세력들이
랑
##이즈
##만보고
사단이
시대는
##조용
요기
선장
불출마
미국가서
##소리하고
통진당
심신
줄은
트롯
극치를
저런것들은
그렇치
다음에는
안달난
##적자
될까요
사람들과
##될것
권력으로
##틀어
대변하는
퉁
##ᆫ가
##리야
##으시길
##해주길
밥이나
##들에게도
로맨
여성부
받는다고
맡기고
선진국이
스웨덴
##부동산
##세의
북의
들쑤
문제네
욕하던
난장
거짓말도
걱정입니다
규제를
##하누
그나라
저쩌고
##선으로
오진다
중국하고
치러
머하냐
##빨이
빠지면
정은이는
##뭐야
쏘고
저지르는
덤벼
공기청정기
21세기에
뭣이
말이되나
글은
##꼴을
다니며
메인에
의원은
누군가가
감정에
왈왈
##잃고
정착
않겠지
##트리
감염이
실적
달라는
판검사
폭력을
쉬는
흐지
갈아엎
동조하는
횃불
##덥
##수석이
낸다
중졸
끄집어
세금낭비
사회는
보수라고
탄핵하고
감옥으로
직무유기
가려고
모냐
생각이란걸
조국만
싸운
없어진
음란
##학생들
않는다면
장기적으로
퍼트리고
1주택
##짠
##라더니
##깊
감투
##됐고
어디에도
##하려다
묻혀
송중
펼쳐
119
##테이
어디든
무식이
##잔어
놔둬
망해가고
한시간
공과
빨치산
땜시
##친북
##외에
가까워
강간범
등신들아
죽이려고
허접한
더했지
신빙
##인가보다
다음으로
차지하고
##멈
##수첩
문간첩
##들이니
##마당에
##말자
##내도
니뽄
할건데
대통령이라니
망하지
스위
##포먼
##세력을
무섭네요
##관광객
##ᆶ어
전사
발행
그런다
심하네
논평
친일파들
도와준
발언이
땡큐
##기생충
##시하고
##대소
일하면
실실
손목
점유
민족이
굳건
어쨋든
탁월
##으리
살만한
많어
매진
OOO은
악취
얘기만
이름은
종북주사파
사법고시
부족하다
어지간
명령이다
비서실장
4차산업
것들도
##주의에
놈들을
믿기
등은
##해보인다
풀어서
반일을
밝혀져
짱깨는
의혹만
되었습니다
##밑에서
일이고
좌편향
##대로라면
지지할
총으로
이상도
처벌하고
정상적
점수
몇십년
##스에
내시
만화
조국사퇴
상정
정치검사
경제학
좌파들아
간거
##줬다고
##는것처럼
조작의
겹
대단합니다
나온다고
넘어간
보여줍시다
위협하는
어떻고
CCTV
꼰
콱
조옷
##조카
개한당
생물
얼렁
설계
포함한
무섭긴
깃발
보기도
공표
너같이
배포
하지요
웃으면서
외교도
창업
쑈를
연평해
아바타
있노
##치우
김명
장갑
강대
발을
온나라가
카르텔
##한것처럼
악플다는
건강이
떨거지들
##ᆻ더라
저자
##건을
##생기고
##년들은
##천억
언론개혁
작정하고
##다니냐
심판해야
뼛속
##에에
아들을
저리가
제정
본색을
두손
갈수
메달
모양인데
대형마트
구제불능
넉
##주머니
##세상에
고교
##주의가
자유당이
답도
범죄집단
활보
지방선거
이민가
##ᅯᆸ
보러
##상위
부글
내통
##단의
속여
##놨다
늘어놓
바래요
이상황에
것이라
방금
기사내용
쳐먹는
속히
사랑해요
목소리가
괴롭혀
일베충들
조차도
승차거부
##자제
자나
일년에
##때리고
만천하에
나경원도
민노총은
미혼
잘했
뭐하니
##학력
될수도
휘발
GDP
진다
차분
유세
의식이
경제의
몰두
##시키기
저러다
총선까지
안보가
색희
따로없네
G20
##마인드
같어
쳐박혀
놀면서
조작해서
팩트만
헤쳐
클린
치료제
뿌리를
추미애는
똑똑하고
세치혀
##랭
##ki
##ᆲ은
이도
수혜
##통신
돈받
집주
##매장
##시켰다
집구석에서
mid
##인건지
통탄
씻고
들어가야
겁나게
버렸다
##터진당
동상
양현
별반
여행을
벗어
현대판
##질않나
도장
타격을
##락치
##ᆻ을지
결과적으로
싸움을
가산
##교활
##프게
두분
학벌
##티브
수사하면
진보좌파
일어나고
성범죄자
##읽고
##수증
있으신
수억
부가
##히들
때리면
정권유지
눈높
악마다
지랄발광
안타깝네
되돌
경협
##비행
할복
도그
탄핵해야
##괴뢰
5분
이개
여실히
##있니
요런
총질
머리속
주변국
##세력은
딴따라
흉기
##어느
전무
내놓은
##말고는
아베도
찬다
바뀌지
미세먼지에
고생한다
통계조작
깜빵에
쩔쩔
어버버
삼가고인의
2만
컵
아니어도
##진데
대통령님이
감방에서
##사실을
유분수지
to
##시대가
대명
의구
건다
##착취
##었다가
##빨갱이들
##한것들
##자산
##의견
모텔
왜그리
비용이
반응이
##걸어
##늙은
공감이
당당한
경제지
잡았
명성
##하였다
괜한
티비에
냄비근성
##까도
##바보
말세다
##식당
##득실
##돈도
술취
집권하면
서리풀
토사구팽
가다
##네는
내라고
모르겠냐
확장
쳐서
거짓말만
부정적인
처음에는
리얼돌
해체하고
무력화
##ad
##한단
##기소
문산
검찰총장이
지나고
군인권
얼어죽을
내리면
북한이냐
자유당은
임상
##하나도
논쟁
너희들도
30만원
제품을
나중엔
##수용
##정리
사람으로서
##단위로
##크리트
##하는거보니
출소
베충
미세먼지로
조심하세요
통합당은
배워야
세력들이
비정상적인
##쒸
##하늘
##한자
일해라
없었음
##개선
그런거야
김정은한테
구속영장
##그러냐
건강을
기도합니다
재인이가
김치녀
일제강점기
##이이
중인데
버리면
조선인
별의
##그래도
독립유공자
혐의가
##낸다고
무너지는
##따위가
활동을
미치광이
중도층
횡포
유전무죄
싹쓸이
##ᆻ었는데
보는구나
##되면서
부각
##시키는데
필터
##갈기
시댁
여당과
이딴게
##부모가
엿같은
신천지만
낱낱이
##시청
미취
소금
손모가지
울부
공부도
강력처벌
적당히해라
##ang
##세대가
##무너
##회에서
요란
와중에도
댓글이나
##잡힌
이해안
백색
대단히
있을것
인간이길
자랑질
송혜
올해는
##샵
은근슬쩍
줌
여대
고대로
##연하게
엑
호로
날도
바보들아
채우고
땅이
얻는
환경부
##할게요
쩔어
##긔
##200
김태
미치지
하이에나
일본놈들이
두산
증거다
##생각으로
종교인
드러나는
영화를
되었나
아프고
빠져나갈
##로를
모자를
##불이
##박탈
끄나
나오기
만들려는
아버지는
직장인
순실이가
자료를
허구한날
법치국가
안쓴다
전력
중계
##우가
남기고
얼릉
박근혜와
꼬붕
크루즈
##🖕🖕
##줄래
돌려서
##정도의
돌아이
시민의
##갑네
닫아라
망쳐놓고
생각해보세요
나누어
김재규
하차
##말까
전대통령
##문의
불려
줬다
수입이
##인것처럼
##거짓말
안받아
좋네요
이유없이
커밍아웃
주식시장
도망갈
##그만하고
나에게
다문화
일하기
##님아
먹는거
싫어한다
알았어
무너지면
끊고
얘네들은
있군
ㅋㅋ이
알리고
영부
##잘해
공무원들은
집단감염
휴지
던지
단어는
분리수거
몽둥이로
##신데
인하
만이
##중이고
##분양
그런것
욕이나
한다는데
여자랑
시간도
소름끼친다
순공감순
5촌
##보이네
안겨
들려
##해야할듯
따박
뒤지게
초딩이
아니고서야
그리스
지나도
공산주의로
티가
국개의원들
##까라
수영
참견
분산
했나요
돌았나
투성이
독재는
월남
시간문제
두렵다
브리핑
유능한
한탄
안그럼
없니
두면
##따박
이유다
##겠냐고
전문가가
##었나보네
집에만
손석희가
국민혈세로
60년
아는지
기침
안망
되네요
잘나가
##비난
외에는
##ᆻ냐고
하는데도
부탁한다
##보듯
##대문
장교
만들어준
범죄에
로비
##웨이
시스템을
탈출은
이철
개떼
##놈이네
얼마안
끝난다
똥구녕
##휴가
뎃글
승리가
알았으면
알았더니
부르면
축하드립니다
떨어지니
동일한
한푼도
이부
##면으로
정해진
개별
우리들
추앙
시민을
##놨는데
싹싹
3년간
부딪
가보
핍박
##타서
원정
##매는
변함
촛불시위
멍청하게
아파서
찾아볼
자빠졌다
12월
자동으로
마지막으로
ㅅㅐ
개조
생일
과정은
최대의
있다는거
경찰관
본인들은
멍청하고
탓만
물건을
헛발질
오락가락
우라
전주
##차려
문재인탄핵
20만
사기치는
내려서
쥐도
15억
길거리에
진절
##내어
사람이라
살았으면
넘는데
저런말
뺏지
질문에
기자들은
##페이
간첩들이
부동산은
##할거고
댓가
##많아서
무소불위
석고대죄
6년
##하디
대문
남아도
##줄을
이용당
멀지
똑같지
밝히는
잔인하게
불화수소
이뇬
한줌
##적용
공뭔
내비
##내면서
제자리
오물
위정
##질서
생각하세요
실수를
좌파를
초록
뿐이고
견주
남한을
부추기고
외면하고
##ᆸ기
못해요
##중계
왈가
정신상태가
##킈
##그려
##전술
적합
날강도
꼴좋다
저러지
100퍼
올라가고
물론이고
영향력
이념에
5배
##임대
##직은
장소
##하는거죠
##고있어
국제법
무법천지
##니들이
##나해라
모병
아니구만
##소굴
도리
김구
배째
이해할수
질린다
##라이트
여당의
재판을
##논리로
어렵다고
##사법
##부자
##것과
반민족
독박
허탈
나오겠네
그럴싸
쪽팔리게
국토부
못나
##실은
##크게
있다는데
푸틴
아르
##부동
##화도
전방
유난
교사가
죄로
여자한테
쪽쪽
18유공자
갈등을
한둘이
주시길
아니요
##적임
##전까지
같애
생각하는지
반문
죽였
좀먹는
##증가
될걸
편입
치료를
빨아주는
고집불통
일으키는
어플
##놈이나
악을
보수정권
##극혐
##나오지
되는가
나서는
답답합니다
피해보상
없는건가
##소설
잘생각
노노
피는
조국수사
맞는것
꼴리는대로
조작된
##될수
사형을
전기차
누워서
자기들의
##하는겁니다
##싶고
쉬워
각각
역사왜곡
살고있는
자위당
여적죄로
##하에서
먹기
눈엔
머리도
틀딱아
후보로
이분법
똘마니들
##얻어
그곳
한꺼
##했었다
집한채
문제라
얘기해라
되었고
옷벗
이념이
모집
무거운
전적으로
##차원
##실업
##살지
파워
천사
너희도
덴
있나보네
쓴거
휘청
한일관계
전문가들이
##었나요
##린다는
그리워
학생들을
않았고
답답하고
힘들어요
특권층
압도적으로
정숙이
유언비어
대세
더런
##개인
##질의
역차별
동족
##먼지
흐지부지
##가구
시신
##왔다고
##남기
##고있음
번지르
있냐고
깔깔
화장품
권한을
윤총경
김연철
##쏠
##서나
모함
개작
##단식
후련
서울역
무섭지
며느리
갔네
말해주
처먹는
현정권이
##죽인
기업도
불쌍하고
사라진다
야당의
위선적인
흔한
부끄럽고
케어
다까끼
녹취록
낀
##하락
고종
놈이나
싶나
박근혜의
##포르
당연한거지
##맞춰
친일파는
광주에서
손해를
어른들
한패
망명
마음껏
잃을
행태가
집구석에
sec
오랫동안
##민의
##당이다
것이니
소고기
##두렁
쓰니
대통령이나
박근혜랑
10분
##돌림
오래다
자격없다
마찬가지고
담배피
쑤셔
실질적인
그니깐
모은
말까
쓰던
정치의
선동당한
##정책은
깔려
11시간
빌어먹을
이라면
가상
해보지
##바기
##모아서
##생아
도피
무슨일이
##소리하네
탈락
여성들이
비리와
상대적으로
바닥을
##반에
목격
특허
18은
##쯤은
인사를
세뇌된
최신순
98
##닿
기쁘
국보
##당해도
군산
염병하네
성접대
##14
어림
않겠냐
##빠이
뭔지는
세금내고
판새
##잔데
프레임에
고향이
노트북
풍년이다
자력갱생
##거면서
바리
##간게
##회는
두루
용어
아줌마들
저질러도
마인드가
##기면서
##파서
##나라다
##해야되
나오니까
어찌돼
판단은
15일
받을것이다
##좋은데
탁상
양도세
이로
##은퇴
시방
##내지말고
##우나
퍼포먼
이용하여
##지않을
대북제재
다이어
##녹
가지마라
아니지요
전투기
들리
몰이
라며
오래된
사태는
입국금지를
희생양
안맞는
쎈
##자비
나니
부당한
합의를
베충이
시작했다
진보라는
당시에
당당하면
대만은
##이라구
많을텐데
맞짱
독재의
방역에
##지도않고
해봤자
국민성이
잘했네
세대가
##단절
##저도
먹튀
쳐죽일
보수언론
##인간아
문죄인을
사랑을
신경쓸
존재가
육군
냉철
가증스럽다
설문조사
##자인데
##주마
한순간에
인프라
생각나
돈많이
몰고가
두눈
파멸
그만하세요
##다가도
협정
여러분들
혼자만
엊그제
##ᆺ던
##ᆱ어
국민여론
##권으로
##회피
소명
드런
##끓
수사방해
꺽
이노무
말기
소외
생각됩니다
##주의로
망정
보수들
##광주
생긴것도
5만
##22
대대로
바쳐
전관
##테크
입마
스파
스케
##딱지
징하다
##버렸으면
빈다
일당들
공소장
##거니까
##구현
우왕
그러네
비자금
않는게
죽인다
##란드
성전환
당신이나
##한겁니다
메크로
붙이
시장은
죽었다고
명분을
미사일이
##민다
##제도를
구태
받냐
##청년
욕해
##사회에서
움직이
안나오네
둔갑
4명
##지검
그분들
주류
잘되면
넘아
쳐먹은
##거리를
국세청
##췌
정청
##것인지
부른다
잘봐
##임에
발동
분쟁
##이네ㅋㅋ
##죽여야
안낳
밟고
##곰
정우
바치고
##불만
있는줄
달지
두가지
없어진다
터무니
보이는게
no
##as
문은
보았다
##선고
##진압
한국기업
##판에서
지원하는
##협상
올랐는데
할배들
##어이
##사업자
##대사관
##드리는
##노답
##실망
받음
##같은것들
눈꼽
##만원이
인정한
사회주의를
바뀌는
##툭
##사하고
못보는
일본인들이
상판
달면
하나에
상황이다
높고
학생들에게
##의한
안드로
치열
우한에
버티는
##주신
걷고
모니
마사오
보려고
##전체
우리모두
##학살
##놓으니
친일파들이
해결이
번도
심판하자
독립을
휠
가격도
쌍팔
##때문이
가득차
안찍는다
##다구
##왔으면
##족들
계기가
심해
떠난
누구하나
올라가는
조금은
##수준이다
##인거죠
객관적
기고만장
##되겠지
전제
차마
##회로
경제전쟁
##순환
온국민
여자만
가짜뉴스는
그럴수록
시청률
잘났다고
얄팍
쫙
##💜💜
##과도
##마사오
##하고있는데
##내는데
##모리
그러려니
##위도
위주로
그랬으면
##샛
별개
할머니를
수십조
##ung
쿵쾅이
바이
안올
##전에는
##걸리면
운용
사실이고
취미
짜빠
너네도
공정을
절반은
내란선동
슈퍼전파
##다행
잦
##끼들은
땜
드세요
온다고
##율은
##하자마자
##되는구나
지랄이야
비리로
남북경협
원하는대로
##하심
##의심
되어도
되겠나
##이라지만
반듯이
한국전쟁
방귀
##정부야
희안한
깨끗이
오마
강탈
했니
손녀
선동과
적폐라고
그립다
답답해
흘리고
아웃이다
민생법안
90프로
열받게
지멋대로
##긋네
거리면서
수십년간
꼬락서니
주적이
미운
말길
닛
##디다
##류의
호박
기억하고
충분하다
아나보네
질문을
음식점
이산
##한잔
모질
되풀이
##타기
이번총선
##릴듯
##싸게
##코드
처벌하라
방송사
치료도
##범죄자
시끄러운
삽살개
쩍
아는거
되는걸
내자식
피아
그랬는데
문재앙이는
세금폭탄
그럴듯
이지경이
늘어난
14일
##눠
나야
##구석이
저놈은
##는데로
성인지
##쓰는데
##열어
겠다
처벌받
자빠졌냐
집권당
왜구당
군부독재
대께
맏
보육
미틴
##한다더니
##줄려고
대한민국도
원합니다
하나다
짓거리는
많은가
약소
벨
마음도
반일운동
최순실보다
하늘에
ㅈㄹ을
동사무소
37
그녀
지혼자
처맞
변해
라디오
지나치게
감사하고
찾아봐라
남한의
이사가
##자치
##수성
##트리고
계세요
끄덕
자기돈
지껄여
합법적으로
##없애고
우한폐렴이
가정이
없단다
자기나라
니네들은
즐기고
##지못해
났네
반하는
새롭게
찡
필요한데
종교에
기부를
##사건도
전국의
비싸다
무릅
간단한
##문서답
##하이
지나서
##데모
##렇게
정해져
자들의
시점에서
한들
없거든
개빡
만행을
성태
배만
##반이
박근혜정부
구라를
##했나보네
##붕괴
##유발
##오나
본래
봤지
누구랑
누구처럼
자식들도
음해
##지지자들
바이러스는
전두환은
인민군
저렴한
지라
한중
그러는지
성욕
반대합니다
어리버리
이용해먹
##릭터
동북아
이때까지
가니
미용
되찾
##안다고
고시
화려
중국만
좋으니
##석방
아이도
밝혀지
바람직
불공평
퇴직금
살겠다고
할거냐
반찬
쳐묵
퍼나
끽
##국가를
사회주의가
희생을
경험해
부서
위헌
신변
들켜
존엄
##나오냐
현재는
당선되
돌아다니는
한꺼번에
린
하겠
명칭
갈때
##이닉스
하루만에
인생에
##해줄께
##비에스
도요타
UN
련
##정당이
##에게서
넘길
두명
자한당이나
눈만
개판인데
바꾸자
##하십시요
##ᆻ기
이찬
가이드
보답
##전형
##파고
##업에
타인의
억대
급증
독립투사
늙은이들
WTO
##어쩌
가지면
일좀해라
인형
잘사
대한민국이다
간경화
초과
헤아
논리에
이딴식으로
창피한
일관성
럼
정정당
##용품
생각해야
코로나때문에
하기전에
묶어서
70년대
##ᆻ는가
안마
##했다며
오늘의
하십시
광화문광
품절
박그네가
51
##나이에
더해
##오리
것들이다
생각하는거
##업무
정치로
##박사
어찌보면
일자리도
노래를
있지도
중이다
##더불어
표적
필요없
##멘트
몸소
##싫어서
나올듯
농사
데려가
웅동
##35
##섞
가져야
있거든
안합니다
##오른
남친
##죤
##달에
보고서
반대가
가능하다고
조용한
궁금한게
대책없는
초반에
##tv
##ol
##대원
내집
##더군
적당
있을거다
분양가
없는거다
진천
유대
##트를
정신으로
##검색
패턴
##인간들은
특검으로
무서운게
예산을
구린게
##ᇀ어
왜사냐
##료는
##날뛰
##병은
엄정
독재자의
기회로
모습이다
##로그
##거라는
지분
해마다
인사가
남들은
몇배
이랬다
그때가
사법부를
힘듭니다
로맨스
##il
##보죠
주려고
생각해야지
##석에
배터리
따지는
2020
독재로
보니깐
##ᆯ까봐
없나보네
주지마라
잘보
스태
디젤
##덜은
잣대를
좌표찍
##그렇지
우체국
거참
참사
출장
##죽어
없었다면
진단서
아동학대
##굽신
본보기로
조동
잠이
개이
아니든
##무효
우리와
쓰는지
대통령탓
달아라
명언
명분으로
띨띨
솜방망이
##ᆻ길래
##사이에
##드세요
못봤다
##소리만
조사해봐라
복사
가격에
분열시키고
필리버스터
법인세
맞춤법
##ᆯ레이
무차별
##건물
좀해라
이상을
거짓말하고
카악
가면을
콘크리트
##하거
##것인데
##건도
아니었다
적당한
코드
막아서
##잡은
친일은
##였군
어느때
복구
괘씸
너네들은
운전자가
눈물을
가증스런
##oon
정치와
##인가봐
늦지
##끝까지
수단으로
아가야
어긴
대치
##부처
문똥
오사카
씀
##후보자
신천지에서
횟
조작이라고
혼내
##집단들
예전에는
보나마나
46
##자라는
지우
기네
##바에
사람이고
##ᆨ이야
##날에
좋아질
놀려
##해주니
인정할
결혼하면
드러날
청문회때
##놀음
재수없게
다스려야
문쩝쩝이
##가들
갔나
##소재
##미쳐
##물림
매력
명의
##백백
즐기는
거부하고
전염병이
##데도
생각이다
선임
방송이
없애면
관련이
묵인
who
기막
##조각
##모씨
##방사
정신나가
##들어가서
영공
넘친다
뽑자
논점
답네
##극기
능가
전문가들
임금이
못하니까
왜하냐
##생기면
배때
두목
##범은
세월호도
##놀고
##짖는
모양이지
바닥에
##인민공화국
쌤
아집
하란
대하는
##그때
내야지
오프
##관도
맞긴
힘있는
추장관
난동
##하시는지
##뿐입니다
울화
미쳤어
개무시하고
방호복
이대
이씨
엇
##계산
외칠
##추종
짜르고
##찝
사기꾼이
##덩어
빈곤
가르치는
##ay
##록이
##민들은
알기
돈의
##역적
쇼쇼
한심한것들
아가리만
##레이크
공통점
일식집
시원찮을
누리는
서영
적이다
들어오고
현실적인
이기적
##수있나
전국민을
부분을
##유포
당일
한국말
##름이
많이도
황교안을
공개를
선택이
늙으면
늙다리
쩝쩝아
씌우고
##것같아요
이사장
##거여
해병
우빨
욕해도
##쓰지말고
저럴까
팔아라
##써도
넘어가지
기술력
##일본당
뻥튀기
이념을
신념을
##주라고
##여부
보완
##것들도
세컨
고성
남아서
돈받아
동문서답
먹었
똥통
50억
축내는
학교를
아들딸
대선에서
##재앙이
나쁘지
검색어
정정
없던데
##이랍니다
물품
##어서는
싸워서
죄국
잘못하고
삼척
##넘을
중국인들은
쪽바리들이
유치한
그것만
충성하는
of
##거랑
##아네
마루
세수
##단으로
드뎌
##판으로
넘기고
머라고
제일먼저
규명
한국인의
자랑스럽다
환경을
싸움이
내부고발
여유가
지잡대
기상청
##ᇂ다
##줍시다
닿
안해봐
일대
사람보다
역행
##가림
국회의원들은
하늘의
멋있다
나중에는
새삼스럽게
쥬
##🇯🇵
실감
##추방
논두렁
공무원연금
##페이지
무너진다
##깔고
##300
문빨갱이
보따리
우글
적법
현정권의
배은
했었는데
한다며
초월
지원하고
외교적으로
상황파악
종교단체
모습으로
건강하게
괴롭히고
고개숙
모시는
국기
분통
좋은게
##삼성
노력하고
##하지않나
꽝
##거주
사업자
지금에
##주의를
통보
##인이면
표만
한마디에
##레이드
트집잡
뭔소리야
##시스
##당들
인심
죽이면
낮다
쉴드치
빤쓰
뻘갱이
수요가
##굿
이런사람
방식이
망친다
필히
호화
##ㅠㅠㅠ
꿀꿀
레깅
##사격
말들
##개학
때릴
##입을
소리에
몇개월
박근혜때는
자식한테
극악
촛불들
가만있
번영
십년
꽁짜
##ᆿㅋ
##기피
##대행
##내는게
제도가
유교
정치색
군복무
몇명이
업종
듯이
시장에서
비싸고
근거없는
깍아
웃음만
바른미래당
이새키
개호
##통일을
제국주의
경주
대통령까지
##지말구
전국민에게
선생이
아줌마가
XX
##라쓰
무척
말했
##는거에요
나라입니다
##더리
애들만
이제와
조작은
지랄한다
의심을
미개하다
마포
##는거나
비가
들이다
##홈
##군인
무슨말
기사에서
518은
대중이
만명
##좀하자
충전
시작되
궁리만
이중적인
세력들
2주간
##스컴
일들을
재수사
##해야겠네
머슴
열광
이렇게나
태도가
빠질
길러
혹세무
옳지
판사도
눈치나
쩝쩝쩝
고만해라
한이
문화가
없을거
개노릇
##통치
##전체가
##옵니다
##글이
##벌을
표기
##철회
안보이는
정보가
##낀데
용기있는
##인공
##대더니
말세
의리
##합격
사골
맘충들
홍어들
##겅
##이웃
##오르고
건들지
멱
온상
필요하면
순국
자신도
만드는구나
부추기
둘이서
이놈이
나열
##스피
##스카
세번
같으니까
알간
생각하며
##발에
중국보다
김남
삼아
날마다
30억
지지율을
##쉰
원래부터
##공산당이
자격지
##억이면
어딜가나
##하랴
##의해
대란
거시
국력
너야말로
오게
생각안하고
친환경
잘못도
##지도록
##시켜주세요
부모한테
충격이
##확산
멍청해서
군대에서
잊을
70프로
여태껏
사례가
치밀어
##지부
재개
##애기
민주당아
잘못이냐
보수라는
병자
##것이며
해결해
여성은
##그래서
##사고가
분탕질
떄
아오지
나같아도
거겠지
다뤄
##깥
구시대
남여
##하게도
한국여자
##쳐놓고
이번정권
입국자
##것같아
부역자
##장수
치네
달콤
겠지
살아나
편리
##이랑께
본인만
기레기들은
준비를
안갔다
##집회는
##우리나라
탱크
지위
##삼이
살려야
달빛
변명을
##검사가
나올때
2년간
생김
시끄러
##답답
그날까지
알릴레오
이른
어겨
미뤄
##안해서
##교안
많으니까
쓰라
##호도
이러나
발톱
알고는
##측근
무리하게
or
이데
이자식
##가동
갉
##수없다
부관
당에서
적나라
올라온
이시기에
빨갱아
그정도는
험한
이병
동생이
작동
킹
꾸미
하지않고
기아
없는건
죽었으면
##꺼임
##아닙니까
어쩌려고
기레기는
매국노가
덮으려
명명백백
kf
많더라
##이나해라
애미애
치르
소리네
완료
가족사기단
충돌
이기적이고
자존심을
앉아있네
겉과
뜯어가
부지런
신격
##처음
서글
역전
##감소
##함ㅋㅋ
##달래
##충들아
작정을
핵실험
##탓만
##지지하는
주장은
지옥에
##틀딱들
수단과
폄훼
##멀어
##잇네
##자위
무인도
##놈들이다
경제공동체
##다니지
희안
정상은
석렬
여기서도
오토바이
##인력
##려놓고
인기가
되요
유부
##타지
발부
한다니
##총장을
태세
##충들은
마스크쓰고
궁리
억울하다
매일매일
남북이
베네주
장학금을
전자개표
여지가
ㅋㅋ아
말든지
국민이고
##왔나
고양
##년놈들
쓰여
임원
##포장
만들어야지
좋아한다
립
말아주세요
죽어가는데
짭새
##거도
다분
한사람이
진도
공론
##선도
잘된
비양심
이런저런
집결
토요일
책상
좋아져
아베나
별것도
##될때
##좋다고
거짓말과
다니니
취업률
시원하다
객관적인
루머
김여정
su
##지나면
##붓
##통화
니놈이
생각들
애새끼
##지만도
##베이터
##시민들
##이상실
야당대표
남한은
무소불위의
못나오게
노력이
반민
맞는다
그래라
안보임
사이에서
나불거리
##ᆻ단
##깃
##인식
##보겠다고
거쳐
##조센
##중공
종일
명시
핵미사일
부산의
의무가
어떨까요
자진해서
황대표님
호주머니
커뮤니티
##ᆺ으니
오만한
같지만
대통령부터
드나
외환
관리를
막기
타워
넥
꿀꺽
인류의
ㅅㅅ
##컥
##지식
화면
욕밖에
판문
유시민의
의문이
조상이
모래
##침이
공조
만나는
위인
돈줄
##반성
지방은
##살인마
8년
mb
안산다
##일이냐
##차기
신은
지지한
##는것에
못한게
되어있다
당사자가
sns에
##한가지
개명
생리
##었을때
소니
필요할
라니
좋은건
##많음
##자리에서
유시민씨
공감능력
자랑스럽게
뒈지
얘네는
주휴수당
머리카락
##야하는
가보자
다카
못할까
화끈
일본꺼
연휴
별짓
체결
##라스틱
중립을
입닥치고
웅앵웅
##자한테
하질
반가
자식에게
나왔다고
갖춘
견뎌
씨부리고
##해줘야지
##햇다고
이승만이
안쓰럽다
##뢀
그다
##통해
갈취
##하기까지
##생각하는
전화를
놀아난
안봤으면
##지수
##부글
무임
아니네요
이런댓글
언론조작
필요하지
##할때마다
온라인으로
3기
##가기
사내
전에도
##받으며
건축
나오겠지
선동은
현실에서
토착왜구들은
잔재
##만명은
인사들
김종민
PD
##우익
서방
스크
얘길
뇌종양
밝힌
불매운동을
컨셉
##od
그제
##자격이
사격
알만한
의인
참말로
싶을까
##현장
##한거라고
국민들께
##만원짜리
기독교인
쉴드쳐
듬
펄
##해졌다
가겠다
없는건지
중이
죽는게
군생활
속출
찍지
올랐다고
논리라면
##지말아야
짜파구리나
##대지말고
다망
일용
무분별
##성이다
##친중
##추적
책임자
공산주의를
이기면
쌍으로
지껄이지
찍어준
늘어나는
명확히
##차이즈
우리민족끼리
8억
내말이
노총
살려라
구리
##받음
##망덕
뭔짓
국가도
특목
##증을
방역을
##늠이
민심이다
엉망으로
대학생들
컨트롤타워
ㄱㅅㄲ
##통은
나라들
##처형
언론장악
호흡
팔려
##욕심
개인적
비판은
드러누
털어라
##주는건
##되겠다
##장학
오케이
드글
##창이
##줘야한다
##정은이
만들겠다
##ᆻ던거
삐딱
나눠서
##밝히
엎드려
더러븐
일일
##르다
##소식
생각해요
입주
아줌
##이러스로
분명한
똑같은데
손혜원은
열받아서
비열하고
한결같이
##고의
안주면
##내네
왔다고
망하기
막말이
자신에게
면상에
대선에
10년전
틀린말은
##당신
더하네
텔레
##풍이
페미들
어마무시
입시비리
왜가
살이
살기가
의도는
먹이고
돌보
저런사람이
간주
##잡배
핵대중
중국인을
그때가서
##줄알아라
##얼굴에
무장해제
##부네
##차지
이런자가
아주머니
취해
보여서
지원해
내로남불은
죽였다
조직이
##으로서의
되는거고
##하지말라
심신미
이따구로
문재인에
댓글단
편견
자신감
불쌍해서
##만명의
죽어가고
해체하라
대박나
ㅈ도
사려고
조그만
우대
입양
깨갱
##확보
지켜볼
임명하고
##활동을
잘살게
꼰대들
바쁘고
샤오미
이지만
##도우
수면
전까지
내로
많았다
집요
종트
##인줄알
##출신이
짖는
눈치보느라
은혜를
##라기
대머리
다냐
주저
핵이
뭐하자
고영
오는데
생각말고
불난
재래
##인가족
에미
웃으며
##대통령님
데뷔
##지않을까
##문제도
야당을
사망한
25전쟁
##지역은
맥락
갈아타
경제성장률
##지의
##국도
하셔야
가당
거저
주인은
##신가요
진성
내어
구미
들여서
이제그만
쓰레기로
쪽박
##넣어
아파트가
있는거고
절반이
##뤠
아군
한것이
일종의
##매체
합심
인정해
밥값
있었구나
잠도
##밀리
##했던거
##하겠니
##하신분
가려서
가축
##냐ㅋㅋ
한거다
살려면
##했기
조국이다
두루킹
##범을
상황에서도
우한으로
평화의
헤드
빨아재
김어준이
바램
엎어
어딘지
쫘
이구나
저놈들
못읽
제제
알잖아
도살
##속을
원상
영역
됐는지
국방부장관
삶에
빛을
##흔들
##맘에
개OOO
못보고
처먹은
뒤에는
속내
사실관계
##플리
판단하고
사라지는
기독교가
뿌리뽑
##힘들다
선심성
정청래
##할꺼다
##개나
불상
피임
장구
치지
믿겠다
윤총장이
선동당
돌아댕
##해야지요
이명박은
프로그래
모였네
##궤
일벌
미스터
세력을
##걸요
동성
법앞에
조작과
##웃기네
헌재
때문이라고
다주택자
뻑하면
다이어트
이네요
##나이다
과태
박고
권력도
정상이지
지키려고
년은
되었다고
서울대생
이성적인
모는
뭐를
반성이
##빠들
타당
표로
조사받
처벌은
쌓여
가오
거에요
밭
##구경
##모르게
##했군
##된지
정부여
##새꺄
아닌이상
새우
경제력
##시민이
숨은
불쌍하네
대표는
##시장은
최저임금이
꼬라지하고는
풋
아부지
서영교
66
쬐
##ew
점이
인멸
국민이라면
생각된다
##행세
##린건
살았다
달려드는
전광훈이
6억
##vs
##하소
사필
##소문
세울
##워도
##됐으면
망칠
##어야죠
꼬리자
증거로
위해서라면
관련자
거리두
이중잣대
##뭔지
국가보안법
##시로
사치
자리는
우버
##내용이
##님들은
##하나로
완화
말이되는
##셨습니다
일어나면
문정부의
가해자는
사라지면
우두머리
다친
사람새끼
구분이
돕고
##사람한테
에잇
철퇴
산책
곳을
읽을
직원들이
미안한
##지도않은
기운
인근
##내야지
##중지
않기를
상한
방구야
타다가
조선을
회장이
격이
글도
귀태
남자만
있었을까
시민아
탓하는
맹신
com
##의무
##주식
시늉
국교
차이는
나라말아먹
드론
여자로
어렵지
##귀에
##밀히
안나오는
썪은
##ion
이불
지연
가려라
##겹다
##한다는건
왔네
아닌걸
악덕
##설수
세계경제
리그
노예가
배운게
환영합니다
##라지만
아저
##재료
공을
생떼
##실세
불리는
들의
##호의
성격이
OOO이네
떠날
몇억
##수준을
의원들이
##수사권
사태의
훈계
득세
나랏일
없는거냐
##화장
근간을
##빡이
악착
답입니다
귀화
찾아야
시작이네
알아봐
따박따박
미국산
편에
저러나
##지않음
##고있지
듯한
인생의
듣도
교수들
타령하는
지인들
지었으면
사시는
##주셔서
한경
안중에
그러한
요약
##걸음
100조
인터넷에서
영혼을
쩌네
이십
상주
근친
청와대도
귀막고
높여
##쓴다고
히히
매출이
사네
마을
미역
오전
##작가
먹게
##폐하
이번정부
합쳐서
풀어라
넣은
##볼때
통일부
조장하고
되도않는
강성노조
하소연
43
##으시면
가전
##남도
##들어도
##한거죠
시간만
년들
나서지
만큼은
바쁘네
##ch
이분이
##로우
##이라는건
##걸면
질서
여론몰
놓으면
알바가
의혹은
##정책에
이놈도
##따윈
민주화를
협박하고
후손들
겪고
전기료
진즉에
뼈속까지
##이념
이치
나쁨
##제외
아니였
덧
##회사가
세일
노령
고칠
추억
종결
거기까지
고소고발
불안하다
어이가없다
줄어들고
고유정이
이언주의
1절
##ᆷ병
##이들은
이곳
어이상실
##되기를
##는데요
오신
신설
##짓하고
언론노조
미안하지만
##벌레들
꽂아
##이비
##이길
##시지요
그시간에
뭐죠
##법이다
문제죠
매각
수사관
멧
하는거임
이것만
문통의
유튜브에서
몇년전
파악하고
옥수수
노란리본
훤히
##쵸
수산물
누구라도
썼다
않았냐
테블릿
모양이다
##말아먹고
##서서
##한명
##기각
##부려
일사
##봤나
외친
욕하는거
##형제
##싶어도
피해본
선거도
##허네
명문대
GP
##시까지
##되도록
그러므로
돈내고
원하는게
게거품
세계일보
거짓말하는
전쟁터
대표적
낙동강
후보가
홀로
은근히
주지말고
차려야
##짓도
방안
##됐지
하나투어
언제든지
반대다
중요한데
검사들이
승부
시원한
갔다온
다가오니
제재를
위장전
2의
다아는
##내놓고
##겠군요
니말대로
까놓고
임무
##릴때
국회의원으로
힘내서
한반도의
구조조정
중권아
정당은
##때메
반쪽
빨라
자유로운
악어
##하기엔
데이트
밥줄
엄마부대
##저리게
한명이라도
부관참
##고로
##나마
지친다
못지
##받았다
뱃지
봐봐
죄파
학창
##나오는데
몰랐네
##만큼만
척살
찔끔
불가피
바탕으로
##ᆺ는지
##제국
였다
피디
필요하냐
##될까봐
협상을
그럴수
##사태가
##챙기고
두드러기
안내는
##는겁니까
##벳
잡는다
늘려서
색휘
상관없
소득세
아하
어물
쓰자
안될까
당신과
짓는
찍어야
베트
뇌구조가
##봉투
넘어가고
싸워야
신속하게
##로울
##부역
북은
##불허
손주
얘긴
깨우
부모들은
비교할
##헌법
김경수는
쪽바리가
엑스맨
##하마
안드
아니거든
경제살
안되네요
허울
조사하자
사용하고
왠만한
털어도
현정부의
오랑캐
뀌
##77
##os
안본
해경
##하면되지
야간
북한보다
친일로
운이
##정도가
탄핵감
삼성의
유지하고
왠만하면
어떡해
셰
콕
##펄
##9년
##다는데
##도도
##거예요
대역
거나
##처가
자한당아
##착오
김기춘
##ㅂㅅ
##고리
##국개
자들을
##있노
알긴
댓글에서
통하지
놀리
놀구
조용하네
문통과
안돼요
숙박
##웩
이영훈
##닮
내냐
##냈다
##미만
##비슷
약이
드시고
##박질
난도
속초
꺼지라
정치인을
평등한
밖에는
4월에
포르노
뼛속까지
이권
자택
인당
인상이
##안정
##았지만
관대한
손님이
양준
열을
목욕
웃어
##백만원
##인간은
짜증나네
모른다는
빨간색
쓰레기통에
늘리는
이넘은
자진사퇴
분위기가
##3일
##5일
##부름
##까페
일진
문재인정부는
매체
넘들아
쉬세요
##뭐가
특히나
##뚜기
4천
##돔
지뢰
정적
저넘
우리랑
박씨
##소리나
##창호
##싶음
##투입
##맞냐
형식
##김없이
빨겡이
##촬영
##tn
개지
제약
##산지
##버려서
쳐박
##정부와
팔지
머릿속
있었다는
끌려가
##니는
가보면
##주며
고수
##짓하는
인간들의
미국하고
투표용지
씨부려라
민경욱이
##사이비
여적죄
##조아
인원이
##실장이
선방
맞다면
머하는
##날까
공산당의
준비해라
의미없다
##고물
나라탓
##명예
대통령께서
김밥
장려
예의를
나오네요
짜져
정도를
##탈취
##귀한
붙은
꿈깨
남한이
원전을
철수해라
반박을
뒈질
여론조사는
오거돈
가튼
주제를
대구시
##생각하고
일반인들
##문제에
축적
정신병자가
몸매
문죄인의
두고두고
북괴가
발악하는
민생을
##아프다
휘발유
##가르
##소독
##단위
안되어
광진
해결된다
꾸역
틀림없다
82
퇘
대의
시사
##수와
한동안
일하는데
##동은
##진료
당명
살리기
##승차
패권
##담을
지원은
지역사회
삼성에
점검
안타까워
한국인을
싶은가
잘못된거
196
혜택이
달라질
떠들지
대대적으로
후안무치한
형평성
양극화
그기
##믹
##속의
애한테
친일프레임
20프로
##지않나요
져라
안달이
대박이다
어벙이
사필귀
이꼬라지
##리당
##해보니
##뭇
##할려는
신성
피자
서열
문재앙이랑
종업
한번은
자신과
##존엄
쇼만
##쉬고
없을거다
엮어
해줘야지
기름값
이렇다
수개표
잘지
과실
[...]
