▁▃ -0
▁ㅇ -1
▁ㅇㅡ -2
▁하 -3
▁. -4
ㄷㅏ -5
▁ㅇㅔ -6
▁ㄱ -7
▁이 -8
▁ㅇㅡㄹ -9
ㅡㄴ -10
ㄴㅡㄴ -11
▁ㄷㅏ -12
▁ㅇㅢ -13
▁ㄴㅡㄴ -14
▁ᆫ -15
▁ㄹ -16
▁, -17
▁ㅇㅓ -18
▁ㅇㅏ -19
▁ㅇㅡㄴ -20
▁1 -21
ㅅㅓ -22
ㅡㄹ -23
▁되 -24
▁ㅇㅣ -25
▁ㄹㅡㄹ -26
▁ㅇㅓㅆ -27
▁ㄱㅗ -28
▁년 -29
▁ㅇㅡㄹㅗ -30
▁ㅇㅔㅅㅓ -31
▁2 -32
▁있 -33
▁대 -34
▁ㅇㅏㅆ -35
▁ㄹㅗ -36
▁ㄱㅏ -37
▁사 -38
▁지 -39
▁그 -40
ㅁㅕ -41
▁시 -42
▁일 -43
▁ㄷ -44
▁ㅇㅕ -45
▁ᆫㄷㅏ -46
▁들 -47
▁ㄱㅘ -48
▁가 -49
▁수 -50
▁기 -51
▁전 -52
ㅈㅣ -53
▁적 -54
▁아 -55
▁20 -56
▁ㅇㅘ -57
▁ㄷㅗ -58
▁월 -59
▁주 -60
▁제 -61
▁ㅁㅕ -62
▁19 -63
▁다 -64
▁정 -65
▁ᆯ -66
▁자 -67
▁중 -68
▁위 -69
▁인 -70
▁ㅇㅕㅆ -71
▁공 -72
▁보 -73
▁경 -74
▁개 -75
▁세 -76
▁것 -77
▁ㅈㅣ -78
▁부 -79
▁ㄹㅏ -80
▁ㄱㅣ -81
▁유 -82
▁오 -83
▁3 -84
▁" -85
▁조 -86
▁나 -87
▁선 -88
▁스 -89
▁등 -90
▁ㄱㅔ -91
▁성 -92
▁미 -93
▁연 -94
▁동 -95
▁마 -96
▁상 -97
▁소 -98
▁한 -99
▁모 -100
▁고 -101
▁비 -102
▁구 -103
▁V -104
▁의 -105
▁영 -106
▁ㅇㅡㅁㅕ -107
▁국 -108
▁도 -109
▁발 -110
ㄱㅗ -111
▁여 -112
▁201 -113
▁서 -114
▁' -115
ㅁㅏ -116
▁4 -117
ㅓㄴ -118
▁관 -119
▁후 -120
▁명 -121
▁신 -122
ㅁㅏㄴ -123
▁만 -124
▁프 -125
▁5 -126
▁ㅁㅕㄴ -127
▁역 -128
▁때 -129
▁200 -130
▁장 -131
▁- -132
▁방 -133
▁ㄷㅓㄴ -134
▁교 -135
▁바 -136
▁문 -137
▁해 -138
▁차 -139
▁리 -140
▁내 -141
▁생 -142
▁당 -143
▁무 -144
ㅌㅓ -145
ㅂㅜ -146
ㅂㅜㅌㅓ -147
▁우 -148
▁원 -149
▁통 -150
▁계 -151
▁현 -152
▁분 -153
▁노 -154
▁남 -155
▁어 -156
▁군 -157
▁포 -158
▁화 -159
▁6 -160
▁또 -161
▁않 -162
▁거 -163
▁학 -164
ㄲㅏ -165
▁작 -166
▁결 -167
▁ㄲㅏ -168
▁강 -169
▁같 -170
▁ㄲㅏㅈㅣ -171
▁출 -172
▁파 -173
ㄱㅔ -174
▁ㅇㅔㄱㅔ -175
▁진 -176
▁대하 -177
▁크 -178
▁받 -179
▁단 -180
▁번 -181
▁최 -182
▁7 -183
▁반 -184
▁불 -185
▁10 -186
▁8 -187
▁알 -188
▁데 -189
▁위하 -190
▁배 -191
▁호 -192
▁두 -193
▁회 -194
▁안 -195
▁초 -196
▁실 -197
▁카 -198
▁형 -199
▁ㅈㅣㅁㅏㄴ -200
▁예 -201
▁말 -202
▁재 -203
ㄴㅏ -204
▁에 -205
▁따 -206
▁없 -207
▁ㅂㅜㅌㅓ -208
▁타 -209
▁로 -210
ㄷㅔ -211
▁사용 -212
▁종 -213
▁9 -214
▁미국 -215
▁라 -216
▁ㄹㅏㄱㅗ -217
▁특 -218
▁이후 -219
▁ㄹㅏㄴㅡㄴ -220
▁요 -221
▁설 -222
▁과 -223
▁함 -224
ㅈㅏ -225
▁ㅁㅕㄴㅅㅓ -226
▁일본 -227
▁코 -228
▁운 -229
▁산 -230
▁ㄴㅡㄴㄷㅔ -231
▁행 -232
▁권 -233
▁감 -234
▁활 -235
▁독 -236
민국 -237
▁레 -238
▁대한 -239
▁추 -240
▁베 -241
▁다음 -242
▁왕 -243
▁ㅈㅏ -244
▁피 -245
▁태 -246
▁김 -247
▁음 -248
▁지역 -249
▁평 -250
▁대한민국 -251
▁더 -252
▁양 -253
▁매 -254
▁민 -255
▁199 -256
▁그리 -257
▁ㅇㅡㄴㅏ -258
▁및 -259
▁입 -260
▁많 -261
▁참 -262
▁12 -263
▁건 -264
▁따르 -265
▁경기 -266
▁간 -267
▁18 -268
▁목 -269
▁승 -270
▁열 -271
▁가지 -272
▁ㄷㅏㄱㅗ -273
▁프로 -274
▁대학 -275
▁다른 -276
리아 -277
▁드 -278
▁; -279
▁속 -280
▁M -281
▁의하 -282
00 -283
▁총 -284
스트 -285
▁ㅁㅏㄴ -286
▁북 -287
▁S -288
▁집 -289
▁외 -290
▁) -291
or -292
▁법 -293
▁트 -294
▁변 -295
▁체 -296
▁11 -297
▁때문 -298
▁물 -299
▁각 -300
▁메 -301
▁시작 -302
▁천 -303
▁표 -304
▁직 -305
▁시키 -306
▁임 -307
▁달 -308
▁올 -309
▁본 -310
▁ᄆ -311
▁처 -312
▁토 -313
어나 -314
▁그러 -315
▁저 -316
▁점 -317
▁사람 -318
▁쓰 -319
▁& -320
▁A -321
▁( -322
▁팀 -323
▁선수 -324
▁함께 -325
▁또한 -326
▁박 -327
▁한국 -328
▁치 -329
어지 -330
▁투 -331
▁청 -332
▁항 -333
▁ㅇㅏㅅㅓ -334
▁브 -335
▁세계 -336
▁영화 -337
▁약 -338
▁버 -339
▁사이 -340
▁광 -341
▁게 -342
▁새 -343
▁자신 -344
▁C -345
la -346
▁용 -347
▁판 -348
▁국가 -349
▁경우 -350
▁디 -351
▁통하 -352
▁ㄴㅏ -353
▁기록 -354
▁야 -355
▁T -356
▁복 -357
▁f -358
▁F -359
▁축 -360
▁현재 -361
▁하나 -362
시아 -363
▁I -364
▁아니 -365
▁이름 -366
▁네 -367
▁존 -368
▁편 -369
▁활동 -370
▁198 -371
▁ㄷㅏㄴㅡㄴ -372
▁확 -373
▁삼 -374
▁당시 -375
▁위치 -376
▁가장 -377
▁철 -378
주의 -379
▁_ -380
▁보이 -381
▁조선 -382
▁학교 -383
▁리그 -384
▁만들 -385
▁뒤 -386
▁필 -387
▁그러나 -388
▁15 -389
▁ㅇㅣㄴㅏ -390
▁증 -391
▁ㄴ -392
▁플 -393
▁금 -394
▁살 -395
▁페 -396
▁합 -397
▁째 -398
▁루 -399
▁for -400
▁테 -401
▁대표 -402
▁백 -403
▁심 -404
▁언 -405
▁애 -406
▁창 -407
mu -408
레이 -409
▁역사 -410
▁식 -411
ㄱㅏ -412
mula -413
▁연구 -414
▁formula -415
▁16 -416
▁근 -417
▁병 -418
▁못 -419
▁프랑 -420
▁또는 -421
▁그리고 -422
▁/ -423
▁사회 -424
▁황 -425
▁규 -426
▁돌 -427
▁D -428
▁시즌 -429
▁0 -430
▁m -431
▁충 -432
▁순 -433
▁17 -434
▁패 -435
▁클 -436
▁ㅇㅓㅅㅓ -437
▁[ -438
▁첫 -439
ㅇㅑ -440
▁] -441
▁B -442
▁197 -443
랜드 -444
▁완 -445
▁히 -446
▁중국 -447
▁못하 -448
▁협 -449
▁이루 -450
▁다시 -451
▁높 -452
▁시대 -453
▁알리 -454
▁정부 -455
▁길 -456
▁프랑스 -457
▁: -458
▁서울 -459
▁K -460
▁채 -461
▁영국 -462
▁ㅂ -463
학교 -464
▁도시 -465
▁키 -466
▁ㄴㅡㄴㄷㅏ -467
▁k -468
▁은 -469
▁전쟁 -470
▁배우 -471
▁뜻 -472
▁여러 -473
▁포함 -474
▁문화 -475
▁196 -476
▁독일 -477
▁아이 -478
▁14 -479
▁죽 -480
ㄹㅗ -481
▁ㄹㅗㅅㅓ -482
▁~ -483
▁면 -484
▁대회 -485
er -486
▁별 -487
▁취 -488
▁축구 -489
▁g -490
▁13 -491
▁P -492
▁뉴 -493
▁정치 -494
▁허 -495
▁가능 -496
▁위원 -497
▁ㅅㅓ -498
▁곡 -499
▁모두 -500
in -501
▁환 -502
▁친 -503
▁ㅂㅗ -504
▁모든 -505
▁동안 -506
▁ㄷㅏㄱㅏ -507
▁ㅂㅗㄷㅏ -508
▁감독 -509
▁문제 -510
▁이상 -511
▁손 -512
▁방송 -513
▁구성 -514
▁194 -515
▁개발 -516
▁논 -517
▁L -518
▁l -519
▁석 -520
▁일부 -521
▁지방 -522
▁사건 -523
▁처음 -524
▁제작 -525
▁대학교 -526
▁캐 -527
▁검 -528
▁% -529
▁국제 -530
▁인하 -531
▁러 -532
▁작품 -533
▁농 -534
▁관계 -535
라이 -536
▁터 -537
▁이용 -538
▁골 -539
▁세기 -540
▁시간 -541
▁니 -542
▁게임 -543
▁끝 -544
▁일반 -545
▁씨 -546
▁교육 -547
▁G -548
▁N -549
▁부르 -550
▁존재 -551
▁인구 -552
▁운동 -553
▁향 -554
▁날 -555
▁ㄱㅓㄴ -556
▁밀 -557
▁폭 -558
▁급 -559
▁정도 -560
▁주장 -561
▁ㅅ -562
▁음악 -563
▁나오 -564
▁gt -565
▁즉 -566
▁곳 -567
ㄹㅗㄱ -568
▁효 -569
▁앞 -570
니아 -571
▁섬 -572
on -573
▁티 -574
▁km -575
▁경제 -576
▁195 -577
▁접 -578
▁ㄹㅕ -579
▁중심 -580
▁육 -581
▁나타 -582
▁이러 -583
리스 -584
▁ㄱㅓㄴㅏ -585
▁lt -586
▁극 -587
▁R -588
▁맡 -589
▁U -590
▁선거 -591
▁절 -592
▁전투 -593
▁귀 -594
▁쿠 -595
▁맞 -596
▁30 -597
▁블 -598
▁민주 -599
▁발견 -600
통령 -601
▁기술 -602
▁H -603
화국 -604
부분 -605
▁담 -606
▁E -607
▁측 -608
▁봉 -609
▁홍 -610
▁막 -611
▁ㄷㅗㄹㅗㄱ -612
▁발표 -613
▁글 -614
▁누 -615
▁갖 -616
▁결과 -617
▁암 -618
▁구조 -619
▁올림 -620
이스 -621
▁영향 -622
▁태어나 -623
▁책 -624
▁아들 -625
▁엔 -626
▁사망 -627
▁의미 -628
▁2010 -629
▁우승 -630
▁공격 -631
▁ㄹㅗㅂㅜㅌㅓ -632
▁대통령 -633
▁들어 -634
▁줄 -635
▁과정 -636
▁대부분 -637
an -638
▁잘 -639
▁케 -640
▁질 -641
▁걸 -642
▁헤 -643
▁올림픽 -644
▁슈 -645
▁라이 -646
▁관련 -647
▁ㅇㅡㅁ -648
▁송 -649
▁밝 -650
▁불리 -651
▁새롭 -652
▁여기 -653
000 -654
▁지원 -655
▁프로그 -656
▁앨 -657
▁열리 -658
리카 -659
▁업 -660
▁발생 -661
▁잡 -662
▁참여 -663
▁193 -664
▁유럽 -665
▁진행 -666
▁준 -667
▁중앙 -668
▁범 -669
▁머 -670
지만 -671
▁행정 -672
▁최초 -673
란드 -674
▁독립 -675
20 -676
▁c -677
▁얻 -678
▁자유 -679
▁25 -680
ㅆㅓ -681
▁W -682
▁부분 -683
ㅓㄹ -684
▁결정 -685
▁설립 -686
▁특히 -687
▁제국 -688
▁형태 -689
▁고등 -690
▁악 -691
▁발매 -692
▁다양 -693
▁폐 -694
▁세우 -695
▁탄 -696
▁당하 -697
▁상태 -698
▁하지만 -699
▁팔 -700
나라 -701
ㅁㅕㄴ -702
▁ᆫㄷㅏㄴㅡㄴ -703
▁탈 -704
▁속하 -705
▁설치 -706
▁이전 -707
버지 -708
▁온 -709
▁러시아 -710
▁벌 -711
▁스타 -712
▁2008 -713
▁소속 -714
▁좌 -715
▁사실 -716
▁초등 -717
▁침 -718
▁센 -719
▁좋 -720
▁21 -721
디오 -722
우스 -723
▁커 -724
▁르 -725
▁같이 -726
▁그녀 -727
▁일어나 -728
▁로마 -729
▁타이 -730
▁ㅇㅡㄹㅗㅅㅓ -731
▁조직 -732
▁프로그램 -733
▁인민 -734
▁이것 -735
▁참가 -736
▁생각 -737
▁여성 -738
▁나라 -739
▁폴 -740
▁등장 -741
▁정보 -742
▁주로 -743
▁2011 -744
▁갈 -745
▁2012 -746
▁ㅇㅏㅇㅑ -747
▁필요 -748
▁싱 -749
▁혼 -750
▁이탈 -751
▁주요 -752
▁관리 -753
▁운영 -754
▁출신 -755
▁기준 -756
▁생산 -757
▁계획 -758
en -759
▁2009 -760
▁100 -761
▁기관 -762
▁중요 -763
▁위원회 -764
▁2014 -765
▁윤 -766
▁보내 -767
▁지정 -768
▁2007 -769
▁여자 -770
▁오르 -771
▁상대 -772
▁음반 -773
▁t -774
▁성공 -775
▁바이 -776
▁이르 -777
▁계속 -778
▁시절 -779
▁국민 -780
▁데이 -781
▁콘 -782
▁a -783
▁지나 -784
▁O -785
▁데뷔 -786
▁매우 -787
▁2013 -788
▁철도 -789
▁넘 -790
▁레이 -791
▁밝히 -792
▁과학 -793
▁대전 -794
리즈 -795
▁사업 -796
▁시스 -797
▁해당 -798
▁발전 -799
he -800
▁생활 -801
▁이탈리아 -802
ㄷㅗ -803
▁방법 -804
프트 -805
▁칼 -806
▁고려 -807
▁와 -808
스터 -809
▁아버지 -810
▁몇 -811
▁자리 -812
▁묘 -813
▁찾 -814
▁191 -815
ㅓㄹㅓ -816
▁ㅊ -817
▁생애 -818
▁초기 -819
▁2015 -820
라마 -821
▁23 -822
▁2018 -823
▁24 -824
ar -825
▁월드 -826
▁내용 -827
▁억 -828
이션 -829
레스 -830
ㅡㄹㅗ -831
ㅓㄹㅓㅁ -832
▁ㅊㅓㄹㅓㅁ -833
▁헌 -834
▁앨범 -835
▁능 -836
▁000 -837
▁차지 -838
▁출연 -839
▁2016 -840
▁지내 -841
▁얼 -842
▁최고 -843
▁쇼 -844
▁인도 -845
▁후보 -846
▁그룹 -847
남도 -848
▁빌 -849
▁시리즈 -850
▁돌아 -851
▁결국 -852
▁마이 -853
▁평가 -854
▁관하 -855
르크 -856
▁J -857
es -858
▁엘 -859
▁아래 -860
▁22 -861
▁전체 -862
▁우리 -863
▁회사 -864
▁그리스 -865
▁빠 -866
▁이유 -867
▁방식 -868
▁떨 -869
이트 -870
▁2006 -871
FA -872
▁이루어지 -873
▁격 -874
▁한편 -875
▁고등학교 -876
▁인간 -877
▁ᆫㄷㅏㄱㅗ -878
▁나가 -879
비아 -880
▁수상 -881
▁풍 -882
▁192 -883
▁스페 -884
▁거치 -885
▁2017 -886
▁분류 -887
▁힘 -888
▁인터 -889
▁연합 -890
▁시기 -891
▁공식 -892
▁층 -893
▁개요 -894
▁항공 -895
▁제공 -896
▁드라마 -897
▁역할 -898
▁의원 -899
▁컴 -900
▁시스템 -901
운데 -902
▁정의 -903
▁많이 -904
▁기업 -905
▁군사 -906
▁제도 -907
▁조사 -908
▁희 -909
▁잠 -910
▁가운데 -911
▁몸 -912
▁워 -913
▁출전 -914
▁유명 -915
▁ㄹㅏㄴ -916
▁민족 -917
▁기능 -918
▁류 -919
▁교회 -920
▁반대 -921
▁거의 -922
▁퍼 -923
▁나타나 -924
▁s -925
▁ㅇㅡㄹㅗㅆㅓ -926
▁놓 -927
▁지구 -928
▁색 -929
비스 -930
▁텔 -931
▁둘 -932
▁쓰이 -933
▁푸 -934
▁현대 -935
▁언어 -936
▁표현 -937
▁떠 -938
▁응 -939
ㄴㅣ -940
▁대신 -941
▁유지 -942
▁목록 -943
▁몰 -944
▁울 -945
▁개인 -946
▁달리 -947
▁녹 -948
ㄹㅏ -949
▁대상 -950
▁ㅇㅡㄹㅗㅂㅜㅌㅓ -951
▁홈 -952
▁특별 -953
▁이론 -954
▁동시 -955
▁26 -956
at -957
▁자연 -958
▁규모 -959
▁! -960
▁모습 -961
야기 -962
▁올리 -963
▁프리 -964
▁공개 -965
▁노동 -966
▁이미 -967
▁ㅇㅑ -968
▁야구 -969
▁지도 -970
▁마지 -971
▁연결 -972
▁승리 -973
▁웨 -974
▁28 -975
▁ㅇㅓㅇㅑ -976
▁2019 -977
▁진출 -978
▁ㅅㅣ -979
▁들어가 -980
▁27 -981
▁졸 -982
▁단체 -983
▁각각 -984
▁정책 -985
▁브라 -986
▁전하 -987
▁인정 -988
▁목적 -989
▁특징 -990
▁상황 -991
▁붙 -992
▁산업 -993
▁인물 -994
▁뛰 -995
▁핵 -996
▁시장 -997
▁2005 -998
▁2000 -999
▁마지막 -1000
▁기원 -1001
▁플레이 -1002
▁수도 -1003
▁아르 -1004
▁임명 -1005
▁족 -1006
▁난 -1007
▁메이 -1008
▁전문 -1009
▁이야기 -1010
▁떨어지 -1011
▁기간 -1012
▁너 -1013
북도 -1014
▁먹 -1015
▁눈 -1016
▁멀 -1017
머니 -1018
▁구역 -1019
▁직접 -1020
▁혁 -1021
al -1022
ic -1023
▁모델 -1024
스크 -1025
▁경상 -1026
▁압 -1027
▁서로 -1028
▁계약 -1029
▁슬 -1030
▁오스트 -1031
▁밴 -1032
▁추가 -1033
▁건설 -1034
▁ㅇㅡㅁㅕㄴ -1035
▁공동 -1036
▁개최 -1037
▁FC -1038
▁콜 -1039
▁2004 -1040
BS -1041
▁망 -1042
▁ㅁ -1043
▁경찰 -1044
▁형성 -1045
▁공간 -1046
ㄴㅣㄷㅏ -1047
▁사상 -1048
▁결혼 -1049
▁샤 -1050
▁건물 -1051
▁자동 -1052
▁노선 -1053
▁변화 -1054
▁그것 -1055
▁기타 -1056
▁50 -1057
▁활약 -1058
▁스페인 -1059
▁훈 -1060
▁거리 -1061
▁TV -1062
▁31 -1063
▁노래 -1064
▁변경 -1065
▁부산 -1066
학자 -1067
▁가리 -1068
▁국회 -1069
▁29 -1070
▁교수 -1071
▁칸 -1072
▁ㄴㅣ -1073
▁뿐 -1074
is -1075
▁졸업 -1076
으키 -1077
▁공화국 -1078
it -1079
▁완전 -1080
▁텔레 -1081
▁b -1082
▁벨 -1083
re -1084
▁나이 -1085
▁마을 -1086
▁궁 -1087
▁다르 -1088
▁인민공 -1089
▁경력 -1090
▁인민공화국 -1091
▁클럽 -1092
▁사랑 -1093
비전 -1094
▁휴 -1095
▁비롯 -1096
▁흐 -1097
이드 -1098
▁역시 -1099
▁2020 -1100
▁190 -1101
▁낮 -1102
▁비판 -1103
▁느 -1104
▁서비스 -1105
▁ㅏ -1106
▁학생 -1107
▁맥 -1108
ou -1109
▁실제 -1110
▁볼 -1111
▁지지 -1112
▁최대 -1113
거리 -1114
▁소설 -1115
운드 -1116
▁보통 -1117
▁요구 -1118
▁견 -1119
▁만나 -1120
▁ㄱㅔㅆ -1121
▁보호 -1122
▁잉 -1123
▁따라 -1124
▁지금 -1125
▁가수 -1126
▁중학교 -1127
프리카 -1128
대로 -1129
▁우주 -1130
▁론 -1131
▁기본 -1132
▁중화 -1133
▁의회 -1134
▁싸 -1135
▁탑 -1136
▁전국 -1137
▁종교 -1138
▁다이 -1139
▁일으키 -1140
▁X -1141
▁자기 -1142
▁차이 -1143
▁지하 -1144
▁판매 -1145
▁없이 -1146
▁딸 -1147
▁싱글 -1148
▁겸 -1149
▁실시 -1150
▁전통 -1151
르트 -1152
▁혹 -1153
▁시설 -1154
▁황제 -1155
역시 -1156
▁퇴 -1157
▁밴드 -1158
▁엄 -1159
▁높이 -1160
▁기반 -1161
너지 -1162
▁옥 -1163
▁원래 -1164
▁ㅁㅏ -1165
▁떠나 -1166
▁탐 -1167
▁2002 -1168
▁어떤 -1169
▁세력 -1170
▁버리 -1171
▁운행 -1172
로스 -1173
▁명칭 -1174
▁환경 -1175
▁교통 -1176
▁내리 -1177
▁가족 -1178
▁자료 -1179
▁설명 -1180
▁40 -1181
▁경기도 -1182
▁소련 -1183
▁뮤 -1184
스탄 -1185
▁월드컵 -1186
▁전기 -1187
▁센터 -1188
▁이끌 -1189
▁공연 -1190
▁2003 -1191
▁수행 -1192
▁회의 -1193
▁풀 -1194
▁그래 -1195
▁애니 -1196
▁전자 -1197
▁승강 -1198
러스 -1199
▁모양 -1200
▁밖 -1201
▁부대 -1202
▁도쿄 -1203
▁컵 -1204
▁분야 -1205
▁기독 -1206
나다 -1207
▁기념 -1208
▁예술 -1209
▁이동 -1210
▁교황 -1211
▁통합 -1212
▁득 -1213
▁나타내 -1214
▁사고 -1215
▁걸치 -1216
mp -1217
▁도입 -1218
▁텔레비전 -1219
le -1220
▁작업 -1221
▁남자 -1222
▁행동 -1223
▁동물 -1224
▁연방 -1225
▁선정 -1226
▁염 -1227
▁차량 -1228
▁능력 -1229
▁따라서 -1230
▁소프트 -1231
▁작용 -1232
▁출시 -1233
▁바로 -1234
▁문학 -1235
▁숙 -1236
▁= -1237
▁할 -1238
스타 -1239
▁군대 -1240
의원 -1241
들이 -1242
▁증가 -1243
▁기독교 -1244
▁행위 -1245
▁형식 -1246
▁전라 -1247
▁방향 -1248
▁기존 -1249
▁도로 -1250
▁확인 -1251
▁지휘 -1252
▁넓 -1253
▁작가 -1254
▁남쪽 -1255
▁효과 -1256
▁혁명 -1257
▁국내 -1258
▁과거 -1259
▁십 -1260
▁북쪽 -1261
▁작곡 -1262
▁이때 -1263
▁착 -1264
▁제외 -1265
▁비슷 -1266
▁그렇 -1267
▁승강장 -1268
▁옮 -1269
▁빈 -1270
▁강하 -1271
▁FI -1272
▁ㅁㅡㄹㅗ -1273
▁지배 -1274
▁챔 -1275
▁컴퓨 -1276
▁주변 -1277
▁윌 -1278
▁어머니 -1279
▁낙 -1280
▁마르 -1281
▁왕국 -1282
▁캐나다 -1283
▁몽 -1284
▁종류 -1285
▁거두 -1286
▁열차 -1287
▁태양 -1288
▁사무 -1289
▁유일 -1290
▁비교 -1291
▁갑 -1292
▁정당 -1293
▁역임 -1294
▁뉴욕 -1295
▁옮기 -1296
▁이적 -1297
▁남부 -1298
BC -1299
▁흥 -1300
리오 -1301
▁솔 -1302
▁협회 -1303
▁적용 -1304
▁혹은 -1305
▁스포 -1306
▁공산 -1307
▁베이 -1308
▁생기 -1309
▁물리 -1310
▁반응 -1311
▁흔 -1312
▁성장 -1313
자리 -1314
▁추정 -1315
▁챔피 -1316
▁담당 -1317
▁시민 -1318
▁건축 -1319
▁동일 -1320
▁개념 -1321
▁이사 -1322
▁런 -1323
▁즈 -1324
▁1990 -1325
▁육군 -1326
▁대사 -1327
▁장관 -1328
▁이어지 -1329
▁홀 -1330
▁늘 -1331
▁어리 -1332
▁갖추 -1333
▁2001 -1334
▁인기 -1335
▁획 -1336
▁스트 -1337
▁세포 -1338
▁버스 -1339
▁넣 -1340
▁윈 -1341
▁컴퓨터 -1342
▁동쪽 -1343
메이션 -1344
▁징 -1345
▁공사 -1346
▁데이터 -1347
드리 -1348
▁멤 -1349
▁오늘 -1350
▁구간 -1351
▁p -1352
▁쪽 -1353
▁품 -1354
▁ᆫㄷㅔ -1355
▁디자 -1356
▁에너지 -1357
▁곧 -1358
▁마음 -1359
▁사단 -1360
▁상당 -1361
▁맨 -1362
▁연기 -1363
▁예정 -1364
▁크기 -1365
▁액 -1366
▁조지 -1367
▁작전 -1368
▁돈 -1369
▁조건 -1370
▁흑 -1371
▁민주주의 -1372
이지 -1373
▁바르 -1374
▁비하 -1375
▁189 -1376
▁차례 -1377
▁실패 -1378
▁록 -1379
▁바꾸 -1380
▁서쪽 -1381
▁버전 -1382
▁자체 -1383
▁칭 -1384
▁FIFA -1385
▁애니메이션 -1386
▁율 -1387
▁어느 -1388
▁땅 -1389
▁잔 -1390
▁d -1391
▁충청 -1392
▁치르 -1393
▁컨 -1394
▁특정 -1395
▁선언 -1396
ㅓㅆ -1397
▁이런 -1398
▁고대 -1399
▁돌아오 -1400
▁덕 -1401
▁연주 -1402
▁움 -1403
▁체제 -1404
▁수록 -1405
카이 -1406
▁부족 -1407
▁연속 -1408
▁쌍 -1409
▁쉽 -1410
▁방영 -1411
버스 -1412
▁피해 -1413
▁선택 -1414
▁페르 -1415
▁익 -1416
▁결승 -1417
▁가리키 -1418
▁내부 -1419
▁멤버 -1420
▁국립 -1421
el -1422
▁규정 -1423
▁해군 -1424
▁공항 -1425
▁개혁 -1426
가지 -1427
▁ㅁㅏㄷㅏ -1428
▁대체 -1429
et -1430
루스 -1431
▁아시아 -1432
▁정신 -1433
▁속도 -1434
▁다루 -1435
▁조약 -1436
웨어 -1437
▁대구 -1438
▁단계 -1439
▁북부 -1440
라지 -1441
▁헌법 -1442
▁최종 -1443
▁명령 -1444
▁왜 -1445
ion -1446
▁연대 -1447
글랜드 -1448
▁기원전 -1449
▁포르 -1450
▁선출 -1451
▁영어 -1452
▁분석 -1453
▁ㄴㅡㄴㅈㅣ -1454
▁가치 -1455
▁지명 -1456
▁자치 -1457
▁크리스 -1458
▁설계 -1459
▁휘 -1460
▁인천 -1461
▁옛 -1462
트남 -1463
▁물질 -1464
▁치료 -1465
▁로스 -1466
▁출판 -1467
▁입단 -1468
▁최근 -1469
▁친구 -1470
▁쥐 -1471
▁체계 -1472
ing -1473
▁의사 -1474
▁논란 -1475
▁소비 -1476
▁관할 -1477
▁달러 -1478
▁나누 -1479
▁강화 -1480
▁비행 -1481
시마 -1482
▁척 -1483
▁ᆫㅈㅣ -1484
▁밤 -1485
▁더욱 -1486
아가 -1487
▁집단 -1488
▁평균 -1489
▁가깝 -1490
▁팬 -1491
▁롭 -1492
▁북한 -1493
▁1999 -1494
▁대중 -1495
ol -1496
메리카 -1497
▁스포츠 -1498
▁표준 -1499
▁후반 -1500
라스 -1501
▁술 -1502
▁배치 -1503
21 -1504
▁엔진 -1505
▁법원 -1506
▁잉글랜드 -1507
▁ㄹㅓ -1508
▁제품 -1509
▁언급 -1510
▁부문 -1511
▁하이 -1512
널리 -1513
▁관심 -1514
▁현상 -1515
▁1998 -1516
▁Y -1517
▁실험 -1518
▁ㅇㅣㄹㅏ -1519
▁파이 -1520
▁머리 -1521
▁헬 -1522
▁챔피언 -1523
▁함수 -1524
▁남기 -1525
▁조정 -1526
▁o -1527
▁벤 -1528
▁예선 -1529
▁개월 -1530
▁먼 -1531
▁확장 -1532
스코 -1533
▁스테 -1534
▁씩 -1535
▁겨 -1536
▁획득 -1537
▁공원 -1538
▁1980 -1539
▁선발 -1540
▁유사 -1541
▁요소 -1542
▁분리 -1543
▁처리 -1544
▁주도 -1545
▁부상 -1546
▁목표 -1547
▁지속 -1548
▁배경 -1549
디어 -1550
▁재판 -1551
▁cm -1552
▁통일 -1553
▁60 -1554
▁하계 -1555
▁자동차 -1556
▁베르 -1557
▁문자 -1558
▁주민 -1559
▁지니 -1560
▁맺 -1561
▁소유 -1562
▁35 -1563
▁편성 -1564
▁유래 -1565
▁시도 -1566
▁이해 -1567
리지 -1568
▁정규 -1569
▁마리 -1570
▁구단 -1571
▁외국 -1572
▁어렵 -1573
▁장군 -1574
▁도움 -1575
▁빠르 -1576
▁링 -1577
▁에스 -1578
▁파리 -1579
▁향하 -1580
▁이어 -1581
▁주인 -1582
▁거주 -1583
▁시험 -1584
▁점령 -1585
▁나무 -1586
▁꽃 -1587
▁미치 -1588
▁공립 -1589
▁행사 -1590
▁기사 -1591
▁디자인 -1592
▁요시 -1593
▁원자 -1594
▁ㄱㅗㅈㅏ -1595
▁통신 -1596
▁mm -1597
▁ㄹㅕㄱㅗ -1598
▁원인 -1599
▁네덜 -1600
▁네덜란드 -1601
▁언론 -1602
▁괴 -1603
▁안정 -1604
▁책임 -1605
▁바뀌 -1606
▁가르 -1607
▁학자 -1608
▁캠 -1609
▁잃 -1610
▁스럽 -1611
▁결합 -1612
▁동맹 -1613
▁투표 -1614
▁n -1615
▁웹 -1616
▁준비 -1617
▁사령 -1618
▁수준 -1619
▁본선 -1620
▁혈 -1621
▁베트남 -1622
▁개봉 -1623
▁장치 -1624
▁고속 -1625
▁불교 -1626
▁일종 -1627
▁앤 -1628
▁끌 -1629
▁ᄇ -1630
▁아프리카 -1631
▁용어 -1632
광역시 -1633
▁앙 -1634
om -1635
젝트 -1636
▁알렉 -1637
▁모르 -1638
▁은퇴 -1639
▁깊 -1640
▁불구 -1641
야마 -1642
▁잇 -1643
▁성적 -1644
▁끝나 -1645
▁1997 -1646
나무 -1647
▁촉 -1648
▁구분 -1649
일랜드 -1650
▁비디오 -1651
▁길이 -1652
▁제조 -1653
▁빛 -1654
▁아마 -1655
▁방문 -1656
▁칠 -1657
▁문서 -1658
▁정하 -1659
▁사진 -1660
▁정권 -1661
▁유전 -1662
▁가정 -1663
▁ㄱㅜ -1664
▁광주 -1665
▁신문 -1666
▁가문 -1667
st -1668
▁요리 -1669
▁해석 -1670
▁믿 -1671
▁경험 -1672
▁폴란드 -1673
▁정리 -1674
▁드러 -1675
▁amp -1676
▁다니 -1677
▁정확 -1678
▁그림 -1679
▁평화 -1680
▁일제 -1681
▁핀 -1682
▁The -1683
▁1996 -1684
▁왕조 -1685
▁1995 -1686
▁오늘날 -1687
▁서식 -1688
▁32 -1689
메달 -1690
▁분포 -1691
▁찬 -1692
▁추진 -1693
▁면적 -1694
▁통과 -1695
▁습 -1696
▁프로젝트 -1697
▁입장 -1698
▁방어 -1699
▁경영 -1700
▁부인 -1701
▁런던 -1702
▁슈퍼 -1703
▁ㄹㅕㄴㅡㄴ -1704
▁ㄷㅏㅁㅕㄴ -1705
▁종합 -1706
▁멸 -1707
스턴 -1708
▁덴 -1709
▁70 -1710
▁아직 -1711
▁민주당 -1712
▁값 -1713
▁부여 -1714
▁만화 -1715
▁경쟁 -1716
▁통치 -1717
▁깨 -1718
스로 -1719
인트 -1720
▁병원 -1721
▁인터넷 -1722
▁신라 -1723
▁몬 -1724
▁발달 -1725
▁경기장 -1726
▁영역 -1727
ㅇㅓㅆ -1728
▁프레 -1729
▁올라 -1730
▁주제 -1731
특별 -1732
▁이곳 -1733
▁폐지 -1734
▁노력 -1735
▁널리 -1736
▁끼 -1737
▁훈련 -1738
▁츠 -1739
▁부정 -1740
▁500 -1741
▁ㅇㅡㅁㅡㄹㅗ -1742
▁보도 -1743
웨이 -1744
▁미사 -1745
▁그런 -1746
▁이듬 -1747
▁파괴 -1748
▁놀 -1749
▁총리 -1750
레일 -1751
▁생물 -1752
am -1753
아들이 -1754
▁미술 -1755
▁제주 -1756
▁제안 -1757
▁죽이 -1758
▁서부 -1759
▁ㄹㅜ -1760
▁국회의원 -1761
▁도서 -1762
▁the -1763
▁80 -1764
▁회장 -1765
▁지키 -1766
▁복귀 -1767
▁철학 -1768
▁식민 -1769
리트 -1770
▁번호 -1771
라인 -1772
▁모으 -1773
▁법률 -1774
▁빅 -1775
▁외교 -1776
▁야마 -1777
▁기여 -1778
▁정상 -1779
▁완전히 -1780
▁삼성 -1781
▁세대 -1782
▁궤 -1783
▁요청 -1784
▁접하 -1785
▁주연 -1786
▁188 -1787
▁행성 -1788
▁ㅅㅡ -1789
▁무기 -1790
▁동부 -1791
▁남성 -1792
▁이듬해 -1793
▁라디오 -1794
▁소재 -1795
▁경계 -1796
▁UE -1797
▁1970 -1798
▁연맹 -1799
▁자주 -1800
▁인식 -1801
il -1802
▁+ -1803
▁무대 -1804
▁투수 -1805
▁수용 -1806
▁금지 -1807
▁등록 -1808
▁폰 -1809
▁1994 -1810
▁ᄇㄴㅣㄷㅏ -1811
▁움직 -1812
▁제한 -1813
▁벌이 -1814
▁UEFA -1815
▁돕 -1816
▁ㅅㅡㅂ -1817
톨릭 -1818
▁나뉘 -1819
▁지진 -1820
▁업무 -1821
▁표기 -1822
▁ㅓ -1823
ac -1824
▁연구소 -1825
▁접근 -1826
▁발사 -1827
▁영토 -1828
▁더불 -1829
▁노르 -1830
▁아시 -1831
▁펼 -1832
▁박물 -1833
▁지도자 -1834
▁바탕 -1835
▁뇌 -1836
▁빠지 -1837
▁결성 -1838
▁성격 -1839
머지 -1840
▁득점 -1841
▁나머지 -1842
▁스스로 -1843
▁거부 -1844
▁KBS -1845
▁상호 -1846
▁조각 -1847
▁다리 -1848
▁지대 -1849
▁반면 -1850
▁꼬 -1851
▁뉴스 -1852
▁아일랜드 -1853
▁수학 -1854
▁ㅕ -1855
▁린 -1856
▁강원 -1857
▁정식 -1858
▁오래 -1859
▁트리 -1860
▁돌아가 -1861
▁오스 -1862
▁의식 -1863
▁받아들이 -1864
▁보수 -1865
▁은행 -1866
▁주의 -1867
▁펜 -1868
▁기초 -1869
▁벽 -1870
▁이기 -1871
▁필리 -1872
▁소리 -1873
▁마찬 -1874
▁마찬가지 -1875
ro -1876
▁이렇 -1877
▁1992 -1878
▁붙이 -1879
▁가톨릭 -1880
▁공작 -1881
▁캐릭 -1882
토리 -1883
▁굴 -1884
▁임시 -1885
시코 -1886
▁다수 -1887
▁아카 -1888
▁스웨 -1889
▁45 -1890
▁바다 -1891
▁짧 -1892
▁박사 -1893
▁화학 -1894
▁장애 -1895
요일 -1896
▁패배 -1897
임스 -1898
▁검사 -1899
▁해결 -1900
▁죽음 -1901
▁장소 -1902
▁차트 -1903
ed -1904
▁36 -1905
▁브라질 -1906
워드 -1907
▁실제로 -1908
▁차원 -1909
트리 -1910
모토 -1911
▁에이 -1912
▁of -1913
▁그대로 -1914
▁이스 -1915
▁초대 -1916
▁박물관 -1917
▁긴 -1918
▁활용 -1919
▁ㄹㅗㅆㅓ -1920
▁마이크 -1921
▁유니 -1922
▁느끼 -1923
▁총선 -1924
▁ㅅㅡㅂㄴㅣㄷㅏ -1925
▁스위 -1926
▁카드 -1927
▁유로 -1928
▁캐릭터 -1929
▁관측 -1930
▁윌리 -1931
▁기구 -1932
▁계열 -1933
▁여행 -1934
▁순위 -1935
▁식물 -1936
▁묘사 -1937
▁안전 -1938
▁인사 -1939
▁강력 -1940
▁오브 -1941
▁표시 -1942
▁지리 -1943
▁제시 -1944
▁단순 -1945
▁집합 -1946
▁1960 -1947
▁소프트웨어 -1948
▁일정 -1949
ig -1950
▁무역 -1951
▁이외 -1952
로나 -1953
▁권력 -1954
▁여름 -1955
▁파일 -1956
▁멕 -1957
▁연극 -1958
▁곤 -1959
▁스웨덴 -1960
▁회원 -1961
▁기계 -1962
▁1991 -1963
▁디지 -1964
▁지적 -1965
부르크 -1966
▁위험 -1967
▁뛰어나 -1968
▁삶 -1969
▁오스트리아 -1970
▁꾸 -1971
▁반란 -1972
▁히로 -1973
레일리아 -1974
▁먼저 -1975
▁싸우 -1976
▁붕 -1977
▁1993 -1978
▁조성 -1979
▁33 -1980
▁ㅇㅏㄷㅗ -1981
▁발행 -1982
▁취하 -1983
▁형제 -1984
▁보다 -1985
▁중간 -1986
▁관광 -1987
▁기자 -1988
▁개국 -1989
▁자라 -1990
▁근처 -1991
▁흡 -1992
▁중단 -1993
▁협력 -1994
▁스코 -1995
▁시행 -1996
▁뮤직 -1997
▁기획 -1998
▁여객 -1999
베이 -2000
트로 -2001
▁지하철 -2002
소년 -2003
▁도착 -2004
▁량 -2005
▁외부 -2006
▁스튜 -2007
▁투자 -2008
▁사이트 -2009
사카 -2010
▁소개 -2011
▁ᆫㄱㅏ -2012
od -2013
배우 -2014
▁윈도 -2015
▁렌 -2016
▁번역 -2017
워크 -2018
나이 -2019
▁코드 -2020
▁단어 -2021
▁띠 -2022
▁다만 -2023
▁전시 -2024
▁", -2025
▁죄 -2026
버트 -2027
▁유형 -2028
▁연장 -2029
니스 -2030
▁186 -2031
▁태평 -2032
ve -2033
▁해안 -2034
▁하루 -2035
특별시 -2036
▁카이 -2037
▁후기 -2038
▁들어오 -2039
▁성립 -2040
as -2041
▁확대 -2042
▁혜 -2043
▁근거 -2044
▁세상 -2045
▁ㅇㅣㄹㅏㄱㅗ -2046
▁서울특별시 -2047
▁상징 -2048
▁파견 -2049
▁오스트레일리아 -2050
▁혐 -2051
▁공장 -2052
▁본부 -2053
▁위기 -2054
▁보유 -2055
▁내각 -2056
무원 -2057
▁수많 -2058
▁기후 -2059
▁제기 -2060
▁겪 -2061
▁생성 -2062
주시 -2063
▁케이 -2064
▁양식 -2065
▁감소 -2066
▁네트 -2067
▁다카 -2068
▁내려 -2069
▁지식 -2070
▁옹 -2071
▁보존 -2072
▁? -2073
▁극장 -2074
▁수사 -2075
지션 -2076
▁지상 -2077
▁균 -2078
▁전략 -2079
▁멜 -2080
▁촬 -2081
▁귀족 -2082
▁듣 -2083
▁윌리엄 -2084
▁유대 -2085
▁특수 -2086
▁경상남도 -2087
▁구하 -2088
▁상업 -2089
▁멕시코 -2090
▁달성 -2091
▁특성 -2092
▁경상북도 -2093
▁h -2094
▁대응 -2095
▁1988 -2096
▁숨 -2097
▁출생 -2098
▁187 -2099
▁영상 -2100
▁원소 -2101
▁완성 -2102
▁유리 -2103
▁캘 -2104
▁동생 -2105
▁디지털 -2106
▁단위 -2107
▁미래 -2108
▁촬영 -2109
▁님 -2110
ㅜㄴ -2111
▁당선 -2112
▁이렇게 -2113
▁이슬 -2114
▁촌 -2115
▁계승 -2116
▁학위 -2117
아시아 -2118
▁시티 -2119
▁체포 -2120
▁싶 -2121
▁34 -2122
티아 -2123
▁근무 -2124
▁짓 -2125
▁식민지 -2126
▁타이틀 -2127
가리 -2128
▁ㄷㅐ -2129
▁젊 -2130
▁종목 -2131
회사 -2132
▁률 -2133
▁전달 -2134
▁권리 -2135
▁자본 -2136
▁생명 -2137
▁38 -2138
▁수비 -2139
id -2140
▁마치 -2141
▁흐르 -2142
아내 -2143
▁이집 -2144
▁이집트 -2145
▁코치 -2146
▁체결 -2147
▁시청 -2148
▁듀 -2149
▁옆 -2150
▁측정 -2151
▁설정 -2152
▁판단 -2153
▁나중 -2154
▁직후 -2155
▁90 -2156
▁승격 -2157
▁ㅇㅗ -2158
▁마사 -2159
▁소수 -2160
▁몇몇 -2161
가와 -2162
▁정치인 -2163
▁2021 -2164
▁맹 -2165
▁문화재 -2166
▁크로 -2167
▁알렉산 -2168
▁대륙 -2169
▁48 -2170
▁벌어지 -2171
▁라인 -2172
▁주식 -2173
▁걸리 -2174
▁국왕 -2175
▁ㄷㅐㄹㅗ -2176
모리 -2177
▁전환 -2178
▁1989 -2179
▁틀 -2180
▁채널 -2181
▁낳 -2182
▁아내 -2183
▁1950 -2184
▁개정 -2185
▁스키 -2186
▁도서관 -2187
▁헨 -2188
▁관찰 -2189
▁이주 -2190
▁미군 -2191
▁발매되 -2192
▁즐 -2193
NA -2194
▁본관 -2195
us -2196
▁펼치 -2197
▁맞추 -2198
▁톤 -2199
▁의견 -2200
ec -2201
▁신경 -2202
▁개통 -2203
▁포르투 -2204
▁세르 -2205
▁청년 -2206
▁녹음 -2207
▁지위 -2208
▁엘리 -2209
▁시위 -2210
▁밑 -2211
▁납 -2212
▁홍콩 -2213
▁주어지 -2214
▁결승전 -2215
▁제정 -2216
▁텍 -2217
▁해외 -2218
▁얼마 -2219
▁', -2220
▁답 -2221
▁은하 -2222
▁종료 -2223
▁취임 -2224
▁헝 -2225
and -2226
▁새로 -2227
▁동계 -2228
ㅇㅔ -2229
▁미사일 -2230
▁범죄 -2231
▁즉위 -2232
▁주인공 -2233
▁쌓 -2234
▁계산 -2235
디아 -2236
▁사회주의 -2237
▁교체 -2238
▁상하 -2239
▁음식 -2240
▁예수 -2241
스티 -2242
▁충돌 -2243
▁후쿠 -2244
▁아키 -2245
▁신학 -2246
▁300 -2247
코드 -2248
▁남북 -2249
ad -2250
▁천황 -2251
▁셀 -2252
▁달하 -2253
▁장기 -2254
▁e -2255
교회 -2256
▁전차 -2257
▁ㅇㅡㅁㅕㄴㅅㅓ -2258
▁개선 -2259
▁주목 -2260
▁비용 -2261
▁빼 -2262
▁MBC -2263
▁자격 -2264
▁수정 -2265
▁ㅃ -2266
▁사후 -2267
▁춘 -2268
▁제임스 -2269
▁바이러스 -2270
▁ㅃㅜㄴ -2271
▁원정 -2272
▁벗 -2273
▁| -2274
▁건강 -2275
▁ㅇㅏㅆㅇㅓㅆ -2276
▁공급 -2277
▁스티 -2278
▁계기 -2279
▁1945 -2280
▁본래 -2281
▁소장 -2282
▁비밀 -2283
▁모이 -2284
ent -2285
전히 -2286
▁가격 -2287
▁네트워크 -2288
스카 -2289
▁궤도 -2290
▁명단 -2291
▁공부 -2292
▁전라남도 -2293
▁심리 -2294
▁컬 -2295
▁펠 -2296
▁누구 -2297
▁부모 -2298
▁합류 -2299
▁라운드 -2300
▁제거 -2301
▁자원 -2302
▁카운 -2303
▁농업 -2304
▁이래 -2305
▁홈런 -2306
▁명예 -2307
▁셰 -2308
▁건너 -2309
▁객 -2310
▁체육 -2311
▁성우 -2312
▁집중 -2313
▁각종 -2314
▁거대 -2315
▁시내 -2316
50 -2317
보이 -2318
▁감염 -2319
▁입학 -2320
▁에드 -2321
▁증명 -2322
▁털 -2323
▁오후 -2324
▁작성 -2325
▁가입 -2326
▁인근 -2327
▁천문 -2328
▁군인 -2329
▁읽 -2330
▁전사 -2331
▁소송 -2332
▁이슬람 -2333
▁ㅏㅆ -2334
▁국경 -2335
▁저항 -2336
▁베네 -2337
▁피하 -2338
▁학문 -2339
▁공군 -2340
피아 -2341
▁측면 -2342
티나 -2343
▁미디어 -2344
▁통제 -2345
베르 -2346
▁강조 -2347
▁왼 -2348
▁피아 -2349
▁병력 -2350
▁터미 -2351
▁인수 -2352
▁신호 -2353
▁아우 -2354
동안 -2355
▁세이 -2356
▁울산 -2357
▁블랙 -2358
▁찰 -2359
▁이번 -2360
▁줄이 -2361
▁터키 -2362
▁광고 -2363
▁플로 -2364
▁실행 -2365
▁St -2366
▁태평양 -2367
리포 -2368
▁너무 -2369
▁던 -2370
▁질량 -2371
▁해방 -2372
▁만약 -2373
ot -2374
▁콩 -2375
▁포지션 -2376
▁엑 -2377
▁변호 -2378
▁기회 -2379
▁아무 -2380
▁정착 -2381
▁병사 -2382
▁나서 -2383
▁쇠 -2384
▁무장 -2385
니어 -2386
도로 -2387
▁냉 -2388
▁겨울 -2389
▁오른 -2390
▁터미널 -2391
▁최소 -2392
▁노동자 -2393
▁전반 -2394
▁제목 -2395
철도 -2396
▁ㄹㅣ -2397
▁금융 -2398
▁x -2399
un -2400
▁쉬 -2401
드로 -2402
▁약간 -2403
▁몽골 -2404
▁강원도 -2405
▁유도 -2406
▁편집 -2407
▁마리아 -2408
▁37 -2409
▁바람 -2410
ow -2411
▁국방 -2412
▁마쓰 -2413
▁in -2414
▁잎 -2415
▁고전 -2416
▁전개 -2417
▁환자 -2418
▁사례 -2419
▁사라지 -2420
▁바라 -2421
▁혐의 -2422
스키 -2423
▁ᆫㄷㅏㅁㅕㄴ -2424
▁지점 -2425
▁재산 -2426
▁도중 -2427
▁허용 -2428
▁표면 -2429
▁마련 -2430
▁근대 -2431
소리 -2432
▁카르 -2433
오카 -2434
▁재정 -2435
▁합병 -2436
▁충분 -2437
▁밀도 -2438
▁무렵 -2439
▁래 -2440
▁가스 -2441
▁인디 -2442
▁이하 -2443
▁힐 -2444
▁학년 -2445
▁전력 -2446
▁헝가리 -2447
▁ㅕㅅㅓ -2448
▁1987 -2449
▁비트 -2450
▁오사카 -2451
▁민간 -2452
▁윈도우 -2453
▁빨 -2454
▁선수단 -2455
▁현실 -2456
▁라이브 -2457
▁포르투갈 -2458
▁여전히 -2459
▁유엔 -2460
ra -2461
▁붕괴 -2462
▁등급 -2463
▁계급 -2464
▁전역 -2465
▁뒷 -2466
▁샌 -2467
▁킹 -2468
▁가져 -2469
▁그해 -2470
ㅇㅛ -2471
▁루이 -2472
▁양성 -2473
▁범위 -2474
▁w -2475
▁대수 -2476
▁오리 -2477
▁41 -2478
▁령 -2479
▁숲 -2480
▁원칙 -2481
▁재직 -2482
마크 -2483
▁51 -2484
▁강제 -2485
▁조치 -2486
▁공공 -2487
▁후지 -2488
▁엔터 -2489
▁보고 -2490
▁꼬리 -2491
▁성질 -2492
▁적극 -2493
▁롤 -2494
▁위협 -2495
▁수입 -2496
▁행하 -2497
▁충청남도 -2498
▁동료 -2499
▁ㄷㅡ -2500
▁1986 -2501
▁공주 -2502
▁군주 -2503
▁임무 -2504
▁온도 -2505
▁전선 -2506
▁이미지 -2507
▁업체 -2508
▁영화배우 -2509
▁스튜디오 -2510
▁논문 -2511
▁1984 -2512
▁토론 -2513
▁대대 -2514
▁캘리포 -2515
▁위원장 -2516
▁이제 -2517
▁승인 -2518
▁공업 -2519
▁클라 -2520
▁대학원 -2521
▁봄 -2522
▁구축 -2523
▁양자 -2524
▁거래 -2525
▁위성 -2526
▁꿈 -2527
▁고구 -2528
▁수립 -2529
▁교사 -2530
▁출발 -2531
▁회복 -2532
▁점차 -2533
▁수단 -2534
▁잭 -2535
▁확보 -2536
▁섭 -2537
▁성인 -2538
▁항상 -2539
테르 -2540
▁신화 -2541
▁다섯 -2542
▁핀란드 -2543
▁앞서 -2544
▁역대 -2545
▁필리핀 -2546
▁둥 -2547
▁캘리포니아 -2548
▁공산당 -2549
▁아시안 -2550
러지 -2551
▁증거 -2552
▁채택 -2553
▁스타일 -2554
ch -2555
▁드래 -2556
▁장비 -2557
▁규칙 -2558
마스 -2559
▁의료 -2560
▁ㄷㅡㄴ -2561
▁강의 -2562
▁기대 -2563
▁잡지 -2564
바이 -2565
▁올라가 -2566
ur -2567
▁그래서 -2568
▁시인 -2569
▁첨 -2570
주교 -2571
▁어떻 -2572
▁합의 -2573
▁남아 -2574
고리 -2575
▁39 -2576
▁폭발 -2577
▁ㄹㅏㅁㅕ -2578
▁스파 -2579
▁나카 -2580
▁에피 -2581
▁만족 -2582
▁부근 -2583
▁이스라 -2584
▁얼굴 -2585
▁모스크 -2586
▁개편 -2587
▁욕 -2588
▁스위스 -2589
▁선생 -2590
▁남편 -2591
▁진화 -2592
▁400 -2593
▁일원 -2594
▁매년 -2595
▁이승 -2596
▁불가 -2597
▁장면 -2598
▁튀 -2599
▁기지 -2600
▁경향 -2601
▁대기 -2602
로드 -2603
▁1985 -2604
▁이스라엘 -2605
▁64 -2606
▁군단 -2607
▁대형 -2608
▁II -2609
▁토지 -2610
▁앞두 -2611
▁가사 -2612
▁해체 -2613
▁통계 -2614
▁끊 -2615
▁분자 -2616
▁스리 -2617
▁강점 -2618
▁뜨 -2619
▁종이 -2620
▁태풍 -2621
▁붉 -2622
▁아메리카 -2623
다리 -2624
▁게이 -2625
▁간주 -2626
▁둘러 -2627
데미 -2628
▁아주 -2629
▁움직이 -2630
ut -2631
▁경주 -2632
▁종종 -2633
▁캄 -2634
▁어린 -2635
▁기억 -2636
▁귀국 -2637
▁까 -2638
백질 -2639
▁서양 -2640
우드 -2641
▁조합 -2642
▁낭 -2643
▁항성 -2644
키아 -2645
▁ㅏㅅㅓ -2646
레이드 -2647
▁아랍 -2648
▁수원 -2649
▁성과 -2650
▁의학 -2651
▁아름 -2652
고기 -2653
▁청소년 -2654
▁감정 -2655
▁확실 -2656
▁i -2657
▁폼 -2658
▁스피 -2659
▁ㅇㅔㄱㅔㅅㅓ -2660
▁클래 -2661
▁저지 -2662
▁사항 -2663
▁좀 -2664
▁초반 -2665
▁맛 -2666
▁레코드 -2667
▁보장 -2668
▁향상 -2669
▁43 -2670
um -2671
▁대장 -2672
▁삼국 -2673
▁심하 -2674
▁투어 -2675
▁그곳 -2676
▁탑재 -2677
▁침공 -2678
▁장식 -2679
▁고양 -2680
▁아카데미 -2681
▁짐 -2682
▁소년 -2683
▁아나 -2684
▁융 -2685
▁카메 -2686
▁LG -2687
어들 -2688
▁변하 -2689
▁자금 -2690
오프 -2691
▁메이저 -2692
▁만큼 -2693
▁랭 -2694
▁란 -2695
▁나폴 -2696
오스 -2697
▁청나라 -2698
▁아름답 -2699
▁평양 -2700
▁켄 -2701
▁불과 -2702
▁고구려 -2703
▁선고 -2704
보드 -2705
요시 -2706
▁42 -2707
▁나치 -2708
▁중화민국 -2709
▁신앙 -2710
▁가로 -2711
▁남동 -2712
라비아 -2713
▁대립 -2714
▁보병 -2715
▁단백질 -2716
▁줄거리 -2717
ir -2718
ver -2719
▁전설 -2720
▁라틴 -2721
▁우선 -2722
▁독자 -2723
▁잠시 -2724
네스 -2725
▁확정 -2726
타인 -2727
▁숭 -2728
라노 -2729
▁고문 -2730
▁br -2731
▁새기 -2732
▁만주 -2733
틀랜드 -2734
▁박쥐 -2735
▁55 -2736
▁선거구 -2737
▁단지 -2738
▁스케 -2739
▁신설 -2740
▁1982 -2741
▁살해 -2742
운동 -2743
▁카운티 -2744
소드 -2745
네시아 -2746
▁차별 -2747
▁ㅂㅏ -2748
▁지시 -2749
▁우수 -2750
▁스카 -2751
▁복잡 -2752
▁구체 -2753
▁판결 -2754
▁철도역 -2755
▁의장 -2756
▁전화 -2757
▁탄생 -2758
▁삭 -2759
무르 -2760
▁육상 -2761
에르 -2762
▁비율 -2763
▁검찰 -2764
▁예상 -2765
▁성당 -2766
▁창설 -2767
▁함대 -2768
▁합치 -2769
im -2770
▁광역시 -2771
다이 -2772
▁온라인 -2773
FC -2774
▁브랜드 -2775
▁편입 -2776
일러 -2777
▁법인 -2778
▁왕위 -2779
▁재단 -2780
▁44 -2781
▁마크 -2782
▁솔로 -2783
▁덴마크 -2784
트라 -2785
누스 -2786
▁수출 -2787
▁저서 -2788
▁1983 -2789
▁브리 -2790
▁공유 -2791
뜨리 -2792
ㅓㄹㅏ -2793
▁동의 -2794
▁ㄴㅑ -2795
▁듯 -2796
▁짜 -2797
이크 -2798
▁킬 -2799
▁유학 -2800
▁세종 -2801
▁고향 -2802
▁강점기 -2803
▁보급 -2804
▁ㅈ -2805
▁반도 -2806
의회 -2807
▁가하 -2808
▁47 -2809
▁묻 -2810
싱턴 -2811
▁참석 -2812
▁노예 -2813
▁핵심 -2814
▁전후 -2815
▁집행 -2816
▁Z -2817
▁마드리 -2818
CA -2819
▁하늘 -2820
▁암살 -2821
▁애플 -2822
▁헤이 -2823
▁둘러싸 -2824
▁고정 -2825
▁협상 -2826
뿌리 -2827
ay -2828
반도 -2829
▁무엇 -2830
없이 -2831
▁마드리드 -2832
▁사전 -2833
▁법칙 -2834
▁본격 -2835
▁보안 -2836
▁저장 -2837
▁후손 -2838
하라 -2839
▁이란 -2840
▁회전 -2841
▁롯 -2842
▁이성 -2843
비드 -2844
▁중반 -2845
▁사우 -2846
▁의무 -2847
▁오픈 -2848
▁아르헨 -2849
▁플랫 -2850
▁논리 -2851
▁주교 -2852
▁대비 -2853
▁관료 -2854
▁권한 -2855
▁카를 -2856
퍼스 -2857
▁자세 -2858
▁184 -2859
▁75 -2860
각형 -2861
▁전용 -2862
▁산맥 -2863
▁대항 -2864
레이션 -2865
▁숫 -2866
▁순서 -2867
▁연고 -2868
▁180 -2869
▁이익 -2870
▁상품 -2871
▁전혀 -2872
셔널 -2873
▁하위 -2874
▁v -2875
▁베를 -2876
▁공학 -2877
▁중세 -2878
▁유적 -2879
▁옷 -2880
▁베이스 -2881
▁1972 -2882
▁아르헨티나 -2883
▁플레이오프 -2884
▁단일 -2885
문화 -2886
▁어린이 -2887
▁시각 -2888
▁공기 -2889
원군 -2890
▁갈등 -2891
▁직원 -2892
리스트 -2893
▁인상 -2894
▁로버트 -2895
▁에피소드 -2896
▁말기 -2897
▁1920 -2898
▁아스 -2899
▁켈 -2900
▁46 -2901
터리 -2902
▁프란 -2903
▁의도 -2904
▁ㄷㅓㄹㅏ -2905
▁CD -2906
바르 -2907
▁조금 -2908
▁모리 -2909
▁보조 -2910
▁을 -2911
▁기하 -2912
▁스크 -2913
▁중심지 -2914
▁운전 -2915
▁창조 -2916
▁아파 -2917
▁공포 -2918
▁잘못 -2919
▁협정 -2920
어스 -2921
▁아미 -2922
▁ㄹㅏㅁㅕㄴ -2923
▁흔히 -2924
▁변호사 -2925
▁가르치 -2926
▁공무원 -2927
▁요한 -2928
▁원리 -2929
▁워싱턴 -2930
▁인권 -2931
▁효소 -2932
▁원주 -2933
▁비난 -2934
▁수여 -2935
▁성경 -2936
▁글로 -2937
▁1979 -2938
▁하드 -2939
▁별도 -2940
▁마시 -2941
▁레드 -2942
▁밀리 -2943
▁셋 -2944
▁정복 -2945
▁덮 -2946
▁In -2947
퍼드 -2948
▁전라북도 -2949
▁작곡가 -2950
▁투입 -2951
▁1930 -2952
▁엠 -2953
정부 -2954
▁ㄹㅏㅇ -2955
▁교류 -2956
▁파크 -2957
▁우크 -2958
▁오히 -2959
▁장착 -2960
▁소식 -2961
▁벡 -2962
▁논쟁 -2963
▁방면 -2964
▁kg -2965
▁넘어 -2966
▁본인 -2967
사키 -2968
▁현장 -2969
▁빙 -2970
무라 -2971
▁건국 -2972
▁공화 -2973
▁논의 -2974
▁심각 -2975
▁어떻게 -2976
▁ㄷㅡㅅ -2977
▁원작 -2978
▁호텔 -2979
▁항복 -2980
▁1981 -2981
▁플라 -2982
▁1973 -2983
▁150 -2984
10 -2985
▁공산주의 -2986
▁아침 -2987
▁훨 -2988
▁택 -2989
▁중부 -2990
▁교토 -2991
os -2992
▁출마 -2993
▁놓이 -2994
▁건조 -2995
▁헨리 -2996
▁마이클 -2997
▁인류 -2998
▁금메달 -2999
▁무리 -3000
▁노스 -3001
▁ㄴㄷㅏ -3002
▁유전자 -3003
▁운용 -3004
▁요새 -3005
▁세인트 -3006
▁사태 -3007
▁투쟁 -3008
▁물러 -3009
▁훨씬 -3010
▁코미 -3011
▁오토 -3012
▁창립 -3013
▁니콜 -3014
▁연합군 -3015
▁합성 -3016
▁연산 -3017
▁오랜 -3018
▁코스 -3019
▁뿌리 -3020
겨나 -3021
▁로드 -3022
▁오른쪽 -3023
▁김정 -3024
▁에어 -3025
▁멸망 -3026
▁예산 -3027
▁추측 -3028
▁절대 -3029
▁형사 -3030
▁플레이어 -3031
▁산하 -3032
▁금속 -3033
▁방출 -3034
▁태국 -3035
▁드러나 -3036
▁1940 -3037
▁패하 -3038
▁릴 -3039
▁한때 -3040
▁인정받 -3041
30 -3042
▁인공 -3043
ter -3044
▁서기 -3045
▁왼쪽 -3046
em -3047
▁노르웨이 -3048
▁모스크바 -3049
▁찍 -3050
▁구별 -3051
▁메시 -3052
▁복합 -3053
▁북서 -3054
▁베이징 -3055
▁1974 -3056
▁벗어나 -3057
BO -3058
▁주위 -3059
일보 -3060
▁미니 -3061
▁트랙 -3062
▁아프 -3063
▁사령관 -3064
▁스코틀랜드 -3065
▁효율 -3066
▁해양 -3067
▁각본 -3068
▁제자 -3069
▁탁 -3070
▁185 -3071
▁반복 -3072
▁오히려 -3073
▁인종 -3074
카와 -3075
▁전철 -3076
▁오전 -3077
▁블루 -3078
▁연관 -3079
▁정비 -3080
▁입자 -3081
▁사법 -3082
시스 -3083
▁제출 -3084
▁해상 -3085
젤레스 -3086
▁가져오 -3087
▁출장 -3088
▁뽑 -3089
▁노부 -3090
▁주기 -3091
▁숫자 -3092
▁댄 -3093
▁집안 -3094
▁델 -3095
▁신체 -3096
▁베를린 -3097
▁군수 -3098
▁보험 -3099
▁SBS -3100
▁웨스트 -3101
▁슬로 -3102
▁마침 -3103
▁분쟁 -3104
▁54 -3105
▁인터뷰 -3106
▁하나님 -3107
▁중대 -3108
머스 -3109
▁목사 -3110
▁포위 -3111
▁인조 -3112
나이티 -3113
▁흡수 -3114
▁빌리 -3115
듀서 -3116
▁프로듀서 -3117
붙이 -3118
▁유나이티 -3119
▁축제 -3120
▁디스 -3121
▁1948 -3122
아오 -3123
▁이민 -3124
▁거절 -3125
▁수송 -3126
▁소방 -3127
▁포기 -3128
▁시점 -3129
▁구속 -3130
▁취급 -3131
▁소녀 -3132
▁1968 -3133
▁자이 -3134
▁관점 -3135
▁활발 -3136
도르 -3137
▁1976 -3138
▁북동 -3139
▁개시 -3140
▁퍼지 -3141
▁프라 -3142
▁명성 -3143
▁건립 -3144
▁우스 -3145
▁보스 -3146
▁전공 -3147
▁출입 -3148
▁ㅂㅏㄲ -3149
▁ㅂㅏㄲㅇㅔ -3150
▁고용 -3151
▁갤 -3152
▁견해 -3153
▁텐 -3154
op -3155
▁직업 -3156
▁사령부 -3157
▁진보 -3158
▁1975 -3159
▁ㄹㅏㄷㅗ -3160
▁넘기 -3161
▁경성 -3162
▁즐기 -3163
▁한국어 -3164
데스 -3165
▁응용 -3166
▁활성 -3167
▁히데 -3168
▁부활 -3169
▁던지 -3170
서트 -3171
▁국도 -3172
▁안타 -3173
▁주택 -3174
▁성능 -3175
▁학습 -3176
▁신성 -3177
▁불법 -3178
▁읍 -3179
▁실리 -3180
다가 -3181
▁동원 -3182
▁장악 -3183
▁주전 -3184
▁농민 -3185
▁영화제 -3186
▁소스 -3187
▁취득 -3188
▁여부 -3189
라크 -3190
▁음력 -3191
▁정체 -3192
리어 -3193
▁일치 -3194
▁비록 -3195
▁명명 -3196
▁56 -3197
▁직전 -3198
▁총독 -3199
ag -3200
▁고유 -3201
▁먹이 -3202
▁보컬 -3203
▁유물 -3204
▁후원 -3205
▁전부 -3206
▁1978 -3207
▁ㅇㅓㄷㅗ -3208
▁폭력 -3209
▁대리 -3210
▁1971 -3211
▁52 -3212
▁파라 -3213
▁포도 -3214
▁Q -3215
▁국장 -3216
▁1963 -3217
▁미드 -3218
▁한자 -3219
▁여객철도 -3220
▁ㄷㅓㄹㅏㄷㅗ -3221
▁봉하 -3222
▁늘어나 -3223
▁연료 -3224
▁혼란 -3225
에트 -3226
리케 -3227
키스탄 -3228
▁천체 -3229
▁항공기 -3230
▁선교 -3231
▁문헌 -3232
▁코미디 -3233
▁65 -3234
▁약속 -3235
▁편지 -3236
▁시리아 -3237
▁타이완 -3238
세이 -3239
▁49 -3240
▁그리스도 -3241
▁누리 -3242
▁닌 -3243
▁교차 -3244
▁브레 -3245
▁상당히 -3246
▁임금 -3247
산시 -3248
▁수술 -3249
메리 -3250
비치 -3251
ce -3252
자기 -3253
▁주관 -3254
▁도달 -3255
쿠라 -3256
▁팝 -3257
▁관직 -3258
▁북아 -3259
▁로스앤 -3260
▁로스앤젤레스 -3261
▁백제 -3262
▁제어 -3263
▁본사 -3264
릭스 -3265
▁일대 -3266
▁미나 -3267
▁철수 -3268
▁반영 -3269
▁스미 -3270
▁아테 -3271
▁화물 -3272
ㅇㅣ -3273
기에 -3274
▁수집 -3275
▁상륙 -3276
▁테러 -3277
▁넷 -3278
▁대화 -3279
▁1969 -3280
▁ㄷㅏㅁㅕ -3281
▁도구 -3282
▁주간 -3283
▁스마 -3284
▁의존 -3285
노스 -3286
▁영업 -3287
▁고종 -3288
▁교환 -3289
▁179 -3290
▁캠퍼스 -3291
▁학술 -3292
▁콘서트 -3293
▁00 -3294
▁물러나 -3295
▁십자 -3296
▁계통 -3297
OS -3298
▁장교 -3299
▁전파 -3300
▁프로세 -3301
▁항구 -3302
▁증상 -3303
▁아사 -3304
▁그런데 -3305
▁보관 -3306
▁해산 -3307
▁정지 -3308
▁데이비드 -3309
▁재료 -3310
▁학부 -3311
▁롯데 -3312
▁정원 -3313
▁구성원 -3314
▁자살 -3315
▁53 -3316
▁사운드 -3317
▁전문가 -3318
▁프리미 -3319
▁톰 -3320
▁상승 -3321
▁모드 -3322
▁연재 -3323
▁하우스 -3324
▁개체 -3325
▁주식회사 -3326
▁.. -3327
▁코로나 -3328
▁모시 -3329
▁나아가 -3330
▁1946 -3331
▁방사 -3332
▁영향력 -3333
▁백작 -3334
▁SK -3335
▁판서 -3336
▁김영 -3337
▁부임 -3338
▁박정 -3339
공항 -3340
▁핑 -3341
▁거기 -3342
▁살인 -3343
▁좁 -3344
▁반발 -3345
▁허가 -3346
oc -3347
▁발언 -3348
▁간단 -3349
▁고리 -3350
▁영입 -3351
▁공통 -3352
▁진입 -3353
▁리스 -3354
▁헤르 -3355
▁질병 -3356
▁불상 -3357
▁겐 -3358
▁망명 -3359
▁제일 -3360
▁사유 -3361
▁위반 -3362
▁파트 -3363
▁1964 -3364
▁신분 -3365
▁외국인 -3366
병대 -3367
▁원하 -3368
▁99 -3369
▁니시 -3370
▁브루 -3371
▁페이 -3372
▁기도 -3373
미터 -3374
▁절차 -3375
▁화성 -3376
▁베스트 -3377
▁보건 -3378
▁드리 -3379
▁한반도 -3380
▁리더 -3381
▁에도 -3382
▁US -3383
▁시호 -3384
▁참전 -3385
▁감사 -3386
▁인도네시아 -3387
▁사장 -3388
▁저작 -3389
▁학원 -3390
▁자녀 -3391
▁벨기에 -3392
ri -3393
▁미터 -3394
▁대략 -3395
▁서버 -3396
▁랜 -3397
▁포트 -3398
▁변형 -3399
▁스프 -3400
▁소비에트 -3401
▁약하 -3402
▁그레 -3403
▁탈락 -3404
▁변환 -3405
▁창단 -3406
▁꼭 -3407
▁시카 -3408
▁충청북도 -3409
▁횡 -3410
▁조작 -3411
▁진압 -3412
▁트랜 -3413
▁58 -3414
▁폴리 -3415
▁피아노 -3416
▁스토 -3417
▁승진 -3418
이어 -3419
▁마케 -3420
▁통상 -3421
▁ㄹㅔ -3422
▁가을 -3423
▁탈출 -3424
▁1000 -3425
▁부장 -3426
하마 -3427
정식 -3428
▁픽 -3429
▁PC -3430
▁and -3431
▁학회 -3432
오르 -3433
▁채용 -3434
▁도망 -3435
▁루이스 -3436
▁국제공항 -3437
▁복무 -3438
▁식품 -3439
▁임대 -3440
▁청구 -3441
▁아라 -3442
▁요인 -3443
▁주년 -3444
▁현역 -3445
▁닥 -3446
▁신청 -3447
▁말레이 -3448
▁콤 -3449
▁공동체 -3450
▁다스 -3451
▁그치 -3452
▁문장 -3453
▁누르 -3454
▁쫓 -3455
▁지붕 -3456
▁요코 -3457
▁작사 -3458
▁분열 -3459
▁이중 -3460
▁라이트 -3461
▁머무르 -3462
▁고도 -3463
▁동남 -3464
▁생태 -3465
▁방송국 -3466
▁장수 -3467
▁트라 -3468
▁벼 -3469
저우 -3470
ation -3471
▁합격 -3472
▁기호 -3473
▁1977 -3474
▁큐 -3475
▁조절 -3476
▁연출 -3477
▁트로 -3478
프리 -3479
▁예측 -3480
▁탄소 -3481
▁FA -3482
▁화면 -3483
▁민법 -3484
▁수영 -3485
▁포로 -3486
▁학과 -3487
아버지 -3488
▁1949 -3489
천군 -3490
▁임의 -3491
▁띄 -3492
▁신인 -3493
igh -3494
▁지급 -3495
로그 -3496
▁엑스 -3497
▁친일 -3498
▁막부 -3499
▁국무 -3500
▁특이 -3501
크스 -3502
▁부부 -3503
카이도 -3504
▁기법 -3505
▁위상 -3506
▁이치 -3507
▁장르 -3508
▁취소 -3509
▁카메라 -3510
▁88 -3511
려움 -3512
▁오페 -3513
▁동작 -3514
▁메모리 -3515
▁상원 -3516
▁앵 -3517
▁62 -3518
성군 -3519
▁레스 -3520
▁선보이 -3521
▁1962 -3522
▁참고 -3523
▁전동 -3524
▁서식지 -3525
▁수소 -3526
▁출간 -3527
▁실수 -3528
▁정기 -3529
▁황금 -3530
▁광장 -3531
▁배출 -3532
▁선전 -3533
▁수리 -3534
▁독립운동 -3535
▁스토리 -3536
드시 -3537
▁흉 -3538
▁칭하 -3539
▁코파 -3540
문화재 -3541
▁레오 -3542
▁화재 -3543
타르 -3544
▁개조 -3545
▁선조 -3546
▁생존 -3547
▁처형 -3548
▁방지 -3549
▁예비 -3550
▁1967 -3551
▁남서 -3552
브리 -3553
▁Ch -3554
▁주둔 -3555
▁기체 -3556
▁이승만 -3557
▁ㄴㅡㄴㄱㅏ -3558
▁ㅋ -3559
▁힘들 -3560
▁57 -3561
▁흑인 -3562
▁도전 -3563
▁연안 -3564
▁왕자 -3565
▁현지 -3566
▁어떠 -3567
▁호수 -3568
▁로켓 -3569
▁롱 -3570
▁등지 -3571
▁서구 -3572
▁일본군 -3573
▁이시 -3574
▁임진 -3575
▁공정 -3576
▁콘스탄 -3577
▁오스만 -3578
에이 -3579
포르 -3580
▁경로 -3581
▁동성 -3582
▁서원 -3583
라드 -3584
▁농구 -3585
▁루트 -3586
천시 -3587
▁희망 -3588
▁크리 -3589
▁고지 -3590
▁You -3591
▁방정식 -3592
▁히트 -3593
▁천연 -3594
▁제대로 -3595
아나 -3596
▁반드시 -3597
▁의혹 -3598
▁싸움 -3599
▁여단 -3600
▁동기 -3601
▁성향 -3602
▁좌우 -3603
▁늦 -3604
인물 -3605
먼트 -3606
▁분명 -3607
▁동아 -3608
▁무덤 -3609
▁진주 -3610
▁전주 -3611
▁노리 -3612
nd -3613
▁맞서 -3614
▁고치 -3615
▁노벨 -3616
▁맞이 -3617
▁터널 -3618
▁톱 -3619
▁그레이 -3620
▁ㅇㅡㄹㅕ -3621
▁181 -3622
▁타임 -3623
▁스탠 -3624
▁미국인 -3625
▁인지 -3626
▁압력 -3627
더스 -3628
▁전면 -3629
▁파악 -3630
▁둘째 -3631
▁이온 -3632
▁한계 -3633
▁목소리 -3634
▁내전 -3635
▁묵 -3636
▁법정 -3637
▁전형 -3638
▁신뢰 -3639
▁엄청 -3640
▁코르 -3641
베스 -3642
▁유기 -3643
▁66 -3644
▁1966 -3645
▁흘 -3646
▁꺾 -3647
라이언 -3648
▁독특 -3649
▁돌리 -3650
티브 -3651
▁녹색 -3652
▁r -3653
▁에르 -3654
ST -3655
▁개신 -3656
▁해리 -3657
▁우려 -3658
▁처벌 -3659
▁범주 -3660
▁글자 -3661
▁비평 -3662
▁물체 -3663
▁%, -3664
▁체코 -3665
▁유행 -3666
▁덧 -3667
▁홋 -3668
ON -3669
▁삽 -3670
▁68 -3671
▁아동 -3672
▁별명 -3673
▁아파트 -3674
▁복지 -3675
이치 -3676
▁1965 -3677
▁순환 -3678
▁매일 -3679
▁어디 -3680
▁리처 -3681
▁아리 -3682
▁61 -3683
▁부사 -3684
▁분할 -3685
▁오프 -3686
방송 -3687
▁추구 -3688
▁방해 -3689
▁KBO -3690
▁드물 -3691
▁모형 -3692
▁밥 -3693
▁평등 -3694
▁퀸 -3695
▁분해 -3696
▁183 -3697
▁가시 -3698
▁타격 -3699
▁실질 -3700
▁클레 -3701
▁집권 -3702
▁바둑 -3703
▁간행 -3704
▁구현 -3705
▁알렉산드 -3706
질랜드 -3707
치아 -3708
▁화산 -3709
▁묶 -3710
▁뉴질랜드 -3711
▁곱 -3712
▁김일 -3713
▁마르크 -3714
▁광복 -3715
▁한정 -3716
▁웅 -3717
ER -3718
바라 -3719
르타 -3720
▁희생 -3721
▁부진 -3722
▁일찍 -3723
▁찌 -3724
▁찰스 -3725
피스 -3726
▁빼앗 -3727
▁풍부 -3728
▁뮤지 -3729
▁최다 -3730
▁첼 -3731
art -3732
유럽 -3733
▁사립 -3734
▁플래 -3735
▁완료 -3736
▁가상 -3737
텐츠 -3738
▁시조 -3739
▁일식 -3740
▁1961 -3741
▁벡터 -3742
디션 -3743
▁800 -3744
▁86 -3745
▁파르 -3746
▁마침내 -3747
▁사원 -3748
▁테이 -3749
▁엄청나 -3750
▁물리학 -3751
▁마법 -3752
▁대개 -3753
▁손자 -3754
▁통산 -3755
▁대법 -3756
▁ㅇㅡㄴㅣ -3757
▁사냥 -3758
▁근본 -3759
▁분위 -3760
▁악기 -3761
▁레인 -3762
▁의지 -3763
▁전원 -3764
▁중기 -3765
▁점점 -3766
▁호주 -3767
▁확산 -3768
▁오페라 -3769
▁캔 -3770
▁일본인 -3771
▁분기 -3772
▁600 -3773
▁120 -3774
투스 -3775
▁나들 -3776
믹스 -3777
▁사형 -3778
▁출범 -3779
▁나들목 -3780
▁부하 -3781
ice -3782
▁웨이 -3783
▁판사 -3784
▁갈색 -3785
▁흰 -3786
▁알파 -3787
▁프린 -3788
사자 -3789
est -3790
다르 -3791
▁회담 -3792
▁창원 -3793
▁영웅 -3794
▁유치 -3795
▁충격 -3796
▁IS -3797
▁여론 -3798
▁완공 -3799
▁시카고 -3800
▁리가 -3801
▁기둥 -3802
▁명확 -3803
▁개입 -3804
▁드러내 -3805
▁샘 -3806
은행 -3807
▁교향 -3808
▁저술 -3809
ia -3810
▁단독 -3811
▁훗 -3812
▁날개 -3813
▁바치 -3814
▁대공 -3815
▁무게 -3816
▁가나 -3817
▁사임 -3818
▁포인트 -3819
▁모토 -3820
▁인접 -3821
▁발굴 -3822
▁훌 -3823
▁가까 -3824
▁메리 -3825
▁악화 -3826
▁이자 -3827
▁적절 -3828
▁인증 -3829
▁편찬 -3830
▁98 -3831
▁들어서 -3832
▁조별 -3833
▁사마 -3834
▁1919 -3835
▁닛 -3836
▁순간 -3837
▁홍보 -3838
▁제이 -3839
틀러 -3840
▁문명 -3841
사스 -3842
▁상위 -3843
▁쏘 -3844
▁무시 -3845
▁의심 -3846
▁뚜 -3847
나가 -3848
TV -3849
세우 -3850
▁조종 -3851
ap -3852
▁re -3853
▁키우 -3854
▁굽 -3855
▁명나라 -3856
▁함락 -3857
▁시드 -3858
▁탐사 -3859
AR -3860
▁기기 -3861
▁그때 -3862
▁렀 -3863
▁등장인물 -3864
▁성분 -3865
▁당초 -3866
▁연간 -3867
▁도쿠 -3868
▁자극 -3869
▁서명 -3870
▁순수 -3871
▁징역 -3872
▁곽 -3873
▁접촉 -3874
▁득표 -3875
▁연구원 -3876
▁멘 -3877
▁각지 -3878
▁카라 -3879
ak -3880
▁1944 -3881
▁추천 -3882
▁임기 -3883
우리 -3884
▁모임 -3885
▁사정 -3886
▁이닝 -3887
▁드라이 -3888
▁구원 -3889
민주 -3890
▁진정 -3891
▁넓이 -3892
▁학살 -3893
▁입법 -3894
버그 -3895
▁스마트 -3896
▁독일군 -3897
▁생겨나 -3898
▁태도 -3899
▁올해 -3900
아보 -3901
▁63 -3902
▁행렬 -3903
일리 -3904
라이나 -3905
▁95 -3906
▁그라 -3907
▁포항 -3908
▁DNA -3909
▁팽 -3910
▁고속도로 -3911
연히 -3912
▁링크 -3913
▁변수 -3914
▁사실상 -3915
▁골든 -3916
▁1941 -3917
▁뱅 -3918
▁동서 -3919
▁세르비아 -3920
▁개막 -3921
▁프리미어 -3922
▁ㄲ -3923
▁루스 -3924
▁아티 -3925
▁실현 -3926
▁심사 -3927
메이 -3928
▁74 -3929
▁언제 -3930
▁59 -3931
▁네이 -3932
▁기리 -3933
▁등판 -3934
▁예전 -3935
학생 -3936
▁락 -3937
▁자전 -3938
러리 -3939
▁재배 -3940
▁한국인 -3941
▁꼽 -3942
▁경전 -3943
▁공헌 -3944
▁균형 -3945
ct -3946
▁프로그래 -3947
▁혼합 -3948
▁바위 -3949
▁춤 -3950
▁기온 -3951
▁확률 -3952
▁보고서 -3953
▁백성 -3954
▁Lo -3955
무부 -3956
▁페르시아 -3957
▁공로 -3958
▁수석 -3959
▁오랫 -3960
▁감시 -3961
▁튜 -3962
▁커뮤 -3963
▁닉 -3964
▁178 -3965
▁매장 -3966
▁방위 -3967
▁개신교 -3968
ul -3969
▁앤드 -3970
▁대선 -3971
▁침략 -3972
▁긍 -3973
▁시사 -3974
숭이 -3975
▁출력 -3976
▁분위기 -3977
리히 -3978
▁영지 -3979
▁IC -3980
▁훗날 -3981
▁줄어들 -3982
▁양쪽 -3983
▁급제 -3984
▁흐름 -3985
▁점수 -3986
▁오랫동안 -3987
대부 -3988
코스 -3989
▁왕실 -3990
▁프라이 -3991
▁72 -3992
▁단편 -3993
▁이라크 -3994
▁무사 -3995
▁미쓰 -3996
▁안드로 -3997
▁승부 -3998
▁대량 -3999
▁커뮤니 -4000
▁지형 -4001
▁특별시 -4002
▁추산 -4003
▁텍사스 -4004
ㅡㅁ -4005
▁82 -4006
▁재건 -4007
▁160 -4008
▁1947 -4009
▁랜드 -4010
이너 -4011
▁SS -4012
▁1958 -4013
▁76 -4014
▁원형 -4015
▁그래픽 -4016
▁에드워드 -4017
▁줄기 -4018
▁권위 -4019
▁다케 -4020
▁뮤지컬 -4021
▁미야 -4022
▁피터 -4023
▁리처드 -4024
▁신부 -4025
▁안토 -4026
▁복원 -4027
▁확립 -4028
▁1956 -4029
▁to -4030
▁여왕 -4031
▁동명 -4032
▁발발 -4033
▁아이돌 -4034
▁프랑크 -4035
▁고르 -4036
▁시상 -4037
ie -4038
▁석유 -4039
▁저녁 -4040
▁타자 -4041
▁가와 -4042
▁ㅇㅔㅅㅓㅂㅜㅌㅓ -4043
▁멀리 -4044
▁일상 -4045
▁경남 -4046
▁제사 -4047
▁팔리 -4048
▁기울 -4049
▁승객 -4050
▁AFC -4051
▁77 -4052
무리 -4053
▁비상 -4054
▁파워 -4055
▁테스트 -4056
▁복수 -4057
▁입력 -4058
▁침입 -4059
▁브라운 -4060
리노 -4061
▁리버 -4062
▁도요 -4063
▁;/ -4064
▁보물 -4065
▁복음 -4066
▁작위 -4067
▁앉 -4068
▁데스 -4069
▁교구 -4070
▁포켓 -4071
▁수익 -4072
▁비치 -4073
▁업적 -4074
▁과학자 -4075
▁개설 -4076
▁원수 -4077
▁1939 -4078
▁가설 -4079
메리칸 -4080
▁타워 -4081
▁바깥 -4082
▁연예 -4083
▁Th -4084
▁기소 -4085
▁안동 -4086
▁창작 -4087
▁혁신 -4088
▁더블 -4089
▁잠수 -4090
▁정수 -4091
▁한글 -4092
▁민중 -4093
▁가공 -4094
▁67 -4095
▁섞 -4096
▁암호 -4097
레옹 -4098
레나 -4099
▁본질 -4100
ud -4101
일스 -4102
▁계층 -4103
▁겹 -4104
▁힌 -4105
▁사자 -4106
▁일시 -4107
▁나폴레옹 -4108
▁당국 -4109
▁와이 -4110
og -4111
마르 -4112
▁어깨 -4113
▁폭탄 -4114
▁그렇게 -4115
▁소득 -4116
▁자식 -4117
에른 -4118
▁시마 -4119
▁신고 -4120
IA -4121
▁끼치 -4122
▁동양 -4123
▁심지 -4124
왜란 -4125
▁임진왜란 -4126
이센 -4127
▁평론 -4128
▁85 -4129
▁병합 -4130
▁축구단 -4131
ist -4132
▁ㄴㅔ -4133
▁사제 -4134
▁다운 -4135
▁대왕 -4136
▁공중 -4137
▁신자 -4138
▁발음 -4139
▁빌보드 -4140
▁부지 -4141
▁주최 -4142
▁거듭 -4143
ly -4144
▁빅토 -4145
▁후계 -4146
th -4147
▁후속 -4148
마니아 -4149
▁덜 -4150
▁력 -4151
레인 -4152
▁인쇄 -4153
▁폐쇄 -4154
▁훈장 -4155
▁도모 -4156
▁움직임 -4157
▁깃 -4158
▁우라 -4159
▁진단 -4160
▁고통 -4161
▁ㅇㅜ -4162
▁가량 -4163
▁자이언 -4164
▁1954 -4165
▁가담 -4166
▁보상 -4167
▁내셔널 -4168
▁고기 -4169
▁노출 -4170
▁국기 -4171
체스터 -4172
▁구글 -4173
아티아 -4174
▁크로아티아 -4175
▁산화 -4176
▁동방 -4177
▁쌀 -4178
▁총회 -4179
▁국정 -4180
▁평안 -4181
▁실력 -4182
ight -4183
▁참모 -4184
BA -4185
▁96 -4186
▁생물학 -4187
▁73 -4188
▁매체 -4189
아지 -4190
▁1952 -4191
▁대지 -4192
▁Al -4193
▁탱 -4194
▁박정희 -4195
▁비서 -4196
▁채우 -4197
▁인용 -4198
▁전신 -4199
▁라스 -4200
▁람 -4201
조합 -4202
▁아트 -4203
▁가이 -4204
▁세리 -4205
▁DV -4206
타이 -4207
▁오카 -4208
▁행복 -4209
▁뷰 -4210
▁포스트 -4211
▁다소 -4212
▁도덕 -4213
▁무한 -4214
▁상관 -4215
▁레알 -4216
▁아테네 -4217
▁교리 -4218
▁오가 -4219
▁김대 -4220
▁로봇 -4221
▁타운 -4222
▁들이 -4223
▁이혼 -4224
▁탈퇴 -4225
▁부담 -4226
▁역학 -4227
▁작동 -4228
▁조조 -4229
▁81 -4230
▁예방 -4231
▁ㄹㅣㅇ -4232
▁그만 -4233
▁피해자 -4234
▁수도원 -4235
아하 -4236
▁바닥 -4237
▁지나가 -4238
▁화이트 -4239
▁비례 -4240
▁* -4241
▁따로 -4242
▁심장 -4243
▁젠 -4244
느리 -4245
▁뤼 -4246
▁78 -4247
▁인생 -4248
▁대성 -4249
▁뮌 -4250
▁보살 -4251
▁최후 -4252
▁중력 -4253
▁환승 -4254
▁수요 -4255
▁절반 -4256
▁셔 -4257
너스 -4258
▁스타디 -4259
▁ᆯㅈㅣ -4260
▁바이에른 -4261
바로 -4262
하여 -4263
▁화합 -4264
AS -4265
▁살리 -4266
▁지향 -4267
▁타이거 -4268
▁좋아하 -4269
▁기상 -4270
▁재학 -4271
AT -4272
▁규제 -4273
▁불만 -4274
시오 -4275
▁화장 -4276
▁장남 -4277
▁김성 -4278
▁포스 -4279
▁센트 -4280
▁손상 -4281
터스 -4282
▁가까이 -4283
필더 -4284
▁질환 -4285
▁총장 -4286
토스 -4287
▁미드필더 -4288
▁전투기 -4289
▁심판 -4290
▁개방 -4291
▁유통 -4292
▁지사 -4293
ess -4294
▁메달 -4295
▁전남 -4296
▁천안 -4297
세포 -4298
▁블라 -4299
▁액션 -4300
▁청주 -4301
▁하인 -4302
클리 -4303
▁아웃 -4304
▁처하 -4305
▁마무리 -4306
▁여섯 -4307
▁사무소 -4308
▁국군 -4309
▁그린 -4310
▁약물 -4311
▁91 -4312
▁주력 -4313
▁피부 -4314
▁ㄴㅡㄴㄷㅏㄴㅡㄴ -4315
의정 -4316
▁메시지 -4317
▁ㅎ -4318
▁골드 -4319
▁패션 -4320
▁검토 -4321
▁일컫 -4322
▁71 -4323
▁연습 -4324
▁콘스탄티 -4325
▁붓 -4326
▁긍정 -4327
▁보르 -4328
▁전직 -4329
▁1959 -4330
▁산소 -4331
▁모바 -4332
▁빌딩 -4333
▁선박 -4334
▁202 -4335
▁AT -4336
▁이명 -4337
▁가마 -4338
▁황후 -4339
▁처분 -4340
▁햄 -4341
▁Li -4342
스트라 -4343
▁상실 -4344
▁NH -4345
▁백만 -4346
▁유산 -4347
▁혼인 -4348
▁녀 -4349
직자 -4350
▁결의 -4351
▁통화 -4352
자치 -4353
▁당나라 -4354
▁사우스 -4355
▁신사 -4356
▁관여 -4357
▁호소 -4358
▁;, -4359
▁글로벌 -4360
쿠스 -4361
▁세부 -4362
▁프로이센 -4363
▁인원 -4364
▁177 -4365
▁심지어 -4366
▁분노 -4367
▁ㅇㅕㅇㅑ -4368
▁대책 -4369
▁소멸 -4370
▁말레이시아 -4371
▁윗 -4372
▁가요 -4373
▁설득 -4374
▁의대 -4375
IV -4376
가락 -4377
▁문신 -4378
▁가슴 -4379
▁디스크 -4380
▁오직 -4381
▁하원 -4382
▁위대 -4383
▁승려 -4384
▁동해 -4385
▁요금 -4386
▁1942 -4387
▁홋카이도 -4388
▁넘어가 -4389
▁쿠데 -4390
▁창당 -4391
▁위키 -4392
▁구매 -4393
▁시나 -4394
▁왕비 -4395
▁퀴 -4396
▁김일성 -4397
▁상역 -4398
▁적합 -4399
ub -4400
▁페이지 -4401
▁잭슨 -4402
▁크루 -4403
드리히 -4404
▁내려오 -4405
리학 -4406
▁87 -4407
▁개성 -4408
▁선임 -4409
▁억제 -4410
▁모바일 -4411
▁쾌 -4412
▁조지아 -4413
▁AP -4414
▁1943 -4415
미야 -4416
▁사격 -4417
▁음악가 -4418
▁일기 -4419
▁st -4420
▁사도 -4421
▁불안 -4422
▁테크 -4423
▁야스 -4424
▁조카 -4425
▁일본어 -4426
▁싱가 -4427
▁주석 -4428
▁크로스 -4429
▁1955 -4430
▁싱가포르 -4431
▁쿠데타 -4432
▁톨 -4433
▁필드 -4434
▁좌상 -4435
▁진영 -4436
▁전당 -4437
▁159 -4438
▁드래프트 -4439
▁프리드리히 -4440
▁일체 -4441
▁프랭 -4442
▁700 -4443
▁어려움 -4444
▁알고리 -4445
가니 -4446
▁타인 -4447
▁무료 -4448
▁84 -4449
▁카스 -4450
▁나쁘 -4451
▁1953 -4452
▁굳 -4453
ab -4454
▁원년 -4455
▁스타디움 -4456
▁발탁 -4457
▁상속 -4458
▁닫 -4459
▁챔피언십 -4460
▁사라 -4461
미르 -4462
▁루마니아 -4463
▁힙 -4464
▁1936 -4465
▁부산광역시 -4466
▁유고 -4467
▁세자 -4468
▁본명 -4469
▁천주교 -4470
▁테마 -4471
▁이와 -4472
버리 -4473
▁티베 -4474
히로 -4475
▁김종 -4476
데이 -4477
▁Re -4478
▁기동 -4479
▁디아 -4480
▁몰리 -4481
올리 -4482
▁폭격 -4483
▁왕후 -4484
▁즉시 -4485
▁토론토 -4486
▁알고리즘 -4487
▁후쿠오카 -4488
유산 -4489
▁궁전 -4490
▁독재 -4491
▁여우 -4492
▁콘텐츠 -4493
▁ㄲㅔ -4494
▁막대 -4495
▁1910 -4496
▁깊이 -4497
▁사무실 -4498
▁발명 -4499
▁연설 -4500
▁\ -4501
▁용도 -4502
▁메이지 -4503
ine -4504
▁리드 -4505
▁전동차 -4506
▁부동 -4507
▁딘 -4508
▁각국 -4509
▁태조 -4510
▁대체로 -4511
▁97 -4512
▁딜 -4513
▁사양 -4514
▁정차 -4515
우치 -4516
▁검색 -4517
▁구입 -4518
▁전북 -4519
▁1900 -4520
▁스티븐 -4521
▁학사 -4522
구리 -4523
▁유형문화재 -4524
▁원주민 -4525
▁음성 -4526
▁히틀러 -4527
▁진격 -4528
원경 -4529
주군 -4530
▁오이 -4531
▁휴대 -4532
▁추방 -4533
시스코 -4534
▁느낌 -4535
▁수호 -4536
▁주소 -4537
▁대우 -4538
구치 -4539
▁사기 -4540
▁남아프리카 -4541
▁1957 -4542
▁영양 -4543
▁아메리칸 -4544
ㅜㄹㅗㄱ -4545
▁이즈 -4546
▁자국 -4547
▁전술 -4548
▁조상 -4549
ew -4550
▁DVD -4551
▁개칭 -4552
▁세트 -4553
▁초점 -4554
▁포켓몬 -4555
▁신장 -4556
달리 -4557
래프트 -4558
▁강릉 -4559
제국 -4560
베르트 -4561
▁필수 -4562
▁동북 -4563
▁사과 -4564
▁최우 -4565
란색 -4566
▁수업 -4567
머리 -4568
미니 -4569
▁늘리 -4570
▁불가리아 -4571
▁전송 -4572
▁알바 -4573
▁광범 -4574
▁코리아 -4575
▁스미스 -4576
▁이마 -4577
▁인디언 -4578
▁덩 -4579
ue -4580
▁핫 -4581
▁69 -4582
▁급격 -4583
▁1914 -4584
▁92 -4585
▁완벽 -4586
▁기다리 -4587
▁섹 -4588
다랗 -4589
▁흔하 -4590
▁클로 -4591
▁넥 -4592
독부 -4593
▁노트 -4594
▁게다가 -4595
▁개량 -4596
▁담기 -4597
EC -4598
▁유효 -4599
▁잡히 -4600
▁렀다 -4601
▁끝내 -4602
▁바르셀 -4603
▁오키 -4604
▁바르셀로나 -4605
▁서술 -4606
▁똑 -4607
▁빚 -4608
▁펑 -4609
▁결론 -4610
▁도마 -4611
▁질문 -4612
▁천만 -4613
로지 -4614
▁WW -4615
▁라이프 -4616
지사 -4617
▁연락 -4618
▁늑 -4619
▁선형 -4620
▁ㅈㅏㄴㅡㄴ -4621
▁션 -4622
▁미술관 -4623
▁고급 -4624
▁끌어 -4625
▁에서 -4626
▁재즈 -4627
▁림 -4628
▁신도 -4629
▁랑 -4630
▁만든 -4631
▁커버 -4632
▁101 -4633
▁라틴어 -4634
▁스탈 -4635
▁마르크스 -4636
▁후임 -4637
총리 -4638
▁상인 -4639
▁소비자 -4640
▁1938 -4641
▁립 -4642
▁스프링 -4643
▁부위 -4644
▁이내 -4645
▁주니어 -4646
▁=" -4647
▁배포 -4648
▁물건 -4649
▁랩 -4650
▁다스리 -4651
자키 -4652
▁고시 -4653
▁화려 -4654
▁닥터 -4655
▁손실 -4656
▁01 -4657
▁운항 -4658
▁저자 -4659
▁실천 -4660
▁주체 -4661
▁ㄷㅡㅅㅇㅣ -4662
▁ㄹㅕㅁㅕㄴ -4663
산화 -4664
▁HD -4665
▁부친 -4666
▁숨기 -4667
▁언덕 -4668
▁윙 -4669
다니 -4670
▁1918 -4671
▁ㄴㅡㄴㅑ -4672
▁석사 -4673
리그 -4674
▁블록 -4675
▁알레 -4676
▁사퇴 -4677
▁상주 -4678
▁소형 -4679
▁안드 -4680
▁시내버스 -4681
▁언스 -4682
▁화석 -4683
▁마스터 -4684
▁의문 -4685
▁내놓 -4686
▁백인 -4687
▁고위 -4688
▁연평 -4689
▁갑자기 -4690
▁이념 -4691
▁암컷 -4692
▁일련 -4693
▁국적 -4694
▁ㅇㅓㅇㅛ -4695
비히 -4696
▁웰 -4697
▁추기 -4698
▁상수 -4699
▁자본주의 -4700
여금 -4701
▁방언 -4702
▁집회 -4703
▁대만 -4704
▁개별 -4705
▁정교회 -4706
▁감각 -4707
▁게르 -4708
▁반사 -4709
▁미스 -4710
BM -4711
▁해발 -4712
민주당 -4713
펙트 -4714
▁풋 -4715
▁경비 -4716
▁올스타 -4717
▁고객 -4718
▁차단 -4719
▁매치 -4720
▁1951 -4721
▁짝 -4722
▁영주 -4723
▁계곡 -4724
▁경제학 -4725
▁분화 -4726
▁탄압 -4727
▁화폐 -4728
총독부 -4729
▁조선총독부 -4730
▁선포 -4731
▁실업 -4732
필드 -4733
▁미시 -4734
▁on -4735
▁거짓 -4736
▁1937 -4737
▁89 -4738
▁1932 -4739
가시 -4740
▁용인 -4741
▁프랑스군 -4742
▁뮌헨 -4743
▁우크라 -4744
▁격파 -4745
바키아 -4746
▁구상 -4747
▁당원 -4748
▁화제 -4749
▁재개 -4750
▁크라 -4751
▁마틴 -4752
▁엘리자 -4753
▁이웃 -4754
▁항공사 -4755
▁후계자 -4756
▁93 -4757
▁퀘 -4758
▁칭호 -4759
▁182 -4760
▁기부 -4761
▁클리 -4762
▁이스트 -4763
▁진학 -4764
▁체험 -4765
▁말리 -4766
▁찬성 -4767
▁고양이 -4768
▁시트 -4769
무늬 -4770
▁싱어 -4771
▁회로 -4772
▁추기경 -4773
▁첩 -4774
저스 -4775
▁번지 -4776
브라 -4777
▁면역 -4778
▁1935 -4779
▁수치 -4780
▁질서 -4781
▁비행기 -4782
ect -4783
▁베리 -4784
▁곡선 -4785
▁비스 -4786
▁파티 -4787
▁흰색 -4788
▁광범위 -4789
▁사찰 -4790
▁항의 -4791
▁트레이드 -4792
▁공신 -4793
▁자산 -4794
▁Be -4795
▁발간 -4796
어로 -4797
▁되돌 -4798
▁겉 -4799
▁증언 -4800
▁웃 -4801
▁둥글 -4802
▁촉진 -4803
▁아티스트 -4804
▁세월 -4805
ㅅㅜㄹㅗㄱ -4806
▁클래식 -4807
▁데리 -4808
▁꾸준 -4809
▁설치류 -4810
▁마루 -4811
▁ㄱㅗㄴ -4812
사전 -4813
▁구멍 -4814
▁타율 -4815
▁로렌 -4816
▁소화 -4817
▁극단 -4818
▁개척 -4819
동생 -4820
▁중추 -4821
▁가속 -4822
▁법학 -4823
▁운송 -4824
▁히어로 -4825
▁반지 -4826
▁유배 -4827
▁습격 -4828
▁지수 -4829
▁영원 -4830
▁쿨 -4831
▁쿼 -4832
▁보편 -4833
▁남녀 -4834
▁OS -4835
▁분교 -4836
▁전망 -4837
▁허락 -4838
▁전적 -4839
런스 -4840
▁성남 -4841
▁시모 -4842
ore -4843
▁수백 -4844
▁소문 -4845
▁양산 -4846
▁94 -4847
▁소위 -4848
슈타인 -4849
▁축소 -4850
벤트 -4851
▁덧붙이 -4852
▁탕 -4853
▁마주 -4854
▁탄핵 -4855
▁내세우 -4856
▁직무 -4857
▁카리 -4858
▁대법원 -4859
다수 -4860
our -4861
▁ㅎㅏ -4862
▁목성 -4863
추어 -4864
▁물고기 -4865
▁팩 -4866
센트 -4867
▁푸르 -4868
IN -4869
▁아오 -4870
▁툴 -4871
▁쟁 -4872
ell -4873
▁잠수함 -4874
▁강남 -4875
▁동화 -4876
▁원시 -4877
▁약화 -4878
▁티베트 -4879
▁뼈 -4880
▁ㅈㅗ -4881
▁핸 -4882
▁프랑스어 -4883
▁1933 -4884
▁소집 -4885
▁CP -4886
▁영구 -4887
ㅊㅏ -4888
른바 -4889
▁FM -4890
▁대칭 -4891
▁ㅈㅗㅊㅏ -4892
▁그리하여 -4893
▁조항 -4894
▁충분히 -4895
도사 -4896
▁료 -4897
▁프로그래밍 -4898
슬링 -4899
▁무용 -4900
▁수십 -4901
▁이른바 -4902
▁하여금 -4903
▁멀티 -4904
▁익스 -4905
▁혼자 -4906
▁선호 -4907
돼지 -4908
려가 -4909
▁군부 -4910
▁콜로 -4911
▁주일 -4912
▁고교 -4913
▁1928 -4914
닉스 -4915
프레 -4916
▁누스 -4917
▁정류 -4918
ers -4919
▁칠레 -4920
▁대로 -4921
▁어둡 -4922
▁정통 -4923
사이 -4924
▁간부 -4925
▁걷 -4926
▁당신 -4927
▁이행 -4928
공사 -4929
▁지나치 -4930
들리 -4931
▁개명 -4932
▁시신 -4933
리우스 -4934
▁무너지 -4935
▁국토 -4936
▁댄스 -4937
ID -4938
▁실내 -4939
▁오버 -4940
▁형상 -4941
▁펴 -4942
▁경사 -4943
▁동경 -4944
▁발레 -4945
▁판정 -4946
▁틈 -4947
▁재능 -4948
▁펀 -4949
▁09 -4950
▁콜롬 -4951
▁자매 -4952
▁해제 -4953
▁손해 -4954
▁메트로 -4955
▁79 -4956
▁브로 -4957
▁진실 -4958
▁사이드 -4959
▁1924 -4960
▁부속 -4961
▁액체 -4962
▁태종 -4963
▁04 -4964
▁지불 -4965
▁토마스 -4966
▁사막 -4967
▁자이언츠 -4968
▁조기 -4969
▁토대 -4970
▁개장 -4971
▁멈 -4972
▁이재 -4973
▁110 -4974
▁단순히 -4975
과이 -4976
▁반하 -4977
▁입대 -4978
▁지중 -4979
▁따오 -4980
end -4981
▁토너 -4982
▁강전 -4983
▁종사 -4984
▁합동 -4985
▁원자력 -4986
▁이벤트 -4987
코프 -4988
▁열매 -4989
▁파키스탄 -4990
▁플로리 -4991
▁전제 -4992
▁정면 -4993
▁오류 -4994
▁08 -4995
▁늑대 -4996
페이스 -4997
▁구름 -4998
▁170 -4999
▁아마추어 -5000
ill -5001
▁김해 -5002
▁지표 -5003
▁주문 -5004
▁프로토 -5005
▁대승 -5006
▁분산 -5007
▁경고 -5008
▁코너 -5009
▁퓨 -5010
▁유아 -5011
▁스카이 -5012
▁러브 -5013
▁안티 -5014
▁상대식 -5015
▁서방 -5016
▁비잔 -5017
▁하와 -5018
▁ㅓㅆ -5019
▁의정부 -5020
▁Co -5021
▁가난 -5022
▁놀이 -5023
▁동굴 -5024
▁무력 -5025
▁토착 -5026
▁안토니 -5027
▁룸 -5028
▁틴 -5029
▁성서 -5030
▁재생 -5031
▁회색 -5032
ㅋㅡㅁ -5033
▁양국 -5034
▁엄격 -5035
▁MS -5036
▁장점 -5037
▁투스 -5038
▁베네치아 -5039
▁로즈 -5040
▁존스 -5041
▁총재 -5042
▁당대 -5043
▁보스턴 -5044
▁수컷 -5045
▁법안 -5046
베리아 -5047
어도 -5048
▁자르 -5049
ain -5050
▁자랑 -5051
▁스크린 -5052
▁배열 -5053
▁호흡 -5054
성기 -5055
▁초상 -5056
테스 -5057
▁강도 -5058
▁중동 -5059
▁뻗 -5060
▁오케 -5061
▁부리 -5062
▁부서 -5063
티스 -5064
▁행적 -5065
▁흔적 -5066
▁세로 -5067
▁일단 -5068
▁편의 -5069
AN -5070
▁{ -5071
ard -5072
▁봉기 -5073
▁스톤 -5074
▁평면 -5075
▁맨체스터 -5076
▁젤 -5077
▁우에 -5078
공업 -5079
▁불러 -5080
사르 -5081
▁다큐 -5082
▁북미 -5083
▁인민군 -5084
▁83 -5085
야스 -5086
▁힙합 -5087
조선 -5088
▁De -5089
레오 -5090
▁토너먼트 -5091
▁동지 -5092
▁대가 -5093
▁요코하마 -5094
▁메탈 -5095
▁주재 -5096
▁중계 -5097
▁판타 -5098
▁메르 -5099
▁장로 -5100
▁빵 -5101
▁레닌 -5102
▁재임 -5103
▁야당 -5104
▁강요 -5105
▁스케이 -5106
데르 -5107
▁ㅁㅏㄴㅋㅡㅁ -5108
▁경북 -5109
▁페리 -5110
▁찾아가 -5111
▁맡기 -5112
▁쌓이 -5113
리나 -5114
▁추적 -5115
▁대원 -5116
▁쿠바 -5117
▁밸 -5118
▁선로 -5119
▁대사관 -5120
▁혈액 -5121
▁철거 -5122
▁1934 -5123
▁나이트 -5124
▁개찰 -5125
▁마감 -5126
▁국방부 -5127
▁포드 -5128
▁한성 -5129
즈니 -5130
▁근육 -5131
▁안쪽 -5132
▁주자 -5133
제르 -5134
▁벼슬 -5135
▁중지 -5136
▁풍속 -5137
▁구사 -5138
▁탓 -5139
▁농장 -5140
▁장례 -5141
▁발전소 -5142
▁입구 -5143
▁코어 -5144
▁르네 -5145
▁해설 -5146
▁관계자 -5147
▁할아버지 -5148
세대 -5149
▁ㄱㅣㅇㅔ -5150
키퍼 -5151
▁뱀 -5152
워하 -5153
▁글리 -5154
▁페이스 -5155
▁동구 -5156
▁본토 -5157
▁함경 -5158
▁경찰서 -5159
▁골키퍼 -5160
아르 -5161
▁스탈린 -5162
드라 -5163
베르크 -5164
▁안내 -5165
▁화합물 -5166
위대 -5167
▁접속 -5168
▁농촌 -5169
▁도쿠가와 -5170
▁거스 -5171
▁노동당 -5172
▁아프가니 -5173
▁현존 -5174
▁가볍 -5175
▁느리 -5176
▁닐 -5177
▁관객 -5178
▁철학자 -5179
▁시계 -5180
▁떼 -5181
유키 -5182
▁심리학 -5183
▁광산 -5184
▁역전 -5185
고속 -5186
크래프트 -5187
▁멈추 -5188
▁증권 -5189
▁리스트 -5190
▁사망자 -5191
므로 -5192
▁오염 -5193
▁거점 -5194
▁곤충 -5195
▁거느리 -5196
▁선물 -5197
▁130 -5198
ne -5199
▁Me -5200
▁모노 -5201
▁식량 -5202
▁항해 -5203
▁복사 -5204
▁대동 -5205
▁레지 -5206
▁정조 -5207
▁정확히 -5208
▁부작 -5209
▁토머스 -5210
▁사카 -5211
▁유키 -5212
▁조문 -5213
▁남극 -5214
▁모자 -5215
▁계수 -5216
▁부호 -5217
▁재판소 -5218
▁동메달 -5219
▁폭풍 -5220
▁독점 -5221
▁부처 -5222
▁Sh -5223
▁필립 -5224
▁종전 -5225
▁합리 -5226
▁140 -5227
▁그러므로 -5228
▁그리스어 -5229
▁훼 -5230
▁이정 -5231
▁내려가 -5232
▁문재 -5233
▁중성 -5234
▁테르 -5235
▁알렉산더 -5236
하이 -5237
▁대결 -5238
▁초청 -5239
▁대다수 -5240
▁비중 -5241
▁돔 -5242
▁세금 -5243
▁아프가니스탄 -5244
▁김구 -5245
레이크 -5246
▁휘하 -5247
▁은메달 -5248
▁히로시마 -5249
레아 -5250
▁클래스 -5251
▁특별히 -5252
보내 -5253
▁윤리 -5254
▁WWE -5255
▁펄 -5256
▁유대인 -5257
OR -5258
▁칼리지 -5259
▁아비 -5260
▁아과 -5261
▁석방 -5262
▁필라 -5263
▁교향곡 -5264
▁새끼 -5265
▁자유주의 -5266
돌프 -5267
▁로맨 -5268
▁멸종 -5269
▁박근 -5270
▁원조 -5271
▁매주 -5272
▁커다랗 -5273
▁겸하 -5274
▁파울 -5275
▁체육관 -5276
▁새벽 -5277
▁대한제국 -5278
밀리 -5279
▁ST -5280
▁부품 -5281
▁구로 -5282
▁건너가 -5283
AM -5284
▁진동 -5285
▁th -5286
▁성명 -5287
▁훌륭 -5288
▁위안 -5289
▁유력 -5290
▁타카 -5291
▁그래프 -5292
▁ㄷㅜ -5293
▁달라지 -5294
베리 -5295
▁미카 -5296
안군 -5297
all -5298
▁1931 -5299
▁마그 -5300
▁물리치 -5301
▁아이스 -5302
▁간격 -5303
▁아틀 -5304
▁캠프 -5305
▁일곱 -5306
클린 -5307
▁구리 -5308
▁금강 -5309
▁캡 -5310
사관 -5311
▁트랜스 -5312
▁꾼 -5313
느님 -5314
▁감옥 -5315
나르 -5316
▁타점 -5317
▁기생 -5318
▁타원 -5319
▁존슨 -5320
▁하느님 -5321
▁강등 -5322
▁코트 -5323
▁뚜렷 -5324
▁문법 -5325
▁An -5326
▁기병 -5327
ang -5328
▁연호 -5329
▁기르 -5330
▁찾아오 -5331
▁명시 -5332
▁특허 -5333
▁대변 -5334
▁첫째 -5335
▁공세 -5336
▁스트라이 -5337
▁인터페이스 -5338
▁후퇴 -5339
▁지칭 -5340
▁좌파 -5341
▁해협 -5342
▁250 -5343
▁도메 -5344
▁네이션 -5345
▁지휘관 -5346
▁버지 -5347
▁비즈 -5348
▁교도 -5349
▁단장 -5350
▁집필 -5351
▁도망치 -5352
▁공룡 -5353
▁1921 -5354
▁평론가 -5355
▁극복 -5356
▁목포 -5357
▁유발 -5358
▁고고 -5359
▁가구 -5360
▁사관 -5361
▁스테이션 -5362
▁부드 -5363
게이 -5364
▁cod -5365
▁마라 -5366
▁무늬 -5367
▁소요 -5368
▁킬로 -5369
▁176 -5370
▁비틀 -5371
▁올라오 -5372
▁갤럭 -5373
▁덕분 -5374
▁동반 -5375
▁닮 -5376
▁키스 -5377
▁박스 -5378
▁수반 -5379
생활 -5380
▁매니 -5381
시스트 -5382
▁동성애 -5383
▁협약 -5384
▁김대중 -5385
▁목숨 -5386
▁빗 -5387
▁칙 -5388
▁05 -5389
▁조화 -5390
▁1929 -5391
ss -5392
산물 -5393
▁숙종 -5394
▁하버 -5395
▁삼각 -5396
▁타입 -5397
둥이 -5398
▁약탈 -5399
▁부드럽 -5400
마이 -5401
▁살아 -5402
▁틱 -5403
▁건담 -5404
▁일환 -5405
▁착용 -5406
▁수비수 -5407
널드 -5408
▁미분 -5409
▁잠재 -5410
▁라트 -5411
▁원장 -5412
▁입사 -5413
▁지부 -5414
▁샤를 -5415
▁갤럭시 -5416
▁de -5417
▁성씨 -5418
▁연계 -5419
▁의석 -5420
▁y -5421
▁무겁 -5422
▁ㅇㅛ -5423
▁AC -5424
▁연상 -5425
▁영혼 -5426
▁운동가 -5427
미아 -5428
▁롬 -5429
▁발렌 -5430
▁설비 -5431
▁근로 -5432
▁중립 -5433
수량 -5434
▁발휘 -5435
베이스 -5436
▁1923 -5437
▁램 -5438
▁쯤 -5439
▁기갑 -5440
▁섬유 -5441
▁이수 -5442
▁경유 -5443
▁공국 -5444
▁플로리다 -5445
▁ㄴㅡㄴㄷㅏㄱㅗ -5446
슬리 -5447
▁07 -5448
▁1925 -5449
▁임신 -5450
▁망원경 -5451
페인 -5452
ity -5453
▁서적 -5454
▁도호 -5455
▁압축 -5456
▁다다 -5457
▁불화 -5458
키스 -5459
투아 -5460
▁과일 -5461
▁추락 -5462
▁웨일스 -5463
▁성직자 -5464
▁안드로이드 -5465
▁모험 -5466
▁영감 -5467
타카 -5468
▁첸 -5469
▁ㅅㅠ -5470
▁다이묘 -5471
▁SC -5472
▁레벨 -5473
▁딱 -5474
▁진흥 -5475
▁박근혜 -5476
ㅅㅣ -5477
▁요원 -5478
▁남아메리카 -5479
▁트레이 -5480
▁변신 -5481
▁유가 -5482
▁며 -5483
▁동인 -5484
▁라이온 -5485
▁선교사 -5486
▁캘리포니아주 -5487
니즘 -5488
▁연평균 -5489
▁얀 -5490
▁살아남 -5491
▁고분 -5492
▁삭제 -5493
▁우드 -5494
▁채권 -5495
▁갱 -5496
▁장갑 -5497
▁관리자 -5498
▁지역구 -5499
▁모음 -5500
일본 -5501
▁가끔 -5502
▁제약 -5503
▁영광 -5504
무게 -5505
▁민속 -5506
▁몸무게 -5507
▁북서쪽 -5508
▁유비 -5509
▁유성 -5510
▁프로세서 -5511
▁악장 -5512
▁어원 -5513
▁똑같 -5514
▁페루 -5515
▁소설가 -5516
카스 -5517
▁교과 -5518
▁수직 -5519
▁진술 -5520
▁추대 -5521
▁시게 -5522
▁161 -5523
▁그랜드 -5524
▁변동 -5525
▁하와이 -5526
ff -5527
▁일자 -5528
▁EP -5529
▁수명 -5530
▁돌파 -5531
▁명사 -5532
▁주사 -5533
대문 -5534
▁필름 -5535
up -5536
▁복구 -5537
▁모로 -5538
▁음모 -5539
▁카자 -5540
▁압도 -5541
▁주류 -5542
▁어워드 -5543
프란 -5544
▁기관차 -5545
▁프레임 -5546
▁사당 -5547
▁결심 -5548
▁수상자 -5549
▁파트너 -5550
▁빅토리아 -5551
▁북극 -5552
▁청동 -5553
▁중시 -5554
▁곰 -5555
행성 -5556
▁꼽히 -5557
▁파생 -5558
▁단선 -5559
▁이조 -5560
▁레이블 -5561
▁수장 -5562
▁엽 -5563
▁서인 -5564
▁철저 -5565
▁KT -5566
▁쇠퇴 -5567
▁삼각형 -5568
▁가톨릭교회 -5569
스팅 -5570
▁부수 -5571
▁175 -5572
▁사거리 -5573
▁어항 -5574
▁홀로 -5575
▁부탁 -5576
▁도마뱀 -5577
▁종로 -5578
▁틸 -5579
▁ㅋㅜ -5580
▁칼리 -5581
▁동일본 -5582
▁규슈 -5583
▁트럼 -5584
▁ㅇㅣㄹㅏㄴ -5585
▁바오 -5586
▁이날 -5587
▁표지 -5588
▁둔 -5589
▁피트 -5590
▁건축물 -5591
애나 -5592
▁때로 -5593
▁최상 -5594
▁나폴리 -5595
즈키 -5596
▁북아메리카 -5597
태우 -5598
▁도어 -5599
▁랭킹 -5600
▁평생 -5601
▁파운드 -5602
▁향토 -5603
▁황태 -5604
▁각자 -5605
▁크레 -5606
멘트 -5607
부사 -5608
▁리치 -5609
메니아 -5610
▁유역 -5611
▁자치구 -5612
▁My -5613
▁여인 -5614
▁왕가 -5615
▁전승 -5616
▁노무 -5617
▁지연 -5618
▁엘리자베스 -5619
▁준우 -5620
▁투구 -5621
▁벨라 -5622
▁1922 -5623
▁고안 -5624
▁없애 -5625
▁codice -5626
▁SM -5627
▁유용 -5628
▁화가 -5629
▁버지니아 -5630
ㅈㅓ -5631
▁부유 -5632
▁직선 -5633
▁무인 -5634
▁아기 -5635
타운 -5636
IS -5637
오리 -5638
▁중구 -5639
▁청하 -5640
▁침해 -5641
▁무릎 -5642
▁노비 -5643
▁토벌 -5644
▁문인 -5645
▁1912 -5646
▁아르메니아 -5647
▁"" -5648
▁공격수 -5649
▁국민당 -5650
▁JR -5651
▁연령 -5652
▁단행 -5653
라이터 -5654
▁모니 -5655
▁모래 -5656
▁납치 -5657
▁직위 -5658
눅스 -5659
▁구미 -5660
▁패턴 -5661
▁간섭 -5662
▁무산 -5663
▁인천광역시 -5664
▁봉사 -5665
▁색상 -5666
▁다양체 -5667
▁루트비히 -5668
▁왈 -5669
▁적응 -5670
▁리눅스 -5671
▁지중해 -5672
▁MV -5673
▁인력 -5674
▁포유 -5675
▁모듈 -5676
▁스케이팅 -5677
▁베타 -5678
▁윤치 -5679
▁항목 -5680
▁사토 -5681
▁수지 -5682
▁퍼시 -5683
▁164 -5684
▁탐험 -5685
▁동아시아 -5686
▁06 -5687
▁상처 -5688
▁Go -5689
▁Love -5690
ip -5691
▁출현 -5692
마치 -5693
▁교차로 -5694
▁릭 -5695
▁교역 -5696
▁매각 -5697
▁이종 -5698
▁마카 -5699
▁하사 -5700
ant -5701
ong -5702
▁옵 -5703
양군 -5704
▁배상 -5705
▁삽입 -5706
▁연소 -5707
▁블라디 -5708
▁글씨 -5709
▁영조 -5710
▁토르 -5711
▁베토 -5712
▁상무 -5713
ED -5714
ld -5715
▁실점 -5716
▁전향 -5717
▁시상식 -5718
▁돼지 -5719
▁플레 -5720
▁부동산 -5721
▁헤드 -5722
▁1908 -5723
▁렉 -5724
▁호조 -5725
아리 -5726
▁커피 -5727
▁과도 -5728
▁제주도 -5729
슬로 -5730
▁연금 -5731
▁장사 -5732
▁패러 -5733
멘터리 -5734
▁굿 -5735
▁자책 -5736
▁시아 -5737
▁참조 -5738
▁남동쪽 -5739
▁싫 -5740
▁03 -5741
▁육성 -5742
▁조명 -5743
▁크림 -5744
▁태자 -5745
도니아 -5746
▁히가시 -5747
▁1917 -5748
OM -5749
▁기종 -5750
▁사촌 -5751
▁에스파 -5752
▁1906 -5753
▁외계 -5754
▁SN -5755
▁목조 -5756
▁배급 -5757
▁시집 -5758
▁체인 -5759
▁기하학 -5760
▁인자 -5761
야수 -5762
▁리아 -5763
▁정서 -5764
▁밀라노 -5765
▁관중 -5766
▁명문 -5767
▁비전 -5768
몬드 -5769
▁종족 -5770
▁폐기 -5771
▁입문 -5772
▁호르 -5773
▁시외 -5774
▁안양 -5775
▁전작 -5776
영상 -5777
보살 -5778
▁동사 -5779
▁통로 -5780
▁표본 -5781
▁우익 -5782
▁럭 -5783
▁옹호 -5784
▁적어도 -5785
▁유인 -5786
▁보통학교 -5787
▁무선 -5788
▁이토 -5789
▁정자 -5790
▁몬테 -5791
▁사이클 -5792
▁1927 -5793
▁산타 -5794
▁앨런 -5795
av -5796
▁앱 -5797
다드 -5798
▁과장 -5799
▁의병 -5800
▁창간 -5801
▁송라이터 -5802
▁라우 -5803
▁자전거 -5804
▁대행 -5805
▁북동쪽 -5806
▁노인 -5807
▁보좌 -5808
▁스와 -5809
▁선제 -5810
▁트윈 -5811
▁다큐멘터리 -5812
▁산악 -5813
▁준우승 -5814
이즈 -5815
▁기압 -5816
▁내장 -5817
▁안보 -5818
▁유신 -5819
▁포크 -5820
플레이 -5821
▁1907 -5822
▁1926 -5823
티움 -5824
▁정류장 -5825
▁유닛 -5826
▁커지 -5827
▁험 -5828
▁오리지 -5829
▁별로 -5830
▁디즈니 -5831
▁최우수 -5832
▁유입 -5833
▁ㅁㅏㅈㅓ -5834
▁슐 -5835
▁사신 -5836
▁협의회 -5837
▁흙 -5838
튜브 -5839
▁산지 -5840
▁예외 -5841
▁탑승 -5842
▁스페셜 -5843
AC -5844
▁노조 -5845
▁수감 -5846
▁왕립 -5847
▁우크라이나 -5848
▁168 -5849
▁석조 -5850
페이지 -5851
▁BBC -5852
▁베토벤 -5853
▁묘지 -5854
▁드래곤 -5855
▁PD -5856
▁자문 -5857
▁상영 -5858
▁호남 -5859
▁놀라 -5860
▁꺼 -5861
▁He -5862
▁아가 -5863
▁연고지 -5864
▁유튜브 -5865
스토 -5866
▁급속 -5867
▁하천 -5868
슬라 -5869
▁다가 -5870
▁번식 -5871
▁스틸 -5872
▁기름 -5873
▁시에 -5874
▁주거 -5875
▁상하이 -5876
▁광역 -5877
▁카페 -5878
런트 -5879
▁머물 -5880
다이라 -5881
▁독일어 -5882
ind -5883
▁Sp -5884
▁아무런 -5885
▁데이터베이스 -5886
▁에릭 -5887
▁라이벌 -5888
▁대교 -5889
▁진지 -5890
▁버그 -5891
▁할리 -5892
se -5893
▁대안 -5894
▁사료 -5895
▁색깔 -5896
▁점성 -5897
▁정사 -5898
▁합계 -5899
▁겨우 -5900
▁커뮤니티 -5901
무네 -5902
▁선진 -5903
로프 -5904
▁아울 -5905
▁지바 -5906
▁문하 -5907
▁제후 -5908
▁홈페이지 -5909
▁세조 -5910
▁자바 -5911
브스 -5912
ame -5913
▁꾸미 -5914
▁룩 -5915
텐도 -5916
▁흥미 -5917
▁닌텐도 -5918
생물 -5919
▁좌익 -5920
▁NHK -5921
▁민족주의 -5922
▁지름 -5923
총장 -5924
▁원로 -5925
▁요미 -5926
프란시스코 -5927
세스 -5928
▁특급 -5929
▁대조 -5930
▁방안 -5931
▁분배 -5932
▁수수 -5933
▁콩고 -5934
▁꾸준히 -5935
▁리듬 -5936
▁상세 -5937
▁증기 -5938
▁품질 -5939
▁166 -5940
▁엄마 -5941
▁162 -5942
▁샌프란시스코 -5943
▁레이스 -5944
▁1905 -5945
▁문화유산 -5946
▁레이다 -5947
▁운명 -5948
▁주의자 -5949
ort -5950
▁반환 -5951
▁와카 -5952
▁원산 -5953
▁151 -5954
ry -5955
▁트럭 -5956
▁아크 -5957
▁주한 -5958
▁바이올 -5959
▁모집 -5960
▁스승 -5961
▁비평가 -5962
▁십자군 -5963
▁엉 -5964
▁도리 -5965
▁마일 -5966
지마 -5967
▁가쓰 -5968
스티벌 -5969
▁ㄴㄷㅏㄱㅗ -5970
▁진도 -5971
▁칩 -5972
▁재무 -5973
▁뚫 -5974
나카 -5975
▁라마 -5976
▁역과 -5977
▁출산 -5978
▁현황 -5979
▁물려 -5980
▁페스티벌 -5981
ith -5982
▁02 -5983
▁조선인 -5984
▁모터 -5985
▁신비 -5986
▁협의 -5987
▁셋째 -5988
▁리얼 -5989
스케 -5990
▁비단 -5991
▁우르 -5992
려나 -5993
ES -5994
▁일행 -5995
▁주말 -5996
▁유고슬 -5997
▁유고슬라비아 -5998
▁목격 -5999
▁주파 -6000
▁묻히 -6001
▁날리 -6002
▁이오 -6003
▁곧바로 -6004
▁스피드 -6005
▁158 -6006
▁묘소 -6007
▁바라보 -6008
▁한나라 -6009
엘라 -6010
▁크리스토 -6011
▁렌즈 -6012
▁야생 -6013
▁정계 -6014
▁오리지널 -6015
▁가미 -6016
▁단층 -6017
▁배정 -6018
▁보전 -6019
▁플루 -6020
▁소니 -6021
▁오디션 -6022
▁한나라당 -6023
▁|| -6024
▁조르 -6025
어트 -6026
▁문과 -6027
▁한화 -6028
▁옛날 -6029
▁남서쪽 -6030
▁스테이지 -6031
▁템 -6032
▁상소 -6033
▁입증 -6034
▁수천 -6035
결승 -6036
프스 -6037
▁토니 -6038
▁빨리 -6039
▁직장 -6040
▁이리 -6041
▁구마 -6042
▁동전 -6043
▁무관 -6044
▁미네 -6045
▁문제점 -6046
▁운반 -6047
▁복제 -6048
▁사면 -6049
▁기점 -6050
▁되찾 -6051
▁동영상 -6052
▁급행 -6053
▁도심 -6054
▁출판사 -6055
리케이션 -6056
▁브라이언 -6057
▁적색 -6058
▁디자이너 -6059
▁챌 -6060
▁마스 -6061
▁서북 -6062
▁기용 -6063
▁긴급 -6064
▁인텔 -6065
▁케이블 -6066
ok -6067
▁Un -6068
▁사리 -6069
교육 -6070
▁동치 -6071
▁아서 -6072
▁인치 -6073
▁합작 -6074
▁쿠르 -6075
잡히 -6076
회의 -6077
▁배제 -6078
▁지질 -6079
▁호환 -6080
▁지휘자 -6081
▁베이스볼 -6082
▁예언 -6083
▁알라 -6084
▁폭스 -6085
▁저지르 -6086
▁프랜 -6087
▁연주자 -6088
▁판타지 -6089
▁콜롬비아 -6090
▁마케도니아 -6091
▁번주 -6092
▁기념물 -6093
▁당사자 -6094
▁교전 -6095
▁단종 -6096
해군 -6097
▁신임 -6098
▁향년 -6099
▁비즈니스 -6100
▁부패 -6101
▁사직 -6102
▁ㄱㅗㅅㅓ -6103
▁회원국 -6104
▁초래 -6105
루살 -6106
▁예술가 -6107
▁모순 -6108
▁개수 -6109
▁좌석 -6110
▁미만 -6111
▁부시 -6112
▁오다 -6113
▁정교 -6114
루살렘 -6115
▁하드웨어 -6116
▁용기 -6117
▁기재 -6118
▁도메인 -6119
프라 -6120
▁선사 -6121
qu -6122
▁수면 -6123
▁집계 -6124
▁파나 -6125
▁가게 -6126
▁역명 -6127
▁오타 -6128
▁평소 -6129
▁포맷 -6130
▁165 -6131
▁마쓰다이라 -6132
▁AM -6133
▁관장 -6134
▁트레 -6135
쳐지 -6136
▁센트럴 -6137
▁스펙트 -6138
▁콘스탄티노 -6139
▁서경 -6140
모니 -6141
▁154 -6142
▁내륙 -6143
▁자회사 -6144
▁1904 -6145
▁이지 -6146
▁신용 -6147
경기 -6148
▁의거 -6149
▁입히 -6150
ord -6151
▁석탑 -6152
▁항일 -6153
▁무신 -6154
▁왕족 -6155
▁과제 -6156
▁사로 -6157
▁연애 -6158
▁스펙트럼 -6159
▁Wh -6160
▁Se -6161
PS -6162
▁이력 -6163
문학 -6164
▁임상 -6165
▁파동 -6166
▁신하 -6167
▁압박 -6168
▁자사 -6169
ob -6170
▁권고 -6171
▁여동생 -6172
▁전염 -6173
▁여신 -6174
▁챌린 -6175
▁이명박 -6176
▁DJ -6177
▁용산 -6178
식물 -6179
▁사르 -6180
▁장편 -6181
▁마케팅 -6182
▁예루살렘 -6183
▁겹치 -6184
▁계단 -6185
▁SF -6186
▁아인 -6187
IC -6188
▁163 -6189
▁900 -6190
▁발효 -6191
▁167 -6192
▁혜성 -6193
▁스마트폰 -6194
우옌 -6195
▁차관 -6196
가스 -6197
페이 -6198
ate -6199
▁무슬 -6200
려오 -6201
▁이글 -6202
▁가득 -6203
▁그랑 -6204
▁대단 -6205
▁스쿨 -6206
▁훼손 -6207
▁바이올린 -6208
▁게시 -6209
▁서브 -6210
▁사범 -6211
디스 -6212
▁조류 -6213
▁156 -6214
▁상임 -6215
▁받침 -6216
▁우루 -6217
▁노무현 -6218
▁크리스티 -6219
▁교섭 -6220
▁미얀 -6221
▁끼리 -6222
▁얼음 -6223
▁팅 -6224
▁부흥 -6225
▁차체 -6226
▁분지 -6227
▁식사 -6228
▁리투아 -6229
▁무슬림 -6230
▁리투아니아 -6231
▁저기 -6232
▁행정부 -6233
▁비잔티움 -6234
운서 -6235
▁디비전 -6236
▁쇼군 -6237
▁진상 -6238
▁서울시 -6239
▁아나운서 -6240
▁기아 -6241
▁AS -6242
▁규격 -6243
▁예능 -6244
▁깔 -6245
▁니스 -6246
▁ㄹㅏㄱ -6247
▁조국 -6248
▁타마 -6249
▁밀접 -6250
▁비로 -6251
▁착륙 -6252
▁피스 -6253
▁샹 -6254
껍질 -6255
▁한양 -6256
▁씌 -6257
▁성공회 -6258
▁간접 -6259
▁지주 -6260
랑이 -6261
커스 -6262
▁UN -6263
지르 -6264
▁정벌 -6265
▁고립 -6266
▁친정 -6267
▁끄 -6268
▁애국 -6269
카르 -6270
▁아베 -6271
▁우지 -6272
▁구장 -6273
▁바그 -6274
▁오케스트라 -6275
▁낱 -6276
▁하트 -6277
▁옌 -6278
▁월간 -6279
▁점유 -6280
▁무라 -6281
잡이 -6282
▁피렌 -6283
▁와중 -6284
▁융합 -6285
▁시달리 -6286
ET -6287
로디 -6288
▁출구 -6289
▁충남 -6290
▁브라우 -6291
▁아이디 -6292
▁주립 -6293
▁바티 -6294
▁뱅크 -6295
▁제네 -6296
▁학파 -6297
▁부통령 -6298
ast -6299
▁참판 -6300
▁ㅇㅓㅆㅇㅓㅆ -6301
▁선두 -6302
▁ᆯㅅㅜㄹㅗㄱ -6303
▁용량 -6304
▁잊 -6305
킨스 -6306
▁페어 -6307
▁하노 -6308
▁거인 -6309
▁요크 -6310
▁유하 -6311
▁일요일 -6312
▁스타크래프트 -6313
▁몰락 -6314
럼비아 -6315
▁소나 -6316
▁농도 -6317
▁진나라 -6318
예프 -6319
▁김동 -6320
▁귀환 -6321
▁두산 -6322
▁맥스 -6323
▁굉 -6324
▁이에 -6325
▁최신 -6326
▁뜨겁 -6327
▁지장 -6328
▁비아 -6329
▁시체 -6330
▁쿠스 -6331
▁부자 -6332
▁투명 -6333
▁개발자 -6334
▁샬 -6335
▁공과 -6336
▁MVP -6337
▁야기 -6338
▁흥행 -6339
▁발족 -6340
부인 -6341
▁강연 -6342
▁완화 -6343
▁위주 -6344
데이트 -6345
▁중국어 -6346
길이 -6347
▁스트리트 -6348
▁알바니아 -6349
▁사사 -6350
▁139 -6351
▁성종 -6352
▁마천 -6353
▁업데이트 -6354
▁애플리케이션 -6355
▁DS -6356
▁대령 -6357
▁충성 -6358
▁보드 -6359
▁전지 -6360
▁미나미 -6361
트롤 -6362
▁HIV -6363
▁전이 -6364
▁145 -6365
▁마리오 -6366
if -6367
▁고조 -6368
▁공용 -6369
▁서열 -6370
▁아세 -6371
▁응우옌 -6372
▁이슈 -6373
▁피렌체 -6374
▁디젤 -6375
▁측근 -6376
▁시드니 -6377
▁킬로미터 -6378
▁착수 -6379
AD -6380
▁경선 -6381
▁서일본 -6382
▁부도 -6383
▁기타리스트 -6384
주곡 -6385
레이터 -6386
트랙 -6387
▁검증 -6388
▁해인 -6389
▁게이트 -6390
▁주머니 -6391
▁준결승 -6392
랑크 -6393
ive -6394
▁관찰사 -6395
▁아이디어 -6396
▁수산 -6397
란트 -6398
▁사명 -6399
▁전두 -6400
▁중도 -6401
▁구동 -6402
수아 -6403
▁마산 -6404
▁형법 -6405
IT -6406
▁턴 -6407
▁사바 -6408
▁요미우리 -6409
▁넬 -6410
▁디오 -6411
▁아종 -6412
▁해전 -6413
▁전류 -6414
악기 -6415
▁공전 -6416
▁규명 -6417
▁테오 -6418
▁174 -6419
▁거스르 -6420
▁관광객 -6421
츠키 -6422
카드 -6423
▁전임 -6424
▁석탄 -6425
▁몸길이 -6426
ack -6427
ure -6428
▁지각 -6429
트니 -6430
▁권유 -6431
▁히라 -6432
▁수학자 -6433
▁제의 -6434
▁IP -6435
▁인과 -6436
▁연수 -6437
▁중독 -6438
▁소송법 -6439
리티 -6440
▁관습 -6441
▁플라스 -6442
▁좌표 -6443
▁1896 -6444
토미 -6445
▁천문학 -6446
▁끈 -6447
▁로빈 -6448
▁자율 -6449
▁소재지 -6450
▁실용 -6451
루미 -6452
▁Ar -6453
▁노동조합 -6454
▁젖 -6455
▁청와 -6456
▁판매량 -6457
▁스콧 -6458
▁우즈 -6459
▁피에르 -6460
어내 -6461
▁마운 -6462
▁메디 -6463
▁여덟 -6464
▁정찰 -6465
▁책봉 -6466
▁사인 -6467
▁뷔 -6468
균관 -6469
▁쇼핑 -6470
▁옐 -6471
▁신칸 -6472
▁살아가 -6473
▁세례 -6474
▁호평 -6475
▁존경 -6476
iv -6477
▁백신 -6478
▁오렌 -6479
▁통행 -6480
▁청와대 -6481
ock -6482
▁성벽 -6483
▁수신 -6484
▁전장 -6485
▁친선 -6486
▁다이아 -6487
▁저기압 -6488
▁5000 -6489
▁둘러싸이 -6490
▁피난 -6491
▁ㅈㅏㅁㅕㄴ -6492
▁꼴 -6493
▁152 -6494
▁조용 -6495
▁행진 -6496
▁짙 -6497
▁프로세스 -6498
▁전진 -6499
ck -6500
▁미하 -6501
▁문재인 -6502
▁복소 -6503
▁회수 -6504
▁상상 -6505
▁염색 -6506
▁테일러 -6507
▁악마 -6508
▁신전 -6509
▁157 -6510
▁시외버스 -6511
▁쏟 -6512
▁련 -6513
▁으 -6514
▁구제 -6515
▁취약 -6516
▁곁 -6517
▁폴리스 -6518
▁전문학교 -6519
▁비극 -6520
▁카시 -6521
문관 -6522
▁자손 -6523
▁연구자 -6524
가루 -6525
▁미스터 -6526
▁관념 -6527
▁고사 -6528
혁명 -6529
▁과목 -6530
▁기울이 -6531
▁MP -6532
▁대외 -6533
▁지분 -6534
▁카나 -6535
▁급진 -6536
▁얼마나 -6537
▁뿔 -6538
▁킨 -6539
▁장성 -6540
▁유년 -6541
▁준공 -6542
▁한강 -6543
▁할당 -6544
▁금성 -6545
▁로고 -6546
▁동남아시아 -6547
▁빌헬 -6548
▁유출 -6549
▁루터 -6550
▁무효 -6551
▁밀양 -6552
▁창업 -6553
▁쇄 -6554
창기 -6555
▁관현 -6556
▁마찰 -6557
▁번뇌 -6558
▁식당 -6559
▁퇴각 -6560
▁파스 -6561
▁독립운동가 -6562
▁아울러 -6563
▁믿음 -6564
▁일화 -6565
▁적대 -6566
▁제휴 -6567
▁해임 -6568
외선 -6569
▁고개 -6570
▁루수 -6571
▁메가 -6572
▁힌두 -6573
▁신칸센 -6574
▁여의 -6575
▁히스 -6576
끄럽 -6577
수수 -6578
▁가즈 -6579
▁국어 -6580
▁응답 -6581
▁승차 -6582
▁에티 -6583
12 -6584
전자 -6585
▁장인 -6586
▁하버드 -6587
포스 -6588
▁김용 -6589
▁들리 -6590
▁j -6591
일드 -6592
▁서독 -6593
▁힘쓰 -6594
메르 -6595
▁마오 -6596
▁나미 -6597
▁상류 -6598
▁이순 -6599
니스트 -6600
▁성균관 -6601
▁따위 -6602
▁소금 -6603
▁희극 -6604
▁프로토콜 -6605
▁연루 -6606
▁105 -6607
▁아니하 -6608
▁쥬 -6609
산군 -6610
▁매출 -6611
델피아 -6612
▁필라델피아 -6613
▁쳐 -6614
▁PS -6615
▁동위 -6616
▁중점 -6617
▁소총 -6618
폴리스 -6619
▁외무 -6620
▁휩 -6621
▁소닉 -6622
▁충족 -6623
▁패전 -6624
하르트 -6625
▁1500 -6626
▁3000 -6627
▁노드 -6628
▁성전 -6629
▁소지 -6630
악단 -6631
▁저택 -6632
▁항공모 -6633
자와 -6634
▁박영 -6635
▁이노 -6636
▁125 -6637
▁MC -6638
▁두드 -6639
▁와인 -6640
▁청사 -6641
▁우정 -6642
▁달아나 -6643
▁1911 -6644
▁매개 -6645
▁146 -6646
▁오클 -6647
▁아즈 -6648
원숭이 -6649
▁남인 -6650
▁예배 -6651
▁Le -6652
▁추모 -6653
▁흩 -6654
▁단점 -6655
▁성모 -6656
▁제트 -6657
▁조언 -6658
▁편곡 -6659
▁참가자 -6660
팩트 -6661
▁적히 -6662
▁얇 -6663
▁서서 -6664
▁하마 -6665
▁술탄 -6666
▁여수 -6667
▁주권 -6668
▁원나라 -6669
▁보잉 -6670
▁천사 -6671
one -6672
▁남양 -6673
▁민국 -6674
▁환원 -6675
ML -6676
▁강사 -6677
▁개원 -6678
▁증후 -6679
▁우주선 -6680
라트 -6681
▁법령 -6682
▁Pro -6683
▁포장 -6684
▁153 -6685
▁단원 -6686
네이 -6687
▁반격 -6688
▁착공 -6689
▁패스 -6690
▁초창기 -6691
▁회계 -6692
▁고무 -6693
▁회화 -6694
▁곳곳 -6695
▁환상 -6696
▁떠오르 -6697
▁자책점 -6698
▁고원 -6699
▁윌슨 -6700
▁회견 -6701
▁지지자 -6702
ime -6703
▁내내 -6704
▁나열 -6705
▁카자흐 -6706
AP -6707
▁유언 -6708
서양 -6709
▁두르 -6710
▁배구 -6711
▁일렉 -6712
상스 -6713
▁연인 -6714
▁찾아보 -6715
▁눈물 -6716
▁셈 -6717
▁리메 -6718
▁별자리 -6719
고속도로 -6720
▁점프 -6721
▁카트 -6722
▁미얀마 -6723
▁친척 -6724
펴보 -6725
▁이복 -6726
▁특유 -6727
▁빌헬름 -6728
▁살펴보 -6729
▁여래 -6730
▁지목 -6731
▁103 -6732
▁닭 -6733
▁고베 -6734
▁근접 -6735
▁후자 -6736
OC -6737
▁개업 -6738
▁소관 -6739
▁출입구 -6740
▁오키나 -6741
▁디비 -6742
▁매기 -6743
▁인격 -6744
제프 -6745
토시 -6746
▁석가 -6747
▁순천 -6748
▁기장 -6749
▁이어서 -6750
▁양상 -6751
▁일관 -6752
▁민사 -6753
▁터지 -6754
▁대답 -6755
▁클린 -6756
▁사지 -6757
▁갈라지 -6758
▁공략 -6759
▁채무 -6760
▁나리 -6761
▁유해 -6762
▁최적 -6763
▁오디오 -6764
▁북동부 -6765
▁비틀즈 -6766
▁정치가 -6767
▁룰 -6768
▁삿 -6769
▁공인 -6770
▁진리 -6771
▁강수량 -6772
노리 -6773
▁우편 -6774
▁인형 -6775
어리 -6776
▁위장 -6777
▁컨트롤 -6778
te -6779
즈카 -6780
▁이원 -6781
▁보충 -6782
▁실종 -6783
▁이이 -6784
▁이글스 -6785
▁토크 -6786
▁협동 -6787
▁매력 -6788
▁중장 -6789
▁해역 -6790
동물 -6791
소스 -6792
▁허브 -6793
대군 -6794
▁공자 -6795
▁항공모함 -6796
▁취재 -6797
▁베르크 -6798
기니 -6799
▁매사 -6800
▁선원 -6801
▁주파수 -6802
Pa -6803
노프 -6804
▁레전 -6805
▁증후군 -6806
▁사우디아 -6807
▁ISO -6808
▁게재 -6809
▁카타 -6810
▁155 -6811
▁상자 -6812
▁토리 -6813
▁오렌지 -6814
▁별개 -6815
▁사가 -6816
▁굵 -6817
▁전례 -6818
받침 -6819
▁미소 -6820
▁버튼 -6821
▁민영 -6822
▁유격 -6823
▁이영 -6824
▁빼앗기 -6825
▁내지 -6826
▁아군 -6827
▁테스 -6828
▁시립 -6829
항공 -6830
▁각기 -6831
▁합법 -6832
▁트라이 -6833
▁겸임 -6834
▁호칭 -6835
▁르네상스 -6836
▁사물 -6837
▁승무원 -6838
▁각본가 -6839
마사 -6840
▁금액 -6841
▁두드러지 -6842
▁법무 -6843
▁중종 -6844
io -6845
▁가라 -6846
▁Con -6847
▁배틀 -6848
▁# -6849
▁얘 -6850
리크 -6851
▁스터 -6852
▁담배 -6853
▁유교 -6854
▁스파이 -6855
▁맵 -6856
플러 -6857
▁Bo -6858
▁연도 -6859
▁격렬 -6860
▁이인 -6861
▁평행 -6862
▁아리스 -6863
▁동등 -6864
▁성주 -6865
▁지우 -6866
▁캐스팅 -6867
▁108 -6868
▁히데요시 -6869
▁아바 -6870
▁태우 -6871
▁나고 -6872
▁아케 -6873
▁밭 -6874
▁자발 -6875
▁사다 -6876
▁일족 -6877
▁캠페인 -6878
때로 -6879
시온 -6880
ber -6881
▁상장 -6882
▁생일 -6883
▁이바 -6884
▁포수 -6885
▁고체 -6886
▁세균 -6887
▁레이저 -6888
▁서해 -6889
▁에이스 -6890
▁이슬람교 -6891
▁치세 -6892
▁전두환 -6893
▁조리 -6894
▁갓 -6895
▁영동 -6896
▁나고야 -6897
▁일찍이 -6898
▁드라이브 -6899
pe -6900
▁IT -6901
▁싸이 -6902
▁앞면 -6903
▁콜라 -6904
▁해운 -6905
▁생명체 -6906
▁복장 -6907
▁에디 -6908
▁퍼시픽 -6909
▁감지 -6910
▁서서히 -6911
▁고발 -6912
▁미루 -6913
▁화살 -6914
▁토요일 -6915
▁브래 -6916
시티 -6917
퍼니 -6918
▁만세 -6919
▁때때로 -6920
▁상대방 -6921
▁시청자 -6922
모어 -6923
▁궁정 -6924
▁외곽 -6925
▁하우 -6926
라이트 -6927
▁사우디아라비아 -6928
▁메타 -6929
▁야간 -6930
▁골프 -6931
▁연혁 -6932
▁호세 -6933
▁교단 -6934
▁추격 -6935
▁가계 -6936
▁교장 -6937
▁1909 -6938
▁향후 -6939
▁이사장 -6940
▁트럼프 -6941
▁최저 -6942
▁박탈 -6943
▁꾀 -6944
▁어드 -6945
▁홍수 -6946
▁ㅈㅏㄱㅗ -6947
▁크리스마스 -6948
ge -6949
▁건의 -6950
▁상부 -6951
▁입상 -6952
▁트위 -6953
▁아우구 -6954
베이터 -6955
▁하인리히 -6956
▁쉐 -6957
▁무려 -6958
러미 -6959
화점 -6960
▁기금 -6961
▁에우 -6962
▁김영삼 -6963
행위 -6964
▁댐 -6965
▁방침 -6966
▁속성 -6967
▁가르침 -6968
▁ㅈㅏㅁㅏ -6969
구장 -6970
▁섞이 -6971
▁개찰구 -6972
▁일생 -6973
▁외국어 -6974
▁유니폼 -6975
산리 -6976
▁긴장 -6977
▁초연 -6978
칠리아 -6979
산면 -6980
▁발현 -6981
▁앙리 -6982
▁중재 -6983
가타 -6984
▁전도 -6985
▁시라 -6986
▁단기 -6987
집합 -6988
▁명의 -6989
▁수성 -6990
▁128 -6991
▁레전드 -6992
▁다중 -6993
▁톈 -6994
▁건축가 -6995
▁개관 -6996
▁물자 -6997
▁네이버 -6998
람회 -6999
▁리오 -7000
▁슬라 -7001
▁피고 -7002
▁ᆯㄲㅏ -7003
▁사이버 -7004
▁하이드 -7005
라미 -7006
▁부착 -7007
▁트루 -7008
▁102 -7009
▁149 -7010
▁ㅈㅏㅁㅏㅈㅏ -7011
▁대주교 -7012
▁송나라 -7013
▁포도주 -7014
▁보스니아 -7015
▁남한 -7016
▁세미 -7017
▁전대 -7018
▁제작자 -7019
▁Bl -7020
▁텍스트 -7021
▁GT -7022
▁정밀 -7023
▁캄보 -7024
▁아미노 -7025
▁운동장 -7026
▁ㅇㅏㄹㅏ -7027
▁섭취 -7028
▁안장 -7029
▁팽창 -7030
▁유소년 -7031
▁주지사 -7032
▁짜리 -7033
▁여진 -7034
▁취지 -7035
▁그만두 -7036
▁고가 -7037
▁존중 -7038
▁셸 -7039
▁직책 -7040
▁굉장 -7041
언스 -7042
▁에스파냐 -7043
▁기수 -7044
▁예시 -7045
▁대군 -7046
나리 -7047
▁발원 -7048
▁자유당 -7049
▁컬러 -7050
트릭 -7051
▁숭배 -7052
▁포괄 -7053
▁계절 -7054
▁여주 -7055
▁토스 -7056
▁중국인 -7057
▁펼쳐지 -7058
iz -7059
▁강경 -7060
▁객관 -7061
▁향교 -7062
▁원자로 -7063
▁키프 -7064
▁입체 -7065
▁후안 -7066
DP -7067
▁딩 -7068
▁시오 -7069
먼드 -7070
▁ㅇㅓㄷㅏ -7071
▁오키나와 -7072
▁고래 -7073
▁문양 -7074
▁팔레스 -7075
울리 -7076
▁계몽 -7077
▁촉구 -7078
▁차남 -7079
서리 -7080
▁낙선 -7081
orld -7082
백과 -7083
▁병역 -7084
▁사절 -7085
▁탐지 -7086
▁블루스 -7087
age -7088
▁서사 -7089
▁넓히 -7090
▁동독 -7091
▁수평 -7092
▁통칭 -7093
▁최소한 -7094
▁태생 -7095
▁룽 -7096
▁턱 -7097
▁며칠 -7098
▁토마 -7099
▁음원 -7100
▁청장 -7101
▁보리 -7102
▁스릴 -7103
▁내주 -7104
▁수군 -7105
▁추상 -7106
▁CPU -7107
▁손가락 -7108
▁로프 -7109
▁메인 -7110
▁경과 -7111
▁센서 -7112
▁디스플레이 -7113
▁$ -7114
사기 -7115
▁대니 -7116
▁볼리 -7117
▁갑작 -7118
▁북방 -7119
▁뽑히 -7120
수엘라 -7121
▁머신 -7122
▁정말 -7123
▁그랑프리 -7124
▁리메이크 -7125
▁겔 -7126
▁프랭크 -7127
▁조반 -7128
▁아미타 -7129
▁진군 -7130
차례 -7131
▁무죄 -7132
▁시그 -7133
▁심의 -7134
▁침몰 -7135
▁147 -7136
라리 -7137
▁충주 -7138
▁효력 -7139
노부 -7140
▁마하 -7141
▁명목 -7142
▁어업 -7143
▁팜 -7144
석기 -7145
▁엘리베이터 -7146
▁난민 -7147
▁전함 -7148
▁마비 -7149
▁왜성 -7150
우라 -7151
▁김진 -7152
▁저명 -7153
▁협조 -7154
▁127 -7155
▁171 -7156
▁제곱 -7157
▁알코 -7158
▁hPa -7159
▁ㄲㅔㅅㅓ -7160
▁김재 -7161
ik -7162
▁경부 -7163
▁김태 -7164
▁원고 -7165
▁후일 -7166
▁타이거즈 -7167
▁대처 -7168
▁수렴 -7169
▁스핀 -7170
▁노란색 -7171
▁로맨스 -7172
▁1915 -7173
▁모스 -7174
▁수동 -7175
포트 -7176
▁베네수엘라 -7177
▁라파 -7178
▁트윈스 -7179
▁신흥 -7180
▁윌리엄스 -7181
두르 -7182
▁반박 -7183
▁부천 -7184
▁케네 -7185
▁세계관 -7186
▁투르크 -7187
▁추증 -7188
▁언론인 -7189
자스 -7190
EN -7191
▁분광 -7192
▁재미 -7193
▁주축 -7194
▁김수 -7195
▁전성기 -7196
▁1913 -7197
▁코프 -7198
▁동년 -7199
▁북구 -7200
▁옥스 -7201
▁그동안 -7202
▁울리 -7203
▁타르 -7204
▁이어받 -7205
▁부과 -7206
▁창시 -7207
▁ㄹㅐ -7208
▁풍경 -7209
▁시공 -7210
▁문학상 -7211
▁테니스 -7212
▁낮추 -7213
▁언제나 -7214
▁프레스 -7215
▁인재 -7216
▁황해 -7217
▁이민자 -7218
▁나가사키 -7219
▁al -7220
▁개미 -7221
▁기습 -7222
▁탈환 -7223
▁닿 -7224
기지 -7225
▁공직 -7226
▁출토 -7227
▁상당수 -7228
▁원반 -7229
▁위키백과 -7230
▁천문학자 -7231
▁동력 -7232
▁따뜻 -7233
크리트 -7234
와라 -7235
▁창건 -7236
트리올 -7237
▁몬트리올 -7238
▁SP -7239
▁동당 -7240
▁차종 -7241
▁청원 -7242
▁강과 -7243
▁광년 -7244
▁아폴 -7245
▁쓰러지 -7246
▁ㅇㅔㄷㅏ -7247
▁Tr -7248
▁아사히 -7249
▁네이션스 -7250
▁결선 -7251
무기 -7252
▁섭정 -7253
▁종결 -7254
▁북서부 -7255
창군 -7256
▁대역 -7257
▁링컨 -7258
▁별칭 -7259
▁169 -7260
▁캄보디아 -7261
▁이틀 -7262
▁스파르타 -7263
▁팔레스타인 -7264
sp -7265
▁둘레 -7266
▁바흐 -7267
▁주차 -7268
▁정무 -7269
▁걱 -7270
▁큰 -7271
▁동래 -7272
▁유수 -7273
▁아이템 -7274
▁대포 -7275
▁태수 -7276
▁식별 -7277
▁적자 -7278
▁나주 -7279
▁유연 -7280
▁고백 -7281
▁수령 -7282
▁엔지 -7283
▁대제 -7284
▁카탈 -7285
▁찾아내 -7286
▁이진 -7287
▁도호쿠 -7288
▁끊임 -7289
자치도 -7290
▁제주특별 -7291
▁제주특별자치도 -7292
▁온천 -7293
▁차기 -7294
포구 -7295
▁풋볼 -7296
MS -7297
▁딴 -7298
▁광부 -7299
▁신세 -7300
▁사회학 -7301
▁자기장 -7302
▁1895 -7303
선거 -7304
▁때리 -7305
▁언더 -7306
▁나르 -7307
▁후대 -7308
▁비문 -7309
▁총괄 -7310
▁ㄷㅡㄴㅈㅣ -7311
▁북위 -7312
▁지폐 -7313
네스코 -7314
▁영리 -7315
▁무제 -7316
여지 -7317
▁남원 -7318
▁번영 -7319
▁리버풀 -7320
▁NC -7321
▁135 -7322
▁베어스 -7323
▁141 -7324
▁초상화 -7325
▁장학 -7326
▁폐위 -7327
▁후세 -7328
▁흩어지 -7329
▁다운로드 -7330
공신 -7331
▁날짜 -7332
▁대위 -7333
▁어스 -7334
명사전 -7335
▁무상 -7336
▁양주 -7337
▁총선거 -7338
▁한동안 -7339
▁교원 -7340
▁십자가 -7341
▁하부 -7342
▁법제 -7343
▁삼진 -7344
▁오빠 -7345
▁조달 -7346
▁아틀레 -7347
▁해병대 -7348
▁탤 -7349
평군 -7350
ust -7351
▁면하 -7352
▁바실 -7353
▁여파 -7354
▁서울대 -7355
▁수용소 -7356
벌레 -7357
보기 -7358
키지 -7359
▁소환 -7360
▁휴전 -7361
▁111 -7362
▁관람 -7363
▁국사 -7364
▁소실 -7365
▁첨가 -7366
▁중소 -7367
▁컴퍼니 -7368
▁기요 -7369
▁원내 -7370
▁장미 -7371
▁제수 -7372
선스 -7373
▁위임 -7374
그라드 -7375
▁144 -7376
▁CE -7377
▁명백 -7378
▁미즈 -7379
▁서머 -7380
▁중순 -7381
▁신중 -7382
▁카리브 -7383
▁CO -7384
▁인산 -7385
▁파업 -7386
박쥐 -7387
▁걱정 -7388
▁정전 -7389
▁천도 -7390
▁119 -7391
니치 -7392
GC -7393
ep -7394
▁덤 -7395
▁불편 -7396
▁의상 -7397
▁휴식 -7398
▁이광 -7399
▁신학자 -7400
▁충실 -7401
▁리어 -7402
▁민회 -7403
▁평하 -7404
ib -7405
▁더글 -7406
▁스릴러 -7407
▁모방 -7408
따르 -7409
▁고민 -7410
▁김포 -7411
▁당일 -7412
▁함유 -7413
▁내외 -7414
▁다니엘 -7415
▁스티브 -7416
▁문화방송 -7417
ian -7418
▁선구 -7419
▁쇼트 -7420
▁두루 -7421
루션 -7422
int -7423
▁루시 -7424
▁TO -7425
▁도스 -7426
▁신기 -7427
▁실전 -7428
▁요르 -7429
▁몰아내 -7430
▁TH -7431
▁귀중 -7432
▁지능 -7433
▁172 -7434
라이더 -7435
▁아레나 -7436
▁컬럼비아 -7437
▁드럼 -7438
▁소통 -7439
▁장난 -7440
▁해수 -7441
리케인 -7442
케이션 -7443
▁시나리오 -7444
▁교양 -7445
▁연세대 -7446
푸스 -7447
▁케이스 -7448
▁신학교 -7449
그로 -7450
▁관통 -7451
▁총사 -7452
▁라이선스 -7453
▁간호 -7454
▁평야 -7455
▁엔지니어 -7456
▁허리케인 -7457
릴라 -7458
▁It -7459
▁슈트 -7460
▁외교관 -7461
▁공모 -7462
▁바퀴 -7463
▁병조 -7464
▁오세 -7465
▁정렬 -7466
누엘 -7467
ome -7468
▁김상 -7469
▁증진 -7470
▁할리우드 -7471
▁꽤 -7472
▁선종 -7473
ire -7474
▁신탁 -7475
▁좌절 -7476
▁배신 -7477
▁초과 -7478
▁항소 -7479
▁아이슬 -7480
▁유니버 -7481
▁카이사르 -7482
▁격투 -7483
▁미토 -7484
▁약칭 -7485
▁진짜 -7486
▁총대 -7487
▁테레 -7488
▁106 -7489
▁유네스코 -7490
페르 -7491
▁We -7492
▁마인 -7493
▁베드 -7494
▁연패 -7495
▁편리 -7496
▁스페이스 -7497
▁껍질 -7498
▁아벨 -7499
▁NBA -7500
▁마이너 -7501
▁매카 -7502
▁미주 -7503
▁우연히 -7504
스럽 -7505
▁영남 -7506
▁평범 -7507
▁케네디 -7508
▁룡 -7509
▁쿤 -7510
▁공채 -7511
▁영장 -7512
▁낱말 -7513
▁콘크리트 -7514
▁그루 -7515
▁서남 -7516
▁역설 -7517
▁표명 -7518
▁구조물 -7519
시로 -7520
▁바리 -7521
▁장려 -7522
▁인연 -7523
▁바이오 -7524
▁보완 -7525
▁승점 -7526
▁의의 -7527
▁에스토 -7528
▁마츠 -7529
▁지혜 -7530
▁평일 -7531
▁에버 -7532
▁아이슬란드 -7533
▁공의회 -7534
▁멋 -7535
▁구이 -7536
▁부재 -7537
▁중량 -7538
▁니콜라 -7539
▁돌연 -7540
▁등재 -7541
▁애덤 -7542
▁콰 -7543
▁열대 -7544
▁차이점 -7545
치오 -7546
▁고수 -7547
▁오비 -7548
▁제갈 -7549
▁도라 -7550
▁묘역 -7551
▁합창 -7552
▁해변 -7553
▁애틀 -7554
▁업계 -7555
▁전압 -7556
▁탱크 -7557
블로 -7558
▁공단 -7559
▁포격 -7560
내셔널 -7561
▁인터내셔널 -7562
▁훔 -7563
▁부채 -7564
▁우울 -7565
▁입지 -7566
▁치열 -7567
▁페르난 -7568
▁책임자 -7569
▁양도 -7570
▁요하 -7571
▁장안 -7572
▁한성부 -7573
▁도르 -7574
▁잦 -7575
▁발트 -7576
▁우라늄 -7577
▁단식 -7578
▁배터리 -7579
▁나스 -7580
▁레바 -7581
▁친일인 -7582
▁파이어 -7583
▁황태자 -7584
▁친일인명사전 -7585
▁오사 -7586
▁방패 -7587
▁생전 -7588
▁첼시 -7589
▁프랑수아 -7590
ere -7591
ude -7592
▁로열 -7593
▁괴롭 -7594
▁마약 -7595
▁얘기 -7596
주의자 -7597
▁스페인어 -7598
세츠 -7599
실록 -7600
말라 -7601
▁봉쇄 -7602
▁라이온즈 -7603
▁교외 -7604
▁파장 -7605
▁횟 -7606
▁투르 -7607
▁에스토니아 -7608
▁불명 -7609
▁통근 -7610
▁매사추 -7611
▁동문 -7612
▁호위 -7613
▁매사추세츠 -7614
▁신속 -7615
▁호프 -7616
의자 -7617
▁암석 -7618
▁주행 -7619
▁협주곡 -7620
▁대전광역시 -7621
유행 -7622
▁HT -7623
▁상담 -7624
▁오피스 -7625
야시 -7626
▁다항 -7627
▁사슬 -7628
▁재위 -7629
▁충북 -7630
▁상서 -7631
▁일조 -7632
오피아 -7633
▁리비아 -7634
▁에티오피아 -7635
ide -7636
▁치즈 -7637
▁하락 -7638
▁DC -7639
▁개그 -7640
▁섬기 -7641
▁슬로바키아 -7642
▁낭만 -7643
▁유동 -7644
ment -7645
▁닝 -7646
▁생식 -7647
▁신생 -7648
▁여지 -7649
▁탈당 -7650
▁밟 -7651
제리 -7652
▁고령 -7653
▁김기 -7654
▁도주 -7655
▁시흥 -7656
▁어휘 -7657
ace -7658
▁오노 -7659
▁지선 -7660
바이잔 -7661
▁CON -7662
▁그로 -7663
▁조이 -7664
▁특집 -7665
중국 -7666
▁다치 -7667
▁해소 -7668
▁대웅 -7669
▁서정 -7670
▁아드 -7671
▁위탁 -7672
▁추세 -7673
▁중심부 -7674
▁". -7675
▁견디 -7676
▁물리학자 -7677
▁명제 -7678
▁응원 -7679
▁소유자 -7680
▁우루과이 -7681
▁끓 -7682
번스 -7683
▁시선 -7684
▁친하 -7685
IM -7686
리에 -7687
▁가면 -7688
▁기인 -7689
▁현금 -7690
▁육지 -7691
▁추출 -7692
아이 -7693
▁기어 -7694
▁조연 -7695
▁아제르 -7696
▁중추원 -7697
▁친왕 -7698
▁평택 -7699
▁실시간 -7700
▁퍼센트 -7701
▁닛폰 -7702
▁도루 -7703
▁의뢰 -7704
▁출처 -7705
▁병행 -7706
▁호기 -7707
▁흘리 -7708
▁내려지 -7709
▁아제르바이잔 -7710
▁패키지 -7711
▁국무총리 -7712
▁객체 -7713
마드 -7714
▁성운 -7715
▁시초 -7716
▁즈음 -7717
▁바닷 -7718
▁바스 -7719
▁푼 -7720
▁극동 -7721
▁부적 -7722
▁알아 -7723
하면 -7724
▁창고 -7725
지리아 -7726
▁노부나가 -7727
▁나이지리아 -7728
위원 -7729
▁브라우저 -7730
▁순회 -7731
▁지류 -7732
▁136 -7733
▁박해 -7734
▁전라도 -7735
▁구도 -7736
▁비리 -7737
▁신념 -7738
▁휴스턴 -7739
▁1916 -7740
▁포터 -7741
▁허리 -7742
▁쌍둥이 -7743
▁가로지르 -7744
▁구호 -7745
▁세션 -7746
▁입당 -7747
▁작센 -7748
▁결혼식 -7749
▁이사회 -7750
▁고소 -7751
▁동상 -7752
▁148 -7753
▁우세 -7754
바다 -7755
석탑 -7756
▁의약 -7757
▁중위 -7758
▁딕 -7759
▁막내 -7760
층석탑 -7761
▁IBM -7762
▁리틀 -7763
▁워드 -7764
▁스튜어트 -7765
▁솜 -7766
▁수습 -7767
▁덮이 -7768
면체 -7769
▁신규 -7770
▁실장 -7771
▁펌 -7772
승지 -7773
▁격퇴 -7774
▁알아내 -7775
▁애틀랜 -7776
▁닷 -7777
▁되게 -7778
▁해적 -7779
▁라이언 -7780
▁서재 -7781
▁어쩌 -7782
▁저하 -7783
▁급격히 -7784
▁산림 -7785
▁냉각 -7786
▁분당 -7787
▁안성 -7788
▁138 -7789
시피 -7790
▁거론 -7791
▁경연 -7792
▁극히 -7793
▁백색 -7794
▁아마도 -7795
▁면허 -7796
▁ㄷㅚ -7797
▁도장 -7798
▁원숭이 -7799
▁LP -7800
▁성숙 -7801
▁해밀 -7802
▁라이브러리 -7803
▁la -7804
▁시즈 -7805
▁시칠리아 -7806
▁대의원 -7807
▁앓 -7808
▁가동 -7809
▁이세 -7810
▁인플 -7811
▁택시 -7812
▁어울리 -7813
▁옴 -7814
▁신한 -7815
▁데이비스 -7816
▁전념 -7817
▁삼국지 -7818
타로 -7819
▁돌려 -7820
▁만남 -7821
▁탐구 -7822
▁백화점 -7823
▁후쿠시마 -7824
▁니아 -7825
▁반감 -7826
▁안기 -7827
▁회고 -7828
▁갈리 -7829
▁감리 -7830
▁동점 -7831
▁평원 -7832
거지 -7833
▁대표작 -7834
▁테이블 -7835
▁외치 -7836
▁최상위 -7837
▁반경 -7838
▁사헌 -7839
▁줄리 -7840
▁현종 -7841
▁360 -7842
▁ㅇㅓㄹㅏ -7843
고쿠 -7844
▁기단 -7845
▁이식 -7846
▁솟 -7847
▁코무네 -7848
▁게르만 -7849
▁도미 -7850
▁리우스 -7851
▁스톡 -7852
▁오해 -7853
▁환영 -7854
나오 -7855
▁돌보 -7856
▁주이 -7857
▁라트비아 -7858
람쥐 -7859
파르 -7860
▁최악 -7861
▁토성 -7862
▁한스 -7863
▁한쪽 -7864
▁횟수 -7865
푸르트 -7866
▁고성 -7867
▁익히 -7868
▁치명 -7869
▁혈통 -7870
▁모니터 -7871
양함 -7872
▁반도체 -7873
▁중성자 -7874
대신 -7875
▁구릉 -7876
토모 -7877
▁En -7878
▁사우루스 -7879
▁뭉 -7880
데시 -7881
▁ㅅㅗ -7882
▁트래 -7883
▁104 -7884
▁그램 -7885
▁야구장 -7886
▁영의정 -7887
▁페르디 -7888
▁부당 -7889
▁피에 -7890
▁후방 -7891
▁가짜 -7892
▁성체 -7893
▁오바 -7894
▁칼라 -7895
cl -7896
▁그날 -7897
▁산란 -7898
타나 -7899
▁공천 -7900
▁상공 -7901
▁임용 -7902
▁주가 -7903
▁아부 -7904
▁재현 -7905
▁춘추 -7906
▁플랜 -7907
▁거행 -7908
▁발해 -7909
▁복선 -7910
▁뢰 -7911
▁레논 -7912
▁음료 -7913
▁잔류 -7914
▁동이 -7915
▁순교 -7916
▁사헌부 -7917
▁거제 -7918
▁여당 -7919
▁팔라 -7920
하시 -7921
▁성취 -7922
베르토 -7923
어버리 -7924
▁대학생 -7925
타고 -7926
▁춘천 -7927
래스카 -7928
▁혀 -7929
▁AK -7930
▁시바 -7931
▁109 -7932
▁방송사 -7933
마쓰 -7934
▁나비 -7935
▁비시 -7936
▁주주 -7937
▁증대 -7938
▁힘입 -7939
▁Mar -7940
▁명령어 -7941
▁스트레스 -7942
▁랄 -7943
▁릉 -7944
▁견제 -7945
▁피츠 -7946
▁별다르 -7947
회장 -7948
▁루프 -7949
▁휠 -7950
▁데모 -7951
▁우위 -7952
▁적분 -7953
▁품종 -7954
▁현저 -7955
▁올바르 -7956
은색 -7957
▁왜냐 -7958
▁폭동 -7959
▁폭행 -7960
▁교황청 -7961
▁차장 -7962
▁이에야스 -7963
여래 -7964
▁고인 -7965
▁목판 -7966
▁한인 -7967
▁제독 -7968
▁축적 -7969
▁열정 -7970
▁공수 -7971
▁플라이 -7972
글리 -7973
브레 -7974
▁매입 -7975
▁아홉 -7976
살이 -7977
▁AR -7978
▁CS -7979
▁송시 -7980
▁육체 -7981
▁123 -7982
▁주역 -7983
▁축하 -7984
곡리 -7985
▁이윤 -7986
▁정점 -7987
▁분비 -7988
▁수련 -7989
▁하워드 -7990
▁호랑이 -7991
▁킥 -7992
▁카자흐스탄 -7993
▁다발 -7994
▁사모 -7995
▁유한 -7996
▁이케 -7997
▁터치 -7998
▁충전 -7999
▁헐 -8000
▁광학 -8001
▁아담 -8002
▁억압 -8003
▁통증 -8004
▁히어로즈 -8005
▁주름 -8006
▁해명 -8007
▁ㄹㅏㄹ -8008
권자 -8009
헤이 -8010
▁기적 -8011
▁바나 -8012
란히 -8013
▁소매 -8014
▁연합회 -8015
차기 -8016
▁관구 -8017
▁제하 -8018
▁공산주의자 -8019
▁다이아몬드 -8020
AL -8021
은이 -8022
▁경관 -8023
▁래퍼 -8024
▁법조 -8025
ㄷㅓㄴ -8026
▁팡 -8027
▁햇 -8028
라클 -8029
리니 -8030
실베이 -8031
실베이니아 -8032
▁신조 -8033
▁펜실베이니아 -8034
▁광물 -8035
러스트 -8036
ies -8037
▁고장 -8038
▁왓 -8039
▁Op -8040
▁드로 -8041
▁암시 -8042
▁규범 -8043
▁처녀 -8044
더슨 -8045
▁계시 -8046
▁벌금 -8047
▁청춘 -8048
▁사업자 -8049
포드 -8050
▁히메 -8051
▁부르크 -8052
▁생산량 -8053
법인 -8054
▁리우 -8055
▁상용 -8056
▁마야 -8057
▁남동부 -8058
바시 -8059
▁갈라 -8060
▁목재 -8061
▁베스 -8062
▁존속 -8063
▁상점 -8064
▁아예 -8065
▁컴파 -8066
▁CC -8067
▁염기 -8068
▁143 -8069
▁태양계 -8070
▁펑크 -8071
▁룬 -8072
스틴 -8073
▁상반 -8074
▁박람회 -8075
▁놀랍 -8076
▁자민 -8077
▁소나타 -8078
▁돋 -8079
▁너비 -8080
▁블로그 -8081
▁가죽 -8082
▁다투 -8083
▁제프 -8084
▁티스 -8085
▁경상도 -8086
▁동아일보 -8087
나스 -8088
▁성사 -8089
▁신주 -8090
브리지 -8091
▁공습 -8092
▁무지 -8093
▁누이 -8094
▁보석 -8095
▁사육 -8096
▁신약 -8097
▁이화 -8098
▁공관 -8099
▁노바 -8100
▁연하 -8101
▁적당 -8102
▁분기점 -8103
▁종로구 -8104
▁롤링 -8105
▁평의회 -8106
ile -8107
▁국소 -8108
▁부설 -8109
▁조세 -8110
▁토모 -8111
▁라오스 -8112
▁가군 -8113
▁김경 -8114
▁부제 -8115
▁조선일보 -8116
▁우유 -8117
▁운하 -8118
▁태권 -8119
▁비자 -8120
▁지르 -8121
▁유로파 -8122
▁친일파 -8123
▁근교 -8124
▁레일 -8125
▁왜곡 -8126
▁블라디미르 -8127
▁헤비 -8128
▁알코올 -8129
▁비싸 -8130
▁상단 -8131
▁서진 -8132
연합 -8133
▁이타 -8134
▁말라 -8135
▁허위 -8136
▁황실 -8137
▁동국 -8138
▁나트 -8139
▁날씨 -8140
▁공익 -8141
▁누나 -8142
▁맥락 -8143
▁비유 -8144
▁RNA -8145
▁범인 -8146
▁설탕 -8147
▁통영 -8148
▁경보 -8149
산동 -8150
▁마디 -8151
▁소셜 -8152
▁협박 -8153
레기 -8154
▁Pr -8155
▁유죄 -8156
▁굉장히 -8157
▁트위터 -8158
▁상사 -8159
▁확신 -8160
▁col -8161
▁깨닫 -8162
▁시골 -8163
수리 -8164
ite -8165
▁에미 -8166
▁인체 -8167
▁제재 -8168
▁112 -8169
▁인문 -8170
▁내보내 -8171
▁대폭 -8172
▁성단 -8173
▁신민 -8174
▁플러스 -8175
▁전자기 -8176
▁Te -8177
▁맥주 -8178
▁카롤 -8179
ㄷㅡㄴ -8180
▁브라더스 -8181
▁미르 -8182
▁미션 -8183
▁시어 -8184
▁루이지 -8185
▁장거리 -8186
비나 -8187
▁거칠 -8188
xt -8189
▁흠 -8190
▁구출 -8191
▁우승자 -8192
▁왜냐하면 -8193
▁아랍어 -8194
▁중의원 -8195
▁카를로스 -8196
▁갇 -8197
기업 -8198
▁성별 -8199
▁포럼 -8200
▁양키스 -8201
▁시베리아 -8202
▁뉘 -8203
▁CF -8204
▁근원 -8205
▁경찰청 -8206
▁키프로스 -8207
도바 -8208
▁믹스 -8209
▁법무부 -8210
▁연쇄 -8211
▁히사 -8212
도리 -8213
의장 -8214
▁다녀 -8215
▁보증 -8216
▁창원시 -8217
▁필터 -8218
▁126 -8219
▁이순신 -8220
▁거북 -8221
▁실체 -8222
▁자선 -8223
▁개교 -8224
▁당주 -8225
▁언니 -8226
▁우호 -8227
▁임하 -8228
▁107 -8229
▁단단 -8230
▁수법 -8231
▁핸드 -8232
▁이산화 -8233
스부르크 -8234
▁교과서 -8235
▁탐사선 -8236
랑카 -8237
▁가마쿠라 -8238
▁117 -8239
▁SE -8240
▁신선 -8241
▁구축함 -8242
▁결함 -8243
▁탐색 -8244
▁다크 -8245
▁빨간 -8246
▁소원 -8247
▁거울 -8248
▁일방 -8249
▁희생자 -8250
() -8251
고래 -8252
▁빈곤 -8253
▁입원 -8254
▁후사 -8255
▁냉전 -8256
▁양측 -8257
ath -8258
▁인명 -8259
▁합하 -8260
ound -8261
▁곡인 -8262
▁조종사 -8263
ft -8264
단체 -8265
▁몰래 -8266
▁제니 -8267
▁is -8268
▁갇히 -8269
▁천장 -8270
▁KIA -8271
▁공방 -8272
▁할머니 -8273
▁샘플 -8274
▁수색 -8275
▁이브 -8276
▁투옥 -8277
▁후궁 -8278
그레이드 -8279
▁자아 -8280
▁지평 -8281
▁풀리 -8282
▁교정 -8283
▁꾀하 -8284
▁이경 -8285
▁피우 -8286
▁게스트 -8287
▁다지 -8288
▁350 -8289
▁수용체 -8290
▁세라 -8291
▁제대 -8292
▁ㅓㅅㅓ -8293
▁삼층석탑 -8294
▁업그레이드 -8295
▁퐁 -8296
▁문예 -8297
▁진하 -8298
승부 -8299
▁네스 -8300
▁승계 -8301
▁송시열 -8302
▁철회 -8303
▁com -8304
▁고속도 -8305
▁도마뱀붙이 -8306
OL -8307
다지 -8308
▁신시 -8309
▁칭찬 -8310
▁맘 -8311
▁통틀 -8312
▁핵무기 -8313
▁줄무늬 -8314
▁클라우드 -8315
▁성도 -8316
▁판본 -8317
▁대웅전 -8318
▁삼성전자 -8319
▁IM -8320
▁상표 -8321
▁진공 -8322
갈색 -8323
▁도청 -8324
▁말씀 -8325
▁극장판 -8326
▁근로자 -8327
▁테이프 -8328
크라 -8329
▁결코 -8330
▁옆면 -8331
▁워터 -8332
베니아 -8333
▁아카데미상 -8334
▁요약 -8335
▁라이너 -8336
▁일반인 -8337
▁CR -8338
▁세속 -8339
▁택하 -8340
▁173 -8341
▁헥 -8342
끼리 -8343
ond -8344
▁문구 -8345
▁요동 -8346
▁해고 -8347
▁고고학 -8348
▁연합국 -8349
수소 -8350
▁궁극 -8351
▁방화 -8352
▁121 -8353
▁알제리 -8354
▁Am -8355
▁LC -8356
▁스캔 -8357
▁아야 -8358
▁진급 -8359
▁포병 -8360
▁브로드 -8361
▁사생활 -8362
▁가져가 -8363
▁슬로베니아 -8364
마루 -8365
▁화장실 -8366
▁엿 -8367
▁비추 -8368
▁일가 -8369
▁항쟁 -8370
▁113 -8371
▁137 -8372
▁멜로디 -8373
▁킴 -8374
▁가축 -8375
▁그냥 -8376
▁김현 -8377
시타 -8378
▁만일 -8379
▁펠리 -8380
▁기업인 -8381
무스 -8382
지붕 -8383
▁치안 -8384
▁1894 -8385
박스 -8386
▁대명 -8387
▁뒤집 -8388
▁드레 -8389
▁비르 -8390
▁약력 -8391
▁공백 -8392
▁레온 -8393
▁바우 -8394
▁냄 -8395
조부 -8396
▁빨간색 -8397
▁프랑크푸르트 -8398
ov -8399
ory -8400
▁불타 -8401
▁타당 -8402
▁몬스터 -8403
▁지미 -8404
▁카카 -8405
▁놓치 -8406
▁캐시 -8407
▁시뮬 -8408
▁제인 -8409
▁최강 -8410
▁게이지 -8411
▁도미니 -8412
▁바티칸 -8413
▁말년 -8414
▁z -8415
▁왕복 -8416
▁초월 -8417
▁둥지 -8418
게이머 -8419
▁바오로 -8420
▁프로게이머 -8421
축구 -8422
톨레 -8423
▁SU -8424
▁럼 -8425
▁농림 -8426
▁야쿠 -8427
▁오프닝 -8428
▁총독부 -8429
▁코스타 -8430
▁낫 -8431
▁붐 -8432
규모 -8433
man -8434
▁미키 -8435
▁원전 -8436
▁피오 -8437
▁계정 -8438
▁용병 -8439
▁적도 -8440
▁물려받 -8441
▁공민 -8442
▁구절 -8443
▁옵션 -8444
아프리카 -8445
그리 -8446
▁사상자 -8447
▁야마토 -8448
로이 -8449
▁군정 -8450
▁혈관 -8451
린스 -8452
▁먼지 -8453
▁서민 -8454
▁크리스토퍼 -8455
대기 -8456
블리 -8457
▁기질 -8458
▁필리프 -8459
▁대피 -8460
▁학명 -8461
▁남서부 -8462
▁최대한 -8463
▁커뮤니케이션 -8464
▁가루 -8465
▁내정 -8466
▁학계 -8467
▁화해 -8468
▁World -8469
iver -8470
▁가장자리 -8471
▁닫히 -8472
퍼런스 -8473
▁극심 -8474
▁즉각 -8475
▁횡단 -8476
▁넘치 -8477
▁뒷면 -8478
▁욕구 -8479
▁곤란 -8480
▁정세 -8481
로니 -8482
▁ㄴㅗ -8483
▁그랜 -8484
▁돌격 -8485
▁무어 -8486
셰비 -8487
▁개종 -8488
▁성문 -8489
▁124 -8490
아키 -8491
▁로이 -8492
▁부딪 -8493
▁국내외 -8494
▁침투 -8495
▁독일인 -8496
▁배후 -8497
▁이거 -8498
▁모친 -8499
▁자비 -8500
▁하동 -8501
▁1890 -8502
▁관세 -8503
▁두껍 -8504
▁체크 -8505
▁평정 -8506
▁파이널 -8507
▁On -8508
▁그대 -8509
▁명하 -8510
▁외모 -8511
▁우파 -8512
▁제치 -8513
프레스 -8514
▁탤런트 -8515
▁프로덕 -8516
▁강서 -8517
▁서초 -8518
▁브리지 -8519
▁뭐 -8520
▁New -8521
▁땃 -8522
▁제압 -8523
▁트로이 -8524
줄기 -8525
▁데르 -8526
▁이드 -8527
▁분명히 -8528
▁오리콘 -8529
▁EC -8530
▁풍자 -8531
▁계열사 -8532
▁드라이버 -8533
IP -8534
▁러시 -8535
▁징계 -8536
▁초록 -8537
▁자연수 -8538
▁륙 -8539
▁감자 -8540
▁디렉 -8541
▁체조 -8542
▁다가오 -8543
ich -8544
▁발리 -8545
▁챌린지 -8546
드르 -8547
▁be -8548
▁관음 -8549
▁봉건 -8550
▁설화 -8551
▁SD -8552
▁vs -8553
▁매매 -8554
▁선비 -8555
▁부작용 -8556
▁뉴턴 -8557
▁정변 -8558
▁쑤 -8559
▁쾌속 -8560
지스 -8561
▁괴물 -8562
▁어미 -8563
▁이소 -8564
▁114 -8565
▁검찰청 -8566
▁블랙홀 -8567
▁미노 -8568
▁베니 -8569
▁예조 -8570
▁유저 -8571
▁소규모 -8572
▁맑 -8573
▁정주 -8574
▁베네딕 -8575
▁플래시 -8576
대원군 -8577
▁방사선 -8578
ial -8579
▁대거 -8580
▁김정일 -8581
▁매니저 -8582
▁알루미 -8583
▁므 -8584
렉스 -8585
▁태극 -8586
▁코믹스 -8587
▁영산 -8588
▁자음 -8589
▁아랫 -8590
▁컨셉 -8591
▁태그 -8592
▁학업 -8593
▁안토니오 -8594
먼스 -8595
▁공감 -8596
▁ㄷㅣ -8597
▁경신 -8598
▁이준 -8599
▁자오 -8600
hn -8601
▁퇴임 -8602
▁캔자스 -8603
▁시정 -8604
▁지침 -8605
▁알아보 -8606
▁군중 -8607
▁답변 -8608
▁양호 -8609
▁요정 -8610
▁컷 -8611
황후 -8612
▁Sc -8613
ign -8614
▁가드 -8615
▁조부 -8616
▁중형 -8617
▁악단 -8618
▁자택 -8619
▁115 -8620
▁구스타 -8621
▁벵 -8622
▁빔 -8623
▁김규 -8624
▁빛나 -8625
▁스칼 -8626
▁운수 -8627
▁ㅇㅡㄹㅈㅣ -8628
러드 -8629
▁앵글 -8630
▁이남 -8631
▁118 -8632
▁시위대 -8633
저지 -8634
▁통치자 -8635
▁연승 -8636
타리오 -8637
▁공조 -8638
▁비로소 -8639
▁세이브 -8640
▁윤치호 -8641
▁` -8642
조건 -8643
▁떨치 -8644
▁체스 -8645
▁다녀오 -8646
▁원로원 -8647
TS -8648
▁비기 -8649
▁비주 -8650
▁과반 -8651
▁모나 -8652
▁변이 -8653
▁하프 -8654
보르 -8655
▁진사 -8656
▁일리노 -8657
▁대부 -8658
▁생체 -8659
▁저널 -8660
▁깎 -8661
▁남미 -8662
▁종착 -8663
▁주부 -8664
▁일리노이 -8665
닐라 -8666
▁로그 -8667
▁용이 -8668
▁키르 -8669
▁혜택 -8670
▁크리스티안 -8671
▁어긋 -8672
▁증손 -8673
▁하르 -8674
▁헬리 -8675
▁무승부 -8676
▁우즈베 -8677
▁믹 -8678
하루 -8679
▁동정 -8680
▁땃쥐 -8681
▁지인 -8682
▁취업 -8683
▁경찰관 -8684
▁승부차기 -8685
히코 -8686
▁구와 -8687
▁카우 -8688
▁커널 -8689
▁1898 -8690
▁갑작스럽 -8691
기념 -8692
문트 -8693
▁숙청 -8694
▁뉴저지 -8695
▁레바논 -8696
▁풀려나 -8697
▁마력 -8698
▁만료 -8699
▁재상 -8700
▁힌두교 -8701
▁남구 -8702
고스 -8703
▁기각 -8704
▁밝기 -8705
▁본국 -8706
마이오스 -8707
▁GP -8708
▁극작 -8709
▁맥도 -8710
▁서자 -8711
▁종속 -8712
▁미하일 -8713
▁소방서 -8714
▁모로코 -8715
▁소모 -8716
▁천하 -8717
▁밀집 -8718
▁외관 -8719
▁파란색 -8720
교도 -8721
함수 -8722
▁GS -8723
▁미세 -8724
▁헬기 -8725
▁바빌 -8726
▁빌라 -8727
바닥 -8728
▁축출 -8729
▁통보 -8730
▁순조 -8731
▁우측 -8732
▁뇌물 -8733
▁III -8734
▁반지름 -8735
벨트 -8736
▁ㅈㅛ -8737
▁스폰 -8738
▁전년 -8739
▁직면 -8740
▁코카 -8741
▁필사 -8742
▁성리학 -8743
▁왕세 -8744
▁웨스턴 -8745
▁체코슬로 -8746
▁체코슬로바키아 -8747
▁렐 -8748
▁선도 -8749
▁한족 -8750
▁리뷰 -8751
▁사적 -8752
▁희귀 -8753
▁쯔 -8754
미사 -8755
▁예고 -8756
▁ㄷㅓㄴㅣ -8757
ph -8758
쟁이 -8759
▁관제 -8760
▁웹툰 -8761
▁레슬링 -8762
▁스크립 -8763
▁ㅇㅡㄴㄷㅔ -8764
려워하 -8765
▁그레고 -8766
▁디비시온 -8767
▁프로덕션 -8768
ㅌㅔ -8769
시즘 -8770
아먹 -8771
▁부스 -8772
▁케빈 -8773
▁범유행 -8774
속기 -8775
▁기증 -8776
▁사쿠라 -8777
▁연예인 -8778
▁가옥 -8779
▁배수 -8780
▁척추 -8781
▁천재 -8782
▁ㅎㅏㄴ -8783
타니 -8784
▁서신 -8785
▁지출 -8786
▁케냐 -8787
▁호출 -8788
▁129 -8789
▁시가지 -8790
▁캉 -8791
▁ㅕㅆ -8792
▁무성 -8793
▁카디 -8794
▁젊은이 -8795
레타 -8796
▁발급 -8797
▁종래 -8798
▁대변인 -8799
▁의약품 -8800
▁알루미늄 -8801
▁광해군 -8802
▁쫓겨나 -8803
슬러 -8804
틱스 -8805
화물 -8806
▁패럴 -8807
▁화력 -8808
테르부르크 -8809
▁맏 -8810
부리 -8811
▁말미 -8812
▁승자 -8813
▁임원 -8814
▁파산 -8815
▁외야수 -8816
▁로비 -8817
▁발병 -8818
▁봉안 -8819
▁페널 -8820
▁Ne -8821
▁스타리그 -8822
▁센티 -8823
▁재혼 -8824
▁컴백 -8825
▁개막전 -8826
▁옳 -8827
타리 -8828
▁등기 -8829
▁어른 -8830
▁흘러 -8831
▁닦 -8832
▁워크 -8833
▁중산 -8834
▁창출 -8835
▁ㅎㅏㄴㅌㅔ -8836
▁요건 -8837
▁응시 -8838
▁켈리 -8839
▁폭넓 -8840
▁터뜨리 -8841
▁난징 -8842
▁실망 -8843
▁핑크 -8844
▁1899 -8845
▁벨라루스 -8846
▁글루 -8847
▁사위 -8848
▁부의장 -8849
▁원천 -8850
▁재선 -8851
▁첨단 -8852
▁연산자 -8853
▁총사령 -8854
▁무명 -8855
▁마운트 -8856
▁저주 -8857
▁전속 -8858
▁중공 -8859
▁세이부 -8860
개미 -8861
▁부피 -8862
▁성폭 -8863
▁지옥 -8864
▁청산 -8865
▁케임 -8866
▁사용자 -8867
▁러셀 -8868
▁미들 -8869
▁예하 -8870
▁토양 -8871
▁회관 -8872
▁브리튼 -8873
TA -8874
코딩 -8875
▁ㅋㅔ -8876
▁총칭 -8877
▁천문대 -8878
▁확실히 -8879
▁퉁 -8880
▁기차 -8881
▁사본 -8882
▁장례식 -8883
▁키보드 -8884
▁기술자 -8885
▁플라스틱 -8886
▁웬 -8887
rom -8888
▁황족 -8889
우트 -8890
▁뒷받침 -8891
▁드림 -8892
▁오오 -8893
▁워너 -8894
▁스트리 -8895
▁토끼 -8896
▁희곡 -8897
▁넘어서 -8898
포로 -8899
▁감싸 -8900
▁유진 -8901
▁ch -8902
▁유방 -8903
▁각도 -8904
▁남작 -8905
▁토미 -8906
수록 -8907
▁감행 -8908
▁안테 -8909
느러미 -8910
▁끌어들이 -8911
▁괘 -8912
도스 -8913
▁구경 -8914
▁벽돌 -8915
▁시범 -8916
▁142 -8917
▁얹 -8918
▁공리 -8919
▁양반 -8920
▁오크 -8921
▁옹립 -8922
▁혼동 -8923
MA -8924
▁ID -8925
▁찌르 -8926
▁거래소 -8927
▁조지프 -8928
▁두려워하 -8929
▁설교 -8930
▁독서 -8931
▁리프 -8932
▁사간 -8933
▁소생 -8934
▁교통국 -8935
ens -8936
▁대치 -8937
▁폭포 -8938
▁월요일 -8939
토르 -8940
▁감마 -8941
▁만성 -8942
▁대패 -8943
▁벨트 -8944
파이어 -8945
▁타임스 -8946
▁프란츠 -8947
▁제국주의 -8948
pp -8949
▁학기 -8950
셰비키 -8951
방송공사 -8952
진군 -8953
▁BS -8954
▁CJ -8955
▁공적 -8956
▁병기 -8957
▁유라 -8958
▁지켜 -8959
▁광둥 -8960
▁채소 -8961
▁화자 -8962
▁아리아 -8963
ction -8964
urn -8965
▁신원 -8966
▁형조 -8967
▁도카이 -8968
타주 -8969
▁무함 -8970
▁피겨 -8971
▁하얗 -8972
▁화상 -8973
▁프톨레 -8974
▁더글러스 -8975
▁프톨레마이오스 -8976
▁가야 -8977
▁의자 -8978
▁정성 -8979
▁어긋나 -8980
▁룩셈 -8981
▁본문 -8982
▁시코 -8983
▁중복 -8984
치기 -8985
lan -8986
▁스턴 -8987
▁마르티 -8988
▁룩셈부르크 -8989
럴드 -8990
▁JT -8991
▁거세 -8992
▁김지 -8993
▁수분 -8994
▁트리플 -8995
▁온타리오 -8996
▁보위 -8997
▁지치 -8998
▁Man -8999
▁잃어버리 -9000
▁체류 -9001
▁대서양 -9002
▁부여받 -9003
ert -9004
▁끊임없이 -9005
▁제네바 -9006
글라 -9007
▁마녀 -9008
▁시가 -9009
▁영문 -9010
▁왼손 -9011
▁청주시 -9012
브르 -9013
▁선배 -9014
▁자크 -9015
▁축물 -9016
롤라이나 -9017
▁ㅌ -9018
▁밍 -9019
▁발기 -9020
▁금요일 -9021
▁스즈키 -9022
샤바 -9023
▁서류 -9024
▁그래미 -9025
▁점성술 -9026
▁콕 -9027
▁서장 -9028
▁촉매 -9029
▁코시 -9030
덩이 -9031
▁동네 -9032
▁정적 -9033
▁피신 -9034
▁플랫폼 -9035
▁게리 -9036
▁선행 -9037
▁유체 -9038
▁광주광역시 -9039
▁익스프레스 -9040
▁동학 -9041
▁1902 -9042
▁간선 -9043
▁물품 -9044
▁함정 -9045
두리 -9046
▁기사단 -9047
▁몫 -9048
천리 -9049
▁명종 -9050
▁혐오 -9051
▁다항식 -9052
▁호르몬 -9053
▁흔들리 -9054
▁간토 -9055
▁니코 -9056
▁포획 -9057
▁표기법 -9058
▁'' -9059
▁가환 -9060
▁깃발 -9061
▁엔딩 -9062
▁정려 -9063
▁표적 -9064
▁강변 -9065
▁국영 -9066
▁얽 -9067
크로 -9068
▁독성 -9069
▁버드 -9070
▁우체 -9071
▁초신 -9072
▁스위치 -9073
▁러시아어 -9074
▁준결승전 -9075
▁그릇 -9076
그룹 -9077
▁단절 -9078
▁영등 -9079
▁서유럽 -9080
▁ㅇㅡㄹㅕㄱㅗ -9081
lic -9082
▁사슴 -9083
▁관광지 -9084
▁마스크 -9085
▁바깥쪽 -9086
▁붙잡히 -9087
▁지식인 -9088
▁수확 -9089
▁습지 -9090
▁위쪽 -9091
▁타케 -9092
▁코끼리 -9093
aw -9094
▁나노 -9095
▁약자 -9096
▁메커 -9097
▁치아 -9098
▁보이스 -9099
▁소나무 -9100
▁매수 -9101
▁기니 -9102
▁원종 -9103
▁응하 -9104
▁해밀턴 -9105
▁광명 -9106
▁동행 -9107
▁세비 -9108
▁정립 -9109
▁판례 -9110
▁갈수록 -9111
▁갈릴 -9112
▁참의 -9113
▁아이오 -9114
ys -9115
ach -9116
▁불꽃 -9117
▁연꽃 -9118
▁정동 -9119
폴리 -9120
▁개소 -9121
▁면제 -9122
▁부가 -9123
▁상금 -9124
▁슈팅 -9125
▁입각 -9126
▁주조 -9127
▁춥 -9128
▁검열 -9129
▁대합 -9130
▁성지 -9131
▁전방 -9132
▁조립 -9133
▁탄도 -9134
▁비석 -9135
▁서리 -9136
▁하단 -9137
▁비행장 -9138
▁아돌프 -9139
짓점 -9140
▁고아 -9141
▁복용 -9142
▁역량 -9143
▁기숙 -9144
▁대손 -9145
▁마블 -9146
▁입국 -9147
▁꼭짓점 -9148
▁부회장 -9149
▁단축 -9150
▁보복 -9151
▁소시 -9152
▁염증 -9153
▁퀘벡 -9154
▁크롬 -9155
▁이용자 -9156
TC -9157
▁강동 -9158
▁실버 -9159
▁원료 -9160
▁뮤지션 -9161
▁이단 -9162
▁헌신 -9163
레슬링 -9164
▁연기자 -9165
카가 -9166
텍처 -9167
▁갱신 -9168
▁산출 -9169
▁색채 -9170
▁쓰촨 -9171
▁울프 -9172
▁입성 -9173
▁고양시 -9174
▁아키텍처 -9175
▁박지 -9176
▁아산 -9177
▁열도 -9178
▁하치 -9179
▁간단히 -9180
LS -9181
디나 -9182
타임 -9183
▁직결 -9184
▁코코 -9185
▁1901 -9186
▁포켓몬스터 -9187
▁No -9188
▁광대 -9189
▁브뤼 -9190
▁시리 -9191
▁에디션 -9192
▁패밀리 -9193
구르 -9194
히토 -9195
▁염색체 -9196
out -9197
▁드라 -9198
▁커스 -9199
▁삿포로 -9200
▁토착종 -9201
▁페널티 -9202
▁페르디난 -9203
▁민감 -9204
▁생생 -9205
▁임관 -9206
▁체르 -9207
▁특권 -9208
▁폭격기 -9209
▁스텔 -9210
▁쿄 -9211
미트 -9212
테인 -9213
▁단의 -9214
▁대두 -9215
▁보트 -9216
▁드러머 -9217
국사 -9218
▁극대 -9219
▁누적 -9220
▁서문 -9221
▁압둘 -9222
▁축조 -9223
▁표방 -9224
▁매카트니 -9225
LE -9226
▁권총 -9227
▁이현 -9228
피어 -9229
▁생략 -9230
▁프로레슬링 -9231
링턴 -9232
▁어류 -9233
모스 -9234
▁수축 -9235
▁일산 -9236
▁카미 -9237
▁사이토 -9238
▁영국인 -9239
자르 -9240
▁레즈 -9241
▁분수 -9242
▁제로 -9243
▁리더십 -9244
▁요르단 -9245
▁지켜보 -9246
IG -9247
▁공예 -9248
▁호모 -9249
▁케임브리지 -9250
▁김창 -9251
▁라그 -9252
▁아라비아 -9253
루아 -9254
▁버티 -9255
▁페니 -9256
▁경성부 -9257
▁안경 -9258
▁자작 -9259
▁바이킹 -9260
▁울산광역시 -9261
▁논하 -9262
▁여운 -9263
▁메커니즘 -9264
아웃 -9265
▁소말 -9266
▁실적 -9267
▁도요토미 -9268
ug -9269
▁렘 -9270
로우 -9271
▁아브 -9272
▁오쿠 -9273
▁정문 -9274
일으키 -9275
▁사회당 -9276
▁불러일으키 -9277
▁례 -9278
▁차르 -9279
▁화강 -9280
▁kt -9281
▁고산 -9282
▁체중 -9283
▁하비 -9284
▁언어학 -9285
▁발렌시아 -9286
▁동조 -9287
▁원본 -9288
▁터보 -9289
▁특색 -9290
▁광저우 -9291
▁알렉산드르 -9292
▁무궁 -9293
▁보헤 -9294
▁학대 -9295
▁쓰레기 -9296
▁아리스토 -9297
▁아시카가 -9298
▁옥스퍼드 -9299
▁MB -9300
▁이태 -9301
▁그다지 -9302
▁비타 -9303
▁갈리아 -9304
▁사업가 -9305
나우 -9306
▁이병 -9307
▁조수 -9308
▁퇴역 -9309
ㅡㄹㅏ -9310
▁노태우 -9311
▁장기간 -9312
▁트로피 -9313
▁홈구장 -9314
▁공명 -9315
▁섹스 -9316
▁어둠 -9317
▁회상 -9318
그라 -9319
사리 -9320
▁선동 -9321
▁손꼽 -9322
▁카프 -9323
▁토기 -9324
▁All -9325
▁개인전 -9326
▁썰 -9327
쿠버 -9328
펜하 -9329
▁교대 -9330
▁다마 -9331
▁불신 -9332
▁크레이 -9333
기스 -9334
테르담 -9335
▁134 -9336
▁쟈 -9337
▁마우 -9338
▁질소 -9339
▁파이터 -9340
카미 -9341
▁어찌 -9342
▁연봉 -9343
노미야 -9344
내리 -9345
ype -9346
▁개화 -9347
▁현은 -9348
라이어 -9349
▁방송인 -9350
▁두께 -9351
▁조형 -9352
▁전염병 -9353
▁피고인 -9354
▁아인슈타인 -9355
올로 -9356
▁스님 -9357
▁원더 -9358
▁취항 -9359
▁훔치 -9360
▁알렉산드리아 -9361
▁Cl -9362
▁EX -9363
▁THE -9364
▁당연히 -9365
▁푸에르 -9366
▁무함마드 -9367
▁검출 -9368
▁김제 -9369
▁어뢰 -9370
ke -9371
▁공고 -9372
▁루타 -9373
▁만주국 -9374
▁지도부 -9375
▁1903 -9376
대장 -9377
정리 -9378
ase -9379
▁공황 -9380
▁드레스 -9381
▁모서리 -9382
카타 -9383
퀘어 -9384
▁반공 -9385
▁릿 -9386
그래 -9387
그레 -9388
▁패널 -9389
▁AN -9390
▁가역 -9391
▁전위 -9392
▁좌측 -9393
▁토요 -9394
▁헌정 -9395
베트남 -9396
하키 -9397
▁강간 -9398
▁모모 -9399
▁삼촌 -9400
▁배우자 -9401
▁이성계 -9402
▁야마구치 -9403
▁노보 -9404
▁뛰어 -9405
▁마키 -9406
▁미륵 -9407
사이드 -9408
▁방글라 -9409
▁컨트리 -9410
▁1884 -9411
▁방글라데시 -9412
▁기분 -9413
▁아폴로 -9414
방울 -9415
▁구형 -9416
▁물가 -9417
▁직경 -9418
▁파병 -9419
▁쓰시마 -9420
▁김홍 -9421
▁와일드 -9422
처스 -9423
▁Gr -9424
▁ㅅㅑ -9425
▁각색 -9426
▁남매 -9427
▁단면 -9428
▁에콰 -9429
▁취미 -9430
▁코믹 -9431
▁미시시피 -9432
▁에콰도르 -9433
▁이관 -9434
▁하리 -9435
▁One -9436
천사 -9437
▁로저 -9438
▁상고 -9439
▁우치 -9440
▁인질 -9441
▁캐서 -9442
▁함선 -9443
역학 -9444
CAF -9445
▁정유 -9446
▁LA -9447
▁슬라브 -9448
▁세키 -9449
▁회피 -9450
▁히타 -9451
▁기념관 -9452
▁그레이트 -9453
▁대구광역시 -9454
▁실재 -9455
▁정선 -9456
▁기념비 -9457
▁더욱이 -9458
▁앰 -9459
푸르 -9460
▁데카 -9461
▁밀란 -9462
▁토시 -9463
▁1800 -9464
▁군산 -9465
▁날카 -9466
▁장벽 -9467
▁조승 -9468
▁복합체 -9469
라이언트 -9470
가와현 -9471
▁날카롭 -9472
▁신도비 -9473
▁아나키 -9474
▁염소 -9475
▁진전 -9476
▁오사카부 -9477
▁와이번스 -9478
▁발칸 -9479
▁의결 -9480
▁클라이언트 -9481
▁네오 -9482
▁준주 -9483
▁중령 -9484
▁클라이 -9485
▁아미노산 -9486
불교 -9487
▁강대 -9488
▁실무 -9489
▁우회 -9490
▁마르틴 -9491
▁프란체 -9492
▁히로시 -9493
▁중앙아시아 -9494
나미 -9495
▁구스 -9496
▁군함 -9497
▁상트 -9498
▁에밀 -9499
▁프레드 -9500
▁농부 -9501
▁상응 -9502
▁도널드 -9503
▁콤팩트 -9504
▁북아프리카 -9505
네마 -9506
▁IN -9507
▁깨지 -9508
11 -9509
▁경작 -9510
▁퇴적 -9511
▁티코 -9512
▁니콜라이 -9513
▁샌디 -9514
▁추첨 -9515
가르 -9516
▁} -9517
니시 -9518
▁CN -9519
▁간신 -9520
▁대문 -9521
▁분량 -9522
▁음향 -9523
▁조반니 -9524
리코 -9525
▁복소수 -9526
▁충청도 -9527
▁내걸 -9528
▁미라 -9529
▁소자 -9530
▁유부 -9531
▁이북 -9532
▁전구 -9533
▁진료 -9534
▁마르코 -9535
▁효고 -9536
▁꼭대기 -9537
ree -9538
▁곡물 -9539
▁구약 -9540
▁도선 -9541
▁상가 -9542
간지 -9543
▁달걀 -9544
▁카사 -9545
▁ㅇㅡㄹㄲㅏ -9546
▁팰 -9547
번뇌 -9548
▁관절 -9549
▁비뉴 -9550
▁철폐 -9551
테이션 -9552
▁선우 -9553
▁추론 -9554
▁팟 -9555
사우 -9556
▁공약 -9557
▁당수 -9558
▁심화 -9559
▁쥐과 -9560
▁소행성 -9561
▁일자리 -9562
▁기저 -9563
▁종말 -9564
▁갤러리 -9565
▁총대주교 -9566
▁꿀 -9567
파리 -9568
▁까닭 -9569
▁무슨 -9570
▁분출 -9571
▁민간인 -9572
pt -9573
포터 -9574
▁가산 -9575
▁상경 -9576
▁유대교 -9577
▁전시회 -9578
ary -9579
▁GO -9580
▁묶이 -9581
▁거짓말 -9582
▁데스크 -9583
▁방사성 -9584
ass -9585
▁가열 -9586
▁가오 -9587
▁한층 -9588
▁다케다 -9589
▁Ad -9590
▁건륭 -9591
▁교량 -9592
▁권장 -9593
▁러스 -9594
▁브란 -9595
▁신축 -9596
▁용서 -9597
▁전복 -9598
▁침체 -9599
▁득표율 -9600
▁카스티 -9601
act -9602
▁델타 -9603
▁돌기 -9604
▁정화 -9605
▁하차 -9606
▁뉴욕주 -9607
▁대성당 -9608
▁소수자 -9609
▁스토어 -9610
사업 -9611
▁Br -9612
▁가신 -9613
▁대출 -9614
▁뒤쪽 -9615
▁반전 -9616
벤처 -9617
산성 -9618
아들 -9619
▁감안 -9620
▁격차 -9621
▁해남 -9622
▁활주 -9623
▁흥선 -9624
▁가브리 -9625
▁with -9626
▁어드벤처 -9627
▁강희 -9628
▁모리스 -9629
▁수목 -9630
▁교도소 -9631
▁마가 -9632
▁막스 -9633
▁시야 -9634
▁자형 -9635
▁진행자 -9636
▁일렉트로 -9637
구역 -9638
▁견인 -9639
▁궁중 -9640
▁급수 -9641
▁냄새 -9642
▁상법 -9643
산맥 -9644
▁복권 -9645
▁우물 -9646
▁장자 -9647
▁반군 -9648
▁샌드 -9649
▁이반 -9650
▁116 -9651
▁220 -9652
▁지지율 -9653
개골 -9654
▁등용 -9655
▁로라 -9656
▁볼리비아 -9657
▁절단 -9658
▁창녕 -9659
▁칼뱅 -9660
▁현감 -9661
▁거주지 -9662
▁기관총 -9663
▁남동생 -9664
몰로지 -9665
▁인테르 -9666
▁페이스북 -9667
▁깨끗 -9668
▁되돌리 -9669
▁카를로 -9670
▁1860 -9671
ark -9672
▁경인 -9673
▁민정 -9674
▁버마 -9675
▁체력 -9676
▁폭로 -9677
▁스트라이크 -9678
▁연대기 -9679
▁스크립트 -9680
▁글래 -9681
▁기슭 -9682
▁디트로 -9683
▁마카오 -9684
▁포스터 -9685
▁디트로이트 -9686
▁갈래 -9687
▁발령 -9688
▁접수 -9689
기념물 -9690
▁버클리 -9691
▁쓸 -9692
▁마니 -9693
▁무로 -9694
▁애리 -9695
▁올드 -9696
▁일파 -9697
▁맞붙 -9698
▁세바 -9699
▁1897 -9700
▁Ex -9701
▁낙동 -9702
▁신정 -9703
▁오로 -9704
▁중원 -9705
ream -9706
▁홉 -9707
곡동 -9708
▁후반기 -9709
▁나루 -9710
▁평창 -9711
▁떡 -9712
▁ㄴㅈㅣ -9713
▁단행본 -9714
▁중공업 -9715
▁카타르 -9716
▁엇 -9717
▁대관 -9718
▁찰리 -9719
▁후작 -9720
▁가의 -9721
▁리만 -9722
▁태백 -9723
▁모티브 -9724
▁애칭 -9725
▁종파 -9726
▁사카이 -9727
▁일부분 -9728
▁홍문관 -9729
▁보성 -9730
▁상트페 -9731
▁상트페테르부르크 -9732
▁벽화 -9733
▁아소 -9734
▁쿠니 -9735
▁타우 -9736
▁솔루션 -9737
▁북경 -9738
▁전격 -9739
▁강남구 -9740
▁리조 -9741
▁장제 -9742
▁과실 -9743
▁동형 -9744
▁왕정 -9745
▁입주 -9746
▁적군 -9747
▁안산 -9748
▁캐서린 -9749
▁바르샤바 -9750
▁전산 -9751
▁학력 -9752
▁죠 -9753
▁델라 -9754
▁르노 -9755
▁브랜 -9756
▁미네소 -9757
리안 -9758
▁속편 -9759
▁카즈 -9760
▁합당 -9761
거진 -9762
츠크 -9763
▁농사 -9764
▁사살 -9765
▁수중 -9766
▁제작사 -9767
▁경제학자 -9768
▁애틀랜타 -9769
▁셜 -9770
▁Is -9771
▁공손 -9772
▁돌입 -9773
▁수료 -9774
▁호쿠 -9775
▁휴가 -9776
▁한국방송공사 -9777
▁저렴 -9778
▁효종 -9779
▁교육청 -9780
▁청소 -9781
▁팔레 -9782
▁공용어 -9783
▁타지 -9784
▁클라크 -9785
▁섀 -9786
리즘 -9787
반구 -9788
▁;& -9789
▁con -9790
▁가가 -9791
▁고이 -9792
▁스퀘어 -9793
▁리히 -9794
▁무술 -9795
▁집결 -9796
▁알프레 -9797
▁유닉스 -9798
세기 -9799
▁신동 -9800
▁프렌 -9801
▁확진 -9802
▁1880 -9803
▁BM -9804
▁소행 -9805
▁이빨 -9806
▁122 -9807
▁고토 -9808
▁분파 -9809
▁오지 -9810
▁정경 -9811
▁쥐속 -9812
▁타협 -9813
▁괴롭히 -9814
▁마라톤 -9815
▁안드레아 -9816
▁함부르크 -9817
니지 -9818
▁보강 -9819
▁빈도 -9820
▁숙주 -9821
▁연동 -9822
▁창의 -9823
▁아마존 -9824
▁옥수수 -9825
▁갑옷 -9826
▁경위 -9827
▁노이 -9828
▁살피 -9829
▁청색 -9830
스카르 -9831
▁그림자 -9832
도비 -9833
iss -9834
▁김민 -9835
▁게릴라 -9836
▁이주하 -9837
▁일러스트 -9838
▁파라과이 -9839
▁ᆫㄷㅏㅁㅕ -9840
▁세네 -9841
▁설립자 -9842
▁뻔 -9843
▁브룩 -9844
▁블리 -9845
▁추리 -9846
▁나란히 -9847
▁새로이 -9848
▁2022 -9849
▁랴 -9850
▁슛 -9851
퍼슨 -9852
▁고추 -9853
▁안치 -9854
▁동요 -9855
▁루크 -9856
▁마당 -9857
▁막시 -9858
▁예명 -9859
▁오락 -9860
▁천연기념물 -9861
UR -9862
▁낚 -9863
▁강풍 -9864
▁듀얼 -9865
▁석회 -9866
▁열심 -9867
▁유령 -9868
▁극작가 -9869
ii -9870
케이 -9871
▁군청 -9872
▁입양 -9873
콥터 -9874
▁ES -9875
▁강철 -9876
▁석불 -9877
▁이데 -9878
▁장원 -9879
▁133 -9880
▁그레고리오 -9881
▁눕 -9882
기구 -9883
▁어로 -9884
▁재해 -9885
▁출석 -9886
▁치우 -9887
네시 -9888
▁메릴 -9889
▁돌아다니 -9890
ake -9891
▁감추 -9892
▁등극 -9893
▁짐작 -9894
▁처지 -9895
▁NGC -9896
▁++ -9897
▁용암 -9898
▁프롤 -9899
▁호응 -9900
푸아 -9901
▁스노 -9902
▁이언 -9903
▁쳐들 -9904
▁엮 -9905
▁더비 -9906
▁무스 -9907
▁두개골 -9908
▁교육부 -9909
▁키예프 -9910
▁수녀 -9911
▁원격 -9912
▁확고 -9913
▁경쟁력 -9914
▁기성 -9915
▁엘리트 -9916
▁이용객 -9917
▁마애 -9918
▁이장 -9919
▁지청 -9920
▁추종 -9921
▁해부 -9922
▁지방산 -9923
▁사무총장 -9924
▁흥선대원군 -9925
▁랍 -9926
타케 -9927
해튼 -9928
▁극도 -9929
▁번성 -9930
▁유스 -9931
▁제왕 -9932
▁화순 -9933
▁소령 -9934
▁위생 -9935
▁유정 -9936
▁즐겁 -9937
자치시 -9938
▁CEO -9939
▁특별자치시 -9940
▁기상청 -9941
▁DM -9942
▁대국 -9943
▁연못 -9944
▁요법 -9945
▁우상 -9946
▁워치 -9947
▁윤보 -9948
▁재난 -9949
▁현행 -9950
캐롤라이나 -9951
▁선장 -9952
▁자카 -9953
▁콘테 -9954
▁그렇지만 -9955
▁스트라이커 -9956
▁격자 -9957
▁메라 -9958
▁몽고 -9959
▁붙여지 -9960
▁손꼽히 -9961
old -9962
▁사쿠 -9963
▁아치 -9964
▁이동하 -9965
▁반역 -9966
▁이득 -9967
▁장단 -9968
▁종점 -9969
▁진수 -9970
▁파우 -9971
▁함양 -9972
HO -9973
타마 -9974
▁심야 -9975
▁제리 -9976
▁Mus -9977
▁미생물 -9978
▁인프라 -9979
▁포도당 -9980
사관학교 -9981
▁결제 -9982
▁결핍 -9983
▁국유 -9984
▁농어 -9985
▁일괄 -9986
GA -9987
▁개항 -9988
▁모용 -9989
▁자결 -9990
▁정관 -9991
▁해치 -9992
다운 -9993
▁가네 -9994
▁니카 -9995
own -9996
▁Ro -9997
▁이규 -9998
▁헬륨 -9999
▁CBS -10000
▁대지진 -10001
▁법정동 -10002
▁시뮬레이션 -10003
▁감동 -10004
▁까지 -10005
▁도사 -10006
▁명분 -10007
▁펜싱 -10008
▁파이프 -10009
▁스리랑카 -10010
▁프랭클린 -10011
어뜨리 -10012
▁가도 -10013
▁스로 -10014
▁아스널 -10015
▁앨리스 -10016
▁위나라 -10017
▁자치체 -10018
거래 -10019
ork -10020
▁암흑 -10021
▁파문 -10022
▁제조업 -10023
ㄴㅣㄲㅏ -10024
▁평민 -10025
▁무궁화 -10026
렉션 -10027
▁성령 -10028
▁자생 -10029
▁탁월 -10030
▁국악 -10031
▁겉보기 -10032
▁ㄷㅔ -10033
▁막히 -10034
▁앞장 -10035
▁조계 -10036
▁아래쪽 -10037
▁그레고리 -10038
▁툰 -10039
미스 -10040
▁GDP -10041
에미 -10042
▁NE -10043
▁만년 -10044
▁문경 -10045
▁아데 -10046
▁정인 -10047
lo -10048
▁싣 -10049
멘스 -10050
삭스 -10051
파크 -10052
▁온갖 -10053
▁대사헌 -10054
▁마우스 -10055
▁무조건 -10056
▁수년 -10057
▁스태 -10058
▁모터스 -10059
버러 -10060
▁듀오 -10061
▁루비 -10062
▁미셸 -10063
▁부조 -10064
▁132 -10065
▁선거법 -10066
▁동성애자 -10067
위성 -10068
ick -10069
▁불행 -10070
▁이모 -10071
▁ㅎㅏㄱㅗ -10072
▁삼국사기 -10073
▁아이스하키 -10074
▁PR -10075
▁가타 -10076
▁타석 -10077
▁쾰 -10078
▁시종 -10079
▁장흥 -10080
▁총무 -10081
▁인디애나 -10082
▁동참 -10083
▁베른 -10084
▁속주 -10085
▁주지 -10086
▁후속작 -10087
▁낙하 -10088
▁리모 -10089
▁빈번 -10090
▁복음서 -10091
▁or -10092
▁주화 -10093
▁퇴장 -10094
스기 -10095
원장 -10096
▁꿈꾸 -10097
▁상연 -10098
▁조병 -10099
위원회 -10100
림픽 -10101
▁상기 -10102
▁신상 -10103
▁정국 -10104
▁센고쿠 -10105
▁그리스인 -10106
▁CONCA -10107
ㅇㅗ -10108
▁ㄹㅑ -10109
▁글로브 -10110
변이 -10111
헌영 -10112
▁수심 -10113
▁시국 -10114
▁초원 -10115
▁돌연변이 -10116
Hz -10117
▁대각 -10118
▁라오 -10119
▁시애 -10120
▁장대 -10121
▁표창 -10122
▁호족 -10123
▁비주얼 -10124
▁보헤미아 -10125
▁CONCACAF -10126
▁국당 -10127
▁단과 -10128
▁무르 -10129
▁매거진 -10130
▁헛 -10131
라기 -10132
미즈 -10133
▁제너 -10134
▁른 -10135
▁구니 -10136
▁아쿠 -10137
▁황도 -10138
ence -10139
▁광양 -10140
▁두렵 -10141
▁현직 -10142
브리아 -10143
▁대성전 -10144
ix -10145
마리 -10146
타이드 -10147
▁통틀어 -10148
clude -10149
메다 -10150
▁공파 -10151
▁총기 -10152
해지 -10153
▁국수 -10154
▁김병 -10155
▁맞대 -10156
▁맹세 -10157
▁발각 -10158
▁마다가 -10159
▁카바 -10160
바야시 -10161
▁애리조 -10162
▁오클랜드 -10163
▁초고 -10164
▁pro -10165
▁기병대 -10166
▁댓 -10167
벨라 -10168
▁양육 -10169
▁미주리 -10170
▁짱 -10171
▁SL -10172
▁난이 -10173
▁저격 -10174
▁피로 -10175
▁시애틀 -10176
▁자세히 -10177
▁저널리 -10178
▁타이베이 -10179
▁합스부르크 -10180
할시 -10181
▁소울 -10182
▁투항 -10183
플로 -10184
홀름 -10185
▁로리 -10186
▁재질 -10187
공산 -10188
▁속이 -10189
▁틀리 -10190
▁호리 -10191
▁호의 -10192
ance -10193
▁마르크스주의 -10194
▁숀 -10195
▁관동 -10196
▁페로 -10197
▁농산물 -10198
▁맨해튼 -10199
▁요제프 -10200
EM -10201
루냐 -10202
▁복식 -10203
▁빠져 -10204
▁아빠 -10205
▁청동기 -10206
▁엥 -10207
를테 -10208
ear -10209
▁비늘 -10210
를테면 -10211
▁이를테면 -10212
▁극락 -10213
▁티켓 -10214
▁소피아 -10215
▁볼셰비키 -10216
▁패럴림픽 -10217
▁감금 -10218
▁따라가 -10219
▁우즈베키스탄 -10220
▁김옥 -10221
▁내면 -10222
▁민요 -10223
▁반성 -10224
▁수교 -10225
▁의과 -10226
▁활주로 -10227
▁1885 -10228
러피 -10229
▁GN -10230
▁Ph -10231
▁개헌 -10232
▁공표 -10233
▁밀러 -10234
▁배속 -10235
▁이븐 -10236
▁포고 -10237
▁중앙부 -10238
십자 -10239
▁리터 -10240
▁매직 -10241
▁세븐 -10242
▁실존 -10243
▁즘 -10244
돌리 -10245
▁수염 -10246
▁야구단 -10247
▁창시자 -10248
▁숨지 -10249
▁입수 -10250
▁퍼포 -10251
▁1870 -10252
티시 -10253
▁바디 -10254
▁NAS -10255
▁매끄럽 -10256
▁스폰서 -10257
▁제동 -10258
▁주되 -10259
▁오로지 -10260
▁퍼포먼스 -10261
어오 -10262
쩌둥 -10263
▁감수 -10264
▁생계 -10265
▁세손 -10266
▁트리니 -10267
▁마오쩌둥 -10268
파이 -10269
▁릴리 -10270
▁청자 -10271
▁예선전 -10272
▁유권자 -10273
▁리바 -10274
▁머스 -10275
▁원심 -10276
▁우체국 -10277
관리 -10278
▁un -10279
▁경질 -10280
▁왜구 -10281
▁To -10282
▁우아 -10283
▁휩쓸 -10284
▁240 -10285
▁450 -10286
▁1871 -10287
▁평안남도 -10288
▁ㄴㅑㄴㅡㄴ -10289
▁뾰 -10290
제이 -10291
▁참사 -10292
▁테일 -10293
테리아 -10294
▁프랜시스 -10295
▁돌출 -10296
▁벤치 -10297
▁대장군 -10298
▁하노이 -10299
▁네이션스컵 -10300
▁중상 -10301
▁학설 -10302
▁끌려가 -10303
▁볼프 -10304
▁카터 -10305
OV -10306
▁내성 -10307
▁신종 -10308
▁오라 -10309
▁전날 -10310
▁파인 -10311
▁활발히 -10312
irl -10313
▁관행 -10314
텔레스 -10315
▁유료 -10316
▁증인 -10317
▁마닐라 -10318
▁프레이 -10319
▁중서 -10320
▁차리 -10321
▁청룡 -10322
▁맷 -10323
▁역도 -10324
▁중생 -10325
▁화랑 -10326
lass -10327
▁지성 -10328
▁함자 -10329
▁해저 -10330
▁로렌스 -10331
▁쿡 -10332
테쓰 -10333
▁뉴클 -10334
▁실험실 -10335
▁편집자 -10336
▁1600 -10337
▁평안북도 -10338
지로 -10339
ild -10340
▁AD -10341
▁남용 -10342
▁앞쪽 -10343
▁이양 -10344
▁수원시 -10345
▁각성 -10346
▁당내 -10347
▁콜레 -10348
▁파나마 -10349
▁ㅇㅏㅇㅛ -10350
▁USS -10351
▁내무부 -10352
▁알래스카 -10353
▁분과 -10354
▁수인 -10355
▁출가 -10356
▁카니 -10357
등식 -10358
틀리 -10359
▁CM -10360
▁고쿠 -10361
▁로페 -10362
▁생선 -10363
▁흉노 -10364
▁아리스토텔레스 -10365
▁개개 -10366
▁트릭 -10367
▁양성자 -10368
▁프라하 -10369
▁프로리그 -10370
▁문고 -10371
▁위스 -10372
▁퍼스 -10373
▁빅토르 -10374
ection -10375
맥스 -10376
ans -10377
▁루카 -10378
▁시합 -10379
▁호크 -10380
▁다람쥐 -10381
▁유치원 -10382
▁브레이크 -10383
▁상급 -10384
▁자칭 -10385
▁휴게 -10386
러피언 -10387
▁알렉스 -10388
▁앤더슨 -10389
▁능선 -10390
▁빨갛 -10391
▁성실 -10392
▁다나카 -10393
▁구청 -10394
▁궁궐 -10395
▁박헌영 -10396
▁러시아인 -10397
사상 -10398
▁무척 -10399
▁정제 -10400
▁퍼스트 -10401
▁1200 -10402
▁유러피언 -10403
올라 -10404
▁교실 -10405
▁나선 -10406
▁리비 -10407
▁이룩 -10408
▁이완 -10409
▁화기 -10410
▁불태우 -10411
▁역사가 -10412
▁독도 -10413
▁부각 -10414
▁케라 -10415
▁국보 -10416
▁친분 -10417
▁올림피아 -10418
▁조광 -10419
▁조례 -10420
▁아무것 -10421
▁왕세자 -10422
▁Sy -10423
▁동로 -10424
▁경영자 -10425
▁잡아먹 -10426
▁케이프 -10427
▁칼럼 -10428
▁동유럽 -10429
▁반란군 -10430
▁오른손 -10431
▁오미 -10432
▁케인 -10433
▁신문사 -10434
▁ㄹㅕㄷㅓㄴ -10435
▁마다가스카르 -10436
▁초빙 -10437
▁테라 -10438
▁동물원 -10439
▁only -10440
▁구마모토 -10441
▁겁 -10442
메스 -10443
체고 -10444
▁서산 -10445
▁재외 -10446
▁지쿠 -10447
▁김정은 -10448
▁루돌프 -10449
체고비나 -10450
무소 -10451
▁섬세 -10452
▁성화 -10453
▁이방 -10454
▁EBS -10455
▁레이싱 -10456
▁앤드루 -10457
▁몸통 -10458
▁차용 -10459
▁한미 -10460
▁미군정 -10461
▁강령 -10462
▁징병 -10463
▁평형 -10464
▁봉수 -10465
▁약혼 -10466
▁한하 -10467
▁공민왕 -10468
▁다저스 -10469
ivers -10470
▁뉴클레오 -10471
ish -10472
▁경시 -10473
▁김원 -10474
▁농경 -10475
▁메카 -10476
▁칙령 -10477
▁통용 -10478
▁배려 -10479
▁재활 -10480
▁밴쿠버 -10481
▁ㄹㅣㄹㅏ -10482
OD -10483
▁대본 -10484
▁바트 -10485
▁송도 -10486
▁신발 -10487
▁통역 -10488
▁허드 -10489
▁윤보선 -10490
GM -10491
▁관문 -10492
▁수필 -10493
▁요지 -10494
▁김규식 -10495
▁유년기 -10496
▁클레이 -10497
▁헬리콥터 -10498
▁괄 -10499
환경 -10500
▁가솔 -10501
▁에프 -10502
▁영예 -10503
▁창문 -10504
▁특전 -10505
▁동대문 -10506
▁레이크 -10507
바흐 -10508
▁전래 -10509
▁절망 -10510
▁주입 -10511
▁탑신 -10512
▁하류 -10513
▁MTV -10514
▁부원군 -10515
통일 -10516
▁극한 -10517
▁로얄 -10518
▁포식 -10519
▁예정자 -10520
▁경희 -10521
▁나우 -10522
▁메뉴 -10523
▁일당 -10524
▁총애 -10525
▁정의당 -10526
▁친위대 -10527
▁Jo -10528
▁독창 -10529
▁지오 -10530
▁총통 -10531
▁커플 -10532
▁비타민 -10533
▁성남시 -10534
▁크라이 -10535
코토 -10536
▁예수회 -10537
▁위너스 -10538
▁해리슨 -10539
▁남산 -10540
▁마술 -10541
▁산호 -10542
▁욕망 -10543
▁리조트 -10544
▁메이커 -10545
▁ㄴㅡㄴㄷㅏㅁㅕㄴ -10546
▁NT -10547
▁명소 -10548
▁시노 -10549
▁카테 -10550
▁케플러 -10551
▁경호 -10552
▁나인 -10553
▁시부 -10554
▁편제 -10555
▁포착 -10556
▁호스 -10557
▁솔로몬 -10558
▁ex -10559
▁검정 -10560
▁제노 -10561
▁진해 -10562
토랑 -10563
▁보행 -10564
▁뾰족 -10565
▁아날 -10566
▁찬양 -10567
▁하반 -10568
▁대대로 -10569
▁사각형 -10570
▁레스토랑 -10571
어사 -10572
▁담보 -10573
▁안녕 -10574
▁도교 -10575
▁보라 -10576
▁카지 -10577
▁데려오 -10578
▁제퍼슨 -10579
▁컴퓨팅 -10580
▁유혹 -10581
▁파도 -10582
▁하키 -10583
▁고속버스 -10584
RA -10585
▁얕 -10586
oun -10587
▁대북 -10588
▁모의 -10589
▁시몬 -10590
▁실정 -10591
▁화엄 -10592
원수 -10593
▁당연 -10594
▁마차 -10595
▁차갑 -10596
▁플라톤 -10597
매매 -10598
▁관청 -10599
▁모호 -10600
▁사역 -10601
▁소극 -10602
▁소음 -10603
▁아키라 -10604
천면 -10605
▁남해 -10606
▁스가 -10607
▁테리 -10608
▁대합실 -10609
▁클린턴 -10610
▁해리스 -10611
▁벅 -10612
▁광도 -10613
▁추이 -10614
▁브루스 -10615
EL -10616
라니 -10617
lat -10618
▁가맹 -10619
▁매리 -10620
▁천왕 -10621
▁긴테쓰 -10622
fe -10623
에스 -10624
are -10625
▁반기 -10626
▁수양 -10627
▁찬사 -10628
▁침묵 -10629
▁보로 -10630
▁블레 -10631
▁블로 -10632
▁황소 -10633
▁스톡홀름 -10634
az -10635
신문 -10636
▁씨앗 -10637
▁지로 -10638
▁효자 -10639
▁Fr -10640
▁국공 -10641
▁드미 -10642
▁불변 -10643
▁자제 -10644
▁최진 -10645
ical -10646
▁스테파 -10647
▁북아일랜드 -10648
▁허정 -10649
▁서재필 -10650
▁오리온 -10651
EG -10652
▁다테 -10653
▁선천 -10654
▁전한 -10655
▁방어선 -10656
▁알프스 -10657
▁요시다 -10658
▁멍 -10659
▁가늘 -10660
▁김유 -10661
▁마켓 -10662
▁이점 -10663
▁프론 -10664
▁바이트 -10665
▁아나톨 -10666
▁@ -10667
지능 -10668
히트 -10669
▁무실 -10670
▁주임 -10671
▁캐롤 -10672
▁인공지능 -10673
▁sc -10674
▁드루 -10675
▁럭비 -10676
▁리보 -10677
▁박종 -10678
▁폭파 -10679
▁개구리 -10680
▁리프트 -10681
▁총사령관 -10682
include -10683
▁들여 -10684
▁시중 -10685
블랜드 -10686
러브 -10687
▁도둑 -10688
▁만장 -10689
▁본성 -10690
▁수복 -10691
▁제물 -10692
▁분류군 -10693
▁넷째 -10694
▁색소 -10695
▁ABC -10696
▁결별 -10697
▁채취 -10698
▁타스 -10699
▁피라미 -10700
▁샐 -10701
▁별세 -10702
▁화약 -10703
▁보수당 -10704
▁아키타 -10705
TP -10706
▁": -10707
▁CH -10708
▁스텝 -10709
▁어군 -10710
▁카피 -10711
▁클리블랜드 -10712
정원 -10713
▁엄밀 -10714
덴부르크 -10715
창호 -10716
▁DD -10717
▁전담 -10718
▁포토 -10719
▁뛰어들 -10720
대표 -10721
▁AV -10722
▁고든 -10723
▁로버 -10724
▁모어 -10725
▁영유 -10726
▁원통 -10727
▁정거 -10728
▁나트륨 -10729
▁마천루 -10730
▁토스카 -10731
▁함경남도 -10732
▁전무 -10733
▁투자자 -10734
▁프린스 -10735
▁벤처 -10736
▁일리 -10737
▁천국 -10738
▁210 -10739
▁비밀리 -10740
▁초신성 -10741
▁ㄹㅏㅅㅓ -10742
▁리사 -10743
▁야전 -10744
▁퇴직 -10745
▁가이드 -10746
놀이 -10747
▁구두 -10748
▁로우 -10749
▁마셜 -10750
▁슬픔 -10751
▁내야수 -10752
▁타이거스 -10753
▁콘스탄티노폴리스 -10754
▁쾰른 -10755
▁로드리 -10756
▁선구자 -10757
▁자치주 -10758
카리 -10759
▁방콕 -10760
▁소중 -10761
▁극우 -10762
▁동향 -10763
▁웨인 -10764
▁유선 -10765
▁제명 -10766
▁치과 -10767
▁서대문 -10768
▁알파벳 -10769
란토 -10770
사고 -10771
▁ㅌㅣ -10772
▁백두 -10773
▁약사 -10774
▁정형 -10775
▁차출 -10776
▁켈트 -10777
▁대원군 -10778
▁노론 -10779
▁리베 -10780
▁로크 -10781
▁묘비 -10782
▁실권 -10783
▁위그 -10784
▁안테나 -10785
▁따지 -10786
▁ATP -10787
▁여유 -10788
▁펌프 -10789
▁홀리 -10790
▁경전철 -10791
▁동시대 -10792
▁유아기 -10793
부르 -10794
▁김형 -10795
▁왕권 -10796
▁장시 -10797
▁천거 -10798
▁파손 -10799
▁유격수 -10800
메드 -10801
▁종식 -10802
▁중합 -10803
공산당 -10804
▁주차장 -10805
▁가브리엘 -10806
▁피아니스트 -10807
▁멧 -10808
▁삼림 -10809
▁아이폰 -10810
▁앞장서 -10811
▁타이어 -10812
▁튀르크 -10813
FL -10814
대사 -10815
▁구실 -10816
▁미수 -10817
▁플리 -10818
▁적외선 -10819
▁봇 -10820
▁밸리 -10821
▁형질 -10822
클레 -10823
▁강렬 -10824
▁목회 -10825
▁야드 -10826
▁톈진 -10827
▁헬싱 -10828
▁드디어 -10829
▁용인시 -10830
▁정부군 -10831
수스 -10832
▁감상 -10833
▁이의 -10834
▁책임지 -10835
암동 -10836
휴일 -10837
ica -10838
▁감찰 -10839
▁마에 -10840
▁상행 -10841
▁스칸 -10842
▁가락 -10843
▁감성 -10844
▁유목 -10845
▁임정 -10846
▁연극배우 -10847
소통 -10848
▁간첩 -10849
▁그저 -10850
▁불참 -10851
▁사방 -10852
▁사설 -10853
▁친족 -10854
▁캐리 -10855
▁딥 -10856
충류 -10857
▁잇따르 -10858
대교 -10859
말리 -10860
▁매트 -10861
▁뭉치 -10862
해살이 -10863
▁사로잡 -10864
▁콘테스트 -10865
▁헤르체고비나 -10866
▁구내 -10867
▁방치 -10868
▁삽화 -10869
▁마누엘 -10870
▁소말리아 -10871
ey -10872
캐슬 -10873
티넘 -10874
▁리본 -10875
▁악보 -10876
▁애정 -10877
▁왕건 -10878
▁준수 -10879
▁칸국 -10880
▁플래티넘 -10881
▁he -10882
▁공존 -10883
▁실록 -10884
와라노 -10885
▁연산군 -10886
▁프레데 -10887
▁의사소통 -10888
▁후지와라노 -10889
군다 -10890
▁고딕 -10891
▁산성 -10892
▁송신 -10893
▁여권 -10894
▁연말 -10895
▁예약 -10896
▁운임 -10897
▁절정 -10898
▁스트로 -10899
▁1889 -10900
▁브루클린 -10901
60 -10902
▁비엔 -10903
▁사탕 -10904
▁삼존 -10905
▁ㅓㅇㅑ -10906
▁불량 -10907
▁새우 -10908
▁슬하 -10909
▁외형 -10910
▁전전 -10911
▁지자 -10912
▁직통 -10913
테이너 -10914
tern -10915
▁간신히 -10916
▁ㄹㅕㄷㅏ -10917
합성 -10918
▁시네마 -10919
▁열심히 -10920
▁나카무라 -10921
▁니혼 -10922
▁라자 -10923
▁마땅 -10924
▁모하 -10925
▁서임 -10926
▁치환 -10927
▁가솔린 -10928
▁화강암 -10929
▁스카우트 -10930
▁늙 -10931
▁건전 -10932
▁구르 -10933
▁라리 -10934
▁로트 -10935
▁모금 -10936
▁본작 -10937
▁의류 -10938
▁집정 -10939
▁치루 -10940
▁쿠퍼 -10941
▁기관지 -10942
▁두려움 -10943
▁목요일 -10944
▁발라드 -10945
▁가나가와현 -10946
▁대영 -10947
▁징수 -10948
▁무형 -10949
▁아끼 -10950
▁하시 -10951
▁해독 -10952
▁AKB -10953
▁말미암 -10954
▁메디치 -10955
▁브레이 -10956
▁엔트리 -10957
▁오바마 -10958
▁접어들 -10959
▁챙 -10960
▁김준 -10961
▁봉화 -10962
▁중퇴 -10963
▁피지 -10964
▁For -10965
▁패트릭 -10966
sh -10967
망디 -10968
바나 -10969
▁반포 -10970
▁베트 -10971
▁사서 -10972
▁삼중 -10973
▁시크 -10974
▁이송 -10975
▁OST -10976
▁라이더 -10977
난성 -10978
▁백과 -10979
▁영정 -10980
▁도망가 -10981
▁So -10982
▁다윈 -10983
▁메소 -10984
▁요충 -10985
▁뉴캐슬 -10986
AF -10987
위안 -10988
▁유희 -10989
▁토트 -10990
▁Com -10991
부로 -10992
천동 -10993
▁pr -10994
▁격리 -10995
▁능하 -10996
▁모색 -10997
▁비야 -10998
▁로마인 -10999
▁금호 -11000
▁리옹 -11001
▁야시 -11002
▁작물 -11003
▁트렌 -11004
▁한중 -11005
▁해태 -11006
▁피라미드 -11007
bo -11008
가미 -11009
▁볼트 -11010
▁은거 -11011
▁인가 -11012
▁하야 -11013
▁생존자 -11014
IL -11015
▁갈아 -11016
▁송출 -11017
▁호대 -11018
▁츄 -11019
유예 -11020
▁우림 -11021
▁종자 -11022
▁항만 -11023
▁Ma -11024
▁유의 -11025
▁정작 -11026
▁기숙사 -11027
▁낙동강 -11028
▁스타트 -11029
애미 -11030
▁공소 -11031
▁도피 -11032
▁비준 -11033
▁똑같이 -11034
▁Part -11035
▁마이애미 -11036
▁깜 -11037
▁훙 -11038
▁Mo -11039
▁도래 -11040
▁요격 -11041
▁투여 -11042
도르프 -11043
▁장학금 -11044
▁지상파 -11045
▁떨어뜨리 -11046
▁프란체스코 -11047
프로 -11048
▁수락 -11049
▁클러 -11050
▁후배 -11051
추부사 -11052
▁카카오 -11053
교통 -11054
▁권하 -11055
▁앙골 -11056
▁음운 -11057
▁공휴일 -11058
▁토리노 -11059
▁Live -11060
▁미야자키 -11061
풀이 -11062
▁가두 -11063
▁김명 -11064
▁열강 -11065
▁중수 -11066
▁일본국 -11067
▁자유민주당 -11068
▁EU -11069
▁거미 -11070
▁주계 -11071
▁정종 -11072
▁Sou -11073
▁부딪히 -11074
에미리트 -11075
▁아랍에미리트 -11076
▁잠정 -11077
▁당기 -11078
▁병자 -11079
▁의령 -11080
▁정읍 -11081
▁페트 -11082
▁1848 -11083
드레 -11084
▁공성 -11085
▁벨리 -11086
▁서태 -11087
▁양심 -11088
▁워즈 -11089
▁한신 -11090
바이트 -11091
▁어시스트 -11092
▁거란 -11093
▁원군 -11094
▁천주 -11095
▁여배우 -11096
▁튀니지 -11097
▁JTBC -11098
▁프랑스인 -11099
▁연정 -11100
▁광복군 -11101
▁프랑스령 -11102
▁급여 -11103
▁기이 -11104
▁모욕 -11105
▁바지 -11106
▁받치 -11107
▁성곽 -11108
EE -11109
지기 -11110
▁평판 -11111
클리드 -11112
▁미야기 -11113
▁센티미터 -11114
나마 -11115
▁격추 -11116
▁순종 -11117
▁암스 -11118
▁Col -11119
▁유니버설 -11120
uc -11121
화문 -11122
▁귀신 -11123
▁김광 -11124
▁인칭 -11125
▁자서 -11126
▁포털 -11127
마르크 -11128
▁에스페 -11129
▁티아 -11130
▁대리인 -11131
▁에이즈 -11132
▁보수주의 -11133
▁카탈루냐 -11134
에몽 -11135
▁금산 -11136
▁워커 -11137
▁레이더 -11138
▁마이어 -11139
의사 -11140
▁교의 -11141
▁굴절 -11142
▁무과 -11143
▁습윤 -11144
▁응급 -11145
▁탄약 -11146
▁대승불교 -11147
도라 -11148
▁"& -11149
▁랴오 -11150
▁익숙 -11151
▁만화가 -11152
▁무네 -11153
▁조인 -11154
▁국제법 -11155
▁마법사 -11156
▁줄기세포 -11157
▁캅 -11158
▁매킨 -11159
▁해피 -11160
▁대법관 -11161
▁카스티야 -11162
간다 -11163
관계 -11164
▁문집 -11165
하이오 -11166
▁API -11167
▁검은색 -11168
▁여의도 -11169
▁레드삭스 -11170
▁오하이오 -11171
▁쌍대 -11172
▁진로 -11173
▁코리 -11174
▁모건 -11175
▁유식 -11176
▁교통부 -11177
▁사운드트랙 -11178
ann -11179
▁류큐 -11180
▁배분 -11181
▁사쓰 -11182
▁평평 -11183
▁정거장 -11184
▁패러디 -11185
거스 -11186
▁볼로 -11187
▁자명 -11188
▁우루스 -11189
▁지배자 -11190
▁니키 -11191
▁음절 -11192
페스트 -11193
▁Time -11194
▁부합 -11195
레스트 -11196
▁시코쿠 -11197
메니 -11198
▁EM -11199
▁여사 -11200
▁재팬 -11201
▁추력 -11202
▁혼다 -11203
파니아 -11204
▁int -11205
지부 -11206
lay -11207
▁BC -11208
▁권역 -11209
▁수로 -11210
▁한림 -11211
▁아이즈 -11212
row -11213
▁공대 -11214
▁공영 -11215
▁국한 -11216
▁그라운드 -11217
▁기전 -11218
▁김인 -11219
▁리카 -11220
▁여고 -11221
▁재일 -11222
▁총격 -11223
olog -11224
▁SNS -11225
▁바그너 -11226
브로 -11227
▁댄서 -11228
▁동진 -11229
▁비정 -11230
▁안개 -11231
▁점포 -11232
▁추억 -11233
▁대단히 -11234
▁레이트 -11235
▁부총리 -11236
▁정치학 -11237
▁하노버 -11238
▁아날로그 -11239
▁비토 -11240
ous -11241
▁베어 -11242
▁비대 -11243
▁사민 -11244
▁산둥 -11245
▁업자 -11246
▁명확히 -11247
OP -11248
▁검거 -11249
▁국외 -11250
▁라르 -11251
▁로키 -11252
▁사수 -11253
▁치카 -11254
▁대니얼 -11255
▁프란치 -11256
자루 -11257
orn -11258
ows -11259
▁고생 -11260
▁메일 -11261
▁설문 -11262
▁실증 -11263
▁오만 -11264
▁방사능 -11265
▁가혹 -11266
▁도박 -11267
▁동산 -11268
▁지법 -11269
찌르 -11270
현동 -11271
▁근사 -11272
▁종군 -11273
▁시멘트 -11274
서스 -11275
▁GB -11276
▁고로 -11277
▁골격 -11278
▁부다 -11279
▁절벽 -11280
▁제위 -11281
▁특화 -11282
▁하행 -11283
▁커리어 -11284
용차 -11285
▁그랜트 -11286
▁초콜 -11287
▁우한 -11288
▁헬레 -11289
프랑크 -11290
▁고인돌 -11291
▁카메룬 -11292
▁남군 -11293
▁단결 -11294
▁대마 -11295
▁몰아 -11296
▁방대 -11297
▁선명 -11298
▁용액 -11299
▁클라우 -11300
▁문단 -11301
▁셀레 -11302
▁관현악단 -11303
▁경복 -11304
▁연립 -11305
▁오디 -11306
▁케르 -11307
▁법원장 -11308
▁페트로 -11309
▁곶 -11310
▁국교 -11311
▁글꼴 -11312
▁Bla -11313
▁노르망디 -11314
시노 -11315
정동 -11316
▁남방 -11317
▁마테 -11318
▁부평 -11319
▁최선 -11320
드리아 -11321
▁Your -11322
▁앗 -11323
▁관상 -11324
▁모세 -11325
▁무안 -11326
▁범행 -11327
▁신곡 -11328
▁종양 -11329
▁타락 -11330
▁라인업 -11331
▁제우스 -11332
▁헤어지 -11333
버른 -11334
제품 -11335
▁보령 -11336
▁편견 -11337
▁항체 -11338
span -11339
▁131 -11340
▁무찌르 -11341
▁체인지 -11342
▁ㄹㅏㄱㅣ -11343
▁가쿠 -11344
▁메스 -11345
▁소외 -11346
▁황색 -11347
▁대나무 -11348
▁저지대 -11349
▁파일럿 -11350
▁onlyinclude -11351
▁GM -11352
▁가중 -11353
▁꺼내 -11354
▁단군 -11355
▁하코 -11356
▁형벌 -11357
▁NASA -11358
▁촛 -11359
▁가고 -11360
▁간략 -11361
▁모빌 -11362
▁후진 -11363
메이카 -11364
▁정보원 -11365
▁자메이카 -11366
▁쾨 -11367
칼리 -11368
▁선봉 -11369
▁수식 -11370
▁은혜 -11371
▁콘솔 -11372
▁Sch -11373
으로 -11374
▁교부 -11375
▁봉인 -11376
▁사림 -11377
▁중소기업 -11378
▁1883 -11379
▁라디 -11380
▁라바 -11381
▁모범 -11382
▁숙부 -11383
▁절감 -11384
▁영화상 -11385
히사 -11386
▁at -11387
▁보루 -11388
▁녕 -11389
지아 -11390
▁객차 -11391
▁김윤 -11392
▁무작 -11393
▁속력 -11394
▁재편 -11395
▁중엽 -11396
▁원산지 -11397
▁ㄴㄷㅏㅁㅕㄴ -11398
토프 -11399
▁범하 -11400
▁사학 -11401
▁산요 -11402
▁정반 -11403
▁공화정 -11404
▁제이슨 -11405
▁u -11406
센스 -11407
▁기세 -11408
▁노면 -11409
▁전보 -11410
른스트 -11411
▁라파엘 -11412
▁연구회 -11413
▁줄리아 -11414
▁쪼 -11415
amp -11416
▁리즈 -11417
▁야외 -11418
▁연희 -11419
▁판소리 -11420
▁가토 -11421
▁다툼 -11422
▁도키 -11423
▁리마 -11424
▁서귀 -11425
▁피리 -11426
▁전반기 -11427
▁욱 -11428
▁공무 -11429
▁녹화 -11430
▁램프 -11431
▁발상 -11432
▁큐브 -11433
▁에이전 -11434
▁기량 -11435
▁코소 -11436
▁국정원 -11437
워스 -11438
▁SA -11439
▁다듬 -11440
▁식스 -11441
▁엔드 -11442
▁유공 -11443
▁유우 -11444
▁적료 -11445
▁평지 -11446
▁플러 -11447
▁할인 -11448
네그로 -11449
▁해상도 -11450
▁하남 -11451
▁ref -11452
▁고분군 -11453
▁교향악단 -11454
▁유클리드 -11455
80 -11456
▁본뜨 -11457
▁열전 -11458
▁항우 -11459
▁날아가 -11460
▁부상자 -11461
▁스칼라 -11462
CC -11463
▁안방 -11464
▁위조 -11465
빌라이 -11466
▁비서관 -11467
ood -11468
▁Ge -11469
▁ㅅㅕ -11470
▁기와 -11471
▁무섭 -11472
▁분단 -11473
▁조교 -11474
티모어 -11475
▁북유럽 -11476
▁텍사스주 -11477
ink -11478
▁고의 -11479
▁병마 -11480
▁안나 -11481
▁카마 -11482
ern -11483
▁스루 -11484
▁씨족 -11485
▁외래 -11486
▁이터 -11487
▁자수 -11488
▁탄자 -11489
스트리 -11490
▁뫼 -11491
▁Or -11492
▁사영 -11493
▁온난 -11494
▁이회 -11495
▁지석 -11496
▁멜버른 -11497
▁연장전 -11498
▁가우 -11499
▁상어 -11500
▁송파 -11501
▁수위 -11502
▁다이어 -11503
▁선진국 -11504
▁스캔들 -11505
▁Wind -11506
돌이 -11507
프턴 -11508
▁RS -11509
▁도네 -11510
▁콜럼 -11511
▁노벨상 -11512
▁위구르 -11513
▁프로모 -11514
▁1882 -11515
RT -11516
치히 -11517
▁계주 -11518
▁세습 -11519
▁헤이안 -11520
에고 -11521
▁위로 -11522
▁통신사 -11523
▁ㅇㅡㄹㅣ -11524
데라 -11525
▁어기 -11526
▁우산 -11527
▁지극 -11528
▁피치 -11529
▁다이노스 -11530
II -11531
▁콥 -11532
화학 -11533
▁OB -11534
▁RP -11535
▁간사 -11536
▁관례 -11537
▁단속 -11538
▁대인 -11539
▁요양 -11540
▁카네 -11541
ㄷㅐ -11542
ost -11543
▁tv -11544
▁멋지 -11545
▁족보 -11546
▁함량 -11547
▁토마토 -11548
▁프로그래머 -11549
US -11550
▁결사 -11551
▁관악 -11552
▁몰타 -11553
▁왕궁 -11554
▁요절 -11555
▁파벌 -11556
▁너무나 -11557
▁대좌 -11558
▁동적 -11559
▁부교 -11560
▁표정 -11561
▁거성 -11562
▁내일 -11563
▁시안 -11564
▁군사력 -11565
▁아이언 -11566
▁카스트 -11567
40 -11568
▁루키 -11569
▁성원 -11570
▁월터 -11571
▁유생 -11572
▁재래 -11573
▁330 -11574
▁해안선 -11575
▁강행 -11576
▁북군 -11577
▁사안 -11578
▁유서 -11579
▁주선 -11580
▁회귀 -11581
▁야마가타 -11582
▁받들 -11583
▁정정 -11584
▁최영 -11585
▁후예 -11586
▁Day -11587
▁미토콘 -11588
▁산티아 -11589
▁관계없이 -11590
▁미토콘드리아 -11591
팡이 -11592
협회 -11593
▁배달 -11594
▁세련 -11595
▁장덕 -11596
▁천수 -11597
갈리 -11598
▁고흥 -11599
▁급증 -11600
▁선대 -11601
▁정은 -11602
▁올리브 -11603
▁중공군 -11604
▁히브리 -11605
▁Girl -11606
▁La -11607
▁내력 -11608
▁법관 -11609
▁정월 -11610
▁항원 -11611
▁기념일 -11612
▁영원히 -11613
▁파시즘 -11614
▁필립스 -11615
▁쿠빌라이 -11616
융합 -11617
▁동포 -11618
▁부왕 -11619
▁붙잡 -11620
▁성동 -11621
▁출자 -11622
▁협업 -11623
▁시즈오카 -11624
▁고노 -11625
▁랭크 -11626
스탄불 -11627
▁대상자 -11628
▁대표자 -11629
▁폐기물 -11630
▁미스터리 -11631
▁이스탄불 -11632
▁덮개 -11633
▁리믹스 -11634
▁부파 -11635
▁직속 -11636
▁항로 -11637
▁독수리 -11638
▁사이타마 -11639
▁어파 -11640
▁우시 -11641
▁우월 -11642
▁종영 -11643
▁데니스 -11644
▁부르주 -11645
▁사업소 -11646
▁슈퍼컵 -11647
▁핵융합 -11648
▁효고현 -11649
▁ㅇㅕㅅㅓ -11650
포시 -11651
호란 -11652
▁부치 -11653
▁상록 -11654
▁서면 -11655
▁수열 -11656
▁식용 -11657
▁사로잡히 -11658
▁몹 -11659
▁단말 -11660
▁빙하 -11661
▁잠깐 -11662
▁조셉 -11663
▁LED -11664
▁단체전 -11665
▁해운대 -11666
▁FK -11667
▁남하 -11668
▁아목 -11669
▁조슈 -11670
▁형편 -11671
▁레오폴 -11672
▁프랜차 -11673
▁호스트 -11674
▁컨트롤러 -11675
▁렛 -11676
게스 -11677
▁발동 -11678
▁베풀 -11679
▁얽히 -11680
▁주창 -11681
▁무실점 -11682
▁냥 -11683
여객 -11684
▁러일 -11685
▁소프 -11686
▁타수 -11687
오르크 -11688
▁4000 -11689
▁사회민주당 -11690
OT -11691
▁군벌 -11692
▁노사 -11693
▁보름 -11694
▁스콜 -11695
▁제천 -11696
▁테네시 -11697
서니 -11698
oll -11699
▁강당 -11700
▁넬슨 -11701
▁대진 -11702
▁산시 -11703
▁증폭 -11704
▁켄트 -11705
▁피드 -11706
▁서사시 -11707
▁번창 -11708
▁양보 -11709
▁ㅅㅕㄴ -11710
▁1868 -11711
▁컨테이너 -11712
지리 -11713
해자 -11714
▁사치 -11715
▁신입 -11716
▁태후 -11717
▁오스틴 -11718
▁오일러 -11719
▁관목 -11720
▁규탄 -11721
▁버터 -11722
▁사천 -11723
▁안티오 -11724
▁아케이드 -11725
▁프랜차이즈 -11726
▁괌 -11727
▁아유 -11728
▁염려 -11729
▁위력 -11730
▁여성주의 -11731
▁교직 -11732
▁내분 -11733
▁밝혀 -11734
▁고트 -11735
▁금전 -11736
▁딜런 -11737
▁라미 -11738
▁분사 -11739
▁양수 -11740
▁제단 -11741
▁법조인 -11742
▁앙골라 -11743
▁제갈량 -11744
▁휴게소 -11745
본부 -11746
▁전수 -11747
▁메릴랜드 -11748
▁과테 -11749
▁라카 -11750
▁성악 -11751
▁증오 -11752
▁베이커 -11753
▁과테말라 -11754
▁겨루 -11755
▁능동 -11756
▁시비 -11757
▁급속히 -11758
▁데려가 -11759
▁배역 -11760
▁오아 -11761
▁전세 -11762
▁점거 -11763
▁퍼즐 -11764
▁하의 -11765
▁각료 -11766
▁농지 -11767
▁밀레 -11768
▁수다 -11769
▁호아 -11770
▁320 -11771
▁경주시 -11772
▁파푸아 -11773
히드 -11774
▁국철 -11775
▁습관 -11776
▁영덕 -11777
▁일각 -11778
▁절제 -11779
▁접종 -11780
▁청계 -11781
▁로마자 -11782
▁가고시마 -11783
▁공안 -11784
▁밝혀내 -11785
▁야마모토 -11786
▁찢 -11787
▁너머 -11788
웨이트 -11789
펜하겐 -11790
▁new -11791
▁발전기 -11792
▁레인저스 -11793
▁코펜하겐 -11794
▁몬테네그로 -11795
▁암스테르담 -11796
▁놈 -11797
▁안무 -11798
▁저조 -11799
▁척도 -11800
▁초안 -11801
▁축전 -11802
▁카세 -11803
▁베르나르 -11804
바오 -11805
▁박성 -11806
▁외과 -11807
▁정령 -11808
▁대명사 -11809
▁우의정 -11810
당기 -11811
▁노후 -11812
▁데드 -11813
▁생리 -11814
▁컨설 -11815
▁타리 -11816
▁트이 -11817
▁사이먼 -11818
걸이 -11819
게임 -11820
▁고온 -11821
▁넥센 -11822
▁우연 -11823
▁이항 -11824
▁지난 -11825
▁헌장 -11826
▁복음주의 -11827
▁TR -11828
▁바울 -11829
▁우왕 -11830
▁이메 -11831
▁잔인 -11832
▁치하 -11833
▁요충지 -11834
▁지붕돌 -11835
▁산티아고 -11836
▁프란시스코 -11837
웍스 -11838
▁거처 -11839
▁수량 -11840
▁장병 -11841
▁정몽 -11842
▁종신 -11843
▁출동 -11844
▁치유 -11845
▁편향 -11846
ㄹㅏㄷㅗ -11847
▁에스페란토 -11848
▁후쿠오카현 -11849
▁복종 -11850
▁이바지 -11851
▁코스타리카 -11852
▁늪 -11853
독립 -11854
▁DF -11855
▁망치 -11856
▁배드 -11857
▁양대 -11858
19 -11859
나드 -11860
▁성산 -11861
▁소아 -11862
▁주심 -11863
ㄲㅡㅁ -11864
▁ㄱㅔㄲㅡㅁ -11865
LA -11866
les -11867
▁다우 -11868
▁브릿 -11869
▁자진 -11870
▁자서전 -11871
▁마이크로 -11872
▁도상 -11873
▁상국 -11874
▁서스 -11875
▁서주 -11876
▁영월 -11877
▁ㄹㅓㄴ -11878
▁루이지애나 -11879
▁김선 -11880
▁사비 -11881
▁조영 -11882
▁차선 -11883
▁충렬 -11884
▁피핀 -11885
▁서바이 -11886
▁신주쿠 -11887
▁좌의정 -11888
▁화장품 -11889
디나비아 -11890
▁스칸디나비아 -11891
gr -11892
▁대도 -11893
▁위촉 -11894
▁이아 -11895
▁그만큼 -11896
▁위안부 -11897
▁주계열 -11898
▁네티 -11899
▁샤프 -11900
▁슈테 -11901
▁톰슨 -11902
▁페더 -11903
▁end -11904
▁수요일 -11905
▁요하네스 -11906
▁쿠웨이트 -11907
ung -11908
▁천마 -11909
▁헌터 -11910
아다니 -11911
▁포르노 -11912
퍼레이션 -11913
▁이탈리아어 -11914
▁슌 -11915
▁끊기 -11916
▁노랗 -11917
▁은신 -11918
▁철강 -11919
▁동맹국 -11920
꼬리 -11921
▁소대 -11922
▁순차 -11923
▁자재 -11924
▁청도 -11925
▁추서 -11926
▁거지 -11927
▁대차 -11928
▁리코 -11929
▁축산 -11930
▁"() -11931
▁결과물 -11932
▁텔레콤 -11933
▁가면라이더 -11934
익스 -11935
▁NP -11936
▁정재 -11937
▁타일 -11938
토리코 -11939
▁도자기 -11940
▁에른스트 -11941
▁le -11942
▁모차 -11943
▁영암 -11944
▁직행 -11945
▁김옥균 -11946
▁서해안 -11947
▁맬 -11948
▁결핵 -11949
▁온대 -11950
▁타로 -11951
▁피크 -11952
▁해왕 -11953
라이드 -11954
▁김승 -11955
▁대청 -11956
▁전락 -11957
▁카툰 -11958
▁하타 -11959
▁브뤼셀 -11960
▁시트콤 -11961
▁갯 -11962
▁촐 -11963
▁고집 -11964
▁대덕 -11965
▁주성 -11966
▁부르고 -11967
▁Comp -11968
▁육군사관학교 -11969
OW -11970
▁톡 -11971
공주 -11972
레드 -11973
우에 -11974
▁노아 -11975
▁배양 -11976
▁충무 -11977
▁함흥 -11978
▁후유 -11979
▁교육자 -11980
▁철저히 -11981
▁게오르크 -11982
▁니콜라스 -11983
려들 -11984
▁긴밀 -11985
▁리튬 -11986
▁문종 -11987
▁압록 -11988
▁전학 -11989
▁준장 -11990
▁칭송 -11991
▁탈취 -11992
▁203 -11993
▁데이브 -11994
▁유적지 -11995
▁컬렉션 -11996
▁트리오 -11997
▁colspan -11998
니파 -11999
▁대종 -12000
▁차츰 -12001
▁첼로 -12002
▁측량 -12003
▁초콜릿 -12004
단지 -12005
어넣 -12006
▁by -12007
▁레프 -12008
▁문무 -12009
▁바비 -12010
▁오하 -12011
▁코네 -12012
로이드 -12013
▁데일리 -12014
▁케이크 -12015
▁푸에르토리코 -12016
▁격려 -12017
▁낚시 -12018
▁박상 -12019
▁원활 -12020
▁재발 -12021
▁짐승 -12022
▁글래스 -12023
▁로스쿨 -12024
▁도카이도 -12025
▁기쁨 -12026
▁스킴 -12027
▁아흐 -12028
▁앤디 -12029
▁이우 -12030
▁집착 -12031
▁기업가 -12032
▁1893 -12033
나기 -12034
셀러 -12035
업자 -12036
gin -12037
▁Fe -12038
▁공양 -12039
▁미성 -12040
▁페오 -12041
▁폐렴 -12042
▁한큐 -12043
▁280 -12044
▁가라앉 -12045
▁장로교 -12046
▁지리학 -12047
상시 -12048
eth -12049
▁내무 -12050
▁온화 -12051
▁헤로 -12052
▁흡사 -12053
▁흥분 -12054
▁백악 -12055
▁조니 -12056
▁하급 -12057
▁막판 -12058
▁선인 -12059
▁심포 -12060
▁학장 -12061
▁아라곤 -12062
▁윗부분 -12063
▁펠릭스 -12064
▁플랑크 -12065
▁해안가 -12066
▁플로리다주 -12067
▁갚 -12068
▁관성 -12069
▁김치 -12070
▁아쉽 -12071
▁조제 -12072
▁생리학 -12073
▁지바현 -12074
세유 -12075
▁단정 -12076
▁영천 -12077
▁월트 -12078
▁천천 -12079
▁IOC -12080
▁어웨이 -12081
IR -12082
▁과시 -12083
▁끓이 -12084
▁도출 -12085
▁스포르 -12086
▁천안시 -12087
▁가르시아 -12088
티에 -12089
▁AB -12090
▁금동 -12091
▁반동 -12092
▁아와 -12093
▁우두 -12094
▁유족 -12095
▁도야마 -12096
몬트 -12097
바리 -12098
▁도이 -12099
▁앨리 -12100
▁주세 -12101
▁침례 -12102
▁TBS -12103
▁노미야 -12104
▁민병대 -12105
▁비스타 -12106
▁아우르 -12107
▁함경북도 -12108
▁핼 -12109
▁관우 -12110
▁굳히 -12111
▁입헌 -12112
▁칼슘 -12113
루이스 -12114
▁논리학 -12115
▁유학자 -12116
▁프리스 -12117
▁Univers -12118
북구 -12119
▁에로 -12120
▁점검 -12121
▁천천히 -12122
▁Rock -12123
▁핏 -12124
▁까마 -12125
▁림프 -12126
▁마트 -12127
▁심부 -12128
▁제철 -12129
▁조롱 -12130
▁특기 -12131
▁탄자니아 -12132
계승 -12133
▁격하 -12134
▁발목 -12135
▁심상 -12136
▁애인 -12137
▁유영 -12138
▁한문 -12139
▁Rec -12140
▁국제선 -12141
▁로베르 -12142
▁부르고뉴 -12143
들러 -12144
▁간직 -12145
▁버러 -12146
▁소동 -12147
▁아츠 -12148
▁유포 -12149
▁이황 -12150
▁서초구 -12151
▁픽처스 -12152
▁과잉 -12153
▁위즈 -12154
▁전미 -12155
▁Sup -12156
▁게오르 -12157
▁발사체 -12158
▁사상가 -12159
익스피어 -12160
▁덥 -12161
▁가부 -12162
▁귀속 -12163
▁배리 -12164
▁공방전 -12165
▁동맹군 -12166
▁셰익스피어 -12167
oth -12168
▁상정 -12169
▁소사 -12170
▁카레 -12171
▁우울증 -12172
▁하이퍼 -12173
▁대주 -12174
▁마타 -12175
▁버섯 -12176
▁심문 -12177
▁용품 -12178
▁중고 -12179
▁녹색당 -12180
▁조선왕 -12181
▁미나모토 -12182
▁참모총장 -12183
▁Su -12184
▁라드 -12185
▁라흐 -12186
▁세레 -12187
▁톱니 -12188
▁휴양 -12189
▁고려사 -12190
▁더블린 -12191
▁인플레이션 -12192
▁펫 -12193
▁공법 -12194
▁구금 -12195
▁구독 -12196
▁구치 -12197
▁미츠 -12198
▁사귀 -12199
▁위계 -12200
▁재차 -12201
▁특사 -12202
▁순양함 -12203
▁가와사키 -12204
국적 -12205
▁명인 -12206
▁쇠고기 -12207
▁인공위성 -12208
▁IV -12209
▁견고 -12210
▁김천 -12211
▁무단 -12212
▁배기 -12213
▁한번 -12214
▁서포터 -12215
▁수나라 -12216
▁카운트 -12217
▁중앙은행 -12218
▁ㅇㅡㄹㅕㄴㅡㄴ -12219
태평 -12220
▁강성 -12221
▁비지 -12222
▁청량 -12223
▁황산 -12224
민스터 -12225
▁도르트 -12226
▁ㅇㅡㅅㅣ -12227
▁당뇨 -12228
▁명부 -12229
▁물결 -12230
▁불경 -12231
▁아메 -12232
▁악곡 -12233
▁에바 -12234
▁웃음 -12235
▁자립 -12236
▁장녀 -12237
▁파편 -12238
▁강화도 -12239
▁절도사 -12240
그마 -12241
▁고스 -12242
▁메틸 -12243
▁스투 -12244
▁경계선 -12245
▁성매매 -12246
▁데스크톱 -12247
폭탄 -12248
mer -12249
▁시속 -12250
▁에마 -12251
▁이바라 -12252
▁평안도 -12253
▁헤라클 -12254
▁미아 -12255
▁슈타 -12256
▁슬램 -12257
▁조현 -12258
▁직계 -12259
▁풍습 -12260
▁현판 -12261
로니아 -12262
▁스탠드 -12263
▁차세대 -12264
▁휘말리 -12265
▁박테리아 -12266
▁노랑 -12267
▁대접 -12268
▁소용 -12269
▁연회 -12270
▁제창 -12271
▁230 -12272
▁GNU -12273
▁ㄹㅏㅁ -12274
▁율리우스 -12275
▁CG -12276
▁나뭇 -12277
▁노프 -12278
▁성기 -12279
▁원유 -12280
▁주먹 -12281
▁USB -12282
▁밀려나 -12283
▁산스크 -12284
▁러시아군 -12285
▁산스크리트 -12286
▁Do -12287
▁살라 -12288
▁축성 -12289
▁코호 -12290
▁피사 -12291
▁다이빙 -12292
▁1892 -12293
▁상관없이 -12294
▁펩 -12295
비안 -12296
유사 -12297
▁코사 -12298
▁베르타 -12299
▁ㅇㅡㄹㅏ -12300
▁마르세유 -12301
▁프레임워크 -12302
연수 -12303
자동 -12304
트르 -12305
▁공시 -12306
▁데미 -12307
▁옥타 -12308
▁이범 -12309
▁향기 -12310
▁Car -12311
▁스탠리 -12312
▁1888 -12313
▁뮐 -12314
네임 -12315
헤드 -12316
▁면모 -12317
▁사변 -12318
▁이은 -12319
비크 -12320
▁끼우 -12321
▁발자 -12322
▁산수 -12323
▁유무 -12324
▁자코 -12325
▁장래 -12326
▁재앙 -12327
▁아브라 -12328
▁꾸리 -12329
▁리차 -12330
▁불사 -12331
▁시우 -12332
▁울릉 -12333
▁형용 -12334
▁금나라 -12335
▁로이드 -12336
▁물려주 -12337
ublic -12338
▁ㄷㅏㅁㅕㄴㅅㅓ -12339
▁계량 -12340
▁과연 -12341
▁닉슨 -12342
▁불계승 -12343
▁서기관 -12344
▁세비야 -12345
▁수차례 -12346
▁케이트 -12347
▁from -12348
ah -12349
▁푹 -12350
▁Sw -12351
▁강진 -12352
▁계보 -12353
▁네모 -12354
▁라즈 -12355
▁애초 -12356
▁에반 -12357
▁하임 -12358
미디어 -12359
▁관현악 -12360
▁세네갈 -12361
▁허드슨 -12362
▁미식 -12363
▁사키 -12364
▁어의 -12365
▁펠트 -12366
▁후하 -12367
▁문자열 -12368
▁쫓아내 -12369
▁펠리페 -12370
▁대중교통 -12371
▁볼티모어 -12372
▁깁 -12373
▁덱 -12374
쓰기 -12375
연의 -12376
▁ar -12377
▁동종 -12378
▁반주 -12379
▁카야 -12380
▁퇴위 -12381
▁필하 -12382
▁로빈슨 -12383
▁자라나 -12384
둘기 -12385
▁거룩 -12386
▁매달 -12387
▁모던 -12388
▁수력 -12389
▁순례 -12390
▁정진 -12391
▁사커 -12392
▁이봉 -12393
▁소학교 -12394
▁유전학 -12395
▁좌표계 -12396
보리 -12397
▁농축 -12398
▁변종 -12399
▁이나 -12400
▁포츠 -12401
▁대공국 -12402
▁활동가 -12403
티노 -12404
ron -12405
▁머니 -12406
▁복싱 -12407
▁청송 -12408
▁애덤스 -12409
▁조승우 -12410
AE -12411
철수 -12412
코르 -12413
홍색 -12414
▁나름 -12415
▁대금 -12416
▁붕어 -12417
▁페스 -12418
▁해결책 -12419
▁1876 -12420
사태 -12421
▁납부 -12422
▁맥아 -12423
▁시문 -12424
▁이산 -12425
▁펀드 -12426
▁게시판 -12427
▁고려대 -12428
▁볼로냐 -12429
▁참의원 -12430
▁후원자 -12431
DA -12432
▁뱃 -12433
▁군데 -12434
▁단조 -12435
▁서예 -12436
▁재결 -12437
▁우에스기 -12438
▁프린스턴 -12439
▁알렉산드로스 -12440
다보 -12441
▁당황 -12442
▁선양 -12443
▁아디 -12444
▁약점 -12445
▁토이 -12446
▁다카라 -12447
▁대전차 -12448
▁레이디 -12449
▁보좌관 -12450
▁아무리 -12451
▁굶 -12452
▁펭 -12453
네트 -12454
라호 -12455
▁co -12456
▁박수 -12457
▁부류 -12458
▁해병 -12459
▁주니치 -12460
로쿠 -12461
▁너스 -12462
▁니켈 -12463
▁도제 -12464
▁새뮤 -12465
▁채색 -12466
▁꽂 -12467
▁씻 -12468
▁사간원 -12469
▁프리미엄 -12470
▁노스캐롤라이나 -12471
뮬러 -12472
큐어 -12473
▁구문 -12474
▁군관 -12475
▁낙양 -12476
▁본체 -12477
▁스모 -12478
▁임계 -12479
▁죄수 -12480
▁파파 -12481
▁브래드 -12482
▁사절단 -12483
▁레버 -12484
▁미미 -12485
▁부양 -12486
▁Gre -12487
▁바이어 -12488
▁이즈미 -12489
ational -12490
▁웨스트민스터 -12491
광성 -12492
▁도하 -12493
▁라시 -12494
▁물류 -12495
▁중일 -12496
▁통폐 -12497
▁교구장 -12498
▁민영화 -12499
▁북조선 -12500
▁올리버 -12501
▁용의자 -12502
▁장난감 -12503
▁토트넘 -12504
▁1866 -12505
암리 -12506
▁ML -12507
▁댓글 -12508
▁도약 -12509
▁마구 -12510
▁바시 -12511
▁박자 -12512
▁수하 -12513
▁신진 -12514
▁에리 -12515
▁사단장 -12516
▁쏟아지 -12517
▁집행유예 -12518
다오 -12519
▁경무 -12520
▁긴키 -12521
▁깃털 -12522
▁백자 -12523
▁유능 -12524
▁앤서니 -12525
분열 -12526
▁SH -12527
▁송환 -12528
▁이호 -12529
▁전권 -12530
▁중개 -12531
리카락 -12532
른베르크 -12533
▁1886 -12534
▁머리카락 -12535
▁SV -12536
▁마린 -12537
▁알폰 -12538
▁애슬 -12539
▁오메 -12540
▁제르 -12541
▁조개 -12542
▁초전 -12543
러뜨리 -12544
▁간사이 -12545
▁스테판 -12546
▁장제스 -12547
▁wh -12548
▁실각 -12549
▁익명 -12550
▁베이비 -12551
▁구스타프 -12552
▁브리티시 -12553
▁두각 -12554
▁산청 -12555
▁습득 -12556
▁여건 -12557
▁유머 -12558
▁일진 -12559
▁260 -12560
▁전주시 -12561
ble -12562
▁간혹 -12563
▁광선 -12564
▁레트 -12565
▁ㄹㄹㅏ -12566
▁바람직 -12567
▁코소보 -12568
▁페미니 -12569
▁Tour -12570
슈타 -12571
우회 -12572
▁로브 -12573
▁모라 -12574
▁생모 -12575
▁손녀 -12576
▁유다 -12577
▁작중 -12578
▁저우 -12579
▁조소 -12580
▁경영학 -12581
▁독립군 -12582
▁조나라 -12583
▁프란치스코 -12584
EST -12585
▁원상 -12586
르타뉴 -12587
▁역사학 -12588
▁브르타뉴 -12589
▁페르난도 -12590
▁베이시스트 -12591
꿈치 -12592
▁무수 -12593
▁비우 -12594
▁아자 -12595
▁요괴 -12596
▁천지 -12597
▁프루 -12598
▁270 -12599
▁구획 -12600
▁발의 -12601
▁산물 -12602
▁얼룩 -12603
▁완도 -12604
▁촛불 -12605
▁출혈 -12606
▁쿼크 -12607
▁행방 -12608
land -12609
▁스테이 -12610
▁스테인 -12611
짜기 -12612
▁마티 -12613
▁엘런 -12614
▁차수 -12615
▁펠로 -12616
▁펴내 -12617
▁포탄 -12618
▁표하 -12619
▁보안법 -12620
▁통폐합 -12621
레시 -12622
▁KB -12623
▁도성 -12624
▁번갈 -12625
▁파커 -12626
▁덩어리 -12627
▁삼각주 -12628
▁1887 -12629
▁베네딕토 -12630
너드 -12631
하임 -12632
▁장애물 -12633
▁1861 -12634
▁대한항공 -12635
▁배척 -12636
▁빅뱅 -12637
▁세분 -12638
▁타구 -12639
▁현과 -12640
▁Wii -12641
▁모나코 -12642
▁바로크 -12643
▁도미니카 -12644
▁모차르트 -12645
▁Dream -12646
▁삼국지연의 -12647
▁마나 -12648
▁위시 -12649
▁잘리 -12650
▁사쓰마 -12651
▁축구팀 -12652
▁코스트 -12653
▁재단법인 -12654
▁여타 -12655
▁지아 -12656
▁근거지 -12657
▁새뮤얼 -12658
ition -12659
▁프로모션 -12660
AI -12661
▁동창 -12662
▁외환 -12663
▁지면 -12664
▁포화 -12665
▁합천 -12666
▁홍성 -12667
▁강서구 -12668
▁부분군 -12669
▁홈경기 -12670
▁1850 -12671
▁Life -12672
지오 -12673
클라 -12674
ult -12675
▁강세 -12676
▁경매 -12677
▁내포 -12678
▁사내 -12679
▁오일 -12680
▁생성물 -12681
▁화요일 -12682
▁유니버스 -12683
▁무자 -12684
▁올레 -12685
▁자판 -12686
▁공연장 -12687
▁해석학 -12688
▁마르쿠스 -12689
▁카르타고 -12690
▁RT -12691
▁it -12692
▁완결 -12693
브리드 -12694
▁개정안 -12695
▁컨텐츠 -12696
▁드미트리 -12697
▁싹 -12698
orm -12699
▁Up -12700
▁가닥 -12701
▁세무 -12702
▁슬프 -12703
▁오대 -12704
▁음주 -12705
▁정예 -12706
▁피닉스 -12707
▁렙 -12708
코타 -12709
▁AG -12710
▁남조 -12711
▁모국 -12712
▁복위 -12713
▁증세 -12714
▁직사 -12715
▁홀딩 -12716
▁당선자 -12717
▁요금소 -12718
린트 -12719
즐리 -12720
▁TC -12721
▁배트 -12722
▁오산 -12723
▁접합 -12724
▁착하 -12725
▁뛰어넘 -12726
▁보너스 -12727
▁센다이 -12728
▁집정관 -12729
니오 -12730
▁저축 -12731
▁토목 -12732
▁편안 -12733
▁표절 -12734
스코트 -12735
▁보살상 -12736
▁선제골 -12737
제비 -12738
▁급히 -12739
▁망하 -12740
▁모닝 -12741
▁몰두 -12742
▁이별 -12743
▁자궁 -12744
라호마 -12745
▁아카이 -12746
▁낭만주의 -12747
▁오클라호마 -12748
▁자릿 -12749
▁환관 -12750
▁노동력 -12751
▁프랑코 -12752
아메리카 -12753
▁하이브리드 -12754
▁댈 -12755
동자 -12756
직경 -12757
▁경건 -12758
▁앵커 -12759
▁유타 -12760
▁가해자 -12761
▁불러들이 -12762
▁Ed -12763
▁고창 -12764
▁버크 -12765
▁위패 -12766
▁이누 -12767
▁시직경 -12768
▁신세계 -12769
▁클레멘스 -12770
라르 -12771
▁기밀 -12772
▁다행 -12773
▁삭스 -12774
▁필연 -12775
▁히토 -12776
▁헤라클레스 -12777
왕후 -12778
▁교지 -12779
▁꺼리 -12780
▁패권 -12781
솔리니 -12782
▁스트리밍 -12783
▁오스트리 -12784
▁관내 -12785
▁동차 -12786
▁만점 -12787
▁말단 -12788
▁왕관 -12789
▁워킹 -12790
▁단거리 -12791
▁1864 -12792
▁Open -12793
콘신 -12794
▁"- -12795
▁ㄴㅛ -12796
▁암모 -12797
▁애완 -12798
▁1830 -12799
▁석가모니 -12800
▁위스콘신 -12801
▁돗 -12802
열차 -12803
▁건네 -12804
▁눈치 -12805
▁예의 -12806
▁파직 -12807
▁음악원 -12808
▁재판부 -12809
▁도라에몽 -12810
▁승하 -12811
▁여호 -12812
▁전교 -12813
▁백악기 -12814
▁카이로 -12815
▁휘두르 -12816
EP -12817
예술 -12818
타입 -12819
ton -12820
▁공판 -12821
▁광업 -12822
▁대강 -12823
▁뒤늦 -12824
▁딸리 -12825
▁리트 -12826
▁매스 -12827
▁양현 -12828
▁혼혈 -12829
▁후세인 -12830
▁마을버스 -12831
▁컴파일러 -12832
▁도르트문트 -12833
▁en -12834
▁가독 -12835
▁관용 -12836
▁근래 -12837
▁스몰 -12838
▁평탄 -12839
▁허블 -12840
▁감리교 -12841
라이어티 -12842
▁미네소타 -12843
▁버라이어티 -12844
디슨 -12845
▁더하 -12846
▁발톱 -12847
▁승단 -12848
▁잔디 -12849
▁장전 -12850
▁카와 -12851
▁네티즌 -12852
▁데이빗 -12853
▁크리에이 -12854
▁다카라즈카 -12855
▁마요 -12856
▁방공 -12857
▁사하 -12858
▁쓰루 -12859
▁에두 -12860
▁재벌 -12861
▁홈즈 -12862
▁로맨틱 -12863
▁사나이 -12864
▁황해도 -12865
▁아이디얼 -12866
▁이시카와 -12867
▁배아 -12868
▁불분 -12869
▁수이 -12870
▁아편 -12871
▁어우 -12872
▁정황 -12873
▁추존 -12874
▁현미 -12875
▁격투기 -12876
▁관련자 -12877
▁재판관 -12878
해살이풀 -12879
▁백업 -12880
▁하얀 -12881
▁주나라 -12882
달마 -12883
클럽 -12884
▁매진 -12885
▁민물 -12886
▁스기 -12887
▁챙기 -12888
▁푸아 -12889
바도르 -12890
▁ㄴㄷㅔ -12891
▁캣 -12892
▁an -12893
▁고모 -12894
▁등등 -12895
▁뷰티 -12896
▁스윙 -12897
▁조경 -12898
▁라치오 -12899
▁유전체 -12900
▁1881 -12901
ION -12902
ave -12903
▁선율 -12904
▁황자 -12905
▁난이도 -12906
▁남베트남 -12907
▁객원 -12908
▁러닝 -12909
▁벌레 -12910
▁소라 -12911
▁양조 -12912
▁청문 -12913
▁침대 -12914
▁헌납 -12915
▁iOS -12916
▁트레이닝 -12917
께끼 -12918
플린 -12919
▁Ab -12920
▁기고 -12921
▁까마귀 -12922
▁수수께끼 -12923
브웨 -12924
스레 -12925
▁다비 -12926
▁보정 -12927
▁알맞 -12928
▁야망 -12929
▁잠실 -12930
▁전리 -12931
▁코난 -12932
▁트란 -12933
▁편하 -12934
▁무작위 -12935
▁행정동 -12936
▁피츠버그 -12937
리쿠 -12938
▁구례 -12939
▁남송 -12940
▁도산 -12941
▁목욕 -12942
▁아타 -12943
▁엿보 -12944
▁조심 -12945
▁사들이 -12946
▁캐스트 -12947
▁Music -12948
TE -12949
▁고하 -12950
▁그란 -12951
▁기통 -12952
▁세간 -12953
▁왕성 -12954
▁짐바 -12955
▁찍히 -12956
ject -12957
▁롬바르 -12958
▁모멘트 -12959
▁반대파 -12960
▁외무부 -12961
▁1872 -12962
▁리에 -12963
▁생도 -12964
▁아이콘 -12965
▁XP -12966
▁군세 -12967
▁승지 -12968
▁오우 -12969
▁재고 -12970
▁코뮌 -12971
올로기 -12972
▁기획사 -12973
▁대표단 -12974
▁압록강 -12975
▁루스벨트 -12976
▁이데올로기 -12977
▁루나 -12978
▁별장 -12979
▁부풀 -12980
▁산기 -12981
▁용사 -12982
▁쿠로 -12983
▁흑백 -12984
▁농어촌 -12985
▁이메일 -12986
▁부다페스트 -12987
▁레비 -12988
▁발포 -12989
▁베일 -12990
▁부실 -12991
▁양면 -12992
▁의례 -12993
▁지경 -12994
▁돋보이 -12995
▁여학생 -12996
▁제프리 -12997
▁합창단 -12998
나파 -12999
▁닌자 -13000
▁반죽 -13001
▁복직 -13002
▁캐피 -13003
▁콘티 -13004
▁통지 -13005
▁750 -13006
덕왕 -13007
▁BL -13008
▁김희 -13009
▁미상 -13010
▁부전 -13011
▁어촌 -13012
▁토로 -13013
▁투하 -13014
▁판관 -13015
▁화성시 -13016
▁쵸 -13017
▁킷 -13018
렌스 -13019
ics -13020
▁if -13021
▁국호 -13022
▁삼척 -13023
▁인제 -13024
▁종업 -13025
▁대교구 -13026
▁파충류 -13027
▁부르주아 -13028
▁세계유산 -13029
▁ㅇㅡㄹㅣㄹㅏ -13030
▁교제 -13031
▁극찬 -13032
▁리브 -13033
▁메츠 -13034
▁원동 -13035
▁직관 -13036
▁파기 -13037
리아스 -13038
▁라이스 -13039
쿠니 -13040
▁곡면 -13041
▁곱셈 -13042
▁이례 -13043
▁파주 -13044
▁노르드 -13045
▁범죄자 -13046
뛰기 -13047
성경 -13048
▁경도 -13049
▁닛산 -13050
▁상파 -13051
▁시원 -13052
▁신봉 -13053
ㅌㅇㅣ -13054
▁마르셀 -13055
▁1863 -13056
▁무솔리니 -13057
▁ㄱㅏㅌㅇㅣ -13058
▁당과 -13059
▁샤이 -13060
▁진흙 -13061
▁탄산 -13062
▁다시금 -13063
▁밀가루 -13064
▁HTML -13065
▁꿰 -13066
화경 -13067
ier -13068
▁Sm -13069
▁가곡 -13070
▁경량 -13071
▁괘불 -13072
▁꼬마 -13073
▁내재 -13074
▁발산 -13075
▁북벌 -13076
▁정명 -13077
▁파열 -13078
변속기 -13079
▁다비드 -13080
▁슬로건 -13081
ool -13082
▁금고 -13083
▁메우 -13084
▁배향 -13085
▁익산 -13086
▁중랑 -13087
▁취향 -13088
▁친밀 -13089
부아르 -13090
▁승용차 -13091
▁화학자 -13092
루크 -13093
림사 -13094
▁순항 -13095
▁ㅇㅕㄷㅗ -13096
▁가든 -13097
▁가비 -13098
▁주고 -13099
▁해킹 -13100
태평양 -13101
▁개체군 -13102
▁무로마치 -13103
QL -13104
▁나탈 -13105
▁브렌 -13106
▁계승자 -13107
평리 -13108
▁AL -13109
▁병단 -13110
▁살짝 -13111
▁인위 -13112
▁종묘 -13113
▁체하 -13114
▁Don -13115
▁참가국 -13116
▁취리히 -13117
▁코호몰로지 -13118
ru -13119
▁엡 -13120
▁단국 -13121
▁레아 -13122
▁켄터 -13123
▁탐정 -13124
▁앞세우 -13125
▁호크스 -13126
▁te -13127
▁거꾸 -13128
▁계좌 -13129
▁고난 -13130
▁납작 -13131
▁당진 -13132
▁의용 -13133
▁입시 -13134
슬라프 -13135
▁초록색 -13136
▁유라시아 -13137
데자 -13138
바인 -13139
워즈 -13140
▁대의 -13141
▁두어 -13142
▁루즈 -13143
▁복역 -13144
▁승상 -13145
▁불분명 -13146
▁작품상 -13147
데자네이 -13148
▁1873 -13149
▁세르게이 -13150
비오 -13151
che -13152
▁덴쇼 -13153
▁오트 -13154
▁클릭 -13155
▁햇빛 -13156
▁타임즈 -13157
번에 -13158
▁기쁘 -13159
▁조장 -13160
▁페인 -13161
▁휩싸 -13162
▁공통점 -13163
▁국민회 -13164
▁1865 -13165
▁교통사고 -13166
▁튼 -13167
▁교동 -13168
▁매립 -13169
▁완비 -13170
▁장쑤 -13171
▁조시 -13172
▁태아 -13173
▁피카 -13174
▁시간대 -13175
▁청년회 -13176
▁하얀색 -13177
ise -13178
▁경마 -13179
▁모란 -13180
▁박진 -13181
▁위법 -13182
▁을사 -13183
▁코마 -13184
▁킹스 -13185
▁여진족 -13186
▁폼페이 -13187
▁샵 -13188
타스 -13189
ode -13190
▁서지 -13191
▁에치 -13192
▁작년 -13193
▁팔작 -13194
▁와이드 -13195
▁항아리 -13196
▁계엄 -13197
▁과다 -13198
▁도도 -13199
▁비키 -13200
▁옹주 -13201
▁왓슨 -13202
▁잠기 -13203
▁IMF -13204
▁그나마 -13205
▁챌린저 -13206
▁탐험가 -13207
▁마스코트 -13208
▁열렬 -13209
▁외상 -13210
▁픽셀 -13211
▁경복궁 -13212
▁오카야마 -13213
▁쩔 -13214
▁양궁 -13215
▁충당 -13216
▁페라 -13217
▁하스 -13218
▁해시 -13219
▁제너럴 -13220
▁1891 -13221
리야 -13222
리언 -13223
▁PM -13224
▁몸돌 -13225
▁착취 -13226
▁한창 -13227
▁허목 -13228
▁안산시 -13229
▁야쿠르트 -13230
데자네이루 -13231
▁리우데자네이루 -13232
시대 -13233
▁걸작 -13234
▁등단 -13235
▁벌리 -13236
▁티모 -13237
▁유니언 -13238
더지 -13239
매김 -13240
▁구강 -13241
▁단자 -13242
▁대목 -13243
▁봉황 -13244
▁슈고 -13245
▁요즘 -13246
▁조공 -13247
▁처방 -13248
▁캐치 -13249
stem -13250
▁몰도바 -13251
▁박영효 -13252
▁Night -13253
바지 -13254
▁반항 -13255
▁법전 -13256
▁세단 -13257
▁쇼크 -13258
▁다국적 -13259
▁생화학 -13260
▁제조사 -13261
▁조선소 -13262
▁크루즈 -13263
▁아비달마 -13264
▁아오모리 -13265
▁려 -13266
▁도봉 -13267
▁루피 -13268
▁리자 -13269
▁야심 -13270
▁입술 -13271
▁합금 -13272
▁발기인 -13273
린더 -13274
미쓰 -13275
▁경지 -13276
▁라크 -13277
▁모함 -13278
▁최장 -13279
▁피셔 -13280
▁시티즌 -13281
▁지자체 -13282
▁공군기지 -13283
UC -13284
친왕 -13285
쿠르 -13286
▁MA -13287
▁두텁 -13288
▁발하 -13289
▁부에 -13290
▁분경 -13291
▁산책 -13292
▁신대 -13293
▁포대 -13294
▁혈압 -13295
▁고성군 -13296
▁우간다 -13297
▁온타리오주 -13298
▁괜 -13299
단위 -13300
사화 -13301
인구 -13302
▁-- -13303
▁NS -13304
▁구슬 -13305
▁급하 -13306
▁매도 -13307
▁부추 -13308
▁사드 -13309
▁적발 -13310
▁촉발 -13311
▁카슈 -13312
이스케 -13313
플렉스 -13314
▁공식전 -13315
▁세군다 -13316
▁종사자 -13317
훈장 -13318
▁버펄 -13319
▁볼넷 -13320
▁주저 -13321
▁증발 -13322
▁현무 -13323
합중국 -13324
▁승정원 -13325
▁앤드류 -13326
▁자리매김 -13327
▁맞춤 -13328
▁우마 -13329
▁철종 -13330
▁타도 -13331
▁필두 -13332
▁해부학 -13333
▁조선왕조 -13334
▁삐 -13335
▁후한 -13336
▁발가락 -13337
▁켄터키 -13338
▁고마 -13339
▁과격 -13340
▁란스 -13341
▁미인 -13342
▁불로 -13343
▁채굴 -13344
▁650 -13345
▁제작진 -13346
▁짐바브웨 -13347
NG -13348
동맹 -13349
참찬 -13350
▁MM -13351
▁반점 -13352
▁헤어 -13353
▁거꾸로 -13354
레타리아 -13355
▁프롤레타리아 -13356
▁마모 -13357
▁무고 -13358
▁스킬 -13359
▁증강 -13360
▁진원 -13361
▁스코어 -13362
▁Good -13363
▁이바라키 -13364
▁베스트셀러 -13365
ai -13366
레반 -13367
▁AI -13368
▁굴복 -13369
▁시진 -13370
▁어는 -13371
▁연행 -13372
▁체내 -13373
▁캐논 -13374
▁키즈 -13375
▁헌병 -13376
▁현도 -13377
▁Black -13378
ank -13379
▁강호 -13380
▁라면 -13381
▁소작 -13382
▁여대 -13383
▁유태 -13384
▁후미 -13385
ower -13386
▁릴레이 -13387
▁연출가 -13388
상어 -13389
▁qu -13390
▁반론 -13391
▁오즈 -13392
▁자켓 -13393
▁접전 -13394
▁직교 -13395
▁다마스 -13396
▁스테이트 -13397
▁콧 -13398
▁아뢰 -13399
▁터빈 -13400
▁튼튼 -13401
▁파랑 -13402
▁Can -13403
▁노르만 -13404
▁매달리 -13405
▁종업원 -13406
▁포항시 -13407
▁삼국유사 -13408
▁사이타마현 -13409
▁샨 -13410
▁간판 -13411
▁기묘 -13412
▁네임 -13413
▁농성 -13414
▁도발 -13415
▁용감 -13416
▁ret -13417
▁댈러스 -13418
▁백악관 -13419
▁국부 -13420
▁스톰 -13421
▁위헌 -13422
▁적정 -13423
고르 -13424
▁NAD -13425
▁트로트 -13426
▁미합중국 -13427
킨슨 -13428
포타 -13429
▁산신 -13430
▁조준 -13431
▁처치 -13432
▁투신 -13433
▁흔들 -13434
▁550 -13435
▁수시로 -13436
▁테무르 -13437
70 -13438
▁믈 -13439
무제 -13440
▁El -13441
▁당당 -13442
▁대담 -13443
▁리키 -13444
▁문정 -13445
▁병과 -13446
▁열쇠 -13447
▁저해 -13448
▁횡령 -13449
▁반정부 -13450
▁자외선 -13451
▁자유형 -13452
DS -13453
▁켜 -13454
▁교서 -13455
▁변증 -13456
▁사교 -13457
▁신의 -13458
▁온건 -13459
▁행보 -13460
▁흡연 -13461
▁용산구 -13462
▁이성질 -13463
▁하반기 -13464
▁1862 -13465
내티 -13466
세다 -13467
티야 -13468
▁걸프 -13469
▁무도 -13470
▁수퍼 -13471
▁연달 -13472
▁미카엘 -13473
▁받침돌 -13474
포타미아 -13475
▁신시내티 -13476
▁메소포타미아 -13477
▁q -13478
펠러 -13479
▁분별 -13480
▁전멸 -13481
▁티저 -13482
▁히노 -13483
▁타이탄 -13484
▁Qu -13485
▁길드 -13486
▁내란 -13487
▁내역 -13488
▁아델 -13489
▁양양 -13490
▁완수 -13491
▁장신 -13492
▁조어 -13493
▁증식 -13494
▁피어 -13495
▁활자 -13496
타나베 -13497
▁Ser -13498
▁국력 -13499
▁서위 -13500
▁송진 -13501
▁심정 -13502
▁연화 -13503
▁오보 -13504
▁이강 -13505
▁조서 -13506
▁진언 -13507
▁필명 -13508
▁김성수 -13509
▁엑스포 -13510
▁입법부 -13511
▁LS -13512
▁군자 -13513
▁북대 -13514
▁성수 -13515
▁신해 -13516
▁엘라 -13517
▁조석 -13518
▁해지 -13519
▁서두르 -13520
▁연주회 -13521
▁플러그 -13522
루엔 -13523
조리 -13524
▁황폐 -13525
▁언론사 -13526
▁1867 -13527
디언 -13528
▁독주 -13529
▁모반 -13530
▁온두 -13531
▁레인저 -13532
▁편집장 -13533
▁온두라스 -13534
▁페르디난트 -13535
▁UC -13536
▁광자 -13537
▁교훈 -13538
▁Let -13539
▁페르미 -13540
▁6000 -13541
▁팔작지붕 -13542
▁라이프치히 -13543
니에 -13544
▁Ac -13545
▁간결 -13546
▁고찰 -13547
▁그거 -13548
▁씌우 -13549
▁지문 -13550
▁처장 -13551
▁푸드 -13552
세우스 -13553
▁705 -13554
▁사무국 -13555
테이 -13556
▁DR -13557
▁광배 -13558
▁서한 -13559
▁양군 -13560
드라마 -13561
선거구 -13562
▁변광성 -13563
▁앨버트 -13564
▁증조부 -13565
▁타타르 -13566
정사 -13567
활약 -13568
▁AU -13569
▁나사 -13570
▁노브 -13571
▁변모 -13572
▁옥시 -13573
▁경희대 -13574
진구 -13575
lar -13576
ings -13577
▁ㅣ -13578
▁팍 -13579
센터 -13580
▁유구 -13581
▁토유 -13582
▁표출 -13583
▁MSL -13584
▁맹활약 -13585
▁손잡이 -13586
▁알폰소 -13587
▁페드로 -13588
▁데카르트 -13589
비언 -13590
투르 -13591
▁예종 -13592
▁지탱 -13593
▁쿠라 -13594
▁회유 -13595
▁프로테 -13596
▁백과사전 -13597
▁이노우에 -13598
▁section -13599
▁궐 -13600
▁객실 -13601
▁잔존 -13602
▁코모 -13603
▁키릴 -13604
▁빠져나가 -13605
다발 -13606
▁사보이 -13607
▁치료제 -13608
중추부사 -13609
▁프라이즈 -13610
▁협동조합 -13611
ta -13612
▁낡 -13613
렐라 -13614
방군 -13615
위치 -13616
젤로 -13617
▁-& -13618
▁경은 -13619
▁넘버 -13620
▁보직 -13621
▁성품 -13622
▁수당 -13623
▁청각 -13624
▁하중 -13625
▁부등식 -13626
▁홀딩스 -13627
▁썩 -13628
▁상선 -13629
▁잉크 -13630
절도사 -13631
▁감염증 -13632
▁탬 -13633
자원 -13634
할린 -13635
▁당파 -13636
▁버진 -13637
▁번개 -13638
▁절약 -13639
▁충칭 -13640
▁피처 -13641
▁기원후 -13642
▁이브스 -13643
▁일본식 -13644
▁특별법 -13645
ㄹㅜ -13646
▁심소 -13647
▁차림 -13648
▁헤겔 -13649
rist -13650
▁And -13651
▁곁들이 -13652
▁무사히 -13653
▁웨이브 -13654
▁명성황후 -13655
▁ㄹㅏㅁㅕㄴㅅㅓ -13656
tr -13657
▁가극 -13658
▁벵골 -13659
▁유망 -13660
▁치이 -13661
▁스파이더 -13662
▁신한은행 -13663
▁후지와라 -13664
ee -13665
▁샴 -13666
▁Ag -13667
▁무너 -13668
▁수급 -13669
▁엘레 -13670
▁지그 -13671
▁참패 -13672
▁마그네 -13673
▁봉우리 -13674
▁인지도 -13675
▁1878 -13676
▁무너뜨리 -13677
정보 -13678
▁가방 -13679
▁박원 -13680
▁용해 -13681
▁컴파일 -13682
▁국민학교 -13683
▁미나모토노 -13684
▁코퍼레이션 -13685
ky -13686
마디 -13687
▁PL -13688
▁가물 -13689
▁글렌 -13690
▁동탁 -13691
▁시르 -13692
▁영미 -13693
▁중용 -13694
▁지린 -13695
▁자릿수 -13696
▁플루토 -13697
▁고등학생 -13698
▁썬 -13699
▁SO -13700
▁자행 -13701
▁후드 -13702
가르트 -13703
▁수도회 -13704
▁교화 -13705
▁동자 -13706
▁변질 -13707
▁참수 -13708
▁건륭제 -13709
▁경쟁자 -13710
▁그래도 -13711
▁연예계 -13712
▁지질학 -13713
▁ㄴㅑㄱㅗ -13714
▁비스마르크 -13715
▁아나톨리아 -13716
▁일리노이주 -13717
빌리 -13718
▁꽃잎 -13719
▁렉스 -13720
▁보류 -13721
▁서거 -13722
▁세토 -13723
▁유림 -13724
▁직물 -13725
▁대리석 -13726
▁주고받 -13727
▁출입문 -13728
▁ㄴㅣㄲㅏ -13729
▁스에 -13730
▁점진 -13731
▁추축 -13732
▁행군 -13733
플로러 -13734
▁나치오 -13735
▁신기록 -13736
▁익스플로러 -13737
산부 -13738
▁괄호 -13739
▁국화 -13740
▁미학 -13741
▁서점 -13742
▁손님 -13743
▁충신 -13744
▁현악 -13745
▁802 -13746
▁베르나 -13747
▁외교부 -13748
▁패스트 -13749
▁스케이트 -13750
▁tr -13751
▁라다 -13752
▁용수 -13753
▁텍스 -13754
▁항생 -13755
▁불가피 -13756
▁사대부 -13757
▁아이젠 -13758
▁되돌아가 -13759
▁프랑스와 -13760
▁급성 -13761
▁자부 -13762
▁차명 -13763
▁액세스 -13764
▁밧 -13765
▁뵈 -13766
누마 -13767
다스 -13768
▁무비 -13769
▁수레 -13770
▁완만 -13771
▁유화 -13772
▁축일 -13773
▁골짜기 -13774
▁뉴기니 -13775
▁요리토모 -13776
북면 -13777
일치 -13778
hem -13779
▁RC -13780
▁각주 -13781
▁다목 -13782
▁모티 -13783
▁바쿠 -13784
▁솔라 -13785
▁수증 -13786
▁정박 -13787
▁지체 -13788
▁추후 -13789
▁출국 -13790
▁형주 -13791
에이고 -13792
▁영유권 -13793
▁쿠르드 -13794
▁아우구스 -13795
▁키르기스 -13796
▁샌디에이고 -13797
작전 -13798
▁과자 -13799
▁사부 -13800
▁습성 -13801
▁영사 -13802
▁환율 -13803
ㅓㄴㅏ -13804
▁원자핵 -13805
▁인코딩 -13806
▁포뮬러 -13807
▁프리츠 -13808
▁공상 -13809
▁근방 -13810
▁부관 -13811
▁에트 -13812
▁옥천 -13813
▁추계 -13814
▁패킷 -13815
▁랙 -13816
대전 -13817
벤션 -13818
셔주 -13819
시게 -13820
▁고국 -13821
▁국인 -13822
▁반입 -13823
▁시역 -13824
▁콜드 -13825
▁폴라 -13826
▁갈아타 -13827
▁여객기 -13828
BI -13829
퉁이 -13830
▁ㅁㅗ -13831
▁강우 -13832
▁기조 -13833
▁맛보 -13834
▁사소 -13835
▁육식 -13836
▁일설 -13837
▁잔해 -13838
▁치사 -13839
▁516 -13840
▁핵분열 -13841
사우루스 -13842
▁ㅇㅡㄹㅓ -13843
▁개기 -13844
▁그물 -13845
▁대타 -13846
▁출세 -13847
▁패망 -13848
▁헤더 -13849
▁방위군 -13850
▁부여군 -13851
▁수비대 -13852
▁프라임 -13853
▁1869 -13854
▁힐베르트 -13855
▁팻 -13856
수단 -13857
▁교파 -13858
▁다량 -13859
▁매슈 -13860
▁무색 -13861
▁인승 -13862
▁일선 -13863
▁절친 -13864
▁해트 -13865
시아드 -13866
▁HMS -13867
▁기동전 -13868
▁운동량 -13869
▁1840 -13870
▁글로브상 -13871
▁와타나베 -13872
▁시시 -13873
▁이끼 -13874
▁토라 -13875
▁채권자 -13876
▁유니버시아드 -13877
pr -13878
날드 -13879
▁로시 -13880
▁면직 -13881
▁소피 -13882
▁오자 -13883
▁의정 -13884
▁초음 -13885
▁쿼터 -13886
▁며느리 -13887
▁바닷물 -13888
▁와세다 -13889
네르 -13890
부시 -13891
▁닉스 -13892
▁부두 -13893
▁상식 -13894
▁상의 -13895
▁쫓기 -13896
▁포천 -13897
뉴기니 -13898
▁업로드 -13899
▁운전자 -13900
▁널 -13901
블릿 -13902
▁목동 -13903
▁빅터 -13904
▁쌍성 -13905
▁자정 -13906
▁자처 -13907
▁저그 -13908
▁청취 -13909
▁컵스 -13910
▁마포구 -13911
▁유엔군 -13912
▁치료법 -13913
▁몸체 -13914
▁벤츠 -13915
▁이목 -13916
▁퀴즈 -13917
▁토키 -13918
▁떠올리 -13919
▁오스카 -13920
노르 -13921
▁국세 -13922
▁귀인 -13923
▁애기 -13924
▁입출 -13925
스타인 -13926
▁ㄱㅜㄴ -13927
▁예언자 -13928
▁팔꿈치 -13929
▁레지스터 -13930
▁사이언스 -13931
▁에이전트 -13932
▁낯 -13933
곡면 -13934
ade -13935
▁민심 -13936
▁바보 -13937
▁컴필 -13938
▁휘발 -13939
▁Mon -13940
▁강력히 -13941
▁시니어 -13942
▁Song -13943
▁매킨토시 -13944
▁컴필레이션 -13945
ae -13946
▁벳 -13947
▁볶 -13948
선언 -13949
▁단서 -13950
▁물론 -13951
▁바인 -13952
▁베오 -13953
▁부군 -13954
▁포자 -13955
▁포탑 -13956
▁헤일 -13957
▁호그 -13958
▁피의자 -13959
▁파시스트 -13960
▁로드리게스 -13961
▁아나키스트 -13962
날레 -13963
조사 -13964
효소 -13965
▁디나 -13966
▁변혁 -13967
▁자취 -13968
▁텐서 -13969
크라테스 -13970
per -13971
▁거사 -13972
▁마레 -13973
▁신지 -13974
▁위도 -13975
▁글러브 -13976
▁금강산 -13977
▁네이트 -13978
▁스트림 -13979
▁모자이크 -13980
▁와카야마 -13981
세르 -13982
▁빈민 -13983
▁숙소 -13984
▁자질 -13985
▁캐슬 -13986
ount -13987
▁목적지 -13988
탄두 -13989
▁AA -13990
▁Pe -13991
▁VS -13992
▁강인 -13993
▁걸음 -13994
▁하수 -13995
티컷 -13996
▁me -13997
▁괜찮 -13998
▁단역 -13999
▁박재 -14000
▁백조 -14001
▁블러 -14002
▁소박 -14003
▁아어 -14004
▁전단 -14005
▁천상 -14006
▁맥아더 -14007
▁세미나 -14008
▁1592 -14009
▁고등교육 -14010
▁남아시아 -14011
▁코네티컷 -14012
▁밋 -14013
히메 -14014
▁As -14015
▁논산 -14016
▁바쁘 -14017
▁성가 -14018
▁스택 -14019
▁실사 -14020
▁영수 -14021
▁철자 -14022
▁리차드 -14023
▁안타깝 -14024
▁종착역 -14025
▁창립자 -14026
구스 -14027
▁고을 -14028
▁고제 -14029
▁직렬 -14030
암사 -14031
ium -14032
▁Aw -14033
▁금색 -14034
▁끌리 -14035
▁관심사 -14036
▁테크놀 -14037
▁8000 -14038
▁병자호란 -14039
▁친선경기 -14040
IF -14041
▁뒤지 -14042
▁암수 -14043
▁양파 -14044
▁의복 -14045
▁자루 -14046
▁튜브 -14047
이치로 -14048
▁보유자 -14049
▁안동시 -14050
▁장로회 -14051
▁필사본 -14052
▁크리스티나 -14053
수염 -14054
ale -14055
▁KN -14056
▁규율 -14057
ㅇㅡㄴ -14058
▁리스본 -14059
▁이랜드 -14060
▁적십자 -14061
▁히타치 -14062
▁Windows -14063
IX -14064
전선 -14065
▁란트 -14066
▁슈투 -14067
▁어부 -14068
▁왜군 -14069
▁하구 -14070
▁이와테 -14071
▁코트디 -14072
▁휩싸이 -14073
▁뉘른베르크 -14074
▁코트디부아르 -14075
▁펜실베이니아주 -14076
90 -14077
히데 -14078
▁기행 -14079
▁다쓰 -14080
▁박히 -14081
▁성대 -14082
▁온실 -14083
▁유이 -14084
▁피살 -14085
▁KTX -14086
▁린다 -14087
▁외면 -14088
▁유자 -14089
▁은밀 -14090
▁풍기 -14091
▁과반수 -14092
▁뒤따르 -14093
▁엇갈리 -14094
▁지하역 -14095
▁Heart -14096
▁포르투갈어 -14097
보당 -14098
찬성 -14099
ata -14100
▁노현 -14101
▁동호 -14102
▁방탄 -14103
▁아다 -14104
▁악명 -14105
▁웍스 -14106
▁유골 -14107
▁임종 -14108
▁구단주 -14109
▁담당자 -14110
▁보호법 -14111
▁어도비 -14112
▁헤르만 -14113
▁ㄹㅏㅇㅜ -14114
테랑 -14115
▁Gl -14116
▁ab -14117
▁면담 -14118
▁병풍 -14119
▁수만 -14120
▁질투 -14121
▁하라 -14122
▁클리어 -14123
▁심리학자 -14124
▁눌 -14125
어하 -14126
▁계룡 -14127
▁농가 -14128
▁능가 -14129
▁삭감 -14130
▁이카 -14131
▁준동 -14132
▁380 -14133
▁로타르 -14134
▁파주시 -14135
던트 -14136
▁뉴런 -14137
▁여포 -14138
▁의주 -14139
▁탁구 -14140
▁1875 -14141
▁그린란드 -14142
▁페널티킥 -14143
▁세인트루이스 -14144
링겐 -14145
▁거창 -14146
▁크메르 -14147
▁형용사 -14148
▁근본번뇌 -14149
넌트 -14150
▁권익 -14151
▁김연 -14152
▁도우 -14153
▁문중 -14154
▁서약 -14155
▁연중 -14156
▁염화 -14157
▁오구 -14158
▁위크 -14159
▁정오 -14160
▁비둘기 -14161
▁신석기 -14162
뻐하 -14163
어가 -14164
▁니케 -14165
▁들르 -14166
▁디바 -14167
▁라라 -14168
▁라프 -14169
▁문체 -14170
▁방울 -14171
▁볼록 -14172
▁열세 -14173
▁예식 -14174
▁워스 -14175
▁잠입 -14176
▁흥원 -14177
루엔자 -14178
▁Gen -14179
▁기뻐하 -14180
▁성폭행 -14181
▁되돌아오 -14182
세키 -14183
욕장 -14184
▁독살 -14185
▁미지 -14186
▁숙련 -14187
▁실상 -14188
▁율법 -14189
▁이선 -14190
▁일명 -14191
▁특공 -14192
▁한민 -14193
▁통신망 -14194
▁여우원숭이 -14195
son -14196
▁강습 -14197
▁상과 -14198
▁설리 -14199
▁셔틀 -14200
▁오시 -14201
▁외척 -14202
▁원문 -14203
▁친화 -14204
▁콜린 -14205
▁키드 -14206
▁타쿠 -14207
▁페레 -14208
▁호른 -14209
▁사이즈 -14210
▁스피커 -14211
▁안창호 -14212
▁집단군 -14213
▁기판 -14214
▁다름 -14215
▁로니 -14216
▁막강 -14217
▁상동 -14218
▁시찰 -14219
▁아지 -14220
▁야수 -14221
▁예금 -14222
▁이심 -14223
▁타나 -14224
세데스 -14225
▁개그맨 -14226
▁브란덴부르크 -14227
▁귀엽 -14228
▁불복 -14229
▁엔젤 -14230
▁원단 -14231
▁유카 -14232
▁중견 -14233
▁칸트 -14234
▁친환경 -14235
▁지장보살 -14236
▁메르세데스 -14237
▁return -14238
▁sh -14239
▁겸직 -14240
▁도적 -14241
▁발착 -14242
▁비료 -14243
▁사각 -14244
▁실명 -14245
▁윤휴 -14246
▁Out -14247
▁회고록 -14248
▁영등포구 -14249
▁바빌로니아 -14250
▁배당 -14251
▁절충 -14252
▁최하 -14253
레이트 -14254
▁강대국 -14255
▁몽고메리 -14256
▁기린 -14257
▁아노 -14258
▁재보 -14259
▁정칙 -14260
▁징집 -14261
▁침식 -14262
▁향신 -14263
▁가환환 -14264
▁고문서 -14265
▁스케줄 -14266
▁시미즈 -14267
▁예비역 -14268
▁크라운 -14269
▁토요타 -14270
부대 -14271
알라 -14272
itt -14273
▁구루 -14274
▁몹시 -14275
▁조비 -14276
▁키리 -14277
▁포인 -14278
▁나리타 -14279
▁대항전 -14280
▁아세틸 -14281
▁학술지 -14282
ng -14283
기아 -14284
세서 -14285
▁다자 -14286
▁로사 -14287
▁로큰 -14288
▁선상 -14289
▁게임기 -14290
▁레스터 -14291
▁스케치 -14292
▁엑스박스 -14293
기즈 -14294
놀드 -14295
사유 -14296
▁TS -14297
▁예프 -14298
▁착각 -14299
▁출품 -14300
▁AMD -14301
▁다이쇼 -14302
▁보리스 -14303
▁클레어 -14304
▁파스칼 -14305
▁함경도 -14306
▁합성어 -14307
▁항공대 -14308
▁끌어올리 -14309
▁알프레드 -14310
▁인플루엔자 -14311
▁땀 -14312
이에 -14313
▁기운 -14314
▁슬리 -14315
▁야권 -14316
▁어사 -14317
▁첩보 -14318
▁파랗 -14319
▁폐허 -14320
▁사무라이 -14321
PA -14322
▁엣 -14323
계사 -14324
▁결말 -14325
▁구시 -14326
▁최남 -14327
▁표제 -14328
▁슈타인 -14329
▁열역학 -14330
▁일부러 -14331
▁최성기 -14332
▁싯 -14333
더링 -14334
▁DB -14335
▁김두 -14336
▁리크 -14337
▁명상 -14338
▁애착 -14339
▁자장 -14340
▁ᄇㅅㅣ -14341
▁데이트 -14342
▁로큰롤 -14343
▁벙 -14344
방향 -14345
양이 -14346
▁달콤 -14347
▁바늘 -14348
▁왕래 -14349
▁마주치 -14350
▁부적절 -14351
▁진주시 -14352
▁컨벤션 -14353
UN -14354
▁생원 -14355
▁일차 -14356
▁혼잡 -14357
그래피 -14358
▁ㄷㅏㄴ -14359
▁데뷔작 -14360
▁채무자 -14361
▁테오도 -14362
두사 -14363
르카 -14364
▁에코 -14365
▁인먼 -14366
▁강희제 -14367
▁그러면 -14368
▁돌고래 -14369
▁매디슨 -14370
▁표트르 -14371
▁쳐들어오 -14372
▁극소 -14373
▁버트 -14374
▁서클 -14375
▁선체 -14376
▁순식 -14377
▁여럿 -14378
▁예멘 -14379
▁이희 -14380
▁취직 -14381
▁터너 -14382
▁맥스웰 -14383
▁파라오 -14384
▁프론트 -14385
▁안드로메다 -14386
▁노원 -14387
▁닥치 -14388
▁배반 -14389
▁성행 -14390
▁이씨 -14391
▁타시 -14392
▁태안 -14393
▁ㄹㅗㄹ -14394
▁반감기 -14395
▁칭기즈 -14396
▁오프라인 -14397
몽골 -14398
IVE -14399
▁감기 -14400
▁라벨 -14401
▁목장 -14402
▁용지 -14403
▁웨어 -14404
▁재화 -14405
▁집전 -14406
▁헤센 -14407
▁획기 -14408
able -14409
▁Par -14410
▁광둥성 -14411
▁쇼핑몰 -14412
▁중앙선 -14413
행파 -14414
▁결전 -14415
▁레몬 -14416
▁스펜 -14417
▁월남 -14418
▁되풀이 -14419
▁베르트 -14420
▁송파구 -14421
▁남양주시 -14422
▁맴 -14423
ody -14424
▁구타 -14425
▁메모 -14426
▁모피 -14427
▁수은 -14428
▁술라 -14429
▁장정 -14430
▁Vol -14431
▁싫어하 -14432
▁야마다 -14433
건설 -14434
시험 -14435
▁WC -14436
▁모질 -14437
▁안식 -14438
▁안중 -14439
▁의성 -14440
▁이질 -14441
▁235 -14442
▁행해지 -14443
VA -14444
벌리 -14445
엽수 -14446
윽고 -14447
임새 -14448
▁KO -14449
▁기마 -14450
▁등산 -14451
▁디디 -14452
▁양극 -14453
▁영락 -14454
▁월화 -14455
▁토피 -14456
▁보조금 -14457
▁이윽고 -14458
▁장갑차 -14459
▁쇼트트랙 -14460
▁거머 -14461
▁문관 -14462
▁양지 -14463
▁에레 -14464
▁유충 -14465
▁체로 -14466
▁중앙아메리카 -14467
▁텅 -14468
모음 -14469
▁가세 -14470
▁경의 -14471
▁기공 -14472
▁동거 -14473
▁모체 -14474
▁묘호 -14475
▁법규 -14476
▁생쥐 -14477
▁서안 -14478
▁즐거 -14479
록대부 -14480
▁DOS -14481
▁상반기 -14482
▁선거인 -14483
▁이사벨 -14484
▁통도사 -14485
▁University -14486
▁샷 -14487
▁가모 -14488
▁내림 -14489
▁보우 -14490
▁사주 -14491
▁원효 -14492
▁이홍 -14493
▁아리랑 -14494
13 -14495
우주 -14496
화당 -14497
▁수마 -14498
▁자격증 -14499
▁아우구스투스 -14500
루즈 -14501
어류 -14502
은사 -14503
크리 -14504
▁교관 -14505
▁금정 -14506
▁모사 -14507
▁무능 -14508
▁방호 -14509
▁서당 -14510
▁활기 -14511
▁건너오 -14512
▁캐스터 -14513
▁브로드웨이 -14514
▁구세 -14515
▁근세 -14516
▁로바 -14517
▁실은 -14518
▁위트 -14519
▁코로 -14520
▁사할린 -14521
▁카디널 -14522
▁저널리스트 -14523
me -14524
▁탭 -14525
▁가명 -14526
▁베티 -14527
▁보그 -14528
▁세일 -14529
▁수역 -14530
▁안톤 -14531
▁열악 -14532
▁잉카 -14533
▁정언 -14534
▁젤리 -14535
▁콘스 -14536
▁키트 -14537
해방군 -14538
▁동아리 -14539
▁바나나 -14540
▁서스펜 -14541
▁슈퍼스타 -14542
▁인민해방군 -14543
그램 -14544
박사 -14545
텐셜 -14546
▁구아 -14547
▁규약 -14548
▁빌드 -14549
▁시의 -14550
▁양서 -14551
▁요가 -14552
▁일간 -14553
▁출격 -14554
▁북극점 -14555
▁연속극 -14556
▁정치국 -14557
▁랠 -14558
▁대류 -14559
▁샤르 -14560
▁패치 -14561
▁205 -14562
▁NBC -14563
▁꽃차례 -14564
▁통계청 -14565
사와 -14566
▁동군 -14567
▁라울 -14568
▁문수 -14569
▁미트 -14570
▁박용 -14571
▁변천 -14572
▁사미 -14573
▁야코 -14574
▁염두 -14575
▁이달 -14576
▁정글 -14577
▁종가 -14578
▁확충 -14579
▁순식간 -14580
▁콜럼버스 -14581
18 -14582
anc -14583
▁경순 -14584
▁세스 -14585
▁시제 -14586
▁은폐 -14587
▁출사 -14588
▁키타 -14589
▁가이아 -14590
▁교육감 -14591
▁퍼텐셜 -14592
▁라이베리아 -14593
▁보컬리스트 -14594
▁IR -14595
▁래리 -14596
▁병렬 -14597
▁잉여 -14598
▁자위 -14599
▁중남 -14600
▁집사 -14601
▁후루 -14602
▁가요제 -14603
▁로버츠 -14604
ㄱㅜ -14605
쿠사 -14606
▁At -14607
▁경종 -14608
▁단양 -14609
▁볼드 -14610
▁상계 -14611
▁소양 -14612
▁실효 -14613
▁악당 -14614
▁안심 -14615
▁전조 -14616
▁뉴올리 -14617
▁사학자 -14618
스코리아 -14619
▁기미 -14620
▁나일 -14621
▁숙박 -14622
▁싱크 -14623
▁초계 -14624
▁케리 -14625
▁시그마 -14626
데기 -14627
▁가뭄 -14628
▁델리 -14629
▁석기 -14630
▁신병 -14631
▁정승 -14632
▁정에 -14633
진보당 -14634
▁대수학 -14635
▁무지개 -14636
▁비단털 -14637
▁셴 -14638
▁퀄 -14639
보라 -14640
촌리 -14641
▁균일 -14642
▁노카 -14643
▁데일 -14644
▁미첼 -14645
▁복부 -14646
▁불쾌 -14647
▁자키 -14648
▁품목 -14649
▁호로 -14650
very -14651
▁708 -14652
▁슈미트 -14653
▁아스카 -14654
▁청문회 -14655
▁비단털쥐 -14656
에쓰 -14657
연구 -14658
주크 -14659
▁AE -14660
▁띄우 -14661
▁외할 -14662
▁일주 -14663
▁축복 -14664
▁스케일 -14665
▁콘라트 -14666
▁유가행파 -14667
▁지하철역 -14668
au -14669
▁뤄 -14670
▁군복 -14671
▁금하 -14672
▁나기 -14673
▁라가 -14674
▁라플 -14675
▁무가 -14676
▁산문 -14677
▁아연 -14678
▁조봉 -14679
▁족장 -14680
▁총영 -14681
▁칼륨 -14682
▁하지 -14683
▁한겨 -14684
▁재미있 -14685
▁호흡기 -14686
▁Hell -14687
▁관음보살 -14688
▁서비스업 -14689
▁cc -14690
▁경화 -14691
▁금환 -14692
▁안팎 -14693
▁에볼 -14694
▁화음 -14695
▁ATC -14696
▁게임즈 -14697
▁교육학 -14698
▁당뇨병 -14699
▁로베르토 -14700
▁바이마르 -14701
▁스틸러스 -14702
net -14703
▁단발 -14704
▁옥사 -14705
▁잔혹 -14706
▁폐교 -14707
▁한복 -14708
▁비잔틴 -14709
▁오르간 -14710
▁조선공산당 -14711
열대 -14712
▁JC -14713
▁기스 -14714
▁남단 -14715
▁리시 -14716
▁뮐러 -14717
▁베크 -14718
▁줄곧 -14719
▁초회 -14720
▁다가가 -14721
▁신호장 -14722
▁테두리 -14723
▁갈릴레오 -14724
르산 -14725
큐슈 -14726
ala -14727
▁골절 -14728
▁시성 -14729
▁애드 -14730
▁후이 -14731
스크림 -14732
▁거주자 -14733
▁그레이엄 -14734
▁마흐 -14735
▁손목 -14736
▁코크 -14737
▁포니 -14738
▁향수 -14739
폴리탄 -14740
▁간호사 -14741
▁시마즈 -14742
▁유명세 -14743
▁조각상 -14744
▁1874 -14745
▁name -14746
▁일렉트릭 -14747
▁클러스터 -14748
▁메트로폴리탄 -14749
바드 -14750
ATO -14751
▁낭비 -14752
▁전범 -14753
▁치마 -14754
▁침범 -14755
▁카로 -14756
▁클랜 -14757
▁오릭스 -14758
▁벚 -14759
변수 -14760
▁비옥 -14761
▁상한 -14762
▁솜씨 -14763
▁외손 -14764
▁우기 -14765
▁우표 -14766
▁읍성 -14767
▁인성 -14768
▁조각가 -14769
▁후쿠이 -14770
▁잼 -14771
나들 -14772
민당 -14773
악산 -14774
▁고층 -14775
▁그립 -14776
▁보어 -14777
▁소론 -14778
▁스펙 -14779
▁에노 -14780
▁젠더 -14781
▁통솔 -14782
▁하산 -14783
▁화승 -14784
▁김해시 -14785
▁출판물 -14786
▁sp -14787
▁다쿠 -14788
▁외삼 -14789
▁일삼 -14790
▁Her -14791
▁공학자 -14792
▁라스트 -14793
▁성폭력 -14794
▁콘퍼런스 -14795
14 -14796
구니 -14797
프랑 -14798
▁되살 -14799
▁무예 -14800
▁쿠마 -14801
▁화원 -14802
▁반대편 -14803
▁포식자 -14804
▁우두머리 -14805
ps -14806
범죄 -14807
ash -14808
▁과세 -14809
▁나한 -14810
▁뉴멕 -14811
▁도형 -14812
▁리나 -14813
▁모치 -14814
▁몰수 -14815
▁밸브 -14816
▁창구 -14817
▁탄수 -14818
▁풀백 -14819
▁사무관 -14820
▁안양시 -14821
▁전시관 -14822
▁케이드 -14823
▁핸드볼 -14824
▁뉴멕시코 -14825
▁멱 -14826
신저 -14827
▁SR -14828
▁et -14829
▁강좌 -14830
▁관위 -14831
▁발작 -14832
▁쓰리 -14833
▁오마 -14834
▁이문 -14835
▁재회 -14836
▁tvN -14837
▁최진실 -14838
▁한겨레 -14839
▁This -14840
▁ᆫㄷㅏㄴ -14841
▁오아시스 -14842
데일 -14843
▁강국 -14844
▁너희 -14845
▁넷플 -14846
▁리타 -14847
▁발판 -14848
▁버니 -14849
▁사중 -14850
▁양평 -14851
▁적법 -14852
▁사하라 -14853
▁안드레 -14854
▁컨설팅 -14855
▁트레일 -14856
▁넷플릭스 -14857
▁멀티미디어 -14858
높이 -14859
소문 -14860
황색 -14861
▁가온 -14862
▁동백 -14863
▁요직 -14864
▁학당 -14865
▁남극점 -14866
▁부르봉 -14867
▁셀주크 -14868
▁여운형 -14869
▁바그다드 -14870
▁알렉산데르 -14871
ax -14872
▁YG -14873
▁마늘 -14874
▁바니 -14875
▁예제 -14876
▁잔여 -14877
▁점하 -14878
▁조동 -14879
어나오 -14880
▁저스틴 -14881
▁휴대폰 -14882
▁1877 -14883
▁유니코드 -14884
▁컨퍼런스 -14885
▁서아프리카 -14886
15 -14887
co -14888
▁맞물 -14889
▁벗기 -14890
▁석권 -14891
▁이색 -14892
▁코린 -14893
▁화염 -14894
▁204 -14895
▁클로드 -14896
HC -14897
▁ㅅㅏ -14898
▁레나 -14899
▁문맥 -14900
▁산조 -14901
▁인스 -14902
▁칠성 -14903
▁코바 -14904
▁협곡 -14905
▁로페스 -14906
▁외계인 -14907
▁중거리 -14908
▁천도교 -14909
▁항공편 -14910
▁미스코리아 -14911
▁뉴클레오타이드 -14912
▁"| -14913
▁ㅁㅓ -14914
▁거시 -14915
▁격전 -14916
▁공문 -14917
▁김우 -14918
▁백지 -14919
▁자성 -14920
▁홍익 -14921
▁핵탄두 -14922
▁파푸아뉴기니 -14923
스퍼 -14924
피크 -14925
▁가선 -14926
▁변론 -14927
▁선단 -14928
▁엄지 -14929
▁템플 -14930
야누스 -14931
▁지리산 -14932
▁캄파니아 -14933
▁플루토늄 -14934
▁호소카와 -14935
GB -14936
so -14937
yn -14938
▁쿰 -14939
일기 -14940
▁고승 -14941
▁그르 -14942
▁두뇌 -14943
▁부엌 -14944
▁소인 -14945
▁의제 -14946
▁주군 -14947
▁퇴진 -14948
▁행선 -14949
▁회차 -14950
▁CIA -14951
▁Dra -14952
▁동남쪽 -14953
▁한국군 -14954
를레 -14955
징어 -14956
▁경합 -14957
▁문물 -14958
▁바야 -14959
▁에페 -14960
▁공주시 -14961
▁아놀드 -14962
▁레닌주의 -14963
▁서바이벌 -14964
▁트라야누스 -14965
계약 -14966
비에 -14967
혈구 -14968
▁AF -14969
▁복속 -14970
▁제비 -14971
▁판명 -14972
▁펭귄 -14973
▁흐리 -14974
▁Best -14975
▁기울어지 -14976
▁챠 -14977
▁툼 -14978
oid -14979
▁GR -14980
▁논증 -14981
▁소르 -14982
▁송이 -14983
▁여정 -14984
▁차오 -14985
▁카일 -14986
▁518 -14987
▁이주민 -14988
▁허베이 -14989
▁현미경 -14990
▁7000 -14991
▁감축 -14992
▁경내 -14993
▁깔리 -14994
▁승낙 -14995
▁시발 -14996
▁원사 -14997
▁재물 -14998
▁지크 -14999
▁캠벨 -15000
▁Bab -15001
▁개화파 -15002
▁앞바다 -15003
▁에스컬 -15004
▁카리스 -15005
▁트레인 -15006
▁에스컬레이터 -15007
더릭 -15008
토크 -15009
▁곤살 -15010
▁도부 -15011
▁라임 -15012
▁무주 -15013
▁미겔 -15014
▁블랑 -15015
▁세제 -15016
▁제지 -15017
▁퇴치 -15018
▁후회 -15019
▁거머쥐 -15020
▁브리스 -15021
▁오리엔 -15022
▁콘티넨 -15023
▁돌려보내 -15024
동원 -15025
운수 -15026
▁기닿 -15027
▁민원 -15028
▁스플 -15029
▁아킬 -15030
▁앨라 -15031
▁미트라 -15032
▁스타드 -15033
▁참전하 -15034
▁프레슬리 -15035
투리 -15036
▁레크 -15037
▁서품 -15038
▁양천 -15039
▁1700 -15040
▁다카하시 -15041
마을 -15042
재판 -15043
▁Mi -15044
▁결장 -15045
▁노하 -15046
▁도읍 -15047
▁미러 -15048
▁베다 -15049
▁앞뒤 -15050
▁억울 -15051
▁요도 -15052
▁트림 -15053
▁클레오 -15054
▁페스트 -15055
ict -15056
▁건지 -15057
▁달력 -15058
▁바젤 -15059
▁소주 -15060
▁달려가 -15061
▁대사간 -15062
▁수백만 -15063
▁울트라 -15064
▁쓰러뜨리 -15065
▁웜 -15066
티지 -15067
ose -15068
▁로망 -15069
▁북측 -15070
▁산술 -15071
▁산체 -15072
▁루이즈 -15073
제철 -15074
▁거병 -15075
▁미켈 -15076
▁숙명 -15077
▁순찰 -15078
▁승률 -15079
▁지령 -15080
▁츠카 -15081
▁타선 -15082
▁통찰 -15083
▁하층 -15084
▁625 -15085
▁사다리 -15086
▁원주시 -15087
▁인류학 -15088
▁콜린스 -15089
22 -15090
▁본존 -15091
▁사연 -15092
▁산재 -15093
▁산정 -15094
▁토바 -15095
▁화소 -15096
▁APG -15097
▁길거리 -15098
▁루카스 -15099
▁아키텐 -15100
▁엘비스 -15101
▁연방군 -15102
▁우에노 -15103
▁이론가 -15104
▁만장일치 -15105
▁아드리아 -15106
▁켐 -15107
의식 -15108
장사 -15109
형제 -15110
▁공병 -15111
▁다윗 -15112
▁만지 -15113
▁인계 -15114
▁자백 -15115
▁처마 -15116
▁게이밍 -15117
▁경부선 -15118
▁돌려주 -15119
▁억제제 -15120
▁1859 -15121
▁라이센스 -15122
▁카디널스 -15123
▁프리큐어 -15124
버터 -15125
▁KS -15126
▁결여 -15127
▁대입 -15128
▁상환 -15129
▁자네 -15130
구나 -15131
▁롤러 -15132
▁맹렬 -15133
▁방학 -15134
▁블룸 -15135
▁테헤 -15136
▁투사 -15137
로트 -15138
▁문건 -15139
▁북인 -15140
▁상설 -15141
▁강화군 -15142
▁서태지 -15143
고사 -15144
양구 -15145
▁도안 -15146
▁뒤덮 -15147
▁수질 -15148
▁율리 -15149
▁푸젠 -15150
▁함장 -15151
▁허물 -15152
▁난쟁이 -15153
▁통계학 -15154
▁향신료 -15155
▁짚 -15156
과학 -15157
▁se -15158
▁곡식 -15159
▁구전 -15160
▁김주 -15161
▁네브 -15162
▁만류 -15163
▁명왕 -15164
▁성조 -15165
▁유창 -15166
▁일어 -15167
▁차역 -15168
▁후견 -15169
▁빌바오 -15170
▁이케다 -15171
▁제니퍼 -15172
▁자이언트 -15173
나시 -15174
무장 -15175
▁김도 -15176
▁나투 -15177
▁리안 -15178
▁발광 -15179
▁알로 -15180
▁전봉 -15181
▁플랑 -15182
▁헬스 -15183
▁가치관 -15184
▁매니아 -15185
▁아이치 -15186
▁앙드레 -15187
▁아이스크림 -15188
▁끔 -15189
르바 -15190
EEE -15191
▁니즈 -15192
▁로디 -15193
▁무공 -15194
▁백운 -15195
▁사병 -15196
▁완장 -15197
▁빈센트 -15198
▁자카르타 -15199
▁튀어나오 -15200
▁us -15201
▁관아 -15202
▁구가 -15203
▁부식 -15204
▁서체 -15205
▁이니 -15206
▁주포 -15207
▁진심 -15208
▁결의안 -15209
▁곧이어 -15210
▁혼합물 -15211
▁스테파노 -15212
란다 -15213
장조 -15214
▁뚜껑 -15215
▁멜라 -15216
▁사산 -15217
▁상감 -15218
▁원점 -15219
▁폐차 -15220
▁대혁명 -15221
▁불러오 -15222
▁슈투트 -15223
▁테크놀로지 -15224
▁슈투트가르트 -15225
uck -15226
▁루드 -15227
▁박찬 -15228
▁선과 -15229
▁수프 -15230
▁의인 -15231
▁이만 -15232
▁일면 -15233
▁카보 -15234
▁피자 -15235
▁홀수 -15236
▁미성년 -15237
▁순천시 -15238
▁아파치 -15239
▁출장소 -15240
▁미야기현 -15241
▁사이클론 -15242
▁뮈 -15243
매기 -15244
배마 -15245
스톤 -15246
▁군기 -15247
▁금관 -15248
▁왕당 -15249
▁퇴출 -15250
reak -15251
▁셰퍼드 -15252
▁메모리얼 -15253
▁앨라배마 -15254
플레 -15255
▁오와 -15256
▁중건 -15257
▁타파 -15258
▁튜링 -15259
▁후면 -15260
de -15261
▁긋 -15262
▁펙 -15263
▁이창 -15264
▁바스크 -15265
▁이치현 -15266
▁소아시아 -15267
남면 -15268
▁모교 -15269
▁바투 -15270
▁발터 -15271
▁보디 -15272
▁수라 -15273
▁안주 -15274
▁어학 -15275
▁예보 -15276
▁태화 -15277
▁터스 -15278
▁가우스 -15279
▁개최지 -15280
▁대제학 -15281
▁순교자 -15282
▁직사각 -15283
▁^ -15284
완다 -15285
vel -15286
▁레티 -15287
▁모션 -15288
▁수주 -15289
▁340 -15290
▁쓰촨성 -15291
▁안철수 -15292
▁정착지 -15293
▁헬레니즘 -15294
소니 -15295
정변 -15296
▁사생 -15297
▁사와 -15298
▁선별 -15299
▁연해 -15300
▁장경 -15301
▁전서 -15302
▁정역 -15303
▁타밀 -15304
▁학창 -15305
▁무신론 -15306
▁브레멘 -15307
▁IEEE -15308
▁국가원수 -15309
▁크리스틴 -15310
▁Super -15311
학파 -15312
▁리언 -15313
▁비어 -15314
▁솔리 -15315
▁원만 -15316
▁입찰 -15317
▁자갈 -15318
▁총감 -15319
▁호투 -15320
떨어지 -15321
▁목표물 -15322
▁바빌론 -15323
▁아니면 -15324
▁환승역 -15325
▁안토니우스 -15326
댓값 -15327
▁관군 -15328
▁교재 -15329
▁로보 -15330
▁로코 -15331
▁사탄 -15332
▁스완 -15333
▁오인 -15334
▁헤라 -15335
▁호적 -15336
▁화풍 -15337
▁개막식 -15338
▁라그랑 -15339
▁로스트 -15340
▁마코토 -15341
HL -15342
oo -15343
▁FF -15344
▁공석 -15345
▁교감 -15346
▁근간 -15347
▁뉴잉 -15348
▁속국 -15349
▁아누 -15350
▁짝수 -15351
▁코이 -15352
▁하후 -15353
▁국내선 -15354
▁기념장 -15355
▁로저스 -15356
▁무사시 -15357
▁조르주 -15358
ㅇㅏ -15359
팩스 -15360
▁김학 -15361
▁덮치 -15362
▁도끼 -15363
▁동급 -15364
▁발진 -15365
▁보아 -15366
▁산남 -15367
▁유틸 -15368
▁작자 -15369
게이트 -15370
▁310 -15371
▁des -15372
▁선제후 -15373
▁실린더 -15374
▁에세이 -15375
▁유틸리티 -15376
나주 -15377
티어 -15378
패드 -15379
ail -15380
▁as -15381
▁개표 -15382
▁섹션 -15383
▁조회 -15384
▁통감 -15385
레틱스 -15386
▁대관식 -15387
▁볼프강 -15388
▁예문관 -15389
▁Star -15390
▁그래픽스 -15391
▁오토바이 -15392
▁무형문화재 -15393
▁애슬레틱스 -15394
▁후쿠시마현 -15395
TF -15396
바퀴 -15397
조류 -15398
▁경원 -15399
▁구라 -15400
▁베가 -15401
▁산인 -15402
▁센타 -15403
▁수구 -15404
▁시력 -15405
▁어선 -15406
▁왕명 -15407
▁용맹 -15408
▁기생충 -15409
▁원정대 -15410
▁탈레반 -15411
ㄱㅓㄴㅏ -15412
▁모니터링 -15413
▁썸 -15414
버라 -15415
주사 -15416
▁거문 -15417
▁과달 -15418
▁교인 -15419
▁도매 -15420
▁뚫리 -15421
▁마다 -15422
▁변성 -15423
▁상층 -15424
▁추장 -15425
공화당 -15426
▁개척자 -15427
▁리바이 -15428
▁1812 -15429
▁선거관리 -15430
▁중앙일보 -15431
▁뉴올리언스 -15432
▁민주공화당 -15433
▁매사추세츠주 -15434
▁선거관리위원회 -15435
디드 -15436
▁my -15437
▁정청 -15438
▁커리 -15439
▁투기 -15440
▁호화 -15441
▁희미 -15442
▁슈트라 -15443
▁오슬로 -15444
▁John -15445
▁나바 -15446
▁아칸 -15447
▁황위 -15448
하마드 -15449
▁디에고 -15450
▁레이건 -15451
▁분류학 -15452
▁여러분 -15453
▁해인사 -15454
▁아이파크 -15455
▁콘스탄티누스 -15456
iel -15457
▁DO -15458
▁ON -15459
▁나시 -15460
▁담양 -15461
▁닷컴 -15462
▁도파 -15463
▁메드 -15464
▁버밍 -15465
▁철기 -15466
▁교황령 -15467
▁어우러지 -15468
▁슈트라우스 -15469
▁뽀 -15470
▁ad -15471
▁기권 -15472
▁무위 -15473
▁보국 -15474
▁세밀 -15475
▁손수 -15476
▁스쿼 -15477
▁슬러 -15478
▁양동 -15479
▁청정 -15480
▁추밀 -15481
▁포상 -15482
▁하강 -15483
▁호국 -15484
▁자본가 -15485
▁합병증 -15486
▁고바야시 -15487
gh -15488
▁Kn -15489
▁근위 -15490
▁떠돌 -15491
▁박경 -15492
▁시편 -15493
▁유보 -15494
▁평방 -15495
▁Sun -15496
▁록히드 -15497
▁셀레우 -15498
▁테헤란 -15499
▁한자어 -15500
▁불법행위 -15501
▁아미타불 -15502
주석 -15503
▁게놈 -15504
▁공경 -15505
▁레저 -15506
▁명륜 -15507
▁빨강 -15508
▁용역 -15509
▁울루 -15510
▁진천 -15511
▁체질 -15512
▁커브 -15513
▁특명 -15514
▁호이 -15515
시아키 -15516
▁you -15517
▁이광수 -15518
▁후반전 -15519
▁뉴잉글랜드 -15520
RI -15521
▁당상 -15522
▁부락 -15523
▁수문 -15524
▁이건 -15525
▁토프 -15526
▁단말기 -15527
▁보이즈 -15528
▁에이지 -15529
▁인산화 -15530
▁Soul -15531
▁아브라함 -15532
▁얄 -15533
구미 -15534
▁걸스 -15535
▁로런 -15536
▁무진 -15537
▁주유 -15538
▁타라 -15539
▁폐하 -15540
▁해커 -15541
▁App -15542
어놓 -15543
ray -15544
▁개경 -15545
▁김덕 -15546
▁로컬 -15547
▁배타 -15548
▁정실 -15549
▁충동 -15550
▁퀸스 -15551
▁항문 -15552
▁209 -15553
▁에이브 -15554
▁파르마 -15555
▁북대서양 -15556
OK -15557
▁IF -15558
▁가창 -15559
▁과감 -15560
▁관개 -15561
▁논평 -15562
▁소포 -15563
▁수족 -15564
▁식이 -15565
▁아호 -15566
▁조던 -15567
▁지검 -15568
▁천자 -15569
▁청일 -15570
▁총생 -15571
▁카파 -15572
▁코우 -15573
▁공성전 -15574
▁대대장 -15575
▁오메가 -15576
▁울주군 -15577
▁Christ -15578
블릭 -15579
ute -15580
▁Mr -15581
▁리퍼 -15582
▁샤오 -15583
▁양념 -15584
▁쿠루 -15585
▁투니 -15586
▁피그 -15587
▁태블릿 -15588
▁ㄴㅏㅁㅏ -15589
EA -15590
연맹 -15591
▁귀순 -15592
▁금기 -15593
▁도자 -15594
▁애호 -15595
▁패자 -15596
▁해주 -15597
하우스 -15598
▁게이오 -15599
▁송진우 -15600
▁접미사 -15601
▁주거지 -15602
▁지석묘 -15603
▁ICBM -15604
▁리바운드 -15605
▁구비 -15606
▁그릴 -15607
▁노마 -15608
▁늦추 -15609
▁의논 -15610
▁카펠 -15611
▁휴일 -15612
▁206 -15613
▁레코딩 -15614
▁사우디 -15615
▁파르티아 -15616
▁아람 -15617
▁영도 -15618
▁풀이 -15619
▁주제가 -15620
▁클라리 -15621
▁페르시 -15622
▁쑹 -15623
탄올 -15624
▁강유 -15625
▁금천 -15626
▁끔찍 -15627
▁당장 -15628
▁속초 -15629
▁안면 -15630
▁유계 -15631
▁장강 -15632
▁장지 -15633
▁점토 -15634
▁쪼개 -15635
▁천적 -15636
▁풍요 -15637
라이스 -15638
▁르완다 -15639
▁베르사유 -15640
도감 -15641
샤오 -15642
초프 -15643
▁HP -15644
▁그늘 -15645
▁법상 -15646
▁사파 -15647
▁양원 -15648
▁유상 -15649
▁인척 -15650
▁조우 -15651
▁탄두 -15652
▁스태프 -15653
▁자오선 -15654
▁1879 -15655
59 -15656
▁름 -15657
▁쑨 -15658
화산 -15659
▁NM -15660
▁Tw -15661
▁규합 -15662
▁단수 -15663
▁로지 -15664
▁부기 -15665
▁손쉽 -15666
▁지카 -15667
▁집적 -15668
▁남북조 -15669
▁여주인 -15670
▁영사관 -15671
▁음식점 -15672
▁막시밀리 -15673
분투 -15674
자드 -15675
▁고후 -15676
▁김시 -15677
▁니치 -15678
▁듀스 -15679
▁루손 -15680
▁반정 -15681
▁상이 -15682
▁자존 -15683
▁개개인 -15684
▁윤치영 -15685
▁자치현 -15686
네프 -15687
반정 -15688
▁감당 -15689
▁유세 -15690
▁차차 -15691
▁카토 -15692
▁콜론 -15693
▁쿠시 -15694
▁747 -15695
▁백두산 -15696
▁안데스 -15697
▁엘리스 -15698
▁조광조 -15699
▁알렉세이 -15700
▁군마 -15701
▁모태 -15702
▁부화 -15703
▁불문 -15704
▁산동 -15705
▁어지 -15706
▁유민 -15707
▁자석 -15708
▁춘계 -15709
▁현수 -15710
▁효능 -15711
로세서 -15712
▁고지대 -15713
▁여수시 -15714
▁카지노 -15715
▁트리스 -15716
▁ㅇㅔㄷㅏㄱㅏ -15717
▁ᆯㅈㅣㄹㅏㄷㅗ -15718
16 -15719
네오 -15720
방스 -15721
티보 -15722
▁동맥 -15723
▁두부 -15724
▁딱딱 -15725
▁범람 -15726
▁아로 -15727
▁역동 -15728
▁위축 -15729
▁이코 -15730
▁독재자 -15731
▁삼거리 -15732
▁아이작 -15733
▁연대장 -15734
▁의병장 -15735
▁피어스 -15736
▁금리 -15737
▁농담 -15738
▁시타 -15739
▁중등 -15740
▁흐트 -15741
▁광합성 -15742
▁NX -15743
▁갑신 -15744
▁맞배 -15745
▁비오 -15746
▁성자 -15747
▁자각 -15748
를레앙 -15749
▁420 -15750
▁로널드 -15751
▁선수상 -15752
▁조봉암 -15753
▁페이퍼 -15754
▁유럽연합 -15755
YP -15756
▁꽝 -15757
다임 -15758
무지 -15759
슐리 -15760
▁PA -15761
▁반납 -15762
▁정맥 -15763
▁카다 -15764
▁힐스 -15765
로그램 -15766
▁석회암 -15767
▁남경 -15768
▁대등 -15769
▁대여 -15770
▁라쿠 -15771
▁불능 -15772
▁빛깔 -15773
▁스킨 -15774
▁양정 -15775
▁전열 -15776
▁초식 -15777
▁국방군 -15778
17 -15779
▁쿵 -15780
산업 -15781
▁Gu -15782
▁상회 -15783
▁소량 -15784
▁수아 -15785
▁앙상 -15786
▁잇달 -15787
▁장이 -15788
▁호시 -15789
▁Win -15790
▁바닷가 -15791
▁건국훈장 -15792
면적 -15793
일체 -15794
▁국문 -15795
▁나토 -15796
▁낯설 -15797
▁동대 -15798
▁머큐 -15799
▁반향 -15800
▁시영 -15801
▁원한 -15802
스트림 -15803
▁CoA -15804
▁사가미 -15805
▁패러다임 -15806
▁둠 -15807
▁퀼 -15808
수지 -15809
ual -15810
▁무패 -15811
▁실베 -15812
▁영종 -15813
▁오웬 -15814
▁인삼 -15815
▁컬링 -15816
▁킬러 -15817
▁폴로 -15818
▁버스터 -15819
▁재결합 -15820
▁일렉트로닉 -15821
▁뜯 -15822
태자 -15823
▁내시 -15824
▁온전 -15825
▁클럭 -15826
▁440 -15827
▁변호인 -15828
▁제이크 -15829
▁즐거움 -15830
▁테크노 -15831
▁항생제 -15832
▁반달 -15833
▁부트 -15834
▁안락 -15835
▁유관 -15836
▁제고 -15837
▁군주제 -15838
▁니가타 -15839
▁여행자 -15840
리아누스 -15841
▁포틀랜드 -15842
링크 -15843
박이 -15844
ull -15845
▁"' -15846
▁RA -15847
▁능숙 -15848
▁두스 -15849
▁먼로 -15850
▁압수 -15851
▁일보 -15852
▁투병 -15853
▁할로 -15854
▁호찌 -15855
▁리그컵 -15856
▁바레인 -15857
▁플래닛 -15858
▁엔지니어링 -15859
▁Record -15860
울루 -15861
의금 -15862
▁권투 -15863
▁스텐 -15864
▁열람 -15865
▁이설 -15866
▁임실 -15867
▁촐라 -15868
▁할구 -15869
▁항전 -15870
▁랴오닝 -15871
▁수영장 -15872
▁알칼리 -15873
▁암스트 -15874
▁야구부 -15875
▁영화관 -15876
▁요나라 -15877
▁접근성 -15878
▁들어올리 -15879
선교 -15880
장군 -15881
▁고독 -15882
▁노역 -15883
▁대방 -15884
▁바바 -15885
▁전곡 -15886
▁화이 -15887
▁Per -15888
▁Intern -15889
발트 -15890
신보 -15891
VID -15892
▁강가 -15893
▁사목 -15894
▁요셉 -15895
▁이석 -15896
▁증축 -15897
▁후추 -15898
▁글리제 -15899
▁부추기 -15900
▁불거지 -15901
▁스텔스 -15902
▁실리콘 -15903
▁오우치 -15904
▁크리스탈 -15905
▁끊이 -15906
▁매복 -15907
▁멘델 -15908
▁사체 -15909
ㄹㄹㅗ -15910
▁ㄹㄹㅗ -15911
▁산투스 -15912
▁지극히 -15913
ㅁㅏㄹㄹㅗ -15914
▁KD -15915
▁기한 -15916
▁리노 -15917
▁에다 -15918
▁접목 -15919
▁최용 -15920
▁코인 -15921
▁행운 -15922
▁환산 -15923
▁256 -15924
▁본거지 -15925
▁호기심 -15926
바이러스 -15927
능력 -15928
대비 -15929
▁광시 -15930
▁기시 -15931
▁도나 -15932
▁바타 -15933
▁소진 -15934
▁오차 -15935
▁처칠 -15936
▁체리 -15937
▁911 -15938
▁기본법 -15939
▁베이직 -15940
▁스위트 -15941
▁유기체 -15942
▁잠비아 -15943
▁그러다가 -15944
▁다마스쿠스 -15945
▁아우구스트 -15946
▁기피 -15947
▁미타 -15948
▁솔직 -15949
▁정직 -15950
▁제방 -15951
▁치킨 -15952
▁225 -15953
▁Str -15954
▁살아오 -15955
▁엔리케 -15956
▁이회창 -15957
▁조용히 -15958
▁토론회 -15959
▁판매고 -15960
▁2500 -15961
▁원종공신 -15962
▁MD -15963
▁문어 -15964
▁앉히 -15965
▁열거 -15966
▁준하 -15967
▁트램 -15968
▁깨어나 -15969
▁타지키스탄 -15970
▁ㅇㅡㄹㅅㅜㄹㅗㄱ -15971
로로 -15972
쿠치 -15973
▁po -15974
▁노엘 -15975
▁담수 -15976
▁시온 -15977
▁왕릉 -15978
▁우디 -15979
▁바실리 -15980
▁양산시 -15981
▁엘리엇 -15982
▁대법원장 -15983
▁가결 -15984
▁내기 -15985
▁동하 -15986
▁멘토 -15987
▁봉분 -15988
▁성형 -15989
▁왕좌 -15990
▁우타 -15991
▁중신 -15992
▁탈피 -15993
고로드 -15994
▁연금술 -15995
데오 -15996
레미 -15997
스틱 -15998
▁mu -15999
▁담임 -16000
▁미녀 -16001
▁성현 -16002
▁양구 -16003
▁왕녀 -16004
▁워낙 -16005
▁콜리 -16006
▁렌더링 -16007
▁초고층 -16008
▁총생산 -16009
▁후유증 -16010
▁'. -16011
▁교명 -16012
▁균등 -16013
▁동두 -16014
▁리지 -16015
▁만물 -16016
▁사조 -16017
▁성교 -16018
▁수표 -16019
▁아역 -16020
▁악어 -16021
▁응력 -16022
▁코니 -16023
▁탄력 -16024
▁피질 -16025
ions -16026
▁Hot -16027
▁고다이 -16028
▁네바다 -16029
▁잠재력 -16030
▁제시카 -16031
▁춘천시 -16032
▁주머니쥐 -16033
▁쐐 -16034
▁nm -16035
▁강자 -16036
▁군도 -16037
▁노름 -16038
▁브이 -16039
▁사나 -16040
▁신익 -16041
▁영성 -16042
▁용문 -16043
▁디스코 -16044
▁맞물리 -16045
▁비행사 -16046
▁왕당파 -16047
▁프리드 -16048
길준 -16049
로움 -16050
▁CA -16051
▁궁주 -16052
▁득실 -16053
▁로만 -16054
▁사스 -16055
▁원곡 -16056
▁카츠 -16057
▁헐리 -16058
▁히코 -16059
레이즈 -16060
▁생산자 -16061
▁시에라 -16062
▁오토모 -16063
▁카스텔 -16064
▁허버트 -16065
▁독립선언 -16066
▁public -16067
는점 -16068
피카 -16069
황제 -16070
▁곱하 -16071
▁교내 -16072
▁동체 -16073
▁무소 -16074
▁북마 -16075
▁세타 -16076
▁실책 -16077
▁쌍용 -16078
▁쐐기 -16079
▁유미 -16080
▁윤곽 -16081
▁은평 -16082
▁이보 -16083
▁이한 -16084
▁파출 -16085
▁길버트 -16086
▁부서지 -16087
▁앙상블 -16088
▁예비군 -16089
▁웨슬리 -16090
▁이세이 -16091
▁지배하 -16092
25 -16093
ty -16094
덕궁 -16095
스텐 -16096
ors -16097
▁HS -16098
▁관저 -16099
▁광동 -16100
▁대용 -16101
▁애프 -16102
▁여관 -16103
▁조율 -16104
▁캅카스 -16105
▁Kore -16106
▁ㄹㅏㄴㅣ -16107
▁드래곤즈 -16108
빨리 -16109
인산 -16110
자나 -16111
▁거품 -16112
▁교학 -16113
▁구명 -16114
▁라사 -16115
▁마거 -16116
▁환초 -16117
▁오나라 -16118
▁프린세스 -16119
▁print -16120
무트 -16121
RNA -16122
▁Ke -16123
▁강타 -16124
▁명동 -16125
▁즉흥 -16126
▁지브 -16127
▁코일 -16128
▁호지 -16129
▁마운틴 -16130
▁부러지 -16131
▁브릿지 -16132
▁사무엘 -16133
▁유물론 -16134
ll -16135
▁농협 -16136
▁미디 -16137
▁생김 -16138
▁셔츠 -16139
▁스팀 -16140
▁방법론 -16141
▁와이어 -16142
▁주둔지 -16143
▁추축국 -16144
▁1789 -16145
▁기타큐슈 -16146
▁리치먼드 -16147
▁ㅅㅡㅂㄴㅣㄲㅏ -16148
라과 -16149
커우 -16150
훈련 -16151
▁OK -16152
▁누마 -16153
▁접시 -16154
▁종실 -16155
▁침수 -16156
▁파피 -16157
▁머큐리 -16158
▁프로필 -16159
▁탄수화물 -16160
▁플랑드르 -16161
이상 -16162
▁가전 -16163
▁구애 -16164
▁군림 -16165
▁던전 -16166
▁동률 -16167
▁예쁘 -16168
▁유독 -16169
▁제타 -16170
▁채집 -16171
▁춘향 -16172
▁커넥 -16173
▁향로 -16174
▁ㅇㅗㅂ -16175
▁고스트 -16176
▁디아스 -16177
▁브루노 -16178
▁오이타 -16179
▁유도탄 -16180
▁이마가와 -16181
불명 -16182
포리 -16183
▁노골 -16184
▁녹이 -16185
▁느슨 -16186
▁석재 -16187
▁성부 -16188
▁아구 -16189
▁장차 -16190
▁진성 -16191
▁흉내 -16192
ames -16193
▁오리건 -16194
▁제품군 -16195
▁조연상 -16196
▁콜라보 -16197
▁천문단위 -16198
▁베오그라드 -16199
평면 -16200
▁'- -16201
▁NL -16202
▁깊숙 -16203
▁정중 -16204
▁현관 -16205
▁흡입 -16206
리오스 -16207
▁내몽골 -16208
▁다행히 -16209
▁알베르 -16210
▁인문학 -16211
▁1801 -16212
▁NATO -16213
자락 -16214
▁Fl -16215
▁소노 -16216
▁진위 -16217
▁칠곡 -16218
lect -16219
ogle -16220
▁208 -16221
▁제노바 -16222
▁Back -16223
▁캥 -16224
던스 -16225
모닉 -16226
ove -16227
▁겨냥 -16228
▁공평 -16229
▁도식 -16230
▁도화 -16231
▁무루 -16232
▁신천 -16233
▁타키 -16234
▁트론 -16235
▁급속도 -16236
▁사법부 -16237
▁사천왕 -16238
▁아미타여래 -16239
차리 -16240
▁가령 -16241
▁강구 -16242
▁야만 -16243
▁유익 -16244
▁이크 -16245
▁재심 -16246
▁중학 -16247
▁청중 -16248
▁치밀 -16249
던지기 -16250
▁예수교 -16251
▁클라인 -16252
▁흘러가 -16253
▁니카라과 -16254
▁돼지고기 -16255
GO -16256
▁박태 -16257
▁안건 -16258
▁첫날 -16259
▁카인 -16260
▁트럼펫 -16261
▁1400 -16262
▁미식축구 -16263
제사 -16264
▁다채 -16265
▁라테 -16266
▁부안 -16267
▁생장 -16268
▁열기 -16269
▁전과 -16270
▁통킹 -16271
▁함의 -16272
프리드 -16273
▁동일시 -16274
▁브루크 -16275
▁영문학 -16276
▁영장류 -16277
▁조제프 -16278
ox -16279
레븐 -16280
▁Cr -16281
▁결투 -16282
▁군량 -16283
▁균열 -16284
▁악의 -16285
▁안시 -16286
▁유감 -16287
▁초판 -16288
▁최순 -16289
▁탄성 -16290
▁후난 -16291
▁붉은색 -16292
▁아르테 -16293
▁킵 -16294
▁BO -16295
▁가변 -16296
▁교란 -16297
▁김장 -16298
▁부이 -16299
▁승마 -16300
▁양위 -16301
▁초석 -16302
▁총국 -16303
▁캡틴 -16304
▁코디 -16305
▁표어 -16306
▁호전 -16307
▁370 -16308
▁거듭나 -16309
▁나카노 -16310
▁유길준 -16311
▁제주시 -16312
▁Amer -16313
▁암스트롱 -16314
▁이성질체 -16315
득점 -16316
파니 -16317
▁기일 -16318
▁약품 -16319
▁얼리 -16320
▁유재 -16321
▁책정 -16322
▁코딩 -16323
▁핼리 -16324
▁Res -16325
▁War -16326
▁광주시 -16327
▁남아공 -16328
▁동북부 -16329
▁미요시 -16330
▁방문객 -16331
▁페라리 -16332
노스아이 -16333
▁생물학자 -16334
▁항공우주 -16335
▁해수욕장 -16336
▁셀레우코스 -16337
노스아이레스 -16338
▁부에노스아이레스 -16339
▁격침 -16340
▁격화 -16341
▁굳이 -16342
▁김은 -16343
▁실태 -16344
▁약수 -16345
▁어인 -16346
▁예편 -16347
▁폭주 -16348
▁Mag -16349
▁기네스 -16350
▁어드밴 -16351
▁항소심 -16352
▁해수면 -16353
▁이리하여 -16354
▁소크라테스 -16355
▁갸 -16356
▁렬 -16357
▁고관 -16358
▁궁수 -16359
▁본능 -16360
▁사일 -16361
▁신궁 -16362
▁알마 -16363
▁에픽 -16364
▁운석 -16365
▁직각 -16366
▁흑색 -16367
▁Get -16368
▁만주족 -16369
▁폼페이우스 -16370
▁매듭 -16371
▁명장 -16372
▁황하 -16373
▁GPS -16374
▁들여오 -16375
▁메신저 -16376
▁사망률 -16377
▁요시카 -16378
그라운드 -16379
▁리하르트 -16380
▁비로자나 -16381
▁ㄱㅗㄴㅡㄴ -16382
월드 -16383
let -16384
▁BB -16385
▁소마 -16386
▁수화 -16387
▁천태 -16388
▁철근 -16389
▁출정 -16390
▁출항 -16391
▁MIT -16392
▁ㅁㅓㄴ -16393
▁디렉터 -16394
▁로런스 -16395
▁베테랑 -16396
▁타일러 -16397
▁태양광 -16398
▁트로츠키 -16399
▁둑 -16400
▁뿜 -16401
▁씬 -16402
처럼 -16403
enn -16404
▁구부 -16405
▁나날 -16406
▁무쓰 -16407
▁배지 -16408
▁서곡 -16409
▁오랑 -16410
▁하세 -16411
inal -16412
▁마거릿 -16413
▁Baby -16414
▁남한산성 -16415
▁레오나르 -16416
UM -16417
니츠 -16418
▁DA -16419
▁니트 -16420
▁듀엣 -16421
▁발열 -16422
▁비방 -16423
▁윈드 -16424
▁효모 -16425
▁라이드 -16426
▁부천시 -16427
▁스펜서 -16428
▁양평군 -16429
▁주세페 -16430
ology -16431
경찰 -16432
심원 -16433
▁개축 -16434
▁결렬 -16435
▁공지 -16436
▁관원 -16437
▁국산 -16438
▁미끄 -16439
▁미로 -16440
▁박동 -16441
▁생포 -16442
▁장론 -16443
▁제헌 -16444
▁탄광 -16445
▁해내 -16446
▁호박 -16447
▁화교 -16448
▁아열대 -16449
▁작아지 -16450
남동 -16451
덱스 -16452
메랄 -16453
오드 -16454
▁결단 -16455
▁극회 -16456
▁누에 -16457
▁민선 -16458
▁베라 -16459
▁장승 -16460
▁쟁점 -16461
▁조엘 -16462
▁블러드 -16463
▁모노이드 -16464
TN -16465
▁Dr -16466
▁개리 -16467
▁공훈 -16468
▁그간 -16469
▁대소 -16470
▁레반 -16471
▁비고 -16472
▁사옥 -16473
▁수선 -16474
▁승선 -16475
▁예일 -16476
▁증류 -16477
▁지회 -16478
▁청군 -16479
▁카불 -16480
▁한정판 -16481
▁안티오키아 -16482
가요 -16483
금속 -16484
무실 -16485
▁결집 -16486
▁군위 -16487
▁기교 -16488
▁도보 -16489
▁총수 -16490
▁출병 -16491
▁친히 -16492
▁캔터 -16493
▁365 -16494
▁Way -16495
▁모터쇼 -16496
▁민의원 -16497
▁부사장 -16498
▁스트라 -16499
▁시나노 -16500
▁이유로 -16501
▁이지스 -16502
▁정몽주 -16503
▁선거인단 -16504
▁알아차리 -16505
ㄷㅡㄴㄱㅏ -16506
시카 -16507
입자 -16508
▁PH -16509
▁니체 -16510
▁베아 -16511
▁봉헌 -16512
▁악역 -16513
▁죄인 -16514
▁필로 -16515
▁감마선 -16516
▁혈액형 -16517
▁게오르기 -16518
▁서귀포시 -16519
당류 -16520
테일 -16521
▁굴욕 -16522
▁명중 -16523
▁불길 -16524
▁연어 -16525
▁외가 -16526
▁충고 -16527
▁카노 -16528
▁학도 -16529
▁효성 -16530
▁리카르 -16531
▁쌍방울 -16532
▁전망대 -16533
ature -16534
▁로베르트 -16535
락부 -16536
▁고취 -16537
▁기형 -16538
▁산마 -16539
▁에인 -16540
▁으뜸 -16541
▁해머 -16542
이즈미 -16543
▁ㅇㅏㄴ -16544
▁직할시 -16545
▁ㄴㅡㄹㅏ -16546
▁리얼리티 -16547
▁이오니아 -16548
▁프레더릭 -16549
나비 -16550
백색 -16551
컨드 -16552
app -16553
ons -16554
ret -16555
▁도난 -16556
▁도량 -16557
▁벅스 -16558
▁북송 -16559
▁사계 -16560
▁설과 -16561
▁키치 -16562
코비치 -16563
▁TOP -16564
▁다카시 -16565
▁리그전 -16566
▁범어사 -16567
▁선데이 -16568
▁시아파 -16569
▁태극기 -16570
▁Cent -16571
▁라이온스 -16572
마니 -16573
▁SG -16574
▁SW -16575
▁갑오 -16576
▁담그 -16577
▁리라 -16578
▁변조 -16579
▁영위 -16580
▁창씨 -16581
▁콘셉 -16582
▁토하 -16583
▁국무부 -16584
▁대학살 -16585
▁도나우 -16586
▁신안군 -16587
▁알레산 -16588
▁이치로 -16589
▁지포스 -16590
▁함부로 -16591
의금부사 -16592
▁에두아르 -16593
▁System -16594
FS -16595
za -16596
갱이 -16597
즈미 -16598
현실 -16599
▁결실 -16600
▁레르 -16601
▁맞닿 -16602
▁매튜 -16603
▁선서 -16604
▁스틱 -16605
▁풋살 -16606
피에르 -16607
▁디나모 -16608
▁프린터 -16609
▁1815 -16610
▁아르바이트 -16611
▁경산 -16612
▁리서 -16613
▁살레 -16614
▁성찬 -16615
▁세도 -16616
▁습도 -16617
▁에든 -16618
▁전극 -16619
▁주스 -16620
▁토의 -16621
▁특혜 -16622
말라야 -16623
▁Dis -16624
▁무정부 -16625
▁일제히 -16626
▁피드백 -16627
▁필리스 -16628
▁에든버러 -16629
랭크 -16630
민정 -16631
▁롤리 -16632
▁사악 -16633
▁인노 -16634
▁장서 -16635
▁쿠사 -16636
▁틈타 -16637
▁퍼플 -16638
▁하츠 -16639
▁합장 -16640
▁207 -16641
▁김종직 -16642
▁생김새 -16643
▁세컨드 -16644
▁압둘라 -16645
▁야행성 -16646
▁유공자 -16647
▁전동기 -16648
▁포인터 -16649
로프로세서 -16650
▁마이크로프로세서 -16651
카라 -16652
▁기주 -16653
▁모잠 -16654
▁사보 -16655
▁새해 -16656
▁천리 -16657
▁트롤 -16658
▁한꺼 -16659
ater -16660
▁가디언 -16661
▁농민군 -16662
▁조합원 -16663
▁1820 -16664
▁모잠비크 -16665
▁한꺼번에 -16666
▁낸 -16667
ina -16668
▁공해 -16669
▁깁슨 -16670
▁서역 -16671
▁월경 -16672
▁위배 -16673
▁잔치 -16674
▁테살 -16675
▁강릉시 -16676
▁모델링 -16677
▁일진회 -16678
▁지팡이 -16679
▁훅 -16680
▁공보 -16681
▁베컴 -16682
▁본진 -16683
▁소탕 -16684
▁음역 -16685
▁조너 -16686
▁종단 -16687
▁하카 -16688
지먼트 -16689
▁ㅇㅓㅇ -16690
▁노무라 -16691
▁두더지 -16692
▁혁명가 -16693
▁필하모닉 -16694
▁매니지먼트 -16695
▁폴리네시아 -16696
24 -16697
▁기근 -16698
▁김석 -16699
▁당사 -16700
▁라지 -16701
▁성내 -16702
▁슐레 -16703
▁이구 -16704
▁이삭 -16705
▁자막 -16706
▁직류 -16707
▁펜스 -16708
▁헬로 -16709
ange -16710
▁미우라 -16711
▁고고학자 -16712
▁마쓰모토 -16713
▁서대문구 -16714
▁히말라야 -16715
▁레닌그라드 -16716
▁쥘 -16717
▁견지 -16718
▁녹말 -16719
▁달마 -16720
▁디펜 -16721
▁만수 -16722
▁분담 -16723
▁비이 -16724
▁아약 -16725
▁에뮬 -16726
▁음양 -16727
▁조나 -16728
▁피시 -16729
▁그리드 -16730
▁연습생 -16731
▁오스트로 -16732
▁막시밀리안 -16733
▁격상 -16734
▁로제 -16735
▁마취 -16736
▁시차 -16737
▁전란 -16738
▁헤지 -16739
▁형광 -16740
▁휴먼 -16741
어들이 -16742
▁Tra -16743
▁ㄱㅔㅅ -16744
▁오징어 -16745
▁페레스 -16746
▁후베이 -16747
▁High -16748
ux -16749
달음 -16750
러기 -16751
실험 -16752
▁경구 -16753
▁더빙 -16754
▁마초 -16755
▁미완 -16756
▁미추 -16757
▁상해 -16758
▁신안 -16759
▁옵티 -16760
▁정현 -16761
▁특위 -16762
▁학생회 -16763
▁카롤루스 -16764
▁앳 -16765
가라 -16766
토바 -16767
▁술집 -16768
▁전액 -16769
▁좌랑 -16770
▁징후 -16771
▁코넬 -16772
▁태상 -16773
▁한라 -16774
▁Int -16775
▁넘어지 -16776
▁노르트 -16777
▁적절히 -16778
▁체육회 -16779
▁프로방스 -16780
광사 -16781
라나 -16782
쓰네 -16783
▁노총 -16784
▁담장 -16785
▁마도 -16786
▁융기 -16787
▁지반 -16788
▁출루 -16789
▁퇴계 -16790
▁허구 -16791
스티안 -16792
▁마피아 -16793
▁아드리 -16794
▁지방도 -16795
▁알베르트 -16796
▁써 -16797
자유 -16798
ley -16799
▁FS -16800
▁기민 -16801
▁발췌 -16802
▁세실 -16803
▁앨버 -16804
▁우니 -16805
▁쿠리 -16806
▁프록 -16807
▁피쳐 -16808
▁USA -16809
▁광화문 -16810
▁군산시 -16811
▁선언문 -16812
▁아약스 -16813
▁액티브 -16814
▁조병옥 -16815
▁트랜싯 -16816
▁1858 -16817
▁밈 -16818
▁엎 -16819
스테 -16820
퍼트 -16821
▁기욤 -16822
▁데니 -16823
▁위태 -16824
▁지뢰 -16825
가하라 -16826
▁Mac -16827
▁Not -16828
▁수증기 -16829
▁크레타 -16830
▁프렌즈 -16831
▁천연가스 -16832
▁캔자스시티 -16833
▁귤 -16834
거루 -16835
베인 -16836
적분 -16837
▁만연 -16838
▁매질 -16839
▁소켓 -16840
▁아토 -16841
▁양분 -16842
▁엠블 -16843
▁완산 -16844
▁육박 -16845
▁초당 -16846
▁퀘이 -16847
▁탈리 -16848
▁테드 -16849
▁핑계 -16850
▁도치기 -16851
▁목포시 -16852
▁평상시 -16853
▁알렉산드라 -16854
▁챈 -16855
전쟁 -16856
▁낙태 -16857
▁대정 -16858
▁로어 -16859
▁안재 -16860
▁제법 -16861
▁콤비 -16862
▁튀기 -16863
▁포섭 -16864
▁노트북 -16865
▁라쿠텐 -16866
▁분홍색 -16867
▁마그네슘 -16868
▁알베르토 -16869
비츠 -16870
운전 -16871
att -16872
▁광서 -16873
▁군집 -16874
▁기악 -16875
▁당명 -16876
▁수훈 -16877
▁엠마 -16878
▁율령 -16879
▁주상 -16880
▁토드 -16881
▁허들 -16882
▁MLB -16883
▁관찰자 -16884
▁중심핵 -16885
▁파블로 -16886
▁Type -16887
▁조선왕조실록 -16888
▁고택 -16889
▁납품 -16890
▁농작 -16891
▁도표 -16892
▁스쿠 -16893
▁스팅 -16894
▁깨달음 -16895
▁모조리 -16896
▁베일리 -16897
▁비올라 -16898
▁안티고 -16899
▁티무르 -16900
데냐 -16901
사랑 -16902
싸움 -16903
▁급사 -16904
▁말소 -16905
▁보카 -16906
▁좌천 -16907
▁합산 -16908
▁효용 -16909
▁마에다 -16910
▁밀어내 -16911
▁수도사 -16912
▁스와프 -16913
▁신익희 -16914
▁보호구역 -16915
▁사르데냐 -16916
▁암모니아 -16917
▁동아프리카 -16918
고나 -16919
정제 -16920
▁고갈 -16921
▁궁내 -16922
▁급기 -16923
▁달래 -16924
▁바하 -16925
▁우대 -16926
▁재주 -16927
▁펠레 -16928
▁막아내 -16929
▁연구실 -16930
▁조너선 -16931
▁플래그 -16932
▁1814 -16933
▁자연주의 -16934
▁class -16935
토쿠 -16936
▁견훤 -16937
▁군락 -16938
▁군비 -16939
▁남궁 -16940
▁동티 -16941
▁보육 -16942
▁수강 -16943
▁아핀 -16944
▁알렌 -16945
▁애쓰 -16946
▁에린 -16947
▁열망 -16948
▁이철 -16949
▁총액 -16950
▁풍수 -16951
▁학급 -16952
▁혼돈 -16953
정보부 -16954
▁고조선 -16955
▁넘어오 -16956
▁스타인 -16957
▁시게루 -16958
▁크라스 -16959
▁무궁화호 -16960
▁ᄇㄴㅣㄲㅏ -16961
식스 -16962
촌동 -16963
코인 -16964
ART -16965
▁갈비 -16966
▁로타 -16967
▁모식 -16968
▁부탄 -16969
▁비욘 -16970
▁애매 -16971
▁의왕 -16972
▁정공 -16973
▁제보 -16974
▁진구 -16975
▁총살 -16976
▁키아 -16977
▁푸틴 -16978
지스터 -16979
▁날아오 -16980
▁리포트 -16981
▁스레드 -16982
▁플라자 -16983
▁서아시아 -16984
기둥 -16985
▁독실 -16986
▁소정 -16987
▁수의 -16988
▁아말 -16989
▁용접 -16990
▁원생 -16991
▁유승 -16992
▁증직 -16993
▁직권 -16994
▁290 -16995
▁IEC -16996
▁WHO -16997
▁니스트 -16998
▁성명서 -16999
▁정확도 -17000
▁클라이맥스 -17001
동리 -17002
마일 -17003
재단 -17004
▁간지 -17005
▁감탄 -17006
▁덕수 -17007
▁마틸 -17008
▁민가 -17009
▁벨벳 -17010
▁비호 -17011
▁성제 -17012
▁완주 -17013
▁장택 -17014
▁전집 -17015
▁정일 -17016
▁증원 -17017
▁Art -17018
▁사이공 -17019
▁주교좌 -17020
▁혁명군 -17021
▁1300 -17022
▁샌드위치 -17023
▁토스카나 -17024
▁그리스도교 -17025
▁그리스도인 -17026
뉴스 -17027
라도 -17028
OVE -17029
▁Of -17030
▁괴뢰 -17031
▁북상 -17032
▁아루 -17033
▁열풍 -17034
▁팬아 -17035
▁헬렌 -17036
플레잉 -17037
▁봉수대 -17038
▁커티스 -17039
▁그래미상 -17040
▁롤플레잉 -17041
▁자유민주 -17042
▁트랜지스터 -17043
que -17044
▁노화 -17045
▁랜덤 -17046
▁만기 -17047
▁미자 -17048
▁영재 -17049
▁정과 -17050
▁패드 -17051
▁TBC -17052
▁교토부 -17053
▁유성구 -17054
▁지방관 -17055
▁취약점 -17056
▁패트리 -17057
▁type -17058
▁ㄷㅡㄹㅏ -17059
▁맞배지붕 -17060
▁서프랑크 -17061
▁프로이트 -17062
▁세키가하라 -17063
거성 -17064
전차 -17065
enc -17066
▁고요 -17067
▁귀하 -17068
▁루지 -17069
▁리츠 -17070
▁머피 -17071
▁버거 -17072
▁실크 -17073
▁약학 -17074
▁우도 -17075
▁패퇴 -17076
▁훈족 -17077
▁전철역 -17078
▁타블로 -17079
▁프리킥 -17080
살바도르 -17081
▁플레이스 -17082
▁여러해살이풀 -17083
니코 -17084
yle -17085
▁EN -17086
▁레딧 -17087
▁목화 -17088
▁문성 -17089
▁바사 -17090
▁승전 -17091
▁신관 -17092
▁씨름 -17093
▁옥상 -17094
▁이덕 -17095
▁잊히 -17096
▁지층 -17097
▁캐럴 -17098
▁토비 -17099
▁포진 -17100
▁공기업 -17101
▁상대론 -17102
▁하모니 -17103
▁페더레이션 -17104
BN -17105
널목 -17106
회원 -17107
alk -17108
▁ED -17109
▁Vf -17110
▁ㄲㅗ -17111
▁미에 -17112
▁아랑 -17113
▁아픔 -17114
▁암초 -17115
▁웅진 -17116
▁춤추 -17117
▁흥덕 -17118
▁LCK -17119
▁건널목 -17120
▁겨울철 -17121
▁아쿠아 -17122
▁파출소 -17123
▁평의원 -17124
▁What -17125
▁산업단지 -17126
▁크리스천 -17127
ye -17128
▁뱌 -17129
구멍 -17130
▁ㄱㅓ -17131
▁게일 -17132
▁소치 -17133
▁얼터 -17134
▁헤임 -17135
씨식물 -17136
▁MHz -17137
▁대항해 -17138
▁맞대결 -17139
▁미시간 -17140
▁변속기 -17141
▁스타즈 -17142
▁에히메 -17143
▁창업자 -17144
▁아나키즘 -17145
▁규장 -17146
▁병인 -17147
▁보궐 -17148
▁소도 -17149
▁포교 -17150
▁할양 -17151
학생회 -17152
ough -17153
▁Med -17154
▁건너편 -17155
▁다면체 -17156
▁등록금 -17157
▁성북구 -17158
▁수번뇌 -17159
▁우승컵 -17160
▁중서부 -17161
▁충주시 -17162
▁아오모리현 -17163
건적 -17164
ger -17165
▁Di -17166
▁kW -17167
▁올랭 -17168
▁238 -17169
▁남조선 -17170
▁넥스트 -17171
▁재빨리 -17172
▁초대칭 -17173
▁키워드 -17174
▁With -17175
▁수마트라 -17176
▁요시아키 -17177
▁총학생회 -17178
ING -17179
▁구석 -17180
▁민권 -17181
▁선회 -17182
▁세베 -17183
▁인대 -17184
▁장조 -17185
▁직함 -17186
▁파드 -17187
▁홍천 -17188
▁나가노 -17189
▁보행자 -17190
▁윤리학 -17191
▁평택시 -17192
▁포스코 -17193
▁1795 -17194
▁아틀레틱 -17195
▁Google -17196
TR -17197
▁렝 -17198
르모 -17199
천국 -17200
▁개전 -17201
▁레미 -17202
▁매춘 -17203
▁미숙 -17204
▁석등 -17205
▁순정 -17206
▁스톨 -17207
▁일람 -17208
네소스 -17209
독립당 -17210
▁850 -17211
▁원정군 -17212
▁홉킨스 -17213
▁카테고리 -17214
▁한국독립당 -17215
▁ㅁㅕㄴㅇㅡㄴ -17216
▁윔 -17217
림동 -17218
▁경이 -17219
▁과부 -17220
▁김세 -17221
▁독소 -17222
▁멜론 -17223
▁쇠약 -17224
▁아난 -17225
▁우사 -17226
▁윈터 -17227
▁이효 -17228
▁정여 -17229
▁켈빈 -17230
▁페터 -17231
▁하디 -17232
▁헨드 -17233
주니어 -17234
▁남반구 -17235
▁트루먼 -17236
▁포위전 -17237
▁갑신정변 -17238
팽이 -17239
▁관대 -17240
▁내수 -17241
▁몬태 -17242
▁브람 -17243
▁수렵 -17244
▁에런 -17245
▁우이 -17246
▁윗면 -17247
▁이국 -17248
▁차분 -17249
▁첨부 -17250
▁페데 -17251
디우스 -17252
▁480 -17253
▁메이트 -17254
▁베드로 -17255
▁블루어 -17256
▁석가여래 -17257
▁어드밴스 -17258
▁언어학자 -17259
▁ㅁㅏㄴㅡㄴ -17260
▁중앙정보부 -17261
▁줌 -17262
렁이 -17263
부미 -17264
▁구자 -17265
▁월북 -17266
▁웰스 -17267
▁유시 -17268
▁익산시 -17269
▁통신부 -17270
▁MPEG -17271
▁드레이크 -17272
▁디렉터리 -17273
▁사탕수수 -17274
▁여주인공 -17275
▁키르기스스탄 -17276
▁깡 -17277
▁국지 -17278
▁니나 -17279
▁니콘 -17280
▁반야 -17281
▁부녀 -17282
▁장준 -17283
▁정병 -17284
▁코지 -17285
▁국문학 -17286
▁로렌초 -17287
▁여객선 -17288
▁다리우스 -17289
▁하이웨이 -17290
대성 -17291
블린 -17292
▁PP -17293
▁도색 -17294
▁루머 -17295
▁민생 -17296
▁여과 -17297
▁유원 -17298
▁특례 -17299
▁공직자 -17300
▁웨이트 -17301
▁체스터 -17302
▁자동변속기 -17303
UI -17304
▁뚱 -17305
▁ㅇㅠ -17306
▁각광 -17307
▁골수 -17308
▁광택 -17309
▁국과 -17310
▁굶주 -17311
▁남포 -17312
▁데메 -17313
▁도정 -17314
▁맛있 -17315
▁미코 -17316
▁보훈 -17317
▁본초 -17318
▁불평 -17319
▁신구 -17320
▁심플 -17321
▁이트 -17322
▁인신 -17323
▁팀장 -17324
▁필기 -17325
▁COM -17326
▁Rev -17327
▁바로잡 -17328
▁빅토리 -17329
▁시공간 -17330
▁합천군 -17331
▁황태후 -17332
▁부위원장 -17333
▁COVID -17334
▁켓 -17335
레프 -17336
▁당분 -17337
▁로동 -17338
▁발단 -17339
▁버시 -17340
▁이형 -17341
▁정강 -17342
▁참배 -17343
▁펀치 -17344
시우스 -17345
▁737 -17346
▁ㄴㄱㅏ -17347
▁돌아서 -17348
▁북반구 -17349
▁1793 -17350
▁안드레이 -17351
사회 -17352
▁교묘 -17353
▁내구 -17354
▁더럽 -17355
▁몸집 -17356
▁평신 -17357
▁해일 -17358
▁223 -17359
▁에밀리 -17360
▁가나자와 -17361
23 -17362
개혁 -17363
der -17364
▁갤러 -17365
▁구인 -17366
▁군국 -17367
▁낙타 -17368
▁덩굴 -17369
▁데쓰 -17370
▁바덴 -17371
▁바일 -17372
▁설사 -17373
▁세탁 -17374
▁연유 -17375
▁종친 -17376
▁천구 -17377
▁클루 -17378
슬라브 -17379
캐스트 -17380
▁가입자 -17381
▁남해군 -17382
▁데포르 -17383
▁돗토리 -17384
▁손바닥 -17385
▁안데르 -17386
▁알레르 -17387
▁제이스 -17388
▁창덕궁 -17389
▁팩토리 -17390
▁Blue -17391
▁꼼 -17392
▁뺏 -17393
섬유 -17394
재란 -17395
▁논설 -17396
▁랜디 -17397
▁무당 -17398
▁박승 -17399
▁보츠 -17400
▁솔트 -17401
▁야로 -17402
▁엄정 -17403
▁쿠릴 -17404
▁벤피카 -17405
▁산체스 -17406
▁이완용 -17407
▁추밀원 -17408
▁정유재란 -17409
메트 -17410
▁교주 -17411
▁깜짝 -17412
▁범용 -17413
▁산불 -17414
▁숭실 -17415
▁오호 -17416
▁장항 -17417
▁존엄 -17418
▁천정 -17419
▁환기 -17420
루리아 -17421
코스트 -17422
▁낙하산 -17423
▁유격대 -17424
▁페테르 -17425
총리대신 -17426
▁1846 -17427
▁갈릴레이 -17428
▁기념사업 -17429
▁브루나이 -17430
▁상파울루 -17431
▁이베리아 -17432
▁이해관계 -17433
▁시즈오카현 -17434
▁내각총리대신 -17435
래시 -17436
모자 -17437
ump -17438
▁묘법 -17439
▁아민 -17440
▁언약 -17441
▁역습 -17442
▁이견 -17443
▁표결 -17444
▁농작물 -17445
▁보라색 -17446
▁아칸소 -17447
▁이브라 -17448
▁테이크 -17449
▁평화상 -17450
▁블레이드 -17451
26 -17452
BT -17453
▁넉 -17454
바람 -17455
증권 -17456
▁갑각 -17457
▁걸맞 -17458
▁구토 -17459
▁귀양 -17460
▁리저 -17461
▁서강 -17462
▁억류 -17463
▁예속 -17464
▁철원 -17465
▁총체 -17466
▁치중 -17467
▁문하시 -17468
▁보호관 -17469
▁엉덩이 -17470
▁입출력 -17471
▁전기장 -17472
▁페인트 -17473
▁하카타 -17474
▁중앙아프리카 -17475
IO -17476
LC -17477
고트 -17478
나물 -17479
▁경멸 -17480
▁교포 -17481
▁국면 -17482
▁대뇌 -17483
▁돌핀 -17484
▁분양 -17485
▁삼키 -17486
▁유품 -17487
▁제식 -17488
▁주경 -17489
▁톨킨 -17490
▁하순 -17491
▁핵산 -17492
▁Top -17493
▁국무원 -17494
▁지난해 -17495
▁충렬왕 -17496
▁테트라 -17497
▁에드먼드 -17498
▁퓌 -17499
▁ME -17500
▁구룡 -17501
▁박기 -17502
▁베버 -17503
▁본당 -17504
▁역모 -17505
▁와해 -17506
▁윤석 -17507
▁조력 -17508
▁추위 -17509
연화경 -17510
웨스트 -17511
▁LCD -17512
▁Min -17513
▁기부금 -17514
▁다이나 -17515
▁상속인 -17516
▁Beat -17517
▁서스펜션 -17518
▁초등학생 -17519
▁돛 -17520
파스 -17521
패스 -17522
호프 -17523
후이 -17524
▁괴멸 -17525
▁상작 -17526
▁서보 -17527
▁수류 -17528
▁육아 -17529
▁잠들 -17530
▁칼레 -17531
▁페가 -17532
▁후시 -17533
비우스 -17534
▁산둥성 -17535
▁시어터 -17536
▁외무성 -17537
▁물리학상 -17538
▁오브젝트 -17539
▁하시모토 -17540
▁히로부미 -17541
▁네덜란드어 -17542
HD -17543
처리 -17544
▁간장 -17545
▁라티 -17546
▁모기 -17547
▁미묘 -17548
▁브롱 -17549
▁실로 -17550
▁심근 -17551
▁웨일 -17552
▁치수 -17553
다람쥐 -17554
티우스 -17555
프랑스 -17556
▁구청장 -17557
▁버나드 -17558
▁절대로 -17559
스트리트 -17560
▁1839 -17561
▁공화주의 -17562
▁미성년자 -17563
▁촘 -17564
질량 -17565
▁간디 -17566
▁방조 -17567
▁인출 -17568
▁해자 -17569
▁현충 -17570
쿠스틱 -17571
▁아산시 -17572
▁1854 -17573
▁time -17574
▁어쿠스틱 -17575
버드 -17576
연대 -17577
우어 -17578
▁공덕 -17579
▁망루 -17580
▁볼륨 -17581
▁윤원 -17582
▁이부 -17583
▁휘트 -17584
▁가시마 -17585
▁배수량 -17586
▁배트맨 -17587
▁비지니스 -17588
▁ㅅㅔ -17589
▁간염 -17590
▁등대 -17591
▁몰입 -17592
▁브론 -17593
▁사흘 -17594
▁상투 -17595
▁새턴 -17596
▁성추 -17597
▁아모 -17598
▁욕설 -17599
▁인피 -17600
▁코레 -17601
▁214 -17602
▁430 -17603
▁아테나 -17604
▁오비탈 -17605
베이거스 -17606
깨비 -17607
왕국 -17608
천년 -17609
▁고압 -17610
▁마한 -17611
▁매월 -17612
▁박준 -17613
▁반려 -17614
▁반열 -17615
▁본디 -17616
▁비참 -17617
▁사죄 -17618
▁센스 -17619
▁오딘 -17620
▁찬탈 -17621
▁퇴단 -17622
▁후백 -17623
▁교직원 -17624
▁보나파 -17625
▁비행대 -17626
▁찬드라 -17627
▁파트리 -17628
▁기독교인 -17629
▁소용돌이 -17630
▁데포르티보 -17631
▁보나파르트 -17632
▁라스베이거스 -17633
정권 -17634
▁견습 -17635
▁메사 -17636
▁석상 -17637
▁적재 -17638
▁건국대 -17639
▁증명서 -17640
▁후임자 -17641
▁1849 -17642
▁차량기지 -17643
▁트리니다드 -17644
OU -17645
▁매번 -17646
▁미모 -17647
▁봉작 -17648
▁부윤 -17649
▁소홀 -17650
▁시경 -17651
▁신작 -17652
▁오닐 -17653
▁원제 -17654
▁유폐 -17655
▁인테 -17656
▁존상 -17657
▁종주 -17658
▁현령 -17659
▁화전 -17660
트로피 -17661
▁211 -17662
▁ㄷㅔㄴ -17663
▁경비대 -17664
▁식물원 -17665
▁진보당 -17666
▁헬싱키 -17667
담회 -17668
버거 -17669
호르 -17670
▁계란 -17671
▁담론 -17672
▁북해 -17673
▁소란 -17674
▁손책 -17675
▁알비 -17676
▁제학 -17677
▁태세 -17678
▁화북 -17679
고양이 -17680
atch -17681
▁419 -17682
▁보르도 -17683
▁어리석 -17684
▁장택상 -17685
▁플로이드 -17686
28 -17687
▁럴 -17688
누아 -17689
▁김문 -17690
▁만국 -17691
▁변방 -17692
▁어이 -17693
▁우동 -17694
▁웅장 -17695
▁윤영 -17696
▁임베 -17697
▁제원 -17698
▁파격 -17699
▁FBI -17700
▁대머리 -17701
▁안중근 -17702
▁노동자당 -17703
▁마음대로 -17704
▁비트코인 -17705
▁임베디드 -17706
오린 -17707
탐정 -17708
▁낙랑 -17709
▁단사 -17710
▁배설 -17711
▁분쇄 -17712
▁분장 -17713
▁셔먼 -17714
▁스맥 -17715
▁유장 -17716
▁친절 -17717
▁폰트 -17718
▁필살 -17719
▁갖가지 -17720
▁은하단 -17721
▁하이든 -17722
▁1856 -17723
▁정사각형 -17724
소득 -17725
재기 -17726
▁TG -17727
▁광경 -17728
▁단성 -17729
▁라몬 -17730
▁비크 -17731
▁여생 -17732
▁장령 -17733
▁타오 -17734
▁페드 -17735
▁한서 -17736
궐선거 -17737
타니아 -17738
▁가파르 -17739
▁레인보 -17740
▁조계종 -17741
▁참모장 -17742
▁해럴드 -17743
▁Will -17744
▁이와테현 -17745
▁크레이그 -17746
▁재보궐선거 -17747
▁크리에이티브 -17748
전기 -17749
oup -17750
▁명주 -17751
▁열반 -17752
▁적성 -17753
▁추궁 -17754
▁가속기 -17755
▁감염자 -17756
▁시부야 -17757
▁펠로폰 -17758
츠부르크 -17759
타고라스 -17760
▁1851 -17761
▁델라웨어 -17762
▁펠로폰네소스 -17763
일라 -17764
▁낙엽 -17765
▁단호 -17766
▁대세 -17767
▁밀스 -17768
▁선하 -17769
▁수배 -17770
▁301 -17771
▁베르디 -17772
▁아가씨 -17773
▁에리크 -17774
▁카운터 -17775
▁특이점 -17776
▁반공주의 -17777
▁스탠퍼드 -17778
ery -17779
▁KC -17780
▁계투 -17781
▁남로 -17782
▁디온 -17783
▁방한 -17784
▁벽면 -17785
▁시주 -17786
▁심슨 -17787
▁요아 -17788
▁원가 -17789
▁이안 -17790
▁타현 -17791
▁페티 -17792
▁한참 -17793
▁글리코 -17794
▁대주주 -17795
▁북극해 -17796
▁저작물 -17797
▁통합진보당 -17798
86 -17799
ma -17800
카테 -17801
쿠젠 -17802
▁결탁 -17803
▁서상 -17804
▁연임 -17805
직할시 -17806
icro -17807
▁공사관 -17808
▁레이어 -17809
▁일간지 -17810
▁사보이아 -17811
▁폴란드인 -17812
케스 -17813
▁듯이 -17814
▁상체 -17815
▁성간 -17816
▁오기 -17817
▁카잔 -17818
▁케니 -17819
cess -17820
▁그로스 -17821
▁명명법 -17822
▁스나이 -17823
▁투데이 -17824
▁핵폭탄 -17825
ㅇㅣㄷㅏ -17826
메니스탄 -17827
▁1857 -17828
▁스맥다운 -17829
▁올랭피크 -17830
▁캐나다인 -17831
▁투르크메니스탄 -17832
지대 -17833
테른 -17834
투안 -17835
하늘 -17836
▁ER -17837
▁IA -17838
▁거액 -17839
▁귀납 -17840
▁니즘 -17841
▁도독 -17842
▁발송 -17843
▁방수 -17844
▁버퍼 -17845
▁빌미 -17846
▁원성 -17847
▁잠복 -17848
▁정시 -17849
▁착안 -17850
▁찬스 -17851
▁촌은 -17852
▁퇴사 -17853
▁헤엄 -17854
▁현청 -17855
▁히나 -17856
▁변증법 -17857
▁수산물 -17858
▁수수료 -17859
▁집어넣 -17860
▁다이스케 -17861
▁엔트로피 -17862
니엄 -17863
모습 -17864
체어 -17865
▁소망 -17866
▁쇼팽 -17867
▁재원 -17868
▁하쿠 -17869
▁현명 -17870
제르맹 -17871
▁노스케 -17872
▁뽑아내 -17873
▁새천년 -17874
▁올라서 -17875
▁지평선 -17876
▁최하위 -17877
▁핵실험 -17878
▁형무소 -17879
▁1855 -17880
▁힉 -17881
고도 -17882
레토 -17883
바꿈 -17884
연료 -17885
하스 -17886
▁경색 -17887
▁미안 -17888
▁보문 -17889
▁신영 -17890
▁현생 -17891
▁마그마 -17892
▁서북쪽 -17893
▁하이델 -17894
▁행정관 -17895
▁Free -17896
▁프란시스 -17897
29 -17898
봉사 -17899
▁YM -17900
▁가메 -17901
▁김한 -17902
▁박격 -17903
▁변장 -17904
▁분개 -17905
▁수서 -17906
▁정년 -17907
▁대각선 -17908
▁동의어 -17909
▁사모아 -17910
▁애벌레 -17911
▁캥거루 -17912
▁하동군 -17913
▁스티븐스 -17914
쇼프 -17915
흐트 -17916
▁과업 -17917
▁벚꽃 -17918
▁액수 -17919
▁외동 -17920
▁음경 -17921
▁주치 -17922
▁체임 -17923
▁캔디 -17924
▁택지 -17925
▁템포 -17926
▁항모 -17927
들랜드 -17928
중국해 -17929
▁XML -17930
▁구석기 -17931
▁기념식 -17932
▁봉사자 -17933
▁시흥시 -17934
▁황도대 -17935
▁생제르맹 -17936
로아 -17937
하르 -17938
▁간파 -17939
▁대열 -17940
▁서천 -17941
▁지소 -17942
▁포구 -17943
▁픽션 -17944
▁합체 -17945
▁Pop -17946
▁비정규 -17947
▁상세히 -17948
▁성추행 -17949
▁작사가 -17950
▁컨디션 -17951
▁포브스 -17952
▁휠체어 -17953
▁무라카미 -17954
▁사카모토 -17955
▁병마절도사 -17956
▁캄파니아주 -17957
27 -17958
▁기물 -17959
▁대광 -17960
▁덧셈 -17961
▁무왕 -17962
▁슈바 -17963
▁주둥 -17964
▁친목 -17965
▁병원체 -17966
▁타고나 -17967
▁민족주의자 -17968
▁오하이오주 -17969
니크 -17970
▁권세 -17971
▁노회 -17972
▁본기 -17973
▁성년 -17974
▁성채 -17975
▁수스 -17976
▁신명 -17977
▁역행 -17978
▁이학 -17979
▁체첸 -17980
▁코민 -17981
▁한도 -17982
메네스 -17983
콥스키 -17984
▁루터교 -17985
▁모티프 -17986
▁오카다 -17987
▁해설자 -17988
▁스포르팅 -17989
▁원내대표 -17990
▁좡 -17991
댄스 -17992
▁Po -17993
▁고증 -17994
▁대적 -17995
▁도기 -17996
▁만리 -17997
▁미팅 -17998
▁서드 -17999
▁언젠 -18000
▁위니 -18001
▁중첩 -18002
▁지병 -18003
▁해금 -18004
▁회부 -18005
시오날 -18006
▁마인드 -18007
▁비엔나 -18008
▁태그팀 -18009
▁LIVE -18010
▁나시오날 -18011
▁태평천국 -18012
▁플루오린 -18013
산읍 -18014
평가 -18015
ont -18016
▁급습 -18017
▁녀석 -18018
▁셀룰 -18019
▁셰이 -18020
▁실습 -18021
▁요네 -18022
▁카렐 -18023
▁칸타 -18024
▁급기야 -18025
▁나주시 -18026
▁달라이 -18027
▁샘플링 -18028
▁언젠가 -18029
▁포천시 -18030
▁프로파 -18031
▁ne -18032
▁누락 -18033
▁레베 -18034
▁문교 -18035
▁산탄 -18036
▁외벽 -18037
▁이공 -18038
▁장구 -18039
▁탄원 -18040
▁퇴화 -18041
▁호가 -18042
▁화신 -18043
덜랜드 -18044
▁Bro -18045
▁구미시 -18046
▁베르그 -18047
▁출생지 -18048
▁포위망 -18049
▁미주리주 -18050
▁포레스트 -18051
▁ㄹㅕㄷㅏㄱㅏ -18052
가야 -18053
노동 -18054
마타 -18055
스탕 -18056
▁계파 -18057
▁몬트 -18058
▁사극 -18059
▁압송 -18060
▁입안 -18061
▁늘어지 -18062
▁따돌리 -18063
▁모자라 -18064
▁베리아 -18065
▁시우바 -18066
▁헤이스 -18067
를린 -18068
서구 -18069
여들 -18070
day -18071
▁금광 -18072
▁버즈 -18073
▁영아 -18074
▁와트 -18075
▁읽히 -18076
▁준위 -18077
▁직제 -18078
▁청탁 -18079
▁크세 -18080
▁파사 -18081
▁수송기 -18082
▁시설물 -18083
▁팰리스 -18084
▁항구역 -18085
▁1776 -18086
▁가까스로 -18087
▁클라리넷 -18088
▁랏 -18089
광선 -18090
▁교복 -18091
▁뇌졸 -18092
▁명지 -18093
▁오도 -18094
▁율곡 -18095
▁총알 -18096
▁최경 -18097
레시브 -18098
▁del -18099
▁독립국 -18100
▁브레인 -18101
▁아세트 -18102
▁영등포 -18103
▁퍼펙트 -18104
▁국민회의 -18105
▁프로그레시브 -18106
계리 -18107
페리 -18108
활성 -18109
aut -18110
▁HK -18111
▁국고 -18112
▁마고 -18113
▁심신 -18114
▁천명 -18115
▁팔자 -18116
▁픽업 -18117
▁End -18118
▁리서치 -18119
▁모여들 -18120
▁보니파 -18121
▁이범석 -18122
▁크리켓 -18123
▁플레이트 -18124
▁국물 -18125
▁대흥 -18126
▁명절 -18127
▁생사 -18128
▁알론 -18129
▁음란 -18130
▁이연 -18131
▁장타 -18132
▁정파 -18133
▁포탈 -18134
▁혹독 -18135
▁히다 -18136
메데스 -18137
▁게이츠 -18138
▁메이플 -18139
▁바이스 -18140
▁살아나 -18141
▁청교도 -18142
▁청구인 -18143
▁후반부 -18144
▁코미디언 -18145
▁그레고리력 -18146
▁레오나르도 -18147
▁프로토타입 -18148
ㅍㅣ -18149
팔렌 -18150
▁골목 -18151
▁김보 -18152
▁나나 -18153
▁메콩 -18154
▁부총 -18155
▁서던 -18156
▁세브 -18157
▁연좌 -18158
▁연천 -18159
▁음소 -18160
▁정량 -18161
▁포에 -18162
▁홀드 -18163
▁목걸이 -18164
▁서기장 -18165
▁에인절 -18166
ㅅㅣㅍㅣ -18167
▁ㄷㅏㅅㅣㅍㅣ -18168
버섯 -18169
▁BR -18170
▁FX -18171
▁린드 -18172
▁사성 -18173
▁양손 -18174
▁이로 -18175
▁조식 -18176
▁쿠페 -18177
▁한방 -18178
▁233 -18179
▁레일리 -18180
▁부활절 -18181
▁브리트 -18182
▁클라라 -18183
▁특공대 -18184
▁ㅅㅗㅅㅓ -18185
▁10000 -18186
니발 -18187
▁각별 -18188
▁간소 -18189
▁박주 -18190
▁발주 -18191
▁비슈 -18192
▁수잔 -18193
▁전갈 -18194
▁접착 -18195
▁클론 -18196
▁판별 -18197
▁포즈 -18198
노벨라 -18199
▁215 -18200
▁거제시 -18201
▁경기력 -18202
▁레너드 -18203
▁심포니 -18204
▁유니온 -18205
▁미시간주 -18206
▁인테리어 -18207
▁텔레노벨라 -18208
다롭 -18209
행사 -18210
its -18211
▁TN -18212
▁괴팅 -18213
▁국채 -18214
▁노미 -18215
▁땅콩 -18216
▁로로 -18217
▁모더 -18218
▁영세 -18219
▁표상 -18220
▁퓨전 -18221
▁가로막 -18222
▁계약서 -18223
▁단기간 -18224
▁수메르 -18225
▁어지럽 -18226
▁엑스선 -18227
▁치우치 -18228
▁해적단 -18229
HS -18230
oss -18231
▁누각 -18232
▁반증 -18233
▁살림 -18234
▁살상 -18235
▁샬럿 -18236
▁시로 -18237
▁양력 -18238
▁욕심 -18239
▁창안 -18240
▁Des -18241
▁굳어지 -18242
▁김종필 -18243
▁까다롭 -18244
▁영산회 -18245
▁진정하 -18246
ㄷㅡㄴㅈㅣ -18247
▁네브래스카 -18248
슐린 -18249
▁MW -18250
▁대양 -18251
▁로미 -18252
▁루아 -18253
▁매드 -18254
▁미망 -18255
▁반일 -18256
▁영연 -18257
▁우랄 -18258
▁지단 -18259
▁질리 -18260
▁계약금 -18261
▁서로마 -18262
▁에버턴 -18263
▁플랜트 -18264
▁LOVE -18265
▁ㄴㅗㄹㅏ -18266
▁ㅇㅣㅇㅑ -18267
▁피에트로 -18268
▁묘법연화경 -18269
▁언더그라운드 -18270
br -18271
▁뿌 -18272
개발 -18273
급시 -18274
볼트 -18275
빼미 -18276
워키 -18277
▁CV -18278
▁교우 -18279
▁금화 -18280
▁노먼 -18281
▁로젠 -18282
▁미움 -18283
▁상시 -18284
▁실드 -18285
▁어필 -18286
▁커트 -18287
▁Big -18288
▁권력자 -18289
▁동북쪽 -18290
▁Sing -18291
저민 -18292
IDS -18293
▁JP -18294
▁가인 -18295
▁비비 -18296
▁시왕 -18297
▁아속 -18298
▁열광 -18299
▁요세 -18300
▁위드 -18301
▁유즈 -18302
▁윤선 -18303
▁조참 -18304
▁진안 -18305
▁쿠키 -18306
파트라 -18307
irst -18308
▁239 -18309
▁510 -18310
▁벤저민 -18311
▁빠뜨리 -18312
▁파이브 -18313
▁클레오파트라 -18314
타라 -18315
▁RE -18316
▁WH -18317
▁독감 -18318
▁라비 -18319
▁마마 -18320
▁부원 -18321
▁수난 -18322
▁시판 -18323
▁에나 -18324
▁오니 -18325
▁우메 -18326
▁이족 -18327
▁제반 -18328
▁콘월 -18329
▁문화사 -18330
▁Rain -18331
▁아틀라스 -18332
▁알레르기 -18333
미치 -18334
▁감명 -18335
▁루소 -18336
▁서훈 -18337
▁숙성 -18338
▁약정 -18339
▁최북 -18340
▁카쿠 -18341
핵생물 -18342
▁212 -18343
▁ㅇㅜㅁ -18344
▁미카사 -18345
▁생태학 -18346
▁사다하루 -18347
▁캔터베리 -18348
be -18349
▁SI -18350
▁감히 -18351
▁낭독 -18352
▁도핑 -18353
▁북제 -18354
▁불황 -18355
▁시동 -18356
▁신재 -18357
▁위아 -18358
▁이계 -18359
▁정약 -18360
▁청화 -18361
▁황보 -18362
▁BMW -18363
▁사중주 -18364
▁한마디 -18365
▁조기어류 -18366
▁히로시마현 -18367
▁개간 -18368
▁경수 -18369
▁면접 -18370
▁상피 -18371
▁서킷 -18372
▁시료 -18373
▁은둔 -18374
▁정철 -18375
▁틈새 -18376
▁향리 -18377
▁호치 -18378
▁DFB -18379
▁set -18380
▁게이초 -18381
▁버밍엄 -18382
▁서남쪽 -18383
▁아르카 -18384
▁전년도 -18385
▁Mnet -18386
▁권위주의 -18387
개명 -18388
하워 -18389
▁공녀 -18390
▁대검 -18391
▁로자 -18392
▁배영 -18393
▁세관 -18394
▁아그 -18395
▁원화 -18396
▁음색 -18397
▁장보 -18398
▁미술가 -18399
▁보호자 -18400
▁사생아 -18401
▁양서류 -18402
▁요리사 -18403
▁월리스 -18404
ement -18405
▁1792 -18406
▁뱀파이어 -18407
▁아이젠하워 -18408
BL -18409
▁찻 -18410
지않 -18411
▁CT -18412
▁경치 -18413
▁귀향 -18414
▁근연 -18415
▁도금 -18416
▁디어 -18417
▁사구 -18418
▁시구 -18419
▁우문 -18420
▁질레 -18421
▁촌락 -18422
▁탄환 -18423
▁튀르 -18424
▁패주 -18425
▁호러 -18426
▁홍백 -18427
너티브 -18428
▁경영진 -18429
▁논산시 -18430
▁정말로 -18431
▁출연진 -18432
▁퀘스트 -18433
▁표준어 -18434
▁프리랜 -18435
▁핵연료 -18436
▁호위함 -18437
▁계몽주의 -18438
▁얼터너티브 -18439
▁젬 -18440
ㅔㄴ -18441
가키 -18442
코바 -18443
▁개년 -18444
▁다라 -18445
▁덤불 -18446
▁듀크 -18447
▁밑면 -18448
▁바크 -18449
▁방과 -18450
▁상권 -18451
▁슬럼 -18452
▁시암 -18453
▁안상 -18454
▁외화 -18455
▁잠그 -18456
▁지드 -18457
▁추석 -18458
▁출소 -18459
▁코다 -18460
즐랜드 -18461
▁부제학 -18462
▁ㅇㅣㄹㅜ -18463
▁슈퍼주니어 -18464
▁잣 -18465
이인 -18466
▁내쫓 -18467
▁도고 -18468
▁독신 -18469
▁마자 -18470
▁유실 -18471
▁윤회 -18472
▁정태 -18473
▁제향 -18474
▁착오 -18475
▁티르 -18476
▁히브 -18477
메이트 -18478
▁Bar -18479
▁게이머 -18480
▁목격자 -18481
▁밀워키 -18482
▁재정난 -18483
▁퀸즐랜드 -18484
▁begin -18485
▁롬바르디아 -18486
그림 -18487
얼빈 -18488
▁만찬 -18489
▁수뇌 -18490
▁스커 -18491
▁슬퍼 -18492
▁최재 -18493
▁호엔 -18494
▁명백히 -18495
▁베이컨 -18496
▁브람스 -18497
▁재판장 -18498
▁크래프트 -18499
▁엘살바도르 -18500
▁퓰 -18501
려지 -18502
타바 -18503
▁do -18504
▁까치 -18505
▁라벤 -18506
▁매너 -18507
▁색인 -18508
▁선방 -18509
▁쓰가 -18510
▁지터 -18511
▁칼빈 -18512
▁케스 -18513
▁쾌락 -18514
▁후신 -18515
▁기장군 -18516
▁릴리스 -18517
▁랜드마크 -18518
▁소선거구 -18519
▁카리브해 -18520
▁퍼레이드 -18521
보스 -18522
삼문 -18523
임수 -18524
aff -18525
vis -18526
▁CL -18527
▁구급 -18528
▁다의 -18529
▁메트 -18530
▁서하 -18531
▁오에 -18532
▁절멸 -18533
▁카오 -18534
▁회중 -18535
▁다다르 -18536
▁앵글로 -18537
▁좀처럼 -18538
▁중학생 -18539
▁지도력 -18540
▁퍼뜨리 -18541
▁1852 -18542
▁경향신문 -18543
▁천주교회 -18544
▁프라이스 -18545
▁Hello -18546
경궁 -18547
바타 -18548
방식 -18549
▁관서 -18550
▁구면 -18551
▁그람 -18552
▁비츠 -18553
▁수온 -18554
▁실화 -18555
▁어음 -18556
▁예견 -18557
▁오쓰 -18558
▁우쓰 -18559
▁유루 -18560
▁타코 -18561
▁탄화 -18562
▁함안 -18563
▁검사장 -18564
▁다각형 -18565
▁동식물 -18566
▁부끄럽 -18567
▁외삼촌 -18568
▁중생대 -18569
▁1853 -18570
▁Road -18571
▁도네츠크 -18572
▁동대문구 -18573
▁모하메드 -18574
▁창씨개명 -18575
도서 -18576
루이 -18577
▁FN -18578
▁나츠 -18579
▁나팔 -18580
▁성하 -18581
▁수첩 -18582
▁식료 -18583
▁에타 -18584
▁예천 -18585
▁요트 -18586
▁제각 -18587
▁주술 -18588
▁그려지 -18589
▁에르난 -18590
▁콘셉트 -18591
▁1791 -18592
▁Show -18593
▁옥타비아 -18594
▁즌 -18595
▁가평 -18596
▁발라 -18597
▁입적 -18598
▁점심 -18599
▁종택 -18600
▁초중 -18601
▁평년 -18602
▁더구나 -18603
▁무인역 -18604
▁프레디 -18605
▁void -18606
▁옅 -18607
노헤 -18608
막염 -18609
오세 -18610
▁구보 -18611
▁모후 -18612
▁밀턴 -18613
▁박인 -18614
▁산토 -18615
▁섬멸 -18616
▁셰프 -18617
▁자락 -18618
▁카멜 -18619
▁캄포 -18620
▁합방 -18621
▁황성 -18622
▁희박 -18623
하이머 -18624
▁과선교 -18625
▁중대장 -18626
▁지원자 -18627
▁최적화 -18628
▁현악기 -18629
▁다운타운 -18630
▁시트르산 -18631
▁Sound -18632
▁테러리스트 -18633
▁콘스탄티노플 -18634
티드 -18635
▁EF -18636
▁갑판 -18637
▁관사 -18638
▁난간 -18639
▁노던 -18640
▁망상 -18641
▁미신 -18642
▁박중 -18643
▁버블 -18644
▁아쓰 -18645
▁어쨌 -18646
▁여야 -18647
▁연작 -18648
▁친숙 -18649
▁푸시 -18650
컨트리 -18651
▁간행물 -18652
▁무안군 -18653
▁브리즈 -18654
▁벌어들이 -18655
▁사회단체 -18656
▁속씨식물 -18657
▁필리포스 -18658
▁강물 -18659
▁고질 -18660
▁고타 -18661
▁기노 -18662
▁노년 -18663
▁버락 -18664
▁울음 -18665
▁원망 -18666
▁진과 -18667
▁한류 -18668
▁분화구 -18669
▁세일러 -18670
▁슬퍼하 -18671
▁이베이 -18672
▁조나단 -18673
▁1100 -18674
▁크로스컨트리 -18675
▁뚝 -18676
귀비 -18677
야구 -18678
하트 -18679
ech -18680
▁RD -18681
▁기치 -18682
▁김호 -18683
▁래스 -18684
▁벨레 -18685
▁부응 -18686
▁여태 -18687
▁영해 -18688
▁월급 -18689
▁이도 -18690
▁장영 -18691
▁최치 -18692
▁호감 -18693
▁도지사 -18694
▁비스트 -18695
▁유목민 -18696
▁레인보우 -18697
way -18698
▁es -18699
▁고작 -18700
▁궁금 -18701
▁냉동 -18702
▁능통 -18703
▁대파 -18704
▁독려 -18705
▁동복 -18706
▁따내 -18707
▁린치 -18708
▁마왕 -18709
▁발화 -18710
▁밥상 -18711
▁보두 -18712
▁부름 -18713
▁세가 -18714
▁안젤 -18715
▁윤상 -18716
▁자력 -18717
▁파니 -18718
▁학점 -18719
▁레프트 -18720
▁쓰임새 -18721
▁올빼미 -18722
▁옹진군 -18723
▁저술가 -18724
▁점성가 -18725
▁카이저 -18726
▁1847 -18727
▁개인주의 -18728
▁팬아메리칸 -18729
▁똥 -18730
▁빽 -18731
무드 -18732
색슨 -18733
에어 -18734
▁강수 -18735
▁경감 -18736
▁마조 -18737
▁미일 -18738
▁수전 -18739
▁수찬 -18740
▁해동 -18741
대주의 -18742
▁221 -18743
▁LTE -18744
▁Red -18745
▁강아지 -18746
▁끊어지 -18747
▁레슬리 -18748
▁상류층 -18749
▁성동구 -18750
▁세포막 -18751
▁음악회 -18752
▁피스톤 -18753
▁하얼빈 -18754
▁Like -18755
▁글래스고 -18756
▁모모야마 -18757
▁앵글로색슨 -18758
▁ㄴㅜ -18759
▁남짓 -18760
▁베레 -18761
▁북진 -18762
▁삼부 -18763
▁송금 -18764
▁실황 -18765
▁쑨원 -18766
▁장터 -18767
▁장현 -18768
▁정구 -18769
▁패미 -18770
▁폐간 -18771
▁후각 -18772
리오카 -18773
소년단 -18774
▁관악구 -18775
▁꽃받침 -18776
▁수류탄 -18777
▁현저히 -18778
▁교섭단체 -18779
▁시라카와 -18780
▁옵티머스 -18781
WS -18782
yl -18783
▁젓 -18784
거슨 -18785
니언 -18786
▁가봉 -18787
▁골자 -18788
▁불펜 -18789
▁비약 -18790
▁서간 -18791
▁앙주 -18792
▁유위 -18793
▁이면 -18794
▁전륜 -18795
▁존호 -18796
▁청진 -18797
▁추월 -18798
▁품계 -18799
▁플뢰 -18800
▁독립성 -18801
▁브룩스 -18802
▁이스턴 -18803
▁인슐린 -18804
▁Over -18805
오밍 -18806
▁MX -18807
▁OC -18808
▁ac -18809
▁교착 -18810
▁본적 -18811
▁슬롯 -18812
▁완투 -18813
▁왈라 -18814
▁우화 -18815
▁회군 -18816
노세키 -18817
▁Eng -18818
▁김포시 -18819
▁레오니 -18820
▁배상금 -18821
▁세례명 -18822
▁유학생 -18823
▁정보국 -18824
▁브래들리 -18825
▁에트루리아 -18826
서기 -18827
ric -18828
▁RO -18829
▁경학 -18830
▁국명 -18831
▁업소 -18832
▁연사 -18833
▁연일 -18834
▁오경 -18835
▁오목 -18836
▁우성 -18837
▁조위 -18838
▁주어 -18839
▁팔각 -18840
자위대 -18841
ouse -18842
▁390 -18843
[...]
