{"version":"1.0","truncation":null,"padding":null,"added_tokens":[{"id":0,"special":true,"content":"[UNK]","single_word":false,"lstrip":false,"rstrip":false,"normalized":false},{"id":1,"special":true,"content":"[CLS]","single_word":false,"lstrip":false,"rstrip":false,"normalized":false},{"id":2,"special":true,"content":"[SEP]","single_word":false,"lstrip":false,"rstrip":false,"normalized":false},{"id":3,"special":true,"content":"[PAD]","single_word":false,"lstrip":false,"rstrip":false,"normalized":false},{"id":4,"special":true,"content":"[MASK]","single_word":false,"lstrip":false,"rstrip":false,"normalized":false}],"normalizer":{"type":"Sequence","normalizers":[{"type":"StripAccents"}]},"pre_tokenizer":{"type":"WhitespaceSplit"},"post_processor":{"type":"TemplateProcessing","single":[{"SpecialToken":{"id":"[CLS]","type_id":0}},{"Sequence":{"id":"A","type_id":0}},{"SpecialToken":{"id":"[SEP]","type_id":0}}],"pair":[{"SpecialToken":{"id":"[CLS]","type_id":0}},{"Sequence":{"id":"A","type_id":0}},{"SpecialToken":{"id":"[SEP]","type_id":0}},{"Sequence":{"id":"B","type_id":1}},{"SpecialToken":{"id":"[SEP]","type_id":1}}],"special_tokens":{"[CLS]":{"id":"[CLS]","ids":[1],"tokens":["[CLS]"]},"[SEP]":{"id":"[SEP]","ids":[2],"tokens":["[SEP]"]}}},"decoder":null,"model":{"type":"WordPiece","unk_token":"[UNK]","continuing_subword_prefix":"##","max_input_chars_per_word":100,"vocab":{"[UNK]":0,"[CLS]":1,"[SEP]":2,"[PAD]":3,"[MASK]":4,"!":5,"\"":6,"#":7,"$":8,"%":9,"&":10,"'":11,"(":12,")":13,"*":14,"+":15,",":16,"-":17,".":18,"/":19,"0":20,"1":21,"2":22,"3":23,"4":24,"5":25,"6":26,"7":27,"8":28,"9":29,":":30,";":31,"<":32,"=":33,">":34,"?":35,"@":36,"A":37,"B":38,"C":39,"D":40,"E":41,"F":42,"G":43,"H":44,"I":45,"J":46,"K":47,"L":48,"M":49,"N":50,"O":51,"P":52,"Q":53,"R":54,"S":55,"T":56,"U":57,"V":58,"W":59,"X":60,"Y":61,"Z":62,"[":63,"\\":64,"]":65,"^":66,"_":67,"`":68,"a":69,"b":70,"c":71,"d":72,"e":73,"f":74,"g":75,"h":76,"i":77,"j":78,"k":79,"l":80,"m":81,"n":82,"o":83,"p":84,"q":85,"r":86,"s":87,"t":88,"u":89,"v":90,"w":91,"x":92,"y":93,"z":94,"{":95,"|":96,"}":97,"~":98,"":99,"ㄱ":100,"ㄲ":101,"ㄳ":102,"ㄴ":103,"ㄵ":104,"ㄶ":105,"ㄷ":106,"ㄸ":107,"ㄹ":108,"ㄺ":109,"ㄻ":110,"ㄼ":111,"ㄽ":112,"ㄾ":113,"ㄿ":114,"ㅀ":115,"ㅁ":116,"ㅂ":117,"ㅃ":118,"ㅄ":119,"ㅅ":120,"ㅆ":121,"ㅇ":122,"ㅈ":123,"ㅉ":124,"ㅊ":125,"ㅋ":126,"ㅌ":127,"ㅍ":128,"ㅎ":129,"ㅏ":130,"ㅐ":131,"ㅑ":132,"ㅒ":133,"ㅓ":134,"ㅔ":135,"ㅕ":136,"ㅖ":137,"ㅗ":138,"ㅘ":139,"ㅙ":140,"ㅚ":141,"ㅛ":142,"ㅜ":143,"ㅝ":144,"ㅞ":145,"ㅟ":146,"ㅠ":147,"ㅡ":148,"ㅢ":149,"ㅣ":150,"가":151,"각":152,"갂":153,"갃":154,"간":155,"갅":156,"갆":157,"갇":158,"갈":159,"갉":160,"갊":161,"갋":162,"갌":163,"갍":164,"갎":165,"갏":166,"감":167,"갑":168,"값":169,"갓":170,"갔":171,"강":172,"갖":173,"갗":174,"갘":175,"같":176,"갚":177,"갛":178,"개":179,"객":180,"갞":181,"갟":182,"갠":183,"갡":184,"갢":185,"갣":186,"갤":187,"갥":188,"갦":189,"갧":190,"갨":191,"갩":192,"갪":193,"갫":194,"갬":195,"갭":196,"갮":197,"갯":198,"갰":199,"갱":200,"갲":201,"갳":202,"갴":203,"갵":204,"갶":205,"갷":206,"갸":207,"갹":208,"갺":209,"갻":210,"갼":211,"갽":212,"갾":213,"갿":214,"걀":215,"걁":216,"걂":217,"걃":218,"걄":219,"걅":220,"걆":221,"걇":222,"걈":223,"걉":224,"걊":225,"걋":226,"걌":227,"걍":228,"걎":229,"걏":230,"걐":231,"걑":232,"걒":233,"걓":234,"걔":235,"걕":236,"걖":237,"걗":238,"걘":239,"걙":240,"걚":241,"걛":242,"걜":243,"걝":244,"걞":245,"걟":246,"걠":247,"걡":248,"걢":249,"걣":250,"걤":251,"걥":252,"걦":253,"걧":254,"걨":255,"걩":256,"걪":257,"걫":258,"걬":259,"걭":260,"걮":261,"걯":262,"거":263,"걱":264,"걲":265,"걳":266,"건":267,"걵":268,"걶":269,"걷":270,"걸":271,"걹":272,"걺":273,"걻":274,"걼":275,"걽":276,"걾":277,"걿":278,"검":279,"겁":280,"겂":281,"것":282,"겄":283,"겅":284,"겆":285,"겇":286,"겈":287,"겉":288,"겊":289,"겋":290,"게":291,"겍":292,"겎":293,"겏":294,"겐":295,"겑":296,"겒":297,"겓":298,"겔":299,"겕":300,"겖":301,"겗":302,"겘":303,"겙":304,"겚":305,"겛":306,"겜":307,"겝":308,"겞":309,"겟":310,"겠":311,"겡":312,"겢":313,"겣":314,"겤":315,"겥":316,"겦":317,"겧":318,"겨":319,"격":320,"겪":321,"겫":322,"견":323,"겭":324,"겮":325,"겯":326,"결":327,"겱":328,"겲":329,"겳":330,"겴":331,"겵":332,"겶":333,"겷":334,"겸":335,"겹":336,"겺":337,"겻":338,"겼":339,"경":340,"겾":341,"겿":342,"곀":343,"곁":344,"곂":345,"곃":346,"계":347,"곅":348,"곆":349,"곇":350,"곈":351,"곉":352,"곊":353,"곋":354,"곌":355,"곍":356,"곎":357,"곏":358,"곐":359,"곑":360,"곒":361,"곓":362,"곔":363,"곕":364,"곖":365,"곗":366,"곘":367,"곙":368,"곚":369,"곛":370,"곜":371,"곝":372,"곞":373,"곟":374,"고":375,"곡":376,"곢":377,"곣":378,"곤":379,"곥":380,"곦":381,"곧":382,"골":383,"곩":384,"곪":385,"곫":386,"곬":387,"곭":388,"곮":389,"곯":390,"곰":391,"곱":392,"곲":393,"곳":394,"곴":395,"공":396,"곶":397,"곷":398,"곸":399,"곹":400,"곺":401,"곻":402,"과":403,"곽":404,"곾":405,"곿":406,"관":407,"괁":408,"괂":409,"괃":410,"괄":411,"괅":412,"괆":413,"괇":414,"괈":415,"괉":416,"괊":417,"괋":418,"괌":419,"괍":420,"괎":421,"괏":422,"괐":423,"광":424,"괒":425,"괓":426,"괔":427,"괕":428,"괖":429,"괗":430,"괘":431,"괙":432,"괚":433,"괛":434,"괜":435,"괝":436,"괞":437,"괟":438,"괠":439,"괡":440,"괢":441,"괣":442,"괤":443,"괥":444,"괦":445,"괧":446,"괨":447,"괩":448,"괪":449,"괫":450,"괬":451,"괭":452,"괮":453,"괯":454,"괰":455,"괱":456,"괲":457,"괳":458,"괴":459,"괵":460,"괶":461,"괷":462,"괸":463,"괹":464,"괺":465,"괻":466,"괼":467,"괽":468,"괾":469,"괿":470,"굀":471,"굁":472,"굂":473,"굃":474,"굄":475,"굅":476,"굆":477,"굇":478,"굈":479,"굉":480,"굊":481,"굋":482,"굌":483,"굍":484,"굎":485,"굏":486,"교":487,"굑":488,"굒":489,"굓":490,"굔":491,"굕":492,"굖":493,"굗":494,"굘":495,"굙":496,"굚":497,"굛":498,"굜":499,"굝":500,"굞":501,"굟":502,"굠":503,"굡":504,"굢":505,"굣":506,"굤":507,"굥":508,"굦":509,"굧":510,"굨":511,"굩":512,"굪":513,"굫":514,"구":515,"국":516,"굮":517,"굯":518,"군":519,"굱":520,"굲":521,"굳":522,"굴":523,"굵":524,"굶":525,"굷":526,"굸":527,"굹":528,"굺":529,"굻":530,"굼":531,"굽":532,"굾":533,"굿":534,"궀":535,"궁":536,"궂":537,"궃":538,"궄":539,"궅":540,"궆":541,"궇":542,"궈":543,"궉":544,"궊":545,"궋":546,"권":547,"궍":548,"궎":549,"궏":550,"궐":551,"궑":552,"궒":553,"궓":554,"궔":555,"궕":556,"궖":557,"궗":558,"궘":559,"궙":560,"궚":561,"궛":562,"궜":563,"궝":564,"궞":565,"궟":566,"궠":567,"궡":568,"궢":569,"궣":570,"궤":571,"궥":572,"궦":573,"궧":574,"궨":575,"궩":576,"궪":577,"궫":578,"궬":579,"궭":580,"궮":581,"궯":582,"궰":583,"궱":584,"궲":585,"궳":586,"궴":587,"궵":588,"궶":589,"궷":590,"궸":591,"궹":592,"궺":593,"궻":594,"궼":595,"궽":596,"궾":597,"궿":598,"귀":599,"귁":600,"귂":601,"귃":602,"귄":603,"귅":604,"귆":605,"귇":606,"귈":607,"귉":608,"귊":609,"귋":610,"귌":611,"귍":612,"귎":613,"귏":614,"귐":615,"귑":616,"귒":617,"귓":618,"귔":619,"귕":620,"귖":621,"귗":622,"귘":623,"귙":624,"귚":625,"귛":626,"규":627,"귝":628,"귞":629,"귟":630,"균":631,"귡":632,"귢":633,"귣":634,"귤":635,"귥":636,"귦":637,"귧":638,"귨":639,"귩":640,"귪":641,"귫":642,"귬":643,"귭":644,"귮":645,"귯":646,"귰":647,"귱":648,"귲":649,"귳":650,"귴":651,"귵":652,"귶":653,"귷":654,"그":655,"극":656,"귺":657,"귻":658,"근":659,"귽":660,"귾":661,"귿":662,"글":663,"긁":664,"긂":665,"긃":666,"긄":667,"긅":668,"긆":669,"긇":670,"금":671,"급":672,"긊":673,"긋":674,"긌":675,"긍":676,"긎":677,"긏":678,"긐":679,"긑":680,"긒":681,"긓":682,"긔":683,"긕":684,"긖":685,"긗":686,"긘":687,"긙":688,"긚":689,"긛":690,"긜":691,"긝":692,"긞":693,"긟":694,"긠":695,"긡":696,"긢":697,"긣":698,"긤":699,"긥":700,"긦":701,"긧":702,"긨":703,"긩":704,"긪":705,"긫":706,"긬":707,"긭":708,"긮":709,"긯":710,"기":711,"긱":712,"긲":713,"긳":714,"긴":715,"긵":716,"긶":717,"긷":718,"길":719,"긹":720,"긺":721,"긻":722,"긼":723,"긽":724,"긾":725,"긿":726,"김":727,"깁":728,"깂":729,"깃":730,"깄":731,"깅":732,"깆":733,"깇":734,"깈":735,"깉":736,"깊":737,"깋":738,"까":739,"깍":740,"깎":741,"깏":742,"깐":743,"깑":744,"깒":745,"깓":746,"깔":747,"깕":748,"깖":749,"깗":750,"깘":751,"깙":752,"깚":753,"깛":754,"깜":755,"깝":756,"깞":757,"깟":758,"깠":759,"깡":760,"깢":761,"깣":762,"깤":763,"깥":764,"깦":765,"깧":766,"깨":767,"깩":768,"깪":769,"깫":770,"깬":771,"깭":772,"깮":773,"깯":774,"깰":775,"깱":776,"깲":777,"깳":778,"깴":779,"깵":780,"깶":781,"깷":782,"깸":783,"깹":784,"깺":785,"깻":786,"깼":787,"깽":788,"깾":789,"깿":790,"꺀":791,"꺁":792,"꺂":793,"꺃":794,"꺄":795,"꺅":796,"꺆":797,"꺇":798,"꺈":799,"꺉":800,"꺊":801,"꺋":802,"꺌":803,"꺍":804,"꺎":805,"꺏":806,"꺐":807,"꺑":808,"꺒":809,"꺓":810,"꺔":811,"꺕":812,"꺖":813,"꺗":814,"꺘":815,"꺙":816,"꺚":817,"꺛":818,"꺜":819,"꺝":820,"꺞":821,"꺟":822,"꺠":823,"꺡":824,"꺢":825,"꺣":826,"꺤":827,"꺥":828,"꺦":829,"꺧":830,"꺨":831,"꺩":832,"꺪":833,"꺫":834,"꺬":835,"꺭":836,"꺮":837,"꺯":838,"꺰":839,"꺱":840,"꺲":841,"꺳":842,"꺴":843,"꺵":844,"꺶":845,"꺷":846,"꺸":847,"꺹":848,"꺺":849,"꺻":850,"꺼":851,"꺽":852,"꺾":853,"꺿":854,"껀":855,"껁":856,"껂":857,"껃":858,"껄":859,"껅":860,"껆":861,"껇":862,"껈":863,"껉":864,"껊":865,"껋":866,"껌":867,"껍":868,"껎":869,"껏":870,"껐":871,"껑":872,"껒":873,"껓":874,"껔":875,"껕":876,"껖":877,"껗":878,"께":879,"껙":880,"껚":881,"껛":882,"껜":883,"껝":884,"껞":885,"껟":886,"껠":887,"껡":888,"껢":889,"껣":890,"껤":891,"껥":892,"껦":893,"껧":894,"껨":895,"껩":896,"껪":897,"껫":898,"껬":899,"껭":900,"껮":901,"껯":902,"껰":903,"껱":904,"껲":905,"껳":906,"껴":907,"껵":908,"껶":909,"껷":910,"껸":911,"껹":912,"껺":913,"껻":914,"껼":915,"껽":916,"껾":917,"껿":918,"꼀":919,"꼁":920,"꼂":921,"꼃":922,"꼄":923,"꼅":924,"꼆":925,"꼇":926,"꼈":927,"꼉":928,"꼊":929,"꼋":930,"꼌":931,"꼍":932,"꼎":933,"꼏":934,"꼐":935,"꼑":936,"꼒":937,"꼓":938,"꼔":939,"꼕":940,"꼖":941,"꼗":942,"꼘":943,"꼙":944,"꼚":945,"꼛":946,"꼜":947,"꼝":948,"꼞":949,"꼟":950,"꼠":951,"꼡":952,"꼢":953,"꼣":954,"꼤":955,"꼥":956,"꼦":957,"꼧":958,"꼨":959,"꼩":960,"꼪":961,"꼫":962,"꼬":963,"꼭":964,"꼮":965,"꼯":966,"꼰":967,"꼱":968,"꼲":969,"꼳":970,"꼴":971,"꼵":972,"꼶":973,"꼷":974,"꼸":975,"꼹":976,"꼺":977,"꼻":978,"꼼":979,"꼽":980,"꼾":981,"꼿":982,"꽀":983,"꽁":984,"꽂":985,"꽃":986,"꽄":987,"꽅":988,"꽆":989,"꽇":990,"꽈":991,"꽉":992,"꽊":993,"꽋":994,"꽌":995,"꽍":996,"꽎":997,"꽏":998,"꽐":999,"꽑":1000,"꽒":1001,"꽓":1002,"꽔":1003,"꽕":1004,"꽖":1005,"꽗":1006,"꽘":1007,"꽙":1008,"꽚":1009,"꽛":1010,"꽜":1011,"꽝":1012,"꽞":1013,"꽟":1014,"꽠":1015,"꽡":1016,"꽢":1017,"꽣":1018,"꽤":1019,"꽥":1020,"꽦":1021,"꽧":1022,"꽨":1023,"꽩":1024,"꽪":1025,"꽫":1026,"꽬":1027,"꽭":1028,"꽮":1029,"꽯":1030,"꽰":1031,"꽱":1032,"꽲":1033,"꽳":1034,"꽴":1035,"꽵":1036,"꽶":1037,"꽷":1038,"꽸":1039,"꽹":1040,"꽺":1041,"꽻":1042,"꽼":1043,"꽽":1044,"꽾":1045,"꽿":1046,"꾀":1047,"꾁":1048,"꾂":1049,"꾃":1050,"꾄":1051,"꾅":1052,"꾆":1053,"꾇":1054,"꾈":1055,"꾉":1056,"꾊":1057,"꾋":1058,"꾌":1059,"꾍":1060,"꾎":1061,"꾏":1062,"꾐":1063,"꾑":1064,"꾒":1065,"꾓":1066,"꾔":1067,"꾕":1068,"꾖":1069,"꾗":1070,"꾘":1071,"꾙":1072,"꾚":1073,"꾛":1074,"꾜":1075,"꾝":1076,"꾞":1077,"꾟":1078,"꾠":1079,"꾡":1080,"꾢":1081,"꾣":1082,"꾤":1083,"꾥":1084,"꾦":1085,"꾧":1086,"꾨":1087,"꾩":1088,"꾪":1089,"꾫":1090,"꾬":1091,"꾭":1092,"꾮":1093,"꾯":1094,"꾰":1095,"꾱":1096,"꾲":1097,"꾳":1098,"꾴":1099,"꾵":1100,"꾶":1101,"꾷":1102,"꾸":1103,"꾹":1104,"꾺":1105,"꾻":1106,"꾼":1107,"꾽":1108,"꾾":1109,"꾿":1110,"꿀":1111,"꿁":1112,"꿂":1113,"꿃":1114,"꿄":1115,"꿅":1116,"꿆":1117,"꿇":1118,"꿈":1119,"꿉":1120,"꿊":1121,"꿋":1122,"꿌":1123,"꿍":1124,"꿎":1125,"꿏":1126,"꿐":1127,"꿑":1128,"꿒":1129,"꿓":1130,"꿔":1131,"꿕":1132,"꿖":1133,"꿗":1134,"꿘":1135,"꿙":1136,"꿚":1137,"꿛":1138,"꿜":1139,"꿝":1140,"꿞":1141,"꿟":1142,"꿠":1143,"꿡":1144,"꿢":1145,"꿣":1146,"꿤":1147,"꿥":1148,"꿦":1149,"꿧":1150,"꿨":1151,"꿩":1152,"꿪":1153,"꿫":1154,"꿬":1155,"꿭":1156,"꿮":1157,"꿯":1158,"꿰":1159,"꿱":1160,"꿲":1161,"꿳":1162,"꿴":1163,"꿵":1164,"꿶":1165,"꿷":1166,"꿸":1167,"꿹":1168,"꿺":1169,"꿻":1170,"꿼":1171,"꿽":1172,"꿾":1173,"꿿":1174,"뀀":1175,"뀁":1176,"뀂":1177,"뀃":1178,"뀄":1179,"뀅":1180,"뀆":1181,"뀇":1182,"뀈":1183,"뀉":1184,"뀊":1185,"뀋":1186,"뀌":1187,"뀍":1188,"뀎":1189,"뀏":1190,"뀐":1191,"뀑":1192,"뀒":1193,"뀓":1194,"뀔":1195,"뀕":1196,"뀖":1197,"뀗":1198,"뀘":1199,"뀙":1200,"뀚":1201,"뀛":1202,"뀜":1203,"뀝":1204,"뀞":1205,"뀟":1206,"뀠":1207,"뀡":1208,"뀢":1209,"뀣":1210,"뀤":1211,"뀥":1212,"뀦":1213,"뀧":1214,"뀨":1215,"뀩":1216,"뀪":1217,"뀫":1218,"뀬":1219,"뀭":1220,"뀮":1221,"뀯":1222,"뀰":1223,"뀱":1224,"뀲":1225,"뀳":1226,"뀴":1227,"뀵":1228,"뀶":1229,"뀷":1230,"뀸":1231,"뀹":1232,"뀺":1233,"뀻":1234,"뀼":1235,"뀽":1236,"뀾":1237,"뀿":1238,"끀":1239,"끁":1240,"끂":1241,"끃":1242,"끄":1243,"끅":1244,"끆":1245,"끇":1246,"끈":1247,"끉":1248,"끊":1249,"끋":1250,"끌":1251,"끍":1252,"끎":1253,"끏":1254,"끐":1255,"끑":1256,"끒":1257,"끓":1258,"끔":1259,"끕":1260,"끖":1261,"끗":1262,"끘":1263,"끙":1264,"끚":1265,"끛":1266,"끜":1267,"끝":1268,"끞":1269,"끟":1270,"끠":1271,"끡":1272,"끢":1273,"끣":1274,"끤":1275,"끥":1276,"끦":1277,"끧":1278,"끨":1279,"끩":1280,"끪":1281,"끫":1282,"끬":1283,"끭":1284,"끮":1285,"끯":1286,"끰":1287,"끱":1288,"끲":1289,"끳":1290,"끴":1291,"끵":1292,"끶":1293,"끷":1294,"끸":1295,"끹":1296,"끺":1297,"끻":1298,"끼":1299,"끽":1300,"끾":1301,"끿":1302,"낀":1303,"낁":1304,"낂":1305,"낃":1306,"낄":1307,"낅":1308,"낆":1309,"낇":1310,"낈":1311,"낉":1312,"낊":1313,"낋":1314,"낌":1315,"낍":1316,"낎":1317,"낏":1318,"낐":1319,"낑":1320,"낒":1321,"낓":1322,"낔":1323,"낕":1324,"낖":1325,"낗":1326,"나":1327,"낙":1328,"낚":1329,"낛":1330,"난":1331,"낝":1332,"낞":1333,"낟":1334,"날":1335,"낡":1336,"낢":1337,"낣":1338,"낤":1339,"낥":1340,"낦":1341,"낧":1342,"남":1343,"납":1344,"낪":1345,"낫":1346,"났":1347,"낭":1348,"낮":1349,"낯":1350,"낰":1351,"낱":1352,"낲":1353,"낳":1354,"내":1355,"낵":1356,"낶":1357,"낷":1358,"낸":1359,"낹":1360,"낺":1361,"낻":1362,"낼":1363,"낽":1364,"낾":1365,"낿":1366,"냀":1367,"냁":1368,"냂":1369,"냃":1370,"냄":1371,"냅":1372,"냆":1373,"냇":1374,"냈":1375,"냉":1376,"냊":1377,"냋":1378,"냌":1379,"냍":1380,"냎":1381,"냏":1382,"냐":1383,"냑":1384,"냒":1385,"냓":1386,"냔":1387,"냕":1388,"냖":1389,"냗":1390,"냘":1391,"냙":1392,"냚":1393,"냛":1394,"냜":1395,"냝":1396,"냞":1397,"냟":1398,"냠":1399,"냡":1400,"냢":1401,"냣":1402,"냤":1403,"냥":1404,"냦":1405,"냧":1406,"냨":1407,"냩":1408,"냪":1409,"냫":1410,"냬":1411,"냭":1412,"냮":1413,"냯":1414,"냰":1415,"냱":1416,"냲":1417,"냳":1418,"냴":1419,"냵":1420,"냶":1421,"냷":1422,"냸":1423,"냹":1424,"냺":1425,"냻":1426,"냼":1427,"냽":1428,"냾":1429,"냿":1430,"넀":1431,"넁":1432,"넂":1433,"넃":1434,"넄":1435,"넅":1436,"넆":1437,"넇":1438,"너":1439,"넉":1440,"넊":1441,"넋":1442,"넌":1443,"넍":1444,"넎":1445,"넏":1446,"널":1447,"넑":1448,"넒":1449,"넓":1450,"넔":1451,"넕":1452,"넖":1453,"넗":1454,"넘":1455,"넙":1456,"넚":1457,"넛":1458,"넜":1459,"넝":1460,"넞":1461,"넟":1462,"넠":1463,"넡":1464,"넢":1465,"넣":1466,"네":1467,"넥":1468,"넦":1469,"넧":1470,"넨":1471,"넩":1472,"넪":1473,"넫":1474,"넬":1475,"넭":1476,"넮":1477,"넯":1478,"넰":1479,"넱":1480,"넲":1481,"넳":1482,"넴":1483,"넵":1484,"넶":1485,"넷":1486,"넸":1487,"넹":1488,"넺":1489,"넻":1490,"넼":1491,"넽":1492,"넾":1493,"넿":1494,"녀":1495,"녁":1496,"녂":1497,"녃":1498,"년":1499,"녅":1500,"녆":1501,"녇":1502,"녈":1503,"녉":1504,"녊":1505,"녋":1506,"녌":1507,"녍":1508,"녎":1509,"녏":1510,"념":1511,"녑":1512,"녒":1513,"녓":1514,"녔":1515,"녕":1516,"녖":1517,"녗":1518,"녘":1519,"녙":1520,"녚":1521,"녛":1522,"녜":1523,"녝":1524,"녞":1525,"녟":1526,"녠":1527,"녡":1528,"녢":1529,"녣":1530,"녤":1531,"녥":1532,"녦":1533,"녧":1534,"녨":1535,"녩":1536,"녪":1537,"녫":1538,"녬":1539,"녭":1540,"녮":1541,"녯":1542,"녰":1543,"녱":1544,"녲":1545,"녳":1546,"녴":1547,"녵":1548,"녶":1549,"녷":1550,"노":1551,"녹":1552,"녺":1553,"녻":1554,"논":1555,"녽":1556,"녾":1557,"녿":1558,"놀":1559,"놁":1560,"놂":1561,"놃":1562,"놄":1563,"놅":1564,"놆":1565,"놇":1566,"놈":1567,"놉":1568,"놊":1569,"놋":1570,"놌":1571,"농":1572,"놎":1573,"놏":1574,"놐":1575,"놑":1576,"높":1577,"놓":1578,"놔":1579,"놕":1580,"놖":1581,"놗":1582,"놘":1583,"놙":1584,"놚":1585,"놛":1586,"놜":1587,"놝":1588,"놞":1589,"놟":1590,"놠":1591,"놡":1592,"놢":1593,"놣":1594,"놤":1595,"놥":1596,"놦":1597,"놧":1598,"놨":1599,"놩":1600,"놪":1601,"놫":1602,"놬":1603,"놭":1604,"놮":1605,"놯":1606,"놰":1607,"놱":1608,"놲":1609,"놳":1610,"놴":1611,"놵":1612,"놶":1613,"놷":1614,"놸":1615,"놹":1616,"놺":1617,"놻":1618,"놼":1619,"놽":1620,"놾":1621,"놿":1622,"뇀":1623,"뇁":1624,"뇂":1625,"뇃":1626,"뇄":1627,"뇅":1628,"뇆":1629,"뇇":1630,"뇈":1631,"뇉":1632,"뇊":1633,"뇋":1634,"뇌":1635,"뇍":1636,"뇎":1637,"뇏":1638,"뇐":1639,"뇑":1640,"뇒":1641,"뇓":1642,"뇔":1643,"뇕":1644,"뇖":1645,"뇗":1646,"뇘":1647,"뇙":1648,"뇚":1649,"뇛":1650,"뇜":1651,"뇝":1652,"뇞":1653,"뇟":1654,"뇠":1655,"뇡":1656,"뇢":1657,"뇣":1658,"뇤":1659,"뇥":1660,"뇦":1661,"뇧":1662,"뇨":1663,"뇩":1664,"뇪":1665,"뇫":1666,"뇬":1667,"뇭":1668,"뇮":1669,"뇯":1670,"뇰":1671,"뇱":1672,"뇲":1673,"뇳":1674,"뇴":1675,"뇵":1676,"뇶":1677,"뇷":1678,"뇸":1679,"뇹":1680,"뇺":1681,"뇻":1682,"뇼":1683,"뇽":1684,"뇾":1685,"뇿":1686,"눀":1687,"눁":1688,"눂":1689,"눃":1690,"누":1691,"눅":1692,"눆":1693,"눇":1694,"눈":1695,"눉":1696,"눊":1697,"눋":1698,"눌":1699,"눍":1700,"눎":1701,"눏":1702,"눐":1703,"눑":1704,"눒":1705,"눓":1706,"눔":1707,"눕":1708,"눖":1709,"눗":1710,"눘":1711,"눙":1712,"눚":1713,"눛":1714,"눜":1715,"눝":1716,"눞":1717,"눟":1718,"눠":1719,"눡":1720,"눢":1721,"눣":1722,"눤":1723,"눥":1724,"눦":1725,"눧":1726,"눨":1727,"눩":1728,"눪":1729,"눫":1730,"눬":1731,"눭":1732,"눮":1733,"눯":1734,"눰":1735,"눱":1736,"눲":1737,"눳":1738,"눴":1739,"눵":1740,"눶":1741,"눷":1742,"눸":1743,"눹":1744,"눺":1745,"눻":1746,"눼":1747,"눽":1748,"눾":1749,"눿":1750,"뉀":1751,"뉁":1752,"뉂":1753,"뉃":1754,"뉄":1755,"뉅":1756,"뉆":1757,"뉇":1758,"뉈":1759,"뉉":1760,"뉊":1761,"뉋":1762,"뉌":1763,"뉍":1764,"뉎":1765,"뉏":1766,"뉐":1767,"뉑":1768,"뉒":1769,"뉓":1770,"뉔":1771,"뉕":1772,"뉖":1773,"뉗":1774,"뉘":1775,"뉙":1776,"뉚":1777,"뉛":1778,"뉜":1779,"뉝":1780,"뉞":1781,"뉟":1782,"뉠":1783,"뉡":1784,"뉢":1785,"뉣":1786,"뉤":1787,"뉥":1788,"뉦":1789,"뉧":1790,"뉨":1791,"뉩":1792,"뉪":1793,"뉫":1794,"뉬":1795,"뉭":1796,"뉮":1797,"뉯":1798,"뉰":1799,"뉱":1800,"뉲":1801,"뉳":1802,"뉴":1803,"뉵":1804,"뉶":1805,"뉷":1806,"뉸":1807,"뉹":1808,"뉺":1809,"뉻":1810,"뉼":1811,"뉽":1812,"뉾":1813,"뉿":1814,"늀":1815,"늁":1816,"늂":1817,"늃":1818,"늄":1819,"늅":1820,"늆":1821,"늇":1822,"늈":1823,"늉":1824,"늊":1825,"늋":1826,"늌":1827,"늍":1828,"늎":1829,"늏":1830,"느":1831,"늑":1832,"늒":1833,"늓":1834,"는":1835,"늕":1836,"늖":1837,"늗":1838,"늘":1839,"늙":1840,"늚":1841,"늛":1842,"늜":1843,"늝":1844,"늞":1845,"늟":1846,"늠":1847,"늡":1848,"늢":1849,"늣":1850,"늤":1851,"능":1852,"늦":1853,"늧":1854,"늨":1855,"늩":1856,"늪":1857,"늫":1858,"늬":1859,"늭":1860,"늮":1861,"늯":1862,"늰":1863,"늱":1864,"늲":1865,"늳":1866,"늴":1867,"늵":1868,"늶":1869,"늷":1870,"늸":1871,"늹":1872,"늺":1873,"늻":1874,"늼":1875,"늽":1876,"늾":1877,"늿":1878,"닀":1879,"닁":1880,"닂":1881,"닃":1882,"닄":1883,"닅":1884,"닆":1885,"닇":1886,"니":1887,"닉":1888,"닊":1889,"닋":1890,"닌":1891,"닍":1892,"닎":1893,"닏":1894,"닐":1895,"닑":1896,"닒":1897,"닓":1898,"닔":1899,"닕":1900,"닖":1901,"닗":1902,"님":1903,"닙":1904,"닚":1905,"닛":1906,"닜":1907,"닝":1908,"닞":1909,"닟":1910,"닠":1911,"닡":1912,"닢":1913,"닣":1914,"다":1915,"닥":1916,"닦":1917,"닧":1918,"단":1919,"닩":1920,"닪":1921,"닫":1922,"달":1923,"닭":1924,"닮":1925,"닯":1926,"닰":1927,"닱":1928,"닲":1929,"닳":1930,"담":1931,"답":1932,"닶":1933,"닷":1934,"닸":1935,"당":1936,"닺":1937,"닻":1938,"닼":1939,"닽":1940,"닾":1941,"닿":1942,"대":1943,"댁":1944,"댂":1945,"댃":1946,"댄":1947,"댅":1948,"댆":1949,"댇":1950,"댈":1951,"댉":1952,"댊":1953,"댋":1954,"댌":1955,"댍":1956,"댎":1957,"댏":1958,"댐":1959,"댑":1960,"댒":1961,"댓":1962,"댔":1963,"댕":1964,"댖":1965,"댗":1966,"댘":1967,"댙":1968,"댚":1969,"댛":1970,"댜":1971,"댝":1972,"댞":1973,"댟":1974,"댠":1975,"댡":1976,"댢":1977,"댣":1978,"댤":1979,"댥":1980,"댦":1981,"댧":1982,"댨":1983,"댩":1984,"댪":1985,"댫":1986,"댬":1987,"댭":1988,"댮":1989,"댯":1990,"댰":1991,"댱":1992,"댲":1993,"댳":1994,"댴":1995,"댵":1996,"댶":1997,"댷":1998,"댸":1999,"댹":2000,"댺":2001,"댻":2002,"댼":2003,"댽":2004,"댾":2005,"댿":2006,"덀":2007,"덁":2008,"덂":2009,"덃":2010,"덄":2011,"덅":2012,"덆":2013,"덇":2014,"덈":2015,"덉":2016,"덊":2017,"덋":2018,"덌":2019,"덍":2020,"덎":2021,"덏":2022,"덐":2023,"덑":2024,"덒":2025,"덓":2026,"더":2027,"덕":2028,"덖":2029,"덗":2030,"던":2031,"덙":2032,"덚":2033,"덛":2034,"덜":2035,"덝":2036,"덞":2037,"덟":2038,"덠":2039,"덡":2040,"덢":2041,"덣":2042,"덤":2043,"덥":2044,"덦":2045,"덧":2046,"덨":2047,"덩":2048,"덪":2049,"덫":2050,"덬":2051,"덭":2052,"덮":2053,"덯":2054,"데":2055,"덱":2056,"덲":2057,"덳":2058,"덴":2059,"덵":2060,"덶":2061,"덷":2062,"델":2063,"덹":2064,"덺":2065,"덻":2066,"덼":2067,"덽":2068,"덾":2069,"덿":2070,"뎀":2071,"뎁":2072,"뎂":2073,"뎃":2074,"뎄":2075,"뎅":2076,"뎆":2077,"뎇":2078,"뎈":2079,"뎉":2080,"뎊":2081,"뎋":2082,"뎌":2083,"뎍":2084,"뎎":2085,"뎏":2086,"뎐":2087,"뎑":2088,"뎒":2089,"뎓":2090,"뎔":2091,"뎕":2092,"뎖":2093,"뎗":2094,"뎘":2095,"뎙":2096,"뎚":2097,"뎛":2098,"뎜":2099,"뎝":2100,"뎞":2101,"뎟":2102,"뎠":2103,"뎡":2104,"뎢":2105,"뎣":2106,"뎤":2107,"뎥":2108,"뎦":2109,"뎧":2110,"뎨":2111,"뎩":2112,"뎪":2113,"뎫":2114,"뎬":2115,"뎭":2116,"뎮":2117,"뎯":2118,"뎰":2119,"뎱":2120,"뎲":2121,"뎳":2122,"뎴":2123,"뎵":2124,"뎶":2125,"뎷":2126,"뎸":2127,"뎹":2128,"뎺":2129,"뎻":2130,"뎼":2131,"뎽":2132,"뎾":2133,"뎿":2134,"돀":2135,"돁":2136,"돂":2137,"돃":2138,"도":2139,"독":2140,"돆":2141,"돇":2142,"돈":2143,"돉":2144,"돊":2145,"돋":2146,"돌":2147,"돍":2148,"돎":2149,"돏":2150,"돐":2151,"돑":2152,"돒":2153,"돓":2154,"돔":2155,"돕":2156,"돖":2157,"돗":2158,"돘":2159,"동":2160,"돚":2161,"돛":2162,"돜":2163,"돝":2164,"돞":2165,"돟":2166,"돠":2167,"돡":2168,"돢":2169,"돣":2170,"돤":2171,"돥":2172,"돦":2173,"돧":2174,"돨":2175,"돩":2176,"돪":2177,"돫":2178,"돬":2179,"돭":2180,"돮":2181,"돯":2182,"돰":2183,"돱":2184,"돲":2185,"돳":2186,"돴":2187,"돵":2188,"돶":2189,"돷":2190,"돸":2191,"돹":2192,"돺":2193,"돻":2194,"돼":2195,"돽":2196,"돾":2197,"돿":2198,"됀":2199,"됁":2200,"됂":2201,"됃":2202,"됄":2203,"됅":2204,"됆":2205,"됇":2206,"됈":2207,"됉":2208,"됊":2209,"됋":2210,"됌":2211,"됍":2212,"됎":2213,"됏":2214,"됐":2215,"됑":2216,"됒":2217,"됓":2218,"됔":2219,"됕":2220,"됖":2221,"됗":2222,"되":2223,"됙":2224,"됚":2225,"됛":2226,"된":2227,"됝":2228,"됞":2229,"됟":2230,"될":2231,"됡":2232,"됢":2233,"됣":2234,"됤":2235,"됥":2236,"됦":2237,"됧":2238,"됨":2239,"됩":2240,"됪":2241,"됫":2242,"됬":2243,"됭":2244,"됮":2245,"됯":2246,"됰":2247,"됱":2248,"됲":2249,"됳":2250,"됴":2251,"됵":2252,"됶":2253,"됷":2254,"됸":2255,"됹":2256,"됺":2257,"됻":2258,"됼":2259,"됽":2260,"됾":2261,"됿":2262,"둀":2263,"둁":2264,"둂":2265,"둃":2266,"둄":2267,"둅":2268,"둆":2269,"둇":2270,"둈":2271,"둉":2272,"둊":2273,"둋":2274,"둌":2275,"둍":2276,"둎":2277,"둏":2278,"두":2279,"둑":2280,"둒":2281,"둓":2282,"둔":2283,"둕":2284,"둖":2285,"둗":2286,"둘":2287,"둙":2288,"둚":2289,"둛":2290,"둜":2291,"둝":2292,"둞":2293,"둟":2294,"둠":2295,"둡":2296,"둢":2297,"둣":2298,"둤":2299,"둥":2300,"둦":2301,"둧":2302,"둨":2303,"둩":2304,"둪":2305,"둫":2306,"둬":2307,"둭":2308,"둮":2309,"둯":2310,"둰":2311,"둱":2312,"둲":2313,"둳":2314,"둴":2315,"둵":2316,"둶":2317,"둷":2318,"둸":2319,"둹":2320,"둺":2321,"둻":2322,"둼":2323,"둽":2324,"둾":2325,"둿":2326,"뒀":2327,"뒁":2328,"뒂":2329,"뒃":2330,"뒄":2331,"뒅":2332,"뒆":2333,"뒇":2334,"뒈":2335,"뒉":2336,"뒊":2337,"뒋":2338,"뒌":2339,"뒍":2340,"뒎":2341,"뒏":2342,"뒐":2343,"뒑":2344,"뒒":2345,"뒓":2346,"뒔":2347,"뒕":2348,"뒖":2349,"뒗":2350,"뒘":2351,"뒙":2352,"뒚":2353,"뒛":2354,"뒜":2355,"뒝":2356,"뒞":2357,"뒟":2358,"뒠":2359,"뒡":2360,"뒢":2361,"뒣":2362,"뒤":2363,"뒥":2364,"뒦":2365,"뒧":2366,"뒨":2367,"뒩":2368,"뒪":2369,"뒫":2370,"뒬":2371,"뒭":2372,"뒮":2373,"뒯":2374,"뒰":2375,"뒱":2376,"뒲":2377,"뒳":2378,"뒴":2379,"뒵":2380,"뒶":2381,"뒷":2382,"뒸":2383,"뒹":2384,"뒺":2385,"뒻":2386,"뒼":2387,"뒽":2388,"뒾":2389,"뒿":2390,"듀":2391,"듁":2392,"듂":2393,"듃":2394,"듄":2395,"듅":2396,"듆":2397,"듇":2398,"듈":2399,"듉":2400,"듊":2401,"듋":2402,"듌":2403,"듍":2404,"듎":2405,"듏":2406,"듐":2407,"듑":2408,"듒":2409,"듓":2410,"듔":2411,"듕":2412,"듖":2413,"듗":2414,"듘":2415,"듙":2416,"듚":2417,"듛":2418,"드":2419,"득":2420,"듞":2421,"듟":2422,"든":2423,"듡":2424,"듢":2425,"듣":2426,"들":2427,"듥":2428,"듦":2429,"듧":2430,"듨":2431,"듩":2432,"듪":2433,"듫":2434,"듬":2435,"듭":2436,"듮":2437,"듯":2438,"듰":2439,"등":2440,"듲":2441,"듳":2442,"듴":2443,"듵":2444,"듶":2445,"듷":2446,"듸":2447,"듹":2448,"듺":2449,"듻":2450,"듼":2451,"듽":2452,"듾":2453,"듿":2454,"딀":2455,"딁":2456,"딂":2457,"딃":2458,"딄":2459,"딅":2460,"딆":2461,"딇":2462,"딈":2463,"딉":2464,"딊":2465,"딋":2466,"딌":2467,"딍":2468,"딎":2469,"딏":2470,"딐":2471,"딑":2472,"딒":2473,"딓":2474,"디":2475,"딕":2476,"딖":2477,"딗":2478,"딘":2479,"딙":2480,"딚":2481,"딛":2482,"딜":2483,"딝":2484,"딞":2485,"딟":2486,"딠":2487,"딡":2488,"딢":2489,"딣":2490,"딤":2491,"딥":2492,"딦":2493,"딧":2494,"딨":2495,"딩":2496,"딪":2497,"딫":2498,"딬":2499,"딭":2500,"딮":2501,"딯":2502,"따":2503,"딱":2504,"딲":2505,"딳":2506,"딴":2507,"딵":2508,"딶":2509,"딷":2510,"딸":2511,"딹":2512,"딺":2513,"딻":2514,"딼":2515,"딽":2516,"딾":2517,"딿":2518,"땀":2519,"땁":2520,"땂":2521,"땃":2522,"땄":2523,"땅":2524,"땆":2525,"땇":2526,"땈":2527,"땉":2528,"땊":2529,"땋":2530,"때":2531,"땍":2532,"땎":2533,"땏":2534,"땐":2535,"땑":2536,"땒":2537,"땓":2538,"땔":2539,"땕":2540,"땖":2541,"땗":2542,"땘":2543,"땙":2544,"땚":2545,"땛":2546,"땜":2547,"땝":2548,"땞":2549,"땟":2550,"땠":2551,"땡":2552,"땢":2553,"땣":2554,"땤":2555,"땥":2556,"땦":2557,"땧":2558,"땨":2559,"땩":2560,"땪":2561,"땫":2562,"땬":2563,"땭":2564,"땮":2565,"땯":2566,"땰":2567,"땱":2568,"땲":2569,"땳":2570,"땴":2571,"땵":2572,"땶":2573,"땷":2574,"땸":2575,"땹":2576,"땺":2577,"땻":2578,"땼":2579,"땽":2580,"땾":2581,"땿":2582,"떀":2583,"떁":2584,"떂":2585,"떃":2586,"떄":2587,"떅":2588,"떆":2589,"떇":2590,"떈":2591,"떉":2592,"떊":2593,"떋":2594,"떌":2595,"떍":2596,"떎":2597,"떏":2598,"떐":2599,"떑":2600,"떒":2601,"떓":2602,"떔":2603,"떕":2604,"떖":2605,"떗":2606,"떘":2607,"떙":2608,"떚":2609,"떛":2610,"떜":2611,"떝":2612,"떞":2613,"떟":2614,"떠":2615,"떡":2616,"떢":2617,"떣":2618,"떤":2619,"떥":2620,"떦":2621,"떧":2622,"떨":2623,"떩":2624,"떪":2625,"떫":2626,"떬":2627,"떭":2628,"떮":2629,"떯":2630,"떰":2631,"떱":2632,"떲":2633,"떳":2634,"떴":2635,"떵":2636,"떶":2637,"떷":2638,"떸":2639,"떹":2640,"떺":2641,"떻":2642,"떼":2643,"떽":2644,"떾":2645,"떿":2646,"뗀":2647,"뗁":2648,"뗂":2649,"뗃":2650,"뗄":2651,"뗅":2652,"뗆":2653,"뗇":2654,"뗈":2655,"뗉":2656,"뗊":2657,"뗋":2658,"뗌":2659,"뗍":2660,"뗎":2661,"뗏":2662,"뗐":2663,"뗑":2664,"뗒":2665,"뗓":2666,"뗔":2667,"뗕":2668,"뗖":2669,"뗗":2670,"뗘":2671,"뗙":2672,"뗚":2673,"뗛":2674,"뗜":2675,"뗝":2676,"뗞":2677,"뗟":2678,"뗠":2679,"뗡":2680,"뗢":2681,"뗣":2682,"뗤":2683,"뗥":2684,"뗦":2685,"뗧":2686,"뗨":2687,"뗩":2688,"뗪":2689,"뗫":2690,"뗬":2691,"뗭":2692,"뗮":2693,"뗯":2694,"뗰":2695,"뗱":2696,"뗲":2697,"뗳":2698,"뗴":2699,"뗵":2700,"뗶":2701,"뗷":2702,"뗸":2703,"뗹":2704,"뗺":2705,"뗻":2706,"뗼":2707,"뗽":2708,"뗾":2709,"뗿":2710,"똀":2711,"똁":2712,"똂":2713,"똃":2714,"똄":2715,"똅":2716,"똆":2717,"똇":2718,"똈":2719,"똉":2720,"똊":2721,"똋":2722,"똌":2723,"똍":2724,"똎":2725,"똏":2726,"또":2727,"똑":2728,"똒":2729,"똓":2730,"똔":2731,"똕":2732,"똖":2733,"똗":2734,"똘":2735,"똙":2736,"똚":2737,"똛":2738,"똜":2739,"똝":2740,"똞":2741,"똟":2742,"똠":2743,"똡":2744,"똢":2745,"똣":2746,"똤":2747,"똥":2748,"똦":2749,"똧":2750,"똨":2751,"똩":2752,"똪":2753,"똫":2754,"똬":2755,"똭":2756,"똮":2757,"똯":2758,"똰":2759,"똱":2760,"똲":2761,"똳":2762,"똴":2763,"똵":2764,"똶":2765,"똷":2766,"똸":2767,"똹":2768,"똺":2769,"똻":2770,"똼":2771,"똽":2772,"똾":2773,"똿":2774,"뙀":2775,"뙁":2776,"뙂":2777,"뙃":2778,"뙄":2779,"뙅":2780,"뙆":2781,"뙇":2782,"뙈":2783,"뙉":2784,"뙊":2785,"뙋":2786,"뙌":2787,"뙍":2788,"뙎":2789,"뙏":2790,"뙐":2791,"뙑":2792,"뙒":2793,"뙓":2794,"뙔":2795,"뙕":2796,"뙖":2797,"뙗":2798,"뙘":2799,"뙙":2800,"뙚":2801,"뙛":2802,"뙜":2803,"뙝":2804,"뙞":2805,"뙟":2806,"뙠":2807,"뙡":2808,"뙢":2809,"뙣":2810,"뙤":2811,"뙥":2812,"뙦":2813,"뙧":2814,"뙨":2815,"뙩":2816,"뙪":2817,"뙫":2818,"뙬":2819,"뙭":2820,"뙮":2821,"뙯":2822,"뙰":2823,"뙱":2824,"뙲":2825,"뙳":2826,"뙴":2827,"뙵":2828,"뙶":2829,"뙷":2830,"뙸":2831,"뙹":2832,"뙺":2833,"뙻":2834,"뙼":2835,"뙽":2836,"뙾":2837,"뙿":2838,"뚀":2839,"뚁":2840,"뚂":2841,"뚃":2842,"뚄":2843,"뚅":2844,"뚆":2845,"뚇":2846,"뚈":2847,"뚉":2848,"뚊":2849,"뚋":2850,"뚌":2851,"뚍":2852,"뚎":2853,"뚏":2854,"뚐":2855,"뚑":2856,"뚒":2857,"뚓":2858,"뚔":2859,"뚕":2860,"뚖":2861,"뚗":2862,"뚘":2863,"뚙":2864,"뚚":2865,"뚛":2866,"뚜":2867,"뚝":2868,"뚞":2869,"뚟":2870,"뚠":2871,"뚡":2872,"뚢":2873,"뚣":2874,"뚤":2875,"뚥":2876,"뚦":2877,"뚧":2878,"뚨":2879,"뚩":2880,"뚪":2881,"뚫":2882,"뚬":2883,"뚭":2884,"뚮":2885,"뚯":2886,"뚰":2887,"뚱":2888,"뚲":2889,"뚳":2890,"뚴":2891,"뚵":2892,"뚶":2893,"뚷":2894,"뚸":2895,"뚹":2896,"뚺":2897,"뚻":2898,"뚼":2899,"뚽":2900,"뚾":2901,"뚿":2902,"뛀":2903,"뛁":2904,"뛂":2905,"뛃":2906,"뛄":2907,"뛅":2908,"뛆":2909,"뛇":2910,"뛈":2911,"뛉":2912,"뛊":2913,"뛋":2914,"뛌":2915,"뛍":2916,"뛎":2917,"뛏":2918,"뛐":2919,"뛑":2920,"뛒":2921,"뛓":2922,"뛔":2923,"뛕":2924,"뛖":2925,"뛗":2926,"뛘":2927,"뛙":2928,"뛚":2929,"뛛":2930,"뛜":2931,"뛝":2932,"뛞":2933,"뛟":2934,"뛠":2935,"뛡":2936,"뛢":2937,"뛣":2938,"뛤":2939,"뛥":2940,"뛦":2941,"뛧":2942,"뛨":2943,"뛩":2944,"뛪":2945,"뛫":2946,"뛬":2947,"뛭":2948,"뛮":2949,"뛯":2950,"뛰":2951,"뛱":2952,"뛲":2953,"뛳":2954,"뛴":2955,"뛵":2956,"뛶":2957,"뛷":2958,"뛸":2959,"뛹":2960,"뛺":2961,"뛻":2962,"뛼":2963,"뛽":2964,"뛾":2965,"뛿":2966,"뜀":2967,"뜁":2968,"뜂":2969,"뜃":2970,"뜄":2971,"뜅":2972,"뜆":2973,"뜇":2974,"뜈":2975,"뜉":2976,"뜊":2977,"뜋":2978,"뜌":2979,"뜍":2980,"뜎":2981,"뜏":2982,"뜐":2983,"뜑":2984,"뜒":2985,"뜓":2986,"뜔":2987,"뜕":2988,"뜖":2989,"뜗":2990,"뜘":2991,"뜙":2992,"뜚":2993,"뜛":2994,"뜜":2995,"뜝":2996,"뜞":2997,"뜟":2998,"뜠":2999,"뜡":3000,"뜢":3001,"뜣":3002,"뜤":3003,"뜥":3004,"뜦":3005,"뜧":3006,"뜨":3007,"뜩":3008,"뜪":3009,"뜫":3010,"뜬":3011,"뜭":3012,"뜮":3013,"뜯":3014,"뜰":3015,"뜱":3016,"뜲":3017,"뜳":3018,"뜴":3019,"뜵":3020,"뜶":3021,"뜷":3022,"뜸":3023,"뜹":3024,"뜺":3025,"뜻":3026,"뜼":3027,"뜽":3028,"뜾":3029,"뜿":3030,"띀":3031,"띁":3032,"띂":3033,"띃":3034,"띄":3035,"띅":3036,"띆":3037,"띇":3038,"띈":3039,"띉":3040,"띊":3041,"띋":3042,"띌":3043,"띍":3044,"띎":3045,"띏":3046,"띐":3047,"띑":3048,"띒":3049,"띓":3050,"띔":3051,"띕":3052,"띖":3053,"띗":3054,"띘":3055,"띙":3056,"띚":3057,"띛":3058,"띜":3059,"띝":3060,"띞":3061,"띟":3062,"띠":3063,"띡":3064,"띢":3065,"띣":3066,"띤":3067,"띥":3068,"띦":3069,"띧":3070,"띨":3071,"띩":3072,"띪":3073,"띫":3074,"띬":3075,"띭":3076,"띮":3077,"띯":3078,"띰":3079,"띱":3080,"띲":3081,"띳":3082,"띴":3083,"띵":3084,"띶":3085,"띷":3086,"띸":3087,"띹":3088,"띺":3089,"띻":3090,"라":3091,"락":3092,"띾":3093,"띿":3094,"란":3095,"랁":3096,"랂":3097,"랃":3098,"랄":3099,"랅":3100,"랆":3101,"랇":3102,"랈":3103,"랉":3104,"랊":3105,"랋":3106,"람":3107,"랍":3108,"랎":3109,"랏":3110,"랐":3111,"랑":3112,"랒":3113,"랓":3114,"랔":3115,"랕":3116,"랖":3117,"랗":3118,"래":3119,"랙":3120,"랚":3121,"랛":3122,"랜":3123,"랝":3124,"랞":3125,"랟":3126,"랠":3127,"랡":3128,"랢":3129,"랣":3130,"랤":3131,"랥":3132,"랦":3133,"랧":3134,"램":3135,"랩":3136,"랪":3137,"랫":3138,"랬":3139,"랭":3140,"랮":3141,"랯":3142,"랰":3143,"랱":3144,"랲":3145,"랳":3146,"랴":3147,"략":3148,"랶":3149,"랷":3150,"랸":3151,"랹":3152,"랺":3153,"랻":3154,"랼":3155,"랽":3156,"랾":3157,"랿":3158,"럀":3159,"럁":3160,"럂":3161,"럃":3162,"럄":3163,"럅":3164,"럆":3165,"럇":3166,"럈":3167,"량":3168,"럊":3169,"럋":3170,"럌":3171,"럍":3172,"럎":3173,"럏":3174,"럐":3175,"럑":3176,"럒":3177,"럓":3178,"럔":3179,"럕":3180,"럖":3181,"럗":3182,"럘":3183,"럙":3184,"럚":3185,"럛":3186,"럜":3187,"럝":3188,"럞":3189,"럟":3190,"럠":3191,"럡":3192,"럢":3193,"럣":3194,"럤":3195,"럥":3196,"럦":3197,"럧":3198,"럨":3199,"럩":3200,"럪":3201,"럫":3202,"러":3203,"럭":3204,"럮":3205,"럯":3206,"런":3207,"럱":3208,"럲":3209,"럳":3210,"럴":3211,"럵":3212,"럶":3213,"럷":3214,"럸":3215,"럹":3216,"럺":3217,"럻":3218,"럼":3219,"럽":3220,"럾":3221,"럿":3222,"렀":3223,"렁":3224,"렂":3225,"렃":3226,"렄":3227,"렅":3228,"렆":3229,"렇":3230,"레":3231,"렉":3232,"렊":3233,"렋":3234,"렌":3235,"렍":3236,"렎":3237,"렏":3238,"렐":3239,"렑":3240,"렒":3241,"렓":3242,"렔":3243,"렕":3244,"렖":3245,"렗":3246,"렘":3247,"렙":3248,"렚":3249,"렛":3250,"렜":3251,"렝":3252,"렞":3253,"렟":3254,"렠":3255,"렡":3256,"렢":3257,"렣":3258,"려":3259,"력":3260,"렦":3261,"렧":3262,"련":3263,"렩":3264,"렪":3265,"렫":3266,"렬":3267,"렭":3268,"렮":3269,"렯":3270,"렰":3271,"렱":3272,"렲":3273,"렳":3274,"렴":3275,"렵":3276,"렶":3277,"렷":3278,"렸":3279,"령":3280,"렺":3281,"렻":3282,"렼":3283,"렽":3284,"렾":3285,"렿":3286,"례":3287,"롁":3288,"롂":3289,"롃":3290,"롄":3291,"롅":3292,"롆":3293,"롇":3294,"롈":3295,"롉":3296,"롊":3297,"롋":3298,"롌":3299,"롍":3300,"롎":3301,"롏":3302,"롐":3303,"롑":3304,"롒":3305,"롓":3306,"롔":3307,"롕":3308,"롖":3309,"롗":3310,"롘":3311,"롙":3312,"롚":3313,"롛":3314,"로":3315,"록":3316,"롞":3317,"롟":3318,"론":3319,"롡":3320,"롢":3321,"롣":3322,"롤":3323,"롥":3324,"롦":3325,"롧":3326,"롨":3327,"롩":3328,"롪":3329,"롫":3330,"롬":3331,"롭":3332,"롮":3333,"롯":3334,"롰":3335,"롱":3336,"롲":3337,"롳":3338,"롴":3339,"롵":3340,"롶":3341,"롷":3342,"롸":3343,"롹":3344,"롺":3345,"롻":3346,"롼":3347,"롽":3348,"롾":3349,"롿":3350,"뢀":3351,"뢁":3352,"뢂":3353,"뢃":3354,"뢄":3355,"뢅":3356,"뢆":3357,"뢇":3358,"뢈":3359,"뢉":3360,"뢊":3361,"뢋":3362,"뢌":3363,"뢍":3364,"뢎":3365,"뢏":3366,"뢐":3367,"뢑":3368,"뢒":3369,"뢓":3370,"뢔":3371,"뢕":3372,"뢖":3373,"뢗":3374,"뢘":3375,"뢙":3376,"뢚":3377,"뢛":3378,"뢜":3379,"뢝":3380,"뢞":3381,"뢟":3382,"뢠":3383,"뢡":3384,"뢢":3385,"뢣":3386,"뢤":3387,"뢥":3388,"뢦":3389,"뢧":3390,"뢨":3391,"뢩":3392,"뢪":3393,"뢫":3394,"뢬":3395,"뢭":3396,"뢮":3397,"뢯":3398,"뢰":3399,"뢱":3400,"뢲":3401,"뢳":3402,"뢴":3403,"뢵":3404,"뢶":3405,"뢷":3406,"뢸":3407,"뢹":3408,"뢺":3409,"뢻":3410,"뢼":3411,"뢽":3412,"뢾":3413,"뢿":3414,"룀":3415,"룁":3416,"룂":3417,"룃":3418,"룄":3419,"룅":3420,"룆":3421,"룇":3422,"룈":3423,"룉":3424,"룊":3425,"룋":3426,"료":3427,"룍":3428,"룎":3429,"룏":3430,"룐":3431,"룑":3432,"룒":3433,"룓":3434,"룔":3435,"룕":3436,"룖":3437,"룗":3438,"룘":3439,"룙":3440,"룚":3441,"룛":3442,"룜":3443,"룝":3444,"룞":3445,"룟":3446,"룠":3447,"룡":3448,"룢":3449,"룣":3450,"룤":3451,"룥":3452,"룦":3453,"룧":3454,"루":3455,"룩":3456,"룪":3457,"룫":3458,"룬":3459,"룭":3460,"룮":3461,"룯":3462,"룰":3463,"룱":3464,"룲":3465,"룳":3466,"룴":3467,"룵":3468,"룶":3469,"룷":3470,"룸":3471,"룹":3472,"룺":3473,"룻":3474,"룼":3475,"룽":3476,"룾":3477,"룿":3478,"뤀":3479,"뤁":3480,"뤂":3481,"뤃":3482,"뤄":3483,"뤅":3484,"뤆":3485,"뤇":3486,"뤈":3487,"뤉":3488,"뤊":3489,"뤋":3490,"뤌":3491,"뤍":3492,"뤎":3493,"뤏":3494,"뤐":3495,"뤑":3496,"뤒":3497,"뤓":3498,"뤔":3499,"뤕":3500,"뤖":3501,"뤗":3502,"뤘":3503,"뤙":3504,"뤚":3505,"뤛":3506,"뤜":3507,"뤝":3508,"뤞":3509,"뤟":3510,"뤠":3511,"뤡":3512,"뤢":3513,"뤣":3514,"뤤":3515,"뤥":3516,"뤦":3517,"뤧":3518,"뤨":3519,"뤩":3520,"뤪":3521,"뤫":3522,"뤬":3523,"뤭":3524,"뤮":3525,"뤯":3526,"뤰":3527,"뤱":3528,"뤲":3529,"뤳":3530,"뤴":3531,"뤵":3532,"뤶":3533,"뤷":3534,"뤸":3535,"뤹":3536,"뤺":3537,"뤻":3538,"뤼":3539,"뤽":3540,"뤾":3541,"뤿":3542,"륀":3543,"륁":3544,"륂":3545,"륃":3546,"륄":3547,"륅":3548,"륆":3549,"륇":3550,"륈":3551,"륉":3552,"륊":3553,"륋":3554,"륌":3555,"륍":3556,"륎":3557,"륏":3558,"륐":3559,"륑":3560,"륒":3561,"륓":3562,"륔":3563,"륕":3564,"륖":3565,"륗":3566,"류":3567,"륙":3568,"륚":3569,"륛":3570,"륜":3571,"륝":3572,"륞":3573,"륟":3574,"률":3575,"륡":3576,"륢":3577,"륣":3578,"륤":3579,"륥":3580,"륦":3581,"륧":3582,"륨":3583,"륩":3584,"륪":3585,"륫":3586,"륬":3587,"륭":3588,"륮":3589,"륯":3590,"륰":3591,"륱":3592,"륲":3593,"륳":3594,"르":3595,"륵":3596,"륶":3597,"륷":3598,"른":3599,"륹":3600,"륺":3601,"륻":3602,"를":3603,"륽":3604,"륾":3605,"륿":3606,"릀":3607,"릁":3608,"릂":3609,"릃":3610,"름":3611,"릅":3612,"릆":3613,"릇":3614,"릈":3615,"릉":3616,"릊":3617,"릋":3618,"릌":3619,"릍":3620,"릎":3621,"릏":3622,"릐":3623,"릑":3624,"릒":3625,"릓":3626,"릔":3627,"릕":3628,"릖":3629,"릗":3630,"릘":3631,"릙":3632,"릚":3633,"릛":3634,"릜":3635,"릝":3636,"릞":3637,"릟":3638,"릠":3639,"릡":3640,"릢":3641,"릣":3642,"릤":3643,"릥":3644,"릦":3645,"릧":3646,"릨":3647,"릩":3648,"릪":3649,"릫":3650,"리":3651,"릭":3652,"릮":3653,"릯":3654,"린":3655,"릱":3656,"릲":3657,"릳":3658,"릴":3659,"릵":3660,"릶":3661,"릷":3662,"릸":3663,"릹":3664,"릺":3665,"릻":3666,"림":3667,"립":3668,"릾":3669,"릿":3670,"맀":3671,"링":3672,"맂":3673,"맃":3674,"맄":3675,"맅":3676,"맆":3677,"맇":3678,"마":3679,"막":3680,"맊":3681,"맋":3682,"만":3683,"맍":3684,"많":3685,"맏":3686,"말":3687,"맑":3688,"맒":3689,"맓":3690,"맔":3691,"맕":3692,"맖":3693,"맗":3694,"맘":3695,"맙":3696,"맚":3697,"맛":3698,"맜":3699,"망":3700,"맞":3701,"맟":3702,"맠":3703,"맡":3704,"맢":3705,"맣":3706,"매":3707,"맥":3708,"맦":3709,"맧":3710,"맨":3711,"맩":3712,"맪":3713,"맫":3714,"맬":3715,"맭":3716,"맮":3717,"맯":3718,"맰":3719,"맱":3720,"맲":3721,"맳":3722,"맴":3723,"맵":3724,"맶":3725,"맷":3726,"맸":3727,"맹":3728,"맺":3729,"맻":3730,"맼":3731,"맽":3732,"맾":3733,"맿":3734,"먀":3735,"먁":3736,"먂":3737,"먃":3738,"먄":3739,"먅":3740,"먆":3741,"먇":3742,"먈":3743,"먉":3744,"먊":3745,"먋":3746,"먌":3747,"먍":3748,"먎":3749,"먏":3750,"먐":3751,"먑":3752,"먒":3753,"먓":3754,"먔":3755,"먕":3756,"먖":3757,"먗":3758,"먘":3759,"먙":3760,"먚":3761,"먛":3762,"먜":3763,"먝":3764,"먞":3765,"먟":3766,"먠":3767,"먡":3768,"먢":3769,"먣":3770,"먤":3771,"먥":3772,"먦":3773,"먧":3774,"먨":3775,"먩":3776,"먪":3777,"먫":3778,"먬":3779,"먭":3780,"먮":3781,"먯":3782,"먰":3783,"먱":3784,"먲":3785,"먳":3786,"먴":3787,"먵":3788,"먶":3789,"먷":3790,"머":3791,"먹":3792,"먺":3793,"먻":3794,"먼":3795,"먽":3796,"먾":3797,"먿":3798,"멀":3799,"멁":3800,"멂":3801,"멃":3802,"멄":3803,"멅":3804,"멆":3805,"멇":3806,"멈":3807,"멉":3808,"멊":3809,"멋":3810,"멌":3811,"멍":3812,"멎":3813,"멏":3814,"멐":3815,"멑":3816,"멒":3817,"멓":3818,"메":3819,"멕":3820,"멖":3821,"멗":3822,"멘":3823,"멙":3824,"멚":3825,"멛":3826,"멜":3827,"멝":3828,"멞":3829,"멟":3830,"멠":3831,"멡":3832,"멢":3833,"멣":3834,"멤":3835,"멥":3836,"멦":3837,"멧":3838,"멨":3839,"멩":3840,"멪":3841,"멫":3842,"멬":3843,"멭":3844,"멮":3845,"멯":3846,"며":3847,"멱":3848,"멲":3849,"멳":3850,"면":3851,"멵":3852,"멶":3853,"멷":3854,"멸":3855,"멹":3856,"멺":3857,"멻":3858,"멼":3859,"멽":3860,"멾":3861,"멿":3862,"몀":3863,"몁":3864,"몂":3865,"몃":3866,"몄":3867,"명":3868,"몆":3869,"몇":3870,"몈":3871,"몉":3872,"몊":3873,"몋":3874,"몌":3875,"몍":3876,"몎":3877,"몏":3878,"몐":3879,"몑":3880,"몒":3881,"몓":3882,"몔":3883,"몕":3884,"몖":3885,"몗":3886,"몘":3887,"몙":3888,"몚":3889,"몛":3890,"몜":3891,"몝":3892,"몞":3893,"몟":3894,"몠":3895,"몡":3896,"몢":3897,"몣":3898,"몤":3899,"몥":3900,"몦":3901,"몧":3902,"모":3903,"목":3904,"몪":3905,"몫":3906,"몬":3907,"몭":3908,"몮":3909,"몯":3910,"몰":3911,"몱":3912,"몲":3913,"몳":3914,"몴":3915,"몵":3916,"몶":3917,"몷":3918,"몸":3919,"몹":3920,"몺":3921,"못":3922,"몼":3923,"몽":3924,"몾":3925,"몿":3926,"뫀":3927,"뫁":3928,"뫂":3929,"뫃":3930,"뫄":3931,"뫅":3932,"뫆":3933,"뫇":3934,"뫈":3935,"뫉":3936,"뫊":3937,"뫋":3938,"뫌":3939,"뫍":3940,"뫎":3941,"뫏":3942,"뫐":3943,"뫑":3944,"뫒":3945,"뫓":3946,"뫔":3947,"뫕":3948,"뫖":3949,"뫗":3950,"뫘":3951,"뫙":3952,"뫚":3953,"뫛":3954,"뫜":3955,"뫝":3956,"뫞":3957,"뫟":3958,"뫠":3959,"뫡":3960,"뫢":3961,"뫣":3962,"뫤":3963,"뫥":3964,"뫦":3965,"뫧":3966,"뫨":3967,"뫩":3968,"뫪":3969,"뫫":3970,"뫬":3971,"뫭":3972,"뫮":3973,"뫯":3974,"뫰":3975,"뫱":3976,"뫲":3977,"뫳":3978,"뫴":3979,"뫵":3980,"뫶":3981,"뫷":3982,"뫸":3983,"뫹":3984,"뫺":3985,"뫻":3986,"뫼":3987,"뫽":3988,"뫾":3989,"뫿":3990,"묀":3991,"묁":3992,"묂":3993,"묃":3994,"묄":3995,"묅":3996,"묆":3997,"묇":3998,"묈":3999,"묉":4000,"묊":4001,"묋":4002,"묌":4003,"묍":4004,"묎":4005,"묏":4006,"묐":4007,"묑":4008,"묒":4009,"묓":4010,"묔":4011,"묕":4012,"묖":4013,"묗":4014,"묘":4015,"묙":4016,"묚":4017,"묛":4018,"묜":4019,"묝":4020,"묞":4021,"묟":4022,"묠":4023,"묡":4024,"묢":4025,"묣":4026,"묤":4027,"묥":4028,"묦":4029,"묧":4030,"묨":4031,"묩":4032,"묪":4033,"묫":4034,"묬":4035,"묭":4036,"묮":4037,"묯":4038,"묰":4039,"묱":4040,"묲":4041,"묳":4042,"무":4043,"묵":4044,"묶":4045,"묷":4046,"문":4047,"묹":4048,"묺":4049,"묻":4050,"물":4051,"묽":4052,"묾":4053,"묿":4054,"뭀":4055,"뭁":4056,"뭂":4057,"뭃":4058,"뭄":4059,"뭅":4060,"뭆":4061,"뭇":4062,"뭈":4063,"뭉":4064,"뭊":4065,"뭋":4066,"뭌":4067,"뭍":4068,"뭎":4069,"뭏":4070,"뭐":4071,"뭑":4072,"뭒":4073,"뭓":4074,"뭔":4075,"뭕":4076,"뭖":4077,"뭗":4078,"뭘":4079,"뭙":4080,"뭚":4081,"뭛":4082,"뭜":4083,"뭝":4084,"뭞":4085,"뭟":4086,"뭠":4087,"뭡":4088,"뭢":4089,"뭣":4090,"뭤":4091,"뭥":4092,"뭦":4093,"뭧":4094,"뭨":4095,"뭩":4096,"뭪":4097,"뭫":4098,"뭬":4099,"뭭":4100,"뭮":4101,"뭯":4102,"뭰":4103,"뭱":4104,"뭲":4105,"뭳":4106,"뭴":4107,"뭵":4108,"뭶":4109,"뭷":4110,"뭸":4111,"뭹":4112,"뭺":4113,"뭻":4114,"뭼":4115,"뭽":4116,"뭾":4117,"뭿":4118,"뮀":4119,"뮁":4120,"뮂":4121,"뮃":4122,"뮄":4123,"뮅":4124,"뮆":4125,"뮇":4126,"뮈":4127,"뮉":4128,"뮊":4129,"뮋":4130,"뮌":4131,"뮍":4132,"뮎":4133,"뮏":4134,"뮐":4135,"뮑":4136,"뮒":4137,"뮓":4138,"뮔":4139,"뮕":4140,"뮖":4141,"뮗":4142,"뮘":4143,"뮙":4144,"뮚":4145,"뮛":4146,"뮜":4147,"뮝":4148,"뮞":4149,"뮟":4150,"뮠":4151,"뮡":4152,"뮢":4153,"뮣":4154,"뮤":4155,"뮥":4156,"뮦":4157,"뮧":4158,"뮨":4159,"뮩":4160,"뮪":4161,"뮫":4162,"뮬":4163,"뮭":4164,"뮮":4165,"뮯":4166,"뮰":4167,"뮱":4168,"뮲":4169,"뮳":4170,"뮴":4171,"뮵":4172,"뮶":4173,"뮷":4174,"뮸":4175,"뮹":4176,"뮺":4177,"뮻":4178,"뮼":4179,"뮽":4180,"뮾":4181,"뮿":4182,"므":4183,"믁":4184,"믂":4185,"믃":4186,"믄":4187,"믅":4188,"믆":4189,"믇":4190,"믈":4191,"믉":4192,"믊":4193,"믋":4194,"믌":4195,"믍":4196,"믎":4197,"믏":4198,"믐":4199,"믑":4200,"믒":4201,"믓":4202,"믔":4203,"믕":4204,"믖":4205,"믗":4206,"믘":4207,"믙":4208,"믚":4209,"믛":4210,"믜":4211,"믝":4212,"믞":4213,"믟":4214,"믠":4215,"믡":4216,"믢":4217,"믣":4218,"믤":4219,"믥":4220,"믦":4221,"믧":4222,"믨":4223,"믩":4224,"믪":4225,"믫":4226,"믬":4227,"믭":4228,"믮":4229,"믯":4230,"믰":4231,"믱":4232,"믲":4233,"믳":4234,"믴":4235,"믵":4236,"믶":4237,"믷":4238,"미":4239,"믹":4240,"믺":4241,"믻":4242,"민":4243,"믽":4244,"믾":4245,"믿":4246,"밀":4247,"밁":4248,"밂":4249,"밃":4250,"밄":4251,"밅":4252,"밆":4253,"밇":4254,"밈":4255,"밉":4256,"밊":4257,"밋":4258,"밌":4259,"밍":4260,"밎":4261,"및":4262,"밐":4263,"밑":4264,"밒":4265,"밓":4266,"바":4267,"박":4268,"밖":4269,"밗":4270,"반":4271,"밙":4272,"밚":4273,"받":4274,"발":4275,"밝":4276,"밞":4277,"밟":4278,"밠":4279,"밡":4280,"밢":4281,"밣":4282,"밤":4283,"밥":4284,"밦":4285,"밧":4286,"밨":4287,"방":4288,"밪":4289,"밫":4290,"밬":4291,"밭":4292,"밮":4293,"밯":4294,"배":4295,"백":4296,"밲":4297,"밳":4298,"밴":4299,"밵":4300,"밶":4301,"밷":4302,"밸":4303,"밹":4304,"밺":4305,"밻":4306,"밼":4307,"밽":4308,"밾":4309,"밿":4310,"뱀":4311,"뱁":4312,"뱂":4313,"뱃":4314,"뱄":4315,"뱅":4316,"뱆":4317,"뱇":4318,"뱈":4319,"뱉":4320,"뱊":4321,"뱋":4322,"뱌":4323,"뱍":4324,"뱎":4325,"뱏":4326,"뱐":4327,"뱑":4328,"뱒":4329,"뱓":4330,"뱔":4331,"뱕":4332,"뱖":4333,"뱗":4334,"뱘":4335,"뱙":4336,"뱚":4337,"뱛":4338,"뱜":4339,"뱝":4340,"뱞":4341,"뱟":4342,"뱠":4343,"뱡":4344,"뱢":4345,"뱣":4346,"뱤":4347,"뱥":4348,"뱦":4349,"뱧":4350,"뱨":4351,"뱩":4352,"뱪":4353,"뱫":4354,"뱬":4355,"뱭":4356,"뱮":4357,"뱯":4358,"뱰":4359,"뱱":4360,"뱲":4361,"뱳":4362,"뱴":4363,"뱵":4364,"뱶":4365,"뱷":4366,"뱸":4367,"뱹":4368,"뱺":4369,"뱻":4370,"뱼":4371,"뱽":4372,"뱾":4373,"뱿":4374,"벀":4375,"벁":4376,"벂":4377,"벃":4378,"버":4379,"벅":4380,"벆":4381,"벇":4382,"번":4383,"벉":4384,"벊":4385,"벋":4386,"벌":4387,"벍":4388,"벎":4389,"벏":4390,"벐":4391,"벑":4392,"벒":4393,"벓":4394,"범":4395,"법":4396,"벖":4397,"벗":4398,"벘":4399,"벙":4400,"벚":4401,"벛":4402,"벜":4403,"벝":4404,"벞":4405,"벟":4406,"베":4407,"벡":4408,"벢":4409,"벣":4410,"벤":4411,"벥":4412,"벦":4413,"벧":4414,"벨":4415,"벩":4416,"벪":4417,"벫":4418,"벬":4419,"벭":4420,"벮":4421,"벯":4422,"벰":4423,"벱":4424,"벲":4425,"벳":4426,"벴":4427,"벵":4428,"벶":4429,"벷":4430,"벸":4431,"벹":4432,"벺":4433,"벻":4434,"벼":4435,"벽":4436,"벾":4437,"벿":4438,"변":4439,"볁":4440,"볂":4441,"볃":4442,"별":4443,"볅":4444,"볆":4445,"볇":4446,"볈":4447,"볉":4448,"볊":4449,"볋":4450,"볌":4451,"볍":4452,"볎":4453,"볏":4454,"볐":4455,"병":4456,"볒":4457,"볓":4458,"볔":4459,"볕":4460,"볖":4461,"볗":4462,"볘":4463,"볙":4464,"볚":4465,"볛":4466,"볜":4467,"볝":4468,"볞":4469,"볟":4470,"볠":4471,"볡":4472,"볢":4473,"볣":4474,"볤":4475,"볥":4476,"볦":4477,"볧":4478,"볨":4479,"볩":4480,"볪":4481,"볫":4482,"볬":4483,"볭":4484,"볮":4485,"볯":4486,"볰":4487,"볱":4488,"볲":4489,"볳":4490,"보":4491,"복":4492,"볶":4493,"볷":4494,"본":4495,"볹":4496,"볺":4497,"볻":4498,"볼":4499,"볽":4500,"볾":4501,"볿":4502,"봀":4503,"봁":4504,"봂":4505,"봃":4506,"봄":4507,"봅":4508,"봆":4509,"봇":4510,"봈":4511,"봉":4512,"봊":4513,"봋":4514,"봌":4515,"봍":4516,"봎":4517,"봏":4518,"봐":4519,"봑":4520,"봒":4521,"봓":4522,"봔":4523,"봕":4524,"봖":4525,"봗":4526,"봘":4527,"봙":4528,"봚":4529,"봛":4530,"봜":4531,"봝":4532,"봞":4533,"봟":4534,"봠":4535,"봡":4536,"봢":4537,"봣":4538,"봤":4539,"봥":4540,"봦":4541,"봧":4542,"봨":4543,"봩":4544,"봪":4545,"봫":4546,"봬":4547,"봭":4548,"봮":4549,"봯":4550,"봰":4551,"봱":4552,"봲":4553,"봳":4554,"봴":4555,"봵":4556,"봶":4557,"봷":4558,"봸":4559,"봹":4560,"봺":4561,"봻":4562,"봼":4563,"봽":4564,"봾":4565,"봿":4566,"뵀":4567,"뵁":4568,"뵂":4569,"뵃":4570,"뵄":4571,"뵅":4572,"뵆":4573,"뵇":4574,"뵈":4575,"뵉":4576,"뵊":4577,"뵋":4578,"뵌":4579,"뵍":4580,"뵎":4581,"뵏":4582,"뵐":4583,"뵑":4584,"뵒":4585,"뵓":4586,"뵔":4587,"뵕":4588,"뵖":4589,"뵗":4590,"뵘":4591,"뵙":4592,"뵚":4593,"뵛":4594,"뵜":4595,"뵝":4596,"뵞":4597,"뵟":4598,"뵠":4599,"뵡":4600,"뵢":4601,"뵣":4602,"뵤":4603,"뵥":4604,"뵦":4605,"뵧":4606,"뵨":4607,"뵩":4608,"뵪":4609,"뵫":4610,"뵬":4611,"뵭":4612,"뵮":4613,"뵯":4614,"뵰":4615,"뵱":4616,"뵲":4617,"뵳":4618,"뵴":4619,"뵵":4620,"뵶":4621,"뵷":4622,"뵸":4623,"뵹":4624,"뵺":4625,"뵻":4626,"뵼":4627,"뵽":4628,"뵾":4629,"뵿":4630,"부":4631,"북":4632,"붂":4633,"붃":4634,"분":4635,"붅":4636,"붆":4637,"붇":4638,"불":4639,"붉":4640,"붊":4641,"붋":4642,"붌":4643,"붍":4644,"붎":4645,"붏":4646,"붐":4647,"붑":4648,"붒":4649,"붓":4650,"붔":4651,"붕":4652,"붖":4653,"붗":4654,"붘":4655,"붙":4656,"붚":4657,"붛":4658,"붜":4659,"붝":4660,"붞":4661,"붟":4662,"붠":4663,"붡":4664,"붢":4665,"붣":4666,"붤":4667,"붥":4668,"붦":4669,"붧":4670,"붨":4671,"붩":4672,"붪":4673,"붫":4674,"붬":4675,"붭":4676,"붮":4677,"붯":4678,"붰":4679,"붱":4680,"붲":4681,"붳":4682,"붴":4683,"붵":4684,"붶":4685,"붷":4686,"붸":4687,"붹":4688,"붺":4689,"붻":4690,"붼":4691,"붽":4692,"붾":4693,"붿":4694,"뷀":4695,"뷁":4696,"뷂":4697,"뷃":4698,"뷄":4699,"뷅":4700,"뷆":4701,"뷇":4702,"뷈":4703,"뷉":4704,"뷊":4705,"뷋":4706,"뷌":4707,"뷍":4708,"뷎":4709,"뷏":4710,"뷐":4711,"뷑":4712,"뷒":4713,"뷓":4714,"뷔":4715,"뷕":4716,"뷖":4717,"뷗":4718,"뷘":4719,"뷙":4720,"뷚":4721,"뷛":4722,"뷜":4723,"뷝":4724,"뷞":4725,"뷟":4726,"뷠":4727,"뷡":4728,"뷢":4729,"뷣":4730,"뷤":4731,"뷥":4732,"뷦":4733,"뷧":4734,"뷨":4735,"뷩":4736,"뷪":4737,"뷫":4738,"뷬":4739,"뷭":4740,"뷮":4741,"뷯":4742,"뷰":4743,"뷱":4744,"뷲":4745,"뷳":4746,"뷴":4747,"뷵":4748,"뷶":4749,"뷷":4750,"뷸":4751,"뷹":4752,"뷺":4753,"뷻":4754,"뷼":4755,"뷽":4756,"뷾":4757,"뷿":4758,"븀":4759,"븁":4760,"븂":4761,"븃":4762,"븄":4763,"븅":4764,"븆":4765,"븇":4766,"븈":4767,"븉":4768,"븊":4769,"븋":4770,"브":4771,"븍":4772,"븎":4773,"븏":4774,"븐":4775,"븑":4776,"븒":4777,"븓":4778,"블":4779,"븕":4780,"븖":4781,"븗":4782,"븘":4783,"븙":4784,"븚":4785,"븛":4786,"븜":4787,"븝":4788,"븞":4789,"븟":4790,"븠":4791,"븡":4792,"븢":4793,"븣":4794,"븤":4795,"븥":4796,"븦":4797,"븧":4798,"븨":4799,"븩":4800,"븪":4801,"븫":4802,"븬":4803,"븭":4804,"븮":4805,"븯":4806,"븰":4807,"븱":4808,"븲":4809,"븳":4810,"븴":4811,"븵":4812,"븶":4813,"븷":4814,"븸":4815,"븹":4816,"븺":4817,"븻":4818,"븼":4819,"븽":4820,"븾":4821,"븿":4822,"빀":4823,"빁":4824,"빂":4825,"빃":4826,"비":4827,"빅":4828,"빆":4829,"빇":4830,"빈":4831,"빉":4832,"빊":4833,"빋":4834,"빌":4835,"빍":4836,"빎":4837,"빏":4838,"빐":4839,"빑":4840,"빒":4841,"빓":4842,"빔":4843,"빕":4844,"빖":4845,"빗":4846,"빘":4847,"빙":4848,"빚":4849,"빛":4850,"빜":4851,"빝":4852,"빞":4853,"빟":4854,"빠":4855,"빡":4856,"빢":4857,"빣":4858,"빤":4859,"빥":4860,"빦":4861,"빧":4862,"빨":4863,"빩":4864,"빪":4865,"빫":4866,"빬":4867,"빭":4868,"빮":4869,"빯":4870,"빰":4871,"빱":4872,"빲":4873,"빳":4874,"빴":4875,"빵":4876,"빶":4877,"빷":4878,"빸":4879,"빹":4880,"빺":4881,"빻":4882,"빼":4883,"빽":4884,"빾":4885,"빿":4886,"뺀":4887,"뺁":4888,"뺂":4889,"뺃":4890,"뺄":4891,"뺅":4892,"뺆":4893,"뺇":4894,"뺈":4895,"뺉":4896,"뺊":4897,"뺋":4898,"뺌":4899,"뺍":4900,"뺎":4901,"뺏":4902,"뺐":4903,"뺑":4904,"뺒":4905,"뺓":4906,"뺔":4907,"뺕":4908,"뺖":4909,"뺗":4910,"뺘":4911,"뺙":4912,"뺚":4913,"뺛":4914,"뺜":4915,"뺝":4916,"뺞":4917,"뺟":4918,"뺠":4919,"뺡":4920,"뺢":4921,"뺣":4922,"뺤":4923,"뺥":4924,"뺦":4925,"뺧":4926,"뺨":4927,"뺩":4928,"뺪":4929,"뺫":4930,"뺬":4931,"뺭":4932,"뺮":4933,"뺯":4934,"뺰":4935,"뺱":4936,"뺲":4937,"뺳":4938,"뺴":4939,"뺵":4940,"뺶":4941,"뺷":4942,"뺸":4943,"뺹":4944,"뺺":4945,"뺻":4946,"뺼":4947,"뺽":4948,"뺾":4949,"뺿":4950,"뻀":4951,"뻁":4952,"뻂":4953,"뻃":4954,"뻄":4955,"뻅":4956,"뻆":4957,"뻇":4958,"뻈":4959,"뻉":4960,"뻊":4961,"뻋":4962,"뻌":4963,"뻍":4964,"뻎":4965,"뻏":4966,"뻐":4967,"뻑":4968,"뻒":4969,"뻓":4970,"뻔":4971,"뻕":4972,"뻖":4973,"뻗":4974,"뻘":4975,"뻙":4976,"뻚":4977,"뻛":4978,"뻜":4979,"뻝":4980,"뻞":4981,"뻟":4982,"뻠":4983,"뻡":4984,"뻢":4985,"뻣":4986,"뻤":4987,"뻥":4988,"뻦":4989,"뻧":4990,"뻨":4991,"뻩":4992,"뻪":4993,"뻫":4994,"뻬":4995,"뻭":4996,"뻮":4997,"뻯":4998,"뻰":4999,"뻱":5000,"뻲":5001,"뻳":5002,"뻴":5003,"뻵":5004,"뻶":5005,"뻷":5006,"뻸":5007,"뻹":5008,"뻺":5009,"뻻":5010,"뻼":5011,"뻽":5012,"뻾":5013,"뻿":5014,"뼀":5015,"뼁":5016,"뼂":5017,"뼃":5018,"뼄":5019,"뼅":5020,"뼆":5021,"뼇":5022,"뼈":5023,"뼉":5024,"뼊":5025,"뼋":5026,"뼌":5027,"뼍":5028,"뼎":5029,"뼏":5030,"뼐":5031,"뼑":5032,"뼒":5033,"뼓":5034,"뼔":5035,"뼕":5036,"뼖":5037,"뼗":5038,"뼘":5039,"뼙":5040,"뼚":5041,"뼛":5042,"뼜":5043,"뼝":5044,"뼞":5045,"뼟":5046,"뼠":5047,"뼡":5048,"뼢":5049,"뼣":5050,"뼤":5051,"뼥":5052,"뼦":5053,"뼧":5054,"뼨":5055,"뼩":5056,"뼪":5057,"뼫":5058,"뼬":5059,"뼭":5060,"뼮":5061,"뼯":5062,"뼰":5063,"뼱":5064,"뼲":5065,"뼳":5066,"뼴":5067,"뼵":5068,"뼶":5069,"뼷":5070,"뼸":5071,"뼹":5072,"뼺":5073,"뼻":5074,"뼼":5075,"뼽":5076,"뼾":5077,"뼿":5078,"뽀":5079,"뽁":5080,"뽂":5081,"뽃":5082,"뽄":5083,"뽅":5084,"뽆":5085,"뽇":5086,"뽈":5087,"뽉":5088,"뽊":5089,"뽋":5090,"뽌":5091,"뽍":5092,"뽎":5093,"뽏":5094,"뽐":5095,"뽑":5096,"뽒":5097,"뽓":5098,"뽔":5099,"뽕":5100,"뽖":5101,"뽗":5102,"뽘":5103,"뽙":5104,"뽚":5105,"뽛":5106,"뽜":5107,"뽝":5108,"뽞":5109,"뽟":5110,"뽠":5111,"뽡":5112,"뽢":5113,"뽣":5114,"뽤":5115,"뽥":5116,"뽦":5117,"뽧":5118,"뽨":5119,"뽩":5120,"뽪":5121,"뽫":5122,"뽬":5123,"뽭":5124,"뽮":5125,"뽯":5126,"뽰":5127,"뽱":5128,"뽲":5129,"뽳":5130,"뽴":5131,"뽵":5132,"뽶":5133,"뽷":5134,"뽸":5135,"뽹":5136,"뽺":5137,"뽻":5138,"뽼":5139,"뽽":5140,"뽾":5141,"뽿":5142,"뾀":5143,"뾁":5144,"뾂":5145,"뾃":5146,"뾄":5147,"뾅":5148,"뾆":5149,"뾇":5150,"뾈":5151,"뾉":5152,"뾊":5153,"뾋":5154,"뾌":5155,"뾍":5156,"뾎":5157,"뾏":5158,"뾐":5159,"뾑":5160,"뾒":5161,"뾓":5162,"뾔":5163,"뾕":5164,"뾖":5165,"뾗":5166,"뾘":5167,"뾙":5168,"뾚":5169,"뾛":5170,"뾜":5171,"뾝":5172,"뾞":5173,"뾟":5174,"뾠":5175,"뾡":5176,"뾢":5177,"뾣":5178,"뾤":5179,"뾥":5180,"뾦":5181,"뾧":5182,"뾨":5183,"뾩":5184,"뾪":5185,"뾫":5186,"뾬":5187,"뾭":5188,"뾮":5189,"뾯":5190,"뾰":5191,"뾱":5192,"뾲":5193,"뾳":5194,"뾴":5195,"뾵":5196,"뾶":5197,"뾷":5198,"뾸":5199,"뾹":5200,"뾺":5201,"뾻":5202,"뾼":5203,"뾽":5204,"뾾":5205,"뾿":5206,"뿀":5207,"뿁":5208,"뿂":5209,"뿃":5210,"뿄":5211,"뿅":5212,"뿆":5213,"뿇":5214,"뿈":5215,"뿉":5216,"뿊":5217,"뿋":5218,"뿌":5219,"뿍":5220,"뿎":5221,"뿏":5222,"뿐":5223,"뿑":5224,"뿒":5225,"뿓":5226,"뿔":5227,"뿕":5228,"뿖":5229,"뿗":5230,"뿘":5231,"뿙":5232,"뿚":5233,"뿛":5234,"뿜":5235,"뿝":5236,"뿞":5237,"뿟":5238,"뿠":5239,"뿡":5240,"뿢":5241,"뿣":5242,"뿤":5243,"뿥":5244,"뿦":5245,"뿧":5246,"뿨":5247,"뿩":5248,"뿪":5249,"뿫":5250,"뿬":5251,"뿭":5252,"뿮":5253,"뿯":5254,"뿰":5255,"뿱":5256,"뿲":5257,"뿳":5258,"뿴":5259,"뿵":5260,"뿶":5261,"뿷":5262,"뿸":5263,"뿹":5264,"뿺":5265,"뿻":5266,"뿼":5267,"뿽":5268,"뿾":5269,"뿿":5270,"쀀":5271,"쀁":5272,"쀂":5273,"쀃":5274,"쀄":5275,"쀅":5276,"쀆":5277,"쀇":5278,"쀈":5279,"쀉":5280,"쀊":5281,"쀋":5282,"쀌":5283,"쀍":5284,"쀎":5285,"쀏":5286,"쀐":5287,"쀑":5288,"쀒":5289,"쀓":5290,"쀔":5291,"쀕":5292,"쀖":5293,"쀗":5294,"쀘":5295,"쀙":5296,"쀚":5297,"쀛":5298,"쀜":5299,"쀝":5300,"쀞":5301,"쀟":5302,"쀠":5303,"쀡":5304,"쀢":5305,"쀣":5306,"쀤":5307,"쀥":5308,"쀦":5309,"쀧":5310,"쀨":5311,"쀩":5312,"쀪":5313,"쀫":5314,"쀬":5315,"쀭":5316,"쀮":5317,"쀯":5318,"쀰":5319,"쀱":5320,"쀲":5321,"쀳":5322,"쀴":5323,"쀵":5324,"쀶":5325,"쀷":5326,"쀸":5327,"쀹":5328,"쀺":5329,"쀻":5330,"쀼":5331,"쀽":5332,"쀾":5333,"쀿":5334,"쁀":5335,"쁁":5336,"쁂":5337,"쁃":5338,"쁄":5339,"쁅":5340,"쁆":5341,"쁇":5342,"쁈":5343,"쁉":5344,"쁊":5345,"쁋":5346,"쁌":5347,"쁍":5348,"쁎":5349,"쁏":5350,"쁐":5351,"쁑":5352,"쁒":5353,"쁓":5354,"쁔":5355,"쁕":5356,"쁖":5357,"쁗":5358,"쁘":5359,"쁙":5360,"쁚":5361,"쁛":5362,"쁜":5363,"쁝":5364,"쁞":5365,"쁟":5366,"쁠":5367,"쁡":5368,"쁢":5369,"쁣":5370,"쁤":5371,"쁥":5372,"쁦":5373,"쁧":5374,"쁨":5375,"쁩":5376,"쁪":5377,"쁫":5378,"쁬":5379,"쁭":5380,"쁮":5381,"쁯":5382,"쁰":5383,"쁱":5384,"쁲":5385,"쁳":5386,"쁴":5387,"쁵":5388,"쁶":5389,"쁷":5390,"쁸":5391,"쁹":5392,"쁺":5393,"쁻":5394,"쁼":5395,"쁽":5396,"쁾":5397,"쁿":5398,"삀":5399,"삁":5400,"삂":5401,"삃":5402,"삄":5403,"삅":5404,"삆":5405,"삇":5406,"삈":5407,"삉":5408,"삊":5409,"삋":5410,"삌":5411,"삍":5412,"삎":5413,"삏":5414,"삐":5415,"삑":5416,"삒":5417,"삓":5418,"삔":5419,"삕":5420,"삖":5421,"삗":5422,"삘":5423,"삙":5424,"삚":5425,"삛":5426,"삜":5427,"삝":5428,"삞":5429,"삟":5430,"삠":5431,"삡":5432,"삢":5433,"삣":5434,"삤":5435,"삥":5436,"삦":5437,"삧":5438,"삨":5439,"삩":5440,"삪":5441,"삫":5442,"사":5443,"삭":5444,"삮":5445,"삯":5446,"산":5447,"삱":5448,"삲":5449,"삳":5450,"살":5451,"삵":5452,"삶":5453,"삷":5454,"삸":5455,"삹":5456,"삺":5457,"삻":5458,"삼":5459,"삽":5460,"삾":5461,"삿":5462,"샀":5463,"상":5464,"샂":5465,"샃":5466,"샄":5467,"샅":5468,"샆":5469,"샇":5470,"새":5471,"색":5472,"샊":5473,"샋":5474,"샌":5475,"샍":5476,"샎":5477,"샏":5478,"샐":5479,"샑":5480,"샒":5481,"샓":5482,"샔":5483,"샕":5484,"샖":5485,"샗":5486,"샘":5487,"샙":5488,"샚":5489,"샛":5490,"샜":5491,"생":5492,"샞":5493,"샟":5494,"샠":5495,"샡":5496,"샢":5497,"샣":5498,"샤":5499,"샥":5500,"샦":5501,"샧":5502,"샨":5503,"샩":5504,"샪":5505,"샫":5506,"샬":5507,"샭":5508,"샮":5509,"샯":5510,"샰":5511,"샱":5512,"샲":5513,"샳":5514,"샴":5515,"샵":5516,"샶":5517,"샷":5518,"샸":5519,"샹":5520,"샺":5521,"샻":5522,"샼":5523,"샽":5524,"샾":5525,"샿":5526,"섀":5527,"섁":5528,"섂":5529,"섃":5530,"섄":5531,"섅":5532,"섆":5533,"섇":5534,"섈":5535,"섉":5536,"섊":5537,"섋":5538,"섌":5539,"섍":5540,"섎":5541,"섏":5542,"섐":5543,"섑":5544,"섒":5545,"섓":5546,"섔":5547,"섕":5548,"섖":5549,"섗":5550,"섘":5551,"섙":5552,"섚":5553,"섛":5554,"서":5555,"석":5556,"섞":5557,"섟":5558,"선":5559,"섡":5560,"섢":5561,"섣":5562,"설":5563,"섥":5564,"섦":5565,"섧":5566,"섨":5567,"섩":5568,"섪":5569,"섫":5570,"섬":5571,"섭":5572,"섮":5573,"섯":5574,"섰":5575,"성":5576,"섲":5577,"섳":5578,"섴":5579,"섵":5580,"섶":5581,"섷":5582,"세":5583,"섹":5584,"섺":5585,"섻":5586,"센":5587,"섽":5588,"섾":5589,"섿":5590,"셀":5591,"셁":5592,"셂":5593,"셃":5594,"셄":5595,"셅":5596,"셆":5597,"셇":5598,"셈":5599,"셉":5600,"셊":5601,"셋":5602,"셌":5603,"셍":5604,"셎":5605,"셏":5606,"셐":5607,"셑":5608,"셒":5609,"셓":5610,"셔":5611,"셕":5612,"셖":5613,"셗":5614,"션":5615,"셙":5616,"셚":5617,"셛":5618,"셜":5619,"셝":5620,"셞":5621,"셟":5622,"셠":5623,"셡":5624,"셢":5625,"셣":5626,"셤":5627,"셥":5628,"셦":5629,"셧":5630,"셨":5631,"셩":5632,"셪":5633,"셫":5634,"셬":5635,"셭":5636,"셮":5637,"셯":5638,"셰":5639,"셱":5640,"셲":5641,"셳":5642,"셴":5643,"셵":5644,"셶":5645,"셷":5646,"셸":5647,"셹":5648,"셺":5649,"셻":5650,"셼":5651,"셽":5652,"셾":5653,"셿":5654,"솀":5655,"솁":5656,"솂":5657,"솃":5658,"솄":5659,"솅":5660,"솆":5661,"솇":5662,"솈":5663,"솉":5664,"솊":5665,"솋":5666,"소":5667,"속":5668,"솎":5669,"솏":5670,"손":5671,"솑":5672,"솒":5673,"솓":5674,"솔":5675,"솕":5676,"솖":5677,"솗":5678,"솘":5679,"솙":5680,"솚":5681,"솛":5682,"솜":5683,"솝":5684,"솞":5685,"솟":5686,"솠":5687,"송":5688,"솢":5689,"솣":5690,"솤":5691,"솥":5692,"솦":5693,"솧":5694,"솨":5695,"솩":5696,"솪":5697,"솫":5698,"솬":5699,"솭":5700,"솮":5701,"솯":5702,"솰":5703,"솱":5704,"솲":5705,"솳":5706,"솴":5707,"솵":5708,"솶":5709,"솷":5710,"솸":5711,"솹":5712,"솺":5713,"솻":5714,"솼":5715,"솽":5716,"솾":5717,"솿":5718,"쇀":5719,"쇁":5720,"쇂":5721,"쇃":5722,"쇄":5723,"쇅":5724,"쇆":5725,"쇇":5726,"쇈":5727,"쇉":5728,"쇊":5729,"쇋":5730,"쇌":5731,"쇍":5732,"쇎":5733,"쇏":5734,"쇐":5735,"쇑":5736,"쇒":5737,"쇓":5738,"쇔":5739,"쇕":5740,"쇖":5741,"쇗":5742,"쇘":5743,"쇙":5744,"쇚":5745,"쇛":5746,"쇜":5747,"쇝":5748,"쇞":5749,"쇟":5750,"쇠":5751,"쇡":5752,"쇢":5753,"쇣":5754,"쇤":5755,"쇥":5756,"쇦":5757,"쇧":5758,"쇨":5759,"쇩":5760,"쇪":5761,"쇫":5762,"쇬":5763,"쇭":5764,"쇮":5765,"쇯":5766,"쇰":5767,"쇱":5768,"쇲":5769,"쇳":5770,"쇴":5771,"쇵":5772,"쇶":5773,"쇷":5774,"쇸":5775,"쇹":5776,"쇺":5777,"쇻":5778,"쇼":5779,"쇽":5780,"쇾":5781,"쇿":5782,"숀":5783,"숁":5784,"숂":5785,"숃":5786,"숄":5787,"숅":5788,"숆":5789,"숇":5790,"숈":5791,"숉":5792,"숊":5793,"숋":5794,"숌":5795,"숍":5796,"숎":5797,"숏":5798,"숐":5799,"숑":5800,"숒":5801,"숓":5802,"숔":5803,"숕":5804,"숖":5805,"숗":5806,"수":5807,"숙":5808,"숚":5809,"숛":5810,"순":5811,"숝":5812,"숞":5813,"숟":5814,"술":5815,"숡":5816,"숢":5817,"숣":5818,"숤":5819,"숥":5820,"숦":5821,"숧":5822,"숨":5823,"숩":5824,"숪":5825,"숫":5826,"숬":5827,"숭":5828,"숮":5829,"숯":5830,"숰":5831,"숱":5832,"숲":5833,"숳":5834,"숴":5835,"숵":5836,"숶":5837,"숷":5838,"숸":5839,"숹":5840,"숺":5841,"숻":5842,"숼":5843,"숽":5844,"숾":5845,"숿":5846,"쉀":5847,"쉁":5848,"쉂":5849,"쉃":5850,"쉄":5851,"쉅":5852,"쉆":5853,"쉇":5854,"쉈":5855,"쉉":5856,"쉊":5857,"쉋":5858,"쉌":5859,"쉍":5860,"쉎":5861,"쉏":5862,"쉐":5863,"쉑":5864,"쉒":5865,"쉓":5866,"쉔":5867,"쉕":5868,"쉖":5869,"쉗":5870,"쉘":5871,"쉙":5872,"쉚":5873,"쉛":5874,"쉜":5875,"쉝":5876,"쉞":5877,"쉟":5878,"쉠":5879,"쉡":5880,"쉢":5881,"쉣":5882,"쉤":5883,"쉥":5884,"쉦":5885,"쉧":5886,"쉨":5887,"쉩":5888,"쉪":5889,"쉫":5890,"쉬":5891,"쉭":5892,"쉮":5893,"쉯":5894,"쉰":5895,"쉱":5896,"쉲":5897,"쉳":5898,"쉴":5899,"쉵":5900,"쉶":5901,"쉷":5902,"쉸":5903,"쉹":5904,"쉺":5905,"쉻":5906,"쉼":5907,"쉽":5908,"쉾":5909,"쉿":5910,"슀":5911,"슁":5912,"슂":5913,"슃":5914,"슄":5915,"슅":5916,"슆":5917,"슇":5918,"슈":5919,"슉":5920,"슊":5921,"슋":5922,"슌":5923,"슍":5924,"슎":5925,"슏":5926,"슐":5927,"슑":5928,"슒":5929,"슓":5930,"슔":5931,"슕":5932,"슖":5933,"슗":5934,"슘":5935,"슙":5936,"슚":5937,"슛":5938,"슜":5939,"슝":5940,"슞":5941,"슟":5942,"슠":5943,"슡":5944,"슢":5945,"슣":5946,"스":5947,"슥":5948,"슦":5949,"슧":5950,"슨":5951,"슩":5952,"슪":5953,"슫":5954,"슬":5955,"슭":5956,"슮":5957,"슯":5958,"슰":5959,"슱":5960,"슲":5961,"슳":5962,"슴":5963,"습":5964,"슶":5965,"슷":5966,"슸":5967,"승":5968,"슺":5969,"슻":5970,"슼":5971,"슽":5972,"슾":5973,"슿":5974,"싀":5975,"싁":5976,"싂":5977,"싃":5978,"싄":5979,"싅":5980,"싆":5981,"싇":5982,"싈":5983,"싉":5984,"싊":5985,"싋":5986,"싌":5987,"싍":5988,"싎":5989,"싏":5990,"싐":5991,"싑":5992,"싒":5993,"싓":5994,"싔":5995,"싕":5996,"싖":5997,"싗":5998,"싘":5999,"싙":6000,"싚":6001,"싛":6002,"시":6003,"식":6004,"싞":6005,"싟":6006,"신":6007,"싡":6008,"싢":6009,"싣":6010,"실":6011,"싥":6012,"싦":6013,"싧":6014,"싨":6015,"싩":6016,"싪":6017,"싫":6018,"심":6019,"십":6020,"싮":6021,"싯":6022,"싰":6023,"싱":6024,"싲":6025,"싳":6026,"싴":6027,"싵":6028,"싶":6029,"싷":6030,"싸":6031,"싹":6032,"싺":6033,"싻":6034,"싼":6035,"싽":6036,"싾":6037,"싿":6038,"쌀":6039,"쌁":6040,"쌂":6041,"쌃":6042,"쌄":6043,"쌅":6044,"쌆":6045,"쌇":6046,"쌈":6047,"쌉":6048,"쌊":6049,"쌋":6050,"쌌":6051,"쌍":6052,"쌎":6053,"쌏":6054,"쌐":6055,"쌑":6056,"쌒":6057,"쌓":6058,"쌔":6059,"쌕":6060,"쌖":6061,"쌗":6062,"쌘":6063,"쌙":6064,"쌚":6065,"쌛":6066,"쌜":6067,"쌝":6068,"쌞":6069,"쌟":6070,"쌠":6071,"쌡":6072,"쌢":6073,"쌣":6074,"쌤":6075,"쌥":6076,"쌦":6077,"쌧":6078,"쌨":6079,"쌩":6080,"쌪":6081,"쌫":6082,"쌬":6083,"쌭":6084,"쌮":6085,"쌯":6086,"쌰":6087,"쌱":6088,"쌲":6089,"쌳":6090,"쌴":6091,"쌵":6092,"쌶":6093,"쌷":6094,"쌸":6095,"쌹":6096,"쌺":6097,"쌻":6098,"쌼":6099,"쌽":6100,"쌾":6101,"쌿":6102,"썀":6103,"썁":6104,"썂":6105,"썃":6106,"썄":6107,"썅":6108,"썆":6109,"썇":6110,"썈":6111,"썉":6112,"썊":6113,"썋":6114,"썌":6115,"썍":6116,"썎":6117,"썏":6118,"썐":6119,"썑":6120,"썒":6121,"썓":6122,"썔":6123,"썕":6124,"썖":6125,"썗":6126,"썘":6127,"썙":6128,"썚":6129,"썛":6130,"썜":6131,"썝":6132,"썞":6133,"썟":6134,"썠":6135,"썡":6136,"썢":6137,"썣":6138,"썤":6139,"썥":6140,"썦":6141,"썧":6142,"써":6143,"썩":6144,"썪":6145,"썫":6146,"썬":6147,"썭":6148,"썮":6149,"썯":6150,"썰":6151,"썱":6152,"썲":6153,"썳":6154,"썴":6155,"썵":6156,"썶":6157,"썷":6158,"썸":6159,"썹":6160,"썺":6161,"썻":6162,"썼":6163,"썽":6164,"썾":6165,"썿":6166,"쎀":6167,"쎁":6168,"쎂":6169,"쎃":6170,"쎄":6171,"쎅":6172,"쎆":6173,"쎇":6174,"쎈":6175,"쎉":6176,"쎊":6177,"쎋":6178,"쎌":6179,"쎍":6180,"쎎":6181,"쎏":6182,"쎐":6183,"쎑":6184,"쎒":6185,"쎓":6186,"쎔":6187,"쎕":6188,"쎖":6189,"쎗":6190,"쎘":6191,"쎙":6192,"쎚":6193,"쎛":6194,"쎜":6195,"쎝":6196,"쎞":6197,"쎟":6198,"쎠":6199,"쎡":6200,"쎢":6201,"쎣":6202,"쎤":6203,"쎥":6204,"쎦":6205,"쎧":6206,"쎨":6207,"쎩":6208,"쎪":6209,"쎫":6210,"쎬":6211,"쎭":6212,"쎮":6213,"쎯":6214,"쎰":6215,"쎱":6216,"쎲":6217,"쎳":6218,"쎴":6219,"쎵":6220,"쎶":6221,"쎷":6222,"쎸":6223,"쎹":6224,"쎺":6225,"쎻":6226,"쎼":6227,"쎽":6228,"쎾":6229,"쎿":6230,"쏀":6231,"쏁":6232,"쏂":6233,"쏃":6234,"쏄":6235,"쏅":6236,"쏆":6237,"쏇":6238,"쏈":6239,"쏉":6240,"쏊":6241,"쏋":6242,"쏌":6243,"쏍":6244,"쏎":6245,"쏏":6246,"쏐":6247,"쏑":6248,"쏒":6249,"쏓":6250,"쏔":6251,"쏕":6252,"쏖":6253,"쏗":6254,"쏘":6255,"쏙":6256,"쏚":6257,"쏛":6258,"쏜":6259,"쏝":6260,"쏞":6261,"쏟":6262,"쏠":6263,"쏡":6264,"쏢":6265,"쏣":6266,"쏤":6267,"쏥":6268,"쏦":6269,"쏧":6270,"쏨":6271,"쏩":6272,"쏪":6273,"쏫":6274,"쏬":6275,"쏭":6276,"쏮":6277,"쏯":6278,"쏰":6279,"쏱":6280,"쏲":6281,"쏳":6282,"쏴":6283,"쏵":6284,"쏶":6285,"쏷":6286,"쏸":6287,"쏹":6288,"쏺":6289,"쏻":6290,"쏼":6291,"쏽":6292,"쏾":6293,"쏿":6294,"쐀":6295,"쐁":6296,"쐂":6297,"쐃":6298,"쐄":6299,"쐅":6300,"쐆":6301,"쐇":6302,"쐈":6303,"쐉":6304,"쐊":6305,"쐋":6306,"쐌":6307,"쐍":6308,"쐎":6309,"쐏":6310,"쐐":6311,"쐑":6312,"쐒":6313,"쐓":6314,"쐔":6315,"쐕":6316,"쐖":6317,"쐗":6318,"쐘":6319,"쐙":6320,"쐚":6321,"쐛":6322,"쐜":6323,"쐝":6324,"쐞":6325,"쐟":6326,"쐠":6327,"쐡":6328,"쐢":6329,"쐣":6330,"쐤":6331,"쐥":6332,"쐦":6333,"쐧":6334,"쐨":6335,"쐩":6336,"쐪":6337,"쐫":6338,"쐬":6339,"쐭":6340,"쐮":6341,"쐯":6342,"쐰":6343,"쐱":6344,"쐲":6345,"쐳":6346,"쐴":6347,"쐵":6348,"쐶":6349,"쐷":6350,"쐸":6351,"쐹":6352,"쐺":6353,"쐻":6354,"쐼":6355,"쐽":6356,"쐾":6357,"쐿":6358,"쑀":6359,"쑁":6360,"쑂":6361,"쑃":6362,"쑄":6363,"쑅":6364,"쑆":6365,"쑇":6366,"쑈":6367,"쑉":6368,"쑊":6369,"쑋":6370,"쑌":6371,"쑍":6372,"쑎":6373,"쑏":6374,"쑐":6375,"쑑":6376,"쑒":6377,"쑓":6378,"쑔":6379,"쑕":6380,"쑖":6381,"쑗":6382,"쑘":6383,"쑙":6384,"쑚":6385,"쑛":6386,"쑜":6387,"쑝":6388,"쑞":6389,"쑟":6390,"쑠":6391,"쑡":6392,"쑢":6393,"쑣":6394,"쑤":6395,"쑥":6396,"쑦":6397,"쑧":6398,"쑨":6399,"쑩":6400,"쑪":6401,"쑫":6402,"쑬":6403,"쑭":6404,"쑮":6405,"쑯":6406,"쑰":6407,"쑱":6408,"쑲":6409,"쑳":6410,"쑴":6411,"쑵":6412,"쑶":6413,"쑷":6414,"쑸":6415,"쑹":6416,"쑺":6417,"쑻":6418,"쑼":6419,"쑽":6420,"쑾":6421,"쑿":6422,"쒀":6423,"쒁":6424,"쒂":6425,"쒃":6426,"쒄":6427,"쒅":6428,"쒆":6429,"쒇":6430,"쒈":6431,"쒉":6432,"쒊":6433,"쒋":6434,"쒌":6435,"쒍":6436,"쒎":6437,"쒏":6438,"쒐":6439,"쒑":6440,"쒒":6441,"쒓":6442,"쒔":6443,"쒕":6444,"쒖":6445,"쒗":6446,"쒘":6447,"쒙":6448,"쒚":6449,"쒛":6450,"쒜":6451,"쒝":6452,"쒞":6453,"쒟":6454,"쒠":6455,"쒡":6456,"쒢":6457,"쒣":6458,"쒤":6459,"쒥":6460,"쒦":6461,"쒧":6462,"쒨":6463,"쒩":6464,"쒪":6465,"쒫":6466,"쒬":6467,"쒭":6468,"쒮":6469,"쒯":6470,"쒰":6471,"쒱":6472,"쒲":6473,"쒳":6474,"쒴":6475,"쒵":6476,"쒶":6477,"쒷":6478,"쒸":6479,"쒹":6480,"쒺":6481,"쒻":6482,"쒼":6483,"쒽":6484,"쒾":6485,"쒿":6486,"쓀":6487,"쓁":6488,"쓂":6489,"쓃":6490,"쓄":6491,"쓅":6492,"쓆":6493,"쓇":6494,"쓈":6495,"쓉":6496,"쓊":6497,"쓋":6498,"쓌":6499,"쓍":6500,"쓎":6501,"쓏":6502,"쓐":6503,"쓑":6504,"쓒":6505,"쓓":6506,"쓔":6507,"쓕":6508,"쓖":6509,"쓗":6510,"쓘":6511,"쓙":6512,"쓚":6513,"쓛":6514,"쓜":6515,"쓝":6516,"쓞":6517,"쓟":6518,"쓠":6519,"쓡":6520,"쓢":6521,"쓣":6522,"쓤":6523,"쓥":6524,"쓦":6525,"쓧":6526,"쓨":6527,"쓩":6528,"쓪":6529,"쓫":6530,"쓬":6531,"쓭":6532,"쓮":6533,"쓯":6534,"쓰":6535,"쓱":6536,"쓲":6537,"쓳":6538,"쓴":6539,"쓵":6540,"쓶":6541,"쓷":6542,"쓸":6543,"쓹":6544,"쓺":6545,"쓻":6546,"쓼":6547,"쓽":6548,"쓾":6549,"쓿":6550,"씀":6551,"씁":6552,"씂":6553,"씃":6554,"씄":6555,"씅":6556,"씆":6557,"씇":6558,"씈":6559,"씉":6560,"씊":6561,"씋":6562,"씌":6563,"씍":6564,"씎":6565,"씏":6566,"씐":6567,"씑":6568,"씒":6569,"씓":6570,"씔":6571,"씕":6572,"씖":6573,"씗":6574,"씘":6575,"씙":6576,"씚":6577,"씛":6578,"씜":6579,"씝":6580,"씞":6581,"씟":6582,"씠":6583,"씡":6584,"씢":6585,"씣":6586,"씤":6587,"씥":6588,"씦":6589,"씧":6590,"씨":6591,"씩":6592,"씪":6593,"씫":6594,"씬":6595,"씭":6596,"씮":6597,"씯":6598,"씰":6599,"씱":6600,"씲":6601,"씳":6602,"씴":6603,"씵":6604,"씶":6605,"씷":6606,"씸":6607,"씹":6608,"씺":6609,"씻":6610,"씼":6611,"씽":6612,"씾":6613,"씿":6614,"앀":6615,"앁":6616,"앂":6617,"앃":6618,"아":6619,"악":6620,"앆":6621,"앇":6622,"안":6623,"앉":6624,"않":6625,"앋":6626,"알":6627,"앍":6628,"앎":6629,"앏":6630,"앐":6631,"앑":6632,"앒":6633,"앓":6634,"암":6635,"압":6636,"앖":6637,"앗":6638,"았":6639,"앙":6640,"앚":6641,"앛":6642,"앜":6643,"앝":6644,"앞":6645,"앟":6646,"애":6647,"액":6648,"앢":6649,"앣":6650,"앤":6651,"앥":6652,"앦":6653,"앧":6654,"앨":6655,"앩":6656,"앪":6657,"앫":6658,"앬":6659,"앭":6660,"앮":6661,"앯":6662,"앰":6663,"앱":6664,"앲":6665,"앳":6666,"앴":6667,"앵":6668,"앶":6669,"앷":6670,"앸":6671,"앹":6672,"앺":6673,"앻":6674,"야":6675,"약":6676,"앾":6677,"앿":6678,"얀":6679,"얁":6680,"얂":6681,"얃":6682,"얄":6683,"얅":6684,"얆":6685,"얇":6686,"얈":6687,"얉":6688,"얊":6689,"얋":6690,"얌":6691,"얍":6692,"얎":6693,"얏":6694,"얐":6695,"양":6696,"얒":6697,"얓":6698,"얔":6699,"얕":6700,"얖":6701,"얗":6702,"얘":6703,"얙":6704,"얚":6705,"얛":6706,"얜":6707,"얝":6708,"얞":6709,"얟":6710,"얠":6711,"얡":6712,"얢":6713,"얣":6714,"얤":6715,"얥":6716,"얦":6717,"얧":6718,"얨":6719,"얩":6720,"얪":6721,"얫":6722,"얬":6723,"얭":6724,"얮":6725,"얯":6726,"얰":6727,"얱":6728,"얲":6729,"얳":6730,"어":6731,"억":6732,"얶":6733,"얷":6734,"언":6735,"얹":6736,"얺":6737,"얻":6738,"얼":6739,"얽":6740,"얾":6741,"얿":6742,"엀":6743,"엁":6744,"엂":6745,"엃":6746,"엄":6747,"업":6748,"없":6749,"엇":6750,"었":6751,"엉":6752,"엊":6753,"엋":6754,"엌":6755,"엍":6756,"엎":6757,"엏":6758,"에":6759,"엑":6760,"엒":6761,"엓":6762,"엔":6763,"엕":6764,"엖":6765,"엗":6766,"엘":6767,"엙":6768,"엚":6769,"엛":6770,"엜":6771,"엝":6772,"엞":6773,"엟":6774,"엠":6775,"엡":6776,"엢":6777,"엣":6778,"엤":6779,"엥":6780,"엦":6781,"엧":6782,"엨":6783,"엩":6784,"엪":6785,"엫":6786,"여":6787,"역":6788,"엮":6789,"엯":6790,"연":6791,"엱":6792,"엲":6793,"엳":6794,"열":6795,"엵":6796,"엶":6797,"엷":6798,"엸":6799,"엹":6800,"엺":6801,"엻":6802,"염":6803,"엽":6804,"엾":6805,"엿":6806,"였":6807,"영":6808,"옂":6809,"옃":6810,"옄":6811,"옅":6812,"옆":6813,"옇":6814,"예":6815,"옉":6816,"옊":6817,"옋":6818,"옌":6819,"옍":6820,"옎":6821,"옏":6822,"옐":6823,"옑":6824,"옒":6825,"옓":6826,"옔":6827,"옕":6828,"옖":6829,"옗":6830,"옘":6831,"옙":6832,"옚":6833,"옛":6834,"옜":6835,"옝":6836,"옞":6837,"옟":6838,"옠":6839,"옡":6840,"옢":6841,"옣":6842,"오":6843,"옥":6844,"옦":6845,"옧":6846,"온":6847,"옩":6848,"옪":6849,"옫":6850,"올":6851,"옭":6852,"옮":6853,"옯":6854,"옰":6855,"옱":6856,"옲":6857,"옳":6858,"옴":6859,"옵":6860,"옶":6861,"옷":6862,"옸":6863,"옹":6864,"옺":6865,"옻":6866,"옼":6867,"옽":6868,"옾":6869,"옿":6870,"와":6871,"왁":6872,"왂":6873,"왃":6874,"완":6875,"왅":6876,"왆":6877,"왇":6878,"왈":6879,"왉":6880,"왊":6881,"왋":6882,"왌":6883,"왍":6884,"왎":6885,"왏":6886,"왐":6887,"왑":6888,"왒":6889,"왓":6890,"왔":6891,"왕":6892,"왖":6893,"왗":6894,"왘":6895,"왙":6896,"왚":6897,"왛":6898,"왜":6899,"왝":6900,"왞":6901,"왟":6902,"왠":6903,"왡":6904,"왢":6905,"왣":6906,"왤":6907,"왥":6908,"왦":6909,"왧":6910,"왨":6911,"왩":6912,"왪":6913,"왫":6914,"왬":6915,"왭":6916,"왮":6917,"왯":6918,"왰":6919,"왱":6920,"왲":6921,"왳":6922,"왴":6923,"왵":6924,"왶":6925,"왷":6926,"외":6927,"왹":6928,"왺":6929,"왻":6930,"왼":6931,"왽":6932,"왾":6933,"왿":6934,"욀":6935,"욁":6936,"욂":6937,"욃":6938,"욄":6939,"욅":6940,"욆":6941,"욇":6942,"욈":6943,"욉":6944,"욊":6945,"욋":6946,"욌":6947,"욍":6948,"욎":6949,"욏":6950,"욐":6951,"욑":6952,"욒":6953,"욓":6954,"요":6955,"욕":6956,"욖":6957,"욗":6958,"욘":6959,"욙":6960,"욚":6961,"욛":6962,"욜":6963,"욝":6964,"욞":6965,"욟":6966,"욠":6967,"욡":6968,"욢":6969,"욣":6970,"욤":6971,"욥":6972,"욦":6973,"욧":6974,"욨":6975,"용":6976,"욪":6977,"욫":6978,"욬":6979,"욭":6980,"욮":6981,"욯":6982,"우":6983,"욱":6984,"욲":6985,"욳":6986,"운":6987,"욵":6988,"욶":6989,"욷":6990,"울":6991,"욹":6992,"욺":6993,"욻":6994,"욼":6995,"욽":6996,"욾":6997,"욿":6998,"움":6999,"웁":7000,"웂":7001,"웃":7002,"웄":7003,"웅":7004,"웆":7005,"웇":7006,"웈":7007,"웉":7008,"웊":7009,"웋":7010,"워":7011,"웍":7012,"웎":7013,"웏":7014,"원":7015,"웑":7016,"웒":7017,"웓":7018,"월":7019,"웕":7020,"웖":7021,"웗":7022,"웘":7023,"웙":7024,"웚":7025,"웛":7026,"웜":7027,"웝":7028,"웞":7029,"웟":7030,"웠":7031,"웡":7032,"웢":7033,"웣":7034,"웤":7035,"웥":7036,"웦":7037,"웧":7038,"웨":7039,"웩":7040,"웪":7041,"웫":7042,"웬":7043,"웭":7044,"웮":7045,"웯":7046,"웰":7047,"웱":7048,"웲":7049,"웳":7050,"웴":7051,"웵":7052,"웶":7053,"웷":7054,"웸":7055,"웹":7056,"웺":7057,"웻":7058,"웼":7059,"웽":7060,"웾":7061,"웿":7062,"윀":7063,"윁":7064,"윂":7065,"윃":7066,"위":7067,"윅":7068,"윆":7069,"윇":7070,"윈":7071,"윉":7072,"윊":7073,"윋":7074,"윌":7075,"윍":7076,"윎":7077,"윏":7078,"윐":7079,"윑":7080,"윒":7081,"윓":7082,"윔":7083,"윕":7084,"윖":7085,"윗":7086,"윘":7087,"윙":7088,"윚":7089,"윛":7090,"윜":7091,"윝":7092,"윞":7093,"윟":7094,"유":7095,"육":7096,"윢":7097,"윣":7098,"윤":7099,"윥":7100,"윦":7101,"윧":7102,"율":7103,"윩":7104,"윪":7105,"윫":7106,"윬":7107,"윭":7108,"윮":7109,"윯":7110,"윰":7111,"윱":7112,"윲":7113,"윳":7114,"윴":7115,"융":7116,"윶":7117,"윷":7118,"윸":7119,"윹":7120,"윺":7121,"윻":7122,"으":7123,"윽":7124,"윾":7125,"윿":7126,"은":7127,"읁":7128,"읂":7129,"읃":7130,"을":7131,"읅":7132,"읆":7133,"읇":7134,"읈":7135,"읉":7136,"읊":7137,"읋":7138,"음":7139,"읍":7140,"읎":7141,"읏":7142,"읐":7143,"응":7144,"읒":7145,"읓":7146,"읔":7147,"읕":7148,"읖":7149,"읗":7150,"의":7151,"읙":7152,"읚":7153,"읛":7154,"읜":7155,"읝":7156,"읞":7157,"읟":7158,"읠":7159,"읡":7160,"읢":7161,"읣":7162,"읤":7163,"읥":7164,"읦":7165,"읧":7166,"읨":7167,"읩":7168,"읪":7169,"읫":7170,"읬":7171,"읭":7172,"읮":7173,"읯":7174,"읰":7175,"읱":7176,"읲":7177,"읳":7178,"이":7179,"익":7180,"읶":7181,"읷":7182,"인":7183,"읹":7184,"읺":7185,"읻":7186,"일":7187,"읽":7188,"읾":7189,"읿":7190,"잀":7191,"잁":7192,"잂":7193,"잃":7194,"임":7195,"입":7196,"잆":7197,"잇":7198,"있":7199,"잉":7200,"잊":7201,"잋":7202,"잌":7203,"잍":7204,"잎":7205,"잏":7206,"자":7207,"작":7208,"잒":7209,"잓":7210,"잔":7211,"잕":7212,"잖":7213,"잗":7214,"잘":7215,"잙":7216,"잚":7217,"잛":7218,"잜":7219,"잝":7220,"잞":7221,"잟":7222,"잠":7223,"잡":7224,"잢":7225,"잣":7226,"잤":7227,"장":7228,"잦":7229,"잧":7230,"잨":7231,"잩":7232,"잪":7233,"잫":7234,"재":7235,"잭":7236,"잮":7237,"잯":7238,"잰":7239,"잱":7240,"잲":7241,"잳":7242,"잴":7243,"잵":7244,"잶":7245,"잷":7246,"잸":7247,"잹":7248,"잺":7249,"잻":7250,"잼":7251,"잽":7252,"잾":7253,"잿":7254,"쟀":7255,"쟁":7256,"쟂":7257,"쟃":7258,"쟄":7259,"쟅":7260,"쟆":7261,"쟇":7262,"쟈":7263,"쟉":7264,"쟊":7265,"쟋":7266,"쟌":7267,"쟍":7268,"쟎":7269,"쟏":7270,"쟐":7271,"쟑":7272,"쟒":7273,"쟓":7274,"쟔":7275,"쟕":7276,"쟖":7277,"쟗":7278,"쟘":7279,"쟙":7280,"쟚":7281,"쟛":7282,"쟜":7283,"쟝":7284,"쟞":7285,"쟟":7286,"쟠":7287,"쟡":7288,"쟢":7289,"쟣":7290,"쟤":7291,"쟥":7292,"쟦":7293,"쟧":7294,"쟨":7295,"쟩":7296,"쟪":7297,"쟫":7298,"쟬":7299,"쟭":7300,"쟮":7301,"쟯":7302,"쟰":7303,"쟱":7304,"쟲":7305,"쟳":7306,"쟴":7307,"쟵":7308,"쟶":7309,"쟷":7310,"쟸":7311,"쟹":7312,"쟺":7313,"쟻":7314,"쟼":7315,"쟽":7316,"쟾":7317,"쟿":7318,"저":7319,"적":7320,"젂":7321,"젃":7322,"전":7323,"젅":7324,"젆":7325,"젇":7326,"절":7327,"젉":7328,"젊":7329,"젋":7330,"젌":7331,"젍":7332,"젎":7333,"젏":7334,"점":7335,"접":7336,"젒":7337,"젓":7338,"젔":7339,"정":7340,"젖":7341,"젗":7342,"젘":7343,"젙":7344,"젚":7345,"젛":7346,"제":7347,"젝":7348,"젞":7349,"젟":7350,"젠":7351,"젡":7352,"젢":7353,"젣":7354,"젤":7355,"젥":7356,"젦":7357,"젧":7358,"젨":7359,"젩":7360,"젪":7361,"젫":7362,"젬":7363,"젭":7364,"젮":7365,"젯":7366,"젰":7367,"젱":7368,"젲":7369,"젳":7370,"젴":7371,"젵":7372,"젶":7373,"젷":7374,"져":7375,"젹":7376,"젺":7377,"젻":7378,"젼":7379,"젽":7380,"젾":7381,"젿":7382,"졀":7383,"졁":7384,"졂":7385,"졃":7386,"졄":7387,"졅":7388,"졆":7389,"졇":7390,"졈":7391,"졉":7392,"졊":7393,"졋":7394,"졌":7395,"졍":7396,"졎":7397,"졏":7398,"졐":7399,"졑":7400,"졒":7401,"졓":7402,"졔":7403,"졕":7404,"졖":7405,"졗":7406,"졘":7407,"졙":7408,"졚":7409,"졛":7410,"졜":7411,"졝":7412,"졞":7413,"졟":7414,"졠":7415,"졡":7416,"졢":7417,"졣":7418,"졤":7419,"졥":7420,"졦":7421,"졧":7422,"졨":7423,"졩":7424,"졪":7425,"졫":7426,"졬":7427,"졭":7428,"졮":7429,"졯":7430,"조":7431,"족":7432,"졲":7433,"졳":7434,"존":7435,"졵":7436,"졶":7437,"졷":7438,"졸":7439,"졹":7440,"졺":7441,"졻":7442,"졼":7443,"졽":7444,"졾":7445,"졿":7446,"좀":7447,"좁":7448,"좂":7449,"좃":7450,"좄":7451,"종":7452,"좆":7453,"좇":7454,"좈":7455,"좉":7456,"좊":7457,"좋":7458,"좌":7459,"좍":7460,"좎":7461,"좏":7462,"좐":7463,"좑":7464,"좒":7465,"좓":7466,"좔":7467,"좕":7468,"좖":7469,"좗":7470,"좘":7471,"좙":7472,"좚":7473,"좛":7474,"좜":7475,"좝":7476,"좞":7477,"좟":7478,"좠":7479,"좡":7480,"좢":7481,"좣":7482,"좤":7483,"좥":7484,"좦":7485,"좧":7486,"좨":7487,"좩":7488,"좪":7489,"좫":7490,"좬":7491,"좭":7492,"좮":7493,"좯":7494,"좰":7495,"좱":7496,"좲":7497,"좳":7498,"좴":7499,"좵":7500,"좶":7501,"좷":7502,"좸":7503,"좹":7504,"좺":7505,"좻":7506,"좼":7507,"좽":7508,"좾":7509,"좿":7510,"죀":7511,"죁":7512,"죂":7513,"죃":7514,"죄":7515,"죅":7516,"죆":7517,"죇":7518,"죈":7519,"죉":7520,"죊":7521,"죋":7522,"죌":7523,"죍":7524,"죎":7525,"죏":7526,"죐":7527,"죑":7528,"죒":7529,"죓":7530,"죔":7531,"죕":7532,"죖":7533,"죗":7534,"죘":7535,"죙":7536,"죚":7537,"죛":7538,"죜":7539,"죝":7540,"죞":7541,"죟":7542,"죠":7543,"죡":7544,"죢":7545,"죣":7546,"죤":7547,"죥":7548,"죦":7549,"죧":7550,"죨":7551,"죩":7552,"죪":7553,"죫":7554,"죬":7555,"죭":7556,"죮":7557,"죯":7558,"죰":7559,"죱":7560,"죲":7561,"죳":7562,"죴":7563,"죵":7564,"죶":7565,"죷":7566,"죸":7567,"죹":7568,"죺":7569,"죻":7570,"주":7571,"죽":7572,"죾":7573,"죿":7574,"준":7575,"줁":7576,"줂":7577,"줃":7578,"줄":7579,"줅":7580,"줆":7581,"줇":7582,"줈":7583,"줉":7584,"줊":7585,"줋":7586,"줌":7587,"줍":7588,"줎":7589,"줏":7590,"줐":7591,"중":7592,"줒":7593,"줓":7594,"줔":7595,"줕":7596,"줖":7597,"줗":7598,"줘":7599,"줙":7600,"줚":7601,"줛":7602,"줜":7603,"줝":7604,"줞":7605,"줟":7606,"줠":7607,"줡":7608,"줢":7609,"줣":7610,"줤":7611,"줥":7612,"줦":7613,"줧":7614,"줨":7615,"줩":7616,"줪":7617,"줫":7618,"줬":7619,"줭":7620,"줮":7621,"줯":7622,"줰":7623,"줱":7624,"줲":7625,"줳":7626,"줴":7627,"줵":7628,"줶":7629,"줷":7630,"줸":7631,"줹":7632,"줺":7633,"줻":7634,"줼":7635,"줽":7636,"줾":7637,"줿":7638,"쥀":7639,"쥁":7640,"쥂":7641,"쥃":7642,"쥄":7643,"쥅":7644,"쥆":7645,"쥇":7646,"쥈":7647,"쥉":7648,"쥊":7649,"쥋":7650,"쥌":7651,"쥍":7652,"쥎":7653,"쥏":7654,"쥐":7655,"쥑":7656,"쥒":7657,"쥓":7658,"쥔":7659,"쥕":7660,"쥖":7661,"쥗":7662,"쥘":7663,"쥙":7664,"쥚":7665,"쥛":7666,"쥜":7667,"쥝":7668,"쥞":7669,"쥟":7670,"쥠":7671,"쥡":7672,"쥢":7673,"쥣":7674,"쥤":7675,"쥥":7676,"쥦":7677,"쥧":7678,"쥨":7679,"쥩":7680,"쥪":7681,"쥫":7682,"쥬":7683,"쥭":7684,"쥮":7685,"쥯":7686,"쥰":7687,"쥱":7688,"쥲":7689,"쥳":7690,"쥴":7691,"쥵":7692,"쥶":7693,"쥷":7694,"쥸":7695,"쥹":7696,"쥺":7697,"쥻":7698,"쥼":7699,"쥽":7700,"쥾":7701,"쥿":7702,"즀":7703,"즁":7704,"즂":7705,"즃":7706,"즄":7707,"즅":7708,"즆":7709,"즇":7710,"즈":7711,"즉":7712,"즊":7713,"즋":7714,"즌":7715,"즍":7716,"즎":7717,"즏":7718,"즐":7719,"즑":7720,"즒":7721,"즓":7722,"즔":7723,"즕":7724,"즖":7725,"즗":7726,"즘":7727,"즙":7728,"즚":7729,"즛":7730,"즜":7731,"증":7732,"즞":7733,"즟":7734,"즠":7735,"즡":7736,"즢":7737,"즣":7738,"즤":7739,"즥":7740,"즦":7741,"즧":7742,"즨":7743,"즩":7744,"즪":7745,"즫":7746,"즬":7747,"즭":7748,"즮":7749,"즯":7750,"즰":7751,"즱":7752,"즲":7753,"즳":7754,"즴":7755,"즵":7756,"즶":7757,"즷":7758,"즸":7759,"즹":7760,"즺":7761,"즻":7762,"즼":7763,"즽":7764,"즾":7765,"즿":7766,"지":7767,"직":7768,"짂":7769,"짃":7770,"진":7771,"짅":7772,"짆":7773,"짇":7774,"질":7775,"짉":7776,"짊":7777,"짋":7778,"짌":7779,"짍":7780,"짎":7781,"짏":7782,"짐":7783,"집":7784,"짒":7785,"짓":7786,"짔":7787,"징":7788,"짖":7789,"짗":7790,"짘":7791,"짙":7792,"짚":7793,"짛":7794,"짜":7795,"짝":7796,"짞":7797,"짟":7798,"짠":7799,"짡":7800,"짢":7801,"짣":7802,"짤":7803,"짥":7804,"짦":7805,"짧":7806,"짨":7807,"짩":7808,"짪":7809,"짫":7810,"짬":7811,"짭":7812,"짮":7813,"짯":7814,"짰":7815,"짱":7816,"짲":7817,"짳":7818,"짴":7819,"짵":7820,"짶":7821,"짷":7822,"째":7823,"짹":7824,"짺":7825,"짻":7826,"짼":7827,"짽":7828,"짾":7829,"짿":7830,"쨀":7831,"쨁":7832,"쨂":7833,"쨃":7834,"쨄":7835,"쨅":7836,"쨆":7837,"쨇":7838,"쨈":7839,"쨉":7840,"쨊":7841,"쨋":7842,"쨌":7843,"쨍":7844,"쨎":7845,"쨏":7846,"쨐":7847,"쨑":7848,"쨒":7849,"쨓":7850,"쨔":7851,"쨕":7852,"쨖":7853,"쨗":7854,"쨘":7855,"쨙":7856,"쨚":7857,"쨛":7858,"쨜":7859,"쨝":7860,"쨞":7861,"쨟":7862,"쨠":7863,"쨡":7864,"쨢":7865,"쨣":7866,"쨤":7867,"쨥":7868,"쨦":7869,"쨧":7870,"쨨":7871,"쨩":7872,"쨪":7873,"쨫":7874,"쨬":7875,"쨭":7876,"쨮":7877,"쨯":7878,"쨰":7879,"쨱":7880,"쨲":7881,"쨳":7882,"쨴":7883,"쨵":7884,"쨶":7885,"쨷":7886,"쨸":7887,"쨹":7888,"쨺":7889,"쨻":7890,"쨼":7891,"쨽":7892,"쨾":7893,"쨿":7894,"쩀":7895,"쩁":7896,"쩂":7897,"쩃":7898,"쩄":7899,"쩅":7900,"쩆":7901,"쩇":7902,"쩈":7903,"쩉":7904,"쩊":7905,"쩋":7906,"쩌":7907,"쩍":7908,"쩎":7909,"쩏":7910,"쩐":7911,"쩑":7912,"쩒":7913,"쩓":7914,"쩔":7915,"쩕":7916,"쩖":7917,"쩗":7918,"쩘":7919,"쩙":7920,"쩚":7921,"쩛":7922,"쩜":7923,"쩝":7924,"쩞":7925,"쩟":7926,"쩠":7927,"쩡":7928,"쩢":7929,"쩣":7930,"쩤":7931,"쩥":7932,"쩦":7933,"쩧":7934,"쩨":7935,"쩩":7936,"쩪":7937,"쩫":7938,"쩬":7939,"쩭":7940,"쩮":7941,"쩯":7942,"쩰":7943,"쩱":7944,"쩲":7945,"쩳":7946,"쩴":7947,"쩵":7948,"쩶":7949,"쩷":7950,"쩸":7951,"쩹":7952,"쩺":7953,"쩻":7954,"쩼":7955,"쩽":7956,"쩾":7957,"쩿":7958,"쪀":7959,"쪁":7960,"쪂":7961,"쪃":7962,"쪄":7963,"쪅":7964,"쪆":7965,"쪇":7966,"쪈":7967,"쪉":7968,"쪊":7969,"쪋":7970,"쪌":7971,"쪍":7972,"쪎":7973,"쪏":7974,"쪐":7975,"쪑":7976,"쪒":7977,"쪓":7978,"쪔":7979,"쪕":7980,"쪖":7981,"쪗":7982,"쪘":7983,"쪙":7984,"쪚":7985,"쪛":7986,"쪜":7987,"쪝":7988,"쪞":7989,"쪟":7990,"쪠":7991,"쪡":7992,"쪢":7993,"쪣":7994,"쪤":7995,"쪥":7996,"쪦":7997,"쪧":7998,"쪨":7999,"쪩":8000,"쪪":8001,"쪫":8002,"쪬":8003,"쪭":8004,"쪮":8005,"쪯":8006,"쪰":8007,"쪱":8008,"쪲":8009,"쪳":8010,"쪴":8011,"쪵":8012,"쪶":8013,"쪷":8014,"쪸":8015,"쪹":8016,"쪺":8017,"쪻":8018,"쪼":8019,"쪽":8020,"쪾":8021,"쪿":8022,"쫀":8023,"쫁":8024,"쫂":8025,"쫃":8026,"쫄":8027,"쫅":8028,"쫆":8029,"쫇":8030,"쫈":8031,"쫉":8032,"쫊":8033,"쫋":8034,"쫌":8035,"쫍":8036,"쫎":8037,"쫏":8038,"쫐":8039,"쫑":8040,"쫒":8041,"쫓":8042,"쫔":8043,"쫕":8044,"쫖":8045,"쫗":8046,"쫘":8047,"쫙":8048,"쫚":8049,"쫛":8050,"쫜":8051,"쫝":8052,"쫞":8053,"쫟":8054,"쫠":8055,"쫡":8056,"쫢":8057,"쫣":8058,"쫤":8059,"쫥":8060,"쫦":8061,"쫧":8062,"쫨":8063,"쫩":8064,"쫪":8065,"쫫":8066,"쫬":8067,"쫭":8068,"쫮":8069,"쫯":8070,"쫰":8071,"쫱":8072,"쫲":8073,"쫳":8074,"쫴":8075,"쫵":8076,"쫶":8077,"쫷":8078,"쫸":8079,"쫹":8080,"쫺":8081,"쫻":8082,"쫼":8083,"쫽":8084,"쫾":8085,"쫿":8086,"쬀":8087,"쬁":8088,"쬂":8089,"쬃":8090,"쬄":8091,"쬅":8092,"쬆":8093,"쬇":8094,"쬈":8095,"쬉":8096,"쬊":8097,"쬋":8098,"쬌":8099,"쬍":8100,"쬎":8101,"쬏":8102,"쬐":8103,"쬑":8104,"쬒":8105,"쬓":8106,"쬔":8107,"쬕":8108,"쬖":8109,"쬗":8110,"쬘":8111,"쬙":8112,"쬚":8113,"쬛":8114,"쬜":8115,"쬝":8116,"쬞":8117,"쬟":8118,"쬠":8119,"쬡":8120,"쬢":8121,"쬣":8122,"쬤":8123,"쬥":8124,"쬦":8125,"쬧":8126,"쬨":8127,"쬩":8128,"쬪":8129,"쬫":8130,"쬬":8131,"쬭":8132,"쬮":8133,"쬯":8134,"쬰":8135,"쬱":8136,"쬲":8137,"쬳":8138,"쬴":8139,"쬵":8140,"쬶":8141,"쬷":8142,"쬸":8143,"쬹":8144,"쬺":8145,"쬻":8146,"쬼":8147,"쬽":8148,"쬾":8149,"쬿":8150,"쭀":8151,"쭁":8152,"쭂":8153,"쭃":8154,"쭄":8155,"쭅":8156,"쭆":8157,"쭇":8158,"쭈":8159,"쭉":8160,"쭊":8161,"쭋":8162,"쭌":8163,"쭍":8164,"쭎":8165,"쭏":8166,"쭐":8167,"쭑":8168,"쭒":8169,"쭓":8170,"쭔":8171,"쭕":8172,"쭖":8173,"쭗":8174,"쭘":8175,"쭙":8176,"쭚":8177,"쭛":8178,"쭜":8179,"쭝":8180,"쭞":8181,"쭟":8182,"쭠":8183,"쭡":8184,"쭢":8185,"쭣":8186,"쭤":8187,"쭥":8188,"쭦":8189,"쭧":8190,"쭨":8191,"쭩":8192,"쭪":8193,"쭫":8194,"쭬":8195,"쭭":8196,"쭮":8197,"쭯":8198,"쭰":8199,"쭱":8200,"쭲":8201,"쭳":8202,"쭴":8203,"쭵":8204,"쭶":8205,"쭷":8206,"쭸":8207,"쭹":8208,"쭺":8209,"쭻":8210,"쭼":8211,"쭽":8212,"쭾":8213,"쭿":8214,"쮀":8215,"쮁":8216,"쮂":8217,"쮃":8218,"쮄":8219,"쮅":8220,"쮆":8221,"쮇":8222,"쮈":8223,"쮉":8224,"쮊":8225,"쮋":8226,"쮌":8227,"쮍":8228,"쮎":8229,"쮏":8230,"쮐":8231,"쮑":8232,"쮒":8233,"쮓":8234,"쮔":8235,"쮕":8236,"쮖":8237,"쮗":8238,"쮘":8239,"쮙":8240,"쮚":8241,"쮛":8242,"쮜":8243,"쮝":8244,"쮞":8245,"쮟":8246,"쮠":8247,"쮡":8248,"쮢":8249,"쮣":8250,"쮤":8251,"쮥":8252,"쮦":8253,"쮧":8254,"쮨":8255,"쮩":8256,"쮪":8257,"쮫":8258,"쮬":8259,"쮭":8260,"쮮":8261,"쮯":8262,"쮰":8263,"쮱":8264,"쮲":8265,"쮳":8266,"쮴":8267,"쮵":8268,"쮶":8269,"쮷":8270,"쮸":8271,"쮹":8272,"쮺":8273,"쮻":8274,"쮼":8275,"쮽":8276,"쮾":8277,"쮿":8278,"쯀":8279,"쯁":8280,"쯂":8281,"쯃":8282,"쯄":8283,"쯅":8284,"쯆":8285,"쯇":8286,"쯈":8287,"쯉":8288,"쯊":8289,"쯋":8290,"쯌":8291,"쯍":8292,"쯎":8293,"쯏":8294,"쯐":8295,"쯑":8296,"쯒":8297,"쯓":8298,"쯔":8299,"쯕":8300,"쯖":8301,"쯗":8302,"쯘":8303,"쯙":8304,"쯚":8305,"쯛":8306,"쯜":8307,"쯝":8308,"쯞":8309,"쯟":8310,"쯠":8311,"쯡":8312,"쯢":8313,"쯣":8314,"쯤":8315,"쯥":8316,"쯦":8317,"쯧":8318,"쯨":8319,"쯩":8320,"쯪":8321,"쯫":8322,"쯬":8323,"쯭":8324,"쯮":8325,"쯯":8326,"쯰":8327,"쯱":8328,"쯲":8329,"쯳":8330,"쯴":8331,"쯵":8332,"쯶":8333,"쯷":8334,"쯸":8335,"쯹":8336,"쯺":8337,"쯻":8338,"쯼":8339,"쯽":8340,"쯾":8341,"쯿":8342,"찀":8343,"찁":8344,"찂":8345,"찃":8346,"찄":8347,"찅":8348,"찆":8349,"찇":8350,"찈":8351,"찉":8352,"찊":8353,"찋":8354,"찌":8355,"찍":8356,"찎":8357,"찏":8358,"찐":8359,"찑":8360,"찒":8361,"찓":8362,"찔":8363,"찕":8364,"찖":8365,"찗":8366,"찘":8367,"찙":8368,"찚":8369,"찛":8370,"찜":8371,"찝":8372,"찞":8373,"찟":8374,"찠":8375,"찡":8376,"찢":8377,"찣":8378,"찤":8379,"찥":8380,"찦":8381,"찧":8382,"차":8383,"착":8384,"찪":8385,"찫":8386,"찬":8387,"찭":8388,"찮":8389,"찯":8390,"찰":8391,"찱":8392,"찲":8393,"찳":8394,"찴":8395,"찵":8396,"찶":8397,"찷":8398,"참":8399,"찹":8400,"찺":8401,"찻":8402,"찼":8403,"창":8404,"찾":8405,"찿":8406,"챀":8407,"챁":8408,"챂":8409,"챃":8410,"채":8411,"책":8412,"챆":8413,"챇":8414,"챈":8415,"챉":8416,"챊":8417,"챋":8418,"챌":8419,"챍":8420,"챎":8421,"챏":8422,"챐":8423,"챑":8424,"챒":8425,"챓":8426,"챔":8427,"챕":8428,"챖":8429,"챗":8430,"챘":8431,"챙":8432,"챚":8433,"챛":8434,"챜":8435,"챝":8436,"챞":8437,"챟":8438,"챠":8439,"챡":8440,"챢":8441,"챣":8442,"챤":8443,"챥":8444,"챦":8445,"챧":8446,"챨":8447,"챩":8448,"챪":8449,"챫":8450,"챬":8451,"챭":8452,"챮":8453,"챯":8454,"챰":8455,"챱":8456,"챲":8457,"챳":8458,"챴":8459,"챵":8460,"챶":8461,"챷":8462,"챸":8463,"챹":8464,"챺":8465,"챻":8466,"챼":8467,"챽":8468,"챾":8469,"챿":8470,"첀":8471,"첁":8472,"첂":8473,"첃":8474,"첄":8475,"첅":8476,"첆":8477,"첇":8478,"첈":8479,"첉":8480,"첊":8481,"첋":8482,"첌":8483,"첍":8484,"첎":8485,"첏":8486,"첐":8487,"첑":8488,"첒":8489,"첓":8490,"첔":8491,"첕":8492,"첖":8493,"첗":8494,"처":8495,"척":8496,"첚":8497,"첛":8498,"천":8499,"첝":8500,"첞":8501,"첟":8502,"철":8503,"첡":8504,"첢":8505,"첣":8506,"첤":8507,"첥":8508,"첦":8509,"첧":8510,"첨":8511,"첩":8512,"첪":8513,"첫":8514,"첬":8515,"청":8516,"첮":8517,"첯":8518,"첰":8519,"첱":8520,"첲":8521,"첳":8522,"체":8523,"첵":8524,"첶":8525,"첷":8526,"첸":8527,"첹":8528,"첺":8529,"첻":8530,"첼":8531,"첽":8532,"첾":8533,"첿":8534,"쳀":8535,"쳁":8536,"쳂":8537,"쳃":8538,"쳄":8539,"쳅":8540,"쳆":8541,"쳇":8542,"쳈":8543,"쳉":8544,"쳊":8545,"쳋":8546,"쳌":8547,"쳍":8548,"쳎":8549,"쳏":8550,"쳐":8551,"쳑":8552,"쳒":8553,"쳓":8554,"쳔":8555,"쳕":8556,"쳖":8557,"쳗":8558,"쳘":8559,"쳙":8560,"쳚":8561,"쳛":8562,"쳜":8563,"쳝":8564,"쳞":8565,"쳟":8566,"쳠":8567,"쳡":8568,"쳢":8569,"쳣":8570,"쳤":8571,"쳥":8572,"쳦":8573,"쳧":8574,"쳨":8575,"쳩":8576,"쳪":8577,"쳫":8578,"쳬":8579,"쳭":8580,"쳮":8581,"쳯":8582,"쳰":8583,"쳱":8584,"쳲":8585,"쳳":8586,"쳴":8587,"쳵":8588,"쳶":8589,"쳷":8590,"쳸":8591,"쳹":8592,"쳺":8593,"쳻":8594,"쳼":8595,"쳽":8596,"쳾":8597,"쳿":8598,"촀":8599,"촁":8600,"촂":8601,"촃":8602,"촄":8603,"촅":8604,"촆":8605,"촇":8606,"초":8607,"촉":8608,"촊":8609,"촋":8610,"촌":8611,"촍":8612,"촎":8613,"촏":8614,"촐":8615,"촑":8616,"촒":8617,"촓":8618,"촔":8619,"촕":8620,"촖":8621,"촗":8622,"촘":8623,"촙":8624,"촚":8625,"촛":8626,"촜":8627,"총":8628,"촞":8629,"촟":8630,"촠":8631,"촡":8632,"촢":8633,"촣":8634,"촤":8635,"촥":8636,"촦":8637,"촧":8638,"촨":8639,"촩":8640,"촪":8641,"촫":8642,"촬":8643,"촭":8644,"촮":8645,"촯":8646,"촰":8647,"촱":8648,"촲":8649,"촳":8650,"촴":8651,"촵":8652,"촶":8653,"촷":8654,"촸":8655,"촹":8656,"촺":8657,"촻":8658,"촼":8659,"촽":8660,"촾":8661,"촿":8662,"쵀":8663,"쵁":8664,"쵂":8665,"쵃":8666,"쵄":8667,"쵅":8668,"쵆":8669,"쵇":8670,"쵈":8671,"쵉":8672,"쵊":8673,"쵋":8674,"쵌":8675,"쵍":8676,"쵎":8677,"쵏":8678,"쵐":8679,"쵑":8680,"쵒":8681,"쵓":8682,"쵔":8683,"쵕":8684,"쵖":8685,"쵗":8686,"쵘":8687,"쵙":8688,"쵚":8689,"쵛":8690,"최":8691,"쵝":8692,"쵞":8693,"쵟":8694,"쵠":8695,"쵡":8696,"쵢":8697,"쵣":8698,"쵤":8699,"쵥":8700,"쵦":8701,"쵧":8702,"쵨":8703,"쵩":8704,"쵪":8705,"쵫":8706,"쵬":8707,"쵭":8708,"쵮":8709,"쵯":8710,"쵰":8711,"쵱":8712,"쵲":8713,"쵳":8714,"쵴":8715,"쵵":8716,"쵶":8717,"쵷":8718,"쵸":8719,"쵹":8720,"쵺":8721,"쵻":8722,"쵼":8723,"쵽":8724,"쵾":8725,"쵿":8726,"춀":8727,"춁":8728,"춂":8729,"춃":8730,"춄":8731,"춅":8732,"춆":8733,"춇":8734,"춈":8735,"춉":8736,"춊":8737,"춋":8738,"춌":8739,"춍":8740,"춎":8741,"춏":8742,"춐":8743,"춑":8744,"춒":8745,"춓":8746,"추":8747,"축":8748,"춖":8749,"춗":8750,"춘":8751,"춙":8752,"춚":8753,"춛":8754,"출":8755,"춝":8756,"춞":8757,"춟":8758,"춠":8759,"춡":8760,"춢":8761,"춣":8762,"춤":8763,"춥":8764,"춦":8765,"춧":8766,"춨":8767,"충":8768,"춪":8769,"춫":8770,"춬":8771,"춭":8772,"춮":8773,"춯":8774,"춰":8775,"춱":8776,"춲":8777,"춳":8778,"춴":8779,"춵":8780,"춶":8781,"춷":8782,"춸":8783,"춹":8784,"춺":8785,"춻":8786,"춼":8787,"춽":8788,"춾":8789,"춿":8790,"췀":8791,"췁":8792,"췂":8793,"췃":8794,"췄":8795,"췅":8796,"췆":8797,"췇":8798,"췈":8799,"췉":8800,"췊":8801,"췋":8802,"췌":8803,"췍":8804,"췎":8805,"췏":8806,"췐":8807,"췑":8808,"췒":8809,"췓":8810,"췔":8811,"췕":8812,"췖":8813,"췗":8814,"췘":8815,"췙":8816,"췚":8817,"췛":8818,"췜":8819,"췝":8820,"췞":8821,"췟":8822,"췠":8823,"췡":8824,"췢":8825,"췣":8826,"췤":8827,"췥":8828,"췦":8829,"췧":8830,"취":8831,"췩":8832,"췪":8833,"췫":8834,"췬":8835,"췭":8836,"췮":8837,"췯":8838,"췰":8839,"췱":8840,"췲":8841,"췳":8842,"췴":8843,"췵":8844,"췶":8845,"췷":8846,"췸":8847,"췹":8848,"췺":8849,"췻":8850,"췼":8851,"췽":8852,"췾":8853,"췿":8854,"츀":8855,"츁":8856,"츂":8857,"츃":8858,"츄":8859,"츅":8860,"츆":8861,"츇":8862,"츈":8863,"츉":8864,"츊":8865,"츋":8866,"츌":8867,"츍":8868,"츎":8869,"츏":8870,"츐":8871,"츑":8872,"츒":8873,"츓":8874,"츔":8875,"츕":8876,"츖":8877,"츗":8878,"츘":8879,"츙":8880,"츚":8881,"츛":8882,"츜":8883,"츝":8884,"츞":8885,"츟":8886,"츠":8887,"측":8888,"츢":8889,"츣":8890,"츤":8891,"츥":8892,"츦":8893,"츧":8894,"츨":8895,"츩":8896,"츪":8897,"츫":8898,"츬":8899,"츭":8900,"츮":8901,"츯":8902,"츰":8903,"츱":8904,"츲":8905,"츳":8906,"츴":8907,"층":8908,"츶":8909,"츷":8910,"츸":8911,"츹":8912,"츺":8913,"츻":8914,"츼":8915,"츽":8916,"츾":8917,"츿":8918,"칀":8919,"칁":8920,"칂":8921,"칃":8922,"칄":8923,"칅":8924,"칆":8925,"칇":8926,"칈":8927,"칉":8928,"칊":8929,"칋":8930,"칌":8931,"칍":8932,"칎":8933,"칏":8934,"칐":8935,"칑":8936,"칒":8937,"칓":8938,"칔":8939,"칕":8940,"칖":8941,"칗":8942,"치":8943,"칙":8944,"칚":8945,"칛":8946,"친":8947,"칝":8948,"칞":8949,"칟":8950,"칠":8951,"칡":8952,"칢":8953,"칣":8954,"칤":8955,"칥":8956,"칦":8957,"칧":8958,"침":8959,"칩":8960,"칪":8961,"칫":8962,"칬":8963,"칭":8964,"칮":8965,"칯":8966,"칰":8967,"칱":8968,"칲":8969,"칳":8970,"카":8971,"칵":8972,"칶":8973,"칷":8974,"칸":8975,"칹":8976,"칺":8977,"칻":8978,"칼":8979,"칽":8980,"칾":8981,"칿":8982,"캀":8983,"캁":8984,"캂":8985,"캃":8986,"캄":8987,"캅":8988,"캆":8989,"캇":8990,"캈":8991,"캉":8992,"캊":8993,"캋":8994,"캌":8995,"캍":8996,"캎":8997,"캏":8998,"캐":8999,"캑":9000,"캒":9001,"캓":9002,"캔":9003,"캕":9004,"캖":9005,"캗":9006,"캘":9007,"캙":9008,"캚":9009,"캛":9010,"캜":9011,"캝":9012,"캞":9013,"캟":9014,"캠":9015,"캡":9016,"캢":9017,"캣":9018,"캤":9019,"캥":9020,"캦":9021,"캧":9022,"캨":9023,"캩":9024,"캪":9025,"캫":9026,"캬":9027,"캭":9028,"캮":9029,"캯":9030,"캰":9031,"캱":9032,"캲":9033,"캳":9034,"캴":9035,"캵":9036,"캶":9037,"캷":9038,"캸":9039,"캹":9040,"캺":9041,"캻":9042,"캼":9043,"캽":9044,"캾":9045,"캿":9046,"컀":9047,"컁":9048,"컂":9049,"컃":9050,"컄":9051,"컅":9052,"컆":9053,"컇":9054,"컈":9055,"컉":9056,"컊":9057,"컋":9058,"컌":9059,"컍":9060,"컎":9061,"컏":9062,"컐":9063,"컑":9064,"컒":9065,"컓":9066,"컔":9067,"컕":9068,"컖":9069,"컗":9070,"컘":9071,"컙":9072,"컚":9073,"컛":9074,"컜":9075,"컝":9076,"컞":9077,"컟":9078,"컠":9079,"컡":9080,"컢":9081,"컣":9082,"커":9083,"컥":9084,"컦":9085,"컧":9086,"컨":9087,"컩":9088,"컪":9089,"컫":9090,"컬":9091,"컭":9092,"컮":9093,"컯":9094,"컰":9095,"컱":9096,"컲":9097,"컳":9098,"컴":9099,"컵":9100,"컶":9101,"컷":9102,"컸":9103,"컹":9104,"컺":9105,"컻":9106,"컼":9107,"컽":9108,"컾":9109,"컿":9110,"케":9111,"켁":9112,"켂":9113,"켃":9114,"켄":9115,"켅":9116,"켆":9117,"켇":9118,"켈":9119,"켉":9120,"켊":9121,"켋":9122,"켌":9123,"켍":9124,"켎":9125,"켏":9126,"켐":9127,"켑":9128,"켒":9129,"켓":9130,"켔":9131,"켕":9132,"켖":9133,"켗":9134,"켘":9135,"켙":9136,"켚":9137,"켛":9138,"켜":9139,"켝":9140,"켞":9141,"켟":9142,"켠":9143,"켡":9144,"켢":9145,"켣":9146,"켤":9147,"켥":9148,"켦":9149,"켧":9150,"켨":9151,"켩":9152,"켪":9153,"켫":9154,"켬":9155,"켭":9156,"켮":9157,"켯":9158,"켰":9159,"켱":9160,"켲":9161,"켳":9162,"켴":9163,"켵":9164,"켶":9165,"켷":9166,"켸":9167,"켹":9168,"켺":9169,"켻":9170,"켼":9171,"켽":9172,"켾":9173,"켿":9174,"콀":9175,"콁":9176,"콂":9177,"콃":9178,"콄":9179,"콅":9180,"콆":9181,"콇":9182,"콈":9183,"콉":9184,"콊":9185,"콋":9186,"콌":9187,"콍":9188,"콎":9189,"콏":9190,"콐":9191,"콑":9192,"콒":9193,"콓":9194,"코":9195,"콕":9196,"콖":9197,"콗":9198,"콘":9199,"콙":9200,"콚":9201,"콛":9202,"콜":9203,"콝":9204,"콞":9205,"콟":9206,"콠":9207,"콡":9208,"콢":9209,"콣":9210,"콤":9211,"콥":9212,"콦":9213,"콧":9214,"콨":9215,"콩":9216,"콪":9217,"콫":9218,"콬":9219,"콭":9220,"콮":9221,"콯":9222,"콰":9223,"콱":9224,"콲":9225,"콳":9226,"콴":9227,"콵":9228,"콶":9229,"콷":9230,"콸":9231,"콹":9232,"콺":9233,"콻":9234,"콼":9235,"콽":9236,"콾":9237,"콿":9238,"쾀":9239,"쾁":9240,"쾂":9241,"쾃":9242,"쾄":9243,"쾅":9244,"쾆":9245,"쾇":9246,"쾈":9247,"쾉":9248,"쾊":9249,"쾋":9250,"쾌":9251,"쾍":9252,"쾎":9253,"쾏":9254,"쾐":9255,"쾑":9256,"쾒":9257,"쾓":9258,"쾔":9259,"쾕":9260,"쾖":9261,"쾗":9262,"쾘":9263,"쾙":9264,"쾚":9265,"쾛":9266,"쾜":9267,"쾝":9268,"쾞":9269,"쾟":9270,"쾠":9271,"쾡":9272,"쾢":9273,"쾣":9274,"쾤":9275,"쾥":9276,"쾦":9277,"쾧":9278,"쾨":9279,"쾩":9280,"쾪":9281,"쾫":9282,"쾬":9283,"쾭":9284,"쾮":9285,"쾯":9286,"쾰":9287,"쾱":9288,"쾲":9289,"쾳":9290,"쾴":9291,"쾵":9292,"쾶":9293,"쾷":9294,"쾸":9295,"쾹":9296,"쾺":9297,"쾻":9298,"쾼":9299,"쾽":9300,"쾾":9301,"쾿":9302,"쿀":9303,"쿁":9304,"쿂":9305,"쿃":9306,"쿄":9307,"쿅":9308,"쿆":9309,"쿇":9310,"쿈":9311,"쿉":9312,"쿊":9313,"쿋":9314,"쿌":9315,"쿍":9316,"쿎":9317,"쿏":9318,"쿐":9319,"쿑":9320,"쿒":9321,"쿓":9322,"쿔":9323,"쿕":9324,"쿖":9325,"쿗":9326,"쿘":9327,"쿙":9328,"쿚":9329,"쿛":9330,"쿜":9331,"쿝":9332,"쿞":9333,"쿟":9334,"쿠":9335,"쿡":9336,"쿢":9337,"쿣":9338,"쿤":9339,"쿥":9340,"쿦":9341,"쿧":9342,"쿨":9343,"쿩":9344,"쿪":9345,"쿫":9346,"쿬":9347,"쿭":9348,"쿮":9349,"쿯":9350,"쿰":9351,"쿱":9352,"쿲":9353,"쿳":9354,"쿴":9355,"쿵":9356,"쿶":9357,"쿷":9358,"쿸":9359,"쿹":9360,"쿺":9361,"쿻":9362,"쿼":9363,"쿽":9364,"쿾":9365,"쿿":9366,"퀀":9367,"퀁":9368,"퀂":9369,"퀃":9370,"퀄":9371,"퀅":9372,"퀆":9373,"퀇":9374,"퀈":9375,"퀉":9376,"퀊":9377,"퀋":9378,"퀌":9379,"퀍":9380,"퀎":9381,"퀏":9382,"퀐":9383,"퀑":9384,"퀒":9385,"퀓":9386,"퀔":9387,"퀕":9388,"퀖":9389,"퀗":9390,"퀘":9391,"퀙":9392,"퀚":9393,"퀛":9394,"퀜":9395,"퀝":9396,"퀞":9397,"퀟":9398,"퀠":9399,"퀡":9400,"퀢":9401,"퀣":9402,"퀤":9403,"퀥":9404,"퀦":9405,"퀧":9406,"퀨":9407,"퀩":9408,"퀪":9409,"퀫":9410,"퀬":9411,"퀭":9412,"퀮":9413,"퀯":9414,"퀰":9415,"퀱":9416,"퀲":9417,"퀳":9418,"퀴":9419,"퀵":9420,"퀶":9421,"퀷":9422,"퀸":9423,"퀹":9424,"퀺":9425,"퀻":9426,"퀼":9427,"퀽":9428,"퀾":9429,"퀿":9430,"큀":9431,"큁":9432,"큂":9433,"큃":9434,"큄":9435,"큅":9436,"큆":9437,"큇":9438,"큈":9439,"큉":9440,"큊":9441,"큋":9442,"큌":9443,"큍":9444,"큎":9445,"큏":9446,"큐":9447,"큑":9448,"큒":9449,"큓":9450,"큔":9451,"큕":9452,"큖":9453,"큗":9454,"큘":9455,"큙":9456,"큚":9457,"큛":9458,"큜":9459,"큝":9460,"큞":9461,"큟":9462,"큠":9463,"큡":9464,"큢":9465,"큣":9466,"큤":9467,"큥":9468,"큦":9469,"큧":9470,"큨":9471,"큩":9472,"큪":9473,"큫":9474,"크":9475,"큭":9476,"큮":9477,"큯":9478,"큰":9479,"큱":9480,"큲":9481,"큳":9482,"클":9483,"큵":9484,"큶":9485,"큷":9486,"큸":9487,"큹":9488,"큺":9489,"큻":9490,"큼":9491,"큽":9492,"큾":9493,"큿":9494,"킀":9495,"킁":9496,"킂":9497,"킃":9498,"킄":9499,"킅":9500,"킆":9501,"킇":9502,"킈":9503,"킉":9504,"킊":9505,"킋":9506,"킌":9507,"킍":9508,"킎":9509,"킏":9510,"킐":9511,"킑":9512,"킒":9513,"킓":9514,"킔":9515,"킕":9516,"킖":9517,"킗":9518,"킘":9519,"킙":9520,"킚":9521,"킛":9522,"킜":9523,"킝":9524,"킞":9525,"킟":9526,"킠":9527,"킡":9528,"킢":9529,"킣":9530,"키":9531,"킥":9532,"킦":9533,"킧":9534,"킨":9535,"킩":9536,"킪":9537,"킫":9538,"킬":9539,"킭":9540,"킮":9541,"킯":9542,"킰":9543,"킱":9544,"킲":9545,"킳":9546,"킴":9547,"킵":9548,"킶":9549,"킷":9550,"킸":9551,"킹":9552,"킺":9553,"킻":9554,"킼":9555,"킽":9556,"킾":9557,"킿":9558,"타":9559,"탁":9560,"탂":9561,"탃":9562,"탄":9563,"탅":9564,"탆":9565,"탇":9566,"탈":9567,"탉":9568,"탊":9569,"탋":9570,"탌":9571,"탍":9572,"탎":9573,"탏":9574,"탐":9575,"탑":9576,"탒":9577,"탓":9578,"탔":9579,"탕":9580,"탖":9581,"탗":9582,"탘":9583,"탙":9584,"탚":9585,"탛":9586,"태":9587,"택":9588,"탞":9589,"탟":9590,"탠":9591,"탡":9592,"탢":9593,"탣":9594,"탤":9595,"탥":9596,"탦":9597,"탧":9598,"탨":9599,"탩":9600,"탪":9601,"탫":9602,"탬":9603,"탭":9604,"탮":9605,"탯":9606,"탰":9607,"탱":9608,"탲":9609,"탳":9610,"탴":9611,"탵":9612,"탶":9613,"탷":9614,"탸":9615,"탹":9616,"탺":9617,"탻":9618,"탼":9619,"탽":9620,"탾":9621,"탿":9622,"턀":9623,"턁":9624,"턂":9625,"턃":9626,"턄":9627,"턅":9628,"턆":9629,"턇":9630,"턈":9631,"턉":9632,"턊":9633,"턋":9634,"턌":9635,"턍":9636,"턎":9637,"턏":9638,"턐":9639,"턑":9640,"턒":9641,"턓":9642,"턔":9643,"턕":9644,"턖":9645,"턗":9646,"턘":9647,"턙":9648,"턚":9649,"턛":9650,"턜":9651,"턝":9652,"턞":9653,"턟":9654,"턠":9655,"턡":9656,"턢":9657,"턣":9658,"턤":9659,"턥":9660,"턦":9661,"턧":9662,"턨":9663,"턩":9664,"턪":9665,"턫":9666,"턬":9667,"턭":9668,"턮":9669,"턯":9670,"터":9671,"턱":9672,"턲":9673,"턳":9674,"턴":9675,"턵":9676,"턶":9677,"턷":9678,"털":9679,"턹":9680,"턺":9681,"턻":9682,"턼":9683,"턽":9684,"턾":9685,"턿":9686,"텀":9687,"텁":9688,"텂":9689,"텃":9690,"텄":9691,"텅":9692,"텆":9693,"텇":9694,"텈":9695,"텉":9696,"텊":9697,"텋":9698,"테":9699,"텍":9700,"텎":9701,"텏":9702,"텐":9703,"텑":9704,"텒":9705,"텓":9706,"텔":9707,"텕":9708,"텖":9709,"텗":9710,"텘":9711,"텙":9712,"텚":9713,"텛":9714,"템":9715,"텝":9716,"텞":9717,"텟":9718,"텠":9719,"텡":9720,"텢":9721,"텣":9722,"텤":9723,"텥":9724,"텦":9725,"텧":9726,"텨":9727,"텩":9728,"텪":9729,"텫":9730,"텬":9731,"텭":9732,"텮":9733,"텯":9734,"텰":9735,"텱":9736,"텲":9737,"텳":9738,"텴":9739,"텵":9740,"텶":9741,"텷":9742,"텸":9743,"텹":9744,"텺":9745,"텻":9746,"텼":9747,"텽":9748,"텾":9749,"텿":9750,"톀":9751,"톁":9752,"톂":9753,"톃":9754,"톄":9755,"톅":9756,"톆":9757,"톇":9758,"톈":9759,"톉":9760,"톊":9761,"톋":9762,"톌":9763,"톍":9764,"톎":9765,"톏":9766,"톐":9767,"톑":9768,"톒":9769,"톓":9770,"톔":9771,"톕":9772,"톖":9773,"톗":9774,"톘":9775,"톙":9776,"톚":9777,"톛":9778,"톜":9779,"톝":9780,"톞":9781,"톟":9782,"토":9783,"톡":9784,"톢":9785,"톣":9786,"톤":9787,"톥":9788,"톦":9789,"톧":9790,"톨":9791,"톩":9792,"톪":9793,"톫":9794,"톬":9795,"톭":9796,"톮":9797,"톯":9798,"톰":9799,"톱":9800,"톲":9801,"톳":9802,"톴":9803,"통":9804,"톶":9805,"톷":9806,"톸":9807,"톹":9808,"톺":9809,"톻":9810,"톼":9811,"톽":9812,"톾":9813,"톿":9814,"퇀":9815,"퇁":9816,"퇂":9817,"퇃":9818,"퇄":9819,"퇅":9820,"퇆":9821,"퇇":9822,"퇈":9823,"퇉":9824,"퇊":9825,"퇋":9826,"퇌":9827,"퇍":9828,"퇎":9829,"퇏":9830,"퇐":9831,"퇑":9832,"퇒":9833,"퇓":9834,"퇔":9835,"퇕":9836,"퇖":9837,"퇗":9838,"퇘":9839,"퇙":9840,"퇚":9841,"퇛":9842,"퇜":9843,"퇝":9844,"퇞":9845,"퇟":9846,"퇠":9847,"퇡":9848,"퇢":9849,"퇣":9850,"퇤":9851,"퇥":9852,"퇦":9853,"퇧":9854,"퇨":9855,"퇩":9856,"퇪":9857,"퇫":9858,"퇬":9859,"퇭":9860,"퇮":9861,"퇯":9862,"퇰":9863,"퇱":9864,"퇲":9865,"퇳":9866,"퇴":9867,"퇵":9868,"퇶":9869,"퇷":9870,"퇸":9871,"퇹":9872,"퇺":9873,"퇻":9874,"퇼":9875,"퇽":9876,"퇾":9877,"퇿":9878,"툀":9879,"툁":9880,"툂":9881,"툃":9882,"툄":9883,"툅":9884,"툆":9885,"툇":9886,"툈":9887,"툉":9888,"툊":9889,"툋":9890,"툌":9891,"툍":9892,"툎":9893,"툏":9894,"툐":9895,"툑":9896,"툒":9897,"툓":9898,"툔":9899,"툕":9900,"툖":9901,"툗":9902,"툘":9903,"툙":9904,"툚":9905,"툛":9906,"툜":9907,"툝":9908,"툞":9909,"툟":9910,"툠":9911,"툡":9912,"툢":9913,"툣":9914,"툤":9915,"툥":9916,"툦":9917,"툧":9918,"툨":9919,"툩":9920,"툪":9921,"툫":9922,"투":9923,"툭":9924,"툮":9925,"툯":9926,"툰":9927,"툱":9928,"툲":9929,"툳":9930,"툴":9931,"툵":9932,"툶":9933,"툷":9934,"툸":9935,"툹":9936,"툺":9937,"툻":9938,"툼":9939,"툽":9940,"툾":9941,"툿":9942,"퉀":9943,"퉁":9944,"퉂":9945,"퉃":9946,"퉄":9947,"퉅":9948,"퉆":9949,"퉇":9950,"퉈":9951,"퉉":9952,"퉊":9953,"퉋":9954,"퉌":9955,"퉍":9956,"퉎":9957,"퉏":9958,"퉐":9959,"퉑":9960,"퉒":9961,"퉓":9962,"퉔":9963,"퉕":9964,"퉖":9965,"퉗":9966,"퉘":9967,"퉙":9968,"퉚":9969,"퉛":9970,"퉜":9971,"퉝":9972,"퉞":9973,"퉟":9974,"퉠":9975,"퉡":9976,"퉢":9977,"퉣":9978,"퉤":9979,"퉥":9980,"퉦":9981,"퉧":9982,"퉨":9983,"퉩":9984,"퉪":9985,"퉫":9986,"퉬":9987,"퉭":9988,"퉮":9989,"퉯":9990,"퉰":9991,"퉱":9992,"퉲":9993,"퉳":9994,"퉴":9995,"퉵":9996,"퉶":9997,"퉷":9998,"퉸":9999,"퉹":10000,"퉺":10001,"퉻":10002,"퉼":10003,"퉽":10004,"퉾":10005,"퉿":10006,"튀":10007,"튁":10008,"튂":10009,"튃":10010,"튄":10011,"튅":10012,"튆":10013,"튇":10014,"튈":10015,"튉":10016,"튊":10017,"튋":10018,"튌":10019,"튍":10020,"튎":10021,"튏":10022,"튐":10023,"튑":10024,"튒":10025,"튓":10026,"튔":10027,"튕":10028,"튖":10029,"튗":10030,"튘":10031,"튙":10032,"튚":10033,"튛":10034,"튜":10035,"튝":10036,"튞":10037,"튟":10038,"튠":10039,"튡":10040,"튢":10041,"튣":10042,"튤":10043,"튥":10044,"튦":10045,"튧":10046,"튨":10047,"튩":10048,"튪":10049,"튫":10050,"튬":10051,"튭":10052,"튮":10053,"튯":10054,"튰":10055,"튱":10056,"튲":10057,"튳":10058,"튴":10059,"튵":10060,"튶":10061,"튷":10062,"트":10063,"특":10064,"튺":10065,"튻":10066,"튼":10067,"튽":10068,"튾":10069,"튿":10070,"틀":10071,"틁":10072,"틂":10073,"틃":10074,"틄":10075,"틅":10076,"틆":10077,"틇":10078,"틈":10079,"틉":10080,"틊":10081,"틋":10082,"틌":10083,"틍":10084,"틎":10085,"틏":10086,"틐":10087,"틑":10088,"틒":10089,"틓":10090,"틔":10091,"틕":10092,"틖":10093,"틗":10094,"틘":10095,"틙":10096,"틚":10097,"틛":10098,"틜":10099,"틝":10100,"틞":10101,"틟":10102,"틠":10103,"틡":10104,"틢":10105,"틣":10106,"틤":10107,"틥":10108,"틦":10109,"틧":10110,"틨":10111,"틩":10112,"틪":10113,"틫":10114,"틬":10115,"틭":10116,"틮":10117,"틯":10118,"티":10119,"틱":10120,"틲":10121,"틳":10122,"틴":10123,"틵":10124,"틶":10125,"틷":10126,"틸":10127,"틹":10128,"틺":10129,"틻":10130,"틼":10131,"틽":10132,"틾":10133,"틿":10134,"팀":10135,"팁":10136,"팂":10137,"팃":10138,"팄":10139,"팅":10140,"팆":10141,"팇":10142,"팈":10143,"팉":10144,"팊":10145,"팋":10146,"파":10147,"팍":10148,"팎":10149,"팏":10150,"판":10151,"팑":10152,"팒":10153,"팓":10154,"팔":10155,"팕":10156,"팖":10157,"팗":10158,"팘":10159,"팙":10160,"팚":10161,"팛":10162,"팜":10163,"팝":10164,"팞":10165,"팟":10166,"팠":10167,"팡":10168,"팢":10169,"팣":10170,"팤":10171,"팥":10172,"팦":10173,"팧":10174,"패":10175,"팩":10176,"팪":10177,"팫":10178,"팬":10179,"팭":10180,"팮":10181,"팯":10182,"팰":10183,"팱":10184,"팲":10185,"팳":10186,"팴":10187,"팵":10188,"팶":10189,"팷":10190,"팸":10191,"팹":10192,"팺":10193,"팻":10194,"팼":10195,"팽":10196,"팾":10197,"팿":10198,"퍀":10199,"퍁":10200,"퍂":10201,"퍃":10202,"퍄":10203,"퍅":10204,"퍆":10205,"퍇":10206,"퍈":10207,"퍉":10208,"퍊":10209,"퍋":10210,"퍌":10211,"퍍":10212,"퍎":10213,"퍏":10214,"퍐":10215,"퍑":10216,"퍒":10217,"퍓":10218,"퍔":10219,"퍕":10220,"퍖":10221,"퍗":10222,"퍘":10223,"퍙":10224,"퍚":10225,"퍛":10226,"퍜":10227,"퍝":10228,"퍞":10229,"퍟":10230,"퍠":10231,"퍡":10232,"퍢":10233,"퍣":10234,"퍤":10235,"퍥":10236,"퍦":10237,"퍧":10238,"퍨":10239,"퍩":10240,"퍪":10241,"퍫":10242,"퍬":10243,"퍭":10244,"퍮":10245,"퍯":10246,"퍰":10247,"퍱":10248,"퍲":10249,"퍳":10250,"퍴":10251,"퍵":10252,"퍶":10253,"퍷":10254,"퍸":10255,"퍹":10256,"퍺":10257,"퍻":10258,"퍼":10259,"퍽":10260,"퍾":10261,"퍿":10262,"펀":10263,"펁":10264,"펂":10265,"펃":10266,"펄":10267,"펅":10268,"펆":10269,"펇":10270,"펈":10271,"펉":10272,"펊":10273,"펋":10274,"펌":10275,"펍":10276,"펎":10277,"펏":10278,"펐":10279,"펑":10280,"펒":10281,"펓":10282,"펔":10283,"펕":10284,"펖":10285,"펗":10286,"페":10287,"펙":10288,"펚":10289,"펛":10290,"펜":10291,"펝":10292,"펞":10293,"펟":10294,"펠":10295,"펡":10296,"펢":10297,"펣":10298,"펤":10299,"펥":10300,"펦":10301,"펧":10302,"펨":10303,"펩":10304,"펪":10305,"펫":10306,"펬":10307,"펭":10308,"펮":10309,"펯":10310,"펰":10311,"펱":10312,"펲":10313,"펳":10314,"펴":10315,"펵":10316,"펶":10317,"펷":10318,"편":10319,"펹":10320,"펺":10321,"펻":10322,"펼":10323,"펽":10324,"펾":10325,"펿":10326,"폀":10327,"폁":10328,"폂":10329,"폃":10330,"폄":10331,"폅":10332,"폆":10333,"폇":10334,"폈":10335,"평":10336,"폊":10337,"폋":10338,"폌":10339,"폍":10340,"폎":10341,"폏":10342,"폐":10343,"폑":10344,"폒":10345,"폓":10346,"폔":10347,"폕":10348,"폖":10349,"폗":10350,"폘":10351,"폙":10352,"폚":10353,"폛":10354,"폜":10355,"폝":10356,"폞":10357,"폟":10358,"폠":10359,"폡":10360,"폢":10361,"폣":10362,"폤":10363,"폥":10364,"폦":10365,"폧":10366,"폨":10367,"폩":10368,"폪":10369,"폫":10370,"포":10371,"폭":10372,"폮":10373,"폯":10374,"폰":10375,"폱":10376,"폲":10377,"폳":10378,"폴":10379,"폵":10380,"폶":10381,"폷":10382,"폸":10383,"폹":10384,"폺":10385,"폻":10386,"폼":10387,"폽":10388,"폾":10389,"폿":10390,"퐀":10391,"퐁":10392,"퐂":10393,"퐃":10394,"퐄":10395,"퐅":10396,"퐆":10397,"퐇":10398,"퐈":10399,"퐉":10400,"퐊":10401,"퐋":10402,"퐌":10403,"퐍":10404,"퐎":10405,"퐏":10406,"퐐":10407,"퐑":10408,"퐒":10409,"퐓":10410,"퐔":10411,"퐕":10412,"퐖":10413,"퐗":10414,"퐘":10415,"퐙":10416,"퐚":10417,"퐛":10418,"퐜":10419,"퐝":10420,"퐞":10421,"퐟":10422,"퐠":10423,"퐡":10424,"퐢":10425,"퐣":10426,"퐤":10427,"퐥":10428,"퐦":10429,"퐧":10430,"퐨":10431,"퐩":10432,"퐪":10433,"퐫":10434,"퐬":10435,"퐭":10436,"퐮":10437,"퐯":10438,"퐰":10439,"퐱":10440,"퐲":10441,"퐳":10442,"퐴":10443,"퐵":10444,"퐶":10445,"퐷":10446,"퐸":10447,"퐹":10448,"퐺":10449,"퐻":10450,"퐼":10451,"퐽":10452,"퐾":10453,"퐿":10454,"푀":10455,"푁":10456,"푂":10457,"푃":10458,"푄":10459,"푅":10460,"푆":10461,"푇":10462,"푈":10463,"푉":10464,"푊":10465,"푋":10466,"푌":10467,"푍":10468,"푎":10469,"푏":10470,"푐":10471,"푑":10472,"푒":10473,"푓":10474,"푔":10475,"푕":10476,"푖":10477,"푗":10478,"푘":10479,"푙":10480,"푚":10481,"푛":10482,"표":10483,"푝":10484,"푞":10485,"푟":10486,"푠":10487,"푡":10488,"푢":10489,"푣":10490,"푤":10491,"푥":10492,"푦":10493,"푧":10494,"푨":10495,"푩":10496,"푪":10497,"푫":10498,"푬":10499,"푭":10500,"푮":10501,"푯":10502,"푰":10503,"푱":10504,"푲":10505,"푳":10506,"푴":10507,"푵":10508,"푶":10509,"푷":10510,"푸":10511,"푹":10512,"푺":10513,"푻":10514,"푼":10515,"푽":10516,"푾":10517,"푿":10518,"풀":10519,"풁":10520,"풂":10521,"풃":10522,"풄":10523,"풅":10524,"풆":10525,"풇":10526,"품":10527,"풉":10528,"풊":10529,"풋":10530,"풌":10531,"풍":10532,"풎":10533,"풏":10534,"풐":10535,"풑":10536,"풒":10537,"풓":10538,"풔":10539,"풕":10540,"풖":10541,"풗":10542,"풘":10543,"풙":10544,"풚":10545,"풛":10546,"풜":10547,"풝":10548,"풞":10549,"풟":10550,"풠":10551,"풡":10552,"풢":10553,"풣":10554,"풤":10555,"풥":10556,"풦":10557,"풧":10558,"풨":10559,"풩":10560,"풪":10561,"풫":10562,"풬":10563,"풭":10564,"풮":10565,"풯":10566,"풰":10567,"풱":10568,"풲":10569,"풳":10570,"풴":10571,"풵":10572,"풶":10573,"풷":10574,"풸":10575,"풹":10576,"풺":10577,"풻":10578,"풼":10579,"풽":10580,"풾":10581,"풿":10582,"퓀":10583,"퓁":10584,"퓂":10585,"퓃":10586,"퓄":10587,"퓅":10588,"퓆":10589,"퓇":10590,"퓈":10591,"퓉":10592,"퓊":10593,"퓋":10594,"퓌":10595,"퓍":10596,"퓎":10597,"퓏":10598,"퓐":10599,"퓑":10600,"퓒":10601,"퓓":10602,"퓔":10603,"퓕":10604,"퓖":10605,"퓗":10606,"퓘":10607,"퓙":10608,"퓚":10609,"퓛":10610,"퓜":10611,"퓝":10612,"퓞":10613,"퓟":10614,"퓠":10615,"퓡":10616,"퓢":10617,"퓣":10618,"퓤":10619,"퓥":10620,"퓦":10621,"퓧":10622,"퓨":10623,"퓩":10624,"퓪":10625,"퓫":10626,"퓬":10627,"퓭":10628,"퓮":10629,"퓯":10630,"퓰":10631,"퓱":10632,"퓲":10633,"퓳":10634,"퓴":10635,"퓵":10636,"퓶":10637,"퓷":10638,"퓸":10639,"퓹":10640,"퓺":10641,"퓻":10642,"퓼":10643,"퓽":10644,"퓾":10645,"퓿":10646,"픀":10647,"픁":10648,"픂":10649,"픃":10650,"프":10651,"픅":10652,"픆":10653,"픇":10654,"픈":10655,"픉":10656,"픊":10657,"픋":10658,"플":10659,"픍":10660,"픎":10661,"픏":10662,"픐":10663,"픑":10664,"픒":10665,"픓":10666,"픔":10667,"픕":10668,"픖":10669,"픗":10670,"픘":10671,"픙":10672,"픚":10673,"픛":10674,"픜":10675,"픝":10676,"픞":10677,"픟":10678,"픠":10679,"픡":10680,"픢":10681,"픣":10682,"픤":10683,"픥":10684,"픦":10685,"픧":10686,"픨":10687,"픩":10688,"픪":10689,"픫":10690,"픬":10691,"픭":10692,"픮":10693,"픯":10694,"픰":10695,"픱":10696,"픲":10697,"픳":10698,"픴":10699,"픵":10700,"픶":10701,"픷":10702,"픸":10703,"픹":10704,"픺":10705,"픻":10706,"피":10707,"픽":10708,"픾":10709,"픿":10710,"핀":10711,"핁":10712,"핂":10713,"핃":10714,"필":10715,"핅":10716,"핆":10717,"핇":10718,"핈":10719,"핉":10720,"핊":10721,"핋":10722,"핌":10723,"핍":10724,"핎":10725,"핏":10726,"핐":10727,"핑":10728,"핒":10729,"핓":10730,"핔":10731,"핕":10732,"핖":10733,"핗":10734,"하":10735,"학":10736,"핚":10737,"핛":10738,"한":10739,"핝":10740,"핞":10741,"핟":10742,"할":10743,"핡":10744,"핢":10745,"핣":10746,"핤":10747,"핥":10748,"핦":10749,"핧":10750,"함":10751,"합":10752,"핪":10753,"핫":10754,"핬":10755,"항":10756,"핮":10757,"핯":10758,"핰":10759,"핱":10760,"핲":10761,"핳":10762,"해":10763,"핵":10764,"핶":10765,"핷":10766,"핸":10767,"핹":10768,"핺":10769,"핻":10770,"핼":10771,"핽":10772,"핾":10773,"핿":10774,"햀":10775,"햁":10776,"햂":10777,"햃":10778,"햄":10779,"햅":10780,"햆":10781,"햇":10782,"했":10783,"행":10784,"햊":10785,"햋":10786,"햌":10787,"햍":10788,"햎":10789,"햏":10790,"햐":10791,"햑":10792,"햒":10793,"햓":10794,"햔":10795,"햕":10796,"햖":10797,"햗":10798,"햘":10799,"햙":10800,"햚":10801,"햛":10802,"햜":10803,"햝":10804,"햞":10805,"햟":10806,"햠":10807,"햡":10808,"햢":10809,"햣":10810,"햤":10811,"향":10812,"햦":10813,"햧":10814,"햨":10815,"햩":10816,"햪":10817,"햫":10818,"햬":10819,"햭":10820,"햮":10821,"햯":10822,"햰":10823,"햱":10824,"햲":10825,"햳":10826,"햴":10827,"햵":10828,"햶":10829,"햷":10830,"햸":10831,"햹":10832,"햺":10833,"햻":10834,"햼":10835,"햽":10836,"햾":10837,"햿":10838,"헀":10839,"헁":10840,"헂":10841,"헃":10842,"헄":10843,"헅":10844,"헆":10845,"헇":10846,"허":10847,"헉":10848,"헊":10849,"헋":10850,"헌":10851,"헍":10852,"헎":10853,"헏":10854,"헐":10855,"헑":10856,"헒":10857,"헓":10858,"헔":10859,"헕":10860,"헖":10861,"헗":10862,"험":10863,"헙":10864,"헚":10865,"헛":10866,"헜":10867,"헝":10868,"헞":10869,"헟":10870,"헠":10871,"헡":10872,"헢":10873,"헣":10874,"헤":10875,"헥":10876,"헦":10877,"헧":10878,"헨":10879,"헩":10880,"헪":10881,"헫":10882,"헬":10883,"헭":10884,"헮":10885,"헯":10886,"헰":10887,"헱":10888,"헲":10889,"헳":10890,"헴":10891,"헵":10892,"헶":10893,"헷":10894,"헸":10895,"헹":10896,"헺":10897,"헻":10898,"헼":10899,"헽":10900,"헾":10901,"헿":10902,"혀":10903,"혁":10904,"혂":10905,"혃":10906,"현":10907,"혅":10908,"혆":10909,"혇":10910,"혈":10911,"혉":10912,"혊":10913,"혋":10914,"혌":10915,"혍":10916,"혎":10917,"혏":10918,"혐":10919,"협":10920,"혒":10921,"혓":10922,"혔":10923,"형":10924,"혖":10925,"혗":10926,"혘":10927,"혙":10928,"혚":10929,"혛":10930,"혜":10931,"혝":10932,"혞":10933,"혟":10934,"혠":10935,"혡":10936,"혢":10937,"혣":10938,"혤":10939,"혥":10940,"혦":10941,"혧":10942,"혨":10943,"혩":10944,"혪":10945,"혫":10946,"혬":10947,"혭":10948,"혮":10949,"혯":10950,"혰":10951,"혱":10952,"혲":10953,"혳":10954,"혴":10955,"혵":10956,"혶":10957,"혷":10958,"호":10959,"혹":10960,"혺":10961,"혻":10962,"혼":10963,"혽":10964,"혾":10965,"혿":10966,"홀":10967,"홁":10968,"홂":10969,"홃":10970,"홄":10971,"홅":10972,"홆":10973,"홇":10974,"홈":10975,"홉":10976,"홊":10977,"홋":10978,"홌":10979,"홍":10980,"홎":10981,"홏":10982,"홐":10983,"홑":10984,"홒":10985,"홓":10986,"화":10987,"확":10988,"홖":10989,"홗":10990,"환":10991,"홙":10992,"홚":10993,"홛":10994,"활":10995,"홝":10996,"홞":10997,"홟":10998,"홠":10999,"홡":11000,"홢":11001,"홣":11002,"홤":11003,"홥":11004,"홦":11005,"홧":11006,"홨":11007,"황":11008,"홪":11009,"홫":11010,"홬":11011,"홭":11012,"홮":11013,"홯":11014,"홰":11015,"홱":11016,"홲":11017,"홳":11018,"홴":11019,"홵":11020,"홶":11021,"홷":11022,"홸":11023,"홹":11024,"홺":11025,"홻":11026,"홼":11027,"홽":11028,"홾":11029,"홿":11030,"횀":11031,"횁":11032,"횂":11033,"횃":11034,"횄":11035,"횅":11036,"횆":11037,"횇":11038,"횈":11039,"횉":11040,"횊":11041,"횋":11042,"회":11043,"획":11044,"횎":11045,"횏":11046,"횐":11047,"횑":11048,"횒":11049,"횓":11050,"횔":11051,"횕":11052,"횖":11053,"횗":11054,"횘":11055,"횙":11056,"횚":11057,"횛":11058,"횜":11059,"횝":11060,"횞":11061,"횟":11062,"횠":11063,"횡":11064,"횢":11065,"횣":11066,"횤":11067,"횥":11068,"횦":11069,"횧":11070,"효":11071,"횩":11072,"횪":11073,"횫":11074,"횬":11075,"횭":11076,"횮":11077,"횯":11078,"횰":11079,"횱":11080,"횲":11081,"횳":11082,"횴":11083,"횵":11084,"횶":11085,"횷":11086,"횸":11087,"횹":11088,"횺":11089,"횻":11090,"횼":11091,"횽":11092,"횾":11093,"횿":11094,"훀":11095,"훁":11096,"훂":11097,"훃":11098,"후":11099,"훅":11100,"훆":11101,"훇":11102,"훈":11103,"훉":11104,"훊":11105,"훋":11106,"훌":11107,"훍":11108,"훎":11109,"훏":11110,"훐":11111,"훑":11112,"훒":11113,"훓":11114,"훔":11115,"훕":11116,"훖":11117,"훗":11118,"훘":11119,"훙":11120,"훚":11121,"훛":11122,"훜":11123,"훝":11124,"훞":11125,"훟":11126,"훠":11127,"훡":11128,"훢":11129,"훣":11130,"훤":11131,"훥":11132,"훦":11133,"훧":11134,"훨":11135,"훩":11136,"훪":11137,"훫":11138,"훬":11139,"훭":11140,"훮":11141,"훯":11142,"훰":11143,"훱":11144,"훲":11145,"훳":11146,"훴":11147,"훵":11148,"훶":11149,"훷":11150,"훸":11151,"훹":11152,"훺":11153,"훻":11154,"훼":11155,"훽":11156,"훾":11157,"훿":11158,"휀":11159,"휁":11160,"휂":11161,"휃":11162,"휄":11163,"휅":11164,"휆":11165,"휇":11166,"휈":11167,"휉":11168,"휊":11169,"휋":11170,"휌":11171,"휍":11172,"휎":11173,"휏":11174,"휐":11175,"휑":11176,"휒":11177,"휓":11178,"휔":11179,"휕":11180,"휖":11181,"휗":11182,"휘":11183,"휙":11184,"휚":11185,"휛":11186,"휜":11187,"휝":11188,"휞":11189,"휟":11190,"휠":11191,"휡":11192,"휢":11193,"휣":11194,"휤":11195,"휥":11196,"휦":11197,"휧":11198,"휨":11199,"휩":11200,"휪":11201,"휫":11202,"휬":11203,"휭":11204,"휮":11205,"휯":11206,"휰":11207,"휱":11208,"휲":11209,"휳":11210,"휴":11211,"휵":11212,"휶":11213,"휷":11214,"휸":11215,"휹":11216,"휺":11217,"휻":11218,"휼":11219,"휽":11220,"휾":11221,"휿":11222,"흀":11223,"흁":11224,"흂":11225,"흃":11226,"흄":11227,"흅":11228,"흆":11229,"흇":11230,"흈":11231,"흉":11232,"흊":11233,"흋":11234,"흌":11235,"흍":11236,"흎":11237,"흏":11238,"흐":11239,"흑":11240,"흒":11241,"흓":11242,"흔":11243,"흕":11244,"흖":11245,"흗":11246,"흘":11247,"흙":11248,"흚":11249,"흛":11250,"흜":11251,"흝":11252,"흞":11253,"흟":11254,"흠":11255,"흡":11256,"흢":11257,"흣":11258,"흤":11259,"흥":11260,"흦":11261,"흧":11262,"흨":11263,"흩":11264,"흪":11265,"흫":11266,"희":11267,"흭":11268,"흮":11269,"흯":11270,"흰":11271,"흱":11272,"흲":11273,"흳":11274,"흴":11275,"흵":11276,"흶":11277,"흷":11278,"흸":11279,"흹":11280,"흺":11281,"흻":11282,"흼":11283,"흽":11284,"흾":11285,"흿":11286,"힀":11287,"힁":11288,"힂":11289,"힃":11290,"힄":11291,"힅":11292,"힆":11293,"힇":11294,"히":11295,"힉":11296,"힊":11297,"힋":11298,"힌":11299,"힍":11300,"힎":11301,"힏":11302,"힐":11303,"힑":11304,"힒":11305,"힓":11306,"힔":11307,"힕":11308,"힖":11309,"힗":11310,"힘":11311,"힙":11312,"힚":11313,"힛":11314,"힜":11315,"힝":11316,"힞":11317,"힟":11318,"힠":11319,"힡":11320,"힢":11321,"힣":11322,"##위":11323,"##군":11324,"##의":11325,"##성":11326,"##청":11327,"##송":11328,"##영":11329,"##덕":11330,"##은":11331,"##R":11332,"##G":11333,"##O":11334,"##S":11335,"##근":11336,"##했":11337,"##는":11338,"##데":11339,"##도":11340,"##l":11341,"##!":11342,"##크":11343,"##바":11344,"##르":11345,"##트":11346,"##마":11347,"##목":11348,"##으":11349,"##로":11350,"##부":11351,"##터":11352,"##a":11353,"##y":11354,"##리":11355,"##클":11356,"##럽":11357,"##완":11358,"##?":11359,"##프":11360,"##약":11361,"##손":11362,"##V":11363,"##:":11364,"##칸":11365,"##자":11366,"##키":11367,"##아":11368,"##졌":11369,"##을":11370,"##뿐":11371,"##더":11372,"##러":11373,"##소":11374,"##고":11375,"##코":11376,"##치":11377,"##와":11378,"##다":11379,"##.":11380,"##\"":11381,"##인":11382,"##라":11383,"##겐":11384,"##만":11385,"##재":11386,"##'":11387,"##태":11388,"##m":11389,"##e":11390,"##-":11391,"##F":11392,"##블":11393,"##랙":11394,"##그":11395,"##린":11396,"##하":11397,"##지":11398,"##민":11399,"##,":11400,"##해":11401,"##서":11402,"##요":11403,"##당":11404,"##장":11405,"##관":11406,"##캘":11407,"##스":11408,"##족":11409,"##들":11410,"##까":11411,"##1":11412,"##0":11413,"##달":11414,"##였":11415,"##플":11416,"##싸":11417,"##움":11418,"##엔":11419,"##국":11420,"##사":11421,"##람":11422,"##이":11423,"##5":11424,"##4":11425,"##6":11426,"##임":11427,"##되":11428,"##기":11429,"##갑":11430,"##집":11431,"##단":11432,"##행":11433,"##계":11434,"##력":11435,"##챔":11436,"##에":11437,"##본":11438,"##법":11439,"##칙":11440,"##슐":11441,"##듀":11442,"##역":11443,"##화":11444,"##렁":11445,"##큰":11446,"##타":11447,"##거":11448,"##카":11449,"##니":11450,"##우":11451,"##육":11452,"##맨":11453,"##v":11454,"##s":11455,"##수":11456,"##정":11457,"##9":11458,"##3":11459,"##7":11460,"##압":11461,"##왔":11462,"##8":11463,"##내":11464,"##꺼":11465,"##야":11466,"##줄":11467,"##째":11468,"##합":11469,"##봤":11470,"##나":11471,"##콰":11472,"##쌀":11473,"##쥐":11474,"##렐":11475,"##레":11476,"##섬":11477,"##벨":11478,"##생":11479,"##각":11480,"##면":11481,"##질":11482,"##병":11483,"##통":11484,"##쯤":11485,"##료":11486,"##동":11487,"##학":11488,"##제":11489,"##침":11490,"##꼬":11491,"##맹":11492,"##냐":11493,"##t":11494,"##2":11495,"##무":11496,"##혁":11497,"##었":11498,"##주":11499,"##진":11500,"##패":11501,"##뷸":11502,"##(":11503,"##)":11504,"##일":11505,"##룹":11506,"##젝":11507,"##닉":11508,"##개":11509,"##랑":11510,"##뭐":11511,"##길":11512,"##래":11513,"##미":11514,"##K":11515,"##Y":11516,"##M":11517,"##과":11518,"##량":11519,"##대":11520,"##L":11521,"##&":11522,"##p":11523,"##;":11524,"##C":11525,"##o":11526,"##r":11527,"##d":11528,"##저":11529,"##든":11530,"##가":11531,"##파":11532,"##란":11533,"##녀":11534,"##온":11535,"##탄":11536,"##채":11537,"##시":11538,"##랐":11539,"##받":11540,"##번":11541,"##연":11542,"##즈":11543,"##짓":11544,"##핵":11545,"##+":11546,"##려":11547,"##킬":11548,"##A":11549,"##E":11550,"##B":11551,"##]":11552,"##j":11553,"##g":11554,"##듯":11555,"##티":11556,"##%":11557,"##~":11558,"##앗":11559,"##캥":11560,"##답":11561,"##게":11562,"##님":11563,"##놀":11564,"##획":11565,"##득":11566,"##률":11567,"##년":11568,"##보":11569,"##호":11570,"##조":11571,"##건":11572,"##중":11573,"##드":11574,"##런":11575,"##교":11576,"##식":11577,"##구":11578,"##토":11579,"##한":11580,"##전":11581,"##산":11582,"##회":11583,"##상":11584,"##누":11585,"##찰":11586,"##점":11587,"##매":11588,"##석":11589,"##명":11590,"##P":11591,"##=":11592,"##닥":11593,"##있":11594,"##디":11595,"##말":11596,"##원":11597,"##H":11598,"##품":11599,"##털":11600,"##X":11601,"##U":11602,"##먹":11603,"##겠":11604,"##어":11605,"##형":11606,"##업":11607,"##써":11608,"##비":11609,"##처":11610,"##선":11611,"##복":11612,"##편":11613,"##n":11614,"##옥":11615,"##심":11616,"##규":11617,"##/":11618,"##음":11619,"##반":11620,"##암":11621,"##캐":11622,"##름":11623,"##괴":11624,"##던":11625,"##혜":11626,"##때":11627,"##궁":11628,"##를":11629,"##억":11630,"##짤":11631,"##께":11632,"##워":11633,"##적":11634,"##x":11635,"##i":11636,"##N":11637,"##T":11638,"##J":11639,"##오":11640,"##c":11641,"##k":11642,"##u":11643,"##피":11644,"##붕":11645,"##며":11646,"##쥬":11647,"##얼":11648,"##쉰":11649,"##브":11650,"##왕":11651,"##캠":11652,"##퍼":11653,"##술":11654,"##록":11655,"##유":11656,"##흡":11657,"##슴":11658,"##체":11659,"##세":11660,"##른":11661,"##츄":11662,"##빨":11663,"##슨":11664,"##골":11665,"##차":11666,"##모":11667,"##빌":11668,"##풍":11669,"##W":11670,"##물":11671,"##양":11672,"##앤":11673,"##실":11674,"##쓰":11675,"##작":11676,"##독":11677,"##운":11678,"##럼":11679,"##느":11680,"##꿔":11681,"##입":11682,"##속":11683,"##간":11684,"##착":11685,"##쳐":11686,"##줬":11687,"##걸":11688,"##I":11689,"##준":11690,"##테":11691,"##후":11692,"##종":11693,"##환":11694,"##밥":11695,"##신":11696,"##증":11697,"##읍":11698,"##꿀":11699,"##봇":11700,"##쿠":11701,"##분":11702,"##윤":11703,"##강":11704,"##김":11705,"##철":11706,"##w":11707,"##윌":11708,"##백":11709,"##h":11710,"##같":11711,"##씨":11712,"##등":11713,"##난":11714,"##열":11715,"##쇠":11716,"##쁜":11717,"##색":11718,"##감":11719,"##판":11720,"##여":11721,"##페":11722,"##D":11723,"##숨":11724,"##꼭":11725,"##론":11726,"##공":11727,"##애":11728,"##경":11729,"##직":11730,"##웤":11731,"##권":11732,"##룰":11733,"##퐁":11734,"##승":11735,"##희":11736,"##능":11737,"##션":11738,"##출":11739,"##항":11740,"##활":11741,"##평":11742,"##익":11743,"##곱":11744,"##므":11745,"##슬":11746,"##것":11747,"##특":11748,"##웠":11749,"##납":11750,"##알":11751,"##버":11752,"##퀵":11753,"##루":11754,"##메":11755,"##b":11756,"##>":11757,"##머":11758,"##렸":11759,"##튀":11760,"##충":11761,"##격":11762,"##젤":11763,"##외":11764,"##문":11765,"##표":11766,"##[":11767,"##괄":11768,"##닛":11769,"##발":11770,"##례":11771,"##령":11772,"##최":11773,"##앙":11774,"##램":11775,"##팀":11776,"##검":11777,"##담":11778,"##숀":11779,"##창":11780,"##천":11781,"##팔":11782,"##절":11783,"##쪽":11784,"##롤":11785,"##잔":11786,"##현":11787,"##날":11788,"##노":11789,"##응":11790,"##홀":11791,"##z":11792,"##용":11793,"##컷":11794,"##맥":11795,"##벌":11796,"##빈":11797,"##칭":11798,"##Z":11799,"##포":11800,"##월":11801,"##몸":11802,"##갔":11803,"##커":11804,"##몰":11805,"##렌":11806,"##설":11807,"##긴":11808,"##네":11809,"##혼":11810,"##초":11811,"##랄":11812,"##텍":11813,"##순":11814,"##뜰":11815,"##톰":11816,"##륜":11817,"##죽":11818,"##안":11819,"##급":11820,"##남":11821,"##베":11822,"##팩":11823,"##q":11824,"##너":11825,"##울":11826,"##협":11827,"##링":11828,"##묘":11829,"##악":11830,"##윗":11831,"##앨":11832,"##범":11833,"##곡":11834,"##류":11835,"##배":11836,"##할":11837,"##옷":11838,"##혐":11839,"##봐":11840,"##허":11841,"##뼈":11842,"##콜":11843,"##홈":11844,"##줘":11845,"##케":11846,"##쟁":11847,"##별":11848,"##된":11849,"##잉":11850,"##살":11851,"##렉":11852,"##_":11853,"##눠":11854,"##방":11855,"##극":11856,"##참":11857,"##<":11858,"##림":11859,"##곁":11860,"##닷":11861,"##컴":11862,"##f":11863,"##뤄":11864,"###":11865,"##쁘":11866,"##져":11867,"##빠":11868,"##셨":11869,"##험":11870,"##럿":11871,"##벅":11872,"##틀":11873,"##릿":11874,"##잠":11875,"##헬":11876,"##글":11877,"##늪":11878,"##켜":11879,"##귀":11880,"##불":11881,"##릉":11882,"##액":11883,"##횡":11884,"##즌":11885,"##텔":11886,"##ㅣ":11887,"##ㅊ":11888,"##예":11889,"##뉴":11890,"##렵":11891,"##넘":11892,"##꽃":11893,"##결":11894,"##언":11895,"##박":11896,"##섹":11897,"##효":11898,"##닝":11899,"##투":11900,"##센":11901,"##광":11902,"##탐":11903,"##측":11904,"##웃":11905,"##싱":11906,"##킨":11907,"##듣":11908,"##롱":11909,"##춘":11910,"##굴":11911,"##켰":11912,"##책":11913,"##탕":11914,"##닌":11915,"##변":11916,"##둥":11917,"##잡":11918,"##쿄":11919,"##롬":11920,"##념":11921,"##꼴":11922,"##립":11923,"##텐":11924,"##봉":11925,"##두":11926,"##택":11927,"##웅":11928,"##습":11929,"##돌":11930,"##퇴":11931,"##턴":11932,"##히":11933,"##훈":11934,"##락":11935,"##곤":11936,"##찮":11937,"##릴":11938,"##칼":11939,"##넷":11940,"##컨":11941,"##츠":11942,"##밖":11943,"##추":11944,"##옴":11945,"##축":11946,"##섭":11947,"##곰":11948,"##널":11949,"##층":11950,"##퀀":11951,"##놓":11952,"##았":11953,"##딘":11954,"##샨":11955,"##찬":11956,"##짚":11957,"##뜨":11958,"##못":11959,"##볼":11960,"##벚":11961,"##황":11962,"##륨":11963,"##접":11964,"##막":11965,"##꺽":11966,"##델":11967,"##슈":11968,"##짐":11969,"##윕":11970,"##킹":11971,"##몬":11972,"##뻔":11973,"##금":11974,"##폭":11975,"##총":11976,"##흐":11977,"##빴":11978,"##`":11979,"##ㄹ":11980,"##썩":11981,"##쿨":11982,"##둔":11983,"##맷":11984,"##큐":11985,"##값":11986,"##찌":11987,"##쌍":11988,"##옐":11989,"##뚝":11990,"##멸":11991,"##필":11992,"##셔":11993,"##뢰":11994,"##랭":11995,"##벽":11996,"##쯔":11997,"##콘":11998,"##듐":11999,"##쇄":12000,"##콩":12001,"##늘":12002,"##십":12003,"##혀":12004,"##컬":12005,"##놉":12006,"##객":12007,"##펠":12008,"##죠":12009,"##큼":12010,"##흥":12011,"##짬":12012,"##않":12013,"##펜":12014,"##맞":12015,"##엘":12016,"##놔":12017,"##냥":12018,"##껍":12019,"##촌":12020,"##렛":12021,"##뒀":12022,"##랜":12023,"##옌":12024,"##볍":12025,"##놨":12026,"##륙":12027,"##빵":12028,"##략":12029,"##둘":12030,"##헌":12031,"##탑":12032,"##혈":12033,"##넬":12034,"##됐":12035,"##핀":12036,"##짝":12037,"##졸":12038,"##넌":12039,"##팬":12040,"##픽":12041,"##랏":12042,"##밀":12043,"##륭":12044,"##함":12045,"##탁":12046,"##셀":12047,"##챠":12048,"##밍":12049,"##친":12050,"##논":12051,"##폼":12052,"##폰":12053,"##*":12054,"##징":12055,"##뇰":12056,"##몽":12057,"##갈":12058,"##북":12059,"##헨":12060,"##팅":12061,"##릭":12062,"##싼":12063,"##딩":12064,"##픔":12065,"##펀":12066,"##콤":12067,"##덴":12068,"##탈":12069,"##겨":12070,"##푸":12071,"##견":12072,"##즘":12073,"##새":12074,"##끼":12075,"##향":12076,"##먼":12077,"##엠":12078,"##셈":12079,"##앵":12080,"##윈":12081,"##웨":12082,"##찔":12083,"##엽":12084,"##랫":12085,"##쇼":12086,"##윙":12087,"##쿼":12088,"##휴":12089,"##걷":12090,"##낸":12091,"##릇":12092,"##횟":12093,"##룡":12094,"##톱":12095,"##폴":12096,"##톤":12097,"##잽":12098,"##틱":12099,"##믹":12100,"##휠":12101,"##엑":12102,"##잴":12103,"##흔":12104,"##홍":12105,"##픈":12106,"##뮤":12107,"##믈":12108,"##멕":12109,"##농":12110,"##캉":12111,"##욱":12112,"##{":12113,"##}":12114,"##\\":12115,"##쉬":12116,"##랍":12117,"##렇":12118,"##겁":12119,"##힐":12120,"##템":12121,"##눈":12122,"##돈":12123,"##샹":12124,"##취":12125,"##퍽":12126,"##갤":12127,"##뿌":12128,"##펫":12129,"##망":12130,"##렙":12131,"##퀘":12132,"##탠":12133,"##ㅎ":12134,"##율":12135,"##첼":12136,"##존":12137,"##끔":12138,"##씩":12139,"##뮈":12140,"##벤":12141,"##엉":12142,"##숲":12143,"##첫":12144,"##뻤":12145,"##퀴":12146,"##밋":12147,"##뒤":12148,"##첨":12149,"##툴":12150,"##빅":12151,"##샵":12152,"##껴":12153,"##따":12154,"##폐":12155,"##빛":12156,"##짜":12157,"##톨":12158,"##혹":12159,"##욕":12160,"##둠":12161,"##펍":12162,"##뇌":12163,"##헤":12164,"##륵":12165,"##힛":12166,"##겹":12167,"##룩":12168,"##돼":12169,"##봄":12170,"##럭":12171,"##핸":12172,"##삭":12173,"##겅":12174,"##녕":12175,"##낌":12176,"##힘":12177,"##롯":12178,"##켓":12179,"##잊":12180,"##삼":12181,"##균":12182,"##굽":12183,"##팸":12184,"##텀":12185,"##튼":12186,"##닫":12187,"##넨":12188,"##샤":12189,"##끄":12190,"##샌":12191,"##멤":12192,"##녹":12193,"##셰":12194,"##련":12195,"##첩":12196,"##셋":12197,"##엄":12198,"##쫓":12199,"##쳤":12200,"##씀":12201,"##탓":12202,"##옵":12203,"##뎅":12204,"##뜯":12205,"##훔":12206,"##딜":12207,"##잖":12208,"##딕":12209,"##젼":12210,"##올":12211,"##텁":12212,"##뮬":12213,"##좌":12214,"##빔":12215,"##끌":12216,"##훼":12217,"##될":12218,"##춰":12219,"##뎀":12220,"##앞":12221,"##릎":12222,"##랴":12223,"##늠":12224,"##풀":12225,"##칩":12226,"##뭉":12227,"##덱":12228,"##잘":12229,"##믄":12230,"##밭":12231,"##멧":12232,"##멍":12233,"##쫌":12234,"##확":12235,"##ㅝ":12236,"##ㅍ":12237,"##ㅠ":12238,"##땅":12239,"##짭":12240,"##렘":12241,"##쭉":12242,"##킵":12243,"##귄":12244,"##읔":12245,"##쌔":12246,"##붐":12247,"##뎌":12248,"##팟":12249,"##촉":12250,"##썬":12251,"##융":12252,"##럴":12253,"##맑":12254,"##멀":12255,"##쩌":12256,"##늬":12257,"##뷔":12258,"##깨":12259,"##맡":12260,"##척":12261,"##삐":12262,"##룽":12263,"##쁑":12264,"##엣":12265,"##웬":12266,"##갓":12267,"##틸":12268,"##틴":12269,"##뽀":12270,"##없":12271,"##쌓":12272,"##딤":12273,"##핍":12274,"##깔":12275,"##셉":12276,"##똥":12277,"##귤":12278,"##멜":12279,"##휘":12280,"##샘":12281,"##햤":12282,"##쫄":12283,"##꽥":12284,"##숙":12285,"##븐":12286,"##켈":12287,"##낼":12288,"##솔":12289,"##냈":12290,"##흑":12291,"##맵":12292,"##뷰":12293,"##룻":12294,"##랩":12295,"##옹":12296,"##녔":12297,"##^":12298,"##닐":12299,"##꾼":12300,"##샷":12301,"##밤":12302,"##핑":12303,"##큘":12304,"##웁":12305,"##칠":12306,"##곳":12307,"##찍":12308,"##렬":12309,"##궤":12310,"##꾹":12311,"##젬":12312,"##컵":12313,"##릅":12314,"##$":12315,"##밴":12316,"##췄":12317,"##싶":12318,"##렴":12319,"##ㅡ":12320,"##캡":12321,"##빗":12322,"##웰":12323,"##염":12324,"##떠":12325,"##춤":12326,"##댄":12327,"##붓":12328,"##또":12329,"##났":12330,"##빼":12331,"##딨":12332,"##슷":12333,"##왈":12334,"##넥":12335,"##탱":12336,"##챘":12337,"##겼":12338,"##딧":12339,"##툼":12340,"##슛":12341,"##겉":12342,"##궈":12343,"##쨩":12344,"##젯":12345,"##셍":12346,"##쿵":12347,"##롭":12348,"##쓸":12349,"##뿔":12350,"##뾰":12351,"##팽":12352,"##앍":12353,"##늦":12354,"##멩":12355,"##맛":12356,"##솜":12357,"##넛":12358,"##뮌":12359,"##펄":12360,"##룸":12361,"##Q":12362,"##챌":12363,"##잭":12364,"##넣":12365,"##짱":12366,"##쟈":12367,"##떄":12368,"##헉":12369,"##냄":12370,"##놈":12371,"##깐":12372,"##띠":12373,"##퓨":12374,"##깝":12375,"##좋":12376,"##벳":12377,"##ㅋ":12378,"##몇":12379,"##꿈":12380,"##킴":12381,"##붉":12382,"##긍":12383,"##죄":12384,"##잇":12385,"##숭":12386,"##짧":12387,"##낳":12388,"##낟":12389,"##꾀":12390,"##꿰":12391,"##뿡":12392,"##룬":12393,"##탤":12394,"##멘":12395,"##줌":12396,"##깽":12397,"##엎":12398,"##힌":12399,"##낙":12400,"##캔":12401,"##덩":12402,"##켐":12403,"##뽑":12404,"##첸":12405,"##싯":12406,"##깃":12407,"##뱅":12408,"##밸":12409,"##섀":12410,"##뻐":12411,"##떼":12412,"##혔":12413,"##흘":12414,"##뭔":12415,"##쓴":12416,"##칵":12417,"##랬":12418,"##녁":12419,"##끈":12420,"##튜":12421,"##킷":12422,"##냅":12423,"##좆":12424,"##몹":12425,"##떻":12426,"##닮":12427,"##뇨":12428,"##됨":12429,"##뒷":12430,"##즐":12431,"##깍":12432,"##섯":12433,"##묶":12434,"##ㅔ":12435,"##돔":12436,"##뗋":12437,"##뚫":12438,"##훑":12439,"##빙":12440,"##겸":12441,"##렀":12442,"##닭":12443,"##댐":12444,"##갖":12445,"##냉":12446,"##쩍":12447,"##쌈":12448,"##켄":12449,"##쿤":12450,"##됩":12451,"##킥":12452,"##댓":12453,"##펙":12454,"##댕":12455,"##늑":12456,"##쑤":12457,"##왜":12458,"##캣":12459,"##슭":12460,"##팜":12461,"##뚜":12462,"##뵑":12463,"##떳":12464,"##흙":12465,"##ㅅ":12466,"##듬":12467,"##뎐":12468,"##즉":12469,"##앱":12470,"##밧":12471,"##걱":12472,"##벙":12473,"##얄":12474,"##뚧":12475,"##떤":12476,"##붙":12477,"##쟤":12478,"##탯":12479,"##@":12480,"##팡":12481,"##렷":12482,"##딱":12483,"##뤼":12484,"##겜":12485,"##햄":12486,"##깊":12487,"##꾸":12488,"##훅":12489,"##엥":12490,"##숴":12491,"##됬":12492,"##삑":12493,"##덧":12494,"##샴":12495,"##덪":12496,"##썼":12497,"##잼":12498,"##갱":12499,"##쉴":12500,"##솥":12501,"##덮":12502,"##쿡":12503,"##랗":12504,"##찾":12505,"##녜":12506,"##챕":12507,"##펑":12508,"##젠":12509,"##툰":12510,"##짖":12511,"##ㅏ":12512,"##궐":12513,"##떡":12514,"##씌":12515,"##믿":12516,"##젖":12517,"##찻":12518,"##뭄":12519,"##뫼":12520,"##댔":12521,"##겔":12522,"##슘":12523,"##곽":12524,"##댈":12525,"##끗":12526,"##탬":12527,"##츳":12528,"##콧":12529,"##뀐":12530,"##쿱":12531,"##듭":12532,"##멋":12533,"##엿":12534,"##겟":12535,"##짠":12536,"##ㅀ":12537,"##띵":12538,"##꿍":12539,"##잎":12540,"##ㅁ":12541,"##ㄱ":12542,"##ㄴ":12543,"##맙":12544,"##겄":12545,"##턱":12546,"##핫":12547,"##좀":12548,"##|":12549,"##갰":12550,"##벼":12551,"##넙":12552,"##늄":12553,"##웜":12554,"##쩡":12555,"##퉁":12556,"##땐":12557,"##캇":12558,"##힝":12559,"##헝":12560,"##맘":12561,"##땡":12562,"##폈":12563,"##갸":12564,"##싫":12565,"##챙":12566,"##ㅈ":12567,"##헴":12568,"##낵":12569,"##뜩":12570,"##꺄":12571,"##낀":12572,"##뱃":12573,"##콕":12574,"##밟":12575,"##뜻":12576,"##엇":12577,"##닢":12578,"##뱀":12579,"##릳":12580,"##눌":12581,"##낮":12582,"##많":12583,"##컸":12584,"##푹":12585,"##컥":12586,"##앉":12587,"##딥":12588,"##둑":12589,"##벡":12590,"##휼":12591,"##옳":12592,"##헸":12593,"##맺":12594,"##ㅞ":12595,"##ㅄ":12596,"##욤":12597,"##몐":12598,"##깎":12599,"##및":12600,"##돋":12601,"##묵":12602,"##캄":12603,"##즙":12604,"##퀸":12605,"##뇽":12606,"##쩐":12607,"##퀄":12608,"##뿜":12609,"##셜":12610,"##씬":12611,"##넴":12612,"##읽":12613,"##쎈":12614,"##흉":12615,"##갯":12616,"##낫":12617,"##띨":12618,"##덜":12619,"##쭤":12620,"##ㅆ":12621,"##좁":12622,"##긋":12623,"##냠":12624,"##뺌":12625,"##ㄲ":12626,"##삶":12627,"##쭐":12628,"##섞":12629,"##헷":12630,"##ㅑ":12631,"##ㄷ":12632,"##쾅":12633,"##줍":12634,"##닪":12635,"##딸":12636,"##촬":12637,"##칫":12638,"##넓":12639,"##ㄵ":12640,"##닙":12641,"##찡":12642,"##쏘":12643,"##춧":12644,"##댁":12645,"##젱":12646,"##텝":12647,"##왼":12648,"##쌤":12649,"##듈":12650,"##촹":12651,"##벵":12652,"##쉽":12653,"##뭅":12654,"##앰":12655,"##숑":12656,"##튠":12657,"##퀼":12658,"##뗘":12659,"##놋":12660,"##덤":12661,"##냔":12662,"##텟":12663,"##밌":12664,"##믐":12665,"##깅":12666,"##펼":12667,"##챱":12668,"##벞":12669,"##쳥":12670,"##츅":12671,"##얻":12672,"##윽":12673,"##웹":12674,"##렝":12675,"##꽁":12676,"##팍":12677,"##둬":12678,"##쵸":12679,"##엌":12680,"##툭":12681,"##콥":12682,"##낭":12683,"##튬":12684,"##뻥":12685,"##왁":12686,"##홉":12687,"##샙":12688,"##옛":12689,"##깁":12690,"##곶":12691,"##뼉":12692,"##쥴":12693,"##꽝":12694,"##렢":12695,"##밈":12696,"##훙":12697,"##쎄":12698,"##낚":12699,"##얀":12700,"##쉈":12701,"##뫄":12702,"##쥔":12703,"##굿":12704,"##찐":12705,"##뎁":12706,"##촨":12707,"##셸":12708,"##뀌":12709,"##틂":12710,"##췌":12711,"##뛰":12712,"##ㅙ":12713,"##펴":12714,"##퉤":12715,"##땃":12716,"##펭":12717,"##옆":12718,"##뭇":12719,"##흠":12720,"##섰":12721,"##깡":12722,"##뉘":12723,"##푼":12724,"##삿":12725,"##쏜":12726,"##쾌":12727,"##톡":12728,"##덞":12729,"##쁨":12730,"##웩":12731,"##ㅗ":12732,"##ㄼ":12733,"##높":12734,"##떨":12735,"##씹":12736,"##쭈":12737,"##왓":12738,"##걀":12739,"##굳":12740,"##맴":12741,"##슝":12742,"##쌘":12743,"##햐":12744,"##뻘":12745,"##룟":12746,"##잦":12747,"##딪":12748,"##넜":12749,"##낄":12750,"##뜸":12751,"##쑥":12752,"##닿":12753,"##씰":12754,"##꼈":12755,"##짼":12756,"##콸":12757,"##딛":12758,"##셴":12759,"##쫑":12760,"##붑":12761,"##ㅕ":12762,"##ㄻ":12763,"##ㅇ":12764,"##뻑":12765,"##껄":12766,"##쁠":12767,"##툠":12768,"##셌":12769,"##눕":12770,"##둡":12771,"##넝":12772,"##ㅐ":12773,"##떴":12774,"##뎨":12775,"##찹":12776,"##촘":12777,"##욘":12778,"##갚":12779,"##꽂":12780,"##뤘":12781,"##솟":12782,"##끝":12783,"##궜":12784,"##읭":12785,"##욧":12786,"##톈":12787,"##혓":12788,"##캴":12789,"##젊":12790,"##깥":12791,"##텼":12792,"##덟":12793,"##샫":12794,"##삘":12795,"##툿":12796,"##퓌":12797,"##텨":12798,"##뛴":12799,"##뗑":12800,"##헐":12801,"##땜":12802,"##췬":12803,"##읕":12804,"##쳉":12805,"##눗":12806,"##볕":12807,"##헀":12808,"##땁":12809,"##벗":12810,"##캅":12811,"##풋":12812,"##쉐":12813,"##밑":12814,"##꺾":12815,"##돗":12816,"##얌":12817,"##쪙":12818,"##돠":12819,"##숍":12820,"##썸":12821,"##츙":12822,"##빕":12823,"##긏":12824,"##괘":12825,"##쉔":12826,"##쉘":12827,"##껌":12828,"##잣":12829,"##넉":12830,"##땀":12831,"##숄":12832,"##녠":12833,"##쿰":12834,"##쟝":12835,"##긁":12836,"##숫":12837,"##끽":12838,"##왑":12839,"##ㅃ":12840,"##캎":12841,"##넋":12842,"##읻":12843,"##슌":12844,"##헛":12845,"##왚":12846,"##퓰":12847,"##룀":12848,"##ㄽ":12849,"##샬":12850,"##왉":12851,"##빽":12852,"##뢸":12853,"##슁":12854,"##굵":12855,"##볶":12856,"##픕":12857,"##삽":12858,"##뽕":12859,"##ㅌ":12860,"##썽":12861,"##뎬":12862,"##뜬":12863,"##폿":12864,"##앳":12865,"##햇":12866,"##탭":12867,"##핏":12868,"##끓":12869,"##낰":12870,"##뇐":12871,"##읊":12872,"##웍":12873,"##듦":12874,"##팝":12875,"##펌":12876,"##펩":12877,"##냑":12878,"##묭":12879,"##얹":12880,"##썰":12881,"##뽁":12882,"##샐":12883,"##쑹":12884,"##눅":12885,"##츨":12886,"##쨜":12887,"##윅":12888,"##흣":12889,"##팁":12890,"##펨":12891,"##쫒":12892,"##랠":12893,"##힙":12894,"##ㅚ":12895,"##ㄺ":12896,"##썖":12897,"##싹":12898,"##걔":12899,"##뢴":12900,"##챈":12901,"##쳅":12902,"##찜":12903,"##굉":12904,"##빚":12905,"##푯":12906,"##팰":12907,"##묜":12908,"##탔":12909,"##냇":12910,"##얗":12911,"##캬":12912,"##ㄶ":12913,"##닦":12914,"##츈":12915,"##룅":12916,"##춥":12917,"##흩":12918,"##귈":12919,"##ㅘ":12920,"##눙":12921,"##깜":12922,"##룔":12923,"##쨌":12924,"##륫":12925,"##삔":12926,"##찼":12927,"##븨":12928,"##멈":12929,"##벰":12930,"##팠":12931,"##뭥":12932,"##짢":12933,"##맬":12934,"##훌":12935,"##뎃":12936,"##쟌":12937,"##앴":12938,"##얘":12939,"##뚠":12940,"##뺄":12941,"##뀜":12942,"##텅":12943,"##텻":12944,"##휄":12945,"##똠":12946,"##겡":12947,"##깈":12948,"##쓔":12949,"##쒀":12950,"##탵":12951,"##쫀":12952,"##컹":12953,"##랸":12954,"##쏠":12955,"##뺑":12956,"##ㅂ":12957,"##땠":12958,"##곧":12959,"##샀":12960,"##둪":12961,"##뵤":12962,"##쳣":12963,"##엡":12964,"##챤":12965,"##껏":12966,"##쭙":12967,"##꿉":12968,"##푀":12969,"##딲":12970,"##핌":12971,"##찧":12972,"##괭":12973,"##켠":12974,"##쏙":12975,"##팻":12976,"##핥":12977,"##읜":12978,"##쭝":12979,"##헥":12980,"##깰":12981,"##튄":12982,"##덫":12983,"##샜":12984,"##틋":12985,"##깻":12986,"##됸":12987,"##웡":12988,"##즤":12989,"##튿":12990,"##핳":12991,"##꼽":12992,"##녤":12993,"##죌":12994,"##쩔":12995,"##묻":12996,"##돛":12997,"##흰":12998,"##츤":12999,"##쁩":13000,"##졍":13001,"##꼼":13002,"##뵈":13003,"##윳":13004,"##뱌":13005,"##얐":13006,"##훗":13007,"##눔":13008,"##봅":13009,"##캤":13010,"##뱉":13011,"##륀":13012,"##굼":13013,"##컫":13014,"##맠":13015,"##똘":13016,"##횽":13017,"##팥":13018,"##먀":13019,"##딴":13020,"##넸":13021,"##햅":13022,"##낏":13023,"##ㅜ":13024,"##뮴":13025,"##쏭":13026,"##젓":13027,"##왱":13028,"##덥":13029,"##썹":13030,"##빡":13031,"##쏴":13032,"##쓱":13033,"##찢":13034,"##헠":13035,"##곗":13036,"##텃":13037,"##뿅":13038,"##띤":13039,"##뮨":13040,"##ㄾ":13041,"##ㅟ":13042,"##쳘":13043,"##챰":13044,"##뱡":13045,"##ㅓ":13046,"##퇼":13047,"##탉":13048,"##뭣":13049,"##촤":13050,"##넀":13051,"##떫":13052,"##쨔":13053,"##똑":13054,"##쳌":13055,"##밉":13056,"##숏":13057,"##뻬":13058,"##왘":13059,"##셤":13060,"##뀔":13061,"##돕":13062,"##몄":13063,"##뷴":13064,"##얏":13065,"##잿":13066,"##륄":13067,"##둣":13068,"##맆":13069,"##툽":13070,"##녘":13071,"##엾":13072,"##꿨":13073,"##곯":13074,"##ㅢ":13075,"##뚱":13076,"##괜":13077,"##쳇":13078,"##끊":13079,"##ㅒ":13080,"##씽":13081,"##읏":13082,"##켕":13083,"##푄":13084,"##줫":13085,"##슾":13086,"##룝":13087,"##빱":13088,"##롄":13089,"##ㅉ":13090,"##쌩":13091,"##첵":13092,"##빳":13093,"##쑈":13094,"##잍":13095,"##혬":13096,"##꿩":13097,"##긔":13098,"##휜":13099,"##줴":13100,"##쩜":13101,"##띔":13102,"##쨰":13103,"##쪼":13104,"##쏟":13105,"##쩨":13106,"##썅":13107,"##좨":13108,"##얽":13109,"##톳":13110,"##헙":13111,"##쩄":13112,"##덬":13113,"##윷":13114,"##샥":13115,"##멎":13116,"##뺘":13117,"##껑":13118,"##ㅛ":13119,"##찝":13120,"##샛":13121,"##긱":13122,"##떵":13123,"##쌕":13124,"##콴":13125,"##쌰":13126,"##맏":13127,"##먿":13128,"##흨":13129,"##윾":13130,"##홰":13131,"##펐":13132,"##솝":13133,"##괵":13134,"##봈":13135,"##걍":13136,"##돐":13137,"##쇽":13138,"##딫":13139,"##쭌":13140,"##뎠":13141,"##슥":13142,"##쾡":13143,"##깟":13144,"##쭘":13145,"##쌌":13146,"##댜":13147,"##뗀":13148,"##밷":13149,"##먐":13150,"##흫":13151,"##킁":13152,"##늩":13153,"##앓":13154,"##큭":13155,"##ㄸ":13156,"##ㅖ":13157,"##훨":13158,"##볏":13159,"##쉼":13160,"##띄":13161,"##좇":13162,"##튤":13163,"##졔":13164,"##똔":13165,"##틈":13166,"##뭘":13167,"##촛":13168,"##떈":13169,"##깠":13170,"##몫":13171,"##맸":13172,"##홋":13173,"##챗":13174,"##쟐":13175,"##훤":13176,"##쥰":13177,"##댑":13178,"##몌":13179,"##솽":13180,"##꿇":13181,"##뿍":13182,"##씸":13183,"##먄":13184,"##넹":13185,"##쩝":13186,"##껭":13187,"##얃":13188,"##숔":13189,"##싿":13190,"##셒":13191,"##쐐":13192,"##잰":13193,"##떽":13194,"##똰":13195,"##쾨":13196,"##뒬":13197,"##힉":13198,"##횩":13199,"##녑":13200,"##꼰":13201,"##앜":13202,"##듥":13203,"##쀼":13204,"##킅":13205,"##뚤":13206,"##뵙":13207,"##팎":13208,"##칰":13209,"##꾜":13210,"##밝":13211,"##듄":13212,"##잌":13213,"##묗":13214,"##춍":13215,"##욜":13216,"##퍠":13217,"##뽜":13218,"##젭":13219,"##렦":13220,"##갛":13221,"##돚":13222,"##뭈":13223,"##솬":13224,"##뺏":13225,"##퐝":13226,"##쿳":13227,"##챳":13228,"##첬":13229,"##헿":13230,"##삵":13231,"##펔":13232,"##깄":13233,"##럈":13234,"##쇳":13235,"##큥":13236,"##얙":13237,"##붸":13238,"##탸":13239,"##겍":13240,"##믓":13241,"##줏":13242,"##핱":13243,"##쎵":13244,"##퓸":13245,"##툇":13246,"##뗵":13247,"##쮜":13248,"##뼤":13249,"##읗":13250,"##웟":13251,"##셩":13252,"##섕":13253,"##껖":13254,"##뒈":13255,"##쑨":13256,"##돤":13257,"##닠":13258,"##멥":13259,"##껫":13260,"##꽈":13261,"##욿":13262,"##퀌":13263,"##켤":13264,"##댇":13265,"##뉼":13266,"##늕":13267,"##짯":13268,"##캰":13269,"##묠":13270,"##굄":13271,"##톄":13272,"##곬":13273,"##칡":13274,"##튕":13275,"##껸":13276,"##촐":13277,"##겪":13278,"##섣":13279,"##왠":13280,"##졷":13281,"##퍄":13282,"##쎕":13283,"##굶":13284,"##픙":13285,"##쉭":13286,"##웽":13287,"##켑":13288,"##끙":13289,"##쪄":13290,"##귐":13291,"##삥":13292,"##퉆":13293,"##헹":13294,"##졋":13295,"##숟":13296,"##펏":13297,"##탰":13298,"##뤠":13299,"##쭸":13300,"##퀑":13301,"##짘":13302,"##늉":13303,"##냘":13304,"##뷘":13305,"##왐":13306,"##뒹":13307,"##큽":13308,"##뤈":13309,"##뗏":13310,"##숯":13311,"##횔":13312,"##뮐":13313,"##븕":13314,"##늙":13315,"##릐":13316,"##쪘":13317,"##똣":13318,"##갬":13319,"##셱":13320,"##쌐":13321,"##죤":13322,"##댸":13323,"##옇":13324,"##얍":13325,"##껀":13326,"##틍":13327,"##큅":13328,"##읙":13329,"##닳":13330,"##뭍":13331,"##젔":13332,"##깬":13333,"##캿":13334,"##옸":13335,"##씁":13336,"##뿟":13337,"##쇗":13338,"##컾":13339,"##닻":13340,"##톸":13341,"##삠":13342,"##붠":13343,"##갭":13344,"##폄":13345,"##ㄳ":13346,"##랼":13347,"##묑":13348,"##빤":13349,"##괸":13350,"##놑":13351,"##잤":13352,"##갠":13353,"##냣":13354,"##볫":13355,"##옘":13356,"##푈":13357,"##샅":13358,"##씻":13359,"##옭":13360,"##겆":13361,"##랖":13362,"##꼐":13363,"##탼":13364,"##땄":13365,"##곻":13366,"##솃":13367,"##썻":13368,"##큡":13369,"##딯":13370,"##팃":13371,"##먺":13372,"##횃":13373,"##믕":13374,"##맣":13375,"##힣":13376,"##춉":13377,"##롸":13378,"##튭":13379,"##굇":13380,"##뚯":13381,"##겻":13382,"##욥":13383,"##쳬":13384,"##퍀":13385,"##엮":13386,"##쿈":13387,"##섻":13388,"##큔":13389,"##낯":13390,"##랰":13391,"##꽉":13392,"##쥿":13393,"##졘":13394,"##뼛":13395,"##칬":13396,"##뎡":13397,"##쌉":13398,"##됫":13399,"##켁":13400,"##뤂":13401,"##쉑":13402,"##볘":13403,"##퀏":13404,"##윔":13405,"##햏":13406,"##쨍":13407,"##ㄿ":13408,"##넵":13409,"##벋":13410,"##웦":13411,"##핼":13412,"##줵":13413,"##낑":13414,"##슼":13415,"##귿":13416,"##죵":13417,"##륻":13418,"##꽤":13419,"##뽐":13420,"##쮠":13421,"##뜽":13422,"##먁":13423,"##멱":13424,"##쯩":13425,"##헣":13426,"##뗄":13427,"##퉜":13428,"##훠":13429,"##볐":13430,"##큿":13431,"##좃":13432,"##꺠":13433,"##팹":13434,"##좡":13435,"##앎":13436,"##싐":13437,"##뽈":13438,"##퍈":13439,"##툉":13440,"##쾰":13441,"##뉸":13442,"##뀨":13443,"##텡":13444,"##쎘":13445,"##몀":13446,"##곀":13447,"##뱁":13448,"##돝":13449,"##옉":13450,"##졀":13451,"##끕":13452,"##껐":13453,"##휫":13454,"##퇘":13455,"##딬":13456,"##딍":13457,"##갼":13458,"##즛":13459,"##믜":13460,"##옮":13461,"##낍":13462,"##봣":13463,"##폘":13464,"##듁":13465,"##됴":13466,"##짹":13467,"##잃":13468,"##얕":13469,"##쑬":13470,"##볓":13471,"##껨":13472,"##뤽":13473,"##휙":13474,"##냤":13475,"##툐":13476,"##쌥":13477,"##볜":13478,"##뺐":13479,"##꿃":13480,"##듸":13481,"##틉":13482,"##띰":13483,"##핬":13484,"##솨":13485,"##럇":13486,"##봌":13487,"##킼":13488,"##햑":13489,"##닼":13490,"##븀":13491,"##쌋":13492,"##뽄":13493,"##튽":13494,"##쨕":13495,"##촙":13496,"##싁":13497,"##륩":13498,"##쳄":13499,"##짙":13500,"##텄":13501,"##퓩":13502,"##뮹":13503,"##졤":13504,"##꽌":13505,"##혠":13506,"##좐":13507,"##겋":13508,"##햔":13509,"##챃":13510,"##눴":13511,"##뚬":13512,"##딮":13513,"##뛔":13514,"##웗":13515,"##뛃":13516,"##꽯":13517,"##쭵":13518,"##뱐":13519,"##믙":13520,"##픅":13521,"##뢍":13522,"##륑":13523,"##슉":13524,"##꼿":13525,"##됭":13526,"##낱":13527,"##슶":13528,"##틊":13529,"##핕":13530,"##꿧":13531,"##쾃":13532,"##꿋":13533,"##숱":13534,"##삣":13535,"##핲":13536,"##밬":13537,"##좔":13538,"##풂":13539,"##펬":13540,"##쿽":13541,"##랕":13542,"##뇹":13543,"##쉿":13544,"##굣":13545,"##쳑":13546,"##쓩":13547,"##맟":13548,"##튐":13549,"##뱟":13550,"##췍":13551,"##폔":13552,"##붱":13553,"##휩":13554,"##샾":13555,"##졧":13556,"##퇀":13557,"##큮":13558,"##빰":13559,"##엳":13560,"##톲":13561,"##섐":13562,"##밯":13563,"##솀":13564,"##듕":13565,"##긌":13566,"##윱":13567,"##꺙":13568,"##띱":13569,"##춋":13570,"##엤":13571,"##뼘":13572,"##옺":13573,"##퐈":13574,"##귑":13575,"##졈":13576,"##솩":13577,"##켯":13578,"##눼":13579,"##멉":13580,"##옙":13581,"##봔":13582,"##츌":13583,"##끅":13584,"##큇":13585,"##뷜":13586,"##켔":13587,"##윹":13588,"##팈":13589,"##쒜":13590,"##빟":13591,"##츔":13592,"##굔":13593,"##갴":13594,"##쩬":13595,"##헵":13596,"##퉈":13597,"##삯":13598,"##멬":13599,"##젹":13600,"##잨":13601,"##멓":13602,"##찟":13603,"##힜":13604,"##훕":13605,"##맄":13606,"##웇":13607,"##쎼":13608,"##겊":13609,"##뻣":13610,"##뻗":13611,"##댱":13612,"##뉜":13613,"##쫗":13614,"##귓":13615,"##켸":13616,"##탙":13617,"##쳔":13618,"##쇨":13619,"##쥤":13620,"##닏":13621,"##큣":13622,"##뤤":13623,"##뉵":13624,"##웻":13625,"##씅":13626,"##걲":13627,"##폅":13628,"##끠":13629,"##캑":13630,"##뵐":13631,"##룐":13632,"##귁":13633,"##녓":13634,"##풉":13635,"##쏨":13636,"##섁":13637,"##츸":13638,"##솅":13639,"##묙":13640,"##핡":13641,"##팤":13642,"##햝":13643,"##츼":13644,"##췃":13645,"##픠":13646,"##챵":13647,"##븝":13648,"##묽":13649,"##퀙":13650,"##퇄":13651,"##쎌":13652,"##춴":13653,"##쵼":13654,"##궂":13655,"##끨":13656,"##쎔":13657,"##짰":13658,"##죗":13659,"##갗":13660,"##왝":13661,"##큠":13662,"##퓽":13663,"##묾":13664,"##흭":13665,"##걋":13666,"##됏":13667,"##뀍":13668,"##쏼":13669,"##륍":13670,"##줜":13671,"##샄":13672,"##봑":13673,"##읓":13674,"##쉣":13675,"##벧":13676,"##욌":13677,"##멮":13678,"##닾":13679,"##핰":13680,"##롼":13681,"##싷":13682,"##븜":13683,"##짊":13684,"##괌":13685,"##쬐":13686,"##돡":13687,"##킌":13688,"##챦":13689,"##햘":13690,"##뱄":13691,"##롮":13692,"##궝":13693,"##쯕":13694,"##쉥":13695,"##꼇":13696,"##긩":13697,"##옄":13698,"##쨋":13699,"##믖":13700,"##붇":13701,"##췐":13702,"##쥠":13703,"##흗":13704,"##뜀":13705,"##쨘":13706,"##숳":13707,"##덝":13708,"##뻭":13709,"##앀":13710,"##킄":13711,"##릘":13712,"##엶":13713,"##웱":13714,"##궇":13715,"##됌":13716,"##켝":13717,"##깉":13718,"##볻":13719,"##롓":13720,"##팼":13721,"##폳":13722,"##퐐":13723,"##큩":13724,"##긑":13725,"##롹":13726,"##샻":13727,"##묄":13728,"##쫙":13729,"##섴":13730,"##툑":13731,"##꿴":13732,"##컿":13733,"##쥉":13734,"##썌":13735,"##꼍":13736,"##윰":13737,"##쟜":13738,"##홑":13739,"##옒":13740,"##뎍":13741,"##귕":13742,"##흧":13743,"##쾍":13744,"##젵":13745,"##릣":13746,"##숩":13747,"##섶":13748,"##퓬":13749,"##쨉":13750,"##싣":13751,"##먕":13752,"##옻":13753,"##쐈":13754,"##뺀":13755,"##깼":13756,"##휀":13757,"##괏":13758,"##뵌":13759,"##왇":13760,"##쩠":13761,"##샊":13762,"##갇":13763,"##봫":13764,"##럐":13765,"##턀":13766,"##앸":13767,"##벟":13768,"##짇":13769,"##띡":13770,"##꿘":13771,"##죳":13772,"##셧":13773,"##솊":13774,"##쩰":13775,"##쮸":13776,"##컽":13777,"##쬲":13778,"##뾱":13779,"##뺨":13780,"##뜷":13781,"##긧":13782,"##몪":13783,"##휏":13784,"##씔":13785,"##륌":13786,"##얜":13787,"##튈":13788,"##붊":13789,"##풔":13790,"##늗":13791,"##엪":13792,"##쐉":13793,"##흄":13794,"##렜":13795,"##텽":13796,"##즹":13797,"##꺅":13798,"##싕":13799,"##뇸":13800,"##싀":13801,"##잆":13802,"##븞":13803,"##릾":13804,"##듮":13805,"##깯":13806,"##쥣":13807,"##뛸":13808,"##윘":13809,"##윜":13810,"##빻":13811,"##뫁":13812,"##읅":13813,"##뾼":13814,"##끎":13815,"##솁":13816,"##댤":13817,"##랓":13818,"##쉡":13819,"##긂":13820,"##쏫":13821,"##숌":13822,"##잋":13823,"##엋":13824,"##맀":13825,"##뇩":13826,"##럅":13827,"##맢":13828,"##챡":13829,"##뢔":13830,"##췁":13831,"##슮":13832,"##눞":13833,"##땽":13834,"##옝":13835,"##홧":13836,"##읇":13837,"##욣":13838,"##뗴":13839,"##죈":13840,"##횐":13841,"##늴":13842,"##돖":13843,"##캆":13844,"##왒":13845,"##읹":13846,"##슽":13847,"##븃":13848,"##봥":13849,"##밣":13850,"##싰":13851,"##먈":13852,"##닸":13853,"##뤌":13854,"##늅":13855,"##싄":13856,"##땟":13857,"##뷁":13858,"##옿":13859,"##쒞":13860,"##꿎":13861,"##컁":13862,"##앚":13863,"##뢐":13864,"##룍":13865,"##랋":13866,"##궨":13867,"##죡":13868,"##홱":13869,"##븅":13870,"##쁢":13871,"##땍":13872,"##밞":13873,"##엊":13874,"##쬬":13875,"##땋":13876,"##엫":13877,"##쪨":13878,"##쎅":13879,"##븍":13880,"##잂":13881,"##궃":13882,"##닺":13883,"##삮":13884,"##밐":13885,"##쥘":13886,"##닽":13887,"##쨈":13888,"##밎":13889,"##캭":13890,"##훽":13891,"##쒸":13892,"##솢":13893,"##귱":13894,"##뼜":13895,"##땸":13896,"##뫃":13897,"##슻":13898,"##앟":13899,"##웸":13900,"##솎":13901,"##밲":13902,"##츰":13903,"##쬔":13904,"##쵹":13905,"##몯":13906,"##옅":13907,"##갹":13908,"##":13909,"##녈":13910,"##췩":13911,"##땔":13912,"##봘":13913,"##꽐":13914,"##퍝":13915,"##탹":13916,"##뜌":13917,"##놰":13918,"##텰":13919,"##톺":13920,"##잚":13921,"##뇬":13922,"##솠":13923,"##핚":13924,"##얇":13925,"##똬":13926,"##붜":13927,"##짆":13928,"##롫":13929,"##힁":13930,"##뺴":13931,"##콫":13932,"##곹":13933,"##텬":13934,"##봬":13935,"##냡":13936,"##럍":13937,"##벛":13938,"##뭡":13939,"##샏":13940,"##훜":13941,"##앆":13942,"##읎":13943,"##뒝":13944,"##슙":13945,"##솓":13946,"##쯧":13947,"##흝":13948,"##텊":13949,"##듛":13950,"##폽":13951,"##뙈":13952,"##뤡":13953,"##쁋":13954,"##멂":13955,"##읫":13956,"##헜":13957,"##낪":13958,"##밊":13959,"##큄":13960,"##츩":13961,"##낛":13962,"##뭬":13963,"##훍":13964,"##칲":13965,"##앖":13966,"##읐":13967,"##뉙":13968,"##쳴":13969,"##퀜":13970,"##겈":13971,"##푱":13972,"##벆":13973,"##팏":13974,"##듧":13975,"##뢨":13976,"##훓":13977,"##꼳":13978,"##쟛":13979,"##봍":13980,"##먗":13981,"##짞":13982,"##쇀":13983,"##틑":13984,"##퉥":13985,"##빝":13986,"##옫":13987,"##쐑":13988,"##욍":13989,"##긜":13990,"##궆":13991,"##곷":13992,"##갉":13993,"##톼":13994,"##넫":13995,"##췽":13996,"##콀":13997,"##옼":13998,"##햚":13999,"##좍":14000,"##뀝":14001,"##뷕":14002,"##퇗":14003,"##늣":14004,"##븡":14005,"##햎":14006,"##듵":14007,"##뵀":14008,"##콬":14009,"##렫":14010,"##왂":14011,"##쟉":14012,"##귯":14013,"##춀":14014,"##녛":14015,"##쳡":14016,"##욳":14017,"##뇻":14018,"##웝":14019,"##윸":14020,"##묷":14021,"##쟎":14022,"##웓":14023,"##븁":14024,"##뭏":14025,"##뵹":14026,"##섦":14027,"##틔":14028,"##댠":14029,"##뱽":14030,"##횻":14031,"##젋":14032,"##곘":14033,"##닯":14034,"##쟀":14035,"##릍":14036,"##쇤":14037,"##떰":14038,"##욀":14039,"##궉":14040,"##짫":14041,"##쯰":14042,"##쳰":14043,"##퀫":14044,"##킈":14045,"##솦":14046,"##엏":14047,"##폑":14048,"##퓔":14049,"##얭":14050,"##휳":14051,"##븪":14052,"##튁":14053,"##롶":14054,"##갘":14055,"##싑":14056,"##귖":14057,"##샆":14058,"##콱":14059,"##즁":14060,"##싴":14061,"##캍":14062,"##맇":14063,"##됀":14064,"##욷":14065,"##먃":14066,"##삜":14067,"##넒":14068,"##꼻":14069,"##쎗":14070,"##횸":14071,"##궄":14072,"##렠":14073,"##뀽":14074,"##넗":14075,"##솰":14076,"##륏":14077,"##곈":14078,"##욬":14079,"##꺵":14080,"##떙":14081,"##힠":14082,"##맒":14083,"##뱝":14084,"##쐇":14085,"##죨":14086,"##랃":14087,"##욹":14088,"##퉷":14089,"##둉":14090,"##퍙":14091,"##챨":14092,"##뻉":14093,"##햡":14094,"##냨":14095,"##쌞":14096,"##릠":14097,"##븰":14098,"##깤":14099,"##엜":14100,"##삒":14101,"##밗":14102,"##벖":14103,"##껼":14104,"##돨":14105,"##뗐":14106,"##꿝":14107,"##늰":14108,"##뒁":14109,"##늡":14110,"##튮":14111,"##읶":14112,"##쫏":14113,"##걾":14114,"##셕":14115,"##뼁":14116,"##돇":14117,"##뀻":14118,"##팉":14119,"##둟":14120,"##얒":14121,"##뒴":14122,"##랻":14123,"##쿜":14124,"##췹":14125,"##뻴":14126,"##괍":14127,"##휑":14128,"##괐":14129,"##벱":14130,"##삳":14131,"##븟":14132,"##횬":14133,"##졉":14134,"##즑":14135,"##읃":14136,"##퍅":14137,"##쟘":14138,"##룁":14139,"##럑":14140,"##돎":14141,"##괆":14142,"##껒":14143,"##홓":14144,"##옜":14145,"##갞":14146,"##삡":14147,"##굑":14148,"##욺":14149,"##쥑":14150,"##탖":14151,"##훵":14152,"##뱍":14153,"##붏":14154,"##쒕":14155,"##뎋":14156,"##퀧":14157,"##왖":14158,"##퉨":14159,"##숕":14160,"##켭":14161,"##쑵":14162,"##꾿":14163,"##핟":14164,"##텗":14165,"##궭":14166,"##햬":14167,"##쟣":14168,"##놧":14169,"##녂":14170,"##숮":14171,"##꺤":14172,"##찿":14173,"##겝":14174,"##슳":14175,"##퀠":14176,"##왯":14177,"##걜":14178,"##옾":14179,"##곌":14180,"##껜":14181,"##췰":14182,"##뼝":14183,"##뼬":14184,"##눽":14185,"##먜":14186,"##읰":14187,"##섧":14188,"##켬":14189,"##삧":14190,"##즷":14191,"##썍":14192,"##쩟":14193,"##줎":14194,"##귬":14195,"##퇵":14196,"##젅":14197,"##멐":14198,"##홛":14199,"##쥼":14200,"##봊":14201,"##썪":14202,"##엙":14203,"##탶":14204,"##럄":14205,"##덨":14206,"##콮":14207,"##렡":14208,"##쒔":14209,"##쮹":14210,"##뷫":14211,"##뺵":14212,"##덛":14213,"##웋":14214,"##핮":14215,"##얺":14216,"##홯":14217,"##깩":14218,"##풸":14219,"##볌":14220,"##떯":14221,"##쉅":14222,"##휵":14223,"##갊":14224,"##쫜":14225,"##륾":14226,"##탏":14227,"##햣":14228,"##훡":14229,"##됙":14230,"##땓":14231,"##쎆":14232,"##멨":14233,"##귝":14234,"##덯":14235,"##뵘":14236,"##뜳":14237,"##뭠":14238,"##롈":14239,"##죰":14240,"##쟙":14241,"##뀙":14242,"##뚮":14243,"##쐙":14244,"##뽟":14245,"##븧":14246,"##굯":14247,"##췻":14248,"##닁":14249,"##뷤":14250,"##볱":14251,"##툻":14252,"##잕":14253,"##틧":14254,"##햠":14255,"##헼":14256,"##꽇":14257,"##넼":14258,"##랔":14259,"##쑻":14260,"##뙤":14261,"##얬":14262,"##웄":14263,"##큪":14264,"##뗌":14265,"##쯋":14266,"##엃":14267,"##쎾":14268,"##얔":14269,"##밪":14270,"##엗":14271,"##뺙":14272,"##벜":14273,"##횰":14274,"##쪠":14275,"##곸":14276,"##젙":14277,"##쒓":14278,"##컶":14279,"##땻":14280,"##됃":14281,"##쳠":14282,"##퇍":14283,"##딈":14284,"##푠":14285,"##밢":14286,"##낡":14287,"##햟":14288,"##뾸":14289,"##녯":14290,"##쩽":14291,"##쉄":14292,"##붗":14293,"##퉹":14294,"##틆":14295,"##롷":14296,"##닲":14297,"##쫍":14298,"##핶":14299,"##멷":14300,"##롑":14301,"##옯":14302,"##웊":14303,"##잙":14304,"##섨":14305,"##앧":14306,"##눨":14307,"##뿠":14308,"##젴":14309,"##뉩":14310,"##뵬":14311,"##쯪":14312,"##쮀":14313,"##쿧":14314,"##겿":14315,"##쳒":14316,"##룴":14317,"##툱":14318,"##됑":14319,"##릋":14320,"##붰":14321,"##륷":14322,"##듟":14323,"##뤁":14324,"##퐄":14325,"##뉠":14326,"##푕":14327,"##짴":14328,"##펲":14329,"##긤":14330,"##욯":14331,"##궬":14332,"##읠":14333,"##읒":14334,"##랲":14335,"##읋":14336,"##묀":14337,"##퓟":14338,"##쁅":14339,"##뺡":14340,"##뗡":14341,"##뛟":14342,"##뗜":14343,"##촠":14344,"##뜁":14345,"##넽":14346,"##얖":14347,"##곪":14348,"##싮":14349,"##훚":14350,"##낢":14351,"##덿":14352,"##옰":14353,"##쎠":14354,"##븠":14355,"##잞":14356,"##폕":14357,"##켙":14358,"##띌":14359,"##끾":14360,"##뽂":14361,"##덭":14362,"##긷":14363,"##쐬":14364,"##홥":14365,"##뀢":14366,"##싡":14367,"##쭁":14368,"##돫":14369,"##럸":14370,"##혿":14371,"##뇠":14372,"##쩅":14373,"##쟨":14374,"##젇":14375,"##솹":14376,"##뉨":14377,"##훃":14378,"##휨":14379,"##빋":14380,"##붚":14381,"##묏":14382,"##횅":14383,"##캌":14384,"##뜅":14385,"##릔":14386,"##갣":14387,"##낻":14388,"##팖":14389,"##꽹":14390,"##릷":14391,"##쀳":14392,"##뇔":14393,"##폯":14394,"##떘":14395,"##풰":14396,"##윥":14397,"##퀭":14398,"##쥭":14399,"##앝":14400,"##삤":14401,"##봙":14402,"##쁐":14403,"##쉪":14404,"##랎":14405,"##얠":14406,"##셥":14407,"##짋":14408,"##뒨":14409,"##뾆":14410,"##긕":14411,"##샇":14412,"##쵤":14413,"##찓":14414,"##갨":14415,"##싳":14416,"##킾":14417,"##맻":14418,"##긺":14419,"##굦":14420,"##릏":14421,"##햊":14422,"##됄":14423,"##룄":14424,"##뢀":14425,"##뿝":14426,"##꿕":14427,"##뺩":14428,"##얶":14429,"##퓐":14430,"##촥":14431,"##춈":14432,"##밨":14433,"##뚊":14434,"##줃":14435,"##팊":14436,"##걓":14437,"##컼":14438,"##긘":14439,"##윻":14440,"##홝":14441,"##쥡":14442,"##켱":14443,"##냬":14444,"##웚":14445,"##턩":14446,"##띈":14447,"##웒":14448,"##꿏":14449,"##씍":14450,"##멵":14451,"##캋":14452,"##큉":14453,"##갂":14454,"##웛":14455,"##떱":14456,"##쇡":14457,"##턉":14458,"##꿑":14459,"##읖":14460,"##뤀":14461,"##넚":14462,"##벐":14463,"##쏱":14464,"##앩":14465,"##풱":14466,"##힡":14467,"##쩃":14468,"##뮉":14469,"##뱔":14470,"##혤":14471,"##뺸":14472,"##붹":14473,"##싈":14474,"##걼":14475,"##곺":14476,"##됼":14477,"##댝":14478,"##뻠":14479,"##혱":14480,"##붤":14481,"##앋":14482,"##쾀":14483,"##걕":14484,"##뎻":14485,"##셐":14486,"##툥":14487,"##귾":14488,"##뮷":14489,"##춸":14490,"##솧":14491,"##맼":14492,"##꾱":14493,"##삝":14494,"##쑝":14495,"##왹":14496,"##쭹":14497,"##얾":14498,"##귔":14499,"##뻡":14500,"##쀽":14501,"##퐞":14502,"##홒":14503,"##셖":14504,"##멦":14505,"##끡":14506,"##걘":14507,"##쁭":14508,"##샠":14509,"##숖":14510,"##늫":14511,"##듷":14512,"##곴":14513,"##뤗":14514,"##걐":14515,"##홤":14516,"##퓻":14517,"##늼":14518,"##엷":14519,"##돩":14520,"##짔":14521,"##쉠":14522,"##뙇":14523,"##흎":14524,"##흓":14525,"##엵":14526,"##챂":14527,"##팦":14528,"##뵜":14529,"##떋":14530,"##뽙":14531,"##줭":14532,"##퍌":14533,"##봡":14534,"##쑟":14535,"##꽭":14536,"##쑉":14537,"##묫":14538,"##엞":14539,"##샼":14540,"##솻":14541,"##뀬":14542,"##긊":14543,"##핻":14544,"##뛹":14545,"##겯":14546,"##찣":14547,"##섥":14548,"##댼":14549,"##맊":14550,"##욋":14551,"##픨":14552,"##둏":14553,"##솤":14554,"##쉖":14555,"##댧":14556,"##댯":14557,"##튘":14558,"##돧":14559,"##둗":14560,"##믌":14561,"##꺘":14562,"##핗":14563,"##켘":14564,"##릌":14565,"##톋":14566,"##씉":14567,"##쫘":14568,"##럳":14569,"##셦":14570,"##첲":14571,"##뛌":14572,"##쿗":14573,"##슸":14574,"##헔":14575,"##땨":14576,"##뚀":14577,"##읨":14578,"##엒":14579,"##뜐":14580,"##뎝":14581,"##뷍":14582,"##좄":14583,"##옟":14584,"##뵨":14585,"##셑":14586,"##밫":14587,"##첟":14588,"##즥":14589,"##닜":14590,"##햭":14591,"##욼":14592,"##빪":14593,"##쎽":14594,"##퐅":14595,"##썋":14596,"##둈":14597,"##뾘":14598,"##쀏":14599,"##찯":14600,"##츕":14601,"##렿":14602,"##캈":14603,"##쯉":14604,"##옓":14605,"##곕":14606,"##뒫":14607,"##놁":14608,"##뒿":14609,"##댊":14610,"##땗":14611,"##즨":14612,"##껠":14613,"##몥":14614,"##덍":14615,"##귊":14616,"##뚦":14617,"##왤":14618,"##벹":14619,"##쾬":14620,"##껃":14621,"##푷":14622,"##슆":14623,"##줆":14624,"##쑴":14625,"##룺":14626,"##쁍":14627,"##낲":14628,"##뀪":14629,"##깢":14630,"##푿":14631,"##퍗":14632,"##깹":14633,"##푁":14634,"##읩":14635,"##넖":14636,"##덷":14637,"##싢":14638,"##휸":14639,"##껩":14640,"##잧":14641,"##읟":14642,"##엍":14643,"##랅":14644,"##엝":14645,"##돞":14646,"##쟞":14647,"##괼":14648,"##텦":14649,"##썜":14650,"##졩":14651,"##랒":14652,"##뻿":14653,"##쓤":14654,"##뭌":14655,"##섄":14656,"##쩸":14657,"##뚭":14658,"##쒴":14659,"##쁴":14660,"##뎢":14661,"##얫":14662,"##잪":14663,"##쪈":14664,"##쪗":14665,"##흴":14666,"##쁥":14667,"##겓":14668,"##슯":14669,"##깸":14670,"##묨":14671,"##굥":14672,"##뤨":14673,"##쿌":14674,"##죱":14675,"##뤵":14676,"##뚂":14677,"##뢉":14678,"##럲":14679,"##엨":14680,"##붵":14681,"##뮜":14682,"##귡":14683,"##긮":14684,"##깑":14685,"##뚷":14686,"##붖":14687,"##톩":14688,"##뎟":14689,"##맽":14690,"##돟":14691,"##깋":14692,"##뙨":14693,"##믁":14694,"##딀":14695,"##윿":14696,"##엓":14697,"##맍":14698,"##뻰":14699,"##쁙":14700,"##꿜":14701,"##튺":14702,"##쒠":14703,"##쏚":14704,"##뤩":14705,"##쀍":14706,"##쓉":14707,"##켮":14708,"##렏":14709,"##쌨":14710,"##휱":14711,"##곩":14712,"##쯥":14713,"##맫":14714,"##썀":14715,"##흽":14716,"##퉅":14717,"##젛":14718,"##쥥":14719,"##핧":14720,"##몆":14721,"##룯":14722,"##썁":14723,"##꺃":14724,"##붼":14725,"##껬":14726,"##넡":14727,"##읿":14728,"##눝":14729,"##쌜":14730,"##쨀":14731,"##쌟":14732,"##땛":14733,"##몭":14734,"##뜹":14735,"##죔":14736,"##픟":14737,"##휭":14738,"##쫃":14739,"##땝":14740,"##튱":14741,"##듶":14742,"##잫":14743,"##칱":14744,"##럻":14745,"##킳":14746,"##훋":14747,"##쏀":14748,"##깪":14749,"##넁":14750,"##낤":14751,"##굘":14752,"##헗":14753,"##뭑":14754,"##쭀":14755,"##똗":14756,"##롲":14757,"##픗":14758,"##렋":14759,"##뻨":14760,"##캢":14761,"##뢱":14762,"##벎":14763,"##쳿":14764,"##렂":14765,"##둰":14766,"##튝":14767,"##앛":14768,"##닰":14769,"##옡":14770,"##녬":14771,"##쨤":14772,"##촵":14773,"##댭":14774,"##몁":14775,"##팯":14776,"##땕":14777,"##뭭":14778,"##옽":14779,"##녇":14780,"##팒":14781,"##씃":14782,"##꽦":14783,"##큻":14784,"##싻":14785,"##늨":14786,"##맅":14787,"##갃":14788,"##꺕":14789,"##뎄":14790,"##둙":14791,"##닑":14792,"##쏸":14793,"##쀵":14794,"##뀩":14795,"##꺀":14796,"##늒":14797,"##껵":14798,"##쑷":14799,"##뚸":14800,"##떔":14801,"##줓":14802,"##띙":14803,"##릊":14804,"##꾁":14805,"##팣":14806,"##뻈":14807,"##닊":14808,"##팂":14809,"##몃":14810,"##씼":14811,"##홇":14812,"##쬼":14813,"##핤":14814,"##썄":14815,"##챼":14816,"##쟠":14817,"##퐑":14818,"##쿸":14819,"##쁌":14820,"##씝":14821,"##훟":14822,"##햛":14823,"##턔":14824,"##씡":14825,"##곂":14826,"##훰":14827,"##뽓":14828,"##펵":14829,"##댥":14830,"##훯":14831,"##쀡":14832,"##벷":14833,"##빩":14834,"##넠":14835,"##젺":14836,"##늚":14837,"##긓":14838,"##놘":14839,"##콛":14840,"##혂":14841,"##웉":14842,"##뚁":14843,"##쿹":14844,"##횾":14845,"##쬘":14846,"##뀀":14847,"##텇":14848,"##삻":14849,"##껶":14850,"##둩":14851,"##좝":14852,"##췼":14853,"##욨":14854,"##쑌":14855,"##웷":14856,"##잗":14857,"##킐":14858,"##얅":14859,"##섈":14860,"##먑":14861,"##롕":14862,"##췜":14863,"##쿙":14864,"##뎦":14865,"##잩":14866,"##핺":14867,"##곙":14868,"##븛":14869,"##읷":14870,"##덖":14871,"##쾻":14872,"##뒥":14873,"##뤯":14874,"##룱":14875,"##듫":14876,"##옂":14877,"##돵":14878,"##틓":14879,"##듼":14880,"##뛝":14881,"##궡":14882,"##줸":14883,"##뢇":14884,"##뺠":14885,"##싞":14886,"##쏲":14887,"##괃":14888,"##믱":14889,"##핔":14890,"##푤":14891,"##찦":14892,"##뀟":14893,"##슿":14894,"##쥩":14895,"##킸":14896,"##꽅":14897,"##윶":14898,"##쀓":14899,"##뤔":14900,"##툘":14901,"##켣":14902,"##붘":14903,"##뷉":14904,"##꼮":14905,"##웈":14906,"##뭩":14907,"##쮓":14908,"##끟":14909,"##몔":14910,"##겧":14911,"##뫙":14912,"##믤":14913,"##긇":14914,"##킽":14915,"##혭":14916,"##혉":14917,"##뱋":14918,"##띾":14919,"##줐":14920,"##맜":14921,"##쌴":14922,"##햙":14923,"##븥":14924,"##벴":14925,"##윀":14926,"##츀":14927,"##싲":14928,"##줠":14929,"##썡":14930,"##씐":14931,"##꽛":14932,"##벩":14933,"##뾲":14934,"##톹":14935,"##곖":14936,"##걈":14937,"##젶":14938,"##쾁":14939,"##꺗":14940,"##즂":14941,"##즠":14942,"##쁫":14943,"##궹":14944,"##맓":14945,"##싧":14946,"##댋":14947,"##삷":14948,"##핿":14949,"##줊":14950,"##셟":14951,"##핣":14952,"##닚":14953,"##닧":14954,"##쓲":14955,"##렞":14956,"##긲":14957,"##놕":14958,"##곲":14959,"##횞":14960,"##삾":14961,"##짡":14962,"##쟆":14963,"##줼":14964,"##퐌":14965,"##똏":14966,"##멑":14967,"##랆":14968,"##뒸":14969,"##탂":14970,"##앢":14971,"##횝":14972,"##뷋":14973,"##뭴":14974,"##횄":14975,"##룪":14976,"##쩼":14977,"##턍":14978,"##쨥":14979,"##챺":14980,"##폮":14981,"##걳":14982,"##엱":14983,"##욛":14984,"##굠":14985,"##딋":14986,"##맂":14987,"##콭":14988,"##쯱":14989,"##놐":14990,"##돰":14991,"##벸":14992,"##즬":14993,"##웧":14994,"##젉":14995,"##멭":14996,"##넞":14997,"##괂":14998,"##쑁":14999,"##뻇":15000,"##씋":15001,"##씜":15002,"##숡":15003,"##씯":15004,"##퀍":15005,"##덗":15006,"##녺":15007,"##쯴":15008,"##찭":15009,"##칢":15010,"##푝":15011,"##챷":15012,"##뎜":15013,"##뿮":15014,"##뱦":15015,"##룥":15016,"##띁":15017,"##빎":15018,"##됵":15019,"##엩":15020,"##긐":15021,"##럷":15022,"##슀":15023,"##솄":15024,"##벏":15025,"##뿀":15026,"##꺆":15027,"##씤":15028,"##햿":15029,"##룃":15030,"##컄":15031,"##킠":15032,"##뻄":15033,"##쫋":15034,"##뭊":15035,"##훇":15036,"##뭵":15037,"##겦":15038,"##줮":15039,"##옑":15040,"##벾":15041,"##닞":15042,"##쨻":15043,"##릃":15044,"##끆":15045,"##둴":15046,"##돘":15047,"##뫟":15048,"##끑":15049,"##빂":15050,"##붝":15051,"##솖":15052,"##긿":15053,"##몿":15054,"##뀓":15055,"##괳":15056,"##봴":15057,"##툡":15058,"##졐":15059,"##뒵":15060,"##꿸":15061,"##냏":15062,"##뿨":15063,"##쾈":15064,"##괧":15065,"##캼":15066,"##힏":15067,"##똻":15068,"##뚥":15069,"##셓":15070,"##쪾":15071,"##뀠":15072,"##쏩":15073,"##섵":15074,"##틘":15075,"##앾":15076,"##븸":15077,"##쁟":15078,"##럤":15079,"##쓺":15080,"##쩩":15081,"##놂":15082,"##떅":15083,"##놜":15084,"##슺":15085,"##몊":15086,"##쨖":15087,"##녝":15088,"##쎙":15089,"##뇝":15090,"##홭":15091,"##쒼":15092,"##셷":15093,"##뱨":15094,"##텠":15095,"##앏":15096,"##둧":15097,"##뗠":15098,"##텹":15099,"##슟":15100,"##쉨":15101,"##릮":15102,"##눜":15103,"##죶":15104,"##럶":15105,"##뤃":15106,"##툵":15107,"##륽":15108,"##숎":15109,"##톕":15110,"##돴":15111,"##캪":15112,"##뿓":15113,"##쒱":15114,"##꼅":15115,"##첡":15116,"##좈":15117,"##뜝":15118,"##칳":15119,"##똧":15120,"##솼":15121,"##쳗":15122,"##쉤":15123,"##헽":15124,"##섮":15125,"##짒":15126,"##죙":15127,"##롣":15128,"##쇱":15129,"##찎":15130,"##믬":15131,"##셊":15132,"##짦":15133,"##슄":15134,"##싦":15135,"##덙":15136,"##쵝":15137,"##얆":15138,"##뫅":15139,"##픓":15140,"##읆":15141,"##얿":15142,"##끵":15143,"##끍":15144,"##욭":15145,"##쥽":15146,"##숸":15147,"##롴":15148,"##홅":15149,"##뀰":15150,"##눤":15151,"##믾":15152,"##꺈":15153,"##쐴":15154,"##뎰":15155,"##듰":15156,"##귺":15157,"##끜":15158,"##뒺":15159,"##풮":15160,"##꿱":15161,"##빏":15162,"##늖":15163,"##씄":15164,"##햫":15165,"##겇":15166,"##쁵":15167,"##돓":15168,"##릆":15169,"##뀁":15170,"##뒑":15171,"##뷓":15172,"##턋":15173,"##괙":15174,"##깆":15175,"##뛈":15176,"##냫":15177,"##믯":15178,"##늿":15179,"##칟":15180,"##뫽":15181,"##뗶":15182,"##벫":15183,"##뽱":15184,"##쫭":15185,"##둍":15186,"##똽":15187,"##츗":15188,"##떁":15189,"##봠":15190,"##퓍":15191,"##쨎":15192,"##넏":15193,"##둅":15194,"##촡":15195,"##돳":15196,"##꺌":15197,"##뺭":15198,"##썯":15199,"##젟":15200,"##깇":15201,"##쟬":15202,"##덌":15203,"##븓":15204,"##쟄":15205,"##쨧":15206,"##잓":15207,"##꽊":15208,"##볔":15209,"##껗":15210,"##뺼":15211,"##혯":15212,"##욉":15213,"##웆":15214,"##훝":15215,"##춝":15216,"##굗":15217,"##믛":15218,"##쑐":15219,"##귚":15220,"##핓":15221,"##궛":15222,"##괬":15223,"##힚":15224,"##짷":15225,"##렆":15226,"##쭊":15227,"##랟":15228,"##픎":15229,"##웖":15230,"##푭":15231,"##걺":15232,"##윋":15233,"##벲":15234,"##쉟":15235,"##렣":15236,"##믗":15237,"##뎊":15238,"##뼥":15239,"##빧":15240,"##쫴":15241,"##샂":15242,"##봒":15243,"##뤙":15244,"##꼉":15245,"##픝":15246,"##쉒":15247,"##핽":15248,"##틤":15249,"##켇":15250,"##틒":15251,"##덣":15252,"##덻":15253,"##홨":15254,"##깕":15255,"##륐":15256,"##왧":15257,"##뷃":15258,"##슦":15259,"##걏":15260,"##뎂":15261,"##닶":15262,"##딹":15263,"##뎧":15264,"##낔":15265,"##븘":15266,"##섷":15267,"##밡":15268,"##핦":15269,"##쓿":15270,"##핢":15271,"##좜":15272,"##긶":15273,"##멌":15274,"##헱":15275,"##롻":15276,"##뵉":15277,"##앺":15278,"##툣":15279,"##봨":15280,"##꼤":15281,"##퉭":15282,"##맗":15283,"##뜃":15284,"##궷":15285,"##퇸":15286,"##뿛":15287,"##몋":15288,"##듳":15289,"##졶":15290,"##쪤":15291,"##얷":15292,"##앒":15293,"##첐":15294,"##뎈":15295,"##캜":15296,"##롐":15297,"##긎":15298,"##쌱":15299,"##맃":15300,"##궅":15301,"##봁":15302,"##뽥":15303,"##쌑":15304,"##픖":15305,"##젧":15306,"##낣":15307,"##홐":15308,"##뚞":15309,"##둇":15310,"##흿":15311,"##츻":15312,"##쎃":15313,"##욈":15314,"##챸":15315,"##쟥":15316,"##샟":15317,"##촷":15318,"##윞":15319,"##쯘":15320,"##갋":15321,"##헡":15322,"##췛":15323,"##픞":15324,"##졲":15325,"##뭋":15326,"##퇙":15327,"##촟":15328,"##퐆":15329,"##옃":15330,"##쯜":15331,"##뽭":15332,"##뉻":15333,"##찱":15334,"##춛":15335,"##닡":15336,"##됈":15337,"##턻":15338,"##묳":15339,"##겣":15340,"##쎀":15341,"##쏵":15342,"##샒":15343,"##쟇":15344,"##볈":15345,"##딭":15346,"##럯":15347,"##렺":15348,"##왬":15349,"##핃":15350,"##굡":15351,"##줙":15352,"##쩒":15353,"##쩻":15354,"##눀":15355,"##둿":15356,"##햌":15357,"##쳈":15358,"##뺅":15359,"##빢":15360,"##눟":15361,"##쵀":15362,"##톧":15363,"##똡":15364,"##듹":15365,"##됍":15366,"##븗":15367,"##젆":15368,"##깓":15369,"##뗆":15370,"##퓜":15371,"##뉫":15372,"##겕":15373,"##셭":15374,"##횦":15375,"##놯":15376,"##랢":15377,"##꽜":15378,"##튑":15379,"##칯":15380,"##휅":15381,"##뙡":15382,"##섡":15383,"##둄":15384,"##촴":15385,"##짛":15386,"##궚":15387,"##궺":15388,"##깒":15389,"##깛":15390,"##긛":15391,"##쟂":15392,"##퍕":15393,"##씪":15394,"##쀾":15395,"##춭":15396,"##껙":15397,"##옏":15398,"##쌧":15399,"##윝":15400,"##겢":15401,"##핖":15402,"##쨏":15403,"##댛":15404,"##릁":15405,"##쓋":15406,"##캊":15407,"##퐤":15408,"##밁":15409,"##븩":15410,"##냙":15411,"##퇜":15412,"##궞":15413,"##귪":15414,"##궸":15415,"##궼":15416,"##쿔":15417,"##랣":15418,"##겴":15419,"##헁":15420,"##읾":15421,"##걉":15422,"##썐":15423,"##쇅":15424,"##봗":15425,"##핁":15426,"##웥":15427,"##휋":15428,"##줒":15429,"##뇜":15430,"##렄":15431,"##왙":15432,"##벝":15433,"##첮":15434,"##륳":15435,"##핛":15436,"##갅":15437,"##똈":15438,"##뷧":15439,"##겤":15440,"##쏄":15441,"##밂":15442,"##붴":15443,"##숼":15444,"##쬷":15445,"##쌻":15446,"##풇":15447,"##싺":15448,"##똄":15449,"##숬":15450,"##엻":15451,"##샸":15452,"##칣":15453,"##킻":15454,"##썷":15455,"##깂":15456,"##쬰":15457,"##졬":15458,"##췸":15459,"##껚":15460,"##쬈":15461,"##듓":15462,"##탘":15463,"##꺑":15464,"##즯":15465,"##뚐":15466,"##갷":15467,"##뮝":15468,"##볠":15469,"##릈":15470,"##텥":15471,"##옠":15472,"##퓅":15473,"##췈":15474,"##탣":15475,"##헑":15476,"##볟":15477,"##짂":15478,"##뽝":15479,"##텣":15480,"##믏":15481,"##헯":15482,"##췅":15483,"##칞":15484,"##풅":15485,"##딷":15486,"##츱":15487,"##먳":15488,"##뮻":15489,"##돜":15490,"##춏":15491,"##섿":15492,"##꼄":15493,"##쑘":15494,"##랳":15495,"##뗗":15496,"##뵥":15497,"##욝":15498,"##꿐":15499,"##줗":15500,"##즏":15501,"##퐙":15502,"##쬭":15503,"##쉩":15504,"##꼯":15505,"##틩":15506,"##욾":15507,"##놏":15508,"##폇":15509,"##빜":15510,"##첞":15511,"##윁":15512,"##혅":15513,"##똴":15514,"##겾":15515,"##잀":15516,"##뗬":15517,"##뵷":15518,"##몓":15519,"##멛":15520,"##잏":15521,"##퐳":15522,"##룳":15523,"##힇":15524,"##둚":15525,"##숧":15526,"##앻":15527,"##쀠":15528,"##쑦":15529,"##쟴":15530,"##틷":15531,"##츞":15532,"##뜔":15533,"##헭":15534,"##뺍":15535,"##켼":15536,"##궶":15537,"##궫":15538,"##궻":15539,"##랤":15540,"##궢":15541,"##뽤":15542,"##뭎":15543,"##롵":15544,"##놥":15545,"##읺":15546,"##푣":15547,"##눶":15548,"##꺏":15549,"##쫣":15550,"##똵":15551,"##뽧":15552,"##꽑":15553,"##쐰":15554,"##좟":15555,"##흇":15556,"##뫚":15557,"##쏌":15558,"##껰":15559,"##꺢":15560,"##쉉":15561,"##줛":15562,"##놗":15563,"##솫":15564,"##뗛":15565,"##몼":15566,"##돣":15567,"##홳":15568,"##웫":15569,"##룫":15570,"##뺃":15571,"##뗣":15572,"##읈":15573,"##쎴":15574,"##씺":15575,"##넢":15576,"##찷":15577,"##륿":15578,"##곅":15579,"##렼":15580,"##첄":15581,"##쒐":15582,"##뫌":15583,"##욻":15584,"##튻":15585,"##춣":15586,"##뒓":15587,"##굈":15588,"##컈":15589,"##톻":15590,"##핝":15591,"##좂":15592,"##셆":15593,"##펰":15594,"##륮":15595,"##쩹":15596,"##륶":15597,"##떦":15598,"##햰":15599,"##얉":15600,"##탒":15601,"##멻":15602,"##쏻":15603,"##읪":15604,"##츺":15605,"##칻":15606,"##뾔":15607,"##섑":15608,"##끋":15609,"##쭛":15610,"##륗":15611,"##큫":15612,"##졵":15613,"##뻼":15614,"##깣":15615,"##긞":15616,"##뚕":15617,"##죹":15618,"##폥":15619,"##퉄":15620,"##벍":15621,"##뷀":15622,"##쩧":15623,"##콙":15624,"##텩":15625,"##홁":15626,"##놬":15627,"##낐":15628,"##팛":15629,"##먓":15630,"##딺":15631,"##홣":15632,"##떥":15633,"##뿗":15634,"##뉔":15635,"##풒":15636,"##낞":15637,"##틇":15638,"##텆":15639,"##죸":15640,"##끤":15641,"##솑":15642,"##쯬":15643,"##븬":15644,"##슢":15645,"##뱓":15646,"##챞":15647,"##쮝":15648,"##컭":15649,"##띃":15650,"##롁":15651,"##싘":15652,"##콪":15653,"##뚵":15654,"##쒂":15655,"##쌷":15656,"##픳":15657,"##깞":15658,"##윟":15659,"##꼠":15660,"##텉":15661,"##튎":15662,"##듨":15663,"##킆":15664,"##붯":15665,"##쁶":15666,"##뙴":15667,"##댬":15668,"##됒":15669,"##뫈":15670,"##럘":15671,"##걌":15672,"##챝":15673,"##쥇":15674,"##쑛":15675,"##땩":15676,"##풓":15677,"##돆":15678,"##퇻":15679,"##됰":15680,"##좥":15681,"##춯":15682,"##퐠":15683,"##곃":15684,"##켚":15685,"##읁":15686,"##쓍":15687,"##쇵":15688,"##묯":15689,"##뵽":15690,"##밇":15691,"##쀄":15692,"##웕":15693,"##쫔":15694,"##뼌":15695,"##냩":15696,"##몴":15697,"##웳":15698,"##꿻":15699,"##퉱":15700,"##휽":15701,"##펖":15702,"##믻":15703,"##쯸":15704,"##톮":15705,"##쬿":15706,"##럔":15707,"##됮":15708,"##틐":15709,"##촾":15710,"##볃":15711,"##뜼":15712,"##밠":15713,"##뿁":15714,"##칀":15715,"##쾩":15716,"##멶":15717,"##뷈":15718,"##뇄":15719,"##죕":15720,"##낶":15721,"##퐃":15722,"##텋":15723,"##귻":15724,"##턷":15725,"##쒹":15726,"##삗":15727,"##띅":15728,"##뚼":15729,"##롇":15730,"##갵":15731,"##뗃":15732,"##샢":15733,"##쐥":15734,"##됗":15735,"##쟹":15736,"##죻":15737,"##뗍":15738,"##콻":15739,"##훳":15740,"##칮":15741,"##섊":15742,"##띕":15743,"##윛":15744,"##뮺":15745,"##큳":15746,"##큾":15747,"##텂":15748,"##뜫":15749,"##뤕":15750,"##쨱":15751,"##탇":15752,"##쀨":15753,"##뿎":15754,"##슧":15755,"##닟":15756,"##캽":15757,"##젃":15758,"##릯":15759,"##셣":15760,"##븏":15761,"##녿":15762,"##뺶":15763,"##찳":15764,"##섟":15765,"##뭗":15766,"##댖":15767,"##쭟":15768,"##뜄":15769,"##귶":15770,"##뙓":15771,"##늇":15772,"##뽴":15773,"##헰":15774,"##쵮":15775,"##킫":15776,"##튔":15777,"##쬥":15778,"##넟":15779,"##밙":15780,"##씥":15781,"##풜":15782,"##빖":15783,"##젮":15784,"##뗳":15785,"##밻":15786,"##읧":15787,"##챽":15788,"##쉛":15789,"##왷":15790,"##쉇":15791,"##쒯":15792,"##읂":15793,"##떢":15794,"##졎":15795,"##뜜":15796,"##쯍":15797,"##좬":15798,"##톗":15799,"##칽":15800,"##큎":15801,"##닍":15802,"##킦":15803,"##큺":15804,"##틜":15805,"##믠":15806,"##캵":15807,"##뷥":15808,"##빾":15809,"##쉏":15810,"##춇":15811,"##콉":15812,"##뢘":15813,"##켞":15814,"##쁀":15815,"##퓹":15816,"##꿂":15817,"##퓙":15818,"##똟":15819,"##챶":15820,"##쭓":15821,"##땹":15822,"##뙭":15823,"##줕":15824,"##튓":15825,"##첱":15826,"##밮":15827,"##멊":15828,"##쵁":15829,"##쾽":15830,"##걩":15831,"##뽘":15832,"##꿯":15833,"##궳":15834,"##뱈":15835,"##뗉":15836,"##럌":15837,"##쬽":15838,"##븎":15839,"##짗":15840,"##쫅":15841,"##떗":15842,"##괋":15843,"##겷":15844,"##팓":15845,"##컀":15846,"##슡":15847,"##볽":15848,"##슠":15849,"##랛":15850,"##넎":15851,"##븻":15852,"##뤰":15853,"##춱":15854,"##픋":15855,"##굷":15856,"##궘":15857,"##긬":15858,"##깏":15859,"##썎":15860,"##븢":15861,"##닒":15862,"##쎂":15863,"##굸":15864,"##놩":15865,"##퉌":15866,"##릵":15867,"##밦":15868,"##혻":15869,"##댘":15870,"##숞":15871,"##푴":15872,"##욦":15873,"##뛩":15874,"##귥":15875,"##굛":15876,"##댦":15877,"##뒕":15878,"##뫞":15879,"##뿷":15880,"##땞":15881,"##뒗":15882,"##롊":15883,"##벉":15884,"##냌":15885,"##쌸":15886,"##슞":15887,"##좠":15888,"##뜵":15889,"##꼣":15890,"##탿":15891,"##좹":15892,"##뿩":15893,"##쎋":15894,"##잒":15895,"##똫":15896,"##즡":15897,"##꾕":15898,"##쫫":15899,"##긃":15900,"##댚":15901,"##쿶":15902,"##좊":15903,"##즵":15904,"##둽":15905,"##풴":15906,"##뺫":15907,"##젏":15908,"##폵":15909,"##쏏":15910,"##쩖":15911,"##싨":15912,"##쬴":15913,"##띧":15914,"##뫀":15915,"##믑":15916,"##뎔":15917,"##뗼":15918,"##궙":15919,"##힗":15920,"##흟":15921,"##헚":15922,"##릀":15923,"##쯈":15924,"##휔":15925,"##럮":15926,"##쏽":15927,"##쁎":15928,"##솏":15929,"##붆":15930,"##휗":15931,"##왛":15932,"##긆":15933,"##땈":15934,"##훁":15935,"##퀩":15936,"##쥌":15937,"##풹":15938,"##믇":15939,"##덀":15940,"##떟":15941,"##맕":15942,"##뷛":15943,"##콦":15944,"##쵭":15945,"##럣":15946,"##쩎":15947,"##띳":15948,"##웎":15949,"##췔":15950,"##뗔":15951,"##뇓":15952,"##죷":15953,"##슲":15954,"##텤":15955,"##놇":15956,"##뗸":15957,"##쑊":15958,"##떧":15959,"##턕":15960,"##꼔":15961,"##땳":15962,"##쉙":15963,"##빆":15964,"##돿":15965,"##둫":15966,"##쪌":15967,"##늧":15968,"##횓":15969,"##뙗":15970,"##쵇":15971,"##꼑":15972,"##쭨":15973,"##픤":15974,"##쿏":15975,"##턚":15976,"##삨":15977,"##뇾":15978,"##궖":15979,"##궋":15980,"##릥":15981,"##컺":15982,"##뱆":15983,"##즞":15984,"##옲":15985,"##뤳":15986,"##웴":15987,"##쵠":15988,"##붭":15989,"##쎤":15990,"##냟":15991,"##뛗":15992,"##줅":15993,"##빞":15994,"##엦":15995,"##첯":15996,"##깳":15997,"##꺐":15998,"##훞":15999,"##뛣":16000,"##꾫":16001,"##볙":16002,"##덢":16003,"##뤅":16004,"##멏":16005,"##딻":16006,"##꼵":16007,"##졓":16008,"##렾":16009,"##졜":16010,"##싟":16011,"##걁":16012,"##뙳":16013,"##홂":16014,"##믽":16015,"##샶":16016,"##콣":16017,"##벯":16018,"##뎗":16019,"##쑼":16020,"##맖":16021,"##왰":16022,"##솸":16023,"##뙜":16024,"##뼸":16025,"##뢓":16026,"##먘":16027,"##쟢":16028,"##벓":16029,"##좧":16030,"##쟻":16031,"##쿩":16032,"##젂":16033,"##뺚":16034,"##괠":16035,"##늭":16036,"##궯":16037,"##걿":16038,"##렧":16039,"##덦":16040,"##몟":16041,"##픐":16042,"##쫩":16043,"##훴":16044,"##짿":16045,"##좸":16046,"##풑":16047,"##뷇":16048,"##썝":16049,"##뿉":16050,"##뛷":16051,"##뗻":16052,"##펡":16053,"##븉":16054,"##찃":16055,"##쀒":16056,"##섺":16057,"##쵣":16058,"##쇙":16059,"##먏":16060,"##춬":16061,"##다.":16062,"##으로":16063,"##에서":16064,"##하는":16065,"20":16066,"##이다.":16067,"##지만":16068,"있다.":16069,"##었다.":16070,"##에게":16071,"##하고":16072,"201":16073,"##00":16074,"##한다.":16075,"##이라":16076,"있는":16077,"##고,":16078,"##다는":16079,"##했다.":16080,"##다고":16081,"19":16082,"때문":16083,"##..":16084,"##까지":16085,"##에는":16086,"##면서":16087,"##들이":16088,"##하게":16089,"##는데":16090,"##며,":16091,"한다.":16092,"##에서는":16093,"##적으로":16094,"경우":16095,"때문에":16096,"##였다.":16097,"사용":16098,"##적인":16099,"##하여":16100,"##레이":16101,"##부터":16102,"아니":16103,"이후":16104,"자신":16105,"##리고":16106,"##하기":16107,"공격":16108,"##해서":16109,"10":16110,"사람":16111,"##스트":16112,"##라는":16113,"##대로":16114,"##라고":16115,"##다가":16116,"##들은":16117,"##되었다.":16118,"다른":16119,"##하면":16120,"##이나":16121,"##지만,":16122,"정도":16123,"##들을":16124,"##으나":16125,"대한":16126,"##에도":16127,"##지는":16128,"##기도":16129,"##들의":16130,"200":16131,"등장":16132,"##기를":16133,"##하다.":16134,"##리는":16135,"것이":16136,"##되어":16137,"그리고":16138,"##기에":16139,"##하지":16140,"된다.":16141,"같은":16142,"가능":16143,"아이":16144,"##er":16145,"들어":16146,"##으며,":16147,"하나":16148,"하는":16149,"사실":16150,"12":16151,"하지만":16152,"게임":16153,"##으며":16154,"##하였다.":16155,"그러":16156,"시작":16157,"##는데,":16158,"일본":16159,"##거나":16160,"함께":16161,"이름":16162,"모습":16163,"##보다":16164,"##스터":16165,"##리를":16166,"##는다.":16167,"한국":16168,"위해":16169,"##았다.":16170,"##in":16171,"11":16172,"있었":16173,"##된다.":16174,"사이":16175,"##...":16176,"##이라고":16177,"##이라는":16178,"것을":16179,"이상":16180,"##되는":16181,"##기가":16182,"만들":16183,"##다면":16184,"문제":16185,"나오":16186,"생각":16187,"또한":16188,"##되었":16189,"##어서":16190,"##하며":16191,"##학교":16192,"따라":16193,"가장":16194,"##니다.":16195,"프로":16196,"##라이":16197,"##력을":16198,"다시":16199,"##에서도":16200,"당시":16201,"##리가":16202,"##on":16203,"##0년":16204,"##이었":16205,"##릭터":16206,"되었다.":16207,"##지를":16208,"##처럼":16209,"없는":16210,"모두":16211,"캐릭터":16212,"##력이":16213,"##데,":16214,"##이트":16215,"상대":16216,"15":16217,"##or":16218,"##기는":16219,"##8년":16220,"##으면":16221,"##an":16222,"모든":16223,"##리아":16224,"없다.":16225,"상황":16226,"플레이":16227,"것이다.":16228,"것으로":16229,"##스의":16230,"추가":16231,"결국":16232,"##지고":16233,"시간":16234,"했다.":16235,"##9년":16236,"현재":16237,"##이지":16238,"##이는":16239,"##자가":16240,"상태":16241,"자신의":16242,"다음":16243,"##7년":16244,"보여":16245,"것은":16246,"많이":16247,"미국":16248,"##하면서":16249,"그러나":16250,"존재":16251,"18":16252,"##리스":16253,"다만":16254,"시즌":16255,"##6년":16256,"그런":16257,"전투":16258,"보면":16259,"199":16260,"##리즈":16261,"선수":16262,"##ar":16263,"많은":16264,"##스를":16265,"스킬":16266,"세계":16267,"##성이":16268,"매우":16269,"##5년":16270,"##.1":16271,"카드":16272,"효과":16273,"##스가":16274,"##he":16275,"지역":16276,"##므로":16277,"##at":16278,"그래":16279,"##000":16280,"경기":16281,"나온":16282,"상당":16283,"##.0":16284,"##들에게":16285,"##인이":16286,"있었다.":16287,"기록":16288,"##4년":16289,"아니라":16290,"처음":16291,"이용":16292,"않는":16293,"16":16294,"물론":16295,"##가는":16296,"##사를":16297,"이유":16298,"##하였":16299,"##가지":16300,"여러":16301,"아닌":16302,"하고":16303,"그렇":16304,"돌아":16305,"실제":16306,"자체":16307,"일반":16308,"##인다.":16309,"##-1":16310,"필요":16311,"##들과":16312,"이런":16313,"##부분":16314,"13":16315,"##어진":16316,"시리즈":16317,"이미":16318,"##졌다.":16319,"바로":16320,"##지가":16321,"##이고":16322,"##en":16323,"##시키":16324,"해당":16325,"##하자":16326,"##시아":16327,"거의":16328,"영화":16329,"##주의":16330,"라이":16331,"##2년":16332,"역시":16333,"##상을":16334,"##사가":16335,"되어":16336,"##3년":16337,"특히":16338,"피해":16339,"##이스":16340,"기술":16341,"14":16342,"##인지":16343,"30":16344,"모습을":16345,"통해":16346,"##어나":16347,"##ou":16348,"주인":16349,"##도가":16350,"기본":16351,"관련":16352,"진행":16353,"##장을":16354,"마법":16355,"17":16356,"##국의":16357,"##기로":16358,"이야":16359,"같이":16360,"수도":16361,"아무":16362,"##지막":16363,"제작":16364,"##1년":16365,"##성을":16366,"##했던":16367,"위치":16368,"##라도":16369,"##로는":16370,"##에선":16371,"##al":16372,"대부분":16373,"##이었다.":16374,"##st":16375,"방송":16376,"좋은":16377,"부분":16378,"##해야":16379,"##이가":16380,"되었":16381,"사건":16382,"##거리":16383,"작품":16384,"##주는":16385,"마지막":16386,"일부":16387,"스타":16388,"계속":16389,"##스는":16390,"증가":16391,"##으나,":16392,"##20":16393,"##르는":16394,"않았":16395,"##린다.":16396,"##아서":16397,"참고":16398,"방어":16399,"않고":16400,"##로,":16401,"인간":16402,"활동":16403,"국가":16404,"달리":16405,"있어":16406,"##하고,":16407,"##전히":16408,"되는":16409,"서울":16410,"보고":16411,"않은":16412,"내용":16413,"있을":16414,"주인공":16415,"##리에":16416,"가지고":16417,"그의":16418,"이전":16419,"##드는":16420,"능력":16421,"##시에":16422,"비슷":16423,"인해":16424,"##시간":16425,"올라":16426,"##이며":16427,"##으니":16428,"어느":16429,"##정을":16430,"그냥":16431,"레이":16432,"레벨":16433,"100":16434,"##re":16435,"감독":16436,"성공":16437,"##어가":16438,"대해":16439,"##인의":16440,"이를":16441,"대신":16442,"##자를":16443,"##.2":16444,"##드를":16445,"정도로":16446,"수준":16447,"##도록":16448,"##장이":16449,"198":16450,"지금":16451,"25":16452,"##dd":16453,"##자의":16454,"##le":16455,"그녀":16456,"대표":16457,"##트를":16458,"##위를":16459,"기준":16460,"##수가":16461,"상당히":16462,"않는다.":16463,"높은":16464,"##it":16465,"최대":16466,"##있는":16467,"이동":16468,"보인다.":16469,"##렸다.":16470,"대한민":16471,"##10":16472,"##로운":16473,"나타":16474,"이는":16475,"##마다":16476,"제외":16477,"##와의":16478,"타이":16479,"##되고":16480,"중국":16481,"여기":16482,"결과":16483,"것도":16484,"것.":16485,"너무":16486,"##리의":16487,"인물":16488,"그대로":16489,"의미":16490,"##사의":16491,"좋아":16492,"##도를":16493,"의해":16494,"##드의":16495,"떨어":16496,"##ff":16497,"등의":16498,"##일에":16499,"##진다.":16500,"##이션":16501,"##들도":16502,"##기의":16503,"직접":16504,"전체":16505,"없이":16506,"##려고":16507,"동안":16508,"##이자":16509,"##수를":16510,"알려":16511,"받아":16512,"원래":16513,"언급":16514,"##스로":16515,"##도로":16516,"그는":16517,"##이며,":16518,"##ing":16519,"##ic":16520,"발매":16521,"##전을":16522,"-2":16523,"##르게":16524,"##자는":16525,"애니":16526,"관계":16527,"만들어":16528,"##로서":16529,"포함":16530,"하다.":16531,"##치는":16532,"##.5":16533,"##대의":16534,"##지도":16535,"소속":16536,"##번째":16537,"##리어":16538,"있던":16539,"경우가":16540,"전쟁":16541,"자신이":16542,"데미":16543,"##으로,":16544,"##정이":16545,"시절":16546,"지원":16547,"마음":16548,"##다!":16549,"이어":16550,"이것":16551,"과거":16552,"##대를":16553,"2018년":16554,"멤버":16555,"##하지만":16556,"##이지만":16557,"나오는":16558,"선택":16559,"문서":16560,"이에":16561,"##습니다.":16562,"##인데":16563,"위한":16564,"##드가":16565,"유저":16566,"##우는":16567,"##스타":16568,"##자.":16569,"##리지":16570,"##중에":16571,"연구":16572,"##하던":16573,"최고":16574,"유닛":16575,"많다.":16576,"자기":16577,"출연":16578,"##점을":16579,"##등학교":16580,"개발":16581,"설명":16582,"방법":16583,"21":16584,"50":16585,"##화를":16586,"평가":16587,"##없이":16588,"엄청":16589,"몬스터":16590,"##나는":16591,"크게":16592,"발생":16593,"있으며,":16594,"아버":16595,"사망":16596,"리그":16597,"영향":16598,"12월":16599,"##am":16600,"유명":16601,"불가":16602,"2019년":16603,"7월":16604,"찾아":16605,"나왔":16606,"스토":16607,"##이드":16608,"##인을":16609,"##치를":16610,"만든":16611,"2017년":16612,"##되지":16613,"##치가":16614,"##과는":16615,"8월":16616,"이루":16617,"4월":16618,"프랑":16619,"##어로":16620,"장면":16621,"3월":16622,"##트가":16623,"##,000":16624,"또는":16625,"9월":16626,"##하기도":16627,"10월":16628,"5월":16629,"실제로":16630,"##어난":16631,"있다는":16632,"이러":16633,"##상이":16634,"우승":16635,"##으로는":16636,"6월":16637,"초반":16638,"이때":16639,"지나":16640,"##이를":16641,"##원이":16642,"조금":16643,"##일,":16644,"주로":16645,"말을":16646,"##es":16647,"##랜드":16648,"22":16649,"공식":16650,"##la":16651,"도시":16652,"##이기":16653,"출신":16654,"운영":16655,"2016년":16656,"중요":16657,"24":16658,"##전에서":16659,"##과의":16660,"##이어":16661,"인터":16662,"##머니":16663,"##전에":16664,"##만큼":16665,"그것":16666,"##준다.":16667,"1월":16668,"##명이":16669,"##식을":16670,"##하며,":16671,"##리그":16672,"전부":16673,"사라":16674,"무기":16675,"사랑":16676,"제대로":16677,"최초":16678,"##el":16679,"##운드":16680,"the":16681,"##명을":16682,"아이템":16683,"자주":16684,"하지":16685,"없었":16686,"소환":16687,"정보":16688,"최종":16689,"##om":16690,"보여주":16691,"역할":16692,"##있다.":16693,"##이크":16694,"아직":16695,"##에서의":16696,"11월":16697,"서로":16698,"##리카":16699,"공격력":16700,"학생":16701,"이렇":16702,"친구":16703,"##와는":16704,"학교":16705,"##이터":16706,"여성":16707,"사회":16708,"프리":16709,"독일":16710,"노래":16711,"공개":16712,"가진":16713,"참고로":16714,"##자로":16715,"##했을":16716,"기존":16717,"23":16718,"파괴":16719,"##is":16720,"적이":16721,"강력":16722,"##명의":16723,"있어서":16724,"나온다.":16725,"비해":16726,"이벤":16727,"##개의":16728,"비교":16729,"##격을":16730,"##-0":16731,"등을":16732,"##였던":16733,"##니아":16734,"마찬":16735,"어떤":16736,"결정":16737,"형태":16738,"마찬가지":16739,"##50":16740,"##사는":16741,"##인은":16742,"변경":16743,"유지":16744,"정말":16745,"강화":16746,"##했고,":16747,"197":16748,"##라마":16749,"##르면":16750,"사람이":16751,"해도":16752,"당연":16753,"발견":16754,"보통":16755,"##나라":16756,"##대에":16757,"##스와":16758,"##같은":16759,"##하려":16760,"2015년":16761,"##히려":16762,"설정":16763,"##군의":16764,"때문이다.":16765,"##수의":16766,"##지의":16767,"바람":16768,"구성":16769,"2월":16770,"배우":16771,"##동안":16772,"음악":16773,"그런데":16774,"##프트":16775,"##서는":16776,"이러한":16777,"아래":16778,"오히려":16779,"살아":16780,"##오는":16781,"정신":16782,"아니다.":16783,"후반":16784,"##et":16785,"##하거나":16786,"##요.":16787,"##음을":16788,"등이":16789,"회복":16790,"##물을":16791,"조선":16792,"##회의":16793,"##나가":16794,"새로운":16795,"않았다.":16796,"##어도":16797,"주장":16798,"##트로":16799,"슈퍼":16800,"##지어":16801,"##점이":16802,"##스템":16803,"##ol":16804,"##자인":16805,"있으며":16806,"##ion":16807,"##원을":16808,"알고":16809,"##어를":16810,"있다고":16811,"##nd":16812,"유일":16813,"행동":16814,"게다가":16815,"##분에":16816,"이번":16817,"##하다":16818,"드래":16819,"40":16820,"##디오":16821,"자유":16822,"영상":16823,"가까":16824,"##는지":16825,"##했다고":16826,"여자":16827,"##-2":16828,"있는데,":16829,"모양":16830,"정부":16831,"같다.":16832,"사실상":16833,"##리오":16834,"그래서":16835,"노선":16836,"##이도":16837,"활약":16838,"월드":16839,"특수":16840,"##경기":16841,"##대가":16842,"하면":16843,"##30":16844,"부족":16845,"어려":16846,"일단":16847,"아예":16848,"승리":16849,"확률":16850,"##11":16851,"##지로":16852,"##이기도":16853,"대한민국":16854,"이렇게":16855,"동시에":16856,"주변":16857,"성능":16858,"##스,":16859,"들어가":16860,"##나마":16861,"정치":16862,"차지":16863,"##그램":16864,"##시켜":16865,"##화에서":16866,"##드로":16867,"##임을":16868,"비슷한":16869,"먼저":16870,"##통령":16871,"심지어":16872,"완전히":16873,"##적이":16874,"버전":16875,"확인":16876,"영국":16877,"생산":16878,"##화가":16879,"##ow":16880,"드러":16881,"가능하다.":16882,"스테":16883,"적용":16884,"방식":16885,"바뀌":16886,"수록":16887,"발동":16888,"##도의":16889,"그렇게":16890,"26":16891,"그리":16892,"성우":16893,"##ig":16894,"##밖에":16895,"힘들":16896,"##다며":16897,"시스템":16898,"내려":16899,"##il":16900,"##내는":16901,"그래도":16902,"모델":16903,"##상으로":16904,"##다\"":16905,"28":16906,"##ed":16907,"2014년":16908,"어떻":16909,"일이":16910,"##메이션":16911,"스트":16912,"보스":16913,"##구를":16914,"가지":16915,"좋다.":16916,"27":16917,"영웅":16918,"혹은":16919,"##스크":16920,"전에":16921,"##트의":16922,"##르고":16923,"대회":16924,"이야기":16925,"##보면":16926,"있는데":16927,"실패":16928,"참여":16929,"중심":16930,"성격":16931,"##하는데":16932,"##ac":16933,"##간에":16934,"한번":16935,"기사":16936,"자세":16937,"있지만":16938,"대통령":16939,"만나":16940,"31":16941,"##원의":16942,"전혀":16943,"차량":16944,"다양":16945,"우리":16946,"못한":16947,"데뷔":16948,"대학":16949,"196":16950,"패배":16951,"감소":16952,"##as":16953,"##대한":16954,"어떻게":16955,"##시킨":16956,"원작":16957,"동일":16958,"국내":16959,"사진":16960,"마을":16961,"##ve":16962,"위해서":16963,"##니까":16964,"않아":16965,"1,":16966,"획득":16967,"앨범":16968,"장비":16969,"있고":16970,"##BS":16971,"##더라도":16972,"지속":16973,"##!!":16974,"표현":16975,"만큼":16976,"얼굴":16977,"출시":16978,"##지에":16979,"##났다.":16980,"때는":16981,"불가능":16982,"얼마":16983,"발표":16984,"of":16985,"##했고":16986,"나가":16987,"오브":16988,"번째":16989,"계획":16990,"##.3":16991,"이제":16992,"설치":16993,"##른다.":16994,"반응":16995,"##이었던":16996,"체력":16997,"##간다.":16998,"##인데,":16999,"플레이어":17000,"##라의":17001,"##어버":17002,"애니메이션":17003,"##움을":17004,"##이의":17005,"##장의":17006,"##대학교":17007,"힘을":17008,"굉장":17009,"##보다는":17010,"##체를":17011,"스페":17012,"기능":17013,"바이":17014,"없어":17015,"드라마":17016,"인정":17017,"##자,":17018,"특성":17019,"축구":17020,"자동":17021,"움직":17022,"등장하는":17023,"역사":17024,"##라가":17025,"정확":17026,"따라서":17027,"##다'":17028,"제1":17029,"##제가":17030,"가져":17031,"명칭":17032,"이름을":17033,"##버스":17034,"진출":17035,"##0년대":17036,"담당":17037,"##우스":17038,"판매":17039,"기억":17040,"대체":17041,"##해도":17042,"하루":17043,"문제가":17044,"있고,":17045,"사용하는":17046,"에피":17047,"남자":17048,"그나마":17049,"##상의":17050,"쓰는":17051,"특징":17052,"드래곤":17053,"##으로서":17054,"##수는":17055,"자신을":17056,"받은":17057,"상승":17058,"요구":17059,"아마":17060,"##문을":17061,"경우도":17062,"따르면":17063,"참가":17064,"##도는":17065,"덕분에":17066,"##으므로":17067,"다이":17068,"##ot":17069,"경찰":17070,"중앙":17071,"수비":17072,"##들에":17073,"있기":17074,"작중":17075,"남아":17076,"##장에서":17077,"선발":17078,"조건":17079,"개인":17080,"있게":17081,"하였다.":17082,"202":17083,"그림":17084,"공격을":17085,"##제를":17086,"고려":17087,"##조차":17088,"밝혀":17089,"##라면":17090,"##권을":17091,"##부의":17092,"받고":17093,"상위":17094,"마이":17095,"##피언":17096,"러시아":17097,"##했다는":17098,"##했지만":17099,"##사로":17100,"##한다는":17101,"2017":17102,"물리":17103,"가능한":17104,"2013년":17105,"##ad":17106,"하이":17107,"선거":17108,"29":17109,"##장은":17110,"##군이":17111,"##아가":17112,"각각":17113,"##수로":17114,"이벤트":17115,"에피소":17116,"후보":17117,"Lv":17118,"건물":17119,"더욱":17120,"듯.":17121,"다르":17122,"2차":17123,"##전이":17124,"##.4":17125,"우주":17126,"강력한":17127,"자체가":17128,"##한테":17129,"넘어":17130,"주요":17131,"항목":17132,"순간":17133,"구조":17134,"대해서":17135,"경험":17136,"어머니":17137,"해서":17138,"##계를":17139,"현대":17140,"제공":17141,"주의":17142,"##지지":17143,"##적을":17144,"비판":17145,"##문에":17146,"프로그램":17147,"사람들이":17148,"##지,":17149,"결혼":17150,"##레벨":17151,"상대로":17152,"시점":17153,"가족":17154,"교육":17155,"-1":17156,"작가":17157,"확실":17158,"##리,":17159,"시간이":17160,"##장에":17161,"##스러":17162,"##부에":17163,"후에":17164,"초기":17165,"굉장히":17166,"어린":17167,"가격":17168,"편이다.":17169,"##리와":17170,"##되면서":17171,"##부를":17172,"아르":17173,"불구":17174,"위험":17175,"챔피언":17176,"##위원":17177,"어렵":17178,"2012년":17179,"##id":17180,"단순":17181,"보내":17182,"과정":17183,"194":17184,"##ch":17185,"##선을":17186,"##대는":17187,"##치고":17188,"사용할":17189,"피해를":17190,"##감을":17191,"##mm":17192,"프랑스":17193,"2000":17194,"마찬가지로":17195,"나와":17196,"##량이":17197,"아주":17198,"일으":17199,"말이":17200,"여기서":17201,"준비":17202,"어디":17203,"참조":17204,"나머":17205,"The":17206,"무시":17207,"폭발":17208,"##장으로":17209,"유럽":17210,"여담":17211,"받았":17212,"지구":17213,"있었던":17214,"##트는":17215,"##이라면":17216,"진짜":17217,"##리로":17218,"대미":17219,"##체가":17220,"가능성이":17221,"##으면서":17222,"##타를":17223,"##치로":17224,"가면":17225,"제한":17226,"활용":17227,"작은":17228,"메이":17229,"##레이드":17230,"되고":17231,"약간":17232,"##까지는":17233,"속성":17234,"않다.":17235,"쉽게":17236,"제2":17237,"엄청난":17238,"대전":17239,"##ay":17240,"가는":17241,"방영":17242,"여전히":17243,"##정한":17244,"##키는":17245,"for":17246,"히로":17247,"##리티":17248,"##.6":17249,"알아":17250,"보이":17251,"받는":17252,"영향을":17253,"##시키는":17254,"##업을":17255,"한편":17256,"St":17257,"국제":17258,"지하":17259,"시청":17260,"제국":17261,"##시즌":17262,"##ER":17263,"동료":17264,"60":17265,"마스터":17266,"부산":17267,"발사":17268,"크리스":17269,"논란":17270,"다음과":17271,"##.7":17272,"수가":17273,"훨씬":17274,"##.\"":17275,"1일":17276,"클리어":17277,"사고":17278,"그가":17279,"##력은":17280,"##리기":17281,"패턴":17282,"##었던":17283,"기간":17284,"못하고":17285,"분위":17286,"현실":17287,"##us":17288,"당연히":17289,"##식이":17290,"##인물":17291,"쓰러":17292,"인구":17293,"방향":17294,"보호":17295,"##려서":17296,"강한":17297,"연결":17298,"이해":17299,"##위로":17300,"주는":17301,"##심을":17302,"그를":17303,"특별":17304,"2010년":17305,"##개를":17306,"이탈":17307,"하며":17308,"##없는":17309,"혼자":17310,"다양한":17311,"크로":17312,"##행을":17313,"##티브":17314,"역할을":17315,"계약":17316,"##로부터":17317,"##하다는":17318,"FC":17319,"##히는":17320,"##만이":17321,"해결":17322,"한정":17323,"나이":17324,"##40":17325,"최근":17326,"기준으로":17327,"적을":17328,"조합":17329,"##만한":17330,"브라":17331,"##정도":17332,"잡아":17333,"##사와":17334,"##ro":17335,"잘못":17336,"##놓고":17337,"##제로":17338,"국민":17339,"파워":17340,"취급":17341,"삼성":17342,"지방":17343,"##해주":17344,"중요한":17345,"##시의":17346,"##.8":17347,"블랙":17348,"영어":17349,"##로를":17350,"195":17351,"##라인":17352,"도망":17353,"##수록":17354,"##다니":17355,"##프를":17356,"받았다.":17357,"##합니다.":17358,"##겠다고":17359,"##게임":17360,"의견":17361,"본인":17362,"2011년":17363,"##나,":17364,"##자기":17365,"추정":17366,"##이고,":17367,"##다,":17368,"##레스":17369,"##만에":17370,"소모":17371,"##위에":17372,"스토리":17373,"보는":17374,"생활":17375,"##라운드":17376,"않을":17377,"##기,":17378,"자연":17379,"##위가":17380,"TV":17381,"##학년":17382,"##ir":17383,"처리":17384,"##BC":17385,"경제":17386,"운동":17387,"문제는":17388,"때문.":17389,"문화":17390,"출전":17391,"기타":17392,"것에":17393,"##면,":17394,"다니":17395,"버스":17396,"##사에":17397,"조직":17398,"없었다.":17399,"##!\"":17400,"오래":17401,"전용":17402,"충분":17403,"##인트":17404,"##자와":17405,"이루어":17406,"나무":17407,"##도,":17408,"라인":17409,"정도.":17410,"##지션":17411,"##듯이":17412,"운행":17413,"##신이":17414,"##학생":17415,"비롯":17416,"##나게":17417,"불구하고":17418,"##비아":17419,"방면":17420,"스스로":17421,"이유는":17422,"오른":17423,"##난다.":17424,"##로가":17425,"##세기":17426,"##이란":17427,"##일을":17428,"##단의":17429,"2018":17430,"##만을":17431,"장착":17432,"##대학":17433,"아버지":17434,"하여":17435,"##한다고":17436,"##소를":17437,"대부분의":17438,"##회를":17439,"보이는":17440,"##신을":17441,"##가를":17442,"느낌":17443,"##성은":17444,"아들":17445,"##ht":17446,"낮은":17447,"##나이":17448,"##성의":17449,"##라를":17450,"##12":17451,"예정":17452,"전문":17453,"##명은":17454,"독립":17455,"아군":17456,"타입":17457,"등장한다.":17458,"##기와":17459,"에너":17460,"연속":17461,"이유로":17462,"##갔다.":17463,"들고":17464,"중에":17465,"##자들이":17466,"부활":17467,"내가":17468,"##th":17469,"퀘스트":17470,"수상":17471,"입장":17472,"##un":17473,"미션":17474,"##im":17475,"##'라는":17476,"##이즈":17477,"유니":17478,"아이돌":17479,"##져서":17480,"구간":17481,"##보니":17482,"종료":17483,"##르크":17484,"##원은":17485,"##하다고":17486,"싱글":17487,"HP":17488,"모드":17489,"나는":17490,"이상의":17491,"달성":17492,"##의를":17493,"편.":17494,"경우는":17495,"말한다.":17496,"절대":17497,"##ur":17498,"더불":17499,"##시켰":17500,"##하다가":17501,"##카이":17502,"일본의":17503,"##.9":17504,"##km":17505,"되면":17506,"번역":17507,"##od":17508,"타고":17509,"하기":17510,"관리":17511,"##초에":17512,"##당한":17513,"제목":17514,"##냈다.":17515,"##전의":17516,"항공":17517,"##t;":17518,"##라서":17519,"##데이트":17520,"되지":17521,"포켓":17522,"##지게":17523,"##세대":17524,"메인":17525,"##dddd":17526,"졸업":17527,"반대":17528,"##이면":17529,"소설":17530,"종류":17531,"엔딩":17532,"##유의":17533,"##시를":17534,"##으로도":17535,"근접":17536,"생존":17537,"##가가":17538,"##사,":17539,"자리":17540,"##스에":17541,"##시마":17542,"야구":17543,"##에게는":17544,"##야마":17545,"목소":17546,"배경":17547,"만약":17548,"##말로":17549,"일을":17550,"나머지":17551,"민주":17552,"##림픽":17553,"시도":17554,"현재는":17555,"##15":17556,"##32":17557,"일어나":17558,"대한민국의":17559,"더불어":17560,"##왔다.":17561,"목표":17562,"##력으로":17563,"##ut":17564,"로마":17565,"검은":17566,"위에":17567,"세이":17568,"##함을":17569,"엔진":17570,"대상":17571,"최소":17572,"지휘":17573,"업데이트":17574,"스피":17575,"##했으며,":17576,"##어들":17577,"했지만":17578,"SK":17579,"가끔":17580,"##기고":17581,"난이도":17582,"그룹":17583,"##원으로":17584,"속도":17585,"##ST":17586,"##공격":17587,"##시가":17588,"밖에":17589,"##비가":17590,"하면서":17591,"일정":17592,"대사":17593,"##관이":17594,"에피소드":17595,"##신의":17596,"##조건":17597,"공연":17598,"##일이":17599,"배틀":17600,"##운데":17601,"제외한":17602,"만화":17603,"##같이":17604,"##ver":17605,"신경":17606,"##세를":17607,"##ag":17608,"항상":17609,"##려는":17610,"성장":17611,"##점으로":17612,"##19":17613,"부르":17614,"##단을":17615,"##종의":17616,"##ec":17617,"건설":17618,"수정":17619,"##마저":17620,"##혔다.":17621,"##거나,":17622,"##로의":17623,"두고":17624,"##부가":17625,"##겼다.":17626,"얻을":17627,"2019":17628,"유리":17629,"분노":17630,"능력을":17631,"##리게":17632,"소재":17633,"아프":17634,"유명한":17635,"이끌":17636,"정식":17637,"직업":17638,"##카와":17639,"##60":17640,"정도의":17641,"##군은":17642,"생긴":17643,"##스티":17644,"전국":17645,"전설":17646,"사람은":17647,"##37":17648,"##?\"":17649,"비행":17650,"북한":17651,"##으로써":17652,"##이로":17653,"오늘":17654,"무엇":17655,"미국의":17656,"전작":17657,"##라며":17658,"##지기":17659,"##어진다.":17660,"계열":17661,"##ent":17662,"##계의":17663,"포켓몬":17664,"좋지":17665,"##호를":17666,"작곡":17667,"##상에":17668,"##되기":17669,"##물이":17670,"사실을":17671,"싸우":17672,"해야":17673,"2016":17674,"##선이":17675,"인터뷰":17676,"나왔다.":17677,"##냐고":17678,"이탈리아":17679,"##버린":17680,"##주를":17681,"##리면":17682,"##했으나":17683,"##비를":17684,"자랑":17685,"you":17686,"##시로":17687,"미사":17688,"35":17689,"높다.":17690,"##나의":17691,"것과":17692,"부여":17693,"각종":17694,"끝나":17695,"##어야":17696,"##선의":17697,"다르게":17698,"##서를":17699,"거기":17700,"하지만,":17701,"미래":17702,"과학":17703,"빠른":17704,"상황에서":17705,"##방송":17706,"이름이":17707,"위치한":17708,"##무를":17709,"##여서":17710,"##시는":17711,"수는":17712,"이외":17713,"괜찮":17714,"만드는":17715,"바람에":17716,"##스럽":17717,"비밀":17718,"##겠지만":17719,"전반":17720,"##ak":17721,"##하지만,":17722,"불러":17723,"결승":17724,"##음에도":17725,"연출":17726,"적은":17727,"누구":17728,"특정":17729,"##해진":17730,"참조.":17731,"##수한":17732,"서비":17733,"32":17734,"2009년":17735,"있지만,":17736,"모습이":17737,"등으로":17738,"때,":17739,"있다":17740,"##다운":17741,"기관":17742,"##디어":17743,"엘리":17744,"##이라도":17745,"##호가":17746,"정작":17747,"설립":17748,"스파":17749,"##미가":17750,"훈련":17751,"##cm":17752,"묘사":17753,"케이":17754,"80":17755,"시전":17756,"193":17757,"1회":17758,"라고":17759,"소녀":17760,"##동을":17761,"##모토":17762,"##었다고":17763,"나서":17764,"평균":17765,"분류":17766,"##....":17767,"스테이지":17768,"못하는":17769,"전차":17770,"##장,":17771,"##움이":17772,"행정":17773,"따로":17774,"##부터는":17775,"자세한":17776,"##스러운":17777,"제일":17778,"1년":17779,"##외로":17780,"##고를":17781,"##()":17782,"예상":17783,"때문에,":17784,"근처":17785,"있다면":17786,"##단이":17787,"70":17788,"2008년":17789,"기반":17790,"시작했다.":17791,"별로":17792,"모르":17793,"타카":17794,"클래":17795,"연기":17796,"##어의":17797,"##하라":17798,"갑자기":17799,"##80":17800,"##대표":17801,"##구가":17802,"포지션":17803,"보유":17804,"소개":17805,"##이,":17806,"##더니":17807,"개념":17808,"달려":17809,"나름":17810,"않게":17811,"##크로":17812,"필요한":17813,"경우에는":17814,"명령":17815,"##지와":17816,"1차":17817,"##고는":17818,"지도":17819,"뒤에":17820,"to":17821,"없을":17822,"##쪽으로":17823,"예를":17824,"이름은":17825,"안에":17826,"악마":17827,"하늘":17828,"##프로":17829,"아키":17830,"종족":17831,"지난":17832,"것이라고":17833,"##mu":17834,"##제의":17835,"##세가":17836,"여담으로":17837,"1위":17838,"확정":17839,"효과를":17840,"일행":17841,"아카":17842,"게임을":17843,"교체":17844,"상황이":17845,"최고의":17846,"인천":17847,"안정":17848,"##군을":17849,"발전":17850,"집중":17851,"수행":17852,"공중":17853,"있으니":17854,"처음으로":17855,"스포":17856,"##ub":17857,"##입니다.":17858,"나중에":17859,"지정":17860,"압도":17861,"##크를":17862,"사냥":17863,"##ffff":17864,"##소가":17865,"연합":17866,"월드컵":17867,"나타나":17868,"경쟁":17869,"없고":17870,"지지":17871,"사이에":17872,"##계가":17873,"가까운":17874,"부모":17875,"표기":17876,"본인이":17877,"##'의":17878,"파티":17879,"이걸":17880,"등장인물":17881,"##이다":17882,"in":17883,"지켜":17884,"##부는":17885,"##란드":17886,"못했다.":17887,"즉,":17888,"잠시":17889,"생명":17890,"##'를":17891,"##율이":17892,"특이":17893,"##고등학교":17894,"배치":17895,"##리며":17896,"본래":17897,"##부로":17898,"애초에":17899,"각성":17900,"##원에":17901,"식으로":17902,"소련":17903,"외국":17904,"머리":17905,"##',":17906,"기대":17907,"없다는":17908,"경우,":17909,"언제":17910,"탈출":17911,"##야말로":17912,"나올":17913,"이용해":17914,"파이":17915,"이게":17916,"존재한다.":17917,"##지면":17918,"##인으로":17919,"죽은":17920,"있으면":17921,"##보는":17922,"사례":17923,"갖고":17924,"2000년":17925,"##타로":17926,"##하나":17927,"##스테":17928,"##mula":17929,"기다":17930,"하게":17931,"없다고":17932,"최강":17933,"빠르게":17934,"##치기":17935,"차이가":17936,"물건":17937,"일러":17938,"벌어":17939,"이적":17940,"치명":17941,"##mula_":17942,"위의":17943,"##-3":17944,"##았던":17945,"도입":17946,"##역을":17947,"제거":17948,"보니":17949,"새로":17950,"##가의":17951,"##스코":17952,"##ight":17953,"이야기를":17954,"##량을":17955,"##상은":17956,"##됐다.":17957,"고양":17958,"##em":17959,"중에서":17960,"##트라":17961,"사용자가":17962,"##만의":17963,"군사":17964,"대기":17965,"##타임":17966,"부정":17967,"목록":17968,"##되었고,":17969,"지배":17970,"##스케":17971,"등장한":17972,"##드시":17973,"무슨":17974,"라는":17975,"다크":17976,"##었고,":17977,"##'을":17978,"빠져":17979,"기동":17980,"그녀의":17981,"유사":17982,"카운":17983,"도쿄":17984,"좋아하는":17985,"##간의":17986,"바꾸":17987,"완전":17988,"formula_":17989,"##화의":17990,"베이":17991,"달라":17992,"접근":17993,"이후로":17994,"말에":17995,"아니면":17996,"##ON":17997,"야마":17998,"나라":17999,"vs":18000,"관한":18001,"2007년":18002,"##치의":18003,"이쪽":18004,"복귀":18005,"##즈의":18006,"##ce":18007,"##하였고,":18008,"가운데":18009,"건담":18010,"라이브":18011,"남성":18012,"##:0":18013,"과정에서":18014,"##16":18015,"직후":18016,"기본적으로":18017,"저지":18018,"등급":18019,"##언을":18020,"올림픽":18021,"도착":18022,"여기에":18023,"제품":18024,"##도에":18025,"대구":18026,"##AR":18027,"유일한":18028,"2,":18029,"남은":18030,"촬영":18031,"##,#":18032,"##25":18033,"음반":18034,"##학과":18035,"##체의":18036,"##내고":18037,"##냐는":18038,"##문이":18039,"##했으며":18040,"##타가":18041,"무려":18042,"##스토":18043,"동생":18044,"##심이":18045,"가르":18046,"##터를":18047,"##'라고":18048,"포기":18049,"시험":18050,"타격":18051,"변신":18052,"사람을":18053,"연습":18054,"블루":18055,"##롭게":18056,"보기":18057,"##이니":18058,"##os":18059,"##ri":18060,"살해":18061,"##:00":18062,"500":18063,"##감이":18064,"정규":18065,"##um":18066,"날아":18067,"돌아가":18068,"##진이":18069,"죽음":18070,"45":18071,"##ap":18072,"공동":18073,"##로우":18074,"##미를":18075,"역대":18076,"##많은":18077,"보아":18078,"경기에서":18079,"반면":18080,"사용한다.":18081,"##AN":18082,"완성":18083,"이곳":18084,"했던":18085,"치료":18086,"알게":18087,"##차가":18088,"##버렸다.":18089,"끝에":18090,"##낸다.":18091,"##'s":18092,"고정":18093,"하는데":18094,"분명":18095,"회피":18096,"##프가":18097,"중간":18098,"하였":18099,"업그":18100,"듣고":18101,"##주고":18102,"링크":18103,"##48":18104,"상태에서":18105,"인도":18106,"##광역":18107,"상당한":18108,"추천":18109,"##에만":18110,"데미지":18111,"범위":18112,"192":18113,"해외":18114,"유튜":18115,"동물":18116,"##주가":18117,"때마다":18118,"심각":18119,"타이틀":18120,"통합":18121,"조종":18122,"반드시":18123,"##관을":18124,"##화국":18125,"환경":18126,"받을":18127,"##점은":18128,"준다.":18129,"일러스트":18130,"##\"라고":18131,"이하":18132,"LG":18133,"##한다":18134,"##18":18135,"##and":18136,"저항":18137,"이건":18138,"##력과":18139,"##했는데":18140,"기업":18141,"프레":18142,"##어는":18143,"싫어":18144,"부탁":18145,"효과가":18146,"비용":18147,"탈락":18148,"##자들은":18149,"뛰어난":18150,"주민":18151,"다루":18152,"완벽":18153,"2개":18154,"합류":18155,"정상":18156,"실험":18157,"소리":18158,"지상":18159,"추측":18160,"공간":18161,"경기를":18162,"##했는데,":18163,"투수":18164,"##러스":18165,"##들어":18166,"##이지만,":18167,"몇몇":18168,"##지면서":18169,"##들로":18170,"회사":18171,"에이":18172,"한다는":18173,"마무":18174,"미니":18175,"90":18176,"##민주":18177,"상관":18178,"어둠":18179,"점을":18180,"후,":18181,"##문의":18182,"하자":18183,"##트에":18184,"유일하게":18185,"##마가":18186,"인터넷":18187,"자리를":18188,"자체는":18189,"오버":18190,"앞에":18191,"종종":18192,"##진을":18193,"정의":18194,"개최":18195,"##체는":18196,"판단":18197,"규모":18198,"##라,":18199,"느끼":18200,"반대로":18201,"##형을":18202,"가수":18203,"요시":18204,"##술을":18205,"구매":18206,"이로":18207,"열린":18208,"우선":18209,"연재":18210,"전략":18211,"##드에":18212,"##화된":18213,"점점":18214,"삭제":18215,"##받은":18216,"무장":18217,"시간을":18218,"##마자":18219,"롯데":18220,"팀의":18221,"수많은":18222,"1개":18223,"알려져":18224,"##스카":18225,"-3":18226,"##구의":18227,"충격":18228,"기념":18229,"##주로":18230,"##두고":18231,"##인,":18232,"전통":18233,"리더":18234,"##아버":18235,"##드와":18236,"##보를":18237,"##키가":18238,"종교":18239,"조사":18240,"##우가":18241,"도중":18242,"##시킬":18243,"##금을":18244,"많아":18245,"구분":18246,"##탄을":18247,"##세계":18248,"스코":18249,"##키의":18250,"##정에":18251,"2006년":18252,"높아":18253,"올려":18254,"다소":18255,"봐도":18256,"##터가":18257,"##겠다는":18258,"소유":18259,"##파트":18260,"##석이":18261,"생성":18262,"기계":18263,"트리":18264,"없어서":18265,"##지에서":18266,"프로젝":18267,"개봉":18268,"##이와":18269,"##일러":18270,"##지.":18271,"불리":18272,"시대":18273,"장소":18274,"쓰고":18275,"##것도":18276,"No":18277,"EX":18278,"##FA":18279,"##일부터":18280,"##플레이":18281,"##회가":18282,"##용으로":18283,"생각해":18284,"카드를":18285,"떠나":18286,"##단계":18287,"시리즈의":18288,"##하는데,":18289,"전기":18290,"##크가":18291,"Ch":18292,"보여준다.":18293,"아내":18294,"공포":18295,"상태로":18296,"인한":18297,"암살":18298,"맞추":18299,"디자인":18300,"##되면":18301,"##하자.":18302,"바다":18303,"요청":18304,"##인과":18305,"제외하면":18306,"그린":18307,"2년":18308,"싸움":18309,"##스에서":18310,"##가,":18311,"컴퓨":18312,"##받는":18313,"##차를":18314,"##르트":18315,"정리":18316,"않으면":18317,"300":18318,"and":18319,"의외로":18320,"순위":18321,"##14":18322,"##질을":18323,"##하도록":18324,"도와":18325,"##IN":18326,"히어로":18327,"##특별":18328,"평범":18329,"화면":18330,"아니고":18331,"KBS":18332,"##트리":18333,"3개":18334,"마사":18335,"##되며":18336,"장갑":18337,"그야말로":18338,"33":18339,"##어,":18340,"변화":18341,"전사":18342,"대중":18343,"##력의":18344,"##적은":18345,"무조건":18346,"사업":18347,"최초의":18348,"##원,":18349,"##판을":18350,"##무라":18351,"워낙":18352,"전개":18353,"데이터":18354,"2020년":18355,"##원에서":18356,"듯하다.":18357,"카이":18358,"##적으로는":18359,"스크":18360,"##으로부터":18361,"##르의":18362,"어려운":18363,"##시,":18364,"최초로":18365,"홈런":18366,"외에도":18367,"본격":18368,"##로그":18369,"것처럼":18370,"##호선":18371,"##크의":18372,"하고,":18373,"##석을":18374,"##정은":18375,"다행":18376,"단,":18377,"##TV":18378,"##쪽에":18379,"##식으로":18380,"빨리":18381,"이와":18382,"##라스":18383,"##%,":18384,"##이므로":18385,"가서":18386,"도전":18387,"##지라":18388,"2015":18389,"##op":18390,"##로드":18391,"##성에":18392,"##ul":18393,"##/2":18394,"없음":18395,"##운동":18396,"이름으로":18397,"##버린다.":18398,"위협":18399,"확장":18400,"상징":18401,"##1,":18402,"##속도":18403,"##방을":18404,"아무리":18405,"일어":18406,"부하":18407,"##아의":18408,"##세의":18409,"##한다면":18410,"##안을":18411,"##마의":18412,"한글":18413,"##니티":18414,"평소":18415,"비중":18416,"개그":18417,"진화":18418,"##ck":18419,"스위":18420,"비롯한":18421,"경기도":18422,"##ter":18423,"투입":18424,"최후":18425,"그걸":18426,"##했기":18427,"레드":18428,"사람들은":18429,"시설":18430,"충분히":18431,"적의":18432,"굳이":18433,"##에게서":18434,"##승을":18435,"##ation":18436,"안전":18437,"##일의":18438,"의하면":18439,"지키":18440,"##었고":18441,"오프":18442,"데미지를":18443,"##가와":18444,"때까지":18445,"범죄":18446,"중반":18447,"대응":18448,"##적이다.":18449,"##군에":18450,"##이에":18451,"영혼":18452,"거부":18453,"작업":18454,"##법을":18455,"보다":18456,"##교육":18457,"로봇":18458,"탓에":18459,"언론":18460,"무한":18461,"##ra":18462,"사무":18463,"##정의":18464,"##13":18465,"##17":18466,"관련된":18467,"등에":18468,"##이닝":18469,"끌어":18470,"##수도":18471,"표시":18472,"능력이":18473,"카메":18474,"36":18475,"##'로":18476,"##온다.":18477,"돈을":18478,"##왕의":18479,"마나":18480,"##조의":18481,"##트에서":18482,"##보고":18483,"##세이":18484,"##보다도":18485,"##었을":18486,"##동생":18487,"##지역":18488,"밝혔다.":18489,"옵션":18490,"2005년":18491,"km":18492,"대형":18493,"##호는":18494,"버그":18495,"##2,":18496,"##드리":18497,"##성과":18498,"붉은":18499,"##부에서":18500,"그리스":18501,"##대전":18502,"마르":18503,"##구에":18504,"기존의":18505,"희생":18506,"##트와":18507,"조작":18508,"대화":18509,"거기에":18510,"트위":18511,"##자에":18512,"##다른":18513,"손을":18514,"통과":18515,"운용":18516,"성향":18517,"##인가":18518,"성우는":18519,"파일":18520,"생각하면":18521,"##하려고":18522,"점령":18523,"##회에서":18524,"특유의":18525,"맞춰":18526,"듯한":18527,"시민":18528,"하며,":18529,"##라이더":18530,"오리지":18531,"##시오":18532,"보조":18533,"간단":18534,"##너스":18535,"##바이":18536,"네이":18537,"##페이지":18538,"##시브":18539,"말하는":18540,"##나와":18541,"데이":18542,"##경을":18543,"th":18544,"##기사":18545,"##IC":18546,"##미의":18547,"##쳤다.":18548,"거쳐":18549,"제3":18550,"점이":18551,"대결":18552,"##래도":18553,"##'이라는":18554,"하드":18555,"얼마나":18556,"##미널":18557,"사기":18558,"태양":18559,"본인의":18560,"MA":18561,"플래":18562,"오랜":18563,"정책":18564,"패치":18565,"##제는":18566,"##드,":18567,"##요일":18568,"극장":18569,"##자들의":18570,"프로듀":18571,"시기":18572,"명중":18573,"##라우":18574,"주고":18575,"내에서":18576,"맞는":18577,"투표":18578,"선생":18579,"##로도":18580,"빼앗":18581,"##텐츠":18582,"##분이":18583,"선정":18584,"가깝":18585,"##려면":18586,"반복":18587,"불과":18588,"##남도":18589,"사격":18590,"##약을":18591,"##음이":18592,"인식":18593,"마리":18594,"장면이":18595,"##수,":18596,"무리":18597,"확률로":18598,"다운":18599,"있지":18600,"유튜브":18601,"##레인":18602,"시나":18603,"중심으로":18604,"얻어":18605,"클럽":18606,"##했지만,":18607,"마치":18608,"체력이":18609,"##론을":18610,"##단에":18611,"사는":18612,"MBC":18613,"##시킨다.":18614,"앞서":18615,"나오지":18616,"3일":18617,"오르":18618,"은퇴":18619,"재료":18620,"##인들이":18621,"고대":18622,"디지":18623,"이들은":18624,"##레이션":18625,"그럼":18626,"철도":18627,"##시대":18628,"대학교":18629,"지금은":18630,"되면서":18631,"##다고.":18632,"내용은":18633,"##스탄":18634,"##명으로":18635,"##70":18636,"신체":18637,"앞에서":18638,"화염":18639,"힘든":18640,"2004년":18641,"선언":18642,"뛰어":18643,"난이":18644,"영입":18645,"서술":18646,"데려":18647,"진입":18648,"디자":18649,"38":18650,"소년":18651,"거두":18652,"후속":18653,"몸을":18654,"34":18655,"득점":18656,"##되었으며,":18657,"대표적인":18658,"##그룹":18659,"2회":18660,"하는데,":18661,"##해를":18662,"##때문에":18663,"개조":18664,"서버":18665,"붙어":18666,"##치게":18667,"나이트":18668,"##실을":18669,"##광역시":18670,"##전은":18671,"100%":18672,"바라":18673,"##사카":18674,"##다시":18675,"##아이":18676,"적극":18677,"적에게":18678,"##리온":18679,"SP":18680,"##90":18681,"입고":18682,"패러":18683,"##소년":18684,"##트,":18685,"소비":18686,"인기":18687,"사태":18688,"외모":18689,"사쿠":18690,"모르는":18691,"여름":18692,"그저":18693,"##정으로":18694,"받는다.":18695,"##규모":18696,"##시티":18697,"##kg":18698,"##기관":18699,"근데":18700,"##임이":18701,"You":18702,"바닥":18703,"방문":18704,"##라.":18705,"##하니":18706,"##장과":18707,"살아남":18708,"##전쟁":18709,"오오":18710,"##러가":18711,"때도":18712,"말았다.":18713,"하나의":18714,"자료":18715,"목숨":18716,"점프":18717,"올라가":18718,"불안":18719,"보상":18720,"초대":18721,"포함한":18722,"##RA":18723,"##art":18724,"##전으로":18725,"다만,":18726,"설계":18727,"공략":18728,"국회의":18729,"문제를":18730,"##형이":18731,"이후에":18732,"좀비":18733,"##버리":18734,"노동":18735,"광주":18736,"적절":18737,"미드":18738,"##ie":18739,"그려":18740,"사람의":18741,"주문":18742,"무너":18743,"게이":18744,"방어력":18745,"장난":18746,"191":18747,"대해서는":18748,"형성":18749,"이기":18750,"##만으로":18751,"의한":18752,"##스킬":18753,"활동을":18754,"##방에":18755,"##도우":18756,"대단":18757,"아는":18758,"그때":18759,"##ia":18760,"알렉":18761,"컨셉":18762,"오토":18763,"지닌":18764,"##해졌다.":18765,"채널":18766,"살인":18767,"분리":18768,"단순히":18769,"마무리":18770,"단계":18771,"전환":18772,"꽤나":18773,"##제에":18774,"요소":18775,"맞아":18776,"##회에":18777,"2일":18778,"##래프트":18779,"##하려는":18780,"##분을":18781,"VS":18782,"도로":18783,"거대한":18784,"오리지널":18785,"마침":18786,"##하였고":18787,"##마를":18788,"##르가":18789,"정당":18790,"일반적인":18791,"교통":18792,"1000":18793,"##복을":18794,"막아":18795,"다르다.":18796,"요리":18797,"꾸준":18798,"마음을":18799,"##위는":18800,"##호의":18801,"##구는":18802,"서브":18803,"보였다.":18804,"받지":18805,"비고":18806,"##이상":18807,"선보":18808,"##선수":18809,"상황을":18810,"##되었고":18811,"무사":18812,"노력":18813,"주연":18814,"착용":18815,"한국의":18816,"##45":18817,"##'가":18818,"##이야":18819,"비난":18820,"아프리카":18821,"##골을":18822,"##코의":18823,"##:2":18824,"##나다":18825,"부분이":18826,"##스럽게":18827,"하나로":18828,"코스":18829,"U+":18830,"##ill":18831,"##산을":18832,"모험":18833,"떨어진":18834,"아름":18835,"거짓":18836,"##ab":18837,"##99":18838,"##하므로":18839,"손에":18840,"특성상":18841,"37":18842,"부르는":18843,"관통":18844,"부대":18845,"##카가":18846,"저격":18847,"모습으로":18848,"##버리는":18849,"승강":18850,"##역으로":18851,"##패를":18852,"경상":18853,"##해진다.":18854,"##즈가":18855,"되고,":18856,"미리":18857,"스포츠":18858,"페르":18859,"대비":18860,"##화에":18861,"날려":18862,"##어.":18863,"도움을":18864,"분야":18865,"보컬":18866,"인사":18867,"##센터":18868,"##IA":18869,"탑재":18870,"##선거":18871,"##방의":18872,"아쉬":18873,"더블":18874,"왕국":18875,"##~2":18876,"임명":18877,"점은":18878,"승리를":18879,"##시켰다.":18880,"원거리":18881,"##이라서":18882,"이것은":18883,"유래":18884,"연주":18885,"##고가":18886,"돌려":18887,"확보":18888,"등록":18889,"##ik":18890,"##일은":18891,"##나를":18892,"비교적":18893,"##니다":18894,"지적":18895,"먹고":18896,"##답게":18897,"죽을":18898,"누군":18899,"앞으로":18900,"점에서":18901,"완료":18902,"조각":18903,"##률이":18904,"고등학교":18905,"했으나":18906,"나쁘":18907,"팀이":18908,"##워서":18909,"허용":18910,"차례":18911,"브레이":18912,"In":18913,"2번":18914,"##소녀":18915,"##진의":18916,"##/0":18917,"##었다는":18918,"보병":18919,"금지":18920,"스카":18921,"##연히":18922,"2014":18923,"정보를":18924,"바탕":18925,"AP":18926,"자신은":18927,"명의":18928,"모티브":18929,"##타는":18930,"감안":18931,"남편":18932,"황금":18933,"컴퓨터":18934,"등장.":18935,"인기가":18936,"아시아":18937,"일어난":18938,"##트롤":18939,"연장":18940,"##렀다.":18941,"##과를":18942,"확실히":18943,"##사이":18944,"##에게도":18945,"고속":18946,"필살":18947,"일은":18948,"##프의":18949,"##시키고":18950,"##35":18951,"##미는":18952,"눈에":18953,"PC":18954,"만들어진":18955,"기체":18956,"##신은":18957,"실시":18958,"##요?":18959,"그에":18960,"##힌다.":18961,"##놓은":18962,"구축":18963,"거주":18964,"150":18965,"##all":18966,"##식의":18967,"##고속":18968,"##라와":18969,"##선에":18970,"작성":18971,"나누":18972,"10일":18973,"##초등학교":18974,"거리":18975,"트랙":18976,"75":18977,"논란이":18978,"##판이":18979,"##르기":18980,"15일":18981,"딱히":18982,"제압":18983,"그레이":18984,"원정":18985,"먹는":18986,"##ne":18987,"주목":18988,"추가로":18989,"##역이":18990,"세트":18991,"##력에":18992,"상처":18993,"포인트":18994,"고통":18995,"##리스트":18996,"국가대표":18997,"지니":18998,"1번":18999,"병사":19000,"곳에":19001,"##\"라는":19002,"##AT":19003,"인류":19004,"##악의":19005,"뉴욕":19006,"몰아":19007,"##가로":19008,"발언":19009,"가게":19010,"측면":19011,"대답":19012,"##프레":19013,"기술을":19014,"##당의":19015,"포르":19016,"##토리":19017,"상대가":19018,"말했다.":19019,"##문화":19020,"##ea":19021,"편집":19022,"##루가":19023,"##었지만":19024,"##자들":19025,"##성도":19026,"##바로":19027,"때의":19028,"##개로":19029,"임무":19030,"솔로":19031,"수밖에":19032,"II":19033,"해석":19034,"태어":19035,"##사에서":19036,"차이":19037,"##ue":19038,"##까지도":19039,"이전에":19040,"##피아":19041,"##EN":19042,"캐릭터가":19043,"##마트":19044,"짧은":19045,"190":19046,"2002년":19047,"사용한":19048,"걱정":19049,"##:5":19050,"멸망":19051,"##나무":19052,"##에서만":19053,"##메달":19054,"##북도":19055,"##우고":19056,"수호":19057,"그녀는":19058,"희망":19059,"##티어":19060,"따른":19061,"이유가":19062,"필요가":19063,"아나":19064,"스킬을":19065,"##FF":19066,"끝난":19067,"##랐다.":19068,"일반적으로":19069,"있습니다.":19070,"이용한":19071,"이사":19072,"있도록":19073,"가슴":19074,"3년":19075,"##다보니":19076,"##코가":19077,"개의":19078,"본인은":19079,"센터":19080,"뿐만":19081,"##키를":19082,"만한":19083,"시작한다.":19084,"30일":19085,"라디오":19086,"##PS":19087,"불리는":19088,"방해":19089,"##위의":19090,"##동,":19091,"동맹":19092,"알려진":19093,"##바람":19094,"갤러":19095,"장기":19096,"##공을":19097,"##ll":19098,"한다고":19099,"##권이":19100,"뮤직":19101,"5일":19102,"##ct":19103,"라이트":19104,"##자에게":19105,"커뮤":19106,"여행":19107,"##상에서":19108,"부른다.":19109,"48":19110,"어찌":19111,"유우":19112,"##AL":19113,"##발을":19114,"액션":19115,"젊은":19116,"잠깐":19117,"초반에":19118,"카즈":19119,"##포를":19120,"제조":19121,"그만":19122,"유도":19123,"##ss":19124,"##량의":19125,"녀석":19126,"제시":19127,"##질이":19128,"##화에서는":19129,"2003년":19130,"20일":19131,"에너지":19132,"##되었던":19133,"사이에서":19134,"중단":19135,"##크래프트":19136,"겨우":19137,"가리":19138,"##디아":19139,"##하여,":19140,"해금":19141,"없기":19142,"##:1":19143,"##상태":19144,"단체":19145,"보였":19146,"##하의":19147,"사령":19148,"##되며,":19149,"멀티":19150,"##을때":19151,"가정":19152,"있으나":19153,"평범한":19154,"타임":19155,"##모리":19156,"골드":19157,"생기":19158,"##이던":19159,"##품을":19160,"##잖아":19161,"내부":19162,"25일":19163,"##회는":19164,"흡수":19165,"55":19166,"##기.":19167,"##토가":19168,"엄청나게":19169,"##리트":19170,"해군":19171,"##도시":19172,"형태로":19173,"삼국":19174,"모아":19175,"##-4":19176,"생물":19177,"던전":19178,"필수":19179,"##서가":19180,"멀리":19181,"##단은":19182,"##ate":19183,"평가를":19184,"\"이":19185,"홈페이지":19186,"떨어져":19187,"끝내":19188,"느껴":19189,"레어":19190,"파트":19191,"원래는":19192,"##관은":19193,"예전":19194,"업그레이드":19195,"##자리":19196,"##루스":19197,"출생":19198,"약속":19199,"아스":19200,"##즈를":19201,"##동이":19202,"당선":19203,"육군":19204,"##웠다.":19205,"스케":19206,"보이지":19207,"##기술":19208,"##조가":19209,"듀얼":19210,"##gt;":19211,"##다가,":19212,"st":19213,"##차로":19214,"되기":19215,"어느정도":19216,"##대에서":19217,"3,":19218,"42":19219,"효율":19220,"##OR":19221,"그들의":19222,"##리안":19223,"오후":19224,"지역의":19225,"산업":19226,"안타":19227,"##카의":19228,"최대한":19229,"+1":19230,"바꿔":19231,"카오":19232,"내용을":19233,"오스트":19234,"대공":19235,"만다.":19236,"##량은":19237,"속도가":19238,"보급":19239,"대놓고":19240,"드라이":19241,"##생활":19242,"종합":19243,"##dddddd":19244,"궁극":19245,"걸어":19246,"개선":19247,"##하기로":19248,"쿨타임":19249,"물어":19250,"##,#dddddd":19251,"##세트":19252,"나카":19253,"##임에도":19254,"##모를":19255,"##되기도":19256,"4일":19257,"##지자":19258,"없지만":19259,"받아들":19260,"##계에":19261,"눈을":19262,"다름":19263,"힘이":19264,"이후에는":19265,"이것이":19266,"제안":19267,"게임의":19268,"직전":19269,"##했다":19270,"거절":19271,"봉인":19272,"##락을":19273,"처음에는":19274,"자신에게":19275,"팀을":19276,"##,000,000":19277,"28일":19278,"증거":19279,"##까지의":19280,"##미야":19281,"생겨":19282,"##'이":19283,"##주시":19284,"코너":19285,"50%":19286,"중화":19287,"코믹":19288,"트레이":19289,"##성,":19290,"밀어":19291,"##크는":19292,"##든지":19293,"##.10":19294,"##사건":19295,"##'는":19296,"맞고":19297,"유용":19298,"서비스":19299,"광역":19300,"어울":19301,"##ove":19302,"Re":19303,"##물로":19304,"끝까지":19305,"##카드":19306,"이야기가":19307,"##도와":19308,"귀족":19309,"MP":19310,"##&gt;":19311,"게시":19312,"재미":19313,"중이다.":19314,"사상":19315,"##권의":19316,"##함이":19317,"길을":19318,"이론":19319,"##니스":19320,"##수와":19321,"##lt;":19322,"7일":19323,"##ard":19324,"##oo":19325,"##대,":19326,"능력치":19327,"시나리오":19328,"잡고":19329,"현재의":19330,"도움이":19331,"##ell":19332,"수준의":19333,"흔히":19334,"인기를":19335,"거야":19336,"밸런":19337,"용병":19338,"##성으로":19339,"부담":19340,"강제":19341,
[...]
