[UNK]
[CLS]
[SEP]
[PAD]
[MASK]
!
"
#
$
%
&
'
(
)
*
+
,
-
.
/
0
1
2
3
4
5
6
7
8
9
:
;
<
=
>
?
@
A
B
C
D
E
F
G
H
I
J
K
L
M
N
O
P
Q
R
S
T
U
V
W
X
Y
Z
[
\
]
^
_
`
a
b
c
d
e
f
g
h
i
j
k
l
m
n
o
p
q
r
s
t
u
v
w
x
y
z
{
|
}
~

ㄱ
ㄲ
ㄳ
ㄴ
ㄵ
ㄶ
ㄷ
ㄸ
ㄹ
ㄺ
ㄻ
ㄼ
ㄽ
ㄾ
ㄿ
ㅀ
ㅁ
ㅂ
ㅃ
ㅄ
ㅅ
ㅆ
ㅇ
ㅈ
ㅉ
ㅊ
ㅋ
ㅌ
ㅍ
ㅎ
ㅏ
ㅐ
ㅑ
ㅒ
ㅓ
ㅔ
ㅕ
ㅖ
ㅗ
ㅘ
ㅙ
ㅚ
ㅛ
ㅜ
ㅝ
ㅞ
ㅟ
ㅠ
ㅡ
ㅢ
ㅣ
가
각
갂
갃
간
갅
갆
갇
갈
갉
갊
갋
갌
갍
갎
갏
감
갑
값
갓
갔
강
갖
갗
갘
같
갚
갛
개
객
갞
갟
갠
갡
갢
갣
갤
갥
갦
갧
갨
갩
갪
갫
갬
갭
갮
갯
갰
갱
갲
갳
갴
갵
갶
갷
갸
갹
갺
갻
갼
갽
갾
갿
걀
걁
걂
걃
걄
걅
걆
걇
걈
걉
걊
걋
걌
걍
걎
걏
걐
걑
걒
걓
걔
걕
걖
걗
걘
걙
걚
걛
걜
걝
걞
걟
걠
걡
걢
걣
걤
걥
걦
걧
걨
걩
걪
걫
걬
걭
걮
걯
거
걱
걲
걳
건
걵
걶
걷
걸
걹
걺
걻
걼
걽
걾
걿
검
겁
겂
것
겄
겅
겆
겇
겈
겉
겊
겋
게
겍
겎
겏
겐
겑
겒
겓
겔
겕
겖
겗
겘
겙
겚
겛
겜
겝
겞
겟
겠
겡
겢
겣
겤
겥
겦
겧
겨
격
겪
겫
견
겭
겮
겯
결
겱
겲
겳
겴
겵
겶
겷
겸
겹
겺
겻
겼
경
겾
겿
곀
곁
곂
곃
계
곅
곆
곇
곈
곉
곊
곋
곌
곍
곎
곏
곐
곑
곒
곓
곔
곕
곖
곗
곘
곙
곚
곛
곜
곝
곞
곟
고
곡
곢
곣
곤
곥
곦
곧
골
곩
곪
곫
곬
곭
곮
곯
곰
곱
곲
곳
곴
공
곶
곷
곸
곹
곺
곻
과
곽
곾
곿
관
괁
괂
괃
괄
괅
괆
괇
괈
괉
괊
괋
괌
괍
괎
괏
괐
광
괒
괓
괔
괕
괖
괗
괘
괙
괚
괛
괜
괝
괞
괟
괠
괡
괢
괣
괤
괥
괦
괧
괨
괩
괪
괫
괬
괭
괮
괯
괰
괱
괲
괳
괴
괵
괶
괷
괸
괹
괺
괻
괼
괽
괾
괿
굀
굁
굂
굃
굄
굅
굆
굇
굈
굉
굊
굋
굌
굍
굎
굏
교
굑
굒
굓
굔
굕
굖
굗
굘
굙
굚
굛
굜
굝
굞
굟
굠
굡
굢
굣
굤
굥
굦
굧
굨
굩
굪
굫
구
국
굮
굯
군
굱
굲
굳
굴
굵
굶
굷
굸
굹
굺
굻
굼
굽
굾
굿
궀
궁
궂
궃
궄
궅
궆
궇
궈
궉
궊
궋
권
궍
궎
궏
궐
궑
궒
궓
궔
궕
궖
궗
궘
궙
궚
궛
궜
궝
궞
궟
궠
궡
궢
궣
궤
궥
궦
궧
궨
궩
궪
궫
궬
궭
궮
궯
궰
궱
궲
궳
궴
궵
궶
궷
궸
궹
궺
궻
궼
궽
궾
궿
귀
귁
귂
귃
귄
귅
귆
귇
귈
귉
귊
귋
귌
귍
귎
귏
귐
귑
귒
귓
귔
귕
귖
귗
귘
귙
귚
귛
규
귝
귞
귟
균
귡
귢
귣
귤
귥
귦
귧
귨
귩
귪
귫
귬
귭
귮
귯
귰
귱
귲
귳
귴
귵
귶
귷
그
극
귺
귻
근
귽
귾
귿
글
긁
긂
긃
긄
긅
긆
긇
금
급
긊
긋
긌
긍
긎
긏
긐
긑
긒
긓
긔
긕
긖
긗
긘
긙
긚
긛
긜
긝
긞
긟
긠
긡
긢
긣
긤
긥
긦
긧
긨
긩
긪
긫
긬
긭
긮
긯
기
긱
긲
긳
긴
긵
긶
긷
길
긹
긺
긻
긼
긽
긾
긿
김
깁
깂
깃
깄
깅
깆
깇
깈
깉
깊
깋
까
깍
깎
깏
깐
깑
깒
깓
깔
깕
깖
깗
깘
깙
깚
깛
깜
깝
깞
깟
깠
깡
깢
깣
깤
깥
깦
깧
깨
깩
깪
깫
깬
깭
깮
깯
깰
깱
깲
깳
깴
깵
깶
깷
깸
깹
깺
깻
깼
깽
깾
깿
꺀
꺁
꺂
꺃
꺄
꺅
꺆
꺇
꺈
꺉
꺊
꺋
꺌
꺍
꺎
꺏
꺐
꺑
꺒
꺓
꺔
꺕
꺖
꺗
꺘
꺙
꺚
꺛
꺜
꺝
꺞
꺟
꺠
꺡
꺢
꺣
꺤
꺥
꺦
꺧
꺨
꺩
꺪
꺫
꺬
꺭
꺮
꺯
꺰
꺱
꺲
꺳
꺴
꺵
꺶
꺷
꺸
꺹
꺺
꺻
꺼
꺽
꺾
꺿
껀
껁
껂
껃
껄
껅
껆
껇
껈
껉
껊
껋
껌
껍
껎
껏
껐
껑
껒
껓
껔
껕
껖
껗
께
껙
껚
껛
껜
껝
껞
껟
껠
껡
껢
껣
껤
껥
껦
껧
껨
껩
껪
껫
껬
껭
껮
껯
껰
껱
껲
껳
껴
껵
껶
껷
껸
껹
껺
껻
껼
껽
껾
껿
꼀
꼁
꼂
꼃
꼄
꼅
꼆
꼇
꼈
꼉
꼊
꼋
꼌
꼍
꼎
꼏
꼐
꼑
꼒
꼓
꼔
꼕
꼖
꼗
꼘
꼙
꼚
꼛
꼜
꼝
꼞
꼟
꼠
꼡
꼢
꼣
꼤
꼥
꼦
꼧
꼨
꼩
꼪
꼫
꼬
꼭
꼮
꼯
꼰
꼱
꼲
꼳
꼴
꼵
꼶
꼷
꼸
꼹
꼺
꼻
꼼
꼽
꼾
꼿
꽀
꽁
꽂
꽃
꽄
꽅
꽆
꽇
꽈
꽉
꽊
꽋
꽌
꽍
꽎
꽏
꽐
꽑
꽒
꽓
꽔
꽕
꽖
꽗
꽘
꽙
꽚
꽛
꽜
꽝
꽞
꽟
꽠
꽡
꽢
꽣
꽤
꽥
꽦
꽧
꽨
꽩
꽪
꽫
꽬
꽭
꽮
꽯
꽰
꽱
꽲
꽳
꽴
꽵
꽶
꽷
꽸
꽹
꽺
꽻
꽼
꽽
꽾
꽿
꾀
꾁
꾂
꾃
꾄
꾅
꾆
꾇
꾈
꾉
꾊
꾋
꾌
꾍
꾎
꾏
꾐
꾑
꾒
꾓
꾔
꾕
꾖
꾗
꾘
꾙
꾚
꾛
꾜
꾝
꾞
꾟
꾠
꾡
꾢
꾣
꾤
꾥
꾦
꾧
꾨
꾩
꾪
꾫
꾬
꾭
꾮
꾯
꾰
꾱
꾲
꾳
꾴
꾵
꾶
꾷
꾸
꾹
꾺
꾻
꾼
꾽
꾾
꾿
꿀
꿁
꿂
꿃
꿄
꿅
꿆
꿇
꿈
꿉
꿊
꿋
꿌
꿍
꿎
꿏
꿐
꿑
꿒
꿓
꿔
꿕
꿖
꿗
꿘
꿙
꿚
꿛
꿜
꿝
꿞
꿟
꿠
꿡
꿢
꿣
꿤
꿥
꿦
꿧
꿨
꿩
꿪
꿫
꿬
꿭
꿮
꿯
꿰
꿱
꿲
꿳
꿴
꿵
꿶
꿷
꿸
꿹
꿺
꿻
꿼
꿽
꿾
꿿
뀀
뀁
뀂
뀃
뀄
뀅
뀆
뀇
뀈
뀉
뀊
뀋
뀌
뀍
뀎
뀏
뀐
뀑
뀒
뀓
뀔
뀕
뀖
뀗
뀘
뀙
뀚
뀛
뀜
뀝
뀞
뀟
뀠
뀡
뀢
뀣
뀤
뀥
뀦
뀧
뀨
뀩
뀪
뀫
뀬
뀭
뀮
뀯
뀰
뀱
뀲
뀳
뀴
뀵
뀶
뀷
뀸
뀹
뀺
뀻
뀼
뀽
뀾
뀿
끀
끁
끂
끃
끄
끅
끆
끇
끈
끉
끊
끋
끌
끍
끎
끏
끐
끑
끒
끓
끔
끕
끖
끗
끘
끙
끚
끛
끜
끝
끞
끟
끠
끡
끢
끣
끤
끥
끦
끧
끨
끩
끪
끫
끬
끭
끮
끯
끰
끱
끲
끳
끴
끵
끶
끷
끸
끹
끺
끻
끼
끽
끾
끿
낀
낁
낂
낃
낄
낅
낆
낇
낈
낉
낊
낋
낌
낍
낎
낏
낐
낑
낒
낓
낔
낕
낖
낗
나
낙
낚
낛
난
낝
낞
낟
날
낡
낢
낣
낤
낥
낦
낧
남
납
낪
낫
났
낭
낮
낯
낰
낱
낲
낳
내
낵
낶
낷
낸
낹
낺
낻
낼
낽
낾
낿
냀
냁
냂
냃
냄
냅
냆
냇
냈
냉
냊
냋
냌
냍
냎
냏
냐
냑
냒
냓
냔
냕
냖
냗
냘
냙
냚
냛
냜
냝
냞
냟
냠
냡
냢
냣
냤
냥
냦
냧
냨
냩
냪
냫
냬
냭
냮
냯
냰
냱
냲
냳
냴
냵
냶
냷
냸
냹
냺
냻
냼
냽
냾
냿
넀
넁
넂
넃
넄
넅
넆
넇
너
넉
넊
넋
넌
넍
넎
넏
널
넑
넒
넓
넔
넕
넖
넗
넘
넙
넚
넛
넜
넝
넞
넟
넠
넡
넢
넣
네
넥
넦
넧
넨
넩
넪
넫
넬
넭
넮
넯
넰
넱
넲
넳
넴
넵
넶
넷
넸
넹
넺
넻
넼
넽
넾
넿
녀
녁
녂
녃
년
녅
녆
녇
녈
녉
녊
녋
녌
녍
녎
녏
념
녑
녒
녓
녔
녕
녖
녗
녘
녙
녚
녛
녜
녝
녞
녟
녠
녡
녢
녣
녤
녥
녦
녧
녨
녩
녪
녫
녬
녭
녮
녯
녰
녱
녲
녳
녴
녵
녶
녷
노
녹
녺
녻
논
녽
녾
녿
놀
놁
놂
놃
놄
놅
놆
놇
놈
놉
놊
놋
놌
농
놎
놏
놐
놑
높
놓
놔
놕
놖
놗
놘
놙
놚
놛
놜
놝
놞
놟
놠
놡
놢
놣
놤
놥
놦
놧
놨
놩
놪
놫
놬
놭
놮
놯
놰
놱
놲
놳
놴
놵
놶
놷
놸
놹
놺
놻
놼
놽
놾
놿
뇀
뇁
뇂
뇃
뇄
뇅
뇆
뇇
뇈
뇉
뇊
뇋
뇌
뇍
뇎
뇏
뇐
뇑
뇒
뇓
뇔
뇕
뇖
뇗
뇘
뇙
뇚
뇛
뇜
뇝
뇞
뇟
뇠
뇡
뇢
뇣
뇤
뇥
뇦
뇧
뇨
뇩
뇪
뇫
뇬
뇭
뇮
뇯
뇰
뇱
뇲
뇳
뇴
뇵
뇶
뇷
뇸
뇹
뇺
뇻
뇼
뇽
뇾
뇿
눀
눁
눂
눃
누
눅
눆
눇
눈
눉
눊
눋
눌
눍
눎
눏
눐
눑
눒
눓
눔
눕
눖
눗
눘
눙
눚
눛
눜
눝
눞
눟
눠
눡
눢
눣
눤
눥
눦
눧
눨
눩
눪
눫
눬
눭
눮
눯
눰
눱
눲
눳
눴
눵
눶
눷
눸
눹
눺
눻
눼
눽
눾
눿
뉀
뉁
뉂
뉃
뉄
뉅
뉆
뉇
뉈
뉉
뉊
뉋
뉌
뉍
뉎
뉏
뉐
뉑
뉒
뉓
뉔
뉕
뉖
뉗
뉘
뉙
뉚
뉛
뉜
뉝
뉞
뉟
뉠
뉡
뉢
뉣
뉤
뉥
뉦
뉧
뉨
뉩
뉪
뉫
뉬
뉭
뉮
뉯
뉰
뉱
뉲
뉳
뉴
뉵
뉶
뉷
뉸
뉹
뉺
뉻
뉼
뉽
뉾
뉿
늀
늁
늂
늃
늄
늅
늆
늇
늈
늉
늊
늋
늌
늍
늎
늏
느
늑
늒
늓
는
늕
늖
늗
늘
늙
늚
늛
늜
늝
늞
늟
늠
늡
늢
늣
늤
능
늦
늧
늨
늩
늪
늫
늬
늭
늮
늯
늰
늱
늲
늳
늴
늵
늶
늷
늸
늹
늺
늻
늼
늽
늾
늿
닀
닁
닂
닃
닄
닅
닆
닇
니
닉
닊
닋
닌
닍
닎
닏
닐
닑
닒
닓
닔
닕
닖
닗
님
닙
닚
닛
닜
닝
닞
닟
닠
닡
닢
닣
다
닥
닦
닧
단
닩
닪
닫
달
닭
닮
닯
닰
닱
닲
닳
담
답
닶
닷
닸
당
닺
닻
닼
닽
닾
닿
대
댁
댂
댃
댄
댅
댆
댇
댈
댉
댊
댋
댌
댍
댎
댏
댐
댑
댒
댓
댔
댕
댖
댗
댘
댙
댚
댛
댜
댝
댞
댟
댠
댡
댢
댣
댤
댥
댦
댧
댨
댩
댪
댫
댬
댭
댮
댯
댰
댱
댲
댳
댴
댵
댶
댷
댸
댹
댺
댻
댼
댽
댾
댿
덀
덁
덂
덃
덄
덅
덆
덇
덈
덉
덊
덋
덌
덍
덎
덏
덐
덑
덒
덓
더
덕
덖
덗
던
덙
덚
덛
덜
덝
덞
덟
덠
덡
덢
덣
덤
덥
덦
덧
덨
덩
덪
덫
덬
덭
덮
덯
데
덱
덲
덳
덴
덵
덶
덷
델
덹
덺
덻
덼
덽
덾
덿
뎀
뎁
뎂
뎃
뎄
뎅
뎆
뎇
뎈
뎉
뎊
뎋
뎌
뎍
뎎
뎏
뎐
뎑
뎒
뎓
뎔
뎕
뎖
뎗
뎘
뎙
뎚
뎛
뎜
뎝
뎞
뎟
뎠
뎡
뎢
뎣
뎤
뎥
뎦
뎧
뎨
뎩
뎪
뎫
뎬
뎭
뎮
뎯
뎰
뎱
뎲
뎳
뎴
뎵
뎶
뎷
뎸
뎹
뎺
뎻
뎼
뎽
뎾
뎿
돀
돁
돂
돃
도
독
돆
돇
돈
돉
돊
돋
돌
돍
돎
돏
돐
돑
돒
돓
돔
돕
돖
돗
돘
동
돚
돛
돜
돝
돞
돟
돠
돡
돢
돣
돤
돥
돦
돧
돨
돩
돪
돫
돬
돭
돮
돯
돰
돱
돲
돳
돴
돵
돶
돷
돸
돹
돺
돻
돼
돽
돾
돿
됀
됁
됂
됃
됄
됅
됆
됇
됈
됉
됊
됋
됌
됍
됎
됏
됐
됑
됒
됓
됔
됕
됖
됗
되
됙
됚
됛
된
됝
됞
됟
될
됡
됢
됣
됤
됥
됦
됧
됨
됩
됪
됫
됬
됭
됮
됯
됰
됱
됲
됳
됴
됵
됶
됷
됸
됹
됺
됻
됼
됽
됾
됿
둀
둁
둂
둃
둄
둅
둆
둇
둈
둉
둊
둋
둌
둍
둎
둏
두
둑
둒
둓
둔
둕
둖
둗
둘
둙
둚
둛
둜
둝
둞
둟
둠
둡
둢
둣
둤
둥
둦
둧
둨
둩
둪
둫
둬
둭
둮
둯
둰
둱
둲
둳
둴
둵
둶
둷
둸
둹
둺
둻
둼
둽
둾
둿
뒀
뒁
뒂
뒃
뒄
뒅
뒆
뒇
뒈
뒉
뒊
뒋
뒌
뒍
뒎
뒏
뒐
뒑
뒒
뒓
뒔
뒕
뒖
뒗
뒘
뒙
뒚
뒛
뒜
뒝
뒞
뒟
뒠
뒡
뒢
뒣
뒤
뒥
뒦
뒧
뒨
뒩
뒪
뒫
뒬
뒭
뒮
뒯
뒰
뒱
뒲
뒳
뒴
뒵
뒶
뒷
뒸
뒹
뒺
뒻
뒼
뒽
뒾
뒿
듀
듁
듂
듃
듄
듅
듆
듇
듈
듉
듊
듋
듌
듍
듎
듏
듐
듑
듒
듓
듔
듕
듖
듗
듘
듙
듚
듛
드
득
듞
듟
든
듡
듢
듣
들
듥
듦
듧
듨
듩
듪
듫
듬
듭
듮
듯
듰
등
듲
듳
듴
듵
듶
듷
듸
듹
듺
듻
듼
듽
듾
듿
딀
딁
딂
딃
딄
딅
딆
딇
딈
딉
딊
딋
딌
딍
딎
딏
딐
딑
딒
딓
디
딕
딖
딗
딘
딙
딚
딛
딜
딝
딞
딟
딠
딡
딢
딣
딤
딥
딦
딧
딨
딩
딪
딫
딬
딭
딮
딯
따
딱
딲
딳
딴
딵
딶
딷
딸
딹
딺
딻
딼
딽
딾
딿
땀
땁
땂
땃
땄
땅
땆
땇
땈
땉
땊
땋
때
땍
땎
땏
땐
땑
땒
땓
땔
땕
땖
땗
땘
땙
땚
땛
땜
땝
땞
땟
땠
땡
땢
땣
땤
땥
땦
땧
땨
땩
땪
땫
땬
땭
땮
땯
땰
땱
땲
땳
땴
땵
땶
땷
땸
땹
땺
땻
땼
땽
땾
땿
떀
떁
떂
떃
떄
떅
떆
떇
떈
떉
떊
떋
떌
떍
떎
떏
떐
떑
떒
떓
떔
떕
떖
떗
떘
떙
떚
떛
떜
떝
떞
떟
떠
떡
떢
떣
떤
떥
떦
떧
떨
떩
떪
떫
떬
떭
떮
떯
떰
떱
떲
떳
떴
떵
떶
떷
떸
떹
떺
떻
떼
떽
떾
떿
뗀
뗁
뗂
뗃
뗄
뗅
뗆
뗇
뗈
뗉
뗊
뗋
뗌
뗍
뗎
뗏
뗐
뗑
뗒
뗓
뗔
뗕
뗖
뗗
뗘
뗙
뗚
뗛
뗜
뗝
뗞
뗟
뗠
뗡
뗢
뗣
뗤
뗥
뗦
뗧
뗨
뗩
뗪
뗫
뗬
뗭
뗮
뗯
뗰
뗱
뗲
뗳
뗴
뗵
뗶
뗷
뗸
뗹
뗺
뗻
뗼
뗽
뗾
뗿
똀
똁
똂
똃
똄
똅
똆
똇
똈
똉
똊
똋
똌
똍
똎
똏
또
똑
똒
똓
똔
똕
똖
똗
똘
똙
똚
똛
똜
똝
똞
똟
똠
똡
똢
똣
똤
똥
똦
똧
똨
똩
똪
똫
똬
똭
똮
똯
똰
똱
똲
똳
똴
똵
똶
똷
똸
똹
똺
똻
똼
똽
똾
똿
뙀
뙁
뙂
뙃
뙄
뙅
뙆
뙇
뙈
뙉
뙊
뙋
뙌
뙍
뙎
뙏
뙐
뙑
뙒
뙓
뙔
뙕
뙖
뙗
뙘
뙙
뙚
뙛
뙜
뙝
뙞
뙟
뙠
뙡
뙢
뙣
뙤
뙥
뙦
뙧
뙨
뙩
뙪
뙫
뙬
뙭
뙮
뙯
뙰
뙱
뙲
뙳
뙴
뙵
뙶
뙷
뙸
뙹
뙺
뙻
뙼
뙽
뙾
뙿
뚀
뚁
뚂
뚃
뚄
뚅
뚆
뚇
뚈
뚉
뚊
뚋
뚌
뚍
뚎
뚏
뚐
뚑
뚒
뚓
뚔
뚕
뚖
뚗
뚘
뚙
뚚
뚛
뚜
뚝
뚞
뚟
뚠
뚡
뚢
뚣
뚤
뚥
뚦
뚧
뚨
뚩
뚪
뚫
뚬
뚭
뚮
뚯
뚰
뚱
뚲
뚳
뚴
뚵
뚶
뚷
뚸
뚹
뚺
뚻
뚼
뚽
뚾
뚿
뛀
뛁
뛂
뛃
뛄
뛅
뛆
뛇
뛈
뛉
뛊
뛋
뛌
뛍
뛎
뛏
뛐
뛑
뛒
뛓
뛔
뛕
뛖
뛗
뛘
뛙
뛚
뛛
뛜
뛝
뛞
뛟
뛠
뛡
뛢
뛣
뛤
뛥
뛦
뛧
뛨
뛩
뛪
뛫
뛬
뛭
뛮
뛯
뛰
뛱
뛲
뛳
뛴
뛵
뛶
뛷
뛸
뛹
뛺
뛻
뛼
뛽
뛾
뛿
뜀
뜁
뜂
뜃
뜄
뜅
뜆
뜇
뜈
뜉
뜊
뜋
뜌
뜍
뜎
뜏
뜐
뜑
뜒
뜓
뜔
뜕
뜖
뜗
뜘
뜙
뜚
뜛
뜜
뜝
뜞
뜟
뜠
뜡
뜢
뜣
뜤
뜥
뜦
뜧
뜨
뜩
뜪
뜫
뜬
뜭
뜮
뜯
뜰
뜱
뜲
뜳
뜴
뜵
뜶
뜷
뜸
뜹
뜺
뜻
뜼
뜽
뜾
뜿
띀
띁
띂
띃
띄
띅
띆
띇
띈
띉
띊
띋
띌
띍
띎
띏
띐
띑
띒
띓
띔
띕
띖
띗
띘
띙
띚
띛
띜
띝
띞
띟
띠
띡
띢
띣
띤
띥
띦
띧
띨
띩
띪
띫
띬
띭
띮
띯
띰
띱
띲
띳
띴
띵
띶
띷
띸
띹
띺
띻
라
락
띾
띿
란
랁
랂
랃
랄
랅
랆
랇
랈
랉
랊
랋
람
랍
랎
랏
랐
랑
랒
랓
랔
랕
랖
랗
래
랙
랚
랛
랜
랝
랞
랟
랠
랡
랢
랣
랤
랥
랦
랧
램
랩
랪
랫
랬
랭
랮
랯
랰
랱
랲
랳
랴
략
랶
랷
랸
랹
랺
랻
랼
랽
랾
랿
럀
럁
럂
럃
럄
럅
럆
럇
럈
량
럊
럋
럌
럍
럎
럏
럐
럑
럒
럓
럔
럕
럖
럗
럘
럙
럚
럛
럜
럝
럞
럟
럠
럡
럢
럣
럤
럥
럦
럧
럨
럩
럪
럫
러
럭
럮
럯
런
럱
럲
럳
럴
럵
럶
럷
럸
럹
럺
럻
럼
럽
럾
럿
렀
렁
렂
렃
렄
렅
렆
렇
레
렉
렊
렋
렌
렍
렎
렏
렐
렑
렒
렓
렔
렕
렖
렗
렘
렙
렚
렛
렜
렝
렞
렟
렠
렡
렢
렣
려
력
렦
렧
련
렩
렪
렫
렬
렭
렮
렯
렰
렱
렲
렳
렴
렵
렶
렷
렸
령
렺
렻
렼
렽
렾
렿
례
롁
롂
롃
롄
롅
롆
롇
롈
롉
롊
롋
롌
롍
롎
롏
롐
롑
롒
롓
롔
롕
롖
롗
롘
롙
롚
롛
로
록
롞
롟
론
롡
롢
롣
롤
롥
롦
롧
롨
롩
롪
롫
롬
롭
롮
롯
롰
롱
롲
롳
롴
롵
롶
롷
롸
롹
롺
롻
롼
롽
롾
롿
뢀
뢁
뢂
뢃
뢄
뢅
뢆
뢇
뢈
뢉
뢊
뢋
뢌
뢍
뢎
뢏
뢐
뢑
뢒
뢓
뢔
뢕
뢖
뢗
뢘
뢙
뢚
뢛
뢜
뢝
뢞
뢟
뢠
뢡
뢢
뢣
뢤
뢥
뢦
뢧
뢨
뢩
뢪
뢫
뢬
뢭
뢮
뢯
뢰
뢱
뢲
뢳
뢴
뢵
뢶
뢷
뢸
뢹
뢺
뢻
뢼
뢽
뢾
뢿
룀
룁
룂
룃
룄
룅
룆
룇
룈
룉
룊
룋
료
룍
룎
룏
룐
룑
룒
룓
룔
룕
룖
룗
룘
룙
룚
룛
룜
룝
룞
룟
룠
룡
룢
룣
룤
룥
룦
룧
루
룩
룪
룫
룬
룭
룮
룯
룰
룱
룲
룳
룴
룵
룶
룷
룸
룹
룺
룻
룼
룽
룾
룿
뤀
뤁
뤂
뤃
뤄
뤅
뤆
뤇
뤈
뤉
뤊
뤋
뤌
뤍
뤎
뤏
뤐
뤑
뤒
뤓
뤔
뤕
뤖
뤗
뤘
뤙
뤚
뤛
뤜
뤝
뤞
뤟
뤠
뤡
뤢
뤣
뤤
뤥
뤦
뤧
뤨
뤩
뤪
뤫
뤬
뤭
뤮
뤯
뤰
뤱
뤲
뤳
뤴
뤵
뤶
뤷
뤸
뤹
뤺
뤻
뤼
뤽
뤾
뤿
륀
륁
륂
륃
륄
륅
륆
륇
륈
륉
륊
륋
륌
륍
륎
륏
륐
륑
륒
륓
륔
륕
륖
륗
류
륙
륚
륛
륜
륝
륞
륟
률
륡
륢
륣
륤
륥
륦
륧
륨
륩
륪
륫
륬
륭
륮
륯
륰
륱
륲
륳
르
륵
륶
륷
른
륹
륺
륻
를
륽
륾
륿
릀
릁
릂
릃
름
릅
릆
릇
릈
릉
릊
릋
릌
릍
릎
릏
릐
릑
릒
릓
릔
릕
릖
릗
릘
릙
릚
릛
릜
릝
릞
릟
릠
릡
릢
릣
릤
릥
릦
릧
릨
릩
릪
릫
리
릭
릮
릯
린
릱
릲
릳
릴
릵
릶
릷
릸
릹
릺
릻
림
립
릾
릿
맀
링
맂
맃
맄
맅
맆
맇
마
막
맊
맋
만
맍
많
맏
말
맑
맒
맓
맔
맕
맖
맗
맘
맙
맚
맛
맜
망
맞
맟
맠
맡
맢
맣
매
맥
맦
맧
맨
맩
맪
맫
맬
맭
맮
맯
맰
맱
맲
맳
맴
맵
맶
맷
맸
맹
맺
맻
맼
맽
맾
맿
먀
먁
먂
먃
먄
먅
먆
먇
먈
먉
먊
먋
먌
먍
먎
먏
먐
먑
먒
먓
먔
먕
먖
먗
먘
먙
먚
먛
먜
먝
먞
먟
먠
먡
먢
먣
먤
먥
먦
먧
먨
먩
먪
먫
먬
먭
먮
먯
먰
먱
먲
먳
먴
먵
먶
먷
머
먹
먺
먻
먼
먽
먾
먿
멀
멁
멂
멃
멄
멅
멆
멇
멈
멉
멊
멋
멌
멍
멎
멏
멐
멑
멒
멓
메
멕
멖
멗
멘
멙
멚
멛
멜
멝
멞
멟
멠
멡
멢
멣
멤
멥
멦
멧
멨
멩
멪
멫
멬
멭
멮
멯
며
멱
멲
멳
면
멵
멶
멷
멸
멹
멺
멻
멼
멽
멾
멿
몀
몁
몂
몃
몄
명
몆
몇
몈
몉
몊
몋
몌
몍
몎
몏
몐
몑
몒
몓
몔
몕
몖
몗
몘
몙
몚
몛
몜
몝
몞
몟
몠
몡
몢
몣
몤
몥
몦
몧
모
목
몪
몫
몬
몭
몮
몯
몰
몱
몲
몳
몴
몵
몶
몷
몸
몹
몺
못
몼
몽
몾
몿
뫀
뫁
뫂
뫃
뫄
뫅
뫆
뫇
뫈
뫉
뫊
뫋
뫌
뫍
뫎
뫏
뫐
뫑
뫒
뫓
뫔
뫕
뫖
뫗
뫘
뫙
뫚
뫛
뫜
뫝
뫞
뫟
뫠
뫡
뫢
뫣
뫤
뫥
뫦
뫧
뫨
뫩
뫪
뫫
뫬
뫭
뫮
뫯
뫰
뫱
뫲
뫳
뫴
뫵
뫶
뫷
뫸
뫹
뫺
뫻
뫼
뫽
뫾
뫿
묀
묁
묂
묃
묄
묅
묆
묇
묈
묉
묊
묋
묌
묍
묎
묏
묐
묑
묒
묓
묔
묕
묖
묗
묘
묙
묚
묛
묜
묝
묞
묟
묠
묡
묢
묣
묤
묥
묦
묧
묨
묩
묪
묫
묬
묭
묮
묯
묰
묱
묲
묳
무
묵
묶
묷
문
묹
묺
묻
물
묽
묾
묿
뭀
뭁
뭂
뭃
뭄
뭅
뭆
뭇
뭈
뭉
뭊
뭋
뭌
뭍
뭎
뭏
뭐
뭑
뭒
뭓
뭔
뭕
뭖
뭗
뭘
뭙
뭚
뭛
뭜
뭝
뭞
뭟
뭠
뭡
뭢
뭣
뭤
뭥
뭦
뭧
뭨
뭩
뭪
뭫
뭬
뭭
뭮
뭯
뭰
뭱
뭲
뭳
뭴
뭵
뭶
뭷
뭸
뭹
뭺
뭻
뭼
뭽
뭾
뭿
뮀
뮁
뮂
뮃
뮄
뮅
뮆
뮇
뮈
뮉
뮊
뮋
뮌
뮍
뮎
뮏
뮐
뮑
뮒
뮓
뮔
뮕
뮖
뮗
뮘
뮙
뮚
뮛
뮜
뮝
뮞
뮟
뮠
뮡
뮢
뮣
뮤
뮥
뮦
뮧
뮨
뮩
뮪
뮫
뮬
뮭
뮮
뮯
뮰
뮱
뮲
뮳
뮴
뮵
뮶
뮷
뮸
뮹
뮺
뮻
뮼
뮽
뮾
뮿
므
믁
믂
믃
믄
믅
믆
믇
믈
믉
믊
믋
믌
믍
믎
믏
믐
믑
믒
믓
믔
믕
믖
믗
믘
믙
믚
믛
믜
믝
믞
믟
믠
믡
믢
믣
믤
믥
믦
믧
믨
믩
믪
믫
믬
믭
믮
믯
믰
믱
믲
믳
믴
믵
믶
믷
미
믹
믺
믻
민
믽
믾
믿
밀
밁
밂
밃
밄
밅
밆
밇
밈
밉
밊
밋
밌
밍
밎
및
밐
밑
밒
밓
바
박
밖
밗
반
밙
밚
받
발
밝
밞
밟
밠
밡
밢
밣
밤
밥
밦
밧
밨
방
밪
밫
밬
밭
밮
밯
배
백
밲
밳
밴
밵
밶
밷
밸
밹
밺
밻
밼
밽
밾
밿
뱀
뱁
뱂
뱃
뱄
뱅
뱆
뱇
뱈
뱉
뱊
뱋
뱌
뱍
뱎
뱏
뱐
뱑
뱒
뱓
뱔
뱕
뱖
뱗
뱘
뱙
뱚
뱛
뱜
뱝
뱞
뱟
뱠
뱡
뱢
뱣
뱤
뱥
뱦
뱧
뱨
뱩
뱪
뱫
뱬
뱭
뱮
뱯
뱰
뱱
뱲
뱳
뱴
뱵
뱶
뱷
뱸
뱹
뱺
뱻
뱼
뱽
뱾
뱿
벀
벁
벂
벃
버
벅
벆
벇
번
벉
벊
벋
벌
벍
벎
벏
벐
벑
벒
벓
범
법
벖
벗
벘
벙
벚
벛
벜
벝
벞
벟
베
벡
벢
벣
벤
벥
벦
벧
벨
벩
벪
벫
벬
벭
벮
벯
벰
벱
벲
벳
벴
벵
벶
벷
벸
벹
벺
벻
벼
벽
벾
벿
변
볁
볂
볃
별
볅
볆
볇
볈
볉
볊
볋
볌
볍
볎
볏
볐
병
볒
볓
볔
볕
볖
볗
볘
볙
볚
볛
볜
볝
볞
볟
볠
볡
볢
볣
볤
볥
볦
볧
볨
볩
볪
볫
볬
볭
볮
볯
볰
볱
볲
볳
보
복
볶
볷
본
볹
볺
볻
볼
볽
볾
볿
봀
봁
봂
봃
봄
봅
봆
봇
봈
봉
봊
봋
봌
봍
봎
봏
봐
봑
봒
봓
봔
봕
봖
봗
봘
봙
봚
봛
봜
봝
봞
봟
봠
봡
봢
봣
봤
봥
봦
봧
봨
봩
봪
봫
봬
봭
봮
봯
봰
봱
봲
봳
봴
봵
봶
봷
봸
봹
봺
봻
봼
봽
봾
봿
뵀
뵁
뵂
뵃
뵄
뵅
뵆
뵇
뵈
뵉
뵊
뵋
뵌
뵍
뵎
뵏
뵐
뵑
뵒
뵓
뵔
뵕
뵖
뵗
뵘
뵙
뵚
뵛
뵜
뵝
뵞
뵟
뵠
뵡
뵢
뵣
뵤
뵥
뵦
뵧
뵨
뵩
뵪
뵫
뵬
뵭
뵮
뵯
뵰
뵱
뵲
뵳
뵴
뵵
뵶
뵷
뵸
뵹
뵺
뵻
뵼
뵽
뵾
뵿
부
북
붂
붃
분
붅
붆
붇
불
붉
붊
붋
붌
붍
붎
붏
붐
붑
붒
붓
붔
붕
붖
붗
붘
붙
붚
붛
붜
붝
붞
붟
붠
붡
붢
붣
붤
붥
붦
붧
붨
붩
붪
붫
붬
붭
붮
붯
붰
붱
붲
붳
붴
붵
붶
붷
붸
붹
붺
붻
붼
붽
붾
붿
뷀
뷁
뷂
뷃
뷄
뷅
뷆
뷇
뷈
뷉
뷊
뷋
뷌
뷍
뷎
뷏
뷐
뷑
뷒
뷓
뷔
뷕
뷖
뷗
뷘
뷙
뷚
뷛
뷜
뷝
뷞
뷟
뷠
뷡
뷢
뷣
뷤
뷥
뷦
뷧
뷨
뷩
뷪
뷫
뷬
뷭
뷮
뷯
뷰
뷱
뷲
뷳
뷴
뷵
뷶
뷷
뷸
뷹
뷺
뷻
뷼
뷽
뷾
뷿
븀
븁
븂
븃
븄
븅
븆
븇
븈
븉
븊
븋
브
븍
븎
븏
븐
븑
븒
븓
블
븕
븖
븗
븘
븙
븚
븛
븜
븝
븞
븟
븠
븡
븢
븣
븤
븥
븦
븧
븨
븩
븪
븫
븬
븭
븮
븯
븰
븱
븲
븳
븴
븵
븶
븷
븸
븹
븺
븻
븼
븽
븾
븿
빀
빁
빂
빃
비
빅
빆
빇
빈
빉
빊
빋
빌
빍
빎
빏
빐
빑
빒
빓
빔
빕
빖
빗
빘
빙
빚
빛
빜
빝
빞
빟
빠
빡
빢
빣
빤
빥
빦
빧
빨
빩
빪
빫
빬
빭
빮
빯
빰
빱
빲
빳
빴
빵
빶
빷
빸
빹
빺
빻
빼
빽
빾
빿
뺀
뺁
뺂
뺃
뺄
뺅
뺆
뺇
뺈
뺉
뺊
뺋
뺌
뺍
뺎
뺏
뺐
뺑
뺒
뺓
뺔
뺕
뺖
뺗
뺘
뺙
뺚
뺛
뺜
뺝
뺞
뺟
뺠
뺡
뺢
뺣
뺤
뺥
뺦
뺧
뺨
뺩
뺪
뺫
뺬
뺭
뺮
뺯
뺰
뺱
뺲
뺳
뺴
뺵
뺶
뺷
뺸
뺹
뺺
뺻
뺼
뺽
뺾
뺿
뻀
뻁
뻂
뻃
뻄
뻅
뻆
뻇
뻈
뻉
뻊
뻋
뻌
뻍
뻎
뻏
뻐
뻑
뻒
뻓
뻔
뻕
뻖
뻗
뻘
뻙
뻚
뻛
뻜
뻝
뻞
뻟
뻠
뻡
뻢
뻣
뻤
뻥
뻦
뻧
뻨
뻩
뻪
뻫
뻬
뻭
뻮
뻯
뻰
뻱
뻲
뻳
뻴
뻵
뻶
뻷
뻸
뻹
뻺
뻻
뻼
뻽
뻾
뻿
뼀
뼁
뼂
뼃
뼄
뼅
뼆
뼇
뼈
뼉
뼊
뼋
뼌
뼍
뼎
뼏
뼐
뼑
뼒
뼓
뼔
뼕
뼖
뼗
뼘
뼙
뼚
뼛
뼜
뼝
뼞
뼟
뼠
뼡
뼢
뼣
뼤
뼥
뼦
뼧
뼨
뼩
뼪
뼫
뼬
뼭
뼮
뼯
뼰
뼱
뼲
뼳
뼴
뼵
뼶
뼷
뼸
뼹
뼺
뼻
뼼
뼽
뼾
뼿
뽀
뽁
뽂
뽃
뽄
뽅
뽆
뽇
뽈
뽉
뽊
뽋
뽌
뽍
뽎
뽏
뽐
뽑
뽒
뽓
뽔
뽕
뽖
뽗
뽘
뽙
뽚
뽛
뽜
뽝
뽞
뽟
뽠
뽡
뽢
뽣
뽤
뽥
뽦
뽧
뽨
뽩
뽪
뽫
뽬
뽭
뽮
뽯
뽰
뽱
뽲
뽳
뽴
뽵
뽶
뽷
뽸
뽹
뽺
뽻
뽼
뽽
뽾
뽿
뾀
뾁
뾂
뾃
뾄
뾅
뾆
뾇
뾈
뾉
뾊
뾋
뾌
뾍
뾎
뾏
뾐
뾑
뾒
뾓
뾔
뾕
뾖
뾗
뾘
뾙
뾚
뾛
뾜
뾝
뾞
뾟
뾠
뾡
뾢
뾣
뾤
뾥
뾦
뾧
뾨
뾩
뾪
뾫
뾬
뾭
뾮
뾯
뾰
뾱
뾲
뾳
뾴
뾵
뾶
뾷
뾸
뾹
뾺
뾻
뾼
뾽
뾾
뾿
뿀
뿁
뿂
뿃
뿄
뿅
뿆
뿇
뿈
뿉
뿊
뿋
뿌
뿍
뿎
뿏
뿐
뿑
뿒
뿓
뿔
뿕
뿖
뿗
뿘
뿙
뿚
뿛
뿜
뿝
뿞
뿟
뿠
뿡
뿢
뿣
뿤
뿥
뿦
뿧
뿨
뿩
뿪
뿫
뿬
뿭
뿮
뿯
뿰
뿱
뿲
뿳
뿴
뿵
뿶
뿷
뿸
뿹
뿺
뿻
뿼
뿽
뿾
뿿
쀀
쀁
쀂
쀃
쀄
쀅
쀆
쀇
쀈
쀉
쀊
쀋
쀌
쀍
쀎
쀏
쀐
쀑
쀒
쀓
쀔
쀕
쀖
쀗
쀘
쀙
쀚
쀛
쀜
쀝
쀞
쀟
쀠
쀡
쀢
쀣
쀤
쀥
쀦
쀧
쀨
쀩
쀪
쀫
쀬
쀭
쀮
쀯
쀰
쀱
쀲
쀳
쀴
쀵
쀶
쀷
쀸
쀹
쀺
쀻
쀼
쀽
쀾
쀿
쁀
쁁
쁂
쁃
쁄
쁅
쁆
쁇
쁈
쁉
쁊
쁋
쁌
쁍
쁎
쁏
쁐
쁑
쁒
쁓
쁔
쁕
쁖
쁗
쁘
쁙
쁚
쁛
쁜
쁝
쁞
쁟
쁠
쁡
쁢
쁣
쁤
쁥
쁦
쁧
쁨
쁩
쁪
쁫
쁬
쁭
쁮
쁯
쁰
쁱
쁲
쁳
쁴
쁵
쁶
쁷
쁸
쁹
쁺
쁻
쁼
쁽
쁾
쁿
삀
삁
삂
삃
삄
삅
삆
삇
삈
삉
삊
삋
삌
삍
삎
삏
삐
삑
삒
삓
삔
삕
삖
삗
삘
삙
삚
삛
삜
삝
삞
삟
삠
삡
삢
삣
삤
삥
삦
삧
삨
삩
삪
삫
사
삭
삮
삯
산
삱
삲
삳
살
삵
삶
삷
삸
삹
삺
삻
삼
삽
삾
삿
샀
상
샂
샃
샄
샅
샆
샇
새
색
샊
샋
샌
샍
샎
샏
샐
샑
샒
샓
샔
샕
샖
샗
샘
샙
샚
샛
샜
생
샞
샟
샠
샡
샢
샣
샤
샥
샦
샧
샨
샩
샪
샫
샬
샭
샮
샯
샰
샱
샲
샳
샴
샵
샶
샷
샸
샹
샺
샻
샼
샽
샾
샿
섀
섁
섂
섃
섄
섅
섆
섇
섈
섉
섊
섋
섌
섍
섎
섏
섐
섑
섒
섓
섔
섕
섖
섗
섘
섙
섚
섛
서
석
섞
섟
선
섡
섢
섣
설
섥
섦
섧
섨
섩
섪
섫
섬
섭
섮
섯
섰
성
섲
섳
섴
섵
섶
섷
세
섹
섺
섻
센
섽
섾
섿
셀
셁
셂
셃
셄
셅
셆
셇
셈
셉
셊
셋
셌
셍
셎
셏
셐
셑
셒
셓
셔
셕
셖
셗
션
셙
셚
셛
셜
셝
셞
셟
셠
셡
셢
셣
셤
셥
셦
셧
셨
셩
셪
셫
셬
셭
셮
셯
셰
셱
셲
셳
셴
셵
셶
셷
셸
셹
셺
셻
셼
셽
셾
셿
솀
솁
솂
솃
솄
솅
솆
솇
솈
솉
솊
솋
소
속
솎
솏
손
솑
솒
솓
솔
솕
솖
솗
솘
솙
솚
솛
솜
솝
솞
솟
솠
송
솢
솣
솤
솥
솦
솧
솨
솩
솪
솫
솬
솭
솮
솯
솰
솱
솲
솳
솴
솵
솶
솷
솸
솹
솺
솻
솼
솽
솾
솿
쇀
쇁
쇂
쇃
쇄
쇅
쇆
쇇
쇈
쇉
쇊
쇋
쇌
쇍
쇎
쇏
쇐
쇑
쇒
쇓
쇔
쇕
쇖
쇗
쇘
쇙
쇚
쇛
쇜
쇝
쇞
쇟
쇠
쇡
쇢
쇣
쇤
쇥
쇦
쇧
쇨
쇩
쇪
쇫
쇬
쇭
쇮
쇯
쇰
쇱
쇲
쇳
쇴
쇵
쇶
쇷
쇸
쇹
쇺
쇻
쇼
쇽
쇾
쇿
숀
숁
숂
숃
숄
숅
숆
숇
숈
숉
숊
숋
숌
숍
숎
숏
숐
숑
숒
숓
숔
숕
숖
숗
수
숙
숚
숛
순
숝
숞
숟
술
숡
숢
숣
숤
숥
숦
숧
숨
숩
숪
숫
숬
숭
숮
숯
숰
숱
숲
숳
숴
숵
숶
숷
숸
숹
숺
숻
숼
숽
숾
숿
쉀
쉁
쉂
쉃
쉄
쉅
쉆
쉇
쉈
쉉
쉊
쉋
쉌
쉍
쉎
쉏
쉐
쉑
쉒
쉓
쉔
쉕
쉖
쉗
쉘
쉙
쉚
쉛
쉜
쉝
쉞
쉟
쉠
쉡
쉢
쉣
쉤
쉥
쉦
쉧
쉨
쉩
쉪
쉫
쉬
쉭
쉮
쉯
쉰
쉱
쉲
쉳
쉴
쉵
쉶
쉷
쉸
쉹
쉺
쉻
쉼
쉽
쉾
쉿
슀
슁
슂
슃
슄
슅
슆
슇
슈
슉
슊
슋
슌
슍
슎
슏
슐
슑
슒
슓
슔
슕
슖
슗
슘
슙
슚
슛
슜
슝
슞
슟
슠
슡
슢
슣
스
슥
슦
슧
슨
슩
슪
슫
슬
슭
슮
슯
슰
슱
슲
슳
슴
습
슶
슷
슸
승
슺
슻
슼
슽
슾
슿
싀
싁
싂
싃
싄
싅
싆
싇
싈
싉
싊
싋
싌
싍
싎
싏
싐
싑
싒
싓
싔
싕
싖
싗
싘
싙
싚
싛
시
식
싞
싟
신
싡
싢
싣
실
싥
싦
싧
싨
싩
싪
싫
심
십
싮
싯
싰
싱
싲
싳
싴
싵
싶
싷
싸
싹
싺
싻
싼
싽
싾
싿
쌀
쌁
쌂
쌃
쌄
쌅
쌆
쌇
쌈
쌉
쌊
쌋
쌌
쌍
쌎
쌏
쌐
쌑
쌒
쌓
쌔
쌕
쌖
쌗
쌘
쌙
쌚
쌛
쌜
쌝
쌞
쌟
쌠
쌡
쌢
쌣
쌤
쌥
쌦
쌧
쌨
쌩
쌪
쌫
쌬
쌭
쌮
쌯
쌰
쌱
쌲
쌳
쌴
쌵
쌶
쌷
쌸
쌹
쌺
쌻
쌼
쌽
쌾
쌿
썀
썁
썂
썃
썄
썅
썆
썇
썈
썉
썊
썋
썌
썍
썎
썏
썐
썑
썒
썓
썔
썕
썖
썗
썘
썙
썚
썛
썜
썝
썞
썟
썠
썡
썢
썣
썤
썥
썦
썧
써
썩
썪
썫
썬
썭
썮
썯
썰
썱
썲
썳
썴
썵
썶
썷
썸
썹
썺
썻
썼
썽
썾
썿
쎀
쎁
쎂
쎃
쎄
쎅
쎆
쎇
쎈
쎉
쎊
쎋
쎌
쎍
쎎
쎏
쎐
쎑
쎒
쎓
쎔
쎕
쎖
쎗
쎘
쎙
쎚
쎛
쎜
쎝
쎞
쎟
쎠
쎡
쎢
쎣
쎤
쎥
쎦
쎧
쎨
쎩
쎪
쎫
쎬
쎭
쎮
쎯
쎰
쎱
쎲
쎳
쎴
쎵
쎶
쎷
쎸
쎹
쎺
쎻
쎼
쎽
쎾
쎿
쏀
쏁
쏂
쏃
쏄
쏅
쏆
쏇
쏈
쏉
쏊
쏋
쏌
쏍
쏎
쏏
쏐
쏑
쏒
쏓
쏔
쏕
쏖
쏗
쏘
쏙
쏚
쏛
쏜
쏝
쏞
쏟
쏠
쏡
쏢
쏣
쏤
쏥
쏦
쏧
쏨
쏩
쏪
쏫
쏬
쏭
쏮
쏯
쏰
쏱
쏲
쏳
쏴
쏵
쏶
쏷
쏸
쏹
쏺
쏻
쏼
쏽
쏾
쏿
쐀
쐁
쐂
쐃
쐄
쐅
쐆
쐇
쐈
쐉
쐊
쐋
쐌
쐍
쐎
쐏
쐐
쐑
쐒
쐓
쐔
쐕
쐖
쐗
쐘
쐙
쐚
쐛
쐜
쐝
쐞
쐟
쐠
쐡
쐢
쐣
쐤
쐥
쐦
쐧
쐨
쐩
쐪
쐫
쐬
쐭
쐮
쐯
쐰
쐱
쐲
쐳
쐴
쐵
쐶
쐷
쐸
쐹
쐺
쐻
쐼
쐽
쐾
쐿
쑀
쑁
쑂
쑃
쑄
쑅
쑆
쑇
쑈
쑉
쑊
쑋
쑌
쑍
쑎
쑏
쑐
쑑
쑒
쑓
쑔
쑕
쑖
쑗
쑘
쑙
쑚
쑛
쑜
쑝
쑞
쑟
쑠
쑡
쑢
쑣
쑤
쑥
쑦
쑧
쑨
쑩
쑪
쑫
쑬
쑭
쑮
쑯
쑰
쑱
쑲
쑳
쑴
쑵
쑶
쑷
쑸
쑹
쑺
쑻
쑼
쑽
쑾
쑿
쒀
쒁
쒂
쒃
쒄
쒅
쒆
쒇
쒈
쒉
쒊
쒋
쒌
쒍
쒎
쒏
쒐
쒑
쒒
쒓
쒔
쒕
쒖
쒗
쒘
쒙
쒚
쒛
쒜
쒝
쒞
쒟
쒠
쒡
쒢
쒣
쒤
쒥
쒦
쒧
쒨
쒩
쒪
쒫
쒬
쒭
쒮
쒯
쒰
쒱
쒲
쒳
쒴
쒵
쒶
쒷
쒸
쒹
쒺
쒻
쒼
쒽
쒾
쒿
쓀
쓁
쓂
쓃
쓄
쓅
쓆
쓇
쓈
쓉
쓊
쓋
쓌
쓍
쓎
쓏
쓐
쓑
쓒
쓓
쓔
쓕
쓖
쓗
쓘
쓙
쓚
쓛
쓜
쓝
쓞
쓟
쓠
쓡
쓢
쓣
쓤
쓥
쓦
쓧
쓨
쓩
쓪
쓫
쓬
쓭
쓮
쓯
쓰
쓱
쓲
쓳
쓴
쓵
쓶
쓷
쓸
쓹
쓺
쓻
쓼
쓽
쓾
쓿
씀
씁
씂
씃
씄
씅
씆
씇
씈
씉
씊
씋
씌
씍
씎
씏
씐
씑
씒
씓
씔
씕
씖
씗
씘
씙
씚
씛
씜
씝
씞
씟
씠
씡
씢
씣
씤
씥
씦
씧
씨
씩
씪
씫
씬
씭
씮
씯
씰
씱
씲
씳
씴
씵
씶
씷
씸
씹
씺
씻
씼
씽
씾
씿
앀
앁
앂
앃
아
악
앆
앇
안
앉
않
앋
알
앍
앎
앏
앐
앑
앒
앓
암
압
앖
앗
았
앙
앚
앛
앜
앝
앞
앟
애
액
앢
앣
앤
앥
앦
앧
앨
앩
앪
앫
앬
앭
앮
앯
앰
앱
앲
앳
앴
앵
앶
앷
앸
앹
앺
앻
야
약
앾
앿
얀
얁
얂
얃
얄
얅
얆
얇
얈
얉
얊
얋
얌
얍
얎
얏
얐
양
얒
얓
얔
얕
얖
얗
얘
얙
얚
얛
얜
얝
얞
얟
얠
얡
얢
얣
얤
얥
얦
얧
얨
얩
얪
얫
얬
얭
얮
얯
얰
얱
얲
얳
어
억
얶
얷
언
얹
얺
얻
얼
얽
얾
얿
엀
엁
엂
엃
엄
업
없
엇
었
엉
엊
엋
엌
엍
엎
엏
에
엑
엒
엓
엔
엕
엖
엗
엘
엙
엚
엛
엜
엝
엞
엟
엠
엡
엢
엣
엤
엥
엦
엧
엨
엩
엪
엫
여
역
엮
엯
연
엱
엲
엳
열
엵
엶
엷
엸
엹
엺
엻
염
엽
엾
엿
였
영
옂
옃
옄
옅
옆
옇
예
옉
옊
옋
옌
옍
옎
옏
옐
옑
옒
옓
옔
옕
옖
옗
옘
옙
옚
옛
옜
옝
옞
옟
옠
옡
옢
옣
오
옥
옦
옧
온
옩
옪
옫
올
옭
옮
옯
옰
옱
옲
옳
옴
옵
옶
옷
옸
옹
옺
옻
옼
옽
옾
옿
와
왁
왂
왃
완
왅
왆
왇
왈
왉
왊
왋
왌
왍
왎
왏
왐
왑
왒
왓
왔
왕
왖
왗
왘
왙
왚
왛
왜
왝
왞
왟
왠
왡
왢
왣
왤
왥
왦
왧
왨
왩
왪
왫
왬
왭
왮
왯
왰
왱
왲
왳
왴
왵
왶
왷
외
왹
왺
왻
왼
왽
왾
왿
욀
욁
욂
욃
욄
욅
욆
욇
욈
욉
욊
욋
욌
욍
욎
욏
욐
욑
욒
욓
요
욕
욖
욗
욘
욙
욚
욛
욜
욝
욞
욟
욠
욡
욢
욣
욤
욥
욦
욧
욨
용
욪
욫
욬
욭
욮
욯
우
욱
욲
욳
운
욵
욶
욷
울
욹
욺
욻
욼
욽
욾
욿
움
웁
웂
웃
웄
웅
웆
웇
웈
웉
웊
웋
워
웍
웎
웏
원
웑
웒
웓
월
웕
웖
웗
웘
웙
웚
웛
웜
웝
웞
웟
웠
웡
웢
웣
웤
웥
웦
웧
웨
웩
웪
웫
웬
웭
웮
웯
웰
웱
웲
웳
웴
웵
웶
웷
웸
웹
웺
웻
웼
웽
웾
웿
윀
윁
윂
윃
위
윅
윆
윇
윈
윉
윊
윋
윌
윍
윎
윏
윐
윑
윒
윓
윔
윕
윖
윗
윘
윙
윚
윛
윜
윝
윞
윟
유
육
윢
윣
윤
윥
윦
윧
율
윩
윪
윫
윬
윭
윮
윯
윰
윱
윲
윳
윴
융
윶
윷
윸
윹
윺
윻
으
윽
윾
윿
은
읁
읂
읃
을
읅
읆
읇
읈
읉
읊
읋
음
읍
읎
읏
읐
응
읒
읓
읔
읕
읖
읗
의
읙
읚
읛
읜
읝
읞
읟
읠
읡
읢
읣
읤
읥
읦
읧
읨
읩
읪
읫
읬
읭
읮
읯
읰
읱
읲
읳
이
익
읶
읷
인
읹
읺
읻
일
읽
읾
읿
잀
잁
잂
잃
임
입
잆
잇
있
잉
잊
잋
잌
잍
잎
잏
자
작
잒
잓
잔
잕
잖
잗
잘
잙
잚
잛
잜
잝
잞
잟
잠
잡
잢
잣
잤
장
잦
잧
잨
잩
잪
잫
재
잭
잮
잯
잰
잱
잲
잳
잴
잵
잶
잷
잸
잹
잺
잻
잼
잽
잾
잿
쟀
쟁
쟂
쟃
쟄
쟅
쟆
쟇
쟈
쟉
쟊
쟋
쟌
쟍
쟎
쟏
쟐
쟑
쟒
쟓
쟔
쟕
쟖
쟗
쟘
쟙
쟚
쟛
쟜
쟝
쟞
쟟
쟠
쟡
쟢
쟣
쟤
쟥
쟦
쟧
쟨
쟩
쟪
쟫
쟬
쟭
쟮
쟯
쟰
쟱
쟲
쟳
쟴
쟵
쟶
쟷
쟸
쟹
쟺
쟻
쟼
쟽
쟾
쟿
저
적
젂
젃
전
젅
젆
젇
절
젉
젊
젋
젌
젍
젎
젏
점
접
젒
젓
젔
정
젖
젗
젘
젙
젚
젛
제
젝
젞
젟
젠
젡
젢
젣
젤
젥
젦
젧
젨
젩
젪
젫
젬
젭
젮
젯
젰
젱
젲
젳
젴
젵
젶
젷
져
젹
젺
젻
젼
젽
젾
젿
졀
졁
졂
졃
졄
졅
졆
졇
졈
졉
졊
졋
졌
졍
졎
졏
졐
졑
졒
졓
졔
졕
졖
졗
졘
졙
졚
졛
졜
졝
졞
졟
졠
졡
졢
졣
졤
졥
졦
졧
졨
졩
졪
졫
졬
졭
졮
졯
조
족
졲
졳
존
졵
졶
졷
졸
졹
졺
졻
졼
졽
졾
졿
좀
좁
좂
좃
좄
종
좆
좇
좈
좉
좊
좋
좌
좍
좎
좏
좐
좑
좒
좓
좔
좕
좖
좗
좘
좙
좚
좛
좜
좝
좞
좟
좠
좡
좢
좣
좤
좥
좦
좧
좨
좩
좪
좫
좬
좭
좮
좯
좰
좱
좲
좳
좴
좵
좶
좷
좸
좹
좺
좻
좼
좽
좾
좿
죀
죁
죂
죃
죄
죅
죆
죇
죈
죉
죊
죋
죌
죍
죎
죏
죐
죑
죒
죓
죔
죕
죖
죗
죘
죙
죚
죛
죜
죝
죞
죟
죠
죡
죢
죣
죤
죥
죦
죧
죨
죩
죪
죫
죬
죭
죮
죯
죰
죱
죲
죳
죴
죵
죶
죷
죸
죹
죺
죻
주
죽
죾
죿
준
줁
줂
줃
줄
줅
줆
줇
줈
줉
줊
줋
줌
줍
줎
줏
줐
중
줒
줓
줔
줕
줖
줗
줘
줙
줚
줛
줜
줝
줞
줟
줠
줡
줢
줣
줤
줥
줦
줧
줨
줩
줪
줫
줬
줭
줮
줯
줰
줱
줲
줳
줴
줵
줶
줷
줸
줹
줺
줻
줼
줽
줾
줿
쥀
쥁
쥂
쥃
쥄
쥅
쥆
쥇
쥈
쥉
쥊
쥋
쥌
쥍
쥎
쥏
쥐
쥑
쥒
쥓
쥔
쥕
쥖
쥗
쥘
쥙
쥚
쥛
쥜
쥝
쥞
쥟
쥠
쥡
쥢
쥣
쥤
쥥
쥦
쥧
쥨
쥩
쥪
쥫
쥬
쥭
쥮
쥯
쥰
쥱
쥲
쥳
쥴
쥵
쥶
쥷
쥸
쥹
쥺
쥻
쥼
쥽
쥾
쥿
즀
즁
즂
즃
즄
즅
즆
즇
즈
즉
즊
즋
즌
즍
즎
즏
즐
즑
즒
즓
즔
즕
즖
즗
즘
즙
즚
즛
즜
증
즞
즟
즠
즡
즢
즣
즤
즥
즦
즧
즨
즩
즪
즫
즬
즭
즮
즯
즰
즱
즲
즳
즴
즵
즶
즷
즸
즹
즺
즻
즼
즽
즾
즿
지
직
짂
짃
진
짅
짆
짇
질
짉
짊
짋
짌
짍
짎
짏
짐
집
짒
짓
짔
징
짖
짗
짘
짙
짚
짛
짜
짝
짞
짟
짠
짡
짢
짣
짤
짥
짦
짧
짨
짩
짪
짫
짬
짭
짮
짯
짰
짱
짲
짳
짴
짵
짶
짷
째
짹
짺
짻
짼
짽
짾
짿
쨀
쨁
쨂
쨃
쨄
쨅
쨆
쨇
쨈
쨉
쨊
쨋
쨌
쨍
쨎
쨏
쨐
쨑
쨒
쨓
쨔
쨕
쨖
쨗
쨘
쨙
쨚
쨛
쨜
쨝
쨞
쨟
쨠
쨡
쨢
쨣
쨤
쨥
쨦
쨧
쨨
쨩
쨪
쨫
쨬
쨭
쨮
쨯
쨰
쨱
쨲
쨳
쨴
쨵
쨶
쨷
쨸
쨹
쨺
쨻
쨼
쨽
쨾
쨿
쩀
쩁
쩂
쩃
쩄
쩅
쩆
쩇
쩈
쩉
쩊
쩋
쩌
쩍
쩎
쩏
쩐
쩑
쩒
쩓
쩔
쩕
쩖
쩗
쩘
쩙
쩚
쩛
쩜
쩝
쩞
쩟
쩠
쩡
쩢
쩣
쩤
쩥
쩦
쩧
쩨
쩩
쩪
쩫
쩬
쩭
쩮
쩯
쩰
쩱
쩲
쩳
쩴
쩵
쩶
쩷
쩸
쩹
쩺
쩻
쩼
쩽
쩾
쩿
쪀
쪁
쪂
쪃
쪄
쪅
쪆
쪇
쪈
쪉
쪊
쪋
쪌
쪍
쪎
쪏
쪐
쪑
쪒
쪓
쪔
쪕
쪖
쪗
쪘
쪙
쪚
쪛
쪜
쪝
쪞
쪟
쪠
쪡
쪢
쪣
쪤
쪥
쪦
쪧
쪨
쪩
쪪
쪫
쪬
쪭
쪮
쪯
쪰
쪱
쪲
쪳
쪴
쪵
쪶
쪷
쪸
쪹
쪺
쪻
쪼
쪽
쪾
쪿
쫀
쫁
쫂
쫃
쫄
쫅
쫆
쫇
쫈
쫉
쫊
쫋
쫌
쫍
쫎
쫏
쫐
쫑
쫒
쫓
쫔
쫕
쫖
쫗
쫘
쫙
쫚
쫛
쫜
쫝
쫞
쫟
쫠
쫡
쫢
쫣
쫤
쫥
쫦
쫧
쫨
쫩
쫪
쫫
쫬
쫭
쫮
쫯
쫰
쫱
쫲
쫳
쫴
쫵
쫶
쫷
쫸
쫹
쫺
쫻
쫼
쫽
쫾
쫿
쬀
쬁
쬂
쬃
쬄
쬅
쬆
쬇
쬈
쬉
쬊
쬋
쬌
쬍
쬎
쬏
쬐
쬑
쬒
쬓
쬔
쬕
쬖
쬗
쬘
쬙
쬚
쬛
쬜
쬝
쬞
쬟
쬠
쬡
쬢
쬣
쬤
쬥
쬦
쬧
쬨
쬩
쬪
쬫
쬬
쬭
쬮
쬯
쬰
쬱
쬲
쬳
쬴
쬵
쬶
쬷
쬸
쬹
쬺
쬻
쬼
쬽
쬾
쬿
쭀
쭁
쭂
쭃
쭄
쭅
쭆
쭇
쭈
쭉
쭊
쭋
쭌
쭍
쭎
쭏
쭐
쭑
쭒
쭓
쭔
쭕
쭖
쭗
쭘
쭙
쭚
쭛
쭜
쭝
쭞
쭟
쭠
쭡
쭢
쭣
쭤
쭥
쭦
쭧
쭨
쭩
쭪
쭫
쭬
쭭
쭮
쭯
쭰
쭱
쭲
쭳
쭴
쭵
쭶
쭷
쭸
쭹
쭺
쭻
쭼
쭽
쭾
쭿
쮀
쮁
쮂
쮃
쮄
쮅
쮆
쮇
쮈
쮉
쮊
쮋
쮌
쮍
쮎
쮏
쮐
쮑
쮒
쮓
쮔
쮕
쮖
쮗
쮘
쮙
쮚
쮛
쮜
쮝
쮞
쮟
쮠
쮡
쮢
쮣
쮤
쮥
쮦
쮧
쮨
쮩
쮪
쮫
쮬
쮭
쮮
쮯
쮰
쮱
쮲
쮳
쮴
쮵
쮶
쮷
쮸
쮹
쮺
쮻
쮼
쮽
쮾
쮿
쯀
쯁
쯂
쯃
쯄
쯅
쯆
쯇
쯈
쯉
쯊
쯋
쯌
쯍
쯎
쯏
쯐
쯑
쯒
쯓
쯔
쯕
쯖
쯗
쯘
쯙
쯚
쯛
쯜
쯝
쯞
쯟
쯠
쯡
쯢
쯣
쯤
쯥
쯦
쯧
쯨
쯩
쯪
쯫
쯬
쯭
쯮
쯯
쯰
쯱
쯲
쯳
쯴
쯵
쯶
쯷
쯸
쯹
쯺
쯻
쯼
쯽
쯾
쯿
찀
찁
찂
찃
찄
찅
찆
찇
찈
찉
찊
찋
찌
찍
찎
찏
찐
찑
찒
찓
찔
찕
찖
찗
찘
찙
찚
찛
찜
찝
찞
찟
찠
찡
찢
찣
찤
찥
찦
찧
차
착
찪
찫
찬
찭
찮
찯
찰
찱
찲
찳
찴
찵
찶
찷
참
찹
찺
찻
찼
창
찾
찿
챀
챁
챂
챃
채
책
챆
챇
챈
챉
챊
챋
챌
챍
챎
챏
챐
챑
챒
챓
챔
챕
챖
챗
챘
챙
챚
챛
챜
챝
챞
챟
챠
챡
챢
챣
챤
챥
챦
챧
챨
챩
챪
챫
챬
챭
챮
챯
챰
챱
챲
챳
챴
챵
챶
챷
챸
챹
챺
챻
챼
챽
챾
챿
첀
첁
첂
첃
첄
첅
첆
첇
첈
첉
첊
첋
첌
첍
첎
첏
첐
첑
첒
첓
첔
첕
첖
첗
처
척
첚
첛
천
첝
첞
첟
철
첡
첢
첣
첤
첥
첦
첧
첨
첩
첪
첫
첬
청
첮
첯
첰
첱
첲
첳
체
첵
첶
첷
첸
첹
첺
첻
첼
첽
첾
첿
쳀
쳁
쳂
쳃
쳄
쳅
쳆
쳇
쳈
쳉
쳊
쳋
쳌
쳍
쳎
쳏
쳐
쳑
쳒
쳓
쳔
쳕
쳖
쳗
쳘
쳙
쳚
쳛
쳜
쳝
쳞
쳟
쳠
쳡
쳢
쳣
쳤
쳥
쳦
쳧
쳨
쳩
쳪
쳫
쳬
쳭
쳮
쳯
쳰
쳱
쳲
쳳
쳴
쳵
쳶
쳷
쳸
쳹
쳺
쳻
쳼
쳽
쳾
쳿
촀
촁
촂
촃
촄
촅
촆
촇
초
촉
촊
촋
촌
촍
촎
촏
촐
촑
촒
촓
촔
촕
촖
촗
촘
촙
촚
촛
촜
총
촞
촟
촠
촡
촢
촣
촤
촥
촦
촧
촨
촩
촪
촫
촬
촭
촮
촯
촰
촱
촲
촳
촴
촵
촶
촷
촸
촹
촺
촻
촼
촽
촾
촿
쵀
쵁
쵂
쵃
쵄
쵅
쵆
쵇
쵈
쵉
쵊
쵋
쵌
쵍
쵎
쵏
쵐
쵑
쵒
쵓
쵔
쵕
쵖
쵗
쵘
쵙
쵚
쵛
최
쵝
쵞
쵟
쵠
쵡
쵢
쵣
쵤
쵥
쵦
쵧
쵨
쵩
쵪
쵫
쵬
쵭
쵮
쵯
쵰
쵱
쵲
쵳
쵴
쵵
쵶
쵷
쵸
쵹
쵺
쵻
쵼
쵽
쵾
쵿
춀
춁
춂
춃
춄
춅
춆
춇
춈
춉
춊
춋
춌
춍
춎
춏
춐
춑
춒
춓
추
축
춖
춗
춘
춙
춚
춛
출
춝
춞
춟
춠
춡
춢
춣
춤
춥
춦
춧
춨
충
춪
춫
춬
춭
춮
춯
춰
춱
춲
춳
춴
춵
춶
춷
춸
춹
춺
춻
춼
춽
춾
춿
췀
췁
췂
췃
췄
췅
췆
췇
췈
췉
췊
췋
췌
췍
췎
췏
췐
췑
췒
췓
췔
췕
췖
췗
췘
췙
췚
췛
췜
췝
췞
췟
췠
췡
췢
췣
췤
췥
췦
췧
취
췩
췪
췫
췬
췭
췮
췯
췰
췱
췲
췳
췴
췵
췶
췷
췸
췹
췺
췻
췼
췽
췾
췿
츀
츁
츂
츃
츄
츅
츆
츇
츈
츉
츊
츋
츌
츍
츎
츏
츐
츑
츒
츓
츔
츕
츖
츗
츘
츙
츚
츛
츜
츝
츞
츟
츠
측
츢
츣
츤
츥
츦
츧
츨
츩
츪
츫
츬
츭
츮
츯
츰
츱
츲
츳
츴
층
츶
츷
츸
츹
츺
츻
츼
츽
츾
츿
칀
칁
칂
칃
칄
칅
칆
칇
칈
칉
칊
칋
칌
칍
칎
칏
칐
칑
칒
칓
칔
칕
칖
칗
치
칙
칚
칛
친
칝
칞
칟
칠
칡
칢
칣
칤
칥
칦
칧
침
칩
칪
칫
칬
칭
칮
칯
칰
칱
칲
칳
카
칵
칶
칷
칸
칹
칺
칻
칼
칽
칾
칿
캀
캁
캂
캃
캄
캅
캆
캇
캈
캉
캊
캋
캌
캍
캎
캏
캐
캑
캒
캓
캔
캕
캖
캗
캘
캙
캚
캛
캜
캝
캞
캟
캠
캡
캢
캣
캤
캥
캦
캧
캨
캩
캪
캫
캬
캭
캮
캯
캰
캱
캲
캳
캴
캵
캶
캷
캸
캹
캺
캻
캼
캽
캾
캿
컀
컁
컂
컃
컄
컅
컆
컇
컈
컉
컊
컋
컌
컍
컎
컏
컐
컑
컒
컓
컔
컕
컖
컗
컘
컙
컚
컛
컜
컝
컞
컟
컠
컡
컢
컣
커
컥
컦
컧
컨
컩
컪
컫
컬
컭
컮
컯
컰
컱
컲
컳
컴
컵
컶
컷
컸
컹
컺
컻
컼
컽
컾
컿
케
켁
켂
켃
켄
켅
켆
켇
켈
켉
켊
켋
켌
켍
켎
켏
켐
켑
켒
켓
켔
켕
켖
켗
켘
켙
켚
켛
켜
켝
켞
켟
켠
켡
켢
켣
켤
켥
켦
켧
켨
켩
켪
켫
켬
켭
켮
켯
켰
켱
켲
켳
켴
켵
켶
켷
켸
켹
켺
켻
켼
켽
켾
켿
콀
콁
콂
콃
콄
콅
콆
콇
콈
콉
콊
콋
콌
콍
콎
콏
콐
콑
콒
콓
코
콕
콖
콗
콘
콙
콚
콛
콜
콝
콞
콟
콠
콡
콢
콣
콤
콥
콦
콧
콨
콩
콪
콫
콬
콭
콮
콯
콰
콱
콲
콳
콴
콵
콶
콷
콸
콹
콺
콻
콼
콽
콾
콿
쾀
쾁
쾂
쾃
쾄
쾅
쾆
쾇
쾈
쾉
쾊
쾋
쾌
쾍
쾎
쾏
쾐
쾑
쾒
쾓
쾔
쾕
쾖
쾗
쾘
쾙
쾚
쾛
쾜
쾝
쾞
쾟
쾠
쾡
쾢
쾣
쾤
쾥
쾦
쾧
쾨
쾩
쾪
쾫
쾬
쾭
쾮
쾯
쾰
쾱
쾲
쾳
쾴
쾵
쾶
쾷
쾸
쾹
쾺
쾻
쾼
쾽
쾾
쾿
쿀
쿁
쿂
쿃
쿄
쿅
쿆
쿇
쿈
쿉
쿊
쿋
쿌
쿍
쿎
쿏
쿐
쿑
쿒
쿓
쿔
쿕
쿖
쿗
쿘
쿙
쿚
쿛
쿜
쿝
쿞
쿟
쿠
쿡
쿢
쿣
쿤
쿥
쿦
쿧
쿨
쿩
쿪
쿫
쿬
쿭
쿮
쿯
쿰
쿱
쿲
쿳
쿴
쿵
쿶
쿷
쿸
쿹
쿺
쿻
쿼
쿽
쿾
쿿
퀀
퀁
퀂
퀃
퀄
퀅
퀆
퀇
퀈
퀉
퀊
퀋
퀌
퀍
퀎
퀏
퀐
퀑
퀒
퀓
퀔
퀕
퀖
퀗
퀘
퀙
퀚
퀛
퀜
퀝
퀞
퀟
퀠
퀡
퀢
퀣
퀤
퀥
퀦
퀧
퀨
퀩
퀪
퀫
퀬
퀭
퀮
퀯
퀰
퀱
퀲
퀳
퀴
퀵
퀶
퀷
퀸
퀹
퀺
퀻
퀼
퀽
퀾
퀿
큀
큁
큂
큃
큄
큅
큆
큇
큈
큉
큊
큋
큌
큍
큎
큏
큐
큑
큒
큓
큔
큕
큖
큗
큘
큙
큚
큛
큜
큝
큞
큟
큠
큡
큢
큣
큤
큥
큦
큧
큨
큩
큪
큫
크
큭
큮
큯
큰
큱
큲
큳
클
큵
큶
큷
큸
큹
큺
큻
큼
큽
큾
큿
킀
킁
킂
킃
킄
킅
킆
킇
킈
킉
킊
킋
킌
킍
킎
킏
킐
킑
킒
킓
킔
킕
킖
킗
킘
킙
킚
킛
킜
킝
킞
킟
킠
킡
킢
킣
키
킥
킦
킧
킨
킩
킪
킫
킬
킭
킮
킯
킰
킱
킲
킳
킴
킵
킶
킷
킸
킹
킺
킻
킼
킽
킾
킿
타
탁
탂
탃
탄
탅
탆
탇
탈
탉
탊
탋
탌
탍
탎
탏
탐
탑
탒
탓
탔
탕
탖
탗
탘
탙
탚
탛
태
택
탞
탟
탠
탡
탢
탣
탤
탥
탦
탧
탨
탩
탪
탫
탬
탭
탮
탯
탰
탱
탲
탳
탴
탵
탶
탷
탸
탹
탺
탻
탼
탽
탾
탿
턀
턁
턂
턃
턄
턅
턆
턇
턈
턉
턊
턋
턌
턍
턎
턏
턐
턑
턒
턓
턔
턕
턖
턗
턘
턙
턚
턛
턜
턝
턞
턟
턠
턡
턢
턣
턤
턥
턦
턧
턨
턩
턪
턫
턬
턭
턮
턯
터
턱
턲
턳
턴
턵
턶
턷
털
턹
턺
턻
턼
턽
턾
턿
텀
텁
텂
텃
텄
텅
텆
텇
텈
텉
텊
텋
테
텍
텎
텏
텐
텑
텒
텓
텔
텕
텖
텗
텘
텙
텚
텛
템
텝
텞
텟
텠
텡
텢
텣
텤
텥
텦
텧
텨
텩
텪
텫
텬
텭
텮
텯
텰
텱
텲
텳
텴
텵
텶
텷
텸
텹
텺
텻
텼
텽
텾
텿
톀
톁
톂
톃
톄
톅
톆
톇
톈
톉
톊
톋
톌
톍
톎
톏
톐
톑
톒
톓
톔
톕
톖
톗
톘
톙
톚
톛
톜
톝
톞
톟
토
톡
톢
톣
톤
톥
톦
톧
톨
톩
톪
톫
톬
톭
톮
톯
톰
톱
톲
톳
톴
통
톶
톷
톸
톹
톺
톻
톼
톽
톾
톿
퇀
퇁
퇂
퇃
퇄
퇅
퇆
퇇
퇈
퇉
퇊
퇋
퇌
퇍
퇎
퇏
퇐
퇑
퇒
퇓
퇔
퇕
퇖
퇗
퇘
퇙
퇚
퇛
퇜
퇝
퇞
퇟
퇠
퇡
퇢
퇣
퇤
퇥
퇦
퇧
퇨
퇩
퇪
퇫
퇬
퇭
퇮
퇯
퇰
퇱
퇲
퇳
퇴
퇵
퇶
퇷
퇸
퇹
퇺
퇻
퇼
퇽
퇾
퇿
툀
툁
툂
툃
툄
툅
툆
툇
툈
툉
툊
툋
툌
툍
툎
툏
툐
툑
툒
툓
툔
툕
툖
툗
툘
툙
툚
툛
툜
툝
툞
툟
툠
툡
툢
툣
툤
툥
툦
툧
툨
툩
툪
툫
투
툭
툮
툯
툰
툱
툲
툳
툴
툵
툶
툷
툸
툹
툺
툻
툼
툽
툾
툿
퉀
퉁
퉂
퉃
퉄
퉅
퉆
퉇
퉈
퉉
퉊
퉋
퉌
퉍
퉎
퉏
퉐
퉑
퉒
퉓
퉔
퉕
퉖
퉗
퉘
퉙
퉚
퉛
퉜
퉝
퉞
퉟
퉠
퉡
퉢
퉣
퉤
퉥
퉦
퉧
퉨
퉩
퉪
퉫
퉬
퉭
퉮
퉯
퉰
퉱
퉲
퉳
퉴
퉵
퉶
퉷
퉸
퉹
퉺
퉻
퉼
퉽
퉾
퉿
튀
튁
튂
튃
튄
튅
튆
튇
튈
튉
튊
튋
튌
튍
튎
튏
튐
튑
튒
튓
튔
튕
튖
튗
튘
튙
튚
튛
튜
튝
튞
튟
튠
튡
튢
튣
튤
튥
튦
튧
튨
튩
튪
튫
튬
튭
튮
튯
튰
튱
튲
튳
튴
튵
튶
튷
트
특
튺
튻
튼
튽
튾
튿
틀
틁
틂
틃
틄
틅
틆
틇
틈
틉
틊
틋
틌
틍
틎
틏
틐
틑
틒
틓
틔
틕
틖
틗
틘
틙
틚
틛
틜
틝
틞
틟
틠
틡
틢
틣
틤
틥
틦
틧
틨
틩
틪
틫
틬
틭
틮
틯
티
틱
틲
틳
틴
틵
틶
틷
틸
틹
틺
틻
틼
틽
틾
틿
팀
팁
팂
팃
팄
팅
팆
팇
팈
팉
팊
팋
파
팍
팎
팏
판
팑
팒
팓
팔
팕
팖
팗
팘
팙
팚
팛
팜
팝
팞
팟
팠
팡
팢
팣
팤
팥
팦
팧
패
팩
팪
팫
팬
팭
팮
팯
팰
팱
팲
팳
팴
팵
팶
팷
팸
팹
팺
팻
팼
팽
팾
팿
퍀
퍁
퍂
퍃
퍄
퍅
퍆
퍇
퍈
퍉
퍊
퍋
퍌
퍍
퍎
퍏
퍐
퍑
퍒
퍓
퍔
퍕
퍖
퍗
퍘
퍙
퍚
퍛
퍜
퍝
퍞
퍟
퍠
퍡
퍢
퍣
퍤
퍥
퍦
퍧
퍨
퍩
퍪
퍫
퍬
퍭
퍮
퍯
퍰
퍱
퍲
퍳
퍴
퍵
퍶
퍷
퍸
퍹
퍺
퍻
퍼
퍽
퍾
퍿
펀
펁
펂
펃
펄
펅
펆
펇
펈
펉
펊
펋
펌
펍
펎
펏
펐
펑
펒
펓
펔
펕
펖
펗
페
펙
펚
펛
펜
펝
펞
펟
펠
펡
펢
펣
펤
펥
펦
펧
펨
펩
펪
펫
펬
펭
펮
펯
펰
펱
펲
펳
펴
펵
펶
펷
편
펹
펺
펻
펼
펽
펾
펿
폀
폁
폂
폃
폄
폅
폆
폇
폈
평
폊
폋
폌
폍
폎
폏
폐
폑
폒
폓
폔
폕
폖
폗
폘
폙
폚
폛
폜
폝
폞
폟
폠
폡
폢
폣
폤
폥
폦
폧
폨
폩
폪
폫
포
폭
폮
폯
폰
폱
폲
폳
폴
폵
폶
폷
폸
폹
폺
폻
폼
폽
폾
폿
퐀
퐁
퐂
퐃
퐄
퐅
퐆
퐇
퐈
퐉
퐊
퐋
퐌
퐍
퐎
퐏
퐐
퐑
퐒
퐓
퐔
퐕
퐖
퐗
퐘
퐙
퐚
퐛
퐜
퐝
퐞
퐟
퐠
퐡
퐢
퐣
퐤
퐥
퐦
퐧
퐨
퐩
퐪
퐫
퐬
퐭
퐮
퐯
퐰
퐱
퐲
퐳
퐴
퐵
퐶
퐷
퐸
퐹
퐺
퐻
퐼
퐽
퐾
퐿
푀
푁
푂
푃
푄
푅
푆
푇
푈
푉
푊
푋
푌
푍
푎
푏
푐
푑
푒
푓
푔
푕
푖
푗
푘
푙
푚
푛
표
푝
푞
푟
푠
푡
푢
푣
푤
푥
푦
푧
푨
푩
푪
푫
푬
푭
푮
푯
푰
푱
푲
푳
푴
푵
푶
푷
푸
푹
푺
푻
푼
푽
푾
푿
풀
풁
풂
풃
풄
풅
풆
풇
품
풉
풊
풋
풌
풍
풎
풏
풐
풑
풒
풓
풔
풕
풖
풗
풘
풙
풚
풛
풜
풝
풞
풟
풠
풡
풢
풣
풤
풥
풦
풧
풨
풩
풪
풫
풬
풭
풮
풯
풰
풱
풲
풳
풴
풵
풶
풷
풸
풹
풺
풻
풼
풽
풾
풿
퓀
퓁
퓂
퓃
퓄
퓅
퓆
퓇
퓈
퓉
퓊
퓋
퓌
퓍
퓎
퓏
퓐
퓑
퓒
퓓
퓔
퓕
퓖
퓗
퓘
퓙
퓚
퓛
퓜
퓝
퓞
퓟
퓠
퓡
퓢
퓣
퓤
퓥
퓦
퓧
퓨
퓩
퓪
퓫
퓬
퓭
퓮
퓯
퓰
퓱
퓲
퓳
퓴
퓵
퓶
퓷
퓸
퓹
퓺
퓻
퓼
퓽
퓾
퓿
픀
픁
픂
픃
프
픅
픆
픇
픈
픉
픊
픋
플
픍
픎
픏
픐
픑
픒
픓
픔
픕
픖
픗
픘
픙
픚
픛
픜
픝
픞
픟
픠
픡
픢
픣
픤
픥
픦
픧
픨
픩
픪
픫
픬
픭
픮
픯
픰
픱
픲
픳
픴
픵
픶
픷
픸
픹
픺
픻
피
픽
픾
픿
핀
핁
핂
핃
필
핅
핆
핇
핈
핉
핊
핋
핌
핍
핎
핏
핐
핑
핒
핓
핔
핕
핖
핗
하
학
핚
핛
한
핝
핞
핟
할
핡
핢
핣
핤
핥
핦
핧
함
합
핪
핫
핬
항
핮
핯
핰
핱
핲
핳
해
핵
핶
핷
핸
핹
핺
핻
핼
핽
핾
핿
햀
햁
햂
햃
햄
햅
햆
햇
했
행
햊
햋
햌
햍
햎
햏
햐
햑
햒
햓
햔
햕
햖
햗
햘
햙
햚
햛
햜
햝
햞
햟
햠
햡
햢
햣
햤
향
햦
햧
햨
햩
햪
햫
햬
햭
햮
햯
햰
햱
햲
햳
햴
햵
햶
햷
햸
햹
햺
햻
햼
햽
햾
햿
헀
헁
헂
헃
헄
헅
헆
헇
허
헉
헊
헋
헌
헍
헎
헏
헐
헑
헒
헓
헔
헕
헖
헗
험
헙
헚
헛
헜
헝
헞
헟
헠
헡
헢
헣
헤
헥
헦
헧
헨
헩
헪
헫
헬
헭
헮
헯
헰
헱
헲
헳
헴
헵
헶
헷
헸
헹
헺
헻
헼
헽
헾
헿
혀
혁
혂
혃
현
혅
혆
혇
혈
혉
혊
혋
혌
혍
혎
혏
혐
협
혒
혓
혔
형
혖
혗
혘
혙
혚
혛
혜
혝
혞
혟
혠
혡
혢
혣
혤
혥
혦
혧
혨
혩
혪
혫
혬
혭
혮
혯
혰
혱
혲
혳
혴
혵
혶
혷
호
혹
혺
혻
혼
혽
혾
혿
홀
홁
홂
홃
홄
홅
홆
홇
홈
홉
홊
홋
홌
홍
홎
홏
홐
홑
홒
홓
화
확
홖
홗
환
홙
홚
홛
활
홝
홞
홟
홠
홡
홢
홣
홤
홥
홦
홧
홨
황
홪
홫
홬
홭
홮
홯
홰
홱
홲
홳
홴
홵
홶
홷
홸
홹
홺
홻
홼
홽
홾
홿
횀
횁
횂
횃
횄
횅
횆
횇
횈
횉
횊
횋
회
획
횎
횏
횐
횑
횒
횓
횔
횕
횖
횗
횘
횙
횚
횛
횜
횝
횞
횟
횠
횡
횢
횣
횤
횥
횦
횧
효
횩
횪
횫
횬
횭
횮
횯
횰
횱
횲
횳
횴
횵
횶
횷
횸
횹
횺
횻
횼
횽
횾
횿
훀
훁
훂
훃
후
훅
훆
훇
훈
훉
훊
훋
훌
훍
훎
훏
훐
훑
훒
훓
훔
훕
훖
훗
훘
훙
훚
훛
훜
훝
훞
훟
훠
훡
훢
훣
훤
훥
훦
훧
훨
훩
훪
훫
훬
훭
훮
훯
훰
훱
훲
훳
훴
훵
훶
훷
훸
훹
훺
훻
훼
훽
훾
훿
휀
휁
휂
휃
휄
휅
휆
휇
휈
휉
휊
휋
휌
휍
휎
휏
휐
휑
휒
휓
휔
휕
휖
휗
휘
휙
휚
휛
휜
휝
휞
휟
휠
휡
휢
휣
휤
휥
휦
휧
휨
휩
휪
휫
휬
휭
휮
휯
휰
휱
휲
휳
휴
휵
휶
휷
휸
휹
휺
휻
휼
휽
휾
휿
흀
흁
흂
흃
흄
흅
흆
흇
흈
흉
흊
흋
흌
흍
흎
흏
흐
흑
흒
흓
흔
흕
흖
흗
흘
흙
흚
흛
흜
흝
흞
흟
흠
흡
흢
흣
흤
흥
흦
흧
흨
흩
흪
흫
희
흭
흮
흯
흰
흱
흲
흳
흴
흵
흶
흷
흸
흹
흺
흻
흼
흽
흾
흿
힀
힁
힂
힃
힄
힅
힆
힇
히
힉
힊
힋
힌
힍
힎
힏
힐
힑
힒
힓
힔
힕
힖
힗
힘
힙
힚
힛
힜
힝
힞
힟
힠
힡
힢
힣
##격
##수
##장
##.
##칭
##시
##엔
##리
##미
##카
##히
##라
##기
##탐
##정
##님
##'
##스
##루
##터
##는
##니
##씨
##,
##에
##렌
##보
##다
##도
##U
##M
##이
##말
##까
##병
##캠
##프
##나
##로
##서
##온
##붙
##내
##용
##부
##분
##무
##역
##고
##풍
##군
##경
##입
##?
##되
##어
##있
##데
##지
##만
##성
##랑
##+
##C
##왕
##/
##A
##n
##a
##t
##h
##e
##m
##천
##항
##조
##차
##0
##1
##6
##4
##겨
##으
##며
##녕
##하
##세
##요
##x
##i
##d
##o
##선
##려
##준
##것
##티
##블
##컴
##퍼
##타
##가
##환
##간
##문
##거
##영
##탈
##아
##K
##P
##충
##청
##동
##했
##딜
##닥
##힐
##면
##급
##랜
##버
##드
##v
##5
##짜
##쪽
##p
##s
##r
##킬
##셰
##두
##섭
##은
##@
##업
##와
##의
##체
##주
##식
##T
##을
##너
##운
##]
##I
##V
##G
##:
##상
##-
##중
##떡
##엘
##녀
##B
##올
##임
##현
##우
##&
##양
##호
##금
##계
##8
##년
##~
##Z
##건
##담
##트
##강
##과
##짐
##화
##제
##림
##픽
##패
##법
##쟁
##대
##자
##실
##개
##력
##사
##래
##족
##독
##덱
##편
##크
##큼
##르
##딕
##봇
##D
##험
##구
##베
##팅
##색
##코
##S
##모
##읍
##방
##함
##를
##7
##2
##=
##3
##습
##*
##)
##렸
##"
##톤
##전
##인
##걸
##즈
##음
##령
##란
##위
##마
##태
##원
##효
##등
##파
##멘
##션
##산
##유
##증
##심
##람
##친
##게
##O
##얼
##육
##설
##락
##들
##!
##국
##적
##매
##쌕
##늘
##감
##평
##혁
##추
##진
##펙
##련
##널
##였
##발
##키
##레
##반
##판
##돌
##합
##든
##공
##겠
##론
##켜
##야
##특
##집
##확
##R
##벡
##김
##억
##덕
##일
##비
##형
##메
##재
##권
##벤
##9
##빙
##명
##해
##왔
##안
##결
##통
##바
##c
##l
##켄
##g
##갤
##곡
##폭
##뢰
##희
##%
##워
##른
##출
##갔
##E
##N
##틀
##회
##승
##속
##던
##략
##배
##k
##여
##둘
##살
##생
##록
##욕
##점
##례
##신
##틴
##토
##작
##불
##럽
##끼
##넘
##겼
##포
##피
##컨
##커
##딸
##교
##한
###
##;
##F
##복
##착
##됐
##었
##량
##밖
##져
##탄
##핵
##각
##학
##그
##젤
##J
##H
##관
##할
##품
##롤
##러
##번
##u
##달
##행
##창
##뿐
##죠
##앵
##글
##뮤
##존
##질
##얀
##활
##울
##별
##잖
##오
##백
##누
##광
##숙
##연
##엄
##층
##L
##표
##북
##술
##센
##립
##곤
##먼
##릴
##꺼
##혼
##치
##렛
##쿠
##목
##넣
##소
##석
##흥
##륜
##귀
##같
##쳐
##된
##민
##후
##린
##클
##단
##브
##플
##염
##잡
##았
##테
##랭
##핀
##W
##월
##능
##랴
##냈
##렉
##샘
##벌
##찬
##룡
##첩
##초
##헌
##느
##황
##협
##맹
##틋
##웨
##암
##풀
##종
##X
##극
##예
##낸
##(
##겐
##w
##y
##캐
##엽
##츠
##롱
##맥
##즌
##냐
##넬
##료
##윤
##벨
##향
##슨
##킨
##f
##외
##류
##애
##몽
##랍
##듈
##채
##네
##검
##물
##남
##새
##멍
##슬
##램
##랄
##맛
##직
##처
##약
##켰
##열
##참
##찰
##런
##짤
##더
##악
##굴
##맵
##냥
##디
##털
##폴
##랸
##웅
##빗
##떠
##칼
##_
##낙
##책
##듯
##볼
##써
##졌
##홀
##뀌
##받
##궁
##펑
##허
##픈
##콤
##[
##킹
##송
##저
##튜
##괴
##될
##쿨
##탯
##컬
##b
##봉
##측
##페
##므
##노
##닐
##뜯
##케
##템
##렬
##빠
##옷
##깃
##박
##쥐
##앱
##딩
##랙
##덮
##칸
##알
##웠
##따
##징
##길
##눈
##훈
##혈
##득
##됨
##본
##갑
##Y
##턱
##댄
##>
##푸
##돼
##당
##멋
##좨
##난
##답
##눠
##첼
##$
##퍽
##퇴
##앙
##츤
##콘
##욱
##샤
##홍
##링
##막
##갈
##땐
##갯
##때
##뿔
##총
##손
##닉
##닛
##옥
##투
##붑
##뽀
##뱅
##촉
##릿
##펀
##얄
##믹
##롭
##쓰
##탱
##쁜
##틱
##댔
##접
##흡
##줄
##탁
##삭
##벳
##혹
##랫
##났
##완
##샷
##샹
##팀
##짖
##근
##줘
##듭
##큭
##탑
##흐
##j
##힘
##룸
##취
##쿄
##벙
##륙
##쁠
##절
##밍
##즉
##언
##Q
##뜬
##섬
##씩
##뉴
##름
##뤄
##빛
##럼
##챈
##싸
##휘
##셉
##념
##옆
##셋
##닌
##망
##쉬
##앞
##왼
##밤
##몪
##뚜
##맞
##봐
##셨
##견
##변
##축
##좌
##택
##척
##혐
##놨
##랐
##톨
##릭
##논
##툰
##찌
##걱
##렐
##렙
##ㅋ
##앤
##튀
##혜
##잘
##칙
##떨
##률
##z
##밀
##뱀
##죽
##뻑
##머
##째
##꺽
##흑
##슈
##몬
##십
##빅
##겟
##텐
##삼
##릉
##짓
##농
##얘
##렇
##팬
##철
##최
##ㅎ
##ㄱ
##ㅇ
##ㅍ
##돈
##묘
##긴
##율
##돠
##맨
##뤼
##순
##텔
##밥
##먹
##획
##셀
##뭉
##빌
##<
##랩
##넌
##밭
##풋
##칠
##켓
##젠
##날
##팔
##렁
##멀
##필
##규
##몹
##곽
##폰
##골
##낮
##델
##찐
##옵
##둥
##않
##탕
##침
##뢴
##첸
##탓
##둠
##팟
##랬
##읽
##쁘
##춘
##쨌
##콜
##탠
##됬
##뽕
##츙
##톱
##닷
##쨩
##뒤
##긋
##뼈
##캔
##떼
##압
##돔
##잠
##앗
##펠
##껑
##q
##끔
##룹
##궈
##륭
##놓
##혔
##윕
##뒷
##굼
##팩
##땡
##낀
##슐
##멸
##뎀
##멜
##ㅉ
##깐
##범
##죄
##혀
##룰
##렝
##꼈
##딧
##턴
##툴
##눔
##챠
##닝
##뿌
##덤
##댑
##캅
##짭
##꾼
##펄
##좀
##꼬
##\
##쇼
##줌
##헐
##캄
##겔
##숍
##폐
##꽃
##없
##덴
##셜
##귄
##륵
##끈
##춤
##퓨
##렘
##팡
##롬
##싼
##객
##윙
##쓴
##셈
##께
##쏨
##큐
##깡
##좋
##씬
##웃
##{
##}
##앨
##싱
##ㄷ
##슛
##헬
##즘
##헤
##닫
##끄
##찾
##빈
##렴
##몇
##럭
##못
##홉
##붕
##쯔
##꿀
##샬
##롯
##쥴
##및
##봄
##쭐
##줬
##휠
##쇠
##벽
##녘
##옹
##쟈
##컵
##흔
##찜
##흉
##옮
##렵
##ㅛ
##ㄶ
##ㅌ
##ㅊ
##찮
##훗
##봤
##잇
##켈
##섯
##솔
##폼
##킥
##촌
##챔
##괜
##잔
##ㄴ
##ㅁ
##ㄹ
##ㄲ
##릎
##햄
##익
##뇌
##몄
##숲
##값
##핑
##훙
##듀
##펴
##냉
##응
##캬
##탬
##벼
##룩
##윗
##촤
##퓰
##넥
##튼
##잉
##엑
##젼
##쿼
##젓
##펜
##힌
##땅
##퉁
##둬
##긷
##벅
##깎
##퀴
##엠
##덩
##셔
##긁
##첨
##웹
##윽
##움
##엉
##톈
##횡
##궤
##슴
##숏
##컷
##깻
##슷
##뷰
##틸
##텍
##녹
##싶
##많
##킴
##칩
##럴
##끌
##곰
##괄
##액
##옌
##놀
##홈
##콸
##놉
##궂
##뷔
##샨
##낭
##또
##팽
##젝
##깰
##뻥
##둔
##딘
##꾸
##멧
##뭇
##냄
##끗
##짱
##맺
##쩐
##핫
##춋
##믐
##볶
##ㅅ
##녔
##썼
##끝
##쌍
##ㅗ
##캘
##둑
##쵸
##옴
##콥
##높
##뜨
##킷
##뇽
##늬
##탭
##깅
##넛
##꽂
##뛸
##햡
##셴
##엌
##팝
##융
##릅
##빔
##즐
##캣
##됩
##몸
##빵
##훁
##쉴
##댐
##넷
##쳤
##갓
##촬
##곗
##챙
##힉
##팍
##텟
##겁
##룬
##낄
##쏘
##릮
##웉
##퉅
##뱌
##왜
##걀
##윌
##놈
##룻
##늄
##쓸
##륨
##몰
##`
##뒀
##쩌
##짠
##찍
##뷸
##쉽
##쇄
##헉
##쿰
##빨
##겸
##뛰
##뚫
##잎
##뱉
##균
##둣
##릇
##넹
##큰
##낌
##껍
##쥬
##팜
##멤
##톰
##뎬
##쭤
##젯
##쫄
##쯤
##댈
##믓
##듐
##뒈
##딱
##귤
##꼇
##겜
##븐
##곳
##엇
##낼
##챕
##툭
##톡
##곱
##ㅈ
##ㅐ
##셍
##랗
##윈
##캇
##푼
##깁
##숭
##튕
##츄
##샵
##|
##힙
##솟
##훤
##췌
##웬
##잤
##늑
##촨
##밑
##쉐
##쯰
##끓
##퀄
##왑
##쭉
##쩍
##쌈
##쾌
##띠
##옐
##깝
##밴
##빼
##벗
##륀
##덫
##텀
##콩
##딴
##꿔
##춰
##밧
##뮬
##넨
##쿤
##흰
##쏴
##늅
##맙
##훼
##댓
##쑈
##핶
##쉠
##휴
##퍄
##꼴
##핸
##뻐
##ㅞ
##쑤
##납
##^
##끊
##뭔
##슌
##핍
##솃
##윅
##냔
##폿
##맑
##떄
##뀜
##텼
##쌀
##돛
##넴
##웰
##듬
##ㅂ
##탤
##텅
##긍
##굿
##쓱
##닭
##텃
##묵
##왈
##묶
##탔
##빤
##욘
##엥
##엣
##힛
##흣
##쫓
##텡
##렀
##줍
##썸
##덜
##숫
##깥
##닙
##ㅕ
##밋
##똑
##똥
##뉸
##뱃
##짝
##됙
##삽
##뚝
##섹
##ㅆ
##ㅏ
##뽑
##꼭
##캡
##돘
##숟
##덧
##밌
##뫼
##듣
##팠
##깍
##썽
##썬
##겹
##똘
##뎁
##깔
##끅
##믄
##읊
##떻
##뺏
##짧
##퉆
##댁
##넓
##랏
##썰
##룽
##맘
##깨
##껴
##뎌
##뇨
##뿅
##틈
##땜
##죤
##낫
##큘
##쭈
##뚠
##햔
##횟
##꿨
##돋
##슾
##솥
##눌
##맷
##쏠
##팥
##갱
##숨
##꿰
##챌
##ㅡ
##텝
##쌘
##꽁
##닿
##앉
##흘
##껌
##핏
##밟
##ㅔ
##뚱
##ㅒ
##ㄺ
##놔
##썩
##뜩
##퀘
##벵
##팸
##췬
##늠
##뭐
##킁
##슘
##굉
##웜
##눼
##줴
##넉
##쿵
##졋
##꿩
##삳
##팰
##졸
##녜
##돗
##왱
##웽
##욧
##밸
##쾅
##퐁
##벚
##떤
##솢
##햇
##볕
##쬐
##럿
##꽥
##궜
##왓
##욤
##갸
##몫
##빕
##캎
##쿱
##롄
##잣
##닦
##쉼
##눙
##슢
##댕
##삐
##쁨
##밝
##붓
##첵
##뮐
##얹
##츨
##ㅓ
##묻
##밎
##푹
##뚤
##맴
##꼰
##뜸
##씽
##싫
##컥
##웁
##냅
##둡
##헨
##홋
##뮈
##앰
##뻘
##덥
##퀼
##쌔
##흠
##겅
##잼
##젭
##깊
##콧
##뎃
##졍
##씌
##펫
##ㅜ
##ㅀ
##셸
##떱
##굳
##쩡
##땠
##ㅝ
##믈
##꿈
##싯
##뜰
##펭
##빽
##솨
##낵
##콕
##뎐
##녠
##튬
##먀
##뻔
##얏
##렷
##퀸
##줏
##밈
##콰
##깽
##붉
##쥔
##칫
##즙
##쨔
##뗏
##븨
##앴
##잃
##젱
##얌
##꿍
##갖
##쌓
##ㄼ
##솜
##픔
##샌
##폄
##찡
##띵
##눅
##쥽
##뺌
##찟
##웍
##흫
##ㅠ
##좁
##췄
##겉
##갠
##놋
##콴
##쇳
##딪
##먐
##톳
##눕
##쳰
##햐
##잭
##읫
##씹
##튽
##찻
##쟌
##잌
##멈
##햝
##됫
##젬
##쁩
##낚
##쿡
##꼽
##숴
##쌋
##켯
##멕
##ㅚ
##믿
##뺘
##슝
##킵
##헥
##샴
##솠
##쑨
##맏
##쎽
##쫒
##얗
##홓
##홐
##춧
##볏
##뜻
##ㅖ
##낯
##쩬
##쩨
##귾
##맡
##윳
##늙
##솽
##냇
##붐
##쉘
##쌤
##꼼
##씀
##섶
##컹
##훵
##쏜
##댜
##싹
##쀼
##퉜
##쪼
##ㅣ
##냤
##뾰
##쳇
##볐
##캥
##촘
##헀
##ㅟ
##쑥
##쌌
##뉘
##걷
##텨
##ㄳ
##괘
##훕
##헝
##쫀
##딤
##섰
##쩔
##썹
##꽉
##싴
##껏
##닮
##괭
##꿉
##뀔
##쉰
##팻
##짢
##낟
##젔
##씸
##캉
##쭝
##챤
##볍
##쉑
##셧
##챘
##퀀
##댱
##뎅
##궃
##웻
##쇽
##툼
##췐
##셩
##꿋
##뮹
##훅
##찼
##빡
##귁
##삯
##슭
##뻤
##꽈
##튠
##혿
##뢸
##폈
##섀
##셌
##켐
##덟
##곧
##헷
##꺄
##펏
##왇
##멩
##굵
##잽
##퓌
##쑹
##헛
##큔
##퓻
##짹
##듸
##큄
##옛
##뷘
##퀵
##궐
##쵼
##빴
##훌
##잊
##괌
##뺀
##떽
##펍
##숑
##힜
##뺴
##훔
##짚
##잿
##깜
##엿
##꽝
##묠
##녁
##낍
##쫑
##붇
##첫
##핌
##썻
##칵
##휼
##힣
##뵙
##굽
##뵘
##쉈
##랠
##얍
##굇
##ㄿ
##흙
##껄
##섞
##딛
##뿜
##앳
##좡
##좆
##쳉
##뺑
##녑
##읜
##붸
##첬
##샐
##랖
##봅
##겪
##왘
##튐
##띈
##ㄸ
##힁
##푱
##뭘
##쎄
##찔
##뀨
##뵤
##펌
##쟤
##깼
##쳅
##헸
##삶
##숀
##ㅄ
##졔
##햅
##뵈
##릐
##캰
##튤
##뀐
##짙
##땀
##땃
##옙
##넝
##팤
##빰
##쮸
##꺅
##싰
##삘
##탸
##췃
##띄
##넵
##봘
##퇘
##긔
##꼐
##곶
##윰
##찝
##엤
##ㅙ
##볔
##삿
##ㅢ
##햏
##얻
##갚
##뗀
##젋
##뭄
##촐
##엶
##듦
##쾨
##켤
##뎟
##툿
##쌩
##쩹
##땁
##졘
##롹
##딯
##엡
##썡
##녈
##튄
##샥
##쟝
##떳
##삷
##펼
##훠
##굥
##쳔
##뷁
##꺾
##돕
##챳
##맆
##낳
##쩜
##늦
##ㄵ
##뉜
##쿳
##넸
##쪘
##줫
##덞
##뮌
##켑
##겄
##쪄
##쎈
##븀
##촛
##찹
##붱
##횃
##얔
##닢
##틧
##씻
##웩
##찢
##쏭
##쒸
##ㄽ
##넫
##솝
##껀
##됴
##꽌
##팃
##띨
##톄
##짬
##벋
##짊
##홧
##썅
##튓
##뒬
##멥
##뤠
##떴
##닼
##릯
##먄
##촙
##벰
##뤃
##쉿
##얇
##굶
##랼
##컫
##츈
##갗
##핥
##헿
##믖
##ㄻ
##젖
##갰
##쳬
##졉
##헙
##퐞
##뭍
##걔
##쉔
##훨
##왝
##곘
##튭
##옭
##힝
##팁
##쏟
##펐
##씁
##엎
##뺄
##냑
##핰
##퀜
##꾿
##늉
##뮴
##쒜
##ㅃ
##꼿
##맢
##챨
##옳
##쾃
##켔
##뇰
##뷴
##탉
##룀
##즤
##딥
##왁
##몐
##눗
##낱
##뛴
##삑
##녓
##늪
##곬
##뿡
##휫
##큡
##쳣
##갭
##텁
##쩄
##쳄
##뻬
##셤
##왠
##ㅘ
##툽
##뺩
##놧
##윔
##쏙
##뜀
##꾀
##쾡
##앓
##겊
##긱
##쉭
##꿜
##ㅑ
##딨
##넡
##쨈
##짼
##쭌
##븅
##삣
##ㄾ
##깢
##픕
##슁
##겡
##얭
##헴
##쉣
##웡
##뮨
##얐
##뒹
##죌
##읖
##슉
##읏
##쩝
##읒
##얕
##퍈
##챗
##낰
##쐐
##헹
##맸
##뽈
##쿈
##떵
##빚
##쭘
##졷
##뽁
##롸
##뿟
##눴
##햠
##쫌
##깄
##먁
##펨
##풉
##퉈
##뒴
##꾹
##엙
##엃
##뫌
##깈
##뤘
##밣
##믜
##뼉
##큥
##춍
##뺐
##듁
##쯩
##딫
##놰
##퓸
##겍
##뎠
##푀
##쟉
##칰
##뎨
##앜
##쌉
##겻
##펩
##갛
##맗
##뺨
##윾
##잰
##젊
##왐
##뻗
##횻
##쫘
##먕
##욜
##핼
##킼
##뛔
##틔
##쾀
##좃
##솅
##빻
##럇
##떰
##맬
##큣
##뇩
##땟
##멱
##귓
##뜽
##켁
##뼛
##숄
##퀍
##돤
##곁
##헵
##넏
##슥
##넜
##팦
##솀
##뵹
##뜷
##묭
##쥰
##윷
##팎
##큽
##쎌
##팊
##띡
##됭
##삥
##횽
##옅
##쪙
##큅
##쯕
##묜
##혓
##뀝
##쳥
##봌
##췰
##깟
##쓩
##줙
##넎
##엮
##짇
##퐄
##겋
##쌥
##덨
##뵽
##뢍
##싣
##픠
##맠
##뱁
##핳
##귐
##붹
##끽
##몌
##듄
##넀
##엾
##렿
##붜
##껐
##륩
##샀
##볘
##뤌
##쇤
##읗
##숸
##섕
##짯
##룍
##셱
##햭
##똠
##띔
##옘
##벞
##휜
##꿧
##톩
##꿎
##튿
##샛
##룔
##킈
##딲
##갬
##츗
##뇹
##푕
##씰
##훍
##곈
##읅
##홰
##쒔
##쟎
##츔
##봍
##흩
##냠
##맣
##잦
##콬
##읔
##훚
##팼
##귿
##숩
##릍
##쨋
##뻣
##돚
##쏌
##뗘
##컁
##뵨
##쨰
##쬬
##쏵
##폔
##웕
##쳑
##닠
##쯥
##귡
##긮
##깑
##햣
##졀
##쳘
##몀
##헣
##셦
##눤
##냘
##뭬
##벧
##뱐
##낡
##찧
##샾
##쩰
##앍
##퇀
##뭣
##쁙
##꽤
##쯧
##깬
##깸
##좇
##텄
##뭥
##샜
##숯
##췅
##휩
##몯
##쉥
##툐
##꺠
##솓
##횬
##옉
##렜
##쭙
##좍
##띱
##찷
##즹
##슿
##봔
##풂
##뤽
##숔
##꺘
##닳
##켕
##옻
##젅
##쏼
##읐
##섵
##탶
##숎
##귈
##낑
##틤
##쨉
##쏸
##얅
##샙
##큇
##뉨
##얽
##폽
##숱
##붗
##솎
##뒝
##볜
##뷜
##쐬
##쨍
##룐
##퐝
##낣
##퐈
##읹
##뻠
##빳
##떈
##춥
##돐
##괃
##뿍
##걋
##떫
##뿝
##윥
##믕
##괵
##끕
##쯱
##겾
##햎
##줜
##짰
##쳿
##땔
##겝
##먺
##뉵
##섐
##뭅
##륄
##읺
##돨
##줼
##튈
##똬
##됸
##슼
##밨
##뽐
##뱡
##굣
##솦
##퀠
##휏
##씅
##컽
##멨
##룅
##읕
##겆
##읋
##쀠
##휙
##꿇
##끙
##륌
##싻
##땄
##뽄
##쥼
##좐
##낛
##빱
##됑
##훑
##닻
##럐
##큠
##됍
##솁
##똔
##뱝
##댯
##푯
##뛹
##쎤
##뗌
##싢
##껫
##넙
##쥠
##귬
##섦
##놐
##긌
##쑬
##짔
##깠
##셒
##짦
##팏
##걍
##쥘
##혬
##컸
##넖
##혱
##땸
##큾
##벖
##슶
##텂
##끟
##흇
##쌴
##봊
##꽐
##푈
##넞
##벱
##쭁
##샄
##쀵
##헠
##롕
##젹
##삵
##늗
##엏
##멌
##밉
##욥
##햘
##쏚
##묀
##혠
##괸
##싄
##둫
##봙
##흴
##챰
##횐
##겤
##쒀
##쏀
##읎
##퉤
##봣
##띤
##쮜
##뻉
##핬
##훽
##셥
##뉼
##촹
##쎗
##뱟
##샠
##눞
##붤
##쩃
##씔
##뵌
##긑
##컄
##챡
##흭
##뤵
##뫄
##멓
##밐
##닰
##킄
##봬
##폑
##됰
##쾩
##뚯
##펰
##뎡
##쳡
##밞
##읻
##촥
##웸
##욷
##톺
##옡
##욀
##캿
##앟
##뤀
##윶
##낪
##잆
##덦
##릌
##몿
##꾜
##휀
##퀑
##핤
##쩖
##둙
##늣
##쫗
##쎅
##녤
##뀩
##늡
##듼
##츰
##럑
##벛
##챽
##늿
##엊
##닞
##뢱
##썖
##똣
##탼
##얿
##틍
##룝
##갼
##쟥
##슯
##뭡
##껸
##뢐
##뵐
##햤
##짴
##귝
##륑
##뻡
##밠
##캌
##뚬
##잴
##넋
##깞
##롶
##쁑
##뷕
##칡
##빟
##챃
##몊
##맟
##옺
##켠
##깹
##뮉
##닜
##퍙
##쎠
##텻
##칲
##릏
##뤂
##낏
##닺
##놂
##얜
##낢
##릠
##텬
##벐
##쯋
##솩
##팓
##떘
##뾱
##뒥
##긺
##찭
##뼜
##슻
##웝
##웟
##숌
##꼳
##딍
##둏
##힡
##녬
##큿
##틉
##젛
##혤
##췍
##갇
##뭏
##롼
##뎧
##갉
##갹
##흿
##쨘
##탰
##뗴
##즛
##읨
##륶
##웤
##얙
##쉤
##뉠
##겈
##캭
##볫
##댭
##쒹
##켸
##쾰
##팹
##솬
##놘
##냣
##삡
##돟
##샅
##풔
##옇
##꺗
##뢨
##뇬
##돇
##잨
##귑
##쩅
##싷
##밬
##덬
##탘
##덌
##턍
##췽
##렫
##옾
##쐈
##퍅
##룁
##싀
##콱
##쑉
##긶
##싿
##껭
##핮
##읃
##핡
##닯
##묙
##뤤
##폘
##츳
##좜
##껙
##쨥
##쯜
##죵
##싁
##톼
##꽇
##븓
##벜
##앋
##뗑
##챵
##밷
##멂
##꽛
##셕
##춉
##옄
##욨
##돴
##웒
##컾
##랰
##흨
##쉨
##풰
##얺
##욬
##슸
##죸
##읭
##욌
##륫
##묽
##텽
##옒
##쟙
##맇
##뚸
##캴
##휭
##삔
##퓔
##햬
##곌
##핧
##럤
##묄
##싮
##씄
##댠
##셑
##횔
##룥
##룟
##벆
##윻
##쑵
##엗
##꺀
##엪
##뼤
##묾
##햌
##젶
##틑
##벫
##졈
##럄
##껠
##롣
##섻
##힗
##뱽
##땝
##젧
##읂
##캑
##쌰
##듕
##텦
##긿
##붚
##벹
##샇
##횰
##핲
##멬
##맄
##얫
##뻼
##뜁
##컼
##뺸
##볻
##띰
##쒼
##멎
##뗄
##걲
##흗
##껜
##늚
##읠
##뼘
##슙
##푿
##넼
##켱
##쬼
##뙤
##셊
##곖
##쵮
##곲
##읪
##쟀
##쨖
##쇨
##껨
##긲
##돝
##줅
##죳
##좝
##즡
##췩
##븜
##쥿
##촵
##웥
##솰
##쫙
##얬
##뼬
##덛
##됵
##앚
##쟛
##쑝
##찯
##놯
##뎍
##됌
##캍
##툠
##짘
##듧
##쩽
##휄
##릣
##걓
##쥣
##쪠
##깤
##돫
##챷
##퍝
##잩
##홯
##흝
##넠
##겴
##씐
##눝
##꼍
##콀
##뤨
##캤
##댖
##쐇
##뜌
##궆
##걾
##븝
##봁
##쨜
##븟
##븍
##헼
##퉥
##왙
##쀳
##츼
##왂
##콮
##곻
##옿
##붼
##잏
##탇
##먈
##햑
##쿙
##텠
##쎾
##뒺
##쫏
##륐
##쓤
##곺
##빎
##츌
##륏
##욍
##맀
##탹
##뙭
##끠
##튁
##몃
##뾼
##럈
##썪
##돵
##럔
##쿌
##쥥
##룳
##냨
##슳
##솏
##숖
##엦
##툇
##푤
##쀍
##퉷
##맅
##빪
##눟
##뵬
##웗
##겦
##죰
##깯
##뎊
##먜
##붏
##묑
##헜
##첲
##젴
##밁
##픅
##웱
##쓔
##짞
##꺵
##찿
##퍗
##띅
##뻴
##솊
##끍
##됄
##훓
##쎼
##굔
##쪨
##돡
##췹
##칢
##헚
##뗐
##섴
##긜
##깋
##픙
##켣
##찣
##뵀
##헁
##휗
##켭
##뼌
##뽝
##롈
##섣
##궉
##쁫
##폕
##겣
##윁
##롷
##춀
##깇
##앎
##컈
##낔
##뺙
##읶
##걘
##엳
##흄
##웈
##썷
##뵥
##켮
##덯
##곙
##쪾
##틊
##죻
##늼
##잋
##녂
##츕
##곯
##칱
##쌞
##턔
##뭩
##꽹
##뀽
##늇
##엍
##좔
##궝
##칬
##툥
##
##뀠
##쯪
##봑
##몔
##눶
##맽
##즁
##닏
##긧
##붘
##엜
##퓜
##뤔
##옽
##겿
##큉
##욿
##릈
##챂
##긤
##즷
##꺙
##넗
##꾱
##녯
##켬
##쵀
##랲
##썌
##쾍
##깆
##굠
##띳
##댤
##땨
##댸
##캪
##폳
##쟐
##홑
##뇻
##듰
##쎕
##밪
##쿸
##튱
##섥
##늒
##굄
##쿶
##늰
##벟
##싈
##짆
##봥
##튎
##퇼
##렡
##쑴
##꺌
##횝
##퀫
##랔
##탒
##롮
##듮
##쎘
##릃
##읙
##셖
##헔
##궨
##쌨
##팈
##읓
##윿
##엓
##쫜
##뛟
##냡
##볱
##깉
##엫
##꼻
##웇
##궘
##홨
##퍀
##죗
##륗
##밊
##뇸
##삤
##놑
##홤
##욺
##힏
##쎔
##큎
##빂
##큻
##쇀
##귱
##믯
##쵭
##쉡
##옂
##왹
##섁
##귯
##춸
##긆
##섄
##괼
##빋
##푁
##똟
##뚭
##뚧
##껒
##넒
##녺
##즠
##끋
##퐑
##깩
##붴
##랆
##듥
##엷
##똻
##뚥
##띌
##겢
##삧
##핣
##벸
##멉
##춬
##떙
##돎
##괆
##궶
##궫
##궻
##랤
##궢
##뚕
##틂
##켝
##럅
##뤈
##걈
##죡
##윱
##쌟
##땛
##닽
##벩
##펡
##켙
##폇
##쭵
##윘
##푝
##뀬
##몆
##껼
##쐑
##솹
##맜
##숕
##쳴
##윋
##쉖
##댧
##튘
##뾔
##갞
##꿘
##폯
##냬
##꿏
##늕
##럷
##앒
##앏
##퀏
##맻
##챱
##읇
##욣
##떢
##홥
##팖
##쨀
##썁
##잫
##웴
##홱
##쳌
##쬔
##닸
##꺆
##폮
##긂
##쩻
##뜐
##앀
##곪
##겯
##늨
##빝
##뒑
##뙗
##퀙
##찓
##갣
##쎙
##춣
##옼
##읷
##푄
##앺
##핟
##껚
##샏
##윀
##땋
##뤩
##쥡
##릳
##끆
##윛
##뮺
##튝
##뿀
##묷
##뜹
##쭓
##픗
##돰
##롓
##휨
##욯
##줭
##븥
##욹
##랕
##빖
##굗
##햊
##둰
##볠
##툘
##톸
##뒨
##꼉
##숳
##듨
##퓐
##쥑
##뗆
##쫍
##둗
##렞
##핛
##궬
##찦
##똫
##훟
##쮠
##껩
##긊
##릊
##곀
##곸
##륍
##쏩
##퉨
##쟨
##뺵
##묫
##궛
##씜
##얶
##뫃
##슽
##씃
##꿝
##뒁
##랒
##씼
##퉭
##뛃
##꽯
##먓
##읩
##뢉
##꼄
##솼
##뙈
##툵
##맖
##팉
##맓
##싧
##댋
##핿
##줊
##셟
##섧
##갊
##닚
##닧
##쯉
##퓽
##갨
##먘
##쑜
##왬
##뇄
##뇐
##랃
##킸
##웷
##졶
##횅
##덝
##찳
##륷
##솧
##턀
##뿁
##췔
##섷
##럶
##쵹
##쟘
##쑻
##줒
##굛
##댦
##뷤
##뎦
##땍
##굷
##빆
##맂
##갴
##텉
##쿗
##쁎
##칳
##봡
##괏
##뽜
##됀
##뻨
##꺢
##쎴
##둽
##싐
##꺈
##떦
##욉
##뱔
##좈
##횩
##캢
##욦
##뱨
##뷉
##옫
##잍
##쳈
##쾈
##텰
##쑌
##햟
##릋
##믁
##즏
##뻄
##듟
##뽭
##쉪
##얾
##톋
##씉
##욝
##즥
##븩
##뚞
##렏
##뻰
##퀧
##뭊
##욾
##춈
##듵
##섑
##텩
##툑
##랎
##눽
##왯
##궙
##엨
##훳
##옰
##꿴
##웊
##븸
##큳
##롫
##븃
##퀌
##찎
##퍠
##쩠
##띧
##닾
##욋
##빧
##핕
##햿
##뫙
##뒸
##밯
##퇙
##댬
##푠
##퓬
##듳
##볓
##탵
##둍
##둪
##믌
##휱
##썄
##졩
##욭
##꽜
##쭸
##튮
##죈
##폅
##돩
##즑
##젺
##벷
##뷀
##귚
##츩
##뎂
##닶
##릆
##쿽
##줸
##럲
##쨕
##픖
##릾
##캆
##퍌
##곷
##갘
##듫
##녇
##딮
##젇
##슀
##슧
##싕
##쫭
##훜
##랟
##홝
##칽
##썯
##띾
##쁶
##칮
##볽
##뼝
##깳
##꺐
##죨
##옝
##춴
##룱
##켘
##뎰
##끎
##븠
##줆
##뒕
##뫞
##뿷
##땞
##뒗
##롊
##벓
##짋
##잙
##깪
##굑
##쑊
##옸
##뒵
##풒
##퐙
##떯
##삜
##싘
##꼠
##묏
##붠
##팛
##춯
##웎
##쑘
##걉
##췻
##붯
##죙
##뀙
##뚮
##쐙
##뽟
##멮
##낲
##챦
##꾁
##쿹
##뼁
##뜳
##쨤
##휸
##윜
##겓
##봠
##픳
##뮜
##뚵
##쁐
##횞
##삾
##뭌
##닲
##삠
##댘
##섈
##큪
##꾕
##쏫
##뢇
##딻
##뉩
##븡
##왤
##꼣
##쿧
##겷
##큺
##딺
##핚
##쉟
##렣
##둴
##옜
##긏
##뎋
##썀
##덪
##쟜
##븛
##쵇
##늫
##쪌
##똵
##퇸
##핱
##쉅
##윹
##웦
##봗
##믙
##괍
##삨
##킐
##읿
##맊
##뵜
##엻
##귕
##왉
##녛
##쩼
##귺
##뽱
##굘
##쒓
##퐅
##롁
##긩
##밫
##꼮
##넽
##퀭
##덷
##곅
##럳
##샂
##휑
##먿
##뭋
##뎄
##쌜
##뼸
##녝
##숡
##뗬
##좊
##죶
##홇
##둉
##쇡
##랛
##쩧
##펵
##촷
##퓍
##짗
##쫫
##앧
##붵
##틐
##뙡
##뚦
##뛈
##뇔
##쁭
##캋
##햫
##돞
##엞
##됒
##빢
##쥤
##둇
##죹
##둟
##냌
##뫁
##쵣
##귶
##뙓
##뽂
##펔
##옠
##퐐
##둿
##앛
##듓
##뇝
##쥩
##촟
##톹
##퐆
##앆
##풑
##켚
##뱓
##긕
##좟
##덍
##똏
##뺭
##긐
##쌐
##폥
##웓
##뗗
##샢
##슦
##듷
##킅
##댇
##겕
##냙
##맼
##뛷
##뗻
##꽦
##궇
##뱄
##겇
##븕
##튺
##퓟
##껃
##튔
##쉒
##읆
##꽭
##쳗
##삻
##뙨
##힠
##닡
##쫴
##빜
##밻
##샒
##뷍
##됏
##썜
##핝
##퓩
##웋
##풅
##핃
##륻
##잚
##룄
##뀍
##뙇
##웧
##뎗
##묨
##촠
##훰
##덀
##쳠
##탖
##잞
##젆
##덖
##쥇
##쌧
##쨧
##풜
##짿
##훡
##뗋
##긎
##샟
##젂
##옃
##켼
##홭
##헡
##뺅
##옓
##곕
##뒫
##놁
##뒿
##댊
##땗
##콛
##볙
##툉
##엋
##뭎
##놜
##쟂
##쓍
##뫅
##츸
##몋
##죱
##긬
##뷧
##럸
##쁵
##씯
##읧
##쨱
##늴
##탣
##핻
##샫
##뀀
##됼
##좄
##낐
##섟
##앖
##똄
##빩
##댼
##븧
##앝
##흧
##햛
##잪
##퇵
##횄
##밗
##랓
##쏏
##앸
##맍
##쟆
##뵷
##곴
##쫃
##쎵
##슺
##쁴
##꺕
##픓
##턉
##걼
##횸
##덭
##탙
##튑
##쩩
##깣
##꼯
##퉌
##쒠
##킾
##훉
##랳
##쮀
##뽴
##젏
##폵
##숧
##귻
##쳒
##꿯
##궳
##궹
##칯
##놏
##콫
##뿓
##쬴
##슟
##궷
##뤗
##땈
##븎
##꿐
##쁋
##챸
##왚
##몭
##킽
##챶
##쐉
##뻇
##쇗
##뭴
##밂
##끾
##퇄
##낞
##슄
##믬
##뿨
##틆
##뗍
##벴
##뉙
##뽓
##뫟
##먏
##떅
##졧
##볌
##쪗
##냩
##뎢
##얖
##뿗
##넚
##몴
##츱
##롑
##줃
##쀏
##푷
##맃
##톲
##졐
##뗠
##혅
##웄
##뚼
##꺏
##쫣
##뽧
##꽑
##럌
##쪤
##롐
##볃
##릁
##훇
##뻭
##뎈
##뿛
##릘
##횦
##홛
##뤁
##똽
##쮝
##곂
##탂
##뎻
##쇵
##봈
##웆
##섡
##봴
##돖
##왒
##쁥
##뜝
##즨
##쀨
##쌱
##돆
##쯸
##잗
##낻
##젙
##졎
##뀰
##팯
##쫋
##뉻
##뺠
##뺼
##욼
##젵
##뗵
##틩
##믏
##뱍
##쒴
##샻
##휵
##벉
##밢
##죷
##딷
##괬
##닟
##긇
##헑
##흟
##컿
##삒
##혉
##겧
##넟
##옑
##쁅
##뺡
##뗡
##닊
##딀
##쬈
##먃
##쉉
##걜
##딋
##쵝
##퍕
##섊
##뎔
##뿮
##뱦
##죔
##휋
##씍
##짫
##뇠
##쒱
##릥
##읟
##읈
##췸
##쬰
##갂
##쬘
##룯
##틷
##꼵
##닑
##왖
##씺
##냟
##뒓
##봫
##뜼
##뢀
##뮷
##쀒
##옯
##똡
##렆
##쁀
##쩎
##륽
##툣
##넢
##뿎
##쌑
##핓
##꿕
##눨
##샊
##둩
##뀟
##헭
##왰
##볈
##둄
##궄
##읰
##휳
##쎆
##윝
##줮
##캊
##몓
##멛
##텊
##첱
##솑
##맫
##흎
##흓
##뛣
##홣
##꾫
##봨
##엩
##쿜
##띙
##룃
##럍
##벍
##칻
##뚂
##썋
##줵
##럘
##덗
##놥
##톮
##끜
##렺
##굸
##쐰
##틇
##꿂
##똰
##흽
##랅
##뚀
##싨
##뺚
##쟞
##렼
##쬲
##쟬
##츅
##셆
##캽
##팣
##섿
##묗
##빾
##줗
##뷇
##쟢
##닁
##쒂
##꺑
##맕
##쑐
##곃
##쀾
##뢓
##댛
##쮹
##뮝
##랋
##컺
##땽
##좬
##멐
##퐌
##뢔
##뾸
##띃
##굡
##췼
##뛝
##먑
##긘
##쩸
##뽤
##밦
##뎜
##뫀
##똴
##랢
##믱
##얒
##텹
##쾬
##샼
##샆
##씪
##컶
##뗼
##퇗
##숮
##솖
##즂
##읁
##엒
##쎋
##뜅
##곹
##멑
##렠
##춛
##쀄
##셭
##쟠
##삮
##슮
##칣
##됈
##뽥
##웚
##돓
##쵤
##멶
##쟣
##릵
##뺶
##륳
##쥭
##둧
##긓
##늭
##셐
##욛
##뭵
##뤙
##괂
##줓
##슠
##멷
##렢
##쓉
##븻
##뵉
##렦
##찱
##꺤
##쥌
##쎀
##뺍
##벯
##븘
##륮
##꽅
##쁍
##욻
##쨏
##햙
##웛
##븪
##쟹
##쑁
##뤯
##즵
##츹
##팂
##냫
##덿
##깂
##떗
##뀻
##멦
##윞
##휔
##끵
##줠
##뷛
##쓲
##짂
##쭟
##앢
##딬
##떋
##덣
##릔
##틜
##턚
##픝
##멻
##떔
##쟻
##둅
##촡
##칀
##뷈
##챺
##걿
##렄
##칟
##냏
##쭹
##틘
##쓋
##밇
##걕
##붰
##씋
##뚷
##췜
##쐴
##똈
##힇
##꼑
##갋
##쇱
##쏻
##짷
##쇙
##떧
##쏄
##믗
##텣
##쨻
##췛
##뀁
##뷓
##솻
##껶
##퐃
##큫
##캵
##뜫
##텥
##튻
##곩
##젟
##늩
##쐥
##뛌
##굦
##딹
##괠
##귔
##눜
##퓹
##탏
##턷
##됗
##궭
##좂
##롴
##뫚
##믤
##굯
##섺
##졓
##뀪
##딈
##둈
##뾘
##뼥
##껵
##빞
##푴
##쒯
##퉹
##뢘
##쫅
##븞
##걺
##캜
##콙
##쬽
##컀
##댝
##뛩
##낤
##궞
##귪
##궸
##궼
##솸
##좠
##벏
##쟴
##싲
##쉛
##뱆
##얃
##쒕
##툱
##휅
##혯
##멏
##뚁
##쥉
##셷
##떁
##슲
##톻
##츞
##벝
##뜜
##씡
##궖
##궋
##뇓
##췁
##둚
##멭
##룴
##칞
##뭭
##꼤
##꿱
##쵠
##읳
##옏
##붆
##걐
##뾆
##쉇
##끤
##헗
##놃
##뙴
##륿
##딭
##놇
##춭
##콦
##뭠
##홅
##닍
##궡
##킆
##춱
##쇅
##뤅
##쓿
##륾
##캼
##껬
##땩
##혻
##챞
##벎
##먗
##뗜
##갵
##쑷
##슡
##헱
##롻
##챝
##졤
##핁
##챼
##졬
##짛
##왷
##픐
##훯
##믇
##뷃
##싑
##썝
##뿉
##훃
##즯
##헯
##콣
##큩
##밮
##쩟
##껖
##뉫
##텋
##풱
##펖
##왛
##첄
##뙜
##긞
##뷋
##톧
##싦
##첯
##쭛
##듹
##쟇
##횢
##묺
##붛
##븉
##츺
##붭
##뗉
##띁
##굈
##젮
##껰
##뗶
##헽
##춇
##늏
##랣
##홁
##춝
##갃
##츻
##쯬
##픎
##엵
##뷥
##덢
##떟
##렾
##끑
##숼
##괋
##탿
##깓
##홪
##쪈
##쭊
##섮
##짒
##쾽
##삝
##븗
##쯘
##븏
##빏
##싟
##걁
##뙳
##홂
##믽
##샶
##쑼
##쁢
##픋
##끨
##녿
##좥
##쒞
##잒
##숞
##뤳
##긃
##뜄
##츀
##꽊
##잀
##괗
##껗
##꿑
##얠
##룧
##놬
##킦
##뗔
##뇾
##풸
##웖
##귖
##붖
##엱
##쉙
##듶
##욈
##셓
##킠
##쩒
##뭑
##걌
##쒐
##뚊
##힚
##썎
##쬿
##횾
##퇍
##쀓
##멵
##컅
##믾
##헰
##떥
##줎
##쯍
##씝
##럻
##핔
##쭀
##엝
##븬
##틓
##닪
##횓
##깕
##킳
##픟
##먳
##뮻
##졲
##옟
##얆
##묳
##줐
##쫔
##푭
##싳
##웳
##옲
##쌷
##뇜
##즞
##턻
##묯
##븁
##닒
##뿠
##맒
##뗃
##궯
##꿻
##퉱
##휽
##뭈
##섨
##잕
##펲
##첟
##뉔
##땹
##슆
##뜃
##붊
##믠
##좧
##꼔
##뛗
##슞
##쑛
##풮
##뤰
##꺃
##뾲
##혭
##쮓
##틒
##붝
##푣
##뭗
##룺
##봒
##핽
##햚
##픨
##혂
##돧
##쵁
##얉
##뱈
##첞
##븰
##뺫
##뽙
##킌
##퀩
##씥
##늖
##럮
##쾻
##퇜
##풴
##늧
##벾
##랻
##벲
##몥
##쁟
##켇
##첐
##쬷
##쌻
##풇
##꿃
##콪
##궚
##궺
##깒
##깛
##긛
##귥
##쟄
##땕
##뷫
##핢
##왧
##쑟
##톕
##댥
##텇
##쌸
##뵑
##덙
##놩
##쏽
##롵
##럣
##퐤
##퓅
##꼅
##킫
##쑦
##띕
##좸
##돳
##줛
##놗
##솫
##뗛
##몼
##돣
##홳
##잓
##웫
##룫
##뺃
##뗣
##뚐
##핖
##쨎
##똧
##렧
##믛
##괐
##싞
##솤
##땓
##듛
##씤
##샸
##펬
##뤕
##땻
##끡
##쉩
##댚
##걏
##잂
##뽘
##픞
##촾
##윟
##훞
##촴
##됮
##툻
##픤
##셣
##몟
##쯈
##캈
##첡
##긪
##놕
##턩
##뻿
##괙
##볟
##렂
##쀡
##쫩
##뫈
##괳
##욳
##럯
##윸
##쬭
##풹
##앻
##믻
##좹
##궅
##큮
##쉄
##졵
##돜
##콉
##콻
##뱋
##쓺
##훝
##돿
##죕
##콭
##찃
##핺
##썐
##췈
##롇
##앾
##뀓
##뀢
##켞
##톗
##졜
##퉄
##쁌
##욽
##뻈
##눀
##꿸
##쿩
##핦
##릀
##훋
##뜔
##밡
##팒
##퐠
##퐳
##돍
##똗
##뎝
##컭
##얷
##햰
##쉏
##젃
##쏱
##뤡
##쾁
##홒
##롲
##훴
##덻
##룪
##턋
##킻
##쿏
##쎂
##짡
##갷
##퓙
##읾
##밲
##뿩
##걩
##멊
##쎃
##몁
##텆
##춏
##솄
##줕
##쬥
##괧
##넁
##뜵
##뗳
##굻
##텗
##삗
##낶
##쏲
##깏
##쭨
##쿔
##땳
##첮
##갅
##쀽
##핗
##퇻
##텤
##턕
##앩
##걳
##다.
##으로
##에서
##하는
20
##지만
##이다.
있다.
##었다.
##에게
##하고
201
##이라
##00
##한다.
있는
##고,
##다는
##다고
##했다.
##..
때문
##까지
19
##에는
##면서
##들이
##하게
##는데
##며,
한다.
##에서는
##적으로
경우
때문에
사용
##였다.
##적인
##레이
##하여
##부터
아니
이후
자신
##리고
공격
##해서
##하기
10
사람
##스트
##대로
##라는
##라고
##다가
##하면
##들은
##이나
다른
##지만,
정도
##되었다.
##들을
##으나
##지는
##에도
##기도
##들의
대한
등장
##하다.
##기를
##리는
200
것이
그리고
된다.
##기에
##하지
##되어
가능
아이
같은
들어
##er
하나
하는
사실
##으며,
하지만
12
게임
##으며
그러
시작
##하였다.
##는데,
##거나
모습
일본
이름
함께
##보다
##스터
##는다.
##리를
한국
##...
있었
##in
##이트
11
##이라고
위해
##았다.
##이라는
##된다.
##다면
##기가
것을
나오
이상
생각
만들
문제
##되는
##어서
##하며
또한
##니다.
##학교
따라
가장
##되었
##력을
프로
다시
##에서도
##리가
사이
당시
##릭터
##이었
##on
##지를
##처럼
되었다.
없는
캐릭터
##라이
##력이
모두
##데,
상대
##0년
##으면
15
##기는
없다.
상황
##an
플레이
모든
##or
결국
추가
것이다.
##8년
시간
##지고
했다.
것으로
##리아
##스의
##이지
현재
##이는
##9년
상태
##자가
자신의
보여
많이
것은
##하면서
그러나
다만
존재
##7년
##리스
다음
그런
보면
시즌
전투
18
미국
##리즈
##6년
스킬
##스를
매우
##ar
##성이
카드
많은
##.1
선수
199
세계
효과
##스가
##므로
##5년
그래
##he
나온
상당
##.0
##at
경기
##들에게
##인이
물론
아니라
않는
이용
지역
있었다.
처음
##가는
16
기록
이유
##가지
##4년
아닌
##사를
그렇
하고
자체
실제
돌아
##인다.
이런
여러
##-1
필요
##하였
##들과
##000
일반
시리즈
##부분
이미
##어진
13
바로
##지가
##이고
##하자
거의
##시키
역시
##졌다.
##en
라이
되어
해당
피해
##사가
##상을
##인지
특히
모습을
기술
##이스
영화
##시아
주인
30
14
##어나
##주의
기본
##도가
##ou
마법
통해
관련
진행
아무
이야
##장을
##기로
##3년
같이
17
##지막
##2년
수도
##라도
##에선
##했던
##성을
##국의
좋은
##로는
위치
제작
방송
##al
##거리
##st
##이가
##해야
대부분
되었
부분
사건
##이었다.
##주는
작품
마지막
스타
계속
##1년
증가
##20
참고
##린다.
##아서
##으나,
방어
않았
##르는
일부
않고
인간
달리
##스는
되는
있어
##로,
주인공
내용
##전히
서울
있을
##하고,
않은
보고
능력
활동
가지고
##리에
비슷
그냥
##으니
##시간
올라
레벨
이전
어느
##드는
국가
레이
##이며
100
##정을
##시에
인해
##어가
성공
그의
정도로
##re
대신
이를
##.2
수준
##dd
##인의
##드를
대해
지금
##자를
##장이
25
감독
##도록
상당히
##le
##자의
##수가
그녀
않는다.
##있는
대표
보인다.
높은
##10
최대
##위를
198
이동
기준
##it
##렸다.
것.
##마다
제외
타이
것도
##트를
너무
여기
그대로
인물
좋아
##와의
##되고
나타
이는
##로운
##ff
##리의
##사의
떨어
결과
중국
##도를
##들도
의미
대한민
##진다.
##려고
없이
직접
등의
##드의
##기의
##수를
##이션
전체
원래
받아
##스로
언급
##도로
-2
##이자
##ing
알려
##이며,
##전을
##ic
##르게
하다.
애니
만들어
##지도
동안
##리어
경우가
##.5
데미
##일에
##치는
자신이
관계
##로서
의해
##자는
있던
소속
##다!
##번째
##이지만
##대의
##습니다.
마음
시절
나오는
전쟁
##하지만
멤버
##정이
##인데
과거
유저
##으로,
지원
이것
##대를
문서
##우는
선택
##자.
2018년
이어
##드가
이에
유닛
포함
많다.
##스타
발매
##리지
##중에
그는
##하던
자기
최고
몬스터
엄청
##없이
위한
##등학교
50
##점을
설명
평가
방법
21
크게
##화를
##나는
출연
불가
나왔
아버
찾아
개발
스토
유명
연구
##과는
있으며,
##am
##치가
장면
만든
##치를
##인을
2019년
리그
영향
12월
2017년
##이드
사망
##어로
실제로
##되지
##하기도
이루
발생
7월
4월
있다는
##상이
초반
##어난
8월
조금
이때
말을
지나
##이기
##이를
3월
5월
##으로는
프랑
우승
9월
##트가
10월
##원이
22
##만큼
주로
6월
이러
##준다.
전부
2016년
##es
##전에서
공식
출신
##이어
무기
24
##머니
제대로
##전에
사라
운영
##랜드
아이템
사랑
인터
##el
소환
도시
하지
##과의
자주
중요
##식을
그것
##리그
##운드
##하며,
없었
##있다.
보여주
또는
최종
아직
공격력
1월
##명이
##일,
정보
the
최초
##명을
이렇
##om
##이크
##와는
서로
친구
참고로
##에서의
역할
학생
나온다.
학교
적이
이벤
있어서
강력
파괴
##-0
비해
기존
##이터
프리
##했을
가진
공개
##리카
노래
##la
여성
11월
23
비교
##격을
정말
마찬
##50
##자로
##였던
어떤
마찬가지
##is
강화
사회
등을
당연
해도
독일
##같은
변경
사람이
형태
결정
##히려
설정
##사는
유지
보통
##명의
##인은
##하려
##나라
바람
그런데
##동안
때문이다.
오히려
##개의
2015년
##니아
##서는
##수의
##라마
살아
##르면
아니다.
배우
##지의
##요.
##했고,
##스와
정신
##오는
##대에
후반
##군의
##프트
회복
##어도
##지어
##하거나
발견
##나가
아래
2월
##et
##점이
슈퍼
##음을
##물을
음악
게다가
알고
##분에
197
조선
##하다
드래
이번
이러한
않았다.
영상
##는지
유일
구성
##ol
##원을
행동
여자
있다고
40
있으며
있는데,
##ion
사실상
가까
그래서
주장
##어를
##,000
##이도
##트로
##nd
모양
##스템
##자인
새로운
하면
##회의
##했다고
일단
아예
##30
##11
자유
특수
확률
##-2
##리오
##경기
이렇게
어려
승리
활약
##이기도
부족
##대가
##지로
##나마
성능
노선
월드
들어가
##화에서
등이
동시에
##디오
##시켜
주변
비슷한
먼저
심지어
정부
##임을
대한민국
##드로
##적이
가능하다.
버전
발동
드러
##스,
완전히
같다.
스테
바뀌
확인
##화가
##그램
수록
그렇게
힘들
##ow
성우
차지
##밖에
그래도
그리
##다며
정치
##통령
적용
방식
내려
##내는
생산
##ig
26
일이
어떻
좋다.
보스
##상으로
영웅
##ed
##il
28
##보면
모델
##메이션
있는데
##도의
영국
##다"
스트
2014년
##구를
이야기
시스템
성격
혹은
한번
27
##르고
실패
##하는데
전에
자세
기사
전혀
##간에
만나
있지만
##스크
못한
우리
패배
원작
어떻게
##니까
##ac
31
##!!
##시킨
##더라도
차량
##원의
장비
위해서
감소
않아
만큼
##as
사진
국내
##대한
얼굴
동일
때는
불가능
있고
가지
중심
얼마
##ve
##BS
대통령
앨범
오브
지속
데뷔
대학
체력
표현
대회
참여
이제
나가
1,
##인데,
##지에
마을
##어버
획득
플레이어
굉장
출시
##간다.
##른다.
힘을
##.3
##트의
of
##이었던
##보다는
없어
다양
##라의
애니메이션
##움을
계획
반응
##했고
##났다.
##장의
특성
등장하는
##이의
196
##대학교
발표
##체를
##라가
##다'
움직
인정
##버스
정확
가져
##자,
기억
바이
스페
기능
##해도
자동
명칭
##제가
그나마
담당
쓰는
문제가
따라서
에피
하루
드래곤
드라마
있고,
자신을
진출
상승
경우도
덕분에
이름을
남자
판매
번째
작중
사용하는
대체
##으므로
##상의
역사
받은
있기
##수는
아마
##문을
요구
특징
##으로서
##조차
수비
##우스
공격을
설치
경찰
선발
제1
다이
##0년대
##ot
##라면
있게
조건
그림
##장에서
상위
2017
밝혀
##들에
남아
하였다.
받고
고려
##했다는
개인
##제를
중앙
Lv
마이
이벤트
##도는
##한다는
참가
##피언
따르면
듯.
축구
에피소
##했지만
가능한
##아가
##권을
##한테
##사로
자체가
하이
물리
##ad
항목
29
강력한
##군이
해서
더욱
다르
순간
2013년
##부의
넘어
##전이
주의
##수로
2차
각각
##.4
##레벨
대해서
건물
##장은
우주
-1
경험
##지지
어머니
시점
후보
확실
상대로
굉장히
##적을
##지,
비판
사람들이
##계를
편이다.
시간이
##문에
##스러
러시아
현대
가격
결혼
작가
어렵
가족
##장에
후에
구조
어린
##리,
프로그램
피해를
보내
말이
챔피언
불구
##치고
단순
##리와
아주
참조
나와
어디
여담
위험
##부를
##되면서
##id
교육
무시
초기
주요
##mm
마찬가지로
##감을
여기서
사용할
폭발
진짜
##량이
##선을
##이라면
대미
##부에
선거
준비
아르
##ch
2012년
##위원
##대는
있었던
과정
가면
속성
일으
##으면서
제공
##타를
나머
되고
##레이드
엄청난
##리로
##장으로
지구
가능성이
메이
약간
받았
##까지는
##치로
쉽게
The
활용
않다.
##체가
가는
##리티
알아
방영
##ay
히로
받는
제한
2000
보이
##ER
클리어
대전
시청
마스터
##정한
##."
여전히
##키는
논란
194
발사
프랑스
동료
수가
##시키는
##.6
##시즌
부산
60
당연히
작은
패턴
##리기
쓰러
분위
##인물
한편
##력은
못하고
훨씬
##려서
지하
St
현실
사고
크리스
주는
##.7
##었던
제국
##업을
유럽
##식이
1일
강한
##없는
혼자
그가
하며
한정
이해
제2
영향을
##개를
##us
##트는
##심을
방향
##하다는
적을
##40
그를
##정도
##히는
보호
##만한
특별
브라
기간
##티브
##위로
잡아
##행을
##놓고
조합
##만이
잘못
FC
크로
##제로
##합니다.
##해주
파워
해결
최근
취급
나이
계약
삼성
2010년
도망
##다니
##ro
##사와
역할을
본인
##수록
##게임
영어
블랙
소모
##프를
##겠다고
연결
의견
스토리
##자기
국민
##.8
##나,
##다,
보는
국제
때문.
##만에
기준으로
##라인
##로를
##라운드
##이고,
않을
for
문제는
##학년
##위가
처리
이탈
지방
##!"
다양한
##로부터
##기,
중요한
생활
##시의
다니
TV
정도.
버스
##ir
전용
추정
##BC
자연
2011년
##레스
것에
##듯이
##나게
##면,
충분
##위에
없었다.
##인트
##학생
##이란
방면
오래
이유는
나무
라인
##사에
2018
##도,
스스로
문화
##신이
불구하고
오른
다음과
운동
느낌
받았다.
##지션
##자와
##난다.
아군
장착
비롯
##12
보이는
이루어
##로가
##일을
조직
타입
##만을
##신을
출전
195
##구가
등장한다.
들고
##가를
기타
##한다고
하여
퀘스트
아버지
##ht
내가
##라를
부활
낮은
##단의
운행
예정
##나이
입장
미션
##기와
##소를
##회를
##져서
아이돌
이유로
##보니
경제
##성은
##대학
편.
HP
##갔다.
##th
중에
연속
모드
##명은
대부분의
##성의
##자들이
아들
경우는
나는
##'라는
유니
에너
##이즈
전문
절대
##하다고
##비아
##un
되면
종료
더불
구간
##im
##하다가
##초에
##라서
수상
타고
말한다.
##dddd
독립
##데이트
##당한
##의를
번역
달성
하기
되지
##카이
포켓
메인
##ur
엔딩
##.9
##원은
제목
##전의
근접
##이면
##지게
##od
이상의
##세대
##유의
##말로
##시켰
##세기
싱글
목소
##력으로
만약
일본의
##에게는
관리
##가가
자리
##시를
##15
종류
소설
항공
배경
##32
일을
졸업
##냈다.
현재는
업데이트
생존
난이도
더불어
검은
했지만
SK
가끔
##km
세이
##공격
##으로도
##사,
##함을
스피
위에
일어나
에피소드
반대
대상
##기고
시도
야구
민주
하면서
속도
밖에
##조건
##어들
##ST
##시마
나머지
배틀
일정
##같이
##비가
##ut
최소
##스에
엔진
##왔다.
##신의
##야마
##일이
만화
제외한
목표
##려는
지휘
##마저
2019
항상
202
부르
##시가
##세를
##점으로
##ag
얻을
##거나,
분노
##관이
능력을
##ver
수정
대사
##운데
##종의
##리게
유리
생긴
성장
##60
##르크
직업
##이로
정도의
공연
신경
##원으로
##?"
##단을
정식
두고
##겼다.
전설
유명한
##부가
전작
##ec
##19
##시로
소재
##라며
##37
무엇
##림픽
2016
##혔다.
좋지
포켓몬
계열
##지기
싸우
해야
##리면
사람은
##냐고
##버린
비행
나왔다.
이끌
북한
you
자랑
##스티
그룹
사실을
로마
##어진다.
인터뷰
##했으며,
##카와
##비를
아프
##상에
##계의
##물이
높다.
미사
##ent
거기
각종
##호를
##으로써
##어야
오늘
##선이
다르게
끝나
##겠지만
괜찮
##주를
35
##되기
하지만,
상황에서
바람에
##여서
##했으나
빠른
대한민국의
것과
##방송
##나의
##군은
##스럽
비밀
작곡
부여
참조.
미래
이름이
불러
연출
이외
건설
만드는
전반
##ak
##하지만,
정작
##음에도
##서를
누구
##이라도
모습이
적은
##해진
##로의
##무를
##다운
미국의
시전
##수한
있다
##선의
##t;
라고
전국
32
결승
스파
있지만,
##호가
##미가
##시는
등으로
##....
1회
스테이지
못하는
엘리
수는
소녀
케이
자세한
80
##cm
따로
나서
제일
때,
##외로
##디어
##었다고
훈련
전차
있다면
과학
별로
특정
##스러운
위치한
묘사
##동을
##움이
갑자기
##부터는
나름
모르
##더니
기관
##80
##고를
예상
달려
타카
##모토
70
2009년
##장,
악마
않게
연기
때문에,
클래
없을
종족
인구
이탈리아
여담으로
경우에는
##고는
##단이
1년
하늘
뒤에
소개
##입니다.
일행
##하라
##크로
분류
안에
1위
근처
평균
상황이
##이,
보유
확정
필요한
효과를
to
있으니
게임을
##어의
아키
명령
1차
서비
이름은
포지션
##ffff
##프로
##지와
##ub
지난
압도
인천
행정
최고의
공중
개념
##세가
교체
안정
##제의
이걸
없고
예를
사냥
본인이
아카
##크를
집중
등장인물
설립
##군을
##이다
2008년
지켜
애초에
것이라고
파티
각성
나타나
193
이쪽
식으로
잠시
##야말로
생명
지정
표기
나올
지도
이게
##율이
특이
##'의
본래
언제
가까운
나중에
##리며
##계가
시작했다.
머리
부모
##지면
없다는
기대
이용해
있으면
##'를
##소가
##고등학교
스포
즉,
기반
발전
경쟁
탈출
최강
##',
##하나
##치기
경우,
죽은
일러
##타로
기다
in
하게
물건
##보는
못했다.
갖고
##부로
치명
처음으로
배치
연합
차이가
없다고
라는
벌어
보니
존재한다.
외국
사례
##원에
지지
##트라
수행
##았던
파이
위의
##인으로
빠르게
##-3
월드컵
이야기를
새로
사용자가
##대표
무슨
##타임
등장한
이적
다크
##ight
사이에
중에서
##부는
##가의
##드시
제거
##량을
대기
빠져
좋아하는
##em
카운
기동
vs
소련
아니면
##스테
##역을
##:0
##스케
##란드
##상은
##'을
도입
달라
부정
말에
건담
바꾸
##ON
##쪽으로
##만의
이후로
고양
##스코
기본적으로
발언
나라
여기에
##화의
완전
목록
##,#
##었고,
그녀의
등급
##간의
저지
##16
지배
##즈의
라이브
##냐는
무려
##마자
직후
##치의
##AR
##마가
복귀
남은
##ce
##25
##이니
변신
##내고
도쿄
2000년
##타가
과정에서
타격
군사
보기
##:00
베이
도착
날아
연습
##'라고
##감이
포기
접근
가운데
##심이
대구
촬영
동생
유사
사이트
##문이
##터를
돌아가
##됐다.
보아
##우가
유일한
사람을
제품
500
시험
##버렸다.
2,
가르
관한
##하였고,
죽음
##미를
##롭게
##도에
살해
하는데
블루
회피
했던
##학과
남성
##um
45
##AN
데미지
업그
##진이
2007년
##ap
##주고
##되었고,
링크
듣고
역대
##ri
알게
상태에서
분명
##os
추천
완성
정규
##48
일러스트
반면
때마다
이곳
고정
이건
범위
준다.
##프가
##많은
##'s
반드시
하였
##에만
조종
끝에
##한다
LG
##스토
사용한다.
상당한
##체의
싫어
받을
타이틀
부탁
##낸다.
유튜
##광역
##주가
해외
##18
##차가
이하
##점은
소리
중간
효과가
심각
상관
완벽
##()
##ula
##력과
저항
뛰어난
##들어
탈락
어둠
하자
투수
##했는데
##이지만,
지상
유일하게
##and
올림픽
경기에서
추측
##지면서
자체는
마무
미니
점을
한다는
2개
##파트
앞에
다루
##"라고
##했으며
동물
비용
90
몇몇
정상
느끼
자리를
경기를
##들로
인터넷
주민
-3
##진을
반대로
##지라
삭제
프레
판단
##관을
공동
오버
##러스
연재
롯데
에이
치료
무장
우선
회사
합류
충격
##받은
구매
점점
실험
통합
##술을
환경
##문의
시간을
##했는데,
리더
많아
##버린다.
##민주
1개
도중
봐도
##로우
##키가
##형을
##탄을
##키의
전략
올려
인도
##보를
이로
##주로
팀의
높아
##시킬
다소
없어서
요시
##어는
##겠다는
##지.
##세계
form
수많은
공간
##체는
종종
개최
##것도
##화국
EX
가수
##자들은
스코
쓰고
##드와
##화된
192
기념
##스카
생각해
##ula_
##분이
카드를
##터가
No
불리
##석이
후,
##인,
규모
트리
기업
기계
##하자.
##금을
정의
의외로
##일러
제외하면
##단계
싸움
##하는데,
시리즈의
장소
개봉
formula_
암살
종교
상태로
맞추
##크가
##이와
히어로
##받는
전통
않으면
아니고
보여준다.
그야말로
##되면
조사
##14
순위
평범
도와
##지에서
공포
##정에
##플레이
##IN
떠나
장갑
화면
무조건
##무라
300
워낙
바다
듯하다.
알려져
소유
##용으로
##가,
Ch
아내
디자인
##회가
2006년
그린
KBS
인한
전사
##두고
33
프로젝
##질을
다행
##차를
요청
전개
정리
단,
야마
어려운
마사
##인과
홈런
3개
##판을
and
스크
##구의
빨리
컴퓨
본격
##/2
2015
##트리
하고,
전기
생성
없음
##로드
##력의
##적으로는
##아버
##로그
시대
도전
아무리
##르트
##속도
2년
카이
가서
##이므로
##어,
##식으로
개그
##원,
평소
그걸
비중
##스에서
한글
것처럼
굳이
부하
##ul
##적은
##1,
##한다면
##일부터
최초로
##TV
##되며
##방을
데미지를
##FA
##원에서
적의
##석을
외에도
최후
사업
##호선
##하도록
##마의
충분히
레드
##크의
변화
##니티
지키
##라,
##에게서
##르의
투입
영혼
##시,
##정은
상징
이름으로
대중
##op
##드에
탓에
위협
오프
일어
무한
##운동
진화
이와
열린
##ck
##승을
비롯한
의하면
##라스
##수도
##했기
파일
경기도
데이터
끌어
능력이
##13
##이닝
##17
##쪽에
##온다.
마나
##아의
##안을
##ter
##%,
##특별
중반
사람들은
##었고
##적이다.
로봇
안전
선언
##보고
##성에
##보다도
##ation
돈을
버그
대응
최초의
시설
36
##'로
보다
##으로부터
##세이
##왕의
사무
##법을
거부
##ra
##었을
거기에
옵션
##정의
성우는
등에
##교육
범죄
##동생
##인가
확장
생각하면
표시
손을
대화
붉은
##이에
언론
카메
##세의
트위
때까지
듯한
##대전
대형
특유의
##2,
조작
성향
##다른
##요일
희생
##지역
##조의
##가와
기존의
맞춰
##라이더
운용
관련된
##페이지
##시브
말하는
##기사
##너스
##래도
th
##호는
간단
대결
오리지
##하려고
##미널
점이
하며,
작업
##IC
네이
밝혔다.
패치
얼마나
##구에
사기
본인의
##시오
##부에서
명중
MA
km
##성과
보조
##나와
##자에
##미의
맞는
하드
선생
극장
##'이라는
주고
그리스
확률로
플래
##드리
구분
장면이
2020년
빼앗
##려면
##경을
##회에서
점령
사격
무리
가깝
오랜
체력이
통과
##일의
##바이
시민
태양
##로도
##텐츠
마르
##드,
##자들의
거쳐
##음이
시나
나오지
다운
##세트
얻어
##다고.
불과
마치
##레인
마리
반복
화염
프로듀
유튜브
##때문에
##쳤다.
내용은
사는
##수,
내에서
힘든
제3
##약을
2005년
난이
있지
MBC
지금은
##남도
##70
시기
투표
재료
앞서
앞에서
뛰어
되면서
##시킨다.
그럼
데이
서술
인식
##시대
3일
데려
영입
적에게
정책
하는데,
붙어
몸을
100%
신체
중심으로
##라우
##치게
서버
오르
##다시
##단에
##론을
입고
나이트
38
개조
소년
##90
2회
대표적인
외모
선정
모르는
진입
패러
##제는
##레이션
SP
그저
클럽
##인들이
득점
세트
후속
34
근데
바라
##리온
사쿠
##아이
##실을
사태
##광역시
##그룹
##했지만,
디자
이들은
적극
##라.
##하니
고대
##해를
디지
##정으로
은퇴
받는다.
때도
##사카
##명으로
점프
##전은
살아남
말았다.
목숨
##kg
공략
좀비
보상
다만,
오오
##시티
바닥
올라가
##임이
##RA
방어력
##러가
##스킬
##버리
거두
##전쟁
인기
대단
주문
장난
꽤나
컨셉
여름
##기관
그려
이기
불안
아는
그때
막아
무너
##방에
##전으로
VS
##장과
##만으로
##래프트
2004년
소비
맞아
광주
지닌
##형이
##트와
초대
##art
##소년
적절
스위
자료
사람의
단순히
You
마무리
하나의
비고
대해서는
이후에
살인
##규모
##마를
음반
##이상
마음을
##:2
철도
##이야
U+
##ie
오리지널
##복을
방문
오토
꾸준
##ab
문제를
##선수
서브
마침
2일
게이
##해졌다.
미드
1000
거대한
##니스
무사
채널
보였다.
상황을
특성상
##분을
##제에
##'가
선보
다르다.
착용
코스
##45
대학교
##버리는
받지
저격
##스럽게
##도우
##하려는
활동을
부분이
##군에
##호의
모습으로
손에
##르가
관통
거짓
아름
한국의
부르는
날려
##하므로
비난
알렉
##어.
모험
##99
국회의
요리
단계
부대
##/0
##코의
노력
아쉬
요소
되고,
##위는
미리
##패를
원거리
##해진다.
##이라서
전환
##즈가
##되었으며,
의한
설계
점은
37
##카가
##ill
떨어진
분리
##IA
일반적인
##답게
돌려
인사
##트에
##니다
먹고
더블
나쁘
하나로
죽을
##ia
##워서
정당
대비
탑재
누군
2014
포함한
##소녀
교통
앞으로
##회에
##방의
했으나
보컬
##고가
##ik
##나를
##센터
도로
도움을
##률이
##~2
##화에
등장.
모티브
##었다는
##연히
감안
##산을
자신은
브레이
##골을
보병
점에서
##역으로
팀이
경상
아프리카
비교적
노동
2번
승리를
AP
필살
확보
확실히
인기가
##일은
왕국
##요?
##트롤
191
황금
일은
페르
##에게도
고등학교
기체
스카
완료
##놓은
지적
등록
##나다
승강
조각
##되었고
##타는
##고속
##35
딱히
스포츠
남편
눈에
##힌다.
PC
##구는
##진의
사과
##마트
바탕
정보를
제압
논란이
만들어진
차례
##시키고
고속
그에
금지
##시켰다.
In
포인트
유래
허용
먹는
##초등학교
150
상처
##미는
##신은
연주
일어난
75
구축
연장
1번
상대가
##악의
##판이
##all
##성도
몰아
##라와
추가로
컴퓨터
있습니다.
병사
고통
지니
##에서만
나누
거리
가게
원정
수밖에
실시
명의
캐릭터가
10일
때의
대답
##프의
##루가
형성
그레이
##사이
분야
임명
##:5
##력에
곳에
15일
이것은
##식의
인류
##AT
걱정
##었지만
##까지도
작성
스킬을
##EN
##개로
##바로
##토리
##ea
아시아
##문화
임무
이유가
차이
주목
파트
##렀다.
##티어
##선에
기술을
##다보니
멸망
##하였고
##ne
수호
##FF
본인은
##우고
##프레
##자들
솔로
##르기
##을때
트랙
사용한
##바람
희망
필요가
II
##가로
##역이
이용한
##키를
##ue
갤러
##동,
##코가
어찌
편집
아나
끝난
##PS
만한
유우
짧은
##리스트
시작한다.
##나무
##피아
잠깐
녀석
##리트
##당의
##사에서
가슴
##화에서는
카즈
초반에
##AL
해석
방해
해금
##크래프트
그만
측면
##공을
##:1
겨우
##북도
##발을
##"라는
##잖아
30일
##상태
##기.
뿐만
따른
##권이
##먼트
평범한
주연
이전에
거주
엄청나게
라이트
48
생기
부른다.
없기
커뮤
보였
있으나
5일
##ll
장기
멀티
던전
라디오
삼국
한다고
젊은
레어
##포를
불리는
##자에게
##위의
액션
##선거
여행
홈페이지
예전
##질이
골드
뉴욕
모아
##ct
느껴
이사
업그레이드
끝내
##토가
동맹
20일
##리안
2002년
##이던
어느정도
##ss
원래는
##상에서
##량의
포르
듀얼
3년
55
##도시
+1
##조가
멀리
사령
보이지
센터
##-4
##하의
대놓고
안타
##서가
흡수
에너지
그녀는
타임
뮤직
##즈를
25일
"이
##dddddd
카오
190
st
##품을
최대한
필수
되기
바꿔
쿨타임
만다.
##다가,
##동이
떨어져
##,#dddddd
평가를
##OR
물어
말했다.
유도
있도록
##모리
1.
스케
해군
제시
속도가
걸어
##ate
태어
아스
약속
사이에서
##랐다.
##임에도
다름
내부
대공
형태로
##기술
내용을
42
궁극
봉인
단체
없지만
당선
보급
##디아
힘이
효율
##하여,
##생활
가정
드라이
##물로
자신에게
눈을
출생
##차로
##모를
##카의
##지자
##되며,
3,
코너
##.10
직전
맞고
중단
##대에서
##자리
50%
##든지
육군
끝까지
종합
팀을
밀어
코믹
어울
##물의
##'이
게임의
2003년
##웠다.
##락을
오후
트레이
##했다
재미
생겨
MP
이야기가
능력치
이후에는
4일
거절
##카드
국가대표
이것이
##사건
##되기도
##량은
##주시
광역
받아들
거야
시나리오
알려진
유용
밸런
처음에는
버프
##관은
##함이
28일
잡고
가리
게시
용병
##'는
길을
개의
바뀐
개선
제조
##능력
##미야
2.
##계에
부담
애매
뭔가
##까지의
##하기로
##단은
##구나
컨트롤
##트,
##ove
걸로
##권의
소울
미친
나카
무기를
소리를
##메달
##3,
중이다.
집에
##론이
##수와
##oo
7일
수준의
인기를
흔히
뒤로
##받고
보여주는
귀족
##도와
##이치
중화
강제
##ard
Re
도움이
##모로
##대,
10%
참고.
증거
##비의
본편
##ang
##위원회
SBS
##PC
##하자면
##어져
습격
##달라고
전술
##ell
콤보
사상
##성으로
##성,
발휘
스탠
때부터
##루스
##다면,
추가된
당장
히트
유키
서비스
Sh
##등을
말고
폭탄
위에서
타이밍
레이저
##우의
##크는
왼쪽
바뀌었다.
27일
##ant
지옥
##ers
##버렸
해주
개편
진영
##토의
그들의
##ine
##쳐서
상대의
서울특별
##언을
무게
거대
속에서
##사키
##마을
##관의
자살
재생
##자들을
제외하고
어렵다.
또한,
##주차
싶어
39
넘어가
##스턴
##해졌
##타의
##식은
레전
쉬운
없게
상대적으로
공통
에서
처치
##마스
##아웃
아무래도
문제로
상황에
시작한
원하는
##OS
##와서
지역의
일반적으로
올리
제안
못한다.
부상
##전사
##심히
많았
14일
##해보
사건이
##오의
죽이
스탯
산업
##효과
한다
단독
구입
중에서도
하나를
지명
전자
크다.
줄어들
오스트
황제
수치
누가
겨울
비록
##로스
홍콩
##중학교
반란
21일
스펙
##대와
##느냐
##연구
얘기
상대를
아침
##러를
##.12
계산
패시브
##조를
##토를
아웃
##디션
충돌
##AS
스페인
##/3
26일
2013
##향이
조준
파악
##스탄
시내
로드
근거
핵심
##터의
##지며
상태가
##수에
자기가
##AM
꾸준히
떨어지는
행복
늘어나
##ED
##에,
Sp
민족
기절
##개월
향해
##사항
로켓
그녀를
출발
온라인
이미지
##형의
하나가
모자
##교통
##치지
의심
##VE
##겠다.
17일
싶은
##있던
게임이
책임
못해
사실은
탑승
기획
##격이
12일
##당이
##라리
동일한
##하게도
##원과
만족
##비는
##것이
여겨
8일
광고
채용
##적이고
반영
우려
##서,
##먹는
##기인
실질
머리를
##하러
##다이
##철도
##/32
장르
##구로
두산
##-10
11일
##이라며
건너
밀려
존재하는
고유
뿐이다.
문서:
약한
테마
판타
##학을
##었는데
메가
22일
필드
시티
사항
##할때
18일
붕괴
##ive
##친다.
그게
혼란
온갖
16일
##권에서
플라
##받아
바르
텔레
##되고,
내용이
인생
맡았다.
힘들다.
24일
##500
사람들
오는
카페
##gt;
##로서의
이상한
##안타
공격력이
##ee
기록했다.
BG
6일
처음부터
안습
되었고,
에이스
##끼리
있으므로
##점에서
23일
위로
##히고
대다
강조
##오가
데스
##ack
활약을
"그
극장판
훌륭
##니가
관광
생물
##사인
살짝
그것을
에어
##기만
해제
패러디
SS
없고,
##차피
기원
##ast
##373
불명
13일
당시에는
자이
나오고
3회
랜덤
어쩔
설득
커버
배신
탄생
120
수원
두번째
미나
둘이
##주년
Th
##스포
##시와
고민
인간의
9일
아오
19일
그럴
##전에서는
그렇다고
공산
##모가
##루를
##하였으며,
마이크
하위
한화
방식으로
FI
지하철
플레이어가
##가능
[[
##uby
보여준
아니지만
돌파
페이
아야
주도
서포
지급
숨겨
##4,
화살
##과학
부터
29일
않기
##왕이
##스에게
중간에
만들었다.
##'에
않지만
ST
당황
감염
스킨
##&gt;
##만은
속에
사람들을
말해
2012
무서
##선은
아메
##자마자
셈.
은근
##게도
##정부
들어오
##속성
나쁜
##3c
뒤집
납치
2001년
##lt;
말도
##님이
와중에
이들
1위를
##오카
그다
시점에서
방패
##거리가
##되었던
##선에서
표준
오프닝
아라
마지막으로
##루의
들어간
##ong
##기에는
입은
우승을
가입
##드라
작전
가로
일종의
##웨이
47
##AC
be
##독교
즉시
얻은
##하긴
한국어
##은행
갖추
열심히
##개가
##파이어
대륙
##ort
외에
구단
확률이
신뢰
##ruby
이름의
둘러
3번
보여줬
##판에
실행
해설
발음
##국이
마련
##방이
있었지만
##지마
하기도
##if
때려
오른쪽
##LC
만에
있었고,
한때
주력
추정된다.
##ind
실력
##오프
데미지가
버튼
##마리
##5%
##ith
##a3c
##373a3c
##점에
늘어
공항
400
받게
##트남
##EC
##세는
대미지
##동에
라이벌
아사
명예
역전
PS
않아서
##ruby]
버티
##ld
옆에
##화로
하던
어차피
모션
이르
바탕으로
##정보
##장.
현재의
단일
내에
##즈키
것이라는
만난
사실이
어째
내내
습득
들어가는
사정
##시리즈
등등
이론
드랍
클로
서울특별시
##마법
##베르
##ly
10년
성적
##스트로
후쿠
제주
디스
수입
##해져
##진은
댓글
##ffffff
아이템을
커뮤니티
교환
이래
뒤,
언어
##데미
동아
보수
분석
여러가지
##직을
브라질
베이스
##인지라
20%
입학
##면서도
이승
##하기에
##증을
스페셜
##까?
눈치
##즈는
절반
가면라이더
그곳
초월
통일
스프
경유
붙잡
인지
박살
공주
무력
음식
##우를
2위
공격이
들어서
##프는
##어주
2루
김성
##ist
것이었다.
카드가
집안
놓고
돌격
형제
46
##급의
44
건축
쓰지
시행
뽑아
메이저
사거리
##지컬
##회는
##말을
정말로
##시한
##선으로
##VP
했는데
##스트를
##ain
행동을
##원들이
공을
##//
정글
##군과
재능
이슬
가득
계승
##'으로
##.11
위키
##역,
##ps
##~3
##했다가
벗어나
내구
말한
##리아의
그다지
##단으로
선배
부분은
오픈
조정
레인
###x
수리
얼음
베르
##기에서
##-5
##요!
파이터
오리
격파
미야
위하여
##per
##치에
사람도
마주
제국의
##리자
안되는
##공항
안드로
노래를
##가에
##했으나,
##권에
##각을
덕에
##하지는
01
나의
##해지는
마법사
계속해서
격투
정도는
울트라
제기
크리
마츠
##면을
##니,
밴드
마녀
##해주는
정령
팀은
쓰러뜨
세력
점수
##병을
공유
##족의
맡은
위해서는
##라운
적도
##연합
그녀가
그만큼
##이나,
##리나
살고
고급
걸려
소멸
죽는
당시의
07
의미가
전달
일부러
##판의
그것도
하다가
붙여
##다"고
곳에서
그동안
보인
다행히
##시안
북미
경계
가문
피아
물러
근무
테러
##역에서
때문인지
건강
하수
없었던
메탈
NC
사용하면
미사일
##est
모양.
카르
네이버
외교
랭크
대장
데리고
##HE
##긴다.
울산
연예
뛰어나
추진
와서
##리면서
생각하는
##OL
순식
##:3
##기간
아무도
비하면
##악한
의도
트레
공작
이들이
증명
##화,
##류가
통한
##서의
##소의
정체
스타일
##판에서는
##였고,
떠올
패치로
프로토
무난
쓰레
심각한
##시코
알았
장애
##사용
암흑
케이스
거래
##니어
해체
##화는
후에는
홍보
역으로
아우
##리티컬
신인
가까이
##0000
43
얼굴을
3.
오로
아무런
포인
스트라이
##ry
압박
##스팅
실제로는
전체적으로
##랭크
화려
쓰이는
되돌
자리에
갑옷
##IT
##373a3c,#dddddd
클리
##아,
##디언
주인공이
했다고
싸우는
##시간이
02
08
전투에서
못할
자원
##스키
##니의
##등급
연계
##별로
##lo
시야
자동차
3차
민간
한계
입수
##판은
글로
취소
컨텐츠
하나인
##64
해적
##들이다.
순식간에
기독교
##하이
추가되었다.
함정
노트
##부와
##리언
1999년
##-12
스튜
사건을
관객
8강
##면에
##색이
여동생
##로로
뒤를
지금까지
생겼
관심을
회전
보여주었다.
##명,
캐나다
##보단
않고,
목적으로
##인.
카운터
부족한
##피스
난이도가
##'이라고
##시장
이스
복잡
신의
있긴
##FC
채로
도달
많았다.
아케
##실이
통해서
때에는
선수가
예술
프로젝트
얻는
##유키
선호
어쨌
첫번째
돌아오
or
아티
파견
##거운
방송을
##사람
쏟아
당한
떡밥
돌진
##워드
목적
me
##PU
국회의원
아닐
1998년
최악의
##겠지만,
이들의
##되었으며
##오를
##호,
괴물
캐릭터의
##시스
on
##만원
크리티컬
##중한
체포
수요
강원
##가락
##해,
##으려
##지방
06
몰래
드디어
정확히
체육
CD
빨간
맞이
투자
도움
##관으로
03
방향으로
소프트
출현
조지
##듯.
파이널
경영
쓴다.
두려
##하시
##100
##장인
나루
관계를
흔들
세워
러브
네덜
리버
##류를
옮겨
불꽃
수용
##널티
##BO
테크
본격적으로
해방
기회를
넓은
노출
지역에
##대회
##관에
하자.
입단
문을
있었으나
드립
개통
조용
##마는
크레
교황
고전
제로
폭풍
부진
의식
것이라
NPC
에스
09
##아파트
it
방법을
##인에게
##우리
##것을
단지
추락
잉글
충청
뉴스
요새
##거리는
구현
의사
##목을
넘는
쓰인다.
이쪽은
응원
##ust
아무것도
다니는
##당을
후지
편이
쓰면
등판
감독이
##관계
변호
목숨을
99
눈이
의견이
대규모
계급
64
대로
##]]
52
중.
##5,
##터리
가능.
##자들에게
등에서
영원
단점
##구,
아니라,
했지만,
##카를
견제
최상
방법이
카나
##았을
##형은
없다
신규
편성
AT
충전
작용
##실에
1인
되찾
프리미
...
신청
##라노
사이의
해당하는
##머리
##체로
됐다.
수학
화이트
못하게
is
성능이
##트에서
중인
Su
##브를
##한국
##종이
인근
##까지만
치고
49
되는데
##치와
아직도
이용하여
상향
이후로는
깊은
했을
감독의
유명하다.
열차
##타이
1997년
##메이
쪽으로
교수
제이
폐지
##코는
모습은
대립
##부,
마지막에
##라기
모른
옛날
##se
협력
보도
모른다.
말할
여러모로
비슷하게
베트남
##사.
기록을
흘러
있었는데,
##주인
기초
가이
동원
보너스
##이었으나
괜찮은
통신
180
다가
##시설
영상을
스마트
대상으로
불편
트위터
테이
있어야
##ore
##역에
집단
31일
##주,
생각을
기능을
##공의
효과는
##장한
그에게
##톨릭
출판
부분을
##저히
크루
수집
캐릭터를
필요하다.
기여
##었는데,
'이
모바
##:4
이후의
우리가
##6,
쪽이
파이어
##인들은
혼자서
언제나
##색을
고향
이뤄
만들고
##RE
##고의
##브리
토모
##형으로
연애
##경이
그래픽
무료
US
전투를
수준으로
말이다.
##인민
1.5
##의가
전라
##one
글을
운전
걸쳐
대폭
MS
무대
다수
반응을
없애
어깨
행사
##소에
##미,
경기가
##영상
##야의
그런지
##용이
##가?
00
매일
##파의
##되자
먹을
유저들이
30%
##스트라
마음에
맡고
갤럭
##24
닥터
순서
복수
아일
창작
유희
공부
하나.
공화국
빠진
본선
고생
푸른
##해가
몸에
꺼내
KT
걸린
##아를
학살
##자키
##해지
##보스
타워
상황.
자체를
##였지만
자신과
대체로
나뉘
&lt;
달러
돌아온
자이언
주어
죽여
##책을
평화
위기에
##인이다.
##였다고
##전투
만든다.
장점
이득
번호
##인인
오스
무효
화장
제법
인상
주지
간의
기습
사람들의
##였고
몸이
##의로
사진을
있었는데
노예
다섯
콘서
이후에도
어디까지
브랜드
전원
드물
##민이
##격으로
중학교
##율을
##함에
등과
이날
이것을
#373a3c,#dddddd
안에서
그와
달아
넣어
본인도
##치,
주먹
오빠
참전
2배
##렸을
성능을
어그
##동의
모리
##라이언
An
거기다
##카는
사이가
##자고
조금씩
적어도
스폰
특별한
04
##PG
##운다.
추적
##비전
네가
위치를
말은
##다의
작동
호평
##ip
마시
##어와
이중
##연이
계획을
명이
양산
정류
A4
딜러
##지원
05
영문
다리
구출
유전
이시
코드
하나는
똑같이
3위
조심
들은
알파
된다는
##타입
점차
4강
대략
##:30
##내며
##.25
하다
##사랑
곡을
65
보낸
##",
그렇지
##업이
댄스
똑같은
##마저도
길이
##end
##인에
그것이
4년
##러운
마이클
시키
##할수
가드
##보가
세월
##표를
##링을
##ere
있으나,
차별
파일럿
##기지
노멀
연사
체력을
##하에
변경되었다.
곳이
진정한
입장에서는
4개
1996년
내는
준우
있었고
4,
##함으로써
공급
동작
익숙
연방
##제한
##당에
Te
##관,
귀여
되는데,
전직
##33
그들은
던져
캐릭터.
##프리
##세에
잡는
도서
행성
##적의
##조는
##75
미츠
런던
사토
위원
##역의
타케
##??
거라고
생겼다.
##부르크
고양이
파란
관계가
어쩌
레오
##동차
##국을
임시
엑스
비중이
그럼에도
##라에
스킬이
프린
널리
##ity
의원
##님의
##실에서
코스트
##파를
불법
되자
##력도
형태의
##주에
의혹
예선
##재를
심한
##병이
시기에
했고,
##유가
도중에
##ath
최후의
선물
##-11
기반으로
요즘
##화되어
펼치기
##짜리
스웨
##었으나
때가
##상,
동네
##무원
마리오
1대
이재
##고로
성인
더빙
##공화국
어지
세계의
##드에서
집어
##-20
1995년
BGM
조절
이내
##부대
##데스
##.01
살려
##들에게는
##티아
권총
어드
마크
조성
국립
16강
##시절
아머
제4
헤드
수영
##체에
시각
##였으나
변형
##히로
MAX
인공
간다.
Ar
정도가
##이긴
근처에
달린
기어
전형
등은
##민의
고용
이슬람
공격에
메카
신성
##메이크
##테인
보이고
막을
장식
합격
Ne
박근
##과,
##당하는
2010
유로
유령
##색으로
##냐며
붙은
##미와
지니고
비디오
##200
##주면
마도
정확한
한마
SN
구속
De
##인들의
##항공
##받았다.
##과를
플레
##하였으나
##았다고
##료를
##버트
##한의
곧바로
5회
##베이
윌리
페이스
접기
태어난
##이었고,
언니
##ome
수송
전까지
제임
이성
이거
4회
##비스
##영화
등장했다.
낮아
팬들이
빠르
레전드
트로
##름을
대부분이
여왕
아버지가
##들,
지속적으로
##65
하더라도
디지털
넘겨
대미지를
평가가
FIFA
크로스
AI
있었다고
시장
##해의
나를
모으
##라이트
소리가
-원
어떠
##MA
블록
매니
팬들은
주변에
출처
불린다.
괴롭
무언
단순한
김영
쿠로
예측
모두가
너무나
몰려
오랫
9회
크고
생활을
가톨릭
합쳐
녹음
판타지
되었고
종점
##중인
생일
적극적으로
##조리
##지않
득표
연상
예외
어둠의
취임
##홈런
##등이
펼쳐
##씨가
파라
##미니
##우,
무엇보다
수사
전함
##데다
서서
않았던
판정
검색
초창
극단
58
막기
거리가
어떻게든
플레이를
기억을
포탑
구해
추격
-명
가졌
2011
##내기
##교의
전쟁을
그랬
리메이크
공개된
##법이
자신들의
반격
일본어
편의
##당은
줄어
잠수
이들을
절망
##쟁이
커맨
스카이
##술사
업무
##담을
##야구
AC
##7,
##자면
##age
##산이
아쉽
모바일
##.02
##권은
고백
스파이
요괴
##레나
##IS
##양이
근육
지나치게
내의
##무기
5년
MVP
보물
차단
소닉
##사업
갈아
위험한
존재하지
##경찰
##뿐만
라이더
승격
##평가
##니다!
##전차
없으니
##영이
##다니는
중에는
않아도
압도적인
MC
다이아
진지
등,
189
##'에서
3D
##학자
파트너
##실한
##야.
타이거
##관리
저그
작중에서
중국의
대항
목격
##당히
정착
##22
##소는
동방
밖으로
기점
영국의
없으면
주전
탱커
##마루
이후,
##이었지만
이루어진
박정
마리아
발달
일도
소화
FA
불가능하다.
##II
##호로
##드립
##쪽의
반발
능력은
관할
##버리고
클래스
##인간
상품
마법을
본작
##마이
특이한
규정
##츠키
전면
게이지
높이
나타난
##티드
3대
##스톤
설정이
##ect
신설
장수
부상을
1994년
##안이
##편의
##디로
후속작
##하라고
활성
가깝다.
##론의
##동으로
유행
와이
전력
##개발
##했었다.
##://
느낌이
일시
##국가
##둥이
##하면서도
##구역
##%의
외계
##ire
하필
홀로
##슈타
보여주고
중계
차라리
##환이
단어
주의.
##나라의
##소에서
인수
플랫
저장
써서
에드
그로
##리우
##으론
##린이
DLC
##.03
자가
##현이
의뢰
예비
입력
##석은
##세요.
통상
성격이
용의
THE
##전,
기능이
되어서
##BA
식민
##로나
##츠의
한동안
##하기는
##방어
폭주
##린의
##친구
지금의
히데
##tt
##디가
##함과
아름다운
곳으로
루트
계약을
외부
작품의
이전의
대상이
##어버린
모여
최강의
무적
하야
아바
오랫동안
##66
긍정
최다
치명타
##되었을
창조
##명이다.
착각
블러
협박
2부
##~4
예능
강철
나와서
국방
중에서는
##으려고
##라!
##노가
##했는지
베어
##-8
##었기
들이
##연을
##번에
##분의
##연의
##당했다.
사운드
역임
의존
버려
튀어나
법률
##유를
##편에서
서양
전후
현지
다룬
부른
##당하고
실력을
유형
쫓아
성적을
마침내
8회
있기에
맞지
시켜
41
많아서
##해서는
남겨
##들과는
잡을
말하면
##교를
자매
헤어
##르를
기원전
죽인
어쨌든
현상
##토는
학원
베스트
청년
신기
##og
##네가
결성
승부
끌려
외에는
스티
감시
간혹
출신의
'아
오사카
##OT
Le
##류의
회의
저녁
다루는
가볍
대사를
##었다
구멍
##킨다.
대화를
##ide
##/4
신고
쓰기
##어리
##과도
하나이다.
대처
방출
오늘날
##팀이
총을
어디까지나
##ID
감옥
끝나고
##'.
##령을
주기
싸울
프라
보장
커플
생각이
##ure
##감독
순수
##터테인
아니냐는
기술이
가속
##되었다고
찾는
##구치
심리
잃은
1990년
##배를
엄마
사용하여
##ake
##버려
##"는
##하는게
박근혜
##사령
콜라
##설을
적대
골든
쉽다.
나나
56
##번호
##세로
아리
했다는
##ime
##군으로
##곡을
내놓
까지
않는다는
##진,
강제로
지어
세계를
이지
말아
이리
끌고
지역을
##28
생각하고
##기업
처벌
받아들이
보일
##만큼은
침공
##던가
안내
##소한
##크라
54
##웨어
경기는
마인
날개
맞은
힘으로
비슷하다.
##당해
##통을
Me
했는데,
##르지
주말
##파이
Se
##터는
##다'는
##더스
AK
##일드
##세요
외국인
좌우
이어지는
##리얼
나름대로
##회사
자는
통제
##실,
디버
##금이
김태
올린
3루
인간이
정치적
2기
만났
죽음을
##심으로
59
독자
드러나
##등의
일본에서
무덤
구체
합성
##amp
생각보다
##ark
##판에서
마음이
##타와
##하거나,
이끌고
WW
실버
전화
미스
##OM
마이너
자신도
똑같
한국에서
이집
한자
까다
가고
둘째
소수
무작
##노우
대만
##77
##니와
화력
필리
다수의
윌리엄
##신으로
은하
훌륭한
코미
##인지는
인형
##슬러
##ES
정확히는
정복
##노의
지금도
마구
풀어
포르투
##소리
작사
어릴
우리는
##량으로
막장
구성되어
발매된
##일로
사용해
아가
##줘야
은근히
관심이
##보기
일으키
##물에
어두
접촉
600
수록곡
무기로
정면
##이게
감정
인하여
남아있
KIA
향상
##ite
희귀
##었으며,
깨닫
Lv.
소형
성립
##들.
##주지
##38
플로
더더
6회
했고
수련
##팀의
방법은
영업
웹툰
##OP
##이트를
##페이
강남
##계에서
초등학교
밝혀졌다.
호텔
##묘한
알렉산
유대
정지
것만
##아는
##지고,
#ffffff
##크,
##재가
DJ
##식에
##하고자
##당한다.
노부
한편,
없던
캐릭터로
규칙
팬들의
독특
kt
동시
지역에서
출장
요코
일제
##환을
누적
로스
태어나
##UN
다들
마왕
사용하지
등장인물.
상호
무렵
흥행
##안에
##야가
##ound
##.05
제5
##실로
옷을
예고
피격
이길
##하려면
강하게
몬스터를
##았고,
태그
경향이
대원
이끄
##한을
융합
##시키기
##iv
##구려
이치
##치며
##oy
##피를
헤이
##'t
##된다는
##트워
스웨덴
더더욱
이란
##점,
2017-0
지내
##산업
멀쩡
당신
##림을
my
안티
CC
포스트
기본적인
극복
아빠
의료
##iz
##였다는
##에다
'그
##현의
찾아가
말로
메시
역사상
##미네
들어간다.
세상을
##파가
피를
7회
편입
탄약
일찍
##명한
경비
수십
브루
반응이
##조차도
전에는
스피드
##법은
He
특기
고등
테란
결과를
김정
##초간
##민주당
88
소총
노르
인물.
웨이
지능
##막을
##명에
5개
갤럭시
슬롯
맞게
Be
하얀
##.08
##재로
팬덤
지원을
제2차
##구와
##투를
주었다.
##리에서
##OW
##소로
스튜디오
연극
니시
##코,
나아
훗날
이상으로
불가능한
##이었고
사람들에게
할아버
뜻은
블로그
경험치
##군,
##하겠
##AD
대개
원본
AR
코어
##ge
사랑을
##전과
별다른
##다면서
역을
프로듀서
감사
나눠
##ess
부품
어른
들어갈
+2
##크와
57
장면을
적응
접속
상황이다.
이주
게임에서
청소년
##심한
저주
##론은
문재
사용하고
달고
속하는
있었기
관계로
##이었다고
내세
레벨이
죄다
대충
문학
새벽
사라진
##영의
##종을
GT
66
##색의
전성
이끄는
##비에
중의
관심
##에서,
##되었는데,
안드로이드
1992년
당해
전시
##로봇
절대로
멈추
스미
##도르
5,
환승
이즈
##단과
##다시피
##익을
갈라
이정
##용을
##화와
다를
##9,
전형적인
한참
버리고
공격하는
랭킹
##기까지
헌터
네덜란드
내리
정도다.
##전대
개입
각본
스톰
##졌고,
챔피언스
카타
##망을
##~20
있다가
1993년
검사
방에
결코
2대
"아
##테이
트윈
들어갔
갈수록
죽음의
연도
활발
##석의
##OC
##등장
이외에도
애플
물을
사용되는
다음날
해병
물고
무릎
2층
바보
분위기를
상업
제어
오해
##다란
##sh
멕시코
대하여
결합
##니는
##음악
막차
싸움을
일상
##향을
##산의
어떠한
실력이
스코어
##사회
보며
##즈,
Wh
SD
독일의
##비트
들을
성공했다.
보게
잡혀
도발
##관에서
죽일
리듬
아니라고
SC
3인
##LL
수준.
은행
2의
이외의
##는데도
가야
들어온
과거의
##.09
비트
명령을
##역은
사건의
##버스터
##하였으며
##경에
##코를
위치해
##모델
테스트
나가는
의미한다.
##대장
My
1기
##이기에
##그래
##화한
적혀
공군
브리
태평
##코와
써먹
퀄리티
##.07
갖춘
##했습니다.
캐스팅
우연히
##트릭
것인지
##드레
##츠가
의무
카를
장교
##즈와
##com
이라는
##바라
##px
평이
경우에
##포가
##36
##자도
##-7
##공이
싫어하는
with
전철
##맨의
박사
##ame
개방
칭찬
짓을
##ord
검찰
자치
디아
선출
자동으로
분위기가
Tr
250
상태.
김민
##시험
전방
##랜드의
꿈을
같아
약간의
##()는
카드의
방사
##ud
아니었다.
직원
##국은
서부
전멸
스태
어지간
그건
세종
이글
##물은
유사한
##실의
점이다.
##당할
##으러
그들이
금속
연관
캠페
##비로
불을
페이지
작가가
아니라는
##없다.
##문은
첫차
##키와
버프를
미카
이영
미술
##령이
##.04
##느라
적절한
인터뷰에서
참석
키리
치는
과연
플랫폼
만나게
덤.
보너
유저가
##선,
자랑한다.
85
##메가
슈팅
메타
##미터
준우승
##상한
##다를
##여자
나쁘지
##유럽
##기나
가문의
과정을
오전
##중앙
선생님
##수.
김종
트랜
이제는
##도에서
##34
폴란드
덧붙
대표적으로
##받을
##국에
많고
어마
##경의
밝히
HD
##our
##정,
##보드
이민
하니
시달
그라
SM
구사
편곡
추가바람
모양이다.
사람들도
##집을
열쇠
기자
72
##"를
부서
위주로
##탄이
토론
##'은
그들을
매직
##다나
모조리
##레이터
보지
2번째
벌어진
##ax
오직
선수들이
1학년
병력
자식
있어도
##지인
##ance
개막
시절의
-위
매년
가능성도
##oc
원칙
왕의
빛의
##ix
입을
##로와
사장
##ok
68
되었다고
의미로
##어요.
내장
##토와
##일본
아버지의
봐야
노란
프리큐
정찰
기병
날짜
비싸
1991년
뒤에서
##렬한
##계로
우수
형식
챌린
##마에
아쉬운
아들이
##가시
휘두
메뉴
##배우
##번,
과거에
재사용
김동
경기에
사양
스트리
대사가
이상을
##'와
##ice
심하게
Al
##마스터
IS
UE
별명
##단지
보라
스타크래프트
##러의
##되어서
회수
지나가
##ww
188
보관
##ick
이른
와타
네오
채택
목소리가
##았다는
보안
아파트
태어났다.
믿고
주인공의
##버그
자리에서
맞서
##나카
##하라는
스마트폰
채워
사용된다.
이라
교회
4.
패션
##로서는
이루어져
##.06
피해량
한타
환영
집에서
완벽한
보유하고
##것은
정신을
3학년
쓰레기
사후
##{{
##-9
기분
셈이다.
수수
드는
헌법
허나
좋을
##리고,
##하가
출마
군단
##약한
110
비례
빛을
있었을
##렸던
##으로서의
유나이
그것은
SKT
학생들이
##번의
JR
임무를
잃고
##역이다.
##루는
감안하면
PD
##학적
손으로
##하기가
클레
방법으로
##pe
##오리
카와
박스
카미
##데이
후계
##()은
동굴
##급으로
반면,
30분
위치에
시즈
##봐야
##증이
뜻을
행위
남부
잡은
전진
남북
플레이오프
좋게
##커가
##것으로
동부
##비와
가을
밸런스
하락
여신
올리는
되며
죽어
##링이
부수
장악
##하자,
보이며
하거나
전체를
자리잡
유니폼
거듭
정체를
##소,
소식을
크기
카라
##했다면
제임스
신이
하트
자세히
재현
귀찮
일방
맞다.
폭격
무방
SR
바깥
눌러
##카,
##안의
Go
##39
캐릭터는
개혁
##되었으나
##츠를
제갈
이명
내보
모모
확인할
시그
51
곳은
##계열
##포로
관중
##니를
따르면,
나이가
이닝
자극
공식적으로
모래
##"이라고
증가한다.
현재까지
##오고
##맨이
어려워
##되었다는
##티나
로그
##브라
de
시즌을
가짜
이전에는
##건을
##EM
##PM
##na
병력을
##%로
목소리
둘은
##였기
##속도가
라이온
신앙
사마
얼굴이
##스트의
##률을
##서에
##사무
가격이
연락
스승
지형
베네
##야,
배트
작품을
앞두고
결과적으로
2세
거리를
유닛을
공화
##라엘
##욕을
3연
##학,
GS
##노스
##가.
Love
##작을
세계에서
##번이
재판
캡틴
출입
##해준다.
0.5
않도록
미국에서
##호와
알바
잠재
명확
물론,
2학년
충격을
몰라도
작가의
##시고
전의
강요
##리케
##때는
##단체
몽골
터뜨
언급한
남긴
전공
아즈
상급
개시
전부터
2008
카드.
OST
내지
알리
것일
메르
95
##검을
체계
간신
외의
나타난다.
##스트가
명을
##마와
2009
##석에
시스템을
가스
##프와
눈물을
의지
욕을
가사
넣고
프라이
##질로
##own
이용해서
깔끔
기울
버린
##위키
해상
되며,
##"의
놀라
머물
군주
전쟁이
색깔
##에겐
혁명
어린이
UEFA
할머니
##씨는
##qu
##졌을
##ber
넥센
##장갑
1층
##자치
추구
인원
배우는
비싼
저작
2000년대
EP
게임에
{{{
##68
간부
돈이
빠져나
영구
처형
##가고
장군
##은,
챔피언십
스틸
##파로
들려
때에
한명
##생을
800
스톤
있었다는
분위기
비주
##인들을
감독은
98
나오기
메리
CPU
화를
왔다.
집을
잡지
##주민
있었지만,
어택
등장하지
오스트리아
터키
1988년
##.18
##실점
당하는
##선과
##old
야스
포항
발생한
된다고
##한이
단단
##그라
##보로
챙겨
아크
차원
통산
조별
신문
##US
##방향
##학의
삼국지
홈런을
##상과
##쿠라
포르투갈
클래식
##%를
한다면
##조로
##프,
적합
스프링
노리
##av
##우와
발언을
가라
공격할
떨어진다.
탈퇴
한정으로
##동은
뜬금
찾기
밝혀진
##ng
중독
단편
[ruby]
지식
아이를
62
단점이
드림
##하겠다고
##종은
쿠키
오카
터치
이번에는
머리가
천재
신분
헤비
##110
##세한
볼넷
77
정부의
잉글랜드
##인도
계기로
찍어
만들기
유효
카메라
##들만
회원
53
##됩니다.
수준이다.
기용
효과로
특집
##여객
##위,
미디어
목표로
하나도
공공
숨겨진
##모드
군대
현역
##orld
##.15
몰락
##커의
이것도
##lay
스턴
##게이
##받는다.
어째서
무시하고
없으며,
##바의
기록한
날아가
앉아
구원
맞으면
싸워
아마도
코치
합체
1989년
챕터
##퍼스
업그레이
##자이다.
김재
플레이어의
##생의
컬러
아일랜드
강하다.
##EX
##정과
국가대표팀
데이비
마술
넣는
레어도
##이면서
##양을
초반에는
일명
1군
##교회
이식
##있어
##터미널
##임은
그러자
##/h
##언이
후술
나중
주간
공개되었다.
##직한
##각이
##오와
농구
##비,
##체육
상상
유치
성남
최신
당시에
늑대
##s,
성능은
KO
##후의
세르
오래된
##타운
피아노
모르고
고작
##통신
프랑스의
레알
이은
76
퀘스트를
비공
바꾼
##ont
나아가
핸드
##았지만
몰랐
있는지
##진으로
올라온
마력
자체의
구글
자폭
않으며
##나서
인물이
조건을
##서로
Ro
물려
승객
시너
떨어뜨
않았을
약점
드라
잡기
타락
##버릴
##중이다.
##~5
리가
아쿠
느린
대표팀
휴대
##커를
식의
적당히
##국제
한쪽
그러한
사막
##27
만날
##었지만,
이용하는
트럼
사우
##희가
상술
캐논
아이스
##ies
##랑이
느낀
##일보
##어마
뜻하는
왕이
마드리
##주와
사카
##방에서
##번을
사망한
거기서
팬들
##그리
죽고
##치면
탄창
찍은
사용이
##되게
##pt
Ex
고위
##포의
올랐다.
이미지가
##저의
의미를
급격
파리
선전
160
##율은
##주기
개정
블레이
달리,
세이버
느낄
도구
##21
##타,
매치
버렸다.
##군.
##았고
##-6
다닌
것으로,
##시피
위장
또다시
추억
##망이
##탄의
그러니까
별개로
즉위
전해
확대
그러다가
130
육성
##인들
##족이
##유닛
##셔널
관람
라운드
다음에
생략
김대
이어서
네트워
들여
오지
커다란
##제와
책을
후손
##OD
직전에
살펴
되기도
미안
##두는
빨라
부상으로
고구려
트라이
진보
##29
##으로만
미군
##디를
미스터
이겨
KBO
##차는
##제국
아이콘
드리
신경쓰
저런
무관
점수를
이상이
경고
남녀
처럼
아닌가
78
저렴
##실은
##되는데,
범위가
금메달
멜로
아메리카
##지?
##아와
K리그
종목
아랍
보여주며
아르헨
세운
비판을
##있게
주변의
##현,
수도권
보존
##레일
근본
수업
##하더라도
간신히
국왕
##투스
환상
제작한
장전
독특한
북쪽
##사거리
결과는
초기에는
##요,
블라
곡명
새끼
DF
무척
1부
움직이는
우리나라
했으나,
화려한
카드는
에너지를
것,
##하를
공격력을
동의
부딪
wh
##통이
버린다.
초보
너의
메달
74
루시
##+1
##죠.
##관과
아테
인증
##/10
코믹스
양쪽
##들과의
MF
가볍게
그렇지만
수류
##저가
남쪽
곳을
잘못된
연료
##이든
피해가
게임은
##결을
해주는
##네.
##요시
##법에
이나
당연한
LI
호위
Un
##네의
도끼
##로워
총알
##끄러
사전
없으며
##패로
작품이
포스
관측
주제에
아니고,
민주당
떠오
멤버들이
판정이
##년에
포함되어
찾을
손가락
##io
##NA
용도로
##박을
일어났
가끔씩
있음을
패턴이
##백을
공성
##약이
대회에서
##구에서
##-15
식물
이스라엘
예정이다.
곤란
##레가
중립
언젠
비상
##명과
##자나
##린을
덤으로
시절에
검을
##고속도로
##적,
##세스
어마어마
개량
존재를
##이었기
곳곳
WWE
시작으로
글로벌
1세
게이트
해안
서식
##훈련
고교
##천시
CF
부문
레이더
##거를
액티브
가시
카트
##ET
##디의
가치가
##졌다고
시간에
##씨의
##력,
이펙
2인
시대의
2020
루이
##양함
수출
안나
사냥꾼
##션을
기록이
클랜
제정
##린은
##내지
지시
##MP
건조
그림자
##설이
##발이
가만
실망
고문
화가
처음에
않았고,
출연한
물질
##먹고
마다
sh
토끼
##차례
의문
##졌고
의견을
망가
저질
##구리
아틀
##되던
도주
##만,
후반에
마그
보석
아시안
##였을
##세.
##고에
오버워
나폴
숙련
죽이고
기록하며
효율이
관찰
네임
격추
생년
##돌이
사쿠라
특성을
your
mm
리얼
##VD
##제,
140
않으며,
##야만
하나씩
흡혈
후배
공룡
##cm,
속도를
않았지만
부각
코코
##포인트
##바닥
##내가
Pro
미치
없지만,
##생이
##/1
취급을
위반
시작된
주둔
커리어
완벽하게
그랜드
위대한
##후반
나오면
침략
CV
걸고
##98
##진과
U+11
진짜로
67
이미지를
죽이는
부분에
치유
1라운드
난다.
##들인
##수사
무지
크리스탈
카오스
###x11
늘어난
타겟
##들보다
##속에
귀환
주사
초중
##싱턴
소드
일이다.
##공사
확실한
티어
언더
집으로
자전
제도
##900
감정을
무기는
토벌
##"을
멘탈
문재인
페널티
구하기
##하마
부를
4대
재정
한국에서는
곡이
방송에서
##Hz
##하자마자
We
##비디오
간접
##능력을
사람에게
있었으나,
한번에
I'
비해서
문자
발행
정도였다.
다스
아이언
하차
농담
유저들은
북부
##보이
##플렉
##까진
집행
후에도
##조에
##모의
##었으며
금방
기숙
넣은
모를
불렀
##병원
무기가
##판으로
편이라
폐쇄
##리포
동쪽
유닛이
아케이드
##러니
성공한다.
소지
##과에
제작된
이혼
니콜
드레
4번
면에서
언덕
통치
받아들여
##테르
포위
골을
보면,
CJ
얻게
문서를
##되었지만
##인한
제출
새롭게
우수한
종류의
##out
해피
수준이
히카
아티스트
##였는데
떨어지
##듯한
나면
대우
함선
침입
키워
타자
성공한
차가
SH
1987년
##함.
니코
성별
레코
##타카
시드
##미나
##성능
소위
1980년
전투에
기뻐
##시에는
음악을
엘프
##기록
정수
지불
일치
전주
이듬
전반적으로
##ave
##습을
일으켜
기믹
늦게
##편에
##rom
자본
##냐?
6,
잔뜩
##IP
강의
명칭은
원인이
##사우
되어있
##로써
합의
다음으로
열어
##된다고
##26
##단에서
##장전
갤러리
##거리를
##사이트
2.0
휘말
연속으로
추종
##왔던
##타자
##필드
냄새
아파
친구가
존재가
체인
횟수
되었을
자연스럽게
디지몬
쉽지
거짓말
패스
4위
발생하는
듣는
1루
It
전체적인
마키
##세)
불교
사용하기
##공원
생기는
동성
구성된
유통
사랑하는
당일
둘의
난입
두려워
프로필
기관총
녹색
이다.
대미지가
다카
브로
1:1
##경은
최소한
간주
입장을
##팅을
답변
장비를
대통령이
목을
##아리
않았고
지뢰
##ION
영상이
생년월
좁은
한글판
##되는데
유력
아래에
빅토
that
김현
바이오
재밌
##조사
숨어
##감한
떠난
나오는데
##우기
상영
정황
총기
##46
##버를
##55
시작하는
##렇게
전투가
생각해보면
국가의
무서운
알아서
보다는
##디는
올스타
상관없이
마법소녀
보여줬다.
정부가
크리스마스
유독
##ream
##에서부터
하나,
가벼
알겠지만
라이프
중,
##기에,
초록
따온
##발의
##야는
##LE
프란
거울
고스트
멋진
##문학
##님을
대부분은
방지
플레이어를
##동과
들면
##축구
왕자
##즈마
불렀다.
1만
호칭
보완
##경제
설정을
혹시
##산으로
##해질
##부장
##개,
심지어는
뮤지컬
##레를
##렸고,
##ile
물건을
지역은
그러다
전문가
아카데미
먹은
##ond
##우지
1장
올렸다.
데드
분명히
플레이어는
정부는
##rd
선두
이유를
사건으로
차를
반사
금융
나타나는
등.
다이아몬
후보로
받으며
언급이
힘들어
##.00
스플
틀어
관련이
##작이
##영은
+10
닌자
##가며
##더라
##"이라는
##브가
자격
##받지
일원
위력
##슬링
##편이
스페이스
데에
어딘
부임
##다리
일어나는
뛰어넘
사살
서쪽
미쿠
죽는다.
##브의
눈물
돌입
가지는
영토
끝날
데몬
속한다.
발매되었다.
##SP
양성
##.20
##사이드
주인공은
없다면
티켓
최근에는
1승
음성
으로
##으니까
승강장
신라
##러는
##열을
##ian
피할
##iss
말하며
묘사가
나선
##디움
##드러
##국에서
이끌어
뜻이다.
시스템이
##히지
걸맞
동양
평타
나도
돌아다니
정차
콜라보
증언
오마
나간
그레
##시하는
지팡
대성
##체인
죽지
양의
시에
Gr
토너
AM
101
대단한
##발로
##슨이
점도
발라
##웠던
##클럽
수를
클라
##누리
삽입
들어가면
가지게
5%
잇는
##시타
애매한
이듬해
마코
공격으로
수술
스킬은
타는
정도이다.
정식으로
##급이
보냈
느낌을
시노
끔찍
행운
##가서
##급을
##DD
##무장
가려
인디
영화를
프리큐어
익스
기운
집착
2연
부러
밀리
체결
발렌
아나운
##로만
매달
요정
##면이
호흡
##지기도
##-19
어뢰
##루,
결과가
##하나,
죽기
데다가
배차
진압
칼날
##예술
##고한
심판
대대
매력
임대
##-K
트레이드
##나가는
공격은
장면은
유저들의
브레
##사관
내야
단축
요소가
##전자
동일하다.
투구
같지만
##300
예로
##블로
##ost
곡이다.
##가리
아래의
길드
수백
##커스
2007
바퀴
##;&
##기기
##s.
96
##택을
별도의
입장에서
귀여운
유발
##림이
윈도우
가르쳐
생명력
##프리카
오류
작업을
2.5
##복이
공허
포트
연금
##름이
3번째
##면에서
##:10
형사
시절에는
돌아와
가치
영광
공격한다.
스팀
##하면,
경상북도
인물이다.
준수한
##키퍼
1명
##저럭
디젤
활성화
##44
카카
강원도
2006
##"고
현장
##......
발생한다.
##빌리티
##행이
4차
않는다고
1분
##종합
사회적
##"로
맛이
일종
##음.
철저
##슨의
일으킨
##바나
다리를
평을
##럭저럭
면이
칼을
##였는데,
맡아
##였으며,
##보병
되지만
##비한
먹어
##츠는
##현은
##르와
##orm
LC
상처를
화학
곡은
불펜
당신의
##치면서
의해서
합니다.
1986년
말하자면
깨달
타쿠
호주
주장하는
제가
##해지고
##지구
##대상
머리에
##다"는
##바가
##이었다는
##리에게
시절부터
답이
##:20
##소속
전신
갑작
투어
삶을
##ace
일으켰
얻기
이라고
운영하는
기술.
내고
##석,
고수
##'과
##주었다.
##나이트
##진에
그럭저럭
체크
##영을
군대를
소재로
업데이트로
##버전
각각의
##이었으나,
##위해
##ory
속도로
##,8
##95
전북
확실하게
##데다가
인구는
이하의
전설의
##침을
쪽은
##신교
왠지
팀에
최우
이수
개설
##더의
아미
##해보면
민첩
항복
높게
##단,
##왕을
올랐
천안
##ov
왕국의
##렸다고
오디션
신화
이슈
전체의
특징.
배포
187
세대
LV
생긴다.
지휘관
이젠
리뷰
##IG
실종
적어
##.16
드래프트
인간을
질문
##무가
어두운
기사가
##하진
빼고
전체가
상태를
##습니다
##범위
이긴
##ph
메모리
##희의
##ear
로얄
아저
곳이다.
시대에
또다른
##족을
##아시아
없는데
세븐
##곡이
##슨은
트럭
화성
당했다.
##합이
##경기에서
##민은
차지했다.
##공간
실수로
##네스
조연
오랜만에
여객
##;&#x11
생년월일
라틴
##르,
Com
드럼
발을
나은
##계는
원딜
##가미
##관광
부분.
미네
##카이도
나츠
서번
심장
어필
쓰여
자녀
당하고
의견도
선수로
않지만,
##로소
세인트
말하고
성을
방식을
원자
창원
##드래
미드필
##-16
정통
이종
##oth
##신과
커녕
단행
지나지
코멘
##마크
속의
스텔
##건이
##와도
아버지는
AD
AS
주식
상자
출시된
##man
어머니가
##전설
밝힌
우리의
##는지는
승점
불이
##주일
##전한
##례를
##달라는
##이라고도
뮤직비디오
보내는
186
경우엔
3000
##노는
##계획
세상
##ys
두들
##상황
명중률
상대는
강등
하나만
##-S
##인데도
요구하는
빌려
창설
97
노려
본다.
탐험
상기
얻었다.
re
##란의
일일
밑에
대리
무시무
문명
제외하고는
합병
출연했다.
프레임
1~2
상대에게
미라
현상이
시간은
경남
술을
##점의
##든가
##국으로
끝났
##시스트
세계관
사이버
##너가
바닥에
아니라면
자막
콘서트
63
여담이지만
##머가
##마,
속으로
막는
지은
보이지만
2~3
시라
대거
올라오
간단한
마케
적중
갖추고
61
##국민
##환의
##주교
생각할
##리스가
차기
그랑
대지
워싱턴
15%
by
정확하게
간단히
비교하면
##후에
건드
코우
경험이
낮다.
읽는
제6
마비
날카
나치
회장
##거야
##온의
선고
##조직
시상
##TE
많지
트롤
##속이
25%
들어올
넘어서
##sp
##더가
영향으로
누르면
악역
후퇴
##추어
해골
##브로
키가
유희왕
측정
##함은
타격을
2:
파르
부분에서
히나
피에
더군
사이드
사라진다.
##터테인먼트
##영,
낫다.
기지
필살기
##음에
##의의
부스터
작품은
##더러
사례가
샌드
페이즈
##정도로
한국인
블레이드
제7
##23
회차
태평양
69
형식으로
마법의
일행이
1500
아트
##스도
무사히
##병의
완결
##기능
말자.
##오,
##되지만
무라
장점이
태도를
이벤트가
##집이
##인민공화국
시체
위기를
브레이크
된다
아끼
##aw
전작의
공기
##pp
##.17
##ale
##이었는데
##열이
괜히
동남
전까지는
##2의
블러드
수익
드롭
터미널
파생
##숙한
##네시아
콜로
선제
화물
##하다면
이벤트를
텔레비전
##TS
완전한
캐리
만남
천사
국민의
도둑
구할
땅을
##전문
##야를
퍼포
##ike
##OU
부인
지칭
차트
걸리는
한데
가격은
##산에
부가
버그가
##령의
이용할
##고도
유격
침묵
##위권
간간
##살을
1985년
에그
##XX
##다"라고
유나이티드
비정
한반
갔다.
##.19
ED
최하
한나라
##/5
사라져
유리한
사유
새겨
있듯이
사용된
조조
대인
당신이
심심
인민
##있고
와일드
발굴
소속팀
##캐릭터
주차
자라
부근
오키
##월드
나오는데,
삼각
레이스
아기
##IM
5.
##나?
과도
위력을
와중
##용의
일로
팀원
##군에게
크기가
##VA
특징이다.
가동
폭력
상의
오라
##소와
##루와
결말
적지
마약
중첩
##온이
하이퍼
##나간
막내
음식을
##씨를
진심으로
코리아
##하길
모습도
##경우
상륙
개발한
##이동
특별히
2군
팬들에게
반박
넣을
##매를
트리플
위기
2라운드
##합을
세부
피가
닮은
##품이
시리즈에
##형,
요약
높고
기회가
얻고
그러던
SNS
##이자,
타마
복잡한
엑스트라
의상
너프
왜냐
##irl
히로인
에르
##하하
실수
팬텀
배를
##역과
##버가
교전
예언
서서히
사라졌다.
책임을
배출
형태를
##나고
##섰다.
##레인저
##레의
여유
비주얼
경상남도
실드
모양의
##라고도
##아아
##번은
철거
약탈
플레이가
얘기를
배경으로
신도
매번
올릴
##곡으로
용인
##줬다.
##블린
어빌리티
기회
허락
파는
##파는
##졌던
700
줄어든
페이스북
진실을
다녔
기가
##보자.
베이징
용서
]세)
에반
소속의
커피
##8,
##방으로
버스터
사용했다.
시원
##산시
1.2
시카
##졌다는
물론이고
목소리를
변환
##코어
건국
특수한
호감
빼면
##ook
중세
무산
오타
##면의
곡의
노리는
빌드
근거리
있었으며,
go
##배가
몬스터가
##ows
모니
임팩
##타수
대상을
노선이
##저스
의하여
##협회
##머스
골키퍼
##이었는데,
게스트
##손으로
말라고
향한
히어로즈
영원히
창단
개별
##ink
##리다
코난
##~6
서포터
##어버리는
엘리트
지키는
나라의
법정
언급된
스토리가
ch
더군다나
공연을
사건에
##키,
웬만한
보충
업로드
##연한
끊임
영화의
역사를
뒤집어
한국에
##준이
##십시오
마블
##서야
언데
##건의
무인
로버트
##닉스
교사
즉사
##함으로
##UM
htt
##미로
발표했다.
자랑하는
어드벤
노리고
인구가
소요
일부를
닌텐
압도적으로
성격을
없으므로
##자라는
웨스트
1984년
2002
개체
금액
서구
땅에
신호
감지
##스런
##인치
치명적인
대치
플래그
코르
기재
잠입
슬라이
불만을
병원
무력화
나고
##tle
상대방
##더를
##:40
스토리를
인종
쌍둥이
대선
차이는
##감에
##바야
필리핀
선수를
##ial
더이상
과목
놓은
##했기에
사도
##겠어
BL
CG
음원
구별
장치
사태가
실점
정예
공사
일에
주포
평양
스즈
초창기
장면에서
별의
번개
노벨
##로에
되었으며,
##.com
##ish
무의
##절한
##되었는데
##주며
끝으로
기아
RPG
자신들이
##정치
가만히
라이플
유의
##보이는
##시즈
퍼포먼
##되거나
Br
시즌에
뱀파이어
Team
했으며,
##미에
토마
포격
##박스
재활
갈등
##다거나
그날
풀려
레지
비웃
피터
세계에
##47
##우주
한두
동영상
측에서
3개의
원인
아니었
버튼을
아츠
##겠다며
브라운
둘을
메모
유카
사고를
영어판
1990년대
##GE
##크스
안양
##ower
버리는
당사
받기
조건이
적다.
##르며
##나기
시작하였다.
유인
##소총
써야
주장을
##오로
김경
최종보스
시위
비하
여론
다녀
바가
라인업
##디에
태어났
장탄
프리미엄
기존에
해킹
부착
##히트
##너의
억지로
##ob
야생
구슬
악몽
##영웅
취향
긴급
수능
건물을
&#x
무승
해리
고객
변화가
스테이
미즈
##공업
사형
호소
쏘는
20년
나무위키
##토,
백작
시작되었다.
##란이
직접적으로
아이러니
이룬
##-17
신입
과거에는
##민,
참여한
배정
들어오는
##걸로
기점으로
##줘서
안된다.
##바르
나머지는
설정상
에릭
##ft
동기
어리
옹호
지속시간
친한
##길을
나오기도
여지가
취득
##희는
##능력이
채팅
후기
출격
##병으로
##ach
뜻이
은신
사제
사령관
명백
##체스터
7,
초반부터
##차량
##편을
1시간
대단히
소방
루카
주인공을
남아있는
거친
일람
매니저
##이한
##공학
##므로,
##어지는
##산은
##차별
출력
##란다.
##스레
점.
팔을
Sk
며칠
##키아
돌아가는
카츠
넘게
군인
가해
몬스터의
##했듯이
처참
전승
질문에
보면서
5000
궁금
##베이터
Cl
연기를
정비
청와
##과정
했었다.
##하고는
삼아
영화이다.
호평을
콘텐츠
경기장
관여
모노
달라고
##로마
않았다고
##니까?
프로그램을
사용자
결정적인
저택
세력을
제한이
##것이다.
싶다면
시리즈를
사귀
##타이어
이웃
##순위
방어력이
170
열리는
느려
남겼다.
일격
하향
백성
나이에
처음엔
OP
##중에서
코토
바뀐다.
잘라
듯이
##대원
##질의
주인공인
스킬의
여학생
##라면서
동계
무역
통틀
##늦게
##계약
아버지를
작전을
185
##소설
새누리
체험
가죽
SE
적들을
이로써
미드필더
위력이
계통
수치가
##반의
1턴
재개
나갔
나왔던
차이를
##즈니
Sc
##색,
바꿀
인피
일행을
10분
김상
조롱
작곡가
구간이
안좋
패널
##인데다
##레어
받아서
사거리가
훈련을
슬로
자유롭게
사립
일부는
84
##당과
여기는
모스크
##:50
##ex
줄여
박물
나갈
장거리
담긴
천연
##리도
##티스
##다'고
어이
교과
점,
##이랑
프렌
##공격을
로빈
각자
##31
통하여
연맹
중형
돌연
세포
##해준
권장
중요하다.
엄격
별명이
풍부
숫자
시계
남기고
2개의
##에이
것보다
1억
오염
뜻한다.
같다고
DVD
스크린
전세계
##[ruby]
특히나
##스러워
##림의
평생
복구
디스크
선행
Bl
##사도
##니시
방치
##차에
##산,
##반이
좋아서
시청자
깜짝
Dr
고기
##AP
구경
Man
번에
##였지만,
구조를
포켓몬스터
##째로
공지
##판과
##사한
##슬라
아래로
충성
정기
##ble
##MS
##화.
또,
너는
라그
신장
전역
제독
조약
록맨
경우에도
캐스터
당할
대조
##라이브
호환
된다면
키스
##왕은
##률은
이득을
##되어있다.
##!!!
##달러
부정적인
소송
기상
시내버스
##였으나,
나오면서
he
##일리
##주의를
건지
##체와
많기
캔슬
공용
타츠
축하
진학
Pr
##ms
인물로
지키기
소식이
##.5%
머리카
김진
공립
한마디로
##살이
##혀서
##자동차
요원
학교에
##하였으나,
엔젤
##싸움
##키지
내린
중복
부드
맡게
도저히
이토
종이
편에
##경,
엘리자
김기
끝난다.
세력이
좋고
브랜
전무
##하기를
##권,
저지른
아군의
##가면
선수는
출간
Wind
79
86
##등한
돌아왔
1집
##중간
인스타
남자가
베를
##..."
수록된
##포르
버전이
##우스의
##.14
않았다는
임신
국회
딜을
후반부
축제
좋다고
카구
아서
거둔
an
##피가
준비를
올라가는
주장했다.
혼돈
##하겠다는
법칙
##먹은
동인
비율
82
부모님
인용
클릭
터져
##ree
##훈이
바르셀
기동전사
혐오
그림을
##-B
생각한
87
항의
##되었기
썼다.
##3.
##너는
치열
텍스트
##now
##럽게
1,2
오로지
##가스
능력으로
##,000원
메이플
프리미어
##역사
때문이라고
전화를
##리한
##투표
패턴을
스트레
리버풀
길게
모토
귀국
난이도는
거는
용사
##기게
프레이
##다'라는
헤르
##~8
불명.
밝은
배달
분열
##인가?
##ass
원작의
파울
조용히
##받았
조금만
마감
##GB
빛나는
버전은
연구를
1982년
105
가능성은
쌓아
##-18
모로
세이브
마스크
손오
재장전
유지하고
기록은
방식이
##스피
##네는
이상은
##그러
일본에
UN
수월
후원
그러나,
서비스를
세상에
사법
추정되는
감독을
동화
하에
어디서
##봤자
##atch
LA
테라
##후가
ID
##yle
아지
죽게
따뜻
그러면
나지
##우며
##란을
함대
크림
##문으로
아이가
##달아
노선을
사야
##The
고마
##도서
선택할
가졌다.
귀신
미래를
##전기
안녕
##세서
##보의
응용
##실점으로
##천의
##스티벌
쓰인
그래서인지
존경
이야기는
뒤에는
##400
##폭탄
얻어맞
And
느끼고
카자
##범죄
##정책
##법으로
예전에
계기가
되었다는
##안은
치면
복무
##기어
##센트
얻는다.
##-A
##엔딩
한일
BS
시리즈에서
면역
##are
스트리트
파멸
중순
##란히
선거에서
상실
악의
권력
##속의
##ug
유닛의
너를
도움으로
히토
서머
자꾸
하츠
앨리스
키타
상태에
최대의
경주
주최
1983년
배우,
탱크
증폭
에픽
카드로
##아키
##ING
정체는
##속을
타율
것이고,
성우가
출범
들어가서
되살
쓸데
2004
날리는
보통은
보정
입는
##시키면
지녔
##중의
No.
##재판
아닌,
##렸고
##~19
맞을
이어진
##매치
자이언츠
말투
있겠
연대
##eat
투척
수면
바위
##속으로
거미
철수
1편
화력이
뒤늦게
##현을
주제
전남
##해서,
연타
안타를
대량
취약
##ool
##노를
##STER
막상
가디언
##창을
기사를
외전
가기
해준다.
만나는
정보가
기둥
토요
스파이더
스킬로
직접적인
##변이
##부터가
For
40%
##권과
맡았
교도
##천만
##였으며
##권으로
만들어서
지냈다.
회상
본명은
##타니
##대사
배우이다.
집어넣
포기하고
이자
지목
세뇌
만일
##토니
캠페인
##리.
##회,
십자
마냥
20대
##먹을
##리즘
출루
파크
극히
##구간
##케이
##당에서
##작으로
##학원
##있을
##이었지만,
레이드
수립
War
유출
역시나
당신은
2경기
##ae
엄밀
##라에게
##네임
##ment
행위를
##외의
화제가
Bla
???
출시되었다.
##적.
##들처럼
스키
털어
모티브로
##바를
변화를
##렸다는
##소나
가리지
##리기도
결심
##ase
블래
##민족
##즈에
번도
##백이
후의
##페르
영역
시간의
수직
어렸을
여행을
##거든
사자
##동물
끊어
가상
발동할
##1.
시리아
못하면
들었다.
대신에
가까워
시의
없었고,
개신교
##프라
2005
경북
we
데다
##on't
가능성을
가챠
귀엽
커스
인접
불사
크라
비극
지는
##벽을
우월
##내에
합계
Star
##호환
유물
자체도
자금
함락
늘려
비틀
##티를
##사고
화력을
보유한
선임
리스
보호막
운이
증가,
가난
입주
스트라이크
상반
##니아의
##스테이지
오버워치
끝이
동영
분쟁
바에
AKB
##점.
속한
나타내는
89
상태였다.
벽을
내게
담당하는
##어에
시크
작년
실시간
##km/h
선수이다.
##지능
박지
아동
실질적인
능력치가
이세
위치하고
##션이
10개
##파크
##권에서는
##양의
되도록
##사단
요한
전투기
편지를
학력
##nt
##ous
명목
외야
up
읽어
##티즌
All
우라
안으로
스티븐
마린
##하였는데,
사로
정발
토큰
##고지
솔직
기종
공장
쉬워
##사기
지나면
낙선
가질
투명
우크라
##85
둘러싸
만화가
모듈
엘리자베
##리우스
실은
한방에
악당
##코스트
유망
"어
##포스
##/20
슈퍼로봇
유재
##-C
##심의
추방
사이코
않다는
##추는
가리키는
##식과
어벤
##나로
딜레이
##신도
들어와
제네
제공하는
찍는
##미사
##조선
##었다가
결승전
상점
야쿠
신데
##하곤
여기서는
##er.
생길
##시에서
칼리
##서울
##이었을
손님
오브젝
##법의
제트
##릭스
엔진을
LP
##민을
두들겨
반짝
배려
아이템이
복수를
발매일
연습생
지경
너희
확장팩
복합
차지하는
리치
##하면서,
분기
억제
원더
##반을
##석에서
##초의
기술로
중화민
대통령의
느꼈
##저런
기기
동반
식량
쪽에
##박이
함부로
구미
분해
슬라
3세
수의
일렉
나뉜
증가합니다.
##절을
물이
##우라
##way
트라우
##프에
##우면
##ason
빛이
시로
7년
##올림픽
##페이스
트루
##67
##치아
뜬금없이
##하지도
3명
##벌레
##준의
##용은
##모는
125
3.5
부적
전파
교장
상황은
##-14
히틀
방향을
호불
##iki
못해서
5위
##분,
위치가
##리아가
활동하고
사용시
73
##히게
날이
정상적인
사건은
##니까.
알라
##az
설치되어
태풍
하려고
주의해야
##신,
근대
중후반
끌어올
본격적인
3점
전원이
여럿
아인
따지면
##AY
결론
물에
우에
##아야
진행하는
계열의
뚫고
안정적인
매출
아들을
테일
##렐라
사실이다.
'오
마카
상하
오크
##-J
##관련
거론
왕조
소문이
전라남도
##노동
마루
여성의
##되었으나,
##"가
Gam
##카운
모티브는
데이터를
코미디
싶다고
1945년
국정
폭탄을
71
##식,
##저를
2명
서로의
##가게
사회주의
흔한
유래는
##마치
+3
아니기
나노
데이비드
여섯
##포트
##서와
전력을
무시무시한
주장이
캘리포
반해
##비치
진격
##자라고
##?"라고
##장애
일방적으로
루이스
지워
동경
도착한
##법원
작품이다.
알려졌다.
DC
벗어
##목이
초콜
##지나
##노트
폭파
10대
묻자
쫓겨
너무나도
SF
문제.
여기저
1호
##조합
##터로
야간
비유
##강의
##ary
논의
계획이
일본은
일어날
##번과
우익
##졌지만
모습에
독재
##내면서
##것.
##act
사고가
앞의
자의
먹으면
들어갔다.
가진다.
심사
보건
안의
충분한
네티즌
##%가
소중한
##-09
상태이다.
One
##금은
거다.
##키스탄
ne
클라우
넘어가는
와카
##타점
##층의
New
기도
이르는
##함의
저는
복제
##표가
성적이
막강
##시대의
말로는
남는
##곡은
4개의
##무의
##회복
대다수
CS
Part
3부
진정
시,
교육을
##상으로는
알레
주된
##었으나,
간호
인연
1981년
지향
##리스의
느끼는
##건설
퍼져
##어요
넘치는
혈액
담은
##마냥
전날
인터뷰를
1사
##이거나
대해서도
구역
정도를
인게임
번째로
81
교토
말레이
스캔
##마일
있기도
그녀에게
가벼운
World
사용되었다.
사단
폐기
뜯어
별도로
나중에는
##감은
부작
##ai
##과대학
경악
대표하는
##득점
토르
이걸로
##태를
데미지는
On
##께서
전쟁의
최근에
디자인이
바른
##잡이
누군가
시즌2
쓰러트
일본에서는
##시켜서
미루
##600
1970년
FW
못했던
샤를
스카우
원소
NE
JT
##봐도
서로를
기대를
어쩌면
##적으로도
배가
좋아한다.
선수들의
우호
##론가
포획
오락
오스만
식민지
육상
막대한
##었는지
##번으로
모터
바이러
입장에선
부동
쓸만한
할수
후임
##놓는
학생회
호남
PR
옆에서
작화
퍼즐
175
아들인
약화
1980년대
낸다.
차지하고
동해
개인의
골렘
공방
상세
##플러
##CG
에디
##소리를
즐겨
##시청
발견된
단위
나오게
뮌헨
남을
번의
정화
일부가
반응은
도적
재회
것이며,
조리
움직임을
스나이
없었고
IN
##차의
D.
포스터
이집트
서클
##통합
방탄
충실
1979년
사망했다.
##ife
10만
주관
##석으로
##해줄
##UP
##버스터미널
무섭
길어
##1의
스펠
세번째
##ade
스킬.
##mer
왜곡
온천
올드
문제에
친일
##부인
UP
대동
드라이브
매주
스코틀
우크라이나
##리던
넘버
벽에
둘다
전락
배급
상태의
사진이
가요
사가
서바이
##터널
##감과
바이올
자유한국
달리는
드라이버
모집
무리가
##배치
##a,
의식을
##교가
규모가
개척
##p://
##워즈
DE
이른바
거라
제자
유혹
##되어있
체제
##ven
끝나는
조우
만들어낸
되어있다.
##오스
수여
연봉
아군이
##.24
유기
누구도
충청남도
통칭
감싸
사퇴
0.3
표정을
하늘을
말라
눈치채
##자료
4인
갖게
싸움이
필요는
했다
##i-
##련의
도와주
보냈다.
진주
##능한
러시아의
개를
아베
평가는
3의
##바는
춤을
받으면
##w.
소장
튼튼
선택한
기분이
##카르
아시
##ank
BR
##리거나
질투
리드
등장할
##aby
##타마
이니
##되므로
독점
해산
상대방의
8,
##~10
CH
연령
한방
범용
##테이션
만만
동일하게
도박
##해져서
##처리
성향이
##무는
##책으로
유입
##볼을
에밀
##관계를
##사에게
우측
일시적으로
여의
설명을
##-08
##ps://
마신
싱가
##커는
오다
트라
실현
##행정
##런트
사정거리
운동을
싶지
학습
오페
##류는
##8년에
튕겨
##스포츠
콘솔
##선생
##평을
사신
손꼽
순수한
##메리카
##88
긴장
한창
영혼을
베테
##일과
무기의
실질적으로
노무
싶으면
네트워크
##스:
이동속도
상대할
이오
달하는
비가
##보호
밝혔
##음으로
적용된다.
학교에서
##lect
PP
황제의
경력
에리
##룡의
##색은
싱크로
분당
##공으로
여성이
##시스템
주역
GB
밤에
##연맹
사이클
배차간
히가시
감독으로
##-07
##터와
전장
이곳에
주의할
배트맨
##gin
보이기도
유적
산탄
##몬의
단종
거두었다.
바꾸는
기다리고
##앨범
짜증
간간히
부산광역시
포스트시즌
92
토너먼트
드루
막고
##'이다.
##박한
##로이
##들에서
섬의
##저항
이유도
제1차
내성
##해주고
휘둘
##CC
포수
구름
이누
품고
수염
올라간다.
트레일러
##내에서
부르며
조언
체중
부르고
내용의
##리칸
고속도로
기술은
이겼
천천
끊임없이
코인
간에
이순
인도네시아
##문제
##버튼
##이었으며,
수습
모드를
걸린다.
등극
스쿨
철학
단행본
논리
##서도
##처를
##마츠
공격해
##강을
쿠데
기생
집권
베타
청주
상한
팔아
모두를
##:0으로
##본부
치킨
케이블
짐작
사업을
좌절
가담
커맨드
##oon
##경기에
볼트
분포
##본다.
패밀
김해
상태이상
부유
찾아온
미노
김준
되어버렸다.
차량이
5분
되므로
AN
##ork
로이
방영된
##데레
제노
##되어,
집합
##만으로도
살아있는
##게이트
##링크
틈을
설명은
맞춘
경우를
##국,
맞붙
뿐.
드문
시작할
언젠가
농업
우르
주목을
인격
일대
##AK
퇴각
##oll
마라
업체
하계
노가
##히면
Mar
##조,
10초
90년대
쓰게
고쳐
신경을
지키고
are
더불어민주당
주니어
불태
안심
청소
이런저런
스타리그
수류탄
판결
무술
1경기
사랑의
도망치
6개
##티가
##hen
##게이머
사천
##터,
##대문
##미노
##네이
캘리포니아
츠바
##께끼
모델이
배드
북한의
'어
내각
##리아를
주택
호의
리처
##도리
장관
94
패배를
불량
장신
페스티벌
6개월
확산
머신
게이머
##드래곤
믿을
##미한
##품으로
##생활을
##당,
히든
모습.
##br
도시를
##집에
##러브
올해의
##AA
##CE
터널
##구청
흑인
합동
1:
워크래프트
노스
설령
뿌리
##에른
결투
'자
연쇄
투사
1장을
사망한다.
해양
##라미
##음은
던지는
##레오
개성
기다려
##래시
최적
무소속
사로잡
해당한다.
차량을
기억이
도루
차이로
지정되었다.
2편
한가
##겠다
커서
##비행
##층이
싶을
얼티
LIVE
해명
마치고
##했으니
아니지만,
모은
##길이
열매
살아남은
낙하
지도자
스타디움
찾아볼
권유
것과는
kg
평일
선사
기갑
퇴장
강경
당한다.
딸을
정책을
국경
##쿠스
가능하며,
이번엔
+5
첫째
##렉션
승리로
유성
유용한
초기에
##퍼가
다닌다.
형태가
그렇고
정해진
##누스
스텝
발표한
벨기에
불행
누나
쳐들어
##나베
배제
불의
##베리
폭행
하시
듣는다.
##내어
지리
기후
명문
##하여야
##고리
등도
시리즈가
##국과
싸운
역사가
##민주주의
따르는
시작된다.
복원
정신이
순으로
규모의
되었는데,
나라를
어머니는
경직
시키는
##곡의
있어,
##과가
약점을
헨리
걸그룹
비율이
즐기는
겹쳐
장남
##보지
상징하는
치러
##4년에
플라이
##레옹
하반
##파와
잡아먹
것이기
느리
입대
##6년에
출신으로
5번
여자가
시종
NH
갖는
취미
제작진
전쟁에서
뿐,
##으라고
손이
##킹을
재직
조회
##들에겐
지연
최저
##이후
대변
슬레이
피의
##클래
패널티
##리라
##가에서
영주
탄핵
1화
설명이
내리는
##으려는
##혹한
그러니
용이
부르기도
가량
그중
우위를
벌인
유이
대전차
코스튬
짐승
바둑
지지를
증오
정류장
Fe
만주
리타이어
##지만.
##초를
##질은
있기는
다이아몬드
의미하는
크레이
##카미
##겠지
구간은
##본을
그외
사고로
플래시
##크리
##ox
초등
어렵지
##형과
위엄
바이에른
83
의미는
카스
##목록
말하자
지원하는
재건
포지션은
일어났다.
커스텀
볼수
기록하였다.
이전부터
보스턴
회사의
대접
##들이나
##기준
##가면서
반지
딜링
다큐
목적을
##96
버섯
전송
토우
콘스탄
10.
지냈
권력을
실전
900
분산
완공
개념이
천천히
##생명
상황이었다.
연인
##행위
쓸만
토오
생방송
##거래
##-02
사이에서는
실수를
지역이
편에서
위주의
흐름
Mk
통계
이곳에서
성과를
##이라이트
AFC
김용
##경기를
끼고
##면으로
##7년에
나빠
##쉽게
이어져
##메라
자전거
##작의
##령으로
대수
##법인
lv
##분으로
클린
모르게
##테일
##리스는
모델은
마찬가지.
대마
그곳에서
##야와
파고
##리아는
##오지
##티는
지고
휴식
##믹스
##er,
어색
나오며
체감
##들에게도
##장비
세웠다.
반란을
루나
감정이
축소
경험을
##="
마을을
수수께끼
난이도를
##너를
##복지
이병
이대
아버지와
이번에도
시체를
원시
케빈
1,000
매장
어울리는
로즈
##탐정
##트랙
일기
힐러
특성이
거북
##.S
##당하게
진행된
않았기
대사는
##여행
시마
많을
힙합
무지막
배터리
전망
##확률
데빌
##방울
수요가
##재의
6.
웃는
오스트레일
가져다
'사
##바퀴
세우
##입구
믿는
나누어
소프트웨어
1의
아니더라도
우울
관계는
6년
주면
사사
사이즈
위성
아레나
쿨타임이
can
있겠다.
만드
##히코
신선
##디스
조기
백인
브라이언
캐릭터들이
##프라이
##가드
로맨
##마귀
##very
나폴레옹
어드벤처
용어
허무
마틴
구축함
어마어마한
기본으로
전쟁에
I'm
페미니
도시의
일행은
끝나면
발로
히메
후반부에
Fate
여타
지진
##~7
싸움에서
어머니의
공헌
위안
##티의
무지막지
Up
김일
##자책
논쟁
좋았
거기다가
항목을
지구의
신사
올리고
##uck
있다!
##인지,
이외에
역의
길고
후보가
악마의
돼지
##실과
유료
10,
##시키며
##이라기
그러므로
제8
3:
하쿠
##백과
##지며,
속해
철권
타이틀을
##지니
강릉
입증
구독
시게
##피해
선수의
BB
봤을
정체가
그리고,
##}}
때와
##청을
때문이었다.
가능하게
##ah
##온은
보험
사나
얼굴에
마음의
글이
피부
주위
##수인
신속
오기
##-P
##초로
##금으로
수석
##-06
측은
##뉴얼
##칭은
바뀌는
주류
쇼핑
넘기
몰라
##태가
포인트를
메이드
파밍
피어
붙인
어지간한
3층
않으므로
안타까
도시철도
점유
많은데,
##포는
##네를
##운의
##들끼리
베테랑
수색
무대를
##팀을
모에
포함된
공무원
적당한
기술의
하나다.
다운로드
보좌
스핀
놓여
산맥
do
설이
누군가가
초콜릿
사촌
##반에
##팀은
##저리
##두면
##igh
##바시
깔아
##건지
엘리베이터
Ad
신형
호불호가
'마
##cc
봉쇄
##A의
성격은
##작은
고무
##분은
##일지도
##시간에
OS
##드컵
발키
플레이어에게
모델로
왕복
##/6
##해온
소용
잉여
후회
국제공항
##드라마
충족
공수
##한데
1일에
##까.
전투의
포함해
표현을
무거운
##블리
정반
테니
크레딧
##노스케
##화하는
마운
가공
일관
all
고통을
##정하고
##시아의
동행
없다며
신용
획득할
잠수함
##/12
비스
시청률
##쿼터
##환으로
드로우
히비
실패한
##동맹
##97
피해자
마음대로
##천년
캐릭
일자
입문
했으며
부분이다.
도쿠
오우
아저씨
공업
수단
더해
도덕
##위대
##ung
정도면
사람으로
자국
플러
회색
학부
결정적으로
##동에서
일곱
말.
아래와
교차
##오버
빠르고
##졌으며,
열고
##노와
##.0%
노린
창립
##스와의
##호에
DD
어나
양손
하마
본명
##결승
2주
부부
크라이
승진
요리를
생각한다.
DPS
움직일
1973년
임진
##ical
스탈
힘입
천황
제안을
아이디
성우:
##밀한
학교를
침투
프로리그
올바
레벨을
뽑는
손해
아스카
자존
메구
2003
시뮬
##ype
등번호
배운
##온을
##했듯
##되었다가
축복
이해할
철저히
나뉜다.
##있었다.
디자이
##-01
주축
##ARD
##내서
##훈의
##으면서도
교류
꼬리
##로이드
##도도
있었으며
al
호시
##병은
##되어야
싶다.
##녀가
##희,
오면
특징을
긍정적인
##란드의
와이번
할로
잦은
적게
##.O
사서
경호
미묘
차고
Day
##5년에
##성한
##줄이
ML
##orn
규격
동급
단어를
##철이
세팅
##te
전체에
1호선
삼진
고지
차량은
9,
지붕
나타났
간섭
너머
성적은
영어로
->
토리
상하이
장례
죄를
So
맨체스터
쓰던
일본이
후방
화산
초당
후일
##지는데
다음은
##다던
감수
남기
##풍을
왜냐하면
##보우
지역으로
소규모
지켜보
적시
할때
태클
빌런
##차게
##츠와
특정한
발견한
죽으면
인식이
##마로
프로듀스
먹는다.
싸우게
리그에서
##저는
것들이
강간
손쉽게
올라왔다.
남매
소문
정권
하려
극대
냈다.
##니코
덱에서
스즈키
것입니다.
잊지
나이는
듣게
엔드
프로게이머
최연
생각은
디즈니
특징이
놀라운
아까
훔쳐
고블린
##들로부터
184
메카닉
그렇다.
그대
수동
##리드
사람과
드러난다.
하급
상주
1초
북아
인가
이때는
##IR
##2년에
##세,
올라갈
의문을
##루미
블리자
부천
##화되었다.
##형에
##애를
##릴라
이모
##했음에도
##ero
미국은
극도로
디펜
엄연히
##스.
특이하게도
뜻으로
트릭
##조와
해머
##교사
##파워
총선
진에
건네
전향
##공화
##그레
2사
##y,
디자인을
반도
스피릿
할인
분노를
궤도
##히메
멤버들의
기사단
Windows
1패
한번도
활동하는
닌텐도
잠실
압축
큐브
여부
스포일러
##-KR
받기도
115
##-05
묻는
##anc
멤버가
상식
일하는
초상
김유
결혼을
내렸다.
스티브
비용이
1st
기묘한
##.26
뚜렷
소속으로
{{{#
건물이
사라지고
끝났다.
에어로
##폰을
인지도가
##투수
도깨
썬더
20세기
2nd
답답
보구
한계가
360
##.28
납득
##쉬를
프로레
Station
##다"며
##아도
대가로
던진
이루어졌다.
조별리그
가능하며
작품에
국도
킬러
##퍼를
벌어지는
관료
피로
베를린
##미.
예산
JTBC
하라
##~!
유니크
치즈
승부를
불쌍
##당으로
##베르크
##줄을
숫자가
##wiki
영향력을
##포인
제목은
끔살
우루
방어력을
깨끗
죽었다.
중거리
단위로
온다.
잡으면
특급
##iver
##ich
##?!
문제의
##면서,
##십시오.
##/s
많은데
되려
명칭이
트래
호수
1.3
En
키라
오렌
헷갈
##사나
매체
벌레
##까봐
2010년대
우회
최종적으로
보상으로
찍고
무난하게
어그로를
그거
이대로
기름
##OO
BE
요소를
절친
아니라서
시골
알려지지
적으로
물어보
서울대학교
##속에서
리틀
##네마
박성
살던
##하르
시즌이
브래
DP
##병에
##int
##1년에
운영하고
양자
경기에서는
마을의
거인
보이스
Oh
모순
##리는데
토트
전적
미국이
OVA
##음의
돌고
BPM
멤버로
초에
93
거라는
시가
흰색
챔피언스리그
원작에서는
운송
##니즘
1960년
유학
GO
항공모
드릴
##+0
들어왔
##시스코
##맨을
출혈
2집
디시
말씀
지낸
날뛰
것이고
내부의
공산주의
시점에서는
##urn
김승
##버의
##강화
국적
부숴
##락이
선수권
당초
레일
홋카이도
##스나
영화는
핑크
슈퍼로봇대전
김포
친척
프랜
2승
하이라이트
법무
일요일
##병,
오죽
낚시
돌아왔다.
미션을
세계대전
방식의
깎아
역이다.
비난을
셔틀
조치
##파,
산하
영향이
밑에서
##대체
슬픔
노래가
##ock
때에도
KOF
혐의로
##9년에
진행된다.
DS
앤드
블로
에피소드에서
롤드컵
##담이
말과
##중국
사용해서
여전
100만
이해가
하단
##ence
1등
좌측
안경
##년이
##시기
섀도우
전,
이럴
실패했다.
과거를
NBA
내부에
비서
확정되었다.
서포트
미키
##야!
엑시즈
##시키지
보편
모자라
생김
##IV
미국과
##ise
이현
##MC
일으키는
내에서는
##리스를
3~4
굉장한
누구나
공간을
##감으로
##병과
##바야시
개봉한
CP
비롯해
아이들을
멍청
마드리드
##ㅋㅋ
##스틴
신부
##m,
인스타그램
love
편하게
방어구
##장도
진행되는
평상
드러났다.
밀리는
이틀
##-JP
담배
##추가
멋대로
##재는
최상위
뜨거운
##생으로
##'이라
원주민
상무
곳곳에
적군
##700
진급
##초,
평점
##ep
##42
라스
##자유
##환은
##시간을
만들어졌다.
차원에서
고난
##자들과
모습과
안타깝
역습
##거라고
바나
##수이다.
잃어버
프로그래
모습이다.
야마토
2위를
##영과
군의
바뀌어
센트
##.A
스트리머
위상
##변을
마을에
그러면서
골라
편하다.
담아
##조각
정상적으로
국무
##자로서
조합을
영양
평행
영웅이
지나가는
체인지
마오
않겠
합리
##작전
에이지
불참
게임이다.
연산
##신에
보내고
183
김지
극단적인
전격
질문을
되돌아
변해
##더는
그레이트
음모
선보였다.
토니
총리
##보에
##식에서
##자이
이름도
재미있는
끔찍한
##저우
즐거
그릇
##딜을
추측이
아직까지
즐길
일단은
일본인
종결
1레벨
다이어
Ph
목적은
자원을
않는다면
Sw
벌이는
디바
##열의
##되었지만,
사우스
이경
징역
찾고
##.com/
##ii
패배한
움직임
존중
추측된다.
의지를
있었기에
##하였다고
시작해
면모를
토요일
야수
스스로를
원조
##원.
추천한다.
소음
##미에게
버틸
그후
주행
세라
승차
2세트
되었으며
##화에선
##되지는
스쿼
용암
##내려
##들고
고소
##."라고
생체
백업
조건으로
##미르
##'고
##공은
##량과
##SS
양이
실제로도
곡으로
소속사
살아있
잃어버린
변한
주소
주문을
이상하게
##피안타
신발
라이온즈
잊혀
무기.
김수
##삼진
##석과
죄책
##활동을
무서워
옵션이
IT
##아나
##49
텍사
##모습
적절히
트리거
##계와
##브레이
##00년
##들까지
##동시
기부
열혈
##질적인
##박물
자료를
일컫
판정을
사항은
강도
필요로
설치된
##토스
##uk
황제가
##량에
동점
라며
은폐
##하,
통째로
가져온
하우스
##"에
테이블
##건은
달의
뽑을
##다닌
To
##타리
2에서
수상한
싸웠
##장이다.
##민과
자칭
##성에서
병력이
카리스
꼬마
##형태
발탁
시에는
원숭
침몰
##했을때
##초가
108
이후로도
조차
##해야만
싶다는
##파에
##하르트
시모
계정
맞는다.
연출이
from
##대교
128
여러번
쓸모
탄압
업무를
돌아갈
정교
공중에서
19세기
것인데,
##ens
지속적인
부패
인공지능
조언을
##다'라고
신데렐라
인권
다시금
반전
조카
##타에
학생들은
공격력의
sp
외곽
감상
##값을
매드
아스날
문제점
ex
'미
속성이
##고와
##장난
##ign
##달라
한국시리즈
국가가
묘하게
어려울
흥미
##!"라고
레이블
데이트
이야기.
##래의
3기
TVA
뭐가
올라간
##퍼의
두드러
##.22
해치
##카라
##하늘
방식은
분할
했기
##아트
사실에
편은
##테니
##습니다!
마친
본토
##족은
선수들을
칼로
이기고
##지는데,
영화가
A.
##ose
제작에
실내
##거라
쪽에서
Do
##노미야
중지
이르러
##두로
유엔
불리한
굴러
가치를
아르헨티나
들지
좀더
진실
##화점
##사리
선회
패턴은
같다는
마산
얘기가
시작하면
##하루
##안전
참모
##.1%
기적
어려움
##기념
행동이
죽이려
붙는
문이
장성
피하기
대부분을
목걸
에로
as
예쁘
##제도
버텨
이원
##MB
내용이다.
이어진다.
Con
##다라는
##전까지
진행되었다.
고르
어설
턴에
메이지
조사를
5대
탐사
날,
##액션
무효화
데모
몰살
사람이다.
##방은
여기에서
끼워
인벤
키요
남동생
세계로
전동차
위와
인상을
##ru
버전으로
입지
##버드
개교
이케
많지만
시사
퍼스트
격려
측의
가리킨다.
프론
이노
변호사
리오
이가
분노한
드물게
아스트
노선은
유럽의
##오기
갇혀
가능할
승률
초청
식사
짓는
편이지만
맞춰서
예시
오를
아무튼
특전
인물은
명칭을
##문,
##버리면
고등학생
이브
중장
사무라이
좌익
유비
##무늬
USB
방을
권한
순환
'나
##장치
##독한
##훈,
하루에
개장
대가
##.27
코노
##자였던
this
억울
##편으로
##뮤직
이루는
착한
씨앗
총합
간단하게
##채널
아비
지점
총독
##카페
방법도
약속을
목표를
사와
섞여
떠난다.
ERA
떠났
색이
##~1
##출을
##세기에
##스트는
지혜
변태
이윤
언급된다.
힘의
엔터테인먼트
검술
##프란
##활동
노력을
대통령은
##론과
밖에서
타이밍에
##버려서
##htt
성공적으로
방송에
##"이
선진
왼손
무난한
급격히
##부키
##mp
##탄은
히로시마
##문과
대면
뿌려
주제가
부친
##채로
유용하다.
##창이
게임.
##펙트
별명을
##레인지
##네요.
##록을
바꿨
발발
신중
노조
##인데다가
사다
들어가지
중력
at
없습니다.
수감
##국인
##플로
맥스
이기는
만능
##IX
##포,
한데,
##두를
있거나
하스
키를
아이들이
민주주의
실용
주술
##해하는
공인
없었기
##78
##하듯
##적이지
곤충
선발로
미나미
두는
약을
일어난다.
잘하는
캐치
터트
1%
##린과
91
트위치
남게
떨어질
향후
화재
##/8
##루션
##oug
올렸
높아서
발레
##근이
시리즈는
에피소드가
보스가
##병기
최악
##에게만
모드로
##으니,
참가한
##견을
모르겠
##대기
##우스가
##ans
강림
듣기
##된다
소련의
신나게
##시내
힘입어
모스크바
0.4
구간을
일리
+4
오이
##심은
아닌데
##다"라는
뜨는
##나미
자체에
경력이
안습한
중고
III
나왔을
조선의
발각
에디션
피카
바라는
플라스
표면
##는데...
##.29
유니버
표절
사이를
기록하고
##즈에서
미래의
학과
350
이마
시카고
놀랍
이그
##딜이
스매
##공개
가성
뜬다.
여우
##훈은
묘사된다.
보드
##ey
마스
비공식
그들
마찰
자제
##체제
저작권
높을
애완
하인
Super
육체
결국은
구리
공격력은
따르
10회
미성
##글을
3가지
4번째
떠났다.
엄밀히
##현과
이름에
##막이
##몬이
오메가
거야.
전반적인
아니게
뉴질
##플라
날카로운
같은데
시대를
두개
##엘의
까는
전라북도
실존
이탈리아의
표지
난사
##칭을
그해
극중
##ash
##받게
플랜
##만화
##상승
점수가
고증
소중
##.30
배경이
감각
이태
두번
카테
밝혀진다.
경찰이
언데드
마피아
많고,
여담으로,
3턴
연간
##나.
없으나
메이저리그
빠르다.
유산
친애
##다와
##풍의
##우치
##한,
##금의
때만
인해서
##다보면
보낼
파츠
약혼
공무
없어도
상태다.
코스프레
터진
주어진
##파괴
##오면
##느니
앨범을
세월호
진지하게
딸이
대다수의
EN
##형인
##철의
한국은
자를
라스트
##린다는
##네,
##군에서
##IL
##후보
해준
국내에서
무자
탐색
##물과
##자이자
style
MG
보스를
분홍
착륙
##천사
##당초
카네
피지컬
ON
엘레
챌린지
AKB48
높여
방사능
심각하게
됩니다.
##니에
네임드
정규시즌
매각
카지
내에서도
'가
미쳐
잡몹
대결을
탈취
멤버들
2001
다이스
법을
포탈
상관없
단발
##런스
시크릿
특화
라이언
있다며
##됨에
버전의
##usic
필립
떨어졌다.
맡는
1950년
##상가
헬멧
##중이
##www.
HP가
감탄
까다로운
##보인다.
##전에서도
발매한
##oh
##었다면
##랄한
공부를
똑같다.
되어야
1.6
이전까지
전통적인
승자
명시
심의
##3년에
드래곤볼
##다르
존재로
EXP
단독으로
##히기
무대에
이른다.
##피는
중량
2장
메디
그렇기
3경기
이별
3분
거지
일반인
고립
엉덩
형편
발음이
태양의
따라서는
있어서는
목적이
##검사
짧게
연결되어
때를
못했고,
투쟁
비전
돌아간다.
생김새
광산
지방의
갖춰
##분한
앞선
##티노
없었다고
이벤트로
불타는
무쌍
##어에서
저글
한꺼
활동이
비판이
시바
178
예수
주인이
금강
뿐더러
마땅
행정구역
압권
##혁명
2호
Dream
반면에
여기저기
명명
산타
##츠카
##이크를
모양이
이쯤
##천을
현재도
심해
전략을
용산
##아머
##지대
''
##.13
유언
곁에
덧붙여
미궁
다닐
통틀어
쏘아
##년도
12.
능력도
경연
필드에
##쾌한
##년간
게이지가
휩쓸
조금이라도
프린세스
중견
안정적으로
TR
고개를
빙의
새누리당
##념을
팀에서
##족으로
레인저
모인
오케
학교의
저주를
인사를
##링은
바라보
병기
보자.
할지
제공한다.
##심에
학생들의
치고는
아랫
##례로
파란색
불어
##구장
##딩을
##환,
##불가
시작하여
의사를
토대로
2만
##소리가
생각하지
ld
노바
빠지는
재학
##정당
no
구동
드러내
프라임
##다!!
1세트
##항을
##고기
검은색
무작위
소집
##ari
취업
이라크
시합
지원한다.
##ode
흡혈귀
소라
##문에서
정원
장착한
써도
##열차
순서대로
뒤의
이루고
미소
##사격
되었던
올라와
1단계
##공에
우스
흐르는
##-D
토트넘
RA
##그를
존재.
##-13
스컬
알지
##용,
쓰러진
한꺼번에
멘붕
적들이
깨어나
좌석
##/7
능가
##롭다.
5성
저렇게
##작인
단어가
##킵니다.
이름이다.
발생했다.
##카드를
##맨은
묶어
받아야
확인되었다.
주인공.
##ition
복사
##였기에
지구를
현대의
##디와
ldms
##연,
상담
버서
##app
실력은
##이라고.
주니
없어진
속도는
라인을
Sch
든다.
##령은
갈색
주인공과
치료를
침착
공이
##/등장
부속
##'이란
성향을
모나
##혼의
서번트
걸리
##엘이
부위
##MAX
2단계
나간다.
##린,
##리아,
키우
오고
화폐
##계,
넘쳐
##글라
바이러스
벌써
별개의
##CD
전투력
백제
##아닌
니가
폴리
안겨
우치
##두의
이빨
##ye
다가가
##지거나
##급은
"너
여태
시작해서
깊이
매그
ldmsys
##타인
##소드
##겁게
다루고
본작의
##"으로
공원
찬성
통솔
##망의
미사일을
카카오
등재
점에
기껏
허가
해에
##주면서
1.4
애쉬
하필이면
병과
우두
##뿐이다.
Pl
##피의
나이로
Season
마유
##제작
주무
공격의
살인사건
대회에
세레
대상의
##00만
IM
5초
반동
##훈을
##ild
9시
##개혁
##어버린다.
남아있다.
할로윈
에메
##!?
무엇보다도
##음과
외형
Vol
팔라
##빨리
이천
##ail
220
엔딩을
종사
##쪽이
특징은
중국에서
##하고도
카더라
하여금
스위스
애용
##거의
##았다
##.2%
아처
이명박
급속
내셔널
스노우
##나르
재능을
어그로
청나라
박진
보상을
##매니아
부대를
숨을
##+2
##터에
##앤젤
깨닫고
덱을
참여했다.
역사적
대피
성의
##:1로
제라
실린
피규
그렇기에
시외
음료
##++
아르바
아가씨
##주자
##대신
##우스는
트윗
비행기
검토
'신
어렵게
좋다는
##히토
##졌는데,
##쿠의
가능하다는
테츠
발생할
조합이
받았다고
검열
위해선
준수
##론,
##았으나
중소
상태이
깔끔하게
역이
##들여
극한
Girl
##와이
보라색
PV
아자
의정부
초인
가져가
광명
타운
유지하는
소재지
후쿠오카
저렴한
섬에
##배로
되니
##텐데
실사
당대
도망가
표현이
##총을
어째서인지
뻔한
선포
증가.
일행과
암호
##범이
앨런
남자의
실려
암컷
이놈
##돌아
Or
태국
나눈
##쿠가
탐정
아마추어
##레는
BJ
제치고
##".
##세와
##-M
240
드러난
모양으로
전인
나타났다.
타이거즈
불만이
##때마다
이처럼
이진
팀으로
팔레
특화된
3개월
신동
##지사
아마존
싸우고
1978년
달라진다.
##중.
바텀
##amp;
시범
##리코
##연은
포도
스코틀랜드
바람의
로렌
##전도
##메이트
유틸
##쓰는
피해량이
##ier
쓰기도
Qu
황태
태워
드워
디스플레이
##수에게
DNA
##리타
충격적인
김주
소수의
##.E
녹아
점과
않다고
'고
##드에게
활용할
있음에도
##클레
월간
않으니
##수리
무엇을
선을
##커로
상대로는
좋지만
종류가
179
어나더
그렇다
주교
봐서
##이센
네크로
상을
##됨.
나뉘어
CM
##41
오른손
##,0
##군요.
누르고
"오
7.
불타
##택이
원래의
##이었으며
타이밍을
해보
##마니아
##하였던
##녀의
##액을
적고
자책
##조한
##량도
Ed
##테크
운영을
특히,
집필
##자동
오르는
##이나마
방위
##준,
감옥에
배울
재앙
않을까
혼합
LO
##항목
##up
통하지
##절이
꺾고
대의
뛰어들
중화인민공화국
최우수
아니,
##나에게
땅볼
##69
##는지,
2분
중부
직선
공격속도
TS
불멸
승인
AV
과장
연고
페어
상냥
not
손상
스텟
직전까지
남동
원작과
Fl
감동
##킬을
포착
##로서,
8개
어머니를
유니콘
##등으로
인천광역시
클론
허리
피난
운명
##구조
##시키고,
##-03
"우
##able
도서관
##졌기
##하기까지
##치고는
내려가
Night
##가루
무언가를
##무로
개념을
##어!
이쪽도
##해야한다.
주인공에게
김광
'S
##있지
11.
##CS
거짓말을
랜덤으로
아닐까
무료로
선수들
개명
##:45
보여줄
성직
##프스
과정이
순간에
아유
인간과
저하
되지만,
병행
대기시간
높지
안고
입구
아사히
##미디어
아포
만렙
##보컬
##.8%
몸으로
자율
##"라며
##리에이션
미정
섭취
이동할
섞어
동맹을
유저들
사투
속성을
모두에게
보여주지
##math
고고
다케
포장
인쇄
##코스
##년의
로스앤젤
눈앞
##해볼
##삼거리
플레이할
모종의
신을
초과
##만큼의
신생
##책이
FM
몰고
폭로
자,
##니카
##할만한
다리가
##~9
작품에서
해소
1974년
차지한
아버지인
흡사
출신이다.
##리스타
피스
오노
##랍니다.
EV
일정한
전당
##오르
Col
막강한
영원한
최정
##파일
##관계가
즈음
재배
틀린
본래는
캐시
아군을
준결승
단백
1972년
울트라맨
사용되고
랜드
##.7%
설립된
고성능
펀치
부탁을
##sc
거리에
여론이
사용가능
들어가게
남한
발사한다.
그렇다면
올라왔
가루
현상을
근처의
인텔
웬만
이야기도
##iel
그려져
리볼
방식이다.
OG
악화
적힌
주거
##ject
##스토리
##,#ffffff
##천군
##으신
않습니다.
개가
우린
살게
제목으로
찔러
##풍이
감이
아픈
전담
##있어서
영상에서
멤버들은
모아서
주저
##더니,
##준은
##간을
##코드
빌리
참여하였다.
##오피스
##오게
아니며,
수급
본능
포로
시험을
선박
타이탄
사라지는
##뉴스
공격적인
##ron
근처에서
##게,
평소에는
했다가
##-R
두루
핀란드
##EL
##건,
##-04
##유는
올해
##배의
공간이
아나운서
##았는데
##종으로
괴수
##실점을
사이로
주제로
##게는
바닷
##.....
그려진
##론에
면허
아울
화살을
여자를
##면은
장본
쓰이지
학생이
겪은
꿈꾸
못지
남양
##시민
##리츠
NO
##eth
메트로
얼어
##위와
사용을
##생물
중국어
Pre
##쪽에서
운행하는
다큐멘
##하자는
##매가
높이는
버릴
##코에게
이동하는
포함하여
슬퍼
기간이
##스테이션
갖다
몸통
측면에서
##주인공
암시
그리핀
정도만
신비
재발
##등록
##안으로
##견이
위해,
많다는
이익
인간은
그리하여
##나도
보이며,
악명
경부
##대고
벌어졌다.
30초
밀어붙
##화:
아슬
아수
##즈로
미소녀
일본판
공감
때문인
La
위험이
발명
이때부터
##불을
##채를
레이싱
줄여서
찍을
슈트
##ody
고대의
관리를
강아
프랭
공식적인
생명의
30년
##족과
작품.
그란
한양
##도전
믿지
항해
1세대
##들어가
##되지만,
우정
##하신
##층에
##마르
소환할
동북
토크
##희를
루비
컨디션
그도
밀고
##인드
항공기
되었지만
거점
##전부터
되었는데
드립을
인피니티
그루
인조
민폐
전대
카게
남학생
##환경
##행성
하므로
두꺼
확립
수컷
은메달
##층을
보이기
프롤
##우에게
넉백
##열에
##멤버
게임으로
비판하는
반대하는
보자
종점행
입힌다.
인류의
하나하나
신한
벗겨
에도
의회
#FF
격퇴
고아
망설
일본군
Op
가족을
빙결
카사
마력을
기숙사
성공을
대해선
고려하면
창을
초고
##:15
1975년
차이나
##중을
GSL
페르시아
바람.
##전에는
돌아올
전력이
오니
182
덕분
웃음
##시까지
와타나베
것에서
이후부터
아메리칸
탓인지
진행할
##그가
##학년도
3단계
##eah
공정
스탠드
테오
##Lv
모두의
상성
갔다가
아담
워리어
##하다며
등장은
145
##==
주장한다.
EZ
무언가
##린다
원로
절벽
표정
##료가
중동
안개
시작부터
오게
##질에
소득
후미
2017-12
초중반
듣지
##DP
##포와
미국에
유닛은
작아
평소에
토시
##DX
중대
찰스
등장해
부담이
선수들은
조상
##치킨
걸즈
유튜버
실험을
##오자
어드밴
##파티
##적에
##교도
녀석이
캐릭터들의
유메
능력치는
기점행
##렸지만
##전선
눈동
##이에게
##버스가
##편.
181
주변을
##따라
스카웃
##제품
이타
주입
이름만
4명
마우스
양반
하수인
##내의
##AB
말해서
##가인
##말이
tv
##각성
맞추는
적용되는
객관
##reat
면도
##사들이
미만
철저하게
담고
창의
##건담
대부분이다.
##요한
가사를
하나에
카운트
터지는
##.9%
아름다
버리
##집에서
예전에는
"내가
지위를
20분
##이다보니
바르셀로나
IC
호러
##저래
1점
##FL
강호
대기업
##녀를
신지
##으려면
개수
##실험
##재,
##아니
##라고.
'무
피오
동성애
##be
112
모드가
필라
PK
##졌으며
밀리언
사직
없기에
즐기
마쓰
##골드
대시
업그레이드를
##vel
도우
분신
##님은
##'라
2턴
대상에게
늘어났다.
받았던
몇번
종로
혼혈
관계없이
안산
강렬한
탁월
##aster
트럼프
##플라이
##선수권
전성기
간지
##거가
가령
##락의
모의
상황에서도
마이크로
##벌을
감추
열렸다.
필사
게르
##때도
관광객
도는
파편
다니엘
마물
트레이너
##올라
시공
필요할
제10
파동
세르비아
막혀
비교해
장미
훼손
##타워
강민
##검은
길에
장타
공포의
서울시
식품
남지
동메달
1970년대
변한다.
지식을
불구하고,
점멸
결과,
##브는
전작과
##이었기에
소원을
##mar
##츠,
원래대로
##임의
1976년
순천
입에
##스퍼
##볼넷
수술을
##왕과
유동
담당하고
장난감
원주
##우스를
##즈카
##패스
##.6%
등장하며
예약
이름과
둘이서
로보
초기화
연예인
평택
노릇
부실
쳐서
하프
않는다
##자연
##inal
엠블
명은
독보
승무원
##소수
문제도
1971년
60%
##포드
리처드
것들을
문제다.
수상했다.
코멘트
그리는
마일
##장에게
나기
작가는
궁극기
김병
##리아와
냉장
청춘
##두가
입사
만나고
##o,
##ult
미국으로
80%
에일
오류가
##만도
소속된
리스트
희망을
발견하고
사정이
CR
표정이
##-T
아폴
하느
##GA
재산
타이틀곡
출산
한국과
will
전임
##서스
이름인
입원
세웠
5천
터보
155
진출에
상대하기
Cr
구형
회사가
경성
작품으로
발사하는
가자
##맥스
경제적
시작했고,
'대
힘은
시간대
소꿉
##무스
같다
경향
뿐이지
##함,
검증
브론
각자의
요금
의원이
##련을
완벽히
##모션
이소
철갑
에드워드
이도
정도에
간파
##000000
##모스
##측의
##들한테
것이며
3rd
얻지
선택을
##62
폴아웃
능력과
##쓰고
##워하는
하였고,
무용
##시킵니다.
시켰
걸친
잡힌
##net
##해.
계략
##권도
##소.
소니
##세계의
급행
##운이
상대하는
##토에게
약점이
총선거
읽고
아,
##간이
있겠지만
아니며
빌딩
늘어난다.
Gu
군수
##풀이
병원에
방송이
버스를
##사냥
##노,
모음
##물,
비밀을
신경쓰지
문장
움직이지
활약으로
건립
lv.1
##의회
수준은
래퍼
멈춰
##업체
근거로
모빌
탐지
##두에
시킨
스파르
날린다.
팬이
그보다
어긋
##몬스터
1963년
와중에도
블럭
XX
##레븐
1.0
계단
이쿠
독립운동
##어스
정신적
1.8
컴백
##3의
원인은
##도라
망명
국내에서는
##그의
##뱅크
이용객
AL
영화에
미러
제9
눈으로
##와,
##DS
Fr
전제
##되서
##800
원수
양키
사회의
설정은
얼티밋
출동
피니
165
샤오
이래저래
과격
추가바람.
일어나지
벗어난
##o.
동아리
의도적으로
2개를
무방하다.
맡겨
##비용
##노선
맺고
인챈
경우.
구울
##진흥
노는
##0년에
들어보면
김윤
차체
조치를
사망.
##기자
임명되었다.
힘에
이리저리
사망하였다.
6위
홍진
도요
177
3세트
갱신
지루
##oul
경기력을
디자이너
크로아
##슬롯
자아
시즌에는
IP
추가된다.
"S
작고
##직에
오가
모션이
후술할
##여야
연락을
주머니
고로
벤치
개업
맛을
수확
119
##운동장
성격으로
하긴
##연속
사랑에
하면,
떨어지고
210
향하는
협상
고집
배역
호응
요격
##다로
나들
##데르
노란색
목소리로
도대체
##칭으로
대구광역시
열대
##원인
한계를
##패턴
##마도
##ould
프로토스
맵을
선정되었다.
수장
상대방을
보강
##꾸로
눈의
공격력과
##오면서
채보
종영
츠키
것이나
집계
민병
##중심
담겨
##플러스
되어버린
삼고
보여주면서
아쉽게도
후유
대학생
보너스를
에미
##.75
##슨,
다시는
안토니
선호하는
like
##돼서
8.
빌보드
생명을
이세계
5차
안젤
한강
##골로
##.D
##지지만
##이팅
너도
게시판
##때까지
설명하는
##활약
포지션을
2호선
##자리를
해당되는
##겠습니다.
청와대
##alk
달콤
##목에
첼시
박스오피스
방에서
##"은
보스로
크리스티
나라가
4성
비비
##이치로
달성했다.
노부나가
고맙
열차가
##기병
한나라당
권한을
여파로
##말에
상대방이
ATK
싶어서
만큼,
##극장
##거는
무제한
전수
하늘의
만나서
명으로
공중에
조명
##례가
의학
나란히
##스틱
##진화
이광
135
##C.
카가
보낸다.
주인공으로
##reak
마케팅
사악한
전두
일조
짝사랑
##티넘
없었을
진출을
성격의
보았다.
##모와
Mag
이끌었다.
##하와
기술이다.
스바
CL
앞으로도
2%
사슬
##.3%
충청북도
##BL
있어서,
NT
수신
끝.
제왕
뽑기
트랩
친구인
찾아서
한국판
깃털
우유
제약
들어,
##/L
##청이
##출연
마지
알기
데려가
박아
-10
##브레
비중을
내지는
추리
MM
##있다는
일각
플루
프랑크
요미
안전하게
쪽을
안드레
3초
주자
여기까지
한대
토미
샘플
마을에서
소환한다.
이외에는
정석
그렇듯
T1
##좋게
캐릭터인
##차이즈
3.0
방법이다.
TOP
많았던
청구
군대가
쓰이고
학술
루머
정답
##작에
거뒀
GK
##법과
화해
가면을
당선되었다.
두뇌
style="
직행
타치
하였으나
달러를
사전에
성폭
알려주
Black
울프
##아르
##ats
##프란시스코
##에의
단기
디렉
선봉
##애니
Is
흉내
1998
유한
인생을
유연
느끼게
so
섬광
아그
이행
중구
"지
##우로
주황
식당
엉뚱
조립
##블을
나비
MB
맡았던
물의
체코
##05
모른다는
블랙홀
오퍼
트러
##본이
오죽하면
지내는
출신인
실패로
후쿠시마
여유가
부분도
통하는
남의
##터테인먼
수업을
범위를
마스코
천하
##무지
1977년
타입의
몰아넣
박쥐
##ME
가히
iOS
임기
헬리
##43
##,5
하루카
탈환
조종하는
상단
Let
##~200
인지도
##인들에게
이어졌다.
따위
행복한
신학
사람들과
따라잡
동서
잔류
'지
##주의적
진행한다.
브라우
노말
컴뱃
##되었다
남자는
한달
디버프
논란을
트랜스포
해군의
북서
능력치를
말고도
선동
올라오는
##무쌍
1969년
단점은
여긴
용도
보러
무늬
미하
중앙에
후보에
실패하고
1권
배리어
우주의
영웅의
토마스
##미래
##/11
않았다면
단검
지을
##해버렸다.
아니다
##미즈
##필살
tr
스윙
활동했다.
라이트닝
##시나
##졌는데
나열
글자
앞세
목이
쳐다
언급을
떡밥이
재미를
기소
자체적으로
노래는
스트라이커
비정상
성과
안보
12월에
판매하는
공대
전염
로열
하나같이
다투
##서버
통화
##스파
103
##ull
나오지만
나서는
-4
역은
CE
미치는
키우는
##전용
얼마든지
Time
먹지
케리
김두
띄는
##텔레
1200
캠프
유사하다.
스타일의
##사이어
##처가
뛰고
이상,
방송국
'유
다비
가이드
제니
##주의의
크롬
고사
손잡
입는다.
능력에
지나친
제발
개발된
샷건
성사
#ffffff,#ffffff
돌아간
초등학생
저승
##나라는
소금
시기가
블라디
거꾸로
투기
간접적으로
도트
인정하고
타카하시
주연으로
세계가
나고야
위치한다.
상위권
##-G
확신
어벤져
재수
싸운다.
발표된
구체적인
않았지만,
협회
무시할
Fate/
재단
지킬
내며
정황상
예쁜
사용하며
일산
세컨
##ECT
콜롬
강동
딜이
섬멸
이어가
##혁이
신하
##적도
하츠네
##!wiki
1968년
##종,
##제에서
자리가
서바이벌
원형
유아
부분의
페어리
상술한
이의
권리를
한층
##미아
##해방
원작에서
머무
밤의
##주의자
티아
##/등장인물
감금
짓고
협동
성장을
극초
2017-11
소통
교향
돌리는
조던
EXT
강점
차원의
##수용
##편에서는
덱에
않던
노무현
에레
##기:
차량의
오세
테크닉
죽이지
##순환
버프가
##해선
쪽의
아이템은
텍사스
발목을
제작사
이용하면
조선민주주의
##맨과
##업에
##orts
병역
사임
##헤이
자신들을
'기
쿠르
유망주
의혹이
"내
##술이
구로
##하였지만
+20
프로이센
기지를
휴스턴
결승전에서
##증으로
현실의
과언이
추후
##ib
##63
보이게
##는,
학생들을
자기를
수비를
득점을
우즈
헤드샷
수천
시오
##"에서
요코하마
have
##r.
가라앉
재임
포텐
여러분
들어가기
##불명
묻는다.
치열한
진행했다.
걸릴
vs.
샌프란시스코
오렌지
정리한
##우드
할아버지
##uc
웨이브
올림
##파인
제국이
##도어
주의하자.
존재할
자유를
승려
지시를
##초부터
동력
먹었다.
생태
빨간색
괜찮아
시트
공교
"저
멀어
응답
법적
대회를
발급
##페이즈
##이야.
스톡
##마나
시작하면서
정밀
추모
역할은
작중에서는
연구소
쓰리
##롭게도
대쉬
지우
대량으로
여부를
만루
##경과
무너뜨
##구나.
결정을
로스트
유저의
##바위
불과하다.
받으면서
찬양
취재
##물이다.
경찰에
EU
[math
밝혀지지
##72
##테의
대학원
고장
미코
내부에서
정성
짧아
##했다고.
알아차
불안한
말레이시아
스칼
##청의
프로야구
모델을
수치를
인정하지
관계에
덤벼
비추
꿰뚫
맞물
알려준다.
기를
##오르는
생각에
3라운드
영화에서
가깝게
SU
도약
승리한
토키
수록되었다.
조직의
##속도를
못했고
따서
##레이트
리바
##기획
돌아오는
야마모토
무슬
묻혀
##상태가
반쯤
출신지
부지
모욕
WH
입히는
헝가리
카렌
##,000,000
독자적인
명성을
받았고,
디자인은
##BM
##ings
해변
멸종
로우
세우고
##ood
##공주
베지
츠쿠
이방
대외
##생.
관리하는
##류,
강서
내뱉
사과를
찾아와
3월에
날아가는
소스
##머리를
바랍니다.
말하지
마저
경기의
##디,
효과도
노골
만나면
복선
http://
엉망
김선
##in'
상승한다.
텐데
친애도
이벤트에서
GM
바쿠
운명을
##mmer
호크
구상
콤보를
##대결
도모
##리히
##me
휘하
안동
갈리는
1999
행동에
배차간격
주위에
추세
국어
##대륙
Gaming
박탈
석유
모험가
루크
##호에게
1차전
아르헨티
구하는
재등장
##코치
포인트가
6시
무시하는
배터
1/3
##냐,
가나
##각의
나에게
후인
넘어갈
띄워
스탭
에서는
무죄
##다!"
경험치를
버전을
고스
친구를
인정하는
걸리면
운수사
제품을
2021년
코로나
com
##ster
2시간
Ser
워커
트로피
카피
##티콘
물러나
##국어
제너
올려주는
오페라
말고는
곳도
노인
인물들이
해줄
닮았다.
##덕션
스카우트
보루
##황을
##야한다.
날에
공짜
공격,
아타
국토
발견된다.
야구장
##했으면
역할이
전투는
하도
수비력
평균자책
0.8
Your
##죠?
요즘은
##룡이
아쿠아
##.4%
##랑은
과시
대포
3%
가능하지만
글래
버스트
코파
편으로
##폴리스
아이의
목포
상시
시어
중시
##법,
##거지
##운동을
##베이스
##해지기
그나마도
연습을
찾으러
팬들을
명단
사운
만난다.
대니
플레이버
##쪽은
기호
뛰는
올라갔
명나라
언급되는
가족이
##류로
다짐
##모어
##하우스
플레이하는
물품
시선을
평창
버렸
패자
##-30
##았기
102
등장하여
별명은
##네와
과도한
가오
인원이
환생
아내가
슬픈
리자
웃음을
천문
##림은
낭비
마에
know
##마리를
그룹의
흐름을
뒤이어
##군주
서방
삭제되었다.
밥을
위치는
이단
##공,
않자
##대수
잘생
##ICE
길이가
날린
##호쿠
##to
셋째
##여,
정보는
여자친구
##소송
버전.
학사
##ple
운수사명
##졌다
RO
10월에
바닥을
합작
떨어져서
붙어있는
패치를
##효과를
##장군
Min
##슨을
너와
적극적인
메세
퇴치
차로
워프
라이센
이룬다.
##란은
떼어
해운
##해버린
일본을
오리온
싸이
캡슐
바이킹
15년
죽음에
"나는
민중
큐어
##였다
6번
마르크
무궁
인재
##~15
따라가
##고에서
##이라,
방어를
유닛.
변하지
사태를
##리라는
쿨다운
기능은
주파
##하였는데
장치를
##어택
있어.
번이나
팬들도
못한다는
LTE
낳은
우세
##해에
점검
##신문
캐릭터이다.
왕조의
진행을
재료를
결과로
159
##프레임
시뮬레이션
스콜
클리셰
방패를
빨아
상자를
읽을
유미
##원들은
문서의
모드에서
2차전
##하기에는
유전자
동년
호날
##YP
계획은
부대가
##비시
번갈
그만두
답게
탱킹
해병대
비스트
세상의
10시
##미트
시리즈와
##TA
일주일
정치인
손해를
맡는다.
EZ2
근로
대체적으로
마법으로
광고를
##가족
안전한
박종
얼라이언
##더라.
연달아
살펴보면
미지
들어서는
하치
보이지만,
##극을
당신을
비참
무기에
주를
##클릭
영등
문서에
걷어
로스앤젤레스
트랜스
자세를
##진한
##랑을
##3%
##든다.
쓰러져
레온
어디에
히사
밖의
전해진다.
아레
끝을
유저는
##61
돌아온다.
##:2로
지구에
##자다.
##!'
##팩트
##네이션
중반에
##리프
히라
한반도
연동
연관이
오비
동정
북동
피하는
영상.
머릿
2세대
돼서
후루
##투아
교복
OF
불평
최전
##yn
공손
동명의
학문
레이븐
슬슬
페르소나
갈등을
폐허
빈번
영혼이
##불명의
오른팔
죽었
때려잡
내버려
맵이
##패가
바람을
Of
지극
##타르
편리
##탕을
##봉을
##그로
광복
전개가
성장한
오바
##터스
##니스트
##버스를
카이사
2017-10
안된
##나가와
출석
뽑은
##지던
미루어
##카게
센트럴
자유한국당
움직임이
##디지
세계적으로
놈이
오딘
응급
자작
##슨과
##밴드
결의
클라이
0.00
본다면
개최된
농민
무색
플라즈마
일베
의미의
5인
하사
소비에
이글스
고의
배수
체력과
##ange
불가사의
고가
사각
가로막
제작진이
임금
적용되지
마하
##플레
##:05
골프
##정지
##판매
시스템의
멀리서
동아시아
상당수
##어버리고
파일을
리뉴얼
A4D
방송사
대명
##천이
유지할
재위
##히며
##귀를
80년대
섞인
##카나
##ict
##르면서
##ions
4000
거느
Play
날개를
뒤에도
기관단
##한지
전과
연구가
도감
다행히도
4기
겪고
사치
마지막까지
태도
편을
##.I
플라스틱
호감을
##.T
퍼펙트
몰아붙
##문화재
450
9.
왕위
##염을
뉴질랜드
증가하는
크라운
어서
##있다고
##았는데,
##이라면,
##러와
다룰
향한다.
여수
잘만
소속되어
##성군
##링의
갈등이
일족
##술의
##베리아
##-21
1967년
기다리는
이념
##그마
가사가
스페인의
모임
크래
추정.
##금지
##분류
##되었습니다.
##글로
마찬가지다.
곡.
성씨
드래곤의
Car
##하다보니
##구니
불릴
##할지
당시엔
고발
##'re
그마저도
없지
합법
강탈
언급했다.
못했
성배
##대구
##국제공항
다다
쓰였다.
##주자.
맵의
아이들
##지만...
씨가
##부지
##6%
계절
로고
몸무
폭스
말려
맹독
운반
out
##규가
흑막
하는게
선조
무지개
질주
##재료
진지한
one
##형.
##ann
리부
기쁨
##제이
##시켜야
선물을
무작정
일삼
활동한
이르렀다.
RE
괴로워
효율을
본체
##위치
수준을
분야에서
사원
수시로
심히
적재
3승
바론
박명
전장에
크지
충격과
빈틈
이익을
시점에
절단
루키
그랜
행동은
##조작
##당시
개인적인
미남
하나로,
맞았다.
꼴찌
하후
혈통
클리어하면
검정
내용에
##취를
##배차
##적이었다.
소환하는
리셋
장비가
BGA
도배
보르
중학생
##돌프
리즈
중이던
호랑이
##공과
##백으로
Mi
시상식
##요를
십자가
내용으로
후타
솔직히
##텍스
조선시대
연설
찾지
##희와
단장
친절
##는게
유머
먹여
명성
해독
##내면
##~30
패스를
레이디
역할로
싱가포르
ALL
군단의
약물
프레데
비로소
##교는
##받침
##검의
길이는
숙청
자고
브레이브
김성근
리그의
결제
서울대
출연하였다.
앨범의
붙어서
##듯하다.
의아
##타케
109
다름없
떠나는
방심
앞뒤
김천
소생
121
보스의
대표로
##lass
변하는
음력
깨고
트레이닝
ME
스토리는
##슈타인
김도
##CH
##든가,
##빈이
패전
도심
##찬을
유고
길다.
##리시
##특별자치
천주교
사용하게
미끼
바꾸고
바다에
광범위
미칠
키보
##차원
##크에
어느날
어렵다는
##새를
컸다.
##살의
임진왜
피닉스
문헌
실로
4.5
이인
##들리
항구
문제점이
축구선수
8년
행보를
##기면
따뜻한
늦은
문화재
공격시
발차
세로
##그리고
어찌보면
국가를
단점을
리버스
부끄러
##사라
발표하였다.
민주화
행방
##마력
중화민국
8시
주며
##agon
스쿠
덴마크
충남
무신
시스템은
##주에서
양도
##하겠지만
트렌
##HT
초래
상인
하이드
168
남겼
밑으로
바닐
동료가
시대가
was
여기고
돌을
사이토
##수준
##조정
내기
HE
장제
뛰어나다.
부사
##ica
##:55
감행
어시스트
옆으로
테레
스태프
게임에서는
나섰
여캐
속성의
헤라
보이는데,
요청을
문화를
뮤지션
##che
##ACK
써먹을
##퍼는
번씩
##후를
별이
##79
차에
##림으로
1948년
##끄러운
레스토
채찍
구한
유탄
##몬을
일꾼
거칠
시흥
[[htt
엔진이
발표되었다.
##LS
소나
콘셉
달라진
넘어간
퍼부
##습니
미묘한
##-KR0
##칸센
박영
안철
이번에
그간
##슬로
개발을
4월에
마족
118
삼촌
##한정
부대의
포터
플러스
##빌딩
0.6
##철은
저스티
-5
##버는
별을
페미니즘
부장
재벌
기준으로는
바라보는
복장
야만
1위로
3명이
3명의
측에서는
공교롭게도
정준
역사에
##왔다고
그들에게
현금
##값이
상대식
득표율
시네마
최소한의
물고기
리플렉
바티
##판에선
점심
주의를
벨라
불렸다.
죠죠
해가
##널드
1995
##.21
화면에
필드의
것이,
되게
##등에
레벨업
##erf
##커녕
발견되었다.
##금융
깨어난
멀쩡한
시킬
개발이
주민들이
##형제
성향의
확률은
보자면
않았으나
포맷
등장하며,
전생
나뭇
초기의
##운수
대법
타르
##일때
드레이
##연대
등지에서
##보라
플래티넘
##요의
스타일을
선의
##G의
##못해
있는게
나서서
초록색
##0년대에
본부
##아슬
9월에
입었다.
한해
맞출
##...?
##류에
수록되어
크기의
막판
##던지
성경
수단이
바람이
+15
보여주기도
진출했다.
현장에서
것은,
볼드
추출
우려가
만났을
7개
경전
지오
정해져
미소를
주에
##서에서
##카타
##제르
봉사
입장이
장로
##정도의
줄어들었다.
적합한
##었기에
11월에
남자를
제도를
##바다
구매할
터라
##또한
합친
##학기
시도를
##프랑
판매량
꼽힌다.
변이
빠지게
##있는데
목욕
##eF
Type
이전에도
알수
feat
명장
##화도
드러나는
세일러
##치오
패키지
로저
앞을
##자원
오디오
줍니다.
친다.
주력으로
아래에서
지정된
순찰
테일러
필름
중에선
붙었다.
서기
클러
##학은
유격수
풍부한
매니아
최종보
152
'여
날씨
아이스크
다름아닌
##요가
특이하게
##모,
##마에게
GPU
시즌1
구조가
뿐이었다.
##팀에
도깨비
브라더
너클
각인
하러
지원이
워터
##크루
등장하는데,
인문
1944년
사정을
##팀으로
##de
##:35
##코로
NEW
이카
연결하는
##음,
식사를
쳤다.
진행이
비아
출제
고우
여겨진다.
오더
호랑
##글이
Max
##불능
사람에
##클린
예방
##코인
1962년
화면이
##안,
##gr
오키나와
왕을
프랜차이즈
만화를
##되니
비용을
일으켰다.
메시지를
고종
금요일
##라라
남서
맞추면
걸맞게
##201
페르난
7시
SA
본진
pro
가격을
숨기고
상황이라
갑옷을
놀랍게도
무선
출신.
처리하는
루마니아
##일으
삶의
미국,
##원에게
127
펼쳤다.
낮고
##토미
호감도
장인
제11
현실을
##학이
걸려서
배웠
스텔스
표정으로
이하로
강하고
위함
##BB
TP
올린다.
전선
내뿜
티저
##레타
영토를
적용된
늘어나는
음향
캐롤
##가수
##볼트
사에
한국이
최상급
##배틀
la
혼인
유즈
1로
대신해
준공
##하느라
사육
##있다
돌아갔다.
##효율
알렉스
##orea
난민
병살
정해
빼앗아
나르
신흥
창업
##벽이
사진은
왔다
##지니어
나들목
##갔다
안습.
사키
위력은
70%
FA컵
딸인
입성
중에도
영상은
베어스
소노
2패
##살인
아슬아슬
##2가
타이완
##란,
깔려
애틀
로리
수중
##놓았다.
오쿠
111
2019.
동생인
맞추기
##점과
##세요!
미식
##짓을
어스
##미션
##란한
전속
없어졌다.
오늘은
실업
순위가
순간이동
위협을
##달의
107
##eep
소프트웨
봐서는
10000
발톱
시즌의
레슬링
약하다.
미라이
전지
원내
