[UNK]
[CLS]
[SEP]
[PAD]
[MASK]
!
"
#
$
%
&
'
(
)
*
+
,
-
.
/
0
1
2
3
4
5
6
7
8
9
:
;
<
=
>
?
@
A
B
C
D
E
F
G
H
I
J
K
L
M
N
O
P
Q
R
S
T
U
V
W
X
Y
Z
[
\
]
^
_
`
a
b
c
d
e
f
g
h
i
j
k
l
m
n
o
p
q
r
s
t
u
v
w
x
y
z
{
|
}
~

ㄱ
ㄲ
ㄳ
ㄴ
ㄵ
ㄶ
ㄷ
ㄸ
ㄹ
ㄺ
ㄻ
ㄼ
ㄽ
ㄾ
ㄿ
ㅀ
ㅁ
ㅂ
ㅃ
ㅄ
ㅅ
ㅆ
ㅇ
ㅈ
ㅉ
ㅊ
ㅋ
ㅌ
ㅍ
ㅎ
ㅏ
ㅐ
ㅑ
ㅒ
ㅓ
ㅔ
ㅕ
ㅖ
ㅗ
ㅘ
ㅙ
ㅚ
ㅛ
ㅜ
ㅝ
ㅞ
ㅟ
ㅠ
ㅡ
ㅢ
ㅣ
가
각
갂
갃
간
갅
갆
갇
갈
갉
갊
갋
갌
갍
갎
갏
감
갑
값
갓
갔
강
갖
갗
갘
같
갚
갛
개
객
갞
갟
갠
갡
갢
갣
갤
갥
갦
갧
갨
갩
갪
갫
갬
갭
갮
갯
갰
갱
갲
갳
갴
갵
갶
갷
갸
갹
갺
갻
갼
갽
갾
갿
걀
걁
걂
걃
걄
걅
걆
걇
걈
걉
걊
걋
걌
걍
걎
걏
걐
걑
걒
걓
걔
걕
걖
걗
걘
걙
걚
걛
걜
걝
걞
걟
걠
걡
걢
걣
걤
걥
걦
걧
걨
걩
걪
걫
걬
걭
걮
걯
거
걱
걲
걳
건
걵
걶
걷
걸
걹
걺
걻
걼
걽
걾
걿
검
겁
겂
것
겄
겅
겆
겇
겈
겉
겊
겋
게
겍
겎
겏
겐
겑
겒
겓
겔
겕
겖
겗
겘
겙
겚
겛
겜
겝
겞
겟
겠
겡
겢
겣
겤
겥
겦
겧
겨
격
겪
겫
견
겭
겮
겯
결
겱
겲
겳
겴
겵
겶
겷
겸
겹
겺
겻
겼
경
겾
겿
곀
곁
곂
곃
계
곅
곆
곇
곈
곉
곊
곋
곌
곍
곎
곏
곐
곑
곒
곓
곔
곕
곖
곗
곘
곙
곚
곛
곜
곝
곞
곟
고
곡
곢
곣
곤
곥
곦
곧
골
곩
곪
곫
곬
곭
곮
곯
곰
곱
곲
곳
곴
공
곶
곷
곸
곹
곺
곻
과
곽
곾
곿
관
괁
괂
괃
괄
괅
괆
괇
괈
괉
괊
괋
괌
괍
괎
괏
괐
광
괒
괓
괔
괕
괖
괗
괘
괙
괚
괛
괜
괝
괞
괟
괠
괡
괢
괣
괤
괥
괦
괧
괨
괩
괪
괫
괬
괭
괮
괯
괰
괱
괲
괳
괴
괵
괶
괷
괸
괹
괺
괻
괼
괽
괾
괿
굀
굁
굂
굃
굄
굅
굆
굇
굈
굉
굊
굋
굌
굍
굎
굏
교
굑
굒
굓
굔
굕
굖
굗
굘
굙
굚
굛
굜
굝
굞
굟
굠
굡
굢
굣
굤
굥
굦
굧
굨
굩
굪
굫
구
국
굮
굯
군
굱
굲
굳
굴
굵
굶
굷
굸
굹
굺
굻
굼
굽
굾
굿
궀
궁
궂
궃
궄
궅
궆
궇
궈
궉
궊
궋
권
궍
궎
궏
궐
궑
궒
궓
궔
궕
궖
궗
궘
궙
궚
궛
궜
궝
궞
궟
궠
궡
궢
궣
궤
궥
궦
궧
궨
궩
궪
궫
궬
궭
궮
궯
궰
궱
궲
궳
궴
궵
궶
궷
궸
궹
궺
궻
궼
궽
궾
궿
귀
귁
귂
귃
귄
귅
귆
귇
귈
귉
귊
귋
귌
귍
귎
귏
귐
귑
귒
귓
귔
귕
귖
귗
귘
귙
귚
귛
규
귝
귞
귟
균
귡
귢
귣
귤
귥
귦
귧
귨
귩
귪
귫
귬
귭
귮
귯
귰
귱
귲
귳
귴
귵
귶
귷
그
극
귺
귻
근
귽
귾
귿
글
긁
긂
긃
긄
긅
긆
긇
금
급
긊
긋
긌
긍
긎
긏
긐
긑
긒
긓
긔
긕
긖
긗
긘
긙
긚
긛
긜
긝
긞
긟
긠
긡
긢
긣
긤
긥
긦
긧
긨
긩
긪
긫
긬
긭
긮
긯
기
긱
긲
긳
긴
긵
긶
긷
길
긹
긺
긻
긼
긽
긾
긿
김
깁
깂
깃
깄
깅
깆
깇
깈
깉
깊
깋
까
깍
깎
깏
깐
깑
깒
깓
깔
깕
깖
깗
깘
깙
깚
깛
깜
깝
깞
깟
깠
깡
깢
깣
깤
깥
깦
깧
깨
깩
깪
깫
깬
깭
깮
깯
깰
깱
깲
깳
깴
깵
깶
깷
깸
깹
깺
깻
깼
깽
깾
깿
꺀
꺁
꺂
꺃
꺄
꺅
꺆
꺇
꺈
꺉
꺊
꺋
꺌
꺍
꺎
꺏
꺐
꺑
꺒
꺓
꺔
꺕
꺖
꺗
꺘
꺙
꺚
꺛
꺜
꺝
꺞
꺟
꺠
꺡
꺢
꺣
꺤
꺥
꺦
꺧
꺨
꺩
꺪
꺫
꺬
꺭
꺮
꺯
꺰
꺱
꺲
꺳
꺴
꺵
꺶
꺷
꺸
꺹
꺺
꺻
꺼
꺽
꺾
꺿
껀
껁
껂
껃
껄
껅
껆
껇
껈
껉
껊
껋
껌
껍
껎
껏
껐
껑
껒
껓
껔
껕
껖
껗
께
껙
껚
껛
껜
껝
껞
껟
껠
껡
껢
껣
껤
껥
껦
껧
껨
껩
껪
껫
껬
껭
껮
껯
껰
껱
껲
껳
껴
껵
껶
껷
껸
껹
껺
껻
껼
껽
껾
껿
꼀
꼁
꼂
꼃
꼄
꼅
꼆
꼇
꼈
꼉
꼊
꼋
꼌
꼍
꼎
꼏
꼐
꼑
꼒
꼓
꼔
꼕
꼖
꼗
꼘
꼙
꼚
꼛
꼜
꼝
꼞
꼟
꼠
꼡
꼢
꼣
꼤
꼥
꼦
꼧
꼨
꼩
꼪
꼫
꼬
꼭
꼮
꼯
꼰
꼱
꼲
꼳
꼴
꼵
꼶
꼷
꼸
꼹
꼺
꼻
꼼
꼽
꼾
꼿
꽀
꽁
꽂
꽃
꽄
꽅
꽆
꽇
꽈
꽉
꽊
꽋
꽌
꽍
꽎
꽏
꽐
꽑
꽒
꽓
꽔
꽕
꽖
꽗
꽘
꽙
꽚
꽛
꽜
꽝
꽞
꽟
꽠
꽡
꽢
꽣
꽤
꽥
꽦
꽧
꽨
꽩
꽪
꽫
꽬
꽭
꽮
꽯
꽰
꽱
꽲
꽳
꽴
꽵
꽶
꽷
꽸
꽹
꽺
꽻
꽼
꽽
꽾
꽿
꾀
꾁
꾂
꾃
꾄
꾅
꾆
꾇
꾈
꾉
꾊
꾋
꾌
꾍
꾎
꾏
꾐
꾑
꾒
꾓
꾔
꾕
꾖
꾗
꾘
꾙
꾚
꾛
꾜
꾝
꾞
꾟
꾠
꾡
꾢
꾣
꾤
꾥
꾦
꾧
꾨
꾩
꾪
꾫
꾬
꾭
꾮
꾯
꾰
꾱
꾲
꾳
꾴
꾵
꾶
꾷
꾸
꾹
꾺
꾻
꾼
꾽
꾾
꾿
꿀
꿁
꿂
꿃
꿄
꿅
꿆
꿇
꿈
꿉
꿊
꿋
꿌
꿍
꿎
꿏
꿐
꿑
꿒
꿓
꿔
꿕
꿖
꿗
꿘
꿙
꿚
꿛
꿜
꿝
꿞
꿟
꿠
꿡
꿢
꿣
꿤
꿥
꿦
꿧
꿨
꿩
꿪
꿫
꿬
꿭
꿮
꿯
꿰
꿱
꿲
꿳
꿴
꿵
꿶
꿷
꿸
꿹
꿺
꿻
꿼
꿽
꿾
꿿
뀀
뀁
뀂
뀃
뀄
뀅
뀆
뀇
뀈
뀉
뀊
뀋
뀌
뀍
뀎
뀏
뀐
뀑
뀒
뀓
뀔
뀕
뀖
뀗
뀘
뀙
뀚
뀛
뀜
뀝
뀞
뀟
뀠
뀡
뀢
뀣
뀤
뀥
뀦
뀧
뀨
뀩
뀪
뀫
뀬
뀭
뀮
뀯
뀰
뀱
뀲
뀳
뀴
뀵
뀶
뀷
뀸
뀹
뀺
뀻
뀼
뀽
뀾
뀿
끀
끁
끂
끃
끄
끅
끆
끇
끈
끉
끊
끋
끌
끍
끎
끏
끐
끑
끒
끓
끔
끕
끖
끗
끘
끙
끚
끛
끜
끝
끞
끟
끠
끡
끢
끣
끤
끥
끦
끧
끨
끩
끪
끫
끬
끭
끮
끯
끰
끱
끲
끳
끴
끵
끶
끷
끸
끹
끺
끻
끼
끽
끾
끿
낀
낁
낂
낃
낄
낅
낆
낇
낈
낉
낊
낋
낌
낍
낎
낏
낐
낑
낒
낓
낔
낕
낖
낗
나
낙
낚
낛
난
낝
낞
낟
날
낡
낢
낣
낤
낥
낦
낧
남
납
낪
낫
났
낭
낮
낯
낰
낱
낲
낳
내
낵
낶
낷
낸
낹
낺
낻
낼
낽
낾
낿
냀
냁
냂
냃
냄
냅
냆
냇
냈
냉
냊
냋
냌
냍
냎
냏
냐
냑
냒
냓
냔
냕
냖
냗
냘
냙
냚
냛
냜
냝
냞
냟
냠
냡
냢
냣
냤
냥
냦
냧
냨
냩
냪
냫
냬
냭
냮
냯
냰
냱
냲
냳
냴
냵
냶
냷
냸
냹
냺
냻
냼
냽
냾
냿
넀
넁
넂
넃
넄
넅
넆
넇
너
넉
넊
넋
넌
넍
넎
넏
널
넑
넒
넓
넔
넕
넖
넗
넘
넙
넚
넛
넜
넝
넞
넟
넠
넡
넢
넣
네
넥
넦
넧
넨
넩
넪
넫
넬
넭
넮
넯
넰
넱
넲
넳
넴
넵
넶
넷
넸
넹
넺
넻
넼
넽
넾
넿
녀
녁
녂
녃
년
녅
녆
녇
녈
녉
녊
녋
녌
녍
녎
녏
념
녑
녒
녓
녔
녕
녖
녗
녘
녙
녚
녛
녜
녝
녞
녟
녠
녡
녢
녣
녤
녥
녦
녧
녨
녩
녪
녫
녬
녭
녮
녯
녰
녱
녲
녳
녴
녵
녶
녷
노
녹
녺
녻
논
녽
녾
녿
놀
놁
놂
놃
놄
놅
놆
놇
놈
놉
놊
놋
놌
농
놎
놏
놐
놑
높
놓
놔
놕
놖
놗
놘
놙
놚
놛
놜
놝
놞
놟
놠
놡
놢
놣
놤
놥
놦
놧
놨
놩
놪
놫
놬
놭
놮
놯
놰
놱
놲
놳
놴
놵
놶
놷
놸
놹
놺
놻
놼
놽
놾
놿
뇀
뇁
뇂
뇃
뇄
뇅
뇆
뇇
뇈
뇉
뇊
뇋
뇌
뇍
뇎
뇏
뇐
뇑
뇒
뇓
뇔
뇕
뇖
뇗
뇘
뇙
뇚
뇛
뇜
뇝
뇞
뇟
뇠
뇡
뇢
뇣
뇤
뇥
뇦
뇧
뇨
뇩
뇪
뇫
뇬
뇭
뇮
뇯
뇰
뇱
뇲
뇳
뇴
뇵
뇶
뇷
뇸
뇹
뇺
뇻
뇼
뇽
뇾
뇿
눀
눁
눂
눃
누
눅
눆
눇
눈
눉
눊
눋
눌
눍
눎
눏
눐
눑
눒
눓
눔
눕
눖
눗
눘
눙
눚
눛
눜
눝
눞
눟
눠
눡
눢
눣
눤
눥
눦
눧
눨
눩
눪
눫
눬
눭
눮
눯
눰
눱
눲
눳
눴
눵
눶
눷
눸
눹
눺
눻
눼
눽
눾
눿
뉀
뉁
뉂
뉃
뉄
뉅
뉆
뉇
뉈
뉉
뉊
뉋
뉌
뉍
뉎
뉏
뉐
뉑
뉒
뉓
뉔
뉕
뉖
뉗
뉘
뉙
뉚
뉛
뉜
뉝
뉞
뉟
뉠
뉡
뉢
뉣
뉤
뉥
뉦
뉧
뉨
뉩
뉪
뉫
뉬
뉭
뉮
뉯
뉰
뉱
뉲
뉳
뉴
뉵
뉶
뉷
뉸
뉹
뉺
뉻
뉼
뉽
뉾
뉿
늀
늁
늂
늃
늄
늅
늆
늇
늈
늉
늊
늋
늌
늍
늎
늏
느
늑
늒
늓
는
늕
늖
늗
늘
늙
늚
늛
늜
늝
늞
늟
늠
늡
늢
늣
늤
능
늦
늧
늨
늩
늪
늫
늬
늭
늮
늯
늰
늱
늲
늳
늴
늵
늶
늷
늸
늹
늺
늻
늼
늽
늾
늿
닀
닁
닂
닃
닄
닅
닆
닇
니
닉
닊
닋
닌
닍
닎
닏
닐
닑
닒
닓
닔
닕
닖
닗
님
닙
닚
닛
닜
닝
닞
닟
닠
닡
닢
닣
다
닥
닦
닧
단
닩
닪
닫
달
닭
닮
닯
닰
닱
닲
닳
담
답
닶
닷
닸
당
닺
닻
닼
닽
닾
닿
대
댁
댂
댃
댄
댅
댆
댇
댈
댉
댊
댋
댌
댍
댎
댏
댐
댑
댒
댓
댔
댕
댖
댗
댘
댙
댚
댛
댜
댝
댞
댟
댠
댡
댢
댣
댤
댥
댦
댧
댨
댩
댪
댫
댬
댭
댮
댯
댰
댱
댲
댳
댴
댵
댶
댷
댸
댹
댺
댻
댼
댽
댾
댿
덀
덁
덂
덃
덄
덅
덆
덇
덈
덉
덊
덋
덌
덍
덎
덏
덐
덑
덒
덓
더
덕
덖
덗
던
덙
덚
덛
덜
덝
덞
덟
덠
덡
덢
덣
덤
덥
덦
덧
덨
덩
덪
덫
덬
덭
덮
덯
데
덱
덲
덳
덴
덵
덶
덷
델
덹
덺
덻
덼
덽
덾
덿
뎀
뎁
뎂
뎃
뎄
뎅
뎆
뎇
뎈
뎉
뎊
뎋
뎌
뎍
뎎
뎏
뎐
뎑
뎒
뎓
뎔
뎕
뎖
뎗
뎘
뎙
뎚
뎛
뎜
뎝
뎞
뎟
뎠
뎡
뎢
뎣
뎤
뎥
뎦
뎧
뎨
뎩
뎪
뎫
뎬
뎭
뎮
뎯
뎰
뎱
뎲
뎳
뎴
뎵
뎶
뎷
뎸
뎹
뎺
뎻
뎼
뎽
뎾
뎿
돀
돁
돂
돃
도
독
돆
돇
돈
돉
돊
돋
돌
돍
돎
돏
돐
돑
돒
돓
돔
돕
돖
돗
돘
동
돚
돛
돜
돝
돞
돟
돠
돡
돢
돣
돤
돥
돦
돧
돨
돩
돪
돫
돬
돭
돮
돯
돰
돱
돲
돳
돴
돵
돶
돷
돸
돹
돺
돻
돼
돽
돾
돿
됀
됁
됂
됃
됄
됅
됆
됇
됈
됉
됊
됋
됌
됍
됎
됏
됐
됑
됒
됓
됔
됕
됖
됗
되
됙
됚
됛
된
됝
됞
됟
될
됡
됢
됣
됤
됥
됦
됧
됨
됩
됪
됫
됬
됭
됮
됯
됰
됱
됲
됳
됴
됵
됶
됷
됸
됹
됺
됻
됼
됽
됾
됿
둀
둁
둂
둃
둄
둅
둆
둇
둈
둉
둊
둋
둌
둍
둎
둏
두
둑
둒
둓
둔
둕
둖
둗
둘
둙
둚
둛
둜
둝
둞
둟
둠
둡
둢
둣
둤
둥
둦
둧
둨
둩
둪
둫
둬
둭
둮
둯
둰
둱
둲
둳
둴
둵
둶
둷
둸
둹
둺
둻
둼
둽
둾
둿
뒀
뒁
뒂
뒃
뒄
뒅
뒆
뒇
뒈
뒉
뒊
뒋
뒌
뒍
뒎
뒏
뒐
뒑
뒒
뒓
뒔
뒕
뒖
뒗
뒘
뒙
뒚
뒛
뒜
뒝
뒞
뒟
뒠
뒡
뒢
뒣
뒤
뒥
뒦
뒧
뒨
뒩
뒪
뒫
뒬
뒭
뒮
뒯
뒰
뒱
뒲
뒳
뒴
뒵
뒶
뒷
뒸
뒹
뒺
뒻
뒼
뒽
뒾
뒿
듀
듁
듂
듃
듄
듅
듆
듇
듈
듉
듊
듋
듌
듍
듎
듏
듐
듑
듒
듓
듔
듕
듖
듗
듘
듙
듚
듛
드
득
듞
듟
든
듡
듢
듣
들
듥
듦
듧
듨
듩
듪
듫
듬
듭
듮
듯
듰
등
듲
듳
듴
듵
듶
듷
듸
듹
듺
듻
듼
듽
듾
듿
딀
딁
딂
딃
딄
딅
딆
딇
딈
딉
딊
딋
딌
딍
딎
딏
딐
딑
딒
딓
디
딕
딖
딗
딘
딙
딚
딛
딜
딝
딞
딟
딠
딡
딢
딣
딤
딥
딦
딧
딨
딩
딪
딫
딬
딭
딮
딯
따
딱
딲
딳
딴
딵
딶
딷
딸
딹
딺
딻
딼
딽
딾
딿
땀
땁
땂
땃
땄
땅
땆
땇
땈
땉
땊
땋
때
땍
땎
땏
땐
땑
땒
땓
땔
땕
땖
땗
땘
땙
땚
땛
땜
땝
땞
땟
땠
땡
땢
땣
땤
땥
땦
땧
땨
땩
땪
땫
땬
땭
땮
땯
땰
땱
땲
땳
땴
땵
땶
땷
땸
땹
땺
땻
땼
땽
땾
땿
떀
떁
떂
떃
떄
떅
떆
떇
떈
떉
떊
떋
떌
떍
떎
떏
떐
떑
떒
떓
떔
떕
떖
떗
떘
떙
떚
떛
떜
떝
떞
떟
떠
떡
떢
떣
떤
떥
떦
떧
떨
떩
떪
떫
떬
떭
떮
떯
떰
떱
떲
떳
떴
떵
떶
떷
떸
떹
떺
떻
떼
떽
떾
떿
뗀
뗁
뗂
뗃
뗄
뗅
뗆
뗇
뗈
뗉
뗊
뗋
뗌
뗍
뗎
뗏
뗐
뗑
뗒
뗓
뗔
뗕
뗖
뗗
뗘
뗙
뗚
뗛
뗜
뗝
뗞
뗟
뗠
뗡
뗢
뗣
뗤
뗥
뗦
뗧
뗨
뗩
뗪
뗫
뗬
뗭
뗮
뗯
뗰
뗱
뗲
뗳
뗴
뗵
뗶
뗷
뗸
뗹
뗺
뗻
뗼
뗽
뗾
뗿
똀
똁
똂
똃
똄
똅
똆
똇
똈
똉
똊
똋
똌
똍
똎
똏
또
똑
똒
똓
똔
똕
똖
똗
똘
똙
똚
똛
똜
똝
똞
똟
똠
똡
똢
똣
똤
똥
똦
똧
똨
똩
똪
똫
똬
똭
똮
똯
똰
똱
똲
똳
똴
똵
똶
똷
똸
똹
똺
똻
똼
똽
똾
똿
뙀
뙁
뙂
뙃
뙄
뙅
뙆
뙇
뙈
뙉
뙊
뙋
뙌
뙍
뙎
뙏
뙐
뙑
뙒
뙓
뙔
뙕
뙖
뙗
뙘
뙙
뙚
뙛
뙜
뙝
뙞
뙟
뙠
뙡
뙢
뙣
뙤
뙥
뙦
뙧
뙨
뙩
뙪
뙫
뙬
뙭
뙮
뙯
뙰
뙱
뙲
뙳
뙴
뙵
뙶
뙷
뙸
뙹
뙺
뙻
뙼
뙽
뙾
뙿
뚀
뚁
뚂
뚃
뚄
뚅
뚆
뚇
뚈
뚉
뚊
뚋
뚌
뚍
뚎
뚏
뚐
뚑
뚒
뚓
뚔
뚕
뚖
뚗
뚘
뚙
뚚
뚛
뚜
뚝
뚞
뚟
뚠
뚡
뚢
뚣
뚤
뚥
뚦
뚧
뚨
뚩
뚪
뚫
뚬
뚭
뚮
뚯
뚰
뚱
뚲
뚳
뚴
뚵
뚶
뚷
뚸
뚹
뚺
뚻
뚼
뚽
뚾
뚿
뛀
뛁
뛂
뛃
뛄
뛅
뛆
뛇
뛈
뛉
뛊
뛋
뛌
뛍
뛎
뛏
뛐
뛑
뛒
뛓
뛔
뛕
뛖
뛗
뛘
뛙
뛚
뛛
뛜
뛝
뛞
뛟
뛠
뛡
뛢
뛣
뛤
뛥
뛦
뛧
뛨
뛩
뛪
뛫
뛬
뛭
뛮
뛯
뛰
뛱
뛲
뛳
뛴
뛵
뛶
뛷
뛸
뛹
뛺
뛻
뛼
뛽
뛾
뛿
뜀
뜁
뜂
뜃
뜄
뜅
뜆
뜇
뜈
뜉
뜊
뜋
뜌
뜍
뜎
뜏
뜐
뜑
뜒
뜓
뜔
뜕
뜖
뜗
뜘
뜙
뜚
뜛
뜜
뜝
뜞
뜟
뜠
뜡
뜢
뜣
뜤
뜥
뜦
뜧
뜨
뜩
뜪
뜫
뜬
뜭
뜮
뜯
뜰
뜱
뜲
뜳
뜴
뜵
뜶
뜷
뜸
뜹
뜺
뜻
뜼
뜽
뜾
뜿
띀
띁
띂
띃
띄
띅
띆
띇
띈
띉
띊
띋
띌
띍
띎
띏
띐
띑
띒
띓
띔
띕
띖
띗
띘
띙
띚
띛
띜
띝
띞
띟
띠
띡
띢
띣
띤
띥
띦
띧
띨
띩
띪
띫
띬
띭
띮
띯
띰
띱
띲
띳
띴
띵
띶
띷
띸
띹
띺
띻
라
락
띾
띿
란
랁
랂
랃
랄
랅
랆
랇
랈
랉
랊
랋
람
랍
랎
랏
랐
랑
랒
랓
랔
랕
랖
랗
래
랙
랚
랛
랜
랝
랞
랟
랠
랡
랢
랣
랤
랥
랦
랧
램
랩
랪
랫
랬
랭
랮
랯
랰
랱
랲
랳
랴
략
랶
랷
랸
랹
랺
랻
랼
랽
랾
랿
럀
럁
럂
럃
럄
럅
럆
럇
럈
량
럊
럋
럌
럍
럎
럏
럐
럑
럒
럓
럔
럕
럖
럗
럘
럙
럚
럛
럜
럝
럞
럟
럠
럡
럢
럣
럤
럥
럦
럧
럨
럩
럪
럫
러
럭
럮
럯
런
럱
럲
럳
럴
럵
럶
럷
럸
럹
럺
럻
럼
럽
럾
럿
렀
렁
렂
렃
렄
렅
렆
렇
레
렉
렊
렋
렌
렍
렎
렏
렐
렑
렒
렓
렔
렕
렖
렗
렘
렙
렚
렛
렜
렝
렞
렟
렠
렡
렢
렣
려
력
렦
렧
련
렩
렪
렫
렬
렭
렮
렯
렰
렱
렲
렳
렴
렵
렶
렷
렸
령
렺
렻
렼
렽
렾
렿
례
롁
롂
롃
롄
롅
롆
롇
롈
롉
롊
롋
롌
롍
롎
롏
롐
롑
롒
롓
롔
롕
롖
롗
롘
롙
롚
롛
로
록
롞
롟
론
롡
롢
롣
롤
롥
롦
롧
롨
롩
롪
롫
롬
롭
롮
롯
롰
롱
롲
롳
롴
롵
롶
롷
롸
롹
롺
롻
롼
롽
롾
롿
뢀
뢁
뢂
뢃
뢄
뢅
뢆
뢇
뢈
뢉
뢊
뢋
뢌
뢍
뢎
뢏
뢐
뢑
뢒
뢓
뢔
뢕
뢖
뢗
뢘
뢙
뢚
뢛
뢜
뢝
뢞
뢟
뢠
뢡
뢢
뢣
뢤
뢥
뢦
뢧
뢨
뢩
뢪
뢫
뢬
뢭
뢮
뢯
뢰
뢱
뢲
뢳
뢴
뢵
뢶
뢷
뢸
뢹
뢺
뢻
뢼
뢽
뢾
뢿
룀
룁
룂
룃
룄
룅
룆
룇
룈
룉
룊
룋
료
룍
룎
룏
룐
룑
룒
룓
룔
룕
룖
룗
룘
룙
룚
룛
룜
룝
룞
룟
룠
룡
룢
룣
룤
룥
룦
룧
루
룩
룪
룫
룬
룭
룮
룯
룰
룱
룲
룳
룴
룵
룶
룷
룸
룹
룺
룻
룼
룽
룾
룿
뤀
뤁
뤂
뤃
뤄
뤅
뤆
뤇
뤈
뤉
뤊
뤋
뤌
뤍
뤎
뤏
뤐
뤑
뤒
뤓
뤔
뤕
뤖
뤗
뤘
뤙
뤚
뤛
뤜
뤝
뤞
뤟
뤠
뤡
뤢
뤣
뤤
뤥
뤦
뤧
뤨
뤩
뤪
뤫
뤬
뤭
뤮
뤯
뤰
뤱
뤲
뤳
뤴
뤵
뤶
뤷
뤸
뤹
뤺
뤻
뤼
뤽
뤾
뤿
륀
륁
륂
륃
륄
륅
륆
륇
륈
륉
륊
륋
륌
륍
륎
륏
륐
륑
륒
륓
륔
륕
륖
륗
류
륙
륚
륛
륜
륝
륞
륟
률
륡
륢
륣
륤
륥
륦
륧
륨
륩
륪
륫
륬
륭
륮
륯
륰
륱
륲
륳
르
륵
륶
륷
른
륹
륺
륻
를
륽
륾
륿
릀
릁
릂
릃
름
릅
릆
릇
릈
릉
릊
릋
릌
릍
릎
릏
릐
릑
릒
릓
릔
릕
릖
릗
릘
릙
릚
릛
릜
릝
릞
릟
릠
릡
릢
릣
릤
릥
릦
릧
릨
릩
릪
릫
리
릭
릮
릯
린
릱
릲
릳
릴
릵
릶
릷
릸
릹
릺
릻
림
립
릾
릿
맀
링
맂
맃
맄
맅
맆
맇
마
막
맊
맋
만
맍
많
맏
말
맑
맒
맓
맔
맕
맖
맗
맘
맙
맚
맛
맜
망
맞
맟
맠
맡
맢
맣
매
맥
맦
맧
맨
맩
맪
맫
맬
맭
맮
맯
맰
맱
맲
맳
맴
맵
맶
맷
맸
맹
맺
맻
맼
맽
맾
맿
먀
먁
먂
먃
먄
먅
먆
먇
먈
먉
먊
먋
먌
먍
먎
먏
먐
먑
먒
먓
먔
먕
먖
먗
먘
먙
먚
먛
먜
먝
먞
먟
먠
먡
먢
먣
먤
먥
먦
먧
먨
먩
먪
먫
먬
먭
먮
먯
먰
먱
먲
먳
먴
먵
먶
먷
머
먹
먺
먻
먼
먽
먾
먿
멀
멁
멂
멃
멄
멅
멆
멇
멈
멉
멊
멋
멌
멍
멎
멏
멐
멑
멒
멓
메
멕
멖
멗
멘
멙
멚
멛
멜
멝
멞
멟
멠
멡
멢
멣
멤
멥
멦
멧
멨
멩
멪
멫
멬
멭
멮
멯
며
멱
멲
멳
면
멵
멶
멷
멸
멹
멺
멻
멼
멽
멾
멿
몀
몁
몂
몃
몄
명
몆
몇
몈
몉
몊
몋
몌
몍
몎
몏
몐
몑
몒
몓
몔
몕
몖
몗
몘
몙
몚
몛
몜
몝
몞
몟
몠
몡
몢
몣
몤
몥
몦
몧
모
목
몪
몫
몬
몭
몮
몯
몰
몱
몲
몳
몴
몵
몶
몷
몸
몹
몺
못
몼
몽
몾
몿
뫀
뫁
뫂
뫃
뫄
뫅
뫆
뫇
뫈
뫉
뫊
뫋
뫌
뫍
뫎
뫏
뫐
뫑
뫒
뫓
뫔
뫕
뫖
뫗
뫘
뫙
뫚
뫛
뫜
뫝
뫞
뫟
뫠
뫡
뫢
뫣
뫤
뫥
뫦
뫧
뫨
뫩
뫪
뫫
뫬
뫭
뫮
뫯
뫰
뫱
뫲
뫳
뫴
뫵
뫶
뫷
뫸
뫹
뫺
뫻
뫼
뫽
뫾
뫿
묀
묁
묂
묃
묄
묅
묆
묇
묈
묉
묊
묋
묌
묍
묎
묏
묐
묑
묒
묓
묔
묕
묖
묗
묘
묙
묚
묛
묜
묝
묞
묟
묠
묡
묢
묣
묤
묥
묦
묧
묨
묩
묪
묫
묬
묭
묮
묯
묰
묱
묲
묳
무
묵
묶
묷
문
묹
묺
묻
물
묽
묾
묿
뭀
뭁
뭂
뭃
뭄
뭅
뭆
뭇
뭈
뭉
뭊
뭋
뭌
뭍
뭎
뭏
뭐
뭑
뭒
뭓
뭔
뭕
뭖
뭗
뭘
뭙
뭚
뭛
뭜
뭝
뭞
뭟
뭠
뭡
뭢
뭣
뭤
뭥
뭦
뭧
뭨
뭩
뭪
뭫
뭬
뭭
뭮
뭯
뭰
뭱
뭲
뭳
뭴
뭵
뭶
뭷
뭸
뭹
뭺
뭻
뭼
뭽
뭾
뭿
뮀
뮁
뮂
뮃
뮄
뮅
뮆
뮇
뮈
뮉
뮊
뮋
뮌
뮍
뮎
뮏
뮐
뮑
뮒
뮓
뮔
뮕
뮖
뮗
뮘
뮙
뮚
뮛
뮜
뮝
뮞
뮟
뮠
뮡
뮢
뮣
뮤
뮥
뮦
뮧
뮨
뮩
뮪
뮫
뮬
뮭
뮮
뮯
뮰
뮱
뮲
뮳
뮴
뮵
뮶
뮷
뮸
뮹
뮺
뮻
뮼
뮽
뮾
뮿
므
믁
믂
믃
믄
믅
믆
믇
믈
믉
믊
믋
믌
믍
믎
믏
믐
믑
믒
믓
믔
믕
믖
믗
믘
믙
믚
믛
믜
믝
믞
믟
믠
믡
믢
믣
믤
믥
믦
믧
믨
믩
믪
믫
믬
믭
믮
믯
믰
믱
믲
믳
믴
믵
믶
믷
미
믹
믺
믻
민
믽
믾
믿
밀
밁
밂
밃
밄
밅
밆
밇
밈
밉
밊
밋
밌
밍
밎
및
밐
밑
밒
밓
바
박
밖
밗
반
밙
밚
받
발
밝
밞
밟
밠
밡
밢
밣
밤
밥
밦
밧
밨
방
밪
밫
밬
밭
밮
밯
배
백
밲
밳
밴
밵
밶
밷
밸
밹
밺
밻
밼
밽
밾
밿
뱀
뱁
뱂
뱃
뱄
뱅
뱆
뱇
뱈
뱉
뱊
뱋
뱌
뱍
뱎
뱏
뱐
뱑
뱒
뱓
뱔
뱕
뱖
뱗
뱘
뱙
뱚
뱛
뱜
뱝
뱞
뱟
뱠
뱡
뱢
뱣
뱤
뱥
뱦
뱧
뱨
뱩
뱪
뱫
뱬
뱭
뱮
뱯
뱰
뱱
뱲
뱳
뱴
뱵
뱶
뱷
뱸
뱹
뱺
뱻
뱼
뱽
뱾
뱿
벀
벁
벂
벃
버
벅
벆
벇
번
벉
벊
벋
벌
벍
벎
벏
벐
벑
벒
벓
범
법
벖
벗
벘
벙
벚
벛
벜
벝
벞
벟
베
벡
벢
벣
벤
벥
벦
벧
벨
벩
벪
벫
벬
벭
벮
벯
벰
벱
벲
벳
벴
벵
벶
벷
벸
벹
벺
벻
벼
벽
벾
벿
변
볁
볂
볃
별
볅
볆
볇
볈
볉
볊
볋
볌
볍
볎
볏
볐
병
볒
볓
볔
볕
볖
볗
볘
볙
볚
볛
볜
볝
볞
볟
볠
볡
볢
볣
볤
볥
볦
볧
볨
볩
볪
볫
볬
볭
볮
볯
볰
볱
볲
볳
보
복
볶
볷
본
볹
볺
볻
볼
볽
볾
볿
봀
봁
봂
봃
봄
봅
봆
봇
봈
봉
봊
봋
봌
봍
봎
봏
봐
봑
봒
봓
봔
봕
봖
봗
봘
봙
봚
봛
봜
봝
봞
봟
봠
봡
봢
봣
봤
봥
봦
봧
봨
봩
봪
봫
봬
봭
봮
봯
봰
봱
봲
봳
봴
봵
봶
봷
봸
봹
봺
봻
봼
봽
봾
봿
뵀
뵁
뵂
뵃
뵄
뵅
뵆
뵇
뵈
뵉
뵊
뵋
뵌
뵍
뵎
뵏
뵐
뵑
뵒
뵓
뵔
뵕
뵖
뵗
뵘
뵙
뵚
뵛
뵜
뵝
뵞
뵟
뵠
뵡
뵢
뵣
뵤
뵥
뵦
뵧
뵨
뵩
뵪
뵫
뵬
뵭
뵮
뵯
뵰
뵱
뵲
뵳
뵴
뵵
뵶
뵷
뵸
뵹
뵺
뵻
뵼
뵽
뵾
뵿
부
북
붂
붃
분
붅
붆
붇
불
붉
붊
붋
붌
붍
붎
붏
붐
붑
붒
붓
붔
붕
붖
붗
붘
붙
붚
붛
붜
붝
붞
붟
붠
붡
붢
붣
붤
붥
붦
붧
붨
붩
붪
붫
붬
붭
붮
붯
붰
붱
붲
붳
붴
붵
붶
붷
붸
붹
붺
붻
붼
붽
붾
붿
뷀
뷁
뷂
뷃
뷄
뷅
뷆
뷇
뷈
뷉
뷊
뷋
뷌
뷍
뷎
뷏
뷐
뷑
뷒
뷓
뷔
뷕
뷖
뷗
뷘
뷙
뷚
뷛
뷜
뷝
뷞
뷟
뷠
뷡
뷢
뷣
뷤
뷥
뷦
뷧
뷨
뷩
뷪
뷫
뷬
뷭
뷮
뷯
뷰
뷱
뷲
뷳
뷴
뷵
뷶
뷷
뷸
뷹
뷺
뷻
뷼
뷽
뷾
뷿
븀
븁
븂
븃
븄
븅
븆
븇
븈
븉
븊
븋
브
븍
븎
븏
븐
븑
븒
븓
블
븕
븖
븗
븘
븙
븚
븛
븜
븝
븞
븟
븠
븡
븢
븣
븤
븥
븦
븧
븨
븩
븪
븫
븬
븭
븮
븯
븰
븱
븲
븳
븴
븵
븶
븷
븸
븹
븺
븻
븼
븽
븾
븿
빀
빁
빂
빃
비
빅
빆
빇
빈
빉
빊
빋
빌
빍
빎
빏
빐
빑
빒
빓
빔
빕
빖
빗
빘
빙
빚
빛
빜
빝
빞
빟
빠
빡
빢
빣
빤
빥
빦
빧
빨
빩
빪
빫
빬
빭
빮
빯
빰
빱
빲
빳
빴
빵
빶
빷
빸
빹
빺
빻
빼
빽
빾
빿
뺀
뺁
뺂
뺃
뺄
뺅
뺆
뺇
뺈
뺉
뺊
뺋
뺌
뺍
뺎
뺏
뺐
뺑
뺒
뺓
뺔
뺕
뺖
뺗
뺘
뺙
뺚
뺛
뺜
뺝
뺞
뺟
뺠
뺡
뺢
뺣
뺤
뺥
뺦
뺧
뺨
뺩
뺪
뺫
뺬
뺭
뺮
뺯
뺰
뺱
뺲
뺳
뺴
뺵
뺶
뺷
뺸
뺹
뺺
뺻
뺼
뺽
뺾
뺿
뻀
뻁
뻂
뻃
뻄
뻅
뻆
뻇
뻈
뻉
뻊
뻋
뻌
뻍
뻎
뻏
뻐
뻑
뻒
뻓
뻔
뻕
뻖
뻗
뻘
뻙
뻚
뻛
뻜
뻝
뻞
뻟
뻠
뻡
뻢
뻣
뻤
뻥
뻦
뻧
뻨
뻩
뻪
뻫
뻬
뻭
뻮
뻯
뻰
뻱
뻲
뻳
뻴
뻵
뻶
뻷
뻸
뻹
뻺
뻻
뻼
뻽
뻾
뻿
뼀
뼁
뼂
뼃
뼄
뼅
뼆
뼇
뼈
뼉
뼊
뼋
뼌
뼍
뼎
뼏
뼐
뼑
뼒
뼓
뼔
뼕
뼖
뼗
뼘
뼙
뼚
뼛
뼜
뼝
뼞
뼟
뼠
뼡
뼢
뼣
뼤
뼥
뼦
뼧
뼨
뼩
뼪
뼫
뼬
뼭
뼮
뼯
뼰
뼱
뼲
뼳
뼴
뼵
뼶
뼷
뼸
뼹
뼺
뼻
뼼
뼽
뼾
뼿
뽀
뽁
뽂
뽃
뽄
뽅
뽆
뽇
뽈
뽉
뽊
뽋
뽌
뽍
뽎
뽏
뽐
뽑
뽒
뽓
뽔
뽕
뽖
뽗
뽘
뽙
뽚
뽛
뽜
뽝
뽞
뽟
뽠
뽡
뽢
뽣
뽤
뽥
뽦
뽧
뽨
뽩
뽪
뽫
뽬
뽭
뽮
뽯
뽰
뽱
뽲
뽳
뽴
뽵
뽶
뽷
뽸
뽹
뽺
뽻
뽼
뽽
뽾
뽿
뾀
뾁
뾂
뾃
뾄
뾅
뾆
뾇
뾈
뾉
뾊
뾋
뾌
뾍
뾎
뾏
뾐
뾑
뾒
뾓
뾔
뾕
뾖
뾗
뾘
뾙
뾚
뾛
뾜
뾝
뾞
뾟
뾠
뾡
뾢
뾣
뾤
뾥
뾦
뾧
뾨
뾩
뾪
뾫
뾬
뾭
뾮
뾯
뾰
뾱
뾲
뾳
뾴
뾵
뾶
뾷
뾸
뾹
뾺
뾻
뾼
뾽
뾾
뾿
뿀
뿁
뿂
뿃
뿄
뿅
뿆
뿇
뿈
뿉
뿊
뿋
뿌
뿍
뿎
뿏
뿐
뿑
뿒
뿓
뿔
뿕
뿖
뿗
뿘
뿙
뿚
뿛
뿜
뿝
뿞
뿟
뿠
뿡
뿢
뿣
뿤
뿥
뿦
뿧
뿨
뿩
뿪
뿫
뿬
뿭
뿮
뿯
뿰
뿱
뿲
뿳
뿴
뿵
뿶
뿷
뿸
뿹
뿺
뿻
뿼
뿽
뿾
뿿
쀀
쀁
쀂
쀃
쀄
쀅
쀆
쀇
쀈
쀉
쀊
쀋
쀌
쀍
쀎
쀏
쀐
쀑
쀒
쀓
쀔
쀕
쀖
쀗
쀘
쀙
쀚
쀛
쀜
쀝
쀞
쀟
쀠
쀡
쀢
쀣
쀤
쀥
쀦
쀧
쀨
쀩
쀪
쀫
쀬
쀭
쀮
쀯
쀰
쀱
쀲
쀳
쀴
쀵
쀶
쀷
쀸
쀹
쀺
쀻
쀼
쀽
쀾
쀿
쁀
쁁
쁂
쁃
쁄
쁅
쁆
쁇
쁈
쁉
쁊
쁋
쁌
쁍
쁎
쁏
쁐
쁑
쁒
쁓
쁔
쁕
쁖
쁗
쁘
쁙
쁚
쁛
쁜
쁝
쁞
쁟
쁠
쁡
쁢
쁣
쁤
쁥
쁦
쁧
쁨
쁩
쁪
쁫
쁬
쁭
쁮
쁯
쁰
쁱
쁲
쁳
쁴
쁵
쁶
쁷
쁸
쁹
쁺
쁻
쁼
쁽
쁾
쁿
삀
삁
삂
삃
삄
삅
삆
삇
삈
삉
삊
삋
삌
삍
삎
삏
삐
삑
삒
삓
삔
삕
삖
삗
삘
삙
삚
삛
삜
삝
삞
삟
삠
삡
삢
삣
삤
삥
삦
삧
삨
삩
삪
삫
사
삭
삮
삯
산
삱
삲
삳
살
삵
삶
삷
삸
삹
삺
삻
삼
삽
삾
삿
샀
상
샂
샃
샄
샅
샆
샇
새
색
샊
샋
샌
샍
샎
샏
샐
샑
샒
샓
샔
샕
샖
샗
샘
샙
샚
샛
샜
생
샞
샟
샠
샡
샢
샣
샤
샥
샦
샧
샨
샩
샪
샫
샬
샭
샮
샯
샰
샱
샲
샳
샴
샵
샶
샷
샸
샹
샺
샻
샼
샽
샾
샿
섀
섁
섂
섃
섄
섅
섆
섇
섈
섉
섊
섋
섌
섍
섎
섏
섐
섑
섒
섓
섔
섕
섖
섗
섘
섙
섚
섛
서
석
섞
섟
선
섡
섢
섣
설
섥
섦
섧
섨
섩
섪
섫
섬
섭
섮
섯
섰
성
섲
섳
섴
섵
섶
섷
세
섹
섺
섻
센
섽
섾
섿
셀
셁
셂
셃
셄
셅
셆
셇
셈
셉
셊
셋
셌
셍
셎
셏
셐
셑
셒
셓
셔
셕
셖
셗
션
셙
셚
셛
셜
셝
셞
셟
셠
셡
셢
셣
셤
셥
셦
셧
셨
셩
셪
셫
셬
셭
셮
셯
셰
셱
셲
셳
셴
셵
셶
셷
셸
셹
셺
셻
셼
셽
셾
셿
솀
솁
솂
솃
솄
솅
솆
솇
솈
솉
솊
솋
소
속
솎
솏
손
솑
솒
솓
솔
솕
솖
솗
솘
솙
솚
솛
솜
솝
솞
솟
솠
송
솢
솣
솤
솥
솦
솧
솨
솩
솪
솫
솬
솭
솮
솯
솰
솱
솲
솳
솴
솵
솶
솷
솸
솹
솺
솻
솼
솽
솾
솿
쇀
쇁
쇂
쇃
쇄
쇅
쇆
쇇
쇈
쇉
쇊
쇋
쇌
쇍
쇎
쇏
쇐
쇑
쇒
쇓
쇔
쇕
쇖
쇗
쇘
쇙
쇚
쇛
쇜
쇝
쇞
쇟
쇠
쇡
쇢
쇣
쇤
쇥
쇦
쇧
쇨
쇩
쇪
쇫
쇬
쇭
쇮
쇯
쇰
쇱
쇲
쇳
쇴
쇵
쇶
쇷
쇸
쇹
쇺
쇻
쇼
쇽
쇾
쇿
숀
숁
숂
숃
숄
숅
숆
숇
숈
숉
숊
숋
숌
숍
숎
숏
숐
숑
숒
숓
숔
숕
숖
숗
수
숙
숚
숛
순
숝
숞
숟
술
숡
숢
숣
숤
숥
숦
숧
숨
숩
숪
숫
숬
숭
숮
숯
숰
숱
숲
숳
숴
숵
숶
숷
숸
숹
숺
숻
숼
숽
숾
숿
쉀
쉁
쉂
쉃
쉄
쉅
쉆
쉇
쉈
쉉
쉊
쉋
쉌
쉍
쉎
쉏
쉐
쉑
쉒
쉓
쉔
쉕
쉖
쉗
쉘
쉙
쉚
쉛
쉜
쉝
쉞
쉟
쉠
쉡
쉢
쉣
쉤
쉥
쉦
쉧
쉨
쉩
쉪
쉫
쉬
쉭
쉮
쉯
쉰
쉱
쉲
쉳
쉴
쉵
쉶
쉷
쉸
쉹
쉺
쉻
쉼
쉽
쉾
쉿
슀
슁
슂
슃
슄
슅
슆
슇
슈
슉
슊
슋
슌
슍
슎
슏
슐
슑
슒
슓
슔
슕
슖
슗
슘
슙
슚
슛
슜
슝
슞
슟
슠
슡
슢
슣
스
슥
슦
슧
슨
슩
슪
슫
슬
슭
슮
슯
슰
슱
슲
슳
슴
습
슶
슷
슸
승
슺
슻
슼
슽
슾
슿
싀
싁
싂
싃
싄
싅
싆
싇
싈
싉
싊
싋
싌
싍
싎
싏
싐
싑
싒
싓
싔
싕
싖
싗
싘
싙
싚
싛
시
식
싞
싟
신
싡
싢
싣
실
싥
싦
싧
싨
싩
싪
싫
심
십
싮
싯
싰
싱
싲
싳
싴
싵
싶
싷
싸
싹
싺
싻
싼
싽
싾
싿
쌀
쌁
쌂
쌃
쌄
쌅
쌆
쌇
쌈
쌉
쌊
쌋
쌌
쌍
쌎
쌏
쌐
쌑
쌒
쌓
쌔
쌕
쌖
쌗
쌘
쌙
쌚
쌛
쌜
쌝
쌞
쌟
쌠
쌡
쌢
쌣
쌤
쌥
쌦
쌧
쌨
쌩
쌪
쌫
쌬
쌭
쌮
쌯
쌰
쌱
쌲
쌳
쌴
쌵
쌶
쌷
쌸
쌹
쌺
쌻
쌼
쌽
쌾
쌿
썀
썁
썂
썃
썄
썅
썆
썇
썈
썉
썊
썋
썌
썍
썎
썏
썐
썑
썒
썓
썔
썕
썖
썗
썘
썙
썚
썛
썜
썝
썞
썟
썠
썡
썢
썣
썤
썥
썦
썧
써
썩
썪
썫
썬
썭
썮
썯
썰
썱
썲
썳
썴
썵
썶
썷
썸
썹
썺
썻
썼
썽
썾
썿
쎀
쎁
쎂
쎃
쎄
쎅
쎆
쎇
쎈
쎉
쎊
쎋
쎌
쎍
쎎
쎏
쎐
쎑
쎒
쎓
쎔
쎕
쎖
쎗
쎘
쎙
쎚
쎛
쎜
쎝
쎞
쎟
쎠
쎡
쎢
쎣
쎤
쎥
쎦
쎧
쎨
쎩
쎪
쎫
쎬
쎭
쎮
쎯
쎰
쎱
쎲
쎳
쎴
쎵
쎶
쎷
쎸
쎹
쎺
쎻
쎼
쎽
쎾
쎿
쏀
쏁
쏂
쏃
쏄
쏅
쏆
쏇
쏈
쏉
쏊
쏋
쏌
쏍
쏎
쏏
쏐
쏑
쏒
쏓
쏔
쏕
쏖
쏗
쏘
쏙
쏚
쏛
쏜
쏝
쏞
쏟
쏠
쏡
쏢
쏣
쏤
쏥
쏦
쏧
쏨
쏩
쏪
쏫
쏬
쏭
쏮
쏯
쏰
쏱
쏲
쏳
쏴
쏵
쏶
쏷
쏸
쏹
쏺
쏻
쏼
쏽
쏾
쏿
쐀
쐁
쐂
쐃
쐄
쐅
쐆
쐇
쐈
쐉
쐊
쐋
쐌
쐍
쐎
쐏
쐐
쐑
쐒
쐓
쐔
쐕
쐖
쐗
쐘
쐙
쐚
쐛
쐜
쐝
쐞
쐟
쐠
쐡
쐢
쐣
쐤
쐥
쐦
쐧
쐨
쐩
쐪
쐫
쐬
쐭
쐮
쐯
쐰
쐱
쐲
쐳
쐴
쐵
쐶
쐷
쐸
쐹
쐺
쐻
쐼
쐽
쐾
쐿
쑀
쑁
쑂
쑃
쑄
쑅
쑆
쑇
쑈
쑉
쑊
쑋
쑌
쑍
쑎
쑏
쑐
쑑
쑒
쑓
쑔
쑕
쑖
쑗
쑘
쑙
쑚
쑛
쑜
쑝
쑞
쑟
쑠
쑡
쑢
쑣
쑤
쑥
쑦
쑧
쑨
쑩
쑪
쑫
쑬
쑭
쑮
쑯
쑰
쑱
쑲
쑳
쑴
쑵
쑶
쑷
쑸
쑹
쑺
쑻
쑼
쑽
쑾
쑿
쒀
쒁
쒂
쒃
쒄
쒅
쒆
쒇
쒈
쒉
쒊
쒋
쒌
쒍
쒎
쒏
쒐
쒑
쒒
쒓
쒔
쒕
쒖
쒗
쒘
쒙
쒚
쒛
쒜
쒝
쒞
쒟
쒠
쒡
쒢
쒣
쒤
쒥
쒦
쒧
쒨
쒩
쒪
쒫
쒬
쒭
쒮
쒯
쒰
쒱
쒲
쒳
쒴
쒵
쒶
쒷
쒸
쒹
쒺
쒻
쒼
쒽
쒾
쒿
쓀
쓁
쓂
쓃
쓄
쓅
쓆
쓇
쓈
쓉
쓊
쓋
쓌
쓍
쓎
쓏
쓐
쓑
쓒
쓓
쓔
쓕
쓖
쓗
쓘
쓙
쓚
쓛
쓜
쓝
쓞
쓟
쓠
쓡
쓢
쓣
쓤
쓥
쓦
쓧
쓨
쓩
쓪
쓫
쓬
쓭
쓮
쓯
쓰
쓱
쓲
쓳
쓴
쓵
쓶
쓷
쓸
쓹
쓺
쓻
쓼
쓽
쓾
쓿
씀
씁
씂
씃
씄
씅
씆
씇
씈
씉
씊
씋
씌
씍
씎
씏
씐
씑
씒
씓
씔
씕
씖
씗
씘
씙
씚
씛
씜
씝
씞
씟
씠
씡
씢
씣
씤
씥
씦
씧
씨
씩
씪
씫
씬
씭
씮
씯
씰
씱
씲
씳
씴
씵
씶
씷
씸
씹
씺
씻
씼
씽
씾
씿
앀
앁
앂
앃
아
악
앆
앇
안
앉
않
앋
알
앍
앎
앏
앐
앑
앒
앓
암
압
앖
앗
았
앙
앚
앛
앜
앝
앞
앟
애
액
앢
앣
앤
앥
앦
앧
앨
앩
앪
앫
앬
앭
앮
앯
앰
앱
앲
앳
앴
앵
앶
앷
앸
앹
앺
앻
야
약
앾
앿
얀
얁
얂
얃
얄
얅
얆
얇
얈
얉
얊
얋
얌
얍
얎
얏
얐
양
얒
얓
얔
얕
얖
얗
얘
얙
얚
얛
얜
얝
얞
얟
얠
얡
얢
얣
얤
얥
얦
얧
얨
얩
얪
얫
얬
얭
얮
얯
얰
얱
얲
얳
어
억
얶
얷
언
얹
얺
얻
얼
얽
얾
얿
엀
엁
엂
엃
엄
업
없
엇
었
엉
엊
엋
엌
엍
엎
엏
에
엑
엒
엓
엔
엕
엖
엗
엘
엙
엚
엛
엜
엝
엞
엟
엠
엡
엢
엣
엤
엥
엦
엧
엨
엩
엪
엫
여
역
엮
엯
연
엱
엲
엳
열
엵
엶
엷
엸
엹
엺
엻
염
엽
엾
엿
였
영
옂
옃
옄
옅
옆
옇
예
옉
옊
옋
옌
옍
옎
옏
옐
옑
옒
옓
옔
옕
옖
옗
옘
옙
옚
옛
옜
옝
옞
옟
옠
옡
옢
옣
오
옥
옦
옧
온
옩
옪
옫
올
옭
옮
옯
옰
옱
옲
옳
옴
옵
옶
옷
옸
옹
옺
옻
옼
옽
옾
옿
와
왁
왂
왃
완
왅
왆
왇
왈
왉
왊
왋
왌
왍
왎
왏
왐
왑
왒
왓
왔
왕
왖
왗
왘
왙
왚
왛
왜
왝
왞
왟
왠
왡
왢
왣
왤
왥
왦
왧
왨
왩
왪
왫
왬
왭
왮
왯
왰
왱
왲
왳
왴
왵
왶
왷
외
왹
왺
왻
왼
왽
왾
왿
욀
욁
욂
욃
욄
욅
욆
욇
욈
욉
욊
욋
욌
욍
욎
욏
욐
욑
욒
욓
요
욕
욖
욗
욘
욙
욚
욛
욜
욝
욞
욟
욠
욡
욢
욣
욤
욥
욦
욧
욨
용
욪
욫
욬
욭
욮
욯
우
욱
욲
욳
운
욵
욶
욷
울
욹
욺
욻
욼
욽
욾
욿
움
웁
웂
웃
웄
웅
웆
웇
웈
웉
웊
웋
워
웍
웎
웏
원
웑
웒
웓
월
웕
웖
웗
웘
웙
웚
웛
웜
웝
웞
웟
웠
웡
웢
웣
웤
웥
웦
웧
웨
웩
웪
웫
웬
웭
웮
웯
웰
웱
웲
웳
웴
웵
웶
웷
웸
웹
웺
웻
웼
웽
웾
웿
윀
윁
윂
윃
위
윅
윆
윇
윈
윉
윊
윋
윌
윍
윎
윏
윐
윑
윒
윓
윔
윕
윖
윗
윘
윙
윚
윛
윜
윝
윞
윟
유
육
윢
윣
윤
윥
윦
윧
율
윩
윪
윫
윬
윭
윮
윯
윰
윱
윲
윳
윴
융
윶
윷
윸
윹
윺
윻
으
윽
윾
윿
은
읁
읂
읃
을
읅
읆
읇
읈
읉
읊
읋
음
읍
읎
읏
읐
응
읒
읓
읔
읕
읖
읗
의
읙
읚
읛
읜
읝
읞
읟
읠
읡
읢
읣
읤
읥
읦
읧
읨
읩
읪
읫
읬
읭
읮
읯
읰
읱
읲
읳
이
익
읶
읷
인
읹
읺
읻
일
읽
읾
읿
잀
잁
잂
잃
임
입
잆
잇
있
잉
잊
잋
잌
잍
잎
잏
자
작
잒
잓
잔
잕
잖
잗
잘
잙
잚
잛
잜
잝
잞
잟
잠
잡
잢
잣
잤
장
잦
잧
잨
잩
잪
잫
재
잭
잮
잯
잰
잱
잲
잳
잴
잵
잶
잷
잸
잹
잺
잻
잼
잽
잾
잿
쟀
쟁
쟂
쟃
쟄
쟅
쟆
쟇
쟈
쟉
쟊
쟋
쟌
쟍
쟎
쟏
쟐
쟑
쟒
쟓
쟔
쟕
쟖
쟗
쟘
쟙
쟚
쟛
쟜
쟝
쟞
쟟
쟠
쟡
쟢
쟣
쟤
쟥
쟦
쟧
쟨
쟩
쟪
쟫
쟬
쟭
쟮
쟯
쟰
쟱
쟲
쟳
쟴
쟵
쟶
쟷
쟸
쟹
쟺
쟻
쟼
쟽
쟾
쟿
저
적
젂
젃
전
젅
젆
젇
절
젉
젊
젋
젌
젍
젎
젏
점
접
젒
젓
젔
정
젖
젗
젘
젙
젚
젛
제
젝
젞
젟
젠
젡
젢
젣
젤
젥
젦
젧
젨
젩
젪
젫
젬
젭
젮
젯
젰
젱
젲
젳
젴
젵
젶
젷
져
젹
젺
젻
젼
젽
젾
젿
졀
졁
졂
졃
졄
졅
졆
졇
졈
졉
졊
졋
졌
졍
졎
졏
졐
졑
졒
졓
졔
졕
졖
졗
졘
졙
졚
졛
졜
졝
졞
졟
졠
졡
졢
졣
졤
졥
졦
졧
졨
졩
졪
졫
졬
졭
졮
졯
조
족
졲
졳
존
졵
졶
졷
졸
졹
졺
졻
졼
졽
졾
졿
좀
좁
좂
좃
좄
종
좆
좇
좈
좉
좊
좋
좌
좍
좎
좏
좐
좑
좒
좓
좔
좕
좖
좗
좘
좙
좚
좛
좜
좝
좞
좟
좠
좡
좢
좣
좤
좥
좦
좧
좨
좩
좪
좫
좬
좭
좮
좯
좰
좱
좲
좳
좴
좵
좶
좷
좸
좹
좺
좻
좼
좽
좾
좿
죀
죁
죂
죃
죄
죅
죆
죇
죈
죉
죊
죋
죌
죍
죎
죏
죐
죑
죒
죓
죔
죕
죖
죗
죘
죙
죚
죛
죜
죝
죞
죟
죠
죡
죢
죣
죤
죥
죦
죧
죨
죩
죪
죫
죬
죭
죮
죯
죰
죱
죲
죳
죴
죵
죶
죷
죸
죹
죺
죻
주
죽
죾
죿
준
줁
줂
줃
줄
줅
줆
줇
줈
줉
줊
줋
줌
줍
줎
줏
줐
중
줒
줓
줔
줕
줖
줗
줘
줙
줚
줛
줜
줝
줞
줟
줠
줡
줢
줣
줤
줥
줦
줧
줨
줩
줪
줫
줬
줭
줮
줯
줰
줱
줲
줳
줴
줵
줶
줷
줸
줹
줺
줻
줼
줽
줾
줿
쥀
쥁
쥂
쥃
쥄
쥅
쥆
쥇
쥈
쥉
쥊
쥋
쥌
쥍
쥎
쥏
쥐
쥑
쥒
쥓
쥔
쥕
쥖
쥗
쥘
쥙
쥚
쥛
쥜
쥝
쥞
쥟
쥠
쥡
쥢
쥣
쥤
쥥
쥦
쥧
쥨
쥩
쥪
쥫
쥬
쥭
쥮
쥯
쥰
쥱
쥲
쥳
쥴
쥵
쥶
쥷
쥸
쥹
쥺
쥻
쥼
쥽
쥾
쥿
즀
즁
즂
즃
즄
즅
즆
즇
즈
즉
즊
즋
즌
즍
즎
즏
즐
즑
즒
즓
즔
즕
즖
즗
즘
즙
즚
즛
즜
증
즞
즟
즠
즡
즢
즣
즤
즥
즦
즧
즨
즩
즪
즫
즬
즭
즮
즯
즰
즱
즲
즳
즴
즵
즶
즷
즸
즹
즺
즻
즼
즽
즾
즿
지
직
짂
짃
진
짅
짆
짇
질
짉
짊
짋
짌
짍
짎
짏
짐
집
짒
짓
짔
징
짖
짗
짘
짙
짚
짛
짜
짝
짞
짟
짠
짡
짢
짣
짤
짥
짦
짧
짨
짩
짪
짫
짬
짭
짮
짯
짰
짱
짲
짳
짴
짵
짶
짷
째
짹
짺
짻
짼
짽
짾
짿
쨀
쨁
쨂
쨃
쨄
쨅
쨆
쨇
쨈
쨉
쨊
쨋
쨌
쨍
쨎
쨏
쨐
쨑
쨒
쨓
쨔
쨕
쨖
쨗
쨘
쨙
쨚
쨛
쨜
쨝
쨞
쨟
쨠
쨡
쨢
쨣
쨤
쨥
쨦
쨧
쨨
쨩
쨪
쨫
쨬
쨭
쨮
쨯
쨰
쨱
쨲
쨳
쨴
쨵
쨶
쨷
쨸
쨹
쨺
쨻
쨼
쨽
쨾
쨿
쩀
쩁
쩂
쩃
쩄
쩅
쩆
쩇
쩈
쩉
쩊
쩋
쩌
쩍
쩎
쩏
쩐
쩑
쩒
쩓
쩔
쩕
쩖
쩗
쩘
쩙
쩚
쩛
쩜
쩝
쩞
쩟
쩠
쩡
쩢
쩣
쩤
쩥
쩦
쩧
쩨
쩩
쩪
쩫
쩬
쩭
쩮
쩯
쩰
쩱
쩲
쩳
쩴
쩵
쩶
쩷
쩸
쩹
쩺
쩻
쩼
쩽
쩾
쩿
쪀
쪁
쪂
쪃
쪄
쪅
쪆
쪇
쪈
쪉
쪊
쪋
쪌
쪍
쪎
쪏
쪐
쪑
쪒
쪓
쪔
쪕
쪖
쪗
쪘
쪙
쪚
쪛
쪜
쪝
쪞
쪟
쪠
쪡
쪢
쪣
쪤
쪥
쪦
쪧
쪨
쪩
쪪
쪫
쪬
쪭
쪮
쪯
쪰
쪱
쪲
쪳
쪴
쪵
쪶
쪷
쪸
쪹
쪺
쪻
쪼
쪽
쪾
쪿
쫀
쫁
쫂
쫃
쫄
쫅
쫆
쫇
쫈
쫉
쫊
쫋
쫌
쫍
쫎
쫏
쫐
쫑
쫒
쫓
쫔
쫕
쫖
쫗
쫘
쫙
쫚
쫛
쫜
쫝
쫞
쫟
쫠
쫡
쫢
쫣
쫤
쫥
쫦
쫧
쫨
쫩
쫪
쫫
쫬
쫭
쫮
쫯
쫰
쫱
쫲
쫳
쫴
쫵
쫶
쫷
쫸
쫹
쫺
쫻
쫼
쫽
쫾
쫿
쬀
쬁
쬂
쬃
쬄
쬅
쬆
쬇
쬈
쬉
쬊
쬋
쬌
쬍
쬎
쬏
쬐
쬑
쬒
쬓
쬔
쬕
쬖
쬗
쬘
쬙
쬚
쬛
쬜
쬝
쬞
쬟
쬠
쬡
쬢
쬣
쬤
쬥
쬦
쬧
쬨
쬩
쬪
쬫
쬬
쬭
쬮
쬯
쬰
쬱
쬲
쬳
쬴
쬵
쬶
쬷
쬸
쬹
쬺
쬻
쬼
쬽
쬾
쬿
쭀
쭁
쭂
쭃
쭄
쭅
쭆
쭇
쭈
쭉
쭊
쭋
쭌
쭍
쭎
쭏
쭐
쭑
쭒
쭓
쭔
쭕
쭖
쭗
쭘
쭙
쭚
쭛
쭜
쭝
쭞
쭟
쭠
쭡
쭢
쭣
쭤
쭥
쭦
쭧
쭨
쭩
쭪
쭫
쭬
쭭
쭮
쭯
쭰
쭱
쭲
쭳
쭴
쭵
쭶
쭷
쭸
쭹
쭺
쭻
쭼
쭽
쭾
쭿
쮀
쮁
쮂
쮃
쮄
쮅
쮆
쮇
쮈
쮉
쮊
쮋
쮌
쮍
쮎
쮏
쮐
쮑
쮒
쮓
쮔
쮕
쮖
쮗
쮘
쮙
쮚
쮛
쮜
쮝
쮞
쮟
쮠
쮡
쮢
쮣
쮤
쮥
쮦
쮧
쮨
쮩
쮪
쮫
쮬
쮭
쮮
쮯
쮰
쮱
쮲
쮳
쮴
쮵
쮶
쮷
쮸
쮹
쮺
쮻
쮼
쮽
쮾
쮿
쯀
쯁
쯂
쯃
쯄
쯅
쯆
쯇
쯈
쯉
쯊
쯋
쯌
쯍
쯎
쯏
쯐
쯑
쯒
쯓
쯔
쯕
쯖
쯗
쯘
쯙
쯚
쯛
쯜
쯝
쯞
쯟
쯠
쯡
쯢
쯣
쯤
쯥
쯦
쯧
쯨
쯩
쯪
쯫
쯬
쯭
쯮
쯯
쯰
쯱
쯲
쯳
쯴
쯵
쯶
쯷
쯸
쯹
쯺
쯻
쯼
쯽
쯾
쯿
찀
찁
찂
찃
찄
찅
찆
찇
찈
찉
찊
찋
찌
찍
찎
찏
찐
찑
찒
찓
찔
찕
찖
찗
찘
찙
찚
찛
찜
찝
찞
찟
찠
찡
찢
찣
찤
찥
찦
찧
차
착
찪
찫
찬
찭
찮
찯
찰
찱
찲
찳
찴
찵
찶
찷
참
찹
찺
찻
찼
창
찾
찿
챀
챁
챂
챃
채
책
챆
챇
챈
챉
챊
챋
챌
챍
챎
챏
챐
챑
챒
챓
챔
챕
챖
챗
챘
챙
챚
챛
챜
챝
챞
챟
챠
챡
챢
챣
챤
챥
챦
챧
챨
챩
챪
챫
챬
챭
챮
챯
챰
챱
챲
챳
챴
챵
챶
챷
챸
챹
챺
챻
챼
챽
챾
챿
첀
첁
첂
첃
첄
첅
첆
첇
첈
첉
첊
첋
첌
첍
첎
첏
첐
첑
첒
첓
첔
첕
첖
첗
처
척
첚
첛
천
첝
첞
첟
철
첡
첢
첣
첤
첥
첦
첧
첨
첩
첪
첫
첬
청
첮
첯
첰
첱
첲
첳
체
첵
첶
첷
첸
첹
첺
첻
첼
첽
첾
첿
쳀
쳁
쳂
쳃
쳄
쳅
쳆
쳇
쳈
쳉
쳊
쳋
쳌
쳍
쳎
쳏
쳐
쳑
쳒
쳓
쳔
쳕
쳖
쳗
쳘
쳙
쳚
쳛
쳜
쳝
쳞
쳟
쳠
쳡
쳢
쳣
쳤
쳥
쳦
쳧
쳨
쳩
쳪
쳫
쳬
쳭
쳮
쳯
쳰
쳱
쳲
쳳
쳴
쳵
쳶
쳷
쳸
쳹
쳺
쳻
쳼
쳽
쳾
쳿
촀
촁
촂
촃
촄
촅
촆
촇
초
촉
촊
촋
촌
촍
촎
촏
촐
촑
촒
촓
촔
촕
촖
촗
촘
촙
촚
촛
촜
총
촞
촟
촠
촡
촢
촣
촤
촥
촦
촧
촨
촩
촪
촫
촬
촭
촮
촯
촰
촱
촲
촳
촴
촵
촶
촷
촸
촹
촺
촻
촼
촽
촾
촿
쵀
쵁
쵂
쵃
쵄
쵅
쵆
쵇
쵈
쵉
쵊
쵋
쵌
쵍
쵎
쵏
쵐
쵑
쵒
쵓
쵔
쵕
쵖
쵗
쵘
쵙
쵚
쵛
최
쵝
쵞
쵟
쵠
쵡
쵢
쵣
쵤
쵥
쵦
쵧
쵨
쵩
쵪
쵫
쵬
쵭
쵮
쵯
쵰
쵱
쵲
쵳
쵴
쵵
쵶
쵷
쵸
쵹
쵺
쵻
쵼
쵽
쵾
쵿
춀
춁
춂
춃
춄
춅
춆
춇
춈
춉
춊
춋
춌
춍
춎
춏
춐
춑
춒
춓
추
축
춖
춗
춘
춙
춚
춛
출
춝
춞
춟
춠
춡
춢
춣
춤
춥
춦
춧
춨
충
춪
춫
춬
춭
춮
춯
춰
춱
춲
춳
춴
춵
춶
춷
춸
춹
춺
춻
춼
춽
춾
춿
췀
췁
췂
췃
췄
췅
췆
췇
췈
췉
췊
췋
췌
췍
췎
췏
췐
췑
췒
췓
췔
췕
췖
췗
췘
췙
췚
췛
췜
췝
췞
췟
췠
췡
췢
췣
췤
췥
췦
췧
취
췩
췪
췫
췬
췭
췮
췯
췰
췱
췲
췳
췴
췵
췶
췷
췸
췹
췺
췻
췼
췽
췾
췿
츀
츁
츂
츃
츄
츅
츆
츇
츈
츉
츊
츋
츌
츍
츎
츏
츐
츑
츒
츓
츔
츕
츖
츗
츘
츙
츚
츛
츜
츝
츞
츟
츠
측
츢
츣
츤
츥
츦
츧
츨
츩
츪
츫
츬
츭
츮
츯
츰
츱
츲
츳
츴
층
츶
츷
츸
츹
츺
츻
츼
츽
츾
츿
칀
칁
칂
칃
칄
칅
칆
칇
칈
칉
칊
칋
칌
칍
칎
칏
칐
칑
칒
칓
칔
칕
칖
칗
치
칙
칚
칛
친
칝
칞
칟
칠
칡
칢
칣
칤
칥
칦
칧
침
칩
칪
칫
칬
칭
칮
칯
칰
칱
칲
칳
카
칵
칶
칷
칸
칹
칺
칻
칼
칽
칾
칿
캀
캁
캂
캃
캄
캅
캆
캇
캈
캉
캊
캋
캌
캍
캎
캏
캐
캑
캒
캓
캔
캕
캖
캗
캘
캙
캚
캛
캜
캝
캞
캟
캠
캡
캢
캣
캤
캥
캦
캧
캨
캩
캪
캫
캬
캭
캮
캯
캰
캱
캲
캳
캴
캵
캶
캷
캸
캹
캺
캻
캼
캽
캾
캿
컀
컁
컂
컃
컄
컅
컆
컇
컈
컉
컊
컋
컌
컍
컎
컏
컐
컑
컒
컓
컔
컕
컖
컗
컘
컙
컚
컛
컜
컝
컞
컟
컠
컡
컢
컣
커
컥
컦
컧
컨
컩
컪
컫
컬
컭
컮
컯
컰
컱
컲
컳
컴
컵
컶
컷
컸
컹
컺
컻
컼
컽
컾
컿
케
켁
켂
켃
켄
켅
켆
켇
켈
켉
켊
켋
켌
켍
켎
켏
켐
켑
켒
켓
켔
켕
켖
켗
켘
켙
켚
켛
켜
켝
켞
켟
켠
켡
켢
켣
켤
켥
켦
켧
켨
켩
켪
켫
켬
켭
켮
켯
켰
켱
켲
켳
켴
켵
켶
켷
켸
켹
켺
켻
켼
켽
켾
켿
콀
콁
콂
콃
콄
콅
콆
콇
콈
콉
콊
콋
콌
콍
콎
콏
콐
콑
콒
콓
코
콕
콖
콗
콘
콙
콚
콛
콜
콝
콞
콟
콠
콡
콢
콣
콤
콥
콦
콧
콨
콩
콪
콫
콬
콭
콮
콯
콰
콱
콲
콳
콴
콵
콶
콷
콸
콹
콺
콻
콼
콽
콾
콿
쾀
쾁
쾂
쾃
쾄
쾅
쾆
쾇
쾈
쾉
쾊
쾋
쾌
쾍
쾎
쾏
쾐
쾑
쾒
쾓
쾔
쾕
쾖
쾗
쾘
쾙
쾚
쾛
쾜
쾝
쾞
쾟
쾠
쾡
쾢
쾣
쾤
쾥
쾦
쾧
쾨
쾩
쾪
쾫
쾬
쾭
쾮
쾯
쾰
쾱
쾲
쾳
쾴
쾵
쾶
쾷
쾸
쾹
쾺
쾻
쾼
쾽
쾾
쾿
쿀
쿁
쿂
쿃
쿄
쿅
쿆
쿇
쿈
쿉
쿊
쿋
쿌
쿍
쿎
쿏
쿐
쿑
쿒
쿓
쿔
쿕
쿖
쿗
쿘
쿙
쿚
쿛
쿜
쿝
쿞
쿟
쿠
쿡
쿢
쿣
쿤
쿥
쿦
쿧
쿨
쿩
쿪
쿫
쿬
쿭
쿮
쿯
쿰
쿱
쿲
쿳
쿴
쿵
쿶
쿷
쿸
쿹
쿺
쿻
쿼
쿽
쿾
쿿
퀀
퀁
퀂
퀃
퀄
퀅
퀆
퀇
퀈
퀉
퀊
퀋
퀌
퀍
퀎
퀏
퀐
퀑
퀒
퀓
퀔
퀕
퀖
퀗
퀘
퀙
퀚
퀛
퀜
퀝
퀞
퀟
퀠
퀡
퀢
퀣
퀤
퀥
퀦
퀧
퀨
퀩
퀪
퀫
퀬
퀭
퀮
퀯
퀰
퀱
퀲
퀳
퀴
퀵
퀶
퀷
퀸
퀹
퀺
퀻
퀼
퀽
퀾
퀿
큀
큁
큂
큃
큄
큅
큆
큇
큈
큉
큊
큋
큌
큍
큎
큏
큐
큑
큒
큓
큔
큕
큖
큗
큘
큙
큚
큛
큜
큝
큞
큟
큠
큡
큢
큣
큤
큥
큦
큧
큨
큩
큪
큫
크
큭
큮
큯
큰
큱
큲
큳
클
큵
큶
큷
큸
큹
큺
큻
큼
큽
큾
큿
킀
킁
킂
킃
킄
킅
킆
킇
킈
킉
킊
킋
킌
킍
킎
킏
킐
킑
킒
킓
킔
킕
킖
킗
킘
킙
킚
킛
킜
킝
킞
킟
킠
킡
킢
킣
키
킥
킦
킧
킨
킩
킪
킫
킬
킭
킮
킯
킰
킱
킲
킳
킴
킵
킶
킷
킸
킹
킺
킻
킼
킽
킾
킿
타
탁
탂
탃
탄
탅
탆
탇
탈
탉
탊
탋
탌
탍
탎
탏
탐
탑
탒
탓
탔
탕
탖
탗
탘
탙
탚
탛
태
택
탞
탟
탠
탡
탢
탣
탤
탥
탦
탧
탨
탩
탪
탫
탬
탭
탮
탯
탰
탱
탲
탳
탴
탵
탶
탷
탸
탹
탺
탻
탼
탽
탾
탿
턀
턁
턂
턃
턄
턅
턆
턇
턈
턉
턊
턋
턌
턍
턎
턏
턐
턑
턒
턓
턔
턕
턖
턗
턘
턙
턚
턛
턜
턝
턞
턟
턠
턡
턢
턣
턤
턥
턦
턧
턨
턩
턪
턫
턬
턭
턮
턯
터
턱
턲
턳
턴
턵
턶
턷
털
턹
턺
턻
턼
턽
턾
턿
텀
텁
텂
텃
텄
텅
텆
텇
텈
텉
텊
텋
테
텍
텎
텏
텐
텑
텒
텓
텔
텕
텖
텗
텘
텙
텚
텛
템
텝
텞
텟
텠
텡
텢
텣
텤
텥
텦
텧
텨
텩
텪
텫
텬
텭
텮
텯
텰
텱
텲
텳
텴
텵
텶
텷
텸
텹
텺
텻
텼
텽
텾
텿
톀
톁
톂
톃
톄
톅
톆
톇
톈
톉
톊
톋
톌
톍
톎
톏
톐
톑
톒
톓
톔
톕
톖
톗
톘
톙
톚
톛
톜
톝
톞
톟
토
톡
톢
톣
톤
톥
톦
톧
톨
톩
톪
톫
톬
톭
톮
톯
톰
톱
톲
톳
톴
통
톶
톷
톸
톹
톺
톻
톼
톽
톾
톿
퇀
퇁
퇂
퇃
퇄
퇅
퇆
퇇
퇈
퇉
퇊
퇋
퇌
퇍
퇎
퇏
퇐
퇑
퇒
퇓
퇔
퇕
퇖
퇗
퇘
퇙
퇚
퇛
퇜
퇝
퇞
퇟
퇠
퇡
퇢
퇣
퇤
퇥
퇦
퇧
퇨
퇩
퇪
퇫
퇬
퇭
퇮
퇯
퇰
퇱
퇲
퇳
퇴
퇵
퇶
퇷
퇸
퇹
퇺
퇻
퇼
퇽
퇾
퇿
툀
툁
툂
툃
툄
툅
툆
툇
툈
툉
툊
툋
툌
툍
툎
툏
툐
툑
툒
툓
툔
툕
툖
툗
툘
툙
툚
툛
툜
툝
툞
툟
툠
툡
툢
툣
툤
툥
툦
툧
툨
툩
툪
툫
투
툭
툮
툯
툰
툱
툲
툳
툴
툵
툶
툷
툸
툹
툺
툻
툼
툽
툾
툿
퉀
퉁
퉂
퉃
퉄
퉅
퉆
퉇
퉈
퉉
퉊
퉋
퉌
퉍
퉎
퉏
퉐
퉑
퉒
퉓
퉔
퉕
퉖
퉗
퉘
퉙
퉚
퉛
퉜
퉝
퉞
퉟
퉠
퉡
퉢
퉣
퉤
퉥
퉦
퉧
퉨
퉩
퉪
퉫
퉬
퉭
퉮
퉯
퉰
퉱
퉲
퉳
퉴
퉵
퉶
퉷
퉸
퉹
퉺
퉻
퉼
퉽
퉾
퉿
튀
튁
튂
튃
튄
튅
튆
튇
튈
튉
튊
튋
튌
튍
튎
튏
튐
튑
튒
튓
튔
튕
튖
튗
튘
튙
튚
튛
튜
튝
튞
튟
튠
튡
튢
튣
튤
튥
튦
튧
튨
튩
튪
튫
튬
튭
튮
튯
튰
튱
튲
튳
튴
튵
튶
튷
트
특
튺
튻
튼
튽
튾
튿
틀
틁
틂
틃
틄
틅
틆
틇
틈
틉
틊
틋
틌
틍
틎
틏
틐
틑
틒
틓
틔
틕
틖
틗
틘
틙
틚
틛
틜
틝
틞
틟
틠
틡
틢
틣
틤
틥
틦
틧
틨
틩
틪
틫
틬
틭
틮
틯
티
틱
틲
틳
틴
틵
틶
틷
틸
틹
틺
틻
틼
틽
틾
틿
팀
팁
팂
팃
팄
팅
팆
팇
팈
팉
팊
팋
파
팍
팎
팏
판
팑
팒
팓
팔
팕
팖
팗
팘
팙
팚
팛
팜
팝
팞
팟
팠
팡
팢
팣
팤
팥
팦
팧
패
팩
팪
팫
팬
팭
팮
팯
팰
팱
팲
팳
팴
팵
팶
팷
팸
팹
팺
팻
팼
팽
팾
팿
퍀
퍁
퍂
퍃
퍄
퍅
퍆
퍇
퍈
퍉
퍊
퍋
퍌
퍍
퍎
퍏
퍐
퍑
퍒
퍓
퍔
퍕
퍖
퍗
퍘
퍙
퍚
퍛
퍜
퍝
퍞
퍟
퍠
퍡
퍢
퍣
퍤
퍥
퍦
퍧
퍨
퍩
퍪
퍫
퍬
퍭
퍮
퍯
퍰
퍱
퍲
퍳
퍴
퍵
퍶
퍷
퍸
퍹
퍺
퍻
퍼
퍽
퍾
퍿
펀
펁
펂
펃
펄
펅
펆
펇
펈
펉
펊
펋
펌
펍
펎
펏
펐
펑
펒
펓
펔
펕
펖
펗
페
펙
펚
펛
펜
펝
펞
펟
펠
펡
펢
펣
펤
펥
펦
펧
펨
펩
펪
펫
펬
펭
펮
펯
펰
펱
펲
펳
펴
펵
펶
펷
편
펹
펺
펻
펼
펽
펾
펿
폀
폁
폂
폃
폄
폅
폆
폇
폈
평
폊
폋
폌
폍
폎
폏
폐
폑
폒
폓
폔
폕
폖
폗
폘
폙
폚
폛
폜
폝
폞
폟
폠
폡
폢
폣
폤
폥
폦
폧
폨
폩
폪
폫
포
폭
폮
폯
폰
폱
폲
폳
폴
폵
폶
폷
폸
폹
폺
폻
폼
폽
폾
폿
퐀
퐁
퐂
퐃
퐄
퐅
퐆
퐇
퐈
퐉
퐊
퐋
퐌
퐍
퐎
퐏
퐐
퐑
퐒
퐓
퐔
퐕
퐖
퐗
퐘
퐙
퐚
퐛
퐜
퐝
퐞
퐟
퐠
퐡
퐢
퐣
퐤
퐥
퐦
퐧
퐨
퐩
퐪
퐫
퐬
퐭
퐮
퐯
퐰
퐱
퐲
퐳
퐴
퐵
퐶
퐷
퐸
퐹
퐺
퐻
퐼
퐽
퐾
퐿
푀
푁
푂
푃
푄
푅
푆
푇
푈
푉
푊
푋
푌
푍
푎
푏
푐
푑
푒
푓
푔
푕
푖
푗
푘
푙
푚
푛
표
푝
푞
푟
푠
푡
푢
푣
푤
푥
푦
푧
푨
푩
푪
푫
푬
푭
푮
푯
푰
푱
푲
푳
푴
푵
푶
푷
푸
푹
푺
푻
푼
푽
푾
푿
풀
풁
풂
풃
풄
풅
풆
풇
품
풉
풊
풋
풌
풍
풎
풏
풐
풑
풒
풓
풔
풕
풖
풗
풘
풙
풚
풛
풜
풝
풞
풟
풠
풡
풢
풣
풤
풥
풦
풧
풨
풩
풪
풫
풬
풭
풮
풯
풰
풱
풲
풳
풴
풵
풶
풷
풸
풹
풺
풻
풼
풽
풾
풿
퓀
퓁
퓂
퓃
퓄
퓅
퓆
퓇
퓈
퓉
퓊
퓋
퓌
퓍
퓎
퓏
퓐
퓑
퓒
퓓
퓔
퓕
퓖
퓗
퓘
퓙
퓚
퓛
퓜
퓝
퓞
퓟
퓠
퓡
퓢
퓣
퓤
퓥
퓦
퓧
퓨
퓩
퓪
퓫
퓬
퓭
퓮
퓯
퓰
퓱
퓲
퓳
퓴
퓵
퓶
퓷
퓸
퓹
퓺
퓻
퓼
퓽
퓾
퓿
픀
픁
픂
픃
프
픅
픆
픇
픈
픉
픊
픋
플
픍
픎
픏
픐
픑
픒
픓
픔
픕
픖
픗
픘
픙
픚
픛
픜
픝
픞
픟
픠
픡
픢
픣
픤
픥
픦
픧
픨
픩
픪
픫
픬
픭
픮
픯
픰
픱
픲
픳
픴
픵
픶
픷
픸
픹
픺
픻
피
픽
픾
픿
핀
핁
핂
핃
필
핅
핆
핇
핈
핉
핊
핋
핌
핍
핎
핏
핐
핑
핒
핓
핔
핕
핖
핗
하
학
핚
핛
한
핝
핞
핟
할
핡
핢
핣
핤
핥
핦
핧
함
합
핪
핫
핬
항
핮
핯
핰
핱
핲
핳
해
핵
핶
핷
핸
핹
핺
핻
핼
핽
핾
핿
햀
햁
햂
햃
햄
햅
햆
햇
했
행
햊
햋
햌
햍
햎
햏
햐
햑
햒
햓
햔
햕
햖
햗
햘
햙
햚
햛
햜
햝
햞
햟
햠
햡
햢
햣
햤
향
햦
햧
햨
햩
햪
햫
햬
햭
햮
햯
햰
햱
햲
햳
햴
햵
햶
햷
햸
햹
햺
햻
햼
햽
햾
햿
헀
헁
헂
헃
헄
헅
헆
헇
허
헉
헊
헋
헌
헍
헎
헏
헐
헑
헒
헓
헔
헕
헖
헗
험
헙
헚
헛
헜
헝
헞
헟
헠
헡
헢
헣
헤
헥
헦
헧
헨
헩
헪
헫
헬
헭
헮
헯
헰
헱
헲
헳
헴
헵
헶
헷
헸
헹
헺
헻
헼
헽
헾
헿
혀
혁
혂
혃
현
혅
혆
혇
혈
혉
혊
혋
혌
혍
혎
혏
혐
협
혒
혓
혔
형
혖
혗
혘
혙
혚
혛
혜
혝
혞
혟
혠
혡
혢
혣
혤
혥
혦
혧
혨
혩
혪
혫
혬
혭
혮
혯
혰
혱
혲
혳
혴
혵
혶
혷
호
혹
혺
혻
혼
혽
혾
혿
홀
홁
홂
홃
홄
홅
홆
홇
홈
홉
홊
홋
홌
홍
홎
홏
홐
홑
홒
홓
화
확
홖
홗
환
홙
홚
홛
활
홝
홞
홟
홠
홡
홢
홣
홤
홥
홦
홧
홨
황
홪
홫
홬
홭
홮
홯
홰
홱
홲
홳
홴
홵
홶
홷
홸
홹
홺
홻
홼
홽
홾
홿
횀
횁
횂
횃
횄
횅
횆
횇
횈
횉
횊
횋
회
획
횎
횏
횐
횑
횒
횓
횔
횕
횖
횗
횘
횙
횚
횛
횜
횝
횞
횟
횠
횡
횢
횣
횤
횥
횦
횧
효
횩
횪
횫
횬
횭
횮
횯
횰
횱
횲
횳
횴
횵
횶
횷
횸
횹
횺
횻
횼
횽
횾
횿
훀
훁
훂
훃
후
훅
훆
훇
훈
훉
훊
훋
훌
훍
훎
훏
훐
훑
훒
훓
훔
훕
훖
훗
훘
훙
훚
훛
훜
훝
훞
훟
훠
훡
훢
훣
훤
훥
훦
훧
훨
훩
훪
훫
훬
훭
훮
훯
훰
훱
훲
훳
훴
훵
훶
훷
훸
훹
훺
훻
훼
훽
훾
훿
휀
휁
휂
휃
휄
휅
휆
휇
휈
휉
휊
휋
휌
휍
휎
휏
휐
휑
휒
휓
휔
휕
휖
휗
휘
휙
휚
휛
휜
휝
휞
휟
휠
휡
휢
휣
휤
휥
휦
휧
휨
휩
휪
휫
휬
휭
휮
휯
휰
휱
휲
휳
휴
휵
휶
휷
휸
휹
휺
휻
휼
휽
휾
휿
흀
흁
흂
흃
흄
흅
흆
흇
흈
흉
흊
흋
흌
흍
흎
흏
흐
흑
흒
흓
흔
흕
흖
흗
흘
흙
흚
흛
흜
흝
흞
흟
흠
흡
흢
흣
흤
흥
흦
흧
흨
흩
흪
흫
희
흭
흮
흯
흰
흱
흲
흳
흴
흵
흶
흷
흸
흹
흺
흻
흼
흽
흾
흿
힀
힁
힂
힃
힄
힅
힆
힇
히
힉
힊
힋
힌
힍
힎
힏
힐
힑
힒
힓
힔
힕
힖
힗
힘
힙
힚
힛
힜
힝
힞
힟
힠
힡
힢
힣
##위
##군
##의
##성
##청
##송
##영
##덕
##은
##R
##G
##O
##S
##근
##했
##는
##데
##도
##l
##!
##크
##바
##르
##트
##마
##목
##으
##로
##부
##터
##a
##y
##리
##클
##럽
##완
##?
##프
##약
##손
##V
##:
##칸
##자
##키
##아
##졌
##을
##뿐
##더
##러
##소
##고
##코
##치
##와
##다
##.
##"
##인
##라
##겐
##만
##재
##'
##태
##m
##e
##-
##F
##블
##랙
##그
##린
##하
##지
##민
##,
##해
##서
##요
##당
##장
##관
##캘
##스
##족
##들
##까
##1
##0
##달
##였
##플
##싸
##움
##엔
##국
##사
##람
##이
##5
##4
##6
##임
##되
##기
##갑
##집
##단
##행
##계
##력
##챔
##에
##본
##법
##칙
##슐
##듀
##역
##화
##렁
##큰
##타
##거
##카
##니
##우
##육
##맨
##v
##s
##수
##정
##9
##3
##7
##압
##왔
##8
##내
##꺼
##야
##줄
##째
##합
##봤
##나
##콰
##쌀
##쥐
##렐
##레
##섬
##벨
##생
##각
##면
##질
##병
##통
##쯤
##료
##동
##학
##제
##침
##꼬
##맹
##냐
##t
##2
##무
##혁
##었
##주
##진
##패
##뷸
##(
##)
##일
##룹
##젝
##닉
##개
##랑
##뭐
##길
##래
##미
##K
##Y
##M
##과
##량
##대
##L
##&
##p
##;
##C
##o
##r
##d
##저
##든
##가
##파
##란
##녀
##온
##탄
##채
##시
##랐
##받
##번
##연
##즈
##짓
##핵
##+
##려
##킬
##A
##E
##B
##]
##j
##g
##듯
##티
##%
##~
##앗
##캥
##답
##게
##님
##놀
##획
##득
##률
##년
##보
##호
##조
##건
##중
##드
##런
##교
##식
##구
##토
##한
##전
##산
##회
##상
##누
##찰
##점
##매
##석
##명
##P
##=
##닥
##있
##디
##말
##원
##H
##품
##털
##X
##U
##먹
##겠
##어
##형
##업
##써
##비
##처
##선
##복
##편
##n
##옥
##심
##규
##/
##음
##반
##암
##캐
##름
##괴
##던
##혜
##때
##궁
##를
##억
##짤
##께
##워
##적
##x
##i
##N
##T
##J
##오
##c
##k
##u
##피
##붕
##며
##쥬
##얼
##쉰
##브
##왕
##캠
##퍼
##술
##록
##유
##흡
##슴
##체
##세
##른
##츄
##빨
##슨
##골
##차
##모
##빌
##풍
##W
##물
##양
##앤
##실
##쓰
##작
##독
##운
##럼
##느
##꿔
##입
##속
##간
##착
##쳐
##줬
##걸
##I
##준
##테
##후
##종
##환
##밥
##신
##증
##읍
##꿀
##봇
##쿠
##분
##윤
##강
##김
##철
##w
##윌
##백
##h
##같
##씨
##등
##난
##열
##쇠
##쁜
##색
##감
##판
##여
##페
##D
##숨
##꼭
##론
##공
##애
##경
##직
##웤
##권
##룰
##퐁
##승
##희
##능
##션
##출
##항
##활
##평
##익
##곱
##므
##슬
##것
##특
##웠
##납
##알
##버
##퀵
##루
##메
##b
##>
##머
##렸
##튀
##충
##격
##젤
##외
##문
##표
##[
##괄
##닛
##발
##례
##령
##최
##앙
##램
##팀
##검
##담
##숀
##창
##천
##팔
##절
##쪽
##롤
##잔
##현
##날
##노
##응
##홀
##z
##용
##컷
##맥
##벌
##빈
##칭
##Z
##포
##월
##몸
##갔
##커
##몰
##렌
##설
##긴
##네
##혼
##초
##랄
##텍
##순
##뜰
##톰
##륜
##죽
##안
##급
##남
##베
##팩
##q
##너
##울
##협
##링
##묘
##악
##윗
##앨
##범
##곡
##류
##배
##할
##옷
##혐
##봐
##허
##뼈
##콜
##홈
##줘
##케
##쟁
##별
##된
##잉
##살
##렉
##_
##눠
##방
##극
##참
##<
##림
##곁
##닷
##컴
##f
##뤄
###
##쁘
##져
##빠
##셨
##험
##럿
##벅
##틀
##릿
##잠
##헬
##글
##늪
##켜
##귀
##불
##릉
##액
##횡
##즌
##텔
##ㅣ
##ㅊ
##예
##뉴
##렵
##넘
##꽃
##결
##언
##박
##섹
##효
##닝
##투
##센
##광
##탐
##측
##웃
##싱
##킨
##듣
##롱
##춘
##굴
##켰
##책
##탕
##닌
##변
##둥
##잡
##쿄
##롬
##념
##꼴
##립
##텐
##봉
##두
##택
##웅
##습
##돌
##퇴
##턴
##히
##훈
##락
##곤
##찮
##릴
##칼
##넷
##컨
##츠
##밖
##추
##옴
##축
##섭
##곰
##널
##층
##퀀
##놓
##았
##딘
##샨
##찬
##짚
##뜨
##못
##볼
##벚
##황
##륨
##접
##막
##꺽
##델
##슈
##짐
##윕
##킹
##몬
##뻔
##금
##폭
##총
##흐
##빴
##`
##ㄹ
##썩
##쿨
##둔
##맷
##큐
##값
##찌
##쌍
##옐
##뚝
##멸
##필
##셔
##뢰
##랭
##벽
##쯔
##콘
##듐
##쇄
##콩
##늘
##십
##혀
##컬
##놉
##객
##펠
##죠
##큼
##흥
##짬
##않
##펜
##맞
##엘
##놔
##냥
##껍
##촌
##렛
##뒀
##랜
##옌
##볍
##놨
##륙
##빵
##략
##둘
##헌
##탑
##혈
##넬
##됐
##핀
##짝
##졸
##넌
##팬
##픽
##랏
##밀
##륭
##함
##탁
##셀
##챠
##밍
##친
##논
##폼
##폰
##*
##징
##뇰
##몽
##갈
##북
##헨
##팅
##릭
##싼
##딩
##픔
##펀
##콤
##덴
##탈
##겨
##푸
##견
##즘
##새
##끼
##향
##먼
##엠
##셈
##앵
##윈
##웨
##찔
##엽
##랫
##쇼
##윙
##쿼
##휴
##걷
##낸
##릇
##횟
##룡
##톱
##폴
##톤
##잽
##틱
##믹
##휠
##엑
##잴
##흔
##홍
##픈
##뮤
##믈
##멕
##농
##캉
##욱
##{
##}
##\
##쉬
##랍
##렇
##겁
##힐
##템
##눈
##돈
##샹
##취
##퍽
##갤
##뿌
##펫
##망
##렙
##퀘
##탠
##ㅎ
##율
##첼
##존
##끔
##씩
##뮈
##벤
##엉
##숲
##첫
##뻤
##퀴
##밋
##뒤
##첨
##툴
##빅
##샵
##껴
##따
##폐
##빛
##짜
##톨
##혹
##욕
##둠
##펍
##뇌
##헤
##륵
##힛
##겹
##룩
##돼
##봄
##럭
##핸
##삭
##겅
##녕
##낌
##힘
##롯
##켓
##잊
##삼
##균
##굽
##팸
##텀
##튼
##닫
##넨
##샤
##끄
##샌
##멤
##녹
##셰
##련
##첩
##셋
##엄
##쫓
##쳤
##씀
##탓
##옵
##뎅
##뜯
##훔
##딜
##잖
##딕
##젼
##올
##텁
##뮬
##좌
##빔
##끌
##훼
##될
##춰
##뎀
##앞
##릎
##랴
##늠
##풀
##칩
##뭉
##덱
##잘
##믄
##밭
##멧
##멍
##쫌
##확
##ㅝ
##ㅍ
##ㅠ
##땅
##짭
##렘
##쭉
##킵
##귄
##읔
##쌔
##붐
##뎌
##팟
##촉
##썬
##융
##럴
##맑
##멀
##쩌
##늬
##뷔
##깨
##맡
##척
##삐
##룽
##쁑
##엣
##웬
##갓
##틸
##틴
##뽀
##없
##쌓
##딤
##핍
##깔
##셉
##똥
##귤
##멜
##휘
##샘
##햤
##쫄
##꽥
##숙
##븐
##켈
##낼
##솔
##냈
##흑
##맵
##뷰
##룻
##랩
##옹
##녔
##^
##닐
##꾼
##샷
##밤
##핑
##큘
##웁
##칠
##곳
##찍
##렬
##궤
##꾹
##젬
##컵
##릅
##$
##밴
##췄
##싶
##렴
##ㅡ
##캡
##빗
##웰
##염
##떠
##춤
##댄
##붓
##또
##났
##빼
##딨
##슷
##왈
##넥
##탱
##챘
##겼
##딧
##툼
##슛
##겉
##궈
##쨩
##젯
##셍
##쿵
##롭
##쓸
##뿔
##뾰
##팽
##앍
##늦
##멩
##맛
##솜
##넛
##뮌
##펄
##룸
##Q
##챌
##잭
##넣
##짱
##쟈
##떄
##헉
##냄
##놈
##깐
##띠
##퓨
##깝
##좋
##벳
##ㅋ
##몇
##꿈
##킴
##붉
##긍
##죄
##잇
##숭
##짧
##낳
##낟
##꾀
##꿰
##뿡
##룬
##탤
##멘
##줌
##깽
##엎
##힌
##낙
##캔
##덩
##켐
##뽑
##첸
##싯
##깃
##뱅
##밸
##섀
##뻐
##떼
##혔
##흘
##뭔
##쓴
##칵
##랬
##녁
##끈
##튜
##킷
##냅
##좆
##몹
##떻
##닮
##뇨
##됨
##뒷
##즐
##깍
##섯
##묶
##ㅔ
##돔
##뗋
##뚫
##훑
##빙
##겸
##렀
##닭
##댐
##갖
##냉
##쩍
##쌈
##켄
##쿤
##됩
##킥
##댓
##펙
##댕
##늑
##쑤
##왜
##캣
##슭
##팜
##뚜
##뵑
##떳
##흙
##ㅅ
##듬
##뎐
##즉
##앱
##밧
##걱
##벙
##얄
##뚧
##떤
##붙
##쟤
##탯
##@
##팡
##렷
##딱
##뤼
##겜
##햄
##깊
##꾸
##훅
##엥
##숴
##됬
##삑
##덧
##샴
##덪
##썼
##잼
##갱
##쉴
##솥
##덮
##쿡
##랗
##찾
##녜
##챕
##펑
##젠
##툰
##짖
##ㅏ
##궐
##떡
##씌
##믿
##젖
##찻
##뭄
##뫼
##댔
##겔
##슘
##곽
##댈
##끗
##탬
##츳
##콧
##뀐
##쿱
##듭
##멋
##엿
##겟
##짠
##ㅀ
##띵
##꿍
##잎
##ㅁ
##ㄱ
##ㄴ
##맙
##겄
##턱
##핫
##좀
##|
##갰
##벼
##넙
##늄
##웜
##쩡
##퉁
##땐
##캇
##힝
##헝
##맘
##땡
##폈
##갸
##싫
##챙
##ㅈ
##헴
##낵
##뜩
##꺄
##낀
##뱃
##콕
##밟
##뜻
##엇
##닢
##뱀
##릳
##눌
##낮
##많
##컸
##푹
##컥
##앉
##딥
##둑
##벡
##휼
##옳
##헸
##맺
##ㅞ
##ㅄ
##욤
##몐
##깎
##및
##돋
##묵
##캄
##즙
##퀸
##뇽
##쩐
##퀄
##뿜
##셜
##씬
##넴
##읽
##쎈
##흉
##갯
##낫
##띨
##덜
##쭤
##ㅆ
##좁
##긋
##냠
##뺌
##ㄲ
##삶
##쭐
##섞
##헷
##ㅑ
##ㄷ
##쾅
##줍
##닪
##딸
##촬
##칫
##넓
##ㄵ
##닙
##찡
##쏘
##춧
##댁
##젱
##텝
##왼
##쌤
##듈
##촹
##벵
##쉽
##뭅
##앰
##숑
##튠
##퀼
##뗘
##놋
##덤
##냔
##텟
##밌
##믐
##깅
##펼
##챱
##벞
##쳥
##츅
##얻
##윽
##웹
##렝
##꽁
##팍
##둬
##쵸
##엌
##툭
##콥
##낭
##튬
##뻥
##왁
##홉
##샙
##옛
##깁
##곶
##뼉
##쥴
##꽝
##렢
##밈
##훙
##쎄
##낚
##얀
##쉈
##뫄
##쥔
##굿
##찐
##뎁
##촨
##셸
##뀌
##틂
##췌
##뛰
##ㅙ
##펴
##퉤
##땃
##펭
##옆
##뭇
##흠
##섰
##깡
##뉘
##푼
##삿
##쏜
##쾌
##톡
##덞
##쁨
##웩
##ㅗ
##ㄼ
##높
##떨
##씹
##쭈
##왓
##걀
##굳
##맴
##슝
##쌘
##햐
##뻘
##룟
##잦
##딪
##넜
##낄
##뜸
##쑥
##닿
##씰
##꼈
##짼
##콸
##딛
##셴
##쫑
##붑
##ㅕ
##ㄻ
##ㅇ
##뻑
##껄
##쁠
##툠
##셌
##눕
##둡
##넝
##ㅐ
##떴
##뎨
##찹
##촘
##욘
##갚
##꽂
##뤘
##솟
##끝
##궜
##읭
##욧
##톈
##혓
##캴
##젊
##깥
##텼
##덟
##샫
##삘
##툿
##퓌
##텨
##뛴
##뗑
##헐
##땜
##췬
##읕
##쳉
##눗
##볕
##헀
##땁
##벗
##캅
##풋
##쉐
##밑
##꺾
##돗
##얌
##쪙
##돠
##숍
##썸
##츙
##빕
##긏
##괘
##쉔
##쉘
##껌
##잣
##넉
##땀
##숄
##녠
##쿰
##쟝
##긁
##숫
##끽
##왑
##ㅃ
##캎
##넋
##읻
##슌
##헛
##왚
##퓰
##룀
##ㄽ
##샬
##왉
##빽
##뢸
##슁
##굵
##볶
##픕
##삽
##뽕
##ㅌ
##썽
##뎬
##뜬
##폿
##앳
##햇
##탭
##핏
##끓
##낰
##뇐
##읊
##웍
##듦
##팝
##펌
##펩
##냑
##묭
##얹
##썰
##뽁
##샐
##쑹
##눅
##츨
##쨜
##윅
##흣
##팁
##펨
##쫒
##랠
##힙
##ㅚ
##ㄺ
##썖
##싹
##걔
##뢴
##챈
##쳅
##찜
##굉
##빚
##푯
##팰
##묜
##탔
##냇
##얗
##캬
##ㄶ
##닦
##츈
##룅
##춥
##흩
##귈
##ㅘ
##눙
##깜
##룔
##쨌
##륫
##삔
##찼
##븨
##멈
##벰
##팠
##뭥
##짢
##맬
##훌
##뎃
##쟌
##앴
##얘
##뚠
##뺄
##뀜
##텅
##텻
##휄
##똠
##겡
##깈
##쓔
##쒀
##탵
##쫀
##컹
##랸
##쏠
##뺑
##ㅂ
##땠
##곧
##샀
##둪
##뵤
##쳣
##엡
##챤
##껏
##쭙
##꿉
##푀
##딲
##핌
##찧
##괭
##켠
##쏙
##팻
##핥
##읜
##쭝
##헥
##깰
##튄
##덫
##샜
##틋
##깻
##됸
##웡
##즤
##튿
##핳
##꼽
##녤
##죌
##쩔
##묻
##돛
##흰
##츤
##쁩
##졍
##꼼
##뵈
##윳
##뱌
##얐
##훗
##눔
##봅
##캤
##뱉
##륀
##굼
##컫
##맠
##똘
##횽
##팥
##먀
##딴
##넸
##햅
##낏
##ㅜ
##뮴
##쏭
##젓
##왱
##덥
##썹
##빡
##쏴
##쓱
##찢
##헠
##곗
##텃
##뿅
##띤
##뮨
##ㄾ
##ㅟ
##쳘
##챰
##뱡
##ㅓ
##퇼
##탉
##뭣
##촤
##넀
##떫
##쨔
##똑
##쳌
##밉
##숏
##뻬
##왘
##셤
##뀔
##돕
##몄
##뷴
##얏
##잿
##륄
##둣
##맆
##툽
##녘
##엾
##꿨
##곯
##ㅢ
##뚱
##괜
##쳇
##끊
##ㅒ
##씽
##읏
##켕
##푄
##줫
##슾
##룝
##빱
##롄
##ㅉ
##쌩
##첵
##빳
##쑈
##잍
##혬
##꿩
##긔
##휜
##줴
##쩜
##띔
##쨰
##쪼
##쏟
##쩨
##썅
##좨
##얽
##톳
##헙
##쩄
##덬
##윷
##샥
##멎
##뺘
##껑
##ㅛ
##찝
##샛
##긱
##떵
##쌕
##콴
##쌰
##맏
##먿
##흨
##윾
##홰
##펐
##솝
##괵
##봈
##걍
##돐
##쇽
##딫
##쭌
##뎠
##슥
##쾡
##깟
##쭘
##쌌
##댜
##뗀
##밷
##먐
##흫
##킁
##늩
##앓
##큭
##ㄸ
##ㅖ
##훨
##볏
##쉼
##띄
##좇
##튤
##졔
##똔
##틈
##뭘
##촛
##떈
##깠
##몫
##맸
##홋
##챗
##쟐
##훤
##쥰
##댑
##몌
##솽
##꿇
##뿍
##씸
##먄
##넹
##쩝
##껭
##얃
##숔
##싿
##셒
##쐐
##잰
##떽
##똰
##쾨
##뒬
##힉
##횩
##녑
##꼰
##앜
##듥
##쀼
##킅
##뚤
##뵙
##팎
##칰
##꾜
##밝
##듄
##잌
##묗
##춍
##욜
##퍠
##뽜
##젭
##렦
##갛
##돚
##뭈
##솬
##뺏
##퐝
##쿳
##챳
##첬
##헿
##삵
##펔
##깄
##럈
##쇳
##큥
##얙
##붸
##탸
##겍
##믓
##줏
##핱
##쎵
##퓸
##툇
##뗵
##쮜
##뼤
##읗
##웟
##셩
##섕
##껖
##뒈
##쑨
##돤
##닠
##멥
##껫
##꽈
##욿
##퀌
##켤
##댇
##뉼
##늕
##짯
##캰
##묠
##굄
##톄
##곬
##칡
##튕
##껸
##촐
##겪
##섣
##왠
##졷
##퍄
##쎕
##굶
##픙
##쉭
##웽
##켑
##끙
##쪄
##귐
##삥
##퉆
##헹
##졋
##숟
##펏
##탰
##뤠
##쭸
##퀑
##짘
##늉
##냘
##뷘
##왐
##뒹
##큽
##뤈
##뗏
##숯
##횔
##뮐
##븕
##늙
##릐
##쪘
##똣
##갬
##셱
##쌐
##죤
##댸
##옇
##얍
##껀
##틍
##큅
##읙
##닳
##뭍
##젔
##깬
##캿
##옸
##씁
##뿟
##쇗
##컾
##닻
##톸
##삠
##붠
##갭
##폄
##ㄳ
##랼
##묑
##빤
##괸
##놑
##잤
##갠
##냣
##볫
##옘
##푈
##샅
##씻
##옭
##겆
##랖
##꼐
##탼
##땄
##곻
##솃
##썻
##큡
##딯
##팃
##먺
##횃
##믕
##맣
##힣
##춉
##롸
##튭
##굇
##뚯
##겻
##욥
##쳬
##퍀
##엮
##쿈
##섻
##큔
##낯
##랰
##꽉
##쥿
##졘
##뼛
##칬
##뎡
##쌉
##됫
##켁
##뤂
##쉑
##볘
##퀏
##윔
##햏
##쨍
##ㄿ
##넵
##벋
##웦
##핼
##줵
##낑
##슼
##귿
##죵
##륻
##꽤
##뽐
##쮠
##뜽
##먁
##멱
##쯩
##헣
##뗄
##퉜
##훠
##볐
##큿
##좃
##꺠
##팹
##좡
##앎
##싐
##뽈
##퍈
##툉
##쾰
##뉸
##뀨
##텡
##쎘
##몀
##곀
##뱁
##돝
##옉
##졀
##끕
##껐
##휫
##퇘
##딬
##딍
##갼
##즛
##믜
##옮
##낍
##봣
##폘
##듁
##됴
##짹
##잃
##얕
##쑬
##볓
##껨
##뤽
##휙
##냤
##툐
##쌥
##볜
##뺐
##꿃
##듸
##틉
##띰
##핬
##솨
##럇
##봌
##킼
##햑
##닼
##븀
##쌋
##뽄
##튽
##쨕
##촙
##싁
##륩
##쳄
##짙
##텄
##퓩
##뮹
##졤
##꽌
##혠
##좐
##겋
##햔
##챃
##눴
##뚬
##딮
##뛔
##웗
##뛃
##꽯
##쭵
##뱐
##믙
##픅
##뢍
##륑
##슉
##꼿
##됭
##낱
##슶
##틊
##핕
##꿧
##쾃
##꿋
##숱
##삣
##핲
##밬
##좔
##풂
##펬
##쿽
##랕
##뇹
##쉿
##굣
##쳑
##쓩
##맟
##튐
##뱟
##췍
##폔
##붱
##휩
##샾
##졧
##퇀
##큮
##빰
##엳
##톲
##섐
##밯
##솀
##듕
##긌
##윱
##꺙
##띱
##춋
##엤
##뼘
##옺
##퐈
##귑
##졈
##솩
##켯
##눼
##멉
##옙
##봔
##츌
##끅
##큇
##뷜
##켔
##윹
##팈
##쒜
##빟
##츔
##굔
##갴
##쩬
##헵
##퉈
##삯
##멬
##젹
##잨
##멓
##찟
##힜
##훕
##맄
##웇
##쎼
##겊
##뻣
##뻗
##댱
##뉜
##쫗
##귓
##켸
##탙
##쳔
##쇨
##쥤
##닏
##큣
##뤤
##뉵
##웻
##씅
##걲
##폅
##끠
##캑
##뵐
##룐
##귁
##녓
##풉
##쏨
##섁
##츸
##솅
##묙
##핡
##팤
##햝
##츼
##췃
##픠
##챵
##븝
##묽
##퀙
##퇄
##쎌
##춴
##쵼
##궂
##끨
##쎔
##짰
##죗
##갗
##왝
##큠
##퓽
##묾
##흭
##걋
##됏
##뀍
##쏼
##륍
##줜
##샄
##봑
##읓
##쉣
##벧
##욌
##멮
##닾
##핰
##롼
##싷
##븜
##짊
##괌
##쬐
##돡
##킌
##챦
##햘
##뱄
##롮
##궝
##쯕
##쉥
##꼇
##긩
##옄
##쨋
##믖
##붇
##췐
##쥠
##흗
##뜀
##쨘
##숳
##덝
##뻭
##앀
##킄
##릘
##엶
##웱
##궇
##됌
##켝
##깉
##볻
##롓
##팼
##폳
##퐐
##큩
##긑
##롹
##샻
##묄
##쫙
##섴
##툑
##꿴
##컿
##쥉
##썌
##꼍
##윰
##쟜
##홑
##옒
##뎍
##귕
##흧
##쾍
##젵
##릣
##숩
##섶
##퓬
##쨉
##싣
##먕
##옻
##쐈
##뺀
##깼
##휀
##괏
##뵌
##왇
##쩠
##샊
##갇
##봫
##럐
##턀
##앸
##벟
##짇
##띡
##꿘
##죳
##셧
##솊
##쩰
##쮸
##컽
##쬲
##뾱
##뺨
##뜷
##긧
##몪
##휏
##씔
##륌
##얜
##튈
##붊
##풔
##늗
##엪
##쐉
##흄
##렜
##텽
##즹
##꺅
##싕
##뇸
##싀
##잆
##븞
##릾
##듮
##깯
##쥣
##뛸
##윘
##윜
##빻
##뫁
##읅
##뾼
##끎
##솁
##댤
##랓
##쉡
##긂
##쏫
##숌
##잋
##엋
##맀
##뇩
##럅
##맢
##챡
##뢔
##췁
##슮
##눞
##땽
##옝
##홧
##읇
##욣
##뗴
##죈
##횐
##늴
##돖
##캆
##왒
##읹
##슽
##븃
##봥
##밣
##싰
##먈
##닸
##뤌
##늅
##싄
##땟
##뷁
##옿
##쒞
##꿎
##컁
##앚
##뢐
##룍
##랋
##궨
##죡
##홱
##븅
##쁢
##땍
##밞
##엊
##쬬
##땋
##엫
##쪨
##쎅
##븍
##잂
##궃
##닺
##삮
##밐
##쥘
##닽
##쨈
##밎
##캭
##훽
##쒸
##솢
##귱
##뼜
##땸
##뫃
##슻
##앟
##웸
##솎
##밲
##츰
##쬔
##쵹
##몯
##옅
##갹
##
##녈
##췩
##땔
##봘
##꽐
##퍝
##탹
##뜌
##놰
##텰
##톺
##잚
##뇬
##솠
##핚
##얇
##똬
##붜
##짆
##롫
##힁
##뺴
##콫
##곹
##텬
##봬
##냡
##럍
##벛
##뭡
##샏
##훜
##앆
##읎
##뒝
##슙
##솓
##쯧
##흝
##텊
##듛
##폽
##뙈
##뤡
##쁋
##멂
##읫
##헜
##낪
##밊
##큄
##츩
##낛
##뭬
##훍
##칲
##앖
##읐
##뉙
##쳴
##퀜
##겈
##푱
##벆
##팏
##듧
##뢨
##훓
##꼳
##쟛
##봍
##먗
##짞
##쇀
##틑
##퉥
##빝
##옫
##쐑
##욍
##긜
##궆
##곷
##갉
##톼
##넫
##췽
##콀
##옼
##햚
##좍
##뀝
##뷕
##퇗
##늣
##븡
##햎
##듵
##뵀
##콬
##렫
##왂
##쟉
##귯
##춀
##녛
##쳡
##욳
##뇻
##웝
##윸
##묷
##쟎
##웓
##븁
##뭏
##뵹
##섦
##틔
##댠
##뱽
##횻
##젋
##곘
##닯
##쟀
##릍
##쇤
##떰
##욀
##궉
##짫
##쯰
##쳰
##퀫
##킈
##솦
##엏
##폑
##퓔
##얭
##휳
##븪
##튁
##롶
##갘
##싑
##귖
##샆
##콱
##즁
##싴
##캍
##맇
##됀
##욷
##먃
##삜
##넒
##꼻
##쎗
##횸
##궄
##렠
##뀽
##넗
##솰
##륏
##곈
##욬
##꺵
##떙
##힠
##맒
##뱝
##쐇
##죨
##랃
##욹
##퉷
##둉
##퍙
##챨
##뻉
##햡
##냨
##쌞
##릠
##븰
##깤
##엜
##삒
##밗
##벖
##껼
##돨
##뗐
##꿝
##늰
##뒁
##늡
##튮
##읶
##쫏
##걾
##셕
##뼁
##돇
##뀻
##팉
##둟
##얒
##뒴
##랻
##쿜
##췹
##뻴
##괍
##휑
##괐
##벱
##삳
##븟
##횬
##졉
##즑
##읃
##퍅
##쟘
##룁
##럑
##돎
##괆
##껒
##홓
##옜
##갞
##삡
##굑
##욺
##쥑
##탖
##훵
##뱍
##붏
##쒕
##뎋
##퀧
##왖
##퉨
##숕
##켭
##쑵
##꾿
##핟
##텗
##궭
##햬
##쟣
##놧
##녂
##숮
##꺤
##찿
##겝
##슳
##퀠
##왯
##걜
##옾
##곌
##껜
##췰
##뼝
##뼬
##눽
##먜
##읰
##섧
##켬
##삧
##즷
##썍
##쩟
##줎
##귬
##퇵
##젅
##멐
##홛
##쥼
##봊
##썪
##엙
##탶
##럄
##덨
##콮
##렡
##쒔
##쮹
##뷫
##뺵
##덛
##웋
##핮
##얺
##홯
##깩
##풸
##볌
##떯
##쉅
##휵
##갊
##쫜
##륾
##탏
##햣
##훡
##됙
##땓
##쎆
##멨
##귝
##덯
##뵘
##뜳
##뭠
##롈
##죰
##쟙
##뀙
##뚮
##쐙
##뽟
##븧
##굯
##췻
##닁
##뷤
##볱
##툻
##잕
##틧
##햠
##헼
##꽇
##넼
##랔
##쑻
##뙤
##얬
##웄
##큪
##뗌
##쯋
##엃
##쎾
##얔
##밪
##엗
##뺙
##벜
##횰
##쪠
##곸
##젙
##쒓
##컶
##땻
##됃
##쳠
##퇍
##딈
##푠
##밢
##낡
##햟
##뾸
##녯
##쩽
##쉄
##붗
##퉹
##틆
##롷
##닲
##쫍
##핶
##멷
##롑
##옯
##웊
##잙
##섨
##앧
##눨
##뿠
##젴
##뉩
##뵬
##쯪
##쮀
##쿧
##겿
##쳒
##룴
##툱
##됑
##릋
##붰
##륷
##듟
##뤁
##퐄
##뉠
##푕
##짴
##펲
##긤
##욯
##궬
##읠
##읒
##랲
##읋
##묀
##퓟
##쁅
##뺡
##뗡
##뛟
##뗜
##촠
##뜁
##넽
##얖
##곪
##싮
##훚
##낢
##덿
##옰
##쎠
##븠
##잞
##폕
##켙
##띌
##끾
##뽂
##덭
##긷
##쐬
##홥
##뀢
##싡
##쭁
##돫
##럸
##혿
##뇠
##쩅
##쟨
##젇
##솹
##뉨
##훃
##휨
##빋
##붚
##묏
##횅
##캌
##뜅
##릔
##갣
##낻
##팖
##꽹
##릷
##쀳
##뇔
##폯
##떘
##풰
##윥
##퀭
##쥭
##앝
##삤
##봙
##쁐
##쉪
##랎
##얠
##셥
##짋
##뒨
##뾆
##긕
##샇
##쵤
##찓
##갨
##싳
##킾
##맻
##긺
##굦
##릏
##햊
##됄
##룄
##뢀
##뿝
##꿕
##뺩
##얶
##퓐
##촥
##춈
##밨
##뚊
##줃
##팊
##걓
##컼
##긘
##윻
##홝
##쥡
##켱
##냬
##웚
##턩
##띈
##웒
##꿏
##씍
##멵
##캋
##큉
##갂
##웛
##떱
##쇡
##턉
##꿑
##읖
##뤀
##넚
##벐
##쏱
##앩
##풱
##힡
##쩃
##뮉
##뱔
##혤
##뺸
##붹
##싈
##걼
##곺
##됼
##댝
##뻠
##혱
##붤
##앋
##쾀
##걕
##뎻
##셐
##툥
##귾
##뮷
##춸
##솧
##맼
##꾱
##삝
##쑝
##왹
##쭹
##얾
##귔
##뻡
##쀽
##퐞
##홒
##셖
##멦
##끡
##걘
##쁭
##샠
##숖
##늫
##듷
##곴
##뤗
##걐
##홤
##퓻
##늼
##엷
##돩
##짔
##쉠
##뙇
##흎
##흓
##엵
##챂
##팦
##뵜
##떋
##뽙
##줭
##퍌
##봡
##쑟
##꽭
##쑉
##묫
##엞
##샼
##솻
##뀬
##긊
##핻
##뛹
##겯
##찣
##섥
##댼
##맊
##욋
##픨
##둏
##솤
##쉖
##댧
##댯
##튘
##돧
##둗
##믌
##꺘
##핗
##켘
##릌
##톋
##씉
##쫘
##럳
##셦
##첲
##뛌
##쿗
##슸
##헔
##땨
##뚀
##읨
##엒
##뜐
##뎝
##뷍
##좄
##옟
##뵨
##셑
##밫
##첟
##즥
##닜
##햭
##욼
##빪
##쎽
##퐅
##썋
##둈
##뾘
##쀏
##찯
##츕
##렿
##캈
##쯉
##옓
##곕
##뒫
##놁
##뒿
##댊
##땗
##즨
##껠
##몥
##덍
##귊
##뚦
##왤
##벹
##쾬
##껃
##푷
##슆
##줆
##쑴
##룺
##쁍
##낲
##뀪
##깢
##푿
##퍗
##깹
##푁
##읩
##넖
##덷
##싢
##휸
##껩
##잧
##읟
##엍
##랅
##엝
##돞
##쟞
##괼
##텦
##썜
##졩
##랒
##뻿
##쓤
##뭌
##섄
##쩸
##뚭
##쒴
##쁴
##뎢
##얫
##잪
##쪈
##쪗
##흴
##쁥
##겓
##슯
##깸
##묨
##굥
##뤨
##쿌
##죱
##뤵
##뚂
##뢉
##럲
##엨
##붵
##뮜
##귡
##긮
##깑
##뚷
##붖
##톩
##뎟
##맽
##돟
##깋
##뙨
##믁
##딀
##윿
##엓
##맍
##뻰
##쁙
##꿜
##튺
##쒠
##쏚
##뤩
##쀍
##쓉
##켮
##렏
##쌨
##휱
##곩
##쯥
##맫
##썀
##흽
##퉅
##젛
##쥥
##핧
##몆
##룯
##썁
##꺃
##붼
##껬
##넡
##읿
##눝
##쌜
##쨀
##쌟
##땛
##몭
##뜹
##죔
##픟
##휭
##쫃
##땝
##튱
##듶
##잫
##칱
##럻
##킳
##훋
##쏀
##깪
##넁
##낤
##굘
##헗
##뭑
##쭀
##똗
##롲
##픗
##렋
##뻨
##캢
##뢱
##벎
##쳿
##렂
##둰
##튝
##앛
##닰
##옡
##녬
##쨤
##촵
##댭
##몁
##팯
##땕
##뭭
##옽
##녇
##팒
##씃
##꽦
##큻
##싻
##늨
##맅
##갃
##꺕
##뎄
##둙
##닑
##쏸
##쀵
##뀩
##꺀
##늒
##껵
##쑷
##뚸
##떔
##줓
##띙
##릊
##꾁
##팣
##뻈
##닊
##팂
##몃
##씼
##홇
##쬼
##핤
##썄
##챼
##쟠
##퐑
##쿸
##쁌
##씝
##훟
##햛
##턔
##씡
##곂
##훰
##뽓
##펵
##댥
##훯
##쀡
##벷
##빩
##넠
##젺
##늚
##긓
##놘
##콛
##혂
##웉
##뚁
##쿹
##횾
##쬘
##뀀
##텇
##삻
##껶
##둩
##좝
##췼
##욨
##쑌
##웷
##잗
##킐
##얅
##섈
##먑
##롕
##췜
##쿙
##뎦
##잩
##핺
##곙
##븛
##읷
##덖
##쾻
##뒥
##뤯
##룱
##듫
##옂
##돵
##틓
##듼
##뛝
##궡
##줸
##뢇
##뺠
##싞
##쏲
##괃
##믱
##핔
##푤
##찦
##뀟
##슿
##쥩
##킸
##꽅
##윶
##쀓
##뤔
##툘
##켣
##붘
##뷉
##꼮
##웈
##뭩
##쮓
##끟
##몔
##겧
##뫙
##믤
##긇
##킽
##혭
##혉
##뱋
##띾
##줐
##맜
##쌴
##햙
##븥
##벴
##윀
##츀
##싲
##줠
##썡
##씐
##꽛
##벩
##뾲
##톹
##곖
##걈
##젶
##쾁
##꺗
##즂
##즠
##쁫
##궹
##맓
##싧
##댋
##삷
##핿
##줊
##셟
##핣
##닚
##닧
##쓲
##렞
##긲
##놕
##곲
##횞
##삾
##짡
##쟆
##줼
##퐌
##똏
##멑
##랆
##뒸
##탂
##앢
##횝
##뷋
##뭴
##횄
##룪
##쩼
##턍
##쨥
##챺
##폮
##걳
##엱
##욛
##굠
##딋
##맂
##콭
##쯱
##놐
##돰
##벸
##즬
##웧
##젉
##멭
##넞
##괂
##쑁
##뻇
##씋
##씜
##숡
##씯
##퀍
##덗
##녺
##쯴
##찭
##칢
##푝
##챷
##뎜
##뿮
##뱦
##룥
##띁
##빎
##됵
##엩
##긐
##럷
##슀
##솄
##벏
##뿀
##꺆
##씤
##햿
##룃
##컄
##킠
##뻄
##쫋
##뭊
##훇
##뭵
##겦
##줮
##옑
##벾
##닞
##쨻
##릃
##끆
##둴
##돘
##뫟
##끑
##빂
##붝
##솖
##긿
##몿
##뀓
##괳
##봴
##툡
##졐
##뒵
##꿸
##냏
##뿨
##쾈
##괧
##캼
##힏
##똻
##뚥
##셓
##쪾
##뀠
##쏩
##섵
##틘
##앾
##븸
##쁟
##럤
##쓺
##쩩
##놂
##떅
##놜
##슺
##몊
##쨖
##녝
##쎙
##뇝
##홭
##쒼
##셷
##뱨
##텠
##앏
##둧
##뗠
##텹
##슟
##쉨
##릮
##눜
##죶
##럶
##뤃
##툵
##륽
##숎
##톕
##돴
##캪
##뿓
##쒱
##꼅
##첡
##좈
##뜝
##칳
##똧
##솼
##쳗
##쉤
##헽
##섮
##짒
##죙
##롣
##쇱
##찎
##믬
##셊
##짦
##슄
##싦
##덙
##쵝
##얆
##뫅
##픓
##읆
##얿
##끵
##끍
##욭
##쥽
##숸
##롴
##홅
##뀰
##눤
##믾
##꺈
##쐴
##뎰
##듰
##귺
##끜
##뒺
##풮
##꿱
##빏
##늖
##씄
##햫
##겇
##쁵
##돓
##릆
##뀁
##뒑
##뷓
##턋
##괙
##깆
##뛈
##냫
##믯
##늿
##칟
##뫽
##뗶
##벫
##뽱
##쫭
##둍
##똽
##츗
##떁
##봠
##퓍
##쨎
##넏
##둅
##촡
##돳
##꺌
##뺭
##썯
##젟
##깇
##쟬
##덌
##븓
##쟄
##쨧
##잓
##꽊
##볔
##껗
##뺼
##혯
##욉
##웆
##훝
##춝
##굗
##믛
##쑐
##귚
##핓
##궛
##괬
##힚
##짷
##렆
##쭊
##랟
##픎
##웖
##푭
##걺
##윋
##벲
##쉟
##렣
##믗
##뎊
##뼥
##빧
##쫴
##샂
##봒
##뤙
##꼉
##픝
##쉒
##핽
##틤
##켇
##틒
##덣
##덻
##홨
##깕
##륐
##왧
##뷃
##슦
##걏
##뎂
##닶
##딹
##뎧
##낔
##븘
##섷
##밡
##핦
##쓿
##핢
##좜
##긶
##멌
##헱
##롻
##뵉
##앺
##툣
##봨
##꼤
##퉭
##맗
##뜃
##궷
##퇸
##뿛
##몋
##듳
##졶
##쪤
##얷
##앒
##첐
##뎈
##캜
##롐
##긎
##쌱
##맃
##궅
##봁
##뽥
##쌑
##픖
##젧
##낣
##홐
##뚞
##둇
##흿
##츻
##쎃
##욈
##챸
##쟥
##샟
##촷
##윞
##쯘
##갋
##헡
##췛
##픞
##졲
##뭋
##퇙
##촟
##퐆
##옃
##쯜
##뽭
##뉻
##찱
##춛
##닡
##됈
##턻
##묳
##겣
##쎀
##쏵
##샒
##쟇
##볈
##딭
##럯
##렺
##왬
##핃
##굡
##줙
##쩒
##쩻
##눀
##둿
##햌
##쳈
##뺅
##빢
##눟
##쵀
##톧
##똡
##듹
##됍
##븗
##젆
##깓
##뗆
##퓜
##뉫
##겕
##셭
##횦
##놯
##랢
##꽜
##튑
##칯
##휅
##뙡
##섡
##둄
##촴
##짛
##궚
##궺
##깒
##깛
##긛
##쟂
##퍕
##씪
##쀾
##춭
##껙
##옏
##쌧
##윝
##겢
##핖
##쨏
##댛
##릁
##쓋
##캊
##퐤
##밁
##븩
##냙
##퇜
##궞
##귪
##궸
##궼
##쿔
##랣
##겴
##헁
##읾
##걉
##썐
##쇅
##봗
##핁
##웥
##휋
##줒
##뇜
##렄
##왙
##벝
##첮
##륳
##핛
##갅
##똈
##뷧
##겤
##쏄
##밂
##붴
##숼
##쬷
##쌻
##풇
##싺
##똄
##숬
##엻
##샸
##칣
##킻
##썷
##깂
##쬰
##졬
##췸
##껚
##쬈
##듓
##탘
##꺑
##즯
##뚐
##갷
##뮝
##볠
##릈
##텥
##옠
##퓅
##췈
##탣
##헑
##볟
##짂
##뽝
##텣
##믏
##헯
##췅
##칞
##풅
##딷
##츱
##먳
##뮻
##돜
##춏
##섿
##꼄
##쑘
##랳
##뗗
##뵥
##욝
##꿐
##줗
##즏
##퐙
##쬭
##쉩
##꼯
##틩
##욾
##놏
##폇
##빜
##첞
##윁
##혅
##똴
##겾
##잀
##뗬
##뵷
##몓
##멛
##잏
##퐳
##룳
##힇
##둚
##숧
##앻
##쀠
##쑦
##쟴
##틷
##츞
##뜔
##헭
##뺍
##켼
##궶
##궫
##궻
##랤
##궢
##뽤
##뭎
##롵
##놥
##읺
##푣
##눶
##꺏
##쫣
##똵
##뽧
##꽑
##쐰
##좟
##흇
##뫚
##쏌
##껰
##꺢
##쉉
##줛
##놗
##솫
##뗛
##몼
##돣
##홳
##웫
##룫
##뺃
##뗣
##읈
##쎴
##씺
##넢
##찷
##륿
##곅
##렼
##첄
##쒐
##뫌
##욻
##튻
##춣
##뒓
##굈
##컈
##톻
##핝
##좂
##셆
##펰
##륮
##쩹
##륶
##떦
##햰
##얉
##탒
##멻
##쏻
##읪
##츺
##칻
##뾔
##섑
##끋
##쭛
##륗
##큫
##졵
##뻼
##깣
##긞
##뚕
##죹
##폥
##퉄
##벍
##뷀
##쩧
##콙
##텩
##홁
##놬
##낐
##팛
##먓
##딺
##홣
##떥
##뿗
##뉔
##풒
##낞
##틇
##텆
##죸
##끤
##솑
##쯬
##븬
##슢
##뱓
##챞
##쮝
##컭
##띃
##롁
##싘
##콪
##뚵
##쒂
##쌷
##픳
##깞
##윟
##꼠
##텉
##튎
##듨
##킆
##붯
##쁶
##뙴
##댬
##됒
##뫈
##럘
##걌
##챝
##쥇
##쑛
##땩
##풓
##돆
##퇻
##됰
##좥
##춯
##퐠
##곃
##켚
##읁
##쓍
##쇵
##묯
##뵽
##밇
##쀄
##웕
##쫔
##뼌
##냩
##몴
##웳
##꿻
##퉱
##휽
##펖
##믻
##쯸
##톮
##쬿
##럔
##됮
##틐
##촾
##볃
##뜼
##밠
##뿁
##칀
##쾩
##멶
##뷈
##뇄
##죕
##낶
##퐃
##텋
##귻
##턷
##쒹
##삗
##띅
##뚼
##롇
##갵
##뗃
##샢
##쐥
##됗
##쟹
##죻
##뗍
##콻
##훳
##칮
##섊
##띕
##윛
##뮺
##큳
##큾
##텂
##뜫
##뤕
##쨱
##탇
##쀨
##뿎
##슧
##닟
##캽
##젃
##릯
##셣
##븏
##녿
##뺶
##찳
##섟
##뭗
##댖
##쭟
##뜄
##귶
##뙓
##늇
##뽴
##헰
##쵮
##킫
##튔
##쬥
##넟
##밙
##씥
##풜
##빖
##젮
##뗳
##밻
##읧
##챽
##쉛
##왷
##쉇
##쒯
##읂
##떢
##졎
##뜜
##쯍
##좬
##톗
##칽
##큎
##닍
##킦
##큺
##틜
##믠
##캵
##뷥
##빾
##쉏
##춇
##콉
##뢘
##켞
##쁀
##퓹
##꿂
##퓙
##똟
##챶
##쭓
##땹
##뙭
##줕
##튓
##첱
##밮
##멊
##쵁
##쾽
##걩
##뽘
##꿯
##궳
##뱈
##뗉
##럌
##쬽
##븎
##짗
##쫅
##떗
##괋
##겷
##팓
##컀
##슡
##볽
##슠
##랛
##넎
##븻
##뤰
##춱
##픋
##굷
##궘
##긬
##깏
##썎
##븢
##닒
##쎂
##굸
##놩
##퉌
##릵
##밦
##혻
##댘
##숞
##푴
##욦
##뛩
##귥
##굛
##댦
##뒕
##뫞
##뿷
##땞
##뒗
##롊
##벉
##냌
##쌸
##슞
##좠
##뜵
##꼣
##탿
##좹
##뿩
##쎋
##잒
##똫
##즡
##꾕
##쫫
##긃
##댚
##쿶
##좊
##즵
##둽
##풴
##뺫
##젏
##폵
##쏏
##쩖
##싨
##쬴
##띧
##뫀
##믑
##뎔
##뗼
##궙
##힗
##흟
##헚
##릀
##쯈
##휔
##럮
##쏽
##쁎
##솏
##붆
##휗
##왛
##긆
##땈
##훁
##퀩
##쥌
##풹
##믇
##덀
##떟
##맕
##뷛
##콦
##쵭
##럣
##쩎
##띳
##웎
##췔
##뗔
##뇓
##죷
##슲
##텤
##놇
##뗸
##쑊
##떧
##턕
##꼔
##땳
##쉙
##빆
##돿
##둫
##쪌
##늧
##횓
##뙗
##쵇
##꼑
##쭨
##픤
##쿏
##턚
##삨
##뇾
##궖
##궋
##릥
##컺
##뱆
##즞
##옲
##뤳
##웴
##쵠
##붭
##쎤
##냟
##뛗
##줅
##빞
##엦
##첯
##깳
##꺐
##훞
##뛣
##꾫
##볙
##덢
##뤅
##멏
##딻
##꼵
##졓
##렾
##졜
##싟
##걁
##뙳
##홂
##믽
##샶
##콣
##벯
##뎗
##쑼
##맖
##왰
##솸
##뙜
##뼸
##뢓
##먘
##쟢
##벓
##좧
##쟻
##쿩
##젂
##뺚
##괠
##늭
##궯
##걿
##렧
##덦
##몟
##픐
##쫩
##훴
##짿
##좸
##풑
##뷇
##썝
##뿉
##뛷
##뗻
##펡
##븉
##찃
##쀒
##섺
##쵣
##쇙
##먏
##춬
##다.
##으로
##에서
##하는
20
##이다.
##지만
있다.
##었다.
##에게
##하고
201
##00
##한다.
##이라
있는
##고,
##다는
##했다.
##다고
19
때문
##..
##까지
##에는
##면서
##들이
##하게
##는데
##며,
한다.
##에서는
##적으로
경우
때문에
##였다.
사용
##적인
##하여
##레이
##부터
아니
이후
자신
##리고
##하기
공격
##해서
10
사람
##스트
##라는
##대로
##라고
##다가
##들은
##되었다.
다른
##하면
##이나
##지만,
정도
##들을
##으나
대한
##에도
##지는
##기도
##들의
200
등장
##기를
##하다.
##리는
것이
##되어
그리고
##기에
##하지
된다.
같은
가능
아이
##er
들어
##으며,
하나
하는
사실
12
하지만
게임
##으며
##하였다.
그러
시작
##는데,
일본
##거나
함께
이름
모습
##보다
##스터
##리를
##는다.
한국
위해
##았다.
##in
11
있었
##된다.
사이
##...
##이라고
##이라는
것을
이상
##되는
##기가
만들
##다면
문제
나오
생각
또한
##되었
##어서
##하며
##학교
따라
가장
##니다.
프로
##라이
##력을
다시
##에서도
당시
##리가
##on
##0년
##이었
##릭터
되었다.
##지를
##처럼
없는
모두
캐릭터
##력이
##데,
##이트
상대
15
##or
##기는
##8년
##으면
##an
모든
##리아
없다.
상황
플레이
것이다.
것으로
##스의
추가
결국
##지고
시간
했다.
##9년
현재
##이지
##이는
##자가
상태
자신의
다음
##7년
보여
것은
많이
미국
##하면서
그러나
존재
18
##리스
다만
시즌
##6년
그런
전투
보면
199
##리즈
선수
##ar
많은
##스를
스킬
세계
##성이
매우
##5년
##.1
카드
효과
##스가
##he
지역
##므로
##at
그래
##000
경기
나온
상당
##.0
##들에게
##인이
있었다.
기록
##4년
아니라
처음
이용
않는
16
물론
##가는
##사를
이유
##하였
##가지
여러
아닌
하고
그렇
돌아
실제
자체
일반
##인다.
##-1
필요
##들과
이런
##부분
13
##어진
시리즈
이미
##졌다.
바로
##지가
##이고
##en
##시키
해당
##하자
##시아
거의
영화
##주의
라이
##2년
역시
##상을
##사가
되어
##3년
특히
피해
##이스
기술
14
##인지
30
모습을
통해
##어나
##ou
주인
##도가
기본
관련
진행
##장을
마법
17
##국의
##기로
이야
같이
수도
아무
##지막
제작
##1년
##성을
##했던
위치
##라도
##로는
##에선
##al
대부분
##이었다.
##st
방송
좋은
부분
##해야
##이가
되었
사건
##거리
작품
##주는
마지막
일부
스타
계속
##스는
증가
##으나,
##20
##르는
않았
##린다.
##아서
참고
방어
않고
##로,
인간
활동
국가
달리
있어
##하고,
##전히
되는
서울
보고
않은
내용
있을
주인공
##리에
가지고
그의
이전
##드는
능력
##시에
비슷
인해
##시간
올라
##이며
##으니
어느
##정을
그냥
레이
레벨
100
##re
감독
성공
##어가
대해
##인의
이를
대신
##자를
##.2
##드를
정도로
수준
##도록
##장이
198
지금
25
##dd
##자의
##le
그녀
대표
##트를
##위를
기준
##수가
상당히
않는다.
높은
##it
최대
##있는
이동
보인다.
##렸다.
대한민
##10
##로운
나타
이는
##마다
제외
##와의
타이
##되고
중국
여기
결과
것도
것.
너무
##리의
인물
그대로
의미
##사의
좋아
##도를
의해
##드의
떨어
##ff
등의
##일에
##진다.
##이션
##들도
##기의
직접
전체
없이
##려고
동안
##이자
##수를
알려
받아
원래
언급
##스로
##도로
그는
##이며,
##ing
##ic
발매
##전을
-2
##르게
##자는
애니
관계
만들어
##로서
포함
하다.
##치는
##.5
##대의
##지도
소속
##번째
##리어
있던
경우가
전쟁
자신이
데미
##으로,
##정이
시절
지원
마음
##다!
이어
이것
과거
##대를
2018년
멤버
##하지만
##이지만
나오는
선택
문서
이에
##습니다.
##인데
위한
##드가
유저
##우는
##스타
##자.
##리지
##중에
연구
##하던
최고
유닛
많다.
자기
출연
##점을
##등학교
개발
설명
방법
21
50
##화를
평가
##없이
엄청
몬스터
##나는
크게
발생
있으며,
아버
사망
리그
영향
12월
##am
유명
불가
2019년
7월
찾아
나왔
스토
##이드
##인을
##치를
만든
2017년
##되지
##치가
##과는
8월
이루
4월
프랑
##어로
장면
3월
##트가
##,000
또는
9월
##하기도
10월
5월
실제로
##어난
있다는
이러
##상이
우승
##으로는
6월
초반
이때
지나
##이를
##원이
조금
##일,
주로
말을
##es
##랜드
22
공식
##la
도시
##이기
출신
운영
2016년
중요
24
##전에서
##과의
##이어
인터
##머니
##전에
##만큼
그것
##준다.
1월
##명이
##식을
##하며,
##리그
전부
사라
무기
사랑
제대로
최초
##el
##운드
the
##명을
아이템
자주
하지
없었
소환
정보
최종
##om
보여주
역할
##있다.
##이크
아직
##에서의
11월
서로
##리카
공격력
학생
이렇
친구
##와는
학교
##이터
여성
사회
프리
독일
노래
공개
가진
참고로
##자로
##했을
기존
23
파괴
##is
적이
강력
##명의
있어서
나온다.
비해
이벤
##개의
비교
##격을
##-0
등을
##였던
##니아
마찬
어떤
결정
형태
마찬가지
##50
##사는
##인은
변경
유지
정말
강화
##했고,
197
##라마
##르면
사람이
해도
당연
발견
보통
##나라
##대에
##스와
##같은
##하려
2015년
##히려
설정
##군의
때문이다.
##수의
##지의
바람
구성
2월
배우
##동안
음악
그런데
##프트
##서는
이러한
아래
오히려
살아
##오는
정신
아니다.
후반
##et
##하거나
##요.
##음을
등이
회복
##물을
조선
##회의
##나가
새로운
않았다.
##어도
주장
##트로
슈퍼
##지어
##점이
##스템
##ol
##자인
있으며
##ion
##원을
알고
##어를
있다고
##nd
유일
행동
게다가
##분에
이번
##하다
드래
40
##디오
자유
영상
가까
##는지
##했다고
여자
##-2
있는데,
모양
정부
같다.
사실상
##리오
그래서
노선
##이도
활약
월드
특수
##경기
##대가
하면
##30
부족
어려
일단
아예
승리
확률
##11
##지로
##이기도
대한민국
이렇게
동시에
주변
성능
##스,
들어가
##나마
정치
차지
##그램
##시켜
##화에서
##드로
##임을
비슷한
먼저
##통령
심지어
완전히
##적이
버전
확인
영국
생산
##화가
##ow
드러
가능하다.
스테
적용
방식
바뀌
수록
발동
##도의
그렇게
26
그리
성우
##ig
##밖에
힘들
##다며
시스템
내려
##il
##내는
그래도
모델
##상으로
##다"
28
##ed
2014년
어떻
일이
##메이션
스트
보스
##구를
가지
좋다.
27
영웅
혹은
##스크
전에
##트의
##르고
대회
이야기
##보면
있는데
실패
참여
중심
성격
##하는데
##ac
##간에
한번
기사
자세
있지만
대통령
만나
31
##원의
전혀
차량
다양
우리
못한
데뷔
대학
196
패배
감소
##as
##대한
어떻게
##시킨
원작
동일
국내
사진
마을
##ve
위해서
##니까
않아
1,
획득
앨범
장비
있고
##BS
##더라도
지속
##!!
표현
만큼
얼굴
출시
##지에
##났다.
때는
불가능
얼마
발표
of
##했고
나가
오브
번째
계획
##.3
이제
설치
##른다.
반응
##이었던
체력
##간다.
##인데,
플레이어
##라의
##어버
애니메이션
##움을
##이의
##장의
##대학교
힘을
굉장
##보다는
##체를
스페
기능
바이
없어
드라마
인정
##자,
특성
축구
자동
움직
등장하는
역사
##라가
정확
따라서
##다'
제1
##제가
가져
명칭
이름을
##버스
진출
##0년대
담당
##우스
판매
기억
대체
##해도
하루
문제가
있고,
사용하는
에피
남자
그나마
##상의
쓰는
특징
드래곤
##으로서
##수는
자신을
받은
상승
요구
아마
##문을
경우도
따르면
참가
##도는
덕분에
##으므로
다이
##ot
경찰
중앙
수비
##들에
있기
작중
남아
##장에서
선발
조건
개인
있게
하였다.
202
그림
공격을
##제를
고려
##조차
밝혀
##라면
##권을
##부의
받고
상위
마이
##피언
러시아
##했다는
##했지만
##사로
##한다는
2017
물리
가능한
2013년
##ad
하이
선거
29
##장은
##군이
##아가
각각
##수로
이벤트
에피소
후보
Lv
건물
더욱
듯.
다르
2차
##전이
##.4
우주
강력한
자체가
##한테
넘어
주요
항목
순간
구조
대해서
경험
어머니
해서
##계를
현대
제공
주의
##지지
##적을
비판
##문에
프로그램
사람들이
##지,
결혼
##레벨
상대로
시점
가족
교육
-1
작가
확실
##리,
시간이
##장에
##스러
##부에
후에
초기
굉장히
어린
가격
편이다.
##리와
##되면서
##부를
아르
불구
위험
챔피언
##위원
어렵
2012년
##id
단순
보내
과정
194
##ch
##선을
##대는
##치고
사용할
피해를
##감을
##mm
프랑스
2000
마찬가지로
나와
##량이
아주
일으
말이
여기서
준비
어디
참조
나머
The
무시
폭발
##장으로
유럽
여담
받았
지구
있었던
##트는
##이라면
진짜
##리로
대미
##체가
가능성이
##으면서
##타를
##치로
가면
제한
활용
작은
메이
##레이드
되고
약간
##까지는
속성
않다.
쉽게
제2
엄청난
대전
##ay
가는
방영
여전히
##정한
##키는
for
히로
##리티
##.6
알아
보이
받는
영향을
##시키는
##업을
한편
St
국제
지하
시청
제국
##시즌
##ER
동료
60
마스터
부산
발사
크리스
논란
다음과
##.7
수가
훨씬
##."
1일
클리어
사고
그가
##력은
##리기
패턴
##었던
기간
못하고
분위
현실
##us
당연히
##식이
##인물
쓰러
인구
방향
보호
##려서
강한
연결
이해
##위로
주는
##심을
그를
특별
2010년
##개를
이탈
하며
##없는
혼자
다양한
크로
##행을
##티브
역할을
계약
##로부터
##하다는
FC
##히는
##만이
해결
한정
나이
##40
최근
기준으로
적을
조합
##만한
브라
##정도
잡아
##사와
##ro
잘못
##놓고
##제로
국민
파워
취급
삼성
지방
##해주
중요한
##시의
##.8
블랙
영어
##로를
195
##라인
도망
##수록
##다니
##프를
받았다.
##합니다.
##겠다고
##게임
의견
본인
2011년
##나,
##자기
추정
##이고,
##다,
##레스
##만에
소모
##위에
스토리
보는
생활
##라운드
않을
##기,
자연
##위가
TV
##학년
##ir
처리
##BC
경제
운동
문제는
때문.
문화
출전
기타
것에
##면,
다니
버스
##사에
조직
없었다.
##!"
오래
전용
충분
##인트
##자와
이루어
나무
##도,
라인
정도.
##지션
##듯이
운행
##신이
##학생
비롯
##나게
불구하고
##비아
방면
스스로
이유는
오른
##난다.
##로가
##세기
##이란
##일을
##단의
2018
##만을
장착
##대학
아버지
하여
##한다고
##소를
대부분의
##회를
보이는
##신을
##가를
느낌
##성은
아들
##ht
낮은
##나이
##성의
##라를
##12
예정
전문
##명은
독립
아군
타입
등장한다.
##기와
에너
연속
이유로
##갔다.
들고
중에
##자들이
부활
내가
##th
퀘스트
수상
입장
##un
미션
##im
##'라는
##이즈
유니
아이돌
##져서
구간
##보니
종료
##르크
##원은
##하다고
싱글
HP
모드
나는
이상의
달성
##의를
편.
경우는
말한다.
절대
##ur
더불
##시켰
##하다가
##카이
일본의
##.9
##km
되면
번역
##od
타고
하기
관리
##초에
##당한
제목
##냈다.
##전의
항공
##t;
##라서
##데이트
되지
포켓
##지게
##세대
메인
##dddd
졸업
반대
##이면
소설
종류
엔딩
##유의
##시를
##으로도
근접
생존
##가가
##사,
자리
##스에
##시마
야구
##에게는
##야마
목소
배경
만약
##말로
일을
나머지
민주
##림픽
시도
현재는
##15
##32
일어나
대한민국의
더불어
##왔다.
목표
##력으로
##ut
로마
검은
위에
세이
##함을
엔진
대상
최소
지휘
업데이트
스피
##했으며,
##어들
했지만
SK
가끔
##기고
난이도
그룹
##원으로
속도
##ST
##공격
##시가
밖에
##비가
하면서
일정
대사
##관이
에피소드
##신의
##조건
공연
##일이
배틀
##운데
제외한
만화
##같이
##ver
신경
##세를
##ag
항상
##려는
성장
##점으로
##19
부르
##단을
##종의
##ec
건설
수정
##마저
##혔다.
##거나,
##로의
두고
##부가
##겼다.
얻을
2019
유리
분노
능력을
##리게
소재
아프
유명한
이끌
정식
직업
##카와
##60
정도의
##군은
생긴
##스티
전국
전설
사람은
##37
##?"
비행
북한
##으로써
##이로
오늘
무엇
미국의
전작
##라며
##지기
##어진다.
계열
##ent
##계의
포켓몬
좋지
##호를
작곡
##상에
##되기
##물이
사실을
싸우
해야
2016
##선이
인터뷰
나왔다.
##냐고
이탈리아
##버린
##주를
##리면
##했으나
##비를
자랑
you
##시로
미사
35
높다.
##나의
것과
부여
각종
끝나
##어야
##선의
다르게
##서를
거기
하지만,
미래
과학
빠른
상황에서
##방송
이름이
위치한
##무를
##여서
##시는
수는
이외
괜찮
만드는
바람에
##스럽
비밀
##겠지만
전반
##ak
##하지만,
불러
결승
##음에도
연출
적은
누구
특정
##해진
참조.
##수한
서비
32
2009년
있지만,
모습이
등으로
때,
있다
##다운
기관
##디어
엘리
##이라도
##호가
정작
설립
스파
##미가
훈련
##cm
묘사
케이
80
시전
193
1회
라고
소녀
##동을
##모토
##었다고
나서
평균
분류
##....
스테이지
못하는
전차
##장,
##움이
행정
따로
##부터는
자세한
##스러운
제일
1년
##외로
##고를
##()
예상
때문에,
근처
있다면
##단이
70
2008년
기반
시작했다.
별로
모르
타카
클래
연기
##어의
##하라
갑자기
##80
##대표
##구가
포지션
보유
소개
##이,
##더니
개념
달려
나름
않게
##크로
필요한
경우에는
명령
##지와
1차
##고는
지도
뒤에
to
없을
##쪽으로
예를
이름은
안에
악마
하늘
##프로
아키
종족
지난
것이라고
##mu
##제의
##세가
여담으로
1위
확정
효과를
일행
아카
게임을
교체
상황이
최고의
인천
안정
##군을
발전
집중
수행
공중
있으니
처음으로
스포
##ub
##입니다.
나중에
지정
압도
##크를
사냥
##ffff
##소가
연합
월드컵
나타나
경쟁
없고
지지
사이에
##계가
가까운
부모
표기
본인이
##'의
파티
이걸
등장인물
##이다
in
지켜
##부는
##란드
못했다.
즉,
잠시
생명
##'를
##율이
특이
##고등학교
배치
##리며
본래
##부로
애초에
각성
##원에
식으로
소련
외국
머리
##',
기대
없다는
경우,
언제
탈출
##야말로
나올
이용해
파이
이게
존재한다.
##지면
##인으로
죽은
있으면
##보는
사례
갖고
2000년
##타로
##하나
##스테
##mula
기다
하게
없다고
최강
빠르게
##치기
차이가
물건
일러
벌어
이적
치명
##mula_
위의
##-3
##았던
도입
##역을
제거
보니
새로
##가의
##스코
##ight
이야기를
##량을
##상은
##됐다.
고양
##em
중에서
##트라
사용자가
##만의
군사
대기
##타임
부정
목록
##되었고,
지배
##스케
등장한
##드시
무슨
라는
다크
##었고,
##'을
빠져
기동
그녀의
유사
카운
도쿄
좋아하는
##간의
바꾸
완전
formula_
##화의
베이
달라
접근
이후로
말에
아니면
##ON
야마
나라
vs
관한
2007년
##치의
이쪽
복귀
##즈의
##ce
##하였고,
가운데
건담
라이브
남성
##:0
과정에서
##16
직후
기본적으로
저지
등급
##언을
올림픽
도착
여기에
제품
##도에
대구
##AR
유일한
2,
남은
촬영
##,#
##25
음반
##학과
##체의
##내고
##냐는
##문이
##했으며
##타가
무려
##스토
동생
##심이
가르
##터를
##'라고
포기
시험
타격
변신
사람을
연습
블루
##롭게
보기
##이니
##os
##ri
살해
##:00
500
##감이
정규
##um
날아
돌아가
##진이
죽음
45
##ap
공동
##로우
##미를
역대
##많은
보아
경기에서
반면
사용한다.
##AN
완성
이곳
했던
치료
알게
##차가
##버렸다.
끝에
##낸다.
##'s
고정
하는데
분명
회피
##프가
중간
하였
업그
듣고
##주고
링크
##48
상태에서
인도
##광역
상당한
추천
##에만
데미지
범위
192
해외
유튜
동물
##주가
때마다
심각
타이틀
통합
조종
반드시
##관을
##화국
환경
받을
##점은
준다.
일러스트
##"라고
이하
LG
##한다
##18
##and
저항
이건
##력과
##했는데
기업
프레
##어는
싫어
부탁
효과가
비용
탈락
##자들은
뛰어난
주민
다루
완벽
2개
합류
정상
실험
소리
지상
추측
공간
경기를
##했는데,
투수
##러스
##들어
##이지만,
몇몇
##지면서
##들로
회사
에이
한다는
마무
미니
90
##민주
상관
어둠
점을
후,
##문의
하자
##트에
유일하게
##마가
인터넷
자리를
자체는
오버
앞에
종종
##진을
정의
개최
##체는
판단
규모
##라,
느끼
반대로
##형을
가수
요시
##술을
구매
이로
열린
우선
연재
전략
##드에
##화된
점점
삭제
##받은
무장
시간을
##마자
롯데
팀의
수많은
1개
알려져
##스카
-3
##구의
충격
기념
##주로
##두고
##인,
전통
리더
##아버
##드와
##보를
##키가
종교
조사
##우가
도중
##시킬
##금을
많아
구분
##탄을
##세계
스코
##키의
##정에
2006년
높아
올려
다소
봐도
##터가
##겠다는
소유
##파트
##석이
생성
기계
트리
없어서
##지에서
프로젝
개봉
##이와
##일러
##지.
불리
시대
장소
쓰고
##것도
No
EX
##FA
##일부터
##플레이
##회가
##용으로
생각해
카드를
떠나
##단계
시리즈의
##하는데,
전기
##크가
Ch
보여준다.
아내
공포
상태로
인한
암살
맞추
디자인
##되면
##하자.
바다
요청
##인과
제외하면
그린
2년
싸움
##스에서
##가,
컴퓨
##받는
##차를
##르트
정리
않으면
300
and
의외로
순위
##14
##질을
##하도록
도와
##IN
히어로
##특별
평범
화면
아니고
KBS
##트리
3개
마사
##되며
장갑
그야말로
33
##어,
변화
전사
대중
##력의
##적은
무조건
사업
최초의
##원,
##판을
##무라
워낙
전개
데이터
2020년
##원에서
듯하다.
카이
##적으로는
스크
##으로부터
##르의
어려운
##시,
최초로
홈런
외에도
본격
##로그
것처럼
##호선
##크의
하고,
##석을
##정은
다행
단,
##TV
##쪽에
##식으로
빨리
이와
##라스
##%,
##이므로
가서
도전
##지라
2015
##op
##로드
##성에
##ul
##/2
없음
##운동
이름으로
##버린다.
위협
확장
상징
##1,
##속도
##방을
아무리
일어
부하
##아의
##세의
##한다면
##안을
##마의
한글
##니티
평소
비중
개그
진화
##ck
스위
비롯한
경기도
##ter
투입
최후
그걸
##했기
레드
사람들은
시설
충분히
적의
굳이
##에게서
##승을
##ation
안전
##일의
의하면
지키
##었고
오프
데미지를
##가와
때까지
범죄
중반
대응
##적이다.
##군에
##이에
영혼
거부
작업
##법을
보다
##교육
로봇
탓에
언론
무한
##ra
사무
##정의
##13
##17
관련된
등에
##이닝
끌어
##수도
표시
능력이
카메
36
##'로
##온다.
돈을
##왕의
마나
##조의
##트에서
##보고
##세이
##보다도
##었을
##동생
##지역
밝혔다.
옵션
2005년
km
대형
##호는
버그
##2,
##드리
##성과
붉은
##부에서
그리스
##대전
마르
##구에
기존의
희생
##트와
조작
대화
거기에
트위
##자에
##다른
손을
통과
운용
성향
##인가
성우는
파일
생각하면
##하려고
점령
##회에서
특유의
맞춰
듯한
시민
하며,
##라이더
오리지
##시오
보조
간단
##너스
##바이
네이
##페이지
##시브
말하는
##나와
데이
##경을
th
##기사
##IC
##미의
##쳤다.
거쳐
제3
점이
대결
##래도
##'이라는
하드
얼마나
##미널
사기
태양
본인의
MA
플래
오랜
정책
패치
##제는
##드,
##요일
극장
##자들의
프로듀
시기
명중
##라우
주고
내에서
맞는
투표
선생
##로도
빼앗
##텐츠
##분이
선정
가깝
##려면
반복
불과
##남도
사격
##약을
##음이
인식
마리
장면이
##수,
무리
확률로
다운
있지
유튜브
##레인
시나
중심으로
얻어
클럽
##했지만,
마치
체력이
##론을
##단에
사는
MBC
##시킨다.
앞서
나오지
3일
오르
은퇴
재료
##인들이
고대
디지
이들은
##레이션
그럼
철도
##시대
대학교
지금은
되면서
##다고.
내용은
##스탄
##명으로
##70
신체
앞에서
화염
힘든
2004년
선언
뛰어
난이
영입
서술
데려
진입
디자
38
소년
거두
후속
몸을
34
득점
##되었으며,
대표적인
##그룹
2회
하는데,
##해를
##때문에
개조
서버
붙어
##치게
나이트
##실을
##광역시
##전은
100%
바라
##사카
##다시
##아이
적극
적에게
##리온
SP
##90
입고
패러
##소년
##트,
소비
인기
사태
외모
사쿠
모르는
여름
그저
##정으로
받는다.
##규모
##시티
##kg
##기관
근데
##임이
You
바닥
방문
##라.
##하니
##장과
살아남
##전쟁
오오
##러가
때도
말았다.
하나의
자료
목숨
점프
올라가
불안
보상
초대
포함한
##RA
##art
##전으로
다만,
설계
공략
국회의
문제를
##형이
이후에
좀비
##버리
노동
광주
적절
미드
##ie
그려
사람의
주문
무너
게이
방어력
장난
191
대해서는
형성
이기
##만으로
의한
##스킬
활동을
##방에
##도우
대단
아는
그때
##ia
알렉
컨셉
오토
지닌
##해졌다.
채널
살인
분리
단순히
마무리
단계
전환
꽤나
##제에
요소
맞아
##회에
2일
##래프트
##하려는
##분을
VS
도로
거대한
오리지널
마침
##하였고
##마를
##르가
정당
일반적인
교통
1000
##복을
막아
다르다.
요리
꾸준
마음을
##위는
##호의
##구는
서브
보였다.
받지
비고
##이상
선보
##선수
상황을
##되었고
무사
노력
주연
착용
한국의
##45
##'가
##이야
비난
아프리카
##골을
##코의
##:2
##나다
부분이
##스럽게
하나로
코스
U+
##ill
##산을
모험
떨어진
아름
거짓
##ab
##99
##하므로
손에
특성상
37
부르는
관통
부대
##카가
저격
모습으로
##버리는
승강
##역으로
##패를
경상
##해진다.
##즈가
되고,
미리
스포츠
페르
대비
##화에
날려
##어.
도움을
분야
보컬
인사
##센터
##IA
탑재
##선거
##방의
아쉬
더블
왕국
##~2
임명
점은
승리를
##시켰다.
원거리
##이라서
이것은
유래
연주
##고가
돌려
확보
등록
##ik
##일은
##나를
비교적
##니다
지적
먹고
##답게
죽을
누군
앞으로
점에서
완료
조각
##률이
고등학교
했으나
나쁘
팀이
##워서
허용
차례
브레이
In
2번
##소녀
##진의
##/0
##었다는
보병
금지
스카
##연히
2014
정보를
바탕
AP
자신은
명의
모티브
##타는
감안
남편
황금
컴퓨터
등장.
인기가
아시아
일어난
##트롤
연장
##렀다.
##과를
확실히
##사이
##에게도
고속
필살
일은
##프의
##시키고
##35
##미는
눈에
PC
만들어진
기체
##신은
실시
##요?
그에
##힌다.
##놓은
구축
거주
150
##all
##식의
##고속
##라와
##선에
작성
나누
10일
##초등학교
거리
트랙
75
논란이
##판이
##르기
15일
딱히
제압
그레이
원정
먹는
##ne
주목
추가로
##역이
세트
##력에
상처
포인트
고통
##리스트
국가대표
지니
1번
병사
곳에
##"라는
##AT
인류
##악의
뉴욕
몰아
##가로
발언
가게
측면
대답
##프레
기술을
##당의
포르
##토리
상대가
말했다.
##문화
##ea
편집
##루가
##었지만
##자들
##성도
##바로
때의
##개로
임무
솔로
수밖에
II
해석
태어
##사에서
차이
##ue
##까지도
이전에
##피아
##EN
캐릭터가
##마트
짧은
190
2002년
사용한
걱정
##:5
멸망
##나무
##에서만
##메달
##북도
##우고
수호
그녀는
희망
##티어
따른
이유가
필요가
아나
스킬을
##FF
끝난
##랐다.
일반적으로
있습니다.
이용한
이사
있도록
가슴
3년
##다보니
##코가
개의
본인은
센터
뿐만
##키를
만한
시작한다.
30일
라디오
##PS
불리는
방해
##위의
##동,
동맹
알려진
##바람
갤러
장기
##공을
##ll
한다고
##권이
뮤직
5일
##ct
라이트
##자에게
커뮤
여행
##상에서
부른다.
48
어찌
유우
##AL
##발을
액션
젊은
잠깐
초반에
카즈
##포를
제조
그만
유도
##ss
##량의
녀석
제시
##질이
##화에서는
2003년
20일
에너지
##되었던
사이에서
중단
##크래프트
겨우
가리
##디아
##하여,
해금
없기
##:1
##상태
단체
보였
##하의
사령
##되며,
멀티
##을때
가정
있으나
평범한
타임
##모리
골드
생기
##이던
##품을
##잖아
내부
25일
##회는
흡수
55
##기.
##토가
엄청나게
##리트
해군
##도시
형태로
삼국
모아
##-4
생물
던전
필수
##서가
멀리
##단은
##ate
평가를
"이
홈페이지
떨어져
끝내
느껴
레어
파트
원래는
##관은
예전
업그레이드
##자리
##루스
출생
약속
아스
##즈를
##동이
당선
육군
##웠다.
스케
보이지
##기술
##조가
듀얼
##gt;
##다가,
st
##차로
되기
어느정도
##대에서
3,
42
효율
##OR
그들의
##리안
오후
지역의
산업
안타
##카의
최대한
+1
바꿔
카오
내용을
오스트
대공
만다.
##량은
속도가
보급
대놓고
드라이
##생활
종합
##dddddd
궁극
걸어
개선
##하기로
쿨타임
물어
##,#dddddd
##세트
나카
##임에도
##모를
##되기도
4일
##지자
없지만
받아들
##계에
눈을
다름
힘이
이후에는
이것이
제안
게임의
직전
##했다
거절
봉인
##락을
처음에는
자신에게
팀을
##,000,000
28일
증거
##까지의
##미야
생겨
##'이
##주시
코너
50%
중화
코믹
트레이
##성,
밀어
##크는
##든지
##.10
##사건
##'는
맞고
유용
서비스
광역
어울
##ove
Re
##물로
끝까지
##카드
이야기가
##도와
귀족
MP
##&gt;
게시
재미
중이다.
사상
##권의
##함이
길을
이론
##니스
##수와
##lt;
7일
##ard
##oo
##대,
능력치
시나리오
잡고
현재의
도움이
##ell
수준의
흔히
인기를
거야
밸런
용병
##성으로
부담
강제
바뀐
버프
##능력
##ang
미친
##받고
컨트롤
##3,
##ers
##이치
##스턴
집에
1.
##사키
Sh
소리를
무기를
##비의
##식은
보여주는
홍콩
##구나
SBS
##ant
전술
소울
애매
스페인
##어져
스탠
뭔가
황제
##토의
뒤로
27일
민족
걸로
10%
##ine
전자
##OS
또한,
##모로
왼쪽
때부터
달러
개편
##자들을
습격
##PC
위에서
히트
유키
##다면,
##연구
##서,
##달라고
본편
##우의
##에,
##마스
여겨
발휘
레이저
##로스
[[
##하자면
참고.
##관의
39
속에서
제외하고
##등을
반란
바뀌었다.
폭탄
무게
재생
##타의
자살
상대적으로
추가된
공통
14일
계산
거대
콤보
서울특별
##형의
기록했다.
시작한
말고
부상
##물의
당장
##해졌
올리
겨울
충돌
##대와
지옥
진영
해주
지명
문제로
타이밍
비록
단독
어렵다.
##중학교
##개월
근거
기원
##버렸
핵심
싶어
##아웃
없게
사건이
##오의
원하는
21일
쉬운
상대의
##조를
넘어가
동일한
##토를
구입
##주차
레전
##터의
##향이
##적이고
줄어들
##마을
26일
2.
스펙
##전사
아침
맡았다.
테러
처치
못한다.
많았
온라인
상황에
하나를
수치
##수에
로드
##AS
크다.
##학을
시내
아무래도
##디션
텔레
중에서도
##심히
##쳐서
죽이
바르
누가
##교통
##해보
Sp
출발
한다
##당이
아웃
##AM
스탯
파악
##지며
책임
##비는
향해
12일
##/3
기획
17일
상태가
반영
8일
##느냐
건너
##ED
##다이
꾸준히
##.12
상대를
붕괴
얘기
하나가
##ive
의심
늘어나
그녀를
광고
11일
이미지
우려
조준
패시브
##하였으며,
행복
만족
##치지
FI
##구로
##와서
떨어지는
2013
##사항
표준
로켓
시티
##격이
존재하는
자기가
##론이
##먼트
##원과
사항
고유
22일
실질
탑승
마이크
관광
모자
18일
##철도
기절
##라리
싶은
게임이
못해
16일
장르
##VE
##되고,
##스포
사실은
판타
강조
##있던
혼란
##점에서
24일
채용
되었고,
##500
##겠다.
##로서의
##기인
머리를
감염
##받아
6일
##하게도
밀려
Th
##하러
미나
약한
##사인
메가
##ee
방식으로
2001년
23일
##프는
##이라며
두산
##먹는
커버
그것을
뿐이다.
테마
##었는데
사람들
필드
##-10
공산
##친다.
"그
##독교
##시와
##/32
인생
##ack
에어
위로
##니가
우승을
##선은
##ast
##권에서
13일
내용이
아메
오는
만들었다.
##과학
있으므로
문서:
대다
##오카
온갖
주도
##만은
카페
##것이
그게
9일
지하철
돌파
인간의
자이
##안타
##오가
##주년
SS
에서
탄생
에이스
##히고
해제
하위
당시에는
처음부터
이상한
활약을
훌륭
힘들다.
19일
##끼리
설득
구단
120
BG
극장판
##정부
공격력이
##화로
수원
##세는
안습
없고,
페이
두번째
##베르
데스
이들
아오
불명
살짝
29일
작전
패러디
3회
플라
##모가
##할때
##차피
공항
##373
배신
나오고
고민
어쩔
##루를
##선에서
사람들을
##기만
랜덤
##웨이
##'에
지급
둘이
가로
1위를
사과
##스에게
##가능
##4,
분석
플레이어가
##왕이
둘러
가입
아라
그럴
않기
##전에서는
대륙
아야
만에
건축
그렇다고
화살
##ong
속에
보여준
아니지만
숨겨
##국이
마지막으로
##트남
있었고,
언어
않지만
##개가
단일
서포
실행
##uby
ST
중간에
##기에는
납치
##AC
##점에
말해
##은행
##if
갖추
후쿠
마련
얻은
##루의
추정된다.
당황
즉시
시점에서
뒤집
나쁜
##자마자
##화는
47
외에
들어오
신뢰
스킨
무서
be
##님이
이르
##게도
일종의
입은
##ort
들어간
이름의
그곳
##지마
명예
##진은
방패
은근
셈.
10년
와중에
##ind
오프닝
##직을
##속성
오른쪽
##동에
브라질
##ith
그다
바탕으로
말도
##판에
수입
##3c
##파이어
##거리가
3번
##위원회
##ld
2012
있었지만
아사
한국어
한때
내에
시행
##ly
##증을
보수
##방이
발음
##정보
해설
400
확률이
성적
열심히
##하긴
것이라는
것이었다.
##5%
##데미
이래
하기도
이슬
주력
##마리
##EC
##LC
##스트로
보여줬
##ruby
늘어
클로
받게
실력
베르
버튼
감독의
교환
스튜
사실이
입학
동아
때려
밴드
내내
##즈는
디스
음식
##오프
통일
옆에
인지
커뮤니티
##리아의
제주
##군과
베이스
##즈키
하던
절반
##역에서
PS
역전
라이벌
데미지가
형제
들어가는
##a3c
##373a3c
만난
버티
##ist
##해져
뒤,
않아서
##시리즈
##지방
모션
서울특별시
##다"고
대미지
##장.
##ruby]
어차피
사정
습득
##드라
제국의
등등
##하기에
어째
이승
##ain
스프
##마법
스페셜
전달
##선으로
피아
20%
드랍
조정
46
아시
경유
##면서도
공유
외교
댓글
계승
44
2위
집안
##지컬
메이저
무력
아이템을
오픈
##우를
##역,
##ffffff
들어서
붙잡
행동을
##명,
##0000
공주
##VP
미야
##까?
제기
##스트를
공을
초월
##단으로
건강
놓고
##인지라
눈치
##'으로
##원들이
장애
##기에서
김성
가면라이더
##치에
##급의
##어주
2루
공격이
부분은
위하여
박살
돌격
##~3
벗어나
##소의
##말을
안드로
위키
##족의
##시한
##-5
경계
쓰지
재능
카드가
##ps
##per
##가에
수리
##되었으며
가득
##공항
사이트
오리
했는데
##각을
팀은
##권에
##터는
##화,
##했다가
노래를
계속해서
##연합
정말로
##면을
근무
##//
##병을
사거리
##했으나,
정글
아우
뽑아
1999년
캐나다
##하지는
기독교
소멸
##]]
크리
레인
이스
마주
카르
말한
##니,
얼음
사이의
##.11
추진
위해서는
당시의
##est
마츠
곳에서
선배
살고
내구
##니어
##리나
가문
예술
파이터
##리자
그다지
격파
맡은
세력
공작
##시코
##해지는
자동차
나의
그녀가
##라운
북미
물러
사람도
###x
고급
안되는
##요!
메탈
덕에
붙여
##판의
정도는
통한
민간
울트라
격투
##이나,
##스키
적도
##장인
증명
마녀
수용
점수
##하이
마법사
의미가
3차
해체
##부와
보인
심각한
걸려
##해주는
정령
쓰러뜨
글로
의도
후에는
##서의
거래
정체
##일로
그동안
하다가
01
그만큼
울산
사용하면
##류가
트레
죽는
뒤를
없었던
##자키
##였고,
##구,
도달
홍보
##니의
국회의원
1998년
일부러
07
연예
입단
프로토
그것도
NC
다행히
##긴다.
##HE
관심을
이들이
##면에
전투에서
##기간
지역에
네이버
데리고
##FC
##33
&lt;
##ry
##악한
뛰어나
회전
##리면서
생각하는
하수
신인
때문인지
와서
##lo
##OL
암흑
모양.
랭크
조지
하나인
네덜
아무도
##디언
복잡
##아,
역으로
체포
취소
순식
떠올
스트라이
##로로
##랭크
클리
되돌
사건을
비하면
##스팅
##판은
소프트
가까이
압박
##해,
##워드
케이스
##IT
자리에
##사용
##리언
자원
##64
실제로는
쓰레
##판에서는
##별로
파견
잉글
알았
화려
전체적으로
관계를
오로
아무런
쓰이는
아티
패치로
포인
얼굴을
무난
발매된
보여주었다.
##등급
목적으로
8강
##적의
작용
추가되었다.
했다고
개통
한계
선호
연계
##들이다.
싸우는
갑옷
##리티컬
못할
않고,
##관으로
지금까지
시야
##시간이
##색이
주인공이
여동생
관객
##피스
투자
통해서
##373a3c,#dddddd
선수가
아케
##-12
08
##거운
##실이
02
CD
입수
컨텐츠
대장
순식간에
세워
한화
##'이라고
생겼
수요
경영
부족한
이들의
##시스
신의
때에는
많았다.
채로
출판
방향으로
맞이
얻는
여러가지
첫번째
##보단
43
함정
열차
##인.
노트
고전
넓은
##관에
노출
##유키
쓰인다.
on
돌아오
##호,
뉴스
난이도가
대규모
방송을
##류를
옮겨
기여
있긴
체육
##가락
##학자
or
1997년
교황
##사람
당한
강원
폐지
##오를
방법을
두려
##PU
충청
의사
어쨌
쏟아
빨간
정확히
##중한
리버
문을
##라노
최악의
흔들
기회를
me
##대회
##BO
아닐
크레
에스
돌진
##하시
요새
도움
파이널
##으려
출현
떡밥
괴물
해방
캐릭터의
##만원
인근
1인
의식
##겠지만,
넘는
##마는
러브
##당을
공화국
##형은
프로젝트
몰래
3.
##100
##주,
##시장
크리티컬
테크
구현
변호
교수
##역에
드디어
##체로
본격적으로
쓴다.
06
등에서
##인들은
##널티
##부,
폭풍
프리미
##우리
부진
협력
미사일
있었으나
후지
##ust
중인
불꽃
##타이
##듯.
감독이
하자.
계급
나루
##터리
것이라
조용
깊은
기초
99
단지
걸쳐
해당하는
##인민
등판
##관계
##목을
카운터
64
##톨릭
베트남
제로
Su
추락
AT
52
##종이
됐다.
##코는
다니는
편성
##치와
화이트
##거리는
##메이
연방
드립
신청
기록을
##카를
it
눈이
신규
목숨을
09
##인이다.
이용하여
##티아
아무것도
해적
03
NPC
##았을
유전
의견이
대로
아니라,
##인에게
응원
충전
기능을
영원
보도
유명하다.
##5,
간의
49
대상으로
되찾
딜러
방법이
##실에
최상
편이
그들은
제이
집단
이쪽은
##se
했지만,
쓰면
##머리
통신
180
카나
##브리
##ore
견제
대립
##아파트
중.
##자들에게
못하게
##브를
...
##것을
스마트
단점
아일
가능.
##한국
수집
가이
##소에
##부르크
없다
행사
is
전라
##율을
##효과
테이
부분을
##까지만
이뤄
그에게
있었는데,
했을
##라기
##시설
성능이
되는데
필요하다.
쪽으로
31일
##파의
##향을
다가
치고
이후로는
아직도
운전
말이다.
흘러
동원
##이었으나
비슷하게
##경이
이후의
모바
말할
##비전
##one
##공의
##색을
##형으로
모른
있어야
옛날
모습은
##의가
##었는데,
US
마지막에
공부
평화
##주인
모른다.
##고의
크루
반응을
무료
그래픽
영상을
뜻은
생각을
불편
매일
만들고
우리가
##장한
보너스
효과는
오스
여러모로
목적
글을
공급
##6,
갤럭
무대
괜찮은
다수
런던
파이어
위원
##되자
고생
어깨
##저히
'이
고용
맡고
##의로
주어
1.5
전투를
다섯
캐릭터를
##RE
##야의
성인
비디오
언제나
토모
수준으로
본선
MS
1996년
연애
쪽이
모리
##미,
##영화
순서
등과
하나는
대폭
혼자서
##:4
##스트라
An
##사.
학살
##해가
노예
##24
없애
만든다.
##책을
브랜드
대체로
##",
##어와
콘서
경기가
##치,
득표
##함에
##영상
이시
나뉘
복수
##:3
사람들의
트위터
30%
##격으로
##가?
마음에
##함으로써
이중
##동의
창작
먹을
##카는
타워
인상
##역의
돌아온
중학교
KT
00
특별한
알파
작동
화장
그와
##해지
##내며
##보스
자신과
양산
##였지만
그런지
##다의
빠진
푸른
주지
계획을
##였다고
##였고
걸린
4년
번호
몸에
드물
자체를
위기에
이후에도
제4
유저들이
##용이
준우
유희
널리
##라이언
사진을
자이언
참전
적어도
명이
##민이
무효
하나.
기반으로
국립
넣어
수학
##공화국
안에서
있었는데
점차
1995년
이득
상황.
이것을
죽여
##전투
##ip
위치를
녹음
임시
##지원
장점
다리
전원
스웨
몸이
마시
##렸을
대략
기습
3위
##업이
마이클
##테인
정류
이날
##크라
##드에서
##하에
제법
도서
의원
추적
오빠
##보가
##주에
##프리
##PG
성능을
달아
있었고
어디까지
고양이
호평
변경되었다.
2배
전직
4개
4,
윌리
##세에
##관,
이슬람
길이
보낸
예선
유로
디지털
주먹
##조는
65
곡을
본인도
그것이
##end
##.25
##연이
##인에
##운다.
차별
사이가
#373a3c,#dddddd
##당에
조금씩
형태의
##자고
##화되어
FIFA
말은
##체에
##ere
##버트
구출
##인인
시기에
##러운
어그
스폰
##타입
헤드
04
4강
##국을
거기다
네가
조절
코드
들은
##사랑
똑같이
영문
##받았다.
그렇지
된다는
동작
##ity
엑스
댄스
조심
##동차
그럼에도
A4
05
레오
진정한
##기지
있으나,
하다
관계가
##링을
Te
꺼내
##파를
##-20
불법
##75
##재를
##데스
세월
##상,
##()은
가드
내는
태어난
행성
시키
프린
곳이
똑같은
##라에
시각
##마저도
##아를
파일럿
De
Ne
파란
##실에서
사토
인공
##제한
제임
##베이
##ath
##:30
변형
익숙
했고,
##무원
타케
노멀
연사
##유가
미츠
##고로
입장에서는
던져
이재
시장
체력을
##해의
세계의
##병이
되는데,
정착
##님의
가톨릭
귀여
189
생겼다.
신성
정확한
마리오
조성
Ar
잡는
##소는
근처에
등은
##인들의
되자
이내
##부대
수영
장식
캐릭터.
어쩌
거라고
##민의
심한
발달
닥터
##짜리
마크
트로
스타일
도중에
##이었고,
어드
의혹
##었으나
##료를
비중이
##??
전형
코스트
취임
구속
##안이
선물
##력도
최후의
예측
##과,
##할수
스킬이
16강
수송
동네
##하였으나
영국의
##들에게는
##비스
1대
때가
##히로
##색으로
전까지
합격
요즘
##평가
권총
##였으나
##명이다.
##-11
고향
이성
##200
##ome
더빙
펼치기
블록
지속적으로
기어
플레
##항공
불린다.
##표를
집어
관할
달린
##당은
막을
살려
어지
##들,
대부분이
##.01
##미와
##름을
##한의
간다.
정도가
생활을
##시절
공격에
5회
근육
BGM
SN
##메이크
4회
AI
페이스
아머
##았다고
##65
유령
보이고
##당하는
등장했다.
크로스
메카
있었다고
지니고
붙은
MAX
어떠
5년
곧바로
매니
1994년
파라
되었고
역임
아버지가
##교의
박근
오랫
##법이
중국의
단순한
수사
부터
낮아
크고
##슈타
##뿐만
여왕
마도
##로나
##냐며
##%의
넘겨
##주면
##쪽의
한마
##MA
승격
출처
플랫
합쳐
업무
##미니
전쟁을
언니
김영
이후,
주변에
판타지
##이긴
빠르
2010
레전드
예외
적극적으로
사용하여
모으
하더라도
팬들이
신설
검색
##씨가
접기
이거
괴롭
##산이
##함과
58
평가가
나를
펼쳐
내의
소리가
모두가
무언
##구와
##권은
공개된
활성
자신들의
오늘날
차단
대미지를
9회
서서
##쟁이
가졌
몰려
극단
팬들은
국가대표팀
막기
##중인
이들을
않았던
##홈런
파트너
-원
잠수
연상
종점
##양이
##내기
너무나
##등이
편의
##우,
##역은
##사업
초창
거리가
##age
쿠로
##조리
##레나
##ect
계약을
중에는
존재하지
어둠의
규정
##IS
FA
식민
##담을
대항
추격
무엇보다
리메이크
상품
에드
그랬
기억을
##7,
##'에서
일본어
AC
인수
포탑
##경찰
구해
줄어
##데다
스카이
마리아
반격
어떻게든
생일
플레이를
##관리
##마이
스파이
판정
##무기
이루어진
고백
목격
다이아
3D
-명
주전
소화
지나치게
절망
##전차
위험한
MC
##22
##술사
소닉
기원전
커맨
2011
MVP
##리우
동방
##론의
요괴
##자면
전면
##지않
##영이
아쉽
등,
1990년
##"는
##킨다.
##소에서
##호로
##실한
높이
의존
압도적인
국방
##II
외부
라이더
진지
##야구
부상을
##.02
밖으로
##티드
저장
##개발
보물
타이거
##다니는
설정이
##이었지만
##되었을
않아도
반발
박정
없으니
##니다!
##린의
##마루
일시
긍정
하나이다.
모바일
##ire
전력
예비
단어
회의
##석은
자가
없으면
##츠키
##야.
클래스
##당히
이전의
##분의
유행
##했었다.
##동으로
##터테인
##스톤
홀로
저그
3대
작중에서
유대
법률
##츠의
기점
##나라의
나타난
##도르
##인간
##둥이
불가능하다.
지역에서
##국가
일도
능력은
특이한
후속작
##편의
탱커
방출
본작
##하라고
그로
게이지
##린이
와이
스튜디오
갈아
지역을
사운드
##BA
외계
##드립
##환이
##버리고
최다
##하면서도
##전,
마법을
장수
유형
기능이
결성
포르투
코미
##당했다.
##amp
통상
현지
##토는
히데
가깝다.
##디로
의뢰
오랫동안
스티
전후
한동안
작품의
되어서
##og
중계
심리
창조
대상이
서양
##현이
아바
느낌이
모여
입력
보여주고
정치적
##-8
다룬
베스트
출신의
##66
##tt
##교를
윌리엄
차라리
##유를
침공
##://
곳으로
##학적
##류의
마침내
##슬러
써서
##~4
2부
성적을
THE
아름다운
지어
오사카
##되었다고
통제
용의
하필
##노가
성격이
하야
프라
결합
예능
##으론
지금의
##디가
##웨어
##.03
41
주의.
##하기는
구성되어
##연을
상향
##었기
베어
##연의
DLC
자매
##어버린
블러
##세요.
##ide
전함
신고
현상
보장
강철
청년
##번에
폭주
남겨
##방어
대표팀
##사령
8회
##회사
협박
상호
중에서는
##ure
루트
##했는지
##으려고
버려
저녁
Le
##ime
최강의
무적
필리
##설을
착각
들이
대만
구멍
##ID
##곡을
##해서는
주기
Me
이집
##령을
다루는
##당하고
치명타
일본에서
##군,
승부
##()는
튀어나
부른
나와서
감시
맞지
헤어
가속
##편에서
##네가
##구치
'아
##들과는
##트워
##기업
##역이다.
쫓아
##라!
시켜
실력을
신기
제2차
##과도
말하면
순수
있기에
##군으로
##/4
끌려
잡을
감옥
외에는
##배를
많아서
죽인
아리
##OT
이어지는
대처
합성
##어리
고등
간혹
학원
##ake
찾는
쓰기
어쨌든
##세로
가볍
기술이
##감독
구체
대사를
대화를
##었다
제5
##진,
골든
정복
56
경기는
Se
##더스
끝나고
총을
호텔
##르지
알렉산
처벌
외국인
54
콜라
적대
잃은
안내
받아들이
생각이
##통을
선출
엄마
않는다는
커플
스웨덴
이끌고
##번호
##ark
소수
어디까지나
싸울
##'.
무덤
의료
이주
로스
내놓
독자
세계를
아니냐는
##일드
다수의
날개
##물에
##파이
강제로
사용되는
##버려
나나
한국에서
접촉
쉽다.
이지
##실,
주말
이리
했다는
##28
박근혜
마인
##소한
59
##금이
##하는게
향상
보일
끌고
##타와
자는
규칙
전화
초등학교
은하
생각하고
작사
둘째
##니와
##었으며,
##크,
비슷하다.
인간이
우리는
태어나
역사상
했는데,
플로
##OM
##계에서
한편,
##다'는
맞은
1992년
죽음을
##리에서
말아
##노의
##식에
##명한
##아는
##안에
##만큼은
힘으로
##77
##하거나,
##하고자
##노우
좌우
##당해
##리얼
AK
만났
##판에서
성립
올린
노르
이란
무렵
이끄
인하여
김태
##던가
결과를
밝혀졌다.
독특
마음이
한자
가고
##신으로
일으키
미국에서
미스
감정
##심으로
3루
드러나
##페이
방법은
자치
##았고,
관심이
##ES
마이너
누적
무작
##량으로
브루
지원을
##법은
실버
어두
헤이
##세요
##그래
2기
나름대로
600
##ite
정지
자신도
훌륭한
디버
니시
편입
##한을
아가
소형
##시키기
경향이
##iv
까다
사용해
생각보다
1993년
화력
남아있
He
WW
똑같
포스트
영업
6회
요코
##환을
##ound
##38
갤럭시
일제
메시
##보기
노부
인형
##인지는
##이게
##르를
깨닫
풀어
사용된다.
희귀
지금도
##재가
이치
어릴
##OP
했고
##민주당
주었다.
의미한다.
##실로
속하는
수록곡
동시
상업
##"를
청소년
네덜란드
마구
##oy
전시
사용하지
정확히는
##현의
정면
##ge
수십
무기로
강남
애플
위치해
##지고,
##'t
강하게
웹툰
##니는
##하려면
Be
##비에
DJ
막장
##파가
KIA
융합
##산업
독일의
##된다는
##줘야
프로듀서
은근히
##소리
##들.
수련
5개
##점,
앞두고
##주지
##묘한
##명에
##피를
##iz
##소로
더더
것만
Lv.
없던
일찍
스미
##재로
예고
##야가
##UN
출장
이끄는
옷을
안티
##림을
##치며
##구려
##산의
세상을
##당한다.
캐릭터로
극복
대원
연극
팬들의
그것은
##이었고
7회
##바라
사람들에게
태그
#ffffff
기본적인
kt
흥행
##크와
##석의
지내
##론은
CC
플랫폼
88
##막을
카를
들어간다.
적응
##ess
##.05
말로
이길
웨이
훗날
지능
김정
##되었는데,
중의
다들
마왕
폴란드
소총
##등의
##미네
##AD
전에는
##익을
2세
##였다는
반응이
아빠
등장인물.
피격
제어
##전과
스피드
태어났다.
사용하고
##에다
몬스터를
찾아가
있었기
챔피언스
멕시코
검사
환승
##자치
##코,
##사회
더더욱
이상으로
관심
##화와
탄약
##친구
피를
##미터
할아버
##종을
my
##용을
맞게
멀쩡
당신
경비
5,
##단과
##졌고,
2017-0
57
개입
안드로이드
##경에
접속
##국은
##조차도
은행
##투를
역을
나아
##OW
카타
갈라
##색의
발매되었다.
원본
각본
특기
유사한
대하여
하얀
대개
##물은
##영의
사랑을
AR
부품
테란
슬롯
##초간
감사
불가능한
인물.
GT
레코
게임에서
66
팬덤
##이었다고
##.08
##랜드의
##심한
블로그
들어갈
코어
##하였으며
물고
##망을
새벽
나눠
브리
"아
이즈
어른
별다른
##하겠
태평
의무
##관에서
내세
##보드
장면을
활발
박사
##~20
연관
##문은
##트릭
물을
과정을
##학의
전성
저주
전형적인
테스트
관계로
##정,
188
##다면서
##테이
경험치
1991년
인터뷰에서
달고
사라진
상황이다.
방사
멈추
##도에서
##로봇
##sh
My
랭킹
다음날
제작된
Wh
##기까지
##즈,
일상
##9,
그들이
+2
해병
##음악
무릎
성공했다.
##안의
당해
이민
어떠한
공군
까지
장교
##포가
이정
트윈
##드레
참석
미술
레벨이
이외에도
서부
금속
내리
##학,
다를
결코
죄다
들어갔
대충
버리고
##유럽
##ud
SC
문재
2대
경기에
공격하는
##이트를
##비트
##ame
절대로
##경의
##OC
##화한
개방
2층
##번의
헌터
이외의
준우승
리듬
있다가
오전
갖춘
##전대
명령을
##다시피
스톰
##국에
전철
갈수록
##다란
사건의
##라이트
##ord
한참
트랜
경우에
죽음의
##즈와
정도다.
Tr
방에
비트
##oc
UE
분위기를
토론
과거의
##대장
SD
오해
직원
연도
아니라고
##-7
검찰
##등장
헌법
바보
싸움을
##팀이
3인
적절한
매년
##코와
잡혀
가야
##모델
2의
개혁
##츠가
##our
교회
보게
with
디아
들을
메타
##LL
보며
채택
##코를
들어온
##선,
##실의
실력이
HD
스코어
##가시
칭찬
막차
것인지
도발
세종
##36
약간의
캠페
나가는
죽일
'그
원칙
##라엘
250
##령이
캐스팅
기자
우연히
##시험
자동으로
##공이
적혀
##.09
##는데도
수준.
1기
아니었다.
스트리
전방
##비로
김민
스태
페이지
##여자
가문의
루시
##맨의
이글
퀄리티
##이기에
Al
써먹
##.07
85
형식
꿈을
싫어하는
평이
따르면,
그라
분위기가
미카
##버스터
##지인
점이다.
비례
불을
같아
짓을
##px
##키와
##기나
덧붙
##중앙
##당할
##34
##나카
##다를
체계
아니라는
##로와
작가가
상태.
남부
슈팅
##으러
카드의
부서
전멸
##메가
그들을
우수
SM
2번째
##"이라고
만나게
이영
72
개막
그건
##'은
##com
어지간
IS
##버그
이라
아들이
몽골
김종
치는
##느라
##집을
아버지의
##받을
구사
##없다.
키리
##일본
##상한
##ance
##ix
보관
시달
##토와
첫차
##.04
밝히
과연
편곡
버프를
보너
##자도
대표적으로
벌어진
이상을
자랑한다.
유저가
병력
많고
노란
오직
선생님
출마
반면,
덤.
보유하고
이른
##"의
이제는
##레이터
##양을
나쁘지
제임스
왕의
사후
보안
##ice
공식적으로
##렬한
##러의
##ok
하니
날짜
빛의
보지
사람들도
내장
68
선수들이
어마
의미로
스마트폰
##%를
시즌을
후계
기병
열쇠
되었다고
자식
위주로
동부
사장
##하라는
이루어져
1학년
매직
남북
모양이다.
##ick
맞서
##명과
##'와
입을
과거에
시절의
회수
정찰
추가바람
유나이
포르투갈
##-9
##했습니다.
##마스터
##ax
가능성도
세계에서
뒤에서
##마에
패션
집에서
알리
##번,
있어도
모조리
자리에서
임무를
베네
##탄이
김동
##배우
클레
프리큐
메뉴
##구역
##어요.
##소,
공화
비싸
-위
1세
30분
봐야
오스트리아
심하게
재사용
휘두
##루는
장악
채워
##으로서의
와타
##다나
네오
카라
##증이
자극
바깥
보라
행위
##데이
챌린
방법으로
##았다는
##가고
UEFA
##티나
아쉬운
##하가
군단
믿고
대사가
##로서는
드는
##되었으나
환영
위치에
##브라
시즈
물질
##수.
##단지
##되어서
##약한
##pe
가을
수수
110
목소리가
크기
뜻을
있었을
빛을
학생들이
Go
발생한
##%로
##서에
완벽한
##하자,
기분
##ww
스타크래프트
주인공의
3학년
현역
정신을
##러를
작품을
PD
전체를
##렸던
손으로
폭격
동굴
잠재
Love
de
거듭
##비와
명확
소식을
##.06
쓰레기
왔다.
잃고
박스
JR
출입
카와
51
데이비
##오리
피해량
하락
좋을
한타
셈이다.
신앙
##리케
자리잡
나타난다.
시스템을
카미
##것은
이라는
재판
현재까지
##하기가
전진
##포로
허나
##되었다는
##{{
##커가
하트
##스트의
잡은
##카,
##39
재현
여신
이전에는
하거나
확인할
보이며
##급으로
자세히
되며
부수
감안하면
SKT
사마
##니를
모래
##링이
개시
유니폼
머물
1988년
##사무
##률을
잉글랜드
결과적으로
프라이
가스
##츠를
올리는
곳은
플레이오프
신이
관중
##프와
##노스
##주와
##봐야
일방
챔피언십
나이가
좋게
죽어
##건을
별명
시그
내보
저작
거리를
SR
##계열
정체를
알바
밸런스
전쟁이
연락
##na
로그
##했다면
증가한다.
##호와
##였기
기울
병력을
EP
회원
눌러
1989년
캐릭터는
##에서,
##오고
어려워
##단체
##사우
##ber
둘은
귀찮
지형
맞다.
가짜
금메달
아즈
##own
이명
제갈
무방
어린이
공공
모모
전공
않도록
강요
##선과
터뜨
##EM
올랐다.
이닝
가격이
스승
해상
추구
##종은
세르
영구
메르
##파로
라이온
정부의
목소리
##맨이
##야,
##PM
미디어
0.5
4.
##쿠라
##욕을
언급한
명을
프랑스의
##번이
##계로
GS
전의
얼굴이
조별
##그라
3연
##스트가
처형
##주민
배트
##속도가
충격을
2000년대
피아노
##qu
오래된
내지
##인들을
2학년
대회에서
있었지만,
95
신문
작가의
남긴
##리고,
스톤
장군
##마와
전부터
##lay
적합
아일랜드
통산
캡틴
유닛을
네트워
##가.
북쪽
##석에
잡지
##위,
##것으로
##씨는
##퍼스
가사
물론,
목표로
외의
##해준다.
메리
것일
상급
##상과
단편
##졌을
넣고
##자이다.
##68
##시고
##av
##생을
##프,
의지
게임에
승객
색깔
남쪽
##국제
몰라도
##동은
스틸
야스
때에
##교회
OST
기록한
간신
##정과
800
2008
집을
98
##old
감독은
##검을
놀라
되며,
할머니
##작을
비주
##조로
##때는
눈물을
##방향
구글
카드.
지식
아마도
있었다는
1층
단단
##인도
버린
##보로
오카
##바의
깔끔
##NA
간부
##은,
빠져나
이용해서
##위키
욕을
클래식
유치
지나가
배우는
비싼
인원
탈퇴
##orld
들려
보존
계기로
2009
스프링
중독
돈이
##레일
##셔널
##장갑
##한이
이스라엘
혁명
아크
만들기
관측
유효
문학
##하겠다고
공개되었다.
##세한
가라
노리
아파트
분위기
##s,
##에겐
##US
넥센
차원
신분
62
##실점
그러한
{{{
카메라
CPU
포항
##우와
드림
된다고
화를
홈런을
##ng
헤비
나오기
찾기
관찰
등장하지
사망한
있는지
부문
##인들
77
##율은
군대
당하는
##.18
서식
53
사우
##포의
어택
##진으로
아이를
1군
##생의
파리
##타운
Ro
포함되어
##커의
챙겨
공격할
당시에
터치
발언을
농구
마드리
주간
이번에는
레알
한다면
기용
사양
삼국지
종목
이식
코치
컬러
밝혀진
트라이
##받는다.
떨어진다.
천재
구원
머리가
확대
##서로
##임은
한정으로
몰락
특집
비공
쿠키
##오와
아이스
김재
단점이
개정
없으며,
##각이
뜬금
볼넷
리가
멜로
##ont
아랍
##/h
##비,
핸드
[ruby]
동의
##게이
나아가
최신
즉위
영화이다.
조건을
찍어
효과로
수준이다.
숨겨진
##후의
고위
##ies
아파
##통신
군주
##언이
앉아
한명
후손
나중
##적,
성남
상상
##.15
##여객
##직한
하나도
##이면서
76
뜻하는
무시하고
이은
그러자
물려
않으며
##모드
싸워
스턴
휴대
아메리카
급격
##EX
합체
아르헨
플레이어의
이것도
의미를
강하다.
##110
마술
날아가
##투스
챕터
초반에는
일명
어째서
넣는
업그레이
##~5
##었지만,
##았고
##제와
맞으면
늑대
##족이
사카
##았지만
160
해안
간주
인물이
##차는
##pt
수출
##있어
선전
##"을
후술
레어도
자체의
식물
##일보
시대의
트럼
바꾼
K리그
Ex
이용하는
미군
이상이
##터미널
##방에서
국왕
##되게
느린
사막
사용이
모르고
것으로,
##타,
KO
도구
##그리
블라
떨어뜨
통치
한쪽
성능은
않았을
##랑이
왕이
##체육
고작
몰랐
드라
##됩니다.
팬들
다카
130
##커를
느낀
##나서
올라온
책을
경고
제작한
미스터
##번을
##-6
아쿠
##27
##제국
타락
독특한
동쪽
퀘스트를
마력
있음을
달리,
시너
자폭
위장
잡기
##결을
주변의
전해
##구에서
##주기
##법에
##희가
##저의
죽고
만날
결과는
약점
김대
거기서
##21
##버릴
##아와
##중이다.
게임은
아시안
적당히
식의
KBO
찍은
##하를
##요시
##관과
진보
부상으로
비판을
라운드
이어서
근본
상술
이미지가
캐논
##망이
메달
블레이
##년에
세이버
Un
생략
##어마
느낄
##두는
78
탄창
##치면
버렸다.
저렴
1부
글로벌
들여
##현,
직전에
고구려
##린은
세운
관람
살펴
다음에
육성
##되는데,
남녀
또다시
에너지를
선수로
다닌
별개로
무관
연료
##OD
양쪽
것,
매치
그러다가
##시피
##리포
##디를
1980년
커다란
인증
수도권
제정
초기에는
오지
수업
점수를
##으로만
드리
##98
##io
루이
되기도
추억
74
움직이는
##질로
카트
이나
그러니까
발행
##유닛
##군.
건조
사전
아틀
빨라
이겨
이듬
##들과의
아이콘
터키
잘못된
##세스
환상
범위가
##통이
중립
나폴
재정
미안
아테
##요,
찾을
구성된
작품이
##씨의
피해가
비상
##네의
처음에
일어났
시절에
새끼
##하더라도
##자나
화려한
##린을
##실은
보여주며
아닌가
부딪
시작으로
무척
신경쓰
저런
포스
##들만
DF
간신히
우리나라
북부
레이더
민주당
곳을
고문
했으나,
##지?
##있게
없으며
지시
##끄러
wh
##사거리
##약이
정부는
##로워
폐쇄
주제에
시작된
##제,
1987년
##저가
장전
기록이
##-15
##ET
##훈련
존재를
##졌고
예정이다.
카드는
버린다.
특성을
##천시
LI
초보
##디의
##션을
너의
기록하며
##싱턴
##력,
##백을
손가락
코믹스
##이었기
그렇지만
2020
용도로
개량
수류
##박을
##레가
후반에
호위
화가
시간에
가볍게
##+1
공격력을
위반
않았고,
##설이
MF
떠오
멤버들이
##거를
##/10
가시
마그
##하마
##죠.
해주는
##졌다고
제도
판정이
곡명
총알
##과에
가치가
##테르
위대한
곳곳
주둔
도끼
##네.
인구는
공성
##만,
당연한
제출
##MP
##차례
발생하는
##고에
##패로
패턴이
게이트
##되었지만
##였을
아니고,
곤란
서쪽
의견을
##cm,
##고속도로
##이든
가끔씩
언젠
2인
고교
140
Pro
집행
안나
커리어
##되던
그랜드
CF
##VD
We
검을
##내지
##진과
문자
속도를
않으며,
출연한
종류의
어마어마
합의
사냥꾼
미치
침략
덤으로
공룡
실망
지역은
액티브
##발이
도주
자전
코코
##먹고
일치
니콜
이미지를
##"로
클랜
mm
토끼
##조에
##구리
WWE
의문
망가
않았지만
관련이
##양함
저질
이펙
보석
그림자
국가의
부분에
죽이고
리얼
##돌이
시드
##었으며
언덕
##바닥
sh
67
마다
성별
새롭게
##경은
##야만
숙련
##95
##"이라는
##공사
사쿠라
##/1
자본
음악을
격추
지불
골을
가만
없지만,
##들인
##수사
대부분은
##생이
받아들여
체결
집으로
차지했다.
##탄의
##세.
##보이
이혼
##속에
포위
하나씩
다스
##모의
정부가
후배
오버워
부를
##내가
후에도
동성
생년
효율이
언더
##사이트
아티스트
처럼
네임
완벽하게
치유
##Hz
간접
흡혈
##포인트
##IP
사람에게
##들보다
이듬해
1라운드
부각
귀환
your
4대
##후반
감정을
불렀
취급을
무지
페널티
##rom
죽이는
화학
다음으로
영토
토벌
곡이
##병원
난다.
아케이드
주사
CV
합병
걸고
아카데미
##산으로
불교
확실한
크리스탈
##플렉
일이다.
금융
있었으나,
나오면
늘어난
프란
##900
타겟
I'
##타카
한국에서는
면에서
침입
초중
진짜로
구하기
티어
##비디오
U+11
원인이
##판으로
##미나
##문학
It
무기는
카오스
넣은
##프리카
소드
차가
방지
브로
##하자마자
정차
##인한
###x11
하차
방송에서
아이언
정도였다.
##out
멘탈
소위
6,
##능력을
이다.
기숙
4번
##시에는
녹색
##단에서
명칭은
비해서
문재인
소지
빅토
드레
얻게
##경제
농담
아래에
성공한
한번에
우수한
##현은
##습을
일으켜
문서를
윈도우
##필드
전주
대우
전투에
187
무기가
##%가
양성
전문가
CJ
수준이
##디는
니코
##까진
금방
정수
유통
##편에
사회적
##ave
모를
유저들은
##러니
##기록
대통령이
##성능
속한다.
##국에서
사용하기
성공한다.
유발
편이라
해피
##거리를
2.0
유닛이
히카
불렀다.
보면,
타자
##조사
승강장
SH
##된다고
라이프
##였는데
전반적으로
##공원
떠난
입장을
후보로
늦게
않았고
전체적인
##팀의
키워
##26
연속으로
기뻐
##야는
열어
떨어지
##듯한
강의
되었을
##영은
좁은
뮤지컬
클라
부임
함선
나면
추종
##아리
##다리
##ream
올렸다.
##축구
냄새
##ond
친구가
##에서부터
##슬링
존재가
두려워
마키
자연스럽게
체인
그레
휘말
엘프
거울
##였으며,
당일
##왔던
나타나는
##기에,
수술
최소한
세포
크리스마스
##렸고,
##감한
##ile
아미
##타자
시작하는
4위
##범위
패스
사랑하는
생기는
##46
바이오
발생한다.
유력
장비를
거짓말
##장전
1986년
전투가
듣는
양의
갤러리
잇는
임대
기믹
작업을
##냐?
측정
잔뜩
##디움
되어있
1루
답변
가벼
쉽지
##팅을
목을
프로필
일원
데에
##개,
1만
디지몬
##ian
##러는
올스타
기관총
##ION
보완
횟수
반사
중,
##사이드
둘의
##우기
호흡
##동과
Gr
that
##부장
언급이
숨어
##열을
상영
##발의
일어나는
다이아몬
난입
지뢰
##세)
영상이
##함.
##되는데
가지는
플레이어는
상관없이
분명히
1:1
##편이
##드러
##버를
##님을
사건으로
선두
총기
##슨은
##무장
##레를
따온
자격
##가리
##체인
보다는
왕자
대미지가
호칭
마이크로
보냈
고스트
정황
생년월
##필더
##LE
데드
이유를
김현
##브의
##29
인디
초록
##받지
하나,
##우지
발라
음성
##iss
들면
무서운
##슨이
##작이
끝날
시에
받으며
나오는데
##렇게
토너
한글판
재밌
##해질
유독
자녀
##슨의
진압
별도의
보여줬다.
멋진
물건을
알아서
마법소녀
차를
생각해보면
##브가
수를
브레
대성
##즈마
스플
시스템이
설정을
삽입
시상
시대에
##예술
심지어는
##rd
플레이어를
그러다
알겠지만
##아시아
##사관
스페이스
나선
발렌
186
AM
뜻이다.
증언
운영하는
돌아와
최근에는
혹시
틀어
동양
##키퍼
수백
먹은
익스
1장
신라
곡은
사살
라틴
이끌어
##가며
포트
##.00
영화를
티켓
##로써
뛰어넘
군대를
힘들어
등.
결과가
피할
##츠는
닌자
##ost
101
발표했다.
어딘
##SP
돌입
베를
정식으로
##시하는
##르와
##면이
올랐
##클럽
##-19
오마
눈물
일종
위력
활성화
+10
말하며
1승
##루,
##발로
죽는다.
주인공은
##더라
일으켰
호주
미쿠
##"고
미드필더
없다면
콜라보
형사
##고한
##히지
가치
해당한다.
공격으로
저택
##.20
데몬
3번째
투어
##면에서
2연
시노
느낌을
돌아다니
대대
아래의
요소가
가지게
매달
##카오
##웠던
가려
묘사가
##급을
걸맞
밀리
경상북도
##으니까
##블로
##커스
심판
정도이다.
##전자
##지기도
마코
기운
단축
트레이드
나도
##름이
나간
맡아
지팡
##300
96
##림이
##급이
점도
대단한
##신교
죽지
##로만
AD
부러
끔찍
평타
집착
##보병
제6
##누리
타는
들어가면
##가서
2.5
행운
요정
죽기
프리큐어
항복
##계는
동일하다.
##55
최우
매력
4차
애매한
리뷰
바퀴
내야
##하나,
##기기
이수
공격은
각각의
오류
일으킨
##하면,
원자
스킬은
예로
칼날
##르,
##44
배차
##대상
아나운
않는다고
##행이
주장하는
어뢰
현장
삶을
1명
##역과
##지구
인물이다.
얻었다.
##네스
##ace
##단,
##공간
의해서
##s.
##나가는
연금
상태를
전신
투구
시절에는
##다"는
곡이다.
이긴
길드
다리를
데다가
세인트
디젤
주식
Com
장면은
##ov
##바나
##ory
왕국의
개설
##석,
심장
깨달
속도로
얻기
##-K
입장에서
배포
여객
##종합
같지만
영광
##man
##ph
스팀
##주었다.
2007
##바가
방식을
아버지는
유저들의
##나이트
텔레비전
가르쳐
##진에
우크라
##해지고
귀여운
갑작
##였는데,
##마크
##침을
##빌리티
1분
##;&
##치면서
시절부터
철저
##'과
준수한
창설
##소속
##률은
##민은
##,8
##영을
공격한다.
공허
맛이
##노는
생명력
##비한
##ear
제가
##이었으나,
평을
칼을
##리에게
고수
##음.
1985년
상처를
이하의
전체의
5%
실종
부근
##왕을
##네시아
마케
머리에
오디션
##저럭
##라고도
체크
##이었다는
##인민공화국
화성
2006
##이라고도
세대
어두운
소재로
면이
쓰여
되지만
워싱턴
당신의
##족을
##......
##복이
팀에
##:10
먹어
신화
##곡이
타쿠
불펜
##럭저럭
곳이다.
대리
내고
메모리
또다른
##국으로
드럼
강등
##희의
드래프트
본다.
전체가
미네
동남
##주교
나은
##카이도
말하자면
트럭
천안
##가미
##oth
##례를
이슈
##렸다고
프레임
##합이
당했다.
확실하게
질문
답이
##경기에서
출연했다.
##:20
##신과
지휘관
합니다.
##IG
높게
피에
전설의
지나지
탐험
출시된
##시스트
기술.
##DD
정통
제7
나치
##버전
그럭저럭
인민
업데이트로
인간을
그랑
않지만,
민첩
쪽은
선고
##무가
생긴다.
태평양
AS
단행
##-16
적어
기사가
##데다가
파르
완전한
우리의
왠지
LC
성을
작품은
##해보면
말하고
##국민
##점의
발을
세븐
사이버
화물
re
##하진
##.16
##다"라고
##조직
##전한
이종
LV
##건이
실수로
특징.
아저
##환의
속의
빼고
파생
##주일
##계획
##습니다
요구하는
이젠
보내는
갖추고
로얄
회장
##소와
97
##ys
으로
##란의
중세
사용했다.
없는데
##는지는
조연
##-S
1984년
63
어머니가
상륙
스텔
##온의
차트
오랜만에
현상이
닌텐
시라
개발한
시간은
나츠
##브로
엔터테인
제외하고는
간단한
당하고
##의의
국민의
생년월일
공기
콘서트
##2의
불이
정확하게
##;&#x11
일일
차기
##더의
원딜
##병의
##체와
어필
##추어
61
의견도
밝힌
영향으로
##산에
서번
##드래
아트
뮤직비디오
부분.
상자
술을
전북
지은
3000
로버트
세상
창원
##마,
수익
주차
사용된
빌려
##달라는
##상황
##전문
경험이
과도
##후에
후퇴
##되지만
##너가
상기
날카
코멘
부인
승점
끝났
문명
한반
하나만
삼각
비정
##pp
발굴
베이징
무라
이용할
바닥에
1~2
##파는
에르
##전설
대지
밑에
형식으로
by
##키아
경우엔
대거
막는
시카
의하여
##머가
두들
##리스가
상대는
미라
특징이다.
속으로
2~3
낮다.
##sp
노려
지칭
##인데도
간단히
생각할
콜로
##열이
69
들어올
##음에
##함은
사례가
##와도
사이드
##바르
보이지만
##시타
커녕
##23
부분에서
무시무
땅을
기지
배출
##ale
1500
##산은
마비
##위해
갔다.
상대에게
##TE
샌드
2021년
읽는
모양의
키가
터미널
우크라이나
자막
넘어서
폭력
아니라면
선제
시작되었다.
##든가
##영,
세계관
##이자,
타격을
트롤
비교하면
복잡한
##숙한
코르
코우
변환
올라오
웨스트
많지
##속이
적중
여담이지만
건드
철거
##TS
크기가
한국인
구별
##aw
유나이티드
개별
##령의
##크스
태도를
형태를
부가
##집이
위기를
##머스
이라고
##ike
퍼포
##IM
##섰다.
일부를
자라
사유
시즌에
##거야
만남
다녔
##관광
##기능
해골
사라진다.
세부
가격은
##합을
새겨
블레이드
##야를
##용의
장점이
히나
최하
유격
누르면
##OU
신호
##더러
한나라
구할
도둑
음식을
무사히
##살을
마법의
전까지는
골키퍼
유희왕
2:
##면의
##군에게
완결
##레의
##이었는데
경상남도
더군
3개의
연맹
회차
마약
천사
부스터
캐리
##,000,000,000,000
낫다.
페이즈
##온이
레이스
약탈
아끼
오라
인종
##형,
이벤트가
이벤트를
창단
2군
필리핀
특별히
일행이
블러드
위기
와일드
##정도로
노선이
##.17
유리한
드롭
책임을
막내
필살기
걸리는
침묵
얻고
##씨를
인구가
상의
전작의
##품이
##루와
##박스
##로마
##하다면
아기
##월드
말자.
##XX
있듯이
##irl
된다
커피
##위권
있었으며,
일로
에그
간간
##orm
괜히
한데
1990년대
당신이
악역
ED
코리아
가동
배경으로
브레이크
##반의
건국
뜻이
요약
##매를
병원
대인
15%
##.19
역사를
공연을
무역
적지
버그가
피터
##/5
시리즈에
감지
왜냐
##닉스
##있고
사라져
모니
향한
서서히
배를
허락
##VA
기회가
실수
그러던
반박
예언
용인
2라운드
사건에
사라졌다.
타마
##나고
교전
오타
와중
높고
##리다
700
조조
트리플
##건의
##곡으로
하이퍼
결말
보충
소속팀
일부는
##하길
##이동
장치
SNS
중첩
##캐릭터
##협회
##되거나
비주얼
##번은
기회
심심
닮은
팀원
##ook
피가
나오는데,
무산
위력을
##나?
곡의
소속의
##저스
##버가
팬들에게
##나간
브라운
백작
넣을
진심으로
고객
1.2
##미로
모습도
법정
##산시
25%
소요
엑스트라
##~6
영화의
Br
신도
의상
##미에
팬텀
시위
##인치
5.
나라의
##방으로
##고도
교사
##경우
##배가
취득
##더가
185
##ial
대상을
페이스북
##ink
실드
여유
##블린
##ows
특수한
목소리를
경남
##연한
시작하였다.
##로에
서구
후기
##8,
줄어든
태어났
사도
히로인
너프
파는
박물
##졌다는
##하하
올릴
매번
모스크
갈등
##이었는데,
동계
##코어
무인
엘리트
어드벤
끊임
용서
주장했다.
주장을
플레이가
노벨
##줬다.
진실을
##졌던
##아아
오키
##반이
언급된
야생
얘기를
##슬라
평양
##타수
##레인저
기가
공사
##함으로
한국에
게스트
##ish
##바야
##우주
시원
원인
영원히
끝으로
성격을
##되었는데
기재
마블
금액
빌드
부착
어빌리티
##정치
##질의
##보자.
나고
버스터
지키는
땅에
##손으로
ch
관여
임팩
불만을
물론이고
go
##tle
말라고
2개의
근거리
노리는
]세)
업로드
쌍둥이
##오,
슬라이
호감
##키,
치명적인
빼면
히어로즈
대선
해리
##자라는
했으며,
개체
재활
되었으며,
토마
##준이
BL
몬스터가
##감에
선수를
선거에서
호소
##-17
코난
조약
서포터
20년
뒤집어
레지
이웃
##공업
##티스
세계에
##안은
스토리가
기아
긴급
재개
##서야
그날
차이는
##십시오
##어버리는
스즈
참여한
프로그램을
콘텐츠
##UM
더군다나
없으므로
웬만한
대치
##디에
일에
무의
##ob
##47
3세
변화가
잠입
압도적으로
##스런
##절한
유의
즉사
CG
플래그
언데
퍼포먼
자랑하는
##했기에
별의
노리고
당사
무력화
htt
자신들이
##ower
받기
##토,
이룬
뱀파이어
옹호
과목
상대방
##.com
건물을
사태가
초창기
스토리를
스위스
##너의
놓은
풀려
RPG
##ft
풍부
에릭
루카
여론
조건이
더이상
음원
##병으로
메모
유인
##ach
미즈
장면에서
정예
적다.
안양
바가
##보이는
아츠
사고를
무승
실점
동영상
나머지는
포격
##:40
##베이터
##겠어
##주며
주포
2002
번개
배정
구조를
##체스터
7,
직접적으로
라인업
측에서
작곡가
##란이
계통
동기
##히트
거친
가만히
기존에
소방
명백
라이플
Team
아니었
##GE
사형
서비스를
스테이
##르며
둘을
##차별
사용자
프리미엄
##시즈
Sc
여지가
##나기
##희는
비하
돌연
비웃
버튼을
한두
경기장
들어오는
사제
정기
##소총
##당과
1982년
김경
##공학
유카
며칠
##다거나
##겠다며
##민,
다녀
버리는
과거에는
질문에
군인
천연
남겼다.
##ble
기상
##편을
사령관
해킹
##에이
영어판
##영웅
##즈니
매니저
구슬
##길을
##오로
기점으로
시체
장거리
나이에
써야
##산,
작전을
신입
열리는
가해
취향
Cl
악몽
##차량
##택을
헤르
세력을
훈련을
억지로
모노
출력
엄격
수능
슬로
대조
비율
쏘는
정비
1시간
최종보스
##색,
##포르
장탄
중요하다.
Sk
남아있는
##어지는
않았다고
썼다.
안된다.
어리
나무위키
170
&#x
전승
아이러니
호평을
친한
넘게
결정적인
권장
Bl
오염
통하여
##이한
1억
##주의를
시리즈를
##과정
뜻한다.
출격
##란다.
5000
##므로,
이로써
##걸로
은신
연구를
1983년
백성
디스크
카츠
##토니
사립
복구
초반부터
전세계
설정상
돌아가는
차이를
지속시간
나오기도
채팅
##능력이
##줘서
##일리
학교에
팔을
통틀
삼아
패널
달라고
대단히
키스
강원도
자유롭게
구간이
로빈
소송
것보다
주인공을
명중률
##차에
84
##대원
프리미어
했었다.
##소설
연기를
##했듯이
시계
제한이
10분
가죽
인용
Man
김상
부정적인
크림
##계약
감독을
##스레
##경,
SE
청와
아버지를
교과
보면서
##더를
##순위
##하고는
공립
점.
처참
##AP
잘라
##타이어
##하기를
평생
궁금
##우스의
하향
##ex
몬스터의
##니까?
사귀
바르셀
느려
일람
담긴
또,
브랜
##중에서
OP
출간
##키스탄
조롱
주인공인
수치가
스크린
바뀐다.
하에
프렌
##늦게
줄여
DVD
##The
카자
숫자
처음엔
바꿀
싶다면
##니시
엘리자
임신
아래로
나갔
출시되었다.
##달러
부드
면역
여학생
방어력이
듯이
##자동차
법칙
일격
지냈다.
전역
점,
종이
##MS
그러나,
##레어
##하였으나,
##다'고
Pr
신장
고기
##라면서
진학
각자
선행
적들을
체험
##였지만,
호환
##판과
여기는
코토
##31
Dr
새누리
스킬의
인피
##왕은
하계
나갈
##살이
수립
일행을
나왔던
코미디
이토
후원
남기고
축하
위력이
받아서
충성
중형
인물로
##권,
##역사
1턴
안좋
##너는
포켓몬스터
버전은
같다고
##등한
##인데다
경우에도
사거리가
별명이
##리도
##되었기
방치
##공격을
공용
##해준
모로
귀국
##스피
사법
거둔
파울
세력이
어이
분열
##사한
##스러워
##:50
86
##였으나,
노선을
특히나
제독
##리포니아
##되어있다.
##라이브
응용
##네는
맡게
##도서
추정되는
82
복무
##ms
스키
he
선수이다.
끝난다.
기록은
79
내린
##째로
국회
패키
모토
##것이다.
##nt
기후
마감
버전이
김진
번에
항의
시청자
##투표
수록된
##ree
연대
라그
깜짝
돌아왔
시내버스
공지
텍스트
##리즘
아서
##였으며
##[ruby]
##화.
타츠
##스티벌
소식이
좋아서
김기
이득을
중복
인스타
출범
##보의
편에
그림을
지키기
Wind
축제
일본에
##ass
당할
캐스터
너는
된다면
머리카
준비를
1,2
올라가는
밝은
##-18
87
요원
##받았
스트레
##재판
구경
록맨
##GB
많기
선수는
##프라
가졌다.
유지하고
##하겠다는
##!!!
전무
##이랑
엔젤
저지른
나오면서
1집
않았다는
건지
##스도
UN
인접
제공하는
남자가
##피가
##혀서
##~8
##.5%
##범죄
##-B
좋고
치열
##림의
기동전사
한마디로
##now
##싸움
##법으로
때문이라고
동화
##가면
부모님
사망했다.
##리한
패턴을
도저히
억제
길게
분쟁
에반
##.14
##문으로
따뜻
105
주최
리버풀
혐오
##다'라는
##중간
아군의
##대사
##럽게
캔슬
##훈이
변화를
생각한
프레이
좋다고
##동물
주제
배우이다.
제네
혼돈
##천만
동인
##are
오로지
용사
테라
방식이
##..."
클릭
##~19
전화를
철수
상태에
And
배달
For
후반부
##가스
직접적인
속한
메이플
##타니
사용되었다.
이야기는
능력으로
권력
카구
##센트
##3.
##정책
딜을
##란을
##기게
맡았
마스크
터져
복합
가능성은
토요
##천의
##먹은
##전기
대량
선택할
경주
##매치
이상은
나타내는
최대의
빛나는
쌓아
조용히
##어에
##소프트
##회,
##그러
상실
이어진
원작의
존경
ID
1945년
##세서
##렸고
세우
##페르
##인가?
아지
세상에
##400
기둥
거는
그러면
##속의
어디서
중순
시리아
에픽
쓰인
난이도는
손오
타율
##달아
개신교
##atch
LA
아이가
뒤에는
조금만
불명.
파크
혈액
1970년
미래를
둘러싸
계기가
나지
##ool
##란히
##리우스
##-A
번째로
세이브
고마
취약
수직
##ment
아동
스티븐
얻는다.
##폭탄
##아키
시리즈에서
##ug
##yle
서머
교도
요한
##실점으로
죽게
재장전
함대
수월
##권과
앨리스
도움으로
BS
데이비드
##동시
##우라
안녕
농업
가능성을
##변이
분포
##속을
##현을
사야
크라
##케이
##비치
증폭
느끼고
사회주의
##봤자
수면
##중의
기사를
되었다는
정보가
##당에서
한일
들었다.
것이고,
##강의
귀신
##권으로
가상
캘리포니아
자금
유출
##노를
히토
Bla
영역
악의
위치하고
태풍
만나는
예전에
후의
All
여행을
이자
##속으로
##이었지만,
바위
십자
##창을
지녔
##시에서
행위를
그래서인지
얻어맞
탱크
설치되어
##민족
##ING
분해
회상
War
스트리트
##해서,
가난
아인
보정
치면
파멸
입는
하츠
##즈에
보통은
##엔딩
만일
키타
배우,
##하였는데,
아닌,
가디언
되살
함락
자꾸
자이언츠
추방
너를
지목
##바를
선임
결심
##-C
카드로
유닛의
비틀
##시키면
들어가서
##층의
본명은
교육을
##작으로
##치아
##ase
##"가
No.
외전
##ae
뒤늦게
##eat
##지능
거미
정체는
##양의
포기하고
날리는
1편
성우가
있겠
가기
쓸데
칼리
스파이더
캠페인
안타를
투척
##8년에
맞을
##소나
극히
해준다.
##on't
2004
시간의
##외의
말투
엄밀
수의
##하면서,
대신에
블래
모듈
##사도
논의
전파
##들처럼
an
##벽을
##파크
없었고,
##사단
지진
1981년
화력이
베를린
##법의
동반
어렸을
리스
러시아의
##STER
20대
1979년
연타
시의
##학원
엘리자베
막상
담당하는
공장
비극
출루
4개의
##ous
가질
만들어서
##노동
활동하고
집어넣
터널
##구간
우라
유물
왕조
합계
화제가
##부터가
세뇌
스킬로
끝이
##있을
89
가까워
분기
선수권
당신은
Star
가리키는
##장애
2경기
##먹을
데다
##1.
사자
##반을
마냥
##내에
##페이스
알려졌다.
##리.
레이드
보유한
중화민
가리지
##렸다는
여성의
##식과
모티브로
명목
번도
결승전
##백이
##네임
나뉜
##릭스
실시간
편지를
##심의
우월
끊어
##리기도
10개
##션이
##조선
##사고
실질적인
##티를
알레
7년
역시나
##기어
동영
2022년
##절을
상반
대통령의
포지션은
알라
부적
##포스
##프에
사로
##km/h
모터
데이터를
##모는
루이스
흔한
느꼈
못하면
지는
발견된
##미사
???
일렉
##추는
털어
바에
전투기
1980년대
커스
##타마
상태였다.
차지하는
근대
사건은
we
물이
##니아의
제작에
유기
##,000원
입주
##거든
말레이
낙선
외야
결론
엔진을
이세
##용은
야쿠
##서울
방향을
리치
증가,
##고지
벽을
시크
발동할
식량
불사
SF
안으로
##조합
상점
##way
투명
늘려
##민을
되도록
히틀
가챠
귀엽
물에
##85
작품이다.
2005
제트
만화가
##련의
클라우
"어
##이었을
##초의
##호환
자체도
슬라
##법원
전라남도
교토
운이
##나로
스트라이크
않다는
여섯
화력을
##되었으나,
AKB
##화되었다.
내게
유망
들어와
보호막
##스테이지
작년
##수이다.
박지
이르는
식민지
마린
##az
손님
##코스트
트루
125
##박이
일부가
##사기
지나면
##타점
오버워치
##준의
##신,
73
샤를
읽어
우에
##적.
##-14
학력
##67
수여
생길
##티즌
쉬워
악당
보냈다.
New
##곡은
기종
보건
토큰
정상적인
능력치가
구역
배급
아들을
기기
솔직
##/20
단위
실은
진격
##권에서는
##신도
##석에서
3.5
##하곤
##ason
구미
One
LP
상황은
연습생
기술로
스코틀
시로
사이코
##라에게
##ary
##득점
##리아가
##분,
##었다가
여기서는
정발
10대
복수를
##서와
어벤
신데
up
##식,
문제에
빛이
유재
배려
##메리카
계획이
원더
World
육상
찍는
##금은
71
가진다.
쪽에
한방에
슈퍼로봇
##벌레
3명
후임
본격적인
안정적인
딜레이
##er.
일본은
반짝
트라우
오브젝
충분한
일어날
3점
주장이
##과대학
DC
대표하는
##바는
너희
위치가
계열의
##a,
들어갔다.
거론
상하
확장팩
복제
On
마루
진행하는
##하지도
두들겨
지경
아이템이
##히게
도착한
발매일
제1차
##저런
##론가
오크
폐기
주된
지향
함부로
##카르
'오
연령
##저를
오스만
우익
##올림픽
전쟁의
끌어올
날이
부작
5위
이집트
뚫고
거두었다.
여럿
##표가
동경
심사
소문이
쫓겨
##아야
전원이
교장
간호
##번과
매출
비유
##AY
2명
##목이
##지나
증가합니다.
기도
하려고
야간
뮌헨
중후반
제자
테일
##act
##렐라
##iki
나노
싶다고
##4년에
주의해야
스캔
40%
뜬금없이
못해서
##1의
해산
사고가
##강을
1호
호불
##포트
개인의
전력을
집합
##리히
##마일
##연맹
따지면
사실이다.
국정
전남
퍼져
독재
##니까.
벗어
폭탄을
주택
##mer
서로의
##졌지만
사용시
초콜
네트워크
아들인
담은
경북
Gam
저는
유래는
##이거나
##후가
주관
##6년에
##가게
학습
##관련
리드
##-J
싱가
와카
바이러
##베르크
3부
##ai
##카운
스카우
여성이
자의
##리스의
일방적으로
상태이다.
차지하고
앞의
반해
##?"라고
##함의
대해서도
아니기
히가시
폭파
안의
모티브는
별도로
가벼운
인도네시아
175
대동
CS
최근에
##경기에
바이올
느끼는
부동
소장
Part
감독으로
진정
묻자
##노트
내각
##마치
+3
##감은
지워
동해
D.
##내면서
##600
일본에서는
##무의
##ife
무시무시한
나중에는
그녀에게
것이며,
ne
##누스
##건설
모습에
정도를
문제.
낸다.
여기저
너무나도
81
매주
전날
##상으로는
##었으나,
##태를
##터로
##차의
원소
##번으로
제8
네티즌
토르
사가
##석으로
먹으면
막대한
조리
말라
반응은
소중한
##부인
##플러
남는
##시대의
디자인이
국경
성적이
오페
에디
넘어가는
NE
운동을
인연
포획
인터뷰를
막강
해양
##것.
1사
우호
철학
있기도
##리코
##류는
유입
##회복
넘치는
##터널
CH
독점
개척
##잡이
##께서
이른바
##쿠스
서로를
거다.
10만
규모가
JT
천황
상태의
없었고
##ade
포스터
##교가
말로는
배가
오락
모집
움직임을
##적으로도
갖게
리처
##ven
##-09
미루
트라
##어요
올드
실현
퍼즐
##커는
##리칸
바른
선수들의
아베
IN
누군가
사이클
못했던
호남
뜯어
PR
충청남도
드라이브
체제
##자라고
##7년에
인게임
기대를
경악
##시켜서
상세
##행정
##마냥
방탄
즐겨
온천
재회
##통합
##감과
왜곡
공방
이걸로
유적
좋아한다.
사퇴
쿠데
##br
의식을
시즌2
에밀
콘솔
데미지는
쓰러트
어쩌면
0.3
##들에서
##레오
##CG
##미노
충실
케이블
##UP
옆에서
FW
##화하는
사업을
##49
##봐도
남을
황제의
##었는지
고속도로
사진이
8,
서바이
친일
##워즈
세번째
쓸만한
진주
서클
##놓는
##소리를
학생회
연봉
작화
나오게
도적
오스트레일
가요
달하는
드라이버
끝나는
스나이
벽에
일시적으로
길어
입장에선
##리던
##이었으며,
주연으로
올라간다.
이오
##시청
##테이션
##ank
##i-
##스포츠
경력
##gin
부유
##해줄
골렘
전락
##층이
통칭
달리는
장관
##배치
##되어,
집권
베타
##시스템
선택한
##자료
벨기에
방영된
할수
##본을
개를
부르고
주니어
설명을
유혹
무섭
4인
UP
##lect
DE
넘버
춤을
판결
이니
##당,
스펠
둘다
##보호
##런트
##되어있
무리가
##능한
우측
재직
감싸
##무는
##3년에
##일과
##ork
비가
누구도
지도자
그곳에서
하늘을
양자
##관계를
지리
6개
스킬.
학교에서
재건
##사에게
필요는
긴장
오다
AFC
##로이
##수인
만들어낸
조우
적용된다.
규모의
정책을
동일하게
자유한국
##aby
간에
튼튼
사단
##처리
도박
노스
노무
역사가
##책으로
3의
##되므로
손꼽
갖는
거라
평가는
##리거나
##p://
싸움이
받으면
##우며
##조,
질투
##~10
했다
기술은
표정을
순수한
밝혔
##에른
##터와
논리
시,
BR
눈치채
도와주
92
올해의
기생
##평을
##색은
아군이
##국,
다음은
##처를
여의
##음으로
실질적으로
밤에
상대방의
이곳에
되어있다.
구름
##oll
스타디움
등장할
싶지
확산
포스트시즌
##해져서
단종
조언
우르
##볼을
범용
##민주주의
가담
한창
스쿨
##w.
##곡의
제노
차량이
패밀
베테
##룡의
성향이
도시를
콘스탄
##CC
어머니는
6개월
PP
##공으로
좌절
만만
##본부
##'이다.
주목을
##선생
마신
청주
한방
바꾸는
흑인
그중
천천
초기에
전장
영혼을
미노
##박한
일대
로이
Mar
사신
페스티벌
주역
체중
##버스터미널
##oon
북한의
##네이
##터,
무기의
##5년에
##몬의
기분이
드루
번의
마라
GB
##우면
##ps://
사정거리
드문
비스
##문제
튕겨
부산광역시
##내에서
산탄
모델이
맞춘
##마츠
내용의
끊임없이
이순
시작할
모두를
부르며
##앨범
5분
내성
##질은
막고
품고
##hen
1일에
살아있는
상대할
##저항
의미하는
##국과
싶으면
참여하였다.
헨리
이누
##-08
##티가
기다리고
발표한
합동
##구청
소프트웨어
##품으로
싱크로
배트맨
##리아를
이동속도
통계
보이기도
복원
치러
무술
수염
##레옹
AN
수습
차량을
배차간
치킨
##서도
장남
주의할
이겼
트레일러
모드를
간간히
맞붙
지연
##AA
최적
경우를
배드
지지를
짜증
##CE
설명은
전쟁에서
걸린다.
휘둘
##게이트
연쇄
청소
##크리
##미한
플라이
있어,
##해주고
세웠다.
##음은
상한
NH
공격해
선사
##카미
##비행
이유도
##버튼
인격
업체
김해
평일
##렉션
퇴각
더불어민주당
##본다.
시작된다.
코인
볼트
지정되었다.
##파와
짐작
##스:
##-07
마치고
승리로
불태
권력을
##링크
논쟁
첫째
##AK
사랑의
사천
배제
##러브
사로잡
김준
찾아온
등극
틈을
##점.
도시의
바이에른
커맨드
분당
##고리
##데레
패배를
완공
뿌리
되므로
##만으로도
회사의
지역이
##라미
차이로
언젠가
##대문
##집에
##생활을
출신으로
머신
##티는
무소속
만주
##자유
전송
##트랙
영주
소속으로
지키고
##래시
신경을
형태가
상태이상
되어버렸다.
90년대
고쳐
##:0으로
지원하는
##께끼
일어났다.
불량
쓰게
##게이머
##리스는
대변
1경기
'어
##히면
딸을
are
믿을
뿐.
수류탄
크레이
도망치
장신
##프라이
호의
안심
츠바
6년
권유
10초
살아남은
유용한
노가
##나베
이런저런
찾아볼
팔아
지냈
하시
입대
강경
피의
##ox
비율이
반란을
등도
##드래곤
유성
낙하
스타리그
##길이
개성
게이머
다큐
##하여야
투사
모은
##88
구간은
후보가
대수
카스
##란드의
보스턴
것과는
결투
흐름
##가에서
사망한다.
한가
히든
아니지만,
폭행
경험을
##거래
##퍼가
1:
성과를
따르는
최저
커서
##내어
던지는
##형과
용어
기억이
기다려
바둑
초등
##리아는
정해진
Fe
모습.
2편
명문
설령
모델은
불행
도루
스텝
퇴장
기록하였다.
용이
kg
마틴
##경기를
매장
워크래프트
##과가
얼티
기갑
가능하며,
사고로
LIVE
겹쳐
##매가
##겠다
분산
##법인
수석
관계는
도쿠
목적을
포함된
1장을
나라를
축소
정화
시리즈가
누나
##이후
탄핵
상징하는
해명
원시
83
##했으니
싶을
뜻으로
당한다.
걸그룹
쳐들어
나폴레옹
마을을
정류장
다닌다.
하반
교차
다이아몬드
입증
부르기도
되었는데,
##.24
창립
##2년에
이번엔
불의
순으로
슬레이
##베리
힙합
##0년에
##초를
##복지
시마
자전거
##혹한
것이기
싸운
조회
전쟁에
5번
듣는다.
내리는
+5
않았기
속해
##령으로
##지만.
OS
##디스
94
단행본
설명이
정신이
벌인
즐기는
피부
##으려는
진행된
잡아먹
##클래
그렇고
이곳에서
##티의
20세기
위성
천천히
시키는
약점을
반지
##결승
경직
개념이
##킹을
##보지
플래시
느리
우위를
##도리
##면으로
로즈
##포는
시종
이어져
공헌
여자가
##행위
##환으로
##00년
지구의
##9년에
손이
##으라고
스핀
취미
우울
##분으로
의미는
뿐,
클린
브라이언
이전부터
##리라
대전차
아버지와
시게
##작의
나누어
드로우
제작진
짐승
##="
북아
배터리
약화
국제공항
##온은
포수
##야와
신속
백인
1화
생방송
유이
대접
##들에겐
##기준
연인
전망
패널티
증오
실전
말하자
버섯
충족
있기는
##iver
##재의
##생명
그러니
김용
케빈
##메라
그외
위엄
##목록
로맨
##들이나
엔지
##가면서
##되어야
##er,
파고
코스튬
엘리베이터
조기
##테일
##믹스
때문이었다.
리타이어
어렵지
가능하게
##졌으며,
일관
1의
상황이었다.
주류
거북
길고
##겠지
편에서
커스텀
실수를
##실과
##들에게도
긍정적인
어드벤처
##동맹
사이에서는
토오
##반에
##~7
지고
보험
토우
나빠
닌텐도
##너를
수요가
##이라이트
휴식
Up
##칭은
위주의
특성이
##지며,
10.
믿는
Mk
딜링
소규모
역의
이병
루나
일기
##.S
##ah
대사는
끼고
##-P
수수께끼
##쉽게
도덕
동행
가공
쓸만
이루어졌다.
##금으로
사사
아이디
보좌
##장비
##청을
##바퀴
대마
쇼핑
아레나
감정이
구독
하마
발로
모르게
피어
어색
##들로부터
그러므로
Ad
이대
##오지
지역으로
##-02
어머니의
일자
힐러
신선
##방울
##탐정
가져다
올리고
체감
시체를
나오며
##당하게
##입구
'사
lv
##"에
184
어울리는
##자책
마찬가지.
##동에서
이외에
유엔
이번에도
##오스
아래와
##시아의
많을
##바시
기술의
점유
모델로
수단
강릉
신사
화산
##팀은
포함해
난이도를
타이틀을
I'm
돼지
##A의
신용
##uck
##여행
10,
설이
유료
##분은
선수의
만드
호수
무거운
##igh
##히코
사촌
##밀한
##백과
웃는
리그에서
공무원
##시키며
##확률
나뉜다.
데빌
##마귀
3:
마음의
히메
사이즈
김일
수색
##cc
19세기
무지막
붙인
페미니
아니더라도
고무
상하이
측은
##드라마
무대를
기본으로
끝나면
일행은
##작은
스탈
오기
일곱
##공화
can
고지
##호에
##태가
신형
다운로드
디자이
구축함
볼수
6.
섬의
초에
주면
위안
하쿠
##가드
특징을
캐릭터들이
##인지,
표현을
승진
산맥
마운
봉쇄
있겠다.
제안을
침투
##니즘
공업
때와
항목을
허무
건물이
##네를
##팀을
가리킨다.
사나
쿨타임이
BB
##뉴얼
##노와
##천년
여타
입문
플러
주위
어마어마한
사람으로
##ung
싸움에서
##운의
3층
##초로
하나다.
놓여
##피해
봤을
##이라기
악마의
회색
실패한
Fate
후반부에
학교를
##되었다가
좋았
초콜릿
교류
##세,
그리고,
도시철도
얼굴에
정체가
글이
않으므로
학부
공수
고통을
##츠와
시뮬
자국
##리드
넘기
무지막지
장례
임진
##위대
있다!
거기다가
적당한
바뀌는
몰라
##그레
##ical
철권
##병은
크레딧
##세기에
있었으며
잠수함
2주
Day
메이드
##orn
##.0%
운송
##노스케
##}}
꼬리
크라이
##te
포인트를
특정한
베테랑
간섭
누군가가
생각한다.
'마
했으며
##69
피해자
차량은
내렸다.
왕복
##해온
소용
올바
제공한다.
지붕
부분이다.
안타까
##들끼리
모에
후회
##저는
##온을
많은데,
시상식
전투의
수동
총리
오우
파밍
발견한
더해
성격은
어지간한
주축
미국은
900
##성한
##시간에
##IV
부부
##블리
챔피언스리그
##저리
궤도
##정하고
시청률
빠르고
##버의
열고
잉여
정반
##두면
전체에
영어로
혐의로
##로이드
##/s
획득할
요리를
힘입
all
냈다.
테니
##스와의
##건지
너머
단백
##되었지만,
호불호가
감수
없다며
do
디즈니
##하르
플레이어에게
자존
##-06
##일지도
##드컵
맨체스터
이해할
발키
##니코
정권
뚜렷
깔아
마음대로
##까.
움직일
호시
압축
게임이다.
최연
나타났
So
al
##쿼터
아저씨
상주
##ich
관료
먹는다.
9,
히비
DD
단어를
ML
183
강간
결정적으로
배운
사서
##ype
일본이
스티브
##형에
본명
적게
후방
앤드
할로
우루
왜냐하면
특징이
손해
등번호
##훈의
캐릭
조별리그
##조와
운영하고
영향력을
규격
##1년에
요소를
디자인을
##한데
##녀가
노린
##교사
축복
정도면
아스카
##애를
어나
영화는
경호
메구
스즈키
철저히
##있었다.
양손
말.
##.O
마을의
전향
성적은
사람과
##풍을
##시스코
##/12
##희,
##마로
##y,
잦은
레벨을
만들어졌다.
것들이
##으면서도
극대
프로리그
차고
비용이
알려지지
명명
후일
죄를
DPS
En
일하는
예산
##ARD
성우:
뽑는
##줄이
1호선
놀라운
브래
초당
##보우
남기
##했듯
##anc
의문을
##루미
끝났다.
공산주의
동급
오면
##내서
##했음에도
적시
보편
제목은
##철이
피로
국도
싶다.
활동하는
미묘
##ero
GO
최종적으로
친척
##릴라
부천
2003
원주민
영양
개봉한
프랜
가량
결혼을
이모
##병에
115
##IR
설치된
흰색
##urn
삼진
단위로
인식이
시골
미국과
세팅
초상
나이는
우회
##당으로
세계대전
##지는데
생각은
대가로
작품에
엔드
미나미
지켜보
극도로
소문
와이번
1,000
올라갈
하급
트래
미국이
##-01
기름
서울대학교
##미르
##더는
실패했다.
태클
하라
빌런
지낸
2010년대
올라왔다.
공간을
하려
명칭이
프로게이머
360
훔쳐
##차게
->
드러난다.
싸우게
##int
##다던
손쉽게
시가
죽으면
프로그래
그렇다.
돌아왔다.
##very
쓰던
인가
##ence
듣게
프로듀스
에어로
잊지
치즈
##히메
해머
노선은
받기도
매체
##초,
분노를
디펜
##다"며
시모
이때는
주행
##면서,
산하
멤버가
문제의
Windows
그대
분할
오렌
아까
큐브
고블린
김유
순환
할인
진행되었다.
멤버로
덱에서
메카닉
죽었다.
1.3
##파워
##/6
##도도
2사
시즌이
발탁
것입니다.
위상
##중국
깨끗
벌어지는
건네
멤버들의
살던
##폰을
##스틴
묻는
블리자
1패
법무
센트
리틀
##음의
내부의
모순
##네마
100만
트릭
한계가
##사나
2위를
한번도
스피릿
##초가
특이하게도
엄연히
여부
키라
##스.
기사단
JTBC
93
##나미
드릴
대다수
##재는
조치
##퍼를
1st
프로레
합리
홋카이도
##ise
사라지고
##포인
가능하며
스포일러
진행된다.
##자이
##.28
상식
##줄을
Station
유학
##장이다.
온다.
잠실
킬러
##하였다고
일으키는
기묘한
진에
던진
숫자가
인지도가
##파,
유럽의
연산
당초
라스
도깨
##병,
##-KR
##자들과
밑에서
##쉬를
이탈리아의
김포
##자로서
방식의
이틀
경기에서는
출혈
2nd
답답
승부를
##오버
##m,
보이스
납득
##저우
특급
DS
할때
##병과
##투수
{{{#
보구
##OO
반도
텍사
##족은
##속에서
레이블
BE
비서
말씀
##ock
마드리드
##아도
불쌍
사우스
벌레
##.26
##-05
평행
메이지
영향이
전,
유니크
절친
것이고
비롯해
박성
중거리
돌고
핑크
NBA
##생으로
마을에
내부에
노래가
좌측
##십시오.
##보에
##wiki
역이다.
지속적인
##락이
잡으면
방어력을
##~!
국적
토트
국무
셔틀
대부분을
끔살
찍고
##스나
담배
보상으로
진행되는
많은데
기부
되려
말과
징역
##까봐
##ep
비난을
헷갈
DP
이대로
##MC
인권
때에도
들어왔
적으로
뜨거운
확정되었다.
무난하게
그거
김승
Oh
##보자
##?!
토니
미키
슬픔
그레이트
##바야시
어그로를
##시키지
##담이
거인
레일
##노미야
Ph
##ii
인스타그램
발레
전적
2승
아이들을
##신에
움직임
신부
##하르트
이현
아니라서
항공모
##맨을
##700
OVA
1등
목적은
##리스를
하우스
##대체
정교
국가가
##리는데
##'이라
2집
차원에서
##리노
##강화
##변을
##계와
상무
BPM
거라는
Sw
내에서는
##환은
이어진다.
마오
IT
뉴질
##42
디시
하이라이트
##감으로
CP
총독
시점에서는
날뛰
원작에서는
##성에서
##량과
시사
연간
필요로
##열의
##amp;
양이
진급
##카라
##작전
##+0
스스로를
최상위
에피소드에서
##박물
시작해
낚시
바나
군의
하단
누구나
이해가
부숴
미션을
3~4
##장도
##되지는
마친
다이어
선보였다.
음모
야마토
모스크바
슈퍼로봇대전
드러났다.
담아
##.A
##78
##0년대에
##ens
과거를
업무를
썬더
##시기
생체
소련의
오죽
자료를
보내고
종결
섀도우
즐거
##영과
자원을
여전
##추가
from
중력
사용해서
고난
그해
조건으로
생김
롤드컵
존중
KOF
##년이
일본인
##건은
부패
표면
되었으며
세라
108
'자
전통적인
서포트
질문을
아르헨티나
조카
##"이
곳곳에
블로
이마
평상
이럴
##파에
불참
두드러
##타에
탄압
##야!
되돌아
찾고
황제가
##SS
##량에
열매
극단적인
##ign
패배한
편하게
즐길
128
##시간을
모자라
멍청
시카고
그릇
엑시즈
인공지능
굉장한
바뀌어
##"으로
##석과
안경
Do
love
외곽
적군
정상적으로
실내
##활동을
지나가는
잃어버
김지
방식은
##.1%
학생들은
##조각
모습과
밀리는
멋대로
일요일
방어구
##ㅋㅋ
안타깝
역습
평점
조합을
모습이다.
대통령은
않겠
##토스
가치를
##-JP
이르러
주소
일컫
고소
원조
A.
이름도
골라
본토
##공은
토너먼트
곡으로
##아나
그러면서
에이지
##미.
아비
체인지
가져온
끔찍한
스트리머
##거라고
테이블
이경
수상한
1973년
추측된다.
의지를
추측이
##내려
깎아
벌이는
잃어버린
지점
고르
영웅이
신발
김수
##하,
##민과
있었기에
전격
##프란
##질적인
아직까지
변해
않는다면
두개
##브레이
동점
참모
백업
##ru
소음
성공적으로
편하다.
재미있는
그후
조사를
프론
승차
##스트는
스쿼
사항은
강도
용암
명칭을
옵션이
Con
발발
야수
죄책
침몰
##래의
이원
목표를
디바
주문을
##플라
면모를
원숭
##ose
소속사
탐사
잊혀
달의
자칭
##딜을
일단은
피하기
##들고
하인
##해야만
##피안타
판정을
대회에
To
흥미
##값을
##원.
1레벨
반전
병력이
떠났다.
##아트
전동차
적절히
##.com/
버틸
##퍼의
개장
변호사
라이온즈
초청
싸웠
어려움
추천한다.
##'고
권한
##삼진
발생했다.
살아있
이루는
실제로도
이케
변한
이상하게
은폐
##."라고
사다
중지
##들까지
##화에선
##형태
총선
##무늬
##버드
트리거
진실
예시
칼로
##대교
계정
내용이다.
무서워
조차
돌아갈
싶다는
##안전
2에서
시에는
##적이지
플라스
##다'라고
이후로도
다시금
무기.
조언을
리오
꼬마
이가
어려울
사실에
떠났
열혈
5대
ex
##기념
카리스
##론과
'미
부친
선수들을
감상
노력을
에로
##MB
매드
개교
했기
##제도
것인데,
영화가
통째로
수감
##모습
##다닌
여기에서
나이로
날,
인상을
##하늘
여러번
유니버
참가한
##달라
데이트
이기고
장성
##문,
##두로
한국시리즈
at
토요일
179
##뮤직
니가
##자였던
##~1
히로시마
곤충
##출을
라며
드물게
뽑을
##린과
감각
쓸모
남동생
sp
데모
as
맞는다.
밖에서
##하루
지혜
##문과
공중에서
##방은
연출이
들지
행동이
포함하여
##오기
##uk
해치
사이를
올라간
급격히
하루에
신데렐라
##근이
##지는데,
문제점
##특별자치
##장난
##화점
##타리
사람이다.
속성이
##고와
##생물
##전까지
1초
##!"라고
주어진
3기
##루션
민주주의
실용
##니에
##.22
연결되어
대가
향후
쪽에서
##ans
버전으로
식사
좌익
불리한
명시
필립
패턴은
이브
이노
##테니
위와
기적
##국인
공격력의
이야기.
그들
문이
아스날
일어난다.
##mp
DNA
측의
주제가
선회
묘하게
오이
역사적
퍼스트
음반이다.
뭐가
키요
TVA
격려
짓는
USB
없었기
편은
오를
시리즈는
약속을
목걸
세계로
언급된다.
전라북도
미래의
붙는
##습니다!
코노
맥스
굴러
##다라는
입지
오케
같다는
##편으로
화재
##포,
남동
마산
유비
갇혀
마스
씨앗
##우스가
시작하면
##록을
##장치
죽이려
##활동
좀더
##거라
분노한
조선의
참여했다.
중장
비공식
##티노
떠난다.
##독한
선진
공인
얘기가
승인
선발로
무효화
고등학생
사와
예쁘
##군에서
이윤
##두를
시작하여
버텨
인물은
끼워
##훈,
##액션
어설
사무라이
몰살
##ey
##앤젤
##다"라는
매각
있거나
##채널
1978년
방을
##창이
나타났다.
승률
힘의
인벤
##자이자
가능할
this
많지만
표지
##대기
별명을
색이
억울
턴에
III
포도
4번째
노조
신중
아스트
다니엘
두는
##.29
착한
아이들이
맞춰서
91
178
발생할
투쟁
##견을
방법도
섞여
올렸
##절이
간단하게
특전
##체제
'나
유산
##부키
플랜
##어에서
##글라
총합
##카페
대면
##됨에
내셔널
##심은
##펙트
법을
왼손
아무튼
전반적인
##미에게
편이지만
##훈은
유용하다.
바꿨
고립
구간을
폴리
##oug
남게
##사리
0.4
에디션
발매한
방송에
##채로
##버리면
혼합
공무
마찰
예수
ERA
카테
팔레
하스
##즈에서
뿌려
3가지
기록하고
##ash
##해하는
이라크
해에
묘사된다.
##우치
변태
시대를
1%
피카
##금의
검술
키를
보드
##런스
##레인지
##에게만
앨범을
힘입어
350
##다와
##/8
##막이
카네
버전의
##IX
들어가지
구리
##다르
##우스는
타이밍에
##oh
메디
##버려서
에피소드가
##usic
##htt
날카로운
이기는
##플로
무난한
지방의
##지방선거
캐치
소집
##.27
엉덩
##하듯
약을
저작권
이그
##츠,
발각
주술
중고
##으니,
Super
팀에서
##혁명
따르
##된다
##네요.
착륙
##현과
##했을때
게임.
이태
자체에
치료를
여우
떨어질
##병기
##인데다가
없습니다.
만능
미성
이빨
산타
한데,
##공개
##문에서
터트
##시내
##칭을
경찰이
실존
구동
육체
경력이
모드로
##피는
이른다.
##한,
애완
트위치
학과
탐색
잘하는
약혼
높을
바라는
이름에
##인들에게
활동이
듣기
이름이다.
라이언
엘레
1.6
자제
##96
광산
카지
최악
강림
스매
확인되었다.
높아서
종사
모르겠
##00만
##물과
지원한다.
무자
10회
떨어졌다.
뜨는
##형인
에리
##받게
놀랍
보스가
카카오
국내에서
##철의
등재
나왔을
##는데...
딸이
흐르는
##딜이
아닌데
신나게
메이저리그
보낼
EN
##풍의
##IL
##탄은
자를
엄밀히
라스트
무대에
심해
한국은
이전까지
많고,
##글을
대다수의
때만
안습한
##중이
MG
시바
##몬이
가성
+4
Dream
재배
점수가
오메가
암호
심각하게
못했고,
##검사
뜬다.
##네,
인해서
현대의
결국은
배경이
로스앤젤
분홍
없으나
바이러스
난사
맡는
##상승
##링은
'가
공부를
반면에
##년간
##천을
##항을
진지하게
비전
##.30
마피아
아니게
공격력은
통틀어
고개를
##지대
##유는
소중
##리아,
##나르
밝혀진다.
거야.
##느니
같은데
단독으로
고증
손상
깊이
방사능
##전에서도
1974년
1972년
존재로
전략을
심의
상태다.
없어도
재학
탈취
있다며
까는
빠르다.
미쳐
##만화
높여
두번
##린다는
검토
복사
내에서도
ON
용산
중국에서
##념을
##개혁
언데드
Sch
극중
헬멧
있어서는
해준
학교의
2만
태양의
##년도
##동시지방선거
스코틀랜드
##나.
##령은
3분
의사를
친애
코스프레
주니
여담으로,
##97
이별
피지컬
##린,
3턴
부위
##마니아
##천사
##열차
은메달
##다보면
##오면
세월호
터진
이루고
##환,
의회
없었다고
시크릿
정규시즌
다이스
검은색
##상가
암컷
##츠카
##레는
##분한
감탄
되어야
AKB48
목적이
##.2%
다닐
앞선
모인
화폐
주교
파란색
허가
##게는
##강점
금강
돌아간다.
style
갖춰
챌린지
##연,
공원
단발
중량
찬성
##족으로
##연은
멤버들
덧붙여
##히기
선포
모양이
보스를
대결을
##당초
때를
특화
정원
따라서는
속도는
앨런
3경기
드래곤볼
까다로운
##파괴
주장한다.
##랄한
인쇄
비판이
##계,
##용,
상관없
그렇기
전국동시지방선거
네임드
소라
주인이
##심에
대피
휩쓸
발음이
##이센
토대로
##디와
프라임
##프스
아랫
마땅
승자
디스플레이
잡몹
됩니다.
##-D
##보인다.
노바
섭취
2호
유언
##쾌한
2장
부속
유지하는
TR
고고
##딩을
##었다면
포탈
##ode
##www.
RA
우스
HP가
형편
거지
음료
불어
##고기
무작위
불타는
상담
##ild
별개의
##ition
생김새
똑같다.
##정당
현재도
미소
할지
개념을
청나라
상을
알지
오고
##ail
##이크를
EXP
중부
한꺼
안정적으로
취업
갈색
동메달
##.13
##-13
인사를
출신이다.
병기
태국
##거의
중화인민공화국
지구를
학생들의
##두의
받아야
무쌍
곁에
로렌
준결승
##스테이션
Pl
이벤트로
급속
뿐더러
##공에
레인저
IC
##app
최우수
능가
저글
##례로
단어가
다루고
중견
미궁
여기저기
##와이
##그를
1단계
생각하지
##망의
순서대로
##제작
라인을
Vol
뒤의
압권
능력도
타운
##구장
팔라
장착한
9시
학생이
프린세스
쏘아
##세와
특징은
이쯤
##맨은
##불가
##ye
소재지
좌석
##아머
1.4
''
no
##히토
빙의
##음과
조금이라도
드러내
게이지가
저주를
##소리가
새누리당
2001
모나
백제
묶어
필드에
보자.
2단계
12.
올라와
토트넘
빠지는
점에
집필
후쿠오카
시합
하여금
##였기에
1975년
치고는
당대
##카드를
성향을
방위
공이
##타인
우치
##피의
남아있다.
찰스
##즈카
##사격
깨어나
한꺼번에
IM
중소
다케
##롭다.
##지거나
"우
Or
##'이란
ld
부대를
##대신
아마존
##/7
쓰러진
##론,
##다!!
흡혈귀
Girl
받았다고
되었던
소수의
든다.
침착
아마추어
근처의
존재.
스컬
##터에
써도
실린
Season
##클레
에도
없어진
5성
적들이
나간다.
주거
버서
저렇게
키우
수상했다.
##ari
220
전인
멘붕
걸리
준수
꺾고
##졌는데,
넘쳐
3개월
##처가
실력은
연고
주인공.
대상의
##혼의
대의
도서관
##킵니다.
이천
"너
누르고
안겨
ldms
##작인
시작해서
##겁게
우두
##훈을
##이라고.
미사일을
##ier
일조
##DP
세레
주인공과
박진
선박
##이었으며
##급은
다가가
원래의
저렴한
월간
##아닌
공격의
재능을
본작의
##소드
##쿠의
##전도
살인사건
비행기
##뿐이다.
모양으로
##로서,
이명박
##/등장
에메
통솔
사용되고
전투력
보상을
의정부
서번트
제치고
반동
##MAX
매그
##들여
운영을
포로
##리타
어렵게
벌써
극한
핀란드
Night
병과
숨을
무엇보다도
애쉬
주무
바라보
'신
성직
달라진다.
초과
##빨리
나눈
기껏
여태
##테크
남매
검열
개명
시범
인천광역시
깨닫고
##주면서
##.8%
피난
##-M
할로윈
ldmsys
8개
Qu
실려
재발
##하고도
성공을
표현이
##하였던
스노우
이처럼
Col
##엘의
설립된
특히,
동맹을
황태
제라
##주자
##지사
##up
광명
페어
이진
않다고
마카
##액을
포착
외형
##쪽이
하필이면
아자
과정이
##았다
##았으나
##++
트윗
##오르
5초
##구조
Ed
##론에
세르비아
팀으로
실사
피규
##!?
##어버린다.
지위를
사용을
##마르
240
엔딩을
##+2
그렇기에
경연
##가니
애용
##안으로
아르바
Fl
##".
시외
##커로
무엇을
##매니아
1976년
확립
가능하다는
일제강점
카더라
##즈로
##.7%
신동
보라색
##미디어
##범이
##쿠가
신생
비로
직선
아가씨
불만이
##총을
조합이
어그로
역이
좋다는
남자의
덱을
성의
빌보드
##후보
1970년대
특화된
자율
위해선
드러난
식품
유틸
##메이트
##택이
##돌아
PV
##천군
##수리
182
종류가
활용할
발명
쓰기도
##가루
바람의
들어,
나뉘어
깔끔하게
##41
##,0
있음에도
오르는
아사히
181
허리
현상을
##시키고,
##:1로
오노
일정한
선을
차지한
뻔한
이동할
##쓰는
가져가
초인
근처에서
거리에
'고
김주
FM
AV
저하
싸우고
CM
상태이
열대
테츠
자책
메트로
##코스
##종으로
크로아
적고
되니
재앙
##.E
페르시아
악화
##텐데
##sc
일행과
포장
BJ
무료로
##자동
인간과
암시
과장
##졌기
##수에게
1971년
##배로
어째서인지
증가.
오른손
리처드
점과
협회
이익
탐정
태워
드워
##무로
감옥에
병행
이놈
##리스타
WC
##준,
##층을
##녀의
##위와
##년의
2분
빌리
충격적인
측면에서
뛰어들
표절
##하기까지
북서
공간이
수컷
바텀
도망가
"오
배울
다큐멘
어머니를
동성애
공식적인
마쓰
##중.
위험이
TS
LO
운행하는
피스
##때마다
피해량이
네크로
##량도
무언가를
위해,
입구
불타
아유
##할만한
제목으로
랜드
반대하는
'S
##나에게
선수들
어나더
EV
좋지만
상대로는
그렇다
직전까지
김광
아울
##등으로
##됨.
##는지,
다리가
##관계가
않으니
감동
##족과
##층에
경제적
봐서
모두에게
Pre
##군요.
##리에이션
아버지인
불멸
운명
##이나마
테오
##면은
##분류
##되지만,
not
통하지
작품에서
7.
타이밍을
안고
전당
폭로
항공기
##~9
인텔
##항목
않을까
순간에
해소
##삼거리
섞어
상냥
거짓말을
주제로
되지만,
땅볼
보여줄
Op
남한
아포
아메리칸
몸으로
짧게
아니,
고성능
유니콘
높이는
속성을
##준은
원작과
##eth
##-R
##해야한다.
##보컬
열렸다.
이동하는
캐시
##킬을
공격속도
##파일
스텟
##"라며
##코드
##ron
신을
불구하고,
항해
원로
즈음
##책이
활동했다.
영원한
##있지
방식이다.
동북
##간을
##쪽에서
##치고는
아닐까
##행성
내려가
소득
개가
##ject
임명되었다.
사투
이쪽도
몰고
공격적인
주인공에게
보여주지
##어!
마유
시험을
전담
레이싱
남양
높지
플레이할
공정
##질에
랜덤으로
관리를
##환경
그려져
11.
##iel
대기시간
만렙
멤버들은
카사
##만큼의
눈앞
살게
##math
가루
클론
선정되었다.
##뉴스
제10
##해볼
La
필라
##-03
모종의
##포드
아니며,
유저들
그루
흡사
본래는
##실점을
최정
막강한
두루
프랭
토크
##배의
##:45
자,
##채를
##파티
벌어졌다.
면허
들어가게
##풍이
##EL
바닷
게르
겪은
중국어
기간이
##엔터테인
145
적힌
펀치
미정
사이로
##스토리
##니카
##건,
##하자는
그렇다면
##등록
##가인
여론이
주저
슈트
틀린
열차가
##졌으며
##시민
리볼
울트라맨
아픈
NO
##ody
조상
미국에
##랍니다.
Gre
한양
도요
두꺼
보이며,
토시
아군을
찔러
그려진
1세대
##교도
몸통
인간은
중동
부탁을
본능
이야기도
1963년
##FL
##제품
올라왔
사망하였다.
##.9%
발사한다.
##시까지
##게,
공감
사라지는
타이탄
올해
담고
파츠
격퇴
##았는데
사용가능
가족을
래퍼
##견이
##으신
신비
것에서
모아서
영상에서
웬만
수급
줄여서
##더니,
##오게
결과,
경부
달성했다.
아담
우린
##열에
화살을
그란
얼어
꿈꾸
##포와
##인드
##,#ffffff
쓰이지
게임으로
##오피스
##있어서
감이
평소에는
생명의
##중을
에드워드
##스퍼
##불을
인조
여자를
미만
##"에서
이때부터
OG
고대의
바르셀로나
안토니
루비
그리하여
악명
괴수
##화:
##나도
프롤
이후부터
아나운서
관광객
않습니다.
실험을
했다가
##브는
출연하였다.
##주인공
많다는
엔터테인먼트
덕분
##료가
제9
인류의
슬퍼
코로나
객관
타이거즈
아수
장본
유튜버
우정
탓인지
버릴
##권도
경성
진출에
고아
못지
아슬
믿지
출산
정도만
일본군
중대
##전부터
##직에
##.....
밀어붙
"S
거점
##대고
그리핀
갖다
초고
##물,
##.6%
비판하는
##전선
##리츠
때문인
##적에
강아
보이기
30초
미소녀
신한
1977년
유동
후미
##엘이
차이나
##들어가
##희를
진행할
이어졌다.
근로
찍을
##하신
일본판
##-04
정리한
되었지만
컨디션
하므로
밀고
주입
스탠드
미국으로
되었는데
창의
돌아올
절벽
피오
##able
##재,
##전에는
일반인
1960년
##학년도
가사를
##사들이
적용되는
와타나베
모두의
그도
##데르
파동
선수들은
3단계
전대
##의회
##be
##멤버
20분
관계없이
##그가
1969년
워리어
##업에
##실험
카게
작품.
벗겨
남학생
아름다
북동
듣지
소니
인피니티
소환할
##리아와
지식을
시작했고,
보자
훼손
망설
##우에게
tv
##요한
등장은
갔다가
고려하면
작아
민폐
대해선
주변을
30년
창을
마우스
어드밴
드립을
##린다
##플라이
재산
회사가
전력이
하나에
하프
4명
##투아
하나하나
##렸지만
##소수
##업체
##하다며
모음
##내의
##AB
넉백
##따라
파편
##도전
##녀를
오니
웃음
수술을
입힌다.
안개
##vel
마력을
##치킨
##무스
##집에서
종점행
기숙사
사회의
165
##"은
##DX
##올라
##eah
면도
시공
안산
이타
세웠
#FF
마일
##버스가
길에
##오자
112
입사
개수
155
늘어났다.
빙결
맞추는
예약
전임
등장해
양반
오게
##이에게
시작부터
1968년
부담이
GSL
바람.
##벌을
##거가
작품으로
무언가
아폴
##Lv
설명하는
필요할
이끌었다.
상성
Cr
녹아
명으로
##코에게
평소에
강호
##님은
사직
EZ
눈동
초중반
유닛은
보았다.
##으려면
##드에게
##말이
Fr
플루
"내가
걸친
맺고
##:15
##아니
유메
걸즈
멸종
##aster
입원
건립
호러
##==
조치를
혼혈
2017-12
스카웃
탁월
향하는
##'라
##o,
이름만
1점
Is
이름과
캐릭터들의
받았던
##우스를
##각성
협상
원주
녀석이
필사
명은
능력치는
소속된
##자연
평택
카운트
말해서
망명
##-T
신지
의학
표정
대부분이다.
철저하게
##함,
IP
섬에
장미
즐기
대시
담당하고
기점행
종로
시즌에는
강렬한
##르타
서울시
버리
도우
##임의
터보
177
도는
모드가
장난감
가령
가자
##선수권
검증
트럼프
##나가와
PK
리스트
체코
##검은
예전에는
##건담
독립운동
미치는
마케팅
터지는
##타워
##락의
학술
이름인
감추
경향
모의
강민
이소
디자이너
근거로
김병
권한을
로보
'무
같다
##이다보니
전성기
5천
승무원
우즈
의원이
##GA
것들을
총선거
##3의
##맥스
원인은
청춘
구형
##왕과
Gu
없기에
##저래
광범위
정신적
것이며
발견하고
변한다.
업그레이드를
역은
##두가
##골드
##라고.
장타
밀리언
탐지
능력과
빌딩
후쿠시마
##이었기에
##장에게
상황에서도
얻지
트레이너
분신
##패스
작가는
공포의
츠키
사슬
'대
입에
남지
막혀
##inal
CR
비교해
유한
80%
기소
타이틀곡
소원을
대상에게
그리는
급행
간지
##주의적
##켰다.
2턴
몇번
위치한다.
작고
60%
##62
오가
##모션
##볼넷
##mar
프랑크
군수
문장
##모스
##브레
제약
요금
##편.
원래대로
갱신
오류가
##두에
전작과
희망을
엠블
##측의
등장하며
하였고,
냉장
순천
부실
시간대
쳐서
##만도
노릇
여파로
##그의
문제도
않는다
브론
무용
샘플
##때도
##간이
영화에
한국과
##ult
선택을
둘이서
각자의
점멸
에일
##서스
정도에
표정이
만나고
병원에
당선되었다.
읽고
##거는
대구광역시
달러를
아니며
독보
개업
힘은
의도적으로
수신
수확
##티넘
##어스
1.8
##비시
12월에
권리를
나기
버스를
전제
##이팅
하느
사정이
##슨,
우주의
##net
will
초기화
사임
##물이다.
##련을
AL
##세계의
충청북도
문제다.
그보다
벗어난
컴백
##oul
##골로
발사하는
1.0
##뱅크
##.3%
따서
##원인
방송이
계단
원수
이쿠
궁극기
잡힌
##쓰고
활약으로
군대가
움직이지
코멘트
샤오
##800
노란색
안드레
크리스티
어긋
이도
에미
블랙홀
소꿉
##DS
2개를
후보에
신학
차체
##바다
##프란시스코
##들한테
##류,
상대하기
1950년
##alk
수준은
##운이
일어나지
미러
완벽히
계략
119
집계
미하
##풀이
김윤
비밀을
간파
마을에서
##중심
철갑
뿐이지
양키
법적
조명
주머니
##칭으로
블라디
전염
135
##토에게
##도라
##워하는
##비용
민병
##주의의
맡겨
##사냥
##법과
##레븐
담겨
멈춰
폴아웃
보강
##000000
피니
3rd
자아
##해.
##미아
이용객
XX
연락을
조선민주주의
모빌
선호하는
##C.
연예인
상대하는
국내에서는
약점이
한계를
눈으로
##소.
늘어난다.
출동
##모와
CE
사랑에
시킨
수장
있겠지만
아,
##시킵니다.
생태
신경쓰지
블럭
##자리를
##여야
눈의
##진흥
와중에도
Time
토마스
나들
단기
팬이
과격
iOS
Black
삼고
얼티밋
청구
##o.
이행
맛을
##주에서
생명을
##청이
lv.1
나란히
##하와
벤치
##리시
날린다.
전두
Mag
##ould
지루
설정은
5차
요미
##연속
출신인
##스틱
##목에
조립
힘에
통화
##노,
210
##차이즈
대학생
진출을
호응
##플러스
##몬스터
노는
##극장
방법이다.
동아리
##km2
##reak
"지
요격
##례가
노래는
한강
보여주면서
##조한
추가된다.
경우.
##꾸로
사망.
헝가리
프로이센
발표된
##활약
성격으로
구울
안젤
##르드
##되서
##노선
이광
##본이
말레이시아
하면,
브라우
텍사스
##ats
##지지만
이래저래
이리저리
원형
추가바람.
보낸다.
유연
무방하다.
무슬
##마도
다시는
6위
한나라당
안보
대회를
비정상
우유
이세계
##기자
해당되는
천문
고집
석유
인챈
##.75
개발된
##해에
트러
들어보면
코파
##우로
물의
종영
교향
콜롬
##말에
목소리로
해보
친구인
범위를
##운동장
홍진
경기력을
후유
마지
##기병
후술할
마물
디렉
후인
고로
##슬롯
첼시
것이나
떨어지고
2호선
안전하게
하늘의
주인공으로
포지션을
방에서
##오면서
3월에
기술이다.
토미
구체적인
로열
사람들과
상대방을
벨라
##이치로
배역
##BL
모션이
##텔레
동서
나라가
##패턴
##/L
달콤
하긴
재임
##되었다
수천
##우드
##류에
비비
##와,
도대체
중앙에
유사하다.
전수
사전에
CL
성폭
##스파
응답
스타일의
청와대
소금
Let
되어버린
보너스를
모델을
그룹의
##.D
##ib
NT
맵을
아그
해군의
아쉽게도
공격력과
깃털
가나
프로토스
임기
결승전에서
성장을
거뒀
스바
like
성과
관계에
성격의
채보
카가
##진화
너도
##돼서
받았고,
탈환
트랩
없었을
수업을
게시판
##에의
상대방이
실패로
사악한
크롬
8.
만큼,
일각
않았지만,
있어서,
3.0
남자는
울프
##~200
MB
TOP
4성
박스오피스
두뇌
추리
띄는
##겠습니다.
직행
2%
##ME
##때까지
가이드
무제한
싶어서
알기
주자
진행한다.
짝사랑
물어보
보스로
공중에
하였으나
결정을
맡았던
##애니
##미즈
데려가
캠프
만나서
샌프란시스코
##제에서
##주의자
아처
주황
명나라
비중을
고맙
득점을
마르크
10월에
나비
##,5
ATK
자체적으로
##출연
마스코
제왕
T1
내지는
##43
쪽을
대기업
차량의
판매하는
소스
##작에
앞으로도
##종,
이외에는
많았던
##해방
MM
##수용
'지
시트
재단
##경과
103
무늬
##있다는
느끼게
선봉
인생을
오퍼
하수인
##시나
뽑기
쓰이고
한국판
중구
##증으로
확신
식당
-10
다비
발견된다.
나열
오세
끝.
캐릭터인
##나라는
한대
지내는
타치
루머
가면을
소통
스윙
3초
##블을
능력에
여기까지
정답
병역
상단
그렇듯
포함된다.
##CD
선동
유전자
세계적으로
알려주
제국이
뉴질랜드
GK
so
구로
머무
자유를
흉내
부분의
승려
화해
소환한다.
##좋게
대학원
스트라이커
사용하며
로스앤젤레스
style="
찾아서
시스템의
정석
에레
##미래
논란을
글자
여유가
남의
지을
통하는
##ull
섬광
##산화
진행했다.
박쥐
천하
##사이어
모른다는
##졌는데
연구소
tr
부분도
아니다
엉뚱
##05
유아
2세트
제니
고사
협동
들키
앞세
용도
한달
##술이
타입의
##-G
성사
몰아넣
##청의
##무쌍
행복한
이상,
아르헨티
##헤이
티아
따라잡
이어가
컴뱃
##BM
인정하고
조종하는
발견되었다.
트랜스포
다투
##순환
라이트닝
##uc
남서
1967년
'유
방송국
손잡
EU
##무지
##베이스
##하였지만
하루카
여긴
실패하고
명성을
휴스턴
시오
따위
스칼
먹지
인지도
나고야
보러
승리한
초등학생
가히
1998
결과로
오죽하면
목이
여부를
정밀
##ood
##파인
시기가
서바이벌
조직의
올림
언급을
##세포
제품을
단점은
학생들을
##해버렸다.
##제르
소비에
공대
길이가
간접적으로
발급
##전용
말고도
분야에서
올라오는
노말
스페인의
추모
사운
거꾸로
않았다면
동력
##서버
요코하마
관리하는
영웅의
배리어
스톡
능력치를
빨간색
김두
나서는
신하
디자인은
##아르
1권
짓고
세계가
단검
이의
##폴리스
재미를
디버프
케리
예쁜
##하우스
쳐다
저승
세컨
##덕션
돌아간
문헌
키우는
##ings
##기획
경찰에
감금
투기
무시할
역할은
##도어
한층
##필살
존재할
차원의
오렌지
내며
타카하시
Your
제작사
지나친
할아버지
떡밥이
하나같이
입는다.
자신들을
기지를
쪽의
-4
나오지만
해변
##63
노무현
불과하다.
구상
얼마든지
서방
부지
싸운다.
##/11
##테의
인정하지
"내
재수
##적도
지시를
독자적인
가라앉
조던
밤의
##me
걸릴
오페라
##r.
치열한
지킬
##사우루
강동
알아차
제발
##in'
##ECT
극초
섬멸
도트
박탈
자리가
헬리
샷건
내부에서
유고
행동에
보이게
SU
시작하면서
#ffffff,#ffffff
상위권
대외
못했고
##혁이
어벤져
##식에서
##orts
##대륙
정황상
않던
Fate/
추후
상술한
##마나
##레이트
리그의
돌리는
야마모토
##법,
의혹이
도모
##.4%
무너뜨
수치를
멀어
##는,
##맨과
이용하면
버전을
학사
##타르
##72
수비를
배터
운반
죽이지
들어가기
현실의
하츠네
딜이
##호쿠
시스템은
페어리
취재
원작에서
주파
여겨진다.
김선
테크닉
받으면서
##!wiki
트랜스
발목을
박아
과도한
로우
##편에서는
영화에서
왕조의
세우고
수록되었다.
##/등장인물
가깝게
찬양
밝혀지지
계획은
2017-11
대량으로
미코
토키
EXT
have
생각에
웨이브
##해선
##기:
덱에
여러분
도약
모욕
무죄
아이템은
6시
결의
로스트
버프가
정성
복선
자기를
##불명
##디,
고장
강서
"저
묻는다.
정치인
포텐
과언이
아레
전투는
대니
##운동을
##바위
##란은
유망주
맞물
지우
##티콘
+20
GM
vs.
Ser
농민
먹었다.
3라운드
마하
불안한
##리프
돌아오는
이룬다.
##공주
글래
짧아
159
##초부터
##원들은
언급했다.
만루
센트럴
기를
이방
헤드샷
WH
학문
찾아와
##to
##류로
##오르는
알려준다.
##ster
약물
동년
공교
기능은
비추
동아시아
괜찮아
##림은
베지
쓰리
##롭게도
##각의
##그로
##니스트
인정하는
'기
리바
##-21
경기의
스카우트
장치를
토지
주의하자.
기호
뛰고
국어
가족이
바쿠
노골
워커
마에
작중에서는
제너
묻혀
카렌
##페이즈
##이야.
위치는
##치오
##플레
대쉬
물품
셋째
##mmer
중시
클라이
유저의
##구나.
꿰뚫
동명의
1/3
2시간
말하지
연구가
운명을
##대결
덤벼
주위에
반쯤
##국어
노인
##안,
"나는
평균자책
고가
구하는
발표되었다.
##랑은
시뮬레이션
[math
15년
##상태가
루크
##팩트
##속도를
##했다고.
시어
102
##하였는데
흐름을
입히는
##황을
카피
환생
개최된
##소송
##모어
날에
휘하
일본을
com
사과를
1차전
추세
합작
트로피
길이는
뒤이어
중반에
0.8
##머리를
만난다.
아이의
##슨을
아내가
불평
출신지
마저
목포
호크
효과도
물러나
##코치
안전한
한반도
츠쿠
##냐,
정보는
##쪽은
프로야구
##사우루스
날아가는
##ple
##슨과
##돌프
안동
평창
낳은
내뱉
아타
##학은
##베리아
만나면
히라
상승한다.
##거지
역할이
친구를
나에게
서기
죽음에
초래
이벤트에서
##미트
##았기
이단
##네와
계절
고스
엉망
적극적인
5인
##호에게
해병대
1200
텐데
합법
무시하는
공격,
바랍니다.
상시
명단
플라스틱
http://
##TA
전해진다.
국토
하사
10시
이익을
친애도
갈등을
곳도
싸이
##봉을
스탭
1999
넘어갈
1948년
갈리는
우세
번갈
##성군
모험가
연구에
인물들이
일련의
##해지기
콤보를
##신문
##적이었다.
발표하였다.
포인트가
3%
##슈타인
과시
##yn
에서는
재등장
##터스
민중
설탕
띄워
임금
배차간격
가오
##공,
일주일
Gaming
밖의
##교는
##ict
부대가
절단
##룡이
증가하는
빈번
연습을
금메달을
##다!"
연결하는
올라갔
보루
##장군
##글로
##고에서
노부나가
닮았다.
시선을
대포
경험치를
Min
해줄
히사
##여,
싱가포르
방어를
인원이
아쿠아
말고는
RO
지구에
차로
언급되는
읽을
걸리면
유지할
카이사
운수사
활동한
6번
EC
##야한다.
재료를
찾으러
유미
편으로
끝을
않자
등장하여
2세대
오리온
골프
팬들을
##리라는
스콜
해운
##했으면
##YP
가능하지만
플레이하는
올려주는
변하지
##하기에는
배수
오바
낭비
루키
큐어
##-30
다짐
연설
##61
라이센
수비력
그만두
공짜
메세
##랑을
레온
##~15
##ICE
사태를
밥을
버스트
연동
요즘은
##였다
재위
슬픈
오비
별명은
##대수
삭제되었다.
대표로
바이킹
##극을
박종
패자
##마리를
광고를
예방
9월에
뛰는
무색
그나마도
Car
문서에
##ions
불렸다.
##디지
2차전
바닥을
후루
##죠?
미지
버렸
세상의
##생.
덴마크
##졌다
진행을
점검
대체적으로
##가족
캡슐
##제이
응급
가로막
하도
자세를
1962년
##ange
맡는다.
잘생
문서의
떼어
야구장
대명
리자
이념
플레이버
웃음을
인재
워프
퇴치
##효과를
know
##타케
##진한
왕위
시리즈와
연달아
##판매
의미의
이르렀다.
동정
##받침
레스토
호날
Play
연관이
못한다는
도심
번이나
11월에
캐릭터이다.
입었다.
1944년
출석
날린
모임
너와
다다
떨어져서
국가를
##프레임
혈통
살펴보면
들어서는
최전
사각
어디에
폐허
후타
##술의
보르
4월에
버전.
자작
주를
##천이
무궁
##염을
보이지만,
붙어있는
소속되어
패치를
##분해
방패를
파일을
득표율
비참
운수사명
편리
##한지
사탕
움직임이
공손
손해를
피하는
쓰러져
소나
모드에서
겪고
##3%
##어택
##이라,
LTE
상자를
거느
바람을
프리드리
##지던
##든다.
있어.
##았는데,
걷어
얼라이언
성장한
갈등이
빨아
페르소나
영등
##네이션
따라가
수준을
유닛.
비스트
팬들도
하치
##러와
##che
그랜
쿨다운
돌아온다.
광복
클리셰
##패가
무신
##밴드
하이드
항구
##링의
풍부한
내버려
당신을
##해버린
##버스를
적용되지
##르면서
##.T
지극
##할지
마법으로
OF
답게
탱킹
무기에
고의
##료로
향한다.
##퍼는
8년
고발
##귀를
##불명의
EZ2
##클릭
실업
개발을
Of
전과
폭스
##시안
머릿
##문화재
##정지
행동은
천주교
오른팔
개인적인
##슬로
유저는
영혼이
##!'
미루어
중이던
450
##더라.
중화민국
교복
##가수
선조
죽었
##ann
레이븐
안된
편을
##널드
불가사의
##.I
돼서
##자다.
루마니아
1960년대
뽑은
세로
양도
영상.
키보
하나로,
전개가
크라운
세리에
##:2로
뒤에도
슬슬
4기
4000
##카나
기쁨
152
섞인
121
본다면
##금지
리뉴얼
##취를
미칠
추출
이글스
168
상당수
80년대
제작진이
진출했다.
때려잡
멀리서
##히며
날개를
맵이
일족
오스트레일리아
1964년
몸무
자유한국당
태도
오딘
##카게
##군주
##살의
사이토
대법
도마
##위치
2017-10
시점에
0.00
체력과
사치
크래
플라즈마
##구니
놈이
다룰
필름
##역까지
가사가
##이라면,
##크에
마지막까지
Mi
피닉스
거주하는
플래티넘
기다리는
애틀
##그마
##어버리고
8시
괴로워
문화를
성씨
여수
##ater
##차원
일베
크기의
아이들
##lass
##ica
로고
트렌
기준으로는
##있다고
사원
레슬링
##'re
A4D
##지만...
##대구
방송사
리즈
기관단
유머
적재
퍼펙트
스쿠
##버는
다행히도
호감을
##6%
몰아붙
부사
프레데
##백으로
##규가
도감
##부지
일으켰다.
자격을
쓰였다.
불릴
##~30
9.
어서
##프랑
찾지
109
진지한
RE
##조정
내용에
선물을
오디오
##요를
7개
못했
영토를
역할로
차지한다.
구조가
사육
리부
맞았다.
##:05
##시켜야
성경
##공과
소프트웨
초기의
해독
상인
일삼
임진왜
3승
마찬가지다.
##국제공항
십자가
따뜻한
##들리
비로소
강탈
##끄러운
비용을
##서에서
##카타
미국,
잘만
##림으로
바다에
이인
숙청
당시엔
1위로
성배
드래곤의
말려
크지
검정
삼촌
##찬을
out
음력
서울대
레이디
추정.
역사에
앨범의
one
장비가
무지개
그마저도
없지
##마력
조선시대
변이
제도를
호랑이
##하다보니
곡.
테일러
스타일을
내용으로
##비아의
건물은
수시로
제11
군단의
요청을
##점과
효율을
본체
씨가
문화재
그들에게
맵의
무선
삶의
장제
##빈이
1966년
##후를
질주
##주자.
로마의
맹독
헤라
패전
전장에
##HT
적합한
##일으
##연대
시대가
박명
테레
길다.
면적은
함수
##형.
변하는
잔류
빈틈
중학생
흑막
##주택
단장
127
엔진이
4.5
결제
##조작
하는게
두었다.
was
뮤지션
무작정
##희와
##새를
컸다.
##당시
충격과
꼴찌
##내면
개발이
남겼
바꾸고
바론
##자원
미남
아래에서
3명의
김천
심히
친절
알렉산드
바티
패스를
돌을
아르메
사용하게
나섰
늦은
브레이브
118
ME
물고기
##텍스
##de
트레이닝
하후
민주화
김도
주민들이
앞뒤
콘셉
가마
##BB
어렵다는
깨고
로저
8월에
지정된
명성
도배
클러
현금
소생
연결된
감행
##리치
##철은
FA컵
##사라
장로
##검의
먹여
비아
자고
소환하는
실로
출신.
##agon
거칠
##배차
떠나는
시흥
클리어하면
리셋
##클린
7월에
주의를
##습니
스토리는
0.6
부대의
##토미
수록되어
프로그래밍
3명이
1월에
BGA
봉사
어느날
ALL
최소한의
솔직히
경전
본부
##커녕
다름없
메시지를
107
상대식
##G의
워터
현장에서
김성근
붙어서
포터
페르난
의아
박영
주며
HE
내기
밑으로
포맷
혼인
시네마
행보를
별이
부장
등지에서
리버스
단점을
##칸센
미끼
##금융
문제점이
##듯하다.
스트리밍
티베
어시스트
##는게
복장
오키나와
시도를
차에
방심
난민
보스의
##바,
##기면
바닐
별을
부끄러
행방
##요의
1946년
성향의
##해왔
##든가,
여기고
줄어들었다.
프랜차이즈
옆으로
##베르트
스태프
플러스
##LS
##ACK
드레이
##학이
##팀으로
안철
발차
##,000,000,000,000,000,000,000,000
번씩
##값이
인문
창업
##그리고
##몬을
해가
##gr
보이는데,
재벌
데뷔했다.
축구선수
##등에
도쿠가와
구매할
바라보는
우려가
구한
목욕
측에서는
공격시
채찍
어찌보면
순찰
##러,
브라더
미묘한
7시
##바와
수비수
뛰어나다.
게임에서는
5월에
##형제
오쿠
펼쳤다.
##팀에
지오
##강이
않았으나
막판
##하겠지만
야만
주에
##코로
확률은
붙었다.
덴마
합친
##nder
호랑
이번에
CO
꼽힌다.
파키스탄
##보라
지원이
동료가
넘어간
것은,
##적이며
##수준
속성의
바람이
-5
날씨
퍼부
돌아갔다.
그간
음향
##크루
달라진
가격을
수단이
유탄
하이브리
아들로
여캐
##던지
딸인
써먹을
카탈
생각했다.
웨일
지지하는
정준
1995
##.21
점심
화면에
##류와
1로
##모,
일꾼
계획에
저스티
페미니즘
되게
아이폰
깨어난
[[htt
##한정
죠죠
나서서
공교롭게도
어려움을
##운수
남자를
캐롤
123
5개의
스콧
정해져
##-KR0
시킬
##작용
식사를
사람에
만났을
전생
위협을
##:55
##-1로
볼드
뿐이었다.
등장하며,
토리
한해
##또한
판매량
##벽이
영국에서
마족
SA
아이스크
pro
필드의
##못해
이전에도
전선
리플렉
것이,
##레타
초록색
사진은
상속
##음,
맞출
##학기
대신해
빠지게
나뭇
배웠
왕을
##산과
레벨업
크리스토
가브리
##요가
##201
##빌딩
낮고
멀쩡한
GPU
1961년
준공
##었기에
입장이
터라
##아슬
##란,
##불능
##다로
##달의
##2가
Type
보자면
드러나는
배구
부재
쳤다.
에너지가
##축을
시즌의
이카
##판에선
##안과
입성
1965년
동생인
NEW
Max
패키지
사키
##편은
고종
신흥
NHK
앞을
##화도
##orea
토론토
전속
있는게
세일러
이준
알렉스
기록하면서
##...?
미소를
현존
##차,
여자친
처리하는
선의
##바스
공격수
그곳에
만화를
##리케이션
##때로
알렉산더
도시에
보여주기도
유격수
수중
위함
시설을
##그라운드
적용된
현실을
회사를
+15
강하고
사정을
