[PAD]	0
[UNK]	0
[BOS]	0
[EOS]	0
[CLS]	0
[SEP]	0
[MASK]	0
▁▃	-0
▁.	-1
▁이	-2
▁에	-3
▁다	-4
▁의	-5
▁는	-6
▁,	-7
▁하	-8
▁을	-9
▁은	-10
▁가	-11
▁1	-12
▁고	-13
▁를	-14
▁한	-15
▁으	-16
▁년	-17
▁로	-18
▁으로	-19
▁에서	-20
▁2	-21
▁지	-22
▁있	-23
▁대	-24
▁기	-25
▁되	-26
▁사	-27
▁인	-28
▁었	-29
▁그	-30
▁시	-31
▁도	-32
▁일	-33
▁과	-34
▁아	-35
▁들	-36
▁수	-37
▁했	-38
▁전	-39
▁어	-40
▁적	-41
▁와	-42
▁여	-43
▁자	-44
▁였	-45
▁20	-46
▁월	-47
▁부	-48
▁제	-49
▁19	-50
▁라	-51
▁정	-52
▁주	-53
▁중	-54
▁위	-55
▁공	-56
▁된	-57
▁보	-58
▁해	-59
▁경	-60
▁개	-61
▁세	-62
▁나	-63
▁게	-64
▁것	-65
▁유	-66
▁3	-67
▁"	-68
▁조	-69
▁한다	-70
▁선	-71
▁등	-72
▁스	-73
▁성	-74
▁마	-75
▁만	-76
▁미	-77
▁연	-78
▁동	-79
▁오	-80
▁상	-81
▁소	-82
▁구	-83
▁서	-84
▁모	-85
▁영	-86
▁비	-87
▁국	-88
▁발	-89
▁면	-90
▁며	-91
▁201	-92
▁'	-93
▁4	-94
▁관	-95
▁후	-96
▁신	-97
▁명	-98
▁프	-99
▁5	-100
▁역	-101
▁때	-102
▁200	-103
▁장	-104
▁할	-105
▁-	-106
▁방	-107
▁던	-108
▁거	-109
▁교	-110
▁대한	-111
▁바	-112
▁리	-113
▁문	-114
▁차	-115
▁생	-116
▁당	-117
▁우	-118
▁무	-119
▁내	-120
▁원	-121
▁통	-122
▁진	-123
▁계	-124
▁현	-125
▁분	-126
▁노	-127
▁군	-128
▁남	-129
▁포	-130
▁화	-131
▁6	-132
▁또	-133
▁않	-134
▁까	-135
▁학	-136
▁작	-137
▁결	-138
▁았	-139
▁까지	-140
▁같	-141
▁출	-142
▁강	-143
▁파	-144
▁불	-145
▁에게	-146
▁받	-147
▁함	-148
▁단	-149
▁번	-150
▁으며	-151
▁최	-152
▁7	-153
▁반	-154
▁10	-155
▁8	-156
▁된다	-157
▁알	-158
▁배	-159
▁호	-160
▁데	-161
▁안	-162
▁회	-163
▁실	-164
▁초	-165
▁형	-166
▁지만	-167
▁예	-168
▁카	-169
▁두	-170
▁말	-171
▁재	-172
▁따	-173
▁없	-174
▁부터	-175
▁타	-176
▁사용	-177
▁종	-178
▁9	-179
▁미국	-180
▁요	-181
▁라고	-182
▁음	-183
▁특	-184
▁이후	-185
▁설	-186
▁라는	-187
▁산	-188
▁면서	-189
▁일본	-190
▁코	-191
▁운	-192
▁레	-193
▁행	-194
▁는데	-195
▁감	-196
▁권	-197
▁활	-198
▁독	-199
민국	-200
▁더	-201
으며	-202
▁추	-203
▁다음	-204
▁왕	-205
▁처	-206
▁베	-207
▁건	-208
▁태	-209
▁김	-210
▁입	-211
▁간	-212
▁지역	-213
▁평	-214
▁크	-215
▁피	-216
▁대한민국	-217
▁양	-218
▁매	-219
▁민	-220
▁199	-221
▁및	-222
▁많	-223
▁참	-224
▁12	-225
▁경기	-226
▁올	-227
▁18	-228
▁본	-229
▁목	-230
▁승	-231
▁드	-232
▁다른	-233
▁다고	-234
▁임	-235
▁프로	-236
▁대학	-237
▁열	-238
리아	-239
▁;	-240
▁속	-241
00	-242
▁총	-243
스트	-244
▁그리	-245
▁야	-246
▁위해	-247
▁북	-248
▁S	-249
▁집	-250
▁외	-251
▁)	-252
or	-253
▁법	-254
▁변	-255
▁트	-256
▁체	-257
▁11	-258
▁때문	-259
▁달	-260
▁물	-261
▁각	-262
▁시작	-263
▁천	-264
▁표	-265
▁토	-266
▁직	-267
▁메	-268
▁사람	-269
▁&	-270
▁따라	-271
▁A	-272
▁(	-273
▁그러	-274
▁팀	-275
▁선수	-276
▁점	-277
▁함께	-278
▁또한	-279
▁박	-280
▁한국	-281
▁항	-282
▁투	-283
▁저	-284
▁청	-285
▁브	-286
▁치	-287
▁세계	-288
▁영화	-289
▁약	-290
▁사이	-291
▁버	-292
▁광	-293
▁판	-294
▁자신	-295
▁C	-296
▁새	-297
▁디	-298
la	-299
▁M	-300
▁용	-301
▁국가	-302
▁경우	-303
▁기록	-304
▁루	-305
▁T	-306
▁복	-307
▁f	-308
▁F	-309
▁축	-310
▁현재	-311
▁네	-312
▁하나	-313
시아	-314
▁이름	-315
▁편	-316
▁존	-317
▁활동	-318
▁198	-319
▁다는	-320
▁확	-321
▁삼	-322
▁당시	-323
▁위치	-324
▁가장	-325
▁철	-326
▁테	-327
▁필	-328
▁합	-329
주의	-330
▁_	-331
▁조선	-332
▁가지	-333
▁학교	-334
▁이나	-335
▁리그	-336
▁뒤	-337
▁그러나	-338
▁살	-339
▁플	-340
▁15	-341
▁증	-342
▁언	-343
▁금	-344
▁페	-345
▁째	-346
▁for	-347
▁심	-348
▁대표	-349
▁백	-350
▁창	-351
mu	-352
레이	-353
▁역사	-354
▁의해	-355
▁식	-356
mula	-357
▁연구	-358
▁formula	-359
▁근	-360
▁16	-361
▁병	-362
▁못	-363
▁쓰	-364
▁프랑	-365
▁또는	-366
부터	-367
▁니	-368
▁그리고	-369
▁/	-370
▁사회	-371
▁클	-372
▁통해	-373
▁황	-374
▁애	-375
▁규	-376
▁D	-377
▁돌	-378
▁시즌	-379
▁0	-380
으나	-381
▁m	-382
▁순	-383
▁충	-384
▁17	-385
▁패	-386
▁[	-387
▁첫	-388
▁]	-389
▁B	-390
▁러	-391
▁197	-392
▁히	-393
▁아니	-394
▁완	-395
랜드	-396
▁보다	-397
▁중국	-398
▁다시	-399
▁만들	-400
▁협	-401
▁키	-402
▁높	-403
▁시대	-404
▁정부	-405
▁프랑스	-406
▁:	-407
▁서울	-408
▁K	-409
▁영국	-410
▁I	-411
▁채	-412
학교	-413
▁대해	-414
▁는다	-415
▁k	-416
▁도시	-417
▁전쟁	-418
▁뜻	-419
▁여러	-420
▁포함	-421
▁문화	-422
▁196	-423
▁독일	-424
▁14	-425
▁죽	-426
▁로서	-427
▁친	-428
▁아이	-429
▁~	-430
▁대회	-431
er	-432
▁으나	-433
▁큰	-434
▁별	-435
▁다가	-436
▁길	-437
▁취	-438
▁축구	-439
▁g	-440
▁13	-441
▁엔	-442
▁P	-443
▁온	-444
▁뉴	-445
▁정치	-446
▁가능	-447
▁위원	-448
▁준	-449
▁곡	-450
▁모두	-451
in	-452
▁환	-453
▁논	-454
▁모든	-455
▁동안	-456
▁감독	-457
▁손	-458
▁문제	-459
▁이상	-460
▁방송	-461
▁구성	-462
▁배우	-463
▁194	-464
▁개발	-465
▁L	-466
▁l	-467
▁석	-468
▁일부	-469
▁허	-470
▁지방	-471
▁사건	-472
▁처음	-473
▁제작	-474
▁대학교	-475
▁알려	-476
▁위한	-477
▁검	-478
▁캐	-479
▁이루	-480
▁%	-481
▁국제	-482
▁골	-483
▁작품	-484
▁농	-485
▁케	-486
▁관계	-487
라이	-488
▁이용	-489
▁였으며	-490
▁세기	-491
▁될	-492
▁시간	-493
▁게임	-494
▁끝	-495
▁날	-496
▁일반	-497
▁씨	-498
▁교육	-499
▁G	-500
▁존재	-501
▁줄	-502
▁인구	-503
▁운동	-504
▁향	-505
▁폭	-506
▁급	-507
▁쿠	-508
▁정도	-509
▁티	-510
▁볼	-511
▁밀	-512
▁걸	-513
▁N	-514
▁주장	-515
▁음악	-516
▁즉	-517
▁gt	-518
▁섬	-519
▁곳	-520
▁효	-521
▁앞	-522
니아	-523
on	-524
▁km	-525
▁경제	-526
▁려	-527
▁195	-528
▁접	-529
▁중심	-530
▁육	-531
리스	-532
▁나타	-533
▁거나	-534
▁lt	-535
▁극	-536
▁이러	-537
▁R	-538
▁맡	-539
▁선거	-540
▁U	-541
▁전투	-542
▁귀	-543
▁터	-544
▁새로	-545
▁절	-546
▁맞	-547
▁30	-548
▁블	-549
▁발견	-550
▁질	-551
▁민주	-552
통령	-553
이스	-554
▁했으며	-555
▁기술	-556
▁H	-557
화국	-558
▁담	-559
부분	-560
▁슈	-561
▁E	-562
▁글	-563
▁측	-564
▁봉	-565
▁올림	-566
▁홍	-567
▁막	-568
▁발표	-569
▁누	-570
▁갖	-571
▁결과	-572
▁암	-573
▁구조	-574
▁영향	-575
▁도록	-576
▁시키	-577
▁태어	-578
▁잘	-579
▁책	-580
▁아들	-581
▁헤	-582
▁사망	-583
▁의미	-584
▁2010	-585
▁우승	-586
▁공격	-587
▁로부터	-588
▁커	-589
▁들어	-590
▁대통령	-591
▁과정	-592
▁대부분	-593
an	-594
▁라이	-595
▁갈	-596
▁관련	-597
▁올림픽	-598
▁앨	-599
▁송	-600
▁밝	-601
000	-602
▁지원	-603
▁프로그	-604
리카	-605
▁탄	-606
▁업	-607
▁발생	-608
▁잡	-609
▁참여	-610
▁193	-611
▁센	-612
▁유럽	-613
▁머	-614
▁진행	-615
▁중앙	-616
▁범	-617
지만	-618
▁행정	-619
▁최초	-620
란드	-621
▁독립	-622
20	-623
▁c	-624
▁얻	-625
▁자유	-626
▁25	-627
▁결정	-628
▁W	-629
▁부분	-630
▁난	-631
▁설립	-632
▁특히	-633
▁제국	-634
▁형태	-635
▁고등	-636
▁악	-637
▁탈	-638
▁됐	-639
▁발매	-640
▁다양	-641
▁폐	-642
▁어서	-643
▁상태	-644
▁하지만	-645
나라	-646
▁설치	-647
▁이전	-648
버지	-649
▁같이	-650
▁러시아	-651
▁스타	-652
▁2008	-653
▁소속	-654
▁사실	-655
▁좌	-656
▁일어	-657
▁초등	-658
▁침	-659
디오	-660
▁21	-661
우스	-662
▁새로운	-663
▁르	-664
▁그녀	-665
▁좋	-666
▁로마	-667
▁타이	-668
▁인해	-669
▁으로서	-670
▁나라	-671
▁조직	-672
▁프로그램	-673
▁인민	-674
▁참가	-675
▁생각	-676
▁여성	-677
▁폴	-678
▁팔	-679
▁등장	-680
▁정보	-681
▁주로	-682
▁2011	-683
▁2012	-684
▁필요	-685
▁싱	-686
▁혼	-687
▁이탈	-688
▁주요	-689
▁벌	-690
▁관리	-691
▁운영	-692
▁출신	-693
▁이것	-694
▁기준	-695
▁생산	-696
▁계획	-697
en	-698
▁2009	-699
▁100	-700
▁기관	-701
▁윤	-702
▁중요	-703
어진	-704
▁위원회	-705
▁2014	-706
▁란	-707
▁지정	-708
▁2007	-709
▁여자	-710
므로	-711
▁상대	-712
▁음반	-713
▁t	-714
▁성공	-715
▁바이	-716
▁계속	-717
▁시절	-718
▁국민	-719
▁콘	-720
▁a	-721
▁데이	-722
▁헌	-723
▁O	-724
▁데뷔	-725
▁매우	-726
▁2013	-727
▁해서	-728
▁빌	-729
▁철도	-730
▁레이	-731
▁넘	-732
▁과학	-733
▁대전	-734
리즈	-735
▁사업	-736
▁시스	-737
▁해당	-738
▁발전	-739
he	-740
▁생활	-741
▁이탈리아	-742
▁뿐	-743
▁방법	-744
프트	-745
▁칼	-746
▁고려	-747
르크	-748
스터	-749
▁아버지	-750
▁몇	-751
▁엘	-752
▁자리	-753
▁묘	-754
▁찾	-755
▁따르	-756
▁191	-757
▁생애	-758
▁초기	-759
▁쇼	-760
▁2015	-761
라마	-762
▁23	-763
▁2018	-764
▁24	-765
ar	-766
▁억	-767
▁월드	-768
▁내용	-769
이션	-770
레스	-771
▁처럼	-772
▁능	-773
▁앨범	-774
▁000	-775
▁출연	-776
▁차지	-777
▁2016	-778
▁보이	-779
▁최고	-780
▁인도	-781
▁후보	-782
▁그룹	-783
남도	-784
▁시리즈	-785
▁돌아	-786
▁결국	-787
▁마이	-788
▁평가	-789
▁가리	-790
▁J	-791
es	-792
▁이어	-793
▁아래	-794
▁22	-795
▁전체	-796
▁회사	-797
▁그리스	-798
▁이유	-799
▁방식	-800
이트	-801
▁2006	-802
FA	-803
▁둘	-804
▁격	-805
▁한편	-806
▁고등학교	-807
▁우리	-808
▁떨	-809
▁퍼	-810
▁인간	-811
▁졌	-812
비아	-813
▁얼	-814
▁수상	-815
▁풍	-816
▁스페	-817
▁192	-818
▁2017	-819
▁분류	-820
▁힘	-821
▁인터	-822
▁연합	-823
▁시기	-824
▁태어났	-825
▁공식	-826
▁층	-827
▁개요	-828
▁항공	-829
▁제공	-830
운데	-831
▁였으나	-832
▁드라마	-833
▁역할	-834
▁의원	-835
▁시스템	-836
▁컴	-837
▁정의	-838
▁못하	-839
▁빠	-840
▁많이	-841
▁기업	-842
▁군사	-843
▁제도	-844
▁조사	-845
▁떠	-846
▁잠	-847
▁워	-848
▁가운데	-849
▁몸	-850
▁출전	-851
▁유명	-852
▁민족	-853
▁기능	-854
한다	-855
▁교회	-856
▁반대	-857
▁거의	-858
▁s	-859
▁지구	-860
▁먼	-861
▁색	-862
비스	-863
▁으로써	-864
▁텔	-865
▁현대	-866
▁언어	-867
▁표현	-868
▁응	-869
▁대신	-870
▁유지	-871
▁울	-872
▁목록	-873
▁개인	-874
▁느	-875
▁해야	-876
▁녹	-877
▁대상	-878
▁으로부터	-879
▁홈	-880
인다	-881
▁특별	-882
▁이론	-883
▁동시	-884
▁웨	-885
▁류	-886
▁26	-887
at	-888
▁몰	-889
▁자연	-890
▁!	-891
▁규모	-892
▁모습	-893
야기	-894
▁프리	-895
▁공개	-896
▁노동	-897
▁이미	-898
▁이르	-899
▁졸	-900
▁지도	-901
▁야구	-902
▁마지	-903
▁따라서	-904
▁연결	-905
▁승리	-906
▁28	-907
▁열린	-908
▁2019	-909
▁특징	-910
▁진출	-911
▁27	-912
▁놓	-913
▁푸	-914
▁단체	-915
▁각각	-916
▁밖	-917
▁정책	-918
▁브라	-919
▁인정	-920
▁여기	-921
▁목적	-922
▁칸	-923
▁상황	-924
▁붙	-925
▁산업	-926
▁인물	-927
▁V	-928
▁핵	-929
▁시장	-930
▁시켰	-931
▁2000	-932
▁2005	-933
▁긴	-934
▁마지막	-935
▁기원	-936
▁밴	-937
▁가진	-938
▁플레이	-939
▁수도	-940
▁아르	-941
▁임명	-942
▁족	-943
▁전문	-944
▁이야기	-945
▁습	-946
▁기간	-947
북도	-948
▁샤	-949
▁눈	-950
▁먹	-951
▁희	-952
머니	-953
▁직접	-954
▁알려져	-955
▁구역	-956
▁혁	-957
al	-958
ic	-959
▁왔	-960
▁모델	-961
니다	-962
스크	-963
▁슬	-964
▁경상	-965
▁빈	-966
▁압	-967
▁서로	-968
▁계약	-969
▁뛰	-970
▁오스트	-971
▁불리	-972
▁했으나	-973
▁추가	-974
▁건설	-975
▁공동	-976
▁개최	-977
▁콜	-978
▁FC	-979
▁2004	-980
BS	-981
▁망	-982
▁경찰	-983
▁형성	-984
▁공간	-985
▁벨	-986
▁사상	-987
▁결혼	-988
▁건물	-989
▁자동	-990
▁노선	-991
▁변화	-992
▁기타	-993
▁50	-994
▁활약	-995
▁관한	-996
▁스페인	-997
▁훈	-998
▁보여	-999
▁노래	-1000
▁TV	-1001
▁31	-1002
▁변경	-1003
▁부산	-1004
학자	-1005
▁국회	-1006
▁29	-1007
▁너	-1008
▁거리	-1009
▁그것	-1010
킨다	-1011
▁교수	-1012
▁으면	-1013
▁나이	-1014
is	-1015
▁졸업	-1016
▁공화국	-1017
it	-1018
▁의하	-1019
이드	-1020
▁완전	-1021
▁텔레	-1022
▁b	-1023
re	-1024
▁마을	-1025
▁궁	-1026
▁인민공	-1027
▁경력	-1028
▁부르	-1029
▁인민공화국	-1030
▁클럽	-1031
▁사랑	-1032
비전	-1033
▁휴	-1034
▁비롯	-1035
▁역시	-1036
▁2020	-1037
▁190	-1038
▁낮	-1039
▁비판	-1040
▁서비스	-1041
▁학생	-1042
▁맥	-1043
ou	-1044
▁실제	-1045
▁론	-1046
▁최대	-1047
운드	-1048
▁소설	-1049
▁요구	-1050
▁보통	-1051
▁견	-1052
▁보호	-1053
▁잉	-1054
▁겠	-1055
▁지금	-1056
▁가수	-1057
▁중학교	-1058
대로	-1059
프리카	-1060
▁우주	-1061
▁기본	-1062
▁중화	-1063
▁의회	-1064
▁탑	-1065
거리	-1066
▁딸	-1067
▁종교	-1068
▁전국	-1069
▁다이	-1070
▁메이	-1071
▁지지	-1072
▁일으	-1073
▁속하	-1074
른다	-1075
▁자기	-1076
르트	-1077
▁지하	-1078
▁판매	-1079
▁거쳐	-1080
▁없이	-1081
▁싱글	-1082
▁겸	-1083
▁실시	-1084
▁전통	-1085
▁혹	-1086
▁차이	-1087
▁시설	-1088
▁황제	-1089
▁옥	-1090
역시	-1091
▁퇴	-1092
▁밴드	-1093
▁엄	-1094
▁기반	-1095
▁한다는	-1096
▁달리	-1097
▁그래	-1098
▁원래	-1099
▁어떤	-1100
▁싸	-1101
▁탐	-1102
▁만든	-1103
▁2002	-1104
▁세력	-1105
▁지나	-1106
▁운행	-1107
로스	-1108
▁명칭	-1109
▁환경	-1110
▁교통	-1111
▁위하	-1112
▁가족	-1113
▁자료	-1114
▁설명	-1115
▁40	-1116
▁경기도	-1117
▁소련	-1118
▁못했	-1119
▁뮤	-1120
스탄	-1121
▁월드컵	-1122
▁전기	-1123
▁센터	-1124
▁공연	-1125
▁2003	-1126
▁수행	-1127
▁회의	-1128
▁아닌	-1129
▁애니	-1130
▁전자	-1131
▁승강	-1132
러스	-1133
린다	-1134
▁모양	-1135
▁부대	-1136
▁도쿄	-1137
▁도로	-1138
▁흐	-1139
▁컵	-1140
▁분야	-1141
▁기독	-1142
▁예술	-1143
▁기념	-1144
▁이동	-1145
▁통합	-1146
▁교황	-1147
▁나오	-1148
▁득	-1149
나다	-1150
▁사고	-1151
▁앤	-1152
어져	-1153
mp	-1154
▁도입	-1155
▁텔레비전	-1156
le	-1157
▁작업	-1158
▁행동	-1159
▁남자	-1160
▁동물	-1161
▁연방	-1162
▁염	-1163
▁풀	-1164
▁선정	-1165
▁대해서	-1166
▁십	-1167
▁차량	-1168
▁의한	-1169
▁능력	-1170
▁소프트	-1171
▁작용	-1172
▁출시	-1173
▁바로	-1174
▁문학	-1175
▁숙	-1176
▁=	-1177
▁군대	-1178
▁피해	-1179
스타	-1180
의원	-1181
너지	-1182
▁증가	-1183
▁기독교	-1184
▁행위	-1185
▁형식	-1186
▁전라	-1187
▁방향	-1188
▁나가	-1189
▁기존	-1190
어지	-1191
▁확인	-1192
▁지휘	-1193
▁넓	-1194
▁작가	-1195
▁남쪽	-1196
▁효과	-1197
▁혁명	-1198
▁국내	-1199
▁과거	-1200
▁북쪽	-1201
▁작곡	-1202
▁이때	-1203
▁착	-1204
▁제외	-1205
▁이끌	-1206
▁비슷	-1207
진다	-1208
▁므로	-1209
▁승강장	-1210
▁옮	-1211
▁FI	-1212
▁런	-1213
▁지배	-1214
▁챔	-1215
▁컴퓨	-1216
▁주변	-1217
▁윌	-1218
▁낙	-1219
▁어머니	-1220
▁왕국	-1221
▁캐나다	-1222
▁몽	-1223
▁종류	-1224
▁마다	-1225
▁태양	-1226
▁열차	-1227
▁갑	-1228
▁사무	-1229
▁유일	-1230
▁비교	-1231
▁정당	-1232
▁한다고	-1233
▁역임	-1234
▁뉴욕	-1235
▁이적	-1236
▁남부	-1237
리오	-1238
BC	-1239
▁흥	-1240
▁링	-1241
▁솔	-1242
▁높이	-1243
▁협회	-1244
▁어린	-1245
▁적용	-1246
▁혹은	-1247
▁스포	-1248
▁보내	-1249
▁공산	-1250
▁잔	-1251
▁반응	-1252
▁성장	-1253
▁흔	-1254
자리	-1255
▁추정	-1256
▁담당	-1257
▁챔피	-1258
▁시민	-1259
▁건축	-1260
▁동일	-1261
▁개념	-1262
▁이사	-1263
▁즈	-1264
▁베이	-1265
▁1990	-1266
▁육군	-1267
▁대사	-1268
▁장관	-1269
▁홀	-1270
▁인기	-1271
▁돈	-1272
▁2001	-1273
▁맨	-1274
▁획	-1275
▁스트	-1276
▁X	-1277
▁세포	-1278
▁버스	-1279
▁징	-1280
▁윈	-1281
▁시켜	-1282
▁컴퓨터	-1283
▁동쪽	-1284
메이션	-1285
▁공사	-1286
▁덴	-1287
▁데이터	-1288
▁오늘	-1289
▁멤	-1290
▁구간	-1291
▁p	-1292
▁쪽	-1293
▁품	-1294
▁디자	-1295
▁마음	-1296
▁에너지	-1297
▁곧	-1298
▁사단	-1299
▁상당	-1300
▁물리	-1301
▁예정	-1302
▁연기	-1303
▁크기	-1304
▁움	-1305
▁액	-1306
▁작전	-1307
▁흑	-1308
▁조건	-1309
▁조지	-1310
▁대하	-1311
▁민주주의	-1312
이지	-1313
▁마르	-1314
▁189	-1315
▁차례	-1316
▁실패	-1317
▁넣	-1318
▁록	-1319
▁가까	-1320
▁서쪽	-1321
▁버전	-1322
▁자체	-1323
▁칭	-1324
▁FIFA	-1325
▁애니메이션	-1326
▁율	-1327
▁컨	-1328
▁어느	-1329
▁수록	-1330
▁땅	-1331
▁d	-1332
▁충청	-1333
▁다르	-1334
▁특정	-1335
▁이런	-1336
▁선언	-1337
▁올라	-1338
▁고대	-1339
▁덕	-1340
▁늘	-1341
드리	-1342
▁연주	-1343
▁체제	-1344
카이	-1345
▁부족	-1346
▁연속	-1347
▁쌍	-1348
▁방영	-1349
버스	-1350
▁선택	-1351
▁페르	-1352
▁익	-1353
▁규정	-1354
▁결승	-1355
▁내부	-1356
▁멤버	-1357
▁국립	-1358
el	-1359
▁해군	-1360
▁공항	-1361
▁개혁	-1362
▁대체	-1363
▁곤	-1364
et	-1365
루스	-1366
▁아시아	-1367
▁정신	-1368
▁속도	-1369
▁조약	-1370
웨어	-1371
▁이라	-1372
▁단계	-1373
▁대구	-1374
▁북부	-1375
▁위해서	-1376
가지	-1377
▁헌법	-1378
▁최종	-1379
▁명령	-1380
▁왜	-1381
▁벤	-1382
ion	-1383
▁연대	-1384
글랜드	-1385
▁인지	-1386
▁몬	-1387
▁기원전	-1388
▁포르	-1389
▁선출	-1390
▁밝혔	-1391
▁영어	-1392
▁지냈	-1393
▁분석	-1394
▁가치	-1395
▁는지	-1396
▁지명	-1397
▁자치	-1398
▁크리스	-1399
▁찬	-1400
▁옛	-1401
▁설계	-1402
▁인천	-1403
트남	-1404
▁물질	-1405
▁치료	-1406
▁로스	-1407
▁출판	-1408
▁입단	-1409
▁최근	-1410
▁친구	-1411
▁팬	-1412
▁걸쳐	-1413
▁체계	-1414
ing	-1415
▁의사	-1416
▁논란	-1417
▁소비	-1418
▁핀	-1419
▁관할	-1420
▁보인다	-1421
▁달러	-1422
▁강화	-1423
▁비행	-1424
▁척	-1425
시마	-1426
▁밤	-1427
▁더욱	-1428
▁일어나	-1429
▁집단	-1430
▁평균	-1431
▁북한	-1432
▁대중	-1433
▁1999	-1434
ol	-1435
메리카	-1436
▁휘	-1437
▁스포츠	-1438
▁표준	-1439
▁후반	-1440
▁술	-1441
라스	-1442
▁배치	-1443
21	-1444
▁널	-1445
▁엔진	-1446
▁법원	-1447
▁잉글랜드	-1448
▁제품	-1449
난다	-1450
▁언급	-1451
▁부문	-1452
▁하이	-1453
▁관심	-1454
▁현상	-1455
▁1998	-1456
▁Y	-1457
▁실험	-1458
▁겨	-1459
▁헬	-1460
▁챔피언	-1461
▁함수	-1462
▁머리	-1463
▁조정	-1464
▁o	-1465
▁내려	-1466
렇게	-1467
▁개월	-1468
▁예선	-1469
▁확장	-1470
▁스테	-1471
스코	-1472
▁쥐	-1473
▁씩	-1474
▁획득	-1475
▁파리	-1476
▁공원	-1477
▁1980	-1478
▁유사	-1479
▁선발	-1480
▁요소	-1481
▁분리	-1482
▁처리	-1483
▁주도	-1484
▁부상	-1485
▁지속	-1486
▁목표	-1487
▁배경	-1488
디어	-1489
▁당하	-1490
▁재판	-1491
▁cm	-1492
▁가리킨다	-1493
▁통일	-1494
▁60	-1495
▁하계	-1496
리지	-1497
▁자동차	-1498
▁베르	-1499
▁문자	-1500
▁주민	-1501
▁맺	-1502
▁소유	-1503
▁35	-1504
▁편성	-1505
▁유래	-1506
▁칠	-1507
▁시도	-1508
▁이해	-1509
▁어야	-1510
▁마리	-1511
▁정규	-1512
▁어려	-1513
▁구단	-1514
▁외국	-1515
▁도움	-1516
▁장군	-1517
▁고자	-1518
▁에스	-1519
▁뛰어	-1520
▁주인	-1521
▁거주	-1522
▁시험	-1523
▁점령	-1524
▁나무	-1525
▁가문	-1526
▁꽃	-1527
아들	-1528
▁공립	-1529
▁행사	-1530
▁기사	-1531
▁디자인	-1532
▁요시	-1533
▁원자	-1534
▁려고	-1535
▁앙	-1536
▁통신	-1537
▁mm	-1538
▁원인	-1539
▁네덜	-1540
▁네덜란드	-1541
▁파이	-1542
▁들어가	-1543
▁언론	-1544
▁안정	-1545
▁책임	-1546
▁다면	-1547
▁학자	-1548
▁캠	-1549
▁잃	-1550
▁결합	-1551
▁괴	-1552
▁동맹	-1553
▁투표	-1554
▁n	-1555
▁웹	-1556
▁준비	-1557
▁수준	-1558
▁사령	-1559
▁본선	-1560
▁혈	-1561
▁베트남	-1562
▁개봉	-1563
▁장치	-1564
▁불교	-1565
▁고속	-1566
▁일종	-1567
▁제한	-1568
▁아프리카	-1569
▁용어	-1570
광역시	-1571
om	-1572
젝트	-1573
▁알렉	-1574
▁은퇴	-1575
▁깊	-1576
▁불구	-1577
야마	-1578
▁성적	-1579
▁통치	-1580
나무	-1581
▁듯	-1582
▁1997	-1583
▁촉	-1584
▁구분	-1585
▁제조	-1586
일랜드	-1587
▁비디오	-1588
▁길이	-1589
▁나타나	-1590
▁빛	-1591
▁아마	-1592
▁방문	-1593
▁문서	-1594
▁사진	-1595
▁정권	-1596
▁유전	-1597
▁바르	-1598
▁가정	-1599
▁요리	-1600
▁광주	-1601
▁신문	-1602
▁인데	-1603
▁만나	-1604
▁대로	-1605
st	-1606
▁갔	-1607
▁해석	-1608
▁비해	-1609
▁믿	-1610
▁경험	-1611
▁폴란드	-1612
▁정리	-1613
▁드러	-1614
▁amp	-1615
▁그림	-1616
▁평화	-1617
▁정확	-1618
▁일제	-1619
▁The	-1620
▁1996	-1621
▁왕조	-1622
▁1995	-1623
▁오늘날	-1624
▁서식	-1625
▁32	-1626
메달	-1627
▁분포	-1628
▁추진	-1629
▁면적	-1630
▁올랐	-1631
▁끌	-1632
▁통과	-1633
▁프로젝트	-1634
▁그런	-1635
▁입장	-1636
▁경영	-1637
▁거두	-1638
▁부인	-1639
▁슈퍼	-1640
▁런던	-1641
▁려는	-1642
▁멸	-1643
▁종합	-1644
스턴	-1645
▁알려진	-1646
▁70	-1647
▁아직	-1648
▁값	-1649
▁부여	-1650
▁만화	-1651
▁경쟁	-1652
▁쉽	-1653
스로	-1654
▁멀	-1655
인트	-1656
▁병원	-1657
▁인터넷	-1658
▁신라	-1659
▁방어	-1660
▁발달	-1661
▁경기장	-1662
▁영역	-1663
▁쓴	-1664
▁프레	-1665
▁주제	-1666
특별	-1667
▁이곳	-1668
▁폐지	-1669
▁노력	-1670
▁훈련	-1671
▁츠	-1672
▁부정	-1673
▁500	-1674
▁보도	-1675
▁민주당	-1676
웨이	-1677
▁사라	-1678
▁미사	-1679
▁널리	-1680
▁파괴	-1681
▁이듬	-1682
레일	-1683
▁총리	-1684
▁놀	-1685
▁오르	-1686
▁생물	-1687
am	-1688
▁미술	-1689
▁제주	-1690
▁제안	-1691
▁서부	-1692
▁국회의원	-1693
▁도서	-1694
▁the	-1695
▁80	-1696
▁회장	-1697
▁복귀	-1698
▁철학	-1699
▁식민	-1700
리트	-1701
▁번호	-1702
▁델	-1703
라인	-1704
▁법률	-1705
▁빅	-1706
▁외교	-1707
▁기여	-1708
▁야마	-1709
▁정상	-1710
▁삼성	-1711
▁세워	-1712
▁완전히	-1713
▁가르	-1714
▁꼬	-1715
▁세대	-1716
▁궤	-1717
▁요청	-1718
▁188	-1719
▁주연	-1720
▁행성	-1721
▁남성	-1722
▁무기	-1723
▁동부	-1724
▁나온	-1725
▁라디오	-1726
▁이듬해	-1727
▁소재	-1728
▁경계	-1729
▁UE	-1730
▁인식	-1731
▁1970	-1732
▁자주	-1733
▁연맹	-1734
il	-1735
▁투수	-1736
▁+	-1737
▁무대	-1738
▁아서	-1739
▁여겨	-1740
▁수용	-1741
▁금지	-1742
▁등록	-1743
▁폰	-1744
▁1994	-1745
▁움직	-1746
▁UEFA	-1747
▁잇	-1748
톨릭	-1749
▁펼	-1750
▁지진	-1751
▁업무	-1752
▁표기	-1753
▁아시	-1754
▁전해	-1755
ac	-1756
▁깨	-1757
▁끼	-1758
▁접근	-1759
▁연구소	-1760
▁발사	-1761
▁영토	-1762
▁더불	-1763
▁뇌	-1764
▁노르	-1765
▁박물	-1766
▁지도자	-1767
▁바탕	-1768
▁결성	-1769
▁성격	-1770
▁득점	-1771
머지	-1772
▁스스로	-1773
▁나머지	-1774
▁거부	-1775
▁KBS	-1776
▁든	-1777
▁조각	-1778
▁상호	-1779
▁지대	-1780
▁반면	-1781
▁뉴스	-1782
▁아일랜드	-1783
▁수학	-1784
▁받아들	-1785
▁강원	-1786
▁정식	-1787
▁트리	-1788
▁오스	-1789
▁의식	-1790
▁보수	-1791
▁은행	-1792
▁펜	-1793
▁기초	-1794
▁주의	-1795
▁오래	-1796
▁벽	-1797
▁오른	-1798
▁필리	-1799
▁마찬	-1800
▁마찬가지	-1801
▁지난	-1802
▁소리	-1803
ro	-1804
▁1992	-1805
▁당했	-1806
▁캐릭	-1807
▁가톨릭	-1808
▁공작	-1809
토리	-1810
▁다리	-1811
▁찾아	-1812
▁임시	-1813
시코	-1814
▁다수	-1815
▁아카	-1816
▁스웨	-1817
▁45	-1818
▁짧	-1819
▁박사	-1820
▁화학	-1821
요일	-1822
▁장애	-1823
▁패배	-1824
임스	-1825
▁검사	-1826
▁바다	-1827
▁해결	-1828
▁죽음	-1829
▁장소	-1830
▁차트	-1831
▁파일	-1832
ed	-1833
▁36	-1834
▁브라질	-1835
워드	-1836
▁케이	-1837
▁차원	-1838
▁로써	-1839
모토	-1840
▁그대로	-1841
▁of	-1842
▁돼	-1843
▁이스	-1844
▁초대	-1845
▁박물관	-1846
▁습니다	-1847
▁활용	-1848
▁마이크	-1849
▁실제로	-1850
▁유니	-1851
▁총선	-1852
▁스위	-1853
▁카드	-1854
▁유로	-1855
▁둔	-1856
▁캐릭터	-1857
▁관측	-1858
▁윌리	-1859
▁기구	-1860
▁계열	-1861
▁여행	-1862
▁순위	-1863
▁밝혀	-1864
▁식물	-1865
▁안전	-1866
▁묘사	-1867
▁인사	-1868
▁린	-1869
▁오브	-1870
▁강력	-1871
▁바뀌	-1872
▁표시	-1873
▁지리	-1874
▁제시	-1875
▁단순	-1876
▁그린	-1877
▁집합	-1878
▁1960	-1879
▁에이	-1880
▁소프트웨어	-1881
▁일정	-1882
ig	-1883
▁무역	-1884
▁이외	-1885
로나	-1886
▁권력	-1887
▁여름	-1888
▁멕	-1889
▁연극	-1890
▁스웨덴	-1891
▁회원	-1892
▁1991	-1893
▁기계	-1894
▁디지	-1895
▁지적	-1896
부르크	-1897
▁쓰이	-1898
▁셀	-1899
▁위험	-1900
트리	-1901
▁삶	-1902
▁오스트리아	-1903
▁반란	-1904
▁히로	-1905
레일리아	-1906
▁먼저	-1907
▁붕	-1908
▁1993	-1909
▁조성	-1910
▁아무	-1911
▁33	-1912
▁발행	-1913
▁형제	-1914
▁중간	-1915
▁관광	-1916
▁기자	-1917
▁개국	-1918
▁가져	-1919
▁근처	-1920
▁중단	-1921
▁흡	-1922
▁만큼	-1923
▁협력	-1924
▁시행	-1925
▁스코	-1926
▁뮤직	-1927
▁기획	-1928
▁여객	-1929
베이	-1930
▁캘	-1931
트로	-1932
▁지하철	-1933
소년	-1934
▁도착	-1935
▁굴	-1936
▁멜	-1937
낸다	-1938
▁량	-1939
▁외부	-1940
▁스튜	-1941
▁쉬	-1942
▁투자	-1943
▁사이트	-1944
사카	-1945
▁다만	-1946
▁소개	-1947
od	-1948
배우	-1949
▁윈도	-1950
▁렌	-1951
▁나타내	-1952
▁번역	-1953
워크	-1954
나이	-1955
▁코드	-1956
▁단어	-1957
▁전시	-1958
▁",	-1959
버트	-1960
▁연장	-1961
▁유형	-1962
▁태평	-1963
니스	-1964
▁186	-1965
▁죄	-1966
ve	-1967
▁해안	-1968
▁하루	-1969
특별시	-1970
▁카이	-1971
▁후기	-1972
▁성립	-1973
as	-1974
▁확대	-1975
▁세상	-1976
▁혜	-1977
▁근거	-1978
▁꾸	-1979
▁서울특별시	-1980
▁상징	-1981
▁혐	-1982
▁통하	-1983
▁파견	-1984
▁오스트레일리아	-1985
▁공장	-1986
▁본부	-1987
▁위기	-1988
▁보유	-1989
▁내각	-1990
무원	-1991
▁수많	-1992
▁기후	-1993
▁제기	-1994
▁겪	-1995
▁떠나	-1996
▁생성	-1997
주시	-1998
▁양식	-1999
▁감소	-2000
▁네트	-2001
▁다카	-2002
▁지식	-2003
▁옹	-2004
▁보존	-2005
▁?	-2006
▁극장	-2007
▁수사	-2008
지션	-2009
▁지상	-2010
▁균	-2011
▁전략	-2012
▁래	-2013
▁촬	-2014
▁귀족	-2015
▁윌리엄	-2016
▁유대	-2017
▁특수	-2018
▁경상남도	-2019
▁상업	-2020
▁멕시코	-2021
▁달성	-2022
간다	-2023
▁특성	-2024
▁경상북도	-2025
▁h	-2026
▁대응	-2027
▁1988	-2028
▁바꾸	-2029
▁숨	-2030
▁출생	-2031
▁187	-2032
▁영상	-2033
▁원소	-2034
▁춘	-2035
▁떨어진	-2036
▁완성	-2037
▁유리	-2038
▁동생	-2039
▁디지털	-2040
▁단위	-2041
▁세웠	-2042
▁미래	-2043
▁촬영	-2044
▁님	-2045
▁당선	-2046
▁촌	-2047
▁이렇게	-2048
▁이슬	-2049
▁계승	-2050
▁보였	-2051
▁학위	-2052
아시아	-2053
▁시티	-2054
▁체포	-2055
▁따른	-2056
티아	-2057
▁34	-2058
▁근무	-2059
▁식민지	-2060
▁타이틀	-2061
▁젊	-2062
가리	-2063
▁이란	-2064
▁종목	-2065
회사	-2066
▁률	-2067
▁전달	-2068
▁그렇	-2069
▁권리	-2070
▁자본	-2071
어졌	-2072
▁생명	-2073
▁38	-2074
▁수비	-2075
id	-2076
▁코치	-2077
▁이집	-2078
▁이집트	-2079
▁올리	-2080
▁체결	-2081
▁시청	-2082
▁이루어진	-2083
▁듀	-2084
▁옆	-2085
▁측정	-2086
▁설정	-2087
▁판단	-2088
▁나중	-2089
▁직후	-2090
▁90	-2091
▁싶	-2092
▁승격	-2093
▁소수	-2094
▁마사	-2095
▁몇몇	-2096
▁정치인	-2097
가와	-2098
▁이라고	-2099
▁2021	-2100
▁맹	-2101
▁문화재	-2102
▁크로	-2103
▁알렉산	-2104
▁대륙	-2105
▁48	-2106
▁라인	-2107
▁주식	-2108
▁전환	-2109
▁국왕	-2110
모리	-2111
▁으므로	-2112
▁1989	-2113
▁채널	-2114
▁1950	-2115
▁아내	-2116
▁개정	-2117
▁컬	-2118
▁스키	-2119
▁도서관	-2120
▁이주	-2121
▁헨	-2122
▁관찰	-2123
▁미군	-2124
▁즐	-2125
NA	-2126
▁본관	-2127
us	-2128
▁톤	-2129
▁의견	-2130
ec	-2131
▁신경	-2132
▁개통	-2133
▁세르	-2134
▁포르투	-2135
▁다루	-2136
▁청년	-2137
▁녹음	-2138
▁납	-2139
▁지위	-2140
▁엘리	-2141
▁시위	-2142
▁밑	-2143
▁홍콩	-2144
▁낳	-2145
▁제정	-2146
▁결승전	-2147
▁부른다	-2148
▁텍	-2149
▁해외	-2150
▁',	-2151
▁얼마	-2152
▁은하	-2153
▁종료	-2154
▁취임	-2155
▁헝	-2156
▁셰	-2157
and	-2158
▁동계	-2159
▁미사일	-2160
▁범죄	-2161
▁즉위	-2162
▁주인공	-2163
▁계산	-2164
디아	-2165
▁사회주의	-2166
▁교체	-2167
▁음식	-2168
▁예수	-2169
▁져	-2170
스티	-2171
▁충돌	-2172
▁후쿠	-2173
▁아키	-2174
▁신학	-2175
▁300	-2176
코드	-2177
ad	-2178
▁남북	-2179
▁천황	-2180
▁빨	-2181
▁장기	-2182
▁e	-2183
교회	-2184
▁전차	-2185
▁쌓	-2186
▁발매되	-2187
▁개선	-2188
▁주목	-2189
▁비용	-2190
▁MBC	-2191
▁자격	-2192
▁수정	-2193
▁사후	-2194
▁강한	-2195
▁못한	-2196
▁찰	-2197
▁제임스	-2198
▁바이러스	-2199
▁벗	-2200
▁원정	-2201
▁|	-2202
▁건강	-2203
▁공급	-2204
▁스티	-2205
▁이래	-2206
▁계기	-2207
라도	-2208
▁1945	-2209
▁본래	-2210
▁비밀	-2211
▁소장	-2212
러운	-2213
ent	-2214
전히	-2215
▁가격	-2216
▁만드	-2217
▁네트워크	-2218
스카	-2219
▁궤도	-2220
▁명단	-2221
▁전라남도	-2222
▁심리	-2223
▁공부	-2224
▁펠	-2225
▁보냈	-2226
▁물론	-2227
▁부모	-2228
▁합류	-2229
▁라운드	-2230
▁제거	-2231
▁자원	-2232
▁카운	-2233
▁농업	-2234
▁홈런	-2235
▁랑	-2236
▁명예	-2237
▁객	-2238
▁체육	-2239
▁성우	-2240
▁집중	-2241
▁옮겨	-2242
▁거대	-2243
▁각종	-2244
▁시내	-2245
50	-2246
▁감염	-2247
▁롤	-2248
▁입학	-2249
▁에드	-2250
▁샌	-2251
▁증명	-2252
▁오후	-2253
▁작성	-2254
▁으면서	-2255
▁듣	-2256
▁가입	-2257
▁인근	-2258
▁천문	-2259
▁군인	-2260
▁읽	-2261
▁전사	-2262
▁소송	-2263
▁국경	-2264
▁이슬람	-2265
▁저항	-2266
▁베네	-2267
▁학문	-2268
▁공군	-2269
▁왼	-2270
▁측면	-2271
피아	-2272
티나	-2273
▁미디어	-2274
▁통제	-2275
베르	-2276
▁가리키	-2277
▁강조	-2278
▁피아	-2279
▁병력	-2280
▁준다	-2281
▁터미	-2282
▁인수	-2283
▁썼	-2284
동안	-2285
▁신호	-2286
니어	-2287
▁다니	-2288
▁세이	-2289
▁나누	-2290
▁울산	-2291
▁블랙	-2292
▁이번	-2293
▁터키	-2294
▁광고	-2295
▁태평양	-2296
▁플로	-2297
▁실행	-2298
▁일어난	-2299
▁St	-2300
리포	-2301
▁너무	-2302
▁아우	-2303
▁질량	-2304
▁해방	-2305
▁만약	-2306
ot	-2307
▁콩	-2308
▁마치	-2309
▁변호	-2310
▁포지션	-2311
▁엑	-2312
▁가까운	-2313
▁기회	-2314
▁틀	-2315
▁정착	-2316
▁병사	-2317
▁무장	-2318
어나	-2319
도로	-2320
▁이루어져	-2321
▁털	-2322
▁빼	-2323
▁냉	-2324
▁지내	-2325
▁겨울	-2326
▁최소	-2327
▁터미널	-2328
▁노동자	-2329
아가	-2330
▁비트	-2331
▁전반	-2332
▁제목	-2333
철도	-2334
▁금융	-2335
▁x	-2336
un	-2337
드로	-2338
▁약간	-2339
▁몽골	-2340
▁강원도	-2341
▁짓	-2342
▁유도	-2343
▁편집	-2344
▁바람	-2345
▁37	-2346
ow	-2347
▁국방	-2348
▁둘러	-2349
▁마리아	-2350
▁쇠	-2351
▁가졌	-2352
▁마쓰	-2353
▁in	-2354
▁잎	-2355
▁고전	-2356
▁사례	-2357
▁환자	-2358
▁전개	-2359
▁혐의	-2360
▁인한	-2361
스키	-2362
▁도중	-2363
▁지점	-2364
▁재산	-2365
▁허용	-2366
▁표면	-2367
▁나왔	-2368
▁마련	-2369
▁근대	-2370
▁카르	-2371
소리	-2372
오카	-2373
▁재정	-2374
▁합병	-2375
▁인디	-2376
▁충분	-2377
▁건너	-2378
▁밀도	-2379
▁무렵	-2380
▁가스	-2381
▁겐	-2382
▁힐	-2383
▁학년	-2384
▁헝가리	-2385
▁이하	-2386
▁전력	-2387
▁1987	-2388
▁오사카	-2389
▁민간	-2390
▁윈도우	-2391
▁선수단	-2392
▁현실	-2393
▁라이브	-2394
▁여전히	-2395
▁포르투갈	-2396
▁유엔	-2397
▁보고	-2398
▁붕괴	-2399
ra	-2400
▁등급	-2401
▁시킨	-2402
▁계급	-2403
▁모리	-2404
▁전역	-2405
▁뒷	-2406
▁킹	-2407
▁루이	-2408
▁그해	-2409
▁양성	-2410
▁범위	-2411
▁w	-2412
▁대수	-2413
▁41	-2414
▁갖추	-2415
▁령	-2416
▁흰	-2417
▁숲	-2418
▁원칙	-2419
▁재직	-2420
마크	-2421
▁51	-2422
▁강제	-2423
▁조치	-2424
▁공공	-2425
▁엔터	-2426
▁적극	-2427
▁꼬리	-2428
▁성질	-2429
▁위협	-2430
▁봄	-2431
▁수입	-2432
▁오리	-2433
▁충청남도	-2434
▁동료	-2435
▁1986	-2436
▁공주	-2437
▁군주	-2438
▁임무	-2439
▁인하	-2440
▁온도	-2441
▁이미지	-2442
▁전선	-2443
▁불린다	-2444
▁답	-2445
▁짐	-2446
▁논문	-2447
▁영화배우	-2448
▁스튜디오	-2449
▁토론	-2450
▁1984	-2451
▁대대	-2452
▁그려	-2453
▁업체	-2454
▁캘리포	-2455
▁위원장	-2456
▁승인	-2457
▁공업	-2458
▁클라	-2459
▁대학원	-2460
▁양자	-2461
▁구축	-2462
▁상하	-2463
▁거래	-2464
▁불러	-2465
▁미치	-2466
▁위성	-2467
▁꿈	-2468
▁고구	-2469
▁수립	-2470
▁교사	-2471
▁출발	-2472
▁회복	-2473
▁잭	-2474
▁그래서	-2475
▁점차	-2476
▁수단	-2477
▁킬	-2478
▁섭	-2479
▁확보	-2480
▁성인	-2481
▁항상	-2482
테르	-2483
▁다섯	-2484
▁신화	-2485
▁핀란드	-2486
▁역대	-2487
▁둥	-2488
▁필리핀	-2489
▁캘리포니아	-2490
▁공산당	-2491
▁후지	-2492
▁드래	-2493
▁아시안	-2494
▁증거	-2495
▁채택	-2496
▁스타일	-2497
ch	-2498
▁장비	-2499
▁규칙	-2500
마스	-2501
▁의료	-2502
▁강의	-2503
▁잡지	-2504
▁전하	-2505
바이	-2506
ur	-2507
▁시인	-2508
▁남아	-2509
▁첨	-2510
주교	-2511
▁합의	-2512
고리	-2513
▁39	-2514
▁됨	-2515
▁폭발	-2516
▁라며	-2517
▁기대	-2518
▁스파	-2519
▁나카	-2520
▁에피	-2521
▁만족	-2522
▁이스라	-2523
▁부근	-2524
▁얼굴	-2525
▁흘	-2526
▁모스크	-2527
▁개편	-2528
▁욕	-2529
▁스위스	-2530
▁선생	-2531
▁아라	-2532
▁냈	-2533
▁남편	-2534
▁진화	-2535
▁400	-2536
▁일원	-2537
▁매년	-2538
▁이승	-2539
▁불가	-2540
▁장면	-2541
▁경향	-2542
▁기지	-2543
▁대기	-2544
로드	-2545
▁1985	-2546
▁이스라엘	-2547
▁64	-2548
▁군단	-2549
▁대형	-2550
▁II	-2551
▁토지	-2552
▁가사	-2553
▁해체	-2554
▁통계	-2555
▁끊	-2556
▁분자	-2557
▁스리	-2558
▁아나	-2559
▁강점	-2560
▁아름	-2561
▁태풍	-2562
▁붉	-2563
▁아메리카	-2564
▁게이	-2565
▁종이	-2566
▁간주	-2567
▁롭	-2568
▁아주	-2569
데미	-2570
ut	-2571
▁종종	-2572
▁경주	-2573
▁캄	-2574
▁기억	-2575
▁띠	-2576
▁귀국	-2577
백질	-2578
▁튀	-2579
▁서양	-2580
우드	-2581
▁조합	-2582
▁낭	-2583
▁항성	-2584
리스트	-2585
키아	-2586
레이드	-2587
▁알리	-2588
▁아랍	-2589
▁라면	-2590
▁수원	-2591
▁성과	-2592
▁의학	-2593
▁불렀	-2594
▁버리	-2595
▁이제	-2596
고기	-2597
▁청소년	-2598
▁감정	-2599
▁확실	-2600
▁i	-2601
▁폼	-2602
▁스피	-2603
▁사항	-2604
▁클래	-2605
▁좀	-2606
▁초반	-2607
▁에게서	-2608
▁맛	-2609
▁보장	-2610
▁레코드	-2611
▁향상	-2612
▁대장	-2613
▁43	-2614
▁삼국	-2615
um	-2616
▁해도	-2617
▁열렸	-2618
▁투어	-2619
▁그곳	-2620
▁탑재	-2621
▁침공	-2622
▁장식	-2623
▁일어났	-2624
▁고양	-2625
▁어떻	-2626
▁아카데미	-2627
▁소년	-2628
▁융	-2629
▁LG	-2630
▁카메	-2631
▁자금	-2632
▁세우	-2633
오프	-2634
▁메이저	-2635
▁랭	-2636
▁나폴	-2637
▁가로	-2638
▁청나라	-2639
오스	-2640
▁평양	-2641
▁켄	-2642
▁불과	-2643
어들	-2644
▁고구려	-2645
▁선고	-2646
보드	-2647
요시	-2648
▁42	-2649
▁나치	-2650
▁남동	-2651
▁중화민국	-2652
▁신앙	-2653
▁떨어져	-2654
▁대립	-2655
▁보병	-2656
▁단백질	-2657
▁줄거리	-2658
ir	-2659
ver	-2660
▁전설	-2661
라노	-2662
▁라틴	-2663
▁우선	-2664
▁독자	-2665
▁잠시	-2666
▁확정	-2667
네스	-2668
▁세운	-2669
▁숭	-2670
일러	-2671
타인	-2672
▁고문	-2673
▁br	-2674
▁아야	-2675
▁만주	-2676
▁단지	-2677
틀랜드	-2678
▁빠르	-2679
▁박쥐	-2680
▁55	-2681
▁선거구	-2682
▁모르	-2683
▁1982	-2684
▁스케	-2685
▁신설	-2686
▁살해	-2687
운동	-2688
▁카운티	-2689
소드	-2690
▁차별	-2691
네시아	-2692
▁지시	-2693
▁스카	-2694
▁우수	-2695
▁복잡	-2696
▁이끄	-2697
▁구체	-2698
▁판결	-2699
▁철도역	-2700
▁의장	-2701
▁탄생	-2702
▁삭	-2703
▁의해서	-2704
▁육상	-2705
에르	-2706
▁비율	-2707
▁전화	-2708
▁검찰	-2709
▁예상	-2710
▁창설	-2711
▁성당	-2712
▁함대	-2713
▁갖춘	-2714
im	-2715
▁광역시	-2716
다이	-2717
▁온라인	-2718
FC	-2719
▁편입	-2720
▁브랜드	-2721
▁법인	-2722
▁왕위	-2723
▁재단	-2724
▁44	-2725
▁알려졌	-2726
▁마크	-2727
▁솔로	-2728
▁덴마크	-2729
트라	-2730
▁냐	-2731
누스	-2732
▁수출	-2733
▁저서	-2734
▁1983	-2735
▁브리	-2736
▁뛰어난	-2737
▁공유	-2738
▁동의	-2739
하라	-2740
▁고향	-2741
이크	-2742
▁유학	-2743
▁세종	-2744
▁강점기	-2745
▁보급	-2746
▁텐	-2747
의회	-2748
▁반도	-2749
▁아파	-2750
▁쓰인다	-2751
▁시킬	-2752
▁나와	-2753
▁47	-2754
▁나뉘	-2755
▁태어난	-2756
▁통한	-2757
싱턴	-2758
▁참석	-2759
셔널	-2760
▁노예	-2761
▁핵심	-2762
▁전후	-2763
▁집행	-2764
▁하늘	-2765
▁Z	-2766
▁마드리	-2767
CA	-2768
▁암살	-2769
▁애플	-2770
▁고정	-2771
▁협상	-2772
ay	-2773
반도	-2774
없이	-2775
▁이루어지	-2776
▁마드리드	-2777
▁사전	-2778
▁뿌	-2779
▁법칙	-2780
▁보안	-2781
▁본격	-2782
▁후손	-2783
▁저장	-2784
룬다	-2785
▁롯	-2786
▁했었	-2787
▁회전	-2788
▁이성	-2789
비드	-2790
▁중반	-2791
▁사우	-2792
▁올렸	-2793
▁의무	-2794
▁권한	-2795
▁헤이	-2796
▁오픈	-2797
▁아르헨	-2798
▁플랫	-2799
▁댄	-2800
▁논리	-2801
▁주교	-2802
▁대비	-2803
▁관료	-2804
▁자세	-2805
▁카를	-2806
퍼스	-2807
▁184	-2808
▁75	-2809
각형	-2810
▁전용	-2811
▁산맥	-2812
▁대항	-2813
레이션	-2814
▁숫	-2815
▁순서	-2816
▁연고	-2817
▁180	-2818
▁태어나	-2819
▁이익	-2820
▁전혀	-2821
▁상품	-2822
▁옷	-2823
▁하위	-2824
▁v	-2825
▁앞두	-2826
▁베를	-2827
▁공학	-2828
▁중세	-2829
▁유적	-2830
▁베이스	-2831
▁1972	-2832
▁아르헨티나	-2833
▁지키	-2834
▁플레이오프	-2835
문화	-2836
▁시킨다	-2837
▁단일	-2838
▁시각	-2839
▁어린이	-2840
원군	-2841
▁갈등	-2842
▁공기	-2843
▁직원	-2844
▁인상	-2845
▁로버트	-2846
▁에피소드	-2847
▁말기	-2848
▁1920	-2849
▁아스	-2850
▁켈	-2851
터리	-2852
▁46	-2853
▁프란	-2854
▁의도	-2855
▁CD	-2856
▁조금	-2857
▁에선	-2858
▁보조	-2859
▁스크	-2860
▁중심지	-2861
▁운전	-2862
▁창조	-2863
▁묻	-2864
▁공포	-2865
▁잘못	-2866
▁협정	-2867
▁아미	-2868
▁흔히	-2869
▁바라	-2870
▁변호사	-2871
▁인권	-2872
▁공무원	-2873
▁요한	-2874
▁원리	-2875
▁워싱턴	-2876
▁효소	-2877
▁비난	-2878
▁수여	-2879
▁성경	-2880
▁글로	-2881
▁원주	-2882
▁1979	-2883
▁하드	-2884
리어	-2885
해졌	-2886
▁별도	-2887
▁레드	-2888
▁셋	-2889
▁정복	-2890
▁덮	-2891
▁In	-2892
퍼드	-2893
▁물러	-2894
▁전라북도	-2895
▁작곡가	-2896
▁넘어	-2897
▁투입	-2898
▁1930	-2899
▁엠	-2900
정부	-2901
▁교류	-2902
▁파크	-2903
▁오히	-2904
▁우크	-2905
▁장착	-2906
▁소식	-2907
▁저지	-2908
▁벡	-2909
▁논쟁	-2910
▁플라	-2911
▁방면	-2912
▁앞서	-2913
▁kg	-2914
무라	-2915
▁본인	-2916
▁현장	-2917
사키	-2918
▁빙	-2919
▁건국	-2920
▁공화	-2921
▁논의	-2922
▁심각	-2923
▁어떻게	-2924
▁원작	-2925
▁호텔	-2926
▁항복	-2927
▁1981	-2928
▁1973	-2929
▁150	-2930
▁공산주의	-2931
▁강하	-2932
10	-2933
▁아침	-2934
▁훨	-2935
▁돌아가	-2936
▁택	-2937
▁중부	-2938
▁교토	-2939
os	-2940
▁출마	-2941
▁멘	-2942
▁건조	-2943
▁마이클	-2944
▁오랜	-2945
▁헨리	-2946
▁인류	-2947
▁금메달	-2948
▁노스	-2949
▁유전자	-2950
▁운용	-2951
▁무리	-2952
▁요새	-2953
▁사태	-2954
▁투쟁	-2955
▁세인트	-2956
▁훨씬	-2957
▁코미	-2958
다가	-2959
▁에어	-2960
▁오토	-2961
▁창립	-2962
▁니콜	-2963
▁연합군	-2964
▁합성	-2965
▁짜	-2966
▁연산	-2967
▁코스	-2968
▁로드	-2969
▁오른쪽	-2970
▁김정	-2971
▁멸망	-2972
▁예산	-2973
▁인가	-2974
▁추측	-2975
▁절대	-2976
▁플레이어	-2977
▁산하	-2978
▁금속	-2979
▁방출	-2980
▁태국	-2981
▁낸	-2982
▁1940	-2983
▁라도	-2984
▁릴	-2985
▁한때	-2986
▁인정받	-2987
30	-2988
▁인공	-2989
ter	-2990
▁서기	-2991
▁왼쪽	-2992
em	-2993
▁메시	-2994
▁노르웨이	-2995
▁모스크바	-2996
▁구별	-2997
▁찍	-2998
▁갤	-2999
▁복합	-3000
▁북서	-3001
▁형사	-3002
▁베이징	-3003
▁1974	-3004
BO	-3005
일보	-3006
▁주위	-3007
▁미니	-3008
▁트랙	-3009
▁사령관	-3010
▁스코틀랜드	-3011
▁효율	-3012
▁일으키	-3013
▁해양	-3014
▁탁	-3015
▁각본	-3016
▁제자	-3017
시스	-3018
▁오히려	-3019
▁반복	-3020
▁185	-3021
▁인종	-3022
카와	-3023
▁파라	-3024
▁오전	-3025
▁전철	-3026
▁블루	-3027
▁연관	-3028
▁정비	-3029
▁사법	-3030
▁입자	-3031
▁열리	-3032
▁제출	-3033
▁해상	-3034
▁진다	-3035
젤레스	-3036
▁출장	-3037
▁뽑	-3038
▁읍	-3039
▁노부	-3040
▁숫자	-3041
▁집안	-3042
▁주기	-3043
▁마침	-3044
▁내렸	-3045
▁신체	-3046
▁베를린	-3047
▁군수	-3048
▁보험	-3049
▁SBS	-3050
▁웨스트	-3051
▁슬로	-3052
▁분쟁	-3053
▁54	-3054
▁인터뷰	-3055
▁하나님	-3056
▁중대	-3057
머스	-3058
▁목사	-3059
▁포위	-3060
▁인조	-3061
나이티	-3062
▁흡수	-3063
듀서	-3064
▁프로듀서	-3065
▁축제	-3066
▁유나이티	-3067
▁디스	-3068
▁1948	-3069
▁거절	-3070
▁이민	-3071
▁지니	-3072
▁그레	-3073
▁우스	-3074
▁수송	-3075
▁이어지	-3076
▁소방	-3077
▁이기	-3078
▁시점	-3079
▁불렸	-3080
▁구속	-3081
▁포기	-3082
▁지닌	-3083
▁자이	-3084
▁취급	-3085
▁소녀	-3086
▁1968	-3087
▁관점	-3088
▁활발	-3089
▁1976	-3090
▁북동	-3091
▁개시	-3092
▁아름다	-3093
▁명성	-3094
도르	-3095
▁생겨	-3096
▁건립	-3097
▁보스	-3098
▁전공	-3099
▁출입	-3100
▁고용	-3101
▁견해	-3102
다리	-3103
▁붙여	-3104
op	-3105
▁밖에	-3106
▁직업	-3107
▁사령부	-3108
▁진보	-3109
▁1975	-3110
▁경성	-3111
▁통해서	-3112
▁한국어	-3113
데스	-3114
▁응용	-3115
▁활성	-3116
▁히데	-3117
▁부활	-3118
▁머물	-3119
▁프라	-3120
▁들어갔	-3121
서트	-3122
▁국도	-3123
▁안타	-3124
▁내리	-3125
▁생기	-3126
▁주택	-3127
▁학습	-3128
▁성능	-3129
▁신성	-3130
▁불법	-3131
▁동원	-3132
▁장악	-3133
▁주전	-3134
▁어렵	-3135
▁농민	-3136
▁죽이	-3137
▁소스	-3138
▁영화제	-3139
▁취득	-3140
▁여부	-3141
▁속한다	-3142
▁자라	-3143
▁정체	-3144
▁음력	-3145
▁비록	-3146
▁일치	-3147
▁명명	-3148
▁56	-3149
▁직전	-3150
▁써	-3151
▁총독	-3152
ag	-3153
▁고유	-3154
▁보컬	-3155
▁유물	-3156
▁후원	-3157
쿠라	-3158
▁전부	-3159
▁폭력	-3160
▁1978	-3161
▁1971	-3162
▁52	-3163
▁포도	-3164
▁Q	-3165
▁국장	-3166
▁1963	-3167
▁미드	-3168
▁한자	-3169
리케	-3170
▁더라도	-3171
▁여객철도	-3172
▁대리	-3173
▁연료	-3174
▁혼란	-3175
에트	-3176
키스탄	-3177
▁천체	-3178
어스	-3179
▁항공기	-3180
▁문헌	-3181
▁선교	-3182
▁코미디	-3183
▁65	-3184
▁약속	-3185
▁편지	-3186
▁시리아	-3187
▁타이완	-3188
세이	-3189
▁49	-3190
▁그리스도	-3191
▁다운	-3192
▁닌	-3193
▁교차	-3194
▁해졌	-3195
▁브레	-3196
▁상당히	-3197
▁임금	-3198
산시	-3199
▁수술	-3200
▁랜	-3201
메리	-3202
▁주관	-3203
ce	-3204
자기	-3205
▁팝	-3206
▁도달	-3207
▁관직	-3208
▁북아	-3209
▁로스앤	-3210
▁로스앤젤레스	-3211
▁백제	-3212
▁제어	-3213
▁본사	-3214
릭스	-3215
기에	-3216
▁일대	-3217
▁미나	-3218
▁철수	-3219
▁반영	-3220
▁아테	-3221
▁화물	-3222
▁예비	-3223
▁수집	-3224
▁취하	-3225
▁상륙	-3226
▁넷	-3227
▁테러	-3228
▁무엇	-3229
▁1969	-3230
▁대화	-3231
▁도구	-3232
▁주간	-3233
▁스마	-3234
▁의존	-3235
노스	-3236
▁일으켰	-3237
▁영업	-3238
▁고종	-3239
▁교환	-3240
▁179	-3241
▁지낸	-3242
▁학술	-3243
▁다며	-3244
▁캠퍼스	-3245
▁콘서트	-3246
▁00	-3247
▁십자	-3248
▁계통	-3249
OS	-3250
▁장교	-3251
▁전파	-3252
▁그런데	-3253
▁프로세	-3254
▁항구	-3255
▁증상	-3256
▁아사	-3257
▁정지	-3258
▁해산	-3259
▁보관	-3260
▁데이비드	-3261
▁재료	-3262
▁롯데	-3263
▁학부	-3264
▁이른	-3265
▁정원	-3266
▁사운드	-3267
▁구성원	-3268
▁떠났	-3269
▁자살	-3270
▁53	-3271
▁..	-3272
라비아	-3273
▁전문가	-3274
▁모드	-3275
▁프리미	-3276
▁톰	-3277
▁상승	-3278
▁연재	-3279
▁하우스	-3280
▁개체	-3281
▁주식회사	-3282
▁코로나	-3283
▁스미	-3284
▁1946	-3285
▁부임	-3286
▁간단	-3287
▁영향력	-3288
▁방사	-3289
▁백작	-3290
▁SK	-3291
▁판서	-3292
▁좁	-3293
▁김영	-3294
▁박정	-3295
▁핑	-3296
공항	-3297
▁살인	-3298
▁반발	-3299
▁허가	-3300
oc	-3301
▁거기	-3302
▁발언	-3303
▁로운	-3304
▁영입	-3305
프리	-3306
▁공통	-3307
준다	-3308
▁빠른	-3309
▁진입	-3310
▁리스	-3311
▁헤르	-3312
▁에도	-3313
▁질병	-3314
▁기도	-3315
▁불상	-3316
▁망명	-3317
▁알아	-3318
▁제일	-3319
▁위반	-3320
이어	-3321
▁사유	-3322
▁접하	-3323
▁쳐	-3324
▁파트	-3325
▁1964	-3326
▁신분	-3327
병대	-3328
▁외국인	-3329
▁락	-3330
▁99	-3331
▁니시	-3332
▁브루	-3333
미터	-3334
▁절차	-3335
▁화성	-3336
▁베스트	-3337
▁셔	-3338
▁보건	-3339
▁한반도	-3340
▁리더	-3341
▁US	-3342
▁시호	-3343
▁자녀	-3344
▁참전	-3345
▁감사	-3346
▁인도네시아	-3347
▁사장	-3348
▁저작	-3349
▁학원	-3350
▁렀	-3351
▁벨기에	-3352
ri	-3353
▁모여	-3354
▁미터	-3355
▁대략	-3356
▁서버	-3357
▁포트	-3358
▁변형	-3359
▁고리	-3360
▁갈라	-3361
▁소비에트	-3362
▁탈락	-3363
▁고도	-3364
▁변환	-3365
▁창단	-3366
▁꼭	-3367
▁시카	-3368
▁충청북도	-3369
▁페이	-3370
▁횡	-3371
▁조작	-3372
▁진압	-3373
▁트랜	-3374
▁58	-3375
▁폴리	-3376
▁피아노	-3377
▁스토	-3378
▁승진	-3379
▁당한	-3380
▁탈출	-3381
▁마케	-3382
▁통상	-3383
▁가을	-3384
▁1000	-3385
▁부장	-3386
하마	-3387
정식	-3388
▁픽	-3389
▁PC	-3390
▁학회	-3391
▁and	-3392
▁벼	-3393
▁스프	-3394
▁도망	-3395
▁채용	-3396
▁국제공항	-3397
▁복무	-3398
▁루이스	-3399
▁식품	-3400
▁임대	-3401
▁청구	-3402
▁요인	-3403
▁주년	-3404
▁현역	-3405
▁닥	-3406
▁신청	-3407
▁말레이	-3408
▁콤	-3409
▁공동체	-3410
▁다스	-3411
▁문장	-3412
▁모아	-3413
▁지붕	-3414
▁분열	-3415
▁요코	-3416
▁작사	-3417
▁기하	-3418
▁이중	-3419
▁라이트	-3420
▁동남	-3421
▁방송국	-3422
▁쫓	-3423
▁생태	-3424
▁장수	-3425
▁트라	-3426
▁스러운	-3427
저우	-3428
ation	-3429
▁합격	-3430
▁기호	-3431
▁1977	-3432
▁큐	-3433
▁연출	-3434
▁조절	-3435
▁트로	-3436
▁예측	-3437
▁탄소	-3438
▁FA	-3439
▁화면	-3440
▁민법	-3441
▁수영	-3442
▁포로	-3443
▁학과	-3444
아버지	-3445
▁1949	-3446
▁선보	-3447
천군	-3448
▁임의	-3449
▁신인	-3450
igh	-3451
▁지급	-3452
로그	-3453
▁엑스	-3454
▁친일	-3455
▁젠	-3456
▁막부	-3457
▁국무	-3458
▁흐르	-3459
크스	-3460
▁부부	-3461
카이도	-3462
▁기법	-3463
▁특이	-3464
▁위상	-3465
▁이치	-3466
▁생긴	-3467
▁장르	-3468
▁취소	-3469
▁카메라	-3470
▁88	-3471
▁누구	-3472
▁빠져	-3473
▁오페	-3474
▁동작	-3475
▁상원	-3476
▁메모리	-3477
▁이뤄	-3478
▁앵	-3479
▁62	-3480
성군	-3481
▁레스	-3482
▁참고	-3483
▁1962	-3484
▁전동	-3485
▁서식지	-3486
▁수소	-3487
▁실수	-3488
▁출간	-3489
▁정기	-3490
▁황금	-3491
▁선전	-3492
▁광장	-3493
▁배출	-3494
▁수리	-3495
▁스토리	-3496
▁독립운동	-3497
드시	-3498
▁흉	-3499
▁샘	-3500
▁코파	-3501
문화재	-3502
▁레오	-3503
▁화재	-3504
타르	-3505
▁개조	-3506
▁생존	-3507
▁선조	-3508
▁먹이	-3509
▁처형	-3510
▁방지	-3511
▁1967	-3512
브리	-3513
▁남서	-3514
▁흑인	-3515
▁Ch	-3516
▁주둔	-3517
▁기체	-3518
▁이승만	-3519
▁스럽	-3520
▁어떠	-3521
▁는가	-3522
▁57	-3523
▁도전	-3524
▁보낸	-3525
▁왕자	-3526
▁연안	-3527
▁그라	-3528
▁현지	-3529
▁호수	-3530
▁로켓	-3531
▁메인	-3532
▁이시	-3533
▁롱	-3534
▁서구	-3535
▁일본군	-3536
▁임진	-3537
▁공정	-3538
▁오스만	-3539
▁콘스탄	-3540
에이	-3541
포르	-3542
▁경로	-3543
▁동성	-3544
▁서원	-3545
▁농구	-3546
▁루트	-3547
바라	-3548
▁입니다	-3549
▁희망	-3550
천시	-3551
▁달하	-3552
▁크리	-3553
▁고지	-3554
▁You	-3555
바르	-3556
▁히트	-3557
▁방정식	-3558
▁나갔	-3559
수록	-3560
▁천연	-3561
▁싸움	-3562
▁제대로	-3563
▁반드시	-3564
▁태어났으며	-3565
▁우려	-3566
▁등지	-3567
▁뿌리	-3568
▁의혹	-3569
▁여단	-3570
▁동기	-3571
▁성향	-3572
▁나타났	-3573
▁뜨	-3574
▁좌우	-3575
▁남겼	-3576
▁된다는	-3577
▁늦	-3578
인물	-3579
▁분명	-3580
▁여야	-3581
먼트	-3582
▁동아	-3583
▁무덤	-3584
▁전주	-3585
▁진주	-3586
비치	-3587
nd	-3588
▁맞이	-3589
▁노벨	-3590
▁터널	-3591
▁톱	-3592
▁그레이	-3593
▁181	-3594
▁타임	-3595
▁스탠	-3596
▁미국인	-3597
▁시드	-3598
▁압력	-3599
더스	-3600
▁전면	-3601
▁파악	-3602
▁둘째	-3603
▁삽	-3604
▁이온	-3605
▁한계	-3606
▁살아	-3607
▁목소리	-3608
▁내전	-3609
▁법정	-3610
▁전형	-3611
▁신뢰	-3612
▁엄청	-3613
▁코르	-3614
베스	-3615
▁유기	-3616
▁66	-3617
▁1966	-3618
▁끝나	-3619
▁꺾	-3620
라이언	-3621
▁독특	-3622
티브	-3623
▁녹색	-3624
▁치렀	-3625
▁r	-3626
▁에르	-3627
ST	-3628
▁개신	-3629
▁해리	-3630
▁처벌	-3631
▁범주	-3632
▁글자	-3633
▁비평	-3634
▁덧	-3635
▁물체	-3636
▁%,	-3637
▁유행	-3638
▁체코	-3639
▁홋	-3640
ON	-3641
▁68	-3642
▁아동	-3643
▁별명	-3644
▁아파트	-3645
▁람	-3646
▁복지	-3647
▁1965	-3648
▁분해	-3649
▁순환	-3650
▁매일	-3651
▁리처	-3652
▁61	-3653
▁부사	-3654
▁분할	-3655
▁이룬다	-3656
▁오프	-3657
방송	-3658
▁추구	-3659
▁방해	-3660
▁아프	-3661
▁KBO	-3662
▁모형	-3663
▁밥	-3664
▁퀸	-3665
▁평등	-3666
▁183	-3667
▁타격	-3668
▁치러	-3669
▁실질	-3670
▁집권	-3671
▁클레	-3672
▁구하	-3673
▁바둑	-3674
▁간행	-3675
▁움직임	-3676
치아	-3677
▁구현	-3678
▁알렉산드	-3679
▁나타난다	-3680
질랜드	-3681
▁화산	-3682
▁묶	-3683
이치	-3684
▁묵	-3685
▁뉴질랜드	-3686
▁캔	-3687
▁김일	-3688
▁마르크	-3689
▁웅	-3690
▁광복	-3691
▁한정	-3692
▁싸우	-3693
ER	-3694
▁부진	-3695
▁희생	-3696
르타	-3697
▁일찍	-3698
▁찰스	-3699
피스	-3700
▁풍부	-3701
▁뮤지	-3702
▁최다	-3703
▁첼	-3704
▁아리	-3705
art	-3706
유럽	-3707
▁나들	-3708
▁사립	-3709
▁플래	-3710
▁완료	-3711
▁가상	-3712
▁시조	-3713
텐츠	-3714
▁마시	-3715
▁빼앗	-3716
▁버렸	-3717
▁올려	-3718
▁끝난	-3719
▁일식	-3720
▁1961	-3721
▁벡터	-3722
디션	-3723
▁800	-3724
▁86	-3725
▁파르	-3726
▁마침내	-3727
▁사원	-3728
▁어도	-3729
▁테이	-3730
▁마법	-3731
▁물리학	-3732
▁대개	-3733
▁대법	-3734
▁션	-3735
▁손자	-3736
▁통산	-3737
▁사냥	-3738
▁근본	-3739
▁향해	-3740
▁악기	-3741
▁분위	-3742
▁의지	-3743
▁레인	-3744
▁전원	-3745
▁중기	-3746
▁점점	-3747
▁확산	-3748
▁호주	-3749
▁오페라	-3750
▁일본인	-3751
▁분기	-3752
▁600	-3753
▁120	-3754
투스	-3755
믹스	-3756
▁사형	-3757
▁출범	-3758
▁나들목	-3759
▁부하	-3760
ice	-3761
▁웨이	-3762
▁판사	-3763
▁향하	-3764
▁갈색	-3765
▁알파	-3766
▁프린	-3767
사자	-3768
est	-3769
▁카라	-3770
▁회담	-3771
▁쓸	-3772
▁창원	-3773
▁가시	-3774
▁영웅	-3775
▁유치	-3776
▁충격	-3777
▁IS	-3778
▁여론	-3779
▁완공	-3780
▁시카고	-3781
▁리가	-3782
▁기둥	-3783
▁달라	-3784
▁명확	-3785
▁개입	-3786
은행	-3787
▁교향	-3788
▁날개	-3789
▁저술	-3790
ia	-3791
▁훗	-3792
▁단독	-3793
▁제이	-3794
▁대공	-3795
▁무게	-3796
▁가나	-3797
▁맞추	-3798
▁사임	-3799
▁포인트	-3800
▁모토	-3801
라드	-3802
▁인접	-3803
▁발굴	-3804
▁훌	-3805
▁메리	-3806
▁악화	-3807
▁이자	-3808
▁적절	-3809
리히	-3810
▁인증	-3811
▁편찬	-3812
▁98	-3813
▁순간	-3814
▁조별	-3815
▁닛	-3816
▁사마	-3817
▁1919	-3818
▁홍보	-3819
▁으려	-3820
틀러	-3821
▁문명	-3822
다는	-3823
사스	-3824
▁상위	-3825
▁둘러싸	-3826
TV	-3827
▁무시	-3828
▁의심	-3829
▁났	-3830
▁뚜	-3831
▁조종	-3832
▁된다고	-3833
ap	-3834
▁re	-3835
▁도와	-3836
▁명나라	-3837
▁함락	-3838
▁탐사	-3839
AR	-3840
▁기기	-3841
▁등장인물	-3842
▁성분	-3843
▁당초	-3844
▁밝히	-3845
▁연간	-3846
▁도쿠	-3847
▁자극	-3848
▁징역	-3849
▁서명	-3850
▁순수	-3851
▁곽	-3852
▁접촉	-3853
▁득표	-3854
▁연구원	-3855
▁나뉜	-3856
▁나아가	-3857
▁각지	-3858
ak	-3859
▁그때	-3860
▁새롭	-3861
▁1944	-3862
▁느끼	-3863
▁추천	-3864
우리	-3865
▁임기	-3866
▁모임	-3867
▁사정	-3868
▁이닝	-3869
▁진정	-3870
▁드라이	-3871
▁구원	-3872
민주	-3873
▁입법	-3874
▁넓이	-3875
▁새겨	-3876
▁학살	-3877
버그	-3878
▁스마트	-3879
▁독일군	-3880
▁태도	-3881
▁올해	-3882
▁포항	-3883
▁63	-3884
▁행렬	-3885
라이나	-3886
▁95	-3887
일리	-3888
▁DNA	-3889
▁팽	-3890
연히	-3891
▁고속도로	-3892
▁링크	-3893
▁세르비아	-3894
▁변수	-3895
▁사실상	-3896
▁골든	-3897
▁1941	-3898
▁뱅	-3899
▁동서	-3900
▁흘러	-3901
▁개막	-3902
▁프리미어	-3903
▁네이	-3904
▁심사	-3905
▁아티	-3906
▁루스	-3907
▁실현	-3908
메이	-3909
▁74	-3910
▁정하	-3911
▁59	-3912
▁예전	-3913
▁등판	-3914
학생	-3915
▁자전	-3916
러리	-3917
시오	-3918
▁경전	-3919
▁꼽	-3920
▁재배	-3921
▁한국인	-3922
▁균형	-3923
▁공헌	-3924
ct	-3925
▁프로그래	-3926
▁혼합	-3927
▁바위	-3928
▁춤	-3929
▁시사	-3930
▁오랫	-3931
▁기온	-3932
▁보고서	-3933
▁백성	-3934
▁확률	-3935
▁Lo	-3936
무부	-3937
▁언제	-3938
▁수석	-3939
▁페르시아	-3940
▁공로	-3941
▁감시	-3942
▁튜	-3943
▁커뮤	-3944
▁닉	-3945
▁178	-3946
▁매장	-3947
▁방위	-3948
▁침략	-3949
▁개신교	-3950
ul	-3951
▁앤드	-3952
▁떨어지	-3953
▁대선	-3954
▁긍	-3955
숭이	-3956
▁출력	-3957
▁분위기	-3958
▁영지	-3959
▁훗날	-3960
▁IC	-3961
▁양쪽	-3962
▁흐름	-3963
▁급제	-3964
대부	-3965
▁오랫동안	-3966
코스	-3967
▁왕실	-3968
▁프라이	-3969
▁72	-3970
▁단편	-3971
▁무사	-3972
▁이라크	-3973
▁미쓰	-3974
▁안드로	-3975
▁띄	-3976
▁승부	-3977
▁대량	-3978
▁커뮤니	-3979
▁지형	-3980
▁특별시	-3981
▁추산	-3982
▁한다면	-3983
▁재건	-3984
▁텍사스	-3985
▁82	-3986
▁160	-3987
▁1947	-3988
▁랜드	-3989
이너	-3990
▁SS	-3991
▁1958	-3992
▁76	-3993
▁원형	-3994
▁그래픽	-3995
▁에드워드	-3996
▁줄기	-3997
▁합쳐	-3998
▁동해	-3999
▁권위	-4000
▁다케	-4001
▁뮤지컬	-4002
▁피터	-4003
▁미야	-4004
▁리처드	-4005
▁신부	-4006
▁안토	-4007
▁확립	-4008
▁내셔널	-4009
▁복원	-4010
▁점수	-4011
거운	-4012
▁1956	-4013
▁to	-4014
▁마무	-4015
▁여왕	-4016
▁동명	-4017
▁발발	-4018
▁저녁	-4019
▁아이돌	-4020
▁프랑크	-4021
▁시상	-4022
ie	-4023
▁석유	-4024
▁타자	-4025
▁가와	-4026
▁우라	-4027
▁멀리	-4028
▁에서부터	-4029
리노	-4030
▁일상	-4031
▁경남	-4032
▁제사	-4033
▁속한	-4034
▁승객	-4035
▁AFC	-4036
▁77	-4037
▁비상	-4038
▁파워	-4039
▁테스트	-4040
▁복수	-4041
▁입력	-4042
▁침입	-4043
▁브라운	-4044
▁리버	-4045
▁도요	-4046
▁;/	-4047
▁보물	-4048
▁복음	-4049
▁작위	-4050
▁데스	-4051
▁앉	-4052
▁교구	-4053
▁포켓	-4054
▁진단	-4055
▁수익	-4056
▁업적	-4057
▁과학자	-4058
▁개설	-4059
▁연예	-4060
▁1939	-4061
▁가설	-4062
메리칸	-4063
▁타워	-4064
▁Th	-4065
▁바깥	-4066
▁기소	-4067
▁안동	-4068
▁창작	-4069
▁혁신	-4070
▁더블	-4071
▁잠수	-4072
▁민중	-4073
▁정수	-4074
▁펼쳐	-4075
▁한글	-4076
▁받아들여	-4077
▁가공	-4078
▁67	-4079
▁섞	-4080
▁암호	-4081
레옹	-4082
레나	-4083
▁일시	-4084
▁본질	-4085
ud	-4086
일스	-4087
▁계층	-4088
▁힌	-4089
▁사자	-4090
▁정해	-4091
▁기울	-4092
▁지켜	-4093
▁밝혀졌	-4094
▁나폴레옹	-4095
▁당국	-4096
▁와이	-4097
og	-4098
▁어깨	-4099
▁폭탄	-4100
▁그렇게	-4101
▁자식	-4102
▁곱	-4103
▁소득	-4104
▁신고	-4105
에른	-4106
▁기에	-4107
▁시마	-4108
▁동양	-4109
IA	-4110
왜란	-4111
▁임진왜란	-4112
▁겹	-4113
▁평론	-4114
▁심지	-4115
이센	-4116
▁85	-4117
▁병합	-4118
▁축구단	-4119
▁쌀	-4120
ist	-4121
▁사제	-4122
▁대왕	-4123
▁움직이	-4124
▁벌였	-4125
▁공중	-4126
▁신자	-4127
▁어디	-4128
▁빌보드	-4129
▁발음	-4130
▁듯이	-4131
▁부지	-4132
▁주최	-4133
▁거듭	-4134
ly	-4135
▁빅토	-4136
▁후계	-4137
th	-4138
▁후속	-4139
마니아	-4140
▁력	-4141
레인	-4142
▁인쇄	-4143
▁폐쇄	-4144
▁훈장	-4145
▁턴	-4146
▁도모	-4147
▁깃	-4148
▁어려운	-4149
▁고통	-4150
▁가진다	-4151
▁자이언	-4152
▁가량	-4153
▁1954	-4154
▁가담	-4155
▁보상	-4156
▁노출	-4157
▁돌아왔	-4158
▁벗어나	-4159
▁국기	-4160
체스터	-4161
▁고기	-4162
▁구글	-4163
아티아	-4164
▁크로아티아	-4165
▁돕	-4166
▁산화	-4167
▁동방	-4168
▁총회	-4169
▁국정	-4170
▁평안	-4171
▁실력	-4172
ight	-4173
▁아름다운	-4174
▁대지	-4175
▁참모	-4176
BA	-4177
▁96	-4178
▁블라	-4179
▁생물학	-4180
▁73	-4181
▁라스	-4182
▁매체	-4183
▁1952	-4184
▁누르	-4185
▁Al	-4186
▁박정희	-4187
▁탱	-4188
▁비서	-4189
▁인용	-4190
▁전신	-4191
▁끝내	-4192
조합	-4193
▁아트	-4194
▁가이	-4195
▁세리	-4196
▁DV	-4197
▁결론	-4198
타이	-4199
▁뷰	-4200
▁오카	-4201
▁행복	-4202
▁도덕	-4203
▁포스트	-4204
▁다소	-4205
▁상관	-4206
▁무한	-4207
▁레알	-4208
▁아테네	-4209
▁께	-4210
▁교리	-4211
▁김대	-4212
▁로봇	-4213
▁타운	-4214
▁이혼	-4215
▁탈퇴	-4216
▁부담	-4217
▁역학	-4218
▁작동	-4219
▁조조	-4220
▁81	-4221
▁그만	-4222
▁예방	-4223
▁피해자	-4224
▁알바	-4225
▁수도원	-4226
▁바닥	-4227
마르	-4228
▁화이트	-4229
▁비례	-4230
하여	-4231
▁*	-4232
▁따로	-4233
▁심장	-4234
▁나타낸다	-4235
▁뤼	-4236
▁78	-4237
▁대성	-4238
▁보살	-4239
▁뮌	-4240
▁최후	-4241
▁인생	-4242
▁중력	-4243
▁수요	-4244
▁환승	-4245
▁절반	-4246
너스	-4247
▁스타디	-4248
▁바이에른	-4249
▁화합	-4250
▁지향	-4251
AS	-4252
▁덜	-4253
▁타이거	-4254
▁좋아	-4255
▁기상	-4256
▁재학	-4257
▁나뉜다	-4258
AT	-4259
▁규제	-4260
▁불만	-4261
▁화장	-4262
▁장남	-4263
▁김성	-4264
▁유한	-4265
▁포스	-4266
나가	-4267
▁센트	-4268
▁손상	-4269
터스	-4270
▁가까이	-4271
필더	-4272
▁심판	-4273
▁질환	-4274
▁총장	-4275
토스	-4276
▁미드필더	-4277
▁전투기	-4278
▁개방	-4279
▁유통	-4280
▁녀	-4281
▁지사	-4282
ess	-4283
▁메달	-4284
▁전남	-4285
▁천안	-4286
세포	-4287
▁액션	-4288
▁청주	-4289
▁하인	-4290
클리	-4291
▁아웃	-4292
▁국군	-4293
▁여섯	-4294
▁마무리	-4295
▁옮겼	-4296
▁사무소	-4297
▁91	-4298
▁약물	-4299
▁메시지	-4300
▁주력	-4301
▁피부	-4302
▁는다는	-4303
의정	-4304
▁패션	-4305
▁검토	-4306
▁골드	-4307
▁피하	-4308
▁71	-4309
▁벌이	-4310
▁연습	-4311
▁콘스탄티	-4312
▁긍정	-4313
▁보르	-4314
▁전직	-4315
▁1959	-4316
▁산소	-4317
▁모바	-4318
▁기리	-4319
▁빌딩	-4320
▁디아	-4321
▁선박	-4322
▁202	-4323
▁AT	-4324
▁이명	-4325
▁가마	-4326
▁황후	-4327
▁처분	-4328
▁햄	-4329
▁Li	-4330
▁상실	-4331
스트라	-4332
▁NH	-4333
▁백만	-4334
▁유산	-4335
▁혼인	-4336
▁결의	-4337
직자	-4338
▁통화	-4339
자치	-4340
▁당나라	-4341
▁사우스	-4342
▁신사	-4343
▁관여	-4344
▁호소	-4345
▁;,	-4346
▁글로벌	-4347
쿠스	-4348
▁세부	-4349
▁프로이센	-4350
▁인원	-4351
▁177	-4352
▁심지어	-4353
▁분노	-4354
▁가요	-4355
▁대책	-4356
▁소멸	-4357
▁윗	-4358
▁말레이시아	-4359
▁설득	-4360
▁엄청난	-4361
IV	-4362
가락	-4363
▁문신	-4364
▁오직	-4365
▁디스크	-4366
▁가슴	-4367
▁하원	-4368
▁승려	-4369
▁위대	-4370
▁이어졌	-4371
▁요금	-4372
▁1942	-4373
▁홋카이도	-4374
▁시나	-4375
▁쿠데	-4376
▁조지아	-4377
▁창당	-4378
▁위키	-4379
▁구매	-4380
▁왕비	-4381
▁두려	-4382
▁퀴	-4383
▁잭슨	-4384
▁김일성	-4385
▁상역	-4386
▁적합	-4387
ub	-4388
▁페이지	-4389
▁여겨진다	-4390
▁크루	-4391
드리히	-4392
리학	-4393
▁87	-4394
▁개성	-4395
▁선임	-4396
▁억제	-4397
▁부친	-4398
▁모바일	-4399
▁쾌	-4400
▁비치	-4401
▁AP	-4402
▁음악가	-4403
▁1943	-4404
미야	-4405
▁사격	-4406
▁일기	-4407
▁st	-4408
▁테크	-4409
▁불안	-4410
▁사도	-4411
▁일컫	-4412
▁야스	-4413
▁올라가	-4414
▁이른다	-4415
▁일본어	-4416
▁조카	-4417
▁나온다	-4418
▁싱가	-4419
▁주석	-4420
▁크로스	-4421
▁돌아와	-4422
▁1955	-4423
▁싱가포르	-4424
▁쿠데타	-4425
▁톨	-4426
▁진영	-4427
▁필드	-4428
▁맞서	-4429
▁좌상	-4430
▁프리드리히	-4431
▁전당	-4432
▁159	-4433
▁드래프트	-4434
▁프랭	-4435
▁어려움	-4436
▁일체	-4437
가니	-4438
▁700	-4439
▁조차	-4440
▁타인	-4441
▁알고리	-4442
▁무료	-4443
▁84	-4444
▁카스	-4445
▁1953	-4446
▁굳	-4447
▁웃	-4448
ab	-4449
▁원년	-4450
▁스타디움	-4451
▁주어진	-4452
▁발탁	-4453
▁상속	-4454
▁였을	-4455
▁닫	-4456
▁챔피언십	-4457
▁벌어진	-4458
미르	-4459
▁루마니아	-4460
▁힙	-4461
▁1936	-4462
▁부산광역시	-4463
▁세자	-4464
▁유고	-4465
해서	-4466
▁본명	-4467
▁천주교	-4468
▁테마	-4469
▁이와	-4470
▁본다	-4471
▁티베	-4472
▁김종	-4473
데이	-4474
▁Re	-4475
▁기동	-4476
▁폭격	-4477
▁즉시	-4478
▁왕후	-4479
▁토론토	-4480
아내	-4481
▁알고리즘	-4482
▁후쿠오카	-4483
유산	-4484
▁궁전	-4485
▁독재	-4486
▁여우	-4487
▁콘텐츠	-4488
▁막대	-4489
▁1910	-4490
▁깊이	-4491
▁사무실	-4492
▁누리	-4493
▁발명	-4494
▁연설	-4495
▁\	-4496
▁리드	-4497
▁용도	-4498
▁메이지	-4499
ine	-4500
▁딘	-4501
▁각국	-4502
▁전동차	-4503
▁부동	-4504
▁태조	-4505
▁대체로	-4506
슬러	-4507
▁97	-4508
▁딜	-4509
▁쓰여	-4510
▁사양	-4511
▁졌으며	-4512
▁정차	-4513
▁오이	-4514
▁검색	-4515
▁구입	-4516
▁전북	-4517
▁1900	-4518
▁음성	-4519
▁스티븐	-4520
▁학사	-4521
구리	-4522
▁유형문화재	-4523
▁원주민	-4524
▁히틀러	-4525
리나	-4526
오르	-4527
▁진격	-4528
원경	-4529
주군	-4530
▁휴대	-4531
▁느낌	-4532
▁추방	-4533
시스코	-4534
▁수호	-4535
▁주소	-4536
▁대우	-4537
▁사기	-4538
▁남아프리카	-4539
바로	-4540
▁1957	-4541
▁영양	-4542
▁속해	-4543
▁아메리칸	-4544
▁이즈	-4545
▁자국	-4546
▁전술	-4547
▁조상	-4548
ew	-4549
▁DVD	-4550
▁개칭	-4551
▁세트	-4552
▁초점	-4553
▁포켓몬	-4554
▁신장	-4555
래프트	-4556
▁강릉	-4557
제국	-4558
▁필수	-4559
베르트	-4560
▁동북	-4561
▁사과	-4562
▁최우	-4563
란색	-4564
머리	-4565
▁수업	-4566
▁불가리아	-4567
▁전송	-4568
▁광범	-4569
▁보여준다	-4570
▁코리아	-4571
▁스미스	-4572
▁이마	-4573
▁인디언	-4574
▁덩	-4575
ue	-4576
▁핫	-4577
▁늘어	-4578
▁69	-4579
▁급격	-4580
▁완벽	-4581
▁1914	-4582
▁92	-4583
▁미리	-4584
미니	-4585
▁게르	-4586
▁섹	-4587
▁클로	-4588
히로	-4589
▁넥	-4590
구치	-4591
독부	-4592
▁노트	-4593
▁게다가	-4594
▁개량	-4595
EC	-4596
▁원수	-4597
▁유효	-4598
▁바르셀	-4599
▁오키	-4600
▁바르셀로나	-4601
▁서술	-4602
리그	-4603
▁질문	-4604
▁똑	-4605
▁빚	-4606
▁펑	-4607
▁도마	-4608
▁자는	-4609
▁천만	-4610
로지	-4611
지사	-4612
▁WW	-4613
▁라이프	-4614
▁연락	-4615
▁늑	-4616
▁선형	-4617
▁고급	-4618
▁미술관	-4619
▁재즈	-4620
▁커버	-4621
▁림	-4622
▁신도	-4623
▁101	-4624
▁라틴어	-4625
드라	-4626
▁스탈	-4627
▁마르크스	-4628
▁랄	-4629
▁후임	-4630
▁핸	-4631
총리	-4632
▁와서	-4633
▁상인	-4634
▁렀다	-4635
▁소비자	-4636
▁1938	-4637
▁립	-4638
▁스프링	-4639
▁부위	-4640
▁이내	-4641
▁주니어	-4642
▁="	-4643
▁배포	-4644
▁달려	-4645
▁물건	-4646
▁랩	-4647
▁화려	-4648
▁고시	-4649
▁닥터	-4650
▁손실	-4651
▁저자	-4652
다란	-4653
▁01	-4654
▁운항	-4655
▁실천	-4656
▁주체	-4657
▁려면	-4658
▁밀려	-4659
산화	-4660
▁HD	-4661
▁료	-4662
▁언덕	-4663
▁윙	-4664
▁빌리	-4665
▁오가	-4666
자키	-4667
▁느냐	-4668
▁1918	-4669
▁모음	-4670
▁돌려	-4671
▁석사	-4672
▁블록	-4673
▁알레	-4674
▁마스터	-4675
▁사퇴	-4676
▁상주	-4677
▁소형	-4678
▁백인	-4679
▁시내버스	-4680
▁언스	-4681
▁화석	-4682
▁라우	-4683
▁의문	-4684
▁연평	-4685
▁고위	-4686
▁갑자기	-4687
▁내세	-4688
▁이념	-4689
▁일련	-4690
▁국적	-4691
▁암컷	-4692
▁웰	-4693
비히	-4694
▁추기	-4695
▁상수	-4696
▁자본주의	-4697
여금	-4698
▁방언	-4699
▁집회	-4700
▁대만	-4701
▁개별	-4702
▁만났	-4703
▁정교회	-4704
▁감각	-4705
▁반사	-4706
▁미스	-4707
BM	-4708
▁해발	-4709
민주당	-4710
펙트	-4711
▁풋	-4712
▁경비	-4713
▁올스타	-4714
▁당해	-4715
▁고객	-4716
친다	-4717
▁차단	-4718
▁매치	-4719
▁1951	-4720
▁발간	-4721
▁짝	-4722
▁영주	-4723
▁계곡	-4724
▁줄어들	-4725
▁분화	-4726
▁탄압	-4727
▁경제학	-4728
▁화폐	-4729
드레	-4730
▁조선총	-4731
▁선포	-4732
▁실업	-4733
필드	-4734
▁미시	-4735
▁거짓	-4736
▁조선총독부	-4737
▁on	-4738
▁생겼	-4739
▁노리	-4740
▁89	-4741
▁1937	-4742
▁1932	-4743
▁성남	-4744
▁용인	-4745
▁프랑스군	-4746
▁뮌헨	-4747
▁우크라	-4748
▁격파	-4749
▁합니다	-4750
▁받아들이	-4751
바키아	-4752
▁구상	-4753
▁당원	-4754
▁화제	-4755
▁재개	-4756
▁크라	-4757
▁다다	-4758
▁마틴	-4759
▁엘리자	-4760
▁이웃	-4761
▁항공사	-4762
▁후계자	-4763
▁93	-4764
▁변하	-4765
▁퀘	-4766
▁칭호	-4767
▁182	-4768
▁기부	-4769
▁이스트	-4770
▁진학	-4771
▁찬성	-4772
▁체험	-4773
▁시트	-4774
무늬	-4775
▁싱어	-4776
▁클리	-4777
▁회로	-4778
▁추기경	-4779
▁고양이	-4780
▁첩	-4781
어도	-4782
저스	-4783
▁옵	-4784
▁면역	-4785
▁1935	-4786
▁질서	-4787
▁수치	-4788
▁비행기	-4789
ect	-4790
▁곡선	-4791
▁비스	-4792
▁광범위	-4793
▁파티	-4794
▁흰색	-4795
▁사찰	-4796
▁항의	-4797
▁내놓	-4798
▁트레이드	-4799
▁공신	-4800
▁자산	-4801
▁접한다	-4802
▁Be	-4803
▁되돌	-4804
어로	-4805
▁덧붙	-4806
▁아티스트	-4807
▁겉	-4808
가시	-4809
▁증언	-4810
▁촉진	-4811
▁세월	-4812
▁클래식	-4813
▁꾸준	-4814
▁설치류	-4815
▁마루	-4816
사전	-4817
▁구멍	-4818
▁오버	-4819
동생	-4820
▁타율	-4821
▁로렌	-4822
▁소화	-4823
▁극단	-4824
▁개척	-4825
▁중추	-4826
▁가속	-4827
▁남기	-4828
▁법학	-4829
▁운송	-4830
▁히어로	-4831
▁반지	-4832
▁줄이	-4833
▁유배	-4834
▁습격	-4835
▁지수	-4836
▁보편	-4837
▁영원	-4838
▁쿨	-4839
▁쿼	-4840
▁남녀	-4841
하이	-4842
▁OS	-4843
▁전망	-4844
▁허락	-4845
▁분교	-4846
▁전적	-4847
런스	-4848
▁시모	-4849
ore	-4850
▁소위	-4851
▁수백	-4852
▁소문	-4853
▁양산	-4854
▁94	-4855
슈타인	-4856
▁축소	-4857
벤트	-4858
▁탕	-4859
▁마주	-4860
▁일으켜	-4861
▁탄핵	-4862
▁직무	-4863
▁대법원	-4864
다수	-4865
our	-4866
▁목성	-4867
▁물고기	-4868
▁아오	-4869
▁팩	-4870
센트	-4871
IN	-4872
추어	-4873
▁툴	-4874
▁쟁	-4875
ell	-4876
▁동화	-4877
▁잠수함	-4878
▁강남	-4879
▁힘들	-4880
▁거치	-4881
▁원시	-4882
리우스	-4883
▁약화	-4884
▁티베트	-4885
▁뼈	-4886
▁프랑스어	-4887
▁산지	-4888
▁1933	-4889
▁소집	-4890
▁CP	-4891
▁FM	-4892
▁대칭	-4893
▁베리	-4894
▁조항	-4895
▁충분히	-4896
▁그리하여	-4897
도사	-4898
▁밸	-4899
▁프로그래밍	-4900
▁끈	-4901
슬링	-4902
▁무용	-4903
▁수십	-4904
▁이른바	-4905
▁하여금	-4906
▁멀티	-4907
▁선호	-4908
▁익스	-4909
▁혼자	-4910
▁영구	-4911
▁군부	-4912
▁콜로	-4913
▁주일	-4914
▁돌아오	-4915
▁고교	-4916
▁정통	-4917
▁1928	-4918
프레	-4919
▁누스	-4920
닉스	-4921
▁정류	-4922
ers	-4923
▁칠레	-4924
▁쓰였	-4925
사이	-4926
▁간부	-4927
▁당신	-4928
▁이행	-4929
▁틴	-4930
공사	-4931
▁치르	-4932
▁개명	-4933
▁댄스	-4934
▁시신	-4935
▁국토	-4936
ID	-4937
▁으니	-4938
▁형상	-4939
▁경사	-4940
▁실내	-4941
▁틈	-4942
▁동경	-4943
▁발레	-4944
▁판정	-4945
▁돌아온	-4946
▁재능	-4947
▁펀	-4948
▁09	-4949
▁콜롬	-4950
▁자매	-4951
▁해제	-4952
▁손해	-4953
▁메트로	-4954
▁79	-4955
▁진실	-4956
▁브로	-4957
▁사이드	-4958
▁1924	-4959
▁부속	-4960
▁액체	-4961
▁지불	-4962
▁태종	-4963
▁04	-4964
▁토마스	-4965
▁자이언츠	-4966
▁사막	-4967
▁조기	-4968
▁토대	-4969
▁개장	-4970
▁멈	-4971
▁이재	-4972
▁110	-4973
▁단순히	-4974
과이	-4975
▁입대	-4976
▁이어진	-4977
▁지중	-4978
▁종사	-4979
end	-4980
▁토너	-4981
▁강전	-4982
▁합동	-4983
▁동인	-4984
▁원자력	-4985
▁이벤트	-4986
코프	-4987
▁열매	-4988
▁파키스탄	-4989
▁전제	-4990
▁정면	-4991
▁오류	-4992
▁08	-4993
▁쏘	-4994
브라	-4995
ill	-4996
▁늑대	-4997
페이스	-4998
▁구름	-4999
▁170	-5000
▁아마추어	-5001
▁김해	-5002
▁주문	-5003
▁지표	-5004
▁플로리	-5005
▁걸친	-5006
▁프로토	-5007
▁대승	-5008
▁분산	-5009
▁경고	-5010
▁코너	-5011
▁퓨	-5012
▁양국	-5013
▁유아	-5014
▁스카이	-5015
▁안티	-5016
▁러브	-5017
▁상대식	-5018
▁서방	-5019
▁무력	-5020
▁비잔	-5021
▁하와	-5022
▁가난	-5023
▁의정부	-5024
▁Co	-5025
▁놀이	-5026
▁동굴	-5027
▁토착	-5028
▁안토니	-5029
▁룸	-5030
▁성서	-5031
▁엄격	-5032
▁재생	-5033
▁회색	-5034
▁MS	-5035
▁장점	-5036
▁투스	-5037
▁베네치아	-5038
▁존스	-5039
▁로즈	-5040
▁총재	-5041
▁못한다	-5042
▁당대	-5043
▁보스턴	-5044
▁수컷	-5045
▁주어졌	-5046
▁법안	-5047
베리아	-5048
ain	-5049
▁자랑	-5050
▁스크린	-5051
▁밀리	-5052
▁배열	-5053
▁호흡	-5054
성기	-5055
▁초상	-5056
테스	-5057
▁중동	-5058
▁가깝	-5059
▁강도	-5060
▁들어오	-5061
▁뻗	-5062
▁오케	-5063
▁부서	-5064
▁우에	-5065
티스	-5066
▁행적	-5067
▁흔적	-5068
▁세로	-5069
▁일단	-5070
▁편의	-5071
AN	-5072
▁{	-5073
ard	-5074
▁봉기	-5075
▁스톤	-5076
▁평면	-5077
▁맨체스터	-5078
▁젤	-5079
공업	-5080
▁다큐	-5081
▁북미	-5082
▁인민군	-5083
▁83	-5084
야스	-5085
▁힙합	-5086
▁엉	-5087
조선	-5088
▁De	-5089
▁토너먼트	-5090
레오	-5091
▁동지	-5092
▁마저	-5093
▁아인	-5094
▁대가	-5095
▁요코하마	-5096
▁메탈	-5097
▁주재	-5098
▁행하	-5099
▁중계	-5100
▁판타	-5101
▁간다	-5102
▁메르	-5103
▁장로	-5104
▁빵	-5105
에도	-5106
▁레닌	-5107
▁재임	-5108
▁야당	-5109
▁강요	-5110
▁스케이	-5111
데르	-5112
▁경북	-5113
▁페리	-5114
▁세워졌	-5115
뜨리	-5116
▁추적	-5117
▁대원	-5118
▁쿠바	-5119
▁선로	-5120
▁대사관	-5121
▁드물	-5122
▁혈액	-5123
▁뱀	-5124
▁철거	-5125
▁1934	-5126
▁나이트	-5127
▁개찰	-5128
▁마감	-5129
▁국방부	-5130
▁포드	-5131
▁한성	-5132
즈니	-5133
▁근육	-5134
▁탓	-5135
▁구사	-5136
▁안쪽	-5137
▁벼슬	-5138
▁주자	-5139
▁카리	-5140
제르	-5141
▁나섰	-5142
▁중지	-5143
▁풍속	-5144
▁농장	-5145
▁장례	-5146
▁발전소	-5147
▁리아	-5148
▁입구	-5149
▁코어	-5150
▁르네	-5151
▁해설	-5152
▁관계자	-5153
▁할아버지	-5154
세대	-5155
키퍼	-5156
▁글리	-5157
▁페이스	-5158
▁동구	-5159
▁본토	-5160
▁함경	-5161
▁경찰서	-5162
▁골키퍼	-5163
아르	-5164
▁스탈린	-5165
▁놓여	-5166
베르크	-5167
▁안내	-5168
▁화합물	-5169
위대	-5170
▁접속	-5171
▁농촌	-5172
▁도쿠가와	-5173
▁현존	-5174
▁노동당	-5175
▁아프가니	-5176
▁킨	-5177
▁꾼	-5178
▁닐	-5179
유키	-5180
▁관객	-5181
▁철학자	-5182
▁시계	-5183
▁심리학	-5184
▁광산	-5185
▁역전	-5186
고속	-5187
크래프트	-5188
▁리스트	-5189
▁구로	-5190
▁증권	-5191
▁사망자	-5192
▁오염	-5193
▁거점	-5194
▁거느	-5195
▁곤충	-5196
▁얀	-5197
▁선물	-5198
▁130	-5199
ne	-5200
▁Me	-5201
▁항해	-5202
▁모노	-5203
▁식량	-5204
▁복사	-5205
▁대동	-5206
▁레지	-5207
▁정확히	-5208
▁정조	-5209
▁조문	-5210
▁모자	-5211
▁부작	-5212
▁토머스	-5213
무르	-5214
▁사카	-5215
▁유키	-5216
▁남극	-5217
▁계수	-5218
▁부호	-5219
▁재판소	-5220
▁동메달	-5221
▁부처	-5222
▁폭풍	-5223
▁독점	-5224
▁나선	-5225
▁Sh	-5226
▁종전	-5227
▁필립	-5228
▁합리	-5229
▁140	-5230
▁그러므로	-5231
▁훼	-5232
▁그리스어	-5233
▁이정	-5234
▁문재	-5235
▁중성	-5236
▁테르	-5237
▁알렉산더	-5238
▁비중	-5239
▁대다수	-5240
우치	-5241
▁대결	-5242
▁초청	-5243
▁돔	-5244
▁세금	-5245
▁아프가니스탄	-5246
▁김구	-5247
레이크	-5248
▁휘하	-5249
▁은메달	-5250
사르	-5251
▁히로시마	-5252
▁특별히	-5253
▁클래스	-5254
▁윤리	-5255
▁WWE	-5256
▁펄	-5257
OR	-5258
▁유대인	-5259
▁새끼	-5260
▁칼리지	-5261
▁아과	-5262
▁석방	-5263
▁교향곡	-5264
▁필라	-5265
▁자유주의	-5266
돌프	-5267
▁로맨	-5268
▁멸종	-5269
▁박근	-5270
▁원조	-5271
▁매주	-5272
▁파울	-5273
▁체육관	-5274
▁새벽	-5275
▁대한제국	-5276
▁ST	-5277
▁부품	-5278
▁이어서	-5279
AM	-5280
▁진동	-5281
▁th	-5282
▁타카	-5283
▁성명	-5284
▁훌륭	-5285
▁위안	-5286
▁지질	-5287
▁아비	-5288
▁유력	-5289
▁그래프	-5290
베리	-5291
안군	-5292
▁미카	-5293
힌다	-5294
all	-5295
▁1931	-5296
▁마그	-5297
▁펼쳤	-5298
▁봉해졌	-5299
▁아이스	-5300
▁간격	-5301
▁아틀	-5302
▁캠프	-5303
▁일곱	-5304
클린	-5305
▁금강	-5306
▁캡	-5307
사관	-5308
▁트랜스	-5309
나르	-5310
느님	-5311
▁감옥	-5312
▁부드	-5313
▁타점	-5314
▁기생	-5315
▁타원	-5316
▁존슨	-5317
▁하느님	-5318
▁꺼	-5319
▁강등	-5320
▁문법	-5321
▁코트	-5322
▁기병	-5323
▁뚜렷	-5324
ang	-5325
▁스트라이	-5326
▁An	-5327
▁연호	-5328
▁명시	-5329
▁첫째	-5330
▁특허	-5331
▁대변	-5332
▁사신	-5333
▁공세	-5334
▁전한	-5335
▁후퇴	-5336
▁인터페이스	-5337
▁지칭	-5338
여서	-5339
▁좌파	-5340
▁해협	-5341
▁250	-5342
▁놀라	-5343
▁도메	-5344
▁네이션	-5345
▁지휘관	-5346
▁버지	-5347
▁비즈	-5348
▁교도	-5349
▁단장	-5350
▁평론가	-5351
▁집필	-5352
▁커다란	-5353
▁공룡	-5354
▁1921	-5355
▁극복	-5356
▁목포	-5357
▁유발	-5358
▁고고	-5359
▁스테이션	-5360
▁가구	-5361
▁사관	-5362
게이	-5363
▁cod	-5364
▁무늬	-5365
▁소요	-5366
▁킬로	-5367
▁176	-5368
▁구리	-5369
▁크레	-5370
▁갤럭	-5371
▁덕분	-5372
▁동반	-5373
▁수반	-5374
▁닮	-5375
생활	-5376
▁키스	-5377
▁목숨	-5378
▁박스	-5379
▁김대중	-5380
▁매니	-5381
▁배웠	-5382
시스트	-5383
▁동성애	-5384
▁협약	-5385
밀리	-5386
▁빗	-5387
▁칙	-5388
▁조화	-5389
▁05	-5390
▁1929	-5391
ss	-5392
산물	-5393
▁숙종	-5394
▁타입	-5395
▁하버	-5396
▁삼각	-5397
▁약탈	-5398
둥이	-5399
▁일환	-5400
▁물려	-5401
마이	-5402
▁틱	-5403
▁건담	-5404
▁착용	-5405
▁수비수	-5406
▁바이올	-5407
널드	-5408
▁미분	-5409
▁잠재	-5410
▁원장	-5411
▁입사	-5412
▁성씨	-5413
▁드리	-5414
▁라트	-5415
▁지부	-5416
▁샤를	-5417
▁갤럭시	-5418
▁de	-5419
▁연계	-5420
▁의석	-5421
▁y	-5422
▁험	-5423
▁영혼	-5424
▁곰	-5425
미아	-5426
▁AC	-5427
▁고서	-5428
▁연상	-5429
▁운동가	-5430
▁비하	-5431
▁롬	-5432
▁발렌	-5433
▁근로	-5434
▁설비	-5435
▁데리	-5436
▁중립	-5437
수량	-5438
▁발휘	-5439
베이스	-5440
▁1923	-5441
▁램	-5442
▁쯤	-5443
▁기갑	-5444
▁섬유	-5445
▁이수	-5446
▁는다고	-5447
▁경유	-5448
▁공국	-5449
▁비틀	-5450
▁플로리다	-5451
▁07	-5452
▁빠지	-5453
▁1925	-5454
▁임신	-5455
▁망원경	-5456
페인	-5457
ity	-5458
▁서적	-5459
▁그럼	-5460
▁도호	-5461
▁압축	-5462
▁불화	-5463
투아	-5464
키스	-5465
▁과일	-5466
▁추락	-5467
▁웨일스	-5468
▁성직자	-5469
▁안드로이드	-5470
▁모험	-5471
▁어두	-5472
▁영감	-5473
타카	-5474
▁살아남	-5475
▁첸	-5476
▁다이묘	-5477
▁SC	-5478
▁레벨	-5479
▁진흥	-5480
▁박근혜	-5481
▁트레이	-5482
▁딱	-5483
▁모로	-5484
▁요원	-5485
▁남아메리카	-5486
▁변신	-5487
▁유가	-5488
니즘	-5489
▁라이온	-5490
▁선교사	-5491
▁캘리포니아주	-5492
▁연평균	-5493
▁고분	-5494
▁삭제	-5495
▁우드	-5496
▁채권	-5497
▁갱	-5498
▁장갑	-5499
▁관리자	-5500
▁지역구	-5501
▁디오	-5502
일본	-5503
▁가끔	-5504
▁제약	-5505
▁번지	-5506
▁영광	-5507
▁민속	-5508
▁악장	-5509
무게	-5510
▁몸무게	-5511
▁북서쪽	-5512
▁유비	-5513
▁유성	-5514
▁프로세서	-5515
▁어원	-5516
▁똑같	-5517
▁페루	-5518
▁소설가	-5519
카스	-5520
▁진술	-5521
▁교과	-5522
▁수직	-5523
▁추대	-5524
▁시게	-5525
▁드러나	-5526
▁죠	-5527
▁무너	-5528
▁161	-5529
▁그랜드	-5530
▁변동	-5531
▁하와이	-5532
ff	-5533
▁일자	-5534
▁EP	-5535
▁돌파	-5536
▁명사	-5537
▁수명	-5538
대문	-5539
▁필름	-5540
up	-5541
▁음모	-5542
▁복구	-5543
▁카자	-5544
▁주류	-5545
▁압도	-5546
▁어워드	-5547
프란	-5548
▁기관차	-5549
▁사당	-5550
▁저널	-5551
▁프레임	-5552
▁파트너	-5553
▁결심	-5554
▁수상자	-5555
▁빅토리아	-5556
▁북극	-5557
▁중시	-5558
▁청동	-5559
▁돌아갔	-5560
행성	-5561
▁서인	-5562
▁철저	-5563
▁파생	-5564
▁단선	-5565
▁이조	-5566
▁레이블	-5567
▁수장	-5568
▁엽	-5569
▁KT	-5570
보이	-5571
▁쇠퇴	-5572
▁삼각형	-5573
▁가톨릭교회	-5574
스팅	-5575
▁홀로	-5576
▁175	-5577
▁사거리	-5578
▁어항	-5579
▁모시	-5580
▁부탁	-5581
▁도마뱀	-5582
▁종로	-5583
슬리	-5584
▁틸	-5585
▁칼리	-5586
▁그려져	-5587
▁동일본	-5588
▁규슈	-5589
▁트럼	-5590
▁바오	-5591
▁이날	-5592
▁표지	-5593
▁피트	-5594
▁최상	-5595
▁건축물	-5596
애나	-5597
▁나폴리	-5598
즈키	-5599
▁북아메리카	-5600
▁도어	-5601
▁랭킹	-5602
▁평생	-5603
부사	-5604
▁파운드	-5605
▁향토	-5606
▁황태	-5607
▁각자	-5608
▁쓰러	-5609
멘트	-5610
▁리치	-5611
▁무릎	-5612
메니아	-5613
▁유역	-5614
▁자치구	-5615
▁여인	-5616
▁My	-5617
▁노무	-5618
▁빨간	-5619
▁왕가	-5620
▁전승	-5621
▁지연	-5622
▁엘리자베스	-5623
▁떼	-5624
▁준우	-5625
▁투구	-5626
▁1922	-5627
▁고안	-5628
▁codice	-5629
▁SM	-5630
▁유용	-5631
▁나서	-5632
▁넘겨	-5633
▁화가	-5634
▁버지니아	-5635
▁부유	-5636
▁직선	-5637
▁무인	-5638
▁벨라	-5639
타운	-5640
▁라마	-5641
▁아기	-5642
▁""	-5643
IS	-5644
▁굽	-5645
▁이오	-5646
▁중구	-5647
▁침해	-5648
▁노비	-5649
▁문인	-5650
▁토벌	-5651
▁1912	-5652
▁아르메니아	-5653
▁공격수	-5654
▁국민당	-5655
▁JR	-5656
▁단행	-5657
▁연령	-5658
라이터	-5659
▁모니	-5660
▁모래	-5661
▁납치	-5662
▁구미	-5663
▁직위	-5664
눅스	-5665
▁패턴	-5666
▁무산	-5667
▁간섭	-5668
▁봉사	-5669
▁인천광역시	-5670
▁색상	-5671
▁다양체	-5672
▁루트비히	-5673
▁왈	-5674
▁적응	-5675
▁리눅스	-5676
▁지중해	-5677
▁MV	-5678
▁관하	-5679
▁인력	-5680
▁포유	-5681
▁모듈	-5682
▁스케이팅	-5683
▁베타	-5684
▁윤치	-5685
▁항목	-5686
▁164	-5687
▁사토	-5688
▁수지	-5689
▁퍼시	-5690
▁탐험	-5691
▁동아시아	-5692
▁06	-5693
▁고르	-5694
▁상처	-5695
▁올린	-5696
▁일어난다	-5697
▁Go	-5698
▁주사	-5699
▁Love	-5700
ip	-5701
▁출현	-5702
▁교차로	-5703
▁넬	-5704
▁릭	-5705
▁교역	-5706
▁매각	-5707
▁이종	-5708
▁하사	-5709
▁마카	-5710
ant	-5711
ong	-5712
▁연소	-5713
양군	-5714
▁배상	-5715
▁삽입	-5716
지마	-5717
▁블라디	-5718
▁글씨	-5719
▁베토	-5720
▁영조	-5721
▁남겨	-5722
▁토르	-5723
▁상무	-5724
ED	-5725
ld	-5726
▁실점	-5727
▁전향	-5728
▁들어서	-5729
▁시상식	-5730
▁돼지	-5731
▁시아	-5732
▁플레	-5733
▁부동산	-5734
▁헤드	-5735
▁1908	-5736
▁렉	-5737
▁행해	-5738
▁호조	-5739
▁과도	-5740
▁커피	-5741
▁제주도	-5742
슬로	-5743
▁가해	-5744
▁연금	-5745
▁패러	-5746
멘터리	-5747
▁장사	-5748
▁우루	-5749
▁굿	-5750
▁자책	-5751
▁참조	-5752
▁남동쪽	-5753
▁싫	-5754
▁03	-5755
▁육성	-5756
▁조명	-5757
▁크림	-5758
▁태자	-5759
▁SN	-5760
도니아	-5761
▁히가시	-5762
▁1917	-5763
OM	-5764
▁기종	-5765
▁아울	-5766
▁사촌	-5767
▁옮기	-5768
▁에스파	-5769
▁1906	-5770
▁외계	-5771
▁목조	-5772
▁배급	-5773
▁시집	-5774
▁체인	-5775
▁기하학	-5776
▁낸다	-5777
▁인자	-5778
야수	-5779
▁정서	-5780
▁관중	-5781
▁밀라노	-5782
▁명문	-5783
▁비전	-5784
몬드	-5785
▁종족	-5786
▁폐기	-5787
▁입문	-5788
▁호르	-5789
▁시외	-5790
보살	-5791
▁전작	-5792
▁마라	-5793
▁안양	-5794
영상	-5795
이즈	-5796
▁동사	-5797
▁통로	-5798
▁럭	-5799
▁표본	-5800
▁띤	-5801
▁우익	-5802
▁적어도	-5803
▁옹호	-5804
▁유인	-5805
▁보통학교	-5806
▁무선	-5807
▁이토	-5808
▁정자	-5809
▁몬테	-5810
▁사이클	-5811
▁앱	-5812
▁1927	-5813
▁산타	-5814
▁앨런	-5815
av	-5816
▁과장	-5817
▁의병	-5818
▁창간	-5819
▁송라이터	-5820
▁대행	-5821
▁자전거	-5822
▁노인	-5823
▁북동쪽	-5824
▁보좌	-5825
▁스와	-5826
▁진지	-5827
▁트윈	-5828
▁낼	-5829
▁다큐멘터리	-5830
란다	-5831
▁선제	-5832
▁산악	-5833
▁아가	-5834
▁준우승	-5835
▁들여	-5836
▁기압	-5837
▁세워진	-5838
▁안보	-5839
▁내장	-5840
▁유신	-5841
▁포크	-5842
플레이	-5843
▁1907	-5844
▁1926	-5845
티움	-5846
▁정류장	-5847
▁유닛	-5848
▁별로	-5849
▁사라지	-5850
▁오리지	-5851
▁협의회	-5852
▁디즈니	-5853
▁최우수	-5854
▁유입	-5855
▁슐	-5856
▁예외	-5857
▁흙	-5858
튜브	-5859
▁탑승	-5860
▁스페셜	-5861
▁노조	-5862
AC	-5863
▁수감	-5864
▁걷	-5865
▁아무런	-5866
▁왕립	-5867
페이지	-5868
▁베토벤	-5869
▁우크라이나	-5870
▁168	-5871
▁기아	-5872
▁맞춰	-5873
▁석조	-5874
▁자문	-5875
▁BBC	-5876
▁묘지	-5877
▁드래곤	-5878
▁PD	-5879
▁데려	-5880
▁때로	-5881
▁상영	-5882
▁호남	-5883
▁He	-5884
▁연고지	-5885
▁유튜브	-5886
스토	-5887
▁급속	-5888
▁하천	-5889
슬라	-5890
▁스틸	-5891
▁기름	-5892
▁번식	-5893
다니	-5894
▁시에	-5895
▁여서	-5896
▁주거	-5897
▁상하이	-5898
▁광역	-5899
▁카페	-5900
런트	-5901
다이라	-5902
▁독일어	-5903
ind	-5904
▁Sp	-5905
▁데이터베이스	-5906
▁에릭	-5907
▁라이벌	-5908
▁대교	-5909
어트	-5910
▁버그	-5911
▁할리	-5912
▁색깔	-5913
se	-5914
▁겨우	-5915
▁대안	-5916
▁사료	-5917
▁지름	-5918
▁점성	-5919
▁정사	-5920
▁합계	-5921
▁찌	-5922
▁커뮤니티	-5923
▁선진	-5924
무네	-5925
로프	-5926
▁지바	-5927
▁홈페이지	-5928
▁줬	-5929
▁문하	-5930
▁제후	-5931
▁세조	-5932
▁자바	-5933
브스	-5934
ame	-5935
▁마오	-5936
▁룩	-5937
텐도	-5938
▁흥미	-5939
▁닌텐도	-5940
생물	-5941
▁요미	-5942
▁좌익	-5943
▁NHK	-5944
▁민족주의	-5945
총장	-5946
▁원로	-5947
프란시스코	-5948
세스	-5949
▁소니	-5950
▁특급	-5951
▁대조	-5952
▁방안	-5953
▁분배	-5954
▁수수	-5955
▁콩고	-5956
▁품질	-5957
▁꾸준히	-5958
▁리듬	-5959
▁상세	-5960
▁증기	-5961
▁166	-5962
▁162	-5963
▁샌프란시스코	-5964
▁레이스	-5965
▁1905	-5966
긴다	-5967
▁엄마	-5968
▁해진	-5969
▁문화유산	-5970
▁레이다	-5971
▁칩	-5972
▁원산	-5973
다른	-5974
▁운명	-5975
ort	-5976
▁반환	-5977
▁와카	-5978
▁칭하	-5979
▁151	-5980
ry	-5981
▁트럭	-5982
▁스승	-5983
▁아크	-5984
▁주한	-5985
▁딴	-5986
▁모집	-5987
▁비평가	-5988
▁십자군	-5989
▁마일	-5990
▁가쓰	-5991
스티벌	-5992
▁랴	-5993
▁진도	-5994
▁가르치	-5995
▁이어져	-5996
▁주의자	-5997
▁재무	-5998
▁뚫	-5999
▁구마	-6000
▁역과	-6001
▁출산	-6002
▁현황	-6003
▁페스티벌	-6004
ith	-6005
▁02	-6006
▁협의	-6007
▁조선인	-6008
▁모터	-6009
▁셋째	-6010
▁신비	-6011
▁리얼	-6012
스케	-6013
▁비단	-6014
▁펼치	-6015
ES	-6016
▁쥬	-6017
▁일행	-6018
▁주말	-6019
▁유고슬	-6020
▁유고슬라비아	-6021
▁챌	-6022
▁목격	-6023
▁주파	-6024
▁늘어나	-6025
나카	-6026
▁거둔	-6027
▁그쳤	-6028
▁곧바로	-6029
▁스피드	-6030
▁도리	-6031
▁158	-6032
▁묘소	-6033
▁한나라	-6034
엘라	-6035
▁크리스토	-6036
▁렌즈	-6037
▁야생	-6038
▁정계	-6039
▁오리지널	-6040
▁가미	-6041
▁단층	-6042
▁배정	-6043
▁보전	-6044
▁플루	-6045
▁오디션	-6046
▁한나라당	-6047
▁||	-6048
▁전해진다	-6049
▁문과	-6050
▁옛날	-6051
▁한화	-6052
▁입증	-6053
▁남서쪽	-6054
▁스테이지	-6055
▁템	-6056
▁상소	-6057
프스	-6058
▁수천	-6059
결승	-6060
▁토니	-6061
▁이리	-6062
▁직장	-6063
▁동전	-6064
▁무관	-6065
▁미네	-6066
▁푸른	-6067
▁문제점	-6068
▁운반	-6069
교육	-6070
▁기점	-6071
▁복제	-6072
▁사면	-6073
▁되찾	-6074
▁동영상	-6075
▁급행	-6076
▁도심	-6077
▁출판사	-6078
리케이션	-6079
▁브라이언	-6080
▁적색	-6081
▁디자이너	-6082
▁마스	-6083
▁서북	-6084
▁기용	-6085
▁긴급	-6086
▁인텔	-6087
▁케이블	-6088
ok	-6089
▁Un	-6090
▁거친	-6091
▁동치	-6092
▁인치	-6093
▁합작	-6094
▁쿠르	-6095
▁지휘자	-6096
회의	-6097
▁배제	-6098
▁호환	-6099
▁심하	-6100
▁베이스볼	-6101
▁알라	-6102
▁예언	-6103
▁드러내	-6104
▁폭스	-6105
▁프랜	-6106
▁나타난	-6107
▁일으킨	-6108
으므로	-6109
▁연주자	-6110
▁판타지	-6111
▁콜롬비아	-6112
▁마케도니아	-6113
▁번주	-6114
▁기념물	-6115
▁당사자	-6116
▁교전	-6117
▁우르	-6118
▁기단	-6119
▁단종	-6120
해군	-6121
▁신임	-6122
▁향년	-6123
▁비즈니스	-6124
▁련	-6125
▁부패	-6126
▁사직	-6127
▁쓴다	-6128
▁그럼에도	-6129
▁이루어진다	-6130
▁초래	-6131
▁회원국	-6132
루살	-6133
프라	-6134
▁예술가	-6135
▁모순	-6136
▁걸려	-6137
▁드림	-6138
▁살펴	-6139
▁오다	-6140
▁개수	-6141
▁좌석	-6142
▁가하	-6143
▁미만	-6144
▁정교	-6145
▁용기	-6146
루살렘	-6147
▁하드웨어	-6148
▁기재	-6149
▁도메인	-6150
▁선사	-6151
▁트레	-6152
qu	-6153
▁수면	-6154
▁집계	-6155
▁가게	-6156
▁붙잡	-6157
▁역명	-6158
▁오타	-6159
▁평소	-6160
▁포맷	-6161
▁165	-6162
▁마쓰다이라	-6163
▁AM	-6164
▁관장	-6165
▁파나	-6166
▁센트럴	-6167
▁스펙트	-6168
▁콘스탄티노	-6169
▁서경	-6170
모니	-6171
▁154	-6172
▁내륙	-6173
▁자회사	-6174
▁1904	-6175
▁이지	-6176
▁시달	-6177
▁신용	-6178
▁다녔	-6179
경기	-6180
▁의거	-6181
ord	-6182
▁석탑	-6183
▁항일	-6184
▁과제	-6185
▁무신	-6186
▁왕족	-6187
▁사로	-6188
▁연애	-6189
▁스펙트럼	-6190
▁옌	-6191
▁Wh	-6192
▁Se	-6193
▁걸리	-6194
PS	-6195
▁이력	-6196
▁봐	-6197
문학	-6198
▁신하	-6199
▁임상	-6200
▁자사	-6201
▁파동	-6202
▁여동생	-6203
▁압박	-6204
ob	-6205
▁권고	-6206
▁비아	-6207
▁아도	-6208
▁전염	-6209
▁여신	-6210
▁챌린	-6211
▁이명박	-6212
▁용산	-6213
▁DJ	-6214
식물	-6215
▁장편	-6216
▁마케팅	-6217
▁예루살렘	-6218
▁계단	-6219
▁SF	-6220
▁사르	-6221
▁만난	-6222
▁선보였	-6223
IC	-6224
▁163	-6225
▁900	-6226
▁발효	-6227
▁167	-6228
▁혜성	-6229
▁스마트폰	-6230
우옌	-6231
▁차관	-6232
가스	-6233
페이	-6234
▁팅	-6235
ate	-6236
▁무슬	-6237
▁샬	-6238
▁가득	-6239
▁이글	-6240
▁그랑	-6241
▁대단	-6242
▁스쿨	-6243
▁게시	-6244
▁훼손	-6245
▁부수	-6246
▁두려워	-6247
▁바이올린	-6248
▁무라	-6249
▁서브	-6250
▁사범	-6251
디스	-6252
▁조류	-6253
▁156	-6254
▁상임	-6255
▁노무현	-6256
▁받침	-6257
▁크리스티	-6258
▁교섭	-6259
▁미얀	-6260
▁얼음	-6261
▁끼리	-6262
▁두드	-6263
▁부흥	-6264
▁차체	-6265
▁리투아	-6266
▁리투아니아	-6267
▁식사	-6268
▁무슬림	-6269
▁행정부	-6270
▁비잔티움	-6271
운서	-6272
▁디비전	-6273
▁쇼군	-6274
▁저기	-6275
▁진상	-6276
▁서울시	-6277
▁분지	-6278
▁아나운서	-6279
▁AS	-6280
▁규격	-6281
▁말라	-6282
▁예능	-6283
▁니스	-6284
▁부리	-6285
▁조국	-6286
▁댐	-6287
마치	-6288
▁비로	-6289
▁타마	-6290
▁마쳤	-6291
▁밀접	-6292
▁착륙	-6293
▁피스	-6294
▁샹	-6295
껍질	-6296
▁한양	-6297
▁성공회	-6298
▁UN	-6299
▁간접	-6300
▁지주	-6301
랑이	-6302
커스	-6303
▁애국	-6304
▁퍼져	-6305
▁정벌	-6306
▁고립	-6307
▁자마	-6308
▁친정	-6309
▁머물렀	-6310
카르	-6311
▁아베	-6312
▁바그	-6313
▁우지	-6314
▁구장	-6315
▁오케스트라	-6316
▁낱	-6317
아지	-6318
▁하트	-6319
▁월간	-6320
▁점유	-6321
▁사인	-6322
잡이	-6323
▁피렌	-6324
로디	-6325
▁와중	-6326
▁융합	-6327
ET	-6328
▁출구	-6329
리크	-6330
▁충남	-6331
▁뛰어나	-6332
▁브라우	-6333
▁아이디	-6334
▁좋아하	-6335
▁주립	-6336
▁바티	-6337
▁뱅크	-6338
▁제네	-6339
▁학파	-6340
▁참판	-6341
▁부통령	-6342
ast	-6343
▁선두	-6344
▁용량	-6345
▁잊	-6346
▁소나	-6347
▁페어	-6348
▁하노	-6349
▁일요일	-6350
킨스	-6351
▁거인	-6352
▁몰락	-6353
▁요크	-6354
▁스타크래프트	-6355
▁싸웠	-6356
럼비아	-6357
▁농도	-6358
▁진나라	-6359
예프	-6360
▁김동	-6361
▁굉	-6362
▁귀환	-6363
▁두산	-6364
▁맥스	-6365
▁이에	-6366
▁지장	-6367
▁최신	-6368
▁시체	-6369
▁투명	-6370
▁벌어지	-6371
▁쿠스	-6372
▁개발자	-6373
들리	-6374
▁공과	-6375
▁MVP	-6376
▁야기	-6377
▁흥행	-6378
▁발족	-6379
▁성종	-6380
▁위주	-6381
부인	-6382
▁강연	-6383
▁사리	-6384
▁완화	-6385
데이트	-6386
▁중국어	-6387
길이	-6388
▁사사	-6389
▁스트리트	-6390
▁알바니아	-6391
▁충성	-6392
▁139	-6393
▁마천	-6394
▁다이아	-6395
▁업데이트	-6396
▁애플리케이션	-6397
▁DS	-6398
▁대령	-6399
▁전지	-6400
▁미나미	-6401
▁아세	-6402
트롤	-6403
▁부자	-6404
▁HIV	-6405
▁전이	-6406
▁145	-6407
▁마리오	-6408
if	-6409
▁고조	-6410
▁공용	-6411
▁서열	-6412
▁빨리	-6413
▁측근	-6414
▁응우옌	-6415
▁이슈	-6416
▁피렌체	-6417
▁디젤	-6418
▁시드니	-6419
▁킬로미터	-6420
▁착수	-6421
AD	-6422
▁경선	-6423
▁사라졌	-6424
▁서일본	-6425
▁던지	-6426
▁부도	-6427
▁심한	-6428
▁기타리스트	-6429
▁벌어졌	-6430
주곡	-6431
▁검증	-6432
▁리오	-6433
▁해인	-6434
레이터	-6435
▁깔	-6436
트랙	-6437
▁게이트	-6438
▁주머니	-6439
▁준결승	-6440
랑크	-6441
ive	-6442
▁관찰사	-6443
▁중도	-6444
▁아이디어	-6445
▁수산	-6446
란트	-6447
▁사명	-6448
▁전두	-6449
수아	-6450
▁구동	-6451
▁마산	-6452
▁형법	-6453
IT	-6454
▁사바	-6455
▁푼	-6456
▁요미우리	-6457
▁아종	-6458
▁해전	-6459
▁전류	-6460
▁전임	-6461
악기	-6462
▁공전	-6463
▁규명	-6464
▁부시	-6465
▁테오	-6466
▁174	-6467
▁관광객	-6468
츠키	-6469
▁알렸	-6470
나와	-6471
카드	-6472
▁아울러	-6473
▁붓	-6474
▁석탄	-6475
▁몸길이	-6476
리티	-6477
ack	-6478
ure	-6479
▁권유	-6480
▁지각	-6481
트니	-6482
▁들어간	-6483
▁수학자	-6484
▁제의	-6485
▁IP	-6486
▁인과	-6487
▁연수	-6488
▁중독	-6489
▁소송법	-6490
▁관습	-6491
▁플라스	-6492
▁좌표	-6493
▁1896	-6494
토미	-6495
▁천문학	-6496
▁로빈	-6497
▁자율	-6498
▁소재지	-6499
아리	-6500
▁실용	-6501
루미	-6502
▁Ar	-6503
▁노동조합	-6504
▁젖	-6505
▁청와	-6506
▁판매량	-6507
▁스콧	-6508
▁우즈	-6509
▁피에르	-6510
▁여덟	-6511
▁마운	-6512
▁메디	-6513
▁정찰	-6514
▁책봉	-6515
▁뷔	-6516
균관	-6517
▁쇼핑	-6518
▁시라	-6519
▁옐	-6520
▁신칸	-6521
▁세례	-6522
▁존경	-6523
▁호평	-6524
▁자면	-6525
iv	-6526
▁백신	-6527
▁오렌	-6528
▁통행	-6529
▁청와대	-6530
▁붙이	-6531
▁5000	-6532
ock	-6533
▁보드	-6534
▁성벽	-6535
▁꼴	-6536
▁수신	-6537
▁전장	-6538
▁친선	-6539
▁저기압	-6540
▁피난	-6541
▁룬	-6542
▁다룬	-6543
▁152	-6544
▁찾아가	-6545
로운	-6546
▁로고	-6547
▁조용	-6548
▁들어와	-6549
▁행진	-6550
▁짙	-6551
▁프로세스	-6552
▁전진	-6553
ck	-6554
▁미하	-6555
▁문재인	-6556
▁복소	-6557
▁회수	-6558
▁테일러	-6559
▁상상	-6560
▁염색	-6561
▁달아	-6562
▁악마	-6563
▁신전	-6564
▁157	-6565
▁시외버스	-6566
▁쏟	-6567
▁고사	-6568
▁구제	-6569
▁자손	-6570
▁취약	-6571
▁폴리스	-6572
▁전문학교	-6573
문관	-6574
▁비극	-6575
▁카시	-6576
▁연구자	-6577
가루	-6578
▁미스터	-6579
▁관념	-6580
혁명	-6581
▁과목	-6582
▁MP	-6583
▁대외	-6584
▁지분	-6585
▁얼마나	-6586
▁급진	-6587
▁뿔	-6588
▁장성	-6589
▁유년	-6590
▁준공	-6591
▁한강	-6592
▁할당	-6593
▁금성	-6594
▁빌헬	-6595
▁동남아시아	-6596
▁유출	-6597
▁곁	-6598
▁어릴	-6599
▁루터	-6600
▁무효	-6601
▁밀양	-6602
▁창업	-6603
▁쇄	-6604
창기	-6605
▁관현	-6606
▁마찰	-6607
▁번뇌	-6608
▁식당	-6609
▁퇴각	-6610
▁파스	-6611
▁독립운동가	-6612
▁믿음	-6613
▁일화	-6614
▁적대	-6615
▁제휴	-6616
▁해임	-6617
외선	-6618
▁루수	-6619
▁고개	-6620
▁메가	-6621
▁힌두	-6622
▁신칸센	-6623
▁응답	-6624
수수	-6625
▁가질	-6626
▁히스	-6627
▁가즈	-6628
▁국어	-6629
▁히라	-6630
▁승차	-6631
▁에티	-6632
12	-6633
전자	-6634
▁장인	-6635
▁하버드	-6636
포스	-6637
▁김용	-6638
▁카나	-6639
▁j	-6640
일드	-6641
▁서독	-6642
메르	-6643
▁나미	-6644
▁상류	-6645
▁물러나	-6646
▁이순	-6647
니스트	-6648
▁성균관	-6649
▁소금	-6650
▁희극	-6651
▁프로토콜	-6652
▁연루	-6653
▁105	-6654
산군	-6655
▁매출	-6656
델피아	-6657
▁필라델피아	-6658
▁PS	-6659
▁동위	-6660
▁중점	-6661
▁소총	-6662
폴리스	-6663
▁외무	-6664
▁충족	-6665
▁패전	-6666
▁휩	-6667
▁소닉	-6668
하르트	-6669
▁1500	-6670
▁3000	-6671
▁노드	-6672
▁성전	-6673
▁소지	-6674
악단	-6675
▁박영	-6676
▁저택	-6677
▁항공모	-6678
자와	-6679
▁니아	-6680
▁이노	-6681
▁125	-6682
▁MC	-6683
▁와인	-6684
▁청사	-6685
▁우정	-6686
▁1911	-6687
▁가라	-6688
▁매개	-6689
▁146	-6690
▁오클	-6691
▁남인	-6692
▁아즈	-6693
▁자고	-6694
원숭이	-6695
▁예배	-6696
▁흩	-6697
▁Le	-6698
▁추모	-6699
▁단점	-6700
▁성모	-6701
▁제트	-6702
▁편곡	-6703
▁조언	-6704
▁참가자	-6705
팩트	-6706
▁봤	-6707
▁얇	-6708
▁서서	-6709
▁주권	-6710
▁하마	-6711
▁술탄	-6712
▁여수	-6713
▁원나라	-6714
▁보잉	-6715
▁천사	-6716
▁남양	-6717
one	-6718
▁개원	-6719
▁민국	-6720
▁환원	-6721
ML	-6722
▁강사	-6723
▁증후	-6724
▁우주선	-6725
▁법령	-6726
▁Pro	-6727
▁포장	-6728
▁153	-6729
▁단원	-6730
네이	-6731
▁반격	-6732
▁착공	-6733
▁패스	-6734
▁초창기	-6735
▁회계	-6736
▁됐으며	-6737
▁고무	-6738
▁회화	-6739
▁곳곳	-6740
▁환상	-6741
▁자책점	-6742
라트	-6743
▁고원	-6744
▁윌슨	-6745
▁회견	-6746
▁지지자	-6747
오리	-6748
ime	-6749
▁내내	-6750
▁나열	-6751
▁여진	-6752
▁카자흐	-6753
AP	-6754
▁유언	-6755
서양	-6756
▁배구	-6757
▁일렉	-6758
상스	-6759
▁눈물	-6760
▁연인	-6761
▁조르	-6762
▁셈	-6763
▁리메	-6764
▁별자리	-6765
고속도로	-6766
▁점프	-6767
▁친척	-6768
▁카트	-6769
▁미얀마	-6770
▁빌헬름	-6771
▁이복	-6772
▁지목	-6773
▁특유	-6774
▁여래	-6775
▁103	-6776
▁닭	-6777
▁고베	-6778
▁근접	-6779
▁두드러	-6780
▁내지	-6781
▁따위	-6782
▁후자	-6783
OC	-6784
▁개업	-6785
▁소관	-6786
▁떨어졌	-6787
▁출입구	-6788
▁인격	-6789
▁디비	-6790
제프	-6791
토시	-6792
▁석가	-6793
▁순천	-6794
▁기장	-6795
▁못해	-6796
▁양상	-6797
▁일관	-6798
▁민사	-6799
▁대답	-6800
▁없애	-6801
어리	-6802
▁공략	-6803
▁사지	-6804
▁오디오	-6805
▁진리	-6806
▁채무	-6807
▁유해	-6808
▁최적	-6809
▁한데	-6810
▁북동부	-6811
▁비틀즈	-6812
▁정치가	-6813
▁룰	-6814
▁삿	-6815
▁공인	-6816
▁강수량	-6817
노리	-6818
▁우편	-6819
▁인형	-6820
리언	-6821
▁위장	-6822
▁컨트롤	-6823
te	-6824
즈카	-6825
▁이원	-6826
▁협동	-6827
▁보충	-6828
▁실종	-6829
▁여의	-6830
▁이이	-6831
▁이글스	-6832
▁클린	-6833
▁토크	-6834
▁나리	-6835
▁얘	-6836
▁매력	-6837
▁중장	-6838
▁해역	-6839
동물	-6840
소스	-6841
▁허브	-6842
▁사로잡	-6843
대군	-6844
▁공자	-6845
▁항공모함	-6846
▁취재	-6847
▁베르크	-6848
기니	-6849
▁매사	-6850
▁게재	-6851
▁선원	-6852
▁주파수	-6853
Pa	-6854
▁레전	-6855
▁증후군	-6856
▁사우디아	-6857
▁나고	-6858
▁ISO	-6859
▁약한	-6860
▁카타	-6861
▁155	-6862
▁떠난	-6863
▁상자	-6864
▁토리	-6865
▁오렌지	-6866
▁별개	-6867
▁사가	-6868
▁굵	-6869
▁전례	-6870
▁갓	-6871
받침	-6872
▁미소	-6873
▁버튼	-6874
▁민영	-6875
▁유격	-6876
▁이영	-6877
▁테스	-6878
▁아군	-6879
▁시립	-6880
항공	-6881
▁각기	-6882
▁발해	-6883
▁합법	-6884
▁트라이	-6885
▁겸임	-6886
▁사물	-6887
▁호칭	-6888
▁르네상스	-6889
▁승무원	-6890
▁각본가	-6891
▁#	-6892
마사	-6893
▁금액	-6894
▁법무	-6895
▁중종	-6896
io	-6897
▁Con	-6898
▁배틀	-6899
▁스터	-6900
▁유교	-6901
▁담배	-6902
▁스파이	-6903
노프	-6904
▁연도	-6905
플러	-6906
▁Bo	-6907
▁즐기	-6908
▁이인	-6909
▁지나가	-6910
▁격렬	-6911
▁동등	-6912
▁평행	-6913
▁아리스	-6914
▁성주	-6915
▁캐스팅	-6916
▁108	-6917
▁히데요시	-6918
▁아바	-6919
▁아케	-6920
▁밭	-6921
▁모으	-6922
▁자발	-6923
때로	-6924
▁사다	-6925
▁일족	-6926
▁캠페인	-6927
시온	-6928
ber	-6929
▁상장	-6930
▁생일	-6931
▁이바	-6932
▁컸	-6933
▁가르침	-6934
▁포수	-6935
▁고체	-6936
▁옴	-6937
▁세균	-6938
▁레이저	-6939
▁서해	-6940
▁어두운	-6941
▁에이스	-6942
▁이슬람교	-6943
▁치세	-6944
▁하얀	-6945
▁전두환	-6946
▁영동	-6947
▁나고야	-6948
▁생명체	-6949
▁일찍이	-6950
▁드라이브	-6951
pe	-6952
▁IT	-6953
▁앞면	-6954
▁해운	-6955
▁복장	-6956
▁에디	-6957
▁퍼시픽	-6958
▁감지	-6959
▁거슬러	-6960
▁서서히	-6961
▁고발	-6962
▁콜라	-6963
▁화살	-6964
▁시청자	-6965
▁토요일	-6966
▁브래	-6967
▁때때로	-6968
시티	-6969
퍼니	-6970
▁만세	-6971
라이트	-6972
▁상대방	-6973
모어	-6974
▁궁정	-6975
▁외곽	-6976
▁하우	-6977
▁사우디아라비아	-6978
▁헐	-6979
▁메타	-6980
▁야간	-6981
▁골프	-6982
▁연혁	-6983
▁호세	-6984
▁교단	-6985
▁마친	-6986
▁추격	-6987
▁가계	-6988
▁교장	-6989
▁1909	-6990
▁향후	-6991
▁이사장	-6992
▁트럼프	-6993
▁쉐	-6994
▁최저	-6995
▁박탈	-6996
▁어드	-6997
▁홍수	-6998
▁트위	-6999
▁크리스마스	-7000
ge	-7001
▁건의	-7002
▁무려	-7003
▁상부	-7004
▁입상	-7005
▁아우구	-7006
베이터	-7007
▁하인리히	-7008
라미	-7009
러미	-7010
화점	-7011
▁기금	-7012
▁김영삼	-7013
행위	-7014
▁꾀	-7015
▁펴	-7016
▁방침	-7017
▁속성	-7018
▁유니폼	-7019
구장	-7020
▁김태	-7021
▁일생	-7022
▁개찰구	-7023
▁전함	-7024
▁외국어	-7025
산리	-7026
▁긴장	-7027
▁초연	-7028
칠리아	-7029
산면	-7030
▁발현	-7031
▁앙리	-7032
▁중재	-7033
가타	-7034
▁전도	-7035
▁단기	-7036
집합	-7037
▁튼	-7038
▁명의	-7039
▁수성	-7040
▁128	-7041
▁레전드	-7042
▁다중	-7043
▁톈	-7044
▁건축가	-7045
▁개관	-7046
▁물자	-7047
▁네이버	-7048
람회	-7049
▁남긴	-7050
▁슬라	-7051
▁피고	-7052
▁끊임	-7053
▁149	-7054
▁사이버	-7055
▁하이드	-7056
▁부착	-7057
▁트루	-7058
▁102	-7059
▁자마자	-7060
▁대주교	-7061
▁송나라	-7062
▁포도주	-7063
▁보스니아	-7064
▁세미	-7065
▁남한	-7066
▁전대	-7067
▁제작자	-7068
▁Bl	-7069
▁조리	-7070
▁운동장	-7071
▁텍스트	-7072
▁GT	-7073
▁섭취	-7074
▁안장	-7075
▁정밀	-7076
▁캄보	-7077
▁아미노	-7078
▁존중	-7079
▁팽창	-7080
▁유소년	-7081
▁주지사	-7082
▁취지	-7083
▁고가	-7084
▁대군	-7085
▁짜리	-7086
▁셸	-7087
▁굉장	-7088
▁직책	-7089
다드	-7090
▁에스파냐	-7091
▁기수	-7092
▁예시	-7093
▁발원	-7094
▁기다리	-7095
▁자유당	-7096
▁향한	-7097
▁숭배	-7098
▁컬러	-7099
트릭	-7100
▁포괄	-7101
▁지나치	-7102
▁계절	-7103
▁여주	-7104
▁토스	-7105
▁중국인	-7106
▁객관	-7107
iz	-7108
▁딩	-7109
▁물러났	-7110
▁안드레	-7111
▁강경	-7112
▁향교	-7113
▁원자로	-7114
리즘	-7115
붙이	-7116
▁키프	-7117
▁시오	-7118
▁입체	-7119
▁후안	-7120
DP	-7121
먼드	-7122
▁오키나와	-7123
▁고래	-7124
▁문양	-7125
▁팔레스	-7126
우라	-7127
▁계몽	-7128
▁촉구	-7129
▁병역	-7130
▁차남	-7131
▁낙선	-7132
▁사절	-7133
orld	-7134
백과	-7135
▁탐지	-7136
▁블루스	-7137
▁최소한	-7138
age	-7139
▁서사	-7140
▁동독	-7141
▁수평	-7142
▁통칭	-7143
▁태생	-7144
▁룽	-7145
▁턱	-7146
▁토마	-7147
▁음원	-7148
▁청장	-7149
▁스릴	-7150
▁손가락	-7151
▁수군	-7152
▁추상	-7153
▁CPU	-7154
▁대니	-7155
▁로프	-7156
사기	-7157
▁경과	-7158
▁센서	-7159
▁에우	-7160
▁디스플레이	-7161
▁$	-7162
▁볼리	-7163
▁패하	-7164
▁뉘	-7165
▁갑작	-7166
▁북방	-7167
수엘라	-7168
▁뢰	-7169
▁머신	-7170
▁원하	-7171
▁정말	-7172
▁그랑프리	-7173
▁리메이크	-7174
▁겔	-7175
▁둥근	-7176
▁아미타	-7177
▁프랭크	-7178
▁조반	-7179
석기	-7180
▁무죄	-7181
▁진군	-7182
차례	-7183
▁끌어	-7184
▁명목	-7185
▁시그	-7186
▁심의	-7187
▁충주	-7188
▁침몰	-7189
▁147	-7190
서리	-7191
▁김진	-7192
▁효력	-7193
노부	-7194
▁마하	-7195
▁어업	-7196
▁팜	-7197
▁엘리베이터	-7198
▁난민	-7199
▁마비	-7200
▁버린	-7201
▁엔지	-7202
▁왜성	-7203
▁저명	-7204
▁협조	-7205
▁127	-7206
▁171	-7207
▁건너가	-7208
▁제곱	-7209
▁종결	-7210
▁알코	-7211
▁hPa	-7212
▁김재	-7213
▁죽였	-7214
ik	-7215
▁경부	-7216
▁원고	-7217
▁후일	-7218
▁타이거즈	-7219
▁대처	-7220
▁수렴	-7221
▁스핀	-7222
▁노란색	-7223
▁로맨스	-7224
▁1915	-7225
▁모스	-7226
▁수동	-7227
▁트윈스	-7228
포트	-7229
▁베네수엘라	-7230
다고	-7231
▁라파	-7232
▁신흥	-7233
▁투르크	-7234
▁윌리엄스	-7235
보기	-7236
▁반박	-7237
▁부천	-7238
▁케네	-7239
▁세계관	-7240
▁추증	-7241
▁언론인	-7242
자스	-7243
▁달린	-7244
EN	-7245
▁분광	-7246
▁주축	-7247
▁도라	-7248
▁재미	-7249
▁휠	-7250
▁김수	-7251
▁전성기	-7252
▁1913	-7253
▁코프	-7254
▁그동안	-7255
와라	-7256
▁동년	-7257
▁북구	-7258
▁옥스	-7259
▁타르	-7260
▁이어받	-7261
▁부과	-7262
▁창시	-7263
▁풍경	-7264
▁시공	-7265
▁인재	-7266
▁문학상	-7267
▁언제나	-7268
▁테니스	-7269
▁프레스	-7270
▁보리	-7271
▁황해	-7272
▁이민자	-7273
▁나가사키	-7274
▁al	-7275
▁개미	-7276
▁공직	-7277
▁기습	-7278
▁탈환	-7279
▁상당수	-7280
▁닿	-7281
▁따뜻	-7282
▁출토	-7283
▁원반	-7284
▁위키백과	-7285
▁천문학자	-7286
기지	-7287
▁동력	-7288
크리트	-7289
▁가져왔	-7290
▁께서	-7291
▁창건	-7292
트리올	-7293
▁몬트리올	-7294
▁넨	-7295
▁SP	-7296
▁둘러싼	-7297
▁동당	-7298
▁차종	-7299
▁청원	-7300
▁강과	-7301
▁광년	-7302
▁아폴	-7303
▁Tr	-7304
▁아사히	-7305
▁네이션스	-7306
▁결선	-7307
▁미쳤	-7308
무기	-7309
▁섭정	-7310
▁북서부	-7311
창군	-7312
▁대역	-7313
▁링컨	-7314
▁별칭	-7315
▁이틀	-7316
▁169	-7317
▁캄보디아	-7318
▁버려	-7319
▁스파르타	-7320
▁팔레스타인	-7321
sp	-7322
▁둘레	-7323
▁바흐	-7324
▁어요	-7325
▁주차	-7326
▁걱	-7327
▁정무	-7328
▁동래	-7329
▁유수	-7330
▁아이템	-7331
▁대포	-7332
▁태수	-7333
▁라이언	-7334
▁식별	-7335
▁적자	-7336
▁고백	-7337
▁나주	-7338
▁유연	-7339
▁든지	-7340
▁수령	-7341
▁대제	-7342
▁카탈	-7343
▁에다	-7344
▁이진	-7345
▁도호쿠	-7346
자치도	-7347
▁전한다	-7348
▁제주특별	-7349
▁제주특별자치도	-7350
▁온천	-7351
▁차기	-7352
▁가르쳤	-7353
포구	-7354
▁풋볼	-7355
MS	-7356
▁광부	-7357
▁신세	-7358
▁사회학	-7359
▁자기장	-7360
▁1895	-7361
선거	-7362
▁언더	-7363
▁후대	-7364
▁비문	-7365
▁총괄	-7366
▁북위	-7367
▁지폐	-7368
네스코	-7369
태우	-7370
▁그로	-7371
▁영리	-7372
▁무제	-7373
▁번영	-7374
▁베어스	-7375
▁남원	-7376
▁리버풀	-7377
▁NC	-7378
▁135	-7379
▁141	-7380
▁초상화	-7381
▁한동안	-7382
▁장학	-7383
▁폐위	-7384
▁후세	-7385
▁다운로드	-7386
리에	-7387
▁부른	-7388
공신	-7389
▁날짜	-7390
▁대위	-7391
▁멈추	-7392
▁어스	-7393
명사전	-7394
▁무상	-7395
▁양주	-7396
▁총선거	-7397
▁교원	-7398
▁풀려	-7399
▁거느리	-7400
▁십자가	-7401
▁하부	-7402
▁111	-7403
▁법제	-7404
▁삼진	-7405
▁조달	-7406
▁아틀레	-7407
▁해병대	-7408
▁탤	-7409
평군	-7410
ust	-7411
▁바실	-7412
▁여파	-7413
그라드	-7414
▁서울대	-7415
▁수용소	-7416
벌레	-7417
▁휴전	-7418
키지	-7419
▁소환	-7420
▁관람	-7421
▁국사	-7422
▁다녀	-7423
▁소실	-7424
▁첨가	-7425
▁중소	-7426
▁컴퍼니	-7427
▁기요	-7428
▁원내	-7429
▁장미	-7430
▁제수	-7431
선스	-7432
▁위임	-7433
▁144	-7434
▁CE	-7435
▁오빠	-7436
▁드라	-7437
▁명백	-7438
▁미즈	-7439
▁서머	-7440
▁중순	-7441
▁신중	-7442
▁카리브	-7443
▁CO	-7444
▁걱정	-7445
▁인산	-7446
▁파업	-7447
박쥐	-7448
▁정전	-7449
▁천도	-7450
▁119	-7451
▁모방	-7452
니치	-7453
▁의상	-7454
▁이광	-7455
GC	-7456
ep	-7457
▁덤	-7458
▁불편	-7459
▁휴식	-7460
▁버린다	-7461
▁신학자	-7462
▁리어	-7463
▁여겼	-7464
▁충실	-7465
ib	-7466
▁민회	-7467
▁스릴러	-7468
▁더글	-7469
▁당일	-7470
▁고민	-7471
▁김포	-7472
▁함유	-7473
ian	-7474
▁내외	-7475
▁다니엘	-7476
▁스티브	-7477
▁문화방송	-7478
▁지냈으며	-7479
▁선구	-7480
▁쇼트	-7481
루션	-7482
▁왓	-7483
int	-7484
▁루시	-7485
▁TO	-7486
▁도스	-7487
▁실전	-7488
▁요르	-7489
▁TH	-7490
▁귀중	-7491
▁지능	-7492
▁172	-7493
▁두루	-7494
라이더	-7495
▁아레나	-7496
▁컬럼비아	-7497
▁캉	-7498
▁드럼	-7499
▁소통	-7500
▁장난	-7501
▁해수	-7502
리케인	-7503
케이션	-7504
▁시나리오	-7505
릴라	-7506
푸스	-7507
▁교양	-7508
▁연세대	-7509
▁엔지니어	-7510
▁써서	-7511
▁케이스	-7512
▁고인	-7513
▁관통	-7514
▁자랐	-7515
▁신학교	-7516
그로	-7517
▁총사	-7518
▁라이선스	-7519
▁간호	-7520
▁평야	-7521
▁허리케인	-7522
▁It	-7523
▁바꿔	-7524
▁스러	-7525
▁넘어가	-7526
▁슈트	-7527
▁외교관	-7528
▁공모	-7529
▁바퀴	-7530
▁병조	-7531
▁오세	-7532
▁정렬	-7533
▁증진	-7534
▁스페이스	-7535
누엘	-7536
ome	-7537
▁김상	-7538
▁선종	-7539
▁할리우드	-7540
▁꽤	-7541
▁좌절	-7542
▁항소	-7543
ire	-7544
▁며칠	-7545
▁신탁	-7546
말라	-7547
▁배신	-7548
▁신기	-7549
▁초과	-7550
▁아이슬	-7551
▁유니버	-7552
▁카이사르	-7553
라리	-7554
▁격투	-7555
▁미토	-7556
▁약칭	-7557
▁총대	-7558
▁테레	-7559
▁편리	-7560
▁106	-7561
▁유네스코	-7562
페르	-7563
▁We	-7564
▁마인	-7565
▁베드	-7566
▁연패	-7567
▁진짜	-7568
▁껍질	-7569
▁아벨	-7570
▁NBA	-7571
▁마이너	-7572
▁매카	-7573
▁미주	-7574
▁우연히	-7575
▁영남	-7576
▁영장	-7577
▁평범	-7578
▁케네디	-7579
▁룡	-7580
▁쿤	-7581
▁공채	-7582
▁바치	-7583
▁에버	-7584
▁인연	-7585
▁그루	-7586
▁낱말	-7587
▁콘크리트	-7588
▁그렸	-7589
▁서남	-7590
▁역설	-7591
▁표명	-7592
▁구조물	-7593
시로	-7594
▁장려	-7595
▁가벼	-7596
▁겸하	-7597
▁바이오	-7598
▁보완	-7599
▁승점	-7600
▁의의	-7601
▁에스토	-7602
▁마츠	-7603
▁지혜	-7604
▁평일	-7605
▁아이슬란드	-7606
▁멋	-7607
▁공의회	-7608
▁구이	-7609
▁도주	-7610
▁실린	-7611
▁느낀	-7612
▁부재	-7613
▁중량	-7614
▁니콜라	-7615
▁돌연	-7616
▁등재	-7617
▁애덤	-7618
▁콰	-7619
▁열대	-7620
▁차이점	-7621
▁닷	-7622
▁고수	-7623
▁누군	-7624
▁업계	-7625
▁들어온	-7626
치오	-7627
▁오비	-7628
▁제갈	-7629
▁묘역	-7630
▁합창	-7631
▁해변	-7632
져서	-7633
▁애틀	-7634
▁전압	-7635
▁탱크	-7636
▁포격	-7637
블로	-7638
▁공단	-7639
▁몰려	-7640
내셔널	-7641
▁인터내셔널	-7642
▁훔	-7643
▁부채	-7644
▁쓰인	-7645
▁우울	-7646
▁입지	-7647
▁치열	-7648
▁책임자	-7649
▁양도	-7650
▁장안	-7651
▁한성부	-7652
▁도르	-7653
▁잦	-7654
▁발트	-7655
▁우라늄	-7656
▁단식	-7657
▁배터리	-7658
▁나스	-7659
▁레바	-7660
▁친일인	-7661
▁파이어	-7662
▁황태자	-7663
▁친일인명사전	-7664
▁오사	-7665
▁방패	-7666
▁생전	-7667
▁들어왔	-7668
▁프랑수아	-7669
▁도왔	-7670
▁바리	-7671
▁첼시	-7672
나리	-7673
ere	-7674
ude	-7675
▁로열	-7676
▁마약	-7677
주의자	-7678
▁일어날	-7679
▁바라보	-7680
▁스페인어	-7681
세츠	-7682
실록	-7683
▁봉쇄	-7684
▁쫓겨	-7685
▁라이온즈	-7686
▁교외	-7687
▁파장	-7688
▁횟	-7689
▁쉬운	-7690
▁투르	-7691
▁에스토니아	-7692
의자	-7693
▁불명	-7694
▁통근	-7695
▁매사추	-7696
▁냄	-7697
▁동문	-7698
▁호위	-7699
▁매사추세츠	-7700
▁신속	-7701
▁호프	-7702
▁암석	-7703
▁주행	-7704
▁협주곡	-7705
▁대전광역시	-7706
유행	-7707
▁HT	-7708
▁상담	-7709
▁오피스	-7710
▁기어	-7711
▁난다	-7712
▁다항	-7713
▁사슬	-7714
▁상서	-7715
▁재위	-7716
▁충북	-7717
▁어울	-7718
▁일조	-7719
오피아	-7720
▁리비아	-7721
▁에티오피아	-7722
ide	-7723
▁치즈	-7724
▁하락	-7725
▁닝	-7726
▁DC	-7727
▁개그	-7728
▁낭만	-7729
▁유동	-7730
▁슬로바키아	-7731
ment	-7732
▁생식	-7733
▁신생	-7734
▁여지	-7735
▁탈당	-7736
▁밟	-7737
제리	-7738
▁고령	-7739
▁김기	-7740
▁시흥	-7741
▁어휘	-7742
ace	-7743
▁나쁜	-7744
▁오노	-7745
▁지선	-7746
바이잔	-7747
▁CON	-7748
▁특집	-7749
중국	-7750
▁청하	-7751
▁추세	-7752
▁해소	-7753
야시	-7754
▁".	-7755
▁대웅	-7756
▁서정	-7757
▁위탁	-7758
▁중심부	-7759
▁물리학자	-7760
▁응원	-7761
▁명제	-7762
▁소유자	-7763
▁우루과이	-7764
▁끓	-7765
번스	-7766
▁시선	-7767
IM	-7768
▁가면	-7769
▁기인	-7770
▁추출	-7771
▁현금	-7772
▁육지	-7773
▁무거운	-7774
▁돌리	-7775
▁바른	-7776
▁조연	-7777
▁아제르	-7778
▁중추원	-7779
▁햇	-7780
▁친왕	-7781
▁평택	-7782
▁실시간	-7783
▁퍼센트	-7784
▁닛폰	-7785
▁도루	-7786
▁의뢰	-7787
▁출처	-7788
▁병행	-7789
▁호기	-7790
▁아제르바이잔	-7791
▁숨겨	-7792
▁얘기	-7793
▁패키지	-7794
▁국무총리	-7795
▁객체	-7796
마드	-7797
▁성운	-7798
▁시초	-7799
▁보일	-7800
▁즈음	-7801
▁바닷	-7802
▁바스	-7803
하면	-7804
▁극동	-7805
▁부적	-7806
▁창고	-7807
지리아	-7808
▁노부나가	-7809
▁나이지리아	-7810
위원	-7811
▁브라우저	-7812
▁바뀐	-7813
▁순회	-7814
▁지류	-7815
▁136	-7816
▁박해	-7817
▁전라도	-7818
▁벗어	-7819
▁신념	-7820
바다	-7821
▁구도	-7822
▁빠졌	-7823
▁쌍둥이	-7824
▁휴스턴	-7825
▁1916	-7826
▁포터	-7827
▁구호	-7828
▁세션	-7829
▁입당	-7830
▁작센	-7831
▁결혼식	-7832
▁이사회	-7833
▁고소	-7834
▁148	-7835
▁끌려	-7836
▁동상	-7837
▁우세	-7838
▁허리	-7839
▁페르난	-7840
석탑	-7841
▁실리	-7842
▁의약	-7843
▁중위	-7844
▁딕	-7845
▁막내	-7846
▁신규	-7847
▁내린	-7848
층석탑	-7849
▁IBM	-7850
▁리틀	-7851
▁말리	-7852
▁워드	-7853
▁스튜어트	-7854
▁솜	-7855
▁수습	-7856
▁자아	-7857
▁깨달	-7858
▁실장	-7859
▁펌	-7860
승지	-7861
▁격퇴	-7862
▁애틀랜	-7863
▁되게	-7864
▁해적	-7865
▁서재	-7866
▁저하	-7867
▁급격히	-7868
▁산림	-7869
▁안성	-7870
▁거론	-7871
▁냉각	-7872
▁분당	-7873
▁이세	-7874
▁138	-7875
시피	-7876
▁경연	-7877
▁극히	-7878
▁백색	-7879
▁아마도	-7880
▁면허	-7881
▁도장	-7882
▁만남	-7883
▁원숭이	-7884
▁LP	-7885
▁성숙	-7886
▁한지	-7887
▁해밀	-7888
▁라이브러리	-7889
▁la	-7890
▁시즈	-7891
▁시칠리아	-7892
드리아	-7893
▁대의원	-7894
▁앓	-7895
▁가동	-7896
▁산다	-7897
▁인플	-7898
▁택시	-7899
▁내려가	-7900
▁신한	-7901
▁모른다	-7902
▁삼국지	-7903
▁데이비스	-7904
▁전념	-7905
타로	-7906
▁반감	-7907
▁탐구	-7908
▁백화점	-7909
▁후쿠시마	-7910
▁회고	-7911
▁감리	-7912
▁동점	-7913
▁주이	-7914
▁평원	-7915
어버	-7916
▁비리	-7917
▁대표작	-7918
▁테이블	-7919
▁이식	-7920
▁최상위	-7921
아이	-7922
▁반경	-7923
▁사헌	-7924
▁현종	-7925
▁360	-7926
▁솟	-7927
고쿠	-7928
▁미라	-7929
▁코무네	-7930
▁환영	-7931
▁게르만	-7932
▁도미	-7933
▁리우스	-7934
▁스톡	-7935
▁전했	-7936
▁할지	-7937
▁라트비아	-7938
람쥐	-7939
▁최악	-7940
▁토성	-7941
▁한스	-7942
▁한쪽	-7943
▁횟수	-7944
푸르트	-7945
리니	-7946
▁고성	-7947
▁치명	-7948
▁혈통	-7949
▁모니터	-7950
양함	-7951
▁붙였	-7952
▁오해	-7953
▁반도체	-7954
▁중성자	-7955
대신	-7956
▁구릉	-7957
▁후한	-7958
▁내보	-7959
토모	-7960
▁En	-7961
▁사우루스	-7962
▁뭉	-7963
데시	-7964
▁트래	-7965
▁104	-7966
▁그램	-7967
▁야구장	-7968
▁영의정	-7969
▁페르디	-7970
▁부당	-7971
▁피에	-7972
▁후방	-7973
타나	-7974
▁가짜	-7975
▁성체	-7976
▁오바	-7977
▁잡아	-7978
▁칼라	-7979
cl	-7980
▁그날	-7981
▁실려	-7982
▁산란	-7983
▁나타낼	-7984
▁공천	-7985
▁리라	-7986
▁상공	-7987
▁임용	-7988
▁주가	-7989
▁춘추	-7990
▁치러진	-7991
▁아부	-7992
▁재현	-7993
▁정한	-7994
▁플랜	-7995
▁거행	-7996
▁복선	-7997
▁레논	-7998
▁음료	-7999
▁잔류	-8000
▁치아	-8001
▁순교	-8002
▁사헌부	-8003
▁거제	-8004
▁여당	-8005
하시	-8006
▁성취	-8007
▁팔라	-8008
베르토	-8009
▁대학생	-8010
브레	-8011
타고	-8012
▁일러	-8013
▁춘천	-8014
래스카	-8015
▁갑작스	-8016
▁여겨졌	-8017
▁AK	-8018
▁시바	-8019
▁109	-8020
▁다스리	-8021
▁방송사	-8022
마쓰	-8023
▁비시	-8024
▁주주	-8025
▁증대	-8026
▁힘입	-8027
▁Mar	-8028
▁명령어	-8029
스틴	-8030
▁스트레스	-8031
▁릉	-8032
▁견제	-8033
▁나비	-8034
▁이를	-8035
▁피츠	-8036
회장	-8037
▁루프	-8038
▁우위	-8039
▁폭행	-8040
▁보인	-8041
▁왜냐	-8042
▁적분	-8043
▁품종	-8044
▁현저	-8045
은색	-8046
▁폭동	-8047
▁교황청	-8048
▁맵	-8049
▁차장	-8050
▁이에야스	-8051
여래	-8052
▁고치	-8053
▁목판	-8054
▁한인	-8055
▁열정	-8056
▁제독	-8057
▁축적	-8058
▁새겨져	-8059
▁공수	-8060
▁플라이	-8061
▁눌	-8062
글리	-8063
▁매입	-8064
▁아홉	-8065
살이	-8066
▁AR	-8067
▁CS	-8068
▁송시	-8069
▁123	-8070
곡리	-8071
▁주역	-8072
▁축하	-8073
▁육체	-8074
▁이윤	-8075
▁정점	-8076
▁별다른	-8077
▁몰아	-8078
▁분비	-8079
▁수련	-8080
▁하워드	-8081
▁호랑이	-8082
▁킥	-8083
▁카자흐스탄	-8084
▁다발	-8085
▁사모	-8086
▁이케	-8087
▁터치	-8088
▁충전	-8089
▁광학	-8090
▁아담	-8091
▁모이	-8092
▁억압	-8093
▁통증	-8094
▁히어로즈	-8095
▁매달	-8096
▁법조	-8097
▁주름	-8098
▁해명	-8099
권자	-8100
헤이	-8101
▁기적	-8102
▁바나	-8103
란히	-8104
▁소매	-8105
▁연합회	-8106
▁공산주의자	-8107
차기	-8108
▁관구	-8109
▁다이아몬드	-8110
AL	-8111
은이	-8112
▁경관	-8113
▁래퍼	-8114
▁팡	-8115
▁신조	-8116
▁요하	-8117
실베이	-8118
실베이니아	-8119
▁펜실베이니아	-8120
▁고장	-8121
▁관해	-8122
▁광물	-8123
ies	-8124
▁Op	-8125
▁드로	-8126
▁암시	-8127
▁규범	-8128
▁처녀	-8129
더슨	-8130
▁벌금	-8131
▁청춘	-8132
▁사업자	-8133
법인	-8134
포드	-8135
▁못할	-8136
▁히메	-8137
▁부르크	-8138
▁생산량	-8139
▁리우	-8140
▁상용	-8141
▁관해서	-8142
▁마야	-8143
▁남동부	-8144
바시	-8145
▁목재	-8146
▁베스	-8147
▁존속	-8148
▁상점	-8149
▁컴파	-8150
▁CC	-8151
▁나눌	-8152
▁염기	-8153
▁143	-8154
▁소나타	-8155
▁태양계	-8156
▁살리	-8157
▁펑크	-8158
▁상반	-8159
▁박람회	-8160
▁자민	-8161
▁헤라	-8162
▁돋	-8163
▁너비	-8164
▁아예	-8165
▁무지	-8166
▁블로그	-8167
▁가죽	-8168
▁제프	-8169
▁티스	-8170
▁경상도	-8171
▁동아일보	-8172
▁성사	-8173
▁신주	-8174
브리지	-8175
▁공습	-8176
▁덧붙여	-8177
▁보석	-8178
▁사육	-8179
▁신약	-8180
▁이화	-8181
▁공관	-8182
▁노바	-8183
▁롤링	-8184
▁적당	-8185
▁분기점	-8186
▁종로구	-8187
▁이소	-8188
▁평의회	-8189
ile	-8190
▁국소	-8191
▁부설	-8192
▁요건	-8193
▁조세	-8194
▁토모	-8195
▁라오스	-8196
▁가군	-8197
▁김경	-8198
▁부제	-8199
▁조선일보	-8200
▁운하	-8201
▁태권	-8202
▁친일파	-8203
▁비자	-8204
▁우유	-8205
▁유로파	-8206
▁근교	-8207
▁레일	-8208
▁왜곡	-8209
▁블라디미르	-8210
▁헤비	-8211
▁알코올	-8212
▁엿	-8213
▁상단	-8214
▁서진	-8215
연합	-8216
▁이타	-8217
▁허위	-8218
▁황실	-8219
▁누가	-8220
▁동국	-8221
▁누군가	-8222
▁나트	-8223
▁날씨	-8224
▁공익	-8225
▁맥락	-8226
▁몰리	-8227
▁비유	-8228
▁RNA	-8229
▁늘어났	-8230
▁범인	-8231
▁설탕	-8232
▁통영	-8233
▁경보	-8234
▁마디	-8235
▁모았	-8236
▁협박	-8237
산동	-8238
▁소셜	-8239
▁유죄	-8240
▁굉장히	-8241
레기	-8242
▁Pr	-8243
▁뜨거운	-8244
▁트위터	-8245
▁상사	-8246
▁화해	-8247
▁확신	-8248
▁col	-8249
▁시골	-8250
▁제재	-8251
▁끄	-8252
수리	-8253
ite	-8254
▁누나	-8255
▁대폭	-8256
▁원했	-8257
▁인체	-8258
▁112	-8259
비나	-8260
▁인문	-8261
▁쳤	-8262
▁성단	-8263
▁신민	-8264
▁플러스	-8265
▁드문	-8266
▁장거리	-8267
▁전자기	-8268
▁Te	-8269
▁맥주	-8270
▁카롤	-8271
▁브라더스	-8272
▁미르	-8273
▁미션	-8274
▁루이지	-8275
▁흠	-8276
▁깨닫	-8277
▁구출	-8278
▁달했	-8279
▁왜냐하면	-8280
xt	-8281
거진	-8282
▁누이	-8283
▁우승자	-8284
▁아랍어	-8285
▁중의원	-8286
▁카를로스	-8287
▁갇	-8288
기업	-8289
▁성별	-8290
▁포럼	-8291
▁법무부	-8292
▁양키스	-8293
▁시베리아	-8294
▁CF	-8295
▁근원	-8296
▁빠진	-8297
▁경찰청	-8298
▁키프로스	-8299
▁믹스	-8300
▁나르	-8301
▁보증	-8302
▁연쇄	-8303
▁히사	-8304
도리	-8305
의장	-8306
▁창원시	-8307
▁떨어	-8308
▁실체	-8309
▁필터	-8310
도바	-8311
▁속했	-8312
▁126	-8313
▁이순신	-8314
▁거북	-8315
▁느껴	-8316
▁자선	-8317
▁개교	-8318
▁당주	-8319
▁언니	-8320
▁우호	-8321
▁107	-8322
▁단단	-8323
▁수법	-8324
▁핸드	-8325
▁이산화	-8326
스부르크	-8327
▁교과서	-8328
▁탐사선	-8329
랑카	-8330
▁가마쿠라	-8331
▁117	-8332
▁SE	-8333
▁세라	-8334
▁신선	-8335
▁시어	-8336
▁구축함	-8337
▁결함	-8338
▁탐색	-8339
▁거울	-8340
▁다크	-8341
▁소원	-8342
▁일방	-8343
▁입원	-8344
▁희생자	-8345
()	-8346
고래	-8347
▁빈곤	-8348
▁후사	-8349
▁냉전	-8350
▁양측	-8351
▁드러났	-8352
▁릿	-8353
▁인명	-8354
ath	-8355
▁이긴	-8356
ound	-8357
▁곡인	-8358
▁조종사	-8359
ft	-8360
단체	-8361
▁드레	-8362
▁몰래	-8363
▁제니	-8364
▁is	-8365
▁천장	-8366
▁KIA	-8367
▁공방	-8368
▁투옥	-8369
▁샘플	-8370
▁수색	-8371
▁이브	-8372
▁후궁	-8373
▁할머니	-8374
그레이드	-8375
▁지평	-8376
▁교정	-8377
▁이경	-8378
▁게스트	-8379
▁살아가	-8380
▁빌려	-8381
▁350	-8382
▁수용체	-8383
▁받아들였	-8384
▁제대	-8385
▁삼층석탑	-8386
▁업그레이드	-8387
▁퐁	-8388
▁문예	-8389
▁네스	-8390
승부	-8391
▁승계	-8392
▁송시열	-8393
▁철회	-8394
▁com	-8395
▁고속도	-8396
▁도마뱀붙이	-8397
OL	-8398
▁찾아볼	-8399
다지	-8400
▁신시	-8401
▁물리치	-8402
▁칭찬	-8403
▁그만두	-8404
▁통틀	-8405
▁핵무기	-8406
▁데모	-8407
▁말씀	-8408
▁줄무늬	-8409
▁클라우드	-8410
▁결코	-8411
▁성도	-8412
▁을지	-8413
▁판본	-8414
▁대웅전	-8415
▁생겨났	-8416
▁삼성전자	-8417
크라	-8418
▁IM	-8419
▁상표	-8420
▁진공	-8421
▁맘	-8422
갈색	-8423
▁도청	-8424
▁극장판	-8425
▁근로자	-8426
▁테이프	-8427
▁옆면	-8428
▁요약	-8429
▁워터	-8430
베니아	-8431
▁아카데미상	-8432
▁담겨	-8433
▁일가	-8434
▁내려오	-8435
▁라이너	-8436
▁일반인	-8437
▁CR	-8438
▁담긴	-8439
▁세속	-8440
▁173	-8441
▁헥	-8442
끼리	-8443
ond	-8444
▁문구	-8445
▁요동	-8446
▁키우	-8447
▁해고	-8448
▁고고학	-8449
▁사생활	-8450
▁연합국	-8451
나스	-8452
수소	-8453
▁궁극	-8454
▁방화	-8455
▁121	-8456
▁알제리	-8457
▁Am	-8458
▁LC	-8459
▁스캔	-8460
▁진급	-8461
▁포병	-8462
▁브로드	-8463
▁다룬다	-8464
▁슬로베니아	-8465
마루	-8466
▁그냥	-8467
▁멜로디	-8468
▁화장실	-8469
▁항쟁	-8470
▁113	-8471
▁137	-8472
▁킴	-8473
▁가축	-8474
▁김현	-8475
▁만일	-8476
무스	-8477
▁구해	-8478
▁펠리	-8479
▁기업인	-8480
시타	-8481
▁떠올	-8482
▁치안	-8483
▁1894	-8484
박스	-8485
▁나눠	-8486
▁대명	-8487
▁뒤집	-8488
▁비르	-8489
▁약력	-8490
▁공백	-8491
▁레온	-8492
▁바우	-8493
▁왔으며	-8494
조부	-8495
ory	-8496
▁타당	-8497
▁빨간색	-8498
▁프랑크푸르트	-8499
ov	-8500
▁기다	-8501
▁힘든	-8502
▁몬스터	-8503
▁지미	-8504
▁카카	-8505
▁게이지	-8506
▁캐시	-8507
▁시뮬	-8508
▁최강	-8509
▁도미니	-8510
▁바티칸	-8511
▁갈릴	-8512
▁말년	-8513
▁제인	-8514
▁z	-8515
▁무어	-8516
▁왕복	-8517
▁초월	-8518
▁둥지	-8519
게이머	-8520
▁바오로	-8521
▁프로게이머	-8522
축구	-8523
톨레	-8524
▁SU	-8525
▁럼	-8526
▁붐	-8527
▁농림	-8528
▁야쿠	-8529
▁용병	-8530
▁원전	-8531
▁오프닝	-8532
▁총독부	-8533
▁코스타	-8534
규모	-8535
man	-8536
▁미키	-8537
▁일컬	-8538
▁피오	-8539
리안	-8540
▁계정	-8541
▁적도	-8542
▁물려받	-8543
▁공민	-8544
▁구절	-8545
▁옵션	-8546
아프리카	-8547
로이	-8548
▁거쳤	-8549
▁띤다	-8550
▁상해	-8551
▁사상자	-8552
▁야마토	-8553
린스	-8554
▁군정	-8555
▁혈관	-8556
▁기질	-8557
▁더니	-8558
▁로우	-8559
▁먼지	-8560
▁서민	-8561
▁크리스토퍼	-8562
대기	-8563
블리	-8564
▁필리프	-8565
▁대피	-8566
▁학명	-8567
▁남서부	-8568
▁사쿠라	-8569
지붕	-8570
▁주어지	-8571
▁최대한	-8572
▁커뮤니케이션	-8573
▁가루	-8574
▁내정	-8575
▁학계	-8576
▁World	-8577
퍼런스	-8578
iver	-8579
▁가장자리	-8580
▁극심	-8581
▁즉각	-8582
▁횡단	-8583
▁뒷면	-8584
▁욕구	-8585
▁곤란	-8586
▁정세	-8587
로니	-8588
▁그랜	-8589
▁돌격	-8590
▁성문	-8591
셰비	-8592
▁개종	-8593
▁외모	-8594
▁124	-8595
▁로이	-8596
▁부딪	-8597
▁국내외	-8598
▁침투	-8599
▁독일인	-8600
▁배후	-8601
▁모친	-8602
▁자비	-8603
▁하동	-8604
▁1890	-8605
▁관세	-8606
▁평정	-8607
▁파이널	-8608
▁셨	-8609
▁On	-8610
▁우파	-8611
▁체크	-8612
프레스	-8613
▁탤런트	-8614
▁서초	-8615
▁프로덕	-8616
▁강서	-8617
▁미루	-8618
▁브리지	-8619
▁New	-8620
▁땃	-8621
▁자오	-8622
▁제압	-8623
▁트로이	-8624
줄기	-8625
▁데르	-8626
▁이드	-8627
▁계열사	-8628
▁분명히	-8629
▁오리콘	-8630
▁므	-8631
▁슨	-8632
▁EC	-8633
▁러시	-8634
▁풍자	-8635
▁붙인	-8636
▁드라이버	-8637
IP	-8638
▁오라	-8639
▁징계	-8640
▁초록	-8641
▁자연수	-8642
▁륙	-8643
▁감자	-8644
▁내주	-8645
▁디렉	-8646
▁체조	-8647
ich	-8648
▁관음	-8649
▁챌린지	-8650
▁땄	-8651
드르	-8652
▁be	-8653
▁그치	-8654
▁봉건	-8655
▁설화	-8656
▁SD	-8657
▁vs	-8658
▁매매	-8659
▁선비	-8660
▁부작용	-8661
▁뉴턴	-8662
▁정변	-8663
▁줄여서	-8664
▁쾌속	-8665
지스	-8666
▁괴물	-8667
▁예조	-8668
▁114	-8669
▁검찰청	-8670
▁블랙홀	-8671
▁들어간다	-8672
▁미노	-8673
▁베니	-8674
▁연이	-8675
▁유저	-8676
▁소규모	-8677
▁맑	-8678
▁발라	-8679
▁정주	-8680
▁베네딕	-8681
▁플래시	-8682
▁대거	-8683
대원군	-8684
▁방사선	-8685
렉스	-8686
ial	-8687
▁공감	-8688
▁그대	-8689
▁김정일	-8690
▁매니저	-8691
▁알루미	-8692
▁영산	-8693
▁태극	-8694
▁코믹스	-8695
▁이어진다	-8696
▁빔	-8697
▁자음	-8698
▁아랫	-8699
▁컨셉	-8700
▁태그	-8701
▁학업	-8702
▁안토니오	-8703
먼스	-8704
▁경신	-8705
▁이준	-8706
▁따른다	-8707
hn	-8708
러드	-8709
▁은데	-8710
▁퇴임	-8711
▁파인	-8712
▁고쳐	-8713
▁캔자스	-8714
▁답변	-8715
▁시정	-8716
▁지침	-8717
▁군중	-8718
▁양호	-8719
▁요정	-8720
▁팔리	-8721
▁컷	-8722
황후	-8723
▁Sc	-8724
▁어미	-8725
ign	-8726
▁가드	-8727
▁에미	-8728
▁조부	-8729
▁중형	-8730
▁악단	-8731
▁운수	-8732
▁자택	-8733
▁115	-8734
▁구스타	-8735
▁벵	-8736
▁김규	-8737
▁스칼	-8738
▁앵글	-8739
▁이남	-8740
▁118	-8741
▁시위대	-8742
저지	-8743
▁비로소	-8744
▁통치자	-8745
▁로그	-8746
▁연승	-8747
타리오	-8748
조건	-8749
▁공조	-8750
▁세이브	-8751
▁윤치호	-8752
▁`	-8753
▁체스	-8754
▁원로원	-8755
TS	-8756
▁과반	-8757
▁비주	-8758
▁하프	-8759
▁변이	-8760
보르	-8761
▁심해	-8762
▁진사	-8763
▁일리노	-8764
▁취업	-8765
닐라	-8766
▁대부	-8767
▁생체	-8768
▁깎	-8769
▁남미	-8770
▁종착	-8771
▁주부	-8772
▁일리노이	-8773
▁믹	-8774
▁나올	-8775
▁어긋	-8776
▁용이	-8777
▁키르	-8778
▁혜택	-8779
▁크리스티안	-8780
하루	-8781
▁동정	-8782
▁증손	-8783
▁하르	-8784
▁헬리	-8785
▁무승부	-8786
▁우즈베	-8787
▁땃쥐	-8788
▁지인	-8789
▁경찰관	-8790
▁승부차기	-8791
▁구와	-8792
▁재상	-8793
▁카우	-8794
▁커널	-8795
▁흔하	-8796
▁1898	-8797
기념	-8798
문트	-8799
▁숙청	-8800
▁퍼지	-8801
▁뉴저지	-8802
▁레바논	-8803
▁팰	-8804
▁마력	-8805
▁만료	-8806
▁힌두교	-8807
▁꿀	-8808
▁남구	-8809
▁반해	-8810
▁기각	-8811
▁밝기	-8812
▁본국	-8813
마이오스	-8814
▁GP	-8815
▁극작	-8816
▁맥도	-8817
▁서자	-8818
▁종속	-8819
▁미하일	-8820
▁소방서	-8821
▁모로코	-8822
▁소모	-8823
▁밀집	-8824
▁외관	-8825
▁파란색	-8826
교도	-8827
함수	-8828
▁GS	-8829
▁미세	-8830
▁헬기	-8831
▁바빌	-8832
바닥	-8833
▁순조	-8834
▁축출	-8835
▁통보	-8836
▁뇌물	-8837
▁우측	-8838
벨트	-8839
▁어렸	-8840
▁한족	-8841
▁III	-8842
▁반지름	-8843
▁살펴보	-8844
▁스폰	-8845
▁전년	-8846
▁직면	-8847
▁코카	-8848
▁필사	-8849
▁성리학	-8850
▁왕세	-8851
▁이끈	-8852
▁연예인	-8853
▁웨스턴	-8854
▁체코슬로	-8855
▁체코슬로바키아	-8856
▁렐	-8857
▁선도	-8858
▁리뷰	-8859
▁사적	-8860
▁희귀	-8861
▁쯔	-8862
미사	-8863
히코	-8864
▁였음	-8865
▁예고	-8866
ph	-8867
쟁이	-8868
▁관제	-8869
▁웹툰	-8870
▁레슬링	-8871
▁스크립	-8872
▁그레고	-8873
▁디비시온	-8874
▁프로덕션	-8875
시즘	-8876
▁부스	-8877
▁지우	-8878
▁케빈	-8879
▁범유행	-8880
속기	-8881
▁기증	-8882
▁호출	-8883
▁가옥	-8884
▁배수	-8885
▁척추	-8886
▁천재	-8887
타니	-8888
▁서신	-8889
▁지출	-8890
▁케냐	-8891
▁129	-8892
▁시가지	-8893
▁무성	-8894
▁카디	-8895
▁젊은이	-8896
레타	-8897
▁나눈	-8898
▁날아	-8899
▁발급	-8900
▁종래	-8901
▁대변인	-8902
▁의약품	-8903
▁알루미늄	-8904
▁광해군	-8905
틱스	-8906
화물	-8907
▁말미	-8908
▁패럴	-8909
▁화력	-8910
테르부르크	-8911
▁맏	-8912
▁모나	-8913
▁승자	-8914
▁임원	-8915
아키	-8916
▁파산	-8917
▁페널	-8918
▁외야수	-8919
▁로비	-8920
▁발병	-8921
▁봉안	-8922
▁Ne	-8923
▁스타리그	-8924
▁옳	-8925
▁센티	-8926
▁재혼	-8927
▁컴백	-8928
▁개막전	-8929
▁닦	-8930
▁등기	-8931
▁어른	-8932
▁워크	-8933
▁중산	-8934
▁창출	-8935
▁실망	-8936
▁응시	-8937
▁켈리	-8938
▁폭넓	-8939
▁핑크	-8940
▁달한다	-8941
치기	-8942
▁난징	-8943
▁1899	-8944
▁벨라루스	-8945
▁글루	-8946
▁원천	-8947
▁부의장	-8948
▁어려워	-8949
▁사위	-8950
▁재선	-8951
▁첨단	-8952
▁연산자	-8953
▁총사령	-8954
▁무명	-8955
▁마운트	-8956
코딩	-8957
▁저주	-8958
▁전속	-8959
▁중공	-8960
▁세이부	-8961
▁확실히	-8962
개미	-8963
그리	-8964
▁부피	-8965
▁성폭	-8966
▁지옥	-8967
▁청산	-8968
▁케임	-8969
▁사용자	-8970
▁러셀	-8971
▁미들	-8972
▁예하	-8973
▁토양	-8974
▁한테	-8975
▁회관	-8976
▁흔들	-8977
▁브리튼	-8978
TA	-8979
타리	-8980
▁싸이	-8981
▁총칭	-8982
▁천문대	-8983
▁퉁	-8984
레아	-8985
▁사본	-8986
▁장례식	-8987
▁키보드	-8988
온다	-8989
▁기술자	-8990
▁플라스틱	-8991
니까	-8992
rom	-8993
▁웬	-8994
우트	-8995
▁황족	-8996
▁유라	-8997
▁커지	-8998
▁뒷받침	-8999
▁극한	-9000
▁오오	-9001
▁워너	-9002
▁스트리	-9003
▁바꾼	-9004
▁토끼	-9005
▁희곡	-9006
포로	-9007
▁유진	-9008
▁ch	-9009
▁구할	-9010
▁유방	-9011
▁각도	-9012
▁남작	-9013
▁토미	-9014
▁감행	-9015
▁안테	-9016
▁적혀	-9017
▁흔한	-9018
느러미	-9019
▁끌어들	-9020
▁괘	-9021
▁구경	-9022
▁벽돌	-9023
▁시범	-9024
▁에밀	-9025
▁142	-9026
▁얹	-9027
▁공리	-9028
▁양반	-9029
▁오크	-9030
▁옹립	-9031
▁혼동	-9032
MA	-9033
로우	-9034
▁ID	-9035
▁가신	-9036
▁끼쳤	-9037
▁거래소	-9038
▁조지프	-9039
▁설교	-9040
▁독서	-9041
▁리프	-9042
▁사간	-9043
▁소생	-9044
▁교통국	-9045
▁아리아	-9046
ens	-9047
▁대치	-9048
▁폭포	-9049
▁월요일	-9050
토르	-9051
▁감마	-9052
▁만성	-9053
▁제국주의	-9054
▁대패	-9055
▁벨트	-9056
▁병기	-9057
파이어	-9058
▁타임스	-9059
▁프란츠	-9060
pp	-9061
▁채워	-9062
▁학기	-9063
셰비키	-9064
방송공사	-9065
진군	-9066
▁BS	-9067
▁CJ	-9068
▁공적	-9069
▁광둥	-9070
▁채소	-9071
▁화자	-9072
ction	-9073
▁썬	-9074
urn	-9075
▁신원	-9076
▁형조	-9077
▁도카이	-9078
타주	-9079
▁무함	-9080
▁정성	-9081
▁피겨	-9082
▁화상	-9083
▁프톨레	-9084
▁더글러스	-9085
▁프톨레마이오스	-9086
▁가야	-9087
▁중복	-9088
▁룩셈	-9089
▁본문	-9090
▁시코	-9091
lan	-9092
▁스턴	-9093
▁마르티	-9094
▁룩셈부르크	-9095
럴드	-9096
▁JT	-9097
▁김지	-9098
▁수분	-9099
▁트리플	-9100
▁온타리오	-9101
▁보위	-9102
▁의자	-9103
▁Man	-9104
▁잃어버	-9105
▁쟈	-9106
▁체류	-9107
▁대서양	-9108
▁부여받	-9109
ert	-9110
▁끊임없이	-9111
▁발리	-9112
▁제네바	-9113
글라	-9114
올라	-9115
▁마녀	-9116
▁시가	-9117
▁영문	-9118
▁왼손	-9119
▁축물	-9120
▁청주시	-9121
▁밍	-9122
브르	-9123
▁자크	-9124
롤라이나	-9125
▁선배	-9126
▁금요일	-9127
▁스즈키	-9128
샤바	-9129
▁서류	-9130
▁그래미	-9131
▁점성술	-9132
▁콕	-9133
▁서장	-9134
▁촉매	-9135
▁코시	-9136
덩이	-9137
▁동네	-9138
▁빌라	-9139
▁선행	-9140
▁정적	-9141
▁피신	-9142
▁플랫폼	-9143
▁게리	-9144
▁유체	-9145
▁광주광역시	-9146
▁익스프레스	-9147
▁던져	-9148
▁동학	-9149
▁1902	-9150
▁간선	-9151
▁물품	-9152
▁발기	-9153
▁함정	-9154
▁가벼운	-9155
▁기사단	-9156
천리	-9157
▁걸렸	-9158
▁명종	-9159
▁혐오	-9160
▁다항식	-9161
▁호르몬	-9162
두리	-9163
▁간토	-9164
▁기차	-9165
▁늘리	-9166
▁니코	-9167
▁포획	-9168
▁보이스	-9169
▁표기법	-9170
▁''	-9171
▁가환	-9172
▁깃발	-9173
▁엔딩	-9174
▁정려	-9175
▁표적	-9176
▁강변	-9177
▁국영	-9178
▁독성	-9179
크로	-9180
▁느꼈	-9181
▁버드	-9182
▁부를	-9183
▁우체	-9184
▁초신	-9185
▁스위치	-9186
▁러시아어	-9187
▁준결승전	-9188
▁몫	-9189
그룹	-9190
▁그릇	-9191
▁이관	-9192
▁단절	-9193
▁따온	-9194
▁영등	-9195
▁서유럽	-9196
lic	-9197
▁사슴	-9198
▁정동	-9199
▁관광지	-9200
▁마스크	-9201
▁바깥쪽	-9202
▁지식인	-9203
▁겁	-9204
▁수확	-9205
▁약자	-9206
▁위쪽	-9207
▁타케	-9208
▁갈수록	-9209
▁코끼리	-9210
aw	-9211
▁나노	-9212
▁메커	-9213
▁머무르	-9214
▁얽	-9215
▁당한다	-9216
나우	-9217
▁가까워	-9218
▁소나무	-9219
▁매수	-9220
▁기니	-9221
▁로라	-9222
▁원종	-9223
▁해밀턴	-9224
▁광명	-9225
▁동행	-9226
▁세비	-9227
▁이겼	-9228
▁정립	-9229
▁판례	-9230
▁참의	-9231
▁캐서	-9232
▁아이오	-9233
ys	-9234
ach	-9235
▁불꽃	-9236
▁연꽃	-9237
폴리	-9238
▁개소	-9239
▁검열	-9240
▁면제	-9241
▁부가	-9242
▁상금	-9243
▁슈팅	-9244
▁습지	-9245
▁이건	-9246
▁입각	-9247
▁주조	-9248
▁나갈	-9249
▁대합	-9250
▁성지	-9251
▁전방	-9252
▁조립	-9253
▁채우	-9254
▁탄도	-9255
▁비석	-9256
▁하단	-9257
▁비행장	-9258
▁아돌프	-9259
짓점	-9260
▁고아	-9261
▁대손	-9262
▁복용	-9263
▁역량	-9264
▁기숙	-9265
▁마블	-9266
▁입국	-9267
▁꼭짓점	-9268
▁부회장	-9269
▁단축	-9270
▁보복	-9271
▁소시	-9272
▁염증	-9273
▁퀘벡	-9274
▁크롬	-9275
▁뮤지션	-9276
▁이용자	-9277
TC	-9278
▁강동	-9279
▁실버	-9280
▁원료	-9281
▁이단	-9282
▁헌신	-9283
레슬링	-9284
▁연기자	-9285
카가	-9286
텍처	-9287
▁갱신	-9288
▁산출	-9289
▁색채	-9290
▁쓰촨	-9291
▁울프	-9292
▁입성	-9293
▁고양시	-9294
▁아키텍처	-9295
▁박지	-9296
▁아산	-9297
▁열도	-9298
▁하치	-9299
▁간단히	-9300
LS	-9301
타임	-9302
▁둔다	-9303
▁직결	-9304
▁코코	-9305
▁1901	-9306
▁포켓몬스터	-9307
디나	-9308
▁No	-9309
▁광대	-9310
▁브뤼	-9311
▁에디션	-9312
▁패밀리	-9313
구르	-9314
▁염색체	-9315
out	-9316
▁쌓았	-9317
▁커스	-9318
▁삿포로	-9319
▁토착종	-9320
▁페널티	-9321
▁페르디난	-9322
▁들이	-9323
▁민감	-9324
▁생생	-9325
▁임관	-9326
▁체르	-9327
▁특권	-9328
▁폭격기	-9329
테인	-9330
▁대두	-9331
▁스텔	-9332
▁쿄	-9333
미트	-9334
▁단의	-9335
▁보트	-9336
▁시네	-9337
▁드러머	-9338
국사	-9339
▁극대	-9340
▁누적	-9341
▁서문	-9342
▁압둘	-9343
▁축조	-9344
▁표방	-9345
▁매카트니	-9346
LE	-9347
그라	-9348
▁권총	-9349
▁이현	-9350
피어	-9351
▁공명	-9352
▁생략	-9353
▁오를	-9354
▁제로	-9355
▁프로레슬링	-9356
링턴	-9357
▁둥글	-9358
▁어류	-9359
▁일산	-9360
모스	-9361
▁수축	-9362
▁천하	-9363
▁카미	-9364
▁사이토	-9365
▁영국인	-9366
루아	-9367
자르	-9368
▁레즈	-9369
▁분수	-9370
▁리더십	-9371
▁요르단	-9372
IG	-9373
▁공예	-9374
▁호모	-9375
▁케임브리지	-9376
▁김창	-9377
▁아라비아	-9378
▁라그	-9379
▁안경	-9380
▁즐겨	-9381
▁페니	-9382
▁경성부	-9383
▁일으킬	-9384
▁낫	-9385
▁자작	-9386
▁바이킹	-9387
▁메커니즘	-9388
▁울산광역시	-9389
▁여운	-9390
아웃	-9391
일으	-9392
▁소말	-9393
▁실적	-9394
▁도요토미	-9395
▁불러일으	-9396
ug	-9397
▁렘	-9398
▁례	-9399
▁괴롭	-9400
▁아브	-9401
▁오쿠	-9402
▁정문	-9403
▁사회당	-9404
▁차르	-9405
▁화강	-9406
▁kt	-9407
▁고산	-9408
▁체중	-9409
▁하비	-9410
▁언어학	-9411
▁발렌시아	-9412
▁동조	-9413
▁보헤	-9414
▁원본	-9415
▁터보	-9416
▁특색	-9417
▁패했	-9418
▁광저우	-9419
▁알렉산드르	-9420
▁날카	-9421
▁무궁	-9422
▁학대	-9423
▁쓰레기	-9424
▁어려서	-9425
▁아리스토	-9426
▁아시카가	-9427
▁옥스퍼드	-9428
▁MB	-9429
▁이태	-9430
▁그다지	-9431
파르	-9432
▁비타	-9433
▁선동	-9434
▁조이	-9435
▁갈리아	-9436
▁사업가	-9437
▁이병	-9438
▁조수	-9439
▁퇴역	-9440
▁노태우	-9441
▁장기간	-9442
▁트로피	-9443
▁홈구장	-9444
▁섹스	-9445
▁어둠	-9446
▁회상	-9447
클레스	-9448
기스	-9449
▁불신	-9450
▁손꼽	-9451
▁잡혀	-9452
▁제치	-9453
▁카프	-9454
▁토기	-9455
▁All	-9456
▁개인전	-9457
▁파이터	-9458
쿠버	-9459
펜하	-9460
▁교대	-9461
▁기르	-9462
▁다마	-9463
▁크레이	-9464
테르담	-9465
▁134	-9466
▁마우	-9467
▁질소	-9468
카미	-9469
▁연봉	-9470
노미야	-9471
ype	-9472
▁개화	-9473
▁현은	-9474
라이어	-9475
▁방송인	-9476
▁두께	-9477
▁조형	-9478
▁전염병	-9479
▁피고인	-9480
▁아인슈타인	-9481
올로	-9482
▁스님	-9483
▁원더	-9484
▁취항	-9485
▁당연히	-9486
▁알렉산드리아	-9487
▁Cl	-9488
▁EX	-9489
▁패널	-9490
▁THE	-9491
▁푸에르	-9492
▁무함마드	-9493
▁검출	-9494
▁공고	-9495
▁김제	-9496
▁어뢰	-9497
ke	-9498
대장	-9499
▁루타	-9500
▁만주국	-9501
▁지도부	-9502
▁1903	-9503
그래	-9504
정리	-9505
ase	-9506
▁공황	-9507
▁패한	-9508
▁드레스	-9509
▁모서리	-9510
▁정해진	-9511
카타	-9512
퀘어	-9513
▁리만	-9514
▁반공	-9515
그레	-9516
▁미륵	-9517
▁AN	-9518
▁가역	-9519
▁모모	-9520
▁전위	-9521
▁좌측	-9522
▁토요	-9523
▁헌정	-9524
베트남	-9525
사리	-9526
하키	-9527
▁강간	-9528
▁명하	-9529
▁삼촌	-9530
▁배우자	-9531
▁이성계	-9532
▁야마구치	-9533
▁노보	-9534
▁마키	-9535
사이드	-9536
▁방글라	-9537
▁컨트리	-9538
▁1884	-9539
▁방글라데시	-9540
▁기분	-9541
▁아폴로	-9542
▁엇	-9543
방울	-9544
▁구형	-9545
▁물가	-9546
▁직경	-9547
▁파병	-9548
▁쓰시마	-9549
리코	-9550
▁김홍	-9551
▁상고	-9552
▁잘라	-9553
▁와일드	-9554
처스	-9555
▁Gr	-9556
▁각색	-9557
▁남매	-9558
▁단면	-9559
▁에콰	-9560
▁취미	-9561
▁코믹	-9562
▁미시시피	-9563
▁에콰도르	-9564
▁하리	-9565
▁One	-9566
도스	-9567
천사	-9568
▁로저	-9569
▁우치	-9570
▁인질	-9571
▁차가	-9572
▁함선	-9573
역학	-9574
CAF	-9575
▁동이	-9576
▁정유	-9577
▁LA	-9578
▁모은	-9579
▁슬라브	-9580
▁세키	-9581
▁회피	-9582
▁히타	-9583
▁기념관	-9584
▁그레이트	-9585
▁대구광역시	-9586
▁앰	-9587
▁실재	-9588
▁정선	-9589
▁기념비	-9590
▁더욱이	-9591
▁데카	-9592
▁밀란	-9593
▁장벽	-9594
▁토시	-9595
▁1800	-9596
▁군산	-9597
▁조승	-9598
▁복합체	-9599
라이언트	-9600
▁따왔	-9601
가와현	-9602
▁신도비	-9603
▁아나키	-9604
▁염소	-9605
▁진전	-9606
▁오사카부	-9607
▁와이번스	-9608
▁발칸	-9609
▁의결	-9610
▁클라이언트	-9611
고스	-9612
▁갈래	-9613
▁네오	-9614
▁준주	-9615
▁중령	-9616
▁지녔	-9617
▁클라이	-9618
▁아미노산	-9619
불교	-9620
히토	-9621
▁강대	-9622
▁실무	-9623
▁우회	-9624
▁마르틴	-9625
▁프란체	-9626
▁히로시	-9627
▁중앙아시아	-9628
▁구스	-9629
▁군함	-9630
▁상응	-9631
▁상트	-9632
▁들어갈	-9633
▁프레드	-9634
간지	-9635
▁농부	-9636
▁도널드	-9637
▁콤팩트	-9638
▁북아프리카	-9639
▁륜	-9640
▁IN	-9641
11	-9642
▁경작	-9643
▁퇴적	-9644
▁티코	-9645
▁니콜라이	-9646
▁샌디	-9647
▁추첨	-9648
가르	-9649
▁음향	-9650
▁}	-9651
니시	-9652
▁CN	-9653
▁간신	-9654
▁대문	-9655
▁분량	-9656
▁무너지	-9657
▁조반니	-9658
▁밝힌	-9659
▁복소수	-9660
▁충청도	-9661
▁벌인	-9662
▁소자	-9663
▁유부	-9664
▁이북	-9665
▁전구	-9666
▁진료	-9667
▁마르코	-9668
▁효고	-9669
▁꼭대기	-9670
▁되돌아	-9671
ree	-9672
▁곡물	-9673
▁구약	-9674
▁도선	-9675
▁상가	-9676
▁달걀	-9677
▁불린	-9678
▁카사	-9679
번뇌	-9680
▁관절	-9681
▁비뉴	-9682
▁철폐	-9683
테이션	-9684
▁선우	-9685
▁추론	-9686
▁팟	-9687
사우	-9688
▁공약	-9689
▁당수	-9690
▁무슨	-9691
▁심화	-9692
▁쥐과	-9693
▁소행성	-9694
▁일자리	-9695
▁기저	-9696
▁다름	-9697
▁종말	-9698
▁갤러리	-9699
▁총대주교	-9700
파리	-9701
▁까닭	-9702
▁분출	-9703
▁민간인	-9704
▁소수자	-9705
pt	-9706
포터	-9707
▁가려	-9708
▁가산	-9709
▁상경	-9710
▁유대교	-9711
▁전시회	-9712
ary	-9713
▁GO	-9714
▁한층	-9715
▁거짓말	-9716
▁데스크	-9717
▁방사성	-9718
ass	-9719
▁가열	-9720
▁가오	-9721
▁겐지	-9722
▁권장	-9723
▁싸워	-9724
▁전복	-9725
▁하차	-9726
▁다케다	-9727
▁Ad	-9728
▁건륭	-9729
▁교량	-9730
▁러스	-9731
▁브란	-9732
▁신축	-9733
▁용서	-9734
▁정화	-9735
▁침체	-9736
▁득표율	-9737
▁카스티	-9738
act	-9739
▁델타	-9740
▁돌기	-9741
▁뉴욕주	-9742
▁대성당	-9743
▁스토어	-9744
사업	-9745
▁Br	-9746
▁대출	-9747
▁뒤쪽	-9748
▁반전	-9749
▁가브리	-9750
벤처	-9751
산성	-9752
▁감안	-9753
▁격차	-9754
▁프론	-9755
▁해남	-9756
▁활주	-9757
▁흥선	-9758
▁with	-9759
▁어드벤처	-9760
▁강희	-9761
▁모리스	-9762
▁수목	-9763
▁교도소	-9764
▁마가	-9765
▁막스	-9766
▁시야	-9767
▁자형	-9768
▁진행자	-9769
▁일렉트로	-9770
구역	-9771
▁견인	-9772
▁궁중	-9773
▁급수	-9774
▁냄새	-9775
▁불타	-9776
▁상법	-9777
▁이룬	-9778
▁장자	-9779
▁으려고	-9780
산맥	-9781
▁복권	-9782
▁살라	-9783
▁시킴	-9784
▁우물	-9785
▁해진다	-9786
▁올라간다	-9787
▁반군	-9788
▁샌드	-9789
▁이반	-9790
▁116	-9791
▁220	-9792
▁지지율	-9793
▁부드러운	-9794
개골	-9795
▁등용	-9796
▁남동생	-9797
▁볼리비아	-9798
▁절단	-9799
▁창녕	-9800
▁칼뱅	-9801
▁현감	-9802
▁거주지	-9803
▁기관총	-9804
▁쑤	-9805
▁맞붙	-9806
몰로지	-9807
▁인테르	-9808
▁페이스북	-9809
▁씌	-9810
▁찐	-9811
▁깨끗	-9812
▁라오	-9813
▁카를로	-9814
▁1860	-9815
ark	-9816
▁경인	-9817
▁농사	-9818
▁민정	-9819
▁버마	-9820
▁체력	-9821
▁폭로	-9822
▁스트라이크	-9823
▁연대기	-9824
▁스크립트	-9825
▁글래	-9826
▁기슭	-9827
▁디트로	-9828
▁마카오	-9829
▁포스터	-9830
▁디트로이트	-9831
▁발령	-9832
▁접수	-9833
기념물	-9834
▁버클리	-9835
▁줘	-9836
▁마니	-9837
▁무로	-9838
▁애리	-9839
▁올드	-9840
▁일파	-9841
▁새겨진	-9842
▁세바	-9843
▁1897	-9844
▁Ex	-9845
▁낙동	-9846
▁신정	-9847
▁오로	-9848
▁중원	-9849
▁피치	-9850
ream	-9851
▁시켰으며	-9852
▁홉	-9853
곡동	-9854
▁후반기	-9855
▁나루	-9856
▁평창	-9857
▁떡	-9858
▁단행본	-9859
▁중공업	-9860
▁카타르	-9861
버리	-9862
▁대관	-9863
▁찰리	-9864
▁후작	-9865
▁몰아내	-9866
▁생겨나	-9867
▁가의	-9868
▁종파	-9869
▁태백	-9870
▁모티브	-9871
▁홍문관	-9872
▁애칭	-9873
▁온대	-9874
▁사카이	-9875
▁일부분	-9876
▁가가	-9877
▁보성	-9878
▁상트페	-9879
▁상트페테르부르크	-9880
▁벽화	-9881
▁아소	-9882
▁쿠니	-9883
▁타우	-9884
▁솔루션	-9885
▁북경	-9886
▁전격	-9887
▁강남구	-9888
나드	-9889
▁리조	-9890
▁장제	-9891
▁적군	-9892
▁과실	-9893
▁동형	-9894
▁안산	-9895
▁왕정	-9896
▁입주	-9897
▁아름답	-9898
▁캐서린	-9899
▁바르샤바	-9900
▁랍	-9901
▁다를	-9902
▁전산	-9903
▁학력	-9904
▁델라	-9905
▁르노	-9906
▁브랜	-9907
▁미네소	-9908
▁속편	-9909
▁카즈	-9910
▁합당	-9911
▁그려진	-9912
츠크	-9913
푸르	-9914
▁느리	-9915
▁사살	-9916
▁마당	-9917
▁수중	-9918
▁나간다	-9919
▁제작사	-9920
▁경제학자	-9921
▁애틀랜타	-9922
▁셜	-9923
바른	-9924
▁Is	-9925
▁공손	-9926
▁돌입	-9927
▁서리	-9928
▁수료	-9929
▁호쿠	-9930
▁휴가	-9931
▁한국방송공사	-9932
▁넘기	-9933
▁저렴	-9934
▁효종	-9935
▁교육청	-9936
▁청소	-9937
▁팔레	-9938
▁공용어	-9939
▁클라크	-9940
▁섀	-9941
반구	-9942
▁;&	-9943
▁con	-9944
▁스퀘어	-9945
▁알프레	-9946
세기	-9947
▁리히	-9948
▁무술	-9949
▁조인	-9950
▁집결	-9951
▁가져오	-9952
▁유닉스	-9953
▁1880	-9954
▁신동	-9955
▁아닐	-9956
▁프렌	-9957
▁확진	-9958
부리	-9959
▁BM	-9960
▁노이	-9961
▁분파	-9962
▁소행	-9963
▁이빨	-9964
▁122	-9965
▁안드레아	-9966
푸아	-9967
▁고토	-9968
▁연동	-9969
▁정경	-9970
▁쥐속	-9971
▁타협	-9972
▁마라톤	-9973
▁함부르크	-9974
니지	-9975
▁갑옷	-9976
▁보강	-9977
▁빈도	-9978
▁숙주	-9979
▁창의	-9980
▁그림자	-9981
▁아마존	-9982
▁옥수수	-9983
▁거처	-9984
▁경위	-9985
▁청색	-9986
스카르	-9987
iss	-9988
▁김민	-9989
▁게릴라	-9990
▁이주하	-9991
▁일러스트	-9992
▁파라과이	-9993
▁뻔	-9994
피언	-9995
▁거뒀	-9996
▁메라	-9997
▁세네	-9998
▁설립자	-9999
나미	-10000
▁다툼	-10001
▁브룩	-10002
▁블리	-10003
▁을까	-10004
▁나란히	-10005
▁새로이	-10006
▁2022	-10007
▁슛	-10008
퍼슨	-10009
▁고추	-10010
▁동요	-10011
▁루크	-10012
▁막시	-10013
▁예명	-10014
▁오락	-10015
▁천연기념물	-10016
UR	-10017
▁낚	-10018
▁강풍	-10019
▁듀얼	-10020
▁석회	-10021
▁열심	-10022
▁유령	-10023
▁극작가	-10024
ii	-10025
▁강철	-10026
▁군청	-10027
▁두꺼	-10028
▁입양	-10029
▁진해	-10030
▁제조업	-10031
으니	-10032
케이	-10033
콥터	-10034
▁ES	-10035
▁석불	-10036
▁어리	-10037
▁이데	-10038
▁장원	-10039
▁출석	-10040
▁133	-10041
▁그레고리오	-10042
기구	-10043
▁어로	-10044
▁재해	-10045
네시	-10046
▁메릴	-10047
▁짐작	-10048
ake	-10049
▁등극	-10050
▁용암	-10051
▁NGC	-10052
▁++	-10053
▁이언	-10054
▁프롤	-10055
▁호응	-10056
▁였으므로	-10057
▁스노	-10058
▁스트라이커	-10059
▁엮	-10060
▁더비	-10061
▁무스	-10062
▁살려	-10063
▁두개골	-10064
▁교육부	-10065
▁키예프	-10066
▁기성	-10067
▁수녀	-10068
▁약하	-10069
▁원격	-10070
▁확고	-10071
▁경쟁력	-10072
▁추종	-10073
▁엘리트	-10074
▁이용객	-10075
▁도사	-10076
▁마애	-10077
▁이장	-10078
▁지청	-10079
▁쳐들	-10080
▁해부	-10081
▁지방산	-10082
▁사무총장	-10083
▁흥선대원군	-10084
타케	-10085
해튼	-10086
▁극도	-10087
▁번성	-10088
▁유스	-10089
▁제왕	-10090
▁화순	-10091
▁주어진다	-10092
▁소령	-10093
▁안치	-10094
▁위생	-10095
▁유정	-10096
자치시	-10097
▁CEO	-10098
▁특별자치시	-10099
▁대국	-10100
▁타지	-10101
▁기상청	-10102
▁DM	-10103
▁봉해	-10104
▁빛나	-10105
▁연못	-10106
▁요법	-10107
▁우상	-10108
▁워치	-10109
▁윤보	-10110
▁재난	-10111
▁현행	-10112
캐롤라이나	-10113
▁선장	-10114
▁자카	-10115
▁콘테	-10116
▁그렇지만	-10117
▁격자	-10118
▁따랐	-10119
▁몽고	-10120
▁붙여진	-10121
▁넌	-10122
old	-10123
▁아치	-10124
▁함양	-10125
▁이동하	-10126
▁반역	-10127
▁이득	-10128
▁장단	-10129
▁종점	-10130
▁진수	-10131
▁치른	-10132
▁파우	-10133
HO	-10134
타마	-10135
▁가볍	-10136
▁결핍	-10137
▁심야	-10138
▁제리	-10139
▁Mus	-10140
▁미생물	-10141
▁인프라	-10142
▁포도당	-10143
사관학교	-10144
▁결제	-10145
▁국유	-10146
▁농어	-10147
▁대본	-10148
▁일괄	-10149
▁지켰	-10150
▁옮겨졌	-10151
GA	-10152
▁개항	-10153
▁모용	-10154
▁자결	-10155
▁정관	-10156
▁가네	-10157
▁니카	-10158
▁울리	-10159
▁후진	-10160
다운	-10161
own	-10162
▁Ro	-10163
▁이규	-10164
▁헬륨	-10165
▁CBS	-10166
▁대지진	-10167
▁법정동	-10168
▁시뮬레이션	-10169
▁프랭클린	-10170
▁감동	-10171
▁명분	-10172
▁야시	-10173
▁펜싱	-10174
▁파이프	-10175
▁스리랑카	-10176
▁들려	-10177
▁가도	-10178
▁스로	-10179
▁암흑	-10180
▁된다면	-10181
▁아스널	-10182
▁앨리스	-10183
▁위나라	-10184
▁자치체	-10185
거래	-10186
뜨렸	-10187
ork	-10188
▁도우	-10189
▁파문	-10190
▁평민	-10191
끄러운	-10192
▁무궁화	-10193
▁샐	-10194
렉션	-10195
▁성령	-10196
▁자생	-10197
▁탁월	-10198
▁국악	-10199
▁앞장	-10200
▁겉보기	-10201
▁아니하	-10202
▁조계	-10203
▁아래쪽	-10204
▁그레고리	-10205
▁툰	-10206
미스	-10207
▁덮여	-10208
▁GDP	-10209
에미	-10210
▁NE	-10211
▁만년	-10212
▁문경	-10213
▁불행	-10214
▁아데	-10215
▁정인	-10216
▁무조건	-10217
▁열린다	-10218
lo	-10219
멘스	-10220
삭스	-10221
파크	-10222
▁온갖	-10223
▁하고	-10224
▁대사헌	-10225
▁마우스	-10226
버러	-10227
▁수년	-10228
▁스태	-10229
▁모터스	-10230
▁선거법	-10231
▁듀오	-10232
▁루비	-10233
▁미셸	-10234
▁부조	-10235
▁132	-10236
▁동성애자	-10237
▁삼국사기	-10238
위성	-10239
ick	-10240
▁닫힌	-10241
▁자르	-10242
▁아이스하키	-10243
▁PR	-10244
▁가타	-10245
▁타석	-10246
▁쾰	-10247
▁시종	-10248
▁장흥	-10249
▁총무	-10250
▁인디애나	-10251
▁동참	-10252
▁베른	-10253
▁속주	-10254
▁후속작	-10255
▁른	-10256
▁낙하	-10257
▁리모	-10258
▁모인	-10259
▁빈번	-10260
▁복음서	-10261
▁or	-10262
▁주화	-10263
▁퇴장	-10264
스기	-10265
원장	-10266
▁미친	-10267
▁상연	-10268
▁조병	-10269
▁주지	-10270
위원회	-10271
림픽	-10272
▁상기	-10273
▁시리	-10274
▁신상	-10275
▁정국	-10276
▁센고쿠	-10277
▁그리스인	-10278
▁CONCA	-10279
▁글로브	-10280
변이	-10281
헌영	-10282
▁수심	-10283
▁시국	-10284
▁초원	-10285
▁돌연변이	-10286
▁보헤미아	-10287
Hz	-10288
▁대각	-10289
▁시애	-10290
▁장대	-10291
▁표창	-10292
▁호족	-10293
▁비주얼	-10294
▁CONCACAF	-10295
▁국당	-10296
▁단과	-10297
▁매거진	-10298
▁헛	-10299
미즈	-10300
▁제너	-10301
라기	-10302
▁구니	-10303
▁아쿠	-10304
▁황도	-10305
ence	-10306
▁광양	-10307
▁현직	-10308
브리아	-10309
▁대성전	-10310
ix	-10311
타이드	-10312
▁통틀어	-10313
clude	-10314
메다	-10315
운다	-10316
▁공파	-10317
▁총기	-10318
▁기병대	-10319
▁국수	-10320
▁김병	-10321
▁맹세	-10322
▁발각	-10323
▁이모	-10324
▁마다가	-10325
마리	-10326
▁카바	-10327
바야시	-10328
▁애리조	-10329
▁오클랜드	-10330
▁초고	-10331
▁pro	-10332
▁댓	-10333
벨라	-10334
▁양육	-10335
▁미주리	-10336
▁자세히	-10337
▁짱	-10338
▁SL	-10339
▁난이	-10340
▁소울	-10341
▁저격	-10342
▁피로	-10343
▁시애틀	-10344
▁타이베이	-10345
▁합스부르크	-10346
할시	-10347
▁투항	-10348
플로	-10349
홀름	-10350
▁계시	-10351
▁낮추	-10352
▁로리	-10353
▁재질	-10354
공산	-10355
▁호의	-10356
ance	-10357
▁마르크스주의	-10358
▁숀	-10359
▁앗	-10360
▁관동	-10361
▁메일	-10362
▁페로	-10363
▁농산물	-10364
▁맨해튼	-10365
▁선보이	-10366
▁세워져	-10367
▁요제프	-10368
EM	-10369
다르	-10370
루냐	-10371
테면	-10372
▁복식	-10373
▁청동기	-10374
▁둘러싸여	-10375
▁이를테면	-10376
▁엥	-10377
ear	-10378
▁비늘	-10379
▁극락	-10380
▁아빠	-10381
▁티켓	-10382
▁소피아	-10383
▁볼셰비키	-10384
▁패럴림픽	-10385
▁감금	-10386
▁반성	-10387
▁붙여졌	-10388
▁우즈베키스탄	-10389
어질	-10390
▁공표	-10391
▁김옥	-10392
▁내면	-10393
▁민요	-10394
▁수교	-10395
▁의과	-10396
▁활주로	-10397
▁1885	-10398
▁GN	-10399
▁Ph	-10400
▁개헌	-10401
▁밀러	-10402
▁배속	-10403
▁이븐	-10404
▁포고	-10405
▁중앙부	-10406
십자	-10407
▁리터	-10408
▁매직	-10409
▁세븐	-10410
▁실존	-10411
▁즘	-10412
▁수염	-10413
▁야구단	-10414
▁창시자	-10415
▁입수	-10416
▁퍼포	-10417
▁올바른	-10418
▁1870	-10419
티시	-10420
▁바디	-10421
▁NAS	-10422
▁스폰서	-10423
▁세손	-10424
▁제동	-10425
▁호리	-10426
▁오로지	-10427
▁퍼포먼스	-10428
쩌둥	-10429
▁감수	-10430
▁생계	-10431
▁마오쩌둥	-10432
파이	-10433
▁일리	-10434
▁청자	-10435
▁예선전	-10436
▁유권자	-10437
지오	-10438
▁리바	-10439
▁머스	-10440
▁원심	-10441
▁지로	-10442
▁우체국	-10443
관리	-10444
▁un	-10445
▁경질	-10446
▁왜구	-10447
▁대장군	-10448
▁To	-10449
▁냐는	-10450
▁우아	-10451
▁240	-10452
▁450	-10453
▁1871	-10454
▁평안남도	-10455
▁뾰	-10456
제이	-10457
▁참사	-10458
▁테일	-10459
테리아	-10460
▁프랜시스	-10461
▁돌출	-10462
▁벤치	-10463
▁하노이	-10464
▁네이션스컵	-10465
▁쉴	-10466
▁중상	-10467
▁학설	-10468
▁볼프	-10469
▁카터	-10470
▁꼽힌다	-10471
OV	-10472
▁관행	-10473
▁내성	-10474
▁신종	-10475
▁전날	-10476
▁전단	-10477
▁마닐라	-10478
▁활발히	-10479
irl	-10480
▁증인	-10481
텔레스	-10482
▁갈리	-10483
▁유료	-10484
▁프레이	-10485
▁온다	-10486
▁중서	-10487
▁청룡	-10488
▁편집자	-10489
▁맷	-10490
▁역도	-10491
▁주된	-10492
▁중생	-10493
▁화랑	-10494
lass	-10495
면체	-10496
▁지성	-10497
▁함자	-10498
▁해저	-10499
▁로렌스	-10500
▁쿡	-10501
테쓰	-10502
▁각성	-10503
▁남용	-10504
▁뉴클	-10505
▁실험실	-10506
▁1600	-10507
▁평안북도	-10508
ild	-10509
▁AD	-10510
▁반하	-10511
▁앞쪽	-10512
▁이양	-10513
▁수원시	-10514
컨대	-10515
▁당내	-10516
▁콜레	-10517
▁파나마	-10518
▁USS	-10519
▁내무부	-10520
▁알래스카	-10521
▁분과	-10522
▁수인	-10523
▁유러	-10524
▁줄어	-10525
▁출가	-10526
▁카니	-10527
등식	-10528
▁CM	-10529
▁고쿠	-10530
▁로페	-10531
▁생선	-10532
▁흉노	-10533
▁아리스토텔레스	-10534
▁개개	-10535
▁시합	-10536
▁테라	-10537
▁트릭	-10538
▁푸르	-10539
▁양성자	-10540
▁프라하	-10541
▁프로리그	-10542
▁문고	-10543
▁불어	-10544
▁위스	-10545
▁퍼스	-10546
▁빅토르	-10547
ection	-10548
맥스	-10549
ans	-10550
▁루카	-10551
▁호크	-10552
▁다람쥐	-10553
▁유치원	-10554
▁브레이크	-10555
▁감싸	-10556
▁상급	-10557
▁요지	-10558
▁자칭	-10559
▁지오	-10560
▁휴게	-10561
▁알렉스	-10562
▁앤더슨	-10563
▁일으킨다	-10564
▁능선	-10565
▁성실	-10566
▁다나카	-10567
라고	-10568
▁구청	-10569
▁궁궐	-10570
▁줄여	-10571
▁박헌영	-10572
▁자란다	-10573
▁러시아인	-10574
사상	-10575
▁무척	-10576
▁이룩	-10577
▁정제	-10578
▁퍼스트	-10579
▁1200	-10580
▁유러피언	-10581
▁교실	-10582
▁끝났	-10583
▁리비	-10584
▁이완	-10585
▁화기	-10586
▁역사가	-10587
지기	-10588
▁걸린	-10589
▁독도	-10590
▁부각	-10591
▁케라	-10592
▁국보	-10593
▁다투	-10594
▁조광	-10595
▁친분	-10596
▁케인	-10597
▁아무것	-10598
▁올림피아	-10599
▁멍	-10600
으로	-10601
▁조례	-10602
▁왕세자	-10603
▁올랐으며	-10604
▁Sy	-10605
▁동로	-10606
▁경영자	-10607
▁잡아먹	-10608
▁케이프	-10609
▁시중	-10610
▁칼럼	-10611
▁동유럽	-10612
▁반란군	-10613
▁오른손	-10614
▁오미	-10615
▁신문사	-10616
▁마다가스카르	-10617
▁글러	-10618
▁려던	-10619
▁사쿠	-10620
▁차용	-10621
▁초빙	-10622
▁동물원	-10623
▁only	-10624
▁구마모토	-10625
메스	-10626
체고	-10627
▁돌보	-10628
▁서산	-10629
▁재외	-10630
▁지쿠	-10631
▁김정은	-10632
▁루돌프	-10633
▁시달리	-10634
체고비나	-10635
무소	-10636
▁섬세	-10637
▁성화	-10638
▁이방	-10639
▁EBS	-10640
▁레이싱	-10641
▁앤드루	-10642
▁몸통	-10643
▁한미	-10644
▁미군정	-10645
▁강령	-10646
▁징병	-10647
▁평형	-10648
▁부드럽	-10649
▁봉수	-10650
▁약혼	-10651
▁MTV	-10652
▁공민왕	-10653
▁다저스	-10654
ivers	-10655
▁뉴클레오	-10656
ish	-10657
▁경시	-10658
▁김원	-10659
▁농경	-10660
▁메카	-10661
▁칙령	-10662
▁통용	-10663
▁배려	-10664
▁재활	-10665
▁밴쿠버	-10666
OD	-10667
▁바트	-10668
▁송도	-10669
▁신발	-10670
▁통역	-10671
▁윤보선	-10672
GM	-10673
바흐	-10674
▁관문	-10675
▁수필	-10676
▁김규식	-10677
▁유년기	-10678
▁클레이	-10679
▁헬리콥터	-10680
▁괄	-10681
드슨	-10682
환경	-10683
▁가솔	-10684
▁나인	-10685
▁에프	-10686
▁영예	-10687
▁창문	-10688
▁특전	-10689
▁동대문	-10690
▁레이크	-10691
통일	-10692
▁전래	-10693
▁절망	-10694
▁주입	-10695
▁탑신	-10696
▁하류	-10697
▁넘어갔	-10698
▁부원군	-10699
▁로얄	-10700
▁포식	-10701
▁예정자	-10702
▁경희	-10703
▁나우	-10704
▁메뉴	-10705
▁일당	-10706
▁총애	-10707
▁정의당	-10708
▁친위대	-10709
▁Jo	-10710
▁독창	-10711
▁총통	-10712
▁커플	-10713
▁비타민	-10714
▁성남시	-10715
▁크라이	-10716
코토	-10717
▁보라	-10718
▁욕망	-10719
▁는다면	-10720
▁예수회	-10721
▁위너스	-10722
▁해리슨	-10723
▁남산	-10724
▁마술	-10725
▁산호	-10726
▁처하	-10727
▁나타냈	-10728
▁리조트	-10729
어사	-10730
▁NT	-10731
▁명소	-10732
▁시노	-10733
▁카테	-10734
▁케플러	-10735
▁경호	-10736
▁수다	-10737
▁시부	-10738
▁편제	-10739
▁포착	-10740
▁호스	-10741
▁솔로몬	-10742
▁ex	-10743
▁검정	-10744
▁제노	-10745
▁대대로	-10746
▁어려웠	-10747
토랑	-10748
▁담보	-10749
▁보행	-10750
▁아날	-10751
▁안녕	-10752
▁찬양	-10753
▁하반	-10754
▁사각형	-10755
▁레스토랑	-10756
▁해져	-10757
▁도교	-10758
▁마차	-10759
▁카지	-10760
▁제퍼슨	-10761
▁컴퓨팅	-10762
▁맞대	-10763
▁신지	-10764
▁유혹	-10765
▁파도	-10766
▁하키	-10767
▁가져온	-10768
▁고속버스	-10769
RA	-10770
▁얕	-10771
oun	-10772
▁대북	-10773
▁모의	-10774
▁시몬	-10775
▁실정	-10776
▁화엄	-10777
원수	-10778
▁당연	-10779
▁뾰족	-10780
▁플라톤	-10781
매매	-10782
▁관청	-10783
▁광도	-10784
▁모호	-10785
▁사역	-10786
▁소극	-10787
▁소음	-10788
▁스가	-10789
▁아키라	-10790
▁싣	-10791
천면	-10792
▁남해	-10793
▁테리	-10794
▁대합실	-10795
▁클린턴	-10796
▁해리스	-10797
▁벅	-10798
▁추이	-10799
▁브루스	-10800
EL	-10801
lat	-10802
▁가맹	-10803
▁어쩔	-10804
▁찬사	-10805
▁천왕	-10806
▁침묵	-10807
▁긴테쓰	-10808
fe	-10809
에스	-10810
지르	-10811
are	-10812
▁수양	-10813
▁이겨	-10814
▁보낸다	-10815
▁보로	-10816
▁블레	-10817
▁블로	-10818
▁최진	-10819
▁황소	-10820
▁효자	-10821
▁스톡홀름	-10822
az	-10823
신문	-10824
아나	-10825
▁라서	-10826
▁씨앗	-10827
▁Fr	-10828
▁국공	-10829
▁드미	-10830
▁불변	-10831
▁자제	-10832
ical	-10833
▁스테파	-10834
▁북아일랜드	-10835
▁이렇	-10836
▁허정	-10837
▁서재필	-10838
▁오리온	-10839
EG	-10840
▁다테	-10841
▁선천	-10842
▁연한	-10843
▁방어선	-10844
▁알프스	-10845
▁요시다	-10846
▁가늘	-10847
▁김유	-10848
▁마켓	-10849
▁무실	-10850
▁이점	-10851
▁바이트	-10852
▁아나톨	-10853
▁@	-10854
지능	-10855
히트	-10856
▁박종	-10857
▁주임	-10858
▁캐롤	-10859
▁내려졌	-10860
▁인공지능	-10861
▁sc	-10862
▁드루	-10863
▁럭비	-10864
▁리보	-10865
▁폭파	-10866
▁개구리	-10867
▁리프트	-10868
▁총사령관	-10869
include	-10870
▁도둑	-10871
▁수복	-10872
블랜드	-10873
▁넷째	-10874
▁라자	-10875
▁만장	-10876
▁본성	-10877
▁제물	-10878
▁분류군	-10879
려서	-10880
▁색소	-10881
▁ABC	-10882
▁결별	-10883
▁채취	-10884
▁타스	-10885
▁피라미	-10886
▁별세	-10887
▁화약	-10888
▁그래도	-10889
▁보수당	-10890
▁아키타	-10891
TP	-10892
▁":	-10893
▁CH	-10894
▁스텝	-10895
▁어군	-10896
▁카피	-10897
▁클리블랜드	-10898
정원	-10899
▁모어	-10900
▁엄밀	-10901
덴부르크	-10902
창호	-10903
▁DD	-10904
▁전담	-10905
▁포토	-10906
대표	-10907
▁AV	-10908
▁고든	-10909
▁로버	-10910
▁영유	-10911
▁원통	-10912
▁정거	-10913
▁나트륨	-10914
▁마천루	-10915
▁토스카	-10916
▁프린스	-10917
▁함경남도	-10918
▁전무	-10919
▁비밀리	-10920
▁투자자	-10921
▁구두	-10922
▁넘치	-10923
▁벤처	-10924
▁천국	-10925
▁210	-10926
▁릴리	-10927
▁슬픔	-10928
▁쓰여진	-10929
▁초신성	-10930
▁리사	-10931
▁야전	-10932
▁퇴직	-10933
▁가이드	-10934
놀이	-10935
라니	-10936
▁마셜	-10937
▁향했	-10938
▁내야수	-10939
▁타이거스	-10940
▁콘스탄티노폴리스	-10941
▁쾰른	-10942
▁로드리	-10943
▁선구자	-10944
▁자치주	-10945
▁방콕	-10946
▁소중	-10947
▁대원군	-10948
▁샀	-10949
군다	-10950
▁극우	-10951
▁동향	-10952
▁웨인	-10953
▁유선	-10954
▁제명	-10955
▁차출	-10956
▁치과	-10957
▁서대문	-10958
▁알파벳	-10959
▁올라갔	-10960
란토	-10961
사고	-10962
▁백두	-10963
▁약사	-10964
▁정형	-10965
▁켈트	-10966
카리	-10967
▁노론	-10968
▁리베	-10969
▁메이커	-10970
▁로크	-10971
▁묘비	-10972
▁실권	-10973
▁위그	-10974
▁안테나	-10975
▁추리	-10976
▁ATP	-10977
▁펌프	-10978
▁경전철	-10979
▁동시대	-10980
▁유아기	-10981
▁김형	-10982
▁왕권	-10983
▁장시	-10984
▁천거	-10985
▁파손	-10986
▁유격수	-10987
▁가브리엘	-10988
메드	-10989
▁종식	-10990
▁중합	-10991
공산당	-10992
▁주차장	-10993
▁피아니스트	-10994
▁멧	-10995
▁삼림	-10996
▁아이폰	-10997
▁타이어	-10998
▁튀르크	-10999
FL	-11000
대사	-11001
▁구실	-11002
▁미수	-11003
▁플리	-11004
▁적외선	-11005
▁아름다움	-11006
▁봇	-11007
▁엣	-11008
언스	-11009
▁강렬	-11010
▁밸리	-11011
▁여유	-11012
▁우림	-11013
▁형질	-11014
▁드디어	-11015
러지	-11016
클레	-11017
▁목회	-11018
▁야드	-11019
▁왕건	-11020
▁이의	-11021
▁톈진	-11022
▁합친	-11023
▁헬싱	-11024
▁용인시	-11025
▁정부군	-11026
수스	-11027
▁감상	-11028
▁모셔	-11029
▁안드	-11030
암동	-11031
휴일	-11032
ica	-11033
▁감성	-11034
▁감찰	-11035
▁마에	-11036
▁상행	-11037
▁스칸	-11038
▁임정	-11039
질러	-11040
▁가락	-11041
▁사방	-11042
▁유목	-11043
▁연극배우	-11044
소통	-11045
▁간첩	-11046
▁그저	-11047
▁불참	-11048
▁사설	-11049
▁잇따	-11050
▁친족	-11051
▁딥	-11052
충류	-11053
▁져서	-11054
대교	-11055
▁매트	-11056
▁어찌	-11057
해살이	-11058
▁콘테스트	-11059
▁헤르체고비나	-11060
▁구내	-11061
▁방치	-11062
▁삽화	-11063
▁애정	-11064
▁마누엘	-11065
▁소말리아	-11066
ey	-11067
캐슬	-11068
티넘	-11069
▁끼치	-11070
▁리본	-11071
▁악보	-11072
▁죽인	-11073
▁준수	-11074
▁칸국	-11075
▁캐리	-11076
▁플래티넘	-11077
▁he	-11078
▁공존	-11079
▁실록	-11080
▁절정	-11081
▁즐길	-11082
와라노	-11083
▁연산군	-11084
▁프레데	-11085
▁의사소통	-11086
▁후지와라노	-11087
▁고딕	-11088
▁산성	-11089
▁송신	-11090
▁여권	-11091
▁연말	-11092
▁예약	-11093
▁운임	-11094
▁사라진	-11095
▁스트로	-11096
▁1889	-11097
▁브루클린	-11098
60	-11099
▁비엔	-11100
▁사탕	-11101
▁삼존	-11102
▁어는	-11103
▁불량	-11104
▁슬하	-11105
▁외형	-11106
▁전전	-11107
▁지자	-11108
▁직통	-11109
테이너	-11110
tern	-11111
▁간신히	-11112
▁나타낸	-11113
합성	-11114
▁마땅	-11115
▁시네마	-11116
▁열심히	-11117
▁나카무라	-11118
▁스카우트	-11119
▁니혼	-11120
▁모하	-11121
▁서임	-11122
▁와라	-11123
▁치환	-11124
▁가솔린	-11125
▁화강암	-11126
▁늙	-11127
▁건전	-11128
▁라리	-11129
▁러서	-11130
▁로트	-11131
▁모금	-11132
▁본작	-11133
▁의류	-11134
▁집정	-11135
▁쿠퍼	-11136
▁기관지	-11137
▁두려움	-11138
▁목요일	-11139
▁발라드	-11140
▁가나가와현	-11141
들여	-11142
▁대영	-11143
▁징수	-11144
▁무형	-11145
▁하시	-11146
▁해독	-11147
▁AKB	-11148
▁말미암	-11149
▁메디치	-11150
▁브레이	-11151
▁엔트리	-11152
▁오바마	-11153
▁챙	-11154
▁강해	-11155
▁김준	-11156
▁봉화	-11157
▁중퇴	-11158
▁피지	-11159
▁For	-11160
▁패트릭	-11161
sh	-11162
▁댈	-11163
망디	-11164
▁반포	-11165
▁베트	-11166
▁사서	-11167
▁삼중	-11168
▁시크	-11169
▁이송	-11170
▁처지	-11171
▁OST	-11172
▁라이더	-11173
▁이뤄졌	-11174
▁찾아내	-11175
난성	-11176
▁백과	-11177
▁영정	-11178
▁취했	-11179
▁So	-11180
▁나아	-11181
바나	-11182
▁다윈	-11183
▁메소	-11184
▁요충	-11185
▁뉴캐슬	-11186
AF	-11187
▁혀	-11188
위안	-11189
▁모색	-11190
▁유희	-11191
▁자란	-11192
▁토트	-11193
▁Com	-11194
부로	-11195
천동	-11196
▁pr	-11197
▁격리	-11198
▁비야	-11199
▁로마인	-11200
▁갈아	-11201
▁겹쳐	-11202
▁금호	-11203
▁리옹	-11204
▁벌여	-11205
▁작물	-11206
▁트렌	-11207
▁한중	-11208
▁해태	-11209
▁피라미드	-11210
bo	-11211
▁싼	-11212
가미	-11213
▁바꿨	-11214
▁볼트	-11215
▁은거	-11216
▁하야	-11217
▁생존자	-11218
IL	-11219
▁송출	-11220
▁호대	-11221
▁츄	-11222
유예	-11223
▁종자	-11224
▁항만	-11225
▁깜	-11226
▁Ma	-11227
▁도피	-11228
▁유의	-11229
▁정작	-11230
▁휩쓸	-11231
▁기숙사	-11232
▁낙동강	-11233
▁스타트	-11234
애미	-11235
▁공소	-11236
▁노면	-11237
▁비준	-11238
▁똑같이	-11239
▁Part	-11240
▁마이애미	-11241
▁훙	-11242
▁Mo	-11243
▁도래	-11244
▁베어	-11245
▁요격	-11246
▁투여	-11247
▁후배	-11248
도르프	-11249
▁장학금	-11250
▁지상파	-11251
▁프란체스코	-11252
프로	-11253
▁수락	-11254
▁클러	-11255
추부사	-11256
▁카카오	-11257
교통	-11258
부르	-11259
▁앙골	-11260
▁음운	-11261
▁공휴일	-11262
▁토리노	-11263
▁Live	-11264
▁미야자키	-11265
풀이	-11266
▁김명	-11267
▁열강	-11268
▁주계	-11269
▁중수	-11270
▁생긴다	-11271
▁일본국	-11272
▁자유민주당	-11273
▁EU	-11274
▁거미	-11275
▁비추	-11276
▁정종	-11277
▁힘썼	-11278
▁Sou	-11279
▁들어올	-11280
에미리트	-11281
▁아랍에미리트	-11282
▁걸어	-11283
▁양심	-11284
▁잠정	-11285
▁병자	-11286
▁의령	-11287
▁정읍	-11288
▁페트	-11289
▁드러냈	-11290
▁1848	-11291
▁공성	-11292
▁반기	-11293
▁벨리	-11294
▁서태	-11295
▁워즈	-11296
▁한신	-11297
바이트	-11298
▁어시스트	-11299
말로	-11300
▁거란	-11301
▁원군	-11302
▁천주	-11303
▁놀라운	-11304
▁여배우	-11305
▁튀니지	-11306
▁JTBC	-11307
▁프랑스인	-11308
▁고쳤	-11309
▁기이	-11310
▁연정	-11311
▁광복군	-11312
▁프랑스령	-11313
▁급여	-11314
▁모욕	-11315
▁성곽	-11316
EE	-11317
▁평판	-11318
클리드	-11319
▁미야기	-11320
▁센티미터	-11321
▁격추	-11322
▁내걸	-11323
▁순종	-11324
▁암스	-11325
▁포털	-11326
▁Col	-11327
▁유니버설	-11328
uc	-11329
화문	-11330
▁귀신	-11331
▁김광	-11332
▁인칭	-11333
▁자서	-11334
마르크	-11335
▁에스페	-11336
▁티아	-11337
▁대리인	-11338
▁에이즈	-11339
▁보수주의	-11340
▁카탈루냐	-11341
에몽	-11342
▁금산	-11343
▁워커	-11344
▁레이더	-11345
▁마이어	-11346
의사	-11347
▁교의	-11348
▁굴절	-11349
▁무과	-11350
▁습윤	-11351
▁응급	-11352
▁익숙	-11353
▁탄약	-11354
▁대법관	-11355
▁대승불교	-11356
▁"&	-11357
▁랴오	-11358
▁만화가	-11359
▁무네	-11360
▁국제법	-11361
▁뛰어났	-11362
▁마법사	-11363
▁줄기세포	-11364
▁캅	-11365
▁매킨	-11366
▁해피	-11367
▁카스티야	-11368
관계	-11369
▁문집	-11370
하이오	-11371
▁API	-11372
▁검은색	-11373
▁여의도	-11374
▁레드삭스	-11375
▁오하이오	-11376
워하	-11377
▁쌍대	-11378
▁진로	-11379
▁코리	-11380
▁모건	-11381
▁유식	-11382
▁교통부	-11383
▁사운드트랙	-11384
ann	-11385
▁류큐	-11386
▁배분	-11387
▁사쓰	-11388
▁평평	-11389
▁정거장	-11390
▁패러디	-11391
거스	-11392
▁바지	-11393
▁볼로	-11394
▁자명	-11395
▁우루스	-11396
▁지배자	-11397
▁니키	-11398
▁음절	-11399
페스트	-11400
▁Time	-11401
브로	-11402
▁부합	-11403
▁줄리	-11404
레스트	-11405
▁시코쿠	-11406
메니	-11407
▁EM	-11408
▁여사	-11409
▁재팬	-11410
▁추력	-11411
▁혼다	-11412
파니아	-11413
▁int	-11414
나마	-11415
lay	-11416
▁BC	-11417
▁권역	-11418
▁수로	-11419
▁한림	-11420
▁아이즈	-11421
row	-11422
▁공대	-11423
▁공영	-11424
▁국한	-11425
▁꼽히	-11426
▁총격	-11427
▁바그너	-11428
▁그라운드	-11429
나오	-11430
▁기전	-11431
▁김인	-11432
▁댄서	-11433
▁때려	-11434
▁리카	-11435
▁안개	-11436
▁여고	-11437
▁재일	-11438
olog	-11439
▁SNS	-11440
▁시켜서	-11441
워서	-11442
ous	-11443
▁동진	-11444
▁비정	-11445
▁점포	-11446
▁추억	-11447
▁파란	-11448
▁대단히	-11449
▁레이트	-11450
▁부총리	-11451
▁정치학	-11452
▁하노버	-11453
▁아날로그	-11454
▁맞춘	-11455
▁비토	-11456
▁느린	-11457
▁비대	-11458
▁사민	-11459
▁산둥	-11460
▁업자	-11461
▁명확히	-11462
OP	-11463
지부	-11464
▁검거	-11465
▁국외	-11466
▁라르	-11467
▁로키	-11468
▁사수	-11469
▁설문	-11470
▁치카	-11471
▁대니얼	-11472
▁프란치	-11473
자루	-11474
orn	-11475
ows	-11476
▁고생	-11477
▁실증	-11478
▁오만	-11479
▁방사능	-11480
▁가혹	-11481
▁도박	-11482
▁동산	-11483
▁든다	-11484
▁지법	-11485
현동	-11486
▁근사	-11487
▁누렸	-11488
▁모세	-11489
▁종군	-11490
▁시멘트	-11491
서스	-11492
▁GB	-11493
▁고로	-11494
▁골격	-11495
▁절벽	-11496
▁제위	-11497
▁특화	-11498
▁하행	-11499
▁커리어	-11500
용차	-11501
▁그랜트	-11502
▁모라	-11503
▁초콜	-11504
▁졌으나	-11505
▁섰	-11506
▁우한	-11507
▁헬레	-11508
프랑크	-11509
▁고인돌	-11510
▁카메룬	-11511
▁남군	-11512
▁다치	-11513
▁단결	-11514
▁대마	-11515
▁바꿀	-11516
▁방대	-11517
▁선명	-11518
▁용액	-11519
▁클라우	-11520
▁문단	-11521
▁셀레	-11522
▁관현악단	-11523
지아	-11524
▁경복	-11525
▁연립	-11526
▁오디	-11527
▁케르	-11528
▁합치	-11529
▁법원장	-11530
▁페트로	-11531
▁곶	-11532
▁국교	-11533
▁글꼴	-11534
▁Bla	-11535
▁어긋나	-11536
▁노르망디	-11537
시노	-11538
정동	-11539
▁남방	-11540
▁마테	-11541
▁부평	-11542
▁최선	-11543
▁편견	-11544
▁시켜야	-11545
▁Your	-11546
▁맬	-11547
▁관상	-11548
▁무안	-11549
▁범행	-11550
▁사림	-11551
▁신곡	-11552
▁종양	-11553
▁타락	-11554
▁라인업	-11555
▁제우스	-11556
버른	-11557
제품	-11558
▁보령	-11559
▁소외	-11560
▁항체	-11561
span	-11562
▁131	-11563
▁이뤄지	-11564
거지	-11565
▁가쿠	-11566
▁메스	-11567
▁부다	-11568
▁황색	-11569
▁대나무	-11570
▁저지대	-11571
▁파일럿	-11572
▁onlyinclude	-11573
▁GM	-11574
▁가중	-11575
▁단군	-11576
▁하코	-11577
▁형벌	-11578
▁체인지	-11579
▁NASA	-11580
▁촛	-11581
▁가고	-11582
▁간략	-11583
▁모빌	-11584
▁선봉	-11585
▁커서	-11586
▁콘솔	-11587
메이카	-11588
▁정보원	-11589
▁자메이카	-11590
▁쾨	-11591
칼리	-11592
▁수식	-11593
▁은혜	-11594
▁Sch	-11595
▁예컨대	-11596
▁교부	-11597
▁봉인	-11598
▁외치	-11599
▁중소기업	-11600
▁찔	-11601
▁선대	-11602
▁1883	-11603
▁라디	-11604
▁라바	-11605
▁모범	-11606
▁숙부	-11607
▁절감	-11608
▁영화상	-11609
틀리	-11610
▁at	-11611
▁무작	-11612
▁보루	-11613
▁재편	-11614
▁녕	-11615
▁객차	-11616
▁김윤	-11617
▁속력	-11618
▁중엽	-11619
▁원산지	-11620
센스	-11621
토프	-11622
▁사학	-11623
▁산요	-11624
▁유우	-11625
▁정반	-11626
▁가져다	-11627
▁공화정	-11628
▁제이슨	-11629
▁u	-11630
▁기세	-11631
▁다우	-11632
▁전보	-11633
른스트	-11634
▁라파엘	-11635
▁연구회	-11636
▁줄리아	-11637
amp	-11638
▁리즈	-11639
▁야외	-11640
▁연희	-11641
▁판소리	-11642
▁욱	-11643
▁가토	-11644
▁도키	-11645
▁리마	-11646
▁서귀	-11647
▁접한	-11648
▁피리	-11649
▁홀리	-11650
▁전반기	-11651
▁공무	-11652
▁기해	-11653
▁녹화	-11654
▁램프	-11655
▁맞춤	-11656
▁발상	-11657
▁큐브	-11658
▁국정원	-11659
▁에이전	-11660
▁기량	-11661
▁코소	-11662
▁해치	-11663
▁달라지	-11664
▁쳐들어	-11665
워스	-11666
▁SA	-11667
▁다듬	-11668
▁라기	-11669
▁식스	-11670
▁엔드	-11671
▁유공	-11672
▁적료	-11673
▁평지	-11674
▁플러	-11675
▁할인	-11676
네그로	-11677
▁해상도	-11678
▁하남	-11679
▁항우	-11680
▁ref	-11681
▁고분군	-11682
▁뛰어들	-11683
▁교향악단	-11684
▁유클리드	-11685
80	-11686
▁열전	-11687
▁팔렸	-11688
▁부상자	-11689
▁스칼라	-11690
CC	-11691
▁기와	-11692
▁안방	-11693
▁위조	-11694
빌라이	-11695
▁비서관	-11696
▁흐른다	-11697
히사	-11698
ood	-11699
▁Ge	-11700
▁분단	-11701
▁조교	-11702
▁카네	-11703
티모어	-11704
▁북유럽	-11705
▁텍사스주	-11706
돌이	-11707
들이	-11708
ink	-11709
▁고의	-11710
▁병마	-11711
▁안나	-11712
▁카마	-11713
▁잃어버린	-11714
ern	-11715
▁꿈꾸	-11716
▁너머	-11717
▁바쳤	-11718
▁스루	-11719
▁씨족	-11720
▁외래	-11721
▁이터	-11722
▁이회	-11723
▁자수	-11724
▁탄자	-11725
스트리	-11726
▁걸쳐서	-11727
▁뫼	-11728
▁Or	-11729
▁사영	-11730
▁온난	-11731
▁지석	-11732
▁멜버른	-11733
▁선진국	-11734
▁연장전	-11735
▁가우	-11736
▁나간	-11737
▁밀어	-11738
▁상어	-11739
▁송파	-11740
▁수위	-11741
▁약해	-11742
▁다이어	-11743
▁스캔들	-11744
▁Wind	-11745
프턴	-11746
▁RS	-11747
▁간사	-11748
▁도네	-11749
▁세습	-11750
▁콜럼	-11751
▁노벨상	-11752
▁위구르	-11753
▁프로모	-11754
▁1882	-11755
RT	-11756
▁계주	-11757
▁지극	-11758
▁헤이안	-11759
에고	-11760
치히	-11761
▁OB	-11762
▁우산	-11763
▁위로	-11764
▁통신사	-11765
▁대인	-11766
▁다이노스	-11767
II	-11768
▁콥	-11769
화학	-11770
▁RP	-11771
▁고마	-11772
▁관례	-11773
▁단속	-11774
▁요양	-11775
ost	-11776
▁tv	-11777
▁결사	-11778
▁달랐	-11779
▁족보	-11780
▁함량	-11781
▁토마토	-11782
▁프로그래머	-11783
US	-11784
▁관악	-11785
▁왕궁	-11786
▁요절	-11787
▁파벌	-11788
▁너무나	-11789
▁내일	-11790
▁대좌	-11791
▁동적	-11792
▁부교	-11793
▁여도	-11794
▁천수	-11795
▁표정	-11796
▁거성	-11797
▁단정	-11798
▁시안	-11799
▁군사력	-11800
▁아이언	-11801
▁카스트	-11802
40	-11803
▁루키	-11804
▁성원	-11805
▁월터	-11806
▁유생	-11807
▁재래	-11808
▁회귀	-11809
▁330	-11810
▁해안선	-11811
▁강행	-11812
▁북군	-11813
▁사안	-11814
▁세요	-11815
▁유서	-11816
▁주선	-11817
▁야마가타	-11818
도라	-11819
▁배달	-11820
▁새우	-11821
▁정정	-11822
▁최영	-11823
▁Day	-11824
▁미토콘	-11825
▁산티아	-11826
▁관계없이	-11827
▁미토콘드리아	-11828
데라	-11829
팡이	-11830
협회	-11831
▁군데	-11832
▁세련	-11833
▁장덕	-11834
▁내세우	-11835
▁고흥	-11836
▁그릴	-11837
▁급증	-11838
▁동포	-11839
▁법관	-11840
▁정은	-11841
▁올리브	-11842
▁중공군	-11843
▁히브리	-11844
▁Girl	-11845
▁La	-11846
▁내력	-11847
▁정월	-11848
▁항원	-11849
▁기념일	-11850
▁영원히	-11851
▁파시즘	-11852
▁필립스	-11853
▁쿠빌라이	-11854
융합	-11855
▁부왕	-11856
▁성동	-11857
▁출자	-11858
▁협업	-11859
▁시즈오카	-11860
▁고노	-11861
▁느낄	-11862
▁랭크	-11863
스탄불	-11864
▁달아났	-11865
▁대상자	-11866
▁대표자	-11867
▁폐기물	-11868
▁미스터리	-11869
▁이스탄불	-11870
▁덮개	-11871
▁아유	-11872
▁리믹스	-11873
▁몰타	-11874
▁부파	-11875
▁직속	-11876
▁항로	-11877
▁독수리	-11878
▁사이타마	-11879
▁줌	-11880
▁서면	-11881
▁어파	-11882
▁우시	-11883
▁우월	-11884
▁종영	-11885
▁데니스	-11886
▁부르주	-11887
▁사업소	-11888
▁슈퍼컵	-11889
▁핵융합	-11890
▁효고현	-11891
포시	-11892
호란	-11893
▁상록	-11894
▁수열	-11895
▁식용	-11896
▁몹	-11897
▁단말	-11898
▁빙하	-11899
▁잠깐	-11900
▁조셉	-11901
▁LED	-11902
▁단체전	-11903
▁해운대	-11904
지리	-11905
▁FK	-11906
▁남하	-11907
▁받들	-11908
▁아목	-11909
▁조슈	-11910
▁지르	-11911
▁형편	-11912
▁레오폴	-11913
▁어울리	-11914
▁프랜차	-11915
▁호스트	-11916
▁컨트롤러	-11917
▁렛	-11918
게스	-11919
서니	-11920
▁발동	-11921
▁주창	-11922
▁무실점	-11923
▁냥	-11924
여객	-11925
▁생겨난	-11926
▁지닌다	-11927
▁뇨	-11928
▁러일	-11929
▁소프	-11930
▁타수	-11931
▁호아	-11932
▁후예	-11933
오르크	-11934
▁4000	-11935
▁사회민주당	-11936
OT	-11937
▁군벌	-11938
▁노사	-11939
▁맡기	-11940
▁보름	-11941
▁스콜	-11942
▁제천	-11943
▁진한	-11944
▁비해서	-11945
▁테네시	-11946
나갔	-11947
oll	-11948
▁강당	-11949
▁넬슨	-11950
▁대진	-11951
▁산시	-11952
▁앞선	-11953
▁옮긴	-11954
▁증폭	-11955
▁켄트	-11956
▁피드	-11957
▁서사시	-11958
▁번창	-11959
▁양보	-11960
▁1868	-11961
▁컨테이너	-11962
▁묻혔	-11963
▁사치	-11964
▁신입	-11965
▁태후	-11966
▁오스틴	-11967
▁오일러	-11968
▁아케이드	-11969
▁관목	-11970
▁규탄	-11971
▁버터	-11972
▁사천	-11973
▁타일	-11974
▁떠오르	-11975
▁안티오	-11976
▁프랜차이즈	-11977
▁괌	-11978
▁쩐	-11979
▁놓인	-11980
▁염려	-11981
▁위력	-11982
▁알아보	-11983
▁여성주의	-11984
▁교직	-11985
▁내분	-11986
▁고트	-11987
▁금전	-11988
▁딜런	-11989
▁라미	-11990
▁분사	-11991
▁양수	-11992
▁제단	-11993
▁만난다	-11994
▁법조인	-11995
▁앙골라	-11996
▁제갈량	-11997
▁휴게소	-11998
본부	-11999
▁매리	-12000
▁전수	-12001
▁증오	-12002
▁키워	-12003
▁메릴랜드	-12004
▁쪼	-12005
▁과테	-12006
▁라카	-12007
▁무서	-12008
▁성악	-12009
▁베이커	-12010
▁과테말라	-12011
▁능동	-12012
▁시비	-12013
▁급속히	-12014
▁배역	-12015
▁오아	-12016
▁전세	-12017
▁점거	-12018
▁퍼즐	-12019
▁하의	-12020
▁각료	-12021
▁농지	-12022
▁밀레	-12023
▁320	-12024
▁경주시	-12025
▁파푸아	-12026
▁샨	-12027
히드	-12028
▁국철	-12029
▁습관	-12030
▁영덕	-12031
▁일각	-12032
▁절제	-12033
▁접종	-12034
▁청계	-12035
▁로마자	-12036
▁접어들	-12037
▁가고시마	-12038
▁거세	-12039
▁공안	-12040
▁대도	-12041
▁야마모토	-12042
▁찢	-12043
웨이트	-12044
펜하겐	-12045
▁new	-12046
▁발전기	-12047
▁레인저스	-12048
▁코펜하겐	-12049
▁몬테네그로	-12050
▁암스테르담	-12051
▁안무	-12052
▁저조	-12053
▁척도	-12054
▁초안	-12055
▁축전	-12056
▁카세	-12057
▁우의정	-12058
▁베르나르	-12059
바오	-12060
▁박성	-12061
▁외과	-12062
▁정령	-12063
▁대명사	-12064
▁노후	-12065
▁데드	-12066
▁생리	-12067
▁컨설	-12068
▁타리	-12069
▁사이먼	-12070
▁놈	-12071
걸이	-12072
게임	-12073
▁고온	-12074
▁넥센	-12075
▁았었	-12076
▁우연	-12077
▁이항	-12078
▁헌장	-12079
▁복음주의	-12080
▁TR	-12081
▁바울	-12082
▁우왕	-12083
▁이메	-12084
▁잔인	-12085
▁장병	-12086
▁치하	-12087
▁요충지	-12088
▁지붕돌	-12089
▁치러졌	-12090
▁산티아고	-12091
▁프란시스코	-12092
내리	-12093
웍스	-12094
▁수량	-12095
▁정몽	-12096
▁종신	-12097
▁출동	-12098
▁치유	-12099
▁편향	-12100
▁피할	-12101
▁에스페란토	-12102
▁후쿠오카현	-12103
▁복종	-12104
▁피우	-12105
▁이바지	-12106
▁코스타리카	-12107
▁늪	-12108
독립	-12109
▁DF	-12110
▁배드	-12111
▁양대	-12112
19	-12113
▁게끔	-12114
▁성산	-12115
▁소아	-12116
▁주심	-12117
LA	-12118
les	-12119
▁꾀하	-12120
▁브릿	-12121
▁자진	-12122
▁자서전	-12123
▁화장품	-12124
▁마이크로	-12125
▁도상	-12126
▁상국	-12127
▁서스	-12128
▁서주	-12129
▁영월	-12130
▁루이지애나	-12131
▁김선	-12132
▁조영	-12133
▁차선	-12134
▁충렬	-12135
▁피핀	-12136
▁그만큼	-12137
▁서바이	-12138
▁신주쿠	-12139
▁좌의정	-12140
디나비아	-12141
▁스칸디나비아	-12142
gr	-12143
▁사비	-12144
▁위촉	-12145
▁이아	-12146
▁위안부	-12147
▁주계열	-12148
▁네티	-12149
▁샤프	-12150
▁슈테	-12151
▁톰슨	-12152
▁페더	-12153
▁end	-12154
▁떠난다	-12155
▁보여준	-12156
▁수요일	-12157
▁요하네스	-12158
▁쿠웨이트	-12159
ung	-12160
▁천마	-12161
▁헌터	-12162
▁결과물	-12163
▁포르노	-12164
퍼레이션	-12165
▁이탈리아어	-12166
▁슌	-12167
▁끝날	-12168
▁위함	-12169
▁은신	-12170
▁철강	-12171
▁동맹국	-12172
꼬리	-12173
▁소대	-12174
▁순차	-12175
▁영암	-12176
▁자재	-12177
▁청도	-12178
▁추서	-12179
▁흩어져	-12180
▁거지	-12181
▁리코	-12182
▁축산	-12183
▁"()	-12184
▁텔레콤	-12185
▁가면라이더	-12186
익스	-12187
▁NP	-12188
▁정재	-12189
토리코	-12190
▁도자기	-12191
▁에른스트	-12192
▁le	-12193
▁당할	-12194
▁모차	-12195
▁직행	-12196
▁김옥균	-12197
▁서해안	-12198
▁결핵	-12199
▁고이	-12200
▁무언	-12201
▁타로	-12202
▁피크	-12203
▁해왕	-12204
라이드	-12205
▁김승	-12206
▁대청	-12207
▁새긴	-12208
▁전락	-12209
▁카툰	-12210
▁하타	-12211
▁브뤼셀	-12212
▁시트콤	-12213
▁철저히	-12214
▁갯	-12215
▁촐	-12216
▁고집	-12217
▁대덕	-12218
▁문무	-12219
▁주성	-12220
▁충무	-12221
▁부르고	-12222
▁Comp	-12223
▁육군사관학교	-12224
OW	-12225
▁톡	-12226
공주	-12227
우에	-12228
▁노아	-12229
▁배양	-12230
▁압록	-12231
▁함흥	-12232
▁후유	-12233
▁교육자	-12234
▁게오르크	-12235
▁니콜라스	-12236
▁기쁨	-12237
▁긴밀	-12238
▁대종	-12239
▁리튬	-12240
▁문종	-12241
▁전학	-12242
▁준장	-12243
▁칭송	-12244
▁탈취	-12245
▁203	-12246
▁데이브	-12247
▁유적지	-12248
▁컬렉션	-12249
▁트리오	-12250
▁colspan	-12251
니파	-12252
▁대차	-12253
▁차츰	-12254
▁첼로	-12255
▁측량	-12256
▁초콜릿	-12257
▁by	-12258
▁레프	-12259
▁바비	-12260
▁오하	-12261
▁코네	-12262
로이드	-12263
▁데일리	-12264
▁케이크	-12265
▁푸에르토리코	-12266
비크	-12267
▁격려	-12268
▁낚시	-12269
▁높였	-12270
▁박상	-12271
▁아드	-12272
▁원활	-12273
▁재발	-12274
▁짐승	-12275
▁글래스	-12276
▁로스쿨	-12277
▁도카이도	-12278
▁스킴	-12279
▁아흐	-12280
▁앤디	-12281
▁집착	-12282
▁기업가	-12283
▁1893	-12284
셀러	-12285
업자	-12286
gin	-12287
▁Fe	-12288
▁공양	-12289
▁높여	-12290
▁미성	-12291
▁었었	-12292
▁페오	-12293
▁폐렴	-12294
▁한큐	-12295
▁280	-12296
▁가라앉	-12297
▁장로교	-12298
▁지리학	-12299
상시	-12300
eth	-12301
▁내무	-12302
▁온화	-12303
▁정했	-12304
▁헤로	-12305
▁흡사	-12306
▁흥분	-12307
레드	-12308
▁백악	-12309
▁조니	-12310
▁하급	-12311
▁막판	-12312
▁선인	-12313
▁심포	-12314
▁학장	-12315
▁아라곤	-12316
▁윗부분	-12317
▁펠릭스	-12318
▁플랑크	-12319
▁해안가	-12320
▁플로리다주	-12321
▁갚	-12322
▁관성	-12323
▁김치	-12324
▁조제	-12325
▁나타날	-12326
▁생리학	-12327
▁지바현	-12328
세유	-12329
▁영천	-12330
▁월트	-12331
▁천천	-12332
▁IOC	-12333
▁어웨이	-12334
IR	-12335
▁과시	-12336
▁도출	-12337
▁반동	-12338
▁우두	-12339
▁스포르	-12340
▁유학자	-12341
▁천안시	-12342
▁가르시아	-12343
티에	-12344
▁AB	-12345
▁가했	-12346
▁금동	-12347
▁아와	-12348
▁유족	-12349
▁도야마	-12350
몬트	-12351
바리	-12352
▁도이	-12353
▁불사	-12354
▁주세	-12355
▁침례	-12356
▁TBS	-12357
▁노미야	-12358
▁민병대	-12359
▁비스타	-12360
▁함경북도	-12361
▁핼	-12362
▁관우	-12363
▁입헌	-12364
▁칼슘	-12365
루이스	-12366
▁논리학	-12367
▁왔으나	-12368
▁프리스	-12369
▁Univers	-12370
북구	-12371
▁숨기	-12372
▁에로	-12373
▁점검	-12374
▁천천히	-12375
▁Rock	-12376
▁핏	-12377
▁구한	-12378
▁까마	-12379
▁림프	-12380
▁마트	-12381
▁심부	-12382
▁제철	-12383
▁조롱	-12384
▁특기	-12385
▁탄자니아	-12386
계승	-12387
▁발목	-12388
▁심상	-12389
▁애인	-12390
▁유영	-12391
▁유포	-12392
▁한문	-12393
▁Rec	-12394
▁국제선	-12395
▁로베르	-12396
▁지켜보	-12397
▁부르고뉴	-12398
들러	-12399
▁간직	-12400
▁과잉	-12401
▁버러	-12402
▁소동	-12403
▁아츠	-12404
▁이황	-12405
▁서초구	-12406
▁픽처스	-12407
나기	-12408
▁기뻐	-12409
▁위즈	-12410
▁전미	-12411
▁Sup	-12412
▁게오르	-12413
▁다스렸	-12414
▁발사체	-12415
▁사상가	-12416
익스피어	-12417
▁가부	-12418
▁귀속	-12419
▁공방전	-12420
▁동맹군	-12421
▁셰익스피어	-12422
oth	-12423
▁겹치	-12424
▁상정	-12425
▁소사	-12426
▁스런	-12427
▁우울증	-12428
▁하이퍼	-12429
▁대주	-12430
▁마타	-12431
▁버섯	-12432
▁심문	-12433
▁용품	-12434
▁중고	-12435
▁녹색당	-12436
▁조선왕	-12437
▁미나모토	-12438
▁참모총장	-12439
▁Su	-12440
▁구금	-12441
▁구치	-12442
▁라흐	-12443
▁미아	-12444
▁세레	-12445
▁톱니	-12446
▁휴양	-12447
▁고려사	-12448
▁더블린	-12449
▁인플레이션	-12450
▁펫	-12451
▁공법	-12452
▁구독	-12453
▁미츠	-12454
▁위계	-12455
▁재차	-12456
▁특사	-12457
▁순양함	-12458
▁가와사키	-12459
국적	-12460
▁명인	-12461
▁취한	-12462
▁쇠고기	-12463
▁인공위성	-12464
▁IV	-12465
▁견고	-12466
▁김천	-12467
▁무단	-12468
▁물결	-12469
▁한번	-12470
▁도로는	-12471
▁서포터	-12472
▁수나라	-12473
▁카운트	-12474
▁중앙은행	-12475
태평	-12476
▁강성	-12477
▁배리	-12478
▁웃음	-12479
▁청량	-12480
▁황산	-12481
민스터	-12482
▁도르트	-12483
▁밝혀진	-12484
▁당뇨	-12485
▁명부	-12486
▁불경	-12487
▁아메	-12488
▁악곡	-12489
▁에바	-12490
▁자립	-12491
▁장녀	-12492
▁파편	-12493
▁강화도	-12494
▁절도사	-12495
▁매끄러운	-12496
▁고스	-12497
▁라가	-12498
▁메틸	-12499
▁보낼	-12500
▁스투	-12501
▁이우	-12502
▁취해	-12503
▁경계선	-12504
▁내린다	-12505
▁성매매	-12506
▁데스크톱	-12507
폭탄	-12508
mer	-12509
▁시속	-12510
▁에마	-12511
▁이바라	-12512
▁평안도	-12513
▁슈타	-12514
▁슬램	-12515
▁조현	-12516
▁직계	-12517
▁풍습	-12518
▁현판	-12519
▁휘말	-12520
로니아	-12521
▁스탠드	-12522
▁차세대	-12523
▁박테리아	-12524
▁노랑	-12525
▁대접	-12526
▁소용	-12527
▁연회	-12528
▁제창	-12529
▁230	-12530
▁GNU	-12531
▁율리우스	-12532
그마	-12533
▁CG	-12534
▁나뭇	-12535
▁노프	-12536
▁원유	-12537
▁주먹	-12538
▁USB	-12539
▁산스크	-12540
▁러시아군	-12541
▁상관없이	-12542
▁산스크리트	-12543
▁Do	-12544
▁무르	-12545
▁축성	-12546
▁코호	-12547
▁피사	-12548
▁하구	-12549
▁다이빙	-12550
▁1892	-12551
▁달라진다	-12552
▁펩	-12553
비안	-12554
유사	-12555
▁견디	-12556
▁코사	-12557
▁베르타	-12558
▁마르세유	-12559
▁프레임워크	-12560
연수	-12561
자동	-12562
트르	-12563
▁공시	-12564
▁끝냈	-12565
▁데미	-12566
▁라드	-12567
▁사변	-12568
▁옥타	-12569
▁이범	-12570
▁장래	-12571
▁Car	-12572
▁스탠리	-12573
▁1888	-12574
▁뮐	-12575
네임	-12576
헤드	-12577
▁면모	-12578
▁발자	-12579
▁이은	-12580
▁형용	-12581
▁과연	-12582
▁산수	-12583
▁유무	-12584
▁자코	-12585
▁재앙	-12586
▁합하	-12587
▁향기	-12588
▁아브라	-12589
▁리차	-12590
▁시우	-12591
▁울릉	-12592
▁금나라	-12593
▁다면서	-12594
▁덧붙였	-12595
▁로이드	-12596
ublic	-12597
▁둘러싸인	-12598
▁계량	-12599
▁닉슨	-12600
▁불계승	-12601
▁서기관	-12602
▁세비야	-12603
▁수차례	-12604
▁케이트	-12605
▁from	-12606
ah	-12607
▁푹	-12608
▁Sw	-12609
▁강진	-12610
▁계보	-12611
▁네모	-12612
▁라즈	-12613
▁애초	-12614
▁어의	-12615
▁에반	-12616
▁하임	-12617
미디어	-12618
▁관현악	-12619
▁세네갈	-12620
▁허드슨	-12621
▁마요	-12622
▁미식	-12623
▁사키	-12624
▁온건	-12625
▁펠트	-12626
▁문자열	-12627
▁펠리페	-12628
▁대중교통	-12629
▁볼티모어	-12630
▁덱	-12631
쓰기	-12632
연의	-12633
▁ar	-12634
▁동종	-12635
▁반주	-12636
▁배기	-12637
▁카야	-12638
▁퇴위	-12639
▁들어섰	-12640
▁로빈슨	-12641
둘기	-12642
▁거룩	-12643
▁모던	-12644
▁수력	-12645
▁순례	-12646
▁정진	-12647
▁터지	-12648
▁사커	-12649
▁이봉	-12650
▁소학교	-12651
▁유전학	-12652
▁좌표계	-12653
보리	-12654
티노	-12655
▁농축	-12656
▁변종	-12657
▁접해	-12658
▁포츠	-12659
▁대공국	-12660
▁활동가	-12661
ron	-12662
▁머니	-12663
▁복싱	-12664
▁청송	-12665
▁애덤스	-12666
▁조승우	-12667
AE	-12668
철수	-12669
코르	-12670
홍색	-12671
▁대금	-12672
▁붕어	-12673
▁페스	-12674
▁해결책	-12675
▁1876	-12676
▁겟	-12677
사태	-12678
▁납부	-12679
▁맥아	-12680
▁시문	-12681
▁아디	-12682
▁이산	-12683
▁펀드	-12684
▁게시판	-12685
▁고려대	-12686
▁볼로냐	-12687
▁참의원	-12688
▁후원자	-12689
DA	-12690
▁뱃	-12691
클라	-12692
▁단조	-12693
▁서예	-12694
▁약점	-12695
▁으리	-12696
▁이니	-12697
▁재결	-12698
▁우에스기	-12699
▁프린스턴	-12700
▁알렉산드로스	-12701
▁굶	-12702
▁당황	-12703
▁선양	-12704
▁일진	-12705
▁카레	-12706
▁토이	-12707
▁다카라	-12708
▁대전차	-12709
▁레이디	-12710
▁보좌관	-12711
▁아무리	-12712
▁펭	-12713
네트	-12714
라호	-12715
▁co	-12716
▁박수	-12717
▁부류	-12718
▁해병	-12719
▁주니치	-12720
로쿠	-12721
▁너스	-12722
▁니켈	-12723
▁도제	-12724
▁새뮤	-12725
▁채색	-12726
▁꽂	-12727
▁씻	-12728
▁오지	-12729
▁사간원	-12730
▁으려는	-12731
▁프리미엄	-12732
▁노스캐롤라이나	-12733
뮬러	-12734
큐어	-12735
▁구문	-12736
▁군관	-12737
▁낙양	-12738
▁본체	-12739
▁스모	-12740
▁임계	-12741
▁죄수	-12742
▁파파	-12743
▁브래드	-12744
▁사절단	-12745
▁나름	-12746
▁레버	-12747
▁미미	-12748
▁부양	-12749
▁Gre	-12750
▁바이어	-12751
▁이즈미	-12752
ational	-12753
▁웨스트민스터	-12754
광성	-12755
▁도하	-12756
▁라시	-12757
▁물류	-12758
▁중일	-12759
▁통폐	-12760
▁필하	-12761
▁교구장	-12762
▁민영화	-12763
▁북조선	-12764
▁올리버	-12765
▁용의자	-12766
▁장난감	-12767
▁토트넘	-12768
▁1866	-12769
암리	-12770
▁ML	-12771
▁댓글	-12772
▁도약	-12773
▁마구	-12774
▁바시	-12775
▁박자	-12776
▁수하	-12777
▁신진	-12778
▁에리	-12779
▁유능	-12780
▁사단장	-12781
▁집행유예	-12782
▁경무	-12783
▁구르	-12784
▁긴키	-12785
▁깃털	-12786
▁백자	-12787
▁앤서니	-12788
분열	-12789
▁SH	-12790
▁송환	-12791
▁이호	-12792
▁전권	-12793
▁중개	-12794
▁즐거	-12795
리카락	-12796
른베르크	-12797
▁1886	-12798
▁머리카락	-12799
▁SV	-12800
▁마린	-12801
▁알폰	-12802
▁애슬	-12803
▁오메	-12804
▁제르	-12805
▁조개	-12806
▁초전	-12807
▁간사이	-12808
▁스테판	-12809
▁장제스	-12810
▁wh	-12811
▁실각	-12812
▁익명	-12813
▁지면	-12814
▁덩어리	-12815
▁베이비	-12816
▁구스타프	-12817
▁브리티시	-12818
▁광선	-12819
▁두각	-12820
▁몰랐	-12821
▁베일	-12822
▁산청	-12823
▁습득	-12824
▁여건	-12825
▁유머	-12826
▁260	-12827
▁바람직	-12828
▁보안법	-12829
▁이어주	-12830
▁전주시	-12831
ble	-12832
▁간혹	-12833
▁레트	-12834
▁앨리	-12835
▁퍼졌	-12836
▁코소보	-12837
▁페미니	-12838
▁Tour	-12839
슈타	-12840
우회	-12841
▁거스	-12842
▁로브	-12843
▁생모	-12844
▁손녀	-12845
▁유다	-12846
▁작중	-12847
▁저우	-12848
▁조소	-12849
▁경영학	-12850
▁독립군	-12851
▁조나라	-12852
▁프란치스코	-12853
EST	-12854
▁무수	-12855
▁원상	-12856
▁천지	-12857
▁행방	-12858
르타뉴	-12859
▁역사학	-12860
▁브르타뉴	-12861
▁페르난도	-12862
▁베이시스트	-12863
꿈치	-12864
▁아자	-12865
▁요괴	-12866
▁프루	-12867
▁270	-12868
▁구획	-12869
▁발의	-12870
▁산물	-12871
▁얼룩	-12872
▁완도	-12873
▁촛불	-12874
▁출혈	-12875
▁쿼크	-12876
land	-12877
▁스테이	-12878
▁스테인	-12879
짜기	-12880
▁마티	-12881
▁엘런	-12882
▁차수	-12883
▁펠로	-12884
▁포탄	-12885
▁통폐합	-12886
▁돌아다니	-12887
▁돗	-12888
레시	-12889
▁KB	-12890
▁도성	-12891
▁번갈	-12892
▁세분	-12893
▁파커	-12894
▁해냈	-12895
▁삼각주	-12896
▁1887	-12897
▁베네딕토	-12898
하임	-12899
▁배척	-12900
▁장애물	-12901
▁1861	-12902
▁대한항공	-12903
너드	-12904
▁배운	-12905
▁빅뱅	-12906
▁성기	-12907
▁타구	-12908
▁현과	-12909
▁Wii	-12910
▁모나코	-12911
▁바로크	-12912
▁도미니카	-12913
▁모차르트	-12914
▁Dream	-12915
▁삼국지연의	-12916
▁뭐	-12917
▁마나	-12918
▁위시	-12919
▁사쓰마	-12920
▁축구팀	-12921
▁코스트	-12922
▁재단법인	-12923
▁라니	-12924
▁여타	-12925
▁지아	-12926
▁피어	-12927
▁근거지	-12928
▁새뮤얼	-12929
ition	-12930
▁가로지르	-12931
▁프로모션	-12932
AI	-12933
▁거칠	-12934
▁동창	-12935
▁외환	-12936
▁포화	-12937
▁합천	-12938
▁홍성	-12939
▁강서구	-12940
▁부분군	-12941
▁홈경기	-12942
▁1850	-12943
▁Life	-12944
ult	-12945
▁강세	-12946
▁경매	-12947
▁내포	-12948
▁사내	-12949
▁오일	-12950
▁생성물	-12951
▁화요일	-12952
▁유니버스	-12953
▁가닥	-12954
▁무자	-12955
▁비지	-12956
▁올레	-12957
▁자판	-12958
▁공연장	-12959
▁해석학	-12960
▁마르쿠스	-12961
▁카르타고	-12962
▁RT	-12963
▁it	-12964
▁완결	-12965
▁음주	-12966
▁정예	-12967
브리드	-12968
▁개정안	-12969
▁컨텐츠	-12970
▁드미트리	-12971
▁싹	-12972
orm	-12973
▁Up	-12974
▁놓이	-12975
▁세무	-12976
▁오대	-12977
▁오산	-12978
▁피닉스	-12979
▁렙	-12980
코타	-12981
▁AG	-12982
▁남조	-12983
▁모국	-12984
▁복위	-12985
▁증세	-12986
▁직사	-12987
▁홀딩	-12988
▁당선자	-12989
▁요금소	-12990
린트	-12991
즐리	-12992
▁TC	-12993
▁배트	-12994
▁전과	-12995
▁접합	-12996
▁뛰어넘	-12997
▁보너스	-12998
▁센다이	-12999
▁집정관	-13000
니오	-13001
▁급히	-13002
▁저축	-13003
▁토목	-13004
▁편안	-13005
▁평했	-13006
▁표절	-13007
스코트	-13008
▁보살상	-13009
▁선제골	-13010
▁낭만주의	-13011
제비	-13012
▁모닝	-13013
▁몰두	-13014
▁부름	-13015
▁이별	-13016
▁자궁	-13017
라호마	-13018
▁아카이	-13019
▁오클라호마	-13020
동자	-13021
▁에두	-13022
▁자릿	-13023
▁환관	-13024
▁노동력	-13025
▁달아나	-13026
▁프랑코	-13027
아메리카	-13028
▁하이브리드	-13029
직경	-13030
▁경건	-13031
▁나마	-13032
▁앵커	-13033
▁유타	-13034
▁가해자	-13035
▁Ed	-13036
▁고창	-13037
▁다행	-13038
▁버크	-13039
▁위패	-13040
▁이누	-13041
▁시직경	-13042
▁신세계	-13043
▁클레멘스	-13044
▁기밀	-13045
▁삭스	-13046
▁필연	-13047
▁히토	-13048
▁재판부	-13049
▁헤라클레스	-13050
왕후	-13051
▁갖춰	-13052
▁교지	-13053
▁패권	-13054
솔리니	-13055
▁알아내	-13056
▁스트리밍	-13057
▁오스트리	-13058
▁관내	-13059
▁동차	-13060
▁만점	-13061
▁말단	-13062
▁왕관	-13063
▁워킹	-13064
▁치우	-13065
▁단거리	-13066
▁인해서	-13067
▁1864	-13068
▁Open	-13069
▁지나간다	-13070
거나	-13071
콘신	-13072
▁"-	-13073
▁암모	-13074
▁애완	-13075
▁죽임	-13076
▁1830	-13077
▁석가모니	-13078
▁위스콘신	-13079
열차	-13080
▁눈치	-13081
▁만날	-13082
▁여호	-13083
▁예의	-13084
▁전교	-13085
▁파직	-13086
▁음악원	-13087
▁도라에몽	-13088
▁백악기	-13089
▁카이로	-13090
EP	-13091
▁깁	-13092
예술	-13093
타입	-13094
ton	-13095
▁공판	-13096
▁광업	-13097
▁대강	-13098
▁뒤늦	-13099
▁리트	-13100
▁매스	-13101
▁양현	-13102
▁혼혈	-13103
▁후세인	-13104
▁마을버스	-13105
▁컴파일러	-13106
▁도르트문트	-13107
▁쥘	-13108
▁en	-13109
▁가독	-13110
▁관용	-13111
▁근래	-13112
▁스몰	-13113
▁평탄	-13114
▁허블	-13115
▁감리교	-13116
라이어티	-13117
▁미네소타	-13118
▁버라이어티	-13119
디슨	-13120
▁발톱	-13121
▁승단	-13122
▁아다	-13123
▁잔디	-13124
▁장전	-13125
▁카와	-13126
▁네티즌	-13127
▁데이빗	-13128
▁크리에이	-13129
▁다카라즈카	-13130
▁방공	-13131
▁쓰루	-13132
▁재벌	-13133
▁홈즈	-13134
▁로맨틱	-13135
▁사나이	-13136
▁주나라	-13137
▁황해도	-13138
▁아이디얼	-13139
▁이시카와	-13140
▁쑨	-13141
▁배아	-13142
▁불분	-13143
▁수이	-13144
▁아편	-13145
▁정황	-13146
▁추존	-13147
▁현미	-13148
▁흘리	-13149
▁격투기	-13150
▁관련자	-13151
▁재판관	-13152
해살이풀	-13153
▁백업	-13154
▁트레이닝	-13155
달마	-13156
클럽	-13157
▁라라	-13158
▁매진	-13159
▁민물	-13160
▁뷰티	-13161
▁섞여	-13162
▁스기	-13163
▁스윙	-13164
▁청문	-13165
▁푸아	-13166
바도르	-13167
▁캣	-13168
▁an	-13169
▁등등	-13170
▁조경	-13171
▁내보내	-13172
▁라치오	-13173
▁유전체	-13174
▁1881	-13175
ION	-13176
ave	-13177
▁선율	-13178
▁황자	-13179
▁난이도	-13180
▁남베트남	-13181
두르	-13182
▁객원	-13183
▁러닝	-13184
▁벌레	-13185
▁소라	-13186
▁승하	-13187
▁양조	-13188
▁응하	-13189
▁침대	-13190
▁헌납	-13191
▁iOS	-13192
▁두려워하	-13193
께끼	-13194
플린	-13195
▁Ab	-13196
▁기고	-13197
▁도산	-13198
▁보정	-13199
▁부실	-13200
▁처해	-13201
▁까마귀	-13202
▁무작위	-13203
▁수수께끼	-13204
브웨	-13205
▁다비	-13206
▁알맞	-13207
▁야망	-13208
▁잠실	-13209
▁전리	-13210
▁코난	-13211
▁트란	-13212
▁행정동	-13213
▁피츠버그	-13214
리쿠	-13215
▁구례	-13216
▁남송	-13217
▁목욕	-13218
▁아타	-13219
▁조심	-13220
▁캐스트	-13221
▁Music	-13222
TE	-13223
▁그란	-13224
▁기통	-13225
▁세간	-13226
▁열려	-13227
▁왕성	-13228
▁짐바	-13229
ject	-13230
▁롬바르	-13231
▁모멘트	-13232
▁반대파	-13233
▁외무부	-13234
▁1872	-13235
▁리에	-13236
▁생도	-13237
▁아이콘	-13238
▁압록강	-13239
▁루스벨트	-13240
▁XP	-13241
▁군세	-13242
▁로니	-13243
▁승지	-13244
▁오우	-13245
▁재고	-13246
▁코뮌	-13247
▁흑백	-13248
올로기	-13249
▁기획사	-13250
▁대표단	-13251
▁이데올로기	-13252
다오	-13253
▁루나	-13254
▁별장	-13255
▁산기	-13256
▁용사	-13257
▁쿠로	-13258
▁농어촌	-13259
▁이메일	-13260
▁부다페스트	-13261
▁레비	-13262
▁발포	-13263
▁양면	-13264
▁의례	-13265
▁일지	-13266
▁지경	-13267
▁헤일	-13268
▁여학생	-13269
▁제프리	-13270
▁합창단	-13271
▁날카로운	-13272
▁닌자	-13273
▁반죽	-13274
▁복직	-13275
▁캐피	-13276
▁콘티	-13277
▁통지	-13278
▁750	-13279
나파	-13280
덕왕	-13281
렌스	-13282
리드	-13283
▁BL	-13284
▁김희	-13285
▁미상	-13286
▁부전	-13287
▁어촌	-13288
▁토로	-13289
▁투하	-13290
▁판관	-13291
▁끝난다	-13292
▁화성시	-13293
▁쵸	-13294
▁킷	-13295
ics	-13296
▁if	-13297
▁국호	-13298
▁삼척	-13299
▁상한	-13300
▁원동	-13301
▁종업	-13302
▁갔으며	-13303
▁대교구	-13304
▁파충류	-13305
▁부르주아	-13306
▁세계유산	-13307
▁교제	-13308
▁극찬	-13309
▁리브	-13310
▁메츠	-13311
▁직관	-13312
▁태우	-13313
▁파기	-13314
▁헤어	-13315
리아스	-13316
▁라이스	-13317
쿠니	-13318
▁곡면	-13319
▁곱셈	-13320
▁이례	-13321
▁파주	-13322
▁노르드	-13323
▁범죄자	-13324
뛰기	-13325
바인	-13326
성경	-13327
▁경도	-13328
▁꼬마	-13329
▁닛산	-13330
▁미칠	-13331
▁상파	-13332
▁시원	-13333
▁신봉	-13334
▁다시금	-13335
▁마르셀	-13336
▁1863	-13337
▁무솔리니	-13338
▁당과	-13339
▁뽑혔	-13340
▁샤이	-13341
▁진흙	-13342
▁탄산	-13343
▁도망치	-13344
▁밀가루	-13345
▁HTML	-13346
화경	-13347
ier	-13348
▁Sm	-13349
▁가곡	-13350
▁경량	-13351
▁괘불	-13352
▁내재	-13353
▁모신	-13354
▁발산	-13355
▁북벌	-13356
▁정명	-13357
▁죽여	-13358
▁친밀	-13359
▁파열	-13360
변속기	-13361
▁다비드	-13362
▁슬로건	-13363
ool	-13364
▁금고	-13365
▁배향	-13366
▁익산	-13367
▁중랑	-13368
▁취향	-13369
부아르	-13370
▁승용차	-13371
▁화학자	-13372
루크	-13373
리야	-13374
림사	-13375
▁베풀	-13376
▁순항	-13377
▁가든	-13378
▁가비	-13379
▁고모	-13380
▁브렌	-13381
▁주고	-13382
▁해킹	-13383
태평양	-13384
▁개체군	-13385
▁무로마치	-13386
QL	-13387
러진	-13388
▁나탈	-13389
▁묻혀	-13390
▁인위	-13391
▁계승자	-13392
평리	-13393
▁AL	-13394
▁병단	-13395
▁살짝	-13396
▁종묘	-13397
▁Don	-13398
▁참가국	-13399
▁취리히	-13400
▁코호몰로지	-13401
ru	-13402
▁엡	-13403
▁단국	-13404
▁레아	-13405
▁앞세	-13406
▁인제	-13407
▁입시	-13408
▁켄터	-13409
▁탐정	-13410
▁호크스	-13411
▁te	-13412
▁거꾸	-13413
▁계좌	-13414
▁고난	-13415
▁납작	-13416
▁당진	-13417
▁사나	-13418
▁의용	-13419
슬라프	-13420
▁전해졌	-13421
▁초록색	-13422
▁유라시아	-13423
느리	-13424
데자	-13425
워즈	-13426
▁대의	-13427
▁두어	-13428
▁루즈	-13429
▁복역	-13430
▁섬기	-13431
▁승상	-13432
▁어우	-13433
▁불분명	-13434
▁작품상	-13435
데자네이	-13436
▁1873	-13437
▁세르게이	-13438
비오	-13439
che	-13440
▁덴쇼	-13441
▁오트	-13442
▁클릭	-13443
▁햇빛	-13444
▁타임즈	-13445
번에	-13446
▁가두	-13447
▁조장	-13448
▁페라	-13449
▁페인	-13450
▁공통점	-13451
▁국민회	-13452
▁1865	-13453
▁교통사고	-13454
▁교동	-13455
▁매립	-13456
▁완비	-13457
▁장쑤	-13458
▁조시	-13459
▁태아	-13460
▁피카	-13461
▁시간대	-13462
▁아닌가	-13463
▁청년회	-13464
▁하얀색	-13465
지로	-13466
ise	-13467
▁감추	-13468
▁경마	-13469
▁구슬	-13470
▁모란	-13471
▁박진	-13472
▁위법	-13473
▁을사	-13474
▁작년	-13475
▁코마	-13476
▁킹스	-13477
▁휩싸	-13478
▁무언가	-13479
▁여진족	-13480
▁이뤄진	-13481
▁폼페이	-13482
▁샵	-13483
타스	-13484
ode	-13485
▁도도	-13486
▁머무	-13487
▁서지	-13488
▁에치	-13489
▁엘라	-13490
▁열릴	-13491
▁잡히	-13492
▁팔작	-13493
▁걸린다	-13494
▁와이드	-13495
▁항아리	-13496
▁계엄	-13497
▁과다	-13498
▁뒤따	-13499
▁신대	-13500
▁옹주	-13501
▁왓슨	-13502
▁이야	-13503
▁IMF	-13504
▁그나마	-13505
▁챌린저	-13506
▁탐험가	-13507
▁마스코트	-13508
▁열렬	-13509
▁외상	-13510
▁픽셀	-13511
▁경복궁	-13512
▁오카야마	-13513
▁맡겼	-13514
▁양궁	-13515
▁충당	-13516
▁하스	-13517
▁해시	-13518
▁였음을	-13519
▁제너럴	-13520
▁1891	-13521
▁PM	-13522
▁걸작	-13523
▁몸돌	-13524
▁착취	-13525
▁한창	-13526
▁허목	-13527
▁따라가	-13528
▁안산시	-13529
▁야쿠르트	-13530
데자네이루	-13531
▁리우데자네이루	-13532
시대	-13533
▁등단	-13534
▁티모	-13535
▁유니언	-13536
더지	-13537
매김	-13538
▁구강	-13539
▁단자	-13540
▁대목	-13541
▁봉황	-13542
▁비싼	-13543
▁슈고	-13544
▁요즘	-13545
▁조공	-13546
▁처방	-13547
▁캐치	-13548
stem	-13549
▁몰도바	-13550
▁박영효	-13551
▁Night	-13552
바지	-13553
▁반항	-13554
▁법전	-13555
▁세단	-13556
▁쇼크	-13557
▁다국적	-13558
▁생화학	-13559
▁제조사	-13560
▁조선소	-13561
▁크루즈	-13562
▁아비달마	-13563
▁아오모리	-13564
▁경지	-13565
▁도봉	-13566
▁루피	-13567
▁리자	-13568
▁야심	-13569
▁어선	-13570
▁입술	-13571
▁합금	-13572
▁발기인	-13573
미쓰	-13574
▁라크	-13575
▁모함	-13576
▁최장	-13577
▁피셔	-13578
▁시티즌	-13579
▁지자체	-13580
▁공군기지	-13581
UC	-13582
친왕	-13583
쿠르	-13584
▁MA	-13585
▁부에	-13586
▁분경	-13587
▁사드	-13588
▁산책	-13589
▁포대	-13590
▁혈압	-13591
플렉스	-13592
▁고성군	-13593
▁우간다	-13594
▁온타리오주	-13595
▁괜	-13596
단위	-13597
사화	-13598
인구	-13599
▁--	-13600
▁NS	-13601
▁매도	-13602
▁부추	-13603
▁적발	-13604
▁촉발	-13605
▁카슈	-13606
이스케	-13607
▁공식전	-13608
▁세군다	-13609
▁종사자	-13610
으면	-13611
훈장	-13612
▁버펄	-13613
▁볼넷	-13614
▁주저	-13615
▁증발	-13616
▁현무	-13617
합중국	-13618
▁승정원	-13619
▁앤드류	-13620
▁자리매김	-13621
▁베라	-13622
▁우마	-13623
▁철종	-13624
▁타도	-13625
▁필두	-13626
▁가리켜	-13627
▁벗어난	-13628
▁해부학	-13629
▁조선왕조	-13630
▁불로	-13631
▁진이	-13632
▁두꺼운	-13633
▁발가락	-13634
▁켄터키	-13635
▁과격	-13636
▁란스	-13637
▁미인	-13638
▁채굴	-13639
▁650	-13640
▁제작진	-13641
▁짐바브웨	-13642
NG	-13643
동맹	-13644
참찬	-13645
▁MM	-13646
▁더러	-13647
▁반점	-13648
▁거꾸로	-13649
레타리아	-13650
▁프롤레타리아	-13651
▁꿰	-13652
▁마모	-13653
▁무고	-13654
▁스킬	-13655
▁증강	-13656
▁진원	-13657
▁스코어	-13658
▁Good	-13659
▁두드러지	-13660
▁이바라키	-13661
▁베스트셀러	-13662
ai	-13663
레반	-13664
▁AI	-13665
▁굴복	-13666
▁시진	-13667
▁연행	-13668
▁체내	-13669
▁캐논	-13670
▁키즈	-13671
▁헌병	-13672
▁현도	-13673
▁Black	-13674
ank	-13675
▁강호	-13676
▁소작	-13677
▁여대	-13678
▁유태	-13679
▁후미	-13680
ower	-13681
▁릴레이	-13682
▁연출가	-13683
상어	-13684
▁qu	-13685
▁반론	-13686
▁성가	-13687
▁오즈	-13688
▁자켓	-13689
▁접전	-13690
▁직교	-13691
▁다마스	-13692
▁스테이트	-13693
▁콧	-13694
▁터빈	-13695
▁튼튼	-13696
▁파랑	-13697
▁Can	-13698
▁노르만	-13699
▁종업원	-13700
▁포항시	-13701
▁삼국유사	-13702
▁사이타마현	-13703
▁샴	-13704
▁간판	-13705
▁기묘	-13706
▁기운	-13707
▁네임	-13708
▁농성	-13709
▁도발	-13710
▁앞둔	-13711
▁용감	-13712
▁토록	-13713
▁ret	-13714
▁댈러스	-13715
▁백악관	-13716
▁국부	-13717
▁스톰	-13718
▁위헌	-13719
▁적정	-13720
▁들리	-13721
▁NAD	-13722
▁트로트	-13723
▁미합중국	-13724
킨슨	-13725
포타	-13726
▁노란	-13727
▁당당	-13728
▁산신	-13729
▁조준	-13730
▁투신	-13731
▁550	-13732
▁수시로	-13733
▁테무르	-13734
70	-13735
▁믈	-13736
▁씬	-13737
무제	-13738
세다	-13739
▁El	-13740
▁내란	-13741
▁대담	-13742
▁리키	-13743
▁문정	-13744
▁병과	-13745
▁열쇠	-13746
▁저해	-13747
▁횡령	-13748
▁거쳐서	-13749
▁반정부	-13750
▁자외선	-13751
▁자유형	-13752
DS	-13753
고르	-13754
▁교서	-13755
▁나빠	-13756
▁변증	-13757
▁사교	-13758
▁신의	-13759
▁원한	-13760
▁이선	-13761
▁행보	-13762
▁흡연	-13763
▁용산구	-13764
▁이성질	-13765
▁하반기	-13766
▁1862	-13767
내티	-13768
티야	-13769
▁걸프	-13770
▁무도	-13771
▁수퍼	-13772
▁연달	-13773
▁미카엘	-13774
▁받침돌	-13775
▁타이탄	-13776
포타미아	-13777
▁신시내티	-13778
▁메소포타미아	-13779
▁q	-13780
펠러	-13781
▁다닌	-13782
▁분별	-13783
▁전멸	-13784
▁티저	-13785
▁히노	-13786
▁Qu	-13787
▁길드	-13788
▁내역	-13789
▁사하	-13790
▁아델	-13791
▁양양	-13792
▁연화	-13793
▁오보	-13794
▁완수	-13795
▁장신	-13796
▁조어	-13797
▁증식	-13798
▁커졌	-13799
▁활자	-13800
타나베	-13801
▁Ser	-13802
▁숨겨진	-13803
▁국력	-13804
▁서위	-13805
▁송진	-13806
▁심정	-13807
▁이강	-13808
▁조서	-13809
▁조석	-13810
▁진언	-13811
▁필명	-13812
▁김성수	-13813
▁엑스포	-13814
▁입법부	-13815
▁LS	-13816
▁군자	-13817
▁북대	-13818
▁성수	-13819
▁신해	-13820
▁언론사	-13821
▁연주회	-13822
▁플러그	-13823
루엔	-13824
▁교훈	-13825
▁임하	-13826
▁황폐	-13827
▁1867	-13828
디언	-13829
▁독주	-13830
▁모반	-13831
▁온두	-13832
▁용해	-13833
▁레인저	-13834
▁편집장	-13835
▁온두라스	-13836
▁페르디난트	-13837
▁챈	-13838
▁UC	-13839
▁광자	-13840
▁아지	-13841
▁에겐	-13842
▁Let	-13843
▁페르미	-13844
▁6000	-13845
▁팔작지붕	-13846
▁라이프치히	-13847
▁Ac	-13848
▁간결	-13849
▁고찰	-13850
▁모조	-13851
▁지문	-13852
▁처장	-13853
▁푸드	-13854
세우스	-13855
▁705	-13856
▁사무국	-13857
테이	-13858
▁DR	-13859
▁광배	-13860
▁서한	-13861
▁양군	-13862
드라마	-13863
선거구	-13864
▁가르쳐	-13865
▁갈라져	-13866
▁변광성	-13867
▁앨버트	-13868
▁증조부	-13869
▁타타르	-13870
정사	-13871
활약	-13872
▁AU	-13873
▁꺼내	-13874
▁나사	-13875
▁노브	-13876
▁변모	-13877
▁옥시	-13878
▁경희대	-13879
구나	-13880
단지	-13881
진구	-13882
lar	-13883
▁오름	-13884
▁패해	-13885
ings	-13886
▁팍	-13887
센터	-13888
▁엇갈	-13889
▁유구	-13890
▁토유	-13891
▁표출	-13892
▁MSL	-13893
▁맹활약	-13894
▁손잡이	-13895
▁알폰소	-13896
▁페드로	-13897
▁데카르트	-13898
비언	-13899
▁예종	-13900
▁지탱	-13901
▁쿠라	-13902
▁회유	-13903
▁프로테	-13904
▁백과사전	-13905
▁이노우에	-13906
▁section	-13907
▁궐	-13908
▁객실	-13909
▁보직	-13910
▁잔존	-13911
▁코모	-13912
▁키릴	-13913
▁움직일	-13914
다발	-13915
▁폴라	-13916
▁사보이	-13917
▁치료제	-13918
중추부사	-13919
▁프라이즈	-13920
▁협동조합	-13921
ta	-13922
▁낡	-13923
렐라	-13924
방군	-13925
위치	-13926
젤로	-13927
▁-&	-13928
▁경은	-13929
▁넘버	-13930
▁성품	-13931
▁수당	-13932
▁잉크	-13933
▁청각	-13934
▁하중	-13935
▁갈라지	-13936
▁부등식	-13937
▁홀딩스	-13938
▁썩	-13939
▁상선	-13940
절도사	-13941
▁감염증	-13942
▁됩	-13943
▁탬	-13944
자원	-13945
할린	-13946
▁당파	-13947
▁던졌	-13948
▁버진	-13949
▁번개	-13950
▁절약	-13951
▁체하	-13952
▁충칭	-13953
▁피처	-13954
▁해지	-13955
▁기원후	-13956
▁이브스	-13957
▁일본식	-13958
▁특별법	-13959
▁삐	-13960
▁심소	-13961
▁차림	-13962
▁헤겔	-13963
rist	-13964
▁And	-13965
▁라면서	-13966
▁무사히	-13967
▁미친다	-13968
▁웨이브	-13969
▁명성황후	-13970
tr	-13971
끄러	-13972
▁가극	-13973
▁논하	-13974
▁벵골	-13975
▁아쉬	-13976
▁유망	-13977
▁스파이더	-13978
▁신한은행	-13979
▁후지와라	-13980
ee	-13981
▁Ag	-13982
▁꾸며	-13983
▁수급	-13984
▁엘레	-13985
▁지그	-13986
▁참패	-13987
▁마그네	-13988
▁봉우리	-13989
▁인지도	-13990
▁1878	-13991
▁둠	-13992
니티	-13993
마디	-13994
정보	-13995
▁가방	-13996
▁그럴	-13997
▁박원	-13998
▁자행	-13999
▁컴파일	-14000
▁국민학교	-14001
▁미나모토노	-14002
▁코퍼레이션	-14003
ky	-14004
▁PL	-14005
▁글렌	-14006
▁내림	-14007
▁동탁	-14008
▁시르	-14009
▁영미	-14010
▁중용	-14011
▁지린	-14012
▁자릿수	-14013
▁저지른	-14014
▁플루토	-14015
▁고등학생	-14016
▁SO	-14017
▁처한	-14018
▁키로	-14019
▁후드	-14020
가르트	-14021
▁수도회	-14022
▁행해졌	-14023
▁교화	-14024
▁동자	-14025
▁변질	-14026
▁솔라	-14027
▁참수	-14028
▁건륭제	-14029
▁경쟁자	-14030
▁연예계	-14031
▁지질학	-14032
▁비스마르크	-14033
▁아나톨리아	-14034
▁일리노이주	-14035
르바	-14036
빌리	-14037
▁꽃잎	-14038
▁떠날	-14039
▁렉스	-14040
▁보류	-14041
▁서거	-14042
▁세토	-14043
▁유림	-14044
▁직물	-14045
▁충신	-14046
▁대리석	-14047
▁주고받	-14048
▁출입문	-14049
▁스에	-14050
▁점진	-14051
▁추축	-14052
▁행군	-14053
플로러	-14054
▁나치오	-14055
▁신기록	-14056
▁아이젠	-14057
▁익스플로러	-14058
산부	-14059
▁건널	-14060
▁괄호	-14061
▁구아	-14062
▁국화	-14063
▁미학	-14064
▁서점	-14065
▁손님	-14066
▁현악	-14067
▁802	-14068
▁베르나	-14069
▁외교부	-14070
▁패스트	-14071
▁스케이트	-14072
▁tr	-14073
▁구부	-14074
▁냐고	-14075
▁라다	-14076
▁새겼	-14077
▁용수	-14078
▁텍스	-14079
▁항생	-14080
▁불가피	-14081
▁사대부	-14082
▁프랑스와	-14083
▁급성	-14084
▁자부	-14085
▁차명	-14086
▁액세스	-14087
▁밧	-14088
누마	-14089
▁무비	-14090
▁수레	-14091
▁완만	-14092
▁유화	-14093
▁지체	-14094
▁축일	-14095
▁골짜기	-14096
▁뉴기니	-14097
▁요리토모	-14098
북면	-14099
일치	-14100
hem	-14101
▁RC	-14102
▁각주	-14103
▁다목	-14104
▁모티	-14105
▁바쿠	-14106
▁사부	-14107
▁수증	-14108
▁습성	-14109
▁정박	-14110
▁추후	-14111
▁출국	-14112
▁취할	-14113
▁형주	-14114
에이고	-14115
▁영유권	-14116
▁쿠르드	-14117
▁아우구스	-14118
▁키르기스	-14119
▁샌디에이고	-14120
작전	-14121
질렀	-14122
▁과자	-14123
▁버티	-14124
▁생길	-14125
▁아뢰	-14126
▁영사	-14127
▁환율	-14128
▁원자핵	-14129
▁인코딩	-14130
▁포뮬러	-14131
▁프리츠	-14132
▁공상	-14133
▁근방	-14134
▁부관	-14135
▁에트	-14136
▁옥천	-14137
▁추계	-14138
▁토라	-14139
▁패킷	-14140
▁랙	-14141
대전	-14142
벤션	-14143
셔주	-14144
시게	-14145
▁거사	-14146
▁고국	-14147
▁국인	-14148
▁반입	-14149
▁시역	-14150
▁콜드	-14151
▁변한다	-14152
▁여객기	-14153
BI	-14154
퉁이	-14155
▁강우	-14156
▁그물	-14157
▁기조	-14158
▁사소	-14159
▁육식	-14160
▁일설	-14161
▁잔해	-14162
▁줄일	-14163
▁처치	-14164
▁치사	-14165
▁516	-14166
▁핵분열	-14167
사우루스	-14168
▁대타	-14169
▁시시	-14170
▁출세	-14171
▁패망	-14172
▁헤더	-14173
▁다가오	-14174
▁방위군	-14175
▁부여군	-14176
▁수비대	-14177
▁프라임	-14178
▁1869	-14179
▁힐베르트	-14180
▁팻	-14181
수단	-14182
▁교파	-14183
▁다량	-14184
▁매슈	-14185
▁무색	-14186
▁봉하	-14187
▁인승	-14188
▁일선	-14189
▁절친	-14190
▁해트	-14191
시아드	-14192
▁HMS	-14193
▁기동전	-14194
▁운동량	-14195
▁줄어든	-14196
▁1840	-14197
▁글로브상	-14198
▁와타나베	-14199
▁이끼	-14200
▁집어	-14201
▁채권자	-14202
▁유니버시아드	-14203
pr	-14204
뜨려	-14205
▁길러	-14206
▁로시	-14207
▁면직	-14208
▁소피	-14209
▁오자	-14210
▁의정	-14211
▁초음	-14212
▁쿼터	-14213
▁며느리	-14214
▁바닷물	-14215
▁와세다	-14216
▁닉스	-14217
▁부두	-14218
▁상식	-14219
▁상의	-14220
▁포천	-14221
뉴기니	-14222
▁업로드	-14223
▁운전자	-14224
▁유엔군	-14225
▁끔	-14226
블릿	-14227
▁그랬	-14228
▁멋진	-14229
▁목동	-14230
▁빅터	-14231
▁쌍성	-14232
▁이목	-14233
▁자정	-14234
▁자처	-14235
▁저그	-14236
▁청취	-14237
▁칭했	-14238
▁컵스	-14239
▁됩니다	-14240
▁마포구	-14241
▁치료법	-14242
▁날려	-14243
▁몸체	-14244
▁벤츠	-14245
▁퀴즈	-14246
▁토키	-14247
▁팔린	-14248
▁오스카	-14249
▁낯	-14250
노르	-14251
▁국세	-14252
▁귀인	-14253
▁넘겼	-14254
▁민심	-14255
▁애기	-14256
▁입출	-14257
스타인	-14258
▁예언자	-14259
▁팔꿈치	-14260
▁레지스터	-14261
▁사이언스	-14262
▁에이전트	-14263
곡면	-14264
ade	-14265
▁개기	-14266
▁입히	-14267
▁컴필	-14268
▁하라	-14269
▁휘발	-14270
▁Mon	-14271
▁강력히	-14272
▁시니어	-14273
▁Song	-14274
▁매킨토시	-14275
▁컴필레이션	-14276
ae	-14277
▁벳	-14278
▁볶	-14279
날레	-14280
선언	-14281
▁단서	-14282
▁바인	-14283
▁베오	-14284
▁부군	-14285
▁부풀	-14286
▁자취	-14287
▁포자	-14288
▁포탑	-14289
▁호그	-14290
▁피의자	-14291
▁파시스트	-14292
▁로드리게스	-14293
▁아나키스트	-14294
조사	-14295
효소	-14296
▁디나	-14297
▁바보	-14298
▁변혁	-14299
▁위도	-14300
▁텐서	-14301
▁금강산	-14302
▁내세웠	-14303
크라테스	-14304
per	-14305
▁마레	-14306
▁글러브	-14307
▁네이트	-14308
▁스트림	-14309
▁모자이크	-14310
▁와카야마	-14311
▁겨루	-14312
▁빈민	-14313
▁숙소	-14314
▁이거	-14315
▁자질	-14316
▁캐슬	-14317
ount	-14318
▁목적지	-14319
탄두	-14320
▁AA	-14321
▁Pe	-14322
▁VS	-14323
▁강인	-14324
▁걸음	-14325
▁다닐	-14326
▁지요	-14327
▁천상	-14328
▁하수	-14329
▁세미나	-14330
티컷	-14331
▁me	-14332
▁괜찮	-14333
▁단역	-14334
▁박재	-14335
▁백조	-14336
▁블러	-14337
▁소박	-14338
▁아어	-14339
▁풀리	-14340
▁맥아더	-14341
▁밝혀져	-14342
▁1592	-14343
▁고등교육	-14344
▁남아시아	-14345
▁코네티컷	-14346
▁밋	-14347
히메	-14348
▁As	-14349
▁논산	-14350
▁스택	-14351
▁실사	-14352
▁영수	-14353
▁철자	-14354
▁끌어올	-14355
▁사라져	-14356
▁종착역	-14357
▁창립자	-14358
구스	-14359
▁고을	-14360
▁고제	-14361
▁니까	-14362
▁직렬	-14363
암사	-14364
ium	-14365
▁Aw	-14366
▁금색	-14367
▁린다	-14368
▁사귀	-14369
▁의복	-14370
▁펼친	-14371
▁관심사	-14372
▁테크놀	-14373
▁8000	-14374
▁병자호란	-14375
▁친선경기	-14376
IF	-14377
▁암수	-14378
▁양파	-14379
▁자루	-14380
▁튜브	-14381
이치로	-14382
▁머물러	-14383
▁보유자	-14384
▁안동시	-14385
▁장로회	-14386
▁필사본	-14387
▁크리스티나	-14388
수염	-14389
ale	-14390
▁KN	-14391
▁규율	-14392
▁리스본	-14393
▁이랜드	-14394
▁적십자	-14395
▁히타치	-14396
▁Windows	-14397
IX	-14398
보당	-14399
전선	-14400
히데	-14401
▁란트	-14402
▁슈투	-14403
▁어부	-14404
▁어사	-14405
▁왜군	-14406
▁유이	-14407
▁이와테	-14408
▁지나친	-14409
▁코트디	-14410
▁뉘른베르크	-14411
▁코트디부아르	-14412
▁펜실베이니아주	-14413
90	-14414
▁기행	-14415
▁다쓰	-14416
▁성대	-14417
▁연해	-14418
▁온실	-14419
▁은밀	-14420
▁피살	-14421
▁KTX	-14422
▁과반수	-14423
▁준다는	-14424
로움	-14425
▁외면	-14426
▁유자	-14427
▁도망쳤	-14428
▁지하역	-14429
▁떨어진다	-14430
▁Heart	-14431
▁포르투갈어	-14432
찬성	-14433
ata	-14434
▁노현	-14435
▁동호	-14436
▁방탄	-14437
▁비키	-14438
▁사주	-14439
▁악명	-14440
▁웍스	-14441
▁유골	-14442
▁임종	-14443
▁구단주	-14444
▁내세워	-14445
▁담당자	-14446
▁보호법	-14447
▁어도비	-14448
▁클리어	-14449
▁헤르만	-14450
테랑	-14451
▁Gl	-14452
▁ab	-14453
▁능가	-14454
▁면담	-14455
▁병풍	-14456
▁수만	-14457
▁질투	-14458
▁심리학자	-14459
▁계룡	-14460
▁농가	-14461
▁삭감	-14462
▁이카	-14463
▁준동	-14464
▁380	-14465
▁로타르	-14466
▁차가운	-14467
▁파주시	-14468
날드	-14469
던트	-14470
▁뉴런	-14471
▁여포	-14472
▁의주	-14473
▁탁구	-14474
▁1875	-14475
▁그린란드	-14476
▁페널티킥	-14477
▁세인트루이스	-14478
링겐	-14479
▁거창	-14480
▁내려와	-14481
▁크메르	-14482
▁형용사	-14483
▁근본번뇌	-14484
넌트	-14485
세르	-14486
▁권익	-14487
▁김연	-14488
▁문중	-14489
▁서약	-14490
▁연중	-14491
▁염화	-14492
▁오구	-14493
▁위크	-14494
▁정오	-14495
▁친한	-14496
▁비둘기	-14497
▁신석기	-14498
▁니케	-14499
▁디바	-14500
▁라프	-14501
▁문체	-14502
▁방울	-14503
▁볼록	-14504
▁열세	-14505
▁예식	-14506
▁워스	-14507
▁일명	-14508
▁잠입	-14509
▁흥원	-14510
루엔자	-14511
▁Gen	-14512
▁성폭행	-14513
▁올라오	-14514
세키	-14515
욕장	-14516
▁독살	-14517
▁미지	-14518
▁숙련	-14519
▁실상	-14520
▁오시	-14521
▁율법	-14522
▁특공	-14523
▁한민	-14524
▁스피커	-14525
▁찾아와	-14526
▁통신망	-14527
▁한다며	-14528
▁여우원숭이	-14529
son	-14530
▁강습	-14531
▁결말	-14532
▁상과	-14533
▁설리	-14534
▁셔틀	-14535
▁외척	-14536
▁원문	-14537
▁친화	-14538
▁콜린	-14539
▁키드	-14540
▁타쿠	-14541
▁페레	-14542
▁호른	-14543
▁사이즈	-14544
▁안창호	-14545
▁정해져	-14546
▁집단군	-14547
▁학술지	-14548
▁기판	-14549
▁날리	-14550
▁늘려	-14551
▁루도	-14552
▁막강	-14553
▁상동	-14554
▁시찰	-14555
▁야수	-14556
▁예금	-14557
▁이심	-14558
▁타나	-14559
세데스	-14560
▁개그맨	-14561
▁지장보살	-14562
▁브란덴부르크	-14563
▁배당	-14564
▁불려	-14565
▁불복	-14566
▁엔젤	-14567
▁원단	-14568
▁유카	-14569
▁중견	-14570
▁칸트	-14571
▁친환경	-14572
▁메르세데스	-14573
▁return	-14574
▁sh	-14575
▁겸직	-14576
▁도적	-14577
▁발착	-14578
▁변해	-14579
▁비료	-14580
▁사각	-14581
▁실명	-14582
▁윤휴	-14583
▁Out	-14584
▁회고록	-14585
▁영등포구	-14586
▁바빌로니아	-14587
▁기한	-14588
▁절충	-14589
▁최하	-14590
레이트	-14591
▁강대국	-14592
▁몽고메리	-14593
▁기린	-14594
▁로큰	-14595
▁아노	-14596
▁재보	-14597
▁정칙	-14598
▁징집	-14599
▁침식	-14600
▁향신	-14601
▁가환환	-14602
▁고문서	-14603
▁스케줄	-14604
▁시미즈	-14605
▁예비역	-14606
▁크라운	-14607
▁토요타	-14608
부대	-14609
알라	-14610
itt	-14611
▁구루	-14612
▁몹시	-14613
▁조비	-14614
▁키리	-14615
▁포인	-14616
▁나리타	-14617
▁대항전	-14618
▁아세틸	-14619
ng	-14620
기아	-14621
세서	-14622
▁다자	-14623
▁로사	-14624
▁선상	-14625
▁이길	-14626
▁게임기	-14627
▁레스터	-14628
▁스케치	-14629
▁엑스박스	-14630
▁랠	-14631
기즈	-14632
놀드	-14633
사유	-14634
▁TS	-14635
▁예프	-14636
▁착각	-14637
▁출품	-14638
▁AMD	-14639
▁다이쇼	-14640
▁보리스	-14641
▁클레어	-14642
▁파스칼	-14643
▁함경도	-14644
▁합성어	-14645
▁항공대	-14646
▁인플루엔자	-14647
▁땀	-14648
이에	-14649
▁다룰	-14650
▁슬리	-14651
▁야권	-14652
▁첩보	-14653
▁폐허	-14654
▁로큰롤	-14655
▁사무라이	-14656
PA	-14657
계사	-14658
▁구시	-14659
▁달콤	-14660
▁최남	-14661
▁표제	-14662
▁슈타인	-14663
▁열역학	-14664
▁일부러	-14665
▁최성기	-14666
▁싯	-14667
더링	-14668
▁DB	-14669
▁김두	-14670
▁리크	-14671
▁명상	-14672
▁사와	-14673
▁애착	-14674
▁자장	-14675
▁데이트	-14676
▁벙	-14677
방향	-14678
양이	-14679
▁바늘	-14680
▁오마	-14681
▁왕래	-14682
▁부적절	-14683
▁진주시	-14684
▁컨벤션	-14685
▁풀려났	-14686
UN	-14687
▁생원	-14688
▁쏟아	-14689
▁일차	-14690
▁혼잡	-14691
그래피	-14692
▁데뷔작	-14693
▁채무자	-14694
▁테오도	-14695
두사	-14696
르카	-14697
▁에코	-14698
▁오도	-14699
▁인먼	-14700
▁강희제	-14701
▁그러면	-14702
▁돌고래	-14703
▁매디슨	-14704
▁표트르	-14705
▁알프레드	-14706
▁극소	-14707
▁버트	-14708
▁서클	-14709
▁선체	-14710
▁순식	-14711
▁여럿	-14712
▁예멘	-14713
▁이희	-14714
▁취직	-14715
▁터너	-14716
▁맥스웰	-14717
▁파라오	-14718
▁프론트	-14719
▁안드로메다	-14720
▁샷	-14721
▁격하	-14722
▁노원	-14723
▁배반	-14724
▁성행	-14725
▁이씨	-14726
▁타시	-14727
▁태안	-14728
▁반감기	-14729
▁칭기즈	-14730
▁오프라인	-14731
몽골	-14732
IVE	-14733
▁라벨	-14734
▁목장	-14735
▁용지	-14736
▁웨어	-14737
▁재화	-14738
▁집전	-14739
▁헤센	-14740
▁획기	-14741
able	-14742
▁Par	-14743
▁광둥성	-14744
▁쇼핑몰	-14745
▁중앙선	-14746
▁타일러	-14747
행파	-14748
▁결전	-14749
▁레몬	-14750
▁스펜	-14751
▁월남	-14752
▁지치	-14753
▁되풀이	-14754
▁베르트	-14755
▁송파구	-14756
▁남양주시	-14757
▁맴	-14758
ody	-14759
▁KO	-14760
▁구타	-14761
▁메모	-14762
▁모피	-14763
▁수은	-14764
▁술라	-14765
▁싫어	-14766
▁의성	-14767
▁장정	-14768
▁치킨	-14769
▁Vol	-14770
▁야마다	-14771
건설	-14772
시험	-14773
▁WC	-14774
▁끼친	-14775
▁안식	-14776
▁안중	-14777
▁이질	-14778
▁235	-14779
VA	-14780
엽수	-14781
윽고	-14782
임새	-14783
▁기마	-14784
▁등산	-14785
▁양극	-14786
▁양지	-14787
▁영락	-14788
▁월화	-14789
▁토피	-14790
▁보조금	-14791
▁이윽고	-14792
▁장갑차	-14793
▁쇼트트랙	-14794
▁거머	-14795
▁문관	-14796
▁에레	-14797
▁유충	-14798
▁찌르	-14799
▁체로	-14800
록대부	-14801
▁중앙아메리카	-14802
▁뵈	-14803
▁텅	-14804
모음	-14805
▁가세	-14806
▁경의	-14807
▁기공	-14808
▁동거	-14809
▁모체	-14810
▁묘호	-14811
▁법규	-14812
▁생쥐	-14813
▁서안	-14814
▁이홍	-14815
▁DOS	-14816
▁돌아갈	-14817
▁상반기	-14818
▁선거인	-14819
▁이사벨	-14820
▁통도사	-14821
▁University	-14822
▁가모	-14823
▁거시	-14824
▁보우	-14825
▁원효	-14826
▁아리랑	-14827
▁흔들리	-14828
13	-14829
우주	-14830
화당	-14831
▁나쁘	-14832
▁수마	-14833
▁자격증	-14834
▁아우구스투스	-14835
루즈	-14836
어류	-14837
은사	-14838
▁교관	-14839
▁금정	-14840
▁모사	-14841
▁무능	-14842
▁방호	-14843
▁서당	-14844
▁활기	-14845
▁캐스터	-14846
▁브로드웨이	-14847
▁구세	-14848
▁근세	-14849
▁로바	-14850
▁실은	-14851
▁안톤	-14852
▁위트	-14853
▁코로	-14854
▁사할린	-14855
▁카디널	-14856
▁저널리스트	-14857
me	-14858
▁탭	-14859
벌리	-14860
▁가명	-14861
▁골라	-14862
▁베티	-14863
▁보그	-14864
▁세일	-14865
▁수역	-14866
▁실렸	-14867
▁열악	-14868
▁잉카	-14869
▁정언	-14870
▁젤리	-14871
▁콘스	-14872
▁키트	-14873
해방군	-14874
▁동아리	-14875
▁바나나	-14876
▁서스펜	-14877
▁슈퍼스타	-14878
▁인민해방군	-14879
박사	-14880
텐셜	-14881
▁규약	-14882
▁라울	-14883
▁시의	-14884
▁양서	-14885
▁요가	-14886
▁일간	-14887
▁출격	-14888
올리언	-14889
▁달린다	-14890
▁북극점	-14891
▁연속극	-14892
▁정치국	-14893
▁대류	-14894
▁망치	-14895
▁배워	-14896
▁샤르	-14897
▁염두	-14898
▁이룰	-14899
▁패치	-14900
▁205	-14901
▁NBC	-14902
▁꽃차례	-14903
▁됐으나	-14904
▁통계청	-14905
사와	-14906
▁동군	-14907
▁문수	-14908
▁미트	-14909
▁박용	-14910
▁변천	-14911
▁빌드	-14912
▁사미	-14913
▁야코	-14914
▁이달	-14915
▁정글	-14916
▁종가	-14917
▁확충	-14918
▁순식간	-14919
▁콜럼버스	-14920
18	-14921
르산	-14922
anc	-14923
▁경순	-14924
▁세스	-14925
▁시제	-14926
▁은폐	-14927
▁출사	-14928
▁키타	-14929
▁가이아	-14930
▁교육감	-14931
▁퍼텐셜	-14932
▁라이베리아	-14933
▁보컬리스트	-14934
▁IR	-14935
▁경종	-14936
▁병렬	-14937
▁잉여	-14938
▁자위	-14939
▁중남	-14940
▁집사	-14941
▁후루	-14942
진보당	-14943
▁가요제	-14944
▁로버츠	-14945
▁터뜨리	-14946
쿠사	-14947
▁At	-14948
▁기미	-14949
▁단양	-14950
▁래리	-14951
▁볼드	-14952
▁상계	-14953
▁석기	-14954
▁소양	-14955
▁실효	-14956
▁아끼	-14957
▁악당	-14958
▁안심	-14959
▁전조	-14960
▁빼앗기	-14961
▁사학자	-14962
▁청문회	-14963
▁펼쳐져	-14964
스코리아	-14965
▁뉴올리언	-14966
▁나일	-14967
▁노라	-14968
▁숙박	-14969
▁싱크	-14970
▁초계	-14971
▁케리	-14972
▁하지	-14973
▁시그마	-14974
▁퀄	-14975
데기	-14976
보내	-14977
▁가뭄	-14978
▁델리	-14979
▁라지	-14980
▁신병	-14981
▁정승	-14982
▁정에	-14983
▁대수학	-14984
▁무지개	-14985
▁비단털	-14986
▁썼으며	-14987
▁셴	-14988
보라	-14989
촌리	-14990
▁균일	-14991
▁노카	-14992
▁데일	-14993
▁미첼	-14994
▁바니	-14995
▁복부	-14996
▁불쾌	-14997
▁자키	-14998
▁품목	-14999
▁호로	-15000
very	-15001
▁708	-15002
▁슈미트	-15003
▁아스카	-15004
▁비단털쥐	-15005
▁잼	-15006
에쓰	-15007
연구	-15008
주크	-15009
▁AE	-15010
▁베크	-15011
▁외할	-15012
▁일주	-15013
▁축복	-15014
▁스케일	-15015
▁콘라트	-15016
▁관음보살	-15017
▁유가행파	-15018
▁지하철역	-15019
au	-15020
▁뤄	-15021
▁군복	-15022
▁나기	-15023
▁라플	-15024
▁무가	-15025
▁묶여	-15026
▁산문	-15027
▁아연	-15028
▁에볼	-15029
▁조봉	-15030
▁족장	-15031
▁차오	-15032
▁총영	-15033
▁칼륨	-15034
▁한겨	-15035
▁해질	-15036
▁재미있	-15037
▁호흡기	-15038
▁Hell	-15039
▁서비스업	-15040
▁썰	-15041
▁cc	-15042
▁경화	-15043
▁금환	-15044
▁불태	-15045
▁빨라	-15046
▁안팎	-15047
▁화음	-15048
▁ATC	-15049
▁게임즈	-15050
▁교육학	-15051
▁당뇨병	-15052
▁로베르토	-15053
▁바이마르	-15054
▁스틸러스	-15055
net	-15056
▁단발	-15057
▁맡겨	-15058
▁안기	-15059
▁옥사	-15060
▁잔혹	-15061
▁폐교	-15062
▁한복	-15063
▁비잔틴	-15064
▁오르간	-15065
▁전해져	-15066
▁조선공산당	-15067
열대	-15068
▁JC	-15069
▁기스	-15070
▁남단	-15071
▁리시	-15072
▁뮐러	-15073
▁줄곧	-15074
▁초회	-15075
▁신호장	-15076
▁테두리	-15077
▁갈릴레오	-15078
큐슈	-15079
ala	-15080
▁골절	-15081
▁놓치	-15082
▁시성	-15083
▁안겨	-15084
▁애드	-15085
▁쳐서	-15086
▁후이	-15087
스크림	-15088
▁거주자	-15089
▁그레이엄	-15090
▁마흐	-15091
▁손목	-15092
▁오니	-15093
▁코크	-15094
▁포니	-15095
▁향수	-15096
폴리탄	-15097
▁간호사	-15098
▁시마즈	-15099
▁유명세	-15100
▁조각상	-15101
▁1874	-15102
▁name	-15103
▁가졌으며	-15104
▁못했으며	-15105
▁일렉트릭	-15106
▁클러스터	-15107
▁메트로폴리탄	-15108
바드	-15109
ATO	-15110
▁낭비	-15111
▁스펙	-15112
▁전범	-15113
▁치마	-15114
▁침범	-15115
▁카로	-15116
▁클랜	-15117
▁리차드	-15118
▁물려주	-15119
▁오릭스	-15120
▁뜰	-15121
▁벚	-15122
라르	-15123
변수	-15124
▁비옥	-15125
▁솜씨	-15126
▁싸울	-15127
▁올릴	-15128
▁외손	-15129
▁우표	-15130
▁읍성	-15131
▁인성	-15132
▁손꼽히	-15133
▁조각가	-15134
▁해준다	-15135
▁후쿠이	-15136
민당	-15137
악산	-15138
▁고층	-15139
▁보어	-15140
▁소론	-15141
▁에노	-15142
▁젠더	-15143
▁통솔	-15144
▁하산	-15145
▁화승	-15146
▁김해시	-15147
▁출판물	-15148
▁케이드	-15149
▁sp	-15150
▁내릴	-15151
▁다쿠	-15152
▁외삼	-15153
▁일삼	-15154
▁Her	-15155
▁공학자	-15156
▁라스트	-15157
▁성폭력	-15158
▁콘퍼런스	-15159
14	-15160
구니	-15161
프랑	-15162
▁되살	-15163
▁무예	-15164
▁쫓아	-15165
▁쿠마	-15166
▁화원	-15167
▁반대편	-15168
▁최진실	-15169
▁포식자	-15170
▁우두머리	-15171
ps	-15172
범죄	-15173
ash	-15174
▁강국	-15175
▁과세	-15176
▁나한	-15177
▁뉴멕	-15178
▁도형	-15179
▁리나	-15180
▁모치	-15181
▁몰수	-15182
▁밸브	-15183
▁재회	-15184
▁창구	-15185
▁탄수	-15186
▁풀백	-15187
▁다녀왔	-15188
▁사무관	-15189
▁안양시	-15190
▁전시관	-15191
▁핸드볼	-15192
▁뉴멕시코	-15193
▁멱	-15194
신저	-15195
▁SR	-15196
▁et	-15197
▁강좌	-15198
▁관위	-15199
▁발작	-15200
▁이문	-15201
▁tvN	-15202
▁한겨레	-15203
▁This	-15204
▁오아시스	-15205
데일	-15206
▁넷플	-15207
▁리타	-15208
▁발판	-15209
▁버니	-15210
▁사중	-15211
▁양평	-15212
▁적법	-15213
▁사하라	-15214
▁컨설팅	-15215
▁트레일	-15216
▁가로질러	-15217
▁넷플릭스	-15218
▁멀티미디어	-15219
소문	-15220
황색	-15221
▁가온	-15222
▁동백	-15223
▁요직	-15224
▁학당	-15225
▁남극점	-15226
▁부르봉	-15227
▁셀주크	-15228
▁여운형	-15229
▁바그다드	-15230
▁알렉산데르	-15231
ax	-15232
▁YG	-15233
▁마늘	-15234
▁예제	-15235
▁잔여	-15236
▁조동	-15237
▁저스틴	-15238
▁책임지	-15239
▁휴대폰	-15240
▁1877	-15241
▁유니코드	-15242
▁컨퍼런스	-15243
▁서아프리카	-15244
15	-15245
co	-15246
▁맞물	-15247
▁석권	-15248
▁이색	-15249
▁코린	-15250
▁화염	-15251
▁204	-15252
▁클로드	-15253
HC	-15254
▁떨쳤	-15255
▁레나	-15256
▁문맥	-15257
▁산조	-15258
▁인스	-15259
▁칠성	-15260
▁코바	-15261
▁협곡	-15262
▁로페스	-15263
▁시달렸	-15264
▁올라와	-15265
▁외계인	-15266
▁중거리	-15267
▁천도교	-15268
▁항공편	-15269
▁미스코리아	-15270
▁뉴클레오타이드	-15271
▁"|	-15272
▁격전	-15273
▁공문	-15274
▁김우	-15275
▁너희	-15276
▁백지	-15277
▁우니	-15278
▁자성	-15279
▁홍익	-15280
▁아우르	-15281
▁이주민	-15282
▁핵탄두	-15283
▁파푸아뉴기니	-15284
스퍼	-15285
피크	-15286
▁가선	-15287
▁변론	-15288
▁선단	-15289
▁엄지	-15290
▁템플	-15291
야누스	-15292
▁지리산	-15293
▁캄파니아	-15294
▁플루토늄	-15295
▁호소카와	-15296
GB	-15297
so	-15298
yn	-15299
▁쿰	-15300
일기	-15301
▁고승	-15302
▁두뇌	-15303
▁부엌	-15304
▁소인	-15305
▁의제	-15306
▁주군	-15307
▁퇴진	-15308
▁행선	-15309
▁회차	-15310
▁CIA	-15311
▁Dra	-15312
▁동남쪽	-15313
▁한국군	-15314
▁띈	-15315
징어	-15316
▁경합	-15317
▁문물	-15318
▁바야	-15319
▁에페	-15320
▁지크	-15321
▁공주시	-15322
▁아놀드	-15323
▁레닌주의	-15324
▁서바이벌	-15325
▁트라야누스	-15326
▁뜬	-15327
계약	-15328
네르	-15329
비에	-15330
혈구	-15331
▁AF	-15332
▁복속	-15333
▁싸운	-15334
▁제비	-15335
▁판명	-15336
▁펭귄	-15337
▁Best	-15338
▁챠	-15339
▁툼	-15340
oid	-15341
▁GR	-15342
▁논증	-15343
▁소르	-15344
▁송이	-15345
▁여정	-15346
▁카일	-15347
▁518	-15348
▁허베이	-15349
▁현미경	-15350
▁7000	-15351
▁감축	-15352
▁경내	-15353
▁승낙	-15354
▁시발	-15355
▁쓰일	-15356
▁원사	-15357
▁재물	-15358
▁캠벨	-15359
▁Bab	-15360
▁개화파	-15361
▁앞바다	-15362
▁에스컬	-15363
▁카리스	-15364
▁트레인	-15365
▁에스컬레이터	-15366
▁탔	-15367
더릭	-15368
토크	-15369
▁곤살	-15370
▁도부	-15371
▁라임	-15372
▁무주	-15373
▁미겔	-15374
▁블랑	-15375
▁세제	-15376
▁제지	-15377
▁퇴치	-15378
▁후회	-15379
▁브리스	-15380
▁오리엔	-15381
▁참전하	-15382
▁콘티넨	-15383
동원	-15384
▁민원	-15385
▁받치	-15386
▁스플	-15387
▁아킬	-15388
▁앨라	-15389
▁미트라	-15390
▁스타드	-15391
▁프레슬리	-15392
▁켜	-15393
투리	-15394
▁레크	-15395
▁서품	-15396
▁양천	-15397
▁1700	-15398
▁다카하시	-15399
마을	-15400
재판	-15401
▁Mi	-15402
▁결장	-15403
▁도읍	-15404
▁미러	-15405
▁베다	-15406
▁앞뒤	-15407
▁억울	-15408
▁요도	-15409
▁추운	-15410
▁트림	-15411
▁물러난	-15412
▁클레오	-15413
▁페스트	-15414
ict	-15415
▁달력	-15416
▁바젤	-15417
▁바투	-15418
▁박찬	-15419
▁소주	-15420
▁대사간	-15421
▁수백만	-15422
▁울트라	-15423
▁웜	-15424
운수	-15425
티지	-15426
ose	-15427
▁로망	-15428
▁바쳐	-15429
▁북측	-15430
▁산술	-15431
▁산체	-15432
▁루이즈	-15433
▁콜린스	-15434
제철	-15435
▁거병	-15436
▁돌렸	-15437
▁미켈	-15438
▁숙명	-15439
▁순찰	-15440
▁승률	-15441
▁지령	-15442
▁츠카	-15443
▁타선	-15444
▁통찰	-15445
▁하층	-15446
▁625	-15447
▁사다리	-15448
▁원주시	-15449
▁인류학	-15450
22	-15451
▁랏	-15452
▁얄	-15453
▁켐	-15454
의식	-15455
▁본존	-15456
▁사연	-15457
▁산재	-15458
▁산정	-15459
▁토바	-15460
▁화소	-15461
▁APG	-15462
▁길거리	-15463
▁루카스	-15464
▁아키텐	-15465
▁엘비스	-15466
▁연방군	-15467
▁우에노	-15468
▁이론가	-15469
▁만장일치	-15470
▁아드리아	-15471
뜨린	-15472
장사	-15473
형제	-15474
▁공병	-15475
▁다윗	-15476
▁인계	-15477
▁자백	-15478
▁처마	-15479
▁투사	-15480
▁게이밍	-15481
▁경부선	-15482
▁억제제	-15483
▁1859	-15484
▁라이센스	-15485
▁카디널스	-15486
▁프리큐어	-15487
▁KS	-15488
▁결여	-15489
▁대입	-15490
▁맹렬	-15491
▁불릴	-15492
▁상환	-15493
▁나투	-15494
▁롤러	-15495
▁방학	-15496
▁블룸	-15497
▁테헤	-15498
▁앙드레	-15499
다보	-15500
로트	-15501
▁문건	-15502
▁북인	-15503
▁상설	-15504
▁강화군	-15505
▁서태지	-15506
▁튀어나	-15507
양구	-15508
▁도안	-15509
▁뒤덮	-15510
▁수질	-15511
▁푸젠	-15512
▁함장	-15513
▁난쟁이	-15514
▁통계학	-15515
▁향신료	-15516
▁갑작스럽	-15517
▁했으므로	-15518
▁짚	-15519
과학	-15520
무장	-15521
▁se	-15522
▁곡식	-15523
▁구전	-15524
▁김주	-15525
▁네브	-15526
▁만류	-15527
▁명왕	-15528
▁성조	-15529
▁유창	-15530
▁차역	-15531
▁후견	-15532
▁가져가	-15533
▁빌바오	-15534
▁이케다	-15535
▁제니퍼	-15536
▁자이언트	-15537
나시	-15538
▁김도	-15539
▁리안	-15540
▁반달	-15541
▁발광	-15542
▁알로	-15543
▁전봉	-15544
▁플랑	-15545
▁헬스	-15546
▁가치관	-15547
▁매니아	-15548
▁아이치	-15549
▁아이스크림	-15550
EEE	-15551
▁니즈	-15552
▁로디	-15553
▁무공	-15554
▁백운	-15555
▁비싸	-15556
▁사병	-15557
▁완장	-15558
▁빈센트	-15559
▁자카르타	-15560
장조	-15561
▁us	-15562
▁관아	-15563
▁구가	-15564
▁두르	-15565
▁부식	-15566
▁서체	-15567
▁이만	-15568
▁주포	-15569
▁진심	-15570
▁결의안	-15571
▁곧이어	-15572
▁찾아오	-15573
▁혼합물	-15574
▁스테파노	-15575
▁뚜껑	-15576
▁매기	-15577
▁멜라	-15578
▁사산	-15579
▁상감	-15580
▁원점	-15581
▁폐차	-15582
▁대혁명	-15583
▁슈투트	-15584
▁테크놀로지	-15585
▁슈투트가르트	-15586
uck	-15587
▁군기	-15588
▁루드	-15589
▁선과	-15590
▁수프	-15591
▁의인	-15592
▁일면	-15593
▁자네	-15594
▁카보	-15595
▁퇴출	-15596
▁피자	-15597
▁홀수	-15598
▁미성년	-15599
▁순천시	-15600
▁아파치	-15601
▁출장소	-15602
▁미야기현	-15603
▁사이클론	-15604
▁뮈	-15605
매기	-15606
배마	-15607
소니	-15608
스톤	-15609
▁금관	-15610
▁소서	-15611
▁왕당	-15612
reak	-15613
▁셰퍼드	-15614
▁메모리얼	-15615
▁앨라배마	-15616
플레	-15617
▁오와	-15618
▁율리	-15619
▁중건	-15620
▁타파	-15621
▁튜링	-15622
▁후면	-15623
de	-15624
▁펙	-15625
▁이창	-15626
▁바스크	-15627
▁이치현	-15628
▁소아시아	-15629
남면	-15630
▁모교	-15631
▁발터	-15632
▁보디	-15633
▁안주	-15634
▁어지	-15635
▁어학	-15636
▁예보	-15637
▁타라	-15638
▁태화	-15639
▁터스	-15640
▁가우스	-15641
▁개최지	-15642
▁대제학	-15643
▁순교자	-15644
▁직사각	-15645
▁세웠으며	-15646
▁^	-15647
완다	-15648
크리	-15649
vel	-15650
▁레티	-15651
▁모션	-15652
▁수주	-15653
▁340	-15654
▁쓰촨성	-15655
▁안철수	-15656
▁저질렀	-15657
▁정착지	-15658
▁헬레니즘	-15659
고사	-15660
정변	-15661
▁사생	-15662
▁선별	-15663
▁장경	-15664
▁전서	-15665
▁정역	-15666
▁타밀	-15667
▁학창	-15668
▁무신론	-15669
▁브레멘	-15670
▁IEEE	-15671
▁국가원수	-15672
▁크리스틴	-15673
▁Super	-15674
학파	-15675
▁관군	-15676
▁리언	-15677
▁비어	-15678
▁어라	-15679
▁원만	-15680
▁입찰	-15681
▁자갈	-15682
▁총감	-15683
▁호투	-15684
▁흐트	-15685
▁목표물	-15686
▁바빌론	-15687
▁아니면	-15688
▁환승역	-15689
▁안토니우스	-15690
그램	-15691
댓값	-15692
▁교재	-15693
▁근간	-15694
▁로보	-15695
▁로코	-15696
▁사탄	-15697
▁스완	-15698
▁오인	-15699
▁평하	-15700
▁호적	-15701
▁화풍	-15702
▁개막식	-15703
▁떠올랐	-15704
▁라그랑	-15705
▁로스트	-15706
▁마코토	-15707
HL	-15708
oo	-15709
▁FF	-15710
▁공석	-15711
▁교감	-15712
▁뉴잉	-15713
▁속국	-15714
▁아누	-15715
▁짝수	-15716
▁코이	-15717
▁하후	-15718
▁국내선	-15719
▁기념장	-15720
▁로저스	-15721
▁무사시	-15722
▁조르주	-15723
버터	-15724
티어	-15725
팩스	-15726
▁김학	-15727
▁도끼	-15728
▁동급	-15729
▁발진	-15730
▁산남	-15731
▁슬러	-15732
▁유틸	-15733
▁작자	-15734
게이트	-15735
▁310	-15736
▁des	-15737
▁선제후	-15738
▁실린더	-15739
▁엄청나	-15740
▁에세이	-15741
▁두드러진	-15742
▁유틸리티	-15743
나주	-15744
둘러	-15745
패드	-15746
ail	-15747
▁as	-15748
▁개표	-15749
▁섹션	-15750
▁조회	-15751
▁처칠	-15752
▁통감	-15753
레틱스	-15754
▁대관식	-15755
▁볼프강	-15756
▁예문관	-15757
▁Star	-15758
▁그래픽스	-15759
▁오토바이	-15760
▁무형문화재	-15761
▁애슬레틱스	-15762
▁후쿠시마현	-15763
TF	-15764
바퀴	-15765
조류	-15766
▁경원	-15767
▁구라	-15768
▁베가	-15769
▁산인	-15770
▁센타	-15771
▁수구	-15772
▁시력	-15773
▁왕명	-15774
▁용맹	-15775
▁기생충	-15776
▁원정대	-15777
▁정해졌	-15778
▁탈레반	-15779
▁모니터링	-15780
▁썸	-15781
▁쏜	-15782
들였	-15783
버라	-15784
주사	-15785
▁거문	-15786
▁과달	-15787
▁교인	-15788
▁도매	-15789
▁변성	-15790
▁상층	-15791
▁추장	-15792
▁희미	-15793
공화당	-15794
▁개척자	-15795
▁리바이	-15796
▁1812	-15797
▁선거관리	-15798
▁중앙일보	-15799
▁뉴올리언스	-15800
▁민주공화당	-15801
▁매사추세츠주	-15802
▁선거관리위원회	-15803
디드	-15804
▁my	-15805
▁매듭	-15806
▁정청	-15807
▁커리	-15808
▁호화	-15809
▁레이건	-15810
▁슈트라	-15811
▁오슬로	-15812
▁John	-15813
▁나바	-15814
▁넓혀	-15815
▁아칸	-15816
▁투기	-15817
▁황위	-15818
하마드	-15819
▁디에고	-15820
▁분류학	-15821
▁여러분	-15822
▁해인사	-15823
▁아이파크	-15824
▁콘스탄티누스	-15825
iel	-15826
▁DO	-15827
▁ON	-15828
▁나시	-15829
▁노마	-15830
▁담양	-15831
▁닷컴	-15832
▁도파	-15833
▁버밍	-15834
▁철기	-15835
▁허물	-15836
▁교황령	-15837
▁슈트라우스	-15838
▁뽀	-15839
▁ad	-15840
▁갇혀	-15841
▁기권	-15842
▁무위	-15843
▁보국	-15844
▁보아	-15845
▁세밀	-15846
▁손수	-15847
▁스쿼	-15848
▁양동	-15849
▁잡힌	-15850
▁청정	-15851
▁추밀	-15852
▁포상	-15853
▁하강	-15854
▁호국	-15855
▁자본가	-15856
▁합병증	-15857
▁고바야시	-15858
▁아미타불	-15859
gh	-15860
▁Kn	-15861
▁근위	-15862
▁따돌	-15863
▁메드	-15864
▁박경	-15865
▁시편	-15866
▁유보	-15867
▁평방	-15868
▁Sun	-15869
▁록히드	-15870
▁셀레우	-15871
▁스러워	-15872
▁테헤란	-15873
▁한자어	-15874
▁불법행위	-15875
주석	-15876
▁게놈	-15877
▁공경	-15878
▁레저	-15879
▁명륜	-15880
▁빨강	-15881
▁용역	-15882
▁울루	-15883
▁진천	-15884
▁체질	-15885
▁커브	-15886
▁특명	-15887
▁호이	-15888
시아키	-15889
▁you	-15890
▁이광수	-15891
▁후반전	-15892
▁뉴잉글랜드	-15893
RI	-15894
▁당상	-15895
▁부락	-15896
▁수문	-15897
▁으러	-15898
▁토프	-15899
▁단말기	-15900
▁보이즈	-15901
▁에이지	-15902
▁인산화	-15903
▁Soul	-15904
▁아브라함	-15905
구미	-15906
▁걸스	-15907
▁넓히	-15908
▁두터	-15909
▁로런	-15910
▁무진	-15911
▁배타	-15912
▁주유	-15913
▁지킬	-15914
▁해커	-15915
▁App	-15916
ray	-15917
▁개경	-15918
▁김덕	-15919
▁로컬	-15920
▁수라	-15921
▁정실	-15922
▁지날	-15923
▁충동	-15924
▁퀸스	-15925
▁한하	-15926
▁항문	-15927
▁209	-15928
▁에이브	-15929
▁파르마	-15930
▁북대서양	-15931
OK	-15932
▁IF	-15933
▁가창	-15934
▁과감	-15935
▁관개	-15936
▁논평	-15937
▁놓였	-15938
▁뒤이	-15939
▁소포	-15940
▁수족	-15941
▁식이	-15942
▁아요	-15943
▁아호	-15944
▁은지	-15945
▁조던	-15946
▁지검	-15947
▁천자	-15948
▁청일	-15949
▁총생	-15950
▁카파	-15951
▁코우	-15952
▁공성전	-15953
▁대대장	-15954
▁레코딩	-15955
▁오메가	-15956
▁울주군	-15957
▁Christ	-15958
블릭	-15959
ute	-15960
▁Mr	-15961
▁구비	-15962
▁리퍼	-15963
▁샤오	-15964
▁애호	-15965
▁양념	-15966
▁쿠루	-15967
▁투니	-15968
▁피그	-15969
▁태블릿	-15970
EA	-15971
연맹	-15972
▁귀순	-15973
▁금기	-15974
▁도자	-15975
▁의논	-15976
▁익히	-15977
▁패자	-15978
하우스	-15979
▁게이오	-15980
▁기울이	-15981
▁송진우	-15982
▁접미사	-15983
▁주거지	-15984
▁지석묘	-15985
▁ICBM	-15986
▁리바운드	-15987
▁궈	-15988
▁강유	-15989
▁안면	-15990
▁카펠	-15991
▁휴일	-15992
▁206	-15993
▁사우디	-15994
▁파르티아	-15995
▁아람	-15996
▁영도	-15997
▁풀이	-15998
▁바뀐다	-15999
▁주제가	-16000
▁클라리	-16001
▁페르시	-16002
▁쑹	-16003
탄올	-16004
▁금천	-16005
▁끔찍	-16006
▁당장	-16007
▁무찌	-16008
▁법상	-16009
▁속초	-16010
▁유계	-16011
▁잡혔	-16012
▁장강	-16013
▁장지	-16014
▁점토	-16015
▁죽일	-16016
▁천적	-16017
▁풍요	-16018
라이스	-16019
▁르완다	-16020
▁베르사유	-16021
도감	-16022
샤오	-16023
초프	-16024
▁HP	-16025
▁그늘	-16026
▁김시	-16027
▁사파	-16028
▁양원	-16029
▁유상	-16030
▁인척	-16031
▁조우	-16032
▁탄두	-16033
▁끌려가	-16034
▁스태프	-16035
▁자오선	-16036
▁1879	-16037
59	-16038
▁름	-16039
화산	-16040
▁NM	-16041
▁Tw	-16042
▁규합	-16043
▁단수	-16044
▁로지	-16045
▁부기	-16046
▁상이	-16047
▁지카	-16048
▁집적	-16049
▁해주	-16050
▁남북조	-16051
▁여주인	-16052
▁영사관	-16053
▁음식점	-16054
▁막시밀리	-16055
레앙	-16056
분투	-16057
자드	-16058
▁고후	-16059
▁니치	-16060
▁듀스	-16061
▁루손	-16062
▁반정	-16063
▁자존	-16064
▁차차	-16065
▁개개인	-16066
▁물리쳤	-16067
▁윤치영	-16068
▁자치현	-16069
▁조광조	-16070
네프	-16071
반정	-16072
▁감당	-16073
▁눌러	-16074
▁산동	-16075
▁유세	-16076
▁카토	-16077
▁콜론	-16078
▁쿠시	-16079
▁747	-16080
▁라고도	-16081
▁백두산	-16082
▁안데스	-16083
▁엘리스	-16084
▁알렉세이	-16085
네오	-16086
라는	-16087
스레	-16088
▁군마	-16089
▁모태	-16090
▁부화	-16091
▁불문	-16092
▁유민	-16093
▁자석	-16094
▁춘계	-16095
▁폐하	-16096
▁현수	-16097
▁효능	-16098
로세서	-16099
▁고지대	-16100
▁에다가	-16101
▁여수시	-16102
▁카지노	-16103
▁트리스	-16104
16	-16105
방스	-16106
티보	-16107
▁동맥	-16108
▁두부	-16109
▁딱딱	-16110
▁범람	-16111
▁역동	-16112
▁위축	-16113
▁이코	-16114
▁독재자	-16115
▁삼거리	-16116
▁아이작	-16117
▁연대장	-16118
▁의병장	-16119
▁피어스	-16120
▁금리	-16121
▁농담	-16122
▁시타	-16123
▁중등	-16124
▁광합성	-16125
▁NX	-16126
▁갑신	-16127
▁떠돌	-16128
▁맞배	-16129
▁성자	-16130
▁자각	-16131
▁420	-16132
▁도망쳐	-16133
▁로널드	-16134
▁선수상	-16135
▁조봉암	-16136
▁페이퍼	-16137
▁유럽연합	-16138
YP	-16139
▁꽝	-16140
다임	-16141
슐리	-16142
▁PA	-16143
▁반납	-16144
▁생김	-16145
▁양정	-16146
▁정맥	-16147
▁카다	-16148
▁택하	-16149
▁힐스	-16150
로그램	-16151
▁석회암	-16152
▁남경	-16153
▁대등	-16154
▁대여	-16155
▁라쿠	-16156
▁변함	-16157
▁불능	-16158
▁빛깔	-16159
▁스킨	-16160
▁전열	-16161
▁초식	-16162
▁국방군	-16163
▁치른다	-16164
17	-16165
▁쿵	-16166
나들	-16167
산업	-16168
▁Gu	-16169
▁반향	-16170
▁상회	-16171
▁소량	-16172
▁수아	-16173
▁앙상	-16174
▁장이	-16175
▁호시	-16176
스트림	-16177
▁Win	-16178
▁바닷가	-16179
▁건국훈장	-16180
면적	-16181
여지	-16182
일체	-16183
▁국문	-16184
▁꾸몄	-16185
▁나토	-16186
▁동대	-16187
▁머큐	-16188
▁시영	-16189
▁우기	-16190
▁CoA	-16191
▁사가미	-16192
▁즐거움	-16193
▁펼쳐진	-16194
▁패러다임	-16195
▁불러일으켰	-16196
▁뜯	-16197
▁퀼	-16198
수지	-16199
ual	-16200
▁무패	-16201
▁실베	-16202
▁영종	-16203
▁오웬	-16204
▁인삼	-16205
▁촐라	-16206
▁컬링	-16207
▁킬러	-16208
▁폴로	-16209
▁버스터	-16210
▁재결합	-16211
▁일렉트로닉	-16212
태자	-16213
▁내시	-16214
▁온전	-16215
▁클럭	-16216
▁440	-16217
▁변호인	-16218
▁붙잡혀	-16219
▁제이크	-16220
▁테크노	-16221
▁항생제	-16222
▁말려	-16223
▁부트	-16224
▁안락	-16225
▁유관	-16226
▁제고	-16227
▁죄인	-16228
▁군주제	-16229
▁니가타	-16230
▁들어선	-16231
▁여행자	-16232
▁태어날	-16233
리아누스	-16234
▁포틀랜드	-16235
링크	-16236
ull	-16237
▁"'	-16238
▁RA	-16239
▁권투	-16240
▁능숙	-16241
▁두스	-16242
▁먼로	-16243
▁압수	-16244
▁일보	-16245
▁투병	-16246
▁할로	-16247
▁호찌	-16248
▁리그컵	-16249
▁바레인	-16250
▁플래닛	-16251
▁엔지니어링	-16252
▁Record	-16253
가요	-16254
울루	-16255
의금	-16256
▁무겁	-16257
▁스텐	-16258
▁열람	-16259
▁이설	-16260
▁임실	-16261
▁할구	-16262
▁항전	-16263
▁기울였	-16264
▁랴오닝	-16265
▁수영장	-16266
▁알칼리	-16267
▁암스트	-16268
▁야구부	-16269
▁영화관	-16270
▁요나라	-16271
▁접근성	-16272
선교	-16273
장군	-16274
▁고독	-16275
▁노역	-16276
▁대방	-16277
▁바바	-16278
▁전곡	-16279
▁화이	-16280
▁Per	-16281
▁드러난다	-16282
▁크리스탈	-16283
▁Intern	-16284
발트	-16285
신보	-16286
VID	-16287
▁강가	-16288
▁사목	-16289
▁요셉	-16290
▁이석	-16291
▁증축	-16292
▁후추	-16293
▁글리제	-16294
▁스텔스	-16295
▁실리콘	-16296
▁오우치	-16297
▁고요	-16298
▁날렸	-16299
▁매복	-16300
▁멘델	-16301
▁사체	-16302
▁산투스	-16303
▁지극히	-16304
▁당했으며	-16305
높이	-16306
▁KD	-16307
▁리노	-16308
▁입혔	-16309
▁적힌	-16310
▁접목	-16311
▁최용	-16312
▁코인	-16313
▁행운	-16314
▁환산	-16315
▁256	-16316
▁본거지	-16317
▁호기심	-16318
바이러스	-16319
능력	-16320
대비	-16321
▁광시	-16322
▁기피	-16323
▁도나	-16324
▁망가	-16325
▁바타	-16326
▁소진	-16327
▁솔직	-16328
▁아쉽	-16329
▁오차	-16330
▁체리	-16331
▁파고	-16332
리오스	-16333
▁911	-16334
▁기본법	-16335
▁베이직	-16336
▁스위트	-16337
▁올라왔	-16338
▁유기체	-16339
▁잠비아	-16340
▁이루어질	-16341
▁다마스쿠스	-16342
▁아우구스트	-16343
▁미타	-16344
▁성형	-16345
▁정직	-16346
▁제방	-16347
▁225	-16348
▁Str	-16349
▁엔리케	-16350
▁이회창	-16351
▁조용히	-16352
▁토론회	-16353
▁판매고	-16354
▁2500	-16355
▁그러다가	-16356
▁원종공신	-16357
▁MD	-16358
▁따지	-16359
▁문어	-16360
▁세울	-16361
▁열거	-16362
▁트램	-16363
▁타지키스탄	-16364
쿠치	-16365
▁po	-16366
▁가결	-16367
▁노엘	-16368
▁담수	-16369
▁섞인	-16370
▁시온	-16371
▁아로	-16372
▁왕릉	-16373
▁왕좌	-16374
▁우디	-16375
▁케로	-16376
▁바실리	-16377
▁양산시	-16378
▁엘리엇	-16379
▁대법원장	-16380
▁뭔	-16381
▁강했	-16382
▁내기	-16383
▁멘토	-16384
▁봉분	-16385
▁우타	-16386
▁이한	-16387
▁중신	-16388
▁탈피	-16389
고로드	-16390
▁연금술	-16391
니에	-16392
데오	-16393
러져	-16394
레미	-16395
스틱	-16396
▁mu	-16397
▁담임	-16398
▁미녀	-16399
▁성현	-16400
▁양구	-16401
▁왕녀	-16402
▁워낙	-16403
▁콜리	-16404
▁Hot	-16405
▁디스코	-16406
▁렌더링	-16407
▁초고층	-16408
▁총생산	-16409
▁후유증	-16410
▁'.	-16411
▁교명	-16412
▁균등	-16413
▁동두	-16414
▁리지	-16415
▁만물	-16416
▁사조	-16417
▁성교	-16418
▁수표	-16419
▁아역	-16420
▁악어	-16421
▁응력	-16422
▁코니	-16423
▁탄력	-16424
▁피질	-16425
ions	-16426
▁고다이	-16427
▁네바다	-16428
▁습니까	-16429
▁잠재력	-16430
▁제시카	-16431
▁춘천시	-16432
▁주머니쥐	-16433
▁쐐	-16434
▁짠	-16435
▁nm	-16436
▁강자	-16437
▁군도	-16438
▁노름	-16439
▁브이	-16440
▁신익	-16441
▁영성	-16442
▁용문	-16443
▁윤곽	-16444
▁비행사	-16445
▁왕당파	-16446
▁프리드	-16447
▁돌아간다	-16448
길준	-16449
▁CA	-16450
▁궁주	-16451
▁득실	-16452
▁로만	-16453
▁사스	-16454
▁원곡	-16455
▁즐겼	-16456
▁카츠	-16457
▁히코	-16458
레이즈	-16459
▁되돌려	-16460
▁생산자	-16461
▁시에라	-16462
▁오토모	-16463
▁카스텔	-16464
▁허버트	-16465
▁독립선언	-16466
▁public	-16467
ty	-16468
는점	-16469
무지	-16470
피카	-16471
황제	-16472
▁광동	-16473
▁교내	-16474
▁동체	-16475
▁무소	-16476
▁북마	-16477
▁세타	-16478
▁실책	-16479
▁쌍용	-16480
▁쐐기	-16481
▁유미	-16482
▁은평	-16483
▁이보	-16484
▁파출	-16485
▁길버트	-16486
▁앙상블	-16487
▁예비군	-16488
▁웨슬리	-16489
▁이세이	-16490
▁지배했	-16491
25	-16492
▁앳	-16493
덕궁	-16494
스텐	-16495
ors	-16496
▁HS	-16497
▁관저	-16498
▁대용	-16499
▁변한	-16500
▁애프	-16501
▁여관	-16502
▁조율	-16503
▁날아가	-16504
▁캅카스	-16505
▁Kore	-16506
▁드래곤즈	-16507
빨리	-16508
인산	-16509
자나	-16510
▁거품	-16511
▁교학	-16512
▁구명	-16513
▁라사	-16514
▁마거	-16515
▁아루	-16516
▁환초	-16517
▁오나라	-16518
▁프린세스	-16519
▁print	-16520
▁쏠	-16521
무트	-16522
RNA	-16523
▁Ke	-16524
▁강타	-16525
▁명동	-16526
▁연하	-16527
▁유독	-16528
▁즉흥	-16529
▁지브	-16530
▁코일	-16531
▁호지	-16532
▁마운틴	-16533
▁브릿지	-16534
▁사무엘	-16535
▁유물론	-16536
ll	-16537
▁농협	-16538
▁미디	-16539
▁셔츠	-16540
▁스팀	-16541
▁종실	-16542
▁방법론	-16543
▁와이어	-16544
▁주둔지	-16545
▁추축국	-16546
▁1789	-16547
▁기타큐슈	-16548
▁리치먼드	-16549
라과	-16550
불명	-16551
커우	-16552
훈련	-16553
▁OK	-16554
▁누마	-16555
▁아님	-16556
▁접시	-16557
▁침수	-16558
▁파피	-16559
▁거느렸	-16560
▁머큐리	-16561
▁프로필	-16562
▁탄수화물	-16563
▁플랑드르	-16564
이상	-16565
▁가전	-16566
▁구애	-16567
▁군림	-16568
▁던전	-16569
▁동률	-16570
▁장차	-16571
▁제타	-16572
▁채집	-16573
▁춘향	-16574
▁커넥	-16575
▁향로	-16576
▁흉내	-16577
▁고스트	-16578
▁디아스	-16579
▁브루노	-16580
▁오이타	-16581
▁유도탄	-16582
▁을수록	-16583
▁이마가와	-16584
포리	-16585
▁간지	-16586
▁노골	-16587
▁느슨	-16588
▁마른	-16589
▁면하	-16590
▁석재	-16591
▁성부	-16592
▁아구	-16593
▁진성	-16594
ames	-16595
▁오리건	-16596
▁제품군	-16597
▁조연상	-16598
▁콜라보	-16599
▁천문단위	-16600
▁베오그라드	-16601
평면	-16602
▁'-	-16603
▁NL	-16604
▁깊숙	-16605
▁정중	-16606
▁현관	-16607
▁흡입	-16608
▁내몽골	-16609
▁냈으며	-16610
▁넘어서	-16611
▁다행히	-16612
▁알베르	-16613
▁인문학	-16614
▁1801	-16615
▁NATO	-16616
자락	-16617
▁Fl	-16618
▁귀여	-16619
▁도식	-16620
▁소노	-16621
▁엿볼	-16622
▁진위	-16623
▁칠곡	-16624
lect	-16625
ogle	-16626
▁208	-16627
▁오른다	-16628
▁제노바	-16629
▁Back	-16630
▁캥	-16631
던스	-16632
모닉	-16633
ove	-16634
▁가령	-16635
▁공평	-16636
▁도화	-16637
▁무루	-16638
▁신천	-16639
▁청중	-16640
▁타키	-16641
▁트론	-16642
▁급속도	-16643
▁사법부	-16644
▁사천왕	-16645
▁선보인	-16646
▁압둘라	-16647
▁아미타여래	-16648
든가	-16649
▁강구	-16650
▁야만	-16651
▁유익	-16652
▁이크	-16653
▁재심	-16654
▁중학	-16655
던지기	-16656
▁예수교	-16657
▁클라인	-16658
▁니카라과	-16659
▁돼지고기	-16660
GO	-16661
▁박태	-16662
▁안건	-16663
▁첫날	-16664
▁카인	-16665
▁트럼펫	-16666
▁1400	-16667
▁미식축구	-16668
제사	-16669
▁다채	-16670
▁라테	-16671
▁부안	-16672
▁생장	-16673
▁열기	-16674
▁최순	-16675
▁통킹	-16676
▁함의	-16677
프리드	-16678
▁동일시	-16679
▁브루크	-16680
▁영문학	-16681
▁영장류	-16682
▁조제프	-16683
ox	-16684
레븐	-16685
▁BO	-16686
▁Cr	-16687
▁결투	-16688
▁교란	-16689
▁군량	-16690
▁균열	-16691
▁더라	-16692
▁악의	-16693
▁안시	-16694
▁유감	-16695
▁초석	-16696
▁초판	-16697
▁탄성	-16698
▁후난	-16699
▁붉은색	-16700
▁아르테	-16701
▁ㅣ	-16702
▁킵	-16703
▁가변	-16704
▁겨냥	-16705
▁김장	-16706
▁승마	-16707
▁양위	-16708
▁총국	-16709
▁캡틴	-16710
▁코디	-16711
▁표어	-16712
▁호전	-16713
▁370	-16714
▁나와서	-16715
▁나카노	-16716
▁유길준	-16717
▁제주시	-16718
▁항소심	-16719
▁Amer	-16720
▁시킨다는	-16721
▁암스트롱	-16722
▁이성질체	-16723
득점	-16724
파니	-16725
▁기일	-16726
▁변했	-16727
▁사일	-16728
▁소마	-16729
▁약품	-16730
▁유재	-16731
▁책정	-16732
▁코딩	-16733
▁타오	-16734
▁핼리	-16735
▁Res	-16736
▁War	-16737
▁광주시	-16738
▁남아공	-16739
▁동북부	-16740
▁미요시	-16741
▁방문객	-16742
▁페라리	-16743
노스아이	-16744
▁생물학자	-16745
▁항공우주	-16746
▁해수욕장	-16747
▁셀레우코스	-16748
노스아이레스	-16749
▁부에노스아이레스	-16750
▁렬	-16751
▁격침	-16752
▁격화	-16753
▁굳이	-16754
▁김은	-16755
▁모였	-16756
▁본능	-16757
▁실태	-16758
▁약수	-16759
▁어인	-16760
▁예편	-16761
▁이가	-16762
▁폭주	-16763
▁Mag	-16764
▁기네스	-16765
▁어드밴	-16766
▁해수면	-16767
▁이리하여	-16768
▁소크라테스	-16769
▁고관	-16770
▁궁수	-16771
▁신궁	-16772
▁알마	-16773
▁에픽	-16774
▁운석	-16775
▁직각	-16776
▁흑색	-16777
▁Get	-16778
▁만주족	-16779
▁리하르트	-16780
▁폼페이우스	-16781
▁고는	-16782
▁깨지	-16783
▁명장	-16784
▁의대	-16785
▁황하	-16786
▁GPS	-16787
▁메신저	-16788
▁사망률	-16789
▁요시카	-16790
그라운드	-16791
▁비로자나	-16792
월드	-16793
처럼	-16794
let	-16795
▁BB	-16796
▁서곡	-16797
▁수화	-16798
▁천태	-16799
▁철근	-16800
▁출정	-16801
▁출항	-16802
▁MIT	-16803
▁디렉터	-16804
▁로런스	-16805
▁베테랑	-16806
▁태양광	-16807
▁트로츠키	-16808
▁둑	-16809
▁뿜	-16810
enn	-16811
▁나날	-16812
▁무쓰	-16813
▁배지	-16814
▁버거	-16815
▁어둡	-16816
▁오랑	-16817
▁하세	-16818
inal	-16819
▁마거릿	-16820
▁Baby	-16821
▁남한산성	-16822
▁레오나르	-16823
UM	-16824
▁DA	-16825
▁니트	-16826
▁듀엣	-16827
▁발열	-16828
▁비방	-16829
▁윈드	-16830
▁효모	-16831
▁라이드	-16832
▁부천시	-16833
▁스펜서	-16834
▁양평군	-16835
▁주세페	-16836
▁펼쳐지	-16837
ology	-16838
경찰	-16839
박이	-16840
심원	-16841
투르	-16842
▁개축	-16843
▁결단	-16844
▁결렬	-16845
▁공지	-16846
▁관원	-16847
▁국산	-16848
▁미로	-16849
▁박동	-16850
▁생포	-16851
▁장론	-16852
▁제헌	-16853
▁탄광	-16854
▁행한	-16855
▁호박	-16856
▁화교	-16857
▁아열대	-16858
▁행해진	-16859
남동	-16860
덱스	-16861
메랄	-16862
오드	-16863
▁극회	-16864
▁누에	-16865
▁민선	-16866
▁승선	-16867
▁쓰리	-16868
▁장승	-16869
▁쟁점	-16870
▁조엘	-16871
▁치밀	-16872
▁허구	-16873
▁블러드	-16874
▁모노이드	-16875
TN	-16876
▁Dr	-16877
▁개리	-16878
▁건네	-16879
▁공훈	-16880
▁그간	-16881
▁다라	-16882
▁대소	-16883
▁레반	-16884
▁비고	-16885
▁사옥	-16886
▁수선	-16887
▁예일	-16888
▁증류	-16889
▁지회	-16890
▁청군	-16891
▁카불	-16892
▁알아차	-16893
▁한정판	-16894
▁안티오키아	-16895
금속	-16896
무실	-16897
▁결집	-16898
▁군위	-16899
▁기교	-16900
▁꾸미	-16901
▁도보	-16902
▁총수	-16903
▁출병	-16904
▁친히	-16905
▁캔터	-16906
▁365	-16907
▁Way	-16908
▁모터쇼	-16909
▁민의원	-16910
▁부사장	-16911
▁사이다	-16912
▁스트라	-16913
▁시나노	-16914
▁이유로	-16915
▁이지스	-16916
▁정몽주	-16917
▁선거인단	-16918
니츠	-16919
시카	-16920
입자	-16921
▁PH	-16922
▁니체	-16923
▁베아	-16924
▁봉헌	-16925
▁악역	-16926
▁필로	-16927
▁감마선	-16928
▁혈액형	-16929
▁게오르기	-16930
▁서귀포시	-16931
당류	-16932
테일	-16933
▁굴욕	-16934
▁명중	-16935
▁불길	-16936
▁연어	-16937
▁외가	-16938
▁충고	-16939
▁카노	-16940
▁학도	-16941
▁효성	-16942
▁리카르	-16943
▁쌍방울	-16944
▁전망대	-16945
ature	-16946
▁로베르트	-16947
가키	-16948
락부	-16949
▁고취	-16950
▁기형	-16951
▁비긴	-16952
▁산마	-16953
▁에인	-16954
▁으뜸	-16955
▁해머	-16956
이즈미	-16957
▁직할시	-16958
▁리얼리티	-16959
▁이오니아	-16960
▁프레더릭	-16961
나비	-16962
백색	-16963
컨드	-16964
app	-16965
ons	-16966
ret	-16967
▁도난	-16968
▁도량	-16969
▁벅스	-16970
▁북송	-16971
▁사계	-16972
▁설과	-16973
▁영위	-16974
▁키치	-16975
코비치	-16976
▁TOP	-16977
▁다카시	-16978
▁리그전	-16979
▁범어사	-16980
▁선데이	-16981
▁시아파	-16982
▁올라갈	-16983
▁태극기	-16984
▁Cent	-16985
▁라이온스	-16986
갱이	-16987
▁SG	-16988
▁SW	-16989
▁갑오	-16990
▁끼워	-16991
▁변조	-16992
▁이게	-16993
▁이부	-16994
▁창씨	-16995
▁콘셉	-16996
▁풍기	-16997
▁국무부	-16998
▁대학살	-16999
▁도나우	-17000
▁신안군	-17001
▁알레산	-17002
▁이치로	-17003
▁지포스	-17004
▁함부로	-17005
의금부사	-17006
▁에두아르	-17007
▁System	-17008
FS	-17009
za	-17010
즈미	-17011
현실	-17012
▁결실	-17013
▁경산	-17014
▁레르	-17015
▁맞닿	-17016
▁매튜	-17017
▁벗겨	-17018
▁선서	-17019
▁스틱	-17020
▁풋살	-17021
피에르	-17022
▁나눈다	-17023
▁디나모	-17024
▁프린터	-17025
▁1815	-17026
▁나왔으며	-17027
▁아르바이트	-17028
▁리서	-17029
▁살레	-17030
▁성찬	-17031
▁세도	-17032
▁습도	-17033
▁에든	-17034
▁전극	-17035
▁주스	-17036
▁토의	-17037
▁특혜	-17038
말라야	-17039
▁Dis	-17040
▁무정부	-17041
▁일제히	-17042
▁피드백	-17043
▁필리스	-17044
▁에든버러	-17045
랭크	-17046
민정	-17047
▁노하	-17048
▁롤리	-17049
▁사악	-17050
▁인노	-17051
▁장서	-17052
▁쿠사	-17053
▁퍼플	-17054
▁하츠	-17055
▁합장	-17056
▁207	-17057
▁김종직	-17058
▁생김새	-17059
▁세컨드	-17060
▁야행성	-17061
▁유공자	-17062
▁전동기	-17063
▁포인터	-17064
로프로세서	-17065
▁마이크로프로세서	-17066
▁갸	-17067
▁욘	-17068
▁공해	-17069
▁기주	-17070
▁내게	-17071
▁모잠	-17072
▁사보	-17073
▁새해	-17074
▁천리	-17075
▁치루	-17076
▁트롤	-17077
▁한꺼	-17078
ater	-17079
▁가디언	-17080
▁농민군	-17081
▁조합원	-17082
▁1820	-17083
▁모잠비크	-17084
▁한꺼번에	-17085
카라	-17086
ina	-17087
▁깁슨	-17088
▁봐야	-17089
▁서역	-17090
▁월경	-17091
▁위배	-17092
▁잔치	-17093
▁테살	-17094
▁강릉시	-17095
▁내려갔	-17096
▁돌아올	-17097
▁모델링	-17098
▁미우라	-17099
▁일진회	-17100
▁지팡이	-17101
▁훅	-17102
다스	-17103
마니	-17104
▁공보	-17105
▁베컴	-17106
▁본진	-17107
▁소탕	-17108
▁음역	-17109
▁이구	-17110
▁조너	-17111
▁종단	-17112
▁하카	-17113
지먼트	-17114
▁노무라	-17115
▁두더지	-17116
▁혁명가	-17117
▁사라진다	-17118
▁필하모닉	-17119
▁매니지먼트	-17120
▁폴리네시아	-17121
24	-17122
▁기근	-17123
▁김석	-17124
▁당사	-17125
▁모질	-17126
▁슐레	-17127
▁슬퍼	-17128
▁이삭	-17129
▁자막	-17130
▁직류	-17131
▁펜스	-17132
▁헬로	-17133
▁힘쓰	-17134
ange	-17135
▁고고학자	-17136
▁마쓰모토	-17137
▁서대문구	-17138
▁히말라야	-17139
▁레닌그라드	-17140
끄럽	-17141
▁격상	-17142
▁견지	-17143
▁녹말	-17144
▁달마	-17145
▁디펜	-17146
▁만수	-17147
▁분담	-17148
▁아약	-17149
▁에뮬	-17150
▁음양	-17151
▁조나	-17152
▁피시	-17153
▁그리드	-17154
▁연습생	-17155
▁저지르	-17156
▁오스트로	-17157
▁막시밀리안	-17158
실험	-17159
▁로제	-17160
▁마취	-17161
▁살피	-17162
▁시차	-17163
▁전란	-17164
▁형광	-17165
▁휴먼	-17166
▁Tra	-17167
▁오징어	-17168
▁페레스	-17169
▁후베이	-17170
▁High	-17171
ux	-17172
▁경구	-17173
▁더빙	-17174
▁마초	-17175
▁미완	-17176
▁미추	-17177
▁신안	-17178
▁옵티	-17179
▁정현	-17180
▁특위	-17181
▁학생회	-17182
▁카롤루스	-17183
토바	-17184
▁던진	-17185
▁술집	-17186
▁전액	-17187
▁좌랑	-17188
▁징후	-17189
▁코넬	-17190
▁태상	-17191
▁한라	-17192
▁Int	-17193
▁노르트	-17194
▁적절히	-17195
▁체육회	-17196
▁프로방스	-17197
광사	-17198
라나	-17199
쓰네	-17200
▁노총	-17201
▁담장	-17202
▁마도	-17203
▁융기	-17204
▁지반	-17205
▁출루	-17206
▁퇴계	-17207
스티안	-17208
▁마피아	-17209
▁아드리	-17210
▁지방도	-17211
▁알베르트	-17212
자유	-17213
ley	-17214
▁FS	-17215
▁기민	-17216
▁발췌	-17217
▁세실	-17218
▁앨버	-17219
▁쿠리	-17220
▁프록	-17221
▁피쳐	-17222
▁USA	-17223
▁광화문	-17224
▁군산시	-17225
▁선언문	-17226
▁아약스	-17227
▁액티브	-17228
▁조병옥	-17229
▁트랜싯	-17230
▁1858	-17231
▁밈	-17232
▁엎	-17233
퍼트	-17234
▁기욤	-17235
▁데니	-17236
▁위태	-17237
▁지뢰	-17238
▁한가	-17239
가하라	-17240
▁Mac	-17241
▁Not	-17242
▁도망가	-17243
▁수증기	-17244
▁크레타	-17245
▁프렌즈	-17246
▁천연가스	-17247
▁알렉산드라	-17248
▁캔자스시티	-17249
▁귤	-17250
거루	-17251
베인	-17252
비츠	-17253
적분	-17254
▁관대	-17255
▁낙태	-17256
▁만연	-17257
▁매질	-17258
▁소켓	-17259
▁아토	-17260
▁양분	-17261
▁엠블	-17262
▁완산	-17263
▁육박	-17264
▁초당	-17265
▁퀘이	-17266
▁탈리	-17267
▁테드	-17268
▁핑계	-17269
▁도치기	-17270
▁목포시	-17271
▁즐거운	-17272
▁평상시	-17273
▁합쳐져	-17274
글러	-17275
운전	-17276
전쟁	-17277
▁대정	-17278
▁로어	-17279
▁안재	-17280
▁제법	-17281
▁진하	-17282
▁콤비	-17283
▁포섭	-17284
▁노트북	-17285
▁라쿠텐	-17286
▁분홍색	-17287
▁마그네슘	-17288
▁알베르토	-17289
att	-17290
▁광서	-17291
▁군집	-17292
▁기악	-17293
▁당명	-17294
▁수훈	-17295
▁엠마	-17296
▁율령	-17297
▁주상	-17298
▁토드	-17299
▁허들	-17300
▁MLB	-17301
▁관찰자	-17302
▁내려온	-17303
▁중심핵	-17304
▁쫓겨나	-17305
▁파블로	-17306
▁Type	-17307
▁조선왕조실록	-17308
▁고택	-17309
▁납품	-17310
▁농작	-17311
▁도표	-17312
▁마신	-17313
▁스쿠	-17314
▁스팅	-17315
▁청했	-17316
▁거머쥐	-17317
▁깨달음	-17318
▁모조리	-17319
▁베일리	-17320
▁비올라	-17321
▁안티고	-17322
▁티무르	-17323
데냐	-17324
사랑	-17325
싸움	-17326
▁군비	-17327
▁급사	-17328
▁능하	-17329
▁말소	-17330
▁보카	-17331
▁수강	-17332
▁좌천	-17333
▁커져	-17334
▁합산	-17335
▁효용	-17336
▁마에다	-17337
▁수도사	-17338
▁스와프	-17339
▁신익희	-17340
▁갑작스런	-17341
▁보호구역	-17342
▁사르데냐	-17343
▁암모니아	-17344
▁동아프리카	-17345
정제	-17346
▁고갈	-17347
▁궁내	-17348
▁급기	-17349
▁데인	-17350
▁마고	-17351
▁바하	-17352
▁우대	-17353
▁우이	-17354
▁재주	-17355
▁펠레	-17356
▁막아내	-17357
▁연구실	-17358
▁조너선	-17359
▁플래그	-17360
▁1814	-17361
▁자연주의	-17362
▁class	-17363
토쿠	-17364
▁견훤	-17365
▁군락	-17366
▁남궁	-17367
▁동티	-17368
▁보육	-17369
▁아핀	-17370
▁알렌	-17371
▁에린	-17372
▁열망	-17373
▁이철	-17374
▁총액	-17375
▁풍수	-17376
▁학급	-17377
▁혼돈	-17378
정보부	-17379
▁고조선	-17380
▁스타인	-17381
▁시게루	-17382
▁크라스	-17383
▁무궁화호	-17384
식스	-17385
촌동	-17386
코인	-17387
ART	-17388
▁갈비	-17389
▁로타	-17390
▁모식	-17391
▁부탄	-17392
▁비욘	-17393
▁수의	-17394
▁애매	-17395
▁어쨌	-17396
▁어쩌	-17397
▁의왕	-17398
▁정공	-17399
▁제보	-17400
▁진구	-17401
▁총살	-17402
▁키아	-17403
▁푸틴	-17404
지스터	-17405
▁리포트	-17406
▁스레드	-17407
▁플라자	-17408
▁돌아와서	-17409
▁서아시아	-17410
기둥	-17411
▁감탄	-17412
▁독실	-17413
▁선지	-17414
▁소정	-17415
▁아말	-17416
▁아픔	-17417
▁용접	-17418
▁원생	-17419
▁유승	-17420
▁전집	-17421
▁증직	-17422
▁직권	-17423
▁290	-17424
▁IEC	-17425
▁WHO	-17426
▁니스트	-17427
▁성명서	-17428
▁어려울	-17429
▁정확도	-17430
▁클라이맥스	-17431
뉴스	-17432
동리	-17433
마일	-17434
스테	-17435
재단	-17436
▁니라	-17437
▁덕수	-17438
▁마틸	-17439
▁모를	-17440
▁민가	-17441
▁벨벳	-17442
▁비호	-17443
▁성제	-17444
▁완주	-17445
▁장택	-17446
▁정일	-17447
▁증원	-17448
▁Art	-17449
▁가져갔	-17450
▁사이공	-17451
▁주교좌	-17452
▁혁명군	-17453
▁1300	-17454
▁샌드위치	-17455
▁토스카나	-17456
▁그리스도교	-17457
▁그리스도인	-17458
어냈	-17459
OVE	-17460
▁Of	-17461
▁괴뢰	-17462
▁늘렸	-17463
▁북상	-17464
▁열풍	-17465
▁팬아	-17466
▁헤지	-17467
▁헬렌	-17468
플레잉	-17469
▁봉수대	-17470
▁커티스	-17471
▁합쳐서	-17472
▁그래미상	-17473
▁롤플레잉	-17474
▁자유민주	-17475
▁프로이트	-17476
▁트랜지스터	-17477
que	-17478
▁구자	-17479
▁노화	-17480
▁랜덤	-17481
▁만기	-17482
▁미자	-17483
▁영재	-17484
▁우도	-17485
▁정과	-17486
▁패드	-17487
▁TBC	-17488
▁교토부	-17489
▁올라온	-17490
▁유성구	-17491
▁지방관	-17492
▁취약점	-17493
▁패트리	-17494
▁type	-17495
▁맞배지붕	-17496
▁받아들일	-17497
▁서프랑크	-17498
▁세키가하라	-17499
거성	-17500
전차	-17501
enc	-17502
▁루지	-17503
▁리츠	-17504
▁머피	-17505
▁승전	-17506
▁실크	-17507
▁약학	-17508
▁틈타	-17509
▁패퇴	-17510
▁훈족	-17511
▁무너져	-17512
▁전철역	-17513
▁타블로	-17514
▁프리킥	-17515
살바도르	-17516
▁플레이스	-17517
▁여러해살이풀	-17518
yle	-17519
▁EN	-17520
▁감기	-17521
▁레딧	-17522
▁면은	-17523
▁목화	-17524
▁문성	-17525
▁바사	-17526
▁손쉽	-17527
▁신관	-17528
▁씨름	-17529
▁옥상	-17530
▁이덕	-17531
▁지층	-17532
▁캐럴	-17533
▁키웠	-17534
▁토비	-17535
▁판다	-17536
▁포진	-17537
▁공기업	-17538
▁상대론	-17539
▁하모니	-17540
▁보였으나	-17541
▁페더레이션	-17542
BN	-17543
회원	-17544
alk	-17545
▁ED	-17546
▁Vf	-17547
▁리온	-17548
▁미에	-17549
▁아랑	-17550
▁암초	-17551
▁얼터	-17552
▁웅진	-17553
▁이뤘	-17554
▁흥덕	-17555
▁LCK	-17556
▁건널목	-17557
▁겨울철	-17558
▁아쿠아	-17559
▁파출소	-17560
▁평의원	-17561
▁What	-17562
▁산업단지	-17563
▁크리스천	-17564
ye	-17565
▁뱌	-17566
구멍	-17567
▁게일	-17568
▁규장	-17569
▁나눔	-17570
▁소치	-17571
▁헤임	-17572
씨식물	-17573
▁MHz	-17574
▁대항해	-17575
▁맞대결	-17576
▁미시간	-17577
▁변속기	-17578
▁스타즈	-17579
▁에히메	-17580
▁창업자	-17581
▁아나키즘	-17582
▁병인	-17583
▁보궐	-17584
▁소도	-17585
▁포교	-17586
▁할양	-17587
학생회	-17588
ough	-17589
▁Med	-17590
▁건너편	-17591
▁다면체	-17592
▁돌아간	-17593
▁등록금	-17594
▁성북구	-17595
▁수번뇌	-17596
▁우승컵	-17597
▁준다고	-17598
▁중서부	-17599
▁충주시	-17600
▁아오모리현	-17601
건적	-17602
ger	-17603
▁Di	-17604
▁kW	-17605
▁구석	-17606
▁려다	-17607
▁올랭	-17608
▁238	-17609
▁남조선	-17610
▁넥스트	-17611
▁드러난	-17612
▁바로잡	-17613
▁여긴다	-17614
▁재빨리	-17615
▁초대칭	-17616
▁키워드	-17617
▁With	-17618
▁수마트라	-17619
▁요시아키	-17620
▁총학생회	-17621
ING	-17622
▁민권	-17623
▁선회	-17624
▁세베	-17625
▁언젠	-17626
▁인대	-17627
▁장조	-17628
▁직함	-17629
▁파드	-17630
▁홍천	-17631
▁나가노	-17632
▁보행자	-17633
▁윤리학	-17634
▁평택시	-17635
▁포스코	-17636
▁1795	-17637
▁아틀레틱	-17638
▁Google	-17639
TR	-17640
▁렝	-17641
르모	-17642
천국	-17643
▁개전	-17644
▁경이	-17645
▁김세	-17646
▁드니	-17647
▁레미	-17648
▁매춘	-17649
▁미숙	-17650
▁석등	-17651
▁순정	-17652
▁스톨	-17653
▁일람	-17654
▁착한	-17655
네소스	-17656
독립당	-17657
▁850	-17658
▁원정군	-17659
▁홉킨스	-17660
▁받아들인	-17661
▁카테고리	-17662
▁한국독립당	-17663
▁윔	-17664
림동	-17665
▁과부	-17666
▁독소	-17667
▁멜론	-17668
▁쇠약	-17669
▁우사	-17670
▁윈터	-17671
▁이효	-17672
▁정여	-17673
▁켈빈	-17674
▁페터	-17675
▁하디	-17676
▁헨드	-17677
주니어	-17678
▁남반구	-17679
▁쓰여졌	-17680
▁트루먼	-17681
▁포위전	-17682
▁갑신정변	-17683
팽이	-17684
▁내수	-17685
▁마는	-17686
▁몬태	-17687
▁브람	-17688
▁수렵	-17689
▁에런	-17690
▁윗면	-17691
▁이국	-17692
▁준하	-17693
▁차분	-17694
▁첨부	-17695
▁페데	-17696
디우스	-17697
▁480	-17698
▁메이트	-17699
▁무너졌	-17700
▁베드로	-17701
▁블루어	-17702
▁석가여래	-17703
▁어드밴스	-17704
▁언어학자	-17705
▁중앙정보부	-17706
니코	-17707
부미	-17708
▁고해	-17709
▁어딘	-17710
▁월북	-17711
▁웰스	-17712
▁유시	-17713
▁빼앗겼	-17714
▁익산시	-17715
▁통신부	-17716
▁MPEG	-17717
▁드레이크	-17718
▁디렉터리	-17719
▁사탕수수	-17720
▁여주인공	-17721
▁키르기스스탄	-17722
▁깡	-17723
레프	-17724
▁국지	-17725
▁니나	-17726
▁니콘	-17727
▁도정	-17728
▁민생	-17729
▁반야	-17730
▁부녀	-17731
▁장준	-17732
▁정병	-17733
▁코지	-17734
▁국문학	-17735
▁로렌초	-17736
▁여객선	-17737
▁다리우스	-17738
▁하이웨이	-17739
대성	-17740
블린	-17741
▁PP	-17742
▁도색	-17743
▁루머	-17744
▁여과	-17745
▁원술	-17746
▁유원	-17747
▁줄였	-17748
▁특례	-17749
▁공직자	-17750
▁웨이트	-17751
▁찾아왔	-17752
▁체스터	-17753
▁자동변속기	-17754
UI	-17755
▁뚱	-17756
▁먀	-17757
▁뺏	-17758
▁각광	-17759
▁골수	-17760
▁광택	-17761
▁국과	-17762
▁굶주	-17763
▁기시	-17764
▁남포	-17765
▁데메	-17766
▁맛있	-17767
▁미코	-17768
▁보훈	-17769
▁본초	-17770
▁불평	-17771
▁신구	-17772
▁심플	-17773
▁이트	-17774
▁인신	-17775
▁팀장	-17776
▁필기	-17777
▁COM	-17778
▁Rev	-17779
▁빅토리	-17780
▁시공간	-17781
▁합천군	-17782
▁황태후	-17783
▁부위원장	-17784
▁COVID	-17785
▁켓	-17786
▁걸치	-17787
▁당분	-17788
▁로동	-17789
▁발단	-17790
▁버시	-17791
▁이형	-17792
▁정강	-17793
▁참배	-17794
▁펀치	-17795
▁훔쳐	-17796
시우스	-17797
▁737	-17798
▁북반구	-17799
▁1793	-17800
▁안드레이	-17801
사회	-17802
▁교묘	-17803
▁내구	-17804
▁몸집	-17805
▁종친	-17806
▁평신	-17807
▁해일	-17808
캐스트	-17809
▁223	-17810
▁돋보이	-17811
▁에밀리	-17812
▁가나자와	-17813
23	-17814
개혁	-17815
der	-17816
▁갤러	-17817
▁고운	-17818
▁구인	-17819
▁군국	-17820
▁깜짝	-17821
▁낙타	-17822
▁덩굴	-17823
▁데쓰	-17824
▁바덴	-17825
▁바일	-17826
▁설사	-17827
▁세탁	-17828
▁센다	-17829
▁연유	-17830
▁천구	-17831
▁클루	-17832
슬라브	-17833
▁가입자	-17834
▁남해군	-17835
▁데포르	-17836
▁돗토리	-17837
▁손바닥	-17838
▁안데르	-17839
▁알레르	-17840
▁제이스	-17841
▁창덕궁	-17842
▁팩토리	-17843
▁Blue	-17844
▁꼼	-17845
섬유	-17846
재란	-17847
▁간디	-17848
▁논설	-17849
▁느라	-17850
▁랜디	-17851
▁무당	-17852
▁박승	-17853
▁보츠	-17854
▁솔트	-17855
▁야로	-17856
▁엄정	-17857
▁오호	-17858
▁존엄	-17859
▁쿠릴	-17860
▁기뻐하	-17861
▁벤피카	-17862
▁산체스	-17863
▁이완용	-17864
▁추밀원	-17865
▁정유재란	-17866
메트	-17867
하스	-17868
▁교주	-17869
▁권하	-17870
▁돌핀	-17871
▁마조	-17872
▁말린	-17873
▁범용	-17874
▁산불	-17875
▁숭실	-17876
▁장항	-17877
▁천정	-17878
▁환기	-17879
루리아	-17880
코스트	-17881
▁낙하산	-17882
▁유격대	-17883
▁페테르	-17884
총리대신	-17885
▁1846	-17886
▁갈릴레이	-17887
▁기념사업	-17888
▁브루나이	-17889
▁블레이드	-17890
▁상파울루	-17891
▁이베리아	-17892
▁이해관계	-17893
▁시즈오카현	-17894
▁내각총리대신	-17895
▁낀	-17896
래시	-17897
모자	-17898
ump	-17899
▁다지	-17900
▁묘법	-17901
▁성내	-17902
▁아민	-17903
▁언약	-17904
▁역습	-17905
▁이견	-17906
▁표결	-17907
▁농작물	-17908
▁보라색	-17909
▁아칸소	-17910
▁이브라	-17911
▁테이크	-17912
▁평화상	-17913
26	-17914
BT	-17915
▁넉	-17916
든지	-17917
바람	-17918
증권	-17919
▁갑각	-17920
▁걸맞	-17921
▁구토	-17922
▁귀양	-17923
▁리저	-17924
▁서강	-17925
▁억류	-17926
▁예속	-17927
▁철원	-17928
▁총체	-17929
▁치중	-17930
▁데려가	-17931
▁문하시	-17932
▁보호관	-17933
▁엉덩이	-17934
▁입출력	-17935
▁전기장	-17936
▁지난해	-17937
▁페인트	-17938
▁하카타	-17939
▁중앙아프리카	-17940
IO	-17941
LC	-17942
나물	-17943
리가	-17944
▁경멸	-17945
▁교포	-17946
▁국면	-17947
▁대뇌	-17948
▁분양	-17949
▁새기	-17950
▁유품	-17951
▁제식	-17952
▁주경	-17953
▁톨킨	-17954
▁하순	-17955
▁핵산	-17956
▁Top	-17957
▁국무원	-17958
▁충렬왕	-17959
▁테트라	-17960
▁에드먼드	-17961
▁퓌	-17962
▁ME	-17963
▁구룡	-17964
▁박기	-17965
▁베버	-17966
▁본당	-17967
▁섬겼	-17968
▁실로	-17969
▁역모	-17970
▁와해	-17971
▁윤석	-17972
▁조력	-17973
▁추위	-17974
▁트러	-17975
연화경	-17976
웨스트	-17977
▁LCD	-17978
▁Min	-17979
▁기부금	-17980
▁다이나	-17981
▁상속인	-17982
▁Beat	-17983
▁서스펜션	-17984
▁초등학생	-17985
▁돛	-17986
파스	-17987
패스	-17988
호프	-17989
후이	-17990
▁괴멸	-17991
▁봉작	-17992
▁상작	-17993
▁서보	-17994
▁수류	-17995
▁칼레	-17996
▁페가	-17997
▁후시	-17998
비우스	-17999
▁산둥성	-18000
▁시어터	-18001
▁외무성	-18002
▁물리학상	-18003
▁오브젝트	-18004
▁하시모토	-18005
▁히로부미	-18006
▁네덜란드어	-18007
HD	-18008
처리	-18009
▁간장	-18010
▁라티	-18011
▁모기	-18012
▁미묘	-18013
▁박인	-18014
▁브롱	-18015
▁심근	-18016
▁웨일	-18017
▁육아	-18018
▁치수	-18019
다람쥐	-18020
티우스	-18021
프랑스	-18022
▁구청장	-18023
▁버나드	-18024
▁절대로	-18025
스트리트	-18026
▁1839	-18027
▁공화주의	-18028
▁미성년자	-18029
▁소용돌이	-18030
▁촘	-18031
우어	-18032
질량	-18033
▁방조	-18034
▁인출	-18035
▁해자	-18036
▁현충	-18037
쿠스틱	-18038
▁러서는	-18039
▁아산시	-18040
▁지난다	-18041
▁1854	-18042
▁time	-18043
▁어쿠스틱	-18044
버드	-18045
연대	-18046
▁고하	-18047
▁공덕	-18048
▁망루	-18049
▁볼륨	-18050
▁윤원	-18051
▁쪼개	-18052
▁휘트	-18053
▁가시마	-18054
▁배수량	-18055
▁배트맨	-18056
▁취한다	-18057
▁비지니스	-18058
▁간염	-18059
▁등대	-18060
▁디디	-18061
▁몰입	-18062
▁박준	-18063
▁브론	-18064
▁사흘	-18065
▁상투	-18066
▁새턴	-18067
▁성추	-18068
▁아모	-18069
▁욕설	-18070
▁인피	-18071
▁코레	-18072
▁후백	-18073
▁214	-18074
▁430	-18075
▁아테나	-18076
▁오비탈	-18077
베이거스	-18078
▁끌어들이	-18079
깨비	-18080
왕국	-18081
천년	-18082
▁고압	-18083
▁마한	-18084
▁매월	-18085
▁반려	-18086
▁반열	-18087
▁본디	-18088
▁비참	-18089
▁사죄	-18090
▁센스	-18091
▁오딘	-18092
▁찬탈	-18093
▁케도	-18094
▁퇴단	-18095
▁교직원	-18096
▁보나파	-18097
▁비행대	-18098
▁언젠가	-18099
▁찬드라	-18100
▁파트리	-18101
▁기독교인	-18102
▁데포르티보	-18103
▁보나파르트	-18104
▁라스베이거스	-18105
고트	-18106
러기	-18107
렁이	-18108
정권	-18109
▁견습	-18110
▁메사	-18111
▁생가	-18112
▁석상	-18113
▁어기	-18114
▁적재	-18115
▁종주	-18116
▁치가	-18117
니다드	-18118
▁건국대	-18119
▁증명서	-18120
▁향한다	-18121
▁후임자	-18122
▁1849	-18123
▁차량기지	-18124
▁트리니다드	-18125
OU	-18126
▁걸로	-18127
▁매번	-18128
▁미모	-18129
▁부윤	-18130
▁소홀	-18131
▁시경	-18132
▁신작	-18133
▁오닐	-18134
▁원제	-18135
▁유폐	-18136
▁으론	-18137
▁인테	-18138
▁제학	-18139
▁존상	-18140
▁현령	-18141
▁화전	-18142
트로피	-18143
▁211	-18144
▁경비대	-18145
▁식물원	-18146
▁어리석	-18147
▁진보당	-18148
▁헬싱키	-18149
▁플로이드	-18150
담회	-18151
호르	-18152
▁계란	-18153
▁담론	-18154
▁북해	-18155
▁소란	-18156
▁손책	-18157
▁알비	-18158
▁우동	-18159
▁태세	-18160
▁화북	-18161
고양이	-18162
atch	-18163
▁419	-18164
▁보르도	-18165
▁장택상	-18166
▁마음대로	-18167
28	-18168
▁럴	-18169
누아	-18170
▁김문	-18171
▁만국	-18172
▁변방	-18173
▁어이	-18174
▁웅장	-18175
▁윤영	-18176
▁임베	-18177
▁잇달	-18178
▁제원	-18179
▁파격	-18180
▁FBI	-18181
▁건너갔	-18182
▁대머리	-18183
▁안중근	-18184
▁노동자당	-18185
▁비트코인	-18186
▁임베디드	-18187
오린	-18188
탐정	-18189
▁낙랑	-18190
▁단사	-18191
▁배설	-18192
▁분쇄	-18193
▁분장	-18194
▁셔먼	-18195
▁스맥	-18196
▁유장	-18197
▁친절	-18198
▁틀리	-18199
▁폰트	-18200
▁필살	-18201
▁갖가지	-18202
▁은하단	-18203
▁하이든	-18204
▁1856	-18205
▁정사각형	-18206
려야	-18207
소득	-18208
재기	-18209
▁TG	-18210
▁광경	-18211
▁단성	-18212
▁두껍	-18213
▁라몬	-18214
▁비크	-18215
▁여생	-18216
▁장령	-18217
▁페드	-18218
▁한서	-18219
궐선거	-18220
리어스	-18221
타니아	-18222
▁레인보	-18223
▁조계종	-18224
▁참모장	-18225
▁해럴드	-18226
▁Will	-18227
▁이와테현	-18228
▁크레이그	-18229
▁재보궐선거	-18230
▁통합진보당	-18231
▁크리에이티브	-18232
버거	-18233
전기	-18234
oup	-18235
▁가니	-18236
▁명주	-18237
▁부이	-18238
▁열반	-18239
▁적성	-18240
▁추궁	-18241
▁가속기	-18242
▁감염자	-18243
▁시부야	-18244
▁카운터	-18245
▁펠로폰	-18246
츠부르크	-18247
타고라스	-18248
▁1851	-18249
▁델라웨어	-18250
▁펠로폰네소스	-18251
▁쥔	-18252
니크	-18253
일라	-18254
▁낙엽	-18255
▁단호	-18256
▁대세	-18257
▁마자	-18258
▁밀스	-18259
▁수배	-18260
▁태워	-18261
▁한참	-18262
▁301	-18263
▁베르디	-18264
▁아가씨	-18265
▁에리크	-18266
▁특이점	-18267
▁반공주의	-18268
▁스탠퍼드	-18269
ery	-18270
▁KC	-18271
▁계투	-18272
▁남로	-18273
▁낯선	-18274
▁디온	-18275
▁방한	-18276
▁벽면	-18277
▁시주	-18278
▁심슨	-18279
▁요아	-18280
▁원가	-18281
▁이안	-18282
▁타현	-18283
▁팔려	-18284
▁페티	-18285
▁글리코	-18286
▁대주주	-18287
▁북극해	-18288
▁쓰여져	-18289
▁저작물	-18290
86	-18291
ma	-18292
▁녜	-18293
바꿈	-18294
카테	-18295
쿠젠	-18296
▁결탁	-18297
▁서상	-18298
▁연임	-18299
▁타고	-18300
▁히다	-18301
직할시	-18302
icro	-18303
▁공사관	-18304
▁레이어	-18305
▁일간지	-18306
▁사보이아	-18307
▁폴란드인	-18308
케스	-18309
▁상체	-18310
▁성간	-18311
▁소망	-18312
▁오기	-18313
▁카잔	-18314
▁케니	-18315
cess	-18316
▁그로스	-18317
▁다닌다	-18318
▁명명법	-18319
▁스나이	-18320
▁잇따라	-18321
▁투데이	-18322
▁핵폭탄	-18323
메니스탄	-18324
▁1857	-18325
▁스맥다운	-18326
▁올랭피크	-18327
▁캐나다인	-18328
▁투르크메니스탄	-18329
로아	-18330
지대	-18331
테른	-18332
투안	-18333
하늘	-18334
▁ER	-18335
▁IA	-18336
▁거액	-18337
▁귀납	-18338
▁니즘	-18339
▁도독	-18340
▁발송	-18341
▁방수	-18342
▁버퍼	-18343
▁빌미	-18344
▁원성	-18345
▁잊혀	-18346
▁잠복	-18347
▁재원	-18348
▁정시	-18349
▁착안	-18350
▁찬스	-18351
▁촌은	-18352
▁퇴사	-18353
▁헤엄	-18354
▁현청	-18355
▁히나	-18356
▁변증법	-18357
▁세운다	-18358
▁수산물	-18359
▁수수료	-18360
▁진정한	-18361
▁집어넣	-18362
▁핵실험	-18363
▁다이스케	-18364
▁엔트로피	-18365
니엄	-18366
모습	-18367
체어	-18368
▁쇼팽	-18369
▁하쿠	-18370
▁현명	-18371
제르맹	-18372
▁노스케	-18373
▁무서운	-18374
▁바란다	-18375
▁새천년	-18376
▁지평선	-18377
▁쫓아내	-18378
▁최하위	-18379
▁형무소	-18380
▁1855	-18381
▁힉	-18382
레토	-18383
연료	-18384
▁경색	-18385
▁미안	-18386
▁보문	-18387
▁신영	-18388
▁쌓여	-18389
▁현생	-18390
▁마그마	-18391
▁서북쪽	-18392
▁하이델	-18393
▁행정관	-18394
▁Free	-18395
▁프란시스	-18396
29	-18397
봉사	-18398
▁YM	-18399
▁가메	-18400
▁김한	-18401
▁노다	-18402
▁박격	-18403
▁변장	-18404
▁분개	-18405
▁수서	-18406
▁정년	-18407
▁헐리	-18408
▁대각선	-18409
▁동의어	-18410
▁모여서	-18411
▁사모아	-18412
▁애벌레	-18413
▁캥거루	-18414
▁하동군	-18415
▁빠져나가	-18416
▁스티븐스	-18417
쇼프	-18418
흐트	-18419
▁과업	-18420
▁까다	-18421
▁벚꽃	-18422
▁액수	-18423
▁외동	-18424
▁음경	-18425
▁주치	-18426
▁체임	-18427
▁캔디	-18428
▁택지	-18429
▁템포	-18430
▁항모	-18431
들랜드	-18432
중국해	-18433
▁XML	-18434
▁구석기	-18435
▁기념식	-18436
▁봉사자	-18437
▁시흥시	-18438
▁황도대	-18439
▁생제르맹	-18440
하르	-18441
▁간파	-18442
▁대열	-18443
▁몰라	-18444
▁무왕	-18445
▁비이	-18446
▁서천	-18447
▁이로	-18448
▁지소	-18449
▁포구	-18450
▁픽션	-18451
▁합체	-18452
▁Pop	-18453
▁비정규	-18454
▁상세히	-18455
▁성추행	-18456
▁작사가	-18457
▁컨디션	-18458
▁포브스	-18459
▁휠체어	-18460
▁무라카미	-18461
▁사카모토	-18462
▁열렸으며	-18463
▁병마절도사	-18464
▁캄파니아주	-18465
27	-18466
▁기물	-18467
▁대광	-18468
▁덧셈	-18469
▁맛보	-18470
▁슈바	-18471
▁주둥	-18472
▁친목	-18473
▁병원체	-18474
▁찾아온	-18475
▁들어와서	-18476
▁민족주의자	-18477
▁오하이오주	-18478
▁구운	-18479
▁권세	-18480
▁노회	-18481
▁본기	-18482
▁성년	-18483
▁성채	-18484
▁수스	-18485
▁신명	-18486
▁역행	-18487
▁이학	-18488
▁지어	-18489
▁체첸	-18490
▁코민	-18491
▁한도	-18492
메네스	-18493
콥스키	-18494
▁루터교	-18495
▁모티프	-18496
▁오카다	-18497
▁해설자	-18498
▁스포르팅	-18499
▁원내대표	-18500
▁뛴	-18501
▁좡	-18502
댄스	-18503
평가	-18504
▁Po	-18505
▁고증	-18506
▁대적	-18507
▁도기	-18508
▁라데	-18509
▁만리	-18510
▁미팅	-18511
▁서드	-18512
▁슬픈	-18513
▁위니	-18514
▁장구	-18515
▁중첩	-18516
▁지병	-18517
▁해금	-18518
▁회부	-18519
시오날	-18520
▁마인드	-18521
▁비엔나	-18522
▁태그팀	-18523
▁LIVE	-18524
▁나시오날	-18525
▁불렀으며	-18526
▁태평천국	-18527
▁플루오린	-18528
산읍	-18529
ont	-18530
▁급습	-18531
▁녀석	-18532
▁셀룰	-18533
▁셰이	-18534
▁실습	-18535
▁요네	-18536
▁카렐	-18537
▁칸타	-18538
▁급기야	-18539
▁나주시	-18540
▁달라이	-18541
▁샘플링	-18542
▁포천시	-18543
▁프로파	-18544
▁ne	-18545
▁누락	-18546
▁딸린	-18547
▁레베	-18548
▁문교	-18549
▁버릴	-18550
▁비기	-18551
▁산탄	-18552
▁외벽	-18553
▁이공	-18554
▁탄원	-18555
▁퇴화	-18556
▁호가	-18557
▁화신	-18558
덜랜드	-18559
▁Bro	-18560
▁구미시	-18561
▁려다가	-18562
▁베르그	-18563
▁출생지	-18564
▁포위망	-18565
▁미주리주	-18566
▁포레스트	-18567
노동	-18568
마타	-18569
스탕	-18570
▁계파	-18571
▁몬트	-18572
▁사극	-18573
▁살림	-18574
▁압송	-18575
▁입안	-18576
▁직제	-18577
▁베리아	-18578
▁시우바	-18579
▁헤이스	-18580
를린	-18581
서구	-18582
day	-18583
▁금광	-18584
▁당기	-18585
▁버즈	-18586
▁영아	-18587
▁와트	-18588
▁준위	-18589
▁청탁	-18590
▁크세	-18591
▁파사	-18592
▁수송기	-18593
▁시설물	-18594
▁좋아했	-18595
▁팰리스	-18596
▁항구역	-18597
▁1776	-18598
▁가까스로	-18599
▁클라리넷	-18600
가야	-18601
광선	-18602
▁교복	-18603
▁국고	-18604
▁뇌졸	-18605
▁명지	-18606
▁율곡	-18607
▁지남	-18608
▁총알	-18609
▁최경	-18610
▁타가	-18611
레시브	-18612
▁del	-18613
▁독립국	-18614
▁브레인	-18615
▁아세트	-18616
▁영등포	-18617
▁원한다	-18618
▁퍼펙트	-18619
▁국민회의	-18620
▁프로그레시브	-18621
계리	-18622
페리	-18623
활성	-18624
aut	-18625
▁HK	-18626
▁반가	-18627
▁심신	-18628
▁음란	-18629
▁천명	-18630
▁팔자	-18631
▁픽업	-18632
▁End	-18633
▁리서치	-18634
▁보니파	-18635
▁이범석	-18636
▁크리켓	-18637
▁올랐으나	-18638
▁플레이트	-18639
▁국물	-18640
▁대흥	-18641
▁명절	-18642
▁생사	-18643
▁알론	-18644
▁이연	-18645
▁장타	-18646
▁정파	-18647
▁포탈	-18648
▁표했	-18649
▁혹독	-18650
메데스	-18651
▁게이츠	-18652
▁메이플	-18653
▁바이스	-18654
▁청교도	-18655
▁청구인	-18656
▁후반부	-18657
▁코미디언	-18658
▁그레고리력	-18659
▁레오나르도	-18660
▁프로토타입	-18661
돼지	-18662
팔렌	-18663
▁골목	-18664
▁김보	-18665
▁나나	-18666
▁메콩	-18667
▁부총	-18668
▁서던	-18669
▁세브	-18670
▁연좌	-18671
▁연천	-18672
▁음소	-18673
▁정량	-18674
▁포에	-18675
▁홀드	-18676
▁다시피	-18677
▁목걸이	-18678
▁서기장	-18679
▁에인절	-18680
버섯	-18681
▁BR	-18682
▁FX	-18683
▁린드	-18684
▁사성	-18685
▁양손	-18686
▁조식	-18687
▁쿠페	-18688
▁한방	-18689
▁233	-18690
▁가까웠	-18691
▁레일리	-18692
▁부활절	-18693
▁브리트	-18694
▁클라라	-18695
▁특공대	-18696
▁10000	-18697
니발	-18698
▁각별	-18699
▁간소	-18700
▁박주	-18701
▁발주	-18702
▁비슈	-18703
▁수잔	-18704
▁여긴	-18705
▁전갈	-18706
▁접착	-18707
▁지워	-18708
▁클론	-18709
▁판별	-18710
▁포즈	-18711
노벨라	-18712
▁215	-18713
▁거제시	-18714
▁경기력	-18715
▁레너드	-18716
▁심포니	-18717
▁유니온	-18718
▁미시간주	-18719
▁인테리어	-18720
▁텔레노벨라	-18721
행사	-18722
its	-18723
▁TN	-18724
▁괴팅	-18725
▁국채	-18726
▁노미	-18727
▁땅콩	-18728
▁로로	-18729
▁모더	-18730
▁세가	-18731
▁영세	-18732
▁표상	-18733
▁퓨전	-18734
▁가로막	-18735
▁계약서	-18736
▁단기간	-18737
▁서둘러	-18738
▁수메르	-18739
▁엑스선	-18740
▁해적단	-18741
HS	-18742
▁쉰	-18743
oss	-18744
▁끊이	-18745
▁누각	-18746
▁대양	-18747
▁반증	-18748
▁살상	-18749
▁샬럿	-18750
▁시로	-18751
▁안다	-18752
▁양력	-18753
▁욕심	-18754
▁창안	-18755
▁편하	-18756
▁Des	-18757
▁김종필	-18758
▁쓰러져	-18759
▁영산회	-18760
▁이어질	-18761
▁네브래스카	-18762
슐린	-18763
▁MW	-18764
▁로미	-18765
▁루아	-18766
▁미망	-18767
▁반일	-18768
▁어진	-18769
▁영연	-18770
▁우랄	-18771
▁지단	-18772
▁계약금	-18773
▁버려진	-18774
▁서로마	-18775
▁에버턴	-18776
▁플랜트	-18777
▁LOVE	-18778
▁피에트로	-18779
▁묘법연화경	-18780
▁언더그라운드	-18781
br	-18782
개발	-18783
급시	-18784
볼트	-18785
빼미	-18786
에리	-18787
워키	-18788
▁CV	-18789
▁교우	-18790
▁금화	-18791
▁노먼	-18792
▁달렸	-18793
▁로젠	-18794
▁미움	-18795
▁상시	-18796
▁실드	-18797
▁어필	-18798
▁커트	-18799
▁Big	-18800
▁권력자	-18801
▁돌려주	-18802
▁동북쪽	-18803
▁Sing	-18804
저민	-18805
IDS	-18806
▁JP	-18807
▁가인	-18808
▁시왕	-18809
▁아속	-18810
▁열광	-18811
▁요세	-18812
▁위드	-18813
▁유즈	-18814
▁윤선	-18815
▁점하	-18816
▁조참	-18817
▁진안	-18818
▁쿠키	-18819
파트라	-18820
irst	-18821
▁239	-18822
▁510	-18823
▁벤저민	-18824
▁파이브	-18825
▁클레오파트라	-18826
▁RE	-18827
▁WH	-18828
▁구나	-18829
▁독감	-18830
▁돼서	-18831
▁라비	-18832
▁마마	-18833
▁맞섰	-18834
▁부원	-18835
▁수난	-18836
▁시판	-18837
▁에나	-18838
▁우메	-18839
▁이족	-18840
▁제반	-18841
▁콘월	-18842
▁문화사	-18843
▁Rain	-18844
▁돌아온다	-18845
▁아틀라스	-18846
▁알레르기	-18847
타라	-18848
▁감명	-18849
▁구면	-18850
▁루소	-18851
▁면접	-18852
▁서훈	-18853
▁숙성	-18854
▁약정	-18855
▁주어	-18856
▁최북	-18857
▁카쿠	-18858
핵생물	-18859
▁212	-18860
▁미카사	-18861
▁생태학	-18862
▁한마디	-18863
▁사다하루	-18864
▁캔터베리	-18865
be	-18866
미치	-18867
하워	-18868
▁SI	-18869
▁감히	-18870
▁낭독	-18871
[...]
