[PAD]	0
[UNK]	0
[BOS]	0
[EOS]	0
[CLS]	0
[SEP]	0
[MASK]	0
▁▃	-0
▁이	-1
▁하	-2
▁.	-3
▁ㄴ	-4
▁에	-5
▁는	-6
▁다	-7
▁의	-8
▁을	-9
▁가	-10
▁,	-11
▁아	-12
▁고	-13
▁어	-14
▁를	-15
▁지	-16
▁은	-17
▁으	-18
▁1	-19
▁기	-20
▁도	-21
▁있	-22
▁되	-23
▁2	-24
▁로	-25
▁었	-26
▁ㄴ다	-27
▁에서	-28
▁ㄹ	-29
▁그	-30
▁사	-31
▁으로	-32
▁시	-33
▁았	-34
▁보	-35
▁들	-36
▁대	-37
▁수	-38
▁라	-39
▁나	-40
▁자	-41
▁것	-42
▁게	-43
▁일	-44
▁전	-45
▁주	-46
▁과	-47
▁-	-48
▁면	-49
▁적	-50
▁마	-51
▁스	-52
▁만	-53
▁3	-54
▁와	-55
▁부	-56
▁정	-57
▁상	-58
▁모	-59
▁오	-60
▁20	-61
▁때	-62
▁년	-63
▁공	-64
▁'	-65
▁:	-66
▁여	-67
▁경	-68
▁인	-69
▁유	-70
▁중	-71
▁제	-72
▁한	-73
▁위	-74
▁없	-75
▁비	-76
▁지만	-77
▁4	-78
▁소	-79
▁무	-80
▁거	-81
▁성	-82
▁등	-83
▁않	-84
▁에게	-85
▁5	-86
▁개	-87
▁던	-88
▁미	-89
▁0	-90
▁조	-91
▁서	-92
▁세	-93
▁며	-94
▁바	-95
▁월	-96
▁"	-97
▁내	-98
▁201	-99
▁장	-100
▁방	-101
▁/	-102
▁동	-103
▁카	-104
▁타	-105
▁선	-106
▁연	-107
▁구	-108
▁말	-109
▁안	-110
▁영	-111
▁신	-112
▁화	-113
▁후	-114
▁생	-115
▁버	-116
▁당	-117
▁리	-118
▁차	-119
▁발	-120
▁까	-121
▁는데	-122
▁레	-123
▁더	-124
▁때문	-125
▁아서	-126
▁6	-127
▁크	-128
▁원	-129
▁강	-130
▁파	-131
▁우	-132
▁10	-133
▁까지	-134
▁아니	-135
▁명	-136
▁최	-137
▁노	-138
▁실	-139
▁데	-140
▁문	-141
▁번	-142
▁7	-143
▁같	-144
▁해	-145
▁단	-146
▁라고	-147
▁불	-148
▁라는	-149
▁포	-150
▁회	-151
▁진	-152
▁나오	-153
▁관	-154
▁받	-155
▁S	-156
▁특	-157
▁8	-158
▁많	-159
▁결	-160
▁초	-161
▁반	-162
▁!	-163
▁다고	-164
▁작	-165
▁프	-166
▁알	-167
▁보이	-168
▁드	-169
▁역	-170
▁쓰	-171
▁19	-172
▁배	-173
▁면서	-174
▁처	-175
▁피	-176
▁계	-177
▁9	-178
▁경우	-179
▁코	-180
▁어서	-181
▁공격	-182
▁분	-183
▁추	-184
▁남	-185
▁A	-186
▁다는	-187
▁사용	-188
▁물	-189
▁으며	-190
▁출	-191
▁치	-192
▁두	-193
▁야	-194
▁국	-195
▁못	-196
▁현	-197
▁자신	-198
레이	-199
▁매	-200
▁좋	-201
▁M	-202
▁점	-203
▁패	-204
▁편	-205
▁달	-206
▁이후	-207
▁니	-208
▁저	-209
▁%	-210
▁감	-211
▁그리	-212
▁호	-213
▁트	-214
▁학	-215
▁따	-216
▁요	-217
▁교	-218
▁재	-219
▁정도	-220
▁사람	-221
▁메	-222
▁통	-223
▁C	-224
▁입	-225
▁예	-226
▁속	-227
▁또	-228
스트	-229
▁플	-230
▁B	-231
▁캐	-232
▁가능	-233
▁T	-234
▁김	-235
▁설	-236
▁위하	-237
▁참	-238
▁형	-239
▁본	-240
▁함	-241
▁평	-242
▁등장	-243
▁부터	-244
▁대하	-245
▁D	-246
▁ᄆ	-247
▁~	-248
▁+	-249
▁돌	-250
▁보다	-251
▁시키	-252
▁군	-253
▁음	-254
▁..	-255
▁죽	-256
▁다른	-257
▁이나	-258
▁종	-259
▁아이	-260
▁12	-261
▁승	-262
▁토	-263
▁?	-264
▁버리	-265
▁체	-266
▁권	-267
▁게임	-268
▁외	-269
▁살	-270
▁팀	-271
▁는다	-272
er	-273
▁루	-274
▁직	-275
▁200	-276
▁애	-277
▁11	-278
▁용	-279
▁L	-280
▁네	-281
▁판	-282
▁그리고	-283
00	-284
▁가지	-285
▁키	-286
▁으나	-287
▁잘	-288
▁맞	-289
▁확	-290
▁심	-291
▁올	-292
▁그러	-293
▁하나	-294
▁다가	-295
어지	-296
▁행	-297
▁경기	-298
▁변	-299
▁사실	-300
in	-301
▁박	-302
▁듯	-303
▁못하	-304
▁만들	-305
▁필	-306
▁시간	-307
▁운	-308
▁F	-309
▁P	-310
▁뒤	-311
▁베	-312
▁였	-313
▁날	-314
▁투	-315
▁디	-316
니다	-317
▁건	-318
▁모습	-319
▁목	-320
▁간	-321
▁집	-322
▁높	-323
▁히	-324
▁약	-325
▁활	-326
▁G	-327
▁이상	-328
▁사이	-329
▁이름	-330
지만	-331
▁각	-332
▁언	-333
▁상대	-334
▁순	-335
▁표	-336
▁양	-337
▁E	-338
▁테	-339
스터	-340
▁능	-341
an	-342
▁려	-343
▁너	-344
▁시작	-345
▁효	-346
▁으면	-347
▁문제	-348
▁존	-349
▁15	-350
on	-351
▁일본	-352
▁잡	-353
▁터	-354
▁함께	-355
▁거나	-356
▁힘	-357
▁왕	-358
▁하지만	-359
▁손	-360
▁증	-361
▁병	-362
▁생각	-363
▁별	-364
▁겠	-365
▁한국	-366
▁다시	-367
▁#	-368
▁캐릭	-369
▁H	-370
▁열	-371
▁브	-372
▁아야	-373
▁R	-374
▁막	-375
▁천	-376
▁K	-377
어나	-378
▁폭	-379
▁캐릭터	-380
▁완	-381
▁끝	-382
▁따르	-383
▁능력	-384
▁프로	-385
대로	-386
▁들어	-387
▁ㄴ데	-388
▁블	-389
▁t	-390
▁총	-391
▁플레이	-392
▁독	-393
▁클	-394
▁시즌	-395
▁I	-396
▁먹	-397
▁N	-398
▁스킬	-399
▁페	-400
▁항	-401
▁처럼	-402
이트	-403
▁ㄴ지	-404
▁근	-405
▁광	-406
▁추가	-407
▁새	-408
▁복	-409
▁식	-410
▁당하	-411
▁아도	-412
▁m	-413
▁빠	-414
▁채	-415
▁검	-416
▁상황	-417
▁가장	-418
▁그렇	-419
▁태	-420
▁쿠	-421
▁누	-422
▁카드	-423
▁또한	-424
▁삼	-425
미지	-426
or	-427
▁상태	-428
▁얼	-429
▁당시	-430
▁걸	-431
▁느	-432
▁모두	-433
▁길	-434
ar	-435
▁결국	-436
▁백	-437
▁충	-438
▁효과	-439
▁다만	-440
▁곡	-441
▁업	-442
▁모든	-443
▁앞	-444
▁18	-445
▁티	-446
▁16	-447
▁악	-448
▁ㅂ	-449
▁친	-450
▁넘	-451
▁금	-452
▁많이	-453
▁눈	-454
▁전투	-455
▁30	-456
▁O	-457
▁러	-458
▁시리	-459
▁및	-460
at	-461
▁싸	-462
▁ㄴ다는	-463
▁임	-464
▁급	-465
▁커	-466
▁산	-467
▁13	-468
▁민	-469
▁레벨	-470
▁선수	-471
▁슈	-472
he	-473
▁세계	-474
▁]	-475
▁s	-476
▁머	-477
▁W	-478
▁합	-479
▁존재	-480
▁엔	-481
라이	-482
▁여기	-483
▁14	-484
▁[	-485
▁현재	-486
▁ㅓ	-487
▁라이	-488
▁습	-489
▁매우	-490
▁ㅂ니다	-491
▁시리즈	-492
▁취	-493
▁그런	-494
▁무기	-495
▁상당	-496
▁달리	-497
▁스타	-498
▁물론	-499
▁그러나	-500
▁다면	-501
▁레이	-502
▁첫	-503
▁절	-504
▁통하	-505
▁골	-506
▁마법	-507
▁극	-508
▁엄	-509
므로	-510
en	-511
▁얻	-512
▁17	-513
▁황	-514
▁찾	-515
▁팬	-516
▁c	-517
▁난	-518
▁밀	-519
▁허	-520
▁자체	-521
▁창	-522
▁기술	-523
▁100	-524
▁뿐	-525
▁00	-526
▁벌	-527
▁이런	-528
거리	-529
▁실제	-530
▁청	-531
▁주인	-532
▁놓	-533
▁이유	-534
▁모르	-535
▁줄	-536
▁떨	-537
▁25	-538
▁케	-539
▁관련	-540
ou	-541
▁탈	-542
▁같이	-543
▁인하	-544
▁V	-545
이지	-546
al	-547
▁이것	-548
▁이용	-549
▁필요	-550
▁들어가	-551
▁U	-552
▁방송	-553
▁해당	-554
▁다음	-555
▁기본	-556
▁철	-557
▁지역	-558
▁역시	-559
▁법	-560
▁바로	-561
▁처음	-562
▁워	-563
▁기록	-564
▁부르	-565
▁어야	-566
▁곳	-567
▁방어	-568
▁일반	-569
▁거의	-570
▁환	-571
▁돌아	-572
▁째	-573
▁ㄴ다고	-574
▁잠	-575
▁귀	-576
▁혼	-577
▁이야	-578
▁2017	-579
▁피해	-580
리스	-581
▁나가	-582
▁199	-583
▁다르	-584
▁북	-585
▁대학	-586
▁범	-587
이스	-588
▁그래	-589
▁아무	-590
▁좀	-591
▁붙	-592
▁사건	-593
▁냐	-594
▁2018	-595
▁여러	-596
▁몬	-597
▁란	-598
▁미국	-599
▁격	-600
▁특히	-601
▁는지	-602
▁이야기	-603
▁탄	-604
▁밖	-605
▁싶	-606
▁글	-607
▁k	-608
▁없이	-609
▁부분	-610
▁진행	-611
리아	-612
▁영화	-613
es	-614
지막	-615
▁학교	-616
▁본인	-617
▁인간	-618
▁증가	-619
▁ㄴ가	-620
▁풀	-621
▁둘	-622
▁쉽	-623
▁즉	-624
▁2019	-625
▁참고	-626
it	-627
▁담	-628
▁라면	-629
▁팔	-630
▁리그	-631
▁엘	-632
▁주인공	-633
부분	-634
▁제작	-635
▁자기	-636
▁만큼	-637
▁마지막	-638
▁속도	-639
▁헤	-640
▁작품	-641
▁몸	-642
▁어도	-643
▁몰	-644
▁준	-645
▁그냥	-646
▁21	-647
▁의하	-648
▁덕	-649
▁50	-650
▁X	-651
▁밝	-652
▁내용	-653
▁떨어지	-654
▁넣	-655
▁슬	-656
▁2016	-657
▁으니	-658
▁지나	-659
▁공격력	-660
▁대표	-661
▁계속	-662
▁수준	-663
▁대부분	-664
▁인물	-665
▁개요	-666
▁접	-667
▁생기	-668
▁우리	-669
▁올리	-670
is	-671
▁갈	-672
▁암	-673
▁몇	-674
▁&	-675
▁쪽	-676
전히	-677
re	-678
▁어느	-679
▁동안	-680
▁질	-681
▁위치	-682
▁비슷	-683
▁비하	-684
▁딜	-685
▁대신	-686
▁22	-687
▁국가	-688
▁w	-689
토리	-690
le	-691
▁습니다	-692
▁강하	-693
▁홈	-694
▁지금	-695
▁울	-696
▁상당히	-697
▁평가	-698
▁축	-699
▁기사	-700
▁타이	-701
▁활동	-702
▁일부	-703
▁관계	-704
▁이전	-705
▁만나	-706
▁낮	-707
▁영상	-708
▁보스	-709
▁J	-710
▁멀	-711
▁알리	-712
▁서울	-713
▁올라	-714
▁d	-715
▁규	-716
▁체력	-717
▁그대로	-718
▁너무	-719
▁24	-720
▁유닛	-721
▁감독	-722
▁최대	-723
▁문서	-724
▁맡	-725
▁마다	-726
▁뛰	-727
▁괴	-728
▁성공	-729
▁기준	-730
▁빠르	-731
▁시절	-732
▁죽이	-733
▁홍	-734
▁떠	-735
ing	-736
ic	-737
▁제외	-738
▁밝히	-739
▁데미지	-740
▁f	-741
▁중국	-742
▁실제로	-743
▁망	-744
▁므로	-745
▁희	-746
▁몬스터	-747
▁츠	-748
▁메이	-749
▁ㅏ	-750
▁유저	-751
as	-752
▁바람	-753
▁결과	-754
▁정보	-755
라지	-756
▁멤	-757
▁논	-758
▁설정	-759
▁b	-760
시아	-761
▁그녀	-762
▁전쟁	-763
▁지원	-764
▁승리	-765
▁어렵	-766
▁이미	-767
▁23	-768
▁맨	-769
▁멤버	-770
▁대로	-771
▁소속	-772
▁2015	-773
▁자리	-774
▁언급	-775
▁애니	-776
▁도록	-777
▁온	-778
▁님	-779
▁원래	-780
▁퍼	-781
▁칼	-782
▁40	-783
▁직접	-784
▁성우	-785
다가	-786
▁싸우	-787
▁ㄴ다면	-788
▁설명	-789
버지	-790
▁링	-791
▁육	-792
▁도시	-793
▁컨	-794
▁전체	-795
▁선택	-796
▁이동	-797
▁의미	-798
▁그것	-799
▁마음	-800
▁a	-801
▁여자	-802
▁씩	-803
운드	-804
▁배우	-805
▁깨	-806
▁듣	-807
▁과거	-808
가지	-809
▁뭐	-810
▁머리	-811
▁늘	-812
랜드	-813
▁보내	-814
▁<	-815
▁협	-816
▁봉	-817
▁엄청	-818
▁플레이어	-819
▁묘	-820
▁차이	-821
▁친구	-822
▁이루	-823
▁방법	-824
▁든	-825
▁힘들	-826
▁돈	-827
▁아이템	-828
▁측	-829
▁나타	-830
▁장면	-831
▁출연	-832
이션	-833
▁뉴	-834
▁답	-835
▁갑	-836
▁소리	-837
▁버전	-838
▁거리	-839
▁스토리	-840
▁씨	-841
▁탑	-842
om	-843
▁센	-844
▁꽤	-845
▁향	-846
▁즈	-847
am	-848
▁빌	-849
▁류	-850
▁다니	-851
▁p	-852
▁놀	-853
▁대사	-854
▁h	-855
▁바뀌	-856
▁스럽	-857
▁사랑	-858
▁공식	-859
▁모드	-860
▁혹	-861
▁파이	-862
벤트	-863
▁압	-864
▁프리	-865
▁조금	-866
▁개발	-867
▁송	-868
▁이렇	-869
▁갖	-870
▁대상	-871
▁198	-872
el	-873
▁초반	-874
▁로서	-875
학교	-876
▁책	-877
▁전부	-878
▁버스	-879
▁연구	-880
▁o	-881
▁침	-882
▁이벤트	-883
▁려고	-884
▁남자	-885
▁최고	-886
▁속성	-887
▁제대로	-888
▁볼	-889
▁26	-890
▁궁	-891
▁걸리	-892
▁2014	-893
▁동시	-894
▁쇼	-895
▁기타	-896
▁여성	-897
▁강화	-898
▁유명	-899
▁파괴	-900
▁나이	-901
이도	-902
▁빠지	-903
▁층	-904
▁스테	-905
▁정말	-906
▁n	-907
▁아버지	-908
▁역사	-909
▁28	-910
▁색	-911
▁드래	-912
▁성능	-913
▁자주	-914
▁소환	-915
▁샤	-916
▁찍	-917
▁불리	-918
▁학생	-919
▁27	-920
▁빼	-921
▁최종	-922
▁아직	-923
▁왜	-924
▁운영	-925
▁the	-926
▁우승	-927
▁회복	-928
▁후반	-929
▁석	-930
▁31	-931
▁누구	-932
▁당연	-933
이드	-934
▁출신	-935
라도	-936
▁앨	-937
▁농	-938
▁마이	-939
▁특성	-940
▁그런데	-941
▁라도	-942
▁=	-943
▁인터	-944
▁강력	-945
▁공개	-946
▁확률	-947
부터	-948
▁이때	-949
▁사망	-950
▁유지	-951
▁콘	-952
▁서로	-953
▁끼	-954
▁노래	-955
▁주로	-956
▁엄청나	-957
▁마리	-958
리어	-959
▁착	-960
▁노선	-961
▁끌	-962
▁움	-963
▁발매	-964
▁잔	-965
ol	-966
▁방식	-967
▁슈퍼	-968
▁발생	-969
▁느끼	-970
▁000	-971
▁라인	-972
▁마찬	-973
▁마찬가지	-974
▁이기	-975
▁특수	-976
▁나라	-977
▁시스	-978
▁이러	-979
▁정신	-980
▁영향	-981
▁결정	-982
▁오히	-983
▁대전	-984
▁월드	-985
ion	-986
▁솔	-987
▁오르	-988
▁오히려	-989
▁변경	-990
et	-991
▁장비	-992
아가	-993
▁영웅	-994
▁비교	-995
▁포함	-996
▁기존	-997
▁이제	-998
ac	-999
▁수록	-1000
▁나타나	-1001
▁먼	-1002
▁어떻	-1003
▁빨	-1004
▁역할	-1005
▁일어나	-1006
▁드라	-1007
▁보통	-1008
▁게다가	-1009
▁인기	-1010
▁르	-1011
▁뜻	-1012
머니	-1013
▁작중	-1014
▁32	-1015
▁사라지	-1016
▁억	-1017
▁쓰이	-1018
▁맵	-1019
▁차량	-1020
▁푸	-1021
▁짓	-1022
▁중요	-1023
▁아예	-1024
▁마을	-1025
▁형태	-1026
▁섬	-1027
▁어떤	-1028
▁바꾸	-1029
▁술	-1030
▁싱	-1031
▁성격	-1032
▁세트	-1033
▁Y	-1034
▁일단	-1035
▁좌	-1036
▁행동	-1037
▁이번	-1038
▁어요	-1039
▁난이도	-1040
▁가깝	-1041
il	-1042
us	-1043
▁대한	-1044
프트	-1045
▁29	-1046
▁과정	-1047
우스	-1048
▁모양	-1049
▁액	-1050
▁주장	-1051
▁흑	-1052
▁v	-1053
ig	-1054
▁음악	-1055
▁시대	-1056
▁심지	-1057
▁대회	-1058
레이드	-1059
ow	-1060
▁부족	-1061
▁뽑	-1062
▁최초	-1063
민국	-1064
ed	-1065
▁사회	-1066
▁심지어	-1067
▁구성	-1068
▁끝나	-1069
너지	-1070
▁2013	-1071
▁맞추	-1072
▁빛	-1073
▁윤	-1074
▁스트	-1075
▁구하	-1076
▁발동	-1077
▁새롭	-1078
▁숨	-1079
▁이렇게	-1080
▁풍	-1081
▁입장	-1082
▁휴	-1083
▁폐	-1084
▁뜨	-1085
▁거기	-1086
▁확인	-1087
▁유일	-1088
▁l	-1089
▁바이	-1090
▁다이	-1091
▁사진	-1092
▁먼저	-1093
▁획	-1094
▁애니메	-1095
▁정치	-1096
▁x	-1097
▁60	-1098
▁흔	-1099
▁아래	-1100
▁항목	-1101
▁여담	-1102
▁응	-1103
▁활약	-1104
▁조건	-1105
▁어리	-1106
▁모델	-1107
▁자세	-1108
▁원작	-1109
▁훈	-1110
▁어디	-1111
▁콜	-1112
▁돌아오	-1113
▁35	-1114
▁덕분	-1115
▁내리	-1116
▁득	-1117
▁시스템	-1118
▁하이	-1119
▁들어오	-1120
▁대한민국	-1121
▁Lv	-1122
▁녹	-1123
▁완전히	-1124
▁감소	-1125
▁굉	-1126
▁주변	-1127
▁따라	-1128
▁던지	-1129
▁드러	-1130
인트	-1131
▁프랑	-1132
id	-1133
▁그래서	-1134
▁챔	-1135
▁명칭	-1136
▁자유	-1137
▁독일	-1138
ay	-1139
▁순간	-1140
▁날리	-1141
▁애니메이션	-1142
▁얼굴	-1143
▁전혀	-1144
▁특징	-1145
▁관리	-1146
ad	-1147
▁2012	-1148
▁경찰	-1149
▁잃	-1150
▁차지	-1151
▁우주	-1152
▁자동	-1153
▁라며	-1154
버스	-1155
▁웨	-1156
▁적용	-1157
▁부대	-1158
▁짜	-1159
▁01	-1160
▁할	-1161
▁교육	-1162
▁영어	-1163
▁굉장	-1164
▁가격	-1165
나마	-1166
▁듀	-1167
▁곤	-1168
▁정부	-1169
▁지키	-1170
▁패배	-1171
▁무엇	-1172
▁더라도	-1173
▁뮤	-1174
▁고등	-1175
▁돌아가	-1176
▁of	-1177
▁드래곤	-1178
▁마스터	-1179
▁아군	-1180
▁r	-1181
▁실패	-1182
▁기간	-1183
없이	-1184
소드	-1185
▁휘	-1186
▁오브	-1187
▁개인	-1188
▁그렇게	-1189
▁생산	-1190
▁앨범	-1191
▁얼마	-1192
▁죠	-1193
ot	-1194
▁건물	-1195
▁시점	-1196
ve	-1197
▁그나마	-1198
▁하루	-1199
▁견	-1200
▁지속	-1201
▁상승	-1202
▁덱	-1203
▁혹은	-1204
▁밖에	-1205
and	-1206
▁모으	-1207
▁아들	-1208
▁넘어	-1209
▁이거	-1210
▁기능	-1211
주의	-1212
▁반대	-1213
▁국내	-1214
▁작가	-1215
▁지구	-1216
▁획득	-1217
디오	-1218
▁TV	-1219
▁처리	-1220
▁패치	-1221
▁떠나	-1222
레스	-1223
▁에피	-1224
▁기억	-1225
▁턴	-1226
▁발견	-1227
▁실력	-1228
▁물리	-1229
▁소개	-1230
▁반응	-1231
▁틀	-1232
▁제국	-1233
▁도움	-1234
▁퀘	-1235
▁정확	-1236
▁랭	-1237
▁만화	-1238
▁y	-1239
▁영국	-1240
▁익	-1241
▁동일	-1242
▁참조	-1243
20	-1244
▁킹	-1245
▁홀	-1246
▁대학교	-1247
▁선발	-1248
▁현대	-1249
▁쏘	-1250
▁랑	-1251
▁조차	-1252
▁담당	-1253
아내	-1254
▁맛	-1255
▁출시	-1256
▁올라가	-1257
ch	-1258
▁그림	-1259
▁맥	-1260
▁땅	-1261
▁칸	-1262
▁에피소드	-1263
▁계획	-1264
▁기관	-1265
▁딸	-1266
▁초기	-1267
▁쿨	-1268
▁량	-1269
▁세대	-1270
▁한테	-1271
▁드라마	-1272
▁단계	-1273
▁아마	-1274
▁밤	-1275
▁다며	-1276
▁딱	-1277
▁움직	-1278
▁롭	-1279
▁판매	-1280
▁범위	-1281
▁라서	-1282
un	-1283
▁또는	-1284
▁폴	-1285
▁헬	-1286
▁버프	-1287
소리	-1288
▁퇴	-1289
▁시청	-1290
▁데이	-1291
▁37	-1292
BS	-1293
▁The	-1294
▁2010	-1295
▁패턴	-1296
▁쉬	-1297
▁았었	-1298
뜨리	-1299
▁상위	-1300
▁탐	-1301
▁회사	-1302
▁문화	-1303
▁폭발	-1304
▁벨	-1305
▁등급	-1306
▁시기	-1307
▁대미지	-1308
▁표현	-1309
▁밀리	-1310
▁g	-1311
▁타입	-1312
▁요구	-1313
▁무시	-1314
▁으므로	-1315
▁80	-1316
▁확실	-1317
▁수비	-1318
▁500	-1319
▁사고	-1320
▁라운드	-1321
▁굉장히	-1322
▁St	-1323
▁진짜	-1324
▁미치	-1325
▁스페	-1326
▁어떻게	-1327
▁인정	-1328
▁이미지	-1329
▁45	-1330
▁겨	-1331
▁경험	-1332
▁꾸	-1333
▁발사	-1334
ER	-1335
▁오리	-1336
▁린	-1337
▁가족	-1338
▁소모	-1339
▁파워	-1340
▁*	-1341
▁컴	-1342
▁졸	-1343
▁주의	-1344
▁생활	-1345
들이	-1346
▁피하	-1347
▁묘사	-1348
▁으로서	-1349
▁낙	-1350
▁굴	-1351
▁세이	-1352
▁려는	-1353
▁09	-1354
▁특별	-1355
▁족	-1356
▁심하	-1357
▁활용	-1358
▁)	-1359
▁ㅕ	-1360
▁율	-1361
▁아주	-1362
▁중앙	-1363
dd	-1364
▁대체	-1365
▁디자	-1366
▁km	-1367
▁연기	-1368
▁진출	-1369
▁히로	-1370
▁방향	-1371
▁헌	-1372
▁듯이	-1373
▁운동	-1374
▁트리	-1375
▁지니	-1376
▁펼	-1377
▁197	-1378
로스	-1379
▁나쁘	-1380
▁한정	-1381
▁중간	-1382
▁엑	-1383
▁데뷔	-1384
▁꿈	-1385
▁02	-1386
▁프랑스	-1387
▁묻	-1388
▁03	-1389
▁싸움	-1390
▁그룹	-1391
인물	-1392
▁빈	-1393
▁믿	-1394
▁숙	-1395
▁생명	-1396
▁웃	-1397
▁약하	-1398
▁남기	-1399
▁ㄹ지	-1400
▁준비	-1401
▁포인트	-1402
▁엔딩	-1403
▁핵	-1404
▁유리	-1405
▁야구	-1406
▁2011	-1407
▁스테이지	-1408
▁혼자	-1409
▁당연히	-1410
▁선거	-1411
ff	-1412
▁안타	-1413
▁위험	-1414
▁흐	-1415
▁등장인물	-1416
▁현실	-1417
▁옆	-1418
▁후보	-1419
▁시장	-1420
▁논란	-1421
▁조합	-1422
▁사실상	-1423
▁노리	-1424
ir	-1425
▁아르	-1426
▁욕	-1427
▁순위	-1428
▁무장	-1429
통령	-1430
▁내려	-1431
▁더욱	-1432
▁05	-1433
▁흡	-1434
▁퀘스트	-1435
▁어머니	-1436
▁미션	-1437
▁죄	-1438
▁Z	-1439
▁분위	-1440
▁런	-1441
▁표기	-1442
▁싫	-1443
▁민주	-1444
스크	-1445
▁크리스	-1446
▁괜	-1447
▁비판	-1448
os	-1449
▁챔피	-1450
아오	-1451
▁얘	-1452
▁고등학교	-1453
▁단순	-1454
▁브라	-1455
▁프로그	-1456
▁그래도	-1457
▁참여	-1458
▁70	-1459
▁구조	-1460
▁90	-1461
▁분위기	-1462
▁블랙	-1463
▁계약	-1464
▁학년	-1465
▁동료	-1466
▁08	-1467
▁훨	-1468
im	-1469
▁꼬	-1470
▁약간	-1471
▁중심	-1472
▁대통령	-1473
▁취급	-1474
▁투수	-1475
▁조선	-1476
▁링크	-1477
▁07	-1478
▁방어력	-1479
▁바라	-1480
▁직업	-1481
▁ㄹ까	-1482
▁설치	-1483
▁똑	-1484
▁콤	-1485
▁흥	-1486
▁48	-1487
▁열리	-1488
▁나무	-1489
▁보호	-1490
▁그거	-1491
▁HP	-1492
▁훨씬	-1493
▁여전히	-1494
비스	-1495
▁이어지	-1496
▁즐	-1497
▁결혼	-1498
머지	-1499
▁염	-1500
▁나머지	-1501
▁기에	-1502
▁구간	-1503
리카	-1504
▁시도	-1505
▁계열	-1506
▁돕	-1507
▁다양	-1508
ter	-1509
▁자면	-1510
▁위원	-1511
▁뛰어나	-1512
▁방면	-1513
▁전용	-1514
이크	-1515
▁불구	-1516
▁다루	-1517
으키	-1518
러지	-1519
▁주요	-1520
▁으면서	-1521
▁디자인	-1522
티브	-1523
▁일정	-1524
▁성적	-1525
▁축구	-1526
▁읽	-1527
▁2000	-1528
▁mm	-1529
▁300	-1530
▁보상	-1531
니아	-1532
▁06	-1533
▁터지	-1534
▁기대	-1535
▁탓	-1536
▁목적	-1537
▁소녀	-1538
▁...	-1539
▁연속	-1540
▁탱	-1541
▁33	-1542
▁도망	-1543
▁수정	-1544
▁배틀	-1545
▁갤	-1546
▁옵	-1547
▁지하	-1548
▁고려	-1549
ur	-1550
▁세력	-1551
▁징	-1552
▁가져	-1553
▁론	-1554
▁대화	-1555
▁성장	-1556
▁삼성	-1557
▁쌍	-1558
▁률	-1559
▁벽	-1560
▁부산	-1561
▁종류	-1562
▁36	-1563
▁잘못	-1564
▁롤	-1565
▁각각	-1566
스로	-1567
▁아프	-1568
▁04	-1569
▁올라오	-1570
▁캠	-1571
▁지방	-1572
▁이해	-1573
▁팩	-1574
다리	-1575
▁해결	-1576
▁참가	-1577
▁e	-1578
▁의견	-1579
od	-1580
▁발표	-1581
▁력	-1582
▁넘어가	-1583
▁털	-1584
▁랜	-1585
▁일행	-1586
▁부상	-1587
▁당신	-1588
▁포켓	-1589
▁세우	-1590
▁전설	-1591
▁마치	-1592
▁th	-1593
▁픽	-1594
▁변하	-1595
▁마저	-1596
▁느낌	-1597
▁큐	-1598
▁전문	-1599
ag	-1600
▁거대	-1601
▁짧	-1602
▁예정	-1603
▁방영	-1604
▁펼치	-1605
▁일으키	-1606
▁굳	-1607
▁벗	-1608
▁스피	-1609
▁프로그램	-1610
▁끊	-1611
▁종족	-1612
▁힐	-1613
▁움직이	-1614
▁센터	-1615
▁밴	-1616
▁you	-1617
▁옥	-1618
▁운행	-1619
▁향하	-1620
▁과학	-1621
▁소설	-1622
▁종료	-1623
▁근접	-1624
▁죽음	-1625
▁부활	-1626
▁각성	-1627
▁충분	-1628
▁녀	-1629
지션	-1630
▁전하	-1631
▁도중	-1632
▁FC	-1633
▁조사	-1634
▁배치	-1635
▁렌	-1636
ub	-1637
▁최근	-1638
▁장착	-1639
▁빅	-1640
▁무리	-1641
▁칭	-1642
▁국민	-1643
▁삭	-1644
▁러시아	-1645
▁아이돌	-1646
▁정상	-1647
데이트	-1648
▁척	-1649
▁업데이트	-1650
▁세상	-1651
▁안정	-1652
▁점수	-1653
▁덤	-1654
▁스카	-1655
▁절대	-1656
▁나중	-1657
▁가리	-1658
▁항공	-1659
▁래	-1660
▁경제	-1661
▁cm	-1662
▁SK	-1663
▁제공	-1664
▁이루어지	-1665
▁유니	-1666
▁스스로	-1667
▁엔진	-1668
▁제목	-1669
▁지도	-1670
igh	-1671
▁달성	-1672
▁자연	-1673
▁오래	-1674
▁이라	-1675
▁충격	-1676
▁번호	-1677
▁붙이	-1678
▁어찌	-1679
▁챔피언	-1680
▁켄	-1681
▁벌어지	-1682
▁곧	-1683
▁만드	-1684
▁미사	-1685
▁추정	-1686
▁배경	-1687
▁작전	-1688
ver	-1689
▁번역	-1690
▁목소리	-1691
▁비행	-1692
▁셈	-1693
▁목록	-1694
자기	-1695
▁사이트	-1696
▁똑같	-1697
스타	-1698
▁조직	-1699
▁가끔	-1700
▁정체	-1701
▁포켓몬	-1702
▁요소	-1703
너스	-1704
ak	-1705
▁규모	-1706
▁레어	-1707
▁미래	-1708
▁34	-1709
▁스파	-1710
▁남성	-1711
▁전작	-1712
▁196	-1713
▁출전	-1714
▁품	-1715
▁훈련	-1716
▁벌이	-1717
▁십	-1718
어들	-1719
▁전차	-1720
▁악마	-1721
▁빙	-1722
▁전사	-1723
▁파티	-1724
▁공중	-1725
▁타격	-1726
▁스타일	-1727
▁타카	-1728
▁로부터	-1729
▁다리	-1730
▁돌리	-1731
▁클리어	-1732
▁만약	-1733
▁위기	-1734
ent	-1735
▁괜찮	-1736
▁분노	-1737
▁사냥	-1738
▁변화	-1739
▁에너지	-1740
▁혈	-1741
▁홈런	-1742
다니	-1743
▁생존	-1744
▁동물	-1745
▁나누	-1746
▁그만	-1747
▁신경	-1748
▁클래	-1749
▁얘기	-1750
▁ㄹ로	-1751
▁자랑	-1752
▁득점	-1753
▁애초	-1754
▁더불	-1755
▁뒷	-1756
BC	-1757
▁션	-1758
▁저지	-1759
▁요리	-1760
▁수상	-1761
▁75	-1762
▁단점	-1763
▁연결	-1764
▁아라	-1765
▁필드	-1766
▁크리	-1767
um	-1768
▁장갑	-1769
▁건담	-1770
▁로봇	-1771
▁국제	-1772
▁포지션	-1773
ut	-1774
▁소재	-1775
러스	-1776
디어	-1777
수록	-1778
▁냉	-1779
▁특정	-1780
▁vs	-1781
▁반면	-1782
▁기동	-1783
▁연합	-1784
▁으려	-1785
▁38	-1786
ec	-1787
▁시험	-1788
▁한편	-1789
▁판정	-1790
▁비용	-1791
▁전기	-1792
▁장소	-1793
▁싱글	-1794
▁사항	-1795
▁맹	-1796
▁넘기	-1797
▁공연	-1798
▁롯	-1799
▁니까	-1800
▁항상	-1801
▁멸	-1802
▁화력	-1803
▁목표	-1804
▁예상	-1805
▁정작	-1806
▁무대	-1807
▁연출	-1808
▁기체	-1809
▁가르	-1810
▁최소	-1811
▁늘어나	-1812
▁55	-1813
▁사거리	-1814
▁시설	-1815
▁사업	-1816
리오	-1817
▁관심	-1818
▁꽃	-1819
▁유럽	-1820
▁인터뷰	-1821
▁던전	-1822
▁in	-1823
▁교체	-1824
▁2009	-1825
▁내부	-1826
▁하늘	-1827
트리	-1828
▁비밀	-1829
▁지휘	-1830
▁제일	-1831
▁철도	-1832
▁야마	-1833
▁인사	-1834
▁Q	-1835
▁사격	-1836
▁별로	-1837
▁카이	-1838
▁찌	-1839
▁엘리	-1840
ST	-1841
▁찬	-1842
▁다크	-1843
ro	-1844
▁변신	-1845
▁바르	-1846
▁록	-1847
▁수치	-1848
▁나름	-1849
▁to	-1850
▁넓	-1851
▁기계	-1852
▁정식	-1853
▁놈	-1854
▁수도	-1855
▁작곡	-1856
▁스포	-1857
▁시전	-1858
▁결승	-1859
▁카운	-1860
▁교통	-1861
▁옷	-1862
▁파일	-1863
▁벤	-1864
▁오버	-1865
▁비롯	-1866
▁쌓	-1867
동안	-1868
▁각종	-1869
▁따로	-1870
▁케이	-1871
▁부여	-1872
▁마나	-1873
▁확정	-1874
▁레인	-1875
▁오늘	-1876
▁코스	-1877
▁졸업	-1878
▁황제	-1879
▁쥬	-1880
▁지상	-1881
▁일러	-1882
▁언제	-1883
나라	-1884
▁이탈	-1885
▁특이	-1886
▁지지	-1887
▁치명	-1888
▁진화	-1889
▁전반	-1890
▁북한	-1891
▁깔	-1892
▁이쪽	-1893
▁따라서	-1894
▁병력	-1895
▁갑자기	-1896
▁도로	-1897
▁거두	-1898
▁제한	-1899
보이	-1900
▁드러나	-1901
▁드리	-1902
▁라이브	-1903
▁기업	-1904
▁발전	-1905
▁냐고	-1906
▁_	-1907
▁살리	-1908
▁시티	-1909
▁튀	-1910
▁때리	-1911
▁건설	-1912
▁왼	-1913
▁아키	-1914
▁쯤	-1915
▁압도	-1916
▁이외	-1917
▁누르	-1918
▁어쩌	-1919
▁의외	-1920
▁이르	-1921
▁사정	-1922
em	-1923
▁EX	-1924
▁꺼	-1925
▁가사	-1926
말로	-1927
▁무슨	-1928
▁일러스트	-1929
▁외국	-1930
▁역대	-1931
▁나이트	-1932
▁2008	-1933
▁더니	-1934
▁이끌	-1935
▁삭제	-1936
▁아파	-1937
▁탈출	-1938
▁주문	-1939
▁베이	-1940
▁직전	-1941
▁감정	-1942
▁저항	-1943
▁티어	-1944
ight	-1945
▁띄	-1946
▁임무	-1947
▁고양	-1948
▁이닝	-1949
▁느리	-1950
▁납	-1951
▁위력	-1952
어로	-1953
▁골드	-1954
▁보유	-1955
▁프레	-1956
▁자원	-1957
라인	-1958
AN	-1959
▁거치	-1960
▁텐	-1961
▁아카	-1962
▁정하	-1963
▁마시	-1964
▁로드	-1965
▁세기	-1966
▁집중	-1967
▁서비스	-1968
▁표시	-1969
▁노트	-1970
▁점프	-1971
AR	-1972
▁깊	-1973
▁사례	-1974
▁어둠	-1975
▁마르	-1976
▁잉	-1977
▁전국	-1978
▁분류	-1979
▁인구	-1980
▁',	-1981
▁효율	-1982
▁페이	-1983
▁뇌	-1984
▁랭크	-1985
▁작업	-1986
▁상관	-1987
▁명령	-1988
젝트	-1989
▁완전	-1990
▁인식	-1991
▁히어로	-1992
▁아스	-1993
▁기회	-1994
▁공간	-1995
▁루트	-1996
▁연습	-1997
▁회피	-1998
▁이어	-1999
▁파트	-2000
▁관하	-2001
▁도전	-2002
▁오른	-2003
▁가수	-2004
▁물건	-2005
▁극장	-2006
ap	-2007
▁잇	-2008
▁기다리	-2009
▁태어나	-2010
▁경쟁	-2011
▁화면	-2012
▁장점	-2013
▁42	-2014
ON	-2015
▁지내	-2016
▁잠시	-2017
▁41	-2018
▁높이	-2019
▁별명	-2020
▁버티	-2021
▁옛	-2022
▁폰	-2023
▁키우	-2024
▁컵	-2025
▁녀석	-2026
▁컬	-2027
▁부모	-2028
▁사기	-2029
▁촬	-2030
▁군사	-2031
▁레드	-2032
▁개념	-2033
그레이드	-2034
▁업그레이드	-2035
▁행정	-2036
▁단어	-2037
▁인천	-2038
▁몽	-2039
▁추천	-2040
무리	-2041
▁근처	-2042
▁병원	-2043
▁No	-2044
▁오프	-2045
▁빌리	-2046
▁발언	-2047
▁려면	-2048
▁전력	-2049
▁39	-2050
▁멘	-2051
▁살인	-2052
▁은데	-2053
▁펜	-2054
▁Ch	-2055
▁무려	-2056
▁꾼	-2057
▁불가	-2058
▁의식	-2059
▁포기	-2060
▁전개	-2061
▁신체	-2062
학생	-2063
▁194	-2064
▁정리	-2065
▁미니	-2066
▁아파트	-2067
마자	-2068
▁크기	-2069
▁숨기	-2070
▁겸	-2071
▁판단	-2072
▁주제	-2073
▁촬영	-2074
▁>	-2075
▁킬	-2076
▁강제	-2077
▁본래	-2078
▁노력	-2079
▁밑	-2080
▁나서	-2081
▁히트	-2082
▁kg	-2083
▁고정	-2084
▁잡히	-2085
ul	-2086
페이지	-2087
▁붕	-2088
▁타임	-2089
▁낫	-2090
▁부정	-2091
▁44	-2092
▁라이트	-2093
아들이	-2094
▁ㅓㅆ	-2095
▁공주	-2096
▁st	-2097
▁셋	-2098
▁스코	-2099
▁버그	-2100
▁이하	-2101
▁평균	-2102
▁ㅏㅆ	-2103
▁데스	-2104
▁뿌	-2105
▁독립	-2106
▁빨리	-2107
ce	-2108
▁선생	-2109
▁최강	-2110
▁홈페이지	-2111
000	-2112
▁제거	-2113
▁학원	-2114
▁왕국	-2115
▁병사	-2116
라스	-2117
▁갖추	-2118
▁구매	-2119
▁끝내	-2120
▁분명	-2121
▁폭탄	-2122
▁2020	-2123
▁살아	-2124
▁조종	-2125
▁제품	-2126
▁;	-2127
▁꼭	-2128
▁LG	-2129
▁99	-2130
▁롯데	-2131
▁부탁	-2132
▁칠	-2133
▁속하	-2134
▁위키	-2135
▁군대	-2136
▁마법사	-2137
▁동생	-2138
▁닌	-2139
▁중반	-2140
▁가드	-2141
▁닥	-2142
▁여행	-2143
▁리더	-2144
▁쫓	-2145
요일	-2146
▁고속	-2147
▁윈	-2148
▁예전	-2149
▁앞서	-2150
믹스	-2151
▁단체	-2152
▁웹	-2153
▁행위	-2154
▁붉	-2155
▁떡	-2156
▁짐	-2157
▁옵션	-2158
▁음식	-2159
ik	-2160
▁겪	-2161
▁완벽	-2162
▁전자	-2163
▁현상	-2164
▁2007	-2165
▁수행	-2166
▁가문	-2167
▁대구	-2168
▁195	-2169
▁모이	-2170
▁43	-2171
▁탈락	-2172
▁원인	-2173
▁요시	-2174
all	-2175
▁구분	-2176
▁바다	-2177
▁그야	-2178
▁새로	-2179
▁완성	-2180
드시	-2181
IN	-2182
야마	-2183
이치	-2184
▁대기	-2185
▁에게서	-2186
▁반드시	-2187
모토	-2188
▁의원	-2189
▁통합	-2190
▁개그	-2191
▁쓸	-2192
란드	-2193
▁전략	-2194
▁MA	-2195
▁주민	-2196
▁차원	-2197
▁직후	-2198
드리	-2199
▁하드	-2200
▁재료	-2201
▁복귀	-2202
▁으로써	-2203
▁템	-2204
▁크로	-2205
▁마사	-2206
▁단지	-2207
▁환경	-2208
▁광역	-2209
▁흘	-2210
▁그야말로	-2211
▁기반	-2212
튜브	-2213
▁늦	-2214
타임	-2215
▁아쉽	-2216
▁걱	-2217
러리	-2218
▁마무리	-2219
▁치료	-2220
▁연재	-2221
▁한글	-2222
nd	-2223
트라	-2224
▁46	-2225
▁밸	-2226
▁인도	-2227
▁걱정	-2228
▁서버	-2229
▁해군	-2230
이어	-2231
▁정규	-2232
▁47	-2233
▁덜	-2234
▁지정	-2235
▁연장	-2236
▁다행	-2237
▁대장	-2238
▁다수	-2239
▁해외	-2240
▁2006	-2241
▁멜	-2242
▁보병	-2243
▁평범	-2244
▁밥	-2245
▁타이틀	-2246
▁심각	-2247
▁줄이	-2248
▁보너스	-2249
아하	-2250
▁월드컵	-2251
▁워낙	-2252
▁옮	-2253
▁우선	-2254
▁공포	-2255
▁책임	-2256
▁조작	-2257
▁입히	-2258
조건	-2259
▁포스	-2260
▁미사일	-2261
▁유사	-2262
▁뻔	-2263
▁도착	-2264
▁추측	-2265
▁아무리	-2266
▁실험	-2267
▁재미	-2268
르트	-2269
th	-2270
▁51	-2271
▁점점	-2272
▁샷	-2273
▁상세	-2274
▁캡	-2275
▁코스트	-2276
▁가면	-2277
▁자마자	-2278
루스	-2279
▁필살	-2280
▁굳이	-2281
▁다소	-2282
▁받아들이	-2283
▁택	-2284
▁디스	-2285
▁폼	-2286
▁타자	-2287
▁성향	-2288
▁접근	-2289
▁좋아하	-2290
▁즐기	-2291
▁중학교	-2292
▁실점	-2293
▁한계	-2294
▁무조건	-2295
▁닉	-2296
▁교수	-2297
op	-2298
▁의사	-2299
▁대결	-2300
▁영혼	-2301
▁냐는	-2302
▁채우	-2303
▁톤	-2304
▁SP	-2305
▁부하	-2306
▁무한	-2307
▁잭	-2308
▁국회	-2309
▁모자	-2310
st	-2311
▁사무	-2312
▁고르	-2313
▁비중	-2314
운데	-2315
▁멋	-2316
▁복수	-2317
▁암살	-2318
▁댄	-2319
▁보조	-2320
▁앙	-2321
▁함정	-2322
▁정확히	-2323
▁지배	-2324
▁아내	-2325
▁정의	-2326
▁평소	-2327
▁엠	-2328
ation	-2329
tt	-2330
▁장르	-2331
▁광고	-2332
▁인터넷	-2333
▁옮기	-2334
ra	-2335
시마	-2336
▁혁	-2337
▁마력	-2338
▁투표	-2339
▁범죄	-2340
▁숲	-2341
▁1000	-2342
▁와중	-2343
▁봉인	-2344
▁고자	-2345
ia	-2346
ack	-2347
무라	-2348
아지	-2349
▁확장	-2350
▁알아	-2351
▁채널	-2352
▁운용	-2353
▁사령	-2354
▁도쿄	-2355
나이	-2356
▁공략	-2357
▁이곳	-2358
▁합류	-2359
▁전화	-2360
▁소련	-2361
▁장치	-2362
▁몇몇	-2363
▁가치	-2364
▁기념	-2365
▁빵	-2366
버리	-2367
▁검사	-2368
▁금지	-2369
▁이적	-2370
▁종종	-2371
▁초등	-2372
▁다운	-2373
▁시청자	-2374
▁아웃	-2375
▁150	-2376
▁소유	-2377
▁and	-2378
▁에이	-2379
▁이라고	-2380
▁도입	-2381
▁65	-2382
▁오리지	-2383
▁가운데	-2384
로그	-2385
▁충분히	-2386
▁특유	-2387
▁네이	-2388
▁정당	-2389
▁플래	-2390
시브	-2391
▁유튜브	-2392
▁을지	-2393
▁보컬	-2394
▁실수	-2395
▁미드	-2396
▁뚫	-2397
▁코드	-2398
▁사쿠	-2399
▁브레이	-2400
▁클럽	-2401
▁줄어들	-2402
▁근데	-2403
▁VS	-2404
▁잊	-2405
▁화염	-2406
▁소년	-2407
oc	-2408
▁프로젝트	-2409
▁본격	-2410
▁시민	-2411
▁취하	-2412
▁뉴스	-2413
▁투입	-2414
▁개조	-2415
▁기지	-2416
▁고대	-2417
▁저격	-2418
▁시나	-2419
▁도망치	-2420
▁무사	-2421
▁전원	-2422
▁종교	-2423
▁는가	-2424
▁괴물	-2425
▁형제	-2426
ie	-2427
▁수많	-2428
▁얼마나	-2429
▁고양이	-2430
▁로스	-2431
▁스포츠	-2432
ill	-2433
▁행사	-2434
▁희생	-2435
▁인상	-2436
▁로마	-2437
비아	-2438
▁릴	-2439
▁요청	-2440
▁%,	-2441
▁이탈리아	-2442
려가	-2443
▁앤	-2444
▁셀	-2445
로드	-2446
▁흉	-2447
▁대중	-2448
라이더	-2449
▁상징	-2450
▁원정	-2451
▁카메	-2452
▁KBS	-2453
▁사태	-2454
▁52	-2455
▁발음	-2456
▁II	-2457
▁밴드	-2458
▁2005	-2459
▁종합	-2460
일러	-2461
▁터미	-2462
▁쥐	-2463
art	-2464
▁끄	-2465
▁구역	-2466
▁넥	-2467
▁숫	-2468
▁클래스	-2469
▁64	-2470
▁대형	-2471
▁군단	-2472
▁올림	-2473
▁외모	-2474
텐츠	-2475
▁대비	-2476
려오	-2477
▁스크	-2478
▁따지	-2479
▁위협	-2480
▁방패	-2481
▁랍	-2482
▁조정	-2483
▁이사	-2484
▁패러	-2485
▁서브	-2486
▁최후	-2487
니티	-2488
▁인원	-2489
▁뿌리	-2490
▁그저	-2491
▁불명	-2492
▁서술	-2493
니까	-2494
▁생물	-2495
▁일본어	-2496
▁형식	-2497
▁컨셉	-2498
▁자료	-2499
▁관통	-2500
▁약점	-2501
▁장난	-2502
▁광주	-2503
오르	-2504
▁섞	-2505
▁몹	-2506
런스	-2507
▁정책	-2508
▁행성	-2509
▁2004	-2510
▁통신	-2511
▁달러	-2512
ri	-2513
▁드러내	-2514
▁눈물	-2515
▁비고	-2516
▁상자	-2517
▁전술	-2518
▁액션	-2519
▁앉	-2520
▁49	-2521
▁모험	-2522
▁You	-2523
▁ㄴ지라	-2524
ab	-2525
시스	-2526
▁바닥	-2527
RA	-2528
▁거부	-2529
▁부수	-2530
uby	-2531
▁빼앗	-2532
▁AP	-2533
▁오리지널	-2534
▁락	-2535
▁젊	-2536
▁미리	-2537
▁박사	-2538
▁트랙	-2539
▁들리	-2540
▁의도	-2541
▁간단	-2542
▁56	-2543
▁어라	-2544
▁인형	-2545
▁ST	-2546
▁쿨타임	-2547
▁반복	-2548
▁놀라	-2549
로우	-2550
▁벗어나	-2551
래프트	-2552
est	-2553
▁회장	-2554
▁리어	-2555
▁400	-2556
▁명중	-2557
▁매일	-2558
▁등록	-2559
▁영입	-2560
▁이치	-2561
▁챙	-2562
▁개월	-2563
▁구단	-2564
▁MBC	-2565
▁대응	-2566
▁공동	-2567
▁의지	-2568
▁마크	-2569
▁해석	-2570
▁는다는	-2571
▁dd	-2572
▁지적	-2573
▁ruby	-2574
▁언론	-2575
▁열차	-2576
▁In	-2577
▁그때	-2578
▁웬	-2579
▁값	-2580
▁오토	-2581
▁먹이	-2582
▁지명	-2583
▁개봉	-2584
▁주력	-2585
AL	-2586
▁원거리	-2587
▁코어	-2588
▁오랜	-2589
▁찾아오	-2590
▁목숨	-2591
스케	-2592
▁가하	-2593
▁85	-2594
▁한국어	-2595
▁언어	-2596
▁선언	-2597
▁혐	-2598
▁소식	-2599
▁윌	-2600
▁설계	-2601
▁데이터	-2602
▁차례	-2603
▁더블	-2604
▁흡수	-2605
▁사상	-2606
자리	-2607
▁자동차	-2608
▁탯	-2609
▁53	-2610
▁풀리	-2611
▁지나가	-2612
▁54	-2613
▁사과	-2614
▁카즈	-2615
▁승부	-2616
▁역전	-2617
▁방해	-2618
▁텔	-2619
▁거짓	-2620
▁편하	-2621
리트	-2622
▁193	-2623
▁혜	-2624
▁디지	-2625
▁카페	-2626
▁2002	-2627
퓨터	-2628
▁쓰러지	-2629
▁저지르	-2630
▁여름	-2631
▁살아남	-2632
▁모티브	-2633
▁대단	-2634
▁연계	-2635
▁엄마	-2636
▁망하	-2637
▁느냐	-2638
▁필살기	-2639
▁숫자	-2640
▁닮	-2641
▁핑	-2642
▁긴	-2643
▁조각	-2644
▁합치	-2645
▁ㅏ서	-2646
▁미스	-2647
▁저주	-2648
▁기자	-2649
▁소울	-2650
오스	-2651
▁떼	-2652
▁유우	-2653
▁겹	-2654
▁원하	-2655
▁진입	-2656
▁체육	-2657
▁불과	-2658
올리	-2659
▁황금	-2660
▁랄	-2661
▁PC	-2662
▁완료	-2663
▁상대방	-2664
▁수리	-2665
▁쿄	-2666
▁텍	-2667
▁쳐	-2668
▁수호	-2669
▁맺	-2670
▁장기	-2671
▁아요	-2672
▁가정	-2673
▁산업	-2674
▁dddd	-2675
▁Sh	-2676
▁dddddd	-2677
▁적절	-2678
▁착용	-2679
▁덩	-2680
▁무섭	-2681
▁공화	-2682
▁생성	-2683
▁컴퓨터	-2684
▁해제	-2685
나가	-2686
ttp	-2687
▁단순히	-2688
어내	-2689
동생	-2690
▁질문	-2691
▁http	-2692
▁꼴	-2693
▁가져오	-2694
▁테마	-2695
▁드라이	-2696
▁필수	-2697
▁터미널	-2698
니스	-2699
▁실시	-2700
▁멈	-2701
▁ff	-2702
▁에이스	-2703
▁딱히	-2704
▁컷	-2705
▁카운터	-2706
▁독자	-2707
▁편성	-2708
▁들이	-2709
▁선정	-2710
▁행적	-2711
▁표정	-2712
▁비트	-2713
▁유도	-2714
▁의심	-2715
▁확실히	-2716
▁드립	-2717
▁감안	-2718
▁기어	-2719
▁특기	-2720
▁습격	-2721
up	-2722
▁무력	-2723
▁연주	-2724
▁훌	-2725
▁전환	-2726
▁선물	-2727
▁날개	-2728
▁꾸준	-2729
▁뮤직	-2730
▁기점	-2731
▁페르	-2732
▁패시브	-2733
▁안전	-2734
▁당장	-2735
▁왼쪽	-2736
▁집단	-2737
▁인류	-2738
▁걷	-2739
▁소비	-2740
▁아름	-2741
▁솔로	-2742
▁퓨	-2743
▁함대	-2744
▁개선	-2745
▁셰	-2746
▁제도	-2747
▁횟	-2748
▁박스	-2749
▁59	-2750
▁i	-2751
▁MP	-2752
▁위원회	-2753
▁경력	-2754
▁가스	-2755
▁데리	-2756
▁회전	-2757
▁확보	-2758
VE	-2759
▁잠깐	-2760
▁날아가	-2761
▁구축	-2762
▁로써	-2763
▁코치	-2764
▁행복	-2765
▁돌파	-2766
▁스킨	-2767
▁사장	-2768
▁친하	-2769
▁마츠	-2770
▁지옥	-2771
▁희망	-2772
▁부리	-2773
▁설립	-2774
▁테크	-2775
▁챙기	-2776
▁으로부터	-2777
▁올림픽	-2778
▁Re	-2779
▁비싸	-2780
▁스마	-2781
▁블루	-2782
▁Sp	-2783
▁시나리오	-2784
▁전통	-2785
▁장군	-2786
▁일종	-2787
레이션	-2788
▁을까	-2789
▁58	-2790
▁제압	-2791
▁가슴	-2792
▁시내	-2793
▁진정	-2794
▁통과	-2795
▁횟수	-2796
▁듀얼	-2797
▁라디오	-2798
▁공항	-2799
▁하위	-2800
▁상처	-2801
▁적극	-2802
▁멈추	-2803
▁120	-2804
▁멀티	-2805
▁꺼내	-2806
▁공사	-2807
▁안드	-2808
▁수사	-2809
모리	-2810
▁체제	-2811
AT	-2812
▁촉	-2813
▁초대	-2814
▁문명	-2815
▁지나치	-2816
▁딜러	-2817
▁패스	-2818
▁마침	-2819
OR	-2820
▁57	-2821
▁그라	-2822
▁편집	-2823
ang	-2824
▁해금	-2825
▁비디오	-2826
▁버튼	-2827
▁re	-2828
ate	-2829
▁펀	-2830
▁방문	-2831
▁대답	-2832
▁인지	-2833
▁위주	-2834
▁롱	-2835
▁의문	-2836
▁수원	-2837
연히	-2838
▁95	-2839
▁처치	-2840
▁66	-2841
▁케이스	-2842
▁묶	-2843
▁리스	-2844
트롤	-2845
▁댓	-2846
울리	-2847
▁선보이	-2848
▁현장	-2849
▁귀엽	-2850
▁엉	-2851
▁동맹	-2852
▁료	-2853
▁2003	-2854
▁태도	-2855
▁눈치	-2856
▁고통	-2857
▁작성	-2858
▁진영	-2859
▁콩	-2860
▁투자	-2861
▁코너	-2862
▁대놓	-2863
▁뱀	-2864
▁전장	-2865
▁갱	-2866
▁태양	-2867
▁분리	-2868
▁장전	-2869
▁유키	-2870
ard	-2871
▁크로스	-2872
▁계기	-2873
▁노동	-2874
▁예선	-2875
▁비난	-2876
IA	-2877
▁스페인	-2878
▁한자	-2879
▁핸	-2880
▁마왕	-2881
▁최악	-2882
▁랩	-2883
▁육군	-2884
▁삼국	-2885
▁흐르	-2886
▁제안	-2887
▁고유	-2888
▁공부	-2889
▁에스	-2890
PS	-2891
▁스위	-2892
▁가까	-2893
▁후속	-2894
▁아름답	-2895
▁스펙	-2896
▁게시	-2897
▁고서	-2898
▁깎	-2899
▁레이저	-2900
▁Bl	-2901
▁겨우	-2902
▁BG	-2903
ess	-2904
▁시체	-2905
▁좁	-2906
ant	-2907
▁배신	-2908
▁회의	-2909
▁제로	-2910
▁평화	-2911
▁110	-2912
▁개최	-2913
▁be	-2914
▁성인	-2915
▁오른쪽	-2916
▁꼽	-2917
▁가져가	-2918
▁아머	-2919
르크	-2920
▁나카	-2921
▁조준	-2922
▁게이지	-2923
▁룰	-2924
▁여부	-2925
▁내려가	-2926
▁용병	-2927
▁기획	-2928
▁컨트롤	-2929
▁궤	-2930
▁견제	-2931
▁궁극	-2932
▁ㄹ수록	-2933
▁젤	-2934
▁멀리	-2935
▁극장판	-2936
▁탑재	-2937
▁매치	-2938
IC	-2939
▁타이밍	-2940
▁점령	-2941
▁SS	-2942
▁ㅓ서	-2943
▁달라지	-2944
▁on	-2945
▁청소	-2946
▁보급	-2947
▁춤	-2948
ell	-2949
▁카메라	-2950
▁가볍	-2951
▁봄	-2952
▁or	-2953
▁어울리	-2954
머리	-2955
▁베이스	-2956
▁애매	-2957
▁자라	-2958
▁62	-2959
▁진실	-2960
▁373	-2961
ct	-2962
라리	-2963
▁충전	-2964
▁최대한	-2965
▁관광	-2966
▁쓰러	-2967
ue	-2968
▁체인	-2969
마스	-2970
ine	-2971
▁직원	-2972
▁순서	-2973
아리	-2974
▁스피드	-2975
▁남편	-2976
▁댄스	-2977
▁정령	-2978
▁에어	-2979
▁보도	-2980
▁게이	-2981
▁은퇴	-2982
▁온라인	-2983
▁기분	-2984
▁그레이	-2985
▁수단	-2986
래도	-2987
의원	-2988
▁한화	-2989
▁모션	-2990
▁NP	-2991
▁민주당	-2992
▁후반부	-2993
▁잖	-2994
▁레전	-2995
▁오스	-2996
▁늘리	-2997
▁하트	-2998
▁틈	-2999
▁아무래도	-3000
▁튜	-3001
▁Al	-3002
▁트레	-3003
▁멸망	-3004
▁세계관	-3005
▁격투	-3006
▁교회	-3007
▁밸런스	-3008
▁허용	-3009
무원	-3010
▁스코어	-3011
▁76	-3012
▁얼음	-3013
ist	-3014
▁트위	-3015
▁알렉	-3016
▁보수	-3017
▁약속	-3018
▁여왕	-3019
▁파이터	-3020
▁스탠	-3021
▁치르	-3022
ove	-3023
▁갤러리	-3024
▁우수	-3025
▁Th	-3026
ore	-3027
▁갓	-3028
▁후지	-3029
▁대원	-3030
▁스프	-3031
▁오오	-3032
▁빔	-3033
다르	-3034
▁부담	-3035
▁토스	-3036
▁유용	-3037
워하	-3038
▁등등	-3039
▁울트라	-3040
▁77	-3041
▁로켓	-3042
▁헤드	-3043
▁융	-3044
▁61	-3045
▁돌격	-3046
▁무게	-3047
▁....	-3048
▁고급	-3049
oo	-3050
▁생일	-3051
▁지식	-3052
▁막히	-3053
▁판타	-3054
▁기절	-3055
▁규정	-3056
▁미나	-3057
▁갈리	-3058
▁{	-3059
▁삶	-3060
▁샌	-3061
▁본선	-3062
▁커뮤	-3063
▁아프리카	-3064
▁뱅	-3065
▁차별	-3066
▁렉	-3067
▁병기	-3068
▁가면라이더	-3069
피스	-3070
▁72	-3071
▁88	-3072
붙이	-3073
▁중단	-3074
▁끼리	-3075
▁그리스	-3076
▁랜덤	-3077
▁젠	-3078
▁분야	-3079
▁장애	-3080
▁측면	-3081
▁는다고	-3082
▁스케	-3083
▁트레이	-3084
▁자이	-3085
▁퍼지	-3086
▁com	-3087
심히	-3088
▁지점	-3089
로이드	-3090
▁겹치	-3091
▁셔	-3092
▁2001	-3093
두르	-3094
▁패러디	-3095
▁마녀	-3096
▁자고	-3097
▁경기도	-3098
▁입수	-3099
▁따위	-3100
▁주목	-3101
▁언니	-3102
▁발휘	-3103
바이	-3104
▁넷	-3105
▁닥터	-3106
▁}	-3107
▁자살	-3108
▁회수	-3109
▁도서	-3110
▁ffff	-3111
▁포르	-3112
▁드물	-3113
▁외부	-3114
ive	-3115
▁웨이	-3116
▁제시	-3117
▁인생	-3118
▁공통	-3119
▁피해자	-3120
▁유래	-3121
OS	-3122
▁삽	-3123
▁미야	-3124
▁경계	-3125
▁자르	-3126
ort	-3127
▁도구	-3128
▁취소	-3129
▁살해	-3130
▁교환	-3131
▁내주	-3132
▁군주	-3133
ong	-3134
▁아사	-3135
▁커버	-3136
▁국적	-3137
▁공원	-3138
▁ffffff	-3139
▁SBS	-3140
▁오프닝	-3141
▁릭	-3142
워드	-3143
▁개편	-3144
▁트위터	-3145
▁외치	-3146
▁승강	-3147
달리	-3148
AM	-3149
▁스페셜	-3150
▁민족	-3151
ers	-3152
▁장수	-3153
▁서포	-3154
▁윙	-3155
▁아침	-3156
▁페이스	-3157
오리	-3158
▁킥	-3159
크래프트	-3160
▁어차	-3161
▁공장	-3162
▁부진	-3163
▁핵심	-3164
▁어차피	-3165
▁재판	-3166
▁계산	-3167
▁PS	-3168
▁대놓고	-3169
AS	-3170
▁붕괴	-3171
▁사단	-3172
▁제기	-3173
▁끌어	-3174
▁98	-3175
▁브랜드	-3176
▁구입	-3177
▁바탕	-3178
▁단독	-3179
▁이성	-3180
▁교사	-3181
유키	-3182
▁출생	-3183
▁용도	-3184
▁온갖	-3185
터리	-3186
니어	-3187
▁메탈	-3188
▁겨울	-3189
스티	-3190
▁당선	-3191
▁낳	-3192
다수	-3193
▁소수	-3194
▁갑옷	-3195
▁어린	-3196
▁몰리	-3197
▁영역	-3198
▁찌르	-3199
▁탄생	-3200
▁191	-3201
▁상하	-3202
▁펠	-3203
ED	-3204
▁살짝	-3205
▁오후	-3206
▁건너	-3207
▁아시아	-3208
▁함선	-3209
▁ㅓ야	-3210
▁거절	-3211
어리	-3212
▁출발	-3213
▁은근	-3214
ip	-3215
▁주연	-3216
▁꾸준히	-3217
▁카나	-3218
▁요원	-3219
▁분석	-3220
▁작사	-3221
▁페이지	-3222
피아	-3223
▁납치	-3224
▁은행	-3225
▁스파이	-3226
▁CD	-3227
▁화살	-3228
즈키	-3229
▁선배	-3230
ain	-3231
▁귀족	-3232
▁순수	-3233
▁타워	-3234
▁재생	-3235
▁600	-3236
▁습득	-3237
▁하수	-3238
▁자식	-3239
▁엑스	-3240
if	-3241
하라	-3242
▁대공	-3243
▁파악	-3244
▁증거	-3245
▁섭	-3246
▁홍보	-3247
▁예술	-3248
▁자격	-3249
▁업무	-3250
▁이스	-3251
▁가르치	-3252
▁쏟	-3253
리티	-3254
▁우려	-3255
가락	-3256
ee	-3257
▁협력	-3258
▁유형	-3259
▁|	-3260
▁1990	-3261
▁보정	-3262
디션	-3263
▁무너지	-3264
▁고민	-3265
▁군인	-3266
티컬	-3267
▁훌륭	-3268
EN	-3269
▁당황	-3270
▁사카	-3271
▁레전드	-3272
▁베르	-3273
▁테러	-3274
▁경유	-3275
▁신화	-3276
▁폭풍	-3277
▁MV	-3278
거나	-3279
▁밟	-3280
▁적당	-3281
▁미소	-3282
▁지우	-3283
▁댓글	-3284
▁열심히	-3285
▁흔히	-3286
아나	-3287
▁플라	-3288
▁영원	-3289
▁응원	-3290
▁카르	-3291
▁내내	-3292
▁쓰레	-3293
▁마인	-3294
▁프라	-3295
▁63	-3296
▁가로	-3297
▁보물	-3298
▁불안	-3299
▁퀄	-3300
▁뒤집	-3301
▁맡기	-3302
▁괴롭	-3303
▁주도	-3304
▁모리	-3305
▁틱	-3306
▁종점	-3307
▁비록	-3308
▁탑승	-3309
▁소드	-3310
▁없애	-3311
▁왕자	-3312
▁러브	-3313
세이	-3314
▁챠	-3315
▁출처	-3316
▁장관	-3317
▁채용	-3318
▁거래	-3319
▁68	-3320
▁부인	-3321
▁만족	-3322
▁무적	-3323
▁정말로	-3324
▁누리	-3325
▁흘리	-3326
▁아리	-3327
▁네이버	-3328
▁스트라이	-3329
▁혼란	-3330
들리	-3331
▁컨텐츠	-3332
▁감사	-3333
▁본명	-3334
▁문제점	-3335
▁나뉘	-3336
▁대다수	-3337
▁운전	-3338
ith	-3339
ly	-3340
▁실질	-3341
▁늑	-3342
▁운명	-3343
▁71	-3344
▁옹	-3345
▁800	-3346
▁계급	-3347
▁반격	-3348
▁커뮤니티	-3349
▁중계	-3350
▁정류	-3351
▁균	-3352
레인	-3353
ld	-3354
▁내놓	-3355
▁라이벌	-3356
▁찾아가	-3357
▁미군	-3358
▁트라	-3359
ind	-3360
▁지급	-3361
▁초월	-3362
▁김성	-3363
▁오해	-3364
▁짝	-3365
▁연도	-3366
▁오류	-3367
▁74	-3368
▁수입	-3369
▁전함	-3370
▁푸르	-3371
▁AC	-3372
▁두산	-3373
▁돌진	-3374
OL	-3375
▁치명타	-3376
▁전공	-3377
▁연예	-3378
아먹	-3379
▁가까이	-3380
▁랜드	-3381
▁라스	-3382
▁파이어	-3383
▁파라	-3384
▁메타	-3385
▁67	-3386
▁공군	-3387
▁덴	-3388
▁카라	-3389
▁체계	-3390
다지	-3391
이터	-3392
▁기기	-3393
▁아트	-3394
▁낚	-3395
▁아나	-3396
▁통일	-3397
▁반영	-3398
▁소문	-3399
▁설득	-3400
▁충돌	-3401
▁여신	-3402
▁찰	-3403
ew	-3404
▁거주	-3405
▁즉시	-3406
▁코믹스	-3407
▁73	-3408
▁단위	-3409
▁불꽃	-3410
▁문자	-3411
▁화장	-3412
ry	-3413
▁TH	-3414
▁캔	-3415
▁안습	-3416
▁그림자	-3417
▁아오	-3418
▁NC	-3419
▁메가	-3420
▁홍콩	-3421
▁말리	-3422
▁학과	-3423
시오	-3424
▁96	-3425
▁편의	-3426
▁전투력	-3427
▁닿	-3428
▁주년	-3429
▁AT	-3430
바로	-3431
ast	-3432
▁레오	-3433
▁크리티컬	-3434
IT	-3435
▁짜리	-3436
▁크루	-3437
▁걸치	-3438
카와	-3439
▁지시	-3440
▁시야	-3441
▁비율	-3442
▁슬롯	-3443
▁다행히	-3444
▁내려오	-3445
츠키	-3446
▁제하	-3447
▁국회의원	-3448
▁해방	-3449
▁둘러	-3450
LC	-3451
▁상향	-3452
▁떡밥	-3453
▁생명력	-3454
▁피아	-3455
▁me	-3456
▁널	-3457
▁신뢰	-3458
▁정지	-3459
EC	-3460
▁제조	-3461
▁격파	-3462
▁공화국	-3463
▁일부러	-3464
▁그다지	-3465
▁써	-3466
▁81	-3467
▁소프트	-3468
▁CP	-3469
▁토모	-3470
▁암흑	-3471
▁파이널	-3472
▁깃	-3473
▁심장	-3474
▁관객	-3475
▁닌자	-3476
▁오로	-3477
▁신고	-3478
▁판타지	-3479
▁무난	-3480
▁수업	-3481
▁사전	-3482
▁곰	-3483
FA	-3484
▁늑대	-3485
▁등판	-3486
▁동네	-3487
▁쓰러뜨리	-3488
▁유비	-3489
▁맘	-3490
▁그만큼	-3491
사카	-3492
▁가입	-3493
▁지켜	-3494
▁가득	-3495
▁연사	-3496
▁별개	-3497
나다	-3498
▁1999	-3499
▁엘프	-3500
▁192	-3501
▁사운드	-3502
▁붙잡	-3503
▁NPC	-3504
▁마술	-3505
▁덮	-3506
▁j	-3507
▁마주	-3508
▁78	-3509
▁본부	-3510
▁창작	-3511
▁고기	-3512
▁집안	-3513
▁84	-3514
▁압박	-3515
▁91	-3516
식간	-3517
▁막장	-3518
▁재능	-3519
▁근무	-3520
end	-3521
▁건강	-3522
▁짱	-3523
▁실드	-3524
▁순식간	-3525
▁아티	-3526
▁반란	-3527
▁지하철	-3528
▁리버	-3529
▁제주	-3530
고기	-3531
▁업체	-3532
▁든지	-3533
▁장식	-3534
▁룡	-3535
▁추적	-3536
▁드디어	-3537
▁an	-3538
▁화이트	-3539
▁저런	-3540
▁지형	-3541
▁팝	-3542
▁묵	-3543
▁뛰어	-3544
▁1998	-3545
▁신세	-3546
▁전적	-3547
▁수학	-3548
▁불만	-3549
▁지켜보	-3550
▁경험치	-3551
▁입학	-3552
▁경향	-3553
▁상품	-3554
▁천사	-3555
▁브리	-3556
▁증명	-3557
▁처하	-3558
▁쿼	-3559
▁게이트	-3560
세우	-3561
▁기원	-3562
▁사쿠라	-3563
▁ㅕ서	-3564
▁대만	-3565
▁An	-3566
▁형성	-3567
▁예고	-3568
▁낭	-3569
▁테이	-3570
▁스티	-3571
▁아가	-3572
▁전방	-3573
▁쌓이	-3574
▁신청	-3575
▁블레이드	-3576
▁노멀	-3577
▁가이	-3578
▁오픈	-3579
▁여동생	-3580
▁it	-3581
▁겟	-3582
▁매력	-3583
▁콜라	-3584
▁97	-3585
▁절반	-3586
▁사령관	-3587
▁쓰레기	-3588
▁쿠키	-3589
▁적히	-3590
▁정권	-3591
▁감염	-3592
▁팅	-3593
▁클로	-3594
▁섹	-3595
광역	-3596
▁지르	-3597
▁마도	-3598
▁의상	-3599
▁주먹	-3600
▁여론	-3601
아버지	-3602
▁나루	-3603
▁마이크	-3604
▁다시피	-3605
▁Ar	-3606
▁외국인	-3607
▁이마	-3608
▁유희	-3609
▁룬	-3610
▁타점	-3611
▁라이더	-3612
▁령	-3613
▁단일	-3614
▁82	-3615
▁강조	-3616
▁69	-3617
▁오빠	-3618
돼지	-3619
▁키스	-3620
▁회차	-3621
▁이승	-3622
▁사토	-3623
▁어택	-3624
▁선호	-3625
▁이론	-3626
▁연상	-3627
▁메카	-3628
▁복장	-3629
▁He	-3630
▁엔터	-3631
▁별도	-3632
▁코인	-3633
▁소멸	-3634
▁근거	-3635
▁!!	-3636
▁전선	-3637
지컬	-3638
▁250	-3639
트로	-3640
광역시	-3641
▁주전	-3642
▁바보	-3643
▁실행	-3644
▁고치	-3645
▁스톤	-3646
돌리	-3647
▁썰	-3648
▁잖아	-3649
▁작용	-3650
▁MAX	-3651
▁최상	-3652
▁공작	-3653
▁공기	-3654
▁180	-3655
▁대륙	-3656
▁한때	-3657
▁디아	-3658
▁부품	-3659
▁평타	-3660
▁아메	-3661
▁86	-3662
▁SN	-3663
타로	-3664
▁반지	-3665
▁화려	-3666
▁요정	-3667
▁for	-3668
▁핀	-3669
▁스토	-3670
▁190	-3671
▁출현	-3672
▁is	-3673
▁간격	-3674
▁호환	-3675
▁흔하	-3676
▁아무것	-3677
▁따오	-3678
▁헌터	-3679
파이어	-3680
▁해설	-3681
▁전형	-3682
모로	-3683
어버리	-3684
▁니시	-3685
▁찾아	-3686
▁총기	-3687
▁뉴욕	-3688
▁출장	-3689
▁퀸	-3690
▁권력	-3691
▁요새	-3692
▁박살	-3693
▁토리	-3694
둥이	-3695
▁울산	-3696
▁사자	-3697
▁탱크	-3698
▁굽	-3699
▁추격	-3700
▁이랑	-3701
▁몰래	-3702
▁무효	-3703
▁BGM	-3704
▁바라보	-3705
▁경상	-3706
▁마스	-3707
▁조용	-3708
더스	-3709
▁주위	-3710
▁키리	-3711
▁스카이	-3712
▁시드	-3713
서트	-3714
▁돌아다니	-3715
▁프레임	-3716
▁연애	-3717
▁구도	-3718
▁탁	-3719
ath	-3720
▁여러모로	-3721
▁명예	-3722
레나	-3723
▁권총	-3724
RE	-3725
av	-3726
▁동기	-3727
▁폭격	-3728
▁주어지	-3729
▁이슬	-3730
▁경비	-3731
▁Te	-3732
▁범인	-3733
50	-3734
▁1997	-3735
▁De	-3736
▁추락	-3737
▁테스트	-3738
▁신규	-3739
▁경영	-3740
▁우스	-3741
▁자는	-3742
▁모바	-3743
▁대우	-3744
▁심리	-3745
타인	-3746
▁지대	-3747
▁블록	-3748
▁후쿠	-3749
듀서	-3750
▁프로듀서	-3751
▁심판	-3752
▁하수인	-3753
▁폭주	-3754
▁아무런	-3755
▁영업	-3756
▁소총	-3757
▁MS	-3758
웨이	-3759
▁공유	-3760
▁께	-3761
▁수요	-3762
▁놓치	-3763
▁일상	-3764
▁클라	-3765
히로	-3766
▁탄약	-3767
▁아크	-3768
▁갈등	-3769
se	-3770
어스	-3771
▁전대	-3772
▁계승	-3773
▁제이	-3774
▁외교	-3775
드라	-3776
▁변호	-3777
▁그래픽	-3778
▁메이저	-3779
▁거짓말	-3780
▁마리오	-3781
▁환상	-3782
▁고교	-3783
one	-3784
▁브라질	-3785
▁고전	-3786
▁북미	-3787
▁사양	-3788
▁학살	-3789
▁요괴	-3790
▁통제	-3791
▁렙	-3792
▁상점	-3793
▁보석	-3794
남도	-3795
사키	-3796
▁Be	-3797
▁언제나	-3798
겨나	-3799
▁입력	-3800
▁변형	-3801
▁시각	-3802
▁마련	-3803
▁이득	-3804
▁터치	-3805
og	-3806
▁83	-3807
▁공학	-3808
▁띄우	-3809
▁제법	-3810
▁폭력	-3811
▁탱커	-3812
▁혁명	-3813
▁빗	-3814
▁블러	-3815
▁통상	-3816
▁훔	-3817
▁맞서	-3818
▁불편	-3819
▁KT	-3820
▁유령	-3821
▁커맨	-3822
퍼스	-3823
▁미츠	-3824
▁리스트	-3825
▁제작진	-3826
▁옛날	-3827
▁믹	-3828
스트라	-3829
▁작동	-3830
▁89	-3831
▁용사	-3832
▁92	-3833
가와	-3834
▁그곳	-3835
▁전투기	-3836
▁예외	-3837
▁조치	-3838
▁승강장	-3839
▁동원	-3840
ust	-3841
▁진지	-3842
▁94	-3843
▁타케	-3844
▁미디어	-3845
▁메인	-3846
▁휘두르	-3847
▁스마트	-3848
▁구현	-3849
▁수집	-3850
▁프로필	-3851
▁연대	-3852
▁민간	-3853
▁파일럿	-3854
도우	-3855
▁조심	-3856
▁고생	-3857
▁둥	-3858
▁일자	-3859
ide	-3860
▁한국인	-3861
▁현지	-3862
▁79	-3863
▁머신	-3864
▁포탑	-3865
▁검색	-3866
▁이리	-3867
▁챕	-3868
▁네임	-3869
노스	-3870
▁워치	-3871
▁쿠로	-3872
려움	-3873
▁앵	-3874
▁Le	-3875
▁사이즈	-3876
▁모바일	-3877
▁신인	-3878
▁하고	-3879
▁경기장	-3880
▁조조	-3881
▁만든	-3882
▁Se	-3883
일드	-3884
나무	-3885
▁메시	-3886
▁쇠	-3887
▁조절	-3888
▁신장	-3889
보내	-3890
ity	-3891
PG	-3892
▁",	-3893
▁콘서트	-3894
▁93	-3895
▁꺾	-3896
▁US	-3897
▁동영	-3898
▁부위	-3899
▁쟈	-3900
▁멋지	-3901
▁챕터	-3902
▁되찾	-3903
▁표준	-3904
▁레인저	-3905
▁요즘	-3906
▁감시	-3907
▁음반	-3908
▁다이아	-3909
▁입구	-3910
OT	-3911
▁보장	-3912
▁교전	-3913
▁정류장	-3914
▁긍	-3915
▁동방	-3916
▁수송	-3917
▁시행	-3918
▁물러	-3919
▁카미	-3920
▁레스	-3921
▁편지	-3922
저히	-3923
▁겐	-3924
▁87	-3925
▁공산	-3926
▁마루	-3927
일리	-3928
▁스톰	-3929
▁101	-3930
▁도발	-3931
▁1996	-3932
어도	-3933
▁배차	-3934
▁동영상	-3935
▁리얼	-3936
▁덧	-3937
▁프린	-3938
북도	-3939
▁패널	-3940
▁차단	-3941
▁DJ	-3942
▁길드	-3943
▁용어	-3944
▁맞이	-3945
▁기습	-3946
▁AI	-3947
▁상상	-3948
▁MC	-3949
AC	-3950
▁자이언	-3951
▁음성	-3952
▁프리미	-3953
▁볼넷	-3954
▁1995	-3955
▁폐지	-3956
▁한방	-3957
▁겁	-3958
▁구출	-3959
▁호평	-3960
▁연락	-3961
▁앱	-3962
▁텔레	-3963
▁다면서	-3964
▁어지	-3965
▁연방	-3966
▁김정	-3967
▁루타	-3968
▁특화	-3969
▁이재	-3970
▁똑같이	-3971
▁슛	-3972
▁라이프	-3973
▁On	-3974
▁그치	-3975
ere	-3976
▁나타내	-3977
▁으니까	-3978
▁어깨	-3979
▁태우	-3980
▁마냥	-3981
▁쟁	-3982
▁세월	-3983
▁추진	-3984
▁계정	-3985
▁흥행	-3986
▁볼트	-3987
▁강철	-3988
▁도달	-3989
age	-3990
▁사이드	-3991
▁훔치	-3992
▁도서관	-3993
▁이날	-3994
▁연관	-3995
▁슈트	-3996
▁잠수	-3997
▁무료	-3998
펙트	-3999
▁익숙	-4000
▁간부	-4001
▁결승전	-4002
▁핸드	-4003
▁.....	-4004
▁농구	-4005
▁리아	-4006
▁매니	-4007
▁신문	-4008
▁지휘관	-4009
▁레이드	-4010
▁번개	-4011
▁헤이	-4012
▁향상	-4013
▁가시	-4014
▁극단	-4015
▁웬만	-4016
▁삼진	-4017
▁전달	-4018
오프	-4019
▁신분	-4020
자키	-4021
▁노예	-4022
▁주소	-4023
▁전직	-4024
▁리메	-4025
메달	-4026
▁@	-4027
▁겉	-4028
▁이란	-4029
▁루시	-4030
▁양산	-4031
▁도망가	-4032
▁출력	-4033
▁고향	-4034
▁신기	-4035
▁냐며	-4036
▁빌드	-4037
▁묘지	-4038
레이터	-4039
▁수술	-4040
▁켜	-4041
▁사마	-4042
▁가상	-4043
▁조지	-4044
▁환자	-4045
▁켈	-4046
▁캐리	-4047
▁넘치	-4048
▁노출	-4049
▁신성	-4050
▁빛나	-4051
▁마구	-4052
▁레이스	-4053
▁박근	-4054
▁가속	-4055
▁스튜	-4056
▁아우	-4057
▁px	-4058
▁장교	-4059
▁부문	-4060
▁복잡	-4061
▁환승	-4062
▁제자	-4063
▁소닉	-4064
▁임명	-4065
▁전역	-4066
▁갤럭	-4067
▁동작	-4068
▁헨	-4069
▁글자	-4070
▁베트	-4071
▁팀원	-4072
조리	-4073
▁입단	-4074
▁멕	-4075
▁세이브	-4076
▁진심	-4077
▁적어도	-4078
▁봇	-4079
qu	-4080
▁커플	-4081
▁DLC	-4082
▁내구	-4083
▁쾌	-4084
▁캐스	-4085
▁대체로	-4086
▁'.	-4087
▁AK	-4088
▁반하	-4089
ood	-4090
▁성별	-4091
▁내성	-4092
▁절망	-4093
▁해체	-4094
▁타마	-4095
창기	-4096
▁명중률	-4097
▁기병	-4098
▁가게	-4099
▁아시	-4100
▁임시	-4101
BO	-4102
▁THE	-4103
▁샘	-4104
▁브레이크	-4105
▁페이즈	-4106
▁핫	-4107
▁망치	-4108
▁막차	-4109
▁종이	-4110
▁차리	-4111
▁MVP	-4112
▁발매되	-4113
▁알파	-4114
▁구속	-4115
▁전시	-4116
▁착각	-4117
▁틀리	-4118
▁갤럭시	-4119
▁육성	-4120
▁었었	-4121
▁아빠	-4122
▁근육	-4123
▁여유	-4124
▁플레	-4125
▁연구소	-4126
▁너무나	-4127
▁득표	-4128
란색	-4129
▁수영	-4130
IS	-4131
▁차라리	-4132
▁중화	-4133
PM	-4134
▁뼈	-4135
▁이즈	-4136
오카	-4137
▁CC	-4138
▁멍	-4139
▁대량	-4140
▁융합	-4141
▁개통	-4142
▁공지	-4143
▁인수	-4144
▁자매	-4145
▁고백	-4146
▁리메이크	-4147
▁빡	-4148
▁분기	-4149
▁창조	-4150
▁$	-4151
▁강원	-4152
▁경고	-4153
are	-4154
▁카오스	-4155
▁1994	-4156
▁물질	-4157
▁인증	-4158
전자	-4159
▁엮	-4160
▁람	-4161
▁Wh	-4162
▁그럼	-4163
▁럭	-4164
끄럽	-4165
▁배트	-4166
▁하필	-4167
▁협회	-4168
▁묻히	-4169
▁초창기	-4170
▁날짜	-4171
▁규칙	-4172
▁대대	-4173
▁지능	-4174
▁리치	-4175
▁아끼	-4176
▁파리	-4177
▁인연	-4178
▁이자	-4179
▁소화	-4180
▁참전	-4181
▁시즈	-4182
▁글로	-4183
▁실버	-4184
▁1980	-4185
▁게스트	-4186
▁ㅕㅆ	-4187
▁남부	-4188
▁의뢰	-4189
▁구체	-4190
▁톱	-4191
브리	-4192
▁점차	-4193
▁먹히	-4194
OM	-4195
▁이시	-4196
▁뭉	-4197
▁분량	-4198
▁카타	-4199
▁제어	-4200
▁끼치	-4201
▁가량	-4202
▁성과	-4203
▁700	-4204
▁악역	-4205
크스	-4206
▁태그	-4207
▁청년	-4208
▁의혹	-4209
▁Tr	-4210
▁고용	-4211
▁투구	-4212
▁대립	-4213
▁누적	-4214
▁식사	-4215
▁둔	-4216
▁어둡	-4217
▁미카	-4218
▁객	-4219
▁회원	-4220
▁테일	-4221
▁합격	-4222
▁이내	-4223
▁돼지	-4224
▁정복	-4225
▁찾아보	-4226
▁흠	-4227
▁김영	-4228
티나	-4229
▁그대	-4230
▁메모리	-4231
ock	-4232
▁반발	-4233
▁''	-4234
▁중대	-4235
▁호감	-4236
▁여지	-4237
먼트	-4238
▁웅	-4239
▁합체	-4240
▁녹음	-4241
▁그동안	-4242
▁귀신	-4243
▁떠올리	-4244
▁왠	-4245
▁뚜	-4246
▁이명	-4247
▁의료	-4248
OW	-4249
▁위장	-4250
구리	-4251
▁꼬리	-4252
ake	-4253
ect	-4254
▁파트너	-4255
▁감옥	-4256
▁춘	-4257
▁협박	-4258
▁결론	-4259
▁FI	-4260
▁피격	-4261
▁써먹	-4262
▁웹툰	-4263
our	-4264
▁오가	-4265
▁는다면	-4266
▁뷰	-4267
보드	-4268
▁후속작	-4269
도로	-4270
▁출판	-4271
▁한번	-4272
▁차트	-4273
▁체포	-4274
▁라면서	-4275
ire	-4276
ass	-4277
▁잦	-4278
▁삼국지	-4279
▁몰아	-4280
▁외계	-4281
▁모모	-4282
▁게시판	-4283
oy	-4284
ark	-4285
▁유로	-4286
▁합성	-4287
지마	-4288
▁떠오르	-4289
▁스턴	-4290
▁베스트	-4291
▁츄	-4292
▁서부	-4293
▁히데	-4294
▁강의	-4295
▁기초	-4296
▁곧바로	-4297
▁아기	-4298
▁와이	-4299
▁썩	-4300
ob	-4301
ite	-4302
▁he	-4303
▁부서	-4304
▁깨지	-4305
▁에다	-4306
▁예쁘	-4307
▁축제	-4308
▁정면	-4309
▁마키	-4310
▁랭킹	-4311
▁카스	-4312
▁림	-4313
▁괴롭히	-4314
▁예비	-4315
웨어	-4316
▁블리	-4317
▁문장	-4318
▁편곡	-4319
▁어쨌	-4320
▁구멍	-4321
▁사제	-4322
▁햄	-4323
▁퀄리티	-4324
▁본작	-4325
▁동화	-4326
▁비아	-4327
주시	-4328
▁안드로이드	-4329
▁공급	-4330
▁불러	-4331
▁토르	-4332
▁토론	-4333
▁SR	-4334
▁개방	-4335
▁깜	-4336
▁대가	-4337
▁수련	-4338
▁단장	-4339
▁FA	-4340
▁kt	-4341
▁렛	-4342
FC	-4343
▁횡	-4344
▁소형	-4345
▁다섯	-4346
▁마리아	-4347
▁매체	-4348
▁전면	-4349
▁부부	-4350
▁룸	-4351
▁대폭	-4352
▁저그	-4353
ES	-4354
▁Cl	-4355
▁유행	-4356
▁소원	-4357
▁트로	-4358
▁인공	-4359
▁은하	-4360
▁AR	-4361
▁플랫	-4362
▁고문	-4363
▁곁	-4364
▁립	-4365
성기	-4366
▁예능	-4367
디아	-4368
▁슈팅	-4369
▁초간	-4370
▁활성	-4371
▁문학	-4372
UN	-4373
▁투어	-4374
▁캐나다	-4375
ah	-4376
라이언	-4377
▁해병	-4378
릭스	-4379
▁구나	-4380
▁클리	-4381
▁과목	-4382
▁파견	-4383
▁뜬	-4384
▁일시	-4385
▁달하	-4386
▁내장	-4387
▁매직	-4388
▁대략	-4389
▁wh	-4390
▁왕조	-4391
▁으려고	-4392
▁뺏	-4393
▁세이버	-4394
▁GT	-4395
▁신호	-4396
▁외형	-4397
▁아일	-4398
▁시위	-4399
▁연타	-4400
▁커맨드	-4401
▁넉	-4402
▁김태	-4403
ound	-4404
iz	-4405
▁관중	-4406
▁스틸	-4407
▁적군	-4408
▁간혹	-4409
▁손가락	-4410
▁마이클	-4411
▁포스트	-4412
▁목격	-4413
▁일원	-4414
▁더라	-4415
▁긍정	-4416
▁팬덤	-4417
▁야스	-4418
▁컬러	-4419
▁커지	-4420
▁피부	-4421
▁플레이오프	-4422
▁정글	-4423
▁에드	-4424
▁희귀	-4425
▁식물	-4426
ime	-4427
▁박근혜	-4428
▁구원	-4429
던가	-4430
▁반사	-4431
▁의무	-4432
▁데모	-4433
▁소지	-4434
▁SD	-4435
▁블로그	-4436
▁프라이	-4437
▁움직임	-4438
▁펀치	-4439
▁코우	-4440
▁김민	-4441
▁들어서	-4442
▁최소한	-4443
▁PD	-4444
어나오	-4445
▁바위	-4446
▁은근히	-4447
▁수수	-4448
▁Gr	-4449
▁육체	-4450
▁상성	-4451
▁다가오	-4452
▁타이거	-4453
우드	-4454
▁연인	-4455
▁준수	-4456
LL	-4457
▁KIA	-4458
▁나아가	-4459
▁신라	-4460
스턴	-4461
▁이지	-4462
▁크라	-4463
▁널리	-4464
iv	-4465
▁SC	-4466
▁my	-4467
잡이	-4468
▁Me	-4469
▁피스	-4470
▁대처	-4471
▁주말	-4472
▁굴리	-4473
▁수용	-4474
▁ㅓ도	-4475
▁멘탈	-4476
▁는지라	-4477
▁섀	-4478
▁오카	-4479
▁섞이	-4480
▁인근	-4481
▁파크	-4482
▁대충	-4483
ID	-4484
▁아니면	-4485
▁킨	-4486
페인	-4487
▁불법	-4488
버트	-4489
▁메뉴	-4490
▁특집	-4491
▁116	-4492
밀리	-4493
▁일격	-4494
▁곡명	-4495
▁개체	-4496
▁전철	-4497
▁예측	-4498
▁까다	-4499
▁홀로	-4500
큐어	-4501
▁스미	-4502
▁실리	-4503
▁쉐	-4504
▁자치	-4505
▁각자	-4506
▁털리	-4507
▁떨어	-4508
▁박정	-4509
▁동부	-4510
▁환영	-4511
▁영토	-4512
▁조성	-4513
▁적대	-4514
▁헤비	-4515
▁My	-4516
MA	-4517
▁냄	-4518
▁뜯	-4519
시코	-4520
▁로즈	-4521
▁다스	-4522
▁멀쩡	-4523
▁대지	-4524
▁누나	-4525
▁놀랍	-4526
OP	-4527
▁영문	-4528
▁기사단	-4529
▁그로	-4530
▁건축	-4531
▁딩	-4532
디언	-4533
▁보안	-4534
▁커스	-4535
▁따라가	-4536
▁130	-4537
▁더더	-4538
▁ㄴ다며	-4539
▁국군	-4540
▁으러	-4541
▁원본	-4542
▁서양	-4543
▁형사	-4544
▁오랫	-4545
▁왈	-4546
▁바리	-4547
▁침공	-4548
구치	-4549
미야	-4550
▁소중	-4551
▁냥	-4552
▁주포	-4553
▁계단	-4554
▁접속	-4555
▁{{	-4556
▁좌우	-4557
▁강남	-4558
▁바치	-4559
▁Pr	-4560
▁더더욱	-4561
▁아바	-4562
▁안내	-4563
▁탄창	-4564
▁튀어나오	-4565
▁훗	-4566
▁어린이	-4567
▁결말	-4568
▁사우	-4569
▁갇	-4570
▁어른	-4571
▁호주	-4572
▁첨	-4573
▁플로	-4574
▁기독	-4575
ge	-4576
▁유이	-4577
▁면역	-4578
▁{{{	-4579
▁정찰	-4580
▁지도자	-4581
▁액티브	-4582
▁이래	-4583
▁골든	-4584
▁시내버스	-4585
▁험	-4586
가미	-4587
데스	-4588
▁깡	-4589
▁호텔	-4590
▁까다롭	-4591
▁펫	-4592
▁죄다	-4593
▁허나	-4594
▁회상	-4595
▁처벌	-4596
▁대항	-4597
▁알아보	-4598
▁갇히	-4599
▁후기	-4600
▁BE	-4601
▁시선	-4602
▁혀	-4603
▁거인	-4604
▁현역	-4605
▁음원	-4606
▁작화	-4607
▁학부	-4608
▁치우	-4609
ax	-4610
▁딘	-4611
▁괴수	-4612
▁퀴	-4613
▁상당수	-4614
▁씌	-4615
▁미안	-4616
▁히메	-4617
▁식당	-4618
▁절대로	-4619
▁닫	-4620
▁포트	-4621
▁에서부터	-4622
▁DF	-4623
▁취미	-4624
▁메르	-4625
▁하야	-4626
▁아이스	-4627
ome	-4628
▁해적	-4629
▁버스터	-4630
▁과연	-4631
▁캐스팅	-4632
▁재미있	-4633
ance	-4634
▁일기	-4635
▁고스트	-4636
덜란드	-4637
▁네덜란드	-4638
▁깨닫	-4639
▁요코	-4640
▁MF	-4641
▁어떠	-4642
▁전문가	-4643
▁도우	-4644
▁라인업	-4645
▁주간	-4646
▁프리큐어	-4647
▁새벽	-4648
▁저녁	-4649
▁전진	-4650
▁과제	-4651
▁삐	-4652
uc	-4653
▁리듬	-4654
▁아티스트	-4655
▁느라	-4656
▁로그	-4657
ick	-4658
▁모자라	-4659
▁꽂	-4660
▁천재	-4661
▁시계	-4662
▁스키	-4663
▁유치	-4664
려주	-4665
▁비행기	-4666
스탄	-4667
▁첫차	-4668
▁한동안	-4669
▁Pl	-4670
▁열쇠	-4671
▁오스트	-4672
▁ch	-4673
▁기적	-4674
닉스	-4675
▁총선	-4676
▁하얗	-4677
▁HD	-4678
▁고지	-4679
▁WW	-4680
▁방지	-4681
▁검찰	-4682
▁승격	-4683
▁니코	-4684
▁트레이드	-4685
▁한참	-4686
▁자금	-4687
▁촌	-4688
▁드레	-4689
▁고수	-4690
▁SM	-4691
ix	-4692
▁파츠	-4693
▁리드	-4694
요시	-4695
mer	-4696
▁트윈	-4697
▁마비	-4698
▁주사	-4699
▁용기	-4700
▁경기력	-4701
▁트럭	-4702
▁방사	-4703
ord	-4704
▁익히	-4705
▁우위	-4706
▁별다르	-4707
▁안경	-4708
▁이슬람	-4709
▁챌	-4710
▁스타크래프트	-4711
▁어지간	-4712
▁160	-4713
▁짤	-4714
▁저장	-4715
▁양쪽	-4716
아웃	-4717
▁휴대	-4718
▁코코	-4719
▁허리	-4720
▁캠페인	-4721
▁디지털	-4722
▁개성	-4723
가시	-4724
ure	-4725
▁GB	-4726
▁신비	-4727
▁한마	-4728
▁램	-4729
▁대리	-4730
▁농담	-4731
▁청소년	-4732
프레	-4733
▁캠퍼스	-4734
▁할아버지	-4735
▁보고	-4736
▁토끼	-4737
▁상급	-4738
▁꼽히	-4739
이즈	-4740
▁캡틴	-4741
▁크리스마스	-4742
▁국어	-4743
특별	-4744
고리	-4745
덩이	-4746
▁동굴	-4747
▁OST	-4748
▁보라	-4749
▁갈수록	-4750
10	-4751
▁빚	-4752
▁물러나	-4753
▁무덤	-4754
▁유희왕	-4755
▁영향력	-4756
▁문재	-4757
▁로우	-4758
▁\	-4759
▁화제	-4760
▁1992	-4761
▁오랫동안	-4762
▁방출	-4763
▁이영	-4764
▁체크	-4765
▁북부	-4766
▁인지도	-4767
▁김동	-4768
▁개정	-4769
▁터키	-4770
▁마이너	-4771
▁기독교	-4772
▁KO	-4773
▁클래식	-4774
▁아이콘	-4775
▁with	-4776
▁어쨌든	-4777
▁조언	-4778
▁미술	-4779
▁바퀴	-4780
▁올해	-4781
▁호위	-4782
▁어마	-4783
▁연료	-4784
▁마침내	-4785
ud	-4786
▁웃음	-4787
▁해리	-4788
라드	-4789
▁곽	-4790
▁릿	-4791
▁시아	-4792
바라	-4793
▁칭하	-4794
▁1993	-4795
▁원소	-4796
▁안티	-4797
양함	-4798
▁극복	-4799
▁정원	-4800
▁장악	-4801
▁클릭	-4802
▁원수	-4803
▁베트남	-4804
▁빼앗기	-4805
▁SKT	-4806
톨릭	-4807
▁의존	-4808
▁중독	-4809
▁접촉	-4810
▁시마	-4811
▁일제	-4812
▁국방	-4813
라이트	-4814
▁귀찮	-4815
▁바이러스	-4816
▁인정받	-4817
▁사도	-4818
▁팔리	-4819
▁하락	-4820
▁노인	-4821
▁비추	-4822
▁델	-4823
▁으라	-4824
▁식량	-4825
▁미라	-4826
▁무작	-4827
▁140	-4828
▁선택지	-4829
▁Ex	-4830
▁생존자	-4831
▁무겁	-4832
▁흐름	-4833
▁결코	-4834
▁놀이	-4835
▁전신	-4836
▁톰	-4837
▁데려오	-4838
▁윌리	-4839
▁하우스	-4840
▁담기	-4841
▁https	-4842
ame	-4843
80	-4844
▁모조리	-4845
▁신설	-4846
▁살아가	-4847
▁헛	-4848
▁수익	-4849
▁JR	-4850
▁우라	-4851
▁보관	-4852
▁본체	-4853
쳐지	-4854
멘트	-4855
임스	-4856
▁??	-4857
▁칭찬	-4858
▁투명	-4859
▁캐논	-4860
▁커리어	-4861
▁챌린	-4862
AD	-4863
▁전멸	-4864
▁외전	-4865
▁흔들리	-4866
▁sh	-4867
▁핏	-4868
▁체육관	-4869
▁부장	-4870
▁공무원	-4871
▁개수	-4872
▁도끼	-4873
▁취향	-4874
▁으시	-4875
▁손해	-4876
▁전성기	-4877
▁앞두	-4878
▁어다	-4879
몬드	-4880
▁노부	-4881
▁이브	-4882
▁예시	-4883
▁논리	-4884
▁IC	-4885
치기	-4886
▁치유	-4887
▁비주	-4888
▁카트	-4889
▁후방	-4890
▁한마디	-4891
▁씹	-4892
▁de	-4893
▁스승	-4894
▁모래	-4895
▁기종	-4896
▁최다	-4897
▁루수	-4898
ost	-4899
리그	-4900
▁수십	-4901
세스	-4902
▁에리	-4903
▁김종	-4904
▁돋	-4905
▁데드	-4906
▁억지	-4907
▁우연히	-4908
▁Love	-4909
▁충성	-4910
▁무릎	-4911
▁기아	-4912
▁교장	-4913
▁이터	-4914
▁가톨릭	-4915
▁콜라보	-4916
▁제작자	-4917
▁어스	-4918
▁정비	-4919
코토	-4920
▁마린	-4921
▁툴	-4922
카리	-4923
▁유니폼	-4924
▁첼	-4925
▁재현	-4926
▁GS	-4927
▁힙	-4928
▁레이더	-4929
old	-4930
▁변호사	-4931
▁구경	-4932
▁무지	-4933
▁불타	-4934
▁동의	-4935
▁일반인	-4936
▁반동	-4937
▁사막	-4938
다랗	-4939
out	-4940
▁소라	-4941
▁칩	-4942
▁900	-4943
▁당일	-4944
▁세르	-4945
▁로고	-4946
▁Un	-4947
스키	-4948
▁명성	-4949
▁충청	-4950
▁작곡가	-4951
▁적응	-4952
▁제임스	-4953
▁날아오	-4954
▁이정	-4955
▁구사	-4956
▁맥스	-4957
▁타선	-4958
▁.."	-4959
▁기여	-4960
▁트랜	-4961
▁오전	-4962
▁사정거리	-4963
own	-4964
▁코미	-4965
▁구리	-4966
▁카츠	-4967
▁소스	-4968
네스	-4969
▁업적	-4970
▁202	-4971
▁거미	-4972
▁쵸	-4973
▁접하	-4974
▁멕시코	-4975
▁패션	-4976
▁수류	-4977
▁선전	-4978
▁타인	-4979
▁합의	-4980
▁증언	-4981
▁잉글	-4982
▁고맙	-4983
▁집어	-4984
▁자세히	-4985
▁아일랜드	-4986
▁무방	-4987
▁잘리	-4988
▁개입	-4989
▁기량	-4990
▁아즈	-4991
워크	-4992
▁둘째	-4993
▁유통	-4994
▁판매량	-4995
▁연금	-4996
▁초보	-4997
▁타락	-4998
카드	-4999
▁빨갛	-5000
▁스트리	-5001
▁기도	-5002
▁잡지	-5003
▁다름	-5004
▁바깥	-5005
▁상업	-5006
▁가짜	-5007
▁드라이브	-5008
▁법원	-5009
▁스웨	-5010
▁SH	-5011
US	-5012
▁찢	-5013
▁자국	-5014
▁넥센	-5015
▁폴란드	-5016
▁아쿠	-5017
▁눕	-5018
▁취임	-5019
시로	-5020
▁할머니	-5021
▁조연	-5022
▁LI	-5023
▁북쪽	-5024
▁EP	-5025
▁의회	-5026
▁울리	-5027
▁신부	-5028
▁유물	-5029
▁무라	-5030
▁포격	-5031
▁정수	-5032
▁법률	-5033
▁루카	-5034
▁수류탄	-5035
▁화장실	-5036
▁박히	-5037
다이	-5038
▁전후	-5039
미니	-5040
▁차기	-5041
▁일방	-5042
▁가루	-5043
▁벌레	-5044
▁닭	-5045
▁깔끔	-5046
▁주기	-5047
▁복무	-5048
▁FF	-5049
▁출마	-5050
▁똥	-5051
ok	-5052
▁어드	-5053
▁쌍둥이	-5054
▁안타깝	-5055
▁교실	-5056
▁주식	-5057
▁금속	-5058
pe	-5059
▁펑	-5060
▁대개	-5061
▁IS	-5062
든가	-5063
▁오사카	-5064
▁드롭	-5065
▁히나	-5066
▁결성	-5067
▁싱크	-5068
▁인조	-5069
▁과장	-5070
▁위상	-5071
▁구르	-5072
▁정착	-5073
▁남쪽	-5074
ace	-5075
▁새끼	-5076
▁기르	-5077
ave	-5078
▁인격	-5079
per	-5080
▁승점	-5081
▁비례	-5082
▁포드	-5083
▁도주	-5084
▁팽	-5085
노우	-5086
려나	-5087
▁흔적	-5088
▁동력	-5089
▁XX	-5090
▁연패	-5091
▁교차	-5092
▁독특	-5093
ng	-5094
▁주일	-5095
▁그러니까	-5096
▁자폭	-5097
▁즐겁	-5098
▁처형	-5099
▁도적	-5100
▁잠재	-5101
▁방어구	-5102
▁내세우	-5103
▁훗날	-5104
네임	-5105
▁숭	-5106
▁스텔	-5107
▁공성	-5108
▁튕	-5109
▁스터	-5110
▁냄새	-5111
▁스마트폰	-5112
▁1991	-5113
▁ㅣ	-5114
ice	-5115
▁스프링	-5116
▁더럽	-5117
▁라이온	-5118
▁대인	-5119
▁상호	-5120
▁부작	-5121
▁자책	-5122
▁강도	-5123
▁사라	-5124
▁블러드	-5125
▁간신	-5126
▁정치인	-5127
▁화학	-5128
▁네요	-5129
▁위대	-5130
▁국립	-5131
▁공룡	-5132
▁남녀	-5133
▁매니저	-5134
▁CV	-5135
▁거점	-5136
▁노르	-5137
▁CF	-5138
▁포항	-5139
▁일찍	-5140
▁연승	-5141
▁패하	-5142
▁AD	-5143
▁클레	-5144
▁놓이	-5145
▁1988	-5146
▁오라	-5147
▁비상	-5148
▁포수	-5149
▁시너지	-5150
▁미루	-5151
OD	-5152
▁기용	-5153
▁타수	-5154
▁클랜	-5155
▁너희	-5156
▁귀환	-5157
▁런던	-5158
▁크리스탈	-5159
▁몰락	-5160
▁스페이스	-5161
▁추억	-5162
ov	-5163
가스	-5164
▁권한	-5165
▁스튜디오	-5166
▁각본	-5167
▁개량	-5168
▁행보	-5169
▁제갈	-5170
▁김재	-5171
▁유대	-5172
▁이슈	-5173
▁고작	-5174
랑이	-5175
▁We	-5176
▁오타	-5177
▁적당히	-5178
▁지뢰	-5179
랭크	-5180
▁시노	-5181
▁트라이	-5182
▁상술	-5183
나카	-5184
ont	-5185
▁색깔	-5186
▁아츠	-5187
▁가리키	-5188
▁후술	-5189
▁승률	-5190
▁사신	-5191
▁주역	-5192
▁사유	-5193
▁시달리	-5194
▁실망	-5195
▁개막	-5196
▁숙련	-5197
▁혈액	-5198
자드	-5199
▁광역시	-5200
▁아케	-5201
▁공세	-5202
▁AM	-5203
▁혐오	-5204
▁105	-5205
▁흥미	-5206
▁어려움	-5207
▁미스터	-5208
▁녹색	-5209
▁루나	-5210
▁커피	-5211
▁뜬금	-5212
▁카운트	-5213
▁다치	-5214
▁타로	-5215
▁이중	-5216
로나	-5217
▁일람	-5218
▁내지	-5219
orld	-5220
▁히어로즈	-5221
팡이	-5222
▁자막	-5223
▁해피	-5224
▁터뜨리	-5225
ies	-5226
▁서포터	-5227
▁DS	-5228
블린	-5229
▁길이	-5230
▁생년	-5231
▁다름없	-5232
▁소위	-5233
▁학력	-5234
▁의대	-5235
▁재단	-5236
▁코리아	-5237
▁리온	-5238
▁색상	-5239
▁끊기	-5240
▁인민	-5241
▁화성	-5242
▁펴	-5243
▁금융	-5244
▁계통	-5245
▁스트라이크	-5246
ann	-5247
▁제작사	-5248
▁티켓	-5249
▁SNS	-5250
▁특전	-5251
▁관람	-5252
▁요금	-5253
▁면모	-5254
OC	-5255
▁나치	-5256
특별시	-5257
▁국왕	-5258
고속	-5259
▁미터	-5260
▁흡혈	-5261
▁구슬	-5262
▁ㅁ	-5263
▁아이언	-5264
▁리타	-5265
▁영구	-5266
▁차이점	-5267
▁아마도	-5268
▁배터리	-5269
시타	-5270
▁ED	-5271
▁심사	-5272
▁오크	-5273
▁디지몬	-5274
▁뿔	-5275
럼프	-5276
▁개시	-5277
▁쓸모	-5278
▁단단	-5279
▁쪼	-5280
▁세종	-5281
▁하단	-5282
▁기숙	-5283
▁서울특별시	-5284
▁튕기	-5285
▁중량	-5286
▁CPU	-5287
▁오랜만	-5288
▁오직	-5289
BA	-5290
▁펄	-5291
▁소대	-5292
▁사이버	-5293
▁추종	-5294
▁칭호	-5295
▁어뢰	-5296
▁미묘	-5297
▁증오	-5298
LE	-5299
▁찾아내	-5300
▁들키	-5301
▁공공	-5302
▁세븐	-5303
▁재산	-5304
▁잉글랜드	-5305
▁스팀	-5306
▁보호막	-5307
▁DE	-5308
▁호수	-5309
▁시그	-5310
▁중첩	-5311
▁썬	-5312
▁오마	-5313
▁생략	-5314
▁좌석	-5315
▁민첩	-5316
▁연령	-5317
▁wik	-5318
▁고구	-5319
▁편입	-5320
▁맛있	-5321
▁뎀	-5322
▁언더	-5323
▁혐의	-5324
▁부지	-5325
▁히토	-5326
▁워커	-5327
▁지경	-5328
▁애플	-5329
▁총알	-5330
▁치루	-5331
▁가만	-5332
▁십자	-5333
▁전라	-5334
▁LC	-5335
▁더러	-5336
▁협상	-5337
베르	-5338
▁마약	-5339
▁해상	-5340
▁단편	-5341
▁실전	-5342
▁상단	-5343
▁LV	-5344
▁가요	-5345
▁노벨	-5346
▁연예인	-5347
▁휴식	-5348
▁타율	-5349
▁혹시	-5350
▁메리	-5351
▁엿	-5352
▁그만두	-5353
▁신사	-5354
시스트	-5355
어마	-5356
▁덧붙이	-5357
▁쿼터	-5358
▁하차	-5359
로디	-5360
▁아저	-5361
▁예언	-5362
▁후배	-5363
려들	-5364
▁네트	-5365
저스	-5366
▁상인	-5367
▁눈치채	-5368
▁이익	-5369
▁NE	-5370
ber	-5371
▁아저씨	-5372
▁딜링	-5373
▁펌	-5374
▁정화	-5375
▁중국어	-5376
▁탈퇴	-5377
▁곤란	-5378
▁수장	-5379
▁구석	-5380
ys	-5381
▁막대	-5382
▁강자	-5383
▁익스	-5384
▁흘러	-5385
▁기관총	-5386
▁어마어마	-5387
▁임대	-5388
▁카카	-5389
▁SE	-5390
▁강요	-5391
▁예산	-5392
▁찬스	-5393
▁189	-5394
▁용량	-5395
▁동쪽	-5396
▁언스	-5397
바르	-5398
ION	-5399
▁네오	-5400
▁떨어뜨리	-5401
▁턱	-5402
▁모노	-5403
▁문구	-5404
▁용서	-5405
▁공방	-5406
der	-5407
▁개혁	-5408
사자	-5409
▁데려가	-5410
▁하루카	-5411
▁수호자	-5412
▁캠프	-5413
▁your	-5414
aw	-5415
▁악당	-5416
▁드럼	-5417
▁자극	-5418
▁소장	-5419
▁진보	-5420
▁3000	-5421
▁원칙	-5422
▁원주	-5423
▁부각	-5424
▁김현	-5425
▁잠수함	-5426
▁상실	-5427
▁금방	-5428
60	-5429
▁큐브	-5430
▁총리	-5431
▁기울	-5432
▁칼리	-5433
FF	-5434
▁틸	-5435
▁포로	-5436
▁BPM	-5437
▁포르투	-5438
▁인치	-5439
이너	-5440
▁EN	-5441
▁교류	-5442
▁학자	-5443
▁It	-5444
▁굿	-5445
40	-5446
▁루이	-5447
▁잡아내	-5448
▁메달	-5449
▁얀	-5450
▁상관없	-5451
▁결전	-5452
ream	-5453
▁앨리스	-5454
▁원문	-5455
▁집행	-5456
▁에요	-5457
▁깨어나	-5458
▁마디	-5459
▁저작	-5460
▁표지	-5461
▁유효	-5462
▁자전	-5463
▁얻어	-5464
▁찍히	-5465
▁엑스트라	-5466
▁뱀파이어	-5467
ike	-5468
▁활발	-5469
▁가을	-5470
▁125	-5471
▁미쿠	-5472
▁나나	-5473
▁모토	-5474
▁로리	-5475
▁입지	-5476
▁채팅	-5477
▁일족	-5478
▁Com	-5479
▁후계	-5480
▁타운	-5481
술사	-5482
▁중립	-5483
▁엘리트	-5484
▁간신히	-5485
▁사귀	-5486
▁신앙	-5487
▁헬기	-5488
▁1989	-5489
▁도루	-5490
▁저렴	-5491
▁서번	-5492
월일	-5493
▁카와	-5494
▁무척	-5495
▁사형	-5496
▁제트	-5497
▁메시지	-5498
티아	-5499
▁기생	-5500
▁화물	-5501
▁피터	-5502
▁낚시	-5503
▁이끄	-5504
위대	-5505
▁PV	-5506
▁칼날	-5507
▁묘하	-5508
▁담배	-5509
▁마그	-5510
▁힌	-5511
▁서번트	-5512
▁무렵	-5513
▁첩	-5514
▁정예	-5515
▁요약	-5516
▁사명	-5517
▁루비	-5518
▁짜증	-5519
▁복지	-5520
▁구축함	-5521
▁미즈	-5522
▁조이	-5523
▁일본인	-5524
▁더군	-5525
▁행운	-5526
▁생년월일	-5527
▁UP	-5528
▁추구	-5529
▁존재감	-5530
▁지라	-5531
팩트	-5532
iss	-5533
▁레알	-5534
▁재밌	-5535
▁거울	-5536
▁딜레이	-5537
▁위원장	-5538
▁끈	-5539
▁동아	-5540
▁잡아먹	-5541
▁대학원	-5542
▁바이오	-5543
▁안녕	-5544
▁터널	-5545
▁ww	-5546
▁엮이	-5547
▁그랜드	-5548
▁순환	-5549
▁거듭	-5550
▁나리	-5551
▁부딪	-5552
▁음모	-5553
▁라기	-5554
▁애정	-5555
▁영주	-5556
▁반전	-5557
▁주자	-5558
▁캐스터	-5559
데이	-5560
▁착하	-5561
▁불사	-5562
▁철학	-5563
▁최신	-5564
▁AS	-5565
▁테라	-5566
▁해골	-5567
▁고개	-5568
▁텍스트	-5569
▁도둑	-5570
▁가동	-5571
▁피아노	-5572
▁커다랗	-5573
▁무역	-5574
▁엔젤	-5575
▁격추	-5576
▁잔뜩	-5577
▁태평	-5578
▁사원	-5579
▁서쪽	-5580
라기	-5581
▁참석	-5582
▁공허	-5583
▁생겨나	-5584
▁성남	-5585
▁부스터	-5586
▁심심	-5587
▁www	-5588
▁기구	-5589
▁알렉산	-5590
걸이	-5591
▁모니	-5592
▁BL	-5593
▁언젠	-5594
무르	-5595
▁기숙사	-5596
▁플라이	-5597
▁언젠가	-5598
▁휩	-5599
▁취약	-5600
▁->	-5601
▁드래프트	-5602
▁부적	-5603
30	-5604
▁공용	-5605
chor	-5606
▁이집	-5607
▁주차	-5608
▁비치	-5609
▁이집트	-5610
ian	-5611
▁분신	-5612
▁붓	-5613
말리	-5614
▁준우	-5615
▁비서	-5616
▁통산	-5617
▁끔	-5618
테르	-5619
▁CJ	-5620
▁체중	-5621
▁유나이	-5622
▁궤도	-5623
회사	-5624
▁걸어	-5625
▁상기	-5626
▁명단	-5627
▁분대	-5628
▁초록	-5629
하면	-5630
▁우르	-5631
▁되돌리	-5632
▁유적	-5633
▁윌리엄	-5634
▁확대	-5635
▁유나이티	-5636
io	-5637
▁탄환	-5638
▁쭉	-5639
▁훼	-5640
▁토벌	-5641
▁이토	-5642
▁종목	-5643
▁Pro	-5644
▁스펠	-5645
▁교황	-5646
▁페널	-5647
▁옳	-5648
▁씬	-5649
▁베리	-5650
▁식민	-5651
▁난입	-5652
▁헤어지	-5653
소녀	-5654
▁경로	-5655
▁하츠	-5656
▁나츠	-5657
▁권리	-5658
▁브루	-5659
우마	-5660
▁조리	-5661
▁도박	-5662
▁악명	-5663
▁출입	-5664
▁발리	-5665
게임	-5666
▁말투	-5667
▁복구	-5668
▁밍	-5669
▁은신	-5670
▁대선	-5671
▁that	-5672
▁건드리	-5673
▁글로벌	-5674
▁왠지	-5675
▁앗	-5676
▁외계인	-5677
▁건조	-5678
▁알아내	-5679
▁이식	-5680
▁1970	-5681
▁신전	-5682
▁트랜스	-5683
▁간접	-5684
▁업로드	-5685
▁형상	-5686
▁코멘트	-5687
▁천하	-5688
▁Fl	-5689
정부	-5690
▁윗	-5691
▁마주치	-5692
▁아미	-5693
ory	-5694
▁발달	-5695
▁레딧	-5696
▁연맹	-5697
▁와일드	-5698
▁레슬	-5699
0000	-5700
▁꾸미	-5701
▁시라	-5702
▁양성	-5703
▁하향	-5704
가리	-5705
▁에다가	-5706
▁해치	-5707
▁장탄	-5708
▁적합	-5709
▁Br	-5710
▁김대	-5711
▁디스크	-5712
▁소유자	-5713
▁이수	-5714
▁일치	-5715
▁;&	-5716
▁전이	-5717
▁anchor	-5718
▁가방	-5719
▁제약	-5720
▁명확	-5721
▁릴리	-5722
▁라이플	-5723
▁그르	-5724
▁연극	-5725
▁천만	-5726
▁유독	-5727
▁드라이버	-5728
▁내보내	-5729
▁뿜	-5730
▁이드	-5731
▁아메리카	-5732
▁사후	-5733
▁구글	-5734
▁미키	-5735
▁이펙트	-5736
▁쏟아지	-5737
▁빠져	-5738
▁정황	-5739
▁흰	-5740
▁화재	-5741
▁WWE	-5742
▁동인	-5743
▁강점	-5744
▁고도	-5745
▁그램	-5746
▁리스크	-5747
▁크림	-5748
▁가라	-5749
▁매장	-5750
▁팬텀	-5751
▁딕	-5752
▁울프	-5753
▁주택	-5754
▁&#	-5755
▁커녕	-5756
▁헌법	-5757
▁곳곳	-5758
▁띠	-5759
IP	-5760
▁끔찍	-5761
▁로얄	-5762
▁인디	-5763
▁아키라	-5764
▁리뷰	-5765
▁저택	-5766
▁실책	-5767
▁이민	-5768
포트	-5769
▁할인	-5770
▁170	-5771
▁셜	-5772
▁보완	-5773
IG	-5774
UM	-5775
▁비주얼	-5776
▁렐	-5777
▁Or	-5778
▁다이아몬드	-5779
▁암시	-5780
▁문단	-5781
▁그럭	-5782
▁백성	-5783
▁웃기	-5784
VD	-5785
▁조별	-5786
▁하이퍼	-5787
▁마블	-5788
▁평생	-5789
▁운동장	-5790
▁단축	-5791
▁라니	-5792
저럭	-5793
▁야수	-5794
▁웨이브	-5795
▁어필	-5796
어하	-5797
▁le	-5798
▁언덕	-5799
▁충실	-5800
TE	-5801
▁메이드	-5802
▁금액	-5803
▁치즈	-5804
▁그럭저럭	-5805
▁만남	-5806
▁승객	-5807
▁플래시	-5808
▁박물	-5809
▁걸맞	-5810
▁고위	-5811
▁허락	-5812
▁뻗	-5813
▁새기	-5814
▁호기	-5815
▁테츠	-5816
▁여우	-5817
▁원자	-5818
▁자이언츠	-5819
▁비스	-5820
▁by	-5821
▁토니	-5822
▁샌드	-5823
▁뽑히	-5824
▁1987	-5825
▁답변	-5826
▁덩치	-5827
▁등지	-5828
▁항공기	-5829
▁딴	-5830
▁불펜	-5831
▁헤어	-5832
▁감각	-5833
▁라라	-5834
▁파편	-5835
▁시합	-5836
▁상식	-5837
az	-5838
▁치킨	-5839
▁~!	-5840
▁승자	-5841
▁성립	-5842
▁상영	-5843
▁스웨덴	-5844
▁Dr	-5845
▁뛰어넘	-5846
▁토너	-5847
oth	-5848
▁출격	-5849
man	-5850
▁스크린	-5851
▁에르	-5852
ep	-5853
▁위반	-5854
▁기동성	-5855
▁안기	-5856
▁트롤	-5857
데미	-5858
▁입대	-5859
▁잃어버리	-5860
▁매년	-5861
▁구미	-5862
▁꼼	-5863
▁;&#	-5864
▁깔리	-5865
▁부자	-5866
▁긴장	-5867
▁시원	-5868
▁록맨	-5869
▁축복	-5870
▁도라	-5871
OU	-5872
▁필리	-5873
ale	-5874
비드	-5875
▁견디	-5876
▁급격	-5877
▁문재인	-5878
▁배트맨	-5879
▁집착	-5880
▁OP	-5881
▁흩	-5882
▁사살	-5883
▁니스	-5884
▁권장	-5885
VA	-5886
▁려던	-5887
▁꿀	-5888
▁킬러	-5889
▁서구	-5890
▁넘버	-5891
▁유학	-5892
▁평점	-5893
▁미네	-5894
▁작년	-5895
▁보드	-5896
▁플래그	-5897
▁기인	-5898
▁호칭	-5899
▁마법소녀	-5900
▁동성	-5901
▁신나	-5902
▁헐	-5903
▁일대	-5904
▁대수	-5905
▁싫어하	-5906
▁낮추	-5907
▁퇴장	-5908
▁적중	-5909
▁아카데미	-5910
▁스테이	-5911
▁우에	-5912
▁토마	-5913
▁지치	-5914
▁참가자	-5915
▁내전	-5916
▁스즈	-5917
▁창고	-5918
ky	-5919
▁스폰	-5920
▁해명	-5921
▁RPG	-5922
▁노바	-5923
▁맷	-5924
▁시공	-5925
▁곱	-5926
▁분명히	-5927
ach	-5928
▁리오	-5929
▁휘말리	-5930
쟁이	-5931
70	-5932
▁서서	-5933
▁탐험	-5934
운서	-5935
arg	-5936
▁교과	-5937
▁구름	-5938
▁아나운서	-5939
▁관할	-5940
▁중형	-5941
▁1500	-5942
▁실종	-5943
▁전주	-5944
부르크	-5945
▁열매	-5946
▁근거리	-5947
▁Sc	-5948
▁케인	-5949
다나	-5950
▁결심	-5951
▁뜨겁	-5952
리나	-5953
▁약화	-5954
▁선고	-5955
▁읍	-5956
ows	-5957
▁결합	-5958
▁용인	-5959
무시	-5960
▁학기	-5961
▁5000	-5962
▁사키	-5963
▁기운	-5964
스럽	-5965
▁리플	-5966
▁경직	-5967
▁결투	-5968
▁동점	-5969
▁정기	-5970
▁그렇지만	-5971
▁법인	-5972
▁흑인	-5973
▁팟	-5974
▁싹	-5975
▁나마	-5976
▁어판	-5977
▁타쿠	-5978
▁ㄹ게	-5979
▁해안	-5980
▁본진	-5981
갈리	-5982
orm	-5983
▁토너먼트	-5984
▁감추	-5985
▁믹스	-5986
▁호흡	-5987
▁111	-5988
▁채보	-5989
▁헝	-5990
▁전승	-5991
▁암살자	-5992
▁완결	-5993
▁호시	-5994
▁생명체	-5995
▁Team	-5996
▁솜	-5997
거지	-5998
▁마스크	-5999
▁센스	-6000
▁발렌	-6001
▁야생	-6002
▁럼	-6003
ish	-6004
▁KBO	-6005
▁두들	-6006
▁천안	-6007
▁괜히	-6008
▁페이스북	-6009
▁막내	-6010
▁수능	-6011
▁내일	-6012
▁연합군	-6013
던지	-6014
▁BB	-6015
▁악몽	-6016
▁정차	-6017
▁동아리	-6018
▁파르	-6019
▁변환	-6020
▁근본	-6021
▁박물관	-6022
▁엔드	-6023
▁}}	-6024
▁본사	-6025
▁슬라이	-6026
ae	-6027
▁불교	-6028
▁지위	-6029
GE	-6030
▁스위치	-6031
▁줍	-6032
▁우정	-6033
▁연습생	-6034
▁베타	-6035
▁보이스	-6036
ook	-6037
▁지팡이	-6038
Hz	-6039
▁와타	-6040
▁침략	-6041
▁망가지	-6042
▁소음	-6043
▁마우스	-6044
▁침묵	-6045
▁침입	-6046
▁솔직	-6047
▁장인	-6048
▁통화	-6049
▁초인	-6050
▁밀어	-6051
ug	-6052
ade	-6053
▁유발	-6054
커스	-6055
▁동급	-6056
▁면적	-6057
▁크레	-6058
▁한쪽	-6059
▁선두	-6060
▁유력	-6061
ile	-6062
▁트리플	-6063
▁통계	-6064
▁FIFA	-6065
▁부실	-6066
▁뮤지컬	-6067
▁타석	-6068
▁관리자	-6069
일보	-6070
▁참모	-6071
▁돌입	-6072
▁사용자	-6073
rom	-6074
▁리카	-6075
yle	-6076
▁대왕	-6077
▁유격	-6078
든지	-6079
▁임팩트	-6080
▁서클	-6081
▁키타	-6082
아다니	-6083
▁갈아	-6084
▁지진	-6085
▁물리치	-6086
▁마물	-6087
▁영광	-6088
▁사인	-6089
irl	-6090
ash	-6091
반도	-6092
▁법정	-6093
▁수급	-6094
ower	-6095
▁소방	-6096
▁교도	-6097
▁무작위	-6098
▁출구	-6099
▁인피	-6100
▁철수	-6101
데드	-6102
▁무시무시	-6103
▁가죽	-6104
▁1986	-6105
▁wiki	-6106
프리	-6107
▁지불	-6108
▁대거	-6109
▁프리미엄	-6110
▁우타	-6111
▁수비력	-6112
ink	-6113
▁CH	-6114
▁노스	-6115
부로	-6116
▁벙	-6117
▁가디언	-6118
▁허가	-6119
▁CG	-6120
▁균형	-6121
▁재정	-6122
▁FW	-6123
▁세팅	-6124
TS	-6125
▁무관	-6126
▁언데드	-6127
▁보험	-6128
▁임신	-6129
▁채택	-6130
▁간간	-6131
▁속이	-6132
▁통치	-6133
▁감지	-6134
펴보	-6135
▁디젤	-6136
▁살펴보	-6137
▁안개	-6138
▁폐쇄	-6139
▁콜로	-6140
▁더군다나	-6141
▁썬더	-6142
▁항복	-6143
▁인력	-6144
▁스쿨	-6145
▁질리	-6146
▁격차	-6147
▁신발	-6148
▁몽골	-6149
▁삽입	-6150
▁싸이	-6151
▁인질	-6152
▁인종	-6153
▁튼	-6154
▁막판	-6155
▁급하	-6156
▁남북	-6157
IM	-6158
atch	-6159
▁판결	-6160
▁인방	-6161
▁철저	-6162
▁바디	-6163
▁핑크	-6164
▁DD	-6165
▁비전	-6166
그리	-6167
▁기름	-6168
▁창원	-6169
▁바쁘	-6170
▁고블린	-6171
CG	-6172
▁리프	-6173
▁관계자	-6174
센트	-6175
머스	-6176
ial	-6177
▁포켓몬스터	-6178
▁이혼	-6179
▁제정	-6180
▁반박	-6181
▁경남	-6182
sh	-6183
▁단원	-6184
▁히라	-6185
▁트럼프	-6186
▁ㅂ시오	-6187
은행	-6188
▁텟	-6189
▁행하	-6190
▁we	-6191
▁유인	-6192
▁배포	-6193
▁출루	-6194
▁코르	-6195
▁여주	-6196
▁남매	-6197
▁처지	-6198
▁일본군	-6199
▁포위	-6200
▁존경	-6201
▁의외로	-6202
▁스파이더	-6203
▁후계자	-6204
▁백인	-6205
▁이타	-6206
▁고구려	-6207
▁아틀	-6208
▁여러분	-6209
▁투스	-6210
먼스	-6211
▁놀리	-6212
▁수면	-6213
▁War	-6214
래시	-6215
▁인용	-6216
▁ID	-6217
▁김경	-6218
▁체인지	-6219
▁쿠라	-6220
▁무사히	-6221
여객	-6222
▁두르	-6223
▁일당	-6224
▁복제	-6225
▁스트레스	-6226
▁복선	-6227
▁매번	-6228
▁끼우	-6229
▁께서	-6230
전차	-6231
▁골렘	-6232
▁영원히	-6233
▁동양	-6234
▁예수	-6235
▁Star	-6236
▁오늘날	-6237
▁팁	-6238
▁깨달	-6239
다보	-6240
▁챌린지	-6241
▁학습	-6242
▁개설	-6243
▁LA	-6244
▁포르투갈	-6245
▁중복	-6246
태우	-6247
▁기세	-6248
▁국당	-6249
▁캐치	-6250
▁106	-6251
▁메이플	-6252
▁준우승	-6253
코드	-6254
▁물량	-6255
▁아테	-6256
▁지리	-6257
▁소송	-6258
▁갑작	-6259
▁그린	-6260
▁어이	-6261
▁에픽	-6262
▁이글	-6263
▁동명	-6264
▁피우	-6265
▁코난	-6266
▁수출	-6267
▁레지	-6268
▁탕	-6269
필드	-6270
카이	-6271
▁보충	-6272
▁선행	-6273
▁펼쳐지	-6274
▁슬프	-6275
▁날카	-6276
▁장신	-6277
▁해머	-6278
오루	-6279
▁물고기	-6280
▁오디션	-6281
▁토크	-6282
▁간단히	-6283
▁가만히	-6284
▁대책	-6285
▁냐면	-6286
▁미나미	-6287
▁기상	-6288
▁up	-6289
▁축하	-6290
천시	-6291
▁정통	-6292
▁왜곡	-6293
▁미만	-6294
▁상담	-6295
▁네트워크	-6296
▁DVD	-6297
▁뽀	-6298
▁분열	-6299
▁오키	-6300
키지	-6301
▁이주	-6302
▁보건	-6303
▁중력	-6304
▁데이트	-6305
▁닉네임	-6306
티스	-6307
▁코트	-6308
▁PR	-6309
▁뭉치	-6310
▁해내	-6311
▁만만	-6312
▁버섯	-6313
▁피닉스	-6314
▁시크	-6315
▁멜로디	-6316
▁배정	-6317
▁잠입	-6318
▁메이커	-6319
▁웰	-6320
▁전북	-6321
▁오우	-6322
▁부드	-6323
▁공업	-6324
▁나미	-6325
▁체험	-6326
▁ON	-6327
▁혼돈	-6328
▁포즈	-6329
▁115	-6330
▁개업	-6331
▁여전	-6332
▁처분	-6333
▁벼	-6334
▁날카롭	-6335
▁하마	-6336
▁즉사	-6337
▁단행	-6338
▁해킹	-6339
▁오메	-6340
▁상한	-6341
▁후원	-6342
▁수석	-6343
▁102	-6344
▁패키지	-6345
화점	-6346
▁야마토	-6347
▁항의	-6348
▁진압	-6349
▁벨트	-6350
▁트릭	-6351
▁입주	-6352
▁선제	-6353
▁마드리	-6354
▁억지로	-6355
▁자전거	-6356
▁악기	-6357
▁아랍	-6358
▁고리	-6359
▁기동전	-6360
ING	-6361
▁기재	-6362
▁사령부	-6363
▁배역	-6364
▁fe	-6365
▁장탄수	-6366
▁은지	-6367
▁장거리	-6368
▁퍼포	-6369
▁수백	-6370
▁Ne	-6371
▁자본	-6372
▁퍼포먼스	-6373
▁서포트	-6374
ous	-6375
▁플러스	-6376
▁꿰	-6377
▁유산	-6378
▁For	-6379
amp	-6380
▁둘러싸	-6381
▁기갑	-6382
▁수명	-6383
세대	-6384
▁돔	-6385
▁마드리드	-6386
▁오스트리아	-6387
att	-6388
▁콘텐츠	-6389
▁악화	-6390
▁부드럽	-6391
▁대포	-6392
▁성전	-6393
▁}}}	-6394
▁파이트	-6395
▁라그	-6396
▁모시	-6397
▁Go	-6398
▁닛	-6399
▁야구장	-6400
▁호랑이	-6401
▁And	-6402
▁옹호	-6403
게이	-6404
▁정발	-6405
▁사이코	-6406
▁파멸	-6407
▁파동	-6408
야수	-6409
▁분쟁	-6410
▁GP	-6411
▁통로	-6412
▁대치	-6413
▁유미	-6414
▁도감	-6415
▁세부	-6416
▁이스라	-6417
▁전제	-6418
▁가공	-6419
▁뽑아내	-6420
▁우세	-6421
▁프레이	-6422
▁신입	-6423
▁토키	-6424
▁175	-6425
▁모험가	-6426
▁궁금	-6427
▁첼시	-6428
▁Cr	-6429
▁주니어	-6430
▁머무르	-6431
▁탐정	-6432
▁Wind	-6433
▁블라	-6434
▁배달	-6435
▁잠들	-6436
▁무술	-6437
▁188	-6438
▁김상	-6439
바닥	-6440
▁최상위	-6441
아키	-6442
▁논의	-6443
▁재회	-6444
▁조약	-6445
▁기력	-6446
▁젤리	-6447
▁그날	-6448
▁공정	-6449
▁광선	-6450
▁파생	-6451
▁".	-6452
▁처참	-6453
▁분해	-6454
크로	-6455
하시	-6456
어놓	-6457
자와	-6458
me	-6459
▁아르헨	-6460
▁세포	-6461
▁디즈	-6462
▁1985	-6463
▁모터	-6464
▁행방	-6465
▁시트	-6466
▁깜짝	-6467
▁진주	-6468
▁산하	-6469
▁무스	-6470
▁유성	-6471
▁wid	-6472
▁차체	-6473
▁다가가	-6474
▁노조	-6475
▁버드	-6476
▁박지	-6477
▁체감	-6478
▁장미	-6479
▁부서지	-6480
▁위안	-6481
▁마코토	-6482
ms	-6483
▁양상	-6484
▁터스	-6485
▁조우	-6486
▁리라	-6487
▁나비	-6488
텐도	-6489
▁자꾸	-6490
▁진학	-6491
▁끌려가	-6492
▁후손	-6493
▁닌텐도	-6494
▁나르	-6495
AY	-6496
가드	-6497
▁증폭	-6498
▁김진	-6499
▁비웃	-6500
▁강원도	-6501
▁롬	-6502
▁건네	-6503
▁부착	-6504
▁즈음	-6505
▁bl	-6506
▁여학생	-6507
64	-6508
▁레일	-6509
▁아르헨티나	-6510
▁계시	-6511
▁규격	-6512
▁나기	-6513
▁독재	-6514
▁카구	-6515
▁업계	-6516
▁아동	-6517
▁니콜	-6518
▁휘하	-6519
▁검술	-6520
▁고로	-6521
▁폭행	-6522
▁방치	-6523
▁주둔	-6524
▁드루	-6525
▁시카	-6526
▁관점	-6527
▁조기	-6528
▁난사	-6529
▁페널티	-6530
▁width	-6531
▁베네	-6532
▁350	-6533
12	-6534
▁al	-6535
ib	-6536
▁듀오	-6537
ft	-6538
▁전파	-6539
아이	-6540
▁Gam	-6541
벌레	-6542
▁무인	-6543
▁한두	-6544
▁공수	-6545
▁훈장	-6546
▁반부	-6547
▁만지	-6548
▁브레	-6549
▁왜냐	-6550
▁개발자	-6551
▁아아	-6552
now	-6553
▁몫	-6554
▁전무	-6555
▁PP	-6556
▁질투	-6557
▁제독	-6558
▁경주	-6559
▁톨	-6560
▁파란색	-6561
▁고장	-6562
▁BS	-6563
승부	-6564
ps	-6565
▁중세	-6566
▁스트리트	-6567
렐라	-6568
▁베테	-6569
▁IN	-6570
MP	-6571
▁택시	-6572
▁감상	-6573
▁방송국	-6574
▁측정	-6575
비전	-6576
▁소요	-6577
▁이온	-6578
▁김기	-6579
▁전동	-6580
▁감싸	-6581
▁조커	-6582
▁오염	-6583
▁중장	-6584
▁스탠드	-6585
▁면허	-6586
▁기쁘	-6587
▁이스라엘	-6588
▁뚫리	-6589
▁불량	-6590
▁능력자	-6591
▁토큰	-6592
▁세인트	-6593
oll	-6594
▁감동	-6595
▁BR	-6596
▁승무원	-6597
히코	-6598
▁루스	-6599
▁1984	-6600
▁최적	-6601
▁도저히	-6602
▁산탄	-6603
▁기원전	-6604
▁시상	-6605
▁드론	-6606
▁AKB	-6607
▁Man	-6608
▁나요	-6609
TV	-6610
▁약탈	-6611
▁부사	-6612
▁지사	-6613
▁운수	-6614
▁국판	-6615
▁후자	-6616
▁발목	-6617
▁대단히	-6618
▁트루	-6619
▁디바	-6620
▁추리	-6621
▁토시	-6622
▁유니크	-6623
▁우치	-6624
태프	-6625
▁UN	-6626
▁뒤지	-6627
▁피트	-6628
▁위성	-6629
▁신도	-6630
▁스캔	-6631
▁닝	-6632
▁기장	-6633
▁나루토	-6634
▁루머	-6635
▁sp	-6636
▁All	-6637
▁우월	-6638
▁선거구	-6639
▁에디	-6640
▁여야	-6641
▁이종	-6642
▁바론	-6643
▁브로	-6644
▁주행	-6645
▁스텝	-6646
▁코마	-6647
▁티아	-6648
▁아시안	-6649
신교	-6650
▁아레나	-6651
▁룩	-6652
▁혈액형	-6653
▁후퇴	-6654
▁히가시	-6655
▁엇	-6656
리스트	-6657
▁식민지	-6658
▁루이스	-6659
▁광장	-6660
▁상관없이	-6661
▁창단	-6662
▁베기	-6663
▁벌리	-6664
▁샷건	-6665
▁왕위	-6666
▁둠	-6667
▁Part	-6668
▁루크	-6669
▁반짝	-6670
번에	-6671
▁SU	-6672
▁나노	-6673
▁자비	-6674
▁철권	-6675
카락	-6676
▁틴	-6677
▁서서히	-6678
▁머리카락	-6679
▁KR	-6680
▁하하	-6681
▁과도	-6682
▁자녀	-6683
▁소용	-6684
▁아쉬	-6685
▁까이	-6686
▁일화	-6687
▁라이너	-6688
▁112	-6689
▁붐	-6690
▁다운로드	-6691
▁토미	-6692
▁En	-6693
▁던가	-6694
▁분당	-6695
경기	-6696
더라	-6697
▁공백	-6698
▁기둥	-6699
▁노가	-6700
▁꼬이	-6701
▁야간	-6702
▁연고	-6703
▁아가씨	-6704
▁제출	-6705
세서	-6706
▁원리	-6707
▁조용히	-6708
▁조롱	-6709
▁힐러	-6710
▁명의	-6711
▁요인	-6712
▁간호	-6713
ond	-6714
▁얻어맞	-6715
▁프렌	-6716
▁수월	-6717
▁대시	-6718
▁투척	-6719
▁DC	-6720
▁뻥	-6721
▁돌연	-6722
▁아지	-6723
▁마감	-6724
▁Sup	-6725
키퍼	-6726
▁쇼핑	-6727
▁중시	-6728
▁Fate	-6729
▁LP	-6730
▁줄거리	-6731
▁며칠	-6732
▁루피	-6733
▁캣	-6734
▁더빙	-6735
▁굵	-6736
▁라우	-6737
▁보존	-6738
▁타이거즈	-6739
▁비명	-6740
▁고증	-6741
▁Mar	-6742
▁장사	-6743
▁엑시	-6744
▁전망	-6745
필더	-6746
▁철거	-6747
▁미드필더	-6748
▁절차	-6749
▁ex	-6750
▁드림	-6751
▁듀스	-6752
▁백작	-6753
▁프란	-6754
데레	-6755
▁AN	-6756
▁108	-6757
▁막상	-6758
▁모로	-6759
▁그레	-6760
▁범죄자	-6761
▁라이온즈	-6762
▁무산	-6763
▁시신	-6764
▁스리	-6765
▁뒤늦	-6766
▁시바	-6767
▁온천	-6768
ase	-6769
▁오락	-6770
▁특급	-6771
▁쇼크	-6772
▁수동	-6773
▁합병	-6774
도리	-6775
▁저하	-6776
▁닐	-6777
▁주류	-6778
유럽	-6779
▁세라	-6780
▁리즈	-6781
ool	-6782
▁원조	-6783
▁실장	-6784
▁긴급	-6785
▁식품	-6786
▁합계	-6787
▁호소	-6788
▁려다	-6789
pl	-6790
▁배급	-6791
▁평일	-6792
▁인권	-6793
▁배드	-6794
▁여인	-6795
▁수색	-6796
▁시외	-6797
▁360	-6798
▁오이	-6799
▁경악	-6800
▁에릭	-6801
▁빅토	-6802
▁유재	-6803
▁생애	-6804
▁낙하	-6805
▁고객	-6806
▁골키퍼	-6807
▁117	-6808
블로	-6809
▁걸즈	-6810
▁타일	-6811
▁와카	-6812
▁만일	-6813
투스	-6814
▁에반	-6815
▁나폴	-6816
런트	-6817
▁꼬마	-6818
▁킷	-6819
▁우유	-6820
▁넘어지	-6821
하르트	-6822
▁마계	-6823
▁안양	-6824
▁러시	-6825
▁복합	-6826
▁청와	-6827
▁발굴	-6828
▁바스	-6829
▁지칭	-6830
▁로빈	-6831
▁잠실	-6832
▁샤이	-6833
▁직장	-6834
▁ㄴ다거나	-6835
▁택하	-6836
▁교단	-6837
▁실은	-6838
▁증상	-6839
▁One	-6840
▁막아내	-6841
▁의자	-6842
▁임금	-6843
▁방위	-6844
▁성당	-6845
▁스포일러	-6846
▁확장팩	-6847
▁강림	-6848
▁어시스트	-6849
▁공인	-6850
비치	-6851
▁살아나	-6852
▁부임	-6853
산시	-6854
▁개별	-6855
▁폭파	-6856
▁남아	-6857
▁로이	-6858
▁고소	-6859
▁청와대	-6860
▁팡	-6861
▁국경	-6862
▁때려	-6863
▁유의	-6864
▁그라운드	-6865
▁꽉	-6866
▁기묘	-6867
▁당당	-6868
▁코스튬	-6869
▁여고	-6870
▁예고편	-6871
▁배수	-6872
플레이	-6873
▁뱅크	-6874
ree	-6875
▁로버트	-6876
ph	-6877
▁거북	-6878
▁포스터	-6879
▁교복	-6880
▁청주	-6881
▁뱃	-6882
▁특별히	-6883
틀러	-6884
▁후회	-6885
▁오로지	-6886
▁개장	-6887
▁히든	-6888
▁학생회	-6889
▁통틀	-6890
구나	-6891
▁명백	-6892
▁As	-6893
▁선사	-6894
▁아이러	-6895
▁헨리	-6896
▁New	-6897
학자	-6898
▁극도	-6899
▁시로	-6900
▁하이라이트	-6901
▁역습	-6902
▁도트	-6903
▁집어넣	-6904
ason	-6905
▁회담	-6906
▁프린세스	-6907
▁조명	-6908
카이도	-6909
▁퍼즐	-6910
▁수염	-6911
▁엎	-6912
베스	-6913
▁끊임	-6914
▁여객	-6915
▁케이드	-6916
aby	-6917
▁ㅂ니까	-6918
▁쓸데	-6919
▁개신교	-6920
▁FM	-6921
▁뜬금없이	-6922
불명	-6923
▁103	-6924
▁Oh	-6925
우치	-6926
ai	-6927
불호	-6928
▁렌즈	-6929
▁호불호	-6930
▁되살	-6931
▁술사	-6932
▁실존	-6933
▁둘러보	-6934
▁관찰	-6935
▁트레일러	-6936
▁오더	-6937
▁비스트	-6938
릴라	-6939
▁휠	-6940
▁모집	-6941
▁GO	-6942
▁흰색	-6943
우리	-6944
▁헷	-6945
▁사리	-6946
▁불행	-6947
▁양손	-6948
▁되게	-6949
▁마케	-6950
▁성질	-6951
▁금메달	-6952
▁니아	-6953
▁사야	-6954
크라	-6955
저리	-6956
▁JP	-6957
▁바지	-6958
▁유기	-6959
▁매출	-6960
▁에로	-6961
▁어쩌면	-6962
▁동경	-6963
▁보라색	-6964
▁220	-6965
리온	-6966
▁1960	-6967
▁부동	-6968
▁장로	-6969
▁묶이	-6970
▁셔틀	-6971
▁라크	-6972
▁트레이너	-6973
▁유언	-6974
▁CS	-6975
러그	-6976
▁라즈	-6977
ment	-6978
▁올스타	-6979
▁캘	-6980
도르	-6981
▁비틀	-6982
▁프로토	-6983
▁과학자	-6984
▁z	-6985
▁우주선	-6986
▁모듈	-6987
▁지인	-6988
▁샵	-6989
▁UE	-6990
▁결계	-6991
▁물품	-6992
▁오브젝트	-6993
▁심의	-6994
▁부딪히	-6995
▁코미디	-6996
▁항구	-6997
▁타르	-6998
▁캐시	-6999
▁윈드	-7000
▁유망	-7001
▁여파	-7002
▁240	-7003
키아	-7004
▁회색	-7005
▁타이탄	-7006
▁손상	-7007
에이	-7008
▁웨스트	-7009
▁tv	-7010
▁원곡	-7011
▁각오	-7012
▁나스	-7013
▁초콜	-7014
▁지향	-7015
▁법칙	-7016
▁세뇌	-7017
oon	-7018
돌이	-7019
▁연봉	-7020
▁비유	-7021
▁폐기	-7022
▁우즈	-7023
▁알라	-7024
▁태평양	-7025
▁포탄	-7026
마크	-7027
▁이와	-7028
▁엘리자	-7029
▁un	-7030
▁진격	-7031
▁거든	-7032
▁무승부	-7033
▁풋	-7034
▁128	-7035
▁홀드	-7036
▁손실	-7037
▁정반	-7038
싱턴	-7039
▁드로우	-7040
MS	-7041
▁국정	-7042
▁김용	-7043
베이	-7044
▁유출	-7045
▁달려가	-7046
▁두렵	-7047
▁붙잡히	-7048
90	-7049
▁광산	-7050
▁포장	-7051
▁치열	-7052
▁건국	-7053
▁늙	-7054
▁이글스	-7055
▁국장	-7056
▁신선	-7057
▁무공	-7058
act	-7059
▁갤러	-7060
▁장판	-7061
ox	-7062
▁즉위	-7063
▁브라운	-7064
▁제네	-7065
▁맥주	-7066
▁날뛰	-7067
▁중순	-7068
▁따뜻	-7069
라노	-7070
▁우드	-7071
▁제갈량	-7072
▁임기	-7073
▁슬로	-7074
저기	-7075
▁코믹	-7076
▁영지	-7077
▁함부로	-7078
토스	-7079
▁패전	-7080
▁엄밀	-7081
▁단기	-7082
▁워크래프트	-7083
▁짐승	-7084
ARD	-7085
▁클론	-7086
▁노동자	-7087
▁반감	-7088
▁닷	-7089
▁트랩	-7090
▁모스	-7091
▁서머	-7092
▁두들기	-7093
▁깎이	-7094
▁넘어서	-7095
▁탐지	-7096
▁네티	-7097
메이	-7098
hen	-7099
▁스핀	-7100
▁박살나	-7101
▁배려	-7102
▁이웃	-7103
▁아바타	-7104
▁TVA	-7105
▁여기저기	-7106
▁리버풀	-7107
▁최우	-7108
▁합리	-7109
▁%/	-7110
▁사이클	-7111
▁쿤	-7112
▁계수	-7113
▁양자	-7114
▁리안	-7115
▁간주	-7116
▁섀도우	-7117
▁커스텀	-7118
▁안심	-7119
▁하프	-7120
▁하스	-7121
▁독점	-7122
ank	-7123
▁기수	-7124
▁신데	-7125
▁로이드	-7126
▁관통력	-7127
▁라틴	-7128
▁트로피	-7129
▁트리거	-7130
뻐하	-7131
▁기뻐하	-7132
▁샬	-7133
▁알렉스	-7134
▁트라우마	-7135
▁당대	-7136
▁생전	-7137
▁이모	-7138
▁ㄹ려	-7139
▁신용	-7140
▁스나이	-7141
▁단검	-7142
▁백제	-7143
▁방탄	-7144
▁신자	-7145
▁레온	-7146
▁지연	-7147
▁여럿	-7148
▁원더	-7149
▁김준	-7150
▁흔들	-7151
▁장난감	-7152
▁대조	-7153
▁휴가	-7154
▁키라	-7155
깨비	-7156
▁상륙	-7157
▁World	-7158
▁소프트웨어	-7159
▁JT	-7160
▁벤치	-7161
▁사립	-7162
▁시비	-7163
▁콤비	-7164
▁야쿠	-7165
▁마땅	-7166
▁옐	-7167
▁디시	-7168
▁단종	-7169
아치	-7170
▁날씨	-7171
▁일요일	-7172
▁아이러니	-7173
포르	-7174
ich	-7175
▁디즈니	-7176
▁신데렐라	-7177
ary	-7178
▁우익	-7179
▁시인	-7180
lect	-7181
▁프라임	-7182
▁후미	-7183
▁Mk	-7184
▁챔피언십	-7185
▁토요일	-7186
▁밀어내	-7187
▁1982	-7188
▁태국	-7189
▁빨간	-7190
▁혜택	-7191
ife	-7192
▁신속	-7193
려받	-7194
▁려다가	-7195
▁수습	-7196
▁손오	-7197
블리	-7198
▁방송사	-7199
▁네티즌	-7200
▁쉴	-7201
▁선임	-7202
란히	-7203
ear	-7204
▁음료	-7205
▁쳐들	-7206
▁파밍	-7207
▁시리아	-7208
▁센서	-7209
▁카더라	-7210
▁변수	-7211
▁추세	-7212
▁스트라이커	-7213
▁서기	-7214
하마	-7215
▁권유	-7216
에르	-7217
▁서바이	-7218
▁근원	-7219
▁스피릿	-7220
▁도장	-7221
▁막강	-7222
반기	-7223
▁사법	-7224
▁순양함	-7225
▁독일군	-7226
▁실내	-7227
▁권위	-7228
▁허무	-7229
▁갚	-7230
uk	-7231
▁지목	-7232
▁의학	-7233
▁LIVE	-7234
렉션	-7235
▁라스트	-7236
▁벡	-7237
▁SF	-7238
▁슬라	-7239
ET	-7240
▁당사자	-7241
하나	-7242
▁상사	-7243
▁버스트	-7244
▁약물	-7245
▁파울	-7246
▁동속	-7247
▁빠져나가	-7248
싸움	-7249
▁키보드	-7250
11	-7251
▁후임	-7252
▁끓	-7253
▁경호	-7254
▁전남	-7255
쿠라	-7256
키리	-7257
▁결제	-7258
▁추방	-7259
▁탭	-7260
▁쓰리	-7261
▁마카	-7262
▁지력	-7263
사리	-7264
▁김해	-7265
▁나아지	-7266
사기	-7267
▁185	-7268
▁Day	-7269
▁흡사	-7270
▁배출	-7271
way	-7272
타카	-7273
▁유혹	-7274
▁선장	-7275
▁짐작	-7276
▁all	-7277
▁구조물	-7278
ple	-7279
▁표면	-7280
▁극히	-7281
▁실시간	-7282
▁얽	-7283
▁후반기	-7284
▁낙선	-7285
▁드레스	-7286
▁엽	-7287
▁논쟁	-7288
▁근접전	-7289
▁기호	-7290
▁끌리	-7291
▁토하	-7292
▁조상	-7293
▁경북	-7294
▁Fr	-7295
▁전생	-7296
▁태클	-7297
▁1983	-7298
▁정석	-7299
▁니혼	-7300
▁진상	-7301
▁유전자	-7302
▁당기	-7303
▁침대	-7304
▁도리	-7305
▁차갑	-7306
▁로보	-7307
▁감수	-7308
▁스타디	-7309
▁패밀리	-7310
▁매니아	-7311
▁설령	-7312
▁좌절	-7313
노리	-7314
▁비비	-7315
▁창설	-7316
▁포획	-7317
▁강사	-7318
▁울트라맨	-7319
▁간간히	-7320
▁페리	-7321
숭이	-7322
▁조르	-7323
▁lv	-7324
▁{{{#	-7325
▁합동	-7326
ype	-7327
▁오지	-7328
나미	-7329
▁마피아	-7330
▁성배	-7331
▁nd	-7332
▁119	-7333
▁비극	-7334
▁역임	-7335
▁원형	-7336
▁시온	-7337
▁돋보이	-7338
ens	-7339
▁DPS	-7340
▁물체	-7341
▁집권	-7342
▁범용	-7343
▁소모량	-7344
▁중상	-7345
aster	-7346
▁백화점	-7347
▁MB	-7348
▁다투	-7349
▁쏠	-7350
▁낭비	-7351
▁손오공	-7352
▁튼튼	-7353
▁특공	-7354
orn	-7355
▁피로	-7356
▁정교	-7357
▁거스	-7358
▁구동	-7359
▁해병대	-7360
▁퀵	-7361
ork	-7362
▁연구원	-7363
▁홀리	-7364
▁가두	-7365
▁빌딩	-7366
▁출혈	-7367
▁페어	-7368
▁베어스	-7369
▁전날	-7370
▁명목	-7371
▁go	-7372
▁미궁	-7373
▁사무소	-7374
▁한반도	-7375
▁지선	-7376
▁동남	-7377
▁여서	-7378
▁생체	-7379
▁엄격	-7380
▁변태	-7381
▁삼각	-7382
▁마트	-7383
스티벌	-7384
▁페스티벌	-7385
▁DP	-7386
▁콘솔	-7387
▁부스트	-7388
▁104	-7389
▁123	-7390
▁수직	-7391
▁질병	-7392
▁헤르	-7393
▁사악	-7394
▁Wi	-7395
▁미미	-7396
▁공감	-7397
▁스태프	-7398
▁복원	-7399
▁땡	-7400
▁Ad	-7401
▁배제	-7402
▁베테랑	-7403
▁강렬	-7404
▁Sw	-7405
▁의장	-7406
▁RA	-7407
▁are	-7408
▁위로	-7409
▁AA	-7410
▁래퍼	-7411
▁질주	-7412
▁엑시즈	-7413
▁호남	-7414
▁오메가	-7415
▁OVA	-7416
ans	-7417
▁특별시	-7418
▁제치	-7419
▁109	-7420
▁바나	-7421
▁실상	-7422
▁Up	-7423
▁따라오	-7424
▁하인	-7425
▁젖	-7426
▁개국	-7427
▁동행	-7428
▁관측	-7429
▁대타	-7430
버그	-7431
사이	-7432
▁직선	-7433
▁넘어오	-7434
▁단행본	-7435
▁스즈키	-7436
▁데이비드	-7437
▁빨간색	-7438
▁탐색	-7439
▁style	-7440
▁공대	-7441
▁제물	-7442
▁KOF	-7443
▁토요	-7444
ons	-7445
▁본토	-7446
▁양반	-7447
▁쨩	-7448
▁케이블	-7449
▁페미니	-7450
▁쌀	-7451
▁스플	-7452
▁거칠	-7453
▁진급	-7454
ey	-7455
▁도깨비	-7456
▁리코	-7457
▁do	-7458
▁전락	-7459
▁우측	-7460
▁약자	-7461
▁장성	-7462
▁디펜	-7463
▁블로	-7464
▁브레이커	-7465
▁센트	-7466
▁밀려나	-7467
▁앰	-7468
▁관여	-7469
▁광기	-7470
▁연쇄	-7471
very	-7472
▁무실	-7473
▁거론	-7474
▁을수록	-7475
NA	-7476
▁선조	-7477
▁되돌	-7478
▁라그나	-7479
▁ES	-7480
▁메리트	-7481
▁우호	-7482
▁잉여	-7483
▁총합	-7484
▁III	-7485
▁본관	-7486
ung	-7487
공항	-7488
▁변동	-7489
▁스테이션	-7490
▁아스카	-7491
▁마타	-7492
▁바둑	-7493
▁손쉽	-7494
▁여의	-7495
렉스	-7496
차기	-7497
▁촉수	-7498
▁UEFA	-7499
▁히로시	-7500
▁워싱턴	-7501
▁전격	-7502
▁소니	-7503
▁오노	-7504
▁인재	-7505
▁유탄	-7506
▁세금	-7507
▁백업	-7508
타입	-7509
▁한창	-7510
▁군수	-7511
▁논문	-7512
▁해양	-7513
▁단발	-7514
▁고무	-7515
▁훼손	-7516
▁코토	-7517
나오	-7518
▁친절	-7519
▁위엄	-7520
▁메일	-7521
능력	-7522
▁스와	-7523
EM	-7524
▁구장	-7525
▁수비수	-7526
▁장애물	-7527
▁오니	-7528
▁축소	-7529
▁하급	-7530
▁대박	-7531
▁리모	-7532
▁스타디움	-7533
▁마술사	-7534
▁에이지	-7535
▁응용	-7536
▁프리미어	-7537
▁그랑	-7538
▁긁	-7539
나기	-7540
▁땅볼	-7541
박스	-7542
▁카를	-7543
▁중지	-7544
▁벅	-7545
▁라가	-7546
▁스위스	-7547
▁박살내	-7548
▁성실	-7549
▁민주주의	-7550
▁역명	-7551
께끼	-7552
▁수수께끼	-7553
▁어색	-7554
▁형편	-7555
▁할로	-7556
▁마오	-7557
▁강호	-7558
▁명문	-7559
▁돌보	-7560
▁자네	-7561
anc	-7562
▁트윈스	-7563
▁취업	-7564
▁치카	-7565
▁구성원	-7566
AK	-7567
▁데빌	-7568
▁최저	-7569
ll	-7570
▁역량	-7571
▁짙	-7572
▁안쪽	-7573
▁확산	-7574
▁징역	-7575
▁Windows	-7576
▁제왕	-7577
▁미지	-7578
▁바르셀	-7579
▁노란색	-7580
▁바르셀로나	-7581
▁재학	-7582
▁워크	-7583
▁겜	-7584
▁노가다	-7585
▁우회	-7586
▁츠카	-7587
▁코바	-7588
▁빈도	-7589
체스터	-7590
▁유망주	-7591
우트	-7592
▁메카닉	-7593
▁초콜릿	-7594
▁경상북도	-7595
▁카카오	-7596
▁창문	-7597
▁원피스	-7598
▁공통점	-7599
▁ne	-7600
▁란스	-7601
▁천연	-7602
▁딸리	-7603
▁이현	-7604
▁리퍼	-7605
▁인자	-7606
▁키미	-7607
▁강등	-7608
▁여타	-7609
▁깃발	-7610
▁고스	-7611
▁윈도우	-7612
▁대행	-7613
▁썸	-7614
▁렉스	-7615
▁힙합	-7616
누스	-7617
▁책임지	-7618
▁과자	-7619
▁중고	-7620
35	-7621
▁as	-7622
▁분산	-7623
▁우승자	-7624
argin	-7625
▁산타	-7626
▁부작용	-7627
▁온도	-7628
▁승차	-7629
▁티스	-7630
▁폴리	-7631
▁끌어올리	-7632
▁포터	-7633
▁유료	-7634
▁껍	-7635
▁퇴각	-7636
▁마유	-7637
▁굴욕	-7638
ero	-7639
지막지	-7640
▁무지막지	-7641
▁en	-7642
▁레이디	-7643
▁불쌍	-7644
▁농장	-7645
▁수인	-7646
▁어나	-7647
▁구독	-7648
▁전당	-7649
▁드래곤볼	-7650
▁통칭	-7651
▁고는	-7652
▁취득	-7653
▁봉쇄	-7654
▁엔지	-7655
▁최선	-7656
▁스미스	-7657
▁젬	-7658
▁동반	-7659
▁시상식	-7660
모스	-7661
▁이병	-7662
▁관우	-7663
▁대령	-7664
▁스노우	-7665
루미	-7666
▁Station	-7667
▁발판	-7668
▁대접	-7669
벤처	-7670
▁187	-7671
▁Ph	-7672
▁클린	-7673
▁터트리	-7674
▁어드벤처	-7675
▁평하	-7676
▁파도	-7677
▁루프	-7678
▁올드	-7679
▁성씨	-7680
oss	-7681
▁Qu	-7682
▁LO	-7683
▁no	-7684
브라	-7685
▁챔프	-7686
▁츠바	-7687
▁margin	-7688
▁그립	-7689
▁화산	-7690
▁크레이	-7691
▁레이어	-7692
▁번지	-7693
▁어벤	-7694
▁So	-7695
▁진에	-7696
▁로맨	-7697
▁규제	-7698
▁블레이	-7699
▁렘	-7700
동자	-7701
▁ML	-7702
▁급행	-7703
▁다이스	-7704
▁발키리	-7705
▁공산당	-7706
▁발행	-7707
▁이대로	-7708
▁오스만	-7709
▁천천	-7710
▁요한	-7711
▁135	-7712
▁원시	-7713
▁잔인	-7714
▁카마	-7715
▁결혼식	-7716
▁후드	-7717
▁대전차	-7718
▁공단	-7719
▁매드	-7720
▁210	-7721
▁평양	-7722
▁머니	-7723
▁톡	-7724
ise	-7725
▁사족	-7726
▁빙판	-7727
▁강간	-7728
pt	-7729
▁손님	-7730
▁변이	-7731
▁표절	-7732
▁가난	-7733
구장	-7734
▁잊히	-7735
▁겔	-7736
port	-7737
▁황후	-7738
▁타치	-7739
▁시사	-7740
▁주사위	-7741
▁손꼽	-7742
▁씌우	-7743
99	-7744
▁121	-7745
▁국무	-7746
▁신중	-7747
▁소재지	-7748
▁요미	-7749
▁검열	-7750
▁미오	-7751
▁외우	-7752
▁카리스	-7753
▁수지	-7754
▁경연	-7755
▁인과	-7756
▁침투	-7757
▁스케일	-7758
ical	-7759
▁멍청	-7760
▁사로	-7761
▁피카	-7762
AP	-7763
▁아베	-7764
▁특훈	-7765
▁예약	-7766
▁아깝	-7767
네마	-7768
▁으려는	-7769
▁블리자드	-7770
▁107	-7771
▁여포	-7772
▁와인	-7773
베이터	-7774
▁선출	-7775
▁개척	-7776
▁쿵	-7777
▁저렇	-7778
▁와이번	-7779
구미	-7780
셔널	-7781
▁뮌	-7782
▁스택	-7783
▁목걸이	-7784
▁게이머	-7785
▁쯔	-7786
▁스타리그	-7787
▁지오	-7788
▁열혈	-7789
▁김수	-7790
▁캄	-7791
▁세리	-7792
▁페어리	-7793
▁주체	-7794
▁Ver	-7795
군가	-7796
▁천천히	-7797
으로	-7798
▁쇄	-7799
▁난무	-7800
▁왼손	-7801
▁신동	-7802
▁여섯	-7803
▁으라고	-7804
▁이라크	-7805
▁호크	-7806
▁MG	-7807
▁강경	-7808
▁강민	-7809
▁마인드	-7810
▁끊임없이	-7811
▁패자	-7812
▁엔트리	-7813
▁1981	-7814
리스타	-7815
▁꿈꾸	-7816
모함	-7817
▁!"	-7818
▁인칭	-7819
▁사체	-7820
▁타츠	-7821
▁간지	-7822
▁이순	-7823
▁케빈	-7824
▁누군가	-7825
▁부재	-7826
▁지수	-7827
▁기부	-7828
▁어나더	-7829
▁퍼스트	-7830
▁신지	-7831
다운	-7832
▁불태우	-7833
▁시외버스	-7834
▁광물	-7835
루션	-7836
▁조종사	-7837
▁사관	-7838
▁프랑스어	-7839
▁워프	-7840
▁큰	-7841
▁사수	-7842
▁주관	-7843
테이션	-7844
▁제재	-7845
▁교토	-7846
▁대성	-7847
▁점검	-7848
ign	-7849
▁김지	-7850
▁중거리	-7851
하루	-7852
▁슌	-7853
▁--	-7854
베리	-7855
▁명분	-7856
▁끌어들이	-7857
▁혈통	-7858
▁소통	-7859
▁ㅋ	-7860
▁답답	-7861
▁덤비	-7862
스레	-7863
▁소금	-7864
▁기리	-7865
▁압권	-7866
▁서식	-7867
▁모니터	-7868
게이머	-7869
▁프로게이머	-7870
▁그레이트	-7871
▁스티븐	-7872
니시	-7873
▁감탄	-7874
▁폭스	-7875
▁pl	-7876
▁트윗	-7877
▁고시	-7878
▁맞붙	-7879
▁스컬	-7880
▁선진	-7881
▁토지	-7882
▁미국인	-7883
▁무용	-7884
▁이노	-7885
▁김승	-7886
▁첫째	-7887
▁미정	-7888
▁철갑	-7889
▁미러	-7890
▁파랗	-7891
▁냉정	-7892
▁출간	-7893
어드	-7894
▁루리	-7895
▁love	-7896
▁자존	-7897
▁첸	-7898
▁모델링	-7899
▁엄연히	-7900
▁동해	-7901
▁다지	-7902
▁점유	-7903
▁프론	-7904
▁알바	-7905
▁평론	-7906
▁레인지	-7907
▁이라도	-7908
▁해산	-7909
▁라마	-7910
▁경찰서	-7911
IR	-7912
gh	-7913
▁너머	-7914
▁카시	-7915
▁흙	-7916
▁임의	-7917
테일	-7918
▁폭격기	-7919
▁TR	-7920
▁망토	-7921
▁사사	-7922
▁아스트	-7923
▁헷갈리	-7924
센스	-7925
▁공격수	-7926
▁자제	-7927
▁페스	-7928
▁오죽	-7929
▁크라이	-7930
▁Sk	-7931
▁장타	-7932
▁구별	-7933
바나	-7934
▁이경	-7935
▁러스	-7936
▁중동	-7937
▁라이즈	-7938
▁친분	-7939
▁고사	-7940
▁플랜	-7941
▁용자	-7942
▁날아다니	-7943
ail	-7944
▁마일	-7945
▁연산	-7946
▁하여	-7947
▁주최	-7948
▁리나	-7949
▁보좌	-7950
▁186	-7951
▁math	-7952
▁재개	-7953
▁도어	-7954
▁외곽	-7955
▁풍부	-7956
▁개교	-7957
▁화상	-7958
▁내버리	-7959
▁쫒	-7960
▁물어	-7961
▁JTBC	-7962
▁중위	-7963
▁비기	-7964
▁실사	-7965
▁본능	-7966
urn	-7967
▁항공모함	-7968
▁상무	-7969
▁이대	-7970
▁엣	-7971
ode	-7972
▁마산	-7973
▁디오	-7974
▁질서	-7975
▁카레	-7976
▁유니버스	-7977
추어	-7978
민주	-7979
▁열정	-7980
VER	-7981
▁맹세	-7982
▁어이없	-7983
▁크래프트	-7984
ence	-7985
▁불능	-7986
▁Super	-7987
▁고속도로	-7988
▁유입	-7989
▁초능력	-7990
▁사퇴	-7991
▁트릴	-7992
틀랜드	-7993
▁To	-7994
▁동정	-7995
▁그릇	-7996
▁하나하나	-7997
▁영감	-7998
▁웜	-7999
▁BJ	-8000
▁고집	-8001
▁스폰서	-8002
▁(	-8003
▁공속	-8004
▁납득	-8005
▁지부	-8006
▁정신력	-8007
▁122	-8008
▁우울	-8009
▁왜냐하면	-8010
▁군요	-8011
▁국제공항	-8012
▁변장	-8013
▁Dream	-8014
▁비리	-8015
▁시타	-8016
의자	-8017
▁찬성	-8018
▁EC	-8019
▁박성	-8020
바지	-8021
▁김유	-8022
▁뉘	-8023
▁삼성전자	-8024
▁라이언	-8025
▁광경	-8026
▁검정	-8027
▁어설	-8028
▁레시	-8029
▁코노	-8030
▁유연	-8031
▁기스	-8032
▁에디션	-8033
!!	-8034
▁인벤	-8035
▁="	-8036
▁LE	-8037
▁리틀	-8038
▁사무실	-8039
이동	-8040
▁애칭	-8041
▁까마	-8042
▁몸통	-8043
▁기본기	-8044
▁벙커	-8045
▁중점	-8046
▁로키	-8047
▁출범	-8048
▁근대	-8049
라미	-8050
▁작정	-8051
▁올바르	-8052
▁확신	-8053
▁템플	-8054
▁히틀러	-8055
▁쉴드	-8056
▁극대	-8057
▁우마	-8058
▁평상	-8059
▁법사	-8060
▁멋대로	-8061
▁엘리베이터	-8062
▁닦	-8063
배우	-8064
▁하치	-8065
▁원숭이	-8066
▁꺼리	-8067
▁EXP	-8068
▁장례	-8069
▁박수	-8070
▁홋	-8071
▁카자	-8072
▁갑작스럽	-8073
▁토트	-8074
ier	-8075
▁스가	-8076
▁김포	-8077
▁광명	-8078
▁마모	-8079
▁엘레	-8080
▁에버	-8081
▁체결	-8082
▁민국	-8083
▁아쿠아	-8084
▁춥	-8085
▁만능	-8086
▁1979	-8087
▁곡인	-8088
▁카쿠	-8089
▁슈퍼맨	-8090
▁총장	-8091
▁유치원	-8092
이나	-8093
IX	-8094
▁145	-8095
▁워즈	-8096
▁창작물	-8097
▁일가	-8098
▁투쟁	-8099
▁도색	-8100
▁출산	-8101
▁퍽	-8102
▁카네	-8103
ble	-8104
▁브라더스	-8105
▁워리어	-8106
▁이어받	-8107
▁무제	-8108
▁청구	-8109
▁쳐들어	-8110
▁롤러	-8111
▁부근	-8112
▁모임	-8113
▁블럭	-8114
▁할리	-8115
▁매주	-8116
▁조카	-8117
▁만주	-8118
▁변명	-8119
워즈	-8120
▁슬픔	-8121
▁부스	-8122
oun	-8123
▁헬멧	-8124
▁비키	-8125
▁테이블	-8126
▁IM	-8127
▁후일	-8128
▁유격수	-8129
▁실현	-8130
▁가이드	-8131
▁이누	-8132
▁NO	-8133
▁Ap	-8134
▁부천	-8135
▁닥치	-8136
▁펭	-8137
▁방심	-8138
▁튜버	-8139
▁타구	-8140
▁113	-8141
▁암호	-8142
▁무실점	-8143
▁씨앗	-8144
▁쿠니	-8145
▁재앙	-8146
iver	-8147
▁풍선	-8148
▁마운	-8149
▁can	-8150
▁우루	-8151
이치로	-8152
▁왕복	-8153
▁히스	-8154
▁헝가리	-8155
▁고등학생	-8156
▁165	-8157
▁항모	-8158
▁학급	-8159
▁호러	-8160
▁기차	-8161
▁복사	-8162
▁스쿼	-8163
▁철저히	-8164
▁동전	-8165
▁이카	-8166
▁터보	-8167
▁인접	-8168
▁브라이언	-8169
▁명사	-8170
▁ㅔ	-8171
▁검증	-8172
▁노무	-8173
ott	-8174
▁IT	-8175
▁부시	-8176
▁글씨	-8177
▁몰살	-8178
▁병역	-8179
▁엉망	-8180
▁각인	-8181
▁포탈	-8182
▁케이크	-8183
▁사연	-8184
▁1950	-8185
▁손자	-8186
▁아처	-8187
▁상주	-8188
역사	-8189
▁레이블	-8190
▁144	-8191
▁이이	-8192
▁리가	-8193
▁운송	-8194
▁넬	-8195
▁엄밀히	-8196
▁인성	-8197
▁카지	-8198
▁쿠마	-8199
리안	-8200
▁알레	-8201
▁ATK	-8202
▁달려들	-8203
▁CM	-8204
▁155	-8205
▁생김	-8206
▁절친	-8207
▁유우키	-8208
▁시뮬	-8209
▁사투	-8210
▁옥상	-8211
슬라	-8212
▁화폐	-8213
▁세로	-8214
▁쿠데	-8215
▁Max	-8216
▁매트	-8217
▁조국	-8218
▁연전	-8219
▁통째	-8220
▁젼	-8221
▁승인	-8222
지르	-8223
▁제니	-8224
▁품질	-8225
▁연수	-8226
▁영양	-8227
▁쫓겨나	-8228
아들	-8229
▁간섭	-8230
페이	-8231
▁방학	-8232
폭탄	-8233
▁죄책	-8234
▁사로잡	-8235
▁흩어지	-8236
▁독일어	-8237
▁현금	-8238
▁상금	-8239
▁아무튼	-8240
▁ERA	-8241
진호	-8242
▁마당	-8243
▁츤	-8244
▁BD	-8245
▁제리	-8246
▁유재석	-8247
▁114	-8248
▁마음대로	-8249
▁목사	-8250
▁at	-8251
▁입문	-8252
▁습니까	-8253
II	-8254
uck	-8255
▁일곱	-8256
▁엔지니어	-8257
▁천장	-8258
코트	-8259
▁햇	-8260
자치	-8261
▁함락	-8262
▁알아채	-8263
▁집회	-8264
▁히카	-8265
▁양식	-8266
▁원전	-8267
▁시크릿	-8268
▁바쿠	-8269
▁페르소	-8270
▁뮌헨	-8271
▁스나이퍼	-8272
oh	-8273
▁우연	-8274
▁깊이	-8275
▁사나	-8276
▁유카	-8277
▁거지	-8278
▁유메	-8279
▁아자	-8280
▁스틱	-8281
▁비우	-8282
▁지로	-8283
▁다큐	-8284
▁수위	-8285
▁솟	-8286
▁동대	-8287
▁죄책감	-8288
▁화해	-8289
▁기동력	-8290
▁호드	-8291
▁미르	-8292
▁샐	-8293
▁혁신	-8294
▁리본	-8295
▁스카우트	-8296
eah	-8297
▁쿠스	-8298
▁시모	-8299
▁개구리	-8300
▁멧	-8301
▁부패	-8302
▁성경	-8303
▁손꼽히	-8304
▁전동차	-8305
▁초록색	-8306
▁할로윈	-8307
▁스피어	-8308
▁감자	-8309
▁이케	-8310
▁참사	-8311
▁승진	-8312
▁전향	-8313
▁티저	-8314
▁궁합	-8315
▁용암	-8316
▁스티브	-8317
▁ㄴ데다	-8318
▁토대	-8319
▁오렌	-8320
▁이놈	-8321
▁너스	-8322
▁다거나	-8323
▁코스프레	-8324
가루	-8325
주교	-8326
▁친애	-8327
▁정문	-8328
▁최순	-8329
▁호의	-8330
▁종결	-8331
끼리	-8332
▁750	-8333
▁GK	-8334
▁메트로	-8335
▁녹화	-8336
▁고아	-8337
네시아	-8338
▁사무라이	-8339
▁러쉬	-8340
케이션	-8341
▁정반대	-8342
▁레나	-8343
▁아드	-8344
▁현자	-8345
변이	-8346
▁깨끗	-8347
▁맞히	-8348
▁돌연변이	-8349
▁이소	-8350
▁아리아	-8351
▁토우	-8352
▁한나라	-8353
▁자율	-8354
▁..?	-8355
▁페르소나	-8356
▁만점	-8357
▁디자이너	-8358
야시	-8359
▁시게	-8360
▁미성	-8361
▁평행	-8362
방송	-8363
▁OS	-8364
▁한나라당	-8365
▁은폐	-8366
▁원장	-8367
▁협의	-8368
▁this	-8369
▁메이지	-8370
▁이력	-8371
▁아이디어	-8372
bs	-8373
▁필리핀	-8374
▁미인	-8375
▁떨치	-8376
▁아오이	-8377
int	-8378
▁오퍼	-8379
▁교과서	-8380
▁기후	-8381
▁풍기	-8382
▁진에어	-8383
▁흑마	-8384
▁대위	-8385
떨어지	-8386
▁자칭	-8387
▁도약	-8388
▁HE	-8389
▁Season	-8390
▁항해	-8391
▁AB	-8392
▁450	-8393
▁유전	-8394
▁이스트	-8395
▁정성	-8396
▁나이프	-8397
▁적절히	-8398
▁저글	-8399
▁스매	-8400
▁지분	-8401
▁종영	-8402
▁잭슨	-8403
▁합작	-8404
▁실체	-8405
▁충족	-8406
▁갯	-8407
▁흡혈귀	-8408
▁from	-8409
▁뺏기	-8410
▁NBA	-8411
▁파스	-8412
운동	-8413
▁로라	-8414
▁에미	-8415
▁다니엘	-8416
▁치안	-8417
▁브론	-8418
IL	-8419
▁{{{-	-8420
▁동서	-8421
▁이틀	-8422
▁자이언트	-8423
▁tr	-8424
▁부러지	-8425
▁지혜	-8426
▁가위	-8427
▁학문	-8428
▁리사	-8429
▁사와	-8430
▁좌측	-8431
▁마에	-8432
▁얼티	-8433
▁트래	-8434
▁여단	-8435
ose	-8436
크리	-8437
itt	-8438
▁EXT	-8439
직자	-8440
▁욕설	-8441
▁일관	-8442
▁레코드	-8443
▁시골	-8444
▁마기	-8445
▁임하	-8446
▁가담	-8447
▁스타트	-8448
▁이태	-8449
▁흘러가	-8450
▁히드라	-8451
철도	-8452
▁ㄹ래	-8453
▁EZ	-8454
▁침착	-8455
▁피자	-8456
▁La	-8457
▁외국어	-8458
▁헥	-8459
▁얇	-8460
▁내기	-8461
▁찔	-8462
▁중원	-8463
느리	-8464
렉터	-8465
▁314	-8466
▁각지	-8467
▁서류	-8468
▁말씀	-8469
▁스쿼드	-8470
▁학대	-8471
▁계층	-8472
▁분홍	-8473
▁뱅가드	-8474
▁바이올	-8475
▁입증	-8476
탐정	-8477
▁포병	-8478
▁베이징	-8479
▁저기	-8480
▁소생	-8481
▁잔혹	-8482
▁밀도	-8483
▁억울	-8484
▁물자	-8485
▁매달리	-8486
▁협정	-8487
▁Im	-8488
▁해소	-8489
▁new	-8490
▁툰	-8491
▁무도	-8492
▁추후	-8493
▁Vol	-8494
▁Con	-8495
▁초상	-8496
▁로스트	-8497
▁미아	-8498
▁덮치	-8499
▁갈색	-8500
▁감당	-8501
▁존중	-8502
▁카리스마	-8503
▁저글링	-8504
▁강릉	-8505
▁부원	-8506
▁카테	-8507
▁신곡	-8508
ats	-8509
▁대동	-8510
▁학년도	-8511
▁고고	-8512
▁스파이더맨	-8513
▁나인	-8514
▁나이츠	-8515
▁격려	-8516
▁녹이	-8517
▁가오	-8518
▁주석	-8519
지능	-8520
▁Sch	-8521
▁rd	-8522
▁고의	-8523
▁124	-8524
▁스타즈	-8525
▁인공지능	-8526
시고	-8527
▁Ed	-8528
▁아케이드	-8529
▁존스	-8530
▁스탈	-8531
▁피지컬	-8532
▁시어	-8533
나베	-8534
▁달아나	-8535
▁잼	-8536
▁강타	-8537
▁이오	-8538
슈타인	-8539
마루	-8540
▁점멸	-8541
▁대세	-8542
▁출판사	-8543
철수	-8544
▁에메	-8545
부키	-8546
▁판도	-8547
▁ld	-8548
은색	-8549
▁부유	-8550
▁Girl	-8551
▁물약	-8552
▁워터	-8553
▁면하	-8554
▁유스	-8555
▁펌프	-8556
▁강전	-8557
바이트	-8558
▁배구	-8559
▁Gre	-8560
▁부속	-8561
▁힘입	-8562
15	-8563
▁밀레	-8564
▁기울이	-8565
▁함장	-8566
▁과금	-8567
▁퀴즈	-8568
▁황당	-8569
▁민간인	-8570
▁디아블로	-8571
▁RE	-8572
▁점심	-8573
▁Night	-8574
워프	-8575
ube	-8576
▁극한	-8577
▁대검	-8578
ari	-8579
▁세자	-8580
▁압력	-8581
▁정사	-8582
▁압축	-8583
▁대변	-8584
▁183	-8585
슬리	-8586
▁USB	-8587
ition	-8588
▁괴인	-8589
▁표적	-8590
usic	-8591
msys	-8592
▁이빨	-8593
▁ldmsys	-8594
13	-8595
오피스	-8596
▁생김새	-8597
▁산맥	-8598
▁빙결	-8599
▁테스	-8600
▁애완	-8601
▁소서	-8602
▁마하	-8603
▁그쪽	-8604
▁그러므로	-8605
▁키요	-8606
▁내역	-8607
▁예의	-8608
▁후유	-8609
▁마틴	-8610
▁레이싱	-8611
▁뚱	-8612
▁벌써	-8613
▁동구	-8614
▁법무	-8615
▁김주	-8616
업자	-8617
▁그러면	-8618
▁경부	-8619
▁TS	-8620
▁대차	-8621
▁소소	-8622
▁리버스	-8623
25	-8624
항공	-8625
▁다시금	-8626
▁보스턴	-8627
리얼	-8628
▁씻	-8629
▁마케팅	-8630
▁발사기	-8631
▁중견	-8632
▁기껏	-8633
▁하지	-8634
▁1200	-8635
▁집계	-8636
▁Black	-8637
▁퇴치	-8638
▁만렙	-8639
▁자아	-8640
른바	-8641
▁덩어리	-8642
▁자책점	-8643
▁박스오피스	-8644
▁스탭	-8645
▁노아	-8646
▁이른바	-8647
▁모형	-8648
▁아카네	-8649
▁WC	-8650
▁망설	-8651
▁병살	-8652
▁출동	-8653
▁기질	-8654
▁골프	-8655
페라	-8656
사랑	-8657
▁일지	-8658
▁연설	-8659
▁철도역	-8660
▁재건	-8661
▁제노	-8662
▁박진	-8663
▁농업	-8664
▁주축	-8665
▁무녀	-8666
▁자존심	-8667
▁토마스	-8668
▁NH	-8669
▁모종	-8670
▁로프	-8671
▁사촌	-8672
▁바텀	-8673
▁일렉	-8674
▁리처	-8675
▁얄	-8676
▁도덕	-8677
yn	-8678
▁데몬	-8679
▁장벽	-8680
▁마도카	-8681
▁휩쓸	-8682
▁도대	-8683
▁선동	-8684
▁포착	-8685
▁그레이드	-8686
▁통솔	-8687
시대	-8688
▁연동	-8689
세지	-8690
▁유진	-8691
▁귀국	-8692
토니	-8693
▁구상	-8694
▁등극	-8695
▁레아	-8696
▁BC	-8697
▁원판	-8698
▁억제	-8699
▁천상	-8700
▁절벽	-8701
▁드워프	-8702
▁상냥	-8703
▁문양	-8704
▁127	-8705
▁킴	-8706
▁남동생	-8707
▁각도	-8708
▁들여	-8709
▁이원	-8710
▁교차로	-8711
▁현황	-8712
▁노무현	-8713
▁MM	-8714
▁불길	-8715
▁애인	-8716
▁모빌	-8717
▁발명	-8718
▁모스크	-8719
▁DM	-8720
▁서리	-8721
18	-8722
DD	-8723
▁관장	-8724
▁머물	-8725
당초	-8726
▁오른손	-8727
▁발레	-8728
▁앓	-8729
app	-8730
▁이윤	-8731
▁ver	-8732
▁탄핵	-8733
▁타이어	-8734
▁아담	-8735
▁Let	-8736
▁육상	-8737
▁부끄럽	-8738
▁스토어	-8739
▁아마추어	-8740
▁왕실	-8741
▁봉사	-8742
▁원주민	-8743
▁프랜	-8744
▁스크롤	-8745
▁적시타	-8746
▁쿠데타	-8747
▁리바	-8748
▁퓨전	-8749
려워하	-8750
▁도배	-8751
▁뛰어들	-8752
▁118	-8753
▁OG	-8754
▁사치	-8755
▁그란	-8756
▁솔저	-8757
▁SSR	-8758
▁아포	-8759
▁왕비	-8760
▁카게	-8761
▁방사능	-8762
▁전담	-8763
▁향후	-8764
▁까마귀	-8765
▁섬광	-8766
▁라미	-8767
▁뻘	-8768
▁불러오	-8769
▁챔스	-8770
▁Am	-8771
▁발급	-8772
▁용산	-8773
▁베를	-8774
▁Op	-8775
▁사방	-8776
▁회관	-8777
▁입시	-8778
▁서울대	-8779
▁환생	-8780
▁184	-8781
▁벗기	-8782
▁쿄코	-8783
▁AF	-8784
▁Col	-8785
▁시시	-8786
▁착륙	-8787
▁서적	-8788
gr	-8789
▁뤼	-8790
▁학사	-8791
▁Str	-8792
▁시안	-8793
▁하사	-8794
ye	-8795
▁피오	-8796
▁박자	-8797
▁지장	-8798
▁루마	-8799
▁여태	-8800
▁베스	-8801
▁라인하르트	-8802
▁정밀	-8803
▁인피니티	-8804
▁GM	-8805
▁잎	-8806
▁퍼펙트	-8807
▁시오	-8808
▁얼리	-8809
▁행진	-8810
▁서열	-8811
타이	-8812
▁다카	-8813
▁밀리언	-8814
▁리자	-8815
▁돌려주	-8816
▁not	-8817
▁청춘	-8818
▁지루	-8819
▁숙소	-8820
▁우두	-8821
ough	-8822
▁얌	-8823
▁필름	-8824
▁이무	-8825
▁제발	-8826
▁선박	-8827
▁컴뱃	-8828
▁152	-8829
▁협동	-8830
▁미녀	-8831
어트	-8832
▁큐어	-8833
▁민폐	-8834
▁프롤	-8835
▁Mag	-8836
CE	-8837
▁실용	-8838
▁루미	-8839
▁노랗	-8840
▁화기	-8841
▁싱가	-8842
▁다스리	-8843
▁싱가포르	-8844
▁ㅔ요	-8845
▁카리	-8846
▁유가	-8847
▁얽히	-8848
▁스로	-8849
▁강인	-8850
▁게끔	-8851
▁..!	-8852
▁춤추	-8853
iel	-8854
▁반성	-8855
▁편리	-8856
▁스타워즈	-8857
▁도대체	-8858
▁마을버스	-8859
▁교도소	-8860
▁금발	-8861
▁옴	-8862
▁그간	-8863
▁직책	-8864
▁선원	-8865
▁카피	-8866
▁브래	-8867
▁오렌지	-8868
▁승패	-8869
▁보우	-8870
▁욕심	-8871
▁갱신	-8872
▁잠기	-8873
▁아수	-8874
▁AV	-8875
▁000000	-8876
▁시호	-8877
▁툭	-8878
▁조화	-8879
무지	-8880
▁달려오	-8881
▁폴아웃	-8882
▁침몰	-8883
▁스네	-8884
▁김치	-8885
▁모순	-8886
▁테리	-8887
vel	-8888
▁건지	-8889
▁주공	-8890
▁취재	-8891
▁팔라	-8892
▁지크	-8893
▁과일	-8894
ull	-8895
▁일일	-8896
▁친척	-8897
▁AL	-8898
▁김광	-8899
▁탐사	-8900
▁어벤져	-8901
▁이진	-8902
▁욱	-8903
▁화신	-8904
▁아무렇	-8905
▁스카웃	-8906
▁한꺼	-8907
▁한꺼번에	-8908
▁경전	-8909
▁완화	-8910
▁1978	-8911
▁섬멸	-8912
▁아슬	-8913
▁토라	-8914
프리카	-8915
▁전송	-8916
▁우미	-8917
▁전지	-8918
▁이계	-8919
▁흥분	-8920
▁182	-8921
▁군부	-8922
▁발각	-8923
▁쿠사	-8924
▁스기	-8925
..	-8926
▁리부	-8927
▁보강	-8928
▁시간대	-8929
▁흑막	-8930
헤이	-8931
▁이별	-8932
▁능가	-8933
▁안무	-8934
▁해운	-8935
▁성명	-8936
▁오즈	-8937
▁중구	-8938
키스탄	-8939
ult	-8940
▁구형	-8941
▁천국	-8942
▁178	-8943
▁홋카이도	-8944
▁CL	-8945
▁컴백	-8946
▁오토바이	-8947
서스	-8948
▁소나	-8949
▁모나	-8950
▁토트넘	-8951
▁아사히	-8952
▁호리	-8953
▁반경	-8954
▁일어	-8955
▁도르	-8956
▁정답	-8957
에른	-8958
바리	-8959
▁흑역사	-8960
▁관문	-8961
▁용이	-8962
▁가구	-8963
▁모욕	-8964
▁미소녀	-8965
▁민감	-8966
▁스텔스	-8967
able	-8968
▁#!	-8969
소년	-8970
▁경상남도	-8971
▁신관	-8972
▁치이	-8973
ject	-8974
▁동계	-8975
▁이단	-8976
▁약혼	-8977
▁완공	-8978
▁최상급	-8979
▁그리핀	-8980
▁인문	-8981
▁대역	-8982
▁스윙	-8983
▁모에	-8984
구니	-8985
▁반역	-8986
▁레버	-8987
▁주머니	-8988
▁헬리	-8989
▁등재	-8990
▁일체	-8991
▁CE	-8992
▁라비	-8993
▁유즈	-8994
기에	-8995
▁시카고	-8996
▁타카하시	-8997
바람	-8998
▁얼티밋	-8999
▁직행	-9000
▁마야	-9001
▁사직	-9002
▁신작	-9003
▁PK	-9004
▁엉덩이	-9005
▁1945	-9006
▁간판	-9007
▁저자	-9008
▁강대	-9009
▁매각	-9010
▁에코	-9011
MAN	-9012
모습	-9013
마리	-9014
▁오만	-9015
▁이나마	-9016
방울	-9017
eth	-9018
oot	-9019
▁머스	-9020
▁시종	-9021
▁소득	-9022
▁코레	-9023
▁플라스	-9024
▁마수	-9025
▁엘리자베스	-9026
▁패트	-9027
▁매그	-9028
▁부채	-9029
▁베이비	-9030
▁디스플레이	-9031
▁쿠리	-9032
▁단자	-9033
타리	-9034
틀리	-9035
▁적자	-9036
▁프레스	-9037
▁Co	-9038
▁내밀	-9039
▁정점	-9040
▁레시피	-9041
속기	-9042
▁명장	-9043
▁울음	-9044
▁장남	-9045
▁사탕	-9046
▁약체	-9047
▁스마일	-9048
▁금요일	-9049
▁라이트닝	-9050
▁se	-9051
▁요격	-9052
▁파운드	-9053
▁여주인	-9054
▁맛보	-9055
▁늪	-9056
▁불참	-9057
▁바이에른	-9058
드러지	-9059
▁꺼지	-9060
▁탈취	-9061
▁카제	-9062
▁카사	-9063
▁마미	-9064
▁던지라	-9065
▁오다	-9066
▁패왕	-9067
▁cl	-9068
▁수아	-9069
▁삼키	-9070
▁카일	-9071
▁밈	-9072
▁얹	-9073
▁수천	-9074
▁레이지	-9075
▁TOP	-9076
▁실적	-9077
▁도심	-9078
▁파고	-9079
▁아랫	-9080
▁일러스트레이터	-9081
▁걸어가	-9082
▁BO	-9083
▁소마	-9084
▁도쿠	-9085
▁태풍	-9086
▁AFC	-9087
▁오케	-9088
스크림	-9089
▁교리	-9090
▁편의점	-9091
▁노릇	-9092
▁눈앞	-9093
▁애용	-9094
▁맨체스터	-9095
▁무능	-9096
▁휴먼	-9097
▁과시	-9098
▁박정희	-9099
▁대피	-9100
▁뻔하	-9101
▁가왕	-9102
ild	-9103
▁모음	-9104
▁아유	-9105
▁구로	-9106
▁카이저	-9107
▁어그	-9108
▁입사	-9109
니코	-9110
▁들르	-9111
▁독백	-9112
파이	-9113
▁BGA	-9114
▁시범	-9115
▁욕망	-9116
▁Is	-9117
▁평상시	-9118
▁목욕	-9119
inal	-9120
▁4000	-9121
▁한하	-9122
▁곤충	-9123
생활	-9124
▁삽질	-9125
▁함수	-9126
▁련	-9127
러브	-9128
▁연이	-9129
▁드루이드	-9130
▁신한	-9131
▁신하	-9132
▁자사	-9133
▁진동	-9134
▁눈동자	-9135
▁스파크	-9136
▁크로우	-9137
▁집사	-9138
▁오공	-9139
▁김일	-9140
도전	-9141
▁네크로	-9142
▁스모	-9143
▁웨폰	-9144
▁굶	-9145
▁이쿠	-9146
▁아이디	-9147
▁공신	-9148
▁물려받	-9149
▁Do	-9150
▁무지개	-9151
▁평론가	-9152
▁남학생	-9153
▁소집	-9154
▁맷집	-9155
아시아	-9156
▁Gaming	-9157
▁좌익	-9158
▁가이아	-9159
▁고가	-9160
▁보르	-9161
▁유머	-9162
▁부가	-9163
▁CR	-9164
▁유아	-9165
▁단련	-9166
쿠스	-9167
▁GSL	-9168
▁선회	-9169
▁SA	-9170
▁정우	-9171
▁중소	-9172
▁320	-9173
▁사천	-9174
▁투고	-9175
▁아마존	-9176
▁검토	-9177
▁돌려	-9178
▁리볼	-9179
▁달콤	-9180
▁숙련도	-9181
DX	-9182
▁캡슐	-9183
▁컬렉션	-9184
▁315	-9185
▁명시	-9186
▁포크	-9187
▁이용자	-9188
▁장본	-9189
▁하도	-9190
▁적이	-9191
▁ME	-9192
▁징계	-9193
▁케리	-9194
▁성분	-9195
▁아쉬움	-9196
ings	-9197
▁장신구	-9198
▁무한도전	-9199
▁Gl	-9200
▁냉장	-9201
▁식스	-9202
▁당초	-9203
▁마마	-9204
중간	-9205
▁테란	-9206
14	-9207
▁치고	-9208
▁타리	-9209
▁자력	-9210
TA	-9211
▁초과	-9212
▁아르바이트	-9213
▁1973	-9214
▁중기	-9215
트론	-9216
▁라이드	-9217
▁일명	-9218
▁슬라이드	-9219
▁덥	-9220
▁모의	-9221
▁놔	-9222
▁Gu	-9223
▁중부	-9224
▁배리	-9225
▁대면	-9226
대사	-9227
▁컨디션	-9228
▁와타나베	-9229
▁고이	-9230
당기	-9231
▁키노	-9232
▁짬	-9233
▁위쪽	-9234
▁오로치	-9235
▁유동	-9236
▁미노	-9237
▁하이드	-9238
▁중국인	-9239
히토	-9240
▁시련	-9241
reak	-9242
▁리리	-9243
▁협조	-9244
▁궁수	-9245
▁저항력	-9246
▁민중	-9247
ron	-9248
수리	-9249
▁마찰	-9250
▁가해	-9251
▁으려면	-9252
▁주술사	-9253
▁이호	-9254
▁잔류	-9255
▁무늬	-9256
▁이명박	-9257
티니	-9258
▁장본인	-9259
▁ㄴ가요	-9260
▁코끼리	-9261
▁공교	-9262
▁소꿉	-9263
▁강아지	-9264
▁와이번스	-9265
▁금강	-9266
▁진단	-9267
▁표식	-9268
타운	-9269
▁무자	-9270
▁급식	-9271
▁캘리	-9272
▁이니	-9273
▁이어서	-9274
▁외야수	-9275
▁인도네시아	-9276
▁상시	-9277
▁벨기에	-9278
▁앤드	-9279
▁고발	-9280
▁나폴레	-9281
▁서바이벌	-9282
▁네이션	-9283
▁보로	-9284
▁학위	-9285
▁그루	-9286
▁급격히	-9287
▁가령	-9288
▁겸하	-9289
▁이용객	-9290
▁주저	-9291
▁재수	-9292
▁부산광역시	-9293
▁168	-9294
▁NM	-9295
17	-9296
▁뺨	-9297
닐라	-9298
▁밭	-9299
▁고인	-9300
▁주술	-9301
▁유카리	-9302
▁국도	-9303
▁혼혈	-9304
▁판사	-9305
▁일리	-9306
▁공헌	-9307
▁도마	-9308
▁성대	-9309
▁평택	-9310
▁라이징	-9311
▁크라운	-9312
▁203	-9313
▁방침	-9314
▁도미	-9315
PA	-9316
▁so	-9317
사와	-9318
▁개명	-9319
▁수신	-9320
▁나폴레옹	-9321
▁초청	-9322
▁이즈미	-9323
▁마라	-9324
▁낯	-9325
▁몸매	-9326
저래	-9327
▁218	-9328
▁내외	-9329
▁조립	-9330
▁체코	-9331
▁휴대폰	-9332
▁승급	-9333
▁김병	-9334
운수	-9335
▁찔리	-9336
▁흉악	-9337
▁강동	-9338
▁like	-9339
▁보직	-9340
▁이래저래	-9341
▁내각	-9342
▁쥬얼	-9343
▁악행	-9344
▁Min	-9345
▁쟁이	-9346
▁시네마	-9347
▁헤라	-9348
▁균열	-9349
▁갈기	-9350
▁오페라	-9351
▁충청남도	-9352
성이	-9353
▁국토	-9354
▁수립	-9355
마치	-9356
▁자산	-9357
▁단총	-9358
▁아테나	-9359
▁뚜렷	-9360
▁천지	-9361
▁단역	-9362
▁윤리	-9363
우라	-9364
▁떨구	-9365
▁레이븐	-9366
▁런처	-9367
GA	-9368
▁고우	-9369
▁어원	-9370
전사	-9371
▁독보	-9372
▁ㄷ	-9373
▁소우	-9374
▁거세	-9375
▁배율	-9376
▁원한	-9377
▁황혼	-9378
▁will	-9379
▁위시	-9380
▁휴게	-9381
▁볶	-9382
▁사슬	-9383
▁테크닉	-9384
▁저격수	-9385
MAX	-9386
▁오사	-9387
▁10000	-9388
▁비자	-9389
▁의정부	-9390
▁베를린	-9391
▁우기	-9392
▁탄압	-9393
▁리믹스	-9394
▁저승	-9395
▁대학생	-9396
ECT	-9397
▁서방	-9398
▁차장	-9399
▁니트	-9400
▁떠돌	-9401
르타	-9402
▁버거	-9403
▁보가	-9404
▁부동산	-9405
▁하츠네	-9406
▁두려워하	-9407
▁트론	-9408
주의자	-9409
▁로크	-9410
▁절단	-9411
▁교역	-9412
▁수중	-9413
▁지지율	-9414
▁iOS	-9415
▁스치	-9416
▁충격파	-9417
▁국방부	-9418
▁경사	-9419
▁필사	-9420
▁RO	-9421
▁수라	-9422
▁탄막	-9423
ICE	-9424
▁스코틀랜드	-9425
▁빗나가	-9426
▁이오리	-9427
▁단서	-9428
▁리츠	-9429
▁리프트	-9430
▁ㄴ듯	-9431
▁시간표	-9432
▁성지	-9433
▁인명	-9434
▁오역	-9435
▁엠블	-9436
▁ALL	-9437
▁히사	-9438
▁비단	-9439
▁one	-9440
AND	-9441
보우	-9442
▁자루	-9443
▁원로	-9444
▁플레임	-9445
▁면제	-9446
▁타우	-9447
▁정전	-9448
▁마지	-9449
▁견해	-9450
▁칼라	-9451
▁말레이	-9452
▁난리	-9453
▁때로	-9454
▁버블	-9455
▁이리저리	-9456
▁na	-9457
▁미남	-9458
▁작위	-9459
▁Red	-9460
▁김성근	-9461
oul	-9462
▁대법	-9463
▁살아오	-9464
▁Type	-9465
▁설마	-9466
▁펑크	-9467
▁흉내	-9468
▁중화민국	-9469
▁지터	-9470
▁해역	-9471
▁걸음	-9472
▁1974	-9473
▁더미	-9474
▁KB	-9475
저우	-9476
▁대국	-9477
▁Ser	-9478
▁주황	-9479
▁다녀	-9480
▁사이토	-9481
▁NT	-9482
▁아수라	-9483
▁Play	-9484
te	-9485
▁타키	-9486
▁점하	-9487
▁평판	-9488
▁사물	-9489
▁달인	-9490
▁성사	-9491
친구	-9492
▁둥지	-9493
▁UC	-9494
▁토비	-9495
▁팰	-9496
▁캇	-9497
▁보편	-9498
▁가해자	-9499
▁출석	-9500
▁극심	-9501
▁입원	-9502
▁득표율	-9503
▁공격기	-9504
▁샘플	-9505
ater	-9506
▁요우	-9507
▁왕족	-9508
▁재배	-9509
ody	-9510
▁발톱	-9511
▁완벽히	-9512
▁격렬	-9513
STER	-9514
16	-9515
▁반장	-9516
▁전법	-9517
▁희생자	-9518
▁플레이버	-9519
▁습하	-9520
▁177	-9521
▁액체	-9522
▁우두머리	-9523
▁이듬	-9524
▁쑤	-9525
▁계절	-9526
▁Car	-9527
▁연막	-9528
▁김윤	-9529
▁깃털	-9530
과이	-9531
▁간파	-9532
▁고난	-9533
▁커플링	-9534
▁사우스	-9535
▁마르코	-9536
▁전라남도	-9537
▁해변	-9538
▁선로	-9539
▁다케	-9540
▁리볼버	-9541
▁랜서	-9542
▁주입	-9543
▁Don	-9544
▁강습	-9545
▁순간이동	-9546
▁헤드샷	-9547
▁한양	-9548
▁딥	-9549
▁계략	-9550
▁무비	-9551
▁진형	-9552
▁감성	-9553
▁벚	-9554
▁맑	-9555
▁의의	-9556
▁손잡이	-9557
▁탈환	-9558
▁홈경기	-9559
▁짝사랑	-9560
ions	-9561
▁방울	-9562
▁스콜	-9563
텍스	-9564
▁섬기	-9565
▁태생	-9566
▁과언	-9567
▁충고	-9568
ould	-9569
▁보루	-9570
▁제의	-9571
▁반도	-9572
▁사야카	-9573
▁슬라임	-9574
▁갈구	-9575
▁안젤	-9576
▁입자	-9577
▁138	-9578
▁Es	-9579
▁1975	-9580
▁두드러지	-9581
▁접수	-9582
▁유지비	-9583
▁차일드	-9584
▁맹독	-9585
▁놔두	-9586
▁병과	-9587
▁지면	-9588
▁금고	-9589
▁크롬	-9590
▁아이즈	-9591
천군	-9592
▁공명	-9593
▁중재	-9594
▁서명	-9595
드로	-9596
▁너클	-9597
▁워드	-9598
레븐	-9599
▁상어	-9600
▁이영호	-9601
▁메테	-9602
▁코디	-9603
▁석유	-9604
▁중도	-9605
▁산탄총	-9606
▁상의	-9607
▁리처드	-9608
▁측근	-9609
▁아리스	-9610
▁부제	-9611
▁필립	-9612
alk	-9613
▁주교	-9614
▁레슨	-9615
▁동성애	-9616
▁완성도	-9617
▁자켓	-9618
▁us	-9619
▁러너	-9620
▁어드밴	-9621
▁어제	-9622
▁졸업식	-9623
▁타스	-9624
▁팍	-9625
ven	-9626
▁찬양	-9627
▁바이크	-9628
▁두려움	-9629
▁프로스트	-9630
▁원화	-9631
▁'''	-9632
라이언스	-9633
▁마스코트	-9634
▁Time	-9635
▁데미	-9636
▁월간	-9637
▁테니스	-9638
▁레인보우	-9639
▁삿	-9640
▁생각나	-9641
소총	-9642
▁냉장고	-9643
▁얼라이언스	-9644
▁일각	-9645
▁162	-9646
▁이사장	-9647
야스	-9648
af	-9649
▁콘스탄	-9650
▁EU	-9651
▁시끄럽	-9652
▁가히	-9653
▁백만	-9654
▁이념	-9655
▁고래	-9656
▁찰스	-9657
▁분할	-9658
▁교대	-9659
스티스	-9660
▁본질	-9661
▁박명	-9662
맥스	-9663
▁126	-9664
▁트이	-9665
▁우지	-9666
▁아울	-9667
▁이듬해	-9668
▁테일즈	-9669
▁긋	-9670
시다	-9671
▁스바	-9672
▁빙의	-9673
▁Sum	-9674
▁몰려오	-9675
▁수감	-9676
▁노라	-9677
▁어기	-9678
▁WH	-9679
공사	-9680
▁조수	-9681
▁엉뚱	-9682
▁끌어내	-9683
▁김선	-9684
▁스매시	-9685
▁키즈	-9686
▁카오루	-9687
▁평등	-9688
▁스칼	-9689
ics	-9690
▁왓	-9691
▁신생	-9692
▁두껍	-9693
▁자키	-9694
보기	-9695
▁연소	-9696
▁ㄹ까요	-9697
▁김두	-9698
▁클리셰	-9699
▁히카루	-9700
▁Bo	-9701
▁차림	-9702
▁???	-9703
▁영화제	-9704
YP	-9705
▁기관포	-9706
▁노부나가	-9707
▁권하	-9708
▁대니	-9709
▁초등학생	-9710
▁심정	-9711
▁과격	-9712
▁주차장	-9713
▁말기	-9714
▁고립	-9715
▁응급	-9716
▁폭로	-9717
그라	-9718
▁보고서	-9719
▁꼴찌	-9720
▁고종	-9721
▁핑계	-9722
▁슬러그	-9723
▁지역구	-9724
▁깨우	-9725
▁동상	-9726
▁왕가	-9727
랄드	-9728
▁에드워드	-9729
마르	-9730
▁로비	-9731
▁텔레포트	-9732
▁회계	-9733
시스코	-9734
빨리	-9735
ACK	-9736
▁민병	-9737
▁득표수	-9738
▁코지	-9739
▁나락	-9740
르드	-9741
▁손목	-9742
▁BT	-9743
▁사회주의	-9744
▁펙	-9745
▁젝	-9746
▁직위	-9747
▁로제	-9748
▁맞먹	-9749
▁팩션	-9750
▁병행	-9751
▁공짜	-9752
▁무식	-9753
▁후반전	-9754
재기	-9755
▁유라	-9756
▁IIDX	-9757
▁CB	-9758
▁카렌	-9759
▁have	-9760
▁결과물	-9761
▁BA	-9762
▁애드	-9763
▁꾀	-9764
▁신상	-9765
▁카토	-9766
▁으리	-9767
미터	-9768
▁누스	-9769
▁주유	-9770
▁카인	-9771
▁팜	-9772
보라	-9773
▁~"	-9774
▁연세대	-9775
▁oh	-9776
▁솔직히	-9777
▁쫓기	-9778
▁콰	-9779
▁피드	-9780
▁투사	-9781
▁후면	-9782
▁김구	-9783
▁재질	-9784
▁포도	-9785
▁브레스	-9786
▁정의당	-9787
▁갈라지	-9788
▁조항	-9789
▁종로	-9790
▁아인	-9791
▁다지만	-9792
페이스	-9793
▁난투	-9794
▁거꾸	-9795
▁멘붕	-9796
▁갸	-9797
▁313	-9798
▁야망	-9799
▁팬티	-9800
▁제자리	-9801
tern	-9802
은이	-9803
▁제너	-9804
▁EV	-9805
▁숙청	-9806
전설	-9807
셉트	-9808
▁보복	-9809
▁레귤	-9810
▁분배	-9811
▁극악	-9812
고사	-9813
▁Kore	-9814
▁군데	-9815
▁소꿉친구	-9816
시티	-9817
▁볼드	-9818
ict	-9819
ins	-9820
▁LTE	-9821
▁한정판	-9822
▁감기	-9823
▁신조	-9824
▁ㄴ단	-9825
▁1976	-9826
▁슬슬	-9827
▁이세	-9828
▁난민	-9829
▁페이크	-9830
▁상부	-9831
▁두루	-9832
▁리셋	-9833
▁know	-9834
ange	-9835
ator	-9836
▁out	-9837
▁132	-9838
▁자포	-9839
▁유비트	-9840
▁제주도	-9841
▁몰아넣	-9842
▁노하	-9843
▁결의	-9844
▁약칭	-9845
긋나	-9846
처럼	-9847
▁럭키	-9848
▁표기법	-9849
▁미트	-9850
▁Sun	-9851
▁발전소	-9852
▁내뱉	-9853
▁테르	-9854
▁트랜스포	-9855
▁DI	-9856
▁페미니즘	-9857
▁테이프	-9858
▁세츠	-9859
▁조던	-9860
▁채찍	-9861
▁병종	-9862
▁set	-9863
퍼니	-9864
▁빈약	-9865
▁바나나	-9866
▁내면	-9867
▁연간	-9868
▁수확	-9869
▁해고	-9870
▁개판	-9871
▁pr	-9872
▁겨루	-9873
▁방벽	-9874
레이크	-9875
▁카테고리	-9876
▁캔디	-9877
▁근로	-9878
▁하지메	-9879
▁선봉	-9880
▁츤데레	-9881
▁로그인	-9882
▁밀어붙이	-9883
▁여주인공	-9884
▁수영복	-9885
▁1972	-9886
▁재벌	-9887
▁해전	-9888
▁쳐다보	-9889
무이	-9890
▁일산	-9891
▁바이킹	-9892
▁메디	-9893
▁종전	-9894
▁강탈	-9895
▁탁월	-9896
▁산소	-9897
▁지미	-9898
▁그랑프리	-9899
▁반기	-9900
▁feat	-9901
▁TP	-9902
▁오딘	-9903
▁표하	-9904
▁접전	-9905
▁자카	-9906
▁찰나	-9907
▁퉁	-9908
▁MO	-9909
▁도사	-9910
상가	-9911
▁메세지	-9912
▁일조	-9913
▁158	-9914
▁쿠바	-9915
▁구독자	-9916
▁ㅇ	-9917
▁정준	-9918
▁IV	-9919
▁지배자	-9920
▁환호	-9921
▁교훈	-9922
▁로렌	-9923
▁프롤로그	-9924
▁서치	-9925
▁르노	-9926
▁IP	-9927
▁콧	-9928
▁사각	-9929
▁미도리	-9930
고속도로	-9931
▁230	-9932
19	-9933
돌프	-9934
▁폐선	-9935
▁가설	-9936
▁초점	-9937
▁카이사	-9938
▁자작	-9939
▁GD	-9940
▁구호	-9941
▁레귤러	-9942
▁제인	-9943
▁스케줄	-9944
▁최하	-9945
▁1977	-9946
▁HS	-9947
▁무궁	-9948
▁제조사	-9949
▁인트	-9950
▁거꾸로	-9951
▁니코니코	-9952
▁응답	-9953
▁대등	-9954
▁프로그래	-9955
▁내정	-9956
▁마가	-9957
▁힌트	-9958
▁야마모토	-9959
▁관료	-9960
▁중급	-9961
▁다저스	-9962
활약	-9963
▁진로	-9964
▁수여	-9965
▁임진	-9966
▁스나	-9967
▁앨런	-9968
▁이점	-9969
▁High	-9970
▁필두	-9971
▁신념	-9972
▁프랭크	-9973
▁망설이	-9974
사스	-9975
▁껍질	-9976
▁랏	-9977
▁릴리스	-9978
▁무신	-9979
▁Light	-9980
▁키드	-9981
▁쥰	-9982
▁깡패	-9983
▁TE	-9984
▁리뉴	-9985
▁유능	-9986
▁소비자	-9987
▁뚝	-9988
▁충남	-9989
ME	-9990
▁대명	-9991
▁치바	-9992
▁172	-9993
▁스바루	-9994
천사	-9995
▁실바	-9996
▁줄기	-9997
▁개막전	-9998
▁태미	-9999
▁때려잡	-10000
▁컴퍼니	-10001
▁순천	-10002
민주당	-10003
che	-10004
▁테레	-10005
▁진짜로	-10006
▁정조	-10007
▁주식회사	-10008
▁혹평	-10009
▁덴마크	-10010
▁트러	-10011
키스	-10012
▁헐크	-10013
▁켄지	-10014
▁피난	-10015
▁133	-10016
▁인텔	-10017
▁댐	-10018
▁LOVE	-10019
▁감금	-10020
▁박쥐	-10021
▁재림	-10022
▁섭취	-10023
▁공국	-10024
▁얼터	-10025
▁도스	-10026
지사	-10027
▁냉기	-10028
▁파괴력	-10029
▁아폴	-10030
▁이만	-10031
▁무색	-10032
▁애쉬	-10033
▁다녀오	-10034
▁꿇	-10035
제스	-10036
▁양심	-10037
▁캐슬	-10038
▁플리	-10039
▁랜스	-10040
▁강서	-10041
▁박종	-10042
덕션	-10043
▁팀장	-10044
▁렀	-10045
▁득실	-10046
▁보트	-10047
▁바인	-10048
▁차분	-10049
▁기술력	-10050
▁Your	-10051
▁Tw	-10052
▁존슨	-10053
▁NEW	-10054
▁객관	-10055
▁구청	-10056
▁망상	-10057
▁순찰	-10058
▁배후	-10059
▁여장	-10060
▁이순신	-10061
▁148	-10062
▁수성	-10063
▁윈터	-10064
▁호응	-10065
▁저스티스	-10066
▁베어	-10067
▁연달	-10068
▁따내	-10069
▁급속	-10070
▁황태	-10071
▁일컫	-10072
▁고질	-10073
▁과감	-10074
▁펭귄	-10075
▁179	-10076
▁la	-10077
▁지성	-10078
▁최정	-10079
▁%.	-10080
▁지붕	-10081
차리	-10082
▁라시	-10083
▁제작비	-10084
▁노르웨이	-10085
▁Mr	-10086
▁OF	-10087
▁메구미	-10088
▁매지	-10089
▁미끼	-10090
▁스톡	-10091
▁앵커	-10092
ica	-10093
▁아비	-10094
▁신학	-10095
▁능숙	-10096
▁망명	-10097
▁소노	-10098
▁사내	-10099
▁어벤져스	-10100
▁조력	-10101
▁찌질	-10102
산역	-10103
▁샤오	-10104
▁레슬러	-10105
메라	-10106
▁히나타	-10107
▁트랜스포머	-10108
▁출제	-10109
박이	-10110
▁모스크바	-10111
세서리	-10112
▁오른팔	-10113
▁리터	-10114
▁장갑차	-10115
▁Gen	-10116
▁스팅	-10117
IK	-10118
▁격퇴	-10119
▁파랑	-10120
▁Mi	-10121
▁립스	-10122
▁복도	-10123
▁라이센스	-10124
▁두근	-10125
▁GTA	-10126
다드	-10127
생기	-10128
▁후쿠오카	-10129
▁교시	-10130
▁미숙	-10131
▁세례	-10132
▁게르	-10133
▁로맨스	-10134
▁포니	-10135
▁성벽	-10136
▁심히	-10137
교통	-10138
▁철갑탄	-10139
사고	-10140
▁사나이	-10141
리칸	-10142
▁섹시	-10143
▁풍경	-10144
▁제지	-10145
▁두뇌	-10146
▁케리건	-10147
▁Em	-10148
▁미모	-10149
▁잠그	-10150
▁156	-10151
▁드로	-10152
날두	-10153
▁표창	-10154
▁염두	-10155
▁탐구	-10156
FL	-10157
ex	-10158
▁제대	-10159
▁Par	-10160
▁호날두	-10161
▁쳐들어오	-10162
▁반론	-10163
▁통보	-10164
▁슈가	-10165
▁사지	-10166
▁시조	-10167
▁154	-10168
▁노래방	-10169
▁파우	-10170
▁레슬링	-10171
▁종말	-10172
▁명대사	-10173
▁능하	-10174
▁꼼수	-10175
▁유타	-10176
▁교육청	-10177
▁사소	-10178
▁노골	-10179
▁뒤쪽	-10180
▁진흥	-10181
▁안동	-10182
▁음향	-10183
▁치마	-10184
▁비참	-10185
▁여수	-10186
▁유마	-10187
▁초코	-10188
▁맹활약	-10189
▁밧	-10190
▁HARD	-10191
▁바닷	-10192
▁호무	-10193
▁청하	-10194
▁꾸리	-10195
▁재즈	-10196
▁176	-10197
▁사일	-10198
▁공립	-10199
▁중후	-10200
▁앞세우	-10201
▁MK	-10202
▁쫓아내	-10203
HT	-10204
▁호구	-10205
▁장시	-10206
▁미세	-10207
▁냉동	-10208
▁미호	-10209
▁222	-10210
▁사가	-10211
▁라든가	-10212
▁라구	-10213
▁생태	-10214
▁OCG	-10215
▁ar	-10216
▁기행	-10217
▁발탁	-10218
▁159	-10219
▁블랙홀	-10220
▁am	-10221
▁착지	-10222
▁전반기	-10223
▁분쇄	-10224
▁u	-10225
▁사르	-10226
▁맞물	-10227
▁발발	-10228
▁지요	-10229
▁성폭	-10230
▁FPS	-10231
▁응시	-10232
▁동이	-10233
▁비꼬	-10234
▁1971	-10235
▁른	-10236
▁핀란드	-10237
▁진술	-10238
▁AE	-10239
클린	-10240
▁오리온	-10241
▁죄수	-10242
▁173	-10243
▁배신자	-10244
▁전학	-10245
▁남양	-10246
▁129	-10247
▁사천왕	-10248
▁대목	-10249
티지	-10250
▁현직	-10251
▁폐허	-10252
▁혼인	-10253
▁불리우	-10254
▁통틀어	-10255
▁계곡	-10256
▁엄폐	-10257
▁에그	-10258
▁알아차리	-10259
▁리우스	-10260
퀘어	-10261
▁가라앉	-10262
▁코프	-10263
▁명탐정	-10264
▁전임	-10265
▁범하	-10266
▁수하	-10267
바스	-10268
▁레오나	-10269
CH	-10270
▁굳히	-10271
어붙	-10272
▁천문	-10273
▁책상	-10274
▁캘리포	-10275
▁PL	-10276
▁달래	-10277
▁153	-10278
▁텍사스	-10279
▁남한	-10280
▁무너	-10281
▁무너뜨리	-10282
▁굴러	-10283
▁전도	-10284
▁오쿠	-10285
▁나란히	-10286
▁프로덕션	-10287
▁안드레	-10288
▁화석	-10289
멘터리	-10290
▁시뮬레이션	-10291
▁고음	-10292
▁세키	-10293
▁나카무라	-10294
▁Kn	-10295
UT	-10296
▁가마	-10297
▁샹	-10298
▁테오	-10299
▁에메랄드	-10300
▁질풍	-10301
▁꽁	-10302
▁드리블	-10303
▁파이프	-10304
▁토막	-10305
▁선포	-10306
▁의아	-10307
pr	-10308
▁죠죠	-10309
▁Of	-10310
▁ll	-10311
▁테러리	-10312
▁캘리포니아	-10313
▁아니하	-10314
▁스탈린	-10315
▁137	-10316
▁믿음	-10317
▁세일러	-10318
슬링	-10319
▁러닝	-10320
▁오락실	-10321
▁로스터	-10322
eep	-10323
▁우산	-10324
▁맞대	-10325
▁에필	-10326
▁에필로그	-10327
▁무단	-10328
▁지각	-10329
▁인플	-10330
▁풀려나	-10331
▁래스터	-10332
▁문화재	-10333
▁GHz	-10334
▁절정	-10335
▁모기	-10336
▁이광	-10337
▁호스	-10338
타니	-10339
▁신주	-10340
▁목포	-10341
▁발렌타인	-10342
▁잔해	-10343
▁책략	-10344
▁대안	-10345
▁토가	-10346
▁혼다	-10347
▁말소	-10348
▁Ro	-10349
les	-10350
하여	-10351
▁로테이션	-10352
▁교정	-10353
▁이행	-10354
▁청룡	-10355
▁영등	-10356
▁빅토리아	-10357
▁유니콘	-10358
▁총선거	-10359
▁대교	-10360
▁불문	-10361
▁요코하마	-10362
▁로열	-10363
▁애쓰	-10364
▁280	-10365
지않	-10366
▁BM	-10367
▁골치	-10368
▁슬램	-10369
▁스텔라	-10370
▁예방	-10371
▁벨라	-10372
▁아랑	-10373
▁다큐멘터리	-10374
▁서울시	-10375
▁멋있	-10376
▁마신	-10377
▁엣지	-10378
▁얼어붙	-10379
▁총사	-10380
▁먼지	-10381
▁저거	-10382
▁숭배	-10383
▁투성이	-10384
▁225	-10385
▁물어보	-10386
▁십자군	-10387
▁격하	-10388
▁was	-10389
▁1969	-10390
▁Per	-10391
▁야당	-10392
▁두목	-10393
▁레바	-10394
▁중공	-10395
▁174	-10396
▁카즈야	-10397
▁델타	-10398
▁주파	-10399
더기	-10400
▁GPU	-10401
▁라던가	-10402
▁미식	-10403
▁월요일	-10404
▁오바	-10405
▁네스	-10406
▁악곡	-10407
아슬	-10408
▁처녀	-10409
▁신세계	-10410
▁아슬아슬	-10411
▁심연	-10412
▁139	-10413
▁기쁨	-10414
▁골목	-10415
▁163	-10416
▁Heart	-10417
▁분포	-10418
▁하의	-10419
플러스	-10420
▁깽	-10421
▁143	-10422
▁단의	-10423
▁134	-10424
볼루션	-10425
▁가로막	-10426
▁발하	-10427
▁167	-10428
▁땀	-10429
▁나사	-10430
▁짤리	-10431
▁버터	-10432
▁Fe	-10433
▁TO	-10434
▁블라디	-10435
컨드	-10436
▁누이	-10437
▁따라잡	-10438
▁해상도	-10439
▁열기	-10440
▁~~	-10441
▁오타쿠	-10442
▁세컨드	-10443
▁로지	-10444
▁면접	-10445
▁스페인어	-10446
▁이준	-10447
반신	-10448
총장	-10449
▁스파이크	-10450
▁보디	-10451
▁루루	-10452
▁필라	-10453
▁함성	-10454
▁상장	-10455
▁쓸데없이	-10456
▁김도	-10457
▁전광	-10458
▁건너가	-10459
▁최대치	-10460
▁CO	-10461
▁Good	-10462
▁퍼시	-10463
▁원망	-10464
▁왕관	-10465
▁2500	-10466
▁청사	-10467
▁142	-10468
▁화약	-10469
▁태권	-10470
▁부처	-10471
}}	-10472
▁맞물리	-10473
▁스윕	-10474
▁관광객	-10475
▁인구수	-10476
▁CN	-10477
▁진하	-10478
▁유나	-10479
▁배리어	-10480
▁beat	-10481
▁끝장	-10482
▁용의자	-10483
▁인사이드	-10484
▁국기	-10485
▁선수단	-10486
▁히카리	-10487
▁미유키	-10488
▁연기력	-10489
▁항공사	-10490
▁드레드	-10491
▁스토커	-10492
agon	-10493
▁ㅡ	-10494
▁퓨처	-10495
▁퍼붓	-10496
부인	-10497
▁추모	-10498
EL	-10499
▁트레이닝	-10500
▁스트로	-10501
ert	-10502
▁164	-10503
▁하후	-10504
▁무안	-10505
공화	-10506
▁왕후	-10507
▁전수	-10508
▁패닉	-10509
에몽	-10510
▁yout	-10511
▁반란군	-10512
▁What	-10513
▁비로	-10514
▁그제	-10515
▁해태	-10516
▁끓이	-10517
▁하우	-10518
▁우투	-10519
▁ONE	-10520
▁기소	-10521
▁야마다	-10522
▁실로	-10523
▁음색	-10524
▁제단	-10525
▁기이	-10526
▁뉴질	-10527
▁심야	-10528
▁뉴질랜드	-10529
▁거르	-10530
▁김천	-10531
▁청장	-10532
▁틀어	-10533
▁불쾌	-10534
▁선인	-10535
▁구제	-10536
▁극우	-10537
▁직통	-10538
▁킹덤	-10539
▁마의	-10540
▁홍성	-10541
▁리부트	-10542
▁직격	-10543
▁회로	-10544
▁콘셉트	-10545
▁관계없이	-10546
▁달라	-10547
▁벚꽃	-10548
▁야전	-10549
▁136	-10550
▁악령	-10551
▁뱉	-10552
▁로브	-10553
려보	-10554
▁Dark	-10555
▁페르시아	-10556
▁패스트	-10557
▁공고	-10558
▁동아시아	-10559
▁pro	-10560
▁이인	-10561
▁개그맨	-10562
▁바닐라	-10563
▁KC	-10564
▁김연	-10565
▁템포	-10566
프란	-10567
백과	-10568
▁어긋나	-10569
▁서장	-10570
▁오프라인	-10571
▁라임	-10572
▁방안	-10573
▁지극	-10574
▁징크스	-10575
▁일환	-10576
▁쓰러트리	-10577
▁안철수	-10578
▁랙	-10579
▁적립	-10580
▁조준경	-10581
디스	-10582
▁쫓아가	-10583
▁경찰청	-10584
▁완구	-10585
▁텀	-10586
립트	-10587
▁제이슨	-10588
▁사범	-10589
좀무	-10590
▁유고	-10591
▁흠좀무	-10592
▁아이스크림	-10593
▁0900	-10594
무실	-10595
▁궁전	-10596
▁한층	-10597
▁유선	-10598
▁자부	-10599
▁훈훈	-10600
▁동사	-10601
▁알렉산더	-10602
▁숙주	-10603
▁유해	-10604
▁중심지	-10605
레이트	-10606
▁모던	-10607
▁경지	-10608
▁번갈	-10609
▁화소	-10610
▁time	-10611
무게	-10612
▁157	-10613
▁몸무게	-10614
▁330	-10615
▁어린아이	-10616
ideo	-10617
▁깃들	-10618
▁더구나	-10619
▁메이트	-10620
▁참으로	-10621
▁세미	-10622
▁중년	-10623
▁연의	-10624
▁타고	-10625
▁출고	-10626
지오	-10627
▁뮤지션	-10628
▁핸드폰	-10629
▁모양새	-10630
▁체격	-10631
▁혼동	-10632
티넘	-10633
▁플래티넘	-10634
▁갈리아	-10635
▁Sm	-10636
▁열세	-10637
▁카니	-10638
▁근력	-10639
▁술집	-10640
▁양대	-10641
▁미라이	-10642
▁라바	-10643
▁Sl	-10644
▁순정	-10645
▁내뿜	-10646
▁문신	-10647
▁1963	-10648
▁방호	-10649
▁앞뒤	-10650
풀이	-10651
▁브루스	-10652
▁안토니	-10653
▁제우스	-10654
▁주한	-10655
▁호박	-10656
▁연금술사	-10657
▁휴스턴	-10658
▁레프	-10659
▁브이	-10660
▁패드	-10661
애나	-10662
other	-10663
▁대중교통	-10664
ors	-10665
▁우천	-10666
▁정서	-10667
▁하카	-10668
▁져	-10669
▁창립	-10670
▁외면	-10671
▁사투리	-10672
▁설탕	-10673
air	-10674
▁270	-10675
▁성숙	-10676
▁에일리	-10677
▁Blue	-10678
▁오키나	-10679
▁출연진	-10680
▁샤를	-10681
▁좌파	-10682
land	-10683
▁저조	-10684
▁침해	-10685
▁코즈	-10686
▁전반전	-10687
▁워너	-10688
▁눈빛	-10689
▁집필	-10690
▁플라스틱	-10691
▁Baby	-10692
▁본의	-10693
▁외관	-10694
▁줄리	-10695
▁AG	-10696
▁시흥	-10697
▁투신	-10698
▁스케이	-10699
▁ab	-10700
▁Ac	-10701
▁농민	-10702
▁제프	-10703
▁클라우드	-10704
iew	-10705
▁장례식	-10706
▁타당	-10707
▁나뭇	-10708
▁유코	-10709
▁박상	-10710
▁1968	-10711
▁꿰뚫	-10712
▁저러	-10713
anna	-10714
▁대진	-10715
▁신수	-10716
▁전라북도	-10717
▁제사	-10718
▁죄송	-10719
▁깨알	-10720
▁환사	-10721
▁타다	-10722
▁전열	-10723
▁테러리스트	-10724
▁우상	-10725
▁도시락	-10726
▁냅	-10727
▁하이브리	-10728
▁체스	-10729
▁미티	-10730
▁선교	-10731
▁미니언	-10732
▁하이브리드	-10733
▁장풍	-10734
▁해독	-10735
▁벌금	-10736
▁히로시마	-10737
▁테루	-10738
▁샤워	-10739
▁동호	-10740
▁수시로	-10741
▁청나라	-10742
▁세스	-10743
▁브레인	-10744
▁기피	-10745
▁오비	-10746
▁ㄹ라	-10747
▁브론즈	-10748
▁방언	-10749
▁무수	-10750
▁악하	-10751
ush	-10752
▁이아	-10753
▁김대중	-10754
▁부사관	-10755
▁자칫	-10756
▁집합	-10757
▁취지	-10758
▁적성	-10759
▁멜론	-10760
▁허브	-10761
▁Li	-10762
▁후루	-10763
▁센트럴	-10764
▁희대	-10765
▁심상	-10766
▁149	-10767
▁모어	-10768
▁각국	-10769
▁ㄹ려고	-10770
▁헤일	-10771
▁공영	-10772
▁담임	-10773
▁하비	-10774
▁몰아붙이	-10775
▁트러블	-10776
▁공모	-10777
▁총독	-10778
▁마켓	-10779
▁후쿠시마	-10780
▁방공	-10781
▁경제학	-10782
▁푹	-10783
카미	-10784
▁가혹	-10785
토리얼	-10786
▁강세	-10787
▁모함	-10788
▁Fire	-10789
▁남미	-10790
▁사탄	-10791
▁상쇄	-10792
▁브레이브	-10793
▁기하	-10794
▁조교	-10795
▁쳐내	-10796
▁넉넉	-10797
▁지문	-10798
▁146	-10799
▁기함	-10800
▁확고	-10801
▁튜토리얼	-10802
르도	-10803
▁마초	-10804
▁되살리	-10805
▁오리진	-10806
▁격전	-10807
▁암컷	-10808
▁황실	-10809
▁연회	-10810
▁주의자	-10811
▁크롤	-10812
▁베일	-10813
▁거품	-10814
▁종착	-10815
▁260	-10816
▁OK	-10817
▁환수	-10818
▁리액	-10819
OID	-10820
▁El	-10821
▁프로토타입	-10822
▁라프	-10823
▁하여금	-10824
▁심화	-10825
▁낡	-10826
▁페이커	-10827
▁저희	-10828
▁일삼	-10829
na	-10830
▁경과	-10831
▁마테	-10832
▁아르카	-10833
▁유니온	-10834
▁소사	-10835
▁럴	-10836
▁빈틈	-10837
▁Dis	-10838
▁프렌즈	-10839
▁일레븐	-10840
▁월등	-10841
▁섹스	-10842
▁웨인	-10843
▁BEMAN	-10844
▁초상화	-10845
▁줌	-10846
▁찰리	-10847
▁인체	-10848
▁밀어주	-10849
▁장동	-10850
▁지난	-10851
▁루키	-10852
전트	-10853
▁미스터리	-10854
▁수다	-10855
글라스	-10856
▁일품	-10857
▁초교	-10858
▁실력자	-10859
▁병장	-10860
▁상공	-10861
▁원자력	-10862
▁타카시	-10863
▁성비	-10864
▁프로모	-10865
단지	-10866
▁방화	-10867
▁랩터	-10868
▁DJMAX	-10869
▁공손	-10870
▁개미	-10871
▁다기	-10872
▁브랜	-10873
▁성기	-10874
▁파격	-10875
▁오의	-10876
▁BEMANI	-10877
▁맥락	-10878
▁슈터	-10879
두사	-10880
▁sm	-10881
▁므	-10882
▁별칭	-10883
▁레이너	-10884
▁속력	-10885
▁적재	-10886
▁고추	-10887
▁합법	-10888
▁포워드	-10889
▁쎄	-10890
▁석상	-10891
▁중학생	-10892
▁운반	-10893
▁클러	-10894
▁핸들	-10895
▁ㅓㅆ었	-10896
베트	-10897
▁신병	-10898
▁격기	-10899
▁고성	-10900
▁Champ	-10901
▁수량	-10902
▁미즈키	-10903
▁ㅏ야	-10904
▁도검	-10905
▁문법	-10906
▁주가	-10907
티노	-10908
ady	-10909
▁배우자	-10910
나리	-10911
▁야만	-10912
▁다이노스	-10913
▁자질	-10914
▁속공	-10915
▁말년	-10916
▁무선	-10917
▁STR	-10918
▁생선	-10919
▁연말	-10920
▁편견	-10921
넘기	-10922
레드	-10923
▁프랜차	-10924
▁하반기	-10925
▁빈번	-10926
▁파손	-10927
▁데스티니	-10928
▁우편	-10929
▁fl	-10930
▁오세	-10931
레슬링	-10932
토랑	-10933
▁명명	-10934
▁레스토랑	-10935
▁박명수	-10936
▁cc	-10937
▁북구	-10938
▁스트리밍	-10939
▁말아먹	-10940
▁뒷면	-10941
▁본가	-10942
▁매기	-10943
▁쐐	-10944
더링	-10945
▁발차기	-10946
▁피카츄	-10947
▁보구	-10948
▁유승	-10949
▁유유	-10950
ution	-10951
▁프로레슬링	-10952
▁통행	-10953
▁Pre	-10954
앙스	-10955
▁kr	-10956
▁Ev	-10957
▁불화	-10958
▁프랜차이즈	-10959
▁더라면	-10960
▁미로	-10961
구역	-10962
▁소령	-10963
▁205	-10964
▁주고	-10965
▁평창	-10966
사벽	-10967
▁DB	-10968
▁넘사벽	-10969
▁수컷	-10970
▁리바운드	-10971
▁수령	-10972
▁솜씨	-10973
▁뚜껑	-10974
▁퇴역	-10975
▁호출	-10976
더슨	-10977
▁앤디	-10978
▁가브리	-10979
▁선곡	-10980
▁프리즘	-10981
저드	-10982
▁맴	-10983
▁추출	-10984
ium	-10985
▁니나	-10986
▁단식	-10987
▁탯이	-10988
▁뽐	-10989
▁550	-10990
▁뉘앙스	-10991
▁1967	-10992
▁격리	-10993
▁대승	-10994
스틴	-10995
▁경질	-10996
엘라	-10997
▁박용	-10998
▁독립운동	-10999
메어	-11000
▁당국	-11001
▁진구	-11002
▁하라	-11003
▁자각	-11004
▁정형	-11005
▁부친	-11006
▁RP	-11007
▁클립	-11008
▁정체불명	-11009
▁전염	-11010
▁Summer	-11011
치아	-11012
석민	-11013
▁정재	-11014
▁하와	-11015
▁아메리칸	-11016
▁재빨리	-11017
▁타나카	-11018
▁신임	-11019
▁원흉	-11020
▁앞면	-11021
래스	-11022
▁디비전	-11023
▁애국	-11024
▁Grand	-11025
▁강점기	-11026
▁라나	-11027
▁이방	-11028
듈럼	-11029
▁질환	-11030
▁일례	-11031
▁부관	-11032
▁석사	-11033
▁나레이션	-11034
▁증인	-11035
▁털어놓	-11036
▁블래	-11037
▁간호사	-11038
▁교통사고	-11039
와라	-11040
▁무죄	-11041
▁광전사	-11042
▁운석	-11043
미르	-11044
▁잊어버리	-11045
▁GG	-11046
▁우가	-11047
▁우파	-11048
▁개개	-11049
▁메우	-11050
▁나이트메어	-11051
▁Rock	-11052
▁네코	-11053
▁츠바사	-11054
▁나열	-11055
▁원작자	-11056
리드	-11057
▁노블	-11058
▁콕	-11059
▁게임즈	-11060
▁가의	-11061
▁미들	-11062
▁오시	-11063
▁넥서스	-11064
▁147	-11065
▁하드웨어	-11066
▁퓨리	-11067
▁플레어	-11068
▁몹시	-11069
▁범행	-11070
▁펜듈럼	-11071
▁조그	-11072
▁미팅	-11073
▁총평	-11074
▁내셔널	-11075
▁동년	-11076
▁여관	-11077
▁211	-11078
▁무명	-11079
▁우체	-11080
▁무고	-11081
▁수수료	-11082
모어	-11083
퍼드	-11084
▁페인	-11085
▁특이점	-11086
현우	-11087
▁토마토	-11088
▁브라우	-11089
평가	-11090
▁입국	-11091
▁유신	-11092
▁SCP	-11093
▁소리치	-11094
▁Over	-11095
▁드릴	-11096
▁원종	-11097
▁탄탄	-11098
통수	-11099
▁줄어드	-11100
gain	-11101
▁배속	-11102
▁복면	-11103
▁은메달	-11104
▁back	-11105
▁아까	-11106
▁유무	-11107
▁하시	-11108
▁동등	-11109
▁만루	-11110
▁버릇	-11111
▁전례	-11112
▁멀리서	-11113
▁공습	-11114
▁저것	-11115
▁타고나	-11116
▁푼	-11117
▁체형	-11118
▁호노	-11119
▁말레이시아	-11120
▁대외	-11121
▁퓨어	-11122
▁감전	-11123
▁더하	-11124
노스케	-11125
▁쫓아오	-11126
▁군림	-11127
▁LED	-11128
▁day	-11129
▁아이폰	-11130
▁포식	-11131
▁메모	-11132
▁통수	-11133
▁인어	-11134
▁Dance	-11135
▁호그	-11136
▁게시물	-11137
▁텅	-11138
고래	-11139
▁실루	-11140
▁싣	-11141
▁재활	-11142
▁강팀	-11143
▁힐링	-11144
ction	-11145
▁떄	-11146
▁사슴	-11147
▁에바	-11148
▁방과	-11149
▁별자리	-11150
▁속박	-11151
▁추궁	-11152
▁십자가	-11153
▁광속	-11154
▁아래쪽	-11155
▁영등포	-11156
▁전두	-11157
▁파문	-11158
▁그리드	-11159
▁심문	-11160
▁뭔	-11161
▁DR	-11162
▁옌	-11163
▁살인마	-11164
▁대패	-11165
▁리키	-11166
▁무슬	-11167
▁서두르	-11168
▁권능	-11169
▁사교	-11170
▁온몸	-11171
▁VOC	-11172
▁관절	-11173
▁This	-11174
▁동북	-11175
▁알렉산드	-11176
▁홀딩	-11177
▁함재기	-11178
▁한강	-11179
▁폴리스	-11180
▁염색	-11181
▁픽셀	-11182
▁제보	-11183
▁now	-11184
▁대군	-11185
▁배송	-11186
▁내구력	-11187
ne	-11188
▁이창	-11189
▁노비	-11190
▁호투	-11191
▁SL	-11192
▁루팡	-11193
▁미스트	-11194
트랙	-11195
결승	-11196
파리	-11197
irst	-11198
▁거니	-11199
▁경순	-11200
▁밀치	-11201
▁점사	-11202
▁Wii	-11203
▁격침	-11204
▁교내	-11205
▁But	-11206
▁노트북	-11207
▁직속	-11208
▁발라드	-11209
▁진도	-11210
▁오디오	-11211
▁박탈	-11212
▁속편	-11213
▁라파	-11214
▁Gold	-11215
▁무제한	-11216
츠카	-11217
▁미수	-11218
▁길거리	-11219
▁박재	-11220
▁3164	-11221
▁통증	-11222
▁레이첼	-11223
▁어느새	-11224
▁여배우	-11225
▁목재	-11226
▁캐스트	-11227
▁카우	-11228
▁박영	-11229
▁발현	-11230
▁하행	-11231
▁기괴	-11232
기사	-11233
▁Ste	-11234
▁해적단	-11235
▁상행	-11236
▁HG	-11237
▁보행	-11238
▁시초	-11239
▁우물	-11240
▁채취	-11241
▁박찬	-11242
▁자격증	-11243
▁화내	-11244
ount	-11245
▁MSL	-11246
▁요리사	-11247
▁공천	-11248
▁새우	-11249
▁에도	-11250
▁가창	-11251
▁무슬림	-11252
▁증가량	-11253
▁성직자	-11254
▁륙	-11255
▁리엘	-11256
▁격투기	-11257
▁왕좌	-11258
▁동메달	-11259
▁클레이	-11260
콥터	-11261
▁교양	-11262
▁쫄	-11263
▁DX	-11264
▁스퀘어	-11265
▁불평	-11266
▁국민당	-11267
▁타치바나	-11268
▁HK	-11269
박히	-11270
▁ㄹ지라도	-11271
▁무사시	-11272
▁단말	-11273
▁빌보드	-11274
▁안드로	-11275
let	-11276
▁FL	-11277
▁구타	-11278
▁지지자	-11279
▁남발	-11280
▁첫날	-11281
자동	-11282
▁성수	-11283
▁셋째	-11284
▁Just	-11285
▁자니	-11286
▁스네이크	-11287
▁대공포	-11288
▁머릿	-11289
▁줄줄	-11290
▁동로	-11291
▁창세	-11292
현진	-11293
ring	-11294
느님	-11295
▁닉스	-11296
▁별점	-11297
▁방송인	-11298
▁둥글	-11299
▁기획사	-11300
▁달라붙	-11301
▁누명	-11302
▁쇼트	-11303
▁여친	-11304
▁일일이	-11305
▁농락	-11306
▁1966	-11307
플렉스	-11308
▁미사키	-11309
▁가성	-11310
▁뒤통수	-11311
줌마	-11312
▁지온	-11313
▁204	-11314
무네	-11315
▁번식	-11316
▁삼촌	-11317
▁증발	-11318
DS	-11319
▁동문	-11320
▁리턴	-11321
▁멸종	-11322
▁손톱	-11323
eng	-11324
▁샌프란	-11325
▁샌프란시스코	-11326
▁어설프	-11327
▁하느님	-11328
▁오키나와	-11329
어쓰	-11330
▁회복력	-11331
▁물가	-11332
▁명나라	-11333
▁DNA	-11334
레일	-11335
▁스킵	-11336
▁아줌마	-11337
▁TW	-11338
▁크리스토	-11339
▁독수리	-11340
▁혼합	-11341
저것	-11342
▁이것저것	-11343
▁동조	-11344
▁pt	-11345
▁수강	-11346
▁좁히	-11347
▁찢어지	-11348
▁책정	-11349
▁166	-11350
▁대쉬	-11351
▁제스	-11352
▁회견	-11353
▁공존	-11354
▁비즈	-11355
▁뷔	-11356
▁프로모션	-11357
▁몰아내	-11358
▁사망자	-11359
▁기합	-11360
▁경감	-11361
▁사모	-11362
▁괴력	-11363
▁카구라	-11364
▁스크립트	-11365
▁네놈	-11366
두리	-11367
▁셸	-11368
▁커트	-11369
▁쓸어버리	-11370
▁news	-11371
▁명곡	-11372
▁직무	-11373
▁후대	-11374
▁사우루스	-11375
▁다이스케	-11376
▁주심	-11377
산동	-11378
▁공자	-11379
▁복용	-11380
▁코바야시	-11381
▁포효	-11382
▁Korea	-11383
▁CA	-11384
▁사료	-11385
▁돌아보	-11386
▁정크	-11387
▁VOCAL	-11388
▁친목	-11389
▁Can	-11390
▁악어	-11391
소수	-11392
▁셰프	-11393
▁반짝이	-11394
▁회귀	-11395
▁단과	-11396
▁트렌	-11397
▁롤링	-11398
▁시가	-11399
▁한숨	-11400
▁기술자	-11401
▁슬로우	-11402
파크	-11403
▁정정	-11404
▁호프	-11405
메스	-11406
▁카이토	-11407
▁인쇄	-11408
▁현상금	-11409
자재	-11410
▁휩싸	-11411
▁이례	-11412
▁급히	-11413
▁연고지	-11414
▁인천광역시	-11415
ina	-11416
▁계란	-11417
▁FB	-11418
▁접어들	-11419
▁회오리	-11420
스트림	-11421
▁도라에몽	-11422
▁동족	-11423
▁필터	-11424
▁카르마	-11425
▁실습	-11426
▁아카리	-11427
▁키트	-11428
▁박치기	-11429
ERO	-11430
▁헬리콥터	-11431
프라	-11432
▁Sec	-11433
▁레이트	-11434
보그	-11435
▁고조	-11436
▁캐리어	-11437
▁박해	-11438
▁스냅	-11439
▁650	-11440
▁KTX	-11441
▁MHz	-11442
▁비타	-11443
▁비로소	-11444
▁신정	-11445
UR	-11446
▁김원	-11447
▁분장	-11448
▁만행	-11449
▁장원	-11450
▁니카	-11451
▁타시	-11452
▁회심	-11453
▁로컬	-11454
조합	-11455
커녕	-11456
상가상	-11457
▁부류	-11458
▁진수	-11459
▁설상가상	-11460
▁......	-11461
▁포대	-11462
▁홍진호	-11463
▁피스트	-11464
▁광대	-11465
▁프린스	-11466
▁미판	-11467
소문	-11468
▁시부	-11469
▁Music	-11470
▁토이	-11471
▁루마니아	-11472
▁로저	-11473
▁우메	-11474
▁디렉터	-11475
티콘	-11476
▁경보	-11477
OO	-11478
▁듀크	-11479
▁빠뜨리	-11480
▁브릿	-11481
▁EBS	-11482
▁At	-11483
▁박경	-11484
▁얕	-11485
▁난감	-11486
▁이속	-11487
네이터	-11488
▁셉	-11489
▁하리	-11490
▁김형	-11491
▁문어	-11492
▁미하	-11493
▁반군	-11494
▁유영	-11495
▁천마	-11496
▁분홍색	-11497
▁Su	-11498
▁유난	-11499
ally	-11500
▁리플렉	-11501
▁가급	-11502
▁태극	-11503
▁파수	-11504
▁퐁	-11505
▁총열	-11506
▁실루엣	-11507
▁살상	-11508
▁슬퍼	-11509
▁선우	-11510
▁Ep	-11511
▁감행	-11512
▁보살	-11513
▁괴상	-11514
▁바티	-11515
니카	-11516
▁갈아타	-11517
▁프랑크	-11518
▁병살타	-11519
▁개연	-11520
▁로코	-11521
▁망령	-11522
▁열람	-11523
▁한발	-11524
▁스완	-11525
▁Live	-11526
▁유정	-11527
▁똑똑	-11528
▁레즈	-11529
▁미성년	-11530
▁짚	-11531
바다	-11532
ART	-11533
▁GN	-11534
▁습관	-11535
▁퍼센트	-11536
▁텍스	-11537
▁뽕	-11538
▁아타	-11539
▁Comm	-11540
▁무진	-11541
▁입양	-11542
▁케이지	-11543
▁항아리	-11544
▁1962	-11545
▁어퍼	-11546
마당	-11547
▁장학	-11548
▁조직원	-11549
널드	-11550
▁대마	-11551
▁달빛	-11552
▁딸기	-11553
▁카가미	-11554
▁해치우	-11555
▁관직	-11556
▁츠나	-11557
▁BF	-11558
▁진정하	-11559
▁암울	-11560
젤레스	-11561
▁학점	-11562
▁고토	-11563
▁요시다	-11564
▁야외	-11565
▁춘천	-11566
▁그리하여	-11567
▁콜롬	-11568
장난	-11569
▁경유지	-11570
▁악의	-11571
▁가미	-11572
▁고릴라	-11573
▁MX	-11574
▁재직	-11575
▁홈즈	-11576
▁진리	-11577
▁험하	-11578
▁엘리스	-11579
▁서태	-11580
▁`	-11581
▁돌격소총	-11582
▁발광	-11583
▁가나	-11584
▁금색	-11585
▁레기	-11586
▁리티	-11587
▁위키백과	-11588
▁목동	-11589
▁끼어들	-11590
▁키무라	-11591
누르	-11592
son	-11593
▁단정	-11594
▁판권	-11595
▁기법	-11596
▁양보	-11597
▁영진	-11598
▁UF	-11599
▁사이보그	-11600
▁대인배	-11601
▁주거	-11602
▁클라이	-11603
▁진성	-11604
▁코다	-11605
▁후문	-11606
▁get	-11607
▁주되	-11608
▁뇌물	-11609
▁바주	-11610
use	-11611
▁강수	-11612
▁천공	-11613
▁김명	-11614
▁파벌	-11615
▁요시노	-11616
▁카에	-11617
▁고든	-11618
▁1800	-11619
▁연발	-11620
▁코요	-11621
▁받치	-11622
▁저서	-11623
▁똘	-11624
▁섀도	-11625
문트	-11626
▁용감	-11627
▁소절	-11628
▁천둥	-11629
▁도청	-11630
▁북아	-11631
▁스퍼	-11632
얼거리	-11633
▁ㄴ들	-11634
▁구급	-11635
▁경쟁자	-11636
▁세탁	-11637
▁안보	-11638
▁169	-11639
관총	-11640
▁투니	-11641
▁오케스트라	-11642
▁레이나	-11643
▁빼내	-11644
▁서민	-11645
▁GR	-11646
tr	-11647
▁응하	-11648
▁바니	-11649
itch	-11650
▁뢰	-11651
▁예지	-11652
▁산책	-11653
▁Power	-11654
▁gr	-11655
▁라드	-11656
▁디펜스	-11657
▁단속	-11658
▁사스케	-11659
▁Leg	-11660
▁Af	-11661
▁Res	-11662
▁베이더	-11663
▁잠재력	-11664
▁주황색	-11665
▁차용	-11666
일라	-11667
▁실업	-11668
▁귀하	-11669
▁법안	-11670
▁++	-11671
▁번트	-11672
▁한탄	-11673
▁로저스	-11674
attle	-11675
▁돌이	-11676
▁ㄴ다던가	-11677
▁외롭	-11678
inn	-11679
▁볼텍스	-11680
▁수용소	-11681
▁Hard	-11682
▁타니	-11683
체스	-11684
▁바그	-11685
▁man	-11686
▁치사	-11687
▁MR	-11688
▁결사	-11689
▁그랜	-11690
▁급기	-11691
▁RC	-11692
▁꽂히	-11693
▁송출	-11694
▁저렇게	-11695
▁어미	-11696
▁조력자	-11697
▁행방불명	-11698
▁처절	-11699
▁장제스	-11700
▁추적자	-11701
▁1940	-11702
▁배상	-11703
▁Pv	-11704
▁ARM	-11705
▁UI	-11706
▁남작	-11707
▁자판	-11708
▁영남	-11709
▁전속	-11710
▁저상	-11711
▁히토미	-11712
▁접점	-11713
쌔신	-11714
▁쿠루	-11715
▁어쌔신	-11716
75	-11717
▁혹사	-11718
▁슬퍼하	-11719
▁직결	-11720
▁청원	-11721
니클	-11722
▁넓히	-11723
▁은혜	-11724
▁전산	-11725
▁교관	-11726
▁커비	-11727
▁수복	-11728
▁마요	-11729
못미	-11730
▁열악	-11731
▁지못미	-11732
▁거스르	-11733
▁페이트	-11734
▁Ma	-11735
▁월급	-11736
▁리조	-11737
▁우습	-11738
▁공약	-11739
▁제다이	-11740
▁따라다니	-11741
▁코이	-11742
▁쐐기	-11743
▁크리스티	-11744
징어	-11745
▁출중	-11746
▁호로	-11747
▁숙이	-11748
▁경선	-11749
▁냉각	-11750
▁런닝	-11751
▁배기	-11752
▁Life	-11753
놀이	-11754
▁고산	-11755
▁ADV	-11756
▁미코토	-11757
장이	-11758
▁편안	-11759
▁응원가	-11760
▁진행자	-11761
▁블래스트	-11762
▁워낙에	-11763
▁Sing	-11764
XT	-11765
▁마운드	-11766
▁구두	-11767
▁준결승	-11768
▁제원	-11769
▁매너	-11770
▁Che	-11771
▁Master	-11772
▁여정	-11773
▁보잉	-11774
TC	-11775
아라	-11776
▁but	-11777
▁노려보	-11778
▁카밀	-11779
▁카즈마	-11780
▁공과	-11781
▁으리라	-11782
▁천주교	-11783
▁독서	-11784
▁화나	-11785
▁기복	-11786
▁라오	-11787
▁동요	-11788
ern	-11789
▁켈리	-11790
큘라	-11791
▁느니	-11792
▁카를로스	-11793
규모	-11794
▁닫히	-11795
▁출근	-11796
▁피치	-11797
▁정확도	-11798
▁무르	-11799
▁아이유	-11800
▁VOCALOID	-11801
ars	-11802
▁코파	-11803
▁트리스	-11804
▁나들	-11805
▁설화	-11806
토르	-11807
▁모닝	-11808
▁쪼개	-11809
▁선방	-11810
▁준공	-11811
▁나들목	-11812
▁김두한	-11813
▁출루율	-11814
▁튜닝	-11815
니스트	-11816
▁미끄	-11817
▁LCK	-11818
▁망가	-11819
▁슬리	-11820
▁키사	-11821
asy	-11822
▁Fem	-11823
▁근성	-11824
▁Rem	-11825
준표	-11826
▁예언자	-11827
▁ㅋㅋ	-11828
▁광탈	-11829
▁무효화	-11830
▁탈당	-11831
▁가호	-11832
▁실정	-11833
▁무빙	-11834
▁주고받	-11835
▁뷰티	-11836
▁시가지	-11837
총리	-11838
▁데우스	-11839
▁갈라	-11840
rain	-11841
▁휴게소	-11842
▁훅	-11843
▁감히	-11844
▁리전	-11845
▁co	-11846
▁여권	-11847
▁호기심	-11848
▁베인	-11849
IE	-11850
▁동탁	-11851
▁충청북도	-11852
▁Lo	-11853
▁불신	-11854
UE	-11855
▁im	-11856
▁채집	-11857
▁동체	-11858
▁Out	-11859
▁부럽	-11860
▁러시아어	-11861
▁원활	-11862
▁농사	-11863
▁사출	-11864
▁한도	-11865
▁카오리	-11866
▁형편없	-11867
▁1944	-11868
▁헤매	-11869
▁전세	-11870
▁증기	-11871
▁""	-11872
▁토로	-11873
▁네이트	-11874
▁더비	-11875
▁일어서	-11876
▁지주	-11877
▁당첨	-11878
▁댄서	-11879
▁쩔	-11880
▁반대편	-11881
▁1930	-11882
▁부흥	-11883
▁픽업	-11884
▁야심	-11885
to	-11886
▁비장	-11887
▁OPS	-11888
▁이변	-11889
▁실명	-11890
▁매출액	-11891
▁제라	-11892
▁교향	-11893
▁전두환	-11894
▁금호	-11895
ana	-11896
▁재사	-11897
24	-11898
▁야시	-11899
▁징징	-11900
▁사안	-11901
▁부당	-11902
▁더욱이	-11903
▁카디	-11904
▁매칭	-11905
▁소매	-11906
심장	-11907
▁사당	-11908
▁뽐내	-11909
테이	-11910
▁늦추	-11911
▁포트리스	-11912
▁궤적	-11913
▁열등	-11914
▁불어	-11915
▁창병	-11916
▁상용	-11917
▁무림	-11918
▁득점자	-11919
▁간선	-11920
▁체리	-11921
▁금화	-11922
▁일절	-11923
▁구단주	-11924
▁카노	-11925
▁151	-11926
▁포맷	-11927
▁노기	-11928
▁차후	-11929
▁OB	-11930
▁다짐	-11931
▁자회사	-11932
cl	-11933
▁구마	-11934
▁문고	-11935
▁시에	-11936
▁태자	-11937
▁유방	-11938
▁자처	-11939
▁탬	-11940
년기	-11941
▁농협	-11942
▁이질	-11943
차례	-11944
▁내수	-11945
ield	-11946
▁중전차	-11947
▁학술	-11948
▁999	-11949
▁End	-11950
▁등교	-11951
▁괴리	-11952
▁서지	-11953
▁저리	-11954
▁256	-11955
▁친정	-11956
▁신칸	-11957
▁성역	-11958
▁숀	-11959
▁모범	-11960
▁이은	-11961
마침	-11962
▁동지	-11963
▁인벤토리	-11964
▁매달	-11965
▁목적지	-11966
▁이노우	-11967
▁민정	-11968
▁테일러	-11969
atic	-11970
▁유난히	-11971
코어	-11972
▁준하	-11973
▁초선	-11974
▁팔찌	-11975
▁세레	-11976
▁Fi	-11977
▁허공	-11978
▁지극히	-11979
▁군복	-11980
▁사극	-11981
▁동갑	-11982
▁교감	-11983
▁때마침	-11984
▁부호	-11985
▁POP	-11986
▁신칸센	-11987
riend	-11988
▁Hell	-11989
클럽	-11990
▁수식	-11991
대기	-11992
▁잔디	-11993
▁깽판	-11994
▁소시	-11995
▁지표	-11996
▁스타팅	-11997
▁시스터	-11998
▁샨	-11999
▁PVP	-12000
▁막아	-12001
▁코타로	-12002
무소	-12003
▁어리석	-12004
▁함포	-12005
▁못지않	-12006
▁김일성	-12007
▁세세	-12008
▁퀄컴	-12009
▁법학	-12010
▁서해	-12011
▁Miss	-12012
▁배열	-12013
▁아이언맨	-12014
▁라지만	-12015
▁이용해	-12016
▁1965	-12017
지부	-12018
▁쿠노	-12019
▁세일	-12020
▁클레어	-12021
▁야마구치	-12022
▁충북	-12023
▁향기	-12024
▁빅토르	-12025
▁불로	-12026
▁확립	-12027
▁Air	-12028
▁1964	-12029
▁순교	-12030
▁안성	-12031
▁숏	-12032
▁수험	-12033
▁필연	-12034
▁SG	-12035
▁가뜩	-12036
▁쿠시	-12037
33	-12038
▁night	-12039
▁신대	-12040
▁부대원	-12041
▁엿보	-12042
▁포토	-12043
▁아몬	-12044
▁음주	-12045
▁타나	-12046
▁파파	-12047
▁마차	-12048
ittle	-12049
▁구절	-12050
▁애교	-12051
▁웨어	-12052
▁커먼	-12053
▁리마	-12054
▁스캔들	-12055
▁개개인	-12056
▁쑥	-12057
▁sc	-12058
▁센티	-12059
▁6000	-12060
LS	-12061
▁본성	-12062
▁애시	-12063
▁에일리언	-12064
▁발악	-12065
▁교직	-12066
▁가뜩이나	-12067
▁조폭	-12068
▁집중력	-12069
▁카스미	-12070
▁아카이	-12071
▁설비	-12072
▁럼블	-12073
▁트로이	-12074
▁휩싸이	-12075
▁정동	-12076
▁q	-12077
▁서정	-12078
▁영동	-12079
▁이치고	-12080
▁380	-12081
▁오징어	-12082
▁고요	-12083
▁Hy	-12084
▁보리	-12085
▁일본식	-12086
▁Vo	-12087
▁역병	-12088
▁아홉	-12089
뮤직	-12090
▁가급적	-12091
▁콜드	-12092
▁절규	-12093
▁just	-12094
▁바비	-12095
▁케로	-12096
▁연구실	-12097
▁랜턴	-12098
▁후예	-12099
▁바주카	-12100
▁스타크	-12101
▁세나	-12102
▁VR	-12103
▁악랄	-12104
▁신흥	-12105
▁반항	-12106
▁고폭탄	-12107
▁중견수	-12108
▁밋	-12109
▁넥슨	-12110
▁수녀	-12111
▁자주포	-12112
▁국산	-12113
▁액셀	-12114
▁팔라딘	-12115
▁손아	-12116
▁Mod	-12117
▁반갑	-12118
28	-12119
▁볼륨	-12120
▁소동	-12121
▁설계도	-12122
▁출몰	-12123
▁폿	-12124
▁패미	-12125
▁자크	-12126
▁직역	-12127
▁김택	-12128
▁레몬	-12129
▁임원	-12130
▁쏠쏠	-12131
▁토오루	-12132
레스트	-12133
▁챌린저	-12134
▁그려	-12135
▁로딩	-12136
▁샤크	-12137
▁스콧	-12138
▁왠만	-12139
▁Di	-12140
▁포지	-12141
▁라틴어	-12142
▁상체	-12143
▁아델	-12144
▁차관	-12145
▁직구	-12146
▁소감	-12147
▁게릴라	-12148
▁시코	-12149
▁노엘	-12150
▁MT	-12151
▁페니	-12152
▁성형	-12153
▁토네	-12154
▁접근성	-12155
▁이야말로	-12156
▁승려	-12157
▁학번	-12158
▁연비	-12159
▁강행	-12160
▁강판	-12161
▁EMP	-12162
▁Sy	-12163
▁1920	-12164
사관	-12165
▁야드	-12166
▁전폭	-12167
▁차선	-12168
▁일렉트로	-12169
▁즉각	-12170
▁따돌리	-12171
▁예장	-12172
▁조영	-12173
▁서대	-12174
▁마도사	-12175
▁YOU	-12176
▁수상자	-12177
블릿	-12178
▁King	-12179
▁도요	-12180
▁tvN	-12181
▁소규모	-12182
▁공산주의	-12183
▁매스	-12184
▁하타	-12185
▁XXX	-12186
▁칙	-12187
▁파이브	-12188
▁what	-12189
▁첨단	-12190
▁총탄	-12191
▁Ang	-12192
▁가르침	-12193
이센	-12194
▁노조미	-12195
▁노이즈	-12196
ony	-12197
동원	-12198
▁기성	-12199
▁남동	-12200
▁최영	-12201
▁호쿠	-12202
▁IG	-12203
▁리우	-12204
▁상가	-12205
▁페가	-12206
란트	-12207
▁용맹	-12208
▁무전	-12209
▁자신감	-12210
▁악용	-12211
▁건재	-12212
▁시몬	-12213
▁다비	-12214
▁패기	-12215
▁살피	-12216
▁전리	-12217
숨에	-12218
▁단숨에	-12219
▁한심	-12220
▁진료	-12221
▁펠리	-12222
▁퍼부	-12223
▁UFC	-12224
▁재사용	-12225
▁태조	-12226
▁오로라	-12227
▁인터페이스	-12228
무기	-12229
테이너	-12230
포드	-12231
▁서킷	-12232
▁콘티	-12233
▁샤프	-12234
▁안산	-12235
▁리에	-12236
▁광신	-12237
▁밀집	-12238
▁양측	-12239
mania	-12240
▁빈사	-12241
▁크루즈	-12242
▁드라군	-12243
▁동인지	-12244
로프	-12245
▁타케시	-12246
▁퇴출	-12247
▁자수	-12248
▁마에다	-12249
▁바루	-12250
▁생산력	-12251
▁밀란	-12252
▁먹방	-12253
▁밉	-12254
▁샴	-12255
▁박격	-12256
▁초사	-12257
▁STER	-12258
▁카린	-12259
▁타국	-12260
▁적진	-12261
▁수고	-12262
▁사임	-12263
▁퇴사	-12264
▁공성전	-12265
▁카무이	-12266
▁리쿠	-12267
▁실황	-12268
▁와이어	-12269
▁딱딱	-12270
▁자연수	-12271
▁드라큘라	-12272
▁오인	-12273
▁에밀리	-12274
▁우아	-12275
▁원고	-12276
▁쿠파	-12277
▁플루	-12278
▁길들이	-12279
▁카타르	-12280
미스	-12281
▁말미	-12282
ma	-12283
▁운운	-12284
▁이우	-12285
▁타노스	-12286
▁0000	-12287
▁EA	-12288
▁스피커	-12289
▁원내	-12290
▁대상자	-12291
▁옵티	-12292
▁만료	-12293
▁저격총	-12294
▁솔라	-12295
▁승천	-12296
▁재난	-12297
▁수비진	-12298
▁소극	-12299
▁안면	-12300
▁카탈	-12301
▁허위	-12302
▁사사키	-12303
▁페르난	-12304
▁카지노	-12305
▁Cy	-12306
▁은밀	-12307
▁로사	-12308
▁총격	-12309
▁게리온	-12310
어먹	-12311
타르	-12312
▁웨이트	-12313
▁뮬	-12314
▁이선	-12315
▁대주	-12316
▁변질	-12317
단체	-12318
▁학회	-12319
▁대대로	-12320
▁지그	-12321
▁파인	-12322
▁프랭	-12323
▁IDOL	-12324
▁덫	-12325
▁대출	-12326
▁선대	-12327
▁멀쩡히	-12328
곡동	-12329
▁유토	-12330
▁벅스	-12331
▁포럼	-12332
▁깁	-12333
▁진가	-12334
▁투하	-12335
▁1600	-12336
▁메테오	-12337
▁랴	-12338
밀리아	-12339
▁관동	-12340
▁131	-12341
▁목요일	-12342
인드	-12343
터스	-12344
▁태세	-12345
▁스티커	-12346
▁선제골	-12347
be	-12348
▁낙인	-12349
▁스위트	-12350
▁소용돌이	-12351
ual	-12352
▁장편	-12353
▁무궁화	-12354
▁Run	-12355
▁보증	-12356
▁치명상	-12357
▁카이사르	-12358
▁아이리스	-12359
▁초당	-12360
▁되살아나	-12361
▁생산량	-12362
▁white	-12363
▁초래	-12364
▁부평	-12365
▁마사키	-12366
▁괴담	-12367
▁SV	-12368
▁MASTER	-12369
▁좌표	-12370
▁마이트	-12371
▁야쿠자	-12372
▁케이트	-12373
▁가브리엘	-12374
▁광복	-12375
▁MLB	-12376
하하	-12377
▁일진	-12378
▁물리학	-12379
회장	-12380
▁수요일	-12381
▁다단	-12382
▁염려	-12383
미즈	-12384
▁경성	-12385
▁축적	-12386
▁자유자재	-12387
▁천계	-12388
▁사에	-12389
▁민원	-12390
페르	-12391
▁외래	-12392
▁청산	-12393
▁UM	-12394
▁램프	-12395
▁내야수	-12396
▁우체국	-12397
▁이승만	-12398
▁원호	-12399
▁우루과이	-12400
▁골리	-12401
▁전교	-12402
▁전편	-12403
▁대각	-12404
ecial	-12405
▁아이작	-12406
▁하야토	-12407
▁부도	-12408
▁벡터	-12409
▁입학식	-12410
▁단골	-12411
셔츠	-12412
▁마징	-12413
▁통신사	-12414
▁사로잡히	-12415
▁SO	-12416
▁마징가	-12417
▁태블릿	-12418
▁School	-12419
▁다중	-12420
▁방금	-12421
▁동창	-12422
▁빅뱅	-12423
▁백합	-12424
▁분기점	-12425
▁뒤덮	-12426
권자	-12427
무장	-12428
ane	-12429
▁미타	-12430
▁서초	-12431
▁아야카	-12432
▁칠레	-12433
▁호전	-12434
▁결함	-12435
내리	-12436
▁물들	-12437
▁테이크	-12438
▁달걀	-12439
▁장타율	-12440
▁인맥	-12441
▁가축	-12442
▁대파	-12443
▁영미	-12444
▁경매	-12445
▁흑화	-12446
▁김전	-12447
▁Rec	-12448
▁꺾이	-12449
▁욕하	-12450
▁지상파	-12451
▁강성	-12452
▁소실	-12453
▁마커	-12454
▁Sound	-12455
▁렀다	-12456
▁주방	-12457
▁Art	-12458
▁궁지	-12459
▁도도	-12460
▁탄도	-12461
범죄	-12462
Fat	-12463
▁마운트	-12464
▁증권	-12465
▁재위	-12466
▁사쿠라이	-12467
▁박준	-12468
▁쉘	-12469
티어	-12470
ope	-12471
▁미시	-12472
▁제시카	-12473
▁피드백	-12474
▁홍준표	-12475
▁막바지	-12476
ret	-12477
▁허구	-12478
▁don	-12479
▁마이너스	-12480
▁Arm	-12481
▁김희	-12482
▁BAS	-12483
서야	-12484
▁베가	-12485
▁아루	-12486
▁인내	-12487
▁합당	-12488
▁피에	-12489
▁여고생	-12490
니즘	-12491
부시	-12492
질기	-12493
▁대법원	-12494
▁끈질기	-12495
▁적료	-12496
▁way	-12497
▁레지스	-12498
퇴근	-12499
▁어인	-12500
▁계열사	-12501
▁소설가	-12502
▁Femme	-12503
▁리트	-12504
▁일련	-12505
▁마모루	-12506
▁히노	-12507
▁루카스	-12508
베르트	-12509
▁강적	-12510
▁컨트롤러	-12511
▁설레	-12512
▁이과	-12513
▁캐롤	-12514
▁괄	-12515
▁고속도	-12516
▁둘러싸이	-12517
바퀴	-12518
▁시집	-12519
▁로스앤	-12520
▁로스앤젤레스	-12521
▁부츠	-12522
▁이마트	-12523
▁고속버스	-12524
수수	-12525
▁EM	-12526
▁그닥	-12527
▁매수	-12528
어찌	-12529
▁바이스	-12530
▁완수	-12531
일으키	-12532
▁세르비아	-12533
▁불러일으키	-12534
▁Rev	-12535
ision	-12536
대교	-12537
▁헌신	-12538
▁Cat	-12539
▁소피아	-12540
▁경희	-12541
▁기밀	-12542
▁플래닛	-12543
▁스코프	-12544
행위	-12545
▁양국	-12546
▁당나라	-12547
▁리베	-12548
▁박주	-12549
▁비시	-12550
재판	-12551
▁고어	-12552
▁오너	-12553
에이터	-12554
려드	-12555
▁간략	-12556
▁두부	-12557
▁소행	-12558
▁계좌	-12559
▁동래	-12560
▁김전일	-12561
▁WE	-12562
▁부식	-12563
elf	-12564
▁Ge	-12565
▁작별	-12566
▁브라더	-12567
▁VIP	-12568
▁어드밴스	-12569
▁프로리그	-12570
▁발칸	-12571
▁태그팀	-12572
▁레이터	-12573
▁자진	-12574
▁어찌어찌	-12575
▁총괄	-12576
▁튀기	-12577
▁모친	-12578
▁DO	-12579
▁원천	-12580
▁제르	-12581
▁실무	-12582
▁슈퍼스타	-12583
▁공방전	-12584
▁무작정	-12585
▁불멸	-12586
▁일보	-12587
Fatale	-12588
▁빨강	-12589
즈카	-12590
카즈	-12591
▁FemmeFatale	-12592
▁이가	-12593
▁지령	-12594
▁페더	-12595
we	-12596
▁식신	-12597
▁피처	-12598
▁쿠르	-12599
▁꽝	-12600
수스	-12601
▁극소수	-12602
▁요하	-12603
▁경량	-12604
▁그놈	-12605
▁입술	-12606
▁발전기	-12607
▁사용법	-12608
야샤	-12609
▁이누야샤	-12610
▁편대	-12611
▁1961	-12612
str	-12613
▁무언	-12614
▁파산	-12615
▁할리우드	-12616
▁우크라	-12617
▁크로니클	-12618
▁석궁	-12619
▁족장	-12620
▁시궁	-12621
▁군기	-12622
▁뒤집히	-12623
▁여당	-12624
ational	-12625
▁하세	-12626
쿠로	-12627
▁술법	-12628
▁Yeah	-12629
▁대잠	-12630
▁예명	-12631
▁제멋	-12632
SS	-12633
▁마작	-12634
▁다이나	-12635
▁성도	-12636
▁다던가	-12637
꿈치	-12638
수아	-12639
▁자취	-12640
▁진작	-12641
ouse	-12642
▁돌아서	-12643
AG	-12644
▁황태자	-12645
▁회화	-12646
▁넵	-12647
▁공로	-12648
▁ㄱ	-12649
▁쓸데없	-12650
▁방황	-12651
▁이스터	-12652
▁그려지	-12653
▁정계	-12654
▁에이전트	-12655
▁허세	-12656
▁화수	-12657
▁후타	-12658
▁아의	-12659
▁연금술	-12660
▁메꾸	-12661
▁반말	-12662
▁대본	-12663
▁소진	-12664
▁이에	-12665
▁광석	-12666
▁수락	-12667
appy	-12668
▁미츠루	-12669
같이	-12670
▁양파	-12671
▁NHK	-12672
▁얼핏	-12673
ORE	-12674
▁정명	-12675
▁초필	-12676
▁호노카	-12677
▁배지	-12678
▁혼종	-12679
▁Order	-12680
▁섬유	-12681
▁신디	-12682
▁하임	-12683
▁가명	-12684
▁효과음	-12685
▁유로파	-12686
▁팝픈	-12687
▁팝픈뮤직	-12688
▁악세	-12689
▁반환	-12690
▁1100	-12691
▁소심	-12692
케인	-12693
▁창업	-12694
▁껄	-12695
▁하워드	-12696
▁MD	-12697
▁수준급	-12698
▁병단	-12699
휴일	-12700
▁양키스	-12701
▁헬스	-12702
▁스플래시	-12703
▁스칼렛	-12704
▁하부	-12705
▁토론토	-12706
▁네모	-12707
스트로	-12708
▁이치로	-12709
라이나	-12710
▁검은색	-12711
▁Elect	-12712
▁뛰쳐	-12713
▁아그	-12714
▁바하	-12715
▁양현	-12716
▁키퍼	-12717
▁애당초	-12718
▁아즈사	-12719
언정	-12720
▁성채	-12721
▁br	-12722
▁엄지	-12723
투아	-12724
▁교섭	-12725
ness	-12726
▁주범	-12727
▁급기야	-12728
▁천적	-12729
▁코카	-12730
▁당원	-12731
▁카도	-12732
▁EXH	-12733
▁김혜	-12734
델피아	-12735
▁필라델피아	-12736
▁점거	-12737
▁주작	-12738
▁제정신	-12739
▁택배	-12740
▁완전체	-12741
▁기미	-12742
▁정립	-12743
▁삼거리	-12744
▁키리토	-12745
▁TCG	-12746
▁적발	-12747
축구	-12748
▁자잘	-12749
▁블레이즈	-12750
▁프로세서	-12751
▁미지수	-12752
▁펄스	-12753
▁한몫	-12754
▁후일담	-12755
시계	-12756
▁상회	-12757
▁교주	-12758
▁소피	-12759
▁카가	-12760
▁CON	-12761
▁과부	-12762
▁아멜	-12763
▁폭동	-12764
▁기마	-12765
▁미라클	-12766
▁어비스	-12767
▁서드	-12768
▁좌익수	-12769
▁이안	-12770
▁루이지	-12771
▁복싱	-12772
▁매진	-12773
▁신주쿠	-12774
▁시엘	-12775
▁옵티머스	-12776
투수	-12777
▁요미우리	-12778
▁연예계	-12779
▁파고들	-12780
▁RG	-12781
▁당주	-12782
▁말장난	-12783
inc	-12784
▁선발투수	-12785
▁조형	-12786
▁태종	-12787
▁로만	-12788
▁전리품	-12789
▁결장	-12790
▁스크래	-12791
▁광범	-12792
▁나고	-12793
▁종일	-12794
▁흐리	-12795
▁깊숙	-12796
▁조운	-12797
▁들려오	-12798
▁콜로니	-12799
▁프랑켄	-12800
저트	-12801
▁기한	-12802
▁운항	-12803
▁프론트	-12804
▁라자	-12805
▁수평	-12806
▁적색	-12807
▁다인	-12808
▁스왑	-12809
▁대사관	-12810
히트	-12811
▁든가	-12812
먹이	-12813
▁쓸모없	-12814
▁후궁	-12815
▁고령	-12816
▁양호	-12817
▁빼돌리	-12818
그룹	-12819
▁냉전	-12820
▁지망	-12821
▁사이퍼	-12822
▁본디	-12823
▁연하	-12824
▁휴일	-12825
사이드	-12826
우루스	-12827
▁214	-12828
▁리노	-12829
▁경장	-12830
▁SHOW	-12831
▁폴더	-12832
▁키워드	-12833
▁이노우에	-12834
▁dis	-12835
IV	-12836
▁씁	-12837
▁도호	-12838
▁도리어	-12839
▁호세	-12840
▁탄종	-12841
▁피곤	-12842
제국	-12843
▁리브	-12844
▁부추	-12845
▁재고	-12846
▁소이	-12847
▁비토	-12848
▁임창	-12849
▁손흥	-12850
▁정거	-12851
▁도전자	-12852
▁볼프	-12853
▁유포	-12854
▁일쑤	-12855
▁공휴일	-12856
날드	-12857
day	-12858
사의	-12859
▁고독	-12860
▁작살	-12861
▁정은	-12862
데아	-12863
▁world	-12864
▁강유	-12865
▁성추	-12866
▁압살	-12867
▁She	-12868
▁교란	-12869
▁기온	-12870
▁당분	-12871
▁대표작	-12872
▁히데요시	-12873
its	-12874
▁유서	-12875
▁beatmania	-12876
▁신이치	-12877
▁프런트	-12878
▁노숙	-12879
▁명작	-12880
▁Da	-12881
▁속삭	-12882
omb	-12883
▁산악	-12884
▁루터	-12885
ham	-12886
▁후안	-12887
▁불사조	-12888
▁340	-12889
투표	-12890
퍼런스	-12891
▁다이브	-12892
▁아지트	-12893
▁도쿠가와	-12894
▁더스트	-12895
▁예비군	-12896
▁승기	-12897
▁건전	-12898
▁돌려보내	-12899
▁초토	-12900
▁정교회	-12901
▁콜라보레이션	-12902
▁섭외	-12903
▁언행	-12904
▁시한	-12905
▁정류소	-12906
▁손흥민	-12907
▁킹스	-12908
▁141	-12909
▁난전	-12910
▁ㅅ	-12911
▁셀프	-12912
▁탄소	-12913
▁애프	-12914
▁에리카	-12915
▁툼	-12916
▁윌슨	-12917
▁개인전	-12918
▁레스터	-12919
EX	-12920
▁토탈	-12921
▁상속	-12922
▁제이드	-12923
▁들이대	-12924
▁직감	-12925
▁행태	-12926
▁오버로드	-12927
▁스폰지	-12928
▁쟁탈	-12929
▁텔레비전	-12930
▁naver	-12931
▁까닭	-12932
▁여사	-12933
아티아	-12934
▁크로아티아	-12935
▁확연히	-12936
▁해수	-12937
▁사부	-12938
▁엑소	-12939
▁지기	-12940
▁프로이센	-12941
▁상대식	-12942
▁박격포	-12943
▁폭발물	-12944
댓말	-12945
▁존댓말	-12946
투르	-12947
▁다툼	-12948
▁게임기	-12949
세데스	-12950
▁메르세데스	-12951
▁오클	-12952
▁ap	-12953
▁캐서	-12954
ious	-12955
▁프로그래밍	-12956
▁불가사의	-12957
▁셜록	-12958
▁창당	-12959
▁한조	-12960
▁출퇴근	-12961
▁구자	-12962
▁캡콤	-12963
▁느냐는	-12964
▁공익	-12965
==	-12966
▁액세서리	-12967
▁어처	-12968
▁트린	-12969
▁미성년자	-12970
▁오모	-12971
▁현명	-12972
▁장병	-12973
▁하드코어	-12974
▁스크래치	-12975
▁동봉	-12976
▁폭사	-12977
▁합창	-12978
▁글러브	-12979
▁도피	-12980
▁옥타	-12981
▁올라서	-12982
▁자연스레	-12983
▁김창	-12984
▁상권	-12985
▁정거장	-12986
▁합하	-12987
인간	-12988
▁제식	-12989
▁좀비	-12990
▁광범위	-12991
▁신축	-12992
ivers	-12993
▁SW	-12994
▁te	-12995
▁증세	-12996
▁양주	-12997
▁지자	-12998
▁디디	-12999
▁싱어	-13000
▁위즈	-13001
▁까먹	-13002
27	-13003
▁바우	-13004
▁스파르타	-13005
▁Not	-13006
▁^	-13007
요환	-13008
▁시그마	-13009
▁입맛	-13010
▁평원	-13011
▁Ke	-13012
▁표본	-13013
▁겨누	-13014
▁RAW	-13015
▁로망	-13016
ANC	-13017
▁서원	-13018
▁종사	-13019
▁저번	-13020
▁상반기	-13021
패스	-13022
▁장안	-13023
▁군함	-13024
▁리액션	-13025
aut	-13026
▁네메	-13027
▁다정	-13028
▁진군	-13029
▁미끄러지	-13030
▁막부	-13031
▁위탁	-13032
▁윌리엄스	-13033
▁코시	-13034
매니아	-13035
olution	-13036
▁든든	-13037
▁화자	-13038
▁DEF	-13039
▁피라미	-13040
주리	-13041
▁세션	-13042
▁거느리	-13043
ERS	-13044
▁라지	-13045
▁상표	-13046
▁공동체	-13047
던트	-13048
▁반다이	-13049
▁사이오	-13050
▁러셀	-13051
▁위화	-13052
▁프리즈	-13053
23	-13054
▁국력	-13055
▁임요환	-13056
▁With	-13057
▁캐서린	-13058
▁프리스트	-13059
▁체질	-13060
▁술탄	-13061
데르	-13062
레미	-13063
▁아부	-13064
▁질량	-13065
▁망자	-13066
▁송구	-13067
▁아역	-13068
▁마음껏	-13069
▁Every	-13070
▁정장	-13071
▁정세	-13072
▁브릿지	-13073
▁와우	-13074
▁체이	-13075
▁마이어	-13076
▁넘쳐	-13077
▁라거나	-13078
UC	-13079
▁오재	-13080
▁전전	-13081
▁군사력	-13082
▁해커	-13083
▁뾰	-13084
라이어	-13085
▁내걸	-13086
▁백미	-13087
▁꼭두	-13088
olog	-13089
▁랫	-13090
▁1943	-13091
▁310	-13092
▁호르	-13093
▁김준호	-13094
▁왼팔	-13095
▁카바	-13096
▁어처구니	-13097
무늬	-13098
스톤	-13099
▁제구	-13100
▁탈옥	-13101
아아	-13102
▁외출	-13103
▁손바닥	-13104
▁코이치	-13105
▁고장나	-13106
▁방정	-13107
45	-13108
▁안나	-13109
▁박병	-13110
▁관념	-13111
▁수원시	-13112
▁환각	-13113
▁007	-13114
지리	-13115
▁집결	-13116
▁시즈카	-13117
▁평민	-13118
▁듀티	-13119
66	-13120
▁무상	-13121
▁짤방	-13122
▁쾌속	-13123
▁사다	-13124
▁열받	-13125
▁최면	-13126
▁최우수	-13127
▁렴	-13128
▁신원	-13129
▁대문	-13130
▁옐로	-13131
▁낙원	-13132
▁나나미	-13133
▁주파수	-13134
29	-13135
▁Chr	-13136
▁도모	-13137
▁FR	-13138
▁가솔	-13139
▁해운대	-13140
▁표출	-13141
▁피츠	-13142
▁촛	-13143
▁추석	-13144
무니	-13145
▁나날	-13146
▁생사	-13147
▁원제	-13148
▁논하	-13149
▁김정은	-13150
▁순진	-13151
▁미야자키	-13152
▁시저	-13153
▁**	-13154
▁TB	-13155
▁어우	-13156
▁스루	-13157
▁르네	-13158
▁경찰관	-13159
▁정중	-13160
▁Get	-13161
▁분경	-13162
▁화요일	-13163
▁우시	-13164
▁대명사	-13165
▁시노부	-13166
▁보답	-13167
icro	-13168
▁기총	-13169
▁대부	-13170
▁커터	-13171
▁소수자	-13172
▁Boy	-13173
▁벵	-13174
▁사과문	-13175
▁Skill	-13176
조각	-13177
▁김세	-13178
▁비오	-13179
▁불상	-13180
즈마	-13181
▁CT	-13182
▁비하인드	-13183
데기	-13184
▁굳어지	-13185
▁토네이도	-13186
▁가출	-13187
▁메라	-13188
▁흡연	-13189
ty	-13190
▁재임	-13191
▁류현진	-13192
▁는군	-13193
▁연희	-13194
▁1946	-13195
▁if	-13196
▁예배	-13197
▁Har	-13198
▁부여받	-13199
▁720	-13200
▁영화판	-13201
▁빡빡	-13202
ny	-13203
▁중앙선	-13204
ely	-13205
▁탐욕	-13206
▁키메라	-13207
reat	-13208
노기	-13209
▁작아지	-13210
나드	-13211
▁줄곧	-13212
▁양아치	-13213
▁자발	-13214
킨스	-13215
▁지침	-13216
베르토	-13217
▁1942	-13218
▁무협	-13219
▁Des	-13220
▁무자비	-13221
▁슈타인	-13222
▁아폴로	-13223
▁당당히	-13224
▁에덴	-13225
▁커리	-13226
▁반칙	-13227
베리아	-13228
▁민영	-13229
▁스님	-13230
▁인즈	-13231
받침	-13232
▁켄타	-13233
▁한스	-13234
리에	-13235
▁금기	-13236
▁1954	-13237
▁마더	-13238
▁육지	-13239
▁추첨	-13240
▁홍대	-13241
▁후유증	-13242
▁캉	-13243
▁마누	-13244
▁바오	-13245
▁영분	-13246
소스	-13247
▁담당자	-13248
▁리포트	-13249
▁혜성	-13250
▁걸작	-13251
▁만세	-13252
▁=,	-13253
▁북방	-13254
▁Ab	-13255
▁추이	-13256
▁의미심장	-13257
▁발상	-13258
▁초고	-13259
▁진흙	-13260
▁리젠	-13261
▁취직	-13262
의사	-13263
▁이동하	-13264
▁>,	-13265
▁섬세	-13266
▁지름	-13267
▁웨일	-13268
▁걸어오	-13269
▁1958	-13270
▁영기	-13271
▁480	-13272
▁DA	-13273
▁부메	-13274
▁드리프트	-13275
▁설득력	-13276
▁생물학	-13277
▁이어인	-13278
▁교화	-13279
▁단테	-13280
리우스	-13281
ters	-13282
라이즈	-13283
▁171	-13284
▁사마의	-13285
▁체가	-13286
▁단조	-13287
▁예리	-13288
▁대용	-13289
▁졸개	-13290
ient	-13291
▁시력	-13292
▁듀엣	-13293
▁매복	-13294
▁수작	-13295
▁방어선	-13296
▁미상	-13297
▁Big	-13298
▁다이어트	-13299
▁가든	-13300
▁괴도	-13301
▁PSP	-13302
▁부메랑	-13303
테스	-13304
▁미디	-13305
▁윈스턴	-13306
▁전태	-13307
▁견인	-13308
▁충성심	-13309
▁CCTV	-13310
▁차종	-13311
▁성체	-13312
▁츠루	-13313
▁Tri	-13314
▁튜너	-13315
▁성녀	-13316
▁1900	-13317
▁석화	-13318
▁양념	-13319
버린	-13320
르기	-13321
▁유행어	-13322
▁조율	-13323
▁협곡	-13324
▁제이스	-13325
▁총사령	-13326
▁굴복	-13327
▁카운티	-13328
▁임관	-13329
▁UR	-13330
▁피리	-13331
▁181	-13332
▁png	-13333
▁만류	-13334
크리트	-13335
▁문헌	-13336
▁빡세	-13337
▁자문	-13338
▁트림	-13339
▁8000	-13340
▁세간	-13341
▁DT	-13342
▁선공	-13343
▁복음	-13344
▁피어	-13345
▁어워드	-13346
▁잉크	-13347
▁kn	-13348
▁경쟁력	-13349
▁군벌	-13350
▁스탠다드	-13351
▁메스	-13352
칼리	-13353
▁바바	-13354
▁기라	-13355
▁고분	-13356
▁상원	-13357
▁연혁	-13358
▁틀어지	-13359
▁Ext	-13360
▁빅터	-13361
▁방랑	-13362
▁입체	-13363
▁파장	-13364
▁태연	-13365
▁유대인	-13366
▁ㄴ다면서	-13367
▁데카	-13368
▁빌라	-13369
무진	-13370
▁XP	-13371
▁기만	-13372
▁생몰	-13373
▁오피스	-13374
▁원격	-13375
클레스	-13376
▁기관차	-13377
▁천황	-13378
▁초식	-13379
프레스	-13380
▁미련	-13381
▁씁쓸	-13382
▁조장	-13383
토시	-13384
▁무의	-13385
▁봉기	-13386
▁샤이닝	-13387
▁id	-13388
▁채소	-13389
▁격노	-13390
▁뒤이	-13391
느니	-13392
ful	-13393
▁시동	-13394
ship	-13395
uch	-13396
▁RS	-13397
▁만회	-13398
▁원년	-13399
bl	-13400
85	-13401
▁성균	-13402
▁직관	-13403
▁동참	-13404
▁부화	-13405
▁스펙터	-13406
▁1941	-13407
▁가치관	-13408
▁제비	-13409
▁봉황	-13410
▁창의	-13411
▁츠카사	-13412
▁귀중	-13413
▁클락	-13414
▁낯설	-13415
▁염소	-13416
▁오디	-13417
▁통용	-13418
▁박세	-13419
▁성모	-13420
▁윤종	-13421
▁최전	-13422
▁퍼스	-13423
▁성균관	-13424
▁STAR	-13425
▁가토	-13426
ports	-13427
기업	-13428
▁송이	-13429
슬러	-13430
▁야하	-13431
▁헌데	-13432
자카	-13433
▁회고	-13434
▁나츠미	-13435
테리	-13436
▁격돌	-13437
▁EB	-13438
▁젤다	-13439
▁양면	-13440
▁장기간	-13441
▁샤아	-13442
▁학창	-13443
▁난동	-13444
▁비숍	-13445
▁선체	-13446
▁유감	-13447
▁이성계	-13448
▁불러들이	-13449
기지	-13450
▁군산	-13451
▁잠복	-13452
▁자위대	-13453
리케이션	-13454
▁풍자	-13455
▁히로유키	-13456
▁정인	-13457
▁디테일	-13458
▁증원	-13459
▁Sil	-13460
▁OO	-13461
▁모라	-13462
▁Inf	-13463
▁아제	-13464
▁역기	-13465
▁ㄹ게요	-13466
▁송병	-13467
▁클로즈	-13468
▁흑백	-13469
▁자손	-13470
▁배분	-13471
▁갈래	-13472
▁뫼	-13473
▁만두	-13474
▁수리검	-13475
▁텔레콤	-13476
니트	-13477
정역	-13478
▁송도	-13479
▁White	-13480
▁255	-13481
레트	-13482
▁느긋	-13483
▁시궁창	-13484
▁KS	-13485
▁웍	-13486
▁OR	-13487
▁베니	-13488
▁서커스	-13489
▁토템	-13490
▁아테네	-13491
▁프레데	-13492
▁요일	-13493
▁청량	-13494
▁Bar	-13495
▁1948	-13496
▁부풀	-13497
▁전년	-13498
▁모호	-13499
▁Fre	-13500
▁농어	-13501
▁Back	-13502
▁크래	-13503
버릇	-13504
▁솔로몬	-13505
▁즐거	-13506
▁오드	-13507
▁Win	-13508
▁퇴근	-13509
▁손녀	-13510
▁커브	-13511
▁우익수	-13512
▁콘크리트	-13513
▁스테이트	-13514
▁PO	-13515
▁다이너	-13516
▁파키스탄	-13517
ump	-13518
▁조제	-13519
▁판도라	-13520
26	-13521
혁명	-13522
▁그리스도	-13523
▁창시	-13524
▁특촬	-13525
산물	-13526
▁왕궁	-13527
▁피에르	-13528
모사	-13529
▁여의도	-13530
▁재팬	-13531
co	-13532
▁공병	-13533
RAM	-13534
▁여도	-13535
▁진과	-13536
▁타쿠미	-13537
▁단신	-13538
▁바늘	-13539
▁치중	-13540
▁벌칙	-13541
ift	-13542
▁420	-13543
▁연루	-13544
▁왕따	-13545
▁바이올린	-13546
호도	-13547
▁하와이	-13548
▁태고	-13549
▁폭포	-13550
노미야	-13551
▁마비노기	-13552
▁qu	-13553
▁간식	-13554
▁아틀레	-13555
▁초원	-13556
▁초급	-13557
▁색채	-13558
▁고양시	-13559
▁켄이치	-13560
▁접시	-13561
▁소음기	-13562
튀기	-13563
▁작렬	-13564
▁학계	-13565
▁GL	-13566
ENT	-13567
▁도타	-13568
▁실험실	-13569
▁NG	-13570
ATION	-13571
▁떠들	-13572
▁오덕	-13573
▁카세	-13574
▁심리학	-13575
▁맏	-13576
▁뻥튀기	-13577
▁FE	-13578
▁러블리	-13579
▁지독	-13580
▁제이크	-13581
마츠	-13582
▁박민	-13583
▁포털	-13584
▁허영	-13585
▁215	-13586
▁거슬리	-13587
▁늘어놓	-13588
▁jp	-13589
▁텐션	-13590
▁백색	-13591
▁하르	-13592
▁컨테이너	-13593
▁흘러나오	-13594
▁금전	-13595
▁수소	-13596
▁어중간	-13597
▁집정	-13598
▁down	-13599
▁어지간히	-13600
▁제멋대로	-13601
▁관악	-13602
카스	-13603
edia	-13604
▁좀처럼	-13605
▁Sky	-13606
공격	-13607
▁정유	-13608
따르	-13609
▁맥도	-13610
▁자드	-13611
MC	-13612
▁Met	-13613
▁시구	-13614
▁사토시	-13615
레인지	-13616
▁강변	-13617
▁횡단	-13618
▁메아리	-13619
▁서진	-13620
▁타라	-13621
▁고려대	-13622
▁프레디	-13623
▁나츠키	-13624
▁거주지	-13625
▁선구	-13626
▁친밀	-13627
▁하코	-13628
▁off	-13629
▁으라는	-13630
▁..'	-13631
▁CEO	-13632
▁헤딩	-13633
▁인기투표	-13634
▁인장	-13635
링크	-13636
틀링	-13637
▁최성	-13638
▁포고	-13639
▁유엔	-13640
▁제휴	-13641
▁열풍	-13642
▁쇼핑몰	-13643
▁테크노	-13644
ERT	-13645
▁변종	-13646
▁성서	-13647
▁갈고리	-13648
▁1949	-13649
ALL	-13650
▁병맛	-13651
▁아론	-13652
▁욕구	-13653
▁사육	-13654
▁성폭행	-13655
▁실천	-13656
▁오퍼레이터	-13657
바위	-13658
▁FN	-13659
▁늘어지	-13660
▁쇠퇴	-13661
모니	-13662
각시	-13663
▁라운	-13664
▁후려	-13665
▁이승엽	-13666
▁빌미	-13667
▁Act	-13668
▁가차	-13669
▁현존	-13670
▁인프라	-13671
▁광부	-13672
▁서독	-13673
▁양동	-13674
▁퍼뜨리	-13675
▁동선	-13676
▁육박	-13677
▁앞마당	-13678
▁듬	-13679
▁부치	-13680
▁파업	-13681
▁333	-13682
▁UFO	-13683
▁육식	-13684
▁안도	-13685
▁갭	-13686
▁정현	-13687
▁235	-13688
▁거제	-13689
▁럽	-13690
▁이윽	-13691
▁208	-13692
▁바시	-13693
▁삽화	-13694
▁시중	-13695
▁이윽고	-13696
▁향수	-13697
▁대머리	-13698
▁도르트	-13699
▁트레이서	-13700
▁거물	-13701
▁비늘	-13702
득점	-13703
▁뇌격	-13704
▁틀림	-13705
▁1936	-13706
▁every	-13707
사우루스	-13708
드래	-13709
▁FX	-13710
oud	-13711
▁병영	-13712
▁206	-13713
케이	-13714
▁메소	-13715
▁런닝맨	-13716
▁출생지	-13717
▁중얼거리	-13718
▁수배	-13719
▁초동	-13720
▁하렘	-13721
니스탄	-13722
▁되돌아가	-13723
▁유쾌	-13724
▁체이스	-13725
▁NL	-13726
▁처단	-13727
▁}{	-13728
▁마장	-13729
▁항속	-13730
▁TD	-13731
▁남용	-13732
▁비행선	-13733
▁Song	-13734
▁김하	-13735
▁마고	-13736
▁편제	-13737
▁키바	-13738
▁사다리	-13739
less	-13740
▁휩쓸리	-13741
▁ㄹ지도	-13742
▁패거리	-13743
▁나루호도	-13744
BM	-13745
▁디스코	-13746
▁덩크	-13747
▁랄까	-13748
▁심플	-13749
▁멸자	-13750
변속기	-13751
천동	-13752
▁난폭	-13753
지대	-13754
▁본국	-13755
▁어머	-13756
▁알아듣	-13757
bps	-13758
▁코지마	-13759
▁미쓰	-13760
▁아픔	-13761
ize	-13762
▁철회	-13763
린스	-13764
▁em	-13765
▁비약	-13766
▁카멜	-13767
방향	-13768
▁참패	-13769
▁세츠나	-13770
▁경인	-13771
▁May	-13772
▁오마주	-13773
VEL	-13774
▁팀킬	-13775
▁합방	-13776
95	-13777
네트	-13778
▁문의	-13779
▁마츠모토	-13780
▁와일드카드	-13781
공화국	-13782
▁계보	-13783
러드	-13784
▁161	-13785
▁마그마	-13786
▁배급사	-13787
의회	-13788
▁가물	-13789
▁극찬	-13790
▁누마	-13791
▁대여	-13792
▁서부터	-13793
▁아울러	-13794
▁GAM	-13795
▁850	-13796
UB	-13797
▁김인	-13798
▁피라미드	-13799
▁다구	-13800
▁영리	-13801
▁아다	-13802
▁떨어트리	-13803
▁개드	-13804
▁속옷	-13805
ape	-13806
▁스릴	-13807
▁라트	-13808
▁우로	-13809
▁감시자	-13810
▁스플릿	-13811
▁얀데레	-13812
▁개틀링	-13813
▁젊은이	-13814
▁ve	-13815
▁이따	-13816
▁기겁	-13817
▁크러	-13818
IST	-13819
▁설사	-13820
▁리오스	-13821
▁카에데	-13822
▁데이브	-13823
▁올라타	-13824
▁송곳	-13825
▁모터스	-13826
▁위나라	-13827
▁헛소리	-13828
▁좌석버스	-13829
▁ㅎ	-13830
▁명인	-13831
▁표방	-13832
ger	-13833
▁끝판	-13834
▁내년	-13835
▁토와	-13836
▁Rain	-13837
▁김태균	-13838
▁호대	-13839
▁con	-13840
▁That	-13841
aka	-13842
▁밴시	-13843
▁RAM	-13844
▁불가리아	-13845
▁독성	-13846
▁God	-13847
▁선발전	-13848
▁성검	-13849
▁페인트	-13850
▁성문	-13851
▁유목	-13852
타자	-13853
▁풀백	-13854
▁쭈	-13855
▁디에	-13856
ita	-13857
▁장래	-13858
▁인피니트	-13859
▁벽돌	-13860
▁북극	-13861
▁언락	-13862
▁다나카	-13863
▁커넥	-13864
빠르	-13865
▁단선	-13866
▁오미	-13867
▁상대편	-13868
▁RF	-13869
96	-13870
▁정벌	-13871
▁도마뱀	-13872
▁북두	-13873
▁청색	-13874
▁유우야	-13875
▁Hey	-13876
모자	-13877
▁무법	-13878
▁아이리	-13879
▁일자리	-13880
▁도르트문트	-13881
▁베라	-13882
▁신시	-13883
▁야기	-13884
▁친일	-13885
▁가까스로	-13886
실히	-13887
▁단간	-13888
▁소인	-13889
ORM	-13890
때로	-13891
▁어린애	-13892
▁290	-13893
▁때우	-13894
▁버금	-13895
▁Top	-13896
▁심심찮	-13897
▁하데스	-13898
▁이복	-13899
▁마드	-13900
▁난해	-13901
▁ㅂ시다	-13902
▁지아	-13903
▁무난히	-13904
▁정렬	-13905
▁나기사	-13906
▁코스타	-13907
zy	-13908
▁불운	-13909
▁손수	-13910
▁수레	-13911
주군	-13912
▁경위	-13913
▁버디	-13914
▁보태	-13915
▁여진	-13916
▁페로	-13917
▁영장	-13918
▁순교자	-13919
▁퀑	-13920
▁비욘	-13921
▁열전	-13922
▁플라워	-13923
▁망원	-13924
레인저	-13925
▁영창	-13926
▁데이즈	-13927
▁마니	-13928
▁징병	-13929
▁선도	-13930
▁여건	-13931
▁콘테	-13932
▁대각선	-13933
▁복종	-13934
▁알프레	-13935
▁내려놓	-13936
▁포이	-13937
▁야채	-13938
▁정규군	-13939
rop	-13940
▁특출	-13941
▁축구단	-13942
▁전용기	-13943
▁당분간	-13944
▁Pe	-13945
▁되려	-13946
▁want	-13947
▁석탄	-13948
▁칼럼	-13949
▁줄줄이	-13950
▁서면	-13951
▁책임자	-13952
▁Battle	-13953
IGHT	-13954
▁대강	-13955
▁역학	-13956
▁절묘	-13957
▁Moon	-13958
▁스몰	-13959
▁유추	-13960
76	-13961
렉트	-13962
▁괴로	-13963
▁WAR	-13964
운전	-13965
▁존속	-13966
▁Game	-13967
▁살라	-13968
▁위화감	-13969
▁드레이크	-13970
▁젯	-13971
▁아란	-13972
암동	-13973
net	-13974
▁자부심	-13975
버거	-13976
▁게리	-13977
▁미셸	-13978
▁특공대	-13979
▁좆	-13980
기어	-13981
▁바실	-13982
▁화속	-13983
▁행동력	-13984
▁갑판	-13985
▁울부	-13986
비우스	-13987
▁1955	-13988
무스	-13989
▁뒤틀리	-13990
▁인테르	-13991
▁칭송	-13992
▁TEC	-13993
OK	-13994
▁자며	-13995
▁중성	-13996
▁곡선	-13997
▁내륙	-13998
▁매트릭스	-13999
▁일직	-14000
▁친위대	-14001
▁스케이팅	-14002
▁노브	-14003
▁SUP	-14004
▁느냐고	-14005
▁코로나	-14006
포스	-14007
▁꼭두각시	-14008
▁호타	-14009
▁스케치	-14010
▁역전승	-14011
ara	-14012
com	-14013
▁구만	-14014
▁최재	-14015
▁한가	-14016
▁more	-14017
ward	-14018
▁성추행	-14019
작전	-14020
▁선풍	-14021
메다	-14022
▁과실	-14023
▁가창력	-14024
bo	-14025
리아나	-14026
▁라이터	-14027
▁반자동	-14028
▁새로이	-14029
ren	-14030
블랜드	-14031
▁레트	-14032
▁클리블랜드	-14033
▁허리케인	-14034
▁KG	-14035
▁max	-14036
▁분사	-14037
▁영락	-14038
토록	-14039
▁민지	-14040
▁이신	-14041
▁212	-14042
▁새해	-14043
▁플레이트	-14044
▁Bra	-14045
▁코나미	-14046
▁독재자	-14047
버드	-14048
▁총통	-14049
▁태수	-14050
▁NS	-14051
▁터미네이터	-14052
▁인민공화국	-14053
row	-14054
▁북유럽	-14055
▁광저우	-14056
▁부추기	-14057
▁유명세	-14058
▁국사	-14059
▁개드립	-14060
여행	-14061
▁골대	-14062
▁데프	-14063
▁LCD	-14064
▁흑룡	-14065
▁Dragon	-14066
▁남구	-14067
▁이제동	-14068
▁LS	-14069
▁카야	-14070
▁토요타	-14071
니엄	-14072
연합	-14073
▁킬로	-14074
▁피겨	-14075
▁밸리	-14076
▁단다	-14077
▁진나라	-14078
▁가솔린	-14079
▁교육부	-14080
▁강당	-14081
▁의리	-14082
▁치부	-14083
▁Special	-14084
▁경이	-14085
▁경호원	-14086
▁베이스볼	-14087
▁가메	-14088
▁내심	-14089
▁할당	-14090
▁사이언	-14091
클리	-14092
▁부과	-14093
▁피고	-14094
▁밀레니엄	-14095
▁루시퍼	-14096
▁1959	-14097
▁나고야	-14098
▁치타	-14099
▁대담	-14100
▁오반	-14101
짜기	-14102
▁본문	-14103
▁자석	-14104
▁소중히	-14105
▁나데	-14106
▁호스트	-14107
▁해임	-14108
▁파괴자	-14109
▁팩토리	-14110
▁울부짖	-14111
▁탤	-14112
▁목표물	-14113
▁왕녀	-14114
▁연방군	-14115
러기	-14116
▁티코	-14117
▁캬	-14118
코프	-14119
▁발산	-14120
▁앙리	-14121
▁뭣	-14122
▁관제	-14123
▁와이드	-14124
▁자아내	-14125
▁추월	-14126
▁들려주	-14127
led	-14128
▁플로리	-14129
▁원동	-14130
▁001	-14131
▁크림슨	-14132
▁핵무기	-14133
▁광화	-14134
▁도미니	-14135
aven	-14136
▁요건	-14137
▁래스	-14138
▁가변	-14139
▁협공	-14140
▁푸른	-14141
▁카트라이더	-14142
▁의석	-14143
▁조달	-14144
럭스	-14145
▁스트레이트	-14146
▁십상	-14147
▁전투원	-14148
▁머들	-14149
▁행선	-14150
▁초회	-14151
부대	-14152
▁wiz	-14153
▁쿠미	-14154
▁광양	-14155
▁가네	-14156
▁레고	-14157
▁서점	-14158
▁펜스	-14159
▁서울역	-14160
▁잔당	-14161
▁카즈키	-14162
▁Amer	-14163
▁Track	-14164
▁마티	-14165
LD	-14166
▁벨벳	-14167
▁우사	-14168
▁임프	-14169
▁Pop	-14170
▁이치카	-14171
▁귀도	-14172
▁안드로메다	-14173
▁특허	-14174
테나	-14175
▁Hot	-14176
▁활주	-14177
▁FFFF	-14178
▁니키	-14179
▁뮤즈	-14180
▁종자	-14181
▁사파이어	-14182
▁1956	-14183
그레	-14184
히사	-14185
▁장막	-14186
▁무성	-14187
▁무찌	-14188
▁보단	-14189
▁뒷받침	-14190
▁협약	-14191
▁심리전	-14192
하이	-14193
▁기와	-14194
▁칠흑	-14195
▁온전히	-14196
▁베드	-14197
▁주군	-14198
▁강연	-14199
▁레미	-14200
▁플러그	-14201
여지	-14202
▁미완	-14203
▁김현수	-14204
▁휘둘	-14205
▁DAY	-14206
▁피니시	-14207
▁토의	-14208
▁부회장	-14209
▁슐	-14210
▁아산	-14211
▁단단히	-14212
▁TG	-14213
▁가가	-14214
▁마포	-14215
▁인분	-14216
▁조회	-14217
▁포르노	-14218
▁발간	-14219
▁백신	-14220
▁스켈	-14221
▁입성	-14222
바키아	-14223
▁무심	-14224
▁에우	-14225
▁이시다	-14226
패드	-14227
▁게이밍	-14228
▁온화	-14229
▁이상민	-14230
▁지갑	-14231
▁유민	-14232
▁계약자	-14233
▁Cont	-14234
▁다라	-14235
▁되돌아오	-14236
▁신령	-14237
▁합산	-14238
▁신공	-14239
▁랄프	-14240
▁오스카	-14241
▁익스트림	-14242
▁석방	-14243
▁차남	-14244
▁냐면서	-14245
▁파드	-14246
▁they	-14247
▁에스파	-14248
▁경신	-14249
▁등산	-14250
▁네메시스	-14251
▁이라든가	-14252
▁적정	-14253
▁물려주	-14254
▁트리오	-14255
왜란	-14256
▁멧돼지	-14257
▁빈스	-14258
▁이분	-14259
▁와타루	-14260
내기	-14261
▁첩보	-14262
▁TN	-14263
▁서사	-14264
▁음양	-14265
▁선진국	-14266
▁임진왜란	-14267
▁프랑스군	-14268
▁광주광역시	-14269
▁이화	-14270
▁마늘	-14271
▁젠지	-14272
▁ㅏ요	-14273
▁마는	-14274
▁명령어	-14275
▁tw	-14276
▁각기	-14277
▁증후	-14278
▁황무지	-14279
▁너구리	-14280
▁무찌르	-14281
▁대적	-14282
▁내려찍	-14283
▁창세기	-14284
▁패트릭	-14285
▁빵빵	-14286
▁코리	-14287
▁1939	-14288
▁아치	-14289
▁데이빗	-14290
▁금성	-14291
▁뾰족	-14292
▁위인	-14293
지물	-14294
▁이지스	-14295
▁플라잉	-14296
▁207	-14297
▁기병대	-14298
▁baby	-14299
▁오피	-14300
▁청동	-14301
▁우와	-14302
▁바이올렛	-14303
▁차세대	-14304
▁단절	-14305
▁날아오르	-14306
▁뛰어다니	-14307
34	-14308
▁주스	-14309
▁넵튠	-14310
쿠버	-14311
▁팔꿈치	-14312
▁대한항공	-14313
▁과하	-14314
▁단말기	-14315
▁동물원	-14316
▁520	-14317
▁노랑	-14318
▁슈타	-14319
▁불기	-14320
▁위생	-14321
▁초중	-14322
ands	-14323
▁기타리스트	-14324
바시	-14325
▁로자	-14326
▁역관	-14327
▁나폴리	-14328
두근	-14329
▁두드리	-14330
▁COM	-14331
ien	-14332
▁티탄	-14333
▁바사	-14334
▁매지컬	-14335
▁무언가	-14336
▁새신	-14337
▁외야	-14338
▁루리웹	-14339
▁이터널	-14340
▁는데도	-14341
▁관대	-14342
▁박기	-14343
ze	-14344
▁무어	-14345
▁겉보기	-14346
▁화장품	-14347
▁BASIC	-14348
▁푸드	-14349
▁트레버	-14350
▁영재	-14351
▁교재	-14352
▁단백	-14353
▁분자	-14354
▁각색	-14355
▁나지	-14356
▁모티	-14357
▁황자	-14358
▁777	-14359
▁리바이	-14360
▁구세	-14361
▁문호	-14362
아스	-14363
▁제품군	-14364
▁정진	-14365
▁나우	-14366
▁터무니	-14367
▁탈것	-14368
캐스트	-14369
▁PA	-14370
▁천체	-14371
▁재해	-14372
▁조비	-14373
orts	-14374
▁고스란히	-14375
▁IDOLM	-14376
▁배고	-14377
그러지	-14378
▁인신	-14379
▁붕대	-14380
▁철벽	-14381
▁친근	-14382
큐버스	-14383
▁집정관	-14384
▁도널드	-14385
▁애프터	-14386
방사기	-14387
▁최적화	-14388
▁화염방사기	-14389
▁체급	-14390
▁서문	-14391
▁good	-14392
▁비정	-14393
▁구치	-14394
▁사면	-14395
▁Mir	-14396
ited	-14397
▁그래프	-14398
▁호라이	-14399
▁버금가	-14400
준호	-14401
▁크레이지	-14402
용차	-14403
▁타협	-14404
▁포화	-14405
▁배럴	-14406
▁항로	-14407
르바	-14408
▁상정	-14409
▁블라디미르	-14410
겨지	-14411
▁심슨	-14412
▁정제	-14413
▁Bur	-14414
중국	-14415
▁네타	-14416
▁다트	-14417
▁몰아치	-14418
▁들통	-14419
▁미공	-14420
▁성급	-14421
▁동거	-14422
▁로로	-14423
▁209	-14424
play	-14425
▁Yes	-14426
▁단연	-14427
▁독설	-14428
▁감속	-14429
▁강호동	-14430
▁뿜어내	-14431
▁소모품	-14432
▁유세	-14433
▁일부분	-14434
▁배틀필드	-14435
▁콜롬비아	-14436
▁Project	-14437
▁보유자	-14438
▁상류	-14439
▁타츠야	-14440
▁송파	-14441
거진	-14442
파니	-14443
▁동포	-14444
▁전투복	-14445
▁over	-14446
▁사시	-14447
▁다이렉트	-14448
▁선명	-14449
▁로드리	-14450
▁TF	-14451
▁그지	-14452
▁부딪치	-14453
▁투타	-14454
▁지휘자	-14455
▁감도	-14456
▁중령	-14457
▁한결	-14458
▁자라나	-14459
블랑	-14460
▁주성	-14461
▁col	-14462
▁전류	-14463
au	-14464
▁로마자	-14465
둘기	-14466
▁사설	-14467
위치	-14468
▁는구나	-14469
로이	-14470
▁마코	-14471
▁비범	-14472
▁Sur	-14473
▁민병대	-14474
▁일갈	-14475
▁탈리	-14476
▁스탠딩	-14477
▁1400	-14478
▁두텁	-14479
▁억압	-14480
▁자의	-14481
▁투기	-14482
▁채굴	-14483
▁이어폰	-14484
▁대제	-14485
▁시제	-14486
▁솔리드	-14487
▁안토니오	-14488
드리히	-14489
▁골리앗	-14490
▁이나즈마	-14491
▁~'	-14492
▁간장	-14493
▁현질	-14494
▁노마	-14495
▁단거리	-14496
▁모방	-14497
▁시세	-14498
▁터리	-14499
▁Off	-14500
교육	-14501
▁김택용	-14502
▁글리	-14503
▁장동민	-14504
▁노사	-14505
▁버즈	-14506
▁창원시	-14507
▁정직	-14508
▁라든지	-14509
▁휴전	-14510
▁그토록	-14511
▁콥	-14512
▁나시	-14513
▁비즈니스	-14514
▁FFFFFF	-14515
▁군중	-14516
▁황족	-14517
▁최우선	-14518
▁순순	-14519
▁김영삼	-14520
▁장단	-14521
▁류지	-14522
▁군단장	-14523
▁긴장감	-14524
▁미토	-14525
▁톡톡	-14526
▁증후군	-14527
ius	-14528
▁KD	-14529
▁끊이	-14530
▁사바	-14531
▁락스	-14532
▁선비	-14533
▁정연	-14534
▁사카모토	-14535
▁칸나	-14536
▁랜디	-14537
▁백수	-14538
▁역전패	-14539
UK	-14540
▁버니	-14541
▁신촌	-14542
▁액트	-14543
▁주시	-14544
▁침식	-14545
▁유스케	-14546
▁욘	-14547
▁풋볼	-14548
▁대두	-14549
▁프론티어	-14550
▁선형	-14551
▁제네시스	-14552
36	-14553
HD	-14554
▁써니	-14555
▁심포	-14556
▁자민	-14557
▁운전자	-14558
▁매사	-14559
▁체조	-14560
▁아노	-14561
▁에로게	-14562
▁결별	-14563
▁시프트	-14564
▁아르테	-14565
▁노이	-14566
▁치히로	-14567
▁인스	-14568
21	-14569
▁당근	-14570
▁세이지	-14571
▁안치	-14572
▁짓밟	-14573
▁탈탈	-14574
▁WOR	-14575
▁엠파이어	-14576
▁공석	-14577
▁마호	-14578
▁나탈	-14579
▁저력	-14580
▁차마	-14581
ata	-14582
▁Bad	-14583
▁행정부	-14584
▁분전	-14585
▁출세	-14586
▁yeah	-14587
▁산화	-14588
▁스탠스	-14589
▁코브라	-14590
▁걸스	-14591
▁아르메	-14592
▁프리드리히	-14593
▁전갈	-14594
▁천도	-14595
▁Int	-14596
▁결투장	-14597
▁데뷔작	-14598
▁템플러	-14599
준혁	-14600
▁안중	-14601
oney	-14602
▁1938	-14603
▁은가	-14604
▁관건	-14605
▁눌	-14606
▁명품	-14607
드래곤	-14608
▁루드	-14609
▁매개	-14610
▁파열	-14611
▁찾아다니	-14612
▁피버	-14613
▁가산	-14614
INE	-14615
▁조류	-14616
▁DDR	-14617
▁비올	-14618
▁영령	-14619
틱스	-14620
▁리조트	-14621
▁휘둘리	-14622
▁유노	-14623
▁치프	-14624
▁'-	-14625
제이	-14626
▁구애	-14627
▁미유	-14628
▁학업	-14629
▁Po	-14630
토미	-14631
감치	-14632
▁쏠리	-14633
▁지체	-14634
▁재빠르	-14635
▁배척	-14636
찌감치	-14637
▁WCS	-14638
▁성가시	-14639
방식	-14640
▁라데	-14641
▁요동	-14642
▁졸지	-14643
▁오아	-14644
vent	-14645
▁때때로	-14646
▁메두사	-14647
▁두께	-14648
▁성유	-14649
▁동대문	-14650
▁외래어	-14651
렁이	-14652
▁Ul	-14653
▁산산	-14654
▁섹터	-14655
▁메이크	-14656
AA	-14657
고루	-14658
▁입법	-14659
ck	-14660
▁카논	-14661
▁순순히	-14662
▁츠바키	-14663
▁마공	-14664
마트	-14665
▁튜브	-14666
▁블루스	-14667
▁멀린	-14668
▁탄수	-14669
▁JC	-14670
페스트	-14671
▁노스케	-14672
▁현행	-14673
▁애틀	-14674
▁외침	-14675
▁페루	-14676
▁자본주의	-14677
▁조로	-14678
▁총구	-14679
line	-14680
▁TWICE	-14681
▁275	-14682
▁하늘색	-14683
▁Ass	-14684
▁대장장이	-14685
▁즉석	-14686
비언	-14687
▁광학	-14688
홍철	-14689
▁소량	-14690
▁아만	-14691
▁응징	-14692
▁Are	-14693
▁올리버	-14694
▁잿	-14695
▁PvP	-14696
▁음모론	-14697
UL	-14698
▁갱단	-14699
▁면은	-14700
▁org	-14701
▁단번에	-14702
▁마리사	-14703
▁만화책	-14704
▁221	-14705
▁거유	-14706
▁엇갈리	-14707
▁로미	-14708
▁팻	-14709
▁애틀랜	-14710
▁브리핑	-14711
컨대	-14712
▁아츠시	-14713
▁베른	-14714
▁패미컴	-14715
▁꼼짝	-14716
▁래쉬	-14717
▁케미	-14718
▁쿼드	-14719
▁프라이즈	-14720
규어	-14721
그래	-14722
▁용품	-14723
ague	-14724
▁다이크	-14725
▁시발	-14726
▁#,	-14727
▁정자	-14728
▁노동당	-14729
▁수뇌	-14730
▁즘	-14731
▁건립	-14732
▁괴멸	-14733
▁레베	-14734
▁Match	-14735
▁쌩	-14736
▁샌디	-14737
▁티나	-14738
▁아쉬워하	-14739
▁에프	-14740
▁치키	-14741
▁say	-14742
▁법무부	-14743
▁신한은행	-14744
▁발트	-14745
▁경전차	-14746
▁샌드박스	-14747
▁최진	-14748
▁거듭나	-14749
▁교직원	-14750
▁사생활	-14751
툭튀	-14752
▁릭스	-14753
▁모치	-14754
▁Eng	-14755
▁노후	-14756
▁폭군	-14757
UST	-14758
▁재혼	-14759
▁행각	-14760
세이더	-14761
▁크루세이더	-14762
▁번거	-14763
ton	-14764
▁AMD	-14765
▁커맨더	-14766
▁갑툭튀	-14767
▁홈구장	-14768
▁ㄴ다든가	-14769
▁스스	-14770
▁가와	-14771
▁폭투	-14772
▁척하	-14773
▁바이퍼	-14774
▁수군	-14775
▁제드	-14776
▁시오리	-14777
▁클로버	-14778
피탈	-14779
▁여행자	-14780
▁세토	-14781
▁짤막	-14782
▁뒤바	-14783
▁시르	-14784
▁플로리다	-14785
▁부합	-14786
▁빼놓	-14787
▁대관	-14788
▁기린	-14789
▁시애	-14790
▁피크	-14791
▁타케루	-14792
▁ac	-14793
▁여명	-14794
▁케르	-14795
▁몬테	-14796
78	-14797
▁고원	-14798
▁란트	-14799
▁셔츠	-14800
▁희미	-14801
▁부두	-14802
▁제각	-14803
▁하얀	-14804
매치	-14805
의지	-14806
▁중소기업	-14807
▁엘소드	-14808
▁트레인	-14809
▁경비원	-14810
▁데스매치	-14811
▁수도원	-14812
▁헬로	-14813
▁힘쓰	-14814
▁Char	-14815
▁리벤	-14816
▁탈주	-14817
▁방대	-14818
▁리언	-14819
▁시립	-14820
▁최형	-14821
▁RED	-14822
▁수영장	-14823
어들이	-14824
▁쪽지	-14825
▁XY	-14826
▁유시	-14827
▁진공	-14828
▁데이비스	-14829
▁부녀	-14830
▁퇴마	-14831
▁슬래시	-14832
▁길목	-14833
▁타가	-14834
▁치밀	-14835
▁금곡	-14836
▁로니	-14837
▁요르	-14838
▁우이	-14839
▁티타	-14840
▁넘쳐나	-14841
▁묵직	-14842
▁일직선	-14843
▁앞쪽	-14844
▁아카기	-14845
erm	-14846
▁Core	-14847
▁1952	-14848
▁선하	-14849
ute	-14850
▁자판기	-14851
▁여덟	-14852
▁사업자	-14853
▁일정량	-14854
▁히이	-14855
▁힘겹	-14856
▁메르시	-14857
▁노드	-14858
▁우동	-14859
▁see	-14860
▁아재	-14861
▁욕먹	-14862
▁치아	-14863
und	-14864
hy	-14865
▁세단	-14866
▁일선	-14867
▁조원	-14868
▁농촌	-14869
▁슬쩍	-14870
▁발렌시아	-14871
▁216	-14872
▁눈부시	-14873
▁재규어	-14874
나들	-14875
레즈	-14876
▁화랑	-14877
▁농어촌	-14878
▁수속	-14879
▁위조	-14880
▁케어	-14881
▁막아서	-14882
▁루즈	-14883
▁리히	-14884
▁댈	-14885
▁모건	-14886
▁매거진	-14887
▁다크니스	-14888
자루	-14889
▁명장면	-14890
▁앨리	-14891
▁시애틀	-14892
▁브란	-14893
▁츠치	-14894
▁416	-14895
▁Now	-14896
▁}}}}	-14897
▁레비	-14898
▁환불	-14899
▁BW	-14900
▁가쿠	-14901
▁햇빛	-14902
▁티셔츠	-14903
▁Blood	-14904
▁}}}}}}	-14905
▁럭스	-14906
▁마토	-14907
▁BRV	-14908
▁유배	-14909
아내리	-14910
▁아틀라스	-14911
▁매점	-14912
▁고베	-14913
▁현수	-14914
▁213	-14915
맹이	-14916
▁관전	-14917
▁헤라클레스	-14918
▁누님	-14919
▁코칭	-14920
▁흉터	-14921
일관	-14922
▁동국	-14923
▁정적	-14924
▁2021	-14925
▁기공	-14926
▁소름	-14927
▁조인	-14928
▁도보	-14929
▁볼일	-14930
장구	-14931
▁부끄	-14932
▁서스	-14933
▁릉	-14934
▁충동	-14935
▁해저	-14936
▁대장군	-14937
▁저스틴	-14938
▁바흐	-14939
ILL	-14940
▁Joh	-14941
▁Rob	-14942
▁숙명	-14943
▁간편	-14944
▁장녀	-14945
▁아득	-14946
▁충공	-14947
▁퍼시픽	-14948
▁마사무네	-14949
정동	-14950
▁에테르	-14951
▁충실히	-14952
▁고모	-14953
▁레그	-14954
▁후리	-14955
▁능동	-14956
▁후후	-14957
▁건너편	-14958
▁햄버거	-14959
▁심부	-14960
red	-14961
▁무모	-14962
▁기염	-14963
게임넷	-14964
▁온게임넷	-14965
▁친선	-14966
▁our	-14967
▁세무	-14968
▁서유	-14969
ism	-14970
▁Last	-14971
▁둔화	-14972
▁사력	-14973
▁아리사	-14974
▁선글라스	-14975
▁악인	-14976
▁국물	-14977
▁급상	-14978
▁평안	-14979
▁눕히	-14980
▁조슈	-14981
애미	-14982
▁분수	-14983
▁헌병	-14984
▁야자	-14985
III	-14986
▁가주	-14987
▁시빌	-14988
▁BBC	-14989
▁선천	-14990
▁마이애미	-14991
▁완패	-14992
▁센트리	-14993
▁테츠야	-14994
▁학부모	-14995
코스	-14996
▁fr	-14997
▁사납	-14998
▁애리	-14999
▁블리츠	-15000
▁익스프레스	-15001
▁필기	-15002
▁소망	-15003
▁친화	-15004
▁스노	-15005
55	-15006
▁모탈	-15007
▁회자	-15008
▁1300	-15009
▁벤트	-15010
▁헤븐	-15011
▁속사	-15012
▁여하	-15013
▁경의	-15014
▁재화	-15015
조작	-15016
▁기통	-15017
▁중사	-15018
▁디트로	-15019
▁보이드	-15020
▁디트로이트	-15021
▁여느	-15022
수엘라	-15023
▁방어전	-15024
▁기생충	-15025
▁과다	-15026
▁돌풍	-15027
▁비둘기	-15028
▁승부조작	-15029
▁리시	-15030
▁기판	-15031
▁세실	-15032
▁슬라이딩	-15033
▁짊	-15034
▁임상	-15035
뿌리	-15036
▁사쿠야	-15037
▁레이크	-15038
▁오일	-15039
▁화판	-15040
미사	-15041
OCK	-15042
미츠	-15043
▁타오르	-15044
매매	-15045
▁악질	-15046
▁병신	-15047
▁앞장	-15048
▁통학	-15049
▁근래	-15050
▁경영학	-15051
▁right	-15052
▁아종	-15053
ets	-15054
▁재선	-15055
▁암흑기	-15056
▁순삭	-15057
▁자자	-15058
▁검찰청	-15059
▁소아	-15060
▁알비	-15061
▁승부차기	-15062
▁국수	-15063
▁료마	-15064
▁전고	-15065
▁강남구	-15066
괭이	-15067
▁백룡	-15068
▁업종	-15069
▁토코	-15070
▁조선일보	-15071
▁쓸쓸	-15072
▁안식	-15073
어내리	-15074
▁눈썹	-15075
▁직계	-15076
▁표명	-15077
▁유소년	-15078
▁두근두근	-15079
add	-15080
▁NA	-15081
▁서인	-15082
▁이천	-15083
▁구미호	-15084
▁단백질	-15085
▁풍속	-15086
▁시라이	-15087
▁나뭇잎	-15088
▁튀김	-15089
▁해프	-15090
▁희생양	-15091
▁찜	-15092
▁가세	-15093
▁1953	-15094
▁미니게임	-15095
▁Magic	-15096
▁암기	-15097
▁토사	-15098
▁재판소	-15099
▁쩌	-15100
타기	-15101
포로	-15102
▁총대	-15103
▁국정원	-15104
▁상하이	-15105
▁비석	-15106
▁세레나	-15107
xt	-15108
▁cr	-15109
▁데스크	-15110
▁드래곤즈	-15111
▁극성	-15112
▁잽	-15113
▁침체	-15114
▁데일리	-15115
▁그해	-15116
▁사병	-15117
▁경희대	-15118
그마	-15119
▁초딩	-15120
▁팬클럽	-15121
▁7000	-15122
▁메탈기어	-15123
▁권고	-15124
▁활주로	-15125
▁홉	-15126
ama	-15127
▁무네	-15128
▁볼리	-15129
▁HOT	-15130
▁Like	-15131
▁피신	-15132
▁호우	-15133
▁영화관	-15134
▁베네수엘라	-15135
▁피칭	-15136
OWN	-15137
▁여리	-15138
▁중화기	-15139
▁서약	-15140
▁재미없	-15141
외선	-15142
▁농부	-15143
▁포진	-15144
▁히코	-15145
▁양도	-15146
▁자가	-15147
▁총사령관	-15148
88	-15149
니지	-15150
▁고갈	-15151
▁사단장	-15152
▁박태	-15153
▁RR	-15154
▁동산	-15155
▁엘런	-15156
▁차출	-15157
▁Alb	-15158
▁정종	-15159
▁진해	-15160
▁거리표	-15161
▁매그넘	-15162
▁프랭클린	-15163
▁가넷	-15164
▁카츠키	-15165
▁첨가	-15166
이프	-15167
▁관광지	-15168
▁pe	-15169
▁아킬	-15170
▁자정	-15171
▁이대호	-15172
▁니즘	-15173
▁이의	-15174
▁신종	-15175
▁마취	-15176
▁불허	-15177
▁정윤	-15178
▁출연자	-15179
▁잔여	-15180
▁권역	-15181
▁잘생기	-15182
▁프라이드	-15183
▁거미줄	-15184
▁드래그	-15185
탕스	-15186
▁금하	-15187
▁방관	-15188
▁레지스탕스	-15189
▁Soul	-15190
▁그물	-15191
▁남극	-15192
▁방정식	-15193
▁자멸	-15194
▁텐더	-15195
▁필승	-15196
▁불안감	-15197
▁RPM	-15198
▁갈아입	-15199
▁해프닝	-15200
▁덤벼	-15201
▁Happy	-15202
▁연안	-15203
▁이범	-15204
▁혼나	-15205
▁날라	-15206
천역	-15207
▁원어	-15208
▁몸집	-15209
▁몽땅	-15210
ader	-15211
▁낙하산	-15212
▁테슬라	-15213
▁사위	-15214
▁이메	-15215
▁토토	-15216
▁악보	-15217
▁음란	-15218
▁대입	-15219
▁전과	-15220
▁Nor	-15221
▁거니와	-15222
▁수송선	-15223
▁하자드	-15224
니르	-15225
▁성남시	-15226
▁화룡	-15227
▁범주	-15228
▁미나토	-15229
▁법정동	-15230
▁철퇴	-15231
이인	-15232
OWER	-15233
▁사비	-15234
▁클라우	-15235
▁포레스트	-15236
▁사역	-15237
ga	-15238
장판	-15239
▁본드	-15240
▁뒤쳐지	-15241
▁장기전	-15242
▁체로	-15243
▁223	-15244
▁TT	-15245
▁이목	-15246
▁비대	-15247
▁비룡	-15248
▁생방송	-15249
▁아레스	-15250
▁there	-15251
▁체구	-15252
▁베르크	-15253
▁산체스	-15254
▁이도	-15255
▁마크로스	-15256
▁막말	-15257
▁퍼니	-15258
▁무당	-15259
▁이로	-15260
ocal	-15261
▁기어이	-15262
▁사요	-15263
▁성동	-15264
▁역설	-15265
ther	-15266
▁골고루	-15267
▁리포	-15268
▁코팅	-15269
▁김소	-15270
▁쌈	-15271
부리	-15272
▁크리드	-15273
▁순조	-15274
▁Party	-15275
▁미달	-15276
자국	-15277
▁바트	-15278
▁정대	-15279
베이스	-15280
니치	-15281
▁마키나	-15282
▁하이브	-15283
▁GX	-15284
▁365	-15285
▁레프트	-15286
▁대의	-15287
▁선역	-15288
▁임페	-15289
▁읊	-15290
벅지	-15291
▁일찌감치	-15292
▁깜빡	-15293
▁충공깽	-15294
▁조나	-15295
▁삽입곡	-15296
▁ph	-15297
▁조세	-15298
▁Side	-15299
▁문성	-15300
▁영조	-15301
▁공시	-15302
▁도입부	-15303
▁산호	-15304
▁역과	-15305
▁쿠도	-15306
▁Sim	-15307
▁계승자	-15308
▁ㄴ다든지	-15309
▁성희	-15310
▁주임	-15311
▁임용	-15312
▁교향곡	-15313
▁동명이인	-15314
▁크로노스	-15315
▁연성	-15316
uz	-15317
▁룽	-15318
▁용왕	-15319
▁Show	-15320
▁수법	-15321
▁감염자	-15322
▁시위대	-15323
▁맨날	-15324
▁공중전	-15325
▁시종일관	-15326
▁민트	-15327
ERF	-15328
▁백지	-15329
▁얌전	-15330
▁네로	-15331
▁사우디아	-15332
▁아르메니아	-15333
▁IF	-15334
▁장학금	-15335
▁Edition	-15336
▁격납	-15337
▁청문	-15338
ONE	-15339
▁여대	-15340
▁net	-15341
▁이츠키	-15342
더리	-15343
▁카메오	-15344
▁보급품	-15345
▁girl	-15346
▁크리에이터	-15347
▁아유미	-15348
▁해결책	-15349
▁Open	-15350
BOX	-15351
▁370	-15352
▁브라이	-15353
▁진행하	-15354
▁에티	-15355
▁후려치	-15356
▁뜬공	-15357
▁레타	-15358
▁링컨	-15359
▁남아공	-15360
▁남친	-15361
▁투석	-15362
ated	-15363
▁ㄴ답	-15364
▁덕택	-15365
▁수납	-15366
▁이쁘	-15367
▁내리치	-15368
형제	-15369
▁헤지	-15370
▁큰일	-15371
▁플랫폼	-15372
▁성범죄	-15373
▁스피리	-15374
▁미용	-15375
▁쟁탈전	-15376
▁특출나	-15377
▁재무	-15378
▁타지	-15379
▁라이토	-15380
▁급상승	-15381
▁음식점	-15382
▁에어리어	-15383
rew	-15384
▁장담	-15385
▁전복	-15386
ASS	-15387
▁1957	-15388
▁김호	-15389
▁노원	-15390
▁왕건	-15391
work	-15392
▁Way	-15393
▁임페리얼	-15394
▁란다	-15395
▁Und	-15396
▁멱	-15397
▁작물	-15398
▁터프	-15399
▁Cap	-15400
▁got	-15401
▁알파벳	-15402
▁feel	-15403
▁능욕	-15404
▁잣	-15405
ley	-15406
▁구루	-15407
▁에러	-15408
▁내려지	-15409
▁유수	-15410
▁코로	-15411
▁며느리	-15412
▁만악	-15413
▁붉은색	-15414
▁Mark	-15415
▁시커	-15416
hammer	-15417
▁경합	-15418
▁후카	-15419
▁일기토	-15420
▁신년	-15421
▁아프가	-15422
▁인플레	-15423
▁카터	-15424
▁쿠폰	-15425
▁his	-15426
▁플레인	-15427
▁민족주의	-15428
▁who	-15429
▁위태	-15430
▁키쿠	-15431
▁충주	-15432
▁대변인	-15433
▁토카	-15434
▁활약상	-15435
▁총재	-15436
▁바람직	-15437
98	-15438
▁전령	-15439
▁폐하	-15440
트리스	-15441
▁떨리	-15442
▁몸체	-15443
▁부러	-15444
▁의존도	-15445
▁천연가스	-15446
▁변함	-15447
ster	-15448
▁맞춤	-15449
▁빽	-15450
▁경순양함	-15451
▁알맞	-15452
▁바운드	-15453
▁투표율	-15454
▁정경	-15455
▁Pol	-15456
▁하시모토	-15457
▁옵스	-15458
▁푸쉬	-15459
▁효력	-15460
▁도호쿠	-15461
▁지자체	-15462
▁입상	-15463
▁비운	-15464
▁프레드	-15465
▁블루투스	-15466
선거	-15467
▁구라	-15468
▁SKE	-15469
▁남짓	-15470
▁대도	-15471
▁반달	-15472
▁디에고	-15473
▁방영일	-15474
▁watch	-15475
▁복권	-15476
▁윤성	-15477
▁돗	-15478
▁베르나	-15479
▁Angel	-15480
▁아야노	-15481
▁희박	-15482
▁Val	-15483
▁micro	-15484
▁Na	-15485
▁케니	-15486
▁화끈	-15487
▁무서	-15488
▁개화	-15489
▁잠식	-15490
▁특권	-15491
▁그리폰	-15492
▁기각	-15493
▁유하	-15494
▁적기	-15495
▁항우	-15496
ird	-15497
▁맞대결	-15498
▁오리콘	-15499
48	-15500
▁ㄴ대	-15501
▁근황	-15502
▁버퍼	-15503
▁퍼트	-15504
▁화질	-15505
▁댈러스	-15506
▁짊어지	-15507
▁토우마	-15508
▁누락	-15509
▁복각	-15510
▁성주	-15511
▁역전재판	-15512
▁절약	-15513
▁헤더	-15514
더스트	-15515
▁알루미	-15516
▁소주	-15517
▁자위	-15518
▁에어컨	-15519
▁카트리	-15520
▁Comp	-15521
▁생포	-15522
▁소탕	-15523
▁알코	-15524
▁금서	-15525
▁식인	-15526
피드	-15527
▁배수량	-15528
▁저항군	-15529
▁수족	-15530
▁중추	-15531
▁화보	-15532
▁950	-15533
▁하반신	-15534
▁상임	-15535
라비아	-15536
▁이끌리	-15537
▁꼭대기	-15538
▁무패	-15539
▁봄버	-15540
▁평정	-15541
▁FBI	-15542
▁1947	-15543
레톤	-15544
▁의류	-15545
▁레테	-15546
▁부토	-15547
▁분과	-15548
▁엑셀	-15549
▁선별	-15550
▁엑스맨	-15551
▁익명	-15552
▁통역	-15553
▁스켈레톤	-15554
▁시드니	-15555
▁애틀랜타	-15556
▁상고	-15557
▁벼락	-15558
▁헌납	-15559
▁아프가니스탄	-15560
▁수분	-15561
▁교무실	-15562
▁미카엘	-15563
▁부디	-15564
▁흐트	-15565
▁미공개	-15566
▁벌어들이	-15567
▁이석	-15568
▁치토	-15569
▁활기	-15570
▁점포	-15571
▁촛불	-15572
▁허니	-15573
▁Fly	-15574
▁090	-15575
▁꾀하	-15576
▁수박	-15577
▁상경	-15578
▁행세	-15579
▁비열	-15580
▁유교	-15581
▁박병호	-15582
▁이유로	-15583
▁내공	-15584
▁틀어막	-15585
▁피쳐	-15586
▁어쩌다	-15587
▁엘더스	-15588
▁Legend	-15589
▁Stage	-15590
▁!!!	-15591
▁트라웃	-15592
▁Fall	-15593
벨트	-15594
▁연기자	-15595
▁전념	-15596
▁과잉	-15597
▁재주	-15598
부수	-15599
▁불분	-15600
▁신민	-15601
▁개더링	-15602
▁예매	-15603
지기	-15604
▁엄폐물	-15605
▁검도	-15606
▁주루	-15607
▁한성	-15608
혀가	-15609
IVE	-15610
▁구비	-15611
▁알몸	-15612
▁수뇌부	-15613
▁First	-15614
▁중순양함	-15615
고생	-15616
▁조현	-15617
▁잡혀가	-15618
▁중론	-15619
무로	-15620
ura	-15621
▁이관	-15622
▁중공업	-15623
▁유한	-15624
▁추위	-15625
stem	-15626
▁전염병	-15627
▁빅토리	-15628
▁호라이즌	-15629
▁번영	-15630
▁245	-15631
▁경비병	-15632
▁쥴	-15633
▁단타	-15634
▁양평	-15635
▁전경	-15636
▁겸비	-15637
▁로버	-15638
▁마운틴	-15639
▁시연	-15640
▁좌완	-15641
▁상승세	-15642
▁가중	-15643
▁빌헬	-15644
▁엘릭	-15645
치오	-15646
▁반대쪽	-15647
▁어설트	-15648
▁Sam	-15649
▁갑주	-15650
▁세조	-15651
▁온전	-15652
▁엎드리	-15653
▁승승	-15654
▁웨딩	-15655
▁코일	-15656
▁김구라	-15657
▁Perf	-15658
▁막론	-15659
▁무방비	-15660
▁불분명	-15661
▁미처	-15662
▁유다	-15663
▁ㄴ데다가	-15664
▁그리스어	-15665
▁life	-15666
해군	-15667
▁선지	-15668
▁불가피	-15669
▁오바마	-15670
▁랍시고	-15671
udio	-15672
▁손책	-15673
▁540	-15674
▁머릿속	-15675
▁포메	-15676
▁후작	-15677
▁Free	-15678
소니	-15679
▁스튜어트	-15680
캐슬	-15681
▁부기	-15682
▁경전철	-15683
▁거라	-15684
▁만화가	-15685
▁키사라기	-15686
▁물음	-15687
▁판과	-15688
▁카자마	-15689
▁진범	-15690
▁총회	-15691
▁콩두	-15692
▁234	-15693
▁알루미늄	-15694
▁오리지날	-15695
▁Final	-15696
▁급습	-15697
▁껴	-15698
▁언론사	-15699
▁운임	-15700
▁후세	-15701
▁소폭	-15702
▁아벨	-15703
▁덩달	-15704
▁로페	-15705
▁오카다	-15706
▁무소	-15707
▁허술	-15708
▁Class	-15709
▁김신	-15710
▁명실	-15711
▁바드	-15712
레일리아	-15713
▁투르	-15714
▁자바	-15715
▁-!	-15716
▁엠마	-15717
▁푸른색	-15718
▁그제서야	-15719
▁겁쟁이	-15720
▁Er	-15721
▁복부	-15722
▁체내	-15723
▁사죄	-15724
▁힘내	-15725
▁top	-15726
피어	-15727
▁질질	-15728
▁사냥터	-15729
▁성우진	-15730
▁Break	-15731
▁파워레인저	-15732
▁뉴캐슬	-15733
err	-15734
▁아스타	-15735
슬쩍	-15736
페어	-15737
▁쇼군	-15738
▁슬러	-15739
▁잠자	-15740
▁루기	-15741
▁수혜	-15742
닥치	-15743
▁메츠	-15744
▁노프	-15745
▁린다	-15746
▁Spring	-15747
▁선상	-15748
TH	-15749
▁GDP	-15750
▁쥬라기	-15751
건설	-15752
arius	-15753
▁베끼	-15754
ling	-15755
▁나카노	-15756
▁지명타자	-15757
▁죄인	-15758
▁440	-15759
▁준장	-15760
▁명백히	-15761
▁엠블럼	-15762
그라드	-15763
▁수제	-15764
▁유체	-15765
▁송병구	-15766
▁City	-15767
▁베아	-15768
▁졸리	-15769
▁~?	-15770
▁창출	-15771
▁케로로	-15772
▁망각	-15773
▁열렬	-15774
▁잔재	-15775
▁봉하	-15776
▁비평	-15777
▁무리수	-15778
▁벤츠	-15779
▁부우	-15780
▁Never	-15781
▁유죄	-15782
▁이문	-15783
▁프리드	-15784
가요	-15785
▁세가	-15786
AGE	-15787
▁슬래	-15788
▁중파	-15789
▁오우거	-15790
▁법조	-15791
▁쌍용	-15792
▁하얀색	-15793
▁Down	-15794
ux	-15795
▁일개	-15796
▁대리인	-15797
▁동유럽	-15798
▁카라스	-15799
영수	-15800
▁김제	-15801
▁신격	-15802
▁밀러	-15803
▁악수	-15804
▁249	-15805
▁김정일	-15806
▁앤더슨	-15807
▁또래	-15808
▁이시카와	-15809
▁사우디아라비아	-15810
▁Cor	-15811
▁조니	-15812
▁평지	-15813
▁"..	-15814
▁MAN	-15815
고쿠	-15816
▁이니셜	-15817
tm	-15818
yes	-15819
▁뚱뚱	-15820
▁뛰어내리	-15821
▁무안타	-15822
▁제복	-15823
▁동급생	-15824
▁번번	-15825
▁티거	-15826
▁로토	-15827
▁자치령	-15828
▁PRO	-15829
▁분화	-15830
▁광폭	-15831
▁Mon	-15832
▁우려먹	-15833
▁청주시	-15834
▁자유주의	-15835
▁명은	-15836
▁삿포로	-15837
▁자재	-15838
▁GOT	-15839
▁빈센트	-15840
▁대전광역시	-15841
▁검기	-15842
▁어로	-15843
▁티라노	-15844
▁If	-15845
REME	-15846
▁지중	-15847
즐리	-15848
▁How	-15849
▁나오키	-15850
▁띵	-15851
▁연호	-15852
▁품종	-15853
스부르크	-15854
▁니퍼	-15855
▁최원	-15856
제리	-15857
▁선후	-15858
▁-.	-15859
블루	-15860
▁시녀	-15861
▁판본	-15862
피온	-15863
▁BP	-15864
▁도메	-15865
▁베토	-15866
▁한승	-15867
▁베레	-15868
▁KCC	-15869
▁안테나	-15870
▁뛰어오르	-15871
▁화가	-15872
▁세이부	-15873
▁엠블렘	-15874
▁레니	-15875
▁팰리스	-15876
▁하나님	-15877
▁걷어	-15878
▁버겁	-15879
▁체크카드	-15880
tain	-15881
영향	-15882
IME	-15883
▁맥시	-15884
▁직진	-15885
현동	-15886
ause	-15887
▁신태	-15888
▁9000	-15889
▁AW	-15890
신기	-15891
▁불발	-15892
▁사복	-15893
▁섣	-15894
▁숙지	-15895
▁이형	-15896
▁성품	-15897
▁인승	-15898
▁건축물	-15899
▁1951	-15900
▁마카오	-15901
▁랠	-15902
칼리버	-15903
▁219	-15904
▁서스펜	-15905
▁의뢰인	-15906
erry	-15907
▁짱구	-15908
▁1914	-15909
▁Sn	-15910
▁코우지	-15911
▁메가트론	-15912
▁승계	-15913
▁저널	-15914
▁청취	-15915
▁난장판	-15916
▁야스오	-15917
▁오스틴	-15918
▁저음	-15919
▁편도	-15920
▁Swe	-15921
▁반납	-15922
▁sk	-15923
▁밸브	-15924
▁수전	-15925
▁알트	-15926
▁입당	-15927
▁체하	-15928
raft	-15929
▁끝없이	-15930
▁Mem	-15931
라이언트	-15932
▁시프	-15933
▁현무	-15934
▁투여	-15935
▁226	-15936
▁염동	-15937
▁한중	-15938
▁행군	-15939
▁공채	-15940
▁베로	-15941
▁그러다가	-15942
▁굴러가	-15943
▁마석	-15944
▁마자	-15945
안군	-15946
▁허벅지	-15947
▁클라이언트	-15948
나시	-15949
iny	-15950
▁광동	-15951
▁야인	-15952
▁정치력	-15953
▁최형우	-15954
▁구이	-15955
▁순항	-15956
재욱	-15957
▁박하	-15958
▁전우	-15959
코스터	-15960
▁바알	-15961
▁성령	-15962
▁스투	-15963
▁위저드	-15964
평균	-15965
리히	-15966
▁결단	-15967
▁위닝	-15968
▁이송	-15969
▁애시당초	-15970
▁곡사	-15971
▁신봉	-15972
갔다	-15973
▁변속기	-15974
▁후하	-15975
▁국무총리	-15976
▁악장	-15977
▁011	-15978
▁롤러코스터	-15979
▁젓	-15980
▁"'	-15981
▁꾹	-15982
▁가늠	-15983
▁샬롯	-15984
▁페달	-15985
김없이	-15986
▁그레이브	-15987
▁명왕	-15988
▁다이빙	-15989
다듬	-15990
▁주주	-15991
▁밀접	-15992
▁서동	-15993
▁합금	-15994
▁니즈	-15995
▁오산	-15996
▁숨결	-15997
대표	-15998
▁슬립	-15999
▁티모	-16000
▁브래드	-16001
▁훈련소	-16002
테라	-16003
▁사생	-16004
de	-16005
▁말살	-16006
▁어지럽	-16007
▁회유	-16008
▁블로킹	-16009
▁예술가	-16010
▁토바	-16011
▁end	-16012
▁설진	-16013
▁RX	-16014
▁빙글	-16015
▁소란	-16016
▁APC	-16017
▁노선도	-16018
▁보호자	-16019
▁사하	-16020
▁월터	-16021
▁검색어	-16022
ival	-16023
▁1937	-16024
▁요양	-16025
▁평준	-16026
▁호각	-16027
▁서재	-16028
▁양양	-16029
▁사츠키	-16030
▁코요미	-16031
▁리제	-16032
▁몸싸움	-16033
소통	-16034
▁시메	-16035
▁포자	-16036
▁폴라	-16037
▁의사소통	-16038
▁키치	-16039
▁오스트레일리아	-16040
▁베네치아	-16041
▁칼질	-16042
▁허다	-16043
리즘	-16044
▁박차	-16045
▁하쿠	-16046
▁에버튼	-16047
▁크리스토퍼	-16048
▁시리우스	-16049
▁방망	-16050
▁자택	-16051
▁착수	-16052
▁얍	-16053
▁탄두	-16054
▁조개	-16055
▁강령	-16056
▁고뇌	-16057
▁험악	-16058
▁cont	-16059
▁만우	-16060
74	-16061
▁양말	-16062
▁큐트	-16063
테리어	-16064
▁원상	-16065
▁끌어오	-16066
▁어우러지	-16067
▁쇼타	-16068
요리	-16069
▁PT	-16070
▁보성	-16071
▁228	-16072
RO	-16073
살렘	-16074
▁이강	-16075
▁캠핑	-16076
▁반려	-16077
▁반죽	-16078
▁톱니	-16079
▁aqu	-16080
▁연구자	-16081
▁세계수	-16082
▁make	-16083
▁224	-16084
루살렘	-16085
▁과반	-16086
ATE	-16087
▁건의	-16088
▁미약	-16089
▁피그	-16090
▁차오르	-16091
▁play	-16092
▁경시	-16093
▁김은	-16094
▁사오	-16095
▁원성	-16096
▁펠트	-16097
▁판단력	-16098
▁Christ	-16099
▁착취	-16100
▁컬링	-16101
▁제너럴	-16102
que	-16103
▁중산	-16104
▁375	-16105
▁츳	-16106
▁라리	-16107
▁일생	-16108
▁디럭스	-16109
▁어시	-16110
▁춘추	-16111
▁애리조	-16112
▁생계	-16113
▁사상자	-16114
▁야마자키	-16115
▁EXTREME	-16116
▁ㅈ	-16117
▁쌍검	-16118
▁잔소리	-16119
▁최하위	-16120
모델	-16121
▁간절	-16122
▁래리	-16123
▁410	-16124
▁ㅏ라	-16125
▁카르텔	-16126
▁외장	-16127
넌트	-16128
나가와	-16129
▁Hol	-16130
▁뺑	-16131
▁슴	-16132
▁정무	-16133
▁미도	-16134
▁233	-16135
▁야말로	-16136
가르드	-16137
▁애니메이터	-16138
걸음	-16139
▁이롭	-16140
▁싱크로	-16141
썰트	-16142
▁위아	-16143
▁어썰트	-16144
▁애니플러스	-16145
▁면도	-16146
▁악평	-16147
▁골짜기	-16148
22	-16149
사람	-16150
▁성원	-16151
▁part	-16152
린더	-16153
ONG	-16154
▁성시	-16155
▁찬사	-16156
▁태후	-16157
하니	-16158
▁고안	-16159
▁우먼	-16160
▁Club	-16161
▁KE	-16162
▁매도	-16163
▁오보	-16164
▁러스트	-16165
▁이달	-16166
▁흉기	-16167
임수	-16168
▁만우절	-16169
erg	-16170
▁김한	-16171
먼드	-16172
▁전패	-16173
▁유승민	-16174
전함	-16175
▁노홍철	-16176
▁받아치	-16177
▁투수진	-16178
▁슈리	-16179
▁노획	-16180
▁스맥	-16181
▁MIX	-16182
ya	-16183
idd	-16184
▁스맥다운	-16185
▁근위	-16186
▁양지	-16187
▁아르타	-16188
▁스테이크	-16189
ino	-16190
▁앤드류	-16191
▁레이카	-16192
▁레전더리	-16193
▁악영향	-16194
▁다마	-16195
▁북서	-16196
▁필적	-16197
▁again	-16198
▁고철	-16199
▁사찰	-16200
▁에노	-16201
▁대구경	-16202
▁지하실	-16203
▁줄리아	-16204
▁예루살렘	-16205
▁실탄	-16206
▁Cry	-16207
▁블레	-16208
▁코러스	-16209
일기	-16210
▁황소	-16211
▁진전	-16212
▁스미레	-16213
▁레코	-16214
▁세카	-16215
▁충원	-16216
▁편애	-16217
▁린이	-16218
▁순례	-16219
▁흥하	-16220
▁파탄	-16221
▁겉모습	-16222
▁교목	-16223
▁무로	-16224
▁수퍼	-16225
▁식별	-16226
▁편집자	-16227
▁급여	-16228
▁소프	-16229
▁포상	-16230
▁레볼루션	-16231
▁hp	-16232
이즈미	-16233
▁명확히	-16234
▁WHIP	-16235
▁둔기	-16236
▁폰트	-16237
▁항쟁	-16238
▁김종국	-16239
▁시어터	-16240
▁앞장서	-16241
이라	-16242
▁개칭	-16243
▁차우	-16244
▁슬로건	-16245
▁성희롱	-16246
▁알코올	-16247
lo	-16248
▁미네랄	-16249
▁이장	-16250
▁참모총장	-16251
▁귤	-16252
▁이바	-16253
▁진기	-16254
▁린치	-16255
▁유원	-16256
▁절감	-16257
▁물러서	-16258
▁오승	-16259
▁음력	-16260
베르크	-16261
▁적과	-16262
▁증표	-16263
▁블랑	-16264
▁백병	-16265
▁성소	-16266
▁Come	-16267
▁깍	-16268
▁독도	-16269
▁미완성	-16270
▁본거지	-16271
▁적어지	-16272
▁heart	-16273
BY	-16274
▁성취	-16275
▁땜	-16276
▁이메일	-16277
▁수산	-16278
▁마우	-16279
▁안장	-16280
▁한복	-16281
▁인원수	-16282
▁동탄	-16283
▁루시안	-16284
▁악세사리	-16285
▁곧장	-16286
▁관용	-16287
▁CIA	-16288
▁라이덴	-16289
▁어휘	-16290
▁틈새	-16291
해야	-16292
HN	-16293
▁티격	-16294
▁거머	-16295
폴리스	-16296
▁KA	-16297
▁PM	-16298
▁불거지	-16299
▁윤종신	-16300
공주	-16301
▁다그	-16302
▁어려	-16303
▁류우	-16304
▁어부	-16305
▁쿄스케	-16306
▁이탈리아어	-16307
▁제명	-16308
▁벳	-16309
▁설문	-16310
▁치과	-16311
▁호문	-16312
▁강서구	-16313
▁뻐	-16314
회의	-16315
▁길래	-16316
▁카오	-16317
▁마사토	-16318
▁쁘	-16319
▁동결	-16320
▁은혼	-16321
▁밤중	-16322
▁신빙	-16323
▁동하	-16324
▁never	-16325
열차	-16326
▁재차	-16327
▁NORM	-16328
▁멩	-16329
▁bb	-16330
▁xx	-16331
▁실감	-16332
▁일루	-16333
▁정시	-16334
자치단체	-16335
▁이에야스	-16336
cy	-16337
▁그분	-16338
▁PH	-16339
▁환원	-16340
▁끌어당기	-16341
일본	-16342
▁시정	-16343
▁옴니	-16344
NG	-16345
▁개종	-16346
▁평이	-16347
▁동남아	-16348
▁수당	-16349
▁지상군	-16350
르슈	-16351
aker	-16352
▁미우	-16353
▁순차	-16354
▁수사관	-16355
▁경대	-16356
▁눈보라	-16357
▁밧줄	-16358
▁코만	-16359
▁개리	-16360
▁몰입	-16361
▁세련	-16362
▁요지	-16363
▁데니스	-16364
▁수렴	-16365
▁유키노	-16366
▁체이서	-16367
▁Will	-16368
관계	-16369
OUR	-16370
▁화전	-16371
▁콘테스트	-16372
▁동그	-16373
▁채무	-16374
▁고아원	-16375
ORA	-16376
▁XC	-16377
▁뜬금없	-16378
▁우크	-16379
▁퍼플	-16380
▁차크라	-16381
▁쇼코	-16382
쩌둥	-16383
▁점치	-16384
▁마오쩌둥	-16385
▁미워하	-16386
▁컨퍼런스	-16387
▁우크라이나	-16388
▁유부	-16389
▁카프	-16390
▁빨아들이	-16391
▁Girls	-16392
▁김종민	-16393
▁우대	-16394
▁임재	-16395
메리카	-16396
▁NORMAL	-16397
▁Ah	-16398
▁카모	-16399
▁페미니스트	-16400
▁최연	-16401
▁브로드	-16402
전대	-16403
▁수료	-16404
▁마이티	-16405
▁나주	-16406
▁민심	-16407
▁다이노	-16408
anger	-16409
▁각별	-16410
▁올인	-16411
▁음악가	-16412
▁매입	-16413
▁볶음	-16414
▁MY	-16415
▁납품	-16416
▁외환	-16417
▁미코	-16418
▁열광	-16419
▁has	-16420
▁게재	-16421
▁전쟁터	-16422
▁간첩	-16423
▁부전	-16424
▁투항	-16425
푸스	-16426
▁전황	-16427
▁이리스	-16428
▁프렌드	-16429
▁1919	-16430
▁천진	-16431
▁해설자	-16432
전쟁	-16433
▁페이퍼	-16434
▁거든요	-16435
▁성공회	-16436
▁RB	-16437
▁포커	-16438
▁트롤링	-16439
팔로	-16440
▁메트	-16441
▁에라	-16442
onder	-16443
▁only	-16444
▁Sol	-16445
▁서큐버스	-16446
▁MUS	-16447
▁라파엘	-16448
▁적시	-16449
▁SEED	-16450
▁용호	-16451
▁EXO	-16452
▁복수심	-16453
▁비서관	-16454
▁Best	-16455
▁보크	-16456
▁짝퉁	-16457
▁인테리어	-16458
▁포메이션	-16459
▁활력	-16460
▁우선시	-16461
▁첨부	-16462
▁해인	-16463
▁나츠메	-16464
▁제네레이션	-16465
▁월등히	-16466
ball	-16467
▁개전	-16468
▁문과	-16469
▁한국군	-16470
▁뿌요	-16471
▁연마	-16472
▁미식축구	-16473
▁배반	-16474
디우스	-16475
▁아이젠	-16476
▁SMG	-16477
▁신드	-16478
▁장대	-16479
▁철혈	-16480
▁정근	-16481
▁시미즈	-16482
▁ㅕ야	-16483
▁뻔뻔	-16484
▁스턴트	-16485
▁옥타브	-16486
▁스팟	-16487
오버	-16488
▁거머쥐	-16489
▁스커	-16490
▁올리브	-16491
osh	-16492
▁궤멸	-16493
▁페트	-16494
▁소대장	-16495
▁여중	-16496
▁에너	-16497
▁Net	-16498
▁증강	-16499
▁초심	-16500
▁Ind	-16501
▁억양	-16502
UD	-16503
▁OM	-16504
▁남산	-16505
▁어르	-16506
▁217	-16507
▁연장전	-16508
▁사대	-16509
▁수년	-16510
▁Little	-16511
세포	-16512
▁악연	-16513
▁우의	-16514
▁하남	-16515
불리	-16516
▁북동	-16517
▁후지와라	-16518
▁사드	-16519
▁연화	-16520
▁소나무	-16521
▁Dest	-16522
65	-16523
▁\]	-16524
▁초전	-16525
▁미스테리	-16526
▁호화	-16527
▁켐	-16528
▁고하	-16529
▁시술	-16530
▁환산	-16531
▁난쟁이	-16532
▁미술관	-16533
▁물류	-16534
▁비터	-16535
▁오컬	-16536
▁피노	-16537
▁부상자	-16538
▁스콜피온	-16539
▁다듬	-16540
▁조짐	-16541
▁한눈	-16542
▁과열	-16543
▁교원	-16544
▁추기	-16545
▁데미안	-16546
▁타쿠야	-16547
▁메모리얼	-16548
날리	-16549
▁승하	-16550
▁내용물	-16551
▁슬라이더	-16552
▁산전	-16553
light	-16554
샤인	-16555
▁주부	-16556
▁체르	-16557
▁한판	-16558
▁레닌	-16559
▁액수	-16560
▁카니발	-16561
▁파나	-16562
▁낙서	-16563
▁로어	-16564
▁라이엇	-16565
▁플랜트	-16566
▁1911	-16567
▁알라딘	-16568
▁전곡	-16569
▁사주	-16570
▁정승	-16571
▁이보	-16572
▁검거	-16573
▁베이커	-16574
▁낭만	-16575
▁은빛	-16576
▁끊어지	-16577
월드	-16578
▁파주	-16579
▁red	-16580
니컬	-16581
티티	-16582
▁'~	-16583
▁노노	-16584
▁패권	-16585
▁서프	-16586
▁약수	-16587
▁픽처	-16588
▁부록	-16589
▁정선	-16590
소년단	-16591
와르	-16592
▁고참	-16593
▁브룩	-16594
▁소품	-16595
▁에이미	-16596
▁발령	-16597
▁없음	-16598
▁KN	-16599
▁초라	-16600
▁별거	-16601
▁자백	-16602
ANCED	-16603
▁나성	-16604
▁제후	-16605
▁해밀	-16606
▁폐업	-16607
▁정민	-16608
▁아라시	-16609
▁생리	-16610
▁세이야	-16611
장치	-16612
▁교명	-16613
▁하노	-16614
▁허약	-16615
▁대기실	-16616
▁통찰	-16617
▁우치하	-16618
▁소셜	-16619
▁here	-16620
▁변모	-16621
▁사이비	-16622
데라	-16623
▁냉혹	-16624
▁다량	-16625
▁010	-16626
▁러시아군	-16627
HC	-16628
▁미움	-16629
▁조선소	-16630
▁Take	-16631
ASY	-16632
▁기교	-16633
▁맹수	-16634
▁우여	-16635
▁서태지	-16636
▁크류	-16637
▁301	-16638
▁오아시스	-16639
▁클러치	-16640
▁FO	-16641
▁BMW	-16642
▁di	-16643
▁괴이	-16644
▁GPS	-16645
▁NFL	-16646
▁음료수	-16647
▁독단	-16648
▁유창	-16649
▁상반	-16650
▁야나기	-16651
▁남아프리카	-16652
세움	-16653
▁고드	-16654
▁앵글	-16655
▁Inv	-16656
▁Mix	-16657
▁str	-16658
eek	-16659
▁업자	-16660
▁오컬트	-16661
▁마스터즈	-16662
아오르	-16663
▁체류	-16664
▁는커녕	-16665
▁래빗	-16666
▁세터	-16667
▁지탱	-16668
▁부적절	-16669
▁야구단	-16670
▁무트	-16671
▁게르만	-16672
▁강정	-16673
▁고마	-16674
▁익산	-16675
▁재상	-16676
▁화합	-16677
▁나리타	-16678
▁뮐	-16679
▁해지	-16680
▁꼬시	-16681
▁미하일	-16682
▁카즈미	-16683
▁액스	-16684
▁로켓단	-16685
▁헌트	-16686
▁잡아	-16687
▁저축	-16688
▁특색	-16689
▁하계	-16690
▁둘째치	-16691
▁세바스	-16692
▁광란	-16693
▁정국	-16694
▁let	-16695
▁내레이션	-16696
▁타카히로	-16697
▁Single	-16698
▁환장	-16699
▁CGV	-16700
▁빌헬름	-16701
▁야구부	-16702
▁영국인	-16703
IO	-16704
▁gu	-16705
▁골수	-16706
▁Aut	-16707
▁프레데터	-16708
▁담원	-16709
▁티르	-16710
▁피파	-16711
38	-16712
▁타카오	-16713
비지	-16714
▁예민	-16715
▁Ult	-16716
▁방탄소년단	-16717
▁드미	-16718
▁마방	-16719
▁야요	-16720
▁형벌	-16721
▁촉진	-16722
▁출입구	-16723
oom	-16724
▁ad	-16725
▁유니버	-16726
ena	-16727
▁내쫓	-16728
▁투덜	-16729
서리	-16730
▁페라리	-16731
lex	-16732
▁굴림	-16733
교사	-16734
시장	-16735
▁뉴타입	-16736
▁오도	-16737
▁aquarius	-16738
▁뜯어	-16739
▁반주	-16740
▁신천	-16741
▁요령	-16742
▁밝혀	-16743
▁어떡	-16744
▁지효	-16745
▁252	-16746
▁백두	-16747
▁우디	-16748
▁껌	-16749
▁호위함	-16750
▁의거	-16751
▁퍼블	-16752
▁소홀	-16753
uture	-16754
▁라다	-16755
▁통솔력	-16756
▁ADVANCED	-16757
▁니르	-16758
▁스트림	-16759
▁촉구	-16760
▁YG	-16761
▁폐인	-16762
각형	-16763
▁mA	-16764
▁재보	-16765
▁파기	-16766
▁EPL	-16767
▁녹스	-16768
▁하로	-16769
▁대성공	-16770
▁들여오	-16771
▁이트	-16772
▁메커	-16773
32	-16774
▁백종	-16775
▁오자	-16776
▁자음	-16777
▁교제	-16778
▁아틀란	-16779
▁ㄴ답시고	-16780
▁얼룩	-16781
▁이동기	-16782
▁스냅드래곤	-16783
▁하즈	-16784
▁밀가루	-16785
▁카르타	-16786
▁서유럽	-16787
▁Real	-16788
▁집요	-16789
▁512	-16790
▁사카이	-16791
▁공직	-16792
▁승낙	-16793
▁속임수	-16794
▁코미디언	-16795
모트	-16796
빠지	-16797
▁거창	-16798
▁Dec	-16799
▁수차례	-16800
▁Storm	-16801
세우스	-16802
▁얏	-16803
▁로젠	-16804
▁정관	-16805
ital	-16806
▁초계	-16807
브론	-16808
성어	-16809
니케이션	-16810
▁츠네	-16811
▁케네	-16812
▁DSP	-16813
▁멜리	-16814
덱스	-16815
▁최장	-16816
▁포구	-16817
▁껄끄럽	-16818
대왕	-16819
▁재발	-16820
▁스케이트	-16821
▁폭언	-16822
▁커뮤니케이션	-16823
▁닛산	-16824
▁광화문	-16825
▁하야테	-16826
▁아카이브	-16827
▁알프레드	-16828
▁멘토	-16829
▁하원	-16830
▁2022	-16831
레오	-16832
▁김시	-16833
▁제때	-16834
▁프란츠	-16835
▁저상버스	-16836
▁항성	-16837
▁걷어차	-16838
▁헤이세이	-16839
▁섬뜩	-16840
▁Med	-16841
▁도넛	-16842
▁|[	-16843
▁어선	-16844
▁처방	-16845
▁츳코	-16846
▁는다며	-16847
네즈	-16848
▁사이먼	-16849
ano	-16850
▁운동가	-16851
▁꼬박	-16852
▁왕성	-16853
▁명지	-16854
▁브록	-16855
▁텐트	-16856
▁Def	-16857
▁그딴	-16858
▁문관	-16859
▁절도	-16860
▁Gun	-16861
▁뇨	-16862
▁강급	-16863
▁나오미	-16864
▁켓	-16865
▁토드	-16866
▁샤르	-16867
▁손길	-16868
▁스탬	-16869
▁신승	-16870
▁머독	-16871
▁급속도	-16872
▁정찰기	-16873
▁틀림없	-16874
▁사춘	-16875
▁학파	-16876
▁여차	-16877
▁밝혀내	-16878
▁다람	-16879
▁애플리케이션	-16880
곡절	-16881
▁정몽	-16882
▁횡령	-16883
▁윤석민	-16884
ude	-16885
▁가즈	-16886
▁포식자	-16887
▁야요이	-16888
▁정착지	-16889
▁우여곡절	-16890
▁아토	-16891
▁youtu	-16892
▁착공	-16893
▁Hero	-16894
소타	-16895
▁ER	-16896
▁HR	-16897
▁Zero	-16898
경민	-16899
▁크래시	-16900
▁자릿	-16901
세요	-16902
▁산출	-16903
▁베토벤	-16904
러미	-16905
마사	-16906
▁QP	-16907
공학	-16908
노트	-16909
지우	-16910
▁아로	-16911
▁경관	-16912
UG	-16913
▁등용	-16914
▁클럭	-16915
▁Rad	-16916
▁돌변	-16917
▁데이지	-16918
▁미네소타	-16919
▁베풀	-16920
▁히다	-16921
DDR	-16922
▁시놉	-16923
▁트렌드	-16924
▁공안	-16925
▁만신	-16926
▁매료	-16927
apan	-16928
▁Warhammer	-16929
▁격변	-16930
▁라티	-16931
▁보그	-16932
▁부설	-16933
▁짜이	-16934
▁EXTRA	-16935
▁보이즈	-16936
▁송곳니	-16937
▁선샤인	-16938
▁야가미	-16939
▁거액	-16940
▁관습	-16941
▁대장간	-16942
병기	-16943
ett	-16944
▁Cal	-16945
▁390	-16946
폴트	-16947
▁은색	-16948
▁시놉시스	-16949
39	-16950
ning	-16951
▁크로스오버	-16952
▁레터	-16953
▁추격전	-16954
▁탐험가	-16955
▁롱주	-16956
▁재탕	-16957
▁시급	-16958
▁암석	-16959
ours	-16960
▁내비치	-16961
▁콴	-16962
▁붙여지	-16963
▁Ry	-16964
▁급증	-16965
조림	-16966
쩐지	-16967
▁압승	-16968
▁엄연	-16969
▁차고	-16970
▁어쩐지	-16971
▁샌드위치	-16972
▁스프레이	-16973
▁루팅	-16974
▁키시	-16975
▁툭하면	-16976
▁227	-16977
▁Ag	-16978
▁예거	-16979
▁총점	-16980
▁지저	-16981
▁보리스	-16982
▁Park	-16983
▁오거	-16984
▁경부선	-16985
▁다채	-16986
lection	-16987
ler	-16988
unt	-16989
▁태백	-16990
소연	-16991
unk	-16992
▁풀이	-16993
▁BLACK	-16994
aid	-16995
▁오정	-16996
▁주름	-16997
▁비밀리	-16998
▁Mbps	-16999
▁Sweet	-17000
BE	-17001
arm	-17002
▁만장	-17003
▁표준어	-17004
▁동맹군	-17005
▁초구	-17006
▁투영	-17007
▁백악	-17008
▁예하	-17009
레마	-17010
irect	-17011
▁사춘기	-17012
▁다나	-17013
▁합숙	-17014
▁htm	-17015
▁건대	-17016
▁냅다	-17017
▁우등	-17018
▁홍련	-17019
▁1934	-17020
une	-17021
▁웍스	-17022
리스크	-17023
▁신노스케	-17024
하늘	-17025
▁자습	-17026
▁은신처	-17027
▁교가	-17028
▁대련	-17029
▁사이다	-17030
▁나크	-17031
▁프리킥	-17032
헤치	-17033
▁가야	-17034
▁블룸	-17035
▁시부야	-17036
▁John	-17037
▁미시마	-17038
▁정보원	-17039
▁when	-17040
▁마사히로	-17041
▁분양	-17042
▁any	-17043
▁아틀란티스	-17044
▁이여	-17045
▁정명훈	-17046
▁주변인	-17047
나타	-17048
▁숙제	-17049
▁휴지	-17050
▁게으	-17051
▁우터	-17052
▁아랍어	-17053
▁노보	-17054
▁서북	-17055
▁보좌관	-17056
▁파이팅	-17057
▁위임	-17058
▁자객	-17059
▁세균	-17060
▁용납	-17061
▁샤이니	-17062
▁쇼우	-17063
▁심복	-17064
▁요가	-17065
▁최민	-17066
▁파비	-17067
▁포섭	-17068
▁연막탄	-17069
▁조슈아	-17070
▁윤영	-17071
▁몽환	-17072
▁레이브	-17073
▁뜻밖	-17074
▁반쪽	-17075
▁오현	-17076
▁양방향	-17077
방지	-17078
▁구스	-17079
▁대지진	-17080
▁Space	-17081
oj	-17082
▁사칭	-17083
▁을시	-17084
살이	-17085
▁Gal	-17086
▁떠나가	-17087
ather	-17088
ouble	-17089
▁밴쿠버	-17090
▁프리퀄	-17091
▁핍	-17092
▁멱살	-17093
▁실컷	-17094
▁겐지	-17095
▁youtube	-17096
▁리비	-17097
▁안즈	-17098
▁영수	-17099
▁난도	-17100
▁인삼	-17101
▁토치	-17102
44	-17103
▁쿠보	-17104
▁쿠퍼	-17105
▁페가수스	-17106
▁주재	-17107
▁Hel	-17108
▁홍수	-17109
▁공적	-17110
▁장민	-17111
▁연대기	-17112
▁린드	-17113
▁치요	-17114
▁노리코	-17115
▁컷인	-17116
▁구스타	-17117
▁유상	-17118
ords	-17119
▁아오키	-17120
▁햐	-17121
uct	-17122
▁쿠루미	-17123
▁낙사	-17124
▁제련	-17125
▁효용	-17126
▁에디터	-17127
▁바래	-17128
▁개머리	-17129
▁료코	-17130
▁231	-17131
▁피고인	-17132
▁계약서	-17133
▁정부군	-17134
br	-17135
▁서바이버	-17136
▁코스모스	-17137
▁깐	-17138
립스	-17139
▁수송기	-17140
▁용족	-17141
▁오라클	-17142
▁명심	-17143
▁진명	-17144
▁Feel	-17145
oe	-17146
▁교활	-17147
▁사념	-17148
▁자물	-17149
ames	-17150
▁베가스	-17151
▁거침	-17152
▁달려드	-17153
▁옅	-17154
▁흡입	-17155
▁LEVEL	-17156
▁op	-17157
▁Bu	-17158
▁고영	-17159
▁오소	-17160
▁유족	-17161
▁코타	-17162
▁관람객	-17163
▁중대장	-17164
▁타타	-17165
TER	-17166
▁올려	-17167
▁옥수수	-17168
KO	-17169
END	-17170
▁PG	-17171
▁뭉개	-17172
▁판명	-17173
▁경상도	-17174
▁짓거리	-17175
▁은근슬쩍	-17176
▁자물쇠	-17177
▁텝	-17178
▁보름	-17179
▁Je	-17180
▁두각	-17181
▁비견	-17182
▁Kim	-17183
▁극하	-17184
개골	-17185
거스	-17186
사노	-17187
▁HT	-17188
▁근방	-17189
▁웬디	-17190
▁Say	-17191
▁mAh	-17192
▁아날	-17193
▁함경	-17194
▁가르시아	-17195
▁브라우저	-17196
▁안톤	-17197
▁하가	-17198
▁코스모	-17199
▁금단	-17200
▁최준	-17201
▁불러내	-17202
▁로더	-17203
▁이부키	-17204
▁앉히	-17205
▁약품	-17206
▁출진	-17207
▁나가사키	-17208
▁방주	-17209
▁간직	-17210
▁페드로	-17211
yr	-17212
ople	-17213
▁근로자	-17214
▁즐거움	-17215
▁트리니티	-17216
▁폄	-17217
▁잭스	-17218
▁뜸	-17219
▁후진	-17220
▁오사무	-17221
▁조공	-17222
▁법령	-17223
▁다다르	-17224
▁부착물	-17225
▁손발	-17226
▁나카지마	-17227
▁대첩	-17228
▁램지	-17229
▁바카	-17230
▁투지	-17231
▁협의회	-17232
▁견고	-17233
▁햄튼	-17234
▁min	-17235
▁need	-17236
비슷	-17237
▁라몬	-17238
리아스	-17239
▁아와	-17240
▁구식	-17241
▁앙쥬	-17242
▁설립자	-17243
▁사루	-17244
▁뜯어내	-17245
▁청문회	-17246
thing	-17247
▁병합	-17248
▁소양	-17249
▁JYP	-17250
▁마쓰	-17251
▁마즈	-17252
▁일간	-17253
▁저질	-17254
▁재기	-17255
▁주점	-17256
▁Ret	-17257
▁피쉬	-17258
▁피통	-17259
▁흑발	-17260
▁지출	-17261
▁남녀공학	-17262
분투	-17263
▁막스	-17264
▁성물	-17265
▁경멸	-17266
▁벗겨지	-17267
vil	-17268
▁조련	-17269
▁크레인	-17270
▁아누	-17271
▁꼬맹이	-17272
▁레베카	-17273
▁에니	-17274
▁카나코	-17275
교도	-17276
▁도봉	-17277
자스	-17278
▁코아	-17279
부르	-17280
▁Sou	-17281
▁를르슈	-17282
▁겸임	-17283
▁골절	-17284
▁식구	-17285
▁치솟	-17286
나우	-17287
▁여제	-17288
동물	-17289
▁Dem	-17290
태격	-17291
후미	-17292
▁이서	-17293
▁조동	-17294
▁티격태격	-17295
▁비화	-17296
▁이그	-17297
▁걔	-17298
설수	-17299
▁백스	-17300
▁컬트	-17301
▁조그맣	-17302
▁모리스	-17303
▁Tour	-17304
▁명계	-17305
▁GTX	-17306
▁스타킹	-17307
▁말라	-17308
▁발열	-17309
uel	-17310
▁하강	-17311
곡리	-17312
ODE	-17313
▁변기	-17314
▁난데	-17315
▁외지	-17316
▁누비	-17317
▁버팔로	-17318
▁부포	-17319
▁후사	-17320
▁지원군	-17321
▁카로	-17322
▁평면	-17323
▁어려우	-17324
▁덴마	-17325
▁탤런트	-17326
로리	-17327
▁견습	-17328
▁지네	-17329
▁톰슨	-17330
▁규율	-17331
▁전광판	-17332
▁동남아시아	-17333
▁로밍	-17334
▁430	-17335
▁LOL	-17336
▁나이지	-17337
▁나이지리아	-17338
▁횃	-17339
뚜기	-17340
▁동률	-17341
▁똑바로	-17342
▁셔먼	-17343
▁어정	-17344
▁역마	-17345
▁Kill	-17346
▁개머리판	-17347
▁포커스	-17348
aser	-17349
▁신스	-17350
▁238	-17351
▁닳	-17352
노프	-17353
린트	-17354
▁프랑켄슈타인	-17355
▁위아래	-17356
▁노동조합	-17357
▁매튜	-17358
▁형주	-17359
▁KBL	-17360
▁라카	-17361
▁마일리	-17362
▁부대장	-17363
메이트	-17364
▁근육질	-17365
▁지중해	-17366
▁스틸러스	-17367
비야	-17368
▁껴안	-17369
▁도가	-17370
▁Orig	-17371
▁만년	-17372
▁사서	-17373
▁요요	-17374
▁초밥	-17375
▁억누르	-17376
▁포이즌	-17377
슬로	-17378
▁GC	-17379
▁끌어안	-17380
도어	-17381
▁더듬	-17382
▁뒤바뀌	-17383
▁무서워하	-17384
▁입점	-17385
▁치어리	-17386
▁짭	-17387
▁스메	-17388
▁some	-17389
▁남원	-17390
arth	-17391
▁원가	-17392
▁정근우	-17393
▁236	-17394
▁르블랑	-17395
▁드럼매니아	-17396
▁사절	-17397
▁엘사	-17398
▁서남	-17399
▁철구	-17400
제트	-17401
▁잘나	-17402
▁참치	-17403
▁포츈	-17404
▁엑스칼리버	-17405
▁타깃	-17406
▁파병	-17407
▁플리트	-17408
▁하피	-17409
▁셧	-17410
▁한인	-17411
▁격납고	-17412
▁사일런트	-17413
▁Great	-17414
ner	-17415
▁마로	-17416
▁WORLD	-17417
▁열화	-17418
▁이규	-17419
▁이북	-17420
▁치아키	-17421
▁목장	-17422
▁Beat	-17423
▁테디	-17424
고스	-17425
▁싯	-17426
▁놀러	-17427
▁매크로	-17428
▁파라오	-17429
ormal	-17430
▁뒤집어쓰	-17431
▁방아	-17432
▁인턴	-17433
▁연주자	-17434
▁265	-17435
▁미니건	-17436
▁군세	-17437
onna	-17438
▁마커스	-17439
▁뫼비우스	-17440
▁표류	-17441
▁기대감	-17442
▁장문	-17443
▁옐로우	-17444
▁아스가르드	-17445
▁원정대	-17446
팽이	-17447
▁올레	-17448
▁Story	-17449
숭아	-17450
▁방탄복	-17451
▁메커니즘	-17452
▁아브	-17453
ways	-17454
▁팔다리	-17455
▁간과	-17456
▁Luc	-17457
▁them	-17458
▁복식	-17459
UND	-17460
▁김건	-17461
▁엘라	-17462
▁일파	-17463
▁PERF	-17464
▁아디	-17465
▁경기관총	-17466
▁이라든지	-17467
▁넥스트	-17468
▁주유소	-17469
▁감찰	-17470
▁통통	-17471
▁NAS	-17472
▁본뜨	-17473
▁이리야	-17474
▁이윤열	-17475
슐리	-17476
▁다비드	-17477
▁세이프	-17478
▁위안부	-17479
▁티베트	-17480
▁원사	-17481
▁마츠다	-17482
▁상병	-17483
▁신야	-17484
▁블러디	-17485
▁앞머리	-17486
▁하르트	-17487
▁구실	-17488
▁가로지르	-17489
▁고야	-17490
▁내신	-17491
▁스트롱	-17492
37	-17493
▁노미	-17494
▁수트	-17495
▁WWF	-17496
▁3500	-17497
▁로아	-17498
iful	-17499
▁MAD	-17500
▁사이킥	-17501
▁저술	-17502
▁her	-17503
▁Tech	-17504
문화	-17505
▁루가	-17506
▁백과	-17507
▁일전	-17508
▁강민호	-17509
▁<<	-17510
▁질럿	-17511
▁항소	-17512
▁피스톨	-17513
마니	-17514
▁편찬	-17515
▁리비아	-17516
▁서슴	-17517
▁밀리터리	-17518
▁땅굴	-17519
▁바바리	-17520
▁개관	-17521
▁폭죽	-17522
배기	-17523
레스타인	-17524
입구역	-17525
주니어	-17526
▁어진	-17527
▁쿡	-17528
리역	-17529
ANG	-17530
▁Album	-17531
구멍	-17532
▁이모티콘	-17533
▁대나무	-17534
▁픽처스	-17535
ental	-17536
fl	-17537
▁선율	-17538
▁When	-17539
시간	-17540
▁시속	-17541
▁코코로	-17542
▁풀타임	-17543
▁정준하	-17544
천리	-17545
▁불굴	-17546
▁상디	-17547
▁쓸리	-17548
▁정설	-17549
▁한국식	-17550
▁판다	-17551
▁로데	-17552
▁쿠즈	-17553
▁가희	-17554
▁김장	-17555
▁조라	-17556
▁DIO	-17557
▁공평	-17558
▁막시	-17559
▁출국	-17560
▁순전히	-17561
▁한없이	-17562
▁로드리게	-17563
▁내려치	-17564
포동	-17565
▁GE	-17566
▁외화	-17567
▁족족	-17568
▁사우디	-17569
▁약사	-17570
ations	-17571
▁칼데아	-17572
▁암묵	-17573
▁즌	-17574
▁기껏해야	-17575
▁라르	-17576
▁공연장	-17577
▁케네디	-17578
▁팔아먹	-17579
▁Step	-17580
▁구기	-17581
▁마개	-17582
▁곧이어	-17583
실록	-17584
▁갈비	-17585
ene	-17586
▁위드	-17587
▁훌쩍	-17588
▁232	-17589
프스	-17590
가키	-17591
▁노어	-17592
▁볼링	-17593
▁세인	-17594
▁희한	-17595
▁돌려받	-17596
▁급감	-17597
▁실기	-17598
▁집게	-17599
▁오레	-17600
▁조부	-17601
발리	-17602
▁일괄	-17603
▁드로이드	-17604
▁샛	-17605
▁마성	-17606
▁진중	-17607
통일	-17608
▁공구	-17609
▁레티	-17610
▁물결	-17611
▁헤엄	-17612
▁곁들이	-17613
▁마레	-17614
▁맨서	-17615
▁옥스	-17616
▁의약	-17617
▁홍차	-17618
▁명하	-17619
▁숙적	-17620
▁음파	-17621
▁참수	-17622
▁테드	-17623
▁호루스	-17624
▁she	-17625
OSS	-17626
▁금세	-17627
▁조건부	-17628
▁결번	-17629
▁번쩍	-17630
▁수첩	-17631
▁심영	-17632
▁두개골	-17633
▁산산조각	-17634
▁얼른	-17635
▁행렬	-17636
예프	-17637
▁원산	-17638
▁루디	-17639
▁세리카	-17640
▁대북	-17641
▁온건	-17642
▁의병	-17643
▁힛	-17644
▁역적	-17645
▁금빛	-17646
▁언뜻	-17647
페르노	-17648
▁변속	-17649
▁재결	-17650
▁엽기	-17651
▁."	-17652
▁바빌	-17653
▁플롯	-17654
▁공격대	-17655
▁다르크	-17656
▁도맡	-17657
▁서강	-17658
▁소굴	-17659
▁전위	-17660
▁인페르노	-17661
▁넬슨	-17662
▁손대	-17663
▁푸딩	-17664
▁Death	-17665
▁최승	-17666
▁비타민	-17667
▁푸시	-17668
시즘	-17669
▁독살	-17670
ait	-17671
▁수식어	-17672
▁Champion	-17673
▁괄호	-17674
▁사학	-17675
▁수없이	-17676
▁대영	-17677
▁양현종	-17678
▁투혼	-17679
▁팔레스타인	-17680
▁안영	-17681
▁벨리	-17682
▁천자	-17683
body	-17684
▁SNK	-17685
▁1931	-17686
투사	-17687
▁총애	-17688
그래피	-17689
▁못생기	-17690
▁사이렌	-17691
사전	-17692
▁하네	-17693
▁혼잡	-17694
▁비행장	-17695
▁퍼레이드	-17696
▁찻	-17697
▁무례	-17698
▁서경	-17699
▁착안	-17700
▁맥크리	-17701
상부	-17702
▁지마	-17703
▁sec	-17704
▁외교관	-17705
▁왕정	-17706
▁육신	-17707
▁콘스탄티노	-17708
▁인기가요	-17709
뉴스	-17710
▁삼국사기	-17711
▁뮐러	-17712
로그램	-17713
▁art	-17714
▁쫒아	-17715
▁510	-17716
▁무마	-17717
▁Line	-17718
▁양육	-17719
▁승승장구	-17720
게일	-17721
틀린	-17722
IDE	-17723
▁이불	-17724
AE	-17725
▁도면	-17726
▁엘더	-17727
▁Tra	-17728
사무소	-17729
▁닷컴	-17730
▁디나	-17731
▁박원	-17732
▁카툰	-17733
스틱	-17734
▁니콜라	-17735
▁교묘	-17736
▁파커	-17737
▁리더십	-17738
▁타츠미	-17739
ume	-17740
▁토모코	-17741
도스	-17742
▁장지	-17743
▁족보	-17744
▁들어올리	-17745
▁이면	-17746
▁구가	-17747
▁다던	-17748
▁매혹	-17749
▁불륜	-17750
▁Who	-17751
▁밀짚	-17752
▁쿠토	-17753
▁조각상	-17754
빙글	-17755
▁윤지	-17756
▁이크	-17757
▁다이어	-17758
▁종로구	-17759
▁자결	-17760
▁흑색	-17761
바야시	-17762
▁LCS	-17763
▁프리티	-17764
rough	-17765
▁남서	-17766
▁래디	-17767
▁Bus	-17768
▁1700	-17769
주곡	-17770
하임	-17771
▁나즈	-17772
▁워페어	-17773
▁탈락자	-17774
▁이클	-17775
▁타사	-17776
▁스캇	-17777
▁장발	-17778
▁코라	-17779
슬라비아	-17780
▁1935	-17781
▁유고슬라비아	-17782
▁케일	-17783
욕장	-17784
▁쟤	-17785
파일	-17786
▁Apple	-17787
▁TRA	-17788
▁조성주	-17789
▁비방	-17790
▁첩자	-17791
마을	-17792
▁철자	-17793
orever	-17794
▁섬머	-17795
▁포박	-17796
▁황녀	-17797
▁XBOX	-17798
ESS	-17799
▁딱지	-17800
▁이코	-17801
▁추축	-17802
윤수	-17803
▁존기	-17804
▁신뢰도	-17805
▁꼼꼼	-17806
▁재킷	-17807
▁쾌락	-17808
▁전면전	-17809
▁클래시	-17810
▁캡쳐	-17811
▁747	-17812
▁에리스	-17813
ral	-17814
▁신진	-17815
84	-17816
▁변칙	-17817
▁지석	-17818
INAL	-17819
▁이민자	-17820
▁횃불	-17821
▁미츠키	-17822
▁대구광역시	-17823
▁댁	-17824
▁기색	-17825
▁증차	-17826
▁환율	-17827
상스	-17828
▁국지	-17829
▁나선	-17830
▁셀렉	-17831
▁자하	-17832
▁Electr	-17833
▁노우	-17834
▁추기경	-17835
▁에델	-17836
▁모로코	-17837
▁겨냥	-17838
▁괴짜	-17839
▁래더	-17840
▁러프	-17841
▁선량	-17842
▁공모전	-17843
▁이따금	-17844
▁경비대	-17845
▁다는데	-17846
▁SB	-17847
▁아오바	-17848
▁데스노트	-17849
▁about	-17850
▁RT	-17851
▁권혁	-17852
▁달랑	-17853
▁자일	-17854
ander	-17855
▁니지	-17856
▁지겹	-17857
▁감격	-17858
▁애덤	-17859
▁305	-17860
▁사고방식	-17861
▁SUPER	-17862
▁기폭	-17863
▁2400	-17864
uss	-17865
▁바퀴벌레	-17866
▁사오리	-17867
▁아이슬	-17868
▁개표	-17869
▁원안	-17870
덴티티	-17871
▁양의지	-17872
▁아이덴티티	-17873
법인	-17874
▁공전	-17875
▁노련	-17876
▁내던지	-17877
▁스트링	-17878
▁에볼루션	-17879
▁히로미	-17880
▁혈압	-17881
▁바가지	-17882
▁합격자	-17883
▁모사	-17884
▁백웅	-17885
▁640	-17886
▁이바라	-17887
▁화성시	-17888
▁짠	-17889
▁Mal	-17890
▁콜로세움	-17891
펙터	-17892
▁실물	-17893
▁아날로그	-17894
▁설날	-17895
▁왼발	-17896
▁일찍이	-17897
▁자행	-17898
▁절제	-17899
비어	-17900
▁완승	-17901
▁질책	-17902
self	-17903
▁각본가	-17904
▁코만도	-17905
▁백호	-17906
▁장화	-17907
▁삼각형	-17908
▁오클랜드	-17909
▁페널티가	-17910
▁급소	-17911
lease	-17912
▁325	-17913
▁떠넘기	-17914
▁극동	-17915
▁사벨	-17916
▁조경	-17917
▁한테서	-17918
▁채권	-17919
▁Pass	-17920
▁타케우치	-17921
▁가신	-17922
▁천왕	-17923
▁물어뜯	-17924
▁Dead	-17925
ortex	-17926
▁초음	-17927
▁디스트로	-17928
▁나니	-17929
▁발효	-17930
▁바사라	-17931
▁come	-17932
▁이클립스	-17933
▁거너	-17934
▁인계	-17935
▁장시간	-17936
▁카자흐	-17937
▁NV	-17938
▁뜯기	-17939
▁불계	-17940
▁악재	-17941
다이스	-17942
▁몰아가	-17943
▁노기자카	-17944
▁디스트로이어	-17945
31	-17946
구스	-17947
▁수만	-17948
▁연못	-17949
▁황천	-17950
▁IEM	-17951
▁Tem	-17952
▁원로원	-17953
▁EXPERT	-17954
▁된	-17955
▁고프	-17956
▁잔존	-17957
ines	-17958
▁팽팽	-17959
▁독립운동가	-17960
리언	-17961
▁야유	-17962
▁초연	-17963
▁229	-17964
▁정신기	-17965
▁파충	-17966
▁개인차	-17967
▁버크	-17968
▁무리뉴	-17969
▁지니어스	-17970
▁사업가	-17971
▁마구잡이	-17972
autiful	-17973
▁루시우	-17974
▁얌전히	-17975
▁예비역	-17976
▁타이가	-17977
▁장영	-17978
▁토머스	-17979
▁EASY	-17980
▁바운	-17981
▁완주	-17982
▁총수	-17983
▁Ant	-17984
▁NAT	-17985
▁시즈쿠	-17986
awn	-17987
▁황폐	-17988
▁전주시	-17989
▁Green	-17990
▁단도	-17991
▁1910	-17992
▁고척	-17993
▁굳건	-17994
▁무예	-17995
▁오기	-17996
▁허물	-17997
▁스펙트	-17998
▁흑기사	-17999
▁Home	-18000
▁League	-18001
▁각광	-18002
elie	-18003
▁공격진	-18004
▁각주	-18005
▁새턴	-18006
▁신룡	-18007
▁죠셉	-18008
▁코퍼	-18009
▁Lee	-18010
▁시티즌	-18011
▁아이슬란드	-18012
훈련	-18013
▁이어주	-18014
▁쏙	-18015
▁내치	-18016
▁망신	-18017
▁비어	-18018
▁어야지	-18019
▁다리우스	-18020
다주	-18021
▁동자	-18022
▁시우	-18023
▁솔루션	-18024
▁아이파크	-18025
▁큘	-18026
위원	-18027
▁EL	-18028
▁샤인	-18029
▁제각각	-18030
▁Wanna	-18031
▁비들	-18032
▁TEAM	-18033
▁이연	-18034
▁강대국	-18035
▁가온	-18036
▁인제	-18037
▁제국주의	-18038
창민	-18039
▁Tom	-18040
▁아키코	-18041
▁우즈베	-18042
▁무구	-18043
▁마천	-18044
▁앙상	-18045
▁과부하	-18046
▁검출	-18047
▁들이받	-18048
▁ma	-18049
▁복판	-18050
▁송신	-18051
▁스구	-18052
▁선호도	-18053
▁컬쳐	-18054
▁껍데기	-18055
▁주저앉	-18056
▁유괴	-18057
▁백종원	-18058
▁대물	-18059
▁북벌	-18060
▁넛	-18061
▁AAA	-18062
▁실비아	-18063
IAL	-18064
▁스쿠	-18065
▁호조	-18066
더미	-18067
바탕	-18068
▁룰렛	-18069
▁숙박	-18070
▁이하일	-18071
▁혹시나	-18072
▁갉	-18073
▁랠리	-18074
▁Del	-18075
▁1918	-18076
▁프라모델	-18077
▁간수	-18078
▁분실	-18079
▁정주	-18080
▁중심부	-18081
▁ah	-18082
▁da	-18083
▁이효	-18084
▁노을	-18085
▁미분	-18086
▁종속	-18087
▁컵스	-18088
▁에그맨	-18089
▁사토미	-18090
▁트와	-18091
▁하룻	-18092
츠미	-18093
트릭	-18094
▁당부	-18095
▁밀라노	-18096
볼트	-18097
아르	-18098
▁이산	-18099
▁추대	-18100
▁뒤떨어지	-18101
▁장진	-18102
리카와	-18103
▁심해	-18104
eter	-18105
▁건달	-18106
▁IMF	-18107
▁사이코패스	-18108
▁히키	-18109
▁GAME	-18110
▁말뚝	-18111
▁뒤섞	-18112
▁로스쿨	-18113
▁마리나	-18114
▁하루히	-18115
백호	-18116
▁눈여	-18117
ily	-18118
▁키네	-18119
▁자릿수	-18120
▁히데키	-18121
▁sw	-18122
▁박동	-18123
▁스무	-18124
▁자초	-18125
▁마니아	-18126
▁모자이크	-18127
▁강국	-18128
▁평온	-18129
▁Friend	-18130
▁토착	-18131
▁사이키	-18132
▁지도부	-18133
▁로건	-18134
▁무법자	-18135
문서	-18136
▁설교	-18137
▁허접	-18138
▁용인시	-18139
▁Cha	-18140
▁자선	-18141
▁디셉	-18142
▁돌이키	-18143
해머	-18144
▁나오토	-18145
▁시그널	-18146
▁맹렬	-18147
▁들이닥치	-18148
▁결정력	-18149
▁코쿠	-18150
▁동떨어지	-18151
마드	-18152
▁한미	-18153
보잡	-18154
▁무토	-18155
▁컨버	-18156
▁품목	-18157
▁클로이	-18158
▁기념일	-18159
▁승자전	-18160
▁알려주	-18161
▁Level	-18162
▁뎁	-18163
▁BMS	-18164
68	-18165
▁단호	-18166
▁라이저	-18167
▁그레이스	-18168
▁묵묵	-18169
▁듣보잡	-18170
▁에비	-18171
rol	-18172
ves	-18173
▁Univers	-18174
▁김상수	-18175
▁박진영	-18176
94	-18177
▁골격	-18178
▁이를	-18179
▁아라이	-18180
▁캅	-18181
▁사보	-18182
onic	-18183
▁디언	-18184
▁신영	-18185
▁코피	-18186
▁Chap	-18187
▁Pack	-18188
ISS	-18189
▁가관	-18190
▁조만	-18191
▁태반	-18192
▁Mac	-18193
테면	-18194
▁벼슬	-18195
▁재래	-18196
▁발사체	-18197
▁비틀즈	-18198
▁후타바	-18199
▁엄하	-18200
▁정신병	-18201
▁기울어지	-18202
▁스코어링	-18203
▁bit	-18204
▁나돌	-18205
▁백설	-18206
▁불곰	-18207
▁이큐	-18208
▁정액	-18209
▁이를테면	-18210
▁렬	-18211
콜로	-18212
▁발포	-18213
▁AO	-18214
▁머큐	-18215
▁영도	-18216
세이돈	-18217
ider	-18218
▁포세이돈	-18219
▁격분	-18220
▁성계	-18221
▁분대장	-18222
▁알제리	-18223
▁하오	-18224
▁돌기	-18225
▁레츠	-18226
▁타코	-18227
▁글래스	-18228
▁눈길	-18229
▁독소	-18230
▁요크	-18231
▁재계	-18232
▁레일건	-18233
▁풀어내	-18234
▁황인	-18235
▁장난치	-18236
▁마르크스	-18237
▁고군	-18238
▁라키	-18239
ouch	-18240
▁TBS	-18241
▁불량배	-18242
사관학교	-18243
▁기권	-18244
▁나자	-18245
▁조준기	-18246
bsp	-18247
▁실격	-18248
▁루시아	-18249
▁니까요	-18250
▁완력	-18251
ible	-18252
▁결선	-18253
▁핑거	-18254
▁미야코	-18255
▁hell	-18256
▁맥도날드	-18257
▁Young	-18258
▁고라	-18259
▁속출	-18260
▁제이콥	-18261
▁NXT	-18262
▁사카키	-18263
▁조종당	-18264
▁DL	-18265
▁일회	-18266
▁차차	-18267
▁765	-18268
DER	-18269
▁251	-18270
▁크리스티나	-18271
▁메기	-18272
▁마츠리	-18273
▁바그너	-18274
▁보살피	-18275
▁약탈자	-18276
▁계책	-18277
마이트	-18278
▁제이미	-18279
72	-18280
▁빈민	-18281
▁일컬	-18282
▁발랄	-18283
▁뱃지	-18284
▁오줌	-18285
▁한류	-18286
▁무궁화호	-18287
▁아이카	-18288
▁케이스케	-18289
▁이다	-18290
alent	-18291
▁에마	-18292
▁외동	-18293
▁파헤치	-18294
my	-18295
▁Japan	-18296
▁분하	-18297
▁버지	-18298
▁야미	-18299
▁잠정	-18300
에트	-18301
▁대칭	-18302
▁치세	-18303
▁스릴러	-18304
▁순발	-18305
▁노지	-18306
▁뒤엎	-18307
▁ABC	-18308
▁마음먹	-18309
▁제동	-18310
▁제아	-18311
▁스테판	-18312
▁클리프	-18313
▁빙글빙글	-18314
▁뒤돌	-18315
▁신재	-18316
도니아	-18317
▁hats	-18318
▁강북	-18319
▁반신	-18320
▁부르크	-18321
▁!!!!	-18322
벌이	-18323
▁시게루	-18324
▁괴로워하	-18325
▁마르셀	-18326
▁구축전차	-18327
▁스트레인지	-18328
▁그늘	-18329
▁nbsp	-18330
▁느와르	-18331
▁조선인	-18332
▁서주	-18333
▁유희열	-18334
구석	-18335
▁놀림	-18336
▁상수	-18337
▁신검	-18338
▁저편	-18339
▁their	-18340
▁마담	-18341
▁매뉴	-18342
▁살벌	-18343
▁굶주리	-18344
▁순발력	-18345
▁밀짚모자	-18346
▁펑펑	-18347
▁바닷가	-18348
독스	-18349
▁홍익	-18350
그럽	-18351
▁Full	-18352
ubl	-18353
▁틈타	-18354
▁클라라	-18355
▁이남	-18356
▁특혜	-18357
▁업소	-18358
▁징집	-18359
▁ATM	-18360
플러	-18361
▁전조	-18362
▁혐한	-18363
▁윅	-18364
▁펠레	-18365
ha	-18366
회전	-18367
▁개헌	-18368
▁Que	-18369
잣집	-18370
▁설리	-18371
일라잇	-18372
▁560	-18373
▁바깥쪽	-18374
▁조지아	-18375
▁트와일라잇	-18376
▁Champions	-18377
St	-18378
▁모선	-18379
▁660	-18380
▁블리치	-18381
▁셰이	-18382
▁프리랜	-18383
▁피콜로	-18384
▁안대	-18385
leep	-18386
선스	-18387
▁에지	-18388
▁리빌	-18389
▁POWER	-18390
by	-18391
▁역행	-18392
▁츠지	-18393
▁피시	-18394
icle	-18395
▁루돌프	-18396
▁리투아	-18397
▁리투아니아	-18398
트니	-18399
▁승용차	-18400
키오	-18401
▁반반	-18402
▁포제	-18403
▁잠자리	-18404
헤드	-18405
▁형법	-18406
▁시이	-18407
▁주권	-18408
▁어웨이	-18409
▁스노우볼	-18410
송이	-18411
▁기형	-18412
▁정가	-18413
▁라이선스	-18414
▁관세	-18415
▁포톤	-18416
▁황재	-18417
▁르브론	-18418
▁켈트	-18419
▁동호회	-18420
▁이타치	-18421
▁가차없이	-18422
▁서스펜션	-18423
수염	-18424
▁리디	-18425
OTH	-18426
▁아이오	-18427
▁카이바	-18428
▁동독	-18429
▁보류	-18430
▁분식	-18431
▁와라	-18432
▁조승	-18433
▁다이너마이트	-18434
제품	-18435
▁매춘	-18436
▁여군	-18437
▁ㅋㅋㅋ	-18438
press	-18439
▁버들	-18440
▁척추	-18441
▁끼얹	-18442
▁황색	-18443
ement	-18444
▁럿	-18445
▁재일	-18446
▁hatsan	-18447
▁낙동	-18448
▁스도	-18449
▁은인	-18450
▁퇴임	-18451
▁사토루	-18452
로트	-18453
▁길가	-18454
▁콩고	-18455
▁res	-18456
▁로렌스	-18457
▁왕세	-18458
▁다이애나	-18459
▁밀수	-18460
▁TSM	-18461
▁사이클론	-18462
▁긍지	-18463
▁신해	-18464
수아비	-18465
▁허수아비	-18466
툴루	-18467
▁매매	-18468
현수	-18469
▁탁구	-18470
▁상반신	-18471
▁스타더스트	-18472
▁차징	-18473
▁레이팅	-18474
▁어정쩡	-18475
▁호시노	-18476
▁가격대	-18477
▁야오	-18478
▁잔잔	-18479
▁절실	-18480
▁르네상스	-18481
▁금정	-18482
▁생소	-18483
▁희소	-18484
▁수호신	-18485
▁이광수	-18486
멘션	-18487
▁기시	-18488
▁남코	-18489
▁경제력	-18490
▁디멘션	-18491
▁브리스	-18492
▁호타루	-18493
매기	-18494
▁세속	-18495
▁티아라	-18496
▁하룻밤	-18497
gg	-18498
보스	-18499
▁레진	-18500
▁소고	-18501
IF	-18502
레이브	-18503
▁심볼	-18504
▁집어던지	-18505
▁농도	-18506
▁레인저스	-18507
▁경산	-18508
▁분출	-18509
▁칵	-18510
▁성운	-18511
태인	-18512
▁창시자	-18513
▁히브리	-18514
▁심부름	-18515
바인	-18516
삭스	-18517
▁==	-18518
▁건만	-18519
▁모조	-18520
▁상층	-18521
▁요네	-18522
▁코니	-18523
그러	-18524
▁OT	-18525
▁도살	-18526
▁발당	-18527
▁서산	-18528
▁티오	-18529
▁미우라	-18530
▁피어스	-18531
▁GA	-18532
▁웬리	-18533
▁큐라	-18534
▁일평균	-18535
펠러	-18536
▁-,	-18537
▁Ele	-18538
▁마라톤	-18539
▁아카시	-18540
▁소방서	-18541
▁반년	-18542
▁충이	-18543
▁문파	-18544
▁des	-18545
폭풍	-18546
▁도래	-18547
▁서커	-18548
▁짜장	-18549
▁로미오	-18550
▁줄리엣	-18551
▁지바	-18552
▁지브	-18553
▁237	-18554
▁아이코	-18555
▁20000	-18556
▁넷째	-18557
▁단축키	-18558
▁대항해	-18559
▁이반	-18560
▁살포	-18561
▁김광현	-18562
▁살육	-18563
▁송정	-18564
▁난징	-18565
▁로트	-18566
▁오웬	-18567
▁하운드	-18568
▁감마	-18569
▁앞부분	-18570
▁패러독스	-18571
▁박건	-18572
▁성의	-18573
▁장자	-18574
▁알고리	-18575
uj	-18576
▁송지	-18577
▁애착	-18578
라이어티	-18579
▁Shad	-18580
▁가발	-18581
▁판교	-18582
▁헤카	-18583
▁정상급	-18584
▁버라이어티	-18585
거래	-18586
▁담그	-18587
▁수기	-18588
▁호르몬	-18589
▁찬란	-18590
▁환술	-18591
▁DH	-18592
▁선단	-18593
▁노미야	-18594
▁프리랜서	-18595
▁근친	-18596
▁쿠지	-18597
▁활발히	-18598
▁노태우	-18599
▁헤드폰	-18600
▁244	-18601
▁SUV	-18602
▁유이치	-18603
▁봉투	-18604
▁빗대	-18605
▁직종	-18606
▁꽃잎	-18607
▁Mad	-18608
▁아우라	-18609
▁여운	-18610
▁NMB	-18611
▁아사미	-18612
▁ㅓ요	-18613
▁명치	-18614
▁스타터	-18615
▁덜하	-18616
▁반입	-18617
▁지원자	-18618
▁카나타	-18619
▁파라다이스	-18620
▁쳇	-18621
▁양분	-18622
▁려나	-18623
▁아르테미스	-18624
▁람보	-18625
▁일면	-18626
매김	-18627
▁그렌	-18628
▁범퇴	-18629
▁뉴비	-18630
▁망원경	-18631
▁아사쿠라	-18632
▁ㅠ	-18633
미트	-18634
▁레이서	-18635
▁펠릭스	-18636
▁라이스	-18637
▁강진	-18638
▁메사	-18639
▁정훈	-18640
카르	-18641
▁야루	-18642
▁자리매김	-18643
▁결속	-18644
▁사타	-18645
▁유투	-18646
▁추론	-18647
▁타카미	-18648
▁유린	-18649
▁주화	-18650
바위보	-18651
▁연장포	-18652
▁가위바위보	-18653
▁늄	-18654
▁발도	-18655
▁조나단	-18656
대군	-18657
▁금천	-18658
▁브금	-18659
▁MUSIC	-18660
▁제천	-18661
▁황룡	-18662
▁과거사	-18663
▁해밀턴	-18664
▁쿠사나기	-18665
▁파우스트	-18666
ground	-18667
▁발병	-18668
▁Att	-18669
▁김재환	-18670
▁약혼자	-18671
▁사나다	-18672
럴드	-18673
▁배틀로	-18674
▁콜트	-18675
▁자이로	-18676
▁Lun	-18677
▁시트콤	-18678
▁전라도	-18679
▁html	-18680
관리	-18681
▁시베리아	-18682
▁체면	-18683
▁뛰쳐나가	-18684
ori	-18685
▁속죄	-18686
▁압둘	-18687
▁264	-18688
▁아키야마	-18689
▁특례	-18690
▁덤블	-18691
▁모차	-18692
▁주리	-18693
▁목욕탕	-18694
▁알고리즘	-18695
▁미적	-18696
▁Mel	-18697
▁두루마리	-18698
▁넷플	-18699
▁향신	-18700
▁Mil	-18701
▁넷플릭스	-18702
▁배고프	-18703
▁지드	-18704
▁한문	-18705
▁008	-18706
▁내무	-18707
▁미역	-18708
▁248	-18709
▁하세가와	-18710
▁크라이시스	-18711
▁주지	-18712
▁보아	-18713
▁우왕	-18714
▁팬더	-18715
▁boy	-18716
▁센고쿠	-18717
▁떄문	-18718
▁포신	-18719
▁이재명	-18720
▁계엄	-18721
플라이	-18722
▁동성애자	-18723
▁다분	-18724
▁외무	-18725
▁한라	-18726
▁워해머	-18727
▁하야시	-18728
스코	-18729
파르	-18730
▁거하	-18731
▁!!"	-18732
총사	-18733
▁릴레이	-18734
▁스크랩	-18735
▁카미야	-18736
▁국보	-18737
▁마네	-18738
▁덤벼들	-18739
▁바이트	-18740
▁명절	-18741
▁연두	-18742
▁HKT	-18743
hn	-18744
▁1917	-18745
▁퇴직	-18746
▁호밍	-18747
▁Mer	-18748
▁베로니카	-18749
▁냉철	-18750
▁혼내	-18751
yo	-18752
▁뿅	-18753
▁통폐	-18754
▁라이브러리	-18755
볶이	-18756
▁갈망	-18757
▁크툴루	-18758
▁1933	-18759
디난	-18760
▁니티	-18761
▁워스	-18762
▁짬뽕	-18763
▁쿠우	-18764
▁곡괭이	-18765
▁매뉴얼	-18766
▁일렉트릭	-18767
▁광교	-18768
▁탐지기	-18769
▁하나같이	-18770
▁알렌	-18771
▁타도	-18772
▁동강	-18773
▁실례	-18774
▁ESP	-18775
▁도류	-18776
▁옆집	-18777
▁디바인	-18778
▁견주	-18779
▁김남	-18780
▁이시스	-18781
▁보람	-18782
네이션	-18783
▁카디널	-18784
▁서든	-18785
▁저속	-18786
▁242	-18787
▁표지판	-18788
▁크리스티안	-18789
산리	-18790
▁판넬	-18791
▁펌웨어	-18792
▁인조인간	-18793
▁커밍	-18794
▁그리워하	-18795
▁카나메	-18796
▁루니	-18797
▁불릿	-18798
▁증식	-18799
▁맹독충	-18800
가짐	-18801
서니	-18802
▁아코	-18803
▁혹독	-18804
▁더욱더	-18805
▁Ho	-18806
▁장작	-18807
▁가맹	-18808
▁노장	-18809
▁카미조	-18810
▁Games	-18811
▁관리인	-18812
▁클라크	-18813
▁왕창	-18814
▁치하	-18815
▁코드네임	-18816
▁설원	-18817
▁신탁	-18818
▁통장	-18819
▁티비	-18820
▁항마	-18821
▁There	-18822
▁카루	-18823
▁몰두	-18824
▁식용	-18825
▁아귀	-18826
▁안주	-18827
▁깨뜨리	-18828
▁쟝	-18829
▁Easy	-18830
67	-18831
▁낙양	-18832
▁전범	-18833
▁무기고	-18834
▁모모코	-18835
▁예컨대	-18836
▁포터블	-18837
▁대격	-18838
▁주둔지	-18839
우먼	-18840
▁고글	-18841
▁은둔	-18842
▁돌고래	-18843
▁마르티	-18844
▁불명예	-18845
아프	-18846
▁네기	-18847
▁유품	-18848
▁건너오	-18849
▁문경	-18850
▁앤트	-18851
▁거북이	-18852
▁Pa	-18853
ility	-18854
▁wanna	-18855
▁와드	-18856
▁난데없이	-18857
▁동아일보	-18858
▁비야	-18859
덕이	-18860
▁김우	-18861
▁작자	-18862
▁엘리시	-18863
라트	-18864
▁도키	-18865
[...]
