[PAD]	0
[UNK]	0
[BOS]	0
[EOS]	0
[CLS]	0
[SEP]	0
[MASK]	0
▁ᄋ	-0
▁ᄀ	-1
하	-2
으	-3
이	-4
다	-5
▁ᄉ	-6
▁ᄌ	-7
ᅳᆫ	-8
에	-9
의	-10
▁이	-11
는	-12
▁ᄇ	-13
로	-14
▁ᄃ	-15
ᅧᆫ	-16
서	-17
ᅳᆯ	-18
▁ᄆ	-19
ᅡᆫ	-20
ᅡᆼ	-21
ᅥᆫ	-22
ᆻ다	-23
을	-24
ᅩᆼ	-25
어	-26
리	-27
ᅧᆼ	-28
▁ᄒ	-29
지	-30
한	-31
고	-32
ᅮᆫ	-33
가	-34
▁ᄎ	-35
은	-36
시	-37
나	-38
해	-39
를	-40
여	-41
저	-42
스	-43
▁ᄑ	-44
▁1	-45
ᅮᆨ	-46
라	-47
도	-48
년	-49
기	-50
과	-51
ᅡᆯ	-52
으로	-53
되	-54
에서	-55
ᅮᆯ	-56
워	-57
ᅩᆨ	-58
자	-59
▁시	-60
인	-61
아	-62
▁ᄐ	-63
▁가	-64
▁2	-65
▁그	-66
▁지	-67
▁하	-68
▁ᄂ	-69
▁다	-70
▁사	-71
ᅳᆼ	-72
▁대	-73
사	-74
ᅩᆫ	-75
▁아	-76
ᅥᆼ	-77
▁주	-78
▁ᄏ	-79
와	-80
들	-81
부	-82
대	-83
국	-84
하여	-85
이다	-86
▁ᄄ	-87
▁기	-88
주	-89
화	-90
일	-91
르	-92
ᅵᆫ	-93
적	-94
▁거	-95
▁수	-96
었다	-97
ᅧᆨ	-98
며	-99
드	-100
트	-101
▁자	-102
ᅢᆼ	-103
장	-104
게	-105
▁있	-106
정	-107
요	-108
▁20	-109
러	-110
성	-111
▁나	-112
치	-113
▁전	-114
수	-115
월	-116
구	-117
▁마	-118
ᅥᆯ	-119
ᅧᆯ	-120
ᅣᆼ	-121
▁19	-122
전	-123
원	-124
▁있다	-125
상	-126
▁제	-127
제	-128
ᅩᆯ	-129
학	-130
▁미	-131
우	-132
▁바	-133
레	-134
그	-135
ᅢᆨ	-136
▁일	-137
▁한	-138
▁유	-139
동	-140
▁정	-141
면	-142
터	-143
▁중	-144
회	-145
니	-146
만	-147
했다	-148
마	-149
▁위	-150
하는	-151
▁것	-152
용	-153
▁과	-154
교	-155
▁어	-156
▁모	-157
▁인	-158
▁공	-159
▁경	-160
버	-161
▁부	-162
▁되	-163
▁화	-164
된	-165
▁조	-166
선	-167
▁보	-168
명	-169
세	-170
래	-171
ᅯᆫ	-172
계	-173
하고	-174
비	-175
▁해	-176
문	-177
위	-178
▁서	-179
▁고	-180
▁등	-181
타	-182
하였다	-183
미	-184
ᆻ으	-185
유	-186
▁오	-187
야	-188
▁3	-189
려	-190
신	-191
데	-192
▁비	-193
산	-194
민	-195
▁세	-196
군	-197
진	-198
역	-199
▁동	-200
▁선	-201
소	-202
루	-203
▁연	-204
▁구	-205
▁영	-206
▁저	-207
▁의	-208
보	-209
조	-210
▁소	-211
ᆻ고	-212
▁발	-213
거	-214
공	-215
▁스	-216
ᆷ을	-217
▁201	-218
▁개	-219
에는	-220
한다	-221
되었다	-222
▁차	-223
▁여	-224
▁도	-225
바	-226
간	-227
식	-228
체	-229
▁국	-230
오	-231
차	-232
되어	-233
ᅳᆨ	-234
▁상	-235
크	-236
카	-237
재	-238
단	-239
ᅦ이	-240
▁후	-241
티	-242
관	-243
당	-244
던	-245
작	-246
키	-247
할	-248
후	-249
음	-250
▁200	-251
개	-252
▁때	-253
▁노	-254
행	-255
▁관	-256
▁성	-257
▁프	-258
호	-259
▁신	-260
무	-261
프	-262
까	-263
▁대한	-264
▁있는	-265
▁4	-266
운	-267
물	-268
내	-269
안	-270
부터	-271
록	-272
경	-273
본	-274
ᆻ으며	-275
▁에	-276
류	-277
토	-278
력	-279
▁방	-280
▁와	-281
분	-282
▁무	-283
히	-284
▁"	-285
업	-286
연	-287
▁5	-288
방	-289
▁우	-290
▁내	-291
반	-292
지만	-293
▁역	-294
속	-295
▁또	-296
▁만	-297
피	-298
▁않	-299
져	-300
▁장	-301
디	-302
▁통	-303
른	-304
▁남	-305
양	-306
까지	-307
▁현	-308
▁교	-309
▁요	-310
▁같	-311
생	-312
▁포	-313
에게	-314
▁문	-315
▁출	-316
모	-317
▁추	-318
▁피	-319
▁결	-320
포	-321
ᅥᆷ	-322
적인	-323
립	-324
중	-325
통	-326
▁리	-327
적으로	-328
법	-329
노	-330
▁진	-331
▁불	-332
▁최	-333
▁원	-334
종	-335
영	-336
국의	-337
표	-338
이라	-339
▁배	-340
코	-341
▁생	-342
▁작	-343
ᆯ리	-344
즈	-345
▁알	-346
테	-347
▁파	-348
란	-349
학교	-350
파	-351
▁강	-352
▁당	-353
형	-354
▁6	-355
▁따	-356
ᆷ이	-357
▁ᄊ	-358
▁처	-359
▁반	-360
▁ᄁ	-361
▁예	-362
▁야	-363
▁10	-364
▁로	-365
발	-366
격	-367
▁두	-368
▁계	-369
▁타	-370
각	-371
▁분	-372
▁받	-373
년에	-374
두	-375
▁사용	-376
들이	-377
합	-378
▁말	-379
면서	-380
▁없	-381
푸	-382
들은	-383
ᆻ던	-384
▁단	-385
▁명	-386
▁실	-387
▁'	-388
직	-389
린	-390
권	-391
▁7	-392
하기	-393
에서는	-394
▁이후	-395
▁함	-396
하게	-397
▁버	-398
▁8	-399
▁안	-400
▁재	-401
령	-402
▁매	-403
등	-404
▁더	-405
승	-406
▁한다	-407
실	-408
랑	-409
▁설	-410
네	-411
▁일본	-412
▁카	-413
ᆷ은	-414
설	-415
족	-416
태	-417
ᆷ의	-418
▁라	-419
▁호	-420
천	-421
▁특	-422
았다	-423
▁데	-424
현	-425
베	-426
▁초	-427
▁치	-428
였다	-429
ᅳᆷ	-430
▁군	-431
료	-432
▁종	-433
쪽	-434
론	-435
▁독	-436
00	-437
녀	-438
▁9	-439
▁199	-440
건	-441
브	-442
▁그는	-443
초	-444
ᆷ으로	-445
▁많	-446
석	-447
출	-448
▁그리	-449
▁감	-450
▁회	-451
▁활	-452
▁대한민	-453
▁베	-454
매	-455
스트	-456
술	-457
▁김	-458
▁태	-459
▁애	-460
판	-461
▁다음	-462
▁되었다	-463
▁및	-464
리아	-465
독	-466
▁코	-467
임	-468
메	-469
▁건	-470
▁입	-471
약	-472
투	-473
▁다른	-474
▁그러	-475
▁지역	-476
처	-477
는데	-478
▁운	-479
더	-480
▁형	-481
▁음	-482
된다	-483
▁레	-484
▁같은	-485
번	-486
질	-487
난	-488
향	-489
남	-490
▁양	-491
▁산	-492
▁18	-493
▁올	-494
ᆻ으나	-495
주의	-496
or	-497
▁위해	-498
▁평	-499
▁참	-500
▁미국	-501
▁12	-502
입	-503
능	-504
▁이르	-505
▁프로	-506
▁사라	-507
▁크	-508
청	-509
급	-510
▁행	-511
▁학	-512
▁적	-513
▁열	-514
▁된	-515
들의	-516
이며	-517
울	-518
▁있어	-519
▁왕	-520
강	-521
▁본	-522
▁시작	-523
께	-524
▁북	-525
▁메	-526
송	-527
▁외	-528
▁승	-529
▁때문	-530
량	-531
▁번	-532
들을	-533
배	-534
▁목	-535
준	-536
▁총	-537
기도	-538
▁새	-539
ᆫ드	-540
라는	-541
▁드	-542
으며	-543
든	-544
언	-545
▁따라	-546
함	-547
▁또한	-548
▁함께	-549
▁각	-550
하며	-551
▁들	-552
▁변	-553
항	-554
▁S	-555
련	-556
▁ᄈ	-557
쟁	-558
병	-559
▁표	-560
편	-561
▁11	-562
▁임	-563
페	-564
▁속	-565
la	-566
결	-567
혀	-568
▁물	-569
째	-570
시아	-571
▁히	-572
▁자신	-573
라고	-574
망	-575
악	-576
ᆻ지만	-577
▁경우	-578
▁민	-579
왕	-580
쿠	-581
목	-582
▁직	-583
▁약	-584
▁선수	-585
케	-586
▁영화	-587
▁간	-588
▁현재	-589
▁토	-590
커	-591
너	-592
▁그의	-593
별	-594
하지	-595
▁f	-596
▁뒤	-597
▁세계	-598
레이	-599
복	-600
▁집	-601
기에	-602
추	-603
▁A	-604
▁체	-605
▁198	-606
▁한국	-607
▁사이	-608
쳐	-609
▁기록	-610
겨	-611
▁가장	-612
하다	-613
규	-614
집	-615
▁위치	-616
점	-617
▁당시	-618
▁존	-619
▁항	-620
이나	-621
▁하나	-622
기를	-623
림	-624
▁티	-625
션	-626
▁테	-627
런	-628
에도	-629
절	-630
▁때문에	-631
ᆻ는데	-632
스의	-633
()	-634
금	-635
▁것을	-636
색	-637
▁확	-638
▁박	-639
되는	-640
▁그러나	-641
▁국가	-642
달	-643
▁F	-644
츠	-645
▁디	-646
스는	-647
▁M	-648
견	-649
머	-650
▁for	-651
mu	-652
▁C	-653
곡	-654
환	-655
▁브	-656
▁되어	-657
▁것으로	-658
▁조선	-659
▁청	-660
광	-661
▁했다	-662
▁투	-663
근	-664
▁축	-665
▁있으며	-666
황	-667
mula	-668
일에	-669
▁복	-670
▁formula	-671
▁있었다	-672
▁의해	-673
온	-674
▁것이	-675
▁천	-676
외	-677
육	-678
▁광	-679
이라고	-680
심	-681
지는	-682
▁캐	-683
예	-684
어나	-685
▁채	-686
리는	-687
북	-688
▁된다	-689
▁활동	-690
▁또는	-691
럽	-692
▁패	-693
▁못	-694
이어	-695
▁통해	-696
▁페	-697
▁법	-698
▁합	-699
즌	-700
▁그리고	-701
▁삼	-702
▁달	-703
졌다	-704
▁프랑	-705
▁워	-706
▁증	-707
▁철	-708
▁T	-709
글	-710
씨	-711
▁창	-712
▁판	-713
▁15	-714
▁근	-715
등학교	-716
▁대한민국	-717
▁편	-718
▁언	-719
▁금	-720
탈	-721
▁살	-722
▁첫	-723
▁많은	-724
▁점	-725
▁트	-726
▁들어	-727
▁197	-728
습	-729
리를	-730
▁아니	-731
평	-732
▁뜨	-733
랜드	-734
되고	-735
▁플	-736
▁것이다	-737
것	-738
▁돌	-739
▁만들	-740
▁충	-741
▁16	-742
축	-743
▁황	-744
▁경기	-745
▁다음과	-746
퍼	-747
▁네	-748
▁필	-749
탄	-750
이라는	-751
▁높	-752
▁쓰	-753
하면서	-754
▁루	-755
하였고	-756
열	-757
▁심	-758
사를	-759
했고	-760
▁하는	-761
품	-762
찰	-763
▁가지	-764
ᆯ레	-765
는다	-766
▁은	-767
▁서울	-768
▁완	-769
극	-770
살	-771
▁다시	-772
▁규	-773
▁여러	-774
▁대해	-775
▁백	-776
▁뜻	-777
철	-778
▁포함	-779
례	-780
험	-781
애	-782
▁17	-783
▁끄	-784
▁196	-785
켜	-786
대로	-787
락	-788
상을	-789
▁사람	-790
▁병	-791
er	-792
▁머	-793
▁사회	-794
ᆯ을	-795
로서	-796
▁시즌	-797
존	-798
앙	-799
개의	-800
▁연구	-801
이는	-802
▁클	-803
▁푸	-804
▁용	-805
▁할	-806
▁순	-807
20	-808
▁K	-809
▁큰	-810
▁독일	-811
웨	-812
▁키	-813
▁이러	-814
▁B	-815
▁죽	-816
이었다	-817
▁게이	-818
in	-819
▁대한민국의	-820
이고	-821
▁모두	-822
▁권	-823
▁알려	-824
▁D	-825
장을	-826
보다	-827
▁하였다	-828
▁I	-829
성을	-830
위를	-831
▁모든	-832
받	-833
백	-834
라이	-835
지를	-836
ᆷ에	-837
▁중국	-838
▁194	-839
▁혀	-840
회의	-841
▁취	-842
▁아이	-843
변	-844
▁일부	-845
ᆨ을	-846
▁친	-847
슬	-848
▁헤	-849
▁처음	-850
니아	-851
리에	-852
봉	-853
칭	-854
▁축구	-855
자가	-856
증	-857
널	-858
▁전쟁	-859
창	-860
▁감독	-861
▁정부	-862
▁이루	-863
▁도시	-864
불	-865
▁등이	-866
대의	-867
날	-868
어진	-869
픽	-870
▁제작	-871
▁-	-872
책	-873
▁위한	-874
▁너	-875
ᆻ을	-876
순	-877
▁대표	-878
▁허	-879
▁배우	-880
년부터	-881
▁14	-882
박	-883
▁식	-884
▁러	-885
▁받아	-886
▁정치	-887
▁뉴	-888
▁등의	-889
lt	-890
도의	-891
틀	-892
ᆯ로	-893
시키	-894
▁이용	-895
패	-896
▁손	-897
▁새로	-898
▁겨	-899
도로	-900
▁존재	-901
▁영국	-902
년에는	-903
▁구성	-904
▁자신의	-905
▁끝	-906
gt	-907
▁리그	-908
력을	-909
부분	-910
▁이상	-911
시에	-912
택	-913
플	-914
범	-915
턴	-916
거나	-917
쓰	-918
▁P	-919
슨	-920
▁논	-921
▁일반	-922
▁월	-923
▁동안	-924
on	-925
▁프랑스	-926
막	-927
때	-928
km	-929
▁하여	-930
▁13	-931
▁문제	-932
▁즉	-933
나라	-934
▁것은	-935
▁온	-936
▁환	-937
▁195	-938
▁개발	-939
▁나타	-940
이자	-941
▁맡	-942
기의	-943
층	-944
▁L	-945
▁가능	-946
▁국제	-947
▁앞	-948
럼	-949
▁&	-950
▁인구	-951
▁같다	-952
▁니	-953
그래	-954
징	-955
▁미국의	-956
▁준	-957
▁이어	-958
▁이러한	-959
년대	-960
▁접	-961
클	-962
슈	-963
통령	-964
▁맞	-965
ᆯ이	-966
착	-967
▁발견	-968
기는	-969
로는	-970
했으며	-971
▁주장	-972
▁곳	-973
▁갖	-974
▁협	-975
기가	-976
▁향	-977
군의	-978
▁이는	-979
▁발표	-980
▁사건	-981
▁농	-982
위원	-983
감	-984
접	-985
▁등을	-986
들과	-987
서는	-988
▁커	-989
사가	-990
▁별	-991
도록	-992
ᆯ라	-993
▁U	-994
ᅩᆯ리	-995
000	-996
▁하지만	-997
▁ᄍ	-998
스테	-999
▁방송	-1000
자의	-1001
하면	-1002
누	-1003
혼	-1004
스를	-1005
▁귀	-1006
▁G	-1007
▁대회	-1008
활	-1009
▁잘	-1010
▁대부분	-1011
▁전투	-1012
▁2010	-1013
▁N	-1014
써	-1015
리카	-1016
로부터	-1017
an	-1018
킨	-1019
월에	-1020
▁번째	-1021
리가	-1022
블	-1023
▁폭	-1024
▁육	-1025
▁문화	-1026
▁사망	-1027
▁음악	-1028
▁영향	-1029
▁지방	-1030
림픽	-1031
리그	-1032
▁이를	-1033
되었고	-1034
응	-1035
▁대통령	-1036
정을	-1037
친	-1038
▁밝	-1039
▁홍	-1040
획	-1041
에서도	-1042
▁공격	-1043
▁대학	-1044
센	-1045
▁볼	-1046
▁우승	-1047
년까지	-1048
측	-1049
란드	-1050
▁없다	-1051
득	-1052
ᆨ스	-1053
손	-1054
▁하고	-1055
명의	-1056
-1	-1057
성이	-1058
▁193	-1059
하였으며	-1060
▁의미	-1061
자는	-1062
인의	-1063
▁R	-1064
▁게	-1065
름	-1066
▁걸	-1067
▁참여	-1068
ᆼ글	-1069
▁30	-1070
협	-1071
▁효	-1072
자를	-1073
▁H	-1074
▁발생	-1075
ᅳ로	-1076
▁석	-1077
▁진행	-1078
▁최초	-1079
말	-1080
시켜	-1081
들에게	-1082
▁얻	-1083
▁극	-1084
벌	-1085
세기	-1086
▁관련	-1087
▁역사	-1088
도를	-1089
▁프로그래	-1090
▁결과	-1091
▁슈	-1092
▁E	-1093
▁특히	-1094
쪽으로	-1095
▁관계	-1096
컵	-1097
▁블	-1098
▁줄	-1099
리즈	-1100
스가	-1101
▁곡	-1102
▁웨	-1103
▁면	-1104
▁유럽	-1105
▁이에	-1106
디오	-1107
▁위치한	-1108
▁설치	-1109
닌	-1110
▁설립	-1111
스터	-1112
와의	-1113
▁경제	-1114
▁자유	-1115
▁담	-1116
▁다양	-1117
돼	-1118
▁발매	-1119
자로	-1120
▁선거	-1121
▁책	-1122
▁절	-1123
총	-1124
▁봉	-1125
▁갈	-1126
▁올림픽	-1127
희	-1128
▁글	-1129
▁막	-1130
대를	-1131
▁2008	-1132
렸다	-1133
▁그녀	-1134
먼	-1135
▁러시아	-1136
리의	-1137
▁이전	-1138
▁독립	-1139
▁폐	-1140
▁새로운	-1141
▁밀	-1142
▁암	-1143
▁형태	-1144
▁[	-1145
어져	-1146
리스	-1147
ᆻ기	-1148
▁인해	-1149
요한	-1150
찬	-1151
▁시간	-1152
퇴	-1153
되었으며	-1154
▁검	-1155
▁부분	-1156
▁소속	-1157
▁측	-1158
▁받았다	-1159
뷔	-1160
가지	-1161
▁같이	-1162
원을	-1163
▁며	-1164
도는	-1165
▁라이	-1166
▁참가	-1167
▁생각	-1168
▁좋	-1169
▁교육	-1170
▁사실	-1171
▁앨	-1172
덕	-1173
en	-1174
번째	-1175
▁2011	-1176
▁중앙	-1177
느	-1178
▁엔	-1179
▁기술	-1180
▁2012	-1181
균	-1182
식을	-1183
될	-1184
▁이탈	-1185
사의	-1186
▁범	-1187
화국	-1188
했던	-1189
▁이것	-1190
▁주로	-1191
므로	-1192
▁출신	-1193
▁누	-1194
▁로마	-1195
▁2007	-1196
과의	-1197
최	-1198
맹	-1199
▁2009	-1200
엔	-1201
▁있고	-1202
드는	-1203
▁터	-1204
▁날	-1205
인이	-1206
▁수도	-1207
▁않아	-1208
▁보내	-1209
▁송	-1210
▁음반	-1211
랴	-1212
헌	-1213
▁질	-1214
▁골	-1215
▁2014	-1216
▁결정	-1217
▁구조	-1218
▁탄	-1219
부의	-1220
▁잡	-1221
▁탈	-1222
▁등장	-1223
▁계속	-1224
사는	-1225
전을	-1226
▁운영	-1227
대학교	-1228
▁데뷔	-1229
▁W	-1230
▁벌	-1231
프트	-1232
라마	-1233
념	-1234
돌	-1235
▁기준	-1236
학자	-1237
▁상태	-1238
특	-1239
객	-1240
ar	-1241
▁어ᄄ	-1242
▁성공	-1243
he	-1244
▁매우	-1245
▁,	-1246
르크	-1247
▁쿠	-1248
▁난	-1249
비아	-1250
룹	-1251
명을	-1252
귀	-1253
▁혼	-1254
▁지정	-1255
렌	-1256
▁있던	-1257
▁2013	-1258
▁않았다	-1259
▁타이	-1260
기로	-1261
▁아버	-1262
▁가지고	-1263
▁따르	-1264
▁몇	-1265
▁고려	-1266
▁이탈리아	-1267
▁생산	-1268
도가	-1269
스타	-1270
▁넘	-1271
대에	-1272
▁0	-1273
▁25	-1274
헤	-1275
장이	-1276
▁돌아	-1277
▁운동	-1278
▁태어나	-1279
▁급	-1280
▁아들	-1281
▁191	-1282
▁데이	-1283
▁아니라	-1284
▁일본의	-1285
▁차지	-1286
▁찾	-1287
하기도	-1288
▁악	-1289
▁윤	-1290
랜	-1291
▁게임	-1292
▁아래	-1293
늘	-1294
링	-1295
,000	-1296
▁2018	-1297
▁이유	-1298
▁지내	-1299
억	-1300
풍	-1301
▁여성	-1302
ᆯ은	-1303
▁2015	-1304
▁해당	-1305
담	-1306
▁케	-1307
▁바ᄁ	-1308
우스	-1309
처럼	-1310
▁100	-1311
▁2016	-1312
ᆺ한	-1313
군은	-1314
▁스페	-1315
에서의	-1316
올	-1317
▁최고	-1318
es	-1319
되지	-1320
ᆫ다	-1321
▁싸	-1322
▁희	-1323
ᅦ이션	-1324
▁흐	-1325
▁떠	-1326
해서	-1327
▁없는	-1328
▁결국	-1329
▁조직	-1330
▁출연	-1331
▁팔	-1332
FA	-1333
명이	-1334
권을	-1335
람	-1336
▁업	-1337
장으로	-1338
▁침	-1339
▁한편	-1340
▁전체	-1341
▁길	-1342
어난	-1343
혁	-1344
사로	-1345
▁떨	-1346
▁스타	-1347
▁2006	-1348
▁주요	-1349
수를	-1350
운데	-1351
하자	-1352
스크	-1353
지의	-1354
갈	-1355
화를	-1356
르는	-1357
▁행정	-1358
▁지원	-1359
▁않고	-1360
▁좌	-1361
수의	-1362
▁192	-1363
일부터	-1364
▁올라	-1365
원의	-1366
간의	-1367
이트	-1368
압	-1369
스와	-1370
필	-1371
▁많이	-1372
암	-1373
▁제공	-1374
쥐	-1375
남도	-1376
▁남아	-1377
▁방법	-1378
▁21	-1379
ᆻ는	-1380
초등학교	-1381
▁2017	-1382
▁둘	-1383
인민	-1384
장은	-1385
▁다양한	-1386
휘	-1387
▁이ᄁ	-1388
▁콘	-1389
▁내용	-1390
흐	-1391
칸	-1392
▁섬	-1393
▁대학교	-1394
흥	-1395
충	-1396
선의	-1397
at	-1398
▁유명	-1399
▁국민	-1400
▁꼬	-1401
▁O	-1402
지가	-1403
▁느	-1404
곳	-1405
▁역할	-1406
▁빠	-1407
_1	-1408
밀	-1409
▁월드	-1410
지에	-1411
허	-1412
▁묘	-1413
▁가운데	-1414
ᅩᆯ로	-1415
▁칼	-1416
인다	-1417
스로	-1418
am	-1419
틴	-1420
음을	-1421
▁알려져	-1422
효	-1423
▁J	-1424
▁인터	-1425
골	-1426
자인	-1427
다가	-1428
트로	-1429
채	-1430
팀	-1431
▁헌	-1432
대학	-1433
▁출전	-1434
▁마이	-1435
부에	-1436
▁거의	-1437
▁보여	-1438
어로	-1439
▁후보	-1440
ᆯ러	-1441
▁밝혀	-1442
▁만들어	-1443
▁중시	-1444
▁쇼	-1445
으로서	-1446
▁컴	-1447
괴	-1448
시의	-1449
수가	-1450
가는	-1451
릭	-1452
잡	-1453
대표	-1454
▁t	-1455
al	-1456
▁수상	-1457
▁드라마	-1458
빈	-1459
원이	-1460
▁각각	-1461
▁않는다	-1462
▁열린	-1463
하던	-1464
▁모습	-1465
▁표현	-1466
▁마지	-1467
전에	-1468
략	-1469
성의	-1470
ᆸ게	-1471
머니	-1472
끼	-1473
▁연결	-1474
▁얼	-1475
▁24	-1476
위원회	-1477
▁따르면	-1478
▁2019	-1479
▁공식	-1480
촌	-1481
민주	-1482
진다	-1483
원은	-1484
확	-1485
좌	-1486
점을	-1487
운동	-1488
▁뛰	-1489
사에	-1490
▁휴	-1491
▁영향을	-1492
뉴	-1493
력이	-1494
▁시리즈	-1495
▁졸	-1496
▁격	-1497
하려	-1498
▁작품	-1499
▁이름을	-1500
▁비로	-1501
▁높은	-1502
▁과정	-1503
제로	-1504
▁바이	-1505
▁필요	-1506
▁이미	-1507
▁능	-1508
▁정보	-1509
▁따라서	-1510
였던	-1511
▁진출	-1512
▁2005	-1513
▁임명	-1514
▁시스테	-1515
▁붙	-1516
ic	-1517
▁작은	-1518
▁마지막	-1519
▁잠	-1520
▁팀	-1521
어를	-1522
▁경상	-1523
▁일어나	-1524
니다	-1525
▁23	-1526
새	-1527
궁	-1528
▁공개	-1529
21	-1530
▁녹	-1531
익	-1532
제를	-1533
▁직접	-1534
▁인정	-1535
▁보고	-1536
문화	-1537
BS	-1538
▁지구	-1539
륙	-1540
▁인도	-1541
▁개최	-1542
치는	-1543
▁이야	-1544
▁2000	-1545
▁퍼	-1546
▁샤	-1547
욕	-1548
▁대전	-1549
▁가리	-1550
ᇂ게	-1551
▁자연	-1552
상의	-1553
왔다	-1554
▁22	-1555
인은	-1556
▁폴	-1557
군이	-1558
▁프리	-1559
▁레이	-1560
있다	-1561
▁추가	-1562
▁항공	-1563
▁기능	-1564
▁민주	-1565
▁대신	-1566
▁풍	-1567
▁달리	-1568
대한	-1569
▁2004	-1570
▁브라	-1571
렉	-1572
▁평가	-1573
대가	-1574
지고	-1575
해야	-1576
▁울	-1577
▁오스트	-1578
리고	-1579
▁유지	-1580
어는	-1581
▁활약	-1582
▁그룹	-1583
▁계획	-1584
비전	-1585
팅	-1586
▁정의	-1587
침	-1588
▁않은	-1589
▁아르	-1590
옥	-1591
원으로	-1592
굴	-1593
▁눈	-1594
했지만	-1595
냐	-1596
▁상황	-1597
▁그리스	-1598
대는	-1599
위에	-1600
수는	-1601
수로	-1602
훈	-1603
인을	-1604
is	-1605
선을	-1606
▁그가	-1607
▁졸업	-1608
▁핵	-1609
it	-1610
▁거쳐	-1611
▁작푸	-1612
▁FC	-1613
▁제국	-1614
▁되는	-1615
상으로	-1616
들에	-1617
르트	-1618
▁노래	-1619
▁정도	-1620
북도	-1621
긴	-1622
▁모데	-1623
▁여자	-1624
▁후에	-1625
었고	-1626
▁관한	-1627
▁건물	-1628
지로	-1629
▁센	-1630
칙	-1631
▁세워	-1632
▁있는데	-1633
▁몰	-1634
▁발전	-1635
부를	-1636
▁압	-1637
완	-1638
다는	-1639
▁시절	-1640
부는	-1641
식으로	-1642
re	-1643
전에서	-1644
▁응	-1645
▁서로	-1646
▁결혼	-1647
톤	-1648
세의	-1649
인민공	-1650
▁말한다	-1651
▁부산	-1652
나는	-1653
10	-1654
탕	-1655
▁그것	-1656
▁중요한	-1657
▁변경	-1658
▁크게	-1659
▁학교	-1660
쿄	-1661
▁28	-1662
ou	-1663
▁중심	-1664
일까지	-1665
▁190	-1666
▁26	-1667
길	-1668
계를	-1669
업을	-1670
▁베이	-1671
▁이론	-1672
▁역시	-1673
▁건설	-1674
▁철도	-1675
▁홈	-1676
▁낮	-1677
죄	-1678
▁V	-1679
▁공동	-1680
▁형성	-1681
▁뜻은	-1682
엄	-1683
▁어려	-1684
문을	-1685
▁2020	-1686
으로부터	-1687
프리카	-1688
치를	-1689
▁먹	-1690
삼	-1691
▁인물	-1692
몬	-1693
▁분류	-1694
▁나라	-1695
셔	-1696
염	-1697
▁관리	-1698
전히	-1699
▁뿐	-1700
샤	-1701
▁27	-1702
숙	-1703
▁플레이	-1704
▁일으	-1705
볼	-1706
주는	-1707
제가	-1708
▁비스	-1709
광역	-1710
▁기업	-1711
▁텔레	-1712
욱	-1713
▁군사	-1714
▁요구	-1715
▁중화	-1716
▁딸	-1717
됐다	-1718
스탄	-1719
▁연합	-1720
장의	-1721
▁시작했다	-1722
]]	-1723
▁경기도	-1724
되면서	-1725
▁목록	-1726
십	-1727
회를	-1728
춘	-1729
군을	-1730
싱	-1731
트는	-1732
덴	-1733
▁실시	-1734
상이	-1735
▁색	-1736
le	-1737
▁현대	-1738
른다	-1739
이가	-1740
▁원래	-1741
제의	-1742
▁반대	-1743
특별	-1744
▁쉬	-1745
▁기원	-1746
▁놓	-1747
▁만든	-1748
▁사이에	-1749
▁노동	-1750
성은	-1751
▁가진	-1752
▁싱글	-1753
척	-1754
▁[[	-1755
▁않는	-1756
▁시대	-1757
ᆷ으로써	-1758
드로	-1759
키는	-1760
▁혹	-1761
▁그래	-1762
▁비판	-1763
▁2002	-1764
▁지도	-1765
율	-1766
▁야구	-1767
▁동시에	-1768
▁기본	-1769
취	-1770
▁긴	-1771
▁전통	-1772
나다	-1773
▁어떤	-1774
▁맥	-1775
과는	-1776
어가	-1777
▁계약	-1778
▁학생	-1779
▁지역의	-1780
▁사랑	-1781
넷	-1782
퓨	-1783
랙	-1784
났다	-1785
▁역할을	-1786
▁가까	-1787
률	-1788
관은	-1789
하였으나	-1790
ᅥᆯ리	-1791
자와	-1792
▁상대	-1793
오는	-1794
엘	-1795
▁2003	-1796
장에	-1797
벽	-1798
▁민족	-1799
스에	-1800
▁자동	-1801
렬	-1802
▁개인	-1803
▁아닌	-1804
▁판매	-1805
▁서비	-1806
▁빈	-1807
▁나타내	-1808
▁빌	-1809
▁여기	-1810
▁기타	-1811
액	-1812
▁승강	-1813
트를	-1814
▁밴드	-1815
▁특징	-1816
되며	-1817
하는데	-1818
▁기간	-1819
▁메이	-1820
했으나	-1821
운드	-1822
▁소련	-1823
▁기반	-1824
▁있으	-1825
정한	-1826
이드	-1827
▁망	-1828
▁위하여	-1829
19	-1830
단의	-1831
군에	-1832
▁있다고	-1833
명은	-1834
▁최초의	-1835
ᆷ피	-1836
체의	-1837
▁기준으로	-1838
▁처음으로	-1839
▁운행	-1840
▁수행	-1841
카이	-1842
▁~	-1843
서를	-1844
▁전국	-1845
소를	-1846
▁초기	-1847
▁도쿄	-1848
▁퇴	-1849
▁이동	-1850
▁프로그램	-1851
▁지하	-1852
트의	-1853
▁50	-1854
명이다	-1855
▁인간	-1856
▁견	-1857
▁공간	-1858
▁혁	-1859
▁교황	-1860
▁짜	-1861
르게	-1862
구의	-1863
스티	-1864
▁29	-1865
장에서	-1866
▁전문	-1867
▁종교	-1868
▁전라	-1869
."	-1870
▁보통	-1871
▁특별	-1872
호를	-1873
스코	-1874
▁도입	-1875
시마	-1876
트리	-1877
▁나가	-1878
▁개의	-1879
▁이적	-1880
ᆷ버	-1881
가와	-1882
튜	-1883
▁슬	-1884
▁이때	-1885
▁지나	-1886
▁의한	-1887
▁엄	-1888
벤	-1889
털	-1890
▁정책	-1891
물을	-1892
▁애니	-1893
▁궁	-1894
▁31	-1895
▁명칭	-1896
▁월드컵	-1897
맥	-1898
▁넓	-1899
호는	-1900
이었던	-1901
▁있을	-1902
역이다	-1903
격을	-1904
▁제외	-1905
▁기존	-1906
▁훈	-1907
체를	-1908
▁마을	-1909
독교	-1910
없	-1911
50	-1912
▁탑	-1913
▁옮	-1914
회는	-1915
폭	-1916
▁이끌	-1917
▁텔레비전	-1918
▁출시	-1919
▁영화이다	-1920
컬	-1921
▁과학	-1922
호로	-1923
▁이름	-1924
무를	-1925
▁역임	-1926
고등학교	-1927
시켰다	-1928
캐	-1929
으로는	-1930
▁하며	-1931
▁다이	-1932
베이	-1933
연구	-1934
세는	-1935
▁휘	-1936
▁경기에서	-1937
탁	-1938
▁어머니	-1939
▁일반적으로	-1940
텐	-1941
▁꾸	-1942
도에	-1943
중에	-1944
ᆺ이	-1945
관을	-1946
▁국내	-1947
▁보이	-1948
핀	-1949
▁바로	-1950
▁공연	-1951
적을	-1952
▁연방	-1953
BC	-1954
▁c	-1955
▁유일	-1956
▁경찰	-1957
▁되고	-1958
크로	-1959
▁될	-1960
▁지배	-1961
묘	-1962
▁없어	-1963
▁나ᄂ	-1964
▁탐	-1965
광역시	-1966
▁나이	-1967
사와	-1968
▁모양	-1969
▁아버지	-1970
리로	-1971
▁사업	-1972
▁태양	-1973
▁과거	-1974
벨	-1975
▁배우이다	-1976
화가	-1977
ᆺ을	-1978
마다	-1979
▁소설	-1980
룬	-1981
릴	-1982
▁뮤	-1983
뢰	-1984
동안	-1985
st	-1986
▁몸	-1987
▁혹은	-1988
▁증가	-1989
▁컴퓨	-1990
알	-1991
▁옥	-1992
닝	-1993
위로	-1994
▁지휘	-1995
둥	-1996
어의	-1997
방송	-1998
킨다	-1999
▁FI	-2000
하지만	-2001
▁겸	-2002
▁주변	-2003
▁중심으로	-2004
▁비교	-2005
읍	-2006
시간	-2007
▁앨범	-2008
리와	-2009
ᆨ시	-2010
▁.	-2011
▁있다는	-2012
▁추정	-2013
▁산업	-2014
제는	-2015
학과	-2016
딩	-2017
있는	-2018
▁국가대표	-2019
상은	-2020
▁받은	-2021
폰	-2022
년의	-2023
▁가수	-2024
▁이것은	-2025
▁그를	-2026
▁흔	-2027
▁기관	-2028
이기도	-2029
.5	-2030
▁건축	-2031
▁뉴욕	-2032
▁확인	-2033
▁캐나다	-2034
움	-2035
쪽에	-2036
▁1990	-2037
▁부르	-2038
▁동일	-2039
▁찾아	-2040
ᆷ피언	-2041
▁풀	-2042
▁피해	-2043
이의	-2044
▁2001	-2045
▁작곡	-2046
인으로	-2047
▁규모	-2048
▁기독교	-2049
룡	-2050
▁환경	-2051
이를	-2052
임을	-2053
정에	-2054
▁가족	-2055
-2	-2056
▁들어가	-2057
▁먼	-2058
체가	-2059
▁통합	-2060
리오	-2061
▁적용	-2062
▁클럽	-2063
mm	-2064
▁숙	-2065
폐	-2066
부가	-2067
단을	-2068
▁행동	-2069
▁분야	-2070
야마	-2071
▁착	-2072
▁선정	-2073
당의	-2074
▁지지	-2075
적이	-2076
드의	-2077
▁설명	-2078
릉	-2079
▁밖	-2080
▁곧	-2081
겼다	-2082
기와	-2083
▁낙	-2084
조의	-2085
드리	-2086
▁받고	-2087
▁오래	-2088
류의	-2089
▁때문이다	-2090
▁없이	-2091
▁충청	-2092
적은	-2093
인민공화국	-2094
▁최대	-2095
▁189	-2096
혜	-2097
듬	-2098
▁담당	-2099
하거나	-2100
▁획	-2101
▁노선	-2102
쇼	-2103
▁40	-2104
▁염	-2105
린다	-2106
종의	-2107
▁자기	-2108
▁챔피언	-2109
▁속하는	-2110
▁차량	-2111
▁컴퓨터	-2112
▁사고	-2113
메이션	-2114
▁대부분의	-2115
경기	-2116
▁방향	-2117
단은	-2118
▁우주	-2119
▁되었고	-2120
▁오늘	-2121
▁갑	-2122
.1	-2123
▁태어났다	-2124
▁는	-2125
▁실패	-2126
원에	-2127
▁활동을	-2128
▁보호	-2129
꼬	-2130
▁지정되었다	-2131
▁바다	-2132
스에서	-2133
스카	-2134
▁자신이	-2135
30	-2136
▁어느	-2137
▁어린	-2138
나무	-2139
▁방영	-2140
▁내려	-2141
기관	-2142
드를	-2143
▁TV	-2144
맨	-2145
▁두고	-2146
▁몽	-2147
▁열차	-2148
콘	-2149
▁스페인	-2150
쳤다	-2151
▁이상의	-2152
▁이런	-2153
성과	-2154
식은	-2155
▁대체	-2156
▁불러	-2157
윤	-2158
▁이루어	-2159
et	-2160
학적	-2161
▁데이터	-2162
▁있지만	-2163
▁이와	-2164
튼	-2165
▁상당	-2166
▁조지	-2167
▁득	-2168
▁/	-2169
▁기념	-2170
el	-2171
얼	-2172
덜	-2173
▁늘	-2174
했다고	-2175
▁FIFA	-2176
▁그녀는	-2177
메리카	-2178
ᆼ글랜드	-2179
▁기원전	-2180
치가	-2181
▁수록	-2182
▁1,	-2183
계의	-2184
성에	-2185
▁흑	-2186
ion	-2187
자들은	-2188
의를	-2189
일을	-2190
▁인구는	-2191
랭	-2192
▁선출	-2193
▁걸쳐	-2194
▁윈	-2195
움을	-2196
면에	-2197
켓	-2198
호선	-2199
식의	-2200
▁씨	-2201
▁써	-2202
멘	-2203
콜	-2204
세가	-2205
리지	-2206
중학교	-2207
▁연주	-2208
▁넣	-2209
쇄	-2210
▁위원	-2211
▁언어	-2212
교육	-2213
동에	-2214
일에는	-2215
▁멤버	-2216
프로	-2217
참	-2218
▁런	-2219
▁부족	-2220
▁도로	-2221
ing	-2222
▁보인다	-2223
▁인천	-2224
▁잔	-2225
▁최근	-2226
▁서울특별	-2227
▁:	-2228
▁수는	-2229
▁옛	-2230
▁등에	-2231
▁최종	-2232
▁대하여	-2233
▁애니메이션	-2234
▁예정	-2235
▁없었다	-2236
했는데	-2237
▁마르	-2238
▁괴	-2239
▁있었던	-2240
▁선택	-2241
식이	-2242
▁땅	-2243
ᆸ을	-2244
▁있게	-2245
포츠	-2246
▁대구	-2247
▁작가	-2248
스키	-2249
▁하다	-2250
▁1999	-2251
▁더욱	-2252
▁있어서	-2253
▁하나이다	-2254
역을	-2255
▁칸	-2256
학을	-2257
▁공산	-2258
▁불가	-2259
세를	-2260
▁자리	-2261
▁생활	-2262
짜	-2263
▁최초로	-2264
ol	-2265
▁이름은	-2266
▁자료	-2267
▁결승	-2268
구에	-2269
▁1998	-2270
▁언급	-2271
심을	-2272
▁등으로	-2273
상에	-2274
om	-2275
▁동물	-2276
바이	-2277
▁국립	-2278
▁잉글랜드	-2279
인이다	-2280
소가	-2281
▁아시아	-2282
스턴	-2283
듀	-2284
▁유니	-2285
▁크리스	-2286
▁사람이	-2287
▁조사	-2288
▁평균	-2289
▁크로	-2290
▁시민	-2291
▁효과	-2292
시는	-2293
홍	-2294
▁선언	-2295
큐	-2296
▁조건	-2297
▁살아	-2298
▁변화	-2299
회에서	-2300
▁에이	-2301
▁반응	-2302
▁맺	-2303
▁칭	-2304
한다는	-2305
▁획득	-2306
▁구간	-2307
▁1980	-2308
시키는	-2309
▁지역에	-2310
법을	-2311
나이	-2312
▁가져	-2313
전은	-2314
ᆻ다고	-2315
▁에너	-2316
▁관할	-2317
점이	-2318
정은	-2319
amp	-2320
12	-2321
젝	-2322
▁지속	-2323
명으로	-2324
▁우리	-2325
▁명령	-2326
▁만나	-2327
▁루이	-2328
▁것이라고	-2329
쉬	-2330
▁예를	-2331
▁유사	-2332
자들이	-2333
소는	-2334
구를	-2335
▁좋은	-2336
▁연속	-2337
페이	-2338
▁북한	-2339
▁흥	-2340
▁그들의	-2341
▁X	-2342
▁점령	-2343
하도록	-2344
▁표준	-2345
▁m	-2346
▁물리	-2347
▁거주	-2348
개월	-2349
▁이름으로	-2350
덜란드	-2351
▁을	-2352
구하고	-2353
▁전기	-2354
▁정당	-2355
▁바뀌	-2356
▁선발	-2357
▁이들은	-2358
지와	-2359
섯	-2360
▁입단	-2361
체는	-2362
▁예술	-2363
▁전에	-2364
학의	-2365
▁컨	-2366
비를	-2367
▁국회의	-2368
▁덴	-2369
정이	-2370
▁이해	-2371
▁정규	-2372
함으로써	-2373
농	-2374
정부	-2375
일랜드	-2376
▁고대	-2377
진을	-2378
▁개봉	-2379
▁출판	-2380
만이	-2381
힌	-2382
.0	-2383
모토	-2384
씩	-2385
▁아라	-2386
▁잃	-2387
▁소유	-2388
스토	-2389
▁선수이다	-2390
뮤	-2391
▁드러	-2392
만을	-2393
년간	-2394
▁명의	-2395
▁페르	-2396
레일	-2397
▁케이	-2398
▁베트	-2399
▁목표	-2400
잔	-2401
▁왜	-2402
과에	-2403
시대	-2404
▁팬	-2405
관이	-2406
둔	-2407
▁이유로	-2408
▁움	-2409
▁포르	-2410
라도	-2411
▁영국의	-2412
▁징	-2413
▁돈	-2414
신을	-2415
▁네덜란드	-2416
콩	-2417
원에서	-2418
▁교통	-2419
▁쌍	-2420
▁1997	-2421
선거	-2422
▁사무	-2423
▁세포	-2424
▁전자	-2425
▁소비	-2426
검	-2427
▁콜	-2428
▁o	-2429
탑	-2430
지방	-2431
거리	-2432
회가	-2433
가의	-2434
단이	-2435
▁서울특별시	-2436
▁밝혔다	-2437
소의	-2438
.2	-2439
▁대중	-2440
▁모습을	-2441
▁사상	-2442
▁후반	-2443
▁하이	-2444
▁맡았다	-2445
60	-2446
베르	-2447
▁시설	-2448
전의	-2449
▁조약	-2450
▁여겨	-2451
▁Y	-2452
아의	-2453
▁액	-2454
▁현재는	-2455
▁웹	-2456
▁주민	-2457
▁덕	-2458
단에	-2459
▁강화	-2460
지역	-2461
▁1996	-2462
▁사이의	-2463
▁분석	-2464
▁제한	-2465
했을	-2466
킹	-2467
지에서	-2468
▁구분	-2469
찌	-2470
인데	-2471
▁비해	-2472
▁남자	-2473
▁사용하는	-2474
▁깊	-2475
cm	-2476
▁은퇴	-2477
▁말했다	-2478
▁하계	-2479
▁1995	-2480
▁알려진	-2481
헨	-2482
칼	-2483
▁분리	-2484
▁불구하고	-2485
쪽으로는	-2486
▁하나의	-2487
▁포함한	-2488
ᆷ과	-2489
▁육군	-2490
▁거두	-2491
▁길이	-2492
▁이사	-2493
▁아프리카	-2494
▁오늘날	-2495
금을	-2496
되기	-2497
ac	-2498
메달	-2499
▁승리	-2500
정의	-2501
▁돼	-2502
밍	-2503
직을	-2504
르고	-2505
회에	-2506
부로	-2507
▁설계	-2508
▁핀	-2509
▁소프트	-2510
▁프레	-2511
트가	-2512
들로	-2513
▁헌법	-2514
전이	-2515
▁믿	-2516
장과	-2517
골을	-2518
▁정확	-2519
민주주의	-2520
▁폴란드	-2521
▁찬	-2522
▁이곳	-2523
톨리	-2524
구는	-2525
-0	-2526
ᆯ린	-2527
▁공화국	-2528
▁기여	-2529
젠	-2530
버스	-2531
▁모델	-2532
자리	-2533
▁아직	-2534
▁끌	-2535
부르크	-2536
형을	-2537
월에는	-2538
_2	-2539
줄	-2540
▁이듬	-2541
▁통과	-2542
▁마음	-2543
당은	-2544
▁실제	-2545
▁가문	-2546
▁부여	-2547
▁공립	-2548
월부터	-2549
▁쓴	-2550
▁널리	-2551
▁스위	-2552
▁프로젝	-2553
치고	-2554
▁하지	-2555
▁하나로	-2556
▁결합	-2557
▁방문	-2558
빌	-2559
팔	-2560
▁치료	-2561
지지	-2562
산을	-2563
▁그들은	-2564
▁앨버	-2565
▁어떠	-2566
▁광주	-2567
하이	-2568
▁깨	-2569
융	-2570
▁지상	-2571
▁요시	-2572
▁작업	-2573
▁비행	-2574
다고	-2575
▁런던	-2576
ᆺ은	-2577
▁래	-2578
▁유래	-2579
▁이듬해	-2580
▁단체	-2581
11	-2582
40	-2583
▁언론	-2584
계에	-2585
▁앤	-2586
배우	-2587
사카	-2588
케이	-2589
▁꽃	-2590
경을	-2591
▁것에	-2592
▁the	-2593
▁공항	-2594
폴	-2595
혈	-2596
▁제안	-2597
▁제조	-2598
▁벨	-2599
▁그런	-2600
▁UE	-2601
▁주의	-2602
ᅱᆫ	-2603
▁우승을	-2604
▁알렉	-2605
우는	-2606
ᆭ은	-2607
▁맡아	-2608
▁중에	-2609
▁수준	-2610
ᆰ은	-2611
▁완전히	-2612
르의	-2613
▁필리	-2614
주를	-2615
▁위에	-2616
나가	-2617
구가	-2618
웅	-2619
▁불리	-2620
▁차례	-2621
▁아마	-2622
TV	-2623
▁고등학교	-2624
▁자주	-2625
몽	-2626
▁UEFA	-2627
▁물질	-2628
인과	-2629
▁188	-2630
de	-2631
싸	-2632
관으로	-2633
▁1994	-2634
▁맨	-2635
▁의하여	-2636
▁때까지	-2637
▁프랑스의	-2638
▁못했다	-2639
사에서	-2640
▁펼	-2641
받아	-2642
▁발달	-2643
하의	-2644
▁현재의	-2645
텔	-2646
▁인터넷	-2647
▁1970	-2648
루스	-2649
위가	-2650
▁성장	-2651
혹	-2652
아가	-2653
▁등과	-2654
▁독일의	-2655
▁이로	-2656
il	-2657
▁배치	-2658
▁요청	-2659
▁슈퍼	-2660
선에	-2661
▁제주	-2662
▁스포츠	-2663
▁움직	-2664
라의	-2665
들도	-2666
▁일어난	-2667
가를	-2668
▁중요	-2669
로의	-2670
국은	-2671
▁멸	-2672
▁나온	-2673
▁주연	-2674
15	-2675
▁나머	-2676
톨릭	-2677
▁엘리	-2678
▁외국	-2679
▁스코	-2680
▁선수로	-2681
▁지난	-2682
로를	-2683
▁전해	-2684
곤	-2685
▁바탕	-2686
위는	-2687
▁정도로	-2688
ᆨ터	-2689
▁마찬	-2690
▁있도록	-2691
선은	-2692
풀	-2693
선이	-2694
도와	-2695
ᅯᆯ	-2696
▁지금	-2697
▁마찬가지	-2698
카와	-2699
▁식민	-2700
▁비롯한	-2701
조는	-2702
▁감독의	-2703
▁정신	-2704
드가	-2705
위의	-2706
▁갖고	-2707
▁KBS	-2708
▁몬	-2709
▁확장	-2710
▁나뉘	-2711
▁접근	-2712
▁영토	-2713
▁유전	-2714
활을	-2715
▁파괴	-2716
▁록	-2717
as	-2718
▁힘	-2719
ro	-2720
▁통일	-2721
뜨	-2722
▁1992	-2723
▁윌리	-2724
문에	-2725
멸	-2726
▁아시	-2727
옹	-2728
▁빛	-2729
ᆸ은	-2730
불어	-2731
▁나오	-2732
▁km	-2733
▁경쟁	-2734
▁오스트리아	-2735
▁자치	-2736
▁서식	-2737
▁노르	-2738
▁강원	-2739
트라	-2740
▁p	-2741
▁달러	-2742
▁엘	-2743
▁사람들이	-2744
웨이	-2745
동을	-2746
▁스스로	-2747
▁연기	-2748
▁불교	-2749
▁브라질	-2750
러스	-2751
▁오른	-2752
▁혈	-2753
▁이들	-2754
부에서	-2755
▁추진	-2756
▁플래	-2757
▁선수권	-2758
▁더불어	-2759
▁소재	-2760
▁유명한	-2761
주에	-2762
받았다	-2763
이란	-2764
디어	-2765
▁짧	-2766
물의	-2767
▁스웨	-2768
규모	-2769
화국의	-2770
▁복귀	-2771
시를	-2772
어서	-2773
▁촉	-2774
논	-2775
한다고	-2776
▁of	-2777
▁수용	-2778
▁과정에서	-2779
▁초등학교	-2780
▁가르	-2781
시즌	-2782
일의	-2783
▁앙	-2784
메이	-2785
▁삼성	-2786
▁60	-2787
철도	-2788
▁논란	-2789
되었으나	-2790
웨어	-2791
▁수마	-2792
▁주인	-2793
력은	-2794
▁잇	-2795
ᆻ었다	-2796
▁이루어져	-2797
▁개혁	-2798
▁아우	-2799
▁b	-2800
ig	-2801
▁나무	-2802
지게	-2803
되기도	-2804
▁그대로	-2805
▁습	-2806
크의	-2807
군과	-2808
18	-2809
ve	-2810
▁s	-2811
국이	-2812
레일리아	-2813
▁술	-2814
▁폐지	-2815
▁경우가	-2816
▁보다	-2817
▁개녀	-2818
▁아카	-2819
뷰	-2820
▁패배	-2821
▁해석	-2822
라인	-2823
▁제국의	-2824
습니다	-2825
▁작용	-2826
▁특정	-2827
레스	-2828
▁바라	-2829
▁떠나	-2830
▁1960	-2831
이지만	-2832
▁목적으로	-2833
행을	-2834
칠	-2835
▁기초	-2836
▁많다	-2837
▁회사	-2838
었으며	-2839
ᆨ시코	-2840
▁실험	-2841
▁1991	-2842
▁초대	-2843
▁강력	-2844
소년	-2845
▁구성되어	-2846
▁제작된	-2847
기술	-2848
형의	-2849
센터	-2850
놓	-2851
속도로	-2852
▁근처	-2853
▁페이	-2854
▁에서	-2855
▁기록했다	-2856
▁스웨덴	-2857
종이다	-2858
부와	-2859
하라	-2860
▁이외	-2861
▁디자인	-2862
량이	-2863
▁십	-2864
으면	-2865
▁미국에서	-2866
▁알고	-2867
▁1993	-2868
▁그린	-2869
▁해결	-2870
▁스티	-2871
고를	-2872
없이	-2873
▁집합	-2874
주로	-2875
▁그녀의	-2876
▁이름이	-2877
16	-2878
▁단순	-2879
트워	-2880
갑	-2881
▁익	-2882
▁것이었다	-2883
▁먼저	-2884
▁제시	-2885
▁관측	-2886
▁가능하다	-2887
▁지역에서	-2888
프는	-2889
▁자동차	-2890
크는	-2891
니는	-2892
자이다	-2893
디아	-2894
▁비롯	-2895
▁존재한다	-2896
릭터	-2897
▁찌	-2898
뿐	-2899
▁가톨릭	-2900
▁결성	-2901
▁생성	-2902
▁나타나	-2903
▁친구	-2904
▁불리는	-2905
지션	-2906
ᇀ은	-2907
▁다카	-2908
▁70	-2909
▁라디오	-2910
▁외교	-2911
감을	-2912
▁상호	-2913
셰	-2914
자에	-2915
▁해안	-2916
▁베트남	-2917
▁있으나	-2918
▁일제	-2919
▁다르	-2920
▁반란	-2921
▁도착	-2922
▁지진	-2923
점으로	-2924
▁않다	-2925
13	-2926
▁수많은	-2927
하였는데	-2928
▁지냈다	-2929
▁조선민주주의	-2930
▁부정	-2931
▁비슷한	-2932
▁여기서	-2933
어진다	-2934
▁싱	-2935
성으로	-2936
왕의	-2937
하다가	-2938
▁무려	-2939
▁꺼	-2940
▁시스템	-2941
▁분포	-2942
▁바꾸	-2943
수한	-2944
▁거부	-2945
ᅪᆯ	-2946
▁궤	-2947
▁겪	-2948
▁파견	-2949
▁오스트레일리아	-2950
▁엔진	-2951
▁사용한다	-2952
▁팀의	-2953
▁이주	-2954
▁디지	-2955
간다	-2956
수이다	-2957
▁투표	-2958
▁다만	-2959
▁상대로	-2960
▁윈도	-2961
▁임시	-2962
▁좋아	-2963
▁캐릭터	-2964
▁연극	-2965
인트	-2966
▁경영	-2967
▁치러	-2968
▁야마	-2969
▁때는	-2970
▁아무	-2971
량을	-2972
▁의하면	-2973
▁조각	-2974
▁이야기	-2975
했다는	-2976
▁주도	-2977
▁옮겨	-2978
ᆱ은	-2979
펜	-2980
▁황제	-2981
▁동맹	-2982
화의	-2983
덤	-2984
▁영어	-2985
아시아	-2986
▁만에	-2987
▁아일랜드	-2988
ed	-2989
▁스튜	-2990
▁의미한다	-2991
촉	-2992
▁카를	-2993
",	-2994
하기로	-2995
어졌다	-2996
만의	-2997
▁공작	-2998
▁마찬가지로	-2999
▁훈련	-3000
▁시도	-3001
트에서	-3002
▁것과	-3003
▁벤	-3004
▁시행	-3005
▁지그	-3006
▁중간	-3007
▁통치	-3008
▁지역을	-3009
년을	-3010
▁1988	-3011
대와	-3012
함을	-3013
14	-3014
▁오브	-3015
▁바르	-3016
▁히로	-3017
과학	-3018
▁뇌	-3019
▁곤	-3020
70	-3021
섬	-3022
80	-3023
▁근거	-3024
평양	-3025
홀	-3026
▁상징	-3027
▁형태로	-3028
험을	-3029
큼	-3030
▁발행	-3031
▁센터	-3032
정보	-3033
▁의원	-3034
▁흡	-3035
▁놀	-3036
▁지하철	-3037
몇	-3038
▁교회	-3039
▁캠	-3040
▁하루	-3041
조를	-3042
▁빅	-3043
▁사용된다	-3044
▁대표적인	-3045
▁한국의	-3046
시가	-3047
▁성립	-3048
▁시작하였다	-3049
▁붕	-3050
관의	-3051
폴리	-3052
▁대응	-3053
사업	-3054
▁경험	-3055
▁처리	-3056
ᅪᆯ영	-3057
▁미사	-3058
▁이르러	-3059
인들이	-3060
▁북쪽	-3061
▁활용	-3062
화된	-3063
역은	-3064
▁나서	-3065
▁재판	-3066
▁끝에	-3067
교회	-3068
▁품	-3069
▁방어	-3070
▁르	-3071
▁벽	-3072
▁중단	-3073
▁빼	-3074
▁남쪽	-3075
▁멕시코	-3076
▁준비	-3077
▁몇몇	-3078
▁보유	-3079
▁등록	-3080
▁중에서	-3081
난다	-3082
일은	-3083
▁체포	-3084
▁이스	-3085
▁사용할	-3086
▁일을	-3087
▁The	-3088
_3	-3089
▁따른	-3090
▁회의	-3091
▁유로	-3092
크라	-3093
▁이렇게	-3094
▁셰	-3095
▁문학	-3096
NA	-3097
▁승강장	-3098
▁비디오	-3099
▁윌리엄	-3100
▁대해서	-3101
▁파리	-3102
▁관련된	-3103
▁귀족	-3104
연합	-3105
소에	-3106
량은	-3107
▁있었고	-3108
▁이집	-3109
델	-3110
돈	-3111
테이	-3112
▁여객	-3113
주시	-3114
가로	-3115
▁다루	-3116
▁체결	-3117
면을	-3118
▁있기	-3119
us	-3120
▁가정	-3121
▁아내	-3122
뇌	-3123
▁를	-3124
▁규정	-3125
▁시기	-3126
▁알렉산	-3127
▁위해서	-3128
치로	-3129
휴	-3130
.3	-3131
▁80	-3132
▁디지털	-3133
▁사진	-3134
od	-3135
▁1989	-3136
핵	-3137
▁나누	-3138
▁타이틀	-3139
▁번역	-3140
오카	-3141
딘	-3142
물이	-3143
앤	-3144
▁남부	-3145
▁개통	-3146
▁안정	-3147
컨	-3148
▁느끼	-3149
▁파이	-3150
▁묘사	-3151
붕	-3152
▁동생	-3153
▁직후	-3154
핑	-3155
▁삶	-3156
나의	-3157
티아	-3158
▁부른다	-3159
안을	-3160
선에서	-3161
▁가리킨다	-3162
수에	-3163
치의	-3164
▁출생	-3165
ch	-3166
▁당선	-3167
갔다	-3168
룩	-3169
▁내각	-3170
▁혁명	-3171
밖	-3172
▁적이	-3173
▁나머지	-3174
김	-3175
▁정부는	-3176
▁2021	-3177
단으로	-3178
▁홍콩	-3179
▁값	-3180
',	-3181
▁계열	-3182
▁금지	-3183
▁살해	-3184
and	-3185
임스	-3186
▁로스	-3187
회사	-3188
▁서비스	-3189
▁둔	-3190
▁제기	-3191
미터	-3192
▁류	-3193
▁보존	-3194
▁가능한	-3195
▁종합	-3196
▁얼마	-3197
비는	-3198
ᆻ어	-3199
워드	-3200
공항	-3201
▁있지	-3202
▁지적	-3203
▁포르투	-3204
▁표시	-3205
국을	-3206
▁곳에	-3207
나라의	-3208
▁그렇	-3209
사회	-3210
가이다	-3211
▁베르	-3212
▁1950	-3213
냈다	-3214
▁달성	-3215
▁떨어진	-3216
▁이슬	-3217
섭	-3218
닉	-3219
▁계승	-3220
▁억	-3221
작용	-3222
▁일으켜	-3223
소로	-3224
계가	-3225
해졌다	-3226
▁중국의	-3227
력의	-3228
니스	-3229
▁스토	-3230
▁종료	-3231
이기	-3232
▁간의	-3233
▁펜	-3234
▁해외	-3235
▁즉위	-3236
당이	-3237
17	-3238
▁폰	-3239
▁유대	-3240
▁발사	-3241
▁완성	-3242
▁촬영	-3243
걸	-3244
▁유일한	-3245
▁조성	-3246
▁대사	-3247
산의	-3248
ent	-3249
▁아키	-3250
▁못한	-3251
러운	-3252
학생	-3253
▁주인공	-3254
▁종류	-3255
하에	-3256
서로	-3257
▁년	-3258
▁밑	-3259
▁낳	-3260
사이	-3261
▁나와	-3262
▁밤	-3263
▁교수	-3264
권의	-3265
▁본래	-3266
와는	-3267
▁경상남도	-3268
역으로	-3269
주교	-3270
냥	-3271
두고	-3272
-3	-3273
▁1945	-3274
조가	-3275
▁대해서는	-3276
자들의	-3277
▁강한	-3278
되자	-3279
븐	-3280
피아	-3281
▁소개	-3282
트에	-3283
론을	-3284
▁합류	-3285
▁승격	-3286
▁후쿠	-3287
▁근무	-3288
▁경상북도	-3289
라스	-3290
▁하게	-3291
일러	-3292
관리	-3293
▁취임	-3294
력으로	-3295
▁수비	-3296
▁뮤직	-3297
시로	-3298
▁사이에서	-3299
▁쌓	-3300
인지	-3301
▁인근	-3302
▁완전	-3303
▁경기를	-3304
▁낮은	-3305
▁싶	-3306
▁못하고	-3307
▁안에	-3308
당을	-3309
붙	-3310
▁굴	-3311
▁홀	-3312
▁전달	-3313
▁동쪽	-3314
문화재	-3315
계는	-3316
세에	-3317
▁중의	-3318
▁인민	-3319
▁전환	-3320
▁천황	-3321
▁의견	-3322
▁이래	-3323
▁참여하였다	-3324
버트	-3325
▁관광	-3326
▁32	-3327
▁코미	-3328
시키고	-3329
▁사망하였다	-3330
▁안전	-3331
ad	-3332
즈의	-3333
▁주목	-3334
빙	-3335
▁지명	-3336
▁만들었다	-3337
▁그려	-3338
▁186	-3339
▁데이비	-3340
▁베네	-3341
관에	-3342
품을	-3343
▁죄	-3344
▁정치적	-3345
따	-3346
▁필요한	-3347
▁네트워	-3348
▁관계를	-3349
종이	-3350
▁보여주	-3351
되었던	-3352
▁종목	-3353
▁물론	-3354
▁위험	-3355
요일	-3356
▁왔다	-3357
▁제거	-3358
.4	-3359
▁둘러	-3360
산으로	-3361
픈	-3362
▁대륙	-3363
▁보수	-3364
뤄	-3365
▁법률	-3366
▁반면	-3367
▁문제를	-3368
미널	-3369
▁문제가	-3370
▁남북	-3371
▁것도	-3372
비가	-3373
▁해군	-3374
▁표기	-3375
▁미술	-3376
▁위치해	-3377
메달을	-3378
▁평화	-3379
▁주는	-3380
▁빨	-3381
▁위치하고	-3382
▁왼	-3383
▁포지션	-3384
ot	-3385
상과	-3386
셜	-3387
▁명예	-3388
였고	-3389
월까지	-3390
▁사용하여	-3391
량의	-3392
승을	-3393
▁오후	-3394
겐	-3395
▁각종	-3396
▁이용하여	-3397
전으로	-3398
▁MBC	-3399
▁즐	-3400
▁가까운	-3401
롱	-3402
엽	-3403
▁부모	-3404
인들은	-3405
였으며	-3406
▁위의	-3407
▁d	-3408
▁벗	-3409
려고	-3410
▁오르	-3411
▁오사카	-3412
신의	-3413
▁친일	-3414
▁카운	-3415
▁통하여	-3416
분을	-3417
프가	-3418
석을	-3419
준다	-3420
▁수가	-3421
▁듣	-3422
과를	-3423
원과	-3424
un	-3425
▁마이크로	-3426
화는	-3427
시킨	-3428
ow	-3429
▁경우에는	-3430
▁건너	-3431
로가	-3432
▁가입	-3433
▁주었다	-3434
ᅥᆼ가	-3435
25	-3436
▁최고의	-3437
그룹	-3438
주가	-3439
▁만들어진	-3440
ᆺ포	-3441
▁말을	-3442
▁뒤에	-3443
▁가스	-3444
체로	-3445
적으로는	-3446
테인	-3447
대회	-3448
▁인식	-3449
▁생물	-3450
▁상업	-3451
▁집중	-3452
▁최소	-3453
파의	-3454
▁기록을	-3455
br	-3456
▁187	-3457
▁녹음	-3458
▁전투에서	-3459
전쟁	-3460
▁블루	-3461
▁공급	-3462
▁제도	-3463
▁출신의	-3464
▁납	-3465
▁시험	-3466
▁에드	-3467
지도	-3468
분에	-3469
▁북부	-3470
가가	-3471
년대에	-3472
▁끼	-3473
▁신라	-3474
▁스트	-3475
▁강조	-3476
▁기후	-3477
▁옆	-3478
48	-3479
은행	-3480
ct	-3481
문이	-3482
▁전시	-3483
▁만약	-3484
고로	-3485
▁너무	-3486
2,	-3487
▁그해	-3488
권이	-3489
▁마리아	-3490
▁실제로	-3491
▁서쪽	-3492
▁문서	-3493
▁구조를	-3494
▁까	-3495
만에	-3496
ᆯ리포	-3497
▁아니다	-3498
로로	-3499
▁올랐다	-3500
▁되었으며	-3501
슨은	-3502
▁레코	-3503
▁기존의	-3504
동차	-3505
▁바탕으로	-3506
▁맹	-3507
드와	-3508
꽃	-3509
점에서	-3510
세이	-3511
▁던	-3512
▁대회에서	-3513
몰	-3514
▁미래	-3515
▁갖추	-3516
▁제목	-3517
▁사람은	-3518
해를	-3519
▁마련	-3520
▁영화배우	-3521
라우	-3522
▁인한	-3523
▁프로듀	-3524
▁연장	-3525
산은	-3526
▁떨어져	-3527
상에서	-3528
▁가는	-3529
숭	-3530
년과	-3531
짓	-3532
▁인디	-3533
▁35	-3534
▁실행	-3535
ᆻ다는	-3536
▁국가대표팀	-3537
▁읽	-3538
어와	-3539
▁저항	-3540
어들	-3541
▁윈도우	-3542
▁1987	-3543
▁여전히	-3544
▁사실을	-3545
▁정리	-3546
▁a	-3547
▁정식	-3548
▁혜	-3549
▁=	-3550
호가	-3551
▁국회의원	-3552
.6	-3553
적이고	-3554
▁배경	-3555
▁작성	-3556
▁높이	-3557
▁성격	-3558
▁재직	-3559
해져	-3560
▁감소	-3561
▁허용	-3562
ur	-3563
럴	-3564
▁이후에	-3565
▁전반	-3566
▁사회주의	-3567
기업	-3568
▁정착	-3569
민족	-3570
시오	-3571
질을	-3572
▁기능을	-3573
▁일반적인	-3574
계에서	-3575
▁내부	-3576
▁전라남도	-3577
끄	-3578
뤼	-3579
▁정부의	-3580
▁오스	-3581
▁건강	-3582
▁사람을	-3583
트와	-3584
▁보아	-3585
▁의사	-3586
▁불린다	-3587
▁n	-3588
..	-3589
▁국방	-3590
▁블랙	-3591
▁헨	-3592
교의	-3593
▁알아	-3594
▁국왕	-3595
▁아나	-3596
FC	-3597
▁무렵	-3598
화에	-3599
ᆯ리포니아	-3600
▁유리	-3601
▁신문	-3602
▁편집	-3603
▁1986	-3604
▁입학	-3605
▁시기에	-3606
▁뿐만	-3607
▁1984	-3608
데미	-3609
세포	-3610
▁동계	-3611
▁터키	-3612
▁사령	-3613
자에게	-3614
못	-3615
▁2,	-3616
산업	-3617
▁겨울	-3618
군으로	-3619
얀	-3620
▁피아	-3621
.7	-3622
▁적극	-3623
▁생활을	-3624
▁시대의	-3625
▁관찰	-3626
▁숨	-3627
▁나중에	-3628
리어	-3629
체에	-3630
▁찰	-3631
▁부문	-3632
▁젊은	-3633
▁하기	-3634
▁일이	-3635
▁만드는	-3636
▁확대	-3637
▁제임스	-3638
역에	-3639
장이다	-3640
로운	-3641
▁사용되는	-3642
기고	-3643
물로	-3644
▁사회적	-3645
▁쇠	-3646
▁천문	-3647
▁전차	-3648
▁받아들	-3649
im	-3650
도시	-3651
ᆷ에도	-3652
▁계산	-3653
보다는	-3654
▁성우	-3655
었던	-3656
▁채택	-3657
▁제외한	-3658
▁St	-3659
▁채널	-3660
▁객	-3661
▁출발	-3662
▁보도	-3663
▁울산	-3664
▁위협	-3665
▁이번	-3666
▁요리	-3667
▁춘	-3668
▁범죄	-3669
셀	-3670
실을	-3671
▁여행	-3672
▁뒷	-3673
▁예선	-3674
▁붕괴	-3675
24	-3676
래프트	-3677
역에서	-3678
▁유엔	-3679
모리	-3680
▁동료	-3681
▁에스	-3682
▁항상	-3683
▁옹	-3684
▁마쓰	-3685
▁비슷	-3686
르타	-3687
▁점차	-3688
▁충분	-3689
▁계약을	-3690
▁이란	-3691
▁외에도	-3692
▁스튜디오	-3693
되었는데	-3694
▁유형	-3695
▁흰	-3696
개발	-3697
▁제정	-3698
사건	-3699
▁라이브	-3700
력에	-3701
.8	-3702
▁족	-3703
id	-3704
▁합병	-3705
▁남편	-3706
영화	-3707
▁매년	-3708
▁원자	-3709
▁많아	-3710
사령	-3711
▁구단	-3712
종은	-3713
▁사람들은	-3714
▁카이	-3715
▁민간	-3716
▁만화	-3717
해의	-3718
세기에	-3719
ay	-3720
▁필리핀	-3721
▁혐의	-3722
▁핀란드	-3723
설을	-3724
력과	-3725
▁그래서	-3726
▁캘리포니아	-3727
▁전개	-3728
▁시내	-3729
자치	-3730
▁500	-3731
▁확보	-3732
▁고구	-3733
시대의	-3734
▁마사	-3735
▁장기	-3736
대에서	-3737
ir	-3738
라고도	-3739
▁동부	-3740
면의	-3741
▁종종	-3742
▁장애	-3743
▁판단	-3744
▁발표했다	-3745
▁시작되었다	-3746
타이	-3747
신이	-3748
▁쉽게	-3749
일본	-3750
솔	-3751
▁구축	-3752
▁1985	-3753
▁덴마	-3754
ut	-3755
초등학교는	-3756
▁간주	-3757
▁집단	-3758
90	-3759
름다	-3760
▁뒤를	-3761
▁방식으로	-3762
▁in	-3763
밖에	-3764
계로	-3765
▁측정	-3766
▁자본	-3767
▁다섯	-3768
▁신경	-3769
셔널	-3770
▁몽골	-3771
▁탑재	-3772
▁플로	-3773
▁보면	-3774
▁냉	-3775
즈는	-3776
니어	-3777
국에	-3778
▁칠	-3779
▁세르	-3780
이라고도	-3781
▁등은	-3782
포르	-3783
▁있었지만	-3784
당에	-3785
23	-3786
▁증거	-3787
▁강원도	-3788
여자	-3789
님	-3790
▁멀	-3791
ᆸ고	-3792
▁전사	-3793
▁자리를	-3794
▁90	-3795
um	-3796
윈	-3797
티는	-3798
이던	-3799
▁정보를	-3800
▁남성	-3801
▁마리	-3802
▁생겨	-3803
▁관심을	-3804
▁모스크	-3805
▁끊	-3806
▁수학	-3807
▁그곳	-3808
▁등에서	-3809
▁이승	-3810
▁태평양	-3811
▁뚜	-3812
▁공공	-3813
▁이스라	-3814
▁방식	-3815
레이션	-3816
▁서부	-3817
▁여름	-3818
▁트리	-3819
▁강력한	-3820
▁면적은	-3821
▁검은	-3822
꾸	-3823
단체	-3824
하다고	-3825
▁주장했다	-3826
▁침공	-3827
▁태어난	-3828
까지의	-3829
▁사례	-3830
▁밖에	-3831
▁교체	-3832
▁사용한	-3833
▁수립	-3834
키아	-3835
▁카메	-3836
▁경우도	-3837
하려는	-3838
▁이슬람	-3839
▁주연으로	-3840
▁플라	-3841
▁해체	-3842
▁컬	-3843
▁부근	-3844
낸	-3845
네이	-3846
경제	-3847
개를	-3848
▁헤이	-3849
네시아	-3850
▁쪽	-3851
▁남동	-3852
▁전략	-3853
▁균	-3854
로서의	-3855
획을	-3856
스케	-3857
법에	-3858
▁연맹	-3859
▁콩	-3860
프리	-3861
으면서	-3862
둑	-3863
▁척	-3864
▁얼굴	-3865
ver	-3866
씨는	-3867
▁다음을	-3868
▁가리키는	-3869
선수	-3870
▁변호	-3871
서에	-3872
▁다니	-3873
▁경향	-3874
▁수입	-3875
▁화학	-3876
▁에피	-3877
ᆯ링	-3878
▁잭	-3879
▁선의	-3880
▁세운	-3881
되었지만	-3882
ᆺ의	-3883
법은	-3884
항공	-3885
박쥐	-3886
점에	-3887
소에서	-3888
녕	-3889
▁평양	-3890
▁자신을	-3891
▁비용	-3892
▁해방	-3893
인에	-3894
틀랜드	-3895
이에	-3896
▁승리를	-3897
▁갖춘	-3898
ᅳ는	-3899
면에서	-3900
사키	-3901
▁공격을	-3902
약을	-3903
▁클래	-3904
▁대규모	-3905
▁본관은	-3906
당한	-3907
▁인간의	-3908
▁수여	-3909
▁한다고	-3910
죽	-3911
▁세이	-3912
후의	-3913
▁메이저	-3914
족의	-3915
▁헝가	-3916
ᆻ음을	-3917
라운드	-3918
▁중학교	-3919
▁아랍	-3920
▁하자	-3921
▁임명되었다	-3922
▁뿌	-3923
먼트	-3924
▁일종이다	-3925
역의	-3926
자들을	-3927
▁인수	-3928
오프	-3929
▁털	-3930
류를	-3931
시와	-3932
제에	-3933
신은	-3934
▁이루어진	-3935
▁나카	-3936
▁아름다	-3937
로도	-3938
▁잠시	-3939
로나	-3940
▁1982	-3941
▁증명	-3942
데스	-3943
에게는	-3944
▁당시의	-3945
▁회복	-3946
▁충청남도	-3947
▁대형	-3948
▁내에서	-3949
▁흘	-3950
▁머리	-3951
▁으	-3952
▁헬	-3953
▁포르투갈	-3954
▁아시안	-3955
▁브리	-3956
▁45	-3957
법원	-3958
▁말이다	-3959
▁소프트웨어	-3960
▁고구려	-3961
정으로	-3962
▁농업	-3963
▁이끄는	-3964
▁링	-3965
구로	-3966
▁쓰인다	-3967
▁숲	-3968
▁잎	-3969
륜	-3970
▁개편	-3971
까지는	-3972
▁정상	-3973
수와	-3974
▁한다는	-3975
▁노력	-3976
▁인하여	-3977
바르	-3978
싱턴	-3979
▁설립된	-3980
▁사후	-3981
서관	-3982
티나	-3983
▁회원	-3984
▁포지션은	-3985
▁귀국	-3986
적이다	-3987
▁만족	-3988
면은	-3989
▁중화민	-3990
년이	-3991
▁솔	-3992
▁편입	-3993
▁수정	-3994
▁시청	-3995
▁스태	-3996
▁발매되었다	-3997
22	-3998
▁좀	-3999
▁인사	-4000
ᆸ다	-4001
▁고양	-4002
▁끝나	-4003
▁팀은	-4004
▁과정을	-4005
로스	-4006
▁불과	-4007
형은	-4008
▁받는	-4009
▁비교적	-4010
퀴	-4011
서의	-4012
씬	-4013
▁어떻게	-4014
했기	-4015
▁신설	-4016
▁폭발	-4017
▁스파	-4018
빠	-4019
드에서	-4020
▁설치되어	-4021
차를	-4022
▁1983	-4023
하고자	-4024
▁힘을	-4025
▁뛰어난	-4026
▁네트워크	-4027
▁올려	-4028
▁사람의	-4029
▁의해서	-4030
▁라틴	-4031
터테인	-4032
점은	-4033
▁보이는	-4034
법의	-4035
▁기계	-4036
▁띠	-4037
늬	-4038
형이	-4039
▁글로	-4040
▁복잡	-4041
▁본선	-4042
▁제품	-4043
▁죽은	-4044
▁대상으로	-4045
▁저장	-4046
▁샌	-4047
▁비유	-4048
▁고전	-4049
▁섭	-4050
▁인기를	-4051
▁스테	-4052
▁시장	-4053
▁도움을	-4054
명한	-4055
▁기획	-4056
▁은행	-4057
▁특수	-4058
권은	-4059
▁죽음	-4060
▁아카데미	-4061
▁단백	-4062
▁시대에	-4063
동의	-4064
▁토론	-4065
▁하면서	-4066
▁지역은	-4067
▁LG	-4068
▁않을	-4069
ᆷ프	-4070
▁이전에	-4071
종으로	-4072
대전	-4073
마스	-4074
에르	-4075
일보	-4076
CA	-4077
틱	-4078
▁시의	-4079
▁이것이	-4080
도에서	-4081
곱	-4082
다이	-4083
자이	-4084
물은	-4085
▁속에	-4086
▁대상	-4087
인들의	-4088
▁형식	-4089
▁박물	-4090
▁후손	-4091
▁텍	-4092
▁스피	-4093
료를	-4094
▁솔로	-4095
▁통한	-4096
▁구성된	-4097
▁가격	-4098
em	-4099
▁듀	-4100
경에	-4101
▁본격	-4102
▁초반	-4103
▁홈런	-4104
웠다	-4105
▁발견된다	-4106
동은	-4107
▁형태의	-4108
▁있었으며	-4109
놀	-4110
▁조정	-4111
리기	-4112
▁참석	-4113
경의	-4114
▁앞두고	-4115
▁사용되었다	-4116
kg	-4117
▁애플	-4118
ᆨ이	-4119
▁뽀	-4120
료로	-4121
▁개선	-4122
도르	-4123
▁아주	-4124
하나	-4125
.9	-4126
▁우선	-4127
▁때에는	-4128
ᆷ입	-4129
▁튀	-4130
를린	-4131
드에	-4132
려는	-4133
▁창설	-4134
분의	-4135
ᆻ습니다	-4136
▁에너지	-4137
▁태풍	-4138
룬다	-4139
▁불가능	-4140
▁행사	-4141
▁다음은	-4142
▁사실상	-4143
유럽	-4144
▁짧은	-4145
▁1972	-4146
▁사는	-4147
▁유도	-4148
▁마드리	-4149
▁통신	-4150
용으로	-4151
▁고향	-4152
▁득점	-4153
▁오리	-4154
경찰	-4155
▁w	-4156
▁암살	-4157
▁대립	-4158
▁외에	-4159
▁공유	-4160
▁충돌	-4161
축구	-4162
▁나오는	-4163
정책	-4164
▁근대	-4165
조선	-4166
리학	-4167
▁300	-4168
▁문화재	-4169
공업	-4170
▁구체	-4171
45	-4172
▁내용을	-4173
무원	-4174
▁아르헨	-4175
▁속에서	-4176
▁등장하는	-4177
▁삼국	-4178
▁편성	-4179
▁중반	-4180
무라	-4181
세계	-4182
▁부인	-4183
▁개봉한	-4184
지기	-4185
▁추정된다	-4186
▁높아	-4187
▁흔히	-4188
문의	-4189
▁뜻이	-4190
컴	-4191
차례	-4192
▁초등학교이다	-4193
▁짓	-4194
권에	-4195
서가	-4196
깨	-4197
▁위치한다	-4198
학년	-4199
▁재정	-4200
▁있었으나	-4201
▁1979	-4202
씨의	-4203
일로	-4204
ag	-4205
▁1920	-4206
▁전혀	-4207
예술	-4208
▁역사상	-4209
▁브랜드	-4210
번의	-4211
▁II	-4212
▁유명하다	-4213
▁모스크바	-4214
함에	-4215
시킬	-4216
일이	-4217
▁협력	-4218
▁비난	-4219
▁묻	-4220
리에서	-4221
▁팀이	-4222
왜	-4223
▁베이징	-4224
주에서	-4225
주와	-4226
내는	-4227
▁얻어	-4228
▁자는	-4229
▁무어	-4230
▁트로	-4231
크라이나	-4232
▁요한	-4233
협회	-4234
▁물러	-4235
춰	-4236
▁자체	-4237
▁공부	-4238
음악	-4239
▁로버트	-4240
▁떨어	-4241
▁보급	-4242
▁달라	-4243
심이	-4244
빛	-4245
받은	-4246
▁확정	-4247
▁북서	-4248
▁때에	-4249
▁열대	-4250
▁설정	-4251
▁숫	-4252
프의	-4253
▁33	-4254
지면서	-4255
스리그	-4256
슬라	-4257
BO	-4258
밀리	-4259
▁쪼	-4260
하려고	-4261
▁했지만	-4262
리스트	-4263
▁현실	-4264
▁동일한	-4265
os	-4266
▁뉴스	-4267
▁붉은	-4268
유의	-4269
▁워싱턴	-4270
▁무역	-4271
▁세웠다	-4272
▁세계에서	-4273
▁버스	-4274
▁탄생	-4275
▁현재까지	-4276
▁업무	-4277
▁캄	-4278
▁프로그램이다	-4279
▁길이는	-4280
200	-4281
▁1930	-4282
▁항복	-4283
▁가로	-4284
호의	-4285
▁1981	-4286
▁박사	-4287
▁권한	-4288
▁기사	-4289
▁자라	-4290
▁하는데	-4291
테르	-4292
ᆻ으므로	-4293
▁고정	-4294
나와	-4295
다른	-4296
▁콜로	-4297
▁36	-4298
▁180	-4299
지원	-4300
▁수출	-4301
▁정도의	-4302
문은	-4303
▁단일	-4304
▁1973	-4305
▁노예	-4306
▁오픈	-4307
▁되지	-4308
▁역대	-4309
▁제작에	-4310
체육	-4311
▁장착	-4312
▁훨	-4313
▁프란	-4314
▁되면서	-4315
▁심각	-4316
가에	-4317
색을	-4318
하마	-4319
▁예상	-4320
▁시각	-4321
▁적은	-4322
국에서	-4323
▁식물	-4324
▁조합	-4325
▁하였고	-4326
▁경기에	-4327
이었고	-4328
기에는	-4329
▁모리	-4330
바라	-4331
니의	-4332
▁발생한	-4333
▁차이	-4334
비의	-4335
▁하늘	-4336
▁했고	-4337
▁시티	-4338
▁얻었다	-4339
▁오랜	-4340
[]	-4341
▁수원	-4342
▁훨씬	-4343
▁기반으로	-4344
간에	-4345
▁그에	-4346
▁맡고	-4347
미는	-4348
▁타고	-4349
▁앞서	-4350
▁한때	-4351
화로	-4352
▁있었는데	-4353
슈타	-4354
▁선고	-4355
▁덮	-4356
▁형제	-4357
보드	-4358
▁절대	-4359
쿠라	-4360
구와	-4361
▁그것은	-4362
▁세우	-4363
▁조금	-4364
▁나는	-4365
▁이스라엘	-4366
▁내에	-4367
아이	-4368
▁차지했다	-4369
▁우크라이나	-4370
▁이탈리아의	-4371
▁투입	-4372
▁원작	-4373
▁낭	-4374
젤	-4375
시설	-4376
▁투자	-4377
▁문자	-4378
▁가능성이	-4379
▁넓은	-4380
▁북아	-4381
▁금융	-4382
▁넘어	-4383
▁교토	-4384
중앙	-4385
▁했으나	-4386
소프트	-4387
▁함수	-4388
▁정부가	-4389
보는	-4390
▁추측	-4391
경기에	-4392
▁마이클	-4393
▁이끌고	-4394
꺼	-4395
아버	-4396
생의	-4397
웃	-4398
▁시즌을	-4399
35	-4400
동이	-4401
27	-4402
교통	-4403
▁1974	-4404
▁국가의	-4405
_4	-4406
▁오히	-4407
보를	-4408
▁출마	-4409
26	-4410
괄	-4411
▁1940	-4412
등을	-4413
조에	-4414
▁첨	-4415
▁계급	-4416
▁잡아	-4417
비치	-4418
▁정복	-4419
▁개정	-4420
▁이중	-4421
하다는	-4422
▁대항	-4423
▁쳐	-4424
문학	-4425
▁신앙	-4426
▁일본에서	-4427
▁반복	-4428
▁창립	-4429
톨	-4430
▁철도역이다	-4431
프레	-4432
▁없고	-4433
▁멸망	-4434
op	-4435
▁보였다	-4436
▁빠져	-4437
플레이	-4438
▁그에게	-4439
▁광고	-4440
ᆻ기에	-4441
▁무장	-4442
▁요새	-4443
버그	-4444
안에	-4445
▁뜻을	-4446
이었으나	-4447
▁SBS	-4448
전과	-4449
▁하드	-4450
OS	-4451
▁저지	-4452
젤레	-4453
우리	-4454
국으로	-4455
라크	-4456
▁구별	-4457
당했다	-4458
▁러시아의	-4459
▁세종	-4460
▁시간이	-4461
▁공포	-4462
▁전쟁이	-4463
▁아메리카	-4464
▁주교	-4465
▁방출	-4466
▁슬로	-4467
산이	-4468
령을	-4469
▁거절	-4470
▁1948	-4471
▁오토	-4472
▁붙여	-4473
▁지닌	-4474
소와	-4475
스럽	-4476
▁점에서	-4477
▁감염	-4478
해진	-4479
▁CD	-4480
▁무기	-4481
▁e	-4482
▁1968	-4483
ce	-4484
타를	-4485
세대	-4486
▁스코틀랜드	-4487
▁살고	-4488
▁쥐	-4489
마이	-4490
▁킹	-4491
언을	-4492
▁38	-4493
▁행정구	-4494
▁1976	-4495
▁확실	-4496
로드	-4497
▁융	-4498
▁결과를	-4499
추어	-4500
받고	-4501
역이	-4502
▁전후	-4503
▁부터	-4504
28	-4505
만은	-4506
▁이후에는	-4507
답	-4508
자기	-4509
마의	-4510
▁전설	-4511
▁활발	-4512
판을	-4513
▁원주	-4514
▁계획을	-4515
▁제출	-4516
▁산맥	-4517
▁판결	-4518
▁단백질	-4519
▁목적	-4520
▁델	-4521
▁됐다	-4522
나이티	-4523
▁185	-4524
▁들어서	-4525
▁서양	-4526
쿨	-4527
▁머물	-4528
▁사용하고	-4529
▁합의	-4530
인민공화국의	-4531
▁북동	-4532
▁에피소	-4533
▁플랫포	-4534
차로	-4535
▁세인트	-4536
▁1975	-4537
▁않게	-4538
▁청소년	-4539
▁그림	-4540
▁시작한	-4541
면이	-4542
국민	-4543
▁전용	-4544
▁베를린	-4545
저우	-4546
세로	-4547
▁발표한	-4548
▁팀을	-4549
▁지원을	-4550
▁린	-4551
▁오히려	-4552
▁포함되어	-4553
키스탄	-4554
▁인공	-4555
▁거대한	-4556
브리	-4557
▁인터뷰	-4558
▁의료	-4559
▁마침	-4560
▁차이가	-4561
▁이뤄	-4562
▁원정	-4563
▁건립	-4564
ra	-4565
▁음력	-4566
▁돌아가	-4567
년에서	-4568
▁기억	-4569
▁숭	-4570
▁했으며	-4571
데이	-4572
▁논쟁	-4573
사인	-4574
▁투수	-4575
▁비밀	-4576
ter	-4577
▁1978	-4578
▁올리	-4579
▁전쟁을	-4580
▁1971	-4581
▁지키	-4582
석은	-4583
지인	-4584
ᆨ은	-4585
▁약간	-4586
▁타이완	-4587
재를	-4588
▁미나	-4589
▁주식	-4590
뱅	-4591
병을	-4592
지이다	-4593
▁통제	-4594
▁삼각	-4595
세와	-4596
▁은하	-4597
▁1963	-4598
▁오래된	-4599
▁남서	-4600
네스	-4601
▁고등	-4602
▁오전	-4603
▁보는	-4604
▁장악	-4605
29	-4606
▁철학	-4607
▁각본	-4608
▁점을	-4609
술을	-4610
형으로	-4611
▁스키	-4612
안의	-4613
▁온라인	-4614
시킨다	-4615
▁양성	-4616
▁롯	-4617
▁모아	-4618
▁유나이티	-4619
▁금속	-4620
▁아파	-4621
▁이르는	-4622
첩	-4623
티브	-4624
▁지낸	-4625
치에	-4626
당과	-4627
▁공산주의	-4628
▁In	-4629
▁청년	-4630
에트	-4631
▁도우	-4632
▁책임	-4633
더라도	-4634
▁트레이	-4635
화와	-4636
▁원칙	-4637
▁기자	-4638
ST	-4639
▁대비	-4640
▁비록	-4641
둘	-4642
▁이야기를	-4643
▁짐	-4644
지며	-4645
국가	-4646
값	-4647
▁미드	-4648
▁이민	-4649
법이	-4650
경은	-4651
▁도달	-4652
▁에어	-4653
▁통해서	-4654
▁주어	-4655
시티	-4656
▁레드	-4657
▁강의	-4658
▁일으키	-4659
▁펼쳐	-4660
▁스크	-4661
▁해당하는	-4662
산에	-4663
다면	-4664
▁벨기에	-4665
▁겐	-4666
▁출입	-4667
▁강제	-4668
메리	-4669
류가	-4670
▁핵심	-4671
500	-4672
▁되면	-4673
▁취급	-4674
▁청나라	-4675
단과	-4676
▁1969	-4677
▁작전	-4678
▁그레	-4679
뇨	-4680
▁이유는	-4681
▁상당히	-4682
개가	-4683
국제	-4684
▁지켜	-4685
▁병사	-4686
▁반영	-4687
▁랭	-4688
▁네이	-4689
▁아테	-4690
증을	-4691
▁사망했다	-4692
룰	-4693
분이	-4694
제국	-4695
▁육상	-4696
▁Z	-4697
▁건국	-4698
▁그것을	-4699
▁150	-4700
▁없다고	-4701
▁미니	-4702
▁니콜	-4703
▁시작하여	-4704
▁전라북도	-4705
노동	-4706
▁위해서는	-4707
진은	-4708
▁운용	-4709
ᆷ이나	-4710
선으로	-4711
▁의회	-4712
▁삭	-4713
수록	-4714
▁둥	-4715
▁식민지	-4716
▁잇는	-4717
47	-4718
▁모여	-4719
▁이제	-4720
▁보냈다	-4721
에게서	-4722
▁신인	-4723
▁잘못	-4724
▁400	-4725
연맹	-4726
▁처음에는	-4727
ri	-4728
▁1946	-4729
▁건조	-4730
▁약속	-4731
▁벼	-4732
▁취득	-4733
▁시간을	-4734
▁코미디	-4735
▁동의	-4736
자들	-4737
교를	-4738
▁답	-4739
▁속한다	-4740
▁공화	-4741
_5	-4742
기에서	-4743
조로	-4744
▁웨스트	-4745
▁국도	-4746
왕이	-4747
▁역을	-4748
▁두었다	-4749
리히	-4750
▁백작	-4751
▁주고	-4752
▁대성	-4753
식에	-4754
▁이용한	-4755
ᆯ리아	-4756
▁자격	-4757
▁혼란	-4758
▁국가대표티	-4759
▁대략	-4760
같은	-4761
▁아미	-4762
▁부임	-4763
▁말레이	-4764
크를	-4765
▁간단	-4766
드시	-4767
▁대공	-4768
▁이용해	-4769
▁생명	-4770
마르	-4771
리트	-4772
▁한번	-4773
▁1964	-4774
▁방법을	-4775
▁소수	-4776
▁거래	-4777
전문	-4778
▁독자	-4779
지자	-4780
▁이른	-4781
이었으며	-4782
스러운	-4783
▁경성	-4784
▁활동하였다	-4785
▁노부	-4786
▁경주	-4787
분류	-4788
▁경계	-4789
어도	-4790
니아의	-4791
▁갔다	-4792
▁넘는	-4793
▁명이	-4794
▁프리미	-4795
석이	-4796
▁개시	-4797
▁뜻한다	-4798
▁방향으로	-4799
납	-4800
▁댄	-4801
▁발표하였다	-4802
고는	-4803
▁반발	-4804
▁욕	-4805
▁공식적으로	-4806
생을	-4807
▁번째로	-4808
▁제이	-4809
익을	-4810
▁미디어	-4811
▁작품을	-4812
▁후지	-4813
▁사건을	-4814
▁후에는	-4815
▁and	-4816
누스	-4817
▁브루	-4818
의회	-4819
▁때부터	-4820
▁동남	-4821
▁논의	-4822
▁빠른	-4823
▁해서	-4824
▁보조	-4825
▁알게	-4826
▁출연하였고	-4827
▁코로나	-4828
머스	-4829
▁인도네시아	-4830
라가	-4831
▁흡수	-4832
▁준우	-4833
▁행성	-4834
▁싸우	-4835
▁히데	-4836
▁포기	-4837
▁자이	-4838
▁엔터테인	-4839
▁버전	-4840
▁전주	-4841
▁받지	-4842
번째로	-4843
▁역임했다	-4844
▁트랙	-4845
▁하면	-4846
▁아들이	-4847
▁왕국	-4848
▁쏘	-4849
▁거리	-4850
▁곳에서	-4851
타는	-4852
▁만주	-4853
▁국제공항	-4854
시스	-4855
▁지니	-4856
▁34	-4857
▁경기는	-4858
앤젤레	-4859
▁수상했다	-4860
▁윌	-4861
▁그런데	-4862
식과	-4863
조합	-4864
▁임의	-4865
▁종류의	-4866
▁유사한	-4867
th	-4868
모를	-4869
nd	-4870
oc	-4871
론의	-4872
▁고용	-4873
▁렌	-4874
▁포위	-4875
고속도로	-4876
▁프로젝트	-4877
▁시작으로	-4878
▁의존	-4879
리노	-4880
▁부상	-4881
▁하나는	-4882
▁1977	-4883
igh	-4884
▁이것을	-4885
▁도망	-4886
▁출신으로	-4887
▁프로세	-4888
차원	-4889
박물	-4890
브라	-4891
▁전공	-4892
▁도중	-4893
동으로	-4894
통신	-4895
▁컵	-4896
앗	-4897
▁공통	-4898
▁개최된	-4899
치아	-4900
▁수집	-4901
마트	-4902
▁쫓	-4903
▁수송	-4904
▁도시로	-4905
▁박정	-4906
ation	-4907
▁고속	-4908
▁이들의	-4909
▁전철	-4910
36	-4911
조사	-4912
마을	-4913
▁영입	-4914
▁챔피언스리그	-4915
▁1949	-4916
▁헨리	-4917
▁이집트	-4918
▁데이비드	-4919
▁로스앤젤레	-4920
▁해에	-4921
즘	-4922
▁태어났으며	-4923
▁돌아와	-4924
▁총독	-4925
미의	-4926
▁테이	-4927
미가	-4928
▁카르	-4929
▁띄	-4930
▁각각의	-4931
물이다	-4932
▁받게	-4933
▁g	-4934
님의	-4935
▁체계	-4936
차가	-4937
▁그러한	-4938
▁대학교에서	-4939
▁않았고	-4940
▁활동했다	-4941
▁분쟁	-4942
▁때의	-4943
▁그레이	-4944
▁사용되고	-4945
이지	-4946
▁대수	-4947
▁수사	-4948
륭	-4949
37	-4950
▁선수가	-4951
▁기록하였다	-4952
▁만큼	-4953
▁피아노	-4954
▁탈락	-4955
▁느ᄁ	-4956
▁장식	-4957
▁열렸다	-4958
바로	-4959
▁1962	-4960
베르크	-4961
▁갈라	-4962
▁v	-4963
미를	-4964
▁대기	-4965
▁주둔	-4966
▁요코	-4967
▁파일	-4968
▁관할한다	-4969
▁기록한	-4970
뿐만	-4971
▁일찌	-4972
▁아사	-4973
▁꼭	-4974
▁것처럼	-4975
미야	-4976
▁마케	-4977
▁진입	-4978
▁공개된	-4979
명에	-4980
종을	-4981
▁중이다	-4982
▁김영	-4983
▁논란이	-4984
▁오페	-4985
▁보장	-4986
▁기술을	-4987
▁에도	-4988
▁특별한	-4989
▁참전	-4990
▁합격	-4991
▁자살	-4992
▁총리	-4993
▁발매된	-4994
▁채용	-4995
▁승인	-4996
경이	-4997
▁신성	-4998
베트	-4999
▁1967	-5000
▁한반	-5001
▁불법	-5002
▁성인	-5003
시에서	-5004
▁SK	-5005
▁응용	-5006
으로써	-5007
사스	-5008
▁지붕	-5009
▁탈출	-5010
렴	-5011
▁다르다	-5012
르가	-5013
파는	-5014
▁가을	-5015
▁콘서	-5016
영은	-5017
▁앞에	-5018
라이언	-5019
▁공을	-5020
히는	-5021
▁사태	-5022
으나	-5023
▁라인	-5024
되면	-5025
▁피해를	-5026
▁집행	-5027
▁1.	-5028
▁37	-5029
▁스미	-5030
▁FA	-5031
적의	-5032
▁i	-5033
율을	-5034
▁서비스를	-5035
▁시리아	-5036
구에서	-5037
▁켄	-5038
▁탁	-5039
▁벗어나	-5040
▁운동을	-5041
▁명명	-5042
▁아들로	-5043
▁선보	-5044
▁진압	-5045
▁이전의	-5046
▁선거에서	-5047
▁등급	-5048
해도	-5049
▁소녀	-5050
▁보낸	-5051
▁방사	-5052
ER	-5053
들이다	-5054
▁사건이	-5055
▁빠르게	-5056
▁기대	-5057
▁서버	-5058
▁국무	-5059
▁롯데	-5060
▁폴리	-5061
▁했던	-5062
으로도	-5063
98	-5064
행위	-5065
오스	-5066
진의	-5067
▁군대를	-5068
▁예측	-5069
▁출간	-5070
생활	-5071
론은	-5072
통을	-5073
▁천연	-5074
▁층	-5075
등이	-5076
티노	-5077
▁양자	-5078
▁플레이오프	-5079
▁복합	-5080
▁소비에트	-5081
제와	-5082
▁문헌	-5083
실은	-5084
▁중세	-5085
▁승진	-5086
▁강점	-5087
▁요소	-5088
▁왕국의	-5089
현의	-5090
▁동원	-5091
▁상륙	-5092
▁임진	-5093
▁여기에	-5094
▁US	-5095
▁뽑	-5096
부인	-5097
▁공군	-5098
▁새겨	-5099
▁부활	-5100
▁검찰	-5101
▁콘스탄	-5102
ap	-5103
▁깊은	-5104
▁발견된	-5105
▁연재	-5106
▁생존	-5107
▁시에	-5108
▁어두	-5109
▁썼다	-5110
▁변환	-5111
▁내의	-5112
▁왼쪽	-5113
▁목표로	-5114
▁챔피언십	-5115
▁장관	-5116
▁반드시	-5117
▁파라	-5118
▁나치	-5119
▁주관	-5120
▁소장	-5121
▁자녀	-5122
▁가서	-5123
▁창조	-5124
▁학문	-5125
▁나왔다	-5126
▁배출	-5127
▁방영된	-5128
▁것이며	-5129
▁능력을	-5130
▁제외하고	-5131
▁선교	-5132
▁알려졌다	-5133
퍼드	-5134
▁다수의	-5135
▁작품으로	-5136
▁변경되었다	-5137
▁좌우	-5138
▁연출	-5139
공사	-5140
▁후속	-5141
바다	-5142
함이	-5143
▁장군	-5144
▁한국에서	-5145
▁둘째	-5146
안은	-5147
▁존재하는	-5148
▁늦	-5149
클레	-5150
▁이시	-5151
▁말았다	-5152
38	-5153
게임	-5154
틀러	-5155
▁나타내는	-5156
▁리더	-5157
▁남은	-5158
▁끝난	-5159
▁동작	-5160
▁PC	-5161
▁독특	-5162
공화국	-5163
▁해양	-5164
▁운전	-5165
▁창단	-5166
혔다	-5167
▁둘러싸	-5168
▁라고	-5169
▁평가를	-5170
늄	-5171
▁마지막으로	-5172
▁포도	-5173
%,	-5174
▁라는	-5175
▁상하이	-5176
곡을	-5177
▁상승	-5178
패를	-5179
▁1966	-5180
▁최다	-5181
▁형태를	-5182
▁제대로	-5183
넘	-5184
▁저작	-5185
면으로	-5186
▁전파	-5187
화되어	-5188
타르	-5189
토리	-5190
▁경우는	-5191
46	-5192
▁진보	-5193
▁농민	-5194
▁정책을	-5195
▁KBO	-5196
▁받았고	-5197
▁일부는	-5198
하였지만	-5199
들목	-5200
▁가졌다	-5201
▁쓰는	-5202
▁이성	-5203
기까지	-5204
▁맞이	-5205
▁작품은	-5206
▁1965	-5207
▁경우에	-5208
에이	-5209
▁시카	-5210
▁소년	-5211
▁꺾	-5212
▁외부	-5213
▁구속	-5214
▁지방의	-5215
터는	-5216
▁그와	-5217
없는	-5218
▁사법	-5219
방을	-5220
▁이다	-5221
터리	-5222
명과	-5223
95	-5224
ON	-5225
▁이후로	-5226
요시	-5227
질랜드	-5228
▁레오	-5229
주의를	-5230
케이션	-5231
▁알레	-5232
▁죽었다	-5233
▁미야	-5234
▁개발한	-5235
▁국경	-5236
▁합성	-5237
▁시즌에	-5238
장인	-5239
▁진화	-5240
▁목소	-5241
루는	-5242
그라	-5243
▁차별	-5244
상태	-5245
▁봄	-5246
▁파악	-5247
듭	-5248
▁대부분은	-5249
기간	-5250
선과	-5251
폴레	-5252
▁체코	-5253
▁베스트	-5254
▁불안	-5255
▁도와	-5256
▁트랜	-5257
▁엄청	-5258
▁틀	-5259
▁학위를	-5260
▁군주	-5261
▁않으며	-5262
▁정확한	-5263
내고	-5264
▁오른쪽	-5265
이와	-5266
▁흉	-5267
▁반도	-5268
ice	-5269
항을	-5270
기념	-5271
▁스페인의	-5272
평가	-5273
▁어떠한	-5274
먹	-5275
▁Q	-5276
▁니시	-5277
▁해산	-5278
인도	-5279
▁덧	-5280
▁일정	-5281
▁되자	-5282
리적	-5283
▁횡	-5284
원이다	-5285
학에서	-5286
▁잉	-5287
세한	-5288
▁풍부	-5289
▁연구를	-5290
비스	-5291
▁헤르	-5292
▁완공	-5293
▁작품이다	-5294
▁You	-5295
▁차트	-5296
▁자신들의	-5297
-20	-5298
▁아버지는	-5299
▁개신	-5300
▁리처	-5301
기압	-5302
▁계기로	-5303
▁향상	-5304
▁인기	-5305
▁이룬다	-5306
드라	-5307
해가	-5308
테이션	-5309
▁받을	-5310
▁국회	-5311
▁지급	-5312
▁55	-5313
▁흘러	-5314
표를	-5315
▁미군	-5316
▁교환	-5317
▁학습	-5318
팩	-5319
▁사운드	-5320
▁우려	-5321
▁하였으나	-5322
▁신뢰	-5323
스트로	-5324
▁세르비아	-5325
▁1961	-5326
▁테러	-5327
크가	-5328
▁관료	-5329
▁세력	-5330
▁조작	-5331
▁홋	-5332
게는	-5333
였으나	-5334
ak	-5335
사단	-5336
랄	-5337
ᆯ런	-5338
ᆺ날	-5339
▁글을	-5340
▁늘어나	-5341
75	-5342
▁3,	-5343
est	-5344
텐츠	-5345
▁1000	-5346
▁지금의	-5347
코는	-5348
일과	-5349
▁마이크로소프트	-5350
▁분할	-5351
조판	-5352
▁수영	-5353
▁위반	-5354
▁전통적인	-5355
▁갖는	-5356
디션	-5357
산시	-5358
▁제어	-5359
온은	-5360
▁실질	-5361
토의	-5362
▁검사	-5363
▁하였으며	-5364
아는	-5365
리다	-5366
▁개념	-5367
▁포함하고	-5368
▁특이	-5369
▁김일	-5370
▁프로그램을	-5371
▁그들이	-5372
었는데	-5373
32	-5374
▁묶	-5375
켄	-5376
▁성능	-5377
임이	-5378
▁보안	-5379
▁기록이	-5380
졌고	-5381
류는	-5382
▁점점	-5383
▁부산광역시	-5384
드레	-5385
등의	-5386
▁스카	-5387
복을	-5388
▁나이로	-5389
▁택	-5390
▁샤를	-5391
▁오스만	-5392
▁뉴질랜드	-5393
조직	-5394
▁사립	-5395
ia	-5396
ᆺ에	-5397
▁동성	-5398
▁조별	-5399
▁없다는	-5400
▁보관	-5401
▁받는다	-5402
▁감독을	-5403
사무	-5404
신으로	-5405
▁독립운동	-5406
▁것이라	-5407
건을	-5408
▁갤러	-5409
망을	-5410
고의	-5411
▁회전	-5412
AR	-5413
▁인접	-5414
▁명확	-5415
▁성을	-5416
천시	-5417
▁연관	-5418
녁	-5419
자료	-5420
▁조절	-5421
▁포함한다	-5422
▁의미를	-5423
▁사우	-5424
니가	-5425
진이	-5426
주의의	-5427
▁페르시아	-5428
▁감독이	-5429
▁분열	-5430
락을	-5431
▁대통령이	-5432
▁완료	-5433
사관	-5434
▁모양의	-5435
▁되며	-5436
▁스위스	-5437
▁사단	-5438
▁역사적	-5439
투스	-5440
마는	-5441
▁동아	-5442
▁예비	-5443
▁고유	-5444
▁성적	-5445
art	-5446
ᆻ음에도	-5447
▁활성	-5448
산화	-5449
▁지은	-5450
▁주장하였다	-5451
-4	-5452
▁빅토	-5453
▁역이다	-5454
보살	-5455
▁학술	-5456
92	-5457
▁교육을	-5458
▁충청북도	-5459
▁민주당	-5460
▁이루어졌다	-5461
주었다	-5462
▁마침내	-5463
▁도쿠	-5464
▁김정	-5465
▁하나인	-5466
▁프로듀서	-5467
▁마치	-5468
▁찍	-5469
▁간행	-5470
벼	-5471
▁위성	-5472
프를	-5473
ie	-5474
▁1944	-5475
▁처형	-5476
▁역은	-5477
판이	-5478
토니	-5479
▁대개	-5480
▁주전	-5481
리게	-5482
왕은	-5483
▁것이라는	-5484
▁셀	-5485
책을	-5486
▁일치	-5487
▁항성	-5488
카이도	-5489
탱	-5490
▁단독	-5491
▁이후의	-5492
▁불렀다	-5493
▁75	-5494
▁1919	-5495
▁삽	-5496
▁코드	-5497
▁통산	-5498
▁영화는	-5499
▁쓸	-5500
옌	-5501
▁활동하고	-5502
뮤니	-5503
▁크고	-5504
소송	-5505
▁메시	-5506
▁IS	-5507
질이	-5508
▁한정	-5509
▁신청	-5510
▁반대로	-5511
▁조선의	-5512
▁포함하여	-5513
었으나	-5514
되었을	-5515
ᆨ트	-5516
야구	-5517
▁프라	-5518
▁말에	-5519
▁제공한다	-5520
씨가	-5521
▁연대	-5522
령이	-5523
▁장치	-5524
31	-5525
자로서	-5526
▁나타난다	-5527
▁지식	-5528
▁문제로	-5529
▁아티	-5530
롤	-5531
차는	-5532
터를	-5533
▁터미널	-5534
▁팝	-5535
▁아침	-5536
▁형사	-5537
▁스프	-5538
▁거두었다	-5539
들에서	-5540
▁작업을	-5541
▁구현	-5542
부터는	-5543
끔	-5544
▁48	-5545
위와	-5546
▁있음을	-5547
▁지상역이다	-5548
톱	-5549
즐	-5550
▁해리	-5551
▁다녀	-5552
▁제작한	-5553
하였다고	-5554
▁메인	-5555
▁가진다	-5556
▁뜻으로	-5557
▁1941	-5558
들로부터	-5559
학은	-5560
▁소속으로	-5561
▁관계가	-5562
리아의	-5563
96	-5564
▁가나	-5565
▁예수	-5566
▁함락	-5567
미니	-5568
ᆺ동안	-5569
연히	-5570
멍	-5571
▁어린이	-5572
▁잉글랜드의	-5573
들어	-5574
▁맞아	-5575
34	-5576
▁캔	-5577
방의	-5578
▁당시에는	-5579
▁목록이다	-5580
▁덴마크	-5581
개로	-5582
천군	-5583
▁받아들여	-5584
▁방법으로	-5585
▁프리미어	-5586
▁크리	-5587
▁호텔	-5588
▁역으로	-5589
▁급제	-5590
▁엠	-5591
▁합쳐	-5592
▁창원	-5593
og	-5594
시리즈	-5595
▁의무	-5596
▁호는	-5597
▁퀸	-5598
▁통계	-5599
입니다	-5600
우주	-5601
▁만들어졌다	-5602
재판	-5603
▁적절	-5604
▁선정되었다	-5605
고기	-5606
ly	-5607
라노	-5608
▁저서	-5609
▁향해	-5610
▁예정이다	-5611
품의	-5612
▁부르는	-5613
▁흐르	-5614
▁없으며	-5615
지컬	-5616
;/	-5617
사우	-5618
▁후보로	-5619
▁밀도는	-5620
▁발굴	-5621
▁질병	-5622
올림픽	-5623
▁추천	-5624
무늬	-5625
▁취소	-5626
▁경제적	-5627
사이트	-5628
▁보컬	-5629
▁감독으로	-5630
▁오랫동안	-5631
비로	-5632
▁1958	-5633
▁훗날	-5634
▁코파	-5635
각을	-5636
행정	-5637
▁고속도로	-5638
▁이하	-5639
▁중인	-5640
▁쓰이는	-5641
▁알파	-5642
▁인종	-5643
교는	-5644
시키기	-5645
▁의혹	-5646
▁유행	-5647
메리칸	-5648
▁이름의	-5649
이센	-5650
로마	-5651
▁규모의	-5652
▁노벨	-5653
▁나아가	-5654
색의	-5655
▁쓰고	-5656
▁인지	-5657
▁그렇게	-5658
▁찰스	-5659
ne	-5660
▁생기	-5661
▁지금까지	-5662
▁정차	-5663
▁그때	-5664
▁뜻하는	-5665
▁속한	-5666
넌	-5667
라를	-5668
무부	-5669
리그의	-5670
▁영상	-5671
▁발견되었다	-5672
▁1947	-5673
▁주택	-5674
리나	-5675
거운	-5676
자들에게	-5677
▁엑스	-5678
개혁	-5679
향을	-5680
▁사람들의	-5681
▁다다	-5682
▁골든	-5683
민주당	-5684
조차	-5685
▁음악을	-5686
공원	-5687
▁훌	-5688
▁1956	-5689
ᆯ리는	-5690
▁상당한	-5691
칙을	-5692
▁기둥	-5693
▁당초	-5694
▁출장	-5695
현은	-5696
▁시작된	-5697
▁편찬	-5698
▁Ch	-5699
▁올렸다	-5700
AT	-5701
▁졸업하고	-5702
카는	-5703
슬러	-5704
음이	-5705
▁누구	-5706
▁주지	-5707
▁|	-5708
▁보병	-5709
▁안동	-5710
▁DNA	-5711
▁승객	-5712
64	-5713
▁명을	-5714
▁후기	-5715
▁등장한다	-5716
▁고문	-5717
▁무너	-5718
-5	-5719
▁혐의로	-5720
▁근본	-5721
▁벡터	-5722
▁높이는	-5723
헬	-5724
한국	-5725
▁이기	-5726
▁2.	-5727
▁클레	-5728
▁프린	-5729
▁연산	-5730
▁혼합	-5731
넨	-5732
▁하위	-5733
성군	-5734
▁내용은	-5735
총독	-5736
39	-5737
▁브레	-5738
만큼	-5739
미르	-5740
▁구역	-5741
▁시작한다	-5742
▁내셔널	-5743
▁재배	-5744
되었다가	-5745
▁부대	-5746
이므로	-5747
ab	-5748
깥	-5749
가타	-5750
▁빼앗	-5751
▁l	-5752
여서	-5753
화한	-5754
▁나들목	-5755
양을	-5756
고가	-5757
▁힐	-5758
▁소송	-5759
▁희생	-5760
▁발발	-5761
▁Re	-5762
치게	-5763
하였던	-5764
▁일부를	-5765
▁공업	-5766
▁공헌	-5767
▁번의	-5768
동맹	-5769
▁분위	-5770
▁가지는	-5771
▁아르헨티나	-5772
루가	-5773
▁베이스	-5774
▁유기	-5775
▁언제	-5776
▁셋	-5777
▁출시되었다	-5778
셀로	-5779
▁규칙	-5780
▁화재	-5781
▁밝히	-5782
AS	-5783
▁실현	-5784
▁직업	-5785
내에	-5786
린은	-5787
▁세계의	-5788
▁1939	-5789
▁+	-5790
▁마크	-5791
▁바깥	-5792
슨의	-5793
▁저술	-5794
동과	-5795
▁미사일	-5796
▁개입	-5797
▁음식	-5798
▁k	-5799
럭	-5800
에른	-5801
우스는	-5802
▁내렸다	-5803
▁주최	-5804
▁최우	-5805
화되었다	-5806
▁마무	-5807
▁접촉	-5808
왜란	-5809
▁무시	-5810
▁다리	-5811
▁안에서	-5812
▁섞	-5813
▁망명	-5814
se	-5815
▁군의	-5816
▁중화민국	-5817
ist	-5818
▁상위	-5819
▁정기	-5820
▁효율	-5821
인들을	-5822
▁지어	-5823
▁제일	-5824
▁개막	-5825
체스터	-5826
76	-5827
▁빙	-5828
률이	-5829
폴레옹	-5830
론이	-5831
컷	-5832
▁신호	-5833
▁단편	-5834
▁촌	-5835
▁캐나다의	-5836
▁가치가	-5837
1,	-5838
▁진행되었다	-5839
▁사냥	-5840
▁유일하게	-5841
▁인구가	-5842
▁성적을	-5843
목록	-5844
▁사용된	-5845
▁자극	-5846
▁독특한	-5847
▁다운	-5848
▁출범	-5849
▁로보	-5850
▁임대	-5851
▁처벌	-5852
▁철수	-5853
▁새롭게	-5854
체와	-5855
▁으로	-5856
▁변화를	-5857
▁극장	-5858
▁확립	-5859
ight	-5860
중의	-5861
▁진주	-5862
▁왕조	-5863
르기	-5864
▁방정	-5865
▁쓰여	-5866
▁곡은	-5867
▁크로아	-5868
곽	-5869
▁1954	-5870
▁제공하는	-5871
▁골을	-5872
85	-5873
▁도요	-5874
▁멀리	-5875
▁조종	-5876
파를	-5877
▁곡을	-5878
▁부분을	-5879
▁이들을	-5880
▁금메달을	-5881
99	-5882
▁to	-5883
▁화물	-5884
▁입장을	-5885
영의	-5886
▁심각한	-5887
▁앉	-5888
▁길을	-5889
고등	-5890
▁작곡가	-5891
▁마르크	-5892
▁받았으며	-5893
▁어디	-5894
▁저녁	-5895
▁구글	-5896
IV	-5897
▁바뀌었다	-5898
▁나폴레옹	-5899
▁지시	-5900
지어	-5901
▁다스	-5902
86	-5903
▁피터	-5904
▁무덤	-5905
▁대표하는	-5906
▁명칭은	-5907
▁코르	-5908
▁황금	-5909
정과	-5910
▁거듭	-5911
흡	-5912
▁AFC	-5913
▁유형문화재	-5914
베르트	-5915
▁기울	-5916
▁닌	-5917
석의	-5918
▁아스	-5919
▁정지	-5920
▁얻은	-5921
▁크레	-5922
▁임진왜란	-5923
▁h	-5924
▁1952	-5925
▁지역으로	-5926
▁묵	-5927
안이	-5928
▁군이다	-5929
▁미드필	-5930
▁즈	-5931
▁무르	-5932
▁매일	-5933
기록	-5934
디는	-5935
관계	-5936
타운	-5937
▁부상을	-5938
BA	-5939
셉	-5940
▁블라	-5941
▁지위를	-5942
▁편이다	-5943
▁시위	-5944
▁앤드	-5945
▁가문의	-5946
▁스마트	-5947
치와	-5948
▁로드	-5949
▁어깨	-5950
▁인쇄	-5951
▁나뉜다	-5952
▁해당한다	-5953
툰	-5954
▁잡지	-5955
비에	-5956
함과	-5957
▁다케	-5958
▁가담	-5959
▁나타낸다	-5960
▁놓고	-5961
▁다르게	-5962
▁이루고	-5963
▁상태로	-5964
▁일본에	-5965
실의	-5966
▁아테네	-5967
자키	-5968
▁법칙	-5969
▁인권	-5970
▁설립되었다	-5971
격한	-5972
어이다	-5973
▁자리잡	-5974
첨	-5975
▁후계	-5976
티오	-5977
층의	-5978
▁연결하는	-5979
▁국민의	-5980
연을	-5981
▁사임	-5982
양의	-5983
야의	-5984
카가	-5985
▁기회를	-5986
▁공연을	-5987
아르	-5988
프랑	-5989
▁스리	-5990
▁전형	-5991
▁중에는	-5992
우의	-5993
구이다	-5994
▁상대적으로	-5995
례를	-5996
되는데	-5997
▁안드로	-5998
오의	-5999
자유	-6000
▁등판	-6001
▁노래를	-6002
포를	-6003
_6	-6004
콤	-6005
▁연구에	-6006
▁분명	-6007
▁어려운	-6008
▁대리	-6009
▁미드필더	-6010
쌍	-6011
▁두려	-6012
▁부하	-6013
▁알바	-6014
▁따로	-6015
▁후원	-6016
▁톰	-6017
▁노출	-6018
▁맞서	-6019
▁가와	-6020
▁특정한	-6021
▁장교	-6022
▁상황에서	-6023
ᇀ이	-6024
▁유럽의	-6025
▁활약을	-6026
강의	-6027
▁점이	-6028
색으로	-6029
구치	-6030
스럽게	-6031
▁드라이	-6032
관과	-6033
▁절반	-6034
▁선생	-6035
▁도모	-6036
▁싱가	-6037
속에	-6038
▁무한	-6039
▁하에	-6040
▁준다	-6041
▁보았다	-6042
▁브라운	-6043
▁조선시대	-6044
률을	-6045
▁계통	-6046
▁데뷔하였다	-6047
▁포켓	-6048
▁한글	-6049
츠는	-6050
▁행동을	-6051
▁설치된	-6052
▁사람들을	-6053
▁보유하고	-6054
▁서울대학교	-6055
법으로	-6056
▁만들고	-6057
▁사업을	-6058
▁평안	-6059
94	-6060
▁폐쇄	-6061
뒤	-6062
하지는	-6063
▁영웅	-6064
루를	-6065
▁다소	-6066
▁인디언	-6067
▁긍	-6068
었지만	-6069
론에	-6070
▁시인	-6071
▁여객철도	-6072
▁교향	-6073
으로서의	-6074
에선	-6075
▁재건	-6076
▁1959	-6077
▁그로	-6078
타의	-6079
▁리버	-6080
타로	-6081
▁다수	-6082
▁포항	-6083
▁천주교	-6084
▁스트리	-6085
▁다음의	-6086
▁단위	-6087
족이	-6088
▁와이	-6089
▁카드	-6090
데르	-6091
▁패러	-6092
▁남겨	-6093
베스	-6094
시장	-6095
▁헝가리	-6096
▁관련이	-6097
▁곽	-6098
▁탈퇴	-6099
▁효과를	-6100
▁반란을	-6101
첸	-6102
▁이혼	-6103
되었다고	-6104
▁대회에	-6105
생물	-6106
▁사망한	-6107
릿	-6108
▁꼽	-6109
▁상을	-6110
▁변형	-6111
▁가게	-6112
▁학살	-6113
▁앞에서	-6114
ᆯ의	-6115
▁커뮤니	-6116
▁관여	-6117
▁단계	-6118
▁여겨진다	-6119
파가	-6120
▁총선	-6121
▁원소	-6122
보고	-6123
▁시상	-6124
▁동해	-6125
▁유한	-6126
▁맡은	-6127
▁지도자	-6128
▁참여했다	-6129
▁법정	-6130
▁로켓	-6131
▁밀려	-6132
이었지만	-6133
▁주장한다	-6134
▁떠났다	-6135
▁시리즈의	-6136
▁콤	-6137
▁나고	-6138
▁나누어	-6139
▁랜	-6140
▁현역	-6141
IA	-6142
▁발생하는	-6143
동생	-6144
▁해야	-6145
▁정비	-6146
▁전직	-6147
쇠	-6148
ove	-6149
금이	-6150
▁중부	-6151
▁아름다운	-6152
▁데에	-6153
▁올림픽에	-6154
시험	-6155
▁64	-6156
ess	-6157
카의	-6158
▁듣고	-6159
▁들고	-6160
낭	-6161
주의적	-6162
▁참가했다	-6163
가시	-6164
하므로	-6165
▁아이돌	-6166
▁운영하고	-6167
if	-6168
▁소련의	-6169
이스	-6170
▁팽	-6171
▁일시	-6172
▁대부분이	-6173
▁존재하지	-6174
스트라	-6175
▁시스템을	-6176
▁행위	-6177
▁공화국의	-6178
▁앵	-6179
▁영업	-6180
이로	-6181
▁한국어	-6182
별로	-6183
▁행렬	-6184
▁박정희	-6185
정치	-6186
▁시나	-6187
▁프로이센	-6188
;,	-6189
▁노스	-6190
▁정치인이다	-6191
▁도시의	-6192
한의	-6193
ub	-6194
▁160	-6195
점의	-6196
제에서	-6197
▁개신교	-6198
▁추구	-6199
▁프랑크	-6200
▁공사	-6201
혁명	-6202
▁1942	-6203
VD	-6204
▁스테이	-6205
▁개설	-6206
▁테스트	-6207
▁닛	-6208
▁세력을	-6209
▁지금은	-6210
-19	-6211
▁바이에른	-6212
▁단지	-6213
▁더블	-6214
▁음반은	-6215
▁소방	-6216
▁부친	-6217
▁뮤지컬	-6218
▁일커	-6219
▁프로토	-6220
로그	-6221
▁개조	-6222
▁일어났다	-6223
▁파트	-6224
▁선전	-6225
▁NH	-6226
▁일컫	-6227
▁적합	-6228
▁한나라	-6229
100	-6230
련의	-6231
▁녹색	-6232
▁돈을	-6233
▁리처드	-6234
▁미국과	-6235
▁자전	-6236
싼	-6237
렸고	-6238
▁뮌	-6239
속의	-6240
▁1943	-6241
▁시카고	-6242
묵	-6243
▁연고	-6244
▁해상	-6245
▁광복	-6246
터가	-6247
품이	-6248
▁알리	-6249
공의	-6250
▁기록은	-6251
▁에드워드	-6252
▁기다	-6253
▁루트	-6254
▁출연하였다	-6255
페르	-6256
▁곳으로	-6257
▁전까지	-6258
▁몰아	-6259
▁에르	-6260
33	-6261
▁루마	-6262
▁투쟁	-6263
에서만	-6264
▁필요가	-6265
▁노르웨이	-6266
▁사실이	-6267
▁이른다	-6268
▁홍보	-6269
ine	-6270
후에	-6271
▁겹	-6272
▁남겼다	-6273
▁1953	-6274
▁군인	-6275
▁통상	-6276
▁음반이다	-6277
▁분노	-6278
▁성공을	-6279
▁엄청난	-6280
▁역사를	-6281
▁사마	-6282
아나	-6283
▁전력	-6284
주고	-6285
▁1955	-6286
있	-6287
▁120	-6288
▁김대	-6289
루의	-6290
▁필요하다	-6291
▁동안에	-6292
▁특징이다	-6293
텍	-6294
▁발탁	-6295
▁말레이시아	-6296
▁1936	-6297
▁주간	-6298
▁내용이	-6299
▁대통령은	-6300
치지	-6301
▁궤도	-6302
▁갖추고	-6303
▁그래픽	-6304
▁해도	-6305
▁오직	-6306
키가	-6307
강에	-6308
▁현상	-6309
▁초기의	-6310
▁속해	-6311
▁끝내	-6312
▁세상을	-6313
▁승려	-6314
▁않지만	-6315
▁화성	-6316
물에	-6317
▁가이	-6318
마를	-6319
▁김성	-6320
▁자리에	-6321
▁완전한	-6322
▁못하였다	-6323
▁높다	-6324
격으로	-6325
▁신학	-6326
궤	-6327
질의	-6328
...	-6329
▁삼아	-6330
▁병합	-6331
▁나타나는	-6332
▁연예	-6333
▁정교	-6334
니스탄	-6335
▁레알	-6336
▁이끌었다	-6337
▁득표	-6338
▁잠수	-6339
부대	-6340
▁파르	-6341
키의	-6342
보호	-6343
우가	-6344
깔	-6345
▁픽	-6346
▁개칭	-6347
남도의	-6348
공산	-6349
시스코	-6350
판은	-6351
▁프랭	-6352
78	-6353
▁생긴	-6354
▁화이트	-6355
EC	-6356
▁재개	-6357
우드	-6358
▁민법	-6359
▁이로써	-6360
▁웅	-6361
범위	-6362
▁1910	-6363
▁일어나는	-6364
▁임의의	-6365
▁있었다고	-6366
▁조선총독	-6367
▁39	-6368
즈가	-6369
헤이	-6370
▁카운티	-6371
ue	-6372
▁넓이는	-6373
▁프리드리	-6374
▁선수단	-6375
▁남아프리카	-6376
="	-6377
륨	-6378
▁달려	-6379
토는	-6380
▁전부	-6381
▁있었기	-6382
▁시사	-6383
▁못하는	-6384
▁크기	-6385
▁참가한	-6386
▁보스	-6387
▁문을	-6388
▁사용하였다	-6389
계획	-6390
▁희망	-6391
▁AT	-6392
▁여섯	-6393
▁무게	-6394
▁눈에	-6395
▁불렸다	-6396
▁천안	-6397
중학교는	-6398
베리	-6399
▁전면	-6400
바일	-6401
ive	-6402
▁살인	-6403
▁빌보드	-6404
▁남쪽으로	-6405
코스	-6406
▁도전	-6407
▁설득	-6408
▁나타났다	-6409
▁보여준다	-6410
문제	-6411
▁왕이	-6412
▁오프	-6413
차전	-6414
▁뛰어나	-6415
대장	-6416
▁맞추	-6417
65	-6418
▁1957	-6419
▁속의	-6420
▁비례	-6421
왕을	-6422
인에게	-6423
▁스타디	-6424
▁굳	-6425
▁주장을	-6426
▁대통령의	-6427
▁수요	-6428
▁위로	-6429
▁루이스	-6430
▁Th	-6431
게이	-6432
파로	-6433
담을	-6434
관에서	-6435
직에	-6436
▁패션	-6437
▁액션	-6438
▁텍사스	-6439
▁스티븐	-6440
코의	-6441
자동차	-6442
▁영화배우이다	-6443
▁사우스	-6444
▁대체로	-6445
▁사용했다	-6446
서와	-6447
ᅯᆻ다	-6448
▁구입	-6449
▁세계적으로	-6450
▁65	-6451
에만	-6452
평균	-6453
▁힌	-6454
▁히틀러	-6455
▁논문	-6456
▁들어갔다	-6457
▁원주민	-6458
여래	-6459
▁경남	-6460
▁얻을	-6461
▁부분이	-6462
▁창작	-6463
▁한일	-6464
족은	-6465
▁바둑	-6466
▁신체	-6467
▁전쟁에	-6468
▁SS	-6469
지마	-6470
거래	-6471
▁구매	-6472
▁초에	-6473
▁태국	-6474
클리	-6475
▁돌려	-6476
▁지지를	-6477
▁깃	-6478
▁인용	-6479
▁도시이다	-6480
▁이후에도	-6481
▁석유	-6482
▁대장	-6483
▁이전에는	-6484
탐	-6485
남의	-6486
▁시드	-6487
▁심리	-6488
▁전쟁에서	-6489
▁1914	-6490
▁사건은	-6491
낙	-6492
▁끌어	-6493
▁수상하였다	-6494
▁징역	-6495
▁즉시	-6496
▁아들인	-6497
▁명나라	-6498
▁밴	-6499
행성	-6500
▁비상	-6501
▁보건	-6502
▁전동차	-6503
▁타임	-6504
▁일부가	-6505
제도	-6506
▁양의	-6507
▁동방	-6508
▁집권	-6509
힐	-6510
▁파워	-6511
▁곳이다	-6512
▁이름이다	-6513
BM	-6514
롭게	-6515
▁쿠데	-6516
종합	-6517
▁분해	-6518
▁선출되었다	-6519
▁뻐	-6520
▁터널	-6521
▁로마의	-6522
▁핑	-6523
소설	-6524
감독	-6525
▁조지아	-6526
▁초기에	-6527
▁기록되어	-6528
율이	-6529
▁책임을	-6530
▁샘	-6531
▁타이거	-6532
▁후쿠오카	-6533
꾼	-6534
▁공중	-6535
년부터는	-6536
백만	-6537
학자들은	-6538
▁츠	-6539
호에	-6540
▁어머니는	-6541
되어야	-6542
▁명령을	-6543
쿠스	-6544
▁되는데	-6545
▁수의	-6546
독립	-6547
▁일정한	-6548
장애	-6549
▁방식을	-6550
▁메이지	-6551
▁바르셀로	-6552
산과	-6553
▁소멸	-6554
▁의학	-6555
만으로	-6556
▁지속적으로	-6557
▁동북	-6558
▁닫	-6559
▁김종	-6560
▁올림픽에서	-6561
▁기소	-6562
▁알고리즈	-6563
▁무사	-6564
학자이다	-6565
▁미쓰	-6566
▁섬의	-6567
학교를	-6568
▁드래프트	-6569
▁유고	-6570
▁호소	-6571
▁긍정	-6572
▁왕의	-6573
IN	-6574
▁1938	-6575
▁이상이	-6576
▁파크	-6577
▁정체	-6578
▁빚	-6579
▁디스	-6580
▁임무	-6581
▁강릉	-6582
89	-6583
레인	-6584
목을	-6585
▁정권	-6586
▁포스트	-6587
미술	-6588
▁개체	-6589
틸	-6590
▁분야에서	-6591
년도	-6592
▁전쟁의	-6593
▁비롯하여	-6594
▁작품이	-6595
▁선임	-6596
▁북쪽으로	-6597
ᅨᆫ	-6598
공을	-6599
실이	-6600
▁지니고	-6601
▁말하는	-6602
▁만든다	-6603
▁번호는	-6604
▁전북	-6605
▁운영하는	-6606
▁항의	-6607
▁큐	-6608
전투	-6609
처를	-6610
▁추가로	-6611
과대학	-6612
궐	-6613
▁연습	-6614
▁종사	-6615
▁나온다	-6616
영을	-6617
▁표면	-6618
▁출전하여	-6619
▁1900	-6620
▁기록하며	-6621
▁IC	-6622
하시	-6623
사이다	-6624
▁동양	-6625
▁다음날	-6626
▁투어	-6627
▁부분은	-6628
▁복원	-6629
▁아리	-6630
▁리드	-6631
▁글로벌	-6632
었다고	-6633
▁전송	-6634
▁농구	-6635
▁여러가지	-6636
▁외국인	-6637
딕	-6638
▁탐사	-6639
▁발언	-6640
▁장수	-6641
청은	-6642
▁자이언	-6643
타마	-6644
중을	-6645
▁똑	-6646
본부	-6647
▁권력을	-6648
▁상황을	-6649
▁부진	-6650
▁47	-6651
▁화려	-6652
▁해발	-6653
활동을	-6654
▁이들이	-6655
▁가치	-6656
▁크다	-6657
▁책을	-6658
▁게다가	-6659
받는	-6660
▁롱	-6661
▁아래와	-6662
▁순간	-6663
▁지구의	-6664
▁유효	-6665
평을	-6666
라와	-6667
▁재학	-6668
▁청주	-6669
느냐	-6670
▁이르렀다	-6671
▁칼리	-6672
▁향토	-6673
▁연간	-6674
▁작동	-6675
▁포켓몬	-6676
▁수석	-6677
톡	-6678
▁1951	-6679
▁복무	-6680
▁퀴	-6681
▁공주	-6682
▁접한다	-6683
가인	-6684
베리아	-6685
▁게임을	-6686
▁벌어진	-6687
였지만	-6688
▁위치를	-6689
즈를	-6690
▁대다	-6691
▁1932	-6692
▁추기	-6693
너스	-6694
all	-6695
중한	-6696
▁방해	-6697
pe	-6698
▁그것이	-6699
했다가	-6700
▁1918	-6701
▁밝혀졌다	-6702
▁46	-6703
▁줄어들	-6704
▁받아들이	-6705
터의	-6706
▁율	-6707
▁서구	-6708
▁방지	-6709
환으로	-6710
팬	-6711
▁권력	-6712
▁AP	-6713
▁따서	-6714
▁형식으로	-6715
우스의	-6716
▁디스크	-6717
▁힙	-6718
▁상태에서	-6719
▁대한민국에서	-6720
보이	-6721
▁협회	-6722
되지만	-6723
▁물을	-6724
▁아오	-6725
▁없게	-6726
츠의	-6727
▁문제에	-6728
▁연결되어	-6729
라며	-6730
▁화산	-6731
▁만한	-6732
▁완벽	-6733
▁올스타	-6734
▁1937	-6735
만한	-6736
▁근처에	-6737
▁비트	-6738
▁대의	-6739
▁강등	-6740
달러	-6741
44	-6742
잠	-6743
슬링	-6744
▁차지하고	-6745
동물	-6746
▁멘	-6747
사전	-6748
▁사퇴	-6749
▁여성의	-6750
▁유학	-6751
▁없을	-6752
▁전남	-6753
97	-6754
▁윗	-6755
▁미국은	-6756
▁측면	-6757
▁복잡한	-6758
▁44	-6759
역과	-6760
우를	-6761
분으로	-6762
▁아메리칸	-6763
비시	-6764
호와	-6765
▁옷	-6766
쥐는	-6767
▁이루는	-6768
▁서술	-6769
▁봐	-6770
▁순위	-6771
▁침략	-6772
품으로	-6773
ore	-6774
▁히트	-6775
▁상속	-6776
듯이	-6777
▁선포	-6778
▁토론토	-6779
▁광범위	-6780
▁갑자기	-6781
▁HD	-6782
▁란	-6783
our	-6784
▁1935	-6785
▁팔레	-6786
▁특성	-6787
▁사용자	-6788
특별자치	-6789
로와	-6790
▁도덕	-6791
▁만다	-6792
모가	-6793
▁발간	-6794
▁그곳에서	-6795
▁대량	-6796
▁조카	-6797
펠	-6798
▁듯	-6799
월의	-6800
▁달하는	-6801
씨를	-6802
▁유치	-6803
▁개별	-6804
마가	-6805
더스	-6806
▁드래	-6807
크래프트	-6808
▁히로시마	-6809
▁본질	-6810
▁포트	-6811
▁넣어	-6812
▁프리드리히	-6813
비히	-6814
▁갖는다	-6815
▁침입	-6816
▁당시에	-6817
▁소식을	-6818
▁화합	-6819
▁오페라	-6820
▁검토	-6821
▁내세	-6822
계약	-6823
ᆯ리스	-6824
▁배포	-6825
▁카라	-6826
유가	-6827
▁조건을	-6828
열을	-6829
▁그라	-6830
▁방법은	-6831
▁확산	-6832
다란	-6833
중인	-6834
▁말이	-6835
▁캠퍼	-6836
▁뮌헨	-6837
▁최우수	-6838
▁않으면	-6839
▁영국에서	-6840
▁중학교이다	-6841
▁등장인	-6842
3,	-6843
▁수리	-6844
셈	-6845
▁세부	-6846
발을	-6847
▁꾸준	-6848
군에서	-6849
되게	-6850
▁엘리자	-6851
▁명단	-6852
집을	-6853
강을	-6854
▁덧붙	-6855
▁태양의	-6856
▁역임하였다	-6857
▁토지	-6858
▁한자	-6859
어버	-6860
주의자	-6861
▁의식	-6862
87	-6863
맞	-6864
▁스프링	-6865
▁올라가	-6866
▁갈색	-6867
ID	-6868
양이	-6869
▁유배	-6870
스팅	-6871
▁열차가	-6872
▁크루	-6873
▁암호	-6874
률은	-6875
천만	-6876
스틱	-6877
▁그리하여	-6878
목에	-6879
▁폭탄	-6880
▁서쪽으로	-6881
장관	-6882
▁필수	-6883
▁고위	-6884
▁개념을	-6885
▁분기	-6886
▁일은	-6887
▁전투를	-6888
▁단어	-6889
너는	-6890
▁주기	-6891
▁칠레	-6892
▁왕조의	-6893
▁추방	-6894
▁마무리	-6895
▁아버지의	-6896
▁쌀	-6897
공간	-6898
슬로	-6899
▁문제는	-6900
▁위에서	-6901
해와	-6902
다의	-6903
환을	-6904
▁이라크	-6905
▁하기도	-6906
▁격파	-6907
▁이온	-6908
▁동쪽으로	-6909
▁개국	-6910
▁후인	-6911
감이	-6912
▁직원	-6913
▁대상이	-6914
졸	-6915
가락	-6916
파와	-6917
▁화장	-6918
▁원인이	-6919
▁1933	-6920
▁양쪽	-6921
▁대표로	-6922
▁상실	-6923
▁성경	-6924
법인	-6925
▁직전	-6926
▁참여한	-6927
롭	-6928
나카	-6929
제르	-6930
▁멜	-6931
렬한	-6932
형에	-6933
▁오카	-6934
▁일으켰다	-6935
▁결의	-6936
▁이른바	-6937
눈	-6938
학에	-6939
▁기병	-6940
ell	-6941
▁수소	-6942
▁인도의	-6943
▁사건으로	-6944
▁특징을	-6945
▁텐	-6946
▁보물	-6947
▁십자	-6948
브레	-6949
친다	-6950
ul	-6951
▁1928	-6952
▁의심	-6953
관광	-6954
▁명칭을	-6955
뱀	-6956
▁장비	-6957
▁사랑을	-6958
▁업무를	-6959
IC	-6960
▁무엇	-6961
본을	-6962
▁장소	-6963
▁인천광역시	-6964
항은	-6965
▁최대의	-6966
▁상관	-6967
크스	-6968
일리	-6969
▁위키	-6970
▁수십	-6971
▁단순한	-6972
브로	-6973
▁입고	-6974
바는	-6975
▁이명	-6976
마에	-6977
▁커버	-6978
비아의	-6979
▁가까이	-6980
야는	-6981
▁상대식	-6982
▁포함하는	-6983
▁42	-6984
▁1924	-6985
미아	-6986
연대	-6987
▁사람들에게	-6988
▁하나가	-6989
▁CP	-6990
▁신도	-6991
▁개방	-6992
▁독립을	-6993
비트	-6994
신문	-6995
▁셔	-6996
노는	-6997
▁체육	-6998
▁현지	-6999
▁아래에	-7000
▁별도의	-7001
▁하여금	-7002
▁내놓	-7003
▁능력	-7004
▁밝은	-7005
▁머물러	-7006
서양	-7007
▁계속해서	-7008
▁스케	-7009
▁핫	-7010
코프	-7011
즈니	-7012
▁이어져	-7013
▁사람으로	-7014
▁마틴	-7015
▁걸리	-7016
▁권리를	-7017
▁사전	-7018
▁프라이	-7019
조건	-7020
신인	-7021
하여야	-7022
▁산화	-7023
▁충분히	-7024
▁닥터	-7025
▁스탠	-7026
▁모바일	-7027
▁의미하는	-7028
시스테	-7029
▁성직	-7030
지아	-7031
▁DVD	-7032
▁덜	-7033
▁클라	-7034
▁나라의	-7035
▁만들어져	-7036
▁우수	-7037
하기를	-7038
▁튜	-7039
▁고객	-7040
▁오키	-7041
▁보편	-7042
▁유나이티드	-7043
▁출신이다	-7044
투아	-7045
▁웨일	-7046
목으로	-7047
▁개인의	-7048
되거나	-7049
▁전문가	-7050
짝	-7051
ain	-7052
▁놀라	-7053
▁분자	-7054
ill	-7055
▁오다	-7056
▁4,	-7057
▁준우승	-7058
▁몸을	-7059
▁노선을	-7060
▁겉	-7061
아서	-7062
▁제도를	-7063
▁본격적으로	-7064
▁재임	-7065
▁가상	-7066
▁포함된다	-7067
▁내가	-7068
▁재능	-7069
▁흑인	-7070
했었다	-7071
▁탄압	-7072
▁출연했다	-7073
▁작사	-7074
▁걸친	-7075
▁역에서	-7076
▁임무를	-7077
령의	-7078
▁자원	-7079
-10	-7080
▁쾌	-7081
▁멈	-7082
과정	-7083
▁소프트웨	-7084
▁교류	-7085
▁중추	-7086
▁반응을	-7087
▁이어지는	-7088
▁밥	-7089
기인	-7090
▁놓여	-7091
▁기본적으로	-7092
ᆯ렌	-7093
▁선박	-7094
▁56	-7095
금의	-7096
▁골드	-7097
▁로렌	-7098
AM	-7099
이상	-7100
▁고종	-7101
▁토착	-7102
▁성남	-7103
노스	-7104
▁맛	-7105
▁사회의	-7106
▁이즈	-7107
▁회장	-7108
▁입력	-7109
▁상태를	-7110
▁억제	-7111
▁연료	-7112
▁뻗	-7113
모는	-7114
▁그들을	-7115
민의	-7116
▁가벼	-7117
▁북아메리카	-7118
▁손을	-7119
▁성향	-7120
유를	-7121
▁삶을	-7122
실로	-7123
▁재생	-7124
▁지불	-7125
▁역사가	-7126
88	-7127
▁Be	-7128
▁무대	-7129
키퍼	-7130
재로	-7131
결승	-7132
안전	-7133
▁좋지	-7134
▁함경	-7135
▁위원회	-7136
▁했는데	-7137
속은	-7138
▁도서관	-7139
이치	-7140
린의	-7141
▁뛰고	-7142
▁메모리	-7143
▁행복	-7144
▁그렇다면	-7145
▁카운티는	-7146
-6	-7147
▁돌아온	-7148
▁마음을	-7149
층에	-7150
93	-7151
고리	-7152
The	-7153
▁미리	-7154
▁하인	-7155
카르	-7156
▁트라	-7157
▁드물	-7158
군에게	-7159
▁Al	-7160
우라	-7161
달리	-7162
▁영구	-7163
텔레	-7164
▁나뉘어	-7165
43	-7166
▁클리	-7167
나르	-7168
▁조선시대의	-7169
AN	-7170
▁단순히	-7171
▁모토	-7172
▁풋	-7173
▁상주	-7174
▁정부에	-7175
▁한성	-7176
파이	-7177
▁인기가	-7178
ard	-7179
하를	-7180
▁영화의	-7181
▁있으므로	-7182
▁사찰	-7183
▁체제	-7184
계와	-7185
▁앞으로	-7186
▁리그의	-7187
로에	-7188
▁지향	-7189
가능	-7190
▁개찰	-7191
▁가난	-7192
▁차단	-7193
당으로	-7194
해에	-7195
▁가수이다	-7196
ers	-7197
▁예산	-7198
▁양산	-7199
▁대부분을	-7200
▁이상을	-7201
와이	-7202
▁집에	-7203
주의는	-7204
국과	-7205
▁멀티	-7206
▁검색	-7207
▁{	-7208
▁신의	-7209
▁이재	-7210
end	-7211
▁스탈	-7212
▁프로그래밍	-7213
▁느껴	-7214
▁철거	-7215
▁\	-7216
▁수술	-7217
차의	-7218
프란	-7219
중이다	-7220
▁아버지가	-7221
프라	-7222
▁1934	-7223
▁가설	-7224
▁우리는	-7225
▁일련의	-7226
▁넷	-7227
▁밀라	-7228
▁용인	-7229
▁경기가	-7230
▁위상	-7231
▁아이디	-7232
▁보여주는	-7233
▁이외에도	-7234
▁도서	-7235
▁벼슬	-7236
OR	-7237
▁돕	-7238
▁거느	-7239
▁발음	-7240
▁원시	-7241
프가니스탄	-7242
▁이적하였다	-7243
▁되기	-7244
▁서서	-7245
▁사가	-7246
석탑	-7247
▁남녀	-7248
▁콘텐츠	-7249
▁부동	-7250
▁입장	-7251
크와	-7252
▁웃	-7253
비디오	-7254
인인	-7255
드리아	-7256
▁열매	-7257
로서는	-7258
나를	-7259
▁유통	-7260
▁입법	-7261
금은	-7262
▁생태	-7263
▁교회의	-7264
어야	-7265
▁최근에는	-7266
▁기상	-7267
▁파키스탄	-7268
▁환승	-7269
▁웹사이트	-7270
▁목수	-7271
▁덩	-7272
▁골키퍼	-7273
▁보이지	-7274
▁초청	-7275
▁콜롬	-7276
찾	-7277
▁그녀가	-7278
▁아틀	-7279
앵	-7280
42	-7281
▁순환	-7282
▁경향이	-7283
▁에피소드	-7284
▁이벤	-7285
▁비판을	-7286
▁지리	-7287
▁비잔	-7288
▁아동	-7289
▁실천	-7290
▁인구의	-7291
오로	-7292
▁자랑	-7293
▁라이트	-7294
ᆷ에서	-7295
▁마주	-7296
▁구멍	-7297
▁현존	-7298
바의	-7299
미사	-7300
지면	-7301
▁보스턴	-7302
▁주력	-7303
41	-7304
▁코치	-7305
노의	-7306
▁지중	-7307
▁명으로	-7308
▁배경으로	-7309
침을	-7310
았고	-7311
이닝	-7312
▁멜로	-7313
힌다	-7314
▁퓨	-7315
▁주에	-7316
▁블록	-7317
▁자가	-7318
▁남극	-7319
▁장르	-7320
▁이용할	-7321
▁대대	-7322
▁말로	-7323
▁시작했고	-7324
문이다	-7325
▁요코하마	-7326
▁유튜	-7327
공신	-7328
▁대동	-7329
▁노동자	-7330
포스	-7331
원숭	-7332
▁성공했다	-7333
▁개척	-7334
▁미국으로	-7335
▁포함되었다	-7336
드르	-7337
환경	-7338
▁꼬리	-7339
용을	-7340
하기에	-7341
▁발레	-7342
▁이외의	-7343
▁마드리드	-7344
▁말해	-7345
▁공산당	-7346
▁백제	-7347
▁De	-7348
다시	-7349
▁신화	-7350
ᆲ은	-7351
▁빌리	-7352
▁매주	-7353
▁바닥	-7354
드라마	-7355
▁주장하는	-7356
페이스	-7357
▁언덕	-7358
기지	-7359
▁매장	-7360
▁일종의	-7361
피스	-7362
보통	-7363
▁드라마이다	-7364
▁편의	-7365
▁게임의	-7366
▁박물관	-7367
쾌	-7368
▁r	-7369
타가	-7370
▁본다	-7371
▁홋카이도	-7372
보로	-7373
▁안토니	-7374
대문	-7375
지니아	-7376
▁사건의	-7377
▁일상	-7378
▁바이러스	-7379
▁사람들	-7380
▁열리는	-7381
▁상호작용	-7382
왕후	-7383
▁타격	-7384
▁소속의	-7385
▁Me	-7386
성에서	-7387
▁주거	-7388
▁병원	-7389
▁복음	-7390
▁진학	-7391
_7	-7392
▁펑	-7393
▁고급	-7394
▁정식으로	-7395
이게	-7396
팀이	-7397
▁대학교의	-7398
▁가마	-7399
▁교차	-7400
▁올림	-7401
▁수호	-7402
▁오버	-7403
▁입은	-7404
▁특별히	-7405
▁x	-7406
▁공장	-7407
▁그려져	-7408
용의	-7409
▁대법	-7410
▁들어와	-7411
▁혼자	-7412
▁질량	-7413
▁우에	-7414
▁주된	-7415
▁할아버	-7416
▁죽음을	-7417
타카	-7418
▁벌어	-7419
▁원래는	-7420
하라는	-7421
▁그리스의	-7422
▁크로아티아	-7423
ᆻ는지	-7424
▁수를	-7425
▁전화	-7426
▁혈액	-7427
▁맨체스터	-7428
플로	-7429
▁여르	-7430
▁마감	-7431
▁싱어	-7432
▁도쿠가와	-7433
돌이	-7434
법과	-7435
슨이	-7436
▁보르	-7437
사지	-7438
▁뚜려	-7439
▁호주	-7440
오가	-7441
년경	-7442
▁위대한	-7443
겔	-7444
니와	-7445
▁경북	-7446
토미	-7447
▁담고	-7448
▁힙합	-7449
중이	-7450
▁알렉산더	-7451
55	-7452
▁카페	-7453
▁올해의	-7454
▁오는	-7455
ᅪᆫ	-7456
▁새끼	-7457
▁비공	-7458
▁청구	-7459
판에	-7460
▁1931	-7461
▁모터	-7462
▁가치를	-7463
▁감시	-7464
▁낸	-7465
▁롤	-7466
▁물려	-7467
▁오이	-7468
▁싱가포르	-7469
살레	-7470
기이다	-7471
▁걸려	-7472
▁세계대전	-7473
마리	-7474
절을	-7475
▁가속	-7476
▁속도	-7477
▁진격	-7478
콥	-7479
▁OS	-7480
령으로	-7481
ang	-7482
길이	-7483
▁나고야	-7484
▁들면	-7485
▁아티스트	-7486
파에	-7487
▁대학의	-7488
▁랑	-7489
전자	-7490
▁기도	-7491
▁베어	-7492
방향	-7493
함은	-7494
▁선호	-7495
▁위치에	-7496
▁끝으로	-7497
잉	-7498
▁다큐	-7499
▁시가	-7500
▁개량	-7501
▁대원	-7502
▁그러므로	-7503
▁까지	-7504
▁지칭	-7505
▁데이터를	-7506
▁이익	-7507
49	-7508
올리	-7509
▁신고	-7510
▁공개되었다	-7511
▁동서	-7512
▁생애	-7513
▁43	-7514
란색	-7515
▁백성	-7516
펴	-7517
▁강요	-7518
▁북미	-7519
▁필립	-7520
▁초기에는	-7521
모의	-7522
무네	-7523
▁개명	-7524
▁붙어	-7525
▁사다	-7526
자이자	-7527
다이라	-7528
▁산하	-7529
▁부르기도	-7530
▁MS	-7531
▁화가	-7532
▁3.	-7533
작으로	-7534
대부	-7535
▁대화	-7536
▁수도권	-7537
인가	-7538
행이	-7539
앨	-7540
팽	-7541
니에	-7542
치기	-7543
필드	-7544
▁영토를	-7545
▁톱	-7546
비와	-7547
▁변호사	-7548
웰	-7549
▁크라	-7550
▁유력	-7551
▁이어서	-7552
▁타워	-7553
▁아프가니스탄	-7554
IS	-7555
듯	-7556
▁구사	-7557
식에서	-7558
사랑	-7559
▁적극적으로	-7560
스톤	-7561
▁소집	-7562
▁상품	-7563
천의	-7564
등급	-7565
발전	-7566
쩌	-7567
체인	-7568
▁멸종	-7569
▁영향으로	-7570
현을	-7571
▁방송을	-7572
팡	-7573
▁1929	-7574
▁사도	-7575
▁곱	-7576
▁부드	-7577
▁거짓	-7578
▁연평균	-7579
▁홈런을	-7580
면과	-7581
▁의정부	-7582
운동을	-7583
▁발표된	-7584
▁1921	-7585
▁소스	-7586
▁갖게	-7587
대신	-7588
▁용어는	-7589
눅	-7590
▁넘겨	-7591
사라	-7592
▁작품의	-7593
▁600	-7594
▁사건에	-7595
▁경기장	-7596
▁우리가	-7597
▁집을	-7598
조와	-7599
▁소화	-7600
▁쓰러	-7601
에서부터	-7602
▁고리	-7603
▁게임이다	-7604
▁맞춰	-7605
▁메탈	-7606
▁콘스탄티노	-7607
비행	-7608
▁예방	-7609
연의	-7610
▁1925	-7611
▁치렀다	-7612
홈	-7613
배를	-7614
▁권리	-7615
▁뤼	-7616
▁몬테	-7617
▁사막	-7618
▁영화를	-7619
율은	-7620
호선의	-7621
▁발매한	-7622
ew	-7623
ity	-7624
▁퀘	-7625
체이다	-7626
▁몸무	-7627
▁메트로	-7628
뼈	-7629
▁부르고	-7630
▁열었다	-7631
▁성과	-7632
▁연안	-7633
▁1923	-7634
▁강하게	-7635
▁당나라	-7636
▁일원	-7637
▁기반을	-7638
▁루마니아	-7639
▁정확히	-7640
▁메달	-7641
▁근육	-7642
▁스웨덴의	-7643
라에	-7644
결을	-7645
▁명시	-7646
주군	-7647
▁후퇴	-7648
▁강을	-7649
▁남아메리카	-7650
-7	-7651
버드	-7652
▁주재	-7653
▁말라	-7654
▁또다른	-7655
▁발표되었다	-7656
▁젠	-7657
▁집안	-7658
▁쿼	-7659
가스	-7660
▁중성	-7661
켈	-7662
▁트위	-7663
▁공원	-7664
▁이론을	-7665
▁맺고	-7666
▁안내	-7667
▁축소	-7668
▁일단	-7669
편의	-7670
훈련	-7671
▁새벽	-7672
면서도	-7673
▁처음에	-7674
됨에	-7675
▁김해	-7676
▁부속	-7677
하에서	-7678
▁종이	-7679
▁빅토리아	-7680
상이다	-7681
▁레지	-7682
▁커다란	-7683
▁웨이	-7684
▁옮겼다	-7685
넬	-7686
▁자매	-7687
▁제후	-7688
▁공기	-7689
▁대변	-7690
큰	-7691
▁약탈	-7692
▁이끌어	-7693
▁막기	-7694
▁훌륭	-7695
▁후에도	-7696
점과	-7697
▁영양	-7698
▁하느	-7699
즈와	-7700
▁그만	-7701
▁정통	-7702
▁수준의	-7703
▁리그에서	-7704
odice	-7705
▁개장	-7706
▁첫째	-7707
▁목포	-7708
▁보험	-7709
▁해협	-7710
▁상태가	-7711
▁뼈	-7712
▁혼인	-7713
▁기여했다	-7714
라면	-7715
▁벨라	-7716
▁허리	-7717
곡은	-7718
▁행위를	-7719
보다도	-7720
물과	-7721
▁군대	-7722
▁세리에	-7723
te	-7724
플러	-7725
▁게르	-7726
▁시모	-7727
▁강남	-7728
▁불가리아	-7729
▁소리	-7730
▁방송된	-7731
문과	-7732
▁적도	-7733
▁갈등	-7734
▁유전자	-7735
국인	-7736
년까지는	-7737
ᆺ으로	-7738
▁추산으로	-7739
▁바이러	-7740
▁사람이다	-7741
▁필라	-7742
▁많았다	-7743
▁결승전	-7744
▁카자	-7745
▁일본은	-7746
령은	-7747
청년	-7748
▁정수	-7749
▁반대하는	-7750
머리	-7751
라이터	-7752
▁참가하였다	-7753
▁동경	-7754
▁서명	-7755
관계를	-7756
ᆷ임	-7757
▁주변의	-7758
치오	-7759
▁800	-7760
▁동굴	-7761
▁방언	-7762
▁전형적인	-7763
▁유발	-7764
위원회는	-7765
권과	-7766
▁번주	-7767
▁맺었다	-7768
어에	-7769
어에서	-7770
▁허락	-7771
경기에서	-7772
▁잠재	-7773
스트는	-7774
▁농촌	-7775
▁오케	-7776
▁곤충	-7777
▁데뷔했다	-7778
-8	-7779
▁파울	-7780
▁국정	-7781
▁꿈	-7782
▁논리	-7783
▁군사를	-7784
▁170	-7785
건의	-7786
희는	-7787
▁북극	-7788
▁정치인	-7789
▁소요	-7790
주의와	-7791
▁발휘	-7792
▁도쿄도	-7793
▁미국에	-7794
▁플로리다	-7795
▁펴	-7796
▁동반	-7797
쁜	-7798
▁승부	-7799
한다면	-7800
층석탑	-7801
▁입단하였다	-7802
▁1,000	-7803
▁사이트	-7804
▁인상	-7805
▁아베	-7806
▁실내	-7807
▁하던	-7808
▁심지어	-7809
▁가고	-7810
▁대칭	-7811
▁폭력	-7812
▁상황에	-7813
프와	-7814
▁판타	-7815
▁인터뷰에서	-7816
그리	-7817
티스	-7818
▁않기	-7819
▁감독은	-7820
콕	-7821
청의	-7822
▁착용	-7823
▁발전을	-7824
ᆺ과	-7825
대원	-7826
▁보이고	-7827
▁)	-7828
▁영원	-7829
▁나타난	-7830
▁스크린	-7831
67	-7832
▁재료	-7833
▁트레	-7834
▁다이묘	-7835
▁건물은	-7836
▁좁은	-7837
실에서	-7838
살이	-7839
▁트럼	-7840
▁회사의	-7841
AC	-7842
수도	-7843
▁증언	-7844
근혜	-7845
단에서	-7846
▁발렌	-7847
▁영향력을	-7848
▁지었다	-7849
▁서울시	-7850
▁미국인	-7851
▁비틀	-7852
▁관객	-7853
▁안양	-7854
▁가시	-7855
▁주제	-7856
▁밀리	-7857
▁전체를	-7858
▁구성하는	-7859
▁기하	-7860
▁할리	-7861
▁되기도	-7862
▁구성원	-7863
교도	-7864
▁명칭으로	-7865
ip	-7866
▁압도	-7867
소수	-7868
▁늑	-7869
▁되돌	-7870
▁대표팀	-7871
녹	-7872
로써	-7873
▁레인	-7874
▁민중	-7875
▁시조	-7876
▁허가	-7877
▁관해	-7878
▁관계에	-7879
도니아	-7880
민은	-7881
자나	-7882
시대에	-7883
▁베네치아	-7884
▁구성된다	-7885
오고	-7886
▁힘들	-7887
밀한	-7888
그레	-7889
▁않았지만	-7890
91	-7891
▁1922	-7892
▁특허	-7893
대사	-7894
▁론	-7895
▁옵	-7896
해는	-7897
▁1912	-7898
▁유적	-7899
▁이은	-7900
▁촉진	-7901
▁콘서트	-7902
▁돌아왔다	-7903
잎	-7904
▁교사	-7905
▁땅을	-7906
▁클라우	-7907
▁세계를	-7908
ong	-7909
▁41	-7910
▁황제의	-7911
▁브로	-7912
▁메리	-7913
▁플루	-7914
당하고	-7915
문으로	-7916
▁나이에	-7917
▁일곱	-7918
카드	-7919
당에서	-7920
▁주목을	-7921
▁본선에	-7922
삭	-7923
나마	-7924
▁고안	-7925
케이팅	-7926
▁동성애	-7927
▁소형	-7928
▁이미지	-7929
류에	-7930
▁원년	-7931
▁관계는	-7932
▁EP	-7933
▁시게	-7934
까지도	-7935
토가	-7936
▁도메	-7937
▁토너	-7938
▁클로	-7939
▁만들기	-7940
▁차트에서	-7941
.'	-7942
차에	-7943
▁부상으로	-7944
현이	-7945
각형	-7946
▁독재	-7947
▁펠리	-7948
▁죽자	-7949
▁르네	-7950
▁선조	-7951
▁토마스	-7952
▁대회는	-7953
▁폐지되었다	-7954
보기	-7955
즈키	-7956
▁스톤	-7957
▁무릎	-7958
▁교수로	-7959
▁획득했다	-7960
▁유대인	-7961
말로	-7962
▁구원	-7963
▁잡고	-7964
up	-7965
▁에너지를	-7966
낸다	-7967
보험	-7968
금으로	-7969
석으로	-7970
▁음성	-7971
대상	-7972
▁홀로	-7973
트랙	-7974
▁마법	-7975
▁소규모	-7976
올린	-7977
족을	-7978
위원회가	-7979
타와	-7980
▁시켜	-7981
▁감옥	-7982
▁러브	-7983
북도의	-7984
▁입사	-7985
합니다	-7986
▁집필	-7987
▁영광	-7988
룽	-7989
▁모습이	-7990
ld	-7991
주년	-7992
▁거리에	-7993
▁운동에	-7994
▁준결승	-7995
본은	-7996
▁유용	-7997
▁재산	-7998
▁블라디	-7999
▁이었다	-8000
▁설립한	-8001
▁현상을	-8002
ction	-8003
68	-8004
▁해설	-8005
ED	-8006
토를	-8007
▁윤치	-8008
▁비롯해	-8009
▁세력이	-8010
오리	-8011
우에	-8012
▁삽입	-8013
▁정도이다	-8014
▁de	-8015
나게	-8016
▁발생하였다	-8017
OM	-8018
▁이어졌다	-8019
▁Se	-8020
꼬리	-8021
▁고고	-8022
▁되었는데	-8023
되던	-8024
부장	-8025
▁극복	-8026
▁다루는	-8027
략을	-8028
▁서방	-8029
▁1908	-8030
세기의	-8031
▁원하는	-8032
땅	-8033
▁AC	-8034
▁1906	-8035
▁codice	-8036
▁없지만	-8037
▁철저	-8038
▁의견을	-8039
ss	-8040
▁야스	-8041
▁담은	-8042
▁수직	-8043
▁든	-8044
▁성과를	-8045
▁포함된	-8046
▁Sh	-8047
▁규슈	-8048
디스	-8049
유로	-8050
정도	-8051
▁세월	-8052
▁문재	-8053
▁압축	-8054
하면서도	-8055
밭	-8056
▁대선	-8057
적이며	-8058
▁세워진	-8059
DP	-8060
광역시의	-8061
브를	-8062
▁받으며	-8063
▁중에서도	-8064
▁코너	-8065
고에	-8066
시스트	-8067
보의	-8068
▁영역	-8069
낼	-8070
론과	-8071
▁상태에	-8072
▁접속	-8073
▁와서	-8074
▁무산	-8075
▁손에	-8076
ind	-8077
내의	-8078
신과	-8079
▁우라	-8080
▁익스	-8081
▁토벌	-8082
▁스트라이	-8083
▁5,	-8084
▁결승전에서	-8085
▁부유	-8086
중국	-8087
▁운송	-8088
▁구로	-8089
▁이세	-8090
▁st	-8091
호쿠	-8092
총리	-8093
▁적응	-8094
▁KT	-8095
계열	-8096
▁영혼	-8097
▁성격을	-8098
니즈	-8099
영이	-8100
▁서기	-8101
▁시절에	-8102
▁엔터테인먼	-8103
▁석사	-8104
▁뮤직비디오	-8105
티에	-8106
▁센트	-8107
▁섬에	-8108
▁지나지	-8109
▁삼았다	-8110
▁1927	-8111
분은	-8112
▁성질	-8113
▁레이블	-8114
▁적어도	-8115
▁먹는다	-8116
▁추락	-8117
심의	-8118
▁그들	-8119
▁탑승	-8120
▁도움이	-8121
판의	-8122
▁매니	-8123
▁운항	-8124
▁앨런	-8125
▁수록되어	-8126
▁지원하는	-8127
▁아르메	-8128
▁뜻이다	-8129
▁끈	-8130
▁수백	-8131
▁과도	-8132
센트	-8133
▁순서	-8134
▁거리를	-8135
▁포유	-8136
▁빌딩	-8137
함으로	-8138
밥	-8139
같이	-8140
▁단선	-8141
리며	-8142
▁1907	-8143
▁지역이	-8144
▁MV	-8145
애나	-8146
▁띤	-8147
▁반면에	-8148
레나	-8149
널드	-8150
▁SC	-8151
▁지대	-8152
▁아이스	-8153
오와	-8154
▁1917	-8155
▁기부	-8156
턴은	-8157
▁곳은	-8158
▁일으킨	-8159
보병	-8160
▁그녀를	-8161
▁뷰	-8162
래의	-8163
▁빨간	-8164
▁유아	-8165
▁역의	-8166
▁동일본	-8167
ES	-8168
구조	-8169
▁발명	-8170
란다	-8171
성도	-8172
니스트	-8173
▁못해	-8174
▁그랜드	-8175
▁차지하였다	-8176
av	-8177
데스리가	-8178
▁의미가	-8179
ame	-8180
▁쇠퇴	-8181
▁주어진	-8182
▁주요한	-8183
기능	-8184
▁1926	-8185
▁퍼져	-8186
▁토머스	-8187
▁다큐멘	-8188
우고	-8189
품은	-8190
▁책은	-8191
산에서	-8192
▁갤럭시	-8193
▁대해서도	-8194
라미	-8195
▁140	-8196
▁금강	-8197
히로	-8198
▁람	-8199
▁경전	-8200
▁리이다	-8201
▁주변에	-8202
닐	-8203
▁남양	-8204
▁선형	-8205
▁모양으로	-8206
▁전한	-8207
▁57	-8208
▁조기	-8209
▁수반	-8210
▁상의	-8211
▁이행	-8212
▁모델로	-8213
▁인물로	-8214
▁들여	-8215
▁크기가	-8216
▁본명은	-8217
마저	-8218
지구	-8219
▁자체가	-8220
▁대구광역시	-8221
▁원인	-8222
ᆮ아	-8223
▁중국에서	-8224
▁심장	-8225
▁앨범을	-8226
건설	-8227
▁이하의	-8228
스파	-8229
ᅰ손	-8230
▁차지한다	-8231
▁SM	-8232
▁망원	-8233
▁전작	-8234
▁감사	-8235
▁국가가	-8236
▁기능이	-8237
▁툴	-8238
▁문신	-8239
▁이르기까지	-8240
프스	-8241
▁싫	-8242
롤라	-8243
▁발생한다	-8244
▁등도	-8245
▁졸업했다	-8246
마쓰	-8247
▁사촌	-8248
이라면	-8249
▁기본적인	-8250
령에	-8251
▁휴대	-8252
▁살았다	-8253
ok	-8254
▁95	-8255
▁의도	-8256
▁오리지	-8257
▁못하게	-8258
▁크기는	-8259
▁없었고	-8260
▁BBC	-8261
▁사로	-8262
▁종로	-8263
▁마치고	-8264
▁공간을	-8265
류로	-8266
우치	-8267
▁유키	-8268
였다고	-8269
투표	-8270
▁데려	-8271
▁화폐	-8272
콰	-8273
보가	-8274
▁석방	-8275
▁장례	-8276
▁실업	-8277
▁가쓰	-8278
노미야	-8279
ry	-8280
▁JR	-8281
류와	-8282
재는	-8283
▁단행	-8284
▁재즈	-8285
▁창간	-8286
프란시스코	-8287
ith	-8288
▁한반도	-8289
▁그랑	-8290
자였던	-8291
▁고가	-8292
▁예로	-8293
▁기동	-8294
▁자신은	-8295
기구	-8296
카미	-8297
리케이션	-8298
▁비정	-8299
▁유니버	-8300
▁현대의	-8301
▁성의	-8302
남으로	-8303
▁역사는	-8304
▁일본인	-8305
▁리눅	-8306
▁살펴	-8307
식이다	-8308
돌프	-8309
바키아	-8310
▁당사	-8311
▁박쥐	-8312
▁아무런	-8313
타나	-8314
집합	-8315
럼비아	-8316
▁박근혜	-8317
▁코스	-8318
▁소득	-8319
▁심사	-8320
▁유입	-8321
푼	-8322
▁예외	-8323
▁테오	-8324
▁꾸준히	-8325
AP	-8326
▁마그	-8327
▁모노	-8328
▁가끔	-8329
자들과	-8330
▁전술	-8331
▁1905	-8332
▁모음	-8333
▁섬식	-8334
▁전해진다	-8335
▁닉	-8336
▁계곡	-8337
▁이날	-8338
▁졸업한	-8339
▁re	-8340
통합	-8341
▁있어야	-8342
83	-8343
-15	-8344
교가	-8345
▁참가하여	-8346
▁노무	-8347
▁실시된	-8348
되었다는	-8349
ob	-8350
▁추대	-8351
토벤	-8352
▁수감	-8353
▁실수	-8354
▁이정	-8355
스티벌	-8356
▁공정	-8357
▁아래의	-8358
▁급격	-8359
▁연구는	-8360
스포	-8361
▁넥	-8362
▁이종	-8363
▁보이며	-8364
ik	-8365
▁권한을	-8366
▁법적	-8367
▁모래	-8368
▁닌텐	-8369
▁창당	-8370
▁로스앤젤레스	-8371
빨	-8372
유산	-8373
탄을	-8374
▁남해	-8375
년만에	-8376
▁동아시아	-8377
주의에	-8378
▁도중에	-8379
▁소리를	-8380
▁실제로는	-8381
▁입단했다	-8382
ff	-8383
스컵	-8384
▁배열	-8385
▁아울	-8386
▁관심이	-8387
▁전투는	-8388
▁음반을	-8389
칭은	-8390
▁독점	-8391
▁명성을	-8392
고등학교는	-8393
▁모듀	-8394
▁싸워	-8395
▁오로	-8396
▁하사	-8397
보에	-8398
건은	-8399
클린	-8400
▁세우고	-8401
였는데	-8402
레는	-8403
트릭	-8404
▁크기의	-8405
▁그리스도	-8406
름이	-8407
황후	-8408
▁가야	-8409
▁기요	-8410
나라는	-8411
▁차지하는	-8412
▁파생	-8413
▁하우스	-8414
▁흰색	-8415
▁1/	-8416
끼리	-8417
님이	-8418
하르트	-8419
▁참고	-8420
ant	-8421
▁에스파	-8422
▁변화가	-8423
▁NHK	-8424
▁이웃	-8425
▁파트너	-8426
▁불리며	-8427
▁겨우	-8428
에게도	-8429
▁라이프	-8430
▁찬성	-8431
▁대회이다	-8432
▁싱어송	-8433
lu	-8434
▁바람	-8435
▁감정	-8436
지방법원	-8437
▁지역에서는	-8438
▁예전	-8439
▁사용하지	-8440
ck	-8441
▁An	-8442
치며	-8443
▁마카	-8444
▁셋째	-8445
실에	-8446
▁마라	-8447
▁영국과	-8448
▁인증	-8449
개국	-8450
▁계층	-8451
연구소	-8452
▁향년	-8453
학회	-8454
남은	-8455
위에서	-8456
구리	-8457
▁테크	-8458
▁곧바로	-8459
▁넘어가	-8460
▁홈페이	-8461
월드	-8462
▁부처	-8463
사이드	-8464
▁사이를	-8465
▁정부를	-8466
▁먹는	-8467
▁대학에서	-8468
레이드	-8469
▁전망	-8470
▁갱	-8471
병으로	-8472
▁크리스토	-8473
▁모로	-8474
▁수밖에	-8475
81	-8476
▁걷	-8477
▁중동	-8478
▁54	-8479
▁메르	-8480
▁황태	-8481
▁회색	-8482
학과를	-8483
▁있다가	-8484
리브	-8485
▁경유	-8486
▁떼	-8487
▁불려	-8488
one	-8489
그로	-8490
편을	-8491
▁결과로	-8492
▁아들이다	-8493
카스	-8494
▁병력을	-8495
▁내는	-8496
▁최상	-8497
생활을	-8498
▁이용하는	-8499
온의	-8500
▁메가	-8501
▁라이벌	-8502
▁Love	-8503
▁무관	-8504
▁천체	-8505
▁들었다	-8506
우옌	-8507
▁브래	-8508
▁테마	-8509
▁거둔	-8510
임으로	-8511
▁브라질의	-8512
소리	-8513
족과	-8514
▁상황이	-8515
▁등장한	-8516
▁스타디움	-8517
제이	-8518
청이	-8519
▁사형	-8520
▁없었던	-8521
름은	-8522
▁면역	-8523
▁획득하였다	-8524
▁거대	-8525
▁외계	-8526
▁학사	-8527
▁감각	-8528
▁동영	-8529
iv	-8530
뚜	-8531
마뱀	-8532
▁명단에	-8533
▁버지니아	-8534
▁무리	-8535
용은	-8536
해지고	-8537
▁글리	-8538
▁방위	-8539
▁후보가	-8540
▁오늘날의	-8541
덩	-8542
▁삭제	-8543
PS	-8544
메르	-8545
활동	-8546
▁고통	-8547
▁납치	-8548
▁서북	-8549
▁배급	-8550
▁별로	-8551
▁일찍	-8552
▁샌프란시스코	-8553
▁에릭	-8554
▁도시를	-8555
ate	-8556
▁딴	-8557
▁문화적	-8558
▁되찾	-8559
▁곳을	-8560
▁레코드	-8561
▁왕립	-8562
이라며	-8563
루살레	-8564
▁효과가	-8565
▁밴드의	-8566
▁개발을	-8567
▁한국인	-8568
▁주말	-8569
▁110	-8570
qu	-8571
▁1904	-8572
▁무인	-8573
▁죽고	-8574
▁초상	-8575
▁평론	-8576
졌으며	-8577
▁주니어	-8578
▁SN	-8579
▁시를	-8580
▁행정구역이다	-8581
▁아비	-8582
▁힘이	-8583
▁광역	-8584
▁베토벤	-8585
▁빵	-8586
이즈	-8587
장군	-8588
▁의거	-8589
▁얻게	-8590
▁대표티	-8591
▁봉해졌다	-8592
_10	-8593
▁중지	-8594
▁오리지널	-8595
▁마쓰다이라	-8596
구역	-8597
병원	-8598
▁합동	-8599
▁두드	-8600
▁거친	-8601
피를	-8602
▁돌파	-8603
▁제공하고	-8604
목은	-8605
데이트	-8606
실한	-8607
▁대승	-8608
▁두려워	-8609
▁덕분에	-8610
▁브레이	-8611
클럽	-8612
▁마스터	-8613
▁풍부한	-8614
▁사과	-8615
▁지표	-8616
▁강수	-8617
▁아마추어	-8618
▁작전을	-8619
▁싱어송라이터	-8620
루미	-8621
▁이수	-8622
▁동시	-8623
▁때마다	-8624
▁교향곡	-8625
▁방법이	-8626
▁정권을	-8627
복지	-8628
▁참모	-8629
▁브라이언	-8630
꼴	-8631
▁제네	-8632
▁열려	-8633
션을	-8634
▁유인	-8635
▁붙잡	-8636
▁라이온	-8637
▁순수	-8638
화하는	-8639
▁의미로	-8640
▁특성을	-8641
든지	-8642
▁만난	-8643
▁공무원	-8644
쿼	-8645
▁마시	-8646
도서관	-8647
▁세계적인	-8648
▁매각	-8649
▁없애	-8650
IT	-8651
모니	-8652
▁짝	-8653
▁뚫	-8654
▁해병	-8655
자였다	-8656
▁약간의	-8657
니까	-8658
▁긴급	-8659
▁옛날	-8660
▁종교적	-8661
진흥	-8662
▁크로스	-8663
▁바람에	-8664
▁접하고	-8665
▁되었다고	-8666
▁지정되어	-8667
등에	-8668
르바	-8669
▁딱	-8670
▁규모가	-8671
▁초래	-8672
▁중립	-8673
▁적절한	-8674
ord	-8675
▁레닌	-8676
▁히어로	-8677
▁총선에서	-8678
▁트래	-8679
▁공룡	-8680
▁문화를	-8681
▁지바	-8682
환은	-8683
▁요미	-8684
▁Go	-8685
▁추적	-8686
▁세계에	-8687
▁다음으로	-8688
▁일어난다	-8689
마루	-8690
또	-8691
▁자금	-8692
▁필요로	-8693
▁집에서	-8694
▁막아	-8695
▁가미	-8696
▁전의	-8697
▁명칭이	-8698
지기도	-8699
▁현급	-8700
▁드래곤	-8701
▁이루어진다	-8702
ET	-8703
▁플레	-8704
▁길이가	-8705
▁대회를	-8706
▁85	-8707
▁물이	-8708
▁올린	-8709
▁설치되었다	-8710
▁인류	-8711
▁49	-8712
▁빗	-8713
▁첩	-8714
클라	-8715
▁사제	-8716
▁유성	-8717
▁연락	-8718
▁중심이	-8719
도서	-8720
▁대만	-8721
▁자전거	-8722
▁않았으며	-8723
▁관하여	-8724
▁도시는	-8725
▁법무	-8726
▁유고슬라	-8727
ᆷ퍼	-8728
▁게시	-8729
▁타원	-8730
해진다	-8731
스포츠	-8732
▁오디션	-8733
▁사진을	-8734
▁은퇴한	-8735
▁나의	-8736
▁그럼에도	-8737
▁대단	-8738
▁입었다	-8739
▁시간에	-8740
▁칙	-8741
▁폭격	-8742
▁국경을	-8743
▁않았던	-8744
자이너	-8745
▁결심	-8746
▁친선	-8747
▁유럽에서	-8748
300	-8749
민족행위	-8750
▁드러나	-8751
▁색깔	-8752
▁크리스티	-8753
▁지원한다	-8754
들인	-8755
▁나이트	-8756
▁습격	-8757
▁운반	-8758
▁모습으로	-8759
하겠다고	-8760
▁때문이었다	-8761
습을	-8762
▁엑	-8763
▁타입	-8764
▁주니	-8765
▁프랜	-8766
▁음악가	-8767
▁서식한다	-8768
▁전체적으로	-8769
▁130	-8770
▁!	-8771
렛	-8772
▁스마트폰	-8773
▁가라	-8774
▁입대	-8775
▁대지	-8776
▁탄소	-8777
▁부분에	-8778
▁펄	-8779
바이러스	-8780
기획	-8781
▁외무	-8782
ast	-8783
▁뒤로	-8784
▁입증	-8785
▁못한다	-8786
▁밖으로	-8787
▁생각을	-8788
넣	-8789
▁스승	-8790
전에서는	-8791
▁방향을	-8792
▁경력	-8793
▁엔터테인먼트	-8794
66	-8795
ᆸ니다	-8796
▁자세	-8797
▁클래식	-8798
▁패키	-8799
▁하다가	-8800
▁안드로이드	-8801
▁파티	-8802
▁본토	-8803
▁레이다	-8804
▁프리미어리그	-8805
▁산악	-8806
▁상영	-8807
방에	-8808
▁관심	-8809
으므로	-8810
▁공동으로	-8811
▁분산	-8812
ᆯ로미터	-8813
▁예루살레	-8814
84	-8815
고자	-8816
▁유튜브	-8817
▁프랑스는	-8818
▁밀접	-8819
▁공식적인	-8820
▁기용	-8821
▁과거에	-8822
▁페이스	-8823
▁진출에	-8824
▁이적했다	-8825
이면	-8826
▁코리아	-8827
▁이야기가	-8828
▁활동에	-8829
초의	-8830
▁호수	-8831
▁카메라	-8832
사상	-8833
▁호르	-8834
공학	-8835
▁냈다	-8836
▁지연	-8837
▁자료를	-8838
계올림픽	-8839
직에서	-8840
▁원자력	-8841
▁역이	-8842
▁참조	-8843
속으로	-8844
▁계획은	-8845
ort	-8846
둥이	-8847
바나	-8848
▁가득	-8849
▁피렌	-8850
▁역전	-8851
▁혁신	-8852
더는	-8853
년으로	-8854
▁흙	-8855
▁날개	-8856
▁눈을	-8857
▁조약을	-8858
▁무슬	-8859
▁문화의	-8860
보면	-8861
▁건의	-8862
▁미분	-8863
▁고등학교이다	-8864
재의	-8865
급의	-8866
▁계기가	-8867
▁청동	-8868
▁사이클	-8869
82	-8870
▁스카이	-8871
▁아직도	-8872
코가	-8873
회로	-8874
작가	-8875
▁아우구	-8876
▁들어간	-8877
▁서쪽으로는	-8878
▁당해	-8879
하가	-8880
▁다룬	-8881
▁랩	-8882
▁직무	-8883
▁고립	-8884
▁사항	-8885
▁것이고	-8886
▁가능성을	-8887
▁문화재자료	-8888
▁변신	-8889
▁미국이	-8890
▁퍼시	-8891
체에서	-8892
▁자유를	-8893
▁탱	-8894
▁이지	-8895
▁연설	-8896
▁근로	-8897
▁막을	-8898
▁사용해	-8899
▁엔진을	-8900
권으로	-8901
▁남쪽으로는	-8902
전한	-8903
하라고	-8904
▁분포한다	-8905
▁51	-8906
▁브라우	-8907
▁스페셜	-8908
▁미네	-8909
글로	-8910
▁기타리스트	-8911
형과	-8912
▁동치	-8913
▁스펙트	-8914
▁흐르는	-8915
부사	-8916
▁유지하고	-8917
▁형성된	-8918
본이	-8919
▁베이스볼	-8920
▁동쪽으로는	-8921
반의	-8922
▁이마	-8923
▁말은	-8924
▁전승	-8925
▁낮아	-8926
민이	-8927
▁시작해	-8928
랑이	-8929
▁우익	-8930
▁유물	-8931
▁극단	-8932
▁동맹을	-8933
▁시대에는	-8934
나라를	-8935
▁말하며	-8936
▁벌였다	-8937
수아	-8938
▁분야의	-8939
▁이곳에	-8940
▁못했고	-8941
고한	-8942
▁내용의	-8943
▁구간은	-8944
흑	-8945
▁신분	-8946
렁	-8947
연한	-8948
▁일환으로	-8949
▁WW	-8950
방이	-8951
▁지질	-8952
▁다투	-8953
등한	-8954
▁티베트	-8955
덟	-8956
▁상무	-8957
▁탄핵	-8958
▁지방에	-8959
▁데뷔전을	-8960
ure	-8961
▁비잔티	-8962
▁탐험	-8963
▁뛰어	-8964
▁지내고	-8965
▁옹호	-8966
현에	-8967
▁우루	-8968
▁선두	-8969
▁존재를	-8970
▁보살	-8971
▁남아이	-8972
▁대한제국	-8973
▁가공	-8974
판으로	-8975
▁찾는	-8976
▁뿐이다	-8977
▁업데이트	-8978
▁1896	-8979
▁소위	-8980
▁영주	-8981
▁저널	-8982
아프리카	-8983
▁이곳에서	-8984
▁당선되었다	-8985
▁52	-8986
▁운동의	-8987
▁보기	-8988
▁구상	-8989
▁관광객	-8990
▁발생했다	-8991
▁애국	-8992
▁시호는	-8993
환의	-8994
▁케이블	-8995
▁료	-8996
▁MVP	-8997
▁미시	-8998
▁쓴다	-8999
▁엘리자베스	-9000
▁성공적으로	-9001
간을	-9002
▁랭킹	-9003
▁활동이	-9004
년은	-9005
▁전원	-9006
하였을	-9007
▁하노	-9008
작을	-9009
▁설이	-9010
▁네덜란드의	-9011
유키	-9012
▁심한	-9013
▁루트비히	-9014
▁부통령	-9015
펀	-9016
▁SF	-9017
▁기ᄈ	-9018
▁낱	-9019
▁수익	-9020
▁경험을	-9021
석에	-9022
연은	-9023
▁깊이	-9024
▁활동한	-9025
▁시스템은	-9026
터와	-9027
▁가요	-9028
곡이	-9029
유는	-9030
77	-9031
병이	-9032
▁간에	-9033
▁반사	-9034
▁후기의	-9035
ock	-9036
▁별도로	-9037
다운	-9038
음의	-9039
▁모순	-9040
▁66	-9041
가루	-9042
테스	-9043
▁합계	-9044
▁장남	-9045
이었는데	-9046
▁관련하여	-9047
.&	-9048
▁기구	-9049
▁우승에	-9050
▁첫번째	-9051
▁되었으나	-9052
▁옆에	-9053
▁전향	-9054
▁애플리케이션	-9055
흘	-9056
▁캡	-9057
▁임신	-9058
▁수천	-9059
된다는	-9060
▁계획이	-9061
▁확인할	-9062
▁인정받아	-9063
▁읍	-9064
네는	-9065
▁하야	-9066
름을	-9067
▁두번째	-9068
▁모양을	-9069
작은	-9070
디에	-9071
올라	-9072
▁이글	-9073
▁사양	-9074
▁리그에	-9075
다니	-9076
미와	-9077
▁밀양	-9078
▁나폴리	-9079
▁타이틀을	-9080
화학	-9081
좌상	-9082
산군	-9083
▁체험	-9084
리크	-9085
▁미치는	-9086
▁서일본	-9087
커스	-9088
액을	-9089
▁미얀	-9090
▁연계	-9091
▁구간이	-9092
아와	-9093
재가	-9094
조약	-9095
박을	-9096
히고	-9097
▁성벽	-9098
▁했다고	-9099
▁AS	-9100
▁He	-9101
▁My	-9102
▁제도의	-9103
▁활약하였다	-9104
▁패턴	-9105
▁과학자	-9106
▁노선이	-9107
▁이라는	-9108
▁남아있다	-9109
▁부탁	-9110
56	-9111
룸	-9112
▁로봇	-9113
▁현의	-9114
▁지방도	-9115
▁학교를	-9116
오르	-9117
▁HIV	-9118
▁용어	-9119
▁아들을	-9120
▁아나운	-9121
▁기록하고	-9122
▁DJ	-9123
▁없기	-9124
▁일로	-9125
▁챌린	-9126
▁목숨을	-9127
▁고교	-9128
▁여의	-9129
미디어	-9130
▁빨리	-9131
▁낳았다	-9132
▁락	-9133
▁경력을	-9134
▁이토	-9135
▁북쪽으로는	-9136
▁보좌	-9137
▁자바	-9138
▁정류	-9139
▁아니고	-9140
▁책봉	-9141
▁아울러	-9142
▁능력이	-9143
▁감독이다	-9144
▁UN	-9145
▁험	-9146
현악	-9147
▁사격	-9148
▁열차는	-9149
▁포매	-9150
▁메디	-9151
▁히가시	-9152
석과	-9153
중은	-9154
▁센트럴	-9155
파크	-9156
업이	-9157
▁250	-9158
단계	-9159
▁발효	-9160
▁준공	-9161
▁일원으로	-9162
▁국토	-9163
▁범주	-9164
▁피난	-9165
▁차이를	-9166
실록	-9167
▁무선	-9168
소송법	-9169
▁국가에서	-9170
바시	-9171
▁리가	-9172
▁시마	-9173
출을	-9174
▁잃고	-9175
▁항구	-9176
▁발족	-9177
▁점은	-9178
발의	-9179
▁게리	-9180
▁열어	-9181
▁왕위	-9182
▁결과는	-9183
▁말하고	-9184
▁소속되어	-9185
백과	-9186
칸센	-9187
▁좌익	-9188
▁점성	-9189
▁결정했다	-9190
수산	-9191
▁원로	-9192
▁남한	-9193
▁빌헬	-9194
▁측은	-9195
▁선거에	-9196
▁우수한	-9197
글라	-9198
▁고베	-9199
▁구마	-9200
▁바티	-9201
▁볼리	-9202
▁간단한	-9203
▁어드	-9204
▁이외에	-9205
▁플랫폼	-9206
▁인간이	-9207
▁연애	-9208
▁고성	-9209
▁데이터베이	-9210
▁싱글이다	-9211
지대	-9212
아를	-9213
먼은	-9214
아키	-9215
▁동기	-9216
▁일대	-9217
토스	-9218
말을	-9219
박물관	-9220
닥	-9221
돌을	-9222
안군	-9223
▁등이다	-9224
▁결과적으로	-9225
▁참의	-9226
조판서	-9227
▁경계를	-9228
▁로빈	-9229
▁이스트	-9230
▁지역이다	-9231
▁어릴	-9232
▁머무	-9233
반을	-9234
▁일본이	-9235
러는	-9236
▁가면	-9237
▁호환	-9238
그램	-9239
▁주파	-9240
▁최신	-9241
▁타운	-9242
피는	-9243
▁전체의	-9244
▁지역과	-9245
▁디자이너	-9246
디의	-9247
토시	-9248
▁켈	-9249
그는	-9250
▁개최되었다	-9251
▁이복	-9252
▁신장	-9253
▁결과가	-9254
▁장편	-9255
닫	-9256
트르	-9257
변을	-9258
▁성균	-9259
▁용산	-9260
▁개성	-9261
▁신사	-9262
▁김동	-9263
▁순천	-9264
인들에게	-9265
▁무료	-9266
▁발라	-9267
▁막대한	-9268
▁아니었다	-9269
▁출전했다	-9270
잘	-9271
블로	-9272
전기	-9273
▁식품	-9274
준은	-9275
▁예능	-9276
ML	-9277
ime	-9278
통일	-9279
▁댄스	-9280
▁전임	-9281
▁대조	-9282
▁당했다	-9283
오를	-9284
▁나선	-9285
▁스타크래프트	-9286
▁콩고	-9287
안으로	-9288
▁입문	-9289
▁인근에	-9290
▁담당하는	-9291
▁아가	-9292
▁가질	-9293
▁요구하는	-9294
▁푸른	-9295
▁진술	-9296
바야	-9297
▁내륙	-9298
▁월간	-9299
편이	-9300
▁내지	-9301
▁데리고	-9302
스틴	-9303
▁재단	-9304
식물	-9305
츠와	-9306
▁모집	-9307
▁값을	-9308
▁정벌	-9309
▁쪽으로	-9310
▁독자적인	-9311
▁버리고	-9312
으려	-9313
▁모니	-9314
▁당의	-9315
▁떠난	-9316
▁언어로	-9317
▁폐기	-9318
금융	-9319
▁트윈	-9320
▁탕	-9321
▁기어	-9322
▁게임은	-9323
▁훈련을	-9324
74	-9325
퀘	-9326
▁이치	-9327
▁호남	-9328
▁나라를	-9329
▁항공기	-9330
▁잊	-9331
▁빛을	-9332
▁테일러	-9333
▁주제로	-9334
▁한양	-9335
▁바르셀로나	-9336
경기를	-9337
▁라운드	-9338
▁ST	-9339
버스터	-9340
▁최근에	-9341
▁이승만	-9342
▁결정을	-9343
▁인물이다	-9344
▁쿨	-9345
▁얼마나	-9346
▁개념은	-9347
▁응우옌	-9348
인조	-9349
▁해제	-9350
청을	-9351
▁많고	-9352
▁황후	-9353
▁영감을	-9354
▁마르크스	-9355
ack	-9356
▁여왕	-9357
▁이익을	-9358
▁아르메니아	-9359
▁간다	-9360
▁천황의	-9361
미로	-9362
편에	-9363
▁기재	-9364
들과의	-9365
르와	-9366
용이	-9367
▁위기에	-9368
부문	-9369
▁배제	-9370
▁그동안	-9371
▁*	-9372
▁자손	-9373
▁적색	-9374
▁원래의	-9375
▁앨범은	-9376
▁조선총독부	-9377
▁일본어	-9378
뮬	-9379
지사	-9380
▁미카	-9381
▁대우	-9382
▁야기	-9383
▁찾아가	-9384
▁덴마크의	-9385
연이	-9386
▁거기	-9387
▁나열	-9388
▁주장이	-9389
▁대학원	-9390
▁이명박	-9391
저는	-9392
▁사령관	-9393
▁미하	-9394
▁중심지	-9395
▁야생	-9396
▁스토리	-9397
▁찾을	-9398
▁끝났다	-9399
공이	-9400
▁오렌	-9401
▁돌아오	-9402
▁재발	-9403
▁커뮤니티	-9404
▁적의	-9405
▁일렉	-9406
▁적을	-9407
마자	-9408
▁서독	-9409
악의	-9410
▁뒤인	-9411
▁초점을	-9412
▁Un	-9413
▁밀라노	-9414
▁지어진	-9415
▁추가되었다	-9416
▁최종적으로	-9417
봐	-9418
시켰고	-9419
▁흩	-9420
▁조용	-9421
▁코치로	-9422
▁이론은	-9423
▁그룹의	-9424
OC	-9425
업에	-9426
▁디즈니	-9427
▁어려워	-9428
MS	-9429
▁쿠바	-9430
▁상하	-9431
▁바꿔	-9432
▁전두	-9433
▁시드니	-9434
▁과학적	-9435
▁중이던	-9436
ᆼ장	-9437
▁깔	-9438
▁우리의	-9439
▁사용을	-9440
세스	-9441
회와	-9442
▁휩	-9443
▁쌓아	-9444
브는	-9445
▁1911	-9446
▁아니며	-9447
▁재위	-9448
▁이오	-9449
▁크림	-9450
▁상태이다	-9451
▁백인	-9452
▁비평가	-9453
▁있으면	-9454
▁충분한	-9455
▁직접적인	-9456
▁유고슬라비아	-9457
진과	-9458
▁달의	-9459
▁물러나	-9460
▁자격을	-9461
▁필라델	-9462
플라	-9463
▁연루	-9464
▁곁	-9465
▁뱅	-9466
▁협상	-9467
io	-9468
론적	-9469
▁하천	-9470
▁간접	-9471
▁원형	-9472
▁된다는	-9473
▁않도록	-9474
▁마산	-9475
▁축제	-9476
▁근거로	-9477
▁편지를	-9478
미에	-9479
하러	-9480
▁700	-9481
▁후의	-9482
▁여동생	-9483
▁주식회사	-9484
대학원	-9485
▁모델이다	-9486
▁y	-9487
▁암커	-9488
되었기	-9489
▁전투가	-9490
▁우리나라	-9491
▁불리기도	-9492
성한	-9493
ib	-9494
▁통화	-9495
▁곳곳	-9496
▁계열의	-9497
▁지배를	-9498
▁발전에	-9499
▁북한의	-9500
▁가해	-9501
▁급진	-9502
▁군대가	-9503
▁정도가	-9504
▁한국에서는	-9505
커는	-9506
▁페루	-9507
▁일본에서는	-9508
떠	-9509
▁서경	-9510
▁맞는	-9511
▁건너가	-9512
▁현존하는	-9513
▁선제	-9514
된다고	-9515
▁보여주었다	-9516
▁법학	-9517
▁나갔다	-9518
▁쉐	-9519
시타	-9520
▁충격	-9521
▁졸업하였다	-9522
▁주립	-9523
▁정원	-9524
▁군대는	-9525
▁목적은	-9526
▁서브	-9527
▁이자	-9528
▁두드러	-9529
▁전투에	-9530
▁국가를	-9531
▁자리에서	-9532
받침	-9533
곡으로	-9534
▁임금	-9535
▁신칸센	-9536
▁안티	-9537
▁군을	-9538
▁동남아시아	-9539
▁대로	-9540
등록	-9541
▁결혼을	-9542
펄	-9543
주인	-9544
▁소나	-9545
▁출현	-9546
즈에	-9547
산맥	-9548
▁내장	-9549
▁하나를	-9550
▁좋아하는	-9551
▁제휴	-9552
▁꺾고	-9553
▁번뇌	-9554
▁여덟	-9555
보통학교	-9556
▁때도	-9557
▁아트	-9558
▁확률	-9559
▁사카	-9560
선수권	-9561
▁제국이	-9562
▁겸임	-9563
▁예언	-9564
▁시간은	-9565
고속	-9566
▁왕실	-9567
▁일본군	-9568
죠	-9569
▁팩	-9570
▁이나	-9571
이사	-9572
명인	-9573
음은	-9574
▁사용자가	-9575
▁무늬	-9576
▁사로잡	-9577
▁언어를	-9578
▁사람에게	-9579
▁AM	-9580
▁아치	-9581
▁타카	-9582
겠다고	-9583
크리	-9584
▁착수	-9585
과도	-9586
팀인	-9587
▁진단	-9588
건이	-9589
시절	-9590
▁청와	-9591
▁후반에	-9592
시피	-9593
군사	-9594
란의	-9595
린이	-9596
▁맡았으며	-9597
▁콜롬비아	-9598
▁53	-9599
▁태조	-9600
▁이순	-9601
▁타율	-9602
과로	-9603
▁오가	-9604
▁힌두	-9605
목의	-9606
증이	-9607
시즌을	-9608
성이다	-9609
뉴스	-9610
카를	-9611
▁거슬러	-9612
▁화려한	-9613
번호	-9614
▁지목	-9615
▁당한	-9616
▁구리	-9617
▁항해	-9618
▁구조의	-9619
▁마리오	-9620
▁박영	-9621
▁프로그램이	-9622
age	-9623
후보	-9624
▁젖	-9625
투쟁	-9626
▁한강	-9627
딸	-9628
▁포인	-9629
▁달러를	-9630
iz	-9631
도사	-9632
▁목격	-9633
▁중력	-9634
년대부터	-9635
▁북쪽에	-9636
교로	-9637
▁시스템의	-9638
빌리	-9639
▁머리를	-9640
▁주와	-9641
▁보잉	-9642
▁본격적인	-9643
her	-9644
▁지지하는	-9645
소한	-9646
역사	-9647
온다	-9648
▁대신에	-9649
▁바꾸었다	-9650
▁역사적으로	-9651
▁삶의	-9652
▁인조	-9653
▁원산	-9654
▁있다면	-9655
▁있습니다	-9656
▁않는다는	-9657
▁시작했으며	-9658
쪽의	-9659
▁가지게	-9660
▁음반의	-9661
▁목조	-9662
▁승차	-9663
▁시기의	-9664
상으로는	-9665
▁한화	-9666
▁기술이	-9667
▁해군의	-9668
▁수록된	-9669
타임	-9670
▁메모	-9671
문관	-9672
▁달아	-9673
▁피에르	-9674
▁방식의	-9675
▁다큐멘터리	-9676
ge	-9677
▁시키	-9678
▁수단	-9679
▁포함해	-9680
▁하나님의	-9681
스페	-9682
색이	-9683
▁카자흐	-9684
▁하와이	-9685
▁활성화	-9686
▁마니	-9687
▁발견했다	-9688
란을	-9689
▁온도	-9690
적이었다	-9691
▁가능하게	-9692
▁친일반	-9693
ᆻ으니	-9694
▁방면	-9695
▁마음작용	-9696
▁프로그램은	-9697
서에서	-9698
▁요소를	-9699
받지	-9700
었을	-9701
▁비극	-9702
▁불만을	-9703
▁잘못된	-9704
▁전통적으로	-9705
동에서	-9706
▁양식	-9707
▁취약	-9708
57	-9709
사추	-9710
분교	-9711
행은	-9712
▁쾨	-9713
생이	-9714
▁언더	-9715
▁말할	-9716
▁위치하며	-9717
▁동지	-9718
▁산타	-9719
▁착공	-9720
▁58	-9721
범죄	-9722
포트	-9723
▁일부로	-9724
▁가즈	-9725
온이	-9726
▁비가	-9727
▁연구가	-9728
포는	-9729
▁해적	-9730
▁후보에	-9731
퉁	-9732
경과	-9733
▁교과	-9734
▁내내	-9735
▁본선의	-9736
▁활약하고	-9737
자이며	-9738
▁전쟁은	-9739
:00	-9740
▁게재	-9741
디아라	-9742
▁내부의	-9743
▁PS	-9744
즈카	-9745
▁경고	-9746
▁모험	-9747
▁복수	-9748
▁술탄	-9749
▁정의할	-9750
우와	-9751
즈니스	-9752
기관이다	-9753
▁특수한	-9754
▁형태가	-9755
위원회의	-9756
▁관점에서	-9757
▁때때	-9758
▁피에	-9759
▁로맨	-9760
▁마천	-9761
▁남긴	-9762
▁IP	-9763
▁사이에는	-9764
▁실패했다	-9765
61	-9766
런스	-9767
공동	-9768
교회의	-9769
스테르	-9770
▁마친	-9771
▁일찍이	-9772
▁중구	-9773
▁약한	-9774
▁목록은	-9775
▁하버드	-9776
▁프로그램의	-9777
ᆺ가	-9778
▁바가	-9779
▁알라	-9780
패로	-9781
▁아서	-9782
▁현상이	-9783
▁ISO	-9784
▁평생	-9785
▁연고로	-9786
▁전성	-9787
▁전염	-9788
▁한신	-9789
미나	-9790
테쓰	-9791
▁첼	-9792
경으로	-9793
▁다이아	-9794
▁물리학	-9795
엉	-9796
▁중앙에	-9797
ud	-9798
▁오세	-9799
▁토마	-9800
▁디젤	-9801
▁호흡	-9802
▁충남	-9803
▁방식은	-9804
▁선수이자	-9805
▁윙	-9806
▁치료를	-9807
▁꾀	-9808
조정	-9809
▁대결	-9810
▁뒤에는	-9811
▁가능하며	-9812
▁88	-9813
의가	-9814
니를	-9815
▁맞게	-9816
▁사장	-9817
▁종전	-9818
진에	-9819
▁애틀	-9820
▁한국방송	-9821
로동	-9822
팩트	-9823
색은	-9824
▁노르웨	-9825
▁다루고	-9826
터로	-9827
개는	-9828
▁충족	-9829
▁바이올린	-9830
4,	-9831
▁가사	-9832
▁복구	-9833
▁항일	-9834
르를	-9835
차별	-9836
▁이르고	-9837
▁무라	-9838
검찰	-9839
론에서	-9840
▁선진	-9841
▁성은	-9842
▁방영되었다	-9843
Pa	-9844
▁이리	-9845
▁성공적인	-9846
버러	-9847
수사	-9848
▁커피	-9849
▁대서양	-9850
▁제약	-9851
▁털이	-9852
▁명예의	-9853
EN	-9854
음에	-9855
관찰	-9856
▁후한	-9857
▁반환	-9858
▁제국은	-9859
▁민주주의	-9860
▁77	-9861
양군	-9862
▁귀환	-9863
▁영화로	-9864
▁생각했다	-9865
▁승리로	-9866
▁마케도니아	-9867
▁연구하는	-9868
제프	-9869
병의	-9870
▁서남	-9871
▁말한	-9872
▁노선은	-9873
▁배정	-9874
▁시대를	-9875
▁82	-9876
▁재무	-9877
민당	-9878
서이다	-9879
▁사용이	-9880
▁페스티벌	-9881
▁의원이	-9882
모로	-9883
심은	-9884
▁주문	-9885
▁프로토콜	-9886
씨와	-9887
▁베타	-9888
▁몰락	-9889
▁융합	-9890
▁측근	-9891
▁펜실	-9892
▁몰려	-9893
▁훌륭한	-9894
▁1500	-9895
인명	-9896
▁막부	-9897
▁섭취	-9898
▁어워드	-9899
뿔	-9900
▁1909	-9901
▁배워	-9902
▁부흥	-9903
▁실용	-9904
▁이처럼	-9905
62	-9906
▁하인리히	-9907
캔	-9908
프에	-9909
▁아파트	-9910
▁목적을	-9911
세츠	-9912
내에서	-9913
▁곳이	-9914
▁친척	-9915
▁마케팅	-9916
▁어두운	-9917
직한	-9918
▁서서히	-9919
르드	-9920
▁샹	-9921
백을	-9922
▁박탈	-9923
줘	-9924
견을	-9925
▁동메달을	-9926
긴다	-9927
▁세로	-9928
▁대주교	-9929
▁손상	-9930
태평양	-9931
▁버전은	-9932
▁구체적인	-9933
▁디아	-9934
▁퇴각	-9935
▁풋볼	-9936
▁무신	-9937
▁무대에	-9938
▁에우	-9939
▁오디오	-9940
▁속도를	-9941
▁99	-9942
▁체제를	-9943
▁성질을	-9944
▁말하였다	-9945
▁반지	-9946
쑤	-9947
▁쟁	-9948
▁구미	-9949
▁저택	-9950
▁문재인	-9951
▁회의에서	-9952
▁캘리포니아주	-9953
됐고	-9954
원의원	-9955
▁개발된	-9956
조참	-9957
▁따르는	-9958
▁시작되어	-9959
슨과	-9960
열이	-9961
▁기업의	-9962
▁프랑스에서	-9963
▁남쪽에	-9964
▁항공모	-9965
타케	-9966
하니	-9967
▁톨	-9968
▁보니	-9969
▁민속	-9970
▁네이션	-9971
차전에서	-9972
네의	-9973
라이트	-9974
▁때때로	-9975
▁정찰	-9976
스에게	-9977
우스가	-9978
▁임상	-9979
▁조사를	-9980
▁피부	-9981
▁사상을	-9982
멜	-9983
원군	-9984
▁현장	-9985
▁제목으로	-9986
튀	-9987
▁와카	-9988
▁조치	-9989
▁조치를	-9990
니시	-9991
▁밖의	-9992
▁시집	-9993
▁스파이	-9994
▁주에서	-9995
▁사우디아라	-9996
▁곡으로	-9997
▁관계로	-9998
▁규정하고	-9999
▁CPU	-10000
▁은메달을	-10001
티의	-10002
팀은	-10003
▁어렵다	-10004
▁몸무게는	-10005
측의	-10006
▁채로	-10007
▁마찰	-10008
▁사용하기	-10009
▁한동안	-10010
물질	-10011
▁무력	-10012
▁아웃	-10013
▁역과	-10014
생으로	-10015
▁구조는	-10016
▁운동이	-10017
▁부정적인	-10018
중에서	-10019
▁미스터	-10020
▁기록에	-10021
AD	-10022
고도	-10023
▁토대로	-10024
투아니아	-10025
▁없으나	-10026
▁임명되어	-10027
홉	-10028
▁세워졌다	-10029
▁또다시	-10030
▁자유롭게	-10031
▁일관	-10032
▁기온은	-10033
▁포크	-10034
▁희극	-10035
int	-10036
반응	-10037
▁초창	-10038
▁받기도	-10039
▁발견되는	-10040
▁각기	-10041
▁사용하며	-10042
여객	-10043
▁로저	-10044
▁부패	-10045
▁근처의	-10046
▁철학자	-10047
년대에는	-10048
▁돌아갔다	-10049
-21	-10050
쯤	-10051
▁석조	-10052
▁악화	-10053
▁공용	-10054
▁미나미	-10055
▁합법	-10056
란이	-10057
분야	-10058
▁사유	-10059
orld	-10060
메라	-10061
해방	-10062
▁사고로	-10063
sp	-10064
▁피어	-10065
▁공무	-10066
▁에스토	-10067
종과	-10068
층은	-10069
▁연방의	-10070
초에	-10071
터에	-10072
▁끝이	-10073
▁레전	-10074
▁맡게	-10075
▁비공식	-10076
▁제주특별자치	-10077
아웃	-10078
▁공의	-10079
▁세균	-10080
▁재편	-10081
▁풀려	-10082
코드	-10083
리스토	-10084
▁4.	-10085
블리	-10086
▁해임	-10087
▁김용	-10088
▁선을	-10089
▁그림을	-10090
63	-10091
자리에	-10092
중심	-10093
▁진도	-10094
▁출력	-10095
▁광범위한	-10096
▁적대	-10097
▁달러의	-10098
▁선언했다	-10099
▁굽	-10100
스트의	-10101
▁죽을	-10102
▁보여주고	-10103
53	-10104
72	-10105
규칙	-10106
▁비잔티움	-10107
▁쥬	-10108
▁오고	-10109
▁자식	-10110
▁추증	-10111
▁보내는	-10112
▁왕으로	-10113
▁구체적으로	-10114
▁이영	-10115
▁디비전	-10116
II	-10117
두는	-10118
▁동화	-10119
▁합리	-10120
▁들은	-10121
아리	-10122
▁모시	-10123
▁소재로	-10124
▁판타지	-10125
▁도로이다	-10126
▁동구	-10127
▁내외	-10128
▁바위	-10129
▁싶어	-10130
내셔널	-10131
▁공전	-10132
▁Ar	-10133
형이다	-10134
▁착륙	-10135
▁유소년	-10136
▁오스트리아의	-10137
짐	-10138
▁룩	-10139
▁1915	-10140
▁군은	-10141
▁얀	-10142
▁바그	-10143
▁득점을	-10144
▁강이	-10145
▁별의	-10146
▁얻는	-10147
▁영화제	-10148
▁실험을	-10149
햄	-10150
▁껍	-10151
▁우즈	-10152
▁최저	-10153
▁카탈	-10154
▁근접	-10155
▁진정한	-10156
사고	-10157
▁고도	-10158
▁고조	-10159
▁시로	-10160
▁복사	-10161
▁생겼다	-10162
▁아르헨티	-10163
ov	-10164
네스코	-10165
▁대전광역시	-10166
다리	-10167
한을	-10168
▁포괄	-10169
▁살던	-10170
받는다	-10171
주년을	-10172
▁라틴어	-10173
▁회사는	-10174
▁주어졌다	-10175
간이	-10176
▁갑작	-10177
▁둘은	-10178
▁부르며	-10179
▁황제가	-10180
지나	-10181
곡의	-10182
▁속도로	-10183
▁알려지지	-10184
▁규제	-10185
▁여수	-10186
공은	-10187
▁향을	-10188
▁Pro	-10189
▁케네	-10190
천을	-10191
69	-10192
▁피고	-10193
▁땅에	-10194
▁화면	-10195
▁나가사키	-10196
▁파리에서	-10197
▁플레이어	-10198
▁MP	-10199
▁흔들	-10200
▁멤버로	-10201
사리	-10202
▁안의	-10203
▁병력	-10204
▁면에서	-10205
라이더	-10206
▁운행하는	-10207
가고	-10208
형태	-10209
▁플레이스	-10210
츠키	-10211
사령부	-10212
▁무효	-10213
세에게	-10214
▁기생	-10215
▁왕위를	-10216
▁형식을	-10217
oy	-10218
열의	-10219
▁수신	-10220
▁원자로	-10221
▁전한다	-10222
▁학생들이	-10223
▁68	-10224
▁제조업	-10225
▁주축	-10226
▁중계	-10227
수엘라	-10228
▁향한	-10229
▁주한	-10230
▁법을	-10231
▁거기에	-10232
▁노래는	-10233
▁거주하는	-10234
▁IT	-10235
디가	-10236
▁수치	-10237
▁리메이	-10238
▁발매했다	-10239
▁MC	-10240
질러	-10241
▁사직	-10242
▁양도	-10243
▁훼손	-10244
▁르네상	-10245
▁일본으로	-10246
몬드	-10247
▁개업	-10248
▁길고	-10249
▁안타	-10250
▁위안	-10251
▁꿈을	-10252
▁신라의	-10253
▁안드레	-10254
▁중심의	-10255
▁출시된	-10256
▁1913	-10257
소스	-10258
▁보충	-10259
치면서	-10260
▁끊임	-10261
▁군사적	-10262
-17	-10263
▁좋다	-10264
스부르크	-10265
레티	-10266
▁여론	-10267
▁포인트	-10268
▁부천	-10269
▁싫어	-10270
▁상임	-10271
▁특급	-10272
아메리카	-10273
누리	-10274
▁대외	-10275
▁분광	-10276
51	-10277
홈런	-10278
▁동독	-10279
란트	-10280
브리지	-10281
▁창시	-10282
연속	-10283
▁김태	-10284
▁실려	-10285
▁굉장	-10286
▁형식의	-10287
▁폴란드의	-10288
▁DS	-10289
▁5000	-10290
▁라트	-10291
▁이바	-10292
▁건담	-10293
▁보스니아	-10294
▁네이버	-10295
▁때로는	-10296
▁에스파냐	-10297
▁짓고	-10298
▁꽤	-10299
▁얻기	-10300
▁학자	-10301
▁작품에	-10302
수수	-10303
▁다가	-10304
▁장의	-10305
▁신흥	-10306
숙한	-10307
▁부착	-10308
▁내리	-10309
▁장면	-10310
GC	-10311
▁시치	-10312
▁조직의	-10313
▁과정은	-10314
▁사실은	-10315
▁따뜨	-10316
▁공학	-10317
▁비슷하다	-10318
▁필라델피아	-10319
▁서머	-10320
심한	-10321
▁출토	-10322
ᆯ리우스	-10323
▁서울에서	-10324
▁알바니아	-10325
▁영국은	-10326
▁특징은	-10327
행의	-10328
▁시라	-10329
▁발생할	-10330
▁시작하는	-10331
▁이듬해인	-10332
▁특유의	-10333
▁기호	-10334
▁아니면	-10335
▁의원은	-10336
▁얘	-10337
매치	-10338
예프	-10339
작전	-10340
▁곡의	-10341
트리올	-10342
▁진영	-10343
행에	-10344
일간	-10345
▁중순	-10346
▁후지와	-10347
▁전세계	-10348
▁지중해	-10349
▁분리되어	-10350
▁빌헬름	-10351
▁무용	-10352
▁모임	-10353
▁관통	-10354
▁3000	-10355
▁자발	-10356
▁약물	-10357
목이	-10358
▁부담	-10359
▁삼고	-10360
▁소속이다	-10361
▁1895	-10362
▁추모	-10363
해주	-10364
불교	-10365
▁부른	-10366
▁한국에	-10367
▁무죄	-10368
▁에디	-10369
철은	-10370
ph	-10371
벡	-10372
▁펀	-10373
벌레	-10374
▁작고	-10375
▁하얀	-10376
학위를	-10377
▁정확하게	-10378
▁법원	-10379
▁두산	-10380
법인이다	-10381
및	-10382
▁감지	-10383
▁사육	-10384
▁설립하였다	-10385
카라	-10386
▁이슈	-10387
▁창업	-10388
▁성공한	-10389
▁원작으로	-10390
설이	-10391
▁시그	-10392
▁차례로	-10393
▁밴드는	-10394
▁물에	-10395
▁스파르타	-10396
▁운행을	-10397
댄	-10398
▁사료	-10399
▁드림	-10400
▁창건	-10401
중에는	-10402
▁강점기	-10403
▁일했다	-10404
▁과학기술	-10405
▁조반	-10406
▁아이를	-10407
▁역임한	-10408
▁지냈으며	-10409
자원	-10410
▁일조	-10411
▁거리가	-10412
▁석탄	-10413
▁팽창	-10414
ome	-10415
지붕	-10416
▁등재	-10417
▁의장	-10418
▁캠페	-10419
▁오키나와	-10420
▁건물을	-10421
▁이광	-10422
▁섬을	-10423
▁전부터	-10424
▁들어가는	-10425
▁둘러싼	-10426
▁톈	-10427
사추세츠	-10428
셸	-10429
▁미스	-10430
▁빛의	-10431
▁과거의	-10432
▁급속	-10433
▁명문	-10434
▁특이한	-10435
▁배를	-10436
▁클린	-10437
▁제작되었다	-10438
적에	-10439
▁수수	-10440
▁의지	-10441
▁사천	-10442
▁아인	-10443
량으로	-10444
▁끝나고	-10445
▁사용될	-10446
시민	-10447
▁세대	-10448
▁점유	-10449
▁1.5	-10450
함의	-10451
▁보상	-10452
▁양키	-10453
▁요금	-10454
강점	-10455
▁심의	-10456
▁캄보	-10457
▁분류된다	-10458
▁72	-10459
▁교외	-10460
▁안산	-10461
▁출전해	-10462
▁분데스리가	-10463
▁왕족	-10464
▁전당	-10465
▁재산을	-10466
▁기록하여	-10467
▁외의	-10468
▁요르	-10469
▁경우를	-10470
▁발견한	-10471
내기	-10472
▁대폭	-10473
▁평행	-10474
▁리눅스	-10475
▁리버풀	-10476
▁언제나	-10477
▁독일에서	-10478
~3	-10479
400	-10480
ian	-10481
타니	-10482
란은	-10483
번을	-10484
격이	-10485
▁호세	-10486
▁풀어	-10487
음으로	-10488
▁의견이	-10489
희의	-10490
▁협의	-10491
▁잃은	-10492
▁침몰	-10493
,8	-10494
▁버려	-10495
념을	-10496
▁정부와	-10497
IM	-10498
밤	-10499
▁공략	-10500
▁장갑	-10501
▁남부의	-10502
▁몬트리올	-10503
▁전쟁으로	-10504
58	-10505
▁제갈	-10506
▁함유	-10507
▁생각된다	-10508
▁지각	-10509
▁중독	-10510
▁건물이	-10511
▁사기	-10512
풍을	-10513
▁도호쿠	-10514
pp	-10515
르노	-10516
▁이반	-10517
▁아이슬	-10518
▁모델을	-10519
▁연속으로	-10520
▁하였는데	-10521
▁친일인명	-10522
▁""	-10523
▁영역을	-10524
▁on	-10525
거는	-10526
▁부과	-10527
점이다	-10528
▁중기의	-10529
▁않았기	-10530
▁시즌에는	-10531
위대	-10532
박스	-10533
▁지명을	-10534
71	-10535
학교에	-10536
▁링컨	-10537
▁일으키는	-10538
ee	-10539
손은	-10540
하우스	-10541
진으로	-10542
▁안장	-10543
▁형태는	-10544
▁팔레스타	-10545
▁제외하고는	-10546
▁실종	-10547
▁프레임	-10548
스와의	-10549
▁하거나	-10550
▁정교회	-10551
▁노력을	-10552
59	-10553
▁이화	-10554
▁의병	-10555
항으로	-10556
▁달린	-10557
▁신용	-10558
▁민주화	-10559
▁PD	-10560
▁럭	-10561
▁당대	-10562
▁이원	-10563
▁누르고	-10564
▁스릴러	-10565
▁죽이고	-10566
▁총선거	-10567
-11	-10568
▁틈	-10569
폴로	-10570
이어서	-10571
▁강경	-10572
바흐	-10573
▁김재	-10574
▁오염	-10575
▁지금도	-10576
▁페어	-10577
▁단층	-10578
▁형법	-10579
도비	-10580
초를	-10581
▁미치	-10582
▁아이테	-10583
▁비즈니스	-10584
▁조직을	-10585
▁간섭	-10586
▁생기는	-10587
번뇌	-10588
▁까다	-10589
▁유출	-10590
▁자율	-10591
있으며	-10592
▁유네스코	-10593
▁번호	-10594
▁평소	-10595
됐으며	-10596
▁인생	-10597
▁된다고	-10598
▁시기는	-10599
▁전에는	-10600
하였다는	-10601
▁베네수엘라	-10602
▁지속적인	-10603
ᆯ림	-10604
시까지	-10605
▁알코	-10606
▁백악	-10607
▁광주광역시	-10608
우며	-10609
트니	-10610
▁친정	-10611
롤라이나	-10612
▁정책에	-10613
▁프랑스와	-10614
▁이미지를	-10615
79	-10616
처리	-10617
티모	-10618
▁가슴	-10619
▁고분	-10620
▁다음이	-10621
▁진출했다	-10622
했	-10623
▁도구	-10624
▁집으로	-10625
실과	-10626
▁유신	-10627
해왔다	-10628
▁우연히	-10629
▁어려움을	-10630
▁굿	-10631
▁톤	-10632
자연	-10633
쳤고	-10634
,0	-10635
속을	-10636
▁판결을	-10637
너의	-10638
▁템	-10639
▁미르	-10640
소이다	-10641
▁후안	-10642
▁못할	-10643
▁확인되었다	-10644
ace	-10645
▁Con	-10646
▁두루	-10647
▁증권	-10648
▁만화가	-10649
▁트레이드	-10650
ire	-10651
마치	-10652
▁쉽	-10653
▁에버	-10654
▁이틀	-10655
▁체계를	-10656
?"	-10657
달아	-10658
왕에	-10659
생산	-10660
▁김포	-10661
▁소닉	-10662
▁용이	-10663
▁스쿨	-10664
제국의	-10665
▁선거를	-10666
OV	-10667
▁다중	-10668
▁화살	-10669
▁들어오	-10670
▁59	-10671
츠가	-10672
▁쓰인	-10673
▁애덤	-10674
▁관현악	-10675
높	-10676
▁교구	-10677
▁좌파	-10678
▁팀에	-10679
▁해인	-10680
▁지방에서	-10681
▁일제강점	-10682
54	-10683
▁사르	-10684
▁사적	-10685
▁침해	-10686
▁분야에	-10687
▁맡았고	-10688
▁외야	-10689
스러	-10690
▁닐	-10691
바이잔	-10692
▁그러자	-10693
▁심판	-10694
▁유니포	-10695
갸	-10696
▁내야	-10697
스카야	-10698
▁모두가	-10699
▁점이다	-10700
▁멕시코의	-10701
ber	-10702
과이	-10703
리안	-10704
▁액체	-10705
▁어렵	-10706
▁죄를	-10707
▁여기에는	-10708
▁차가	-10709
▁배틀	-10710
▁차지한	-10711
▁수평	-10712
▁전세	-10713
▁관직	-10714
▁컨트로	-10715
OP	-10716
~19	-10717
▁포로	-10718
경영	-10719
인들	-10720
화하여	-10721
▁그렇지	-10722
▁후보를	-10723
▁국가대표팀의	-10724
▁져	-10725
▁걱	-10726
▁숨겨	-10727
▁거주하고	-10728
▁앱	-10729
예를	-10730
▁서해	-10731
▁공채	-10732
▁이인	-10733
▁나이지	-10734
▁퍼시픽	-10735
▁기념물	-10736
▁디스플레이	-10737
크에	-10738
▁롬	-10739
단이다	-10740
▁라이선	-10741
ust	-10742
수리	-10743
▁이노	-10744
▁학부	-10745
▁숙종	-10746
▁영동	-10747
호선은	-10748
▁설립했다	-10749
▁시작된다	-10750
전사	-10751
주식	-10752
양은	-10753
▁소총	-10754
▁쫓겨	-10755
▁공사가	-10756
▁독일은	-10757
▁잦	-10758
▁대처	-10759
▁미토	-10760
이라도	-10761
▁준우승을	-10762
-12	-10763
▁수커	-10764
▁동래	-10765
▁명백	-10766
제르바이잔	-10767
▁가리키	-10768
▁일어날	-10769
민을	-10770
▁할당	-10771
▁출연한	-10772
마와	-10773
▁써서	-10774
▁주를	-10775
▁아즈	-10776
▁관습	-10777
▁식별	-10778
▁동물의	-10779
▁이루었다	-10780
촨	-10781
자도	-10782
▁두어	-10783
▁날짜	-10784
▁도심	-10785
▁참여하여	-10786
▁멈추	-10787
▁부문에	-10788
▁컬럼비아	-10789
▁WWE	-10790
움이	-10791
▁키프로	-10792
▁속도가	-10793
▁목표를	-10794
실리	-10795
화하고	-10796
▁성씨	-10797
▁아래로	-10798
▁투르크	-10799
▁라이언	-10800
▁조문이다	-10801
▁아이슬란드	-10802
OL	-10803
라리	-10804
크에서	-10805
▁느낀	-10806
▁급행	-10807
▁스튜어	-10808
▁진출하였다	-10809
수인	-10810
▁아세	-10811
▁김진	-10812
▁셰이	-10813
능력	-10814
▁시는	-10815
일에서	-10816
▁게임이	-10817
▁대통령을	-10818
▁승강장은	-10819
보도	-10820
공립	-10821
▁과정에	-10822
자리를	-10823
▁카이사	-10824
▁식으로	-10825
▁칼리지	-10826
▁위협을	-10827
▁상징하는	-10828
비나	-10829
▁일에	-10830
정부의	-10831
▁시스템이	-10832
▁조건으로	-10833
▁수행하는	-10834
기기	-10835
▁게오	-10836
▁교도	-10837
▁기체	-10838
▁레이저	-10839
▁의사를	-10840
▁미국에서는	-10841
노프	-10842
담이	-10843
훈은	-10844
▁둥근	-10845
▁평등	-10846
학자인	-10847
▁엘리베이	-10848
▁||	-10849
▁내고	-10850
포로	-10851
▁라스	-10852
▁비단	-10853
▁종의	-10854
▁대회의	-10855
▁건물의	-10856
▁신하	-10857
▁전역	-10858
▁후쿠시마	-10859
▁방송국	-10860
▁설치류의	-10861
▁엉	-10862
있고	-10863
▁스핀	-10864
▁편리	-10865
▁염색	-10866
▁활동은	-10867
셋	-10868
▁고지	-10869
▁속으로	-10870
▁파운드	-10871
▁자신에게	-10872
SS	-10873
포의	-10874
▁닿	-10875
버는	-10876
▁차기	-10877
편으로	-10878
-16	-10879
▁핵무	-10880
범한	-10881
▁후일	-10882
폴리스	-10883
▁광산	-10884
▁불을	-10885
▁영화에	-10886
▁여행을	-10887
▁지어졌다	-10888
▁긍정적인	-10889
투를	-10890
▁고무	-10891
▁추상	-10892
▁낙선	-10893
▁나섰다	-10894
▁은퇴를	-10895
루에	-10896
주곡	-10897
였기	-10898
칭으로	-10899
▁CE	-10900
시노	-10901
▁전신	-10902
▁비슷하게	-10903
▁되었을	-10904
AL	-10905
pt	-10906
에너	-10907
▁치열	-10908
슈타인	-10909
▁진행된	-10910
:1	-10911
치료	-10912
▁리스	-10913
▁알제	-10914
▁에티오	-10915
▁지점에	-10916
받을	-10917
▁헬리	-10918
▁작센	-10919
고쿠	-10920
포가	-10921
환이	-10922
▁갑오	-10923
▁봉사	-10924
▁원내	-10925
▁소수의	-10926
▁내보	-10927
▁비서	-10928
▁촉구	-10929
▁고려의	-10930
▁FM	-10931
▁닮	-10932
▁신비	-10933
▁상원	-10934
▁허리케	-10935
년간의	-10936
▁국가에	-10937
▁되었지만	-10938
고래	-10939
▁반박	-10940
▁화제가	-10941
▁시즌의	-10942
▁제품을	-10943
▁참가하고	-10944
▁손자	-10945
▁스티브	-10946
▁모델은	-10947
▁부를	-10948
▁장로	-10949
우주연	-10950
▁듯한	-10951
▁무거운	-10952
▁괘	-10953
리타	-10954
▁뿌리	-10955
질은	-10956
ite	-10957
오나	-10958
▁뜻의	-10959
▁약화	-10960
스트를	-10961
▁이곳은	-10962
시내	-10963
야가	-10964
▁쇼핑	-10965
▁사회에	-10966
리엔	-10967
▁루스	-10968
▁모르	-10969
앨범	-10970
▁어울	-10971
▁신생	-10972
▁무소	-10973
▁개관	-10974
▁계절	-10975
▁기갑	-10976
▁가난한	-10977
▁만났다	-10978
TC	-10979
▁63	-10980
사태	-10981
타리오	-10982
▁열고	-10983
▁오렌지	-10984
▁두꺼	-10985
▁행정구역	-10986
!"	-10987
▁지폐	-10988
산성	-10989
▁방치	-10990
▁객관	-10991
▁통근	-10992
▁행성의	-10993
▁탓에	-10994
▁구조로	-10995
▁대학을	-10996
▁했다는	-10997
문제연구	-10998
▁참가하는	-10999
▁움직이는	-11000
터스	-11001
▁제수	-11002
▁분배	-11003
▁받았으나	-11004
▁1916	-11005
▁다음에	-11006
IP	-11007
▁끓	-11008
산면	-11009
▁리메이크	-11010
네가	-11011
항에	-11012
▁쉬운	-11013
▁정이다	-11014
▁아버지와	-11015
장한	-11016
▁엔지	-11017
▁마이너	-11018
브의	-11019
▁동년	-11020
슭	-11021
▁기지	-11022
▁버튼	-11023
▁돌연	-11024
▁개혁을	-11025
▁작위를	-11026
마사	-11027
▁IBM	-11028
▁라우	-11029
▁마오	-11030
결합	-11031
▁새겨져	-11032
▁식량	-11033
▁기록된	-11034
사람	-11035
올로	-11036
▁간부	-11037
▁중도	-11038
▁남원	-11039
▁스피드	-11040
▁장난	-11041
▁나타낼	-11042
▁실시간	-11043
▁웰	-11044
▁고발	-11045
▁전인	-11046
▁개발에	-11047
▁진나라	-11048
▁페르난	-11049
▁공간의	-11050
▁소유하고	-11051
렐	-11052
▁비오	-11053
▁요크	-11054
철도의	-11055
▁것인	-11056
▁총괄	-11057
▁치러진	-11058
▁()	-11059
▁검증	-11060
▁페르디	-11061
하였다가	-11062
▁전례	-11063
▁신속	-11064
_8	-11065
▁강과	-11066
▁캐스팅	-11067
▁김상	-11068
▁강제로	-11069
▁측면에서	-11070
▁매카	-11071
래스카	-11072
▁대니	-11073
▁아기	-11074
하려면	-11075
▁급격히	-11076
각이	-11077
미국	-11078
▁미주	-11079
▁해운	-11080
파일	-11081
▁마이크	-11082
▁비례대표	-11083
▁앓	-11084
▁트랜스	-11085
▁인물을	-11086
▁남아있는	-11087
▁Wh	-11088
질로	-11089
▁지혜	-11090
▁격퇴	-11091
▁컬러	-11092
▁나이가	-11093
▁오하이	-11094
▁선교사	-11095
▁인터페이	-11096
▁매사추세츠	-11097
▁압박	-11098
▁평택	-11099
힘	-11100
십자	-11101
▁메타	-11102
▁쓰이고	-11103
▁인텔	-11104
▁시설이	-11105
더니	-11106
임은	-11107
▁누군	-11108
▁곡이다	-11109
▁레전드	-11110
▁관리하고	-11111
▁th	-11112
천은	-11113
▁사랑의	-11114
▁지나치게	-11115
▁시절부터	-11116
▁활약했다	-11117
73	-11118
기준	-11119
▁토니	-11120
베르토	-11121
선언	-11122
▁작곡한	-11123
버리	-11124
▁소니	-11125
▁받기	-11126
▁결과에	-11127
▁거ᄃ	-11128
▁폐위	-11129
▁첨가	-11130
▁자신과	-11131
_9	-11132
톨레	-11133
▁리치	-11134
▁막내	-11135
▁수업	-11136
▁외곽	-11137
▁것에서	-11138
600	-11139
ark	-11140
류이다	-11141
▁군에	-11142
▁가까워	-11143
▁이상으로	-11144
▁도움으로	-11145
HE	-11146
for	-11147
▁뿔	-11148
시부터	-11149
▁끌려	-11150
▁니콜라	-11151
▁일시적으로	-11152
져서	-11153
자책	-11154
▁향후	-11155
때문에	-11156
▁않았으나	-11157
52	-11158
▁GT	-11159
▁매출	-11160
자스	-11161
일드	-11162
톤의	-11163
▁왕비	-11164
▁일도	-11165
.25	-11166
▁평창	-11167
사우루스	-11168
▁십자가	-11169
▁Te	-11170
▁훔	-11171
▁레논	-11172
▁선구	-11173
▁개념이	-11174
▁결혼했다	-11175
주쿠	-11176
▁로열	-11177
서울	-11178
▁노리	-11179
▁조르	-11180
▁공사를	-11181
▁소설을	-11182
긋	-11183
운트	-11184
▁오오	-11185
▁복제	-11186
▁줄기	-11187
▁닛폰	-11188
▁우승하였다	-11189
유적	-11190
▁종결	-11191
▁전체가	-11192
▁공동체	-11193
▁동명의	-11194
▁애틀랜	-11195
겸	-11196
▁닭	-11197
▁매개	-11198
분석	-11199
원들이	-11200
▁방법이다	-11201
▁선수들이	-11202
▁정부로부터	-11203
▁병행	-11204
▁옷을	-11205
클랜드	-11206
원들은	-11207
▁나라에서	-11208
▁학교에서	-11209
▁있었다는	-11210
▁성당	-11211
▁응답	-11212
▁여성이	-11213
▁한국전쟁	-11214
망이	-11215
주일	-11216
▁활발한	-11217
▁의뢰	-11218
▁거론	-11219
▁찾기	-11220
대교	-11221
▁소실	-11222
▁기간에	-11223
▁활약한	-11224
▁아니지만	-11225
▁일컫는	-11226
서도	-11227
▁물리적	-11228
▁후임	-11229
▁교차로	-11230
▁딸을	-11231
▁실린	-11232
▁마음이	-11233
▁마쳤다	-11234
,7	-11235
▁It	-11236
따라	-11237
칭을	-11238
▁김기	-11239
▁김수	-11240
▁교수가	-11241
기관으로	-11242
▁성립한다	-11243
▁군수	-11244
▁섬은	-11245
▁진동	-11246
▁부분적으로	-11247
▁아제르바이잔	-11248
▁내린	-11249
▁부디	-11250
▁구릉	-11251
▁공화당	-11252
고등학교를	-11253
inc	-11254
동시	-11255
각은	-11256
쥐과에	-11257
▁맞추어	-11258
▁문서는	-11259
▁등장했다	-11260
▁로즈	-11261
▁극히	-11262
▁물고	-11263
▁해밀	-11264
▁안쪽	-11265
▁정렬	-11266
겠다는	-11267
▁교수는	-11268
하겠다는	-11269
해군	-11270
▁해주	-11271
▁전자기	-11272
▁검은색	-11273
쯔	-11274
자본	-11275
캠퍼	-11276
▁중소	-11277
해지는	-11278
▁구조가	-11279
▁아마도	-11280
▁전념	-11281
▁수록곡	-11282
▁울산광역시	-11283
벳	-11284
권도	-11285
▁모드	-11286
▁며칠	-11287
터미널	-11288
▁발원	-11289
▁정리한	-11290
대한민	-11291
윙	-11292
▁뱀	-11293
야를	-11294
▁오빠	-11295
▁소환	-11296
▁아사히	-11297
▁넣었다	-11298
FM	-11299
궈	-11300
ies	-11301
쟁이	-11302
스트리	-11303
▁곡이	-11304
▁치명	-11305
▁영상을	-11306
▁낼	-11307
남이	-11308
▁충주	-11309
▁주장하고	-11310
ft	-11311
▁거행	-11312
▁관장	-11313
▁춘천	-11314
▁코무네	-11315
▁프레이	-11316
▁김대중	-11317
▁본사는	-11318
▁일요일	-11319
▁펜실베이	-11320
▁영의	-11321
▁주제가	-11322
▁의회는	-11323
▁양식을	-11324
카타	-11325
욕을	-11326
▁히데요	-11327
▁대학에	-11328
▁권위	-11329
▁한쪽	-11330
▁생각해	-11331
▁앨범이다	-11332
▁사헌	-11333
▁증기	-11334
▁정면	-11335
▁계획에	-11336
꿈	-11337
▁SP	-11338
▁오라	-11339
▁눈이	-11340
▁먹고	-11341
▁군단	-11342
▁바꾸어	-11343
▁자본주의	-11344
▁담당하고	-11345
▁성공하였다	-11346
~20	-11347
전도	-11348
▁주석	-11349
▁전선	-11350
▁있어서는	-11351
▁진행된다	-11352
포구	-11353
▁노비	-11354
▁좌표	-11355
▁복지	-11356
▁장려	-11357
▁개발되었다	-11358
셰비	-11359
▁곰	-11360
▁파이어	-11361
▁스케이팅	-11362
▁중요하다	-11363
띠	-11364
▁고쳐	-11365
▁사토	-11366
▁서사	-11367
파이어	-11368
▁좌절	-11369
바스	-11370
청에	-11371
▁왕자	-11372
▁우울	-11373
▁놓은	-11374
▁관할하는	-11375
▁Co	-11376
나우	-11377
▁실리	-11378
▁서쪽에	-11379
▁조금씩	-11380
▁운동은	-11381
▁다리를	-11382
당하였다	-11383
▁승인을	-11384
▁대웅	-11385
▁조상	-11386
▁라이브러	-11387
▁실질적인	-11388
봉을	-11389
▁해를	-11390
▁프랭크	-11391
▁칭호를	-11392
▁옌	-11393
채를	-11394
가에서	-11395
▁진짜	-11396
▁건물로	-11397
▁등장인물	-11398
nt	-11399
▁릴	-11400
▁시흥	-11401
▁신규	-11402
▁단종	-11403
▁경제학	-11404
▁무슬림	-11405
란히	-11406
음과	-11407
황을	-11408
▁쓰였다	-11409
▁참고로	-11410
▁성균관	-11411
▁충격을	-11412
▁나눌	-11413
▁요소가	-11414
▁진정	-11415
▁거리는	-11416
▁알렸다	-11417
▁NBA	-11418
위안	-11419
▁어휘	-11420
▁슬라	-11421
이었다고	-11422
ran	-11423
무스	-11424
석기	-11425
▁경비	-11426
▁성모	-11427
년동안	-11428
▁국방부	-11429
▁귀중한	-11430
▁관중	-11431
ile	-11432
▁98	-11433
▁대답	-11434
▁끝까지	-11435
▁노무현	-11436
▁부대를	-11437
버스터미널	-11438
▁배구	-11439
▁걸어	-11440
▁데뷔를	-11441
▁학자들은	-11442
ᆫ은	-11443
▁단위로	-11444
▁성우이다	-11445
▁mm	-11446
방은	-11447
▁유격	-11448
▁죽어	-11449
▁잭슨	-11450
통이	-11451
▁나눠	-11452
▁주차	-11453
▁사이가	-11454
▁영어로	-11455
MA	-11456
▁kg	-11457
▁부장	-11458
▁유언	-11459
년이다	-11460
▁일어나자	-11461
▁만의	-11462
▁총재	-11463
▁전진	-11464
일체	-11465
▁덧붙여	-11466
▁그중	-11467
▁섬으로	-11468
▁경부	-11469
▁규모는	-11470
▁별다른	-11471
▁회고	-11472
뚝	-11473
짜리	-11474
말라	-11475
층이	-11476
▁다항	-11477
▁명에	-11478
▁앨리	-11479
인치	-11480
▁개화	-11481
▁쇼와	-11482
▁구는	-11483
▁길게	-11484
증으로	-11485
과정을	-11486
▁군대의	-11487
▁조선인	-11488
▁트라이	-11489
미쓰	-11490
작의	-11491
▁코어	-11492
▁야간	-11493
▁생각하는	-11494
xt	-11495
앞	-11496
번에	-11497
소방	-11498
마르크	-11499
▁드러내	-11500
▁시절에는	-11501
시안	-11502
있던	-11503
▁동쪽에	-11504
▁지정된	-11505
▁둘러싸고	-11506
▁사무실은	-11507
▁서식하는	-11508
▁제사	-11509
결정	-11510
▁이진	-11511
▁만나게	-11512
▁경험이	-11513
▁펼쳤다	-11514
▁하드웨어	-11515
▁cm	-11516
▁공직	-11517
▁부대는	-11518
▁스타일	-11519
▁연구소	-11520
▁회사를	-11521
CD	-11522
턴의	-11523
▁전압	-11524
길을	-11525
푸르트	-11526
시에는	-11527
쓸	-11528
▁수렴	-11529
되지는	-11530
▁배웠다	-11531
▁현저	-11532
하였기	-11533
▁여름에	-11534
▁닌텐도	-11535
▁대법원	-11536
▁칩	-11537
번은	-11538
대회에서	-11539
ment	-11540
▁거제	-11541
▁모으	-11542
▁모방	-11543
▁중에서는	-11544
ide	-11545
척의	-11546
▁말기	-11547
▁상류	-11548
▁기리기	-11549
▁인정하지	-11550
극장	-11551
▁나쁜	-11552
▁각본을	-11553
▁이집트의	-11554
▁목사	-11555
리라	-11556
▁아부	-11557
▁트루	-11558
▁색을	-11559
▁불교의	-11560
▁존재하며	-11561
풍의	-11562
▁왜냐	-11563
가이자	-11564
화에서	-11565
▁보완	-11566
▁존중	-11567
▁음식을	-11568
플리	-11569
회장	-11570
▁평면	-11571
▁선수를	-11572
▁용어를	-11573
다지	-11574
차와	-11575
게이머	-11576
▁이끈	-11577
▁활동하는	-11578
▁부적	-11579
▁입체	-11580
▁인플	-11581
▁타이베이	-11582
안타	-11583
▁충북	-11584
▁고양이	-11585
▁대상을	-11586
▁프랑수아	-11587
▁산소	-11588
▁연세	-11589
▁연호	-11590
▁요미우리	-11591
▁신호를	-11592
▁하나이며	-11593
학적으로	-11594
▁기점으로	-11595
▁춤	-11596
▁에미	-11597
▁갈아	-11598
▁방식이	-11599
▁사건이다	-11600
▁요구했다	-11601
▁권고	-11602
▁송시	-11603
리그에서	-11604
▁음악의	-11605
▁미노	-11606
▁부부	-11607
▁이라	-11608
▁코트	-11609
▁투구	-11610
▁직선	-11611
벤처	-11612
있어	-11613
빈은	-11614
▁최후의	-11615
▁탈환	-11616
▁여기에서	-11617
▁시점에서	-11618
▁연결된	-11619
▁생각하고	-11620
▁딘	-11621
보건	-11622
보안	-11623
▁세워져	-11624
▁잃어버	-11625
▁휴스턴	-11626
▁사라졌다	-11627
▁선수이며	-11628
▁빌라	-11629
▁팀인	-11630
▁환원	-11631
▁사회를	-11632
▁시나리오	-11633
▁않았다고	-11634
▁추정되는	-11635
▁몸에	-11636
▁상반	-11637
▁부족한	-11638
▁하나였다	-11639
뛰	-11640
열대	-11641
통의	-11642
▁번식	-11643
▁육성	-11644
▁//	-11645
려면	-11646
만원	-11647
▁영남	-11648
▁이에야	-11649
▁인물이	-11650
▁엘레	-11651
▁전제	-11652
▁펜실베이니아	-11653
▁LP	-11654
▁담겨	-11655
권에서	-11656
▁국가로	-11657
▁하락	-11658
▁물고기	-11659
▁비용을	-11660
▁카자흐스탄	-11661
놓은	-11662
▁담긴	-11663
▁밑에서	-11664
▁62	-11665
루와	-11666
▁시초	-11667
창을	-11668
공산당	-11669
녀를	-11670
▁2,000	-11671
▁즐겨	-11672
▁채권	-11673
▁공인	-11674
▁아일랜드의	-11675
▁테레	-11676
▁신이	-11677
▁시설을	-11678
▁진출을	-11679
▁변경하였다	-11680
법제	-11681
여성	-11682
▁띠고	-11683
▁손해	-11684
프랑스	-11685
▁세계대	-11686
▁통칭	-11687
▁초반에	-11688
▁팀으로	-11689
▁얻는다	-11690
학이	-11691
▁더글	-11692
마뱀붙	-11693
▁웨일스	-11694
▁갈리	-11695
▁억압	-11696
▁왕은	-11697
인들과	-11698
▁최상위	-11699
▁일본을	-11700
▁발매하였다	-11701
디나	-11702
▁밤에	-11703
▁추출	-11704
▁코믹	-11705
이었기	-11706
▁문화체육	-11707
▁결정적인	-11708
▁시작하였고	-11709
▁대관	-11710
▁이산화	-11711
▁놓았다	-11712
▁프랑스어	-11713
▁AK	-11714
기나	-11715
▁햇	-11716
▁개그	-11717
▁이가	-11718
▁높고	-11719
▁상상	-11720
▁계몽	-11721
▁종은	-11722
▁출산	-11723
▁제외하면	-11724
▁애비	-11725
▁맞지	-11726
▁겪었다	-11727
▁중간에	-11728
목적	-11729
▁리틀	-11730
▁태종	-11731
▁종으로	-11732
▁국가는	-11733
▁준비를	-11734
▁조선인민	-11735
▁쑤	-11736
작이	-11737
▁가도	-11738
박한	-11739
아일랜드	-11740
▁구동	-11741
미노	-11742
각의	-11743
▁어항	-11744
▁해변	-11745
거리는	-11746
▁아미노	-11747
▁정신적	-11748
서야	-11749
▁RNA	-11750
닉스	-11751
지역의	-11752
▁참여하는	-11753
▁블라디미르	-11754
모와	-11755
▁아프	-11756
▁유죄	-11757
전선	-11758
▁디오	-11759
▁자리잡고	-11760
▁섬유	-11761
▁역설	-11762
▁오하이오	-11763
▁빌려	-11764
▁생산하는	-11765
▁갓	-11766
▁플랑	-11767
rom	-11768
▁보지	-11769
▁위기	-11770
▁얻고	-11771
▁총대	-11772
▁다이어	-11773
▁잎은	-11774
▁거느리고	-11775
▁기능은	-11776
▁특징이	-11777
▁AR	-11778
아라	-11779
리아는	-11780
▁자체는	-11781
▁산다	-11782
달라고	-11783
▁사망하고	-11784
▁아예	-11785
▁띤다	-11786
▁이야기는	-11787
▁엽	-11788
▁리우	-11789
▁바른	-11790
▁보인	-11791
▁온타리오	-11792
▁동아일보	-11793
▁갇	-11794
▁김경	-11795
▁경상남도의	-11796
▁헤드	-11797
▁단단	-11798
▁기반의	-11799
▁기술의	-11800
위원으로	-11801
도리	-11802
채널	-11803
▁한미	-11804
▁킨	-11805
▁순회	-11806
▁설탕	-11807
▁승리한	-11808
디언	-11809
▁초과	-11810
▁던져	-11811
▁시호를	-11812
▁초등	-11813
▁살아남	-11814
▁조선로동	-11815
iver	-11816
코쿠	-11817
▁관람	-11818
▁소관의	-11819
▁시즌이	-11820
▁부동산	-11821
플레	-11822
▁밑에	-11823
원숭이	-11824
▁마을의	-11825
ᆷ새	-11826
주기	-11827
포드	-11828
▁주류	-11829
▁토요	-11830
거리를	-11831
▁시계	-11832
▁릴리	-11833
▁난징	-11834
▁평균자책	-11835
현과	-11836
▁야쿠	-11837
즈에서	-11838
▁이긴	-11839
▁배치되어	-11840
▁자금을	-11841
▁지방을	-11842
▁대신하여	-11843
▁대한민국에	-11844
강은	-11845
막을	-11846
▁아는	-11847
▁이래로	-11848
▁고려대학교	-11849
펑	-11850
파르	-11851
만명	-11852
▁이루어지고	-11853
감과	-11854
▁재미	-11855
▁앞면	-11856
▁도착한	-11857
▁마을을	-11858
▁장치를	-11859
▁찾아볼	-11860
라트	-11861
슬리	-11862
▁대회에서는	-11863
멀	-11864
정당	-11865
▁문장	-11866
▁모델이	-11867
▁시내버스	-11868
are	-11869
ory	-11870
▁67	-11871
나리	-11872
구성	-11873
택을	-11874
▁깨닫	-11875
선이다	-11876
▁중국과	-11877
아스	-11878
▁그날	-11879
▁조건이	-11880
▁수술을	-11881
▁앨범의	-11882
흔	-11883
ound	-11884
부르	-11885
놓고	-11886
▁호평을	-11887
▁않는다고	-11888
▁편입되었다	-11889
▁밟	-11890
▁기습	-11891
▁롤링	-11892
▁업적을	-11893
▁주소	-11894
▁임기	-11895
▁잡혀	-11896
왕으로	-11897
▁통틀	-11898
▁공로로	-11899
씨로	-11900
사나	-11901
▁하마	-11902
▁조달	-11903
시스템	-11904
지방선거	-11905
▁도주	-11906
층을	-11907
▁자세한	-11908
▁관리하는	-11909
▁$	-11910
▁서정	-11911
▁카를로	-11912
▁시장을	-11913
▁조명	-11914
책임	-11915
▁몰래	-11916
강에서	-11917
▁테이블	-11918
▁통일신	-11919
▁환경을	-11920
족에	-11921
▁하더라도	-11922
▁크리스토퍼	-11923
▁프로게이머	-11924
▁뉘	-11925
ᆺ불	-11926
▁고수	-11927
▁몽고	-11928
▁초연	-11929
▁힘입	-11930
▁최근의	-11931
▁논문을	-11932
▁장관을	-11933
▁비판했다	-11934
▁최하	-11935
열은	-11936
▁집계	-11937
▁쫓아	-11938
가들은	-11939
▁다니엘	-11940
▁뜨거운	-11941
▁사이타마	-11942
▁문화방송	-11943
다르	-11944
▁구제	-11945
▁대피	-11946
▁한스	-11947
본으로	-11948
▁북부의	-11949
▁굉장히	-11950
▁가짜	-11951
▁리어	-11952
▁의미의	-11953
▁싱글로	-11954
▁엔진은	-11955
▁Le	-11956
리조	-11957
터널	-11958
▁두개	-11959
▁마루	-11960
▁취재	-11961
▁추격	-11962
▁새누리	-11963
▁왜냐하면	-11964
▁기록하는	-11965
▁지적했다	-11966
▁월드컵에서	-11967
박사	-11968
증은	-11969
▁범위	-11970
▁전도	-11971
▁밀접한	-11972
▁신설되었다	-11973
항이	-11974
업은	-11975
▁민사	-11976
▁정사	-11977
▁팔라	-11978
년대의	-11979
어지는	-11980
정에서	-11981
▁사이버	-11982
▁일컬	-11983
▁체포되어	-11984
▁감정을	-11985
국사	-11986
방에서	-11987
▁붙은	-11988
▁부호	-11989
▁사원	-11990
▁소셜	-11991
▁학위	-11992
▁철도의	-11993
▁이의	-11994
▁순수한	-11995
▁의식을	-11996
구르	-11997
만여	-11998
철의	-11999
▁모셔	-12000
▁베니	-12001
▁개원	-12002
▁난이	-12003
▁드문	-12004
▁매입	-12005
▁전투기	-12006
딜	-12007
▁최적	-12008
군이다	-12009
▁코스타	-12010
▁잠수함	-12011
외선	-12012
▁연령	-12013
▁그쳤다	-12014
▁왕위에	-12015
▁태도를	-12016
▁근처에서	-12017
방으로	-12018
▁이어진	-12019
▁학교에	-12020
▁차원에서	-12021
▁디비시	-12022
연구원	-12023
▁금메달	-12024
▁생각한다	-12025
▁것보다	-12026
▁생각할	-12027
▁인접한	-12028
계승	-12029
▁선보였다	-12030
▁지식을	-12031
▁경사	-12032
▁탐지	-12033
▁도시가	-12034
▁진급	-12035
▁저명한	-12036
그러	-12037
▁시즈	-12038
국장	-12039
▁낭만	-12040
▁성별	-12041
▁부수	-12042
▁범유	-12043
이면서	-12044
▁청원	-12045
하우	-12046
▁2.0	-12047
밴드	-12048
▁부문에서	-12049
▁이후로는	-12050
찬을	-12051
▁레벨	-12052
▁변수	-12053
▁업그	-12054
▁일러	-12055
▁협약	-12056
▁황해도	-12057
교에	-12058
보르	-12059
▁CON	-12060
멘트	-12061
▁레바	-12062
▁앙리	-12063
▁회사가	-12064
▁슬로베	-12065
해양	-12066
▁1894	-12067
▁국소	-12068
▁스톡	-12069
▁칼라	-12070
▁플러	-12071
▁유래한	-12072
▁잃었다	-12073
코와	-12074
▁마약	-12075
▁후궁	-12076
▁의회의	-12077
▁시즌은	-12078
루션	-12079
참모	-12080
▁가수로	-12081
▁지구에서	-12082
▁물질을	-12083
▁리투아니아	-12084
▁채워	-12085
병은	-12086
▁투옥	-12087
▁도입되었다	-12088
▁서재	-12089
▁주장한	-12090
▁대통령에	-12091
▁구간을	-12092
▁다양하다	-12093
시키며	-12094
▁빠진	-12095
▁뉴욕에서	-12096
▁질량은	-12097
▁Sp	-12098
▁로이	-12099
▁마하	-12100
▁희귀	-12101
▁야당	-12102
▁재활	-12103
길이는	-12104
▁바티칸	-12105
▁시장에	-12106
▁제사를	-12107
ᆨ의	-12108
▁가축	-12109
▁불이	-12110
▁사이드	-12111
▁이론의	-12112
▁최대한	-12113
▁소속된	-12114
▁조선일보	-12115
꼽	-12116
구나	-12117
희가	-12118
▁마츠	-12119
▁넣고	-12120
▁봉쇄	-12121
▁표명	-12122
▁안성	-12123
▁짙은	-12124
▁다룬다	-12125
▁무기를	-12126
▁버렸다	-12127
▁와중에	-12128
▁자동으로	-12129
▁참여하고	-12130
TS	-12131
▁NC	-12132
▁is	-12133
▁유가	-12134
▁무승	-12135
▁원리	-12136
▁먹이를	-12137
▁위험한	-12138
효소	-12139
▁왓	-12140
▁안보	-12141
▁컴퍼	-12142
▁힘입어	-12143
캐롤라이나	-12144
▁호의	-12145
▁낸다	-12146
▁통영	-12147
▁이름인	-12148
▁이내	-12149
▁이케	-12150
▁재현	-12151
▁스미스	-12152
▁실패하였다	-12153
몰로	-12154
▁수동	-12155
▁힘든	-12156
▁이어진다	-12157
▁78	-12158
▁미즈	-12159
▁브뤼	-12160
▁스와	-12161
가지의	-12162
▁모친	-12163
▁할머니	-12164
▁출전하였다	-12165
천이	-12166
▁회계	-12167
▁한계	-12168
▁일본과	-12169
omp	-12170
▁부의	-12171
이거나	-12172
▁성주	-12173
▁싸움	-12174
▁발을	-12175
▁장성	-12176
▁독립된	-12177
man	-12178
▁허브	-12179
▁신한	-12180
▁국내외	-12181
▁직접적으로	-12182
준의	-12183
▁규모로	-12184
▁만나는	-12185
▁이후부터	-12186
▁런던에서	-12187
ng	-12188
▁소매	-12189
▁개발이	-12190
▁사사	-12191
▁사자	-12192
▁지녀	-12193
버렸다	-12194
위원장	-12195
,5	-12196
▁카타	-12197
▁입자	-12198
▁영문	-12199
▁임용	-12200
▁자연스럽게	-12201
▁횟	-12202
▁필름	-12203
▁보일	-12204
▁문법	-12205
슘	-12206
도어	-12207
함마	-12208
ᆯ리티	-12209
▁재혼	-12210
▁가지며	-12211
▁기록해	-12212
▁엄격한	-12213
▁포르투갈의	-12214
식품	-12215
▁법조	-12216
▁쇼군	-12217
▁트럭	-12218
누스는	-12219
▁자체를	-12220
▁알코올	-12221
ᆸ이	-12222
▁예배	-12223
반은	-12224
▁석가	-12225
▁선이	-12226
▁영조	-12227
▁도미니	-12228
▁위기를	-12229
빵	-12230
벨라	-12231
▁비평	-12232
▁달성했다	-12233
쉐	-12234
소녀	-12235
▁앉아	-12236
행으로	-12237
콜리	-12238
▁누르	-12239
훈장	-12240
ial	-12241
▁궁극	-12242
▁내부에	-12243
▁진흥	-12244
▁자신도	-12245
왕과	-12246
제한	-12247
▁호위	-12248
종인	-12249
▁보전	-12250
▁진군	-12251
▁그룹이다	-12252
▁일컫는다	-12253
ert	-12254
지휘	-12255
▁2.5	-12256
▁스콧	-12257
▁역에	-12258
▁태평	-12259
▁구스타	-12260
▁정한	-12261
▁지정하여	-12262
▁월드컵에	-12263
▁일종으로	-12264
신에	-12265
작이다	-12266
박쥐는	-12267
▁토요일	-12268
집이	-12269
▁줄여서	-12270
학교에서	-12271
▁경찰은	-12272
▁존재했던	-12273
서원	-12274
▁간호	-12275
▁문제의	-12276
▁사람과	-12277
▁전통을	-12278
▁크리스마스	-12279
~4	-12280
lic	-12281
내어	-12282
▁1890	-12283
▁고시	-12284
▁실패로	-12285
▁아야	-12286
▁오바	-12287
액은	-12288
▁상수	-12289
▁양주	-12290
▁제주도	-12291
▁디자인을	-12292
▁대거	-12293
▁프로레	-12294
▁버전의	-12295
정원	-12296
▁일리노	-12297
▁들어온	-12298
▁특징으로	-12299
나스	-12300
왕조	-12301
점인	-12302
▁우주의	-12303
▁즉각	-12304
ign	-12305
먼드	-12306
콜로	-12307
▁감여	-12308
▁화석	-12309
▁가나가와	-12310
▁상태였다	-12311
애를	-12312
▁주가	-12313
▁어긋	-12314
책으로	-12315
▁제국을	-12316
나미	-12317
▁제프	-12318
▁밀어	-12319
▁부딪	-12320
▁이룬	-12321
▁제독	-12322
▁가마쿠라	-12323
▁대한민국은	-12324
무역	-12325
▁그랜	-12326
▁발트	-12327
▁춘추	-12328
자들에	-12329
평화	-12330
▁그르	-12331
▁깨달	-12332
적이지	-12333
▁북쪽의	-12334
절한	-12335
▁반해	-12336
▁성취	-12337
▁축하	-12338
▁증손	-12339
▁제안을	-12340
▁la	-12341
림이	-12342
▁제노	-12343
▁제트	-12344
▁구출	-12345
▁랜드	-12346
▁문명	-12347
▁이벤트	-12348
▁직전에	-12349
TA	-12350
아파	-12351
마일	-12352
▁이식	-12353
▁모르는	-12354
▁장군의	-12355
ond	-12356
모데	-12357
▁개교	-12358
▁리듬	-12359
▁위임	-12360
▁노란색	-12361
기사	-12362
▁글래	-12363
▁올바	-12364
▁적고	-12365
▁그리스어	-12366
▁속도는	-12367
▁선언하였다	-12368
▁기아	-12369
▁언어의	-12370
▁엿	-12371
츠를	-12372
연방	-12373
▁측의	-12374
▁말기의	-12375
▁요청을	-12376
▁기록했고	-12377
~2	-12378
ᆺ값	-12379
▁채무	-12380
▁센다	-12381
▁순교	-12382
▁증후	-12383
▁지능	-12384
▁사고가	-12385
▁다음해	-12386
▁지휘관	-12387
▁설명했다	-12388
▁76	-12389
▁be	-12390
야만	-12391
▁마누	-12392
▁숭배	-12393
▁이윤	-12394
등으로	-12395
▁감독과	-12396
▁1898	-12397
▁키워	-12398
▁담배	-12399
▁캠프	-12400
스키는	-12401
▁배우로	-12402
▁스스로를	-12403
act	-12404
예정	-12405
현으로	-12406
월과	-12407
▁승격되었다	-12408
▁사우디아라비아	-12409
▁#	-12410
첼	-12411
노가	-12412
▁오타	-12413
▁수습	-12414
▁인근의	-12415
▁프로듀싱	-12416
-18	-12417
▁시와	-12418
▁페리	-12419
방울	-12420
▁분화	-12421
▁연쇄	-12422
▁폭스	-12423
▁상용	-12424
▁주장은	-12425
▁김일성	-12426
시게	-12427
▁이겨	-12428
▁도는	-12429
▁교황의	-12430
▁여부를	-12431
▁외교관	-12432
▁61	-12433
▁강도	-12434
일이다	-12435
▁블로그	-12436
▁수도인	-12437
▁오프닝	-12438
▁황제로	-12439
▁것으로서	-12440
미스	-12441
푸스	-12442
항의	-12443
▁고체	-12444
▁이경	-12445
▁낱말	-12446
▁동명	-12447
▁통행	-12448
▁전체에	-12449
▁어머니의	-12450
위원회를	-12451
선생	-12452
▁평일	-12453
▁투표를	-12454
열차	-12455
▁조리	-12456
▁가죽	-12457
▁결코	-12458
▁세션	-12459
▁소행성	-12460
▁민족주의	-12461
▁믿고	-12462
까지만	-12463
았으며	-12464
▁그러던	-12465
▁에스토니아	-12466
▁중단되었다	-12467
했어	-12468
▁환경에	-12469
프라이	-12470
▁부유한	-12471
▁북부에	-12472
▁브라우저	-12473
▁심리학	-12474
▁과거에는	-12475
주어	-12476
즈로	-12477
▁제압	-12478
▁등지에서	-12479
▁출전한	-12480
▁그리스도의	-12481
▁설명한다	-12482
▁미루	-12483
득을	-12484
▁줄어	-12485
▁명성	-12486
▁전속	-12487
▁되었다가	-12488
판과	-12489
ᆻ거나	-12490
▁부사	-12491
▁지고	-12492
▁모형	-12493
▁중추원	-12494
▁중심기압	-12495
ass	-12496
변이	-12497
나라에	-12498
▁나눈	-12499
▁쏟아	-12500
▁오를	-12501
▁아니라고	-12502
▁베트남의	-12503
▁영향력	-12504
제품	-12505
▁바퀴	-12506
▁기업이다	-12507
▁함으로써	-12508
▁프로젝트를	-12509
저스	-12510
▁그레고	-12511
▁빈곤	-12512
▁입원	-12513
▁존재가	-12514
▁비난을	-12515
▁불리게	-12516
▁세상에	-12517
▁어머니가	-12518
▁있었을	-12519
▁그냥	-12520
암으로	-12521
▁차이는	-12522
▁HT	-12523
스피	-12524
▁아홉	-12525
▁공민	-12526
▁인문	-12527
▁승부차	-12528
▁향하는	-12529
신도	-12530
케이드	-12531
▁공모	-12532
▁위탁	-12533
▁냉각	-12534
▁인격	-12535
▁사회에서	-12536
▁방식이다	-12537
▁우르	-12538
▁하우	-12539
▁아랫	-12540
▁신임	-12541
▁것인데	-12542
앉	-12543
미즈	-12544
자르	-12545
돌리	-12546
▁케냐	-12547
▁봉안	-12548
▁불확	-12549
▁신약	-12550
▁프톨레	-12551
요는	-12552
님을	-12553
▁World	-12554
▁속하며	-12555
▁움직임을	-12556
▁96	-12557
▁깎	-12558
▁뒤집	-12559
▁엄격	-12560
▁테니스	-12561
▁중의원	-12562
순위	-12563
평군	-12564
▁상처	-12565
▁난민	-12566
▁딸인	-12567
▁불편	-12568
▁오리콘	-12569
▁분명히	-12570
▁경우에도	-12571
액의	-12572
▁뉴저	-12573
급을	-12574
▁내전	-12575
▁시골	-12576
▁섬에서	-12577
▁이유를	-12578
▁돋	-12579
수용	-12580
▁라마	-12581
▁주민들이	-12582
▁CF	-12583
▁붓	-12584
▁고백	-12585
▁창의	-12586
▁초록	-12587
▁나오지	-12588
▁장학	-12589
▁중국에	-12590
▁계속되었다	-12591
▁바비	-12592
▁넣은	-12593
▁리비아	-12594
▁흥선	-12595
운동에	-12596
▁우승한	-12597
▁관직을	-12598
트레	-12599
▁뭉	-12600
국어	-12601
칼라	-12602
▁아메	-12603
▁천도	-12604
▁우즈베	-12605
▁부분의	-12606
▁기간을	-12607
▁물러났다	-12608
Hz	-12609
ᆷ이다	-12610
▁교섭	-12611
▁폭너	-12612
▁본인의	-12613
▁결성된	-12614
▁사모	-12615
▁합작	-12616
▁종류가	-12617
▁런던의	-12618
과학기술	-12619
▁획득한	-12620
▁인터내셔널	-12621
브리에	-12622
▁카스티	-12623
▁선거는	-12624
▁이름에서	-12625
강이	-12626
▁초월	-12627
▁비로소	-12628
▁존속	-12629
▁했을	-12630
▁변화에	-12631
▁용도로	-12632
▁관리를	-12633
▁기술은	-12634
▁관련한	-12635
▁적합한	-12636
국제공항	-12637
코르	-12638
집에	-12639
▁몸이	-12640
▁불평	-12641
▁장거리	-12642
▁방송되었다	-12643
▁거기서	-12644
▁공격에	-12645
▁콰	-12646
차량	-12647
▁가량	-12648
▁방패	-12649
▁대학교에	-12650
▁원인은	-12651
▁캄보디아	-12652
DS	-12653
▁오쿠	-12654
불교의	-12655
▁유지하는	-12656
▁노르웨이의	-12657
▁아시안컵	-12658
▁가톨릭교회	-12659
운영	-12660
▁책의	-12661
▁경신	-12662
▁따른다	-12663
▁환경에서	-12664
고와	-12665
▁2-1	-12666
강과	-12667
름의	-12668
▁구할	-12669
▁피해가	-12670
▁폼	-12671
화이다	-12672
▁왕복	-12673
회의에서	-12674
▁보호를	-12675
▁시기를	-12676
▁아래는	-12677
▁회의를	-12678
▁느낌을	-12679
▁아버지를	-12680
동시지방선거	-12681
▁SE	-12682
▁101	-12683
바이트	-12684
▁말의	-12685
▁선사	-12686
▁적혀	-12687
▁선물	-12688
lo	-12689
재단	-12690
▁커널	-12691
▁힘써	-12692
▁자유주의	-12693
▁표현을	-12694
▁프랑크푸르트	-12695
측에	-12696
▁네오	-12697
▁구름	-12698
▁합창	-12699
파인	-12700
▁시외	-12701
▁제자	-12702
▁골프	-12703
▁미얀마	-12704
▁시리즈를	-12705
핍	-12706
▁처녀	-12707
▁토르	-12708
▁맥스	-12709
▁우편	-12710
기독교	-12711
▁결정되었다	-12712
▁오노	-12713
신경	-12714
▁용의	-12715
▁성격이	-12716
▁프로리그	-12717
테르부르크	-12718
▁정치인으로	-12719
로니	-12720
믹스	-12721
▁헤라	-12722
▁제도가	-12723
▁터키의	-12724
▁흔한	-12725
▁요구를	-12726
▁네팔	-12727
▁업체	-12728
▁출처	-12729
▁게르만	-12730
▁중앙위원회	-12731
교수	-12732
▁쓰기	-12733
심으로	-12734
▁샘플	-12735
▁문과에	-12736
토르	-12737
▁미디	-12738
으로의	-12739
▁바이오	-12740
▁옹립	-12741
▁편곡	-12742
▁나가는	-12743
▁적극적인	-12744
반이	-12745
덕션	-12746
▁물어	-12747
풍으로	-12748
▁루이지	-12749
▁않으나	-12750
▁일이다	-12751
▁줄무늬	-12752
▁가져왔다	-12753
▁경기에서는	-12754
ich	-12755
▁핸	-12756
정리	-12757
▁서초	-12758
▁자문	-12759
▁말기에	-12760
두를	-12761
방위	-12762
있지	-12763
▁1899	-12764
▁지방자치	-12765
urn	-12766
▁난다	-12767
▁셀레	-12768
▁붙인	-12769
▁본사를	-12770
▁형성한다	-12771
_11	-12772
▁CR	-12773
상규	-12774
▁부서	-12775
▁날에	-12776
▁물건	-12777
▁신중	-12778
▁직면	-12779
▁버전이	-12780
▁시즌이다	-12781
ᆺ지	-12782
악한	-12783
▁바닷	-12784
▁그룹은	-12785
▁안에는	-12786
▁차량은	-12787
대학교에서	-12788
발이	-12789
▁대가	-12790
▁김규	-12791
▁딸로	-12792
천여	-12793
▁이소	-12794
▁핸드	-12795
관광부	-12796
셈부르크	-12797
▁카를로스	-12798
▁터뜨	-12799
감한	-12800
▁두는	-12801
▁김현	-12802
▁지구와	-12803
▁남쪽의	-12804
▁부분으로	-12805
▁선정한	-12806
▁후임으로	-12807
▁누가	-12808
▁삿포	-12809
▁결론	-12810
ens	-12811
대책	-12812
▁노트	-12813
▁담아	-12814
▁디렉	-12815
▁뻗어	-12816
▁신선	-12817
눌	-12818
아우	-12819
스런	-12820
▁꾸며	-12821
▁맥도	-12822
▁비율	-12823
▁스트라	-12824
▁크레이	-12825
▁성장을	-12826
▁왕국을	-12827
스텐	-12828
▁이차	-12829
▁김씨	-12830
▁양호	-12831
▁그래프	-12832
툴	-12833
▁10%	-12834
언어	-12835
▁필사	-12836
▁알루미	-12837
▁의미에서	-12838
▁정도였다	-12839
▁진행되고	-12840
스트가	-12841
▁바꾼	-12842
▁메시지를	-12843
▁밴드이다	-12844
▁시리즈는	-12845
시나	-12846
요의	-12847
측은	-12848
▁남부에	-12849
▁시베리아	-12850
▁선거구이다	-12851
▁결혼하였다	-12852
느러	-12853
▁얹	-12854
글리	-12855
날레	-12856
대왕	-12857
▁흥행	-12858
▁많으며	-12859
▁선거구	-12860
▁차량을	-12861
▁지휘하는	-12862
▁크리스티안	-12863
푸르	-12864
▁꽃은	-12865
▁급제하여	-12866
▁덤	-12867
폭력	-12868
▁날아	-12869
▁시뮬	-12870
문에서	-12871
▁내려가	-12872
▁전라도	-12873
▁수상한	-12874
▁핀란드의	-12875
IG	-12876
돌로	-12877
▁최후	-12878
서비스	-12879
▁옥스	-12880
▁민족의	-12881
▁정신을	-12882
▁체코슬로	-12883
LS	-12884
▁펌	-12885
▁존경	-12886
▁에티오피아	-12887
일으	-12888
▁피츠	-12889
군단	-12890
스카르	-12891
▁고령	-12892
▁공익	-12893
▁광장	-12894
▁차량이	-12895
▁임시정부	-12896
키와	-12897
레를	-12898
▁술을	-12899
▁오비	-12900
▁최연	-12901
지는데	-12902
▁일명	-12903
▁연기를	-12904
▁일하는	-12905
타우	-12906
태후	-12907
거를	-12908
▁홈구	-12909
▁최악의	-12910
▁독일어	-12911
▁복귀하였다	-12912
LE	-12913
OU	-12914
팀의	-12915
▁주사	-12916
▁제곱	-12917
▁실전	-12918
▁축출	-12919
▁추기경	-12920
▁존재하고	-12921
▁협상을	-12922
▁인정하고	-12923
▁나주	-12924
▁원수	-12925
임에도	-12926
▁가지가	-12927
▁구마모토	-12928
▁강수량은	-12929
병에	-12930
▁주식회	-12931
▁개념으로	-12932
▁머물렀다	-12933
결과	-12934
▁거울	-12935
▁아벨	-12936
▁극동	-12937
▁봉건	-12938
▁몬스터	-12939
▁철도가	-12940
▁미국을	-12941
▁다운로드	-12942
▁프톨레마이	-12943
▁We	-12944
겠다	-12945
▁부가	-12946
▁지주	-12947
▁스폰	-12948
사령관	-12949
있었다	-12950
▁넘어서	-12951
검찰청	-12952
▁행사를	-12953
▁따온	-12954
▁별은	-12955
▁정밀	-12956
▁카리브	-12957
▁올랐고	-12958
▁갈등을	-12959
▁별명을	-12960
▁주민들은	-12961
허가	-12962
▁데스	-12963
▁래퍼	-12964
생명	-12965
▁바오로	-12966
▁자격으로	-12967
전문학교	-12968
▁벌어졌다	-12969
나오	-12970
▁평범한	-12971
▁노동조합	-12972
▁헌법재판	-12973
위인	-12974
▁1902	-12975
▁인테	-12976
▁광저우	-12977
▁달한다	-12978
▁중국어	-12979
▁회장을	-12980
아야	-12981
함수	-12982
▁카디	-12983
▁교역	-12984
▁육군의	-12985
▁설명하는	-12986
협의	-12987
▁자오	-12988
▁학교의	-12989
▁독일이	-12990
▁그들에게	-12991
▁시장에서	-12992
ary	-12993
총장	-12994
▁자택	-12995
▁광둥	-12996
▁레바논	-12997
소득	-12998
▁기자회	-12999
▁상장	-13000
▁오케스트라	-13001
▁기록하면서	-13002
ree	-13003
▁EC	-13004
매매	-13005
체제	-13006
▁옳	-13007
▁혐	-13008
표는	-13009
근은	-13010
▁숫자	-13011
▁유로파	-13012
▁수학자	-13013
▁국립공	-13014
▁기독교의	-13015
▁추측된다	-13016
▁피신	-13017
▁원더	-13018
▁압둘	-13019
▁미시간	-13020
▁물질의	-13021
▁타이틀곡	-13022
▁Pr	-13023
▁SU	-13024
산리	-13025
▁디자	-13026
라이어	-13027
실험	-13028
▁척추	-13029
▁승강장이	-13030
▁00	-13031
량과	-13032
동이다	-13033
▁리뷰	-13034
폭탄	-13035
▁보유한	-13036
▁일대를	-13037
▁독립적인	-13038
대손	-13039
라톱	-13040
▁비자	-13041
운을	-13042
▁시위를	-13043
▁파이널	-13044
▁문자를	-13045
▁니콜라이	-13046
▁일리노이	-13047
퐁	-13048
도바	-13049
▁마우	-13050
▁시트	-13051
갈색	-13052
▁조언	-13053
▁아이치	-13054
▁제목의	-13055
▁종로구	-13056
대구	-13057
▁암시	-13058
▁왕세	-13059
▁존스	-13060
▁기사를	-13061
▁삼각형	-13062
▁불러일으	-13063
▁데뷔하였고	-13064
ᆸ시	-13065
▁쇄	-13066
▁대교	-13067
▁유교	-13068
▁단기	-13069
▁여신	-13070
▁이천	-13071
▁자를	-13072
하자는	-13073
▁정부에서	-13074
▁역임하고	-13075
▁이용한다	-13076
▁고등학교를	-13077
▁CJ	-13078
푸아	-13079
▁닦	-13080
연료	-13081
▁5,000	-13082
▁케임	-13083
▁등극	-13084
▁밀집	-13085
▁리그를	-13086
▁이론에	-13087
▁있기도	-13088
▁출시한	-13089
옆	-13090
지리	-13091
▁옴	-13092
궁의	-13093
▁위장	-13094
▁이유가	-13095
피언	-13096
▁축적	-13097
사업을	-13098
려서	-13099
술의	-13100
▁사쿠라	-13101
▁단어는	-13102
out	-13103
▁직결	-13104
▁청춘	-13105
▁위치는	-13106
▁69	-13107
▁좁	-13108
▁카우	-13109
▁미쳤다	-13110
▁나머지는	-13111
▁페르디난	-13112
킷	-13113
▁DC	-13114
▁GS	-13115
냐는	-13116
풍이	-13117
격은	-13118
▁승계	-13119
▁탤런	-13120
]],	-13121
▁New	-13122
퍼는	-13123
▁제니	-13124
▁해소	-13125
▁니가타	-13126
▁연꽃	-13127
▁가족은	-13128
▁확실히	-13129
▁3.1	-13130
금과	-13131
무는	-13132
강전	-13133
어지고	-13134
▁이준	-13135
▁중대	-13136
▁만일	-13137
▁가벼운	-13138
▁국제적인	-13139
노리	-13140
▁해수	-13141
▁경로	-13142
▁감행	-13143
▁교육과	-13144
▁고구려의	-13145
▁알려지게	-13146
▁형태이다	-13147
▁구분된다	-13148
열에	-13149
인한	-13150
▁둥글	-13151
▁민영	-13152
▁응원	-13153
▁잡았다	-13154
▁들어간다	-13155
▁삼촌	-13156
▁지냈고	-13157
▁팀에서	-13158
▁자유로운	-13159
▁정조	-13160
▁목을	-13161
▁알려져있다	-13162
끝	-13163
위해	-13164
근의	-13165
▁몰리	-13166
▁쓰시마	-13167
▁독일과	-13168
▁설치한	-13169
▁토너먼트	-13170
나고	-13171
▁하트	-13172
▁고민	-13173
▁드러머	-13174
▁것들이	-13175
▁출신인	-13176
ᆸ의	-13177
트페	-13178
▁하라	-13179
▁리만	-13180
▁법인	-13181
▁자치구	-13182
▁비판이	-13183
▁용어로	-13184
▁쇼트	-13185
▁중기	-13186
▁목표는	-13187
▁통틀어	-13188
▁JT	-13189
▁나아	-13190
▁메소	-13191
▁3,000	-13192
▁벨리	-13193
▁중산	-13194
▁마에	-13195
▁그래미	-13196
▁나가노	-13197
▁베드로	-13198
▁아래에서	-13199
ach	-13200
▁뷔	-13201
반도	-13202
주머니	-13203
▁강연	-13204
▁일으킬	-13205
칸의	-13206
▁파스	-13207
▁당일	-13208
▁블랙홀	-13209
▁시리즈에서	-13210
사기	-13211
▁달이	-13212
▁정서	-13213
▁분당	-13214
▁싶은	-13215
ᆼ은	-13216
▁팜	-13217
클로	-13218
▁자의	-13219
▁유닛	-13220
지에는	-13221
▁자회사	-13222
▁플랜	-13223
▁아폴로	-13224
▁완벽한	-13225
▁아쉬	-13226
협력	-13227
▁양이	-13228
대학교의	-13229
▁몸길이	-13230
티시	-13231
▁유저	-13232
▁대합	-13233
▁처음부터	-13234
두로	-13235
히메	-13236
년하	-13237
▁수면	-13238
▁의약	-13239
▁헬레	-13240
ey	-13241
하로	-13242
널티	-13243
▁때인	-13244
▁얻지	-13245
▁추산	-13246
▁먹을	-13247
▁성분	-13248
▁패배를	-13249
▁뚜렷한	-13250
▁사망하자	-13251
▁결혼하여	-13252
▁연결된다	-13253
▁브로드	-13254
▁조약에	-13255
▁헝가리의	-13256
▁떨어지는	-13257
▁결정하였다	-13258
▁알렉산드로	-13259
냉	-13260
▁그루	-13261
▁워터	-13262
▁곳의	-13263
법이다	-13264
▁웹툰	-13265
세기부터	-13266
▁클래스	-13267
▁총대주교	-13268
▁선수들을	-13269
▁나올	-13270
▁중공	-13271
▁피하기	-13272
▁아시카가	-13273
▁장군이	-13274
▁타격을	-13275
▁프로그램에	-13276
▁바나	-13277
▁발현	-13278
▁내무	-13279
▁사리	-13280
설은	-13281
▁도카이	-13282
▁스탈린	-13283
▁시칠리아	-13284
라기	-13285
커의	-13286
▁360	-13287
▁촉매	-13288
▁일방	-13289
▁역사에	-13290
▁부작용	-13291
▁스트리트	-13292
▁회사이다	-13293
▁강점기의	-13294
▁끊임없이	-13295
▁중화민국의	-13296
net	-13297
분해	-13298
▁쓰지	-13299
학원	-13300
▁꼭짓	-13301
▁만성	-13302
▁생략	-13303
▁존슨	-13304
▁가족의	-13305
▁성공회	-13306
▁추가적인	-13307
▁Sc	-13308
▁리오	-13309
▁성서	-13310
▁케빈	-13311
▁역사의	-13312
무가	-13313
▁헐	-13314
▁사면	-13315
▁있는지	-13316
마로	-13317
금지	-13318
잡이	-13319
▁쓰촨	-13320
▁지형	-13321
▁산란	-13322
!!	-13323
네시	-13324
하키	-13325
▁대치	-13326
▁마인	-13327
▁어른	-13328
▁교육의	-13329
▁일대에	-13330
▁간단히	-13331
▁장면을	-13332
,9	-13333
▁얽	-13334
▁기각	-13335
▁사슬	-13336
▁선수는	-13337
ase	-13338
▁몫	-13339
▁백색	-13340
▁언어는	-13341
▁계획이다	-13342
뿌	-13343
지오	-13344
반에	-13345
본의	-13346
장치	-13347
제작	-13348
인간	-13349
▁입성	-13350
▁세속	-13351
▁아열대	-13352
▁한나라당	-13353
▁룩셈부르크	-13354
기니	-13355
▁캉	-13356
들여	-13357
영과	-13358
▁마야	-13359
▁아데	-13360
해주는	-13361
▁양국	-13362
▁드물게	-13363
▁차량의	-13364
▁1901	-13365
▁모서	-13366
▁교전	-13367
▁무상	-13368
▁안나	-13369
▁농림	-13370
▁잡은	-13371
▁마음에	-13372
▁게임으로	-13373
▁역사적인	-13374
MP	-13375
▁이관	-13376
▁주도로	-13377
▁레슬링	-13378
▁태양을	-13379
▁아르헨티나의	-13380
▁사살	-13381
▁무료로	-13382
▁아무도	-13383
▁바이킹	-13384
▁갈수록	-13385
▁문예	-13386
▁수련	-13387
▁대회가	-13388
▁사고를	-13389
▁1-0	-13390
▁그다지	-13391
▁안토니오	-13392
ont	-13393
▁Man	-13394
전차	-13395
자라고	-13396
▁북구	-13397
▁패한	-13398
▁단축	-13399
교육을	-13400
▁병으로	-13401
▁것임을	-13402
▁나이지리아	-13403
곰	-13404
▁On	-13405
황제	-13406
▁수에	-13407
산물	-13408
▁이라고	-13409
▁협주곡	-13410
▁프랑스에	-13411
OD	-13412
▁우드	-13413
▁피겨	-13414
▁효소	-13415
▁서유럽	-13416
▁현재에	-13417
▁중요성을	-13418
피의	-13419
▁헤비	-13420
도이다	-13421
▁하동	-13422
▁중일	-13423
▁문화가	-13424
▁비율은	-13425
▁없었기	-13426
▁개발하고	-13427
▁발견하였다	-13428
▁조선로동당	-13429
통제	-13430
▁브란	-13431
▁특집	-13432
▁대통령으로	-13433
로이	-13434
추는	-13435
▁동국	-13436
▁벌인	-13437
▁주어져	-13438
▁기초를	-13439
▁정도를	-13440
sc	-13441
▁유년	-13442
▁국군	-13443
로부터의	-13444
생은	-13445
▁소말	-13446
▁국영	-13447
▁종속	-13448
▁올리고	-13449
▁총리가	-13450
▁경찰에	-13451
▁아리스토	-13452
▁얼굴을	-13453
▁할아버지	-13454
닛	-13455
▁구의	-13456
▁아레나	-13457
▁대표적	-13458
▁밖에도	-13459
▁주어진다	-13460
▁프로그램으로	-13461
▁Su	-13462
▁섀	-13463
레의	-13464
▁1884	-13465
▁정무	-13466
밀리에	-13467
▁비율이	-13468
▁각본가	-13469
단위	-13470
▁시바	-13471
▁에콰	-13472
▁왕을	-13473
▁남기고	-13474
그의	-13475
께서	-13476
▁50%	-13477
당해	-13478
▁비주	-13479
▁캐서	-13480
▁고창	-13481
층으로	-13482
운동의	-13483
▁군대에	-13484
▁연구의	-13485
▁정보가	-13486
▁정치가	-13487
▁손가락	-13488
▁파일을	-13489
▁진행하고	-13490
:0	-13491
쌀	-13492
▁Am	-13493
▁사절	-13494
▁침투	-13495
▁협동	-13496
▁즉위한	-13497
▁전력을	-13498
▁올림픽의	-13499
기계	-13500
골로	-13501
▁우호	-13502
▁표방	-13503
▁이루며	-13504
▁무함마	-13505
ost	-13506
기게	-13507
문자	-13508
▁유동	-13509
▁전체적인	-13510
▁로버	-13511
▁루터	-13512
▁시노	-13513
▁항소	-13514
글라데	-13515
▁어려서	-13516
▁견해를	-13517
▁일본국	-13518
▁KIA	-13519
▁호조	-13520
으려고	-13521
▁맛이	-13522
▁박스	-13523
▁즐거	-13524
▁산하에	-13525
▁예술가	-13526
▁밴드를	-13527
▁정해진	-13528
▁살았던	-13529
▁평가된다	-13530
▁지정되었다가	-13531
ect	-13532
▁세미	-13533
▁무성	-13534
▁빛이	-13535
▁스캔	-13536
스터는	-13537
▁콜린	-13538
▁유학을	-13539
▁운행한다	-13540
▁군이	-13541
▁콜레	-13542
▁태극	-13543
▁주장하며	-13544
두에	-13545
▁꼴	-13546
량에	-13547
주의가	-13548
▁금성	-13549
▁재능을	-13550
▁언급한	-13551
▁사랑하는	-13552
변에	-13553
▁음악에	-13554
▁시즌에서	-13555
우지	-13556
투자	-13557
봉사	-13558
▁고래	-13559
▁도미	-13560
▁아크	-13561
▁브랜	-13562
▁잘라	-13563
▁기존에	-13564
▁전역에	-13565
▁아버지인	-13566
▁입장에서	-13567
▁알렉산드르	-13568
이후	-13569
▁날카	-13570
▁여진	-13571
▁김창	-13572
▁지어져	-13573
▁과정이	-13574
▁공부를	-13575
▁유사하다	-13576
ᆨ한	-13577
검사	-13578
협의회	-13579
▁선종	-13580
▁유래된	-13581
▁근무했다	-13582
ath	-13583
▁맞은	-13584
▁부근에	-13585
▁시절의	-13586
▁왕국은	-13587
▁몸길이는	-13588
▁이스라엘의	-13589
▁다비	-13590
▁완화	-13591
양으로	-13592
들과는	-13593
언스	-13594
▁밝히고	-13595
▁Op	-13596
▁불리고	-13597
▁페널티	-13598
▁가고시마	-13599
▁공간이	-13600
개와	-13601
칼리	-13602
▁1903	-13603
▁고기	-13604
작곡	-13605
▁모용	-13606
▁부설	-13607
▁중재	-13608
▁중복	-13609
▁캔자스	-13610
▁한국은	-13611
세트	-13612
시키지	-13613
▁군산	-13614
▁영등	-13615
▁개인이	-13616
▁수도원	-13617
▁지키는	-13618
▁르네상스	-13619
버린	-13620
위성	-13621
봉은	-13622
▁놀이	-13623
▁자선	-13624
▁엔지니어	-13625
▁목소리를	-13626
▁전역에서	-13627
cc	-13628
-200	-13629
가요	-13630
▁솟	-13631
풍속	-13632
▁이란의	-13633
▁플라이	-13634
▁발렌시아	-13635
▁사단법인이다	-13636
▁CC	-13637
레아	-13638
하루	-13639
빌딩	-13640
▁수성	-13641
▁불상	-13642
▁사례가	-13643
▁결정하는	-13644
▁멋	-13645
바둑	-13646
종교	-13647
▁라파	-13648
▁하차	-13649
▁라트비아	-13650
▁비타	-13651
▁본부	-13652
▁성사	-13653
▁시범	-13654
▁초신	-13655
▁손으로	-13656
▁안으로	-13657
▁제국에	-13658
▁투어를	-13659
▁프란츠	-13660
▁고통을	-13661
▁포켓몬스터	-13662
▁프로레슬링	-13663
나서	-13664
지능	-13665
해온	-13666
▁무궁	-13667
▁차례의	-13668
▁미시시피	-13669
▁동생인	-13670
▁자이언츠	-13671
모에	-13672
타리	-13673
시청	-13674
▁손꼽	-13675
▁더욱이	-13676
▁들어갈	-13677
▁있으면서	-13678
판매	-13679
▁각자	-13680
▁발칸	-13681
▁중종	-13682
▁뒷받침	-13683
▁해결하기	-13684
루이	-13685
님은	-13686
▁마일	-13687
▁되지만	-13688
쪽은	-13689
▁시종	-13690
▁신축	-13691
▁도시철도	-13692
com	-13693
▁높게	-13694
▁기회가	-13695
▁총칭	-13696
▁취하고	-13697
▁뉴욕의	-13698
▁블루스	-13699
▁발언을	-13700
집의	-13701
온을	-13702
▁포획	-13703
▁스트레	-13704
▁함수의	-13705
▁슬로바키아	-13706
연수	-13707
▁분비	-13708
▁매니저	-13709
▁내용으로	-13710
▁방문한	-13711
▁실질적으로	-13712
설에	-13713
▁모은	-13714
▁지장	-13715
SP	-13716
ᆼ이	-13717
키를	-13718
▁꼭대	-13719
▁년에	-13720
▁북방	-13721
되어있다	-13722
▁한성부	-13723
피에	-13724
히토	-13725
운의	-13726
인권	-13727
▁포병	-13728
▁예수의	-13729
▁같은해	-13730
▁북아프리카	-13731
.5%	-13732
lude	-13733
만과	-13734
주택	-13735
▁주체	-13736
▁온가	-13737
▁자국	-13738
자라는	-13739
하자면	-13740
▁기초로	-13741
▁게임에	-13742
▁클라이	-13743
▁연고지로	-13744
▁클라이언	-13745
▁벵	-13746
범이	-13747
▁하시	-13748
▁바르샤	-13749
▁조지프	-13750
▁스위스의	-13751
▁실시한	-13752
▁지나면서	-13753
▁자신들이	-13754
서구	-13755
대륙	-13756
▁개가	-13757
▁두께	-13758
▁국기	-13759
▁입각	-13760
▁한국시리즈	-13761
사용	-13762
화물	-13763
▁보헤	-13764
▁이태	-13765
것을	-13766
레이터	-13767
산동	-13768
집은	-13769
▁철회	-13770
▁권장	-13771
▁진공	-13772
▁대전이	-13773
▁무대를	-13774
▁새겨진	-13775
학적인	-13776
▁위치하는	-13777
OW	-13778
여우	-13779
▁소지	-13780
▁오지	-13781
▁김지	-13782
▁대명	-13783
법에서	-13784
▁삿포로	-13785
▁프란체	-13786
정책을	-13787
▁해상에서	-13788
▁결정된다	-13789
▁카나	-13790
▁아미타	-13791
▁온천	-13792
▁차이로	-13793
▁파리의	-13794
▁환상	-13795
▁구단의	-13796
▁제도는	-13797
▁소송을	-13798
▁방글라데	-13799
▁랴	-13800
벽을	-13801
▁사범	-13802
면에는	-13803
▁코드를	-13804
▁표현하는	-13805
▁담당했다	-13806
▁라오	-13807
▁배신	-13808
▁설도	-13809
▁벼슬을	-13810
정신	-13811
▁칸의	-13812
▁드라이버	-13813
▁전했다	-13814
▁압력을	-13815
▁가옥	-13816
▁존재할	-13817
▁작용을	-13818
갱	-13819
숲	-13820
▁메커	-13821
▁모나	-13822
▁주오	-13823
한은	-13824
▁개종	-13825
▁견해	-13826
▁야마토	-13827
▁문서를	-13828
ream	-13829
것도	-13830
증의	-13831
전이다	-13832
▁상태의	-13833
▁온도가	-13834
▁경상도	-13835
▁기저	-13836
▁사람도	-13837
▁서울의	-13838
▁조정에	-13839
▁표면에	-13840
인구	-13841
▁해의	-13842
▁글루	-13843
사들이	-13844
협회는	-13845
▁죽였다	-13846
▁점령한	-13847
▁제안했다	-13848
▁이루어지는	-13849
▁건축물이다	-13850
순환	-13851
▁응시	-13852
▁마르코	-13853
▁앨범이	-13854
엔터테인	-13855
▁Tr	-13856
준비	-13857
친구	-13858
▁보라	-13859
▁알을	-13860
▁쪽은	-13861
▁아소	-13862
▁극대	-13863
▁막시	-13864
▁원을	-13865
▁자료가	-13866
▁복귀했다	-13867
네마	-13868
더의	-13869
보수	-13870
디를	-13871
돌은	-13872
▁만세	-13873
▁안치	-13874
▁가르쳐	-13875
▁밝힌	-13876
▁한인	-13877
장으로서	-13878
▁차지하며	-13879
▁성능을	-13880
▁받았지만	-13881
▁더불어민주당	-13882
▁86	-13883
▁가오	-13884
▁쓰레	-13885
▁기숙	-13886
▁맥락	-13887
▁보호하기	-13888
▁비밀리에	-13889
▁중앙아시아	-13890
주간	-13891
▁부지	-13892
▁유라	-13893
▁파나	-13894
림을	-13895
융합	-13896
▁도널드	-13897
조한	-13898
▁카트	-13899
▁몰라	-13900
▁미들	-13901
회의원	-13902
▁감안	-13903
▁만족시키는	-13904
GB	-13905
▁73	-13906
▁1897	-13907
나무는	-13908
왕후의	-13909
▁발급	-13910
▁쌓은	-13911
-9	-13912
▁고유의	-13913
▁소설가	-13914
▁중반에	-13915
▁예선에서	-13916
▁진행되는	-13917
▁AN	-13918
머는	-13919
▁악기	-13920
▁횡단	-13921
▁경기로	-13922
▁모른다	-13923
▁뮤지션	-13924
▁97	-13925
보와	-13926
담의	-13927
적과	-13928
▁세상	-13929
았다고	-13930
▁김홍	-13931
▁때에도	-13932
▁의미는	-13933
▁전하는	-13934
RA	-13935
▁체류	-13936
▁그레이트	-13937
▁실패한	-13938
천사	-13939
그라드	-13940
루에서	-13941
▁거북	-13942
▁북위	-13943
▁당연히	-13944
▁6,	-13945
세르	-13946
황이	-13947
▁세례	-13948
▁포드	-13949
▁퀘벡	-13950
▁연상	-13951
▁그려진	-13952
▁필리프	-13953
▁이때부터	-13954
▁위원회의	-13955
▁학문을	-13956
▁그렇지만	-13957
무로	-13958
킨스	-13959
▁다크	-13960
▁제의	-13961
▁도입된	-13962
;&	-13963
▁IM	-13964
메다	-13965
브르	-13966
▁그후	-13967
▁물의	-13968
▁단어를	-13969
▁GP	-13970
수소	-13971
쿠버	-13972
▁하남	-13973
나가는	-13974
호선과	-13975
▁민병	-13976
▁부분에서	-13977
▁콜로라도	-13978
▁스코틀랜드의	-13979
브루	-13980
테는	-13981
테면	-13982
신학	-13983
▁지옥	-13984
▁편에	-13985
▁생산을	-13986
▁인상을	-13987
~5	-13988
트루	-13989
▁기슭	-13990
▁선배	-13991
선수단	-13992
▁노선의	-13993
▁다니는	-13994
▁대학생	-13995
▁생방송	-13996
대대	-13997
▁눌	-13998
▁영산	-13999
▁제작을	-14000
전시	-14001
▁선과	-14002
▁이병	-14003
▁점프	-14004
▁Ne	-14005
▁공손	-14006
▁대가로	-14007
▁정의한다	-14008
▁74	-14009
노에	-14010
야에	-14011
▁레베	-14012
▁대안	-14013
▁알프레	-14014
▁설치하고	-14015
▁1800	-14016
▁이우	-14017
▁주위	-14018
▁하원	-14019
▁창녕	-14020
공무원	-14021
▁센다이	-14022
▁흥선대원	-14023
▁노태	-14024
▁조선에	-14025
▁도요토미	-14026
▁프랑스가	-14027
트페테르부르크	-14028
▁설립되었으며	-14029
빅	-14030
▁구와	-14031
▁피로	-14032
▁감리	-14033
▁품고	-14034
▁연세대학교	-14035
얄	-14036
▁저렴	-14037
▁국장	-14038
▁동행	-14039
▁쿠데타	-14040
▁변화는	-14041
▁이곳을	-14042
▁건설되었다	-14043
ake	-14044
▁크기를	-14045
▁시대부터	-14046
▁결론을	-14047
▁되어있다	-14048
▁신부	-14049
▁크라이	-14050
▁경기의	-14051
▁대학교는	-14052
▁떨어졌다	-14053
브스	-14054
▁돔	-14055
▁효고	-14056
▁법의	-14057
▁실망	-14058
▁아나키	-14059
▁영향력이	-14060
ii	-14061
ᆸ스	-14062
타워	-14063
▁1860	-14064
▁코코	-14065
국립	-14066
▁배상	-14067
▁작아	-14068
▁등용	-14069
▁연금	-14070
▁형성하고	-14071
빈의	-14072
리에이	-14073
월에서	-14074
▁미네소	-14075
▁공격수	-14076
▁기준을	-14077
▁운영을	-14078
▁음악은	-14079
▁대학교를	-14080
co	-14081
운이	-14082
▁피트	-14083
▁괴롭	-14084
▁부품	-14085
▁불어	-14086
▁이북	-14087
▁잔류	-14088
▁점에	-14089
▁호출	-14090
▁병역	-14091
▁있음	-14092
▁한층	-14093
▁접하며	-14094
▁범위를	-14095
▁전반에	-14096
▁이를테면	-14097
▁예정이었으나	-14098
▁ID	-14099
체고	-14100
▁킬	-14101
발사	-14102
탄의	-14103
자에서	-14104
▁산의	-14105
▁안테	-14106
▁강은	-14107
▁정말	-14108
▁드러났다	-14109
쁘	-14110
주자	-14111
감으로	-14112
▁산림	-14113
▁산출	-14114
▁세력의	-14115
▁선생의	-14116
▁원인을	-14117
▁통일신라	-14118
학부	-14119
▁무지	-14120
▁씨의	-14121
▁남구	-14122
▁걱정	-14123
▁제네바	-14124
▁무조건	-14125
년하계올림픽	-14126
TP	-14127
sh	-14128
▁900	-14129
감에	-14130
약한	-14131
▁공과	-14132
▁과일	-14133
▁주행	-14134
▁해마다	-14135
적으로도	-14136
▁가브리에	-14137
▁승무원	-14138
▁도입하였다	-14139
▁87	-14140
▁NGC	-14141
▁테르	-14142
범을	-14143
▁달갸	-14144
▁불꽃	-14145
▁트리플	-14146
▁공격하여	-14147
▁죽이	-14148
▁얼음	-14149
▁학생들의	-14150
주지	-14151
받게	-14152
▁적지	-14153
GA	-14154
너가	-14155
리코	-14156
위기	-14157
티가	-14158
▁자크	-14159
▁보성	-14160
▁본거	-14161
▁새로이	-14162
▁포로로	-14163
▁유형의	-14164
▁출신이며	-14165
놈	-14166
테크	-14167
▁대책	-14168
▁번에	-14169
호선이	-14170
▁이내에	-14171
▁마천루	-14172
▁스타리그	-14173
US	-14174
iss	-14175
▁기증	-14176
▁단절	-14177
▁사이토	-14178
▁수비수	-14179
▁텍스트	-14180
▁페이스북	-14181
▁확실한	-14182
요를	-14183
▁델라	-14184
▁유연	-14185
▁화강	-14186
판에서	-14187
▁증거가	-14188
▁국제적	-14189
▁장비를	-14190
▁정권의	-14191
카에	-14192
▁드레	-14193
▁히타	-14194
팀을	-14195
▁슈팅	-14196
▁폭로	-14197
▁있거나	-14198
▁지나는	-14199
▁캠퍼스	-14200
ᆻ는지는	-14201
▁정치를	-14202
들에게는	-14203
▁수준으로	-14204
▁포스트시즌	-14205
▁깨끄	-14206
발은	-14207
▁수축	-14208
▁시공	-14209
▁건륭	-14210
계약을	-14211
위원을	-14212
트로이트	-14213
행위를	-14214
▁산하의	-14215
▁없어서	-14216
▁위험을	-14217
▁뮈	-14218
우기	-14219
쿠니	-14220
▁가려	-14221
▁조세	-14222
순은	-14223
▁김제	-14224
▁아라비아	-14225
▁의원을	-14226
츄	-14227
남을	-14228
▁모양이	-14229
▁대표적으로	-14230
▁볼로	-14231
▁이장	-14232
▁강동	-14233
▁퇴역	-14234
▁하에서	-14235
▁정치에	-14236
▁효과적으로	-14237
▁이탈리아에서	-14238
old	-14239
own	-14240
르며	-14241
인터	-14242
▁이데	-14243
▁키스	-14244
수에서	-14245
▁서민	-14246
▁푸에르	-14247
▁서울대	-14248
▁에디션	-14249
▁청와대	-14250
▁불가능한	-14251
▁7,	-14252
▁신조	-14253
▁호응	-14254
▁엔딩	-14255
▁페이지	-14256
▁경계로	-14257
▁딸이다	-14258
▁베네딕	-14259
▁본인이	-14260
근이	-14261
모델	-14262
관련	-14263
▁덮여	-14264
▁소금	-14265
▁슬프	-14266
팀으로	-14267
▁대통령과	-14268
▁비판하였다	-14269
▁승강장을	-14270
공격	-14271
▁가환	-14272
▁의석	-14273
▁끝날	-14274
▁규정에	-14275
▁요새를	-14276
▁산업의	-14277
▁주목할	-14278
▁혁명의	-14279
▁81	-14280
가수	-14281
표가	-14282
의원	-14283
▁니코	-14284
▁무의	-14285
▁샌드	-14286
▁아담	-14287
심에서	-14288
▁사카이	-14289
▁임관	-14290
▁조사에	-14291
▁탐색	-14292
▁데뷔한	-14293
▁삼층석탑	-14294
▁영화가	-14295
▁최소한	-14296
▁후보는	-14297
▁동안의	-14298
ᆯ레스	-14299
통은	-14300
▁선도	-14301
▁낳은	-14302
▁협박	-14303
▁관련해	-14304
▁이루어지지	-14305
었기	-14306
해졌고	-14307
▁프레데	-14308
▁나란히	-14309
▁더이상	-14310
▁기업인	-14311
▁영국에	-14312
ick	-14313
▁수료	-14314
간은	-14315
▁사업에	-14316
▁쌍둥이	-14317
▁저작권	-14318
▁대한민국과	-14319
MI	-14320
▁CS	-14321
할때	-14322
게이트	-14323
▁치른	-14324
▁탄도	-14325
족으로	-14326
▁목록에	-14327
▁생긴다	-14328
▁설치하여	-14329
▁올라간다	-14330
랑을	-14331
브리아	-14332
억원	-14333
행동	-14334
▁땄다	-14335
▁에이스	-14336
▁장흥	-14337
▁태국의	-14338
▁게임에서	-14339
▁진행했다	-14340
▁드래프트에서	-14341
▁엮	-14342
발로	-14343
직의	-14344
▁대두	-14345
▁아바	-14346
▁위와	-14347
▁가동	-14348
▁수확	-14349
▁일체	-14350
▁필드	-14351
▁균형	-14352
▁성종	-14353
▁소비자	-14354
▁짐작	-14355
▁섬이다	-14356
▁나중에는	-14357
▁대응하는	-14358
▁1880	-14359
▁해남	-14360
▁급성	-14361
▁도시에	-14362
▁돌입	-14363
▁뒤에도	-14364
▁불명	-14365
▁열린다	-14366
▁영향이	-14367
▁함부르크	-14368
▁점령하고	-14369
▁천연기념	-14370
▁취임하였다	-14371
ᆫ의	-14372
▁서포	-14373
독일	-14374
▁값이	-14375
▁넓게	-14376
▁마블	-14377
나갔다	-14378
지역에	-14379
천으로	-14380
▁스즈키	-14381
기록을	-14382
▁작가의	-14383
▁기록으로	-14384
ix	-14385
ᆮ고	-14386
에미	-14387
채가	-14388
▁마스	-14389
▁튀니	-14390
▁상세	-14391
▁왜곡	-14392
▁질환	-14393
▁충실	-14394
▁스리랑	-14395
▁아마존	-14396
▁방사성	-14397
▁수행할	-14398
▁이고	-14399
▁시점	-14400
▁검출	-14401
▁뉴저지	-14402
▁말하면	-14403
▁그랑프리	-14404
▁디트로이트	-14405
▁배가	-14406
▁날이	-14407
▁뽑아	-14408
▁적다	-14409
▁포장	-14410
루스는	-14411
▁광양	-14412
▁생식	-14413
▁포기하고	-14414
▁건설을	-14415
▁해당된다	-14416
히데	-14417
공주	-14418
미한	-14419
해튼	-14420
▁2022	-14421
▁비치	-14422
상업	-14423
▁실버	-14424
▁사용되어	-14425
교와	-14426
한이	-14427
▁강희	-14428
▁이산	-14429
▁함대	-14430
▁맺은	-14431
▁제치고	-14432
▁리더십	-14433
▁드라이브	-14434
▁작업에	-14435
▁단계에서	-14436
RE	-14437
타입	-14438
▁제로	-14439
▁간토	-14440
▁꽃이	-14441
▁웨스턴	-14442
hPa	-14443
▁발의	-14444
▁사정	-14445
▁못하여	-14446
▁질량이	-14447
▁시스템에	-14448
르지	-14449
▁고사	-14450
▁유러	-14451
혹한	-14452
▁퇴임	-14453
끄러운	-14454
▁권총	-14455
▁형성되어	-14456
으니	-14457
살의	-14458
▁뚜렷	-14459
▁석탑	-14460
▁도왔다	-14461
▁바실리	-14462
▁볼셰비	-14463
▁때문이라고	-14464
다를	-14465
채는	-14466
▁더해	-14467
▁이닝	-14468
▁해명	-14469
학교의	-14470
▁성숙	-14471
▁다녔다	-14472
▁마을에	-14473
▁주제를	-14474
▁미사일을	-14475
▁언급했다	-14476
▁캘	-14477
계급	-14478
▁카로	-14479
레이크	-14480
▁수컷	-14481
▁암컷	-14482
▁경제의	-14483
▁교회를	-14484
▁암호화	-14485
▁격렬한	-14486
▁데이터베이스	-14487
▁30%	-14488
루스의	-14489
▁강에	-14490
▁견제	-14491
▁동위	-14492
▁백화	-14493
▁조립	-14494
들보다	-14495
▁미래의	-14496
▁병을	-14497
▁구성되었다	-14498
▁들려	-14499
▁화순	-14500
▁낙동	-14501
▁명이다	-14502
▁백제의	-14503
▁보다는	-14504
▁환자의	-14505
▁고향인	-14506
▁기간은	-14507
▁붙여진	-14508
▁파란색	-14509
대학교는	-14510
▁공개했다	-14511
기자	-14512
단지	-14513
▁아산	-14514
▁여운	-14515
▁장미	-14516
▁고려시대	-14517
▁국왕의	-14518
▁도시에서	-14519
▁버전을	-14520
▁수익을	-14521
▁시작하면서	-14522
준이	-14523
▁보드	-14524
되므로	-14525
▁들을	-14526
▁애비뉴	-14527
▁송나라	-14528
▁러시아는	-14529
스텔	-14530
▁가네	-14531
양함	-14532
▁무슨	-14533
시켰으며	-14534
▁프로덕션	-14535
▁플레이어는	-14536
팀에	-14537
▁무실	-14538
ype	-14539
▁Is	-14540
어스	-14541
▁20%	-14542
위이다	-14543
▁임명되었고	-14544
St	-14545
▁79	-14546
▁꿀	-14547
▁부시	-14548
▁각국의	-14549
▁향토문화	-14550
▁넬	-14551
거진	-14552
하임	-14553
▁보게	-14554
▁영지	-14555
▁패널	-14556
▁비용이	-14557
▁되었던	-14558
▁의미하며	-14559
▁친일파	-14560
▁개념이다	-14561
루냐	-14562
거리가	-14563
▁기하여	-14564
▁김병	-14565
▁빈번	-14566
▁투수가	-14567
▁메달을	-14568
▁둘러싸여	-14569
▁물건을	-14570
▁음반으로	-14571
▁일렉트로	-14572
CAF	-14573
카리	-14574
▁조조	-14575
직은	-14576
척을	-14577
▁상이	-14578
▁시립	-14579
▁설명할	-14580
▁실시하고	-14581
▁장군은	-14582
▁평가했다	-14583
변의	-14584
운다	-14585
▁드리	-14586
웨이트	-14587
▁구약	-14588
▁성이	-14589
▁차남	-14590
▁문인	-14591
▁창출	-14592
▁평정	-14593
▁아돌프	-14594
▁공항은	-14595
사도	-14596
▁GDP	-14597
락이	-14598
젤로	-14599
▁다마	-14600
▁이규	-14601
▁뒤이어	-14602
▁그로부터	-14603
▁재판을	-14604
▁진출한	-14605
▁위원회는	-14606
피가	-14607
하와	-14608
병과	-14609
▁마르세	-14610
▁중장	-14611
▁주장에	-14612
▁회사인	-14613
▁움직임	-14614
▁결정한다	-14615
유도	-14616
▁과의	-14617
▁로그	-14618
▁세비	-14619
▁윤보	-14620
▁신탁	-14621
▁탁월	-14622
▁문화와	-14623
▁인증을	-14624
ence	-14625
부리	-14626
캐슬	-14627
▁미터	-14628
건축	-14629
▁알지	-14630
명에서	-14631
▁마다가	-14632
▁마을에서	-14633
GM	-14634
▁84	-14635
▁하부	-14636
▁감싸	-14637
▁남게	-14638
▁전지	-14639
▁환영	-14640
▁벌어져	-14641
▁패밀리	-14642
ork	-14643
애틀	-14644
▁제퍼	-14645
▁받았다고	-14646
▁발생하여	-14647
키아의	-14648
훈을	-14649
되도록	-14650
▁충성	-14651
▁중대한	-14652
▁부드러운	-14653
▁커뮤니케이션	-14654
-14	-14655
▁뾰	-14656
▁씌	-14657
코타	-14658
형사	-14659
▁워너	-14660
차이나	-14661
▁온대	-14662
▁중서	-14663
▁청소	-14664
▁독립운동가	-14665
▁쿤	-14666
분과	-14667
업의	-14668
▁사간	-14669
▁원의	-14670
▁스카우	-14671
▁지도를	-14672
▁행동에	-14673
▁건축물	-14674
▁어드벤처	-14675
▁연합군	-14676
▁우승했다	-14677
▁III	-14678
국적	-14679
▁그렸다	-14680
▁지구를	-14681
▁서식지는	-14682
▁솜	-14683
▁넘게	-14684
▁자생	-14685
▁보내고	-14686
▁협정	-14687
▁가정에서	-14688
▁학생들은	-14689
▁시작하였으며	-14690
▁71	-14691
부상	-14692
초는	-14693
▁교리	-14694
▁나루	-14695
픽을	-14696
▁돌을	-14697
▁소리가	-14698
▁궤도를	-14699
▁역사와	-14700
▁끌었다	-14701
▁헌법에	-14702
했습니다	-14703
▁중점을	-14704
▁사용하면	-14705
▁개인적인	-14706
▁스튜디오에서	-14707
▁No	-14708
▁여우	-14709
▁하비	-14710
▁길에	-14711
하기는	-14712
▁데스크	-14713
▁선수로서	-14714
▁음악적	-14715
▁BS	-14716
▁마가	-14717
▁해고	-14718
러시아	-14719
▁감마	-14720
▁블러	-14721
▁비영	-14722
▁사관	-14723
▁플라스틱	-14724
깐	-14725
슴	-14726
▁LA	-14727
미트	-14728
아래	-14729
공연	-14730
마스터	-14731
▁윤리	-14732
include	-14733
안에서	-14734
▁동문	-14735
▁헌정	-14736
▁경찰의	-14737
▁평화를	-14738
▁경향을	-14739
5,	-14740
_12	-14741
램	-14742
킥	-14743
▁룰	-14744
▁위헌	-14745
▁온갖	-14746
▁판정	-14747
▁되돌아	-14748
▁조직이	-14749
▁청주시	-14750
▁보도했다	-14751
▁제기되었다	-14752
.11	-14753
▁비미	-14754
▁카카	-14755
▁쿠르	-14756
명이었다	-14757
▁그레고리오	-14758
▁등장하였다	-14759
루아	-14760
▁다테	-14761
테스트	-14762
▁냄새	-14763
▁섬이	-14764
▁부대가	-14765
▁휘하의	-14766
▁알리는	-14767
▁정치적인	-14768
▁지미	-14769
▁회수	-14770
▁김옥	-14771
▁신정	-14772
▁입을	-14773
▁종착	-14774
▁집결	-14775
▁디비시온	-14776
▁CN	-14777
▁리베	-14778
▁어뢰	-14779
바야시	-14780
전국	-14781
▁갖춰	-14782
▁영유	-14783
▁태백	-14784
업으로	-14785
▁가지의	-14786
▁예이다	-14787
FF	-14788
니치	-14789
▁키는	-14790
▁갱신	-14791
▁김민	-14792
▁게릴라	-14793
▁토지를	-14794
▁각지에서	-14795
▁사용되며	-14796
니오	-14797
▁램	-14798
말에	-14799
취를	-14800
형제	-14801
▁사바	-14802
▁진지	-14803
년대와	-14804
ᆯ림픽	-14805
▁모티브	-14806
▁여우주연	-14807
▁불가능하다	-14808
노르	-14809
▁CEO	-14810
상도	-14811
▁수색	-14812
▁아닐	-14813
▁각색	-14814
▁기여를	-14815
▁토너먼	-14816
▁클레멘	-14817
▁선출된	-14818
안과	-14819
▁부다	-14820
▁지수	-14821
도르프	-14822
집단	-14823
크리트	-14824
▁호칭	-14825
직으로	-14826
▁다케다	-14827
▁칭찬	-14828
▁역까지	-14829
▁건축가	-14830
▁이적하여	-14831
▁발각	-14832
▁현악	-14833
▁흔적이	-14834
▁동일하다	-14835
ᅪᆼ	-14836
야와	-14837
유지	-14838
▁히라	-14839
▁이빨	-14840
번으로	-14841
▁투수로	-14842
▁기관총	-14843
▁가르쳤다	-14844
▁분위기를	-14845
▁방송되는	-14846
▁팔레스타인	-14847
OT	-14848
ear	-14849
▁소모	-14850
▁시대가	-14851
▁사랑에	-14852
▁허가를	-14853
히트	-14854
▁젊	-14855
복은	-14856
▁한해	-14857
▁작업이	-14858
++	-14859
ox	-14860
녜	-14861
▁국어	-14862
▁살려	-14863
여명의	-14864
▁교수를	-14865
▁위험이	-14866
▁가문은	-14867
리자	-14868
보니	-14869
플래	-14870
▁1870	-14871
광을	-14872
▁생화	-14873
▁앤더	-14874
▁공습	-14875
▁세이부	-14876
▁현재도	-14877
▁미네소타	-14878
▁똑같은	-14879
▁합류했다	-14880
나에	-14881
컨대	-14882
▁입헌	-14883
▁마르틴	-14884
▁외에는	-14885
▁선수단은	-14886
▁방송되었던	-14887
MC	-14888
커가	-14889
▁세조	-14890
벌을	-14891
▁별이	-14892
▁없던	-14893
▁전격	-14894
▁주머니	-14895
▁비행기	-14896
▁꼽힌다	-14897
▁점수를	-14898
▁작가이다	-14899
▁통합하여	-14900
선수권대회	-14901
형인	-14902
ᆻ으면	-14903
▁줄여	-14904
▁황해	-14905
▁반공	-14906
▁시험을	-14907
▁연구에서	-14908
▁측에	-14909
것으로	-14910
▁간신	-14911
▁견인	-14912
▁보여준	-14913
▁전두환	-14914
▁김정은	-14915
▁되었다는	-14916
▁취임했다	-14917
짱	-14918
▁1885	-14919
▁개를	-14920
▁미친	-14921
▁이방	-14922
▁콜라	-14923
▁발병	-14924
▁아라고	-14925
떼	-14926
▁350	-14927
절이	-14928
▁난을	-14929
▁양반	-14930
▁정립	-14931
▁칼뱅	-14932
▁인간을	-14933
▁경기장이다	-14934
▁출판되었다	-14935
lass	-14936
철이	-14937
콜라	-14938
▁마녀	-14939
▁클러	-14940
현에서	-14941
▁굵은	-14942
▁누구나	-14943
박쥐과에	-14944
▁정권이	-14945
▁빨간색	-14946
▁연결되는	-14947
▁반도체	-14948
[...]
