[PAD]	0
[UNK]	0
[BOS]	0
[EOS]	0
[CLS]	0
[SEP]	0
[MASK]	0
▁▃	-0
▁ㅇ	-1
ㅡㄴ	-2
▁ㄱ	-3
▁ㄷ	-4
▁.	-5
ㅡㄹ	-6
▁ㄴ	-7
▁ㄴㅡㄴ	-8
▁ㅇㅔ	-9
▁ㄹ	-10
▁ㄷㅏ	-11
▁ㅇㅣ	-12
▁ㅎ	-13
▁이	-14
▁ㅇㅢ	-15
▁ㅇㅡㄹ	-16
▁하	-17
ㅏㄴ	-18
▁,	-19
ㅅㅓ	-20
▁ㄱㅏ	-21
▁ㄹㅡㄹ	-22
▁ㅇㅡㄴ	-23
▁ㅁ	-24
ㅈㅣ	-25
▁ㄱㅗ	-26
ㄷㅏ	-27
▁ㅇㅡ	-28
▁ㅎㅏㄴ	-29
▁ㅇㅓ	-30
▁있	-31
ㄹㅗ	-32
▁1	-33
▁ㄷㅗ	-34
▁ㄹㅗ	-35
▁2	-36
▁사	-37
▁그	-38
▁ㅎㅐ	-39
▁ㅈㅣ	-40
▁들	-41
▁ㅁㅕ	-42
▁아	-43
▁시	-44
▁ㅂ	-45
▁수	-46
▁대	-47
▁되	-48
▁ㄱㅣ	-49
▁ㄱㅔ	-50
▁ㄹㅏ	-51
▁가	-52
▁ㅇㅓㅆ	-53
▁전	-54
▁일	-55
▁기	-56
▁적	-57
▁자	-58
▁ㅇㅣㄴ	-59
▁ㅁㅕㄴ	-60
▁것	-61
▁ㅇㅏ	-62
▁다	-63
▁-	-64
▁보	-65
▁지	-66
▁ㅇㅘ	-67
▁ㄱㅘ	-68
▁ㅎㅐㅆ	-69
▁스	-70
▁마	-71
▁주	-72
▁정	-73
ㄴㄷㅏ	-74
▁상	-75
ㄱㅗ	-76
▁ㄷㅚ	-77
▁'	-78
▁때	-79
ㅏㄹ	-80
ㅓㄴ	-81
ㄴㅡㄴ	-82
▁3	-83
ㅕㅆ	-84
▁ㅎㅏㄴㄷㅏ	-85
▁년	-86
▁ㅈ	-87
▁모	-88
▁나	-89
▁공	-90
▁중	-91
▁20	-92
ㅁㅕ	-93
▁유	-94
▁경	-95
ㅎㅐ	-96
▁제	-97
▁한	-98
ㅁㅏㄴ	-99
▁인	-100
▁없	-101
▁오	-102
ㄴㅏ	-103
▁부	-104
▁등	-105
▁성	-106
▁:	-107
▁소	-108
▁ㄴㅏ	-109
▁무	-110
▁ㅅ	-111
▁않	-112
ㄱㅔ	-113
▁ㅎㅏㄹ	-114
▁ㅂㅗ	-115
ㄷㅔ	-116
▁비	-117
▁미	-118
▁ㄷㅓㄴ	-119
ㅣㄴ	-120
▁개	-121
▁4	-122
▁여	-123
▁ㅁㅏㄴ	-124
▁어	-125
▁ㄲ	-126
▁"	-127
▁만	-128
▁세	-129
▁고	-130
▁장	-131
▁조	-132
▁5	-133
▁동	-134
▁방	-135
▁카	-136
▁바	-137
▁위	-138
▁월	-139
▁도	-140
▁연	-141
▁신	-142
▁거	-143
ㄹㄹ	-144
▁영	-145
▁타	-146
▁때문	-147
▁선	-148
▁201	-149
▁안	-150
▁후	-151
▁화	-152
▁말	-153
▁ㄴㅡㄴㄷㅔ	-154
▁/	-155
ㅎㅏㄴ	-156
▁발	-157
▁구	-158
ㄱㅏ	-159
ㅁㅕㄴ	-160
▁리	-161
▁레	-162
▁ㄷㅚㄴ	-163
▁ㄲㅏ	-164
▁내	-165
▁0	-166
▁차	-167
▁원	-168
▁생	-169
▁파	-170
ㅇㅓ	-171
▁우	-172
▁최	-173
▁실	-174
▁당	-175
▁명	-176
▁문	-177
▁노	-178
▁같	-179
▁많	-180
▁ㅈㅏ	-181
ㅜㄴ	-182
▁ㅇㅕㅆ	-183
▁ㄷㅚㄴㄷㅏ	-184
▁번	-185
▁해	-186
▁더	-187
▁단	-188
▁포	-189
▁데	-190
▁ㄱㅓ	-191
▁특	-192
▁6	-193
▁서	-194
▁작	-195
▁강	-196
▁역	-197
▁ㅂㅜ	-198
▁경우	-199
▁결	-200
▁ㅇㅏㅆ	-201
▁받	-202
▁관	-203
▁게	-204
▁ㅊ	-205
▁불	-206
▁진	-207
▁10	-208
▁반	-209
▁라	-210
▁프	-211
ㄷㅗ	-212
▁초	-213
▁의	-214
ㄹㅏ	-215
▁ㅁㅕㄴㅅㅓ	-216
▁계	-217
▁S	-218
▁회	-219
▁7	-220
▁버	-221
▁아니	-222
▁코	-223
▁배	-224
▁ㅇㅕ	-225
▁19	-226
▁ㄸ	-227
▁!	-228
▁8	-229
▁드	-230
▁분	-231
ㅌㅓ	-232
▁현	-233
▁물	-234
▁남	-235
▁에	-236
▁편	-237
▁사용	-238
▁국	-239
▁출	-240
▁크	-241
▁정도	-242
▁사람	-243
ㄹㅓ	-244
▁이후	-245
▁공격	-246
ㅣㄴㄷㅏ	-247
▁자신	-248
▁추	-249
▁매	-250
▁피	-251
▁9	-252
레이	-253
▁호	-254
▁좋	-255
▁로	-256
▁ㄷㅐ	-257
▁점	-258
ㄴㅣ	-259
▁A	-260
▁ㅋ	-261
▁M	-262
▁감	-263
▁요	-264
▁트	-265
▁그리	-266
▁재	-267
▁교	-268
▁등장	-269
▁학	-270
▁ㅅㅓ	-271
▁ㅆ	-272
▁패	-273
▁또	-274
ㅇㅑ	-275
▁참	-276
▁가능	-277
▁캐	-278
▁예	-279
▁형	-280
▁저	-281
▁설	-282
▁두	-283
ㄹㅕ	-284
ㅇㅗ	-285
▁입	-286
스트	-287
▁달	-288
▁플	-289
▁ㅇㅟ	-290
▁본	-291
ㅣㄹ	-292
ㅇㅡ	-293
▁함	-294
▁치	-295
▁ㅁㅗ	-296
▁알	-297
▁과	-298
▁군	-299
▁메	-300
ㅇㅜㄴ	-301
▁T	-302
▁다른	-303
▁C	-304
▁속	-305
▁판	-306
▁게임	-307
▁평	-308
▁권	-309
ㅇㅕ	-310
▁200	-311
▁종	-312
▁ㅌ	-313
ㅈㅣㄴ	-314
▁외	-315
▁..	-316
▁용	-317
▁D	-318
▁ㄴㅡㄴㄷㅏ	-319
▁김	-320
▁아이	-321
▁토	-322
▁사실	-323
▁B	-324
▁애	-325
▁그리고	-326
▁%	-327
▁~	-328
▁체	-329
▁직	-330
▁ㅅㅣ	-331
▁ㅇㅗ	-332
▁ㅁㅏ	-333
▁하나	-334
▁쓰	-335
▁잘	-336
▁죽	-337
▁처	-338
▁키	-339
▁승	-340
ㅇㅏ	-341
▁ㅂㅓ	-342
▁ㄴㅣ	-343
▁운	-344
ㅇㅘ	-345
▁확	-346
▁심	-347
▁필	-348
▁살	-349
▁테	-350
▁히	-351
▁행	-352
▁+	-353
▁못	-354
▁디	-355
▁?	-356
▁간	-357
▁사이	-358
▁일본	-359
▁팀	-360
▁나오	-361
▁ㅂㅏ	-362
▁변	-363
ㅇㅎㅐ	-364
er	-365
▁이름	-366
▁12	-367
▁모습	-368
ㅈㅕ	-369
▁P	-370
▁통	-371
▁투	-372
▁야	-373
▁시간	-374
ㄴㅏㄴ	-375
▁목	-376
▁뒤	-377
지만	-378
▁집	-379
00	-380
▁이상	-381
▁존	-382
▁높	-383
▁그러	-384
▁베	-385
▁ㄱㅓㄴ	-386
▁활	-387
▁네	-388
스터	-389
▁언	-390
▁L	-391
▁캐릭	-392
ㄹㄹㅕ	-393
▁양	-394
▁맞	-395
▁박	-396
▁하지만	-397
▁표	-398
▁한국	-399
▁문제	-400
▁능	-401
▁루	-402
▁각	-403
▁상대	-404
▁ㄹㅕ	-405
▁캐릭터	-406
▁F	-407
▁건	-408
▁왕	-409
▁듯	-410
▁G	-411
▁ㅈㅜ	-412
▁생각	-413
▁병	-414
▁ㄱㅡ	-415
▁함께	-416
▁돌	-417
in	-418
▁ㅊㅓ	-419
▁순	-420
▁시작	-421
ㄹㅓㅁ	-422
ㅇㅝ	-423
▁천	-424
▁11	-425
대로	-426
▁약	-427
▁항	-428
▁손	-429
▁E	-430
▁완	-431
▁별	-432
▁경기	-433
▁독	-434
▁ㄴㅐ	-435
ㄹㅡㄴ	-436
▁브	-437
▁당시	-438
▁프로	-439
▁능력	-440
▁ㄱㅔㅆ	-441
▁ㅍ	-442
▁폭	-443
▁블	-444
▁효	-445
▁식	-446
▁근	-447
▁가지	-448
▁ㄸㅏ	-449
▁ㅇㅑ	-450
▁가장	-451
▁따	-452
▁K	-453
▁만들	-454
이트	-455
▁복	-456
▁막	-457
▁잡	-458
▁ㅎㅏ	-459
▁ㅃ	-460
▁음	-461
▁시리	-462
▁다시	-463
▁또한	-464
on	-465
▁ㄱㅓㄹ	-466
▁증	-467
▁총	-468
▁힘	-469
▁먹	-470
▁클	-471
▁광	-472
▁검	-473
▁페	-474
▁다만	-475
▁삼	-476
an	-477
ㅈㅕㅆ	-478
▁15	-479
▁플레이	-480
ㅂㄴㅣ	-481
▁H	-482
▁상황	-483
▁결국	-484
▁너	-485
▁상태	-486
▁날	-487
▁시리즈	-488
▁R	-489
ㅓㄹ	-490
▁시즌	-491
▁많이	-492
▁열	-493
▁카드	-494
ㅅㅓㄴ	-495
미지	-496
▁I	-497
▁N	-498
▁모두	-499
▁충	-500
▁쿠	-501
▁악	-502
▁백	-503
ㄹㅣㄴ	-504
▁세계	-505
ㄴㅣㄴ	-506
▁곡	-507
▁m	-508
▁존재	-509
▁얼	-510
▁물론	-511
▁전투	-512
▁보이	-513
▁추가	-514
▁급	-515
▁금	-516
▁모든	-517
▁ㄷㅡㄹ	-518
▁업	-519
▁엔	-520
▁ㅂㅗㄹ	-521
▁상당	-522
or	-523
▁그런	-524
▁t	-525
라이	-526
▁ㄷㅚㄹ	-527
▁ㅁㅗㅅ	-528
▁슈	-529
▁산	-530
ㄴㅐ	-531
ㄲㅏ	-532
▁끝	-533
▁스킬	-534
▁기술	-535
ㄱㅕ	-536
▁태	-537
▁현재	-538
▁라이	-539
▁티	-540
▁ㅇㅣㄹ	-541
▁매우	-542
▁이런	-543
▁눈	-544
ㅇㅗㄴ	-545
▁올	-546
▁자체	-547
▁임	-548
▁극	-549
▁채	-550
▁친	-551
▁효과	-552
▁및	-553
▁그러나	-554
▁#	-555
▁무기	-556
▁실제	-557
▁선수	-558
▁커	-559
ㄹㄹㅏ	-560
▁머	-561
▁ㅋㅡㄴ	-562
▁O	-563
▁ㅅㅐ	-564
▁레이	-565
▁레벨	-566
▁팬	-567
▁절	-568
ar	-569
▁스타	-570
▁민	-571
▁이유	-572
▁그렇	-573
▁앞	-574
▁길	-575
ㅇㅣㄴㄷㅏ	-576
▁거의	-577
▁취	-578
▁W	-579
▁터	-580
▁마법	-581
▁이용	-582
▁난	-583
ㅜㄹ	-584
ㅇㅘㅆ	-585
▁주인	-586
▁ㅇㅣㄴㄷㅔ	-587
▁창	-588
▁ㅌㅗ	-589
▁철	-590
ㅇㅣㄴ	-591
▁니	-592
▁ㄱㅣㄴ	-593
▁황	-594
▁16	-595
▁관련	-596
ㄹㅕㅆ	-597
▁30	-598
▁역시	-599
▁여기	-600
at	-601
ㅇㅎㅏㄴ	-602
▁얻	-603
▁미국	-604
▁환	-605
▁케	-606
ㄷㅡㄴ	-607
▁시키	-608
▁그래	-609
he	-610
▁ㄷㅡ	-611
▁일반	-612
▁바로	-613
▁처음	-614
▁18	-615
▁첫	-616
▁합	-617
▁ㄷㅓ	-618
▁해당	-619
▁지역	-620
▁13	-621
ㅏㄴㄷㅏ	-622
▁작품	-623
▁ㅅㅡ	-624
▁은	-625
▁곳	-626
▁북	-627
▁허	-628
▁ㅂㅣ	-629
▁참고	-630
거리	-631
▁골	-632
이지	-633
▁워	-634
이스	-635
▁청	-636
▁기본	-637
▁탈	-638
▁특히	-639
▁여러	-640
▁아무	-641
▁누	-642
▁199	-643
▁필요	-644
▁이야	-645
▁ㅎㅐㅆㅇㅡ	-646
▁인간	-647
▁격	-648
ㅊㅕ	-649
▁100	-650
▁다음	-651
▁좀	-652
▁부분	-653
▁c	-654
▁몬	-655
▁이야기	-656
부분	-657
▁혼	-658
▁14	-659
▁새	-660
▁영화	-661
▁s	-662
▁같이	-663
▁대학	-664
en	-665
리스	-666
▁달리	-667
▁사건	-668
▁ㄴㅡㄴㅈㅣ	-669
ㅈㅣㄴㄷㅏ	-670
▁그냥	-671
▁법	-672
▁ㅇㅔㄴ	-673
ㅎㅕ	-674
▁ㅇㅣㄴㅈㅣ	-675
▁즉	-676
▁ㅂㅘ	-677
▁V	-678
▁ㅈㅣㄴ	-679
▁싸	-680
▁없이	-681
▁넘	-682
▁기록	-683
ㅎㅐㅆ	-684
▁뿐	-685
▁방송	-686
▁대부분	-687
▁탄	-688
▁덕	-689
지막	-690
리아	-691
▁인물	-692
▁주인공	-693
▁버리	-694
▁ㄷㅡㄹㅇㅓ	-695
▁잠	-696
▁ㅎㅏㅁ	-697
▁범	-698
▁수준	-699
▁째	-700
▁비슷	-701
▁글	-702
▁귀	-703
ㅇㅔ	-704
ㅇㅗㄴㄷㅏ	-705
▁못하	-706
ㅇㅛ	-707
▁줄	-708
▁본인	-709
▁자기	-710
▁ㅌㅗㅇㅎㅐ	-711
▁엘	-712
▁면	-713
▁몇	-714
▁몸	-715
▁ㄴㅑ	-716
▁놓	-717
ㄹㅗㄱ	-718
▁17	-719
▁제작	-720
어지	-721
▁25	-722
▁방어	-723
▁ㄷㅙ	-724
▁마지막	-725
▁쪽	-726
▁k	-727
▁ㄷㅡㄴ	-728
al	-729
▁U	-730
▁싶	-731
▁상당히	-732
▁내용	-733
전히	-734
▁암	-735
▁둘	-736
▁걸	-737
▁일부	-738
▁ㅇㅡㅁ	-739
▁와	-740
▁어느	-741
▁밀	-742
▁리그	-743
▁00	-744
▁관계	-745
▁시절	-746
▁X	-747
ㄹㄹㅓ	-748
▁학교	-749
▁국가	-750
▁찾	-751
▁대신	-752
▁성우	-753
▁진행	-754
▁ㅇㅣㄴㅎㅐ	-755
▁실제로	-756
▁엄	-757
▁이전	-758
▁그대로	-759
▁대표	-760
ㅋㅕ	-761
▁설정	-762
▁헤	-763
▁계속	-764
▁애니	-765
▁속도	-766
▁지금	-767
ou	-768
▁담	-769
▁준	-770
토리	-771
▁전쟁	-772
es	-773
▁팔	-774
▁축	-775
▁들어	-776
▁보스	-777
▁규	-778
▁타이	-779
▁ㄹㅏㄴ	-780
▁활동	-781
▁질	-782
시아	-783
▁위치	-784
▁ㄴㅡ	-785
▁러	-786
▁원래	-787
▁ㄱㅜ	-788
▁몬스터	-789
▁서울	-790
▁붙	-791
▁제외	-792
▁2015	-793
ㅇㅕㅆ	-794
▁동안	-795
▁기사	-796
▁ㅁㅡ	-797
▁피해	-798
▁ㅇㅏㄹ	-799
▁감독	-800
▁느	-801
▁너무	-802
▁츠	-803
▁맡	-804
▁기준	-805
it	-806
▁낮	-807
▁의미	-808
▁접	-809
▁평가	-810
▁육	-811
▁슬	-812
버지	-813
▁]	-814
ㅇㄱ	-815
▁언급	-816
▁홈	-817
▁ㅅㅏ	-818
▁공격력	-819
▁이미	-820
▁중국	-821
▁넣	-822
▁50	-823
▁직접	-824
▁온	-825
▁도시	-826
▁빠	-827
▁J	-828
▁성공	-829
▁그녀	-830
▁문서	-831
▁증가	-832
▁ㅃㅏ	-833
▁우리	-834
▁갈	-835
▁맨	-836
▁묘	-837
이션	-838
▁다르	-839
▁ㅂㅗㄴ	-840
▁유저	-841
▁벌	-842
▁홍	-843
▁데미지	-844
▁과거	-845
▁장면	-846
ㄴㅏㅆ	-847
▁이것	-848
▁[	-849
▁칼	-850
▁머리	-851
▁괴	-852
▁꽤	-853
▁쉽	-854
▁자리	-855
▁울	-856
is	-857
▁여자	-858
▁&	-859
▁유명	-860
▁최대	-861
▁정보	-862
▁멤	-863
▁유닛	-864
▁돈	-865
▁바람	-866
▁지원	-867
▁버전	-868
ㄹㅣㄴㄷㅏ	-869
▁논	-870
가지	-871
▁차이	-872
▁2016	-873
▁2014	-874
▁ㅊㅣ	-875
ㅡㅁ	-876
▁ㄴㅗ	-877
▁개요	-878
▁멤버	-879
re	-880
▁봉	-881
ㅂㅜ	-882
▁설명	-883
▁출연	-884
▁개발	-885
▁씩	-886
le	-887
ㅜㄴㄷㅏ	-888
랜드	-889
▁결과	-890
▁ㅁㅜ	-891
▁전체	-892
▁체력	-893
▁21	-894
▁풀	-895
▁소속	-896
▁혹	-897
ㄷㅡㄹ	-898
▁측	-899
어나	-900
▁마음	-901
▁님	-902
▁방법	-903
▁d	-904
▁몰	-905
▁딜	-906
▁친구	-907
ic	-908
▁뉴	-909
▁역사	-910
▁스토리	-911
▁영상	-912
▁협	-913
▁즈	-914
▁ㅈㅝ	-915
이드	-916
▁선택	-917
▁희	-918
▁당하	-919
▁당연	-920
▁컨	-921
다가	-922
▁198	-923
▁프리	-924
▁ㅈㅜㄹ	-925
▁파이	-926
▁ㄷㅙㅆ	-927
ㄹㅇㅏ	-928
as	-929
▁아버지	-930
▁22	-931
ㄹㄹㅣㄴ	-932
▁그런데	-933
ㅇㅣ	-934
▁소리	-935
▁ㅆㅓ	-936
▁센	-937
▁제대로	-938
▁드래	-939
▁남자	-940
▁자주	-941
▁조금	-942
▁전부	-943
▁아이템	-944
▁이동	-945
▁<	-946
▁거리	-947
▁ㅇㅏㄹㄹㅕ	-948
▁노선	-949
▁플레이어	-950
▁ㅂㅏㄺ	-951
▁최고	-952
▁ㅈㅜㄴㄷㅏ	-953
▁ㄹㅓ	-954
▁ㄸㅓㄹ	-955
▁압	-956
▁공식	-957
▁탑	-958
▁w	-959
▁주로	-960
▁인기	-961
▁갑	-962
▁ㅅㅡㅂㄴㅣ	-963
▁류	-964
▁대전	-965
▁여성	-966
▁슈퍼	-967
▁게다가	-968
▁24	-969
ㅜㅁ	-970
▁보통	-971
▁이렇	-972
▁나라	-973
ㅎㅏㄹ	-974
▁2017	-975
▁침	-976
▁대사	-977
▁발매	-978
▁나이	-979
▁40	-980
▁ㅈㅗ	-981
▁퍼	-982
▁최종	-983
▁책	-984
▁정말	-985
▁초반	-986
▁2013	-987
▁파괴	-988
▁인터	-989
▁ㄴㅓ	-990
▁송	-991
▁사랑	-992
▁출신	-993
▁승리	-994
ing	-995
▁농	-996
▁시스	-997
▁만큼	-998
▁ㄴㅏㄹ	-999
▁ㅈㅓ	-1000
▁2018	-1001
ㄹㅣㄹ	-1002
▁배우	-1003
▁버스	-1004
▁영향	-1005
▁그것	-1006
▁모드	-1007
▁씨	-1008
ㅔㄴ	-1009
▁마찬	-1010
▁마찬가지	-1011
▁대상	-1012
▁기타	-1013
▁쇼	-1014
▁ㄷㅡㅅ	-1015
▁나가	-1016
▁방식	-1017
▁ㅇㅗㄹㄹㅏ	-1018
▁ㅅㅐㅇㄱ	-1019
▁모르	-1020
▁성능	-1021
▁연구	-1022
▁작중	-1023
▁동시	-1024
▁비교	-1025
▁듣	-1026
▁아예	-1027
▁색	-1028
▁성격	-1029
▁사망	-1030
이도	-1031
▁항목	-1032
▁시대	-1033
▁이때	-1034
▁답	-1035
운드	-1036
ㅎㅏㄴㄷㅏ	-1037
▁ㄸㅓㄹㅇㅓ	-1038
▁후반	-1039
▁오히	-1040
▁정신	-1041
ㅇㅓㅆ	-1042
ㄱㅏㅆ	-1043
▁오히려	-1044
▁샤	-1045
▁뜻	-1046
▁우승	-1047
▁서로	-1048
ㄹㅡㄴㄷㅏ	-1049
▁일단	-1050
▁아직	-1051
▁궁	-1052
▁형태	-1053
▁볼	-1054
▁a	-1055
▁강력	-1056
▁b	-1057
▁왜	-1058
▁ㅆㅡㄹ	-1059
▁f	-1060
ㅁㅕㄴㅅㅓ	-1061
▁유지	-1062
▁차량	-1063
ㄱㅏㄴ	-1064
▁마이	-1065
▁23	-1066
▁심지	-1067
▁앨	-1068
▁역할	-1069
▁드라	-1070
▁밖	-1071
프트	-1072
▁부르	-1073
▁수록	-1074
▁스테	-1075
▁발생	-1076
ㅈㅏ	-1077
▁심지어	-1078
학교	-1079
▁ㅇㅕㅆㅇㅡ	-1080
▁학생	-1081
▁ㅇㅗㄴ	-1082
▁특성	-1083
▁멀	-1084
▁애니메	-1085
▁콘	-1086
▁속성	-1087
▁ㅁㅏㄴㄷㅡㄴ	-1088
▁포함	-1089
▁링	-1090
▁이러	-1091
▁마리	-1092
▁소환	-1093
머니	-1094
▁모양	-1095
ㅊㅣㄴ	-1096
▁만화	-1097
ㅣㅁ	-1098
▁술	-1099
▁노래	-1100
▁운영	-1101
▁ㄷㅗㄹㅇㅏ	-1102
▁월드	-1103
▁2012	-1104
▁원작	-1105
▁특수	-1106
om	-1107
▁기존	-1108
벤트	-1109
▁망	-1110
우스	-1111
▁잔	-1112
▁들어가	-1113
▁어떤	-1114
▁중요	-1115
▁갖	-1116
ㄱㅓㄹ	-1117
▁h	-1118
▁o	-1119
▁찍	-1120
▁자세	-1121
▁변경	-1122
ㅐㄴ	-1123
▁사회	-1124
▁ㅈㅕㅆ	-1125
아가	-1126
▁최초	-1127
▁르	-1128
▁빌	-1129
▁애니메이션	-1130
▁좌	-1131
▁액	-1132
▁유일	-1133
▁착	-1134
▁층	-1135
▁석	-1136
ㅁㅊ	-1137
▁음악	-1138
▁결정	-1139
▁폐	-1140
▁억	-1141
▁흑	-1142
▁이렇게	-1143
▁ㅅㅏㄹ	-1144
el	-1145
▁덕분	-1146
▁과정	-1147
▁그래서	-1148
▁섬	-1149
▁이벤트	-1150
▁거기	-1151
▁회복	-1152
리어	-1153
▁ㄷㅏㅇㅎㅐ	-1154
▁풍	-1155
▁떨	-1156
▁시스템	-1157
▁마을	-1158
▁우주	-1159
▁모델	-1160
ㅁㅏ	-1161
▁먼	-1162
▁ㅆㅡ	-1163
버스	-1164
am	-1165
▁강화	-1166
▁장비	-1167
▁행동	-1168
▁주장	-1169
▁까	-1170
▁부대	-1171
▁p	-1172
ion	-1173
▁ㅉ	-1174
▁솔	-1175
▁바뀌	-1176
▁ㅁㅗㅅㅎㅐㅆ	-1177
▁참조	-1178
▁독일	-1179
▁싱	-1180
ㄹㅐ	-1181
▁국내	-1182
▁여담	-1183
▁ㅁㅣ	-1184
레이드	-1185
▁부족	-1186
▁ㅊㅏ	-1187
ㄹㄹㅕㅆ	-1188
▁ㄴㅜ	-1189
▁대한	-1190
▁영어	-1191
▁명칭	-1192
▁난이도	-1193
▁라인	-1194
▁ㅆㅏ	-1195
▁완전히	-1196
▁2019	-1197
▁던	-1198
▁ㅋㅓ	-1199
소드	-1200
▁프랑	-1201
▁지구	-1202
▁구성	-1203
▁작가	-1204
▁휴	-1205
▁바이	-1206
나마	-1207
▁드래곤	-1208
▁스트	-1209
▁확률	-1210
ㅇㅜㄹ	-1211
▁훈	-1212
▁굉	-1213
민국	-1214
▁따르	-1215
▁아래	-1216
▁전혀	-1217
ㅈㅣㄹ	-1218
▁깨	-1219
▁발동	-1220
주의	-1221
▁사진	-1222
▁입장	-1223
▁활약	-1224
▁에피	-1225
ㄹㅡㄹ	-1226
▁n	-1227
▁the	-1228
▁오브	-1229
▁ㅅㅔ	-1230
▁ㅇㅘㅆ	-1231
▁특징	-1232
▁현대	-1233
▁ㄸㅓ	-1234
▁혹은	-1235
▁26	-1236
▁그나마	-1237
▁가격	-1238
▁아들	-1239
▁정치	-1240
▁2010	-1241
▁지나	-1242
▁주변	-1243
ㅊㅏ	-1244
▁대회	-1245
▁콜	-1246
▁영국	-1247
▁다이	-1248
▁얼굴	-1249
▁ㅇㅣㅁ	-1250
▁굉장	-1251
▁하이	-1252
▁에피소드	-1253
▁28	-1254
ac	-1255
▁어떻	-1256
▁먼저	-1257
▁자동	-1258
▁메이	-1259
ol	-1260
ㄱㅏㄴㄷㅏ	-1261
▁차지	-1262
ㅈㅊ	-1263
▁TV	-1264
▁할	-1265
▁영웅	-1266
▁드라마	-1267
▁27	-1268
▁힘들	-1269
▁제국	-1270
ㅇㅣㄹ	-1271
없이	-1272
ㅂㅗ	-1273
ㄲㅇㅔ	-1274
▁ㅂㅏㄲㅇㅔ	-1275
▁정확	-1276
▁하루	-1277
▁히로	-1278
▁묘사	-1279
▁대한민국	-1280
▁확인	-1281
▁시점	-1282
▁ㄴㅓㅁ	-1283
▁공개	-1284
▁회사	-1285
▁마스터	-1286
▁반대	-1287
▁뛰	-1288
▁윤	-1289
▁2011	-1290
▁얼마	-1291
▁ㅆㅡㄴ	-1292
▁짓	-1293
▁뭐	-1294
▁응	-1295
▁시기	-1296
디오	-1297
▁표현	-1298
▁초기	-1299
▁담당	-1300
ㅌㅏ	-1301
▁맵	-1302
▁기능	-1303
인트	-1304
ㄱㅏㄹ	-1305
▁빛	-1306
▁연기	-1307
▁000	-1308
▁ㄲㅡ	-1309
▁아마	-1310
▁빼	-1311
레스	-1312
▁동일	-1313
▁실력	-1314
▁폴	-1315
▁관리	-1316
인물	-1317
▁계획	-1318
▁생산	-1319
▁놀	-1320
▁=	-1321
▁딱	-1322
et	-1323
▁ㅈㅜㄴ	-1324
▁맥	-1325
▁자유	-1326
ㅓㅇ	-1327
▁듀	-1328
▁판매	-1329
▁실패	-1330
▁싸우	-1331
▁정부	-1332
▁야구	-1333
▁엔딩	-1334
▁웨	-1335
ㅇㅗㄹ	-1336
▁ㄴㅏㄴ	-1337
▁건물	-1338
ㅁㅡ	-1339
▁등장인물	-1340
▁그렇게	-1341
▁순간	-1342
▁사고	-1343
▁헬	-1344
▁녹	-1345
▁개인	-1346
▁기관	-1347
il	-1348
▁컴	-1349
ig	-1350
ㅇㅝㅆ	-1351
▁뮤	-1352
ed	-1353
▁그림	-1354
▁이미지	-1355
▁Y	-1356
▁적용	-1357
ㅆㅓ	-1358
▁교육	-1359
▁이제	-1360
▁인정	-1361
▁당연히	-1362
▁스페	-1363
▁앨범	-1364
▁고등	-1365
▁세대	-1366
▁경찰	-1367
▁떠	-1368
▁반응	-1369
▁조건	-1370
ow	-1371
▁km	-1372
▁세이	-1373
▁60	-1374
▁엑	-1375
▁파워	-1376
▁챔	-1377
▁벨	-1378
▁늘	-1379
▁죽이	-1380
▁맛	-1381
▁기억	-1382
▁따라	-1383
▁ㅈㅜㄱ	-1384
▁패치	-1385
▁문화	-1386
us	-1387
▁기간	-1388
▁퀘	-1389
소리	-1390
BS	-1391
▁진짜	-1392
▁표기	-1393
▁발견	-1394
▁끼	-1395
▁족	-1396
▁견	-1397
▁방면	-1398
▁불리	-1399
▁생활	-1400
▁디자	-1401
▁확실	-1402
▁of	-1403
▁오리	-1404
ㅌㅔ	-1405
▁굉장히	-1406
▁패턴	-1407
▁취급	-1408
ㅕㄴ	-1409
▁퇴	-1410
▁도움	-1411
▁프랑스	-1412
▁타입	-1413
▁땅	-1414
ㄴㅏㄴㄷㅏ	-1415
로스	-1416
▁ㅇㅓㅁㅊ	-1417
▁ㅇㅓㅁㅊㅓㅇ	-1418
▁29	-1419
▁출시	-1420
▁현실	-1421
▁뽑	-1422
▁무시	-1423
▁처리	-1424
▁아주	-1425
▁소개	-1426
ㄹㄹㅣㄴㄷㅏ	-1427
▁향	-1428
▁무장	-1429
▁패배	-1430
▁습	-1431
▁딸	-1432
▁ㄷㅏㅇㅎㅏㄴ	-1433
▁ㅎㅏㄴㅌㅔ	-1434
너지	-1435
▁칸	-1436
▁또는	-1437
ㄱㅣㄴ	-1438
▁킹	-1439
▁대체	-1440
▁헌	-1441
▁건담	-1442
▁Z	-1443
▁데이	-1444
▁폭발	-1445
▁ㅇㅓㅁㅊㅓㅇㄴㅏㄴ	-1446
▁중간	-1447
▁익	-1448
▁소설	-1449
▁잃	-1450
▁프로그	-1451
▁흔	-1452
▁단순	-1453
▁197	-1454
▁어디	-1455
▁그래도	-1456
▁홀	-1457
▁구간	-1458
▁ㄹㅜ	-1459
▁결혼	-1460
▁지속	-1461
▁빨	-1462
▁ㅂㅓㄹ	-1463
▁한정	-1464
▁훨	-1465
▁다니	-1466
▁단계	-1467
▁계열	-1468
ㄱㅓㄴ	-1469
▁ㅁㅔ	-1470
▁가족	-1471
▁대학교	-1472
▁35	-1473
▁콤	-1474
▁싸움	-1475
스크	-1476
▁주의	-1477
▁흡	-1478
▁31	-1479
▁발사	-1480
▁랭	-1481
▁사실상	-1482
▁약간	-1483
▁어렵	-1484
▁방향	-1485
▁v	-1486
▁조선	-1487
▁The	-1488
▁움	-1489
▁ㄱㅏㄹ	-1490
▁어머니	-1491
▁이번	-1492
▁구조	-1493
▁훨씬	-1494
▁어떻게	-1495
▁아르	-1496
ㅎㅣㄴ	-1497
▁빈	-1498
▁상승	-1499
▁경험	-1500
▁만나	-1501
▁중심	-1502
ad	-1503
▁세트	-1504
▁ㅂㅏㄺㅎㅕ	-1505
▁위험	-1506
▁아군	-1507
▁끌	-1508
▁겨	-1509
▁블랙	-1510
▁덱	-1511
▁동료	-1512
▁운동	-1513
▁특별	-1514
▁죄	-1515
▁활용	-1516
▁상위	-1517
▁더욱	-1518
▁분위	-1519
▁2000	-1520
▁믿	-1521
▁린	-1522
▁운행	-1523
▁범위	-1524
▁포켓	-1525
▁r	-1526
▁요구	-1527
▁떨어지	-1528
ㅎㅕㅆ	-1529
▁80	-1530
▁쿨	-1531
이크	-1532
▁분위기	-1533
▁쌍	-1534
▁똑	-1535
▁디자인	-1536
▁빠르	-1537
▁핵	-1538
▁낙	-1539
ㅋㅕㅆ	-1540
ㅝㄴ	-1541
▁감소	-1542
니아	-1543
▁수비	-1544
▁ㄹㅏㅇ	-1545
▁탓	-1546
▁불구	-1547
▁St	-1548
▁읽	-1549
▁소모	-1550
▁혼자	-1551
▁탐	-1552
▁ㅁㅓ	-1553
ER	-1554
▁시장	-1555
▁ㅈㅝㅆ	-1556
▁중앙	-1557
▁유리	-1558
▁목적	-1559
▁옆	-1560
▁지하	-1561
▁욕	-1562
▁여전히	-1563
▁숙	-1564
ㄱㅓ	-1565
▁그룹	-1566
비스	-1567
ㄴㅐㅆ	-1568
▁이루	-1569
▁졸	-1570
▁트리	-1571
▁37	-1572
▁ㄲㅡㅌ	-1573
▁밤	-1574
▁500	-1575
id	-1576
▁나중	-1577
▁다양	-1578
ot	-1579
▁염	-1580
▁론	-1581
and	-1582
▁진출	-1583
▁율	-1584
▁항공	-1585
▁켄	-1586
▁브라	-1587
ay	-1588
▁ㄸㅟ	-1589
머지	-1590
▁나머지	-1591
▁ㄱㅏㅆ	-1592
▁전용	-1593
▁ㄱㅏㅇㅎㅏㄴ	-1594
▁방영	-1595
▁얘	-1596
ㅋㅣㄴ	-1597
▁싫	-1598
▁푸	-1599
▁기체	-1600
▁설치	-1601
▁ㅁㅗㅅㅎㅏㄴ	-1602
▁ㅂㅜㄹㄹㅓ	-1603
스로	-1604
▁세력	-1605
▁ㅇㅣㄹㅇㅓ	-1606
▁프로그램	-1607
▁전차	-1608
▁부산	-1609
▁축구	-1610
ve	-1611
▁포인트	-1612
▁갤	-1613
리카	-1614
ch	-1615
▁잘못	-1616
▁번역	-1617
▁고려	-1618
▁미사	-1619
▁러시아	-1620
▁선발	-1621
▁괜	-1622
▁느낌	-1623
▁종족	-1624
▁ㅅㅓㄴ	-1625
▁포켓몬	-1626
▁90	-1627
▁미션	-1628
▁시청	-1629
▁퀘스트	-1630
ㅊㅕㅆ	-1631
▁성장	-1632
un	-1633
▁흥	-1634
▁스테이지	-1635
▁각각	-1636
▁꿈	-1637
▁대미지	-1638
▁스피	-1639
티브	-1640
▁주요	-1641
▁짜	-1642
20	-1643
▁계약	-1644
▁시도	-1645
ㅈㅓ	-1646
▁올라	-1647
▁크리스	-1648
▁득	-1649
▁mm	-1650
▁획	-1651
▁참여	-1652
▁l	-1653
▁ㅊㅕ	-1654
▁비판	-1655
▁성적	-1656
▁고등학교	-1657
dd	-1658
▁로봇	-1659
▁타카	-1660
▁엄청	-1661
▁올리	-1662
▁턴	-1663
ㄱㅕㅆ	-1664
▁투수	-1665
▁데뷔	-1666
ㅋㅡㅁ	-1667
▁전문	-1668
▁거대	-1669
▁과학	-1670
▁유니	-1671
▁절대	-1672
▁휘	-1673
ㅈㅜㄴㄷㅏ	-1674
▁부활	-1675
▁녀	-1676
▁ㅅㅗ	-1677
▁70	-1678
▁애초	-1679
▁척	-1680
▁셈	-1681
▁훈련	-1682
▁렌	-1683
▁배틀	-1684
▁만드	-1685
▁지방	-1686
▁ㅈㅕ	-1687
▁준비	-1688
▁충격	-1689
▁해결	-1690
▁논란	-1691
▁챔피	-1692
▁나무	-1693
▁이해	-1694
▁가끔	-1695
▁g	-1696
▁ㅌㅓ	-1697
▁ㅁㅏㄴㅋㅡㅁ	-1698
▁쉬	-1699
▁생명	-1700
▁배경	-1701
▁비행	-1702
▁스스로	-1703
▁경제	-1704
▁일행	-1705
▁소녀	-1706
▁전설	-1707
▁짧	-1708
▁철도	-1709
▁요소	-1710
▁전작	-1711
ro	-1712
▁웃	-1713
▁엔진	-1714
▁삭	-1715
▁야마	-1716
▁조직	-1717
▁량	-1718
▁부상	-1719
▁률	-1720
▁오래	-1721
▁똑같	-1722
통령	-1723
▁규모	-1724
▁강하	-1725
▁2009	-1726
▁정상	-1727
▁발표	-1728
▁큐	-1729
▁자랑	-1730
▁도중	-1731
▁삼성	-1732
▁일정	-1733
▁01	-1734
▁학년	-1735
▁의견	-1736
▁징	-1737
▁스파	-1738
▁벽	-1739
▁충분	-1740
▁변화	-1741
▁무리	-1742
▁밴	-1743
▁죽음	-1744
▁스카	-1745
▁팩	-1746
▁직업	-1747
▁사이트	-1748
▁혈	-1749
▁최근	-1750
▁45	-1751
▁...	-1752
▁스타일	-1753
▁ㄷㅜ	-1754
▁ㄷㅏㅇㅎㅐㅆ	-1755
▁빅	-1756
▁ㅅㅟ	-1757
▁정체	-1758
▁기동	-1759
▁유럽	-1760
▁옥	-1761
▁나타	-1762
▁작전	-1763
▁예정	-1764
▁종류	-1765
▁물리	-1766
ㄴㅏㄹ	-1767
▁이쪽	-1768
▁ㅎㅏㄴㄷㅔ	-1769
▁공중	-1770
▁보호	-1771
▁기대	-1772
▁랜	-1773
▁ㅂㅘㅆ	-1774
▁대통령	-1775
▁300	-1776
▁쓰이	-1777
▁제목	-1778
▁목소리	-1779
▁록	-1780
▁ㅎㅐㅆㅇㅓㅆ	-1781
▁조합	-1782
▁연속	-1783
▁품	-1784
▁근접	-1785
▁정작	-1786
스타	-1787
▁전사	-1788
▁버프	-1789
▁ㅎㅏㅂㄴㅣ	-1790
▁십	-1791
▁ㅌㅏ	-1792
▁별로	-1793
▁력	-1794
ir	-1795
▁ㄷㅡㅅㅇㅣ	-1796
▁장착	-1797
▁ㅂㅜㅌ	-1798
▁신경	-1799
▁지도	-1800
▁요리	-1801
▁연출	-1802
▁빙	-1803
ㅈㅇㅏ	-1804
▁아키	-1805
▁32	-1806
▁세상	-1807
ㅋㅣㄹ	-1808
▁추정	-1809
▁나름	-1810
▁ㄴㅔ	-1811
▁반면	-1812
▁ㅋㅣ	-1813
▁자연	-1814
▁굴	-1815
▁꾸	-1816
▁악마	-1817
▁캠	-1818
▁소재	-1819
▁카이	-1820
▁굳	-1821
▁냉	-1822
▁ㅈㅔ	-1823
▁번호	-1824
ter	-1825
▁란	-1826
▁라운드	-1827
▁숨	-1828
▁전기	-1829
▁수도	-1830
▁타격	-1831
ㄱㅎㅏㄴ	-1832
▁대화	-1833
▁남성	-1834
▁등급	-1835
▁국제	-1836
▁틀	-1837
▁196	-1838
▁탱	-1839
▁제공	-1840
▁참가	-1841
▁획득	-1842
▁다크	-1843
▁뒷	-1844
▁방어력	-1845
▁ㅌㅐ	-1846
▁연합	-1847
▁링크	-1848
리오	-1849
▁동물	-1850
▁판정	-1851
▁멸	-1852
ㅅㅣ	-1853
▁ㅁㅏㅈㅊ	-1854
ㅡㄹㅇㅓ	-1855
im	-1856
▁따로	-1857
▁후보	-1858
▁수정	-1859
▁)	-1860
▁비롯	-1861
▁정식	-1862
▁아이돌	-1863
▁의외	-1864
▁롯	-1865
▁당신	-1866
▁레어	-1867
▁교통	-1868
▁각종	-1869
▁48	-1870
▁극장	-1871
▁배치	-1872
▁연결	-1873
디어	-1874
▁ㅊㅏㅈㅇㅏ	-1875
▁곧	-1876
▁던전	-1877
▁케이	-1878
▁만약	-1879
자기	-1880
▁꼬	-1881
▁관심	-1882
▁위기	-1883
▁안정	-1884
▁개념	-1885
ㅇㄱㅕ	-1886
▁수상	-1887
▁센터	-1888
▁항상	-1889
▁사업	-1890
라지	-1891
▁특정	-1892
▁사례	-1893
▁시험	-1894
▁덤	-1895
▁레인	-1896
▁2008	-1897
▁내부	-1898
지션	-1899
▁에너지	-1900
러스	-1901
▁이외	-1902
▁분노	-1903
▁황제	-1904
▁변신	-1905
▁북한	-1906
▁민주	-1907
BC	-1908
ub	-1909
▁단점	-1910
▁파일	-1911
▁옵	-1912
▁단어	-1913
▁맹	-1914
▁종료	-1915
▁롤	-1916
▁필드	-1917
▁사격	-1918
▁cm	-1919
▁지휘	-1920
▁ㅇㅣㅂㄴㅣ	-1921
나라	-1922
ag	-1923
ㅋㅣㄴㄷㅏ	-1924
▁제일	-1925
▁나이트	-1926
▁36	-1927
▁무엇	-1928
▁힐	-1929
▁누구	-1930
▁크리	-1931
▁얘기	-1932
▁루트	-1933
▁칭	-1934
▁조사	-1935
▁발전	-1936
▁움직	-1937
▁공연	-1938
▁따라서	-1939
▁장갑	-1940
▁y	-1941
ㄹㄹㅣㄹ	-1942
▁다리	-1943
▁쯤	-1944
▁ㄴㅏㅁ	-1945
▁더불	-1946
▁지상	-1947
▁물건	-1948
▁스포	-1949
▁미래	-1950
너스	-1951
▁33	-1952
▁사정	-1953
▁인터뷰	-1954
▁챔피언	-1955
▁한편	-1956
동안	-1957
▁런	-1958
▁클래	-1959
▁서비스	-1960
▁괜찮	-1961
▁놈	-1962
▁ㅎㅣㅁ	-1963
▁ㄹㅣ	-1964
▁각성	-1965
▁엘리	-1966
▁사냥	-1967
▁선거	-1968
▁기계	-1969
▁x	-1970
▁외국	-1971
▁*	-1972
▁ㄷㅔ	-1973
라인	-1974
ㄴㅑ	-1975
데이트	-1976
▁Lv	-1977
ㄴㅐㄴ	-1978
▁업데이트	-1979
▁군사	-1980
▁보내	-1981
▁기업	-1982
▁그만	-1983
▁아카	-1984
▁파티	-1985
▁최소	-1986
▁특이	-1987
▁옷	-1988
▁ㅃㅜㄴ	-1989
▁점수	-1990
▁별명	-1991
이치	-1992
▁텐	-1993
믹스	-1994
▁e	-1995
▁이탈	-1996
ㄹㅏㄴ	-1997
▁ㄱㅗㄴ	-1998
▁인구	-1999
▁사항	-2000
▁인식	-2001
▁코스	-2002
▁완전	-2003
ur	-2004
▁시티	-2005
▁시설	-2006
▁05	-2007
od	-2008
아오	-2009
▁해군	-2010
▁시전	-2011
야마	-2012
▁국민	-2013
▁일러	-2014
▁도로	-2015
▁세기	-2016
▁안타	-2017
▁고속	-2018
▁화력	-2019
어로	-2020
os	-2021
▁히트	-2022
▁로드	-2023
▁조종	-2024
▁하늘	-2025
▁납	-2026
▁넓	-2027
▁제한	-2028
▁위력	-2029
▁02	-2030
▁오르	-2031
▁달성	-2032
ㄷㅓㄴ	-2033
▁닌	-2034
▁프레	-2035
▁돌아가	-2036
▁제품	-2037
▁생기	-2038
▁최강	-2039
▁가수	-2040
▁직전	-2041
▁th	-2042
▁개그	-2043
▁ㅈㅓㄴ	-2044
▁SK	-2045
▁생존	-2046
▁상관	-2047
▁비밀	-2048
▁마나	-2049
▁03	-2050
▁오프	-2051
ST	-2052
▁죠	-2053
▁그야	-2054
▁점프	-2055
▁삭제	-2056
▁순위	-2057
▁',	-2058
▁쏘	-2059
▁교체	-2060
▁일러스트	-2061
▁히어로	-2062
▁싱글	-2063
▁끊	-2064
▁감정	-2065
▁위원	-2066
▁홈런	-2067
▁옛	-2068
▁EX	-2069
▁사기	-2070
▁벤	-2071
▁보유	-2072
▁장소	-2073
▁전국	-2074
말로	-2075
▁역대	-2076
▁녀석	-2077
▁학원	-2078
▁목록	-2079
ㅕㄹ	-2080
▁본래	-2081
▁목표	-2082
▁몽	-2083
▁그야말로	-2084
▁요시	-2085
▁ㅊㅐ	-2086
▁왼	-2087
▁부모	-2088
▁압도	-2089
▁군대	-2090
▁분류	-2091
▁명령	-2092
▁뇌	-2093
▁ㅋㅡㄹ	-2094
▁출전	-2095
▁가드	-2096
▁ㄴㅓㅁㅇㅓ	-2097
▁주제	-2098
▁지키	-2099
▁깊	-2100
▁2007	-2101
▁펜	-2102
▁독립	-2103
▁붕	-2104
모토	-2105
▁묻	-2106
▁닥	-2107
▁픽	-2108
▁흐	-2109
▁ㅇㅡㄴㄷㅔ	-2110
▁마사	-2111
▁잉	-2112
▁ㅅㅣㅁ	-2113
▁꽃	-2114
▁포지션	-2115
um	-2116
▁스럽	-2117
▁무슨	-2118
▁예전	-2119
▁언제	-2120
▁연재	-2121
어들	-2122
▁갑자기	-2123
▁공간	-2124
라스	-2125
▁위키	-2126
▁진화	-2127
igh	-2128
ㅏㄹㄹㅏ	-2129
▁사거리	-2130
▁34	-2131
▁데스	-2132
▁워낙	-2133
▁어둠	-2134
▁아스	-2135
ff	-2136
▁마치	-2137
▁표시	-2138
▁라이트	-2139
▁ㄴㅐㄴ	-2140
▁HP	-2141
▁작곡	-2142
▁ㅇㅣㄴㄱㅏ	-2143
▁탈출	-2144
▁전개	-2145
▁폰	-2146
ut	-2147
ent	-2148
▁작업	-2149
▁병원	-2150
▁떡	-2151
▁중반	-2152
▁고양	-2153
▁ㅇㅛ	-2154
▁구하	-2155
50	-2156
▁크기	-2157
▁병력	-2158
▁예상	-2159
▁09	-2160
▁이기	-2161
ㅐㄹ	-2162
▁가문	-2163
▁레드	-2164
▁04	-2165
▁소련	-2166
▁ㅁㅓㄴ	-2167
▁컬	-2168
▁수치	-2169
▁ㅇㅜ	-2170
▁포기	-2171
▁톤	-2172
▁의식	-2173
▁원인	-2174
▁건설	-2175
시마	-2176
ak	-2177
▁노트	-2178
▁보상	-2179
▁현상	-2180
트라	-2181
▁병사	-2182
▁곤	-2183
▁밑	-2184
▁살인	-2185
▁겪	-2186
▁멘	-2187
ver	-2188
AR	-2189
▁노력	-2190
▁ㅊㅣㄴ	-2191
▁ㅅㅐㅇㄱㅕㅆ	-2192
ㅝㅆ	-2193
▁07	-2194
▁무대	-2195
ㄱㅣㄹ	-2196
▁08	-2197
▁포스	-2198
ㅂㅓ	-2199
▁행위	-2200
▁장점	-2201
▁전력	-2202
▁졸업	-2203
▁강제	-2204
▁클리어	-2205
▁윈	-2206
▁06	-2207
▁카운	-2208
▁미사일	-2209
아내	-2210
▁웹	-2211
다니	-2212
학생	-2213
▁도쿄	-2214
▁찬	-2215
▁오른	-2216
▁전자	-2217
ec	-2218
ㄱㅎㅕ	-2219
▁동생	-2220
▁무려	-2221
▁효율	-2222
▁아파	-2223
▁부정	-2224
▁롯데	-2225
▁비중	-2226
젝트	-2227
▁ㄱㅏㄴ	-2228
▁일어나	-2229
▁경쟁	-2230
▁ㅁㅗㄹㄹㅏ	-2231
▁194	-2232
▁임무	-2233
▁차원	-2234
▁확정	-2235
▁Q	-2236
▁인천	-2237
▁크로	-2238
ㄹㅡㅁ	-2239
▁고정	-2240
▁도입	-2241
▁쥬	-2242
▁발음	-2243
▁새로	-2244
▁ㅍㅜ	-2245
▁티어	-2246
▁파트	-2247
▁칠	-2248
▁이어	-2249
▁짐	-2250
▁이하	-2251
▁ㅍㅣ	-2252
▁ㅁㅝㄴ	-2253
▁2006	-2254
무라	-2255
▁해외	-2256
▁전반	-2257
▁가면	-2258
▁필살	-2259
▁화면	-2260
▁노리	-2261
▁부하	-2262
▁근처	-2263
▁주문	-2264
AN	-2265
▁인터넷	-2266
▁완성	-2267
▁잠시	-2268
▁음식	-2269
▁넘어	-2270
▁촬	-2271
▁오리지	-2272
▁아프	-2273
▁집중	-2274
▁신체	-2275
▁바꾸	-2276
▁무한	-2277
▁보병	-2278
▁꼭	-2279
▁공주	-2280
▁래	-2281
▁셋	-2282
▁평균	-2283
▁하드	-2284
▁밀리	-2285
▁결승	-2286
▁인사	-2287
▁ㄱㅘㄴ	-2288
▁인도	-2289
▁정확히	-2290
▁38	-2291
▁라이브	-2292
▁마법사	-2293
▁롭	-2294
▁한글	-2295
▁아무리	-2296
▁가사	-2297
▁분명	-2298
▁평범	-2299
▁션	-2300
▁ㅅㅐㅇㄱㅣㄴ	-2301
▁타임	-2302
▁드러	-2303
▁근데	-2304
▁밸	-2305
▁>	-2306
▁여행	-2307
▁유사	-2308
▁겸	-2309
▁행정	-2310
▁판단	-2311
▁환경	-2312
▁굳이	-2313
▁주민	-2314
▁kg	-2315
▁수행	-2316
▁ㄱㅓㄹㄹㅗ	-2317
르트	-2318
▁밝	-2319
루스	-2320
▁종종	-2321
▁종교	-2322
▁촬영	-2323
이어	-2324
ㄹㅓㄴ	-2325
▁캡	-2326
▁꾼	-2327
페이지	-2328
▁재미	-2329
▁몇몇	-2330
▁느끼	-2331
란드	-2332
▁폭탄	-2333
▁의하	-2334
▁비용	-2335
▁기반	-2336
▁발언	-2337
▁완벽	-2338
▁반드	-2339
트리	-2340
▁붉	-2341
▁대장	-2342
▁홈페이지	-2343
▁반드시	-2344
▁단체	-2345
▁선생	-2346
▁랭크	-2347
▁로마	-2348
▁광고	-2349
▁패러	-2350
▁ㄱㅏㄴㄷㅏ	-2351
▁ㅇㅣㄹㅇㅡ	-2352
▁제거	-2353
▁실험	-2354
▁플래	-2355
▁다수	-2356
조건	-2357
▁다루	-2358
▁봉인	-2359
▁지지	-2360
▁직후	-2361
래프트	-2362
▁성향	-2363
▁심각	-2364
▁아내	-2365
▁공포	-2366
▁운용	-2367
▁페이	-2368
▁ㅈㅣㄴㄷㅏ	-2369
▁밴드	-2370
▁버그	-2371
▁옵션	-2372
▁미니	-2373
▁in	-2374
▁오버	-2375
▁FC	-2376
▁LG	-2377
▁치료	-2378
▁나타나	-2379
▁킬	-2380
▁자원	-2381
▁점점	-2382
▁아파트	-2383
▁잭	-2384
▁대구	-2385
▁ㅇㅗㄹㄹㅕ	-2386
▁ㅈㅣㄹ	-2387
▁조작	-2388
▁암살	-2389
▁전략	-2390
다리	-2391
▁무조건	-2392
▁베이	-2393
▁걸리	-2394
러리	-2395
▁코드	-2396
▁도전	-2397
▁털	-2398
▁함정	-2399
▁단지	-2400
▁디스	-2401
▁구분	-2402
▁컵	-2403
▁특유	-2404
▁샷	-2405
▁다소	-2406
▁대중	-2407
▁대결	-2408
▁본격	-2409
▁통합	-2410
로그	-2411
▁한계	-2412
▁가깝	-2413
▁개조	-2414
▁골드	-2415
그레이드	-2416
▁기회	-2417
▁업그레이드	-2418
▁엄청나	-2419
▁소년	-2420
▁다행	-2421
▁왕국	-2422
▁맞추	-2423
▁연장	-2424
▁ㅋㅔ	-2425
▁월드컵	-2426
▁접근	-2427
▁바다	-2428
▁ㅂㅕㄴ	-2429
▁사쿠	-2430
▁저항	-2431
▁you	-2432
▁외모	-2433
▁밥	-2434
em	-2435
▁금지	-2436
▁뜨	-2437
▁시나	-2438
▁추측	-2439
운데	-2440
▁끝나	-2441
▁의사	-2442
▁군단	-2443
스케	-2444
▁빵	-2445
▁쿄	-2446
▁수많	-2447
▁최후	-2448
▁오늘	-2449
▁템	-2450
▁오리지널	-2451
▁정리	-2452
▁앙	-2453
▁확장	-2454
ON	-2455
▁살아	-2456
▁복수	-2457
▁열차	-2458
▁지배	-2459
▁범죄	-2460
▁복귀	-2461
▁장치	-2462
▁이끌	-2463
▁타이틀	-2464
▁치명	-2465
▁다운	-2466
▁ㅆㅡㄴㄷㅏ	-2467
▁일본어	-2468
무리	-2469
▁MA	-2470
▁구매	-2471
▁디지	-2472
▁스코	-2473
▁소유	-2474
라이더	-2475
▁2005	-2476
▁ㄴㅡㄴㄱㅏ	-2477
ㄸㅡ	-2478
▁ㅎㅑ	-2479
▁언어	-2480
▁쓸	-2481
▁멜	-2482
▁형제	-2483
▁부여	-2484
ㅃㅡㄴ	-2485
▁교수	-2486
▁광역	-2487
▁가리	-2488
▁젊	-2489
▁비하	-2490
▁브레이	-2491
▁ㅂㅓㄹㅇㅓ	-2492
▁고대	-2493
▁ㅈㅏㅂ	-2494
▁웬	-2495
▁대기	-2496
ight	-2497
▁득점	-2498
▁vs	-2499
▁to	-2500
▁낫	-2501
▁부탁	-2502
요일	-2503
ation	-2504
▁상징	-2505
▁우선	-2506
▁55	-2507
ㅅㅜ	-2508
▁삼국	-2509
▁ㅍㅓ	-2510
ㅇㅎㅏㄹ	-2511
▁평소	-2512
ㅏㄹㄹㅕ	-2513
▁투입	-2514
▁터미	-2515
▁ㄷㅏㄹㄹㅏ	-2516
▁올라가	-2517
▁불가	-2518
▁75	-2519
▁인상	-2520
▁II	-2521
▁가운데	-2522
▁99	-2523
▁사령	-2524
▁스포츠	-2525
▁대단	-2526
▁장르	-2527
▁달러	-2528
▁간단	-2529
▁형식	-2530
▁추천	-2531
▁바라	-2532
▁깔	-2533
▁영혼	-2534
▁유우	-2535
▁혁	-2536
▁2004	-2537
▁뻔	-2538
▁에이	-2539
▁ㅌㅏㄴ	-2540
▁해석	-2541
▁이곳	-2542
▁앤	-2543
▁ㅈㅛ	-2544
▁ㅇㅣㄴㅎㅏㄴ	-2545
▁흉	-2546
▁늦	-2547
퓨터	-2548
▁빨리	-2549
▁숫	-2550
▁정의	-2551
ce	-2552
▁ㄱㅏㅇㅎㅐ	-2553
▁가치	-2554
▁대형	-2555
▁대로	-2556
▁자동차	-2557
▁기념	-2558
▁Ch	-2559
▁ㅎㅣㅁㄷㅡㄴ	-2560
▁희생	-2561
▁이닝	-2562
▁걱	-2563
IN	-2564
▁잇	-2565
▁충분히	-2566
리트	-2567
▁사무	-2568
▁리더	-2569
▁걱정	-2570
▁주력	-2571
▁생물	-2572
▁벗	-2573
▁ㅂㅐ	-2574
▁일종	-2575
▁ㅁㅏㅈㅊㅝ	-2576
▁ㅁㅝㄴㄱㅏ	-2577
▁카오	-2578
▁즐	-2579
▁얼마나	-2580
▁사상	-2581
▁탈락	-2582
▁와중	-2583
▁카즈	-2584
ap	-2585
▁도망	-2586
뜨리	-2587
▁마크	-2588
▁이탈리아	-2589
▁스크	-2590
▁극장판	-2591
▁KBS	-2592
비아	-2593
▁불명	-2594
런스	-2595
▁42	-2596
▁마력	-2597
▁컴퓨터	-2598
▁행성	-2599
▁마무리	-2600
▁사태	-2601
▁도착	-2602
▁인류	-2603
▁ㄴㅏㄹㄹㅕ	-2604
▁이치	-2605
▁폼	-2606
▁네이	-2607
000	-2608
▁마르	-2609
▁필살기	-2610
▁전화	-2611
▁재료	-2612
▁공화	-2613
▁책임	-2614
▁찌	-2615
▁39	-2616
▁1000	-2617
▁통신	-2618
▁PC	-2619
▁택	-2620
▁지정	-2621
▁육군	-2622
▁MBC	-2623
▁회피	-2624
▁이르	-2625
▁서버	-2626
▁무사	-2627
▁닉	-2628
ㄹㅓㄹ	-2629
▁기지	-2630
▁그저	-2631
▁ㅆㅓㅆ	-2632
▁프로젝트	-2633
ul	-2634
▁셀	-2635
▁전통	-2636
ㄲㅟ	-2637
▁엠	-2638
▁공략	-2639
▁액션	-2640
▁거부	-2641
일러	-2642
▁2002	-2643
▁가정	-2644
▁행사	-2645
▁들어오	-2646
▁로스	-2647
▁서술	-2648
▁올림	-2649
▁구단	-2650
▁비트	-2651
▁한국어	-2652
▁시민	-2653
▁단순히	-2654
▁자료	-2655
ㄷㅡ	-2656
▁대비	-2657
니티	-2658
▁41	-2659
▁보너스	-2660
▁_	-2661
▁목숨	-2662
▁ㄴㅐㅆ	-2663
▁보조	-2664
▁넥	-2665
ㅇㅡㄹ	-2666
▁더블	-2667
ㄴㅐㄹ	-2668
▁살아남	-2669
▁닮	-2670
▁의도	-2671
▁드립	-2672
ㄷㅇㅏ	-2673
동생	-2674
▁집단	-2675
▁데이터	-2676
▁불과	-2677
▁박사	-2678
▁아웃	-2679
▁전원	-2680
▁장난	-2681
▁움직이	-2682
▁합류	-2683
▁구역	-2684
▁덩	-2685
▁의지	-2686
▁빠지	-2687
▁제로	-2688
레이션	-2689
▁괴물	-2690
▁사라지	-2691
▁심하	-2692
ㄲㅕ	-2693
▁전술	-2694
▁료	-2695
▁검사	-2696
▁컨셉	-2697
▁카메	-2698
▁라디오	-2699
▁딱히	-2700
▁흡수	-2701
▁ㄱㅣㄹ	-2702
▁내려	-2703
▁실수	-2704
▁ㅁㅏㄴㄷㅡㄹ	-2705
▁빔	-2706
▁내리	-2707
▁ㅉㅣ	-2708
▁연주	-2709
▁윌	-2710
ri	-2711
▁제도	-2712
▁ㅁㅗㅅㅎㅏㄴㄷㅏ	-2713
▁튀	-2714
ㄴㅣㄹ	-2715
▁숫자	-2716
▁적절	-2717
▁장군	-2718
▁클럽	-2719
▁후속	-2720
ㄹㅜ	-2721
▁화염	-2722
▁오토	-2723
▁상대방	-2724
▁모리	-2725
▁유키	-2726
▁조정	-2727
▁고양이	-2728
▁44	-2729
▁눈물	-2730
▁ㅅㅜㅁ	-2731
▁정규	-2732
▁함대	-2733
▁마츠	-2734
▁대응	-2735
▁텔	-2736
▁타자	-2737
▁위협	-2738
▁ㄴㅡㄹㅇㅓ	-2739
▁모티브	-2740
▁수리	-2741
▁장기	-2742
▁연습	-2743
▁드라이	-2744
▁듀얼	-2745
▁독자	-2746
ㅂㅊㅕ	-2747
ㄹㅣ	-2748
▁시내	-2749
▁ㅇㅏㅍ	-2750
크래프트	-2751
▁감안	-2752
▁케이스	-2753
▁저격	-2754
자리	-2755
▁릴	-2756
▁ㄷㅏㄹㄹㅕ	-2757
▁날개	-2758
▁보컬	-2759
▁약점	-2760
▁덜	-2761
▁테마	-2762
▁격투	-2763
▁꼴	-2764
▁반복	-2765
▁터미널	-2766
▁쌓	-2767
▁몹	-2768
니스	-2769
▁43	-2770
ㅈㅜㄴ	-2771
모리	-2772
ㄴㅐㄴㄷㅏ	-2773
▁넘어가	-2774
▁에이스	-2775
나이	-2776
RA	-2777
▁맺	-2778
▁테크	-2779
▁개월	-2780
nd	-2781
▁꾸준	-2782
▁닥터	-2783
▁상세	-2784
▁대놓	-2785
▁분리	-2786
▁어찌	-2787
▁설계	-2788
▁공항	-2789
▁이적	-2790
▁시나리오	-2791
▁종합	-2792
▁회전	-2793
▁BG	-2794
▁나쁘	-2795
▁보다	-2796
▁확실히	-2797
▁오랜	-2798
▁공동	-2799
▁ㄴㅏㅆ	-2800
타임	-2801
▁서브	-2802
▁이사	-2803
▁2003	-2804
▁코어	-2805
all	-2806
ㅊㅣㄹ	-2807
▁에어	-2808
▁댄	-2809
▁값	-2810
▁ㄲㅓ	-2811
▁숲	-2812
▁패러디	-2813
▁투표	-2814
▁미리	-2815
▁성인	-2816
▁페르	-2817
ㅉㅐ	-2818
AL	-2819
▁필수	-2820
▁세계관	-2821
▁ST	-2822
ia	-2823
▁유도	-2824
▁체제	-2825
▁지명	-2826
▁ㅁㅗㅅㅎㅐ	-2827
▁51	-2828
▁기어	-2829
▁클래스	-2830
▁컷	-2831
▁병기	-2832
▁요청	-2833
▁스탠	-2834
▁메탈	-2835
ack	-2836
st	-2837
▁계기	-2838
▁인지	-2839
▁훌	-2840
▁소식	-2841
▁그때	-2842
▁정책	-2843
▁지옥	-2844
▁착용	-2845
tt	-2846
로드	-2847
▁펀	-2848
▁피하	-2849
▁ㅇㅡㄹㅈㅣ	-2850
로우	-2851
▁광주	-2852
▁오오	-2853
▁띄	-2854
uby	-2855
연히	-2856
▁펼	-2857
▁채널	-2858
▁전환	-2859
▁스페인	-2860
▁150	-2861
▁지적	-2862
시스	-2863
▁바르	-2864
▁당장	-2865
▁195	-2866
▁초등	-2867
▁미스	-2868
▁ㄸㅐ	-2869
ㅎㅣㄴㄷㅏ	-2870
▁인원	-2871
▁ㅂㅏㄺㅎㅕㅆ	-2872
▁스마	-2873
▁파이터	-2874
▁던지	-2875
▁아머	-2876
▁높이	-2877
oc	-2878
▁뉴스	-2879
ㅡㄹㄹㅕ	-2880
▁47	-2881
▁촉	-2882
▁소울	-2883
▁편성	-2884
ㅅㅣㄴ	-2885
▁바닥	-2886
▁긴	-2887
▁산업	-2888
▁온라인	-2889
▁방패	-2890
▁선언	-2891
▁승부	-2892
▁앉	-2893
▁SP	-2894
▁저지	-2895
▁가슴	-2896
▁관통	-2897
▁베이스	-2898
▁중학교	-2899
▁ㄲㅐ	-2900
ㄱㅜㄴ	-2901
▁ruby	-2902
▁회장	-2903
▁궤	-2904
▁쥐	-2905
▁방해	-2906
▁나카	-2907
▁VS	-2908
▁배신	-2909
▁한자	-2910
▁모험	-2911
▁보급	-2912
▁크로스	-2913
▁등등	-2914
▁공사	-2915
▁무력	-2916
▁PS	-2917
▁원거리	-2918
▁소비	-2919
▁차례	-2920
▁핑	-2921
▁46	-2922
art	-2923
▁리어	-2924
▁ㄱㅘㄴㅎㅏㄴ	-2925
래도	-2926
▁은퇴	-2927
▁아무래도	-2928
▁등록	-2929
▁울트라	-2930
▁에스	-2931
▁올림픽	-2932
▁가면라이더	-2933
▁습격	-2934
▁그리스	-2935
▁관광	-2936
▁안습	-2937
▁언론	-2938
▁st	-2939
▁64	-2940
▁원정	-2941
▁특기	-2942
▁셰	-2943
▁상처	-2944
▁마시	-2945
▁잠깐	-2946
▁떠나	-2947
▁연계	-2948
ra	-2949
▁흔히	-2950
▁카페	-2951
▁저주	-2952
▁안전	-2953
▁판타	-2954
▁적극	-2955
▁혐	-2956
PC	-2957
▁통과	-2958
ㄱㅔㄴ	-2959
▁인형	-2960
▁버튼	-2961
▁토스	-2962
▁ㅃㅐ	-2963
▁실시	-2964
▁공부	-2965
▁마왕	-2966
▁ㅇㅗㄻ	-2967
▁여름	-2968
▁후반부	-2969
▁무게	-2970
▁구축	-2971
▁가스	-2972
▁i	-2973
▁지니	-2974
▁MP	-2975
▁승강	-2976
▁동맹	-2977
▁멸망	-2978
▁의심	-2979
▁유래	-2980
▁위주	-2981
▁ㄴㅏㄴㄷㅏ	-2982
▁아사	-2983
▁선정	-2984
▁미군	-2985
▁명중	-2986
▁혜	-2987
ㄷㅏㄴ	-2988
▁국회	-2989
▁블루	-2990
▁or	-2991
▁마침	-2992
유키	-2993
▁카운터	-2994
▁핸	-2995
▁and	-2996
▁No	-2997
▁실점	-2998
▁거짓	-2999
▁게이	-3000
▁오프닝	-3001
▁ㄷㅏㄴ	-3002
▁초대	-3003
▁교회	-3004
라리	-3005
▁공군	-3006
▁역전	-3007
▁겨우	-3008
▁코치	-3009
▁뱀	-3010
▁가르	-3011
ㄹㅝ	-3012
▁이어지	-3013
▁In	-3014
▁퓨	-3015
▁스펙	-3016
▁진입	-3017
AT	-3018
▁엄마	-3019
▁개선	-3020
▁게시	-3021
▁레이저	-3022
▁락	-3023
▁정당	-3024
하라	-3025
ㄴㅓ	-3026
시브	-3027
▁엉	-3028
레인	-3029
▁ㅎㅟ	-3030
▁코스트	-3031
▁밸런스	-3032
ㅡㄹㄹㅓ	-3033
르크	-3034
▁체인	-3035
op	-3036
▁태도	-3037
▁사장	-3038
ㄲㅝ	-3039
▁수호	-3040
▁민족	-3041
▁미나	-3042
▁안드	-3043
▁영입	-3044
ㅊㅣㄴㄷㅏ	-3045
ㅇㅜ	-3046
▁최악	-3047
▁투자	-3048
▁리스	-3049
▁ㅈㅓㄴㅎㅐ	-3050
▁왼쪽	-3051
▁그레이	-3052
▁ㅇㅜㅁ	-3053
▁날리	-3054
▁태양	-3055
▁코믹스	-3056
▁373	-3057
▁계급	-3058
▁뚫	-3059
▁코너	-3060
▁ㅅㅗㄱ	-3061
▁후지	-3062
ie	-3063
▁질문	-3064
▁400	-3065
▁시체	-3066
▁표정	-3067
▁설립	-3068
▁가까	-3069
▁미야	-3070
▁희망	-3071
▁고통	-3072
▁멀티	-3073
▁은근	-3074
▁텍	-3075
▁모션	-3076
est	-3077
▁dd	-3078
▁스위	-3079
▁삽	-3080
▁벌이	-3081
▁수단	-3082
▁하트	-3083
▁탑재	-3084
▁솔로	-3085
▁뿌	-3086
▁황금	-3087
▁분야	-3088
▁따지	-3089
▁ㅍㅕㄹ	-3090
▁룰	-3091
▁하위	-3092
▁ㅅㅣㄴ	-3093
ㄷㅜ	-3094
▁킥	-3095
트롤	-3096
▁스피드	-3097
▁대원	-3098
▁2001	-3099
▁CD	-3100
▁사단	-3101
OR	-3102
▁비디오	-3103
▁남편	-3104
▁ㄷㅚㅁ	-3105
무원	-3106
▁소드	-3107
IA	-3108
▁매일	-3109
▁군인	-3110
▁방문	-3111
▁막장	-3112
▁펼치	-3113
▁프라	-3114
▁미치	-3115
▁경력	-3116
▁셔	-3117
▁제압	-3118
▁의문	-3119
▁끼리	-3120
▁대놓고	-3121
▁ㅋㅜ	-3122
▁진영	-3123
ill	-3124
▁콩	-3125
ㅇㅎㅐㅆ	-3126
▁용병	-3127
다수	-3128
▁애매	-3129
머리	-3130
▁견제	-3131
▁주연	-3132
▁확보	-3133
▁행적	-3134
▁기자	-3135
▁조각	-3136
▁193	-3137
▁기점	-3138
▁튜	-3139
▁수원	-3140
▁엑스	-3141
▁쓰러	-3142
▁대답	-3143
▁비난	-3144
▁중단	-3145
▁아라	-3146
▁본선	-3147
▁차별	-3148
OS	-3149
▁자식	-3150
▁구입	-3151
▁개봉	-3152
▁ㅈㅡㄹ	-3153
▁ㄱㅕ	-3154
▁청소	-3155
▁오스	-3156
dddd	-3157
▁dddddd	-3158
▁고급	-3159
▁지식	-3160
▁사카	-3161
▁자살	-3162
▁탯	-3163
▁온갖	-3164
세이	-3165
▁노동	-3166
▁갓	-3167
▁해제	-3168
아다니	-3169
▁돌파	-3170
▁사과	-3171
▁롱	-3172
▁유용	-3173
▁52	-3174
▁거두	-3175
▁1990	-3176
▁ㅇㅗㄹ	-3177
ik	-3178
아하	-3179
▁패스	-3180
▁라이벌	-3181
▁어린	-3182
▁브랜드	-3183
▁살해	-3184
▁로켓	-3185
▁ㅂㅜㅌㅇㅕ	-3186
▁메가	-3187
▁기획	-3188
▁아시아	-3189
▁트랙	-3190
▁Re	-3191
▁개편	-3192
PS	-3193
▁장전	-3194
▁닌자	-3195
▁융	-3196
ate	-3197
▁선물	-3198
▁%,	-3199
▁공통	-3200
▁그라	-3201
▁예선	-3202
▁진실	-3203
▁조준	-3204
▁렉	-3205
▁단위	-3206
▁편집	-3207
▁체계	-3208
▁컨트롤	-3209
▁스파이	-3210
▁은행	-3211
드리	-3212
▁ㄱㅓㄹㄹㅕ	-3213
▁자이	-3214
워드	-3215
▁멀리	-3216
▁장애	-3217
터리	-3218
다지	-3219
▁어차	-3220
▁이스	-3221
▁아야	-3222
▁미드	-3223
▁ㅎㅔ	-3224
▁시청자	-3225
▁전장	-3226
▁발휘	-3227
▁65	-3228
▁어차피	-3229
아들	-3230
▁좋아하	-3231
▁모자	-3232
▁붕괴	-3233
▁용도	-3234
즈키	-3235
▁신화	-3236
▁경계	-3237
▁계산	-3238
th	-3239
▁Sh	-3240
▁랩	-3241
ㅇㅣㄴㅈㅣ	-3242
가와	-3243
▁오른쪽	-3244
▁룡	-3245
사카	-3246
▁부담	-3247
▁인생	-3248
▁경유	-3249
IC	-3250
▁연예	-3251
▁납치	-3252
▁떼	-3253
▁쫓	-3254
▁이거	-3255
▁순수	-3256
▁스트라이	-3257
▁행복	-3258
▁외부	-3259
▁ㅅㅡㄹ	-3260
▁대다수	-3261
▁평화	-3262
▁창작	-3263
▁실질	-3264
▁ㅂㅔ	-3265
▁의원	-3266
아보	-3267
▁펠	-3268
▁횟	-3269
▁궁극	-3270
▁떡밥	-3271
▁가이	-3272
▁소프트	-3273
▁현장	-3274
▁우수	-3275
ttp	-3276
▁정령	-3277
▁도서	-3278
▁갱	-3279
▁http	-3280
▁56	-3281
▁여왕	-3282
▁귀족	-3283
▁젤	-3284
▁ㄴㅐㄹ	-3285
▁최대한	-3286
▁스케	-3287
▁돌아오	-3288
▁그다지	-3289
▁카나	-3290
▁점령	-3291
▁ㄴㅏㄹㅇㅏ	-3292
▁게이지	-3293
▁끝내	-3294
▁포르	-3295
▁ㅇㅡㄹㄲㅏ	-3296
▁탄생	-3297
▁측면	-3298
▁영역	-3299
▁작성	-3300
▁주목	-3301
▁헤드	-3302
▁탑승	-3303
▁커뮤	-3304
ㅇㅜㄴㄷㅏ	-3305
바이	-3306
▁갤러리	-3307
ㅈㅣㄱ	-3308
▁니시	-3309
ED	-3310
▁체육	-3311
▁규정	-3312
▁진정	-3313
카와	-3314
▁승강장	-3315
ㅉㅓㄹ	-3316
리티	-3317
▁여부	-3318
▁ㅇㅑㄱㅎㅏㄴ	-3319
▁터지	-3320
▁제안	-3321
▁바탕	-3322
▁순서	-3323
ㅂㅗㄹ	-3324
▁러브	-3325
로이드	-3326
▁경향	-3327
▁ㅁㅗㄴ	-3328
▁꾸준히	-3329
▁생성	-3330
ㄱㅣ	-3331
가락	-3332
▁정류	-3333
▁얼음	-3334
▁Sp	-3335
▁업체	-3336
▁ㄷㅜㄴ	-3337
▁도구	-3338
▁상자	-3339
▁넷	-3340
▁요원	-3341
▁박스	-3342
어리	-3343
▁살짝	-3344
▁카메라	-3345
▁판타지	-3346
▁개최	-3347
▁완료	-3348
▁릭	-3349
▁오해	-3350
▁유희	-3351
▁나누	-3352
▁54	-3353
▁120	-3354
▁운전	-3355
▁공화국	-3356
▁횟수	-3357
▁2020	-3358
▁트위	-3359
▁타이밍	-3360
▁부인	-3361
▁돌격	-3362
▁ㄱㅜㄴ	-3363
▁쿨타임	-3364
▁ㄷㅏㅇㅎㅏㄴㄷㅏ	-3365
마스	-3366
AS	-3367
▁동네	-3368
▁테러	-3369
▁이성	-3370
▁고유	-3371
▁저런	-3372
▁49	-3373
▁훌륭	-3374
▁ㅂㅏㄷㅇㅏ	-3375
▁낳	-3376
▁선배	-3377
▁뮤직	-3378
▁짜리	-3379
▁마녀	-3380
▁제시	-3381
▁랍	-3382
▁정말로	-3383
▁지하철	-3384
▁53	-3385
▁장수	-3386
▁통일	-3387
▁ㅅㅜㅁㄱㅕ	-3388
▁반영	-3389
▁블레이드	-3390
▁전대	-3391
▁레전	-3392
▁비고	-3393
ㄹㅓㄴㅈㅣ	-3394
▁디아	-3395
▁ㅆㅗ	-3396
▁뱅	-3397
▁ㄲㅗ	-3398
▁보정	-3399
▁생일	-3400
▁약속	-3401
▁문명	-3402
▁SBS	-3403
▁빌리	-3404
▁삶	-3405
▁습득	-3406
ess	-3407
ab	-3408
▁You	-3409
ㅎㅏ	-3410
▁갑옷	-3411
EN	-3412
▁회의	-3413
▁기분	-3414
▁퀄	-3415
▁한화	-3416
▁파이어	-3417
▁커버	-3418
▁문자	-3419
▁알리	-3420
▁동방	-3421
▁일부러	-3422
▁왕자	-3423
▁교사	-3424
▁누르	-3425
▁줄어들	-3426
▁편의	-3427
▁ㅌㅟ	-3428
▁집안	-3429
▁자격	-3430
▁공원	-3431
▁미츠	-3432
▁페이지	-3433
ㄱㅣㄴㄷㅏ	-3434
▁아오	-3435
▁수요	-3436
▁신세	-3437
▁짝	-3438
▁폭풍	-3439
▁공장	-3440
▁ㄹㅔ	-3441
▁좁	-3442
심히	-3443
▁군주	-3444
▁윙	-3445
▁ㅂㅗㄴㄷㅏ	-3446
스티	-3447
▁지내	-3448
▁Bl	-3449
▁85	-3450
▁스프	-3451
▁대우	-3452
▁라스	-3453
▁허용	-3454
▁ㄱㅐㄹ	-3455
▁마도	-3456
▁예술	-3457
▁캔	-3458
▁플라	-3459
으키	-3460
▁응원	-3461
피스	-3462
▁지점	-3463
▁베르	-3464
▁업무	-3465
▁유비	-3466
▁천사	-3467
▁빼앗	-3468
▁키리	-3469
▁상품	-3470
▁토모	-3471
▁여신	-3472
▁알렉	-3473
▁마인	-3474
▁한때	-3475
▁비록	-3476
▁노멀	-3477
▁대공	-3478
▁데리	-3479
▁멋	-3480
▁홍보	-3481
튜브	-3482
▁ㄱㅓㄴㅈㅣ	-3483
▁유튜브	-3484
▁출발	-3485
▁ㅂㅓㅅ	-3486
▁이론	-3487
▁공기	-3488
▁ㅅㅐㅇㄱㅕ	-3489
▁적당	-3490
▁커맨	-3491
▁틈	-3492
▁내놓	-3493
ct	-3494
▁파일럿	-3495
▁ㄲㅡㅌㄴㅏㄴ	-3496
▁직원	-3497
ㅍㅣ	-3498
아먹	-3499
▁스페셜	-3500
▁약하	-3501
▁ㅇㅜㅁㅈㅣㄱ	-3502
▁단독	-3503
▁소수	-3504
▁비율	-3505
▁보수	-3506
▁기기	-3507
eat	-3508
▁재생	-3509
▁후쿠	-3510
▁레오	-3511
▁그래픽	-3512
ard	-3513
▁협력	-3514
▁써	-3515
▁꺼	-3516
▁충돌	-3517
▁거주	-3518
▁보도	-3519
▁춤	-3520
▁설득	-3521
텐츠	-3522
▁ㅍㅏ	-3523
▁거절	-3524
▁겨울	-3525
▁ㅁㅏㅈ	-3526
▁혼란	-3527
▁환승	-3528
티컬	-3529
▁회수	-3530
▁미소	-3531
▁여동생	-3532
이터	-3533
▁대륙	-3534
▁문제점	-3535
▁댓	-3536
▁무적	-3537
▁파악	-3538
▁57	-3539
▁트레이	-3540
▁전함	-3541
▁그만큼	-3542
up	-3543
▁근무	-3544
▁출처	-3545
▁짱	-3546
▁수사	-3547
▁이슬	-3548
▁AT	-3549
ㄱㅎㅣㄴ	-3550
▁트위터	-3551
▁취소	-3552
▁잊	-3553
▁66	-3554
▁변하	-3555
▁쓰레	-3556
▁영원	-3557
▁충전	-3558
▁눈치	-3559
▁격파	-3560
▁MS	-3561
▁봄	-3562
▁ㅇㅕㄹㄹㅣㄴ	-3563
▁용어	-3564
▁팝	-3565
▁메이저	-3566
ㄴㅕㅆ	-3567
▁패시브	-3568
▁DJ	-3569
▁본명	-3570
ㄹㅗㄴ	-3571
▁ㄷㅡㄴㅈㅣ	-3572
▁사이즈	-3573
▁가입	-3574
▁반란	-3575
▁랜덤	-3576
LC	-3577
▁1999	-3578
트로	-3579
▁NPC	-3580
▁AC	-3581
▁실행	-3582
▁건강	-3583
ㄹㅐㅆ	-3584
▁전형	-3585
▁커뮤니티	-3586
▁운명	-3587
ine	-3588
▁사쿠라	-3589
▁나루	-3590
▁사운드	-3591
▁동아	-3592
▁언니	-3593
▁핵심	-3594
ㅇㅜㅁ	-3595
▁오류	-3596
▁사토	-3597
▁분석	-3598
EC	-3599
▁가까이	-3600
▁수입	-3601
▁장교	-3602
ant	-3603
니어	-3604
ist	-3605
▁수학	-3606
▁별개	-3607
▁연상	-3608
아버지	-3609
▁ㄷㅟ	-3610
▁76	-3611
▁주년	-3612
▁늘어나	-3613
▁모으	-3614
▁예외	-3615
▁타케	-3616
▁웨이	-3617
히로	-3618
▁전투력	-3619
▁형성	-3620
▁우려	-3621
▁화살	-3622
ㅅㅔ	-3623
▁머신	-3624
▁샌	-3625
▁아침	-3626
▁95	-3627
▁아메	-3628
자키	-3629
▁ㅈㅓㅇㅎㅐ	-3630
▁거래	-3631
▁증거	-3632
OL	-3633
▁카미	-3634
▁낚	-3635
▁열심히	-3636
▁제조	-3637
▁AP	-3638
▁BGM	-3639
▁초월	-3640
ㄹㅣㅁ	-3641
▁내내	-3642
▁바보	-3643
▁섭	-3644
▁따위	-3645
▁섹	-3646
▁일으키	-3647
▁ㅈㅜㄱㅇㅕ	-3648
▁서포	-3649
▁심장	-3650
▁연애	-3651
▁연방	-3652
▁CP	-3653
▁통하	-3654
모로	-3655
▁카르	-3656
▁깎	-3657
▁58	-3658
▁묵	-3659
▁암흑	-3660
▁이마	-3661
▁신뢰	-3662
▁상향	-3663
▁흘	-3664
▁만족	-3665
▁개통	-3666
▁레전드	-3667
▁전투기	-3668
▁강조	-3669
▁헌터	-3670
▁ㅇㅑㄱ	-3671
▁스코어	-3672
▁권력	-3673
▁기다리	-3674
사키	-3675
▁제법	-3676
▁본부	-3677
▁피아	-3678
▁변형	-3679
디션	-3680
▁늑	-3681
▁피해자	-3682
▁고기	-3683
▁정권	-3684
▁화이트	-3685
피아	-3686
▁위원회	-3687
▁여러모로	-3688
▁77	-3689
파이어	-3690
▁돌리	-3691
▁복장	-3692
나다	-3693
▁고교	-3694
▁TH	-3695
▁연사	-3696
나가	-3697
▁re	-3698
▁꼽	-3699
▁아나	-3700
▁오로	-3701
▁다행히	-3702
ue	-3703
타인	-3704
▁재능	-3705
▁ㄲㅣ	-3706
▁기절	-3707
▁매치	-3708
▁마스	-3709
▁72	-3710
▁주먹	-3711
▁소문	-3712
▁주도	-3713
▁ㄸㅐㄴ	-3714
▁옛날	-3715
▁지나가	-3716
▁고민	-3717
▁페이스	-3718
▁쿠로	-3719
PG	-3720
더스	-3721
▁불꽃	-3722
▁키스	-3723
ip	-3724
▁파이널	-3725
▁아리	-3726
▁민간	-3727
▁ㅍㅐ	-3728
타로	-3729
▁트라	-3730
▁1998	-3731
도우	-3732
▁com	-3733
▁62	-3734
▁대만	-3735
▁마술	-3736
AM	-3737
ind	-3738
▁댄스	-3739
▁별도	-3740
▁묶	-3741
▁네이버	-3742
▁엘프	-3743
▁98	-3744
▁우스	-3745
▁실드	-3746
▁88	-3747
▁제기	-3748
▁전공	-3749
▁부진	-3750
▁삼국지	-3751
▁Al	-3752
ore	-3753
▁게이트	-3754
▁벌어지	-3755
▁총기	-3756
▁덴	-3757
▁절반	-3758
▁밟	-3759
▁함선	-3760
▁고생	-3761
▁심리	-3762
▁드리	-3763
▁옹	-3764
▁널	-3765
▁ㅎㅏㅂㅊㅕ	-3766
츠키	-3767
▁크루	-3768
▁ㅂㅜㄹㄹㅓㅆ	-3769
▁채용	-3770
▁ㄷㅗㄹㄹㅕ	-3771
돼지	-3772
▁스티	-3773
one	-3774
오리	-3775
▁사전	-3776
▁지급	-3777
보이	-3778
▁검색	-3779
ang	-3780
▁프레임	-3781
▁아프리카	-3782
▁Th	-3783
▁간부	-3784
고기	-3785
▁버티	-3786
▁레인저	-3787
▁낭	-3788
▁후속작	-3789
▁해방	-3790
▁추적	-3791
▁화장	-3792
▁라이더	-3793
▁선호	-3794
▁표준	-3795
▁폭주	-3796
▁ㅎㅑㅇㅎㅐ	-3797
▁불만	-3798
▁동영	-3799
▁입력	-3800
▁ㅌㅗㅇㅎㅏㄴ	-3801
▁재판	-3802
ㅆㅏㄴ	-3803
▁고전	-3804
▁ㄷㅏㅇㅎㅏㄹ	-3805
▁블러	-3806
▁요즘	-3807
▁한국인	-3808
▁당황	-3809
▁ㄱㅏㅈㅊ	-3810
▁학살	-3811
IT	-3812
▁ㅂㅣㄴ	-3813
▁계승	-3814
▁합체	-3815
▁히데	-3816
▁경기도	-3817
▁근거	-3818
▁조조	-3819
▁동원	-3820
▁'.	-3821
▁작용	-3822
▁ㄴㅘ	-3823
▁아가	-3824
ㅂㅘ	-3825
▁800	-3826
▁크리티컬	-3827
▁ㅌㅓㄴ	-3828
▁균	-3829
▁추락	-3830
▁마이크	-3831
▁화려	-3832
▁진지	-3833
▁동영상	-3834
▁커플	-3835
▁어택	-3836
스트라	-3837
▁SS	-3838
▁웬만	-3839
ell	-3840
▁학과	-3841
▁카오스	-3842
ㄶㅇㅏ	-3843
▁랜드	-3844
▁남기	-3845
▁찰	-3846
▁믹	-3847
식간	-3848
▁명예	-3849
▁아트	-3850
▁지형	-3851
▁ㄹㅏㄹ	-3852
▁나서	-3853
▁....	-3854
▁테이	-3855
어스	-3856
▁틱	-3857
▁순식간	-3858
▁대대	-3859
▁지나치	-3860
▁통제	-3861
▁ㅂㅏㄴ	-3862
▁일상	-3863
▁외국인	-3864
▁곰	-3865
▁늑대	-3866
▁600	-3867
▁현지	-3868
▁교환	-3869
▁갖추	-3870
▁쓰레기	-3871
▁오빠	-3872
의원	-3873
▁전철	-3874
▁가로	-3875
▁카라	-3876
▁권총	-3877
바로	-3878
▁59	-3879
▁최상	-3880
▁메카	-3881
▁해병	-3882
▁요새	-3883
▁환상	-3884
▁핀	-3885
▁젠	-3886
▁해설	-3887
▁시야	-3888
▁양산	-3889
▁부품	-3890
▁클라	-3891
▁반지	-3892
▁닿	-3893
▁미디어	-3894
▁ㅇㅓㄴ	-3895
둥이	-3896
▁사마	-3897
ㄹㅡㅁㄷㅏ	-3898
▁드디어	-3899
if	-3900
▁토리	-3901
▁구현	-3902
▁제작진	-3903
▁혁명	-3904
▁요괴	-3905
▁발매되	-3906
▁타워	-3907
▁김성	-3908
창기	-3909
▁수술	-3910
▁때리	-3911
▁사자	-3912
▁!!	-3913
ㅊㅣ	-3914
▁불편	-3915
▁지대	-3916
▁증명	-3917
▁시드	-3918
▁ㄴㅐㄴㄷㅏ	-3919
▁시각	-3920
▁쇠	-3921
▁정류장	-3922
▁트레	-3923
▁전선	-3924
▁지시	-3925
▁소멸	-3926
▁대하	-3927
▁정지	-3928
▁퀸	-3929
▁제자	-3930
▁소총	-3931
▁수송	-3932
ㄹㅡ	-3933
▁호환	-3934
▁리메	-3935
▁탱크	-3936
▁1997	-3937
▁ㄱㅟ	-3938
▁ㅅㅏㄹㄹㅕ	-3939
FA	-3940
▁매체	-3941
▁쳐	-3942
▁파라	-3943
ㅁㅏㅇ	-3944
▁유형	-3945
▁대체로	-3946
ort	-3947
▁레스	-3948
▁61	-3949
▁캐스	-3950
▁영업	-3951
▁ㅎㅏㄹㅈㅣ	-3952
▁아무런	-3953
ㅎㅣㄹ	-3954
▁갈등	-3955
ㄴㅣㄴㄷㅏ	-3956
▁근육	-3957
▁드물	-3958
▁중계	-3959
▁이승	-3960
▁ㅇㅝㄴ	-3961
▁매력	-3962
▁연대	-3963
▁소닉	-3964
▁편하	-3965
▁스토	-3966
▁ㅎㅡㄴ	-3967
▁마구	-3968
▁폐지	-3969
▁리버	-3970
▁전적	-3971
퍼스	-3972
▁마련	-3973
▁ㅁㅏㄴㄴㅏㄴ	-3974
▁전직	-3975
▁초창기	-3976
▁쾌	-3977
▁네임	-3978
이즈	-3979
▁ㄱㅏㅌ	-3980
▁테스트	-3981
▁복잡	-3982
▁즉시	-3983
▁처치	-3984
▁스카이	-3985
▁ㄷㅓㄴㅈㅕ	-3986
▁령	-3987
▁클로	-3988
▁불안	-3989
▁배트	-3990
ive	-3991
▁ㅉㅗ	-3992
▁겉	-3993
▁반격	-3994
▁수업	-3995
큐어	-3996
▁프린	-3997
▁191	-3998
▁경비	-3999
▁테일	-4000
도로	-4001
▁경영	-4002
▁몰래	-4003
▁폭격	-4004
▁작사	-4005
ok	-4006
ld	-4007
▁공작	-4008
ㅎㅏㅁ	-4009
▁출현	-4010
▁묘지	-4011
▁상상	-4012
▁두산	-4013
▁해금	-4014
▁신장	-4015
저히	-4016
▁동기	-4017
▁ㅇㅐㄴ	-4018
▁마루	-4019
▁스마트	-4020
▁커맨드	-4021
▁공유	-4022
▁",	-4023
▁출판	-4024
▁볼트	-4025
VE	-4026
▁텔레	-4027
▁신고	-4028
어도	-4029
▁극단	-4030
▁스톰	-4031
▁작동	-4032
▁ㅁㅓㄱ	-4033
▁조절	-4034
ers	-4035
▁콜라	-4036
▁룬	-4037
▁KO	-4038
▁잠수	-4039
▁리메이크	-4040
▁배차	-4041
▁인수	-4042
▁폭력	-4043
▁아티	-4044
▁1980	-4045
▁참전	-4046
▁장관	-4047
▁브리	-4048
▁연관	-4049
▁ㅅㅣㅁㅎㅏㄴ	-4050
지컬	-4051
▁ㅁㅣㄹㄹㅕ	-4052
▁압박	-4053
▁요정	-4054
▁구도	-4055
▁동작	-4056
▁연도	-4057
▁국적	-4058
▁악역	-4059
▁그림자	-4060
▁농구	-4061
▁알파	-4062
▁장식	-4063
▁ㄱㅏㅌㅇㅣ	-4064
ove	-4065
▁키우	-4066
▁조용	-4067
▁오픈	-4068
▁An	-4069
▁이리	-4070
▁전방	-4071
▁렙	-4072
▁공산	-4073
▁한방	-4074
▁NC	-4075
▁신분	-4076
▁언제나	-4077
ㅅㅟ	-4078
▁뉴욕	-4079
▁가져	-4080
▁외계	-4081
▁환자	-4082
▁사령관	-4083
ain	-4084
▁등판	-4085
▁출생	-4086
▁뒤집	-4087
▁프리큐어	-4088
지마	-4089
▁평타	-4090
▁왠	-4091
▁서양	-4092
일리	-4093
▁어깨	-4094
▁흥행	-4095
▁브라질	-4096
▁똑같이	-4097
▁74	-4098
▁ㅃㅏㄹ	-4099
▁ㅈㅏㄶㅇㅏ	-4100
▁물질	-4101
▁출장	-4102
▁드러나	-4103
▁절망	-4104
▁뛰어	-4105
▁아크	-4106
▁모바	-4107
ㄷㅡㄹㅇㅕ	-4108
▁분기	-4109
▁ㅇㅏㄴ	-4110
▁ㄱㅚ	-4111
▁돌진	-4112
드라	-4113
▁시행	-4114
▁간격	-4115
▁익숙	-4116
▁스타크래프트	-4117
▁탁	-4118
오카	-4119
▁Se	-4120
▁은근히	-4121
▁간혹	-4122
▁착각	-4123
▁게시판	-4124
▁적어도	-4125
▁사양	-4126
▁노예	-4127
▁63	-4128
▁노출	-4129
▁신청	-4130
ㄷㅡㄴㄱㅏ	-4131
▁글자	-4132
▁미카	-4133
▁팅	-4134
▁유령	-4135
▁프리미	-4136
▁코우	-4137
워하	-4138
조리	-4139
광역	-4140
▁어쩌	-4141
▁ㅍㅜㄹ	-4142
서트	-4143
▁겐	-4144
웨이	-4145
▁중대	-4146
▁뿌리	-4147
▁남부	-4148
▁신문	-4149
ong	-4150
▁경험치	-4151
▁어쨌	-4152
▁96	-4153
MA	-4154
▁입학	-4155
▁사이드	-4156
▁범인	-4157
▁슈트	-4158
▁1996	-4159
▁ㅇㅣㅂ	-4160
▁주위	-4161
▁종점	-4162
▁자이언	-4163
▁강철	-4164
▁고향	-4165
▁유희왕	-4166
울리	-4167
▁되찾	-4168
▁브레이크	-4169
▁ㄴㅗㅎ	-4170
▁먹이	-4171
▁DLC	-4172
ㅂㅅㅣ	-4173
▁저그	-4174
▁메모리	-4175
▁무난	-4176
▁탄약	-4177
▁71	-4178
ㄹㅏㅇ	-4179
▁68	-4180
▁즐기	-4181
전자	-4182
▁추진	-4183
▁an	-4184
▁써먹	-4185
▁유행	-4186
▁전시	-4187
ith	-4188
▁보장	-4189
▁MAX	-4190
▁스톤	-4191
▁가득	-4192
▁AK	-4193
▁구출	-4194
▁대량	-4195
▁KT	-4196
디아	-4197
▁챠	-4198
▁ㅁㅏㄴㄴㅏ	-4199
▁97	-4200
▁ㄷㅏㄹㄹㅣㄴ	-4201
▁열리	-4202
▁이시	-4203
▁보물	-4204
▁딜러	-4205
▁부위	-4206
▁출력	-4207
▁전역	-4208
▁밝히	-4209
▁뛰어나	-4210
▁이즈	-4211
▁아무것	-4212
▁스킨	-4213
▁통상	-4214
▁세월	-4215
웨어	-4216
광역시	-4217
▁문장	-4218
ast	-4219
▁주소	-4220
▁섞	-4221
EM	-4222
▁감사	-4223
성기	-4224
▁창조	-4225
▁시즈	-4226
▁감염	-4227
▁객	-4228
▁흠	-4229
▁당선	-4230
▁해체	-4231
▁도서관	-4232
펙트	-4233
▁제이	-4234
▁매직	-4235
올리	-4236
▁핸드	-4237
end	-4238
▁공학	-4239
▁걷	-4240
▁북미	-4241
▁대략	-4242
▁댓글	-4243
▁하야	-4244
▁대립	-4245
▁차라리	-4246
og	-4247
▁기독	-4248
▁호평	-4249
▁만든	-4250
ㄲㅇㅕ	-4251
▁어지	-4252
▁73	-4253
▁베트	-4254
▁조지	-4255
▁부문	-4256
▁은하	-4257
▁US	-4258
▁하필	-4259
▁기습	-4260
▁중화	-4261
▁상당수	-4262
▁샘	-4263
▁스튜	-4264
▁플레	-4265
▁1995	-4266
ew	-4267
톨릭	-4268
레이터	-4269
위대	-4270
▁융합	-4271
▁제주	-4272
▁ㄹㅣㅇ	-4273
▁리얼	-4274
ㄹㄹㅓㅆ	-4275
▁리치	-4276
▁ㅅㅓㄴㅂㅗ	-4277
▁듯이	-4278
▁인증	-4279
▁무료	-4280
▁김정	-4281
▁멕	-4282
라이언	-4283
▁종이	-4284
▁돼지	-4285
▁라이프	-4286
▁거짓말	-4287
▁모바일	-4288
ㄷㅓㄴㄱㅏ	-4289
▁서부	-4290
요시	-4291
▁신성	-4292
▁대충	-4293
▁용사	-4294
▁올라오	-4295
▁타마	-4296
▁번개	-4297
▁결말	-4298
▁회원	-4299
ㄹㅓㅁㅇㅔ	-4300
▁이슬람	-4301
▁앱	-4302
▁유이	-4303
▁67	-4304
▁멀쩡	-4305
ㅃㅏ	-4306
▁녹음	-4307
▁외교	-4308
▁입수	-4309
▁고백	-4310
▁추격	-4311
▁ㅂㅓㅅㅇㅓ	-4312
▁엔터	-4313
▁갤럭	-4314
▁이자	-4315
▁퀄리티	-4316
▁점차	-4317
▁음성	-4318
▁세이버	-4319
▁오카	-4320
▁ㅁㅐ	-4321
▁육체	-4322
려움	-4323
▁편지	-4324
▁야스	-4325
▁ff	-4326
▁결론	-4327
▁관객	-4328
▁타점	-4329
▁블로그	-4330
▁앵	-4331
▁으	-4332
▁수련	-4333
▁기원	-4334
미야	-4335
▁메시	-4336
▁붙이	-4337
▁He	-4338
▁;	-4339
▁78	-4340
▁부리	-4341
▁신인	-4342
▁특화	-4343
▁81	-4344
▁향상	-4345
▁이래	-4346
▁요코	-4347
▁콘서트	-4348
▁죄다	-4349
▁가톨릭	-4350
▁ㅇㅚ	-4351
▁ㅊㅟ	-4352
▁츄	-4353
av	-4354
▁예비	-4355
▁ㅃㅏㄹㄹㅏ	-4356
▁가속	-4357
▁루시	-4358
▁THE	-4359
▁단일	-4360
▁긍	-4361
▁정복	-4362
▁공급	-4363
▁유로	-4364
▁카타	-4365
▁느리	-4366
▁ㅁㅏㄴㄴㅏㅆ	-4367
▁음반	-4368
듀서	-4369
▁ㅇㅗㄹㄹㅕㅆ	-4370
▁프로듀서	-4371
▁캐스팅	-4372
▁협회	-4373
▁기독교	-4374
▁너무나	-4375
▁동화	-4376
▁조치	-4377
▁아기	-4378
▁JR	-4379
▁헨	-4380
▁192	-4381
버트	-4382
▁ㄲㅔ	-4383
오르	-4384
▁ㅍㅕㄴ	-4385
▁위장	-4386
▁기병	-4387
▁슛	-4388
▁가게	-4389
▁그곳	-4390
리그	-4391
▁맘	-4392
▁갤럭시	-4393
▁훗	-4394
PM	-4395
▁무효	-4396
▁180	-4397
▁91	-4398
나무	-4399
▁ㅇㅗㄴㄷㅏ	-4400
▁전달	-4401
▁프라이	-4402
▁가상	-4403
▁소화	-4404
▁펀치	-4405
▁맞이	-4406
▁현역	-4407
▁}	-4408
▁웹툰	-4409
▁반발	-4410
▁게스트	-4411
▁마리아	-4412
ly	-4413
▁ㅋㅐ	-4414
▁신기	-4415
▁블리	-4416
▁메인	-4417
▁세우	-4418
▁피부	-4419
▁마키	-4420
▁국회의원	-4421
▁과목	-4422
▁가량	-4423
▁주전	-4424
▁고용	-4425
▁겁	-4426
▁세이브	-4427
▁일원	-4428
▁HD	-4429
▁쟈	-4430
레나	-4431
▁꼬리	-4432
아들이	-4433
▁오후	-4434
▁횡	-4435
▁국군	-4436
▁문학	-4437
▁입구	-4438
▁리스트	-4439
▁마리오	-4440
▁깃	-4441
▁신규	-4442
▁어울리	-4443
▁태그	-4444
se	-4445
▁ㅇㅗㄹㄹㅏㅆ	-4446
▁바리	-4447
OT	-4448
▁기사단	-4449
▁울산	-4450
보드	-4451
▁수집	-4452
▁SD	-4453
▁메타	-4454
▁임시	-4455
▁넘기	-4456
▁진심	-4457
ㅅㅓㅆ	-4458
▁250	-4459
ㅍㅡㄴ	-4460
▁홍콩	-4461
▁섀	-4462
▁부수	-4463
▁조심	-4464
▁베스트	-4465
▁후기	-4466
▁1994	-4467
▁내구	-4468
▁청년	-4469
▁연구소	-4470
▁내장	-4471
IS	-4472
▁아우	-4473
▁전면	-4474
▁심판	-4475
▁이득	-4476
▁신라	-4477
란색	-4478
AC	-4479
▁ㅎㅡ	-4480
▁84	-4481
▁파리	-4482
ㄱㅜㄴㄱㅏ	-4483
BO	-4484
▁제어	-4485
▁길드	-4486
ㅇㅓㄴ	-4487
▁잡지	-4488
▁지능	-4489
아웃	-4490
▁킨	-4491
▁상점	-4492
ㄹㅜㄴ	-4493
ㄷㅎㅕ	-4494
▁수영	-4495
▁대개	-4496
▁j	-4497
쟁이	-4498
▁고문	-4499
구치	-4500
▁켈	-4501
▁립	-4502
▁쿼	-4503
▁박살	-4504
▁부부	-4505
▁MV	-4506
▁파트너	-4507
▁작화	-4508
▁카스	-4509
▁ㅇㅗㄻㄱㅕ	-4510
▁인공	-4511
▁침공	-4512
▁전하	-4513
▁육성	-4514
티나	-4515
▁ㅇㅏㄹㅇㅏ	-4516
잡이	-4517
▁슬롯	-4518
ㅇㅡㄴ	-4519
▁의무	-4520
구리	-4521
▁구멍	-4522
▁톱	-4523
▁아일	-4524
▁기종	-4525
▁헤비	-4526
▁디지몬	-4527
▁경상	-4528
▁시마	-4529
▁쿠키	-4530
▁SN	-4531
▁둔	-4532
▁자매	-4533
▁Ar	-4534
▁Le	-4535
▁타이거	-4536
▁여론	-4537
▁강의	-4538
코토	-4539
▁노부	-4540
▁영토	-4541
▁어른	-4542
▁연타	-4543
▁손가락	-4544
▁본작	-4545
FC	-4546
▁De	-4547
▁어린이	-4548
▁한번	-4549
▁외전	-4550
▁지휘관	-4551
▁여지	-4552
▁헤이	-4553
릭스	-4554
▁연인	-4555
▁사우	-4556
▁예능	-4557
▁아시	-4558
▁인근	-4559
크스	-4560
▁MC	-4561
▁정면	-4562
▁69	-4563
브리	-4564
▁명중률	-4565
▁일반인	-4566
▁ㄴㅓㅁㄱㅕ	-4567
▁ㅇㅑㄱㅎㅐ	-4568
▁에드	-4569
▁한마	-4570
▁82	-4571
▁인지도	-4572
▁터키	-4573
▁방사	-4574
▁190	-4575
▁최소한	-4576
▁ㅂㅜㄹㄹㅣㄴㄷㅏ	-4577
▁파견	-4578
호사	-4579
▁나뉘	-4580
▁감시	-4581
▁소형	-4582
▁특집	-4583
▁성과	-4584
ㄲㅟㄴ	-4585
▁대항	-4586
▁가볍	-4587
▁시내버스	-4588
▁86	-4589
▁회차	-4590
▁결승전	-4591
▁오랫	-4592
▁드러내	-4593
▁안경	-4594
▁살리	-4595
▁아바	-4596
▁식사	-4597
▁터치	-4598
▁클리	-4599
▁교전	-4600
▁여유	-4601
▁포탑	-4602
▁고지	-4603
▁왕조	-4604
▁ㄴㅓㄴ	-4605
아지	-4606
▁기초	-4607
▁트윈	-4608
▁규칙	-4609
▁사도	-4610
▁ㅅㅔㄴ	-4611
가미	-4612
▁어쨌든	-4613
▁PD	-4614
ry	-4615
▁더더	-4616
▁실버	-4617
▁대폭	-4618
▁아니면	-4619
ES	-4620
▁어지간	-4621
▁한동안	-4622
▁요금	-4623
ㄴㅣㄴㄱㅏ	-4624
어내	-4625
▁강남	-4626
▁국어	-4627
▁허나	-4628
▁합성	-4629
▁is	-4630
▁반사	-4631
▁해적	-4632
▁아쉽	-4633
▁왈	-4634
▁컬러	-4635
▁연락	-4636
▁이루어지	-4637
▁쏟	-4638
▁의상	-4639
▁더더욱	-4640
ㅂㅜㅌ	-4641
▁림	-4642
▁AI	-4643
▁스페이스	-4644
ㄴㅕ	-4645
▁차단	-4646
▁동부	-4647
▁도망치	-4648
▁{	-4649
▁매니	-4650
▁냄	-4651
▁전성기	-4652
▁레이스	-4653
▁썩	-4654
우드	-4655
▁프로필	-4656
지로	-4657
▁괴수	-4658
▁첨	-4659
▁경기장	-4660
▁버스터	-4661
▁속하	-4662
▁주포	-4663
▁분량	-4664
ㅂㅕ	-4665
▁국방	-4666
▁ㅂㅕㄹ	-4667
▁협박	-4668
▁입단	-4669
▁재미있	-4670
▁렛	-4671
▁절대로	-4672
▁빡	-4673
▁휴대	-4674
▁ㄷㅏㅁ	-4675
▁좌우	-4676
▁ㅆㅘ	-4677
▁의료	-4678
▁한참	-4679
▁치명타	-4680
▁겹	-4681
▁고르	-4682
▁고수	-4683
▁럭	-4684
▁핫	-4685
▁움직임	-4686
ㅇㅣㅁ	-4687
▁로즈	-4688
▁다이아	-4689
▁for	-4690
▁안티	-4691
▁예고	-4692
▁ㄷㅡㄴㄷㅏ	-4693
▁아빠	-4694
오프	-4695
▁블록	-4696
▁천재	-4697
▁캐논	-4698
▁GS	-4699
▁비행기	-4700
▁체포	-4701
▁허리	-4702
▁돕	-4703
▁다섯	-4704
▁히메	-4705
▁식물	-4706
▁영문	-4707
노스	-4708
▁인정받	-4709
▁카츠	-4710
ity	-4711
▁가시	-4712
▁스미	-4713
▁앞서	-4714
▁''	-4715
▁농담	-4716
▁주말	-4717
▁ㄸㅢ	-4718
▁구체	-4719
▁감옥	-4720
▁수십	-4721
▁민주당	-4722
▁일자	-4723
▁외치	-4724
먼트	-4725
▁대가	-4726
▁챕	-4727
▁트랜	-4728
카드	-4729
▁누나	-4730
▁아즈	-4731
▁처벌	-4732
▁FI	-4733
▁ㄱㅓㄹㄹㅣㄴ	-4734
▁수수	-4735
▁체크	-4736
▁뷰	-4737
▁일제	-4738
▁갈수	-4739
▁도달	-4740
▁한마디	-4741
▁92	-4742
▁취미	-4743
▁불법	-4744
시로	-4745
▁신호	-4746
▁레이드	-4747
▁널리	-4748
▁싱크	-4749
▁합격	-4750
▁임명	-4751
▁갈수록	-4752
▁드레	-4753
▁목격	-4754
▁소지	-4755
▁챕터	-4756
▁귀신	-4757
▁해리	-4758
바라	-4759
▁기아	-4760
▁취하	-4761
▁오사카	-4762
▁마비	-4763
▁크라	-4764
ㄷㅜㄴ	-4765
▁110	-4766
▁멘탈	-4767
▁로우	-4768
▁양쪽	-4769
▁뼈	-4770
▁안내	-4771
▁AR	-4772
▁자치	-4773
▁리아	-4774
▁이지	-4775
▁비아	-4776
▁재현	-4777
▁지우	-4778
▁be	-4779
▁비싸	-4780
▁김영	-4781
▁그동안	-4782
▁구속	-4783
▁트레이드	-4784
▁전신	-4785
▁잦	-4786
가시	-4787
▁컨텐츠	-4788
고속	-4789
▁깡	-4790
▁ㅅㅕㅆ	-4791
▁꺾	-4792
▁적대	-4793
ㅀㅇㅓ	-4794
▁봇	-4795
▁상성	-4796
▁소원	-4797
▁ㄷㅔㄴ	-4798
▁안드로이드	-4799
닉스	-4800
프레	-4801
▁취향	-4802
남도	-4803
▁오랫동안	-4804
▁복무	-4805
▁캐나다	-4806
메달	-4807
▁할아버지	-4808
▁웅	-4809
▁훗날	-4810
▁모모	-4811
▁상업	-4812
▁94	-4813
▁개체	-4814
▁의뢰	-4815
▁돌아다니	-4816
▁뜬	-4817
▁구사	-4818
▁뚜	-4819
▁ㅌㅔㄴ	-4820
▁79	-4821
▁홀로	-4822
▁대지	-4823
▁글로	-4824
▁춘	-4825
▁일격	-4826
페인	-4827
▁ㄱㅓㄹㅊㅕ	-4828
▁개량	-4829
▁캠퍼스	-4830
▁ㅇㅏㅍㅅㅓ	-4831
▁예시	-4832
▁북부	-4833
▁지도자	-4834
▁상급	-4835
▁이식	-4836
▁퀴	-4837
▁둥	-4838
▁스턴	-4839
▁회상	-4840
▁투어	-4841
▁93	-4842
▁ㅈㅜㄹㅇㅕ	-4843
▁입히	-4844
▁ㅁㅏㅇ	-4845
▁ㅂㅕㄹㄷㅏ	-4846
▁전후	-4847
▁디지털	-4848
려가	-4849
▁ㄷㅔㄹ	-4850
▁바퀴	-4851
▁IC	-4852
▁결코	-4853
▁수용	-4854
▁원본	-4855
▁ㅁㅝ	-4856
▁클래식	-4857
디언	-4858
▁83	-4859
▁명성	-4860
▁삼진	-4861
▁SC	-4862
라드	-4863
▁데드	-4864
▁랭킹	-4865
▁포트	-4866
▁모조리	-4867
▁딩	-4868
OM	-4869
▁깨닫	-4870
▁공지	-4871
▁ㄴㅗㄹㄹㅏ	-4872
시코	-4873
▁플로	-4874
▁베트남	-4875
▁미묘	-4876
ass	-4877
치기	-4878
▁FA	-4879
▁귀찮	-4880
▁박정	-4881
밀리	-4882
▁조성	-4883
▁마린	-4884
▁축제	-4885
▁도발	-4886
▁어스	-4887
▁경고	-4888
▁바위	-4889
▁700	-4890
▁일시	-4891
▁일기	-4892
▁ㅈㅜㄱㅇㅣㄴ	-4893
▁노인	-4894
ㅂㅏ	-4895
▁받아들이	-4896
▁편입	-4897
▁각자	-4898
다이	-4899
▁정비	-4900
▁누리	-4901
▁수익	-4902
▁토르	-4903
▁외형	-4904
스탄	-4905
▁팬덤	-4906
▁ffff	-4907
▁구원	-4908
▁접속	-4909
▁ㅈㅜㄱㅇㅣㄹ	-4910
▁승격	-4911
her	-4912
▁영향력	-4913
▁파츠	-4914
▁트로	-4915
▁89	-4916
ㄱㅜ	-4917
▁유니폼	-4918
▁긍정	-4919
▁GB	-4920
▁노벨	-4921
데스	-4922
▁룸	-4923
▁커스	-4924
ㅗㅂ	-4925
age	-4926
▁인하	-4927
▁내성	-4928
ㅎㅇㅏ	-4929
▁아케	-4930
구려	-4931
▁촌	-4932
▁어드	-4933
▁청소년	-4934
▁동인	-4935
▁유통	-4936
덜란드	-4937
▁OST	-4938
▁네덜란드	-4939
▁스승	-4940
▁곧바로	-4941
▁방지	-4942
▁연료	-4943
▁유대	-4944
ㅁㅜ	-4945
▁개성	-4946
▁시계	-4947
▁건축	-4948
▁스틸	-4949
▁무덤	-4950
▁바이러스	-4951
▁ㅅㅣㅁㅎㅐ	-4952
임스	-4953
▁형사	-4954
▁리듬	-4955
▁메뉴	-4956
▁하우스	-4957
ide	-4958
▁무라	-4959
▁87	-4960
ID	-4961
▁ffffff	-4962
▁전멸	-4963
▁거인	-4964
▁성별	-4965
▁펫	-4966
▁니코	-4967
▁보안	-4968
▁ㄴㅏㅁㄱㅕ	-4969
▁레이더	-4970
▁대인	-4971
▁환영	-4972
▁햄	-4973
▁CC	-4974
▁이명	-4975
▁이터	-4976
UN	-4977
▁투구	-4978
▁자국	-4979
▁GT	-4980
▁씹	-4981
▁정찰	-4982
▁단장	-4983
▁ㄸㅡㄴ	-4984
VA	-4985
▁사정거리	-4986
▁이영	-4987
▁주식	-4988
ark	-4989
▁이내	-4990
ㄴㅝ	-4991
▁부작	-4992
▁개방	-4993
▁어떠	-4994
▁패널	-4995
▁DS	-4996
▁멍	-4997
▁딘	-4998
▁보석	-4999
▁Tr	-5000
▁오타	-5001
▁코미	-5002
▁로고	-5003
▁나치	-5004
▁드라이브	-5005
▁저장	-5006
▁그럼	-5007
▁메르	-5008
▁톰	-5009
▁이날	-5010
▁자세히	-5011
▁쵸	-5012
▁윌리	-5013
▁김태	-5014
▁ㅋㅣㄹ	-5015
▁타인	-5016
▁논리	-5017
세스	-5018
▁연금	-5019
▁KIA	-5020
▁소중	-5021
▁블러드	-5022
▁ㅁㅗㅅㅎㅏㄹ	-5023
▁들이	-5024
▁쉐	-5025
▁원소	-5026
▁식당	-5027
▁빌드	-5028
▁생략	-5029
▁호주	-5030
▁곽	-5031
▁자금	-5032
▁스키	-5033
▁ㅈㅓㄱㅎㅕ	-5034
▁마침내	-5035
▁놀이	-5036
▁오스트	-5037
▁계통	-5038
▁와이	-5039
▁과연	-5040
▁칩	-5041
▁학부	-5042
▁인격	-5043
ep	-5044
▁주역	-5045
▁플레이오프	-5046
ㅏㄹㄹㅣㄴ	-5047
▁우라	-5048
▁플랫	-5049
ax	-5050
나미	-5051
▁제임스	-5052
스키	-5053
▁WW	-5054
▁사이버	-5055
▁스트라이크	-5056
▁맥스	-5057
▁똥	-5058
▁다름	-5059
▁의존	-5060
▁우연히	-5061
▁극복	-5062
▁미술	-5063
▁탄창	-5064
▁도우	-5065
▁인연	-5066
▁마이클	-5067
▁계단	-5068
▁골든	-5069
▁사라	-5070
▁전진	-5071
▁예측	-5072
▁ㅁㅗㄹㄹㅏㅆ	-5073
▁개정	-5074
▁전문가	-5075
▁ㅅㅏㄹㅇㅏ	-5076
▁어마	-5077
▁ㅎㅏㄴㅈㅣ	-5078
▁사신	-5079
▁악당	-5080
▁호텔	-5081
▁깜	-5082
▁트럭	-5083
ire	-5084
ㄲㅣㄹ	-5085
▁아일랜드	-5086
▁테츠	-5087
▁On	-5088
▁판매량	-5089
▁이브	-5090
▁캠페인	-5091
북도	-5092
▁타로	-5093
▁그러니	-5094
▁위하	-5095
▁준수	-5096
▁무릎	-5097
▁1992	-5098
▁차트	-5099
▁on	-5100
▁연예인	-5101
ㄲㅇㅣㄴ	-5102
▁좌석	-5103
▁사형	-5104
▁제갈	-5105
▁충성	-5106
ood	-5107
▁보관	-5108
▁차기	-5109
▁ㅎㅡㄹㄹㅓ	-5110
▁모토	-5111
▁조언	-5112
▁사제	-5113
▁캡틴	-5114
▁독특	-5115
ge	-5116
▁소위	-5117
▁무방	-5118
▁기적	-5119
▁저작	-5120
▁탱커	-5121
▁화제	-5122
▁혈액	-5123
▁실전	-5124
▁대처	-5125
▁유치	-5126
▁접촉	-5127
▁록맨	-5128
▁구경	-5129
▁CPU	-5130
▁용기	-5131
▁고스트	-5132
ust	-5133
▁날아가	-5134
▁벗어나	-5135
▁결성	-5136
ect	-5137
ob	-5138
ock	-5139
ㄱㅓㄹㄹㅗ	-5140
▁단편	-5141
▁램	-5142
▁특전	-5143
▁거치	-5144
▁붙잡	-5145
▁학자	-5146
▁포스트	-5147
▁조연	-5148
일드	-5149
▁네오	-5150
▁피스	-5151
▁덮	-5152
가스	-5153
▁스마트폰	-5154
▁원수	-5155
덩이	-5156
▁피격	-5157
▁ㅇㅗㄹㄹㅣㄴ	-5158
▁강원	-5159
▁ㄷㅜㄹ	-5160
▁멈	-5161
▁하루카	-5162
달리	-5163
▁시선	-5164
▁길이	-5165
AD	-5166
▁숭	-5167
▁흐름	-5168
▁드럼	-5169
▁화학	-5170
▁제작자	-5171
▁ㄲㅡㄹㅇㅓ	-5172
▁몰락	-5173
▁인조	-5174
▁1993	-5175
▁커피	-5176
▁ㅅㅠ	-5177
▁호감	-5178
▁하차	-5179
▁아키라	-5180
▁커리어	-5181
▁생명력	-5182
ㅈㅔㄴ	-5183
▁왠지	-5184
고리	-5185
▁호위	-5186
▁130	-5187
자드	-5188
▁ㅁㅝㄹ	-5189
▁신설	-5190
▁아이스	-5191
▁발달	-5192
▁슈팅	-5193
▁저렴	-5194
들리	-5195
▁후배	-5196
▁람	-5197
▁찌르	-5198
▁it	-5199
▁오크	-5200
멘트	-5201
▁툴	-5202
▁본체	-5203
▁타락	-5204
▁파크	-5205
▁ㄷㅚㅂㄴㅣ	-5206
스턴	-5207
▁델	-5208
▁하락	-5209
▁스텔	-5210
▁ㅈㅏㅂㅎㅕ	-5211
▁ㅅㅏㄴ	-5212
▁다스	-5213
ㅇㅎㅏㄴㄷㅏ	-5214
▁놀라	-5215
▁카와	-5216
▁일람	-5217
▁ㅌㅔㄴㄷㅔ	-5218
▁가짜	-5219
mer	-5220
▁냄새	-5221
워크	-5222
▁Be	-5223
▁국립	-5224
▁우위	-5225
▁익스	-5226
▁자전	-5227
▁해상	-5228
▁아마도	-5229
▁처형	-5230
▁결전	-5231
▁중독	-5232
러지	-5233
▁IS	-5234
▁초보	-5235
▁미라	-5236
▁아티스트	-5237
▁증오	-5238
▁활성	-5239
▁소스	-5240
▁그러니까	-5241
▁원주	-5242
▁SM	-5243
▁미터	-5244
▁음모	-5245
▁후방	-5246
▁북쪽	-5247
▁금속	-5248
▁둘째	-5249
▁장악	-5250
▁ㄷㅓㄴㅈㅣ	-5251
▁계정	-5252
▁위상	-5253
▁다름없	-5254
▁트랜스	-5255
▁들리	-5256
▁지경	-5257
▁닭	-5258
▁고작	-5259
▁가루	-5260
▁포수	-5261
▁AM	-5262
팩트	-5263
▁무지	-5264
▁시노	-5265
▁빚	-5266
▁외계인	-5267
▁신부	-5268
▁ㅁㅣㄹ	-5269
▁ㅊㅕㅆ	-5270
▁핏	-5271
▁패션	-5272
▁일본인	-5273
▁과제	-5274
양함	-5275
▁플래그	-5276
▁공무원	-5277
▁ㅋㅓㅆ	-5278
▁뜬금	-5279
▁업적	-5280
▁루타	-5281
▁상하	-5282
▁빗	-5283
▁디스크	-5284
▁인민	-5285
▁.."	-5286
▁남쪽	-5287
▁투명	-5288
▁미스터	-5289
▁보라	-5290
▁ㅂㅣㄹ	-5291
▁쌍둥이	-5292
▁자폭	-5293
▁|	-5294
▁동굴	-5295
▁EN	-5296
▁갈리	-5297
▁일족	-5298
▁ㅃㅜ	-5299
▁Te	-5300
▁선전	-5301
네스	-5302
▁터널	-5303
ㅁㅜㄴ	-5304
▁폴란드	-5305
▁me	-5306
▁음원	-5307
▁로리	-5308
▁세르	-5309
▁그로	-5310
are	-5311
▁헛	-5312
▁엮	-5313
▁편곡	-5314
▁포로	-5315
▁기동전	-5316
▁금융	-5317
▁아쿠	-5318
▁바이오	-5319
나카	-5320
▁정차	-5321
ㅈㅕㅆㅇㅡ	-5322
▁강도	-5323
▁동력	-5324
몬드	-5325
▁주사	-5326
▁에리	-5327
▁자막	-5328
▁체중	-5329
▁기도	-5330
▁표지	-5331
▁펄	-5332
▁아저	-5333
▁1988	-5334
▁개수	-5335
▁ㅉㅗㅊ	-5336
▁차이점	-5337
VD	-5338
▁완결	-5339
▁신비	-5340
▁트라이	-5341
▁열쇠	-5342
▁행보	-5343
▁잉글	-5344
▁라이온	-5345
▁히어로즈	-5346
▁아이언	-5347
▁연령	-5348
▁아저씨	-5349
▁무척	-5350
ㅇㅑㄴ	-5351
▁끄	-5352
▁노르	-5353
▁넉	-5354
▁전라	-5355
학자	-5356
▁비상	-5357
카리	-5358
▁마주	-5359
▁101	-5360
▁Me	-5361
▁부각	-5362
▁공룡	-5363
iv	-5364
▁액티브	-5365
CG	-5366
▁캐리	-5367
▁심심	-5368
▁격추	-5369
▁.....	-5370
▁건너	-5371
▁웃음	-5372
▁적응	-5373
▁면모	-5374
▁내지	-5375
랑이	-5376
▁멕시코	-5377
ance	-5378
▁최신	-5379
ㄷㅡㄴㅈㅣ	-5380
▁ch	-5381
▁ㄴㅜㄹㄹㅓ	-5382
▁지라	-5383
▁줄이	-5384
▁적당히	-5385
ㄱㅅ	-5386
▁간신	-5387
▁인치	-5388
그마	-5389
▁벌레	-5390
▁이집	-5391
▁미즈	-5392
▁제작사	-5393
▁의혹	-5394
▁이집트	-5395
▁승객	-5396
▁SR	-5397
ㅡㄹㄹㅣㄴ	-5398
▁정글	-5399
▁ㅅㅐㅇㄱㅣㄴㄷㅏ	-5400
▁색깔	-5401
▁@	-5402
▁할머니	-5403
▁칭호	-5404
▁부장	-5405
▁코인	-5406
▁나츠	-5407
▁흡혈	-5408
▁바라보	-5409
▁볼넷	-5410
▁상술	-5411
특별	-5412
ㄷㅐ	-5413
▁헬기	-5414
▁ㄱㅔㅅ	-5415
▁잠수함	-5416
▁후계	-5417
▁과장	-5418
▁ㅁㅏㅌ	-5419
▁개입	-5420
▁교황	-5421
▁시아	-5422
▁담배	-5423
▁팽	-5424
▁스터	-5425
▁일방	-5426
▁저녁	-5427
qu	-5428
▁후술	-5429
▁일찍	-5430
▁냥	-5431
▁첼	-5432
▁각본	-5433
▁예언	-5434
▁위대	-5435
our	-5436
▁리타	-5437
LL	-5438
ound	-5439
US	-5440
iz	-5441
▁로그	-5442
ㅆㅏ	-5443
▁방출	-5444
▁귀환	-5445
ㅂㅎㅕ	-5446
▁새벽	-5447
▁My	-5448
로디	-5449
▁십자	-5450
▁해피	-5451
ord	-5452
▁스튜디오	-5453
▁공성	-5454
▁도끼	-5455
▁페이즈	-5456
▁정착	-5457
▁총알	-5458
▁모래	-5459
▁화성	-5460
▁넥센	-5461
▁광역시	-5462
▁라이플	-5463
▁팀원	-5464
▁이중	-5465
▁클레	-5466
▁네트	-5467
이너	-5468
▁신사	-5469
▁어판	-5470
▁마디	-5471
▁흥미	-5472
▁썬	-5473
▁ㅇㅖ	-5474
라기	-5475
▁정발	-5476
▁도라	-5477
▁곤란	-5478
▁원칙	-5479
▁식량	-5480
▁ㅣ	-5481
▁수장	-5482
팡이	-5483
▁험	-5484
▁악명	-5485
▁ㄷㅏㄹ	-5486
▁깔끔	-5487
▁뜯	-5488
▁ㅍㅏㄴ	-5489
▁이정	-5490
▁식민	-5491
ime	-5492
▁소라	-5493
▁활발	-5494
▁무렵	-5495
▁멈추	-5496
▁동의	-5497
▁사후	-5498
▁이노	-5499
▁교류	-5500
▁짤	-5501
▁호기	-5502
▁XX	-5503
ix	-5504
▁집어	-5505
▁라면	-5506
▁반동	-5507
▁Cl	-5508
▁녹색	-5509
▁토끼	-5510
▁마약	-5511
▁Com	-5512
▁애플	-5513
▁1970	-5514
▁하단	-5515
▁손해	-5516
▁항공기	-5517
▁레슬	-5518
▁ㅅㅣㄹ	-5519
▁비주	-5520
▁상관없	-5521
▁제트	-5522
▁재산	-5523
▁1991	-5524
pe	-5525
▁드롭	-5526
▁원자	-5527
▁크리스마스	-5528
▁쓸모	-5529
▁사막	-5530
▁토론	-5531
▁펌	-5532
▁곁	-5533
▁풀리	-5534
▁칭찬	-5535
▁새끼	-5536
▁주일	-5537
▁뱀파이어	-5538
▁지켜	-5539
▁바깥	-5540
▁중국어	-5541
▁증언	-5542
▁리플	-5543
▁몰아	-5544
▁릿	-5545
▁배터리	-5546
우마	-5547
▁엔젤	-5548
▁작곡가	-5549
▁이드	-5550
▁애정	-5551
▁수류	-5552
▁SE	-5553
▁루카	-5554
▁자극	-5555
▁상기	-5556
ㅇㅓㄴㄱㅏ	-5557
▁대리	-5558
▁막대	-5559
▁흐르	-5560
▁부지	-5561
▁정원	-5562
▁천하	-5563
▁모노	-5564
▁포항	-5565
▁최다	-5566
▁미안	-5567
▁도주	-5568
▁MVP	-5569
OP	-5570
▁턱	-5571
▁ㄸㅡ	-5572
▁주기	-5573
▁엑스트라	-5574
어마	-5575
▁팬텀	-5576
▁내주	-5577
▁흑인	-5578
▁ㅂㅏㄴㅎㅐ	-5579
려오	-5580
▁올해	-5581
▁추구	-5582
▁씬	-5583
▁펑	-5584
▁배트맨	-5585
uc	-5586
회사	-5587
▁이재	-5588
저스	-5589
▁오가	-5590
▁채우	-5591
아리	-5592
▁호칭	-5593
ite	-5594
▁흔적	-5595
▁다가	-5596
▁그럭	-5597
▁할인	-5598
▁어마어마	-5599
▁동쪽	-5600
▁AD	-5601
▁궤도	-5602
▁막차	-5603
▁빛나	-5604
▁ㄴㅗㅍ	-5605
▁첩	-5606
▁강자	-5607
▁국왕	-5608
두르	-5609
▁상실	-5610
▁스웨	-5611
▁CV	-5612
저럭	-5613
하면	-5614
▁마이너	-5615
▁클릭	-5616
▁플래시	-5617
▁충실	-5618
▁불교	-5619
▁거미	-5620
▁승점	-5621
▁면역	-5622
▁용량	-5623
▁그럭저럭	-5624
주시	-5625
▁언더	-5626
▁가동	-5627
OW	-5628
▁코코	-5629
▁참모	-5630
버리	-5631
▁아이콘	-5632
▁분대	-5633
▁ㅁㅓㅅ	-5634
▁스즈	-5635
▁고구려	-5636
▁160	-5637
▁이익	-5638
▁기숙	-5639
▁시라	-5640
▁결합	-5641
▁탈퇴	-5642
▁시합	-5643
게임	-5644
▁김동	-5645
▁140	-5646
▁히나	-5647
▁ㅈㅗㅎㅇㅏ	-5648
▁남녀	-5649
ㄲㅡ	-5650
▁없애	-5651
▁수류탄	-5652
▁포격	-5653
▁강요	-5654
▁타율	-5655
▁앨리스	-5656
▁SH	-5657
▁신앙	-5658
▁관중	-5659
▁용서	-5660
▁무술	-5661
▁태평	-5662
▁예산	-5663
▁흘리	-5664
▁숙련	-5665
▁화장실	-5666
▁구석	-5667
▁이토	-5668
▁지켜보	-5669
▁ㅃㅗㅂ	-5670
▁기생	-5671
ure	-5672
▁미키	-5673
▁디젤	-5674
▁BPM	-5675
▁소대	-5676
▁ㄴㅏㅁㄱㅣㄴ	-5677
▁ㅇㅣㄹㅈㅣ	-5678
▁테라	-5679
▁짜증	-5680
▁등지	-5681
▁아메리카	-5682
▁의회	-5683
▁오늘날	-5684
▁나리	-5685
▁뿔	-5686
▁자책	-5687
▁루수	-5688
▁ㅎㅜㅁ	-5689
▁런던	-5690
▁고도	-5691
▁입지	-5692
▁아츠	-5693
▁윌리엄	-5694
▁단행	-5695
▁ㄹㅓㄴ	-5696
▁넘치	-5697
▁통산	-5698
▁매장	-5699
▁혐오	-5700
OD	-5701
▁교차	-5702
▁종목	-5703
▁ㅁㅏㅇㅎㅐㅆ	-5704
▁성립	-5705
▁적군	-5706
▁입대	-5707
▁오직	-5708
▁잡히	-5709
▁영구	-5710
▁900	-5711
▁ㄷㅓㅅ	-5712
▁문구	-5713
ㄷㅣㄴ	-5714
▁향하	-5715
▁딴	-5716
▁공방	-5717
사관	-5718
▁예수	-5719
▁ㅉㅏ	-5720
▁간접	-5721
▁잉글랜드	-5722
▁옳	-5723
▁사키	-5724
▁기구	-5725
▁포켓몬스터	-5726
▁가요	-5727
ㅂㅎㅏㄴ	-5728
▁하향	-5729
▁DVD	-5730
▁우에	-5731
▁출구	-5732
▁기여	-5733
▁ㄴㅏㅁㄱㅕㅆ	-5734
▁동급	-5735
▁구글	-5736
▁모니	-5737
▁일본군	-5738
▁토시	-5739
▁도박	-5740
▁얻어	-5741
여객	-5742
▁형상	-5743
▁1989	-5744
▁공공	-5745
▁$	-5746
▁그대	-5747
▁지뢰	-5748
▁철권	-5749
▁클랜	-5750
▁하이퍼	-5751
▁리오	-5752
▁힙	-5753
▁ㅁㅓㅁㅊ	-5754
▁낚시	-5755
▁덩치	-5756
▁Pr	-5757
▁오라	-5758
BA	-5759
▁존재감	-5760
▁말투	-5761
▁백성	-5762
▁Wh	-5763
ake	-5764
▁부자	-5765
▁아미	-5766
▁딕	-5767
▁실망	-5768
▁야마토	-5769
▁제약	-5770
▁Pl	-5771
▁KR	-5772
▁민첩	-5773
▁아서	-5774
▁Ex	-5775
▁지르	-5776
▁윗	-5777
▁크림	-5778
▁소유자	-5779
▁Un	-5780
머스	-5781
▁백인	-5782
▁보고	-5783
소녀	-5784
▁Pro	-5785
RE	-5786
▁피터	-5787
▁간신히	-5788
▁일치	-5789
▁서쪽	-5790
▁주간	-5791
▁금방	-5792
▁기관총	-5793
ION	-5794
▁연합군	-5795
▁히가시	-5796
▁중량	-5797
▁상인	-5798
▁ㄹㅠ	-5799
▁본사	-5800
▁초인	-5801
▁ㅋㅗ	-5802
▁이슈	-5803
▁망치	-5804
▁몽골	-5805
▁ㅂㅣㄹㄹㅕ	-5806
▁뎀	-5807
▁추억	-5808
▁쭉	-5809
▁일대	-5810
▁동성	-5811
▁칼날	-5812
▁ㅈㅜㄹㅇㅓ	-5813
▁어려움	-5814
▁매년	-5815
▁천만	-5816
▁구슬	-5817
▁단단	-5818
베르	-5819
▁뺏	-5820
▁사유	-5821
▁이스라	-5822
▁힌	-5823
▁NE	-5824
▁콜라보	-5825
▁RPG	-5826
▁순환	-5827
▁내전	-5828
▁포드	-5829
▁총리	-5830
▁ㅈㅏㄹㄹㅏ	-5831
▁법률	-5832
▁의외로	-5833
▁가하	-5834
▁와타	-5835
군다	-5836
▁임팩트	-5837
▁유독	-5838
▁화물	-5839
▁며	-5840
▁수비력	-5841
Hz	-5842
▁아랍	-5843
▁근본	-5844
ㅈㅎㅕ	-5845
▁그렇지만	-5846
▁분신	-5847
▁ㅁㅏㄴㄴㅏㄹ	-5848
▁난입	-5849
특별시	-5850
▁메이드	-5851
▁믹스	-5852
시즈	-5853
▁시공	-5854
▁건조	-5855
▁호수	-5856
▁권한	-5857
▁지위	-5858
▁스크린	-5859
▁개혁	-5860
▁심사	-5861
▁오마	-5862
▁세븐	-5863
▁ㅉㅏㄹ	-5864
oy	-5865
은행	-5866
▁유물	-5867
▁재단	-5868
▁스탠드	-5869
▁어리	-5870
▁선택지	-5871
▁평생	-5872
▁ㄱㅗㄹㄹㅏ	-5873
▁이끄	-5874
▁전동	-5875
▁침략	-5876
▁타선	-5877
▁리드	-5878
▁개막	-5879
ows	-5880
▁비스	-5881
▁원하	-5882
▁색상	-5883
▁가만	-5884
▁괜히	-5885
▁잠재	-5886
▁연극	-5887
화점	-5888
▁소장	-5889
▁상식	-5890
ud	-5891
▁ㅍㅕㄹㅊㅕ	-5892
▁Gr	-5893
▁란스	-5894
▁명확	-5895
▁스펠	-5896
▁뛰어넘	-5897
▁알아	-5898
▁ㄴㅓㄹ	-5899
▁서울특별시	-5900
무시	-5901
ㅁㅗ	-5902
▁꽂	-5903
▁인종	-5904
▁세종	-5905
▁메달	-5906
▁악기	-5907
▁with	-5908
IG	-5909
▁합의	-5910
▁반전	-5911
▁자라	-5912
▁ㅈㅕㅆㅇㅡ	-5913
OC	-5914
▁생존자	-5915
▁집착	-5916
▁곡명	-5917
▁개업	-5918
▁기숙사	-5919
▁맛있	-5920
▁ㄴㅘㅆ	-5921
▁그랜드	-5922
신교	-5923
▁유적	-5924
▁히토	-5925
▁크리스탈	-5926
▁협상	-5927
▁정통	-5928
▁변호사	-5929
▁BL	-5930
▁양성	-5931
사자	-5932
▁스팀	-5933
▁ㅈㅜㄱㅇㅕㅆ	-5934
▁삐	-5935
▁딜레이	-5936
▁잔뜩	-5937
▁ㅇㅕㅆㅇㅡㄹ	-5938
▁센스	-5939
▁복선	-5940
▁서구	-5941
▁브루	-5942
▁승률	-5943
▁너희	-5944
▁렐	-5945
▁재정	-5946
▁복지	-5947
▁단축	-5948
▁암시	-5949
▁집행	-5950
▁울프	-5951
티아	-5952
▁일화	-5953
▁걸맞	-5954
▁복구	-5955
▁총선	-5956
▁엘리트	-5957
▁카카	-5958
랭크	-5959
▁기인	-5960
▁메리	-5961
orld	-5962
▁내려가	-5963
▁이스라엘	-5964
▁교과	-5965
▁열매	-5966
▁영주	-5967
▁동양	-5968
▁흰	-5969
전차	-5970
▁KOF	-5971
▁포르투	-5972
▁출입	-5973
▁항복	-5974
▁무시무시	-5975
▁김종	-5976
▁임신	-5977
데레	-5978
▁he	-5979
▁고위	-5980
▁체육관	-5981
▁타쿠	-5982
▁정수	-5983
▁스트리트	-5984
히코	-5985
▁구축함	-5986
▁무역	-5987
▁상단	-5988
▁105	-5989
▁레지	-5990
▁비례	-5991
▁정치인	-5992
▁미나미	-5993
▁급격	-5994
▁자전거	-5995
▁채택	-5996
▁치즈	-5997
▁ㄹㅐ	-5998
▁고로	-5999
군다나	-6000
▁라인업	-6001
▁치킨	-6002
▁잡아먹	-6003
▁BS	-6004
▁코난	-6005
▁ㄷㅓㅅㅂㅜㅌ	-6006
▁수출	-6007
▁말리	-6008
▁진보	-6009
▁ㅊㅐㅇㄱㅕ	-6010
부로	-6011
▁ㅂㅜㄹ	-6012
▁경직	-6013
▁기량	-6014
▁ㅈㅏㅁ	-6015
aw	-6016
▁성남	-6017
▁당일	-6018
▁김민	-6019
▁나타내	-6020
▁굿	-6021
▁국판	-6022
▁간단히	-6023
▁존경	-6024
▁이펙트	-6025
▁확대	-6026
▁더군다나	-6027
▁꼼	-6028
▁War	-6029
▁부스터	-6030
▁넘버	-6031
▁사이코	-6032
▁적합	-6033
▁끔	-6034
▁대단히	-6035
▁금액	-6036
▁코리아	-6037
▁재밌	-6038
▁불사	-6039
▁누적	-6040
▁도둑	-6041
▁OVA	-6042
▁에로	-6043
▁칼리	-6044
▁강점	-6045
라이트	-6046
ace	-6047
▁스파이더	-6048
▁ED	-6049
▁사령부	-6050
▁EP	-6051
▁상호	-6052
▁키타	-6053
▁랄	-6054
▁을	-6055
▁화재	-6056
▁사살	-6057
▁꺼내	-6058
▁통계	-6059
▁스폰	-6060
데이	-6061
▁정화	-6062
▁철저	-6063
▁후손	-6064
▁ㄷㅜㄹㄹㅓ	-6065
80	-6066
▁메이플	-6067
▁전이	-6068
ave	-6069
▁콜로	-6070
▁DD	-6071
▁헐	-6072
▁유학	-6073
▁서포터	-6074
▁ㅇㅓㅄ	-6075
▁CG	-6076
▁Love	-6077
▁우정	-6078
▁이민	-6079
▁제독	-6080
ame	-6081
▁메시지	-6082
▁썬더	-6083
데드	-6084
▁ㅁㅗㄹㄹㅕ	-6085
▁자이언츠	-6086
▁이혼	-6087
▁혹시	-6088
▁허락	-6089
▁원문	-6090
아키	-6091
▁마블	-6092
▁간간	-6093
▁치유	-6094
▁언데드	-6095
▁마법소녀	-6096
▁가공	-6097
▁가을	-6098
▁대수	-6099
▁ㅇㅣㅀㅇㅓ	-6100
▁한쪽	-6101
▁ㅁㅓㅅㅈㅣㄴ	-6102
▁권리	-6103
ㄲㅟㄴㄷㅏ	-6104
▁ㅋㅏㄴ	-6105
▁우타	-6106
▁겹치	-6107
▁대거	-6108
▁끔찍	-6109
▁ㅆㅏㅎ	-6110
▁토너	-6111
▁후계자	-6112
▁기갑	-6113
▁수능	-6114
▁탄환	-6115
▁수백	-6116
▁검술	-6117
▁사원	-6118
▁LV	-6119
▁오락	-6120
▁철수	-6121
▁까이	-6122
▁면허	-6123
▁변환	-6124
▁천안	-6125
▁통치	-6126
▁수명	-6127
▁업계	-6128
▁부적	-6129
▁구리	-6130
▁토마	-6131
▁능력자	-6132
▁해머	-6133
▁1987	-6134
▁루이	-6135
▁주택	-6136
▁우르	-6137
▁피아노	-6138
▁드라이버	-6139
▁커녕	-6140
유럽	-6141
▁헤어	-6142
▁하츠	-6143
▁노가	-6144
▁언스	-6145
▁나루토	-6146
▁코멘트	-6147
▁루나	-6148
▁분명히	-6149
▁독재	-6150
▁실존	-6151
▁개신교	-6152
▁워크래프트	-6153
자와	-6154
▁초간	-6155
▁매니저	-6156
▁알렉산	-6157
▁트롤	-6158
▁삽입	-6159
▁동명	-6160
▁쟁	-6161
▁지불	-6162
▁박물	-6163
▁ㅁㅔㄴ	-6164
ice	-6165
ㄴㅔ	-6166
▁맷	-6167
▁숨기	-6168
▁ㄱㅏㅈㅊㅜㄴ	-6169
▁3000	-6170
ies	-6171
▁소음	-6172
▁타운	-6173
chor	-6174
▁202	-6175
▁WWE	-6176
▁오랜만	-6177
▁제정	-6178
▁닫	-6179
▁크레	-6180
▁히라	-6181
▁생명체	-6182
▁거울	-6183
▁세인트	-6184
▁읍	-6185
▁ㅃㅏㄹㄱㅏㄴ	-6186
▁배역	-6187
▁중립	-6188
▁마코토	-6189
▁프리미엄	-6190
포트	-6191
▁곳곳	-6192
▁유효	-6193
▁Wind	-6194
▁해안	-6195
▁쓰러뜨리	-6196
데미	-6197
ㅅㅓㄹ	-6198
▁자본	-6199
▁파생	-6200
▁캐치	-6201
own	-6202
▁기용	-6203
▁휘두르	-6204
▁폐쇄	-6205
IM	-6206
▁ㄱㅓㄹㄹㅣㄴㄷㅏ	-6207
▁원조	-6208
ㅢㄴ	-6209
▁시위	-6210
▁sh	-6211
▁중첩	-6212
▁구미	-6213
▁약화	-6214
▁마스크	-6215
▁플러스	-6216
▁루비	-6217
로나	-6218
▁뮤지컬	-6219
리온	-6220
▁결투	-6221
▁감각	-6222
▁보험	-6223
▁대왕	-6224
▁ㄱㅓㄹㅇㅓ	-6225
▁레딧	-6226
▁큐브	-6227
▁충청	-6228
per	-6229
▁ㅇㅓㅄㅇ	-6230
▁원리	-6231
▁서서	-6232
▁실종	-6233
▁인질	-6234
▁ㅊㅏㄴ	-6235
▁체인지	-6236
▁코믹	-6237
▁요약	-6238
▁지팡이	-6239
게이	-6240
▁모이	-6241
▁스프링	-6242
▁니혼	-6243
▁주자	-6244
▁중세	-6245
▁우월	-6246
▁아카데미	-6247
▁킬러	-6248
▁??	-6249
▁무관	-6250
▁엔드	-6251
▁만남	-6252
▁토너먼트	-6253
▁워커	-6254
걸이	-6255
▁하마	-6256
▁취약	-6257
▁여객	-6258
▁철학	-6259
하시	-6260
▁리카	-6261
반도	-6262
▁더빙	-6263
ath	-6264
TE	-6265
▁성전	-6266
▁리스크	-6267
▁보드	-6268
▁anchor	-6269
▁리프	-6270
man	-6271
▁TVA	-6272
▁기동성	-6273
▁니스	-6274
▁지리	-6275
▁전파	-6276
가드	-6277
▁de	-6278
▁이라	-6279
▁정기	-6280
▁카트	-6281
▁불타	-6282
▁사야	-6283
▁날짜	-6284
▁유산	-6285
▁방위	-6286
▁이나	-6287
▁KBO	-6288
▁무공	-6289
▁가라	-6290
▁중형	-6291
틀러	-6292
▁나미	-6293
▁드래프트	-6294
▁시크	-6295
▁ㅅㅗㄱㅎㅏㄴㄷㅏ	-6296
▁배포	-6297
▁호시	-6298
우치	-6299
운서	-6300
▁아나운서	-6301
▁딜링	-6302
▁결심	-6303
▁ㄲㅡㄹㄹㅕ	-6304
▁장탄	-6305
▁추종	-6306
▁시바	-6307
▁거듭	-6308
▁싹	-6309
▁베타	-6310
▁티켓	-6311
▁PV	-6312
▁개시	-6313
▁나기	-6314
▁도적	-6315
▁왜곡	-6316
old	-6317
ㄴㅣㄴㄷㅔ	-6318
ere	-6319
▁사명	-6320
▁We	-6321
▁허가	-6322
▁측정	-6323
▁와일드	-6324
▁대학원	-6325
▁해병대	-6326
▁PR	-6327
▁여우	-6328
ㄹㅏㅆ	-6329
▁스트레스	-6330
▁보충	-6331
▁인디	-6332
▁틸	-6333
▁돌입	-6334
▁ㄹㅠㄴ	-6335
▁1986	-6336
▁옮	-6337
▁시원	-6338
▁마우스	-6339
센트	-6340
카이	-6341
시스트	-6342
▁연패	-6343
▁휘하	-6344
▁야구장	-6345
▁무인	-6346
▁필리	-6347
▁복제	-6348
▁ID	-6349
▁시외	-6350
▁알아보	-6351
술사	-6352
텐도	-6353
▁용인	-6354
▁헌법	-6355
▁닌텐도	-6356
▁유격	-6357
▁저택	-6358
▁AS	-6359
▁승무원	-6360
▁관할	-6361
▁네트워크	-6362
▁분당	-6363
▁보완	-6364
▁들어서	-6365
▁파이트	-6366
▁부실	-6367
▁중시	-6368
▁억지로	-6369
▁이글	-6370
▁후자	-6371
▁장거리	-6372
▁뿜	-6373
▁고개	-6374
▁관점	-6375
10	-6376
▁인피	-6377
▁수호자	-6378
ick	-6379
▁ㄱㅓㄹㄹㅕㅆ	-6380
▁떠올리	-6381
▁토미	-6382
▁박물관	-6383
ber	-6384
▁서클	-6385
▁희귀	-6386
▁셜	-6387
▁언덕	-6388
▁ㄲㅡㅁ	-6389
▁주둔	-6390
▁혐의	-6391
▁문단	-6392
▁우치	-6393
▁악화	-6394
▁".	-6395
▁엄밀	-6396
▁쿠라	-6397
▁ㄲㅡㄶ	-6398
▁막내	-6399
▁미네	-6400
▁연고	-6401
▁조약	-6402
▁불량	-6403
▁당대	-6404
▁캠프	-6405
▁세포	-6406
▁기묘	-6407
▁톨	-6408
▁ㄷㅡㄹㅇㅕ	-6409
▁법원	-6410
네임	-6411
리나	-6412
▁유니크	-6413
▁ㄲㅜ	-6414
▁엑시즈	-6415
▁학력	-6416
▁롬	-6417
ㅈㅜㄹ	-6418
▁여전	-6419
▁오키	-6420
▁잠입	-6421
▁아끼	-6422
▁->	-6423
▁기상	-6424
GE	-6425
ory	-6426
▁유발	-6427
▁사귀	-6428
려들	-6429
▁단원	-6430
▁모로	-6431
▁방송국	-6432
▁식민지	-6433
▁지칭	-6434
▁ㄱㅓㄴㄴㅓ	-6435
▁럼	-6436
▁페널	-6437
▁그린	-6438
▁인용	-6439
ov	-6440
▁다이아몬드	-6441
▁버드	-6442
▁신나	-6443
▁카구	-6444
▁취임	-6445
▁단행본	-6446
▁김대	-6447
▁로얄	-6448
▁채보	-6449
▁지진	-6450
▁ㅇㅔㄹ	-6451
래시	-6452
▁연맹	-6453
▁인방	-6454
▁ㄴㅗㄹㄹ	-6455
▁둘러	-6456
▁스웨덴	-6457
▁치르	-6458
▁오메	-6459
▁데이트	-6460
▁AKB	-6461
▁코마	-6462
▁ㅎㅢㄴ	-6463
▁벨트	-6464
▁프라임	-6465
▁남매	-6466
▁만만	-6467
▁울트라맨	-6468
▁챌	-6469
ond	-6470
▁레일	-6471
▁쓰러지	-6472
▁반부	-6473
▁멜로디	-6474
▁my	-6475
TS	-6476
▁고증	-6477
▁살아가	-6478
▁즈음	-6479
부르크	-6480
▁면적	-6481
▁가죽	-6482
▁웰	-6483
▁부서	-6484
▁ㅍㅏㄹ	-6485
▁캐스터	-6486
▁도루	-6487
▁En	-6488
필드	-6489
▁GP	-6490
▁택시	-6491
▁디즈	-6492
▁법정	-6493
▁근거리	-6494
▁케이드	-6495
▁매번	-6496
▁거점	-6497
▁자비	-6498
▁선행	-6499
그나	-6500
▁배달	-6501
▁끈	-6502
▁중장	-6503
▁도망가	-6504
비드	-6505
▁아테	-6506
▁언젠	-6507
▁포위	-6508
▁아르헨	-6509
▁언젠가	-6510
▁공수	-6511
프리	-6512
▁중복	-6513
ream	-6514
▁혈액형	-6515
▁이주	-6516
▁방어구	-6517
▁신도	-6518
▁준우	-6519
▁진압	-6520
▁교도	-6521
▁남아	-6522
▁분쟁	-6523
▁스텝	-6524
▁FIFA	-6525
ㄷㅣㄴㄱㅏ	-6526
▁레알	-6527
▁파르	-6528
▁웨이브	-6529
▁CJ	-6530
▁굵	-6531
▁티아	-6532
▁득표	-6533
▁실은	-6534
ah	-6535
▁라틴	-6536
▁새롭	-6537
▁소요	-6538
▁호랑이	-6539
▁미쿠	-6540
티스	-6541
▁이수	-6542
out	-6543
▁따라가	-6544
▁전승	-6545
▁독일군	-6546
크로	-6547
▁Dr	-6548
▁아이러	-6549
▁차체	-6550
▁꿀	-6551
▁일당	-6552
블린	-6553
▁행방	-6554
▁ㅈㅏㄹ	-6555
▁도저히	-6556
▁연승	-6557
▁조리	-6558
시타	-6559
▁ㄷㅡㄹㅇㅡ	-6560
미니	-6561
▁아르헨티나	-6562
▁깨달	-6563
▁참석	-6564
▁갤러	-6565
▁189	-6566
붙이	-6567
▁답변	-6568
커스	-6569
▁휴식	-6570
카락	-6571
▁용자	-6572
▁돌려	-6573
▁wh	-6574
▁뻗	-6575
▁머리카락	-6576
▁균형	-6577
▁DC	-6578
▁ㅇㅗㄹㄹㅣㄹ	-6579
▁릴리	-6580
▁퍼지	-6581
▁법칙	-6582
IP	-6583
▁ㅅㅜㄴ	-6584
▁미만	-6585
▁공인	-6586
▁첫차	-6587
타카	-6588
▁저지르	-6589
▁케인	-6590
▁창원	-6591
▁오전	-6592
▁ㅊㅣㄴㅎㅏㄴ	-6593
ost	-6594
▁1500	-6595
세서	-6596
▁암살자	-6597
▁kt	-6598
▁시로	-6599
▁가져가	-6600
▁셔틀	-6601
▁비전	-6602
▁이온	-6603
ㄱㅗㄴ	-6604
▁마계	-6605
아이	-6606
▁유인	-6607
▁로이	-6608
▁관람	-6609
▁한두	-6610
▁주류	-6611
▁무작	-6612
▁발렌	-6613
▁학기	-6614
▁초록	-6615
▁토키	-6616
▁챌린	-6617
▁코트	-6618
▁슬라이	-6619
▁규격	-6620
베스	-6621
▁포탄	-6622
60	-6623
▁리뷰	-6624
▁본진	-6625
▁중력	-6626
바닥	-6627
▁챙	-6628
▁스위치	-6629
러그	-6630
ㅅㅕ	-6631
▁왜냐	-6632
▁트리플	-6633
▁\	-6634
▁주차	-6635
▁ㅊㅣㄴㄷㅏ	-6636
▁피닉스	-6637
▁질투	-6638
▁평일	-6639
UM	-6640
▁에반	-6641
런트	-6642
▁전주	-6643
렐라	-6644
LE	-6645
▁솔직	-6646
▁1985	-6647
▁에르	-6648
▁루머	-6649
▁쇼크	-6650
▁에이지	-6651
▁드래곤볼	-6652
▁닛	-6653
▁토벌	-6654
▁영원히	-6655
▁전제	-6656
▁For	-6657
▁김재	-6658
▁헝	-6659
▁침입	-6660
리스트	-6661
▁유력	-6662
▁통틀	-6663
▁무사히	-6664
▁클론	-6665
▁식품	-6666
▁ㄱㅕㅂㅊㅕ	-6667
가리	-6668
▁장인	-6669
▁남북	-6670
▁ㄷㅓㄴㄱㅏ	-6671
▁교실	-6672
▁ㅁㅜㄹ	-6673
▁글로벌	-6674
▁포르투갈	-6675
▁훼	-6676
▁격차	-6677
▁비주얼	-6678
▁조커	-6679
테르	-6680
▁ㅌㅣ	-6681
▁스테이션	-6682
ile	-6683
ㅇㅕㅆㅇㅡ	-6684
▁트루	-6685
블로	-6686
▁소방	-6687
▁박근	-6688
▁시너지	-6689
▁스태	-6690
▁앞두	-6691
▁개설	-6692
▁공업	-6693
▁ㅁㅜㄹㄹㅓ	-6694
▁오디션	-6695
야수	-6696
▁경로	-6697
▁1984	-6698
▁안개	-6699
▁합병	-6700
▁김경	-6701
▁구름	-6702
▁법인	-6703
▁베기	-6704
▁전무	-6705
▁보이스	-6706
▁항의	-6707
▁조기	-6708
▁인력	-6709
▁히로시	-6710
코드	-6711
▁집어넣	-6712
▁재회	-6713
▁이종	-6714
▁아틀	-6715
▁창고	-6716
▁은신	-6717
▁감지	-6718
▁탐정	-6719
▁노바	-6720
▁배수	-6721
▁정황	-6722
▁유성	-6723
▁돔	-6724
▁논쟁	-6725
▁백화점	-6726
▁확장팩	-6727
▁아동	-6728
ont	-6729
▁아가씨	-6730
▁긴장	-6731
▁진학	-6732
▁달라지	-6733
▁파동	-6734
▁선고	-6735
▁유미	-6736
▁무스	-6737
▁공허	-6738
▁주행	-6739
▁어뢰	-6740
▁신전	-6741
▁트릭	-6742
쿠라	-6743
▁제네	-6744
▁기름	-6745
▁토크	-6746
▁어필	-6747
▁호흡	-6748
▁우즈	-6749
▁안녕	-6750
▁ㅁㅏㄹ	-6751
▁하수	-6752
▁쓸데	-6753
▁난사	-6754
▁얀	-6755
ㄲㅜㄹ	-6756
▁감동	-6757
▁괴롭	-6758
▁양반	-6759
더라	-6760
▁막판	-6761
▁윈드	-6762
ㄲㅕㅆ	-6763
▁통화	-6764
▁사인	-6765
▁코르	-6766
ome	-6767
▁단종	-6768
ㄲㅜㄴ	-6769
▁베리	-6770
▁토니	-6771
▁소송	-6772
▁여주	-6773
▁카더라	-6774
▁ㅂㅏㄺㅎㅣㄴ	-6775
▁시카	-6776
▁역명	-6777
▁가방	-6778
▁배드	-6779
▁리온	-6780
▁신용	-6781
▁옮기	-6782
하르트	-6783
▁찾아보	-6784
▁급행	-6785
▁생년	-6786
▁ㄴㅜㄴ	-6787
번에	-6788
▁어이	-6789
▁범죄자	-6790
▁감상	-6791
▁It	-6792
▁수염	-6793
▁달하	-6794
▁마물	-6795
▁왕위	-6796
▁특별히	-6797
▁변태	-6798
▁위성	-6799
▁바디	-6800
세대	-6801
▁처지	-6802
▁보존	-6803
▁5000	-6804
▁김현	-6805
▁스쿨	-6806
▁메이커	-6807
그리	-6808
▁과도	-6809
▁장미	-6810
▁신자	-6811
▁명의	-6812
▁프란	-6813
▁학습	-6814
▁비유	-6815
키지	-6816
▁개발자	-6817
▁Star	-6818
정부	-6819
투스	-6820
노리	-6821
▁손오	-6822
▁요인	-6823
▁기운	-6824
▁자녀	-6825
▁서포트	-6826
▁분열	-6827
▁ㅊㅣㄴㅎㅐ	-6828
io	-6829
▁놓치	-6830
▁벙	-6831
▁블라	-6832
▁섀도우	-6833
▁패키지	-6834
▁직장	-6835
▁내려오	-6836
ㄷㅚ	-6837
▁막상	-6838
▁백제	-6839
▁진주	-6840
▁추세	-6841
▁노스	-6842
▁수면	-6843
▁운동장	-6844
▁창단	-6845
▁과학자	-6846
타입	-6847
▁DE	-6848
▁제갈량	-6849
▁영광	-6850
▁의학	-6851
▁야쿠	-6852
▁FM	-6853
▁ㄲㅡㅌㄴㅏㄴㄷㅏ	-6854
▁에디	-6855
ㄹㅜㄴㄷㅏ	-6856
▁발굴	-6857
▁가디언	-6858
▁귀엽	-6859
▁성당	-6860
▁신발	-6861
▁잉여	-6862
▁팟	-6863
▁아이러니	-6864
▁광선	-6865
▁스캔	-6866
▁ㅂㅕㄴㅎㅐ	-6867
▁정예	-6868
▁경기력	-6869
ㅟㄴ	-6870
az	-6871
▁비웃	-6872
▁때려	-6873
▁106	-6874
▁1960	-6875
▁매니아	-6876
▁SNS	-6877
▁오우	-6878
▁ww	-6879
▁라이온즈	-6880
▁성질	-6881
▁극히	-6882
▁카운트	-6883
▁EZ	-6884
▁나폴	-6885
▁기재	-6886
에이	-6887
▁기력	-6888
▁유재	-6889
▁임금	-6890
▁라라	-6891
▁복합	-6892
▁상관없이	-6893
도르	-6894
▁쇼핑	-6895
▁체감	-6896
▁오노	-6897
▁최상위	-6898
▁ㄱㅓㄴㄱㅏ	-6899
▁산하	-6900
▁진급	-6901
▁타이거즈	-6902
▁탐험	-6903
▁준우승	-6904
▁프린세스	-6905
▁우유	-6906
▁170	-6907
▁로버트	-6908
▁대책	-6909
▁러시	-6910
▁로보	-6911
▁무너지	-6912
▁루스	-6913
▁룩	-6914
▁스타리그	-6915
▁세라	-6916
사기	-6917
▁극도	-6918
▁만일	-6919
크라	-6920
▁도감	-6921
▁라즈	-6922
▁얻어맞	-6923
▁윈도우	-6924
▁Fl	-6925
▁서서히	-6926
▁판결	-6927
▁벼	-6928
▁걸즈	-6929
▁위엄	-6930
▁마냥	-6931
▁시상	-6932
▁늘리	-6933
▁행운	-6934
▁양자	-6935
불명	-6936
ian	-6937
▁에서	-6938
30	-6939
▁물량	-6940
▁공정	-6941
▁데빌	-6942
▁ㅊㅣㄹ	-6943
▁대조	-6944
▁손상	-6945
▁Station	-6946
벌레	-6947
▁여인	-6948
▁국경	-6949
▁ㄱㅔㄴ	-6950
▁www	-6951
일보	-6952
▁샌드	-6953
▁사관	-6954
▁커지	-6955
▁피트	-6956
▁워치	-6957
ㄱㅡ	-6958
▁오스트리아	-6959
▁우주선	-6960
▁카시	-6961
▁해골	-6962
능력	-6963
▁대치	-6964
▁야수	-6965
▁와카	-6966
▁출격	-6967
▁천연	-6968
▁Sc	-6969
▁여학생	-6970
▁플라이	-6971
▁체험	-6972
▁늙	-6973
▁AN	-6974
ade	-6975
▁정하	-6976
▁관계자	-6977
▁무산	-6978
▁Or	-6979
▁통로	-6980
▁콤비	-6981
저리	-6982
▁증상	-6983
▁ㄴㅡㄹㄹㅕ	-6984
▁처참	-6985
▁ㅇㅜㅅ	-6986
▁엘리자	-6987
▁사족	-6988
▁데모	-6989
▁하프	-6990
▁야간	-6991
▁소프트웨어	-6992
▁키라	-6993
▁퇴장	-6994
ㅂㅗㄴ	-6995
▁가만히	-6996
▁빙판	-6997
▁불행	-6998
릴라	-6999
▁띠	-7000
▁뜬금없이	-7001
▁엿	-7002
▁그레	-7003
▁상담	-7004
▁조상	-7005
ㅈㅜ	-7006
▁오염	-7007
▁ㅎㅣ	-7008
▁드림	-7009
▁손오공	-7010
▁찢	-7011
▁경주	-7012
▁결제	-7013
▁LC	-7014
▁고객	-7015
▁장로	-7016
▁맡기	-7017
▁Fate	-7018
▁투스	-7019
▁리즈	-7020
▁캐시	-7021
▁ㅎㅡㄴㅎㅏㄴ	-7022
▁Go	-7023
▁포장	-7024
▁자르	-7025
▁타수	-7026
▁심의	-7027
▁간주	-7028
▁출간	-7029
▁흡사	-7030
▁상륙	-7031
ㅇㅘㅆㅇㅡ	-7032
▁ㅈㅠ	-7033
▁캣	-7034
▁묘하	-7035
▁포터	-7036
ㄸㅓㄹ	-7037
저기	-7038
▁ㅂㅜㄹㄹㅕㅆ	-7039
▁원피스	-7040
구미	-7041
▁스핀	-7042
▁즉사	-7043
▁태평양	-7044
▁마케	-7045
▁연봉	-7046
▁중고	-7047
▁오로지	-7048
▁ㄷㅓㅅㅂㅜㅌㅇㅕ	-7049
▁세뇌	-7050
▁약물	-7051
▁디바	-7052
▁바스	-7053
▁파란색	-7054
▁모터	-7055
▁철거	-7056
▁아바타	-7057
▁Br	-7058
▁CF	-7059
▁태클	-7060
ason	-7061
▁사립	-7062
▁위반	-7063
▁마유	-7064
▁SF	-7065
▁베테	-7066
▁아시안	-7067
▁여기저기	-7068
▁가리키	-7069
▁함부로	-7070
▁Windows	-7071
▁ㄴㅔㄴ	-7072
▁시온	-7073
▁갈아	-7074
▁파편	-7075
▁콘솔	-7076
▁렌즈	-7077
▁몫	-7078
▁백작	-7079
▁배정	-7080
▁브로	-7081
▁샤이	-7082
▁BR	-7083
40	-7084
▁ㅂㅓㄴ	-7085
▁난무	-7086
▁뱃	-7087
▁비극	-7088
▁동아리	-7089
▁루크	-7090
▁비스트	-7091
▁당당	-7092
▁이웃	-7093
▁본토	-7094
▁창작물	-7095
▁태어나	-7096
▁불펜	-7097
▁폐기	-7098
▁처분	-7099
▁이와	-7100
▁파멸	-7101
▁캘	-7102
▁대령	-7103
▁지력	-7104
토스	-7105
▁실상	-7106
▁교장	-7107
▁ㅎㅣㅁㄷㅡㄹ	-7108
▁니콜	-7109
▁역습	-7110
▁맥주	-7111
▁수색	-7112
▁혜택	-7113
키아	-7114
▁코미디	-7115
▁악몽	-7116
sh	-7117
▁지향	-7118
메이	-7119
▁ㅅㅔㄹ	-7120
베이	-7121
▁나스	-7122
▁후미	-7123
▁명목	-7124
▁해킹	-7125
▁이타	-7126
▁유전자	-7127
▁거북	-7128
도리	-7129
ㄴㅑㅇ	-7130
▁동남	-7131
▁스포일러	-7132
▁이란	-7133
▁즉위	-7134
▁후퇴	-7135
▁시신	-7136
▁JP	-7137
▁125	-7138
▁경남	-7139
▁전동차	-7140
▁CH	-7141
카이도	-7142
▁썰	-7143
▁핑크	-7144
▁흔하	-7145
하마	-7146
▁프로토	-7147
▁동경	-7148
ㄹㅜㄹ	-7149
▁키보드	-7150
▁도장	-7151
▁경악	-7152
▁시트	-7153
▁상사	-7154
tle	-7155
▁타르	-7156
비전	-7157
▁물려	-7158
ㅃㅓ	-7159
▁여럿	-7160
▁추리	-7161
▁대포	-7162
▁제왕	-7163
▁장사	-7164
▁360	-7165
▁창설	-7166
ug	-7167
▁신데	-7168
▁헨리	-7169
▁교단	-7170
▁조우	-7171
▁짐작	-7172
▁UN	-7173
▁막히	-7174
▁디즈니	-7175
▁교토	-7176
▁물체	-7177
▁케이블	-7178
ㅇㅏㅅ	-7179
▁원곡	-7180
불호	-7181
▁호불호	-7182
▁혼돈	-7183
▁양손	-7184
▁OP	-7185
▁발행	-7186
▁랑	-7187
먼스	-7188
▁휴가	-7189
▁기둥	-7190
▁샷건	-7191
▁스테이	-7192
거지	-7193
▁장탄수	-7194
▁엄격	-7195
어놓	-7196
▁승차	-7197
▁막강	-7198
▁기세	-7199
▁선조	-7200
▁흰색	-7201
▁권위	-7202
▁LA	-7203
▁노조	-7204
▁조종사	-7205
▁반박	-7206
▁뒤늦	-7207
▁야생	-7208
▁https	-7209
▁한반도	-7210
▁나노	-7211
▁폭파	-7212
▁손실	-7213
▁신입	-7214
▁ㄱㅘㄴㅎㅐ	-7215
렉스	-7216
▁신데렐라	-7217
▁최적	-7218
▁고리	-7219
▁타석	-7220
▁축복	-7221
▁노가다	-7222
브라	-7223
▁내일	-7224
우리	-7225
▁광장	-7226
▁지선	-7227
▁포즈	-7228
▁구르	-7229
▁풋	-7230
▁개국	-7231
▁정교	-7232
▁배출	-7233
▁프랑스어	-7234
▁부착	-7235
▁하급	-7236
▁임대	-7237
▁프레이	-7238
▁스트라이커	-7239
▁낙하	-7240
▁모스	-7241
▁미오	-7242
월일	-7243
▁BE	-7244
▁트라우마	-7245
▁버섯	-7246
▁띄우	-7247
▁츤	-7248
ower	-7249
ach	-7250
▁ㅁㅏㅈㅅㅓ	-7251
▁회색	-7252
▁커스텀	-7253
▁승자	-7254
▁기장	-7255
▁텍스트	-7256
▁복원	-7257
▁옹호	-7258
▁채팅	-7259
▁패밀리	-7260
▁공세	-7261
▁실사	-7262
▁표면	-7263
▁베네	-7264
▁근접전	-7265
▁여파	-7266
▁응용	-7267
천시	-7268
▁오이	-7269
나기	-7270
▁근원	-7271
▁대시	-7272
▁어쩌면	-7273
▁대전차	-7274
▁히틀러	-7275
iss	-7276
▁조별	-7277
▁유기	-7278
▁잠실	-7279
▁세팅	-7280
▁구동	-7281
▁유언	-7282
▁무섭	-7283
▁여고	-7284
▁생년월일	-7285
▁Wi	-7286
▁장신	-7287
▁전북	-7288
▁끊임	-7289
▁개장	-7290
▁열혈	-7291
▁통칭	-7292
▁물고기	-7293
MP	-7294
▁첼시	-7295
▁바지	-7296
▁방치	-7297
▁올스타	-7298
▁루이스	-7299
▁전락	-7300
▁초능력	-7301
▁명백	-7302
▁투척	-7303
▁호소	-7304
▁브레	-7305
▁신지	-7306
▁관우	-7307
▁팡	-7308
▁ㅅㅕ	-7309
▁ㅅㅐㅇㄱㅣㄹ	-7310
▁이순	-7311
▁김상	-7312
▁출루	-7313
▁미국인	-7314
▁밍	-7315
▁솜	-7316
▁대접	-7317
▁굴욕	-7318
ash	-7319
▁비명	-7320
▁배려	-7321
▁소용	-7322
▁이글스	-7323
▁반감	-7324
▁시인	-7325
▁이라크	-7326
ARD	-7327
▁ㅇㅏㅆㅇㅓㅆ	-7328
라딘	-7329
▁카자	-7330
▁ㄱㅏㅁ	-7331
▁되게	-7332
▁장성	-7333
▁좌절	-7334
▁쌀	-7335
▁저하	-7336
▁간간히	-7337
▁마드리	-7338
▁카리스	-7339
▁그램	-7340
▁탕	-7341
▁부작용	-7342
▁궁금	-7343
▁마드리드	-7344
▁뽀	-7345
▁양상	-7346
▁엽	-7347
▁결계	-7348
ook	-7349
▁여타	-7350
▁상영	-7351
▁약자	-7352
▁타츠	-7353
▁1982	-7354
▁미루	-7355
ial	-7356
산역	-7357
▁선사	-7358
OU	-7359
▁성씨	-7360
▁며칠	-7361
▁고장	-7362
▁스태프	-7363
▁진격	-7364
ㄹㄹㅣㅁ	-7365
▁논의	-7366
▁틴	-7367
▁디시	-7368
▁빌딩	-7369
▁꽉	-7370
▁민주주의	-7371
▁마감	-7372
▁먹히	-7373
▁마다	-7374
▁올드	-7375
▁기수	-7376
▁스케일	-7377
지막지	-7378
▁무지막지	-7379
▁뻥	-7380
▁갚	-7381
▁스나이	-7382
▁로이드	-7383
▁발목	-7384
▁축하	-7385
▁아스카	-7386
▁여러분	-7387
▁근대	-7388
▁대차	-7389
▁센트	-7390
▁수월	-7391
▁공대	-7392
▁스노	-7393
▁모빌	-7394
▁지인	-7395
ㄷㅣ	-7396
사이	-7397
▁해명	-7398
▁프론	-7399
▁다운로드	-7400
▁공백	-7401
▁가난	-7402
▁사이클	-7403
▁깜짝	-7404
▁마트	-7405
▁비치	-7406
ann	-7407
▁합리	-7408
▁찾아가	-7409
▁수동	-7410
▁하하	-7411
▁약탈	-7412
▁기본기	-7413
▁집권	-7414
▁인자	-7415
▁최우	-7416
▁wik	-7417
▁그날	-7418
▁ㅅㅕㄴ	-7419
▁텟	-7420
▁레온	-7421
ps	-7422
▁사악	-7423
▁ㅇㅕㄴ	-7424
▁ㅍㅜㄹㄹㅕ	-7425
럼프	-7426
TV	-7427
▁칭하	-7428
포르	-7429
돌이	-7430
▁세금	-7431
▁고소	-7432
▁퍼포	-7433
▁브라운	-7434
▁하인	-7435
▁생전	-7436
▁퍼포먼스	-7437
▁강렬	-7438
ss	-7439
▁나나	-7440
▁떠오르	-7441
▁개별	-7442
철도	-7443
▁특급	-7444
▁박살내	-7445
▁시외버스	-7446
▁중동	-7447
ㅌㅡ	-7448
버그	-7449
▁구별	-7450
▁둠	-7451
▁꼬마	-7452
▁이누	-7453
▁ㅎㅓ	-7454
▁실책	-7455
▁후일	-7456
▁대박	-7457
▁독일어	-7458
▁한창	-7459
리안	-7460
▁엄밀히	-7461
▁폴아웃	-7462
▁노동자	-7463
펴보	-7464
▁살펴보	-7465
▁금메달	-7466
▁설령	-7467
▁보건	-7468
▁로빈	-7469
▁닐	-7470
▁우세	-7471
▁조용히	-7472
▁교복	-7473
▁오메가	-7474
▁조롱	-7475
▁1983	-7476
▁그만두	-7477
란히	-7478
ky	-7479
▁MB	-7480
▁슬로	-7481
▁라크	-7482
▁이용객	-7483
▁스즈키	-7484
irl	-7485
▁우드	-7486
누스	-7487
▁권장	-7488
▁삼각	-7489
▁성경	-7490
▁단검	-7491
모함	-7492
▁에픽	-7493
ㄲㅣㄴ	-7494
▁대선	-7495
센스	-7496
▁검찰	-7497
▁업로드	-7498
▁ㅇㅜㄹ	-7499
▁뭉	-7500
ib	-7501
▁음료	-7502
▁시달리	-7503
역사	-7504
▁왼손	-7505
▁폭행	-7506
▁마도카	-7507
▁Mk	-7508
▁훈장	-7509
▁선보이	-7510
▁라이너	-7511
▁페널티	-7512
70	-7513
▁비서	-7514
▁전격	-7515
▁조명	-7516
바야	-7517
ish	-7518
▁your	-7519
▁그레이트	-7520
▁친하	-7521
▁토요	-7522
▁페이스북	-7523
▁불쌍	-7524
▁감수	-7525
▁원전	-7526
▁스피릿	-7527
▁ㅁㅜㄷ	-7528
▁명문	-7529
▁웨스트	-7530
▁선제	-7531
▁산탄	-7532
▁닝	-7533
▁CS	-7534
▁GO	-7535
▁몰리	-7536
▁that	-7537
우트	-7538
▁포획	-7539
▁ㄸㅡㄴㄷㅏ	-7540
▁세부	-7541
▁독점	-7542
▁튼	-7543
▁고속도로	-7544
▁형편	-7545
숭이	-7546
▁소니	-7547
▁제물	-7548
▁지사	-7549
▁ㅅㅏㄴㄷㅏ	-7550
하나	-7551
▁인권	-7552
▁호크	-7553
아나	-7554
▁건국	-7555
▁트랩	-7556
▁온도	-7557
▁아스트	-7558
▁명사	-7559
▁선진	-7560
오스	-7561
▁직선	-7562
▁분해	-7563
▁PP	-7564
▁ㅌㅟㅇㄱㅕ	-7565
▁휠	-7566
보내	-7567
rom	-7568
▁마땅	-7569
▁ㅅㅜ	-7570
▁항구	-7571
▁위안	-7572
▁공통점	-7573
▁루프	-7574
▁상반	-7575
▁수직	-7576
▁중지	-7577
공항	-7578
▁에릭	-7579
▁유망	-7580
▁카를	-7581
▁구장	-7582
▁도트	-7583
▁발리	-7584
▁유혹	-7585
▁블레이	-7586
▁후임	-7587
▁학생회	-7588
▁벡	-7589
▁질병	-7590
루미	-7591
▁페리	-7592
▁김해	-7593
진호	-7594
탐정	-7595
▁그거	-7596
▁팁	-7597
▁le	-7598
▁츠바	-7599
▁겟	-7600
▁강간	-7601
▁ㅁㅏㅇㄱㅏ	-7602
▁주니어	-7603
▁조이	-7604
orm	-7605
▁신선	-7606
▁걸어	-7607
▁혈통	-7608
라노	-7609
▁각오	-7610
▁되돌	-7611
▁잔인	-7612
▁Ne	-7613
▁유나이	-7614
▁ON	-7615
▁후원	-7616
▁경부	-7617
게이머	-7618
▁프로게이머	-7619
▁평양	-7620
▁샵	-7621
▁술사	-7622
▁범용	-7623
▁오죽	-7624
▁타치	-7625
▁매드	-7626
차기	-7627
▁추방	-7628
▁끼치	-7629
▁찬스	-7630
▁물품	-7631
▁비틀	-7632
블리	-7633
▁부동	-7634
▁적중	-7635
ㅡㄹㄹㅕㅆ	-7636
ㄹㄹㅣ	-7637
▁토요일	-7638
▁엄연히	-7639
▁라스트	-7640
▁ㅂㅜㅌㅇㅣㄴ	-7641
▁항공모함	-7642
▁ㄱㅡㄹㄹㅓ	-7643
▁털리	-7644
▁고무	-7645
▁축소	-7646
▁ㄷㅚㄹㅈㅣ	-7647
▁루피	-7648
▁스컬	-7649
▁350	-7650
▁원더	-7651
▁유나이티	-7652
▁ML	-7653
▁하치	-7654
▁곱	-7655
▁레인지	-7656
▁동행	-7657
▁스와	-7658
▁강원도	-7659
▁베테랑	-7660
▁증폭	-7661
▁진상	-7662
▁엔지	-7663
▁압권	-7664
▁고치	-7665
▁{{	-7666
경기	-7667
▁검열	-7668
▁거론	-7669
벤처	-7670
▁메리트	-7671
▁어드벤처	-7672
싱턴	-7673
▁후회	-7674
이치로	-7675
▁쿠마	-7676
▁스폰서	-7677
▁선두	-7678
테일	-7679
▁원형	-7680
▁관찰	-7681
▁트윈스	-7682
▁하반	-7683
▁가르치	-7684
으로	-7685
▁킷	-7686
▁기후	-7687
▁성배	-7688
사리	-7689
▁TR	-7690
▁김기	-7691
▁마카	-7692
▁괴롭히	-7693
▁지연	-7694
▁출마	-7695
▁경전	-7696
▁허무	-7697
▁이어받	-7698
▁논문	-7699
전설	-7700
▁주체	-7701
▁변이	-7702
▁{{{	-7703
▁인칭	-7704
▁합동	-7705
▁ㅎㅜㅁㅊㅕ	-7706
에르	-7707
▁골렘	-7708
▁스리	-7709
amp	-7710
▁운수	-7711
▁부임	-7712
▁메트로	-7713
▁쨩	-7714
▁요한	-7715
ㅈㅣㅁ	-7716
▁교과서	-7717
▁장난감	-7718
▁해양	-7719
ft	-7720
▁흡혈귀	-7721
▁표절	-7722
▁도색	-7723
구장	-7724
▁중순	-7725
▁SKT	-7726
▁유니버스	-7727
▁바나	-7728
▁쿄코	-7729
▁유출	-7730
▁영지	-7731
▁친절	-7732
▁히든	-7733
ype	-7734
▁사사	-7735
▁유의	-7736
▁베어스	-7737
▁UE	-7738
▁쉴	-7739
▁슌	-7740
▁블로	-7741
▁하여	-7742
▁쿤	-7743
루션	-7744
▁지목	-7745
▁결혼식	-7746
▁보라색	-7747
▁쿠데	-7748
▁피카	-7749
▁권유	-7750
▁구성원	-7751
ㄴㅡㄴㄷㅔ	-7752
마크	-7753
▁전망	-7754
▁사무라이	-7755
어하	-7756
▁초콜	-7757
▁타이탄	-7758
▁다이스	-7759
러나	-7760
▁Mar	-7761
▁코스튬	-7762
▁나르	-7763
▁!"	-7764
▁시게	-7765
페라	-7766
▁역량	-7767
▁절차	-7768
▁ㅅㅓㄲㅇㅕ	-7769
▁박근혜	-7770
▁어색	-7771
▁우익	-7772
ous	-7773
니시	-7774
▁저렇	-7775
배우	-7776
▁특공	-7777
▁니아	-7778
▁치열	-7779
▁컴뱃	-7780
▁헤르	-7781
▁폴리	-7782
▁마술사	-7783
▁동대	-7784
▁과자	-7785
▁취업	-7786
▁페르소	-7787
▁빈도	-7788
▁버스트	-7789
▁ㄷㅏㅁㄱㅣㄴ	-7790
▁ㅊㅐㄴ	-7791
▁줄거리	-7792
▁뱅크	-7793
▁by	-7794
▁여단	-7795
▁유료	-7796
싸움	-7797
TR	-7798
▁긴급	-7799
▁엮이	-7800
▁시리아	-7801
▁안양	-7802
▁ex	-7803
▁애칭	-7804
▁이케	-7805
ㅁㅏㄹ	-7806
▁찾아오	-7807
▁카네	-7808
트론	-7809
▁사투	-7810
▁ㅈㅡㄹㄱㅕ	-7811
▁의자	-7812
▁서기	-7813
▁다큐	-7814
▁기호	-7815
ㄴㅣㄹㄲㅏ	-7816
▁동서	-7817
▁청주	-7818
▁돋	-7819
▁공용	-7820
▁고블린	-7821
▁튼튼	-7822
▁히카	-7823
▁손자	-7824
▁Sup	-7825
▁ㄷㅡㄹㄹㅕ	-7826
추어	-7827
▁상한	-7828
▁나이프	-7829
▁토우	-7830
ㄷㅚㄴ	-7831
시대	-7832
▁리나	-7833
▁캄	-7834
▁수습	-7835
▁우회	-7836
▁관여	-7837
▁빨간	-7838
▁유탄	-7839
산시	-7840
▁명단	-7841
▁막아내	-7842
▁we	-7843
▁GSL	-7844
▁LP	-7845
▁강호	-7846
▁징역	-7847
▁수급	-7848
▁터스	-7849
▁센서	-7850
!!	-7851
▁히스	-7852
▁광명	-7853
▁나비	-7854
▁침묵	-7855
FF	-7856
플레이	-7857
▁퍼즐	-7858
▁유전	-7859
ㅟㄴㄷㅏ	-7860
▁젼	-7861
▁풍부	-7862
▁ㅂㅏㄹㄹㅏ	-7863
▁대성	-7864
▁관통력	-7865
▁고스	-7866
▁규제	-7867
▁자꾸	-7868
슈타인	-7869
▁일요일	-7870
▁보호막	-7871
▁정사	-7872
▁동점	-7873
▁bl	-7874
ㅐㅆ	-7875
▁ㅆㅏㄴ	-7876
▁드레스	-7877
▁중상	-7878
▁가오	-7879
▁학문	-7880
▁순양함	-7881
▁의장	-7882
▁페어리	-7883
바나	-7884
▁큐어	-7885
ㅇㅏㅆ	-7886
▁끌어	-7887
▁포스터	-7888
▁이놈	-7889
▁스플	-7890
▁평행	-7891
▁전생	-7892
▁주어지	-7893
▁웜	-7894
▁호드	-7895
▁페르소나	-7896
▁우승자	-7897
▁겔	-7898
▁102	-7899
▁촉수	-7900
ey	-7901
▁해치	-7902
▁오브젝트	-7903
▁짙	-7904
▁오스만	-7905
▁태국	-7906
▁미미	-7907
▁불능	-7908
▁특별시	-7909
승부	-7910
▁ㄲㅗㅂ	-7911
▁앰	-7912
▁인재	-7913
▁ㅂㅓㄹㅇㅕㅆ	-7914
▁싫어하	-7915
▁프렌	-7916
▁아무튼	-7917
▁카마	-7918
▁도어	-7919
ING	-7920
▁부스트	-7921
▁덧	-7922
도전	-7923
▁분산	-7924
▁기스	-7925
▁침대	-7926
▁메카닉	-7927
▁선장	-7928
▁서바이	-7929
▁크라이	-7930
▁마인드	-7931
▁시모	-7932
▁III	-7933
▁트레이너	-7934
키퍼	-7935
▁후반기	-7936
▁꼽히	-7937
▁생김	-7938
ㄷㅝㅆ	-7939
▁러스	-7940
▁평상	-7941
▁동반	-7942
▁동해	-7943
▁젖	-7944
▁인과	-7945
▁배제	-7946
베리	-7947
▁철갑	-7948
▁관측	-7949
▁아케이드	-7950
▁강림	-7951
▁모집	-7952
▁기르	-7953
▁백업	-7954
▁눈치채	-7955
MS	-7956
▁빅토	-7957
▁수석	-7958
▁도리	-7959
▁관리자	-7960
▁참가자	-7961
렉션	-7962
AK	-7963
▁출산	-7964
▁지부	-7965
▁워리어	-7966
폭탄	-7967
▁취득	-7968
▁World	-7969
▁신속	-7970
▁시상식	-7971
▁낭비	-7972
▁날씨	-7973
▁챙기	-7974
▁정석	-7975
▁스위스	-7976
▁모에	-7977
하루	-7978
▁현금	-7979
▁안심	-7980
▁아쉬	-7981
▁유우키	-7982
▁박지	-7983
▁토라	-7984
▁무한도전	-7985
▁스탭	-7986
▁레이디	-7987
필더	-7988
▁미드필더	-7989
▁패전	-7990
▁마타	-7991
▁시그	-7992
▁모니터	-7993
▁짐승	-7994
▁왜냐하면	-7995
▁껍	-7996
ㄷㅡㄹㄱㅕ	-7997
대사	-7998
der	-7999
▁유재석	-8000
oll	-8001
▁블리자드	-8002
워즈	-8003
▁원판	-8004
▁화산	-8005
▁모험가	-8006
▁리모	-8007
▁붐	-8008
▁김용	-8009
▁시비	-8010
NA	-8011
▁성실	-8012
▁스피어	-8013
▁장타	-8014
▁벤치	-8015
▁연산	-8016
▁친분	-8017
▁플랜	-8018
▁통째	-8019
▁옐	-8020
▁New	-8021
▁골키퍼	-8022
ink	-8023
▁피로	-8024
▁se	-8025
▁대위	-8026
▁All	-8027
▁공감	-8028
▁조카	-8029
▁대세	-8030
ET	-8031
▁리틀	-8032
▁역임	-8033
▁ㅅㅟㄹ	-8034
▁꿰	-8035
▁뱅가드	-8036
▁강사	-8037
▁슬라	-8038
▁최저	-8039
▁ㅇㅣㅈㅎㅕ	-8040
▁냉정	-8041
▁워프	-8042
▁원주민	-8043
▁111	-8044
▁만주	-8045
ㄹㅗㅂ	-8046
▁프리미어	-8047
▁ㅇㅡㄹㅅㅜ	-8048
▁데몬	-8049
▁방송사	-8050
▁al	-8051
▁OG	-8052
▁카리스마	-8053
코트	-8054
▁미소녀	-8055
▁사무소	-8056
▁스기	-8057
▁ㅂㅕㄴㅎㅐㅆ	-8058
▁작년	-8059
▁일가	-8060
▁108	-8061
▁처하	-8062
▁DP	-8063
▁미인	-8064
▁쿼터	-8065
항공	-8066
▁따뜻	-8067
▁호러	-8068
▁흑역사	-8069
▁ㄱㅏㄹㄹㅏ	-8070
▁차리	-8071
▁생체	-8072
▁강등	-8073
▁품질	-8074
▁노란색	-8075
▁단발	-8076
▁IM	-8077
어드	-8078
▁IN	-8079
▁변장	-8080
▁생애	-8081
▁익히	-8082
▁포병	-8083
▁빨간색	-8084
▁유카	-8085
▁자네	-8086
▁워즈	-8087
▁미지	-8088
▁Season	-8089
▁광산	-8090
▁메일	-8091
▁가져오	-8092
▁싸이	-8093
ㄷㅡㅅ	-8094
▁영양	-8095
▁호남	-8096
▁카지	-8097
▁리버스	-8098
▁절친	-8099
▁스미스	-8100
▁오즈	-8101
▁국무	-8102
▁후드	-8103
▁출판사	-8104
▁재개	-8105
▁당사자	-8106
▁무용	-8107
▁소모량	-8108
▁SU	-8109
▁붓	-8110
▁루리	-8111
▁하나하나	-8112
주교	-8113
▁여포	-8114
▁un	-8115
▁땡	-8116
▁슈퍼맨	-8117
▁명분	-8118
ㄴㅣㄴㅈㅣ	-8119
▁트릴	-8120
▁방사능	-8121
▁국제공항	-8122
▁오지	-8123
▁넬	-8124
▁OS	-8125
▁자제	-8126
▁디펜	-8127
▁ㅍㅕ	-8128
▁유입	-8129
▁115	-8130
▁각지	-8131
▁단기	-8132
▁클린	-8133
▁정반	-8134
▁안쪽	-8135
▁연쇄	-8136
▁무도	-8137
▁봉쇄	-8138
▁폭스	-8139
▁마모	-8140
▁장판	-8141
▁코스프레	-8142
▁장례	-8143
▁쿠데타	-8144
이나	-8145
▁김포	-8146
▁애인	-8147
▁태우	-8148
▁발급	-8149
▁선임	-8150
▁몰살	-8151
▁전당	-8152
ㄷㅡㄹㅇㅓ	-8153
모스	-8154
▁위원장	-8155
▁리안	-8156
페이	-8157
▁MF	-8158
▁스네	-8159
▁여의	-8160
▁자칭	-8161
IX	-8162
▁수라	-8163
▁미러	-8164
▁깨지	-8165
▁마운	-8166
▁워크	-8167
▁밀어	-8168
▁마오	-8169
▁와인	-8170
▁항해	-8171
▁ㄷㅗㄹ	-8172
▁ㅊㅏㄱㅎㅏㄴ	-8173
▁동정	-8174
▁카쿠	-8175
▁해산	-8176
▁워싱턴	-8177
께끼	-8178
▁임기	-8179
▁수수께끼	-8180
네마	-8181
▁수인	-8182
▁국장	-8183
▁왕복	-8184
▁리처	-8185
▁마음대로	-8186
당초	-8187
▁아베	-8188
▁스티븐	-8189
▁자존	-8190
DX	-8191
▁수위	-8192
▁시크릿	-8193
▁트론	-8194
▁고등학생	-8195
▁곡인	-8196
▁망하	-8197
▁실현	-8198
▁동속	-8199
▁부근	-8200
▁레이지	-8201
▁퍼스트	-8202
▁ㅇㅡㄴㅈㅣ	-8203
▁카레	-8204
▁게이머	-8205
▁병역	-8206
▁자책점	-8207
▁브레이커	-8208
베이터	-8209
▁공단	-8210
▁바르셀	-8211
▁사와	-8212
▁바르셀로나	-8213
▁안타깝	-8214
35	-8215
▁렘	-8216
▁디자이너	-8217
▁멋대로	-8218
▁DF	-8219
▁사리	-8220
▁아름	-8221
셔널	-8222
▁ㅎㅑㅇㅎㅏㄴ	-8223
▁드로우	-8224
▁엉망	-8225
▁마그	-8226
▁lv	-8227
▁어벤	-8228
▁ㄱㅓㄴㄷㅔ	-8229
▁제출	-8230
▁데이비드	-8231
▁메이지	-8232
▁문재	-8233
▁ㅂㅜㅌㅈㅏ	-8234
▁끊임없이	-8235
▁ㄱㅏㅇㅎㅐㅆ	-8236
▁1981	-8237
▁구형	-8238
▁1950	-8239
▁라이징	-8240
▁확산	-8241
▁유망주	-8242
▁And	-8243
▁멍청	-8244
▁스텔스	-8245
▁할리	-8246
ㅍㅏ	-8247
▁켜	-8248
▁188	-8249
▁스탈	-8250
동자	-8251
▁NM	-8252
▁그치	-8253
▁BGA	-8254
▁우호	-8255
ㄱㅎㅕㅆ	-8256
▁흔들리	-8257
ㄹㅏㄴㄷㅏ	-8258
ank	-8259
▁쿠리	-8260
▁탐지	-8261
▁생김새	-8262
ㅇㅗㄹㄹㅏ	-8263
▁굴리	-8264
▁개구리	-8265
▁바치	-8266
▁원시	-8267
▁민간인	-8268
▁우울	-8269
▁양식	-8270
▁존스	-8271
▁To	-8272
▁부원	-8273
ai	-8274
▁만능	-8275
▁종영	-8276
▁침투	-8277
▁터보	-8278
▁힙합	-8279
▁고집	-8280
▁목사	-8281
▁기부	-8282
▁아아	-8283
▁레이어	-8284
▁z	-8285
▁맞붙	-8286
운수	-8287
▁경호	-8288
▁날뛰	-8289
▁그랑	-8290
▁얇	-8291
▁어원	-8292
▁1979	-8293
▁동전	-8294
▁방탄	-8295
▁수지	-8296
▁디아블로	-8297
MAX	-8298
▁철저히	-8299
틀랜드	-8300
우라	-8301
▁전남	-8302
▁카게	-8303
▁px	-8304
▁아수	-8305
▁후유	-8306
▁렉스	-8307
▁엔지니어	-8308
▁엘레	-8309
▁산맥	-8310
▁긁	-8311
▁작정	-8312
▁함장	-8313
▁카피	-8314
▁머니	-8315
▁실체	-8316
▁화해	-8317
▁브라이언	-8318
▁자사	-8319
스티벌	-8320
▁페스티벌	-8321
▁치안	-8322
▁변동	-8323
▁이스트	-8324
▁정신력	-8325
▁애완	-8326
▁ㅎㅏㄹㄲㅏ	-8327
▁투쟁	-8328
ary	-8329
ero	-8330
▁농장	-8331
▁니트	-8332
▁리본	-8333
▁알렉스	-8334
▁비추	-8335
▁유비트	-8336
▁혀	-8337
▁첫째	-8338
▁몸통	-8339
▁쇄	-8340
▁로맨	-8341
▁가이아	-8342
나베	-8343
▁간섭	-8344
▁매그	-8345
▁ㅍㅕㄹㅊㅕㅆ	-8346
▁오렌	-8347
▁능가	-8348
▁요미	-8349
▁라그나	-8350
▁원숭이	-8351
▁뉘	-8352
▁중위	-8353
바야시	-8354
므로	-8355
▁실내	-8356
▁군부	-8357
▁하스	-8358
▁압력	-8359
▁대역	-8360
▁미르	-8361
▁간지	-8362
▁세자	-8363
▁sp	-8364
▁Cr	-8365
▁ㅍㅣㄹ	-8366
▁트랜스포	-8367
▁ㅍㅡㄹ	-8368
▁Bo	-8369
▁함락	-8370
▁김준	-8371
▁떨어	-8372
▁재학	-8373
▁토지	-8374
▁다카	-8375
▁모형	-8376
▁ㅎㅏㅂ	-8377
비치	-8378
스레	-8379
▁트레일러	-8380
▁세리	-8381
▁운송	-8382
ng	-8383
▁폭격기	-8384
▁쿠스	-8385
▁크레이	-8386
▁입주	-8387
▁마하	-8388
▁이즈미	-8389
▁종결	-8390
ㄷㅇㅓ	-8391
바이트	-8392
군가	-8393
▁광기	-8394
▁예약	-8395
▁사야카	-8396
▁템플	-8397
아시아	-8398
▁ㅁㅜㅇ	-8399
▁오더	-8400
▁테스	-8401
▁ㅌㅡㄹㄹㅣㄴ	-8402
▁티스	-8403
▁스나이퍼	-8404
▁고가	-8405
▁금발	-8406
▁여섯	-8407
▁홀드	-8408
레븐	-8409
▁시골	-8410
▁실시간	-8411
▁거지	-8412
▁헬멧	-8413
▁닦	-8414
▁물자	-8415
▁Vol	-8416
▁계층	-8417
▁전향	-8418
▁쿵	-8419
▁세로	-8420
▁퍽	-8421
저래	-8422
ife	-8423
▁출범	-8424
바지	-8425
리드	-8426
▁마미	-8427
AY	-8428
ich	-8429
▁사수	-8430
▁아자	-8431
▁스카우트	-8432
▁이래저래	-8433
▁부스	-8434
▁압축	-8435
▁UEFA	-8436
ㄲㅝㅆ	-8437
aster	-8438
IVE	-8439
▁그러므로	-8440
▁입문	-8441
▁탐색	-8442
ㅈㅣㄹㄹㅓㅆ	-8443
▁콘텐츠	-8444
▁128	-8445
▁누군가	-8446
네시아	-8447
▁삽질	-8448
▁펌프	-8449
▁광경	-8450
▁고고	-8451
▁통솔	-8452
▁ㅇㅗㅂ	-8453
▁납득	-8454
▁뻘	-8455
▁겜	-8456
ㄷㅝ	-8457
ree	-8458
▁잔혹	-8459
▁주관	-8460
▁Day	-8461
▁반역	-8462
▁쿠사	-8463
ㅅㅝ	-8464
▁밀도	-8465
▁신하	-8466
▁ㅇㅜㅁㅈㅣㄱㅇㅣㄹ	-8467
▁젬	-8468
▁깃발	-8469
▁ㅈㅓㅂ	-8470
▁나폴레	-8471
▁스크롤	-8472
▁베를	-8473
ons	-8474
▁항모	-8475
▁Ad	-8476
▁ㅉㅗㅊㅇㅏ	-8477
▁시사	-8478
끼리	-8479
▁죄책	-8480
▁플라스	-8481
▁오른손	-8482
▁임의	-8483
▁표기법	-8484
▁민폐	-8485
▁en	-8486
ㄹㄹㅐ	-8487
▁쪼	-8488
▁대타	-8489
▁소금	-8490
▁기질	-8491
▁학대	-8492
▁영감	-8493
ㅈㅝ	-8494
▁마산	-8495
▁김유	-8496
른바	-8497
▁젤리	-8498
▁트리거	-8499
▁마라	-8500
▁이른바	-8501
ㅋㅏ	-8502
▁이모	-8503
▁커플링	-8504
▁나폴레옹	-8505
▁소생	-8506
▁군수	-8507
▁서적	-8508
▁ㅇㅕㄹㄹㅕㅆ	-8509
▁갈색	-8510
▁부유	-8511
▁초콜릿	-8512
▁직통	-8513
▁캡슐	-8514
▁파도	-8515
▁대행	-8516
▁강경	-8517
세우	-8518
ans	-8519
▁드론	-8520
▁닉네임	-8521
▁망토	-8522
▁무승부	-8523
▁엘리베이터	-8524
▁파스	-8525
▁죄책감	-8526
▁흑막	-8527
▁스파이더맨	-8528
▁ㄱㅏㄷㅎㅕ	-8529
라미	-8530
▁기껏	-8531
▁황당	-8532
▁관장	-8533
▁친척	-8534
▁라이언	-8535
리얼	-8536
▁수비수	-8537
pl	-8538
act	-8539
▁일렉	-8540
▁ㅌㅏㄹ	-8541
다보	-8542
▁그란	-8543
▁간판	-8544
▁감탄	-8545
부키	-8546
▁고사	-8547
▁부재	-8548
▁시시	-8549
▁매출	-8550
▁신중	-8551
▁아오이	-8552
▁실적	-8553
▁착륙	-8554
▁어나	-8555
▁하사	-8556
▁트랜스포머	-8557
▁도덕	-8558
▁WC	-8559
▁외국어	-8560
▁김일	-8561
▁프랜	-8562
▁화기	-8563
▁러쉬	-8564
▁깨끗	-8565
▁스타즈	-8566
▁ㅈㅡㄹㄱㅣㄹ	-8567
▁챔프	-8568
▁강대	-8569
▁알바	-8570
▁개척	-8571
▁김진	-8572
▁ㅂㅓㄹㅇㅣㄴ	-8573
러브	-8574
ase	-8575
▁방학	-8576
▁애용	-8577
▁카이저	-8578
▁GD	-8579
▁정문	-8580
▁호의	-8581
▁챌린지	-8582
렉터	-8583
▁엘리자베스	-8584
▁죠죠	-8585
▁선로	-8586
▁ㄴㅏㄹㅋㅏ	-8587
▁페어	-8588
▁가령	-8589
▁육상	-8590
▁코토	-8591
▁승진	-8592
▁위로	-8593
▁김치	-8594
▁입시	-8595
▁판도	-8596
▁고아	-8597
▁미궁	-8598
▁그쪽	-8599
▁아이디어	-8600
▁오다	-8601
▁목걸이	-8602
▁츤데레	-8603
▁신작	-8604
ple	-8605
▁ㅇㅓㅄㅇㅐ	-8606
▁힐러	-8607
uk	-8608
▁깊이	-8609
▁리리	-8610
▁어나더	-8611
▁탭	-8612
▁손쉽	-8613
▁스가	-8614
12	-8615
▁성분	-8616
▁IIDX	-8617
▁서방	-8618
▁케빈	-8619
고속도로	-8620
ear	-8621
▁공산당	-8622
▁출혈	-8623
▁마케팅	-8624
▁예의	-8625
▁미녀	-8626
▁아리아	-8627
▁스타워즈	-8628
▁퇴각	-8629
ㅌㅣㄹ	-8630
▁이소	-8631
▁왕비	-8632
ment	-8633
▁감자	-8634
▁만점	-8635
▁ㅇㅏㄴㅌㅏ	-8636
▁--	-8637
▁시뮬	-8638
▁하도	-8639
▁와이번	-8640
▁짬	-8641
▁마피아	-8642
▁레아	-8643
▁지수	-8644
▁침몰	-8645
▁워터	-8646
▁창문	-8647
▁극대	-8648
▁이오	-8649
▁슬픔	-8650
▁오락실	-8651
▁가이드	-8652
▁검증	-8653
▁오페라	-8654
▁발레	-8655
▁자이언트	-8656
▁필리핀	-8657
▁덩어리	-8658
▁리사	-8659
ction	-8660
▁혼혈	-8661
▁적절히	-8662
▁매트	-8663
▁카리	-8664
▁이병	-8665
▁고시	-8666
▁샐	-8667
▁제노	-8668
어트	-8669
▁AV	-8670
▁쉴드	-8671
▁괴인	-8672
▁DM	-8673
▁김수	-8674
▁머스	-8675
▁AA	-8676
업자	-8677
▁디오	-8678
▁쿠니	-8679
▁라이트닝	-8680
▁박자	-8681
▁츠카	-8682
ㄴㅣㅁ	-8683
▁쫒	-8684
슬라	-8685
▁ㅊㅜ	-8686
▁레이븐	-8687
ㅂㅗㄴㄷㅏ	-8688
90	-8689
▁다가오	-8690
▁우마	-8691
▁모음	-8692
▁마에	-8693
▁크래프트	-8694
▁Part	-8695
▁치카	-8696
▁합작	-8697
▁무제	-8698
▁사촌	-8699
▁존중	-8700
무지	-8701
▁연수	-8702
▁레이블	-8703
▁tv	-8704
▁토대	-8705
▁마기	-8706
▁매각	-8707
▁구상	-8708
▁어이없	-8709
▁노부나가	-8710
▁가위	-8711
▁닷	-8712
▁소꿉	-8713
▁드루	-8714
▁질서	-8715
ㅅㅡ	-8716
▁만렙	-8717
▁ㅂㅕㄴㅎㅏㄴ	-8718
▁현자	-8719
좀무	-8720
▁흠좀무	-8721
▁천국	-8722
▁아카네	-8723
ool	-8724
▁바쿠	-8725
▁ㅇㅏㄴㄷㅏ	-8726
oon	-8727
▁주축	-8728
▁구조물	-8729
▁One	-8730
▁개명	-8731
▁모임	-8732
▁팔리	-8733
▁총합	-8734
▁시타	-8735
▁리버풀	-8736
ode	-8737
▁중거리	-8738
▁모델링	-8739
▁여주인	-8740
▁리퍼	-8741
▁예쁘	-8742
▁복사	-8743
▁at	-8744
▁라미	-8745
▁외곽	-8746
▁우연	-8747
▁호리	-8748
▁유머	-8749
▁런처	-8750
▁ㅅㅏㅆ	-8751
▁원로	-8752
▁해운	-8753
▁도쿠	-8754
▁편리	-8755
번트	-8756
▁220	-8757
▁로키	-8758
ㅁㅗㄴ	-8759
사랑	-8760
야스	-8761
▁ㅂㅕㄴㅎㅏㄴㄷㅏ	-8762
▁오케	-8763
▁공속	-8764
▁너스	-8765
▁도심	-8766
▁왕실	-8767
▁유연	-8768
▁우측	-8769
▁초상	-8770
▁글씨	-8771
▁고의	-8772
▁103	-8773
▁박수	-8774
▁웨폰	-8775
▁앓	-8776
▁175	-8777
▁변명	-8778
▁부사관	-8779
▁물려받	-8780
헤이	-8781
▁ㅋㅐㄴ	-8782
▁실용	-8783
▁사천	-8784
▁찌질	-8785
▁연구원	-8786
▁톡	-8787
▁등극	-8788
▁최선	-8789
▁승인	-8790
VER	-8791
▁지분	-8792
▁화폐	-8793
▁삼성전자	-8794
ㄷㅡㄹㅇㅣㄴ	-8795
▁장애물	-8796
▁NBA	-8797
▁명대사	-8798
▁부천	-8799
▁240	-8800
▁서번트	-8801
▁스카웃	-8802
▁잭슨	-8803
▁놀랍	-8804
▁오역	-8805
▁레코드	-8806
▁타이어	-8807
▁아사히	-8808
▁Ap	-8809
▁황후	-8810
▁직책	-8811
▁포탈	-8812
▁표적	-8813
▁출동	-8814
▁전지	-8815
▁FF	-8816
▁타일	-8817
▁파울	-8818
▁뚱	-8819
▁감당	-8820
▁경찰서	-8821
▁ES	-8822
▁보좌	-8823
▁모듈	-8824
▁이카	-8825
▁일일	-8826
▁적자	-8827
▁ㅈㅡㄹㄱㅓ	-8828
▁테이블	-8829
▁전담	-8830
▁ㅁㅜㄷㅎㅕ	-8831
▁전날	-8832
▁각도	-8833
▁명장	-8834
▁참사	-8835
▁ㄷㅓㅍ	-8836
▁체결	-8837
▁중부	-8838
▁서식	-8839
▁LO	-8840
▁마야	-8841
▁무녀	-8842
▁지로	-8843
ㄱㅇㅣㄴ	-8844
▁재건	-8845
▁어시스트	-8846
▁노릇	-8847
▁힘입	-8848
▁1945	-8849
▁교리	-8850
▁듀오	-8851
▁돌연	-8852
ㄹㅕㅆㅇㅡ	-8853
IR	-8854
▁이무	-8855
▁암호	-8856
▁아수라	-8857
AP	-8858
▁ㅆㅗㄷㅇㅏ	-8859
▁ㅎㅜ	-8860
▁자력	-8861
ㄷㅜㄹㄹㅓ	-8862
▁선동	-8863
▁완공	-8864
▁ㄸㅓㅆ	-8865
▁자존심	-8866
▁워드	-8867
▁검정	-8868
▁네티	-8869
▁아마추어	-8870
▁쓰리	-8871
프리카	-8872
▁본능	-8873
▁사연	-8874
▁천천	-8875
▁ㄸㅜ	-8876
▁패자	-8877
라이언스	-8878
▁그릇	-8879
▁약혼	-8880
▁가담	-8881
▁싱가	-8882
▁싱가포르	-8883
▁오토바이	-8884
▁첸	-8885
▁NH	-8886
▁변수	-8887
깨비	-8888
▁Sw	-8889
▁보가	-8890
▁건드리	-8891
이동	-8892
▁마찰	-8893
▁아담	-8894
▁뮌	-8895
▁얼라이언스	-8896
▁미남	-8897
▁평상시	-8898
▁모순	-8899
▁브라더스	-8900
▁마일	-8901
▁해소	-8902
▁철도역	-8903
▁ㅅㅗㄱㅎㅏㄴ	-8904
은색	-8905
▁오니	-8906
▁리코	-8907
▁신동	-8908
▁수천	-8909
▁아드	-8910
▁ㅅㅑ	-8911
▁모종	-8912
▁얄	-8913
▁점유	-8914
▁에미	-8915
▁사법	-8916
▁민감	-8917
ㅈㅇㅓ	-8918
친구	-8919
▁무능	-8920
▁베스	-8921
▁리믹스	-8922
▁사치	-8923
▁마을버스	-8924
▁본관	-8925
▁답답	-8926
▁이단	-8927
ㄴㅏㅆㅇㅡ	-8928
▁ㅈㅣㄴㅇㅣ	-8929
bs	-8930
시오	-8931
▁유가	-8932
▁함수	-8933
▁ㅈㅔㄴ	-8934
▁까다	-8935
▁소우	-8936
▁ㅌㅏㅆ	-8937
▁해전	-8938
▁라인하르트	-8939
▁CM	-8940
▁달인	-8941
▁타카하시	-8942
▁농업	-8943
▁선출	-8944
▁큰	-8945
들이	-8946
▁홀리	-8947
▁트로피	-8948
▁온천	-8949
▁테일즈	-8950
▁흙	-8951
▁서열	-8952
▁오공	-8953
▁말기	-8954
▁몸매	-8955
▁크로우	-8956
▁견해	-8957
▁대동	-8958
▁퇴치	-8959
▁보직	-8960
▁알레	-8961
▁천장	-8962
▁날아오	-8963
▁열정	-8964
▁아르바이트	-8965
러가	-8966
▁기차	-8967
▁화상	-8968
사와	-8969
▁남동생	-8970
▁nd	-8971
▁후쿠시마	-8972
▁프로스트	-8973
▁이경	-8974
▁평론	-8975
▁레귤	-8976
▁한꺼	-8977
▁박정희	-8978
▁한꺼번에	-8979
ㅋㅣ	-8980
▁ㅁㅗㅅㅈㅣ	-8981
▁브래	-8982
▁타우	-8983
▁오로치	-8984
▁발판	-8985
▁아유	-8986
▁그라운드	-8987
▁바둑	-8988
▁발명	-8989
▁입자	-8990
▁테리	-8991
▁산타	-8992
▁맹세	-8993
▁맞서	-8994
▁부속	-8995
▁사무실	-8996
▁일관	-8997
▁자키	-8998
▁접하	-8999
▁어드밴	-9000
마루	-9001
▁전법	-9002
▁스트리	-9003
▁천천히	-9004
▁소마	-9005
▁확신	-9006
▁112	-9007
▁ㅂㅔㄹ	-9008
▁공신	-9009
▁요격	-9010
▁일체	-9011
▁카카오	-9012
▁비리	-9013
▁ㅁㅏㄱㅎㅕ	-9014
yle	-9015
▁단역	-9016
II	-9017
▁ㅂㅐㄴ	-9018
워프	-9019
▁가히	-9020
▁카테	-9021
▁오렌지	-9022
ike	-9023
▁트래	-9024
▁레나	-9025
겨나	-9026
▁Man	-9027
atch	-9028
orn	-9029
▁ㅆㅣㄴ	-9030
▁리처드	-9031
▁이오리	-9032
▁너클	-9033
▁기리	-9034
▁Up	-9035
ㄹㅔ	-9036
▁재수	-9037
▁너머	-9038
▁소나	-9039
▁헬리	-9040
▁ㅁㅓㄱㅇㅕ	-9041
▁보편	-9042
▁로프	-9043
▁펭	-9044
▁아레나	-9045
▁툭	-9046
▁세일러	-9047
▁휴먼	-9048
▁상냥	-9049
▁보로	-9050
ence	-9051
▁테란	-9052
▁에디션	-9053
▁최상급	-9054
▁로스트	-9055
▁곤충	-9056
운동	-9057
리스타	-9058
▁마스코트	-9059
▁장벽	-9060
생활	-9061
▁정점	-9062
▁잡아내	-9063
다운	-9064
▁바이올	-9065
▁서울대	-9066
▁에메	-9067
▁케리	-9068
▁필름	-9069
▁모스크	-9070
▁ㅇㅓㅆㅇㅓㅆ	-9071
바르	-9072
▁네티즌	-9073
▁상무	-9074
직자	-9075
▁더럽	-9076
▁EC	-9077
▁빠져	-9078
▁천지	-9079
▁기동력	-9080
▁유격수	-9081
▁NO	-9082
키스탄	-9083
▁ㅌㅡㄴ	-9084
▁ㅍㅣㄴ	-9085
▁인접	-9086
키리	-9087
hen	-9088
▁국도	-9089
▁홋	-9090
▁연동	-9091
▁흉악	-9092
스크림	-9093
▁피자	-9094
▁억울	-9095
▁지혜	-9096
▁메구미	-9097
▁퀵	-9098
▁매주	-9099
▁극한	-9100
▁협정	-9101
▁클리셰	-9102
▁혁신	-9103
ens	-9104
▁서류	-9105
▁면제	-9106
▁시카고	-9107
▁레이싱	-9108
iver	-9109
▁저글	-9110
▁얼티	-9111
▁레귤러	-9112
▁Ed	-9113
▁인문	-9114
▁일명	-9115
now	-9116
▁밀레	-9117
▁1978	-9118
▁까마	-9119
▁노아	-9120
▁로크	-9121
▁지장	-9122
▁탄압	-9123
▁상주	-9124
▁루미	-9125
ph	-9126
▁미아	-9127
▁ㄴㅗㄴ	-9128
▁와타나베	-9129
▁선박	-9130
▁소득	-9131
▁용이	-9132
▁이순신	-9133
▁인피니티	-9134
▁회담	-9135
▁이영호	-9136
니코	-9137
▁베를린	-9138
▁도르	-9139
▁작위	-9140
▁ㄱㅕㄴ	-9141
타운	-9142
▁다시금	-9143
▁미노	-9144
▁키요	-9145
▁엉덩이	-9146
타이	-9147
▁마틴	-9148
▁히카루	-9149
▁신한	-9150
▁우루	-9151
▁청춘	-9152
▁강민	-9153
▁욕설	-9154
▁계수	-9155
▁손님	-9156
▁페스	-9157
▁아쿠아	-9158
▁입증	-9159
▁트윗	-9160
박스	-9161
▁팬티	-9162
▁USB	-9163
ㄷㅓㄴㅈㅣ	-9164
▁이빨	-9165
▁장남	-9166
▁GM	-9167
▁페이크	-9168
▁사회주의	-9169
▁ㅎㅐㅆㅇㅓ	-9170
▁So	-9171
▁솔저	-9172
▁지터	-9173
▁퍼펙트	-9174
▁탈취	-9175
▁사나	-9176
▁헝가리	-9177
▁섬광	-9178
▁정밀	-9179
▁옥상	-9180
▁백만	-9181
▁자아	-9182
▁수신	-9183
▁ㅅㅣㅂㅅㅣ	-9184
▁드워프	-9185
▁크롬	-9186
▁격려	-9187
▁아포	-9188
▁일컫	-9189
▁선거구	-9190
▁일곱	-9191
▁프레스	-9192
민주	-9193
▁나아가	-9194
pt	-9195
▁과시	-9196
▁일지	-9197
▁Mag	-9198
▁스틱	-9199
▁장본	-9200
ail	-9201
▁ㅆㅢ	-9202
▁발사기	-9203
▁스티브	-9204
▁트럼프	-9205
▁그레이드	-9206
구니	-9207
▁리가	-9208
▁배구	-9209
▁쯔	-9210
▁부패	-9211
▁점검	-9212
▁IT	-9213
ㅁㅎㅏㄴ	-9214
▁ㅅㅡㄴ	-9215
▁공격수	-9216
▁물리치	-9217
▁시호	-9218
▁저글링	-9219
▁에드워드	-9220
어나오	-9221
▁과언	-9222
▁엇	-9223
▁슬러그	-9224
▁학사	-9225
▁전송	-9226
ork	-9227
케이션	-9228
▁멘붕	-9229
▁궁합	-9230
▁연설	-9231
▁파운드	-9232
▁미성	-9233
▁소꿉친구	-9234
▁블럭	-9235
▁RE	-9236
ition	-9237
▁사방	-9238
▁재앙	-9239
ㄷㅡㄴㄷㅏ	-9240
▁Super	-9241
▁귀국	-9242
▁펑크	-9243
마리	-9244
▁치우	-9245
▁신곡	-9246
토니	-9247
▁이현	-9248
ㄲㅡㅁ	-9249
▁한정판	-9250
▁주사위	-9251
99	-9252
▁골프	-9253
▁녹화	-9254
체스터	-9255
▁OCG	-9256
▁학년도	-9257
▁ㅈㅏㄴ	-9258
▁RA	-9259
▁갑작	-9260
▁보우	-9261
▁공헌	-9262
▁흔들	-9263
디움	-9264
▁인명	-9265
▁임진	-9266
▁석유	-9267
▁up	-9268
▁장본인	-9269
▁시오	-9270
가루	-9271
덕션	-9272
▁테니스	-9273
▁오사	-9274
▁토큰	-9275
▁제치	-9276
▁맞먹	-9277
▁DJMAX	-9278
▁아지	-9279
스카	-9280
▁엔트리	-9281
▁절단	-9282
▁희생자	-9283
▁호무	-9284
▁BD	-9285
▁Fr	-9286
▁Ph	-9287
▁야망	-9288
▁pl	-9289
▁무비	-9290
▁테크닉	-9291
ㄷㅡㄹㅇㅕㅆ	-9292
▁퀴즈	-9293
바람	-9294
▁박성	-9295
▁봉사	-9296
▁충족	-9297
▁오만	-9298
▁도깨비	-9299
▁박명	-9300
▁히사	-9301
▁까다롭	-9302
▁햇	-9303
▁시간대	-9304
방송	-9305
▁ㄴㅗㅍㅇㅕ	-9306
▁자루	-9307
▁리부	-9308
▁주최	-9309
▁카오루	-9310
ㄴㅟㄴㄷㅏ	-9311
▁코레	-9312
▁샬	-9313
▁얌	-9314
▁웃기	-9315
▁루마	-9316
▁풍선	-9317
▁마당	-9318
▁TP	-9319
▁에일리	-9320
▁ㄷㅗㅇ	-9321
▁ㄸㅜㅀ	-9322
▁원한	-9323
▁억제	-9324
▁화신	-9325
페이스	-9326
세지	-9327
▁당초	-9328
▁유동	-9329
▁까지	-9330
볼루션	-9331
ㅁㅏㄹㄹㅗ	-9332
▁광물	-9333
▁네크로	-9334
▁스모	-9335
▁카인	-9336
▁환생	-9337
▁라이즈	-9338
▁프로그래	-9339
▁대학생	-9340
▁신관	-9341
▁질주	-9342
▁이대로	-9343
▁편의점	-9344
아치	-9345
▁자포	-9346
▁위시	-9347
inal	-9348
▁가설	-9349
▁저상	-9350
▁무식	-9351
끄럽	-9352
▁흥분	-9353
▁라이센스	-9354
▁감추	-9355
▁모의	-9356
▁제재	-9357
▁소재지	-9358
▁스칼	-9359
▁아리스	-9360
▁과일	-9361
서스	-9362
▁유즈	-9363
▁ㄱㅓㄴㄴㅔ	-9364
▁련	-9365
▁김승	-9366
▁벙커	-9367
▁스윙	-9368
▁찬양	-9369
▁무실	-9370
▁정성	-9371
▁반짝	-9372
▁플레임	-9373
▁조화	-9374
▁킴	-9375
▁씨앗	-9376
▁방심	-9377
▁이이	-9378
▁엣	-9379
▁경북	-9380
느리	-9381
수리	-9382
▁강전	-9383
▁리뉴	-9384
▁인벤	-9385
▁123	-9386
▁고자	-9387
▁대검	-9388
▁동성애	-9389
▁내기	-9390
▁제리	-9391
▁스콜	-9392
▁직행	-9393
▁그러면	-9394
usic	-9395
ble	-9396
▁목욕	-9397
▁기술력	-9398
▁김성근	-9399
▁ㄷㅓㄴㅈㅣㄴ	-9400
▁선회	-9401
ㄴㅡ	-9402
▁스타트	-9403
▁초록색	-9404
▁정반대	-9405
▁ㄴㅏㄹㄹㅣㄴㄷㅏ	-9406
▁SA	-9407
▁비단	-9408
▁씻	-9409
▁국토	-9410
▁쌓이	-9411
▁타키	-9412
▁보르	-9413
▁중기	-9414
모습	-9415
▁캘리	-9416
▁이호	-9417
▁ㅎㅟㅂ	-9418
▁Qu	-9419
▁ㅇㅣㄴㄷㅡㅅ	-9420
te	-9421
지능	-9422
▁반도	-9423
▁일러스트레이터	-9424
▁104	-9425
▁스마일	-9426
▁인공지능	-9427
▁치바	-9428
▁ㄱㅏㅈㅊㅝ	-9429
▁번지	-9430
▁코끼리	-9431
▁옴	-9432
▁일산	-9433
▁야마모토	-9434
▁Dream	-9435
▁멧	-9436
▁제니	-9437
▁롤러	-9438
▁시종	-9439
▁레버	-9440
▁프로덕션	-9441
▁교대	-9442
▁are	-9443
▁국방부	-9444
▁고우	-9445
▁도미	-9446
ㄹㅝㅆ	-9447
바리	-9448
▁급격히	-9449
▁1973	-9450
▁유아	-9451
▁재질	-9452
▁지루	-9453
▁평판	-9454
▁쥰	-9455
다드	-9456
▁일레븐	-9457
▁109	-9458
▁리츠	-9459
▁포크	-9460
▁문양	-9461
▁계략	-9462
▁이리저리	-9463
▁아랫	-9464
▁병과	-9465
▁잠들	-9466
▁나락	-9467
▁대명	-9468
▁맷집	-9469
▁분홍	-9470
▁원화	-9471
▁프롤	-9472
▁카제	-9473
▁발각	-9474
▁스코틀랜드	-9475
▁스타디움	-9476
▁소소	-9477
▁ㅁㅜㄴ	-9478
▁이윤	-9479
▁DPS	-9480
▁숙청	-9481
▁수중	-9482
▁케이크	-9483
▁의의	-9484
전사	-9485
▁칼라	-9486
▁차림	-9487
▁대면	-9488
▁세키	-9489
▁사이토	-9490
▁무자	-9491
▁ㅇㅏㄴㄱㅕ	-9492
▁동구	-9493
▁이쿠	-9494
▁중원	-9495
▁강릉	-9496
▁제너	-9497
▁오타쿠	-9498
▁135	-9499
▁완성도	-9500
▁이력	-9501
▁쥬얼	-9502
▁흉내	-9503
▁밀리언	-9504
▁히드라	-9505
▁ㅎㅡㅌ	-9506
사르	-9507
▁총장	-9508
▁발전소	-9509
▁진동	-9510
▁Mi	-9511
▁토마스	-9512
▁샘플	-9513
▁아무렇	-9514
▁강인	-9515
▁명시	-9516
▁집계	-9517
▁훔	-9518
▁ㅉㅣㄹㄹㅓ	-9519
▁ㅌㅡ	-9520
▁손꼽	-9521
▁앤드	-9522
▁게르	-9523
▁에버	-9524
▁트러	-9525
▁스토어	-9526
▁완화	-9527
▁중점	-9528
▁레슬러	-9529
▁무신	-9530
▁155	-9531
▁아름답	-9532
▁고인	-9533
▁상금	-9534
▁카토	-9535
기에	-9536
▁순천	-9537
▁여주인공	-9538
▁바이크	-9539
▁ㄲㅡㅌㄴㅏㄹ	-9540
IK	-9541
▁도대	-9542
▁친애	-9543
▁김두	-9544
▁굽	-9545
▁공교	-9546
▁ㅈㅏㅂㅎㅣㄴ	-9547
▁여장	-9548
▁관료	-9549
▁자율	-9550
▁과격	-9551
▁거꾸	-9552
▁학위	-9553
▁튀어나오	-9554
▁무궁	-9555
▁여태	-9556
▁라이드	-9557
▁피오	-9558
▁외야수	-9559
▁갱신	-9560
▁반경	-9561
anc	-9562
▁인도네시아	-9563
보기	-9564
▁가나	-9565
▁쏠	-9566
▁무늬	-9567
▁항공사	-9568
▁챔피언십	-9569
▁도배	-9570
▁완구	-9571
▁다케	-9572
▁킹덤	-9573
▁때려잡	-9574
▁침착	-9575
▁ㅁㅗㄹㅇㅏ	-9576
▁툰	-9577
태우	-9578
▁뚜렷	-9579
▁중견	-9580
▁난리	-9581
▁ㅅㅗㄱㅎㅐ	-9582
▁지오	-9583
ㅅㅕㅆ	-9584
히토	-9585
▁젝	-9586
▁관문	-9587
▁리볼	-9588
천사	-9589
▁울리	-9590
▁해태	-9591
▁AB	-9592
▁ㅁㅏㅈㅊㅜㄴ	-9593
▁악행	-9594
▁체코	-9595
▁갯	-9596
▁짝사랑	-9597
▁하이드	-9598
▁스페인어	-9599
uck	-9600
▁남한	-9601
▁휴게	-9602
▁발키리	-9603
▁국정	-9604
▁독보	-9605
▁이듬	-9606
▁단련	-9607
티니	-9608
▁사가	-9609
테이션	-9610
ㅇㄱㅣㄴ	-9611
▁각인	-9612
▁1200	-9613
IL	-9614
▁185	-9615
못미	-9616
▁지못미	-9617
TA	-9618
PER	-9619
▁퓨전	-9620
▁갸	-9621
▁태권	-9622
▁정전	-9623
▁조립	-9624
▁부가	-9625
▁이대	-9626
ise	-9627
▁go	-9628
▁불러	-9629
방울	-9630
▁ㅇㅘㅆㅇㅡ	-9631
ㅌㅕ	-9632
▁심히	-9633
▁명탐정	-9634
▁스탈린	-9635
▁wiki	-9636
▁강타	-9637
▁이틀	-9638
▁스파크	-9639
의자	-9640
▁MM	-9641
▁도스	-9642
▁뮌헨	-9643
의회	-9644
▁켄지	-9645
▁손잡이	-9646
▁아이즈	-9647
▁스로	-9648
▁몰아넣	-9649
▁휴대폰	-9650
▁천상	-9651
▁신주	-9652
▁Ver	-9653
▁UP	-9654
▁아타	-9655
▁사체	-9656
▁중구	-9657
▁거꾸로	-9658
▁1974	-9659
▁내외	-9660
▁방언	-9661
▁연기력	-9662
▁공산주의	-9663
ㅅㅐ	-9664
▁팍	-9665
▁민국	-9666
▁울음	-9667
▁무작위	-9668
갈리	-9669
▁지온	-9670
▁배리	-9671
ㄱㅅㅏㄹ	-9672
쿠스	-9673
▁달려들	-9674
텍스	-9675
▁AL	-9676
▁성지	-9677
▁멋지	-9678
▁피우	-9679
▁찾아내	-9680
▁하수인	-9681
▁iOS	-9682
▁강동	-9683
▁시안	-9684
▁교역	-9685
▁반성	-9686
▁중소	-9687
▁교도소	-9688
▁단자	-9689
▁모욕	-9690
▁HE	-9691
▁찰스	-9692
▁창세	-9693
▁부제	-9694
▁바인	-9695
▁썸	-9696
▁시네마	-9697
▁보강	-9698
▁세츠	-9699
▁예고편	-9700
▁둘러보	-9701
▁지크	-9702
▁나이츠	-9703
ung	-9704
▁실리	-9705
▁포니	-9706
▁JT	-9707
무이	-9708
▁기관포	-9709
▁DI	-9710
▁유니콘	-9711
▁초등학생	-9712
스티스	-9713
▁코노	-9714
▁라마	-9715
▁이계	-9716
▁좌측	-9717
▁기행	-9718
▁릴리스	-9719
리칸	-9720
▁극심	-9721
▁MG	-9722
▁tr	-9723
▁ㄷㅙㅆㅇㅡ	-9724
▁개판	-9725
▁냉장	-9726
▁구로	-9727
▁ㅇㅗㄹㄹㅣㄴㄷㅏ	-9728
르타	-9729
▁주석	-9730
백과	-9731
▁도대체	-9732
▁아폴	-9733
▁향후	-9734
▁사천왕	-9735
▁입사	-9736
▁장갑차	-9737
▁야마다	-9738
▁부채	-9739
▁ㄹㅗㄹ	-9740
▁분할	-9741
▁간파	-9742
▁도약	-9743
▁찬성	-9744
▁레슬링	-9745
▁ㅅㅓㄲㅇㅣㄴ	-9746
▁이듬해	-9747
▁성대	-9748
멘터리	-9749
▁뤼	-9750
▁엉뚱	-9751
▁미유키	-9752
▁패왕	-9753
vel	-9754
▁버블	-9755
▁공격기	-9756
▁종전	-9757
▁극악	-9758
oun	-9759
▁ㅉㅗㅊㄱㅕ	-9760
▁심정	-9761
▁필사	-9762
▁배급	-9763
▁보스턴	-9764
에른	-9765
▁들키	-9766
▁견디	-9767
▁폐선	-9768
▁CL	-9769
▁마징	-9770
▁마징가	-9771
▁가구	-9772
▁소통	-9773
▁격렬	-9774
▁노하	-9775
▁ㅁㅗㄹ	-9776
파이	-9777
▁노무	-9778
▁ㄴㅗㅎㅇㅕ	-9779
▁깽	-9780
▁앗	-9781
▁르노	-9782
11	-9783
▁신생	-9784
▁CR	-9785
▁107	-9786
▁테이프	-9787
▁훼손	-9788
▁내각	-9789
▁서머	-9790
그라	-9791
▁유메	-9792
▁채찍	-9793
▁동아시아	-9794
느님	-9795
oo	-9796
▁유능	-9797
▁as	-9798
▁깡패	-9799
▁은폐	-9800
▁Team	-9801
▁186	-9802
▁결과물	-9803
▁래퍼	-9804
▁플리	-9805
▁비참	-9806
▁벨기에	-9807
▁BB	-9808
에몽	-9809
▁장풍	-9810
▁눈앞	-9811
▁양대	-9812
▁그간	-9813
▁이니	-9814
▁주술	-9815
▁중공	-9816
▁하느님	-9817
▁반장	-9818
▁헥	-9819
▁할로	-9820
▁자산	-9821
▁잼	-9822
▁미판	-9823
▁빈약	-9824
▁신학	-9825
▁재벌	-9826
▁다큐멘터리	-9827
▁일리	-9828
▁와이번스	-9829
▁헤라	-9830
way	-9831
▁소비자	-9832
urn	-9833
보우	-9834
ㅅㅜㄹ	-9835
사스	-9836
▁119	-9837
▁ㄱㅓㅂㄴㅣ	-9838
▁불길	-9839
▁김병	-9840
▁레시	-9841
▁엠블	-9842
▁유스	-9843
▁all	-9844
▁욕망	-9845
▁브레스	-9846
▁지면	-9847
▁인텔	-9848
▁초과	-9849
▁왕족	-9850
▁ㅂㅜㄴ	-9851
▁눈동자	-9852
▁모던	-9853
사벽	-9854
▁넘사벽	-9855
▁급하	-9856
▁잎	-9857
▁모시	-9858
▁대등	-9859
▁얼티밋	-9860
▁원작자	-9861
▁Black	-9862
▁ㅂㅏㄹ	-9863
▁탐사	-9864
▁1975	-9865
▁모기	-9866
▁충고	-9867
▁중국인	-9868
▁no	-9869
구역	-9870
▁진짜로	-9871
▁나카무라	-9872
▁벅	-9873
▁116	-9874
과이	-9875
▁취재	-9876
▁오퍼	-9877
▁정형	-9878
은이	-9879
0000	-9880
▁파괴력	-9881
▁이념	-9882
▁헤일	-9883
▁산소	-9884
▁용산	-9885
▁필립	-9886
▁LTE	-9887
▁바이에른	-9888
▁인성	-9889
▁홍진호	-9890
▁조국	-9891
▁후대	-9892
▁신조	-9893
▁주유	-9894
gh	-9895
▁출고	-9896
▁챔스	-9897
세서리	-9898
▁망명	-9899
▁주입	-9900
▁스노우	-9901
▁ㅂㅔㄴ	-9902
▁리우스	-9903
▁이원	-9904
구나	-9905
▁주머니	-9906
▁상부	-9907
▁사지	-9908
▁냉동	-9909
▁아울	-9910
▁Col	-9911
▁집사	-9912
더링	-9913
▁숙련도	-9914
▁나인	-9915
▁187	-9916
▁문재인	-9917
▁사나이	-9918
▁버거	-9919
▁식스	-9920
▁케리건	-9921
ale	-9922
▁근로	-9923
▁델타	-9924
진영	-9925
노스케	-9926
▁낮추	-9927
▁math	-9928
FL	-9929
▁소령	-9930
▁시범	-9931
▁일례	-9932
▁망상	-9933
▁쓸데없이	-9934
▁라가	-9935
▁유라	-9936
▁대피	-9937
▁추후	-9938
▁저항력	-9939
▁재즈	-9940
▁do	-9941
▁Night	-9942
▁수립	-9943
▁청룡	-9944
▁ㅈㅓㄱㅎㅣㄴ	-9945
▁날아다니	-9946
▁충격파	-9947
티어	-9948
▁메테	-9949
ject	-9950
▁순정	-9951
▁유치원	-9952
▁혼동	-9953
속기	-9954
▁종착	-9955
▁MO	-9956
▁성사	-9957
▁남학생	-9958
▁(	-9959
▁ERA	-9960
▁비자	-9961
시티	-9962
▁에코	-9963
▁금강	-9964
▁종로	-9965
▁FPS	-9966
▁경상북도	-9967
ier	-9968
▁주교	-9969
중간	-9970
▁요코하마	-9971
▁리플렉	-9972
▁뺨	-9973
지않	-9974
▁제의	-9975
▁퇴역	-9976
▁HS	-9977
▁구호	-9978
▁병행	-9979
▁투니	-9980
▁통틀어	-9981
ㅅㅣㄹ	-9982
▁Type	-9983
▁말년	-9984
▁트러블	-9985
▁아처	-9986
▁협조	-9987
ult	-9988
▁어벤져	-9989
▁도사	-9990
▁동사	-9991
▁떠돌	-9992
▁절정	-9993
▁고래	-9994
▁군데	-9995
▁키드	-9996
▁그루	-9997
▁앨런	-9998
▁피난	-9999
▁주저	-10000
▁한양	-10001
▁not	-10002
▁니코니코	-10003
▁대목	-10004
▁750	-10005
▁리볼버	-10006
▁어설	-10007
▁다투	-10008
▁입원	-10009
▁직위	-10010
▁다치	-10011
▁마가	-10012
▁저스티스	-10013
▁플라스틱	-10014
▁독백	-10015
▁영등	-10016
▁TS	-10017
▁부시	-10018
▁해고	-10019
▁마작	-10020
들목	-10021
▁욱	-10022
키스	-10023
▁~"	-10024
▁122	-10025
▁고립	-10026
▁나들목	-10027
▁Girl	-10028
ㄷㅓ	-10029
▁연전	-10030
▁절벽	-10031
▁중년	-10032
▁욕심	-10033
▁투고	-10034
▁중심지	-10035
▁용암	-10036
▁물러나	-10037
▁중화민국	-10038
▁시어	-10039
ㅅㄱㅏㄹ	-10040
메다	-10041
▁질풍	-10042
▁ㅈㅏㅂㅇㅏ	-10043
▁소서	-10044
▁포도	-10045
▁게리온	-10046
▁만지	-10047
▁113	-10048
드립	-10049
▁경사	-10050
▁연간	-10051
DD	-10052
▁재배	-10053
▁급속	-10054
▁동계	-10055
▁적립	-10056
▁약칭	-10057
▁평택	-10058
▁레인보우	-10059
돌프	-10060
▁국기	-10061
▁ㄹㅏㄱ	-10062
▁오른팔	-10063
ㄷㅎㅣㄴ	-10064
▁퍼시	-10065
▁왕가	-10066
니발	-10067
▁아인	-10068
▁이용자	-10069
▁노블	-10070
▁밀어내	-10071
▁홋카이도	-10072
▁카사	-10073
▁쿠바	-10074
▁카즈야	-10075
▁두목	-10076
▁빙의	-10077
▁진단	-10078
▁집필	-10079
▁초청	-10080
▁말씀	-10081
▁1977	-10082
▁미코토	-10083
슬링	-10084
▁손목	-10085
▁까마귀	-10086
▁유카리	-10087
▁beat	-10088
▁병장	-10089
▁불문	-10090
ose	-10091
▁격투기	-10092
▁내역	-10093
▁Gam	-10094
▁사투리	-10095
▁누스	-10096
▁방공	-10097
▁이만	-10098
▁제자리	-10099
ㅅㅏㄹ	-10100
▁144	-10101
▁1976	-10102
▁렀	-10103
▁사탄	-10104
▁섭취	-10105
▁강탈	-10106
▁미식	-10107
▁완벽히	-10108
▁실로	-10109
▁희대	-10110
▁본질	-10111
▁인체	-10112
▁포착	-10113
▁합계	-10114
▁450	-10115
▁모자라	-10116
▁꼼수	-10117
▁떨어뜨리	-10118
▁일각	-10119
▁스나	-10120
▁헐크	-10121
상가	-10122
▁대교	-10123
▁옵티	-10124
▁전수	-10125
▁Con	-10126
▁캇	-10127
▁4000	-10128
▁불참	-10129
▁야전	-10130
▁존슨	-10131
ox	-10132
자치	-10133
▁교향	-10134
▁승패	-10135
▁하후	-10136
▁크롤	-10137
▁공짜	-10138
▁정조	-10139
▁저격수	-10140
▁한나라	-10141
▁ㅂㅏㄱㅎㅕ	-10142
▁지극	-10143
▁두루	-10144
▁조던	-10145
▁인플	-10146
GA	-10147
▁한나라당	-10148
▁뮤지션	-10149
▁브레이브	-10150
▁무실점	-10151
ㅅㅓㄴㄷㅏ	-10152
▁딥	-10153
▁차장	-10154
▁베이비	-10155
▁ㄴㅏㄹㄹㅕㅆ	-10156
▁Max	-10157
▁Do	-10158
▁미트	-10159
▁히로시마	-10160
▁안젤	-10161
▁공명	-10162
▁동상	-10163
▁민중	-10164
▁염두	-10165
able	-10166
▁점심	-10167
▁탈환	-10168
▁320	-10169
무르	-10170
뮤직	-10171
ㄱㅇㅕ	-10172
▁하지	-10173
▁숭배	-10174
▁무지개	-10175
▁일조	-10176
▁호구	-10177
▁ne	-10178
▁훈훈	-10179
▁빼앗기	-10180
▁팜	-10181
성이	-10182
▁비키	-10183
▁토오	-10184
▁래스터	-10185
▁ㄷㅜㄴㄷㅏ	-10186
네이터	-10187
▁Op	-10188
▁의정부	-10189
▁MSL	-10190
▁ㅇㅣㄹㄲㅏ	-10191
▁ㅁㅏㄴㄴㅏㄴㄷㅏ	-10192
ㅈㅣㄹㄹㅓ	-10193
▁로렌	-10194
▁핑계	-10195
▁부산광역시	-10196
터스	-10197
ron	-10198
▁도마	-10199
▁검토	-10200
▁하행	-10201
▁행진	-10202
▁도검	-10203
▁서치	-10204
▁리터	-10205
▁ㅇㅣㅂㅎㅣㄴㄷㅏ	-10206
▁이태	-10207
▁키노	-10208
very	-10209
▁EV	-10210
▁ㅆㅗㄹ	-10211
ign	-10212
▁리셋	-10213
▁오딘	-10214
▁속편	-10215
▁동인지	-10216
▁철갑탄	-10217
▁단총	-10218
▁152	-10219
▁퉁	-10220
▁제인	-10221
int	-10222
▁누이	-10223
▁위쪽	-10224
▁패미	-10225
▁제발	-10226
▁틀리	-10227
▁김광	-10228
▁OF	-10229
▁대인배	-10230
▁기원전	-10231
▁교차로	-10232
▁145	-10233
▁립스	-10234
▁패트	-10235
▁사퇴	-10236
▁상행	-10237
▁터뜨리	-10238
▁주식회사	-10239
PA	-10240
▁처녀	-10241
▁세례	-10242
▁계곡	-10243
▁아랑	-10244
▁ㅇㅓㄺ	-10245
ㄲㅣㄴㄷㅏ	-10246
▁평점	-10247
▁사내	-10248
▁스톡	-10249
▁동호	-10250
▁ㅅㅣㄹㄹㅕ	-10251
▁경지	-10252
▁ㄲㅡㄴ	-10253
▁배신자	-10254
▁벌써	-10255
▁월간	-10256
▁후쿠오카	-10257
▁BC	-10258
▁원자력	-10259
▁측근	-10260
▁제주도	-10261
▁자켓	-10262
▁액체	-10263
EL	-10264
큘라	-10265
태자	-10266
▁회관	-10267
▁냉장고	-10268
▁베이징	-10269
▁각국	-10270
▁화약	-10271
고사	-10272
▁도라에몽	-10273
▁삿	-10274
▁사직	-10275
▁신세계	-10276
▁신칸	-10277
▁응급	-10278
카미	-10279
▁일품	-10280
▁앞면	-10281
▁데미	-10282
▁텔레포트	-10283
▁콰	-10284
사고	-10285
▁맹독	-10286
▁조교	-10287
▁에일리언	-10288
▁사일	-10289
▁김전	-10290
▁사물	-10291
▁남양	-10292
▁내뱉	-10293
▁쿠르	-10294
▁1972	-10295
▁황혼	-10296
▁전도	-10297
▁패닉	-10298
퍼드	-10299
▁우지	-10300
▁레이너	-10301
ㄸㅓㄹㅇㅓ	-10302
▁ㄴㅘㅆㄷㅏ	-10303
▁팰	-10304
▁신칸센	-10305
▁참으로	-10306
▁초필	-10307
▁테러리	-10308
▁태풍	-10309
▁아이디	-10310
미터	-10311
▁베어	-10312
▁사소	-10313
▁마초	-10314
▁시조	-10315
▁수하	-10316
▁금요일	-10317
▁토가	-10318
▁물약	-10319
▁토비	-10320
▁궤적	-10321
▁솔직히	-10322
▁KTX	-10323
▁타구	-10324
▁청나라	-10325
▁수감	-10326
타니	-10327
▁빠져나가	-10328
▁랜서	-10329
▁ㄴㅏㄹㄹㅣㄴ	-10330
▁노골	-10331
▁토막	-10332
▁시초	-10333
▁남미	-10334
▁ㅇㅜㅁㅈㅣㄱㅇㅕ	-10335
▁콧	-10336
▁페르시아	-10337
ild	-10338
▁인사이드	-10339
닐라	-10340
▁메디	-10341
▁법사	-10342
▁키미	-10343
▁ㅇㅗㄹㅂㅏ	-10344
▁210	-10345
▁연이	-10346
▁김전일	-10347
▁ㄲㅏㄹㄹㅕ	-10348
ㄷㅣㄹ	-10349
▁거스	-10350
▁ㅍㅕㄴㅎㅏㄴ	-10351
▁김구	-10352
▁더미	-10353
▁총사	-10354
▁투사	-10355
▁밭	-10356
▁비비	-10357
15	-10358
▁더구나	-10359
▁부딪	-10360
▁정우	-10361
▁판권	-10362
▁ㄱㅓㄹㄹㅣㄹ	-10363
iel	-10364
▁아슬	-10365
▁La	-10366
▁PSP	-10367
▁마주치	-10368
▁초점	-10369
▁주파	-10370
▁{{{#	-10371
▁대변	-10372
ㅌㅐ	-10373
ㅁㅓㄴ	-10374
▁BJ	-10375
▁일환	-10376
▁서태	-10377
▁브루스	-10378
박이	-10379
퀘어	-10380
▁Gre	-10381
드로	-10382
▁설마	-10383
▁영화제	-10384
▁음향	-10385
▁카일	-10386
▁부동산	-10387
▁Am	-10388
▁사탕	-10389
▁장동	-10390
▁두려움	-10391
▁볼드	-10392
▁해상도	-10393
▁스매	-10394
쳐지	-10395
▁스바	-10396
▁윤리	-10397
▁코즈	-10398
▁ㅎㅘ	-10399
▁줄기	-10400
▁태생	-10401
▁연소	-10402
▁격기	-10403
▁김지	-10404
▁상의	-10405
▁관광객	-10406
▁ㅈㅜㄱㅇㅣㄴㄷㅏ	-10407
▁적이	-10408
▁등재	-10409
▁서울시	-10410
랄드	-10411
▁이점	-10412
▁저승	-10413
▁타리	-10414
▁라틴어	-10415
▁프랜차	-10416
▁나레이션	-10417
▁껍질	-10418
▁피지컬	-10419
▁다니엘	-10420
▁객관	-10421
▁손꼽히	-10422
▁프랭크	-10423
하여	-10424
▁꿈꾸	-10425
▁사극	-10426
▁깨알	-10427
▁캘리포	-10428
▁정준	-10429
▁안드로	-10430
▁맑	-10431
▁보트	-10432
▁심야	-10433
▁텍사스	-10434
▁감금	-10435
▁랜스	-10436
▁접수	-10437
▁프랜차이즈	-10438
▁과금	-10439
▁바닷	-10440
▁안동	-10441
▁럭키	-10442
▁슬램	-10443
ANC	-10444
▁어퍼	-10445
▁메이트	-10446
▁알라	-10447
▁연금술사	-10448
▁탁월	-10449
ㅎㅣㅁ	-10450
▁본의	-10451
ㅊㅏㄴ	-10452
▁핀란드	-10453
▁왕후	-10454
▁알아내	-10455
▁박명수	-10456
▁파밍	-10457
▁다이스케	-10458
컨드	-10459
▁선원	-10460
▁어서	-10461
▁우두	-10462
▁ㄴㅏㅈㅊ	-10463
▁~!	-10464
▁리키	-10465
▁디스플레이	-10466
▁끊기	-10467
▁타스	-10468
▁세컨드	-10469
▁BM	-10470
▁헷	-10471
▁주황	-10472
▁우미	-10473
▁ㅂㅜㄹㄹㅣㄹ	-10474
▁비기	-10475
▁환호	-10476
▁약체	-10477
▁컬렉션	-10478
▁암컷	-10479
▁에필	-10480
▁에필로그	-10481
부인	-10482
▁사우스	-10483
▁휩	-10484
▁무색	-10485
ㄸㅏ	-10486
▁치마	-10487
ae	-10488
▁바이킹	-10489
▁목동	-10490
▁시뮬레이션	-10491
▁보복	-10492
▁이별	-10493
▁중급	-10494
뻐하	-10495
▁스팅	-10496
▁기뻐하	-10497
▁명나라	-10498
▁전학	-10499
▁캘리포니아	-10500
▁주한	-10501
▁고질	-10502
▁발발	-10503
▁165	-10504
▁놀리	-10505
▁별칭	-10506
▁DR	-10507
▁공국	-10508
▁아쉬움	-10509
▁히나타	-10510
▁옵티머스	-10511
▁팝픈	-10512
▁팝픈뮤직	-10513
▁GHz	-10514
▁개그맨	-10515
▁무단	-10516
▁보디	-10517
▁골치	-10518
▁브레인	-10519
▁스택	-10520
▁아테나	-10521
▁Wii	-10522
▁잔류	-10523
▁탄막	-10524
▁어린아이	-10525
▁섹스	-10526
▁내보내	-10527
▁feat	-10528
▁타카시	-10529
▁ㅂㅏㄱㅅㅏㄹ	-10530
▁외관	-10531
▁장시	-10532
▁노무현	-10533
▁십자가	-10534
▁강습	-10535
▁배후	-10536
▁지미	-10537
▁ㅅㅡㄹㅍㅡㄴ	-10538
▁능숙	-10539
▁슬슬	-10540
▁카구라	-10541
▁구청	-10542
▁강점기	-10543
▁사슬	-10544
▁조르	-10545
▁카이토	-10546
AND	-10547
▁조준경	-10548
▁마수	-10549
▁마의	-10550
▁노르웨이	-10551
▁경제학	-10552
▁아메리칸	-10553
ANI	-10554
▁마켓	-10555
▁시흥	-10556
▁요우	-10557
▁CN	-10558
▁청구	-10559
▁내면	-10560
▁저자	-10561
▁바나나	-10562
ㄹㅡㄹㄲㅏ	-10563
▁호응	-10564
교사	-10565
▁오리진	-10566
ㄲㅓ	-10567
▁혼인	-10568
▁유해	-10569
▁ㅋㅕ	-10570
▁데려가	-10571
▁무수	-10572
▁방침	-10573
▁1969	-10574
▁서바이벌	-10575
aby	-10576
소총	-10577
▁개미	-10578
▁신상	-10579
▁월등	-10580
▁평론가	-10581
▁Time	-10582
▁UC	-10583
▁ㄷㅡㄹㄹㅣㄴㄷㅏ	-10584
레이크	-10585
▁네이션	-10586
▁달라	-10587
▁..?	-10588
▁rd	-10589
보라	-10590
▁스네이크	-10591
▁술집	-10592
▁스토커	-10593
메라	-10594
▁화석	-10595
매니아	-10596
▁좌익	-10597
▁파우	-10598
▁나란히	-10599
▁토오루	-10600
▁바론	-10601
▁ㅁㅏㄹㄹㅕ	-10602
ull	-10603
gin	-10604
▁편견	-10605
▁고종	-10606
▁교정	-10607
▁점멸	-10608
▁음색	-10609
▁무슬	-10610
티지	-10611
ical	-10612
▁무사시	-10613
▁체격	-10614
▁1971	-10615
▁자작	-10616
▁전두	-10617
▁드라큘라	-10618
▁마지	-10619
▁수컷	-10620
▁}}	-10621
▁문법	-10622
STER	-10623
▁10000	-10624
▁모어	-10625
▁투신	-10626
앙스	-10627
▁필두	-10628
..	-10629
나리	-10630
▁캔디	-10631
▁훔치	-10632
▁GN	-10633
▁계절	-10634
▁선인	-10635
▁ㅅㅣㅁㅎㅐㅆ	-10636
▁격퇴	-10637
▁중후	-10638
▁질환	-10639
▁퓨처	-10640
▁뚝	-10641
맥스	-10642
▁직격	-10643
총장	-10644
▁풍기	-10645
▁드리블	-10646
▁로지	-10647
▁본가	-10648
▁인트	-10649
▁협동	-10650
▁MHz	-10651
▁from	-10652
▁관절	-10653
▁댐	-10654
ㅋㅓ	-10655
▁마저	-10656
▁유코	-10657
▁평등	-10658
▁단의	-10659
▁신념	-10660
▁ㅎㅡㄴㄷㅡㄹ	-10661
▁응원가	-10662
레일	-10663
▁머물	-10664
▁순간이동	-10665
▁방울	-10666
▁엣지	-10667
▁라비	-10668
▁타치바나	-10669
▁후루	-10670
▁모스크바	-10671
▁펭귄	-10672
▁최하	-10673
▁주차장	-10674
▁반론	-10675
▁궁수	-10676
▁인구수	-10677
▁무슬림	-10678
▁덴마크	-10679
▁컨디션	-10680
철수	-10681
▁뉘앙스	-10682
▁늪	-10683
▁비로	-10684
▁자부	-10685
▁얹	-10686
▁가해	-10687
▁멸종	-10688
▁정서	-10689
▁강아지	-10690
▁빙결	-10691
▁두뇌	-10692
▁미도리	-10693
▁레기	-10694
빨리	-10695
oul	-10696
▁마르코	-10697
▁마신	-10698
▁주공	-10699
베트	-10700
▁BEM	-10701
▁테레	-10702
▁일본식	-10703
▁아카리	-10704
▁부관	-10705
▁상장	-10706
▁종말	-10707
▁관계없이	-10708
콥터	-10709
▁조수	-10710
소수	-10711
▁천문	-10712
공사	-10713
▁빈번	-10714
▁KB	-10715
▁센트럴	-10716
▁테러리스트	-10717
▁생태	-10718
▁김주	-10719
▁양심	-10720
▁ㄷㅏㄹㄹㅏㅆ	-10721
▁차분	-10722
▁가혹	-10723
ㄹㅡㅁㅇㅏ	-10724
▁오키나	-10725
▁위키백과	-10726
▁반란군	-10727
▁유고	-10728
▁에메랄드	-10729
▁동등	-10730
플렉스	-10731
▁헤드샷	-10732
▁때로	-10733
▁현황	-10734
▁기울	-10735
▁말레이	-10736
▁스파이크	-10737
▁징계	-10738
▁프로토타입	-10739
▁목포	-10740
▁DX	-10741
▁분포	-10742
▁NEW	-10743
▁합치	-10744
▁성숙	-10745
▁제조사	-10746
▁Gu	-10747
▁벚	-10748
▁AFC	-10749
▁Gl	-10750
▁상어	-10751
▁스케줄	-10752
▁슬라이드	-10753
▁ㄲㅗㅂㅎㅣㄴㄷㅏ	-10754
천군	-10755
▁우투	-10756
▁타당	-10757
▁아르카	-10758
▁HARD	-10759
▁멋있	-10760
▁미모	-10761
▁수령	-10762
▁혼다	-10763
▁JTBC	-10764
▁파문	-10765
▁아마존	-10766
▁꼴찌	-10767
▁카렌	-10768
▁하라	-10769
▁서명	-10770
▁ㅅㅣㄴㄷㅏ	-10771
바스	-10772
▁영등포	-10773
▁솜씨	-10774
▁웨인	-10775
▁유유	-10776
▁ATK	-10777
▁ㅡ	-10778
▁발차기	-10779
▁콘스탄	-10780
▁유진	-10781
레슬링	-10782
ㅁㅏㄹㄹㅕ	-10783
tern	-10784
▁프롤로그	-10785
▁샤아	-10786
▁Ro	-10787
재기	-10788
▁대쉬	-10789
▁수여	-10790
▁숙소	-10791
▁국산	-10792
▁숙주	-10793
▁유마	-10794
▁스바루	-10795
▁샹	-10796
▁신병	-10797
▁확고	-10798
▁벨라	-10799
▁이방	-10800
▁흑마	-10801
▁라우	-10802
▁복용	-10803
▁TCG	-10804
▁ㄱㅕㅂ	-10805
▁ㄱㅜㄴㅇㅛ	-10806
▁프로레슬링	-10807
▁내세우	-10808
▁고맙	-10809
▁극우	-10810
▁나사	-10811
▁레오나	-10812
▁수수료	-10813
▁워낙에	-10814
ㄴㅕㅇ	-10815
▁하드웨어	-10816
▁폐허	-10817
▁new	-10818
▁이어서	-10819
TC	-10820
▁로열	-10821
▁리부트	-10822
▁고음	-10823
▁네스	-10824
▁매지	-10825
▁별자리	-10826
ㄷㅗㄹㄹㅕ	-10827
▁몹시	-10828
▁케로	-10829
idth	-10830
슬리	-10831
▁모함	-10832
▁맥락	-10833
▁ㅁㅓㅁㅊㅝ	-10834
▁근성	-10835
▁발톱	-10836
▁ㅎㅡㅌㅇㅓ	-10837
▁에그	-10838
▁예방	-10839
▁카테고리	-10840
▁하와	-10841
▁메세지	-10842
▁미끼	-10843
▁Co	-10844
gr	-10845
▁궁전	-10846
▁구제	-10847
▁미숙	-10848
▁보행	-10849
▁패드	-10850
▁합법	-10851
▁ㅂㅜㄹㄹㅕ	-10852
▁단말	-10853
▁에도	-10854
▁회계	-10855
▁가해자	-10856
▁EU	-10857
▁ㅆㅗㄴ	-10858
▁ㅁㅏㅈㅊㅜㄹ	-10859
▁cl	-10860
▁관직	-10861
▁헬리콥터	-10862
▁BEMANI	-10863
▁마마	-10864
▁가의	-10865
▁응시	-10866
▁상대식	-10867
▁체형	-10868
▁간호	-10869
▁ㅁㅏㅌㄱㅕ	-10870
▁믿음	-10871
▁콕	-10872
▁군림	-10873
▁우편	-10874
▁시가	-10875
▁집합	-10876
▁파손	-10877
▁고발	-10878
▁섬멸	-10879
▁쟁이	-10880
플러스	-10881
▁모양새	-10882
▁동체	-10883
▁외래	-10884
▁드릴	-10885
▁로컬	-10886
▁실장	-10887
▁분배	-10888
▁이광	-10889
레이트	-10890
▁Mr	-10891
▁노비	-10892
▁미스트	-10893
▁ㄷㅝ	-10894
▁그랜	-10895
시스코	-10896
ㅂㅎㅣㄴ	-10897
▁샤워	-10898
▁파격	-10899
▁풍경	-10900
▁선봉	-10901
▁천마	-10902
▁ㄱㅓㄴㄷㅡ	-10903
▁유신	-10904
▁미즈키	-10905
▁러시아어	-10906
▁할로윈	-10907
▁기법	-10908
▁지붕	-10909
▁전염	-10910
▁코지	-10911
▁수성	-10912
▁오케스트라	-10913
▁밧	-10914
app	-10915
▁생선	-10916
ㅉㅐㅆ	-10917
▁피카츄	-10918
▁정답	-10919
▁저기	-10920
▁ㄲㅏㄹ	-10921
▁기피	-10922
▁난민	-10923
ough	-10924
▁경상남도	-10925
▁연의	-10926
▁Ser	-10927
▁도시락	-10928
▁IP	-10929
▁출제	-10930
▁브론	-10931
13	-10932
어버리	-10933
ERO	-10934
▁사르	-10935
▁에바	-10936
교통	-10937
메어	-10938
▁ㅇㅝㄴㅎㅐㅆ	-10939
▁유방	-10940
▁이세	-10941
▁중도	-10942
▁연고지	-10943
▁원장	-10944
▁환수	-10945
▁푸르	-10946
▁단서	-10947
▁유정	-10948
▁직속	-10949
▁IV	-10950
▁뛰어들	-10951
대교	-10952
▁청사	-10953
지오	-10954
스럽	-10955
▁캐스트	-10956
▁하이라이트	-10957
▁Sk	-10958
▁감싸	-10959
eel	-10960
▁기함	-10961
▁루루	-10962
▁소집	-10963
▁크라운	-10964
▁114	-10965
▁스트로	-10966
▁액셀	-10967
▁다가가	-10968
▁제우스	-10969
▁유선	-10970
▁후면	-10971
▁UM	-10972
▁조력	-10973
▁ㄴㅓㅁㄱㅕㅆ	-10974
▁캐슬	-10975
▁오디오	-10976
▁LE	-10977
▁격침	-10978
▁인쇄	-10979
▁가창	-10980
▁농민	-10981
▁뒤쪽	-10982
▁제사	-10983
▁width	-10984
▁내뿜	-10985
▁오쿠	-10986
▁can	-10987
▁노래방	-10988
▁나이트메어	-10989
▁배송	-10990
▁성명	-10991
▁스쿼	-10992
▁랙	-10993
▁창립	-10994
▁다저스	-10995
▁소노	-10996
▁한층	-10997
글라스	-10998
▁CE	-10999
▁가미	-11000
▁미사키	-11001
현우	-11002
▁부류	-11003
▁ㄷㅓㅁ	-11004
▁장례식	-11005
▁NT	-11006
▁제작비	-11007
퍼니	-11008
▁AF	-11009
▁개교	-11010
▁박쥐	-11011
▁Heart	-11012
▁성비	-11013
▁이에	-11014
▁부사	-11015
▁Dark	-11016
▁하이브리	-11017
▁쓰러트리	-11018
▁ㅁㅝㄴㅈㅣ	-11019
▁하이브리드	-11020
▁컴백	-11021
어들이	-11022
▁닥치	-11023
▁차용	-11024
me	-11025
▁명곡	-11026
▁이인	-11027
▁추모	-11028
▁Sch	-11029
▁츠바사	-11030
▁키사	-11031
▁ㅎㅗ	-11032
▁거품	-11033
▁걸음	-11034
▁Car	-11035
▁ㅆㅓㄴ	-11036
▁무선	-11037
▁수시로	-11038
▁뒷면	-11039
▁츠나	-11040
ll	-11041
통수	-11042
▁일삼	-11043
▁해변	-11044
▁레바	-11045
▁응답	-11046
▁통수	-11047
▁드로	-11048
▁오바	-11049
▁파이프	-11050
▁불쾌	-11051
▁히데요시	-11052
처럼	-11053
▁대니	-11054
▁앞뒤	-11055
▁안토니	-11056
와라	-11057
▁지배자	-11058
전트	-11059
▁상시	-11060
▁ㅇㅐ	-11061
▁낙선	-11062
활약	-11063
▁방호	-11064
▁페인	-11065
▁ㅁㅜㄹㅇㅓ	-11066
ㅌㅓㄴ	-11067
▁상쇄	-11068
▁자각	-11069
▁홈즈	-11070
▁길거리	-11071
려나	-11072
▁ㅂㅓㄹㅇㅕ	-11073
▁ㅅㅏㅇㅎㅏㄴ	-11074
▁버릇	-11075
▁알렉산드	-11076
ye	-11077
▁전례	-11078
▁하의	-11079
▁레이트	-11080
▁ㅁㅣㄹㅇㅓ	-11081
▁괴상	-11082
▁난감	-11083
▁불화	-11084
▁브릿	-11085
▁명명	-11086
▁연세대	-11087
▁오비	-11088
▁주의자	-11089
소문	-11090
▁가브리	-11091
▁결의	-11092
▁뽑아내	-11093
▁리프트	-11094
ution	-11095
▁땀	-11096
▁이노우	-11097
저것	-11098
▁이것저것	-11099
▁가마	-11100
▁타다	-11101
▁로브	-11102
▁블랙홀	-11103
▁놔	-11104
▁PK	-11105
▁패스트	-11106
지사	-11107
▁그제	-11108
▁말아먹	-11109
▁보고서	-11110
▁보루	-11111
▁코요	-11112
츠카	-11113
▁로저	-11114
쌔신	-11115
▁사각	-11116
▁어쌔신	-11117
▁Em	-11118
▁ㄷㅣ	-11119
▁조항	-11120
▁즐겁	-11121
▁중학생	-11122
줌마	-11123
▁꾸미	-11124
▁손톱	-11125
▁UFC	-11126
▁ㅅㅡㅂㅎㅏㄴ	-11127
▁부친	-11128
▁깃털	-11129
▁연회	-11130
▁클라우드	-11131
▁}}}	-11132
바시	-11133
▁튜닝	-11134
▁내구력	-11135
무게	-11136
▁몸무게	-11137
▁아줌마	-11138
▁슈터	-11139
▁윈터	-11140
▁간선	-11141
저드	-11142
▁노트북	-11143
▁교관	-11144
▁배리어	-11145
▁카이사르	-11146
ee	-11147
▁천주교	-11148
▁Is	-11149
▁커먼	-11150
▁하시	-11151
▁하여금	-11152
▁악령	-11153
▁원흉	-11154
▁BT	-11155
▁폴리스	-11156
▁ㅇㅕㅆㅇㅡㅁ	-11157
▁기이	-11158
▁벌금	-11159
▁아이작	-11160
공화	-11161
▁Bat	-11162
▁공존	-11163
▁제이슨	-11164
▁콜로니	-11165
▁this	-11166
oh	-11167
▁강서	-11168
▁키무라	-11169
▁투성이	-11170
▁1968	-11171
▁ㅁㅐㄴ	-11172
ㅇㅟㄴ	-11173
보그	-11174
▁성역	-11175
▁지각	-11176
▁지성	-11177
▁산탄총	-11178
▁섹시	-11179
▁프로리그	-11180
▁혹평	-11181
▁전광	-11182
ings	-11183
▁강세	-11184
▁발탁	-11185
▁아비	-11186
▁민병	-11187
▁김두한	-11188
자재	-11189
▁원망	-11190
▁줄줄	-11191
▁포대	-11192
▁김대중	-11193
▁마모루	-11194
▁SL	-11195
▁네코	-11196
▁미호	-11197
▁시에	-11198
▁뚜껑	-11199
▁비타	-11200
▁공영	-11201
▁니나	-11202
▁교양	-11203
▁아이폰	-11204
▁여배우	-11205
▁플레어	-11206
reak	-11207
▁홈경기	-11208
▁문신	-11209
▁한강	-11210
▁컴퍼니	-11211
▁괴력	-11212
▁뒤통수	-11213
▁배우자	-11214
▁발현	-11215
풀이	-11216
▁코타로	-11217
▁심화	-11218
▁로라	-11219
▁ㄱㅓㄴㄷㅏ	-11220
▁로비	-11221
▁일일이	-11222
▁자주포	-11223
▁냅	-11224
듈럼	-11225
▁라프	-11226
▁시궁	-11227
▁주가	-11228
▁발렌타인	-11229
▁사범	-11230
▁상공	-11231
▁라임	-11232
▁오시	-11233
▁시스터	-11234
▁초상화	-11235
▁동북	-11236
▁미들	-11237
▁깽판	-11238
▁북아	-11239
▁오프라인	-11240
▁코바야시	-11241
▁보잉	-11242
▁무림	-11243
▁듀크	-11244
▁선포	-11245
▁면접	-11246
▁적성	-11247
▁하우	-11248
▁핸들	-11249
▁EBS	-11250
▁가라앉	-11251
▁행방불명	-11252
▁리자	-11253
▁센티	-11254
▁재활	-11255
▁전라남도	-11256
▁감성	-11257
▁뒤지	-11258
▁빅토리아	-11259
▁TO	-11260
▁고토	-11261
▁우가	-11262
▁타케시	-11263
▁방화	-11264
▁폭로	-11265
▁저서	-11266
▁포맷	-11267
▁ㅃㅗㅂㅇㅏ	-11268
단지	-11269
▁달라붙	-11270
▁기합	-11271
icro	-11272
▁캐리어	-11273
▁ㅇㅝㄴㅎㅏㄴㄷㅏ	-11274
▁꽁	-11275
▁총독	-11276
두사	-11277
▁Su	-11278
▁암울	-11279
▁슬라임	-11280
▁열악	-11281
▁증발	-11282
▁져	-11283
▁유난	-11284
▁김일성	-11285
▁펜듈럼	-11286
ict	-11287
▁테루	-11288
▁허브	-11289
▁ㅆㅏㅎㅇㅕ	-11290
▁직결	-11291
▁로맨스	-11292
▁전두환	-11293
▁ㅎㅏㄹㅅㅜ	-11294
▁맨체스터	-11295
니클	-11296
▁문고	-11297
▁남발	-11298
▁그랑프리	-11299
▁친목	-11300
CH	-11301
▁시코	-11302
▁연달	-11303
▁캡콤	-11304
▁저조	-11305
▁처절	-11306
▁교통사고	-11307
▁~~	-11308
▁당나라	-11309
▁나열	-11310
▁랜턴	-11311
▁도타	-11312
▁둥지	-11313
▁앵커	-11314
▁실력자	-11315
▁야만	-11316
▁환사	-11317
▁203	-11318
▁십자군	-11319
▁Light	-11320
▁뱉	-11321
▁외면	-11322
▁꿰뚫	-11323
노기	-11324
▁자위대	-11325
▁짤방	-11326
▁성직자	-11327
▁펴	-11328
▁책임지	-11329
▁우두머리	-11330
▁ㅅㅗㄴ	-11331
▁운석	-11332
▁계란	-11333
▁미세	-11334
▁오키나와	-11335
▁맹활약	-11336
▁ㅈㅏㅂㅎㅕㅆ	-11337
▁이행	-11338
▁침해	-11339
▁요리사	-11340
▁대외	-11341
▁스텔라	-11342
▁듀스	-11343
▁안무	-11344
▁솟	-11345
▁회로	-11346
▁요시다	-11347
▁뭔	-11348
▁무협	-11349
▁ver	-11350
▁Kore	-11351
ors	-11352
▁요시노	-11353
▁Im	-11354
▁사이보그	-11355
▁이치고	-11356
장난	-11357
▁레즈	-11358
▁개막전	-11359
▁박치기	-11360
▁직역	-11361
▁ㅁㅏㅇㅎㅏㄴ	-11362
▁단식	-11363
▁연막	-11364
▁수영복	-11365
▁LED	-11366
▁북두	-11367
▁테오	-11368
▁구절	-11369
▁부처	-11370
▁ADV	-11371
mania	-11372
ㅇㅜㄴㄷㅔ	-11373
▁힌트	-11374
▁샤프	-11375
▁신수	-11376
▁애국	-11377
▁넉넉	-11378
▁마사키	-11379
▁켄이치	-11380
▁GTA	-11381
▁럴	-11382
▁자칫	-11383
▁Sy	-11384
▁코디	-11385
▁117	-11386
▁개개	-11387
▁공고	-11388
레드	-11389
▁127	-11390
▁프랑켄	-11391
▁BO	-11392
셉트	-11393
▁ㅍㅜㄹㄹㅣㄴ	-11394
▁변호	-11395
▁어드밴스	-11396
▁냉전	-11397
▁사료	-11398
▁뉴질	-11399
▁적재	-11400
▁뉴질랜드	-11401
▁ㄷㅏㅁㄱㅕ	-11402
▁ㅈㅣㄴㅈㅓ	-11403
▁착지	-11404
▁파랑	-11405
▁케이지	-11406
▁볶	-11407
▁Ev	-11408
▁고속버스	-11409
무네	-11410
▁AE	-11411
▁롤링	-11412
▁성수	-11413
▁혼합	-11414
스트림	-11415
▁126	-11416
▁배속	-11417
▁어미	-11418
▁184	-11419
▁ㅈㅣㄴㅈㅓㅇㅎㅏㄴ	-11420
▁물가	-11421
▁괴리	-11422
▁실바	-11423
▁죄수	-11424
▁꿇	-11425
▁잔해	-11426
▁pro	-11427
▁푼	-11428
▁도요	-11429
▁다스리	-11430
▁그리하여	-11431
▁파고	-11432
▁므	-11433
▁여관	-11434
▁줄어드	-11435
민주당	-11436
▁ㅁㅛ	-11437
ACK	-11438
ㅁㅏㅇㅊㅕ	-11439
▁추적자	-11440
▁쫄	-11441
▁공모	-11442
▁메모	-11443
▁이사장	-11444
▁타나카	-11445
▁영미	-11446
▁확립	-11447
▁고조	-11448
▁번갈	-11449
▁호쿠	-11450
▁야쿠자	-11451
▁ㅈㅏㄹㄹㅕ	-11452
▁대안	-11453
▁아이스크림	-11454
▁스퀘어	-11455
▁사쿠라이	-11456
▁ㅁㅜㄹㄹㅣ	-11457
▁김윤	-11458
▁땅볼	-11459
▁장신구	-11460
모어	-11461
토랑	-11462
▁기쁨	-11463
▁고든	-11464
▁레스토랑	-11465
▁라파	-11466
▁제지	-11467
▁야마구치	-11468
▁찰나	-11469
14	-11470
▁담임	-11471
▁특훈	-11472
▁왓	-11473
▁그려	-11474
▁빈틈	-11475
▁수용소	-11476
▁드레드	-11477
ics	-11478
▁우상	-11479
▁지극히	-11480
더슨	-11481
▁플래닛	-11482
▁먼지	-11483
▁신이치	-11484
▁자회사	-11485
▁진로	-11486
▁자격증	-11487
▁실루	-11488
▁max	-11489
▁동족	-11490
▁서리	-11491
▁앤디	-11492
▁좌파	-11493
▁속력	-11494
▁수확	-11495
▁시부	-11496
▁ㅁㅜㄲㅇㅕ	-11497
▁ar	-11498
▁대법	-11499
▁만행	-11500
▁따라잡	-11501
▁어벤져스	-11502
치아	-11503
▁하반기	-11504
▁will	-11505
▁군복	-11506
▁니카	-11507
▁블라디	-11508
▁줌	-11509
▁금고	-11510
▁비로소	-11511
일라	-11512
▁병종	-11513
▁설화	-11514
▁ㄸㅔ	-11515
▁크리스토	-11516
▁정체불명	-11517
▁셸	-11518
▁무진	-11519
▁유타	-11520
▁유토	-11521
▁설탕	-11522
▁ㄴㅡㄹ	-11523
▁유무	-11524
▁간호사	-11525
▁휴게소	-11526
▁속이	-11527
▁중앙선	-11528
▁183	-11529
▁ㄱㅜㄹㄹㅕ	-11530
▁GPU	-11531
디스	-11532
▁온몸	-11533
▁해역	-11534
▁저렇게	-11535
▁감기	-11536
▁화소	-11537
주의자	-11538
▁테르	-11539
▁DNA	-11540
니카	-11541
야샤	-11542
▁이누야샤	-11543
휴일	-11544
▁호프	-11545
▁178	-11546
▁스크래	-11547
▁인어	-11548
▁가브리엘	-11549
▁공손	-11550
▁광전사	-11551
▁As	-11552
▁버터	-11553
▁실업	-11554
▁아이유	-11555
▁중전차	-11556
▁불평	-11557
▁기괴	-11558
▁영화판	-11559
산동	-11560
▁팩션	-11561
▁ㄷㅓㄴㅈㅕㅆ	-11562
▁이준	-11563
▁지주	-11564
요환	-11565
▁김연	-11566
▁내셔널	-11567
▁스쿼드	-11568
▁명작	-11569
▁사스케	-11570
▁퓨리	-11571
▁1967	-11572
▁대대로	-11573
ㅇㅎㅏㅁ	-11574
▁오덕	-11575
▁쾌속	-11576
▁통보	-11577
▁ㄱㅓㄹㄲㅏ	-11578
▁무겁	-11579
▁미수	-11580
▁연말	-11581
코어	-11582
▁과감	-11583
▁리쿠	-11584
▁실정	-11585
▁ㅎㅏㅂㅊㅣㄴ	-11586
▁텀	-11587
무기	-11588
▁놔두	-11589
▁후타	-11590
▁트레이닝	-11591
▁동년	-11592
▁Let	-11593
▁심상	-11594
▁중재	-11595
ex	-11596
▁HG	-11597
af	-11598
▁못지않	-11599
▁ㅇㅣㄹㅅㅜ	-11600
▁클레이	-11601
▁창세기	-11602
▁섀도	-11603
▁당국	-11604
▁마비노기	-11605
▁여수	-11606
▁데스티니	-11607
▁무궁화	-11608
▁접점	-11609
▁시가지	-11610
▁포트리스	-11611
▁WH	-11612
▁성기	-11613
▁마장	-11614
ammer	-11615
소년	-11616
▁걸어가	-11617
▁프린스	-11618
▁us	-11619
▁슈가	-11620
▁임요환	-11621
▁헤어지	-11622
▁상용	-11623
즈마	-11624
ㄹㅡㄴㄷㅔ	-11625
▁Of	-11626
▁샤크	-11627
▁ㅅㅣㄴㅈㅣ	-11628
마치	-11629
▁세미	-11630
▁Red	-11631
▁물리학	-11632
▁사망자	-11633
▁로코	-11634
▁Your	-11635
▁ㄱㅖ	-11636
▁운반	-11637
▁책상	-11638
▁태조	-11639
▁182	-11640
▁코이치	-11641
▁넵	-11642
요이	-11643
▁수량	-11644
▁ㄷㅝㅆ	-11645
IGH	-11646
▁사모	-11647
▁토트	-11648
▁호스	-11649
▁농협	-11650
▁신주쿠	-11651
퇴근	-11652
▁출루율	-11653
▁급기	-11654
▁루터	-11655
▁MX	-11656
▁이성계	-11657
르도	-11658
▁괴담	-11659
▁총선거	-11660
▁무명	-11661
▁오의	-11662
▁ㅊㅜㄹ	-11663
▁게임기	-11664
▁부평	-11665
▁사교	-11666
▁순찰	-11667
▁샤를	-11668
▁베이더	-11669
▁엄폐	-11670
▁치루	-11671
▁농락	-11672
▁비꼬	-11673
▁시엘	-11674
▁우체	-11675
▁ㄱㅏㄴㅈㅣ	-11676
트랙	-11677
▁냉기	-11678
▁골목	-11679
▁진수	-11680
▁페이트	-11681
▁제프	-11682
▁168	-11683
▁대중교통	-11684
▁카우	-11685
▁ㄴㅜㄴㅊㅣ	-11686
▁ㅂㅓㄹㅇㅣㄴㄷㅏ	-11687
▁리바	-11688
▁자판	-11689
▁사이퍼	-11690
▁Rock	-11691
▁인터페이스	-11692
▁스크래치	-11693
▁끓	-11694
▁른	-11695
▁호로	-11696
▁황실	-11697
▁계열사	-11698
▁레시피	-11699
▁키즈	-11700
▁내정	-11701
▁단과	-11702
▁예비군	-11703
▁매스	-11704
▁아깝	-11705
▁아몬	-11706
▁고속도	-11707
▁단속	-11708
▁바티	-11709
▁타니	-11710
▁LIVE	-11711
▁ㄱㅓㄹㅊㅣㄴ	-11712
che	-11713
▁Tw	-11714
▁ㅂㅓㅅㄱㅕ	-11715
▁법무	-11716
ica	-11717
▁이선	-11718
▁하비	-11719
▁..!	-11720
other	-11721
ody	-11722
▁더욱이	-11723
▁FW	-11724
▁행하	-11725
▁공휴일	-11726
▁박종	-11727
▁농사	-11728
▁후일담	-11729
쿠로	-11730
▁사출	-11731
▁플루	-11732
▁밈	-11733
테이	-11734
▁습관	-11735
▁찰리	-11736
▁오세	-11737
▁시궁창	-11738
▁ㅁㅏㄱ	-11739
▁세세	-11740
규모	-11741
▁1963	-11742
▁ㅁㅏㅇㅎㅐ	-11743
▁키바	-11744
▁330	-11745
▁브라더	-11746
▁통행	-11747
▁서해	-11748
▁한도	-11749
▁유난히	-11750
▁이노우에	-11751
르바	-11752
▁염색	-11753
고래	-11754
▁타국	-11755
▁페가	-11756
▁제스	-11757
LS	-11758
▁리턴	-11759
▁셋째	-11760
▁출중	-11761
▁ㅇㅏㄹㄹㅕㅆ	-11762
▁고성	-11763
▁전임	-11764
▁Don	-11765
▁해적단	-11766
아슬	-11767
▁아슬아슬	-11768
▁성형	-11769
▁관동	-11770
▁달콤	-11771
▁브랜	-11772
▁주고	-11773
ㄷㅗㄹㅇㅏ	-11774
▁열등	-11775
▁Min	-11776
▁낡	-11777
▁ㄷㅗㄷ	-11778
애나	-11779
▁다면	-11780
▁커트	-11781
16	-11782
▁경찰청	-11783
▁통신사	-11784
▁신임	-11785
▁막부	-11786
▁유니온	-11787
▁ㄱㅏㅆㅇㅡ	-11788
▁카노	-11789
▁코프	-11790
▁진리	-11791
oth	-11792
▁본디	-11793
▁수식	-11794
▁코다	-11795
▁파수	-11796
▁시련	-11797
▁Sun	-11798
▁러너	-11799
▁추출	-11800
변이	-11801
자동	-11802
▁돌연변이	-11803
▁졸개	-11804
▁부흥	-11805
▁ㅇㅏㅍㅅㅓㄴ	-11806
▁ㅁㅏㄴㄷㅡㄴㄷㅏ	-11807
▁듀티	-11808
▁키트	-11809
▁피드	-11810
▁륙	-11811
▁애쉬	-11812
▁클레어	-11813
▁하세	-11814
▁소설가	-11815
▁아즈사	-11816
▁용의자	-11817
▁하야토	-11818
▁혹사	-11819
▁have	-11820
▁나뭇	-11821
▁분장	-11822
▁카오리	-11823
▁오인	-11824
ins	-11825
▁고릴라	-11826
▁라바	-11827
▁클러	-11828
▁이명박	-11829
▁불로	-11830
▁블래	-11831
▁핸드폰	-11832
정역	-11833
▁이질	-11834
▁통증	-11835
▁정립	-11836
▁장편	-11837
▁2500	-11838
▁탄탄	-11839
▁코나미	-11840
▁ㅊㅐㅇㄱ	-11841
▁복싱	-11842
현진	-11843
▁단테	-11844
▁학점	-11845
▁SCP	-11846
▁치사	-11847
▁그려지	-11848
투표	-11849
▁쿠루	-11850
▁선수단	-11851
▁신대	-11852
▁가르침	-11853
말리	-11854
▁미하	-11855
▁독립운동	-11856
▁결사	-11857
ㅋㅕㅆㅇㅡ	-11858
▁MK	-11859
▁줄리	-11860
▁춤추	-11861
레인저	-11862
▁공습	-11863
▁조폭	-11864
▁스캔들	-11865
▁ㄱㅜㄹㄹㅓ	-11866
▁도호	-11867
▁ㅎㅏㄴㅎㅐ	-11868
▁그립	-11869
▁멀쩡히	-11870
▁퐁	-11871
더기	-11872
▁모범	-11873
▁162	-11874
▁TOP	-11875
▁고폭탄	-11876
▁푹	-11877
▁접근성	-11878
▁브라우	-11879
▁외우	-11880
▁꾀	-11881
▁탐구	-11882
미르	-11883
ㄹㅓㅆ	-11884
▁진구	-11885
▁자질	-11886
▁BAS	-11887
▁좌석버스	-11888
▁ㅎㅑㅇㅎㅏㄴㄷㅏ	-11889
▁동탁	-11890
▁Rev	-11891
▁감행	-11892
▁준하	-11893
▁클라이	-11894
기어	-11895
▁OB	-11896
▁방안	-11897
▁정명	-11898
▁ㅁㅏㅈㅁㅜ	-11899
▁제대	-11900
▁미티	-11901
▁출연진	-11902
로프	-11903
티콘	-11904
▁함포	-11905
▁야심	-11906
▁정교회	-11907
▁애프	-11908
▁애당초	-11909
▁전속	-11910
ㄷㅡㄹㅇㅣㄹ	-11911
▁대국	-11912
▁필터	-11913
▁연예계	-11914
▁UF	-11915
▁단정	-11916
▁진도	-11917
▁극소수	-11918
▁브이	-11919
▁임관	-11920
▁통용	-11921
▁군기	-11922
▁근력	-11923
▁미스터리	-11924
▁가급	-11925
▁하타	-11926
▁ㄷㅡㄴㄱㅏ	-11927
려워하	-11928
▁자유자재	-11929
▁리전	-11930
▁매너	-11931
▁쏟아지	-11932
▁ㅇㅗㄻㄱㅕㅆ	-11933
▁카무이	-11934
agon	-11935
▁호출	-11936
▁깨어나	-11937
ㅁㅏㅇㄱ	-11938
▁증권	-11939
▁ㅇㅕㄹㄹㅣㄴㄷㅏ	-11940
카즈	-11941
▁ㅈㅐ	-11942
▁에로게	-11943
스틴	-11944
▁158	-11945
▁트로이	-11946
▁Per	-11947
▁대명사	-11948
▁미성년	-11949
▁구타	-11950
▁세일	-11951
▁악곡	-11952
▁굶	-11953
▁판사	-11954
▁Sum	-11955
▁끌려가	-11956
▁재빨리	-11957
▁승려	-11958
▁실루엣	-11959
▁석상	-11960
▁한발	-11961
▁인맥	-11962
케인	-11963
▁장학	-11964
▁형편없	-11965
프라	-11966
▁소매	-11967
상가상	-11968
▁박살나	-11969
▁월요일	-11970
▁ㅁㅜㄷㅎㅕㅆ	-11971
▁설상가상	-11972
재판	-11973
▁월급	-11974
▁마이어	-11975
▁프로모	-11976
▁STER	-11977
GB	-11978
▁어인	-11979
▁연방군	-11980
평가	-11981
ㄹㅣㅂㄴㅣ	-11982
ㅊㅝ	-11983
▁샤오	-11984
▁카가미	-11985
▁사우루스	-11986
17	-11987
▁살상	-11988
▁Gen	-11989
▁ㅌㅐㄱ	-11990
▁ㅂㅜㅌㅇㅕㅆ	-11991
▁TEC	-11992
▁제다이	-11993
▁am	-11994
▁바닐라	-11995
▁볼텍스	-11996
▁호박	-11997
▁beatmania	-11998
▁Sl	-11999
▁바주	-12000
▁태자	-12001
▁특촬	-12002
▁내밀	-12003
▁연발	-12004
▁교내	-12005
▁출퇴근	-12006
ECT	-12007
▁패기	-12008
▁후문	-12009
▁후예	-12010
▁노기	-12011
▁비즈	-12012
▁토이	-12013
▁애시	-12014
▁성폭	-12015
▁게임즈	-12016
▁1944	-12017
▁이례	-12018
▁징징	-12019
▁ㅁㅜㅇㅊㅕ	-12020
토시	-12021
▁박탈	-12022
▁서킷	-12023
▁책정	-12024
▁트렌	-12025
▁one	-12026
ater	-12027
▁딱딱	-12028
ㅇㅜㄹㄹㅣㄴㄷㅏ	-12029
▁경연	-12030
▁누명	-12031
▁시몬	-12032
▁장병	-12033
▁충남	-12034
▁엎	-12035
▁DO	-12036
▁수강	-12037
▁하지메	-12038
▁격전	-12039
▁삼촌	-12040
테리	-12041
▁루키	-12042
▁파벌	-12043
▁숏	-12044
▁디렉터	-12045
▁마이트	-12046
▁1966	-12047
▁신흥	-12048
▁동래	-12049
▁일어	-12050
▁멀리서	-12051
▁동봉	-12052
▁발칸	-12053
▁일절	-12054
▁태종	-12055
▁닉스	-12056
▁라드	-12057
ium	-12058
▁커비	-12059
▁레지스	-12060
▁독수리	-12061
▁이치로	-12062
▁고어	-12063
▁가토	-12064
▁복음	-12065
▁우파	-12066
▁베인	-12067
▁세스	-12068
▁단골	-12069
▁얼터	-12070
▁열세	-12071
티노	-12072
▁분기점	-12073
▁소규모	-12074
▁OK	-12075
▁신정	-12076
▁태극	-12077
▁love	-12078
패스	-12079
▁홍성	-12080
▁132	-12081
▁벡터	-12082
▁세탁	-12083
ions	-12084
▁대군	-12085
▁하워드	-12086
▁ㄲㅏㅆ	-12087
▁사사키	-12088
두리	-12089
▁ㄲㅣㄴ	-12090
▁ㅇㅓㅍ	-12091
▁ㅍㅐㄴ	-12092
▁데려오	-12093
▁재고	-12094
▁배기	-12095
▁한몫	-12096
▁갈리아	-12097
▁선우	-12098
클린	-12099
▁도쿠가와	-12100
▁벚꽃	-12101
▁사에	-12102
▁되돌리	-12103
▁패미컴	-12104
▁ㅅㅣㄹㄹㅣㄴ	-12105
▁자처	-12106
▁레이터	-12107
DS	-12108
그룹	-12109
기지	-12110
▁LOVE	-12111
기사	-12112
▁전열	-12113
▁토네	-12114
▁자카	-12115
▁ㅅㅏㅁ	-12116
▁당주	-12117
▁영동	-12118
▁전세	-12119
▁질량	-12120
▁음주	-12121
▁승급	-12122
▁소사	-12123
UR	-12124
심장	-12125
▁159	-12126
▁빅뱅	-12127
▁ㅇㅜㄴ	-12128
▁징크스	-12129
▁리티	-12130
▁샴	-12131
▁대공포	-12132
▁입양	-12133
▁청와	-12134
▁탄소	-12135
▁절규	-12136
▁서대	-12137
▁네놈	-12138
▁히카리	-12139
▁하카	-12140
▁공성전	-12141
▁입국	-12142
▁로저스	-12143
▁카를로스	-12144
▁셉	-12145
▁건재	-12146
니즘	-12147
▁돋보이	-12148
▁그리스도	-12149
▁반다이	-12150
▁유대인	-12151
▁반군	-12152
▁133	-12153
▁DT	-12154
▁성벽	-12155
▁얼핏	-12156
▁돌보	-12157
▁집회	-12158
▁카린	-12159
▁와이어	-12160
▁뽕	-12161
▁리엘	-12162
ㅊㅐㄴ	-12163
ould	-12164
▁출근	-12165
▁사용자	-12166
▁최정	-12167
▁High	-12168
▁발악	-12169
port	-12170
▁말장난	-12171
▁천둥	-12172
ㅍㅕ	-12173
▁술법	-12174
▁Oh	-12175
▁동조	-12176
▁박찬	-12177
▁아래쪽	-12178
▁PL	-12179
▁124	-12180
▁오너	-12181
파크	-12182
▁리에	-12183
▁필연	-12184
▁EXT	-12185
▁시그마	-12186
▁아폴로	-12187
▁동갑	-12188
ange	-12189
미즈	-12190
▁배율	-12191
▁퇴사	-12192
▁바주카	-12193
▁구단주	-12194
▁액세서리	-12195
▁나고	-12196
▁동문	-12197
▁사당	-12198
▁시즈카	-12199
▁가변	-12200
▁IDOL	-12201
▁냉각	-12202
▁대본	-12203
▁러닝	-12204
▁김택	-12205
▁번식	-12206
▁제식	-12207
▁경보	-12208
▁FX	-12209
▁공방전	-12210
바다	-12211
▁서민	-12212
ott	-12213
▁본성	-12214
▁게릴라	-12215
▁인천광역시	-12216
▁악어	-12217
▁베가	-12218
▁데우스	-12219
▁싣	-12220
▁HK	-12221
▁기온	-12222
ㄴㅘ	-12223
▁태미	-12224
▁블레이즈	-12225
▁학급	-12226
▁어그	-12227
▁픽셀	-12228
▁마크로스	-12229
▁퇴출	-12230
▁방송인	-12231
▁크로니클	-12232
프란	-12233
▁모닝	-12234
▁직구	-12235
▁구급	-12236
▁우물	-12237
▁마이너스	-12238
les	-12239
▁상가	-12240
▁슈퍼스타	-12241
▁셰프	-12242
▁사다	-12243
▁마운트	-12244
▁프로그래밍	-12245
▁Par	-12246
▁넘어지	-12247
▁부드	-12248
▁ㄱㅏㄹㄹㅣㄴㄷㅏ	-12249
▁미로	-12250
▁허공	-12251
▁ㅇㅏㄱㅎㅏㄴ	-12252
▁사로	-12253
▁280	-12254
▁ㄷㅐㄴㄷㅏ	-12255
▁ㄲㅡㅌㄴㅏㅆ	-12256
▁광대	-12257
▁박영	-12258
▁흑화	-12259
어붙	-12260
▁동요	-12261
▁조직원	-12262
▁ㄱㅏㅁㅊ	-12263
▁의아	-12264
▁최대치	-12265
▁ㅁㅗㅅㅎㅐㅆㅇㅡ	-12266
▁BW	-12267
▁EM	-12268
니스트	-12269
▁MLB	-12270
▁1962	-12271
▁반항	-12272
▁비장	-12273
▁주술사	-12274
▁파이브	-12275
▁짚	-12276
▁묻히	-12277
▁세레	-12278
ator	-12279
파리	-12280
▁밀집	-12281
▁부도	-12282
노미야	-12283
▁156	-12284
▁분쇄	-12285
▁가로막	-12286
▁차선	-12287
▁악용	-12288
▁결함	-12289
IE	-12290
▁데카	-12291
ㅈㅓㅇ	-12292
▁1940	-12293
▁흩	-12294
▁경질	-12295
▁악랄	-12296
지부	-12297
▁br	-12298
▁배상	-12299
▁계좌	-12300
▁인기투표	-12301
▁볼륨	-12302
▁힐링	-12303
▁ㅇㅞ	-12304
▁연비	-12305
▁스칼렛	-12306
▁드루이드	-12307
▁El	-12308
어찌	-12309
▁학번	-12310
ㄷㅊㅕ	-12311
▁무죄	-12312
▁반말	-12313
▁Ang	-12314
▁Master	-12315
▁was	-12316
▁광복	-12317
▁기소	-12318
▁Arm	-12319
▁코카	-12320
▁일렉트로	-12321
▁ㅇㅜㅅㄱㅣㄴ	-12322
▁총열	-12323
▁함재기	-12324
▁복도	-12325
▁청와대	-12326
▁뷔	-12327
▁헌데	-12328
▁원호	-12329
▁지그	-12330
▁흡연	-12331
즈카	-12332
어먹	-12333
▁런닝	-12334
▁제시카	-12335
▁퍼센트	-12336
▁넘어서	-12337
▁필라	-12338
▁한탄	-12339
UT	-12340
▁심슨	-12341
▁파인	-12342
▁230	-12343
▁현상금	-12344
▁다이노스	-12345
ㅇㅡㄹㅈㅣ	-12346
▁거칠	-12347
▁허세	-12348
란트	-12349
▁무안	-12350
▁ㅂㅣㅅ	-12351
▁전편	-12352
▁GG	-12353
▁관념	-12354
▁금색	-12355
▁실습	-12356
▁기라	-12357
▁끝장	-12358
▁시간표	-12359
▁어찌어찌	-12360
▁RP	-12361
▁나츠미	-12362
▁성서	-12363
▁체질	-12364
▁118	-12365
▁여고생	-12366
▁이승만	-12367
인간	-12368
▁구두	-12369
징어	-12370
▁실황	-12371
▁체스	-12372
▁카도	-12373
▁토로	-12374
▁배열	-12375
▁아이언맨	-12376
18	-12377
▁정재	-12378
▁가성	-12379
▁광탈	-12380
▁추궁	-12381
▁운운	-12382
댓말	-12383
▁광속	-12384
▁ARM	-12385
▁존댓말	-12386
▁감히	-12387
▁기술자	-12388
▁장타율	-12389
널드	-12390
나드	-12391
▁메테오	-12392
▁ㅁㅣㄹㄹㅣㄴㄷㅏ	-12393
▁밋	-12394
▁138	-12395
▁터미네이터	-12396
▁가두	-12397
▁콜드	-12398
▁경쟁자	-12399
▁달려가	-12400
▁접전	-12401
▁ㅍㅕㄴㅎㅐ	-12402
프레스	-12403
▁헷갈리	-12404
▁취지	-12405
▁자드	-12406
▁펠리	-12407
ㅈㅏㅇ	-12408
▁ㅇㅓㄹ	-12409
▁포워드	-12410
▁화자	-12411
▁퓨어	-12412
▁열풍	-12413
▁소실	-12414
ICE	-12415
▁대패	-12416
▁텅	-12417
▁스매시	-12418
19	-12419
▁두르	-12420
▁노이즈	-12421
▁베일	-12422
▁성도	-12423
▁남작	-12424
▁회오리	-12425
꿈치	-12426
▁동로	-12427
립트	-12428
▁네이트	-12429
▁문어	-12430
▁웨어	-12431
▁ㅇㅜㅁㅈㅣㄱㅇㅣㅁ	-12432
▁게시물	-12433
▁이용해	-12434
▁페미니	-12435
▁훅	-12436
▁전반기	-12437
▁똑똑	-12438
▁바우	-12439
▁돌려주	-12440
▁히노	-12441
▁치명상	-12442
▁팔라딘	-12443
▁비시	-12444
▁탯이	-12445
▁라오	-12446
▁심문	-12447
▁장안	-12448
▁콘셉트	-12449
▁리조	-12450
▁강수	-12451
▁탄도	-12452
▁차후	-12453
▁Sec	-12454
▁경성	-12455
▁수험	-12456
▁알렉산더	-12457
▁ㅁㅜㄹㄹㅕ	-12458
조합	-12459
▁공로	-12460
▁불신	-12461
▁148	-12462
▁수상자	-12463
▁시저	-12464
▁악세	-12465
▁점사	-12466
▁ㅌㅏㄴㄷㅏ	-12467
▁마에다	-12468
▁당첨	-12469
▁카탈	-12470
▁계시	-12471
▁어느새	-12472
▁하렘	-12473
▁운항	-12474
▁이진	-12475
▁얼어붙	-12476
▁1930	-12477
▁말레이시아	-12478
▁해독	-12479
▁Fire	-12480
▁호노	-12481
▁토마토	-12482
▁ㅂㅜㄹㅌㅐ	-12483
▁국당	-12484
▁까닭	-12485
▁섬기	-12486
▁억지	-12487
lect	-12488
▁효과음	-12489
▁소시	-12490
▁학술	-12491
▁안산	-12492
▁ㅆㅗㄴㄷㅏ	-12493
날드	-12494
▁안면	-12495
▁분홍색	-12496
alk	-12497
▁경유지	-12498
▁서울역	-12499
▁스콧	-12500
▁위화	-12501
▁제정신	-12502
▁교시	-12503
▁로망	-12504
▁호전	-12505
▁넥서스	-12506
▁빌보드	-12507
▁메소	-12508
▁콜롬	-12509
▁스플래시	-12510
크리	-12511
▁급기야	-12512
▁원활	-12513
밀리아	-12514
▁드라군	-12515
▁성모	-12516
▁cc	-12517
▁얕	-12518
▁부드럽	-12519
▁수준급	-12520
▁550	-12521
▁영남	-12522
▁ㅎㅔㅅㄱㅏㄹ	-12523
▁CA	-12524
▁말미	-12525
▁스타팅	-12526
칼리	-12527
▁반대편	-12528
▁셜록	-12529
▁지상파	-12530
▁가명	-12531
▁김선	-12532
▁구마	-12533
▁소동	-12534
니스탄	-12535
▁급히	-12536
▁자손	-12537
olution	-12538
▁랩터	-12539
▁상권	-12540
▁하츠네	-12541
▁망가지	-12542
▁대출	-12543
▁조운	-12544
▁이마트	-12545
▁렀다	-12546
▁풍자	-12547
르기	-12548
▁ㅃㅐㄴ	-12549
리우스	-12550
▁균열	-12551
▁넥슨	-12552
▁바이올린	-12553
▁제라	-12554
▁007	-12555
▁간략	-12556
▁북구	-12557
▁축적	-12558
▁지휘자	-12559
ty	-12560
▁시중	-12561
▁일쑤	-12562
▁군사력	-12563
▁루마니아	-12564
▁원고	-12565
▁제르	-12566
▁대표작	-12567
▁가뜩	-12568
▁일보	-12569
land	-12570
베리아	-12571
▁제멋	-12572
▁백합	-12573
▁스피커	-12574
▁pr	-12575
▁왕관	-12576
▁초래	-12577
▁270	-12578
테스	-12579
▁정류소	-12580
▁머릿	-12581
엘라	-12582
▁제단	-12583
▁kr	-12584
▁김원	-12585
▁염려	-12586
▁고추	-12587
▁보증	-12588
▁부호	-12589
▁개개인	-12590
▁악의	-12591
▁야시	-12592
▁체이	-12593
젤레스	-12594
▁아야카	-12595
▁style	-12596
▁나나미	-12597
▁프로세서	-12598
▁레프	-12599
▁이아	-12600
▁팔찌	-12601
▁나고야	-12602
▁""	-12603
ㄲㅟㄹ	-12604
▁이시다	-12605
▁반기	-12606
▁ㅍㅏㄴㄷㅏ	-12607
▁발광	-12608
▁가뜩이나	-12609
▁ㅋㅣㄴ	-12610
▁스피리	-12611
▁모친	-12612
▁채취	-12613
▁172	-12614
ony	-12615
▁최면	-12616
▁외래어	-12617
▁그놈	-12618
▁디펜스	-12619
▁발라드	-12620
▁에이전트	-12621
▁호르	-12622
▁주황색	-12623
▁1964	-12624
▁금호	-12625
▁창시	-12626
▁딸기	-12627
▁피처	-12628
▁테이크	-12629
▁숀	-12630
▁서초	-12631
▁sm	-12632
▁경과	-12633
▁가축	-12634
▁병단	-12635
방향	-12636
▁FB	-12637
▁전폭	-12638
▁ㅅㅣㅀㅇㅓ	-12639
▁안드로메다	-12640
▁양보	-12641
▁저리	-12642
▁대용	-12643
▁제원	-12644
▁급식	-12645
▁ㅁㅏㅈㅁㅜㄹㄹㅕ	-12646
▁Li	-12647
▁so	-12648
▁고산	-12649
▁국력	-12650
▁춘천	-12651
▁레이첼	-12652
▁에리카	-12653
▁커터	-12654
▁키리토	-12655
▁열받	-12656
▁피에	-12657
▁궁지	-12658
▁일련	-12659
▁오징어	-12660
▁다단	-12661
▁투하	-12662
축구	-12663
▁안성	-12664
▁진행자	-12665
▁해운대	-12666
▁할리우드	-12667
▁프리즘	-12668
수스	-12669
▁리브	-12670
▁예언자	-12671
▁도피	-12672
▁안드레	-12673
▁대마	-12674
테이너	-12675
▁바비	-12676
▁BRV	-12677
▁파파	-12678
▁컨트롤러	-12679
pr	-12680
마침	-12681
▁라시	-12682
▁편대	-12683
▁항아리	-12684
▁메탈기어	-12685
▁프로모션	-12686
▁초교	-12687
▁호투	-12688
▁쿠시	-12689
▁조력자	-12690
▁스탠다드	-12691
▁우산	-12692
▁정정	-12693
▁튜너	-12694
▁회고	-12695
▁회화	-12696
▁우크라	-12697
▁양국	-12698
▁정확도	-12699
▁뮬	-12700
▁열전	-12701
▁브릿지	-12702
▁이나즈마	-12703
놀이	-12704
▁우천	-12705
▁설비	-12706
▁임원	-12707
▁체가	-12708
▁가급적	-12709
▁마츠모토	-12710
▁가넷	-12711
▁자잘	-12712
▁Rem	-12713
▁ㄹㅜㄴ	-12714
▁때마침	-12715
▁카지노	-12716
▁병맛	-12717
▁Dis	-12718
▁테일러	-12719
▁노숙	-12720
▁샤이닝	-12721
▁Blue	-12722
▁메가트론	-12723
▁바하	-12724
▁유나	-12725
▁코파	-12726
▁포효	-12727
▁Power	-12728
▁1965	-12729
▁블래스트	-12730
▁시력	-12731
▁와우	-12732
▁아테네	-12733
▁ㄷㅏㄹㅇㅏ	-12734
▁153	-12735
▁무작정	-12736
BM	-12737
ert	-12738
▁체크카드	-12739
▁떄	-12740
▁천공	-12741
▁피치	-12742
클럽	-12743
▁XY	-12744
▁덩크	-12745
ㅅㅐㅇㄱㅣㄴ	-12746
▁Fi	-12747
▁들여	-12748
비우스	-12749
홍철	-12750
▁무제한	-12751
▁주범	-12752
▁초코	-12753
▁개드립	-12754
▁열람	-12755
▁프론트	-12756
▁Good	-12757
▁로그인	-12758
▁ㅌㅡㄹㅇㅓ	-12759
차례	-12760
▁FL	-12761
▁군함	-12762
▁천적	-12763
▁177	-12764
▁Champ	-12765
▁로딩	-12766
▁스위트	-12767
▁지표	-12768
▁ㅍㅜㄹㄹㅕㅆ	-12769
▁솔리드	-12770
▁히로유키	-12771
▁로제	-12772
▁야외	-12773
▁은혜	-12774
▁퍼붓	-12775
▁하드코어	-12776
이프	-12777
▁증세	-12778
메스	-12779
▁칠레	-12780
게임넷	-12781
▁스타크	-12782
▁주고받	-12783
▁온게임넷	-12784
▁복면	-12785
▁쇠퇴	-12786
▁총격	-12787
ㅇㅓㄴㅈㅓㅇ	-12788
▁나기사	-12789
▁뇌물	-12790
▁도리어	-12791
▁카디	-12792
▁양키스	-12793
▁오버로드	-12794
포드	-12795
▁바그	-12796
▁na	-12797
▁주거	-12798
▁목적지	-12799
▁프런트	-12800
▁씌	-12801
▁제휴	-12802
▁귀도	-12803
▁마도사	-12804
▁불리우	-12805
지르	-12806
▁예지	-12807
▁대주	-12808
▁증기	-12809
▁창업	-12810
▁바사	-12811
▁여의도	-12812
▁체리	-12813
▁우체국	-12814
▁건전	-12815
▁공과	-12816
▁기총	-12817
▁영진	-12818
▁Pv	-12819
▁도청	-12820
▁슬리	-12821
행위	-12822
▁바니	-12823
▁밀어주	-12824
▁넵튠	-12825
▁리마	-12826
▁SO	-12827
▁ALL	-12828
▁쓸데없	-12829
▁ㅁㅣㄹㄹㅕㅆ	-12830
▁휴일	-12831
▁생물학	-12832
▁벌리	-12833
▁자취	-12834
▁충청남도	-12835
이센	-12836
▁주파수	-12837
OID	-12838
▁발상	-12839
▁코시	-12840
ㄷㅏㄹㄹㅕ	-12841
관총	-12842
▁경매	-12843
▁교향곡	-12844
▁얀데레	-12845
▁용감	-12846
ㅅㅂㅗㄹ	-12847
▁여권	-12848
▁저격총	-12849
▁보리	-12850
▁진에	-12851
▁원제	-12852
▁소행	-12853
라이즈	-12854
▁사용법	-12855
왜란	-12856
▁BA	-12857
▁ME	-12858
▁타쿠미	-12859
▁수작	-12860
▁쏠쏠	-12861
▁집정	-12862
▁천계	-12863
▁STR	-12864
▁민원	-12865
▁mar	-12866
▁우루과이	-12867
▁Sm	-12868
▁동창	-12869
▁르네	-12870
ㅋㅣㅂㄴㅣ	-12871
▁ㄷㅐㅆ	-12872
▁임진왜란	-12873
▁적색	-12874
▁완전체	-12875
▁%.	-12876
▁개연	-12877
▁소극	-12878
▁해수	-12879
ㄴㄱㅏ	-12880
▁프리스트	-12881
석민	-12882
▁서장	-12883
토리얼	-12884
▁레이나	-12885
▁그리드	-12886
▁상표	-12887
▁부대원	-12888
▁ㄷㅏㄹㄹㅕㅆ	-12889
ART	-12890
▁Play	-12891
▁야당	-12892
▁재직	-12893
▁종사	-12894
▁출석	-12895
▁코이	-12896
라이나	-12897
▁글러브	-12898
▁ㄷㅓㄴㅈㅣㄴㄷㅏ	-12899
tr	-12900
▁강유	-12901
▁탄핵	-12902
▁튜토리얼	-12903
▁기성	-12904
ㄹㅏㅂㄴㅣ	-12905
▁방정	-12906
▁열기	-12907
▁260	-12908
▁슬로우	-12909
▁GDP	-12910
▁스파르타	-12911
▁맥도	-12912
▁산악	-12913
▁서드	-12914
▁기미	-12915
▁눈빛	-12916
▁박재	-12917
부대	-12918
▁러셀	-12919
▁미정	-12920
▁ㄸㅏㄹ	-12921
ㅅㅏ	-12922
▁박경	-12923
▁생산량	-12924
▁단백	-12925
▁병살	-12926
▁상속	-12927
▁엑소	-12928
▁입체	-12929
▁폴더	-12930
▁북유럽	-12931
▁지망	-12932
▁횡단	-12933
▁카스미	-12934
▁경량	-12935
▁ㅆㅓㄹ	-12936
▁프론티어	-12937
▁???	-12938
▁바이스	-12939
▁양측	-12940
▁EMP	-12941
▁초사	-12942
▁포식	-12943
▁적진	-12944
▁미츠루	-12945
▁카타르	-12946
히사	-12947
▁사슴	-12948
▁학계	-12949
▁갭	-12950
같이	-12951
▁미시	-12952
▁두려워하	-12953
토르	-12954
마당	-12955
스트로	-12956
▁청량	-12957
▁샌프란	-12958
▁샌프란시스코	-12959
▁다이어트	-12960
▁아의	-12961
▁팀장	-12962
▁괄	-12963
▁첨단	-12964
▁후유증	-12965
▁금화	-12966
▁심심찮	-12967
▁적시타	-12968
▁프리즈	-12969
버릇	-12970
▁리트	-12971
▁친정	-12972
▁ㅇㅣㅂㅎㅣㄹ	-12973
▁송도	-12974
▁독재자	-12975
▁650	-12976
▁어리석	-12977
ㄲㅜㄴㄷㅏ	-12978
▁정벌	-12979
▁호기심	-12980
▁감전	-12981
무장	-12982
▁내수	-12983
▁다툼	-12984
▁다이나	-12985
ERS	-12986
▁밀란	-12987
▁페더	-12988
▁송출	-12989
▁지문	-12990
▁나데	-12991
▁마커	-12992
▁137	-12993
▁연금술	-12994
▁돌격소총	-12995
▁맞대	-12996
25	-12997
▁아카이	-12998
▁WCS	-12999
▁당당히	-13000
장이	-13001
▁개더링	-13002
▁Dance	-13003
▁실명	-13004
숨에	-13005
▁지령	-13006
▁단숨에	-13007
▁토네이도	-13008
▁마더	-13009
▁소심	-13010
▁루시퍼	-13011
내리	-13012
▁만화책	-13013
▁엘더스	-13014
▁Over	-13015
▁동지	-13016
▁선대	-13017
의사	-13018
▁유목	-13019
▁초토	-13020
▁원천	-13021
▁매수	-13022
▁부메	-13023
▁크루즈	-13024
▁레몬	-13025
▁적발	-13026
▁텔레비전	-13027
▁속옷	-13028
▁부츠	-13029
▁서독	-13030
▁충공	-13031
▁157	-13032
▁카르마	-13033
▁ㅇㅏㅍㅅㅔ	-13034
▁ㄴㅗㄹㄹㅏㄴ	-13035
ㅍㅓ	-13036
▁원종	-13037
▁세르비아	-13038
▁부메랑	-13039
▁대사관	-13040
▁슈타인	-13041
버드	-13042
▁154	-13043
▁179	-13044
▁CO	-13045
▁부당	-13046
air	-13047
▁Ac	-13048
▁ㅇㅠ	-13049
▁Str	-13050
▁경감	-13051
▁Ke	-13052
▁중성	-13053
▁쫓기	-13054
페르	-13055
베르트	-13056
▁황무지	-13057
▁토트넘	-13058
▁확연히	-13059
▁정장	-13060
▁미니언	-13061
저우	-13062
▁대문	-13063
▁스윕	-13064
▁취직	-13065
▁내야수	-13066
▁겸하	-13067
▁광신	-13068
틀링	-13069
▁매달	-13070
▁파산	-13071
▁164	-13072
▁공립	-13073
▁금곡	-13074
▁카즈키	-13075
무실	-13076
▁독서	-13077
▁섬유	-13078
▁회귀	-13079
▁장기간	-13080
▁미성년자	-13081
▁ㅆㅏㅎㅇㅣㄴ	-13082
▁금서	-13083
▁사임	-13084
▁공동체	-13085
▁생사	-13086
▁연습생	-13087
▁무전	-13088
▁박상	-13089
▁징병	-13090
▁ㄴㅗㄹㄹㅏㅆ	-13091
▁Music	-13092
▁덥	-13093
oot	-13094
▁단간	-13095
▁미디	-13096
▁왼팔	-13097
▁텔레콤	-13098
▁삽화	-13099
라이어	-13100
▁가출	-13101
▁Ep	-13102
▁Kn	-13103
▁출몰	-13104
▁우메	-13105
▁털어놓	-13106
▁깁	-13107
려드	-13108
▁유서	-13109
▁129	-13110
▁DDR	-13111
지리	-13112
▁금기	-13113
▁입맛	-13114
▁어처	-13115
ittle	-13116
▁양주	-13117
▁표식	-13118
▁최우수	-13119
ern	-13120
▁기판	-13121
▁친일	-13122
ㅇㄱㅏ	-13123
▁방황	-13124
▁ㅂㅡㄴ	-13125
▁직무	-13126
▁쇼트	-13127
▁드리프트	-13128
▁우기	-13129
▁225	-13130
▁부딪히	-13131
▁파워레인저	-13132
▁편안	-13133
▁기밀	-13134
▁트리스	-13135
▁광범	-13136
▁창병	-13137
▁ㅈㅓㅁ	-13138
▁겨루	-13139
▁팀킬	-13140
▁현명	-13141
매치	-13142
▁NL	-13143
▁설득력	-13144
▁와타루	-13145
▁데스매치	-13146
▁떨구	-13147
▁민영	-13148
▁본국	-13149
▁메스	-13150
▁교란	-13151
▁양호	-13152
레트	-13153
▁심리학	-13154
▁NHK	-13155
▁오리온	-13156
▁휘말리	-13157
산물	-13158
▁은혼	-13159
▁공병	-13160
▁만료	-13161
▁초식	-13162
▁씁	-13163
▁괴도	-13164
▁오반	-13165
▁콘티	-13166
▁한심	-13167
▁세간	-13168
▁ㄹㅕㅆ	-13169
▁아이리	-13170
▁김형	-13171
▁망령	-13172
▁폭사	-13173
▁ㅍㅛ	-13174
▁콜라보레이션	-13175
▁택배	-13176
▁대각	-13177
▁전용기	-13178
▁깎이	-13179
▁쓸모없	-13180
▁NS	-13181
▁바시	-13182
▁퍼부	-13183
▁툼	-13184
▁'''	-13185
▁만화가	-13186
AG	-13187
▁서점	-13188
▁수복	-13189
▁왠만	-13190
▁켄타	-13191
▁텍스	-13192
▁ㄴㅗㄹ	-13193
▁손바닥	-13194
▁지역구	-13195
▁쐐	-13196
▁네타	-13197
▁우로	-13198
▁최영	-13199
▁선진국	-13200
▁발간	-13201
▁순진	-13202
▁홀딩	-13203
셔츠	-13204
▁내륙	-13205
▁저상버스	-13206
▁천황	-13207
▁강적	-13208
▁역과	-13209
▁두부	-13210
▁Pre	-13211
▁개틀링	-13212
▁북방	-13213
▁젊은이	-13214
▁윌리엄스	-13215
▁ㅂㅏㄱㅎㅣㄴ	-13216
▁불멸	-13217
▁고령	-13218
▁머무르	-13219
▁스코프	-13220
▁펙	-13221
▁>,	-13222
▁솔라	-13223
ㄱㅅㅡ	-13224
▁Comm	-13225
▁어처구니	-13226
▁ㄲㅡㅌㄴㅐ	-13227
▁그닥	-13228
▁마차	-13229
천역	-13230
▁티탄	-13231
▁ㅈㅏㄱㅇㅣㄴ	-13232
▁광범위	-13233
▁ㄴㅓㅁㄱㅣㄴ	-13234
▁중령	-13235
▁후궁	-13236
▁1800	-13237
▁변질	-13238
▁평민	-13239
▁방벽	-13240
▁글래	-13241
▁박격	-13242
▁걸스	-13243
▁비범	-13244
바위	-13245
▁Korea	-13246
▁256	-13247
▁기타리스트	-13248
▁서정	-13249
▁장동민	-13250
hammer	-13251
▁쑥	-13252
▁RC	-13253
▁리액	-13254
▁포지	-13255
▁산책	-13256
▁핵무기	-13257
▁허리케인	-13258
▁흘러가	-13259
▁모호	-13260
▁에덴	-13261
▁예명	-13262
▁카자마	-13263
▁잖	-13264
▁유행어	-13265
oss	-13266
▁대진	-13267
▁클로즈	-13268
▁포토	-13269
▁이승엽	-13270
▁MR	-13271
▁곡선	-13272
▁좌표	-13273
▁FR	-13274
▁진료	-13275
▁육박	-13276
▁End	-13277
▁베이스볼	-13278
▁뫼	-13279
마츠	-13280
▁백미	-13281
▁사이언	-13282
▁하와이	-13283
ield	-13284
▁공익	-13285
▁토하	-13286
ㅇㅗㄹㄹㅕ	-13287
▁서커스	-13288
▁ㅂㅜㅌㅈㅏㅂㅎㅕ	-13289
동원	-13290
아서	-13291
ENT	-13292
▁라이터	-13293
▁충성심	-13294
▁재위	-13295
▁화수	-13296
▁Leg	-13297
▁out	-13298
아라	-13299
▁두드	-13300
▁범행	-13301
▁칙	-13302
▁김명	-13303
▁케이트	-13304
▁가솔	-13305
▁파장	-13306
▁검은색	-13307
▁LCD	-13308
▁ㅎㅓㄴ	-13309
자카	-13310
▁아란	-13311
▁134	-13312
▁139	-13313
▁쿄스케	-13314
▁불사조	-13315
▁목재	-13316
▁자진	-13317
▁코지마	-13318
▁신디	-13319
▁Life	-13320
▁스냅	-13321
▁점거	-13322
RAM	-13323
대기	-13324
결승	-13325
eng	-13326
▁색채	-13327
▁첫날	-13328
▁163	-13329
▁VOC	-13330
▁튕	-13331
▁중사	-13332
▁EXH	-13333
▁쩔	-13334
▁견인	-13335
▁999	-13336
▁136	-13337
▁사토시	-13338
슬러	-13339
평균	-13340
edia	-13341
▁기하	-13342
▁가창력	-13343
▁설사	-13344
▁기관차	-13345
외선	-13346
ㄴㅏㅁ	-13347
▁Gold	-13348
▁크리스티	-13349
▁JC	-13350
▁트린	-13351
▁yout	-13352
▁ㅍㅏㄹㄹㅕ	-13353
▁헛소리	-13354
레미	-13355
▁정계	-13356
▁선풍	-13357
▁스님	-13358
▁Cy	-13359
▁거유	-13360
▁진작	-13361
▁분자	-13362
▁176	-13363
▁BASIC	-13364
▁앙쥬	-13365
▁오미	-13366
▁접어들	-13367
▁강성	-13368
▁man	-13369
▁충공깽	-13370
▁방과	-13371
▁노홍철	-13372
▁자연스레	-13373
▁대여	-13374
▁엘소드	-13375
▁똘	-13376
리에	-13377
▁하리	-13378
▁협의	-13379
▁173	-13380
▁단말기	-13381
IST	-13382
▁지독	-13383
▁UFO	-13384
▁XXX	-13385
▁헌신	-13386
▁뉴타입	-13387
▁무빙	-13388
▁바트	-13389
▁토탈	-13390
▁경인	-13391
▁무고	-13392
▁하자드	-13393
ek	-13394
▁불어	-13395
▁피리	-13396
▁ㅃㅐㅅ	-13397
▁나츠키	-13398
▁167	-13399
▁XP	-13400
▁토우마	-13401
▁142	-13402
▁애프터	-13403
사우	-13404
▁MT	-13405
▁즉각	-13406
▁펄스	-13407
▁ㄷㅗㄹㄹㅣㄹ	-13408
▁선곡	-13409
▁전전	-13410
▁이스터	-13411
▁초딩	-13412
▁까먹	-13413
▁헬스	-13414
▁ㅉㅣㄱㅎㅕ	-13415
▁전라북도	-13416
inc	-13417
▁MD	-13418
▁SW	-13419
▁대승	-13420
▁카가	-13421
▁환각	-13422
▁강행	-13423
▁존속	-13424
▁SG	-13425
▁}{	-13426
▁두근	-13427
▁라자	-13428
▁스왑	-13429
▁양아치	-13430
▁램프	-13431
▁초선	-13432
▁집정관	-13433
▁co	-13434
▁로마자	-13435
▁초고	-13436
▁테크노	-13437
▁왕좌	-13438
▁포르노	-13439
▁어지간히	-13440
▁6000	-13441
▁더비	-13442
▁행태	-13443
▁경전철	-13444
무니	-13445
▁고양시	-13446
▁단백질	-13447
▁Summer	-13448
러드	-13449
▁위탁	-13450
▁책략	-13451
▁루리웹	-13452
▁세츠나	-13453
▁신공	-13454
▁충북	-13455
▁후반전	-13456
▁고난	-13457
▁손녀	-13458
▁......	-13459
▁강변	-13460
▁경순	-13461
▁야드	-13462
▁용맹	-13463
미스	-13464
▁로자	-13465
▁기획사	-13466
▁키워드	-13467
받침	-13468
▁격리	-13469
irst	-13470
▁149	-13471
▁말소	-13472
범죄	-13473
▁수리검	-13474
▁시노부	-13475
▁케로로	-13476
▁맴	-13477
▁국사	-13478
▁수원시	-13479
거진	-13480
▁자크	-13481
▁미지수	-13482
▁OR	-13483
▁애드	-13484
▁380	-13485
▁왕따	-13486
▁에스파	-13487
▁IDOLM	-13488
▁백신	-13489
▁영창	-13490
카스	-13491
▁본드	-13492
▁청산	-13493
ㅇㅝㅆㅇㅡ	-13494
▁요미우리	-13495
▁아치	-13496
▁프레데	-13497
서야	-13498
▁관제	-13499
▁제멋대로	-13500
▁고베	-13501
▁정거	-13502
▁천연가스	-13503
▁번트	-13504
▁퍼니	-13505
▁King	-13506
▁행선	-13507
수아	-13508
▁당기	-13509
▁페달	-13510
용차	-13511
▁권능	-13512
▁뷰티	-13513
▁여사	-13514
▁수평	-13515
▁ㅇㅜㅁㅈㅣㄱㅇㅣㄴㄷㅏ	-13516
▁캐서	-13517
운전	-13518
ual	-13519
▁살인마	-13520
▁1961	-13521
▁AG	-13522
▁박해	-13523
gain	-13524
▁생겨나	-13525
YP	-13526
비언	-13527
제국	-13528
▁에우	-13529
▁흑룡	-13530
▁남동	-13531
▁미쓰	-13532
마르	-13533
어쓰	-13534
▁다인	-13535
▁은밀	-13536
▁총괄	-13537
▁막바지	-13538
▁위화감	-13539
문트	-13540
세데스	-13541
▁..'	-13542
▁메르세데스	-13543
▁단선	-13544
▁스퍼	-13545
▁피스트	-13546
▁UI	-13547
▁강판	-13548
▁지자	-13549
▁하부	-13550
ㄷㅜㄹ	-13551
▁학창	-13552
▁특공대	-13553
▁질리	-13554
▁판본	-13555
▁회견	-13556
▁위나라	-13557
▁파키스탄	-13558
▁ONE	-13559
▁유명세	-13560
던트	-13561
▁성체	-13562
▁완수	-13563
▁한숨	-13564
▁류현진	-13565
▁전년	-13566
▁Win	-13567
데기	-13568
패드	-13569
▁봉황	-13570
▁키퍼	-13571
▁143	-13572
▁입술	-13573
▁전교	-13574
▁꼬이	-13575
▁망설	-13576
▁가치관	-13577
▁디비전	-13578
토미	-13579
▁노이	-13580
▁아홉	-13581
▁원격	-13582
▁어린애	-13583
▁멜론	-13584
▁옐로	-13585
준혁	-13586
▁가차	-13587
▁깊숙	-13588
▁댄서	-13589
▁바오	-13590
▁치부	-13591
▁표방	-13592
▁스티커	-13593
▁뢰	-13594
▁아부	-13595
▁정중	-13596
▁어비스	-13597
▁상회	-13598
▁게리	-13599
▁이안	-13600
▁영분	-13601
▁현존	-13602
▁그리스어	-13603
▁우습	-13604
▁새우	-13605
OO	-13606
aj	-13607
▁기와	-13608
▁무상	-13609
▁무언	-13610
ㄱㅇㅣㅁ	-13611
▁헤븐	-13612
▁Can	-13613
▁부서지	-13614
▁타케루	-13615
미츠	-13616
▁계보	-13617
▁타츠야	-13618
▁황태자	-13619
▁갈라	-13620
▁기마	-13621
▁의대	-13622
▁오리지날	-13623
▁세나	-13624
▁코우지	-13625
▁VOCAL	-13626
▁마누	-13627
▁역학	-13628
▁캐서린	-13629
▁제비	-13630
▁포럼	-13631
▁경의	-13632
▁첨가	-13633
▁리우	-13634
▁u	-13635
▁유노	-13636
▁차종	-13637
▁조형	-13638
크리트	-13639
▁인내	-13640
▁정거장	-13641
▁리히	-13642
ㅇㅗㄹㄹㅏㅆ	-13643
▁봉기	-13644
▁수고	-13645
▁키메라	-13646
▁사파이어	-13647
ㅅㅣㄴㄷㅏ	-13648
ㄷㅡㄹㅇㅣㄴㄷㅏ	-13649
쳐나	-13650
▁진공	-13651
▁표본	-13652
툭튀	-13653
▁선형	-13654
▁진가	-13655
▁청색	-13656
▁흑백	-13657
▁백색	-13658
▁한스	-13659
▁쉘	-13660
▁휴스턴	-13661
령관	-13662
▁테츠야	-13663
▁단신	-13664
▁알아듣	-13665
▁프랑크	-13666
yn	-13667
▁Vo	-13668
▁아제	-13669
▁준장	-13670
▁카논	-13671
▁휩쓸	-13672
▁Out	-13673
▁This	-13674
▁속공	-13675
▁페니	-13676
▁현직	-13677
ㅋㅣㅁ	-13678
▁커맨더	-13679
▁갑툭튀	-13680
▁오피스	-13681
▁친위대	-13682
ㄷㅕ	-13683
▁백룡	-13684
▁프로이센	-13685
▁서지	-13686
▁수군	-13687
▁시동	-13688
▁카에	-13689
▁합창	-13690
▁어둡	-13691
▁크래	-13692
▁타시	-13693
▁넘어오	-13694
▁해내	-13695
▁본문	-13696
하이	-13697
ube	-13698
▁걸작	-13699
▁무의	-13700
▁최전	-13701
▁다짐	-13702
▁이분	-13703
▁Int	-13704
▁1942	-13705
▁What	-13706
▁잔당	-13707
▁빡빡	-13708
▁베니	-13709
▁우사	-13710
▁무효화	-13711
▁아카기	-13712
▁커브	-13713
▁SEED	-13714
▁실무	-13715
▁아멜	-13716
IV	-13717
▁매진	-13718
▁여하	-13719
▁추월	-13720
▁ㅅㅓㄹ	-13721
▁사마의	-13722
▁죄송	-13723
▁거리표	-13724
▁세션	-13725
▁1943	-13726
▁ㅉㅣㄱㅎㅣㄴ	-13727
▁두께	-13728
▁Da	-13729
▁분사	-13730
▁어워드	-13731
▁미야자키	-13732
▁우시	-13733
▁OPS	-13734
▁마리사	-13735
▁애교	-13736
타르	-13737
▁쳐다보	-13738
▁플러그	-13739
조작	-13740
▁속박	-13741
▁치프	-13742
ㄷㅏㄱ	-13743
▁세이지	-13744
▁ㅈㅜㅂㄴㅣ	-13745
▁바바	-13746
▁tvN	-13747
▁가든	-13748
▁육지	-13749
▁츠루	-13750
▁끝판	-13751
▁승부조작	-13752
▁빨강	-13753
▁섬세	-13754
▁배수량	-13755
▁어중간	-13756
▁유지비	-13757
▁이터널	-13758
▁각색	-13759
▁난폭	-13760
▁모탈	-13761
▁가가	-13762
▁리젠	-13763
▁스크립트	-13764
▁대두	-13765
▁지아	-13766
▁제이크	-13767
▁심포	-13768
▁활주	-13769
ㄹㅗㅂㅎㅣㅁ	-13770
▁등교	-13771
▁121	-13772
▁MASTER	-13773
▁뽑히	-13774
ady	-13775
▁자발	-13776
▁Live	-13777
▁의미심장	-13778
▁사이오	-13779
▁오마주	-13780
▁갈기	-13781
▁설계도	-13782
레스트	-13783
▁디테일	-13784
▁소진	-13785
▁신시	-13786
▁씁쓸	-13787
▁안보	-13788
▁재팬	-13789
▁판과	-13790
▁레미	-13791
▁고독	-13792
▁교훈	-13793
▁치중	-13794
▁대부	-13795
▁재난	-13796
▁사로잡	-13797
ATION	-13798
시계	-13799
▁TD	-13800
▁교주	-13801
▁미라이	-13802
▁사카모토	-13803
▁콘크리트	-13804
▁장원	-13805
▁Hard	-13806
튀기	-13807
▁Act	-13808
▁대머리	-13809
▁매거진	-13810
▁맛보	-13811
▁왕건	-13812
▁초중	-13813
ㅇㅘㅆㅇㅓㅆ	-13814
▁연희	-13815
▁석사	-13816
▁ㅌㅗㅇㅎㅏㄴㄷㅏ	-13817
▁선구	-13818
▁시르	-13819
▁치이	-13820
▁매트릭스	-13821
▁강팀	-13822
▁관대	-13823
▁김도	-13824
let	-13825
▁처단	-13826
▁뻥튀기	-13827
작전	-13828
▁성녀	-13829
▁ㅁㅏㄹㄹㅏ	-13830
▁구독	-13831
▁무성	-13832
▁재임	-13833
▁뾰	-13834
▁세가	-13835
▁잉크	-13836
riend	-13837
▁ㅎㅡㄹㄹㅕ	-13838
▁격돌	-13839
▁경장	-13840
▁독설	-13841
전대	-13842
틀리	-13843
ush	-13844
▁칭송	-13845
▁되려	-13846
▁신축	-13847
▁관악	-13848
▁폭발물	-13849
로리	-13850
▁배지	-13851
▁서인	-13852
▁득표율	-13853
▁로스앤	-13854
▁로스앤젤레스	-13855
미사	-13856
▁튜버	-13857
▁노브	-13858
▁당분	-13859
▁언행	-13860
iew	-13861
▁시세	-13862
▁1920	-13863
▁174	-13864
▁ㄴㅓㅁㅊㅕ	-13865
킨스	-13866
▁수녀	-13867
▁매그넘	-13868
▁군산	-13869
▁수다	-13870
▁십상	-13871
▁되살	-13872
▁양면	-13873
▁괴멸	-13874
▁역관	-13875
▁능욕	-13876
▁수소	-13877
▁이속	-13878
▁문화재	-13879
▁음모론	-13880
▁인벤토리	-13881
중국	-13882
▁ㄴㅐㅆㅇㅡ	-13883
테나	-13884
▁혜성	-13885
▁ㄸㅡㄹ	-13886
▁배틀필드	-13887
▁콥	-13888
▁유우야	-13889
eet	-13890
▁베드	-13891
▁욕구	-13892
▁자신감	-13893
UC	-13894
▁루팡	-13895
베르토	-13896
▁라이토	-13897
▁엄지	-13898
▁조비	-13899
▁살아나	-13900
▁잠재력	-13901
▁바늘	-13902
▁출세	-13903
▁쇼핑몰	-13904
▁205	-13905
▁ㄹㅏㄹㄲㅏ	-13906
▁비약	-13907
▁아프가	-13908
▁이어인	-13909
ㄷㅜㄴㄷㅏ	-13910
bps	-13911
▁나우	-13912
▁아역	-13913
▁이제동	-13914
ational	-13915
▁볼프	-13916
▁호세	-13917
▁크리드	-13918
▁소용돌이	-13919
▁섭외	-13920
▁호그	-13921
▁이상민	-13922
▁워너	-13923
▁BF	-13924
▁송병	-13925
▁엑스맨	-13926
▁피에르	-13927
▁갑작스럽	-13928
rain	-13929
▁나오키	-13930
▁누님	-13931
▁준결승	-13932
▁EA	-13933
▁난해	-13934
▁여건	-13935
ORE	-13936
▁족장	-13937
▁겉보기	-13938
▁TG	-13939
▁성검	-13940
▁CB	-13941
▁반칙	-13942
▁조인	-13943
▁표출	-13944
ESS	-13945
▁제구	-13946
▁종일	-13947
▁Air	-13948
조각	-13949
▁꼭두	-13950
총리	-13951
▁반환	-13952
▁법안	-13953
▁도호쿠	-13954
▁베가스	-13955
페어	-13956
▁ㄷㅗㅇㅇㅣㄴ	-13957
▁다중	-13958
사이드	-13959
ita	-13960
▁난동	-13961
▁줄곧	-13962
▁폭동	-13963
▁ㄲㅐㄹ	-13964
▁자부심	-13965
▁ㄷㅚㄹㄲㅏ	-13966
▁느긋	-13967
▁솔로몬	-13968
▁포털	-13969
▁성우진	-13970
▁1946	-13971
▁ㅇㅣㄴㄷㅏ	-13972
▁쐐기	-13973
▁유포	-13974
▁ㅈㅓㅇㅎㅏㄴ	-13975
UE	-13976
▁이에야스	-13977
ane	-13978
▁줄줄이	-13979
버린	-13980
▁격하	-13981
▁송이	-13982
▁호대	-13983
▁템포	-13984
▁문헌	-13985
▁작별	-13986
▁틀림	-13987
▁히코	-13988
▁배럴	-13989
▁앙리	-13990
▁퍼스	-13991
▁보유자	-13992
니트	-13993
무진	-13994
▁박용	-13995
▁덕택	-13996
▁끼어들	-13997
▁검도	-13998
▁임페	-13999
▁평원	-14000
무소	-14001
▁레슨	-14002
▁루기	-14003
▁아프가니스탄	-14004
▁하르	-14005
▁양념	-14006
▁미상	-14007
▁승기	-14008
▁외출	-14009
▁언락	-14010
▁은메달	-14011
▁만루	-14012
▁VOCALOID	-14013
▁켈리	-14014
▁무자비	-14015
▁ㅂㅏㄷㅊㅕ	-14016
케이	-14017
▁거물	-14018
▁Warhammer	-14019
도스	-14020
▁유쾌	-14021
때로	-14022
▁sc	-14023
▁망가	-14024
▁박격포	-14025
▁time	-14026
▁즘	-14027
▁하데스	-14028
▁두드러지	-14029
▁얽	-14030
▁웍	-14031
▁국물	-14032
▁유영	-14033
모델	-14034
▁부우	-14035
▁심리전	-14036
▁꽝	-14037
▁부토	-14038
▁사병	-14039
▁주작	-14040
▁끌어들이	-14041
▁윌슨	-14042
▁병신	-14043
▁홍대	-14044
블릿	-14045
▁가네	-14046
▁착하	-14047
▁꺼리	-14048
▁ㅂㅏㄺㅎㅣㄴㄷㅏ	-14049
▁달빛	-14050
▁왕궁	-14051
▁ㅈㅜㅁ	-14052
▁동대문	-14053
▁ㄱㅏㄷㅎㅣㄴ	-14054
▁예배	-14055
▁담당자	-14056
▁새로이	-14057
ㄴㅜㄴ	-14058
▁임페리얼	-14059
▁ㅌㅡㄹㄹㅕㅆ	-14060
▁만세	-14061
▁총통	-14062
▁여친	-14063
▁카메오	-14064
▁이신	-14065
▁폭포	-14066
▁웨이트	-14067
▁ㅇㅕㄹㄹㅕ	-14068
퍼런스	-14069
▁리바이	-14070
▁지지자	-14071
▁역전재판	-14072
▁히토미	-14073
▁교섭	-14074
▁도모	-14075
▁피어	-14076
▁료마	-14077
▁데뷔작	-14078
▁빈사	-14079
▁상반기	-14080
▁유로파	-14081
▁졸지	-14082
공화국	-14083
▁Cat	-14084
▁ㅈㅓㄴㅎㅐㅆ	-14085
▁단절	-14086
클레스	-14087
▁허구	-14088
here	-14089
ness	-14090
▁교재	-14091
▁잘리	-14092
▁준공	-14093
▁블루스	-14094
▁피라미	-14095
▁세토	-14096
제스	-14097
▁각기	-14098
▁츠카사	-14099
▁Hell	-14100
▁용호	-14101
▁수락	-14102
▁부여받	-14103
▁빵빵	-14104
▁굴복	-14105
▁남극	-14106
▁퀄컴	-14107
▁사부	-14108
▁대한항공	-14109
▁킬로	-14110
소스	-14111
▁기한	-14112
▁비토	-14113
▁김정일	-14114
▁센트리	-14115
eth	-14116
▁채집	-14117
ㅂㅈㅏ	-14118
▁1941	-14119
▁컨테이너	-14120
ㅂㅈㅏㄱㅅㅡ	-14121
▁GR	-14122
▁랜디	-14123
▁단거리	-14124
▁`	-14125
▁q	-14126
▁법학	-14127
▁At	-14128
▁ll	-14129
▁밴시	-14130
▁티거	-14131
▁전류	-14132
▁내심	-14133
▁노엘	-14134
▁조제	-14135
▁ㄷㅐㄴ	-14136
▁판도라	-14137
▁김창	-14138
▁팔꿈치	-14139
▁벵	-14140
▁산화	-14141
▁la	-14142
▁나날	-14143
▁불상	-14144
▁요동	-14145
▁증후	-14146
▁Res	-14147
EX	-14148
▁허영	-14149
▁페인트	-14150
▁탈옥	-14151
▁싱크로	-14152
▁자본주의	-14153
▁미완	-14154
▁호타	-14155
▁학회	-14156
▁한조	-14157
유리	-14158
▁마니	-14159
▁GX	-14160
▁성균	-14161
▁진술	-14162
▁대제	-14163
▁연구실	-14164
▁자치령	-14165
ne	-14166
▁킹스	-14167
▁파업	-14168
▁피곤	-14169
ret	-14170
▁작렬	-14171
▁이동하	-14172
▁비정	-14173
▁손아	-14174
▁진형	-14175
itch	-14176
▁ㅈㅜㄹㅇㅣㄹ	-14177
▁심연	-14178
▁Sound	-14179
▁빅터	-14180
▁치아	-14181
▁든	-14182
▁도미니	-14183
▁성균관	-14184
▁뭉치	-14185
▁유스케	-14186
▁총탄	-14187
▁주군	-14188
▁익스트림	-14189
▁래스	-14190
▁벤트	-14191
▁유년	-14192
▁김택용	-14193
▁늘어놓	-14194
아아	-14195
컨대	-14196
▁id	-14197
▁스탠스	-14198
▁삼거리	-14199
▁창원시	-14200
▁마음껏	-14201
▁이니셜	-14202
▁내공	-14203
▁만두	-14204
▁명인	-14205
▁야기	-14206
▁염소	-14207
▁추석	-14208
▁단연	-14209
▁부녀	-14210
▁역병	-14211
▁이은	-14212
▁레베	-14213
▁베라	-14214
▁대장군	-14215
▁듀엣	-14216
▁이복	-14217
▁보단	-14218
▁우려먹	-14219
ㄴㅣㅂㄴㅣ	-14220
신기	-14221
▁미타	-14222
▁유엔	-14223
▁직감	-14224
▁ㄸㅏㄹㄹㅕ	-14225
▁신원	-14226
ㅈㅣㅂ	-14227
▁레볼루션	-14228
▁지지율	-14229
▁알코	-14230
▁오로라	-14231
▁코브라	-14232
▁참모총장	-14233
▁사바	-14234
▁ㄲㅡㅌㄴㅏ	-14235
▁듬	-14236
무늬	-14237
▁슬퍼	-14238
▁자수	-14239
▁장래	-14240
▁포고	-14241
▁도도	-14242
▁사안	-14243
코스	-14244
▁퇴마	-14245
▁동메달	-14246
▁어설트	-14247
▁SKE	-14248
▁들통	-14249
▁ㅋㅓㄹ	-14250
▁ㅇㅣㅂㅎㅕ	-14251
사우루스	-14252
▁리베	-14253
▁미련	-14254
▁조달	-14255
▁차세대	-14256
▁아울러	-14257
▁만류	-14258
▁대상자	-14259
▁ㅇㅜㄹㄹㅕ	-14260
▁옥타	-14261
▁태연	-14262
ㄱㅣㅁ	-14263
▁night	-14264
제품	-14265
▁셀프	-14266
▁유키노	-14267
▁대적	-14268
▁모나	-14269
▁Rec	-14270
na	-14271
▁따내	-14272
▁시발	-14273
▁항우	-14274
▁147	-14275
▁신노스케	-14276
▁서원	-14277
▁조장	-14278
럭스	-14279
▁연루	-14280
▁직관	-14281
▁해저	-14282
▁김정은	-14283
열차	-14284
▁저러	-14285
▁세이야	-14286
▁제너럴	-14287
▁Hy	-14288
▁과실	-14289
▁백수	-14290
▁빌미	-14291
▁채소	-14292
▁적료	-14293
▁시구	-14294
▁146	-14295
▁인민공화국	-14296
▁가주	-14297
▁사육	-14298
더스트	-14299
▁파드	-14300
▁후세	-14301
▁후안	-14302
▁경쟁력	-14303
▁따라오	-14304
▁증후군	-14305
▁ㄷㅡㄹㅇㅣ	-14306
▁진흥	-14307
▁피츠	-14308
IGHT	-14309
▁김영삼	-14310
▁오디	-14311
▁할당	-14312
▁와이드	-14313
▁슈타	-14314
▁편제	-14315
▁Big	-14316
▁스케치	-14317
▁크림슨	-14318
eath	-14319
▁익스프레스	-14320
▁방대	-14321
▁상원	-14322
▁이변	-14323
▁특허	-14324
아티아	-14325
▁크로아티아	-14326
▁집결	-14327
▁미팅	-14328
▁서태지	-14329
▁ㅈㅣㄹㄹㅓ	-14330
▁ㅎㅏㄹㄹㅕ	-14331
▁몽땅	-14332
▁복종	-14333
▁차남	-14334
▁근래	-14335
▁맞히	-14336
▁갈래	-14337
▁성채	-14338
ㄷㅣㅈ	-14339
▁낙원	-14340
▁화랑	-14341
▁org	-14342
▁민정	-14343
▁뿌요	-14344
▁ㅉㅏㄴ	-14345
▁알아채	-14346
▁그지	-14347
▁기겁	-14348
▁Heav	-14349
▁플레이트	-14350
ㅁㅏㅇㅊㅕㅆ	-14351
▁ㅅㅏㄹㄹㅣㄴ	-14352
▁택하	-14353
▁ㄷㅓㄴㅈㅣㄹ	-14354
교육	-14355
▁싱어	-14356
▁자문	-14357
▁노스케	-14358
▁교감	-14359
▁난전	-14360
▁노후	-14361
▁제각	-14362
▁클립	-14363
▁스펙터	-14364
▁1600	-14365
▁스트레이트	-14366
▁매개	-14367
▁어제	-14368
▁서면	-14369
▁ㄴㅏㄹㄹㅣㄹ	-14370
▁222	-14371
▁GK	-14372
▁Des	-14373
▁ㅍㅕㅇㅎㅐㅆ	-14374
▁고원	-14375
▁아유미	-14376
▁불태우	-14377
▁피니시	-14378
▁술탄	-14379
버거	-14380
▁오클	-14381
▁정크	-14382
▁동참	-14383
▁가솔린	-14384
▁미라클	-14385
▁상류	-14386
▁진군	-14387
▁증원	-14388
▁RAM	-14389
▁like	-14390
asy	-14391
▁일직	-14392
▁부록	-14393
▁ㅎㅟㅂㅆㅏ	-14394
▁맥시	-14395
▁의리	-14396
▁체급	-14397
▁회자	-14398
▁news	-14399
모니	-14400
▁Battle	-14401
▁대담	-14402
▁Mod	-14403
▁1954	-14404
▁페르난	-14405
▁연안	-14406
▁정종	-14407
▁하코	-14408
▁트리오	-14409
여행	-14410
▁가왕	-14411
▁마토	-14412
▁북극	-14413
▁이과	-14414
▁조류	-14415
▁휴전	-14416
캐스트	-14417
▁뒷받침	-14418
▁204	-14419
▁체이스	-14420
▁구치	-14421
▁태세	-14422
▁스탠딩	-14423
▁아지트	-14424
▁스킵	-14425
▁ㅃㅓㄴ	-14426
ny	-14427
수수	-14428
포스	-14429
▁결별	-14430
▁ㄱㅝㄴ	-14431
▁166	-14432
▁구미호	-14433
▁위생	-14434
▁티저	-14435
고쿠	-14436
▁두들	-14437
▁박준	-14438
▁재혼	-14439
▁주성	-14440
방사기	-14441
▁Che	-14442
▁키사라기	-14443
▁화염방사기	-14444
▁옌	-14445
▁줍	-14446
▁인피니트	-14447
OK	-14448
▁전투복	-14449
▁1958	-14450
▁스루	-14451
▁아킬	-14452
▁차관	-14453
▁천도	-14454
▁클락	-14455
▁행각	-14456
▁좆	-14457
ORM	-14458
ven	-14459
▁과부	-14460
▁극찬	-14461
▁유교	-14462
▁캐롤	-14463
▁명왕	-14464
▁유배	-14465
▁정의당	-14466
▁츠바키	-14467
린스	-14468
▁아까	-14469
▁지름	-14470
▁ㅎㅐㅇㅎㅐ	-14471
르슈	-14472
▁구세	-14473
▁미도	-14474
▁친근	-14475
▁호우	-14476
▁ㅈㅝㅆㅇㅡ	-14477
▁fl	-14478
▁시오리	-14479
르드	-14480
▁밸리	-14481
▁커리	-14482
▁한국군	-14483
▁탤	-14484
▁동거	-14485
▁인프라	-14486
▁등산	-14487
▁바쁘	-14488
▁태블릿	-14489
피온	-14490
▁노마	-14491
▁배분	-14492
▁명장면	-14493
▁다정	-14494
▁칼럼	-14495
▁대잠	-14496
▁웨일	-14497
▁향기	-14498
▁동유럽	-14499
날두	-14500
▁간편	-14501
▁럼블	-14502
▁인즈	-14503
▁저거	-14504
▁타협	-14505
▁트림	-14506
▁ㅅㅓㅁ	-14507
▁온화	-14508
▁전산	-14509
▁협약	-14510
▁ㅇㅕㄹ	-14511
▁ㄱㅜㄷㅇㅓ	-14512
틱스	-14513
▁호날두	-14514
▁박병	-14515
arm	-14516
▁우이	-14517
▁세레나	-14518
▁변종	-14519
▁난투	-14520
▁영락	-14521
▁원어	-14522
▁SSR	-14523
사의	-14524
▁ㅋㅋ	-14525
▁ㄱㅏㄹㄱ	-14526
▁일부분	-14527
티넘	-14528
ALL	-14529
▁ㄲㅕ	-14530
▁뚫리	-14531
▁호노카	-14532
▁플래티넘	-14533
▁ㄴㅗㄱㅇㅕ	-14534
▁DB	-14535
▁누마	-14536
▁엠블렘	-14537
모사	-14538
저트	-14539
▁상정	-14540
▁손수	-14541
▁수전	-14542
▁를	-14543
▁SV	-14544
ouse	-14545
▁로테이션	-14546
▁베른	-14547
▁철벽	-14548
▁ㅇㅣㅂㅎㅣㄴ	-14549
▁마그마	-14550
▁연기자	-14551
▁1948	-14552
각시	-14553
무스	-14554
▁공자	-14555
▁빼놓	-14556
벨트	-14557
▁기복	-14558
▁아이리스	-14559
▁ㄱㅏㅂㅈㅏㄱㅅㅡ	-14560
▁웬리	-14561
▁유감	-14562
내기	-14563
방식	-14564
▁치타	-14565
타리	-14566
▁부두	-14567
▁대각선	-14568
▁매칭	-14569
▁이창	-14570
▁대파	-14571
▁자위	-14572
▁한가	-14573
▁ㄲㅡㅀ	-14574
▁대입	-14575
▁동포	-14576
▁병영	-14577
코프	-14578
파니	-14579
▁선체	-14580
▁일선	-14581
▁플라잉	-14582
▁마테	-14583
▁저희	-14584
▁하반신	-14585
▁8000	-14586
▁KD	-14587
▁진흙	-14588
▁슬퍼하	-14589
▁아이젠	-14590
▁진과	-14591
▁낙인	-14592
▁이가	-14593
▁절묘	-14594
▁짝퉁	-14595
▁제네시스	-14596
▁츳	-14597
▁회복력	-14598
▁골리	-14599
▁쇼군	-14600
이팅	-14601
▁운임	-14602
▁평창	-14603
▁프라이즈	-14604
ru	-14605
▁퍼시픽	-14606
▁1949	-14607
▁갑판	-14608
▁레트	-14609
▁튕기	-14610
▁정신기	-14611
바퀴	-14612
▁범주	-14613
▁청동	-14614
▁넘쳐나	-14615
▁득실	-14616
▁예리	-14617
▁종자	-14618
▁소중히	-14619
▁용품	-14620
▁참패	-14621
▁알프레	-14622
▁활주로	-14623
이인	-14624
▁영리	-14625
▁Sing	-14626
▁라트	-14627
▁안도	-14628
▁유추	-14629
▁잔재	-14630
▁사생활	-14631
ㅇㅏㅅㄱㅣㄴ	-14632
곡동	-14633
▁프렌즈	-14634
ㄱㅏㅆㅇㅡ	-14635
권자	-14636
▁액트	-14637
▁에노	-14638
▁but	-14639
▁소음기	-14640
▁바실	-14641
▁코요미	-14642
▁선천	-14643
▁승하	-14644
▁자의	-14645
▁런닝맨	-14646
▁엠파이어	-14647
▁직계	-14648
▁목요일	-14649
▁불가사의	-14650
▁석화	-14651
▁사단장	-14652
러기	-14653
▁발트	-14654
▁외환	-14655
▁대강	-14656
▁동급생	-14657
▁세이부	-14658
▁ㅁㅏㄱㅎㅣㄴ	-14659
▁가메	-14660
▁육식	-14661
▁쳐들	-14662
영수	-14663
▁남아공	-14664
▁동맹군	-14665
▁ㄱㅏㄹㄹㅕ	-14666
▁안중	-14667
▁임하	-14668
▁생몰	-14669
칼리버	-14670
▁엘리스	-14671
▁아종	-14672
▁주방	-14673
▁평안	-14674
▁생각나	-14675
회장	-14676
▁수뇌	-14677
데르	-14678
▁카멜	-14679
▁BBC	-14680
▁귀중	-14681
▁마운드	-14682
▁책임자	-14683
▁카트리	-14684
▁갈아타	-14685
▁다나카	-14686
▁ㄲㅡㄹ	-14687
▁화장품	-14688
▁동명이인	-14689
▁푸른	-14690
▁하임	-14691
▁리포트	-14692
▁박진	-14693
▁하쿠	-14694
▁ㅊㅜㄴ	-14695
▁랫	-14696
해군	-14697
혁명	-14698
ㅁㅓ	-14699
토록	-14700
ari	-14701
▁~'	-14702
▁부과	-14703
▁예하	-14704
▁음양	-14705
링크	-14706
▁노선도	-14707
▁사츠키	-14708
▁Edition	-14709
ina	-14710
▁금전	-14711
▁탄두	-14712
▁탈것	-14713
▁제네레이션	-14714
▁욕먹	-14715
ount	-14716
지원	-14717
▁ㅈㅣㄹㄹㅕ	-14718
▁현행	-14719
▁총대	-14720
▁표창	-14721
▁하야테	-14722
▁벽돌	-14723
▁터무니	-14724
▁프레디	-14725
▁불가리아	-14726
자루	-14727
클리	-14728
▁기만	-14729
▁슬쩍	-14730
▁토론토	-14731
▁특이점	-14732
▁ㅇㅗㄻㄱㅣㄴ	-14733
▁유승	-14734
드래	-14735
▁구애	-14736
▁신촌	-14737
▁저력	-14738
▁지중	-14739
▁이문	-14740
▁치히로	-14741
▁NG	-14742
▁성원	-14743
▁외야	-14744
▁콘테	-14745
ivers	-14746
▁빅토리	-14747
모자	-14748
▁로로	-14749
▁수비진	-14750
▁if	-14751
▁태수	-14752
▁사위	-14753
▁운전자	-14754
▁충실히	-14755
▁뭣	-14756
▁루즈	-14757
▁템플러	-14758
▁문의	-14759
▁빌라	-14760
▁일진	-14761
▁차마	-14762
▁카바	-14763
▁XC	-14764
▁하루히	-14765
▁1900	-14766
▁매복	-14767
cl	-14768
▁마호	-14769
▁제보	-14770
▁공중전	-14771
▁과다	-14772
▁경부선	-14773
▁노조미	-14774
▁Song	-14775
▁가산	-14776
▁양동	-14777
▁향수	-14778
▁헤지	-14779
▁교육청	-14780
ㄱㅜㄴㅈㅣ	-14781
마사	-14782
▁경전차	-14783
▁독도	-14784
▁석궁	-14785
▁스몰	-14786
▁체구	-14787
▁히이	-14788
▁know	-14789
▁잽	-14790
▁안나	-14791
▁고스란히	-14792
▁드럼매니아	-14793
▁뮤즈	-14794
▁알몸	-14795
▁위조	-14796
▁친밀	-14797
▁340	-14798
▁목표물	-14799
▁기염	-14800
▁조슈	-14801
투아	-14802
▁거제	-14803
▁젤다	-14804
▁쩌	-14805
▁멸자	-14806
▁칸나	-14807
▁리언	-14808
▁모방	-14809
▁막론	-14810
▁무어	-14811
▁보답	-14812
▁비올	-14813
▁재해	-14814
▁점포	-14815
▁알코올	-14816
긋나	-14817
▁짱구	-14818
▁미토	-14819
▁군단장	-14820
지대	-14821
▁고모	-14822
▁때때로	-14823
▁배척	-14824
▁스스	-14825
실히	-14826
▁카야	-14827
▁폭군	-14828
▁Run	-14829
▁im	-14830
▁소감	-14831
▁키치	-14832
▁쥴	-14833
▁방랑	-14834
▁나리타	-14835
▁라운	-14836
▁맏	-14837
▁초전	-14838
ㄲㅡㄴ	-14839
ㄴㅜㄹ	-14840
▁실험실	-14841
ters	-14842
▁RAW	-14843
▁중공업	-14844
▁잔디	-14845
HN	-14846
▁태고	-14847
▁퇴근	-14848
▁사쿠야	-14849
▁포이	-14850
▁황족	-14851
▁But	-14852
▁쌩	-14853
use	-14854
▁도메	-14855
▁여진	-14856
▁Magic	-14857
▁체조	-14858
▁디스코	-14859
▁카운티	-14860
천동	-14861
▁발산	-14862
▁품종	-14863
▁신한은행	-14864
▁덫	-14865
▁정자	-14866
ㅈㅝㅆ	-14867
▁WAR	-14868
▁성공회	-14869
▁악질	-14870
▁안철수	-14871
고생	-14872
공격	-14873
▁CEO	-14874
▁데이브	-14875
▁따라다니	-14876
▁를르슈	-14877
▁토와	-14878
▁ㅇㅕㄲㅇㅣㄴ	-14879
▁우아	-14880
▁원년	-14881
▁090	-14882
▁터트리	-14883
지물	-14884
피어	-14885
▁국수	-14886
▁부합	-14887
▁선방	-14888
▁밀려나	-14889
▁하이브	-14890
기업	-14891
▁사역	-14892
▁신령	-14893
▁왕녀	-14894
▁AMD	-14895
▁공약	-14896
▁서문	-14897
▁삼국사기	-14898
돌리	-14899
▁'-	-14900
▁천체	-14901
▁방정식	-14902
▁소피아	-14903
▁프라이드	-14904
▁송파	-14905
▁333	-14906
ars	-14907
▁료코	-14908
▁코일	-14909
▁HOT	-14910
▁이지스	-14911
▁레이브	-14912
▁위저드	-14913
▁란트	-14914
▁피라미드	-14915
스기	-14916
▁끌어내	-14917
▁Ab	-14918
▁밀어붙이	-14919
▁어기	-14920
▁작살	-14921
▁국민당	-14922
▁ㅅㅏㄹㄹㅣㄹ	-14923
▁섹터	-14924
▁마키나	-14925
▁방어선	-14926
▁원사	-14927
▁반자동	-14928
ke	-14929
덱스	-14930
스톤	-14931
▁랄프	-14932
▁선역	-14933
▁민족주의	-14934
▁츠치	-14935
erm	-14936
▁슬래	-14937
▁프리드	-14938
▁정대	-14939
▁720	-14940
▁프랑스군	-14941
▁ㄷㅡㄹㄹㅓ	-14942
▁관용	-14943
▁아그	-14944
OUR	-14945
▁성문	-14946
▁득표수	-14947
▁올리버	-14948
ㄱㅇㅏ	-14949
▁치토	-14950
▁송곳	-14951
▁심플	-14952
▁지난	-14953
▁침체	-14954
▁민병대	-14955
▁RS	-14956
▁든든	-14957
▁경시	-14958
▁에러	-14959
바키아	-14960
▁day	-14961
나시	-14962
▁쟁탈	-14963
ㄴㅘㅆ	-14964
▁SNK	-14965
고루	-14966
▁고려대	-14967
▁로스터	-14968
▁선글라스	-14969
XT	-14970
▁꺼지	-14971
▁경찰관	-14972
▁ㄷㅏㄹㄹㅣㄴㄷㅏ	-14973
su	-14974
리케이션	-14975
▁토의	-14976
▁시집	-14977
▁오컬	-14978
▁꼭두각시	-14979
▁명실	-14980
블루	-14981
▁떠들	-14982
▁펜스	-14983
▁차크라	-14984
▁터프	-14985
▁문성	-14986
▁에티	-14987
▁헌병	-14988
▁랏	-14989
규어	-14990
매매	-14991
▁홈구장	-14992
▁ㅅㅛ	-14993
▁좀비	-14994
▁칼질	-14995
▁명령어	-14996
단체	-14997
▁경위	-14998
하하	-14999
▁로만	-15000
▁바운드	-15001
▁아츠시	-15002
▁암흑기	-15003
▁단조	-15004
▁에밀리	-15005
▁동물원	-15006
▁사업자	-15007
LD	-15008
▁Not	-15009
▁이따	-15010
▁드래그	-15011
디우스	-15012
▁소주	-15013
▁패거리	-15014
▁인스	-15015
탕스	-15016
▁Tri	-15017
▁레지스탕스	-15018
▁ㅈㅏㄹㄹㅣㄴ	-15019
위치	-15020
▁여명	-15021
▁GAM	-15022
▁비운	-15023
▁요르	-15024
▁칠흑	-15025
▁시한	-15026
▁악보	-15027
▁조율	-15028
ecial	-15029
▁만악	-15030
▁행군	-15031
▁알파벳	-15032
▁야채	-15033
▁원동	-15034
▁헤매	-15035
▁네기	-15036
▁인신	-15037
▁Grand	-15038
▁월터	-15039
▁전과	-15040
▁PVP	-15041
EME	-15042
▁음란	-15043
▁초당	-15044
▁Boy	-15045
▁몰아내	-15046
▁격변	-15047
▁비룡	-15048
▁스완	-15049
▁시프	-15050
▁아델	-15051
▁순순	-15052
▁체내	-15053
▁호라이	-15054
▁ㅂㅕㄴㅎㅏㅁ	-15055
▁네메	-15056
▁더스트	-15057
렉트	-15058
▁오스카	-15059
▁임창	-15060
▁정동	-15061
▁추첨	-15062
▁터리	-15063
▁얌전	-15064
▁첩보	-15065
▁퍼트	-15066
▁화판	-15067
▁며느리	-15068
▁야구단	-15069
▁비즈니스	-15070
레오	-15071
▁가호	-15072
▁래쉬	-15073
▁성추	-15074
▁허다	-15075
▁스폰지	-15076
ㄴㅜ	-15077
▁짤막	-15078
▁증가량	-15079
▁카터	-15080
▁양방향	-15081
▁오우거	-15082
▁진에어	-15083
주군	-15084
▁눕	-15085
▁수레	-15086
▁TF	-15087
▁시빌	-15088
▁울부	-15089
▁탐욕	-15090
▁오컬트	-15091
▁1959	-15092
}}	-15093
▁프랭	-15094
▁루카스	-15095
ship	-15096
AA	-15097
▁옴니	-15098
▁츳코	-15099
▁바람직	-15100
▁슐	-15101
▁KC	-15102
▁비평	-15103
▁격노	-15104
▁단번에	-15105
연합	-15106
▁압살	-15107
▁이탈리아어	-15108
▁수족	-15109
▁통학	-15110
▁코팅	-15111
▁가까스로	-15112
▁빌헬	-15113
▁오드	-15114
▁Dragon	-15115
▁PO	-15116
▁명품	-15117
▁수분	-15118
▁희생양	-15119
▁Baby	-15120
▁ㄷㅗㄷㅂㅗ	-15121
▁God	-15122
▁아르메	-15123
▁브란	-15124
UL	-15125
▁시애	-15126
▁개인전	-15127
세우스	-15128
노트	-15129
▁김혜	-15130
▁실천	-15131
▁픽업	-15132
▁현질	-15133
▁화룡	-15134
▁체이서	-15135
▁ㅂㅗㄹㄲㅏ	-15136
▁ㅁㅗㄹㄹㅣㄴ	-15137
▁김희	-15138
ana	-15139
rop	-15140
▁결장	-15141
▁도마뱀	-15142
형제	-15143
▁김인	-15144
▁농촌	-15145
▁장녀	-15146
▁정몽	-15147
▁펼쳐지	-15148
▁1955	-15149
▁ㄴㅡㄴㄱㅜ	-15150
▁승천	-15151
▁업종	-15152
▁영조	-15153
▁슬라이딩	-15154
사람	-15155
▁바이퍼	-15156
▁'~	-15157
▁마티	-15158
▁역설	-15159
▁조나	-15160
▁MAN	-15161
▁재규어	-15162
레일리아	-15163
▁드레이크	-15164
ift	-15165
▁볼일	-15166
▁탈탈	-15167
▁고갈	-15168
▁디셉	-15169
▁대법원	-15170
▁무궁화호	-15171
▁수법	-15172
▁수아	-15173
▁청장	-15174
▁해임	-15175
오피스	-15176
▁단단히	-15177
▁성폭행	-15178
립스	-15179
▁입성	-15180
▁일평균	-15181
▁쓸어버리	-15182
▁불운	-15183
▁평정	-15184
▁다이너	-15185
▁쌈	-15186
▁크러	-15187
메리카	-15188
▁151	-15189
▁거주지	-15190
▁Beat	-15191
▁ab	-15192
▁창의	-15193
▁광양	-15194
▁양파	-15195
라비아	-15196
▁수요일	-15197
▁순순히	-15198
▁젯	-15199
▁POP	-15200
▁그토록	-15201
유기	-15202
▁경희	-15203
▁광화	-15204
▁일개	-15205
▁훈련소	-15206
ys	-15207
▁어휘	-15208
▁지침	-15209
▁애시당초	-15210
▁OM	-15211
▁즐거	-15212
▁케르	-15213
▁비행선	-15214
▁시애틀	-15215
ㅃㅏㅆ	-15216
ㅂㅏㄱㅎㅕ	-15217
45	-15218
▁아득	-15219
▁억양	-15220
▁Spr	-15221
▁마사토	-15222
▁이어폰	-15223
▁1956	-15224
elf	-15225
▁엘런	-15226
▁타지	-15227
▁토리코	-15228
▁노어	-15229
omb	-15230
▁푸쉬	-15231
▁다이브	-15232
지기	-15233
▁가와	-15234
▁아날	-15235
▁야요이	-15236
▁뒤이	-15237
▁악장	-15238
▁전고	-15239
▁페루	-15240
▁건립	-15241
▁뾰족	-15242
▁탄수	-15243
▁서유럽	-15244
둘기	-15245
▁강급	-15246
▁둔화	-15247
▁아랍어	-15248
▁니즈	-15249
▁미카엘	-15250
베다	-15251
▁뺏기	-15252
▁아틀라스	-15253
▁뚱뚱	-15254
▁키쿠	-15255
▁앞마당	-15256
▁울부짖	-15257
▁졸업식	-15258
▁염동	-15259
▁NAS	-15260
▁오리콘	-15261
ㅁㅏㅇㅊㅣㄴ	-15262
▁장단	-15263
ㅇㄱㅡ	-15264
ally	-15265
▁상대편	-15266
▁리바운드	-15267
▁RO	-15268
▁무심	-15269
▁주임	-15270
▁게르만	-15271
▁온전히	-15272
▁추기	-15273
▁전염병	-15274
▁버디	-15275
▁블라디미르	-15276
▁교직	-15277
▁남용	-15278
▁일갈	-15279
▁ㄷㅏㄱ	-15280
▁마취	-15281
▁이바	-15282
▁불허	-15283
▁서진	-15284
▁쇼타	-15285
▁초계	-15286
▁페이커	-15287
ren	-15288
▁디트로	-15289
▁좀처럼	-15290
▁디트로이트	-15291
▁아르메니아	-15292
소니	-15293
▁도보	-15294
▁파열	-15295
▁001	-15296
▁총사령관	-15297
▁려	-15298
벅지	-15299
▁송구	-15300
▁챌린저	-15301
▁릉	-15302
▁Es	-15303
▁김준호	-15304
▁GL	-15305
▁산산	-15306
▁바사라	-15307
▁화질	-15308
리아스	-15309
▁카츠키	-15310
▁다이렉트	-15311
▁밀접	-15312
▁페라리	-15313
▁구자	-15314
▁남짓	-15315
▁포화	-15316
▁괴이	-15317
▁백지	-15318
▁앞쪽	-15319
▁ㄹㅏㅂㅅㅣ	-15320
IF	-15321
슬쩍	-15322
▁식인	-15323
▁제복	-15324
ㄹㅏㄹ	-15325
▁트레인	-15326
▁169	-15327
니지	-15328
▁갈구	-15329
▁학업	-15330
olog	-15331
▁ㄸㅟㄹ	-15332
▁클라우	-15333
▁Lo	-15334
▁사벨	-15335
▁부화	-15336
▁쌍용	-15337
▁난쟁이	-15338
▁Cont	-15339
▁연성	-15340
▁당분간	-15341
▁에어컨	-15342
▁Bar	-15343
▁죠셉	-15344
▁푸드	-15345
▁건너편	-15346
▁릭스	-15347
▁포커	-15348
▁NAT	-15349
▁수납	-15350
▁전태	-15351
▁케네	-15352
▁간식	-15353
▁덩달	-15354
▁성품	-15355
▁피버	-15356
ㅁㅣㄴ	-15357
장구	-15358
▁관습	-15359
▁활약상	-15360
▁여정	-15361
▁정은	-15362
▁항쟁	-15363
▁포터블	-15364
데라	-15365
▁불분	-15366
▁토코	-15367
▁풋볼	-15368
▁필적	-15369
▁전반전	-15370
▁ㅈㅓㅂㅎㅏㄴ	-15371
▁시프트	-15372
▁제품군	-15373
영웅	-15374
▁세무	-15375
포로	-15376
히트	-15377
▁블리치	-15378
▁메라	-15379
▁미셸	-15380
▁광학	-15381
▁김태균	-15382
▁수박	-15383
▁마공	-15384
▁선도	-15385
변속기	-15386
▁qu	-15387
▁루드	-15388
▁자판기	-15389
▁ㅇㅣㄱㅎㅕ	-15390
▁침식	-15391
병기	-15392
▁야마자키	-15393
▁덤비	-15394
▁IF	-15395
▁외장	-15396
▁임상	-15397
▁토토	-15398
ited	-15399
▁다트	-15400
▁박주	-15401
▁체로	-15402
▁이유로	-15403
▁ㄷㅓㅁㅂㅕ	-15404
▁전갈	-15405
▁Inf	-15406
▁음식점	-15407
▁불분명	-15408
▁삽입곡	-15409
▁알루미	-15410
III	-15411
▁나시	-15412
▁오일	-15413
▁쿠도	-15414
입구역	-15415
▁WOR	-15416
▁카즈마	-15417
▁프라모델	-15418
▁양현	-15419
리아나	-15420
▁중견수	-15421
▁저음	-15422
▁주스	-15423
▁투항	-15424
▁필기	-15425
▁허위	-15426
▁Gaming	-15427
▁몬테	-15428
▁선교	-15429
▁틀어	-15430
▁일직선	-15431
▁오스트레일리아	-15432
▁괴로	-15433
▁XBO	-15434
ㄴㅐㅆㅇㅡ	-15435
▁럽	-15436
▁수배	-15437
▁ㅎㅏㄴㄱㅏ	-15438
▁악인	-15439
▁야인	-15440
▁지기	-15441
▁world	-15442
HD	-15443
▁사면	-15444
▁ㄷㅗㄹㅂㅘ	-15445
호도	-15446
▁밀러	-15447
▁정세	-15448
▁ㅅㅐㅁ	-15449
▁권역	-15450
▁글리	-15451
▁백병	-15452
▁아르테	-15453
▁스트리밍	-15454
▁정적	-15455
▁라이덴	-15456
▁루이지	-15457
모트	-15458
▁000000	-15459
▁With	-15460
▁Angel	-15461
▁DA	-15462
▁레닌	-15463
▁로사	-15464
▁유부	-15465
마트	-15466
▁츠네	-15467
▁310	-15468
▁발전기	-15469
▁박스오피스	-15470
▁마포	-15471
▁집중력	-15472
▁소피	-15473
▁중화기	-15474
▁나루호도	-15475
▁이시카와	-15476
▁경이	-15477
▁요건	-15478
▁차출	-15479
▁흉터	-15480
▁맨날	-15481
▁코리	-15482
▁COM	-15483
row	-15484
▁금성	-15485
▁진해	-15486
▁충동	-15487
appy	-15488
▁VIP	-15489
▁ㅃㅏㄹㄹㅕ	-15490
▁말살	-15491
▁방금	-15492
▁지갑	-15493
▁빅토르	-15494
▁메두사	-15495
짜기	-15496
▁셔츠	-15497
▁소량	-15498
▁무언가	-15499
▁수영장	-15500
▁예비역	-15501
▁라지	-15502
▁미유	-15503
▁열렬	-15504
▁사설	-15505
▁스콜피온	-15506
▁충청북도	-15507
▁중대장	-15508
▁나탈	-15509
▁즉석	-15510
▁그물	-15511
▁미나토	-15512
▁사다리	-15513
▁VR	-15514
▁임용	-15515
▁접시	-15516
▁플리트	-15517
▁ㅎㅓㅁㅎㅏㄴ	-15518
미코	-15519
▁컷인	-15520
▁con	-15521
▁재미없	-15522
▁하르트	-15523
▁수뇌부	-15524
▁리그베다	-15525
▁비늘	-15526
▁시립	-15527
▁빽	-15528
▁데스크	-15529
▁다크니스	-15530
▁사우디아	-15531
▁마코	-15532
▁형벌	-15533
▁기린	-15534
▁ㅊㅏㄹ	-15535
▁임재	-15536
▁희박	-15537
▁ㅂㅣㅊ	-15538
▁진나라	-15539
▁분화	-15540
▁해커	-15541
▁폿	-15542
▁특권	-15543
▁코로	-15544
▁둘러싸	-15545
▁법정동	-15546
▁아라시	-15547
그래	-15548
▁진성	-15549
▁행세	-15550
▁131	-15551
▁micro	-15552
▁="	-15553
▁ER	-15554
▁명은	-15555
▁안기	-15556
▁총재	-15557
▁파탄	-15558
▁경비원	-15559
▁불러오	-15560
▁마사무네	-15561
콜로	-15562
▁배반	-15563
▁복부	-15564
▁악평	-15565
▁항로	-15566
▁협곡	-15567
ious	-15568
ful	-15569
▁붕대	-15570
▁폐인	-15571
▁환장	-15572
누르	-15573
▁손책	-15574
제리	-15575
▁FE	-15576
▁강연	-15577
▁She	-15578
▁ㄴㅓㅁㄱㅣㄹ	-15579
로이	-15580
전함	-15581
타기	-15582
▁옵스	-15583
▁하얀	-15584
▁골고루	-15585
▁폐하	-15586
▁Ste	-15587
보잡	-15588
▁사카이	-15589
해야	-15590
그라드	-15591
atic	-15592
▁PvP	-15593
▁동남아	-15594
만다	-15595
▁능동	-15596
▁항속	-15597
▁관광지	-15598
▁쇼우	-15599
▁신빙	-15600
▁재사	-15601
▁치밀	-15602
ㅊㅐㅆ	-15603
▁듣보잡	-15604
▁RX	-15605
▁무모	-15606
▁점하	-15607
▁255	-15608
▁CIA	-15609
▁최우선	-15610
▁피드백	-15611
▁ㄱㅣㄹㄹㅓ	-15612
▁밸브	-15613
▁자자	-15614
드리히	-15615
▁강호동	-15616
감치	-15617
▁카이지	-15618
▁몸집	-15619
▁슬립	-15620
▁외화	-15621
찌감치	-15622
▁파고들	-15623
▁알루미늄	-15624
▁구라	-15625
▁어로	-15626
▁1939	-15627
▁내레이션	-15628
▁스테이트	-15629
▁가쿠	-15630
▁철회	-15631
▁부식	-15632
▁이데	-15633
▁마스터즈	-15634
▁또래	-15635
▁이관	-15636
▁기생충	-15637
▁낙하산	-15638
▁영국인	-15639
▁피콜로	-15640
▁STAR	-15641
▁ㅁㅏㅇㅎㅏㄹ	-15642
▁윳	-15643
▁이클	-15644
▁하나님	-15645
▁1952	-15646
aut	-15647
▁만회	-15648
▁잠복	-15649
▁중산	-15650
▁헬로	-15651
▁베르크	-15652
▁토요타	-15653
▁ㄴㅏㅁㄱㅣㄴㄷㅏ	-15654
▁카에데	-15655
▁White	-15656
▁TW	-15657
▁다마	-15658
▁사오	-15659
▁성령	-15660
▁ㅅㅓㅆ	-15661
▁매지컬	-15662
▁호위함	-15663
TREME	-15664
▁아픔	-15665
▁오바마	-15666
▁햄버거	-15667
▁암기	-15668
▁티타	-15669
▁돌아보	-15670
▁카라스	-15671
▁ㄲㅏㄴㄷㅏ	-15672
▁조공	-15673
▁청취	-15674
▁성시	-15675
▁키시	-15676
▁플레인	-15677
▁연호	-15678
▁러시아군	-15679
▁기아스	-15680
▁안테나	-15681
시장	-15682
▁볼리	-15683
▁NCR	-15684
▁NFL	-15685
일기	-15686
▁류우	-15687
▁선상	-15688
▁강남구	-15689
▁ㄷㅚㄹㅅㅜ	-15690
MC	-15691
▁컬트	-15692
▁미시마	-15693
▁사과문	-15694
▁묵직	-15695
▁쿠폰	-15696
day	-15697
▁둔기	-15698
▁복권	-15699
▁비욘	-15700
▁계승자	-15701
▁브래드	-15702
▁티셔츠	-15703
▁프랑켄슈타인	-15704
▁노원	-15705
▁달걀	-15706
▁몸체	-15707
▁장막	-15708
▁FBI	-15709
▁위인	-15710
▁임프	-15711
▁치과	-15712
▁쿠루미	-15713
▁청원	-15714
▁한성	-15715
▁비틀즈	-15716
사포	-15717
▁지자체	-15718
▁ㄱㅏㅇㅎㅏㅁ	-15719
▁라다	-15720
▁한니발	-15721
▁세실	-15722
▁프리드리히	-15723
▁여당	-15724
오버	-15725
리히	-15726
▁라니	-15727
▁오자	-15728
▁ㅊㅐㄱㅇㅣㅁ	-15729
▁햇빛	-15730
세이더	-15731
▁크루세이더	-15732
ara	-15733
▁Pe	-15734
ㄱㅏㅁ	-15735
▁Sky	-15736
▁오토봇	-15737
▁장학금	-15738
▁미식축구	-15739
bl	-15740
▁재주	-15741
▁폰트	-15742
▁스튜어트	-15743
▁네모	-15744
델피아	-15745
▁인플레	-15746
▁필라델피아	-15747
세포	-15748
▁420	-15749
▁무리수	-15750
▁콜롬비아	-15751
▁FN	-15752
▁증인	-15753
▁환불	-15754
▁클라라	-15755
▁Project	-15756
INE	-15757
▁해프	-15758
▁긴장감	-15759
영향	-15760
▁ㄹㅏㅁ	-15761
▁소모품	-15762
▁일기토	-15763
▁자유주의	-15764
▁ㄷㅗㄹㄹㅕㅆ	-15765
▁뽐	-15766
리역	-15767
▁재상	-15768
▁850	-15769
▁노획	-15770
▁레그	-15771
▁구비	-15772
그레	-15773
▁사시	-15774
▁포진	-15775
이즈미	-15776
▁그래프	-15777
▁여행자	-15778
▁마개	-15779
▁쿠토	-15780
▁DIO	-15781
▁호스트	-15782
▁버금	-15783
▁베레	-15784
▁보구	-15785
▁타츠미	-15786
▁눈썹	-15787
▁세단	-15788
▁용왕	-15789
▁정렬	-15790
▁EXTREME	-15791
▁급상	-15792
▁로젠	-15793
▁친화	-15794
▁ㅅㅗㄱㅇㅕ	-15795
와르	-15796
▁동산	-15797
▁샌디	-15798
▁서사	-15799
▁유다	-15800
▁타카오	-15801
▁이클립스	-15802
75	-15803
▁141	-15804
▁안토니오	-15805
먹이	-15806
▁아론	-15807
▁나츠메	-15808
▁슬래시	-15809
▁걸치	-15810
▁선공	-15811
▁억압	-15812
▁토사	-15813
▁모터스	-15814
▁시술	-15815
▁카나코	-15816
▁파괴자	-15817
▁OO	-15818
▁골수	-15819
▁대관	-15820
▁소프	-15821
▁코스타	-15822
▁헤라클레스	-15823
▁새턴	-15824
▁커넥	-15825
트리스	-15826
▁패트릭	-15827
민수	-15828
▁호각	-15829
▁신세기	-15830
▁RR	-15831
▁농부	-15832
▁원상	-15833
▁치아키	-15834
▁부기	-15835
▁투타	-15836
▁개종	-15837
▁들이대	-15838
▁비둘기	-15839
▁오사무	-15840
▁조선소	-15841
▁부전	-15842
▁척하	-15843
▁슬레이	-15844
▁반납	-15845
▁아벨	-15846
▁ㅁㅕㄴㅇㅡㄴ	-15847
▁고뇌	-15848
▁원로원	-15849
▁Just	-15850
▁Get	-15851
큐버스	-15852
▁아날로그	-15853
하임	-15854
▁주부	-15855
▁도입부	-15856
맹이	-15857
▁리시	-15858
▁양도	-15859
▁최진	-15860
▁Gun	-15861
▁겁쟁이	-15862
▁사생	-15863
▁워페어	-15864
나타	-15865
넌트	-15866
▁머독	-15867
▁블레	-15868
▁자석	-15869
▁진기	-15870
▁브론즈	-15871
▁정치력	-15872
▁길목	-15873
▁본거지	-15874
▁플랜트	-15875
▁해프닝	-15876
▁그딴	-15877
▁디에	-15878
▁망원	-15879
▁로미	-15880
▁타카히로	-15881
▁고안	-15882
즐리	-15883
▁가세	-15884
▁겸비	-15885
▁정인	-15886
▁앤더슨	-15887
▁셔먼	-15888
▁여대	-15889
▁데이빗	-15890
▁꼼짝	-15891
▁레니	-15892
▁벌칙	-15893
▁팩토리	-15894
스코	-15895
ger	-15896
▁유수	-15897
▁대의	-15898
▁응징	-15899
▁중추	-15900
reat	-15901
▁딸리	-15902
▁저널	-15903
▁대항해	-15904
▁환율	-15905
▁붉은색	-15906
▁그해	-15907
▁변함	-15908
▁생리	-15909
▁신드	-15910
수엘라	-15911
▁PRO	-15912
▁축구단	-15913
▁사일런트	-15914
▁경신	-15915
▁스릴	-15916
▁허니	-15917
▁크리스토퍼	-15918
▁777	-15919
ㅡㄹㄹㅣㄴㄷㅏ	-15920
▁노랑	-15921
▁여느	-15922
▁선명	-15923
▁실탄	-15924
▁우대	-15925
▁토카	-15926
▁얼리	-15927
▁뫼비우스	-15928
▁ㅌㅓㄹㄹㅕㅆ	-15929
다카	-15930
▁해결책	-15931
▁정설	-15932
▁항성	-15933
▁권고	-15934
▁바알	-15935
▁상병	-15936
▁철퇴	-15937
▁한결	-15938
▁리조트	-15939
다르	-15940
전생	-15941
uch	-15942
▁납품	-15943
▁코만	-15944
▁수도원	-15945
▁사우디아라비아	-15946
준호	-15947
▁이화	-15948
▁마운틴	-15949
▁ㅈㅣㄴㅎㅐ	-15950
▁군중	-15951
▁기공	-15952
▁크류	-15953
▁티라노	-15954
장치	-15955
▁대지진	-15956
▁우등	-15957
▁카세	-15958
▁사이킥	-15959
치오	-15960
▁로드리	-15961
▁니즘	-15962
▁쓸쓸	-15963
▁자가	-15964
▁한복	-15965
▁ㅎㅟㅂㅆ	-15966
▁정시	-15967
▁환원	-15968
리카와	-15969
▁초원	-15970
▁함경	-15971
애미	-15972
▁꼬박	-15973
▁무당	-15974
▁디럭스	-15975
▁악영향	-15976
▁야가미	-15977
▁Game	-15978
▁코미디언	-15979
▁공채	-15980
▁사대	-15981
▁앨리	-15982
▁연하	-15983
▁마이애미	-15984
▁네로	-15985
▁520	-15986
▁리오스	-15987
▁월등히	-15988
무로	-15989
▁시라이	-15990
ric	-15991
▁라몬	-15992
▁현무	-15993
▁바흐	-15994
▁제드	-15995
▁겉모습	-15996
▁레이카	-15997
▁노사	-15998
▁신검	-15999
▁정윤	-16000
▁잿	-16001
공주	-16002
▁레비	-16003
▁보성	-16004
▁적정	-16005
▁백두	-16006
▁화요일	-16007
▁LS	-16008
▁정직	-16009
▁ㅉㅣㅈㅇㅓ	-16010
타자	-16011
▁검기	-16012
▁재래	-16013
▁투기	-16014
▁어르	-16015
▁위즈	-16016
▁평준	-16017
▁클로버	-16018
▁ㄱㅏㅁㅆㅏ	-16019
▁류지	-16020
▁반달	-16021
▁CCTV	-16022
▁사력	-16023
▁생계	-16024
▁ㅅㅡㅁ	-16025
▁악세사리	-16026
▁개리	-16027
▁조니	-16028
▁우치하	-16029
암동	-16030
▁감도	-16031
▁자대	-16032
▁재무	-16033
▁후작	-16034
▁Back	-16035
▁Side	-16036
ㅅㅡㄹㄹㅓ	-16037
니치	-16038
▁레이크	-16039
▁최적화	-16040
▁카이바	-16041
▁케네디	-16042
▁허벅지	-16043
윽고	-16044
▁처방	-16045
▁ㄷㅐㄹ	-16046
▁나뭇잎	-16047
▁이윽고	-16048
▁초급	-16049
▁ㅇㅡㄴㄱㅏ	-16050
리즘	-16051
▁소대장	-16052
▁Last	-16053
less	-16054
▁빈센트	-16055
▁베네수엘라	-16056
▁박기	-16057
▁벤츠	-16058
▁절감	-16059
▁조현	-16060
▁중론	-16061
▁뜬금없	-16062
▁절약	-16063
▁480	-16064
▁off	-16065
▁레코	-16066
▁엽기	-16067
▁평지	-16068
▁back	-16069
▁크로스오버	-16070
▁School	-16071
▁선비	-16072
▁자민	-16073
▁아스타	-16074
aka	-16075
▁Ge	-16076
▁냉혹	-16077
▁미약	-16078
▁개칭	-16079
▁외침	-16080
▁정경	-16081
툴루	-16082
▁끊이	-16083
▁나크	-16084
▁열광	-16085
▁이북	-16086
▁제이드	-16087
드래곤	-16088
▁지중해	-16089
▁통솔력	-16090
▁대장장이	-16091
▁기쁘	-16092
▁ㅈㅣㄴㅎㅏㄴ	-16093
▁모티	-16094
▁총구	-16095
▁Zero	-16096
▁제후	-16097
▁피쳐	-16098
▁TECHN	-16099
▁naver	-16100
▁샨	-16101
▁우크	-16102
▁벅스	-16103
▁ㄸㅟㄴ	-16104
bsp	-16105
▁보살	-16106
▁죄인	-16107
▁Ass	-16108
▁연대기	-16109
▁우크라이나	-16110
▁페가수스	-16111
▁동남아시아	-16112
▁ㅂㅓㄹㅇㅣㄹ	-16113
co	-16114
▁박히	-16115
▁결투장	-16116
펙터	-16117
후미	-16118
▁KS	-16119
▁xx	-16120
▁가늠	-16121
▁석방	-16122
▁셀렉	-16123
▁타가	-16124
▁크레이지	-16125
▁귤	-16126
▁ATM	-16127
▁근친	-16128
▁알맞	-16129
▁우동	-16130
▁좌완	-16131
▁토치	-16132
▁펠트	-16133
일관	-16134
▁남구	-16135
▁초동	-16136
▁탈당	-16137
▁Sil	-16138
▁미처	-16139
▁비숍	-16140
▁전우	-16141
▁춘추	-16142
▁상고	-16143
▁합당	-16144
▁기병대	-16145
▁시부야	-16146
레스타인	-16147
▁ㅁㅗㄹㄹㅕㅆ	-16148
IME	-16149
▁가즈	-16150
▁이의	-16151
▁리액션	-16152
ㄲㅇㅕㅆ	-16153
▁편애	-16154
▁화가	-16155
▁소탕	-16156
▁일생	-16157
푸스	-16158
▁모치	-16159
▁이를	-16160
▁예술가	-16161
▁nbsp	-16162
▁212	-16163
관계	-16164
▁라티	-16165
▁서스	-16166
▁쿼드	-16167
▁텐션	-16168
▁송병구	-16169
▁오토메	-16170
▁발렌시아	-16171
테면	-16172
▁간장	-16173
▁심부	-16174
페스트	-16175
▁빌헬름	-16176
▁스플릿	-16177
▁팬클럽	-16178
▁퀑	-16179
▁무네	-16180
▁멧돼지	-16181
▁끌어올리	-16182
▁텝	-16183
▁리벤	-16184
▁바루	-16185
▁하늘색	-16186
▁사이퍼즈	-16187
▁이를테면	-16188
▁급여	-16189
▁알비	-16190
▁잣	-16191
베이스	-16192
▁정명훈	-16193
▁Chr	-16194
▁그러다가	-16195
▁톡톡	-16196
▁도널드	-16197
▁캬	-16198
소통	-16199
▁광석	-16200
▁의사소통	-16201
사전	-16202
이라	-16203
▁ㄹㅑ	-16204
▁페로	-16205
▁맞춤	-16206
▁세균	-16207
▁에프	-16208
bo	-16209
▁개화	-16210
▁틈새	-16211
▁ㅍㅡㄴ	-16212
▁WE	-16213
▁노프	-16214
▁증차	-16215
레인지	-16216
라이언트	-16217
▁클라이언트	-16218
▁덤벼	-16219
▁써니	-16220
▁290	-16221
▁하시모토	-16222
▁강령	-16223
▁사죄	-16224
▁우의	-16225
▁골리앗	-16226
▁좌익수	-16227
▁결번	-16228
▁전념	-16229
▁경호원	-16230
▁ㄷㅏㅇㅎㅐㅆㅇㅡ	-16231
▁수혜	-16232
▁성추행	-16233
▁스타킹	-16234
▁프레드	-16235
▁Open	-16236
ㅅㅠ	-16237
ㅇㅢ	-16238
▁순삭	-16239
▁조로	-16240
▁전투원	-16241
▁삿포로	-16242
▁추기경	-16243
▁고참	-16244
▁급상승	-16245
▁디셉티콘	-16246
▁승부차기	-16247
▁통근	-16248
▁학파	-16249
▁합금	-16250
▁jp	-16251
▁승승	-16252
▁오승	-16253
ㅁㅜㄹ	-16254
▁Amer	-16255
▁절판	-16256
▁티격	-16257
▁Di	-16258
▁XBOX	-16259
▁반하	-16260
▁사루	-16261
▁유상	-16262
▁소름	-16263
▁검색어	-16264
▁유세이	-16265
▁ㅃㅗㅂㅎㅣㄴ	-16266
▁피신	-16267
에이터	-16268
▁거느리	-16269
▁미달	-16270
▁전황	-16271
▁철자	-16272
▁무난히	-16273
▁ㅅㅏㄹㅍㅕ	-16274
▁룽	-16275
팔로	-16276
▁블리츠	-16277
▁야나기	-16278
▁뇌격	-16279
▁동독	-16280
▁심복	-16281
▁빈스	-16282
▁수당	-16283
▁웨딩	-16284
▁자바	-16285
▁ㄷㅏㅇㄱㅕ	-16286
니컬	-16287
레즈	-16288
▁사요	-16289
▁협공	-16290
ㄱㅎㅐ	-16291
ORA	-16292
▁조회	-16293
▁Blood	-16294
▁엑스칼리버	-16295
투수	-16296
▁유원	-16297
▁너구리	-16298
▁켄시로	-16299
▁브라우저	-16300
UST	-16301
▁우와	-16302
▁프레데터	-16303
▁멩	-16304
▁들려	-16305
▁베아	-16306
▁편도	-16307
코스터	-16308
▁경비병	-16309
▁불발	-16310
▁야구부	-16311
▁군벌	-16312
▁의류	-16313
▁족보	-16314
▁라파엘	-16315
▁연주자	-16316
▁Moon	-16317
▁중소기업	-16318
▁대도	-16319
▁생포	-16320
▁소아	-16321
▁한중	-16322
▁재사용	-16323
▁크툴루	-16324
▁1400	-16325
▁원성	-16326
▁갈고리	-16327
▁몰려오	-16328
▁경대	-16329
▁통역	-16330
▁정준하	-16331
▁선발투수	-16332
▁장담	-16333
▁피그	-16334
자위대	-16335
▁버금가	-16336
▁시미즈	-16337
▁중순양함	-16338
▁ㅅㅓㄴㅈㅣ	-16339
▁ㅇㅣㄹㄹㅓ	-16340
▁ㅂㅜㅌㅇㅣㄴㄷㅏ	-16341
▁전복	-16342
▁음악가	-16343
▁미니게임	-16344
▁타쿠야	-16345
ely	-16346
▁그렌	-16347
▁전쟁터	-16348
▁소림	-16349
▁일자리	-16350
▁롤러코스터	-16351
▁액수	-16352
▁주주	-16353
▁해밀	-16354
▁저스틴	-16355
▁에볼루션	-16356
▁강정	-16357
▁스커	-16358
▁하네	-16359
▁명백히	-16360
▁인승	-16361
▁툭하면	-16362
▁ㄷㅏㄴㄷㅏ	-16363
▁찜	-16364
▁깔리	-16365
▁소수자	-16366
▁팔레스타인	-16367
▁ㄱㅡㅂㅎㅏㄴ	-16368
니르	-16369
▁질질	-16370
▁성남시	-16371
▁일정량	-16372
▁분과	-16373
▁데스노트	-16374
▁TB	-16375
▁낭만	-16376
▁능하	-16377
▁맹수	-16378
▁엄연	-16379
▁트와	-16380
ideo	-16381
▁달아나	-16382
▁margin	-16383
▁착공	-16384
▁가신	-16385
▁APC	-16386
▁나오미	-16387
▁Soul	-16388
▁Final	-16389
▁ㅅㅡㄹㅍㅓ	-16390
▁모선	-16391
▁대구경	-16392
▁사이비	-16393
▁선제골	-16394
▁비견	-16395
▁보호자	-16396
▁스턴트	-16397
▁나카지마	-16398
▁극성	-16399
▁성동	-16400
ㄲㅏㄴ	-16401
▁지방도	-16402
▁태그팀	-16403
▁절도	-16404
득점	-16405
▁마즈	-16406
▁오아	-16407
▁탈주	-16408
▁효용	-16409
▁Yes	-16410
▁쥬라기	-16411
▁파이팅	-16412
▁껌	-16413
▁촛	-16414
▁사복	-16415
▁박태	-16416
▁타라	-16417
▁Art	-16418
▁아리사	-16419
▁카미조	-16420
▁ㅁㅏㅈㅊㅝㅆ	-16421
▁엑셀	-16422
▁1953	-16423
▁마사히로	-16424
au	-16425
▁급습	-16426
▁실감	-16427
ㅁㅏㅇㅊㅣㄴㄷㅏ	-16428
▁버즈	-16429
▁치요	-16430
▁건의	-16431
▁신격	-16432
▁프리퀄	-16433
▁내년	-16434
▁일파	-16435
▁화끈	-16436
ning	-16437
▁기교	-16438
▁미완성	-16439
DER	-16440
▁일찌감치	-16441
▁공격대	-16442
▁간첩	-16443
▁석탄	-16444
▁거미줄	-16445
▁이우	-16446
▁홍준	-16447
▁분당선	-16448
ism	-16449
▁엘다	-16450
▁생산력	-16451
▁7000	-16452
▁고분	-16453
▁남산	-16454
비슷	-16455
▁읊	-16456
▁미용	-16457
ㅅㅏㄹㅇㅏ	-16458
▁크라이시스	-16459
▁방망	-16460
▁승계	-16461
▁웬디	-16462
▁헤이세이	-16463
▁교육부	-16464
▁플로리	-16465
파치	-16466
▁만년	-16467
▁밤중	-16468
▁Mix	-16469
▁수송기	-16470
▁에너	-16471
▁BMW	-16472
HC	-16473
▁비화	-16474
▁쌍검	-16475
▁재일	-16476
▁투르	-16477
▁험악	-16478
▁흉기	-16479
▁어쩌다	-16480
▁트리니티	-16481
▁ㅈㅏㄹㅅㅐㅇㄱㅣㄴ	-16482
▁모건	-16483
▁유세	-16484
고스	-16485
▁Du	-16486
▁회유	-16487
▁명확히	-16488
▁사상자	-16489
▁아사쿠라	-16490
▁매도	-16491
▁소망	-16492
▁요요	-16493
IKA	-16494
▁변모	-16495
▁Met	-16496
▁경상도	-16497
▁내려찍	-16498
85	-16499
정동	-16500
▁냅다	-16501
▁리노	-16502
▁찬사	-16503
▁유이치	-16504
▁크로노스	-16505
▁호라이즌	-16506
ㄱㅐ	-16507
ward	-16508
▁김구라	-16509
▁스쿠	-16510
▁미술관	-16511
▁공시	-16512
▁구식	-16513
▁오현	-16514
stem	-16515
▁박병호	-16516
32	-16517
▁pt	-16518
▁문관	-16519
▁Top	-16520
▁부회장	-16521
▁애틀	-16522
▁익명	-16523
▁반대쪽	-16524
▁히데키	-16525
ㄴㅏㄹㅅㅜ	-16526
▁개전	-16527
▁미우	-16528
▁블루투스	-16529
▁소이	-16530
▁천진	-16531
▁쿠즈	-16532
▁둘째치	-16533
▁무방비	-16534
▁1947	-16535
▁후지와라	-16536
▁착취	-16537
▁헤딩	-16538
▁불가피	-16539
▁선발전	-16540
▁이치카	-16541
▁푸른색	-16542
▁아키야마	-16543
▁멀린	-16544
▁아산	-16545
▁내용물	-16546
▁미스테리	-16547
▁페미니즘	-16548
▁동국	-16549
▁망각	-16550
▁완급	-16551
▁폐업	-16552
▁해설자	-16553
▁여신전생	-16554
led	-16555
▁무너	-16556
▁수제	-16557
▁기어이	-16558
▁무너뜨리	-16559
▁시속	-16560
▁양평	-16561
▁MiG	-16562
▁그제서야	-16563
to	-16564
▁영화관	-16565
▁래리	-16566
▁역마	-16567
일라잇	-16568
▁배달부	-16569
▁브로드	-16570
▁트와일라잇	-16571
▁ㅂㅏㄱㅅㅏㄹㄴㅏㄴ	-16572
▁유민	-16573
▁피노	-16574
▁마로	-16575
▁버니	-16576
▁Eng	-16577
▁방어전	-16578
▁네메시스	-16579
▁피겨	-16580
▁MIX	-16581
▁투표율	-16582
사노	-16583
▁도가	-16584
▁면도	-16585
월드	-16586
▁가야	-16587
▁구판	-16588
▁대격	-16589
▁어시	-16590
▁어정	-16591
▁표준어	-16592
▁뺑	-16593
▁마늘	-16594
▁선후	-16595
▁야자	-16596
▁어부	-16597
▁제이스	-16598
▁짓거리	-16599
▁매사	-16600
▁미움	-16601
▁서남	-16602
▁파치	-16603
폴트	-16604
▁지체	-16605
▁way	-16606
▁하얀색	-16607
▁홍준표	-16608
욕장	-16609
▁손발	-16610
▁액스	-16611
▁근육질	-16612
▁애틀랜	-16613
▁이츠키	-16614
▁테슬라	-16615
대왕	-16616
▁무로	-16617
▁장대	-16618
▁최재	-16619
▁레베카	-16620
▁로켓단	-16621
▁달랑	-16622
▁한족	-16623
ute	-16624
▁TE	-16625
▁저축	-16626
▁허약	-16627
▁페이퍼	-16628
▁Core	-16629
▁시종일관	-16630
▁벼락	-16631
▁토템	-16632
▁출입구	-16633
▁조영	-16634
▁EXP	-16635
ata	-16636
▁이큐	-16637
▁Off	-16638
▁문파	-16639
▁올인	-16640
eah	-16641
▁시게루	-16642
ision	-16643
▁ZZ	-16644
▁ㅍㅕㄹㅊㅣㄴ	-16645
▁젓	-16646
드런	-16647
현동	-16648
▁ㅇㅏㅍㄷㅜㄴ	-16649
요리	-16650
ump	-16651
▁반쪽	-16652
▁케니	-16653
▁1957	-16654
▁te	-16655
▁신봉	-16656
▁오보	-16657
린트	-16658
▁순항	-16659
▁악연	-16660
▁사나다	-16661
사관학교	-16662
▁스타더스트	-16663
▁ㅅㅐㅇㄱㅕㅆㅇㅡ	-16664
▁교제	-16665
▁IMF	-16666
▁영웅전설	-16667
▁쿠사나기	-16668
▁매입	-16669
▁수년	-16670
▁타사	-16671
▁난장	-16672
▁박세	-16673
▁슈우	-16674
▁포톤	-16675
아스	-16676
쩐지	-16677
▁CT	-16678
▁어진	-16679
▁조세	-16680
▁허술	-16681
▁어쩐지	-16682
▁Track	-16683
▁갇	-16684
▁메트	-16685
▁에디터	-16686
네트	-16687
▁희한	-16688
▁RPM	-16689
▁호루스	-16690
▁ㅎㅏㄴㄷㅡㄹ	-16691
▁메츠	-16692
▁새신	-16693
▁태권도	-16694
▁천왕	-16695
▁폴라	-16696
▁데이즈	-16697
▁프란츠	-16698
▁ㅇㅣㅈㅇㅓ	-16699
▁영재	-16700
▁위아	-16701
▁ㅎㅓㄹ	-16702
▁팔아먹	-16703
▁병합	-16704
▁파나	-16705
▁화내	-16706
▁쫓아내	-16707
▁쁘	-16708
▁테드	-16709
▁ㄲㅡㄶㅇㅓ	-16710
▁스미레	-16711
▁평하	-16712
▁밀리터리	-16713
▁켓	-16714
▁탬	-16715
▁에이미	-16716
▁바퀴벌레	-16717
▁^	-16718
세움	-16719
지우	-16720
▁로더	-16721
▁수렴	-16722
▁숙명	-16723
괭이	-16724
하니	-16725
▁합산	-16726
▁각본가	-16727
▁식별	-16728
▁참수	-16729
▁천자	-16730
▁이산	-16731
▁개인차	-16732
▁신민	-16733
▁안식	-16734
▁카프	-16735
▁보리스	-16736
▁카미야	-16737
▁랑그	-16738
▁구스타	-16739
▁ㄴㅡㄴㄱㅜㄴ	-16740
GN	-16741
▁농어	-16742
블랜드	-16743
▁요금제	-16744
▁ㄱㅔㄴㅈㅣ	-16745
▁클리블랜드	-16746
▁비대	-16747
▁요지	-16748
▁정현	-16749
▁충주	-16750
▁토바	-16751
▁투석	-16752
▁황자	-16753
▁209	-16754
▁나카노	-16755
▁빗나가	-16756
▁ㄸㅜㅀㄹㅕ	-16757
▁BP	-16758
▁요일	-16759
▁린치	-16760
▁수퍼	-16761
▁정액	-16762
▁정제	-16763
oney	-16764
▁둥글	-16765
▁Ext	-16766
비안	-16767
▁베토	-16768
▁북서	-16769
▁Mark	-16770
▁{{{-	-16771
▁김종국	-16772
▁아사미	-16773
▁연구자	-16774
제트	-16775
▁저질	-16776
▁적기	-16777
▁Cap	-16778
▁ㅊㅣㅇㅎㅏㄴㄷㅏ	-16779
▁낯	-16780
▁ve	-16781
▁공적	-16782
▁독단	-16783
▁리제	-16784
▁쪽지	-16785
▁포제	-16786
선스	-16787
악기	-16788
▁다듬	-16789
▁ㅁㅏㅌㄱㅕㅆ	-16790
▁원산	-16791
▁튜브	-16792
▁환산	-16793
▁에어리어	-16794
▁ADVANC	-16795
BY	-16796
▁대첩	-16797
▁급속도	-16798
▁학부모	-16799
눅스	-16800
▁문과	-16801
▁사냥터	-16802
▁카니발	-16803
▁긴토	-16804
▁잠자	-16805
▁진전	-16806
▁튀김	-16807
▁크레용	-16808
▁은근슬쩍	-16809
▁공전	-16810
▁맹장	-16811
▁차갑	-16812
▁첨부	-16813
▁청하	-16814
▁티베트	-16815
▁1914	-16816
▁라이선스	-16817
▁Little	-16818
▁쑤	-16819
▁증강	-16820
▁Special	-16821
▁모라	-16822
▁ㅈㅣㄹㅅㅜ	-16823
▁링컨	-16824
▁애니메이터	-16825
▁서재	-16826
▁쇼코	-16827
▁음력	-16828
▁홉	-16829
▁1938	-16830
▁아노	-16831
▁회심	-16832
▁신약	-16833
▁우선시	-16834
▁동방신기	-16835
뮬러	-16836
▁ph	-16837
▁린다	-16838
▁경영학	-16839
▁의뢰인	-16840
▁자멸	-16841
▁호르몬	-16842
린더	-16843
▁엔도	-16844
▁형주	-16845
▁느와르	-16846
▁사토미	-16847
▁셰퍼드	-16848
넘기	-16849
▁급증	-16850
▁발효	-16851
▁도전자	-16852
▁UR	-16853
▁경선	-16854
▁번번	-16855
▁우여	-16856
▁조짐	-16857
▁후카	-16858
▁사카키	-16859
▁갱단	-16860
▁업자	-16861
▁입점	-16862
▁막말	-16863
▁상체	-16864
▁송신	-16865
▁우먼	-16866
▁러블리	-16867
ㄱㅝ	-16868
▁TT	-16869
▁어긋나	-16870
▁계책	-16871
▁방관	-16872
▁위태	-16873
▁짓밟	-16874
▁하야시	-16875
▁켐	-16876
▁그분	-16877
▁모용	-16878
▁기껏해야	-16879
▁체르	-16880
▁홍수	-16881
ross	-16882
▁That	-16883
▁gr	-16884
▁광교	-16885
▁보그	-16886
▁초음	-16887
▁평이	-16888
▁리눅스	-16889
▁역전승	-16890
▁칸자키	-16891
▁Free	-16892
▁아오키	-16893
메일	-16894
▁가중	-16895
▁블러디	-16896
▁레이코	-16897
▁음료수	-16898
▁Comp	-16899
실록	-16900
▁격납	-16901
▁시녀	-16902
▁포메	-16903
차리	-16904
red	-16905
▁누락	-16906
▁뻔하	-16907
▁세속	-16908
▁재선	-16909
테리어	-16910
▁아틀레	-16911
▁성취	-16912
▁숙지	-16913
▁순례	-16914
▁파병	-16915
▁희미	-16916
▁ㄹㅏㄴㄷㅏ	-16917
▁근황	-16918
▁사주	-16919
▁이남	-16920
▁내려놓	-16921
ㄷㅏㄹㄹㅕㅆ	-16922
▁변속	-16923
▁암묵	-16924
▁황소	-16925
▁now	-16926
▁수송선	-16927
▁주변인	-16928
▁ap	-16929
▁해인	-16930
▁식신	-16931
▁지니어스	-16932
파일	-16933
▁설레	-16934
▁한국식	-16935
두근	-16936
▁ac	-16937
▁별거	-16938
▁체류	-16939
▁최연	-16940
▁카툰	-16941
CE	-16942
▁++	-16943
▁아캄	-16944
▁토드	-16945
▁조슈아	-16946
프스	-16947
ocal	-16948
▁구축전차	-16949
ㅇㅜㄹㄹㅕ	-16950
▁만우	-16951
▁정유	-16952
▁화합	-16953
▁이민자	-16954
▁장민	-16955
▁net	-16956
렁이	-16957
▁구스	-16958
▁지폐	-16959
▁태반	-16960
▁피칭	-16961
▁호화	-16962
ner	-16963
▁업소	-16964
▁순전히	-16965
▁서프	-16966
▁아레스	-16967
주곡	-16968
▁고철	-16969
▁도류	-16970
▁멜리	-16971
▁불안감	-16972
전쟁	-16973
▁달래	-16974
▁학군	-16975
▁버팔로	-16976
▁스팟	-16977
▁마르크스	-16978
▁성급	-16979
▁1100	-16980
▁사념	-16981
▁비밀리	-16982
▁심영	-16983
▁em	-16984
▁상경	-16985
▁일루	-16986
▁재기	-16987
aid	-16988
▁PT	-16989
▁구가	-16990
▁떨치	-16991
▁티나	-16992
▁판명	-16993
▁ㄴㅏㅈㅊㅝ	-16994
▁데프	-16995
▁요양	-16996
▁치세	-16997
▁Bad	-16998
▁레프트	-16999
▁ㄷㅡㄹㅋㅕ	-17000
ird	-17001
▁무예	-17002
▁제국주의	-17003
▁ㅂㅜㄹㅌㅏ	-17004
▁팻	-17005
▁일컬	-17006
▁아키코	-17007
▁꾹	-17008
▁더러	-17009
▁독성	-17010
▁왕성	-17011
▁찍히	-17012
▁ㅇㅕㅅㅂㅗㄹ	-17013
▁찔	-17014
▁의거	-17015
▁대전광역시	-17016
▁악단	-17017
▁열화	-17018
▁츠지	-17019
▁MOV	-17020
▁틀림없	-17021
▁ㄴㅏㄹㄹㅏ	-17022
▁의존도	-17023
ASS	-17024
▁갇히	-17025
▁자객	-17026
▁지탱	-17027
▁친선	-17028
▁1300	-17029
▁구작	-17030
▁기통	-17031
▁대함	-17032
▁토착	-17033
▁512	-17034
▁코스모스	-17035
OCK	-17036
▁휴지	-17037
▁플롯	-17038
▁샌드위치	-17039
▁의석	-17040
▁쿠보	-17041
▁도르트	-17042
▁만우절	-17043
투사	-17044
▁다량	-17045
▁동이	-17046
▁양양	-17047
ㄱㅎㅣㄹ	-17048
▁콘테스트	-17049
▁FO	-17050
▁추이	-17051
▁가격대	-17052
▁궤멸	-17053
▁적과	-17054
▁화속	-17055
▁Rob	-17056
▁야스오	-17057
▁피스톨	-17058
▁Every	-17059
뚜기	-17060
▁경원	-17061
▁난데	-17062
▁무법	-17063
▁블랑	-17064
▁!!!	-17065
▁부러지	-17066
▁아이카	-17067
▁정규군	-17068
▁ㄷㅏㄹㅎㅐㅆ	-17069
▁어도	-17070
▁이강	-17071
▁풀백	-17072
▁경제력	-17073
▁땜	-17074
▁주름	-17075
▁퍼플	-17076
▁get	-17077
▁마츠다	-17078
▁팔다리	-17079
▁서바이버	-17080
상부	-17081
▁#,	-17082
▁반주	-17083
▁호조	-17084
▁KA	-17085
▁부피	-17086
▁컬쳐	-17087
▁흡입	-17088
▁카르타	-17089
▁크레인	-17090
곡절	-17091
ton	-17092
▁평면	-17093
▁경비대	-17094
▁토모야	-17095
▁매점	-17096
▁설문	-17097
ㄱㅡㅁ	-17098
▁우여곡절	-17099
▁각별	-17100
▁ㄴㅡㄴㅋㅓ	-17101
소연	-17102
▁불곰	-17103
▁망설이	-17104
▁센고쿠	-17105
▁쫓아가	-17106
▁카자흐	-17107
▁유파	-17108
▁픽션	-17109
▁실컷	-17110
▁540	-17111
▁바가지	-17112
▁쟁탈전	-17113
▁코스모	-17114
▁공석	-17115
▁초밥	-17116
ㅁㅏㅇㅊㅣㄹ	-17117
▁mA	-17118
▁자재	-17119
▁Orig	-17120
▁스케이팅	-17121
lection	-17122
▁ㅇㅣㄱㅎㅣㄴ	-17123
먼드	-17124
▁권하	-17125
▁이트	-17126
▁착안	-17127
▁평시	-17128
▁365	-17129
▁강대국	-17130
▁ㅇㅕㅆㅇㅓㅆ	-17131
▁긋	-17132
▁HR	-17133
▁사찰	-17134
▁자음	-17135
▁ㄸㅢㄴㄷㅏ	-17136
▁로어	-17137
▁유한	-17138
▁작물	-17139
스부르크	-17140
▁거액	-17141
▁분대장	-17142
▁사서	-17143
▁서스펜	-17144
▁프리티	-17145
▁what	-17146
24	-17147
its	-17148
▁무패	-17149
▁소품	-17150
▁연화	-17151
▁게재	-17152
▁명심	-17153
▁저번	-17154
▁포뮬러	-17155
▁호문	-17156
▁사고방식	-17157
트릭	-17158
▁복수심	-17159
▁남아프리카	-17160
▁ADVANCED	-17161
시간	-17162
일본	-17163
▁매뉴	-17164
▁스켈	-17165
▁스투	-17166
▁이범	-17167
▁창시자	-17168
▁아디	-17169
▁여차	-17170
▁초라	-17171
▁시트콤	-17172
▁투수진	-17173
▁망자	-17174
▁번영	-17175
▁옥스	-17176
▁지저	-17177
▁Rain	-17178
▁폄	-17179
▁돌풍	-17180
▁카르텔	-17181
▁Af	-17182
▁내걸	-17183
▁노라	-17184
▁카나메	-17185
▁플랫폼	-17186
▁맥도날드	-17187
▁윤영	-17188
▁NA	-17189
▁광부	-17190
▁아틀란	-17191
▁ㄴㅡㄹㄹㅣㄹ	-17192
▁짭	-17193
▁하오	-17194
ㅇㅗㅁ	-17195
▁벨벳	-17196
▁그리핀	-17197
▁세바스	-17198
▁하세가와	-17199
▁추위	-17200
티티	-17201
▁거창	-17202
▁라리	-17203
▁민지	-17204
▁Order	-17205
▁사이코패스	-17206
▁슬로건	-17207
▁티코	-17208
▁206	-17209
▁May	-17210
▁암석	-17211
▁입법	-17212
▁카밀	-17213
▁하계	-17214
베르크	-17215
vent	-17216
▁꼭대기	-17217
▁다이빙	-17218
▁변속기	-17219
영웅전설	-17220
▁은하영웅전설	-17221
tm	-17222
▁창당	-17223
마을	-17224
캐슬	-17225
▁언뜻	-17226
▁비열	-17227
▁재탕	-17228
▁Po	-17229
▁노보	-17230
▁들려주	-17231
ㄴㅜㄴㄷㅏ	-17232
▁오피	-17233
▁TBS	-17234
▁don	-17235
▁애리	-17236
▁sw	-17237
▁덧붙이	-17238
▁베토벤	-17239
바인	-17240
▁선별	-17241
▁플로리다	-17242
▁멘토	-17243
▁태백	-17244
▁라이브러리	-17245
▁코러스	-17246
▁방아	-17247
▁봄버	-17248
▁판넬	-17249
▁필승	-17250
▁한눈	-17251
▁디바인	-17252
▁멱	-17253
살렘	-17254
ura	-17255
▁블룸	-17256
▁비타민	-17257
▁수식어	-17258
▁수만	-17259
orts	-17260
마니	-17261
▁공구	-17262
▁아랑전설	-17263
▁특색	-17264
루살렘	-17265
▁뉴캐슬	-17266
트니	-17267
▁근위	-17268
▁어감	-17269
▁갈아입	-17270
▁껴	-17271
▁ㄱㅣㅅ	-17272
▁편집자	-17273
▁각광	-17274
▁당원	-17275
▁새해	-17276
▁앵글	-17277
▁온건	-17278
▁아카시	-17279
▁행정부	-17280
▁뱌	-17281
▁바드	-17282
▁오거	-17283
▁바빌	-17284
▁색기	-17285
▁아우구	-17286
▁숙적	-17287
▁에지	-17288
▁전범	-17289
▁틀어막	-17290
▁역적	-17291
▁파충	-17292
▁노동당	-17293
▁수산	-17294
▁코피	-17295
▁공천	-17296
▁굴림	-17297
▁등용	-17298
▁레고	-17299
▁포신	-17300
▁알라딘	-17301
▁재판소	-17302
▁트렌드	-17303
▁동결	-17304
▁오모	-17305
▁오산	-17306
▁온전	-17307
▁인테르	-17308
▁PA	-17309
▁순조	-17310
▁안톤	-17311
▁패권	-17312
▁스트롱	-17313
태격	-17314
▁가맹	-17315
▁수료	-17316
▁장발	-17317
▁초회	-17318
▁티격태격	-17319
▁이리야	-17320
▁카즈미	-17321
▁요령	-17322
▁최성	-17323
▁Are	-17324
▁고드	-17325
▁낙서	-17326
▁서슴	-17327
▁자선	-17328
▁포섭	-17329
▁스트림	-17330
▁운동가	-17331
▁잔소리	-17332
▁징집	-17333
▁후진	-17334
▁여덟	-17335
▁자결	-17336
▁효력	-17337
리스크	-17338
▁알아차리	-17339
▁럿	-17340
ㅁㅐ	-17341
▁성주	-17342
▁성희	-17343
▁예매	-17344
▁채굴	-17345
▁흑발	-17346
▁구루	-17347
▁분수	-17348
▁조동	-17349
김없이	-17350
▁성범죄	-17351
▁아머드	-17352
▁캅	-17353
▁표류	-17354
▁풍속	-17355
▁ㄴㅓㄼ	-17356
▁여객기	-17357
▁인테리어	-17358
▁나선	-17359
▁미소년	-17360
▁아브	-17361
▁허접	-17362
ㄷㅐㅆ	-17363
▁야미	-17364
▁자서	-17365
▁근로자	-17366
▁도르트문트	-17367
▁png	-17368
▁정신병	-17369
니엄	-17370
▁농도	-17371
▁만장	-17372
▁소셜	-17373
▁역기	-17374
▁재림	-17375
▁최장	-17376
son	-17377
▁괴짜	-17378
▁동선	-17379
▁Best	-17380
▁밀레니엄	-17381
살이	-17382
스틱	-17383
ㅅㅔㄴ	-17384
▁레일건	-17385
▁9000	-17386
▁ㅈㅜㄹㅇㅣㄴ	-17387
▁민트	-17388
▁호족	-17389
▁ㄲㅜㄹ	-17390
▁베네치아	-17391
▁콜로세움	-17392
▁ㅈㅜㄹㄱㅔ	-17393
▁남친	-17394
▁린이	-17395
▁고아원	-17396
▁난장판	-17397
▁아르타	-17398
▁Stri	-17399
▁ㅁㅜㄷㅎㅣㄴ	-17400
ape	-17401
▁골격	-17402
▁골대	-17403
▁마성	-17404
▁ㄴㅏㅊ	-17405
▁사오리	-17406
▁판단력	-17407
▁진범	-17408
ㅇㅡㅁ	-17409
xt	-17410
▁깐	-17411
▁로버	-17412
▁메이크	-17413
▁아서스	-17414
▁코우타	-17415
▁ㅍㅏㄹㄹㅕㅆ	-17416
▁신차	-17417
▁티르	-17418
▁형법	-17419
▁MI	-17420
▁단타	-17421
▁아토	-17422
▁티모	-17423
▁제각각	-17424
▁길티	-17425
▁소양	-17426
▁카로	-17427
▁정부군	-17428
▁ㅂㅣㅅㄴㅏ	-17429
▁ㅂㅜㄹㄹㅣㄴ	-17430
▁ㄲㅞ	-17431
ster	-17432
▁트롤링	-17433
▁Pack	-17434
교도	-17435
ize	-17436
▁소홀	-17437
▁리비아	-17438
▁아틀란티스	-17439
▁힛	-17440
▁제명	-17441
anna	-17442
▁pe	-17443
▁미하일	-17444
▁예루살렘	-17445
▁조부	-17446
▁착수	-17447
▁GA	-17448
▁kn	-17449
▁근방	-17450
▁슈리	-17451
▁파기	-17452
▁파커	-17453
▁간과	-17454
▁다라	-17455
▁아즈텍	-17456
▁쎄	-17457
▁NP	-17458
▁마쓰	-17459
▁무토	-17460
▁통찰	-17461
▁원안	-17462
▁호밍	-17463
▁프리덤	-17464
▁히로미	-17465
▁경멸	-17466
▁서동	-17467
▁줄리아	-17468
▁매뉴얼	-17469
▁웍스	-17470
▁오카다	-17471
너드	-17472
▁물류	-17473
▁리포	-17474
부수	-17475
err	-17476
▁사비	-17477
▁악수	-17478
▁초심	-17479
▁ㅍㅜㄴ	-17480
▁ㄱㅕㄴㄷㅕ	-17481
▁디언	-17482
▁미우라	-17483
▁ㄲㅡㅌㄴㅐㄹ	-17484
▁나아지	-17485
문화	-17486
▁대련	-17487
▁마자	-17488
▁재결	-17489
▁쿠우	-17490
▁포자	-17491
▁항공대	-17492
▁ㄲㅡㅌㄴㅐㅆ	-17493
임수	-17494
▁고온	-17495
포동	-17496
▁동탄	-17497
▁행동력	-17498
▁그레이브	-17499
▁옅	-17500
▁ㄹㅗㄴㄱㅏ	-17501
네즈	-17502
황후	-17503
▁상임	-17504
▁유체	-17505
▁앞머리	-17506
▁전면전	-17507
▁1951	-17508
▁몰아붙이	-17509
슬로	-17510
AKA	-17511
▁겨누	-17512
▁미니건	-17513
▁PH	-17514
▁진중	-17515
▁짬뽕	-17516
▁370	-17517
▁스코어링	-17518
▁슬라이더	-17519
28	-17520
▁남코	-17521
▁독소	-17522
▁니퍼	-17523
▁은어	-17524
▁한판	-17525
ㄲㅗㅂ	-17526
▁ㅅㅗㄴㄲㅗㅂ	-17527
▁탤런트	-17528
oud	-17529
▁his	-17530
▁조종당	-17531
▁칠드런	-17532
▁tw	-17533
▁결단	-17534
▁불륜	-17535
▁유족	-17536
▁주시	-17537
피탈	-17538
▁대칭	-17539
▁차우	-17540
▁they	-17541
▁ㅎㅐㅆㄷㅏ	-17542
▁은색	-17543
▁이매	-17544
▁노리코	-17545
▁역전패	-17546
▁타노스	-17547
상스	-17548
▁기형	-17549
▁마고	-17550
▁윤성	-17551
▁Joh	-17552
▁Mir	-17553
▁마일리	-17554
▁정찰기	-17555
개골	-17556
▁사이먼	-17557
▁인조인간	-17558
▁Mbps	-17559
▁메커	-17560
▁쿠파	-17561
▁끝없이	-17562
▁앤드류	-17563
잣집	-17564
▁원가	-17565
▁하남	-17566
자국	-17567
▁교원	-17568
▁두각	-17569
▁벼슬	-17570
▁자일	-17571
▁무쌍	-17572
▁하가	-17573
▁ㄷㅏㄹㅎㅏㄴㄷㅏ	-17574
▁클러치	-17575
ㅇㅣㄹㅇㅡ	-17576
▁ㅇㅝㄴㅊㅣ	-17577
▁람보	-17578
▁설교	-17579
▁달려드	-17580
▁코만도	-17581
자스	-17582
OSS	-17583
▁말라	-17584
▁패하	-17585
▁홍차	-17586
IDE	-17587
▁관현	-17588
▁말뚝	-17589
▁세련	-17590
▁쿠노	-17591
▁흑색	-17592
▁조선인	-17593
▁피크	-17594
▁747	-17595
▁mAh	-17596
불리	-17597
▁표명	-17598
폴리스	-17599
▁크래시	-17600
ma	-17601
어뜯	-17602
▁미분	-17603
▁캐쉬	-17604
▁"..	-17605
▁경순양함	-17606
UG	-17607
▁통장	-17608
▁미츠키	-17609
▁갑주	-17610
▁몰입	-17611
▁유괴	-17612
▁이장	-17613
▁초연	-17614
ze	-17615
▁당근	-17616
▁무소	-17617
▁레이서	-17618
▁울버린	-17619
려보	-17620
ama	-17621
▁노노	-17622
▁서북	-17623
▁직종	-17624
▁나오토	-17625
▁노하라	-17626
▁세계수	-17627
썰트	-17628
▁빼내	-17629
▁불량배	-17630
▁어썰트	-17631
zy	-17632
▁ㅁㅏㄱㅎㅕㅆ	-17633
▁쭈	-17634
▁대물	-17635
▁인분	-17636
▁미카도	-17637
▁이방원	-17638
▁장시간	-17639
▁다채	-17640
▁식구	-17641
▁총회	-17642
▁ㅁㅓㄹ	-17643
hy	-17644
▁극동	-17645
▁반열	-17646
▁척추	-17647
▁171	-17648
▁토머스	-17649
▁촉한	-17650
▁왕정	-17651
▁나이지	-17652
▁나이지리아	-17653
▁국지	-17654
▁주점	-17655
▁창법	-17656
▁ㅇㅏㄹㄹㅣㅁ	-17657
▁215	-17658
▁이부키	-17659
▁First	-17660
▁ㅅㅓㄴㄱㅏ	-17661
SS	-17662
▁광화문	-17663
▁우익수	-17664
▁선량	-17665
▁앰프	-17666
▁음파	-17667
▁부끄	-17668
▁철구	-17669
▁마라톤	-17670
▁즌	-17671
려우	-17672
▁브룩	-17673
▁신야	-17674
▁어머	-17675
▁텐트	-17676
▁아돌프	-17677
▁데이비스	-17678
▁아오바	-17679
▁NORM	-17680
▁파밀리아	-17681
▁캉	-17682
헤드	-17683
▁지출	-17684
▁도요토미	-17685
END	-17686
▁부설	-17687
▁분파	-17688
▁오기	-17689
▁이연	-17690
▁도키	-17691
▁에라	-17692
▁히키	-17693
▁이세이	-17694
▁교구	-17695
▁금정	-17696
▁순차	-17697
▁카모	-17698
▁컨버	-17699
▁니티	-17700
▁덴마	-17701
▁치솟	-17702
▁아라이	-17703
▁도부	-17704
ㅊㅜ	-17705
▁발령	-17706
▁충원	-17707
▁ㅎㅗㄴ	-17708
▁천리	-17709
▁혈압	-17710
▁게이밍	-17711
▁애틀랜타	-17712
▁미코	-17713
▁161	-17714
▁ㄱㅣㄹㄹㅐ	-17715
훈련	-17716
▁복식	-17717
▁추축	-17718
▁정신줄	-17719
▁저술	-17720
▁181	-17721
▁실비아	-17722
▁독살	-17723
▁사학	-17724
▁강서구	-17725
▁여군	-17726
▁피고	-17727
▁기념일	-17728
▁벳	-17729
▁HT	-17730
▁넬슨	-17731
기수	-17732
▁발도	-17733
▁이목	-17734
▁잔존	-17735
▁호머	-17736
너티브	-17737
▁얼터너티브	-17738
어처	-17739
▁수기	-17740
▁유창	-17741
ㄱㅡㅅ	-17742
▁전광판	-17743
▁미니어처	-17744
▁포메이션	-17745
▁ㅅㅗㄱㅎㅐㅆ	-17746
▁교포	-17747
▁ㅇㅘㄴ	-17748
▁승용차	-17749
라이어티	-17750
▁급감	-17751
▁로데	-17752
▁아루	-17753
▁코타	-17754
▁상반신	-17755
▁버라이어티	-17756
로트	-17757
▁맨손	-17758
▁유죄	-17759
▁허준	-17760
▁MAD	-17761
▁라이저	-17762
▁1936	-17763
▁Perf	-17764
▁타케우치	-17765
▁각주	-17766
▁마천	-17767
▁우터	-17768
▁자행	-17769
▁골짜기	-17770
▁익산	-17771
▁235	-17772
▁ㄷㅏㄹㄹㅣㄹ	-17773
레마	-17774
▁분전	-17775
▁오재	-17776
▁NORMAL	-17777
시즘	-17778
▁탄피	-17779
▁Down	-17780
▁브라이트	-17781
▁용납	-17782
▁피파	-17783
▁시끄럽	-17784
▁Miss	-17785
▁ㅁㅣㄹㄹㅣㄴ	-17786
▁ㅎㅡㄹㄹㅕㅆ	-17787
▁거침	-17788
▁파주	-17789
▁포상	-17790
▁NMB	-17791
▁사우디	-17792
▁비터	-17793
▁요시카	-17794
특기	-17795
▁은빛	-17796
▁정선	-17797
▁주특기	-17798
ㅟㄹ	-17799
ume	-17800
▁쳇	-17801
▁시연	-17802
▁데니스	-17803
▁프렌드	-17804
▁City	-17805
▁ㄴㅗㅎㅇㅣㄴ	-17806
yes	-17807
▁실물	-17808
▁탄종	-17809
▁미노리	-17810
슬라비아	-17811
▁오퍼레이터	-17812
▁유고슬라비아	-17813
▁전곡	-17814
▁메사	-17815
▁물음	-17816
▁총애	-17817
▁Mem	-17818
▁ㄱㅓㄹㄹㅓ	-17819
▁ㅃㅗㅂㅎㅕㅆ	-17820
▁예민	-17821
▁통폐	-17822
▁Hot	-17823
▁수없이	-17824
▁토미노	-17825
▁Char	-17826
▁승승장구	-17827
▁매춘	-17828
▁선단	-17829
▁알제리	-17830
▁매기	-17831
▁북동	-17832
▁일면	-17833
▁wiz	-17834
▁자연히	-17835
36	-17836
▁뻔뻔	-17837
▁데미안	-17838
net	-17839
▁육신	-17840
▁출생지	-17841
▁한류	-17842
▁AGE	-17843
▁에그맨	-17844
▁한없이	-17845
▁페러	-17846
ga	-17847
▁안장	-17848
▁여제	-17849
▁향신	-17850
▁마카오	-17851
▁시베리아	-17852
▁카트리지	-17853
▁판교	-17854
▁275	-17855
▁공안	-17856
▁벨리	-17857
▁열폭	-17858
▁이케다	-17859
ㄴㅗ	-17860
▁약사	-17861
설수	-17862
▁혐한	-17863
▁데일리	-17864
▁시급	-17865
▁칵	-17866
▁돌변	-17867
▁발병	-17868
▁케미	-17869
▁207	-17870
▁Happy	-17871
UD	-17872
▁시영	-17873
▁씌우	-17874
▁DEF	-17875
▁다이크	-17876
▁어정쩡	-17877
▁강국	-17878
▁횡령	-17879
▁대성공	-17880
회전	-17881
▁명절	-17882
▁역행	-17883
▁왕창	-17884
▁ㅇㅝㄴㅅㅜㄹ	-17885
만화	-17886
▁낙양	-17887
▁알트	-17888
▁집게	-17889
▁이메일	-17890
▁단도	-17891
▁도맡	-17892
▁ㅈㅗㄹㄹㅏ	-17893
▁서경	-17894
▁슬프	-17895
▁완력	-17896
▁제때	-17897
▁김천	-17898
▁넥스트	-17899
▁NATO	-17900
▁마구잡이	-17901
▁몬스터즈	-17902
▁Break	-17903
▁Class	-17904
독스	-17905
▁관건	-17906
ㅎㅇㅏㅆ	-17907
▁ㅆㅏㅎㅇㅏㅆ	-17908
▁세인	-17909
▁Ret	-17910
▁조나단	-17911
▁나즈	-17912
▁약품	-17913
▁이송	-17914
▁RED	-17915
▁백병전	-17916
▁재수없	-17917
▁탑승자	-17918
▁겸임	-17919
▁니르	-17920
▁재발	-17921
▁컬처	-17922
▁dis	-17923
▁눈보라	-17924
▁ㄱㅓㄴㅁㅏㄴ	-17925
awn	-17926
▁발하	-17927
▁종파	-17928
▁풍습	-17929
▁Und	-17930
▁헤일로	-17931
▁골절	-17932
▁규율	-17933
▁일병	-17934
▁몸싸움	-17935
▁스트라	-17936
▁어르신	-17937
▁우울증	-17938
▁교묘	-17939
▁분실	-17940
▁신종	-17941
▁궁예	-17942
숭아	-17943
▁내쫓	-17944
▁치즈루	-17945
▁유토피아	-17946
조림	-17947
▁올레	-17948
▁유리카	-17949
▁just	-17950
▁ㅁㅓㄱㅎㅕ	-17951
▁잭스	-17952
▁ㅎㅐㅆㅇㅓㅆㅇㅡ	-17953
나우	-17954
▁옥수수	-17955
분투	-17956
▁덮치	-17957
▁MUS	-17958
▁르네상스	-17959
▁가발	-17960
48	-17961
▁펩	-17962
꼬박	-17963
▁꼬박꼬박	-17964
샤인	-17965
▁#!	-17966
▁도봉	-17967
▁베로	-17968
▁요하	-17969
▁전경	-17970
▁211	-17971
▁사옥	-17972
▁첩자	-17973
덴티티	-17974
▁Dec	-17975
▁SHD	-17976
▁아이덴티티	-17977
▁ㄱㅏㄹㄱㅜㅁ	-17978
▁발해	-17979
▁북벌	-17980
▁샤르	-17981
▁Stage	-17982
26	-17983
▁TN	-17984
▁헌트	-17985
▁선동열	-17986
▁감마	-17987
▁버크	-17988
▁머릿속	-17989
제이	-17990
▁스톨	-17991
▁전위	-17992
▁앞부분	-17993
▁관전	-17994
▁성의	-17995
▁헤드폰	-17996
▁순발	-17997
▁토모코	-17998
▁가차없이	-17999
IAL	-18000
▁요가	-18001
▁친숙	-18002
▁ㅍㅐㄹ	-18003
▁콴	-18004
▁미주	-18005
▁순화	-18006
▁정품	-18007
▁호시노	-18008
▁큰일	-18009
▁말버릇	-18010
▁외교관	-18011
▁철학자	-18012
▁ㅈㅓㅂㅎㅏㄹ	-18013
▁만담	-18014
▁러스트	-18015
▁기폭	-18016
▁번거	-18017
▁아로	-18018
▁역도	-18019
▁성희롱	-18020
▁위아래	-18021
▁쿼터백	-18022
ius	-18023
▁수렵	-18024
ㅇㅗㄹㄹㅕㅆ	-18025
▁망신	-18026
▁머들	-18027
▁입석	-18028
▁폭언	-18029
▁풍미	-18030
▁스테이크	-18031
부리	-18032
ONE	-18033
▁실록	-18034
▁오소	-18035
▁아키하	-18036
▁경관	-18037
▁단수	-18038
▁힌두	-18039
▁동호회	-18040
▁순발력	-18041
27	-18042
▁놓이	-18043
▁총검	-18044
▁하로	-18045
▁윈스턴	-18046
가키	-18047
▁다람	-18048
▁노하우	-18049
▁유키코	-18050
▁감속	-18051
▁견습	-18052
▁코퍼	-18053
▁핑거	-18054
▁Elect	-18055
▁과반	-18056
▁주재	-18057
로그램	-18058
▁프리랜	-18059
▁로니	-18060
▁분비	-18061
▁합숙	-18062
ORPG	-18063
▁STA	-18064
▁엄폐물	-18065
▁클라크	-18066
▁통폐합	-18067
▁승낙	-18068
▁조개	-18069
▁쪼개	-18070
ole	-18071
▁황폐	-18072
▁드래곤즈	-18073
▁ㄷㅗㄹㄹㅣㄴ	-18074
▁경산	-18075
▁닷컴	-18076
▁로페	-18077
▁마니아	-18078
▁전라도	-18079
▁GAME	-18080
▁동성애자	-18081
대상	-18082
que	-18083
▁노화	-18084
▁혈관	-18085
▁레기온	-18086
▁over	-18087
▁막스	-18088
▁선지	-18089
▁950	-18090
▁개머리	-18091
▁바카	-18092
▁키네	-18093
▁포이즌	-18094
ㅁㅜㄹㄹㅓ	-18095
▁행렬	-18096
▁드러머	-18097
▁레스터	-18098
▁시드니	-18099
▁최하위	-18100
att	-18101
▁매매	-18102
▁혼잡	-18103
▁재생성	-18104
▁요코야마	-18105
▁매튜	-18106
▁한신	-18107
▁765	-18108
▁방영일	-18109
비야	-18110
플러	-18111
▁곧장	-18112
▁베르나	-18113
▁우왕	-18114
▁나폴리	-18115
▁다케다	-18116
▁두개골	-18117
▁패러독스	-18118
▁예거	-18119
▁우에노	-18120
▁포레스트	-18121
▁애니플러스	-18122
▁촉진	-18123
▁화보	-18124
▁돼지고기	-18125
▁랠	-18126
구멍	-18127
▁노미	-18128
▁빙글	-18129
95	-18130
▁찻	-18131
▁퀀	-18132
▁반죽	-18133
ㅇㄱㅣㄴㄷㅏ	-18134
▁!!"	-18135
▁부상자	-18136
▁플라워	-18137
▁콩고	-18138
▁판다	-18139
▁풀이	-18140
오피아	-18141
▁440	-18142
▁ESP	-18143
▁디에고	-18144
▁예컨대	-18145
▁주둔지	-18146
▁일렉트릭	-18147
▁에티오피아	-18148
▁ㄷㅙㅆㅇㅓㅆ	-18149
▁레츠	-18150
▁코즈믹	-18151
삭스	-18152
▁Cor	-18153
▁샤이니	-18154
▁두근두근	-18155
▁Legend	-18156
멘션	-18157
블랑	-18158
▁양말	-18159
▁MOD	-18160
▁디멘션	-18161
▁가관	-18162
▁소란	-18163
▁숙박	-18164
▁수차례	-18165
▁every	-18166
▁ㅈㅓㅇㅎㅐㅆ	-18167
▁중남	-18168
▁수사관	-18169
▁다리우스	-18170
▁군세	-18171
▁전리	-18172
▁쳐내	-18173
▁2021	-18174
▁뻐	-18175
▁oh	-18176
▁동강	-18177
▁반신	-18178
▁왕세	-18179
▁최형	-18180
▁뛰어다니	-18181
▁ㅈㅣㄴㅎㅐㅇㅎㅏㄹ	-18182
▁이로	-18183
▁Fly	-18184
▁our	-18185
▁ㄷㅚㅆ	-18186
▁EXTRA	-18187
▁ㄱㅣㅅㄷㅡㄴ	-18188
▁로트	-18189
▁족족	-18190
▁Rad	-18191
▁속임수	-18192
▁경음	-18193
▁다분	-18194
▁애착	-18195
▁래빗	-18196
▁세카	-18197
▁208	-18198
▁htm	-18199
▁ㅌㅡㄹ	-18200
▁다이묘	-18201
▁알고리	-18202
▁약혼자	-18203
▁주유소	-18204
▁쫓겨나	-18205
▁컨퍼런스	-18206
▁쿠로사키	-18207
▁광주광역시	-18208
▁Fre	-18209
▁알프레드	-18210
▁코드네임	-18211
com	-18212
▁잠식	-18213
irect	-18214
▁넛	-18215
▁에비	-18216
▁어려우	-18217
▁ㅎㅡㄴㅊㅣ	-18218
▁덤블	-18219
▁산호	-18220
▁아발	-18221
ㄷㅎㅕㅆ	-18222
▁명언	-18223
▁주루	-18224
▁탈영	-18225
▁부잣집	-18226
▁과열	-18227
▁영장	-18228
▁단축키	-18229
▁대대장	-18230
▁마사루	-18231
▁명실상부	-18232
▁ㅈㅜㄱㅇㅣㅁ	-18233
▁다이노	-18234
▁타이완	-18235
GM	-18236
마드	-18237
▁엘더	-18238
▁짜장	-18239
▁TRA	-18240
▁유니버	-18241
▁니키	-18242
▁히로키	-18243
▁구실	-18244
▁깨우	-18245
▁양재	-18246
▁Aut	-18247
get	-18248
▁**	-18249
▁보름	-18250
▁이도	-18251
▁Dest	-18252
▁사칭	-18253
▁페트	-18254
▁포유	-18255
arth	-18256
▁메커니즘	-18257
▁EXPER	-18258
▁차고	-18259
▁천차	-18260
▁팬더	-18261
▁기로	-18262
▁펑펑	-18263
▁EXO	-18264
▁한국사	-18265
각형	-18266
레톤	-18267
▁역장	-18268
▁지간	-18269
▁박진영	-18270
▁클리프	-18271
▁Level	-18272
▁볶음	-18273
▁치하	-18274
▁Mac	-18275
▁Ry	-18276
▁죠타	-18277
▁자그마	-18278
▁스켈레톤	-18279
IO	-18280
▁이크	-18281
▁황색	-18282
▁이정훈	-18283
▁출연자	-18284
▁향신료	-18285
▁ㄷㅗㅇㄸㅓㄹㅇㅓ	-18286
▁딱지	-18287
▁214	-18288
노부	-18289
▁생소	-18290
▁양분	-18291
카이저	-18292
▁위스키	-18293
▁NASA	-18294
▁자속	-18295
▁브라이	-18296
▁시리우스	-18297
▁미야코	-18298
바탕	-18299
▁섬뜩	-18300
▁제타	-18301
▁풍신	-18302
▁헤더	-18303
▁교활	-18304
▁집요	-18305
▁포구	-18306
INAL	-18307
▁CGV	-18308
▁사업가	-18309
▁프리랜서	-18310
23	-18311
다듬	-18312
OTH	-18313
▁스메	-18314
얼거리	-18315
▁대나무	-18316
▁down	-18317
▁냉철	-18318
▁작자	-18319
▁Tech	-18320
▁노기자카	-18321
▁알고리즘	-18322
리언	-18323
▁검거	-18324
▁노년	-18325
▁미끄	-18326
▁분경	-18327
ㅃㅡㄹ	-18328
▁자서전	-18329
▁ㅉㅣㄹㄹㅕ	-18330
▁역세	-18331
▁잔여	-18332
떨어지	-18333
▁노미야	-18334
▁이따금	-18335
ㅁㅜㄹㄹㅓㅆ	-18336
▁보옥	-18337
▁위드	-18338
▁한인	-18339
글러브	-18340
▁골든글러브	-18341
▁건축물	-18342
▁파충류	-18343
▁산산조각	-18344
▁TECHNIKA	-18345
▁ㅈㅓㅇㅎㅏㄴㄷㅏ	-18346
▁사보	-18347
▁셰이	-18348
▁이비	-18349
▁클럭	-18350
▁훈련병	-18351
▁ㅁㅓㄱㅇㅣㄹ	-18352
▁곧잘	-18353
▁적도	-18354
▁301	-18355
▁경합	-18356
▁수병	-18357
▁정관	-18358
▁체하	-18359
▁취항	-18360
▁공연장	-18361
▁피어스	-18362
해머	-18363
▁혈연	-18364
▁훌쩍	-18365
가르드	-18366
▁보이드	-18367
▁Port	-18368
▁김응	-18369
▁백마	-18370
▁에뮬	-18371
▁탄산	-18372
▁이승현	-18373
▁자이로	-18374
▁하야미	-18375
▁more	-18376
▁백스	-18377
▁제동	-18378
벌이	-18379
▁Ul	-18380
▁기각	-18381
▁대영	-18382
▁화전	-18383
▁Pol	-18384
▁컴플렉스	-18385
▁빈민	-18386
▁외동	-18387
▁윤종	-18388
▁그랜트	-18389
▁ㅁㅣㄹㅊㅕ	-18390
우먼	-18391
▁과잉	-18392
▁뽐내	-18393
▁닳	-18394
TER	-18395
▁복서	-18396
▁요네	-18397
거스	-18398
▁아재	-18399
▁양지	-18400
▁최순	-18401
▁권력자	-18402
▁언론사	-18403
▁가르시아	-18404
▁카트라이더	-18405
선거	-18406
enc	-18407
▁권법	-18408
▁나주	-18409
▁EXPERT	-18410
▁휘둘	-18411
▁어웨이	-18412
▁ㅈㅑ	-18413
▁편찬	-18414
▁지상군	-18415
▁개머리판	-18416
▁모자이크	-18417
동물	-18418
▁무르	-18419
▁달려오	-18420
▁등록금	-18421
▁마이티	-18422
▁이어주	-18423
▁지명타자	-18424
▁된	-18425
노프	-18426
ano	-18427
▁국교	-18428
▁ㅍㅕㄹㅊㅣㄴㄷㅏ	-18429
▁AO	-18430
▁노우	-18431
▁미적	-18432
▁타타	-18433
▁410	-18434
▁주제가	-18435
▁난데없이	-18436
피드	-18437
▁차차	-18438
▁헤비급	-18439
▁ㅅㅏㅇㅎㅐ	-18440
▁=,	-18441
▁켄신	-18442
▁환술	-18443
▁RGB	-18444
펠러	-18445
▁닛산	-18446
▁싸구려	-18447
▁페널티가	-18448
▁자백	-18449
ya	-18450
ated	-18451
▁쿠퍼	-18452
▁애리조	-18453
도나	-18454
▁여중	-18455
▁마츠이	-18456
▁공황	-18457
▁덴오	-18458
▁아와	-18459
▁블로우	-18460
▁쏙	-18461
▁푸시	-18462
▁하피	-18463
▁Hol	-18464
▁생몰년	-18465
▁올리브	-18466
▁ㅂㅜㅌㅇㅣㄹ	-18467
▁아소	-18468
▁카니	-18469
▁펠레	-18470
▁갈라지	-18471
▁도카이	-18472
▁아키오	-18473
▁제이미	-18474
▁AW	-18475
▁놀림	-18476
▁무서	-18477
▁켈트	-18478
무쌍	-18479
▁공문	-18480
▁모차	-18481
▁송곳니	-18482
▁레토	-18483
▁자릿	-18484
▁홍련	-18485
▁밧줄	-18486
▁오레	-18487
▁투지	-18488
▁ABC	-18489
▁방탄복	-18490
▁하이스	-18491
▁ㅇㅓㄺㅎㅣㄴ	-18492
소타	-18493
▁포박	-18494
니케이션	-18495
▁마이스터	-18496
▁렐름	-18497
▁이면	-18498
▁농어촌	-18499
▁위용	-18500
▁광저우	-18501
▁라이스	-18502
▁파라오	-18503
▁조선일보	-18504
▁독립운동가	-18505
▁커뮤니케이션	-18506
tor	-18507
▁다의	-18508
▁선더	-18509
▁쾌락	-18510
▁동시대	-18511
▁특촬물	-18512
▁WHIP	-18513
ㅉㅣ	-18514
▁비행장	-18515
▁Line	-18516
에트	-18517
▁뒤덮	-18518
▁원대	-18519
▁정가	-18520
바위보	-18521
▁노태우	-18522
▁가위바위보	-18523
▁이나바	-18524
▁이윤열	-18525
▁서큐버스	-18526
▁돌려받	-18527
▁선샤인	-18528
▁졸지에	-18529
▁미네소타	-18530
▁ㄸㅡㄷㅇㅓ	-18531
uro	-18532
▁방주	-18533
ouble	-18534
▁ㅈㅏㅁㄷㅡㄴ	-18535
ㅈㅔ	-18536
수염	-18537
▁채무	-18538
▁즐거움	-18539
▁댁	-18540
매기	-18541
▁코칭	-18542
▁해부	-18543
▁호연	-18544
▁레인저스	-18545
▁진풍	-18546
▁Hey	-18547
▁거북이	-18548
▁Fall	-18549
▁자정	-18550
▁하긴	-18551
▁GPS	-18552
▁스사노	-18553
▁활발히	-18554
▁강당	-18555
▁속출	-18556
▁도메인	-18557
▁타카미	-18558
▁증식	-18559
▁AAA	-18560
성어	-18561
▁송지	-18562
도니아	-18563
ague	-18564
▁good	-18565
피디아	-18566
▁볼드모트	-18567
질기	-18568
▁레터	-18569
▁명맥	-18570
▁품목	-18571
▁들어맞	-18572
▁베이커	-18573
▁끈질기	-18574
▁보급품	-18575
▁위키피디아	-18576
▁다테	-18577
▁뒤엎	-18578
▁몬드	-18579
▁Val	-18580
▁마리나	-18581
▁소스케	-18582
하늘	-18583
▁바이트	-18584
▁라르	-18585
▁산전	-18586
▁오줌	-18587
▁요마	-18588
▁이룩	-18589
▁장기전	-18590
▁명계	-18591
▁반입	-18592
▁팽창	-18593
ther	-18594
▁ㄴㅔㄹ	-18595
▁경희대	-18596
be	-18597
비지	-18598
츠미	-18599
▁모성	-18600
▁Ant	-18601
▁아이슬	-18602
ㄱㅏㄹㅅㅜ	-18603
▁watch	-18604
▁갈비	-18605
▁티오	-18606
▁노이드	-18607
▁어설프	-18608
ㅇㅏㅅㄱㅕㅆ	-18609
▁고라	-18610
▁급소	-18611
▁연장선	-18612
96	-18613
▁고구	-18614
▁코라	-18615
▁라이엇	-18616
▁우즈베	-18617
▁타무라	-18618
▁ㅅㅓㄴㅎㅏㄴ	-18619
we	-18620
▁내무	-18621
▁영령	-18622
ㄸㅓ	-18623
▁"'	-18624
▁인계	-18625
▁일전	-18626
▁메모리얼	-18627
▁케이스케	-18628
▁하나같이	-18629
▁개중	-18630
▁후지타	-18631
▁감격	-18632
▁강북	-18633
▁레너드	-18634
▁ㅆㅡㄹㄹㅕ	-18635
▁남서	-18636
▁노드	-18637
▁살포	-18638
▁앤트	-18639
▁완투	-18640
▁지바	-18641
▁유희열	-18642
▁Kill	-18643
▁white	-18644
▁복판	-18645
▁피통	-18646
▁희소	-18647
▁매크로	-18648
▁Show	-18649
▁ㅈㅏㅁㄱㅕ	-18650
▁방사선	-18651
▁요스케	-18652
팽이	-18653
▁이펙터	-18654
도어	-18655
UND	-18656
▁OT	-18657
▁간직	-18658
▁녹스	-18659
▁소굴	-18660
ITAD	-18661
▁설립자	-18662
▁ㅈㅏㄱㅇㅏ	-18663
und	-18664
▁보크	-18665
▁속주	-18666
▁투여	-18667
▁병살타	-18668
▁낙동	-18669
▁영수	-18670
line	-18671
▁ㅋㅐㄹ	-18672
▁해밀턴	-18673
▁Spring	-18674
▁쿡	-18675
타마	-18676
▁발랄	-18677
▁008	-18678
▁Pop	-18679
▁EL	-18680
▁ㅃㅣ	-18681
▁머큐	-18682
▁오스틴	-18683
▁가락	-18684
▁목성	-18685
배기	-18686
▁꼼꼼	-18687
▁봉지	-18688
▁황천	-18689
▁물어뜯	-18690
▁장제스	-18691
키오	-18692
▁라카	-18693
▁몽환	-18694
▁호신	-18695
▁가요제	-18696
▁펌웨어	-18697
ck	-18698
▁튠	-18699
▁취역	-18700
던지	-18701
▁조련	-18702
▁총수	-18703
▁투영	-18704
▁팍팍	-18705
▁010	-18706
▁스타터	-18707
▁ㄱㅕㄴㄷㅣㄹ	-18708
조선	-18709
▁괄호	-18710
▁구이	-18711
▁리라	-18712
▁Cal	-18713
▁마츠리	-18714
▁바티칸	-18715
▁박지성	-18716
▁정상급	-18717
▁장문	-18718
▁연합국	-18719
[...]
