[PAD]
[UNK]
[BOS]
[EOS]
[CLS]
[SEP]
[MASK]
▁▃
▁이
▁하
▁.
▁ㄴ
▁에
▁는
▁다
▁의
▁을
▁가
▁,
▁아
▁고
▁어
▁를
▁지
▁은
▁으
▁1
▁기
▁도
▁있
▁되
▁2
▁로
▁었
▁ㄴ다
▁에서
▁ㄹ
▁그
▁사
▁으로
▁시
▁았
▁보
▁들
▁대
▁수
▁라
▁나
▁자
▁것
▁게
▁일
▁전
▁주
▁과
▁-
▁면
▁적
▁마
▁스
▁만
▁3
▁와
▁부
▁정
▁상
▁모
▁오
▁20
▁때
▁년
▁공
▁'
▁:
▁여
▁경
▁인
▁유
▁중
▁제
▁한
▁위
▁없
▁비
▁지만
▁4
▁소
▁무
▁거
▁성
▁등
▁않
▁에게
▁5
▁개
▁던
▁미
▁0
▁조
▁서
▁세
▁며
▁바
▁월
▁"
▁내
▁201
▁장
▁방
▁/
▁동
▁카
▁타
▁선
▁연
▁구
▁말
▁안
▁영
▁신
▁화
▁후
▁생
▁버
▁당
▁리
▁차
▁발
▁까
▁는데
▁레
▁더
▁때문
▁아서
▁6
▁크
▁원
▁강
▁파
▁우
▁10
▁까지
▁아니
▁명
▁최
▁노
▁실
▁데
▁문
▁번
▁7
▁같
▁해
▁단
▁라고
▁불
▁라는
▁포
▁회
▁진
▁나오
▁관
▁받
▁S
▁특
▁8
▁많
▁결
▁초
▁반
▁!
▁다고
▁작
▁프
▁알
▁보이
▁드
▁역
▁쓰
▁19
▁배
▁면서
▁처
▁피
▁계
▁9
▁경우
▁코
▁어서
▁공격
▁분
▁추
▁남
▁A
▁다는
▁사용
▁물
▁으며
▁출
▁치
▁두
▁야
▁국
▁못
▁현
▁자신
레이
▁매
▁좋
▁M
▁점
▁패
▁편
▁달
▁이후
▁니
▁저
▁%
▁감
▁그리
▁호
▁트
▁학
▁따
▁요
▁교
▁재
▁정도
▁사람
▁메
▁통
▁C
▁입
▁예
▁속
▁또
스트
▁플
▁B
▁캐
▁가능
▁T
▁김
▁설
▁위하
▁참
▁형
▁본
▁함
▁평
▁등장
▁부터
▁대하
▁D
▁ᄆ
▁~
▁+
▁돌
▁보다
▁시키
▁군
▁음
▁..
▁죽
▁다른
▁이나
▁종
▁아이
▁12
▁승
▁토
▁?
▁버리
▁체
▁권
▁게임
▁외
▁살
▁팀
▁는다
er
▁루
▁직
▁200
▁애
▁11
▁용
▁L
▁네
▁판
▁그리고
00
▁가지
▁키
▁으나
▁잘
▁맞
▁확
▁심
▁올
▁그러
▁하나
▁다가
어지
▁행
▁경기
▁변
▁사실
in
▁박
▁듯
▁못하
▁만들
▁필
▁시간
▁운
▁F
▁P
▁뒤
▁베
▁였
▁날
▁투
▁디
니다
▁건
▁모습
▁목
▁간
▁집
▁높
▁히
▁약
▁활
▁G
▁이상
▁사이
▁이름
지만
▁각
▁언
▁상대
▁순
▁표
▁양
▁E
▁테
스터
▁능
an
▁려
▁너
▁시작
▁효
▁으면
▁문제
▁존
▁15
on
▁일본
▁잡
▁터
▁함께
▁거나
▁힘
▁왕
▁하지만
▁손
▁증
▁병
▁생각
▁별
▁겠
▁한국
▁다시
▁#
▁캐릭
▁H
▁열
▁브
▁아야
▁R
▁막
▁천
▁K
어나
▁폭
▁캐릭터
▁완
▁끝
▁따르
▁능력
▁프로
대로
▁들어
▁ㄴ데
▁블
▁t
▁총
▁플레이
▁독
▁클
▁시즌
▁I
▁먹
▁N
▁스킬
▁페
▁항
▁처럼
이트
▁ㄴ지
▁근
▁광
▁추가
▁새
▁복
▁식
▁당하
▁아도
▁m
▁빠
▁채
▁검
▁상황
▁가장
▁그렇
▁태
▁쿠
▁누
▁카드
▁또한
▁삼
미지
or
▁상태
▁얼
▁당시
▁걸
▁느
▁모두
▁길
ar
▁결국
▁백
▁충
▁효과
▁다만
▁곡
▁업
▁모든
▁앞
▁18
▁티
▁16
▁악
▁ㅂ
▁친
▁넘
▁금
▁많이
▁눈
▁전투
▁30
▁O
▁러
▁시리
▁및
at
▁싸
▁ㄴ다는
▁임
▁급
▁커
▁산
▁13
▁민
▁레벨
▁선수
▁슈
he
▁세계
▁]
▁s
▁머
▁W
▁합
▁존재
▁엔
라이
▁여기
▁14
▁[
▁현재
▁ㅓ
▁라이
▁습
▁매우
▁ㅂ니다
▁시리즈
▁취
▁그런
▁무기
▁상당
▁달리
▁스타
▁물론
▁그러나
▁다면
▁레이
▁첫
▁절
▁통하
▁골
▁마법
▁극
▁엄
므로
en
▁얻
▁17
▁황
▁찾
▁팬
▁c
▁난
▁밀
▁허
▁자체
▁창
▁기술
▁100
▁뿐
▁00
▁벌
▁이런
거리
▁실제
▁청
▁주인
▁놓
▁이유
▁모르
▁줄
▁떨
▁25
▁케
▁관련
ou
▁탈
▁같이
▁인하
▁V
이지
al
▁이것
▁이용
▁필요
▁들어가
▁U
▁방송
▁해당
▁다음
▁기본
▁철
▁지역
▁역시
▁법
▁바로
▁처음
▁워
▁기록
▁부르
▁어야
▁곳
▁방어
▁일반
▁거의
▁환
▁돌아
▁째
▁ㄴ다고
▁잠
▁귀
▁혼
▁이야
▁2017
▁피해
리스
▁나가
▁199
▁다르
▁북
▁대학
▁범
이스
▁그래
▁아무
▁좀
▁붙
▁사건
▁냐
▁2018
▁여러
▁몬
▁란
▁미국
▁격
▁특히
▁는지
▁이야기
▁탄
▁밖
▁싶
▁글
▁k
▁없이
▁부분
▁진행
리아
▁영화
es
지막
▁학교
▁본인
▁인간
▁증가
▁ㄴ가
▁풀
▁둘
▁쉽
▁즉
▁2019
▁참고
it
▁담
▁라면
▁팔
▁리그
▁엘
▁주인공
부분
▁제작
▁자기
▁만큼
▁마지막
▁속도
▁헤
▁작품
▁몸
▁어도
▁몰
▁준
▁그냥
▁21
▁의하
▁덕
▁50
▁X
▁밝
▁내용
▁떨어지
▁넣
▁슬
▁2016
▁으니
▁지나
▁공격력
▁대표
▁계속
▁수준
▁대부분
▁인물
▁개요
▁접
▁생기
▁우리
▁올리
is
▁갈
▁암
▁몇
▁&
▁쪽
전히
re
▁어느
▁동안
▁질
▁위치
▁비슷
▁비하
▁딜
▁대신
▁22
▁국가
▁w
토리
le
▁습니다
▁강하
▁홈
▁지금
▁울
▁상당히
▁평가
▁축
▁기사
▁타이
▁활동
▁일부
▁관계
▁이전
▁만나
▁낮
▁영상
▁보스
▁J
▁멀
▁알리
▁서울
▁올라
▁d
▁규
▁체력
▁그대로
▁너무
▁24
▁유닛
▁감독
▁최대
▁문서
▁맡
▁마다
▁뛰
▁괴
▁성공
▁기준
▁빠르
▁시절
▁죽이
▁홍
▁떠
ing
ic
▁제외
▁밝히
▁데미지
▁f
▁중국
▁실제로
▁망
▁므로
▁희
▁몬스터
▁츠
▁메이
▁ㅏ
▁유저
as
▁바람
▁결과
▁정보
라지
▁멤
▁논
▁설정
▁b
시아
▁그녀
▁전쟁
▁지원
▁승리
▁어렵
▁이미
▁23
▁맨
▁멤버
▁대로
▁소속
▁2015
▁자리
▁언급
▁애니
▁도록
▁온
▁님
▁원래
▁퍼
▁칼
▁40
▁직접
▁성우
다가
▁싸우
▁ㄴ다면
▁설명
버지
▁링
▁육
▁도시
▁컨
▁전체
▁선택
▁이동
▁의미
▁그것
▁마음
▁a
▁여자
▁씩
운드
▁배우
▁깨
▁듣
▁과거
가지
▁뭐
▁머리
▁늘
랜드
▁보내
▁<
▁협
▁봉
▁엄청
▁플레이어
▁묘
▁차이
▁친구
▁이루
▁방법
▁든
▁힘들
▁돈
▁아이템
▁측
▁나타
▁장면
▁출연
이션
▁뉴
▁답
▁갑
▁소리
▁버전
▁거리
▁스토리
▁씨
▁탑
om
▁센
▁꽤
▁향
▁즈
am
▁빌
▁류
▁다니
▁p
▁놀
▁대사
▁h
▁바뀌
▁스럽
▁사랑
▁공식
▁모드
▁혹
▁파이
벤트
▁압
▁프리
▁조금
▁개발
▁송
▁이렇
▁갖
▁대상
▁198
el
▁초반
▁로서
학교
▁책
▁전부
▁버스
▁연구
▁o
▁침
▁이벤트
▁려고
▁남자
▁최고
▁속성
▁제대로
▁볼
▁26
▁궁
▁걸리
▁2014
▁동시
▁쇼
▁기타
▁여성
▁강화
▁유명
▁파괴
▁나이
이도
▁빠지
▁층
▁스테
▁정말
▁n
▁아버지
▁역사
▁28
▁색
▁드래
▁성능
▁자주
▁소환
▁샤
▁찍
▁불리
▁학생
▁27
▁빼
▁최종
▁아직
▁왜
▁운영
▁the
▁우승
▁회복
▁후반
▁석
▁31
▁누구
▁당연
이드
▁출신
라도
▁앨
▁농
▁마이
▁특성
▁그런데
▁라도
▁=
▁인터
▁강력
▁공개
▁확률
부터
▁이때
▁사망
▁유지
▁콘
▁서로
▁끼
▁노래
▁주로
▁엄청나
▁마리
리어
▁착
▁노선
▁끌
▁움
▁발매
▁잔
ol
▁방식
▁슈퍼
▁발생
▁느끼
▁000
▁라인
▁마찬
▁마찬가지
▁이기
▁특수
▁나라
▁시스
▁이러
▁정신
▁영향
▁결정
▁오히
▁대전
▁월드
ion
▁솔
▁오르
▁오히려
▁변경
et
▁장비
아가
▁영웅
▁비교
▁포함
▁기존
▁이제
ac
▁수록
▁나타나
▁먼
▁어떻
▁빨
▁역할
▁일어나
▁드라
▁보통
▁게다가
▁인기
▁르
▁뜻
머니
▁작중
▁32
▁사라지
▁억
▁쓰이
▁맵
▁차량
▁푸
▁짓
▁중요
▁아예
▁마을
▁형태
▁섬
▁어떤
▁바꾸
▁술
▁싱
▁성격
▁세트
▁Y
▁일단
▁좌
▁행동
▁이번
▁어요
▁난이도
▁가깝
il
us
▁대한
프트
▁29
▁과정
우스
▁모양
▁액
▁주장
▁흑
▁v
ig
▁음악
▁시대
▁심지
▁대회
레이드
ow
▁부족
▁뽑
▁최초
민국
ed
▁사회
▁심지어
▁구성
▁끝나
너지
▁2013
▁맞추
▁빛
▁윤
▁스트
▁구하
▁발동
▁새롭
▁숨
▁이렇게
▁풍
▁입장
▁휴
▁폐
▁뜨
▁거기
▁확인
▁유일
▁l
▁바이
▁다이
▁사진
▁먼저
▁획
▁애니메
▁정치
▁x
▁60
▁흔
▁아래
▁항목
▁여담
▁응
▁활약
▁조건
▁어리
▁모델
▁자세
▁원작
▁훈
▁어디
▁콜
▁돌아오
▁35
▁덕분
▁내리
▁득
▁시스템
▁하이
▁들어오
▁대한민국
▁Lv
▁녹
▁완전히
▁감소
▁굉
▁주변
▁따라
▁던지
▁드러
인트
▁프랑
id
▁그래서
▁챔
▁명칭
▁자유
▁독일
ay
▁순간
▁날리
▁애니메이션
▁얼굴
▁전혀
▁특징
▁관리
ad
▁2012
▁경찰
▁잃
▁차지
▁우주
▁자동
▁라며
버스
▁웨
▁적용
▁부대
▁짜
▁01
▁할
▁교육
▁영어
▁굉장
▁가격
나마
▁듀
▁곤
▁정부
▁지키
▁패배
▁무엇
▁더라도
▁뮤
▁고등
▁돌아가
▁of
▁드래곤
▁마스터
▁아군
▁r
▁실패
▁기간
없이
소드
▁휘
▁오브
▁개인
▁그렇게
▁생산
▁앨범
▁얼마
▁죠
ot
▁건물
▁시점
ve
▁그나마
▁하루
▁견
▁지속
▁상승
▁덱
▁혹은
▁밖에
and
▁모으
▁아들
▁넘어
▁이거
▁기능
주의
▁반대
▁국내
▁작가
▁지구
▁획득
디오
▁TV
▁처리
▁패치
▁떠나
레스
▁에피
▁기억
▁턴
▁발견
▁실력
▁물리
▁소개
▁반응
▁틀
▁제국
▁도움
▁퀘
▁정확
▁랭
▁만화
▁y
▁영국
▁익
▁동일
▁참조
20
▁킹
▁홀
▁대학교
▁선발
▁현대
▁쏘
▁랑
▁조차
▁담당
아내
▁맛
▁출시
▁올라가
ch
▁그림
▁맥
▁땅
▁칸
▁에피소드
▁계획
▁기관
▁딸
▁초기
▁쿨
▁량
▁세대
▁한테
▁드라마
▁단계
▁아마
▁밤
▁다며
▁딱
▁움직
▁롭
▁판매
▁범위
▁라서
un
▁또는
▁폴
▁헬
▁버프
소리
▁퇴
▁시청
▁데이
▁37
BS
▁The
▁2010
▁패턴
▁쉬
▁았었
뜨리
▁상위
▁탐
▁회사
▁문화
▁폭발
▁벨
▁등급
▁시기
▁대미지
▁표현
▁밀리
▁g
▁타입
▁요구
▁무시
▁으므로
▁80
▁확실
▁수비
▁500
▁사고
▁라운드
▁굉장히
▁St
▁진짜
▁미치
▁스페
▁어떻게
▁인정
▁이미지
▁45
▁겨
▁경험
▁꾸
▁발사
ER
▁오리
▁린
▁가족
▁소모
▁파워
▁*
▁컴
▁졸
▁주의
▁생활
들이
▁피하
▁묘사
▁으로서
▁낙
▁굴
▁세이
▁려는
▁09
▁특별
▁족
▁심하
▁활용
▁)
▁ㅕ
▁율
▁아주
▁중앙
dd
▁대체
▁디자
▁km
▁연기
▁진출
▁히로
▁방향
▁헌
▁듯이
▁운동
▁트리
▁지니
▁펼
▁197
로스
▁나쁘
▁한정
▁중간
▁엑
▁데뷔
▁꿈
▁02
▁프랑스
▁묻
▁03
▁싸움
▁그룹
인물
▁빈
▁믿
▁숙
▁생명
▁웃
▁약하
▁남기
▁ㄹ지
▁준비
▁포인트
▁엔딩
▁핵
▁유리
▁야구
▁2011
▁스테이지
▁혼자
▁당연히
▁선거
ff
▁안타
▁위험
▁흐
▁등장인물
▁현실
▁옆
▁후보
▁시장
▁논란
▁조합
▁사실상
▁노리
ir
▁아르
▁욕
▁순위
▁무장
통령
▁내려
▁더욱
▁05
▁흡
▁퀘스트
▁어머니
▁미션
▁죄
▁Z
▁분위
▁런
▁표기
▁싫
▁민주
스크
▁크리스
▁괜
▁비판
os
▁챔피
아오
▁얘
▁고등학교
▁단순
▁브라
▁프로그
▁그래도
▁참여
▁70
▁구조
▁90
▁분위기
▁블랙
▁계약
▁학년
▁동료
▁08
▁훨
im
▁꼬
▁약간
▁중심
▁대통령
▁취급
▁투수
▁조선
▁링크
▁07
▁방어력
▁바라
▁직업
▁ㄹ까
▁설치
▁똑
▁콤
▁흥
▁48
▁열리
▁나무
▁보호
▁그거
▁HP
▁훨씬
▁여전히
비스
▁이어지
▁즐
▁결혼
머지
▁염
▁나머지
▁기에
▁구간
리카
▁시도
▁계열
▁돕
▁다양
ter
▁자면
▁위원
▁뛰어나
▁방면
▁전용
이크
▁불구
▁다루
으키
러지
▁주요
▁으면서
▁디자인
티브
▁일정
▁성적
▁축구
▁읽
▁2000
▁mm
▁300
▁보상
니아
▁06
▁터지
▁기대
▁탓
▁목적
▁소녀
▁...
▁연속
▁탱
▁33
▁도망
▁수정
▁배틀
▁갤
▁옵
▁지하
▁고려
ur
▁세력
▁징
▁가져
▁론
▁대화
▁성장
▁삼성
▁쌍
▁률
▁벽
▁부산
▁종류
▁36
▁잘못
▁롤
▁각각
스로
▁아프
▁04
▁올라오
▁캠
▁지방
▁이해
▁팩
다리
▁해결
▁참가
▁e
▁의견
od
▁발표
▁력
▁넘어가
▁털
▁랜
▁일행
▁부상
▁당신
▁포켓
▁세우
▁전설
▁마치
▁th
▁픽
▁변하
▁마저
▁느낌
▁큐
▁전문
ag
▁거대
▁짧
▁예정
▁방영
▁펼치
▁일으키
▁굳
▁벗
▁스피
▁프로그램
▁끊
▁종족
▁힐
▁움직이
▁센터
▁밴
▁you
▁옥
▁운행
▁향하
▁과학
▁소설
▁종료
▁근접
▁죽음
▁부활
▁각성
▁충분
▁녀
지션
▁전하
▁도중
▁FC
▁조사
▁배치
▁렌
ub
▁최근
▁장착
▁빅
▁무리
▁칭
▁국민
▁삭
▁러시아
▁아이돌
▁정상
데이트
▁척
▁업데이트
▁세상
▁안정
▁점수
▁덤
▁스카
▁절대
▁나중
▁가리
▁항공
▁래
▁경제
▁cm
▁SK
▁제공
▁이루어지
▁유니
▁스스로
▁엔진
▁제목
▁지도
igh
▁달성
▁자연
▁오래
▁이라
▁충격
▁번호
▁붙이
▁어찌
▁챔피언
▁켄
▁벌어지
▁곧
▁만드
▁미사
▁추정
▁배경
▁작전
ver
▁번역
▁목소리
▁비행
▁셈
▁목록
자기
▁사이트
▁똑같
스타
▁조직
▁가끔
▁정체
▁포켓몬
▁요소
너스
ak
▁규모
▁레어
▁미래
▁34
▁스파
▁남성
▁전작
▁196
▁출전
▁품
▁훈련
▁벌이
▁십
어들
▁전차
▁악마
▁빙
▁전사
▁파티
▁공중
▁타격
▁스타일
▁타카
▁로부터
▁다리
▁돌리
▁클리어
▁만약
▁위기
ent
▁괜찮
▁분노
▁사냥
▁변화
▁에너지
▁혈
▁홈런
다니
▁생존
▁동물
▁나누
▁그만
▁신경
▁클래
▁얘기
▁ㄹ로
▁자랑
▁득점
▁애초
▁더불
▁뒷
BC
▁션
▁저지
▁요리
▁수상
▁75
▁단점
▁연결
▁아라
▁필드
▁크리
um
▁장갑
▁건담
▁로봇
▁국제
▁포지션
ut
▁소재
러스
디어
수록
▁냉
▁특정
▁vs
▁반면
▁기동
▁연합
▁으려
▁38
ec
▁시험
▁한편
▁판정
▁비용
▁전기
▁장소
▁싱글
▁사항
▁맹
▁넘기
▁공연
▁롯
▁니까
▁항상
▁멸
▁화력
▁목표
▁예상
▁정작
▁무대
▁연출
▁기체
▁가르
▁최소
▁늘어나
▁55
▁사거리
▁시설
▁사업
리오
▁관심
▁꽃
▁유럽
▁인터뷰
▁던전
▁in
▁교체
▁2009
▁내부
▁하늘
트리
▁비밀
▁지휘
▁제일
▁철도
▁야마
▁인사
▁Q
▁사격
▁별로
▁카이
▁찌
▁엘리
ST
▁찬
▁다크
ro
▁변신
▁바르
▁록
▁수치
▁나름
▁to
▁넓
▁기계
▁정식
▁놈
▁수도
▁작곡
▁스포
▁시전
▁결승
▁카운
▁교통
▁옷
▁파일
▁벤
▁오버
▁비롯
▁쌓
동안
▁각종
▁따로
▁케이
▁부여
▁마나
▁확정
▁레인
▁오늘
▁코스
▁졸업
▁황제
▁쥬
▁지상
▁일러
▁언제
나라
▁이탈
▁특이
▁지지
▁치명
▁진화
▁전반
▁북한
▁깔
▁이쪽
▁따라서
▁병력
▁갑자기
▁도로
▁거두
▁제한
보이
▁드러나
▁드리
▁라이브
▁기업
▁발전
▁냐고
▁_
▁살리
▁시티
▁튀
▁때리
▁건설
▁왼
▁아키
▁쯤
▁압도
▁이외
▁누르
▁어쩌
▁의외
▁이르
▁사정
em
▁EX
▁꺼
▁가사
말로
▁무슨
▁일러스트
▁외국
▁역대
▁나이트
▁2008
▁더니
▁이끌
▁삭제
▁아파
▁탈출
▁주문
▁베이
▁직전
▁감정
▁저항
▁티어
ight
▁띄
▁임무
▁고양
▁이닝
▁느리
▁납
▁위력
어로
▁골드
▁보유
▁프레
▁자원
라인
AN
▁거치
▁텐
▁아카
▁정하
▁마시
▁로드
▁세기
▁집중
▁서비스
▁표시
▁노트
▁점프
AR
▁깊
▁사례
▁어둠
▁마르
▁잉
▁전국
▁분류
▁인구
▁',
▁효율
▁페이
▁뇌
▁랭크
▁작업
▁상관
▁명령
젝트
▁완전
▁인식
▁히어로
▁아스
▁기회
▁공간
▁루트
▁연습
▁회피
▁이어
▁파트
▁관하
▁도전
▁오른
▁가수
▁물건
▁극장
ap
▁잇
▁기다리
▁태어나
▁경쟁
▁화면
▁장점
▁42
ON
▁지내
▁잠시
▁41
▁높이
▁별명
▁버티
▁옛
▁폰
▁키우
▁컵
▁녀석
▁컬
▁부모
▁사기
▁촬
▁군사
▁레드
▁개념
그레이드
▁업그레이드
▁행정
▁단어
▁인천
▁몽
▁추천
무리
▁근처
▁병원
▁No
▁오프
▁빌리
▁발언
▁려면
▁전력
▁39
▁멘
▁살인
▁은데
▁펜
▁Ch
▁무려
▁꾼
▁불가
▁의식
▁포기
▁전개
▁신체
학생
▁194
▁정리
▁미니
▁아파트
마자
▁크기
▁숨기
▁겸
▁판단
▁주제
▁촬영
▁>
▁킬
▁강제
▁본래
▁노력
▁밑
▁나서
▁히트
▁kg
▁고정
▁잡히
ul
페이지
▁붕
▁타임
▁낫
▁부정
▁44
▁라이트
아들이
▁ㅓㅆ
▁공주
▁st
▁셋
▁스코
▁버그
▁이하
▁평균
▁ㅏㅆ
▁데스
▁뿌
▁독립
▁빨리
ce
▁선생
▁최강
▁홈페이지
000
▁제거
▁학원
▁왕국
▁병사
라스
▁갖추
▁구매
▁끝내
▁분명
▁폭탄
▁2020
▁살아
▁조종
▁제품
▁;
▁꼭
▁LG
▁99
▁롯데
▁부탁
▁칠
▁속하
▁위키
▁군대
▁마법사
▁동생
▁닌
▁중반
▁가드
▁닥
▁여행
▁리더
▁쫓
요일
▁고속
▁윈
▁예전
▁앞서
믹스
▁단체
▁웹
▁행위
▁붉
▁떡
▁짐
▁옵션
▁음식
ik
▁겪
▁완벽
▁전자
▁현상
▁2007
▁수행
▁가문
▁대구
▁195
▁모이
▁43
▁탈락
▁원인
▁요시
all
▁구분
▁바다
▁그야
▁새로
▁완성
드시
IN
야마
이치
▁대기
▁에게서
▁반드시
모토
▁의원
▁통합
▁개그
▁쓸
란드
▁전략
▁MA
▁주민
▁차원
▁직후
드리
▁하드
▁재료
▁복귀
▁으로써
▁템
▁크로
▁마사
▁단지
▁환경
▁광역
▁흘
▁그야말로
▁기반
튜브
▁늦
타임
▁아쉽
▁걱
러리
▁마무리
▁치료
▁연재
▁한글
nd
트라
▁46
▁밸
▁인도
▁걱정
▁서버
▁해군
이어
▁정규
▁47
▁덜
▁지정
▁연장
▁다행
▁대장
▁다수
▁해외
▁2006
▁멜
▁보병
▁평범
▁밥
▁타이틀
▁심각
▁줄이
▁보너스
아하
▁월드컵
▁워낙
▁옮
▁우선
▁공포
▁책임
▁조작
▁입히
조건
▁포스
▁미사일
▁유사
▁뻔
▁도착
▁추측
▁아무리
▁실험
▁재미
르트
th
▁51
▁점점
▁샷
▁상세
▁캡
▁코스트
▁가면
▁자마자
루스
▁필살
▁굳이
▁다소
▁받아들이
▁택
▁디스
▁폼
▁타자
▁성향
▁접근
▁좋아하
▁즐기
▁중학교
▁실점
▁한계
▁무조건
▁닉
▁교수
op
▁의사
▁대결
▁영혼
▁냐는
▁채우
▁톤
▁SP
▁부하
▁무한
▁잭
▁국회
▁모자
st
▁사무
▁고르
▁비중
운데
▁멋
▁복수
▁암살
▁댄
▁보조
▁앙
▁함정
▁정확히
▁지배
▁아내
▁정의
▁평소
▁엠
ation
tt
▁장르
▁광고
▁인터넷
▁옮기
ra
시마
▁혁
▁마력
▁투표
▁범죄
▁숲
▁1000
▁와중
▁봉인
▁고자
ia
ack
무라
아지
▁확장
▁알아
▁채널
▁운용
▁사령
▁도쿄
나이
▁공략
▁이곳
▁합류
▁전화
▁소련
▁장치
▁몇몇
▁가치
▁기념
▁빵
버리
▁검사
▁금지
▁이적
▁종종
▁초등
▁다운
▁시청자
▁아웃
▁150
▁소유
▁and
▁에이
▁이라고
▁도입
▁65
▁오리지
▁가운데
로그
▁충분히
▁특유
▁네이
▁정당
▁플래
시브
▁유튜브
▁을지
▁보컬
▁실수
▁미드
▁뚫
▁코드
▁사쿠
▁브레이
▁클럽
▁줄어들
▁근데
▁VS
▁잊
▁화염
▁소년
oc
▁프로젝트
▁본격
▁시민
▁취하
▁뉴스
▁투입
▁개조
▁기지
▁고대
▁저격
▁시나
▁도망치
▁무사
▁전원
▁종교
▁는가
▁괴물
▁형제
ie
▁수많
▁얼마나
▁고양이
▁로스
▁스포츠
ill
▁행사
▁희생
▁인상
▁로마
비아
▁릴
▁요청
▁%,
▁이탈리아
려가
▁앤
▁셀
로드
▁흉
▁대중
라이더
▁상징
▁원정
▁카메
▁KBS
▁사태
▁52
▁발음
▁II
▁밴드
▁2005
▁종합
일러
▁터미
▁쥐
art
▁끄
▁구역
▁넥
▁숫
▁클래스
▁64
▁대형
▁군단
▁올림
▁외모
텐츠
▁대비
려오
▁스크
▁따지
▁위협
▁방패
▁랍
▁조정
▁이사
▁패러
▁서브
▁최후
니티
▁인원
▁뿌리
▁그저
▁불명
▁서술
니까
▁생물
▁일본어
▁형식
▁컨셉
▁자료
▁관통
▁약점
▁장난
▁광주
오르
▁섞
▁몹
런스
▁정책
▁행성
▁2004
▁통신
▁달러
ri
▁드러내
▁눈물
▁비고
▁상자
▁전술
▁액션
▁앉
▁49
▁모험
▁You
▁ㄴ지라
ab
시스
▁바닥
RA
▁거부
▁부수
uby
▁빼앗
▁AP
▁오리지널
▁락
▁젊
▁미리
▁박사
▁트랙
▁들리
▁의도
▁간단
▁56
▁어라
▁인형
▁ST
▁쿨타임
▁반복
▁놀라
로우
▁벗어나
래프트
est
▁회장
▁리어
▁400
▁명중
▁매일
▁등록
▁영입
▁이치
▁챙
▁개월
▁구단
▁MBC
▁대응
▁공동
▁의지
▁마크
▁해석
▁는다는
▁dd
▁지적
▁ruby
▁언론
▁열차
▁In
▁그때
▁웬
▁값
▁오토
▁먹이
▁지명
▁개봉
▁주력
AL
▁원거리
▁코어
▁오랜
▁찾아오
▁목숨
스케
▁가하
▁85
▁한국어
▁언어
▁선언
▁혐
▁소식
▁윌
▁설계
▁데이터
▁차례
▁더블
▁흡수
▁사상
자리
▁자동차
▁탯
▁53
▁풀리
▁지나가
▁54
▁사과
▁카즈
▁승부
▁역전
▁방해
▁텔
▁거짓
▁편하
리트
▁193
▁혜
▁디지
▁카페
▁2002
퓨터
▁쓰러지
▁저지르
▁여름
▁살아남
▁모티브
▁대단
▁연계
▁엄마
▁망하
▁느냐
▁필살기
▁숫자
▁닮
▁핑
▁긴
▁조각
▁합치
▁ㅏ서
▁미스
▁저주
▁기자
▁소울
오스
▁떼
▁유우
▁겹
▁원하
▁진입
▁체육
▁불과
올리
▁황금
▁랄
▁PC
▁완료
▁상대방
▁수리
▁쿄
▁텍
▁쳐
▁수호
▁맺
▁장기
▁아요
▁가정
▁산업
▁dddd
▁Sh
▁dddddd
▁적절
▁착용
▁덩
▁무섭
▁공화
▁생성
▁컴퓨터
▁해제
나가
ttp
▁단순히
어내
동생
▁질문
▁http
▁꼴
▁가져오
▁테마
▁드라이
▁필수
▁터미널
니스
▁실시
▁멈
▁ff
▁에이스
▁딱히
▁컷
▁카운터
▁독자
▁편성
▁들이
▁선정
▁행적
▁표정
▁비트
▁유도
▁의심
▁확실히
▁드립
▁감안
▁기어
▁특기
▁습격
up
▁무력
▁연주
▁훌
▁전환
▁선물
▁날개
▁꾸준
▁뮤직
▁기점
▁페르
▁패시브
▁안전
▁당장
▁왼쪽
▁집단
▁인류
▁걷
▁소비
▁아름
▁솔로
▁퓨
▁함대
▁개선
▁셰
▁제도
▁횟
▁박스
▁59
▁i
▁MP
▁위원회
▁경력
▁가스
▁데리
▁회전
▁확보
VE
▁잠깐
▁날아가
▁구축
▁로써
▁코치
▁행복
▁돌파
▁스킨
▁사장
▁친하
▁마츠
▁지옥
▁희망
▁부리
▁설립
▁테크
▁챙기
▁으로부터
▁올림픽
▁Re
▁비싸
▁스마
▁블루
▁Sp
▁시나리오
▁전통
▁장군
▁일종
레이션
▁을까
▁58
▁제압
▁가슴
▁시내
▁진정
▁통과
▁횟수
▁듀얼
▁라디오
▁공항
▁하위
▁상처
▁적극
▁멈추
▁120
▁멀티
▁꺼내
▁공사
▁안드
▁수사
모리
▁체제
AT
▁촉
▁초대
▁문명
▁지나치
▁딜러
▁패스
▁마침
OR
▁57
▁그라
▁편집
ang
▁해금
▁비디오
▁버튼
▁re
ate
▁펀
▁방문
▁대답
▁인지
▁위주
▁롱
▁의문
▁수원
연히
▁95
▁처치
▁66
▁케이스
▁묶
▁리스
트롤
▁댓
울리
▁선보이
▁현장
▁귀엽
▁엉
▁동맹
▁료
▁2003
▁태도
▁눈치
▁고통
▁작성
▁진영
▁콩
▁투자
▁코너
▁대놓
▁뱀
▁전장
▁갱
▁태양
▁분리
▁장전
▁유키
ard
▁크로스
▁계기
▁노동
▁예선
▁비난
IA
▁스페인
▁한자
▁핸
▁마왕
▁최악
▁랩
▁육군
▁삼국
▁흐르
▁제안
▁고유
▁공부
▁에스
PS
▁스위
▁가까
▁후속
▁아름답
▁스펙
▁게시
▁고서
▁깎
▁레이저
▁Bl
▁겨우
▁BG
ess
▁시체
▁좁
ant
▁배신
▁회의
▁제로
▁평화
▁110
▁개최
▁be
▁성인
▁오른쪽
▁꼽
▁가져가
▁아머
르크
▁나카
▁조준
▁게이지
▁룰
▁여부
▁내려가
▁용병
▁기획
▁컨트롤
▁궤
▁견제
▁궁극
▁ㄹ수록
▁젤
▁멀리
▁극장판
▁탑재
▁매치
IC
▁타이밍
▁점령
▁SS
▁ㅓ서
▁달라지
▁on
▁청소
▁보급
▁춤
ell
▁카메라
▁가볍
▁봄
▁or
▁어울리
머리
▁베이스
▁애매
▁자라
▁62
▁진실
▁373
ct
라리
▁충전
▁최대한
▁관광
▁쓰러
ue
▁체인
마스
ine
▁직원
▁순서
아리
▁스피드
▁남편
▁댄스
▁정령
▁에어
▁보도
▁게이
▁은퇴
▁온라인
▁기분
▁그레이
▁수단
래도
의원
▁한화
▁모션
▁NP
▁민주당
▁후반부
▁잖
▁레전
▁오스
▁늘리
▁하트
▁틈
▁아무래도
▁튜
▁Al
▁트레
▁멸망
▁세계관
▁격투
▁교회
▁밸런스
▁허용
무원
▁스코어
▁76
▁얼음
ist
▁트위
▁알렉
▁보수
▁약속
▁여왕
▁파이터
▁스탠
▁치르
ove
▁갤러리
▁우수
▁Th
ore
▁갓
▁후지
▁대원
▁스프
▁오오
▁빔
다르
▁부담
▁토스
▁유용
워하
▁등등
▁울트라
▁77
▁로켓
▁헤드
▁융
▁61
▁돌격
▁무게
▁....
▁고급
oo
▁생일
▁지식
▁막히
▁판타
▁기절
▁규정
▁미나
▁갈리
▁{
▁삶
▁샌
▁본선
▁커뮤
▁아프리카
▁뱅
▁차별
▁렉
▁병기
▁가면라이더
피스
▁72
▁88
붙이
▁중단
▁끼리
▁그리스
▁랜덤
▁젠
▁분야
▁장애
▁측면
▁는다고
▁스케
▁트레이
▁자이
▁퍼지
▁com
심히
▁지점
로이드
▁겹치
▁셔
▁2001
두르
▁패러디
▁마녀
▁자고
▁경기도
▁입수
▁따위
▁주목
▁언니
▁발휘
바이
▁넷
▁닥터
▁}
▁자살
▁회수
▁도서
▁ffff
▁포르
▁드물
▁외부
ive
▁웨이
▁제시
▁인생
▁공통
▁피해자
▁유래
OS
▁삽
▁미야
▁경계
▁자르
ort
▁도구
▁취소
▁살해
▁교환
▁내주
▁군주
ong
▁아사
▁커버
▁국적
▁공원
▁ffffff
▁SBS
▁오프닝
▁릭
워드
▁개편
▁트위터
▁외치
▁승강
달리
AM
▁스페셜
▁민족
ers
▁장수
▁서포
▁윙
▁아침
▁페이스
오리
▁킥
크래프트
▁어차
▁공장
▁부진
▁핵심
▁어차피
▁재판
▁계산
▁PS
▁대놓고
AS
▁붕괴
▁사단
▁제기
▁끌어
▁98
▁브랜드
▁구입
▁바탕
▁단독
▁이성
▁교사
유키
▁출생
▁용도
▁온갖
터리
니어
▁메탈
▁겨울
스티
▁당선
▁낳
다수
▁소수
▁갑옷
▁어린
▁몰리
▁영역
▁찌르
▁탄생
▁191
▁상하
▁펠
ED
▁살짝
▁오후
▁건너
▁아시아
▁함선
▁ㅓ야
▁거절
어리
▁출발
▁은근
ip
▁주연
▁꾸준히
▁카나
▁요원
▁분석
▁작사
▁페이지
피아
▁납치
▁은행
▁스파이
▁CD
▁화살
즈키
▁선배
ain
▁귀족
▁순수
▁타워
▁재생
▁600
▁습득
▁하수
▁자식
▁엑스
if
하라
▁대공
▁파악
▁증거
▁섭
▁홍보
▁예술
▁자격
▁업무
▁이스
▁가르치
▁쏟
리티
▁우려
가락
ee
▁협력
▁유형
▁|
▁1990
▁보정
디션
▁무너지
▁고민
▁군인
티컬
▁훌륭
EN
▁당황
▁사카
▁레전드
▁베르
▁테러
▁경유
▁신화
▁폭풍
▁MV
거나
▁밟
▁적당
▁미소
▁지우
▁댓글
▁열심히
▁흔히
아나
▁플라
▁영원
▁응원
▁카르
▁내내
▁쓰레
▁마인
▁프라
▁63
▁가로
▁보물
▁불안
▁퀄
▁뒤집
▁맡기
▁괴롭
▁주도
▁모리
▁틱
▁종점
▁비록
▁탑승
▁소드
▁없애
▁왕자
▁러브
세이
▁챠
▁출처
▁장관
▁채용
▁거래
▁68
▁부인
▁만족
▁무적
▁정말로
▁누리
▁흘리
▁아리
▁네이버
▁스트라이
▁혼란
들리
▁컨텐츠
▁감사
▁본명
▁문제점
▁나뉘
▁대다수
▁운전
ith
ly
▁실질
▁늑
▁운명
▁71
▁옹
▁800
▁계급
▁반격
▁커뮤니티
▁중계
▁정류
▁균
레인
ld
▁내놓
▁라이벌
▁찾아가
▁미군
▁트라
ind
▁지급
▁초월
▁김성
▁오해
▁짝
▁연도
▁오류
▁74
▁수입
▁전함
▁푸르
▁AC
▁두산
▁돌진
OL
▁치명타
▁전공
▁연예
아먹
▁가까이
▁랜드
▁라스
▁파이어
▁파라
▁메타
▁67
▁공군
▁덴
▁카라
▁체계
다지
이터
▁기기
▁아트
▁낚
▁아나
▁통일
▁반영
▁소문
▁설득
▁충돌
▁여신
▁찰
ew
▁거주
▁즉시
▁코믹스
▁73
▁단위
▁불꽃
▁문자
▁화장
ry
▁TH
▁캔
▁안습
▁그림자
▁아오
▁NC
▁메가
▁홍콩
▁말리
▁학과
시오
▁96
▁편의
▁전투력
▁닿
▁주년
▁AT
바로
ast
▁레오
▁크리티컬
IT
▁짜리
▁크루
▁걸치
카와
▁지시
▁시야
▁비율
▁슬롯
▁다행히
▁내려오
츠키
▁제하
▁국회의원
▁해방
▁둘러
LC
▁상향
▁떡밥
▁생명력
▁피아
▁me
▁널
▁신뢰
▁정지
EC
▁제조
▁격파
▁공화국
▁일부러
▁그다지
▁써
▁81
▁소프트
▁CP
▁토모
▁암흑
▁파이널
▁깃
▁심장
▁관객
▁닌자
▁오로
▁신고
▁판타지
▁무난
▁수업
▁사전
▁곰
FA
▁늑대
▁등판
▁동네
▁쓰러뜨리
▁유비
▁맘
▁그만큼
사카
▁가입
▁지켜
▁가득
▁연사
▁별개
나다
▁1999
▁엘프
▁192
▁사운드
▁붙잡
▁NPC
▁마술
▁덮
▁j
▁마주
▁78
▁본부
▁창작
▁고기
▁집안
▁84
▁압박
▁91
식간
▁막장
▁재능
▁근무
end
▁건강
▁짱
▁실드
▁순식간
▁아티
▁반란
▁지하철
▁리버
▁제주
고기
▁업체
▁든지
▁장식
▁룡
▁추적
▁드디어
▁an
▁화이트
▁저런
▁지형
▁팝
▁묵
▁뛰어
▁1998
▁신세
▁전적
▁수학
▁불만
▁지켜보
▁경험치
▁입학
▁경향
▁상품
▁천사
▁브리
▁증명
▁처하
▁쿼
▁게이트
세우
▁기원
▁사쿠라
▁ㅕ서
▁대만
▁An
▁형성
▁예고
▁낭
▁테이
▁스티
▁아가
▁전방
▁쌓이
▁신청
▁블레이드
▁노멀
▁가이
▁오픈
▁여동생
▁it
▁겟
▁매력
▁콜라
▁97
▁절반
▁사령관
▁쓰레기
▁쿠키
▁적히
▁정권
▁감염
▁팅
▁클로
▁섹
광역
▁지르
▁마도
▁의상
▁주먹
▁여론
아버지
▁나루
▁마이크
▁다시피
▁Ar
▁외국인
▁이마
▁유희
▁룬
▁타점
▁라이더
▁령
▁단일
▁82
▁강조
▁69
▁오빠
돼지
▁키스
▁회차
▁이승
▁사토
▁어택
▁선호
▁이론
▁연상
▁메카
▁복장
▁He
▁엔터
▁별도
▁코인
▁소멸
▁근거
▁!!
▁전선
지컬
▁250
트로
광역시
▁주전
▁바보
▁실행
▁고치
▁스톤
돌리
▁썰
▁잖아
▁작용
▁MAX
▁최상
▁공작
▁공기
▁180
▁대륙
▁한때
▁디아
▁부품
▁평타
▁아메
▁86
▁SN
타로
▁반지
▁화려
▁요정
▁for
▁핀
▁스토
▁190
▁출현
▁is
▁간격
▁호환
▁흔하
▁아무것
▁따오
▁헌터
파이어
▁해설
▁전형
모로
어버리
▁니시
▁찾아
▁총기
▁뉴욕
▁출장
▁퀸
▁권력
▁요새
▁박살
▁토리
둥이
▁울산
▁사자
▁탱크
▁굽
▁추격
▁이랑
▁몰래
▁무효
▁BGM
▁바라보
▁경상
▁마스
▁조용
더스
▁주위
▁키리
▁스카이
▁시드
서트
▁돌아다니
▁프레임
▁연애
▁구도
▁탁
ath
▁여러모로
▁명예
레나
▁권총
RE
av
▁동기
▁폭격
▁주어지
▁이슬
▁경비
▁Te
▁범인
50
▁1997
▁De
▁추락
▁테스트
▁신규
▁경영
▁우스
▁자는
▁모바
▁대우
▁심리
타인
▁지대
▁블록
▁후쿠
듀서
▁프로듀서
▁심판
▁하수인
▁폭주
▁아무런
▁영업
▁소총
▁MS
웨이
▁공유
▁께
▁수요
▁놓치
▁일상
▁클라
히로
▁탄약
▁아크
▁갈등
se
어스
▁전대
▁계승
▁제이
▁외교
드라
▁변호
▁그래픽
▁메이저
▁거짓말
▁마리오
▁환상
▁고교
one
▁브라질
▁고전
▁북미
▁사양
▁학살
▁요괴
▁통제
▁렙
▁상점
▁보석
남도
사키
▁Be
▁언제나
겨나
▁입력
▁변형
▁시각
▁마련
▁이득
▁터치
og
▁83
▁공학
▁띄우
▁제법
▁폭력
▁탱커
▁혁명
▁빗
▁블러
▁통상
▁훔
▁맞서
▁불편
▁KT
▁유령
▁커맨
퍼스
▁미츠
▁리스트
▁제작진
▁옛날
▁믹
스트라
▁작동
▁89
▁용사
▁92
가와
▁그곳
▁전투기
▁예외
▁조치
▁승강장
▁동원
ust
▁진지
▁94
▁타케
▁미디어
▁메인
▁휘두르
▁스마트
▁구현
▁수집
▁프로필
▁연대
▁민간
▁파일럿
도우
▁조심
▁고생
▁둥
▁일자
ide
▁한국인
▁현지
▁79
▁머신
▁포탑
▁검색
▁이리
▁챕
▁네임
노스
▁워치
▁쿠로
려움
▁앵
▁Le
▁사이즈
▁모바일
▁신인
▁하고
▁경기장
▁조조
▁만든
▁Se
일드
나무
▁메시
▁쇠
▁조절
▁신장
보내
ity
PG
▁",
▁콘서트
▁93
▁꺾
▁US
▁동영
▁부위
▁쟈
▁멋지
▁챕터
▁되찾
▁표준
▁레인저
▁요즘
▁감시
▁음반
▁다이아
▁입구
OT
▁보장
▁교전
▁정류장
▁긍
▁동방
▁수송
▁시행
▁물러
▁카미
▁레스
▁편지
저히
▁겐
▁87
▁공산
▁마루
일리
▁스톰
▁101
▁도발
▁1996
어도
▁배차
▁동영상
▁리얼
▁덧
▁프린
북도
▁패널
▁차단
▁DJ
▁길드
▁용어
▁맞이
▁기습
▁AI
▁상상
▁MC
AC
▁자이언
▁음성
▁프리미
▁볼넷
▁1995
▁폐지
▁한방
▁겁
▁구출
▁호평
▁연락
▁앱
▁텔레
▁다면서
▁어지
▁연방
▁김정
▁루타
▁특화
▁이재
▁똑같이
▁슛
▁라이프
▁On
▁그치
ere
▁나타내
▁으니까
▁어깨
▁태우
▁마냥
▁쟁
▁세월
▁추진
▁계정
▁흥행
▁볼트
▁강철
▁도달
age
▁사이드
▁훔치
▁도서관
▁이날
▁연관
▁슈트
▁잠수
▁무료
펙트
▁익숙
▁간부
▁결승전
▁핸드
▁.....
▁농구
▁리아
▁매니
▁신문
▁지휘관
▁레이드
▁번개
▁헤이
▁향상
▁가시
▁극단
▁웬만
▁삼진
▁전달
오프
▁신분
자키
▁노예
▁주소
▁전직
▁리메
메달
▁@
▁겉
▁이란
▁루시
▁양산
▁도망가
▁출력
▁고향
▁신기
▁냐며
▁빌드
▁묘지
레이터
▁수술
▁켜
▁사마
▁가상
▁조지
▁환자
▁켈
▁캐리
▁넘치
▁노출
▁신성
▁빛나
▁마구
▁레이스
▁박근
▁가속
▁스튜
▁아우
▁px
▁장교
▁부문
▁복잡
▁환승
▁제자
▁소닉
▁임명
▁전역
▁갤럭
▁동작
▁헨
▁글자
▁베트
▁팀원
조리
▁입단
▁멕
▁세이브
▁진심
▁적어도
▁봇
qu
▁커플
▁DLC
▁내구
▁쾌
▁캐스
▁대체로
▁'.
▁AK
▁반하
ood
▁성별
▁내성
▁절망
▁해체
▁타마
창기
▁명중률
▁기병
▁가게
▁아시
▁임시
BO
▁THE
▁샘
▁브레이크
▁페이즈
▁핫
▁망치
▁막차
▁종이
▁차리
▁MVP
▁발매되
▁알파
▁구속
▁전시
▁착각
▁틀리
▁갤럭시
▁육성
▁었었
▁아빠
▁근육
▁여유
▁플레
▁연구소
▁너무나
▁득표
란색
▁수영
IS
▁차라리
▁중화
PM
▁뼈
▁이즈
오카
▁CC
▁멍
▁대량
▁융합
▁개통
▁공지
▁인수
▁자매
▁고백
▁리메이크
▁빡
▁분기
▁창조
▁$
▁강원
▁경고
are
▁카오스
▁1994
▁물질
▁인증
전자
▁엮
▁람
▁Wh
▁그럼
▁럭
끄럽
▁배트
▁하필
▁협회
▁묻히
▁초창기
▁날짜
▁규칙
▁대대
▁지능
▁리치
▁아끼
▁파리
▁인연
▁이자
▁소화
▁참전
▁시즈
▁글로
▁실버
▁1980
▁게스트
▁ㅕㅆ
▁남부
▁의뢰
▁구체
▁톱
브리
▁점차
▁먹히
OM
▁이시
▁뭉
▁분량
▁카타
▁제어
▁끼치
▁가량
▁성과
▁700
▁악역
크스
▁태그
▁청년
▁의혹
▁Tr
▁고용
▁투구
▁대립
▁누적
▁식사
▁둔
▁어둡
▁미카
▁객
▁회원
▁테일
▁합격
▁이내
▁돼지
▁정복
▁찾아보
▁흠
▁김영
티나
▁그대
▁메모리
ock
▁반발
▁''
▁중대
▁호감
▁여지
먼트
▁웅
▁합체
▁녹음
▁그동안
▁귀신
▁떠올리
▁왠
▁뚜
▁이명
▁의료
OW
▁위장
구리
▁꼬리
ake
ect
▁파트너
▁감옥
▁춘
▁협박
▁결론
▁FI
▁피격
▁써먹
▁웹툰
our
▁오가
▁는다면
▁뷰
보드
▁후속작
도로
▁출판
▁한번
▁차트
▁체포
▁라면서
ire
ass
▁잦
▁삼국지
▁몰아
▁외계
▁모모
▁게시판
oy
ark
▁유로
▁합성
지마
▁떠오르
▁스턴
▁베스트
▁츄
▁서부
▁히데
▁강의
▁기초
▁곧바로
▁아기
▁와이
▁썩
ob
ite
▁he
▁부서
▁깨지
▁에다
▁예쁘
▁축제
▁정면
▁마키
▁랭킹
▁카스
▁림
▁괴롭히
▁예비
웨어
▁블리
▁문장
▁편곡
▁어쨌
▁구멍
▁사제
▁햄
▁퀄리티
▁본작
▁동화
▁비아
주시
▁안드로이드
▁공급
▁불러
▁토르
▁토론
▁SR
▁개방
▁깜
▁대가
▁수련
▁단장
▁FA
▁kt
▁렛
FC
▁횡
▁소형
▁다섯
▁마리아
▁매체
▁전면
▁부부
▁룸
▁대폭
▁저그
ES
▁Cl
▁유행
▁소원
▁트로
▁인공
▁은하
▁AR
▁플랫
▁고문
▁곁
▁립
성기
▁예능
디아
▁슈팅
▁초간
▁활성
▁문학
UN
▁투어
▁캐나다
ah
라이언
▁해병
릭스
▁구나
▁클리
▁과목
▁파견
▁뜬
▁일시
▁달하
▁내장
▁매직
▁대략
▁wh
▁왕조
▁으려고
▁뺏
▁세이버
▁GT
▁신호
▁외형
▁아일
▁시위
▁연타
▁커맨드
▁넉
▁김태
ound
iz
▁관중
▁스틸
▁적군
▁간혹
▁손가락
▁마이클
▁포스트
▁목격
▁일원
▁더라
▁긍정
▁팬덤
▁야스
▁컬러
▁커지
▁피부
▁플레이오프
▁정글
▁에드
▁희귀
▁식물
ime
▁박근혜
▁구원
던가
▁반사
▁의무
▁데모
▁소지
▁SD
▁블로그
▁프라이
▁움직임
▁펀치
▁코우
▁김민
▁들어서
▁최소한
▁PD
어나오
▁바위
▁은근히
▁수수
▁Gr
▁육체
▁상성
▁다가오
▁타이거
우드
▁연인
▁준수
LL
▁KIA
▁나아가
▁신라
스턴
▁이지
▁크라
▁널리
iv
▁SC
▁my
잡이
▁Me
▁피스
▁대처
▁주말
▁굴리
▁수용
▁ㅓ도
▁멘탈
▁는지라
▁섀
▁오카
▁섞이
▁인근
▁파크
▁대충
ID
▁아니면
▁킨
페인
▁불법
버트
▁메뉴
▁특집
▁116
밀리
▁일격
▁곡명
▁개체
▁전철
▁예측
▁까다
▁홀로
큐어
▁스미
▁실리
▁쉐
▁자치
▁각자
▁털리
▁떨어
▁박정
▁동부
▁환영
▁영토
▁조성
▁적대
▁헤비
▁My
MA
▁냄
▁뜯
시코
▁로즈
▁다스
▁멀쩡
▁대지
▁누나
▁놀랍
OP
▁영문
▁기사단
▁그로
▁건축
▁딩
디언
▁보안
▁커스
▁따라가
▁130
▁더더
▁ㄴ다며
▁국군
▁으러
▁원본
▁서양
▁형사
▁오랫
▁왈
▁바리
▁침공
구치
미야
▁소중
▁냥
▁주포
▁계단
▁접속
▁{{
▁좌우
▁강남
▁바치
▁Pr
▁더더욱
▁아바
▁안내
▁탄창
▁튀어나오
▁훗
▁어린이
▁결말
▁사우
▁갇
▁어른
▁호주
▁첨
▁플로
▁기독
ge
▁유이
▁면역
▁{{{
▁정찰
▁지도자
▁액티브
▁이래
▁골든
▁시내버스
▁험
가미
데스
▁깡
▁호텔
▁까다롭
▁펫
▁죄다
▁허나
▁회상
▁처벌
▁대항
▁알아보
▁갇히
▁후기
▁BE
▁시선
▁혀
▁거인
▁현역
▁음원
▁작화
▁학부
▁치우
ax
▁딘
▁괴수
▁퀴
▁상당수
▁씌
▁미안
▁히메
▁식당
▁절대로
▁닫
▁포트
▁에서부터
▁DF
▁취미
▁메르
▁하야
▁아이스
ome
▁해적
▁버스터
▁과연
▁캐스팅
▁재미있
ance
▁일기
▁고스트
덜란드
▁네덜란드
▁깨닫
▁요코
▁MF
▁어떠
▁전문가
▁도우
▁라인업
▁주간
▁프리큐어
▁새벽
▁저녁
▁전진
▁과제
▁삐
uc
▁리듬
▁아티스트
▁느라
▁로그
ick
▁모자라
▁꽂
▁천재
▁시계
▁스키
▁유치
려주
▁비행기
스탄
▁첫차
▁한동안
▁Pl
▁열쇠
▁오스트
▁ch
▁기적
닉스
▁총선
▁하얗
▁HD
▁고지
▁WW
▁방지
▁검찰
▁승격
▁니코
▁트레이드
▁한참
▁자금
▁촌
▁드레
▁고수
▁SM
ix
▁파츠
▁리드
요시
mer
▁트윈
▁마비
▁주사
▁용기
▁경기력
▁트럭
▁방사
ord
▁익히
▁우위
▁별다르
▁안경
▁이슬람
▁챌
▁스타크래프트
▁어지간
▁160
▁짤
▁저장
▁양쪽
아웃
▁휴대
▁코코
▁허리
▁캠페인
▁디지털
▁개성
가시
ure
▁GB
▁신비
▁한마
▁램
▁대리
▁농담
▁청소년
프레
▁캠퍼스
▁할아버지
▁보고
▁토끼
▁상급
▁꼽히
이즈
▁캡틴
▁크리스마스
▁국어
특별
고리
덩이
▁동굴
▁OST
▁보라
▁갈수록
10
▁빚
▁물러나
▁무덤
▁유희왕
▁영향력
▁문재
▁로우
▁\
▁화제
▁1992
▁오랫동안
▁방출
▁이영
▁체크
▁북부
▁인지도
▁김동
▁개정
▁터키
▁마이너
▁기독교
▁KO
▁클래식
▁아이콘
▁with
▁어쨌든
▁조언
▁미술
▁바퀴
▁올해
▁호위
▁어마
▁연료
▁마침내
ud
▁웃음
▁해리
라드
▁곽
▁릿
▁시아
바라
▁칭하
▁1993
▁원소
▁안티
양함
▁극복
▁정원
▁장악
▁클릭
▁원수
▁베트남
▁빼앗기
▁SKT
톨릭
▁의존
▁중독
▁접촉
▁시마
▁일제
▁국방
라이트
▁귀찮
▁바이러스
▁인정받
▁사도
▁팔리
▁하락
▁노인
▁비추
▁델
▁으라
▁식량
▁미라
▁무작
▁140
▁선택지
▁Ex
▁생존자
▁무겁
▁흐름
▁결코
▁놀이
▁전신
▁톰
▁데려오
▁윌리
▁하우스
▁담기
▁https
ame
80
▁모조리
▁신설
▁살아가
▁헛
▁수익
▁JR
▁우라
▁보관
▁본체
쳐지
멘트
임스
▁??
▁칭찬
▁투명
▁캐논
▁커리어
▁챌린
AD
▁전멸
▁외전
▁흔들리
▁sh
▁핏
▁체육관
▁부장
▁공무원
▁개수
▁도끼
▁취향
▁으시
▁손해
▁전성기
▁앞두
▁어다
몬드
▁노부
▁이브
▁예시
▁논리
▁IC
치기
▁치유
▁비주
▁카트
▁후방
▁한마디
▁씹
▁de
▁스승
▁모래
▁기종
▁최다
▁루수
ost
리그
▁수십
세스
▁에리
▁김종
▁돋
▁데드
▁억지
▁우연히
▁Love
▁충성
▁무릎
▁기아
▁교장
▁이터
▁가톨릭
▁콜라보
▁제작자
▁어스
▁정비
코토
▁마린
▁툴
카리
▁유니폼
▁첼
▁재현
▁GS
▁힙
▁레이더
old
▁변호사
▁구경
▁무지
▁불타
▁동의
▁일반인
▁반동
▁사막
다랗
out
▁소라
▁칩
▁900
▁당일
▁세르
▁로고
▁Un
스키
▁명성
▁충청
▁작곡가
▁적응
▁제임스
▁날아오
▁이정
▁구사
▁맥스
▁타선
▁.."
▁기여
▁트랜
▁오전
▁사정거리
own
▁코미
▁구리
▁카츠
▁소스
네스
▁업적
▁202
▁거미
▁쵸
▁접하
▁멕시코
▁패션
▁수류
▁선전
▁타인
▁합의
▁증언
▁잉글
▁고맙
▁집어
▁자세히
▁아일랜드
▁무방
▁잘리
▁개입
▁기량
▁아즈
워크
▁둘째
▁유통
▁판매량
▁연금
▁초보
▁타락
카드
▁빨갛
▁스트리
▁기도
▁잡지
▁다름
▁바깥
▁상업
▁가짜
▁드라이브
▁법원
▁스웨
▁SH
US
▁찢
▁자국
▁넥센
▁폴란드
▁아쿠
▁눕
▁취임
시로
▁할머니
▁조연
▁LI
▁북쪽
▁EP
▁의회
▁울리
▁신부
▁유물
▁무라
▁포격
▁정수
▁법률
▁루카
▁수류탄
▁화장실
▁박히
다이
▁전후
미니
▁차기
▁일방
▁가루
▁벌레
▁닭
▁깔끔
▁주기
▁복무
▁FF
▁출마
▁똥
ok
▁어드
▁쌍둥이
▁안타깝
▁교실
▁주식
▁금속
pe
▁펑
▁대개
▁IS
든가
▁오사카
▁드롭
▁히나
▁결성
▁싱크
▁인조
▁과장
▁위상
▁구르
▁정착
▁남쪽
ace
▁새끼
▁기르
ave
▁인격
per
▁승점
▁비례
▁포드
▁도주
▁팽
노우
려나
▁흔적
▁동력
▁XX
▁연패
▁교차
▁독특
ng
▁주일
▁그러니까
▁자폭
▁즐겁
▁처형
▁도적
▁잠재
▁방어구
▁내세우
▁훗날
네임
▁숭
▁스텔
▁공성
▁튕
▁스터
▁냄새
▁스마트폰
▁1991
▁ㅣ
ice
▁스프링
▁더럽
▁라이온
▁대인
▁상호
▁부작
▁자책
▁강도
▁사라
▁블러드
▁간신
▁정치인
▁화학
▁네요
▁위대
▁국립
▁공룡
▁남녀
▁매니저
▁CV
▁거점
▁노르
▁CF
▁포항
▁일찍
▁연승
▁패하
▁AD
▁클레
▁놓이
▁1988
▁오라
▁비상
▁포수
▁시너지
▁미루
OD
▁기용
▁타수
▁클랜
▁너희
▁귀환
▁런던
▁크리스탈
▁몰락
▁스페이스
▁추억
ov
가스
▁권한
▁스튜디오
▁각본
▁개량
▁행보
▁제갈
▁김재
▁유대
▁이슈
▁고작
랑이
▁We
▁오타
▁적당히
▁지뢰
랭크
▁시노
▁트라이
▁상술
나카
ont
▁색깔
▁아츠
▁가리키
▁후술
▁승률
▁사신
▁주역
▁사유
▁시달리
▁실망
▁개막
▁숙련
▁혈액
자드
▁광역시
▁아케
▁공세
▁AM
▁혐오
▁105
▁흥미
▁어려움
▁미스터
▁녹색
▁루나
▁커피
▁뜬금
▁카운트
▁다치
▁타로
▁이중
로나
▁일람
▁내지
orld
▁히어로즈
팡이
▁자막
▁해피
▁터뜨리
ies
▁서포터
▁DS
블린
▁길이
▁생년
▁다름없
▁소위
▁학력
▁의대
▁재단
▁코리아
▁리온
▁색상
▁끊기
▁인민
▁화성
▁펴
▁금융
▁계통
▁스트라이크
ann
▁제작사
▁티켓
▁SNS
▁특전
▁관람
▁요금
▁면모
OC
▁나치
특별시
▁국왕
고속
▁미터
▁흡혈
▁구슬
▁ㅁ
▁아이언
▁리타
▁영구
▁차이점
▁아마도
▁배터리
시타
▁ED
▁심사
▁오크
▁디지몬
▁뿔
럼프
▁개시
▁쓸모
▁단단
▁쪼
▁세종
▁하단
▁기숙
▁서울특별시
▁튕기
▁중량
▁CPU
▁오랜만
▁오직
BA
▁펄
▁소대
▁사이버
▁추종
▁칭호
▁어뢰
▁미묘
▁증오
LE
▁찾아내
▁들키
▁공공
▁세븐
▁재산
▁잉글랜드
▁스팀
▁보호막
▁DE
▁호수
▁시그
▁중첩
▁썬
▁오마
▁생략
▁좌석
▁민첩
▁연령
▁wik
▁고구
▁편입
▁맛있
▁뎀
▁언더
▁혐의
▁부지
▁히토
▁워커
▁지경
▁애플
▁총알
▁치루
▁가만
▁십자
▁전라
▁LC
▁더러
▁협상
베르
▁마약
▁해상
▁단편
▁실전
▁상단
▁LV
▁가요
▁노벨
▁연예인
▁휴식
▁타율
▁혹시
▁메리
▁엿
▁그만두
▁신사
시스트
어마
▁덧붙이
▁쿼터
▁하차
로디
▁아저
▁예언
▁후배
려들
▁네트
저스
▁상인
▁눈치채
▁이익
▁NE
ber
▁아저씨
▁딜링
▁펌
▁정화
▁중국어
▁탈퇴
▁곤란
▁수장
▁구석
ys
▁막대
▁강자
▁익스
▁흘러
▁기관총
▁어마어마
▁임대
▁카카
▁SE
▁강요
▁예산
▁찬스
▁189
▁용량
▁동쪽
▁언스
바르
ION
▁네오
▁떨어뜨리
▁턱
▁모노
▁문구
▁용서
▁공방
der
▁개혁
사자
▁데려가
▁하루카
▁수호자
▁캠프
▁your
aw
▁악당
▁드럼
▁자극
▁소장
▁진보
▁3000
▁원칙
▁원주
▁부각
▁김현
▁잠수함
▁상실
▁금방
60
▁큐브
▁총리
▁기울
▁칼리
FF
▁틸
▁포로
▁BPM
▁포르투
▁인치
이너
▁EN
▁교류
▁학자
▁It
▁굿
40
▁루이
▁잡아내
▁메달
▁얀
▁상관없
▁결전
ream
▁앨리스
▁원문
▁집행
▁에요
▁깨어나
▁마디
▁저작
▁표지
▁유효
▁자전
▁얻어
▁찍히
▁엑스트라
▁뱀파이어
ike
▁활발
▁가을
▁125
▁미쿠
▁나나
▁모토
▁로리
▁입지
▁채팅
▁일족
▁Com
▁후계
▁타운
술사
▁중립
▁엘리트
▁간신히
▁사귀
▁신앙
▁헬기
▁1989
▁도루
▁저렴
▁서번
월일
▁카와
▁무척
▁사형
▁제트
▁메시지
티아
▁기생
▁화물
▁피터
▁낚시
▁이끄
위대
▁PV
▁칼날
▁묘하
▁담배
▁마그
▁힌
▁서번트
▁무렵
▁첩
▁정예
▁요약
▁사명
▁루비
▁짜증
▁복지
▁구축함
▁미즈
▁조이
▁일본인
▁더군
▁행운
▁생년월일
▁UP
▁추구
▁존재감
▁지라
팩트
iss
▁레알
▁재밌
▁거울
▁딜레이
▁위원장
▁끈
▁동아
▁잡아먹
▁대학원
▁바이오
▁안녕
▁터널
▁ww
▁엮이
▁그랜드
▁순환
▁거듭
▁나리
▁부딪
▁음모
▁라기
▁애정
▁영주
▁반전
▁주자
▁캐스터
데이
▁착하
▁불사
▁철학
▁최신
▁AS
▁테라
▁해골
▁고개
▁텍스트
▁도둑
▁가동
▁피아노
▁커다랗
▁무역
▁엔젤
▁격추
▁잔뜩
▁태평
▁사원
▁서쪽
라기
▁참석
▁공허
▁생겨나
▁성남
▁부스터
▁심심
▁www
▁기구
▁알렉산
걸이
▁모니
▁BL
▁언젠
무르
▁기숙사
▁플라이
▁언젠가
▁휩
▁취약
▁->
▁드래프트
▁부적
30
▁공용
chor
▁이집
▁주차
▁비치
▁이집트
ian
▁분신
▁붓
말리
▁준우
▁비서
▁통산
▁끔
테르
▁CJ
▁체중
▁유나이
▁궤도
회사
▁걸어
▁상기
▁명단
▁분대
▁초록
하면
▁우르
▁되돌리
▁유적
▁윌리엄
▁확대
▁유나이티
io
▁탄환
▁쭉
▁훼
▁토벌
▁이토
▁종목
▁Pro
▁스펠
▁교황
▁페널
▁옳
▁씬
▁베리
▁식민
▁난입
▁헤어지
소녀
▁경로
▁하츠
▁나츠
▁권리
▁브루
우마
▁조리
▁도박
▁악명
▁출입
▁발리
게임
▁말투
▁복구
▁밍
▁은신
▁대선
▁that
▁건드리
▁글로벌
▁왠지
▁앗
▁외계인
▁건조
▁알아내
▁이식
▁1970
▁신전
▁트랜스
▁간접
▁업로드
▁형상
▁코멘트
▁천하
▁Fl
정부
▁윗
▁마주치
▁아미
ory
▁발달
▁레딧
▁연맹
▁와일드
▁레슬
0000
▁꾸미
▁시라
▁양성
▁하향
가리
▁에다가
▁해치
▁장탄
▁적합
▁Br
▁김대
▁디스크
▁소유자
▁이수
▁일치
▁;&
▁전이
▁anchor
▁가방
▁제약
▁명확
▁릴리
▁라이플
▁그르
▁연극
▁천만
▁유독
▁드라이버
▁내보내
▁뿜
▁이드
▁아메리카
▁사후
▁구글
▁미키
▁이펙트
▁쏟아지
▁빠져
▁정황
▁흰
▁화재
▁WWE
▁동인
▁강점
▁고도
▁그램
▁리스크
▁크림
▁가라
▁매장
▁팬텀
▁딕
▁울프
▁주택
▁&#
▁커녕
▁헌법
▁곳곳
▁띠
IP
▁끔찍
▁로얄
▁인디
▁아키라
▁리뷰
▁저택
▁실책
▁이민
포트
▁할인
▁170
▁셜
▁보완
IG
UM
▁비주얼
▁렐
▁Or
▁다이아몬드
▁암시
▁문단
▁그럭
▁백성
▁웃기
VD
▁조별
▁하이퍼
▁마블
▁평생
▁운동장
▁단축
▁라니
저럭
▁야수
▁웨이브
▁어필
어하
▁le
▁언덕
▁충실
TE
▁메이드
▁금액
▁치즈
▁그럭저럭
▁만남
▁승객
▁플래시
▁박물
▁걸맞
▁고위
▁허락
▁뻗
▁새기
▁호기
▁테츠
▁여우
▁원자
▁자이언츠
▁비스
▁by
▁토니
▁샌드
▁뽑히
▁1987
▁답변
▁덩치
▁등지
▁항공기
▁딴
▁불펜
▁헤어
▁감각
▁라라
▁파편
▁시합
▁상식
az
▁치킨
▁~!
▁승자
▁성립
▁상영
▁스웨덴
▁Dr
▁뛰어넘
▁토너
oth
▁출격
man
▁스크린
▁에르
ep
▁위반
▁기동성
▁안기
▁트롤
데미
▁입대
▁잃어버리
▁매년
▁구미
▁꼼
▁;&#
▁깔리
▁부자
▁긴장
▁시원
▁록맨
▁축복
▁도라
OU
▁필리
ale
비드
▁견디
▁급격
▁문재인
▁배트맨
▁집착
▁OP
▁흩
▁사살
▁니스
▁권장
VA
▁려던
▁꿀
▁킬러
▁서구
▁넘버
▁유학
▁평점
▁미네
▁작년
▁보드
▁플래그
▁기인
▁호칭
▁마법소녀
▁동성
▁신나
▁헐
▁일대
▁대수
▁싫어하
▁낮추
▁퇴장
▁적중
▁아카데미
▁스테이
▁우에
▁토마
▁지치
▁참가자
▁내전
▁스즈
▁창고
ky
▁스폰
▁해명
▁RPG
▁노바
▁맷
▁시공
▁곱
▁분명히
ach
▁리오
▁휘말리
쟁이
70
▁서서
▁탐험
운서
arg
▁교과
▁구름
▁아나운서
▁관할
▁중형
▁1500
▁실종
▁전주
부르크
▁열매
▁근거리
▁Sc
▁케인
다나
▁결심
▁뜨겁
리나
▁약화
▁선고
▁읍
ows
▁결합
▁용인
무시
▁학기
▁5000
▁사키
▁기운
스럽
▁리플
▁경직
▁결투
▁동점
▁정기
▁그렇지만
▁법인
▁흑인
▁팟
▁싹
▁나마
▁어판
▁타쿠
▁ㄹ게
▁해안
▁본진
갈리
orm
▁토너먼트
▁감추
▁믹스
▁호흡
▁111
▁채보
▁헝
▁전승
▁암살자
▁완결
▁호시
▁생명체
▁Team
▁솜
거지
▁마스크
▁센스
▁발렌
▁야생
▁럼
ish
▁KBO
▁두들
▁천안
▁괜히
▁페이스북
▁막내
▁수능
▁내일
▁연합군
던지
▁BB
▁악몽
▁정차
▁동아리
▁파르
▁변환
▁근본
▁박물관
▁엔드
▁}}
▁본사
▁슬라이
ae
▁불교
▁지위
GE
▁스위치
▁줍
▁우정
▁연습생
▁베타
▁보이스
ook
▁지팡이
Hz
▁와타
▁침략
▁망가지
▁소음
▁마우스
▁침묵
▁침입
▁솔직
▁장인
▁통화
▁초인
▁밀어
ug
ade
▁유발
커스
▁동급
▁면적
▁크레
▁한쪽
▁선두
▁유력
ile
▁트리플
▁통계
▁FIFA
▁부실
▁뮤지컬
▁타석
▁관리자
일보
▁참모
▁돌입
▁사용자
rom
▁리카
yle
▁대왕
▁유격
든지
▁임팩트
▁서클
▁키타
아다니
▁갈아
▁지진
▁물리치
▁마물
▁영광
▁사인
irl
ash
반도
▁법정
▁수급
ower
▁소방
▁교도
▁무작위
▁출구
▁인피
▁철수
데드
▁무시무시
▁가죽
▁1986
▁wiki
프리
▁지불
▁대거
▁프리미엄
▁우타
▁수비력
ink
▁CH
▁노스
부로
▁벙
▁가디언
▁허가
▁CG
▁균형
▁재정
▁FW
▁세팅
TS
▁무관
▁언데드
▁보험
▁임신
▁채택
▁간간
▁속이
▁통치
▁감지
펴보
▁디젤
▁살펴보
▁안개
▁폐쇄
▁콜로
▁더군다나
▁썬더
▁항복
▁인력
▁스쿨
▁질리
▁격차
▁신발
▁몽골
▁삽입
▁싸이
▁인질
▁인종
▁튼
▁막판
▁급하
▁남북
IM
atch
▁판결
▁인방
▁철저
▁바디
▁핑크
▁DD
▁비전
그리
▁기름
▁창원
▁바쁘
▁고블린
CG
▁리프
▁관계자
센트
머스
ial
▁포켓몬스터
▁이혼
▁제정
▁반박
▁경남
sh
▁단원
▁히라
▁트럼프
▁ㅂ시오
은행
▁텟
▁행하
▁we
▁유인
▁배포
▁출루
▁코르
▁여주
▁남매
▁처지
▁일본군
▁포위
▁존경
▁의외로
▁스파이더
▁후계자
▁백인
▁이타
▁고구려
▁아틀
▁여러분
▁투스
먼스
▁놀리
▁수면
▁War
래시
▁인용
▁ID
▁김경
▁체인지
▁쿠라
▁무사히
여객
▁두르
▁일당
▁복제
▁스트레스
▁복선
▁매번
▁끼우
▁께서
전차
▁골렘
▁영원히
▁동양
▁예수
▁Star
▁오늘날
▁팁
▁깨달
다보
▁챌린지
▁학습
▁개설
▁LA
▁포르투갈
▁중복
태우
▁기세
▁국당
▁캐치
▁106
▁메이플
▁준우승
코드
▁물량
▁아테
▁지리
▁소송
▁갑작
▁그린
▁어이
▁에픽
▁이글
▁동명
▁피우
▁코난
▁수출
▁레지
▁탕
필드
카이
▁보충
▁선행
▁펼쳐지
▁슬프
▁날카
▁장신
▁해머
오루
▁물고기
▁오디션
▁토크
▁간단히
▁가만히
▁대책
▁냐면
▁미나미
▁기상
▁up
▁축하
천시
▁정통
▁왜곡
▁미만
▁상담
▁네트워크
▁DVD
▁뽀
▁분열
▁오키
키지
▁이주
▁보건
▁중력
▁데이트
▁닉네임
티스
▁코트
▁PR
▁뭉치
▁해내
▁만만
▁버섯
▁피닉스
▁시크
▁멜로디
▁배정
▁잠입
▁메이커
▁웰
▁전북
▁오우
▁부드
▁공업
▁나미
▁체험
▁ON
▁혼돈
▁포즈
▁115
▁개업
▁여전
▁처분
▁벼
▁날카롭
▁하마
▁즉사
▁단행
▁해킹
▁오메
▁상한
▁후원
▁수석
▁102
▁패키지
화점
▁야마토
▁항의
▁진압
▁벨트
▁트릭
▁입주
▁선제
▁마드리
▁억지로
▁자전거
▁악기
▁아랍
▁고리
▁기동전
ING
▁기재
▁사령부
▁배역
▁fe
▁장탄수
▁은지
▁장거리
▁퍼포
▁수백
▁Ne
▁자본
▁퍼포먼스
▁서포트
ous
▁플러스
▁꿰
▁유산
▁For
amp
▁둘러싸
▁기갑
▁수명
세대
▁돔
▁마드리드
▁오스트리아
att
▁콘텐츠
▁악화
▁부드럽
▁대포
▁성전
▁}}}
▁파이트
▁라그
▁모시
▁Go
▁닛
▁야구장
▁호랑이
▁And
▁옹호
게이
▁정발
▁사이코
▁파멸
▁파동
야수
▁분쟁
▁GP
▁통로
▁대치
▁유미
▁도감
▁세부
▁이스라
▁전제
▁가공
▁뽑아내
▁우세
▁프레이
▁신입
▁토키
▁175
▁모험가
▁궁금
▁첼시
▁Cr
▁주니어
▁머무르
▁탐정
▁Wind
▁블라
▁배달
▁잠들
▁무술
▁188
▁김상
바닥
▁최상위
아키
▁논의
▁재회
▁조약
▁기력
▁젤리
▁그날
▁공정
▁광선
▁파생
▁".
▁처참
▁분해
크로
하시
어놓
자와
me
▁아르헨
▁세포
▁디즈
▁1985
▁모터
▁행방
▁시트
▁깜짝
▁진주
▁산하
▁무스
▁유성
▁wid
▁차체
▁다가가
▁노조
▁버드
▁박지
▁체감
▁장미
▁부서지
▁위안
▁마코토
ms
▁양상
▁터스
▁조우
▁리라
▁나비
텐도
▁자꾸
▁진학
▁끌려가
▁후손
▁닌텐도
▁나르
AY
가드
▁증폭
▁김진
▁비웃
▁강원도
▁롬
▁건네
▁부착
▁즈음
▁bl
▁여학생
64
▁레일
▁아르헨티나
▁계시
▁규격
▁나기
▁독재
▁카구
▁업계
▁아동
▁니콜
▁휘하
▁검술
▁고로
▁폭행
▁방치
▁주둔
▁드루
▁시카
▁관점
▁조기
▁난사
▁페널티
▁width
▁베네
▁350
12
▁al
ib
▁듀오
ft
▁전파
아이
▁Gam
벌레
▁무인
▁한두
▁공수
▁훈장
▁반부
▁만지
▁브레
▁왜냐
▁개발자
▁아아
now
▁몫
▁전무
▁PP
▁질투
▁제독
▁경주
▁톨
▁파란색
▁고장
▁BS
승부
ps
▁중세
▁스트리트
렐라
▁베테
▁IN
MP
▁택시
▁감상
▁방송국
▁측정
비전
▁소요
▁이온
▁김기
▁전동
▁감싸
▁조커
▁오염
▁중장
▁스탠드
▁면허
▁기쁘
▁이스라엘
▁뚫리
▁불량
▁능력자
▁토큰
▁세인트
oll
▁감동
▁BR
▁승무원
히코
▁루스
▁1984
▁최적
▁도저히
▁산탄
▁기원전
▁시상
▁드론
▁AKB
▁Man
▁나요
TV
▁약탈
▁부사
▁지사
▁운수
▁국판
▁후자
▁발목
▁대단히
▁트루
▁디바
▁추리
▁토시
▁유니크
▁우치
태프
▁UN
▁뒤지
▁피트
▁위성
▁신도
▁스캔
▁닝
▁기장
▁나루토
▁루머
▁sp
▁All
▁우월
▁선거구
▁에디
▁여야
▁이종
▁바론
▁브로
▁주행
▁스텝
▁코마
▁티아
▁아시안
신교
▁아레나
▁룩
▁혈액형
▁후퇴
▁히가시
▁엇
리스트
▁식민지
▁루이스
▁광장
▁상관없이
▁창단
▁베기
▁벌리
▁샷건
▁왕위
▁둠
▁Part
▁루크
▁반짝
번에
▁SU
▁나노
▁자비
▁철권
카락
▁틴
▁서서히
▁머리카락
▁KR
▁하하
▁과도
▁자녀
▁소용
▁아쉬
▁까이
▁일화
▁라이너
▁112
▁붐
▁다운로드
▁토미
▁En
▁던가
▁분당
경기
더라
▁공백
▁기둥
▁노가
▁꼬이
▁야간
▁연고
▁아가씨
▁제출
세서
▁원리
▁조용히
▁조롱
▁힐러
▁명의
▁요인
▁간호
ond
▁얻어맞
▁프렌
▁수월
▁대시
▁투척
▁DC
▁뻥
▁돌연
▁아지
▁마감
▁Sup
키퍼
▁쇼핑
▁중시
▁Fate
▁LP
▁줄거리
▁며칠
▁루피
▁캣
▁더빙
▁굵
▁라우
▁보존
▁타이거즈
▁비명
▁고증
▁Mar
▁장사
▁엑시
▁전망
필더
▁철거
▁미드필더
▁절차
▁ex
▁드림
▁듀스
▁백작
▁프란
데레
▁AN
▁108
▁막상
▁모로
▁그레
▁범죄자
▁라이온즈
▁무산
▁시신
▁스리
▁뒤늦
▁시바
▁온천
ase
▁오락
▁특급
▁쇼크
▁수동
▁합병
도리
▁저하
▁닐
▁주류
유럽
▁세라
▁리즈
ool
▁원조
▁실장
▁긴급
▁식품
▁합계
▁호소
▁려다
pl
▁배급
▁평일
▁인권
▁배드
▁여인
▁수색
▁시외
▁360
▁오이
▁경악
▁에릭
▁빅토
▁유재
▁생애
▁낙하
▁고객
▁골키퍼
▁117
블로
▁걸즈
▁타일
▁와카
▁만일
투스
▁에반
▁나폴
런트
▁꼬마
▁킷
▁우유
▁넘어지
하르트
▁마계
▁안양
▁러시
▁복합
▁청와
▁발굴
▁바스
▁지칭
▁로빈
▁잠실
▁샤이
▁직장
▁ㄴ다거나
▁택하
▁교단
▁실은
▁증상
▁One
▁막아내
▁의자
▁임금
▁방위
▁성당
▁스포일러
▁확장팩
▁강림
▁어시스트
▁공인
비치
▁살아나
▁부임
산시
▁개별
▁폭파
▁남아
▁로이
▁고소
▁청와대
▁팡
▁국경
▁때려
▁유의
▁그라운드
▁꽉
▁기묘
▁당당
▁코스튬
▁여고
▁예고편
▁배수
플레이
▁뱅크
ree
▁로버트
ph
▁거북
▁포스터
▁교복
▁청주
▁뱃
▁특별히
틀러
▁후회
▁오로지
▁개장
▁히든
▁학생회
▁통틀
구나
▁명백
▁As
▁선사
▁아이러
▁헨리
▁New
학자
▁극도
▁시로
▁하이라이트
▁역습
▁도트
▁집어넣
ason
▁회담
▁프린세스
▁조명
카이도
▁퍼즐
▁수염
▁엎
베스
▁끊임
▁여객
▁케이드
aby
▁ㅂ니까
▁쓸데
▁개신교
▁FM
▁뜬금없이
불명
▁103
▁Oh
우치
ai
불호
▁렌즈
▁호불호
▁되살
▁술사
▁실존
▁둘러보
▁관찰
▁트레일러
▁오더
▁비스트
릴라
▁휠
▁모집
▁GO
▁흰색
우리
▁헷
▁사리
▁불행
▁양손
▁되게
▁마케
▁성질
▁금메달
▁니아
▁사야
크라
저리
▁JP
▁바지
▁유기
▁매출
▁에로
▁어쩌면
▁동경
▁보라색
▁220
리온
▁1960
▁부동
▁장로
▁묶이
▁셔틀
▁라크
▁트레이너
▁유언
▁CS
러그
▁라즈
ment
▁올스타
▁캘
도르
▁비틀
▁프로토
▁과학자
▁z
▁우주선
▁모듈
▁지인
▁샵
▁UE
▁결계
▁물품
▁오브젝트
▁심의
▁부딪히
▁코미디
▁항구
▁타르
▁캐시
▁윈드
▁유망
▁여파
▁240
키아
▁회색
▁타이탄
▁손상
에이
▁웨스트
▁tv
▁원곡
▁각오
▁나스
▁초콜
▁지향
▁법칙
▁세뇌
oon
돌이
▁연봉
▁비유
▁폐기
▁우즈
▁알라
▁태평양
▁포탄
마크
▁이와
▁엘리자
▁un
▁진격
▁거든
▁무승부
▁풋
▁128
▁홀드
▁손실
▁정반
싱턴
▁드로우
MS
▁국정
▁김용
베이
▁유출
▁달려가
▁두렵
▁붙잡히
90
▁광산
▁포장
▁치열
▁건국
▁늙
▁이글스
▁국장
▁신선
▁무공
act
▁갤러
▁장판
ox
▁즉위
▁브라운
▁제네
▁맥주
▁날뛰
▁중순
▁따뜻
라노
▁우드
▁제갈량
▁임기
▁슬로
저기
▁코믹
▁영지
▁함부로
토스
▁패전
▁엄밀
▁단기
▁워크래프트
▁짐승
ARD
▁클론
▁노동자
▁반감
▁닷
▁트랩
▁모스
▁서머
▁두들기
▁깎이
▁넘어서
▁탐지
▁네티
메이
hen
▁스핀
▁박살나
▁배려
▁이웃
▁아바타
▁TVA
▁여기저기
▁리버풀
▁최우
▁합리
▁%/
▁사이클
▁쿤
▁계수
▁양자
▁리안
▁간주
▁섀도우
▁커스텀
▁안심
▁하프
▁하스
▁독점
ank
▁기수
▁신데
▁로이드
▁관통력
▁라틴
▁트로피
▁트리거
뻐하
▁기뻐하
▁샬
▁알렉스
▁트라우마
▁당대
▁생전
▁이모
▁ㄹ려
▁신용
▁스나이
▁단검
▁백제
▁방탄
▁신자
▁레온
▁지연
▁여럿
▁원더
▁김준
▁흔들
▁장난감
▁대조
▁휴가
▁키라
깨비
▁상륙
▁World
▁소프트웨어
▁JT
▁벤치
▁사립
▁시비
▁콤비
▁야쿠
▁마땅
▁옐
▁디시
▁단종
아치
▁날씨
▁일요일
▁아이러니
포르
ich
▁디즈니
▁신데렐라
ary
▁우익
▁시인
lect
▁프라임
▁후미
▁Mk
▁챔피언십
▁토요일
▁밀어내
▁1982
▁태국
▁빨간
▁혜택
ife
▁신속
려받
▁려다가
▁수습
▁손오
블리
▁방송사
▁네티즌
▁쉴
▁선임
란히
ear
▁음료
▁쳐들
▁파밍
▁시리아
▁센서
▁카더라
▁변수
▁추세
▁스트라이커
▁서기
하마
▁권유
에르
▁서바이
▁근원
▁스피릿
▁도장
▁막강
반기
▁사법
▁순양함
▁독일군
▁실내
▁권위
▁허무
▁갚
uk
▁지목
▁의학
▁LIVE
렉션
▁라스트
▁벡
▁SF
▁슬라
ET
▁당사자
하나
▁상사
▁버스트
▁약물
▁파울
▁동속
▁빠져나가
싸움
▁키보드
11
▁후임
▁끓
▁경호
▁전남
쿠라
키리
▁결제
▁추방
▁탭
▁쓰리
▁마카
▁지력
사리
▁김해
▁나아지
사기
▁185
▁Day
▁흡사
▁배출
way
타카
▁유혹
▁선장
▁짐작
▁all
▁구조물
ple
▁표면
▁극히
▁실시간
▁얽
▁후반기
▁낙선
▁드레스
▁엽
▁논쟁
▁근접전
▁기호
▁끌리
▁토하
▁조상
▁경북
▁Fr
▁전생
▁태클
▁1983
▁정석
▁니혼
▁진상
▁유전자
▁당기
▁침대
▁도리
▁차갑
▁로보
▁감수
▁스타디
▁패밀리
▁매니아
▁설령
▁좌절
노리
▁비비
▁창설
▁포획
▁강사
▁울트라맨
▁간간히
▁페리
숭이
▁조르
▁lv
▁{{{#
▁합동
ype
▁오지
나미
▁마피아
▁성배
▁nd
▁119
▁비극
▁역임
▁원형
▁시온
▁돋보이
ens
▁DPS
▁물체
▁집권
▁범용
▁소모량
▁중상
aster
▁백화점
▁MB
▁다투
▁쏠
▁낭비
▁손오공
▁튼튼
▁특공
orn
▁피로
▁정교
▁거스
▁구동
▁해병대
▁퀵
ork
▁연구원
▁홀리
▁가두
▁빌딩
▁출혈
▁페어
▁베어스
▁전날
▁명목
▁go
▁미궁
▁사무소
▁한반도
▁지선
▁동남
▁여서
▁생체
▁엄격
▁변태
▁삼각
▁마트
스티벌
▁페스티벌
▁DP
▁콘솔
▁부스트
▁104
▁123
▁수직
▁질병
▁헤르
▁사악
▁Wi
▁미미
▁공감
▁스태프
▁복원
▁땡
▁Ad
▁배제
▁베테랑
▁강렬
▁Sw
▁의장
▁RA
▁are
▁위로
▁AA
▁래퍼
▁질주
▁엑시즈
▁호남
▁오메가
▁OVA
ans
▁특별시
▁제치
▁109
▁바나
▁실상
▁Up
▁따라오
▁하인
▁젖
▁개국
▁동행
▁관측
▁대타
버그
사이
▁직선
▁넘어오
▁단행본
▁스즈키
▁데이비드
▁빨간색
▁탐색
▁style
▁공대
▁제물
▁KOF
▁토요
ons
▁본토
▁양반
▁쨩
▁케이블
▁페미니
▁쌀
▁스플
▁거칠
▁진급
ey
▁도깨비
▁리코
▁do
▁전락
▁우측
▁약자
▁장성
▁디펜
▁블로
▁브레이커
▁센트
▁밀려나
▁앰
▁관여
▁광기
▁연쇄
very
▁무실
▁거론
▁을수록
NA
▁선조
▁되돌
▁라그나
▁ES
▁메리트
▁우호
▁잉여
▁총합
▁III
▁본관
ung
공항
▁변동
▁스테이션
▁아스카
▁마타
▁바둑
▁손쉽
▁여의
렉스
차기
▁촉수
▁UEFA
▁히로시
▁워싱턴
▁전격
▁소니
▁오노
▁인재
▁유탄
▁세금
▁백업
타입
▁한창
▁군수
▁논문
▁해양
▁단발
▁고무
▁훼손
▁코토
나오
▁친절
▁위엄
▁메일
능력
▁스와
EM
▁구장
▁수비수
▁장애물
▁오니
▁축소
▁하급
▁대박
▁리모
▁스타디움
▁마술사
▁에이지
▁응용
▁프리미어
▁그랑
▁긁
나기
▁땅볼
박스
▁카를
▁중지
▁벅
▁라가
▁스위스
▁박살내
▁성실
▁민주주의
▁역명
께끼
▁수수께끼
▁어색
▁형편
▁할로
▁마오
▁강호
▁명문
▁돌보
▁자네
anc
▁트윈스
▁취업
▁치카
▁구성원
AK
▁데빌
▁최저
ll
▁역량
▁짙
▁안쪽
▁확산
▁징역
▁Windows
▁제왕
▁미지
▁바르셀
▁노란색
▁바르셀로나
▁재학
▁워크
▁겜
▁노가다
▁우회
▁츠카
▁코바
▁빈도
체스터
▁유망주
우트
▁메카닉
▁초콜릿
▁경상북도
▁카카오
▁창문
▁원피스
▁공통점
▁ne
▁란스
▁천연
▁딸리
▁이현
▁리퍼
▁인자
▁키미
▁강등
▁여타
▁깃발
▁고스
▁윈도우
▁대행
▁썸
▁렉스
▁힙합
누스
▁책임지
▁과자
▁중고
35
▁as
▁분산
▁우승자
argin
▁산타
▁부작용
▁온도
▁승차
▁티스
▁폴리
▁끌어올리
▁포터
▁유료
▁껍
▁퇴각
▁마유
▁굴욕
ero
지막지
▁무지막지
▁en
▁레이디
▁불쌍
▁농장
▁수인
▁어나
▁구독
▁전당
▁드래곤볼
▁통칭
▁고는
▁취득
▁봉쇄
▁엔지
▁최선
▁스미스
▁젬
▁동반
▁시상식
모스
▁이병
▁관우
▁대령
▁스노우
루미
▁Station
▁발판
▁대접
벤처
▁187
▁Ph
▁클린
▁터트리
▁어드벤처
▁평하
▁파도
▁루프
▁올드
▁성씨
oss
▁Qu
▁LO
▁no
브라
▁챔프
▁츠바
▁margin
▁그립
▁화산
▁크레이
▁레이어
▁번지
▁어벤
▁So
▁진에
▁로맨
▁규제
▁블레이
▁렘
동자
▁ML
▁급행
▁다이스
▁발키리
▁공산당
▁발행
▁이대로
▁오스만
▁천천
▁요한
▁135
▁원시
▁잔인
▁카마
▁결혼식
▁후드
▁대전차
▁공단
▁매드
▁210
▁평양
▁머니
▁톡
ise
▁사족
▁빙판
▁강간
pt
▁손님
▁변이
▁표절
▁가난
구장
▁잊히
▁겔
port
▁황후
▁타치
▁시사
▁주사위
▁손꼽
▁씌우
99
▁121
▁국무
▁신중
▁소재지
▁요미
▁검열
▁미오
▁외우
▁카리스
▁수지
▁경연
▁인과
▁침투
▁스케일
ical
▁멍청
▁사로
▁피카
AP
▁아베
▁특훈
▁예약
▁아깝
네마
▁으려는
▁블리자드
▁107
▁여포
▁와인
베이터
▁선출
▁개척
▁쿵
▁저렇
▁와이번
구미
셔널
▁뮌
▁스택
▁목걸이
▁게이머
▁쯔
▁스타리그
▁지오
▁열혈
▁김수
▁캄
▁세리
▁페어리
▁주체
▁Ver
군가
▁천천히
으로
▁쇄
▁난무
▁왼손
▁신동
▁여섯
▁으라고
▁이라크
▁호크
▁MG
▁강경
▁강민
▁마인드
▁끊임없이
▁패자
▁엔트리
▁1981
리스타
▁꿈꾸
모함
▁!"
▁인칭
▁사체
▁타츠
▁간지
▁이순
▁케빈
▁누군가
▁부재
▁지수
▁기부
▁어나더
▁퍼스트
▁신지
다운
▁불태우
▁시외버스
▁광물
루션
▁조종사
▁사관
▁프랑스어
▁워프
▁큰
▁사수
▁주관
테이션
▁제재
▁교토
▁대성
▁점검
ign
▁김지
▁중거리
하루
▁슌
▁--
베리
▁명분
▁끌어들이
▁혈통
▁소통
▁ㅋ
▁답답
▁덤비
스레
▁소금
▁기리
▁압권
▁서식
▁모니터
게이머
▁프로게이머
▁그레이트
▁스티븐
니시
▁감탄
▁폭스
▁pl
▁트윗
▁고시
▁맞붙
▁스컬
▁선진
▁토지
▁미국인
▁무용
▁이노
▁김승
▁첫째
▁미정
▁철갑
▁미러
▁파랗
▁냉정
▁출간
어드
▁루리
▁love
▁자존
▁첸
▁모델링
▁엄연히
▁동해
▁다지
▁점유
▁프론
▁알바
▁평론
▁레인지
▁이라도
▁해산
▁라마
▁경찰서
IR
gh
▁너머
▁카시
▁흙
▁임의
테일
▁폭격기
▁TR
▁망토
▁사사
▁아스트
▁헷갈리
센스
▁공격수
▁자제
▁페스
▁오죽
▁크라이
▁Sk
▁장타
▁구별
바나
▁이경
▁러스
▁중동
▁라이즈
▁친분
▁고사
▁플랜
▁용자
▁날아다니
ail
▁마일
▁연산
▁하여
▁주최
▁리나
▁보좌
▁186
▁math
▁재개
▁도어
▁외곽
▁풍부
▁개교
▁화상
▁내버리
▁쫒
▁물어
▁JTBC
▁중위
▁비기
▁실사
▁본능
urn
▁항공모함
▁상무
▁이대
▁엣
ode
▁마산
▁디오
▁질서
▁카레
▁유니버스
추어
민주
▁열정
VER
▁맹세
▁어이없
▁크래프트
ence
▁불능
▁Super
▁고속도로
▁유입
▁초능력
▁사퇴
▁트릴
틀랜드
▁To
▁동정
▁그릇
▁하나하나
▁영감
▁웜
▁BJ
▁고집
▁스폰서
▁(
▁공속
▁납득
▁지부
▁정신력
▁122
▁우울
▁왜냐하면
▁군요
▁국제공항
▁변장
▁Dream
▁비리
▁시타
의자
▁찬성
▁EC
▁박성
바지
▁김유
▁뉘
▁삼성전자
▁라이언
▁광경
▁검정
▁어설
▁레시
▁코노
▁유연
▁기스
▁에디션
!!
▁인벤
▁="
▁LE
▁리틀
▁사무실
이동
▁애칭
▁까마
▁몸통
▁기본기
▁벙커
▁중점
▁로키
▁출범
▁근대
라미
▁작정
▁올바르
▁확신
▁템플
▁히틀러
▁쉴드
▁극대
▁우마
▁평상
▁법사
▁멋대로
▁엘리베이터
▁닦
배우
▁하치
▁원숭이
▁꺼리
▁EXP
▁장례
▁박수
▁홋
▁카자
▁갑작스럽
▁토트
ier
▁스가
▁김포
▁광명
▁마모
▁엘레
▁에버
▁체결
▁민국
▁아쿠아
▁춥
▁만능
▁1979
▁곡인
▁카쿠
▁슈퍼맨
▁총장
▁유치원
이나
IX
▁145
▁워즈
▁창작물
▁일가
▁투쟁
▁도색
▁출산
▁퍽
▁카네
ble
▁브라더스
▁워리어
▁이어받
▁무제
▁청구
▁쳐들어
▁롤러
▁부근
▁모임
▁블럭
▁할리
▁매주
▁조카
▁만주
▁변명
워즈
▁슬픔
▁부스
oun
▁헬멧
▁비키
▁테이블
▁IM
▁후일
▁유격수
▁실현
▁가이드
▁이누
▁NO
▁Ap
▁부천
▁닥치
▁펭
▁방심
▁튜버
▁타구
▁113
▁암호
▁무실점
▁씨앗
▁쿠니
▁재앙
iver
▁풍선
▁마운
▁can
▁우루
이치로
▁왕복
▁히스
▁헝가리
▁고등학생
▁165
▁항모
▁학급
▁호러
▁기차
▁복사
▁스쿼
▁철저히
▁동전
▁이카
▁터보
▁인접
▁브라이언
▁명사
▁ㅔ
▁검증
▁노무
ott
▁IT
▁부시
▁글씨
▁몰살
▁병역
▁엉망
▁각인
▁포탈
▁케이크
▁사연
▁1950
▁손자
▁아처
▁상주
역사
▁레이블
▁144
▁이이
▁리가
▁운송
▁넬
▁엄밀히
▁인성
▁카지
▁쿠마
리안
▁알레
▁ATK
▁달려들
▁CM
▁155
▁생김
▁절친
▁유우키
▁시뮬
▁사투
▁옥상
슬라
▁화폐
▁세로
▁쿠데
▁Max
▁매트
▁조국
▁연전
▁통째
▁젼
▁승인
지르
▁제니
▁품질
▁연수
▁영양
▁쫓겨나
아들
▁간섭
페이
▁방학
폭탄
▁죄책
▁사로잡
▁흩어지
▁독일어
▁현금
▁상금
▁아무튼
▁ERA
진호
▁마당
▁츤
▁BD
▁제리
▁유재석
▁114
▁마음대로
▁목사
▁at
▁입문
▁습니까
II
uck
▁일곱
▁엔지니어
▁천장
코트
▁햇
자치
▁함락
▁알아채
▁집회
▁히카
▁양식
▁원전
▁시크릿
▁바쿠
▁페르소
▁뮌헨
▁스나이퍼
oh
▁우연
▁깊이
▁사나
▁유카
▁거지
▁유메
▁아자
▁스틱
▁비우
▁지로
▁다큐
▁수위
▁솟
▁동대
▁죄책감
▁화해
▁기동력
▁호드
▁미르
▁샐
▁혁신
▁리본
▁스카우트
eah
▁쿠스
▁시모
▁개구리
▁멧
▁부패
▁성경
▁손꼽히
▁전동차
▁초록색
▁할로윈
▁스피어
▁감자
▁이케
▁참사
▁승진
▁전향
▁티저
▁궁합
▁용암
▁스티브
▁ㄴ데다
▁토대
▁오렌
▁이놈
▁너스
▁다거나
▁코스프레
가루
주교
▁친애
▁정문
▁최순
▁호의
▁종결
끼리
▁750
▁GK
▁메트로
▁녹화
▁고아
네시아
▁사무라이
▁러쉬
케이션
▁정반대
▁레나
▁아드
▁현자
변이
▁깨끗
▁맞히
▁돌연변이
▁이소
▁아리아
▁토우
▁한나라
▁자율
▁..?
▁페르소나
▁만점
▁디자이너
야시
▁시게
▁미성
▁평행
방송
▁OS
▁한나라당
▁은폐
▁원장
▁협의
▁this
▁메이지
▁이력
▁아이디어
bs
▁필리핀
▁미인
▁떨치
▁아오이
int
▁오퍼
▁교과서
▁기후
▁풍기
▁진에어
▁흑마
▁대위
떨어지
▁자칭
▁도약
▁HE
▁Season
▁항해
▁AB
▁450
▁유전
▁이스트
▁정성
▁나이프
▁적절히
▁저글
▁스매
▁지분
▁종영
▁잭슨
▁합작
▁실체
▁충족
▁갯
▁흡혈귀
▁from
▁뺏기
▁NBA
▁파스
운동
▁로라
▁에미
▁다니엘
▁치안
▁브론
IL
▁{{{-
▁동서
▁이틀
▁자이언트
▁tr
▁부러지
▁지혜
▁가위
▁학문
▁리사
▁사와
▁좌측
▁마에
▁얼티
▁트래
▁여단
ose
크리
itt
▁EXT
직자
▁욕설
▁일관
▁레코드
▁시골
▁마기
▁임하
▁가담
▁스타트
▁이태
▁흘러가
▁히드라
철도
▁ㄹ래
▁EZ
▁침착
▁피자
▁La
▁외국어
▁헥
▁얇
▁내기
▁찔
▁중원
느리
렉터
▁314
▁각지
▁서류
▁말씀
▁스쿼드
▁학대
▁계층
▁분홍
▁뱅가드
▁바이올
▁입증
탐정
▁포병
▁베이징
▁저기
▁소생
▁잔혹
▁밀도
▁억울
▁물자
▁매달리
▁협정
▁Im
▁해소
▁new
▁툰
▁무도
▁추후
▁Vol
▁Con
▁초상
▁로스트
▁미아
▁덮치
▁갈색
▁감당
▁존중
▁카리스마
▁저글링
▁강릉
▁부원
▁카테
▁신곡
ats
▁대동
▁학년도
▁고고
▁스파이더맨
▁나인
▁나이츠
▁격려
▁녹이
▁가오
▁주석
지능
▁Sch
▁rd
▁고의
▁124
▁스타즈
▁인공지능
시고
▁Ed
▁아케이드
▁존스
▁스탈
▁피지컬
▁시어
나베
▁달아나
▁잼
▁강타
▁이오
슈타인
마루
▁점멸
▁대세
▁출판사
철수
▁에메
부키
▁판도
▁ld
은색
▁부유
▁Girl
▁물약
▁워터
▁면하
▁유스
▁펌프
▁강전
바이트
▁배구
▁Gre
▁부속
▁힘입
15
▁밀레
▁기울이
▁함장
▁과금
▁퀴즈
▁황당
▁민간인
▁디아블로
▁RE
▁점심
▁Night
워프
ube
▁극한
▁대검
ari
▁세자
▁압력
▁정사
▁압축
▁대변
▁183
슬리
▁USB
ition
▁괴인
▁표적
usic
msys
▁이빨
▁ldmsys
13
오피스
▁생김새
▁산맥
▁빙결
▁테스
▁애완
▁소서
▁마하
▁그쪽
▁그러므로
▁키요
▁내역
▁예의
▁후유
▁마틴
▁레이싱
▁뚱
▁벌써
▁동구
▁법무
▁김주
업자
▁그러면
▁경부
▁TS
▁대차
▁소소
▁리버스
25
항공
▁다시금
▁보스턴
리얼
▁씻
▁마케팅
▁발사기
▁중견
▁기껏
▁하지
▁1200
▁집계
▁Black
▁퇴치
▁만렙
▁자아
른바
▁덩어리
▁자책점
▁박스오피스
▁스탭
▁노아
▁이른바
▁모형
▁아카네
▁WC
▁망설
▁병살
▁출동
▁기질
▁골프
페라
사랑
▁일지
▁연설
▁철도역
▁재건
▁제노
▁박진
▁농업
▁주축
▁무녀
▁자존심
▁토마스
▁NH
▁모종
▁로프
▁사촌
▁바텀
▁일렉
▁리처
▁얄
▁도덕
yn
▁데몬
▁장벽
▁마도카
▁휩쓸
▁도대
▁선동
▁포착
▁그레이드
▁통솔
시대
▁연동
세지
▁유진
▁귀국
토니
▁구상
▁등극
▁레아
▁BC
▁원판
▁억제
▁천상
▁절벽
▁드워프
▁상냥
▁문양
▁127
▁킴
▁남동생
▁각도
▁들여
▁이원
▁교차로
▁현황
▁노무현
▁MM
▁불길
▁애인
▁모빌
▁발명
▁모스크
▁DM
▁서리
18
DD
▁관장
▁머물
당초
▁오른손
▁발레
▁앓
app
▁이윤
▁ver
▁탄핵
▁타이어
▁아담
▁Let
▁육상
▁부끄럽
▁스토어
▁아마추어
▁왕실
▁봉사
▁원주민
▁프랜
▁스크롤
▁적시타
▁쿠데타
▁리바
▁퓨전
려워하
▁도배
▁뛰어들
▁118
▁OG
▁사치
▁그란
▁솔저
▁SSR
▁아포
▁왕비
▁카게
▁방사능
▁전담
▁향후
▁까마귀
▁섬광
▁라미
▁뻘
▁불러오
▁챔스
▁Am
▁발급
▁용산
▁베를
▁Op
▁사방
▁회관
▁입시
▁서울대
▁환생
▁184
▁벗기
▁쿄코
▁AF
▁Col
▁시시
▁착륙
▁서적
gr
▁뤼
▁학사
▁Str
▁시안
▁하사
ye
▁피오
▁박자
▁지장
▁루마
▁여태
▁베스
▁라인하르트
▁정밀
▁인피니티
▁GM
▁잎
▁퍼펙트
▁시오
▁얼리
▁행진
▁서열
타이
▁다카
▁밀리언
▁리자
▁돌려주
▁not
▁청춘
▁지루
▁숙소
▁우두
ough
▁얌
▁필름
▁이무
▁제발
▁선박
▁컴뱃
▁152
▁협동
▁미녀
어트
▁큐어
▁민폐
▁프롤
▁Mag
CE
▁실용
▁루미
▁노랗
▁화기
▁싱가
▁다스리
▁싱가포르
▁ㅔ요
▁카리
▁유가
▁얽히
▁스로
▁강인
▁게끔
▁..!
▁춤추
iel
▁반성
▁편리
▁스타워즈
▁도대체
▁마을버스
▁교도소
▁금발
▁옴
▁그간
▁직책
▁선원
▁카피
▁브래
▁오렌지
▁승패
▁보우
▁욕심
▁갱신
▁잠기
▁아수
▁AV
▁000000
▁시호
▁툭
▁조화
무지
▁달려오
▁폴아웃
▁침몰
▁스네
▁김치
▁모순
▁테리
vel
▁건지
▁주공
▁취재
▁팔라
▁지크
▁과일
ull
▁일일
▁친척
▁AL
▁김광
▁탐사
▁어벤져
▁이진
▁욱
▁화신
▁아무렇
▁스카웃
▁한꺼
▁한꺼번에
▁경전
▁완화
▁1978
▁섬멸
▁아슬
▁토라
프리카
▁전송
▁우미
▁전지
▁이계
▁흥분
▁182
▁군부
▁발각
▁쿠사
▁스기
..
▁리부
▁보강
▁시간대
▁흑막
헤이
▁이별
▁능가
▁안무
▁해운
▁성명
▁오즈
▁중구
키스탄
ult
▁구형
▁천국
▁178
▁홋카이도
▁CL
▁컴백
▁오토바이
서스
▁소나
▁모나
▁토트넘
▁아사히
▁호리
▁반경
▁일어
▁도르
▁정답
에른
바리
▁흑역사
▁관문
▁용이
▁가구
▁모욕
▁미소녀
▁민감
▁스텔스
able
▁#!
소년
▁경상남도
▁신관
▁치이
ject
▁동계
▁이단
▁약혼
▁완공
▁최상급
▁그리핀
▁인문
▁대역
▁스윙
▁모에
구니
▁반역
▁레버
▁주머니
▁헬리
▁등재
▁일체
▁CE
▁라비
▁유즈
기에
▁시카고
▁타카하시
바람
▁얼티밋
▁직행
▁마야
▁사직
▁신작
▁PK
▁엉덩이
▁1945
▁간판
▁저자
▁강대
▁매각
▁에코
MAN
모습
마리
▁오만
▁이나마
방울
eth
oot
▁머스
▁시종
▁소득
▁코레
▁플라스
▁마수
▁엘리자베스
▁패트
▁매그
▁부채
▁베이비
▁디스플레이
▁쿠리
▁단자
타리
틀리
▁적자
▁프레스
▁Co
▁내밀
▁정점
▁레시피
속기
▁명장
▁울음
▁장남
▁사탕
▁약체
▁스마일
▁금요일
▁라이트닝
▁se
▁요격
▁파운드
▁여주인
▁맛보
▁늪
▁불참
▁바이에른
드러지
▁꺼지
▁탈취
▁카제
▁카사
▁마미
▁던지라
▁오다
▁패왕
▁cl
▁수아
▁삼키
▁카일
▁밈
▁얹
▁수천
▁레이지
▁TOP
▁실적
▁도심
▁파고
▁아랫
▁일러스트레이터
▁걸어가
▁BO
▁소마
▁도쿠
▁태풍
▁AFC
▁오케
스크림
▁교리
▁편의점
▁노릇
▁눈앞
▁애용
▁맨체스터
▁무능
▁휴먼
▁과시
▁박정희
▁대피
▁뻔하
▁가왕
ild
▁모음
▁아유
▁구로
▁카이저
▁어그
▁입사
니코
▁들르
▁독백
파이
▁BGA
▁시범
▁욕망
▁Is
▁평상시
▁목욕
inal
▁4000
▁한하
▁곤충
생활
▁삽질
▁함수
▁련
러브
▁연이
▁드루이드
▁신한
▁신하
▁자사
▁진동
▁눈동자
▁스파크
▁크로우
▁집사
▁오공
▁김일
도전
▁네크로
▁스모
▁웨폰
▁굶
▁이쿠
▁아이디
▁공신
▁물려받
▁Do
▁무지개
▁평론가
▁남학생
▁소집
▁맷집
아시아
▁Gaming
▁좌익
▁가이아
▁고가
▁보르
▁유머
▁부가
▁CR
▁유아
▁단련
쿠스
▁GSL
▁선회
▁SA
▁정우
▁중소
▁320
▁사천
▁투고
▁아마존
▁검토
▁돌려
▁리볼
▁달콤
▁숙련도
DX
▁캡슐
▁컬렉션
▁315
▁명시
▁포크
▁이용자
▁장본
▁하도
▁적이
▁ME
▁징계
▁케리
▁성분
▁아쉬움
ings
▁장신구
▁무한도전
▁Gl
▁냉장
▁식스
▁당초
▁마마
중간
▁테란
14
▁치고
▁타리
▁자력
TA
▁초과
▁아르바이트
▁1973
▁중기
트론
▁라이드
▁일명
▁슬라이드
▁덥
▁모의
▁놔
▁Gu
▁중부
▁배리
▁대면
대사
▁컨디션
▁와타나베
▁고이
당기
▁키노
▁짬
▁위쪽
▁오로치
▁유동
▁미노
▁하이드
▁중국인
히토
▁시련
reak
▁리리
▁협조
▁궁수
▁저항력
▁민중
ron
수리
▁마찰
▁가해
▁으려면
▁주술사
▁이호
▁잔류
▁무늬
▁이명박
티니
▁장본인
▁ㄴ가요
▁코끼리
▁공교
▁소꿉
▁강아지
▁와이번스
▁금강
▁진단
▁표식
타운
▁무자
▁급식
▁캘리
▁이니
▁이어서
▁외야수
▁인도네시아
▁상시
▁벨기에
▁앤드
▁고발
▁나폴레
▁서바이벌
▁네이션
▁보로
▁학위
▁그루
▁급격히
▁가령
▁겸하
▁이용객
▁주저
▁재수
▁부산광역시
▁168
▁NM
17
▁뺨
닐라
▁밭
▁고인
▁주술
▁유카리
▁국도
▁혼혈
▁판사
▁일리
▁공헌
▁도마
▁성대
▁평택
▁라이징
▁크라운
▁203
▁방침
▁도미
PA
▁so
사와
▁개명
▁수신
▁나폴레옹
▁초청
▁이즈미
▁마라
▁낯
▁몸매
저래
▁218
▁내외
▁조립
▁체코
▁휴대폰
▁승급
▁김병
운수
▁찔리
▁흉악
▁강동
▁like
▁보직
▁이래저래
▁내각
▁쥬얼
▁악행
▁Min
▁쟁이
▁시네마
▁헤라
▁균열
▁갈기
▁오페라
▁충청남도
성이
▁국토
▁수립
마치
▁자산
▁단총
▁아테나
▁뚜렷
▁천지
▁단역
▁윤리
우라
▁떨구
▁레이븐
▁런처
GA
▁고우
▁어원
전사
▁독보
▁ㄷ
▁소우
▁거세
▁배율
▁원한
▁황혼
▁will
▁위시
▁휴게
▁볶
▁사슬
▁테크닉
▁저격수
MAX
▁오사
▁10000
▁비자
▁의정부
▁베를린
▁우기
▁탄압
▁리믹스
▁저승
▁대학생
ECT
▁서방
▁차장
▁니트
▁떠돌
르타
▁버거
▁보가
▁부동산
▁하츠네
▁두려워하
▁트론
주의자
▁로크
▁절단
▁교역
▁수중
▁지지율
▁iOS
▁스치
▁충격파
▁국방부
▁경사
▁필사
▁RO
▁수라
▁탄막
ICE
▁스코틀랜드
▁빗나가
▁이오리
▁단서
▁리츠
▁리프트
▁ㄴ듯
▁시간표
▁성지
▁인명
▁오역
▁엠블
▁ALL
▁히사
▁비단
▁one
AND
보우
▁자루
▁원로
▁플레임
▁면제
▁타우
▁정전
▁마지
▁견해
▁칼라
▁말레이
▁난리
▁때로
▁버블
▁이리저리
▁na
▁미남
▁작위
▁Red
▁김성근
oul
▁대법
▁살아오
▁Type
▁설마
▁펑크
▁흉내
▁중화민국
▁지터
▁해역
▁걸음
▁1974
▁더미
▁KB
저우
▁대국
▁Ser
▁주황
▁다녀
▁사이토
▁NT
▁아수라
▁Play
te
▁타키
▁점하
▁평판
▁사물
▁달인
▁성사
친구
▁둥지
▁UC
▁토비
▁팰
▁캇
▁보편
▁가해자
▁출석
▁극심
▁입원
▁득표율
▁공격기
▁샘플
ater
▁요우
▁왕족
▁재배
ody
▁발톱
▁완벽히
▁격렬
STER
16
▁반장
▁전법
▁희생자
▁플레이버
▁습하
▁177
▁액체
▁우두머리
▁이듬
▁쑤
▁계절
▁Car
▁연막
▁김윤
▁깃털
과이
▁간파
▁고난
▁커플링
▁사우스
▁마르코
▁전라남도
▁해변
▁선로
▁다케
▁리볼버
▁랜서
▁주입
▁Don
▁강습
▁순간이동
▁헤드샷
▁한양
▁딥
▁계략
▁무비
▁진형
▁감성
▁벚
▁맑
▁의의
▁손잡이
▁탈환
▁홈경기
▁짝사랑
ions
▁방울
▁스콜
텍스
▁섬기
▁태생
▁과언
▁충고
ould
▁보루
▁제의
▁반도
▁사야카
▁슬라임
▁갈구
▁안젤
▁입자
▁138
▁Es
▁1975
▁두드러지
▁접수
▁유지비
▁차일드
▁맹독
▁놔두
▁병과
▁지면
▁금고
▁크롬
▁아이즈
천군
▁공명
▁중재
▁서명
드로
▁너클
▁워드
레븐
▁상어
▁이영호
▁메테
▁코디
▁석유
▁중도
▁산탄총
▁상의
▁리처드
▁측근
▁아리스
▁부제
▁필립
alk
▁주교
▁레슨
▁동성애
▁완성도
▁자켓
▁us
▁러너
▁어드밴
▁어제
▁졸업식
▁타스
▁팍
ven
▁찬양
▁바이크
▁두려움
▁프로스트
▁원화
▁'''
라이언스
▁마스코트
▁Time
▁데미
▁월간
▁테니스
▁레인보우
▁삿
▁생각나
소총
▁냉장고
▁얼라이언스
▁일각
▁162
▁이사장
야스
af
▁콘스탄
▁EU
▁시끄럽
▁가히
▁백만
▁이념
▁고래
▁찰스
▁분할
▁교대
스티스
▁본질
▁박명
맥스
▁126
▁트이
▁우지
▁아울
▁이듬해
▁테일즈
▁긋
시다
▁스바
▁빙의
▁Sum
▁몰려오
▁수감
▁노라
▁어기
▁WH
공사
▁조수
▁엉뚱
▁끌어내
▁김선
▁스매시
▁키즈
▁카오루
▁평등
▁스칼
ics
▁왓
▁신생
▁두껍
▁자키
보기
▁연소
▁ㄹ까요
▁김두
▁클리셰
▁히카루
▁Bo
▁차림
▁???
▁영화제
YP
▁기관포
▁노부나가
▁권하
▁대니
▁초등학생
▁심정
▁과격
▁주차장
▁말기
▁고립
▁응급
▁폭로
그라
▁보고서
▁꼴찌
▁고종
▁핑계
▁슬러그
▁지역구
▁깨우
▁동상
▁왕가
랄드
▁에드워드
마르
▁로비
▁텔레포트
▁회계
시스코
빨리
ACK
▁민병
▁득표수
▁코지
▁나락
르드
▁손목
▁BT
▁사회주의
▁펙
▁젝
▁직위
▁로제
▁맞먹
▁팩션
▁병행
▁공짜
▁무식
▁후반전
재기
▁유라
▁IIDX
▁CB
▁카렌
▁have
▁결과물
▁BA
▁애드
▁꾀
▁신상
▁카토
▁으리
미터
▁누스
▁주유
▁카인
▁팜
보라
▁~"
▁연세대
▁oh
▁솔직히
▁쫓기
▁콰
▁피드
▁투사
▁후면
▁김구
▁재질
▁포도
▁브레스
▁정의당
▁갈라지
▁조항
▁종로
▁아인
▁다지만
페이스
▁난투
▁거꾸
▁멘붕
▁갸
▁313
▁야망
▁팬티
▁제자리
tern
은이
▁제너
▁EV
▁숙청
전설
셉트
▁보복
▁레귤
▁분배
▁극악
고사
▁Kore
▁군데
▁소꿉친구
시티
▁볼드
ict
ins
▁LTE
▁한정판
▁감기
▁신조
▁ㄴ단
▁1976
▁슬슬
▁이세
▁난민
▁페이크
▁상부
▁두루
▁리셋
▁know
ange
ator
▁out
▁132
▁자포
▁유비트
▁제주도
▁몰아넣
▁노하
▁결의
▁약칭
긋나
처럼
▁럭키
▁표기법
▁미트
▁Sun
▁발전소
▁내뱉
▁테르
▁트랜스포
▁DI
▁페미니즘
▁테이프
▁세츠
▁조던
▁채찍
▁병종
▁set
퍼니
▁빈약
▁바나나
▁내면
▁연간
▁수확
▁해고
▁개판
▁pr
▁겨루
▁방벽
레이크
▁카테고리
▁캔디
▁근로
▁하지메
▁선봉
▁츤데레
▁로그인
▁밀어붙이
▁여주인공
▁수영복
▁1972
▁재벌
▁해전
▁쳐다보
무이
▁일산
▁바이킹
▁메디
▁종전
▁강탈
▁탁월
▁산소
▁지미
▁그랑프리
▁반기
▁feat
▁TP
▁오딘
▁표하
▁접전
▁자카
▁찰나
▁퉁
▁MO
▁도사
상가
▁메세지
▁일조
▁158
▁쿠바
▁구독자
▁ㅇ
▁정준
▁IV
▁지배자
▁환호
▁교훈
▁로렌
▁프롤로그
▁서치
▁르노
▁IP
▁콧
▁사각
▁미도리
고속도로
▁230
19
돌프
▁폐선
▁가설
▁초점
▁카이사
▁자작
▁GD
▁구호
▁레귤러
▁제인
▁스케줄
▁최하
▁1977
▁HS
▁무궁
▁제조사
▁인트
▁거꾸로
▁니코니코
▁응답
▁대등
▁프로그래
▁내정
▁마가
▁힌트
▁야마모토
▁관료
▁중급
▁다저스
활약
▁진로
▁수여
▁임진
▁스나
▁앨런
▁이점
▁High
▁필두
▁신념
▁프랭크
▁망설이
사스
▁껍질
▁랏
▁릴리스
▁무신
▁Light
▁키드
▁쥰
▁깡패
▁TE
▁리뉴
▁유능
▁소비자
▁뚝
▁충남
ME
▁대명
▁치바
▁172
▁스바루
천사
▁실바
▁줄기
▁개막전
▁태미
▁때려잡
▁컴퍼니
▁순천
민주당
che
▁테레
▁진짜로
▁정조
▁주식회사
▁혹평
▁덴마크
▁트러
키스
▁헐크
▁켄지
▁피난
▁133
▁인텔
▁댐
▁LOVE
▁감금
▁박쥐
▁재림
▁섭취
▁공국
▁얼터
▁도스
지사
▁냉기
▁파괴력
▁아폴
▁이만
▁무색
▁애쉬
▁다녀오
▁꿇
제스
▁양심
▁캐슬
▁플리
▁랜스
▁강서
▁박종
덕션
▁팀장
▁렀
▁득실
▁보트
▁바인
▁차분
▁기술력
▁Your
▁Tw
▁존슨
▁NEW
▁객관
▁구청
▁망상
▁순찰
▁배후
▁여장
▁이순신
▁148
▁수성
▁윈터
▁호응
▁저스티스
▁베어
▁연달
▁따내
▁급속
▁황태
▁일컫
▁고질
▁과감
▁펭귄
▁179
▁la
▁지성
▁최정
▁%.
▁지붕
차리
▁라시
▁제작비
▁노르웨이
▁Mr
▁OF
▁메구미
▁매지
▁미끼
▁스톡
▁앵커
ica
▁아비
▁신학
▁능숙
▁망명
▁소노
▁사내
▁어벤져스
▁조력
▁찌질
산역
▁샤오
▁레슬러
메라
▁히나타
▁트랜스포머
▁출제
박이
▁모스크바
세서리
▁오른팔
▁리터
▁장갑차
▁Gen
▁스팅
IK
▁격퇴
▁파랑
▁Mi
▁립스
▁복도
▁라이센스
▁두근
▁GTA
다드
생기
▁후쿠오카
▁교시
▁미숙
▁세례
▁게르
▁로맨스
▁포니
▁성벽
▁심히
교통
▁철갑탄
사고
▁사나이
리칸
▁섹시
▁풍경
▁제지
▁두뇌
▁케리건
▁Em
▁미모
▁잠그
▁156
▁드로
날두
▁표창
▁염두
▁탐구
FL
ex
▁제대
▁Par
▁호날두
▁쳐들어오
▁반론
▁통보
▁슈가
▁사지
▁시조
▁154
▁노래방
▁파우
▁레슬링
▁종말
▁명대사
▁능하
▁꼼수
▁유타
▁교육청
▁사소
▁노골
▁뒤쪽
▁진흥
▁안동
▁음향
▁치마
▁비참
▁여수
▁유마
▁초코
▁맹활약
▁밧
▁HARD
▁바닷
▁호무
▁청하
▁꾸리
▁재즈
▁176
▁사일
▁공립
▁중후
▁앞세우
▁MK
▁쫓아내
HT
▁호구
▁장시
▁미세
▁냉동
▁미호
▁222
▁사가
▁라든가
▁라구
▁생태
▁OCG
▁ar
▁기행
▁발탁
▁159
▁블랙홀
▁am
▁착지
▁전반기
▁분쇄
▁u
▁사르
▁맞물
▁발발
▁지요
▁성폭
▁FPS
▁응시
▁동이
▁비꼬
▁1971
▁른
▁핀란드
▁진술
▁AE
클린
▁오리온
▁죄수
▁173
▁배신자
▁전학
▁남양
▁129
▁사천왕
▁대목
티지
▁현직
▁폐허
▁혼인
▁불리우
▁통틀어
▁계곡
▁엄폐
▁에그
▁알아차리
▁리우스
퀘어
▁가라앉
▁코프
▁명탐정
▁전임
▁범하
▁수하
바스
▁레오나
CH
▁굳히
어붙
▁천문
▁책상
▁캘리포
▁PL
▁달래
▁153
▁텍사스
▁남한
▁무너
▁무너뜨리
▁굴러
▁전도
▁오쿠
▁나란히
▁프로덕션
▁안드레
▁화석
멘터리
▁시뮬레이션
▁고음
▁세키
▁나카무라
▁Kn
UT
▁가마
▁샹
▁테오
▁에메랄드
▁질풍
▁꽁
▁드리블
▁파이프
▁토막
▁선포
▁의아
pr
▁죠죠
▁Of
▁ll
▁테러리
▁캘리포니아
▁아니하
▁스탈린
▁137
▁믿음
▁세일러
슬링
▁러닝
▁오락실
▁로스터
eep
▁우산
▁맞대
▁에필
▁에필로그
▁무단
▁지각
▁인플
▁풀려나
▁래스터
▁문화재
▁GHz
▁절정
▁모기
▁이광
▁호스
타니
▁신주
▁목포
▁발렌타인
▁잔해
▁책략
▁대안
▁토가
▁혼다
▁말소
▁Ro
les
하여
▁로테이션
▁교정
▁이행
▁청룡
▁영등
▁빅토리아
▁유니콘
▁총선거
▁대교
▁불문
▁요코하마
▁로열
▁애쓰
▁280
지않
▁BM
▁골치
▁슬램
▁스텔라
▁예방
▁벨라
▁아랑
▁다큐멘터리
▁서울시
▁멋있
▁마신
▁엣지
▁얼어붙
▁총사
▁먼지
▁저거
▁숭배
▁투성이
▁225
▁물어보
▁십자군
▁격하
▁was
▁1969
▁Per
▁야당
▁두목
▁레바
▁중공
▁174
▁카즈야
▁델타
▁주파
더기
▁GPU
▁라던가
▁미식
▁월요일
▁오바
▁네스
▁악곡
아슬
▁처녀
▁신세계
▁아슬아슬
▁심연
▁139
▁기쁨
▁골목
▁163
▁Heart
▁분포
▁하의
플러스
▁깽
▁143
▁단의
▁134
볼루션
▁가로막
▁발하
▁167
▁땀
▁나사
▁짤리
▁버터
▁Fe
▁TO
▁블라디
컨드
▁누이
▁따라잡
▁해상도
▁열기
▁~~
▁오타쿠
▁세컨드
▁로지
▁면접
▁스페인어
▁이준
반신
총장
▁스파이크
▁보디
▁루루
▁필라
▁함성
▁상장
▁쓸데없이
▁김도
▁전광
▁건너가
▁최대치
▁CO
▁Good
▁퍼시
▁원망
▁왕관
▁2500
▁청사
▁142
▁화약
▁태권
▁부처
}}
▁맞물리
▁스윕
▁관광객
▁인구수
▁CN
▁진하
▁유나
▁배리어
▁beat
▁끝장
▁용의자
▁인사이드
▁국기
▁선수단
▁히카리
▁미유키
▁연기력
▁항공사
▁드레드
▁스토커
agon
▁ㅡ
▁퓨처
▁퍼붓
부인
▁추모
EL
▁트레이닝
▁스트로
ert
▁164
▁하후
▁무안
공화
▁왕후
▁전수
▁패닉
에몽
▁yout
▁반란군
▁What
▁비로
▁그제
▁해태
▁끓이
▁하우
▁우투
▁ONE
▁기소
▁야마다
▁실로
▁음색
▁제단
▁기이
▁뉴질
▁심야
▁뉴질랜드
▁거르
▁김천
▁청장
▁틀어
▁불쾌
▁선인
▁구제
▁극우
▁직통
▁킹덤
▁마의
▁홍성
▁리부트
▁직격
▁회로
▁콘셉트
▁관계없이
▁달라
▁벚꽃
▁야전
▁136
▁악령
▁뱉
▁로브
려보
▁Dark
▁페르시아
▁패스트
▁공고
▁동아시아
▁pro
▁이인
▁개그맨
▁바닐라
▁KC
▁김연
▁템포
프란
백과
▁어긋나
▁서장
▁오프라인
▁라임
▁방안
▁지극
▁징크스
▁일환
▁쓰러트리
▁안철수
▁랙
▁적립
▁조준경
디스
▁쫓아가
▁경찰청
▁완구
▁텀
립트
▁제이슨
▁사범
좀무
▁유고
▁흠좀무
▁아이스크림
▁0900
무실
▁궁전
▁한층
▁유선
▁자부
▁훈훈
▁동사
▁알렉산더
▁숙주
▁유해
▁중심지
레이트
▁모던
▁경지
▁번갈
▁화소
▁time
무게
▁157
▁몸무게
▁330
▁어린아이
ideo
▁깃들
▁더구나
▁메이트
▁참으로
▁세미
▁중년
▁연의
▁타고
▁출고
지오
▁뮤지션
▁핸드폰
▁모양새
▁체격
▁혼동
티넘
▁플래티넘
▁갈리아
▁Sm
▁열세
▁카니
▁근력
▁술집
▁양대
▁미라이
▁라바
▁Sl
▁순정
▁내뿜
▁문신
▁1963
▁방호
▁앞뒤
풀이
▁브루스
▁안토니
▁제우스
▁주한
▁호박
▁연금술사
▁휴스턴
▁레프
▁브이
▁패드
애나
other
▁대중교통
ors
▁우천
▁정서
▁하카
▁져
▁창립
▁외면
▁사투리
▁설탕
air
▁270
▁성숙
▁에일리
▁Blue
▁오키나
▁출연진
▁샤를
▁좌파
land
▁저조
▁침해
▁코즈
▁전반전
▁워너
▁눈빛
▁집필
▁플라스틱
▁Baby
▁본의
▁외관
▁줄리
▁AG
▁시흥
▁투신
▁스케이
▁ab
▁Ac
▁농민
▁제프
▁클라우드
iew
▁장례식
▁타당
▁나뭇
▁유코
▁박상
▁1968
▁꿰뚫
▁저러
anna
▁대진
▁신수
▁전라북도
▁제사
▁죄송
▁깨알
▁환사
▁타다
▁전열
▁테러리스트
▁우상
▁도시락
▁냅
▁하이브리
▁체스
▁미티
▁선교
▁미니언
▁하이브리드
▁장풍
▁해독
▁벌금
▁히로시마
▁테루
▁샤워
▁동호
▁수시로
▁청나라
▁세스
▁브레인
▁기피
▁오비
▁ㄹ라
▁브론즈
▁방언
▁무수
▁악하
ush
▁이아
▁김대중
▁부사관
▁자칫
▁집합
▁취지
▁적성
▁멜론
▁허브
▁Li
▁후루
▁센트럴
▁희대
▁심상
▁149
▁모어
▁각국
▁ㄹ려고
▁헤일
▁공영
▁담임
▁하비
▁몰아붙이
▁트러블
▁공모
▁총독
▁마켓
▁후쿠시마
▁방공
▁경제학
▁푹
카미
▁가혹
토리얼
▁강세
▁모함
▁Fire
▁남미
▁사탄
▁상쇄
▁브레이브
▁기하
▁조교
▁쳐내
▁넉넉
▁지문
▁146
▁기함
▁확고
▁튜토리얼
르도
▁마초
▁되살리
▁오리진
▁격전
▁암컷
▁황실
▁연회
▁주의자
▁크롤
▁베일
▁거품
▁종착
▁260
▁OK
▁환수
▁리액
OID
▁El
▁프로토타입
▁라프
▁하여금
▁심화
▁낡
▁페이커
▁저희
▁일삼
na
▁경과
▁마테
▁아르카
▁유니온
▁소사
▁럴
▁빈틈
▁Dis
▁프렌즈
▁일레븐
▁월등
▁섹스
▁웨인
▁BEMAN
▁초상화
▁줌
▁찰리
▁인체
▁밀어주
▁장동
▁지난
▁루키
전트
▁미스터리
▁수다
글라스
▁일품
▁초교
▁실력자
▁병장
▁상공
▁원자력
▁타카시
▁성비
▁프로모
단지
▁방화
▁랩터
▁DJMAX
▁공손
▁개미
▁다기
▁브랜
▁성기
▁파격
▁오의
▁BEMANI
▁맥락
▁슈터
두사
▁sm
▁므
▁별칭
▁레이너
▁속력
▁적재
▁고추
▁합법
▁포워드
▁쎄
▁석상
▁중학생
▁운반
▁클러
▁핸들
▁ㅓㅆ었
베트
▁신병
▁격기
▁고성
▁Champ
▁수량
▁미즈키
▁ㅏ야
▁도검
▁문법
▁주가
티노
ady
▁배우자
나리
▁야만
▁다이노스
▁자질
▁속공
▁말년
▁무선
▁STR
▁생선
▁연말
▁편견
넘기
레드
▁프랜차
▁하반기
▁빈번
▁파손
▁데스티니
▁우편
▁fl
▁오세
레슬링
토랑
▁명명
▁레스토랑
▁박명수
▁cc
▁북구
▁스트리밍
▁말아먹
▁뒷면
▁본가
▁매기
▁쐐
더링
▁발차기
▁피카츄
▁보구
▁유승
▁유유
ution
▁프로레슬링
▁통행
▁Pre
앙스
▁kr
▁Ev
▁불화
▁프랜차이즈
▁더라면
▁미로
구역
▁소령
▁205
▁주고
▁평창
사벽
▁DB
▁넘사벽
▁수컷
▁리바운드
▁수령
▁솜씨
▁뚜껑
▁퇴역
▁호출
더슨
▁앤디
▁가브리
▁선곡
▁프리즘
저드
▁맴
▁추출
ium
▁니나
▁단식
▁탯이
▁뽐
▁550
▁뉘앙스
▁1967
▁격리
▁대승
스틴
▁경질
엘라
▁박용
▁독립운동
메어
▁당국
▁진구
▁하라
▁자각
▁정형
▁부친
▁RP
▁클립
▁정체불명
▁전염
▁Summer
치아
석민
▁정재
▁하와
▁아메리칸
▁재빨리
▁타나카
▁신임
▁원흉
▁앞면
래스
▁디비전
▁애국
▁Grand
▁강점기
▁라나
▁이방
듈럼
▁질환
▁일례
▁부관
▁석사
▁나레이션
▁증인
▁털어놓
▁블래
▁간호사
▁교통사고
와라
▁무죄
▁광전사
▁운석
미르
▁잊어버리
▁GG
▁우가
▁우파
▁개개
▁메우
▁나이트메어
▁Rock
▁네코
▁츠바사
▁나열
▁원작자
리드
▁노블
▁콕
▁게임즈
▁가의
▁미들
▁오시
▁넥서스
▁147
▁하드웨어
▁퓨리
▁플레어
▁몹시
▁범행
▁펜듈럼
▁조그
▁미팅
▁총평
▁내셔널
▁동년
▁여관
▁211
▁무명
▁우체
▁무고
▁수수료
모어
퍼드
▁페인
▁특이점
현우
▁토마토
▁브라우
평가
▁입국
▁유신
▁SCP
▁소리치
▁Over
▁드릴
▁원종
▁탄탄
통수
▁줄어드
gain
▁배속
▁복면
▁은메달
▁back
▁아까
▁유무
▁하시
▁동등
▁만루
▁버릇
▁전례
▁멀리서
▁공습
▁저것
▁타고나
▁푼
▁체형
▁호노
▁말레이시아
▁대외
▁퓨어
▁감전
▁더하
노스케
▁쫓아오
▁군림
▁LED
▁day
▁아이폰
▁포식
▁메모
▁통수
▁인어
▁Dance
▁호그
▁게시물
▁텅
고래
▁실루
▁싣
▁재활
▁강팀
▁힐링
ction
▁떄
▁사슴
▁에바
▁방과
▁별자리
▁속박
▁추궁
▁십자가
▁광속
▁아래쪽
▁영등포
▁전두
▁파문
▁그리드
▁심문
▁뭔
▁DR
▁옌
▁살인마
▁대패
▁리키
▁무슬
▁서두르
▁권능
▁사교
▁온몸
▁VOC
▁관절
▁This
▁동북
▁알렉산드
▁홀딩
▁함재기
▁한강
▁폴리스
▁염색
▁픽셀
▁제보
▁now
▁대군
▁배송
▁내구력
ne
▁이창
▁노비
▁호투
▁SL
▁루팡
▁미스트
트랙
결승
파리
irst
▁거니
▁경순
▁밀치
▁점사
▁Wii
▁격침
▁교내
▁But
▁노트북
▁직속
▁발라드
▁진도
▁오디오
▁박탈
▁속편
▁라파
▁Gold
▁무제한
츠카
▁미수
▁길거리
▁박재
▁3164
▁통증
▁레이첼
▁어느새
▁여배우
▁목재
▁캐스트
▁카우
▁박영
▁발현
▁하행
▁기괴
기사
▁Ste
▁해적단
▁상행
▁HG
▁보행
▁시초
▁우물
▁채취
▁박찬
▁자격증
▁화내
ount
▁MSL
▁요리사
▁공천
▁새우
▁에도
▁가창
▁무슬림
▁증가량
▁성직자
▁륙
▁리엘
▁격투기
▁왕좌
▁동메달
▁클레이
콥터
▁교양
▁쫄
▁DX
▁스퀘어
▁불평
▁국민당
▁타치바나
▁HK
박히
▁ㄹ지라도
▁무사시
▁단말
▁빌보드
▁안드로
let
▁FL
▁구타
▁지지자
▁남발
▁첫날
자동
▁성수
▁셋째
▁Just
▁자니
▁스네이크
▁대공포
▁머릿
▁줄줄
▁동로
▁창세
현진
ring
느님
▁닉스
▁별점
▁방송인
▁둥글
▁기획사
▁달라붙
▁누명
▁쇼트
▁여친
▁일일이
▁농락
▁1966
플렉스
▁미사키
▁가성
▁뒤통수
줌마
▁지온
▁204
무네
▁번식
▁삼촌
▁증발
DS
▁동문
▁리턴
▁멸종
▁손톱
eng
▁샌프란
▁샌프란시스코
▁어설프
▁하느님
▁오키나와
어쓰
▁회복력
▁물가
▁명나라
▁DNA
레일
▁스킵
▁아줌마
▁TW
▁크리스토
▁독수리
▁혼합
저것
▁이것저것
▁동조
▁pt
▁수강
▁좁히
▁찢어지
▁책정
▁166
▁대쉬
▁제스
▁회견
▁공존
▁비즈
▁뷔
▁프로모션
▁몰아내
▁사망자
▁기합
▁경감
▁사모
▁괴력
▁카구라
▁스크립트
▁네놈
두리
▁셸
▁커트
▁쓸어버리
▁news
▁명곡
▁직무
▁후대
▁사우루스
▁다이스케
▁주심
산동
▁공자
▁복용
▁코바야시
▁포효
▁Korea
▁CA
▁사료
▁돌아보
▁정크
▁VOCAL
▁친목
▁Can
▁악어
소수
▁셰프
▁반짝이
▁회귀
▁단과
▁트렌
▁롤링
▁시가
▁한숨
▁기술자
▁슬로우
파크
▁정정
▁호프
메스
▁카이토
▁인쇄
▁현상금
자재
▁휩싸
▁이례
▁급히
▁연고지
▁인천광역시
ina
▁계란
▁FB
▁접어들
▁회오리
스트림
▁도라에몽
▁동족
▁필터
▁카르마
▁실습
▁아카리
▁키트
▁박치기
ERO
▁헬리콥터
프라
▁Sec
▁레이트
보그
▁고조
▁캐리어
▁박해
▁스냅
▁650
▁KTX
▁MHz
▁비타
▁비로소
▁신정
UR
▁김원
▁분장
▁만행
▁장원
▁니카
▁타시
▁회심
▁로컬
조합
커녕
상가상
▁부류
▁진수
▁설상가상
▁......
▁포대
▁홍진호
▁피스트
▁광대
▁프린스
▁미판
소문
▁시부
▁Music
▁토이
▁루마니아
▁로저
▁우메
▁디렉터
티콘
▁경보
OO
▁듀크
▁빠뜨리
▁브릿
▁EBS
▁At
▁박경
▁얕
▁난감
▁이속
네이터
▁셉
▁하리
▁김형
▁문어
▁미하
▁반군
▁유영
▁천마
▁분홍색
▁Su
▁유난
ally
▁리플렉
▁가급
▁태극
▁파수
▁퐁
▁총열
▁실루엣
▁살상
▁슬퍼
▁선우
▁Ep
▁감행
▁보살
▁괴상
▁바티
니카
▁갈아타
▁프랑크
▁병살타
▁개연
▁로코
▁망령
▁열람
▁한발
▁스완
▁Live
▁유정
▁똑똑
▁레즈
▁미성년
▁짚
바다
ART
▁GN
▁습관
▁퍼센트
▁텍스
▁뽕
▁아타
▁Comm
▁무진
▁입양
▁케이지
▁항아리
▁1962
▁어퍼
마당
▁장학
▁조직원
널드
▁대마
▁달빛
▁딸기
▁카가미
▁해치우
▁관직
▁츠나
▁BF
▁진정하
▁암울
젤레스
▁학점
▁고토
▁요시다
▁야외
▁춘천
▁그리하여
▁콜롬
장난
▁경유지
▁악의
▁가미
▁고릴라
▁MX
▁재직
▁홈즈
▁진리
▁험하
▁엘리스
▁서태
▁`
▁돌격소총
▁발광
▁가나
▁금색
▁레기
▁리티
▁위키백과
▁목동
▁끼어들
▁키무라
누르
son
▁단정
▁판권
▁기법
▁양보
▁영진
▁UF
▁사이보그
▁대인배
▁주거
▁클라이
▁진성
▁코다
▁후문
▁get
▁주되
▁뇌물
▁바주
use
▁강수
▁천공
▁김명
▁파벌
▁요시노
▁카에
▁고든
▁1800
▁연발
▁코요
▁받치
▁저서
▁똘
▁섀도
문트
▁용감
▁소절
▁천둥
▁도청
▁북아
▁스퍼
얼거리
▁ㄴ들
▁구급
▁경쟁자
▁세탁
▁안보
▁169
관총
▁투니
▁오케스트라
▁레이나
▁빼내
▁서민
▁GR
tr
▁응하
▁바니
itch
▁뢰
▁예지
▁산책
▁Power
▁gr
▁라드
▁디펜스
▁단속
▁사스케
▁Leg
▁Af
▁Res
▁베이더
▁잠재력
▁주황색
▁차용
일라
▁실업
▁귀하
▁법안
▁++
▁번트
▁한탄
▁로저스
attle
▁돌이
▁ㄴ다던가
▁외롭
inn
▁볼텍스
▁수용소
▁Hard
▁타니
체스
▁바그
▁man
▁치사
▁MR
▁결사
▁그랜
▁급기
▁RC
▁꽂히
▁송출
▁저렇게
▁어미
▁조력자
▁행방불명
▁처절
▁장제스
▁추적자
▁1940
▁배상
▁Pv
▁ARM
▁UI
▁남작
▁자판
▁영남
▁전속
▁저상
▁히토미
▁접점
쌔신
▁쿠루
▁어쌔신
75
▁혹사
▁슬퍼하
▁직결
▁청원
니클
▁넓히
▁은혜
▁전산
▁교관
▁커비
▁수복
▁마요
못미
▁열악
▁지못미
▁거스르
▁페이트
▁Ma
▁월급
▁리조
▁우습
▁공약
▁제다이
▁따라다니
▁코이
▁쐐기
▁크리스티
징어
▁출중
▁호로
▁숙이
▁경선
▁냉각
▁런닝
▁배기
▁Life
놀이
▁고산
▁ADV
▁미코토
장이
▁편안
▁응원가
▁진행자
▁블래스트
▁워낙에
▁Sing
XT
▁마운드
▁구두
▁준결승
▁제원
▁매너
▁Che
▁Master
▁여정
▁보잉
TC
아라
▁but
▁노려보
▁카밀
▁카즈마
▁공과
▁으리라
▁천주교
▁독서
▁화나
▁기복
▁라오
▁동요
ern
▁켈리
큘라
▁느니
▁카를로스
규모
▁닫히
▁출근
▁피치
▁정확도
▁무르
▁아이유
▁VOCALOID
ars
▁코파
▁트리스
▁나들
▁설화
토르
▁모닝
▁쪼개
▁선방
▁준공
▁나들목
▁김두한
▁출루율
▁튜닝
니스트
▁미끄
▁LCK
▁망가
▁슬리
▁키사
asy
▁Fem
▁근성
▁Rem
준표
▁예언자
▁ㅋㅋ
▁광탈
▁무효화
▁탈당
▁가호
▁실정
▁무빙
▁주고받
▁뷰티
▁시가지
총리
▁데우스
▁갈라
rain
▁휴게소
▁훅
▁감히
▁리전
▁co
▁여권
▁호기심
▁베인
IE
▁동탁
▁충청북도
▁Lo
▁불신
UE
▁im
▁채집
▁동체
▁Out
▁부럽
▁러시아어
▁원활
▁농사
▁사출
▁한도
▁카오리
▁형편없
▁1944
▁헤매
▁전세
▁증기
▁""
▁토로
▁네이트
▁더비
▁일어서
▁지주
▁당첨
▁댄서
▁쩔
▁반대편
▁1930
▁부흥
▁픽업
▁야심
to
▁비장
▁OPS
▁이변
▁실명
▁매출액
▁제라
▁교향
▁전두환
▁금호
ana
▁재사
24
▁야시
▁징징
▁사안
▁부당
▁더욱이
▁카디
▁매칭
▁소매
심장
▁사당
▁뽐내
테이
▁늦추
▁포트리스
▁궤적
▁열등
▁불어
▁창병
▁상용
▁무림
▁득점자
▁간선
▁체리
▁금화
▁일절
▁구단주
▁카노
▁151
▁포맷
▁노기
▁차후
▁OB
▁다짐
▁자회사
cl
▁구마
▁문고
▁시에
▁태자
▁유방
▁자처
▁탬
년기
▁농협
▁이질
차례
▁내수
ield
▁중전차
▁학술
▁999
▁End
▁등교
▁괴리
▁서지
▁저리
▁256
▁친정
▁신칸
▁성역
▁숀
▁모범
▁이은
마침
▁동지
▁인벤토리
▁매달
▁목적지
▁이노우
▁민정
▁테일러
atic
▁유난히
코어
▁준하
▁초선
▁팔찌
▁세레
▁Fi
▁허공
▁지극히
▁군복
▁사극
▁동갑
▁교감
▁때마침
▁부호
▁POP
▁신칸센
riend
▁Hell
클럽
▁수식
대기
▁잔디
▁깽판
▁소시
▁지표
▁스타팅
▁시스터
▁샨
▁PVP
▁막아
▁코타로
무소
▁어리석
▁함포
▁못지않
▁김일성
▁세세
▁퀄컴
▁법학
▁서해
▁Miss
▁배열
▁아이언맨
▁라지만
▁이용해
▁1965
지부
▁쿠노
▁세일
▁클레어
▁야마구치
▁충북
▁향기
▁빅토르
▁불로
▁확립
▁Air
▁1964
▁순교
▁안성
▁숏
▁수험
▁필연
▁SG
▁가뜩
▁쿠시
33
▁night
▁신대
▁부대원
▁엿보
▁포토
▁아몬
▁음주
▁타나
▁파파
▁마차
ittle
▁구절
▁애교
▁웨어
▁커먼
▁리마
▁스캔들
▁개개인
▁쑥
▁sc
▁센티
▁6000
LS
▁본성
▁애시
▁에일리언
▁발악
▁교직
▁가뜩이나
▁조폭
▁집중력
▁카스미
▁아카이
▁설비
▁럼블
▁트로이
▁휩싸이
▁정동
▁q
▁서정
▁영동
▁이치고
▁380
▁오징어
▁고요
▁Hy
▁보리
▁일본식
▁Vo
▁역병
▁아홉
뮤직
▁가급적
▁콜드
▁절규
▁just
▁바비
▁케로
▁연구실
▁랜턴
▁후예
▁바주카
▁스타크
▁세나
▁VR
▁악랄
▁신흥
▁반항
▁고폭탄
▁중견수
▁밋
▁넥슨
▁수녀
▁자주포
▁국산
▁액셀
▁팔라딘
▁손아
▁Mod
▁반갑
28
▁볼륨
▁소동
▁설계도
▁출몰
▁폿
▁패미
▁자크
▁직역
▁김택
▁레몬
▁임원
▁쏠쏠
▁토오루
레스트
▁챌린저
▁그려
▁로딩
▁샤크
▁스콧
▁왠만
▁Di
▁포지
▁라틴어
▁상체
▁아델
▁차관
▁직구
▁소감
▁게릴라
▁시코
▁노엘
▁MT
▁페니
▁성형
▁토네
▁접근성
▁이야말로
▁승려
▁학번
▁연비
▁강행
▁강판
▁EMP
▁Sy
▁1920
사관
▁야드
▁전폭
▁차선
▁일렉트로
▁즉각
▁따돌리
▁예장
▁조영
▁서대
▁마도사
▁YOU
▁수상자
블릿
▁King
▁도요
▁tvN
▁소규모
▁공산주의
▁매스
▁하타
▁XXX
▁칙
▁파이브
▁what
▁첨단
▁총탄
▁Ang
▁가르침
이센
▁노조미
▁노이즈
ony
동원
▁기성
▁남동
▁최영
▁호쿠
▁IG
▁리우
▁상가
▁페가
란트
▁용맹
▁무전
▁자신감
▁악용
▁건재
▁시몬
▁다비
▁패기
▁살피
▁전리
숨에
▁단숨에
▁한심
▁진료
▁펠리
▁퍼부
▁UFC
▁재사용
▁태조
▁오로라
▁인터페이스
무기
테이너
포드
▁서킷
▁콘티
▁샤프
▁안산
▁리에
▁광신
▁밀집
▁양측
mania
▁빈사
▁크루즈
▁드라군
▁동인지
로프
▁타케시
▁퇴출
▁자수
▁마에다
▁바루
▁생산력
▁밀란
▁먹방
▁밉
▁샴
▁박격
▁초사
▁STER
▁카린
▁타국
▁적진
▁수고
▁사임
▁퇴사
▁공성전
▁카무이
▁리쿠
▁실황
▁와이어
▁딱딱
▁자연수
▁드라큘라
▁오인
▁에밀리
▁우아
▁원고
▁쿠파
▁플루
▁길들이
▁카타르
미스
▁말미
ma
▁운운
▁이우
▁타노스
▁0000
▁EA
▁스피커
▁원내
▁대상자
▁옵티
▁만료
▁저격총
▁솔라
▁승천
▁재난
▁수비진
▁소극
▁안면
▁카탈
▁허위
▁사사키
▁페르난
▁카지노
▁Cy
▁은밀
▁로사
▁총격
▁게리온
어먹
타르
▁웨이트
▁뮬
▁이선
▁대주
▁변질
단체
▁학회
▁대대로
▁지그
▁파인
▁프랭
▁IDOL
▁덫
▁대출
▁선대
▁멀쩡히
곡동
▁유토
▁벅스
▁포럼
▁깁
▁진가
▁투하
▁1600
▁메테오
▁랴
밀리아
▁관동
▁131
▁목요일
인드
터스
▁태세
▁스티커
▁선제골
be
▁낙인
▁스위트
▁소용돌이
ual
▁장편
▁무궁화
▁Run
▁보증
▁치명상
▁카이사르
▁아이리스
▁초당
▁되살아나
▁생산량
▁white
▁초래
▁부평
▁마사키
▁괴담
▁SV
▁MASTER
▁좌표
▁마이트
▁야쿠자
▁케이트
▁가브리엘
▁광복
▁MLB
하하
▁일진
▁물리학
회장
▁수요일
▁다단
▁염려
미즈
▁경성
▁축적
▁자유자재
▁천계
▁사에
▁민원
페르
▁외래
▁청산
▁UM
▁램프
▁내야수
▁우체국
▁이승만
▁원호
▁우루과이
▁골리
▁전교
▁전편
▁대각
ecial
▁아이작
▁하야토
▁부도
▁벡터
▁입학식
▁단골
셔츠
▁마징
▁통신사
▁사로잡히
▁SO
▁마징가
▁태블릿
▁School
▁다중
▁방금
▁동창
▁빅뱅
▁백합
▁분기점
▁뒤덮
권자
무장
ane
▁미타
▁서초
▁아야카
▁칠레
▁호전
▁결함
내리
▁물들
▁테이크
▁달걀
▁장타율
▁인맥
▁가축
▁대파
▁영미
▁경매
▁흑화
▁김전
▁Rec
▁꺾이
▁욕하
▁지상파
▁강성
▁소실
▁마커
▁Sound
▁렀다
▁주방
▁Art
▁궁지
▁도도
▁탄도
범죄
Fat
▁마운트
▁증권
▁재위
▁사쿠라이
▁박준
▁쉘
티어
ope
▁미시
▁제시카
▁피드백
▁홍준표
▁막바지
ret
▁허구
▁don
▁마이너스
▁Arm
▁김희
▁BAS
서야
▁베가
▁아루
▁인내
▁합당
▁피에
▁여고생
니즘
부시
질기
▁대법원
▁끈질기
▁적료
▁way
▁레지스
퇴근
▁어인
▁계열사
▁소설가
▁Femme
▁리트
▁일련
▁마모루
▁히노
▁루카스
베르트
▁강적
▁컨트롤러
▁설레
▁이과
▁캐롤
▁괄
▁고속도
▁둘러싸이
바퀴
▁시집
▁로스앤
▁로스앤젤레스
▁부츠
▁이마트
▁고속버스
수수
▁EM
▁그닥
▁매수
어찌
▁바이스
▁완수
일으키
▁세르비아
▁불러일으키
▁Rev
ision
대교
▁헌신
▁Cat
▁소피아
▁경희
▁기밀
▁플래닛
▁스코프
행위
▁양국
▁당나라
▁리베
▁박주
▁비시
재판
▁고어
▁오너
에이터
려드
▁간략
▁두부
▁소행
▁계좌
▁동래
▁김전일
▁WE
▁부식
elf
▁Ge
▁작별
▁브라더
▁VIP
▁어드밴스
▁프로리그
▁발칸
▁태그팀
▁레이터
▁자진
▁어찌어찌
▁총괄
▁튀기
▁모친
▁DO
▁원천
▁제르
▁실무
▁슈퍼스타
▁공방전
▁무작정
▁불멸
▁일보
Fatale
▁빨강
즈카
카즈
▁FemmeFatale
▁이가
▁지령
▁페더
we
▁식신
▁피처
▁쿠르
▁꽝
수스
▁극소수
▁요하
▁경량
▁그놈
▁입술
▁발전기
▁사용법
야샤
▁이누야샤
▁편대
▁1961
str
▁무언
▁파산
▁할리우드
▁우크라
▁크로니클
▁석궁
▁족장
▁시궁
▁군기
▁뒤집히
▁여당
ational
▁하세
쿠로
▁술법
▁Yeah
▁대잠
▁예명
▁제멋
SS
▁마작
▁다이나
▁성도
▁다던가
꿈치
수아
▁자취
▁진작
ouse
▁돌아서
AG
▁황태자
▁회화
▁넵
▁공로
▁ㄱ
▁쓸데없
▁방황
▁이스터
▁그려지
▁정계
▁에이전트
▁허세
▁화수
▁후타
▁아의
▁연금술
▁메꾸
▁반말
▁대본
▁소진
▁이에
▁광석
▁수락
appy
▁미츠루
같이
▁양파
▁NHK
▁얼핏
ORE
▁정명
▁초필
▁호노카
▁배지
▁혼종
▁Order
▁섬유
▁신디
▁하임
▁가명
▁효과음
▁유로파
▁팝픈
▁팝픈뮤직
▁악세
▁반환
▁1100
▁소심
케인
▁창업
▁껄
▁하워드
▁MD
▁수준급
▁병단
휴일
▁양키스
▁헬스
▁스플래시
▁스칼렛
▁하부
▁토론토
▁네모
스트로
▁이치로
라이나
▁검은색
▁Elect
▁뛰쳐
▁아그
▁바하
▁양현
▁키퍼
▁애당초
▁아즈사
언정
▁성채
▁br
▁엄지
투아
▁교섭
ness
▁주범
▁급기야
▁천적
▁코카
▁당원
▁카도
▁EXH
▁김혜
델피아
▁필라델피아
▁점거
▁주작
▁제정신
▁택배
▁완전체
▁기미
▁정립
▁삼거리
▁키리토
▁TCG
▁적발
축구
▁자잘
▁블레이즈
▁프로세서
▁미지수
▁펄스
▁한몫
▁후일담
시계
▁상회
▁교주
▁소피
▁카가
▁CON
▁과부
▁아멜
▁폭동
▁기마
▁미라클
▁어비스
▁서드
▁좌익수
▁이안
▁루이지
▁복싱
▁매진
▁신주쿠
▁시엘
▁옵티머스
투수
▁요미우리
▁연예계
▁파고들
▁RG
▁당주
▁말장난
inc
▁선발투수
▁조형
▁태종
▁로만
▁전리품
▁결장
▁스크래
▁광범
▁나고
▁종일
▁흐리
▁깊숙
▁조운
▁들려오
▁콜로니
▁프랑켄
저트
▁기한
▁운항
▁프론트
▁라자
▁수평
▁적색
▁다인
▁스왑
▁대사관
히트
▁든가
먹이
▁쓸모없
▁후궁
▁고령
▁양호
▁빼돌리
그룹
▁냉전
▁지망
▁사이퍼
▁본디
▁연하
▁휴일
사이드
우루스
▁214
▁리노
▁경장
▁SHOW
▁폴더
▁키워드
▁이노우에
▁dis
IV
▁씁
▁도호
▁도리어
▁호세
▁탄종
▁피곤
제국
▁리브
▁부추
▁재고
▁소이
▁비토
▁임창
▁손흥
▁정거
▁도전자
▁볼프
▁유포
▁일쑤
▁공휴일
날드
day
사의
▁고독
▁작살
▁정은
데아
▁world
▁강유
▁성추
▁압살
▁She
▁교란
▁기온
▁당분
▁대표작
▁히데요시
its
▁유서
▁beatmania
▁신이치
▁프런트
▁노숙
▁명작
▁Da
▁속삭
omb
▁산악
▁루터
ham
▁후안
▁불사조
▁340
투표
퍼런스
▁다이브
▁아지트
▁도쿠가와
▁더스트
▁예비군
▁승기
▁건전
▁돌려보내
▁초토
▁정교회
▁콜라보레이션
▁섭외
▁언행
▁시한
▁정류소
▁손흥민
▁킹스
▁141
▁난전
▁ㅅ
▁셀프
▁탄소
▁애프
▁에리카
▁툼
▁윌슨
▁개인전
▁레스터
EX
▁토탈
▁상속
▁제이드
▁들이대
▁직감
▁행태
▁오버로드
▁스폰지
▁쟁탈
▁텔레비전
▁naver
▁까닭
▁여사
아티아
▁크로아티아
▁확연히
▁해수
▁사부
▁엑소
▁지기
▁프로이센
▁상대식
▁박격포
▁폭발물
댓말
▁존댓말
투르
▁다툼
▁게임기
세데스
▁메르세데스
▁오클
▁ap
▁캐서
ious
▁프로그래밍
▁불가사의
▁셜록
▁창당
▁한조
▁출퇴근
▁구자
▁캡콤
▁느냐는
▁공익
==
▁액세서리
▁어처
▁트린
▁미성년자
▁오모
▁현명
▁장병
▁하드코어
▁스크래치
▁동봉
▁폭사
▁합창
▁글러브
▁도피
▁옥타
▁올라서
▁자연스레
▁김창
▁상권
▁정거장
▁합하
인간
▁제식
▁좀비
▁광범위
▁신축
ivers
▁SW
▁te
▁증세
▁양주
▁지자
▁디디
▁싱어
▁위즈
▁까먹
27
▁바우
▁스파르타
▁Not
▁^
요환
▁시그마
▁입맛
▁평원
▁Ke
▁표본
▁겨누
▁RAW
▁로망
ANC
▁서원
▁종사
▁저번
▁상반기
패스
▁장안
▁군함
▁리액션
aut
▁네메
▁다정
▁진군
▁미끄러지
▁막부
▁위탁
▁윌리엄스
▁코시
매니아
olution
▁든든
▁화자
▁DEF
▁피라미
주리
▁세션
▁거느리
ERS
▁라지
▁상표
▁공동체
던트
▁반다이
▁사이오
▁러셀
▁위화
▁프리즈
23
▁국력
▁임요환
▁With
▁캐서린
▁프리스트
▁체질
▁술탄
데르
레미
▁아부
▁질량
▁망자
▁송구
▁아역
▁마음껏
▁Every
▁정장
▁정세
▁브릿지
▁와우
▁체이
▁마이어
▁넘쳐
▁라거나
UC
▁오재
▁전전
▁군사력
▁해커
▁뾰
라이어
▁내걸
▁백미
▁꼭두
olog
▁랫
▁1943
▁310
▁호르
▁김준호
▁왼팔
▁카바
▁어처구니
무늬
스톤
▁제구
▁탈옥
아아
▁외출
▁손바닥
▁코이치
▁고장나
▁방정
45
▁안나
▁박병
▁관념
▁수원시
▁환각
▁007
지리
▁집결
▁시즈카
▁평민
▁듀티
66
▁무상
▁짤방
▁쾌속
▁사다
▁열받
▁최면
▁최우수
▁렴
▁신원
▁대문
▁옐로
▁낙원
▁나나미
▁주파수
29
▁Chr
▁도모
▁FR
▁가솔
▁해운대
▁표출
▁피츠
▁촛
▁추석
무니
▁나날
▁생사
▁원제
▁논하
▁김정은
▁순진
▁미야자키
▁시저
▁**
▁TB
▁어우
▁스루
▁르네
▁경찰관
▁정중
▁Get
▁분경
▁화요일
▁우시
▁대명사
▁시노부
▁보답
icro
▁기총
▁대부
▁커터
▁소수자
▁Boy
▁벵
▁사과문
▁Skill
조각
▁김세
▁비오
▁불상
즈마
▁CT
▁비하인드
데기
▁굳어지
▁토네이도
▁가출
▁메라
▁흡연
ty
▁재임
▁류현진
▁는군
▁연희
▁1946
▁if
▁예배
▁Har
▁부여받
▁720
▁영화판
▁빡빡
ny
▁중앙선
ely
▁탐욕
▁키메라
reat
노기
▁작아지
나드
▁줄곧
▁양아치
▁자발
킨스
▁지침
베르토
▁1942
▁무협
▁Des
▁무자비
▁슈타인
▁아폴로
▁당당히
▁에덴
▁커리
▁반칙
베리아
▁민영
▁스님
▁인즈
받침
▁켄타
▁한스
리에
▁금기
▁1954
▁마더
▁육지
▁추첨
▁홍대
▁후유증
▁캉
▁마누
▁바오
▁영분
소스
▁담당자
▁리포트
▁혜성
▁걸작
▁만세
▁=,
▁북방
▁Ab
▁추이
▁의미심장
▁발상
▁초고
▁진흙
▁리젠
▁취직
의사
▁이동하
▁>,
▁섬세
▁지름
▁웨일
▁걸어오
▁1958
▁영기
▁480
▁DA
▁부메
▁드리프트
▁설득력
▁생물학
▁이어인
▁교화
▁단테
리우스
ters
라이즈
▁171
▁사마의
▁체가
▁단조
▁예리
▁대용
▁졸개
ient
▁시력
▁듀엣
▁매복
▁수작
▁방어선
▁미상
▁Big
▁다이어트
▁가든
▁괴도
▁PSP
▁부메랑
테스
▁미디
▁윈스턴
▁전태
▁견인
▁충성심
▁CCTV
▁차종
▁성체
▁츠루
▁Tri
▁튜너
▁성녀
▁1900
▁석화
▁양념
버린
르기
▁유행어
▁조율
▁협곡
▁제이스
▁총사령
▁굴복
▁카운티
▁임관
▁UR
▁피리
▁181
▁png
▁만류
크리트
▁문헌
▁빡세
▁자문
▁트림
▁8000
▁세간
▁DT
▁선공
▁복음
▁피어
▁어워드
▁잉크
▁kn
▁경쟁력
▁군벌
▁스탠다드
▁메스
칼리
▁바바
▁기라
▁고분
▁상원
▁연혁
▁틀어지
▁Ext
▁빅터
▁방랑
▁입체
▁파장
▁태연
▁유대인
▁ㄴ다면서
▁데카
▁빌라
무진
▁XP
▁기만
▁생몰
▁오피스
▁원격
클레스
▁기관차
▁천황
▁초식
프레스
▁미련
▁씁쓸
▁조장
토시
▁무의
▁봉기
▁샤이닝
▁id
▁채소
▁격노
▁뒤이
느니
ful
▁시동
ship
uch
▁RS
▁만회
▁원년
bl
85
▁성균
▁직관
▁동참
▁부화
▁스펙터
▁1941
▁가치관
▁제비
▁봉황
▁창의
▁츠카사
▁귀중
▁클락
▁낯설
▁염소
▁오디
▁통용
▁박세
▁성모
▁윤종
▁최전
▁퍼스
▁성균관
▁STAR
▁가토
ports
기업
▁송이
슬러
▁야하
▁헌데
자카
▁회고
▁나츠미
테리
▁격돌
▁EB
▁젤다
▁양면
▁장기간
▁샤아
▁학창
▁난동
▁비숍
▁선체
▁유감
▁이성계
▁불러들이
기지
▁군산
▁잠복
▁자위대
리케이션
▁풍자
▁히로유키
▁정인
▁디테일
▁증원
▁Sil
▁OO
▁모라
▁Inf
▁아제
▁역기
▁ㄹ게요
▁송병
▁클로즈
▁흑백
▁자손
▁배분
▁갈래
▁뫼
▁만두
▁수리검
▁텔레콤
니트
정역
▁송도
▁White
▁255
레트
▁느긋
▁시궁창
▁KS
▁웍
▁OR
▁베니
▁서커스
▁토템
▁아테네
▁프레데
▁요일
▁청량
▁Bar
▁1948
▁부풀
▁전년
▁모호
▁Fre
▁농어
▁Back
▁크래
버릇
▁솔로몬
▁즐거
▁오드
▁Win
▁퇴근
▁손녀
▁커브
▁우익수
▁콘크리트
▁스테이트
▁PO
▁다이너
▁파키스탄
ump
▁조제
▁판도라
26
혁명
▁그리스도
▁창시
▁특촬
산물
▁왕궁
▁피에르
모사
▁여의도
▁재팬
co
▁공병
RAM
▁여도
▁진과
▁타쿠미
▁단신
▁바늘
▁치중
▁벌칙
ift
▁420
▁연루
▁왕따
▁바이올린
호도
▁하와이
▁태고
▁폭포
노미야
▁마비노기
▁qu
▁간식
▁아틀레
▁초원
▁초급
▁색채
▁고양시
▁켄이치
▁접시
▁소음기
튀기
▁작렬
▁학계
▁GL
ENT
▁도타
▁실험실
▁NG
ATION
▁떠들
▁오덕
▁카세
▁심리학
▁맏
▁뻥튀기
▁FE
▁러블리
▁지독
▁제이크
마츠
▁박민
▁포털
▁허영
▁215
▁거슬리
▁늘어놓
▁jp
▁텐션
▁백색
▁하르
▁컨테이너
▁흘러나오
▁금전
▁수소
▁어중간
▁집정
▁down
▁어지간히
▁제멋대로
▁관악
카스
edia
▁좀처럼
▁Sky
공격
▁정유
따르
▁맥도
▁자드
MC
▁Met
▁시구
▁사토시
레인지
▁강변
▁횡단
▁메아리
▁서진
▁타라
▁고려대
▁프레디
▁나츠키
▁거주지
▁선구
▁친밀
▁하코
▁off
▁으라는
▁..'
▁CEO
▁헤딩
▁인기투표
▁인장
링크
틀링
▁최성
▁포고
▁유엔
▁제휴
▁열풍
▁쇼핑몰
▁테크노
ERT
▁변종
▁성서
▁갈고리
▁1949
ALL
▁병맛
▁아론
▁욕구
▁사육
▁성폭행
▁실천
▁오퍼레이터
바위
▁FN
▁늘어지
▁쇠퇴
모니
각시
▁라운
▁후려
▁이승엽
▁빌미
▁Act
▁가차
▁현존
▁인프라
▁광부
▁서독
▁양동
▁퍼뜨리
▁동선
▁육박
▁앞마당
▁듬
▁부치
▁파업
▁333
▁UFO
▁육식
▁안도
▁갭
▁정현
▁235
▁거제
▁럽
▁이윽
▁208
▁바시
▁삽화
▁시중
▁이윽고
▁향수
▁대머리
▁도르트
▁트레이서
▁거물
▁비늘
득점
▁뇌격
▁틀림
▁1936
▁every
사우루스
드래
▁FX
oud
▁병영
▁206
케이
▁메소
▁런닝맨
▁출생지
▁중얼거리
▁수배
▁초동
▁하렘
니스탄
▁되돌아가
▁유쾌
▁체이스
▁NL
▁처단
▁}{
▁마장
▁항속
▁TD
▁남용
▁비행선
▁Song
▁김하
▁마고
▁편제
▁키바
▁사다리
less
▁휩쓸리
▁ㄹ지도
▁패거리
▁나루호도
BM
▁디스코
▁덩크
▁랄까
▁심플
▁멸자
변속기
천동
▁난폭
지대
▁본국
▁어머
▁알아듣
bps
▁코지마
▁미쓰
▁아픔
ize
▁철회
린스
▁em
▁비약
▁카멜
방향
▁참패
▁세츠나
▁경인
▁May
▁오마주
VEL
▁팀킬
▁합방
95
네트
▁문의
▁마츠모토
▁와일드카드
공화국
▁계보
러드
▁161
▁마그마
▁배급사
의회
▁가물
▁극찬
▁누마
▁대여
▁서부터
▁아울러
▁GAM
▁850
UB
▁김인
▁피라미드
▁다구
▁영리
▁아다
▁떨어트리
▁개드
▁속옷
ape
▁스릴
▁라트
▁우로
▁감시자
▁스플릿
▁얀데레
▁개틀링
▁젊은이
▁ve
▁이따
▁기겁
▁크러
IST
▁설사
▁리오스
▁카에데
▁데이브
▁올라타
▁송곳
▁모터스
▁위나라
▁헛소리
▁좌석버스
▁ㅎ
▁명인
▁표방
ger
▁끝판
▁내년
▁토와
▁Rain
▁김태균
▁호대
▁con
▁That
aka
▁밴시
▁RAM
▁불가리아
▁독성
▁God
▁선발전
▁성검
▁페인트
▁성문
▁유목
타자
▁풀백
▁쭈
▁디에
ita
▁장래
▁인피니트
▁벽돌
▁북극
▁언락
▁다나카
▁커넥
빠르
▁단선
▁오미
▁상대편
▁RF
96
▁정벌
▁도마뱀
▁북두
▁청색
▁유우야
▁Hey
모자
▁무법
▁아이리
▁일자리
▁도르트문트
▁베라
▁신시
▁야기
▁친일
▁가까스로
실히
▁단간
▁소인
ORM
때로
▁어린애
▁290
▁때우
▁버금
▁Top
▁심심찮
▁하데스
▁이복
▁마드
▁난해
▁ㅂ시다
▁지아
▁무난히
▁정렬
▁나기사
▁코스타
zy
▁불운
▁손수
▁수레
주군
▁경위
▁버디
▁보태
▁여진
▁페로
▁영장
▁순교자
▁퀑
▁비욘
▁열전
▁플라워
▁망원
레인저
▁영창
▁데이즈
▁마니
▁징병
▁선도
▁여건
▁콘테
▁대각선
▁복종
▁알프레
▁내려놓
▁포이
▁야채
▁정규군
rop
▁특출
▁축구단
▁전용기
▁당분간
▁Pe
▁되려
▁want
▁석탄
▁칼럼
▁줄줄이
▁서면
▁책임자
▁Battle
IGHT
▁대강
▁역학
▁절묘
▁Moon
▁스몰
▁유추
76
렉트
▁괴로
▁WAR
운전
▁존속
▁Game
▁살라
▁위화감
▁드레이크
▁젯
▁아란
암동
net
▁자부심
버거
▁게리
▁미셸
▁특공대
▁좆
기어
▁바실
▁화속
▁행동력
▁갑판
▁울부
비우스
▁1955
무스
▁뒤틀리
▁인테르
▁칭송
▁TEC
OK
▁자며
▁중성
▁곡선
▁내륙
▁매트릭스
▁일직
▁친위대
▁스케이팅
▁노브
▁SUP
▁느냐고
▁코로나
포스
▁꼭두각시
▁호타
▁스케치
▁역전승
ara
com
▁구만
▁최재
▁한가
▁more
ward
▁성추행
작전
▁선풍
메다
▁과실
▁가창력
bo
리아나
▁라이터
▁반자동
▁새로이
ren
블랜드
▁레트
▁클리블랜드
▁허리케인
▁KG
▁max
▁분사
▁영락
토록
▁민지
▁이신
▁212
▁새해
▁플레이트
▁Bra
▁코나미
▁독재자
버드
▁총통
▁태수
▁NS
▁터미네이터
▁인민공화국
row
▁북유럽
▁광저우
▁부추기
▁유명세
▁국사
▁개드립
여행
▁골대
▁데프
▁LCD
▁흑룡
▁Dragon
▁남구
▁이제동
▁LS
▁카야
▁토요타
니엄
연합
▁킬로
▁피겨
▁밸리
▁단다
▁진나라
▁가솔린
▁교육부
▁강당
▁의리
▁치부
▁Special
▁경이
▁경호원
▁베이스볼
▁가메
▁내심
▁할당
▁사이언
클리
▁부과
▁피고
▁밀레니엄
▁루시퍼
▁1959
▁나고야
▁치타
▁대담
▁오반
짜기
▁본문
▁자석
▁소중히
▁나데
▁호스트
▁해임
▁파괴자
▁팩토리
▁울부짖
▁탤
▁목표물
▁왕녀
▁연방군
러기
▁티코
▁캬
코프
▁발산
▁앙리
▁뭣
▁관제
▁와이드
▁자아내
▁추월
▁들려주
led
▁플로리
▁원동
▁001
▁크림슨
▁핵무기
▁광화
▁도미니
aven
▁요건
▁래스
▁가변
▁협공
▁푸른
▁카트라이더
▁의석
▁조달
럭스
▁스트레이트
▁십상
▁전투원
▁머들
▁행선
▁초회
부대
▁wiz
▁쿠미
▁광양
▁가네
▁레고
▁서점
▁펜스
▁서울역
▁잔당
▁카즈키
▁Amer
▁Track
▁마티
LD
▁벨벳
▁우사
▁임프
▁Pop
▁이치카
▁귀도
▁안드로메다
▁특허
테나
▁Hot
▁활주
▁FFFF
▁니키
▁뮤즈
▁종자
▁사파이어
▁1956
그레
히사
▁장막
▁무성
▁무찌
▁보단
▁뒷받침
▁협약
▁심리전
하이
▁기와
▁칠흑
▁온전히
▁베드
▁주군
▁강연
▁레미
▁플러그
여지
▁미완
▁김현수
▁휘둘
▁DAY
▁피니시
▁토의
▁부회장
▁슐
▁아산
▁단단히
▁TG
▁가가
▁마포
▁인분
▁조회
▁포르노
▁발간
▁백신
▁스켈
▁입성
바키아
▁무심
▁에우
▁이시다
패드
▁게이밍
▁온화
▁이상민
▁지갑
▁유민
▁계약자
▁Cont
▁다라
▁되돌아오
▁신령
▁합산
▁신공
▁랄프
▁오스카
▁익스트림
▁석방
▁차남
▁냐면서
▁파드
▁they
▁에스파
▁경신
▁등산
▁네메시스
▁이라든가
▁적정
▁물려주
▁트리오
왜란
▁멧돼지
▁빈스
▁이분
▁와타루
내기
▁첩보
▁TN
▁서사
▁음양
▁선진국
▁임진왜란
▁프랑스군
▁광주광역시
▁이화
▁마늘
▁젠지
▁ㅏ요
▁마는
▁명령어
▁tw
▁각기
▁증후
▁황무지
▁너구리
▁무찌르
▁대적
▁내려찍
▁창세기
▁패트릭
▁빵빵
▁코리
▁1939
▁아치
▁데이빗
▁금성
▁뾰족
▁위인
지물
▁이지스
▁플라잉
▁207
▁기병대
▁baby
▁오피
▁청동
▁우와
▁바이올렛
▁차세대
▁단절
▁날아오르
▁뛰어다니
34
▁주스
▁넵튠
쿠버
▁팔꿈치
▁대한항공
▁과하
▁단말기
▁동물원
▁520
▁노랑
▁슈타
▁불기
▁위생
▁초중
ands
▁기타리스트
바시
▁로자
▁역관
▁나폴리
두근
▁두드리
▁COM
ien
▁티탄
▁바사
▁매지컬
▁무언가
▁새신
▁외야
▁루리웹
▁이터널
▁는데도
▁관대
▁박기
ze
▁무어
▁겉보기
▁화장품
▁BASIC
▁푸드
▁트레버
▁영재
▁교재
▁단백
▁분자
▁각색
▁나지
▁모티
▁황자
▁777
▁리바이
▁구세
▁문호
아스
▁제품군
▁정진
▁나우
▁터무니
▁탈것
캐스트
▁PA
▁천체
▁재해
▁조비
orts
▁고스란히
▁IDOLM
▁배고
그러지
▁인신
▁붕대
▁철벽
▁친근
큐버스
▁집정관
▁도널드
▁애프터
방사기
▁최적화
▁화염방사기
▁체급
▁서문
▁good
▁비정
▁구치
▁사면
▁Mir
ited
▁그래프
▁호라이
▁버금가
준호
▁크레이지
용차
▁타협
▁포화
▁배럴
▁항로
르바
▁상정
▁블라디미르
겨지
▁심슨
▁정제
▁Bur
중국
▁네타
▁다트
▁몰아치
▁들통
▁미공
▁성급
▁동거
▁로로
▁209
play
▁Yes
▁단연
▁독설
▁감속
▁강호동
▁뿜어내
▁소모품
▁유세
▁일부분
▁배틀필드
▁콜롬비아
▁Project
▁보유자
▁상류
▁타츠야
▁송파
거진
파니
▁동포
▁전투복
▁over
▁사시
▁다이렉트
▁선명
▁로드리
▁TF
▁그지
▁부딪치
▁투타
▁지휘자
▁감도
▁중령
▁한결
▁자라나
블랑
▁주성
▁col
▁전류
au
▁로마자
둘기
▁사설
위치
▁는구나
로이
▁마코
▁비범
▁Sur
▁민병대
▁일갈
▁탈리
▁스탠딩
▁1400
▁두텁
▁억압
▁자의
▁투기
▁채굴
▁이어폰
▁대제
▁시제
▁솔리드
▁안토니오
드리히
▁골리앗
▁이나즈마
▁~'
▁간장
▁현질
▁노마
▁단거리
▁모방
▁시세
▁터리
▁Off
교육
▁김택용
▁글리
▁장동민
▁노사
▁버즈
▁창원시
▁정직
▁라든지
▁휴전
▁그토록
▁콥
▁나시
▁비즈니스
▁FFFFFF
▁군중
▁황족
▁최우선
▁순순
▁김영삼
▁장단
▁류지
▁군단장
▁긴장감
▁미토
▁톡톡
▁증후군
ius
▁KD
▁끊이
▁사바
▁락스
▁선비
▁정연
▁사카모토
▁칸나
▁랜디
▁백수
▁역전패
UK
▁버니
▁신촌
▁액트
▁주시
▁침식
▁유스케
▁욘
▁풋볼
▁대두
▁프론티어
▁선형
▁제네시스
36
HD
▁써니
▁심포
▁자민
▁운전자
▁매사
▁체조
▁아노
▁에로게
▁결별
▁시프트
▁아르테
▁노이
▁치히로
▁인스
21
▁당근
▁세이지
▁안치
▁짓밟
▁탈탈
▁WOR
▁엠파이어
▁공석
▁마호
▁나탈
▁저력
▁차마
ata
▁Bad
▁행정부
▁분전
▁출세
▁yeah
▁산화
▁스탠스
▁코브라
▁걸스
▁아르메
▁프리드리히
▁전갈
▁천도
▁Int
▁결투장
▁데뷔작
▁템플러
준혁
▁안중
oney
▁1938
▁은가
▁관건
▁눌
▁명품
드래곤
▁루드
▁매개
▁파열
▁찾아다니
▁피버
▁가산
INE
▁조류
▁DDR
▁비올
▁영령
틱스
▁리조트
▁휘둘리
▁유노
▁치프
▁'-
제이
▁구애
▁미유
▁학업
▁Po
토미
감치
▁쏠리
▁지체
▁재빠르
▁배척
찌감치
▁WCS
▁성가시
방식
▁라데
▁요동
▁졸지
▁오아
vent
▁때때로
▁메두사
▁두께
▁성유
▁동대문
▁외래어
렁이
▁Ul
▁산산
▁섹터
▁메이크
AA
고루
▁입법
ck
▁카논
▁순순히
▁츠바키
▁마공
마트
▁튜브
▁블루스
▁멀린
▁탄수
▁JC
페스트
▁노스케
▁현행
▁애틀
▁외침
▁페루
▁자본주의
▁조로
▁총구
line
▁TWICE
▁275
▁하늘색
▁Ass
▁대장장이
▁즉석
비언
▁광학
홍철
▁소량
▁아만
▁응징
▁Are
▁올리버
▁잿
▁PvP
▁음모론
UL
▁갱단
▁면은
▁org
▁단번에
▁마리사
▁만화책
▁221
▁거유
▁엇갈리
▁로미
▁팻
▁애틀랜
▁브리핑
컨대
▁아츠시
▁베른
▁패미컴
▁꼼짝
▁래쉬
▁케미
▁쿼드
▁프라이즈
규어
그래
▁용품
ague
▁다이크
▁시발
▁#,
▁정자
▁노동당
▁수뇌
▁즘
▁건립
▁괴멸
▁레베
▁Match
▁쌩
▁샌디
▁티나
▁아쉬워하
▁에프
▁치키
▁say
▁법무부
▁신한은행
▁발트
▁경전차
▁샌드박스
▁최진
▁거듭나
▁교직원
▁사생활
툭튀
▁릭스
▁모치
▁Eng
▁노후
▁폭군
UST
▁재혼
▁행각
세이더
▁크루세이더
▁번거
ton
▁AMD
▁커맨더
▁갑툭튀
▁홈구장
▁ㄴ다든가
▁스스
▁가와
▁폭투
▁척하
▁바이퍼
▁수군
▁제드
▁시오리
▁클로버
피탈
▁여행자
▁세토
▁짤막
▁뒤바
▁시르
▁플로리다
▁부합
▁빼놓
▁대관
▁기린
▁시애
▁피크
▁타케루
▁ac
▁여명
▁케르
▁몬테
78
▁고원
▁란트
▁셔츠
▁희미
▁부두
▁제각
▁하얀
매치
의지
▁중소기업
▁엘소드
▁트레인
▁경비원
▁데스매치
▁수도원
▁헬로
▁힘쓰
▁Char
▁리벤
▁탈주
▁방대
▁리언
▁시립
▁최형
▁RED
▁수영장
어들이
▁쪽지
▁XY
▁유시
▁진공
▁데이비스
▁부녀
▁퇴마
▁슬래시
▁길목
▁타가
▁치밀
▁금곡
▁로니
▁요르
▁우이
▁티타
▁넘쳐나
▁묵직
▁일직선
▁앞쪽
▁아카기
erm
▁Core
▁1952
▁선하
ute
▁자판기
▁여덟
▁사업자
▁일정량
▁히이
▁힘겹
▁메르시
▁노드
▁우동
▁see
▁아재
▁욕먹
▁치아
und
hy
▁세단
▁일선
▁조원
▁농촌
▁슬쩍
▁발렌시아
▁216
▁눈부시
▁재규어
나들
레즈
▁화랑
▁농어촌
▁수속
▁위조
▁케어
▁막아서
▁루즈
▁리히
▁댈
▁모건
▁매거진
▁다크니스
자루
▁명장면
▁앨리
▁시애틀
▁브란
▁츠치
▁416
▁Now
▁}}}}
▁레비
▁환불
▁BW
▁가쿠
▁햇빛
▁티셔츠
▁Blood
▁}}}}}}
▁럭스
▁마토
▁BRV
▁유배
아내리
▁아틀라스
▁매점
▁고베
▁현수
▁213
맹이
▁관전
▁헤라클레스
▁누님
▁코칭
▁흉터
일관
▁동국
▁정적
▁2021
▁기공
▁소름
▁조인
▁도보
▁볼일
장구
▁부끄
▁서스
▁릉
▁충동
▁해저
▁대장군
▁저스틴
▁바흐
ILL
▁Joh
▁Rob
▁숙명
▁간편
▁장녀
▁아득
▁충공
▁퍼시픽
▁마사무네
정동
▁에테르
▁충실히
▁고모
▁레그
▁후리
▁능동
▁후후
▁건너편
▁햄버거
▁심부
red
▁무모
▁기염
게임넷
▁온게임넷
▁친선
▁our
▁세무
▁서유
ism
▁Last
▁둔화
▁사력
▁아리사
▁선글라스
▁악인
▁국물
▁급상
▁평안
▁눕히
▁조슈
애미
▁분수
▁헌병
▁야자
III
▁가주
▁시빌
▁BBC
▁선천
▁마이애미
▁완패
▁센트리
▁테츠야
▁학부모
코스
▁fr
▁사납
▁애리
▁블리츠
▁익스프레스
▁필기
▁소망
▁친화
▁스노
55
▁모탈
▁회자
▁1300
▁벤트
▁헤븐
▁속사
▁여하
▁경의
▁재화
조작
▁기통
▁중사
▁디트로
▁보이드
▁디트로이트
▁여느
수엘라
▁방어전
▁기생충
▁과다
▁돌풍
▁비둘기
▁승부조작
▁리시
▁기판
▁세실
▁슬라이딩
▁짊
▁임상
뿌리
▁사쿠야
▁레이크
▁오일
▁화판
미사
OCK
미츠
▁타오르
매매
▁악질
▁병신
▁앞장
▁통학
▁근래
▁경영학
▁right
▁아종
ets
▁재선
▁암흑기
▁순삭
▁자자
▁검찰청
▁소아
▁알비
▁승부차기
▁국수
▁료마
▁전고
▁강남구
괭이
▁백룡
▁업종
▁토코
▁조선일보
▁쓸쓸
▁안식
어내리
▁눈썹
▁직계
▁표명
▁유소년
▁두근두근
add
▁NA
▁서인
▁이천
▁구미호
▁단백질
▁풍속
▁시라이
▁나뭇잎
▁튀김
▁해프
▁희생양
▁찜
▁가세
▁1953
▁미니게임
▁Magic
▁암기
▁토사
▁재판소
▁쩌
타기
포로
▁총대
▁국정원
▁상하이
▁비석
▁세레나
xt
▁cr
▁데스크
▁드래곤즈
▁극성
▁잽
▁침체
▁데일리
▁그해
▁사병
▁경희대
그마
▁초딩
▁팬클럽
▁7000
▁메탈기어
▁권고
▁활주로
▁홉
ama
▁무네
▁볼리
▁HOT
▁Like
▁피신
▁호우
▁영화관
▁베네수엘라
▁피칭
OWN
▁여리
▁중화기
▁서약
▁재미없
외선
▁농부
▁포진
▁히코
▁양도
▁자가
▁총사령관
88
니지
▁고갈
▁사단장
▁박태
▁RR
▁동산
▁엘런
▁차출
▁Alb
▁정종
▁진해
▁거리표
▁매그넘
▁프랭클린
▁가넷
▁카츠키
▁첨가
이프
▁관광지
▁pe
▁아킬
▁자정
▁이대호
▁니즘
▁이의
▁신종
▁마취
▁불허
▁정윤
▁출연자
▁잔여
▁권역
▁잘생기
▁프라이드
▁거미줄
▁드래그
탕스
▁금하
▁방관
▁레지스탕스
▁Soul
▁그물
▁남극
▁방정식
▁자멸
▁텐더
▁필승
▁불안감
▁RPM
▁갈아입
▁해프닝
▁덤벼
▁Happy
▁연안
▁이범
▁혼나
▁날라
천역
▁원어
▁몸집
▁몽땅
ader
▁낙하산
▁테슬라
▁사위
▁이메
▁토토
▁악보
▁음란
▁대입
▁전과
▁Nor
▁거니와
▁수송선
▁하자드
니르
▁성남시
▁화룡
▁범주
▁미나토
▁법정동
▁철퇴
이인
OWER
▁사비
▁클라우
▁포레스트
▁사역
ga
장판
▁본드
▁뒤쳐지
▁장기전
▁체로
▁223
▁TT
▁이목
▁비대
▁비룡
▁생방송
▁아레스
▁there
▁체구
▁베르크
▁산체스
▁이도
▁마크로스
▁막말
▁퍼니
▁무당
▁이로
ocal
▁기어이
▁사요
▁성동
▁역설
ther
▁골고루
▁리포
▁코팅
▁김소
▁쌈
부리
▁크리드
▁순조
▁Party
▁미달
자국
▁바트
▁정대
베이스
니치
▁마키나
▁하이브
▁GX
▁365
▁레프트
▁대의
▁선역
▁임페
▁읊
벅지
▁일찌감치
▁깜빡
▁충공깽
▁조나
▁삽입곡
▁ph
▁조세
▁Side
▁문성
▁영조
▁공시
▁도입부
▁산호
▁역과
▁쿠도
▁Sim
▁계승자
▁ㄴ다든지
▁성희
▁주임
▁임용
▁교향곡
▁동명이인
▁크로노스
▁연성
uz
▁룽
▁용왕
▁Show
▁수법
▁감염자
▁시위대
▁맨날
▁공중전
▁시종일관
▁민트
ERF
▁백지
▁얌전
▁네로
▁사우디아
▁아르메니아
▁IF
▁장학금
▁Edition
▁격납
▁청문
ONE
▁여대
▁net
▁이츠키
더리
▁카메오
▁보급품
▁girl
▁크리에이터
▁아유미
▁해결책
▁Open
BOX
▁370
▁브라이
▁진행하
▁에티
▁후려치
▁뜬공
▁레타
▁링컨
▁남아공
▁남친
▁투석
ated
▁ㄴ답
▁덕택
▁수납
▁이쁘
▁내리치
형제
▁헤지
▁큰일
▁플랫폼
▁성범죄
▁스피리
▁미용
▁쟁탈전
▁특출나
▁재무
▁타지
▁라이토
▁급상승
▁음식점
▁에어리어
rew
▁장담
▁전복
ASS
▁1957
▁김호
▁노원
▁왕건
work
▁Way
▁임페리얼
▁란다
▁Und
▁멱
▁작물
▁터프
▁Cap
▁got
▁알파벳
▁feel
▁능욕
▁잣
ley
▁구루
▁에러
▁내려지
▁유수
▁코로
▁며느리
▁만악
▁붉은색
▁Mark
▁시커
hammer
▁경합
▁후카
▁일기토
▁신년
▁아프가
▁인플레
▁카터
▁쿠폰
▁his
▁플레인
▁민족주의
▁who
▁위태
▁키쿠
▁충주
▁대변인
▁토카
▁활약상
▁총재
▁바람직
98
▁전령
▁폐하
트리스
▁떨리
▁몸체
▁부러
▁의존도
▁천연가스
▁변함
ster
▁맞춤
▁빽
▁경순양함
▁알맞
▁바운드
▁투표율
▁정경
▁Pol
▁하시모토
▁옵스
▁푸쉬
▁효력
▁도호쿠
▁지자체
▁입상
▁비운
▁프레드
▁블루투스
선거
▁구라
▁SKE
▁남짓
▁대도
▁반달
▁디에고
▁방영일
▁watch
▁복권
▁윤성
▁돗
▁베르나
▁Angel
▁아야노
▁희박
▁Val
▁micro
▁Na
▁케니
▁화끈
▁무서
▁개화
▁잠식
▁특권
▁그리폰
▁기각
▁유하
▁적기
▁항우
ird
▁맞대결
▁오리콘
48
▁ㄴ대
▁근황
▁버퍼
▁퍼트
▁화질
▁댈러스
▁짊어지
▁토우마
▁누락
▁복각
▁성주
▁역전재판
▁절약
▁헤더
더스트
▁알루미
▁소주
▁자위
▁에어컨
▁카트리
▁Comp
▁생포
▁소탕
▁알코
▁금서
▁식인
피드
▁배수량
▁저항군
▁수족
▁중추
▁화보
▁950
▁하반신
▁상임
라비아
▁이끌리
▁꼭대기
▁무패
▁봄버
▁평정
▁FBI
▁1947
레톤
▁의류
▁레테
▁부토
▁분과
▁엑셀
▁선별
▁엑스맨
▁익명
▁통역
▁스켈레톤
▁시드니
▁애틀랜타
▁상고
▁벼락
▁헌납
▁아프가니스탄
▁수분
▁교무실
▁미카엘
▁부디
▁흐트
▁미공개
▁벌어들이
▁이석
▁치토
▁활기
▁점포
▁촛불
▁허니
▁Fly
▁090
▁꾀하
▁수박
▁상경
▁행세
▁비열
▁유교
▁박병호
▁이유로
▁내공
▁틀어막
▁피쳐
▁어쩌다
▁엘더스
▁Legend
▁Stage
▁!!!
▁트라웃
▁Fall
벨트
▁연기자
▁전념
▁과잉
▁재주
부수
▁불분
▁신민
▁개더링
▁예매
지기
▁엄폐물
▁검도
▁주루
▁한성
혀가
IVE
▁구비
▁알몸
▁수뇌부
▁First
▁중순양함
고생
▁조현
▁잡혀가
▁중론
무로
ura
▁이관
▁중공업
▁유한
▁추위
stem
▁전염병
▁빅토리
▁호라이즌
▁번영
▁245
▁경비병
▁쥴
▁단타
▁양평
▁전경
▁겸비
▁로버
▁마운틴
▁시연
▁좌완
▁상승세
▁가중
▁빌헬
▁엘릭
치오
▁반대쪽
▁어설트
▁Sam
▁갑주
▁세조
▁온전
▁엎드리
▁승승
▁웨딩
▁코일
▁김구라
▁Perf
▁막론
▁무방비
▁불분명
▁미처
▁유다
▁ㄴ데다가
▁그리스어
▁life
해군
▁선지
▁불가피
▁오바마
▁랍시고
udio
▁손책
▁540
▁머릿속
▁포메
▁후작
▁Free
소니
▁스튜어트
캐슬
▁부기
▁경전철
▁거라
▁만화가
▁키사라기
▁물음
▁판과
▁카자마
▁진범
▁총회
▁콩두
▁234
▁알루미늄
▁오리지날
▁Final
▁급습
▁껴
▁언론사
▁운임
▁후세
▁소폭
▁아벨
▁덩달
▁로페
▁오카다
▁무소
▁허술
▁Class
▁김신
▁명실
▁바드
레일리아
▁투르
▁자바
▁-!
▁엠마
▁푸른색
▁그제서야
▁겁쟁이
▁Er
▁복부
▁체내
▁사죄
▁힘내
▁top
피어
▁질질
▁사냥터
▁성우진
▁Break
▁파워레인저
▁뉴캐슬
err
▁아스타
슬쩍
페어
▁쇼군
▁슬러
▁잠자
▁루기
▁수혜
닥치
▁메츠
▁노프
▁린다
▁Spring
▁선상
TH
▁GDP
▁쥬라기
건설
arius
▁베끼
ling
▁나카노
▁지명타자
▁죄인
▁440
▁준장
▁명백히
▁엠블럼
그라드
▁수제
▁유체
▁송병구
▁City
▁베아
▁졸리
▁~?
▁창출
▁케로로
▁망각
▁열렬
▁잔재
▁봉하
▁비평
▁무리수
▁벤츠
▁부우
▁Never
▁유죄
▁이문
▁프리드
가요
▁세가
AGE
▁슬래
▁중파
▁오우거
▁법조
▁쌍용
▁하얀색
▁Down
ux
▁일개
▁대리인
▁동유럽
▁카라스
영수
▁김제
▁신격
▁밀러
▁악수
▁249
▁김정일
▁앤더슨
▁또래
▁이시카와
▁사우디아라비아
▁Cor
▁조니
▁평지
▁"..
▁MAN
고쿠
▁이니셜
tm
yes
▁뚱뚱
▁뛰어내리
▁무안타
▁제복
▁동급생
▁번번
▁티거
▁로토
▁자치령
▁PRO
▁분화
▁광폭
▁Mon
▁우려먹
▁청주시
▁자유주의
▁명은
▁삿포로
▁자재
▁GOT
▁빈센트
▁대전광역시
▁검기
▁어로
▁티라노
▁If
REME
▁지중
즐리
▁How
▁나오키
▁띵
▁연호
▁품종
스부르크
▁니퍼
▁최원
제리
▁선후
▁-.
블루
▁시녀
▁판본
피온
▁BP
▁도메
▁베토
▁한승
▁베레
▁KCC
▁안테나
▁뛰어오르
▁화가
▁세이부
▁엠블렘
▁레니
▁팰리스
▁하나님
▁걷어
▁버겁
▁체크카드
tain
영향
IME
▁맥시
▁직진
현동
ause
▁신태
▁9000
▁AW
신기
▁불발
▁사복
▁섣
▁숙지
▁이형
▁성품
▁인승
▁건축물
▁1951
▁마카오
▁랠
칼리버
▁219
▁서스펜
▁의뢰인
erry
▁짱구
▁1914
▁Sn
▁코우지
▁메가트론
▁승계
▁저널
▁청취
▁난장판
▁야스오
▁오스틴
▁저음
▁편도
▁Swe
▁반납
▁sk
▁밸브
▁수전
▁알트
▁입당
▁체하
raft
▁끝없이
▁Mem
라이언트
▁시프
▁현무
▁투여
▁226
▁염동
▁한중
▁행군
▁공채
▁베로
▁그러다가
▁굴러가
▁마석
▁마자
안군
▁허벅지
▁클라이언트
나시
iny
▁광동
▁야인
▁정치력
▁최형우
▁구이
▁순항
재욱
▁박하
▁전우
코스터
▁바알
▁성령
▁스투
▁위저드
평균
리히
▁결단
▁위닝
▁이송
▁애시당초
▁곡사
▁신봉
갔다
▁변속기
▁후하
▁국무총리
▁악장
▁011
▁롤러코스터
▁젓
▁"'
▁꾹
▁가늠
▁샬롯
▁페달
김없이
▁그레이브
▁명왕
▁다이빙
다듬
▁주주
▁밀접
▁서동
▁합금
▁니즈
▁오산
▁숨결
대표
▁슬립
▁티모
▁브래드
▁훈련소
테라
▁사생
de
▁말살
▁어지럽
▁회유
▁블로킹
▁예술가
▁토바
▁end
▁설진
▁RX
▁빙글
▁소란
▁APC
▁노선도
▁보호자
▁사하
▁월터
▁검색어
ival
▁1937
▁요양
▁평준
▁호각
▁서재
▁양양
▁사츠키
▁코요미
▁리제
▁몸싸움
소통
▁시메
▁포자
▁폴라
▁의사소통
▁키치
▁오스트레일리아
▁베네치아
▁칼질
▁허다
리즘
▁박차
▁하쿠
▁에버튼
▁크리스토퍼
▁시리우스
▁방망
▁자택
▁착수
▁얍
▁탄두
▁조개
▁강령
▁고뇌
▁험악
▁cont
▁만우
74
▁양말
▁큐트
테리어
▁원상
▁끌어오
▁어우러지
▁쇼타
요리
▁PT
▁보성
▁228
RO
살렘
▁이강
▁캠핑
▁반려
▁반죽
▁톱니
▁aqu
▁연구자
▁세계수
▁make
▁224
루살렘
▁과반
ATE
▁건의
▁미약
▁피그
▁차오르
▁play
▁경시
▁김은
▁사오
▁원성
▁펠트
▁판단력
▁Christ
▁착취
▁컬링
▁제너럴
que
▁중산
▁375
▁츳
▁라리
▁일생
▁디럭스
▁어시
▁춘추
▁애리조
▁생계
▁사상자
▁야마자키
▁EXTREME
▁ㅈ
▁쌍검
▁잔소리
▁최하위
모델
▁간절
▁래리
▁410
▁ㅏ라
▁카르텔
▁외장
넌트
나가와
▁Hol
▁뺑
▁슴
▁정무
▁미도
▁233
▁야말로
가르드
▁애니메이터
걸음
▁이롭
▁싱크로
썰트
▁위아
▁어썰트
▁애니플러스
▁면도
▁악평
▁골짜기
22
사람
▁성원
▁part
린더
ONG
▁성시
▁찬사
▁태후
하니
▁고안
▁우먼
▁Club
▁KE
▁매도
▁오보
▁러스트
▁이달
▁흉기
임수
▁만우절
erg
▁김한
먼드
▁전패
▁유승민
전함
▁노홍철
▁받아치
▁투수진
▁슈리
▁노획
▁스맥
▁MIX
ya
idd
▁스맥다운
▁근위
▁양지
▁아르타
▁스테이크
ino
▁앤드류
▁레이카
▁레전더리
▁악영향
▁다마
▁북서
▁필적
▁again
▁고철
▁사찰
▁에노
▁대구경
▁지하실
▁줄리아
▁예루살렘
▁실탄
▁Cry
▁블레
▁코러스
일기
▁황소
▁진전
▁스미레
▁레코
▁세카
▁충원
▁편애
▁린이
▁순례
▁흥하
▁파탄
▁겉모습
▁교목
▁무로
▁수퍼
▁식별
▁편집자
▁급여
▁소프
▁포상
▁레볼루션
▁hp
이즈미
▁명확히
▁WHIP
▁둔기
▁폰트
▁항쟁
▁김종국
▁시어터
▁앞장서
이라
▁개칭
▁차우
▁슬로건
▁성희롱
▁알코올
lo
▁미네랄
▁이장
▁참모총장
▁귤
▁이바
▁진기
▁린치
▁유원
▁절감
▁물러서
▁오승
▁음력
베르크
▁적과
▁증표
▁블랑
▁백병
▁성소
▁Come
▁깍
▁독도
▁미완성
▁본거지
▁적어지
▁heart
BY
▁성취
▁땜
▁이메일
▁수산
▁마우
▁안장
▁한복
▁인원수
▁동탄
▁루시안
▁악세사리
▁곧장
▁관용
▁CIA
▁라이덴
▁어휘
▁틈새
해야
HN
▁티격
▁거머
폴리스
▁KA
▁PM
▁불거지
▁윤종신
공주
▁다그
▁어려
▁류우
▁어부
▁쿄스케
▁이탈리아어
▁제명
▁벳
▁설문
▁치과
▁호문
▁강서구
▁뻐
회의
▁길래
▁카오
▁마사토
▁쁘
▁동결
▁은혼
▁밤중
▁신빙
▁동하
▁never
열차
▁재차
▁NORM
▁멩
▁bb
▁xx
▁실감
▁일루
▁정시
자치단체
▁이에야스
cy
▁그분
▁PH
▁환원
▁끌어당기
일본
▁시정
▁옴니
NG
▁개종
▁평이
▁동남아
▁수당
▁지상군
르슈
aker
▁미우
▁순차
▁수사관
▁경대
▁눈보라
▁밧줄
▁코만
▁개리
▁몰입
▁세련
▁요지
▁데니스
▁수렴
▁유키노
▁체이서
▁Will
관계
OUR
▁화전
▁콘테스트
▁동그
▁채무
▁고아원
ORA
▁XC
▁뜬금없
▁우크
▁퍼플
▁차크라
▁쇼코
쩌둥
▁점치
▁마오쩌둥
▁미워하
▁컨퍼런스
▁우크라이나
▁유부
▁카프
▁빨아들이
▁Girls
▁김종민
▁우대
▁임재
메리카
▁NORMAL
▁Ah
▁카모
▁페미니스트
▁최연
▁브로드
전대
▁수료
▁마이티
▁나주
▁민심
▁다이노
anger
▁각별
▁올인
▁음악가
▁매입
▁볶음
▁MY
▁납품
▁외환
▁미코
▁열광
▁has
▁게재
▁전쟁터
▁간첩
▁부전
▁투항
푸스
▁전황
▁이리스
▁프렌드
▁1919
▁천진
▁해설자
전쟁
▁페이퍼
▁거든요
▁성공회
▁RB
▁포커
▁트롤링
팔로
▁메트
▁에라
onder
▁only
▁Sol
▁서큐버스
▁MUS
▁라파엘
▁적시
▁SEED
▁용호
▁EXO
▁복수심
▁비서관
▁Best
▁보크
▁짝퉁
▁인테리어
▁포메이션
▁활력
▁우선시
▁첨부
▁해인
▁나츠메
▁제네레이션
▁월등히
ball
▁개전
▁문과
▁한국군
▁뿌요
▁연마
▁미식축구
▁배반
디우스
▁아이젠
▁SMG
▁신드
▁장대
▁철혈
▁정근
▁시미즈
▁ㅕ야
▁뻔뻔
▁스턴트
▁옥타브
▁스팟
오버
▁거머쥐
▁스커
▁올리브
osh
▁궤멸
▁페트
▁소대장
▁여중
▁에너
▁Net
▁증강
▁초심
▁Ind
▁억양
UD
▁OM
▁남산
▁어르
▁217
▁연장전
▁사대
▁수년
▁Little
세포
▁악연
▁우의
▁하남
불리
▁북동
▁후지와라
▁사드
▁연화
▁소나무
▁Dest
65
▁\]
▁초전
▁미스테리
▁호화
▁켐
▁고하
▁시술
▁환산
▁난쟁이
▁미술관
▁물류
▁비터
▁오컬
▁피노
▁부상자
▁스콜피온
▁다듬
▁조짐
▁한눈
▁과열
▁교원
▁추기
▁데미안
▁타쿠야
▁메모리얼
날리
▁승하
▁내용물
▁슬라이더
▁산전
light
샤인
▁주부
▁체르
▁한판
▁레닌
▁액수
▁카니발
▁파나
▁낙서
▁로어
▁라이엇
▁플랜트
▁1911
▁알라딘
▁전곡
▁사주
▁정승
▁이보
▁검거
▁베이커
▁낭만
▁은빛
▁끊어지
월드
▁파주
▁red
니컬
티티
▁'~
▁노노
▁패권
▁서프
▁약수
▁픽처
▁부록
▁정선
소년단
와르
▁고참
▁브룩
▁소품
▁에이미
▁발령
▁없음
▁KN
▁초라
▁별거
▁자백
ANCED
▁나성
▁제후
▁해밀
▁폐업
▁정민
▁아라시
▁생리
▁세이야
장치
▁교명
▁하노
▁허약
▁대기실
▁통찰
▁우치하
▁소셜
▁here
▁변모
▁사이비
데라
▁냉혹
▁다량
▁010
▁러시아군
HC
▁미움
▁조선소
▁Take
ASY
▁기교
▁맹수
▁우여
▁서태지
▁크류
▁301
▁오아시스
▁클러치
▁FO
▁BMW
▁di
▁괴이
▁GPS
▁NFL
▁음료수
▁독단
▁유창
▁상반
▁야나기
▁남아프리카
세움
▁고드
▁앵글
▁Inv
▁Mix
▁str
eek
▁업자
▁오컬트
▁마스터즈
아오르
▁체류
▁는커녕
▁래빗
▁세터
▁지탱
▁부적절
▁야구단
▁무트
▁게르만
▁강정
▁고마
▁익산
▁재상
▁화합
▁나리타
▁뮐
▁해지
▁꼬시
▁미하일
▁카즈미
▁액스
▁로켓단
▁헌트
▁잡아
▁저축
▁특색
▁하계
▁둘째치
▁세바스
▁광란
▁정국
▁let
▁내레이션
▁타카히로
▁Single
▁환장
▁CGV
▁빌헬름
▁야구부
▁영국인
IO
▁gu
▁골수
▁Aut
▁프레데터
▁담원
▁티르
▁피파
38
▁타카오
비지
▁예민
▁Ult
▁방탄소년단
▁드미
▁마방
▁야요
▁형벌
▁촉진
▁출입구
oom
▁ad
▁유니버
ena
▁내쫓
▁투덜
서리
▁페라리
lex
▁굴림
교사
시장
▁뉴타입
▁오도
▁aquarius
▁뜯어
▁반주
▁신천
▁요령
▁밝혀
▁어떡
▁지효
▁252
▁백두
▁우디
▁껌
▁호위함
▁의거
▁퍼블
▁소홀
uture
▁라다
▁통솔력
▁ADVANCED
▁니르
▁스트림
▁촉구
▁YG
▁폐인
각형
▁mA
▁재보
▁파기
▁EPL
▁녹스
▁하로
▁대성공
▁들여오
▁이트
▁메커
32
▁백종
▁오자
▁자음
▁교제
▁아틀란
▁ㄴ답시고
▁얼룩
▁이동기
▁스냅드래곤
▁하즈
▁밀가루
▁카르타
▁서유럽
▁Real
▁집요
▁512
▁사카이
▁공직
▁승낙
▁속임수
▁코미디언
모트
빠지
▁거창
▁Dec
▁수차례
▁Storm
세우스
▁얏
▁로젠
▁정관
ital
▁초계
브론
성어
니케이션
▁츠네
▁케네
▁DSP
▁멜리
덱스
▁최장
▁포구
▁껄끄럽
대왕
▁재발
▁스케이트
▁폭언
▁커뮤니케이션
▁닛산
▁광화문
▁하야테
▁아카이브
▁알프레드
▁멘토
▁하원
▁2022
레오
▁김시
▁제때
▁프란츠
▁저상버스
▁항성
▁걷어차
▁헤이세이
▁섬뜩
▁Med
▁도넛
▁|[
▁어선
▁처방
▁츳코
▁는다며
네즈
▁사이먼
ano
▁운동가
▁꼬박
▁왕성
▁명지
▁브록
▁텐트
▁Def
▁그딴
▁문관
▁절도
▁Gun
▁뇨
▁강급
▁나오미
▁켓
▁토드
▁샤르
▁손길
▁스탬
▁신승
▁머독
▁급속도
▁정찰기
▁틀림없
▁사춘
▁학파
▁여차
▁밝혀내
▁다람
▁애플리케이션
곡절
▁정몽
▁횡령
▁윤석민
ude
▁가즈
▁포식자
▁야요이
▁정착지
▁우여곡절
▁아토
▁youtu
▁착공
▁Hero
소타
▁ER
▁HR
▁Zero
경민
▁크래시
▁자릿
세요
▁산출
▁베토벤
러미
마사
▁QP
공학
노트
지우
▁아로
▁경관
UG
▁등용
▁클럭
▁Rad
▁돌변
▁데이지
▁미네소타
▁베풀
▁히다
DDR
▁시놉
▁트렌드
▁공안
▁만신
▁매료
apan
▁Warhammer
▁격변
▁라티
▁보그
▁부설
▁짜이
▁EXTRA
▁보이즈
▁송곳니
▁선샤인
▁야가미
▁거액
▁관습
▁대장간
병기
ett
▁Cal
▁390
폴트
▁은색
▁시놉시스
39
ning
▁크로스오버
▁레터
▁추격전
▁탐험가
▁롱주
▁재탕
▁시급
▁암석
ours
▁내비치
▁콴
▁붙여지
▁Ry
▁급증
조림
쩐지
▁압승
▁엄연
▁차고
▁어쩐지
▁샌드위치
▁스프레이
▁루팅
▁키시
▁툭하면
▁227
▁Ag
▁예거
▁총점
▁지저
▁보리스
▁Park
▁오거
▁경부선
▁다채
lection
ler
unt
▁태백
소연
unk
▁풀이
▁BLACK
aid
▁오정
▁주름
▁비밀리
▁Mbps
▁Sweet
BE
arm
▁만장
▁표준어
▁동맹군
▁초구
▁투영
▁백악
▁예하
레마
irect
▁사춘기
▁다나
▁합숙
▁htm
▁건대
▁냅다
▁우등
▁홍련
▁1934
une
▁웍스
리스크
▁신노스케
하늘
▁자습
▁은신처
▁교가
▁대련
▁사이다
▁나크
▁프리킥
헤치
▁가야
▁블룸
▁시부야
▁John
▁미시마
▁정보원
▁when
▁마사히로
▁분양
▁any
▁아틀란티스
▁이여
▁정명훈
▁주변인
나타
▁숙제
▁휴지
▁게으
▁우터
▁아랍어
▁노보
▁서북
▁보좌관
▁파이팅
▁위임
▁자객
▁세균
▁용납
▁샤이니
▁쇼우
▁심복
▁요가
▁최민
▁파비
▁포섭
▁연막탄
▁조슈아
▁윤영
▁몽환
▁레이브
▁뜻밖
▁반쪽
▁오현
▁양방향
방지
▁구스
▁대지진
▁Space
oj
▁사칭
▁을시
살이
▁Gal
▁떠나가
ather
ouble
▁밴쿠버
▁프리퀄
▁핍
▁멱살
▁실컷
▁겐지
▁youtube
▁리비
▁안즈
▁영수
▁난도
▁인삼
▁토치
44
▁쿠보
▁쿠퍼
▁페가수스
▁주재
▁Hel
▁홍수
▁공적
▁장민
▁연대기
▁린드
▁치요
▁노리코
▁컷인
▁구스타
▁유상
ords
▁아오키
▁햐
uct
▁쿠루미
▁낙사
▁제련
▁효용
▁에디터
▁바래
▁개머리
▁료코
▁231
▁피고인
▁계약서
▁정부군
br
▁서바이버
▁코스모스
▁깐
립스
▁수송기
▁용족
▁오라클
▁명심
▁진명
▁Feel
oe
▁교활
▁사념
▁자물
ames
▁베가스
▁거침
▁달려드
▁옅
▁흡입
▁LEVEL
▁op
▁Bu
▁고영
▁오소
▁유족
▁코타
▁관람객
▁중대장
▁타타
TER
▁올려
▁옥수수
KO
END
▁PG
▁뭉개
▁판명
▁경상도
▁짓거리
▁은근슬쩍
▁자물쇠
▁텝
▁보름
▁Je
▁두각
▁비견
▁Kim
▁극하
개골
거스
사노
▁HT
▁근방
▁웬디
▁Say
▁mAh
▁아날
▁함경
▁가르시아
▁브라우저
▁안톤
▁하가
▁코스모
▁금단
▁최준
▁불러내
▁로더
▁이부키
▁앉히
▁약품
▁출진
▁나가사키
▁방주
▁간직
▁페드로
yr
ople
▁근로자
▁즐거움
▁트리니티
▁폄
▁잭스
▁뜸
▁후진
▁오사무
▁조공
▁법령
▁다다르
▁부착물
▁손발
▁나카지마
▁대첩
▁램지
▁바카
▁투지
▁협의회
▁견고
▁햄튼
▁min
▁need
비슷
▁라몬
리아스
▁아와
▁구식
▁앙쥬
▁설립자
▁사루
▁뜯어내
▁청문회
thing
▁병합
▁소양
▁JYP
▁마쓰
▁마즈
▁일간
▁저질
▁재기
▁주점
▁Ret
▁피쉬
▁피통
▁흑발
▁지출
▁남녀공학
분투
▁막스
▁성물
▁경멸
▁벗겨지
vil
▁조련
▁크레인
▁아누
▁꼬맹이
▁레베카
▁에니
▁카나코
교도
▁도봉
자스
▁코아
부르
▁Sou
▁를르슈
▁겸임
▁골절
▁식구
▁치솟
나우
▁여제
동물
▁Dem
태격
후미
▁이서
▁조동
▁티격태격
▁비화
▁이그
▁걔
설수
▁백스
▁컬트
▁조그맣
▁모리스
▁Tour
▁명계
▁GTX
▁스타킹
▁말라
▁발열
uel
▁하강
곡리
ODE
▁변기
▁난데
▁외지
▁누비
▁버팔로
▁부포
▁후사
▁지원군
▁카로
▁평면
▁어려우
▁덴마
▁탤런트
로리
▁견습
▁지네
▁톰슨
▁규율
▁전광판
▁동남아시아
▁로밍
▁430
▁LOL
▁나이지
▁나이지리아
▁횃
뚜기
▁동률
▁똑바로
▁셔먼
▁어정
▁역마
▁Kill
▁개머리판
▁포커스
aser
▁신스
▁238
▁닳
노프
린트
▁프랑켄슈타인
▁위아래
▁노동조합
▁매튜
▁형주
▁KBL
▁라카
▁마일리
▁부대장
메이트
▁근육질
▁지중해
▁스틸러스
비야
▁껴안
▁도가
▁Orig
▁만년
▁사서
▁요요
▁초밥
▁억누르
▁포이즌
슬로
▁GC
▁끌어안
도어
▁더듬
▁뒤바뀌
▁무서워하
▁입점
▁치어리
▁짭
▁스메
▁some
▁남원
arth
▁원가
▁정근우
▁236
▁르블랑
▁드럼매니아
▁사절
▁엘사
▁서남
▁철구
제트
▁잘나
▁참치
▁포츈
▁엑스칼리버
▁타깃
▁파병
▁플리트
▁하피
▁셧
▁한인
▁격납고
▁사일런트
▁Great
ner
▁마로
▁WORLD
▁열화
▁이규
▁이북
▁치아키
▁목장
▁Beat
▁테디
고스
▁싯
▁놀러
▁매크로
▁파라오
ormal
▁뒤집어쓰
▁방아
▁인턴
▁연주자
▁265
▁미니건
▁군세
onna
▁마커스
▁뫼비우스
▁표류
▁기대감
▁장문
▁옐로우
▁아스가르드
▁원정대
팽이
▁올레
▁Story
숭아
▁방탄복
▁메커니즘
▁아브
ways
▁팔다리
▁간과
▁Luc
▁them
▁복식
UND
▁김건
▁엘라
▁일파
▁PERF
▁아디
▁경기관총
▁이라든지
▁넥스트
▁주유소
▁감찰
▁통통
▁NAS
▁본뜨
▁이리야
▁이윤열
슐리
▁다비드
▁세이프
▁위안부
▁티베트
▁원사
▁마츠다
▁상병
▁신야
▁블러디
▁앞머리
▁하르트
▁구실
▁가로지르
▁고야
▁내신
▁스트롱
37
▁노미
▁수트
▁WWF
▁3500
▁로아
iful
▁MAD
▁사이킥
▁저술
▁her
▁Tech
문화
▁루가
▁백과
▁일전
▁강민호
▁<<
▁질럿
▁항소
▁피스톨
마니
▁편찬
▁리비아
▁서슴
▁밀리터리
▁땅굴
▁바바리
▁개관
▁폭죽
배기
레스타인
입구역
주니어
▁어진
▁쿡
리역
ANG
▁Album
구멍
▁이모티콘
▁대나무
▁픽처스
ental
fl
▁선율
▁When
시간
▁시속
▁코코로
▁풀타임
▁정준하
천리
▁불굴
▁상디
▁쓸리
▁정설
▁한국식
▁판다
▁로데
▁쿠즈
▁가희
▁김장
▁조라
▁DIO
▁공평
▁막시
▁출국
▁순전히
▁한없이
▁로드리게
▁내려치
포동
▁GE
▁외화
▁족족
▁사우디
▁약사
ations
▁칼데아
▁암묵
▁즌
▁기껏해야
▁라르
▁공연장
▁케네디
▁팔아먹
▁Step
▁구기
▁마개
▁곧이어
실록
▁갈비
ene
▁위드
▁훌쩍
▁232
프스
가키
▁노어
▁볼링
▁세인
▁희한
▁돌려받
▁급감
▁실기
▁집게
▁오레
▁조부
발리
▁일괄
▁드로이드
▁샛
▁마성
▁진중
통일
▁공구
▁레티
▁물결
▁헤엄
▁곁들이
▁마레
▁맨서
▁옥스
▁의약
▁홍차
▁명하
▁숙적
▁음파
▁참수
▁테드
▁호루스
▁she
OSS
▁금세
▁조건부
▁결번
▁번쩍
▁수첩
▁심영
▁두개골
▁산산조각
▁얼른
▁행렬
예프
▁원산
▁루디
▁세리카
▁대북
▁온건
▁의병
▁힛
▁역적
▁금빛
▁언뜻
페르노
▁변속
▁재결
▁엽기
▁."
▁바빌
▁플롯
▁공격대
▁다르크
▁도맡
▁서강
▁소굴
▁전위
▁인페르노
▁넬슨
▁손대
▁푸딩
▁Death
▁최승
▁비타민
▁푸시
시즘
▁독살
ait
▁수식어
▁Champion
▁괄호
▁사학
▁수없이
▁대영
▁양현종
▁투혼
▁팔레스타인
▁안영
▁벨리
▁천자
body
▁SNK
▁1931
투사
▁총애
그래피
▁못생기
▁사이렌
사전
▁하네
▁혼잡
▁비행장
▁퍼레이드
▁찻
▁무례
▁서경
▁착안
▁맥크리
상부
▁지마
▁sec
▁외교관
▁왕정
▁육신
▁콘스탄티노
▁인기가요
뉴스
▁삼국사기
▁뮐러
로그램
▁art
▁쫒아
▁510
▁무마
▁Line
▁양육
▁승승장구
게일
틀린
IDE
▁이불
AE
▁도면
▁엘더
▁Tra
사무소
▁닷컴
▁디나
▁박원
▁카툰
스틱
▁니콜라
▁교묘
▁파커
▁리더십
▁타츠미
ume
▁토모코
도스
▁장지
▁족보
▁들어올리
▁이면
▁구가
▁다던
▁매혹
▁불륜
▁Who
▁밀짚
▁쿠토
▁조각상
빙글
▁윤지
▁이크
▁다이어
▁종로구
▁자결
▁흑색
바야시
▁LCS
▁프리티
rough
▁남서
▁래디
▁Bus
▁1700
주곡
하임
▁나즈
▁워페어
▁탈락자
▁이클
▁타사
▁스캇
▁장발
▁코라
슬라비아
▁1935
▁유고슬라비아
▁케일
욕장
▁쟤
파일
▁Apple
▁TRA
▁조성주
▁비방
▁첩자
마을
▁철자
orever
▁섬머
▁포박
▁황녀
▁XBOX
ESS
▁딱지
▁이코
▁추축
윤수
▁존기
▁신뢰도
▁꼼꼼
▁재킷
▁쾌락
▁전면전
▁클래시
▁캡쳐
▁747
▁에리스
ral
▁신진
84
▁변칙
▁지석
INAL
▁이민자
▁횃불
▁미츠키
▁대구광역시
▁댁
▁기색
▁증차
▁환율
상스
▁국지
▁나선
▁셀렉
▁자하
▁Electr
▁노우
▁추기경
▁에델
▁모로코
▁겨냥
▁괴짜
▁래더
▁러프
▁선량
▁공모전
▁이따금
▁경비대
▁다는데
▁SB
▁아오바
▁데스노트
▁about
▁RT
▁권혁
▁달랑
▁자일
ander
▁니지
▁지겹
▁감격
▁애덤
▁305
▁사고방식
▁SUPER
▁기폭
▁2400
uss
▁바퀴벌레
▁사오리
▁아이슬
▁개표
▁원안
덴티티
▁양의지
▁아이덴티티
법인
▁공전
▁노련
▁내던지
▁스트링
▁에볼루션
▁히로미
▁혈압
▁바가지
▁합격자
▁모사
▁백웅
▁640
▁이바라
▁화성시
▁짠
▁Mal
▁콜로세움
펙터
▁실물
▁아날로그
▁설날
▁왼발
▁일찍이
▁자행
▁절제
비어
▁완승
▁질책
self
▁각본가
▁코만도
▁백호
▁장화
▁삼각형
▁오클랜드
▁페널티가
▁급소
lease
▁325
▁떠넘기
▁극동
▁사벨
▁조경
▁한테서
▁채권
▁Pass
▁타케우치
▁가신
▁천왕
▁물어뜯
▁Dead
ortex
▁초음
▁디스트로
▁나니
▁발효
▁바사라
▁come
▁이클립스
▁거너
▁인계
▁장시간
▁카자흐
▁NV
▁뜯기
▁불계
▁악재
다이스
▁몰아가
▁노기자카
▁디스트로이어
31
구스
▁수만
▁연못
▁황천
▁IEM
▁Tem
▁원로원
▁EXPERT
▁된
▁고프
▁잔존
ines
▁팽팽
▁독립운동가
리언
▁야유
▁초연
▁229
▁정신기
▁파충
▁개인차
▁버크
▁무리뉴
▁지니어스
▁사업가
▁마구잡이
autiful
▁루시우
▁얌전히
▁예비역
▁타이가
▁장영
▁토머스
▁EASY
▁바운
▁완주
▁총수
▁Ant
▁NAT
▁시즈쿠
awn
▁황폐
▁전주시
▁Green
▁단도
▁1910
▁고척
▁굳건
▁무예
▁오기
▁허물
▁스펙트
▁흑기사
▁Home
▁League
▁각광
elie
▁공격진
▁각주
▁새턴
▁신룡
▁죠셉
▁코퍼
▁Lee
▁시티즌
▁아이슬란드
훈련
▁이어주
▁쏙
▁내치
▁망신
▁비어
▁어야지
▁다리우스
다주
▁동자
▁시우
▁솔루션
▁아이파크
▁큘
위원
▁EL
▁샤인
▁제각각
▁Wanna
▁비들
▁TEAM
▁이연
▁강대국
▁가온
▁인제
▁제국주의
창민
▁Tom
▁아키코
▁우즈베
▁무구
▁마천
▁앙상
▁과부하
▁검출
▁들이받
▁ma
▁복판
▁송신
▁스구
▁선호도
▁컬쳐
▁껍데기
▁주저앉
▁유괴
▁백종원
▁대물
▁북벌
▁넛
▁AAA
▁실비아
IAL
▁스쿠
▁호조
더미
바탕
▁룰렛
▁숙박
▁이하일
▁혹시나
▁갉
▁랠리
▁Del
▁1918
▁프라모델
▁간수
▁분실
▁정주
▁중심부
▁ah
▁da
▁이효
▁노을
▁미분
▁종속
▁컵스
▁에그맨
▁사토미
▁트와
▁하룻
츠미
트릭
▁당부
▁밀라노
볼트
아르
▁이산
▁추대
▁뒤떨어지
▁장진
리카와
▁심해
eter
▁건달
▁IMF
▁사이코패스
▁히키
▁GAME
▁말뚝
▁뒤섞
▁로스쿨
▁마리나
▁하루히
백호
▁눈여
ily
▁키네
▁자릿수
▁히데키
▁sw
▁박동
▁스무
▁자초
▁마니아
▁모자이크
▁강국
▁평온
▁Friend
▁토착
▁사이키
▁지도부
▁로건
▁무법자
문서
▁설교
▁허접
▁용인시
▁Cha
▁자선
▁디셉
▁돌이키
해머
▁나오토
▁시그널
▁맹렬
▁들이닥치
▁결정력
▁코쿠
▁동떨어지
마드
▁한미
보잡
▁무토
▁컨버
▁품목
▁클로이
▁기념일
▁승자전
▁알려주
▁Level
▁뎁
▁BMS
68
▁단호
▁라이저
▁그레이스
▁묵묵
▁듣보잡
▁에비
rol
ves
▁Univers
▁김상수
▁박진영
94
▁골격
▁이를
▁아라이
▁캅
▁사보
onic
▁디언
▁신영
▁코피
▁Chap
▁Pack
ISS
▁가관
▁조만
▁태반
▁Mac
테면
▁벼슬
▁재래
▁발사체
▁비틀즈
▁후타바
▁엄하
▁정신병
▁기울어지
▁스코어링
▁bit
▁나돌
▁백설
▁불곰
▁이큐
▁정액
▁이를테면
▁렬
콜로
▁발포
▁AO
▁머큐
▁영도
세이돈
ider
▁포세이돈
▁격분
▁성계
▁분대장
▁알제리
▁하오
▁돌기
▁레츠
▁타코
▁글래스
▁눈길
▁독소
▁요크
▁재계
▁레일건
▁풀어내
▁황인
▁장난치
▁마르크스
▁고군
▁라키
ouch
▁TBS
▁불량배
사관학교
▁기권
▁나자
▁조준기
bsp
▁실격
▁루시아
▁니까요
▁완력
ible
▁결선
▁핑거
▁미야코
▁hell
▁맥도날드
▁Young
▁고라
▁속출
▁제이콥
▁NXT
▁사카키
▁조종당
▁DL
▁일회
▁차차
▁765
DER
▁251
▁크리스티나
▁메기
▁마츠리
▁바그너
▁보살피
▁약탈자
▁계책
마이트
▁제이미
72
▁빈민
▁일컬
▁발랄
▁뱃지
▁오줌
▁한류
▁무궁화호
▁아이카
▁케이스케
▁이다
alent
▁에마
▁외동
▁파헤치
my
▁Japan
▁분하
▁버지
▁야미
▁잠정
에트
▁대칭
▁치세
▁스릴러
▁순발
▁노지
▁뒤엎
▁ABC
▁마음먹
▁제동
▁제아
▁스테판
▁클리프
▁빙글빙글
▁뒤돌
▁신재
도니아
▁hats
▁강북
▁반신
▁부르크
▁!!!!
벌이
▁시게루
▁괴로워하
▁마르셀
▁구축전차
▁스트레인지
▁그늘
▁nbsp
▁느와르
▁조선인
▁서주
▁유희열
구석
▁놀림
▁상수
▁신검
▁저편
▁their
▁마담
▁매뉴
▁살벌
▁굶주리
▁순발력
▁밀짚모자
▁펑펑
▁바닷가
독스
▁홍익
그럽
▁Full
ubl
▁틈타
▁클라라
▁이남
▁특혜
▁업소
▁징집
▁ATM
플러
▁전조
▁혐한
▁윅
▁펠레
ha
회전
▁개헌
▁Que
잣집
▁설리
일라잇
▁560
▁바깥쪽
▁조지아
▁트와일라잇
▁Champions
St
▁모선
▁660
▁블리치
▁셰이
▁프리랜
▁피콜로
▁안대
leep
선스
▁에지
▁리빌
▁POWER
by
▁역행
▁츠지
▁피시
icle
▁루돌프
▁리투아
▁리투아니아
트니
▁승용차
키오
▁반반
▁포제
▁잠자리
헤드
▁형법
▁시이
▁주권
▁어웨이
▁스노우볼
송이
▁기형
▁정가
▁라이선스
▁관세
▁포톤
▁황재
▁르브론
▁켈트
▁동호회
▁이타치
▁가차없이
▁서스펜션
수염
▁리디
OTH
▁아이오
▁카이바
▁동독
▁보류
▁분식
▁와라
▁조승
▁다이너마이트
제품
▁매춘
▁여군
▁ㅋㅋㅋ
press
▁버들
▁척추
▁끼얹
▁황색
ement
▁럿
▁재일
▁hatsan
▁낙동
▁스도
▁은인
▁퇴임
▁사토루
로트
▁길가
▁콩고
▁res
▁로렌스
▁왕세
▁다이애나
▁밀수
▁TSM
▁사이클론
▁긍지
▁신해
수아비
▁허수아비
툴루
▁매매
현수
▁탁구
▁상반신
▁스타더스트
▁차징
▁레이팅
▁어정쩡
▁호시노
▁가격대
▁야오
▁잔잔
▁절실
▁르네상스
▁금정
▁생소
▁희소
▁수호신
▁이광수
멘션
▁기시
▁남코
▁경제력
▁디멘션
▁브리스
▁호타루
매기
▁세속
▁티아라
▁하룻밤
gg
보스
▁레진
▁소고
IF
레이브
▁심볼
▁집어던지
▁농도
▁레인저스
▁경산
▁분출
▁칵
▁성운
태인
▁창시자
▁히브리
▁심부름
바인
삭스
▁==
▁건만
▁모조
▁상층
▁요네
▁코니
그러
▁OT
▁도살
▁발당
▁서산
▁티오
▁미우라
▁피어스
▁GA
▁웬리
▁큐라
▁일평균
펠러
▁-,
▁Ele
▁마라톤
▁아카시
▁소방서
▁반년
▁충이
▁문파
▁des
폭풍
▁도래
▁서커
▁짜장
▁로미오
▁줄리엣
▁지바
▁지브
▁237
▁아이코
▁20000
▁넷째
▁단축키
▁대항해
▁이반
▁살포
▁김광현
▁살육
▁송정
▁난징
▁로트
▁오웬
▁하운드
▁감마
▁앞부분
▁패러독스
▁박건
▁성의
▁장자
▁알고리
uj
▁송지
▁애착
라이어티
▁Shad
▁가발
▁판교
▁헤카
▁정상급
▁버라이어티
거래
▁담그
▁수기
▁호르몬
▁찬란
▁환술
▁DH
▁선단
▁노미야
▁프리랜서
▁근친
▁쿠지
▁활발히
▁노태우
▁헤드폰
▁244
▁SUV
▁유이치
▁봉투
▁빗대
▁직종
▁꽃잎
▁Mad
▁아우라
▁여운
▁NMB
▁아사미
▁ㅓ요
▁명치
▁스타터
▁덜하
▁반입
▁지원자
▁카나타
▁파라다이스
▁쳇
▁양분
▁려나
▁아르테미스
▁람보
▁일면
매김
▁그렌
▁범퇴
▁뉴비
▁망원경
▁아사쿠라
▁ㅠ
미트
▁레이서
▁펠릭스
▁라이스
▁강진
▁메사
▁정훈
카르
▁야루
▁자리매김
▁결속
▁사타
▁유투
▁추론
▁타카미
▁유린
▁주화
바위보
▁연장포
▁가위바위보
▁늄
▁발도
▁조나단
대군
▁금천
▁브금
▁MUSIC
▁제천
▁황룡
▁과거사
▁해밀턴
▁쿠사나기
▁파우스트
ground
▁발병
▁Att
▁김재환
▁약혼자
▁사나다
럴드
▁배틀로
▁콜트
▁자이로
▁Lun
▁시트콤
▁전라도
▁html
관리
▁시베리아
▁체면
▁뛰쳐나가
ori
▁속죄
▁압둘
▁264
▁아키야마
▁특례
▁덤블
▁모차
▁주리
▁목욕탕
▁알고리즘
▁미적
▁Mel
▁두루마리
▁넷플
▁향신
▁Mil
▁넷플릭스
▁배고프
▁지드
▁한문
▁008
▁내무
▁미역
▁248
▁하세가와
▁크라이시스
▁주지
▁보아
▁우왕
▁팬더
▁boy
▁센고쿠
▁떄문
▁포신
▁이재명
▁계엄
플라이
▁동성애자
▁다분
▁외무
▁한라
▁워해머
▁하야시
스코
파르
▁거하
▁!!"
총사
▁릴레이
▁스크랩
▁카미야
▁국보
▁마네
▁덤벼들
▁바이트
▁명절
▁연두
▁HKT
hn
▁1917
▁퇴직
▁호밍
▁Mer
▁베로니카
▁냉철
▁혼내
yo
▁뿅
▁통폐
▁라이브러리
볶이
▁갈망
▁크툴루
▁1933
디난
▁니티
▁워스
▁짬뽕
▁쿠우
▁곡괭이
▁매뉴얼
▁일렉트릭
▁광교
▁탐지기
▁하나같이
▁알렌
▁타도
▁동강
▁실례
▁ESP
▁도류
▁옆집
▁디바인
▁견주
▁김남
▁이시스
▁보람
네이션
▁카디널
▁서든
▁저속
▁242
▁표지판
▁크리스티안
산리
▁판넬
▁펌웨어
▁인조인간
▁커밍
▁그리워하
▁카나메
▁루니
▁불릿
▁증식
▁맹독충
가짐
서니
▁아코
▁혹독
▁더욱더
▁Ho
▁장작
▁가맹
▁노장
▁카미조
▁Games
▁관리인
▁클라크
▁왕창
▁치하
▁코드네임
▁설원
▁신탁
▁통장
▁티비
▁항마
▁There
▁카루
▁몰두
▁식용
▁아귀
▁안주
▁깨뜨리
▁쟝
▁Easy
67
▁낙양
▁전범
▁무기고
▁모모코
▁예컨대
▁포터블
▁대격
▁주둔지
우먼
▁고글
▁은둔
▁돌고래
▁마르티
▁불명예
아프
▁네기
▁유품
▁건너오
▁문경
▁앤트
▁거북이
▁Pa
ility
▁wanna
▁와드
▁난데없이
▁동아일보
▁비야
덕이
▁김우
▁작자
▁엘리시
라트
▁도키
▁시브
▁스테미
avy
▁기정
▁보전
▁치어리더
▁고비
▁성북
▁지폐
▁SKY
▁Spe
▁엑스포
▁반열
▁시영
▁위용
▁정박
▁보안관
▁뼈아프
▁탄력
▁머큐리
스기
▁거들
▁궁정
▁불어넣
▁Road
▁수렵
▁신약
▁타이완
▁공민
▁발단
▁노하우
▁어르신
▁스펜
▁블로우
▁보옥
▁편향
ense
▁밑바닥
드릭
▁나트
▁한족
▁비겁
▁이매
▁잔치
▁징벌
ison
▁편차
▁460
▁수모
▁총체
▁칩셋
▁우울증
▁명실상부
▁VC
▁이견
▁파피
▁철학자
▁리어스
▁말버릇
▁신세기
▁구레
▁요나
▁이국
▁구작
▁취항
▁EE
▁백마
▁자서
▁적도
▁아서스
▁농어촌버스
▁도네
▁콜린
눅스
▁사변
▁색적
▁254
▁펩
▁금물
▁메이스
▁왜냐면
록스
▁호라
▁들어맞
▁유키코
▁항공대
유산
▁공황
▁부피
▁들어주
▁Brave
조선
▁동백
▁섭정
▁뒷담
▁미얀
▁몰려들
▁다의
▁per
▁뒤쫓
▁737
▁프로페
▁차오
▁1928
▁이블
▁파치
uff
▁경원
▁스니
▁실록
▁이완
▁귓
▁포옹
▁포괄
▁316
▁웨일스
▁선더
▁번들
프레이
▁모니카
▁던데
▁실린더
▁FT
▁단국
▁와스
▁통폐합
▁원대
게이트
라이터
▁클라이맥스
보레
▁유흥
▁인파
▁교육감
성군
깃거리
▁니콜라스
▁역장
▁산지
▁dr
▁진풍
▁패자전
이야
황후
▁성종
▁엔도
▁인술
▁가샤
▁Esports
▁방수
▁호도
▁501
▁가우스
▁구판
▁기로
▁냄비
▁소림
▁혈관
▁윳
▁다급
▁전기톱
▁페러
▁마부
▁셴
▁조끼
▁Long
▁에미야
▁연장선
▁궁궐
▁규명
▁리눅스
▁사카가미
▁빗자루
▁Snow
나크
▁브렌
▁샤먼
▁키쿠치
▁히로키
oup
영웅
▁나약
▁선교사
▁이신형
▁재수없
▁탑승자
▁Call
▁폐교
▁파충류
▁오피셜
▁나래
▁비나
▁대니얼
▁FS
▁리크
▁속주
▁사냥감
▁굼
▁례
mon
▁민수
▁받침
▁홀수
▁Key
▁프리덤
▁left
▁메이크업
▁퀀
▁중용
▁308
▁오토봇
▁월광
92
날레
▁통조림
▁탄산
▁호족
제비
▁겁먹
▁국내외
▁싸그리
▁테두리
미아
box
▁귀걸이
▁승조
▁이룩
▁팥
▁Hi
▁길티
▁몸값
▁코그
내셔널
▁Bet
▁WCW
▁인터내셔널
▁레퀴
오피아
▁물방울
▁에티오피아
▁만담
▁에루
▁익사
▁243
▁발자국
▁윽
▁아그니
▁자기장
▁Port
ITE
▁모성
▁유파
▁슬럼프
베다
▁명언
▁순양
▁어감
▁곧잘
▁Arc
▁레이코
▁마일리지
▁돌발
▁임정
▁530
▁타이머
iri
▁et
▁구매자
꼬박
▁애원
▁양팔
▁총검
▁평시
▁포유
▁꼬박꼬박
산면
▁애호
▁향신료
▁선취
▁은어
▁802
▁285
▁등록금
▁떠다니
▁분당선
▁자연히
WAR
▁조예
▁노다
▁pop
▁대함
▁살인범
▁1927
뮬러
▁내분
▁쾌적
노세
▁본대
▁유주
▁TECHN
▁LB
▁미행
▁1932
▁간담
▁눈알
▁사적
▁쿠페
▁터너
▁테크놀
ITAD
▁드러머
▁천문학
▁사이퍼즈
▁김학
▁유가족
▁크루저
니발
제프
▁배당
▁부팅
▁ACT
▁방아쇠
▁방향키
▁제레미
▁Secret
enn
▁Va
▁친숙
▁크랭크
▁보컬로이드
▁훤
VEN
▁기아스
▁리얼리티
▁수목
▁자대
▁귀속
▁천안시
▁1929
▁니어
▁무효표
▁생몰년
▁야타
▁청혼
▁박석민
▁수비대
▁성대모사
▁로드리게스
▁눌리
▁Her
▁치즈루
▁been
너드
▁신예
▁NCT
▁창법
▁권력자
▁교포
▁사옥
▁청자
▁부잣집
▁성단
▁한국사
▁1925
▁만연
▁재우
▁마귀
▁비닐
▁연합국
LY
▁MI
▁천성
▁후추
▁게이츠
▁일제히
▁es
▁구룡
▁자상
▁구원자
▁노무라
▁ZZ
▁지간
워지
▁그릴
▁나코
▁Knight
산부
십자
덩어리
▁복서
▁분담
▁통영
▁666
▁오지환
▁Gh
▁니스트
▁GITAD
▁나진
▁나토
▁아구
▁고고학
▁거행
▁템페스트
▁아소
▁에인
▁우니
▁아르마
▁고압
▁나연
▁war
▁SDRAM
▁VI
▁소각
▁웅장
▁카키
▁박찬호
▁연구생
▁헤비급
▁브라이트
▁OC
▁병풍
▁선점
바라기
▁졸지에
▁모의고사
▁요코야마
▁농성
▁동두
▁맨손
▁팍팍
▁촌장
▁피르
▁후우
▁ROX
▁클레오
▁까칠
▁와해
▁앞당기
▁시라이시
▁학군
▁그지없
▁대항전
▁LM
▁은총
▁백병전
GP
▁요마
▁카빈
▁Kar
▁불상사
브레
▁도원
▁모금
razy
▁Bro
드런
▁아세
▁양정
▁580
전생
▁로메
▁여신전생
▁남주
▁아발
▁읽히
▁잠재우
▁칸자키
▁크레용
▁대림
▁대방
▁NR
▁삼총사
▁중전
알라
▁육아
▁메즈
▁통근
▁Cortex
▁버트
▁625
파치
▁프롬
▁리벤지
▁무의미
▁단수
▁드래건
▁떡볶이
▁LPDDR
▁김봉
▁속아
▁장이
▁한수
▁거주민
▁바크
▁take
▁스펙트럼
▁도핑
▁뛰어가
▁바닥나
▁가평
▁의구
▁into
저곳
AKA
▁이방원
▁이곳저곳
▁관내
▁로군
▁로디
▁젠더
▁해부
▁303
▁김성현
▁서대문
▁어윤수
자락
▁김문
▁뱌
▁밀크
▁아즈텍
▁치우치
▁현저히
▁가락
▁모하
▁jpg
▁천리
란다
▁내비
뚤어지
▁김유진
▁톡톡히
도현
▁면담
▁재생성
ember
▁미니맵
▁고온
▁의기
학생회
▁김강
▁김보
▁스톨
▁행크
▁MOV
▁"...
대상
▁경복
▁이건
▁미소년
▁돼지고기
▁Gener
▁요금제
▁주선
지부지
▁흐지부지
▁슈우
▁오열
....
▁태권도
isode
▁Days
▁아샤
▁아돌프
▁과대
▁앙상블
▁걸어다니
▁강좌
▁레토
▁망언
▁직면
▁Stand
▁블랭크
▁점프력
▁Normal
▁VP
▁두세
▁발진
▁진홍
푸르트
▁결정타
▁양천
REAM
▁동방신기
▁뷸
▁외견
▁워킹
▁Fil
▁목격자
▁파스타
ied
▁슈테
▁몽키
▁선술
▁토모야
▁GITADORA
▁다레
▁아린
▁한신
▁브렛
▁외할
▁점장
▁증진
▁stay
▁방망이
공원
ugh
▁얼라
▁타무라
▁수학여행
▁라디
▁빈곤
▁일식
▁도우미
▁뿌리치
▁궁예
▁번화
▁이케다
▁권속
▁노카
▁룰루
▁엘다
▁이데
▁교통부
▁타마키
▁슈퍼주니어
▁조시
▁의구심
▁247
▁도지
▁양재
▁중앙일보
▁김응
▁바벨
▁고구마
▁연장자
▁을까요
▁타카기
▁한니발
올로
irc
▁사스
▁Eur
특기
▁수프
▁몰아주
▁오토메
ether
▁홈플러스
uction
▁사샤
▁주특기
▁Trans
▁레퀴엠
고짜
▁과묵
▁관현
▁다짜
▁버나
▁분파
▁자경
▁다짜고짜
▁완급
▁모란
▁정신줄
▁Hello
▁호신
▁힌두
▁손아섭
▁총학생회
▁김기태
▁엥
als
▁라멘
▁파란
▁판독
▁팽창
▁감명
▁힐러리
▁미츠루기
▁sl
▁담보
▁Cup
▁INT
▁구세주
▁이상일
▁역이
▁쿼터백
▁순화
▁long
▁수진
▁픽션
▁246
▁거리낌
▁셰퍼드
태현
▁다네
우로스
▁Jack
▁xC
▁만성
▁울버린
▁North
▁구위
ella
▁약초
ience
버섯
빼미
▁군포
▁기일
▁타노
▁노하라
▁알버트
▁단결
프레소
▁환상향
▁Ins
▁구덩이
ka
▁실세
▁징표
▁양날
▁페퍼
▁박지성
▁지만은
atter
▁남궁
▁윤상
▁평의회
▁모차르트
▁239
카타
▁박용택
▁알리스타
▁color
▁성불
▁역부
▁백발
▁연어
▁GU
▁해협
▁지금껏
▁클로드
▁음주운전
▁Direct
esh
▁명동
▁탈영
▁훈련장
▁사채
▁진이
▁470
▁game
조사
▁번작
▁아캄
▁야권
▁정품
icon
▁리그베다
효과
▁골문
▁번외
▁키카
▁디폴트
▁STAGE
쓸이
▁AH
▁디셉티콘
▁뻑
▁라피
▁저절
▁트란
▁펜타
▁서투르
▁Only
▁마케도니아
▁발해
▁앳
▁오른발
▁김규
▁노화
▁완투
▁주춤
▁방사선
바꿈
▁ㄹ세
▁폭락
▁플랑
▁포뮬러
프레이즈
▁랑그
▁태초
▁게오르
▁무스메
▁저절로
▁대덕
▁도란
▁적의
▁스사노
▁1926
사태
▁TC
▁풍습
▁갑작스레
▁미야모토
출력
▁Gra
▁Mach
▁밀양
▁야사
▁헤치
암리
▁손잡
▁배달부
▁Burst
▁남색
▁Ice
▁호크스
▁스에
자치시
▁마츠이
▁우에다
▁이용규
▁특별자치시
ince
▁비주류
▁1080
▁민망
▁그랜트
▁우르스
▁우에노
▁몬스터즈
▁별장
▁오션
▁제츠
mas
▁색기
▁쉐보레
▁속칭
reen
▁수반
▁축출
▁쓰레기통
afe
▁쟈니
▁전산망
▁가람
▁이비
▁제타
ents
구려
▁솔러
▁SHD
▁적잖
▁유유히
▁1924
▁미화
▁스캐
▁폄하
▁사나에
▁놋
ELL
▁iP
▁Som
▁캐치프레이즈
▁름
▁공소
▁승선
▁우후
임새
▁수두
▁태극기
▁헤이즈
▁분투
▁용시
▁유토피아
▁군장
▁에토
▁충무
▁딤
▁반찬
▁회식
▁넘어뜨리
▁일병
▁도로시
▁그렉
▁원내대표
고로
▁계주
▁직렬
▁풍미
▁Intern
▁우즈베키스탄
▁bet
▁볼프강
▁알아주
▁열등감
▁~.
▁민사
▁PPV
▁이름값
▁이마이
▁토리코
▁봉지
▁숨통
▁핸디
▁로빈슨
uman
▁레바논
IKA
▁지코
▁빠져나오
▁구구
▁소외
▁잡담
▁부끄러
▁소용없
▁낙태
센터
emy
▁WA
▁다테
▁한술
갯소리
▁262
▁코즈믹
▁케이틀린
▁자동변속기
▁와이파이
▁미카도
▁렝
▁경음
▁ser
▁지방도
su
▁순번
▁980
▁불어나
▁원동력
▁강시
▁교구
▁극명
▁금수
▁담장
▁세주
▁스텐
▁241
▁소비에트
나멀
▁MiG
▁머나멀
▁씨름
▁일침
▁솔트
▁위축
자위대
▁매끄럽
▁USS
▁왁
▁클레멘
▁계룡
▁look
▁댕
▁자림
▁깨달음
▁달구
▁스트라
▁고귀
▁페라
▁혈연
▁아이린
▁쳐들어가
▁시디
▁가요제
▁국외
▁부조리
▁행정동
밍고
▁발기
▁고군분투
ald
▁수병
프리트
▁중의원
▁폐위
▁KGC
▁건방지
▁끝마치
▁렴구
▁입석
▁특검
▁노이드
▁릴리즈
▁랜드마크
▁무용지물
▁카가미네
▁이븐
▁하복
베로스
ANCE
▁퓨처스
▁강희
▁벌집
▁괘
▁ed
▁슬기
▁중남
▁특무
▁샌드백
▁튀르크
ology
▁라칸
▁손질
▁숙종
▁날라가
▁성매매
▁켄시로
▁톈
▁장창
▁형용
▁김동현
▁위스키
▁케이타
▁페일
▁마이스터
▁헤르메스
▁원반
aph
▁리세
▁용례
▁편파
▁카이지
메르
URE
▁절판
▁화살표
ids
▁페미
ORPG
▁DEX
▁숄
핑크
ARK
▁셔플
▁잠적
▁{{{#!
▁우스갯소리
WA
▁사파
▁안착
▁동맹국
▁공판
▁군용
▁시험장
▁주희
▁뒷모습
▁브랜든
▁빙하
▁헐리
▁아머드
▁크라켄
▁music
▁IR
▁은지원
▁낙타
▁동복
▁맨몸
마르크
▁기프트
▁올빼미
▁talent
▁불시
▁680
워커
▁디비
▁외과
▁아키하
▁피의자
▁Winter
▁HA
▁신혼
▁에스프레소
OLD
▁원투
▁잠잠
▁직사
▁드링크
▁마진
▁탄피
▁큼
INK
▁본업
▁장려
▁종업
▁ㄹ지언정
▁도요토미
▁이야깃거리
▁디노
▁성자
▁오성
▁천차
▁추상
▁충당
▁취역
▁송라이터
놀드
▁디어
▁빠름
▁서건
▁안건
▁대통령령
▁스필
▁조디
▁즈이
▁허준
▁신천지
▁선착
▁음독
▁직설
▁MOD
▁소니아
▁핸들링
진구
▁306
▁저스트
▁야마시타
▁클러스터
oph
▁NATO
에리
▁숨지
▁심도
▁위압
▁윤회
▁푸치
▁한겨
▁304
▁크나크
▁카트리지
국수
▁겨자
▁비지
ates
▁002
▁태양계
▁패트리
▁강기
▁스크림
▁제리코
▁해바라기
▁깨물
▁니깐
▁샬럿
▁연정
▁타오
▁에스퍼
▁think
▁쏴
코리아
▁311
▁경계선
▁말려들
▁렐름
▁맛집
▁연휴
▁아이샤
▁체육복
▁기승
▁비호
▁스톱
▁필멸
링턴
tus
▁임종
▁꿍
▁소거
▁장정
▁공포증
uth
▁액자
▁왓슨
▁커튼
▁Die
▁남다르
▁스카이워커
타마
▁붕어
▁탈모
▁부담감
▁넋
▁빙빙
▁염라
▁친부
▁불계승
▁싹쓸이
▁말썽
▁역순
▁의인
▁LF
▁고동
▁샘플링
▁포르쉐
▁HL
▁유구
▁fff
▁여객기
▁유권자
▁열폭
▁630
▁우루스
▁다물
▁칠곡
▁공손찬
▁군청
▁역도
▁자속
▁힘드
▁253
▁내지르
▁차츰
▁급진
▁키타로
▁배틀로얄
▁셀레
▁망가뜨리
▁당진
▁크랙
▁스터디
▁디바이스
▁공무
▁이브스
▁Sports
▁Network
▁악단
드기
▁후크
▁탈바꿈
▁가계
▁체자
▁팝콘
▁메로
▁302
▁양각
▁플릭
▁CLG
▁최태
▁환기
▁모태
▁공식전
기수
▁화이
▁이펙터
▁전자기
▁하야미
▁가져다주
▁선동열
▁컴플렉스
iki
▁방전
▁별반
▁우진
▁트랭크
▁카카오톡
▁가우
▁외주
피디아
▁반역자
▁사인회
▁믿기
▁죠타
▁Cur
▁SNH
▁생활관
▁연합회
무쌍
lin
▁니라
▁다발
▁적나라
진창
▁손견
▁오두
▁Inc
▁위키피디아
▁병음
▁분비
▁인가
▁Pan
▁뒤따르
▁인위
▁싸구려
▁계투
▁이동한
▁주제가
▁레디
▁위급
▁토도
▁소나타
▁손아귀
▁역부족
메트
▁도화
▁송창
▁인대
▁잔상
▁촉한
▁케이티
▁기조
bit
▁쿠미코
▁파밀리아
▁정오
▁rev
▁After
ki
▁금상
▁코비
▁두들겨
▁마음가짐
▁미네르바
▁손색
▁착탄
▁표범
▁방콕
▁사들이
▁산림
ures
▁기동대
가타
팔구
▁울타리
▁충실하
어처
유예
▁독주
▁자서전
▁미니어처
▁엉망진창
▁도굴
▁샌즈
▁외로
▁메피스
▁무기력
tor
▁호가
▁장윤
▁사각형
▁섣불리
▁수조
▁십중
▁지단
▁허드
야구
▁박승
ami
▁맹장
▁미흡
▁최유
▁십중팔구
za
▁IZ
▁모용
아보
▁나이스
▁셔터
▁하체
▁활로
▁기념관
▁시발점
▁보더
▁실크
▁760
▁인민군
▁하락세
리케
▁목성
▁터빈
▁버지니아
▁가도
▁베누
▁요절
▁이프
▁짧아지
반짝
일비
▁보육
▁전륜
▁풍신
▁반짝반짝
▁쿠로사키
▁House
▁GF
▁기약
▁샐러드
꺼이
▁멸시
▁미어
reet
▁본심
▁양복
▁종파
▁지난해
▁Lost
▁개중
▁Reg
▁근위대
▁Spir
▁로케
▁착시
▁학실
▁호적
▁오키타
▁Ha
▁승수
▁타란
▁NCR
▁Roy
▁명맥
▁USA
▁텃
▁걍
▁두꺼
▁월트
▁서식지
▁시테
▁서초구
▁보드게임
▁비관
▁LPL
▁RES
▁Kiss
▁재량
▁직급
▁쿠가
▁블라인
▁Inter
▁숟
▁가뭄
▁사유리
▁바꿔
▁오유
▁005
▁조종석
GO
▁강승
▁황기
▁데저트
▁blue
신저
혜진
▁수완
▁dream
▁도인
▁레거
▁자급
▁수갑
▁away
▁퀼
양군
전력
▁TL
▁등대
▁발주
▁육탄
▁브리지
▁지선버스
▁Again
▁격발
▁참호
▁충신
▁유세이
▁티타늄
▁후지타
▁찝
▁라울
▁288
▁스레드
▁순하
자치도
▁골머리
▁2100
▁제주특별
▁제주특별자치도
▁둔갑
▁빼먹
▁엄호
▁카봇
▁번역본
▁이승현
▁뚜벅
▁심기
▁재편
▁쾌감
unch
▁Dig
▁RGB
va
▁서프라이즈
▁매화
▁원체
▁바티칸
▁세이렌
▁속삭임
▁아리마
▁코퍼레이션
▁QS
▁안락
▁작사가
▁매그너스
▁뺨치
▁수양
▁미스틱
▁원나라
▁SPEC
▁울산광역시
YS
수원
▁대망
▁발성
▁요시코
▁사무총장
ato
▁노년
▁TA
▁카푸
▁555
▁은지라
▁제라드
▁프랑크푸르트
하고
▁에고
▁하동
▁080
▁광신도
▁제니퍼
▁악녀
▁MOM
▁김연아
▁FINAL
▁차근
▁청각
▁%]
▁개당
▁정산
▁제이나
▁서현
▁수회
▁신차
▁다이버
ks
▁알마
▁요시카
▁퀘이크
▁.?
▁단추
▁신변
▁구설수
워키
차원
▁앰프
▁치환
▁노쇠
▁파프
QU
▁기나
▁붉히
▁Fun
▁Wol
버둥
▁영력
▁짜내
▁초조
▁쌍방울
▁남대
▁온리
▁bo
▁승마
▁캐쉬
▁이나바
▁음절
▁다이묘
▁Dan
▁따라붙
▁유니버설
▁린네
▁위선
▁사마귀
▁어김없이
▁질타
▁패티
▁볼드모트
게더
▁도메인
▁팟캐스트
▁무투
▁흉부
▁언론인
▁Tim
▁원만
▁원서
베트남
▁서건창
▁눈매
▁개소리
▁대대장
▁피츠버그
▁소미
▁산드라
▁투게더
▁네버
▁공학부
▁로이스
▁깡통
▁홀로그램
마음
▁열강
▁침범
▁기증
▁샤우
너티브
▁애슐리
▁잡아먹히
▁얼터너티브
▁김미
▁다희
▁투창
▁애니맥스
▁한기
▁rem
▁미노루
▁천년기
겨우
▁라벨
▁머슬
▁장단점
▁프라이스
▁개인기
▁김주찬
▁거처
▁굵직
▁생생
▁번역가
▁판타스틱
▁위그
▁다람쥐
▁외로움
▁Anim
WS
TLE
▁연격
▁예견
▁항전
▁사냥개
▁우리나라
▁목조
▁현종
▁미노리
▁칠드런
▁JB
▁다승
▁오하
▁컬처
▁light
블러
사슬
▁UK
order
▁달력
▁현세
▁Dri
▁2200
▁괴뢰
▁출소
▁mod
▁디저트
▁바로잡
▁초토화
▁투르크
▁헬리오
▁에밀리아
▁틀어박히
▁인플레이션
▁꼰
클레
▁대참
▁속초
▁황궁
▁비키니
▁슈퍼볼
ething
pm
▁참신
▁한동
▁유목민
에타
▁교배
▁vol
▁거래소
▁기꺼이
▁요스케
▁침략자
▁Heaven
ITY
▁랜딩
▁의결
▁발버둥
▁유리카
▁소고기
▁무라카미
▁명랑
▁분단
▁성화
▁990
▁쉼
▁난관
▁담담
▁부적합
▁공범
▁데비
▁입찰
▁기나길
▁요르단
▁본점
▁신음
▁계양
▁안구
▁마유미
▁속마음
▁합성수
▁메이슨
▁반도체
▁Cent
▁멀록
▁주립
▁드레이
▁한겨레
▁따름
▁아놀드
에나
▁가늘
▁뒤섞이
▁이세이
▁System
▁TM
▁로엔
▁오심
idae
▁하이스
▁반공
▁사구
▁우버
▁티온
▁둘러대
▁비행단
▁린스
▁방청
▁쇄도
▁엘렌
▁을래
▁15000
나츠
▁동시대
▁핫토리
▁석가
▁키프
▁Wr
▁살림
▁삼가
▁상서
▁순종
쿨루스
▁대한제국
▁뎃
▁황산
▁타루
▁add
▁맘대로
▁헤엄치
▁이라던가
▁고딕
▁국교
▁299
▁레드삭스
▁가젯
▁불빛
▁탯은
▁스탠리
▁하하하
ury
▁속국
▁장료
▁화순
▁stop
해하
▁데인
▁포천
▁프록
▁호연
▁갈아엎
▁쇠사슬
덕지
▁gl
acy
▁근소
▁은평
▁자유당
▁몰이
▁신형
▁원자로
▁애벌레
▁묵시
▁김대엽
▁세습
▁신창
▁연무
▁픽시
▁아즈마
iet
티모어
▁핵폭탄
▁이너
▁sup
▁무함
▁하교
▁GEN
▁가로채
▁비웃음
▁헬레나
▁nm
▁긴토
▁SSD
▁신인왕
▁캔자스
▁튠
▁종반
▁Sal
▁수두룩
▁덮이
▁방한
▁심경
▁바리에
▁Remix
▁브롤
▁슈마
enter
▁요도
▁원탑
▁전근
▁쭉쭉
▁Fant
▁오트
▁의약품
▁were
▁볼티모어
▁타이베이
광이
▁강압
▁명상
▁위계
▁사치코
▁엘레나
aking
▁크리스틴
세어
▁사계
▁총신
▁브루노
▁헤일로
▁낌
▁고트
노부
▁him
▁UB
▁신경전
브로
▁굴절
▁피셔
궐선거
▁GRE
▁재보궐선거
▁죄악
▁역이용
▁용기사
▁공예
▁권수
▁영정
▁치료제
▁생식
▁현혹
▁글로리
▁부통령
▁부지기수
▁페르난도
▁295
▁Why
▁이리나
지옥
▁시식
테라스
▁모루
▁박한
▁박현
cape
▁한바탕
▁
▃
이
하
다
.
ㄴ
는
에
가
지
의
로
을
아
고
어
기
,
서
리
1
도
0
나
스
를
사
시
은
2
으
라
대
자
수
있
되
그
었
게
만
전
들
보
ㄹ
정
면
상
오
았
인
일
주
마
장
부
것
3
드
과
트
우
제
니
적
성
e
5
모
치
-
미
공
4
데
신
르
구
소
비
무
유
위
동
와
9
타
한
중
문
거
경
히
터
a
원
년
레
국
화
때
용
6
며
o
여
8
내
'
7
카
:
조
i
크
선
당
후
명
력
세
t
개
n
r
없
버
러
작
야
등
연
생
방
실
바
키
격
영
안
계
차
단
간
프
발
요
반
물
역
체
던
않
재
진
S
월
s
관
말
분
회
파
해
점
노
더
"
교
A
속
학
음
포
까
피
/
l
저
루
행
코
래
능
두
호
식
토
본
강
C
임
m
통
결
번
초
군
각
d
출
배
h
매
디
입
종
즈
현
T
불
M
추
승
려
P
처
최
티
메
같
E
남
직
u
설
형
브
산
태
B
감
받
심
!
D
편
건
판
특
투
많
c
급
운
패
양
알
람
금
달
외
쓰
습
예
표
약
I
L
민
업
R
법
함
록
테
살
네
너
못
언
O
플
목
런
G
복
F
준
돌
g
병
N
y
좋
권
평
%
막
천
황
따
독
박
애
술
름
변
합
른
집
절
참
p
청
머
존
근
론
또
김
캐
쿠
란
왕
베
날
K
션
확
별
환
활
페
츠
필
f
k
항
열
죽
?
순
든
~
악
V
+
석
ᄆ
망
블
팀
H
올
류
울
향
맞
랑
증
느
족
v
량
곡
담
릭
잘
광
잡
탄
커
총
듯
료
클
렇
손
품
효
송
먹
폭
뒤
퍼
련
글
범
녀
질
탈
워
백
b
럼
누
였
쪽
케
접
얼
령
창
w
난
높
새
U
색
완
께
극
#
채
벨
검
X
킬
W
벌
혼
철
충
밀
빠
힘
겠
즌
길
락
끝
귀
싸
린
삼
걸
험
괴
움
몬
북
골
친
끼
슬
희
득
슈
넘
림
립
럽
육
놓
취
견
틀
착
랜
링
엄
택
앞
곳
축
온
규
눈
냥
엔
허
ㅂ
맨
덕
템
및
]
롭
늘
쟁
냐
[
엘
줄
찾
턴
칭
ㅓ
붙
책
째
갑
봉
팬
응
갈
므
징
첫
쉽
널
률
침
얻
떨
뿐
답
찬
측
J
x
율
짜
할
잠
꾸
획
암
풀
팔
굴
벤
큼
몰
좀
몇
억
헤
곤
씨
훈
Y
압
밖
혹
둘
찰
협
풍
싶
넣
센
홍
멀
몸
즉
먼
궁
뜨
&
볼
휘
논
염
벽
묘
례
렵
밝
닛
님
뉴
깨
떠
퇴
슷
돈
딜
뛰
탑
칼
숙
홈
컨
빌
익
낮
콘
컬
끌
액
층
웃
샤
맡
앙
슨
찍
렌
웅
윤
짓
옥
웨
략
갖
ㅏ
딩
킹
멤
쉬
폐
팅
멸
죄
닝
욕
찌
싱
롤
놀
숨
좌
듣
롯
쇼
<
솔
씩
덤
빈
뭐
욱
픽
잔
델
빛
콜
켓
뀌
흑
꽤
깝
=
푸
념
뮤
낙
랙
쁘
척
폰
농
빨
혈
빼
뜻
왜
객
겨
맥
흥
맹
렉
Z
칸
앨
섬
혀
닉
듀
랭
큐
휴
텐
헌
닥
ㅆ
폴
룡
z
램
맵
탁
써
떻
엇
혁
럭
흔
떤
홀
넷
쿨
균
튼
털
죠
뽑
혜
끔
빙
맛
톤
흐
튜
땅
컴
져
텔
섭
십
컵
짝
녹
꽃
뢰
굉
탐
딱
콤
챔
퀘
덱
뷰
팩
잃
밤
딸
밥
멘
밍
흡
헬
졸
옷
꼬
탕
릴
씬
핵
믹
*
펜
쏘
즐
찮
릿
몽
젤
킨
봇
꿈
쌍
뷔
둥
룹
삭
끄
겁
윈
칠
묻
)
셀
쿄
놈
뇌
엑
ㅕ
탱
켄
쳐
Q
펼
틴
믿
똑
옆
납
핑
깔
얘
싫
괜
밴
롱
훨
{
낌
덜
잉
랍
퓨
돕
}
갤
읽
힐
탓
칙
옵
캠
빅
곧
랄
젠
콩
벗
셈
엽
꺼
>
짧
굳
촌
틱
끊
j
붕
짐
앗
폼
펙
튀
쓸
멜
셔
쥬
덴
쇄
둠
핀
잇
셋
륙
쩌
냉
뒷
셉
즘
촉
젝
넓
첩
렬
덩
_
떡
늦
쥐
쌓
닌
쇠
셜
겸
빵
촬
쯤
깊
뿌
펠
왼
샷
븐
텍
값
띄
쫓
컷
밑
랫
퀴
꾼
;
융
춘
웹
묵
켜
꼭
옛
랩
슴
흘
앉
낫
렛
겹
흉
멋
붉
걱
뻔
멍
앤
겪
뚫
엠
옹
캡
밸
넥
셰
숲
헨
틸
잭
옮
꼽
댄
럿
섯
톰
텀
딘
톨
깐
톱
춤
긴
웬
녕
섞
잊
q
쾌
듬
킥
렐
윙
숫
떼
꼴
혐
뱅
뱀
챙
댓
틈
멈
갱
닫
둔
엉
몹
캔
젊
윌
팡
읍
펀
깃
닮
탯
맺
궤
뉘
잖
렘
랗
겐
훌
럴
걷
횟
핸
쿼
룰
빗
짱
묶
롬
봄
좁
빔
툰
숭
갓
깎
곰
켈
퀄
볍
탠
첨
츄
밟
렙
룬
룩
낭
륭
삶
샌
덮
삽
룸
픈
렴
릉
곽
빡
썰
낳
둑
닿
펴
쏟
릇
|
챠
팝
늑
첼
끈
렁
낚
맘
긍
앵
팽
겟
윗
퀸
굽
섹
뼈
껏
돼
넬
넉
뚜
곱
얀
닐
짤
톡
얄
큰
뜩
킷
핏
샘
뭉
덧
@
훔
슛
쟈
\
쩡
툴
삐
닭
쉐
긋
챕
꺾
핫
뚱
썩
흠
띠
뜯
엣
륜
앱
멕
햄
쭉
왈
횡
겉
붓
펫
벅
뿔
$
딴
웰
펑
엮
훗
뜬
깜
둡
씌
왠
잦
똥
뱃
턱
얗
눕
쨌
펄
뿜
녁
곁
꽂
닷
뺏
ㅋ
딕
돋
깡
훼
섀
쩍
냄
뚝
갇
벼
맷
딧
껍
탭
싹
챌
맙
뮬
갛
뎀
씹
쵸
빚
밋
칩
잎
괄
헛
멧
릎
꿀
밭
듭
힙
꼼
듈
깥
찢
ㅣ
팟
엿
몫
펌
ㅁ
튕
썬
겔
힌
쪼
엎
슐
돔
굿
텝
헐
벙
딪
줍
뽀
쏠
쿤
캣
밌
줌
휩
퉁
옳
풋
솜
픔
흰
콧
벳
뻗
흙
뻐
늬
흩
텟
쑤
툭
벡
헝
쌀
콥
샵
첸
팍
붐
뱉
팁
튬
땡
갯
캄
뻥
늄
꿰
냅
샬
툼
솟
킴
끓
뭇
굵
갚
칫
쿵
뤼
푼
궐
꽉
휠
끗
늙
헷
찔
캘
콕
쯔
볶
넌
젖
쉴
귤
옐
앰
썸
얽
큘
얹
깽
퀵
셸
륨
캇
쨩
ㅇ
츤
옴
젬
퍽
뮌
긁
넛
겜
짙
젼
콰
슌
닦
덥
짖
랴
펭
(
짚
씀
잼
뇨
웜
쫒
홋
ㅔ
랏
춥
뻘
꽁
햇
잣
삿
팜
귄
홉
샐
쎄
헥
탬
렷
ㅡ
얇
샹
쑥
윽
앓
튠
뽕
맑
젯
얌
씻
욘
밈
ㄷ
옌
젓
땀
짬
낯
텅
늪
퐁
굶
꿉
쌔
놔
뺨
킵
윕
왓
댐
팰
벚
푹
넨
딥
꾀
껄
갸
캉
껑
숍
똘
쩔
ㅎ
^
맣
쥰
샨
쫄
꿇
렀
컫
밧
꽝
뜸
쁨
눌
걀
맴
낡
싯
쉘
쐐
룽
뽐
륵
쭈
`
밉
ㅅ
룻
싣
떄
뭔
깁
웍
ㄱ
숀
훅
얕
폿
덫
핍
멩
찜
탤
윅
벵
ㅠ
샴
깍
숏
댕
빽
왑
훤
돗
넵
뾰
뫼
텁
씁
썹
뚤
쌈
꿍
왁
촛
뺑
캬
쌩
눅
캅
놉
ㅈ
늠
팻
맏
뎅
갭
꾹
좆
퀑
퀀
췌
뭣
뻑
괘
낱
꿋
잿
찝
껴
솥
쩐
칵
덟
딛
얏
괭
땜
즙
댈
짊
잽
멱
읊
갔
껌
슘
댁
팥
뷸
렝
쥴
띵
릅
엥
섣
랠
콴
켐
얍
츳
힛
뭄
톳
뿅
퀼
봐
뇽
팸
츈
셴
썽
찻
뮐
쿡
깅
궂
쏙
딤
햐
된
닳
옅
폄
쳇
짭
걔
횃
씽
샛
셧
뱌
뎃
쟤
짠
뎁
윳
갉
믈
쿰
넴
곶
꺽
톈
낸
뜰
핌
펩
츰
굼
뵈
쟝
핥
컥
귓
쾅
솝
찡
촘
놋
헴
앳
숄
숟
쏴
헉
넋
꿔
텃
뮈
걍
ㅊ
슝
꼰
끽
숱
쉼
챈
녜
팎
쑹
컹
휙
쉔
궈
쓴
ㅌ
튤
춧
쌤
돛
핼
ㅍ
엡
녘
쑨
찹
촐
찐
캥
쾰
낄
삑
쾨
욤
뒹
엌
윔
뇰
줏
뼛
즛
웡
갬
냠
쓱
뿍
쉰
펍
듐
륀
빤
듄
삥
볕
퓌
ㅜ
쟌
힉
쫙
쬐
떳
휼
묠
뻣
롄
꿎
숯
퓰
꺄
뵙
딨
옇
웁
왔
멥
멓
욧
끙
긱
쨋
큭
눔
댑
훙
슥
훑
괌
쫀
챗
넝
낑
쏜
쭤
욜
샅
홧
듦
뀨
첵
낵
낼
닙
뿡
먀
슭
닻
쇳
쭐
촨
눗
꽈
챤
ㄲ
잰
헹
텡
츨
겅
쩧
펨
뤄
싼
빕
쫑
늉
맬
ㅉ
땋
꿩
힝
벰
쥔
쏭
켠
쿈
둬
퓸
ㅗ
렸
죤
돤
쿱
틋
샥
닢
랖
묀
겋
좡
빰
뗏
삘
탉
횬
웸
햅
딫
씸
킁
깻
긔
뷜
좇
쭝
냔
뭍
ㅐ
엾
쿳
숑
넙
칰
쩜
냇
읏
윷
멎
깟
뮴
빳
굇
혓
쑈
쩝
헵
콸
윾
떵
냑
큥
꼿
봅
쭘
쉿
몆
뜀
볏
땔
숴
뺌
씰
쨍
캑
붑
훠
찧
뮨
쐬
쥘
뒈
죗
믄
웩
튿
춋
셍
됨
ㄸ
짢
옙
셩
흄
ㅑ
젭
꽥
ㅃ
둣
챰
뤽
쳉
붇
윰
츙
욥
꼐
챳
슉
줘
썻
젔
옭
짹
썅
띔
빻
쌰
콱
햏
뻬
젋
귈
촙
랬
믐
틔
슼
쮸
큅
맟
됭
볜
짦
휑
퍄
뜷
쩨
넒
뎬
겼
릏
쨰
옻
쯧
굣
뽈
ㅢ
륄
곪
솎
샙
ㅛ
ㅟ
돡
흣
롸
뺴
ㅚ
룀
ㅖ
잌
냘
갗
탸
엷
뱁
뽁
옉
닼
큔
넹
ㅄ
섕
솩
겡
쨔
ㅒ
푀
쌉
뼉
뭥
픠
ㅞ
햣
곯
꺅
뵐
팃
슾
휀
웠
뫄
ㅙ
갠
켁
뎐
ㅝ
왐
핳
벛
솅
ㅘ
묽
궨
띨
앜
쾡
묜
돠
뺀
췬
츔
땁
ㄳ
맢
쇽
랸
켤
쳄
닯
밎
퉤
쪄
떫
ㄺ
꽐
춰
졋
챵
쌕
줴
죌
춉
쫌
곗
앍
뚠
묄
뢴
쳅
큄
퐈
왱
겍
뉵
벞
ㄵ
땃
칡
ㄼ
눙
홑
흭
쁠
ㅀ
됴
떽
ㄽ
ㄶ
ㄾ
퀜
ㄿ
쉑
맆
겊
껸
밞
ㄻ
꺠
꿏
쉭
킼
켕
앴
톄
삵
푈
뷘
퐝
삯
캰
똬
쇤
옼
읭
좔
괵
겄
졍
촤
븅
퇘
뼘
샾
똠
뎨
귯
큠
큿
묭
졔
푯
헙
웻
븀
뷁
섶
헣
댜
뺐
댔
뷴
읆
벱
팹
뺄
홱
쀼
훕
켑
풉
궃
횽
갹
븨
돚
쳔
첬
컁
깄
쏨
꽹
셤
젱
뤠
햘
홰
궜
겻
엊
찟
듸
솀
늅
뵘
솁
쏩
챱
꾐
왘
좃
룔
볘
훍
촥
묏
쒸
솽
웽
툽
낀
멬
훵
믓
쭙
녠
텨
녈
뵤
빱
앎
먄
붸
믜
솬
쨉
퀠
숌
좍
쫘
롈
휭
읺
푱
솨
몯
믕
뾱
쳬
섐
튐
춈
왝
푄
쩄
늡
핰
끅
됸
읇
뒴
낏
뒬
폽
랼
퉈
섥
뉼
몐
뱐
솦
휨
뗌
롹
뽄
췐
헿
났
밣
큣
툇
뭅
웤
땟
겆
삣
죵
쪙
껫
퀭
툐
긷
뱡
옘
핡
슙
앏
옯
낢
묫
곬
낟
했
릐
셕
찿
뙤
꼇
쉥
캎
똔
춍
튽
쬬
흫
뻇
삡
툿
녓
벋
낰
즤
쯩
듕
럇
맻
웟
젹
앟
됫
쟛
뎡
줫
곂
싀
휄
큇
귿
뗴
벧
쨜
쭌
륌
밷
찣
떈
캼
맠
햝
쟘
쨘
퓔
섰
촹
퓽
몌
쉠
뗑
흝
뙇
먕
뱟
숔
큡
쳰
꽌
쁜
떙
엪
쵼
냣
짯
훓
솓
퓬
횻
숩
핬
눞
켯
섈
휫
봣
퓐
뇬
덬
헠
귁
긺
랐
귐
댱
뎌
씅
뀽
섄
쥿
잴
햔
궉
깈
떰
읖
텻
뽜
웝
풔
뼝
솃
쥠
뵹
읎
쨈
녤
쟉
쳣
쳥
횐
싴
쫗
튄
졌
앚
똣
뚥
쑴
옾
밐
졀
펏
걼
땍
츌
쿙
셱
쬔
먐
묾
읗
튈
꿘
듁
좨
펰
홓
쎼
앝
짇
짫
혔
룅
뚯
섵
힣
될
멂
흽
씼
옜
읔
곘
왤
섧
슁
캿
퉷
훝
휸
껨
끠
눝
쏼
윱
혠
꺵
눼
띡
븝
뺘
쎔
졈
닠
랲
뷕
틉
빋
덪
뢸
맕
쿽
띱
챨
뜽
뱍
엳
튱
팤
뚧
봙
삷
솊
큉
틍
늣
샄
읕
컽
튭
핲
썪
쟙
꾿
벴
뿝
쳘
떱
슻
쎾
돝
줜
뇸
몪
즁
캪
퍅
걲
굥
욬
꾜
넼
핧
봑
콯
덷
뎍
얶
욍
닺
륍
맫
몃
볓
븟
칯
늒
뜌
쓔
읜
캭
귬
얆
츼
쥑
췍
킅
햑
껀
꿧
늴
뿟
츕
엏
욺
졷
쮜
툠
픕
걋
륫
엙
읶
츗
캌
햤
덞
몀
웦
읒
딮
땐
륑
뺸
쏫
얔
풂
꺨
뵨
뷧
쒜
앺
읻
킄
깉
녑
뎠
뗀
쉣
쳑
춫
괞
룁
븜
뻉
쓩
엶
쟐
틑
쳤
칲
텬
녯
뉸
뙈
븍
셒
읷
쯋
톩
꼳
뺙
옝
켬
톼
뎊
뭏
삠
앖
챡
촵
끎
덖
몿
믾
뺩
뻰
솰
쵤
쵹
킈
틩
혤
흗
갞
깸
맜
뮻
쉅
쐇
욌
읫
잆
좝
켚
됏
뒨
듧
뚸
룟
얐
쭁
훽
귑
넖
넗
뼤
쌥
앋
읃
캴
핱
됄
됩
왇
좐
쩬
콬
퓩
겯
뚀
붱
븡
뺵
쎠
엤
읅
졘
죙
큽
탶
롼
룝
얉
죡
긇
땨
뜹
쁑
숮
싈
쌋
쎅
쑝
잍
졉
쯕
굷
깹
덯
뎜
싿
쥭
췃
췩
퐄
궆
롮
룐
뷀
빝
뺭
쌐
썡
씡
짋
픅
뇩
릍
봊
쌘
쪘
귱
돐
섴
쏸
엨
곈
굄
긓
넢
놘
믌
밪
벜
뻡
읠
죔
캢
놧
둟
랔
롷
먈
죳
쥼
챦
쾀
뚬
롶
먁
뽝
셨
앧
죨
쯥
쳌
컾
켔
푝
껭
덛
뚭
럄
묙
뱔
봘
앀
윶
쳡
췰
퇵
픗
뀩
끕
늗
돨
밨
옃
욹
읋
쨕
켸
쾍
퀫
툥
곷
괍
녔
댸
딲
멉
뻴
셥
쌜
썖
쥣
쾬
텩
퇼
긑
껒
냨
냬
넀
둏
쀍
쇨
왬
욷
잏
쮀
츅
텰
톺
퇀
퍈
깩
닜
띁
샼
줭
햡
홥
휏
걺
긜
끉
낛
냡
냤
뇻
럐
뢔
벹
븥
뺍
솧
슽
챃
쵀
쵱
칬
턍
퇸
픞
햬
곻
볫
쁩
섁
섦
얺
엃
탹
핟
갂
궬
뫃
벫
쉡
슶
옿
웆
푠
핓
훡
휵
긘
뀰
댠
둉
뛔
럅
롑
맀
맽
봔
븓
싑
썌
얙
엹
쨤
쩰
쫏
쯰
튁
튝
퐌
픙
횔
훚
훛
놰
덨
딍
띤
롓
볻
뵬
붗
뻩
샇
쏀
쑵
앆
얖
얫
잋
쪠
쫍
쿸
탼
팖
햠
갊
꺆
꺗
꺘
껠
늧
댤
됀
딋
뗘
랕
륏
뮹
믖
볠
봥
븰
싁
쐉
옺
줸
짘
켰
탙
텤
퉨
튑
팊
팏
횅
힜
궝
긿
넊
돇
돎
랃
믁
븃
뽓
싄
쏵
얊
얭
엵
윜
젧
쩃
찦
틊

깆
듥
맃
묷
삻
왯
챂
춀
캍
켱
쾃
퀌
턀
텦
톸
펔
퐞
푕
횝
힠
괏
껶
꾄
꾈
뀀
놜
덭
떔
뜐
뢍
뭡
볌
붏
붘
빧
뽂
쀠
삳
슳
앒
왚
욿
웈
잨
쥡
쩻
펲
핣
곌
긤
긧
긩
낍
낪
냈
눋
됌
랋
롣
뢱
먺
뭠
밫
쁙
샏
셑
쏱
옂
옄
욯
잗
잛
좂
쥤
쥽
쩠
쵝
킾
헑
홇
훟
곹
굘
굻
긏
꺙
끟
뉨
닽
뒥
듫
듼
땽
똟
릳
벍
볃
봍
붴
빍
뻠
뿨
싰
쎆
앛
엫
윘
젴
줗
짔
짞
텹
폔
퐐
풰
퓻
홤
갘
굔
귕
껼
끵
놨
돟
둗
떪
똏
랟
뤌
뤤
먿
몄
뾸
솸
쒯
앶
쟬
즑
췻
켙
콦
툑
헼
혬
훰
흒
ᄀ
뀬
녂
닁
뎔
땝
룍
륩
륻
뭘
밊
밬
뱝
붯
빟
뻤
뻿
샆
샊
쑌
씜
얋
욋
잫
쪾
쯱
쳠
쳴
컄
흿
힁
걈
겞
긂
딀
떢
럈
룄
맊
멌
뫌
봌
붹
삤
숸
쎕
쓿
웄
웱
젛
쯉
챼
칮
컼
쾩
퉆
팦
햛
횸
껩
꼉
넸
늫
닾
돞
떘
뗼
똭
뚦
렿
뤈
릘
맄
맇
맍
먜
몔
뫙
밯
벐
볐
붊
븕
뻭
쀏
삧
솹
숼
쉨
쌴
쎗
씃
엍
옫
왹
윁
읉
잪
젏
좄
죈
죰
짥
짪
쫜
찯
컶
퀧
텽
툉
푿
핮
햌
홐
횩
횰
흇
흨
곸
깺
꺔
꾱
꿕
뀡
끆
늇
덣
뎝
됍
둴
듵
떯
뜅
띳
랰
렏
렡
렫
륮
밦
볔
봡
빢
뺼
쀳
쁌
숳
슢
싕
싢
싾
쌱
쎙
쏳
쐑
쒕
얃
엗
옧
욀
쟂
쫭
췤
쿗
퉅
갅
곀
곺
궷
꺤
놂
뉩
닑
댇
덍
됵
뗍
랒
뢉
뤂
륶
멭
뭀
뭤
믤
뱊
뱜
뵷
뻈
뻨
쀄
쁴
샒
샠
섡
싦
싵
쌧
썜
쑻
쓲
윹
쟞
죶
줼
쨥
쯜
찎
텸
텼
톲
톹
튓
폇
핻
햋
훜
겓
괃
궅
긶
꺌
꿜
넫
늼
뒝
듰
뚁
뜳
럤
렜
릠
맼
뫅
뱨
벓
벖
벟
볽
뵥
붤
빩
빪
뼸
쁭
섊
쉪
슅
슟
슮
쌸
쎌
쎴
쑛
쒠
씔
옒
옸
웉
웓
윢
읪
잩
쟎
젶
좊
좟
짆
쬼
쯘
촷
쵮
츩
켘
쿔
퍙
픖
픤
햎
햙
햫
혿
횄
겎
곲
굑
궘
깇
깤
깬
껙
꼍
꼻
꾁
꾾
꿱
뀍
끾
넑
넠
녬
눨
닸
뎦
됙
둿
딈
딯
똡
똰
뛟
띙
랓
롁
롫
롴
륽
릌
맂
맒
멏
몾
묩
뭵
믇
밂
밗
벎
뺃
뼁
뾲
뿛
쀽
삾
셊
슸
쓘
쓺
얾
웷
읓
읿
쩗
쬰
쬽
쭀
쯪
쳈
쵭
춛
춸
캆
캽
컈
퀍
퀙
퍌
풿
퓍
햩
헾
홅
갋
겿
곖
궛
귝
꼮
꿑
뀫
끨
낲
넡
뇐
뇔
뇟
뉭
늕
늚
닏
닞
닲
닶
댯
뎄
뎟
됑
딿
럷
렄
뤁
뤗
릋
릔
먫
먾
묑
묨
뭊
믯
밢
볱
뷥
븉
빂
빞
뻆
뿓
쁐
쁥
삮
슲
쌞
썛
쑐
씉
얅
옰
왂
욛
웊
웥
읙
잀
쟃
졤
졧
줃
줆
줙
줠
즹
쩅
쩼
쪨
쬤
쭵
쭸
쳿
칟
켝
턔
퉹
펵
폘
폯
퐅
헗
헡
혭
훋
굠
굡
궭
귺
깓
꼈
꽅
뀵
끋
녛
놐
놯
눤
뉙
뉫
늰
닰
뎧
됼
둇
둪
둰
딹
땗
똇
똫
랎
렆
뢈
룯
뤀
뤨
릊
맗
뫀
뫈
뭴
뮉
뮝
믙
믠
믬
믱
밡
뱓
벆
벝
벸
붖
빆
빴
뿕
삸
샃
셖
솤
쇡
쇵
슦
슺
싐
싲
싷
쌂
쐤
쑉
쒹
씝
씯
앾
얿
엯
옪
옶
옽
웒
읨
읹
쟹
좉
줒
즥
짮
쨧
쩟
쩸
쫩
쭛
쯍
쳗
춱
춴
췡
췽
츱
쾔
탏
탣
톧
퍗
퍝
핕
햟
혯
홛
횞
흟
힏
힗
걑
걩
괐
귾
긌
긲
깋
깢
껬
꽇
꽨
뀜
끍
낔
넚
넽
녝
놎
놑
뇡
뇹
댼
덿
뎈
돓
돜
됒
둙
둫
뒁
듷
땈
뗵
똙
똵
똻
뙨
뚊
뚷
뜃
뜛
띾
룃
룱
뤙
맅
멁
멊
멞
멪
멫
멮
몁
몋
몼
뮛
뮥
믘
밮
뱦
벏
벘
벩
볙
봆
붝
븁
븘
븬
븽
빎
뺜
뻄
뻼
뼌
뽠
뽤
뽱
뾔
뾴
뿎
삒
삱
셟
쇴
숖
쎽
쏝
쑀
쑦
쓉
쓋
씺
얒
엋
엒
옦
왉
욨
웕
윝
윟
읐
읩
잒
젙
젚
졩
줅
줵
즨
쩖
쩩
쩽
쫴
쬲
찱
챞
첡
첮
쵠
칢
캏
켣
켭
쾈
큪
킸
탇
탖
탘
틂
틤
팈
팉
퍠
폅
폮
푤
풒
풸
풾
퓅
퓜
퓹
홯
훱
흼
힡
걌
걹
곅
곩
괙
굈
궹
귪
깕
꺈
껵
꽆
꽛
낣
냏
넜
녃
놏
놕
놤
놥
뇍
눟
눽
닧
댛
덝
뎻
둚
뒿
듓
듨
딉
딻
땛
똿
뜜
띅
렢
롐
뢐
뢨
뤔
륷
릾
먑
몊
뫚
뫠
뭋
뭌
뭎
뭭
뮷
믂
밠
봏
봫
봰
붂
붚
뷍
븸
빖
빸
뻒
뼏
뽇
뽥
뽭
뿩
쀓
쀾
삲
섟
섮
섻
솖
솘
솢
솻
솼
숞
슆
쌵
썐
쎃
쎤
쎵
쑘
쑫
쒓
씄
앑
얂
얬
엓
엸
엺
옡
옲
왭
욉
욭
웛
윞
읾
잚
쟜
쟠
젇
졜
쥇
짛
쨴
쪈
쭃
쭊
첲
촏
촴
쵷
췅
췹
췼
콫
쾐
킫
탚
텊
퇄
툵
퉌
퉝
틧
팣
픎
픨
핔
핝
헭
홁
훳
갴
갵
걁
걉
겂
겤
겧
괫
궄
궥
궸
궻
귖
귚
긄
긐
긕
긼
깞
깪
껃
꽊
꽜
꽬
꿂
꿿
뀻
끡
낋
넞
뇠
늨
닊
닡
댝
댬
덗
덙
뎋
돆
돖
돘
돰
돵
둅
둩
둼
뒑
뒵
듳
딺
땰
떅
뗠
뗸
똽
뙉
뙜
뚄
뚕
뚮
뛌
뜵
랅
랣
랳
랻
럔
럲
롇
뢀
뢇
룜
뤅
뤕
뤘
뤡
뤳
륧
릃
맓
맔
먖
먗
멑
멛
멷
뫁
묌
묗
뭩
뭰
뭼
믏
믑
밲
뱩
볭
볾
봁
봃
봈
봋
봠
봨
봴
뵛
붒
붛
붼
뷫
뷱
븛
븩
빏
빜
빹
뺡
뺣
뻢
뼬
뽘
뾆
뾼
뿁
쁍
쁫
섪
섺
셐
셗
쇅
쇱
숛
숝
쉇
쉤
슡
슧
슿
싪
싻
쌑
쌟
썀
썁
썭
썯
쏉
쐭
쒝
쒭
쓧
씍
씤
씪
앫
앸
얎
엩
엱
엻
왒
왰
욝
욣
욲
욾
웇
웗
웚
웳
윀
윸
잞
졎
쥄
쥅
쥌
즞
짒
짗
짴
쨟
쩹
쪗
쬈
쬭
쭂
쮠
쮹
쯀
쯴
챸
챺
첟
촠
촾
쵇
춣
췁
츀
칄
칽
캈
캋
컿
켮
콀
콮
쿌
큟
탗
텉
퇗
퉥
튯
틜
틷
팓
펖
퐆
퐉
풐
풑
풜
풨
풩
풮
풱
픐
픝
핃
핤
혱
홝
횦
훁
갮
갲
겕
겴
괠
괬
굸
궙
궞
궢
궫
궳
궼
귻
깛
깣
꺃
꺍
꺴
껚
꼄
꼱
꿻
뀅
뀝
끛
끤
넾
녇
녺
뇄
눜
눳
뉍
뉏
늩
늿
닟
닣
닪
댖
댘
댥
덢
덦
돩
돶
됟
됰
뒙
뒸
듟
듮
듴
듶
듹
딷
떣
떧
뗃
뗜
뗶
똈
똒
똗
똴
뙁
뙡
뙭
뚂
뚞
뚵
뛃
뛩
뜁
뜝
띃
띧
띯
럳
럻
렣
렦
렺
렼
렾
롕
롥
롵
룥
룳
뤱
뤵
륐
릣
맾
먓
먘
먯
몓
몭
몱
뫔
묯
뭆
뭑
뭷
뮘
믉
믗
밇
뱕
뱤
뱽
벑
벾
볎
볹
봎
봒
봗
봤
뵉
뵫
뵭
뵳
뵴
뵶
붆
붋
붎
붠
붰
뷉
뷋
뷤
뷩
뷮
뷹
븠
븧
빘
뺔
뺚
뺫
뻟
뻽
뼥
뽟
뽬
뽴
뿗
쀡
쁀
쁄
쁏
쁟
삝
샂
샫
샭
샻
섢
섨
섿
솕
솣
쇀
쇙
숤
숧
숰
쉈
쉛
쉩
싥
싨
싮
싳
싺
싽
쌙
썍
썎
썫
썲
쎀
쎨
쏄
쏌
쐔
쐙
쑟
쑷
쒐
쒞
쒰
쒱
쓕
앐
앢
얷
엜
옞
옠
왙
욈
욮
욼
웧
윻
읂
읈
읰
잂
잓
잕
잙
잧
쟆
쟣
젆
젰
젵
졐
좜
좢
좽
죕
죢
죧
죹
줐
쥈
쥉
쥗
쥥
즠
짂
짷
쨖
쪤
쬴
쮓
쮝
쯈
찫
찭
찴
챷
첅
첧
첯
첰
쳼
촊
촒
촞
촟
촡
촢
촣
쵯
춭
췔
츷
칀
캜
켼
콭
쾻
쿭
쿹
퀏
큮
큻
킐
킳
킽
탊
탰
탵
턉
텋
텥
톢
퇫
퉄
퉐
퉸
틘
팂
팛
팧
퍕
펕
폕
폣
폥
폳
퐙
푭
풴
풹
퓝
픋
픓
픱
핞
핶
햍
햾
헁
헏
헔
헕
헯
혙
홣
홨
홭
훃
훎
휜
갌
갣
갦
갿
걕
걥
걳
겇
겈
겦
겱
겳
겾
곃
곙
괆
괱
괸
궇
궋
궶
귍
귔
귛
귡
귨
긃
긎
긒
긮
긹
깏
깑
깳
꺀
꺕
꺢
꼅
꼯
꼲
꽣
꽦
꾑
꾭
꿃
꿝
꿥
꿯
뀙
낞
낻
냙
냩
넏
녋
녿
놞
놩
놴
뇜
뉀
늖
닒
댦
댧
댭
덀
덌
덠
뎂
뎆
뎰
뎽
돒
돧
돱
돳
돴
됈
됻
둄
둍
둽
뒉
뒓
뒛
뒫
뒺
듑
딬
딭
땇
땎
땓
땩
땻
떗
떭
떷
뗆
뗡
뗣
뗫
똝
똧
뙍
뙬
뙴
뚐
뚔
뚢
뚣
뚼
뛈
뛉
뛛
뛯
뛷
뛻
뜄
뜔
뜾
띻
럂
럍
럣
럮
럶
럸
렂
렞
렠
렰
롻
뢋
뢘
룺
뤩
뤰
륳
륾
릀
릆
릞
릥
릯
릵
맋
맚
맮
먆
먏
먚
먛
먽
멐
멟
멦
몉
몟
몥
몲
몳
몴
뫟
뫤
뫽
묍
묟
묳
묺
뭃
뭈
뭗
뭨
뮜
뮽
믭
믻
믽
밁
밒
밚
밻
뱛
뱷
벲
볈
볋
볟
볿
봀
봽
뵽
붌
붍
붭
뷇
뷈
뷛
뷷
븗
븞
븪
븹
븻
빥
빮
빶
빷
빾
뺅
뺒
뺓
뺛
뺠
뺶
뻙
뻞
뻦
뻪
뼇
뼐
뼙
뼠
뼡
뽛
뽞
뽧
뽸
뾥
뾻
뿀
뿉
뿏
뿑
뿘
뿙
뿧
뿯
뿰
쀒
쀫
쀵
쁋
쁎
쁢
삗
삜
삺
샑
샢
샸
섑
섲
섷
셓
셙
솄
솑
솗
솫
쇌
쇘
숡
쉄
쉉
쉏
쉒
슀
슄
슏
슞
슠
슫
싞
싧
쌁
쌇
쌒
쌖
쌛
쌷
쌻
썃
썄
썋
썮
쎂
쎋
쎝
쎡
쎥
쎿
쏏
쏑
쏶
쏻
쏽
쐅
쐣
쐽
쑁
쑞
쑩
쑼
쒄
쒈
쒴
쓀
쓈
쓍
쓑
쓜
쓤
쓷
씋
씥
앩
앻
얩
엝
엞
옑
옱
왛
왣
왷
욙
욟
욡
욢
웋
윋
윧
윲
윿
읁
읟
읧
잟
잢
젗
졥
좈
좠
좬
좸
좹
좼
죸
죻
줈
줓
줮
쥩
즂
즊
즏
즣
즬
즴
짣
짲
짿
쨎
쨨
쩢
쪌
쪰
쫃
쫖
쫣
쬡
쬥
쬷
쬿
쭒
쭟
쭨
쮈
쮕
쯸
찓
찥
찵
찷
챀
챁
챚
챯
첞
첣
첥
촰
촳
쵄
쵬
춝
췄
췜
췸
츺
칞
캵
컭
켇
콙
콛
콻
쾁
쿜
쿧
쿫
쿻
퀨
큗
큨
큳
큾
턋
턑
턚
턷
턹
턻
텓
톋
톗
톙
톽
퇑
툄
툘
툳
툻
퉀
퉭
튮
튺
튻
틆
틐
팯
퍀
펁
펎
펬
펻
폑
퐂
퐃
퐑
퐤
풕
풬
퓟
퓦
픜
픟
픳
픵
핖
핚
핪
핽
햰
햿
헚
헫
헱
헲
홒
홴
횹
훒
훞
휅
휗
휳
힑
힒
힚
갃
갍
갏
갢
갥
갨
갶
갷
걂
걄
걇
걏
걐
걓
걠
걤
걵
걽
걾
걿
겢
겥
겷
곕
곟
곫
곮
괧
괨
괩
괳
괺
괻
괾
굅
굗
굛
굮
굯
굾
궏
궔
궖
궚
궮
궯
궴
궵
궺
귇
귊
귏
귘
귥
귭
귽
긊
긛
긞
긠
긡
긢
긣
긥
긬
깂
깒
깧
깶
꺁
꺋
꺏
꺐
꺡
꺰
껇
껗
껰
껱
껻
꼠
꼣
꼤
꼥
꼵
꼶
꼸
꽏
꽑
꽘
꽙
꽫
꽭
꽯
꽸
꾔
꾕
꾫
뀁
뀓
뀟
뀠
뀪
뀱
끑
끜
낐
낤
낧
낿
냟
냫
넁
넟
넿
녵
놬
놶
놸
뇝
뇦
뇯
눂
뉑
늜
늟
늭
닱
댊
댋
댗
댙
댚
댶
댷
덲
덳
덻
덾
뎉
뎏
뎒
뎓
뎗
뎘
뎙
뎢
뎩
뎸
뎹
돊
돍
돏
돣
돫
돽
돿
됃
됓
됗
됢
됤
됧
됯
됱
됺
둈
둛
둭
둳
뒌
뒏
뒐
뒕
뒗
뒘
뒜
뒾
듇
듘
듛
듞
듲
듿
딦
딳
딵
딶
땊
땕
땞
땣
땥
땧
땬
땳
땹
땼
떁
떋
떌
떑
떟
떥
떦
뗉
뗋
뗔
뗗
뗙
뗛
뗝
뗞
뗟
뗨
뗩
뗭
뗳
뗻
똄
똅
똚
똛
똤
똩
똷
뙀
뙌
뙏
뙐
뙒
뙓
뙗
뙘
뙙
뙛
뙥
뙫
뙮
뙱
뙳
뙵
뙷
뙸
뙹
뚆
뚩
뚳
뚴
뚶
뚿
뛀
뛇
뛋
뛓
뛗
뛘
뛜
뛝
뛣
뛤
뛥
뛧
뛨
뛹
뛼
뜍
뜏
뜡
뜫
뜮
뜲
뜴
뜼
띇
띎
띕
띿
랂
랆
랈
랤
랮
랱
럌
럑
럘
럪
럯
럵
럾
렑
렓
렚
렟
렧
렳
롊
롨
롲
롳
롽
뢌
뢓
뢛
뢜
뢤
뢥
뢧
뢯
뢵
뢷
룓
룛
룪
룫
룴
룷
룿
뤃
뤋
뤟
뤯
뤴
뤺
뤻
륃
륔
륝
륞
륟
륡
륰
륿
릁
릈
릑
릟
릡
릦
릮
릱
맖
맪
맭
먃
먅
먍
먙
먪
먳
먵
먻
멃
멇
멒
멠
멯
멶
멹
멺
멻
멽
몍
몜
몝
몡
몣
몦
몮
몷
몺
뫋
뫕
뫗
뫘
뫞
뫨
뫱
뫴
뫵
묃
묈
묚
묡
묦
묬
묱
뭁
뭟
뭦
뭧
뭺
뭽
뭿
뮀
뮁
뮊
뮔
뮙
뮧
뮫
뮯
뮳
뮵
뮶
뮿
믊
믛
믝
믲
믺
밄
밓
밙
뱂
뱆
뱇
뱈
뱋
뱏
뱒
뱚
뱞
뱧
뱬
뱰
뱸
뱺
벇
벉
벊
벒
벢
벪
벯
벷
벻
볅
볆
볒
볨
볩
볳
볷
봂
봢
봭
봳
봵
뵊
뵏
뵑
뵝
뵧
뵲
뵵
뵸
뵻
붃
붣
붥
붬
붵
붷
붿
뷃
뷄
뷌
뷏
뷓
뷟
뷦
뷭
뷵
뷼
븈
븎
븏
븣
븤
빒
빓
빣
빫
빺
뺕
뺝
뺟
뺥
뺦
뺧
뺮
뺳
뺹
뺿
뻕
뻖
뻚
뻛
뻫
뻳
뼞
뼟
뼢
뼦
뼱
뼷
뼹
뽆
뽊
뽒
뽔
뽖
뽙
뽚
뽣
뽷
뽿
뾃
뾄
뾅
뾇
뾘
뾤
뾬
뾹
뿃
뿋
뿒
뿚
뿞
뿥
뿦
뿮
뿷
쀈
쀌
쀎
쀐
쀑
쀜
쀟
쀨
쀬
쀲
쁃
쁅
쁉
쁓
쁕
쁖
쁚
쁣
쁶
쁼
삦
삨
삫
삹
샋
샓
샟
샣
샪
샮
샶
샿
섂
섋
섚
섫
섳
셂
셆
셎
셛
셠
셡
셣
셦
셭
셳
셷
솈
솏
솒
솚
솛
솞
솠
쇇
쇈
쇋
쇕
쇝
쇧
쇰
숁
숃
숎
숓
숕
숚
숥
숦
숪
숬
숵
숻
쉖
쉗
쉙
쉚
쉜
쉟
쉳
쉵
쉻
슂
슓
슯
슰
싊
싓
싘
싟
싩
쌆
쌊
쌎
쌚
쌯
쌺
썔
썗
썝
썱
썳
썴
썷
쎜
쎞
쎟
쎧
쎫
쎰
쎱
쎳
쏍
쏐
쏔
쏚
쏢
쏲
쐄
쐏
쐗
쐘
쐠
쐥
쐩
쐳
쐼
쐿
쑊
쑍
쑏
쑙
쑱
쑽
쑾
쒁
쒂
쒇
쒑
쒣
쒤
쒧
쒬
쒺
쒿
쓓
쓚
쓛
쓥
쓹
씟
씱
씿
앃
앇
앦
앲
앷
앹
얟
얨
얰
엕
엟
엦
옏
옓
옟
왖
왧
왿
욂
욒
욚
욦
욫
욳
욵
욻
웂
웎
웖
웞
웫
웯
웴
웼
윂
윎
윓
윚
윪
윮
윺
읤
읦
잜
잲
잳
쟄
쟏
쟗
쟢
쟥
쟴
젂
젉
젒
젟
젨
젮
젲
젺
젿
졁
졂
졓
졵
졺
좒
좥
좧
좩
좯
좰
좻
죅
죋
죥
죱
줋
줕
줛
줟
줦
줨
줩
줳
줻
쥻
즒
즔
즡
즵
즷
짏
짡
짨
짩
짺
쨏
쨚
쨢
쩎
쩒
쩓
쩘
쩛
쩯
쩱
쪁
쪅
쪔
쪱
쪳
쪵
쫅
쫆
쫋
쫔
쫟
쫠
쫫
쬑
쬗
쬣
쬧
쭞
쭬
쭯
쭴
쭷
쭹
쮁
쮄
쮇
쮋
쮐
쮑
쮣
쮬
쯇
쯛
쯫
쯬
찃
찅
찲
찳
찺
챋
챛
챝
챣
챲
챶
첚
첛
첢
첦
첪
첱
첳
첻
첿
쳃
쳋
쳒
쳕
쳭
촁
촍
촎
촑
촓
촕
촖
촫
촻
쵁
쵕
쵣
쵰
쵿
춇
춏
춗
춟
춠
춢
춨
춪
춬
춮
췈
췎
췛
췝
췟
췠
췯
츬
츸
츻
츽
칌
칍
칏
칑
칚
칣
칻
캟
캧
캩
컌
켉
켞
켳
켹
콉
콪
쾋
쾓
쾜
쾝
쾟
쾹
쾽
쿏
쿕
쿩
쿪
쿶
쿺
퀃
퀶
퀻
큌
큑
큩
큫
킇
킉
킌
킘
킙
킛
킝
킠
킦
킭
킻
탂
탃
탆
탍
탒
턈
턌
턐
턒
턓
턕
턘
턩
턬
턺
텂
텆
텠
텯
텳
톁
톃
톅
톌
톔
톕
톮
퇍
퇙
퇜
퇣
퇬
퇭
퇻
툅
툔
툡
툣
툫
툯
툶
툷
툸
툹
툺
퉃
퉇
퉉
퉏
퉔
퉘
퉙
퉛
퉜
퉠
튎
튔
튘
튙
튟
튦
튲
튳
튵
튶
틁
틄
틇
틕
틥
팄
팒
팕
팗
팚
팮
팿
퍁
퍘
퍚
퍿
펃
펅
펋
펗
펟
펡
폂
폗
폠
폵
퐘
퐠
퐳
푁
푐
푑
푓
푣
푥
푧
푩
푫
푬
푴
푷
푾
풘
풤
풥
풧
퓀
퓁
퓃
퓡
픁
픒
픡
픰
핗
핛
핦
핺
핿
햊
햚
햞
헒
헓
헢
헺
헽
혂
혅
혇
혉
혍
혒
혻
혽
혾
홂
홄
홎
홠
홦
홪
홬
홳
홷
홸
횀
횓
횜
횯
횾
훇
훩
훴
훸
휌
휍
휟
휢
휪
휬
휰
휱
휺
휻
휽
흃
흅
흊
흍
흎
흓
흕
흖
흞
흪
힇
힍
갆
갎
갟
갡
갧
갩
갪
갫
갳
갺
갻
갽
갾
걃
걅
걆
걊
걎
걒
걖
걗
걙
걚
걛
걝
걞
걟
걡
걢
걣
걦
걧
걨
걪
걫
걬
걭
걮
걯
걶
걻
겏
겑
겒
겣
겫
겭
겮
겲
곆
곇
곉
곊
곋
곔
곚
곛
곜
곝
곞
곢
곣
곥
곦
곭
곴
곾
곿
괁
괂
괅
괇
괈
괋
괗
괟
괢
괥
괦
괪
괮
괯
괰
괶
괷
괹
괽
괿
굀
굁
굂
굃
굆
굊
굋
굌
굍
굎
굏
굒
굓
굕
굖
굙
굚
굜
굝
굞
굟
굢
굤
굦
굧
굨
굩
굪
굫
굱
굲
굹
굺
궊
궍
궎
궑
궒
궓
궕
궗
궟
궠
궡
궣
궦
궧
궩
궪
궰
궱
궲
궽
궾
궿
귂
귃
귅
귆
귉
귋
귌
귎
귒
귗
귙
귞
귟
귢
귣
귦
귧
귩
귵
귶
귷
긅
긆
긖
긗
긙
긚
긝
긟
긦
긨
긪
긫
긭
긯
긳
긵
긻
긽
긾
깖
깗
깘
깙
깚
깯
깱
깲
깴
깵
깷
깾
깿
꺂
꺇
꺉
꺊
꺎
꺑
꺓
꺚
꺛
꺜
꺝
꺞
꺟
꺣
꺥
꺦
꺧
꺩
꺪
꺫
꺬
꺭
꺮
꺯
껂
껓
껕
껖
껟
껦
껧
껪
껮
껯
껲
껳
껷
껹
껺
껽
껾
껿
꼀
꼁
꼂
꼃
꼑
꼔
꼗
꼙
꼚
꼛
꼜
꼝
꼞
꼟
꼡
꼢
꼦
꼧
꼨
꼩
꼪
꼫
꼷
꼹
꽒
꽓
꽔
꽕
꽖
꽗
꽚
꽞
꽟
꽠
꽡
꽢
꽧
꽩
꽪
꽮
꽰
꽱
꽲
꽳
꽴
꽵
꾇
꾓
꾠
꾣
꾤
꾥
꾩
꾬
꾲
꾳
꾴
꾺
꿁
꿅
꿆
꿐
꿛
꿤
꿲
꿷
뀂
뀃
뀢
뀸
뀹
끏
끚
끧
끫
끰
끳
낃
낕
낗
낦
낶
냀
냃
냊
냌
냎
냗
냛
냦
냴
넍
넎
넔
넧
녆
녙
녚
녣
녭
녱
녻
녾
놁
놃
놅
놇
놊
놗
놛
놟
놠
놡
놢
놣
놦
놪
놫
놭
놮
놱
놲
놳
놵
놷
놹
놺
놻
놼
놽
놾
놿
뇀
뇁
뇂
뇃
뇅
뇆
뇇
뇈
뇉
뇊
뇋
뇎
뇓
뇖
뇗
뇘
뇙
뇚
뇛
뇞
뇢
뇣
뇤
뇥
뇧
뇪
뇫
뇭
뇮
뇱
뇲
뇳
뇴
뇵
뇶
뇷
뇾
눀
눁
눍
눐
눓
눚
눛
눡
눧
눰
눱
눵
눶
뉃
뉄
뉇
뉌
뉐
뉔
뉟
뉯
뉻
뉽
늊
늋
늎
늓
늛
늝
늞
늢
늤
늳
늽
닀
닍
닓
닔
닚
닩
댂
댃
댅
댆
댉
댌
댍
댎
댏
댒
댞
댟
댡
댢
댣
댨
댩
댪
댫
댮
댰
댲
댳
댴
댵
댹
댺
댻
댽
댾
댿
덁
덂
덃
덄
덅
덆
덇
덈
덉
덊
덋
덎
덏
덐
덑
덒
덓
덚
덡
덵
덶
덹
덺
덼
덽
뎇
뎎
뎑
뎕
뎖
뎚
뎛
뎞
뎣
뎤
뎥
뎪
뎫
뎭
뎮
뎯
뎱
뎲
뎳
뎴
뎵
뎶
뎷
뎺
뎼
뎾
뎿
돀
돁
돂
돃
돉
돑
돢
돥
돦
돪
돬
돭
돮
돯
돲
돷
돸
돹
돺
돻
돾
됁
됂
됅
됆
됇
됉
됊
됋
됎
됔
됕
됖
됚
됛
됝
됞
됡
됣
됥
됦
됪
됮
됲
됳
됶
됷
됹
됽
됾
됿
둀
둁
둂
둆
둊
둋
둌
둎
둒
둓
둕
둖
둜
둝
둞
둢
둤
둦
둧
둨
둮
둯
둱
둲
둵
둶
둷
둸
둹
둺
둻
둾
뒂
뒃
뒄
뒅
뒆
뒇
뒊
뒋
뒍
뒎
뒒
뒔
뒖
뒚
뒞
뒟
뒠
뒡
뒢
뒣
뒦
뒧
뒩
뒪
뒭
뒮
뒯
뒰
뒱
뒲
뒳
뒶
뒻
뒼
뒽
듂
듃
듅
듆
듉
듊
듋
듌
듍
듎
듏
듒
듔
듖
듗
듙
듚
듡
듢
듩
듪
듺
듻
듽
듾
딁
딂
딃
딄
딅
딆
딇
딊
딌
딎
딏
딐
딑
딒
딓
딖
딗
딙
딞
딟
딠
딡
딢
딣
딼
딽
딾
땂
땆
땉
땏
땑
땒
땖
땘
땙
땚
땢
땤
땦
땪
땫
땭
땮
땯
땱
땲
땴
땵
땶
땷
땸
땺
땾
땿
떀
떂
떃
떆
떇
떉
떊
떍
떎
떏
떐
떒
떓
떕
떖
떚
떛
떜
떝
떞
떩
떬
떮
떲
떶
떸
떹
떺
떾
떿
뗁
뗂
뗅
뗇
뗈
뗊
뗎
뗒
뗓
뗕
뗖
뗚
뗢
뗤
뗥
뗦
뗧
뗪
뗮
뗯
뗰
뗱
뗲
뗷
뗹
뗺
뗽
똀
똁
똂
똃
똆
똉
똊
똋
똌
똍
똎
똓
똕
똖
똜
똞
똢
똦
똨
똪
똮
똯
똱
똲
똳
똶
똸
똹
똺
똼
똾
뙂
뙃
뙄
뙅
뙆
뙊
뙋
뙎
뙑
뙔
뙕
뙖
뙚
뙝
뙞
뙟
뙠
뙢
뙣
뙦
뙧
뙩
뙪
뙯
뙰
뙲
뙶
뙺
뙻
뙼
뙽
뙾
뙿
뚃
뚅
뚇
뚈
뚉
뚋
뚌
뚍
뚎
뚏
뚑
뚒
뚓
뚖
뚗
뚘
뚙
뚚
뚛
뚟
뚡
뚨
뚪
뚰
뚲
뚹
뚺
뚻
뚽
뚾
뛄
뛅
뛆
뛊
뛍
뛎
뛏
뛐
뛑
뛒
뛕
뛖
뛙
뛚
뛞
뛠
뛡
뛢
뛦
뛪
뛫
뛬
뛭
뛮
뛱
뛲
뛳
뛵
뛶
뛺
뛽
뛾
뛿
뜂
뜆
뜇
뜈
뜉
뜊
뜋
뜎
뜑
뜒
뜓
뜕
뜖
뜗
뜘
뜙
뜚
뜞
뜟
뜠
뜢
뜣
뜤
뜥
뜦
뜧
뜪
뜭
뜱
뜶
뜺
뜿
띀
띂
띆
띉
띊
띋
띍
띏
띐
띑
띒
띓
띖
띗
띘
띚
띛
띜
띝
띞
띟
띢
띣
띥
띦
띩
띪
띫
띬
띭
띮
띲
띴
띶
띷
띸
띹
띺
랁
랇
랉
랊
랚
랛
랡
랢
랥
랦
랧
랪
랯
랶
랷
랹
랺
랽
랾
랿
럀
럁
럃
럆
럊
럋
럎
럏
럒
럓
럕
럖
럗
럙
럚
럛
럜
럝
럞
럟
럠
럡
럢
럥
럦
럧
럨
럩
럫
럱
럹
럺
렃
렅
렊
렋
렍
렎
렒
렔
렕
렖
렗
렩
렪
렭
렮
렯
렱
렲
렶
렻
렽
롂
롃
롅
롆
롉
롋
롌
롍
롎
롏
롒
롔
롖
롗
롘
롙
롚
롛
롞
롟
롡
롢
롦
롧
롩
롪
롰
롺
롾
롿
뢁
뢂
뢅
뢆
뢊
뢎
뢏
뢑
뢒
뢕
뢖
뢗
뢙
뢚
뢝
뢞
뢟
뢠
뢡
뢢
뢣
뢦
뢩
뢪
뢫
뢬
뢭
뢮
뢲
뢳
뢶
뢹
뢺
뢻
뢼
뢽
뢾
뢿
룂
룆
룇
룈
룉
룊
룋
룎
룏
룑
룒
룕
룖
룗
룘
룙
룚
룞
룠
룢
룣
룤
룦
룧
룭
룮
룲
룵
룶
룼
룾
뤆
뤇
뤉
뤊
뤍
뤎
뤏
뤐
뤑
뤒
뤓
뤖
뤚
뤛
뤜
뤝
뤞
뤢
뤣
뤥
뤦
뤧
뤪
뤫
뤬
뤭
뤮
뤲
뤶
뤷
뤸
뤹
뤾
뤿
륁
륂
륅
륆
륇
륈
륉
륊
륋
륎
륒
륓
륕
륖
륗
륚
륛
륢
륣
륤
륥
륦
륪
륬
륯
륱
륲
륹
륺
릂
릒
릓
릕
릖
릗
릙
릚
릛
릜
릝
릢
릤
릧
릨
릩
릪
릫
릲
릶
릷
릸
릹
릺
릻
맦
맧
맩
맯
맰
맱
맲
맳
맶
맿
먂
먇
먉
먊
먋
먌
먎
먒
먔
먝
먞
먟
먠
먡
먢
먣
먤
먥
먦
먧
먨
먩
먬
먭
먮
먰
먱
먲
먴
먶
먷
멄
멆
멖
멗
멙
멚
멝
멡
멢
멣
멨
멲
멳
멵
멼
멾
멿
몂
몈
몎
몏
몑
몒
몕
몖
몗
몘
몙
몚
몛
몞
몠
몢
몤
몧
몵
몶
뫂
뫆
뫇
뫉
뫊
뫍
뫎
뫏
뫐
뫑
뫒
뫓
뫖
뫛
뫜
뫝
뫡
뫢
뫣
뫥
뫦
뫧
뫩
뫪
뫫
뫬
뫭
뫮
뫯
뫰
뫲
뫳
뫶
뫷
뫸
뫹
뫺
뫻
뫾
뫿
묁
묂
묅
묆
묇
묉
묊
묋
묎
묐
묒
묓
묔
묕
묖
묛
묝
묞
묢
묣
묤
묥
묪
묮
묰
묲
묹
묿
뭂
뭒
뭓
뭕
뭖
뭙
뭚
뭛
뭜
뭝
뭞
뭢
뭪
뭫
뭮
뭯
뭱
뭲
뭳
뭶
뭸
뭹
뭻
뭾
뮂
뮃
뮄
뮅
뮆
뮇
뮋
뮍
뮎
뮏
뮑
뮒
뮓
뮕
뮖
뮗
뮚
뮞
뮟
뮠
뮡
뮢
뮣
뮦
뮩
뮪
뮭
뮮
뮰
뮱
뮲
뮸
뮺
뮼
뮾
믃
믅
믆
믋
믍
믎
믒
믔
믚
믞
믟
믡
믢
믣
믥
믦
믧
믨
믩
믪
믫
믮
믰
믳
믴
믵
믶
믷
밃
밅
밆
밳
밵
밶
밹
밺
밼
밽
밾
밿
뱎
뱑
뱖
뱗
뱘
뱙
뱠
뱢
뱣
뱥
뱪
뱫
뱭
뱮
뱯
뱱
뱲
뱳
뱴
뱵
뱶
뱹
뱻
뱼
뱾
뱿
벀
벁
벂
벃
벣
벥
벦
벬
벭
벮
벶
벺
벿
볁
볂
볇
볉
볊
볖
볗
볚
볛
볝
볞
볡
볢
볣
볤
볥
볦
볧
볪
볬
볮
볯
볰
볲
볺
봓
봕
봖
봚
봛
봜
봝
봞
봟
봦
봧
봩
봪
봮
봯
봱
봲
봶
봷
봸
봹
봺
봻
봼
봾
봿
뵁
뵂
뵃
뵄
뵅
뵆
뵇
뵋
뵍
뵎
뵒
뵓
뵔
뵕
뵖
뵗
뵚
뵞
뵟
뵠
뵡
뵢
뵣
뵦
뵩
뵪
뵮
뵯
뵰
뵱
뵺
뵼
뵾
뵿
붅
붔
붞
붟
붡
붢
붦
붧
붨
붩
붪
붫
붮
붲
붳
붶
붺
붻
붽
붾
뷂
뷅
뷆
뷊
뷎
뷐
뷒
뷖
뷗
뷙
뷚
뷝
뷞
뷠
뷡
뷢
뷣
뷨
뷪
뷬
뷯
뷲
뷳
뷶
뷺
뷻
뷽
뷾
뷿
븂
븄
븆
븇
븊
븋
븑
븒
븖
븙
븚
븢
븦
븫
븭
븮
븯
븱
븲
븳
븴
븵
븶
븷
븺
븼
븾
븿
빀
빁
빃
빇
빉
빊
빐
빑
빦
빬
빭
빯
빲
빿
뺁
뺂
뺆
뺇
뺈
뺉
뺊
뺋
뺎
뺖
뺗
뺞
뺢
뺤
뺪
뺬
뺯
뺰
뺱
뺲
뺺
뺻
뺽
뺾
뻀
뻁
뻂
뻃
뻅
뻊
뻋
뻌
뻍
뻎
뻏
뻓
뻜
뻝
뻧
뻮
뻯
뻱
뻲
뻵
뻶
뻷
뻸
뻹
뻺
뻻
뻾
뼀
뼂
뼃
뼄
뼅
뼆
뼊
뼋
뼍
뼎
뼑
뼒
뼓
뼔
뼕
뼖
뼗
뼚
뼣
뼧
뼨
뼩
뼪
뼫
뼭
뼮
뼯
뼰
뼲
뼳
뼴
뼵
뼶
뼺
뼻
뼼
뼽
뼾
뼿
뽃
뽅
뽉
뽋
뽌
뽍
뽎
뽏
뽗
뽡
뽢
뽦
뽨
뽩
뽪
뽫
뽮
뽯
뽰
뽲
뽳
뽵
뽶
뽹
뽺
뽻
뽼
뽽
뽾
뾀
뾂
뾈
뾉
뾊
뾋
뾌
뾍
뾎
뾏
뾐
뾑
뾒
뾓
뾕
뾖
뾗
뾙
뾚
뾛
뾜
뾝
뾞
뾟
뾠
뾡
뾢
뾣
뾦
뾧
뾨
뾩
뾪
뾫
뾭
뾮
뾯
뾳
뾵
뾶
뾷
뾺
뾽
뾾
뾿
뿂
뿄
뿆
뿇
뿈
뿊
뿖
뿢
뿣
뿤
뿪
뿫
뿬
뿭
뿱
뿲
뿳
뿴
뿵
뿶
뿸
뿹
뿺
뿻
뿼
뿽
뿾
뿿
쀀
쀁
쀂
쀃
쀅
쀆
쀇
쀉
쀊
쀋
쀔
쀕
쀖
쀗
쀘
쀙
쀚
쀛
쀝
쀞
쀢
쀣
쀤
쀥
쀦
쀧
쀩
쀪
쀭
쀮
쀯
쀰
쀱
쀴
쀶
쀷
쀸
쀹
쀺
쀻
쀿
쁁
쁂
쁆
쁇
쁈
쁊
쁒
쁔
쁗
쁛
쁝
쁞
쁡
쁤
쁦
쁧
쁪
쁬
쁮
쁯
쁰
쁱
쁵
쁽
삂
삇
삚
삞
삟
삢
삩
삪
샍
샎
샔
샕
샖
샗
샚
샞
샡
샦
샧
샩
샯
샰
샱
샲
샳
샺
샽
섃
섅
섆
섇
섉
섌
섍
섎
섏
섒
섓
섔
섖
섗
섘
섙
섛
섩
섽
셁
셃
셄
셅
셇
셏
셚
셝
셞
셢
셪
셫
셬
셮
셯
셲
셵
셶
셹
셺
셻
셼
셽
셾
셿
솂
솆
솇
솉
솋
솙
솪
솭
솮
솯
솱
솲
솳
솴
솵
솶
솷
솺
솾
솿
쇁
쇂
쇃
쇆
쇉
쇊
쇍
쇎
쇏
쇐
쇑
쇒
쇓
쇔
쇖
쇗
쇚
쇛
쇜
쇞
쇟
쇢
쇣
쇥
쇦
쇩
쇪
쇫
쇬
쇭
쇮
쇯
쇲
쇶
쇷
쇸
쇹
쇺
쇻
쇾
쇿
숂
숅
숆
숇
숈
숉
숊
숋
숐
숒
숗
숢
숶
숷
숹
숺
숽
숾
숿
쉀
쉁
쉂
쉃
쉆
쉊
쉋
쉌
쉍
쉎
쉓
쉕
쉝
쉞
쉢
쉦
쉧
쉫
쉮
쉯
쉱
쉲
쉶
쉷
쉸
쉹
쉺
쉾
슃
슇
슊
슋
슍
슎
슑
슒
슔
슕
슖
슗
슚
슜
슣
슩
슪
슱
싂
싃
싅
싆
싇
싉
싋
싌
싍
싎
싏
싒
싔
싖
싗
싙
싚
싛
싡
쌃
쌄
쌅
쌗
쌝
쌠
쌡
쌢
쌣
쌦
쌪
쌫
쌬
쌭
쌮
쌲
쌳
쌶
쌹
쌼
쌽
쌾
쌿
썂
썆
썇
썈
썉
썊
썏
썑
썒
썓
썕
썘
썙
썚
썞
썟
썠
썢
썣
썤
썥
썦
썧
썵
썶
썺
썾
썿
쎁
쎇
쎉
쎊
쎍
쎎
쎏
쎐
쎑
쎒
쎓
쎖
쎚
쎛
쎢
쎣
쎦
쎩
쎪
쎬
쎭
쎮
쎯
쎲
쎶
쎷
쎸
쎹
쎺
쎻
쏁
쏂
쏃
쏅
쏆
쏇
쏈
쏊
쏋
쏎
쏒
쏓
쏕
쏖
쏛
쏞
쏡
쏣
쏤
쏥
쏦
쏧
쏪
쏬
쏮
쏯
쏰
쏷
쏹
쏺
쏾
쏿
쐀
쐁
쐂
쐃
쐆
쐊
쐋
쐌
쐍
쐎
쐒
쐓
쐕
쐖
쐚
쐛
쐜
쐝
쐞
쐟
쐡
쐢
쐦
쐧
쐨
쐪
쐫
쐮
쐯
쐱
쐲
쐵
쐶
쐷
쐸
쐹
쐺
쐻
쐾
쑂
쑃
쑄
쑅
쑆
쑇
쑋
쑎
쑑
쑒
쑓
쑔
쑕
쑖
쑗
쑚
쑜
쑠
쑡
쑢
쑣
쑧
쑪
쑭
쑮
쑯
쑰
쑲
쑳
쑶
쑸
쑺
쑿
쒃
쒅
쒆
쒉
쒊
쒋
쒌
쒍
쒎
쒏
쒒
쒖
쒗
쒘
쒙
쒚
쒛
쒟
쒡
쒢
쒥
쒦
쒨
쒪
쒫
쒮
쒲
쒳
쒵
쒶
쒷
쒻
쒽
쒾
쓁
쓂
쓃
쓄
쓅
쓆
쓇
쓊
쓌
쓎
쓏
쓐
쓒
쓖
쓗
쓙
쓝
쓞
쓟
쓠
쓡
쓢
쓣
쓦
쓨
쓪
쓫
쓬
쓭
쓮
쓯
쓳
쓵
쓶
쓻
쓼
쓽
쓾
씂
씆
씇
씈
씊
씎
씏
씑
씒
씓
씕
씖
씗
씘
씙
씚
씛
씞
씠
씢
씣
씦
씧
씫
씭
씮
씲
씳
씴
씵
씶
씷
씾
앁
앂
앣
앥
앪
앬
앭
앮
앯
앿
얁
얈
얓
얚
얛
얝
얞
얡
얢
얣
얤
얥
얦
얧
얪
얮
얯
얱
얲
얳
엀
엁
엂
엖
엚
엛
엢
엧
엲
옊
옋
옍
옎
옔
옕
옖
옗
옚
옢
옣
옩
왃
왅
왆
왊
왋
왌
왍
왎
왏
왗
왞
왟
왡
왢
왥
왦
왨
왩
왪
왫
왮
왲
왳
왴
왵
왶
왺
왻
왽
왾
욁
욃
욄
욅
욆
욇
욊
욎
욏
욐
욑
욓
욖
욗
욞
욠
욪
욶
욽
웏
웑
웘
웙
웢
웣
웪
웭
웮
웲
웵
웶
웺
웾
웿
윃
윆
윇
윉
윊
윍
윏
윐
윑
윒
윖
윛
윣
윥
윦
윩
윫
윬
윭
윯
윴
읚
읛
읝
읞
읡
읢
읣
읥
읬
읮
읯
읱
읲
읳
잁
잝
잮
잯
잱
잵
잶
쟅
쟇
쟑
쟔
쟟
쟫
쟵
쟷
쟸
쟻
젃
젅
젘
젣
젻
졃
졇
졏
졑
졒
졕
졬
졲
졽
졾
졿
좓
좕
좦
좪
좫
좭
좮
좱
좲
좳
좴
좵
좶
좷
좺
좾
좿
죀
죁
죂
죃
죆
죇
죉
죊
죍
죎
죏
죐
죑
죒
죓
죖
죚
죛
죜
죝
죞
죟
죣
죷
줊
줎
줔
줖
줚
줝
줞
줡
줢
줣
줤
줥
줧
줪
줯
줰
줱
줲
줶
줷
줹
줺
줽
줾
줿
쥀
쥁
쥂
쥃
쥆
쥮
쥱
쥲
쥳
쥵
쥶
쥷
쥸
쥹
쥺
쥾
즀
즃
즄
즅
즆
즇
즋
즍
즎
즓
즕
즖
즗
즚
즜
즟
즢
즦
즧
즩
즪
즫
즭
즮
즯
짎
짟
짳
짵
짶
짻
짽
짾
쨁
쨂
쨃
쨄
쨅
쨆
쨇
쨊
쨐
쨑
쨒
쨓
쨗
쨙
쨛
쨝
쨞
쨠
쨡
쨣
쨭
쨱
쨸
쨻
쩁
쩇
쩈
쩉
쩊
쩋
쩏
쩑
쩕
쩙
쩚
쩞
쩣
쩤
쩥
쩦
쩪
쩫
쩭
쩮
쩲
쩳
쩴
쩵
쩶
쩷
쩺
쩾
쩿
쪀
쪂
쪃
쪆
쪋
쪕
쪡
쪩
쪪
쪫
쪬
쪭
쪮
쪯
쪲
쪴
쪶
쪷
쪸
쪹
쪺
쪻
쪿
쫁
쫂
쫇
쫈
쫉
쫊
쫎
쫐
쫕
쫚
쫛
쫝
쫞
쫡
쫢
쫤
쫥
쫦
쫧
쫨
쫰
쫵
쫸
쫻
쫼
쬋
쬌
쬍
쬎
쬏
쬒
쬓
쬕
쬖
쬙
쬚
쬛
쬜
쬝
쬞
쬟
쬢
쬦
쬨
쬩
쬪
쬫
쬮
쬯
쬱
쬳
쬵
쬶
쬸
쬹
쬺
쬻
쬾
쭄
쭏
쭓
쭥
쭫
쭭
쭮
쭰
쭱
쭲
쭳
쭶
쭺
쭻
쭼
쭽
쭾
쭿
쮂
쮃
쮅
쮆
쮉
쮊
쮌
쮍
쮎
쮏
쮒
쮔
쮖
쮗
쮘
쮙
쮚
쮛
쮞
쮟
쮡
쮢
쮤
쮭
쮯
쮱
쮼
쯅
쯆
쯊
쯌
쯎
쯏
쯐
쯑
쯒
쯓
쯖
쯗
쯙
쯚
쯝
쯞
쯟
쯠
쯡
쯢
쯣
쯦
쯨
쯭
쯮
쯯
쯲
쯳
쯵
쯶
쯷
쯹
쯺
쯻
쯼
찀
찁
찆
찖
찗
찛
찤
찪
찶
챆
챇
챉
챊
챍
챎
챏
챐
챑
챒
챓
챖
챜
챟
챢
챥
챧
챩
챪
챫
챬
챭
챮
챴
챹
챻
챽
첄
첌
첐
첑
첔
첕
첖
첗
첝
첤
첶
첷
첹
첺
첽
첾
쳀
쳁
쳂
쳆
쳊
쳍
쳎
쳏
쳓
쳖
쳙
쳚
쳧
쳫
쳽
쳾
촀
촂
촃
촄
촅
촆
촇
촋
촔
촗
촚
촜
촦
촧
촩
촪
촭
촮
촯
촱
촲
촶
촸
촺
촼
촽
쵓
쵔
쵡
쵢
쵥
쵦
쵧
쵨
쵩
쵪
쵫
쵲
쵳
쵴
쵵
쵶
쵺
쵻
쵽
쵾
춁
춂
춃
춄
춅
춆
춊
춌
춎
춐
춑
춒
춓
춖
춙
춚
춞
춡
춦
춯
춷
췀
췆
췇
췉
췊
췋
췏
췑
췒
췓
췕
췖
췗
췘
췙
췚
췞
췢
췣
췥
췦
췧
췪
췫
췭
췮
췱
췲
췳
췴
췵
췶
췷
췺
췾
췿
츁
츂
츆
츎
츚
츞
츧
츭
츮
츯
츲
츴
츶
츹
츾
츿
칁
칂
칃
칅
칆
칇
칈
칉
칊
칋
칎
칐
칒
칓
칔
칕
칖
칗
칛
칝
칤
칥
칦
칧
칪
칳
캃
캊
캗
캚
캛
캝
캞
캦
캨
캫
캮
캯
캱
캲
캳
캶
캷
캸
캹
캺
캻
캾
컀
컂
컃
컅
컆
컇
컉
컊
컋
컍
컎
컏
컐
컑
컒
컓
컔
컕
컘
컛
컻
켂
켃
켅
켆
켊
켋
켌
켍
켎
켏
켒
켖
켗
켛
켟
켡
켢
켥
켦
켧
켨
켩
켪
켫
켲
켴
켵
켶
켷
켺
켻
켽
켾
켿
콁
콂
콃
콄
콈
콋
콌
콍
콣
콲
콳
콵
콶
콷
콹
콺
콼
콽
콾
콿
쾂
쾄
쾆
쾇
쾉
쾊
쾎
쾏
쾑
쾒
쾕
쾖
쾗
쾘
쾙
쾚
쾛
쾞
쾠
쾢
쾣
쾤
쾥
쾦
쾧
쾸
쿅
쿍
쿎
쿐
쿑
쿒
쿓
쿖
쿘
쿚
쿛
쿝
쿞
쿟
쿢
쿣
쿥
쿦
쿬
쿮
쿯
쿲
쿴
쿷
쿾
쿿
퀁
퀂
퀅
퀆
퀇
퀈
퀉
퀊
퀐
퀡
퀩
퀬
퀮
퀯
퀰
퀱
퀲
퀳
퀷
퀹
퀺
퀽
퀾
퀿
큀
큁
큂
큃
큆
큈
큊
큋
큍
큎
큏
큒
큓
큕
큖
큙
큚
큛
큜
큝
큞
큢
큤
큦
큧
큯
큱
큲
큶
큺
킆
킕
킖
킗
킚
킜
킞
킟
킡
킢
킣
킧
킩
킪
킮
킯
킰
킱
킲
킶
킺
킿
탅
탋
탌
탎
탢
탥
탺
탿
턁
턅
턆
턇
턊
턎
턏
턖
턗
턙
턛
턜
턝
턞
턟
턠
턡
턢
턣
턤
턥
턦
턧
턨
턪
턫
턭
턮
턯
턲
턳
턵
턶
턼
턽
턾
텇
텈
텗
텞
텣
텪
텮
텱
텲
텴
텵
텶
텷
텺
텾
텿
톀
톂
톆
톇
톉
톊
톍
톎
톏
톐
톑
톒
톓
톖
톘
톚
톛
톜
톝
톞
톟
톣
톥
톦
톶
톷
톻
퇌
퇏
퇐
퇒
퇓
퇔
퇕
퇖
퇚
퇛
퇝
퇞
퇟
퇠
퇡
퇢
퇤
퇥
퇦
퇧
퇨
퇩
퇪
퇮
퇯
퇰
퇱
퇲
퇳
퇶
퇷
퇹
퇺
퇽
퇾
퇿
툀
툁
툂
툃
툆
툈
툒
툓
툝
툩
툪
툮
툱
툲
툾
퉂
퉊
퉋
퉍
퉎
퉑
퉒
퉓
퉕
퉖
퉗
퉚
퉞
퉟
퉡
퉢
퉣
퉦
퉧
퉫
퉬
퉱
퉴
퉵
튇
튍
튏
튒
튖
튗
튚
튛
튞
튡
튢
튣
튥
튧
튨
튩
튪
튫
튰
튴
튷
튾
틃
틅
틌
틎
틏
틒
틓
틠
틻
틼
틽
틾
틿
팆
팇
팋
팑
팘
팙
팞
팢
팪
팫
팭
팱
팲
팳
팴
팵
팶
팷
팺
팾
퍂
퍃
퍆
퍇
퍉
퍐
퍔
퍤
퍪
퍫
퍬
퍭
퍮
퍯
퍰
퍱
퍲
퍳
퍴
퍵
퍶
퍷
퍸
퍹
퍺
퍻
퍾
펂
펆
펇
펈
펉
펊
펒
펓
펚
펛
펝
펞
펢
펣
펤
펥
펦
펧
펪
펮
펹
폃
폙
폚
폛
폜
폝
폞
폟
폡
폢
폤
폦
폧
폨
폩
폪
폫
폱
폲
폶
폷
폸
폹
폺
폻
폾
퐀
퐇
퐊
퐋
퐍
퐎
퐏
퐒
퐓
퐔
퐕
퐖
퐛
퐟
퐸
퐹
퐺
퐻
퐼
퐽
퐾
퐿
푂
푃
푅
푆
푇
푉
푊
푋
푌
푍
푎
푏
푒
푔
푖
푗
푘
푙
푚
푛
푞
푟
푡
푢
푦
푨
푪
푮
푰
푲
풄
풅
풇
풏
풓
풛
풞
풟
풠
풡
풢
풣
풦
풪
풫
풭
풯
풲
풳
풵
풶
풷
풺
풻
풼
풽
퓂
퓄
퓆
퓇
퓈
퓉
퓊
퓋
퓎
퓏
퓑
퓒
퓓
퓕
퓙
퓯
퓳
퓴
퓵
퓾
퓿
픀
픂
픃
픆
픇
픉
픊
픍
픏
픑
픘
픚
픛
픢
픣
픥
픦
픧
픩
픪
픫
픬
픭
픮
픯
픲
픴
픶
픷
픻
핁
핎
핢
핯
핷
핹
핾
햀
햁
햂
햃
햆
햒
햓
햕
햖
햗
햜
햢
햦
햧
햨
햭
햼
헊
헋
헍
헎
헖
헞
헟
헦
헧
헩
헪
헮
헰
헳
헶
헻
혃
혆
혊
혋
혌
혎
혏
혝
혰
홃
홆
홊
홌
홏
홖
홗
홙
홚
홞
홟
홡
홢
홫
홮
홲
홵
홶
홹
홺
홻
홼
홽
홾
홿
횁
횂
횧
횫
횭
횮
횱
횲
횳
횴
횵
횶
횷
횺
횼
횿
훀
훂
훆
훉
훊
훏
훐
훖
훘
훢
훣
훥
훦
훧
훪
훫
훬
훭
훯
휃
휋
휐
휔
휕
휖
휚
휛
휝
휞
휡
휣
휤
휥
휦
휧
휮
휯
휲
휶
휷
휹
휾
휿
흀
흁
흂
흆
흈
흋
흌
흏
흚
흛
흜
흢
흧
흳
힄
힋
힎
힓
힔
힕
힖
힞
힟
힢
겖
겗
겘
겙
겚
겛
겵
겶
겺
곍
곎
곏
곐
곑
곒
곓
괉
괊
괎
괒
괓
괔
괕
괖
괚
괛
괝
괡
괣
괤
괲
궀
귫
귮
귰
귲
귳
귴
깦
깫
깭
깮
꺒
꺖
꺱
꺲
꺳
꺶
꺷
꺸
꺹
꺺
꺻
꺿
껁
껅
껆
껈
껉
껊
껋
껎
껔
껛
껝
껞
껡
껢
껣
껤
껥
꼆
꼊
꼋
꼌
꼎
꼏
꼒
꼓
꼕
꼖
꼘
꼺
꼾
꽀
꽄
꽋
꽍
꽎
꽶
꽷
꽺
꽻
꽼
꽽
꽾
꽿
꾂
꾃
꾅
꾆
꾉
꾊
꾋
꾌
꾍
꾎
꾏
꾒
꾖
꾗
꾘
꾙
꾚
꾛
꾝
꾞
꾟
꾡
꾢
꾦
꾧
꾨
꾪
꾮
꾯
꾰
꾵
꾶
꾷
꾻
꾽
꿄
꿊
꿌
꿒
꿓
꿖
꿗
꿙
꿚
꿞
꿟
꿠
꿡
꿢
꿣
꿦
꿪
꿫
꿬
꿭
꿮
꿳
꿵
꿶
꿹
꿺
꿼
꿽
꿾
뀆
뀇
뀈
뀉
뀊
뀋
뀎
뀏
뀑
뀒
뀕
뀖
뀗
뀘
뀚
뀛
뀞
뀣
뀤
뀥
뀦
뀧
뀭
뀮
뀯
뀲
뀳
뀴
뀶
뀷
뀺
뀼
뀾
뀿
끀
끁
끂
끃
끇
끐
끒
끖
끘
끞
끢
끣
끥
끦
끩
끪
끬
끭
끮
끯
끱
끲
끴
끶
끷
끸
끹
끺
끻
끿
낁
낂
낅
낆
낇
낈
낉
낊
낎
낒
낓
낖
낝
낥
낷
낹
낺
낽
낾
냁
냂
냆
냋
냍
냒
냓
냕
냖
냚
냜
냝
냞
냢
냧
냪
냭
냮
냯
냰
냱
냲
냳
냵
냶
냷
냸
냹
냺
냻
냼
냽
냾
냿
넂
넃
넄
넅
넆
넇
넕
넦
넩
넪
넭
넮
넯
넰
넱
넲
넳
넶
넺
넻
녅
녉
녊
녌
녍
녎
녏
녒
녖
녗
녞
녟
녡
녢
녥
녦
녧
녨
녩
녪
녫
녮
녰
녲
녳
녴
녶
녷
녽
놄
놆
놌
놖
놙
놚
놝
뇏
뇑
뇒
뇕
뇺
뇼
뇿
눃
눆
눇
눉
눊
눎
눏
눑
눒
눖
눘
눢
눣
눥
눦
눩
눪
눫
눬
눭
눮
눯
눲
눷
눸
눹
눺
눻
눾
눿
뉁
뉂
뉅
뉆
뉈
뉉
뉊
뉋
뉎
뉒
뉓
뉕
뉖
뉗
뉚
뉛
뉝
뉞
뉡
뉢
뉣
뉤
뉥
뉦
뉧
뉪
뉬
뉮
뉰
뉱
뉲
뉳
뉶
뉷
뉹
뉺
뉾
뉿
늀
늁
늂
늃
늆
늈
늌
늍
늏
늮
늯
늱
늲
늵
늶
늷
늸
늹
늺
늻
늾
닂
닃
닄
닅
닆
닇
닋
닎
닕
닖
닗
둃
딚
딝
뗾
뗿
뛁
뛂
랝
랞
뢃
뢄
멅
묧
뷑
뺷
뾁
쁲
쁳
쁷
쁸
쁹
쁺
쁻
쁾
쁿
삀
삁
삃
삄
삅
삆
삈
삉
삊
삋
삌
삍
삎
삏
삓
삕
삖
삙
삛
숣
쌏
쏗
쒩
잷
잸
잹
잺
잻
잾
쟊
쟋
쟍
쟒
쟓
쟕
쟖
쟚
쟡
쟦
쟧
쟩
쟪
쟭
쟮
쟯
쟰
쟱
쟲
쟳
쟶
쟺
쟼
쟽
쟾
쟿
젌
젍
젎
젞
젡
젢
젥
젦
젩
젪
젫
젳
젷
젽
젾
졄
졅
졆
졊
졖
졗
졙
졚
졛
졝
졞
졟
졠
졡
졢
졣
졦
졨
졪
졫
졭
졮
졯
졳
졶
졹
졻
졼
좎
좏
좑
좖
좗
좘
좙
좚
좛
좞
좣
좤
죦
죩
죪
죫
죬
죭
죮
죯
죲
죴
죺
죾
죿
줁
줂
줇
줉
쥊
쥋
쥍
쥎
쥏
쥒
쥓
쥕
쥖
쥙
쥚
쥛
쥜
쥝
쥞
쥟
쥢
쥦
쥧
쥨
쥪
쥫
쥯
즰
즱
즲
즳
즶
즸
즺
즻
즼
즽
즾
즿
짃
짅
짉
짌
짍
쨦
쨪
쨫
쨬
쨮
쨯
쨲
쨳
쨵
쨶
쨷
쨹
쨺
쨼
쨽
쨾
쨿
쩀
쩂
쩆
쪇
쪉
쪊
쪍
쪎
쪏
쪐
쪑
쪒
쪓
쪖
쪚
쪛
쪜
쪝
쪞
쪟
쪢
쪣
쪥
쪦
쪧
쫪
쫮
쫯
쫱
쫲
쫳
쫶
쫷
쫹
쫺
쫽
쫾
쫿
쬀
쬁
쬂
쬃
쬄
쬅
쬆
쬇
쬉
쬊
쭅
쭆
쭇
쭋
쭍
쭎
쭑
쭔
쭕
쭖
쭗
쭚
쭜
쭠
쭡
쭢
쭣
쭦
쭧
쭩
쭪
쮥
쮦
쮧
쮨
쮩
쮪
쮫
쮮
쮰
쮲
쮳
쮴
쮵
쮶
쮷
쮺
쮻
쮽
쮾
쮿
쯁
쯂
쯃
쯄
쯽
쯾
쯿
찂
찄
찇
찈
찉
찊
찋
찏
찑
찒
찕
찘
찙
찚
찞
찠
챾
챿
첀
첁
첂
첃
첆
첇
첈
첉
첊
첋
첍
첎
첏
첒
첓
쳛
쳜
쳝
쳞
쳟
쳢
쳦
쳨
쳩
쳪
쳮
쳯
쳱
쳲
쳳
쳵
쳶
쳷
쳸
쳹
쳺
쳻
촿
쵂
쵃
쵅
쵆
쵈
쵉
쵊
쵋
쵌
쵍
쵎
쵏
쵐
쵑
쵒
쵖
쵗
쵘
쵙
쵚
쵛
쵞
쵟
춲
춳
춵
춶
춹
춺
춻
춼
춽
춾
춿
췂
츃
츇
츉
츊
츋
츍
츏
츐
츑
츒
츓
츖
츘
츛
츜
츝
츟
츢
츣
츥
츦
츪
츫
칱
칶
칷
칹
칺
칾
칿
캀
캁
캂
캒
캓
캕
캖
캙
컖
컗
컙
컚
컜
컝
컞
컟
컠
컡
컢
컣
컦
컧
컩
컪
컮
컯
컰
컱
컲
컳
컺
콅
콆
콇
콊
콎
콏
콐
콑
콒
콓
콖
콗
콚
콝
콞
콟
콠
콡
콢
콨
쾪
쾫
쾭
쾮
쾯
쾱
쾲
쾳
쾴
쾵
쾶
쾷
쾺
쾼
쾾
쾿
쿀
쿁
쿂
쿃
쿆
쿇
쿉
쿊
쿋
퀋
퀎
퀒
퀓
퀔
퀕
퀖
퀗
퀚
퀛
퀝
퀞
퀟
퀢
퀣
퀤
퀥
퀦
퀪
큵
큷
큸
큹
킀
킂
킃
킊
킋
킍
킎
킏
킑
킒
킓
킔
탛
탞
탟
탡
탦
탧
탨
탩
탪
탫
탮
탲
탳
탴
탷
탻
탽
탾
턂
턃
턄
턿
텎
텏
텑
텒
텕
텖
텘
텙
텚
텛
텢
텧
텫
텭
톪
톫
톬
톭
톯
톴
톾
톿
퇁
퇂
퇃
퇅
퇆
퇇
퇈
퇉
퇊
퇋
퇎
툊
툋
툌
툍
툎
툏
툕
툖
툗
툙
툚
툛
툜
툞
툟
툢
툤
툦
툧
툨
퉩
퉪
퉮
퉯
퉰
퉲
퉳
퉶
퉺
퉻
퉼
퉽
퉾
퉿
튂
튃
튅
튆
튉
튊
튋
튌
틖
틗
틙
틚
틛
틝
틞
틟
틡
틢
틣
틦
틨
틪
틫
틬
틭
틮
틯
틲
틳
틵
틶
틹
틺
퍊
퍋
퍍
퍎
퍏
퍑
퍒
퍓
퍖
퍛
퍜
퍞
퍟
퍡
퍢
퍣
퍥
퍦
퍧
퍨
퍩
펯
펱
펳
펶
펷
펺
펽
펾
펿
폀
폁
폆
폊
폋
폌
폍
폎
폏
폒
폓
폖
퐗
퐚
퐜
퐡
퐢
퐣
퐥
퐦
퐧
퐨
퐩
퐪
퐫
퐬
퐭
퐮
퐯
퐰
퐱
퐲
퐴
퐵
퐶
퐷
푳
푵
푶
푺
푻
푽
풁
풃
풆
풊
풌
풎
풖
풗
풙
풚
풝
퓖
퓗
퓘
퓚
퓛
퓞
퓠
퓢
퓣
퓤
퓥
퓧
퓪
퓫
퓭
퓮
퓱
퓲
퓶
퓷
퓺
퓼
픸
픹
픺
픾
픿
핂
핅
핆
핇
핈
핉
핊
핋
핐
핒
햪
햮
햯
햱
햲
햳
햴
햵
햶
햷
햸
햹
햺
햻
햽
헂
헃
헄
헅
헆
헇
혖
혗
혘
혚
혛
혞
혟
혡
혢
혣
혥
혦
혧
혨
혩
혪
혫
혮
혲
혳
혴
혵
혶
혷
혺
횆
횇
횈
횉
횊
횋
횎
횏
횑
횒
횕
횖
횗
횘
횙
횚
횛
횠
횢
횣
횤
횥
횪
훮
훲
훶
훷
훹
훺
훻
훾
훿
휁
휂
휆
휇
휈
휉
휊
휎
휒
휓
흤
흦
흮
흯
흱
흲
흵
흶
흷
흸
