[UNK]	0
[CLS]	1
[SEP]	2
[PAD]	3
[MASK]	4
!	5
"	6
#	7
$	8
%	9
&	10
'	11
(	12
)	13
*	14
+	15
,	16
-	17
.	18
/	19
0	20
1	21
2	22
3	23
4	24
5	25
6	26
7	27
8	28
9	29
:	30
;	31
<	32
=	33
>	34
?	35
@	36
A	37
B	38
C	39
D	40
E	41
F	42
G	43
H	44
I	45
J	46
K	47
L	48
M	49
N	50
O	51
P	52
Q	53
R	54
S	55
T	56
U	57
V	58
W	59
X	60
Y	61
Z	62
[	63
\	64
]	65
^	66
_	67
`	68
a	69
b	70
c	71
d	72
e	73
f	74
g	75
h	76
i	77
j	78
k	79
l	80
m	81
n	82
o	83
p	84
q	85
r	86
s	87
t	88
u	89
v	90
w	91
x	92
y	93
z	94
{	95
|	96
}	97
~	98
	99
ᄀ	100
ᄁ	101
ᄂ	102
ᄃ	103
ᄄ	104
ᄅ	105
ᄆ	106
ᄇ	107
ᄈ	108
ᄉ	109
ᄊ	110
ᄋ	111
ᄌ	112
ᄍ	113
ᄎ	114
ᄏ	115
ᄐ	116
ᄑ	117
ᄒ	118
ᅡ	119
ᅢ	120
ᅣ	121
ᅤ	122
ᅥ	123
ᅦ	124
ᅧ	125
ᅨ	126
ᅩ	127
ᅪ	128
ᅬ	129
ᅭ	130
ᅮ	131
ᅯ	132
ᅰ	133
ᅱ	134
ᅲ	135
ᅳ	136
ᅴ	137
ᅵ	138
ᆨ	139
ᆩ	140
ᆫ	141
ᆭ	142
ᆮ	143
ᆯ	144
ᆷ	145
ᆸ	146
ᆹ	147
ᆺ	148
ᆻ	149
ᆼ	150
ᆽ	151
ᇀ	152
ᇂ	153
ㄱ	154
ㄲ	155
ㄳ	156
ㄴ	157
ㄵ	158
ㄶ	159
ㄷ	160
ㄸ	161
ㄹ	162
ㄺ	163
ㄻ	164
ㄼ	165
ㄽ	166
ㄾ	167
ㄿ	168
ㅀ	169
ㅁ	170
ㅂ	171
ㅃ	172
ㅄ	173
ㅅ	174
ㅆ	175
ㅇ	176
ㅈ	177
ㅉ	178
ㅊ	179
ㅋ	180
ㅌ	181
ㅍ	182
ㅎ	183
ㅏ	184
ㅐ	185
ㅑ	186
ㅒ	187
ㅓ	188
ㅔ	189
ㅕ	190
ㅖ	191
ㅗ	192
ㅘ	193
ㅙ	194
ㅚ	195
ㅛ	196
ㅜ	197
ㅝ	198
ㅞ	199
ㅟ	200
ㅠ	201
ㅡ	202
ㅢ	203
ㅣ	204
가	205
각	206
갂	207
갃	208
간	209
갅	210
갆	211
갇	212
갈	213
갉	214
갊	215
갋	216
갌	217
갍	218
갎	219
갏	220
감	221
갑	222
값	223
갓	224
갔	225
강	226
갖	227
갗	228
갘	229
같	230
갚	231
갛	232
개	233
객	234
갞	235
갟	236
갠	237
갡	238
갢	239
갣	240
갤	241
갥	242
갦	243
갧	244
갨	245
갩	246
갪	247
갫	248
갬	249
갭	250
갮	251
갯	252
갰	253
갱	254
갲	255
갳	256
갴	257
갵	258
갶	259
갷	260
갸	261
갹	262
갺	263
갻	264
갽	265
갾	266
갿	267
걀	268
걁	269
걂	270
걃	271
걄	272
걅	273
걆	274
걇	275
걈	276
걉	277
걊	278
걋	279
걌	280
걍	281
걎	282
걏	283
걐	284
걑	285
걒	286
걓	287
걔	288
걕	289
걖	290
걗	291
걙	292
걚	293
걛	294
걝	295
걞	296
걟	297
걠	298
걡	299
걢	300
걣	301
걤	302
걥	303
걦	304
걧	305
걨	306
걩	307
걪	308
걫	309
걬	310
걭	311
걮	312
걯	313
거	314
걱	315
걲	316
걳	317
건	318
걵	319
걶	320
걷	321
걸	322
걹	323
걺	324
걻	325
걼	326
걽	327
걾	328
걿	329
검	330
겁	331
겂	332
것	333
겄	334
겅	335
겆	336
겇	337
겈	338
겉	339
겊	340
겋	341
게	342
겍	343
겎	344
겏	345
겐	346
겑	347
겒	348
겓	349
겔	350
겕	351
겖	352
겗	353
겘	354
겙	355
겚	356
겛	357
겜	358
겞	359
겟	360
겠	361
겡	362
겢	363
겣	364
겤	365
겥	366
겦	367
겧	368
겨	369
격	370
겪	371
겫	372
견	373
겭	374
겮	375
겯	376
결	377
겱	378
겲	379
겳	380
겴	381
겵	382
겶	383
겷	384
겸	385
겹	386
겺	387
겻	388
겼	389
경	390
겾	391
겿	392
곀	393
곁	394
곂	395
곃	396
계	397
곅	398
곆	399
곇	400
곈	401
곉	402
곊	403
곋	404
곌	405
곍	406
곎	407
곏	408
곐	409
곑	410
곒	411
곓	412
곔	413
곕	414
곖	415
곗	416
곘	417
곙	418
곚	419
곛	420
곜	421
곝	422
곞	423
곟	424
고	425
곡	426
곢	427
곣	428
곤	429
곥	430
곦	431
곧	432
골	433
곩	434
곪	435
곫	436
곬	437
곭	438
곮	439
곯	440
곰	441
곱	442
곲	443
곳	444
곴	445
공	446
곶	447
곷	448
곸	449
곹	450
곺	451
곻	452
과	453
곽	454
곾	455
곿	456
관	457
괁	458
괂	459
괃	460
괄	461
괅	462
괆	463
괇	464
괈	465
괉	466
괊	467
괋	468
괌	469
괍	470
괎	471
괏	472
괐	473
광	474
괒	475
괓	476
괔	477
괕	478
괖	479
괗	480
괘	481
괙	482
괚	483
괛	484
괜	485
괝	486
괞	487
괟	488
괠	489
괡	490
괢	491
괣	492
괤	493
괥	494
괦	495
괧	496
괨	497
괩	498
괪	499
괫	500
괬	501
괭	502
괮	503
괯	504
괰	505
괱	506
괲	507
괳	508
괴	509
괵	510
괶	511
괷	512
괸	513
괹	514
괺	515
괻	516
괼	517
괽	518
괾	519
괿	520
굀	521
굁	522
굂	523
굃	524
굄	525
굅	526
굆	527
굇	528
굈	529
굉	530
굊	531
굋	532
굌	533
굍	534
굎	535
굏	536
교	537
굑	538
굒	539
굓	540
굔	541
굕	542
굖	543
굗	544
굘	545
굙	546
굚	547
굛	548
굜	549
굝	550
굞	551
굟	552
굠	553
굡	554
굢	555
굣	556
굤	557
굥	558
굦	559
굧	560
굨	561
굩	562
굪	563
굫	564
구	565
국	566
굮	567
굯	568
군	569
굱	570
굲	571
굳	572
굴	573
굵	574
굶	575
굷	576
굸	577
굹	578
굺	579
굻	580
굼	581
굽	582
굾	583
굿	584
궀	585
궁	586
궂	587
궃	588
궄	589
궅	590
궆	591
궇	592
궈	593
궉	594
궊	595
궋	596
권	597
궍	598
궎	599
궏	600
궐	601
궑	602
궒	603
궓	604
궔	605
궕	606
궖	607
궗	608
궘	609
궙	610
궚	611
궛	612
궜	613
궝	614
궞	615
궟	616
궠	617
궡	618
궢	619
궣	620
궤	621
궥	622
궦	623
궧	624
궨	625
궩	626
궪	627
궫	628
궬	629
궭	630
궮	631
궯	632
궰	633
궱	634
궲	635
궳	636
궴	637
궵	638
궶	639
궷	640
궸	641
궹	642
궺	643
궻	644
궼	645
궽	646
궾	647
궿	648
귀	649
귁	650
귂	651
귃	652
귄	653
귅	654
귆	655
귇	656
귈	657
귉	658
귊	659
귋	660
귌	661
귍	662
귎	663
귏	664
귐	665
귑	666
귒	667
귓	668
귔	669
귕	670
귖	671
귗	672
귘	673
귙	674
귚	675
귛	676
규	677
귝	678
귞	679
귟	680
균	681
귡	682
귢	683
귣	684
귤	685
귥	686
귦	687
귧	688
귨	689
귩	690
귪	691
귫	692
귬	693
귭	694
귮	695
귯	696
귰	697
귱	698
귲	699
귳	700
귴	701
귵	702
귶	703
귷	704
그	705
극	706
귺	707
귻	708
근	709
귽	710
귾	711
귿	712
글	713
긁	714
긂	715
긃	716
긄	717
긅	718
긆	719
긇	720
금	721
급	722
긊	723
긋	724
긌	725
긍	726
긎	727
긏	728
긐	729
긑	730
긒	731
긓	732
긔	733
긕	734
긖	735
긗	736
긘	737
긙	738
긚	739
긛	740
긜	741
긝	742
긞	743
긟	744
긠	745
긡	746
긢	747
긣	748
긤	749
긥	750
긦	751
긧	752
긨	753
긩	754
긪	755
긫	756
긬	757
긭	758
긮	759
긯	760
기	761
긱	762
긲	763
긳	764
긴	765
긵	766
긶	767
긷	768
길	769
긹	770
긺	771
긻	772
긼	773
긽	774
긾	775
긿	776
김	777
깁	778
깂	779
깃	780
깄	781
깅	782
깆	783
깇	784
깈	785
깉	786
깊	787
깋	788
까	789
깍	790
깎	791
깏	792
깐	793
깑	794
깒	795
깓	796
깔	797
깕	798
깖	799
깗	800
깘	801
깙	802
깚	803
깛	804
깜	805
깝	806
깞	807
깟	808
깡	809
깢	810
깣	811
깤	812
깥	813
깦	814
깧	815
깨	816
깩	817
깪	818
깫	819
깬	820
깭	821
깮	822
깯	823
깱	824
깲	825
깳	826
깴	827
깵	828
깶	829
깷	830
깸	831
깹	832
깺	833
깻	834
깽	835
깾	836
깿	837
꺀	838
꺁	839
꺂	840
꺃	841
꺄	842
꺅	843
꺆	844
꺇	845
꺈	846
꺉	847
꺊	848
꺋	849
꺌	850
꺍	851
꺎	852
꺏	853
꺐	854
꺑	855
꺒	856
꺓	857
꺔	858
꺕	859
꺖	860
꺗	861
꺘	862
꺙	863
꺚	864
꺛	865
꺜	866
꺝	867
꺞	868
꺟	869
꺠	870
꺡	871
꺢	872
꺣	873
꺤	874
꺥	875
꺦	876
꺧	877
꺨	878
꺩	879
꺪	880
꺫	881
꺬	882
꺭	883
꺮	884
꺯	885
꺰	886
꺱	887
꺲	888
꺳	889
꺴	890
꺵	891
꺶	892
꺷	893
꺸	894
꺹	895
꺺	896
꺻	897
꺼	898
꺽	899
꺾	900
꺿	901
껀	902
껁	903
껂	904
껃	905
껄	906
껅	907
껆	908
껇	909
껈	910
껉	911
껊	912
껋	913
껌	914
껍	915
껎	916
껏	917
껑	918
껒	919
껓	920
껔	921
껕	922
껖	923
껗	924
께	925
껙	926
껚	927
껛	928
껝	929
껞	930
껟	931
껠	932
껡	933
껢	934
껣	935
껤	936
껥	937
껦	938
껧	939
껨	940
껩	941
껪	942
껫	943
껬	944
껭	945
껮	946
껯	947
껰	948
껱	949
껲	950
껳	951
껴	952
껵	953
껶	954
껷	955
껸	956
껹	957
껺	958
껻	959
껼	960
껽	961
껾	962
껿	963
꼀	964
꼁	965
꼂	966
꼃	967
꼄	968
꼅	969
꼆	970
꼇	971
꼈	972
꼉	973
꼊	974
꼋	975
꼌	976
꼍	977
꼎	978
꼏	979
꼐	980
꼑	981
꼒	982
꼓	983
꼔	984
꼕	985
꼖	986
꼗	987
꼘	988
꼙	989
꼚	990
꼛	991
꼜	992
꼝	993
꼞	994
꼟	995
꼠	996
꼡	997
꼢	998
꼣	999
꼤	1000
꼥	1001
꼦	1002
꼧	1003
꼨	1004
꼩	1005
꼪	1006
꼫	1007
꼬	1008
꼭	1009
꼮	1010
꼯	1011
꼰	1012
꼱	1013
꼲	1014
꼳	1015
꼴	1016
꼵	1017
꼶	1018
꼷	1019
꼸	1020
꼹	1021
꼺	1022
꼻	1023
꼼	1024
꼽	1025
꼾	1026
꼿	1027
꽀	1028
꽁	1029
꽂	1030
꽃	1031
꽄	1032
꽅	1033
꽆	1034
꽇	1035
꽈	1036
꽉	1037
꽊	1038
꽋	1039
꽌	1040
꽍	1041
꽎	1042
꽏	1043
꽐	1044
꽑	1045
꽒	1046
꽓	1047
꽔	1048
꽕	1049
꽖	1050
꽗	1051
꽘	1052
꽙	1053
꽚	1054
꽛	1055
꽜	1056
꽝	1057
꽞	1058
꽟	1059
꽠	1060
꽡	1061
꽢	1062
꽣	1063
꽤	1064
꽥	1065
꽦	1066
꽧	1067
꽨	1068
꽩	1069
꽪	1070
꽫	1071
꽬	1072
꽭	1073
꽮	1074
꽯	1075
꽰	1076
꽱	1077
꽲	1078
꽳	1079
꽴	1080
꽵	1081
꽶	1082
꽷	1083
꽸	1084
꽹	1085
꽺	1086
꽻	1087
꽼	1088
꽽	1089
꽾	1090
꽿	1091
꾀	1092
꾁	1093
꾂	1094
꾃	1095
꾄	1096
꾅	1097
꾆	1098
꾇	1099
꾈	1100
꾉	1101
꾊	1102
꾋	1103
꾌	1104
꾍	1105
꾎	1106
꾏	1107
꾐	1108
꾑	1109
꾒	1110
꾓	1111
꾔	1112
꾕	1113
꾖	1114
꾗	1115
꾘	1116
꾙	1117
꾚	1118
꾛	1119
꾜	1120
꾝	1121
꾞	1122
꾟	1123
꾠	1124
꾡	1125
꾢	1126
꾣	1127
꾤	1128
꾥	1129
꾦	1130
꾧	1131
꾨	1132
꾩	1133
꾪	1134
꾫	1135
꾬	1136
꾭	1137
꾮	1138
꾯	1139
꾰	1140
꾱	1141
꾲	1142
꾳	1143
꾴	1144
꾵	1145
꾶	1146
꾷	1147
꾸	1148
꾹	1149
꾺	1150
꾻	1151
꾼	1152
꾽	1153
꾾	1154
꾿	1155
꿀	1156
꿁	1157
꿂	1158
꿃	1159
꿄	1160
꿅	1161
꿆	1162
꿇	1163
꿈	1164
꿉	1165
꿊	1166
꿋	1167
꿌	1168
꿍	1169
꿎	1170
꿏	1171
꿐	1172
꿑	1173
꿒	1174
꿓	1175
꿔	1176
꿕	1177
꿖	1178
꿗	1179
꿘	1180
꿙	1181
꿚	1182
꿛	1183
꿜	1184
꿝	1185
꿞	1186
꿟	1187
꿠	1188
꿡	1189
꿢	1190
꿣	1191
꿤	1192
꿥	1193
꿦	1194
꿧	1195
꿨	1196
꿩	1197
꿪	1198
꿫	1199
꿬	1200
꿭	1201
꿮	1202
꿯	1203
꿰	1204
꿱	1205
꿲	1206
꿳	1207
꿵	1208
꿶	1209
꿷	1210
꿹	1211
꿺	1212
꿻	1213
꿼	1214
꿽	1215
꿾	1216
꿿	1217
뀀	1218
뀁	1219
뀂	1220
뀃	1221
뀅	1222
뀆	1223
뀇	1224
뀈	1225
뀉	1226
뀊	1227
뀋	1228
뀌	1229
뀍	1230
뀎	1231
뀏	1232
뀐	1233
뀑	1234
뀒	1235
뀓	1236
뀕	1237
뀖	1238
뀗	1239
뀘	1240
뀙	1241
뀚	1242
뀛	1243
뀜	1244
뀝	1245
뀞	1246
뀟	1247
뀠	1248
뀡	1249
뀢	1250
뀣	1251
뀤	1252
뀥	1253
뀦	1254
뀧	1255
뀨	1256
뀩	1257
뀪	1258
뀫	1259
뀬	1260
뀭	1261
뀮	1262
뀯	1263
뀰	1264
뀱	1265
뀲	1266
뀳	1267
뀴	1268
뀵	1269
뀶	1270
뀷	1271
뀸	1272
뀹	1273
뀺	1274
뀻	1275
뀼	1276
뀽	1277
뀾	1278
뀿	1279
끀	1280
끁	1281
끂	1282
끃	1283
끄	1284
끅	1285
끆	1286
끇	1287
끈	1288
끉	1289
끊	1290
끋	1291
끌	1292
끍	1293
끎	1294
끏	1295
끐	1296
끑	1297
끒	1298
끓	1299
끔	1300
끕	1301
끖	1302
끗	1303
끘	1304
끙	1305
끚	1306
끛	1307
끜	1308
끝	1309
끞	1310
끟	1311
끠	1312
끡	1313
끢	1314
끣	1315
끤	1316
끥	1317
끦	1318
끧	1319
끨	1320
끩	1321
끪	1322
끫	1323
끬	1324
끭	1325
끮	1326
끯	1327
끰	1328
끱	1329
끲	1330
끳	1331
끴	1332
끵	1333
끶	1334
끷	1335
끸	1336
끹	1337
끺	1338
끻	1339
끼	1340
끽	1341
끾	1342
끿	1343
낀	1344
낁	1345
낂	1346
낃	1347
낄	1348
낅	1349
낆	1350
낇	1351
낈	1352
낉	1353
낊	1354
낋	1355
낌	1356
낍	1357
낎	1358
낏	1359
낐	1360
낑	1361
낒	1362
낓	1363
낔	1364
낕	1365
낖	1366
낗	1367
나	1368
낙	1369
낚	1370
낛	1371
난	1372
낝	1373
낞	1374
낟	1375
날	1376
낡	1377
낢	1378
낣	1379
낤	1380
낥	1381
낦	1382
낧	1383
남	1384
납	1385
낪	1386
낫	1387
났	1388
낭	1389
낮	1390
낯	1391
낰	1392
낱	1393
낲	1394
낳	1395
내	1396
낵	1397
낶	1398
낷	1399
낸	1400
낹	1401
낺	1402
낻	1403
낼	1404
낽	1405
낾	1406
낿	1407
냀	1408
냁	1409
냂	1410
냃	1411
냄	1412
냅	1413
냆	1414
냇	1415
냈	1416
냉	1417
냊	1418
냋	1419
냌	1420
냍	1421
냎	1422
냏	1423
냐	1424
냑	1425
냒	1426
냓	1427
냔	1428
냕	1429
냖	1430
냗	1431
냘	1432
냙	1433
냚	1434
냛	1435
냜	1436
냝	1437
냞	1438
냟	1439
냠	1440
냡	1441
냢	1442
냣	1443
냤	1444
냥	1445
냦	1446
냧	1447
냨	1448
냩	1449
냪	1450
냫	1451
냬	1452
냭	1453
냮	1454
냯	1455
냱	1456
냲	1457
냳	1458
냴	1459
냵	1460
냶	1461
냷	1462
냸	1463
냹	1464
냺	1465
냻	1466
냼	1467
냽	1468
냾	1469
냿	1470
넀	1471
넁	1472
넂	1473
넃	1474
넄	1475
넅	1476
넆	1477
넇	1478
너	1479
넉	1480
넊	1481
넋	1482
넌	1483
넍	1484
넎	1485
넏	1486
널	1487
넑	1488
넒	1489
넓	1490
넔	1491
넕	1492
넖	1493
넗	1494
넘	1495
넙	1496
넚	1497
넛	1498
넜	1499
넝	1500
넞	1501
넟	1502
넠	1503
넡	1504
넢	1505
넣	1506
네	1507
넥	1508
넦	1509
넧	1510
넨	1511
넩	1512
넪	1513
넫	1514
넬	1515
넭	1516
넮	1517
넯	1518
넰	1519
넱	1520
넲	1521
넳	1522
넴	1523
넵	1524
넶	1525
넷	1526
넸	1527
넹	1528
넺	1529
넻	1530
넼	1531
넽	1532
넾	1533
넿	1534
녀	1535
녁	1536
녂	1537
녃	1538
년	1539
녅	1540
녆	1541
녇	1542
녈	1543
녉	1544
녊	1545
녋	1546
녌	1547
녍	1548
녎	1549
녏	1550
념	1551
녑	1552
녒	1553
녓	1554
녔	1555
녕	1556
녖	1557
녗	1558
녘	1559
녙	1560
녚	1561
녛	1562
녜	1563
녝	1564
녞	1565
녟	1566
녠	1567
녡	1568
녢	1569
녣	1570
녤	1571
녥	1572
녦	1573
녧	1574
녨	1575
녩	1576
녪	1577
녫	1578
녬	1579
녭	1580
녮	1581
녯	1582
녰	1583
녱	1584
녲	1585
녳	1586
녴	1587
녵	1588
녶	1589
녷	1590
노	1591
녹	1592
녺	1593
녻	1594
논	1595
녽	1596
녾	1597
녿	1598
놀	1599
놁	1600
놂	1601
놃	1602
놄	1603
놅	1604
놆	1605
놇	1606
놈	1607
놉	1608
놊	1609
놋	1610
놌	1611
농	1612
놎	1613
놏	1614
놐	1615
놑	1616
높	1617
놓	1618
놔	1619
놕	1620
놖	1621
놗	1622
놘	1623
놙	1624
놚	1625
놛	1626
놜	1627
놝	1628
놞	1629
놟	1630
놠	1631
놡	1632
놢	1633
놣	1634
놤	1635
놥	1636
놦	1637
놧	1638
놨	1639
놩	1640
놪	1641
놫	1642
놬	1643
놭	1644
놮	1645
놯	1646
놰	1647
놱	1648
놲	1649
놳	1650
놴	1651
놵	1652
놶	1653
놷	1654
놸	1655
놹	1656
놺	1657
놻	1658
놼	1659
놽	1660
놾	1661
놿	1662
뇀	1663
뇁	1664
뇂	1665
뇃	1666
뇄	1667
뇅	1668
뇆	1669
뇇	1670
뇈	1671
뇉	1672
뇊	1673
뇋	1674
뇌	1675
뇍	1676
뇎	1677
뇏	1678
뇐	1679
뇑	1680
뇒	1681
뇓	1682
뇔	1683
뇕	1684
뇖	1685
뇗	1686
뇘	1687
뇙	1688
뇚	1689
뇛	1690
뇜	1691
뇝	1692
뇞	1693
뇟	1694
뇠	1695
뇡	1696
뇢	1697
뇣	1698
뇤	1699
뇥	1700
뇦	1701
뇧	1702
뇨	1703
뇩	1704
뇪	1705
뇫	1706
뇬	1707
뇭	1708
뇮	1709
뇯	1710
뇰	1711
뇱	1712
뇲	1713
뇳	1714
뇴	1715
뇵	1716
뇶	1717
뇷	1718
뇸	1719
뇹	1720
뇺	1721
뇻	1722
뇼	1723
뇽	1724
뇾	1725
뇿	1726
눀	1727
눁	1728
눂	1729
눃	1730
누	1731
눅	1732
눆	1733
눇	1734
눈	1735
눉	1736
눊	1737
눋	1738
눌	1739
눍	1740
눎	1741
눏	1742
눐	1743
눑	1744
눒	1745
눓	1746
눔	1747
눕	1748
눖	1749
눗	1750
눘	1751
눙	1752
눚	1753
눛	1754
눜	1755
눝	1756
눞	1757
눟	1758
눡	1759
눢	1760
눣	1761
눤	1762
눥	1763
눦	1764
눧	1765
눨	1766
눩	1767
눪	1768
눫	1769
눬	1770
눭	1771
눮	1772
눯	1773
눰	1774
눱	1775
눲	1776
눳	1777
눵	1778
눶	1779
눷	1780
눸	1781
눹	1782
눺	1783
눻	1784
눼	1785
눽	1786
눾	1787
눿	1788
뉀	1789
뉁	1790
뉂	1791
뉃	1792
뉄	1793
뉅	1794
뉆	1795
뉇	1796
뉈	1797
뉉	1798
뉊	1799
뉋	1800
뉌	1801
뉍	1802
뉎	1803
뉏	1804
뉐	1805
뉑	1806
뉒	1807
뉓	1808
뉔	1809
뉕	1810
뉖	1811
뉗	1812
뉘	1813
뉙	1814
뉚	1815
뉛	1816
뉜	1817
뉝	1818
뉞	1819
뉟	1820
뉡	1821
뉢	1822
뉣	1823
뉤	1824
뉥	1825
뉦	1826
뉧	1827
뉨	1828
뉩	1829
뉪	1830
뉫	1831
뉬	1832
뉭	1833
뉮	1834
뉯	1835
뉰	1836
뉱	1837
뉲	1838
뉳	1839
뉴	1840
뉵	1841
뉶	1842
뉷	1843
뉸	1844
뉹	1845
뉺	1846
뉻	1847
뉼	1848
뉽	1849
뉾	1850
뉿	1851
늀	1852
늁	1853
늂	1854
늃	1855
늄	1856
늅	1857
늆	1858
늇	1859
늈	1860
늉	1861
늊	1862
늋	1863
늌	1864
늍	1865
늎	1866
늏	1867
느	1868
늑	1869
늒	1870
늓	1871
는	1872
늕	1873
늖	1874
늗	1875
늘	1876
늙	1877
늚	1878
늛	1879
늜	1880
늝	1881
늞	1882
늟	1883
늠	1884
늡	1885
늢	1886
늣	1887
늤	1888
능	1889
늦	1890
늧	1891
늨	1892
늩	1893
늪	1894
늫	1895
늬	1896
늭	1897
늮	1898
늯	1899
늰	1900
늱	1901
늲	1902
늳	1903
늴	1904
늵	1905
늶	1906
늷	1907
늸	1908
늹	1909
늺	1910
늻	1911
늼	1912
늽	1913
늾	1914
늿	1915
닀	1916
닁	1917
닂	1918
닃	1919
닄	1920
닅	1921
닆	1922
닇	1923
니	1924
닉	1925
닊	1926
닋	1927
닌	1928
닍	1929
닎	1930
닏	1931
닐	1932
닑	1933
닒	1934
닓	1935
닔	1936
닕	1937
닖	1938
닗	1939
님	1940
닙	1941
닚	1942
닛	1943
닜	1944
닝	1945
닞	1946
닟	1947
닠	1948
닡	1949
닢	1950
닣	1951
다	1952
닥	1953
닦	1954
닧	1955
단	1956
닩	1957
닪	1958
닫	1959
달	1960
닭	1961
닮	1962
닯	1963
닰	1964
닱	1965
닲	1966
닳	1967
담	1968
답	1969
닶	1970
닷	1971
닸	1972
당	1973
닺	1974
닻	1975
닼	1976
닽	1977
닾	1978
닿	1979
대	1980
댁	1981
댂	1982
댃	1983
댄	1984
댅	1985
댆	1986
댇	1987
댈	1988
댉	1989
댊	1990
댋	1991
댌	1992
댍	1993
댎	1994
댏	1995
댐	1996
댑	1997
댒	1998
댓	1999
댔	2000
댕	2001
댖	2002
댗	2003
댘	2004
댙	2005
댚	2006
댛	2007
댜	2008
댝	2009
댞	2010
댟	2011
댠	2012
댡	2013
댢	2014
댣	2015
댤	2016
댥	2017
댦	2018
댧	2019
댨	2020
댩	2021
댪	2022
댫	2023
댬	2024
댭	2025
댮	2026
댯	2027
댰	2028
댱	2029
댲	2030
댳	2031
댴	2032
댵	2033
댶	2034
댷	2035
댸	2036
댹	2037
댺	2038
댻	2039
댼	2040
댽	2041
댾	2042
댿	2043
덀	2044
덁	2045
덂	2046
덃	2047
덄	2048
덅	2049
덆	2050
덇	2051
덈	2052
덉	2053
덊	2054
덋	2055
덌	2056
덍	2057
덎	2058
덏	2059
덐	2060
덑	2061
덒	2062
덓	2063
더	2064
덕	2065
덖	2066
덗	2067
던	2068
덙	2069
덚	2070
덛	2071
덜	2072
덝	2073
덞	2074
덟	2075
덠	2076
덡	2077
덢	2078
덣	2079
덤	2080
덥	2081
덦	2082
덧	2083
덨	2084
덩	2085
덪	2086
덫	2087
덬	2088
덭	2089
덮	2090
덯	2091
데	2092
덱	2093
덲	2094
덳	2095
덴	2096
덵	2097
덶	2098
덷	2099
델	2100
덹	2101
덺	2102
덻	2103
덼	2104
덽	2105
덾	2106
덿	2107
뎀	2108
뎁	2109
뎂	2110
뎃	2111
뎄	2112
뎅	2113
뎆	2114
뎇	2115
뎈	2116
뎉	2117
뎊	2118
뎋	2119
뎌	2120
뎍	2121
뎎	2122
뎏	2123
뎐	2124
뎑	2125
뎒	2126
뎓	2127
뎔	2128
뎕	2129
뎖	2130
뎗	2131
뎘	2132
뎙	2133
뎚	2134
뎛	2135
뎜	2136
뎝	2137
뎞	2138
뎟	2139
뎠	2140
뎡	2141
뎢	2142
뎣	2143
뎤	2144
뎥	2145
뎦	2146
뎧	2147
뎨	2148
뎩	2149
뎪	2150
뎫	2151
뎬	2152
뎭	2153
뎮	2154
뎯	2155
뎰	2156
뎱	2157
뎲	2158
뎳	2159
뎴	2160
뎵	2161
뎶	2162
뎷	2163
뎸	2164
뎹	2165
뎺	2166
뎻	2167
뎼	2168
뎽	2169
뎾	2170
뎿	2171
돀	2172
돁	2173
돂	2174
돃	2175
도	2176
독	2177
돆	2178
돇	2179
돈	2180
돉	2181
돊	2182
돋	2183
돌	2184
돍	2185
돎	2186
돏	2187
돐	2188
돑	2189
돒	2190
돓	2191
돔	2192
돕	2193
돖	2194
돗	2195
돘	2196
동	2197
돚	2198
돛	2199
돜	2200
돝	2201
돞	2202
돟	2203
돠	2204
돡	2205
돢	2206
돣	2207
돤	2208
돥	2209
돦	2210
돧	2211
돨	2212
돩	2213
돪	2214
돫	2215
돬	2216
돭	2217
돮	2218
돯	2219
돰	2220
돱	2221
돲	2222
돳	2223
돴	2224
돵	2225
돶	2226
돷	2227
돸	2228
돹	2229
돺	2230
돻	2231
돼	2232
돽	2233
돾	2234
돿	2235
됀	2236
됁	2237
됂	2238
됃	2239
됄	2240
됅	2241
됆	2242
됇	2243
됈	2244
됉	2245
됊	2246
됋	2247
됌	2248
됍	2249
됎	2250
됏	2251
됐	2252
됑	2253
됒	2254
됓	2255
됔	2256
됕	2257
됖	2258
됗	2259
되	2260
됙	2261
됚	2262
됛	2263
된	2264
됝	2265
됞	2266
됟	2267
될	2268
됡	2269
됢	2270
됣	2271
됤	2272
됥	2273
됦	2274
됧	2275
됨	2276
됩	2277
됪	2278
됫	2279
됬	2280
됭	2281
됮	2282
됯	2283
됰	2284
됱	2285
됲	2286
됳	2287
됴	2288
됵	2289
됶	2290
됷	2291
됸	2292
됹	2293
됺	2294
됻	2295
됼	2296
됽	2297
됾	2298
됿	2299
둀	2300
둁	2301
둂	2302
둃	2303
둄	2304
둅	2305
둆	2306
둇	2307
둈	2308
둉	2309
둊	2310
둋	2311
둌	2312
둍	2313
둎	2314
둏	2315
두	2316
둑	2317
둒	2318
둓	2319
둔	2320
둕	2321
둖	2322
둗	2323
둘	2324
둙	2325
둚	2326
둛	2327
둜	2328
둝	2329
둞	2330
둟	2331
둠	2332
둡	2333
둢	2334
둣	2335
둤	2336
둥	2337
둦	2338
둧	2339
둨	2340
둩	2341
둪	2342
둫	2343
둬	2344
둭	2345
둮	2346
둯	2347
둰	2348
둱	2349
둲	2350
둳	2351
둴	2352
둵	2353
둶	2354
둷	2355
둸	2356
둹	2357
둺	2358
둻	2359
둼	2360
둽	2361
둾	2362
둿	2363
뒁	2364
뒂	2365
뒃	2366
뒄	2367
뒅	2368
뒆	2369
뒇	2370
뒈	2371
뒉	2372
뒊	2373
뒋	2374
뒌	2375
뒍	2376
뒎	2377
뒏	2378
뒐	2379
뒑	2380
뒒	2381
뒓	2382
뒔	2383
뒕	2384
뒖	2385
뒗	2386
뒘	2387
뒙	2388
뒚	2389
뒛	2390
뒜	2391
뒝	2392
뒞	2393
뒟	2394
뒠	2395
뒡	2396
뒢	2397
뒣	2398
뒤	2399
뒥	2400
뒦	2401
뒧	2402
뒨	2403
뒩	2404
뒪	2405
뒫	2406
뒬	2407
뒭	2408
뒮	2409
뒯	2410
뒰	2411
뒱	2412
뒲	2413
뒳	2414
뒴	2415
뒵	2416
뒶	2417
뒷	2418
뒸	2419
뒹	2420
뒺	2421
뒻	2422
뒼	2423
뒽	2424
뒾	2425
뒿	2426
듀	2427
듁	2428
듂	2429
듃	2430
듄	2431
듅	2432
듆	2433
듇	2434
듈	2435
듉	2436
듊	2437
듋	2438
듌	2439
듍	2440
듎	2441
듏	2442
듐	2443
듑	2444
듒	2445
듓	2446
듔	2447
듕	2448
듖	2449
듗	2450
듘	2451
듙	2452
듚	2453
듛	2454
드	2455
득	2456
듞	2457
듟	2458
든	2459
듡	2460
듢	2461
듣	2462
들	2463
듥	2464
듦	2465
듧	2466
듨	2467
듩	2468
듪	2469
듫	2470
듬	2471
듭	2472
듮	2473
듯	2474
듰	2475
등	2476
듲	2477
듳	2478
듴	2479
듵	2480
듶	2481
듷	2482
듸	2483
듹	2484
듺	2485
듻	2486
듼	2487
듽	2488
듾	2489
듿	2490
딀	2491
딁	2492
딂	2493
딃	2494
딄	2495
딅	2496
딆	2497
딇	2498
딈	2499
딉	2500
딊	2501
딋	2502
딌	2503
딍	2504
딎	2505
딏	2506
딐	2507
딑	2508
딒	2509
딓	2510
디	2511
딕	2512
딖	2513
딗	2514
딘	2515
딙	2516
딚	2517
딛	2518
딜	2519
딝	2520
딞	2521
딟	2522
딠	2523
딡	2524
딢	2525
딣	2526
딤	2527
딥	2528
딦	2529
딧	2530
딨	2531
딩	2532
딪	2533
딫	2534
딬	2535
딭	2536
딮	2537
딯	2538
따	2539
딱	2540
딲	2541
딳	2542
딴	2543
딵	2544
딶	2545
딷	2546
딸	2547
딹	2548
딺	2549
딻	2550
딼	2551
딽	2552
딾	2553
딿	2554
땀	2555
땁	2556
땂	2557
땃	2558
땅	2559
땆	2560
땇	2561
땈	2562
땉	2563
땊	2564
땋	2565
때	2566
땍	2567
땎	2568
땏	2569
땐	2570
땑	2571
땒	2572
땓	2573
땔	2574
땕	2575
땖	2576
땗	2577
땘	2578
땙	2579
땚	2580
땛	2581
땜	2582
땝	2583
땞	2584
땟	2585
땠	2586
땡	2587
땢	2588
땣	2589
땤	2590
땥	2591
땦	2592
땧	2593
땨	2594
땩	2595
땪	2596
땫	2597
땬	2598
땭	2599
땮	2600
땯	2601
땰	2602
땱	2603
땲	2604
땳	2605
땴	2606
땵	2607
땶	2608
땷	2609
땸	2610
땹	2611
땺	2612
땻	2613
땼	2614
땽	2615
땾	2616
땿	2617
떀	2618
떁	2619
떂	2620
떃	2621
떄	2622
떅	2623
떆	2624
떇	2625
떈	2626
떉	2627
떊	2628
떋	2629
떌	2630
떍	2631
떎	2632
떏	2633
떐	2634
떑	2635
떒	2636
떓	2637
떔	2638
떕	2639
떖	2640
떗	2641
떘	2642
떙	2643
떚	2644
떛	2645
떜	2646
떝	2647
떞	2648
떟	2649
떠	2650
떡	2651
떢	2652
떣	2653
떤	2654
떥	2655
떦	2656
떧	2657
떨	2658
떩	2659
떪	2660
떫	2661
떬	2662
떭	2663
떮	2664
떯	2665
떰	2666
떱	2667
떲	2668
떳	2669
떵	2670
떶	2671
떷	2672
떸	2673
떹	2674
떺	2675
떻	2676
떼	2677
떽	2678
떾	2679
떿	2680
뗀	2681
뗁	2682
뗂	2683
뗃	2684
뗄	2685
뗅	2686
뗆	2687
뗇	2688
뗈	2689
뗉	2690
뗊	2691
뗋	2692
뗌	2693
뗍	2694
뗎	2695
뗏	2696
뗑	2697
뗒	2698
뗓	2699
뗔	2700
뗕	2701
뗖	2702
뗗	2703
뗘	2704
뗙	2705
뗚	2706
뗛	2707
뗜	2708
뗝	2709
뗞	2710
뗟	2711
뗠	2712
뗡	2713
뗢	2714
뗣	2715
뗤	2716
뗥	2717
뗦	2718
뗧	2719
뗨	2720
뗩	2721
뗪	2722
뗫	2723
뗭	2724
뗮	2725
뗯	2726
뗰	2727
뗱	2728
뗲	2729
뗳	2730
뗴	2731
뗵	2732
뗶	2733
뗷	2734
뗸	2735
뗹	2736
뗺	2737
뗻	2738
뗼	2739
뗽	2740
뗾	2741
뗿	2742
똀	2743
똁	2744
똂	2745
똃	2746
똄	2747
똅	2748
똆	2749
똇	2750
똈	2751
똉	2752
똊	2753
똋	2754
똌	2755
똍	2756
똎	2757
똏	2758
또	2759
똑	2760
똒	2761
똓	2762
똔	2763
똕	2764
똖	2765
똗	2766
똘	2767
똙	2768
똚	2769
똛	2770
똜	2771
똝	2772
똞	2773
똟	2774
똠	2775
똡	2776
똢	2777
똣	2778
똤	2779
똥	2780
똦	2781
똧	2782
똨	2783
똩	2784
똪	2785
똫	2786
똬	2787
똭	2788
똮	2789
똯	2790
똰	2791
똱	2792
똲	2793
똳	2794
똴	2795
똵	2796
똶	2797
똷	2798
똸	2799
똹	2800
똺	2801
똻	2802
똼	2803
똽	2804
똾	2805
똿	2806
뙀	2807
뙁	2808
뙂	2809
뙃	2810
뙄	2811
뙅	2812
뙆	2813
뙇	2814
뙈	2815
뙉	2816
뙊	2817
뙋	2818
뙌	2819
뙍	2820
뙎	2821
뙏	2822
뙐	2823
뙑	2824
뙒	2825
뙓	2826
뙔	2827
뙕	2828
뙖	2829
뙗	2830
뙘	2831
뙙	2832
뙚	2833
뙛	2834
뙜	2835
뙝	2836
뙞	2837
뙟	2838
뙠	2839
뙡	2840
뙢	2841
뙣	2842
뙤	2843
뙥	2844
뙦	2845
뙧	2846
뙨	2847
뙩	2848
뙪	2849
뙫	2850
뙬	2851
뙭	2852
뙮	2853
뙯	2854
뙰	2855
뙱	2856
뙲	2857
뙳	2858
뙴	2859
뙵	2860
뙶	2861
뙷	2862
뙸	2863
뙹	2864
뙺	2865
뙻	2866
뙼	2867
뙽	2868
뙾	2869
뙿	2870
뚀	2871
뚁	2872
뚂	2873
뚃	2874
뚄	2875
뚅	2876
뚆	2877
뚇	2878
뚈	2879
뚉	2880
뚊	2881
뚋	2882
뚌	2883
뚍	2884
뚎	2885
뚏	2886
뚐	2887
뚑	2888
뚒	2889
뚓	2890
뚔	2891
뚕	2892
뚖	2893
뚗	2894
뚘	2895
뚙	2896
뚚	2897
뚛	2898
뚜	2899
뚝	2900
뚞	2901
뚟	2902
뚠	2903
뚡	2904
뚢	2905
뚣	2906
뚤	2907
뚥	2908
뚦	2909
뚧	2910
뚨	2911
뚩	2912
뚪	2913
뚫	2914
뚬	2915
뚭	2916
뚮	2917
뚯	2918
뚰	2919
뚱	2920
뚲	2921
뚳	2922
뚴	2923
뚵	2924
뚶	2925
뚷	2926
뚸	2927
뚹	2928
뚺	2929
뚻	2930
뚼	2931
뚽	2932
뚾	2933
뚿	2934
뛀	2935
뛁	2936
뛂	2937
뛃	2938
뛄	2939
뛅	2940
뛆	2941
뛇	2942
뛈	2943
뛉	2944
뛊	2945
뛋	2946
뛌	2947
뛍	2948
뛎	2949
뛏	2950
뛐	2951
뛑	2952
뛒	2953
뛓	2954
뛔	2955
뛕	2956
뛖	2957
뛗	2958
뛘	2959
뛙	2960
뛚	2961
뛛	2962
뛜	2963
뛝	2964
뛞	2965
뛟	2966
뛠	2967
뛡	2968
뛢	2969
뛣	2970
뛤	2971
뛥	2972
뛦	2973
뛧	2974
뛨	2975
뛩	2976
뛪	2977
뛫	2978
뛬	2979
뛭	2980
뛮	2981
뛯	2982
뛰	2983
뛱	2984
뛲	2985
뛳	2986
뛵	2987
뛶	2988
뛷	2989
뛸	2990
뛹	2991
뛺	2992
뛻	2993
뛼	2994
뛽	2995
뛾	2996
뛿	2997
뜀	2998
뜁	2999
뜂	3000
뜃	3001
뜄	3002
뜅	3003
뜆	3004
뜇	3005
뜈	3006
뜉	3007
뜊	3008
뜋	3009
뜌	3010
뜍	3011
뜎	3012
뜏	3013
뜐	3014
뜑	3015
뜒	3016
뜓	3017
뜔	3018
뜕	3019
뜖	3020
뜗	3021
뜘	3022
뜙	3023
뜚	3024
뜛	3025
뜜	3026
뜝	3027
뜞	3028
뜟	3029
뜠	3030
뜡	3031
뜢	3032
뜣	3033
뜤	3034
뜥	3035
뜦	3036
뜧	3037
뜨	3038
뜩	3039
뜪	3040
뜫	3041
뜬	3042
뜭	3043
뜮	3044
뜯	3045
뜰	3046
뜱	3047
뜲	3048
뜳	3049
뜴	3050
뜵	3051
뜶	3052
뜷	3053
뜸	3054
뜹	3055
뜺	3056
뜻	3057
뜼	3058
뜽	3059
뜾	3060
뜿	3061
띀	3062
띁	3063
띂	3064
띃	3065
띄	3066
띅	3067
띆	3068
띇	3069
띉	3070
띊	3071
띋	3072
띍	3073
띎	3074
띏	3075
띐	3076
띑	3077
띒	3078
띓	3079
띔	3080
띕	3081
띖	3082
띗	3083
띘	3084
띙	3085
띚	3086
띛	3087
띜	3088
띝	3089
띞	3090
띟	3091
띠	3092
띡	3093
띢	3094
띣	3095
띤	3096
띥	3097
띦	3098
띧	3099
띨	3100
띩	3101
띪	3102
띫	3103
띬	3104
띭	3105
띮	3106
띯	3107
띰	3108
띱	3109
띲	3110
띳	3111
띴	3112
띵	3113
띶	3114
띷	3115
띸	3116
띹	3117
띺	3118
띻	3119
라	3120
락	3121
띾	3122
띿	3123
란	3124
랁	3125
랂	3126
랃	3127
랄	3128
랅	3129
랆	3130
랇	3131
랈	3132
랉	3133
랊	3134
랋	3135
람	3136
랍	3137
랎	3138
랏	3139
랐	3140
랑	3141
랒	3142
랓	3143
랔	3144
랕	3145
랖	3146
랗	3147
래	3148
랙	3149
랚	3150
랛	3151
랜	3152
랝	3153
랞	3154
랟	3155
랠	3156
랡	3157
랢	3158
랣	3159
랤	3160
랥	3161
랦	3162
랧	3163
램	3164
랩	3165
랪	3166
랫	3167
랬	3168
랭	3169
랮	3170
랯	3171
랰	3172
랱	3173
랲	3174
랳	3175
랴	3176
략	3177
랶	3178
랷	3179
랸	3180
랹	3181
랺	3182
랻	3183
랼	3184
랽	3185
랾	3186
랿	3187
럀	3188
럁	3189
럂	3190
럃	3191
럄	3192
럅	3193
럆	3194
럇	3195
럈	3196
량	3197
럊	3198
럋	3199
럌	3200
럍	3201
럎	3202
럏	3203
럐	3204
럑	3205
럒	3206
럓	3207
럔	3208
럕	3209
럖	3210
럗	3211
럘	3212
럙	3213
럚	3214
럛	3215
럜	3216
럝	3217
럞	3218
럟	3219
럠	3220
럡	3221
럢	3222
럣	3223
럤	3224
럥	3225
럦	3226
럧	3227
럨	3228
럩	3229
럪	3230
럫	3231
러	3232
럭	3233
럮	3234
럯	3235
런	3236
럱	3237
럲	3238
럳	3239
럴	3240
럵	3241
럶	3242
럷	3243
럸	3244
럹	3245
럺	3246
럻	3247
럼	3248
럽	3249
럾	3250
럿	3251
렀	3252
렁	3253
렂	3254
렃	3255
렄	3256
렅	3257
렆	3258
렇	3259
레	3260
렉	3261
렊	3262
렋	3263
렌	3264
렍	3265
렎	3266
렏	3267
렐	3268
렑	3269
렒	3270
렓	3271
렔	3272
렕	3273
렖	3274
렗	3275
렘	3276
렙	3277
렚	3278
렛	3279
렜	3280
렝	3281
렞	3282
렟	3283
렠	3284
렡	3285
렢	3286
렣	3287
려	3288
력	3289
렦	3290
렧	3291
련	3292
렩	3293
렪	3294
렫	3295
렬	3296
렭	3297
렮	3298
렯	3299
렰	3300
렱	3301
렲	3302
렳	3303
렴	3304
렵	3305
렶	3306
렷	3307
렸	3308
령	3309
렺	3310
렻	3311
렼	3312
렽	3313
렾	3314
렿	3315
례	3316
롁	3317
롂	3318
롃	3319
롄	3320
롅	3321
롆	3322
롇	3323
롈	3324
롉	3325
롊	3326
롋	3327
롌	3328
롍	3329
롎	3330
롏	3331
롐	3332
롑	3333
롒	3334
롓	3335
롔	3336
롕	3337
롖	3338
롗	3339
롘	3340
롙	3341
롚	3342
롛	3343
로	3344
록	3345
롞	3346
롟	3347
론	3348
롡	3349
롢	3350
롣	3351
롤	3352
롥	3353
롦	3354
롧	3355
롨	3356
롩	3357
롪	3358
롫	3359
롬	3360
롭	3361
롮	3362
롯	3363
롰	3364
롱	3365
롲	3366
롳	3367
롴	3368
롵	3369
롶	3370
롷	3371
롸	3372
롹	3373
롺	3374
롻	3375
롼	3376
롽	3377
롾	3378
롿	3379
뢀	3380
뢁	3381
뢂	3382
뢃	3383
뢄	3384
뢅	3385
뢆	3386
뢇	3387
뢈	3388
뢉	3389
뢊	3390
뢋	3391
뢌	3392
뢍	3393
뢎	3394
뢏	3395
뢐	3396
뢑	3397
뢒	3398
뢓	3399
뢔	3400
뢕	3401
뢖	3402
뢗	3403
뢘	3404
뢙	3405
뢚	3406
뢛	3407
뢜	3408
뢝	3409
뢞	3410
뢟	3411
뢠	3412
뢡	3413
뢢	3414
뢣	3415
뢤	3416
뢥	3417
뢦	3418
뢧	3419
뢨	3420
뢩	3421
뢪	3422
뢫	3423
뢬	3424
뢭	3425
뢮	3426
뢯	3427
뢰	3428
뢱	3429
뢲	3430
뢳	3431
뢴	3432
뢵	3433
뢶	3434
뢷	3435
뢸	3436
뢹	3437
뢺	3438
뢻	3439
뢼	3440
뢽	3441
뢾	3442
뢿	3443
룀	3444
룁	3445
룂	3446
룃	3447
룄	3448
룅	3449
룆	3450
룇	3451
룈	3452
룉	3453
룊	3454
룋	3455
료	3456
룍	3457
룎	3458
룏	3459
룐	3460
룑	3461
룒	3462
룓	3463
룔	3464
룕	3465
룖	3466
룗	3467
룘	3468
룙	3469
룚	3470
룛	3471
룜	3472
룝	3473
룞	3474
룟	3475
룠	3476
룡	3477
룢	3478
룣	3479
룤	3480
룥	3481
룦	3482
룧	3483
루	3484
룩	3485
룪	3486
룫	3487
룬	3488
룭	3489
룮	3490
룯	3491
룰	3492
룱	3493
룲	3494
룳	3495
룴	3496
룵	3497
룶	3498
룷	3499
룸	3500
룹	3501
룺	3502
룻	3503
룼	3504
룽	3505
룾	3506
룿	3507
뤀	3508
뤁	3509
뤂	3510
뤃	3511
뤄	3512
뤅	3513
뤆	3514
뤇	3515
뤈	3516
뤉	3517
뤊	3518
뤋	3519
뤌	3520
뤍	3521
뤎	3522
뤏	3523
뤐	3524
뤑	3525
뤒	3526
뤓	3527
뤔	3528
뤕	3529
뤖	3530
뤗	3531
뤘	3532
뤙	3533
뤚	3534
뤛	3535
뤜	3536
뤝	3537
뤞	3538
뤟	3539
뤠	3540
뤡	3541
뤢	3542
뤣	3543
뤤	3544
뤥	3545
뤦	3546
뤧	3547
뤨	3548
뤩	3549
뤪	3550
뤫	3551
뤬	3552
뤭	3553
뤮	3554
뤯	3555
뤰	3556
뤱	3557
뤲	3558
뤳	3559
뤴	3560
뤵	3561
뤶	3562
뤷	3563
뤸	3564
뤹	3565
뤺	3566
뤻	3567
뤼	3568
뤽	3569
뤾	3570
뤿	3571
륀	3572
륁	3573
륂	3574
륃	3575
륄	3576
륅	3577
륆	3578
륇	3579
륈	3580
륉	3581
륊	3582
륋	3583
륌	3584
륍	3585
륎	3586
륏	3587
륐	3588
륑	3589
륒	3590
륓	3591
륔	3592
륕	3593
륖	3594
륗	3595
류	3596
륙	3597
륚	3598
륛	3599
륜	3600
륝	3601
륞	3602
륟	3603
률	3604
륡	3605
륢	3606
륣	3607
륤	3608
륥	3609
륦	3610
륧	3611
륨	3612
륩	3613
륪	3614
륫	3615
륬	3616
륭	3617
륮	3618
륯	3619
륰	3620
륱	3621
륲	3622
륳	3623
르	3624
륵	3625
륶	3626
륷	3627
른	3628
륹	3629
륺	3630
륻	3631
를	3632
륽	3633
륾	3634
륿	3635
릀	3636
릁	3637
릂	3638
릃	3639
름	3640
릅	3641
릆	3642
릇	3643
릈	3644
릉	3645
릊	3646
릋	3647
릌	3648
릍	3649
릎	3650
릏	3651
릐	3652
릑	3653
릒	3654
릓	3655
릔	3656
릕	3657
릖	3658
릗	3659
릘	3660
릙	3661
릚	3662
릛	3663
릜	3664
릝	3665
릞	3666
릟	3667
릠	3668
릡	3669
릢	3670
릣	3671
릤	3672
릥	3673
릦	3674
릧	3675
릨	3676
릩	3677
릪	3678
릫	3679
리	3680
릭	3681
릮	3682
릯	3683
린	3684
릱	3685
릲	3686
릳	3687
릴	3688
릵	3689
릶	3690
릷	3691
릸	3692
릹	3693
릺	3694
릻	3695
림	3696
립	3697
릾	3698
릿	3699
맀	3700
링	3701
맂	3702
맃	3703
맄	3704
맅	3705
맆	3706
맇	3707
마	3708
막	3709
맊	3710
맋	3711
만	3712
맍	3713
많	3714
맏	3715
말	3716
맑	3717
맒	3718
맓	3719
맔	3720
맕	3721
맖	3722
맗	3723
맘	3724
맙	3725
맚	3726
맛	3727
맜	3728
망	3729
맞	3730
맟	3731
맠	3732
맡	3733
맢	3734
맣	3735
매	3736
맥	3737
맦	3738
맧	3739
맨	3740
맩	3741
맪	3742
맫	3743
맬	3744
맭	3745
맮	3746
맯	3747
맰	3748
맱	3749
맲	3750
맳	3751
맴	3752
맵	3753
맶	3754
맷	3755
맹	3756
맺	3757
맻	3758
맼	3759
맽	3760
맾	3761
맿	3762
먀	3763
먁	3764
먂	3765
먃	3766
먄	3767
먅	3768
먆	3769
먇	3770
먈	3771
먉	3772
먊	3773
먋	3774
먌	3775
먍	3776
먎	3777
먏	3778
먐	3779
먑	3780
먒	3781
먓	3782
먔	3783
먕	3784
먖	3785
먗	3786
먘	3787
먙	3788
먚	3789
먛	3790
먜	3791
먝	3792
먞	3793
먟	3794
먠	3795
먡	3796
먢	3797
먣	3798
먤	3799
먥	3800
먦	3801
먧	3802
먨	3803
먩	3804
먪	3805
먫	3806
먬	3807
먭	3808
먮	3809
먯	3810
먰	3811
먱	3812
먲	3813
먳	3814
먴	3815
먵	3816
먶	3817
먷	3818
머	3819
먹	3820
먺	3821
먻	3822
먼	3823
먽	3824
먾	3825
먿	3826
멀	3827
멁	3828
멂	3829
멃	3830
멄	3831
멅	3832
멆	3833
멇	3834
멈	3835
멉	3836
멊	3837
멋	3838
멌	3839
멍	3840
멎	3841
멏	3842
멐	3843
멑	3844
멒	3845
멓	3846
메	3847
멕	3848
멖	3849
멗	3850
멘	3851
멙	3852
멚	3853
멛	3854
멜	3855
멝	3856
멞	3857
멟	3858
멠	3859
멡	3860
멢	3861
멣	3862
멤	3863
멥	3864
멦	3865
멧	3866
멨	3867
멩	3868
멪	3869
멫	3870
멬	3871
멭	3872
멮	3873
멯	3874
며	3875
멱	3876
멲	3877
멳	3878
면	3879
멵	3880
멶	3881
멷	3882
멸	3883
멹	3884
멺	3885
멻	3886
멼	3887
멽	3888
멾	3889
멿	3890
몀	3891
몁	3892
몂	3893
몃	3894
몄	3895
명	3896
몆	3897
몇	3898
몈	3899
몉	3900
몊	3901
몋	3902
몌	3903
몍	3904
몎	3905
몏	3906
몐	3907
몑	3908
몒	3909
몓	3910
몔	3911
몕	3912
몖	3913
몗	3914
몘	3915
몙	3916
몚	3917
몛	3918
몜	3919
몝	3920
몞	3921
몟	3922
몠	3923
몡	3924
몢	3925
몣	3926
몤	3927
몥	3928
몦	3929
몧	3930
모	3931
목	3932
몪	3933
몫	3934
몬	3935
몭	3936
몮	3937
몯	3938
몰	3939
몱	3940
몲	3941
몳	3942
몴	3943
몵	3944
몶	3945
몷	3946
몸	3947
몹	3948
몺	3949
못	3950
몼	3951
몽	3952
몾	3953
몿	3954
뫀	3955
뫁	3956
뫂	3957
뫃	3958
뫄	3959
뫅	3960
뫆	3961
뫇	3962
뫈	3963
뫉	3964
뫊	3965
뫋	3966
뫌	3967
뫍	3968
뫎	3969
뫏	3970
뫐	3971
뫑	3972
뫒	3973
뫓	3974
뫔	3975
뫕	3976
뫖	3977
뫗	3978
뫘	3979
뫙	3980
뫚	3981
뫛	3982
뫜	3983
뫝	3984
뫞	3985
뫟	3986
뫠	3987
뫡	3988
뫢	3989
뫣	3990
뫤	3991
뫥	3992
뫦	3993
뫧	3994
뫨	3995
뫩	3996
뫪	3997
뫫	3998
뫬	3999
뫭	4000
뫮	4001
뫯	4002
뫰	4003
뫱	4004
뫲	4005
뫳	4006
뫴	4007
뫵	4008
뫶	4009
뫷	4010
뫸	4011
뫹	4012
뫺	4013
뫻	4014
뫼	4015
뫽	4016
뫾	4017
뫿	4018
묀	4019
묁	4020
묂	4021
묃	4022
묄	4023
묅	4024
묆	4025
묇	4026
묈	4027
묉	4028
묊	4029
묋	4030
묌	4031
묍	4032
묎	4033
묏	4034
묐	4035
묑	4036
묒	4037
묓	4038
묔	4039
묕	4040
묖	4041
묗	4042
묘	4043
묙	4044
묚	4045
묛	4046
묜	4047
묝	4048
묞	4049
묟	4050
묠	4051
묡	4052
묢	4053
묣	4054
묤	4055
묥	4056
묦	4057
묧	4058
묨	4059
묩	4060
묪	4061
묫	4062
묬	4063
묭	4064
묮	4065
묯	4066
묰	4067
묱	4068
묲	4069
묳	4070
무	4071
묵	4072
묶	4073
묷	4074
문	4075
묹	4076
묺	4077
묻	4078
물	4079
묽	4080
묾	4081
묿	4082
뭀	4083
뭁	4084
뭂	4085
뭃	4086
뭄	4087
뭅	4088
뭆	4089
뭇	4090
뭈	4091
뭉	4092
뭊	4093
뭋	4094
뭌	4095
뭍	4096
뭎	4097
뭏	4098
뭐	4099
뭑	4100
뭒	4101
뭓	4102
뭔	4103
뭕	4104
뭖	4105
뭗	4106
뭘	4107
뭙	4108
뭚	4109
뭛	4110
뭜	4111
뭝	4112
뭞	4113
뭟	4114
뭠	4115
뭡	4116
뭢	4117
뭣	4118
뭤	4119
뭥	4120
뭦	4121
뭧	4122
뭨	4123
뭩	4124
뭪	4125
뭫	4126
뭬	4127
뭭	4128
뭮	4129
뭯	4130
뭰	4131
뭱	4132
뭲	4133
뭳	4134
뭴	4135
뭵	4136
뭶	4137
뭷	4138
뭸	4139
뭹	4140
뭺	4141
뭻	4142
뭼	4143
뭽	4144
뭾	4145
뭿	4146
뮀	4147
뮁	4148
뮂	4149
뮃	4150
뮄	4151
뮅	4152
뮆	4153
뮇	4154
뮈	4155
뮉	4156
뮊	4157
뮋	4158
뮌	4159
뮍	4160
뮎	4161
뮏	4162
뮐	4163
뮑	4164
뮒	4165
뮓	4166
뮔	4167
뮕	4168
뮖	4169
뮗	4170
뮘	4171
뮙	4172
뮚	4173
뮛	4174
뮜	4175
뮝	4176
뮞	4177
뮟	4178
뮠	4179
뮡	4180
뮢	4181
뮣	4182
뮤	4183
뮥	4184
뮦	4185
뮧	4186
뮨	4187
뮩	4188
뮪	4189
뮫	4190
뮬	4191
뮭	4192
뮮	4193
뮯	4194
뮰	4195
뮱	4196
뮲	4197
뮳	4198
뮴	4199
뮵	4200
뮶	4201
뮷	4202
뮸	4203
뮹	4204
뮺	4205
뮻	4206
뮼	4207
뮽	4208
뮾	4209
뮿	4210
므	4211
믁	4212
믂	4213
믃	4214
믄	4215
믅	4216
믆	4217
믇	4218
믈	4219
믉	4220
믊	4221
믋	4222
믌	4223
믍	4224
믎	4225
믏	4226
믐	4227
믑	4228
믒	4229
믓	4230
믔	4231
믕	4232
믖	4233
믗	4234
믘	4235
믙	4236
믚	4237
믛	4238
믜	4239
믝	4240
믞	4241
믟	4242
믠	4243
믡	4244
믢	4245
믣	4246
믤	4247
믥	4248
믦	4249
믧	4250
믨	4251
믩	4252
믪	4253
믫	4254
믬	4255
믭	4256
믮	4257
믯	4258
믰	4259
믱	4260
믲	4261
믳	4262
믴	4263
믵	4264
믶	4265
믷	4266
미	4267
믹	4268
믺	4269
믻	4270
민	4271
믽	4272
믾	4273
믿	4274
밀	4275
밁	4276
밂	4277
밃	4278
밄	4279
밅	4280
밆	4281
밇	4282
밈	4283
밉	4284
밊	4285
밋	4286
밌	4287
밍	4288
밎	4289
및	4290
밐	4291
밑	4292
밒	4293
밓	4294
바	4295
박	4296
밖	4297
밗	4298
반	4299
밙	4300
밚	4301
받	4302
발	4303
밝	4304
밞	4305
밟	4306
밠	4307
밡	4308
밢	4309
밣	4310
밤	4311
밥	4312
밦	4313
밧	4314
밨	4315
방	4316
밪	4317
밫	4318
밬	4319
밭	4320
밮	4321
밯	4322
배	4323
백	4324
밲	4325
밳	4326
밴	4327
밵	4328
밶	4329
밷	4330
밸	4331
밹	4332
밺	4333
밻	4334
밼	4335
밽	4336
밾	4337
밿	4338
뱀	4339
뱁	4340
뱂	4341
뱃	4342
뱅	4343
뱆	4344
뱇	4345
뱈	4346
뱉	4347
뱊	4348
뱋	4349
뱌	4350
뱍	4351
뱎	4352
뱏	4353
뱐	4354
뱑	4355
뱒	4356
뱓	4357
뱔	4358
뱕	4359
뱖	4360
뱗	4361
뱘	4362
뱙	4363
뱚	4364
뱛	4365
뱜	4366
뱝	4367
뱞	4368
뱟	4369
뱠	4370
뱡	4371
뱢	4372
뱣	4373
뱤	4374
뱥	4375
뱦	4376
뱧	4377
뱨	4378
뱩	4379
뱪	4380
뱫	4381
뱬	4382
뱭	4383
뱮	4384
뱯	4385
뱰	4386
뱱	4387
뱲	4388
뱳	4389
뱴	4390
뱵	4391
뱶	4392
뱷	4393
뱸	4394
뱹	4395
뱺	4396
뱻	4397
뱼	4398
뱽	4399
뱾	4400
뱿	4401
벀	4402
벁	4403
벂	4404
벃	4405
버	4406
벅	4407
벆	4408
벇	4409
번	4410
벉	4411
벊	4412
벋	4413
벌	4414
벍	4415
벎	4416
벏	4417
벐	4418
벑	4419
벒	4420
벓	4421
범	4422
법	4423
벖	4424
벗	4425
벘	4426
벙	4427
벚	4428
벛	4429
벜	4430
벝	4431
벞	4432
벟	4433
베	4434
벡	4435
벢	4436
벣	4437
벤	4438
벥	4439
벦	4440
벧	4441
벨	4442
벩	4443
벪	4444
벫	4445
벬	4446
벭	4447
벮	4448
벯	4449
벰	4450
벱	4451
벲	4452
벳	4453
벴	4454
벵	4455
벶	4456
벷	4457
벸	4458
벹	4459
벺	4460
벻	4461
벼	4462
벽	4463
벾	4464
벿	4465
변	4466
볁	4467
볂	4468
볃	4469
별	4470
볅	4471
볆	4472
볇	4473
볈	4474
볉	4475
볊	4476
볋	4477
볌	4478
볍	4479
볎	4480
볏	4481
볐	4482
병	4483
볒	4484
볓	4485
볔	4486
볕	4487
볖	4488
볗	4489
볘	4490
볙	4491
볚	4492
볛	4493
볜	4494
볝	4495
볞	4496
볟	4497
볠	4498
볡	4499
볢	4500
볣	4501
볤	4502
볥	4503
볦	4504
볧	4505
볨	4506
볩	4507
볪	4508
볫	4509
볬	4510
볭	4511
볮	4512
볯	4513
볰	4514
볱	4515
볲	4516
볳	4517
보	4518
복	4519
볶	4520
볷	4521
본	4522
볹	4523
볺	4524
볻	4525
볼	4526
볽	4527
볾	4528
볿	4529
봀	4530
봁	4531
봂	4532
봃	4533
봄	4534
봅	4535
봆	4536
봇	4537
봈	4538
봉	4539
봊	4540
봋	4541
봌	4542
봍	4543
봎	4544
봏	4545
봐	4546
봑	4547
봒	4548
봓	4549
봔	4550
봕	4551
봖	4552
봗	4553
봘	4554
봙	4555
봚	4556
봛	4557
봜	4558
봝	4559
봞	4560
봟	4561
봠	4562
봡	4563
봢	4564
봣	4565
봤	4566
봥	4567
봦	4568
봧	4569
봨	4570
봩	4571
봪	4572
봫	4573
봬	4574
봭	4575
봮	4576
봯	4577
봰	4578
봱	4579
봲	4580
봳	4581
봴	4582
봵	4583
봶	4584
봷	4585
봸	4586
봹	4587
봺	4588
봻	4589
봼	4590
봽	4591
봾	4592
봿	4593
뵁	4594
뵂	4595
뵃	4596
뵄	4597
뵅	4598
뵆	4599
뵇	4600
뵈	4601
뵉	4602
뵊	4603
뵋	4604
뵍	4605
뵎	4606
뵏	4607
뵐	4608
뵑	4609
뵒	4610
뵓	4611
뵔	4612
뵕	4613
뵖	4614
뵗	4615
뵘	4616
뵙	4617
뵚	4618
뵛	4619
뵝	4620
뵞	4621
뵟	4622
뵠	4623
뵡	4624
뵢	4625
뵣	4626
뵤	4627
뵥	4628
뵦	4629
뵧	4630
뵨	4631
뵩	4632
뵪	4633
뵫	4634
뵬	4635
뵭	4636
뵮	4637
뵯	4638
뵰	4639
뵱	4640
뵲	4641
뵳	4642
뵴	4643
뵵	4644
뵶	4645
뵷	4646
뵸	4647
뵹	4648
뵺	4649
뵻	4650
뵼	4651
뵽	4652
뵾	4653
뵿	4654
부	4655
북	4656
붂	4657
붃	4658
분	4659
붅	4660
붆	4661
붇	4662
불	4663
붉	4664
붊	4665
붋	4666
붌	4667
붍	4668
붎	4669
붏	4670
붐	4671
붑	4672
붒	4673
붓	4674
붔	4675
붕	4676
붖	4677
붗	4678
붘	4679
붙	4680
붚	4681
붛	4682
붜	4683
붝	4684
붞	4685
붟	4686
붠	4687
붡	4688
붢	4689
붣	4690
붤	4691
붥	4692
붦	4693
붧	4694
붨	4695
붩	4696
붪	4697
붫	4698
붬	4699
붭	4700
붮	4701
붯	4702
붰	4703
붱	4704
붲	4705
붳	4706
붴	4707
붵	4708
붶	4709
붷	4710
붸	4711
붹	4712
붺	4713
붻	4714
붼	4715
붽	4716
붾	4717
붿	4718
뷀	4719
뷁	4720
뷂	4721
뷃	4722
뷄	4723
뷅	4724
뷆	4725
뷇	4726
뷈	4727
뷉	4728
뷊	4729
뷋	4730
뷌	4731
뷍	4732
뷎	4733
뷏	4734
뷐	4735
뷑	4736
뷒	4737
뷓	4738
뷔	4739
뷕	4740
뷖	4741
뷗	4742
뷘	4743
뷙	4744
뷚	4745
뷛	4746
뷜	4747
뷝	4748
뷞	4749
뷟	4750
뷠	4751
뷡	4752
뷢	4753
뷣	4754
뷤	4755
뷥	4756
뷦	4757
뷧	4758
뷨	4759
뷩	4760
뷪	4761
뷫	4762
뷬	4763
뷭	4764
뷮	4765
뷯	4766
뷰	4767
뷱	4768
뷲	4769
뷳	4770
뷴	4771
뷵	4772
뷶	4773
뷷	4774
뷸	4775
뷹	4776
뷺	4777
뷻	4778
뷼	4779
뷽	4780
뷾	4781
뷿	4782
븀	4783
븁	4784
븂	4785
븃	4786
븄	4787
븅	4788
븆	4789
븇	4790
븈	4791
븉	4792
븊	4793
븋	4794
브	4795
븍	4796
븎	4797
븏	4798
븐	4799
븑	4800
븒	4801
븓	4802
블	4803
븕	4804
븖	4805
븗	4806
븘	4807
븙	4808
븚	4809
븛	4810
븜	4811
븝	4812
븞	4813
븟	4814
븠	4815
븡	4816
븢	4817
븣	4818
븤	4819
븥	4820
븦	4821
븧	4822
븨	4823
븩	4824
븪	4825
븫	4826
븬	4827
븭	4828
븮	4829
븯	4830
븰	4831
븱	4832
븲	4833
븳	4834
븴	4835
븵	4836
븶	4837
븷	4838
븸	4839
븹	4840
븺	4841
븻	4842
븼	4843
븽	4844
븾	4845
븿	4846
빀	4847
빁	4848
빂	4849
빃	4850
비	4851
빅	4852
빆	4853
빇	4854
빈	4855
빉	4856
빊	4857
빋	4858
빌	4859
빍	4860
빎	4861
빏	4862
빐	4863
빑	4864
빒	4865
빓	4866
빔	4867
빕	4868
빖	4869
빗	4870
빘	4871
빙	4872
빚	4873
빛	4874
빜	4875
빝	4876
빞	4877
빟	4878
빠	4879
빡	4880
빢	4881
빣	4882
빤	4883
빥	4884
빦	4885
빧	4886
빨	4887
빩	4888
빪	4889
빫	4890
빬	4891
빭	4892
빮	4893
빯	4894
빰	4895
빱	4896
빲	4897
빳	4898
빴	4899
빵	4900
빶	4901
빷	4902
빸	4903
빹	4904
빺	4905
빻	4906
빼	4907
빽	4908
빾	4909
빿	4910
뺀	4911
뺁	4912
뺂	4913
뺃	4914
뺄	4915
뺅	4916
뺆	4917
뺇	4918
뺈	4919
뺉	4920
뺊	4921
뺋	4922
뺌	4923
뺍	4924
뺎	4925
뺏	4926
뺐	4927
뺑	4928
뺒	4929
뺓	4930
뺔	4931
뺕	4932
뺖	4933
뺗	4934
뺘	4935
뺙	4936
뺚	4937
뺛	4938
뺜	4939
뺝	4940
뺞	4941
뺟	4942
뺠	4943
뺡	4944
뺢	4945
뺣	4946
뺤	4947
뺥	4948
뺦	4949
뺧	4950
뺨	4951
뺩	4952
뺪	4953
뺫	4954
뺬	4955
뺭	4956
뺮	4957
뺯	4958
뺰	4959
뺱	4960
뺲	4961
뺳	4962
뺴	4963
뺵	4964
뺶	4965
뺷	4966
뺸	4967
뺹	4968
뺺	4969
뺻	4970
뺼	4971
뺽	4972
뺾	4973
뺿	4974
뻀	4975
뻁	4976
뻂	4977
뻃	4978
뻄	4979
뻅	4980
뻆	4981
뻇	4982
뻈	4983
뻉	4984
뻊	4985
뻋	4986
뻌	4987
뻍	4988
뻎	4989
뻏	4990
뻐	4991
뻑	4992
뻒	4993
뻓	4994
뻔	4995
뻕	4996
뻖	4997
뻗	4998
뻘	4999
뻙	5000
뻚	5001
뻛	5002
뻜	5003
뻝	5004
뻞	5005
뻟	5006
뻠	5007
뻡	5008
뻢	5009
뻣	5010
뻤	5011
뻥	5012
뻦	5013
뻧	5014
뻨	5015
뻩	5016
뻪	5017
뻫	5018
뻬	5019
뻭	5020
뻮	5021
뻯	5022
뻰	5023
뻱	5024
뻲	5025
뻳	5026
뻴	5027
뻵	5028
뻶	5029
뻷	5030
뻸	5031
뻹	5032
뻺	5033
뻻	5034
뻼	5035
뻽	5036
뻾	5037
뻿	5038
뼀	5039
뼁	5040
뼂	5041
뼃	5042
뼄	5043
뼅	5044
뼆	5045
뼇	5046
뼈	5047
뼉	5048
뼊	5049
뼋	5050
뼌	5051
뼍	5052
뼎	5053
뼏	5054
뼐	5055
뼑	5056
뼒	5057
뼓	5058
뼔	5059
뼕	5060
뼖	5061
뼗	5062
뼘	5063
뼙	5064
뼚	5065
뼛	5066
뼜	5067
뼝	5068
뼞	5069
뼟	5070
뼠	5071
뼡	5072
뼢	5073
뼣	5074
뼤	5075
뼥	5076
뼦	5077
뼧	5078
뼨	5079
뼩	5080
뼪	5081
뼫	5082
뼬	5083
뼭	5084
뼮	5085
뼯	5086
뼰	5087
뼱	5088
뼲	5089
뼳	5090
뼴	5091
뼵	5092
뼶	5093
뼷	5094
뼸	5095
뼹	5096
뼺	5097
뼻	5098
뼼	5099
뼽	5100
뼾	5101
뼿	5102
뽀	5103
뽁	5104
뽂	5105
뽃	5106
뽄	5107
뽅	5108
뽆	5109
뽇	5110
뽈	5111
뽉	5112
뽊	5113
뽋	5114
뽌	5115
뽍	5116
뽎	5117
뽏	5118
뽐	5119
뽑	5120
뽒	5121
뽓	5122
뽔	5123
뽕	5124
뽖	5125
뽗	5126
뽘	5127
뽙	5128
뽚	5129
뽛	5130
뽜	5131
뽝	5132
뽞	5133
뽟	5134
뽠	5135
뽡	5136
뽢	5137
뽣	5138
뽤	5139
뽥	5140
뽦	5141
뽧	5142
뽨	5143
뽩	5144
뽪	5145
뽫	5146
뽬	5147
뽭	5148
뽮	5149
뽯	5150
뽰	5151
뽱	5152
뽲	5153
뽳	5154
뽴	5155
뽵	5156
뽶	5157
뽷	5158
뽸	5159
뽹	5160
뽺	5161
뽻	5162
뽼	5163
뽽	5164
뽾	5165
뽿	5166
뾀	5167
뾁	5168
뾂	5169
뾃	5170
뾄	5171
뾅	5172
뾆	5173
뾇	5174
뾈	5175
뾉	5176
뾊	5177
뾋	5178
뾌	5179
뾍	5180
뾎	5181
뾏	5182
뾐	5183
뾑	5184
뾒	5185
뾓	5186
뾔	5187
뾕	5188
뾖	5189
뾗	5190
뾘	5191
뾙	5192
뾚	5193
뾛	5194
뾜	5195
뾝	5196
뾞	5197
뾟	5198
뾠	5199
뾡	5200
뾢	5201
뾣	5202
뾤	5203
뾥	5204
뾦	5205
뾧	5206
뾨	5207
뾩	5208
뾪	5209
뾫	5210
뾬	5211
뾭	5212
뾮	5213
뾯	5214
뾰	5215
뾱	5216
뾲	5217
뾳	5218
뾴	5219
뾵	5220
뾶	5221
뾷	5222
뾸	5223
뾹	5224
뾺	5225
뾻	5226
뾼	5227
뾽	5228
뾾	5229
뾿	5230
뿀	5231
뿁	5232
뿂	5233
뿃	5234
뿄	5235
뿅	5236
뿆	5237
뿇	5238
뿈	5239
뿉	5240
뿊	5241
뿋	5242
뿌	5243
뿍	5244
뿎	5245
뿏	5246
뿐	5247
뿑	5248
뿒	5249
뿓	5250
뿔	5251
뿕	5252
뿖	5253
뿗	5254
뿘	5255
뿙	5256
뿚	5257
뿛	5258
뿜	5259
뿝	5260
뿞	5261
뿟	5262
뿡	5263
뿢	5264
뿣	5265
뿤	5266
뿥	5267
뿦	5268
뿧	5269
뿨	5270
뿩	5271
뿪	5272
뿫	5273
뿬	5274
뿭	5275
뿮	5276
뿯	5277
뿰	5278
뿱	5279
뿲	5280
뿳	5281
뿴	5282
뿵	5283
뿶	5284
뿷	5285
뿸	5286
뿹	5287
뿺	5288
뿻	5289
뿼	5290
뿽	5291
뿾	5292
뿿	5293
쀀	5294
쀁	5295
쀂	5296
쀃	5297
쀄	5298
쀅	5299
쀆	5300
쀇	5301
쀈	5302
쀉	5303
쀊	5304
쀋	5305
쀌	5306
쀍	5307
쀎	5308
쀏	5309
쀐	5310
쀑	5311
쀒	5312
쀓	5313
쀔	5314
쀕	5315
쀖	5316
쀗	5317
쀘	5318
쀙	5319
쀚	5320
쀛	5321
쀜	5322
쀝	5323
쀞	5324
쀟	5325
쀠	5326
쀡	5327
쀢	5328
쀣	5329
쀤	5330
쀥	5331
쀦	5332
쀧	5333
쀨	5334
쀩	5335
쀪	5336
쀫	5337
쀬	5338
쀭	5339
쀮	5340
쀯	5341
쀰	5342
쀱	5343
쀲	5344
쀳	5345
쀴	5346
쀵	5347
쀶	5348
쀷	5349
쀸	5350
쀹	5351
쀺	5352
쀻	5353
쀼	5354
쀽	5355
쀾	5356
쀿	5357
쁀	5358
쁁	5359
쁂	5360
쁃	5361
쁄	5362
쁅	5363
쁆	5364
쁇	5365
쁈	5366
쁉	5367
쁊	5368
쁋	5369
쁌	5370
쁍	5371
쁎	5372
쁏	5373
쁐	5374
쁑	5375
쁒	5376
쁓	5377
쁔	5378
쁕	5379
쁖	5380
쁗	5381
쁘	5382
쁙	5383
쁚	5384
쁛	5385
쁜	5386
쁝	5387
쁞	5388
쁟	5389
쁠	5390
쁡	5391
쁢	5392
쁣	5393
쁤	5394
쁥	5395
쁦	5396
쁧	5397
쁨	5398
쁩	5399
쁪	5400
쁫	5401
쁬	5402
쁭	5403
쁮	5404
쁯	5405
쁰	5406
쁱	5407
쁲	5408
쁳	5409
쁴	5410
쁵	5411
쁶	5412
쁷	5413
쁸	5414
쁹	5415
쁺	5416
쁻	5417
쁼	5418
쁽	5419
쁾	5420
쁿	5421
삀	5422
삁	5423
삂	5424
삃	5425
삄	5426
삅	5427
삆	5428
삇	5429
삈	5430
삉	5431
삊	5432
삋	5433
삌	5434
삍	5435
삎	5436
삏	5437
삐	5438
삑	5439
삒	5440
삓	5441
삔	5442
삕	5443
삖	5444
삗	5445
삘	5446
삙	5447
삚	5448
삛	5449
삜	5450
삝	5451
삞	5452
삟	5453
삠	5454
삡	5455
삢	5456
삣	5457
삤	5458
삥	5459
삦	5460
삧	5461
삨	5462
삩	5463
삪	5464
삫	5465
사	5466
삭	5467
삮	5468
삯	5469
산	5470
삱	5471
삲	5472
삳	5473
살	5474
삵	5475
삶	5476
삷	5477
삸	5478
삹	5479
삺	5480
삻	5481
삼	5482
삽	5483
삾	5484
삿	5485
상	5486
샂	5487
샃	5488
샄	5489
샅	5490
샆	5491
샇	5492
새	5493
색	5494
샊	5495
샋	5496
샌	5497
샍	5498
샎	5499
샏	5500
샐	5501
샑	5502
샒	5503
샓	5504
샔	5505
샕	5506
샖	5507
샗	5508
샘	5509
샙	5510
샚	5511
샛	5512
생	5513
샞	5514
샟	5515
샠	5516
샡	5517
샢	5518
샣	5519
샤	5520
샥	5521
샦	5522
샧	5523
샨	5524
샩	5525
샪	5526
샫	5527
샬	5528
샭	5529
샮	5530
샯	5531
샰	5532
샱	5533
샲	5534
샳	5535
샴	5536
샵	5537
샶	5538
샷	5539
샸	5540
샹	5541
샺	5542
샻	5543
샼	5544
샽	5545
샾	5546
샿	5547
섀	5548
섁	5549
섂	5550
섃	5551
섄	5552
섅	5553
섆	5554
섇	5555
섈	5556
섉	5557
섊	5558
섋	5559
섌	5560
섍	5561
섎	5562
섏	5563
섐	5564
섑	5565
섒	5566
섓	5567
섔	5568
섕	5569
섖	5570
섗	5571
섘	5572
섙	5573
섚	5574
섛	5575
서	5576
석	5577
섞	5578
섟	5579
선	5580
섡	5581
섢	5582
섣	5583
설	5584
섥	5585
섦	5586
섧	5587
섨	5588
섩	5589
섪	5590
섫	5591
섬	5592
섭	5593
섮	5594
섯	5595
섰	5596
성	5597
섲	5598
섳	5599
섴	5600
섵	5601
섶	5602
섷	5603
세	5604
섹	5605
섺	5606
섻	5607
센	5608
섽	5609
섿	5610
셀	5611
셁	5612
셂	5613
셃	5614
셄	5615
셅	5616
셆	5617
셇	5618
셈	5619
셉	5620
셊	5621
셋	5622
셍	5623
셎	5624
셏	5625
셐	5626
셑	5627
셒	5628
셓	5629
셔	5630
셕	5631
셖	5632
셗	5633
션	5634
셙	5635
셚	5636
셛	5637
셜	5638
셝	5639
셞	5640
셟	5641
셠	5642
셡	5643
셢	5644
셣	5645
셤	5646
셥	5647
셦	5648
셧	5649
셨	5650
셩	5651
셪	5652
셫	5653
셬	5654
셭	5655
셮	5656
셯	5657
셰	5658
셱	5659
셲	5660
셳	5661
셴	5662
셵	5663
셶	5664
셷	5665
셸	5666
셹	5667
셺	5668
셻	5669
셼	5670
셽	5671
셾	5672
셿	5673
솀	5674
솁	5675
솂	5676
솃	5677
솄	5678
솅	5679
솆	5680
솇	5681
솈	5682
솉	5683
솊	5684
솋	5685
소	5686
속	5687
솎	5688
솏	5689
손	5690
솑	5691
솒	5692
솓	5693
솔	5694
솕	5695
솖	5696
솗	5697
솘	5698
솙	5699
솚	5700
솛	5701
솜	5702
솝	5703
솞	5704
솟	5705
솠	5706
송	5707
솢	5708
솣	5709
솤	5710
솥	5711
솦	5712
솧	5713
솨	5714
솩	5715
솪	5716
솫	5717
솬	5718
솭	5719
솮	5720
솯	5721
솰	5722
솱	5723
솲	5724
솳	5725
솴	5726
솵	5727
솶	5728
솷	5729
솸	5730
솹	5731
솺	5732
솻	5733
솼	5734
솽	5735
솾	5736
솿	5737
쇀	5738
쇁	5739
쇂	5740
쇃	5741
쇄	5742
쇅	5743
쇆	5744
쇇	5745
쇈	5746
쇉	5747
쇊	5748
쇋	5749
쇌	5750
쇍	5751
쇎	5752
쇏	5753
쇐	5754
쇑	5755
쇒	5756
쇓	5757
쇔	5758
쇕	5759
쇖	5760
쇗	5761
쇘	5762
쇙	5763
쇚	5764
쇛	5765
쇜	5766
쇝	5767
쇞	5768
쇟	5769
쇠	5770
쇡	5771
쇢	5772
쇣	5773
쇤	5774
쇥	5775
쇦	5776
쇧	5777
쇨	5778
쇩	5779
쇪	5780
쇫	5781
쇬	5782
쇭	5783
쇮	5784
쇯	5785
쇰	5786
쇱	5787
쇲	5788
쇳	5789
쇴	5790
쇵	5791
쇶	5792
쇷	5793
쇸	5794
쇹	5795
쇺	5796
쇻	5797
쇼	5798
쇽	5799
쇾	5800
쇿	5801
숀	5802
숁	5803
숂	5804
숃	5805
숄	5806
숅	5807
숆	5808
숇	5809
숈	5810
숉	5811
숊	5812
숋	5813
숌	5814
숍	5815
숎	5816
숏	5817
숐	5818
숑	5819
숒	5820
숓	5821
숔	5822
숕	5823
숖	5824
숗	5825
수	5826
숙	5827
숚	5828
숛	5829
순	5830
숝	5831
숞	5832
숟	5833
술	5834
숡	5835
숢	5836
숣	5837
숤	5838
숥	5839
숦	5840
숧	5841
숨	5842
숩	5843
숪	5844
숫	5845
숬	5846
숭	5847
숮	5848
숯	5849
숰	5850
숱	5851
숲	5852
숳	5853
숴	5854
숵	5855
숶	5856
숷	5857
숸	5858
숹	5859
숺	5860
숻	5861
숼	5862
숽	5863
숾	5864
숿	5865
쉀	5866
쉁	5867
쉂	5868
쉃	5869
쉄	5870
쉅	5871
쉆	5872
쉇	5873
쉈	5874
쉉	5875
쉊	5876
쉋	5877
쉌	5878
쉍	5879
쉎	5880
쉏	5881
쉐	5882
쉑	5883
쉒	5884
쉓	5885
쉔	5886
쉕	5887
쉖	5888
쉗	5889
쉘	5890
쉙	5891
쉚	5892
쉛	5893
쉜	5894
쉝	5895
쉞	5896
쉟	5897
쉠	5898
쉡	5899
쉢	5900
쉣	5901
쉤	5902
쉥	5903
쉦	5904
쉧	5905
쉨	5906
쉩	5907
쉪	5908
쉫	5909
쉬	5910
쉭	5911
쉮	5912
쉯	5913
쉰	5914
쉱	5915
쉲	5916
쉳	5917
쉴	5918
쉵	5919
쉶	5920
쉷	5921
쉸	5922
쉹	5923
쉺	5924
쉻	5925
쉼	5926
쉽	5927
쉾	5928
쉿	5929
슀	5930
슁	5931
슂	5932
슃	5933
슄	5934
슅	5935
슆	5936
슇	5937
슈	5938
슉	5939
슊	5940
슋	5941
슌	5942
슍	5943
슎	5944
슏	5945
슐	5946
슑	5947
슒	5948
슓	5949
슔	5950
슕	5951
슖	5952
슗	5953
슘	5954
슙	5955
슚	5956
슛	5957
슜	5958
슝	5959
슞	5960
슟	5961
슠	5962
슡	5963
슢	5964
슣	5965
스	5966
슥	5967
슦	5968
슧	5969
슨	5970
슩	5971
슪	5972
슫	5973
슬	5974
슭	5975
슮	5976
슯	5977
슰	5978
슱	5979
슲	5980
슳	5981
슴	5982
습	5983
슶	5984
슷	5985
슸	5986
승	5987
슺	5988
슻	5989
슼	5990
슽	5991
슾	5992
슿	5993
싀	5994
싁	5995
싂	5996
싃	5997
싄	5998
싅	5999
싆	6000
싇	6001
싈	6002
싉	6003
싊	6004
싋	6005
싌	6006
싍	6007
싎	6008
싏	6009
싐	6010
싑	6011
싒	6012
싓	6013
싔	6014
싕	6015
싖	6016
싗	6017
싘	6018
싙	6019
싚	6020
싛	6021
시	6022
식	6023
싞	6024
싟	6025
신	6026
싡	6027
싢	6028
싣	6029
실	6030
싥	6031
싦	6032
싧	6033
싨	6034
싩	6035
싪	6036
싫	6037
심	6038
십	6039
싮	6040
싯	6041
싰	6042
싱	6043
싲	6044
싳	6045
싴	6046
싵	6047
싶	6048
싷	6049
싸	6050
싹	6051
싺	6052
싻	6053
싼	6054
싽	6055
싾	6056
싿	6057
쌀	6058
쌁	6059
쌂	6060
쌃	6061
쌄	6062
쌅	6063
쌆	6064
쌇	6065
쌈	6066
쌉	6067
쌊	6068
쌋	6069
쌍	6070
쌎	6071
쌏	6072
쌐	6073
쌑	6074
쌒	6075
쌓	6076
쌔	6077
쌕	6078
쌖	6079
쌗	6080
쌘	6081
쌙	6082
쌚	6083
쌛	6084
쌜	6085
쌝	6086
쌞	6087
쌟	6088
쌠	6089
쌡	6090
쌢	6091
쌣	6092
쌤	6093
쌥	6094
쌦	6095
쌧	6096
쌩	6097
쌪	6098
쌫	6099
쌬	6100
쌭	6101
쌮	6102
쌯	6103
쌰	6104
쌱	6105
쌲	6106
쌳	6107
쌴	6108
쌵	6109
쌶	6110
쌷	6111
쌸	6112
쌹	6113
쌺	6114
쌻	6115
쌼	6116
쌽	6117
쌾	6118
쌿	6119
썀	6120
썁	6121
썂	6122
썃	6123
썄	6124
썅	6125
썆	6126
썇	6127
썈	6128
썉	6129
썊	6130
썋	6131
썌	6132
썍	6133
썎	6134
썏	6135
썐	6136
썑	6137
썒	6138
썓	6139
썔	6140
썕	6141
썖	6142
썗	6143
썘	6144
썙	6145
썚	6146
썛	6147
썜	6148
썝	6149
썞	6150
썟	6151
썠	6152
썡	6153
썢	6154
썣	6155
썤	6156
썥	6157
썦	6158
썧	6159
써	6160
썩	6161
썪	6162
썫	6163
썬	6164
썭	6165
썮	6166
썯	6167
썰	6168
썱	6169
썲	6170
썳	6171
썴	6172
썵	6173
썶	6174
썷	6175
썸	6176
썹	6177
썺	6178
썻	6179
썼	6180
썽	6181
썾	6182
썿	6183
쎀	6184
쎁	6185
쎂	6186
쎃	6187
쎄	6188
쎅	6189
쎆	6190
쎇	6191
쎈	6192
쎉	6193
쎊	6194
쎋	6195
쎌	6196
쎍	6197
쎎	6198
쎏	6199
쎐	6200
쎑	6201
쎒	6202
쎓	6203
쎔	6204
쎕	6205
쎖	6206
쎗	6207
쎙	6208
쎚	6209
쎛	6210
쎜	6211
쎝	6212
쎞	6213
쎟	6214
쎠	6215
쎡	6216
쎢	6217
쎣	6218
쎤	6219
쎥	6220
쎦	6221
쎧	6222
쎨	6223
쎩	6224
쎪	6225
쎫	6226
쎬	6227
쎭	6228
쎮	6229
쎯	6230
쎰	6231
쎱	6232
쎲	6233
쎳	6234
쎴	6235
쎵	6236
쎶	6237
쎷	6238
쎸	6239
쎹	6240
쎺	6241
쎻	6242
쎼	6243
쎽	6244
쎾	6245
쎿	6246
쏀	6247
쏁	6248
쏂	6249
쏃	6250
쏄	6251
쏅	6252
쏆	6253
쏇	6254
쏈	6255
쏉	6256
쏊	6257
쏋	6258
쏌	6259
쏍	6260
쏎	6261
쏏	6262
쏐	6263
쏑	6264
쏒	6265
쏓	6266
쏔	6267
쏕	6268
쏖	6269
쏗	6270
쏘	6271
쏙	6272
쏚	6273
쏛	6274
쏜	6275
쏝	6276
쏞	6277
쏟	6278
쏠	6279
쏡	6280
쏢	6281
쏣	6282
쏤	6283
쏥	6284
쏦	6285
쏧	6286
쏨	6287
쏩	6288
쏪	6289
쏫	6290
쏬	6291
쏭	6292
쏮	6293
쏯	6294
쏰	6295
쏱	6296
쏲	6297
쏳	6298
쏴	6299
쏵	6300
쏶	6301
쏷	6302
쏸	6303
쏹	6304
쏺	6305
쏻	6306
쏼	6307
쏽	6308
쏾	6309
쏿	6310
쐀	6311
쐁	6312
쐂	6313
쐃	6314
쐄	6315
쐅	6316
쐆	6317
쐇	6318
쐉	6319
쐊	6320
쐋	6321
쐌	6322
쐍	6323
쐎	6324
쐏	6325
쐐	6326
쐑	6327
쐒	6328
쐓	6329
쐔	6330
쐕	6331
쐖	6332
쐗	6333
쐘	6334
쐙	6335
쐚	6336
쐛	6337
쐜	6338
쐝	6339
쐞	6340
쐟	6341
쐠	6342
쐡	6343
쐢	6344
쐣	6345
쐤	6346
쐥	6347
쐦	6348
쐧	6349
쐨	6350
쐩	6351
쐪	6352
쐫	6353
쐬	6354
쐭	6355
쐮	6356
쐯	6357
쐱	6358
쐲	6359
쐳	6360
쐵	6361
쐶	6362
쐷	6363
쐸	6364
쐹	6365
쐺	6366
쐻	6367
쐼	6368
쐽	6369
쐾	6370
쐿	6371
쑀	6372
쑁	6373
쑂	6374
쑃	6375
쑄	6376
쑅	6377
쑆	6378
쑇	6379
쑈	6380
쑉	6381
쑊	6382
쑋	6383
쑌	6384
쑍	6385
쑎	6386
쑏	6387
쑐	6388
쑑	6389
쑒	6390
쑓	6391
쑔	6392
쑕	6393
쑖	6394
쑗	6395
쑘	6396
쑙	6397
쑚	6398
쑛	6399
쑜	6400
쑝	6401
쑞	6402
쑟	6403
쑠	6404
쑡	6405
쑢	6406
쑣	6407
쑤	6408
쑥	6409
쑦	6410
쑧	6411
쑨	6412
쑩	6413
쑪	6414
쑫	6415
쑭	6416
쑮	6417
쑯	6418
쑰	6419
쑱	6420
쑲	6421
쑳	6422
쑴	6423
쑵	6424
쑶	6425
쑷	6426
쑸	6427
쑹	6428
쑺	6429
쑻	6430
쑼	6431
쑽	6432
쑾	6433
쑿	6434
쒀	6435
쒁	6436
쒂	6437
쒃	6438
쒄	6439
쒅	6440
쒆	6441
쒇	6442
쒈	6443
쒉	6444
쒊	6445
쒋	6446
쒌	6447
쒍	6448
쒎	6449
쒏	6450
쒐	6451
쒑	6452
쒒	6453
쒓	6454
쒕	6455
쒖	6456
쒗	6457
쒘	6458
쒙	6459
쒚	6460
쒛	6461
쒜	6462
쒝	6463
쒞	6464
쒟	6465
쒠	6466
쒡	6467
쒢	6468
쒣	6469
쒤	6470
쒥	6471
쒦	6472
쒧	6473
쒨	6474
쒩	6475
쒪	6476
쒫	6477
쒬	6478
쒭	6479
쒮	6480
쒯	6481
쒰	6482
쒱	6483
쒲	6484
쒳	6485
쒴	6486
쒵	6487
쒶	6488
쒷	6489
쒸	6490
쒹	6491
쒺	6492
쒻	6493
쒽	6494
쒾	6495
쒿	6496
쓀	6497
쓁	6498
쓂	6499
쓃	6500
쓄	6501
쓅	6502
쓆	6503
쓇	6504
쓈	6505
쓉	6506
쓊	6507
쓋	6508
쓌	6509
쓍	6510
쓎	6511
쓏	6512
쓐	6513
쓑	6514
쓒	6515
쓓	6516
쓔	6517
쓕	6518
쓖	6519
쓗	6520
쓘	6521
쓙	6522
쓚	6523
쓛	6524
쓜	6525
쓝	6526
쓞	6527
쓟	6528
쓠	6529
쓡	6530
쓢	6531
쓣	6532
쓤	6533
쓥	6534
쓦	6535
쓧	6536
쓨	6537
쓩	6538
쓪	6539
쓫	6540
쓬	6541
쓭	6542
쓮	6543
쓯	6544
쓰	6545
쓱	6546
쓲	6547
쓳	6548
쓴	6549
쓵	6550
쓶	6551
쓷	6552
쓸	6553
쓹	6554
쓺	6555
쓻	6556
쓼	6557
쓽	6558
쓾	6559
쓿	6560
씀	6561
씁	6562
씂	6563
씃	6564
씄	6565
씅	6566
씆	6567
씇	6568
씈	6569
씉	6570
씊	6571
씋	6572
씌	6573
씍	6574
씎	6575
씏	6576
씑	6577
씒	6578
씓	6579
씔	6580
씕	6581
씖	6582
씗	6583
씘	6584
씙	6585
씚	6586
씛	6587
씜	6588
씝	6589
씞	6590
씟	6591
씠	6592
씡	6593
씢	6594
씣	6595
씤	6596
씥	6597
씦	6598
씧	6599
씨	6600
씩	6601
씪	6602
씫	6603
씬	6604
씭	6605
씮	6606
씯	6607
씰	6608
씱	6609
씲	6610
씳	6611
씴	6612
씵	6613
씶	6614
씷	6615
씸	6616
씹	6617
씺	6618
씻	6619
씼	6620
씽	6621
씾	6622
씿	6623
앀	6624
앁	6625
앂	6626
앃	6627
아	6628
악	6629
앆	6630
앇	6631
안	6632
앉	6633
않	6634
앋	6635
알	6636
앍	6637
앎	6638
앏	6639
앐	6640
앑	6641
앒	6642
앓	6643
암	6644
압	6645
앖	6646
앗	6647
았	6648
앙	6649
앚	6650
앛	6651
앜	6652
앝	6653
앞	6654
앟	6655
애	6656
액	6657
앢	6658
앣	6659
앤	6660
앥	6661
앦	6662
앧	6663
앨	6664
앩	6665
앪	6666
앫	6667
앬	6668
앭	6669
앮	6670
앯	6671
앰	6672
앱	6673
앲	6674
앳	6675
앵	6676
앶	6677
앷	6678
앸	6679
앹	6680
앺	6681
앻	6682
야	6683
약	6684
앾	6685
앿	6686
얀	6687
얁	6688
얂	6689
얃	6690
얄	6691
얅	6692
얆	6693
얇	6694
얈	6695
얉	6696
얊	6697
얋	6698
얌	6699
얍	6700
얎	6701
얏	6702
얐	6703
양	6704
얒	6705
얓	6706
얔	6707
얕	6708
얖	6709
얗	6710
얘	6711
얙	6712
얚	6713
얛	6714
얜	6715
얝	6716
얞	6717
얟	6718
얡	6719
얢	6720
얣	6721
얤	6722
얥	6723
얦	6724
얧	6725
얨	6726
얩	6727
얪	6728
얫	6729
얬	6730
얭	6731
얮	6732
얯	6733
얰	6734
얱	6735
얲	6736
얳	6737
어	6738
억	6739
얶	6740
얷	6741
언	6742
얹	6743
얺	6744
얻	6745
얼	6746
얽	6747
얾	6748
얿	6749
엀	6750
엁	6751
엂	6752
엃	6753
엄	6754
업	6755
없	6756
엇	6757
었	6758
엉	6759
엊	6760
엋	6761
엌	6762
엍	6763
엎	6764
엏	6765
에	6766
엑	6767
엒	6768
엓	6769
엔	6770
엕	6771
엖	6772
엗	6773
엘	6774
엙	6775
엚	6776
엛	6777
엜	6778
엝	6779
엞	6780
엟	6781
엠	6782
엡	6783
엢	6784
엣	6785
엤	6786
엥	6787
엦	6788
엧	6789
엨	6790
엩	6791
엪	6792
엫	6793
여	6794
역	6795
엮	6796
엯	6797
연	6798
엱	6799
엲	6800
엳	6801
열	6802
엵	6803
엶	6804
엷	6805
엸	6806
엹	6807
엺	6808
엻	6809
염	6810
엽	6811
엾	6812
엿	6813
였	6814
영	6815
옂	6816
옃	6817
옄	6818
옅	6819
옆	6820
옇	6821
예	6822
옉	6823
옊	6824
옋	6825
옌	6826
옍	6827
옎	6828
옏	6829
옐	6830
옑	6831
옒	6832
옓	6833
옔	6834
옕	6835
옖	6836
옗	6837
옘	6838
옙	6839
옚	6840
옛	6841
옜	6842
옝	6843
옞	6844
옟	6845
옠	6846
옡	6847
옢	6848
옣	6849
오	6850
옥	6851
옦	6852
옧	6853
온	6854
옩	6855
옪	6856
옫	6857
올	6858
옭	6859
옮	6860
옯	6861
옰	6862
옱	6863
옲	6864
옳	6865
옴	6866
옵	6867
옶	6868
옷	6869
옸	6870
옹	6871
옺	6872
옻	6873
옼	6874
옽	6875
옾	6876
옿	6877
와	6878
왁	6879
왂	6880
왃	6881
완	6882
왅	6883
왆	6884
왇	6885
왈	6886
왉	6887
왊	6888
왋	6889
왌	6890
왍	6891
왎	6892
왏	6893
왐	6894
왑	6895
왒	6896
왓	6897
왔	6898
왕	6899
왖	6900
왗	6901
왘	6902
왙	6903
왚	6904
왛	6905
왜	6906
왝	6907
왞	6908
왟	6909
왠	6910
왡	6911
왢	6912
왣	6913
왤	6914
왥	6915
왦	6916
왧	6917
왨	6918
왩	6919
왪	6920
왫	6921
왬	6922
왭	6923
왮	6924
왯	6925
왰	6926
왱	6927
왲	6928
왳	6929
왴	6930
왵	6931
왶	6932
왷	6933
외	6934
왹	6935
왺	6936
왻	6937
왼	6938
왽	6939
왾	6940
왿	6941
욀	6942
욁	6943
욂	6944
욃	6945
욄	6946
욅	6947
욆	6948
욇	6949
욈	6950
욉	6951
욊	6952
욋	6953
욌	6954
욍	6955
욎	6956
욏	6957
욐	6958
욑	6959
욒	6960
욓	6961
요	6962
욕	6963
욖	6964
욗	6965
욘	6966
욙	6967
욚	6968
욛	6969
욜	6970
욝	6971
욞	6972
욟	6973
욠	6974
욡	6975
욢	6976
욣	6977
욤	6978
욥	6979
욦	6980
욧	6981
욨	6982
용	6983
욪	6984
욫	6985
욬	6986
욭	6987
욮	6988
욯	6989
우	6990
욱	6991
욲	6992
욳	6993
운	6994
욵	6995
욶	6996
욷	6997
울	6998
욹	6999
욺	7000
욻	7001
욼	7002
욽	7003
욾	7004
욿	7005
움	7006
웁	7007
웂	7008
웃	7009
웄	7010
웅	7011
웆	7012
웇	7013
웈	7014
웉	7015
웊	7016
웋	7017
워	7018
웍	7019
웎	7020
웏	7021
원	7022
웑	7023
웒	7024
월	7025
웕	7026
웖	7027
웗	7028
웘	7029
웙	7030
웚	7031
웛	7032
웜	7033
웝	7034
웞	7035
웟	7036
웠	7037
웡	7038
웢	7039
웣	7040
웤	7041
웥	7042
웦	7043
웧	7044
웨	7045
웩	7046
웪	7047
웫	7048
웬	7049
웭	7050
웮	7051
웯	7052
웰	7053
웱	7054
웲	7055
웳	7056
웴	7057
웵	7058
웶	7059
웷	7060
웸	7061
웹	7062
웺	7063
웻	7064
웼	7065
웽	7066
웾	7067
웿	7068
윀	7069
윁	7070
윂	7071
윃	7072
위	7073
윅	7074
윆	7075
윇	7076
윈	7077
윉	7078
윊	7079
윋	7080
윌	7081
윍	7082
윎	7083
윏	7084
윐	7085
윑	7086
윒	7087
윓	7088
윔	7089
윕	7090
윖	7091
윗	7092
윘	7093
윙	7094
윚	7095
윛	7096
윜	7097
윝	7098
윞	7099
윟	7100
유	7101
육	7102
윢	7103
윣	7104
윤	7105
윥	7106
윦	7107
윧	7108
율	7109
윩	7110
윪	7111
윫	7112
윬	7113
윭	7114
윮	7115
윯	7116
윰	7117
윱	7118
윲	7119
윳	7120
윴	7121
융	7122
윶	7123
윷	7124
윸	7125
윹	7126
윺	7127
윻	7128
으	7129
윽	7130
윾	7131
윿	7132
은	7133
읁	7134
읂	7135
읃	7136
을	7137
읅	7138
읆	7139
읇	7140
읈	7141
읉	7142
읊	7143
읋	7144
음	7145
읍	7146
읎	7147
읏	7148
읐	7149
응	7150
읒	7151
읓	7152
읔	7153
읕	7154
읖	7155
읗	7156
의	7157
읙	7158
읚	7159
읛	7160
읜	7161
읝	7162
읞	7163
읟	7164
읠	7165
읡	7166
읢	7167
읣	7168
읤	7169
읥	7170
읦	7171
읧	7172
읨	7173
읩	7174
읪	7175
읫	7176
읬	7177
읭	7178
읮	7179
읯	7180
읰	7181
읱	7182
읲	7183
읳	7184
이	7185
익	7186
읶	7187
읷	7188
인	7189
읹	7190
읺	7191
읻	7192
일	7193
읽	7194
읾	7195
읿	7196
잀	7197
잁	7198
잂	7199
잃	7200
임	7201
입	7202
잆	7203
잇	7204
있	7205
잉	7206
잊	7207
잋	7208
잌	7209
잍	7210
잎	7211
잏	7212
자	7213
작	7214
잒	7215
잓	7216
잔	7217
잕	7218
잖	7219
잗	7220
잘	7221
잙	7222
잚	7223
잛	7224
잜	7225
잝	7226
잞	7227
잟	7228
잠	7229
잡	7230
잢	7231
잣	7232
장	7233
잦	7234
잧	7235
잨	7236
잩	7237
잪	7238
잫	7239
재	7240
잭	7241
잮	7242
잯	7243
잰	7244
잱	7245
잲	7246
잳	7247
잴	7248
잵	7249
잶	7250
잷	7251
잸	7252
잹	7253
잺	7254
잻	7255
잼	7256
잽	7257
잾	7258
잿	7259
쟁	7260
쟂	7261
쟃	7262
쟄	7263
쟅	7264
쟆	7265
쟇	7266
쟈	7267
쟉	7268
쟊	7269
쟋	7270
쟌	7271
쟍	7272
쟎	7273
쟏	7274
쟐	7275
쟑	7276
쟒	7277
쟓	7278
쟔	7279
쟕	7280
쟖	7281
쟗	7282
쟘	7283
쟙	7284
쟚	7285
쟛	7286
쟜	7287
쟝	7288
쟞	7289
쟟	7290
쟠	7291
쟡	7292
쟢	7293
쟣	7294
쟤	7295
쟥	7296
쟦	7297
쟧	7298
쟩	7299
쟪	7300
쟫	7301
쟬	7302
쟭	7303
쟮	7304
쟯	7305
쟰	7306
쟱	7307
쟲	7308
쟳	7309
쟴	7310
쟵	7311
쟶	7312
쟷	7313
쟸	7314
쟹	7315
쟺	7316
쟻	7317
쟼	7318
쟽	7319
쟾	7320
쟿	7321
저	7322
적	7323
젂	7324
젃	7325
전	7326
젅	7327
젆	7328
젇	7329
절	7330
젉	7331
젊	7332
젋	7333
젌	7334
젍	7335
젎	7336
젏	7337
점	7338
접	7339
젒	7340
젓	7341
젔	7342
정	7343
젖	7344
젗	7345
젘	7346
젙	7347
젚	7348
젛	7349
제	7350
젝	7351
젞	7352
젟	7353
젠	7354
젡	7355
젢	7356
젣	7357
젤	7358
젥	7359
젦	7360
젧	7361
젨	7362
젩	7363
젪	7364
젫	7365
젬	7366
젭	7367
젮	7368
젯	7369
젰	7370
젱	7371
젲	7372
젳	7373
젴	7374
젵	7375
젶	7376
젷	7377
져	7378
젹	7379
젺	7380
젻	7381
젼	7382
젽	7383
젾	7384
젿	7385
졀	7386
졁	7387
졂	7388
졃	7389
졄	7390
졅	7391
졆	7392
졇	7393
졈	7394
졉	7395
졊	7396
졋	7397
졌	7398
졍	7399
졎	7400
졏	7401
졐	7402
졑	7403
졒	7404
졓	7405
졔	7406
졕	7407
졖	7408
졗	7409
졘	7410
졙	7411
졚	7412
졛	7413
졜	7414
졝	7415
졞	7416
졟	7417
졠	7418
졡	7419
졢	7420
졣	7421
졤	7422
졥	7423
졦	7424
졧	7425
졨	7426
졩	7427
졪	7428
졫	7429
졬	7430
졭	7431
졮	7432
졯	7433
조	7434
족	7435
졲	7436
졳	7437
존	7438
졵	7439
졶	7440
졷	7441
졸	7442
졹	7443
졺	7444
졻	7445
졼	7446
졽	7447
졾	7448
졿	7449
좀	7450
좁	7451
좂	7452
좃	7453
좄	7454
종	7455
좆	7456
좇	7457
좈	7458
좉	7459
좊	7460
좋	7461
좌	7462
좍	7463
좎	7464
좏	7465
좐	7466
좑	7467
좒	7468
좓	7469
좔	7470
좕	7471
좖	7472
좗	7473
좘	7474
좙	7475
좚	7476
좛	7477
좜	7478
좝	7479
좞	7480
좟	7481
좠	7482
좡	7483
좢	7484
좣	7485
좤	7486
좥	7487
좦	7488
좧	7489
좨	7490
좩	7491
좪	7492
좫	7493
좬	7494
좭	7495
좮	7496
좯	7497
좰	7498
좱	7499
좲	7500
좳	7501
좴	7502
좵	7503
좶	7504
좷	7505
좸	7506
좹	7507
좺	7508
좻	7509
좼	7510
좽	7511
좾	7512
좿	7513
죀	7514
죁	7515
죂	7516
죃	7517
죄	7518
죅	7519
죆	7520
죇	7521
죈	7522
죉	7523
죊	7524
죋	7525
죌	7526
죍	7527
죎	7528
죏	7529
죐	7530
죑	7531
죒	7532
죓	7533
죔	7534
죕	7535
죖	7536
죗	7537
죙	7538
죚	7539
죛	7540
죜	7541
죝	7542
죞	7543
죟	7544
죠	7545
죡	7546
죢	7547
죣	7548
죤	7549
죥	7550
죦	7551
죧	7552
죨	7553
죩	7554
죪	7555
죫	7556
죬	7557
죭	7558
죮	7559
죯	7560
죰	7561
죱	7562
죲	7563
죳	7564
죴	7565
죵	7566
죶	7567
죷	7568
죸	7569
죹	7570
죺	7571
죻	7572
주	7573
죽	7574
죾	7575
죿	7576
준	7577
줁	7578
줂	7579
줃	7580
줄	7581
줅	7582
줆	7583
줇	7584
줈	7585
줉	7586
줊	7587
줋	7588
줌	7589
줍	7590
줎	7591
줏	7592
줐	7593
중	7594
줒	7595
줓	7596
줔	7597
줕	7598
줖	7599
줗	7600
줘	7601
줙	7602
줚	7603
줛	7604
줜	7605
줝	7606
줞	7607
줟	7608
줠	7609
줡	7610
줢	7611
줣	7612
줤	7613
줥	7614
줦	7615
줧	7616
줨	7617
줩	7618
줪	7619
줫	7620
줬	7621
줭	7622
줮	7623
줯	7624
줰	7625
줱	7626
줲	7627
줳	7628
줴	7629
줵	7630
줶	7631
줷	7632
줸	7633
줹	7634
줺	7635
줻	7636
줼	7637
줽	7638
줾	7639
줿	7640
쥀	7641
쥁	7642
쥂	7643
쥃	7644
쥄	7645
쥅	7646
쥆	7647
쥇	7648
쥈	7649
쥉	7650
쥊	7651
쥋	7652
쥌	7653
쥍	7654
쥎	7655
쥏	7656
쥐	7657
쥑	7658
쥒	7659
쥓	7660
쥔	7661
쥕	7662
쥖	7663
쥗	7664
쥘	7665
쥙	7666
쥚	7667
쥛	7668
쥜	7669
쥝	7670
쥞	7671
쥟	7672
쥠	7673
쥡	7674
쥢	7675
쥣	7676
쥤	7677
쥥	7678
쥦	7679
쥧	7680
쥨	7681
쥩	7682
쥪	7683
쥫	7684
쥬	7685
쥭	7686
쥮	7687
쥯	7688
쥰	7689
쥱	7690
쥲	7691
쥳	7692
쥴	7693
쥵	7694
쥶	7695
쥷	7696
쥸	7697
쥹	7698
쥺	7699
쥻	7700
쥼	7701
쥽	7702
쥾	7703
쥿	7704
즀	7705
즁	7706
즂	7707
즃	7708
즄	7709
즅	7710
즆	7711
즇	7712
즈	7713
즉	7714
즊	7715
즋	7716
즌	7717
즍	7718
즎	7719
즏	7720
즐	7721
즑	7722
즒	7723
즓	7724
즔	7725
즕	7726
즖	7727
즗	7728
즘	7729
즙	7730
즚	7731
즛	7732
즜	7733
증	7734
즞	7735
즟	7736
즠	7737
즡	7738
즢	7739
즣	7740
즤	7741
즥	7742
즦	7743
즧	7744
즨	7745
즩	7746
즪	7747
즫	7748
즬	7749
즭	7750
즮	7751
즯	7752
즰	7753
즱	7754
즲	7755
즳	7756
즴	7757
즵	7758
즶	7759
즷	7760
즸	7761
즹	7762
즺	7763
즻	7764
즼	7765
즽	7766
즾	7767
즿	7768
지	7769
직	7770
짂	7771
짃	7772
진	7773
짅	7774
짆	7775
짇	7776
질	7777
짉	7778
짊	7779
짋	7780
짌	7781
짍	7782
짎	7783
짏	7784
짐	7785
집	7786
짒	7787
짓	7788
짔	7789
징	7790
짖	7791
짗	7792
짘	7793
짙	7794
짚	7795
짛	7796
짜	7797
짝	7798
짞	7799
짟	7800
짠	7801
짡	7802
짢	7803
짣	7804
짤	7805
짥	7806
짦	7807
짧	7808
짨	7809
짩	7810
짪	7811
짫	7812
짬	7813
짭	7814
짮	7815
짯	7816
짱	7817
짲	7818
짳	7819
짴	7820
짵	7821
짶	7822
짷	7823
째	7824
짹	7825
짺	7826
짻	7827
짼	7828
짽	7829
짾	7830
짿	7831
쨀	7832
쨁	7833
쨂	7834
쨃	7835
쨄	7836
쨅	7837
쨆	7838
쨇	7839
쨈	7840
쨉	7841
쨊	7842
쨋	7843
쨌	7844
쨍	7845
쨎	7846
쨏	7847
쨐	7848
쨑	7849
쨒	7850
쨓	7851
쨔	7852
쨕	7853
쨖	7854
쨗	7855
쨘	7856
쨙	7857
쨚	7858
쨛	7859
쨜	7860
쨝	7861
쨞	7862
쨟	7863
쨠	7864
쨡	7865
쨢	7866
쨣	7867
쨤	7868
쨥	7869
쨦	7870
쨧	7871
쨨	7872
쨩	7873
쨪	7874
쨫	7875
쨬	7876
쨭	7877
쨮	7878
쨯	7879
쨰	7880
쨱	7881
쨲	7882
쨳	7883
쨴	7884
쨵	7885
쨶	7886
쨷	7887
쨸	7888
쨹	7889
쨺	7890
쨻	7891
쨼	7892
쨽	7893
쨾	7894
쨿	7895
쩀	7896
쩁	7897
쩂	7898
쩃	7899
쩄	7900
쩅	7901
쩆	7902
쩇	7903
쩈	7904
쩉	7905
쩊	7906
쩋	7907
쩌	7908
쩍	7909
쩎	7910
쩏	7911
쩐	7912
쩑	7913
쩒	7914
쩓	7915
쩔	7916
쩕	7917
쩖	7918
쩗	7919
쩘	7920
쩙	7921
쩚	7922
쩛	7923
쩜	7924
쩝	7925
쩞	7926
쩟	7927
쩠	7928
쩡	7929
쩢	7930
쩣	7931
쩤	7932
쩥	7933
쩦	7934
쩧	7935
쩨	7936
쩩	7937
쩪	7938
쩫	7939
쩬	7940
쩭	7941
쩮	7942
쩯	7943
쩰	7944
쩱	7945
쩲	7946
쩳	7947
쩴	7948
쩵	7949
쩶	7950
쩷	7951
쩸	7952
쩹	7953
쩺	7954
쩻	7955
쩼	7956
쩽	7957
쩾	7958
쩿	7959
쪀	7960
쪁	7961
쪂	7962
쪃	7963
쪄	7964
쪅	7965
쪆	7966
쪇	7967
쪈	7968
쪉	7969
쪊	7970
쪋	7971
쪌	7972
쪍	7973
쪎	7974
쪏	7975
쪐	7976
쪑	7977
쪒	7978
쪓	7979
쪔	7980
쪕	7981
쪖	7982
쪗	7983
쪘	7984
쪙	7985
쪚	7986
쪛	7987
쪜	7988
쪝	7989
쪞	7990
쪟	7991
쪠	7992
쪡	7993
쪢	7994
쪣	7995
쪤	7996
쪥	7997
쪦	7998
쪧	7999
쪨	8000
쪩	8001
쪪	8002
쪫	8003
쪬	8004
쪭	8005
쪮	8006
쪯	8007
쪰	8008
쪱	8009
쪲	8010
쪳	8011
쪴	8012
쪵	8013
쪶	8014
쪷	8015
쪸	8016
쪹	8017
쪺	8018
쪻	8019
쪼	8020
쪽	8021
쪾	8022
쪿	8023
쫀	8024
쫁	8025
쫂	8026
쫃	8027
쫄	8028
쫅	8029
쫆	8030
쫇	8031
쫈	8032
쫉	8033
쫊	8034
쫋	8035
쫌	8036
쫍	8037
쫎	8038
쫏	8039
쫐	8040
쫑	8041
쫒	8042
쫓	8043
쫔	8044
쫕	8045
쫖	8046
쫗	8047
쫘	8048
쫙	8049
쫚	8050
쫛	8051
쫜	8052
쫝	8053
쫞	8054
쫟	8055
쫠	8056
쫡	8057
쫢	8058
쫣	8059
쫤	8060
쫥	8061
쫦	8062
쫧	8063
쫨	8064
쫩	8065
쫪	8066
쫫	8067
쫭	8068
쫮	8069
쫯	8070
쫰	8071
쫱	8072
쫲	8073
쫳	8074
쫴	8075
쫵	8076
쫶	8077
쫷	8078
쫸	8079
쫹	8080
쫺	8081
쫻	8082
쫼	8083
쫽	8084
쫾	8085
쫿	8086
쬀	8087
쬁	8088
쬂	8089
쬃	8090
쬄	8091
쬅	8092
쬆	8093
쬇	8094
쬈	8095
쬉	8096
쬊	8097
쬋	8098
쬌	8099
쬍	8100
쬎	8101
쬏	8102
쬐	8103
쬑	8104
쬒	8105
쬓	8106
쬔	8107
쬕	8108
쬖	8109
쬗	8110
쬙	8111
쬚	8112
쬛	8113
쬜	8114
쬝	8115
쬞	8116
쬟	8117
쬡	8118
쬢	8119
쬣	8120
쬤	8121
쬥	8122
쬦	8123
쬧	8124
쬨	8125
쬩	8126
쬪	8127
쬫	8128
쬬	8129
쬭	8130
쬮	8131
쬯	8132
쬰	8133
쬱	8134
쬲	8135
쬳	8136
쬴	8137
쬵	8138
쬶	8139
쬷	8140
쬸	8141
쬹	8142
쬺	8143
쬻	8144
쬼	8145
쬽	8146
쬾	8147
쬿	8148
쭀	8149
쭁	8150
쭂	8151
쭃	8152
쭄	8153
쭅	8154
쭆	8155
쭇	8156
쭈	8157
쭉	8158
쭊	8159
쭋	8160
쭌	8161
쭍	8162
쭎	8163
쭏	8164
쭐	8165
쭑	8166
쭒	8167
쭓	8168
쭔	8169
쭕	8170
쭖	8171
쭗	8172
쭘	8173
쭙	8174
쭚	8175
쭛	8176
쭜	8177
쭝	8178
쭞	8179
쭟	8180
쭠	8181
쭡	8182
쭢	8183
쭣	8184
쭤	8185
쭥	8186
쭦	8187
쭧	8188
쭨	8189
쭩	8190
쭪	8191
쭫	8192
쭬	8193
쭭	8194
쭮	8195
쭯	8196
쭰	8197
쭱	8198
쭲	8199
쭳	8200
쭴	8201
쭵	8202
쭶	8203
쭷	8204
쭸	8205
쭹	8206
쭺	8207
쭻	8208
쭼	8209
쭽	8210
쭾	8211
쭿	8212
쮀	8213
쮁	8214
쮂	8215
쮃	8216
쮄	8217
쮅	8218
쮆	8219
쮇	8220
쮈	8221
쮉	8222
쮊	8223
쮋	8224
쮌	8225
쮍	8226
쮎	8227
쮏	8228
쮐	8229
쮑	8230
쮒	8231
쮓	8232
쮔	8233
쮕	8234
쮖	8235
쮗	8236
쮘	8237
쮙	8238
쮚	8239
쮛	8240
쮜	8241
쮝	8242
쮞	8243
쮟	8244
쮠	8245
쮡	8246
쮢	8247
쮣	8248
쮤	8249
쮥	8250
쮦	8251
쮧	8252
쮨	8253
쮩	8254
쮪	8255
쮫	8256
쮬	8257
쮭	8258
쮮	8259
쮯	8260
쮰	8261
쮱	8262
쮲	8263
쮳	8264
쮴	8265
쮵	8266
쮶	8267
쮷	8268
쮸	8269
쮹	8270
쮺	8271
쮻	8272
쮼	8273
쮽	8274
쮾	8275
쮿	8276
쯀	8277
쯁	8278
쯂	8279
쯃	8280
쯄	8281
쯅	8282
쯆	8283
쯇	8284
쯈	8285
쯉	8286
쯊	8287
쯋	8288
쯌	8289
쯍	8290
쯎	8291
쯏	8292
쯐	8293
쯑	8294
쯒	8295
쯓	8296
쯔	8297
쯕	8298
쯖	8299
쯗	8300
쯘	8301
쯙	8302
쯚	8303
쯛	8304
쯜	8305
쯝	8306
쯞	8307
쯟	8308
쯠	8309
쯡	8310
쯢	8311
쯣	8312
쯤	8313
쯥	8314
쯦	8315
쯧	8316
쯨	8317
쯩	8318
쯪	8319
쯫	8320
쯬	8321
쯭	8322
쯮	8323
쯯	8324
쯰	8325
쯱	8326
쯲	8327
쯳	8328
쯴	8329
쯵	8330
쯶	8331
쯷	8332
쯸	8333
쯹	8334
쯺	8335
쯻	8336
쯼	8337
쯽	8338
쯾	8339
쯿	8340
찀	8341
찁	8342
찂	8343
찃	8344
찄	8345
찅	8346
찆	8347
찇	8348
찈	8349
찉	8350
찊	8351
찋	8352
찌	8353
찍	8354
찎	8355
찏	8356
찐	8357
찑	8358
찒	8359
찓	8360
찔	8361
찕	8362
찖	8363
찗	8364
찘	8365
찙	8366
찚	8367
찛	8368
찜	8369
찝	8370
찞	8371
찟	8372
찠	8373
찡	8374
찢	8375
찣	8376
찤	8377
찥	8378
찦	8379
찧	8380
차	8381
착	8382
찪	8383
찫	8384
찬	8385
찭	8386
찮	8387
찯	8388
찰	8389
찱	8390
찲	8391
찳	8392
찴	8393
찵	8394
찶	8395
찷	8396
참	8397
찹	8398
찺	8399
찻	8400
창	8401
찾	8402
찿	8403
챀	8404
챁	8405
챂	8406
챃	8407
채	8408
책	8409
챆	8410
챇	8411
챈	8412
챉	8413
챊	8414
챋	8415
챌	8416
챍	8417
챎	8418
챏	8419
챐	8420
챑	8421
챒	8422
챓	8423
챔	8424
챕	8425
챖	8426
챗	8427
챘	8428
챙	8429
챚	8430
챛	8431
챜	8432
챝	8433
챞	8434
챟	8435
챠	8436
챡	8437
챢	8438
챣	8439
챤	8440
챥	8441
챦	8442
챧	8443
챨	8444
챩	8445
챪	8446
챫	8447
챬	8448
챭	8449
챮	8450
챯	8451
챰	8452
챱	8453
챲	8454
챳	8455
챴	8456
챵	8457
챶	8458
챷	8459
챸	8460
챹	8461
챺	8462
챻	8463
챼	8464
챽	8465
챾	8466
챿	8467
첀	8468
첁	8469
첂	8470
첃	8471
첄	8472
첅	8473
첆	8474
첇	8475
첈	8476
첉	8477
첊	8478
첋	8479
첌	8480
첍	8481
첎	8482
첏	8483
첐	8484
첑	8485
첒	8486
첓	8487
첔	8488
첕	8489
첖	8490
첗	8491
처	8492
척	8493
첚	8494
첛	8495
천	8496
첝	8497
첞	8498
첟	8499
철	8500
첡	8501
첢	8502
첣	8503
첤	8504
첥	8505
첦	8506
첧	8507
첨	8508
첩	8509
첪	8510
첫	8511
첬	8512
청	8513
첮	8514
첯	8515
첰	8516
첱	8517
첲	8518
첳	8519
체	8520
첵	8521
첶	8522
첷	8523
첸	8524
첹	8525
첺	8526
첻	8527
첼	8528
첽	8529
첾	8530
첿	8531
쳀	8532
쳁	8533
쳂	8534
쳃	8535
쳄	8536
쳅	8537
쳆	8538
쳇	8539
쳈	8540
쳉	8541
쳊	8542
쳋	8543
쳌	8544
쳍	8545
쳎	8546
쳏	8547
쳐	8548
쳑	8549
쳒	8550
쳓	8551
쳔	8552
쳕	8553
쳖	8554
쳗	8555
쳘	8556
쳙	8557
쳚	8558
쳛	8559
쳜	8560
쳝	8561
쳞	8562
쳟	8563
쳠	8564
쳡	8565
쳢	8566
쳣	8567
쳤	8568
쳥	8569
쳦	8570
쳧	8571
쳨	8572
쳩	8573
쳪	8574
쳫	8575
쳬	8576
쳭	8577
쳮	8578
쳯	8579
쳰	8580
쳱	8581
쳲	8582
쳳	8583
쳴	8584
쳵	8585
쳶	8586
쳷	8587
쳸	8588
쳹	8589
쳺	8590
쳻	8591
쳼	8592
쳽	8593
쳾	8594
쳿	8595
촀	8596
촁	8597
촂	8598
촃	8599
촄	8600
촅	8601
촆	8602
촇	8603
초	8604
촉	8605
촊	8606
촋	8607
촌	8608
촍	8609
촎	8610
촏	8611
촐	8612
촑	8613
촒	8614
촓	8615
촔	8616
촕	8617
촖	8618
촗	8619
촘	8620
촙	8621
촚	8622
촛	8623
촜	8624
총	8625
촞	8626
촟	8627
촠	8628
촡	8629
촢	8630
촣	8631
촤	8632
촥	8633
촦	8634
촧	8635
촨	8636
촩	8637
촪	8638
촫	8639
촬	8640
촭	8641
촮	8642
촯	8643
촰	8644
촱	8645
촲	8646
촳	8647
촴	8648
촵	8649
촶	8650
촷	8651
촸	8652
촹	8653
촺	8654
촻	8655
촼	8656
촽	8657
촾	8658
촿	8659
쵀	8660
쵁	8661
쵂	8662
쵃	8663
쵄	8664
쵅	8665
쵆	8666
쵇	8667
쵈	8668
쵉	8669
쵊	8670
쵋	8671
쵌	8672
쵍	8673
쵎	8674
쵏	8675
쵐	8676
쵑	8677
쵒	8678
쵓	8679
쵔	8680
쵕	8681
쵖	8682
쵗	8683
쵘	8684
쵙	8685
쵚	8686
쵛	8687
최	8688
쵝	8689
쵞	8690
쵟	8691
쵠	8692
쵡	8693
쵢	8694
쵣	8695
쵤	8696
쵥	8697
쵦	8698
쵧	8699
쵨	8700
쵩	8701
쵪	8702
쵫	8703
쵬	8704
쵭	8705
쵮	8706
쵯	8707
쵰	8708
쵱	8709
쵲	8710
쵳	8711
쵴	8712
쵵	8713
쵶	8714
쵷	8715
쵸	8716
쵹	8717
쵺	8718
쵻	8719
쵼	8720
쵽	8721
쵾	8722
쵿	8723
춀	8724
춁	8725
춂	8726
춃	8727
춄	8728
춅	8729
춆	8730
춇	8731
춈	8732
춉	8733
춊	8734
춋	8735
춌	8736
춍	8737
춎	8738
춏	8739
춐	8740
춑	8741
춒	8742
춓	8743
추	8744
축	8745
춖	8746
춗	8747
춘	8748
춙	8749
춚	8750
춛	8751
출	8752
춝	8753
춞	8754
춟	8755
춠	8756
춡	8757
춢	8758
춣	8759
춤	8760
춥	8761
춦	8762
춧	8763
춨	8764
충	8765
춪	8766
춫	8767
춬	8768
춭	8769
춮	8770
춯	8771
춰	8772
춱	8773
춲	8774
춳	8775
춴	8776
춵	8777
춶	8778
춷	8779
춸	8780
춹	8781
춺	8782
춻	8783
춼	8784
춽	8785
춾	8786
춿	8787
췀	8788
췁	8789
췂	8790
췃	8791
췄	8792
췅	8793
췆	8794
췇	8795
췈	8796
췉	8797
췊	8798
췋	8799
췌	8800
췍	8801
췎	8802
췏	8803
췐	8804
췑	8805
췒	8806
췓	8807
췔	8808
췕	8809
췖	8810
췗	8811
췘	8812
췙	8813
췚	8814
췛	8815
췜	8816
췝	8817
췞	8818
췟	8819
췠	8820
췡	8821
췢	8822
췣	8823
췤	8824
췥	8825
췦	8826
췧	8827
취	8828
췩	8829
췪	8830
췫	8831
췬	8832
췭	8833
췮	8834
췯	8835
췰	8836
췱	8837
췲	8838
췳	8839
췴	8840
췵	8841
췶	8842
췷	8843
췸	8844
췹	8845
췺	8846
췻	8847
췼	8848
췽	8849
췾	8850
췿	8851
츀	8852
츁	8853
츂	8854
츃	8855
츄	8856
츅	8857
츆	8858
츇	8859
츈	8860
츉	8861
츊	8862
츋	8863
츌	8864
츍	8865
츎	8866
츏	8867
츐	8868
츑	8869
츒	8870
츓	8871
츔	8872
츕	8873
츖	8874
츗	8875
츘	8876
츙	8877
츚	8878
츛	8879
츜	8880
츝	8881
츞	8882
츟	8883
츠	8884
측	8885
츢	8886
츣	8887
츤	8888
츥	8889
츦	8890
츧	8891
츨	8892
츩	8893
츪	8894
츫	8895
츬	8896
츭	8897
츮	8898
츯	8899
츰	8900
츱	8901
츲	8902
츳	8903
츴	8904
층	8905
츶	8906
츷	8907
츸	8908
츹	8909
츺	8910
츻	8911
츼	8912
츽	8913
츾	8914
츿	8915
칀	8916
칁	8917
칂	8918
칃	8919
칄	8920
칅	8921
칆	8922
칇	8923
칈	8924
칉	8925
칊	8926
칋	8927
칌	8928
칍	8929
칎	8930
칏	8931
칐	8932
칑	8933
칒	8934
칓	8935
칔	8936
칕	8937
칖	8938
칗	8939
치	8940
칙	8941
칚	8942
칛	8943
친	8944
칝	8945
칞	8946
칟	8947
칠	8948
칡	8949
칢	8950
칣	8951
칤	8952
칥	8953
칦	8954
칧	8955
침	8956
칩	8957
칪	8958
칫	8959
칬	8960
칭	8961
칮	8962
칯	8963
칰	8964
칱	8965
칲	8966
칳	8967
카	8968
칵	8969
칶	8970
칷	8971
칸	8972
칹	8973
칺	8974
칻	8975
칼	8976
칽	8977
칾	8978
칿	8979
캀	8980
캁	8981
캂	8982
캃	8983
캄	8984
캅	8985
캆	8986
캇	8987
캈	8988
캉	8989
캊	8990
캋	8991
캌	8992
캍	8993
캎	8994
캏	8995
캐	8996
캑	8997
캒	8998
캓	8999
캔	9000
캕	9001
캖	9002
캗	9003
캘	9004
캙	9005
캚	9006
캛	9007
캜	9008
캝	9009
캞	9010
캟	9011
캠	9012
캡	9013
캢	9014
캣	9015
캥	9016
캦	9017
캧	9018
캨	9019
캩	9020
캪	9021
캫	9022
캬	9023
캭	9024
캮	9025
캯	9026
캰	9027
캱	9028
캲	9029
캳	9030
캴	9031
캵	9032
캶	9033
캷	9034
캸	9035
캹	9036
캺	9037
캻	9038
캼	9039
캽	9040
캾	9041
캿	9042
컀	9043
컁	9044
컂	9045
컃	9046
컄	9047
컅	9048
컆	9049
컇	9050
컈	9051
컉	9052
컊	9053
컋	9054
컌	9055
컍	9056
컎	9057
컏	9058
컐	9059
컑	9060
컒	9061
컓	9062
컔	9063
컕	9064
컖	9065
컗	9066
컘	9067
컙	9068
컚	9069
컛	9070
컜	9071
컝	9072
컞	9073
컟	9074
컠	9075
컡	9076
컢	9077
컣	9078
커	9079
컥	9080
컦	9081
컧	9082
컨	9083
컩	9084
컪	9085
컫	9086
컬	9087
컭	9088
컮	9089
컯	9090
컰	9091
컱	9092
컲	9093
컳	9094
컴	9095
컵	9096
컶	9097
컷	9098
컹	9099
컺	9100
컻	9101
컼	9102
컽	9103
컾	9104
컿	9105
케	9106
켁	9107
켂	9108
켃	9109
켄	9110
켅	9111
켆	9112
켇	9113
켈	9114
켉	9115
켊	9116
켋	9117
켌	9118
켍	9119
켎	9120
켏	9121
켐	9122
켑	9123
켒	9124
켓	9125
켔	9126
켕	9127
켖	9128
켗	9129
켘	9130
켙	9131
켚	9132
켛	9133
켜	9134
켝	9135
켞	9136
켟	9137
켠	9138
켡	9139
켢	9140
켣	9141
켤	9142
켥	9143
켦	9144
켧	9145
켨	9146
켩	9147
켪	9148
켫	9149
켬	9150
켭	9151
켮	9152
켯	9153
켰	9154
켱	9155
켲	9156
켳	9157
켴	9158
켵	9159
켶	9160
켷	9161
켸	9162
켹	9163
켺	9164
켻	9165
켼	9166
켽	9167
켾	9168
켿	9169
콀	9170
콁	9171
콂	9172
콃	9173
콄	9174
콅	9175
콆	9176
콇	9177
콈	9178
콉	9179
콊	9180
콋	9181
콌	9182
콍	9183
콎	9184
콏	9185
콐	9186
콑	9187
콒	9188
콓	9189
코	9190
콕	9191
콖	9192
콗	9193
콘	9194
콙	9195
콚	9196
콛	9197
콜	9198
콝	9199
콞	9200
콟	9201
콠	9202
콡	9203
콢	9204
콣	9205
콤	9206
콥	9207
콦	9208
콧	9209
콨	9210
콩	9211
콪	9212
콫	9213
콬	9214
콭	9215
콮	9216
콯	9217
콰	9218
콱	9219
콲	9220
콳	9221
콴	9222
콵	9223
콶	9224
콷	9225
콸	9226
콹	9227
콺	9228
콻	9229
콼	9230
콽	9231
콾	9232
콿	9233
쾀	9234
쾁	9235
쾂	9236
쾃	9237
쾄	9238
쾅	9239
쾆	9240
쾇	9241
쾈	9242
쾉	9243
쾊	9244
쾋	9245
쾌	9246
쾍	9247
쾎	9248
쾏	9249
쾐	9250
쾑	9251
쾒	9252
쾓	9253
쾔	9254
쾕	9255
쾖	9256
쾗	9257
쾘	9258
쾙	9259
쾚	9260
쾛	9261
쾜	9262
쾝	9263
쾞	9264
쾟	9265
쾠	9266
쾡	9267
쾢	9268
쾣	9269
쾤	9270
쾥	9271
쾦	9272
쾧	9273
쾨	9274
쾩	9275
쾪	9276
쾫	9277
쾬	9278
쾭	9279
쾮	9280
쾯	9281
쾰	9282
쾱	9283
쾲	9284
쾳	9285
쾴	9286
쾵	9287
쾶	9288
쾷	9289
쾸	9290
쾹	9291
쾺	9292
쾻	9293
쾼	9294
쾽	9295
쾾	9296
쾿	9297
쿀	9298
쿁	9299
쿂	9300
쿃	9301
쿄	9302
쿅	9303
쿆	9304
쿇	9305
쿈	9306
쿉	9307
쿊	9308
쿋	9309
쿌	9310
쿍	9311
쿎	9312
쿏	9313
쿐	9314
쿑	9315
쿒	9316
쿓	9317
쿔	9318
쿕	9319
쿖	9320
쿗	9321
쿘	9322
쿙	9323
쿚	9324
쿛	9325
쿜	9326
쿝	9327
쿞	9328
쿟	9329
쿠	9330
쿡	9331
쿢	9332
쿣	9333
쿤	9334
쿥	9335
쿦	9336
쿧	9337
쿨	9338
쿩	9339
쿪	9340
쿫	9341
쿬	9342
쿭	9343
쿮	9344
쿯	9345
쿰	9346
쿱	9347
쿲	9348
쿳	9349
쿴	9350
쿵	9351
쿶	9352
쿷	9353
쿸	9354
쿹	9355
쿺	9356
쿻	9357
쿼	9358
쿽	9359
쿾	9360
쿿	9361
퀀	9362
퀁	9363
퀂	9364
퀃	9365
퀄	9366
퀅	9367
퀆	9368
퀇	9369
퀈	9370
퀉	9371
퀊	9372
퀋	9373
퀌	9374
퀍	9375
퀎	9376
퀏	9377
퀐	9378
퀑	9379
퀒	9380
퀓	9381
퀔	9382
퀕	9383
퀖	9384
퀗	9385
퀘	9386
퀙	9387
퀚	9388
퀛	9389
퀜	9390
퀝	9391
퀞	9392
퀟	9393
퀠	9394
퀡	9395
퀢	9396
퀣	9397
퀤	9398
퀥	9399
퀦	9400
퀧	9401
퀨	9402
퀩	9403
퀪	9404
퀫	9405
퀬	9406
퀭	9407
퀮	9408
퀯	9409
퀰	9410
퀱	9411
퀲	9412
퀳	9413
퀴	9414
퀵	9415
퀶	9416
퀷	9417
퀸	9418
퀹	9419
퀺	9420
퀻	9421
퀼	9422
퀽	9423
퀾	9424
퀿	9425
큀	9426
큁	9427
큂	9428
큃	9429
큄	9430
큅	9431
큆	9432
큇	9433
큈	9434
큉	9435
큊	9436
큋	9437
큌	9438
큍	9439
큎	9440
큏	9441
큐	9442
큑	9443
큒	9444
큓	9445
큔	9446
큕	9447
큖	9448
큗	9449
큘	9450
큙	9451
큚	9452
큛	9453
큜	9454
큝	9455
큞	9456
큟	9457
큠	9458
큡	9459
큢	9460
큣	9461
큤	9462
큥	9463
큦	9464
큧	9465
큨	9466
큩	9467
큪	9468
큫	9469
크	9470
큭	9471
큮	9472
큯	9473
큰	9474
큱	9475
큲	9476
큳	9477
클	9478
큵	9479
큶	9480
큷	9481
큸	9482
큹	9483
큺	9484
큻	9485
큼	9486
큽	9487
큾	9488
큿	9489
킀	9490
킁	9491
킂	9492
킃	9493
킄	9494
킅	9495
킆	9496
킇	9497
킈	9498
킉	9499
킊	9500
킋	9501
킌	9502
킍	9503
킎	9504
킏	9505
킐	9506
킑	9507
킒	9508
킓	9509
킔	9510
킕	9511
킖	9512
킗	9513
킘	9514
킙	9515
킚	9516
킛	9517
킜	9518
킝	9519
킞	9520
킟	9521
킠	9522
킡	9523
킢	9524
킣	9525
키	9526
킥	9527
킦	9528
킧	9529
킨	9530
킩	9531
킪	9532
킫	9533
킬	9534
킭	9535
킮	9536
킯	9537
킰	9538
킱	9539
킲	9540
킳	9541
킴	9542
킵	9543
킶	9544
킷	9545
킸	9546
킹	9547
킺	9548
킻	9549
킼	9550
킽	9551
킾	9552
킿	9553
타	9554
탁	9555
탂	9556
탃	9557
탄	9558
탅	9559
탆	9560
탇	9561
탈	9562
탉	9563
탊	9564
탋	9565
탌	9566
탍	9567
탎	9568
탏	9569
탐	9570
탑	9571
탒	9572
탓	9573
탔	9574
탕	9575
탖	9576
탗	9577
탘	9578
탙	9579
탚	9580
탛	9581
태	9582
택	9583
탞	9584
탟	9585
탠	9586
탡	9587
탢	9588
탣	9589
탤	9590
탥	9591
탦	9592
탧	9593
탨	9594
탩	9595
탪	9596
탫	9597
탬	9598
탭	9599
탮	9600
탯	9601
탰	9602
탱	9603
탲	9604
탳	9605
탴	9606
탵	9607
탶	9608
탷	9609
탸	9610
탹	9611
탺	9612
탻	9613
탼	9614
탽	9615
탾	9616
탿	9617
턀	9618
턁	9619
턂	9620
턃	9621
턄	9622
턅	9623
턆	9624
턇	9625
턈	9626
턉	9627
턊	9628
턋	9629
턌	9630
턍	9631
턎	9632
턏	9633
턐	9634
턑	9635
턒	9636
턓	9637
턔	9638
턕	9639
턖	9640
턗	9641
턘	9642
턙	9643
턚	9644
턛	9645
턜	9646
턝	9647
턞	9648
턟	9649
턠	9650
턡	9651
턢	9652
턣	9653
턤	9654
턥	9655
턦	9656
턧	9657
턨	9658
턩	9659
턪	9660
턫	9661
턬	9662
턭	9663
턮	9664
턯	9665
터	9666
턱	9667
턲	9668
턳	9669
턴	9670
턵	9671
턶	9672
턷	9673
털	9674
턹	9675
턺	9676
턻	9677
턼	9678
턽	9679
턾	9680
턿	9681
텀	9682
텁	9683
텂	9684
텃	9685
텅	9686
텆	9687
텇	9688
텈	9689
텉	9690
텊	9691
텋	9692
테	9693
텍	9694
텎	9695
텏	9696
텐	9697
텑	9698
텒	9699
텓	9700
텔	9701
텕	9702
텖	9703
텗	9704
텘	9705
텙	9706
텚	9707
텛	9708
템	9709
텝	9710
텞	9711
텟	9712
텠	9713
텡	9714
텢	9715
텣	9716
텤	9717
텥	9718
텦	9719
텧	9720
텨	9721
텩	9722
텪	9723
텫	9724
텬	9725
텭	9726
텮	9727
텯	9728
텰	9729
텱	9730
텲	9731
텳	9732
텴	9733
텵	9734
텶	9735
텷	9736
텸	9737
텹	9738
텺	9739
텻	9740
텼	9741
텽	9742
텾	9743
텿	9744
톀	9745
톁	9746
톂	9747
톃	9748
톄	9749
톅	9750
톆	9751
톇	9752
톈	9753
톉	9754
톊	9755
톋	9756
톌	9757
톍	9758
톎	9759
톏	9760
톐	9761
톑	9762
톒	9763
톓	9764
톔	9765
톕	9766
톖	9767
톗	9768
톘	9769
톙	9770
톚	9771
톛	9772
톜	9773
톝	9774
톞	9775
톟	9776
토	9777
톡	9778
톢	9779
톣	9780
톤	9781
톥	9782
톦	9783
톧	9784
톨	9785
톩	9786
톪	9787
톫	9788
톬	9789
톭	9790
톮	9791
톯	9792
톰	9793
톱	9794
톲	9795
톳	9796
톴	9797
통	9798
톶	9799
톷	9800
톸	9801
톹	9802
톺	9803
톻	9804
톼	9805
톽	9806
톾	9807
톿	9808
퇀	9809
퇁	9810
퇂	9811
퇃	9812
퇄	9813
퇅	9814
퇆	9815
퇇	9816
퇈	9817
퇉	9818
퇊	9819
퇋	9820
퇌	9821
퇍	9822
퇎	9823
퇏	9824
퇐	9825
퇑	9826
퇒	9827
퇓	9828
퇔	9829
퇕	9830
퇖	9831
퇗	9832
퇘	9833
퇙	9834
퇚	9835
퇛	9836
퇜	9837
퇝	9838
퇞	9839
퇟	9840
퇠	9841
퇡	9842
퇢	9843
퇣	9844
퇤	9845
퇥	9846
퇦	9847
퇧	9848
퇨	9849
퇩	9850
퇪	9851
퇫	9852
퇬	9853
퇭	9854
퇮	9855
퇯	9856
퇰	9857
퇱	9858
퇲	9859
퇳	9860
퇴	9861
퇵	9862
퇶	9863
퇷	9864
퇸	9865
퇹	9866
퇺	9867
퇻	9868
퇼	9869
퇽	9870
퇾	9871
퇿	9872
툀	9873
툁	9874
툂	9875
툃	9876
툄	9877
툅	9878
툆	9879
툇	9880
툈	9881
툉	9882
툊	9883
툋	9884
툌	9885
툍	9886
툎	9887
툏	9888
툐	9889
툑	9890
툒	9891
툓	9892
툔	9893
툕	9894
툖	9895
툗	9896
툘	9897
툙	9898
툚	9899
툛	9900
툜	9901
툝	9902
툞	9903
툟	9904
툠	9905
툡	9906
툢	9907
툣	9908
툤	9909
툥	9910
툦	9911
툧	9912
툨	9913
툩	9914
툪	9915
툫	9916
투	9917
툭	9918
툮	9919
툯	9920
툰	9921
툱	9922
툲	9923
툳	9924
툴	9925
툵	9926
툶	9927
툷	9928
툸	9929
툹	9930
툺	9931
툻	9932
툼	9933
툽	9934
툾	9935
툿	9936
퉀	9937
퉁	9938
퉂	9939
퉃	9940
퉄	9941
퉅	9942
퉆	9943
퉇	9944
퉈	9945
퉉	9946
퉊	9947
퉋	9948
퉌	9949
퉍	9950
퉎	9951
퉏	9952
퉐	9953
퉑	9954
퉒	9955
퉓	9956
퉔	9957
퉕	9958
퉖	9959
퉗	9960
퉘	9961
퉙	9962
퉚	9963
퉛	9964
퉜	9965
퉝	9966
퉞	9967
퉟	9968
퉠	9969
퉡	9970
퉢	9971
퉣	9972
퉤	9973
퉥	9974
퉦	9975
퉧	9976
퉨	9977
퉩	9978
퉪	9979
퉫	9980
퉬	9981
퉭	9982
퉮	9983
퉯	9984
퉰	9985
퉱	9986
퉲	9987
퉳	9988
퉴	9989
퉵	9990
퉶	9991
퉷	9992
퉸	9993
퉹	9994
퉺	9995
퉻	9996
퉼	9997
퉽	9998
퉾	9999
퉿	10000
튀	10001
튁	10002
튂	10003
튃	10004
튄	10005
튅	10006
튆	10007
튇	10008
튈	10009
튉	10010
튊	10011
튋	10012
튌	10013
튍	10014
튎	10015
튏	10016
튐	10017
튑	10018
튒	10019
튓	10020
튔	10021
튕	10022
튖	10023
튗	10024
튘	10025
튙	10026
튚	10027
튛	10028
튜	10029
튝	10030
튞	10031
튟	10032
튠	10033
튡	10034
튢	10035
튣	10036
튤	10037
튥	10038
튦	10039
튧	10040
튨	10041
튩	10042
튪	10043
튫	10044
튬	10045
튭	10046
튮	10047
튯	10048
튰	10049
튱	10050
튲	10051
튳	10052
튴	10053
튵	10054
튶	10055
튷	10056
트	10057
특	10058
튺	10059
튻	10060
튼	10061
튽	10062
튾	10063
튿	10064
틀	10065
틁	10066
틂	10067
틃	10068
틄	10069
틅	10070
틆	10071
틇	10072
틈	10073
틉	10074
틊	10075
틋	10076
틌	10077
틍	10078
틎	10079
틏	10080
틐	10081
틑	10082
틒	10083
틓	10084
틔	10085
틕	10086
틖	10087
틗	10088
틘	10089
틙	10090
틚	10091
틛	10092
틜	10093
틝	10094
틞	10095
틟	10096
틠	10097
틡	10098
틢	10099
틣	10100
틤	10101
틥	10102
틦	10103
틧	10104
틨	10105
틩	10106
틪	10107
틫	10108
틬	10109
틭	10110
틮	10111
틯	10112
티	10113
틱	10114
틲	10115
틳	10116
틴	10117
틵	10118
틶	10119
틷	10120
틸	10121
틹	10122
틺	10123
틻	10124
틼	10125
틽	10126
틾	10127
틿	10128
팀	10129
팁	10130
팂	10131
팃	10132
팄	10133
팅	10134
팆	10135
팇	10136
팈	10137
팉	10138
팊	10139
팋	10140
파	10141
팍	10142
팎	10143
팏	10144
판	10145
팑	10146
팒	10147
팓	10148
팔	10149
팕	10150
팖	10151
팗	10152
팘	10153
팙	10154
팚	10155
팛	10156
팜	10157
팝	10158
팞	10159
팟	10160
팠	10161
팡	10162
팢	10163
팣	10164
팤	10165
팥	10166
팦	10167
팧	10168
패	10169
팩	10170
팪	10171
팫	10172
팬	10173
팭	10174
팮	10175
팯	10176
팰	10177
팱	10178
팲	10179
팳	10180
팴	10181
팵	10182
팶	10183
팷	10184
팸	10185
팹	10186
팺	10187
팻	10188
팽	10189
팾	10190
팿	10191
퍀	10192
퍁	10193
퍂	10194
퍃	10195
퍄	10196
퍅	10197
퍆	10198
퍇	10199
퍈	10200
퍉	10201
퍊	10202
퍋	10203
퍌	10204
퍍	10205
퍎	10206
퍏	10207
퍐	10208
퍑	10209
퍒	10210
퍓	10211
퍔	10212
퍕	10213
퍖	10214
퍗	10215
퍘	10216
퍙	10217
퍚	10218
퍛	10219
퍜	10220
퍝	10221
퍞	10222
퍟	10223
퍠	10224
퍡	10225
퍢	10226
퍣	10227
퍤	10228
퍥	10229
퍦	10230
퍧	10231
퍨	10232
퍩	10233
퍪	10234
퍫	10235
퍬	10236
퍭	10237
퍮	10238
퍯	10239
퍰	10240
퍱	10241
퍲	10242
퍳	10243
퍴	10244
퍵	10245
퍶	10246
퍷	10247
퍸	10248
퍹	10249
퍺	10250
퍻	10251
퍼	10252
퍽	10253
퍾	10254
퍿	10255
펀	10256
펁	10257
펂	10258
펃	10259
펄	10260
펅	10261
펆	10262
펇	10263
펈	10264
펉	10265
펊	10266
펋	10267
펌	10268
펍	10269
펎	10270
펏	10271
펐	10272
펑	10273
펒	10274
펓	10275
펔	10276
펕	10277
펖	10278
펗	10279
페	10280
펙	10281
펚	10282
펛	10283
펜	10284
펝	10285
펞	10286
펟	10287
펠	10288
펡	10289
펢	10290
펣	10291
펤	10292
펥	10293
펦	10294
펧	10295
펨	10296
펩	10297
펪	10298
펫	10299
펬	10300
펭	10301
펮	10302
펯	10303
펰	10304
펱	10305
펲	10306
펳	10307
펴	10308
펵	10309
펶	10310
펷	10311
편	10312
펹	10313
펺	10314
펻	10315
펼	10316
펽	10317
펾	10318
펿	10319
폀	10320
폁	10321
폂	10322
폃	10323
폄	10324
폅	10325
폆	10326
폇	10327
평	10328
폊	10329
폋	10330
폌	10331
폍	10332
폎	10333
폏	10334
폐	10335
폑	10336
폒	10337
폓	10338
폔	10339
폕	10340
폖	10341
폗	10342
폘	10343
폙	10344
폚	10345
폛	10346
폜	10347
폝	10348
폞	10349
폟	10350
폠	10351
폡	10352
폢	10353
폣	10354
폤	10355
폥	10356
폦	10357
폧	10358
폨	10359
폩	10360
폪	10361
폫	10362
포	10363
폭	10364
폮	10365
폯	10366
폰	10367
폱	10368
폲	10369
폳	10370
폴	10371
폵	10372
폶	10373
폷	10374
폸	10375
폹	10376
폺	10377
폻	10378
폼	10379
폽	10380
폾	10381
폿	10382
퐀	10383
퐁	10384
퐂	10385
퐃	10386
퐄	10387
퐅	10388
퐆	10389
퐇	10390
퐈	10391
퐉	10392
퐊	10393
퐋	10394
퐌	10395
퐍	10396
퐎	10397
퐏	10398
퐐	10399
퐑	10400
퐒	10401
퐓	10402
퐔	10403
퐕	10404
퐖	10405
퐗	10406
퐘	10407
퐙	10408
퐚	10409
퐛	10410
퐜	10411
퐝	10412
퐞	10413
퐟	10414
퐠	10415
퐡	10416
퐢	10417
퐣	10418
퐤	10419
퐥	10420
퐦	10421
퐧	10422
퐨	10423
퐩	10424
퐪	10425
퐫	10426
퐬	10427
퐭	10428
퐮	10429
퐯	10430
퐰	10431
퐱	10432
퐲	10433
퐳	10434
퐴	10435
퐵	10436
퐶	10437
퐷	10438
퐸	10439
퐹	10440
퐺	10441
퐻	10442
퐼	10443
퐽	10444
퐾	10445
퐿	10446
푀	10447
푁	10448
푂	10449
푃	10450
푄	10451
푅	10452
푆	10453
푇	10454
푈	10455
푉	10456
푊	10457
푋	10458
푌	10459
푍	10460
푎	10461
푏	10462
푐	10463
푑	10464
푒	10465
푓	10466
푔	10467
푕	10468
푖	10469
푗	10470
푘	10471
푙	10472
푚	10473
푛	10474
표	10475
푝	10476
푞	10477
푟	10478
푠	10479
푡	10480
푢	10481
푣	10482
푤	10483
푥	10484
푦	10485
푧	10486
푨	10487
푩	10488
푪	10489
푫	10490
푬	10491
푭	10492
푮	10493
푯	10494
푰	10495
푱	10496
푲	10497
푳	10498
푴	10499
푵	10500
푶	10501
푷	10502
푸	10503
푹	10504
푺	10505
푻	10506
푼	10507
푽	10508
푾	10509
푿	10510
풀	10511
풁	10512
풂	10513
풃	10514
풄	10515
풅	10516
풆	10517
풇	10518
품	10519
풉	10520
풊	10521
풋	10522
풌	10523
풍	10524
풎	10525
풏	10526
풐	10527
풑	10528
풒	10529
풓	10530
풔	10531
풕	10532
풖	10533
풗	10534
풘	10535
풙	10536
풚	10537
풛	10538
풜	10539
풝	10540
풞	10541
풟	10542
풠	10543
풡	10544
풢	10545
풣	10546
풤	10547
풥	10548
풦	10549
풧	10550
풨	10551
풩	10552
풪	10553
풫	10554
풬	10555
풭	10556
풮	10557
풯	10558
풰	10559
풱	10560
풲	10561
풳	10562
풴	10563
풵	10564
풶	10565
풷	10566
풸	10567
풹	10568
풺	10569
풻	10570
풼	10571
풽	10572
풾	10573
풿	10574
퓀	10575
퓁	10576
퓂	10577
퓃	10578
퓄	10579
퓅	10580
퓆	10581
퓇	10582
퓈	10583
퓉	10584
퓊	10585
퓋	10586
퓌	10587
퓍	10588
퓎	10589
퓏	10590
퓐	10591
퓑	10592
퓒	10593
퓓	10594
퓔	10595
퓕	10596
퓖	10597
퓗	10598
퓘	10599
퓙	10600
퓚	10601
퓛	10602
퓜	10603
퓝	10604
퓞	10605
퓟	10606
퓠	10607
퓡	10608
퓢	10609
퓣	10610
퓤	10611
퓥	10612
퓦	10613
퓧	10614
퓨	10615
퓩	10616
퓪	10617
퓫	10618
퓬	10619
퓭	10620
퓮	10621
퓯	10622
퓰	10623
퓱	10624
퓲	10625
퓳	10626
퓴	10627
퓵	10628
퓶	10629
퓷	10630
퓸	10631
퓹	10632
퓺	10633
퓻	10634
퓼	10635
퓽	10636
퓾	10637
퓿	10638
픀	10639
픁	10640
픂	10641
픃	10642
프	10643
픅	10644
픆	10645
픇	10646
픈	10647
픉	10648
픊	10649
픋	10650
플	10651
픍	10652
픎	10653
픏	10654
픐	10655
픑	10656
픒	10657
픓	10658
픔	10659
픕	10660
픖	10661
픗	10662
픘	10663
픙	10664
픚	10665
픛	10666
픜	10667
픝	10668
픞	10669
픟	10670
픠	10671
픡	10672
픢	10673
픣	10674
픤	10675
픥	10676
픦	10677
픧	10678
픨	10679
픩	10680
픪	10681
픫	10682
픬	10683
픭	10684
픮	10685
픯	10686
픰	10687
픱	10688
픲	10689
픳	10690
픴	10691
픵	10692
픶	10693
픷	10694
픸	10695
픹	10696
픺	10697
픻	10698
피	10699
픽	10700
픾	10701
픿	10702
핀	10703
핁	10704
핂	10705
핃	10706
필	10707
핅	10708
핆	10709
핇	10710
핈	10711
핉	10712
핊	10713
핋	10714
핌	10715
핍	10716
핎	10717
핏	10718
핐	10719
핑	10720
핒	10721
핓	10722
핔	10723
핕	10724
핖	10725
핗	10726
하	10727
학	10728
핚	10729
핛	10730
한	10731
핝	10732
핞	10733
핟	10734
할	10735
핡	10736
핢	10737
핣	10738
핤	10739
핥	10740
핦	10741
핧	10742
함	10743
합	10744
핪	10745
핫	10746
핬	10747
항	10748
핮	10749
핯	10750
핰	10751
핱	10752
핲	10753
핳	10754
해	10755
핵	10756
핶	10757
핷	10758
핸	10759
핹	10760
핺	10761
핻	10762
핼	10763
핽	10764
핾	10765
핿	10766
햀	10767
햁	10768
햂	10769
햃	10770
햄	10771
햅	10772
햆	10773
햇	10774
했	10775
행	10776
햊	10777
햋	10778
햌	10779
햍	10780
햎	10781
햏	10782
햐	10783
햑	10784
햒	10785
햓	10786
햔	10787
햕	10788
햖	10789
햗	10790
햘	10791
햙	10792
햚	10793
햛	10794
햜	10795
햝	10796
햞	10797
햟	10798
햠	10799
햡	10800
햢	10801
햣	10802
햤	10803
향	10804
햦	10805
햧	10806
햨	10807
햩	10808
햪	10809
햫	10810
햬	10811
햭	10812
햮	10813
햯	10814
햰	10815
햱	10816
햲	10817
햳	10818
햴	10819
햵	10820
햶	10821
햷	10822
햸	10823
햹	10824
햺	10825
햻	10826
햼	10827
햽	10828
햾	10829
햿	10830
헁	10831
헂	10832
헃	10833
헄	10834
헅	10835
헆	10836
헇	10837
허	10838
헉	10839
헊	10840
헋	10841
헌	10842
헍	10843
헎	10844
헏	10845
헐	10846
헑	10847
헒	10848
헓	10849
헔	10850
헕	10851
헖	10852
헗	10853
험	10854
헙	10855
헚	10856
헛	10857
헝	10858
헞	10859
헟	10860
헠	10861
헡	10862
헢	10863
헣	10864
헤	10865
헥	10866
헦	10867
헧	10868
헨	10869
헩	10870
헪	10871
헫	10872
헬	10873
헭	10874
헮	10875
헯	10876
헰	10877
헱	10878
헲	10879
헳	10880
헴	10881
헵	10882
헶	10883
헷	10884
헹	10885
헺	10886
헻	10887
헼	10888
헽	10889
헾	10890
헿	10891
혀	10892
혁	10893
혂	10894
혃	10895
현	10896
혅	10897
혆	10898
혇	10899
혈	10900
혉	10901
혊	10902
혋	10903
혌	10904
혍	10905
혎	10906
혏	10907
혐	10908
협	10909
혒	10910
혓	10911
혔	10912
형	10913
혖	10914
혗	10915
혘	10916
혙	10917
혚	10918
혛	10919
혜	10920
혝	10921
혞	10922
혟	10923
혠	10924
혡	10925
혢	10926
혣	10927
혤	10928
혥	10929
혦	10930
혧	10931
혨	10932
혩	10933
혪	10934
혫	10935
혬	10936
혭	10937
혮	10938
혯	10939
혰	10940
혱	10941
혲	10942
혳	10943
혴	10944
혵	10945
혶	10946
혷	10947
호	10948
혹	10949
혺	10950
혻	10951
혼	10952
혽	10953
혾	10954
혿	10955
홀	10956
홁	10957
홂	10958
홃	10959
홄	10960
홅	10961
홆	10962
홇	10963
홈	10964
홉	10965
홊	10966
홋	10967
홌	10968
홍	10969
홎	10970
홏	10971
홐	10972
홑	10973
홒	10974
홓	10975
화	10976
확	10977
홖	10978
홗	10979
환	10980
홙	10981
홚	10982
홛	10983
활	10984
홝	10985
홞	10986
홟	10987
홠	10988
홡	10989
홢	10990
홣	10991
홤	10992
홥	10993
홦	10994
홧	10995
홨	10996
황	10997
홪	10998
홫	10999
홬	11000
홭	11001
홮	11002
홯	11003
홰	11004
홱	11005
홲	11006
홳	11007
홴	11008
홵	11009
홶	11010
홷	11011
홸	11012
홹	11013
홺	11014
홻	11015
홼	11016
홽	11017
홾	11018
홿	11019
횀	11020
횁	11021
횂	11022
횃	11023
횄	11024
횅	11025
횆	11026
횇	11027
횈	11028
횉	11029
횊	11030
횋	11031
회	11032
획	11033
횎	11034
횏	11035
횐	11036
횑	11037
횒	11038
횓	11039
횔	11040
횕	11041
횖	11042
횗	11043
횘	11044
횙	11045
횚	11046
횛	11047
횜	11048
횝	11049
횞	11050
횟	11051
횠	11052
횡	11053
횢	11054
횣	11055
횤	11056
횥	11057
횦	11058
횧	11059
효	11060
횩	11061
횪	11062
횫	11063
횬	11064
횭	11065
횮	11066
횯	11067
횰	11068
횱	11069
횲	11070
횳	11071
횴	11072
횵	11073
횶	11074
횷	11075
횸	11076
횹	11077
횺	11078
횻	11079
횼	11080
횽	11081
횾	11082
횿	11083
훀	11084
훁	11085
훂	11086
훃	11087
후	11088
훅	11089
훆	11090
훇	11091
훈	11092
훉	11093
훊	11094
훋	11095
훌	11096
훍	11097
훎	11098
훏	11099
훐	11100
훑	11101
훒	11102
훓	11103
훔	11104
훕	11105
훖	11106
훗	11107
훘	11108
훙	11109
훚	11110
훛	11111
훜	11112
훝	11113
훞	11114
훟	11115
훠	11116
훡	11117
훢	11118
훣	11119
훤	11120
훥	11121
훦	11122
훧	11123
훨	11124
훩	11125
훪	11126
훫	11127
훬	11128
훭	11129
훮	11130
훯	11131
훰	11132
훱	11133
훲	11134
훳	11135
훴	11136
훵	11137
훶	11138
훷	11139
훸	11140
훹	11141
훺	11142
훻	11143
훼	11144
훽	11145
훾	11146
훿	11147
휀	11148
휁	11149
휂	11150
휃	11151
휄	11152
휅	11153
휆	11154
휇	11155
휈	11156
휉	11157
휊	11158
휋	11159
휌	11160
휍	11161
휎	11162
휏	11163
휐	11164
휑	11165
휒	11166
휓	11167
휔	11168
휕	11169
휖	11170
휗	11171
휘	11172
휙	11173
휚	11174
휛	11175
휜	11176
휝	11177
휞	11178
휟	11179
휠	11180
휡	11181
휢	11182
휣	11183
휤	11184
휥	11185
휦	11186
휧	11187
휨	11188
휩	11189
휪	11190
휫	11191
휬	11192
휭	11193
휮	11194
휯	11195
휰	11196
휱	11197
휲	11198
휳	11199
휴	11200
휵	11201
휶	11202
휷	11203
휸	11204
휹	11205
휺	11206
휻	11207
휼	11208
휽	11209
휾	11210
휿	11211
흀	11212
흁	11213
흂	11214
흃	11215
흄	11216
흅	11217
흆	11218
흇	11219
흈	11220
흉	11221
흊	11222
흋	11223
흌	11224
흍	11225
흎	11226
흏	11227
흐	11228
흑	11229
흒	11230
흓	11231
흔	11232
흕	11233
흖	11234
흗	11235
흘	11236
흙	11237
흚	11238
흛	11239
흜	11240
흝	11241
흞	11242
흟	11243
흠	11244
흡	11245
흢	11246
흣	11247
흤	11248
흥	11249
흦	11250
흧	11251
흨	11252
흩	11253
흪	11254
흫	11255
희	11256
흭	11257
흮	11258
흯	11259
흰	11260
흱	11261
흲	11262
흳	11263
흵	11264
흶	11265
흷	11266
흸	11267
흹	11268
흺	11269
흻	11270
흼	11271
흽	11272
흾	11273
흿	11274
힀	11275
힁	11276
힂	11277
힃	11278
힄	11279
힅	11280
힆	11281
힇	11282
히	11283
힉	11284
힊	11285
힋	11286
힌	11287
힍	11288
힎	11289
힏	11290
힐	11291
힑	11292
힒	11293
힓	11294
힔	11295
힕	11296
힖	11297
힗	11298
힘	11299
힙	11300
힚	11301
힛	11302
힜	11303
힝	11304
힞	11305
힟	11306
힠	11307
힡	11308
힢	11309
힣	11310
##e	11311
##l	11312
##t	11313
##i	11314
##n	11315
##g	11316
##빙	11317
##사	11318
##N	11319
##R	11320
##P	11321
##h	11322
##o	11323
##w	11324
##r	11325
##7	11326
##0	11327
##6	11328
##2	11329
##4	11330
##지	11331
##a	11332
##d	11333
##y	11334
##8	11335
##5	11336
##3	11337
##1	11338
##9	11339
##팽	11340
##u	11341
##c	11342
##F	11343
##E	11344
##T	11345
##x	11346
##B	11347
##s	11348
##년	11349
##W	11350
##m	11351
##b	11352
##k	11353
##M	11354
##박	11355
##방	11356
##작	11357
##Y	11358
##A	11359
##K	11360
##S	11361
##U	11362
##경	11363
##C	11364
##만	11365
##아	11366
##묵	11367
##O	11368
##L	11369
##단	11370
##장	11371
##복	11372
##혜	11373
##V	11374
##오	11375
##냐	11376
##고	11377
##피	11378
##의	11379
##화	11380
##H	11381
##I	11382
##세	11383
##라	11384
##p	11385
##한	11386
##호	11387
##창	11388
##근	11389
##v	11390
##z	11391
##틀	11392
##거	11393
##리	11394
##D	11395
##X	11396
##ㄹ	11397
##에	11398
##가	11399
##이	11400
##클	11401
##크	11402
##램	11403
##상	11404
##일	11405
##/	11406
##뮤	11407
##얼	11408
##도	11409
##레	11410
##설	11411
##병	11412
##ㅕ	11413
##ㅀ	11414
##기	11415
##컥	11416
##벌	11417
##른	11418
##르	11419
##프	11420
##스	11421
##쪽	11422
##신	11423
##제	11424
##수	11425
##언	11426
##보	11427
##J	11428
##인	11429
##걸	11430
##찬	11431
##균	11432
##율	11433
##현	11434
##시	11435
##몬	11436
##f	11437
##배	11438
##선	11439
##반	11440
##코	11441
##식	11442
##준	11443
##니	11444
##미	11445
##강	11446
##나	11447
##를	11448
##글	11449
##즈	11450
##로	11451
##졌	11452
##다	11453
##송	11454
##유	11455
##취	11456
##각	11457
##론	11458
##하	11459
##던	11460
##잉	11461
##요	11462
##셉	11463
##문	11464
##범	11465
##Z	11466
##루	11467
##누	11468
##타	11469
##j	11470
##성	11471
##열	11472
##희	11473
##롱	11474
##업	11475
##자	11476
##와	11477
##ᅳ	11478
##ᄅ	11479
##ᅧ	11480
##ᄂ	11481
##ᅣ	11482
##콧	11483
##게	11484
##,	11485
##^	11486
##"	11487
##.	11488
##꼴	11489
##애	11490
##무	11491
##소	11492
##부	11493
##절	11494
##차	11495
##ㅂ	11496
##ㅡ	11497
##마	11498
##영	11499
##치	11500
##뜨	11501
##q	11502
##흥	11503
##정	11504
##패	11505
##술	11506
##음	11507
##민	11508
##혁	11509
##진	11510
##토	11511
##랑	11512
##공	11513
##원	11514
##팟	11515
##은	11516
##촉	11517
##블	11518
##펄	11519
##노	11520
##켄	11521
##을	11522
##산	11523
##워	11524
##드	11525
##막	11526
##전	11527
##란	11528
##엽	11529
##야	11530
##쪄	11531
##있	11532
##판	11533
##깃	11534
##멀	11535
##G	11536
##대	11537
##곤	11538
##주	11539
##천	11540
##개	11541
##손	11542
##칙	11543
##울	11544
##케	11545
##과	11546
##투	11547
##충	11548
##류	11549
##렌	11550
##트	11551
##랜	11552
##석	11553
##후	11554
##폐	11555
##물	11556
##봉	11557
##섭	11558
##환	11559
##급	11560
##중	11561
##침	11562
##뿌	11563
##는	11564
##본	11565
##형	11566
##족	11567
##불	11568
##욕	11569
##티	11570
##카	11571
##네	11572
##여	11573
##플	11574
##메	11575
##튬	11576
##징	11577
##으	11578
##면	11579
##슬	11580
##러	11581
##람	11582
##멘	11583
##연	11584
##테	11585
##맨	11586
##)	11587
##]	11588
##군	11589
##히	11590
##런	11591
##룩	11592
##버	11593
##암	11594
##관	11595
##납	11596
##짓	11597
##해	11598
##탄	11599
##베	11600
##양	11601
##%	11602
##}	11603
##낭	11604
##데	11605
##삼	11606
##승	11607
##국	11608
##건	11609
##달	11610
##키	11611
##항	11612
##답	11613
##두	11614
##머	11615
##=	11616
##_	11617
##?	11618
##구	11619
##쇼	11620
##바	11621
##서	11622
##망	11623
##감	11624
##용	11625
##비	11626
##볶	11627
##최	11628
##꽁	11629
##맹	11630
##위	11631
##칸	11632
##등	11633
##학	11634
##교	11635
##린	11636
##Q	11637
##딘	11638
##회	11639
##첩	11640
##모	11641
##파	11642
##림	11643
##계	11644
##톤	11645
##또	11646
##딩	11647
##'	11648
##우	11649
##츠	11650
##ᅢ	11651
##ᆻ	11652
##ᆫ	11653
##ᄃ	11654
##ᅦ	11655
##ᄋ	11656
##ᅭ	11657
##동	11658
##습	11659
##뵤	11660
##뵹	11661
##통	11662
##쉼	11663
##표	11664
##둥	11665
##궁	11666
##숭	11667
##셰	11668
##탠	11669
##디	11670
##툴	11671
##운	11672
##!	11673
##&	11674
##@	11675
##칼	11676
##갱	11677
##ㅌ	11678
##륭	11679
##ㅓ	11680
##ㄿ	11681
##훈	11682
##조	11683
##팔	11684
##옥	11685
##붕	11686
##들	11687
##약	11688
##순	11689
##였	11690
##센	11691
##흐	11692
##뀨	11693
##뮌	11694
##더	11695
##종	11696
##철	11697
##닝	11698
##턴	11699
##쿠	11700
##널	11701
##ㅄ	11702
##덴	11703
##포	11704
##탕	11705
##뉴	11706
##댓	11707
##칠	11708
##읍	11709
##ᅥ	11710
##ᆼ	11711
##어	11712
##견	11713
##킷	11714
##꽃	11715
##폰	11716
##튜	11717
##~	11718
##법	11719
##었	11720
##즐	11721
##쿤	11722
##둣	11723
##날	11724
##갈	11725
##뱉	11726
##햇	11727
##래	11728
##슈	11729
##퍼	11730
##홍	11731
##립	11732
##너	11733
##능	11734
##죽	11735
##ㅆ	11736
##ㅁ	11737
##참	11738
##안	11739
##질	11740
##틸	11741
##ㅘ	11742
##ㄶ	11743
##컹	11744
##덜	11745
##킬	11746
##걀	11747
##밥	11748
##압	11749
##역	11750
##때	11751
##터	11752
##료	11753
##찮	11754
##슨	11755
##당	11756
##틴	11757
##ㅏ	11758
##멜	11759
##[	11760
##\	11761
##$	11762
##갤	11763
##덕	11764
##룡	11765
##태	11766
##웅	11767
##웃	11768
##말	11769
##측	11770
##번	11771
##색	11772
##체	11773
##+	11774
##맥	11775
##채	11776
##홀	11777
##섬	11778
##매	11779
##쓰	11780
##난	11781
##힐	11782
##락	11783
##재	11784
##샤	11785
##릴	11786
##덤	11787
##콕	11788
##발	11789
##력	11790
##뇨	11791
##랭	11792
##점	11793
##내	11794
##엄	11795
##뾱	11796
##왼	11797
##청	11798
##축	11799
##렉	11800
##닉	11801
##페	11802
##ᄉ	11803
##엔	11804
##>	11805
##편	11806
##초	11807
##길	11808
##눙	11809
##쿨	11810
##증	11811
##ᅡ	11812
##ᄏ	11813
##ᄌ	11814
##ᅵ	11815
##악	11816
##션	11817
##굴	11818
##그	11819
##럼	11820
##예	11821
##규	11822
##곡	11823
##폼	11824
##렐	11825
##백	11826
##킼	11827
##푼	11828
##출	11829
##득	11830
##좌	11831
##*	11832
##살	11833
##롬	11834
##낙	11835
##눌	11836
##ㄴ	11837
##광	11838
##별	11839
##뢰	11840
##평	11841
##골	11842
##숙	11843
##짝	11844
##폭	11845
##온	11846
##ㅣ	11847
##빈	11848
##응	11849
##황	11850
##령	11851
##괘	11852
##링	11853
##춰	11854
##깔	11855
##왘	11856
##왕	11857
##새	11858
##총	11859
##ㅍ	11860
##굇	11861
##믈	11862
##금	11863
##쉏	11864
##렁	11865
##딜	11866
##펭	11867
##련	11868
##탁	11869
##생	11870
##목	11871
##됴	11872
##택	11873
##처	11874
##벼	11875
##흡	11876
##속	11877
##왓	11878
##김	11879
##퓨	11880
##독	11881
##겨	11882
##외	11883
##퀴	11884
##-	11885
##씨	11886
##탐	11887
##긍	11888
##빌	11889
##므	11890
##쑹	11891
##델	11892
##슷	11893
##앙	11894
##싼	11895
##량	11896
##름	11897
##댕	11898
##렬	11899
##핫	11900
##심	11901
##셩	11902
##:	11903
##쉬	11904
##극	11905
##켈	11906
##착	11907
##임	11908
##간	11909
###	11910
##젠	11911
##것	11912
##빵	11913
##챠	11914
##북	11915
##갑	11916
##싸	11917
##밀	11918
##봄	11919
##핍	11920
##ㅒ	11921
##(	11922
##텐	11923
##실	11924
##샨	11925
##샘	11926
##닐	11927
##춘	11928
##똔	11929
##헌	11930
##억	11931
##ㅜ	11932
##ㄵ	11933
##즙	11934
##릿	11935
##겸	11936
##록	11937
##촬	11938
##볼	11939
##텍	11940
##줄	11941
##쏠	11942
##저	11943
##ᄁ	11944
##ㅝ	11945
##먼	11946
##커	11947
##폴	11948
##쇄	11949
##웰	11950
##ㅇ	11951
##남	11952
##변	11953
##브	11954
##움	11955
##ᅩ	11956
##ᆨ	11957
##뎀	11958
##셀	11959
##뿍	11960
##넨	11961
##궤	11962
##직	11963
##친	11964
##익	11965
##펠	11966
##담	11967
##톨	11968
##행	11969
##ㅈ	11970
##돈	11971
##넷	11972
##삭	11973
##권	11974
##ㅊ	11975
##첸	11976
##룽	11977
##욱	11978
##몰	11979
##돔	11980
##ㄺ	11981
##ㅟ	11982
##ㄲ	11983
##렘	11984
##ㅅ	11985
##ㅋ	11986
##았	11987
##필	11988
##ㄾ	11989
##추	11990
##ㅑ	11991
##찌	11992
##ㅚ	11993
##책	11994
##탱	11995
##횡	11996
##적	11997
##앵	11998
##짱	11999
##쾨	12000
##꼬	12001
##져	12002
##ㄻ	12003
##굿	12004
##멋	12005
##몽	12006
##깨	12007
##ᄆ	12008
##갓	12009
##둔	12010
##즘	12011
##풍	12012
##퉁	12013
##덩	12014
##뼈	12015
##낚	12016
##댄	12017
##싱	12018
##솔	12019
##효	12020
##젤	12021
##왈	12022
##랙	12023
##논	12024
##죠	12025
##숨	12026
##힛	12027
##뒤	12028
##혐	12029
##까	12030
##명	12031
##맛	12032
##윤	12033
##째	12034
##콜	12035
##렙	12036
##놓	12037
##끼	12038
##협	12039
##볕	12040
##콘	12041
##닌	12042
##님	12043
##웨	12044
##탈	12045
##떡	12046
##혼	12047
##염	12048
##례	12049
##킨	12050
##층	12051
##핀	12052
##흓	12053
##빛	12054
##완	12055
##벤	12056
##되	12057
##며	12058
##쌤	12059
##셋	12060
##둘	12061
##험	12062
##룸	12063
##깐	12064
##뉼	12065
##셈	12066
##괵	12067
##녀	12068
##숑	12069
##릇	12070
##푸	12071
##ᅲ	12072
##ㄼ	12073
##잠	12074
##집	12075
##분	12076
##뗀	12077
##ㄱ	12078
##얀	12079
##돌	12080
##농	12081
##합	12082
##많	12083
##액	12084
##육	12085
##뎅	12086
##붙	12087
##틱	12088
##ᄀ	12089
##ᆯ	12090
##핵	12091
##왜	12092
##귀	12093
##`	12094
##삿	12095
##느	12096
##존	12097
##돗	12098
##ㅐ	12099
##ㅢ	12100
##꼼	12101
##힘	12102
##늬	12103
##알	12104
##귿	12105
##빠	12106
##띠	12107
##딱	12108
##찰	12109
##헤	12110
##븐	12111
##껍	12112
##올	12113
##윈	12114
##둑	12115
##<	12116
##픈	12117
##풀	12118
##헵	12119
##럭	12120
##줌	12121
##향	12122
##핸	12123
##허	12124
##랴	12125
##함	12126
##룬	12127
##객	12128
##얄	12129
##|	12130
##샴	12131
##못	12132
##렛	12133
##;	12134
##릭	12135
##톱	12136
##괄	12137
##밴	12138
##ᆺ	12139
##활	12140
##휘	12141
##끝	12142
##졸	12143
##삐	12144
##퓰	12145
##랄	12146
##갯	12147
##훙	12148
##념	12149
##엘	12150
##뚜	12151
##퇴	12152
##벨	12153
##굉	12154
##눈	12155
##헨	12156
##입	12157
##품	12158
##뿔	12159
##잔	12160
##펜	12161
##륀	12162
##겐	12163
##풉	12164
##결	12165
##큰	12166
##ᅮ	12167
##뭉	12168
##쉐	12169
##ㄽ	12170
##킁	12171
##쾅	12172
##큐	12173
##ㅔ	12174
##밭	12175
##껑	12176
##끔	12177
##ㅗ	12178
##죄	12179
##팅	12180
##앳	12181
##쮸	12182
##격	12183
##멍	12184
##톰	12185
##컬	12186
##ㅃ	12187
##냘	12188
##륙	12189
##랍	12190
##캄	12191
##톡	12192
##뜸	12193
##흣	12194
##획	12195
##괴	12196
##큠	12197
##뎃	12198
##뉘	12199
##팀	12200
##낵	12201
##럽	12202
##쉴	12203
##슾	12204
##롭	12205
##캡	12206
##쳐	12207
##닭	12208
##뚝	12209
##월	12210
##귤	12211
##몸	12212
##벅	12213
##앞	12214
##푀	12215
##할	12216
##탑	12217
##뻥	12218
##ㅎ	12219
##옆	12220
##밸	12221
##짤	12222
##쨩	12223
##퀼	12224
##얘	12225
##녹	12226
##받	12227
##흉	12228
##쥐	12229
##롤	12230
##쟁	12231
##ᄑ	12232
##십	12233
##ㅞ	12234
##츄	12235
##된	12236
##륜	12237
##랏	12238
##땜	12239
##잡	12240
##켓	12241
##휴	12242
##팩	12243
##쉠	12244
##쌈	12245
##쓸	12246
##ㅙ	12247
##쉘	12248
##넬	12249
##솜	12250
##멕	12251
##혀	12252
##뭇	12253
##텟	12254
##흠	12255
##웡	12256
##옌	12257
##빨	12258
##홈	12259
##칭	12260
##털	12261
##옹	12262
##닷	12263
##엌	12264
##툭	12265
##튀	12266
##듯	12267
##꾼	12268
##ㄷ	12269
##셔	12270
##든	12271
##뇌	12272
##검	12273
##룀	12274
##왑	12275
##{	12276
##롄	12277
##쯔	12278
##푹	12279
##려	12280
##캘	12281
##픔	12282
##꺘	12283
##퐁	12284
##텔	12285
##혔	12286
##튼	12287
##엉	12288
##팡	12289
##접	12290
##했	12291
##륵	12292
##섀	12293
##춤	12294
##랩	12295
##낫	12296
##땅	12297
##훼	12298
##킴	12299
##늘	12300
##흘	12301
##핑	12302
##벡	12303
##긔	12304
##ᆸ	12305
##척	12306
##잼	12307
##툰	12308
##겠	12309
##즌	12310
##쭈	12311
##쌋	12312
##캐	12313
##쑤	12314
##킵	12315
##ㅠ	12316
##융	12317
##룹	12318
##ㅛ	12319
##뵈	12320
##럐	12321
##쨰	12322
##템	12323
##첼	12324
##엇	12325
##써	12326
##렸	12327
##빗	12328
##ㅖ	12329
##짜	12330
##륨	12331
##끌	12332
##픽	12333
##큼	12334
##넌	12335
##윅	12336
##됨	12337
##쩐	12338
##벽	12339
##맞	12340
##멸	12341
##렴	12342
##뮨	12343
##킹	12344
##촌	12345
##큘	12346
##셜	12347
##윗	12348
##끄	12349
##옙	12350
##없	12351
##짖	12352
##쭉	12353
##닛	12354
##뤼	12355
##옵	12356
##잇	12357
##흔	12358
##께	12359
##핏	12360
##펫	12361
##턱	12362
##넛	12363
##긴	12364
##렝	12365
##률	12366
##뷸	12367
##ㄳ	12368
##촨	12369
##샹	12370
##퍄	12371
##핳	12372
##찐	12373
##겜	12374
##몆	12375
##앗	12376
##녕	12377
##녘	12378
##빰	12379
##뚠	12380
##촐	12381
##넥	12382
##확	12383
##났	12384
##겼	12385
##엠	12386
##묘	12387
##쟌	12388
##듄	12389
##겔	12390
##잘	12391
##렇	12392
##잖	12393
##슴	12394
##뻑	12395
##땃	12396
##맵	12397
##쿼	12398
##궐	12399
##같	12400
##쇽	12401
##쩌	12402
##럴	12403
##꾸	12404
##욘	12405
##첨	12406
##펩	12407
##홉	12408
##찹	12409
##솟	12410
##밟	12411
##숟	12412
##윾	12413
##쿄	12414
##젝	12415
##몫	12416
##헐	12417
##앟	12418
##쌓	12419
##값	12420
##윌	12421
##컷	12422
##훽	12423
##높	12424
##낸	12425
##훗	12426
##꿍	12427
##깡	12428
##럿	12429
##쭓	12430
##짧	12431
##굽	12432
##쌍	12433
##슭	12434
##뷰	12435
##곳	12436
##츙	12437
##핰	12438
##쇠	12439
##퍽	12440
##껠	12441
##뚱	12442
##컨	12443
##곱	12444
##짐	12445
##좁	12446
##쌀	12447
##볜	12448
##섯	12449
##붐	12450
##딕	12451
##젋	12452
##갛	12453
##몃	12454
##잭	12455
##캠	12456
##힉	12457
##슘	12458
##쫓	12459
##륄	12460
##넘	12461
##끈	12462
##읏	12463
##뜰	12464
##듭	12465
##콩	12466
##믓	12467
##낼	12468
##엥	12469
##늄	12470
##먹	12471
##냉	12472
##먀	12473
##냅	12474
##쭝	12475
##윽	12476
##따	12477
##뇽	12478
##냥	12479
##ㅉ	12480
##힌	12481
##릉	12482
##깟	12483
##쏘	12484
##빳	12485
##캣	12486
##겁	12487
##놀	12488
##뻣	12489
##낮	12490
##듬	12491
##솁	12492
##캅	12493
##젓	12494
##뤠	12495
##ㄸ	12496
##얌	12497
##콰	12498
##웍	12499
##뱀	12500
##뾰	12501
##녁	12502
##톈	12503
##밤	12504
##웩	12505
##멧	12506
##뎬	12507
##끗	12508
##믄	12509
##벳	12510
##껏	12511
##앉	12512
##왁	12513
##뱅	12514
##씬	12515
##웬	12516
##귄	12517
##뼸	12518
##뱡	12519
##몐	12520
##갖	12521
##슼	12522
##텡	12523
##뽀	12524
##셴	12525
##윳	12526
##햣	12527
##햐	12528
##꿰	12529
##겅	12530
##곽	12531
##갸	12532
##갠	12533
##곶	12534
##략	12535
##딸	12536
##꿏	12537
##엃	12538
##헣	12539
##헗	12540
##컼	12541
##탤	12542
##쩠	12543
##돼	12544
##찜	12545
##잎	12546
##썹	12547
##똑	12548
##삽	12549
##뤄	12550
##훔	12551
##흄	12552
##팥	12553
##닥	12554
##놈	12555
##츤	12556
##벙	12557
##췌	12558
##쟈	12559
##닿	12560
##펑	12561
##숏	12562
##윔	12563
##킥	12564
##땀	12565
##엣	12566
##붉	12567
##퀸	12568
##쭘	12569
##뿐	12570
##싯	12571
##깍	12572
##뼬	12573
##맡	12574
##밍	12575
##탓	12576
##쥔	12577
##휼	12578
##특	12579
##듳	12580
##덮	12581
##늅	12582
##힁	12583
##쎠	12584
##숍	12585
##쥬	12586
##펌	12587
##잣	12588
##꼽	12589
##삥	12590
##휀	12591
##뷔	12592
##텨	12593
##챈	12594
##깥	12595
##훤	12596
##샥	12597
##켕	12598
##럇	12599
##욧	12600
##츈	12601
##핤	12602
##뙈	12603
##씻	12604
##룰	12605
##옇	12606
##돠	12607
##맷	12608
##꺼	12609
##멈	12610
##씀	12611
##첵	12612
##봡	12613
##슐	12614
##셨	12615
##듈	12616
##댁	12617
##콤	12618
##밋	12619
##굼	12620
##혈	12621
##꺄	12622
##탬	12623
##렵	12624
##떼	12625
##밈	12626
##쌰	12627
##엮	12628
##랫	12629
##몇	12630
##즉	12631
##셸	12632
##뮐	12633
##쳇	12634
##좀	12635
##뇰	12636
##맣	12637
##릅	12638
##룻	12639
##칵	12640
##깬	12641
##묄	12642
##늪	12643
##뽁	12644
##맴	12645
##젬	12646
##뛰	12647
##홧	12648
##팎	12649
##ᅨ	12650
##쒕	12651
##짠	12652
##췅	12653
##숫	12654
##얃	12655
##넉	12656
##쉽	12657
##걱	12658
##쩨	12659
##렡	12660
##꿩	12661
##훅	12662
##뮴	12663
##괜	12664
##돕	12665
##쟤	12666
##츨	12667
##켬	12668
##쁴	12669
##쬬	12670
##쫀	12671
##섹	12672
##쌱	12673
##펀	12674
##봇	12675
##맘	12676
##캥	12677
##즑	12678
##팬	12679
##랸	12680
##끵	12681
##찡	12682
##젼	12683
##숄	12684
##꿋	12685
##흙	12686
##롯	12687
##깎	12688
##곗	12689
##팂	12690
##쌔	12691
##썩	12692
##텝	12693
##쁘	12694
##쪘	12695
##흑	12696
##샷	12697
##덱	12698
##왔	12699
##텀	12700
##뽜	12701
##팜	12702
##뻗	12703
##떨	12704
##팁	12705
##혹	12706
##돛	12707
##몌	12708
##띄	12709
##삡	12710
##샛	12711
##캔	12712
##ᄇ	12713
##옷	12714
##꽈	12715
##쓴	12716
##힝	12717
##넴	12718
##롮	12719
##뺴	12720
##썬	12721
##꽝	12722
##밌	12723
##븝	12724
##낰	12725
##썰	12726
##칫	12727
##봤	12728
##띵	12729
##뻐	12730
##쭤	12731
##켜	12732
##껄	12733
##듀	12734
##걔	12735
##꽊	12736
##곧	12737
##콥	12738
##찢	12739
##앤	12740
##놋	12741
##퀵	12742
##챰	12743
##컴	12744
##쾌	12745
##뮬	12746
##빅	12747
##겹	12748
##덧	12749
##찔	12750
##냬	12751
##빼	12752
##넣	12753
##쳉	12754
##빡	12755
##펙	12756
##슙	12757
##밑	12758
##싀	12759
##몀	12760
##숲	12761
##엑	12762
##챙	12763
##윙	12764
##궈	12765
##찟	12766
##텁	12767
##헥	12768
##땨	12769
##컵	12770
##헉	12771
##풔	12772
##뎌	12773
##눗	12774
##졀	12775
##챳	12776
##씁	12777
##튄	12778
##읭	12779
##딴	12780
##ᅪ	12781
##퉤	12782
##땡	12783
##툼	12784
##굵	12785
##쎄	12786
##낄	12787
##껰	12788
##뜩	12789
##쾡	12790
##삑	12791
##팝	12792
##촘	12793
##벗	12794
##ᆷ	12795
##ᇂ	12796
##뱃	12797
##훍	12798
##꿀	12799
##잽	12800
##앓	12801
##녜	12802
##얏	12803
##웁	12804
##ᄍ	12805
##샌	12806
##슥	12807
##붑	12808
##앨	12809
##헬	12810
##롸	12811
##멩	12812
##및	12813
##ᅯ	12814
##ᆮ	12815
##핟	12816
##쨌	12817
##꾹	12818
##뽕	12819
##팰	12820
##빤	12821
##콻	12822
##뵙	12823
##깅	12824
##믹	12825
##쫄	12826
##떠	12827
##쩜	12828
##뽈	12829
##딤	12830
##췃	12831
##눔	12832
##잆	12833
##픖	12834
##틊	12835
##똘	12836
##줏	12837
##꼭	12838
##텅	12839
##똥	12840
##춧	12841
##뢴	12842
##멱	12843
##묭	12844
##콸	12845
##뿛	12846
##겻	12847
##홰	12848
##뀍	12849
##댐	12850
##묻	12851
##눕	12852
##뷇	12853
##뙤	12854
##셥	12855
##쏨	12856
##캉	12857
##쑥	12858
##퉈	12859
##헛	12860
##풋	12861
##뎻	12862
##볐	12863
##졍	12864
##딪	12865
##냇	12866
##뜀	12867
##붓	12868
##듸	12869
##흿	12870
##닫	12871
##긋	12872
##껴	12873
##벵	12874
##잋	12875
##삯	12876
##듣	12877
##볏	12878
##덥	12879
##ᆭ	12880
##웠	12881
##ᅬ	12882
##낏	12883
##셒	12884
##쌩	12885
##췩	12886
##옘	12887
##찍	12888
##홋	12889
##쨔	12890
##퓌	12891
##죡	12892
##둬	12893
##쪼	12894
##괭	12895
##윰	12896
##폿	12897
##옴	12898
##퀄	12899
##튽	12900
##삠	12901
##챔	12902
##갚	12903
##뙇	12904
##휗	12905
##릎	12906
##랗	12907
##듫	12908
##퀑	12909
##쩍	12910
##뿗	12911
##늿	12912
##씹	12913
##뭏	12914
##눅	12915
##옛	12916
##꿈	12917
##쌉	12918
##븀	12919
##떳	12920
##쭐	12921
##ᄐ	12922
##둠	12923
##칯	12924
##뻘	12925
##귁	12926
##헼	12927
##퀘	12928
##갔	12929
##끓	12930
##ᄒ	12931
##곰	12932
##뜬	12933
##놏	12934
##콫	12935
##뭄	12936
##꽂	12937
##쵸	12938
##몹	12939
##뱌	12940
##뮈	12941
##솥	12942
##틈	12943
##궖	12944
##궫	12945
##궋	12946
##꽥	12947
##햄	12948
##쿰	12949
##쁜	12950
##쯤	12951
##랔	12952
##쫒	12953
##퍗	12954
##녯	12955
##뫼	12956
##젧	12957
##헑	12958
##쏭	12959
##볍	12960
##딥	12961
##쒀	12962
##늑	12963
##뜽	12964
##뾸	12965
##좆	12966
##씅	12967
##넹	12968
##릐	12969
##멬	12970
##밝	12971
##읖	12972
##뻔	12973
##낛	12974
##읷	12975
##덗	12976
##좡	12977
##뒬	12978
##젮	12979
##왒	12980
##늠	12981
##긱	12982
##딍	12983
##빔	12984
##셍	12985
##얗	12986
##깁	12987
##휵	12988
##긁	12989
##딧	12990
##웽	12991
##헴	12992
##좋	12993
##훠	12994
##뺨	12995
##앱	12996
##떤	12997
##핌	12998
##껀	12999
##닮	13000
##젱	13001
##쳤	13002
##픳	13003
##봐	13004
##츌	13005
##쫑	13006
##숀	13007
##갹	13008
##줘	13009
##뽄	13010
##텃	13011
##땐	13012
##캰	13013
##샵	13014
##씌	13015
##퐈	13016
##듐	13017
##멤	13018
##탸	13019
##쮜	13020
##뼤	13021
##낱	13022
##돋	13023
##짢	13024
##썷	13025
##쿙	13026
##땽	13027
##꼍	13028
##뵷	13029
##흫	13030
##뗔	13031
##겍	13032
##틋	13033
##꼮	13034
##켤	13035
##씰	13036
##븨	13037
##쒜	13038
##힡	13039
##엡	13040
##욤	13041
##싹	13042
##꺽	13043
##깽	13044
##핼	13045
##녤	13046
##롼	13047
##뽝	13048
##ᅤ	13049
##쨕	13050
##챌	13051
##앜	13052
##씩	13053
##칩	13054
##촹	13055
##벰	13056
##먁	13057
##멓	13058
##겆	13059
##걋	13060
##뙳	13061
##홂	13062
##떄	13063
##쳅	13064
##훑	13065
##큿	13066
##넵	13067
##쏀	13068
##슌	13069
##곀	13070
##짼	13071
##펔	13072
##냑	13073
##쌕	13074
##콴	13075
##녑	13076
##륍	13077
##쿵	13078
##렷	13079
##쫣	13080
##똵	13081
##뽧	13082
##꽑	13083
##뽭	13084
##썽	13085
##긇	13086
##흟	13087
##굥	13088
##퐝	13089
##뜻	13090
##밖	13091
##깜	13092
##씽	13093
##믿	13094
##쓱	13095
##헠	13096
##젴	13097
##쯱	13098
##쵹	13099
##탯	13100
##벩	13101
##펡	13102
##캬	13103
##왱	13104
##숩	13105
##냔	13106
##좔	13107
##걲	13108
##맙	13109
##댱	13110
##먗	13111
##푴	13112
##팍	13113
##댔	13114
##젯	13115
##픅	13116
##챱	13117
##죵	13118
##ᅴ	13119
##컄	13120
##뒑	13121
##뒓	13122
##옾	13123
##엪	13124
##웉	13125
##퉅	13126
##퓩	13127
##뚫	13128
##됐	13129
##늡	13130
##싣	13131
##ᅱ	13132
##ᅰ	13133
##뎨	13134
##츩	13135
##젊	13136
##먐	13137
##쩡	13138
##뺵	13139
##톄	13140
##홓	13141
##꿝	13142
##죤	13143
##깊	13144
##헝	13145
##쳑	13146
##뎐	13147
##즁	13148
##눼	13149
##뒥	13150
##맢	13151
##꿔	13152
##뇸	13153
##콬	13154
##뽓	13155
##쁨	13156
##벚	13157
##뚤	13158
##폕	13159
##쭙	13160
##짚	13161
##쩬	13162
##늙	13163
##뺑	13164
##푈	13165
##넓	13166
##숴	13167
##챦	13168
##줴	13169
##뀌	13170
##춉	13171
##읓	13172
##즛	13173
##췄	13174
##엿	13175
##탵	13176
##곁	13177
##짞	13178
##뿎	13179
##얫	13180
##뒨	13181
##쁅	13182
##뺡	13183
##뗡	13184
##쎃	13185
##ᄊ	13186
##놉	13187
##튐	13188
##꿇	13189
##될	13190
##룟	13191
##꼈	13192
##뼥	13193
##댈	13194
##흰	13195
##겋	13196
##엾	13197
##팻	13198
##솽	13199
##냄	13200
##쳣	13201
##뉨	13202
##헱	13203
##롻	13204
##쇳	13205
##쬷	13206
##홅	13207
##욿	13208
##쌻	13209
##풇	13210
##짹	13211
##롇	13212
##쀼	13213
##횔	13214
##쳄	13215
##찧	13216
##잍	13217
##않	13218
##왉	13219
##밧	13220
##햅	13221
##춋	13222
##믐	13223
##땝	13224
##캌	13225
##겟	13226
##샅	13227
##헿	13228
##쨥	13229
##챤	13230
##앰	13231
##웹	13232
##랕	13233
##쑈	13234
##슶	13235
##닙	13236
##틍	13237
##쯕	13238
##캇	13239
##늦	13240
##즤	13241
##쯧	13242
##뜳	13243
##틔	13244
##맑	13245
##쓔	13246
##쓩	13247
##쒸	13248
##롷	13249
##릏	13250
##뉵	13251
##쑝	13252
##꺅	13253
##쭵	13254
##뷉	13255
##썸	13256
##쁐	13257
##틷	13258
##믌	13259
##븟	13260
##랒	13261
##넽	13262
##챗	13263
##뿡	13264
##늏	13265
##솰	13266
##싰	13267
##띤	13268
##켚	13269
##뿀	13270
##툐	13271
##싕	13272
##흇	13273
##욷	13274
##뷘	13275
##뒷	13276
##퍝	13277
##퀀	13278
##샐	13279
##뿅	13280
##뇬	13281
##늉	13282
##졔	13283
##퐳	13284
##젭	13285
##빚	13286
##끊	13287
##폄	13288
##돩	13289
##쟝	13290
##큣	13291
##핥	13292
##죌	13293
##촤	13294
##쥰	13295
##젖	13296
##탉	13297
##찻	13298
##뻬	13299
##읽	13300
##읅	13301
##맓	13302
##싧	13303
##댋	13304
##삷	13305
##핿	13306
##줊	13307
##셟	13308
##섧	13309
##갊	13310
##핣	13311
##닚	13312
##닧	13313
##쨍	13314
##휠	13315
##헷	13316
##뒝	13317
##쁑	13318
##껙	13319
##쉰	13320
##츼	13321
##삗	13322
##덿	13323
##엤	13324
##랆	13325
##샄	13326
##슛	13327
##쬽	13328
##좂	13329
##쁠	13330
##헹	13331
##푯	13332
##깤	13333
##욜	13334
##킄	13335
##탭	13336
##빽	13337
##혬	13338
##읗	13339
##샬	13340
##닏	13341
##삧	13342
##펨	13343
##셤	13344
##떻	13345
##뿜	13346
##섴	13347
##벜	13348
##잨	13349
##쨘	13350
##믕	13351
##뚧	13352
##껫	13353
##낌	13354
##꾀	13355
##깻	13356
##늰	13357
##뒁	13358
##둴	13359
##퓔	13360
##툠	13361
##훌	13362
##귓	13363
##쉟	13364
##렣	13365
##횽	13366
##꺢	13367
##삶	13368
##웟	13369
##뜯	13370
##갗	13371
##팈	13372
##캑	13373
##ᄎ	13374
##꾿	13375
##빱	13376
##쿡	13377
##뿁	13378
##엏	13379
##젏	13380
##폵	13381
##숧	13382
##햑	13383
##퓻	13384
##뻡	13385
##벞	13386
##윷	13387
##꼐	13388
##긿	13389
##줬	13390
##볘	13391
##롓	13392
##둡	13393
##튕	13394
##첬	13395
##뱔	13396
##훕	13397
##뎍	13398
##뀽	13399
##냈	13400
##솝	13401
##곯	13402
##쨋	13403
##뺩	13404
##덟	13405
##녈	13406
##떰	13407
##쥠	13408
##꿘	13409
##읶	13410
##셭	13411
##놑	13412
##룍	13413
##흧	13414
##섞	13415
##믜	13416
##겡	13417
##싁	13418
##듥	13419
##옐	13420
##낑	13421
##뎡	13422
##ᄄ	13423
##휏	13424
##켠	13425
##캭	13426
##괏	13427
##딛	13428
##쥽	13429
##횻	13430
##벲	13431
##캆	13432
##헙	13433
##쀏	13434
##뿟	13435
##횩	13436
##끜	13437
##엗	13438
##눟	13439
##윿	13440
##엓	13441
##떵	13442
##푠	13443
##뽑	13444
##썄	13445
##곖	13446
##쵮	13447
##곲	13448
##읪	13449
##줍	13450
##놔	13451
##롑	13452
##볫	13453
##깝	13454
##휙	13455
##륷	13456
##옺	13457
##즹	13458
##깄	13459
##욣	13460
##횟	13461
##엎	13462
##걍	13463
##맺	13464
##쉔	13465
##솹	13466
##켐	13467
##됸	13468
##곬	13469
##읔	13470
##퓍	13471
##폔	13472
##츳	13473
##슆	13474
##엨	13475
##빧	13476
##쏴	13477
##쌥	13478
##궃	13479
##휭	13480
##뇩	13481
##슝	13482
##솀	13483
##셧	13484
##뼛	13485
##둍	13486
##쳰	13487
##핱	13488
##벱	13489
##묜	13490
##넡	13491
##캎	13492
##뒫	13493
##륶	13494
##돚	13495
##켸	13496
##촷	13497
##픋	13498
##뒿	13499
##흩	13500
##젹	13501
##뺘	13502
##댜	13503
##앍	13504
##쑨	13505
##얔	13506
##흗	13507
##꿨	13508
##댸	13509
##훓	13510
##튿	13511
##딨	13512
##촙	13513
##죳	13514
##툿	13515
##쏜	13516
##솨	13517
##롹	13518
##낪	13519
##밊	13520
##뫙	13521
##겉	13522
##맄	13523
##툉	13524
##댑	13525
##엙	13526
##챞	13527
##밣	13528
##둗	13529
##꺵	13530
##룝	13531
##똏	13532
##걷	13533
##왐	13534
##튤	13535
##뤂	13536
##멦	13537
##뤨	13538
##톳	13539
##뺏	13540
##꼰	13541
##쯋	13542
##짇	13543
##쟉	13544
##릣	13545
##챃	13546
##쉡	13547
##괂	13548
##읳	13549
##잌	13550
##좇	13551
##튝	13552
##꼿	13553
##낀	13554
##튠	13555
##뱐	13556
##냟	13557
##퉱	13558
##끍	13559
##휽	13560
##끠	13561
##숎	13562
##굄	13563
##칰	13564
##녠	13565
##뛣	13566
##홣	13567
##꾫	13568
##촵	13569
##뢸	13570
##큥	13571
##괼	13572
##깈	13573
##껌	13574
##뚯	13575
##셕	13576
##쏙	13577
##쪠	13578
##뀩	13579
##덫	13580
##겿	13581
##췻	13582
##붘	13583
##뵥	13584
##떽	13585
##쥣	13586
##찾	13587
##뺅	13588
##띨	13589
##뭐	13590
##펍	13591
##팃	13592
##삣	13593
##믁	13594
##웻	13595
##뼉	13596
##챨	13597
##웳	13598
##쉥	13599
##챘	13600
##괸	13601
##훟	13602
##줆	13603
##갬	13604
##쉑	13605
##꾜	13606
##뗘	13607
##먕	13608
##ᆩ	13609
##쿸	13610
##쳬	13611
##쬴	13612
##됼	13613
##굑	13614
##뭬	13615
##팸	13616
##닯	13617
##쒹	13618
##돓	13619
##봬	13620
##싐	13621
##샇	13622
##곈	13623
##펴	13624
##긤	13625
##쯩	13626
##봙	13627
##뢔	13628
##쮝	13629
##웗	13630
##뛃	13631
##꽯	13632
##켁	13633
##땛	13634
##갉	13635
##숕	13636
##낳	13637
##냠	13638
##긧	13639
##붹	13640
##쥭	13641
##큽	13642
##폘	13643
##읋	13644
##뷀	13645
##퀠	13646
##홝	13647
##콣	13648
##칡	13649
##숯	13650
##쎔	13651
##잏	13652
##쾰	13653
##좍	13654
##죔	13655
##윱	13656
##닑	13657
##솩	13658
##쎌	13659
##넝	13660
##싴	13661
##냏	13662
##ᄈ	13663
##뺙	13664
##뤵	13665
##잰	13666
##똬	13667
##픠	13668
##숱	13669
##쏼	13670
##쪨	13671
##얽	13672
##뻉	13673
##얹	13674
##닜	13675
##썝	13676
##뿉	13677
##먄	13678
##쌜	13679
##룔	13680
##쿳	13681
##쯉	13682
##꺠	13683
##걕	13684
##퓸	13685
##찓	13686
##뤽	13687
##븍	13688
##뫄	13689
##뿝	13690
##ᆹ	13691
##뷜	13692
##쥴	13693
##겕	13694
##큄	13695
##씉	13696
##쑼	13697
##툵	13698
##훨	13699
##끅	13700
##킦	13701
##끾	13702
##옳	13703
##뎁	13704
##낟	13705
##깩	13706
##짘	13707
##잿	13708
##묑	13709
##섕	13710
##쯸	13711
##붸	13712
##띙	13713
##뜵	13714
##꽉	13715
##꽐	13716
##힠	13717
##썻	13718
##롫	13719
##낯	13720
##닼	13721
##릯	13722
##쩔	13723
##윘	13724
##눤	13725
##쏫	13726
##훳	13727
##굘	13728
##혠	13729
##컿	13730
##쬲	13731
##퀜	13732
##뇻	13733
##뇾	13734
##맠	13735
##윕	13736
##끽	13737
##솅	13738
##츔	13739
##랣	13740
##땗	13741
##삘	13742
##됬	13743
##쏚	13744
##얭	13745
##둙	13746
##췍	13747
##볈	13748
##챝	13749
##픤	13750
##긑	13751
##핲	13752
##캢	13753
##욦	13754
##륑	13755
##쫜	13756
##귱	13757
##봊	13758
##쵁	13759
##쿶	13760
##홱	13761
##긕	13762
##꿉	13763
##꼇	13764
##좟	13765
##됭	13766
##덞	13767
##컫	13768
##귪	13769
##궸	13770
##궭	13771
##궼	13772
##덯	13773
##벧	13774
##겧	13775
##슢	13776
##랐	13777
##퀌	13778
##쟘	13779
##눝	13780
##퇗	13781
##햟	13782
##뗏	13783
##닢	13784
##윹	13785
##좹	13786
##뤩	13787
##뚀	13788
##싶	13789
##쩝	13790
##쟙	13791
##횞	13792
##삾	13793
##콦	13794
##맫	13795
##벓	13796
##쐐	13797
##귖	13798
##궺	13799
##긲	13800
##깒	13801
##깛	13802
##긛	13803
##츰	13804
##뉻	13805
##솎	13806
##붚	13807
##먏	13808
##쉭	13809
##펐	13810
##윻	13811
##샙	13812
##탹	13813
##땍	13814
##빖	13815
##꺾	13816
##욋	13817
##뵐	13818
##퍅	13819
##묺	13820
##홥	13821
##붛	13822
##숌	13823
##틉	13824
##퇵	13825
##댠	13826
##쥿	13827
##껒	13828
##촥	13829
##닦	13830
##췽	13831
##귝	13832
##뀫	13833
##햏	13834
##튺	13835
##앚	13836
##뷓	13837
##읒	13838
##픨	13839
##쫙	13840
##슉	13841
##넙	13842
##룐	13843
##꽤	13844
##빎	13845
##뻴	13846
##끤	13847
##옿	13848
##쥥	13849
##퇀	13850
##끨	13851
##쁶	13852
##킳	13853
##툇	13854
##붱	13855
##곻	13856
##얶	13857
##푝	13858
##큪	13859
##핔	13860
##맏	13861
##퐄	13862
##뺭	13863
##볓	13864
##웝	13865
##꺕	13866
##낲	13867
##뺌	13868
##좐	13869
##봫	13870
##삜	13871
##휩	13872
##홑	13873
##쮹	13874
##쭌	13875
##뢍	13876
##뽱	13877
##춸	13878
##듧	13879
##굣	13880
##챡	13881
##괆	13882
##쑜	13883
##핡	13884
##꿎	13885
##겴	13886
##뒈	13887
##볽	13888
##삮	13889
##밐	13890
##갰	13891
##툽	13892
##젔	13893
##왂	13894
##릘	13895
##랰	13896
##홐	13897
##줜	13898
##왇	13899
##렀	13900
##뺀	13901
##냌	13902
##냣	13903
##띔	13904
##웈	13905
##툑	13906
##괧	13907
##퇸	13908
##텤	13909
##킅	13910
##쾃	13911
##뷴	13912
##횅	13913
##혓	13914
##섶	13915
##푱	13916
##춱	13917
##퐐	13918
##쵠	13919
##봅	13920
##쎈	13921
##	13922
##컭	13923
##셣	13924
##띰	13925
##묶	13926
##븓	13927
##킈	13928
##듕	13929
##웜	13930
##쌘	13931
##햘	13932
##횸	13933
##쬐	13934
##끙	13935
##깏	13936
##좨	13937
##꽌	13938
##돤	13939
##츹	13940
##뭔	13941
##탼	13942
##츺	13943
##믱	13944
##뤙	13945
##밉	13946
##옠	13947
##띡	13948
##엒	13949
##끕	13950
##땁	13951
##씤	13952
##췁	13953
##얇	13954
##돖	13955
##싮	13956
##밦	13957
##갷	13958
##뿮	13959
##뱦	13960
##뼜	13961
##떈	13962
##촛	13963
##쏟	13964
##삒	13965
##쩧	13966
##냫	13967
##룳	13968
##뭭	13969
##뫟	13970
##랖	13971
##랠	13972
##닻	13973
##펼	13974
##왧	13975
##뷃	13976
##빕	13977
##쏩	13978
##밻	13979
##샒	13980
##귐	13981
##랃	13982
##쟣	13983
##댬	13984
##쁌	13985
##듦	13986
##뫞	13987
##뿷	13988
##땞	13989
##밪	13990
##뒗	13991
##렜	13992
##됵	13993
##롊	13994
##쭁	13995
##껚	13996
##듶	13997
##똠	13998
##딫	13999
##퉷	14000
##밗	14001
##헯	14002
##쭀	14003
##쥩	14004
##켰	14005
##띾	14006
##떅	14007
##쳌	14008
##쉿	14009
##뎋	14010
##솬	14011
##촾	14012
##뜝	14013
##씍	14014
##뼝	14015
##옻	14016
##뿨	14017
##쟛	14018
##굠	14019
##풮	14020
##섈	14021
##둈	14022
##뾘	14023
##썅	14024
##쿱	14025
##쭊	14026
##줛	14027
##놗	14028
##솫	14029
##뗛	14030
##몼	14031
##돇	14032
##돣	14033
##뢐	14034
##홳	14035
##잓	14036
##웫	14037
##룫	14038
##뺃	14039
##뗣	14040
##똟	14041
##녓	14042
##쯪	14043
##졈	14044
##뚥	14045
##괳	14046
##픗	14047
##얍	14048
##꺌	14049
##죰	14050
##둩	14051
##훜	14052
##풱	14053
##귈	14054
##뇓	14055
##랼	14056
##풹	14057
##춈	14058
##쀠	14059
##뮹	14060
##녔	14061
##뜐	14062
##벫	14063
##콱	14064
##챸	14065
##쎅	14066
##뚞	14067
##싈	14068
##왠	14069
##졉	14070
##쥉	14071
##짙	14072
##붏	14073
##붇	14074
##쥘	14075
##닳	14076
##찷	14077
##둉	14078
##팠	14079
##톼	14080
##쪙	14081
##듁	14082
##뗄	14083
##퇼	14084
##톹	14085
##퐆	14086
##뗑	14087
##밬	14088
##푷	14089
##짬	14090
##탒	14091
##듮	14092
##눞	14093
##쭨	14094
##좊	14095
##퇘	14096
##귡	14097
##긮	14098
##깑	14099
##혯	14100
##폯	14101
##쬰	14102
##튱	14103
##웤	14104
##켑	14105
##줭	14106
##뫌	14107
##뗻	14108
##띧	14109
##귬	14110
##쇅	14111
##룅	14112
##쑴	14113
##쨉	14114
##챵	14115
##딯	14116
##뀰	14117
##텬	14118
##띱	14119
##꽹	14120
##뚬	14121
##돡	14122
##궶	14123
##궻	14124
##랤	14125
##궢	14126
##칽	14127
##헔	14128
##쵼	14129
##ᇀ	14130
##셷	14131
##졬	14132
##췰	14133
##벍	14134
##돵	14135
##롣	14136
##쎼	14137
##섣	14138
##뒹	14139
##궂	14140
##쵤	14141
##핧	14142
##칟	14143
##씸	14144
##꾁	14145
##맇	14146
##뚸	14147
##끎	14148
##쳔	14149
##잫	14150
##엷	14151
##츀	14152
##얐	14153
##픓	14154
##큾	14155
##벖	14156
##텂	14157
##읃	14158
##벐	14159
##셱	14160
##돿	14161
##촡	14162
##멨	14163
##탘	14164
##굳	14165
##슽	14166
##욹	14167
##졋	14168
##죨	14169
##졷	14170
##큇	14171
##꿱	14172
##뜫	14173
##꺙	14174
##얖	14175
##쌐	14176
##왷	14177
##쀳	14178
##떙	14179
##뤕	14180
##롈	14181
##뺼	14182
##돨	14183
##뱁	14184
##힙	14185
##짒	14186
##떱	14187
##맆	14188
##엊	14189
##놘	14190
##탔	14191
##랋	14192
##늕	14193
##렫	14194
##큮	14195
##딈	14196
##꽦	14197
##앝	14198
##븞	14199
##릾	14200
##슁	14201
##톻	14202
##ᆽ	14203
##뺚	14204
##뤀	14205
##웆	14206
##뻤	14207
##첫	14208
##둇	14209
##꾱	14210
##뛩	14211
##핻	14212
##몯	14213
##쳡	14214
##웸	14215
##횦	14216
##뛟	14217
##짭	14218
##좸	14219
##흨	14220
##쑊	14221
##튭	14222
##쫭	14223
##뚮	14224
##쐙	14225
##뽟	14226
##귶	14227
##뙓	14228
##맬	14229
##뎂	14230
##닶	14231
##둅	14232
##냙	14233
##곂	14234
##륽	14235
##뢱	14236
##롁	14237
##혻	14238
##릵	14239
##닊	14240
##뷫	14241
##듟	14242
##몄	14243
##땠	14244
##샢	14245
##뀪	14246
##컁	14247
##앆	14248
##풑	14249
##먳	14250
##맻	14251
##뮻	14252
##뭋	14253
##쨈	14254
##섰	14255
##뮺	14256
##썼	14257
##줓	14258
##얺	14259
##놰	14260
##욀	14261
##뛸	14262
##뜷	14263
##뙗	14264
##퀙	14265
##쩅	14266
##뺄	14267
##뜜	14268
##뤌	14269
##붝	14270
##몔	14271
##뭅	14272
##뉸	14273
##쁟	14274
##빋	14275
##릊	14276
##옅	14277
##뀜	14278
##툥	14279
##돘	14280
##닾	14281
##뿓	14282
##겊	14283
##룺	14284
##줵	14285
##샻	14286
##홁	14287
##큉	14288
##몊	14289
##췛	14290
##챕	14291
##힗	14292
##싫	14293
##옮	14294
##봑	14295
##쭛	14296
##넠	14297
##욺	14298
##놨	14299
##빩	14300
##퉹	14301
##귯	14302
##찝	14303
##탇	14304
##뫅	14305
##궬	14306
##칞	14307
##꺐	14308
##팉	14309
##엫	14310
##렞	14311
##갭	14312
##듹	14313
##횢	14314
##뫀	14315
##삔	14316
##싄	14317
##뾲	14318
##샠	14319
##튮	14320
##싟	14321
##죗	14322
##쯰	14323
##뀐	14324
##칣	14325
##븅	14326
##딺	14327
##핚	14328
##뗠	14329
##풒	14330
##뭘	14331
##돜	14332
##썀	14333
##삵	14334
##얅	14335
##꺆	14336
##얻	14337
##뫃	14338
##뚷	14339
##붖	14340
##뎜	14341
##큭	14342
##빻	14343
##텽	14344
##큅	14345
##댧	14346
##댯	14347
##돫	14348
##곺	14349
##뱨	14350
##쫩	14351
##껸	14352
##덦	14353
##끆	14354
##긞	14355
##긏	14356
##귺	14357
##훁	14358
##읕	14359
##쿜	14360
##쬭	14361
##뀻	14362
##껨	14363
##찎	14364
##읫	14365
##횬	14366
##꼳	14367
##뉜	14368
##긶	14369
##쁙	14370
##멉	14371
##턻	14372
##탙	14373
##뎊	14374
##븃	14375
##씃	14376
##갇	14377
##꽇	14378
##굛	14379
##댦	14380
##뷁	14381
##벋	14382
##얒	14383
##퍙	14384
##뭍	14385
##뤯	14386
##룱	14387
##큔	14388
##졧	14389
##낻	14390
##췬	14391
##앸	14392
##땩	14393
##휫	14394
##쑁	14395
##뗶	14396
##뗵	14397
으	14398
##ᅳᆫ	14399
에	14400
는	14401
다	14402
의	14403
을	14404
어	14405
아	14406
이	14407
##서	14408
##ᅳᆯ	14409
를	14410
은	14411
가	14412
고	14413
##다	14414
##로	14415
었	14416
에서	14417
로	14418
으로	14419
ᆫ다	14420
도	14421
았	14422
며	14423
지	14424
라	14425
기	14426
게	14427
##ᅡᆫ	14428
과	14429
면	14430
와	14431
20	14432
##고	14433
##는	14434
##며	14435
##만	14436
지만	14437
##지	14438
더	14439
##게	14440
에게	14441
##데	14442
던	14443
여	14444
##나	14445
201	14446
으며	14447
만	14448
는데	14449
때문	14450
19	14451
까	14452
까지	14453
아서	14454
##00	14455
아니	14456
라고	14457
라는	14458
자	14459
나오	14460
다고	14461
면서	14462
보이	14463
경우	14464
10	14465
어서	14466
사용	14467
##터	14468
##ᅮ터	14469
##가	14470
다는	14471
공격	14472
이후	14473
나	14474
##도	14475
자신	14476
그리	14477
##니	14478
##면	14479
였	14480
##레이	14481
사람	14482
위하	14483
정도	14484
대하	14485
부터	14486
##야	14487
##스트	14488
가능	14489
시키	14490
다른	14491
12	14492
으나	14493
이나	14494
가지	14495
200	14496
등장	14497
는다	14498
아이	14499
보	14500
11	14501
보다	14502
그러	14503
그리고	14504
버리	14505
##어지	14506
게임	14507
하나	14508
경기	14509
..	14510
서	14511
만들	14512
못하	14513
##er	14514
사실	14515
시간	14516
다가	14517
니	14518
거	14519
사이	14520
시작	14521
일본	14522
이상	14523
모습	14524
이름	14525
##니다	14526
함께	14527
##라	14528
따르	14529
려	14530
상대	14531
한국	14532
##어나	14533
##지만	14534
문제	14535
15	14536
거나	14537
##in	14538
으면	14539
하지만	14540
프로	14541
##스터	14542
생각	14543
다시	14544
겠	14545
##러	14546
또한	14547
가장	14548
들어	14549
캐릭	14550
당시	14551
##대로	14552
시즌	14553
ᆫ데	14554
아야	14555
##ᅥ러	14556
처러	14557
처럼	14558
캐릭터	14559
당하	14560
플레이	14561
18	14562
##on	14563
능력	14564
##이트	14565
ᆫ지	14566
모두	14567
상황	14568
상태	14569
그렇	14570
아도	14571
야	14572
모든	14573
추가	14574
결국	14575
세계	14576
선수	14577
##an	14578
16	14579
##or	14580
스킬	14581
카드	14582
##미지	14583
현재	14584
많이	14585
ᆫ다는	14586
통하	14587
전투	14588
효과	14589
다음	14590
30	14591
다만	14592
그러나	14593
존재	14594
지역	14595
13	14596
미국	14597
여기	14598
시리	14599
14	14600
199	14601
##라이	14602
매우	14603
##ar	14604
라이	14605
17	14606
달리	14607
대학	14608
그런	14609
상당	14610
ᄇ니다	14611
레벨	14612
기록	14613
##he	14614
시리즈	14615
##at	14616
스타	14617
인하	14618
기술	14619
레이	14620
##요	14621
물론	14622
무기	14623
##ᅳ로	14624
이용	14625
##리아	14626
의하	14627
처음	14628
다면	14629
이유	14630
시	14631
자체	14632
부르	14633
방송	14634
100	14635
이것	14636
마	14637
이런	14638
필요	14639
영화	14640
실제	14641
여러	14642
해당	14643
25	14644
들어가	14645
마법	14646
모르	14647
주인	14648
일반	14649
ᆫ다고	14650
돌아	14651
어야	14652
거의	14653
역시	14654
##거리	14655
바로	14656
리그	14657
##리스	14658
학교	14659
나가	14660
사건	14661
##이스	14662
##en	14663
다르	14664
같이	14665
특히	14666
관련	14667
기본	14668
2017	14669
부분	14670
그래	14671
##이지	14672
위치	14673
피해	14674
##야기	14675
##록	14676
진행	14677
##ou	14678
아무	14679
방어	14680
2018	14681
이야기	14682
##부분	14683
대표	14684
국가	14685
는지	14686
없이	14687
냐	14688
##지막	14689
음	14690
제작	14691
##까	14692
활동	14693
인간	14694
동안	14695
작품	14696
증가	14697
대부분	14698
알리	14699
##al	14700
마지막	14701
본인	14702
자기	14703
2019	14704
일부	14705
지나	14706
계속	14707
ᆫ가	14708
##시아	14709
떨어지	14710
21	14711
서울	14712
내용	14713
##es	14714
우리	14715
올리	14716
주인공	14717
2016	14718
감독	14719
참고	14720
속도	14721
관계	14722
50	14723
##전히	14724
생기	14725
스	14726
중국	14727
대신	14728
수준	14729
이전	14730
그냥	14731
어도	14732
습	14733
비슷	14734
어느	14735
으니	14736
전쟁	14737
타이	14738
비하	14739
지금	14740
라면	14741
강하	14742
만나	14743
성공	14744
22	14745
기준	14746
도시	14747
밝히	14748
인물	14749
습니다	14750
이루	14751
도록	14752
198	14753
상당히	14754
공격력	14755
그녀	14756
대한	14757
24	14758
배우	14759
최대	14760
기사	14761
올라	14762
##민국	14763
결과	14764
지원	14765
그대로	14766
평가	14767
시절	14768
너무	14769
빠르	14770
자리	14771
보스	14772
제외	14773
##it	14774
므로	14775
죽이	14776
란	14777
##토리	14778
연구	14779
##버지	14780
의미	14781
##에	14782
나타	14783
실제로	14784
소속	14785
##라지	14786
이미	14787
로서	14788
승리	14789
직접	14790
전체	14791
2015	14792
영상	14793
대한민국	14794
보내	14795
메이	14796
23	14797
어렵	14798
원래	14799
유닛	14800
체력	14801
여자	14802
마다	14803
언급	14804
##부터	14805
그것	14806
개발	14807
데미지	14808
멤버	14809
##ing	14810
유저	14811
##st	14812
##le	14813
##학교	14814
##ic	14815
이동	14816
마음	14817
설정	14818
40	14819
싸우	14820
정보	14821
ᆫ다면	14822
방법	14823
문서	14824
선택	14825
애니	14826
##가지	14827
##re	14828
과거	14829
차이	14830
러	14831
##운드	14832
머리	14833
몬스터	14834
출연	14835
성우	14836
친구	14837
포함	14838
##랜드	14839
##dd	14840
##이션	14841
불리	14842
대상	14843
설명	14844
거리	14845
엄청	14846
사회	14847
소리	14848
바람	14849
플레이어	14850
장면	14851
힘들	14852
우승	14853
최고	14854
여성	14855
버전	14856
사랑	14857
이러	14858
바뀌	14859
아버지	14860
프리	14861
동시	14862
드	14863
공식	14864
든	14865
유명	14866
스럽	14867
시대	14868
2014	14869
발생	14870
영향	14871
사망	14872
이렇	14873
주로	14874
대회	14875
프랑	14876
##주의	14877
남자	14878
결정	14879
조금	14880
려고	14881
파이	14882
발매	14883
26	14884
주장	14885
출신	14886
아이템	14887
##ff	14888
초반	14889
000	14890
인터	14891
일어나	14892
학생	14893
전부	14894
나라	14895
버스	14896
마이	14897
공개	14898
역사	14899
28	14900
운영	14901
오르	14902
서로	14903
유지	14904
빠지	14905
스토리	14906
걸리	14907
모드	14908
##el	14909
27	14910
구성	14911
대사	14912
파괴	14913
제대로	14914
##am	14915
정부	14916
방식	14917
만큼	14918
음악	14919
강화	14920
31	14921
자주	14922
중요	14923
아직	14924
후반	14925
이때	14926
나타나	14927
또는	14928
월드	14929
the	14930
과정	14931
##이드	14932
형태	14933
최종	14934
정치	14935
새롭	14936
독일	14937
시스	14938
역할	14939
나이	14940
최초	14941
노래	14942
##벤트	14943
다니	14944
대전	14945
쓰이	14946
이벤트	14947
누구	14948
##om	14949
##어	14950
강력	14951
마리	14952
스테	14953
정말	14954
변경	14955
회복	14956
##머니	14957
##이도	14958
기존	14959
##우스	14960
그런데	14961
영국	14962
보통	14963
비교	14964
드래	14965
소환	14966
대	14967
느끼	14968
정신	14969
##아가	14970
##다가	14971
마찬	14972
마찬가지	14973
##la	14974
어떤	14975
이기	14976
조선	14977
라도	14978
당연	14979
##었	14980
특성	14981
인기	14982
##is	14983
엄청나	14984
성능	14985
##프트	14986
확률	14987
속성	14988
마을	14989
듯	14990
행동	14991
바꾸	14992
2013	14993
슈퍼	14994
오히	14995
노선	14996
대로	14997
모양	14998
오히려	14999
##리어	15000
어떻	15001
드라	15002
아래	15003
##라도	15004
이제	15005
가깝	15006
자유	15007
아들	15008
교육	15009
197	15010
발견	15011
차량	15012
바이	15013
라인	15014
29	15015
사라지	15016
##너지	15017
게다가	15018
32	15019
부족	15020
특수	15021
프랑스	15022
##et	15023
이번	15024
00	15025
대학교	15026
확인	15027
성격	15028
끝나	15029
문화	15030
유일	15031
활약	15032
차지	15033
수록	15034
##ol	15035
2012	15036
관리	15037
장비	15038
##ion	15039
영웅	15040
모델	15041
일단	15042
입장	15043
아예	15044
구하	15045
내리	15046
생산	15047
맞추	15048
스트	15049
따라	15050
시스템	15051
이렇게	15052
제국	15053
고등	15054
심지	15055
다이	15056
어리	15057
돌아오	15058
심지어	15059
먼저	15060
경찰	15061
반대	15062
계획	15063
주변	15064
거기	15065
##레이드	15066
운동	15067
2010	15068
앨범	15069
##디오	15070
어요	15071
자동	15072
완전히	15073
조건	15074
드러	15075
우주	15076
기간	15077
사진	15078
##레스	15079
난이도	15080
들어오	15081
부대	15082
적용	15083
발동	15084
개인	15085
기능	15086
##ow	15087
지구	15088
구	15089
건물	15090
60	15091
감소	15092
위원	15093
##nd	15094
##써	15095
km	15096
##20	15097
축구	15098
##통령	15099
자세	15100
##il	15101
떠나	15102
##ig	15103
중심	15104
으로서	15105
##인트	15106
##ed	15107
실패	15108
애니메	15109
그래서	15110
하이	15111
세트	15112
혹은	15113
중앙	15114
선거	15115
바	15116
지키	15117
어디	15118
라며	15119
현대	15120
35	15121
회사	15122
덕분	15123
돌아가	15124
초기	15125
전혀	15126
얼굴	15127
데이	15128
작가	15129
시기	15130
표현	15131
국내	15132
원작	15133
민주	15134
대통령	15135
패배	15136
물리	15137
처리	15138
오브	15139
순간	15140
TV	15141
동일	15142
##버스	15143
모으	15144
지속	15145
프로그	15146
드라마	15147
반응	15148
지방	15149
무엇	15150
얼마	15151
날리	15152
열리	15153
도움	15154
더라도	15155
인정	15156
참여	15157
기관	15158
애니메이션	15159
출시	15160
##니아	15161
명칭	15162
##ac	15163
판매	15164
담당	15165
데뷔	15166
##as	15167
##없이	15168
##나마	15169
##BS	15170
정확	15171
요구	15172
획득	15173
196	15174
##리카	15175
굉장	15176
스페	15177
하루	15178
생활	15179
그렇게	15180
of	15181
루	15182
시점	15183
2011	15184
설치	15185
밖	15186
밖에	15187
작중	15188
넘어	15189
다양	15190
발표	15191
후보	15192
그룹	15193
상승	15194
진출	15195
선발	15196
아군	15197
구조	15198
기억	15199
항목	15200
##아내	15201
Lv	15202
영어	15203
만화	15204
가격	15205
움직	15206
단계	15207
##소드	15208
그림	15209
##므로	15210
특별	15211
##들이	15212
올라가	15213
마스터	15214
실력	15215
##ve	15216
그나마	15217
으므로	15218
드래곤	15219
아마	15220
##자	15221
다며	15222
에피	15223
세우	15224
이거	15225
01	15226
야구	15227
았었	15228
시장	15229
The	15230
가족	15231
##이	15232
범위	15233
사고	15234
특징	15235
경제	15236
려는	15237
##소리	15238
시청	15239
방향	15240
연기	15241
대체	15242
패치	15243
경험	15244
##뜨리	15245
계약	15246
미치	15247
한	15248
수비	15249
##테	15250
고려	15251
##ot	15252
한테	15253
조	15254
##차	15255
조차	15256
아르	15257
확실	15258
참가	15259
국제	15260
지니	15261
디자	15262
에피소드	15263
500	15264
세대	15265
발사	15266
폭발	15267
##로스	15268
브라	15269
남기	15270
묘사	15271
로부터	15272
##스크	15273
밀리	15274
주의	15275
프로그램	15276
고등학교	15277
80	15278
##비스	15279
활용	15280
2000	15281
던지	15282
어떻게	15283
피하	15284
어머니	15285
상위	15286
결혼	15287
무시	15288
라서	15289
##으키	15290
비판	15291
목적	15292
더욱	15293
준비	15294
중간	15295
심하	15296
각각	15297
##ad	15298
37	15299
보호	15300
러시아	15301
45	15302
아주	15303
버프	15304
챔피	15305
오리	15306
라운드	15307
굉장히	15308
이미지	15309
패턴	15310
국민	15311
히로	15312
이어지	15313
위험	15314
진짜	15315
참조	15316
세이	15317
내려	15318
대미지	15319
생명	15320
조직	15321
조사	15322
단순	15323
싸움	15324
과학	15325
여담	15326
크리스	15327
약하	15328
이라	15329
이루어지	15330
전하	15331
나쁘	15332
타입	15333
다루	15334
ᆯ지	15335
세력	15336
현실	15337
파워	15338
St	15339
안타	15340
시도	15341
소모	15342
제공	15343
주요	15344
구간	15345
194	15346
유리	15347
불구	15348
전문	15349
가리	15350
지하	15351
유럽	15352
일으키	15353
연속	15354
부산	15355
세기	15356
##머지	15357
나머지	15358
혼자	15359
순위	15360
논란	15361
조합	15362
한정	15363
포인트	15364
사실상	15365
약간	15366
아프	15367
동료	15368
랑	15369
##아오	15370
노리	15371
##id	15372
70	15373
뛰어나	15374
나무	15375
분위	15376
성장	15377
##ᅳᆷ	15378
09	15379
##ay	15380
무장	15381
여전히	15382
바라	15383
디자인	15384
분위기	15385
당연히	15386
취급	15387
항공	15388
출전	15389
90	15390
이해	15391
으면서	15392
트리	15393
학년	15394
##스로	15395
일정	15396
규모	15397
등급	15398
훨씬	15399
FC	15400
##ER	15401
지도	15402
투수	15403
소설	15404
##나라	15405
한편	15406
예정	15407
##려	15408
운행	15409
블랙	15410
성적	15411
인구	15412
##러지	15413
부상	15414
자연	15415
##마	15416
엔딩	15417
기타	15418
그래도	15419
마치	15420
삼성	15421
오	15422
기대	15423
계열	15424
mm	15425
02	15426
해결	15427
2009	15428
03	15429
사업	15430
가져	15431
##ch	15432
스테이지	15433
향하	15434
센터	15435
방면	15436
연결	15437
미션	15438
300	15439
##이크	15440
##시	15441
방영	15442
최근	15443
의견	15444
기에	15445
연합	15446
수정	15447
##us	15448
48	15449
변화	15450
도망	15451
종류	15452
##ir	15453
자면	15454
ᆯ까	15455
그거	15456
이탈	15457
표기	15458
잘못	15459
전용	15460
이르	15461
태어나	15462
05	15463
퀘스트	15464
배치	15465
195	15466
추정	15467
33	15468
for	15469
2008	15470
발전	15471
터지	15472
##다리	15473
소녀	15474
36	15475
08	15476
대화	15477
변하	15478
거대	15479
정상	15480
직업	15481
안정	15482
07	15483
움직이	15484
##ur	15485
도중	15486
네	15487
죽음	15488
엔진	15489
충분	15490
올라오	15491
스스로	15492
종료	15493
##스타	15494
##ᅮᆫ	15495
작전	15496
넘어가	15497
##티브	15498
수상	15499
챔피언	15500
펼치	15501
세상	15502
오래	15503
나중	15504
붙이	15505
독립	15506
일행	15507
비행	15508
요소	15509
##큼	15510
느낌	15511
속하	15512
거치	15513
당신	15514
나누	15515
HP	15516
벌어지	15517
벌이	15518
보상	15519
에너지	15520
지내	15521
방어력	15522
달성	15523
비롯	15524
전설	15525
수도	15526
##..	15527
공연	15528
##od	15529
무리	15530
미사	15531
06	15532
만드	15533
동물	15534
만큼	15535
배틀	15536
##러스	15537
##BC	15538
부활	15539
특정	15540
관하	15541
장착	15542
훈련	15543
스피	15544
절대	15545
th	15546
스카	15547
졸업	15548
철도	15549
유니	15550
지지	15551
##im	15552
##자기	15553
기업	15554
전기	15555
포켓	15556
위기	15557
지휘	15558
행정	15559
싱글	15560
##저	15561
번역	15562
다리	15563
번호	15564
근접	15565
##란드	15566
더불	15567
아이돌	15568
제목	15569
점수	15570
건설	15571
04	15572
관심	15573
만약	15574
미래	15575
##어들	15576
황제	15577
내부	15578
남성	15579
반면	15580
따라서	15581
득점	15582
##un	15583
충격	15584
##ut	15585
신경	15586
SK	15587
시험	15588
전차	15589
요리	15590
군사	15591
가르	15592
목소리	15593
목표	15594
거두	15595
홈런	15596
소재	15597
이끌	15598
전사	15599
2007	15600
##데이트	15601
업데이트	15602
바르	15603
정체	15604
you	15605
공간	15606
##지션	15607
똑같	15608
가끔	15609
저지	15610
돌리	15611
무대	15612
스파	15613
어찌	15614
시설	15615
사이트	15616
올림	15617
타격	15618
로마	15619
오늘	15620
34	15621
##인물	15622
배경	15623
링크	15624
지정	15625
장소	15626
각성	15627
전작	15628
##리오	15629
서비스	15630
공중	15631
마르	15632
항상	15633
느	15634
##다니	15635
##ro	15636
최소	15637
교체	15638
그만	15639
전국	15640
파티	15641
으려	15642
분노	15643
##너스	15644
##트리	15645
생존	15646
작곡	15647
북한	15648
넘기	15649
등장인물	15650
정식	15651
얘기	15652
예상	15653
마저	15654
자랑	15655
의원	15656
부여	15657
으로써	15658
클래	15659
작업	15660
높이	15661
도로	15662
포켓몬	15663
사냥	15664
##디어	15665
분류	15666
종족	15667
늘어나	15668
스포	15669
인사	15670
인도	15671
악마	15672
##ag	15673
##igh	15674
소개	15675
야마	15676
38	15677
스타일	15678
비밀	15679
##ver	15680
엘리	15681
단체	15682
애초	15683
제한	15684
인터뷰	15685
괜찮	15686
ᆯ로	15687
가수	15688
필드	15689
##ec	15690
결승	15691
##동안	15692
cm	15693
판정	15694
크리	15695
듯이	15696
기계	15697
이어	15698
베이	15699
클리어	15700
75	15701
목록	15702
연출	15703
각종	15704
외국	15705
카이	15706
리	15707
하늘	15708
이외	15709
타카	15710
명령	15711
정하	15712
##ent	15713
제일	15714
2006	15715
초등	15716
##운데	15717
기체	15718
병력	15719
지상	15720
카운	15721
로봇	15722
개념	15723
55	15724
##보이	15725
전반	15726
확정	15727
기동	15728
in	15729
교통	15730
정작	15731
193	15732
건담	15733
레어	15734
비용	15735
별로	15736
##드리	15737
파일	15738
##ak	15739
화력	15740
장갑	15741
올림픽	15742
케이	15743
수행	15744
뿐	15745
니까	15746
군대	15747
드러나	15748
사항	15749
갖추	15750
표시	15751
크기	15752
가운데	15753
프레	15754
따로	15755
인식	15756
시티	15757
행위	15758
사격	15759
수치	15760
경쟁	15761
라이브	15762
##라인	15763
2020	15764
사거리	15765
to	15766
##um	15767
아카	15768
기반	15769
변신	15770
갑자기	15771
저항	15772
감정	15773
',	15774
나름	15775
포지션	15776
##젝트	15777
언제	15778
누르	15779
진화	15780
이탈리아	15781
완전	15782
평균	15783
왕국	15784
아키	15785
단점	15786
집중	15787
인천	15788
보유	15789
교수	15790
근처	15791
통합	15792
기회	15793
병원	15794
살리	15795
vs	15796
직전	15797
던전	15798
노력	15799
특이	15800
냐고	15801
임무	15802
##아들이	15803
의식	15804
코스	15805
드리	15806
자원	15807
전자	15808
국회	15809
설립	15810
탈출	15811
레인	15812
##화국	15813
정의	15814
오버	15815
압도	15816
##ST	15817
오른	15818
이닝	15819
월드컵	15820
부모	15821
단어	15822
다크	15823
때리	15824
부정	15825
환경	15826
##em	15827
고양	15828
현상	15829
##ub	15830
정리	15831
마시	15832
사례	15833
잠시	15834
사정	15835
##비아	15836
판단	15837
효율	15838
시전	15839
제품	15840
이쪽	15841
어쩌	15842
##라스	15843
아파	15844
극장	15845
더니	15846
치명	15847
본래	15848
##르트	15849
느리	15850
나서	15851
주제	15852
무슨	15853
촬영	15854
아스	15855
##000	15856
삭제	15857
상관	15858
의외	15859
주문	15860
위원회	15861
전력	15862
가문	15863
ㅏㅆ	15864
동생	15865
고속	15866
원인	15867
주민	15868
대구	15869
여행	15870
물건	15871
옮기	15872
제거	15873
지배	15874
강제	15875
발언	15876
키우	15877
소련	15878
연습	15879
치료	15880
##ᅥᆫ	15881
병사	15882
##어로	15883
포기	15884
스코	15885
골드	15886
위력	15887
파트	15888
요시	15889
도전	15890
##무리	15891
전개	15892
2005	15893
기다리	15894
이하	15895
노트	15896
역대	15897
책임	15898
해군	15899
중학교	15900
기념	15901
##요일	15902
사무	15903
도입	15904
정책	15905
점프	15906
나이트	15907
완성	15908
복귀	15909
앞서	15910
실험	15911
##ight	15912
화면	15913
새로	15914
42	15915
##야마	15916
루트	15917
려면	15918
고정	15919
공주	15920
도쿄	15921
살인	15922
유사	15923
바다	15924
의사	15925
음식	15926
41	15927
##학생	15928
레드	15929
##냐	15930
페이	15931
모이	15932
별명	15933
차원	15934
직후	15935
선생	15936
끝내	15937
이적	15938
히어로	15939
불가	15940
다수	15941
버티	15942
사기	15943
중반	15944
39	15945
받아들이	15946
잡히	15947
티어	15948
전략	15949
히트	15950
어둠	15951
밴드	15952
에게서	15953
분명	15954
마나	15955
공동	15956
숨기	15957
도착	15958
2004	15959
무려	15960
미니	15961
##모토	15962
접근	15963
언어	15964
녀석	15965
가치	15966
제도	15967
일러	15968
EX	15969
LG	15970
은데	15971
정당	15972
으로부터	15973
오프	15974
회피	15975
ㅓㅆ	15976
추천	15977
타임	15978
조종	15979
정규	15980
사상	15981
시민	15982
대기	15983
빌리	15984
로드	15985
예전	15986
##ce	15987
살아	15988
확장	15989
아파트	15990
신체	15991
빨리	15992
##루스	15993
##그레이드	15994
업그레이드	15995
마사	15996
구매	15997
##AR	15998
##드시	15999
줄이	16000
연장	16001
롯데	16002
리더	16003
자료	16004
랭크	16005
이곳	16006
반드시	16007
폭탄	16008
##os	16009
투표	16010
탈락	16011
타이틀	16012
인터넷	16013
부탁	16014
장치	16015
학원	16016
단지	16017
완벽	16018
크로	16019
라이트	16020
미사일	16021
종교	16022
44	16023
우선	16024
##ri	16025
일러스트	16026
소유	16027
형식	16028
해외	16029
고대	16030
##시마	16031
##AN	16032
구역	16033
장점	16034
사령	16035
최강	16036
데스	16037
심각	16038
산업	16039
아내	16040
##던	16041
##ula	16042
Ch	16043
금지	16044
하드	16045
죠	16046
##ON	16047
##역시	16048
추측	16049
버그	16050
##이치	16051
실시	16052
No	16053
위키	16054
마무리	16055
##ap	16056
43	16057
이라고	16058
99	16059
곤	16060
대장	16061
클럽	16062
몇몇	16063
공포	16064
가사	16065
노동	16066
##and	16067
2002	16068
연재	16069
가드	16070
구분	16071
취하	16072
st	16073
검사	16074
범죄	16075
합류	16076
점점	16077
달러	16078
즐기	16079
서버	16080
로스	16081
조정	16082
##아하	16083
요청	16084
이사	16085
행사	16086
차례	16087
##ᅮ록	16088
##트라	16089
form	16090
옵션	16091
재료	16092
보병	16093
그야	16094
##러리	16095
##이어	16096
조작	16097
선정	16098
선언	16099
수많	16100
마법사	16101
다소	16102
전통	16103
교회	16104
타자	16105
걱정	16106
프로젝트	16107
kg	16108
그리스	16109
종종	16110
개그	16111
47	16112
스포츠	16113
자마	16114
46	16115
데이터	16116
51	16117
191	16118
좋아하	16119
컴퓨	16120
개월	16121
암살	16122
부하	16123
광고	16124
입히	16125
형제	16126
열차	16127
##르크	16128
formula	16129
에이	16130
채우	16131
성향	16132
뉴스	16133
##말로	16134
대중	16135
개최	16136
평범	16137
자마자	16138
##나이	16139
KBS	16140
포스	16141
아쉽	16142
##조건	16143
그야말로	16144
실점	16145
한계	16146
스페인	16147
구단	16148
고르	16149
재미	16150
채널	16151
대결	16152
설계	16153
코드	16154
##ter	16155
거부	16156
통신	16157
언론	16158
아무리	16159
워낙	16160
생물	16161
다행	16162
비중	16163
보조	16164
복수	16165
종합	16166
고자	16167
전화	16168
행성	16169
기지	16170
컴퓨터	16171
민족	16172
디스	16173
and	16174
한글	16175
무한	16176
투입	16177
개봉	16178
해석	16179
알아	16180
무조건	16181
##아지	16182
본격	16183
영혼	16184
정확히	16185
연주	16186
냐는	16187
모자	16188
운용	16189
굳이	16190
##ul	16191
MA	16192
평소	16193
실수	16194
회장	16195
원정	16196
광주	16197
##IN	16198
지적	16199
소년	16200
##타임	16201
지명	16202
와중	16203
##무라	16204
인상	16205
1000	16206
##수록	16207
위협	16208
미드	16209
박사	16210
##버리	16211
2003	16212
줄어들	16213
회의	16214
상징	16215
충분히	16216
##op	16217
등록	16218
는가	16219
사태	16220
집단	16221
대형	16222
가정	16223
대응	16224
카메	16225
대비	16226
보너스	16227
터미	16228
아웃	16229
자동차	16230
소비	16231
##ck	16232
전원	16233
보컬	16234
대로	16235
체제	16236
공사	16237
페르	16238
시청자	16239
%,	16240
다운	16241
##로드	16242
태양	16243
특유	16244
희생	16245
150	16246
조각	16247
플래	16248
가면	16249
개조	16250
65	16251
##FA	16252
군단	16253
##자리	16254
##ation	16255
무사	16256
편성	16257
뿌리	16258
도망치	16259
봉인	16260
##리트	16261
여름	16262
MBC	16263
마력	16264
##니스	16265
SP	16266
일종	16267
기자	16268
##로그	16269
##ra	16270
##려가	16271
192	16272
육군	16273
발음	16274
장군	16275
공항	16276
네이	16277
스크	16278
생성	16279
통과	16280
벗어나	16281
얼마나	16282
##든	16283
##의원	16284
분리	16285
시나	16286
방문	16287
64	16288
오리지	16289
II	16290
가하	16291
로써	16292
드러내	16293
장르	16294
보다	16295
동맹	16296
빼앗	16297
장기	16298
간단	16299
을지	16300
함정	16301
고양이	16302
반복	16303
ㅏ서	16304
서술	16305
##튜브	16306
오랜	16307
##일러	16308
소식	16309
의도	16310
##려오	16311
##오르	16312
사쿠	16313
분야	16314
디지	16315
전환	16316
근데	16317
52	16318
불과	16319
합치	16320
유튜브	16321
바닥	16322
영입	16323
먹이	16324
안전	16325
경기도	16326
그때	16327
치르	16328
브레이	16329
괴물	16330
저격	16331
마크	16332
##텐츠	16333
제안	16334
흡수	16335
점령	16336
You	16337
의지	16338
##시스	16339
는다는	16340
예선	16341
초대	16342
필살	16343
미리	16344
최후	16345
##니티	16346
따지	16347
400	16348
개선	16349
공략	16350
유도	16351
##남도	16352
화염	16353
숫자	16354
놀라	16355
독자	16356
전술	16357
##art	16358
코치	16359
그저	16360
방해	16361
##나가	16362
주력	16363
원하	16364
액션	16365
확보	16366
외모	16367
인원	16368
가져오	16369
매일	16370
평화	16371
비트	16372
진입	16373
터미널	16374
이론	16375
##런스	16376
규정	16377
관통	16378
VS	16379
클래스	16380
라디오	16381
에스	16382
오토	16383
찾아오	16384
장난	16385
수사	16386
##오스	16387
49	16388
들리	16389
이치	16390
투자	16391
느냐	16392
승부	16393
컨셉	16394
눈물	16395
체육	16396
목숨	16397
형성	16398
지나가	16399
적극	16400
방패	16401
AP	16402
56	16403
가스	16404
패러	16405
상자	16406
음반	16407
모험	16408
사과	16409
아름	16410
서브	16411
리어	16412
왼쪽	16413
적절	16414
부수	16415
흐르	16416
인류	16417
한국어	16418
계기	16419
보도	16420
2001	16421
##올리	16422
함대	16423
구축	16424
##동생	16425
거짓	16426
저지르	16427
살아남	16428
의심	16429
ᆫ지라	16430
약점	16431
예술	16432
공화국	16433
들이	16434
역전	16435
##스케	16436
인형	16437
기원	16438
53	16439
오리지널	16440
54	16441
비디오	16442
##페이지	16443
작성	16444
완료	16445
더블	16446
##모리	16447
...	16448
자라	16449
공부	16450
은퇴	16451
수리	16452
코어	16453
솔로	16454
회전	16455
스위	16456
##라이더	16457
쓰러지	16458
풀리	16459
단순히	16460
대단	16461
질문	16462
In	16463
걸치	16464
PC	16465
편집	16466
황금	16467
끌어	16468
민주당	16469
마침	16470
뮤직	16471
##래프트	16472
알렉	16473
시내	16474
##로우	16475
안드	16476
##시브	16477
홈페이지	16478
착용	16479
필수	16480
트랙	16481
상대방	16482
꾸준	16483
85	16484
보수	16485
해제	16486
미스	16487
엄마	16488
카페	16489
아프리카	16490
드라이	16491
경상	16492
##ia	16493
사단	16494
습격	16495
장관	16496
편하	16497
1990	16498
현장	16499
날개	16500
사장	16501
코스트	16502
비난	16503
포르	16504
희망	16505
원거리	16506
##ill	16507
데리	16508
오스	16509
수원	16510
##ie	16511
재판	16512
선보이	16513
분석	16514
하위	16515
##레이션	16516
명중	16517
아시아	16518
진정	16519
무력	16520
코믹	16521
선물	16522
##RA	16523
##나다	16524
인지	16525
성인	16526
수호	16527
ST	16528
모티브	16529
##IA	16530
비고	16531
에이스	16532
청소	16533
확실히	16534
블루	16535
아름답	16536
행복	16537
경계	16538
부리	16539
저주	16540
감안	16541
카즈	16542
중단	16543
태도	16544
가슴	16545
190	16546
요	16547
##ik	16548
임명	16549
남편	16550
공원	16551
기획	16552
지식	16553
관광	16554
표정	16555
허용	16556
승강	16557
스마	16558
쿨타임	16559
장애	16560
무섭	16561
수단	16562
지나치	16563
오른쪽	16564
탑재	16565
바탕	16566
본선	16567
멈추	16568
딱히	16569
인민	16570
제시	16571
친하	16572
소프트	16573
상처	16574
주도	16575
##무원	16576
당장	16577
59	16578
망하	16579
##연히	16580
가까	16581
##북도	16582
의문	16583
영역	16584
유래	16585
기점	16586
테마	16587
소울	16588
테크	16589
고통	16590
리스	16591
보급	16592
유우	16593
##ab	16594
직원	16595
불명	16596
날아가	16597
비싸	16598
돌파	16599
기어	16600
베이스	16601
위주	16602
멀티	16603
작용	16604
아요	16605
주목	16606
제압	16607
대답	16608
챙기	16609
120	16610
58	16611
나카	16612
잠깐	16613
##마스	16614
##워드	16615
주연	16616
을까	16617
카운터	16618
여부	16619
##울리	16620
고유	16621
순서	16622
제기	16623
측면	16624
꺼내	16625
베르	16626
체계	16627
도서	16628
##est	16629
게이	16630
57	16631
업무	16632
박스	16633
진영	16634
부인	16635
우수	16636
##th	16637
MP	16638
멀리	16639
문명	16640
이스	16641
카메라	16642
패스	16643
횟수	16644
드립	16645
후속	16646
멸망	16647
통일	16648
온라인	16649
##all	16650
어라	16651
버튼	16652
공장	16653
##트롤	16654
텔레	16655
시나리오	16656
지점	16657
거주	16658
케이스	16659
귀족	16660
나뉘	16661
##ea	16662
66	16663
95	16664
코너	16665
문자	16666
당선	16667
내려가	16668
에어	16669
겨우	16670
협력	16671
차별	16672
특기	16673
계산	16674
소수	16675
지옥	16676
후지	16677
약속	16678
듀얼	16679
삼국	16680
최악	16681
눈치	16682
마츠	16683
크로스	16684
건너	16685
에다	16686
뉴욕	16687
달라지	16688
Sh	16689
연계	16690
ᆯ수록	16691
건	16692
딜러	16693
시체	16694
은행	16695
##붙이	16696
다가	16697
##머리	16698
Lo	16699
##ct	16700
스펙	16701
늘리	16702
살해	16703
가볍	16704
ddd	16705
on	16706
나타내	16707
개편	16708
상하	16709
그라	16710
오후	16711
유키	16712
가져가	16713
1999	16714
퍼지	16715
##다르	16716
스케	16717
Re	16718
붕괴	16719
처치	16720
##라리	16721
배신	16722
대놓	16723
자격	16724
혁명	16725
게시	16726
매치	16727
군주	16728
부담	16729
110	16730
##ddd	16731
dddddd	16732
Sp	16733
컨트롤	16734
게이지	16735
1998	16736
##AL	16737
해금	16738
##스티	16739
그레이	16740
겨울	16741
국회의원	16742
어울리	16743
견제	16744
증거	16745
레이저	16746
스탠	16747
외부	16748
최대한	16749
군인	16750
장전	16751
ㅓ서	16752
교사	16753
필살기	16754
##AT	16755
62	16756
출발	16757
진실	16758
자살	16759
제조	16760
핵심	16761
##바이	16762
##PS	16763
정권	16764
##워하	16765
어린	16766
##피아	16767
대원	16768
여왕	16769
전장	16770
드물	16771
궁극	16772
미군	16773
##OR	16774
중화	16775
연방	16776
용병	16777
마왕	16778
##니어	16779
스프	16780
로켓	16781
귀엽	16782
아침	16783
댄스	16784
##VE	16785
##레인	16786
거절	16787
제로	16788
충전	16789
##아리	16790
한화	16791
타이밍	16792
출생	16793
쓰러	16794
자이	16795
유용	16796
가르치	16797
공산	16798
체인	16799
SS	16800
일본어	16801
기분	16802
SBS	16803
이성	16804
##터리	16805
커뮤	16806
조준	16807
만족	16808
충돌	16809
고급	16810
브랜드	16811
도구	16812
단위	16813
취소	16814
애매	16815
교환	16816
는다고	16817
스피드	16818
부진	16819
고서	16820
##달리	16821
거래	16822
##ate	16823
스킨	16824
쿠	16825
##로이드	16826
미나	16827
##사카	16828
수학	16829
가로	16830
흔히	16831
##ess	16832
피해자	16833
극장판	16834
아라	16835
토스	16836
Th	16837
카르	16838
##ell	16839
61	16840
반란	16841
제주	16842
##광역시	16843
발휘	16844
세계관	16845
얼음	16846
##ard	16847
무게	16848
76	16849
오스트	16850
끼리	16851
장수	16852
파악	16853
후반부	16854
하트	16855
##ang	16856
단독	16857
##래도	16858
아무래도	16859
겹치	16860
인생	16861
모션	16862
레전	16863
홍콩	16864
패시브	16865
공통	16866
##IC	16867
갈리	16868
근무	16869
판타	16870
자르	16871
##ue	16872
신화	16873
비록	16874
격투	16875
아머	16876
막히	16877
한자	16878
헤드	16879
##ant	16880
##ack	16881
순수	16882
##ers	16883
따위	16884
피아	16885
몰리	16886
Al	16887
NP	16888
웨이	16889
77	16890
구입	16891
##두르	16892
정령	16893
파이터	16894
브리	16895
##ine	16896
88	16897
공군	16898
1997	16899
##다수	16900
운전	16901
72	16902
등등	16903
혼란	16904
계급	16905
자식	16906
가입	16907
수입	16908
##하라	16909
아메	16910
스코어	16911
닥터	16912
레	16913
##심히	16914
내주	16915
트레이	16916
회수	16917
권력	16918
자고	16919
경력	16920
##어내	16921
##아	16922
본부	16923
채용	16924
지시	16925
공작	16926
근거	16927
마이크	16928
커버	16929
##피스	16930
탄생	16931
생일	16932
밸런스	16933
해방	16934
조지	16935
비율	16936
누리	16937
외치	16938
기절	16939
우려	16940
남부	16941
건강	16942
지하철	16943
언니	16944
용도	16945
테러	16946
꾸준히	16947
##가락	16948
프라	16949
병기	16950
엑스	16951
표준	16952
갤러리	16953
BG	16954
ㅕ서	16955
타워	16956
실질	16957
돌격	16958
지대	16959
##ok	16960
##OS	16961
납치	16962
증명	16963
협회	16964
반영	16965
홍보	16966
모리	16967
지급	16968
무너지	16969
대공	16970
강조	16971
아사	16972
입학	16973
be	16974
플라	16975
오오	16976
업체	16977
트위	16978
불안	16979
랜덤	16980
373	16981
FI	16982
유형	16983
외교	16984
요원	16985
##디션	16986
경영	16987
왕자	16988
##아나	16989
or	16990
##유키	16991
아라	16992
감염	16993
대륙	16994
경향	16995
##세이	16996
98	16997
fff	16998
##거	16999
온갖	17000
훌륭	17001
광역	17002
감사	17003
CD	17004
gt	17005
연대	17006
마녀	17007
실행	17008
맡기	17009
장식	17010
문학	17011
##ive	17012
패러디	17013
##웨이	17014
기독	17015
트라	17016
페이스	17017
메탈	17018
찌르	17019
물질	17020
600	17021
주어지	17022
없애	17023
##오리	17024
내놓	17025
입단	17026
재생	17027
가까이	17028
##크래프트	17029
아나	17030
울트라	17031
스페셜	17032
화살	17033
추진	17034
주년	17035
어차	17036
찾아가	17037
집안	17038
고민	17039
내내	17040
설득	17041
대다수	17042
계승	17043
1996	17044
서포	17045
선배	17046
승강장	17047
살짝	17048
사카	17049
##트로	17050
어차피	17051
부문	17052
폐지	17053
##ast	17054
이슬	17055
캐나다	17056
##고기	17057
PS	17058
##AS	17059
영원	17060
미야	17061
정지	17062
대놓고	17063
##들리	17064
신문	17065
베트	17066
1995	17067
보물	17068
적당	17069
##메달	17070
신뢰	17071
사전	17072
##바로	17073
브라질	17074
##어리	17075
파라	17076
연예	17077
작사	17078
지우	17079
즉시	17080
아리	17081
ㅓ야	17082
기기	17083
##uby	17084
",	17085
우	17086
전선	17087
당황	17088
##ED	17089
미소	17090
내려오	17091
함선	17092
흘리	17093
괴롭	17094
##tt	17095
##즈키	17096
##이터	17097
68	17098
뒤집	17099
페이지	17100
##ee	17101
폭풍	17102
등판	17103
은근	17104
lt	17105
오픈	17106
800	17107
소문	17108
탑승	17109
명예	17110
열심히	17111
스파이	17112
상품	17113
화장	17114
입수	17115
레전드	17116
오프닝	17117
군	17118
갑옷	17119
별도	17120
경유	17121
러브	17122
심리	17123
시행	17124
경기장	17125
단일	17126
파리	17127
63	17128
아야	17129
말리	17130
의회	17131
1980	17132
변호	17133
라스	17134
통제	17135
마련	17136
##카와	17137
댓글	17138
반격	17139
##ong	17140
##AM	17141
ruby	17142
스티	17143
운명	17144
가면라이더	17145
오류	17146
정류	17147
응원	17148
푸르	17149
트레	17150
##세우	17151
레오	17152
후쿠	17153
한때	17154
커뮤니티	17155
신청	17156
쓰레	17157
트위터	17158
격파	17159
라이벌	17160
사령관	17161
##ort	17162
김성	17163
주전	17164
고전	17165
기독교	17166
출판	17167
습득	17168
이승	17169
##웨어	17170
중계	17171
공기	17172
편의	17173
##ith	17174
수업	17175
하수	17176
심장	17177
처하	17178
##리티	17179
오해	17180
불만	17181
신고	17182
마인	17183
마주	17184
두산	17185
울산	17186
##아먹	17187
71	17188
##if	17189
74	17190
관객	17191
##다지	17192
전라	17193
외국인	17194
카나	17195
정말로	17196
랜드	17197
보정	17198
주위	17199
##ly	17200
크루	17201
##fff	17202
건축	17203
##아버지	17204
출장	17205
....	17206
스트라이	17207
##나무	17208
용어	17209
MV	17210
##ld	17211
고기	17212
공유	17213
그곳	17214
전달	17215
73	17216
여론	17217
67	17218
아트	17219
메이저	17220
ffffff	17221
민간	17222
사운드	17223
짜리	17224
절반	17225
가리키	17226
조치	17227
##티컬	17228
고치	17229
지형	17230
갈등	17231
여신	17232
##도우	17233
붙잡	17234
임시	17235
무적	17236
자치	17237
##학자	17238
재능	17239
가득	17240
전함	17241
아오	17242
전공	17243
요새	17244
압박	17245
NC	17246
##ain	17247
리버	17248
별개	17249
엔터	17250
초월	17251
##ist	17252
96	17253
카라	17254
##겨나	17255
쌓이	17256
종점	17257
연구소	17258
오로	17259
네이버	17260
스튜	17261
니시	17262
1994	17263
##ind	17264
북쪽	17265
전형	17266
추적	17267
메가	17268
TH	17269
그다지	17270
메타	17271
시각	17272
##타인	17273
180	17274
컨텐츠	17275
남쪽	17276
제하	17277
늑대	17278
보장	17279
발매되	17280
지켜	17281
테이	17282
AC	17283
돌진	17284
소멸	17285
##서트	17286
판타지	17287
하	17288
시야	17289
81	17290
AT	17291
결승전	17292
전시	17293
널리	17294
클라	17295
타점	17296
든지	17297
다행히	17298
파이어	17299
일부러	17300
##per	17301
불꽃	17302
그만큼	17303
동네	17304
화이트	17305
환자	17306
##듀서	17307
프로듀서	17308
##ps	17309
강원	17310
동기	17311
가이	17312
##지컬	17313
##EN	17314
서부	17315
여동생	17316
문제점	17317
흔하	17318
적히	17319
화려	17320
##츠키	17321
쓰러뜨리	17322
그림자	17323
선호	17324
왕조	17325
동원	17326
폭력	17327
상향	17328
우스	17329
지켜보	17330
파이널	17331
회원	17332
대만	17333
뛰어	17334
본명	17335
치명타	17336
신라	17337
유로	17338
북부	17339
유비	17340
신세	17341
맞서	17342
물러	17343
##EC	17344
소드	17345
자는	17346
따오	17347
78	17348
##가와	17349
##식간	17350
91	17351
##거나	17352
##OL	17353
##스탄	17354
수요	17355
순식간	17356
연상	17357
무난	17358
##ew	17359
도서관	17360
테스트	17361
향상	17362
아시	17363
메시	17364
전역	17365
매력	17366
클로	17367
학과	17368
##돌리	17369
차트	17370
전적	17371
##더스	17372
변형	17373
스토	17374
최상	17375
전방	17376
시드	17377
부품	17378
찾아	17379
지르	17380
84	17381
CP	17382
체포	17383
영토	17384
아일	17385
일상	17386
수집	17387
크리티컬	17388
암흑	17389
전투력	17390
게이트	17391
##사키	17392
코믹스	17393
아우	17394
키스	17395
영업	17396
##LC	17397
마술	17398
me	17399
인수	17400
토모	17401
##드라	17402
##ry	17403
수용	17404
이마	17405
저런	17406
조절	17407
파견	17408
드디어	17409
폭격	17410
복잡	17411
학살	17412
복장	17413
유전	17414
##려움	17415
오빠	17416
##어스	17417
82	17418
바라보	17419
대우	17420
떡밥	17421
##lo	17422
입력	17423
그래픽	17424
구현	17425
편지	17426
개통	17427
생명력	17428
호환	17429
현지	17430
97	17431
추락	17432
신인	17433
사자	17434
천사	17435
도달	17436
아무런	17437
고향	17438
동부	17439
닌자	17440
사토	17441
##덜란드	17442
네덜란드	17443
청년	17444
86	17445
창작	17446
아가	17447
디아	17448
경비	17449
점차	17450
반지	17451
작동	17452
맞이	17453
콜라	17454
콘서트	17455
연관	17456
프레임	17457
교황	17458
엘프	17459
종이	17460
한국인	17461
쓰레기	17462
수송	17463
출현	17464
노예	17465
스톤	17466
기초	17467
그치	17468
##레나	17469
제이	17470
모바	17471
추격	17472
단	17473
해설	17474
it	17475
해체	17476
69	17477
##퍼스	17478
##피	17479
다시	17480
다시피	17481
몰래	17482
달하	17483
##어버리	17484
구도	17485
조용	17486
충청	17487
의상	17488
##노스	17489
심판	17490
##크스	17491
간격	17492
공급	17493
녹음	17494
아티	17495
##오카	17496
is	17497
주먹	17498
아무것	17499
##히로	17500
식물	17501
토리	17502
막장	17503
시위	17504
조성	17505
NPC	17506
프리미	17507
전투기	17508
사쿠라	17509
께	17510
##오프	17511
##IT	17512
제자	17513
조조	17514
잉글	17515
연사	17516
둘러	17517
##둥이	17518
돌아다니	17519
수술	17520
무효	17521
스마트	17522
연애	17523
검색	17524
슬롯	17525
잖	17526
실드	17527
만든	17528
##시코	17529
마스	17530
감시	17531
##타로	17532
레스	17533
스카이	17534
US	17535
일제	17536
블록	17537
꼬리	17538
헤이	17539
법원	17540
##스트라	17541
동쪽	17542
##특별	17543
마리오	17544
나루	17545
경험치	17546
구체	17547
MS	17548
고교	17549
옛날	17550
놓치	17551
##보내	17552
An	17553
통상	17554
총기	17555
김정	17556
##티나	17557
범인	17558
탱크	17559
구속	17560
베트남	17561
라이더	17562
진지	17563
##모로	17564
##버트	17565
##ust	17566
신분	17567
대립	17568
신규	17569
장교	17570
성과	17571
은하	17572
연락	17573
국립	17574
예외	17575
쿠키	17576
250	17577
어깨	17578
##주시	17579
KT	17580
강의	17581
인근	17582
##어도	17583
입구	17584
지도자	17585
신성	17586
다섯	17587
차단	17588
규칙	17589
글자	17590
##50	17591
되찾	17592
##니까	17593
불편	17594
대대	17595
메카	17596
마도	17597
평타	17598
프린	17599
요정	17600
언제나	17601
바보	17602
창조	17603
박살	17604
코인	17605
마리아	17606
안습	17607
총선	17608
유희	17609
모바일	17610
동작	17611
토론	17612
##도로	17613
후기	17614
##비전	17615
##일리	17616
여러모로	17617
환상	17618
아크	17619
에드	17620
189	17621
거짓말	17622
##디아	17623
노출	17624
기여	17625
의료	17626
##파이어	17627
##브리	17628
권총	17629
세월	17630
소총	17631
접하	17632
이래	17633
##자키	17634
이리	17635
이득	17636
농구	17637
어택	17638
일원	17639
자이언	17640
무료	17641
신호	17642
블레이드	17643
202	17644
서쪽	17645
가시	17646
##영상	17647
이날	17648
1992	17649
부위	17650
출처	17651
정복	17652
개혁	17653
음성	17654
미술	17655
폭주	17656
극단	17657
잠수	17658
##스턴	17659
고생	17660
띄우	17661
92	17662
헌터	17663
##BO	17664
##ore	17665
##저히	17666
간부	17667
##톨릭	17668
Ar	17669
참전	17670
반발	17671
전직	17672
교전	17673
고용	17674
투어	17675
대체로	17676
양산	17677
일자	17678
보석	17679
고문	17680
폴란드	17681
대량	17682
키리	17683
연도	17684
상점	17685
83	17686
글로	17687
라이프	17688
제법	17689
호평	17690
상상	17691
제어	17692
사마	17693
길이	17694
동영상	17695
수영	17696
정류장	17697
랄	17698
승격	17699
전대	17700
Te	17701
##보드	17702
출력	17703
사양	17704
합격	17705
89	17706
기습	17707
잖아	17708
휘두르	17709
하고	17710
터치	17711
##FF	17712
101	17713
93	17714
1993	17715
공학	17716
잉글랜드	17717
반하	17718
지휘관	17719
북미	17720
De	17721
MAX	17722
제작진	17723
태우	17724
기병	17725
득표	17726
윌리	17727
중대	17728
94	17729
요괴	17730
마루	17731
합성	17732
미디어	17733
이랑	17734
다이아	17735
머신	17736
환승	17737
인증	17738
링	17739
법률	17740
com	17741
79	17742
끼치	17743
메인	17744
적어도	17745
##일드	17746
탄약	17747
조심	17748
가량	17749
박근	17750
런던	17751
회차	17752
구출	17753
요즘	17754
탱커	17755
##FC	17756
파일럿	17757
의혹	17758
원소	17759
re	17760
매니	17761
리얼	17762
활성	17763
사이드	17764
동방	17765
유령	17766
포탑	17767
하수인	17768
알파	17769
노멀	17770
삼진	17771
히데	17772
침공	17773
다면서	17774
87	17775
마이클	17776
디지털	17777
분기	17778
이재	17779
##란색	17780
개정	17781
서양	17782
멋지	17783
가톨릭	17784
묘지	17785
인공	17786
의무	17787
##우드	17788
볼넷	17789
훔치	17790
이슬람	17791
똑같이	17792
네임	17793
가속	17794
결성	17795
##one	17796
예비	17797
축제	17798
대략	17799
On	17800
가게	17801
블러	17802
학자	17803
패널	17804
경고	17805
레인저	17806
계정	17807
이시	17808
##se	17809
타케	17810
이자	17811
##ip	17812
헌법	17813
소화	17814
전면	17815
이내	17816
아일랜드	17817
##AC	17818
AI	17819
부부	17820
스키	17821
DJ	17822
특화	17823
##RE	17824
익숙	17825
용사	17826
상호	17827
##미야	17828
나아가	17829
##ᇀ이	17830
같이	17831
미츠	17832
었었	17833
갤럭	17834
##ere	17835
캐스	17836
##먼트	17837
스웨	17838
##임스	17839
문장	17840
바이러스	17841
메모리	17842
슈트	17843
도망가	17844
루시	17845
어지	17846
워치	17847
실리	17848
근육	17849
대항	17850
커맨	17851
불법	17852
넘치	17853
##PG	17854
리메	17855
BGM	17856
MC	17857
플레이오프	17858
핸드	17859
베스트	17860
어둡	17861
오가	17862
플로	17863
##오	17864
SN	17865
자매	17866
유행	17867
묻히	17868
한방	17869
개체	17870
##ity	17871
도발	17872
냐며	17873
들어서	17874
##ath	17875
김영	17876
##창기	17877
보안	17878
쿠로	17879
육성	17880
##조리	17881
예측	17882
빛나	17883
어린이	17884
예고	17885
트로	17886
소닉	17887
이즈	17888
자금	17889
갤럭시	17890
##라이언	17891
신기	17892
총리	17893
으니까	17894
노르	17895
검찰	17896
취임	17897
멕시코	17898
형사	17899
FIFA	17900
터키	17901
정면	17902
려다	17903
결론	17904
사제	17905
길드	17906
##end	17907
국방	17908
웬만	17909
차리	17910
리스트	17911
스톰	17912
고백	17913
1991	17914
##끄럽	17915
루타	17916
파크	17917
구멍	17918
캐리	17919
식사	17920
움직임	17921
불러	17922
마구	17923
일시	17924
레이스	17925
리치	17926
세이브	17927
호텔	17928
곧바로	17929
상업	17930
앞두	17931
감옥	17932
이명	17933
!!	17934
##펙트	17935
저장	17936
여유	17937
절망	17938
제임스	17939
찾아보	17940
개방	17941
부서	17942
진심	17943
##워크	17944
투구	17945
사이즈	17946
구원	17947
틀리	17948
유대	17949
볼트	17950
초창기	17951
플랫	17952
##기	17953
세르	17954
THE	17955
700	17956
타마	17957
플레	17958
대가	17959
FA	17960
피부	17961
너무나	17962
와이	17963
배차	17964
##요시	17965
##고리	17966
박정	17967
듯이	17968
청소년	17969
오랫	17970
팀원	17971
흥행	17972
ㅕㅆ	17973
강철	17974
번개	17975
바치	17976
카타	17977
착각	17978
좌우	17979
##특별시	17980
전철	17981
커플	17982
##릭스	17983
여지	17984
1988	17985
##구리	17986
바위	17987
파트너	17988
발달	17989
어떠	17990
##레이터	17991
세포	17992
리메이크	17993
MVP	17994
소형	17995
##로나	17996
아끼	17997
처벌	17998
그동안	17999
스미	18000
서울특별시	18001
떠오르	18002
현역	18003
다스	18004
레이드	18005
아기	18006
신설	18007
긍정	18008
아빠	18009
주식	18010
융합	18011
##데스	18012
##네스	18013
주간	18014
원자	18015
망치	18016
외계	18017
분량	18018
차라리	18019
프라이	18020
정착	18021
Ro	18022
위장	18023
물러나	18024
미카	18025
##OT	18026
인정받	18027
돼지	18028
반사	18029
챕터	18030
카스	18031
합의	18032
##디언	18033
식민	18034
랭킹	18035
내성	18036
##성기	18037
목격	18038
인연	18039
누적	18040
커지	18041
협박	18042
전문가	18043
내장	18044
장악	18045
단장	18046
게스트	18047
의뢰	18048
화학	18049
빌드	18050
보고	18051
CC	18052
방지	18053
에서부터	18054
포스트	18055
클리	18056
야스	18057
브레이크	18058
잡지	18059
박근혜	18060
Wh	18061
해병	18062
영향력	18063
공지	18064
논리	18065
대리	18066
방출	18067
안드로이드	18068
동의	18069
태그	18070
국왕	18071
사우	18072
방사	18073
는다면	18074
AK	18075
시즈	18076
깨지	18077
타이거	18078
먹히	18079
조약	18080
고지	18081
포트	18082
각자	18083
그대	18084
몰아	18085
떠올리	18086
요코	18087
배트	18088
한번	18089
괴롭히	18090
관할	18091
저녁	18092
지능	18093
##ect	18094
DLC	18095
골든	18096
국군	18097
하필	18098
칭하	18099
htt	18100
라면서	18101
대폭	18102
Se	18103
1970	18104
의존	18105
##스키	18106
최소한	18107
양쪽	18108
으려고	18109
손가락	18110
호주	18111
토르	18112
Le	18113
악역	18114
마침내	18115
루이	18116
스턴	18117
##지마	18118
동화	18119
홀로	18120
연맹	18121
과목	18122
변호사	18123
대지	18124
어다	18125
실버	18126
공무원	18127
유치	18128
'.	18129
후속작	18130
막차	18131
기구	18132
수련	18133
본작	18134
그럼	18135
무역	18136
섞이	18137
수수	18138
He	18139
면역	18140
소지	18141
보관	18142
소원	18143
오랫동안	18144
무덤	18145
PD	18146
##age	18147
오사카	18148
웹툰	18149
주말	18150
역임	18151
##IS	18152
귀신	18153
오카	18154
육체	18155
연인	18156
##밀리	18157
크라	18158
기원전	18159
al	18160
혐의	18161
스튜디오	18162
해리	18163
내구	18164
명중률	18165
확대	18166
재산	18167
카오스	18168
접촉	18169
호감	18170
어쨌	18171
불교	18172
다가오	18173
적대	18174
##구치	18175
네트	18176
kt	18177
##잡이	18178
노부	18179
대처	18180
명성	18181
써먹	18182
강남	18183
스틸	18184
태평	18185
계단	18186
올해	18187
전후	18188
비행기	18189
Go	18190
연료	18191
예능	18192
정비	18193
Me	18194
출마	18195
통치	18196
테일	18197
간혹	18198
슈팅	18199
##페인	18200
팔리	18201
오늘날	18202
합체	18203
트레이드	18204
피스	18205
로즈	18206
모모	18207
예쁘	18208
정치인	18209
부장	18210
컬러	18211
마키	18212
정원	18213
퀄리티	18214
흐름	18215
개성	18216
ᆫ다며	18217
소장	18218
블리	18219
리드	18220
시마	18221
안내	18222
놀랍	18223
학부	18224
이지	18225
오전	18226
게시판	18227
소스	18228
GT	18229
놓이	18230
##다이	18231
준수	18232
휴대	18233
접속	18234
더라	18235
저그	18236
수익	18237
권리	18238
##베르	18239
1989	18240
떨어	18241
##라드	18242
KIA	18243
권한	18244
원수	18245
특집	18246
패하	18247
연극	18248
하우스	18249
##og	18250
외형	18251
금융	18252
##ake	18253
##ide	18254
필리	18255
##어나오	18256
박물	18257
코미	18258
선전	18259
화제	18260
김태	18261
새벽	18262
허리	18263
윌리엄	18264
상당수	18265
##OM	18266
Be	18267
피격	18268
이집	18269
##구	18270
My	18271
초간	18272
이집트	18273
주기	18274
WW	18275
무렵	18276
따라가	18277
공공	18278
담기	18279
환영	18280
편곡	18281
페이즈	18282
##바라	18283
일기	18284
130	18285
최다	18286
금속	18287
포르투	18288
갇히	18289
꼽히	18290
알아보	18291
##려주	18292
나치	18293
AR	18294
둘째	18295
메르	18296
고구	18297
원칙	18298
##ss	18299
카미	18300
결합	18301
SC	18302
##ark	18303
##티아	18304
누나	18305
##ime	18306
깨닫	18307
연타	18308
##ire	18309
알렉산	18310
할아버지	18311
치우	18312
SM	18313
편입	18314
식당	18315
시계	18316
굴리	18317
유물	18318
개입	18319
문재	18320
캠퍼스	18321
한동안	18322
기도	18323
인조	18324
매직	18325
어른	18326
##세스	18327
지진	18328
거인	18329
188	18330
전신	18331
으러	18332
소중	18333
아니면	18334
극복	18335
wh	18336
116	18337
블로그	18338
전진	18339
시선	18340
까다	18341
성립	18342
영문	18343
주사	18344
my	18345
Su	18346
##ES	18347
정찰	18348
은근히	18349
정글	18350
헤비	18351
회상	18352
아바	18353
기사단	18354
##프레	18355
사도	18356
SD	18357
협상	18358
ㅓ도	18359
캐스팅	18360
메뉴	18361
궤도	18362
스웨덴	18363
##ID	18364
그로	18365
시내버스	18366
팬덤	18367
Tr	18368
음원	18369
는지라	18370
대개	18371
##닉스	18372
작곡가	18373
손해	18374
##ite	18375
익히	18376
대충	18377
튀어나오	18378
##던가	18379
독특	18380
재단	18381
수십	18382
동굴	18383
##다랗	18384
우위	18385
더더	18386
별다르	18387
##아시아	18388
복무	18389
무겁	18390
고수	18391
안티	18392
민주주의	18393
용기	18394
식량	18395
##부르크	18396
털리	18397
트럭	18398
160	18399
교차	18400
리아	18401
종목	18402
이익	18403
해안	18404
##회사	18405
처형	18406
##ound	18407
조언	18408
일찍	18409
멀쩡	18410
트랜	18411
SR	18412
아이스	18413
클래식	18414
과제	18415
리듬	18416
이끄	18417
세이버	18418
위상	18419
##iv	18420
원본	18421
더더욱	18422
##가시	18423
HD	18424
''	18425
펀치	18426
커맨드	18427
신비	18428
커스	18429
##리그	18430
김민	18431
빼앗기	18432
타인	18433
박물관	18434
까다롭	18435
트윈	18436
##가미	18437
애플	18438
##iz	18439
##OP	18440
삼국지	18441
##쳐지	18442
훗날	18443
##ge	18444
증언	18445
해적	18446
멘탈	18447
천재	18448
날짜	18449
허나	18450
절대로	18451
적군	18452
IC	18453
자국	18454
갈수	18455
일격	18456
살아가	18457
마비	18458
신앙	18459
위원장	18460
구사	18461
##가리	18462
신부	18463
##큐어	18464
##OW	18465
갈수록	18466
구나	18467
노인	18468
재미있	18469
각본	18470
무릎	18471
코우	18472
중독	18473
하얗	18474
느라	18475
기적	18476
재정	18477
죄다	18478
바리	18479
세종	18480
주포	18481
집행	18482
양성	18483
##무르	18484
스승	18485
철학	18486
하락	18487
우라	18488
참석	18489
놀이	18490
지위	18491
##바르	18492
마이너	18493
캠페인	18494
과연	18495
비례	18496
데모	18497
유이	18498
정수	18499
개시	18500
예산	18501
결코	18502
모자라	18503
국적	18504
적응	18505
패션	18506
교류	18507
관중	18508
호위	18509
작화	18510
크리스마스	18511
한참	18512
탄창	18513
매체	18514
이브	18515
이중	18516
##덩이	18517
##LL	18518
열쇠	18519
안경	18520
히메	18521
##ome	18522
하야	18523
활발	18524
시아	18525
경기력	18526
Gr	18527
내세우	18528
원주	18529
선출	18530
투명	18531
십자	18532
##테르	18533
해상	18534
with	18535
바퀴	18536
우연히	18537
김종	18538
루수	18539
체크	18540
##BA	18541
희귀	18542
명단	18543
비추	18544
녹색	18545
충성	18546
##UN	18547
화성	18548
클레	18549
##마디	18550
진보	18551
미안	18552
스타크래프트	18553
드레	18554
데려오	18555
이영	18556
칭찬	18557
개수	18558
사막	18559
개막	18560
첫차	18561
주일	18562
로그	18563
결말	18564
##아웃	18565
IS	18566
##미니	18567
위대	18568
행적	18569
으라	18570
##지로	18571
전성기	18572
##몬드	18573
제정	18574
당일	18575
의대	18576
모래	18577
기르	18578
인지도	18579
흔적	18580
칼리	18581
1987	18582
상급	18583
기종	18584
챌린	18585
흔들리	18586
후방	18587
업적	18588
오스트리아	18589
de	18590
미터	18591
강점	18592
BE	18593
px	18594
임대	18595
상성	18596
140	18597
농담	18598
어지간	18599
김동	18600
웃음	18601
포로	18602
호수	18603
계통	18604
겟	18605
사유	18606
도우	18607
보라	18608
##MA	18609
Pr	18610
버스터	18611
재현	18612
대학원	18613
취미	18614
면적	18615
무작	18616
새기	18617
매년	18618
##ord	18619
스프링	18620
어쨌든	18621
Love	18622
비상	18623
오직	18624
토끼	18625
어려움	18626
체육관	18627
클릭	18628
심사	18629
##ud	18630
일반인	18631
포항	18632
고스트	18633
개량	18634
사후	18635
신장	18636
거점	18637
프리큐어	18638
생존자	18639
유적	18640
이정	18641
남북	18642
어마	18643
강도	18644
기아	18645
자책	18646
과장	18647
니코	18648
새끼	18649
ch	18650
본체	18651
으시	18652
모조리	18653
##양함	18654
자본	18655
대수	18656
괴수	18657
자극	18658
##려나	18659
예수	18660
이주	18661
가을	18662
##mp	18663
부지	18664
파츠	18665
##사자	18666
화물	18667
##데미	18668
울리	18669
사라	18670
##10	18671
로우	18672
부작	18673
맥스	18674
저작	18675
전멸	18676
##ame	18677
기용	18678
소위	18679
UE	18680
선고	18681
##ance	18682
아메리카	18683
캡틴	18684
연금	18685
추구	18686
기울	18687
아티스트	18688
SKT	18689
##ax	18690
##카드	18691
미라	18692
구리	18693
인격	18694
자세히	18695
에리	18696
an	18697
##치기	18698
가짜	18699
출입	18700
행하	18701
판매량	18702
JR	18703
공세	18704
##ure	18705
아카데미	18706
유나이	18707
유니폼	18708
불타	18709
##ix	18710
흥미	18711
900	18712
일치	18713
차기	18714
GS	18715
승점	18716
채택	18717
어스	18718
시달리	18719
포격	18720
##코드	18721
공룡	18722
일방	18723
단편	18724
유나이티	18725
취향	18726
무지	18727
##ick	18728
소송	18729
##mer	18730
스마트폰	18731
도주	18732
덧붙이	18733
포드	18734
탈퇴	18735
메리	18736
카트	18737
##이즈	18738
코코	18739
일본인	18740
##ice	18741
막대	18742
사형	18743
연패	18744
기량	18745
색깔	18746
타율	18747
피아노	18748
스트리	18749
바깥	18750
몽골	18751
귀찮	18752
##our	18753
제작자	18754
잘리	18755
한마디	18756
Bo	18757
유통	18758
건조	18759
노벨	18760
코리아	18761
상실	18762
아즈	18763
타선	18764
화장실	18765
할머니	18766
드라이브	18767
런	18768
구경	18769
후계	18770
생겨나	18771
영구	18772
치유	18773
집어	18774
마린	18775
라이온	18776
측정	18777
EP	18778
식민지	18779
비주	18780
내지	18781
미루	18782
요금	18783
##시로	18784
아미	18785
자전	18786
보존	18787
1986	18788
거듭	18789
로고	18790
날아오	18791
다름	18792
##공화국	18793
선택지	18794
쌍둥이	18795
어드	18796
무라	18797
잠재	18798
1960	18799
아이콘	18800
##이너	18801
OST	18802
상인	18803
무방	18804
커피	18805
##비드	18806
빨갛	18807
사신	18808
강요	18809
레이더	18810
##랭크	18811
메시지	18812
##코토	18813
인민공화국	18814
KO	18815
##{{	18816
Un	18817
간신	18818
언스	18819
이민	18820
##고속	18821
이슈	18822
통산	18823
가요	18824
동력	18825
가상	18826
박히	18827
##랑이	18828
Ex	18829
포수	18830
신사	18831
넥센	18832
도끼	18833
조연	18834
색상	18835
피터	18836
다치	18837
데드	18838
캐논	18839
##AD	18840
명확	18841
오타	18842
몰락	18843
연승	18844
##qu	18845
주택	18846
화재	18847
사원	18848
여객	18849
ᆫᄃ	18850
##멘트	18851
루카	18852
교장	18853
네트워크	18854
그러니	18855
주소	18856
타락	18857
곡명	18858
귀환	18859
##oc	18860
가루	18861
냄새	18862
브루	18863
안타깝	18864
{{{	18865
외전	18866
즐겁	18867
초보	18868
콜라보	18869
##반도	18870
유희왕	18871
터뜨리	18872
제갈	18873
실망	18874
판결	18875
##80	18876
구르	18877
##시스트	18878
아서	18879
칭호	18880
모토	18881
등지	18882
GB	18883
##카리	18884
대선	18885
찾아내	18886
경로	18887
레알	18888
수장	18889
UEFA	18890
항공기	18891
이터	18892
스페이스	18893
광역시	18894
슈	18895
남녀	18896
위반	18897
깔끔	18898
매니저	18899
거미	18900
비치	18901
포르투갈	18902
DS	18903
고구려	18904
타수	18905
연합군	18906
186	18907
##own	18908
sh	18909
##ys	18910
아케	18911
반동	18912
##나카	18913
아마도	18914
라인업	18915
순환	18916
CPU	18917
##노우	18918
혐오	18919
교실	18920
영주	18921
##럼프	18922
그만두	18923
베네	18924
소라	18925
법인	18926
항복	18927
ᄇ시	18928
백성	18929
##라노	18930
래	18931
##라이트	18932
너희	18933
관찰	18934
복지	18935
##든가	18936
타운	18937
잠수함	18938
미스터	18939
##ber	18940
단단	18941
비서	18942
주역	18943
주자	18944
적합	18945
캠프	18946
스터	18947
배터리	18948
매장	18949
수류	18950
We	18951
관람	18952
익스	18953
AM	18954
커다랗	18955
예시	18956
유효	18957
강원도	18958
커리어	18959
드래프트	18960
싱크	18961
흘러	18962
##저스	18963
히어로즈	18964
끊기	18965
105	18966
공성	18967
카츠	18968
공업	18969
##av	18970
아쿠	18971
둘러싸	18972
##OC	18973
흑인	18974
인치	18975
하단	18976
고도	18977
유학	18978
벌레	18979
트라이	18980
이스라	18981
승객	18982
##old	18983
예언	18984
용량	18985
김재	18986
##정부	18987
동성	18988
.."	18989
고작	18990
본사	18991
##로디	18992
##시타	18993
상단	18994
승률	18995
##일보	18996
국경	18997
추억	18998
소프트웨어	18999
CF	19000
면모	19001
천만	19002
마약	19003
포위	19004
휴식	19005
서구	19006
티켓	19007
관측	19008
LI	19009
철수	19010
수출	19011
일대	19012
그러니까	19013
##orld	19014
도적	19015
곤란	19016
중립	19017
자폭	19018
카운트	19019
생략	19020
스텔	19021
구글	19022
개국	19023
표지	19024
적당히	19025
수류탄	19026
터널	19027
상술	19028
변환	19029
음모	19030
조별	19031
클랜	19032
인디	19033
마드리	19034
기생	19035
좌석	19036
허가	19037
합병	19038
다름없	19039
추종	19040
형상	19041
##위대	19042
고맙	19043
소대	19044
대인	19045
시그	19046
사이버	19047
실전	19048
오크	19049
히나	19050
치루	19051
정기	19052
후술	19053
아랍	19054
##가스	19055
김대	19056
문구	19057
내전	19058
마드리드	19059
통계	19060
1984	19061
디스크	19062
더럽	19063
보험	19064
인종	19065
차이점	19066
메달	19067
마디	19068
##ont	19069
1985	19070
글로벌	19071
연예인	19072
최신	19073
근본	19074
복구	19075
##려들	19076
지경	19077
언더	19078
액티브	19079
입지	19080
사명	19081
187	19082
서포터	19083
증오	19084
SH	19085
지뢰	19086
후손	19087
이스라엘	19088
스트라이크	19089
후배	19090
아시안	19091
용서	19092
에르	19093
구석	19094
담배	19095
성남	19096
##데이	19097
3000	19098
사정거리	19099
위성	19100
일족	19101
시너지	19102
타로	19103
크리스탈	19104
떨어뜨리	19105
AD	19106
##ies	19107
허락	19108
LC	19109
기숙	19110
고위	19111
DF	19112
급격	19113
그랜드	19114
자막	19115
즉위	19116
리타	19117
숙련	19118
##머스	19119
함수	19120
논의	19121
부각	19122
전주	19123
하차	19124
고개	19125
텔레비전	19126
구슬	19127
공방	19128
lo	19129
꾸미	19130
KBO	19131
행보	19132
오라	19133
어뢰	19134
미묘	19135
경주	19136
##팩트	19137
토벌	19138
시노	19139
쓸모	19140
감각	19141
모니	19142
발행	19143
해피	19144
데려가	19145
아츠	19146
모노	19147
들키	19148
언덕	19149
서식	19150
It	19151
왕위	19152
마그	19153
##lay	19154
연령	19155
특전	19156
네요	19157
튕기	19158
XX	19159
준우	19160
중첩	19161
태평양	19162
부딪	19163
취약	19164
가만	19165
뜬금	19166
후원	19167
오랜만	19168
제약	19169
쿼터	19170
블러드	19171
루나	19172
베리	19173
노동자	19174
무척	19175
침략	19176
저렴	19177
정화	19178
간신히	19179
##자드	19180
총알	19181
기관총	19182
##OD	19183
침입	19184
##하면	19185
눈치채	19186
세븐	19187
노스	19188
MF	19189
드롭	19190
간접	19191
일본군	19192
생년	19193
오마	19194
##US	19195
아르헨	19196
방어구	19197
##블린	19198
제트	19199
워커	19200
흡혈	19201
분쟁	19202
법정	19203
입대	19204
##어마	19205
알아내	19206
헬기	19207
파르	19208
학습	19209
혹시	19210
균형	19211
드럼	19212
맛있	19213
가동	19214
찍히	19215
아테	19216
전이	19217
CV	19218
사귀	19219
진압	19220
강자	19221
##프리	19222
카카	19223
산하	19224
WWE	19225
.....	19226
##PM	19227
아르헨티나	19228
##ann	19229
잡아먹	19230
곳곳	19231
레슬	19232
찬스	19233
공용	19234
텍스트	19235
소방	19236
평생	19237
머무르	19238
여우	19239
조이	19240
분열	19241
스리	19242
NE	19243
아이언	19244
SE	19245
어마어마	19246
주차	19247
모시	19248
비스	19249
자이언츠	19250
관점	19251
##40	19252
중세	19253
네오	19254
신전	19255
동인	19256
약화	19257
악당	19258
금방	19259
정차	19260
나리	19261
125	19262
##pe	19263
깨어나	19264
플라이	19265
이토	19266
잡아내	19267
거울	19268
##30	19269
우르	19270
트랜스	19271
애정	19272
부적	19273
페널	19274
결심	19275
지리	19276
이수	19277
경상북도	19278
딜링	19279
라기	19280
반전	19281
##말리	19282
제작사	19283
나폴	19284
격추	19285
내보내	19286
제출	19287
상기	19288
##네임	19289
성당	19290
앨리스	19291
##sh	19292
연고	19293
보호막	19294
your	19295
니콜	19296
이혼	19297
되돌리	19298
통화	19299
양자	19300
크림	19301
스팀	19302
이란	19303
던지	19304
토너	19305
표면	19306
호흡	19307
##NA	19308
폐쇄	19309
##배우	19310
사령부	19311
금액	19312
아저	19313
##마크	19314
결전	19315
큐브	19316
구축함	19317
엘리트	19318
미즈	19319
아저씨	19320
간주	19321
코르	19322
히토	19323
악화	19324
저택	19325
보완	19326
뮤지컬	19327
창원	19328
구름	19329
이식	19330
세인트	19331
얻어	19332
인권	19333
뽑히	19334
충실	19335
##VD	19336
채팅	19337
스크린	19338
헤어지	19339
CJ	19340
김현	19341
불사	19342
선거구	19343
착하	19344
AS	19345
용인	19346
상관없	19347
라면	19348
##란	19349
참모	19350
전파	19351
초록	19352
열매	19353
##나미	19354
부자	19355
주둔	19356
지불	19357
DE	19358
발리	19359
인용	19360
하루카	19361
유력	19362
##은행	19363
암시	19364
대왕	19365
천안	19366
##ng	19367
##키아	19368
##io	19369
낚시	19370
긴장	19371
정예	19372
교과	19373
분해	19374
물리치	19375
묘하	19376
##천시	19377
해치	19378
##베이	19379
빠져	19380
토니	19381
프란	19382
동양	19383
유발	19384
문재인	19385
소	19386
서서	19387
보건	19388
존재감	19389
성별	19390
공정	19391
경남	19392
체결	19393
남아	19394
시인	19395
배포	19396
학력	19397
상세	19398
소유자	19399
낮추	19400
지라	19401
엮이	19402
수석	19403
##거지	19404
우에	19405
후계자	19406
;&	19407
악기	19408
언젠	19409
언젠가	19410
답변	19411
드라이버	19412
마주치	19413
걸어	19414
에요	19415
짜증	19416
##리나	19417
상영	19418
##oo	19419
토너먼트	19420
원리	19421
수호자	19422
재밌	19423
도둑	19424
전승	19425
엑스트라	19426
바이오	19427
악명	19428
안기	19429
행운	19430
로버트	19431
개설	19432
##라기	19433
호기	19434
170	19435
이듬	19436
도박	19437
Pro	19438
구미	19439
본관	19440
뜨겁	19441
천하	19442
업로드	19443
잔뜩	19444
미쿠	19445
도라	19446
기인	19447
선두	19448
은신	19449
견디	19450
기숙사	19451
##싱턴	19452
##월일	19453
##ave	19454
뱀파이어	19455
양식	19456
실종	19457
쏟아지	19458
교도	19459
중량	19460
에다가	19461
지팡	19462
루비	19463
##포트	19464
릴리	19465
요인	19466
백인	19467
##걸이	19468
로리	19469
탐험	19470
정황	19471
##LE	19472
부임	19473
임신	19474
난입	19475
중력	19476
아동	19477
처분	19478
대책	19479
임금	19480
동점	19481
비아	19482
LV	19483
관리자	19484
캐스터	19485
디지몬	19486
미키	19487
심심	19488
##번트	19489
건드리	19490
만남	19491
방송국	19492
that	19493
논문	19494
야생	19495
칼날	19496
UP	19497
항의	19498
테라	19499
관계자	19500
헨리	19501
미네	19502
생년월일	19503
해명	19504
백작	19505
시카	19506
유독	19507
탄환	19508
##센트	19509
분명히	19510
베타	19511
호칭	19512
##우마	19513
복합	19514
도루	19515
서번트	19516
카와	19517
##스럽	19518
금메달	19519
말투	19520
윈도우	19521
##ION	19522
동명	19523
생명체	19524
진주	19525
문단	19526
이라	19527
발렌	19528
##ream	19529
와일드	19530
할인	19531
법칙	19532
수백	19533
가방	19534
다이아몬드	19535
려던	19536
콜로	19537
ED	19538
1500	19539
단축	19540
자녀	19541
절차	19542
정통	19543
루이스	19544
잃어버리	19545
EN	19546
다니	19547
해골	19548
분신	19549
외계인	19550
무관	19551
영광	19552
기상	19553
보드	19554
운동장	19555
하향	19556
이드	19557
온도	19558
지치	19559
시합	19560
조리	19561
라틴	19562
이듬해	19563
브레	19564
주술	19565
분대	19566
프로필	19567
인력	19568
리뷰	19569
##리스트	19570
##ond	19571
창고	19572
1982	19573
치즈	19574
->	19575
딜레이	19576
부스터	19577
##펴보	19578
살펴보	19579
이온	19580
니스	19581
그르	19582
끔찍	19583
광장	19584
##어하	19585
로얄	19586
기름	19587
플래시	19588
##게임	19589
##iss	19590
Com	19591
5000	19592
왠지	19593
사살	19594
의학	19595
기둥	19596
크레	19597
창설	19598
그린	19599
뛰어넘	19600
전동	19601
건국	19602
성질	19603
울프	19604
전북	19605
마블	19606
한쪽	19607
유인	19608
막내	19609
공허	19610
엔젤	19611
체험	19612
레딧	19613
장인	19614
부드	19615
##에르	19616
퇴장	19617
그렇지만	19618
물고기	19619
부사	19620
유격	19621
존경	19622
민첩	19623
집착	19624
##태우	19625
우정	19626
##운서	19627
삽입	19628
디젤	19629
##군다	19630
아나운서	19631
걸맞	19632
웨스트	19633
상식	19634
##래	19635
참가자	19636
아키라	19637
승자	19638
1950	19639
##도르	19640
공산당	19641
##플레이	19642
##IP	19643
##11	19644
깔리	19645
창단	19646
요약	19647
블라	19648
휘말리	19649
시상	19650
감지	19651
시원	19652
작년	19653
진학	19654
모터	19655
시공	19656
그램	19657
가라	19658
증상	19659
전제	19660
독재	19661
##카이	19662
수면	19663
감추	19664
1983	19665
하츠	19666
의장	19667
불펜	19668
##60	19669
학기	19670
샌드	19671
출구	19672
복제	19673
##ian	19674
??	19675
by	19676
##비치	19677
##소녀	19678
아틀	19679
부드럽	19680
오디션	19681
he	19682
두르	19683
싫어하	19684
나츠	19685
유산	19686
##커스	19687
께서	19688
비전	19689
철저	19690
선제	19691
덩치	19692
발굴	19693
가공	19694
시라	19695
BL	19696
하이퍼	19697
헤어	19698
단원	19699
스위스	19700
투스	19701
유전자	19702
스폰	19703
&#	19704
반박	19705
##유럽	19706
go	19707
##갈리	19708
그럭	19709
레지	19710
트럼프	19711
여주	19712
항구	19713
타석	19714
리스크	19715
코트	19716
미만	19717
##세대	19718
돌입	19719
##저럭	19720
웃기	19721
안녕	19722
갑작	19723
중형	19724
스쿨	19725
사인	19726
콘텐츠	19727
스위치	19728
펼쳐지	19729
##티스	19730
비주얼	19731
다카	19732
그럭저럭	19733
사법	19734
주니어	19735
##쟁이	19736
노바	19737
기운	19738
##Hz	19739
통로	19740
준우승	19741
배정	19742
##TV	19743
수명	19744
백제	19745
마스크	19746
사용자	19747
대거	19748
어필	19749
출격	19750
휘하	19751
기재	19752
상륙	19753
라이플	19754
논쟁	19755
웨이브	19756
정교	19757
이펙트	19758
본진	19759
단행	19760
자전거	19761
##투스	19762
가죽	19763
배트맨	19764
보충	19765
토마	19766
##베스	19767
##ory	19768
신도	19769
깨달	19770
트리플	19771
훈장	19772
##필드	19773
호소	19774
##TE	19775
시리아	19776
##우리	19777
식품	19778
회담	19779
스트레스	19780
격차	19781
국장	19782
축복	19783
속이	19784
인질	19785
##ace	19786
##rom	19787
코미디	19788
시트	19789
##크라	19790
Co	19791
##세서	19792
실책	19793
##틀러	19794
스펠	19795
근대	19796
완결	19797
위안	19798
Bl	19799
옹호	19800
학문	19801
파편	19802
##카이도	19803
태국	19804
케인	19805
평양	19806
##누스	19807
공화	19808
카를	19809
지사	19810
처지	19811
싸이	19812
유기	19813
마우스	19814
;&#	19815
경전	19816
공립	19817
갈아	19818
루스	19819
워싱턴	19820
팬텀	19821
이글	19822
부근	19823
마케	19824
적중	19825
DVD	19826
##필더	19827
승인	19828
미드필더	19829
Br	19830
원문	19831
오키	19832
토지	19833
침묵	19834
소음	19835
피우	19836
메이드	19837
디즈	19838
슬로	19839
##부로	19840
기갑	19841
기동성	19842
경직	19843
소요	19844
플래그	19845
와타	19846
Or	19847
##무시	19848
##게이	19849
중국어	19850
세부	19851
커녕	19852
빅토	19853
##oth	19854
두들	19855
근거리	19856
트롤	19857
조기	19858
축하	19859
치킨	19860
배출	19861
##ows	19862
내각	19863
막판	19864
결투	19865
경상남도	19866
신나	19867
##시오	19868
보이스	19869
복선	19870
##산시	19871
시신	19872
오염	19873
솔직	19874
파동	19875
방위	19876
##MP	19877
연습생	19878
마감	19879
부실	19880
남매	19881
동계	19882
리카	19883
수능	19884
내일	19885
삼각	19886
간단히	19887
그레	19888
차체	19889
과학자	19890
급하	19891
##아다니	19892
후퇴	19893
동급	19894
테츠	19895
##그리	19896
기후	19897
고객	19898
임기	19899
날카	19900
##TS	19901
고리	19902
밀어	19903
센스	19904
넘버	19905
슬라이	19906
우세	19907
##키지	19908
헝가리	19909
##먼스	19910
무작위	19911
수급	19912
망가지	19913
왜곡	19914
무인	19915
상담	19916
학위	19917
손상	19918
##화점	19919
##신교	19920
국정	19921
한반도	19922
괜히	19923
지향	19924
규격	19925
##IG	19926
영지	19927
장거리	19928
노조	19929
바쁘	19930
리오	19931
야수	19932
##셔널	19933
CG	19934
약탈	19935
마법소녀	19936
일당	19937
##다보	19938
중시	19939
기세	19940
철거	19941
하마	19942
##주교	19943
무사히	19944
##경기	19945
##aw	19946
끼우	19947
선행	19948
185	19949
##하마	19950
토크	19951
요한	19952
유성	19953
날카롭	19954
##텐도	19955
닌텐도	19956
패키지	19957
스즈	19958
##타이	19959
최상위	19960
장탄	19961
멜로디	19962
과도	19963
##포르	19964
미나미	19965
야구장	19966
간간	19967
신발	19968
엔드	19969
##군다나	19970
양상	19971
록맨	19972
대포	19973
성전	19974
##ale	19975
SNS	19976
출루	19977
즈음	19978
프리미엄	19979
지칭	19980
질리	19981
타쿠	19982
그날	19983
변수	19984
개발자	19985
PV	19986
킬러	19987
스트리트	19988
핑크	19989
주류	19990
##ike	19991
대치	19992
독일군	19993
개별	19994
페이스북	19995
후자	19996
에서	19997
안개	19998
무산	19999
##틀랜드	20000
##하시	20001
특별히	20002
더군다나	20003
여러분	20004
영원히	20005
뭉치	20006
임팩트	20007
전망	20008
사키	20009
초인	20010
1945	20011
입주	20012
물체	20013
Cl	20014
챌린지	20015
집권	20016
##에이	20017
업계	20018
바디	20019
농업	20020
For	20021
무시무시	20022
데이비드	20023
군수	20024
리프	20025
부착	20026
원조	20027
흰색	20028
브로	20029
동남	20030
##키퍼	20031
##야수	20032
암살자	20033
장사	20034
첼시	20035
매번	20036
RPG	20037
나미	20038
왜냐	20039
청주	20040
만주	20041
중복	20042
##OU	20043
브라운	20044
계시	20045
##자와	20046
Dr	20047
질병	20048
##지만	20049
손실	20050
야마토	20051
최적	20052
악몽	20053
##바닥	20054
서서히	20055
필리핀	20056
##ep	20057
선조	20058
피트	20059
취득	20060
##irl	20061
##man	20062
폭행	20063
##우치	20064
동아리	20065
##ach	20066
##ile	20067
175	20068
##든지	20069
동경	20070
수비력	20071
1981	20072
슬프	20073
Sc	20074
인방	20075
BB	20076
호랑이	20077
##여객	20078
골키퍼	20079
OP	20080
서클	20081
벨트	20082
부동	20083
올스타	20084
해양	20085
여인	20086
구별	20087
102	20088
##공항	20089
호시	20090
잠입	20091
117	20092
지팡이	20093
헤르	20094
놀리	20095
어이	20096
진격	20097
인피	20098
나르	20099
파생	20100
##12	20101
고장	20102
Team	20103
106	20104
며칠	20105
배역	20106
끌려가	20107
교토	20108
##VA	20109
LA	20110
물량	20111
해킹	20112
##철도	20113
##ink	20114
플러스	20115
Sk	20116
선임	20117
일람	20118
제독	20119
##아이	20120
상한	20121
퍼포	20122
의외로	20123
사회주의	20124
Mo	20125
체인지	20126
퍼포먼스	20127
ᆯ게	20128
감싸	20129
페널티	20130
직장	20131
GP	20132
합계	20133
권위	20134
중장	20135
가만히	20136
국당	20137
기호	20138
레코드	20139
모로	20140
공수	20141
청와	20142
DD	20143
##데드	20144
마물	20145
무술	20146
115	20147
ᄇ시오	20148
##아키	20149
응용	20150
시크	20151
메이커	20152
김경	20153
해내	20154
##어놓	20155
세팅	20156
사립	20157
오이	20158
데이트	20159
여야	20160
코난	20161
원형	20162
이웃	20163
평점	20164
라그	20165
이종	20166
##플렉	20167
약물	20168
가디언	20169
기동전	20170
주행	20171
귀국	20172
언데드	20173
신입	20174
최우	20175
연산	20176
##ial	20177
FM	20178
##승부	20179
청와대	20180
건네	20181
밀도	20182
투쟁	20183
##토스	20184
##메이	20185
개장	20186
##런트	20187
##ish	20188
엘리자	20189
국어	20190
장로	20191
당대	20192
에릭	20193
SU	20194
파란색	20195
1979	20196
서기	20197
마다	20198
레일	20199
냐면	20200
후임	20201
나비	20202
여전	20203
에디	20204
긴급	20205
집합	20206
UN	20207
만만	20208
배달	20209
##래시	20210
이와	20211
징역	20212
챔피언십	20213
억지로	20214
스파이더	20215
프로토	20216
비틀	20217
포즈	20218
오스만	20219
트릭	20220
선사	20221
합리	20222
옵	20223
쇼핑	20224
개신교	20225
권장	20226
분포	20227
뽑아내	20228
히가시	20229
트루	20230
장신	20231
김상	20232
기장	20233
행방	20234
폴리	20235
추방	20236
택시	20237
##ower	20238
저하	20239
천연	20240
다가가	20241
공백	20242
감동	20243
회색	20244
##네시아	20245
안양	20246
전무	20247
프레이	20248
해산	20249
일화	20250
궁금	20251
프리미어	20252
연구원	20253
독점	20254
증폭	20255
신자	20256
수동	20257
즉사	20258
모스크	20259
확산	20260
명의	20261
##II	20262
관여	20263
야간	20264
주관	20265
더러	20266
Bla	20267
면허	20268
교단	20269
여학생	20270
공인	20271
방치	20272
스캔	20273
재회	20274
임의	20275
모집	20276
폐기	20277
듀오	20278
##하르트	20279
빌딩	20280
유미	20281
##오루	20282
대단히	20283
조상	20284
잠들	20285
혼돈	20286
만일	20287
명백	20288
뱅크	20289
김진	20290
##GE	20291
전남	20292
썬더	20293
##숭이	20294
라이너	20295
##운동	20296
코멘트	20297
감상	20298
노	20299
아레나	20300
캘리	20301
##버그	20302
바둑	20303
이란	20304
성경	20305
렌즈	20306
버섯	20307
사무소	20308
##크로	20309
택하	20310
CH	20311
매출	20312
분당	20313
we	20314
캐치	20315
고블린	20316
피닉스	20317
끊임	20318
발목	20319
돌연	20320
BS	20321
##IM	20322
출간	20323
조명	20324
타이거즈	20325
처참	20326
Ne	20327
추리	20328
##!!	20329
불량	20330
Star	20331
장미	20332
부서지	20333
광산	20334
깜짝	20335
오메	20336
광선	20337
박지	20338
로빈	20339
##프리카	20340
승무원	20341
사리	20342
김기	20343
자비	20344
##레일	20345
전라남도	20346
모듈	20347
구성원	20348
포켓몬스터	20349
비웃	20350
##벌레	20351
무스	20352
상관없이	20353
복원	20354
뚫리	20355
PR	20356
해머	20357
우월	20358
고소	20359
실장	20360
ID	20361
우주선	20362
고로	20363
질투	20364
목사	20365
뒤지	20366
되게	20367
스타디	20368
통틀	20369
평일	20370
하인	20371
계수	20372
만지	20373
간호	20374
기쁘	20375
지연	20376
와카	20377
##번에	20378
배급	20379
##히코	20380
##쿠라	20381
드루	20382
Wind	20383
미국인	20384
버드	20385
수색	20386
우드	20387
ᆫ데다	20388
화산	20389
350	20390
라이온즈	20391
유출	20392
대조	20393
벌리	20394
난사	20395
협정	20396
##99	20397
유언	20398
두	20399
파이트	20400
수립	20401
탐정	20402
엄격	20403
시외	20404
조롱	20405
up	20406
스탠드	20407
풍부	20408
##전자	20409
운수	20410
서포트	20411
##나오	20412
LP	20413
재학	20414
파멸	20415
심의	20416
DC	20417
히라	20418
골렘	20419
한두	20420
우익	20421
##카락	20422
국무	20423
메이플	20424
산맥	20425
War	20426
머리카락	20427
fe	20428
체감	20429
And	20430
정발	20431
스텝	20432
우유	20433
의자	20434
검술	20435
온천	20436
##체스터	20437
도저히	20438
##ass	20439
바스	20440
쿠라	20441
당사자	20442
##가드	20443
청구	20444
치열	20445
나기	20446
모험가	20447
센트	20448
합동	20449
육상	20450
토미	20451
포장	20452
국제공항	20453
뒤늦	20454
사이코	20455
##ms	20456
반부	20457
키타	20458
##me	20459
루크	20460
젤리	20461
##타카	20462
360	20463
Man	20464
소용	20465
실내	20466
이라크	20467
오로지	20468
다운로드	20469
에픽	20470
본토	20471
112	20472
마코토	20473
축소	20474
토시	20475
기력	20476
권유	20477
제네	20478
특급	20479
조용히	20480
극도	20481
규제	20482
디즈니	20483
승진	20484
배수	20485
##gh	20486
##블로	20487
따뜻	20488
티	20489
우치	20490
##CG	20491
낙하	20492
##렐라	20493
루머	20494
비명	20495
아쉬	20496
마냥	20497
108	20498
##도리	20499
##릴라	20500
All	20501
베를	20502
라라	20503
묶이	20504
나마	20505
거스	20506
자꾸	20507
러시	20508
AKB	20509
나노	20510
티아	20511
##tle	20512
하계	20513
##pp	20514
사이클	20515
##ble	20516
##amp	20517
충청남도	20518
반감	20519
범죄자	20520
지인	20521
바르셀	20522
루피	20523
오락	20524
파울	20525
출범	20526
바르셀로나	20527
디바	20528
비유	20529
우즈	20530
##ft	20531
여섯	20532
지목	20533
수직	20534
시바	20535
베이징	20536
시사	20537
알라	20538
안쪽	20539
토큰	20540
중지	20541
단종	20542
오우	20543
일요일	20544
프렌	20545
103	20546
수월	20547
경북	20548
세금	20549
탐지	20550
폭파	20551
스테이	20552
황후	20553
능력자	20554
전당	20555
붙잡히	20556
협의	20557
꼬이	20558
리즈	20559
어시스트	20560
##yle	20561
스타디움	20562
서머	20563
##70	20564
기리	20565
실은	20566
페리	20567
이글스	20568
여파	20569
##ous	20570
물품	20571
중순	20572
직선	20573
막아내	20574
##려받	20575
세리	20576
실현	20577
배제	20578
조우	20579
##슬라	20580
스태	20581
모임	20582
##now	20583
##atch	20584
베테	20585
신학	20586
##sp	20587
넘어지	20588
리버풀	20589
카구	20590
##페라	20591
불행	20592
분산	20593
세라	20594
부딪히	20595
당당	20596
조커	20597
One	20598
넘어서	20599
타르	20600
아가씨	20601
Mar	20602
##orm	20603
수염	20604
생전	20605
손자	20606
드림	20607
김해	20608
평론	20609
얻어맞	20610
캐시	20611
토키	20612
유의	20613
신용	20614
나스	20615
New	20616
To	20617
ON	20618
명문	20619
거북	20620
기묘	20621
드론	20622
추세	20623
바론	20624
여고	20625
무승부	20626
조르	20627
ex	20628
막상	20629
체중	20630
낙선	20631
##스티벌	20632
나루토	20633
진상	20634
페스티벌	20635
수비수	20636
IN	20637
경악	20638
##란히	20639
던가	20640
살아나	20641
토요일	20642
BR	20643
로이	20644
##사이	20645
##민주	20646
천문	20647
까이	20648
Part	20649
맥주	20650
스미스	20651
수습	20652
태풍	20653
가난	20654
더빙	20655
채보	20656
KR	20657
기수	20658
두렵	20659
연봉	20660
함락	20661
마카	20662
김용	20663
Gam	20664
강등	20665
비극	20666
센서	20667
강사	20668
되살	20669
SF	20670
주최	20671
후회	20672
패전	20673
힙합	20674
이나	20675
##저리	20676
##ING	20677
대성	20678
극히	20679
집어넣	20680
잠실	20681
리온	20682
산탄	20683
고속도로	20684
CS	20685
좌절	20686
ᆫ다거나	20687
엄밀	20688
국판	20689
듀스	20690
명목	20691
배려	20692
동반	20693
배드	20694
타일	20695
훼손	20696
스핀	20697
인접	20698
유망	20699
대시	20700
노가	20701
실시간	20702
개척	20703
힐러	20704
코마	20705
철권	20706
##ment	20707
리가	20708
기부	20709
PP	20710
##방송	20711
에반	20712
사무실	20713
##ae	20714
빨간	20715
반짝	20716
케이블	20717
##64	20718
주체	20719
하여	20720
128	20721
원시	20722
스티븐	20723
압력	20724
모스	20725
상반	20726
고증	20727
장탄수	20728
쇼크	20729
스테이션	20730
##불명	20731
유재	20732
나요	20733
혜택	20734
스와	20735
투척	20736
도장	20737
신속	20738
포탄	20739
닉네임	20740
꼬마	20741
도리	20742
인자	20743
바지	20744
##ase	20745
혈액	20746
쳐들	20747
호남	20748
중화민국	20749
##사기	20750
농장	20751
마땅	20752
아이러	20753
각지	20754
##ree	20755
장성	20756
이타	20757
샤이	20758
초콜	20759
되돌	20760
재개	20761
##사리	20762
조카	20763
역습	20764
다투	20765
주교	20766
걸즈	20767
고시	20768
음료	20769
##리	20770
모	20771
휴가	20772
유니크	20773
벤치	20774
히틀러	20775
반도	20776
엑시	20777
암호	20778
구조물	20779
달려가	20780
구장	20781
날씨	20782
샷건	20783
##구장	20784
때려	20785
변동	20786
번지	20787
총장	20788
En	20789
캘리포	20790
시로	20791
네티	20792
확장팩	20793
퍼즐	20794
##노리	20795
제갈량	20796
그라운드	20797
에로	20798
시상식	20799
짐작	20800
하프	20801
1978	20802
질서	20803
1973	20804
ᄇ니까	20805
근원	20806
레온	20807
믹스	20808
JT	20809
함부로	20810
트로피	20811
해병대	20812
동해	20813
기뻐	20814
기뻐하	20815
어쩌면	20816
야쿠	20817
184	20818
로맨	20819
사퇴	20820
거론	20821
오브젝트	20822
##az	20823
여의	20824
##bo	20825
대행	20826
캘리포니아	20827
보라색	20828
슬라	20829
제치	20830
시비	20831
소니	20832
찬성	20833
라즈	20834
##브라	20835
갈색	20836
첫째	20837
짐승	20838
AN	20839
상사	20840
가담	20841
깊이	20842
##블리	20843
##러그	20844
각오	20845
인재	20846
사로	20847
World	20848
##ason	20849
양손	20850
구동	20851
##AY	20852
111	20853
그랑	20854
##케이션	20855
쿠데	20856
220	20857
여럿	20858
안심	20859
호불	20860
##iki	20861
호불호	20862
퇴각	20863
##베리	20864
무용	20865
백화점	20866
최저	20867
혁신	20868
거칠	20869
공감	20870
183	20871
강림	20872
키보드	20873
정반	20874
##돌이	20875
##리온	20876
결제	20877
##키스탄	20878
알바	20879
베기	20880
감수	20881
지수	20882
JP	20883
##저기	20884
오더	20885
포스터	20886
##느리	20887
사야	20888
돌보	20889
동서	20890
프린세스	20891
말기	20892
트레이너	20893
진급	20894
마계	20895
전날	20896
계층	20897
베어스	20898
고무	20899
네티즌	20900
알렉스	20901
원더	20902
동아	20903
##ear	20904
So	20905
경호	20906
중동	20907
빨간색	20908
거든	20909
대령	20910
특별시	20911
동행	20912
산타	20913
흡사	20914
##hen	20915
후반기	20916
라크	20917
빠져나가	20918
장례	20919
셔틀	20920
노란색	20921
여기저기	20922
갤러	20923
중부	20924
장난감	20925
마오	20926
240	20927
평하	20928
흔들	20929
사관	20930
막강	20931
타이탄	20932
리처	20933
##MS	20934
뜬금없이	20935
신선	20936
당기	20937
sp	20938
수지	20939
세뇌	20940
핀란드	20941
학생회	20942
가두	20943
피로	20944
##are	20945
포획	20946
드레스	20947
견해	20948
밀어내	20949
클린	20950
려다가	20951
FW	20952
베를린	20953
탐색	20954
두들기	20955
차갑	20956
보좌	20957
인과	20958
유혹	20959
GO	20960
깎이	20961
매주	20962
선수단	20963
날뛰	20964
양반	20965
ᆯ려	20966
교복	20967
패밀리	20968
유입	20969
봉쇄	20970
국도	20971
영감	20972
우호	20973
강렬	20974
원곡	20975
스코틀랜드	20976
연쇄	20977
뮌헨	20978
상주	20979
입자	20980
##직자	20981
페어	20982
케이드	20983
선진	20984
##우트	20985
1974	20986
##차기	20987
돋보이	20988
방송사	20989
무공	20990
##기에	20991
문화재	20992
마일	20993
프랑스어	20994
생체	20995
끌리	20996
재건	20997
tv	20998
클론	20999
우측	21000
박쥐	21001
소재지	21002
트라우마	21003
도어	21004
역명	21005
점유	21006
운송	21007
##냥	21008
토대	21009
마냥	21010
콤비	21011
##스카	21012
##루미	21013
방탄	21014
요미	21015
경찰서	21016
아이러니	21017
드로우	21018
아베	21019
위로	21020
왕실	21021
결계	21022
김준	21023
서바이	21024
잭슨	21025
후미	21026
박살나	21027
약자	21028
와인	21029
신중	21030
공격수	21031
무실	21032
결혼식	21033
세로	21034
비스트	21035
http	21036
수여	21037
##하나	21038
침대	21039
지부	21040
1972	21041
연금술	21042
알레	21043
복사	21044
##90	21045
##ven	21046
래퍼	21047
트윈스	21048
##ife	21049
포터	21050
##아치	21051
관료	21052
제물	21053
화폐	21054
도덕	21055
전락	21056
집회	21057
통칭	21058
바나	21059
윈드	21060
https	21061
##싸움	21062
로이드	21063
완공	21064
튼튼	21065
트랩	21066
토하	21067
##ade	21068
허무	21069
장판	21070
순양함	21071
프라임	21072
엔지	21073
리안	21074
밀려나	21075
##AP	21076
Wi	21077
취업	21078
##베이터	21079
역량	21080
스즈키	21081
선장	21082
콘솔	21083
소금	21084
##박스	21085
폭스	21086
탐사	21087
덴마크	21088
세자	21089
영양	21090
출혈	21091
##렉션	21092
강경	21093
우회	21094
쓸데	21095
빈도	21096
나아지	21097
##act	21098
##데레	21099
도감	21100
MB	21101
하스	21102
글씨	21103
~!	21104
도트	21105
홀드	21106
##ai	21107
대타	21108
일곱	21109
##ank	21110
아바타	21111
##깨비	21112
##gin	21113
연설	21114
억제	21115
이순	21116
간섭	21117
여단	21118
%/	21119
관통력	21120
상무	21121
공대	21122
낭비	21123
do	21124
단행본	21125
##aby	21126
루프	21127
히든	21128
홀리	21129
부작용	21130
노무	21131
메이지	21132
모형	21133
신데	21134
창문	21135
104	21136
영화제	21137
오노	21138
청나라	21139
라니	21140
승차	21141
##out	21142
전동차	21143
인도네시아	21144
책임지	21145
소통	21146
법무	21147
Fate	21148
no	21149
트레일러	21150
전격	21151
침투	21152
성씨	21153
술사	21154
재직	21155
태클	21156
오지	21157
워크래프트	21158
페미니	21159
손꼽	21160
넘어오	21161
디시	21162
당초	21163
매니아	21164
한창	21165
블로	21166
다큐	21167
1975	21168
커스텀	21169
쿠데타	21170
##지르	21171
마트	21172
되	21173
마피아	21174
##lect	21175
시카고	21176
신데렐라	21177
실상	21178
히로시	21179
LIVE	21180
간간히	21181
부재	21182
형편	21183
백업	21184
제재	21185
파밍	21186
123	21187
설령	21188
손오	21189
출산	21190
성실	21191
스탈	21192
##므로	21193
손쉽	21194
깃발	21195
끊임없이	21196
범용	21197
##ET	21198
##에른	21199
하하	21200
##토니	21201
공산주의	21202
장애물	21203
스나이	21204
을수록	21205
경연	21206
마라	21207
강간	21208
김일	21209
스트라이커	21210
##oll	21211
NH	21212
벨기에	21213
우승자	21214
끌어들이	21215
전향	21216
소득	21217
비비	21218
스타리그	21219
시호	21220
미미	21221
검증	21222
조종사	21223
##UM	21224
##모스	21225
##른바	21226
할리	21227
토요	21228
중점	21229
Up	21230
이른바	21231
품질	21232
왕비	21233
OS	21234
여타	21235
카자	21236
1976	21237
라스트	21238
소나	21239
are	21240
근접전	21241
말레이	21242
변이	21243
항해	21244
외곽	21245
III	21246
##ork	21247
딸리	21248
워크	21249
##천군	21250
다스리	21251
스피릿	21252
파도	21253
강릉	21254
성분	21255
최선	21256
원주민	21257
이스트	21258
정석	21259
마산	21260
사악	21261
##더라	21262
대접	21263
사사	21264
혈통	21265
섀도우	21266
모니터	21267
##추어	21268
그러므로	21269
발명	21270
따라오	21271
판사	21272
유료	21273
##바야	21274
Do	21275
단기	21276
##ary	21277
이어받	21278
하급	21279
구상	21280
특공	21281
선박	21282
리코	21283
리모	21284
카더라	21285
Oh	21286
제왕	21287
공통점	21288
왜냐하면	21289
검열	21290
광물	21291
하반	21292
##way	21293
티스	21294
전생	21295
왼손	21296
끌어올리	21297
##루션	21298
동전	21299
입문	21300
119	21301
브라이언	21302
키라	21303
유연	21304
트리거	21305
천천	21306
포도	21307
##바지	21308
중상	21309
메일	21310
맞붙	21311
명분	21312
올드	21313
탄핵	21314
##ey	21315
마틴	21316
##ich	21317
명사	21318
공헌	21319
고종	21320
스플	21321
장남	21322
원장	21323
전송	21324
사로잡	21325
##께끼	21326
135	21327
수수께끼	21328
급행	21329
소모량	21330
중심지	21331
단검	21332
109	21333
##슈타인	21334
##모함	21335
초콜릿	21336
중고	21337
박정희	21338
바이에른	21339
초상	21340
우울	21341
코스튬	21342
미지	21343
지선	21344
##저우	21345
중기	21346
##타입	21347
ES	21348
중위	21349
확신	21350
대변	21351
김수	21352
##미터	21353
올바르	21354
Mk	21355
공단	21356
입증	21357
으려는	21358
베테랑	21359
일체	21360
한나라	21361
모스크바	21362
잔인	21363
##으로	21364
##능력	21365
한나라당	21366
관우	21367
##키리	21368
엘리베이터	21369
검토	21370
오페라	21371
시모	21372
수인	21373
Ad	21374
잉여	21375
예약	21376
자네	21377
시온	21378
단발	21379
조국	21380
부패	21381
질주	21382
친절	21383
불태우	21384
손오공	21385
대법	21386
아이디어	21387
lv	21388
땅볼	21389
부유	21390
대동	21391
히스	21392
꿈꾸	21393
부시	21394
##벤처	21395
교리	21396
all	21397
##동자	21398
Day	21399
어드벤처	21400
씌우	21401
시게	21402
##니시	21403
존스	21404
강호	21405
발판	21406
보스턴	21407
비기	21408
성배	21409
아스카	21410
터스	21411
유망주	21412
천황	21413
케빈	21414
로보	21415
콘스탄	21416
AFC	21417
시외버스	21418
곡인	21419
스태프	21420
도쿠	21421
부속	21422
이병	21423
##다운	21424
천천히	21425
nd	21426
체코	21427
버스트	21428
다지	21429
압축	21430
충족	21431
학사	21432
##pt	21433
고는	21434
182	21435
##orn	21436
과자	21437
카카오	21438
흩어지	21439
메리트	21440
이현	21441
니혼	21442
비리	21443
고스	21444
카시	21445
굴욕	21446
##페이	21447
구독	21448
무제	21449
도깨비	21450
##스레	21451
에이지	21452
앤드	21453
그릇	21454
갑작스럽	21455
쓰리	21456
##하루	21457
프로게이	21458
프로게이머	21459
##르타	21460
분할	21461
동정	21462
손님	21463
크레이	21464
오메가	21465
강전	21466
화상	21467
군부	21468
연수	21469
자제	21470
나폴레	21471
루마	21472
토마스	21473
##라미	21474
친분	21475
플랜	21476
어색	21477
후일	21478
대박	21479
라이언	21480
지붕	21481
민중	21482
위엄	21483
싱가	21484
싱가포르	21485
항공모함	21486
디자이너	21487
기하	21488
평등	21489
##가루	21490
121	21491
홋카이도	21492
치카	21493
미궁	21494
레이디	21495
나폴레옹	21496
마운	21497
지력	21498
##레일리아	21499
삼성전자	21500
라그나	21501
1971	21502
일관	21503
노르웨이	21504
머니	21505
Windows	21506
고고	21507
까지	21508
저자	21509
레이블	21510
##의자	21511
메트로	21512
##어드	21513
##네마	21514
왕복	21515
박살내	21516
와이번	21517
달아나	21518
FF	21519
테이블	21520
폭격기	21521
스택	21522
너머	21523
발레	21524
머물	21525
리라	21526
동구	21527
145	21528
사촌	21529
107	21530
렉스	21531
맹세	21532
디펜	21533
이모	21534
망명	21535
##테이션	21536
바이올	21537
극대	21538
="	21539
이경	21540
현금	21541
RA	21542
기울이	21543
열정	21544
찰스	21545
이틀	21546
엑시즈	21547
스케일	21548
광기	21549
합작	21550
1977	21551
점검	21552
강점기	21553
진에	21554
대전차	21555
##ah	21556
김포	21557
엔트리	21558
퍼스트	21559
##EM	21560
터트리	21561
그립	21562
하이라이트	21563
카리스	21564
여포	21565
질량	21566
유탄	21567
쫓겨나	21568
창립	21569
DP	21570
변태	21571
리틀	21572
종결	21573
할로	21574
원숭이	21575
##사스	21576
촉수	21577
후드	21578
으라고	21579
##쿠스	21580
하사	21581
##군가	21582
작위	21583
마타	21584
에버	21585
ML	21586
고집	21587
사체	21588
AA	21589
##very	21590
신동	21591
자율	21592
리퍼	21593
블레이	21594
##uck	21595
화해	21596
마술사	21597
일가	21598
보고서	21599
저기	21600
재배	21601
존중	21602
누군가	21603
조화	21604
츠카	21605
본질	21606
그레이트	21607
독일어	21608
##리스타	21609
표절	21610
무지막	21611
사족	21612
무지막지	21613
##마치	21614
오렌	21615
챔프	21616
총합	21617
외우	21618
원전	21619
ne	21620
크라이	21621
여서	21622
잊히	21623
천장	21624
선교	21625
이대로	21626
IT	21627
공신	21628
평행	21629
엔지니어	21630
보르	21631
기차	21632
br	21633
석유	21634
부스	21635
쥬	21636
쳐들어	21637
중거리	21638
자존	21639
감탄	21640
브라더스	21641
임진	21642
전라북도	21643
##ph	21644
Sw	21645
DPS	21646
호크	21647
자책점	21648
면하	21649
피카	21650
##슬리	21651
BPM	21652
게이머	21653
JTBC	21654
소집	21655
정사	21656
지분	21657
농민	21658
진단	21659
##마르	21660
물자	21661
210	21662
지오	21663
스포일러	21664
메카닉	21665
봉사	21666
노무현	21667
연간	21668
해소	21669
178	21670
인칭	21671
꺼리	21672
##ero	21673
란스	21674
몸통	21675
스가	21676
1969	21677
우루	21678
다이스	21679
떨치	21680
과일	21681
113	21682
니아	21683
스티브	21684
유가	21685
관장	21686
리처드	21687
".	21688
대위	21689
유격수	21690
교과서	21691
파랗	21692
무실점	21693
쿠스	21694
교차로	21695
##ool	21696
로키	21697
사수	21698
타구	21699
서적	21700
동속	21701
검정	21702
노가다	21703
165	21704
##바나	21705
오스트레일리아	21706
광명	21707
파스	21708
브레이커	21709
마유	21710
시뮬	21711
##군	21712
김지	21713
##아들	21714
1968	21715
하치	21716
맨체스터	21717
동대	21718
러스	21719
냉정	21720
1963	21721
데빌	21722
주식회사	21723
임하	21724
철저히	21725
##ical	21726
저렇	21727
총독	21728
토트	21729
불쌍	21730
빙판	21731
명시	21732
출판사	21733
시골	21734
손꼽히	21735
NBA	21736
부원	21737
프랜	21738
힘입	21739
이오	21740
입사	21741
필름	21742
장타	21743
주축	21744
다니엘	21745
##urn	21746
부산광역시	21747
가구	21748
아깝	21749
착륙	21750
##퍼드	21751
백만	21752
##ype	21753
Ph	21754
병역	21755
블리자드	21756
오케	21757
탄압	21758
슬픔	21759
실체	21760
##ARD	21761
부천	21762
Con	21763
##리안	21764
말씀	21765
에드워드	21766
2021	21767
윤리	21768
모순	21769
##구미	21770
##anc	21771
주사위	21772
호의	21773
##센스	21774
스노우	21775
매각	21776
고아	21777
광경	21778
##우라	21779
제니	21780
지장	21781
깨끗	21782
유치원	21783
터보	21784
미오	21785
매드	21786
불능	21787
프론	21788
마인드	21789
카리	21790
스폰서	21791
목걸이	21792
{{{#	21793
은지	21794
어벤	21795
부스트	21796
##은색	21797
김유	21798
155	21799
서열	21800
레이어	21801
완화	21802
겸하	21803
지혜	21804
용산	21805
Cr	21806
마당	21807
파운드	21808
변장	21809
##ung	21810
참사	21811
평론가	21812
엄연히	21813
줄기	21814
유니버스	21815
날아다니	21816
이라도	21817
내버리	21818
물어	21819
멍청	21820
OVA	21821
사우스	21822
김승	21823
수천	21824
울트라맨	21825
답답	21826
아드	21827
명명	21828
나나	21829
문양	21830
하나하나	21831
보편	21832
개명	21833
122	21834
Qu	21835
우타	21836
서류	21837
트윗	21838
납득	21839
상금	21840
미러	21841
아아	21842
초청	21843
워프	21844
##항공	21845
배구	21846
모델링	21847
씨앗	21848
외국어	21849
평상	21850
##테일	21851
미르	21852
Station	21853
181	21854
까마	21855
레인지	21856
프로그래	21857
제리	21858
##업자	21859
압권	21860
TVA	21861
뚜렷	21862
이노	21863
감자	21864
치안	21865
열혈	21866
가설	21867
144	21868
정문	21869
중구	21870
난무	21871
친척	21872
어나	21873
진동	21874
취재	21875
닥치	21876
엘레	21877
집계	21878
중원	21879
엘리자베스	21880
에미	21881
박수	21882
##소년	21883
본능	21884
수위	21885
LO	21886
발키리	21887
향후	21888
도마	21889
##ww	21890
절친	21891
좌익	21892
이케	21893
KOF	21894
재앙	21895
철갑	21896
마케팅	21897
서명	21898
자산	21899
리나	21900
주석	21901
츠바	21902
헷갈리	21903
성명	21904
디오	21905
오죽	21906
녹화	21907
우연	21908
고등학생	21909
##끼리	21910
##시피	21911
도심	21912
##iver	21913
케이크	21914
애칭	21915
무늬	21916
초능력	21917
소생	21918
작정	21919
비우	21920
어나더	21921
at	21922
패자	21923
행진	21924
서방	21925
고사	21926
강민	21927
매트	21928
국토	21929
트래	21930
카지	21931
사연	21932
사직	21933
덤비	21934
시조	21935
페스	21936
##DD	21937
곤충	21938
신하	21939
테스	21940
어이없	21941
152	21942
서울대	21943
일렉	21944
셔	21945
시어	21946
드래곤볼	21947
용암	21948
유아	21949
골프	21950
가이드	21951
love	21952
결의	21953
아리아	21954
로프	21955
타츠	21956
아마추어	21957
경부	21958
실용	21959
액체	21960
학대	21961
실사	21962
##폭탄	21963
##ens	21964
경사	21965
국방부	21966
정성	21967
산소	21968
발발	21969
멋대로	21970
자사	21971
쿠니	21972
표적	21973
##리칸	21974
전지	21975
as	21976
워터	21977
편리	21978
벙커	21979
라마	21980
트릴	21981
좌측	21982
유엔	21983
카레	21984
##ost	21985
스카우트	21986
아스트	21987
민간인	21988
도색	21989
##이동	21990
##어트	21991
TR	21992
자칭	21993
##드러지	21994
카네	21995
다케	21996
침몰	21997
114	21998
엄밀히	21999
워즈	22000
사투	22001
주머니	22002
마음대로	22003
##워즈	22004
##ence	22005
일컫	22006
1930	22007
라이즈	22008
wiki	22009
몰살	22010
거지	22011
마하	22012
박성	22013
만점	22014
인성	22015
미성	22016
롤러	22017
##려워하	22018
IM	22019
변명	22020
##nt	22021
의정부	22022
이대	22023
##이나	22024
직책	22025
때로	22026
##마루	22027
자아	22028
개교	22029
초록색	22030
망토	22031
알아채	22032
##변이	22033
돌연변이	22034
from	22035
초점	22036
항모	22037
##드로	22038
샤	22039
##ise	22040
옥상	22041
습니까	22042
이이	22043
각도	22044
신지	22045
코토	22046
각인	22047
법사	22048
##int	22049
리본	22050
##시스코	22051
이진	22052
기질	22053
포크	22054
모음	22055
텍사스	22056
플라스	22057
이누	22058
1920	22059
개구리	22060
원피스	22061
템플	22062
마모	22063
아자	22064
스컬	22065
루리	22066
아지	22067
179	22068
방학	22069
##이치로	22070
만능	22071
고의	22072
유스	22073
이념	22074
정밀	22075
달려들	22076
!"	22077
발급	22078
일리	22079
##AK	22080
##베트	22081
죄책	22082
통째	22083
등극	22084
학급	22085
풍기	22086
Super	22087
브래	22088
션	22089
이원	22090
포탈	22091
매달리	22092
에디션	22093
적자	22094
MG	22095
Fr	22096
격려	22097
1940	22098
이명박	22099
BJ	22100
can	22101
이어서	22102
##oy	22103
##자치	22104
용자	22105
##지능	22106
인공지능	22107
##하여	22108
동성애	22109
조항	22110
방심	22111
아담	22112
생김	22113
포병	22114
슈퍼맨	22115
미인	22116
혼인	22117
정신력	22118
이빨	22119
www	22120
##ign	22121
발탁	22122
적절히	22123
CM	22124
##떨어지	22125
선동	22126
비키	22127
오렌지	22128
엉망	22129
관직	22130
종영	22131
인벤	22132
극한	22133
연전	22134
협동	22135
##ans	22136
스타트	22137
177	22138
북아	22139
휩쓸	22140
마찰	22141
안동	22142
대역	22143
어설	22144
##타운	22145
남동생	22146
들여	22147
기소	22148
죄책감	22149
소비자	22150
##과이	22151
튜버	22152
추후	22153
네이션	22154
리사	22155
호러	22156
##ug	22157
포착	22158
최순	22159
Dream	22160
헬멧	22161
펌프	22162
풍선	22163
정반대	22164
부러지	22165
##바이트	22166
다거나	22167
장벽	22168
##바야시	22169
이태	22170
쿠마	22171
아케이드	22172
공속	22173
감당	22174
덮치	22175
124	22176
은폐	22177
이윤	22178
##전차	22179
블럭	22180
억울	22181
1967	22182
금강	22183
##야스	22184
선로	22185
너스	22186
저서	22187
유진	22188
갱신	22189
고가	22190
원로	22191
반경	22192
127	22193
다시금	22194
##말	22195
USB	22196
흘러가	22197
마에	22198
그해	22199
아무튼	22200
오른손	22201
교역	22202
협조	22203
페어리	22204
뛰어들	22205
정점	22206
오다	22207
도약	22208
용이	22209
예의	22210
아사히	22211
부동산	22212
아쿠아	22213
신곡	22214
해운	22215
this	22216
##IR	22217
내기	22218
유카	22219
##나베	22220
페르시아	22221
스틱	22222
1200	22223
중국인	22224
##코트	22225
시오	22226
분홍	22227
지로	22228
##vel	22229
대차	22230
쉴드	22231
타치	22232
450	22233
잔혹	22234
시타	22235
고발	22236
맞히	22237
카운티	22238
아이디	22239
연동	22240
왕족	22241
기본기	22242
사나	22243
녹이	22244
욕설	22245
##철수	22246
독립운동	22247
##질랜드	22248
컴백	22249
ERA	22250
##지사	22251
##ode	22252
민감	22253
뉴질랜드	22254
출동	22255
교도소	22256
초과	22257
필립	22258
크래프트	22259
누스	22260
절벽	22261
선원	22262
바쿠	22263
##uk	22264
##VER	22265
##젤레스	22266
수신	22267
지역구	22268
카마	22269
비단	22270
호드	22271
부채	22272
시크릿	22273
제사	22274
수감	22275
무도	22276
후쿠오카	22277
사방	22278
프레스	22279
베스	22280
침착	22281
사무라이	22282
서리	22283
Fl	22284
발각	22285
방침	22286
스토어	22287
덩어리	22288
Pl	22289
후유	22290
회관	22291
청춘	22292
우마	22293
대세	22294
팔라	22295
뺏기	22296
##말로	22297
로렌	22298
물려받	22299
카테	22300
보강	22301
Ver	22302
스로	22303
대피	22304
##역사	22305
제의	22306
CE	22307
##나기	22308
##생활	22309
연이	22310
이소	22311
그러면	22312
피오	22313
구형	22314
급격히	22315
키미	22316
아랫	22317
##끔	22318
게끔	22319
EC	22320
종전	22321
철도역	22322
진에어	22323
디스플레이	22324
EXP	22325
연소	22326
카리스마	22327
재즈	22328
##공사	22329
style	22330
내외	22331
애완	22332
함장	22333
구로	22334
측근	22335
얽히	22336
##민주당	22337
발전소	22338
##ᆸ시	22339
방사능	22340
도르	22341
기스	22342
##헤이	22343
스쿼	22344
코스프레	22345
애인	22346
실존	22347
선포	22348
아울	22349
레나	22350
##다드	22351
유재석	22352
히카	22353
##ier	22354
게르	22355
신한	22356
궁합	22357
마야	22358
퇴치	22359
반성	22360
판도	22361
가마	22362
강대	22363
가위	22364
현자	22365
카쿠	22366
리바	22367
격렬	22368
하이드	22369
기법	22370
분자	22371
워리어	22372
가오	22373
Sch	22374
예방	22375
잔류	22376
나인	22377
##페이스	22378
김구	22379
Girl	22380
당국	22381
Season	22382
두드러지	22383
사물	22384
인문	22385
군요	22386
미아	22387
1962	22388
##ash	22389
징계	22390
IP	22391
오퍼	22392
러쉬	22393
박자	22394
문신	22395
##속기	22396
왕가	22397
ar	22398
자이언트	22399
근로	22400
La	22401
모빌	22402
이놈	22403
코노	22404
DM	22405
모욕	22406
전담	22407
약혼	22408
화기	22409
강타	22410
NO	22411
반역	22412
162	22413
이카	22414
흡혈귀	22415
유동	22416
이단	22417
정조	22418
흑마	22419
tr	22420
사치	22421
중견	22422
118	22423
종로	22424
흥분	22425
치	22426
친애	22427
화석	22428
WC	22429
시종	22430
점심	22431
쿠바	22432
퀴즈	22433
불러오	22434
고립	22435
제주도	22436
벗기	22437
패트	22438
노아	22439
기동력	22440
##믹스	22441
그루	22442
분배	22443
##reat	22444
1966	22445
##IX	22446
아처	22447
유우키	22448
잠기	22449
브론	22450
돌려주	22451
이용자	22452
피자	22453
명나라	22454
위쪽	22455
부가	22456
헬리	22457
카피	22458
레이싱	22459
로스트	22460
단백	22461
오니	22462
황당	22463
##ib	22464
타이어	22465
박진	22466
경성	22467
계곡	22468
왕후	22469
벌써	22470
이행	22471
##마리	22472
314	22473
##돌프	22474
에도	22475
자존심	22476
학술	22477
생김새	22478
##치아	22479
제노	22480
스나이퍼	22481
한하	22482
탈환	22483
태생	22484
##usic	22485
월간	22486
저글	22487
Max	22488
##사랑	22489
##보기	22490
중소	22491
피지컬	22492
##크리	22493
##탐정	22494
관문	22495
우두	22496
실적	22497
망설	22498
모나	22499
한양	22500
750	22501
##방울	22502
1964	22503
##틀리	22504
머	22505
건지	22506
금요일	22507
노랗	22508
대검	22509
고인	22510
입시	22511
그간	22512
##ᆸ시고	22513
안무	22514
적시타	22515
불길	22516
##리얼	22517
Vol	22518
TS	22519
뱅가드	22520
##수리	22521
숙소	22522
라미	22523
유고	22524
DNA	22525
그쪽	22526
여태	22527
정전	22528
토트넘	22529
내셔널	22530
얼티	22531
급속	22532
스파이더맨	22533
능가	22534
Ed	22535
아오이	22536
천상	22537
##}}	22538
--	22539
궁전	22540
시범	22541
중재	22542
요격	22543
호리	22544
##ose	22545
ld	22546
할로윈	22547
통솔	22548
레아	22549
남동	22550
모종	22551
성사	22552
코파	22553
스피어	22554
대학생	22555
##서스	22556
중도	22557
나이프	22558
사슬	22559
탈취	22560
진술	22561
갈라지	22562
스타즈	22563
이야	22564
AV	22565
존슨	22566
부끄럽	22567
에메	22568
직위	22569
섬기	22570
한꺼	22571
한꺼번에	22572
까마귀	22573
소소	22574
입원	22575
두려워하	22576
##시대	22577
괴인	22578
과시	22579
치이	22580
나이츠	22581
황태	22582
amp	22583
욕망	22584
계절	22585
불참	22586
청하	22587
Col	22588
거세	22589
혼합	22590
##부키	22591
야당	22592
##te	22593
so	22594
생태	22595
기껏	22596
아비	22597
학년도	22598
항공사	22599
GM	22600
비자	22601
저글링	22602
점멸	22603
HE	22604
건너가	22605
질환	22606
##사르	22607
미정	22608
극심	22609
다녀	22610
오만	22611
##ail	22612
##msys	22613
페르소	22614
##ition	22615
ldmsys	22616
원판	22617
간판	22618
머스	22619
그란	22620
스탈린	22621
천국	22622
충청북도	22623
스탭	22624
일지	22625
히드라	22626
이별	22627
우지	22628
도대	22629
테르	22630
필사	22631
얼리	22632
과금	22633
시시	22634
마기	22635
rd	22636
Night	22637
각국	22638
##닐라	22639
##티노	22640
욕심	22641
##구니	22642
BC	22643
차장	22644
마르코	22645
테리	22646
상냥	22647
토우	22648
강인	22649
나들	22650
not	22651
조립	22652
레버	22653
샘플	22654
시안	22655
회로	22656
##키스	22657
##당초	22658
앨런	22659
미녀	22660
헤라	22661
나들목	22662
리버스	22663
##워프	22664
달려오	22665
##IL	22666
이사장	22667
지루	22668
김주	22669
단자	22670
스매	22671
승패	22672
지지율	22673
요코하마	22674
암컷	22675
인텔	22676
공국	22677
##당기	22678
##히토	22679
##러브	22680
##ild	22681
##무지	22682
하여금	22683
168	22684
김치	22685
일일	22686
김광	22687
페르소나	22688
오토바이	22689
Let	22690
수소	22691
알렉산드	22692
지크	22693
물약	22694
도미	22695
스윙	22696
마쓰	22697
ᆯ래	22698
병행	22699
희생자	22700
디아블로	22701
오사	22702
키요	22703
학회	22704
고이	22705
하지	22706
피난	22707
단백질	22708
상부	22709
난민	22710
스크롤	22711
##ody	22712
토라	22713
돌려	22714
데	22715
바텀	22716
만렙	22717
테니스	22718
등재	22719
목욕	22720
사탕	22721
빙결	22722
Black	22723
들르	22724
어원	22725
펑크	22726
159	22727
##바리	22728
일환	22729
어서	22730
코끼리	22731
밀리언	22732
신작	22733
무녀	22734
이승만	22735
##세지	22736
##파이	22737
도배	22738
퍼펙트	22739
##와라	22740
BD	22741
칼라	22742
평택	22743
##클린	22744
무신	22745
춤추	22746
말레이시아	22747
라인하르트	22748
부처	22749
아마존	22750
미노	22751
일어	22752
내밀	22753
리자	22754
인쇄	22755
여주인	22756
보로	22757
해변	22758
##진호	22759
해역	22760
아리스	22761
오즈	22762
파고	22763
아인	22764
신생	22765
화신	22766
금발	22767
부친	22768
환생	22769
둥지	22770
마도카	22771
가해	22772
직행	22773
1948	22774
mar	22775
##ough	22776
응답	22777
해전	22778
발사기	22779
아메리칸	22780
국기	22781
아무렇	22782
진흥	22783
수라	22784
엉덩이	22785
AF	22786
MM	22787
챔스	22788
절단	22789
대니	22790
1944	22791
미소녀	22792
세례	22793
도대체	22794
모의	22795
무능	22796
1965	22797
성벽	22798
OG	22799
부제	22800
히사	22801
##33	22802
삼키	22803
##모습	22804
명장	22805
두껍	22806
맛보	22807
쿠르	22808
유머	22809
중공	22810
프롤	22811
일조	22812
##앤젤레스	22813
로스앤젤레스	22814
##레아	22815
퓨전	22816
스텔스	22817
섬멸	22818
노부나가	22819
석사	22820
충남	22821
방언	22822
프랑크	22823
간지	22824
회계	22825
불상	22826
스쿼드	22827
노릇	22828
##멘터리	22829
아카네	22830
아포	22831
주저	22832
RE	22833
섭취	22834
아슬	22835
울음	22836
와이번스	22837
수중	22838
식스	22839
수아	22840
약체	22841
필라	22842
4000	22843
눈앞	22844
Op	22845
##gr	22846
데몬	22847
일명	22848
대국	22849
안토니	22850
스네	22851
카일	22852
스케이	22853
좌파	22854
전임	22855
빅토리아	22856
사임	22857
동상	22858
집필	22859
고래	22860
객관	22861
출석	22862
##aster	22863
접수	22864
##스크림	22865
ㅔ요	22866
빌보드	22867
공교	22868
외야수	22869
##app	22870
마을버스	22871
그리스도	22872
메디	22873
##orts	22874
##타리	22875
평상시	22876
목포	22877
확립	22878
벨라	22879
비평	22880
인피니티	22881
선회	22882
사이토	22883
대안	22884
##성군	22885
그리핀	22886
대승	22887
연세대	22888
두루	22889
유메	22890
##uc	22891
보살	22892
쿄코	22893
베이비	22894
사천	22895
교향	22896
드워프	22897
애용	22898
혼혈	22899
1946	22900
걸어가	22901
##고속도로	22902
십자군	22903
아수	22904
신관	22905
##은이	22906
워드	22907
아니하	22908
공동체	22909
성지	22910
이계	22911
##시티	22912
주공	22913
PK	22914
에코	22915
다큐멘터리	22916
주입	22917
##렉터	22918
루미	22919
장본	22920
해고	22921
꺼지	22922
알렉산더	22923
무자	22924
서울시	22925
최상급	22926
보우	22927
컨디션	22928
그랑프리	22929
동북	22930
위시	22931
휴게	22932
스카웃	22933
김대중	22934
이무	22935
##CE	22936
주파	22937
제발	22938
스기	22939
##ject	22940
en	22941
편의점	22942
껍질	22943
스타워즈	22944
평판	22945
교대	22946
##OO	22947
EXT	22948
몬	22949
탄소	22950
##티니	22951
침해	22952
..?	22953
블라디	22954
득표율	22955
가령	22956
##ari	22957
단련	22958
폭로	22959
math	22960
믿음	22961
카게	22962
비로	22963
자력	22964
컴뱃	22965
전도	22966
방안	22967
아유	22968
면제	22969
수컷	22970
##그라	22971
사지	22972
퍼시	22973
##긋나	22974
민폐	22975
집사	22976
le	22977
휴대폰	22978
AL	22979
흑막	22980
테이프	22981
CR	22982
독백	22983
정답	22984
아쉬움	22985
크롬	22986
라우	22987
라비	22988
솔저	22989
히로시마	22990
정서	22991
숙청	22992
섬광	22993
아르바이트	22994
EZ	22995
두려움	22996
리프트	22997
대면	22998
막부	22999
소마	23000
스모	23001
뻔하	23002
성대	23003
##프란	23004
리부	23005
##각형	23006
와타나베	23007
구호	23008
달콤	23009
원한	23010
라가	23011
큐어	23012
경제학	23013
항성	23014
원자력	23015
감성	23016
##iel	23017
##트론	23018
떠돌	23019
우미	23020
둥글	23021
프랭크	23022
단서	23023
강동	23024
냉장	23025
지각	23026
남학생	23027
공명	23028
##퍼니	23029
관광객	23030
##디스	23031
홈경기	23032
151	23033
찬양	23034
보복	23035
유즈	23036
격퇴	23037
138	23038
타우	23039
Gu	23040
하와	23041
신념	23042
신조	23043
으려면	23044
SA	23045
##미르	23046
던지라	23047
가해자	23048
배리	23049
장본인	23050
드라	23051
티저	23052
광복	23053
남양	23054
개업	23055
사르	23056
케리	23057
320	23058
하도	23059
172	23060
GSL	23061
눈동자	23062
은메달	23063
로비	23064
적이	23065
##애나	23066
점하	23067
타카하시	23068
샤를	23069
권하	23070
정우	23071
휴먼	23072
벡터	23073
수성	23074
##오피스	23075
상시	23076
무지개	23077
남한	23078
가이아	23079
##TA	23080
조수	23081
김병	23082
천주교	23083
ATK	23084
살아오	23085
##ats	23086
순천	23087
##도전	23088
##ye	23089
지면	23090
의의	23091
강아지	23092
어벤져	23093
단역	23094
보직	23095
우기	23096
EU	23097
##eah	23098
##바람	23099
아폴	23100
불화	23101
동아시아	23102
개막전	23103
자루	23104
주한	23105
315	23106
시네마	23107
1961	23108
##총장	23109
사와	23110
컬렉션	23111
##부인	23112
풍경	23113
GD	23114
서바이벌	23115
일각	23116
천지	23117
걸음	23118
배후	23119
##은	23120
##중간	23121
얼티밋	23122
투고	23123
##운수	23124
고난	23125
트이	23126
TOP	23127
테레	23128
Mag	23129
오공	23130
158	23131
케	23132
균열	23133
동사	23134
어기	23135
대교	23136
찔리	23137
바닷	23138
내정	23139
그리하여	23140
라이드	23141
CL	23142
표기법	23143
상원	23144
재질	23145
도스	23146
탁월	23147
다녀오	23148
깃털	23149
흑역사	23150
카사	23151
손잡이	23152
가왕	23153
악행	23154
캡슐	23155
무한도전	23156
통보	23157
스칼	23158
로크	23159
마미	23160
스톡	23161
##이센	23162
시련	23163
추모	23164
로맨스	23165
AB	23166
민병	23167
NT	23168
물리학	23169
ver	23170
리믹스	23171
수확	23172
흉내	23173
스파크	23174
동메달	23175
카이저	23176
내면	23177
숭배	23178
일산	23179
루마니아	23180
UC	23181
매그	23182
여수	23183
##oh	23184
치고	23185
##eth	23186
이순신	23187
충고	23188
표식	23189
##ron	23190
박스오피스	23191
소꿉	23192
이세	23193
쿠사	23194
슬라이드	23195
동이	23196
제대	23197
독보	23198
##성이	23199
결과물	23200
병살	23201
금고	23202
##ings	23203
아이즈	23204
주차장	23205
마저	23206
이호	23207
김일성	23208
유마	23209
구제	23210
##내리	23211
청사	23212
##메리카	23213
사범	23214
신상	23215
제인	23216
어판	23217
쿠리	23218
그레이드	23219
건립	23220
레이지	23221
176	23222
공로	23223
##ᅳᆺ	23224
컴퍼니	23225
도요	23226
방정	23227
크라운	23228
다저스	23229
##맥스	23230
삽질	23231
will	23232
간파	23233
운반	23234
지미	23235
Is	23236
ME	23237
재수	23238
예고편	23239
보가	23240
직무	23241
##느님	23242
병과	23243
계략	23244
저항력	23245
테란	23246
호응	23247
발톱	23248
타리	23249
##inal	23250
궁수	23251
군데	23252
심정	23253
##==	23254
126	23255
김윤	23256
마수	23257
차림	23258
신임	23259
1949	23260
오로치	23261
정의당	23262
주의자	23263
Am	23264
과격	23265
대명	23266
완벽히	23267
하느님	23268
자작	23269
ᆯ라	23270
기온	23271
폴아웃	23272
승려	23273
상어	23274
친일	23275
우두머리	23276
이점	23277
10000	23278
리볼	23279
어그	23280
보루	23281
몸매	23282
Don	23283
테오	23284
문법	23285
감금	23286
서원	23287
타스	23288
갈기	23289
##ult	23290
겨루	23291
인플	23292
크로우	23293
라이트닝	23294
무선	23295
바이킹	23296
응급	23297
코로나	23298
154	23299
사망자	23300
like	23301
레시피	23302
LE	23303
패왕	23304
세르비아	23305
총사	23306
쫓기	23307
흉악	23308
WH	23309
방울	23310
스치	23311
맷집	23312
{{{-	23313
KB	23314
뒤쪽	23315
풀려나	23316
Time	23317
132	23318
##총리	23319
##MAN	23320
주황	23321
전법	23322
총선거	23323
법안	23324
유해	23325
드루이드	23326
무비	23327
자카	23328
도사	23329
웨폰	23330
거꾸	23331
김성근	23332
표하	23333
습하	23334
##클리	23335
레슬링	23336
센트럴	23337
아테나	23338
new	23339
##덕션	23340
성폭	23341
강서	23342
성직자	23343
멸종	23344
##13	23345
응시	23346
##저래	23347
##빨리	23348
지배자	23349
빗나가	23350
이즈미	23351
강습	23352
천체	23353
니트	23354
저승	23355
이래저래	23356
반기	23357
218	23358
완성도	23359
코프	23360
이용객	23361
테크닉	23362
이리저리	23363
르노	23364
Mi	23365
피드	23366
##슬링	23367
장신구	23368
##GA	23369
떨구	23370
로열	23371
코디	23372
국민당	23373
난리	23374
##ov	23375
취지	23376
##oul	23377
스콜	23378
급식	23379
충격파	23380
트론	23381
##18	23382
상의	23383
라이징	23384
손목	23385
선봉	23386
리츠	23387
##조합	23388
엠블	23389
이영호	23390
안젤	23391
탐구	23392
유신	23393
쥬얼	23394
키노	23395
당나라	23396
노비	23397
짝사랑	23398
더미	23399
지터	23400
##ob	23401
제너	23402
##라이나	23403
핑계	23404
보트	23405
태조	23406
전염	23407
무슬	23408
리우스	23409
야망	23410
##나르	23411
미남	23412
과언	23413
블랙홀	23414
유능	23415
후반전	23416
어드밴	23417
고조	23418
##ould	23419
이쿠	23420
통틀어	23421
으리	23422
156	23423
##보우	23424
마가	23425
..!	23426
iOS	23427
무궁	23428
Ser	23429
##친구	23430
one	23431
마마	23432
164	23433
##alk	23434
버거	23435
진하	23436
리리	23437
##처럼	23438
마지	23439
##tern	23440
재벌	23441
##yn	23442
##레븐	23443
카제	23444
숙련도	23445
139	23446
나란히	23447
배율	23448
필두	23449
##던지	23450
렀다	23451
##활약	23452
놔두	23453
ᆫ가요	23454
유카리	23455
이나마	23456
##15	23457
능하	23458
몰려오	23459
모에	23460
시간대	23461
미세	23462
이인	23463
##up	23464
구청	23465
153	23466
매기	23467
조던	23468
네크로	23469
하츠네	23470
하우	23471
교정	23472
저격수	23473
Gaming	23474
먼지	23475
플리	23476
하나님	23477
##레이크	23478
##reak	23479
반장	23480
콜롬	23481
감기	23482
공격기	23483
거꾸로	23484
커플링	23485
무슬림	23486
양심	23487
합법	23488
초등학생	23489
김두	23490
나열	23491
이광	23492
##고사	23493
##der	23494
##able	23495
GK	23496
오키나	23497
하드웨어	23498
접전	23499
##제스	23500
ᆫ듯	23501
유라	23502
리터	23503
엉뚱	23504
전두	23505
청장	23506
성숙	23507
누이	23508
후면	23509
지성	23510
상공	23511
세미	23512
##라이언스	23513
##바스	23514
최하	23515
148	23516
어제	23517
디비전	23518
가히	23519
Car	23520
맞먹	23521
##ions	23522
비즈	23523
허브	23524
신주	23525
인천광역시	23526
연달	23527
##사고	23528
진도	23529
탄막	23530
범하	23531
실업	23532
##엘라	23533
스케줄	23534
표창	23535
동등	23536
얼라이언스	23537
Your	23538
타키	23539
셋째	23540
오바	23541
단의	23542
벌금	23543
주유	23544
##문화	23545
롤	23546
167	23547
##널드	23548
볼드	23549
ᆫ단	23550
고우	23551
김선	23552
장시	23553
냉장고	23554
스마일	23555
쟁이	23556
대등	23557
호스	23558
맞대	23559
203	23560
동지	23561
북서	23562
봉하	23563
달인	23564
배열	23565
지표	23566
몰아넣	23567
애드	23568
쫓아내	23569
로제	23570
황혼	23571
프로덕션	23572
어긋나	23573
애국	23574
데미	23575
SSR	23576
창작물	23577
##백과	23578
##주의자	23579
##PA	23580
무색	23581
사료	23582
1958	23583
브라우	23584
가나	23585
1941	23586
음향	23587
174	23588
오역	23589
주술사	23590
야마모토	23591
승급	23592
아수라	23593
영화배우	23594
##ull	23595
휴스턴	23596
도모	23597
공모	23598
무죄	23599
갈구	23600
꾸리	23601
사야카	23602
##프란시스코	23603
샌프란시스코	23604
전례	23605
라틴어	23606
종말	23607
여주인공	23608
se	23609
유타	23610
타당	23611
##재기	23612
노하	23613
동년	23614
시끄럽	23615
이니	23616
Min	23617
설탕	23618
법학	23619
##전사	23620
깨우	23621
버블	23622
번식	23623
앞세우	23624
무안	23625
RO	23626
##셉트	23627
시뮬레이션	23628
142	23629
자키	23630
##퀘어	23631
통행	23632
지지자	23633
바이크	23634
처녀	23635
##상가	23636
LTE	23637
광범	23638
레이븐	23639
##차리	23640
굳히	23641
영등	23642
문헌	23643
사내	23644
헤드샷	23645
빈약	23646
인명	23647
##니코	23648
염색	23649
스페인어	23650
쳐들어오	23651
##타르	23652
카인	23653
주가	23654
순간이동	23655
##무네	23656
163	23657
혼동	23658
런처	23659
원화	23660
과감	23661
박탈	23662
파이프	23663
가라앉	23664
한층	23665
##기업	23666
배상	23667
수령	23668
차일드	23669
맹활약	23670
토비	23671
레인보우	23672
득실	23673
생각나	23674
이오리	23675
프로이센	23676
##ube	23677
##ECT	23678
일련	23679
러너	23680
마스코트	23681
꼴찌	23682
1954	23683
염두	23684
우편	23685
BGA	23686
레바	23687
리볼버	23688
제자리	23689
##아티아	23690
졸업식	23691
네스	23692
크로아티아	23693
강수	23694
월요일	23695
진로	23696
드로	23697
디	23698
안보	23699
##ll	23700
전학	23701
have	23702
후쿠시마	23703
사가	23704
pr	23705
태권	23706
회견	23707
맥락	23708
제지	23709
단식	23710
찰나	23711
황실	23712
설마	23713
out	23714
레슨	23715
절정	23716
음력	23717
오리온	23718
밀레	23719
수하	23720
기관포	23721
페미니즘	23722
대목	23723
연막	23724
능숙	23725
발현	23726
대외	23727
득표수	23728
크리스토	23729
장례식	23730
상속	23731
약칭	23732
이만	23733
카토	23734
##ICE	23735
##립트	23736
##랄드	23737
초상화	23738
환호	23739
카렌	23740
단총	23741
연고지	23742
사소	23743
NM	23744
제프	23745
복음	23746
토론토	23747
미트	23748
##터스	23749
##스티스	23750
대군	23751
파우	23752
143	23753
밀어붙이	23754
137	23755
##보라	23756
대법원	23757
[...]
