[UNK]	0
[CLS]	1
[SEP]	2
[PAD]	3
[MASK]	4
!	5
"	6
#	7
$	8
%	9
&	10
'	11
(	12
)	13
*	14
+	15
,	16
-	17
.	18
/	19
0	20
1	21
2	22
3	23
4	24
5	25
6	26
7	27
8	28
9	29
:	30
;	31
<	32
=	33
>	34
?	35
@	36
A	37
B	38
C	39
D	40
E	41
F	42
G	43
H	44
I	45
J	46
K	47
L	48
M	49
N	50
O	51
P	52
Q	53
R	54
S	55
T	56
U	57
V	58
W	59
X	60
Y	61
Z	62
[	63
\	64
]	65
^	66
_	67
`	68
a	69
b	70
c	71
d	72
e	73
f	74
g	75
h	76
i	77
j	78
k	79
l	80
m	81
n	82
o	83
p	84
q	85
r	86
s	87
t	88
u	89
v	90
w	91
x	92
y	93
z	94
{	95
|	96
}	97
~	98
	99
ᄀ	100
ㄱ	101
ㄲ	102
ㄳ	103
ㄴ	104
ㄵ	105
ㄶ	106
ㄷ	107
ㄸ	108
ㄹ	109
ㄺ	110
ㄻ	111
ㄼ	112
ㄽ	113
ㄾ	114
ㄿ	115
ㅀ	116
ㅁ	117
ㅂ	118
ㅃ	119
ㅄ	120
ㅅ	121
ㅆ	122
ㅇ	123
ㅈ	124
ㅉ	125
ㅊ	126
ㅋ	127
ㅌ	128
ㅍ	129
ㅎ	130
ㅏ	131
ㅐ	132
ㅑ	133
ㅒ	134
ㅓ	135
ㅔ	136
ㅕ	137
ㅖ	138
ㅗ	139
ㅘ	140
ㅙ	141
ㅚ	142
ㅛ	143
ㅜ	144
ㅝ	145
ㅞ	146
ㅟ	147
ㅠ	148
ㅡ	149
ㅢ	150
ㅣ	151
가	152
각	153
갂	154
갃	155
간	156
갅	157
갆	158
갇	159
갈	160
갉	161
갊	162
갋	163
갌	164
갍	165
갎	166
갏	167
감	168
갑	169
값	170
갓	171
갔	172
강	173
갖	174
갗	175
갘	176
같	177
갚	178
갛	179
개	180
객	181
갞	182
갟	183
갠	184
갡	185
갢	186
갣	187
갤	188
갥	189
갦	190
갧	191
갨	192
갩	193
갪	194
갫	195
갬	196
갭	197
갮	198
갯	199
갰	200
갱	201
갲	202
갳	203
갴	204
갵	205
갶	206
갷	207
갸	208
갹	209
갺	210
갻	211
갽	212
갾	213
갿	214
걀	215
걁	216
걂	217
걃	218
걄	219
걅	220
걆	221
걇	222
걈	223
걉	224
걊	225
걋	226
걌	227
걍	228
걎	229
걏	230
걐	231
걑	232
걒	233
걓	234
걔	235
걕	236
걖	237
걗	238
걙	239
걚	240
걛	241
걝	242
걞	243
걟	244
걠	245
걡	246
걢	247
걣	248
걤	249
걥	250
걦	251
걧	252
걨	253
걩	254
걪	255
걫	256
걬	257
걭	258
걮	259
걯	260
거	261
걱	262
걲	263
걳	264
건	265
걵	266
걶	267
걷	268
걸	269
걹	270
걺	271
걻	272
걼	273
걽	274
걾	275
걿	276
검	277
겁	278
겂	279
것	280
겄	281
겅	282
겆	283
겇	284
겈	285
겉	286
겊	287
겋	288
게	289
겍	290
겎	291
겏	292
겐	293
겑	294
겒	295
겓	296
겔	297
겕	298
겖	299
겗	300
겘	301
겙	302
겚	303
겛	304
겜	305
겞	306
겟	307
겠	308
겡	309
겢	310
겣	311
겤	312
겥	313
겦	314
겧	315
겨	316
격	317
겪	318
겫	319
견	320
겭	321
겮	322
겯	323
결	324
겱	325
겲	326
겳	327
겴	328
겵	329
겶	330
겷	331
겸	332
겹	333
겺	334
겻	335
겼	336
경	337
겾	338
겿	339
곀	340
곁	341
곂	342
곃	343
계	344
곅	345
곆	346
곇	347
곈	348
곉	349
곊	350
곋	351
곌	352
곍	353
곎	354
곏	355
곐	356
곑	357
곒	358
곓	359
곔	360
곕	361
곖	362
곗	363
곘	364
곙	365
곚	366
곛	367
곜	368
곝	369
곞	370
곟	371
고	372
곡	373
곢	374
곣	375
곤	376
곥	377
곦	378
곧	379
골	380
곩	381
곪	382
곫	383
곬	384
곭	385
곮	386
곯	387
곰	388
곱	389
곲	390
곳	391
곴	392
공	393
곶	394
곷	395
곸	396
곹	397
곺	398
곻	399
과	400
곽	401
곾	402
곿	403
관	404
괁	405
괂	406
괃	407
괄	408
괅	409
괆	410
괇	411
괈	412
괉	413
괊	414
괋	415
괌	416
괍	417
괎	418
괏	419
괐	420
광	421
괒	422
괓	423
괔	424
괕	425
괖	426
괗	427
괘	428
괙	429
괚	430
괛	431
괜	432
괝	433
괞	434
괟	435
괠	436
괡	437
괢	438
괣	439
괤	440
괥	441
괦	442
괧	443
괨	444
괩	445
괪	446
괫	447
괬	448
괭	449
괮	450
괯	451
괰	452
괱	453
괲	454
괳	455
괴	456
괵	457
괶	458
괷	459
괸	460
괹	461
괺	462
괻	463
괼	464
괽	465
괾	466
괿	467
굀	468
굁	469
굂	470
굃	471
굄	472
굅	473
굆	474
굇	475
굈	476
굉	477
굊	478
굋	479
굌	480
굍	481
굎	482
굏	483
교	484
굑	485
굒	486
굓	487
굔	488
굕	489
굖	490
굗	491
굘	492
굙	493
굚	494
굛	495
굜	496
굝	497
굞	498
굟	499
굠	500
굡	501
굢	502
굣	503
굤	504
굥	505
굦	506
굧	507
굨	508
굩	509
굪	510
굫	511
구	512
국	513
굮	514
굯	515
군	516
굱	517
굲	518
굳	519
굴	520
굵	521
굶	522
굷	523
굸	524
굹	525
굺	526
굻	527
굼	528
굽	529
굾	530
굿	531
궀	532
궁	533
궂	534
궃	535
궄	536
궅	537
궆	538
궇	539
궈	540
궉	541
궊	542
궋	543
권	544
궍	545
궎	546
궏	547
궐	548
궑	549
궒	550
궓	551
궔	552
궕	553
궖	554
궗	555
궘	556
궙	557
궚	558
궛	559
궜	560
궝	561
궞	562
궟	563
궠	564
궡	565
궢	566
궣	567
궤	568
궥	569
궦	570
궧	571
궨	572
궩	573
궪	574
궫	575
궬	576
궭	577
궮	578
궯	579
궰	580
궱	581
궲	582
궳	583
궴	584
궵	585
궶	586
궷	587
궸	588
궹	589
궺	590
궻	591
궼	592
궽	593
궾	594
궿	595
귀	596
귁	597
귂	598
귃	599
귄	600
귅	601
귆	602
귇	603
귈	604
귉	605
귊	606
귋	607
귌	608
귍	609
귎	610
귏	611
귐	612
귑	613
귒	614
귓	615
귔	616
귕	617
귖	618
귗	619
귘	620
귙	621
귚	622
귛	623
규	624
귝	625
귞	626
귟	627
균	628
귡	629
귢	630
귣	631
귤	632
귥	633
귦	634
귧	635
귨	636
귩	637
귪	638
귫	639
귬	640
귭	641
귮	642
귯	643
귰	644
귱	645
귲	646
귳	647
귴	648
귵	649
귶	650
귷	651
그	652
극	653
귺	654
귻	655
근	656
귽	657
귾	658
귿	659
글	660
긁	661
긂	662
긃	663
긄	664
긅	665
긆	666
긇	667
금	668
급	669
긊	670
긋	671
긌	672
긍	673
긎	674
긏	675
긐	676
긑	677
긒	678
긓	679
긔	680
긕	681
긖	682
긗	683
긘	684
긙	685
긚	686
긛	687
긜	688
긝	689
긞	690
긟	691
긠	692
긡	693
긢	694
긣	695
긤	696
긥	697
긦	698
긧	699
긨	700
긩	701
긪	702
긫	703
긬	704
긭	705
긮	706
긯	707
기	708
긱	709
긲	710
긳	711
긴	712
긵	713
긶	714
긷	715
길	716
긹	717
긺	718
긻	719
긼	720
긽	721
긾	722
긿	723
김	724
깁	725
깂	726
깃	727
깄	728
깅	729
깆	730
깇	731
깈	732
깉	733
깊	734
깋	735
까	736
깍	737
깎	738
깏	739
깐	740
깑	741
깒	742
깓	743
깔	744
깕	745
깖	746
깗	747
깘	748
깙	749
깚	750
깛	751
깜	752
깝	753
깞	754
깟	755
깡	756
깢	757
깣	758
깤	759
깥	760
깦	761
깧	762
깨	763
깩	764
깪	765
깫	766
깬	767
깭	768
깮	769
깯	770
깱	771
깲	772
깳	773
깴	774
깵	775
깶	776
깷	777
깸	778
깹	779
깺	780
깻	781
깽	782
깾	783
깿	784
꺀	785
꺁	786
꺂	787
꺃	788
꺄	789
꺅	790
꺆	791
꺇	792
꺈	793
꺉	794
꺊	795
꺋	796
꺌	797
꺍	798
꺎	799
꺏	800
꺐	801
꺑	802
꺒	803
꺓	804
꺔	805
꺕	806
꺖	807
꺗	808
꺘	809
꺙	810
꺚	811
꺛	812
꺜	813
꺝	814
꺞	815
꺟	816
꺠	817
꺡	818
꺢	819
꺣	820
꺤	821
꺥	822
꺦	823
꺧	824
꺨	825
꺩	826
꺪	827
꺫	828
꺬	829
꺭	830
꺮	831
꺯	832
꺰	833
꺱	834
꺲	835
꺳	836
꺴	837
꺵	838
꺶	839
꺷	840
꺸	841
꺹	842
꺺	843
꺻	844
꺼	845
꺽	846
꺾	847
꺿	848
껀	849
껁	850
껂	851
껃	852
껄	853
껅	854
껆	855
껇	856
껈	857
껉	858
껊	859
껋	860
껌	861
껍	862
껎	863
껏	864
껑	865
껒	866
껓	867
껔	868
껕	869
껖	870
껗	871
께	872
껙	873
껚	874
껛	875
껝	876
껞	877
껟	878
껠	879
껡	880
껢	881
껣	882
껤	883
껥	884
껦	885
껧	886
껨	887
껩	888
껪	889
껫	890
껬	891
껭	892
껮	893
껯	894
껰	895
껱	896
껲	897
껳	898
껴	899
껵	900
껶	901
껷	902
껸	903
껹	904
껺	905
껻	906
껼	907
껽	908
껾	909
껿	910
꼀	911
꼁	912
꼂	913
꼃	914
꼄	915
꼅	916
꼆	917
꼇	918
꼈	919
꼉	920
꼊	921
꼋	922
꼌	923
꼍	924
꼎	925
꼏	926
꼐	927
꼑	928
꼒	929
꼓	930
꼔	931
꼕	932
꼖	933
꼗	934
꼘	935
꼙	936
꼚	937
꼛	938
꼜	939
꼝	940
꼞	941
꼟	942
꼠	943
꼡	944
꼢	945
꼣	946
꼤	947
꼥	948
꼦	949
꼧	950
꼨	951
꼩	952
꼪	953
꼫	954
꼬	955
꼭	956
꼮	957
꼯	958
꼰	959
꼱	960
꼲	961
꼳	962
꼴	963
꼵	964
꼶	965
꼷	966
꼸	967
꼹	968
꼺	969
꼻	970
꼼	971
꼽	972
꼾	973
꼿	974
꽀	975
꽁	976
꽂	977
꽃	978
꽄	979
꽅	980
꽆	981
꽇	982
꽈	983
꽉	984
꽊	985
꽋	986
꽌	987
꽍	988
꽎	989
꽏	990
꽐	991
꽑	992
꽒	993
꽓	994
꽔	995
꽕	996
꽖	997
꽗	998
꽘	999
꽙	1000
꽚	1001
꽛	1002
꽜	1003
꽝	1004
꽞	1005
꽟	1006
꽠	1007
꽡	1008
꽢	1009
꽣	1010
꽤	1011
꽥	1012
꽦	1013
꽧	1014
꽨	1015
꽩	1016
꽪	1017
꽫	1018
꽬	1019
꽭	1020
꽮	1021
꽯	1022
꽰	1023
꽱	1024
꽲	1025
꽳	1026
꽴	1027
꽵	1028
꽶	1029
꽷	1030
꽸	1031
꽹	1032
꽺	1033
꽻	1034
꽼	1035
꽽	1036
꽾	1037
꽿	1038
꾀	1039
꾁	1040
꾂	1041
꾃	1042
꾄	1043
꾅	1044
꾆	1045
꾇	1046
꾈	1047
꾉	1048
꾊	1049
꾋	1050
꾌	1051
꾍	1052
꾎	1053
꾏	1054
꾐	1055
꾑	1056
꾒	1057
꾓	1058
꾔	1059
꾕	1060
꾖	1061
꾗	1062
꾘	1063
꾙	1064
꾚	1065
꾛	1066
꾜	1067
꾝	1068
꾞	1069
꾟	1070
꾠	1071
꾡	1072
꾢	1073
꾣	1074
꾤	1075
꾥	1076
꾦	1077
꾧	1078
꾨	1079
꾩	1080
꾪	1081
꾫	1082
꾬	1083
꾭	1084
꾮	1085
꾯	1086
꾰	1087
꾱	1088
꾲	1089
꾳	1090
꾴	1091
꾵	1092
꾶	1093
꾷	1094
꾸	1095
꾹	1096
꾺	1097
꾻	1098
꾼	1099
꾽	1100
꾾	1101
꾿	1102
꿀	1103
꿁	1104
꿂	1105
꿃	1106
꿄	1107
꿅	1108
꿆	1109
꿇	1110
꿈	1111
꿉	1112
꿊	1113
꿋	1114
꿌	1115
꿍	1116
꿎	1117
꿏	1118
꿐	1119
꿑	1120
꿒	1121
꿓	1122
꿔	1123
꿕	1124
꿖	1125
꿗	1126
꿘	1127
꿙	1128
꿚	1129
꿛	1130
꿜	1131
꿝	1132
꿞	1133
꿟	1134
꿠	1135
꿡	1136
꿢	1137
꿣	1138
꿤	1139
꿥	1140
꿦	1141
꿧	1142
꿨	1143
꿩	1144
꿪	1145
꿫	1146
꿬	1147
꿭	1148
꿮	1149
꿯	1150
꿰	1151
꿱	1152
꿲	1153
꿳	1154
꿵	1155
꿶	1156
꿷	1157
꿹	1158
꿺	1159
꿻	1160
꿼	1161
꿽	1162
꿾	1163
꿿	1164
뀀	1165
뀁	1166
뀂	1167
뀃	1168
뀅	1169
뀆	1170
뀇	1171
뀈	1172
뀉	1173
뀊	1174
뀋	1175
뀌	1176
뀍	1177
뀎	1178
뀏	1179
뀐	1180
뀑	1181
뀒	1182
뀓	1183
뀕	1184
뀖	1185
뀗	1186
뀘	1187
뀙	1188
뀚	1189
뀛	1190
뀜	1191
뀝	1192
뀞	1193
뀟	1194
뀠	1195
뀡	1196
뀢	1197
뀣	1198
뀤	1199
뀥	1200
뀦	1201
뀧	1202
뀨	1203
뀩	1204
뀪	1205
뀫	1206
뀬	1207
뀭	1208
뀮	1209
뀯	1210
뀰	1211
뀱	1212
뀲	1213
뀳	1214
뀴	1215
뀵	1216
뀶	1217
뀷	1218
뀸	1219
뀹	1220
뀺	1221
뀻	1222
뀼	1223
뀽	1224
뀾	1225
뀿	1226
끀	1227
끁	1228
끂	1229
끃	1230
끄	1231
끅	1232
끆	1233
끇	1234
끈	1235
끉	1236
끊	1237
끋	1238
끌	1239
끍	1240
끎	1241
끏	1242
끐	1243
끑	1244
끒	1245
끓	1246
끔	1247
끕	1248
끖	1249
끗	1250
끘	1251
끙	1252
끚	1253
끛	1254
끜	1255
끝	1256
끞	1257
끟	1258
끠	1259
끡	1260
끢	1261
끣	1262
끤	1263
끥	1264
끦	1265
끧	1266
끨	1267
끩	1268
끪	1269
끫	1270
끬	1271
끭	1272
끮	1273
끯	1274
끰	1275
끱	1276
끲	1277
끳	1278
끴	1279
끵	1280
끶	1281
끷	1282
끸	1283
끹	1284
끺	1285
끻	1286
끼	1287
끽	1288
끾	1289
끿	1290
낀	1291
낁	1292
낂	1293
낃	1294
낄	1295
낅	1296
낆	1297
낇	1298
낈	1299
낉	1300
낊	1301
낋	1302
낌	1303
낍	1304
낎	1305
낏	1306
낐	1307
낑	1308
낒	1309
낓	1310
낔	1311
낕	1312
낖	1313
낗	1314
나	1315
낙	1316
낚	1317
낛	1318
난	1319
낝	1320
낞	1321
낟	1322
날	1323
낡	1324
낢	1325
낣	1326
낤	1327
낥	1328
낦	1329
낧	1330
남	1331
납	1332
낪	1333
낫	1334
났	1335
낭	1336
낮	1337
낯	1338
낰	1339
낱	1340
낲	1341
낳	1342
내	1343
낵	1344
낶	1345
낷	1346
낸	1347
낹	1348
낺	1349
낻	1350
낼	1351
낽	1352
낾	1353
낿	1354
냀	1355
냁	1356
냂	1357
냃	1358
냄	1359
냅	1360
냆	1361
냇	1362
냈	1363
냉	1364
냊	1365
냋	1366
냌	1367
냍	1368
냎	1369
냏	1370
냐	1371
냑	1372
냒	1373
냓	1374
냔	1375
냕	1376
냖	1377
냗	1378
냘	1379
냙	1380
냚	1381
냛	1382
냜	1383
냝	1384
냞	1385
냟	1386
냠	1387
냡	1388
냢	1389
냣	1390
냤	1391
냥	1392
냦	1393
냧	1394
냨	1395
냩	1396
냪	1397
냫	1398
냬	1399
냭	1400
냮	1401
냯	1402
냰	1403
냱	1404
냲	1405
냳	1406
냴	1407
냵	1408
냶	1409
냷	1410
냸	1411
냹	1412
냺	1413
냻	1414
냼	1415
냽	1416
냾	1417
냿	1418
넀	1419
넁	1420
넂	1421
넃	1422
넄	1423
넅	1424
넆	1425
넇	1426
너	1427
넉	1428
넊	1429
넋	1430
넌	1431
넍	1432
넎	1433
넏	1434
널	1435
넑	1436
넒	1437
넓	1438
넔	1439
넕	1440
넖	1441
넗	1442
넘	1443
넙	1444
넚	1445
넛	1446
넜	1447
넝	1448
넞	1449
넟	1450
넠	1451
넡	1452
넢	1453
넣	1454
네	1455
넥	1456
넦	1457
넧	1458
넨	1459
넩	1460
넪	1461
넫	1462
넬	1463
넭	1464
넮	1465
넯	1466
넰	1467
넱	1468
넲	1469
넳	1470
넴	1471
넵	1472
넶	1473
넷	1474
넸	1475
넹	1476
넺	1477
넻	1478
넼	1479
넽	1480
넾	1481
넿	1482
녀	1483
녁	1484
녂	1485
녃	1486
년	1487
녅	1488
녆	1489
녇	1490
녈	1491
녉	1492
녊	1493
녋	1494
녌	1495
녍	1496
녎	1497
녏	1498
념	1499
녑	1500
녒	1501
녓	1502
녔	1503
녕	1504
녖	1505
녗	1506
녘	1507
녙	1508
녚	1509
녛	1510
녜	1511
녝	1512
녞	1513
녟	1514
녠	1515
녡	1516
녢	1517
녣	1518
녤	1519
녥	1520
녦	1521
녧	1522
녨	1523
녩	1524
녪	1525
녫	1526
녬	1527
녭	1528
녮	1529
녯	1530
녰	1531
녱	1532
녲	1533
녳	1534
녴	1535
녵	1536
녶	1537
녷	1538
노	1539
녹	1540
녺	1541
녻	1542
논	1543
녽	1544
녾	1545
녿	1546
놀	1547
놁	1548
놂	1549
놃	1550
놄	1551
놅	1552
놆	1553
놇	1554
놈	1555
놉	1556
놊	1557
놋	1558
놌	1559
농	1560
놎	1561
놏	1562
놐	1563
놑	1564
높	1565
놓	1566
놔	1567
놕	1568
놖	1569
놗	1570
놘	1571
놙	1572
놚	1573
놛	1574
놜	1575
놝	1576
놞	1577
놟	1578
놠	1579
놡	1580
놢	1581
놣	1582
놤	1583
놥	1584
놦	1585
놧	1586
놨	1587
놩	1588
놪	1589
놫	1590
놬	1591
놭	1592
놮	1593
놯	1594
놰	1595
놱	1596
놲	1597
놳	1598
놴	1599
놵	1600
놶	1601
놷	1602
놸	1603
놹	1604
놺	1605
놻	1606
놼	1607
놽	1608
놾	1609
놿	1610
뇀	1611
뇁	1612
뇂	1613
뇃	1614
뇄	1615
뇅	1616
뇆	1617
뇇	1618
뇈	1619
뇉	1620
뇊	1621
뇋	1622
뇌	1623
뇍	1624
뇎	1625
뇏	1626
뇐	1627
뇑	1628
뇒	1629
뇓	1630
뇔	1631
뇕	1632
뇖	1633
뇗	1634
뇘	1635
뇙	1636
뇚	1637
뇛	1638
뇜	1639
뇝	1640
뇞	1641
뇟	1642
뇠	1643
뇡	1644
뇢	1645
뇣	1646
뇤	1647
뇥	1648
뇦	1649
뇧	1650
뇨	1651
뇩	1652
뇪	1653
뇫	1654
뇬	1655
뇭	1656
뇮	1657
뇯	1658
뇰	1659
뇱	1660
뇲	1661
뇳	1662
뇴	1663
뇵	1664
뇶	1665
뇷	1666
뇸	1667
뇹	1668
뇺	1669
뇻	1670
뇼	1671
뇽	1672
뇾	1673
뇿	1674
눀	1675
눁	1676
눂	1677
눃	1678
누	1679
눅	1680
눆	1681
눇	1682
눈	1683
눉	1684
눊	1685
눋	1686
눌	1687
눍	1688
눎	1689
눏	1690
눐	1691
눑	1692
눒	1693
눓	1694
눔	1695
눕	1696
눖	1697
눗	1698
눘	1699
눙	1700
눚	1701
눛	1702
눜	1703
눝	1704
눞	1705
눟	1706
눡	1707
눢	1708
눣	1709
눤	1710
눥	1711
눦	1712
눧	1713
눨	1714
눩	1715
눪	1716
눫	1717
눬	1718
눭	1719
눮	1720
눯	1721
눰	1722
눱	1723
눲	1724
눳	1725
눵	1726
눶	1727
눷	1728
눸	1729
눹	1730
눺	1731
눻	1732
눼	1733
눽	1734
눾	1735
눿	1736
뉀	1737
뉁	1738
뉂	1739
뉃	1740
뉄	1741
뉅	1742
뉆	1743
뉇	1744
뉈	1745
뉉	1746
뉊	1747
뉋	1748
뉌	1749
뉍	1750
뉎	1751
뉏	1752
뉐	1753
뉑	1754
뉒	1755
뉓	1756
뉔	1757
뉕	1758
뉖	1759
뉗	1760
뉘	1761
뉙	1762
뉚	1763
뉛	1764
뉜	1765
뉝	1766
뉞	1767
뉟	1768
뉡	1769
뉢	1770
뉣	1771
뉤	1772
뉥	1773
뉦	1774
뉧	1775
뉨	1776
뉩	1777
뉪	1778
뉫	1779
뉬	1780
뉭	1781
뉮	1782
뉯	1783
뉰	1784
뉱	1785
뉲	1786
뉳	1787
뉴	1788
뉵	1789
뉶	1790
뉷	1791
뉸	1792
뉹	1793
뉺	1794
뉻	1795
뉼	1796
뉽	1797
뉾	1798
뉿	1799
늀	1800
늁	1801
늂	1802
늃	1803
늄	1804
늅	1805
늆	1806
늇	1807
늈	1808
늉	1809
늊	1810
늋	1811
늌	1812
늍	1813
늎	1814
늏	1815
느	1816
늑	1817
늒	1818
늓	1819
는	1820
늕	1821
늖	1822
늗	1823
늘	1824
늙	1825
늚	1826
늛	1827
늜	1828
늝	1829
늞	1830
늟	1831
늠	1832
늡	1833
늢	1834
늣	1835
늤	1836
능	1837
늦	1838
늧	1839
늨	1840
늩	1841
늪	1842
늫	1843
늬	1844
늭	1845
늮	1846
늯	1847
늰	1848
늱	1849
늲	1850
늳	1851
늴	1852
늵	1853
늶	1854
늷	1855
늸	1856
늹	1857
늺	1858
늻	1859
늼	1860
늽	1861
늾	1862
늿	1863
닀	1864
닁	1865
닂	1866
닃	1867
닄	1868
닅	1869
닆	1870
닇	1871
니	1872
닉	1873
닊	1874
닋	1875
닌	1876
닍	1877
닎	1878
닏	1879
닐	1880
닑	1881
닒	1882
닓	1883
닔	1884
닕	1885
닖	1886
닗	1887
님	1888
닙	1889
닚	1890
닛	1891
닜	1892
닝	1893
닞	1894
닟	1895
닠	1896
닡	1897
닢	1898
닣	1899
다	1900
닥	1901
닦	1902
닧	1903
단	1904
닩	1905
닪	1906
닫	1907
달	1908
닭	1909
닮	1910
닯	1911
닰	1912
닱	1913
닲	1914
닳	1915
담	1916
답	1917
닶	1918
닷	1919
닸	1920
당	1921
닺	1922
닻	1923
닼	1924
닽	1925
닾	1926
닿	1927
대	1928
댁	1929
댂	1930
댃	1931
댄	1932
댅	1933
댆	1934
댇	1935
댈	1936
댉	1937
댊	1938
댋	1939
댌	1940
댍	1941
댎	1942
댏	1943
댐	1944
댑	1945
댒	1946
댓	1947
댔	1948
댕	1949
댖	1950
댗	1951
댘	1952
댙	1953
댚	1954
댛	1955
댜	1956
댝	1957
댞	1958
댟	1959
댠	1960
댡	1961
댢	1962
댣	1963
댤	1964
댥	1965
댦	1966
댧	1967
댨	1968
댩	1969
댪	1970
댫	1971
댬	1972
댭	1973
댮	1974
댯	1975
댰	1976
댱	1977
댲	1978
댳	1979
댴	1980
댵	1981
댶	1982
댷	1983
댸	1984
댹	1985
댺	1986
댻	1987
댼	1988
댽	1989
댾	1990
댿	1991
덀	1992
덁	1993
덂	1994
덃	1995
덄	1996
덅	1997
덆	1998
덇	1999
덈	2000
덉	2001
덊	2002
덋	2003
덌	2004
덍	2005
덎	2006
덏	2007
덐	2008
덑	2009
덒	2010
덓	2011
더	2012
덕	2013
덖	2014
덗	2015
던	2016
덙	2017
덚	2018
덛	2019
덜	2020
덝	2021
덞	2022
덟	2023
덠	2024
덡	2025
덢	2026
덣	2027
덤	2028
덥	2029
덦	2030
덧	2031
덨	2032
덩	2033
덪	2034
덫	2035
덬	2036
덭	2037
덮	2038
덯	2039
데	2040
덱	2041
덲	2042
덳	2043
덴	2044
덵	2045
덶	2046
덷	2047
델	2048
덹	2049
덺	2050
덻	2051
덼	2052
덽	2053
덾	2054
덿	2055
뎀	2056
뎁	2057
뎂	2058
뎃	2059
뎄	2060
뎅	2061
뎆	2062
뎇	2063
뎈	2064
뎉	2065
뎊	2066
뎋	2067
뎌	2068
뎍	2069
뎎	2070
뎏	2071
뎐	2072
뎑	2073
뎒	2074
뎓	2075
뎔	2076
뎕	2077
뎖	2078
뎗	2079
뎘	2080
뎙	2081
뎚	2082
뎛	2083
뎜	2084
뎝	2085
뎞	2086
뎟	2087
뎠	2088
뎡	2089
뎢	2090
뎣	2091
뎤	2092
뎥	2093
뎦	2094
뎧	2095
뎨	2096
뎩	2097
뎪	2098
뎫	2099
뎬	2100
뎭	2101
뎮	2102
뎯	2103
뎰	2104
뎱	2105
뎲	2106
뎳	2107
뎴	2108
뎵	2109
뎶	2110
뎷	2111
뎸	2112
뎹	2113
뎺	2114
뎻	2115
뎼	2116
뎽	2117
뎾	2118
뎿	2119
돀	2120
돁	2121
돂	2122
돃	2123
도	2124
독	2125
돆	2126
돇	2127
돈	2128
돉	2129
돊	2130
돋	2131
돌	2132
돍	2133
돎	2134
돏	2135
돐	2136
돑	2137
돒	2138
돓	2139
돔	2140
돕	2141
돖	2142
돗	2143
돘	2144
동	2145
돚	2146
돛	2147
돜	2148
돝	2149
돞	2150
돟	2151
돠	2152
돡	2153
돢	2154
돣	2155
돤	2156
돥	2157
돦	2158
돧	2159
돨	2160
돩	2161
돪	2162
돫	2163
돬	2164
돭	2165
돮	2166
돯	2167
돰	2168
돱	2169
돲	2170
돳	2171
돴	2172
돵	2173
돶	2174
돷	2175
돸	2176
돹	2177
돺	2178
돻	2179
돼	2180
돽	2181
돾	2182
돿	2183
됀	2184
됁	2185
됂	2186
됃	2187
됄	2188
됅	2189
됆	2190
됇	2191
됈	2192
됉	2193
됊	2194
됋	2195
됌	2196
됍	2197
됎	2198
됏	2199
됐	2200
됑	2201
됒	2202
됓	2203
됔	2204
됕	2205
됖	2206
됗	2207
되	2208
됙	2209
됚	2210
됛	2211
된	2212
됝	2213
됞	2214
됟	2215
될	2216
됡	2217
됢	2218
됣	2219
됤	2220
됥	2221
됦	2222
됧	2223
됨	2224
됩	2225
됪	2226
됫	2227
됬	2228
됭	2229
됮	2230
됯	2231
됰	2232
됱	2233
됲	2234
됳	2235
됴	2236
됵	2237
됶	2238
됷	2239
됸	2240
됹	2241
됺	2242
됻	2243
됼	2244
됽	2245
됾	2246
됿	2247
둀	2248
둁	2249
둂	2250
둃	2251
둄	2252
둅	2253
둆	2254
둇	2255
둈	2256
둉	2257
둊	2258
둋	2259
둌	2260
둍	2261
둎	2262
둏	2263
두	2264
둑	2265
둒	2266
둓	2267
둔	2268
둕	2269
둖	2270
둗	2271
둘	2272
둙	2273
둚	2274
둛	2275
둜	2276
둝	2277
둞	2278
둟	2279
둠	2280
둡	2281
둢	2282
둣	2283
둤	2284
둥	2285
둦	2286
둧	2287
둨	2288
둩	2289
둪	2290
둫	2291
둬	2292
둭	2293
둮	2294
둯	2295
둰	2296
둱	2297
둲	2298
둳	2299
둴	2300
둵	2301
둶	2302
둷	2303
둸	2304
둹	2305
둺	2306
둻	2307
둼	2308
둽	2309
둾	2310
둿	2311
뒁	2312
뒂	2313
뒃	2314
뒄	2315
뒅	2316
뒆	2317
뒇	2318
뒈	2319
뒉	2320
뒊	2321
뒋	2322
뒌	2323
뒍	2324
뒎	2325
뒏	2326
뒐	2327
뒑	2328
뒒	2329
뒓	2330
뒔	2331
뒕	2332
뒖	2333
뒗	2334
뒘	2335
뒙	2336
뒚	2337
뒛	2338
뒜	2339
뒝	2340
뒞	2341
뒟	2342
뒠	2343
뒡	2344
뒢	2345
뒣	2346
뒤	2347
뒥	2348
뒦	2349
뒧	2350
뒨	2351
뒩	2352
뒪	2353
뒫	2354
뒬	2355
뒭	2356
뒮	2357
뒯	2358
뒰	2359
뒱	2360
뒲	2361
뒳	2362
뒴	2363
뒵	2364
뒶	2365
뒷	2366
뒸	2367
뒹	2368
뒺	2369
뒻	2370
뒼	2371
뒽	2372
뒾	2373
뒿	2374
듀	2375
듁	2376
듂	2377
듃	2378
듄	2379
듅	2380
듆	2381
듇	2382
듈	2383
듉	2384
듊	2385
듋	2386
듌	2387
듍	2388
듎	2389
듏	2390
듐	2391
듑	2392
듒	2393
듓	2394
듔	2395
듕	2396
듖	2397
듗	2398
듘	2399
듙	2400
듚	2401
듛	2402
드	2403
득	2404
듞	2405
듟	2406
든	2407
듡	2408
듢	2409
듣	2410
들	2411
듥	2412
듦	2413
듧	2414
듨	2415
듩	2416
듪	2417
듫	2418
듬	2419
듭	2420
듮	2421
듯	2422
듰	2423
등	2424
듲	2425
듳	2426
듴	2427
듵	2428
듶	2429
듷	2430
듸	2431
듹	2432
듺	2433
듻	2434
듼	2435
듽	2436
듾	2437
듿	2438
딀	2439
딁	2440
딂	2441
딃	2442
딄	2443
딅	2444
딆	2445
딇	2446
딈	2447
딉	2448
딊	2449
딋	2450
딌	2451
딍	2452
딎	2453
딏	2454
딐	2455
딑	2456
딒	2457
딓	2458
디	2459
딕	2460
딖	2461
딗	2462
딘	2463
딙	2464
딚	2465
딛	2466
딜	2467
딝	2468
딞	2469
딟	2470
딠	2471
딡	2472
딢	2473
딣	2474
딤	2475
딥	2476
딦	2477
딧	2478
딨	2479
딩	2480
딪	2481
딫	2482
딬	2483
딭	2484
딮	2485
딯	2486
따	2487
딱	2488
딲	2489
딳	2490
딴	2491
딵	2492
딶	2493
딷	2494
딸	2495
딹	2496
딺	2497
딻	2498
딼	2499
딽	2500
딾	2501
딿	2502
땀	2503
땁	2504
땂	2505
땃	2506
땅	2507
땆	2508
땇	2509
땈	2510
땉	2511
땊	2512
땋	2513
때	2514
땍	2515
땎	2516
땏	2517
땐	2518
땑	2519
땒	2520
땓	2521
땔	2522
땕	2523
땖	2524
땗	2525
땘	2526
땙	2527
땚	2528
땛	2529
땜	2530
땝	2531
땞	2532
땟	2533
땠	2534
땡	2535
땢	2536
땣	2537
땤	2538
땥	2539
땦	2540
땧	2541
땨	2542
땩	2543
땪	2544
땫	2545
땬	2546
땭	2547
땮	2548
땯	2549
땰	2550
땱	2551
땲	2552
땳	2553
땴	2554
땵	2555
땶	2556
땷	2557
땸	2558
땹	2559
땺	2560
땻	2561
땼	2562
땽	2563
땾	2564
땿	2565
떀	2566
떁	2567
떂	2568
떃	2569
떄	2570
떅	2571
떆	2572
떇	2573
떈	2574
떉	2575
떊	2576
떋	2577
떌	2578
떍	2579
떎	2580
떏	2581
떐	2582
떑	2583
떒	2584
떓	2585
떔	2586
떕	2587
떖	2588
떗	2589
떘	2590
떙	2591
떚	2592
떛	2593
떜	2594
떝	2595
떞	2596
떟	2597
떠	2598
떡	2599
떢	2600
떣	2601
떤	2602
떥	2603
떦	2604
떧	2605
떨	2606
떩	2607
떪	2608
떫	2609
떬	2610
떭	2611
떮	2612
떯	2613
떰	2614
떱	2615
떲	2616
떳	2617
떵	2618
떶	2619
떷	2620
떸	2621
떹	2622
떺	2623
떻	2624
떼	2625
떽	2626
떾	2627
떿	2628
뗀	2629
뗁	2630
뗂	2631
뗃	2632
뗄	2633
뗅	2634
뗆	2635
뗇	2636
뗈	2637
뗉	2638
뗊	2639
뗋	2640
뗌	2641
뗍	2642
뗎	2643
뗏	2644
뗑	2645
뗒	2646
뗓	2647
뗔	2648
뗕	2649
뗖	2650
뗗	2651
뗘	2652
뗙	2653
뗚	2654
뗛	2655
뗜	2656
뗝	2657
뗞	2658
뗟	2659
뗠	2660
뗡	2661
뗢	2662
뗣	2663
뗤	2664
뗥	2665
뗦	2666
뗧	2667
뗨	2668
뗩	2669
뗪	2670
뗫	2671
뗭	2672
뗮	2673
뗯	2674
뗰	2675
뗱	2676
뗲	2677
뗳	2678
뗴	2679
뗵	2680
뗶	2681
뗷	2682
뗸	2683
뗹	2684
뗺	2685
뗻	2686
뗼	2687
뗽	2688
뗾	2689
뗿	2690
똀	2691
똁	2692
똂	2693
똃	2694
똄	2695
똅	2696
똆	2697
똇	2698
똈	2699
똉	2700
똊	2701
똋	2702
똌	2703
똍	2704
똎	2705
똏	2706
또	2707
똑	2708
똒	2709
똓	2710
똔	2711
똕	2712
똖	2713
똗	2714
똘	2715
똙	2716
똚	2717
똛	2718
똜	2719
똝	2720
똞	2721
똟	2722
똠	2723
똡	2724
똢	2725
똣	2726
똤	2727
똥	2728
똦	2729
똧	2730
똨	2731
똩	2732
똪	2733
똫	2734
똬	2735
똭	2736
똮	2737
똯	2738
똰	2739
똱	2740
똲	2741
똳	2742
똴	2743
똵	2744
똶	2745
똷	2746
똸	2747
똹	2748
똺	2749
똻	2750
똼	2751
똽	2752
똾	2753
똿	2754
뙀	2755
뙁	2756
뙂	2757
뙃	2758
뙄	2759
뙅	2760
뙆	2761
뙇	2762
뙈	2763
뙉	2764
뙊	2765
뙋	2766
뙌	2767
뙍	2768
뙎	2769
뙏	2770
뙐	2771
뙑	2772
뙒	2773
뙓	2774
뙔	2775
뙕	2776
뙖	2777
뙗	2778
뙘	2779
뙙	2780
뙚	2781
뙛	2782
뙜	2783
뙝	2784
뙞	2785
뙟	2786
뙠	2787
뙡	2788
뙢	2789
뙣	2790
뙤	2791
뙥	2792
뙦	2793
뙧	2794
뙨	2795
뙩	2796
뙪	2797
뙫	2798
뙬	2799
뙭	2800
뙮	2801
뙯	2802
뙰	2803
뙱	2804
뙲	2805
뙳	2806
뙴	2807
뙵	2808
뙶	2809
뙷	2810
뙸	2811
뙹	2812
뙺	2813
뙻	2814
뙼	2815
뙽	2816
뙾	2817
뙿	2818
뚀	2819
뚁	2820
뚂	2821
뚃	2822
뚄	2823
뚅	2824
뚆	2825
뚇	2826
뚈	2827
뚉	2828
뚊	2829
뚋	2830
뚌	2831
뚍	2832
뚎	2833
뚏	2834
뚐	2835
뚑	2836
뚒	2837
뚓	2838
뚔	2839
뚕	2840
뚖	2841
뚗	2842
뚘	2843
뚙	2844
뚚	2845
뚛	2846
뚜	2847
뚝	2848
뚞	2849
뚟	2850
뚠	2851
뚡	2852
뚢	2853
뚣	2854
뚤	2855
뚥	2856
뚦	2857
뚧	2858
뚨	2859
뚩	2860
뚪	2861
뚫	2862
뚬	2863
뚭	2864
뚮	2865
뚯	2866
뚰	2867
뚱	2868
뚲	2869
뚳	2870
뚴	2871
뚵	2872
뚶	2873
뚷	2874
뚸	2875
뚹	2876
뚺	2877
뚻	2878
뚼	2879
뚽	2880
뚾	2881
뚿	2882
뛀	2883
뛁	2884
뛂	2885
뛃	2886
뛄	2887
뛅	2888
뛆	2889
뛇	2890
뛈	2891
뛉	2892
뛊	2893
뛋	2894
뛌	2895
뛍	2896
뛎	2897
뛏	2898
뛐	2899
뛑	2900
뛒	2901
뛓	2902
뛔	2903
뛕	2904
뛖	2905
뛗	2906
뛘	2907
뛙	2908
뛚	2909
뛛	2910
뛜	2911
뛝	2912
뛞	2913
뛟	2914
뛠	2915
뛡	2916
뛢	2917
뛣	2918
뛤	2919
뛥	2920
뛦	2921
뛧	2922
뛨	2923
뛩	2924
뛪	2925
뛫	2926
뛬	2927
뛭	2928
뛮	2929
뛯	2930
뛰	2931
뛱	2932
뛲	2933
뛳	2934
뛵	2935
뛶	2936
뛷	2937
뛸	2938
뛹	2939
뛺	2940
뛻	2941
뛼	2942
뛽	2943
뛾	2944
뛿	2945
뜀	2946
뜁	2947
뜂	2948
뜃	2949
뜄	2950
뜅	2951
뜆	2952
뜇	2953
뜈	2954
뜉	2955
뜊	2956
뜋	2957
뜌	2958
뜍	2959
뜎	2960
뜏	2961
뜐	2962
뜑	2963
뜒	2964
뜓	2965
뜔	2966
뜕	2967
뜖	2968
뜗	2969
뜘	2970
뜙	2971
뜚	2972
뜛	2973
뜜	2974
뜝	2975
뜞	2976
뜟	2977
뜠	2978
뜡	2979
뜢	2980
뜣	2981
뜤	2982
뜥	2983
뜦	2984
뜧	2985
뜨	2986
뜩	2987
뜪	2988
뜫	2989
뜬	2990
뜭	2991
뜮	2992
뜯	2993
뜰	2994
뜱	2995
뜲	2996
뜳	2997
뜴	2998
뜵	2999
뜶	3000
뜷	3001
뜸	3002
뜹	3003
뜺	3004
뜻	3005
뜼	3006
뜽	3007
뜾	3008
뜿	3009
띀	3010
띁	3011
띂	3012
띃	3013
띄	3014
띅	3015
띆	3016
띇	3017
띉	3018
띊	3019
띋	3020
띍	3021
띎	3022
띏	3023
띐	3024
띑	3025
띒	3026
띓	3027
띔	3028
띕	3029
띖	3030
띗	3031
띘	3032
띙	3033
띚	3034
띛	3035
띜	3036
띝	3037
띞	3038
띟	3039
띠	3040
띡	3041
띢	3042
띣	3043
띤	3044
띥	3045
띦	3046
띧	3047
띨	3048
띩	3049
띪	3050
띫	3051
띬	3052
띭	3053
띮	3054
띯	3055
띰	3056
띱	3057
띲	3058
띳	3059
띴	3060
띵	3061
띶	3062
띷	3063
띸	3064
띹	3065
띺	3066
띻	3067
라	3068
락	3069
띾	3070
띿	3071
란	3072
랁	3073
랂	3074
랃	3075
랄	3076
랅	3077
랆	3078
랇	3079
랈	3080
랉	3081
랊	3082
랋	3083
람	3084
랍	3085
랎	3086
랏	3087
랐	3088
랑	3089
랒	3090
랓	3091
랔	3092
랕	3093
랖	3094
랗	3095
래	3096
랙	3097
랚	3098
랛	3099
랜	3100
랝	3101
랞	3102
랟	3103
랠	3104
랡	3105
랢	3106
랣	3107
랤	3108
랥	3109
랦	3110
랧	3111
램	3112
랩	3113
랪	3114
랫	3115
랬	3116
랭	3117
랮	3118
랯	3119
랰	3120
랱	3121
랲	3122
랳	3123
랴	3124
략	3125
랶	3126
랷	3127
랸	3128
랹	3129
랺	3130
랻	3131
랼	3132
랽	3133
랾	3134
랿	3135
럀	3136
럁	3137
럂	3138
럃	3139
럄	3140
럅	3141
럆	3142
럇	3143
럈	3144
량	3145
럊	3146
럋	3147
럌	3148
럍	3149
럎	3150
럏	3151
럐	3152
럑	3153
럒	3154
럓	3155
럔	3156
럕	3157
럖	3158
럗	3159
럘	3160
럙	3161
럚	3162
럛	3163
럜	3164
럝	3165
럞	3166
럟	3167
럠	3168
럡	3169
럢	3170
럣	3171
럤	3172
럥	3173
럦	3174
럧	3175
럨	3176
럩	3177
럪	3178
럫	3179
러	3180
럭	3181
럮	3182
럯	3183
런	3184
럱	3185
럲	3186
럳	3187
럴	3188
럵	3189
럶	3190
럷	3191
럸	3192
럹	3193
럺	3194
럻	3195
럼	3196
럽	3197
럾	3198
럿	3199
렀	3200
렁	3201
렂	3202
렃	3203
렄	3204
렅	3205
렆	3206
렇	3207
레	3208
렉	3209
렊	3210
렋	3211
렌	3212
렍	3213
렎	3214
렏	3215
렐	3216
렑	3217
렒	3218
렓	3219
렔	3220
렕	3221
렖	3222
렗	3223
렘	3224
렙	3225
렚	3226
렛	3227
렜	3228
렝	3229
렞	3230
렟	3231
렠	3232
렡	3233
렢	3234
렣	3235
려	3236
력	3237
렦	3238
렧	3239
련	3240
렩	3241
렪	3242
렫	3243
렬	3244
렭	3245
렮	3246
렯	3247
렰	3248
렱	3249
렲	3250
렳	3251
렴	3252
렵	3253
렶	3254
렷	3255
렸	3256
령	3257
렺	3258
렻	3259
렼	3260
렽	3261
렾	3262
렿	3263
례	3264
롁	3265
롂	3266
롃	3267
롄	3268
롅	3269
롆	3270
롇	3271
롈	3272
롉	3273
롊	3274
롋	3275
롌	3276
롍	3277
롎	3278
롏	3279
롐	3280
롑	3281
롒	3282
롓	3283
롔	3284
롕	3285
롖	3286
롗	3287
롘	3288
롙	3289
롚	3290
롛	3291
로	3292
록	3293
롞	3294
롟	3295
론	3296
롡	3297
롢	3298
롣	3299
롤	3300
롥	3301
롦	3302
롧	3303
롨	3304
롩	3305
롪	3306
롫	3307
롬	3308
롭	3309
롮	3310
롯	3311
롰	3312
롱	3313
롲	3314
롳	3315
롴	3316
롵	3317
롶	3318
롷	3319
롸	3320
롹	3321
롺	3322
롻	3323
롼	3324
롽	3325
롾	3326
롿	3327
뢀	3328
뢁	3329
뢂	3330
뢃	3331
뢄	3332
뢅	3333
뢆	3334
뢇	3335
뢈	3336
뢉	3337
뢊	3338
뢋	3339
뢌	3340
뢍	3341
뢎	3342
뢏	3343
뢐	3344
뢑	3345
뢒	3346
뢓	3347
뢔	3348
뢕	3349
뢖	3350
뢗	3351
뢘	3352
뢙	3353
뢚	3354
뢛	3355
뢜	3356
뢝	3357
뢞	3358
뢟	3359
뢠	3360
뢡	3361
뢢	3362
뢣	3363
뢤	3364
뢥	3365
뢦	3366
뢧	3367
뢨	3368
뢩	3369
뢪	3370
뢫	3371
뢬	3372
뢭	3373
뢮	3374
뢯	3375
뢰	3376
뢱	3377
뢲	3378
뢳	3379
뢴	3380
뢵	3381
뢶	3382
뢷	3383
뢸	3384
뢹	3385
뢺	3386
뢻	3387
뢼	3388
뢽	3389
뢾	3390
뢿	3391
룀	3392
룁	3393
룂	3394
룃	3395
룄	3396
룅	3397
룆	3398
룇	3399
룈	3400
룉	3401
룊	3402
룋	3403
료	3404
룍	3405
룎	3406
룏	3407
룐	3408
룑	3409
룒	3410
룓	3411
룔	3412
룕	3413
룖	3414
룗	3415
룘	3416
룙	3417
룚	3418
룛	3419
룜	3420
룝	3421
룞	3422
룟	3423
룠	3424
룡	3425
룢	3426
룣	3427
룤	3428
룥	3429
룦	3430
룧	3431
루	3432
룩	3433
룪	3434
룫	3435
룬	3436
룭	3437
룮	3438
룯	3439
룰	3440
룱	3441
룲	3442
룳	3443
룴	3444
룵	3445
룶	3446
룷	3447
룸	3448
룹	3449
룺	3450
룻	3451
룼	3452
룽	3453
룾	3454
룿	3455
뤀	3456
뤁	3457
뤂	3458
뤃	3459
뤄	3460
뤅	3461
뤆	3462
뤇	3463
뤈	3464
뤉	3465
뤊	3466
뤋	3467
뤌	3468
뤍	3469
뤎	3470
뤏	3471
뤐	3472
뤑	3473
뤒	3474
뤓	3475
뤔	3476
뤕	3477
뤖	3478
뤗	3479
뤘	3480
뤙	3481
뤚	3482
뤛	3483
뤜	3484
뤝	3485
뤞	3486
뤟	3487
뤠	3488
뤡	3489
뤢	3490
뤣	3491
뤤	3492
뤥	3493
뤦	3494
뤧	3495
뤨	3496
뤩	3497
뤪	3498
뤫	3499
뤬	3500
뤭	3501
뤮	3502
뤯	3503
뤰	3504
뤱	3505
뤲	3506
뤳	3507
뤴	3508
뤵	3509
뤶	3510
뤷	3511
뤸	3512
뤹	3513
뤺	3514
뤻	3515
뤼	3516
뤽	3517
뤾	3518
뤿	3519
륀	3520
륁	3521
륂	3522
륃	3523
륄	3524
륅	3525
륆	3526
륇	3527
륈	3528
륉	3529
륊	3530
륋	3531
륌	3532
륍	3533
륎	3534
륏	3535
륐	3536
륑	3537
륒	3538
륓	3539
륔	3540
륕	3541
륖	3542
륗	3543
류	3544
륙	3545
륚	3546
륛	3547
륜	3548
륝	3549
륞	3550
륟	3551
률	3552
륡	3553
륢	3554
륣	3555
륤	3556
륥	3557
륦	3558
륧	3559
륨	3560
륩	3561
륪	3562
륫	3563
륬	3564
륭	3565
륮	3566
륯	3567
륰	3568
륱	3569
륲	3570
륳	3571
르	3572
륵	3573
륶	3574
륷	3575
른	3576
륹	3577
륺	3578
륻	3579
를	3580
륽	3581
륾	3582
륿	3583
릀	3584
릁	3585
릂	3586
릃	3587
름	3588
릅	3589
릆	3590
릇	3591
릈	3592
릉	3593
릊	3594
릋	3595
릌	3596
릍	3597
릎	3598
릏	3599
릐	3600
릑	3601
릒	3602
릓	3603
릔	3604
릕	3605
릖	3606
릗	3607
릘	3608
릙	3609
릚	3610
릛	3611
릜	3612
릝	3613
릞	3614
릟	3615
릠	3616
릡	3617
릢	3618
릣	3619
릤	3620
릥	3621
릦	3622
릧	3623
릨	3624
릩	3625
릪	3626
릫	3627
리	3628
릭	3629
릮	3630
릯	3631
린	3632
릱	3633
릲	3634
릳	3635
릴	3636
릵	3637
릶	3638
릷	3639
릸	3640
릹	3641
릺	3642
릻	3643
림	3644
립	3645
릾	3646
릿	3647
맀	3648
링	3649
맂	3650
맃	3651
맄	3652
맅	3653
맆	3654
맇	3655
마	3656
막	3657
맊	3658
맋	3659
만	3660
맍	3661
많	3662
맏	3663
말	3664
맑	3665
맒	3666
맓	3667
맔	3668
맕	3669
맖	3670
맗	3671
맘	3672
맙	3673
맚	3674
맛	3675
맜	3676
망	3677
맞	3678
맟	3679
맠	3680
맡	3681
맢	3682
맣	3683
매	3684
맥	3685
맦	3686
맧	3687
맨	3688
맩	3689
맪	3690
맫	3691
맬	3692
맭	3693
맮	3694
맯	3695
맰	3696
맱	3697
맲	3698
맳	3699
맴	3700
맵	3701
맶	3702
맷	3703
맹	3704
맺	3705
맻	3706
맼	3707
맽	3708
맾	3709
맿	3710
먀	3711
먁	3712
먂	3713
먃	3714
먄	3715
먅	3716
먆	3717
먇	3718
먈	3719
먉	3720
먊	3721
먋	3722
먌	3723
먍	3724
먎	3725
먏	3726
먐	3727
먑	3728
먒	3729
먓	3730
먔	3731
먕	3732
먖	3733
먗	3734
먘	3735
먙	3736
먚	3737
먛	3738
먜	3739
먝	3740
먞	3741
먟	3742
먠	3743
먡	3744
먢	3745
먣	3746
먤	3747
먥	3748
먦	3749
먧	3750
먨	3751
먩	3752
먪	3753
먫	3754
먬	3755
먭	3756
먮	3757
먯	3758
먰	3759
먱	3760
먲	3761
먳	3762
먴	3763
먵	3764
먶	3765
먷	3766
머	3767
먹	3768
먺	3769
먻	3770
먼	3771
먽	3772
먾	3773
먿	3774
멀	3775
멁	3776
멂	3777
멃	3778
멄	3779
멅	3780
멆	3781
멇	3782
멈	3783
멉	3784
멊	3785
멋	3786
멌	3787
멍	3788
멎	3789
멏	3790
멐	3791
멑	3792
멒	3793
멓	3794
메	3795
멕	3796
멖	3797
멗	3798
멘	3799
멙	3800
멚	3801
멛	3802
멜	3803
멝	3804
멞	3805
멟	3806
멠	3807
멡	3808
멢	3809
멣	3810
멤	3811
멥	3812
멦	3813
멧	3814
멨	3815
멩	3816
멪	3817
멫	3818
멬	3819
멭	3820
멮	3821
멯	3822
며	3823
멱	3824
멲	3825
멳	3826
면	3827
멵	3828
멶	3829
멷	3830
멸	3831
멹	3832
멺	3833
멻	3834
멼	3835
멽	3836
멾	3837
멿	3838
몀	3839
몁	3840
몂	3841
몃	3842
몄	3843
명	3844
몆	3845
몇	3846
몈	3847
몉	3848
몊	3849
몋	3850
몌	3851
몍	3852
몎	3853
몏	3854
몐	3855
몑	3856
몒	3857
몓	3858
몔	3859
몕	3860
몖	3861
몗	3862
몘	3863
몙	3864
몚	3865
몛	3866
몜	3867
몝	3868
몞	3869
몟	3870
몠	3871
몡	3872
몢	3873
몣	3874
몤	3875
몥	3876
몦	3877
몧	3878
모	3879
목	3880
몪	3881
몫	3882
몬	3883
몭	3884
몮	3885
몯	3886
몰	3887
몱	3888
몲	3889
몳	3890
몴	3891
몵	3892
몶	3893
몷	3894
몸	3895
몹	3896
몺	3897
못	3898
몼	3899
몽	3900
몾	3901
몿	3902
뫀	3903
뫁	3904
뫂	3905
뫃	3906
뫄	3907
뫅	3908
뫆	3909
뫇	3910
뫈	3911
뫉	3912
뫊	3913
뫋	3914
뫌	3915
뫍	3916
뫎	3917
뫏	3918
뫐	3919
뫑	3920
뫒	3921
뫓	3922
뫔	3923
뫕	3924
뫖	3925
뫗	3926
뫘	3927
뫙	3928
뫚	3929
뫛	3930
뫜	3931
뫝	3932
뫞	3933
뫟	3934
뫠	3935
뫡	3936
뫢	3937
뫣	3938
뫤	3939
뫥	3940
뫦	3941
뫧	3942
뫨	3943
뫩	3944
뫪	3945
뫫	3946
뫬	3947
뫭	3948
뫮	3949
뫯	3950
뫰	3951
뫱	3952
뫲	3953
뫳	3954
뫴	3955
뫵	3956
뫶	3957
뫷	3958
뫸	3959
뫹	3960
뫺	3961
뫻	3962
뫼	3963
뫽	3964
뫾	3965
뫿	3966
묀	3967
묁	3968
묂	3969
묃	3970
묄	3971
묅	3972
묆	3973
묇	3974
묈	3975
묉	3976
묊	3977
묋	3978
묌	3979
묍	3980
묎	3981
묏	3982
묐	3983
묑	3984
묒	3985
묓	3986
묔	3987
묕	3988
묖	3989
묗	3990
묘	3991
묙	3992
묚	3993
묛	3994
묜	3995
묝	3996
묞	3997
묟	3998
묠	3999
묡	4000
묢	4001
묣	4002
묤	4003
묥	4004
묦	4005
묧	4006
묨	4007
묩	4008
묪	4009
묫	4010
묬	4011
묭	4012
묮	4013
묯	4014
묰	4015
묱	4016
묲	4017
묳	4018
무	4019
묵	4020
묶	4021
묷	4022
문	4023
묹	4024
묺	4025
묻	4026
물	4027
묽	4028
묾	4029
묿	4030
뭀	4031
뭁	4032
뭂	4033
뭃	4034
뭄	4035
뭅	4036
뭆	4037
뭇	4038
뭈	4039
뭉	4040
뭊	4041
뭋	4042
뭌	4043
뭍	4044
뭎	4045
뭏	4046
뭐	4047
뭑	4048
뭒	4049
뭓	4050
뭔	4051
뭕	4052
뭖	4053
뭗	4054
뭘	4055
뭙	4056
뭚	4057
뭛	4058
뭜	4059
뭝	4060
뭞	4061
뭟	4062
뭠	4063
뭡	4064
뭢	4065
뭣	4066
뭤	4067
뭥	4068
뭦	4069
뭧	4070
뭨	4071
뭩	4072
뭪	4073
뭫	4074
뭬	4075
뭭	4076
뭮	4077
뭯	4078
뭰	4079
뭱	4080
뭲	4081
뭳	4082
뭴	4083
뭵	4084
뭶	4085
뭷	4086
뭸	4087
뭹	4088
뭺	4089
뭻	4090
뭼	4091
뭽	4092
뭾	4093
뭿	4094
뮀	4095
뮁	4096
뮂	4097
뮃	4098
뮄	4099
뮅	4100
뮆	4101
뮇	4102
뮈	4103
뮉	4104
뮊	4105
뮋	4106
뮌	4107
뮍	4108
뮎	4109
뮏	4110
뮐	4111
뮑	4112
뮒	4113
뮓	4114
뮔	4115
뮕	4116
뮖	4117
뮗	4118
뮘	4119
뮙	4120
뮚	4121
뮛	4122
뮜	4123
뮝	4124
뮞	4125
뮟	4126
뮠	4127
뮡	4128
뮢	4129
뮣	4130
뮤	4131
뮥	4132
뮦	4133
뮧	4134
뮨	4135
뮩	4136
뮪	4137
뮫	4138
뮬	4139
뮭	4140
뮮	4141
뮯	4142
뮰	4143
뮱	4144
뮲	4145
뮳	4146
뮴	4147
뮵	4148
뮶	4149
뮷	4150
뮸	4151
뮹	4152
뮺	4153
뮻	4154
뮼	4155
뮽	4156
뮾	4157
뮿	4158
므	4159
믁	4160
믂	4161
믃	4162
믄	4163
믅	4164
믆	4165
믇	4166
믈	4167
믉	4168
믊	4169
믋	4170
믌	4171
믍	4172
믎	4173
믏	4174
믐	4175
믑	4176
믒	4177
믓	4178
믔	4179
믕	4180
믖	4181
믗	4182
믘	4183
믙	4184
믚	4185
믛	4186
믜	4187
믝	4188
믞	4189
믟	4190
믠	4191
믡	4192
믢	4193
믣	4194
믤	4195
믥	4196
믦	4197
믧	4198
믨	4199
믩	4200
믪	4201
믫	4202
믬	4203
믭	4204
믮	4205
믯	4206
믰	4207
믱	4208
믲	4209
믳	4210
믴	4211
믵	4212
믶	4213
믷	4214
미	4215
믹	4216
믺	4217
믻	4218
민	4219
믽	4220
믾	4221
믿	4222
밀	4223
밁	4224
밂	4225
밃	4226
밄	4227
밅	4228
밆	4229
밇	4230
밈	4231
밉	4232
밊	4233
밋	4234
밌	4235
밍	4236
밎	4237
및	4238
밐	4239
밑	4240
밒	4241
밓	4242
바	4243
박	4244
밖	4245
밗	4246
반	4247
밙	4248
밚	4249
받	4250
발	4251
밝	4252
밞	4253
밟	4254
밠	4255
밡	4256
밢	4257
밣	4258
밤	4259
밥	4260
밦	4261
밧	4262
밨	4263
방	4264
밪	4265
밫	4266
밬	4267
밭	4268
밮	4269
밯	4270
배	4271
백	4272
밲	4273
밳	4274
밴	4275
밵	4276
밶	4277
밷	4278
밸	4279
밹	4280
밺	4281
밻	4282
밼	4283
밽	4284
밾	4285
밿	4286
뱀	4287
뱁	4288
뱂	4289
뱃	4290
뱅	4291
뱆	4292
뱇	4293
뱈	4294
뱉	4295
뱊	4296
뱋	4297
뱌	4298
뱍	4299
뱎	4300
뱏	4301
뱐	4302
뱑	4303
뱒	4304
뱓	4305
뱔	4306
뱕	4307
뱖	4308
뱗	4309
뱘	4310
뱙	4311
뱚	4312
뱛	4313
뱜	4314
뱝	4315
뱞	4316
뱟	4317
뱠	4318
뱡	4319
뱢	4320
뱣	4321
뱤	4322
뱥	4323
뱦	4324
뱧	4325
뱨	4326
뱩	4327
뱪	4328
뱫	4329
뱬	4330
뱭	4331
뱮	4332
뱯	4333
뱰	4334
뱱	4335
뱲	4336
뱳	4337
뱴	4338
뱵	4339
뱶	4340
뱷	4341
뱸	4342
뱹	4343
뱺	4344
뱻	4345
뱼	4346
뱽	4347
뱾	4348
뱿	4349
벀	4350
벁	4351
벂	4352
벃	4353
버	4354
벅	4355
벆	4356
벇	4357
번	4358
벉	4359
벊	4360
벋	4361
벌	4362
벍	4363
벎	4364
벏	4365
벐	4366
벑	4367
벒	4368
벓	4369
범	4370
법	4371
벖	4372
벗	4373
벘	4374
벙	4375
벚	4376
벛	4377
벜	4378
벝	4379
벞	4380
벟	4381
베	4382
벡	4383
벢	4384
벣	4385
벤	4386
벥	4387
벦	4388
벧	4389
벨	4390
벩	4391
벪	4392
벫	4393
벬	4394
벭	4395
벮	4396
벯	4397
벰	4398
벱	4399
벲	4400
벳	4401
벴	4402
벵	4403
벶	4404
벷	4405
벸	4406
벹	4407
벺	4408
벻	4409
벼	4410
벽	4411
벾	4412
벿	4413
변	4414
볁	4415
볂	4416
볃	4417
별	4418
볅	4419
볆	4420
볇	4421
볈	4422
볉	4423
볊	4424
볋	4425
볌	4426
볍	4427
볎	4428
볏	4429
볐	4430
병	4431
볒	4432
볓	4433
볔	4434
볕	4435
볖	4436
볗	4437
볘	4438
볙	4439
볚	4440
볛	4441
볜	4442
볝	4443
볞	4444
볟	4445
볠	4446
볡	4447
볢	4448
볣	4449
볤	4450
볥	4451
볦	4452
볧	4453
볨	4454
볩	4455
볪	4456
볫	4457
볬	4458
볭	4459
볮	4460
볯	4461
볰	4462
볱	4463
볲	4464
볳	4465
보	4466
복	4467
볶	4468
볷	4469
본	4470
볹	4471
볺	4472
볻	4473
볼	4474
볽	4475
볾	4476
볿	4477
봀	4478
봁	4479
봂	4480
봃	4481
봄	4482
봅	4483
봆	4484
봇	4485
봈	4486
봉	4487
봊	4488
봋	4489
봌	4490
봍	4491
봎	4492
봏	4493
봐	4494
봑	4495
봒	4496
봓	4497
봔	4498
봕	4499
봖	4500
봗	4501
봘	4502
봙	4503
봚	4504
봛	4505
봜	4506
봝	4507
봞	4508
봟	4509
봠	4510
봡	4511
봢	4512
봣	4513
봤	4514
봥	4515
봦	4516
봧	4517
봨	4518
봩	4519
봪	4520
봫	4521
봬	4522
봭	4523
봮	4524
봯	4525
봰	4526
봱	4527
봲	4528
봳	4529
봴	4530
봵	4531
봶	4532
봷	4533
봸	4534
봹	4535
봺	4536
봻	4537
봼	4538
봽	4539
봾	4540
봿	4541
뵁	4542
뵂	4543
뵃	4544
뵄	4545
뵅	4546
뵆	4547
뵇	4548
뵈	4549
뵉	4550
뵊	4551
뵋	4552
뵍	4553
뵎	4554
뵏	4555
뵐	4556
뵑	4557
뵒	4558
뵓	4559
뵔	4560
뵕	4561
뵖	4562
뵗	4563
뵘	4564
뵙	4565
뵚	4566
뵛	4567
뵝	4568
뵞	4569
뵟	4570
뵠	4571
뵡	4572
뵢	4573
뵣	4574
뵤	4575
뵥	4576
뵦	4577
뵧	4578
뵨	4579
뵩	4580
뵪	4581
뵫	4582
뵬	4583
뵭	4584
뵮	4585
뵯	4586
뵰	4587
뵱	4588
뵲	4589
뵳	4590
뵴	4591
뵵	4592
뵶	4593
뵷	4594
뵸	4595
뵹	4596
뵺	4597
뵻	4598
뵼	4599
뵽	4600
뵾	4601
뵿	4602
부	4603
북	4604
붂	4605
붃	4606
분	4607
붅	4608
붆	4609
붇	4610
불	4611
붉	4612
붊	4613
붋	4614
붌	4615
붍	4616
붎	4617
붏	4618
붐	4619
붑	4620
붒	4621
붓	4622
붔	4623
붕	4624
붖	4625
붗	4626
붘	4627
붙	4628
붚	4629
붛	4630
붜	4631
붝	4632
붞	4633
붟	4634
붠	4635
붡	4636
붢	4637
붣	4638
붤	4639
붥	4640
붦	4641
붧	4642
붨	4643
붩	4644
붪	4645
붫	4646
붬	4647
붭	4648
붮	4649
붯	4650
붰	4651
붱	4652
붲	4653
붳	4654
붴	4655
붵	4656
붶	4657
붷	4658
붸	4659
붹	4660
붺	4661
붻	4662
붼	4663
붽	4664
붾	4665
붿	4666
뷀	4667
뷁	4668
뷂	4669
뷃	4670
뷄	4671
뷅	4672
뷆	4673
뷇	4674
뷈	4675
뷉	4676
뷊	4677
뷋	4678
뷌	4679
뷍	4680
뷎	4681
뷏	4682
뷐	4683
뷑	4684
뷒	4685
뷓	4686
뷔	4687
뷕	4688
뷖	4689
뷗	4690
뷘	4691
뷙	4692
뷚	4693
뷛	4694
뷜	4695
뷝	4696
뷞	4697
뷟	4698
뷠	4699
뷡	4700
뷢	4701
뷣	4702
뷤	4703
뷥	4704
뷦	4705
뷧	4706
뷨	4707
뷩	4708
뷪	4709
뷫	4710
뷬	4711
뷭	4712
뷮	4713
뷯	4714
뷰	4715
뷱	4716
뷲	4717
뷳	4718
뷴	4719
뷵	4720
뷶	4721
뷷	4722
뷸	4723
뷹	4724
뷺	4725
뷻	4726
뷼	4727
뷽	4728
뷾	4729
뷿	4730
븀	4731
븁	4732
븂	4733
븃	4734
븄	4735
븅	4736
븆	4737
븇	4738
븈	4739
븉	4740
븊	4741
븋	4742
브	4743
븍	4744
븎	4745
븏	4746
븐	4747
븑	4748
븒	4749
븓	4750
블	4751
븕	4752
븖	4753
븗	4754
븘	4755
븙	4756
븚	4757
븛	4758
븜	4759
븝	4760
븞	4761
븟	4762
븠	4763
븡	4764
븢	4765
븣	4766
븤	4767
븥	4768
븦	4769
븧	4770
븨	4771
븩	4772
븪	4773
븫	4774
븬	4775
븭	4776
븮	4777
븯	4778
븰	4779
븱	4780
븲	4781
븳	4782
븴	4783
븵	4784
븶	4785
븷	4786
븸	4787
븹	4788
븺	4789
븻	4790
븼	4791
븽	4792
븾	4793
븿	4794
빀	4795
빁	4796
빂	4797
빃	4798
비	4799
빅	4800
빆	4801
빇	4802
빈	4803
빉	4804
빊	4805
빋	4806
빌	4807
빍	4808
빎	4809
빏	4810
빐	4811
빑	4812
빒	4813
빓	4814
빔	4815
빕	4816
빖	4817
빗	4818
빘	4819
빙	4820
빚	4821
빛	4822
빜	4823
빝	4824
빞	4825
빟	4826
빠	4827
빡	4828
빢	4829
빣	4830
빤	4831
빥	4832
빦	4833
빧	4834
빨	4835
빩	4836
빪	4837
빫	4838
빬	4839
빭	4840
빮	4841
빯	4842
빰	4843
빱	4844
빲	4845
빳	4846
빴	4847
빵	4848
빶	4849
빷	4850
빸	4851
빹	4852
빺	4853
빻	4854
빼	4855
빽	4856
빾	4857
빿	4858
뺀	4859
뺁	4860
뺂	4861
뺃	4862
뺄	4863
뺅	4864
뺆	4865
뺇	4866
뺈	4867
뺉	4868
뺊	4869
뺋	4870
뺌	4871
뺍	4872
뺎	4873
뺏	4874
뺐	4875
뺑	4876
뺒	4877
뺓	4878
뺔	4879
뺕	4880
뺖	4881
뺗	4882
뺘	4883
뺙	4884
뺚	4885
뺛	4886
뺜	4887
뺝	4888
뺞	4889
뺟	4890
뺠	4891
뺡	4892
뺢	4893
뺣	4894
뺤	4895
뺥	4896
뺦	4897
뺧	4898
뺨	4899
뺩	4900
뺪	4901
뺫	4902
뺬	4903
뺭	4904
뺮	4905
뺯	4906
뺰	4907
뺱	4908
뺲	4909
뺳	4910
뺴	4911
뺵	4912
뺶	4913
뺷	4914
뺸	4915
뺹	4916
뺺	4917
뺻	4918
뺼	4919
뺽	4920
뺾	4921
뺿	4922
뻀	4923
뻁	4924
뻂	4925
뻃	4926
뻄	4927
뻅	4928
뻆	4929
뻇	4930
뻈	4931
뻉	4932
뻊	4933
뻋	4934
뻌	4935
뻍	4936
뻎	4937
뻏	4938
뻐	4939
뻑	4940
뻒	4941
뻓	4942
뻔	4943
뻕	4944
뻖	4945
뻗	4946
뻘	4947
뻙	4948
뻚	4949
뻛	4950
뻜	4951
뻝	4952
뻞	4953
뻟	4954
뻠	4955
뻡	4956
뻢	4957
뻣	4958
뻤	4959
뻥	4960
뻦	4961
뻧	4962
뻨	4963
뻩	4964
뻪	4965
뻫	4966
뻬	4967
뻭	4968
뻮	4969
뻯	4970
뻰	4971
뻱	4972
뻲	4973
뻳	4974
뻴	4975
뻵	4976
뻶	4977
뻷	4978
뻸	4979
뻹	4980
뻺	4981
뻻	4982
뻼	4983
뻽	4984
뻾	4985
뻿	4986
뼀	4987
뼁	4988
뼂	4989
뼃	4990
뼄	4991
뼅	4992
뼆	4993
뼇	4994
뼈	4995
뼉	4996
뼊	4997
뼋	4998
뼌	4999
뼍	5000
뼎	5001
뼏	5002
뼐	5003
뼑	5004
뼒	5005
뼓	5006
뼔	5007
뼕	5008
뼖	5009
뼗	5010
뼘	5011
뼙	5012
뼚	5013
뼛	5014
뼜	5015
뼝	5016
뼞	5017
뼟	5018
뼠	5019
뼡	5020
뼢	5021
뼣	5022
뼤	5023
뼥	5024
뼦	5025
뼧	5026
뼨	5027
뼩	5028
뼪	5029
뼫	5030
뼬	5031
뼭	5032
뼮	5033
뼯	5034
뼰	5035
뼱	5036
뼲	5037
뼳	5038
뼴	5039
뼵	5040
뼶	5041
뼷	5042
뼸	5043
뼹	5044
뼺	5045
뼻	5046
뼼	5047
뼽	5048
뼾	5049
뼿	5050
뽀	5051
뽁	5052
뽂	5053
뽃	5054
뽄	5055
뽅	5056
뽆	5057
뽇	5058
뽈	5059
뽉	5060
뽊	5061
뽋	5062
뽌	5063
뽍	5064
뽎	5065
뽏	5066
뽐	5067
뽑	5068
뽒	5069
뽓	5070
뽔	5071
뽕	5072
뽖	5073
뽗	5074
뽘	5075
뽙	5076
뽚	5077
뽛	5078
뽜	5079
뽝	5080
뽞	5081
뽟	5082
뽠	5083
뽡	5084
뽢	5085
뽣	5086
뽤	5087
뽥	5088
뽦	5089
뽧	5090
뽨	5091
뽩	5092
뽪	5093
뽫	5094
뽬	5095
뽭	5096
뽮	5097
뽯	5098
뽰	5099
뽱	5100
뽲	5101
뽳	5102
뽴	5103
뽵	5104
뽶	5105
뽷	5106
뽸	5107
뽹	5108
뽺	5109
뽻	5110
뽼	5111
뽽	5112
뽾	5113
뽿	5114
뾀	5115
뾁	5116
뾂	5117
뾃	5118
뾄	5119
뾅	5120
뾆	5121
뾇	5122
뾈	5123
뾉	5124
뾊	5125
뾋	5126
뾌	5127
뾍	5128
뾎	5129
뾏	5130
뾐	5131
뾑	5132
뾒	5133
뾓	5134
뾔	5135
뾕	5136
뾖	5137
뾗	5138
뾘	5139
뾙	5140
뾚	5141
뾛	5142
뾜	5143
뾝	5144
뾞	5145
뾟	5146
뾠	5147
뾡	5148
뾢	5149
뾣	5150
뾤	5151
뾥	5152
뾦	5153
뾧	5154
뾨	5155
뾩	5156
뾪	5157
뾫	5158
뾬	5159
뾭	5160
뾮	5161
뾯	5162
뾰	5163
뾱	5164
뾲	5165
뾳	5166
뾴	5167
뾵	5168
뾶	5169
뾷	5170
뾸	5171
뾹	5172
뾺	5173
뾻	5174
뾼	5175
뾽	5176
뾾	5177
뾿	5178
뿀	5179
뿁	5180
뿂	5181
뿃	5182
뿄	5183
뿅	5184
뿆	5185
뿇	5186
뿈	5187
뿉	5188
뿊	5189
뿋	5190
뿌	5191
뿍	5192
뿎	5193
뿏	5194
뿐	5195
뿑	5196
뿒	5197
뿓	5198
뿔	5199
뿕	5200
뿖	5201
뿗	5202
뿘	5203
뿙	5204
뿚	5205
뿛	5206
뿜	5207
뿝	5208
뿞	5209
뿟	5210
뿡	5211
뿢	5212
뿣	5213
뿤	5214
뿥	5215
뿦	5216
뿧	5217
뿨	5218
뿩	5219
뿪	5220
뿫	5221
뿬	5222
뿭	5223
뿮	5224
뿯	5225
뿰	5226
뿱	5227
뿲	5228
뿳	5229
뿴	5230
뿵	5231
뿶	5232
뿷	5233
뿸	5234
뿹	5235
뿺	5236
뿻	5237
뿼	5238
뿽	5239
뿾	5240
뿿	5241
쀀	5242
쀁	5243
쀂	5244
쀃	5245
쀄	5246
쀅	5247
쀆	5248
쀇	5249
쀈	5250
쀉	5251
쀊	5252
쀋	5253
쀌	5254
쀍	5255
쀎	5256
쀏	5257
쀐	5258
쀑	5259
쀒	5260
쀓	5261
쀔	5262
쀕	5263
쀖	5264
쀗	5265
쀘	5266
쀙	5267
쀚	5268
쀛	5269
쀜	5270
쀝	5271
쀞	5272
쀟	5273
쀠	5274
쀡	5275
쀢	5276
쀣	5277
쀤	5278
쀥	5279
쀦	5280
쀧	5281
쀨	5282
쀩	5283
쀪	5284
쀫	5285
쀬	5286
쀭	5287
쀮	5288
쀯	5289
쀰	5290
쀱	5291
쀲	5292
쀳	5293
쀴	5294
쀵	5295
쀶	5296
쀷	5297
쀸	5298
쀹	5299
쀺	5300
쀻	5301
쀼	5302
쀽	5303
쀾	5304
쀿	5305
쁀	5306
쁁	5307
쁂	5308
쁃	5309
쁄	5310
쁅	5311
쁆	5312
쁇	5313
쁈	5314
쁉	5315
쁊	5316
쁋	5317
쁌	5318
쁍	5319
쁎	5320
쁏	5321
쁐	5322
쁑	5323
쁒	5324
쁓	5325
쁔	5326
쁕	5327
쁖	5328
쁗	5329
쁘	5330
쁙	5331
쁚	5332
쁛	5333
쁜	5334
쁝	5335
쁞	5336
쁟	5337
쁠	5338
쁡	5339
쁢	5340
쁣	5341
쁤	5342
쁥	5343
쁦	5344
쁧	5345
쁨	5346
쁩	5347
쁪	5348
쁫	5349
쁬	5350
쁭	5351
쁮	5352
쁯	5353
쁰	5354
쁱	5355
쁲	5356
쁳	5357
쁴	5358
쁵	5359
쁶	5360
쁷	5361
쁸	5362
쁹	5363
쁺	5364
쁻	5365
쁼	5366
쁽	5367
쁾	5368
쁿	5369
삀	5370
삁	5371
삂	5372
삃	5373
삄	5374
삅	5375
삆	5376
삇	5377
삈	5378
삉	5379
삊	5380
삋	5381
삌	5382
삍	5383
삎	5384
삏	5385
삐	5386
삑	5387
삒	5388
삓	5389
삔	5390
삕	5391
삖	5392
삗	5393
삘	5394
삙	5395
삚	5396
삛	5397
삜	5398
삝	5399
삞	5400
삟	5401
삠	5402
삡	5403
삢	5404
삣	5405
삤	5406
삥	5407
삦	5408
삧	5409
삨	5410
삩	5411
삪	5412
삫	5413
사	5414
삭	5415
삮	5416
삯	5417
산	5418
삱	5419
삲	5420
삳	5421
살	5422
삵	5423
삶	5424
삷	5425
삸	5426
삹	5427
삺	5428
삻	5429
삼	5430
삽	5431
삾	5432
삿	5433
상	5434
샂	5435
샃	5436
샄	5437
샅	5438
샆	5439
샇	5440
새	5441
색	5442
샊	5443
샋	5444
샌	5445
샍	5446
샎	5447
샏	5448
샐	5449
샑	5450
샒	5451
샓	5452
샔	5453
샕	5454
샖	5455
샗	5456
샘	5457
샙	5458
샚	5459
샛	5460
생	5461
샞	5462
샟	5463
샠	5464
샡	5465
샢	5466
샣	5467
샤	5468
샥	5469
샦	5470
샧	5471
샨	5472
샩	5473
샪	5474
샫	5475
샬	5476
샭	5477
샮	5478
샯	5479
샰	5480
샱	5481
샲	5482
샳	5483
샴	5484
샵	5485
샶	5486
샷	5487
샸	5488
샹	5489
샺	5490
샻	5491
샼	5492
샽	5493
샾	5494
샿	5495
섀	5496
섁	5497
섂	5498
섃	5499
섄	5500
섅	5501
섆	5502
섇	5503
섈	5504
섉	5505
섊	5506
섋	5507
섌	5508
섍	5509
섎	5510
섏	5511
섐	5512
섑	5513
섒	5514
섓	5515
섔	5516
섕	5517
섖	5518
섗	5519
섘	5520
섙	5521
섚	5522
섛	5523
서	5524
석	5525
섞	5526
섟	5527
선	5528
섡	5529
섢	5530
섣	5531
설	5532
섥	5533
섦	5534
섧	5535
섨	5536
섩	5537
섪	5538
섫	5539
섬	5540
섭	5541
섮	5542
섯	5543
섰	5544
성	5545
섲	5546
섳	5547
섴	5548
섵	5549
섶	5550
섷	5551
세	5552
섹	5553
섺	5554
섻	5555
센	5556
섽	5557
섿	5558
셀	5559
셁	5560
셂	5561
셃	5562
셄	5563
셅	5564
셆	5565
셇	5566
셈	5567
셉	5568
셊	5569
셋	5570
셍	5571
셎	5572
셏	5573
셐	5574
셑	5575
셒	5576
셓	5577
셔	5578
셕	5579
셖	5580
셗	5581
션	5582
셙	5583
셚	5584
셛	5585
셜	5586
셝	5587
셞	5588
셟	5589
셠	5590
셡	5591
셢	5592
셣	5593
셤	5594
셥	5595
셦	5596
셧	5597
셨	5598
셩	5599
셪	5600
셫	5601
셬	5602
셭	5603
셮	5604
셯	5605
셰	5606
셱	5607
셲	5608
셳	5609
셴	5610
셵	5611
셶	5612
셷	5613
셸	5614
셹	5615
셺	5616
셻	5617
셼	5618
셽	5619
셾	5620
셿	5621
솀	5622
솁	5623
솂	5624
솃	5625
솄	5626
솅	5627
솆	5628
솇	5629
솈	5630
솉	5631
솊	5632
솋	5633
소	5634
속	5635
솎	5636
솏	5637
손	5638
솑	5639
솒	5640
솓	5641
솔	5642
솕	5643
솖	5644
솗	5645
솘	5646
솙	5647
솚	5648
솛	5649
솜	5650
솝	5651
솞	5652
솟	5653
솠	5654
송	5655
솢	5656
솣	5657
솤	5658
솥	5659
솦	5660
솧	5661
솨	5662
솩	5663
솪	5664
솫	5665
솬	5666
솭	5667
솮	5668
솯	5669
솰	5670
솱	5671
솲	5672
솳	5673
솴	5674
솵	5675
솶	5676
솷	5677
솸	5678
솹	5679
솺	5680
솻	5681
솼	5682
솽	5683
솾	5684
솿	5685
쇀	5686
쇁	5687
쇂	5688
쇃	5689
쇄	5690
쇅	5691
쇆	5692
쇇	5693
쇈	5694
쇉	5695
쇊	5696
쇋	5697
쇌	5698
쇍	5699
쇎	5700
쇏	5701
쇐	5702
쇑	5703
쇒	5704
쇓	5705
쇔	5706
쇕	5707
쇖	5708
쇗	5709
쇘	5710
쇙	5711
쇚	5712
쇛	5713
쇜	5714
쇝	5715
쇞	5716
쇟	5717
쇠	5718
쇡	5719
쇢	5720
쇣	5721
쇤	5722
쇥	5723
쇦	5724
쇧	5725
쇨	5726
쇩	5727
쇪	5728
쇫	5729
쇬	5730
쇭	5731
쇮	5732
쇯	5733
쇰	5734
쇱	5735
쇲	5736
쇳	5737
쇴	5738
쇵	5739
쇶	5740
쇷	5741
쇸	5742
쇹	5743
쇺	5744
쇻	5745
쇼	5746
쇽	5747
쇾	5748
쇿	5749
숀	5750
숁	5751
숂	5752
숃	5753
숄	5754
숅	5755
숆	5756
숇	5757
숈	5758
숉	5759
숊	5760
숋	5761
숌	5762
숍	5763
숎	5764
숏	5765
숐	5766
숑	5767
숒	5768
숓	5769
숔	5770
숕	5771
숖	5772
숗	5773
수	5774
숙	5775
숚	5776
숛	5777
순	5778
숝	5779
숞	5780
숟	5781
술	5782
숡	5783
숢	5784
숣	5785
숤	5786
숥	5787
숦	5788
숧	5789
숨	5790
숩	5791
숪	5792
숫	5793
숬	5794
숭	5795
숮	5796
숯	5797
숰	5798
숱	5799
숲	5800
숳	5801
숴	5802
숵	5803
숶	5804
숷	5805
숸	5806
숹	5807
숺	5808
숻	5809
숼	5810
숽	5811
숾	5812
숿	5813
쉀	5814
쉁	5815
쉂	5816
쉃	5817
쉄	5818
쉅	5819
쉆	5820
쉇	5821
쉈	5822
쉉	5823
쉊	5824
쉋	5825
쉌	5826
쉍	5827
쉎	5828
쉏	5829
쉐	5830
쉑	5831
쉒	5832
쉓	5833
쉔	5834
쉕	5835
쉖	5836
쉗	5837
쉘	5838
쉙	5839
쉚	5840
쉛	5841
쉜	5842
쉝	5843
쉞	5844
쉟	5845
쉠	5846
쉡	5847
쉢	5848
쉣	5849
쉤	5850
쉥	5851
쉦	5852
쉧	5853
쉨	5854
쉩	5855
쉪	5856
쉫	5857
쉬	5858
쉭	5859
쉮	5860
쉯	5861
쉰	5862
쉱	5863
쉲	5864
쉳	5865
쉴	5866
쉵	5867
쉶	5868
쉷	5869
쉸	5870
쉹	5871
쉺	5872
쉻	5873
쉼	5874
쉽	5875
쉾	5876
쉿	5877
슀	5878
슁	5879
슂	5880
슃	5881
슄	5882
슅	5883
슆	5884
슇	5885
슈	5886
슉	5887
슊	5888
슋	5889
슌	5890
슍	5891
슎	5892
슏	5893
슐	5894
슑	5895
슒	5896
슓	5897
슔	5898
슕	5899
슖	5900
슗	5901
슘	5902
슙	5903
슚	5904
슛	5905
슜	5906
슝	5907
슞	5908
슟	5909
슠	5910
슡	5911
슢	5912
슣	5913
스	5914
슥	5915
슦	5916
슧	5917
슨	5918
슩	5919
슪	5920
슫	5921
슬	5922
슭	5923
슮	5924
슯	5925
슰	5926
슱	5927
슲	5928
슳	5929
슴	5930
습	5931
슶	5932
슷	5933
슸	5934
승	5935
슺	5936
슻	5937
슼	5938
슽	5939
슾	5940
슿	5941
싀	5942
싁	5943
싂	5944
싃	5945
싄	5946
싅	5947
싆	5948
싇	5949
싈	5950
싉	5951
싊	5952
싋	5953
싌	5954
싍	5955
싎	5956
싏	5957
싐	5958
싑	5959
싒	5960
싓	5961
싔	5962
싕	5963
싖	5964
싗	5965
싘	5966
싙	5967
싚	5968
싛	5969
시	5970
식	5971
싞	5972
싟	5973
신	5974
싡	5975
싢	5976
싣	5977
실	5978
싥	5979
싦	5980
싧	5981
싨	5982
싩	5983
싪	5984
싫	5985
심	5986
십	5987
싮	5988
싯	5989
싰	5990
싱	5991
싲	5992
싳	5993
싴	5994
싵	5995
싶	5996
싷	5997
싸	5998
싹	5999
싺	6000
싻	6001
싼	6002
싽	6003
싾	6004
싿	6005
쌀	6006
쌁	6007
쌂	6008
쌃	6009
쌄	6010
쌅	6011
쌆	6012
쌇	6013
쌈	6014
쌉	6015
쌊	6016
쌋	6017
쌍	6018
쌎	6019
쌏	6020
쌐	6021
쌑	6022
쌒	6023
쌓	6024
쌔	6025
쌕	6026
쌖	6027
쌗	6028
쌘	6029
쌙	6030
쌚	6031
쌛	6032
쌜	6033
쌝	6034
쌞	6035
쌟	6036
쌠	6037
쌡	6038
쌢	6039
쌣	6040
쌤	6041
쌥	6042
쌦	6043
쌧	6044
쌩	6045
쌪	6046
쌫	6047
쌬	6048
쌭	6049
쌮	6050
쌯	6051
쌰	6052
쌱	6053
쌲	6054
쌳	6055
쌴	6056
쌵	6057
쌶	6058
쌷	6059
쌸	6060
쌹	6061
쌺	6062
쌻	6063
쌼	6064
쌽	6065
쌾	6066
쌿	6067
썀	6068
썁	6069
썂	6070
썃	6071
썄	6072
썅	6073
썆	6074
썇	6075
썈	6076
썉	6077
썊	6078
썋	6079
썌	6080
썍	6081
썎	6082
썏	6083
썐	6084
썑	6085
썒	6086
썓	6087
썔	6088
썕	6089
썖	6090
썗	6091
썘	6092
썙	6093
썚	6094
썛	6095
썜	6096
썝	6097
썞	6098
썟	6099
썠	6100
썡	6101
썢	6102
썣	6103
썤	6104
썥	6105
썦	6106
썧	6107
써	6108
썩	6109
썪	6110
썫	6111
썬	6112
썭	6113
썮	6114
썯	6115
썰	6116
썱	6117
썲	6118
썳	6119
썴	6120
썵	6121
썶	6122
썷	6123
썸	6124
썹	6125
썺	6126
썻	6127
썼	6128
썽	6129
썾	6130
썿	6131
쎀	6132
쎁	6133
쎂	6134
쎃	6135
쎄	6136
쎅	6137
쎆	6138
쎇	6139
쎈	6140
쎉	6141
쎊	6142
쎋	6143
쎌	6144
쎍	6145
쎎	6146
쎏	6147
쎐	6148
쎑	6149
쎒	6150
쎓	6151
쎔	6152
쎕	6153
쎖	6154
쎗	6155
쎙	6156
쎚	6157
쎛	6158
쎜	6159
쎝	6160
쎞	6161
쎟	6162
쎠	6163
쎡	6164
쎢	6165
쎣	6166
쎤	6167
쎥	6168
쎦	6169
쎧	6170
쎨	6171
쎩	6172
쎪	6173
쎫	6174
쎬	6175
쎭	6176
쎮	6177
쎯	6178
쎰	6179
쎱	6180
쎲	6181
쎳	6182
쎴	6183
쎵	6184
쎶	6185
쎷	6186
쎸	6187
쎹	6188
쎺	6189
쎻	6190
쎼	6191
쎽	6192
쎾	6193
쎿	6194
쏀	6195
쏁	6196
쏂	6197
쏃	6198
쏄	6199
쏅	6200
쏆	6201
쏇	6202
쏈	6203
쏉	6204
쏊	6205
쏋	6206
쏌	6207
쏍	6208
쏎	6209
쏏	6210
쏐	6211
쏑	6212
쏒	6213
쏓	6214
쏔	6215
쏕	6216
쏖	6217
쏗	6218
쏘	6219
쏙	6220
쏚	6221
쏛	6222
쏜	6223
쏝	6224
쏞	6225
쏟	6226
쏠	6227
쏡	6228
쏢	6229
쏣	6230
쏤	6231
쏥	6232
쏦	6233
쏧	6234
쏨	6235
쏩	6236
쏪	6237
쏫	6238
쏬	6239
쏭	6240
쏮	6241
쏯	6242
쏰	6243
쏱	6244
쏲	6245
쏳	6246
쏴	6247
쏵	6248
쏶	6249
쏷	6250
쏸	6251
쏹	6252
쏺	6253
쏻	6254
쏼	6255
쏽	6256
쏾	6257
쏿	6258
쐀	6259
쐁	6260
쐂	6261
쐃	6262
쐄	6263
쐅	6264
쐆	6265
쐇	6266
쐉	6267
쐊	6268
쐋	6269
쐌	6270
쐍	6271
쐎	6272
쐏	6273
쐐	6274
쐑	6275
쐒	6276
쐓	6277
쐔	6278
쐕	6279
쐖	6280
쐗	6281
쐘	6282
쐙	6283
쐚	6284
쐛	6285
쐜	6286
쐝	6287
쐞	6288
쐟	6289
쐠	6290
쐡	6291
쐢	6292
쐣	6293
쐤	6294
쐥	6295
쐦	6296
쐧	6297
쐨	6298
쐩	6299
쐪	6300
쐫	6301
쐬	6302
쐭	6303
쐮	6304
쐯	6305
쐱	6306
쐲	6307
쐳	6308
쐵	6309
쐶	6310
쐷	6311
쐸	6312
쐹	6313
쐺	6314
쐻	6315
쐼	6316
쐽	6317
쐾	6318
쐿	6319
쑀	6320
쑁	6321
쑂	6322
쑃	6323
쑄	6324
쑅	6325
쑆	6326
쑇	6327
쑈	6328
쑉	6329
쑊	6330
쑋	6331
쑌	6332
쑍	6333
쑎	6334
쑏	6335
쑐	6336
쑑	6337
쑒	6338
쑓	6339
쑔	6340
쑕	6341
쑖	6342
쑗	6343
쑘	6344
쑙	6345
쑚	6346
쑛	6347
쑜	6348
쑝	6349
쑞	6350
쑟	6351
쑠	6352
쑡	6353
쑢	6354
쑣	6355
쑤	6356
쑥	6357
쑦	6358
쑧	6359
쑨	6360
쑩	6361
쑪	6362
쑫	6363
쑭	6364
쑮	6365
쑯	6366
쑰	6367
쑱	6368
쑲	6369
쑳	6370
쑴	6371
쑵	6372
쑶	6373
쑷	6374
쑸	6375
쑹	6376
쑺	6377
쑻	6378
쑼	6379
쑽	6380
쑾	6381
쑿	6382
쒀	6383
쒁	6384
쒂	6385
쒃	6386
쒄	6387
쒅	6388
쒆	6389
쒇	6390
쒈	6391
쒉	6392
쒊	6393
쒋	6394
쒌	6395
쒍	6396
쒎	6397
쒏	6398
쒐	6399
쒑	6400
쒒	6401
쒓	6402
쒕	6403
쒖	6404
쒗	6405
쒘	6406
쒙	6407
쒚	6408
쒛	6409
쒜	6410
쒝	6411
쒞	6412
쒟	6413
쒠	6414
쒡	6415
쒢	6416
쒣	6417
쒤	6418
쒥	6419
쒦	6420
쒧	6421
쒨	6422
쒩	6423
쒪	6424
쒫	6425
쒬	6426
쒭	6427
쒮	6428
쒯	6429
쒰	6430
쒱	6431
쒲	6432
쒳	6433
쒴	6434
쒵	6435
쒶	6436
쒷	6437
쒸	6438
쒹	6439
쒺	6440
쒻	6441
쒽	6442
쒾	6443
쒿	6444
쓀	6445
쓁	6446
쓂	6447
쓃	6448
쓄	6449
쓅	6450
쓆	6451
쓇	6452
쓈	6453
쓉	6454
쓊	6455
쓋	6456
쓌	6457
쓍	6458
쓎	6459
쓏	6460
쓐	6461
쓑	6462
쓒	6463
쓓	6464
쓔	6465
쓕	6466
쓖	6467
쓗	6468
쓘	6469
쓙	6470
쓚	6471
쓛	6472
쓜	6473
쓝	6474
쓞	6475
쓟	6476
쓠	6477
쓡	6478
쓢	6479
쓣	6480
쓤	6481
쓥	6482
쓦	6483
쓧	6484
쓨	6485
쓩	6486
쓪	6487
쓫	6488
쓬	6489
쓭	6490
쓮	6491
쓯	6492
쓰	6493
쓱	6494
쓲	6495
쓳	6496
쓴	6497
쓵	6498
쓶	6499
쓷	6500
쓸	6501
쓹	6502
쓺	6503
쓻	6504
쓼	6505
쓽	6506
쓾	6507
쓿	6508
씀	6509
씁	6510
씂	6511
씃	6512
씄	6513
씅	6514
씆	6515
씇	6516
씈	6517
씉	6518
씊	6519
씋	6520
씌	6521
씍	6522
씎	6523
씏	6524
씑	6525
씒	6526
씓	6527
씔	6528
씕	6529
씖	6530
씗	6531
씘	6532
씙	6533
씚	6534
씛	6535
씜	6536
씝	6537
씞	6538
씟	6539
씠	6540
씡	6541
씢	6542
씣	6543
씤	6544
씥	6545
씦	6546
씧	6547
씨	6548
씩	6549
씪	6550
씫	6551
씬	6552
씭	6553
씮	6554
씯	6555
씰	6556
씱	6557
씲	6558
씳	6559
씴	6560
씵	6561
씶	6562
씷	6563
씸	6564
씹	6565
씺	6566
씻	6567
씼	6568
씽	6569
씾	6570
씿	6571
앀	6572
앁	6573
앂	6574
앃	6575
아	6576
악	6577
앆	6578
앇	6579
안	6580
앉	6581
않	6582
앋	6583
알	6584
앍	6585
앎	6586
앏	6587
앐	6588
앑	6589
앒	6590
앓	6591
암	6592
압	6593
앖	6594
앗	6595
았	6596
앙	6597
앚	6598
앛	6599
앜	6600
앝	6601
앞	6602
앟	6603
애	6604
액	6605
앢	6606
앣	6607
앤	6608
앥	6609
앦	6610
앧	6611
앨	6612
앩	6613
앪	6614
앫	6615
앬	6616
앭	6617
앮	6618
앯	6619
앰	6620
앱	6621
앲	6622
앳	6623
앴	6624
앵	6625
앶	6626
앷	6627
앸	6628
앹	6629
앺	6630
앻	6631
야	6632
약	6633
앾	6634
앿	6635
얀	6636
얁	6637
얂	6638
얃	6639
얄	6640
얅	6641
얆	6642
얇	6643
얈	6644
얉	6645
얊	6646
얋	6647
얌	6648
얍	6649
얎	6650
얏	6651
얐	6652
양	6653
얒	6654
얓	6655
얔	6656
얕	6657
얖	6658
얗	6659
얘	6660
얙	6661
얚	6662
얛	6663
얜	6664
얝	6665
얞	6666
얟	6667
얡	6668
얢	6669
얣	6670
얤	6671
얥	6672
얦	6673
얧	6674
얨	6675
얩	6676
얪	6677
얫	6678
얬	6679
얭	6680
얮	6681
얯	6682
얰	6683
얱	6684
얲	6685
얳	6686
어	6687
억	6688
얶	6689
얷	6690
언	6691
얹	6692
얺	6693
얻	6694
얼	6695
얽	6696
얾	6697
얿	6698
엀	6699
엁	6700
엂	6701
엃	6702
엄	6703
업	6704
없	6705
엇	6706
었	6707
엉	6708
엊	6709
엋	6710
엌	6711
엍	6712
엎	6713
엏	6714
에	6715
엑	6716
엒	6717
엓	6718
엔	6719
엕	6720
엖	6721
엗	6722
엘	6723
엙	6724
엚	6725
엛	6726
엜	6727
엝	6728
엞	6729
엟	6730
엠	6731
엡	6732
엢	6733
엣	6734
엤	6735
엥	6736
엦	6737
엧	6738
엨	6739
엩	6740
엪	6741
엫	6742
여	6743
역	6744
엮	6745
엯	6746
연	6747
엱	6748
엲	6749
엳	6750
열	6751
엵	6752
엶	6753
엷	6754
엸	6755
엹	6756
엺	6757
엻	6758
염	6759
엽	6760
엾	6761
엿	6762
였	6763
영	6764
옂	6765
옃	6766
옄	6767
옅	6768
옆	6769
옇	6770
예	6771
옉	6772
옊	6773
옋	6774
옌	6775
옍	6776
옎	6777
옏	6778
옐	6779
옑	6780
옒	6781
옓	6782
옔	6783
옕	6784
옖	6785
옗	6786
옘	6787
옙	6788
옚	6789
옛	6790
옜	6791
옝	6792
옞	6793
옟	6794
옠	6795
옡	6796
옢	6797
옣	6798
오	6799
옥	6800
옦	6801
옧	6802
온	6803
옩	6804
옪	6805
옫	6806
올	6807
옭	6808
옮	6809
옯	6810
옰	6811
옱	6812
옲	6813
옳	6814
옴	6815
옵	6816
옶	6817
옷	6818
옸	6819
옹	6820
옺	6821
옻	6822
옼	6823
옽	6824
옾	6825
옿	6826
와	6827
왁	6828
왂	6829
왃	6830
완	6831
왅	6832
왆	6833
왇	6834
왈	6835
왉	6836
왊	6837
왋	6838
왌	6839
왍	6840
왎	6841
왏	6842
왐	6843
왑	6844
왒	6845
왓	6846
왔	6847
왕	6848
왖	6849
왗	6850
왘	6851
왙	6852
왚	6853
왛	6854
왜	6855
왝	6856
왞	6857
왟	6858
왠	6859
왡	6860
왢	6861
왣	6862
왤	6863
왥	6864
왦	6865
왧	6866
왨	6867
왩	6868
왪	6869
왫	6870
왬	6871
왭	6872
왮	6873
왯	6874
왰	6875
왱	6876
왲	6877
왳	6878
왴	6879
왵	6880
왶	6881
왷	6882
외	6883
왹	6884
왺	6885
왻	6886
왼	6887
왽	6888
왾	6889
왿	6890
욀	6891
욁	6892
욂	6893
욃	6894
욄	6895
욅	6896
욆	6897
욇	6898
욈	6899
욉	6900
욊	6901
욋	6902
욌	6903
욍	6904
욎	6905
욏	6906
욐	6907
욑	6908
욒	6909
욓	6910
요	6911
욕	6912
욖	6913
욗	6914
욘	6915
욙	6916
욚	6917
욛	6918
욜	6919
욝	6920
욞	6921
욟	6922
욠	6923
욡	6924
욢	6925
욣	6926
욤	6927
욥	6928
욦	6929
욧	6930
욨	6931
용	6932
욪	6933
욫	6934
욬	6935
욭	6936
욮	6937
욯	6938
우	6939
욱	6940
욲	6941
욳	6942
운	6943
욵	6944
욶	6945
욷	6946
울	6947
욹	6948
욺	6949
욻	6950
욼	6951
욽	6952
욾	6953
욿	6954
움	6955
웁	6956
웂	6957
웃	6958
웄	6959
웅	6960
웆	6961
웇	6962
웈	6963
웉	6964
웊	6965
웋	6966
워	6967
웍	6968
웎	6969
웏	6970
원	6971
웑	6972
웒	6973
웓	6974
월	6975
웕	6976
웖	6977
웗	6978
웘	6979
웙	6980
웚	6981
웛	6982
웜	6983
웝	6984
웞	6985
웟	6986
웠	6987
웡	6988
웢	6989
웣	6990
웤	6991
웥	6992
웦	6993
웧	6994
웨	6995
웩	6996
웪	6997
웫	6998
웬	6999
웭	7000
웮	7001
웯	7002
웰	7003
웱	7004
웲	7005
웳	7006
웴	7007
웵	7008
웶	7009
웷	7010
웸	7011
웹	7012
웺	7013
웻	7014
웼	7015
웽	7016
웾	7017
웿	7018
윀	7019
윁	7020
윂	7021
윃	7022
위	7023
윅	7024
윆	7025
윇	7026
윈	7027
윉	7028
윊	7029
윋	7030
윌	7031
윍	7032
윎	7033
윏	7034
윐	7035
윑	7036
윒	7037
윓	7038
윔	7039
윕	7040
윖	7041
윗	7042
윘	7043
윙	7044
윚	7045
윛	7046
윜	7047
윝	7048
윞	7049
윟	7050
유	7051
육	7052
윢	7053
윣	7054
윤	7055
윥	7056
윦	7057
윧	7058
율	7059
윩	7060
윪	7061
윫	7062
윬	7063
윭	7064
윮	7065
윯	7066
윰	7067
윱	7068
윲	7069
윳	7070
윴	7071
융	7072
윶	7073
윷	7074
윸	7075
윹	7076
윺	7077
윻	7078
으	7079
윽	7080
윾	7081
윿	7082
은	7083
읁	7084
읂	7085
읃	7086
을	7087
읅	7088
읆	7089
읇	7090
읈	7091
읉	7092
읊	7093
읋	7094
음	7095
읍	7096
읎	7097
읏	7098
읐	7099
응	7100
읒	7101
읓	7102
읔	7103
읕	7104
읖	7105
읗	7106
의	7107
읙	7108
읚	7109
읛	7110
읜	7111
읝	7112
읞	7113
읟	7114
읠	7115
읡	7116
읢	7117
읣	7118
읤	7119
읥	7120
읦	7121
읧	7122
읨	7123
읩	7124
읪	7125
읫	7126
읬	7127
읭	7128
읮	7129
읯	7130
읰	7131
읱	7132
읲	7133
읳	7134
이	7135
익	7136
읶	7137
읷	7138
인	7139
읹	7140
읺	7141
읻	7142
일	7143
읽	7144
읾	7145
읿	7146
잀	7147
잁	7148
잂	7149
잃	7150
임	7151
입	7152
잆	7153
잇	7154
있	7155
잉	7156
잊	7157
잋	7158
잌	7159
잍	7160
잎	7161
잏	7162
자	7163
작	7164
잒	7165
잓	7166
잔	7167
잕	7168
잖	7169
잗	7170
잘	7171
잙	7172
잚	7173
잛	7174
잜	7175
잝	7176
잞	7177
잟	7178
잠	7179
잡	7180
잢	7181
잣	7182
장	7183
잦	7184
잧	7185
잨	7186
잩	7187
잪	7188
잫	7189
재	7190
잭	7191
잮	7192
잯	7193
잰	7194
잱	7195
잲	7196
잳	7197
잴	7198
잵	7199
잶	7200
잷	7201
잸	7202
잹	7203
잺	7204
잻	7205
잼	7206
잽	7207
잾	7208
잿	7209
쟁	7210
쟂	7211
쟃	7212
쟄	7213
쟅	7214
쟆	7215
쟇	7216
쟈	7217
쟉	7218
쟊	7219
쟋	7220
쟌	7221
쟍	7222
쟎	7223
쟏	7224
쟐	7225
쟑	7226
쟒	7227
쟓	7228
쟔	7229
쟕	7230
쟖	7231
쟗	7232
쟘	7233
쟙	7234
쟚	7235
쟛	7236
쟜	7237
쟝	7238
쟞	7239
쟟	7240
쟠	7241
쟡	7242
쟢	7243
쟣	7244
쟤	7245
쟥	7246
쟦	7247
쟧	7248
쟩	7249
쟪	7250
쟫	7251
쟬	7252
쟭	7253
쟮	7254
쟯	7255
쟰	7256
쟱	7257
쟲	7258
쟳	7259
쟴	7260
쟵	7261
쟶	7262
쟷	7263
쟸	7264
쟹	7265
쟺	7266
쟻	7267
쟼	7268
쟽	7269
쟾	7270
쟿	7271
저	7272
적	7273
젂	7274
젃	7275
전	7276
젅	7277
젆	7278
젇	7279
절	7280
젉	7281
젊	7282
젋	7283
젌	7284
젍	7285
젎	7286
젏	7287
점	7288
접	7289
젒	7290
젓	7291
젔	7292
정	7293
젖	7294
젗	7295
젘	7296
젙	7297
젚	7298
젛	7299
제	7300
젝	7301
젞	7302
젟	7303
젠	7304
젡	7305
젢	7306
젣	7307
젤	7308
젥	7309
젦	7310
젧	7311
젨	7312
젩	7313
젪	7314
젫	7315
젬	7316
젭	7317
젮	7318
젯	7319
젰	7320
젱	7321
젲	7322
젳	7323
젴	7324
젵	7325
젶	7326
젷	7327
져	7328
젹	7329
젺	7330
젻	7331
젼	7332
젽	7333
젾	7334
젿	7335
졀	7336
졁	7337
졂	7338
졃	7339
졄	7340
졅	7341
졆	7342
졇	7343
졈	7344
졉	7345
졊	7346
졋	7347
졌	7348
졍	7349
졎	7350
졏	7351
졐	7352
졑	7353
졒	7354
졓	7355
졔	7356
졕	7357
졖	7358
졗	7359
졘	7360
졙	7361
졚	7362
졛	7363
졜	7364
졝	7365
졞	7366
졟	7367
졠	7368
졡	7369
졢	7370
졣	7371
졤	7372
졥	7373
졦	7374
졧	7375
졨	7376
졩	7377
졪	7378
졫	7379
졬	7380
졭	7381
졮	7382
졯	7383
조	7384
족	7385
졲	7386
졳	7387
존	7388
졵	7389
졶	7390
졷	7391
졸	7392
졹	7393
졺	7394
졻	7395
졼	7396
졽	7397
졾	7398
졿	7399
좀	7400
좁	7401
좂	7402
좃	7403
좄	7404
종	7405
좆	7406
좇	7407
좈	7408
좉	7409
좊	7410
좋	7411
좌	7412
좍	7413
좎	7414
좏	7415
좐	7416
좑	7417
좒	7418
좓	7419
좔	7420
좕	7421
좖	7422
좗	7423
좘	7424
좙	7425
좚	7426
좛	7427
좜	7428
좝	7429
좞	7430
좟	7431
좠	7432
좡	7433
좢	7434
좣	7435
좤	7436
좥	7437
좦	7438
좧	7439
좨	7440
좩	7441
좪	7442
좫	7443
좬	7444
좭	7445
좮	7446
좯	7447
좰	7448
좱	7449
좲	7450
좳	7451
좴	7452
좵	7453
좶	7454
좷	7455
좸	7456
좹	7457
좺	7458
좻	7459
좼	7460
좽	7461
좾	7462
좿	7463
죀	7464
죁	7465
죂	7466
죃	7467
죄	7468
죅	7469
죆	7470
죇	7471
죈	7472
죉	7473
죊	7474
죋	7475
죌	7476
죍	7477
죎	7478
죏	7479
죐	7480
죑	7481
죒	7482
죓	7483
죔	7484
죕	7485
죖	7486
죗	7487
죙	7488
죚	7489
죛	7490
죜	7491
죝	7492
죞	7493
죟	7494
죠	7495
죡	7496
죢	7497
죣	7498
죤	7499
죥	7500
죦	7501
죧	7502
죨	7503
죩	7504
죪	7505
죫	7506
죬	7507
죭	7508
죮	7509
죯	7510
죰	7511
죱	7512
죲	7513
죳	7514
죴	7515
죵	7516
죶	7517
죷	7518
죸	7519
죹	7520
죺	7521
죻	7522
주	7523
죽	7524
죾	7525
죿	7526
준	7527
줁	7528
줂	7529
줃	7530
줄	7531
줅	7532
줆	7533
줇	7534
줈	7535
줉	7536
줊	7537
줋	7538
줌	7539
줍	7540
줎	7541
줏	7542
줐	7543
중	7544
줒	7545
줓	7546
줔	7547
줕	7548
줖	7549
줗	7550
줘	7551
줙	7552
줚	7553
줛	7554
줜	7555
줝	7556
줞	7557
줟	7558
줠	7559
줡	7560
줢	7561
줣	7562
줤	7563
줥	7564
줦	7565
줧	7566
줨	7567
줩	7568
줪	7569
줫	7570
줬	7571
줭	7572
줮	7573
줯	7574
줰	7575
줱	7576
줲	7577
줳	7578
줴	7579
줵	7580
줶	7581
줷	7582
줸	7583
줹	7584
줺	7585
줻	7586
줼	7587
줽	7588
줾	7589
줿	7590
쥀	7591
쥁	7592
쥂	7593
쥃	7594
쥄	7595
쥅	7596
쥆	7597
쥇	7598
쥈	7599
쥉	7600
쥊	7601
쥋	7602
쥌	7603
쥍	7604
쥎	7605
쥏	7606
쥐	7607
쥑	7608
쥒	7609
쥓	7610
쥔	7611
쥕	7612
쥖	7613
쥗	7614
쥘	7615
쥙	7616
쥚	7617
쥛	7618
쥜	7619
쥝	7620
쥞	7621
쥟	7622
쥠	7623
쥡	7624
쥢	7625
쥣	7626
쥤	7627
쥥	7628
쥦	7629
쥧	7630
쥨	7631
쥩	7632
쥪	7633
쥫	7634
쥬	7635
쥭	7636
쥮	7637
쥯	7638
쥰	7639
쥱	7640
쥲	7641
쥳	7642
쥴	7643
쥵	7644
쥶	7645
쥷	7646
쥸	7647
쥹	7648
쥺	7649
쥻	7650
쥼	7651
쥽	7652
쥾	7653
쥿	7654
즀	7655
즁	7656
즂	7657
즃	7658
즄	7659
즅	7660
즆	7661
즇	7662
즈	7663
즉	7664
즊	7665
즋	7666
즌	7667
즍	7668
즎	7669
즏	7670
즐	7671
즑	7672
즒	7673
즓	7674
즔	7675
즕	7676
즖	7677
즗	7678
즘	7679
즙	7680
즚	7681
즛	7682
즜	7683
증	7684
즞	7685
즟	7686
즠	7687
즡	7688
즢	7689
즣	7690
즤	7691
즥	7692
즦	7693
즧	7694
즨	7695
즩	7696
즪	7697
즫	7698
즬	7699
즭	7700
즮	7701
즯	7702
즰	7703
즱	7704
즲	7705
즳	7706
즴	7707
즵	7708
즶	7709
즷	7710
즸	7711
즹	7712
즺	7713
즻	7714
즼	7715
즽	7716
즾	7717
즿	7718
지	7719
직	7720
짂	7721
짃	7722
진	7723
짅	7724
짆	7725
짇	7726
질	7727
짉	7728
짊	7729
짋	7730
짌	7731
짍	7732
짎	7733
짏	7734
짐	7735
집	7736
짒	7737
짓	7738
짔	7739
징	7740
짖	7741
짗	7742
짘	7743
짙	7744
짚	7745
짛	7746
짜	7747
짝	7748
짞	7749
짟	7750
짠	7751
짡	7752
짢	7753
짣	7754
짤	7755
짥	7756
짦	7757
짧	7758
짨	7759
짩	7760
짪	7761
짫	7762
짬	7763
짭	7764
짮	7765
짯	7766
짱	7767
짲	7768
짳	7769
짴	7770
짵	7771
짶	7772
짷	7773
째	7774
짹	7775
짺	7776
짻	7777
짼	7778
짽	7779
짾	7780
짿	7781
쨀	7782
쨁	7783
쨂	7784
쨃	7785
쨄	7786
쨅	7787
쨆	7788
쨇	7789
쨈	7790
쨉	7791
쨊	7792
쨋	7793
쨌	7794
쨍	7795
쨎	7796
쨏	7797
쨐	7798
쨑	7799
쨒	7800
쨓	7801
쨔	7802
쨕	7803
쨖	7804
쨗	7805
쨘	7806
쨙	7807
쨚	7808
쨛	7809
쨜	7810
쨝	7811
쨞	7812
쨟	7813
쨠	7814
쨡	7815
쨢	7816
쨣	7817
쨤	7818
쨥	7819
쨦	7820
쨧	7821
쨨	7822
쨩	7823
쨪	7824
쨫	7825
쨬	7826
쨭	7827
쨮	7828
쨯	7829
쨰	7830
쨱	7831
쨲	7832
쨳	7833
쨴	7834
쨵	7835
쨶	7836
쨷	7837
쨸	7838
쨹	7839
쨺	7840
쨻	7841
쨼	7842
쨽	7843
쨾	7844
쨿	7845
쩀	7846
쩁	7847
쩂	7848
쩃	7849
쩄	7850
쩅	7851
쩆	7852
쩇	7853
쩈	7854
쩉	7855
쩊	7856
쩋	7857
쩌	7858
쩍	7859
쩎	7860
쩏	7861
쩐	7862
쩑	7863
쩒	7864
쩓	7865
쩔	7866
쩕	7867
쩖	7868
쩗	7869
쩘	7870
쩙	7871
쩚	7872
쩛	7873
쩜	7874
쩝	7875
쩞	7876
쩟	7877
쩠	7878
쩡	7879
쩢	7880
쩣	7881
쩤	7882
쩥	7883
쩦	7884
쩧	7885
쩨	7886
쩩	7887
쩪	7888
쩫	7889
쩬	7890
쩭	7891
쩮	7892
쩯	7893
쩰	7894
쩱	7895
쩲	7896
쩳	7897
쩴	7898
쩵	7899
쩶	7900
쩷	7901
쩸	7902
쩹	7903
쩺	7904
쩻	7905
쩼	7906
쩽	7907
쩾	7908
쩿	7909
쪀	7910
쪁	7911
쪂	7912
쪃	7913
쪄	7914
쪅	7915
쪆	7916
쪇	7917
쪈	7918
쪉	7919
쪊	7920
쪋	7921
쪌	7922
쪍	7923
쪎	7924
쪏	7925
쪐	7926
쪑	7927
쪒	7928
쪓	7929
쪔	7930
쪕	7931
쪖	7932
쪗	7933
쪘	7934
쪙	7935
쪚	7936
쪛	7937
쪜	7938
쪝	7939
쪞	7940
쪟	7941
쪠	7942
쪡	7943
쪢	7944
쪣	7945
쪤	7946
쪥	7947
쪦	7948
쪧	7949
쪨	7950
쪩	7951
쪪	7952
쪫	7953
쪬	7954
쪭	7955
쪮	7956
쪯	7957
쪰	7958
쪱	7959
쪲	7960
쪳	7961
쪴	7962
쪵	7963
쪶	7964
쪷	7965
쪸	7966
쪹	7967
쪺	7968
쪻	7969
쪼	7970
쪽	7971
쪾	7972
쪿	7973
쫀	7974
쫁	7975
쫂	7976
쫃	7977
쫄	7978
쫅	7979
쫆	7980
쫇	7981
쫈	7982
쫉	7983
쫊	7984
쫋	7985
쫌	7986
쫍	7987
쫎	7988
쫏	7989
쫐	7990
쫑	7991
쫒	7992
쫓	7993
쫔	7994
쫕	7995
쫖	7996
쫗	7997
쫘	7998
쫙	7999
쫚	8000
쫛	8001
쫜	8002
쫝	8003
쫞	8004
쫟	8005
쫠	8006
쫡	8007
쫢	8008
쫣	8009
쫤	8010
쫥	8011
쫦	8012
쫧	8013
쫨	8014
쫩	8015
쫪	8016
쫫	8017
쫭	8018
쫮	8019
쫯	8020
쫰	8021
쫱	8022
쫲	8023
쫳	8024
쫴	8025
쫵	8026
쫶	8027
쫷	8028
쫸	8029
쫹	8030
쫺	8031
쫻	8032
쫼	8033
쫽	8034
쫾	8035
쫿	8036
쬀	8037
쬁	8038
쬂	8039
쬃	8040
쬄	8041
쬅	8042
쬆	8043
쬇	8044
쬈	8045
쬉	8046
쬊	8047
쬋	8048
쬌	8049
쬍	8050
쬎	8051
쬏	8052
쬐	8053
쬑	8054
쬒	8055
쬓	8056
쬔	8057
쬕	8058
쬖	8059
쬗	8060
쬙	8061
쬚	8062
쬛	8063
쬜	8064
쬝	8065
쬞	8066
쬟	8067
쬡	8068
쬢	8069
쬣	8070
쬤	8071
쬥	8072
쬦	8073
쬧	8074
쬨	8075
쬩	8076
쬪	8077
쬫	8078
쬬	8079
쬭	8080
쬮	8081
쬯	8082
쬰	8083
쬱	8084
쬲	8085
쬳	8086
쬴	8087
쬵	8088
쬶	8089
쬷	8090
쬸	8091
쬹	8092
쬺	8093
쬻	8094
쬼	8095
쬽	8096
쬾	8097
쬿	8098
쭀	8099
쭁	8100
쭂	8101
쭃	8102
쭄	8103
쭅	8104
쭆	8105
쭇	8106
쭈	8107
쭉	8108
쭊	8109
쭋	8110
쭌	8111
쭍	8112
쭎	8113
쭏	8114
쭐	8115
쭑	8116
쭒	8117
쭓	8118
쭔	8119
쭕	8120
쭖	8121
쭗	8122
쭘	8123
쭙	8124
쭚	8125
쭛	8126
쭜	8127
쭝	8128
쭞	8129
쭟	8130
쭠	8131
쭡	8132
쭢	8133
쭣	8134
쭤	8135
쭥	8136
쭦	8137
쭧	8138
쭨	8139
쭩	8140
쭪	8141
쭫	8142
쭬	8143
쭭	8144
쭮	8145
쭯	8146
쭰	8147
쭱	8148
쭲	8149
쭳	8150
쭴	8151
쭵	8152
쭶	8153
쭷	8154
쭸	8155
쭹	8156
쭺	8157
쭻	8158
쭼	8159
쭽	8160
쭾	8161
쭿	8162
쮀	8163
쮁	8164
쮂	8165
쮃	8166
쮄	8167
쮅	8168
쮆	8169
쮇	8170
쮈	8171
쮉	8172
쮊	8173
쮋	8174
쮌	8175
쮍	8176
쮎	8177
쮏	8178
쮐	8179
쮑	8180
쮒	8181
쮓	8182
쮔	8183
쮕	8184
쮖	8185
쮗	8186
쮘	8187
쮙	8188
쮚	8189
쮛	8190
쮜	8191
쮝	8192
쮞	8193
쮟	8194
쮠	8195
쮡	8196
쮢	8197
쮣	8198
쮤	8199
쮥	8200
쮦	8201
쮧	8202
쮨	8203
쮩	8204
쮪	8205
쮫	8206
쮬	8207
쮭	8208
쮮	8209
쮯	8210
쮰	8211
쮱	8212
쮲	8213
쮳	8214
쮴	8215
쮵	8216
쮶	8217
쮷	8218
쮸	8219
쮹	8220
쮺	8221
쮻	8222
쮼	8223
쮽	8224
쮾	8225
쮿	8226
쯀	8227
쯁	8228
쯂	8229
쯃	8230
쯄	8231
쯅	8232
쯆	8233
쯇	8234
쯈	8235
쯉	8236
쯊	8237
쯋	8238
쯌	8239
쯍	8240
쯎	8241
쯏	8242
쯐	8243
쯑	8244
쯒	8245
쯓	8246
쯔	8247
쯕	8248
쯖	8249
쯗	8250
쯘	8251
쯙	8252
쯚	8253
쯛	8254
쯜	8255
쯝	8256
쯞	8257
쯟	8258
쯠	8259
쯡	8260
쯢	8261
쯣	8262
쯤	8263
쯥	8264
쯦	8265
쯧	8266
쯨	8267
쯩	8268
쯪	8269
쯫	8270
쯬	8271
쯭	8272
쯮	8273
쯯	8274
쯰	8275
쯱	8276
쯲	8277
쯳	8278
쯴	8279
쯵	8280
쯶	8281
쯷	8282
쯸	8283
쯹	8284
쯺	8285
쯻	8286
쯼	8287
쯽	8288
쯾	8289
쯿	8290
찀	8291
찁	8292
찂	8293
찃	8294
찄	8295
찅	8296
찆	8297
찇	8298
찈	8299
찉	8300
찊	8301
찋	8302
찌	8303
찍	8304
찎	8305
찏	8306
찐	8307
찑	8308
찒	8309
찓	8310
찔	8311
찕	8312
찖	8313
찗	8314
찘	8315
찙	8316
찚	8317
찛	8318
찜	8319
찝	8320
찞	8321
찟	8322
찠	8323
찡	8324
찢	8325
찣	8326
찤	8327
찥	8328
찦	8329
찧	8330
차	8331
착	8332
찪	8333
찫	8334
찬	8335
찭	8336
찮	8337
찯	8338
찰	8339
찱	8340
찲	8341
찳	8342
찴	8343
찵	8344
찶	8345
찷	8346
참	8347
찹	8348
찺	8349
찻	8350
창	8351
찾	8352
찿	8353
챀	8354
챁	8355
챂	8356
챃	8357
채	8358
책	8359
챆	8360
챇	8361
챈	8362
챉	8363
챊	8364
챋	8365
챌	8366
챍	8367
챎	8368
챏	8369
챐	8370
챑	8371
챒	8372
챓	8373
챔	8374
챕	8375
챖	8376
챗	8377
챘	8378
챙	8379
챚	8380
챛	8381
챜	8382
챝	8383
챞	8384
챟	8385
챠	8386
챡	8387
챢	8388
챣	8389
챤	8390
챥	8391
챦	8392
챧	8393
챨	8394
챩	8395
챪	8396
챫	8397
챬	8398
챭	8399
챮	8400
챯	8401
챰	8402
챱	8403
챲	8404
챳	8405
챴	8406
챵	8407
챶	8408
챷	8409
챸	8410
챹	8411
챺	8412
챻	8413
챼	8414
챽	8415
챾	8416
챿	8417
첀	8418
첁	8419
첂	8420
첃	8421
첄	8422
첅	8423
첆	8424
첇	8425
첈	8426
첉	8427
첊	8428
첋	8429
첌	8430
첍	8431
첎	8432
첏	8433
첐	8434
첑	8435
첒	8436
첓	8437
첔	8438
첕	8439
첖	8440
첗	8441
처	8442
척	8443
첚	8444
첛	8445
천	8446
첝	8447
첞	8448
첟	8449
철	8450
첡	8451
첢	8452
첣	8453
첤	8454
첥	8455
첦	8456
첧	8457
첨	8458
첩	8459
첪	8460
첫	8461
첬	8462
청	8463
첮	8464
첯	8465
첰	8466
첱	8467
첲	8468
첳	8469
체	8470
첵	8471
첶	8472
첷	8473
첸	8474
첹	8475
첺	8476
첻	8477
첼	8478
첽	8479
첾	8480
첿	8481
쳀	8482
쳁	8483
쳂	8484
쳃	8485
쳄	8486
쳅	8487
쳆	8488
쳇	8489
쳈	8490
쳉	8491
쳊	8492
쳋	8493
쳌	8494
쳍	8495
쳎	8496
쳏	8497
쳐	8498
쳑	8499
쳒	8500
쳓	8501
쳔	8502
쳕	8503
쳖	8504
쳗	8505
쳘	8506
쳙	8507
쳚	8508
쳛	8509
쳜	8510
쳝	8511
쳞	8512
쳟	8513
쳠	8514
쳡	8515
쳢	8516
쳣	8517
쳤	8518
쳥	8519
쳦	8520
쳧	8521
쳨	8522
쳩	8523
쳪	8524
쳫	8525
쳬	8526
쳭	8527
쳮	8528
쳯	8529
쳰	8530
쳱	8531
쳲	8532
쳳	8533
쳴	8534
쳵	8535
쳶	8536
쳷	8537
쳸	8538
쳹	8539
쳺	8540
쳻	8541
쳼	8542
쳽	8543
쳾	8544
쳿	8545
촀	8546
촁	8547
촂	8548
촃	8549
촄	8550
촅	8551
촆	8552
촇	8553
초	8554
촉	8555
촊	8556
촋	8557
촌	8558
촍	8559
촎	8560
촏	8561
촐	8562
촑	8563
촒	8564
촓	8565
촔	8566
촕	8567
촖	8568
촗	8569
촘	8570
촙	8571
촚	8572
촛	8573
촜	8574
총	8575
촞	8576
촟	8577
촠	8578
촡	8579
촢	8580
촣	8581
촤	8582
촥	8583
촦	8584
촧	8585
촨	8586
촩	8587
촪	8588
촫	8589
촬	8590
촭	8591
촮	8592
촯	8593
촰	8594
촱	8595
촲	8596
촳	8597
촴	8598
촵	8599
촶	8600
촷	8601
촸	8602
촹	8603
촺	8604
촻	8605
촼	8606
촽	8607
촾	8608
촿	8609
쵀	8610
쵁	8611
쵂	8612
쵃	8613
쵄	8614
쵅	8615
쵆	8616
쵇	8617
쵈	8618
쵉	8619
쵊	8620
쵋	8621
쵌	8622
쵍	8623
쵎	8624
쵏	8625
쵐	8626
쵑	8627
쵒	8628
쵓	8629
쵔	8630
쵕	8631
쵖	8632
쵗	8633
쵘	8634
쵙	8635
쵚	8636
쵛	8637
최	8638
쵝	8639
쵞	8640
쵟	8641
쵠	8642
쵡	8643
쵢	8644
쵣	8645
쵤	8646
쵥	8647
쵦	8648
쵧	8649
쵨	8650
쵩	8651
쵪	8652
쵫	8653
쵬	8654
쵭	8655
쵮	8656
쵯	8657
쵰	8658
쵱	8659
쵲	8660
쵳	8661
쵴	8662
쵵	8663
쵶	8664
쵷	8665
쵸	8666
쵹	8667
쵺	8668
쵻	8669
쵼	8670
쵽	8671
쵾	8672
쵿	8673
춀	8674
춁	8675
춂	8676
춃	8677
춄	8678
춅	8679
춆	8680
춇	8681
춈	8682
춉	8683
춊	8684
춋	8685
춌	8686
춍	8687
춎	8688
춏	8689
춐	8690
춑	8691
춒	8692
춓	8693
추	8694
축	8695
춖	8696
춗	8697
춘	8698
춙	8699
춚	8700
춛	8701
출	8702
춝	8703
춞	8704
춟	8705
춠	8706
춡	8707
춢	8708
춣	8709
춤	8710
춥	8711
춦	8712
춧	8713
춨	8714
충	8715
춪	8716
춫	8717
춬	8718
춭	8719
춮	8720
춯	8721
춰	8722
춱	8723
춲	8724
춳	8725
춴	8726
춵	8727
춶	8728
춷	8729
춸	8730
춹	8731
춺	8732
춻	8733
춼	8734
춽	8735
춾	8736
춿	8737
췀	8738
췁	8739
췂	8740
췃	8741
췄	8742
췅	8743
췆	8744
췇	8745
췈	8746
췉	8747
췊	8748
췋	8749
췌	8750
췍	8751
췎	8752
췏	8753
췐	8754
췑	8755
췒	8756
췓	8757
췔	8758
췕	8759
췖	8760
췗	8761
췘	8762
췙	8763
췚	8764
췛	8765
췜	8766
췝	8767
췞	8768
췟	8769
췠	8770
췡	8771
췢	8772
췣	8773
췤	8774
췥	8775
췦	8776
췧	8777
취	8778
췩	8779
췪	8780
췫	8781
췬	8782
췭	8783
췮	8784
췯	8785
췰	8786
췱	8787
췲	8788
췳	8789
췴	8790
췵	8791
췶	8792
췷	8793
췸	8794
췹	8795
췺	8796
췻	8797
췼	8798
췽	8799
췾	8800
췿	8801
츀	8802
츁	8803
츂	8804
츃	8805
츄	8806
츅	8807
츆	8808
츇	8809
츈	8810
츉	8811
츊	8812
츋	8813
츌	8814
츍	8815
츎	8816
츏	8817
츐	8818
츑	8819
츒	8820
츓	8821
츔	8822
츕	8823
츖	8824
츗	8825
츘	8826
츙	8827
츚	8828
츛	8829
츜	8830
츝	8831
츞	8832
츟	8833
츠	8834
측	8835
츢	8836
츣	8837
츤	8838
츥	8839
츦	8840
츧	8841
츨	8842
츩	8843
츪	8844
츫	8845
츬	8846
츭	8847
츮	8848
츯	8849
츰	8850
츱	8851
츲	8852
츳	8853
츴	8854
층	8855
츶	8856
츷	8857
츸	8858
츹	8859
츺	8860
츻	8861
츼	8862
츽	8863
츾	8864
츿	8865
칀	8866
칁	8867
칂	8868
칃	8869
칄	8870
칅	8871
칆	8872
칇	8873
칈	8874
칉	8875
칊	8876
칋	8877
칌	8878
칍	8879
칎	8880
칏	8881
칐	8882
칑	8883
칒	8884
칓	8885
칔	8886
칕	8887
칖	8888
칗	8889
치	8890
칙	8891
칚	8892
칛	8893
친	8894
칝	8895
칞	8896
칟	8897
칠	8898
칡	8899
칢	8900
칣	8901
칤	8902
칥	8903
칦	8904
칧	8905
침	8906
칩	8907
칪	8908
칫	8909
칬	8910
칭	8911
칮	8912
칯	8913
칰	8914
칱	8915
칲	8916
칳	8917
카	8918
칵	8919
칶	8920
칷	8921
칸	8922
칹	8923
칺	8924
칻	8925
칼	8926
칽	8927
칾	8928
칿	8929
캀	8930
캁	8931
캂	8932
캃	8933
캄	8934
캅	8935
캆	8936
캇	8937
캈	8938
캉	8939
캊	8940
캋	8941
캌	8942
캍	8943
캎	8944
캏	8945
캐	8946
캑	8947
캒	8948
캓	8949
캔	8950
캕	8951
캖	8952
캗	8953
캘	8954
캙	8955
캚	8956
캛	8957
캜	8958
캝	8959
캞	8960
캟	8961
캠	8962
캡	8963
캢	8964
캣	8965
캤	8966
캥	8967
캦	8968
캧	8969
캨	8970
캩	8971
캪	8972
캫	8973
캬	8974
캭	8975
캮	8976
캯	8977
캰	8978
캱	8979
캲	8980
캳	8981
캴	8982
캵	8983
캶	8984
캷	8985
캸	8986
캹	8987
캺	8988
캻	8989
캼	8990
캽	8991
캾	8992
캿	8993
컀	8994
컁	8995
컂	8996
컃	8997
컄	8998
컅	8999
컆	9000
컇	9001
컈	9002
컉	9003
컊	9004
컋	9005
컌	9006
컍	9007
컎	9008
컏	9009
컐	9010
컑	9011
컒	9012
컓	9013
컔	9014
컕	9015
컖	9016
컗	9017
컘	9018
컙	9019
컚	9020
컛	9021
컜	9022
컝	9023
컞	9024
컟	9025
컠	9026
컡	9027
컢	9028
컣	9029
커	9030
컥	9031
컦	9032
컧	9033
컨	9034
컩	9035
컪	9036
컫	9037
컬	9038
컭	9039
컮	9040
컯	9041
컰	9042
컱	9043
컲	9044
컳	9045
컴	9046
컵	9047
컶	9048
컷	9049
컹	9050
컺	9051
컻	9052
컼	9053
컽	9054
컾	9055
컿	9056
케	9057
켁	9058
켂	9059
켃	9060
켄	9061
켅	9062
켆	9063
켇	9064
켈	9065
켉	9066
켊	9067
켋	9068
켌	9069
켍	9070
켎	9071
켏	9072
켐	9073
켑	9074
켒	9075
켓	9076
켔	9077
켕	9078
켖	9079
켗	9080
켘	9081
켙	9082
켚	9083
켛	9084
켜	9085
켝	9086
켞	9087
켟	9088
켠	9089
켡	9090
켢	9091
켣	9092
켤	9093
켥	9094
켦	9095
켧	9096
켨	9097
켩	9098
켪	9099
켫	9100
켬	9101
켭	9102
켮	9103
켯	9104
켰	9105
켱	9106
켲	9107
켳	9108
켴	9109
켵	9110
켶	9111
켷	9112
켸	9113
켹	9114
켺	9115
켻	9116
켼	9117
켽	9118
켾	9119
켿	9120
콀	9121
콁	9122
콂	9123
콃	9124
콄	9125
콅	9126
콆	9127
콇	9128
콈	9129
콉	9130
콊	9131
콋	9132
콌	9133
콍	9134
콎	9135
콏	9136
콐	9137
콑	9138
콒	9139
콓	9140
코	9141
콕	9142
콖	9143
콗	9144
콘	9145
콙	9146
콚	9147
콛	9148
콜	9149
콝	9150
콞	9151
콟	9152
콠	9153
콡	9154
콢	9155
콣	9156
콤	9157
콥	9158
콦	9159
콧	9160
콨	9161
콩	9162
콪	9163
콫	9164
콬	9165
콭	9166
콮	9167
콯	9168
콰	9169
콱	9170
콲	9171
콳	9172
콴	9173
콵	9174
콶	9175
콷	9176
콸	9177
콹	9178
콺	9179
콻	9180
콼	9181
콽	9182
콾	9183
콿	9184
쾀	9185
쾁	9186
쾂	9187
쾃	9188
쾄	9189
쾅	9190
쾆	9191
쾇	9192
쾈	9193
쾉	9194
쾊	9195
쾋	9196
쾌	9197
쾍	9198
쾎	9199
쾏	9200
쾐	9201
쾑	9202
쾒	9203
쾓	9204
쾔	9205
쾕	9206
쾖	9207
쾗	9208
쾘	9209
쾙	9210
쾚	9211
쾛	9212
쾜	9213
쾝	9214
쾞	9215
쾟	9216
쾠	9217
쾡	9218
쾢	9219
쾣	9220
쾤	9221
쾥	9222
쾦	9223
쾧	9224
쾨	9225
쾩	9226
쾪	9227
쾫	9228
쾬	9229
쾭	9230
쾮	9231
쾯	9232
쾰	9233
쾱	9234
쾲	9235
쾳	9236
쾴	9237
쾵	9238
쾶	9239
쾷	9240
쾸	9241
쾹	9242
쾺	9243
쾻	9244
쾼	9245
쾽	9246
쾾	9247
쾿	9248
쿀	9249
쿁	9250
쿂	9251
쿃	9252
쿄	9253
쿅	9254
쿆	9255
쿇	9256
쿈	9257
쿉	9258
쿊	9259
쿋	9260
쿌	9261
쿍	9262
쿎	9263
쿏	9264
쿐	9265
쿑	9266
쿒	9267
쿓	9268
쿔	9269
쿕	9270
쿖	9271
쿗	9272
쿘	9273
쿙	9274
쿚	9275
쿛	9276
쿜	9277
쿝	9278
쿞	9279
쿟	9280
쿠	9281
쿡	9282
쿢	9283
쿣	9284
쿤	9285
쿥	9286
쿦	9287
쿧	9288
쿨	9289
쿩	9290
쿪	9291
쿫	9292
쿬	9293
쿭	9294
쿮	9295
쿯	9296
쿰	9297
쿱	9298
쿲	9299
쿳	9300
쿴	9301
쿵	9302
쿶	9303
쿷	9304
쿸	9305
쿹	9306
쿺	9307
쿻	9308
쿼	9309
쿽	9310
쿾	9311
쿿	9312
퀀	9313
퀁	9314
퀂	9315
퀃	9316
퀄	9317
퀅	9318
퀆	9319
퀇	9320
퀈	9321
퀉	9322
퀊	9323
퀋	9324
퀌	9325
퀍	9326
퀎	9327
퀏	9328
퀐	9329
퀑	9330
퀒	9331
퀓	9332
퀔	9333
퀕	9334
퀖	9335
퀗	9336
퀘	9337
퀙	9338
퀚	9339
퀛	9340
퀜	9341
퀝	9342
퀞	9343
퀟	9344
퀠	9345
퀡	9346
퀢	9347
퀣	9348
퀤	9349
퀥	9350
퀦	9351
퀧	9352
퀨	9353
퀩	9354
퀪	9355
퀫	9356
퀬	9357
퀭	9358
퀮	9359
퀯	9360
퀰	9361
퀱	9362
퀲	9363
퀳	9364
퀴	9365
퀵	9366
퀶	9367
퀷	9368
퀸	9369
퀹	9370
퀺	9371
퀻	9372
퀼	9373
퀽	9374
퀾	9375
퀿	9376
큀	9377
큁	9378
큂	9379
큃	9380
큄	9381
큅	9382
큆	9383
큇	9384
큈	9385
큉	9386
큊	9387
큋	9388
큌	9389
큍	9390
큎	9391
큏	9392
큐	9393
큑	9394
큒	9395
큓	9396
큔	9397
큕	9398
큖	9399
큗	9400
큘	9401
큙	9402
큚	9403
큛	9404
큜	9405
큝	9406
큞	9407
큟	9408
큠	9409
큡	9410
큢	9411
큣	9412
큤	9413
큥	9414
큦	9415
큧	9416
큨	9417
큩	9418
큪	9419
큫	9420
크	9421
큭	9422
큮	9423
큯	9424
큰	9425
큱	9426
큲	9427
큳	9428
클	9429
큵	9430
큶	9431
큷	9432
큸	9433
큹	9434
큺	9435
큻	9436
큼	9437
큽	9438
큾	9439
큿	9440
킀	9441
킁	9442
킂	9443
킃	9444
킄	9445
킅	9446
킆	9447
킇	9448
킈	9449
킉	9450
킊	9451
킋	9452
킌	9453
킍	9454
킎	9455
킏	9456
킐	9457
킑	9458
킒	9459
킓	9460
킔	9461
킕	9462
킖	9463
킗	9464
킘	9465
킙	9466
킚	9467
킛	9468
킜	9469
킝	9470
킞	9471
킟	9472
킠	9473
킡	9474
킢	9475
킣	9476
키	9477
킥	9478
킦	9479
킧	9480
킨	9481
킩	9482
킪	9483
킫	9484
킬	9485
킭	9486
킮	9487
킯	9488
킰	9489
킱	9490
킲	9491
킳	9492
킴	9493
킵	9494
킶	9495
킷	9496
킸	9497
킹	9498
킺	9499
킻	9500
킼	9501
킽	9502
킾	9503
킿	9504
타	9505
탁	9506
탂	9507
탃	9508
탄	9509
탅	9510
탆	9511
탇	9512
탈	9513
탉	9514
탊	9515
탋	9516
탌	9517
탍	9518
탎	9519
탏	9520
탐	9521
탑	9522
탒	9523
탓	9524
탔	9525
탕	9526
탖	9527
탗	9528
탘	9529
탙	9530
탚	9531
탛	9532
태	9533
택	9534
탞	9535
탟	9536
탠	9537
탡	9538
탢	9539
탣	9540
탤	9541
탥	9542
탦	9543
탧	9544
탨	9545
탩	9546
탪	9547
탫	9548
탬	9549
탭	9550
탮	9551
탯	9552
탰	9553
탱	9554
탲	9555
탳	9556
탴	9557
탵	9558
탶	9559
탷	9560
탸	9561
탹	9562
탺	9563
탻	9564
탼	9565
탽	9566
탾	9567
탿	9568
턀	9569
턁	9570
턂	9571
턃	9572
턄	9573
턅	9574
턆	9575
턇	9576
턈	9577
턉	9578
턊	9579
턋	9580
턌	9581
턍	9582
턎	9583
턏	9584
턐	9585
턑	9586
턒	9587
턓	9588
턔	9589
턕	9590
턖	9591
턗	9592
턘	9593
턙	9594
턚	9595
턛	9596
턜	9597
턝	9598
턞	9599
턟	9600
턠	9601
턡	9602
턢	9603
턣	9604
턤	9605
턥	9606
턦	9607
턧	9608
턨	9609
턩	9610
턪	9611
턫	9612
턬	9613
턭	9614
턮	9615
턯	9616
터	9617
턱	9618
턲	9619
턳	9620
턴	9621
턵	9622
턶	9623
턷	9624
털	9625
턹	9626
턺	9627
턻	9628
턼	9629
턽	9630
턾	9631
턿	9632
텀	9633
텁	9634
텂	9635
텃	9636
텅	9637
텆	9638
텇	9639
텈	9640
텉	9641
텊	9642
텋	9643
테	9644
텍	9645
텎	9646
텏	9647
텐	9648
텑	9649
텒	9650
텓	9651
텔	9652
텕	9653
텖	9654
텗	9655
텘	9656
텙	9657
텚	9658
텛	9659
템	9660
텝	9661
텞	9662
텟	9663
텠	9664
텡	9665
텢	9666
텣	9667
텤	9668
텥	9669
텦	9670
텧	9671
텨	9672
텩	9673
텪	9674
텫	9675
텬	9676
텭	9677
텮	9678
텯	9679
텰	9680
텱	9681
텲	9682
텳	9683
텴	9684
텵	9685
텶	9686
텷	9687
텸	9688
텹	9689
텺	9690
텻	9691
텼	9692
텽	9693
텾	9694
텿	9695
톀	9696
톁	9697
톂	9698
톃	9699
톄	9700
톅	9701
톆	9702
톇	9703
톈	9704
톉	9705
톊	9706
톋	9707
톌	9708
톍	9709
톎	9710
톏	9711
톐	9712
톑	9713
톒	9714
톓	9715
톔	9716
톕	9717
톖	9718
톗	9719
톘	9720
톙	9721
톚	9722
톛	9723
톜	9724
톝	9725
톞	9726
톟	9727
토	9728
톡	9729
톢	9730
톣	9731
톤	9732
톥	9733
톦	9734
톧	9735
톨	9736
톩	9737
톪	9738
톫	9739
톬	9740
톭	9741
톮	9742
톯	9743
톰	9744
톱	9745
톲	9746
톳	9747
톴	9748
통	9749
톶	9750
톷	9751
톸	9752
톹	9753
톺	9754
톻	9755
톼	9756
톽	9757
톾	9758
톿	9759
퇀	9760
퇁	9761
퇂	9762
퇃	9763
퇄	9764
퇅	9765
퇆	9766
퇇	9767
퇈	9768
퇉	9769
퇊	9770
퇋	9771
퇌	9772
퇍	9773
퇎	9774
퇏	9775
퇐	9776
퇑	9777
퇒	9778
퇓	9779
퇔	9780
퇕	9781
퇖	9782
퇗	9783
퇘	9784
퇙	9785
퇚	9786
퇛	9787
퇜	9788
퇝	9789
퇞	9790
퇟	9791
퇠	9792
퇡	9793
퇢	9794
퇣	9795
퇤	9796
퇥	9797
퇦	9798
퇧	9799
퇨	9800
퇩	9801
퇪	9802
퇫	9803
퇬	9804
퇭	9805
퇮	9806
퇯	9807
퇰	9808
퇱	9809
퇲	9810
퇳	9811
퇴	9812
퇵	9813
퇶	9814
퇷	9815
퇸	9816
퇹	9817
퇺	9818
퇻	9819
퇼	9820
퇽	9821
퇾	9822
퇿	9823
툀	9824
툁	9825
툂	9826
툃	9827
툄	9828
툅	9829
툆	9830
툇	9831
툈	9832
툉	9833
툊	9834
툋	9835
툌	9836
툍	9837
툎	9838
툏	9839
툐	9840
툑	9841
툒	9842
툓	9843
툔	9844
툕	9845
툖	9846
툗	9847
툘	9848
툙	9849
툚	9850
툛	9851
툜	9852
툝	9853
툞	9854
툟	9855
툠	9856
툡	9857
툢	9858
툣	9859
툤	9860
툥	9861
툦	9862
툧	9863
툨	9864
툩	9865
툪	9866
툫	9867
투	9868
툭	9869
툮	9870
툯	9871
툰	9872
툱	9873
툲	9874
툳	9875
툴	9876
툵	9877
툶	9878
툷	9879
툸	9880
툹	9881
툺	9882
툻	9883
툼	9884
툽	9885
툾	9886
툿	9887
퉀	9888
퉁	9889
퉂	9890
퉃	9891
퉄	9892
퉅	9893
퉆	9894
퉇	9895
퉈	9896
퉉	9897
퉊	9898
퉋	9899
퉌	9900
퉍	9901
퉎	9902
퉏	9903
퉐	9904
퉑	9905
퉒	9906
퉓	9907
퉔	9908
퉕	9909
퉖	9910
퉗	9911
퉘	9912
퉙	9913
퉚	9914
퉛	9915
퉜	9916
퉝	9917
퉞	9918
퉟	9919
퉠	9920
퉡	9921
퉢	9922
퉣	9923
퉤	9924
퉥	9925
퉦	9926
퉧	9927
퉨	9928
퉩	9929
퉪	9930
퉫	9931
퉬	9932
퉭	9933
퉮	9934
퉯	9935
퉰	9936
퉱	9937
퉲	9938
퉳	9939
퉴	9940
퉵	9941
퉶	9942
퉷	9943
퉸	9944
퉹	9945
퉺	9946
퉻	9947
퉼	9948
퉽	9949
퉾	9950
퉿	9951
튀	9952
튁	9953
튂	9954
튃	9955
튄	9956
튅	9957
튆	9958
튇	9959
튈	9960
튉	9961
튊	9962
튋	9963
튌	9964
튍	9965
튎	9966
튏	9967
튐	9968
튑	9969
튒	9970
튓	9971
튔	9972
튕	9973
튖	9974
튗	9975
튘	9976
튙	9977
튚	9978
튛	9979
튜	9980
튝	9981
튞	9982
튟	9983
튠	9984
튡	9985
튢	9986
튣	9987
튤	9988
튥	9989
튦	9990
튧	9991
튨	9992
튩	9993
튪	9994
튫	9995
튬	9996
튭	9997
튮	9998
튯	9999
튰	10000
튱	10001
튲	10002
튳	10003
튴	10004
튵	10005
튶	10006
튷	10007
트	10008
특	10009
튺	10010
튻	10011
튼	10012
튽	10013
튾	10014
튿	10015
틀	10016
틁	10017
틂	10018
틃	10019
틄	10020
틅	10021
틆	10022
틇	10023
틈	10024
틉	10025
틊	10026
틋	10027
틌	10028
틍	10029
틎	10030
틏	10031
틐	10032
틑	10033
틒	10034
틓	10035
틔	10036
틕	10037
틖	10038
틗	10039
틘	10040
틙	10041
틚	10042
틛	10043
틜	10044
틝	10045
틞	10046
틟	10047
틠	10048
틡	10049
틢	10050
틣	10051
틤	10052
틥	10053
틦	10054
틧	10055
틨	10056
틩	10057
틪	10058
틫	10059
틬	10060
틭	10061
틮	10062
틯	10063
티	10064
틱	10065
틲	10066
틳	10067
틴	10068
틵	10069
틶	10070
틷	10071
틸	10072
틹	10073
틺	10074
틻	10075
틼	10076
틽	10077
틾	10078
틿	10079
팀	10080
팁	10081
팂	10082
팃	10083
팄	10084
팅	10085
팆	10086
팇	10087
팈	10088
팉	10089
팊	10090
팋	10091
파	10092
팍	10093
팎	10094
팏	10095
판	10096
팑	10097
팒	10098
팓	10099
팔	10100
팕	10101
팖	10102
팗	10103
팘	10104
팙	10105
팚	10106
팛	10107
팜	10108
팝	10109
팞	10110
팟	10111
팠	10112
팡	10113
팢	10114
팣	10115
팤	10116
팥	10117
팦	10118
팧	10119
패	10120
팩	10121
팪	10122
팫	10123
팬	10124
팭	10125
팮	10126
팯	10127
팰	10128
팱	10129
팲	10130
팳	10131
팴	10132
팵	10133
팶	10134
팷	10135
팸	10136
팹	10137
팺	10138
팻	10139
팽	10140
팾	10141
팿	10142
퍀	10143
퍁	10144
퍂	10145
퍃	10146
퍄	10147
퍅	10148
퍆	10149
퍇	10150
퍈	10151
퍉	10152
퍊	10153
퍋	10154
퍌	10155
퍍	10156
퍎	10157
퍏	10158
퍐	10159
퍑	10160
퍒	10161
퍓	10162
퍔	10163
퍕	10164
퍖	10165
퍗	10166
퍘	10167
퍙	10168
퍚	10169
퍛	10170
퍜	10171
퍝	10172
퍞	10173
퍟	10174
퍠	10175
퍡	10176
퍢	10177
퍣	10178
퍤	10179
퍥	10180
퍦	10181
퍧	10182
퍨	10183
퍩	10184
퍪	10185
퍫	10186
퍬	10187
퍭	10188
퍮	10189
퍯	10190
퍰	10191
퍱	10192
퍲	10193
퍳	10194
퍴	10195
퍵	10196
퍶	10197
퍷	10198
퍸	10199
퍹	10200
퍺	10201
퍻	10202
퍼	10203
퍽	10204
퍾	10205
퍿	10206
펀	10207
펁	10208
펂	10209
펃	10210
펄	10211
펅	10212
펆	10213
펇	10214
펈	10215
펉	10216
펊	10217
펋	10218
펌	10219
펍	10220
펎	10221
펏	10222
펐	10223
펑	10224
펒	10225
펓	10226
펔	10227
펕	10228
펖	10229
펗	10230
페	10231
펙	10232
펚	10233
펛	10234
펜	10235
펝	10236
펞	10237
펟	10238
펠	10239
펡	10240
펢	10241
펣	10242
펤	10243
펥	10244
펦	10245
펧	10246
펨	10247
펩	10248
펪	10249
펫	10250
펬	10251
펭	10252
펮	10253
펯	10254
펰	10255
펱	10256
펲	10257
펳	10258
펴	10259
펵	10260
펶	10261
펷	10262
편	10263
펹	10264
펺	10265
펻	10266
펼	10267
펽	10268
펾	10269
펿	10270
폀	10271
폁	10272
폂	10273
폃	10274
폄	10275
폅	10276
폆	10277
폇	10278
평	10279
폊	10280
폋	10281
폌	10282
폍	10283
폎	10284
폏	10285
폐	10286
폑	10287
폒	10288
폓	10289
폔	10290
폕	10291
폖	10292
폗	10293
폘	10294
폙	10295
폚	10296
폛	10297
폜	10298
폝	10299
폞	10300
폟	10301
폠	10302
폡	10303
폢	10304
폣	10305
폤	10306
폥	10307
폦	10308
폧	10309
폨	10310
폩	10311
폪	10312
폫	10313
포	10314
폭	10315
폮	10316
폯	10317
폰	10318
폱	10319
폲	10320
폳	10321
폴	10322
폵	10323
폶	10324
폷	10325
폸	10326
폹	10327
폺	10328
폻	10329
폼	10330
폽	10331
폾	10332
폿	10333
퐀	10334
퐁	10335
퐂	10336
퐃	10337
퐄	10338
퐅	10339
퐆	10340
퐇	10341
퐈	10342
퐉	10343
퐊	10344
퐋	10345
퐌	10346
퐍	10347
퐎	10348
퐏	10349
퐐	10350
퐑	10351
퐒	10352
퐓	10353
퐔	10354
퐕	10355
퐖	10356
퐗	10357
퐘	10358
퐙	10359
퐚	10360
퐛	10361
퐜	10362
퐝	10363
퐞	10364
퐟	10365
퐠	10366
퐡	10367
퐢	10368
퐣	10369
퐤	10370
퐥	10371
퐦	10372
퐧	10373
퐨	10374
퐩	10375
퐪	10376
퐫	10377
퐬	10378
퐭	10379
퐮	10380
퐯	10381
퐰	10382
퐱	10383
퐲	10384
퐳	10385
퐴	10386
퐵	10387
퐶	10388
퐷	10389
퐸	10390
퐹	10391
퐺	10392
퐻	10393
퐼	10394
퐽	10395
퐾	10396
퐿	10397
푀	10398
푁	10399
푂	10400
푃	10401
푄	10402
푅	10403
푆	10404
푇	10405
푈	10406
푉	10407
푊	10408
푋	10409
푌	10410
푍	10411
푎	10412
푏	10413
푐	10414
푑	10415
푒	10416
푓	10417
푔	10418
푕	10419
푖	10420
푗	10421
푘	10422
푙	10423
푚	10424
푛	10425
표	10426
푝	10427
푞	10428
푟	10429
푠	10430
푡	10431
푢	10432
푣	10433
푤	10434
푥	10435
푦	10436
푧	10437
푨	10438
푩	10439
푪	10440
푫	10441
푬	10442
푭	10443
푮	10444
푯	10445
푰	10446
푱	10447
푲	10448
푳	10449
푴	10450
푵	10451
푶	10452
푷	10453
푸	10454
푹	10455
푺	10456
푻	10457
푼	10458
푽	10459
푾	10460
푿	10461
풀	10462
풁	10463
풂	10464
풃	10465
풄	10466
풅	10467
풆	10468
풇	10469
품	10470
풉	10471
풊	10472
풋	10473
풌	10474
풍	10475
풎	10476
풏	10477
풐	10478
풑	10479
풒	10480
풓	10481
풔	10482
풕	10483
풖	10484
풗	10485
풘	10486
풙	10487
풚	10488
풛	10489
풜	10490
풝	10491
풞	10492
풟	10493
풠	10494
풡	10495
풢	10496
풣	10497
풤	10498
풥	10499
풦	10500
풧	10501
풨	10502
풩	10503
풪	10504
풫	10505
풬	10506
풭	10507
풮	10508
풯	10509
풰	10510
풱	10511
풲	10512
풳	10513
풴	10514
풵	10515
풶	10516
풷	10517
풸	10518
풹	10519
풺	10520
풻	10521
풼	10522
풽	10523
풾	10524
풿	10525
퓀	10526
퓁	10527
퓂	10528
퓃	10529
퓄	10530
퓅	10531
퓆	10532
퓇	10533
퓈	10534
퓉	10535
퓊	10536
퓋	10537
퓌	10538
퓍	10539
퓎	10540
퓏	10541
퓐	10542
퓑	10543
퓒	10544
퓓	10545
퓔	10546
퓕	10547
퓖	10548
퓗	10549
퓘	10550
퓙	10551
퓚	10552
퓛	10553
퓜	10554
퓝	10555
퓞	10556
퓟	10557
퓠	10558
퓡	10559
퓢	10560
퓣	10561
퓤	10562
퓥	10563
퓦	10564
퓧	10565
퓨	10566
퓩	10567
퓪	10568
퓫	10569
퓬	10570
퓭	10571
퓮	10572
퓯	10573
퓰	10574
퓱	10575
퓲	10576
퓳	10577
퓴	10578
퓵	10579
퓶	10580
퓷	10581
퓸	10582
퓹	10583
퓺	10584
퓻	10585
퓼	10586
퓽	10587
퓾	10588
퓿	10589
픀	10590
픁	10591
픂	10592
픃	10593
프	10594
픅	10595
픆	10596
픇	10597
픈	10598
픉	10599
픊	10600
픋	10601
플	10602
픍	10603
픎	10604
픏	10605
픐	10606
픑	10607
픒	10608
픓	10609
픔	10610
픕	10611
픖	10612
픗	10613
픘	10614
픙	10615
픚	10616
픛	10617
픜	10618
픝	10619
픞	10620
픟	10621
픠	10622
픡	10623
픢	10624
픣	10625
픤	10626
픥	10627
픦	10628
픧	10629
픨	10630
픩	10631
픪	10632
픫	10633
픬	10634
픭	10635
픮	10636
픯	10637
픰	10638
픱	10639
픲	10640
픳	10641
픴	10642
픵	10643
픶	10644
픷	10645
픸	10646
픹	10647
픺	10648
픻	10649
피	10650
픽	10651
픾	10652
픿	10653
핀	10654
핁	10655
핂	10656
핃	10657
필	10658
핅	10659
핆	10660
핇	10661
핈	10662
핉	10663
핊	10664
핋	10665
핌	10666
핍	10667
핎	10668
핏	10669
핐	10670
핑	10671
핒	10672
핓	10673
핔	10674
핕	10675
핖	10676
핗	10677
하	10678
학	10679
핚	10680
핛	10681
한	10682
핝	10683
핞	10684
핟	10685
할	10686
핡	10687
핢	10688
핣	10689
핤	10690
핥	10691
핦	10692
핧	10693
함	10694
합	10695
핪	10696
핫	10697
핬	10698
항	10699
핮	10700
핯	10701
핰	10702
핱	10703
핲	10704
핳	10705
해	10706
핵	10707
핶	10708
핷	10709
핸	10710
핹	10711
핺	10712
핻	10713
핼	10714
핽	10715
핾	10716
핿	10717
햀	10718
햁	10719
햂	10720
햃	10721
햄	10722
햅	10723
햆	10724
햇	10725
했	10726
행	10727
햊	10728
햋	10729
햌	10730
햍	10731
햎	10732
햏	10733
햐	10734
햑	10735
햒	10736
햓	10737
햔	10738
햕	10739
햖	10740
햗	10741
햘	10742
햙	10743
햚	10744
햛	10745
햜	10746
햝	10747
햞	10748
햟	10749
햠	10750
햡	10751
햢	10752
햣	10753
햤	10754
향	10755
햦	10756
햧	10757
햨	10758
햩	10759
햪	10760
햫	10761
햬	10762
햭	10763
햮	10764
햯	10765
햰	10766
햱	10767
햲	10768
햳	10769
햴	10770
햵	10771
햶	10772
햷	10773
햸	10774
햹	10775
햺	10776
햻	10777
햼	10778
햽	10779
햾	10780
햿	10781
헁	10782
헂	10783
헃	10784
헄	10785
헅	10786
헆	10787
헇	10788
허	10789
헉	10790
헊	10791
헋	10792
헌	10793
헍	10794
헎	10795
헏	10796
헐	10797
헑	10798
헒	10799
헓	10800
헔	10801
헕	10802
헖	10803
헗	10804
험	10805
헙	10806
헚	10807
헛	10808
헝	10809
헞	10810
헟	10811
헠	10812
헡	10813
헢	10814
헣	10815
헤	10816
헥	10817
헦	10818
헧	10819
헨	10820
헩	10821
헪	10822
헫	10823
헬	10824
헭	10825
헮	10826
헯	10827
헰	10828
헱	10829
헲	10830
헳	10831
헴	10832
헵	10833
헶	10834
헷	10835
헹	10836
헺	10837
헻	10838
헼	10839
헽	10840
헾	10841
헿	10842
혀	10843
혁	10844
혂	10845
혃	10846
현	10847
혅	10848
혆	10849
혇	10850
혈	10851
혉	10852
혊	10853
혋	10854
혌	10855
혍	10856
혎	10857
혏	10858
혐	10859
협	10860
혒	10861
혓	10862
혔	10863
형	10864
혖	10865
혗	10866
혘	10867
혙	10868
혚	10869
혛	10870
혜	10871
혝	10872
혞	10873
혟	10874
혠	10875
혡	10876
혢	10877
혣	10878
혤	10879
혥	10880
혦	10881
혧	10882
혨	10883
혩	10884
혪	10885
혫	10886
혬	10887
혭	10888
혮	10889
혯	10890
혰	10891
혱	10892
혲	10893
혳	10894
혴	10895
혵	10896
혶	10897
혷	10898
호	10899
혹	10900
혺	10901
혻	10902
혼	10903
혽	10904
혾	10905
혿	10906
홀	10907
홁	10908
홂	10909
홃	10910
홄	10911
홅	10912
홆	10913
홇	10914
홈	10915
홉	10916
홊	10917
홋	10918
홌	10919
홍	10920
홎	10921
홏	10922
홐	10923
홑	10924
홒	10925
홓	10926
화	10927
확	10928
홖	10929
홗	10930
환	10931
홙	10932
홚	10933
홛	10934
활	10935
홝	10936
홞	10937
홟	10938
홠	10939
홡	10940
홢	10941
홣	10942
홤	10943
홥	10944
홦	10945
홧	10946
홨	10947
황	10948
홪	10949
홫	10950
홬	10951
홭	10952
홮	10953
홯	10954
홰	10955
홱	10956
홲	10957
홳	10958
홴	10959
홵	10960
홶	10961
홷	10962
홸	10963
홹	10964
홺	10965
홻	10966
홼	10967
홽	10968
홾	10969
홿	10970
횀	10971
횁	10972
횂	10973
횃	10974
횄	10975
횅	10976
횆	10977
횇	10978
횈	10979
횉	10980
횊	10981
횋	10982
회	10983
획	10984
횎	10985
횏	10986
횐	10987
횑	10988
횒	10989
횓	10990
횔	10991
횕	10992
횖	10993
횗	10994
횘	10995
횙	10996
횚	10997
횛	10998
횜	10999
횝	11000
횞	11001
횟	11002
횠	11003
횡	11004
횢	11005
횣	11006
횤	11007
횥	11008
횦	11009
횧	11010
효	11011
횩	11012
횪	11013
횫	11014
횬	11015
횭	11016
횮	11017
횯	11018
횰	11019
횱	11020
횲	11021
횳	11022
횴	11023
횵	11024
횶	11025
횷	11026
횸	11027
횹	11028
횺	11029
횻	11030
횼	11031
횽	11032
횾	11033
횿	11034
훀	11035
훁	11036
훂	11037
훃	11038
후	11039
훅	11040
훆	11041
훇	11042
훈	11043
훉	11044
훊	11045
훋	11046
훌	11047
훍	11048
훎	11049
훏	11050
훐	11051
훑	11052
훒	11053
훓	11054
훔	11055
훕	11056
훖	11057
훗	11058
훘	11059
훙	11060
훚	11061
훛	11062
훜	11063
훝	11064
훞	11065
훟	11066
훠	11067
훡	11068
훢	11069
훣	11070
훤	11071
훥	11072
훦	11073
훧	11074
훨	11075
훩	11076
훪	11077
훫	11078
훬	11079
훭	11080
훮	11081
훯	11082
훰	11083
훱	11084
훲	11085
훳	11086
훴	11087
훵	11088
훶	11089
훷	11090
훸	11091
훹	11092
훺	11093
훻	11094
훼	11095
훽	11096
훾	11097
훿	11098
휀	11099
휁	11100
휂	11101
휃	11102
휄	11103
휅	11104
휆	11105
휇	11106
휈	11107
휉	11108
휊	11109
휋	11110
휌	11111
휍	11112
휎	11113
휏	11114
휐	11115
휑	11116
휒	11117
휓	11118
휔	11119
휕	11120
휖	11121
휗	11122
휘	11123
휙	11124
휚	11125
휛	11126
휜	11127
휝	11128
휞	11129
휟	11130
휠	11131
휡	11132
휢	11133
휣	11134
휤	11135
휥	11136
휦	11137
휧	11138
휨	11139
휩	11140
휪	11141
휫	11142
휬	11143
휭	11144
휮	11145
휯	11146
휰	11147
휱	11148
휲	11149
휳	11150
휴	11151
휵	11152
휶	11153
휷	11154
휸	11155
휹	11156
휺	11157
휻	11158
휼	11159
휽	11160
휾	11161
휿	11162
흀	11163
흁	11164
흂	11165
흃	11166
흄	11167
흅	11168
흆	11169
흇	11170
흈	11171
흉	11172
흊	11173
흋	11174
흌	11175
흍	11176
흎	11177
흏	11178
흐	11179
흑	11180
흒	11181
흓	11182
흔	11183
흕	11184
흖	11185
흗	11186
흘	11187
흙	11188
흚	11189
흛	11190
흜	11191
흝	11192
흞	11193
흟	11194
흠	11195
흡	11196
흢	11197
흣	11198
흤	11199
흥	11200
흦	11201
흧	11202
흨	11203
흩	11204
흪	11205
흫	11206
희	11207
흭	11208
흮	11209
흯	11210
흰	11211
흱	11212
흲	11213
흳	11214
흵	11215
흶	11216
흷	11217
흸	11218
흹	11219
흺	11220
흻	11221
흼	11222
흽	11223
흾	11224
흿	11225
힀	11226
힁	11227
힂	11228
힃	11229
힄	11230
힅	11231
힆	11232
힇	11233
히	11234
힉	11235
힊	11236
힋	11237
힌	11238
힍	11239
힎	11240
힏	11241
힐	11242
힑	11243
힒	11244
힓	11245
힔	11246
힕	11247
힖	11248
힗	11249
힘	11250
힙	11251
힚	11252
힛	11253
힜	11254
힝	11255
힞	11256
힟	11257
힠	11258
힡	11259
힢	11260
힣	11261
##o	11262
##u	11263
##t	11264
##b	11265
##e	11266
##r	11267
##라	11268
##츠	11269
##다	11270
##유	11271
##사	11272
##쿠	11273
##억	11274
##재	11275
##강	11276
##a	11277
##s	11278
##i	11279
##n	11280
##도	11281
##자	11282
##h	11283
##m	11284
##A	11285
##F	11286
##l	11287
##W	11288
##d	11289
##움	11290
##c	11291
##g	11292
##상	11293
##진	11294
##립	11295
##단	11296
##C	11297
##H	11298
##K	11299
##O	11300
##R	11301
##E	11302
##서	11303
##감	11304
##기	11305
##로	11306
##제	11307
##U	11308
##q	11309
##Z	11310
##P	11311
##B	11312
##치	11313
##영	11314
##y	11315
##x	11316
##0	11317
##1	11318
##8	11319
##6	11320
##2	11321
##5	11322
##3	11323
##k	11324
##v	11325
##w	11326
##키	11327
##즈	11328
##순	11329
##병	11330
##인	11331
##요	11332
##산	11333
##법	11334
##에	11335
##f	11336
##락	11337
##궁	11338
##9	11339
##7	11340
##j	11341
##z	11342
##나	11343
##이	11344
##소	11345
##정	11346
##p	11347
##S	11348
##I	11349
##리	11350
##월	11351
##은	11352
##숙	11353
##람	11354
##J	11355
##먼	11356
##Y	11357
##D	11358
##M	11359
##느	11360
##승	11361
##선	11362
##고	11363
##과	11364
##원	11365
##철	11366
##T	11367
##약	11368
##G	11369
##송	11370
##대	11371
##N	11372
##4	11373
##하	11374
##르	11375
##트	11376
##폰	11377
##작	11378
##센	11379
##바	11380
##마	11381
##공	11382
##괄	11383
##피	11384
##화	11385
##드	11386
##류	11387
##안	11388
##젤	11389
##든	11390
##테	11391
##루	11392
##L	11393
##주	11394
##보	11395
##각	11396
##건	11397
##림	11398
##수	11399
##우	11400
##문	11401
##임	11402
##차	11403
##크	11404
##롬	11405
##지	11406
##식	11407
##노	11408
##티	11409
##어	11410
##링	11411
##갈	11412
##덕	11413
##헤	11414
##푸	11415
##실	11416
##레	11417
##모	11418
##스	11419
##맥	11420
##슈	11421
##동	11422
##호	11423
##분	11424
##구	11425
##비	11426
##균	11427
##징	11428
##V	11429
##톡	11430
##턴	11431
##X	11432
##해	11433
##권	11434
##아	11435
##국	11436
##흑	11437
##곰	11438
##골	11439
##}	11440
##]	11441
##&	11442
##축	11443
##포	11444
##일	11445
##낙	11446
##코	11447
##조	11448
##데	11449
##빌	11450
##창	11451
##두	11452
##열	11453
##중	11454
##짐	11455
##ㅑ	11456
##ㅊ	11457
##업	11458
##욕	11459
##님	11460
##토	11461
##알	11462
##메	11463
##박	11464
##성	11465
##학	11466
##탱	11467
##적	11468
##!	11469
##란	11470
##한	11471
##곡	11472
##석	11473
##만	11474
##타	11475
##러	11476
##를	11477
##았	11478
##더	11479
##니	11480
##천	11481
##면	11482
##현	11483
##악	11484
##오	11485
##게	11486
##잡	11487
##네	11488
##옹	11489
##을	11490
##^	11491
##:	11492
##종	11493
##섭	11494
##괭	11495
##입	11496
##살	11497
##'	11498
##럼	11499
##갤	11500
##얀	11501
##민	11502
##왕	11503
##풀	11504
##캠	11505
##벨	11506
##망	11507
##완	11508
##미	11509
##븐	11510
##엔	11511
##쫄	11512
##시	11513
##전	11514
##부	11515
##ㅒ	11516
##ㅈ	11517
##빔	11518
##밥	11519
##츄	11520
##빈	11521
##쟁	11522
##뱀	11523
##울	11524
##{	11525
##,	11526
##\	11527
##;	11528
##훈	11529
##합	11530
##극	11531
##커	11532
##는	11533
##등	11534
##옥	11535
##뇌	11536
##연	11537
##의	11538
##워	11539
##쭉	11540
##댄	11541
##멸	11542
##파	11543
##퀴	11544
##너	11545
##버	11546
##틀	11547
##롱	11548
##졸	11549
##남	11550
##흥	11551
##항	11552
##채	11553
##용	11554
##츨	11555
##웨	11556
##책	11557
##럽	11558
##뜩	11559
##거	11560
##혁	11561
##략	11562
##뿔	11563
##.	11564
##"	11565
##-	11566
##형	11567
##팀	11568
##굽	11569
##신	11570
##돌	11571
##컴	11572
##퓨	11573
##터	11574
##속	11575
##증	11576
##장	11577
##샹	11578
##첸	11579
##히	11580
##홍	11581
##준	11582
##래	11583
##저	11584
##길	11585
##근	11586
##론	11587
##광	11588
##록	11589
##위	11590
##겨	11591
##가	11592
##홀	11593
##암	11594
##폼	11595
##령	11596
##혜	11597
##ㅠ	11598
##ㅎ	11599
##생	11600
##름	11601
##태	11602
##짜	11603
##물	11604
##튼	11605
##야	11606
##카	11607
##효	11608
##체	11609
##그	11610
##디	11611
##탄	11612
##와	11613
##환	11614
##쥐	11615
##렉	11616
##션	11617
##덤	11618
##양	11619
##관	11620
##블	11621
##둥	11622
##예	11623
##쇠	11624
##계	11625
##범	11626
##들	11627
##향	11628
##슨	11629
##챈	11630
##갑	11631
##웅	11632
##붙	11633
##깃	11634
##운	11635
##몽	11636
##폭	11637
##셸	11638
##금	11639
##집	11640
##봉	11641
##읍	11642
##횽	11643
##겁	11644
##프	11645
##륙	11646
##베	11647
##배	11648
##귀	11649
##세	11650
##발	11651
##흐	11652
##표	11653
##역	11654
##액	11655
##런	11656
##층	11657
##군	11658
##랑	11659
##룡	11660
##?	11661
##퍄	11662
##펠	11663
##클	11664
##린	11665
##ㅛ	11666
##ㄱ	11667
##글	11668
##방	11669
###	11670
##~	11671
##브	11672
##잔	11673
##경	11674
##쇼	11675
##몬	11676
##행	11677
##불	11678
##놈	11679
##쾌	11680
##납	11681
##설	11682
##탕	11683
##규	11684
##희	11685
##질	11686
##ㄶ	11687
##슬	11688
##목	11689
##픠	11690
##렌	11691
##청	11692
##춘	11693
##널	11694
##쉐	11695
##누	11696
##결	11697
##명	11698
##답	11699
##렸	11700
##던	11701
##심	11702
##쌀	11703
##막	11704
##걸	11705
##톨	11706
##온	11707
##색	11708
##윿	11709
##엓	11710
##ㅗ	11711
##ㄿ	11712
##끔	11713
##뜨	11714
##@	11715
##였	11716
##으	11717
##궤	11718
##익	11719
##굴	11720
##직	11721
##땅	11722
##춰	11723
##졌	11724
##룩	11725
##룽	11726
##개	11727
##머	11728
##뼈	11729
##급	11730
##량	11731
##력	11732
##+	11733
##것	11734
##언	11735
##족	11736
##녀	11737
##플	11738
##간	11739
##격	11740
##댕	11741
##떼	11742
##새	11743
##헌	11744
##뼉	11745
##끼	11746
##빗	11747
##무	11748
##/	11749
##찬	11750
##초	11751
##뀨	11752
##함	11753
##활	11754
##빛	11755
##잎	11756
##톤	11757
##묵	11758
##판	11759
##쵸	11760
##둑	11761
##ㅕ	11762
##ㅇ	11763
##취	11764
##씨	11765
##료	11766
##Q	11767
##샤	11768
##킨	11769
##칠	11770
##욱	11771
##쥔	11772
##쳐	11773
##렐	11774
##텐	11775
##잭	11776
##련	11777
##킹	11778
##엘	11779
##통	11780
##습	11781
##음	11782
##내	11783
##랜	11784
##달	11785
##ㅆ	11786
##ㅐ	11787
##처	11788
##쌍	11789
##닥	11790
##넨	11791
##풍	11792
##랄	11793
##앤	11794
##틸	11795
##삼	11796
##큼	11797
##칵	11798
##므	11799
##칭	11800
##잉	11801
##때	11802
##평	11803
##핏	11804
##(	11805
##)	11806
##넬	11807
##폴	11808
##앙	11809
##별	11810
##쥬	11811
##ㄺ	11812
##뚜	11813
##줄	11814
##ㅂ	11815
##케	11816
##페	11817
##꾜	11818
##셈	11819
##복	11820
##년	11821
##값	11822
##펨	11823
##죽	11824
##놀	11825
##숭	11826
##겸	11827
##밤	11828
##뀩	11829
##여	11830
##혼	11831
##퀘	11832
##매	11833
##릉	11834
##ㄷ	11835
##찰	11836
##맹	11837
##율	11838
##끈	11839
##후	11840
##룹	11841
##묘	11842
##켈	11843
##같	11844
##뾰	11845
##뿅	11846
##녘	11847
##쉬	11848
##윤	11849
##침	11850
##번	11851
##벌	11852
##늬	11853
##곤	11854
##늘	11855
##얼	11856
##윌	11857
##굠	11858
##험	11859
##절	11860
##ㅟ	11861
##ㅄ	11862
##교	11863
##혈	11864
##롤	11865
##릭	11866
##ㅡ	11867
##촌	11868
##추	11869
##북	11870
##$	11871
##맣	11872
##델	11873
##ㅋ	11874
##흠	11875
##농	11876
##출	11877
##싱	11878
##웃	11879
##없	11880
##룻	11881
##숲	11882
##>	11883
##셀	11884
##릿	11885
##깅	11886
##닝	11887
##햄	11888
##렬	11889
##텔	11890
##잘	11891
##렘	11892
##담	11893
##회	11894
##염	11895
##점	11896
##콕	11897
##쓰	11898
##반	11899
##둘	11900
##엽	11901
##총	11902
##*	11903
##까	11904
##컵	11905
##훼	11906
##ㅘ	11907
##손	11908
##띠	11909
##섬	11910
##왓	11911
##엿	11912
##퍼	11913
##싴	11914
##갠	11915
##투	11916
##긴	11917
##날	11918
##애	11919
##볼	11920
##충	11921
##털	11922
##었	11923
##랴	11924
##밋	11925
##했	11926
##벤	11927
##척	11928
##콘	11929
##밀	11930
##탁	11931
##륜	11932
##퇴	11933
##듯	11934
##눈	11935
##외	11936
##ㅅ	11937
##허	11938
##둬	11939
##낚	11940
##돔	11941
##ㄽ	11942
##큭	11943
##%	11944
##밴	11945
##택	11946
##논	11947
##곱	11948
##뺵	11949
##며	11950
##겐	11951
##흘	11952
##백	11953
##할	11954
##왈	11955
##품	11956
##밍	11957
##딘	11958
##곳	11959
##탈	11960
##싀	11961
##튽	11962
##쪽	11963
##찮	11964
##존	11965
##본	11966
##ㅞ	11967
##ㅍ	11968
##먹	11969
##틴	11970
##뒷	11971
##뉴	11972
##맨	11973
##필	11974
##탸	11975
##려	11976
##핵	11977
##참	11978
##귤	11979
##독	11980
##럴	11981
##웰	11982
##괘	11983
##홉	11984
##큐	11985
##싸	11986
##변	11987
##튜	11988
##ㄳ	11989
##잠	11990
##샘	11991
##넥	11992
##뜝	11993
##뿌	11994
##잇	11995
##난	11996
##닉	11997
##팅	11998
##견	11999
##객	12000
##긋	12001
##퉁	12002
##딱	12003
##콤	12004
##술	12005
##킬	12006
##녤	12007
##쯤	12008
##ㅜ	12009
##죠	12010
##첩	12011
##엇	12012
##엄	12013
##짱	12014
##응	12015
##렛	12016
##밖	12017
##딩	12018
##짝	12019
##벡	12020
##첼	12021
##냐	12022
##검	12023
##측	12024
##멕	12025
##쪼	12026
##뛰	12027
##썽	12028
##꾸	12029
##률	12030
##퀼	12031
##된	12032
##뭉	12033
##턱	12034
##뤼	12035
##찌	12036
##콩	12037
##힐	12038
##압	12039
##냉	12040
##쭈	12041
##촬	12042
##특	12043
##올	12044
##당	12045
##뇰	12046
##멘	12047
##ㄲ	12048
##휴	12049
##팔	12050
##뢰	12051
##즐	12052
##뱅	12053
##톈	12054
##득	12055
##접	12056
##능	12057
##ㄹ	12058
##ㅁ	12059
##앗	12060
##눞	12061
##뿍	12062
##륵	12063
##셔	12064
##켓	12065
##듀	12066
##져	12067
##웍	12068
##칸	12069
##김	12070
##좌	12071
##례	12072
##삭	12073
##녕	12074
##갓	12075
##륨	12076
##겔	12077
##섯	12078
##땁	12079
##랍	12080
##텟	12081
##뵈	12082
##윙	12083
##패	12084
##껏	12085
##써	12086
##ㅣ	12087
##릅	12088
##ㅝ	12089
##빼	12090
##콜	12091
##덴	12092
##셩	12093
##삐	12094
##쁘	12095
##`	12096
##핸	12097
##ㅌ	12098
##둔	12099
##촨	12100
##빠	12101
##혀	12102
##듬	12103
##붑	12104
##욘	12105
##ㅢ	12106
##씽	12107
##렁	12108
##황	12109
##쇄	12110
##념	12111
##덩	12112
##친	12113
##웩	12114
##뱃	12115
##=	12116
##_	12117
##펙	12118
##릴	12119
##덜	12120
##ㅚ	12121
##ㄵ	12122
##떤	12123
##첨	12124
##괴	12125
##셰	12126
##캄	12127
##말	12128
##앨	12129
##맞	12130
##훕	12131
##께	12132
##펜	12133
##튝	12134
##킴	12135
##ㅏ	12136
##받	12137
##떄	12138
##빨	12139
##롮	12140
##십	12141
##힛	12142
##켄	12143
##탑	12144
##꺽	12145
##딸	12146
##쉭	12147
##낸	12148
##벗	12149
##숫	12150
##뜻	12151
##[	12152
##ㄻ	12153
##짓	12154
##좀	12155
##뜰	12156
##휘	12157
##렴	12158
##풋	12159
##젠	12160
##짧	12161
##뜽	12162
##찔	12163
##췩	12164
##획	12165
##캐	12166
##줍	12167
##따	12168
##벽	12169
##뷰	12170
##ㄴ	12171
##템	12172
##팽	12173
##멍	12174
##롭	12175
##샨	12176
##툭	12177
##땡	12178
##핀	12179
##뽕	12180
##혹	12181
##넓	12182
##푼	12183
##춤	12184
##벳	12185
##팬	12186
##쪄	12187
##켜	12188
##젬	12189
##ㄾ	12190
##른	12191
##ㅖ	12192
##셉	12193
##엠	12194
##윽	12195
##솔	12196
##눟	12197
##굉	12198
##젝	12199
##픈	12200
##겠	12201
##똥	12202
##쟉	12203
##챳	12204
##ㅉ	12205
##쯔	12206
##꽈	12207
##듭	12208
##줌	12209
##편	12210
##텍	12211
##돈	12212
##뮤	12213
##착	12214
##쩍	12215
##꽃	12216
##얌	12217
##랭	12218
##꾼	12219
##녹	12220
##꼬	12221
##힌	12222
##삣	12223
##텃	12224
##캣	12225
##멜	12226
##팍	12227
##육	12228
##컥	12229
##걱	12230
##쒕	12231
##짠	12232
##뿐	12233
##췅	12234
##꼮	12235
##퐁	12236
##엑	12237
##삿	12238
##켐	12239
##닌	12240
##콰	12241
##붸	12242
##픽	12243
##ㅔ	12244
##윈	12245
##옇	12246
##캔	12247
##ㅓ	12248
##읽	12249
##몐	12250
##힘	12251
##뉘	12252
##껑	12253
##뤄	12254
##틱	12255
##럭	12256
##<	12257
##뇸	12258
##뻴	12259
##즘	12260
##깎	12261
##쪘	12262
##릇	12263
##큰	12264
##넷	12265
##읫	12266
##귯	12267
##쩌	12268
##훽	12269
##훙	12270
##띄	12271
##맙	12272
##놓	12273
##샬	12274
##있	12275
##째	12276
##넙	12277
##ㄼ	12278
##깔	12279
##듦	12280
##셜	12281
##룬	12282
##뇨	12283
##툴	12284
##녜	12285
##앵	12286
##닙	12287
##녠	12288
##펫	12289
##윗	12290
##흔	12291
##굼	12292
##쑈	12293
##즤	12294
##깟	12295
##뷸	12296
##ㅀ	12297
##휼	12298
##폐	12299
##줘	12300
##붕	12301
##샵	12302
##렇	12303
##밭	12304
##잣	12305
##썩	12306
##쿄	12307
##ㅙ	12308
##늄	12309
##빙	12310
##찍	12311
##믹	12312
##쭙	12313
##잖	12314
##확	12315
##곶	12316
##짤	12317
##웹	12318
##젓	12319
##멧	12320
##돼	12321
##뺑	12322
##츤	12323
##갱	12324
##셤	12325
##닐	12326
##죄	12327
##낑	12328
##쨋	12329
##떠	12330
##맵	12331
##핑	12332
##웜	12333
##댈	12334
##늑	12335
##맷	12336
##즙	12337
##뮈	12338
##텝	12339
##룸	12340
##깜	12341
##쉥	12342
##슥	12343
##딜	12344
##협	12345
##즉	12346
##슶	12347
##틊	12348
##옷	12349
##뽀	12350
##킷	12351
##퀄	12352
##톱	12353
##냄	12354
##껍	12355
##떡	12356
##늡	12357
##또	12358
##눙	12359
##캑	12360
##솥	12361
##쮸	12362
##묻	12363
##칼	12364
##팡	12365
##탓	12366
##껄	12367
##쑤	12368
##딤	12369
##뒤	12370
##몰	12371
##똔	12372
##솜	12373
##훔	12374
##벅	12375
##셋	12376
##낌	12377
##멀	12378
##깨	12379
##봐	12380
##슐	12381
##뢍	12382
##캘	12383
##팝	12384
##룀	12385
##얘	12386
##램	12387
##헑	12388
##냥	12389
##캉	12390
##큘	12391
##넘	12392
##꼴	12393
##굇	12394
##푀	12395
##욤	12396
##걀	12397
##쾅	12398
##밑	12399
##쿨	12400
##툰	12401
##팩	12402
##ㄸ	12403
##탐	12404
##닷	12405
##좍	12406
##뉻	12407
##뒨	12408
##똘	12409
##뺙	12410
##쓱	12411
##띰	12412
##롯	12413
##퉈	12414
##컨	12415
##쟌	12416
##겟	12417
##칙	12418
##끄	12419
##랫	12420
##댐	12421
##훤	12422
##쭘	12423
##슴	12424
##쩜	12425
##붓	12426
##융	12427
##뱉	12428
##궈	12429
##봇	12430
##및	12431
##랕	12432
##넌	12433
##킁	12434
##꽁	12435
##팃	12436
##앱	12437
##굿	12438
##헨	12439
##멬	12440
##햇	12441
##꺄	12442
##봙	12443
##찡	12444
##벼	12445
##펑	12446
##랏	12447
##뻬	12448
##쉴	12449
##밈	12450
##쳤	12451
##웬	12452
##꿀	12453
##뮬	12454
##낪	12455
##밊	12456
##되	12457
##쌰	12458
##씻	12459
##샐	12460
##뗘	12461
##낭	12462
##쿤	12463
##못	12464
##쑹	12465
##덟	12466
##흙	12467
##즁	12468
##펌	12469
##덮	12470
##쑝	12471
##랸	12472
##딕	12473
##숀	12474
##툉	12475
##뇬	12476
##낀	12477
##뮨	12478
##뻐	12479
##잼	12480
##깡	12481
##늦	12482
##빅	12483
##꺅	12484
##닢	12485
##젖	12486
##콧	12487
##녁	12488
##쿵	12489
##쓸	12490
##낼	12491
##덱	12492
##뮴	12493
##췌	12494
##떨	12495
##쟈	12496
##툠	12497
##똑	12498
##킥	12499
##뚱	12500
##갸	12501
##뎀	12502
##뻔	12503
##셍	12504
##쎄	12505
##닜	12506
##깥	12507
##엃	12508
##헣	12509
##헗	12510
##컼	12511
##뾱	12512
##떵	12513
##튀	12514
##핍	12515
##챠	12516
##힉	12517
##꺘	12518
##뜯	12519
##곽	12520
##둠	12521
##쑥	12522
##믈	12523
##얏	12524
##컬	12525
##궐	12526
##옘	12527
##썬	12528
##슘	12529
##믜	12530
##쥭	12531
##숍	12532
##옌	12533
##끝	12534
##퐈	12535
##닭	12536
##묜	12537
##쌩	12538
##헐	12539
##됴	12540
##즌	12541
##싹	12542
##촉	12543
##햅	12544
##깐	12545
##냠	12546
##렝	12547
##랩	12548
##슝	12549
##눌	12550
##쿙	12551
##꾹	12552
##맛	12553
##헬	12554
##벙	12555
##뇽	12556
##엡	12557
##돗	12558
##맑	12559
##렷	12560
##흉	12561
##넣	12562
##벰	12563
##츙	12564
##삽	12565
##뚤	12566
##쪠	12567
##낫	12568
##팜	12569
##퉤	12570
##씬	12571
##퍽	12572
##빵	12573
##딧	12574
##쳅	12575
##핌	12576
##뭄	12577
##엉	12578
##뜬	12579
##닫	12580
##삶	12581
##늉	12582
##빱	12583
##혔	12584
##띵	12585
##|	12586
##픔	12587
##쏭	12588
##깁	12589
##쁶	12590
##탤	12591
##갬	12592
##땐	12593
##팟	12594
##쨩	12595
##뒿	12596
##겜	12597
##쮜	12598
##뼤	12599
##얄	12600
##텅	12601
##랙	12602
##봄	12603
##쉽	12604
##떻	12605
##챗	12606
##숨	12607
##겅	12608
##츈	12609
##씹	12610
##걔	12611
##뵙	12612
##쿼	12613
##홧	12614
##엾	12615
##눔	12616
##탬	12617
##갔	12618
##뽄	12619
##셴	12620
##낵	12621
##옵	12622
##뼬	12623
##튬	12624
##꽝	12625
##믄	12626
##겼	12627
##툼	12628
##랰	12629
##쇳	12630
##뎃	12631
##뫙	12632
##숴	12633
##툽	12634
##빤	12635
##훌	12636
##윳	12637
##낱	12638
##멓	12639
##촤	12640
##촷	12641
##뫼	12642
##흡	12643
##듈	12644
##샷	12645
##깍	12646
##뼝	12647
##딛	12648
##뭇	12649
##릎	12650
##팸	12651
##뮌	12652
##찜	12653
##섕	12654
##댓	12655
##핟	12656
##뎨	12657
##봊	12658
##돤	12659
##벵	12660
##벚	12661
##뜸	12662
##됨	12663
##엥	12664
##렵	12665
##펔	12666
##뚠	12667
##윰	12668
##잨	12669
##않	12670
##듐	12671
##캢	12672
##욦	12673
##탯	12674
##ㅃ	12675
##빰	12676
##꼼	12677
##덞	12678
##긔	12679
##쎠	12680
##룰	12681
##혐	12682
##쮹	12683
##킄	12684
##컄	12685
##짘	12686
##싯	12687
##뎅	12688
##앳	12689
##놔	12690
##냑	12691
##캇	12692
##왁	12693
##젹	12694
##볶	12695
##톰	12696
##랗	12697
##탭	12698
##꺼	12699
##꿍	12700
##눅	12701
##땜	12702
##핫	12703
##맆	12704
##쉰	12705
##쏙	12706
##닿	12707
##쭁	12708
##렙	12709
##칫	12710
##왔	12711
##쉑	12712
##댔	12713
##뷔	12714
##딴	12715
##땀	12716
##늠	12717
##씅	12718
##닛	12719
##벞	12720
##읭	12721
##켚	12722
##앜	12723
##컭	12724
##쀼	12725
##챔	12726
##붉	12727
##츼	12728
##꿝	12729
##늰	12730
##뒁	12731
##똟	12732
##롄	12733
##팰	12734
##엣	12735
##옴	12736
##밟	12737
##웁	12738
##껀	12739
##깽	12740
##꺕	12741
##뇓	12742
##씀	12743
##놋	12744
##첬	12745
##땛	12746
##밻	12747
##샒	12748
##텀	12749
##펭	12750
##럿	12751
##펄	12752
##섹	12753
##쓔	12754
##쒀	12755
##엌	12756
##씩	12757
##숩	12758
##쌈	12759
##뉵	12760
##폿	12761
##팁	12762
##멈	12763
##쟣	12764
##최	12765
##꼭	12766
##폄	12767
##뚝	12768
##흫	12769
##핳	12770
##픗	12771
##탠	12772
##찐	12773
##쏘	12774
##낰	12775
##폘	12776
##웡	12777
##욜	12778
##앟	12779
##끌	12780
##썹	12781
##뉼	12782
##옛	12783
##헥	12784
##펀	12785
##쁑	12786
##헿	12787
##캌	12788
##컹	12789
##숑	12790
##컷	12791
##푯	12792
##륄	12793
##줏	12794
##뱔	12795
##꼐	12796
##쌓	12797
##큥	12798
##퐝	12799
##촐	12800
##덧	12801
##샥	12802
##됬	12803
##츀	12804
##듥	12805
##꺵	12806
##갛	12807
##쥥	12808
##갹	12809
##먄	12810
##믓	12811
##륭	12812
##랠	12813
##얹	12814
##븨	12815
##깄	12816
##젯	12817
##땃	12818
##샙	12819
##읗	12820
##뻘	12821
##쇽	12822
##듸	12823
##픅	12824
##쌔	12825
##뵤	12826
##푝	12827
##쳉	12828
##긇	12829
##흟	12830
##뽁	12831
##꽥	12832
##젼	12833
##끗	12834
##튠	12835
##륍	12836
##씁	12837
##낄	12838
##돋	12839
##젴	12840
##앉	12841
##먁	12842
##쨔	12843
##쭨	12844
##틈	12845
##큮	12846
##펩	12847
##벫	12848
##랼	12849
##눼	12850
##쉅	12851
##볍	12852
##깻	12853
##짚	12854
##줴	12855
##먐	12856
##먀	12857
##멩	12858
##섴	12859
##뭔	12860
##쥽	12861
##쩡	12862
##꾀	12863
##쩐	12864
##밧	12865
##뇻	12866
##뇾	12867
##칩	12868
##믁	12869
##홈	12870
##뾸	12871
##퐐	12872
##꺾	12873
##옙	12874
##윅	12875
##쎼	12876
##쌤	12877
##흣	12878
##댜	12879
##힗	12880
##듣	12881
##끽	12882
##햐	12883
##뷜	12884
##꿈	12885
##찻	12886
##갯	12887
##팥	12888
##쭌	12889
##쬐	12890
##룝	12891
##났	12892
##캎	12893
##귁	12894
##앞	12895
##삑	12896
##옿	12897
##띤	12898
##몇	12899
##뀌	12900
##챙	12901
##풉	12902
##둣	12903
##퀸	12904
##뷘	12905
##큅	12906
##샌	12907
##킼	12908
##뤀	12909
##붇	12910
##쓴	12911
##갖	12912
##뀽	12913
##짬	12914
##냇	12915
##헠	12916
##쩠	12917
##햘	12918
##녈	12919
##쳰	12920
##뒑	12921
##뚬	12922
##헉	12923
##힝	12924
##릏	12925
##밗	12926
##샴	12927
##쫜	12928
##훠	12929
##꼽	12930
##쨕	12931
##뿜	12932
##쉼	12933
##푹	12934
##뻑	12935
##좡	12936
##닊	12937
##콥	12938
##뢴	12939
##쭝	12940
##닯	12941
##쳇	12942
##쯸	12943
##댸	12944
##롼	12945
##퀵	12946
##덥	12947
##숟	12948
##슾	12949
##켠	12950
##윷	12951
##꿎	12952
##쩨	12953
##졀	12954
##맴	12955
##흰	12956
##륀	12957
##롸	12958
##탵	12959
##셥	12960
##쾨	12961
##텨	12962
##챡	12963
##씰	12964
##맏	12965
##늅	12966
##뮐	12967
##숄	12968
##벋	12969
##퓔	12970
##븀	12971
##톼	12972
##꿩	12973
##횡	12974
##홋	12975
##끓	12976
##삯	12977
##씌	12978
##멉	12979
##맘	12980
##캡	12981
##빽	12982
##붐	12983
##뻥	12984
##빕	12985
##썰	12986
##곧	12987
##뗑	12988
##뻡	12989
##넛	12990
##땽	12991
##멤	12992
##깩	12993
##낮	12994
##삥	12995
##봤	12996
##꿔	12997
##첵	12998
##싕	12999
##챦	13000
##찹	13001
##귿	13002
##핼	13003
##낏	13004
##좁	13005
##왜	13006
##틔	13007
##츰	13008
##쎌	13009
##틋	13010
##컫	13011
##껴	13012
##뫄	13013
##퉅	13014
##뒥	13015
##뎬	13016
##멋	13017
##썄	13018
##꽂	13019
##삠	13020
##댁	13021
##씸	13022
##훗	13023
##죌	13024
##햏	13025
##빡	13026
##쩔	13027
##챱	13028
##뎌	13029
##큿	13030
##퓌	13031
##퐄	13032
##헹	13033
##몸	13034
##췬	13035
##웠	13036
##쌘	13037
##옳	13038
##핰	13039
##쌉	13040
##슌	13041
##짭	13042
##뱌	13043
##횻	13044
##훨	13045
##높	13046
##왇	13047
##팎	13048
##잆	13049
##픖	13050
##텡	13051
##롹	13052
##촹	13053
##챸	13054
##둗	13055
##쉔	13056
##뜀	13057
##긍	13058
##뎡	13059
##얍	13060
##밸	13061
##쳌	13062
##셨	13063
##쒜	13064
##묑	13065
##뿛	13066
##뀍	13067
##뼜	13068
##뵷	13069
##꼈	13070
##챝	13071
##럐	13072
##쟙	13073
##헝	13074
##흄	13075
##읏	13076
##뱡	13077
##깬	13078
##쾰	13079
##짹	13080
##릐	13081
##뽑	13082
##뜳	13083
##앍	13084
##쀠	13085
##왉	13086
##얒	13087
##끙	13088
##샛	13089
##곀	13090
##뺴	13091
##깤	13092
##돫	13093
##땍	13094
##얇	13095
##뺀	13096
##껸	13097
##촵	13098
##댬	13099
##됭	13100
##킈	13101
##꺠	13102
##걕	13103
##묭	13104
##졔	13105
##짼	13106
##놰	13107
##뒈	13108
##궃	13109
##볏	13110
##휠	13111
##띡	13112
##쿰	13113
##흗	13114
##뢱	13115
##뻣	13116
##겻	13117
##썸	13118
##슙	13119
##왑	13120
##탔	13121
##곯	13122
##픓	13123
##읋	13124
##슛	13125
##냣	13126
##놉	13127
##냅	13128
##뽜	13129
##냘	13130
##뎁	13131
##둴	13132
##앓	13133
##밣	13134
##쥰	13135
##쭤	13136
##챨	13137
##콸	13138
##쯉	13139
##휏	13140
##듫	13141
##춉	13142
##꺌	13143
##퓰	13144
##쳑	13145
##끤	13146
##듟	13147
##쾡	13148
##롈	13149
##챤	13150
##훅	13151
##뷀	13152
##맢	13153
##닮	13154
##좆	13155
##헛	13156
##닼	13157
##릯	13158
##뙇	13159
##츌	13160
##솅	13161
##볘	13162
##앰	13163
##셒	13164
##췰	13165
##뤽	13166
##쾃	13167
##뒬	13168
##맫	13169
##촘	13170
##꾿	13171
##앋	13172
##넝	13173
##딪	13174
##캅	13175
##몫	13176
##끊	13177
##뼛	13178
##껠	13179
##삘	13180
##욧	13181
##뭐	13182
##뤠	13183
##캬	13184
##쨌	13185
##옆	13186
##듧	13187
##빳	13188
##엙	13189
##쭀	13190
##눗	13191
##꿉	13192
##뵐	13193
##딥	13194
##졋	13195
##핲	13196
##퉷	13197
##앚	13198
##옐	13199
##싼	13200
##쨘	13201
##펴	13202
##펐	13203
##곁	13204
##쿸	13205
##칰	13206
##몌	13207
##귄	13208
##홓	13209
##쯧	13210
##헴	13211
##뤵	13212
##떰	13213
##톳	13214
##훟	13215
##엤	13216
##잍	13217
##얻	13218
##췽	13219
##췄	13220
##뉜	13221
##뉨	13222
##킵	13223
##랬	13224
##겹	13225
##샅	13226
##캥	13227
##뵥	13228
##쑨	13229
##쥿	13230
##곲	13231
##횞	13232
##삾	13233
##켤	13234
##샠	13235
##쏫	13236
##룟	13237
##픳	13238
##깊	13239
##뵹	13240
##쟛	13241
##넴	13242
##죳	13243
##쁠	13244
##텁	13245
##랣	13246
##땗	13247
##켬	13248
##쁴	13249
##떈	13250
##껌	13251
##믕	13252
##끅	13253
##킦	13254
##끾	13255
##흿	13256
##섰	13257
##죡	13258
##솰	13259
##곗	13260
##졷	13261
##덦	13262
##웸	13263
##얐	13264
##쫑	13265
##쨍	13266
##믿	13267
##괵	13268
##톄	13269
##혠	13270
##돵	13271
##믱	13272
##챌	13273
##삵	13274
##넹	13275
##튿	13276
##헯	13277
##젧	13278
##줛	13279
##놗	13280
##괏	13281
##솫	13282
##뗛	13283
##몼	13284
##돇	13285
##돣	13286
##뢐	13287
##홳	13288
##잓	13289
##웫	13290
##룫	13291
##뺃	13292
##뗣	13293
##볕	13294
##왱	13295
##귱	13296
##밝	13297
##촙	13298
##젱	13299
##룅	13300
##곬	13301
##뭬	13302
##딯	13303
##웽	13304
##늕	13305
##슭	13306
##꿋	13307
##븓	13308
##쳄	13309
##늿	13310
##똏	13311
##삧	13312
##헵	13313
##쁨	13314
##궂	13315
##돖	13316
##캆	13317
##왒	13318
##싮	13319
##밦	13320
##곻	13321
##쿡	13322
##몆	13323
##틍	13324
##켕	13325
##튄	13326
##툑	13327
##둡	13328
##얗	13329
##맡	13330
##뛩	13331
##죨	13332
##휵	13333
##찾	13334
##췁	13335
##늙	13336
##숯	13337
##믐	13338
##퀀	13339
##뼥	13340
##륶	13341
##닏	13342
##눕	13343
##될	13344
##뗀	13345
##쫓	13346
##찟	13347
##쨉	13348
##뿁	13349
##꽌	13350
##팻	13351
##쬬	13352
##솟	13353
##슷	13354
##닦	13355
##춧	13356
##꼿	13357
##읪	13358
##픨	13359
##깝	13360
##쭐	13361
##솽	13362
##탼	13363
##맇	13364
##뚸	13365
##돚	13366
##쫙	13367
##챃	13368
##딍	13369
##칡	13370
##윱	13371
##죗	13372
##쎔	13373
##넉	13374
##삡	13375
##쎕	13376
##캰	13377
##쯱	13378
##띱	13379
##겋	13380
##켸	13381
##챰	13382
##꽊	13383
##쒸	13384
##묄	13385
##퓍	13386
##많	13387
##쟝	13388
##뽝	13389
##좋	13390
##몹	13391
##옺	13392
##툵	13393
##숏	13394
##욋	13395
##쉘	13396
##욷	13397
##휙	13398
##삔	13399
##힁	13400
##멱	13401
##뺏	13402
##윔	13403
##궖	13404
##궫	13405
##궋	13406
##닑	13407
##돕	13408
##뻗	13409
##겍	13410
##넵	13411
##풹	13412
##랃	13413
##솬	13414
##갚	13415
##솨	13416
##쳬	13417
##혬	13418
##댠	13419
##쏼	13420
##귓	13421
##꿨	13422
##젭	13423
##숎	13424
##닻	13425
##짢	13426
##뛣	13427
##홣	13428
##꾫	13429
##펍	13430
##썻	13431
##뤂	13432
##왼	13433
##즛	13434
##탹	13435
##귝	13436
##좐	13437
##뱨	13438
##뒓	13439
##쁙	13440
##뺩	13441
##뿮	13442
##뱦	13443
##셕	13444
##잿	13445
##쥘	13446
##쥴	13447
##폕	13448
##봑	13449
##냔	13450
##뚫	13451
##뽈	13452
##뻉	13453
##롷	13454
##횟	13455
##쌜	13456
##얔	13457
##휀	13458
##땨	13459
##짖	13460
##쏴	13461
##훍	13462
##겉	13463
##헙	13464
##켁	13465
##띨	13466
##윾	13467
##횬	13468
##빧	13469
##휭	13470
##춋	13471
##쵤	13472
##꿇	13473
##쏠	13474
##듕	13475
##롁	13476
##븝	13477
##웟	13478
##쁜	13479
##줭	13480
##늪	13481
##쵹	13482
##뎋	13483
##썷	13484
##좸	13485
##헱	13486
##롻	13487
##먗	13488
##쌥	13489
##틉	13490
##뒹	13491
##꽤	13492
##혓	13493
##솝	13494
##밬	13495
##푷	13496
##킳	13497
##븍	13498
##쏩	13499
##뺅	13500
##큇	13501
##옅	13502
##틷	13503
##햣	13504
##뿡	13505
##즑	13506
##쌕	13507
##돠	13508
##튕	13509
##볜	13510
##듁	13511
##걷	13512
##꽉	13513
##꽐	13514
##콴	13515
##섀	13516
##끜	13517
##뚞	13518
##룔	13519
##췻	13520
##뷴	13521
##졈	13522
##웈	13523
##텬	13524
##뎐	13525
##궬	13526
##뀫	13527
##쌱	13528
##볫	13529
##굵	13530
##퓩	13531
##찎	13532
##갷	13533
##볽	13534
##엮	13535
##솹	13536
##섞	13537
##렞	13538
##냈	13539
##퇼	13540
##봅	13541
##팈	13542
##긕	13543
##냙	13544
##랖	13545
##걍	13546
##헷	13547
##굄	13548
##죵	13549
##몃	13550
##큾	13551
##벖	13552
##텂	13553
##엊	13554
##읓	13555
##읔	13556
##엨	13557
##샄	13558
##뷉	13559
##벱	13560
##옻	13561
##떳	13562
##샻	13563
##쐐	13564
##귐	13565
##뀐	13566
##켰	13567
##뜫	13568
##앝	13569
##풒	13570
##뗏	13571
##렫	13572
##냏	13573
##뢸	13574
##븅	13575
##긧	13576
##큣	13577
##뀜	13578
##썝	13579
##뿉	13580
##푱	13581
##싐	13582
##돓	13583
##쑴	13584
##뚀	13585
##둈	13586
##랔	13587
##뾘	13588
##줓	13589
##딨	13590
##홐	13591
##뉸	13592
##힙	13593
##즹	13594
##쯪	13595
##왂	13596
##띔	13597
##슼	13598
##쏜	13599
##탇	13600
##엎	13601
##홰	13602
##븃	13603
##퍅	13604
##엫	13605
##탉	13606
##좇	13607
##툇	13608
##겊	13609
##됸	13610
##훜	13611
##윻	13612
##뗔	13613
##쎈	13614
##뫞	13615
##뿷	13616
##땞	13617
##밪	13618
##뒗	13619
##렜	13620
##됵	13621
##롊	13622
##웻	13623
##칟	13624
##뷇	13625
##뎍	13626
##쨰	13627
##륑	13628
##읅	13629
##낲	13630
##떽	13631
##놘	13632
##렀	13633
##뢔	13634
##슆	13635
##쌋	13636
##껫	13637
##왧	13638
##뷃	13639
##꿏	13640
##퀠	13641
##숕	13642
##츔	13643
##퀌	13644
##꺐	13645
##밉	13646
##랆	13647
##켑	13648
##뾲	13649
##찢	13650
##젔	13651
##낳	13652
##긱	13653
##곖	13654
##몀	13655
##좂	13656
##귬	13657
##졍	13658
##큠	13659
##튱	13660
##줵	13661
##왐	13662
##갉	13663
##팉	13664
##뙤	13665
##섶	13666
##쁅	13667
##뺡	13668
##뗡	13669
##퇗	13670
##읒	13671
##뭍	13672
##뚯	13673
##쮝	13674
##싟	13675
##꼰	13676
##툐	13677
##뗄	13678
##퇘	13679
##앸	13680
##쇅	13681
##윘	13682
##눤	13683
##햟	13684
##썅	13685
##푈	13686
##쁌	13687
##쯋	13688
##옮	13689
##뱁	13690
##됐	13691
##뇩	13692
##릘	13693
##핥	13694
##튮	13695
##돿	13696
##촡	13697
##멨	13698
##훳	13699
##죔	13700
##퉱	13701
##끍	13702
##휽	13703
##끠	13704
##촥	13705
##퇀	13706
##읖	13707
##짞	13708
##뿎	13709
##섈	13710
##맬	13711
##쩅	13712
##몊	13713
##쯕	13714
##볓	13715
##핤	13716
##롑	13717
##뿟	13718
##겿	13719
##둍	13720
##잽	13721
##콱	13722
##뀻	13723
##퓻	13724
##쬽	13725
##챵	13726
##롣	13727
##붹	13728
##괼	13729
##칞	13730
##녔	13731
##넡	13732
##셷	13733
##웝	13734
##뫃	13735
##뚷	13736
##뭏	13737
##붖	13738
##쫀	13739
##횔	13740
##뀪	13741
##긤	13742
##뎜	13743
##숱	13744
##뽱	13745
##룳	13746
##뱐	13747
##빚	13748
##칯	13749
##쫭	13750
##렡	13751
##흇	13752
##퐳	13753
##씉	13754
##뛃	13755
##괧	13756
##쭵	13757
##둉	13758
##큔	13759
##웉	13760
##엷	13761
##잋	13762
##슢	13763
##붝	13764
##얽	13765
##윹	13766
##싈	13767
##돩	13768
##쒹	13769
##끕	13770
##엗	13771
##녓	13772
##릾	13773
##봫	13774
##꼳	13775
##탘	13776
##쥠	13777
##웤	13778
##끨	13779
##낻	13780
##슽	13781
##퍙	13782
##끵	13783
##먏	13784
##넠	13785
##펼	13786
##큄	13787
##쉟	13788
##렣	13789
##벍	13790
##쀏	13791
##빩	13792
##싣	13793
##콬	13794
##톹	13795
##퐆	13796
##잰	13797
##냟	13798
##딫	13799
##몯	13800
##녑	13801
##쳔	13802
##뗻	13803
##띧	13804
##봡	13805
##굛	13806
##댦	13807
##뷁	13808
##겆	13809
##튺	13810
##꽇	13811
##쁟	13812
##	13813
##굥	13814
##혯	13815
##귖	13816
##궺	13817
##긲	13818
##깒	13819
##깛	13820
##긛	13821
##퍗	13822
##쳣	13823
##셱	13824
##쩬	13825
##뺼	13826
##돨	13827
##덫	13828
##쥣	13829
##쬲	13830
##먕	13831
##뺄	13832
##뫀	13833
##귈	13834
##풔	13835
##걲	13836
##맠	13837
##꼇	13838
##힡	13839
##캭	13840
##싄	13841
##퓸	13842
##삗	13843
##쿱	13844
##뜐	13845
##쪨	13846
##댱	13847
##쿳	13848
##삒	13849
##잌	13850
##춈	13851
##옾	13852
##뤯	13853
##룱	13854
##뻤	13855
##킅	13856
##쨥	13857
##벓	13858
##푠	13859
##픋	13860
##뺘	13861
##룐	13862
##빎	13863
##웆	13864
##몔	13865
##췛	13866
##숌	13867
##둇	13868
##툥	13869
##픤	13870
##홁	13871
##놨	13872
##쬷	13873
##홅	13874
##욿	13875
##쌻	13876
##풇	13877
##컿	13878
##횸	13879
##뚥	13880
##룺	13881
##찓	13882
##놏	13883
##콫	13884
##왘	13885
##횩	13886
##듄	13887
##뎻	13888
##돛	13889
##껰	13890
##줬	13891
##걋	13892
##뙳	13893
##홂	13894
##떅	13895
##젏	13896
##폵	13897
##숧	13898
##깏	13899
##좨	13900
##퀜	13901
##셧	13902
##돡	13903
##땝	13904
##븞	13905
##듮	13906
##괜	13907
##쫒	13908
##얅	13909
##롇	13910
##홝	13911
##샇	13912
##맺	13913
##핡	13914
##칽	13915
##줜	13916
##퀑	13917
##댧	13918
##댯	13919
##낟	13920
##쉡	13921
##쓩	13922
##믌	13923
##엪	13924
##릵	13925
##긞	13926
##긏	13927
##귺	13928
##궭	13929
##갭	13930
##잫	13931
##꿘	13932
##욺	13933
##햑	13934
##욣	13935
##씃	13936
##곈	13937
##긿	13938
##얶	13939
##섣	13940
##좹	13941
##뺨	13942
##츳	13943
##꿰	13944
##눝	13945
##넽	13946
##빻	13947
##굳	13948
##뺭	13949
##캤	13950
##쫣	13951
##똵	13952
##뽧	13953
##꽑	13954
##뽭	13955
##덿	13956
##밌	13957
##맄	13958
##빋	13959
##솩	13960
##썍	13961
##꺆	13962
##겡	13963
##떱	13964
##짒	13965
##챞	13966
##뭅	13967
##랒	13968
##흩	13969
##괳	13970
##꺙	13971
##껚	13972
##읶	13973
##꾱	13974
##뿗	13975
##냫	13976
##좟	13977
##밐	13978
##폯	13979
##짇	13980
##곺	13981
##쎅	13982
##쉏	13983
##삜	13984
##꿱	13985
##혻	13986
##뷫	13987
##퇸	13988
##깈	13989
##댑	13990
##땠	13991
##낛	13992
##읷	13993
##덗	13994
##볐	13995
##먳	13996
##맻	13997
##뮻	13998
##뭋	13999
##췍	14000
##껨	14001
##싫	14002
##쬴	14003
##됼	14004
##굑	14005
##잏	14006
##냬	14007
##큽	14008
##쵮	14009
##콦	14010
##엏	14011
##봬	14012
##뼸	14013
##귡	14014
##긮	14015
##깑	14016
##칣	14017
##튤	14018
##핱	14019
##흧	14020
##풮	14021
##쯩	14022
##훑	14023
##쬭	14024
##첫	14025
##닳	14026
##뿝	14027
##낯	14028
##쩝	14029
##갇	14030
##풱	14031
##뫅	14032
##윕	14033
##얖	14034
##춸	14035
##딈	14036
##싰	14037
##겧	14038
##읕	14039
##뮺	14040
##썼	14041
##뒫	14042
##뙈	14043
##볈	14044
##맓	14045
##싧	14046
##댋	14047
##삷	14048
##핿	14049
##줊	14050
##셟	14051
##섧	14052
##갊	14053
##핣	14054
##닚	14055
##닧	14056
##춱	14057
##듳	14058
##읃	14059
##릊	14060
##뛟	14061
##쁭	14062
##웳	14063
##묶	14064
##솁	14065
##휩	14066
##긶	14067
##엒	14068
##쉠	14069
##긁	14070
##뺌	14071
##끆	14072
##싁	14073
##곂	14074
##몄	14075
##빖	14076
##젮	14077
##훁	14078
##왠	14079
##뀰	14080
##뚧	14081
##좔	14082
##뿓	14083
##쵁	14084
##벜	14085
##붱	14086
##굣	14087
##왷	14088
##듹	14089
##궇	14090
##쭓	14091
##핧	14092
##쪙	14093
##씍	14094
##랐	14095
##뛸	14096
##뜷	14097
##뙗	14098
##퀙	14099
##셣	14100
##쉿	14101
##죰	14102
##폔	14103
##졉	14104
##쏨	14105
##훓	14106
##졧	14107
##쭊	14108
##슁	14109
##둅	14110
##닾	14111
##솎	14112
##궶	14113
##궻	14114
##랤	14115
##궢	14116
##긑	14117
##찧	14118
##벲	14119
##뗠	14120
##돘	14121
##촛	14122
##떙	14123
##뫌	14124
##힠	14125
##녯	14126
##쯰	14127
##뒝	14128
##졬	14129
##롓	14130
##썀	14131
##휗	14132
##슉	14133
##쳡	14134
##쬰	14135
##꾁	14136
##뽓	14137
##욹	14138
##톻	14139
##찷	14140
##뤙	14141
##쏚	14142
##쿶	14143
##큉	14144
##꼍	14145
##횦	14146
##쏀	14147
##렂	14148
##첮	14149
##뎂	14150
##닶	14151
##쏟	14152
##뤌	14153
##륽	14154
##쌐	14155
##솀	14156
##괆	14157
##헼	14158
##샢	14159
##뗶	14160
##뗵	14161
##벧	14162
##쩧	14163
##앆	14164
##풑	14165
##팂	14166
##얃	14167
##갗	14168
##퇵	14169
##툿	14170
##뺚	14171
##웗	14172
##꽯	14173
##튐	14174
##롫	14175
##뿀	14176
##푴	14177
##붘	14178
##뭘	14179
##돜	14180
##뷓	14181
##팠	14182
##릣	14183
##뤨	14184
##멦	14185
##뭭	14186
##뫟	14187
##쑼	14188
##컁	14189
##츩	14190
##휫	14191
##쑁	14192
##젋	14193
##벐	14194
##쀳	14195
##좊	14196
##덯	14197
##즬	14198
##괸	14199
##줆	14200
##죤	14201
##둙	14202
##띙	14203
##삮	14204
##얫	14205
##홑	14206
##뚮	14207
##쐙	14208
##뽟	14209
##뿨	14210
##쿜	14211
##껒	14212
##젊	14213
##흨	14214
##핻	14215
##콣	14216
##뤩	14217
##뎊	14218
##붚	14219
##쑊	14220
##찝	14221
##씤	14222
##쵼	14223
##딺	14224
##핚	14225
##똬	14226
##븟	14227
##탙	14228
##촾	14229
##굘	14230
##싶	14231
##챘	14232
##녿	14233
##꺢	14234
##텽	14235
##챕	14236
##헔	14237
##쟤	14238
##큪	14239
##핔	14240
##튭	14241
##흓	14242
##쎃	14243
##옠	14244
##뜜	14245
##귶	14246
##뙓	14247
##욀	14248
##랋	14249
##꽦	14250
##츺	14251
##쫩	14252
##얺	14253
##붏	14254
##껙	14255
##륷	14256
##퉹	14257
##꽹	14258
##뤕	14259
##텤	14260
##귪	14261
##궸	14262
##궼	14263
##퍝	14264
##홱	14265
##겴	14266
##콻	14267
##쵠	14268
##땩	14269
##럇	14270
##쥩	14271
##겕	14272
##췃	14273
##얭	14274
##똠	14275
##짙	14276
##뜵	14277
##뮹	14278
##띾	14279
##횅	14280
##쭛	14281
##셭	14282
##놑	14283
##룍	14284
##쟘	14285
##쨈	14286
##턻	14287
##끎	14288
##쥉	14289
##갰	14290
##쁐	14291
##벩	14292
##펡	14293
##듶	14294
##냌	14295
##둩	14296
##탒	14297
에서	14298
으로	14299
ㄴ다	14300
20	14301
지만	14302
에게	14303
201	14304
는데	14305
19	14306
까지	14307
때문	14308
아서	14309
##00	14310
아니	14311
라고	14312
라는	14313
으며	14314
다고	14315
나오	14316
면서	14317
보이	14318
10	14319
경우	14320
사용	14321
어서	14322
다는	14323
공격	14324
이후	14325
자신	14326
그리	14327
##레이	14328
사람	14329
위하	14330
대하	14331
정도	14332
부터	14333
##스트	14334
가능	14335
다른	14336
시키	14337
12	14338
보다	14339
이나	14340
200	14341
가지	14342
으나	14343
등장	14344
는다	14345
11	14346
아이	14347
그러	14348
그리고	14349
##어지	14350
게임	14351
하나	14352
버리	14353
경기	14354
..	14355
만들	14356
다가	14357
못하	14358
##er	14359
사실	14360
시간	14361
사이	14362
시작	14363
일본	14364
이름	14365
이상	14366
함께	14367
모습	14368
##니다	14369
따르	14370
##지만	14371
상대	14372
##어나	14373
15	14374
한국	14375
문제	14376
거나	14377
다시	14378
##in	14379
프로	14380
으면	14381
하지만	14382
##스터	14383
생각	14384
또한	14385
아야	14386
가장	14387
들어	14388
시즌	14389
당시	14390
캐릭	14391
##대로	14392
18	14393
ㄴ데	14394
##on	14395
처럼	14396
플레이	14397
당하	14398
캐릭터	14399
##이트	14400
능력	14401
모두	14402
ㄴ지	14403
상황	14404
상태	14405
아도	14406
모든	14407
그렇	14408
##or	14409
세계	14410
선수	14411
추가	14412
##an	14413
16	14414
결국	14415
현재	14416
카드	14417
스킬	14418
##미지	14419
다음	14420
통하	14421
지역	14422
미국	14423
다만	14424
ㄴ다는	14425
많이	14426
전투	14427
그러나	14428
30	14429
효과	14430
존재	14431
13	14432
199	14433
여기	14434
시리	14435
14	14436
##라이	14437
매우	14438
##ar	14439
대학	14440
라이	14441
17	14442
기록	14443
달리	14444
##he	14445
의하	14446
그런	14447
상당	14448
##at	14449
인하	14450
##리아	14451
시리즈	14452
스타	14453
레벨	14454
기술	14455
ㅂ니다	14456
레이	14457
처음	14458
다면	14459
무기	14460
이용	14461
영화	14462
물론	14463
부르	14464
이유	14465
방송	14466
자체	14467
100	14468
이것	14469
해당	14470
같이	14471
여러	14472
필요	14473
이런	14474
실제	14475
25	14476
일반	14477
들어가	14478
모르	14479
주인	14480
마법	14481
ㄴ다고	14482
리그	14483
거의	14484
돌아	14485
어야	14486
##리스	14487
학교	14488
역시	14489
바로	14490
##거리	14491
사건	14492
##en	14493
나가	14494
##이스	14495
관련	14496
특히	14497
다르	14498
이야	14499
위치	14500
기본	14501
2017	14502
부분	14503
대표	14504
국가	14505
##이지	14506
진행	14507
##ou	14508
그래	14509
피해	14510
##부분	14511
제작	14512
2018	14513
방어	14514
아무	14515
이야기	14516
활동	14517
동안	14518
는지	14519
##지막	14520
없이	14521
인간	14522
작품	14523
알리	14524
증가	14525
대부분	14526
##시아	14527
일부	14528
##al	14529
마지막	14530
2019	14531
지나	14532
본인	14533
계속	14534
자기	14535
21	14536
##es	14537
감독	14538
ㄴ가	14539
서울	14540
떨어지	14541
라면	14542
내용	14543
우리	14544
관계	14545
만큼	14546
올리	14547
2016	14548
중국	14549
50	14550
주인공	14551
속도	14552
이전	14553
##전히	14554
참고	14555
어도	14556
대신	14557
생기	14558
수준	14559
전쟁	14560
그냥	14561
비슷	14562
어느	14563
타이	14564
으니	14565
기준	14566
비하	14567
지금	14568
성공	14569
22	14570
198	14571
대한	14572
강하	14573
도시	14574
만나	14575
##민국	14576
이루	14577
도록	14578
밝히	14579
인물	14580
그녀	14581
결과	14582
24	14583
연구	14584
배우	14585
최대	14586
지원	14587
습니다	14588
상당히	14589
공격력	14590
올라	14591
기사	14592
마다	14593
평가	14594
시절	14595
##it	14596
그대로	14597
빠르	14598
대한민국	14599
나타	14600
자리	14601
의미	14602
너무	14603
##버지	14604
제외	14605
므로	14606
보스	14607
##토리	14608
죽이	14609
로서	14610
##부터	14611
소속	14612
전체	14613
실제로	14614
23	14615
보내	14616
2015	14617
승리	14618
직접	14619
이미	14620
##라지	14621
개발	14622
메이	14623
원래	14624
여자	14625
영상	14626
그것	14627
어렵	14628
언급	14629
유닛	14630
체력	14631
000	14632
##st	14633
##ing	14634
대로	14635
##le	14636
##ic	14637
##학교	14638
멤버	14639
포함	14640
데미지	14641
이동	14642
유저	14643
정보	14644
40	14645
마음	14646
방법	14647
설정	14648
##re	14649
싸우	14650
문서	14651
선택	14652
애니	14653
과거	14654
##가지	14655
ㄴ다면	14656
출연	14657
차이	14658
##랜드	14659
##운드	14660
##다가	14661
머리	14662
사회	14663
몬스터	14664
##이션	14665
친구	14666
불리	14667
발매	14668
성우	14669
설명	14670
우승	14671
이러	14672
여성	14673
대상	14674
##dd	14675
거리	14676
발생	14677
최고	14678
동시	14679
엄청	14680
소리	14681
프리	14682
시대	14683
플레이어	14684
바람	14685
장면	14686
아버지	14687
공식	14688
버전	14689
힘들	14690
사망	14691
프랑	14692
다니	14693
사랑	14694
대회	14695
영향	14696
바뀌	14697
##주의	14698
유명	14699
2014	14700
주로	14701
스럽	14702
결정	14703
또는	14704
주장	14705
이렇	14706
역사	14707
남자	14708
출신	14709
려고	14710
구성	14711
26	14712
파이	14713
##la	14714
정부	14715
인터	14716
일어나	14717
마이	14718
조금	14719
운영	14720
오르	14721
학생	14722
유지	14723
공개	14724
28	14725
나라	14726
음악	14727
버스	14728
##ff	14729
초반	14730
아이템	14731
서로	14732
중요	14733
독일	14734
전부	14735
새롭	14736
27	14737
정치	14738
대사	14739
방식	14740
과정	14741
빠지	14742
시스	14743
걸리	14744
the	14745
스토리	14746
월드	14747
##el	14748
파괴	14749
##이드	14750
나타나	14751
31	14752
모드	14753
형태	14754
최초	14755
강화	14756
역할	14757
제대로	14758
나이	14759
자주	14760
후반	14761
노래	14762
이때	14763
아직	14764
영국	14765
최종	14766
대전	14767
##am	14768
##om	14769
##라도	14770
##우스	14771
쓰이	14772
##벤트	14773
변경	14774
드라	14775
마리	14776
스테	14777
강력	14778
##머니	14779
누구	14780
이벤트	14781
기존	14782
회복	14783
정말	14784
197	14785
##이도	14786
조선	14787
비교	14788
보통	14789
##is	14790
그런데	14791
##프트	14792
드래	14793
정신	14794
라도	14795
느끼	14796
어떤	14797
마을	14798
마찬	14799
마찬가지	14800
##아가	14801
소환	14802
인기	14803
이기	14804
특성	14805
발견	14806
노선	14807
행동	14808
당연	14809
성능	14810
엄청나	14811
2013	14812
프랑스	14813
확률	14814
교육	14815
아래	14816
속성	14817
바꾸	14818
슈퍼	14819
아들	14820
모양	14821
자유	14822
바이	14823
오히	14824
차량	14825
대학교	14826
가깝	14827
##리어	14828
오히려	14829
어떻	14830
이제	14831
29	14832
라인	14833
##너지	14834
차지	14835
##et	14836
부족	14837
문화	14838
사라지	14839
32	14840
수록	14841
확인	14842
특수	14843
##ol	14844
활약	14845
게다가	14846
이번	14847
생산	14848
관리	14849
##ion	14850
유일	14851
시스템	14852
끝나	14853
모델	14854
00	14855
2012	14856
성격	14857
제국	14858
스트	14859
따라	14860
장비	14861
내리	14862
고등	14863
입장	14864
구하	14865
영웅	14866
맞추	14867
선거	14868
##디오	14869
다이	14870
일단	14871
아예	14872
축구	14873
이렇게	14874
계획	14875
운동	14876
어리	14877
돌아오	14878
반대	14879
심지	14880
2010	14881
202	14882
경찰	14883
주변	14884
먼저	14885
##레스	14886
기간	14887
우주	14888
자동	14889
심지어	14890
앨범	14891
위원	14892
개인	14893
km	14894
기능	14895
완전히	14896
##레이드	14897
조건	14898
##통령	14899
사진	14900
거기	14901
중심	14902
적용	14903
건물	14904
##nd	14905
지구	14906
드러	14907
부대	14908
##ow	14909
감소	14910
어요	14911
##il	14912
들어오	14913
60	14914
데이	14915
떠나	14916
으로서	14917
난이도	14918
##ig	14919
중앙	14920
발동	14921
##ed	14922
현대	14923
회사	14924
애니메	14925
열리	14926
초기	14927
자세	14928
실패	14929
##므로	14930
하이	14931
##인트	14932
지방	14933
시기	14934
대통령	14935
참여	14936
혹은	14937
##니아	14938
설치	14939
196	14940
35	14941
그래서	14942
세트	14943
표현	14944
지키	14945
작가	14946
드라마	14947
프로그	14948
던지	14949
민주	14950
어디	14951
돌아가	14952
라며	14953
물리	14954
다양	14955
국내	14956
덕분	14957
얼굴	14958
기관	14959
전혀	14960
데뷔	14961
TV	14962
반응	14963
동일	14964
지속	14965
출시	14966
패배	14967
##리카	14968
처리	14969
오브	14970
인정	14971
원작	14972
발표	14973
판매	14974
도움	14975
순간	14976
##ac	14977
모으	14978
획득	14979
##버스	14980
##as	14981
애니메이션	14982
그룹	14983
스페	14984
얼마	14985
무엇	14986
of	14987
구조	14988
명칭	14989
담당	14990
요구	14991
더라도	14992
후보	14993
날리	14994
##BS	14995
정확	14996
생활	14997
2011	14998
특별	14999
##없이	15000
진출	15001
하루	15002
시점	15003
##나마	15004
그렇게	15005
넘어	15006
굉장	15007
밖에	15008
선발	15009
작중	15010
단계	15011
영어	15012
상승	15013
국제	15014
기억	15015
움직	15016
##아내	15017
경제	15018
만화	15019
가격	15020
그림	15021
아군	15022
##ve	15023
항목	15024
##들이	15025
Lv	15026
올라가	15027
##소드	15028
세우	15029
마스터	15030
The	15031
아마	15032
시장	15033
실력	15034
그나마	15035
으므로	15036
가족	15037
참가	15038
로부터	15039
특징	15040
야구	15041
에피	15042
드래곤	15043
대체	15044
다며	15045
계약	15046
##비스	15047
았었	15048
사고	15049
방향	15050
이거	15051
아르	15052
조차	15053
미치	15054
01	15055
경험	15056
2000	15057
고려	15058
려는	15059
범위	15060
러시아	15061
브라	15062
##ot	15063
수비	15064
프로그램	15065
연기	15066
시청	15067
##로스	15068
디자	15069
##소리	15070
##뜨리	15071
##스크	15072
세대	15073
묘사	15074
500	15075
패치	15076
지니	15077
확실	15078
남기	15079
한테	15080
발사	15081
고등학교	15082
결혼	15083
주의	15084
폭발	15085
##으키	15086
에피소드	15087
80	15088
어머니	15089
활용	15090
밀리	15091
각각	15092
목적	15093
피하	15094
비판	15095
어떻게	15096
보호	15097
##ad	15098
더욱	15099
준비	15100
상위	15101
무시	15102
제공	15103
중간	15104
세기	15105
라서	15106
이어지	15107
주요	15108
국민	15109
37	15110
오리	15111
심하	15112
챔피	15113
45	15114
과학	15115
194	15116
조직	15117
인구	15118
조사	15119
유럽	15120
위험	15121
이미지	15122
아주	15123
라운드	15124
히로	15125
패턴	15126
버프	15127
굉장히	15128
이루어지	15129
세이	15130
내려	15131
단순	15132
크리스	15133
전하	15134
참조	15135
St	15136
진짜	15137
생명	15138
전문	15139
다루	15140
시도	15141
세력	15142
듯이	15143
약하	15144
대미지	15145
가리	15146
싸움	15147
일으키	15148
구간	15149
불구	15150
지하	15151
연속	15152
현실	15153
##머지	15154
나머지	15155
나쁘	15156
여담	15157
아프	15158
타입	15159
파워	15160
ㄹ지	15161
유리	15162
for	15163
안타	15164
출전	15165
##id	15166
소모	15167
부산	15168
성장	15169
순위	15170
조합	15171
규모	15172
약간	15173
논란	15174
동료	15175
70	15176
한정	15177
혼자	15178
포인트	15179
사실상	15180
항공	15181
나무	15182
지도	15183
여전히	15184
디자인	15185
노리	15186
##아오	15187
뛰어나	15188
기타	15189
운행	15190
##ay	15191
분위	15192
바라	15193
연결	15194
이해	15195
트리	15196
무장	15197
이탈	15198
90	15199
09	15200
한편	15201
##나라	15202
195	15203
FC	15204
소설	15205
##스로	15206
자연	15207
학년	15208
분위기	15209
훨씬	15210
예정	15211
취급	15212
으면서	15213
성적	15214
일정	15215
부상	15216
당연히	15217
등급	15218
사업	15219
블랙	15220
2009	15221
투수	15222
##ER	15223
##러지	15224
센터	15225
태어나	15226
마치	15227
02	15228
##ch	15229
해결	15230
향하	15231
변화	15232
mm	15233
연합	15234
삼성	15235
기대	15236
계열	15237
가져	15238
엔딩	15239
##us	15240
이르	15241
그래도	15242
최근	15243
추정	15244
300	15245
2008	15246
##이크	15247
방영	15248
##ir	15249
발전	15250
03	15251
방면	15252
스테이지	15253
수정	15254
기에	15255
종류	15256
의견	15257
48	15258
미션	15259
이라	15260
배치	15261
표기	15262
도망	15263
33	15264
잘못	15265
전용	15266
자면	15267
ㄹ까	15268
독립	15269
##다리	15270
그거	15271
36	15272
정상	15273
##ur	15274
05	15275
퀘스트	15276
속하	15277
작전	15278
소녀	15279
수상	15280
거대	15281
안정	15282
##스타	15283
대화	15284
터지	15285
엔진	15286
변하	15287
철도	15288
직업	15289
종료	15290
나중	15291
08	15292
움직이	15293
충분	15294
죽음	15295
요소	15296
스스로	15297
챔피언	15298
오래	15299
##티브	15300
도중	15301
거치	15302
수도	15303
비행	15304
07	15305
올라오	15306
에너지	15307
세상	15308
넘어가	15309
펼치	15310
기업	15311
붙이	15312
관하	15313
##란드	15314
공연	15315
동물	15316
특정	15317
지내	15318
건설	15319
비롯	15320
나누	15321
달성	15322
##od	15323
지지	15324
일행	15325
느낌	15326
##러스	15327
벌이	15328
행정	15329
벌어지	15330
##BC	15331
훈련	15332
싱글	15333
마저	15334
당신	15335
전기	15336
보상	15337
HP	15338
전설	15339
미사	15340
졸업	15341
만드	15342
무리	15343
장착	15344
스카	15345
##im	15346
남성	15347
신경	15348
스피	15349
방어력	15350
##..	15351
부활	15352
배틀	15353
다리	15354
지휘	15355
06	15356
유니	15357
로마	15358
황제	15359
절대	15360
위기	15361
관심	15362
군사	15363
th	15364
##자기	15365
따라서	15366
내부	15367
올림	15368
반면	15369
포켓	15370
번역	15371
제목	15372
요리	15373
미래	15374
번호	15375
2007	15376
##ut	15377
공간	15378
더불	15379
##un	15380
거두	15381
목표	15382
서비스	15383
##어들	15384
점수	15385
만약	15386
이끌	15387
득점	15388
바르	15389
아이돌	15390
근접	15391
시험	15392
전국	15393
가르	15394
04	15395
전차	15396
마르	15397
소재	15398
충격	15399
의원	15400
##지션	15401
SK	15402
시설	15403
오늘	15404
목소리	15405
홈런	15406
전사	15407
무대	15408
정체	15409
34	15410
##데이트	15411
사이트	15412
인도	15413
업데이트	15414
지정	15415
작업	15416
저지	15417
분류	15418
스파	15419
작곡	15420
you	15421
배경	15422
돌리	15423
장소	15424
똑같	15425
가끔	15426
##리오	15427
도로	15428
타격	15429
##ro	15430
최소	15431
어찌	15432
##인물	15433
교체	15434
링크	15435
으로써	15436
공중	15437
항상	15438
생존	15439
##디어	15440
##트리	15441
북한	15442
높이	15443
전작	15444
스포	15445
각성	15446
부여	15447
##다니	15448
파티	15449
예상	15450
단체	15451
그만	15452
분노	15453
정식	15454
193	15455
클래	15456
##너스	15457
넘기	15458
야마	15459
아라	15460
으려	15461
제한	15462
##수록	15463
가수	15464
##ver	15465
베이	15466
등장인물	15467
##igh	15468
##ec	15469
사냥	15470
##ag	15471
포켓몬	15472
자랑	15473
스타일	15474
얘기	15475
엘리	15476
결승	15477
38	15478
2020	15479
인사	15480
소개	15481
늘어나	15482
2006	15483
올림픽	15484
cm	15485
목록	15486
외국	15487
종족	15488
##ent	15489
비밀	15490
##운데	15491
인터뷰	15492
기계	15493
악마	15494
이어	15495
##동안	15496
이탈리아	15497
개념	15498
명령	15499
수행	15500
필드	15501
75	15502
카이	15503
초등	15504
크리	15505
교통	15506
애초	15507
이외	15508
괜찮	15509
ㄹ로	15510
판정	15511
타카	15512
기반	15513
연출	15514
정하	15515
각종	15516
in	15517
하늘	15518
병력	15519
지상	15520
클리어	15521
로봇	15522
군대	15523
##드리	15524
55	15525
제일	15526
전반	15527
##보이	15528
기체	15529
비용	15530
카운	15531
확정	15532
기동	15533
설립	15534
크기	15535
가운데	15536
프레	15537
##화국	15538
케이	15539
##ak	15540
표시	15541
인식	15542
파일	15543
경쟁	15544
갖추	15545
##라인	15546
행위	15547
건담	15548
정작	15549
사항	15550
평균	15551
시티	15552
레어	15553
##um	15554
통합	15555
교수	15556
별로	15557
##젝트	15558
아카	15559
장갑	15560
라이브	15561
to	15562
드러나	15563
화력	15564
포지션	15565
##비아	15566
수치	15567
니까	15568
정의	15569
왕국	15570
사격	15571
따로	15572
근처	15573
완전	15574
병원	15575
진화	15576
저항	15577
감정	15578
',	15579
월드컵	15580
국회	15581
아키	15582
보유	15583
집중	15584
사거리	15585
노력	15586
환경	15587
전자	15588
갑자기	15589
인천	15590
누르	15591
변신	15592
기회	15593
42	15594
언제	15595
##아들이	15596
임무	15597
나름	15598
의식	15599
자원	15600
고양	15601
단점	15602
직전	15603
코스	15604
특이	15605
##르트	15606
정리	15607
살리	15608
드리	15609
##em	15610
부정	15611
제품	15612
단어	15613
오버	15614
부모	15615
vs	15616
현상	15617
탈출	15618
던전	15619
오른	15620
냐고	15621
위원회	15622
사례	15623
레인	15624
##ST	15625
##ula	15626
압도	15627
이닝	15628
치료	15629
마시	15630
##라스	15631
소련	15632
주제	15633
효율	15634
판단	15635
##ub	15636
잠시	15637
다크	15638
때리	15639
아파	15640
극장	15641
사정	15642
2005	15643
아스	15644
촬영	15645
시전	15646
어쩌	15647
본래	15648
지배	15649
원인	15650
나서	15651
느리	15652
이쪽	15653
가문	15654
더니	15655
치명	15656
주민	15657
form	15658
정책	15659
제거	15660
요시	15661
도입	15662
대구	15663
옮기	15664
ㅏㅆ	15665
유사	15666
##000	15667
여행	15668
전력	15669
무슨	15670
상관	15671
밴드	15672
동생	15673
##말로	15674
192	15675
삭제	15676
고속	15677
##루스	15678
스코	15679
주문	15680
공동	15681
기념	15682
실험	15683
도쿄	15684
강제	15685
파트	15686
해군	15687
의외	15688
책임	15689
사무	15690
formula	15691
중학교	15692
병사	15693
포기	15694
키우	15695
역대	15696
의사	15697
연습	15698
물건	15699
복귀	15700
이하	15701
발언	15702
##무리	15703
골드	15704
전개	15705
도전	15706
##야마	15707
완성	15708
##어로	15709
##ight	15710
언어	15711
음식	15712
##요일	15713
고정	15714
기다리	15715
앞서	15716
새로	15717
바다	15718
나이트	15719
노트	15720
위력	15721
이적	15722
2004	15723
살인	15724
으로부터	15725
41	15726
차원	15727
공주	15728
접근	15729
다수	15730
직후	15731
화면	15732
점프	15733
려면	15734
모이	15735
레드	15736
페이	15737
루트	15738
확장	15739
제도	15740
중반	15741
##학생	15742
불가	15743
전략	15744
39	15745
받아들이	15746
정당	15747
도착	15748
음반	15749
끝내	15750
별명	15751
##모토	15752
선생	15753
시민	15754
가치	15755
사상	15756
히어로	15757
사기	15758
정규	15759
히트	15760
버티	15761
분명	15762
에게서	15763
고자	15764
산업	15765
미니	15766
잡히	15767
숨기	15768
타임	15769
티어	15770
어둠	15771
##ce	15772
마나	15773
연장	15774
오프	15775
투표	15776
무려	15777
구역	15778
LG	15779
빌리	15780
대기	15781
마사	15782
조종	15783
신체	15784
종교	15785
로드	15786
장치	15787
줄이	15788
소유	15789
일러	15790
##os	15791
자료	15792
추천	15793
아파트	15794
ㅓㅆ	15795
녀석	15796
크로	15797
EX	15798
은데	15799
회피	15800
노동	15801
살아	15802
고대	15803
이곳	15804
구매	15805
##르크	15806
형식	15807
예전	15808
##AR	15809
##ri	15810
빨리	15811
인터넷	15812
##드시	15813
리더	15814
##시마	15815
타이틀	15816
##그레이드	15817
업그레이드	15818
라이트	15819
탈락	15820
사령	15821
롯데	15822
폭탄	15823
반드시	15824
해외	15825
44	15826
단지	15827
교회	15828
아내	15829
미사일	15830
랭크	15831
금지	15832
학원	15833
Ch	15834
우선	15835
완벽	15836
부탁	15837
심각	15838
달러	15839
클럽	15840
##AN	15841
2002	15842
실시	15843
이라고	15844
##역시	15845
일러스트	15846
데스	15847
하드	15848
범죄	15849
장점	15850
검사	15851
191	15852
합류	15853
이사	15854
##ON	15855
추측	15856
구분	15857
##ap	15858
43	15859
최강	15860
##and	15861
몇몇	15862
선정	15863
99	15864
로스	15865
조정	15866
##이치	15867
공포	15868
대장	15869
전통	15870
데이터	15871
차례	15872
가사	15873
마무리	15874
취하	15875
열차	15876
요청	15877
행사	15878
No	15879
위키	15880
버그	15881
프로젝트	15882
그리스	15883
종종	15884
자마	15885
선언	15886
구단	15887
스포츠	15888
##트라	15889
연재	15890
점점	15891
대중	15892
스페인	15893
st	15894
수많	15895
즐기	15896
컴퓨	15897
가드	15898
개최	15899
개월	15900
서버	15901
##이어	15902
재료	15903
설계	15904
보병	15905
##아하	15906
에이	15907
옵션	15908
뉴스	15909
##러리	15910
46	15911
조작	15912
형제	15913
47	15914
kg	15915
다소	15916
51	15917
광고	15918
민족	15919
생물	15920
##나이	15921
포스	15922
그야	15923
타자	15924
마법사	15925
암살	15926
걱정	15927
부하	15928
거부	15929
좋아하	15930
언론	15931
채우	15932
KBS	15933
##ter	15934
입히	15935
개그	15936
연주	15937
채널	15938
성향	15939
컴퓨터	15940
통신	15941
and	15942
해석	15943
코드	15944
자마자	15945
평범	15946
보조	15947
고르	15948
한계	15949
종합	15950
디스	15951
##조건	15952
실점	15953
아쉽	15954
기지	15955
개봉	15956
전화	15957
행성	15958
회의	15959
그야말로	15960
재미	15961
회장	15962
2003	15963
복수	15964
52	15965
대결	15966
##ul	15967
##FA	15968
투입	15969
아무리	15970
지적	15971
비중	15972
워낙	15973
지명	15974
가정	15975
다행	15976
박사	15977
원정	15978
본격	15979
미드	15980
운용	15981
알아	15982
한글	15983
자동차	15984
##아지	15985
광주	15986
위협	15987
무한	15988
정확히	15989
스위	15990
집단	15991
영혼	15992
소년	15993
소비	15994
인상	15995
등록	15996
모자	15997
실수	15998
무조건	15999
##op	16000
%,	16001
##무라	16002
MA	16003
##IN	16004
평소	16005
냐는	16006
상징	16007
페르	16008
1000	16009
대응	16010
굳이	16011
카메	16012
공사	16013
줄어들	16014
생성	16015
##자리	16016
##버리	16017
##타임	16018
와중	16019
##니스	16020
대형	16021
체제	16022
##ck	16023
대비	16024
충분히	16025
##로드	16026
사태	16027
태양	16028
##ation	16029
는가	16030
##의원	16031
보컬	16032
조각	16033
##리트	16034
아웃	16035
편성	16036
군단	16037
통과	16038
여름	16039
65	16040
다운	16041
전원	16042
보너스	16043
육군	16044
150	16045
분리	16046
터미	16047
이론	16048
공항	16049
플래	16050
희생	16051
개조	16052
형성	16053
분야	16054
시청자	16055
방문	16056
뿌리	16057
##ra	16058
일종	16059
MBC	16060
무사	16061
특유	16062
기자	16063
도망치	16064
가면	16065
제안	16066
##로그	16067
을지	16068
장군	16069
SP	16070
동맹	16071
고양이	16072
치르	16073
봉인	16074
마력	16075
네이	16076
##려가	16077
디지	16078
스크	16079
벗어나	16080
64	16081
전환	16082
II	16083
발음	16084
로써	16085
오리지	16086
장기	16087
가하	16088
얼마나	16089
반복	16090
시나	16091
장르	16092
점령	16093
드러내	16094
안전	16095
오랜	16096
의도	16097
##튜브	16098
간단	16099
##일러	16100
You	16101
경기도	16102
소식	16103
ㅏ서	16104
먹이	16105
예선	16106
불과	16107
빼앗	16108
유튜브	16109
서술	16110
##오르	16111
개선	16112
합치	16113
##시스	16114
함정	16115
유도	16116
사쿠	16117
바닥	16118
마크	16119
##려오	16120
흡수	16121
영입	16122
##남도	16123
##텐츠	16124
에스	16125
초대	16126
공화국	16127
브레이	16128
평화	16129
그때	16130
근데	16131
##니티	16132
##art	16133
400	16134
코치	16135
규정	16136
괴물	16137
는다는	16138
의지	16139
저격	16140
투자	16141
기원	16142
독자	16143
라디오	16144
비디오	16145
미리	16146
숫자	16147
확보	16148
예술	16149
전술	16150
액션	16151
최후	16152
원하	16153
방해	16154
가져오	16155
진입	16156
수사	16157
이치	16158
따지	16159
매일	16160
오토	16161
비트	16162
필살	16163
공략	16164
##오스	16165
놀라	16166
49	16167
화염	16168
가스	16169
2001	16170
주력	16171
인원	16172
##런스	16173
클래스	16174
##나가	16175
그저	16176
은퇴	16177
적극	16178
외모	16179
보도	16180
56	16181
관통	16182
걸치	16183
흐르	16184
장난	16185
승부	16186
찾아오	16187
들리	16188
터미널	16189
체육	16190
지나가	16191
적절	16192
VS	16193
모험	16194
왼쪽	16195
목숨	16196
AP	16197
계기	16198
포르	16199
컨셉	16200
인류	16201
눈물	16202
In	16203
아름	16204
##니까	16205
구축	16206
패러	16207
방패	16208
1990	16209
느냐	16210
상자	16211
작성	16212
서브	16213
회전	16214
자라	16215
완료	16216
주연	16217
뮤직	16218
리어	16219
공부	16220
알렉	16221
사과	16222
##올리	16223
부수	16224
##동생	16225
트랙	16226
한국어	16227
편집	16228
54	16229
장관	16230
함대	16231
의심	16232
거짓	16233
아프리카	16234
53	16235
분석	16236
솔로	16237
##모리	16238
살아남	16239
오리지널	16240
저지르	16241
수리	16242
안드	16243
더블	16244
질문	16245
##스케	16246
보수	16247
들이	16248
PC	16249
역전	16250
민주당	16251
단순히	16252
약점	16253
인형	16254
필수	16255
아시아	16256
ㄴ지라	16257
##페이지	16258
코어	16259
경상	16260
마침	16261
임명	16262
황금	16263
##ia	16264
##라이더	16265
...	16266
끌어	16267
시내	16268
쓰러지	16269
190	16270
재판	16271
##나다	16272
풀리	16273
오스	16274
장애	16275
대단	16276
##로우	16277
85	16278
사단	16279
착용	16280
성인	16281
인민	16282
해제	16283
중단	16284
##래프트	16285
꾸준	16286
경계	16287
##ie	16288
##레이션	16289
##시브	16290
##ill	16291
홈페이지	16292
드라이	16293
비난	16294
소프트	16295
현장	16296
미스	16297
승강	16298
작용	16299
하위	16300
상대방	16301
엄마	16302
청소	16303
희망	16304
날개	16305
사장	16306
카페	16307
습격	16308
허용	16309
수원	16310
인지	16311
선보이	16312
공원	16313
데리	16314
진정	16315
편하	16316
코스트	16317
관광	16318
유래	16319
제시	16320
원거리	16321
무력	16322
지식	16323
블루	16324
선물	16325
코믹	16326
수호	16327
영역	16328
##RA	16329
스마	16330
남편	16331
기획	16332
가슴	16333
베르	16334
주도	16335
ST	16336
명중	16337
수단	16338
바탕	16339
##IA	16340
아름답	16341
##북도	16342
##ik	16343
이스	16344
부리	16345
오른쪽	16346
태도	16347
본선	16348
모티브	16349
거주	16350
에이스	16351
행복	16352
어라	16353
##무원	16354
탑재	16355
확실히	16356
카즈	16357
비고	16358
나카	16359
저주	16360
리스	16361
감안	16362
직원	16363
체계	16364
측면	16365
59	16366
##워드	16367
지나치	16368
멈추	16369
표정	16370
도서	16371
##ab	16372
무섭	16373
주목	16374
테크	16375
쿨타임	16376
돌파	16377
상처	16378
고통	16379
의문	16380
##마스	16381
가까	16382
베이스	16383
텔레	16384
친하	16385
##est	16386
그라	16387
제기	16388
보급	16389
나타내	16390
딱히	16391
뉴욕	16392
테마	16393
##연히	16394
72	16395
게이	16396
업무	16397
기점	16398
당장	16399
지점	16400
공장	16401
소울	16402
58	16403
망하	16404
협력	16405
유우	16406
고유	16407
여부	16408
120	16409
기어	16410
불명	16411
멀티	16412
부인	16413
##th	16414
비싸	16415
57	16416
62	16417
대답	16418
온라인	16419
순서	16420
통일	16421
문자	16422
날아가	16423
카메라	16424
위주	16425
아요	16426
귀족	16427
우수	16428
연방	16429
후속	16430
##all	16431
제압	16432
##울리	16433
멀리	16434
계산	16435
챙기	16436
박스	16437
잠깐	16438
소수	16439
나뉘	16440
을까	16441
카운터	16442
꺼내	16443
문명	16444
당선	16445
MP	16446
##ea	16447
진영	16448
멸망	16449
66	16450
1999	16451
차별	16452
95	16453
패스	16454
건너	16455
후지	16456
은행	16457
##트롤	16458
횟수	16459
에어	16460
버튼	16461
약속	16462
혁명	16463
케이스	16464
시나리오	16465
드립	16466
Lo	16467
내려가	16468
제조	16469
Sh	16470
##ct	16471
국회의원	16472
코너	16473
Re	16474
크로스	16475
오후	16476
마츠	16477
고서	16478
1998	16479
겨우	16480
살해	16481
붕괴	16482
달라지	16483
지옥	16484
자격	16485
특기	16486
오스트	16487
삼국	16488
상하	16489
스케	16490
최악	16491
듀얼	16492
##붙이	16493
on	16494
증거	16495
스펙	16496
연계	16497
개편	16498
외부	16499
ㄹ수록	16500
눈치	16501
늘리	16502
퍼지	16503
##스티	16504
##머리	16505
가볍	16506
시체	16507
유키	16508
딜러	16509
##다르	16510
군인	16511
Sp	16512
##니어	16513
겨울	16514
군주	16515
##바이	16516
게시	16517
핵심	16518
정권	16519
그레이	16520
의회	16521
공산	16522
어린	16523
gt	16524
가져가	16525
매치	16526
중화	16527
##라리	16528
ddd	16529
##피아	16530
처치	16531
부담	16532
교사	16533
배신	16534
미군	16535
110	16536
출발	16537
스탠	16538
컨트롤	16539
대놓	16540
##메달	16541
출생	16542
##AT	16543
##레인	16544
게이지	16545
##AL	16546
레이저	16547
ㅓ서	16548
자살	16549
단위	16550
드물	16551
진실	16552
##ddd	16553
스프	16554
dddddd	16555
어울리	16556
##학자	16557
견제	16558
해금	16559
충돌	16560
##PS	16561
최대한	16562
가로	16563
아침	16564
대원	16565
브랜드	16566
##워하	16567
거절	16568
장전	16569
여왕	16570
##터리	16571
궁극	16572
가르치	16573
##OR	16574
도구	16575
필살기	16576
전장	16577
충전	16578
댄스	16579
홍콩	16580
커뮤	16581
미나	16582
Th	16583
로켓	16584
거래	16585
##아리	16586
##로이드	16587
자이	16588
유용	16589
교환	16590
카르	16591
SS	16592
용병	16593
이성	16594
만족	16595
##VE	16596
반란	16597
취소	16598
부문	16599
SBS	16600
제로	16601
lt	16602
귀엽	16603
##ess	16604
##사카	16605
마왕	16606
체인	16607
##ate	16608
피아	16609
한화	16610
고급	16611
일본어	16612
부진	16613
쓰러	16614
닥터	16615
타이밍	16616
는다고	16617
##ard	16618
표준	16619
기분	16620
##ell	16621
흔히	16622
##광역시	16623
스피드	16624
61	16625
협회	16626
조준	16627
피해자	16628
발매되	16629
Al	16630
1997	16631
브리	16632
근무	16633
아메	16634
##전자	16635
76	16636
남부	16637
애매	16638
제주	16639
단독	16640
##ang	16641
무게	16642
미야	16643
##ue	16644
마이크	16645
스킨	16646
토스	16647
공군	16648
조지	16649
공통	16650
얼음	16651
##ers	16652
신화	16653
비록	16654
##ant	16655
파악	16656
극장판	16657
하트	16658
발휘	16659
우려	16660
판타	16661
수입	16662
비율	16663
권력	16664
세계관	16665
유형	16666
장수	16667
##IC	16668
건강	16669
자르	16670
끼리	16671
경력	16672
인생	16673
헤드	16674
##ine	16675
겹치	16676
가입	16677
본부	16678
자고	16679
##ack	16680
##래도	16681
##하라	16682
갈리	16683
후반부	16684
한자	16685
순수	16686
근거	16687
공작	16688
계급	16689
레전	16690
웨이	16691
모션	16692
FI	16693
77	16694
자치	16695
커버	16696
아무래도	16697
물질	16698
88	16699
혼란	16700
지시	16701
패시브	16702
구입	16703
격투	16704
외교	16705
막히	16706
몰리	16707
##다수	16708
아머	16709
감염	16710
입단	16711
지하철	16712
자식	16713
따위	16714
##두르	16715
플라	16716
해방	16717
NP	16718
파이터	16719
프라	16720
연대	16721
기독	16722
탄생	16723
##달리	16724
##OS	16725
엑스	16726
트레이	16727
정령	16728
##피스	16729
캐나다	16730
지대	16731
##웨이	16732
모리	16733
증명	16734
회수	16735
##어내	16736
등등	16737
강조	16738
채용	16739
반영	16740
내주	16741
업체	16742
생일	16743
##심히	16744
스코어	16745
누리	16746
테러	16747
홍보	16748
용도	16749
입학	16750
##가락	16751
아사	16752
실질	16753
경영	16754
승강장	16755
##ok	16756
폐지	16757
밸런스	16758
외치	16759
ㅕ서	16760
꾸준히	16761
타워	16762
대륙	16763
##세이	16764
1996	16765
문학	16766
언니	16767
납치	16768
경향	16769
CD	16770
불안	16771
지급	16772
##ive	16773
기절	16774
병기	16775
be	16776
무너지	16777
오오	16778
이슬	16779
갤러리	16780
##트로	16781
대공	16782
실행	16783
돌격	16784
트위	16785
##디션	16786
BG	16787
1995	16788
주어지	16789
아나	16790
왕자	16791
1980	16792
장식	16793
98	16794
추진	16795
요원	16796
트라	16797
##아나	16798
베트	16799
출판	16800
감사	16801
광역	16802
##고기	16803
or	16804
브라질	16805
신문	16806
##유키	16807
",	16808
랜덤	16809
373	16810
훌륭	16811
메탈	16812
600	16813
계승	16814
수학	16815
맡기	16816
파리	16817
페이스	16818
재생	16819
주년	16820
시행	16821
온갖	16822
사카	16823
통제	16824
마녀	16825
fff	16826
##ast	16827
가까이	16828
스튜	16829
내내	16830
집안	16831
없애	16832
설득	16833
내놓	16834
패러디	16835
건축	16836
##오리	16837
단일	16838
기독교	16839
스페셜	16840
대다수	16841
작사	16842
심리	16843
파라	16844
사전	16845
정지	16846
찌르	16847
##들리	16848
##AS	16849
ㅓ야	16850
용어	16851
화살	16852
울트라	16853
찾아가	16854
전선	16855
아리	16856
신뢰	16857
경기장	16858
##이터	16859
고민	16860
오픈	16861
명예	16862
상품	16863
##카와	16864
북쪽	16865
##크래프트	16866
별도	16867
후쿠	16868
스티	16869
즉시	16870
영원	16871
기기	16872
##웨어	16873
선배	16874
어차	16875
서포	16876
PS	16877
##어리	16878
##바로	16879
살짝	16880
폭풍	16881
##ee	16882
남쪽	16883
연예	16884
어차피	16885
지우	16886
68	16887
적당	16888
등판	16889
##ED	16890
800	16891
가리키	16892
괴롭	16893
전달	16894
페이지	16895
대놓고	16896
화장	16897
보물	16898
내려오	16899
##스탄	16900
변호	16901
##즈키	16902
마련	16903
라스	16904
미소	16905
고전	16906
63	16907
##tt	16908
##ong	16909
탑승	16910
뒤집	16911
소문	16912
당황	16913
흘리	16914
함선	16915
러브	16916
##uby	16917
스파이	16918
그곳	16919
경유	16920
푸르	16921
말리	16922
##시오	16923
공기	16924
오프닝	16925
은근	16926
레오	16927
공유	16928
트레	16929
열심히	16930
##AM	16931
레전드	16932
커뮤니티	16933
입수	16934
외국인	16935
민간	16936
갑옷	16937
신청	16938
오류	16939
사령관	16940
심장	16941
한때	16942
정류	16943
##ort	16944
##ith	16945
운명	16946
##if	16947
반격	16948
##거나	16949
신고	16950
##세우	16951
엔터	16952
아시	16953
##도우	16954
사운드	16955
##ly	16956
조치	16957
트위터	16958
임시	16959
##타인	16960
수업	16961
74	16962
댓글	16963
연구소	16964
1994	16965
71	16966
응원	16967
아트	16968
이승	16969
격파	16970
가면라이더	16971
처하	16972
김성	16973
불만	16974
##ld	16975
ruby	16976
##나무	16977
##리티	16978
쓰레	16979
라이벌	16980
마주	16981
마인	16982
랜드	16983
고기	16984
82	16985
중계	16986
편의	16987
##아버지	16988
갈등	16989
환자	16990
67	16991
절반	16992
습득	16993
울산	16994
73	16995
주위	16996
오해	16997
크루	16998
##아먹	16999
관객	17000
두산	17001
하수	17002
카나	17003
메이저	17004
북부	17005
클라	17006
스트라이	17007
요새	17008
##다지	17009
보정	17010
여론	17011
널리	17012
출장	17013
##ain	17014
MV	17015
정말로	17016
지형	17017
##ist	17018
전공	17019
카라	17020
대만	17021
짜리	17022
유로	17023
고치	17024
서부	17025
전시	17026
회원	17027
아오	17028
결승전	17029
수용	17030
보장	17031
우스	17032
시각	17033
##fff	17034
여신	17035
주전	17036
리버	17037
....	17038
이란	17039
180	17040
차트	17041
##겨나	17042
##ind	17043
96	17044
붙잡	17045
재능	17046
가득	17047
압박	17048
별개	17049
ffffff	17050
메타	17051
전형	17052
추적	17053
왕조	17054
##티컬	17055
영토	17056
쌓이	17057
소멸	17058
테이	17059
##서트	17060
무적	17061
NC	17062
전함	17063
종점	17064
메가	17065
AT	17066
##듀서	17067
프로듀서	17068
초월	17069
오로	17070
운전	17071
네이버	17072
판타지	17073
TH	17074
81	17075
흔하	17076
전역	17077
폭력	17078
도서관	17079
체포	17080
AC	17081
늑대	17082
제하	17083
녹음	17084
선호	17085
그다지	17086
아우	17087
동기	17088
##per	17089
##가와	17090
화이트	17091
아일	17092
컨텐츠	17093
지켜	17094
타점	17095
가이	17096
##지컬	17097
시야	17098
변형	17099
파이어	17100
돌진	17101
개통	17102
인수	17103
##ew	17104
##덜란드	17105
네덜란드	17106
##ps	17107
강원	17108
테스트	17109
든지	17110
향상	17111
동원	17112
메시	17113
물러	17114
##EN	17115
91	17116
##더스	17117
시드	17118
##사키	17119
맞서	17120
여동생	17121
공급	17122
동부	17123
다행히	17124
수요	17125
일부러	17126
불꽃	17127
따오	17128
동네	17129
아가	17130
화려	17131
78	17132
동쪽	17133
신라	17134
조절	17135
파이널	17136
도달	17137
적히	17138
##EC	17139
##츠키	17140
그만큼	17141
수집	17142
문제점	17143
그림자	17144
본명	17145
스토	17146
파견	17147
클로	17148
학과	17149
자는	17150
복잡	17151
종이	17152
지켜보	17153
뛰어	17154
잉글	17155
쓰러뜨리	17156
상향	17157
##려움	17158
소드	17159
유비	17160
연상	17161
84	17162
기초	17163
신세	17164
일상	17165
니시	17166
##OL	17167
영업	17168
연관	17169
치명타	17170
키스	17171
식물	17172
##돌리	17173
현지	17174
매력	17175
##식간	17176
부품	17177
전적	17178
##ry	17179
최상	17180
암흑	17181
순식간	17182
폭격	17183
편지	17184
##lo	17185
무난	17186
달하	17187
작동	17188
전방	17189
찾아	17190
학살	17191
구현	17192
##크스	17193
CP	17194
##퍼스	17195
게이트	17196
지르	17197
그래픽	17198
교황	17199
시위	17200
점차	17201
이마	17202
92	17203
##드라	17204
##어스	17205
법원	17206
토모	17207
97	17208
맞이	17209
콘서트	17210
##LC	17211
코믹스	17212
노예	17213
대우	17214
신인	17215
아티	17216
지도자	17217
세포	17218
해체	17219
청년	17220
프레임	17221
충청	17222
전투력	17223
86	17224
수송	17225
마술	17226
me	17227
##시코	17228
크리티컬	17229
사자	17230
##버트	17231
입력	17232
복장	17233
고향	17234
둘러	17235
오빠	17236
디아	17237
국립	17238
바라보	17239
사토	17240
호환	17241
추락	17242
서쪽	17243
프리미	17244
제이	17245
수술	17246
기여	17247
모바	17248
스톤	17249
저런	17250
드디어	17251
그치	17252
토리	17253
경비	17254
69	17255
천사	17256
콜라	17257
한국인	17258
반지	17259
##오카	17260
창작	17261
레스	17262
조성	17263
아무런	17264
간격	17265
##레나	17266
스마트	17267
떡밥	17268
##오프	17269
189	17270
생명력	17271
출현	17272
헤이	17273
##노스	17274
닌자	17275
베트남	17276
심판	17277
An	17278
폴란드	17279
마스	17280
해설	17281
추격	17282
##비전	17283
제자	17284
쓰레기	17285
꼬리	17286
블록	17287
조용	17288
전투기	17289
엘프	17290
##티나	17291
인근	17292
구체	17293
개혁	17294
##히로	17295
만든	17296
##둥이	17297
##스트라	17298
##어버리	17299
it	17300
검색	17301
US	17302
몰래	17303
의상	17304
고용	17305
##IT	17306
is	17307
감시	17308
다시피	17309
의료	17310
일제	17311
구도	17312
아무것	17313
규칙	17314
사쿠라	17315
주먹	17316
##디아	17317
구속	17318
성과	17319
접하	17320
무효	17321
1992	17322
은하	17323
장교	17324
마리오	17325
후기	17326
다섯	17327
스카이	17328
신호	17329
막장	17330
연애	17331
NPC	17332
##브리	17333
돌아다니	17334
통상	17335
조조	17336
토론	17337
##타로	17338
에드	17339
##주시	17340
일원	17341
연사	17342
슬롯	17343
##ust	17344
신성	17345
실드	17346
MS	17347
대립	17348
대대	17349
김정	17350
고교	17351
##보내	17352
차단	17353
강의	17354
전라	17355
길이	17356
신규	17357
신분	17358
놓치	17359
##어도	17360
연락	17361
##톨릭	17362
##특별	17363
옛날	17364
총기	17365
어깨	17366
나루	17367
진지	17368
예외	17369
탱크	17370
잉글랜드	17371
범인	17372
노출	17373
경험치	17374
250	17375
마리아	17376
미술	17377
이래	17378
런던	17379
프린	17380
입구	17381
윌리	17382
##보드	17383
창조	17384
투어	17385
라이더	17386
모바일	17387
되찾	17388
KT	17389
##스턴	17390
글자	17391
정복	17392
##일리	17393
부위	17394
##모로	17395
동작	17396
득표	17397
농구	17398
##도로	17399
쿠키	17400
불편	17401
##50	17402
아크	17403
1993	17404
메카	17405
환상	17406
글로	17407
가시	17408
디지털	17409
##ore	17410
요정	17411
앞두	17412
제어	17413
승격	17414
활성	17415
전직	17416
무료	17417
마도	17418
언제나	17419
학자	17420
이랑	17421
양산	17422
소총	17423
##자키	17424
미디어	17425
바보	17426
코인	17427
고문	17428
고생	17429
Ar	17430
##파이어	17431
평타	17432
음성	17433
유희	17434
권총	17435
박살	17436
De	17437
이리	17438
거짓말	17439
안습	17440
헌법	17441
세월	17442
총선	17443
합성	17444
##BO	17445
잠수	17446
출처	17447
여러모로	17448
극단	17449
##영상	17450
자이언	17451
이득	17452
공학	17453
참전	17454
대량	17455
침공	17456
스키	17457
라이프	17458
대체로	17459
법률	17460
이슬람	17461
블레이드	17462
##FC	17463
반발	17464
어택	17465
이날	17466
83	17467
상호	17468
수영	17469
일자	17470
가톨릭	17471
89	17472
사마	17473
교전	17474
간부	17475
인증	17476
헌터	17477
##우드	17478
보고	17479
##저히	17480
Te	17481
출력	17482
북미	17483
상상	17484
호평	17485
정류장	17486
93	17487
띄우	17488
중대	17489
폭주	17490
환승	17491
알파	17492
보석	17493
합격	17494
연도	17495
상점	17496
동영상	17497
하고	17498
101	17499
사양	17500
개정	17501
총리	17502
94	17503
의무	17504
79	17505
기병	17506
키리	17507
적어도	17508
결성	17509
유대	17510
아일랜드	17511
re	17512
지휘관	17513
서양	17514
마이클	17515
제법	17516
가량	17517
전대	17518
스웨	17519
터치	17520
원소	17521
인공	17522
반하	17523
##FF	17524
On	17525
기습	17526
사이드	17527
다이아	17528
마루	17529
끼치	17530
근육	17531
예비	17532
휘두르	17533
분기	17534
머신	17535
태우	17536
##일드	17537
잖아	17538
매니	17539
##임스	17540
##란색	17541
제작진	17542
메인	17543
com	17544
FIFA	17545
##one	17546
87	17547
동방	17548
히데	17549
이재	17550
MAX	17551
대략	17552
요괴	17553
구출	17554
가속	17555
경고	17556
탄약	17557
이자	17558
슈트	17559
##se	17560
바이러스	17561
조심	17562
지진	17563
의혹	17564
##미야	17565
묘지	17566
파일럿	17567
세르	17568
삼진	17569
리얼	17570
유령	17571
박근	17572
소화	17573
축제	17574
회차	17575
노르	17576
AI	17577
사우	17578
전면	17579
요즘	17580
이시	17581
부부	17582
##AC	17583
1991	17584
대항	17585
##ip	17586
##로나	17587
포탑	17588
##먼트	17589
탱커	17590
플랫	17591
어린이	17592
##워크	17593
화학	17594
리아	17595
이내	17596
발달	17597
다면서	17598
베스트	17599
멋지	17600
갤럭	17601
패널	17602
가게	17603
노멀	17604
실리	17605
하수인	17606
상업	17607
나아가	17608
플로	17609
계정	17610
똑같이	17611
훔치	17612
개체	17613
예측	17614
타케	17615
취임	17616
문장	17617
볼넷	17618
블러	17619
##ere	17620
자금	17621
현역	17622
보안	17623
불법	17624
플레이오프	17625
멕시코	17626
오가	17627
네임	17628
국방	17629
정착	17630
##ity	17631
레인저	17632
었었	17633
DJ	17634
호텔	17635
메모리	17636
자매	17637
유행	17638
캐스	17639
어둡	17640
핸드	17641
미츠	17642
##RE	17643
특화	17644
트로	17645
익숙	17646
##PG	17647
제임스	17648
MC	17649
청소년	17650
##ath	17651
용사	17652
갤럭시	17653
묻히	17654
결론	17655
워치	17656
리메	17657
어지	17658
SN	17659
들어서	17660
파크	17661
##라이언	17662
넘치	17663
스튜디오	17664
도망가	17665
김영	17666
이즈	17667
형사	17668
검찰	17669
커맨	17670
신설	17671
원자	17672
무역	17673
저장	17674
##end	17675
피부	17676
구멍	17677
BGM	17678
움직임	17679
리스트	17680
##창기	17681
##고리	17682
일시	17683
육성	17684
##릭스	17685
예고	17686
1970	17687
도발	17688
한방	17689
연맹	17690
소닉	17691
##네스	17692
빛나	17693
리치	17694
개방	17695
FA	17696
사제	17697
부서	17698
쿠로	17699
냐며	17700
루시	17701
##요시	17702
1988	17703
스미	17704
카타	17705
신기	17706
식민	17707
불러	17708
주식	17709
##끄럽	17710
##조리	17711
식사	17712
레이스	17713
합의	17714
조약	17715
정면	17716
길드	17717
관할	17718
긍정	17719
역임	17720
으니까	17721
감옥	17722
고백	17723
파트너	17724
차리	17725
700	17726
플레	17727
구원	17728
오랫	17729
스톰	17730
캐리	17731
루타	17732
대가	17733
마냥	17734
곧바로	17735
마구	17736
타마	17737
프라이	17738
이명	17739
결합	17740
전철	17741
바치	17742
웬만	17743
Ro	17744
와이	17745
틀리	17746
세이브	17747
방출	17748
찾아보	17749
##데스	17750
동의	17751
박정	17752
여유	17753
인정받	17754
##펙트	17755
투구	17756
전문가	17757
초창기	17758
볼트	17759
소형	17760
절망	17761
처벌	17762
어떠	17763
!!	17764
다스	17765
진심	17766
THE	17767
카스	17768
사이즈	17769
방지	17770
주간	17771
강철	17772
오늘날	17773
통치	17774
바위	17775
여지	17776
잡지	17777
ㅕㅆ	17778
기구	17779
배차	17780
##레이터	17781
융합	17782
국왕	17783
반사	17784
너무나	17785
물러나	17786
좌우	17787
흥행	17788
##구리	17789
누적	17790
##성기	17791
아기	17792
팀원	17793
돼지	17794
포스트	17795
의존	17796
번개	17797
방사	17798
커플	17799
장악	17800
##특별시	17801
##디언	17802
영향력	17803
떠오르	17804
착각	17805
리메이크	17806
##코드	17807
위장	17808
MVP	17809
##ect	17810
그동안	17811
네트	17812
정치인	17813
목격	17814
외계	17815
미카	17816
야스	17817
기원전	17818
에서부터	17819
서울특별시	17820
클리	17821
아끼	17822
아빠	17823
포트	17824
레이드	17825
대리	17826
랭킹	17827
호주	17828
망치	17829
분량	17830
내성	17831
Wh	17832
커지	17833
##스키	17834
내장	17835
안드로이드	17836
##OT	17837
차라리	17838
논리	17839
면역	17840
의뢰	17841
인연	17842
단장	17843
고지	17844
해병	17845
루이	17846
챕터	17847
시즈	17848
혐의	17849
CC	17850
브레이크	17851
게스트	17852
협박	17853
유치	17854
요코	17855
칭하	17856
Se	17857
국군	17858
코미	17859
양쪽	17860
에다	17861
저녁	17862
He	17863
빌드	17864
대지	17865
포르투	17866
지능	17867
태그	17868
마침내	17869
확대	17870
보관	17871
변호사	17872
골든	17873
Le	17874
##티아	17875
공지	17876
각자	17877
타이거	17878
박근혜	17879
불교	17880
AK	17881
는다면	17882
동화	17883
홀로	17884
윌리엄	17885
태평	17886
공무원	17887
깨지	17888
##베르	17889
토르	17890
최소한	17891
괴롭히	17892
권리	17893
떠올리	17894
##지마	17895
오사카	17896
오카	17897
손가락	17898
Me	17899
무덤	17900
접촉	17901
재산	17902
몰아	17903
그대	17904
먹히	17905
한번	17906
배트	17907
오랫동안	17908
박물	17909
터키	17910
대폭	17911
1989	17912
##밀리	17913
후속작	17914
으려고	17915
해리	17916
188	17917
필리	17918
라면서	17919
DLC	17920
##부르크	17921
하필	17922
스턴	17923
크라	17924
htt	17925
수수	17926
##age	17927
Go	17928
출마	17929
과목	17930
실버	17931
##IS	17932
공공	17933
전후	17934
소장	17935
연료	17936
팔리	17937
악역	17938
오전	17939
주말	17940
하우스	17941
올해	17942
소지	17943
섞이	17944
##구치	17945
노부	17946
금융	17947
이집	17948
이집트	17949
소원	17950
본작	17951
리드	17952
'.	17953
PD	17954
연인	17955
명성	17956
웹툰	17957
수련	17958
소스	17959
##다이	17960
권한	17961
막차	17962
그럼	17963
흐름	17964
al	17965
육체	17966
패하	17967
수익	17968
비행기	17969
##og	17970
적대	17971
귀신	17972
##페인	17973
주기	17974
계단	17975
정비	17976
스틸	17977
##라드	17978
다가오	17979
학부	17980
대처	17981
예능	17982
로즈	17983
##바라	17984
알렉산	17985
##잡이	17986
정원	17987
나치	17988
시마	17989
내구	17990
##아시아	17991
강남	17992
무렵	17993
스웨덴	17994
금속	17995
트레이드	17996
피스	17997
놓이	17998
부장	17999
연극	18000
##ide	18001
선출	18002
휴대	18003
명중률	18004
컬러	18005
kt	18006
원칙	18007
호감	18008
카오스	18009
어쨌	18010
Be	18011
My	18012
슈팅	18013
안내	18014
테일	18015
해안	18016
마키	18017
합체	18018
선전	18019
간혹	18020
GT	18021
접속	18022
그로	18023
편입	18024
써먹	18025
##회사	18026
캠퍼스	18027
놀랍	18028
##ime	18029
##세스	18030
허리	18031
최다	18032
예쁘	18033
##ake	18034
이지	18035
모모	18036
개성	18037
협상	18038
ㄴ다며	18039
블리	18040
원수	18041
준수	18042
##ark	18043
130	18044
교차	18045
담기	18046
##OM	18047
메르	18048
개입	18049
떨어	18050
퀄리티	18051
##ss	18052
일기	18053
시계	18054
새벽	18055
종목	18056
특집	18057
궤도	18058
게시판	18059
Su	18060
작곡가	18061
SC	18062
둘째	18063
박물관	18064
KIA	18065
##ire	18066
상당수	18067
김태	18068
화제	18069
편곡	18070
애플	18071
더라	18072
##어나오	18073
외형	18074
기도	18075
저그	18076
스위스	18077
환영	18078
성립	18079
인조	18080
꼽히	18081
따라가	18082
고구	18083
갇히	18084
누나	18085
트랜	18086
복무	18087
민주주의	18088
카미	18089
유물	18090
SM	18091
##려주	18092
할아버지	18093
AR	18094
전신	18095
##바르	18096
독특	18097
##프레	18098
알아보	18099
피격	18100
초간	18101
재단	18102
이익	18103
깨닫	18104
호수	18105
WW	18106
한동안	18107
Tr	18108
식당	18109
이끄	18110
페이즈	18111
지위	18112
극복	18113
수십	18114
주사	18115
헤비	18116
사도	18117
##가리	18118
치우	18119
재정	18120
##ID	18121
##ES	18122
전진	18123
우라	18124
어른	18125
##닉스	18126
시선	18127
철학	18128
##무르	18129
굴리	18130
매직	18131
아이스	18132
회상	18133
116	18134
##ite	18135
##ge	18136
정찰	18137
HD	18138
wh	18139
160	18140
블로그	18141
위상	18142
연타	18143
##iv	18144
으러	18145
소중	18146
거인	18147
영문	18148
SD	18149
아니면	18150
무겁	18151
처형	18152
양성	18153
##ound	18154
기사단	18155
캐스팅	18156
식량	18157
까다	18158
메뉴	18159
동굴	18160
정글	18161
대개	18162
용기	18163
오스트리아	18164
my	18165
문재	18166
면적	18167
비례	18168
익히	18169
시내버스	18170
일찍	18171
안티	18172
트럭	18173
리듬	18174
##가시	18175
은근히	18176
##다랗	18177
손해	18178
클래식	18179
우위	18180
참석	18181
ㅓ도	18182
음원	18183
조언	18184
팬덤	18185
집행	18186
과제	18187
구나	18188
아바	18189
튀어나오	18190
신앙	18191
고수	18192
위원장	18193
별다르	18194
는지라	18195
##mp	18196
해상	18197
##던가	18198
##iz	18199
대충	18200
IC	18201
훗날	18202
타인	18203
각본	18204
원본	18205
더더	18206
증언	18207
자국	18208
##테르	18209
노인	18210
개시	18211
SR	18212
트윈	18213
이중	18214
세이버	18215
커스	18216
털리	18217
측정	18218
날짜	18219
##OP	18220
##가미	18221
신비	18222
예산	18223
김민	18224
마비	18225
빼앗기	18226
멀쩡	18227
##쳐지	18228
펀치	18229
''	18230
중독	18231
매체	18232
칼리	18233
세종	18234
적응	18235
신부	18236
더더욱	18237
##리그	18238
무릎	18239
살아가	18240
구사	18241
멘탈	18242
커맨드	18243
까다롭	18244
천재	18245
1987	18246
캠페인	18247
원주	18248
이주	18249
미터	18250
적군	18251
해적	18252
삼국지	18253
##OW	18254
국적	18255
##큐어	18256
교류	18257
절대로	18258
제정	18259
Gr	18260
허나	18261
패션	18262
바리	18263
갈수록	18264
##ome	18265
하락	18266
임대	18267
대학원	18268
스승	18269
크리스마스	18270
일격	18271
활발	18272
놀이	18273
재미있	18274
기적	18275
녹색	18276
코우	18277
데모	18278
정수	18279
클레	18280
하얗	18281
이브	18282
관중	18283
결코	18284
느라	18285
마이너	18286
위대	18287
화성	18288
IS	18289
시아	18290
명단	18291
매년	18292
히메	18293
주포	18294
##BA	18295
죄다	18296
호위	18297
##덩이	18298
십자	18299
UE	18300
과연	18301
유이	18302
하야	18303
작화	18304
개막	18305
진보	18306
with	18307
##데미	18308
몽골	18309
##ud	18310
de	18311
투명	18312
충성	18313
계통	18314
모자라	18315
어다	18316
Love	18317
##LL	18318
포로	18319
내세우	18320
탄창	18321
한참	18322
열쇠	18323
##몬드	18324
어려움	18325
##반도	18326
##미니	18327
체크	18328
바퀴	18329
희귀	18330
주일	18331
김종	18332
Pr	18333
우연히	18334
1960	18335
칭찬	18336
안경	18337
유적	18338
루수	18339
남북	18340
사후	18341
##UN	18342
사막	18343
대수	18344
아카데미	18345
경기력	18346
데려오	18347
비추	18348
드레	18349
흔적	18350
개수	18351
140	18352
자본	18353
채택	18354
##아웃	18355
로그	18356
모래	18357
기르	18358
##ord	18359
자극	18360
후방	18361
구리	18362
업적	18363
아미	18364
흔들리	18365
예수	18366
##마디	18367
아메리카	18368
화물	18369
비상	18370
전성기	18371
이영	18372
당일	18373
미안	18374
일치	18375
피아노	18376
사유	18377
##가스	18378
심사	18379
강점	18380
행적	18381
결말	18382
스타크래프트	18383
스프링	18384
##공화국	18385
새기	18386
보존	18387
##MA	18388
신장	18389
으라	18390
오직	18391
첫차	18392
상급	18393
이정	18394
강도	18395
인지도	18396
재현	18397
부지	18398
기종	18399
선고	18400
아티스트	18401
김동	18402
단편	18403
개량	18404
BE	18405
인민공화국	18406
##려나	18407
주택	18408
보라	18409
무작	18410
농담	18411
사라	18412
부작	18413
기울	18414
도우	18415
챌린	18416
출입	18417
추구	18418
거점	18419
기아	18420
취미	18421
가을	18422
웃음	18423
과장	18424
토끼	18425
저작	18426
##사자	18427
포항	18428
상성	18429
자책	18430
버스터	18431
관찰	18432
고스트	18433
어지간	18434
포르투갈	18435
식민지	18436
합병	18437
니코	18438
px	18439
클릭	18440
1986	18441
생존자	18442
일반인	18443
네트워크	18444
어쨌든	18445
##비드	18446
행하	18447
소위	18448
유나이	18449
소송	18450
맥스	18451
새끼	18452
울리	18453
##ure	18454
프리큐어	18455
ch	18456
유나이티	18457
##ance	18458
본체	18459
경로	18460
##our	18461
메리	18462
로우	18463
이민	18464
의대	18465
##이즈	18466
건조	18467
어마	18468
바깥	18469
##카드	18470
으시	18471
##mer	18472
스마트폰	18473
공룡	18474
기용	18475
##ix	18476
##양함	18477
연금	18478
괴수	18479
모조리	18480
판매량	18481
브루	18482
어스	18483
##ick	18484
포드	18485
EP	18486
Bo	18487
##ice	18488
막대	18489
체육관	18490
차기	18491
영구	18492
공세	18493
흥미	18494
탈퇴	18495
파츠	18496
상실	18497
잠재	18498
자세히	18499
덧붙이	18500
전멸	18501
에리	18502
후계	18503
가짜	18504
이스라	18505
an	18506
인격	18507
일본인	18508
스트리	18509
UEFA	18510
##치기	18511
미라	18512
캡틴	18513
시달리	18514
아즈	18515
사형	18516
유통	18517
국경	18518
포격	18519
JR	18520
코코	18521
타율	18522
##ax	18523
유니폼	18524
186	18525
카트	18526
제작자	18527
고도	18528
GS	18529
코리아	18530
노벨	18531
900	18532
도주	18533
로고	18534
터널	18535
연패	18536
불타	18537
일방	18538
무지	18539
승점	18540
피터	18541
색상	18542
자전	18543
SKT	18544
Un	18545
생겨나	18546
##라노	18547
판결	18548
색깔	18549
상인	18550
##이너	18551
관측	18552
명확	18553
취향	18554
드라이브	18555
가상	18556
통산	18557
항공기	18558
메시지	18559
요금	18560
커피	18561
레이더	18562
기량	18563
화장실	18564
거듭	18565
할머니	18566
잘리	18567
치유	18568
억지	18569
선거구	18570
##랭크	18571
비주	18572
화재	18573
어드	18574
쌍둥이	18575
무라	18576
내지	18577
베네	18578
구경	18579
강요	18580
언스	18581
순환	18582
귀찮	18583
마린	18584
라이온	18585
여객	18586
한마디	18587
##oc	18588
타선	18589
##시로	18590
미루	18591
집어	18592
##AD	18593
이스라엘	18594
Ex	18595
##시스트	18596
모토	18597
가요	18598
동력	18599
루카	18600
오타	18601
위반	18602
사신	18603
사원	18604
소프트웨어	18605
신사	18606
##멘트	18607
##qu	18608
칭호	18609
수출	18610
비치	18611
##랑이	18612
날아오	18613
아마도	18614
이슈	18615
아이콘	18616
다름	18617
187	18618
빨갛	18619
둘러싸	18620
선택지	18621
주소	18622
승객	18623
##코토	18624
포수	18625
레알	18626
OST	18627
다치	18628
##10	18629
금메달	18630
데드	18631
등지	18632
간신	18633
터뜨리	18634
몰락	18635
##own	18636
트라이	18637
무방	18638
##고속	18639
KO	18640
박히	18641
대선	18642
조연	18643
가루	18644
연합군	18645
영주	18646
##{{	18647
스페이스	18648
##ber	18649
교장	18650
귀환	18651
도끼	18652
수장	18653
광역시	18654
매장	18655
적합	18656
즐겁	18657
연승	18658
##나카	18659
냄새	18660
GB	18661
캐논	18662
##80	18663
본사	18664
아케	18665
구르	18666
넥센	18667
We	18668
타락	18669
서식	18670
소라	18671
복지	18672
##ys	18673
실망	18674
1984	18675
남녀	18676
동성	18677
콜라보	18678
구글	18679
외전	18680
매니저	18681
DS	18682
타운	18683
항복	18684
##20	18685
이터	18686
텔레비전	18687
함수	18688
안타깝	18689
찾아내	18690
초보	18691
고구려	18692
미스터	18693
흑인	18694
곡명	18695
캠프	18696
##카리	18697
배터리	18698
제갈	18699
백성	18700
익스	18701
비서	18702
{{{	18703
라인업	18704
개국	18705
유희왕	18706
##av	18707
통계	18708
단단	18709
인치	18710
유효	18711
변환	18712
그만두	18713
교실	18714
잠수함	18715
아랍	18716
1985	18717
아시안	18718
예시	18719
AM	18720
타수	18721
##노우	18722
발행	18723
커리어	18724
혐오	18725
양자	18726
거미	18727
오라	18728
공업	18729
간주	18730
깔끔	18731
##정부	18732
법인	18733
일대	18734
##라이트	18735
반동	18736
##럼프	18737
주자	18738
sh	18739
철수	18740
스터	18741
천만	18742
인종	18743
마드리	18744
CPU	18745
정기	18746
포위	18747
##ame	18748
주역	18749
중립	18750
에르	18751
레코드	18752
##orld	18753
유학	18754
##old	18755
용량	18756
서구	18757
고개	18758
논의	18759
드래프트	18760
허가	18761
인디	18762
105	18763
관람	18764
노동자	18765
표지	18766
너희	18767
글로벌	18768
마드리드	18769
조별	18770
##든가	18771
카츠	18772
커다랗	18773
##시타	18774
##로디	18775
##저스	18776
##OC	18777
##일보	18778
후손	18779
기생	18780
흘러	18781
수류	18782
내전	18783
마약	18784
김재	18785
예언	18786
끊기	18787
싱크	18788
히어로즈	18789
아쿠	18790
공성	18791
하단	18792
즉위	18793
위성	18794
사이버	18795
벌레	18796
상단	18797
휴식	18798
티켓	18799
##NA	18800
복구	18801
##리스트	18802
디스크	18803
연령	18804
음모	18805
스리	18806
보험	18807
메달	18808
생략	18809
CF	18810
##위대	18811
##lay	18812
2021	18813
LI	18814
승률	18815
.."	18816
고위	18817
태평양	18818
고작	18819
스텔	18820
곤란	18821
분쟁	18822
근본	18823
##ont	18824
##머스	18825
면모	18826
좌석	18827
추억	18828
형상	18829
##ies	18830
도적	18831
김대	18832
감각	18833
급격	18834
##데이	18835
표면	18836
문구	18837
최신	18838
카운트	18839
차이점	18840
추종	18841
준우	18842
노스	18843
후원	18844
시그	18845
그러니까	18846
그랜드	18847
적당히	18848
자폭	18849
중세	18850
수류탄	18851
클랜	18852
소대	18853
AD	18854
언덕	18855
오크	18856
사명	18857
상술	18858
대인	18859
치루	18860
경주	18861
담배	18862
아르헨	18863
It	18864
실전	18865
왕위	18866
모니	18867
언더	18868
마디	18869
학습	18870
관점	18871
허락	18872
성남	18873
다름없	18874
히나	18875
파르	18876
고맙	18877
KBO	18878
마그	18879
정차	18880
더럽	18881
연예인	18882
입지	18883
후술	18884
오마	18885
균형	18886
SH	18887
##팩트	18888
일족	18889
제약	18890
3000	18891
구석	18892
모노	18893
전주	18894
아르헨티나	18895
타로	18896
##려들	18897
후배	18898
분열	18899
지뢰	18900
용서	18901
떨어뜨리	18902
지리	18903
액티브	18904
지경	18905
DF	18906
증오	18907
취약	18908
스트라이크	18909
기숙	18910
베리	18911
체결	18912
서포터	18913
토벌	18914
크리스탈	18915
폐쇄	18916
하차	18917
공방	18918
꾸미	18919
침략	18920
리타	18921
숙련	18922
시노	18923
진압	18924
아츠	18925
##프리	18926
더러	18927
머무르	18928
시너지	18929
전이	18930
데려가	18931
사정거리	18932
자막	18933
침입	18934
코르	18935
산하	18936
행보	18937
제출	18938
구슬	18939
레슬	18940
비스	18941
미묘	18942
lo	18943
주차	18944
해피	18945
부각	18946
어뢰	18947
저렴	18948
법정	18949
부딪	18950
쓸모	18951
일본군	18952
입대	18953
간접	18954
제트	18955
XX	18956
분해	18957
텍스트	18958
LC	18959
이듬	18960
워커	18961
##키아	18962
##마크	18963
들키	18964
드럼	18965
나폴	18966
##하면	18967
무척	18968
특전	18969
정화	18970
##OD	18971
중첩	18972
네요	18973
루나	18974
튕기	18975
##US	18976
이수	18977
약화	18978
블러드	18979
아테	18980
호흡	18981
평생	18982
우르	18983
##ann	18984
기관총	18985
쿼터	18986
가만	18987
간신히	18988
소방	18989
세븐	18990
니콜	18991
총알	18992
논문	18993
트랜스	18994
오랜만	18995
유발	18996
연고	18997
뜬금	18998
##자드	18999
가동	19000
##크라	19001
인권	19002
알아내	19003
드롭	19004
CV	19005
##블린	19006
이토	19007
사령부	19008
눈치채	19009
MF	19010
생년	19011
신전	19012
세인트	19013
통화	19014
거울	19015
잡아먹	19016
헬기	19017
경상북도	19018
찍히	19019
NE	19020
흡혈	19021
악화	19022
카카	19023
여우	19024
로버트	19025
크림	19026
공용	19027
곳곳	19028
동인	19029
방어구	19030
모시	19031
나리	19032
##어마	19033
SE	19034
조이	19035
사귀	19036
남아	19037
다카	19038
이혼	19039
##pe	19040
##베이	19041
전파	19042
플라이	19043
혹시	19044
인용	19045
프란	19046
강자	19047
125	19048
##PM	19049
결심	19050
토너	19051
지불	19052
부적	19053
아이언	19054
성당	19055
##40	19056
맛있	19057
뮤지컬	19058
네오	19059
보건	19060
찬스	19061
자이언츠	19062
##sh	19063
저택	19064
공정	19065
WWE	19066
윈도우	19067
.....	19068
악당	19069
자녀	19070
이듬해	19071
페널	19072
중력	19073
어마어마	19074
주둔	19075
성별	19076
아동	19077
반전	19078
히토	19079
앨리스	19080
미즈	19081
애정	19082
깨어나	19083
##말리	19084
제작사	19085
암시	19086
요인	19087
##30	19088
금방	19089
내보내	19090
보완	19091
상기	19092
이식	19093
스크린	19094
구름	19095
복합	19096
##io	19097
잡아내	19098
금액	19099
되돌리	19100
수석	19101
##VD	19102
엘리트	19103
격추	19104
AS	19105
참모	19106
양식	19107
시상	19108
긴장	19109
온도	19110
토니	19111
En	19112
##네임	19113
스팀	19114
시카	19115
라기	19116
용인	19117
딜링	19118
##싱턴	19119
##은행	19120
1950	19121
원리	19122
리온	19123
시인	19124
구미	19125
악기	19126
큐브	19127
가라	19128
발리	19129
배포	19130
라틴	19131
1982	19132
이온	19133
보호막	19134
충실	19135
구축함	19136
your	19137
물리치	19138
후계자	19139
아저	19140
##거지	19141
##천시	19142
헤어지	19143
부자	19144
아저씨	19145
교과	19146
유력	19147
CJ	19148
백작	19149
결전	19150
뽑히	19151
동양	19152
김현	19153
낮추	19154
토너먼트	19155
우에	19156
사인	19157
부임	19158
착하	19159
대왕	19160
의학	19161
헨리	19162
개설	19163
##배우	19164
초록	19165
절차	19166
얻어	19167
천안	19168
불사	19169
;&	19170
채팅	19171
유전자	19172
백인	19173
##리나	19174
임신	19175
DE	19176
상세	19177
서서	19178
상관없	19179
열매	19180
Pro	19181
기상	19182
더군	19183
소유자	19184
해치	19185
야생	19186
낚시	19187
임금	19188
##oo	19189
빠져	19190
하루카	19191
상영	19192
바이오	19193
170	19194
지라	19195
교도	19196
웨스트	19197
루이스	19198
본관	19199
베타	19200
정예	19201
브레	19202
증상	19203
##에르	19204
탐험	19205
##센트	19206
비아	19207
공산당	19208
뜨겁	19209
드라이버	19210
호기	19211
1983	19212
창원	19213
답변	19214
묘하	19215
##라기	19216
전승	19217
실종	19218
기인	19219
법칙	19220
선두	19221
존재감	19222
안기	19223
코미디	19224
학력	19225
##비치	19226
마주치	19227
동명	19228
도둑	19229
수백	19230
광장	19231
견디	19232
언젠	19233
언젠가	19234
걸어	19235
방송국	19236
##ave	19237
업로드	19238
창설	19239
도박	19240
발렌	19241
악명	19242
리뷰	19243
항의	19244
엮이	19245
로리	19246
릴리	19247
그린	19248
처분	19249
뱀파이어	19250
Com	19251
문재인	19252
짜증	19253
천하	19254
강원도	19255
미네	19256
중량	19257
##포트	19258
대책	19259
행운	19260
수호자	19261
엑스트라	19262
관리자	19263
동점	19264
에요	19265
##ream	19266
콜로	19267
관계자	19268
재밌	19269
모터	19270
분명히	19271
##ond	19272
기숙사	19273
은신	19274
##LE	19275
만남	19276
미키	19277
의장	19278
##누스	19279
루비	19280
미쿠	19281
테라	19282
쏟아지	19283
승인	19284
생명체	19285
다이아몬드	19286
##나미	19287
정통	19288
전동	19289
진주	19290
##걸이	19291
인력	19292
잔뜩	19293
##팡이	19294
이드	19295
##월일	19296
that	19297
조리	19298
치즈	19299
기둥	19300
와일드	19301
에다가	19302
보드	19303
##도르	19304
카와	19305
1500	19306
정황	19307
토지	19308
니스	19309
##스럽	19310
호칭	19311
물고기	19312
여야	19313
캐스터	19314
농업	19315
단축	19316
##를린	19317
칼날	19318
기름	19319
난입	19320
##iss	19321
디지몬	19322
크레	19323
건국	19324
유산	19325
##ION	19326
건드리	19327
LV	19328
UP	19329
##플레이	19330
무관	19331
기후	19332
##IP	19333
아틀	19334
##번트	19335
##우마	19336
심심	19337
감지	19338
성질	19339
리오	19340
도루	19341
창단	19342
잃어버리	19343
유독	19344
창고	19345
부드	19346
할인	19347
문단	19348
생년월일	19349
부사	19350
해명	19351
투스	19352
탄환	19353
려던	19354
지치	19355
블라	19356
EN	19357
가방	19358
ED	19359
학위	19360
영광	19361
말투	19362
참가자	19363
서번트	19364
논쟁	19365
출구	19366
##필더	19367
미드필더	19368
외계인	19369
삽입	19370
##펴보	19371
살펴보	19372
운동장	19373
##ian	19374
시공	19375
하향	19376
유기	19377
해골	19378
내각	19379
프로필	19380
부근	19381
5000	19382
상륙	19383
##유럽	19384
분신	19385
막내	19386
식품	19387
울프	19388
플래시	19389
존경	19390
유인	19391
시합	19392
항구	19393
경남	19394
주술	19395
분대	19396
한쪽	19397
복제	19398
장인	19399
가공	19400
미만	19401
끔찍	19402
발굴	19403
그르	19404
비전	19405
사살	19406
마블	19407
##태우	19408
그램	19409
레딧	19410
##어하	19411
콘텐츠	19412
부드럽	19413
부스터	19414
사법	19415
유격	19416
진학	19417
우정	19418
뛰어넘	19419
##티스	19420
준우승	19421
정교	19422
도라	19423
주니어	19424
그레	19425
딜레이	19426
디젤	19427
->	19428
로얄	19429
##투스	19430
요약	19431
코트	19432
엔젤	19433
##게임	19434
그렇지만	19435
카를	19436
왠지	19437
아키라	19438
전제	19439
수면	19440
승자	19441
퇴장	19442
손상	19443
밀도	19444
집착	19445
루스	19446
독재	19447
슬로	19448
태국	19449
선제	19450
샌드	19451
통로	19452
공허	19453
민첩	19454
오디션	19455
시리아	19456
##커스	19457
상식	19458
##운서	19459
2022	19460
스위치	19461
아나운서	19462
걸맞	19463
시라	19464
##TV	19465
체험	19466
휘말리	19467
레지	19468
by	19469
동계	19470
학기	19471
깔리	19472
시트	19473
워싱턴	19474
감추	19475
헝가리	19476
분포	19477
##텐도	19478
닌텐도	19479
##카이	19480
##60	19481
시원	19482
he	19483
##셔널	19484
BL	19485
학문	19486
작년	19487
수명	19488
Br	19489
스쿨	19490
하츠	19491
마케	19492
두르	19493
Co	19494
헤어	19495
과학자	19496
##세대	19497
고리	19498
훈장	19499
커녕	19500
##다나	19501
호소	19502
께서	19503
불펜	19504
##베스	19505
철저	19506
싫어하	19507
전북	19508
보충	19509
##우리	19510
##갈리	19511
갑작	19512
근대	19513
단원	19514
반박	19515
회담	19516
##소녀	19517
나츠	19518
여주	19519
국장	19520
하이퍼	19521
배정	19522
방위	19523
자전거	19524
??	19525
공화	19526
노바	19527
공립	19528
트럼프	19529
##필드	19530
##rom	19531
##ory	19532
##틀러	19533
사용자	19534
스폰	19535
덩치	19536
go	19537
중형	19538
비주얼	19539
질병	19540
옹호	19541
펼쳐지	19542
##ace	19543
스트레스	19544
기재	19545
백제	19546
111	19547
배출	19548
Bl	19549
돌입	19550
단행	19551
고객	19552
타석	19553
##Hz	19554
휘하	19555
지사	19556
격차	19557
안녕	19558
평양	19559
##쟁이	19560
&#	19561
기운	19562
185	19563
깨달	19564
마스크	19565
토마	19566
1945	19567
그럭	19568
대거	19569
리스크	19570
삼각	19571
##카이도	19572
오키	19573
##세서	19574
가죽	19575
##포르	19576
라니	19577
웃기	19578
경전	19579
##던지	19580
빅토	19581
##저럭	19582
임기	19583
본진	19584
디즈	19585
데이비드	19586
세부	19587
웨이브	19588
인질	19589
출격	19590
오염	19591
나마	19592
위안	19593
그럭저럭	19594
싸이	19595
시신	19596
소요	19597
##신교	19598
트리플	19599
신도	19600
속이	19601
어필	19602
##TE	19603
DVD	19604
##게이	19605
마감	19606
마우스	19607
케인	19608
요한	19609
기갑	19610
##oth	19611
경상남도	19612
하마	19613
미나미	19614
배트맨	19615
축복	19616
Or	19617
##산시	19618
파편	19619
라이플	19620
영지	19621
##주교	19622
하계	19623
조기	19624
파동	19625
이펙트	19626
##틀랜드	19627
스펠	19628
이글	19629
나미	19630
한반도	19631
축하	19632
실책	19633
동남	19634
처지	19635
철거	19636
중국어	19637
완결	19638
소음	19639
헤르	19640
장거리	19641
##me	19642
과도	19643
피우	19644
해양	19645
개별	19646
후퇴	19647
지향	19648
변수	19649
차체	19650
##하마	19651
침묵	19652
갈아	19653
와타	19654
원문	19655
팬텀	19656
보이스	19657
1981	19658
리카	19659
복선	19660
##ows	19661
토크	19662
##부로	19663
물체	19664
;&#	19665
구별	19666
군수	19667
적중	19668
##MP	19669
메이드	19670
날카	19671
약탈	19672
사회주의	19673
상담	19674
트롤	19675
막판	19676
##키지	19677
치킨	19678
플래그	19679
우세	19680
##TS	19681
스트리트	19682
취득	19683
무인	19684
브로	19685
경직	19686
기동성	19687
##그리	19688
##타이	19689
후자	19690
필리핀	19691
간단히	19692
남매	19693
##먼스	19694
왜곡	19695
연습생	19696
약물	19697
손실	19698
결투	19699
슬라이	19700
##무시	19701
내일	19702
근거리	19703
솔직	19704
브라운	19705
부실	19706
노조	19707
두들	19708
무작위	19709
##키퍼	19710
성전	19711
신나	19712
집합	19713
##에이	19714
규격	19715
1979	19716
지칭	19717
주류	19718
라우	19719
부착	19720
집권	19721
수능	19722
동급	19723
급하	19724
흰색	19725
##화점	19726
국정	19727
테츠	19728
선행	19729
##아다니	19730
개발자	19731
날카롭	19732
중시	19733
패키지	19734
넘버	19735
센스	19736
##IG	19737
밀어	19738
##aw	19739
교토	19740
멜로디	19741
##경기	19742
만주	19743
##ale	19744
수급	19745
독일군	19746
CG	19747
스즈	19748
바쁘	19749
야수	19750
전망	19751
골키퍼	19752
망가지	19753
Sc	19754
그날	19755
유전	19756
피트	19757
유성	19758
##다보	19759
파생	19760
최상위	19761
일당	19762
폴리	19763
특별히	19764
무산	19765
영화제	19766
리프	19767
라라	19768
신발	19769
최적	19770
양상	19771
기세	19772
For	19773
엔드	19774
##든지	19775
원조	19776
무사히	19777
캘리	19778
괜히	19779
##프리카	19780
서기	19781
오이	19782
베를린	19783
즈음	19784
##ike	19785
끼우	19786
##하시	19787
핑크	19788
모스크	19789
모로	19790
대포	19791
마법소녀	19792
프리미엄	19793
킬러	19794
##야수	19795
사키	19796
##네시아	19797
타쿠	19798
##ep	19799
업계	19800
SNS	19801
##자와	19802
간간	19803
선조	19804
##ach	19805
##레일	19806
Cl	19807
여러분	19808
##man	19809
##공항	19810
출루	19811
질리	19812
이웃	19813
야구장	19814
청주	19815
페이스북	19816
장탄	19817
주행	19818
Dr	19819
영원히	19820
대치	19821
응용	19822
175	19823
바디	19824
권위	19825
진격	19826
왜냐	19827
##irl	19828
기호	19829
록맨	19830
입주	19831
첼시	19832
안개	19833
##ile	19834
뭉치	19835
Mo	19836
부동	19837
PV	19838
##OU	19839
서서히	19840
임팩트	19841
계시	19842
이와	19843
협정	19844
중복	19845
RPG	19846
동경	19847
해산	19848
##바닥	19849
장사	19850
호랑이	19851
여인	19852
더군다나	19853
선임	19854
야마토	19855
102	19856
폭행	19857
챌린지	19858
투쟁	19859
원형	19860
당대	19861
며칠	19862
초인	19863
암살자	19864
매번	19865
벨트	19866
후임	19867
프리미어	19868
관여	19869
직장	19870
올스타	19871
무시무시	19872
##메이	19873
106	19874
117	19875
최우	19876
호시	19877
GP	19878
플러스	19879
귀국	19880
연산	19881
챔피언십	19882
악몽	19883
프로토	19884
개신교	19885
##토스	19886
오스만	19887
나르	19888
FM	19889
개장	19890
##ink	19891
서클	19892
OP	19893
연구원	19894
슬프	19895
고장	19896
신자	19897
확산	19898
추방	19899
BB	19900
##ial	19901
##철도	19902
동아리	19903
##하르트	19904
천연	19905
Sk	19906
사립	19907
합계	19908
잠입	19909
엘리자	19910
수비력	19911
끌려가	19912
퍼포	19913
##아이	19914
##우치	19915
퍼포먼스	19916
수립	19917
페널티	19918
합리	19919
어이	19920
인방	19921
구성원	19922
LA	19923
제독	19924
지팡이	19925
##ish	19926
115	19927
공수	19928
에릭	19929
중장	19930
무술	19931
징역	19932
##여객	19933
권장	19934
인피	19935
조상	19936
선사	19937
놀리	19938
##VA	19939
주관	19940
성경	19941
배역	19942
해킹	19943
##아키	19944
긴급	19945
리라	19946
UN	19947
레일	19948
Team	19949
감싸	19950
비틀	19951
상한	19952
배급	19953
수동	19954
Bla	19955
히가시	19956
체인지	19957
독점	19958
이종	19959
돌연	19960
##승부	19961
물량	19962
장로	19963
시크	19964
CH	19965
파란색	19966
임의	19967
##런트	19968
우드	19969
##플렉	19970
메이커	19971
에디	19972
##버그	19973
기동전	19974
폐기	19975
데이트	19976
DD	19977
의외로	19978
국어	19979
국당	19980
김경	19981
가디언	19982
ㄹ게	19983
청와	19984
하인	19985
SU	19986
회색	19987
저하	19988
미국인	19989
가만히	19990
사무소	19991
쇼핑	19992
트루	19993
ㅂ시오	19994
풍부	19995
신입	19996
라그	19997
해내	19998
나비	19999
일람	20000
##어놓	20001
##데드	20002
##II	20003
스캔	20004
##ower	20005
출간	20006
평점	20007
마물	20008
김상	20009
건네	20010
##쿠라	20011
세팅	20012
코난	20013
모집	20014
##운동	20015
조명	20016
복원	20017
렌즈	20018
대조	20019
은지	20020
Ne	20021
배달	20022
트릭	20023
청와대	20024
##래시	20025
언데드	20026
프레이	20027
야간	20028
공백	20029
면허	20030
스타디	20031
명백	20032
공인	20033
제네	20034
지연	20035
포즈	20036
스파이더	20037
바둑	20038
안양	20039
화산	20040
광산	20041
전라남도	20042
모듈	20043
여전	20044
장신	20045
증폭	20046
뱅크	20047
교단	20048
만만	20049
전무	20050
일화	20051
##IM	20052
냐면	20053
목사	20054
육상	20055
행방	20056
유미	20057
억지로	20058
감동	20059
만일	20060
다가가	20061
와카	20062
택시	20063
듀오	20064
로빈	20065
간호	20066
명의	20067
기장	20068
빌딩	20069
뽑아내	20070
라이너	20071
재회	20072
엄격	20073
##숭이	20074
이라크	20075
방치	20076
김진	20077
아레나	20078
거스	20079
무스	20080
끊임	20081
세리	20082
승무원	20083
##슬라	20084
여학생	20085
##GE	20086
분당	20087
즉사	20088
택하	20089
Star	20090
##오루	20091
감상	20092
궁금	20093
혼돈	20094
##크로	20095
장미	20096
평일	20097
BS	20098
잠들	20099
우주선	20100
피닉스	20101
썬더	20102
대단히	20103
발목	20104
버섯	20105
신학	20106
매출	20107
산맥	20108
우즈	20109
규제	20110
유출	20111
계수	20112
불량	20113
사리	20114
광선	20115
타이거즈	20116
자비	20117
추리	20118
캐치	20119
##키스탄	20120
통틀	20121
천문	20122
청구	20123
부서지	20124
수색	20125
김기	20126
센트	20127
오메	20128
we	20129
##99	20130
국무	20131
포켓몬스터	20132
시사	20133
코멘트	20134
DC	20135
고소	20136
##벌레	20137
수비수	20138
베이징	20139
And	20140
ID	20141
350	20142
고블린	20143
깜짝	20144
All	20145
PR	20146
우월	20147
국제공항	20148
재학	20149
되게	20150
처참	20151
##!!	20152
상관없이	20153
우익	20154
해머	20155
Wind	20156
실장	20157
출범	20158
##타카	20159
박지	20160
##히코	20161
Man	20162
본토	20163
버드	20164
드루	20165
합동	20166
배수	20167
벌리	20168
축소	20169
바스	20170
시상식	20171
실내	20172
만지	20173
기쁘	20174
##체스터	20175
War	20176
##ass	20177
뚫리	20178
히라	20179
바르셀	20180
포장	20181
안쪽	20182
질투	20183
바르셀로나	20184
혈액	20185
고로	20186
페리	20187
비웃	20188
심의	20189
유언	20190
스탠드	20191
조롱	20192
우유	20193
뒤지	20194
##번에	20195
다운로드	20196
라이온즈	20197
탐정	20198
승진	20199
디즈니	20200
토시	20201
사이클	20202
니아	20203
당사자	20204
운수	20205
파이트	20206
토미	20207
수직	20208
온천	20209
LP	20210
에픽	20211
##gh	20212
난사	20213
알라	20214
##11	20215
세금	20216
협의	20217
여섯	20218
쿠라	20219
리가	20220
치열	20221
스타디움	20222
태풍	20223
따뜻	20224
##카락	20225
평론	20226
스텝	20227
##ib	20228
##pp	20229
머리카락	20230
108	20231
메이플	20232
자꾸	20233
360	20234
충청남도	20235
스미스	20236
파멸	20237
up	20238
의자	20239
서포트	20240
기리	20241
112	20242
루크	20243
##orm	20244
한두	20245
캘리포	20246
권유	20247
파울	20248
fe	20249
##ft	20250
실현	20251
체감	20252
골렘	20253
극도	20254
키타	20255
##민주	20256
압력	20257
소용	20258
시외	20259
나기	20260
인접	20261
우치	20262
정발	20263
오로지	20264
기력	20265
검술	20266
뒤늦	20267
전당	20268
여파	20269
황후	20270
도저히	20271
티아	20272
시바	20273
세라	20274
타르	20275
모험가	20276
특급	20277
1978	20278
##tle	20279
스테이션	20280
New	20281
젤리	20282
사이코	20283
##블로	20284
손자	20285
탐지	20286
낙하	20287
One	20288
##릴라	20289
캘리포니아	20290
나노	20291
모임	20292
조용히	20293
마코토	20294
반부	20295
배제	20296
중지	20297
##도리	20298
##ous	20299
비유	20300
러시	20301
아지	20302
오락	20303
##스티벌	20304
페스티벌	20305
##렐라	20306
분산	20307
103	20308
##가드	20309
단종	20310
지인	20311
지목	20312
직선	20313
##사이	20314
SF	20315
물품	20316
루머	20317
Mar	20318
반감	20319
묶이	20320
##CG	20321
마카	20322
비명	20323
범죄자	20324
전남	20325
신용	20326
아쉬	20327
스테이	20328
스티븐	20329
중순	20330
일요일	20331
프렌	20332
AKB	20333
맥주	20334
서머	20335
가난	20336
리즈	20337
어시스트	20338
##려받	20339
##sp	20340
조르	20341
디바	20342
로맨	20343
강등	20344
붙잡히	20345
스태	20346
주최	20347
1973	20348
나스	20349
주교	20350
폭파	20351
케이블	20352
오우	20353
스핀	20354
넘어서	20355
##amp	20356
동반	20357
토큰	20358
함락	20359
##now	20360
힙합	20361
##ms	20362
##ment	20363
재개	20364
리버풀	20365
이글스	20366
드림	20367
려다	20368
기부	20369
센서	20370
생전	20371
루피	20372
캐시	20373
로이	20374
##70	20375
꼬이	20376
거북	20377
조커	20378
수월	20379
##yle	20380
실은	20381
농장	20382
To	20383
부딪히	20384
추세	20385
불행	20386
무승부	20387
강사	20388
##atch	20389
베테	20390
유의	20391
184	20392
토키	20393
암호	20394
조우	20395
낙선	20396
막아내	20397
체중	20398
넘어지	20399
명문	20400
능력자	20401
타일	20402
##란히	20403
인자	20404
IN	20405
고속도로	20406
카구	20407
김해	20408
기수	20409
ex	20410
수염	20411
좌절	20412
토요일	20413
중부	20414
연봉	20415
Part	20416
당당	20417
비극	20418
대성	20419
드론	20420
원시	20421
아가씨	20422
신속	20423
개척	20424
명목	20425
ON	20426
중화민국	20427
소니	20428
여고	20429
스와	20430
깊이	20431
모스	20432
기묘	20433
김용	20434
얻어맞	20435
진상	20436
빨간	20437
더빙	20438
수습	20439
훼손	20440
CS	20441
음료	20442
128	20443
배드	20444
##나오	20445
조카	20446
구조물	20447
입자	20448
BR	20449
나요	20450
패전	20451
##케이션	20452
두렵	20453
주체	20454
바론	20455
실시간	20456
살아나	20457
후회	20458
막상	20459
경악	20460
극히	20461
엄밀	20462
##hen	20463
KR	20464
Gam	20465
던가	20466
고시	20467
183	20468
히틀러	20469
##ING	20470
코마	20471
되살	20472
까이	20473
##구나	20474
믹스	20475
##기에	20476
각지	20477
변동	20478
영감	20479
도리	20480
##페라	20481
억제	20482
##ree	20483
산탄	20484
혜택	20485
1974	20486
채보	20487
하여	20488
쿠데	20489
유망	20490
##ae	20491
##ase	20492
나루토	20493
듀스	20494
집어넣	20495
에반	20496
혁신	20497
상반	20498
PP	20499
리처	20500
배려	20501
질서	20502
총장	20503
##64	20504
장성	20505
잠실	20506
경북	20507
되돌	20508
World	20509
대시	20510
하프	20511
구동	20512
재건	20513
ㄴ다거나	20514
국판	20515
알바	20516
복사	20517
번지	20518
휴가	20519
샤이	20520
도장	20521
구장	20522
핀란드	20523
1972	20524
노가	20525
바지	20526
호남	20527
힐러	20528
선수단	20529
날씨	20530
꼬마	20531
찬성	20532
철권	20533
반짝	20534
초콜	20535
쇼크	20536
포탄	20537
견해	20538
말기	20539
계층	20540
해병대	20541
다투	20542
벤치	20543
이타	20544
그랑	20545
##베리	20546
대행	20547
마땅	20548
쳐들	20549
##불명	20550
##구장	20551
시로	20552
지수	20553
##az	20554
슬라	20555
고증	20556
스코틀랜드	20557
##사리	20558
투척	20559
사퇴	20560
동해	20561
##방송	20562
닉네임	20563
에로	20564
천황	20565
첫째	20566
아이러	20567
유재	20568
수여	20569
야쿠	20570
장탄수	20571
그라운드	20572
갈색	20573
##노리	20574
##더라	20575
사무실	20576
트로피	20577
퍼즐	20578
레온	20579
역습	20580
가담	20581
알레	20582
달려가	20583
운송	20584
걸즈	20585
제치	20586
근원	20587
거론	20588
유니크	20589
JT	20590
중동	20591
사로	20592
동행	20593
공격수	20594
엑시	20595
##저리	20596
프랑스어	20597
네티	20598
장례	20599
샷건	20600
수지	20601
##블리	20602
##ear	20603
때려	20604
동서	20605
짐작	20606
최저	20607
ㅂ니까	20608
산타	20609
거칠	20610
확장팩	20611
감수	20612
기뻐	20613
기뻐하	20614
AN	20615
키보드	20616
동아	20617
여의	20618
##ason	20619
제갈량	20620
시비	20621
라즈	20622
유입	20623
보라색	20624
220	20625
평하	20626
##12	20627
빨간색	20628
공감	20629
1975	20630
뮌헨	20631
So	20632
무용	20633
함부로	20634
마일	20635
상사	20636
세자	20637
인재	20638
돌보	20639
어쩌면	20640
포스터	20641
고무	20642
래퍼	20643
##러그	20644
노란색	20645
잭슨	20646
짐승	20647
오브젝트	20648
인과	20649
퇴각	20650
백화점	20651
##느리	20652
##브라	20653
##AY	20654
GO	20655
재직	20656
여럿	20657
영양	20658
왕실	20659
특별시	20660
매주	20661
가구	20662
덴마크	20663
보좌	20664
##돌이	20665
마오	20666
대령	20667
##MS	20668
인도네시아	20669
##직자	20670
결제	20671
진급	20672
클린	20673
각오	20674
1976	20675
사관	20676
엔지	20677
알렉스	20678
##are	20679
소재지	20680
라크	20681
베어스	20682
양손	20683
패밀리	20684
안심	20685
전날	20686
정반	20687
피로	20688
반도	20689
##리온	20690
JP	20691
세로	20692
##iki	20693
장난감	20694
호불	20695
호불호	20696
강림	20697
원더	20698
와인	20699
탐색	20700
경호	20701
상주	20702
셔틀	20703
페어	20704
후반기	20705
##사기	20706
완공	20707
트레이너	20708
240	20709
##지르	20710
드레스	20711
벨기에	20712
여단	20713
관료	20714
차갑	20715
연쇄	20716
오더	20717
##토니	20718
도덕	20719
흔들	20720
요미	20721
포획	20722
모형	20723
메이지	20724
신선	20725
카자	20726
시카고	20727
##저기	20728
베기	20729
프린세스	20730
##차기	20731
당기	20732
포도	20733
도어	20734
사야	20735
빠져나가	20736
##미터	20737
네티즌	20738
연설	20739
봉쇄	20740
##ng	20741
흡사	20742
마계	20743
문화재	20744
거든	20745
토대	20746
지부	20747
우호	20748
생체	20749
가두	20750
역명	20751
##bo	20752
아베	20753
갤러	20754
국도	20755
탐사	20756
밀어내	20757
화폐	20758
타이탄	20759
sp	20760
막강	20761
점유	20762
##베이터	20763
##ife	20764
여기저기	20765
선진	20766
##박스	20767
##루미	20768
라마	20769
유혹	20770
결혼식	20771
역량	20772
우측	20773
##gin	20774
루프	20775
학생회	20776
세뇌	20777
양반	20778
여서	20779
집회	20780
##ven	20781
강렬	20782
소금	20783
##슈타인	20784
콘솔	20785
뜬금없이	20786
OS	20787
끌리	20788
려다가	20789
##렉션	20790
말레이	20791
클론	20792
시모	20793
FW	20794
출산	20795
##레일리아	20796
케이드	20797
쿠데타	20798
두들기	20799
경찰서	20800
신중	20801
##AP	20802
방탄	20803
약자	20804
깎이	20805
날뛰	20806
방송사	20807
무실	20808
교복	20809
성분	20810
tv	20811
다큐	20812
원곡	20813
서바이	20814
청나라	20815
후미	20816
우회	20817
돋보이	20818
콤비	20819
선박	20820
##ade	20821
침대	20822
부작용	20823
ㄹ려	20824
Wi	20825
무공	20826
모스크바	20827
일곱	20828
트라우마	20829
빈도	20830
위로	20831
바나	20832
간섭	20833
박쥐	20834
법무	20835
중심지	20836
AFC	20837
디오	20838
발명	20839
트윈스	20840
공산주의	20841
폭스	20842
아이디어	20843
전동차	20844
프라임	20845
김준	20846
비스트	20847
스즈키	20848
원주민	20849
제물	20850
##에른	20851
스탈	20852
통칭	20853
소득	20854
아이러니	20855
윈드	20856
##90	20857
침투	20858
포터	20859
변이	20860
##하나	20861
출혈	20862
로이드	20863
트랩	20864
##act	20865
당초	20866
연금술	20867
취업	20868
NH	20869
드로우	20870
##ank	20871
전락	20872
결계	20873
창문	20874
이스트	20875
튼튼	20876
리안	20877
밀려나	20878
##out	20879
소통	20880
강경	20881
##천군	20882
박살나	20883
품질	20884
하스	20885
토하	20886
http	20887
오지	20888
중점	20889
MB	20890
104	20891
##싸움	20892
##아치	20893
오노	20894
상무	20895
##우트	20896
소나	20897
노무	20898
##ork	20899
콘스탄	20900
##lect	20901
##oll	20902
선장	20903
체코	20904
글씨	20905
판사	20906
할리	20907
123	20908
허무	20909
순양함	20910
이순	20911
단행본	20912
부재	20913
장판	20914
항해	20915
https	20916
디시	20917
아바타	20918
히로시	20919
홀리	20920
도쿠	20921
제재	20922
홀드	20923
전향	20924
##aby	20925
Do	20926
마틴	20927
명명	20928
기하	20929
마트	20930
1971	20931
혈통	20932
명사	20933
독일어	20934
##른바	20935
손꼽	20936
이른바	20937
책임지	20938
강간	20939
검토	20940
성씨	20941
낭비	20942
리코	20943
다스리	20944
나아지	20945
도감	20946
##깨비	20947
공대	20948
블로	20949
##ET	20950
대타	20951
##데레	20952
쓸데	20953
##ich	20954
입증	20955
분할	20956
##ai	20957
조종사	20958
외곽	20959
구상	20960
시호	20961
도트	20962
발레	20963
검증	20964
##루션	20965
기차	20966
찰스	20967
Up	20968
전송	20969
승차	20970
장남	20971
스트라이커	20972
티스	20973
부시	20974
신데	20975
##ey	20976
1977	20977
바이에른	20978
~!	20979
라가	20980
공헌	20981
히스	20982
토요	20983
페미니	20984
트레일러	20985
단기	20986
관통력	20987
##ary	20988
%/	20989
한창	20990
##쿠스	20991
경연	20992
미미	20993
히든	20994
do	20995
모니터	20996
깃발	20997
##추어	20998
우루	20999
III	21000
장애물	21001
끌어들이	21002
워크	21003
왕비	21004
광물	21005
존스	21006
우승자	21007
전격	21008
오페라	21009
김일	21010
끊임없이	21011
대법	21012
백업	21013
브라이언	21014
싱가	21015
태클	21016
싱가포르	21017
유연	21018
넘어오	21019
다지	21020
루마	21021
앤드	21022
Fate	21023
##way	21024
마피아	21025
부유	21026
오스트레일리아	21027
진단	21028
사사	21029
질량	21030
술사	21031
no	21032
실상	21033
매니아	21034
그러므로	21035
엘리베이터	21036
182	21037
신데렐라	21038
성실	21039
을수록	21040
워크래프트	21041
형편	21042
라스트	21043
LIVE	21044
보고서	21045
커스텀	21046
강릉	21047
대변	21048
우울	21049
부패	21050
파도	21051
간간히	21052
입문	21053
교리	21054
##바야	21055
충족	21056
손오	21057
비비	21058
스나이	21059
##저우	21060
최선	21061
범용	21062
손쉽	21063
저자	21064
동전	21065
135	21066
설령	21067
학사	21068
재배	21069
리모	21070
중기	21071
왜냐하면	21072
파밍	21073
고고	21074
올드	21075
원장	21076
시게	21077
검열	21078
이어받	21079
유료	21080
대동	21081
레이블	21082
박정희	21083
하하	21084
고종	21085
Ad	21086
119	21087
##UM	21088
창립	21089
연간	21090
확신	21091
사로잡	21092
천천	21093
ES	21094
여타	21095
특공	21096
대접	21097
사악	21098
하반	21099
are	21100
딸리	21101
##바지	21102
올바르	21103
탄핵	21104
노르웨이	21105
보스턴	21106
하급	21107
나폴레	21108
압축	21109
자네	21110
초상	21111
비기	21112
키라	21113
Day	21114
일체	21115
109	21116
스타리그	21117
스피릿	21118
급행	21119
1969	21120
마산	21121
근접전	21122
맞붙	21123
중위	21124
중상	21125
섀도우	21126
단백	21127
1968	21128
예약	21129
지선	21130
공통점	21131
나폴레옹	21132
왼손	21133
끌어올리	21134
토마스	21135
카시	21136
평등	21137
Oh	21138
따라오	21139
정석	21140
##벤처	21141
명분	21142
크레이	21143
제왕	21144
일관	21145
어드벤처	21146
##orn	21147
##타입	21148
초콜릿	21149
한나라	21150
##모스	21151
##pt	21152
중고	21153
한나라당	21154
메일	21155
유엔	21156
시온	21157
전생	21158
쿠스	21159
부속	21160
조국	21161
석유	21162
미지	21163
디자이너	21164
##니시	21165
##께끼	21166
수수께끼	21167
으려는	21168
잔인	21169
카더라	21170
스플	21171
강전	21172
##르타	21173
김수	21174
트리거	21175
케빈	21176
플랜	21177
##모함	21178
곡인	21179
불태우	21180
##페이	21181
마운	21182
공단	21183
##사스	21184
##동자	21185
구독	21186
본질	21187
##으로	21188
지붕	21189
이현	21190
천천히	21191
로보	21192
단검	21193
저기	21194
메트로	21195
흩어지	21196
베테랑	21197
Mk	21198
터스	21199
##의자	21200
소모량	21201
강호	21202
군부	21203
수인	21204
친절	21205
엔지니어	21206
##능력	21207
꿈꾸	21208
리처드	21209
스태프	21210
코스튬	21211
##가루	21212
보르	21213
망명	21214
잉여	21215
민중	21216
라이언	21217
바이올	21218
질주	21219
머물	21220
##퍼드	21221
121	21222
##키리	21223
단발	21224
발판	21225
홋카이도	21226
관우	21227
all	21228
연수	21229
갑작스럽	21230
손오공	21231
이병	21232
선교	21233
아스카	21234
사촌	21235
동정	21236
동구	21237
화상	21238
카카오	21239
씌우	21240
치카	21241
유망주	21242
145	21243
땅볼	21244
br	21245
비리	21246
주식회사	21247
성배	21248
##라미	21249
1963	21250
그릇	21251
기울이	21252
총독	21253
고스	21254
니혼	21255
lv	21256
이틀	21257
##다운	21258
과자	21259
손님	21260
무제	21261
##하루	21262
고는	21263
굴욕	21264
버스트	21265
후일	21266
너머	21267
nd	21268
##네마	21269
에이지	21270
농민	21271
레이디	21272
테이블	21273
쓰리	21274
자제	21275
친분	21276
소집	21277
107	21278
크라이	21279
##스레	21280
프로게이	21281
프로게이머	21282
전라북도	21283
##ah	21284
메리트	21285
도깨비	21286
리퍼	21287
하사	21288
##iver	21289
##어드	21290
삼성전자	21291
폭격기	21292
##테이션	21293
오메가	21294
열정	21295
="	21296
머니	21297
합작	21298
파스	21299
맹세	21300
##슬리	21301
178	21302
현금	21303
달아나	21304
명시	21305
교차로	21306
이모	21307
작위	21308
Windows	21309
어색	21310
퍼스트	21311
오케	21312
항공모함	21313
위엄	21314
렉스	21315
자율	21316
극대	21317
브라더스	21318
RA	21319
평행	21320
김포	21321
에드워드	21322
IT	21323
리틀	21324
아아	21325
강점기	21326
왕복	21327
단백질	21328
쫓겨나	21329
에버	21330
할로	21331
##마치	21332
FF	21333
미궁	21334
그레이트	21335
스케일	21336
종결	21337
조화	21338
디펜	21339
스택	21340
지력	21341
##ph	21342
엔트리	21343
지오	21344
라그나	21345
원숭이	21346
ML	21347
필름	21348
이경	21349
화해	21350
점검	21351
서명	21352
165	21353
##리스타	21354
마타	21355
백만	21356
존중	21357
##EM	21358
Sw	21359
파운드	21360
시외버스	21361
대박	21362
윤리	21363
천장	21364
박살내	21365
오렌	21366
부스	21367
스티브	21368
##uck	21369
카리스	21370
도마	21371
지분	21372
자책점	21373
가설	21374
대전차	21375
와이번	21376
후드	21377
일가	21378
평론가	21379
광기	21380
완화	21381
프랜	21382
임진	21383
AA	21384
신동	21385
봉사	21386
그립	21387
DP	21388
화석	21389
출판사	21390
하이라이트	21391
분자	21392
##urn	21393
계곡	21394
카리	21395
##군가	21396
감자	21397
물자	21398
유치원	21399
진에	21400
터트리	21401
피카	21402
정사	21403
블레이	21404
인칭	21405
과일	21406
촉수	21407
변태	21408
서적	21409
으라고	21410
공신	21411
매각	21412
다니엘	21413
엑시즈	21414
고집	21415
러스	21416
유탄	21417
사체	21418
1930	21419
여포	21420
대위	21421
보편	21422
##소년	21423
##ool	21424
츠카	21425
원전	21426
스가	21427
시골	21428
자존	21429
##ero	21430
면하	21431
누군가	21432
시뮬	21433
113	21434
관장	21435
마술사	21436
초점	21437
Con	21438
표절	21439
".	21440
잊히	21441
해소	21442
Ph	21443
교과서	21444
사우스	21445
입사	21446
ne	21447
병역	21448
맨체스터	21449
181	21450
사족	21451
유가	21452
몸통	21453
진동	21454
탄압	21455
하치	21456
총합	21457
프로그래	21458
JTBC	21459
노무현	21460
##바나	21461
이오	21462
수천	21463
호크	21464
##ical	21465
외우	21466
꺼리	21467
210	21468
무실점	21469
지역구	21470
쳐들어	21471
감탄	21472
자산	21473
챔프	21474
줄기	21475
착륙	21476
1920	21477
이대로	21478
산소	21479
무지막	21480
무지막지	21481
로키	21482
##아들	21483
란스	21484
##anc	21485
경사	21486
주축	21487
게이머	21488
마케팅	21489
떨치	21490
NBA	21491
서열	21492
신지	21493
오니	21494
사수	21495
중거리	21496
다이스	21497
모순	21498
광명	21499
터보	21500
서방	21501
BPM	21502
Cr	21503
임하	21504
파랗	21505
손꼽히	21506
도심	21507
페스	21508
스포일러	21509
검정	21510
뚜렷	21511
실체	21512
친척	21513
DPS	21514
개명	21515
##구미	21516
부원	21517
초청	21518
메카닉	21519
유격수	21520
155	21521
##마르	21522
김지	21523
타구	21524
프론	21525
힘입	21526
부천	21527
선로	21528
##리안	21529
국방부	21530
지혜	21531
토트	21532
말씀	21533
179	21534
마유	21535
표적	21536
액체	21537
동대	21538
철저히	21539
##리칸	21540
고아	21541
테스	21542
##ung	21543
어나	21544
슬픔	21545
브레이커	21546
발발	21547
호의	21548
1940	21549
깨끗	21550
##은색	21551
결의	21552
제니	21553
##ype	21554
부산광역시	21555
구로	21556
알렉산드	21557
##센스	21558
향후	21559
냉정	21560
배구	21561
장타	21562
동속	21563
미르	21564
데빌	21565
노가다	21566
Qu	21567
엘리자베스	21568
성명	21569
122	21570
152	21571
로프	21572
##업자	21573
매트	21574
용산	21575
불쌍	21576
빙판	21577
저렇	21578
불능	21579
##변이	21580
돌연변이	21581
겸하	21582
마당	21583
144	21584
동성애	21585
매드	21586
미오	21587
##ARD	21588
에미	21589
곤충	21590
이케	21591
지장	21592
스노우	21593
at	21594
이노	21595
일렉	21596
마인드	21597
주석	21598
블리자드	21599
1967	21600
아드	21601
북아	21602
서류	21603
모델링	21604
##ens	21605
참사	21606
제리	21607
다케	21608
중구	21609
집계	21610
유니버스	21611
레이어	21612
때로	21613
골프	21614
우타	21615
외국어	21616
그해	21617
광경	21618
치안	21619
스폰서	21620
김유	21621
플라스	21622
목걸이	21623
아깝	21624
발탁	21625
##very	21626
비우	21627
트래	21628
##질랜드	21629
미러	21630
가이드	21631
변장	21632
뉴질랜드	21633
실용	21634
기질	21635
씨앗	21636
고사	21637
##베트	21638
행진	21639
문양	21640
모음	21641
엘레	21642
부스트	21643
상금	21644
김승	21645
마하	21646
사직	21647
어벤	21648
아마추어	21649
민간인	21650
내버리	21651
##ence	21652
##드러지	21653
중원	21654
##어트	21655
amp	21656
유아	21657
취재	21658
케이크	21659
텍사스	21660
무늬	21661
##항공	21662
시어	21663
좌익	21664
정문	21665
{{{#	21666
##시스코	21667
아리아	21668
워터	21669
트윗	21670
##테일	21671
기소	21672
도르	21673
학대	21674
수위	21675
주사위	21676
##ost	21677
날아다니	21678
박수	21679
울트라맨	21680
멍청	21681
엄연히	21682
워프	21683
##상시	21684
##젤레스	21685
OVA	21686
애칭	21687
##끼리	21688
재앙	21689
나나	21690
이라도	21691
까마	21692
근로	21693
##시피	21694
닥치	21695
시조	21696
카지	21697
Station	21698
누스	21699
답답	21700
전지	21701
리나	21702
포크	21703
물어	21704
이빨	21705
우연	21706
질환	21707
레인지	21708
하나하나	21709
카네	21710
녹화	21711
정점	21712
납득	21713
자사	21714
LO	21715
예의	21716
소비자	21717
본능	21718
절친	21719
스카우트	21720
##nt	21721
국토	21722
지로	21723
쿠니	21724
서울대	21725
from	21726
신하	21727
고등학생	21728
직책	21729
각도	21730
저서	21731
##ble	21732
열혈	21733
이소	21734
TVA	21735
난무	21736
압권	21737
좌측	21738
##ise	21739
Fr	21740
소생	21741
에도	21742
철갑	21743
네이션	21744
편리	21745
경부	21746
강민	21747
##int	21748
##ww	21749
as	21750
관직	21751
발키리	21752
워즈	21753
패자	21754
초능력	21755
츠바	21756
브래	21757
주머니	21758
정밀	21759
일컫	21760
KOF	21761
실사	21762
일리	21763
혼인	21764
헷갈리	21765
라이즈	21766
용암	21767
침몰	21768
정성	21769
114	21770
자칭	21771
오죽	21772
##과이	21773
조항	21774
작정	21775
이념	21776
개교	21777
남동	21778
어나더	21779
##폭탄	21780
드래곤볼	21781
기스	21782
##DD	21783
페르시아	21784
##타운	21785
TR	21786
만점	21787
장벽	21788
타츠	21789
카레	21790
##려워하	21791
의정부	21792
자아	21793
IM	21794
##지능	21795
인공지능	21796
덤비	21797
##ans	21798
##ign	21799
사연	21800
도색	21801
이원	21802
love	21803
유스	21804
발급	21805
어이없	21806
미성	21807
이이	21808
반경	21809
아스트	21810
교역	21811
이진	21812
##워즈	21813
177	21814
당국	21815
예방	21816
트릴	21817
멋대로	21818
대역	21819
원로	21820
필립	21821
게르	21822
##이동	21823
엄밀히	21824
포병	21825
중국인	21826
롤러	21827
벙커	21828
아자	21829
적자	21830
가마	21831
거지	21832
사투	21833
박성	21834
##이나	21835
마음대로	21836
DNA	21837
아담	21838
코토	21839
재즈	21840
CM	21841
1962	21842
학급	21843
하이드	21844
에디션	21845
이어서	21846
몰살	21847
이대	21848
리본	21849
변명	21850
인성	21851
프레스	21852
옥상	21853
##ug	21854
##야스	21855
고가	21856
안동	21857
마찰	21858
습니까	21859
마모	21860
Super	21861
MG	21862
고의	21863
템플	21864
##민주당	21865
이누	21866
초록색	21867
##이치로	21868
개구리	21869
wiki	21870
##oy	21871
알아채	21872
포착	21873
##AK	21874
오렌지	21875
망토	21876
협동	21877
아케이드	21878
펌프	21879
갱신	21880
##마루	21881
방학	21882
스타트	21883
Dream	21884
각인	21885
비키	21886
죄책	21887
초과	21888
격려	21889
튜버	21890
1966	21891
124	21892
매달리	21893
법사	21894
항모	21895
남동생	21896
민감	21897
명나라	21898
이명박	21899
로라	21900
극한	21901
127	21902
선동	21903
시오	21904
이태	21905
스컬	21906
로렌	21907
루리	21908
혼합	21909
풍기	21910
##하여	21911
디스플레이	21912
수신	21913
만능	21914
아사히	21915
카운티	21916
등극	21917
용이	21918
휩쓸	21919
독립운동	21920
베스	21921
미인	21922
달려들	21923
부동산	21924
통째	21925
너스	21926
1964	21927
부채	21928
원피스	21929
##바야시	21930
CE	21931
수감	21932
!"	21933
##자치	21934
생김	21935
적절히	21936
##지사	21937
비평	21938
들여	21939
풍선	21940
BJ	21941
연소	21942
마에	21943
리사	21944
##떨어지	21945
can	21946
종영	21947
선포	21948
쿠마	21949
죄책감	21950
덮치	21951
코파	21952
포탈	21953
오다	21954
슈퍼맨	21955
금강	21956
용자	21957
추후	21958
유진	21959
방심	21960
이윤	21961
정신력	21962
대피	21963
USB	21964
헬멧	21965
교도소	21966
쿠바	21967
협조	21968
www	21969
발전소	21970
후쿠오카	21971
호러	21972
##돌프	21973
연전	21974
부러지	21975
엉망	21976
450	21977
고발	21978
유고	21979
인벤	21980
감당	21981
종전	21982
도약	21983
기법	21984
다시금	21985
제사	21986
선원	21987
정반대	21988
은폐	21989
##바이트	21990
어설	21991
신곡	21992
연동	21993
Pl	21994
##vel	21995
학술	21996
##코트	21997
내셔널	21998
비단	21999
뛰어들	22000
스틱	22001
억울	22002
팔라	22003
오른손	22004
스토어	22005
##치아	22006
##IR	22007
##나베	22008
최순	22009
카테	22010
마라	22011
해운	22012
피오	22013
다거나	22014
블럭	22015
##전차	22016
카마	22017
대차	22018
##철수	22019
왕족	22020
흘러가	22021
분홍	22022
스로	22023
##ode	22024
컴백	22025
##페이스	22026
급격히	22027
IP	22028
덩어리	22029
아이디	22030
잔혹	22031
this	22032
공속	22033
방침	22034
시타	22035
물려받	22036
유카	22037
철도역	22038
경성	22039
위쪽	22040
아울	22041
우마	22042
절벽	22043
##uk	22044
아쿠아	22045
내기	22046
두드러지	22047
보강	22048
아무튼	22049
Sch	22050
페어리	22051
바쿠	22052
타치	22053
빌보드	22054
##생활	22055
아인	22056
녹이	22057
크래프트	22058
EC	22059
제의	22060
출동	22061
득표율	22062
구형	22063
고립	22064
사나	22065
Ver	22066
##ier	22067
발각	22068
욕설	22069
서리	22070
유동	22071
청춘	22072
쉴드	22073
학회	22074
사방	22075
##VER	22076
맞히	22077
왕가	22078
얽히	22079
후유	22080
그러면	22081
162	22082
공동체	22083
사슬	22084
무도	22085
잔류	22086
아랫	22087
사무라이	22088
생태	22089
격렬	22090
시크릿	22091
ERA	22092
인문	22093
침착	22094
기본기	22095
측근	22096
군요	22097
연이	22098
##헤이	22099
La	22100
내외	22101
ㄴ데다	22102
벨라	22103
사물	22104
Girl	22105
##속기	22106
##ash	22107
진술	22108
게끔	22109
호드	22110
회관	22111
##나기	22112
대세	22113
##reat	22114
실존	22115
수소	22116
분배	22117
애완	22118
리바	22119
마야	22120
키미	22121
강대	22122
나인	22123
##역사	22124
뺏기	22125
##우라	22126
그루	22127
문신	22128
마쓰	22129
1200	22130
야당	22131
미아	22132
궁전	22133
현자	22134
방사능	22135
우크라	22136
이행	22137
정조	22138
레이싱	22139
ar	22140
118	22141
사와	22142
이단	22143
##틀리	22144
코노	22145
헬리	22146
카리스마	22147
신한	22148
약혼	22149
박자	22150
모빌	22151
전담	22152
Season	22153
애인	22154
탄소	22155
##공사	22156
레나	22157
히카	22158
아비	22159
함장	22160
##usic	22161
징계	22162
퇴치	22163
부가	22164
스쿼	22165
##크리	22166
제주도	22167
월간	22168
반성	22169
중재	22170
style	22171
직위	22172
모욕	22173
NO	22174
카쿠	22175
패트	22176
태생	22177
##믹스	22178
워리어	22179
반역	22180
EXP	22181
판도	22182
사치	22183
DM	22184
존슨	22185
##앤젤레스	22186
로스앤젤레스	22187
진에어	22188
강타	22189
흥분	22190
Col	22191
오퍼	22192
가위	22193
계절	22194
가오	22195
코스프레	22196
제노	22197
테르	22198
1965	22199
중소	22200
러쉬	22201
상부	22202
tr	22203
인쇄	22204
타이어	22205
잠기	22206
유재석	22207
이용자	22208
왕후	22209
노아	22210
이카	22211
김구	22212
화기	22213
##티노	22214
##라이나	22215
충청북도	22216
탈환	22217
궁합	22218
물리학	22219
카피	22220
브론	22221
모나	22222
급속	22223
종로	22224
자이언트	22225
WC	22226
갈라지	22227
1948	22228
샘플	22229
Vol	22230
##te	22231
한양	22232
암컷	22233
중견	22234
##보기	22235
시종	22236
앨런	22237
박진	22238
벗기	22239
로스트	22240
말레이시아	22241
##드로	22242
건너가	22243
점심	22244
##IX	22245
스탈린	22246
아처	22247
750	22248
오사	22249
정전	22250
이놈	22251
돌려주	22252
금요일	22253
불러오	22254
Ed	22255
흑마	22256
도미	22257
흡혈귀	22258
피자	22259
##사르	22260
일환	22261
##수리	22262
안토니	22263
중도	22264
입원	22265
비자	22266
기동력	22267
친애	22268
##ose	22269
퀴즈	22270
우두	22271
Max	22272
항공사	22273
1944	22274
유우키	22275
우지	22276
##ail	22277
##마리	22278
Night	22279
회로	22280
은메달	22281
난민	22282
노랗	22283
관문	22284
사임	22285
실적	22286
등재	22287
능가	22288
한하	22289
314	22290
공국	22291
고인	22292
부처	22293
황당	22294
시범	22295
##방울	22296
마르코	22297
호리	22298
##리얼	22299
라미	22300
레아	22301
생김새	22302
안무	22303
청하	22304
자존심	22305
방언	22306
학년도	22307
동메달	22308
섬기	22309
황태	22310
섭취	22311
피지컬	22312
벌써	22313
##사랑	22314
대검	22315
두려워하	22316
방정	22317
AV	22318
스나이퍼	22319
TS	22320
성사	22321
입시	22322
##탐정	22323
숙소	22324
머스	22325
망설	22326
천상	22327
적시타	22328
조립	22329
막부	22330
코로나	22331
건지	22332
--	22333
저글	22334
대학생	22335
극심	22336
치이	22337
그간	22338
욕망	22339
##ition	22340
응답	22341
##시고	22342
토트넘	22343
불길	22344
요격	22345
168	22346
##ild	22347
1946	22348
석사	22349
GM	22350
불참	22351
프랑크	22352
탈취	22353
스타즈	22354
##서스	22355
거세	22356
에메	22357
해역	22358
차장	22359
스파이더맨	22360
아오이	22361
그란	22362
쿠르	22363
얼티	22364
오만	22365
아메리칸	22366
각국	22367
##레아	22368
뱅가드	22369
과시	22370
통솔	22371
절단	22372
무신	22373
확립	22374
할로윈	22375
까마귀	22376
##바리	22377
##닐라	22378
##시대	22379
여태	22380
나이프	22381
그쪽	22382
펑크	22383
시시	22384
##부키	22385
스피어	22386
테리	22387
피난	22388
소서	22389
모종	22390
##스카	22391
Black	22392
페르소	22393
159	22394
HE	22395
부끄럽	22396
칼라	22397
나이츠	22398
한꺼	22399
헤라	22400
희생자	22401
한꺼번에	22402
다녀	22403
천국	22404
필사	22405
##구니	22406
BC	22407
##클린	22408
Let	22409
이별	22410
요코하마	22411
대안	22412
##}}	22413
so	22414
인텔	22415
하여금	22416
ld	22417
레버	22418
필라	22419
신생	22420
미정	22421
간판	22422
경제학	22423
국기	22424
얼리	22425
소소	22426
##키스	22427
아마존	22428
##히토	22429
부친	22430
기껏	22431
나들	22432
괴인	22433
이사장	22434
테니스	22435
강인	22436
시안	22437
나들목	22438
##IL	22439
해변	22440
원판	22441
일지	22442
아리스	22443
일조	22444
저글링	22445
점멸	22446
##멘터리	22447
스탭	22448
Op	22449
로맨스	22450
병행	22451
##파이	22452
어원	22453
히드라	22454
##당기	22455
마기	22456
욕심	22457
집필	22458
##ody	22459
도대	22460
##msys	22461
이승만	22462
1961	22463
ldmsys	22464
토우	22465
과금	22466
지루	22467
rd	22468
들르	22469
사탕	22470
김주	22471
목욕	22472
고이	22473
스윙	22474
단자	22475
대니	22476
미녀	22477
not	22478
상냥	22479
스매	22480
리버스	22481
##성군	22482
페르소나	22483
미노	22484
코끼리	22485
키요	22486
김광	22487
##워프	22488
평택	22489
지지율	22490
교향	22491
달려오	22492
##러브	22493
블라디	22494
두껍	22495
성벽	22496
주한	22497
사망자	22498
승패	22499
회계	22500
오토바이	22501
스케이	22502
메디	22503
히사	22504
가해	22505
##무지	22506
##당초	22507
항성	22508
김치	22509
##미르	22510
사이토	22511
하지	22512
##타리	22513
돌려	22514
보로	22515
그리스도	22516
오즈	22517
일일	22518
고래	22519
세례	22520
멸종	22521
지크	22522
##gr	22523
둥지	22524
빅토리아	22525
수컷	22526
스크롤	22527
다큐멘터리	22528
주파	22529
삼키	22530
중공	22531
광범	22532
파고	22533
ㄹ래	22534
디아블로	22535
BD	22536
신작	22537
##ough	22538
유머	22539
사르	22540
전도	22541
여주인	22542
동사	22543
직행	22544
물약	22545
##uc	22546
AF	22547
춤추	22548
객관	22549
##각형	22550
해전	22551
엉덩이	22552
프롤	22553
바텀	22554
전임	22555
침해	22556
수중	22557
만렙	22558
식스	22559
내밀	22560
환생	22561
믿음	22562
퍼펙트	22563
동북	22564
무녀	22565
##세지	22566
밀리언	22567
그랑프리	22568
좌파	22569
동상	22570
빙결	22571
라인하르트	22572
부제	22573
##진호	22574
리자	22575
##퍼니	22576
도배	22577
##프란	22578
화신	22579
보살	22580
정서	22581
일어	22582
##33	22583
퓨전	22584
마도카	22585
##메리카	22586
아유	22587
MM	22588
해고	22589
토라	22590
대승	22591
프랭크	22592
북서	22593
맛보	22594
세르비아	22595
원자력	22596
상원	22597
##와라	22598
금발	22599
GD	22600
루마니아	22601
진흥	22602
##시티	22603
모의	22604
무능	22605
mar	22606
껍질	22607
알렉산더	22608
발사기	22609
아포	22610
접수	22611
지각	22612
벡터	22613
외야수	22614
노부나가	22615
십자군	22616
RE	22617
도요	22618
테이프	22619
출석	22620
간지	22621
주저	22622
수아	22623
4000	22624
워드	22625
아무렇	22626
김대중	22627
불상	22628
##모습	22629
스텔스	22630
##app	22631
목포	22632
미소녀	22633
개업	22634
명장	22635
##티니	22636
##aster	22637
관광객	22638
울음	22639
1949	22640
섬멸	22641
스쿼드	22642
리프트	22643
약체	22644
도대체	22645
노릇	22646
138	22647
아슬	22648
챔스	22649
주입	22650
연세대	22651
두루	22652
크롬	22653
동아시아	22654
방안	22655
스네	22656
##은이	22657
##리히	22658
서울시	22659
샤를	22660
에코	22661
##스크림	22662
##애나	22663
##디스	22664
베이비	22665
아카네	22666
둥글	22667
##이센	22668
OG	22669
휴게	22670
운반	22671
일명	22672
이니	22673
Is	22674
구호	22675
en	22676
눈앞	22677
대국	22678
##렉터	22679
무자	22680
151	22681
두려움	22682
카일	22683
면제	22684
하와	22685
혼혈	22686
공교	22687
교대	22688
##그라	22689
퍼시	22690
공명	22691
##ari	22692
공로	22693
북동	22694
##CE	22695
##orts	22696
와이번스	22697
아니하	22698
선회	22699
스기	22700
데몬	22701
##ject	22702
평판	22703
사천	22704
폭로	22705
비로	22706
성지	22707
마을버스	22708
스모	22709
걸어가	22710
##총장	22711
천주교	22712
신념	22713
ㅔ요	22714
평상시	22715
AL	22716
컬렉션	22717
172	22718
보우	22719
타우	22720
루미	22721
인피니티	22722
히로시마	22723
이나마	22724
사지	22725
보복	22726
꺼지	22727
위시	22728
그리핀	22729
##고속도로	22730
유메	22731
격퇴	22732
PK	22733
아수	22734
숙청	22735
광범위	22736
쿄코	22737
드워프	22738
대사관	22739
대면	22740
##OO	22741
신관	22742
휴대폰	22743
이계	22744
가령	22745
컨디션	22746
애용	22747
Gu	22748
CR	22749
배리	22750
집사	22751
주공	22752
남양	22753
##긋나	22754
풍경	22755
가해자	22756
편의점	22757
큐어	22758
정우	22759
EU	22760
숭배	22761
장본	22762
라비	22763
최상급	22764
158	22765
le	22766
리부	22767
이무	22768
카사	22769
##아티아	22770
크로아티아	22771
스타워즈	22772
소마	22773
스카웃	22774
컴퍼니	22775
SA	22776
신조	22777
Am	22778
천체	22779
##다드	22780
##iel	22781
조수	22782
컴뱃	22783
##TA	22784
로비	22785
단련	22786
제발	22787
와타나베	22788
단서	22789
스칼	22790
아폴	22791
성대	22792
감성	22793
자력	22794
남한	22795
##트론	22796
찬양	22797
레슬링	22798
달콤	22799
수성	22800
##0000	22801
320	22802
EXT	22803
##부인	22804
##oh	22805
..?	22806
카게	22807
휴먼	22808
냉장	22809
우미	22810
김병	22811
떠돌	22812
Time	22813
정답	22814
math	22815
일련	22816
으려면	22817
##ye	22818
독백	22819
원한	22820
민폐	22821
광복	22822
아르바이트	22823
아쉬움	22824
섬광	22825
Mag	22826
솔저	22827
홈경기	22828
테레	22829
흑막	22830
구제	22831
##클리	22832
권하	22833
기온	22834
케리	22835
강동	22836
테오	22837
티저	22838
점하	22839
효소	22840
EZ	22841
법안	22842
유즈	22843
뻔하	22844
수확	22845
주차장	22846
스톡	22847
불화	22848
시네마	22849
제인	22850
건립	22851
가이아	22852
남학생	22853
추모	22854
대교	22855
상시	22856
도스	22857
##eth	22858
지면	22859
뒤쪽	22860
상어	22861
보직	22862
타카하시	22863
무선	22864
##ings	22865
서바이벌	22866
##ats	22867
균열	22868
표기법	22869
하도	22870
##프라	22871
176	22872
##조합	22873
라이드	22874
개막전	22875
장본인	22876
눈동자	22877
무슬	22878
AB	22879
통보	22880
던지라	22881
민병	22882
Don	22883
신임	22884
사범	22885
적이	22886
살아오	22887
일각	22888
##오피스	22889
바닷	22890
이점	22891
##ron	22892
TOP	22893
의의	22894
무지개	22895
배후	22896
트이	22897
리믹스	22898
지미	22899
단역	22900
우기	22901
GSL	22902
UC	22903
센트럴	22904
걸음	22905
대명	22906
강아지	22907
어기	22908
투고	22909
내정	22910
인플	22911
승려	22912
자루	22913
주의자	22914
로크	22915
문헌	22916
315	22917
CL	22918
청사	22919
탁월	22920
카이저	22921
오공	22922
쿠사	22923
비즈	22924
순천	22925
손잡이	22926
고난	22927
##바람	22928
깃털	22929
##eah	22930
아이즈	22931
ATK	22932
##덕션	22933
천지	22934
어벤져	22935
내면	22936
재질	22937
NT	22938
문법	22939
전염	22940
얼티밋	22941
다녀오	22942
유라	22943
실업	22944
직무	22945
그리하여	22946
탐구	22947
김일성	22948
무슬림	22949
하우	22950
일산	22951
126	22952
찔리	22953
제대	22954
캡슐	22955
##맥스	22956
국민당	22957
유해	22958
##중간	22959
결과물	22960
시련	22961
충남	22962
##도전	22963
##내리	22964
여수	22965
##운수	22966
슬라이드	22967
보트	22968
가나	22969
마미	22970
이호	22971
타스	22972
악행	22973
##ult	22974
154	22975
##총리	22976
1958	22977
응급	22978
타리	22979
블랙홀	22980
성직자	22981
132	22982
이순신	22983
염색	22984
동이	22985
스파크	22986
ver	22987
이세	22988
흉내	22989
자작	22990
표식	22991
금고	22992
##성이	22993
164	22994
흑역사	22995
총사	22996
충고	22997
신상	22998
##나르	22999
크라운	23000
미세	23001
매그	23002
총선거	23003
박스오피스	23004
치고	23005
김윤	23006
소꿉	23007
로열	23008
독보	23009
ME	23010
발톱	23011
쿠리	23012
하나님	23013
노비	23014
1941	23015
정의당	23016
서원	23017
친일	23018
진도	23019
자카	23020
예고편	23021
병살	23022
리터	23023
##inal	23024
##ov	23025
무한도전	23026
유마	23027
피드	23028
리우스	23029
라틴어	23030
고조	23031
다저스	23032
호응	23033
레이지	23034
토론토	23035
어판	23036
마지	23037
합법	23038
습하	23039
으리	23040
보가	23041
코프	23042
표하	23043
will	23044
감금	23045
iOS	23046
심정	23047
풀려나	23048
그레이드	23049
무비	23050
재수	23051
르노	23052
병과	23053
가왕	23054
콜롬	23055
계략	23056
지지자	23057
간파	23058
당나라	23059
수라	23060
##느님	23061
new	23062
궁수	23063
도사	23064
KB	23065
마가	23066
차림	23067
과격	23068
군데	23069
1954	23070
니트	23071
우두머리	23072
성폭	23073
바이킹	23074
##널드	23075
강수	23076
LE	23077
하느님	23078
동등	23079
주황	23080
삽질	23081
저항력	23082
라이트닝	23083
렀다	23084
Mi	23085
리볼	23086
보루	23087
이즈미	23088
성숙	23089
방울	23090
완벽히	23091
겨루	23092
WH	23093
배열	23094
테란	23095
##oul	23096
쫓기	23097
가미	23098
강서	23099
방정식	23100
폴아웃	23101
156	23102
139	23103
##바스	23104
몸매	23105
##GA	23106
갈기	23107
사료	23108
유신	23109
매기	23110
##alk	23111
태조	23112
##==	23113
거꾸	23114
안보	23115
취지	23116
거스르	23117
Ser	23118
인천광역시	23119
구청	23120
어그	23121
지표	23122
통틀어	23123
크로우	23124
진하	23125
##tern	23126
플리	23127
호스	23128
오로치	23129
like	23130
허브	23131
##yn	23132
하드웨어	23133
스치	23134
전법	23135
##ob	23136
Your	23137
응시	23138
리츠	23139
강습	23140
218	23141
153	23142
흉악	23143
레시피	23144
##타르	23145
제너	23146
스콜	23147
패왕	23148
##up	23149
손목	23150
2023	23151
##엘라	23152
지배자	23153
Car	23154
마수	23155
프로덕션	23156
##빨리	23157
아테나	23158
맷집	23159
##MAN	23160
세미	23161
오키나	23162
##슬링	23163
저승	23164
생물학	23165
{{{-	23166
##베르트	23167
발현	23168
번식	23169
이용객	23170
프로이센	23171
청장	23172
나란히	23173
##주의자	23174
트론	23175
안젤	23176
드루이드	23177
김성근	23178
공모	23179
무색	23180
테크닉	23181
먼지	23182
##활약	23183
상공	23184
웨폰	23185
장신구	23186
코디	23187
후쿠시마	23188
지터	23189
상의	23190
태권	23191
이인	23192
교정	23193
빗나가	23194
완성도	23195
미시	23196
##프란시스코	23197
반기	23198
샌프란시스코	23199
야망	23200
이쿠	23201
더미	23202
##ould	23203
선봉	23204
디비전	23205
급식	23206
이리저리	23207
버거	23208
어드밴	23209
엠블	23210
##저래	23211
148	23212
유능	23213
##제스	23214
노라	23215
맥락	23216
##레이크	23217
##reak	23218
봉하	23219
이래저래	23220
벌금	23221
키노	23222
지성	23223
충격파	23224
##ions	23225
난리	23226
누이	23227
라이징	23228
후면	23229
섬유	23230
레바	23231
떨구	23232
짝사랑	23233
핑계	23234
셋째	23235
마마	23236
설탕	23237
전두	23238
##보우	23239
오바	23240
후반전	23241
동년	23242
167	23243
브라우	23244
##der	23245
나열	23246
재벌	23247
이광	23248
쥬얼	23249
동지	23250
법학	23251
##13	23252
미남	23253
163	23254
필두	23255
양심	23256
이영호	23257
##able	23258
카제	23259
##레븐	23260
신주	23261
우편	23262
표창	23263
상속	23264
##18	23265
142	23266
음향	23267
Fl	23268
감기	23269
one	23270
174	23271
대법원	23272
김선	23273
초등학생	23274
과언	23275
능하	23276
워너	23277
전례	23278
무궁	23279
시간대	23280
조던	23281
맞대	23282
거꾸로	23283
##친구	23284
##처럼	23285
파이프	23286
리리	23287
접전	23288
통행	23289
##사고	23290
1943	23291
##고사	23292
..!	23293
종말	23294
모에	23295
203	23296
복음	23297
시뮬레이션	23298
네스	23299
양국	23300
ㄴ가요	23301
숙련도	23302
커플링	23303
휴스턴	23304
놔두	23305
무죄	23306
범하	23307
배상	23308
##차리	23309
몰려오	23310
오케스트라	23311
##퀘어	23312
저격수	23313
김두	23314
네크로	23315
도모	23316
박탈	23317
유카리	23318
배율	23319
스페인어	23320
타키	23321
최하	23322
반장	23323
연달	23324
혼동	23325
사가	23326
애국	23327
공격기	23328
파우	23329
하츠네	23330
야마모토	23331
당원	23332
##무네	23333
Gaming	23334
스케줄	23335
볼드	23336
##문화	23337
GK	23338
장시	23339
타당	23340
드로	23341
추출	23342
##라이언스	23343
크리스토	23344
##터스	23345
1942	23346
자키	23347
##결승	23348
고우	23349
엉뚱	23350
ㄴ단	23351
로제	23352
부호	23353
유타	23354
##백과	23355
통증	23356
종사	23357
##트랙	23358
스마일	23359
오역	23360
10000	23361
##ull	23362
단의	23363
##기업	23364
SSR	23365
##15	23366
애드	23367
어제	23368
어긋나	23369
쫓아내	23370
대등	23371
맞먹	23372
##ll	23373
##타니	23374
ㄴ듯	23375
데미	23376
주유	23377
가히	23378
꾸리	23379
##셉트	23380
얼라이언스	23381
수도원	23382
냉장고	23383
장례식	23384
제프	23385
137	23386
맹활약	23387
쟁이	23388
사내	23389
Min	23390
수령	23391
##니코	23392
TP	23393
##시다	23394
절정	23395
처녀	23396
143	23397
1956	23398
se	23399
플라스틱	23400
달인	23401
몰아넣	23402
연안	23403
버블	23404
탄막	23405
인명	23406
황실	23407
CN	23408
황혼	23409
무안	23410
창당	23411
카인	23412
단식	23413
RO	23414
대외	23415
pr	23416
앞세우	23417
##투아	23418
가라앉	23419
창작물	23420
약칭	23421
회견	23422
시끄럽	23423
주가	23424
굳히	23425
미쓰	23426
월요일	23427
##니즘	23428
여주인공	23429
노하	23430
제자리	23431
숙주	23432
칠레	23433
연고지	23434
마스코트	23435
주술사	23436
염두	23437
##FL	23438
한층	23439
초상화	23440
생애	23441
승급	23442
역학	23443
범주	23444
정교회	23445
바이크	23446
깨우	23447
##니스탄	23448
음력	23449
아수라	23450
갈구	23451
##상가	23452
##립트	23453
157	23454
##재기	23455
산화	23456
밀레	23457
수하	23458
원화	23459
진로	23460
쳐들어오	23461
사야카	23462
빈약	23463
원년	23464
미하	23465
이준	23466
미트	23467
차일드	23468
사소	23469
릴리스	23470
현직	23471
##더슨	23472
영등	23473
태자	23474
레인보우	23475
레이븐	23476
##ube	23477
토비	23478
전학	23479
##랄드	23480
증기	23481
LTE	23482
제지	23483
과감	23484
##전사	23485
카토	23486
인체	23487
능숙	23488
##모어	23489
오리온	23490
죄수	23491
구마	23492
NM	23493
129	23494
공고	23495
순간이동	23496
##ECT	23497
득실	23498
IV	23499
런처	23500
러너	23501
졸업식	23502
헤드샷	23503
have	23504
폴리스	23505
꼴찌	23506
레슨	23507
오디오	23508
사우루스	23509
시흥	23510
외관	23511
리볼버	23512
한강	23513
대군	23514
오비	23515
무너	23516
무너뜨리	23517
앞면	23518
이오리	23519
트러	23520
찰나	23521
평창	23522
133	23523
클라우드	23524
델타	23525
생각나	23526
별칭	23527
out	23528
잔해	23529
연막	23530
오쿠	23531
갈리아	23532
##ICE	23533
남미	23534
##보라	23535
이만	23536
##물리	23537
사당	23538
관계없이	23539
초래	23540
##소수	23541
유대인	23542
카렌	23543
투사	23544
기관포	23545
해상도	23546
BGA	23547
관절	23548
축구단	23549
싱어	23550
페미니즘	23551
대목	23552
환호	23553
Sum	23554
146	23555
시에	23556
알아차리	23557
코레	23558
이력	23559
바나나	23560
몰아내	23561
세키	23562
호프	23563
바그	23564
반란군	23565
가와	23566
노골	23567
무단	23568
박종	23569
설마	23570
##니스트	23571
1939	23572
베어	23573
득표수	23574
격하	23575
뮤지션	23576
경찰청	23577
밀어붙이	23578
소우	23579
체스	23580
두뇌	23581
136	23582
##스티스	23583
따내	23584
230	23585
순찰	23586
313	23587
전반기	23588
십자가	23589
북구	23590
173	23591
공습	23592
청룡	23593
단총	23594
고질	23595
방벽	23596
한정판	23597
라시	23598
입법	23599
HS	23600
혹평	23601
확고	23602
바티	23603
후대	23604
크리스티	23605
목재	23606
차분	23607
자포	23608
너클	23609
웨일	23610
극우	23611
쳐다보	23612
##의회	23613
##ica	23614
un	23615
망설이	23616
##대사	23617
공짜	23618
우산	23619
키드	23620
##에트	23621
코지	23622
기이	23623
스바	23624
1959	23625
화약	23626
하비	23627
##교통	23628
경선	23629
자회사	23630
앵커	23631
소꿉친구	23632
기술력	23633
내뱉	23634
파키스탄	23635
브레스	23636
##박이	23637
솔직히	23638
지요	23639
나카무라	23640
프로그래밍	23641
구독자	23642
섹스	23643
##제국	23644
##회장	23645
1900	23646
다지만	23647
개미	23648
호출	23649
기쁨	23650
빙의	23651
##che	23652
ALL	23653
BM	23654
Play	23655
태종	23656
인터페이스	23657
테일즈	23658
영화배우	23659
쇼트	23660
As	23661
방화	23662
아래쪽	23663
설비	23664
끓이	23665
공자	23666
무식	23667
1955	23668
아테네	23669
로지	23670
##티넘	23671
플래티넘	23672
BO	23673
랜서	23674
플레임	23675
지주	23676
오딘	23677
표본	23678
##권자	23679
프로스트	23680
149	23681
##ict	23682
친정	23683
빈번	23684
##무게	23685
몸무게	23686
입국	23687
지극	23688
1936	23689
테러리	23690
브루스	23691
##베리아	23692
강탈	23693
실바	23694
##드리히	23695
난투	23696
키즈	23697
비참	23698
폐허	23699
##스틴	23700
우파	23701
##토랑	23702
제조사	23703
발하	23704
번갈	23705
레스토랑	23706
진구	23707
맹독	23708
ㄹ까요	23709
오키나와	23710
동로	23711
카테고리	23712
스트로	23713
줄리	23714
공천	23715
134	23716
극악	23717
메테	23718
남서	23719
바인	23720
도쿠가와	23721
출제	23722
슬슬	23723
000000	23724
팬티	23725
Red	23726
달래	23727
시초	23728
가로막	23729
카오루	23730
미들	23731
리뉴	23732
전수	23733
치마	23734
##ock	23735
팀장	23736
넓히	23737
서장	23738
해태	23739
채찍	23740
플레이버	23741
##STER	23742
set	23743
##YP	23744
##로프	23745
박명	23746
BT	23747
힌트	23748
심화	23749
라파	23750
혼다	23751
##날두	23752
##천사	23753
얼터	23754
경보	23755
포니	23756
호날두	23757
프리드리히	23758
la	23759
샤오	23760
사나이	23761
부흥	23762
수영복	23763
##ater	23764
서치	23765
공과	23766
OF	23767
CB	23768
하의	23769
여장	23770
know	23771
저조	23772
리셋	23773
퍼센트	23774
클리셰	23775
파랑	23776
나사	23777
CO	23778
찰리	23779
포맷	23780
운항	23781
진리	23782
수용소	23783
147	23784
EV	23785
잠그	23786
##DX	23787
망상	23788
##무이	23789
캐슬	23790
##주군	23791
margin	23792
##ons	23793
멘붕	23794
미모	23795
히카루	23796
오세	23797
가혹	23798
텔레포트	23799
##IV	23800
유선	23801
1952	23802
##ange	23803
[...]
