[UNK]
[CLS]
[SEP]
[PAD]
[MASK]
!
"
#
$
%
&
'
(
)
*
+
,
-
.
/
0
1
2
3
4
5
6
7
8
9
:
;
<
=
>
?
@
A
B
C
D
E
F
G
H
I
J
K
L
M
N
O
P
Q
R
S
T
U
V
W
X
Y
Z
[
\
]
^
_
`
a
b
c
d
e
f
g
h
i
j
k
l
m
n
o
p
q
r
s
t
u
v
w
x
y
z
{
|
}
~

ᄀ
ㄱ
ㄲ
ㄳ
ㄴ
ㄵ
ㄶ
ㄷ
ㄸ
ㄹ
ㄺ
ㄻ
ㄼ
ㄽ
ㄾ
ㄿ
ㅀ
ㅁ
ㅂ
ㅃ
ㅄ
ㅅ
ㅆ
ㅇ
ㅈ
ㅉ
ㅊ
ㅋ
ㅌ
ㅍ
ㅎ
ㅏ
ㅐ
ㅑ
ㅒ
ㅓ
ㅔ
ㅕ
ㅖ
ㅗ
ㅘ
ㅙ
ㅚ
ㅛ
ㅜ
ㅝ
ㅞ
ㅟ
ㅠ
ㅡ
ㅢ
ㅣ
가
각
갂
갃
간
갅
갆
갇
갈
갉
갊
갋
갌
갍
갎
갏
감
갑
값
갓
갔
강
갖
갗
갘
같
갚
갛
개
객
갞
갟
갠
갡
갢
갣
갤
갥
갦
갧
갨
갩
갪
갫
갬
갭
갮
갯
갰
갱
갲
갳
갴
갵
갶
갷
갸
갹
갺
갻
갽
갾
갿
걀
걁
걂
걃
걄
걅
걆
걇
걈
걉
걊
걋
걌
걍
걎
걏
걐
걑
걒
걓
걔
걕
걖
걗
걙
걚
걛
걝
걞
걟
걠
걡
걢
걣
걤
걥
걦
걧
걨
걩
걪
걫
걬
걭
걮
걯
거
걱
걲
걳
건
걵
걶
걷
걸
걹
걺
걻
걼
걽
걾
걿
검
겁
겂
것
겄
겅
겆
겇
겈
겉
겊
겋
게
겍
겎
겏
겐
겑
겒
겓
겔
겕
겖
겗
겘
겙
겚
겛
겜
겞
겟
겠
겡
겢
겣
겤
겥
겦
겧
겨
격
겪
겫
견
겭
겮
겯
결
겱
겲
겳
겴
겵
겶
겷
겸
겹
겺
겻
겼
경
겾
겿
곀
곁
곂
곃
계
곅
곆
곇
곈
곉
곊
곋
곌
곍
곎
곏
곐
곑
곒
곓
곔
곕
곖
곗
곘
곙
곚
곛
곜
곝
곞
곟
고
곡
곢
곣
곤
곥
곦
곧
골
곩
곪
곫
곬
곭
곮
곯
곰
곱
곲
곳
곴
공
곶
곷
곸
곹
곺
곻
과
곽
곾
곿
관
괁
괂
괃
괄
괅
괆
괇
괈
괉
괊
괋
괌
괍
괎
괏
괐
광
괒
괓
괔
괕
괖
괗
괘
괙
괚
괛
괜
괝
괞
괟
괠
괡
괢
괣
괤
괥
괦
괧
괨
괩
괪
괫
괬
괭
괮
괯
괰
괱
괲
괳
괴
괵
괶
괷
괸
괹
괺
괻
괼
괽
괾
괿
굀
굁
굂
굃
굄
굅
굆
굇
굈
굉
굊
굋
굌
굍
굎
굏
교
굑
굒
굓
굔
굕
굖
굗
굘
굙
굚
굛
굜
굝
굞
굟
굠
굡
굢
굣
굤
굥
굦
굧
굨
굩
굪
굫
구
국
굮
굯
군
굱
굲
굳
굴
굵
굶
굷
굸
굹
굺
굻
굼
굽
굾
굿
궀
궁
궂
궃
궄
궅
궆
궇
궈
궉
궊
궋
권
궍
궎
궏
궐
궑
궒
궓
궔
궕
궖
궗
궘
궙
궚
궛
궜
궝
궞
궟
궠
궡
궢
궣
궤
궥
궦
궧
궨
궩
궪
궫
궬
궭
궮
궯
궰
궱
궲
궳
궴
궵
궶
궷
궸
궹
궺
궻
궼
궽
궾
궿
귀
귁
귂
귃
귄
귅
귆
귇
귈
귉
귊
귋
귌
귍
귎
귏
귐
귑
귒
귓
귔
귕
귖
귗
귘
귙
귚
귛
규
귝
귞
귟
균
귡
귢
귣
귤
귥
귦
귧
귨
귩
귪
귫
귬
귭
귮
귯
귰
귱
귲
귳
귴
귵
귶
귷
그
극
귺
귻
근
귽
귾
귿
글
긁
긂
긃
긄
긅
긆
긇
금
급
긊
긋
긌
긍
긎
긏
긐
긑
긒
긓
긔
긕
긖
긗
긘
긙
긚
긛
긜
긝
긞
긟
긠
긡
긢
긣
긤
긥
긦
긧
긨
긩
긪
긫
긬
긭
긮
긯
기
긱
긲
긳
긴
긵
긶
긷
길
긹
긺
긻
긼
긽
긾
긿
김
깁
깂
깃
깄
깅
깆
깇
깈
깉
깊
깋
까
깍
깎
깏
깐
깑
깒
깓
깔
깕
깖
깗
깘
깙
깚
깛
깜
깝
깞
깟
깡
깢
깣
깤
깥
깦
깧
깨
깩
깪
깫
깬
깭
깮
깯
깱
깲
깳
깴
깵
깶
깷
깸
깹
깺
깻
깽
깾
깿
꺀
꺁
꺂
꺃
꺄
꺅
꺆
꺇
꺈
꺉
꺊
꺋
꺌
꺍
꺎
꺏
꺐
꺑
꺒
꺓
꺔
꺕
꺖
꺗
꺘
꺙
꺚
꺛
꺜
꺝
꺞
꺟
꺠
꺡
꺢
꺣
꺤
꺥
꺦
꺧
꺨
꺩
꺪
꺫
꺬
꺭
꺮
꺯
꺰
꺱
꺲
꺳
꺴
꺵
꺶
꺷
꺸
꺹
꺺
꺻
꺼
꺽
꺾
꺿
껀
껁
껂
껃
껄
껅
껆
껇
껈
껉
껊
껋
껌
껍
껎
껏
껑
껒
껓
껔
껕
껖
껗
께
껙
껚
껛
껝
껞
껟
껠
껡
껢
껣
껤
껥
껦
껧
껨
껩
껪
껫
껬
껭
껮
껯
껰
껱
껲
껳
껴
껵
껶
껷
껸
껹
껺
껻
껼
껽
껾
껿
꼀
꼁
꼂
꼃
꼄
꼅
꼆
꼇
꼈
꼉
꼊
꼋
꼌
꼍
꼎
꼏
꼐
꼑
꼒
꼓
꼔
꼕
꼖
꼗
꼘
꼙
꼚
꼛
꼜
꼝
꼞
꼟
꼠
꼡
꼢
꼣
꼤
꼥
꼦
꼧
꼨
꼩
꼪
꼫
꼬
꼭
꼮
꼯
꼰
꼱
꼲
꼳
꼴
꼵
꼶
꼷
꼸
꼹
꼺
꼻
꼼
꼽
꼾
꼿
꽀
꽁
꽂
꽃
꽄
꽅
꽆
꽇
꽈
꽉
꽊
꽋
꽌
꽍
꽎
꽏
꽐
꽑
꽒
꽓
꽔
꽕
꽖
꽗
꽘
꽙
꽚
꽛
꽜
꽝
꽞
꽟
꽠
꽡
꽢
꽣
꽤
꽥
꽦
꽧
꽨
꽩
꽪
꽫
꽬
꽭
꽮
꽯
꽰
꽱
꽲
꽳
꽴
꽵
꽶
꽷
꽸
꽹
꽺
꽻
꽼
꽽
꽾
꽿
꾀
꾁
꾂
꾃
꾄
꾅
꾆
꾇
꾈
꾉
꾊
꾋
꾌
꾍
꾎
꾏
꾐
꾑
꾒
꾓
꾔
꾕
꾖
꾗
꾘
꾙
꾚
꾛
꾜
꾝
꾞
꾟
꾠
꾡
꾢
꾣
꾤
꾥
꾦
꾧
꾨
꾩
꾪
꾫
꾬
꾭
꾮
꾯
꾰
꾱
꾲
꾳
꾴
꾵
꾶
꾷
꾸
꾹
꾺
꾻
꾼
꾽
꾾
꾿
꿀
꿁
꿂
꿃
꿄
꿅
꿆
꿇
꿈
꿉
꿊
꿋
꿌
꿍
꿎
꿏
꿐
꿑
꿒
꿓
꿔
꿕
꿖
꿗
꿘
꿙
꿚
꿛
꿜
꿝
꿞
꿟
꿠
꿡
꿢
꿣
꿤
꿥
꿦
꿧
꿨
꿩
꿪
꿫
꿬
꿭
꿮
꿯
꿰
꿱
꿲
꿳
꿵
꿶
꿷
꿹
꿺
꿻
꿼
꿽
꿾
꿿
뀀
뀁
뀂
뀃
뀅
뀆
뀇
뀈
뀉
뀊
뀋
뀌
뀍
뀎
뀏
뀐
뀑
뀒
뀓
뀕
뀖
뀗
뀘
뀙
뀚
뀛
뀜
뀝
뀞
뀟
뀠
뀡
뀢
뀣
뀤
뀥
뀦
뀧
뀨
뀩
뀪
뀫
뀬
뀭
뀮
뀯
뀰
뀱
뀲
뀳
뀴
뀵
뀶
뀷
뀸
뀹
뀺
뀻
뀼
뀽
뀾
뀿
끀
끁
끂
끃
끄
끅
끆
끇
끈
끉
끊
끋
끌
끍
끎
끏
끐
끑
끒
끓
끔
끕
끖
끗
끘
끙
끚
끛
끜
끝
끞
끟
끠
끡
끢
끣
끤
끥
끦
끧
끨
끩
끪
끫
끬
끭
끮
끯
끰
끱
끲
끳
끴
끵
끶
끷
끸
끹
끺
끻
끼
끽
끾
끿
낀
낁
낂
낃
낄
낅
낆
낇
낈
낉
낊
낋
낌
낍
낎
낏
낐
낑
낒
낓
낔
낕
낖
낗
나
낙
낚
낛
난
낝
낞
낟
날
낡
낢
낣
낤
낥
낦
낧
남
납
낪
낫
났
낭
낮
낯
낰
낱
낲
낳
내
낵
낶
낷
낸
낹
낺
낻
낼
낽
낾
낿
냀
냁
냂
냃
냄
냅
냆
냇
냈
냉
냊
냋
냌
냍
냎
냏
냐
냑
냒
냓
냔
냕
냖
냗
냘
냙
냚
냛
냜
냝
냞
냟
냠
냡
냢
냣
냤
냥
냦
냧
냨
냩
냪
냫
냬
냭
냮
냯
냰
냱
냲
냳
냴
냵
냶
냷
냸
냹
냺
냻
냼
냽
냾
냿
넀
넁
넂
넃
넄
넅
넆
넇
너
넉
넊
넋
넌
넍
넎
넏
널
넑
넒
넓
넔
넕
넖
넗
넘
넙
넚
넛
넜
넝
넞
넟
넠
넡
넢
넣
네
넥
넦
넧
넨
넩
넪
넫
넬
넭
넮
넯
넰
넱
넲
넳
넴
넵
넶
넷
넸
넹
넺
넻
넼
넽
넾
넿
녀
녁
녂
녃
년
녅
녆
녇
녈
녉
녊
녋
녌
녍
녎
녏
념
녑
녒
녓
녔
녕
녖
녗
녘
녙
녚
녛
녜
녝
녞
녟
녠
녡
녢
녣
녤
녥
녦
녧
녨
녩
녪
녫
녬
녭
녮
녯
녰
녱
녲
녳
녴
녵
녶
녷
노
녹
녺
녻
논
녽
녾
녿
놀
놁
놂
놃
놄
놅
놆
놇
놈
놉
놊
놋
놌
농
놎
놏
놐
놑
높
놓
놔
놕
놖
놗
놘
놙
놚
놛
놜
놝
놞
놟
놠
놡
놢
놣
놤
놥
놦
놧
놨
놩
놪
놫
놬
놭
놮
놯
놰
놱
놲
놳
놴
놵
놶
놷
놸
놹
놺
놻
놼
놽
놾
놿
뇀
뇁
뇂
뇃
뇄
뇅
뇆
뇇
뇈
뇉
뇊
뇋
뇌
뇍
뇎
뇏
뇐
뇑
뇒
뇓
뇔
뇕
뇖
뇗
뇘
뇙
뇚
뇛
뇜
뇝
뇞
뇟
뇠
뇡
뇢
뇣
뇤
뇥
뇦
뇧
뇨
뇩
뇪
뇫
뇬
뇭
뇮
뇯
뇰
뇱
뇲
뇳
뇴
뇵
뇶
뇷
뇸
뇹
뇺
뇻
뇼
뇽
뇾
뇿
눀
눁
눂
눃
누
눅
눆
눇
눈
눉
눊
눋
눌
눍
눎
눏
눐
눑
눒
눓
눔
눕
눖
눗
눘
눙
눚
눛
눜
눝
눞
눟
눡
눢
눣
눤
눥
눦
눧
눨
눩
눪
눫
눬
눭
눮
눯
눰
눱
눲
눳
눵
눶
눷
눸
눹
눺
눻
눼
눽
눾
눿
뉀
뉁
뉂
뉃
뉄
뉅
뉆
뉇
뉈
뉉
뉊
뉋
뉌
뉍
뉎
뉏
뉐
뉑
뉒
뉓
뉔
뉕
뉖
뉗
뉘
뉙
뉚
뉛
뉜
뉝
뉞
뉟
뉡
뉢
뉣
뉤
뉥
뉦
뉧
뉨
뉩
뉪
뉫
뉬
뉭
뉮
뉯
뉰
뉱
뉲
뉳
뉴
뉵
뉶
뉷
뉸
뉹
뉺
뉻
뉼
뉽
뉾
뉿
늀
늁
늂
늃
늄
늅
늆
늇
늈
늉
늊
늋
늌
늍
늎
늏
느
늑
늒
늓
는
늕
늖
늗
늘
늙
늚
늛
늜
늝
늞
늟
늠
늡
늢
늣
늤
능
늦
늧
늨
늩
늪
늫
늬
늭
늮
늯
늰
늱
늲
늳
늴
늵
늶
늷
늸
늹
늺
늻
늼
늽
늾
늿
닀
닁
닂
닃
닄
닅
닆
닇
니
닉
닊
닋
닌
닍
닎
닏
닐
닑
닒
닓
닔
닕
닖
닗
님
닙
닚
닛
닜
닝
닞
닟
닠
닡
닢
닣
다
닥
닦
닧
단
닩
닪
닫
달
닭
닮
닯
닰
닱
닲
닳
담
답
닶
닷
닸
당
닺
닻
닼
닽
닾
닿
대
댁
댂
댃
댄
댅
댆
댇
댈
댉
댊
댋
댌
댍
댎
댏
댐
댑
댒
댓
댔
댕
댖
댗
댘
댙
댚
댛
댜
댝
댞
댟
댠
댡
댢
댣
댤
댥
댦
댧
댨
댩
댪
댫
댬
댭
댮
댯
댰
댱
댲
댳
댴
댵
댶
댷
댸
댹
댺
댻
댼
댽
댾
댿
덀
덁
덂
덃
덄
덅
덆
덇
덈
덉
덊
덋
덌
덍
덎
덏
덐
덑
덒
덓
더
덕
덖
덗
던
덙
덚
덛
덜
덝
덞
덟
덠
덡
덢
덣
덤
덥
덦
덧
덨
덩
덪
덫
덬
덭
덮
덯
데
덱
덲
덳
덴
덵
덶
덷
델
덹
덺
덻
덼
덽
덾
덿
뎀
뎁
뎂
뎃
뎄
뎅
뎆
뎇
뎈
뎉
뎊
뎋
뎌
뎍
뎎
뎏
뎐
뎑
뎒
뎓
뎔
뎕
뎖
뎗
뎘
뎙
뎚
뎛
뎜
뎝
뎞
뎟
뎠
뎡
뎢
뎣
뎤
뎥
뎦
뎧
뎨
뎩
뎪
뎫
뎬
뎭
뎮
뎯
뎰
뎱
뎲
뎳
뎴
뎵
뎶
뎷
뎸
뎹
뎺
뎻
뎼
뎽
뎾
뎿
돀
돁
돂
돃
도
독
돆
돇
돈
돉
돊
돋
돌
돍
돎
돏
돐
돑
돒
돓
돔
돕
돖
돗
돘
동
돚
돛
돜
돝
돞
돟
돠
돡
돢
돣
돤
돥
돦
돧
돨
돩
돪
돫
돬
돭
돮
돯
돰
돱
돲
돳
돴
돵
돶
돷
돸
돹
돺
돻
돼
돽
돾
돿
됀
됁
됂
됃
됄
됅
됆
됇
됈
됉
됊
됋
됌
됍
됎
됏
됐
됑
됒
됓
됔
됕
됖
됗
되
됙
됚
됛
된
됝
됞
됟
될
됡
됢
됣
됤
됥
됦
됧
됨
됩
됪
됫
됬
됭
됮
됯
됰
됱
됲
됳
됴
됵
됶
됷
됸
됹
됺
됻
됼
됽
됾
됿
둀
둁
둂
둃
둄
둅
둆
둇
둈
둉
둊
둋
둌
둍
둎
둏
두
둑
둒
둓
둔
둕
둖
둗
둘
둙
둚
둛
둜
둝
둞
둟
둠
둡
둢
둣
둤
둥
둦
둧
둨
둩
둪
둫
둬
둭
둮
둯
둰
둱
둲
둳
둴
둵
둶
둷
둸
둹
둺
둻
둼
둽
둾
둿
뒁
뒂
뒃
뒄
뒅
뒆
뒇
뒈
뒉
뒊
뒋
뒌
뒍
뒎
뒏
뒐
뒑
뒒
뒓
뒔
뒕
뒖
뒗
뒘
뒙
뒚
뒛
뒜
뒝
뒞
뒟
뒠
뒡
뒢
뒣
뒤
뒥
뒦
뒧
뒨
뒩
뒪
뒫
뒬
뒭
뒮
뒯
뒰
뒱
뒲
뒳
뒴
뒵
뒶
뒷
뒸
뒹
뒺
뒻
뒼
뒽
뒾
뒿
듀
듁
듂
듃
듄
듅
듆
듇
듈
듉
듊
듋
듌
듍
듎
듏
듐
듑
듒
듓
듔
듕
듖
듗
듘
듙
듚
듛
드
득
듞
듟
든
듡
듢
듣
들
듥
듦
듧
듨
듩
듪
듫
듬
듭
듮
듯
듰
등
듲
듳
듴
듵
듶
듷
듸
듹
듺
듻
듼
듽
듾
듿
딀
딁
딂
딃
딄
딅
딆
딇
딈
딉
딊
딋
딌
딍
딎
딏
딐
딑
딒
딓
디
딕
딖
딗
딘
딙
딚
딛
딜
딝
딞
딟
딠
딡
딢
딣
딤
딥
딦
딧
딨
딩
딪
딫
딬
딭
딮
딯
따
딱
딲
딳
딴
딵
딶
딷
딸
딹
딺
딻
딼
딽
딾
딿
땀
땁
땂
땃
땅
땆
땇
땈
땉
땊
땋
때
땍
땎
땏
땐
땑
땒
땓
땔
땕
땖
땗
땘
땙
땚
땛
땜
땝
땞
땟
땠
땡
땢
땣
땤
땥
땦
땧
땨
땩
땪
땫
땬
땭
땮
땯
땰
땱
땲
땳
땴
땵
땶
땷
땸
땹
땺
땻
땼
땽
땾
땿
떀
떁
떂
떃
떄
떅
떆
떇
떈
떉
떊
떋
떌
떍
떎
떏
떐
떑
떒
떓
떔
떕
떖
떗
떘
떙
떚
떛
떜
떝
떞
떟
떠
떡
떢
떣
떤
떥
떦
떧
떨
떩
떪
떫
떬
떭
떮
떯
떰
떱
떲
떳
떵
떶
떷
떸
떹
떺
떻
떼
떽
떾
떿
뗀
뗁
뗂
뗃
뗄
뗅
뗆
뗇
뗈
뗉
뗊
뗋
뗌
뗍
뗎
뗏
뗑
뗒
뗓
뗔
뗕
뗖
뗗
뗘
뗙
뗚
뗛
뗜
뗝
뗞
뗟
뗠
뗡
뗢
뗣
뗤
뗥
뗦
뗧
뗨
뗩
뗪
뗫
뗭
뗮
뗯
뗰
뗱
뗲
뗳
뗴
뗵
뗶
뗷
뗸
뗹
뗺
뗻
뗼
뗽
뗾
뗿
똀
똁
똂
똃
똄
똅
똆
똇
똈
똉
똊
똋
똌
똍
똎
똏
또
똑
똒
똓
똔
똕
똖
똗
똘
똙
똚
똛
똜
똝
똞
똟
똠
똡
똢
똣
똤
똥
똦
똧
똨
똩
똪
똫
똬
똭
똮
똯
똰
똱
똲
똳
똴
똵
똶
똷
똸
똹
똺
똻
똼
똽
똾
똿
뙀
뙁
뙂
뙃
뙄
뙅
뙆
뙇
뙈
뙉
뙊
뙋
뙌
뙍
뙎
뙏
뙐
뙑
뙒
뙓
뙔
뙕
뙖
뙗
뙘
뙙
뙚
뙛
뙜
뙝
뙞
뙟
뙠
뙡
뙢
뙣
뙤
뙥
뙦
뙧
뙨
뙩
뙪
뙫
뙬
뙭
뙮
뙯
뙰
뙱
뙲
뙳
뙴
뙵
뙶
뙷
뙸
뙹
뙺
뙻
뙼
뙽
뙾
뙿
뚀
뚁
뚂
뚃
뚄
뚅
뚆
뚇
뚈
뚉
뚊
뚋
뚌
뚍
뚎
뚏
뚐
뚑
뚒
뚓
뚔
뚕
뚖
뚗
뚘
뚙
뚚
뚛
뚜
뚝
뚞
뚟
뚠
뚡
뚢
뚣
뚤
뚥
뚦
뚧
뚨
뚩
뚪
뚫
뚬
뚭
뚮
뚯
뚰
뚱
뚲
뚳
뚴
뚵
뚶
뚷
뚸
뚹
뚺
뚻
뚼
뚽
뚾
뚿
뛀
뛁
뛂
뛃
뛄
뛅
뛆
뛇
뛈
뛉
뛊
뛋
뛌
뛍
뛎
뛏
뛐
뛑
뛒
뛓
뛔
뛕
뛖
뛗
뛘
뛙
뛚
뛛
뛜
뛝
뛞
뛟
뛠
뛡
뛢
뛣
뛤
뛥
뛦
뛧
뛨
뛩
뛪
뛫
뛬
뛭
뛮
뛯
뛰
뛱
뛲
뛳
뛵
뛶
뛷
뛸
뛹
뛺
뛻
뛼
뛽
뛾
뛿
뜀
뜁
뜂
뜃
뜄
뜅
뜆
뜇
뜈
뜉
뜊
뜋
뜌
뜍
뜎
뜏
뜐
뜑
뜒
뜓
뜔
뜕
뜖
뜗
뜘
뜙
뜚
뜛
뜜
뜝
뜞
뜟
뜠
뜡
뜢
뜣
뜤
뜥
뜦
뜧
뜨
뜩
뜪
뜫
뜬
뜭
뜮
뜯
뜰
뜱
뜲
뜳
뜴
뜵
뜶
뜷
뜸
뜹
뜺
뜻
뜼
뜽
뜾
뜿
띀
띁
띂
띃
띄
띅
띆
띇
띉
띊
띋
띍
띎
띏
띐
띑
띒
띓
띔
띕
띖
띗
띘
띙
띚
띛
띜
띝
띞
띟
띠
띡
띢
띣
띤
띥
띦
띧
띨
띩
띪
띫
띬
띭
띮
띯
띰
띱
띲
띳
띴
띵
띶
띷
띸
띹
띺
띻
라
락
띾
띿
란
랁
랂
랃
랄
랅
랆
랇
랈
랉
랊
랋
람
랍
랎
랏
랐
랑
랒
랓
랔
랕
랖
랗
래
랙
랚
랛
랜
랝
랞
랟
랠
랡
랢
랣
랤
랥
랦
랧
램
랩
랪
랫
랬
랭
랮
랯
랰
랱
랲
랳
랴
략
랶
랷
랸
랹
랺
랻
랼
랽
랾
랿
럀
럁
럂
럃
럄
럅
럆
럇
럈
량
럊
럋
럌
럍
럎
럏
럐
럑
럒
럓
럔
럕
럖
럗
럘
럙
럚
럛
럜
럝
럞
럟
럠
럡
럢
럣
럤
럥
럦
럧
럨
럩
럪
럫
러
럭
럮
럯
런
럱
럲
럳
럴
럵
럶
럷
럸
럹
럺
럻
럼
럽
럾
럿
렀
렁
렂
렃
렄
렅
렆
렇
레
렉
렊
렋
렌
렍
렎
렏
렐
렑
렒
렓
렔
렕
렖
렗
렘
렙
렚
렛
렜
렝
렞
렟
렠
렡
렢
렣
려
력
렦
렧
련
렩
렪
렫
렬
렭
렮
렯
렰
렱
렲
렳
렴
렵
렶
렷
렸
령
렺
렻
렼
렽
렾
렿
례
롁
롂
롃
롄
롅
롆
롇
롈
롉
롊
롋
롌
롍
롎
롏
롐
롑
롒
롓
롔
롕
롖
롗
롘
롙
롚
롛
로
록
롞
롟
론
롡
롢
롣
롤
롥
롦
롧
롨
롩
롪
롫
롬
롭
롮
롯
롰
롱
롲
롳
롴
롵
롶
롷
롸
롹
롺
롻
롼
롽
롾
롿
뢀
뢁
뢂
뢃
뢄
뢅
뢆
뢇
뢈
뢉
뢊
뢋
뢌
뢍
뢎
뢏
뢐
뢑
뢒
뢓
뢔
뢕
뢖
뢗
뢘
뢙
뢚
뢛
뢜
뢝
뢞
뢟
뢠
뢡
뢢
뢣
뢤
뢥
뢦
뢧
뢨
뢩
뢪
뢫
뢬
뢭
뢮
뢯
뢰
뢱
뢲
뢳
뢴
뢵
뢶
뢷
뢸
뢹
뢺
뢻
뢼
뢽
뢾
뢿
룀
룁
룂
룃
룄
룅
룆
룇
룈
룉
룊
룋
료
룍
룎
룏
룐
룑
룒
룓
룔
룕
룖
룗
룘
룙
룚
룛
룜
룝
룞
룟
룠
룡
룢
룣
룤
룥
룦
룧
루
룩
룪
룫
룬
룭
룮
룯
룰
룱
룲
룳
룴
룵
룶
룷
룸
룹
룺
룻
룼
룽
룾
룿
뤀
뤁
뤂
뤃
뤄
뤅
뤆
뤇
뤈
뤉
뤊
뤋
뤌
뤍
뤎
뤏
뤐
뤑
뤒
뤓
뤔
뤕
뤖
뤗
뤘
뤙
뤚
뤛
뤜
뤝
뤞
뤟
뤠
뤡
뤢
뤣
뤤
뤥
뤦
뤧
뤨
뤩
뤪
뤫
뤬
뤭
뤮
뤯
뤰
뤱
뤲
뤳
뤴
뤵
뤶
뤷
뤸
뤹
뤺
뤻
뤼
뤽
뤾
뤿
륀
륁
륂
륃
륄
륅
륆
륇
륈
륉
륊
륋
륌
륍
륎
륏
륐
륑
륒
륓
륔
륕
륖
륗
류
륙
륚
륛
륜
륝
륞
륟
률
륡
륢
륣
륤
륥
륦
륧
륨
륩
륪
륫
륬
륭
륮
륯
륰
륱
륲
륳
르
륵
륶
륷
른
륹
륺
륻
를
륽
륾
륿
릀
릁
릂
릃
름
릅
릆
릇
릈
릉
릊
릋
릌
릍
릎
릏
릐
릑
릒
릓
릔
릕
릖
릗
릘
릙
릚
릛
릜
릝
릞
릟
릠
릡
릢
릣
릤
릥
릦
릧
릨
릩
릪
릫
리
릭
릮
릯
린
릱
릲
릳
릴
릵
릶
릷
릸
릹
릺
릻
림
립
릾
릿
맀
링
맂
맃
맄
맅
맆
맇
마
막
맊
맋
만
맍
많
맏
말
맑
맒
맓
맔
맕
맖
맗
맘
맙
맚
맛
맜
망
맞
맟
맠
맡
맢
맣
매
맥
맦
맧
맨
맩
맪
맫
맬
맭
맮
맯
맰
맱
맲
맳
맴
맵
맶
맷
맹
맺
맻
맼
맽
맾
맿
먀
먁
먂
먃
먄
먅
먆
먇
먈
먉
먊
먋
먌
먍
먎
먏
먐
먑
먒
먓
먔
먕
먖
먗
먘
먙
먚
먛
먜
먝
먞
먟
먠
먡
먢
먣
먤
먥
먦
먧
먨
먩
먪
먫
먬
먭
먮
먯
먰
먱
먲
먳
먴
먵
먶
먷
머
먹
먺
먻
먼
먽
먾
먿
멀
멁
멂
멃
멄
멅
멆
멇
멈
멉
멊
멋
멌
멍
멎
멏
멐
멑
멒
멓
메
멕
멖
멗
멘
멙
멚
멛
멜
멝
멞
멟
멠
멡
멢
멣
멤
멥
멦
멧
멨
멩
멪
멫
멬
멭
멮
멯
며
멱
멲
멳
면
멵
멶
멷
멸
멹
멺
멻
멼
멽
멾
멿
몀
몁
몂
몃
몄
명
몆
몇
몈
몉
몊
몋
몌
몍
몎
몏
몐
몑
몒
몓
몔
몕
몖
몗
몘
몙
몚
몛
몜
몝
몞
몟
몠
몡
몢
몣
몤
몥
몦
몧
모
목
몪
몫
몬
몭
몮
몯
몰
몱
몲
몳
몴
몵
몶
몷
몸
몹
몺
못
몼
몽
몾
몿
뫀
뫁
뫂
뫃
뫄
뫅
뫆
뫇
뫈
뫉
뫊
뫋
뫌
뫍
뫎
뫏
뫐
뫑
뫒
뫓
뫔
뫕
뫖
뫗
뫘
뫙
뫚
뫛
뫜
뫝
뫞
뫟
뫠
뫡
뫢
뫣
뫤
뫥
뫦
뫧
뫨
뫩
뫪
뫫
뫬
뫭
뫮
뫯
뫰
뫱
뫲
뫳
뫴
뫵
뫶
뫷
뫸
뫹
뫺
뫻
뫼
뫽
뫾
뫿
묀
묁
묂
묃
묄
묅
묆
묇
묈
묉
묊
묋
묌
묍
묎
묏
묐
묑
묒
묓
묔
묕
묖
묗
묘
묙
묚
묛
묜
묝
묞
묟
묠
묡
묢
묣
묤
묥
묦
묧
묨
묩
묪
묫
묬
묭
묮
묯
묰
묱
묲
묳
무
묵
묶
묷
문
묹
묺
묻
물
묽
묾
묿
뭀
뭁
뭂
뭃
뭄
뭅
뭆
뭇
뭈
뭉
뭊
뭋
뭌
뭍
뭎
뭏
뭐
뭑
뭒
뭓
뭔
뭕
뭖
뭗
뭘
뭙
뭚
뭛
뭜
뭝
뭞
뭟
뭠
뭡
뭢
뭣
뭤
뭥
뭦
뭧
뭨
뭩
뭪
뭫
뭬
뭭
뭮
뭯
뭰
뭱
뭲
뭳
뭴
뭵
뭶
뭷
뭸
뭹
뭺
뭻
뭼
뭽
뭾
뭿
뮀
뮁
뮂
뮃
뮄
뮅
뮆
뮇
뮈
뮉
뮊
뮋
뮌
뮍
뮎
뮏
뮐
뮑
뮒
뮓
뮔
뮕
뮖
뮗
뮘
뮙
뮚
뮛
뮜
뮝
뮞
뮟
뮠
뮡
뮢
뮣
뮤
뮥
뮦
뮧
뮨
뮩
뮪
뮫
뮬
뮭
뮮
뮯
뮰
뮱
뮲
뮳
뮴
뮵
뮶
뮷
뮸
뮹
뮺
뮻
뮼
뮽
뮾
뮿
므
믁
믂
믃
믄
믅
믆
믇
믈
믉
믊
믋
믌
믍
믎
믏
믐
믑
믒
믓
믔
믕
믖
믗
믘
믙
믚
믛
믜
믝
믞
믟
믠
믡
믢
믣
믤
믥
믦
믧
믨
믩
믪
믫
믬
믭
믮
믯
믰
믱
믲
믳
믴
믵
믶
믷
미
믹
믺
믻
민
믽
믾
믿
밀
밁
밂
밃
밄
밅
밆
밇
밈
밉
밊
밋
밌
밍
밎
및
밐
밑
밒
밓
바
박
밖
밗
반
밙
밚
받
발
밝
밞
밟
밠
밡
밢
밣
밤
밥
밦
밧
밨
방
밪
밫
밬
밭
밮
밯
배
백
밲
밳
밴
밵
밶
밷
밸
밹
밺
밻
밼
밽
밾
밿
뱀
뱁
뱂
뱃
뱅
뱆
뱇
뱈
뱉
뱊
뱋
뱌
뱍
뱎
뱏
뱐
뱑
뱒
뱓
뱔
뱕
뱖
뱗
뱘
뱙
뱚
뱛
뱜
뱝
뱞
뱟
뱠
뱡
뱢
뱣
뱤
뱥
뱦
뱧
뱨
뱩
뱪
뱫
뱬
뱭
뱮
뱯
뱰
뱱
뱲
뱳
뱴
뱵
뱶
뱷
뱸
뱹
뱺
뱻
뱼
뱽
뱾
뱿
벀
벁
벂
벃
버
벅
벆
벇
번
벉
벊
벋
벌
벍
벎
벏
벐
벑
벒
벓
범
법
벖
벗
벘
벙
벚
벛
벜
벝
벞
벟
베
벡
벢
벣
벤
벥
벦
벧
벨
벩
벪
벫
벬
벭
벮
벯
벰
벱
벲
벳
벴
벵
벶
벷
벸
벹
벺
벻
벼
벽
벾
벿
변
볁
볂
볃
별
볅
볆
볇
볈
볉
볊
볋
볌
볍
볎
볏
볐
병
볒
볓
볔
볕
볖
볗
볘
볙
볚
볛
볜
볝
볞
볟
볠
볡
볢
볣
볤
볥
볦
볧
볨
볩
볪
볫
볬
볭
볮
볯
볰
볱
볲
볳
보
복
볶
볷
본
볹
볺
볻
볼
볽
볾
볿
봀
봁
봂
봃
봄
봅
봆
봇
봈
봉
봊
봋
봌
봍
봎
봏
봐
봑
봒
봓
봔
봕
봖
봗
봘
봙
봚
봛
봜
봝
봞
봟
봠
봡
봢
봣
봤
봥
봦
봧
봨
봩
봪
봫
봬
봭
봮
봯
봰
봱
봲
봳
봴
봵
봶
봷
봸
봹
봺
봻
봼
봽
봾
봿
뵁
뵂
뵃
뵄
뵅
뵆
뵇
뵈
뵉
뵊
뵋
뵍
뵎
뵏
뵐
뵑
뵒
뵓
뵔
뵕
뵖
뵗
뵘
뵙
뵚
뵛
뵝
뵞
뵟
뵠
뵡
뵢
뵣
뵤
뵥
뵦
뵧
뵨
뵩
뵪
뵫
뵬
뵭
뵮
뵯
뵰
뵱
뵲
뵳
뵴
뵵
뵶
뵷
뵸
뵹
뵺
뵻
뵼
뵽
뵾
뵿
부
북
붂
붃
분
붅
붆
붇
불
붉
붊
붋
붌
붍
붎
붏
붐
붑
붒
붓
붔
붕
붖
붗
붘
붙
붚
붛
붜
붝
붞
붟
붠
붡
붢
붣
붤
붥
붦
붧
붨
붩
붪
붫
붬
붭
붮
붯
붰
붱
붲
붳
붴
붵
붶
붷
붸
붹
붺
붻
붼
붽
붾
붿
뷀
뷁
뷂
뷃
뷄
뷅
뷆
뷇
뷈
뷉
뷊
뷋
뷌
뷍
뷎
뷏
뷐
뷑
뷒
뷓
뷔
뷕
뷖
뷗
뷘
뷙
뷚
뷛
뷜
뷝
뷞
뷟
뷠
뷡
뷢
뷣
뷤
뷥
뷦
뷧
뷨
뷩
뷪
뷫
뷬
뷭
뷮
뷯
뷰
뷱
뷲
뷳
뷴
뷵
뷶
뷷
뷸
뷹
뷺
뷻
뷼
뷽
뷾
뷿
븀
븁
븂
븃
븄
븅
븆
븇
븈
븉
븊
븋
브
븍
븎
븏
븐
븑
븒
븓
블
븕
븖
븗
븘
븙
븚
븛
븜
븝
븞
븟
븠
븡
븢
븣
븤
븥
븦
븧
븨
븩
븪
븫
븬
븭
븮
븯
븰
븱
븲
븳
븴
븵
븶
븷
븸
븹
븺
븻
븼
븽
븾
븿
빀
빁
빂
빃
비
빅
빆
빇
빈
빉
빊
빋
빌
빍
빎
빏
빐
빑
빒
빓
빔
빕
빖
빗
빘
빙
빚
빛
빜
빝
빞
빟
빠
빡
빢
빣
빤
빥
빦
빧
빨
빩
빪
빫
빬
빭
빮
빯
빰
빱
빲
빳
빴
빵
빶
빷
빸
빹
빺
빻
빼
빽
빾
빿
뺀
뺁
뺂
뺃
뺄
뺅
뺆
뺇
뺈
뺉
뺊
뺋
뺌
뺍
뺎
뺏
뺐
뺑
뺒
뺓
뺔
뺕
뺖
뺗
뺘
뺙
뺚
뺛
뺜
뺝
뺞
뺟
뺠
뺡
뺢
뺣
뺤
뺥
뺦
뺧
뺨
뺩
뺪
뺫
뺬
뺭
뺮
뺯
뺰
뺱
뺲
뺳
뺴
뺵
뺶
뺷
뺸
뺹
뺺
뺻
뺼
뺽
뺾
뺿
뻀
뻁
뻂
뻃
뻄
뻅
뻆
뻇
뻈
뻉
뻊
뻋
뻌
뻍
뻎
뻏
뻐
뻑
뻒
뻓
뻔
뻕
뻖
뻗
뻘
뻙
뻚
뻛
뻜
뻝
뻞
뻟
뻠
뻡
뻢
뻣
뻤
뻥
뻦
뻧
뻨
뻩
뻪
뻫
뻬
뻭
뻮
뻯
뻰
뻱
뻲
뻳
뻴
뻵
뻶
뻷
뻸
뻹
뻺
뻻
뻼
뻽
뻾
뻿
뼀
뼁
뼂
뼃
뼄
뼅
뼆
뼇
뼈
뼉
뼊
뼋
뼌
뼍
뼎
뼏
뼐
뼑
뼒
뼓
뼔
뼕
뼖
뼗
뼘
뼙
뼚
뼛
뼜
뼝
뼞
뼟
뼠
뼡
뼢
뼣
뼤
뼥
뼦
뼧
뼨
뼩
뼪
뼫
뼬
뼭
뼮
뼯
뼰
뼱
뼲
뼳
뼴
뼵
뼶
뼷
뼸
뼹
뼺
뼻
뼼
뼽
뼾
뼿
뽀
뽁
뽂
뽃
뽄
뽅
뽆
뽇
뽈
뽉
뽊
뽋
뽌
뽍
뽎
뽏
뽐
뽑
뽒
뽓
뽔
뽕
뽖
뽗
뽘
뽙
뽚
뽛
뽜
뽝
뽞
뽟
뽠
뽡
뽢
뽣
뽤
뽥
뽦
뽧
뽨
뽩
뽪
뽫
뽬
뽭
뽮
뽯
뽰
뽱
뽲
뽳
뽴
뽵
뽶
뽷
뽸
뽹
뽺
뽻
뽼
뽽
뽾
뽿
뾀
뾁
뾂
뾃
뾄
뾅
뾆
뾇
뾈
뾉
뾊
뾋
뾌
뾍
뾎
뾏
뾐
뾑
뾒
뾓
뾔
뾕
뾖
뾗
뾘
뾙
뾚
뾛
뾜
뾝
뾞
뾟
뾠
뾡
뾢
뾣
뾤
뾥
뾦
뾧
뾨
뾩
뾪
뾫
뾬
뾭
뾮
뾯
뾰
뾱
뾲
뾳
뾴
뾵
뾶
뾷
뾸
뾹
뾺
뾻
뾼
뾽
뾾
뾿
뿀
뿁
뿂
뿃
뿄
뿅
뿆
뿇
뿈
뿉
뿊
뿋
뿌
뿍
뿎
뿏
뿐
뿑
뿒
뿓
뿔
뿕
뿖
뿗
뿘
뿙
뿚
뿛
뿜
뿝
뿞
뿟
뿡
뿢
뿣
뿤
뿥
뿦
뿧
뿨
뿩
뿪
뿫
뿬
뿭
뿮
뿯
뿰
뿱
뿲
뿳
뿴
뿵
뿶
뿷
뿸
뿹
뿺
뿻
뿼
뿽
뿾
뿿
쀀
쀁
쀂
쀃
쀄
쀅
쀆
쀇
쀈
쀉
쀊
쀋
쀌
쀍
쀎
쀏
쀐
쀑
쀒
쀓
쀔
쀕
쀖
쀗
쀘
쀙
쀚
쀛
쀜
쀝
쀞
쀟
쀠
쀡
쀢
쀣
쀤
쀥
쀦
쀧
쀨
쀩
쀪
쀫
쀬
쀭
쀮
쀯
쀰
쀱
쀲
쀳
쀴
쀵
쀶
쀷
쀸
쀹
쀺
쀻
쀼
쀽
쀾
쀿
쁀
쁁
쁂
쁃
쁄
쁅
쁆
쁇
쁈
쁉
쁊
쁋
쁌
쁍
쁎
쁏
쁐
쁑
쁒
쁓
쁔
쁕
쁖
쁗
쁘
쁙
쁚
쁛
쁜
쁝
쁞
쁟
쁠
쁡
쁢
쁣
쁤
쁥
쁦
쁧
쁨
쁩
쁪
쁫
쁬
쁭
쁮
쁯
쁰
쁱
쁲
쁳
쁴
쁵
쁶
쁷
쁸
쁹
쁺
쁻
쁼
쁽
쁾
쁿
삀
삁
삂
삃
삄
삅
삆
삇
삈
삉
삊
삋
삌
삍
삎
삏
삐
삑
삒
삓
삔
삕
삖
삗
삘
삙
삚
삛
삜
삝
삞
삟
삠
삡
삢
삣
삤
삥
삦
삧
삨
삩
삪
삫
사
삭
삮
삯
산
삱
삲
삳
살
삵
삶
삷
삸
삹
삺
삻
삼
삽
삾
삿
상
샂
샃
샄
샅
샆
샇
새
색
샊
샋
샌
샍
샎
샏
샐
샑
샒
샓
샔
샕
샖
샗
샘
샙
샚
샛
생
샞
샟
샠
샡
샢
샣
샤
샥
샦
샧
샨
샩
샪
샫
샬
샭
샮
샯
샰
샱
샲
샳
샴
샵
샶
샷
샸
샹
샺
샻
샼
샽
샾
샿
섀
섁
섂
섃
섄
섅
섆
섇
섈
섉
섊
섋
섌
섍
섎
섏
섐
섑
섒
섓
섔
섕
섖
섗
섘
섙
섚
섛
서
석
섞
섟
선
섡
섢
섣
설
섥
섦
섧
섨
섩
섪
섫
섬
섭
섮
섯
섰
성
섲
섳
섴
섵
섶
섷
세
섹
섺
섻
센
섽
섿
셀
셁
셂
셃
셄
셅
셆
셇
셈
셉
셊
셋
셍
셎
셏
셐
셑
셒
셓
셔
셕
셖
셗
션
셙
셚
셛
셜
셝
셞
셟
셠
셡
셢
셣
셤
셥
셦
셧
셨
셩
셪
셫
셬
셭
셮
셯
셰
셱
셲
셳
셴
셵
셶
셷
셸
셹
셺
셻
셼
셽
셾
셿
솀
솁
솂
솃
솄
솅
솆
솇
솈
솉
솊
솋
소
속
솎
솏
손
솑
솒
솓
솔
솕
솖
솗
솘
솙
솚
솛
솜
솝
솞
솟
솠
송
솢
솣
솤
솥
솦
솧
솨
솩
솪
솫
솬
솭
솮
솯
솰
솱
솲
솳
솴
솵
솶
솷
솸
솹
솺
솻
솼
솽
솾
솿
쇀
쇁
쇂
쇃
쇄
쇅
쇆
쇇
쇈
쇉
쇊
쇋
쇌
쇍
쇎
쇏
쇐
쇑
쇒
쇓
쇔
쇕
쇖
쇗
쇘
쇙
쇚
쇛
쇜
쇝
쇞
쇟
쇠
쇡
쇢
쇣
쇤
쇥
쇦
쇧
쇨
쇩
쇪
쇫
쇬
쇭
쇮
쇯
쇰
쇱
쇲
쇳
쇴
쇵
쇶
쇷
쇸
쇹
쇺
쇻
쇼
쇽
쇾
쇿
숀
숁
숂
숃
숄
숅
숆
숇
숈
숉
숊
숋
숌
숍
숎
숏
숐
숑
숒
숓
숔
숕
숖
숗
수
숙
숚
숛
순
숝
숞
숟
술
숡
숢
숣
숤
숥
숦
숧
숨
숩
숪
숫
숬
숭
숮
숯
숰
숱
숲
숳
숴
숵
숶
숷
숸
숹
숺
숻
숼
숽
숾
숿
쉀
쉁
쉂
쉃
쉄
쉅
쉆
쉇
쉈
쉉
쉊
쉋
쉌
쉍
쉎
쉏
쉐
쉑
쉒
쉓
쉔
쉕
쉖
쉗
쉘
쉙
쉚
쉛
쉜
쉝
쉞
쉟
쉠
쉡
쉢
쉣
쉤
쉥
쉦
쉧
쉨
쉩
쉪
쉫
쉬
쉭
쉮
쉯
쉰
쉱
쉲
쉳
쉴
쉵
쉶
쉷
쉸
쉹
쉺
쉻
쉼
쉽
쉾
쉿
슀
슁
슂
슃
슄
슅
슆
슇
슈
슉
슊
슋
슌
슍
슎
슏
슐
슑
슒
슓
슔
슕
슖
슗
슘
슙
슚
슛
슜
슝
슞
슟
슠
슡
슢
슣
스
슥
슦
슧
슨
슩
슪
슫
슬
슭
슮
슯
슰
슱
슲
슳
슴
습
슶
슷
슸
승
슺
슻
슼
슽
슾
슿
싀
싁
싂
싃
싄
싅
싆
싇
싈
싉
싊
싋
싌
싍
싎
싏
싐
싑
싒
싓
싔
싕
싖
싗
싘
싙
싚
싛
시
식
싞
싟
신
싡
싢
싣
실
싥
싦
싧
싨
싩
싪
싫
심
십
싮
싯
싰
싱
싲
싳
싴
싵
싶
싷
싸
싹
싺
싻
싼
싽
싾
싿
쌀
쌁
쌂
쌃
쌄
쌅
쌆
쌇
쌈
쌉
쌊
쌋
쌍
쌎
쌏
쌐
쌑
쌒
쌓
쌔
쌕
쌖
쌗
쌘
쌙
쌚
쌛
쌜
쌝
쌞
쌟
쌠
쌡
쌢
쌣
쌤
쌥
쌦
쌧
쌩
쌪
쌫
쌬
쌭
쌮
쌯
쌰
쌱
쌲
쌳
쌴
쌵
쌶
쌷
쌸
쌹
쌺
쌻
쌼
쌽
쌾
쌿
썀
썁
썂
썃
썄
썅
썆
썇
썈
썉
썊
썋
썌
썍
썎
썏
썐
썑
썒
썓
썔
썕
썖
썗
썘
썙
썚
썛
썜
썝
썞
썟
썠
썡
썢
썣
썤
썥
썦
썧
써
썩
썪
썫
썬
썭
썮
썯
썰
썱
썲
썳
썴
썵
썶
썷
썸
썹
썺
썻
썼
썽
썾
썿
쎀
쎁
쎂
쎃
쎄
쎅
쎆
쎇
쎈
쎉
쎊
쎋
쎌
쎍
쎎
쎏
쎐
쎑
쎒
쎓
쎔
쎕
쎖
쎗
쎙
쎚
쎛
쎜
쎝
쎞
쎟
쎠
쎡
쎢
쎣
쎤
쎥
쎦
쎧
쎨
쎩
쎪
쎫
쎬
쎭
쎮
쎯
쎰
쎱
쎲
쎳
쎴
쎵
쎶
쎷
쎸
쎹
쎺
쎻
쎼
쎽
쎾
쎿
쏀
쏁
쏂
쏃
쏄
쏅
쏆
쏇
쏈
쏉
쏊
쏋
쏌
쏍
쏎
쏏
쏐
쏑
쏒
쏓
쏔
쏕
쏖
쏗
쏘
쏙
쏚
쏛
쏜
쏝
쏞
쏟
쏠
쏡
쏢
쏣
쏤
쏥
쏦
쏧
쏨
쏩
쏪
쏫
쏬
쏭
쏮
쏯
쏰
쏱
쏲
쏳
쏴
쏵
쏶
쏷
쏸
쏹
쏺
쏻
쏼
쏽
쏾
쏿
쐀
쐁
쐂
쐃
쐄
쐅
쐆
쐇
쐉
쐊
쐋
쐌
쐍
쐎
쐏
쐐
쐑
쐒
쐓
쐔
쐕
쐖
쐗
쐘
쐙
쐚
쐛
쐜
쐝
쐞
쐟
쐠
쐡
쐢
쐣
쐤
쐥
쐦
쐧
쐨
쐩
쐪
쐫
쐬
쐭
쐮
쐯
쐱
쐲
쐳
쐵
쐶
쐷
쐸
쐹
쐺
쐻
쐼
쐽
쐾
쐿
쑀
쑁
쑂
쑃
쑄
쑅
쑆
쑇
쑈
쑉
쑊
쑋
쑌
쑍
쑎
쑏
쑐
쑑
쑒
쑓
쑔
쑕
쑖
쑗
쑘
쑙
쑚
쑛
쑜
쑝
쑞
쑟
쑠
쑡
쑢
쑣
쑤
쑥
쑦
쑧
쑨
쑩
쑪
쑫
쑭
쑮
쑯
쑰
쑱
쑲
쑳
쑴
쑵
쑶
쑷
쑸
쑹
쑺
쑻
쑼
쑽
쑾
쑿
쒀
쒁
쒂
쒃
쒄
쒅
쒆
쒇
쒈
쒉
쒊
쒋
쒌
쒍
쒎
쒏
쒐
쒑
쒒
쒓
쒕
쒖
쒗
쒘
쒙
쒚
쒛
쒜
쒝
쒞
쒟
쒠
쒡
쒢
쒣
쒤
쒥
쒦
쒧
쒨
쒩
쒪
쒫
쒬
쒭
쒮
쒯
쒰
쒱
쒲
쒳
쒴
쒵
쒶
쒷
쒸
쒹
쒺
쒻
쒽
쒾
쒿
쓀
쓁
쓂
쓃
쓄
쓅
쓆
쓇
쓈
쓉
쓊
쓋
쓌
쓍
쓎
쓏
쓐
쓑
쓒
쓓
쓔
쓕
쓖
쓗
쓘
쓙
쓚
쓛
쓜
쓝
쓞
쓟
쓠
쓡
쓢
쓣
쓤
쓥
쓦
쓧
쓨
쓩
쓪
쓫
쓬
쓭
쓮
쓯
쓰
쓱
쓲
쓳
쓴
쓵
쓶
쓷
쓸
쓹
쓺
쓻
쓼
쓽
쓾
쓿
씀
씁
씂
씃
씄
씅
씆
씇
씈
씉
씊
씋
씌
씍
씎
씏
씑
씒
씓
씔
씕
씖
씗
씘
씙
씚
씛
씜
씝
씞
씟
씠
씡
씢
씣
씤
씥
씦
씧
씨
씩
씪
씫
씬
씭
씮
씯
씰
씱
씲
씳
씴
씵
씶
씷
씸
씹
씺
씻
씼
씽
씾
씿
앀
앁
앂
앃
아
악
앆
앇
안
앉
않
앋
알
앍
앎
앏
앐
앑
앒
앓
암
압
앖
앗
았
앙
앚
앛
앜
앝
앞
앟
애
액
앢
앣
앤
앥
앦
앧
앨
앩
앪
앫
앬
앭
앮
앯
앰
앱
앲
앳
앴
앵
앶
앷
앸
앹
앺
앻
야
약
앾
앿
얀
얁
얂
얃
얄
얅
얆
얇
얈
얉
얊
얋
얌
얍
얎
얏
얐
양
얒
얓
얔
얕
얖
얗
얘
얙
얚
얛
얜
얝
얞
얟
얡
얢
얣
얤
얥
얦
얧
얨
얩
얪
얫
얬
얭
얮
얯
얰
얱
얲
얳
어
억
얶
얷
언
얹
얺
얻
얼
얽
얾
얿
엀
엁
엂
엃
엄
업
없
엇
었
엉
엊
엋
엌
엍
엎
엏
에
엑
엒
엓
엔
엕
엖
엗
엘
엙
엚
엛
엜
엝
엞
엟
엠
엡
엢
엣
엤
엥
엦
엧
엨
엩
엪
엫
여
역
엮
엯
연
엱
엲
엳
열
엵
엶
엷
엸
엹
엺
엻
염
엽
엾
엿
였
영
옂
옃
옄
옅
옆
옇
예
옉
옊
옋
옌
옍
옎
옏
옐
옑
옒
옓
옔
옕
옖
옗
옘
옙
옚
옛
옜
옝
옞
옟
옠
옡
옢
옣
오
옥
옦
옧
온
옩
옪
옫
올
옭
옮
옯
옰
옱
옲
옳
옴
옵
옶
옷
옸
옹
옺
옻
옼
옽
옾
옿
와
왁
왂
왃
완
왅
왆
왇
왈
왉
왊
왋
왌
왍
왎
왏
왐
왑
왒
왓
왔
왕
왖
왗
왘
왙
왚
왛
왜
왝
왞
왟
왠
왡
왢
왣
왤
왥
왦
왧
왨
왩
왪
왫
왬
왭
왮
왯
왰
왱
왲
왳
왴
왵
왶
왷
외
왹
왺
왻
왼
왽
왾
왿
욀
욁
욂
욃
욄
욅
욆
욇
욈
욉
욊
욋
욌
욍
욎
욏
욐
욑
욒
욓
요
욕
욖
욗
욘
욙
욚
욛
욜
욝
욞
욟
욠
욡
욢
욣
욤
욥
욦
욧
욨
용
욪
욫
욬
욭
욮
욯
우
욱
욲
욳
운
욵
욶
욷
울
욹
욺
욻
욼
욽
욾
욿
움
웁
웂
웃
웄
웅
웆
웇
웈
웉
웊
웋
워
웍
웎
웏
원
웑
웒
웓
월
웕
웖
웗
웘
웙
웚
웛
웜
웝
웞
웟
웠
웡
웢
웣
웤
웥
웦
웧
웨
웩
웪
웫
웬
웭
웮
웯
웰
웱
웲
웳
웴
웵
웶
웷
웸
웹
웺
웻
웼
웽
웾
웿
윀
윁
윂
윃
위
윅
윆
윇
윈
윉
윊
윋
윌
윍
윎
윏
윐
윑
윒
윓
윔
윕
윖
윗
윘
윙
윚
윛
윜
윝
윞
윟
유
육
윢
윣
윤
윥
윦
윧
율
윩
윪
윫
윬
윭
윮
윯
윰
윱
윲
윳
윴
융
윶
윷
윸
윹
윺
윻
으
윽
윾
윿
은
읁
읂
읃
을
읅
읆
읇
읈
읉
읊
읋
음
읍
읎
읏
읐
응
읒
읓
읔
읕
읖
읗
의
읙
읚
읛
읜
읝
읞
읟
읠
읡
읢
읣
읤
읥
읦
읧
읨
읩
읪
읫
읬
읭
읮
읯
읰
읱
읲
읳
이
익
읶
읷
인
읹
읺
읻
일
읽
읾
읿
잀
잁
잂
잃
임
입
잆
잇
있
잉
잊
잋
잌
잍
잎
잏
자
작
잒
잓
잔
잕
잖
잗
잘
잙
잚
잛
잜
잝
잞
잟
잠
잡
잢
잣
장
잦
잧
잨
잩
잪
잫
재
잭
잮
잯
잰
잱
잲
잳
잴
잵
잶
잷
잸
잹
잺
잻
잼
잽
잾
잿
쟁
쟂
쟃
쟄
쟅
쟆
쟇
쟈
쟉
쟊
쟋
쟌
쟍
쟎
쟏
쟐
쟑
쟒
쟓
쟔
쟕
쟖
쟗
쟘
쟙
쟚
쟛
쟜
쟝
쟞
쟟
쟠
쟡
쟢
쟣
쟤
쟥
쟦
쟧
쟩
쟪
쟫
쟬
쟭
쟮
쟯
쟰
쟱
쟲
쟳
쟴
쟵
쟶
쟷
쟸
쟹
쟺
쟻
쟼
쟽
쟾
쟿
저
적
젂
젃
전
젅
젆
젇
절
젉
젊
젋
젌
젍
젎
젏
점
접
젒
젓
젔
정
젖
젗
젘
젙
젚
젛
제
젝
젞
젟
젠
젡
젢
젣
젤
젥
젦
젧
젨
젩
젪
젫
젬
젭
젮
젯
젰
젱
젲
젳
젴
젵
젶
젷
져
젹
젺
젻
젼
젽
젾
젿
졀
졁
졂
졃
졄
졅
졆
졇
졈
졉
졊
졋
졌
졍
졎
졏
졐
졑
졒
졓
졔
졕
졖
졗
졘
졙
졚
졛
졜
졝
졞
졟
졠
졡
졢
졣
졤
졥
졦
졧
졨
졩
졪
졫
졬
졭
졮
졯
조
족
졲
졳
존
졵
졶
졷
졸
졹
졺
졻
졼
졽
졾
졿
좀
좁
좂
좃
좄
종
좆
좇
좈
좉
좊
좋
좌
좍
좎
좏
좐
좑
좒
좓
좔
좕
좖
좗
좘
좙
좚
좛
좜
좝
좞
좟
좠
좡
좢
좣
좤
좥
좦
좧
좨
좩
좪
좫
좬
좭
좮
좯
좰
좱
좲
좳
좴
좵
좶
좷
좸
좹
좺
좻
좼
좽
좾
좿
죀
죁
죂
죃
죄
죅
죆
죇
죈
죉
죊
죋
죌
죍
죎
죏
죐
죑
죒
죓
죔
죕
죖
죗
죙
죚
죛
죜
죝
죞
죟
죠
죡
죢
죣
죤
죥
죦
죧
죨
죩
죪
죫
죬
죭
죮
죯
죰
죱
죲
죳
죴
죵
죶
죷
죸
죹
죺
죻
주
죽
죾
죿
준
줁
줂
줃
줄
줅
줆
줇
줈
줉
줊
줋
줌
줍
줎
줏
줐
중
줒
줓
줔
줕
줖
줗
줘
줙
줚
줛
줜
줝
줞
줟
줠
줡
줢
줣
줤
줥
줦
줧
줨
줩
줪
줫
줬
줭
줮
줯
줰
줱
줲
줳
줴
줵
줶
줷
줸
줹
줺
줻
줼
줽
줾
줿
쥀
쥁
쥂
쥃
쥄
쥅
쥆
쥇
쥈
쥉
쥊
쥋
쥌
쥍
쥎
쥏
쥐
쥑
쥒
쥓
쥔
쥕
쥖
쥗
쥘
쥙
쥚
쥛
쥜
쥝
쥞
쥟
쥠
쥡
쥢
쥣
쥤
쥥
쥦
쥧
쥨
쥩
쥪
쥫
쥬
쥭
쥮
쥯
쥰
쥱
쥲
쥳
쥴
쥵
쥶
쥷
쥸
쥹
쥺
쥻
쥼
쥽
쥾
쥿
즀
즁
즂
즃
즄
즅
즆
즇
즈
즉
즊
즋
즌
즍
즎
즏
즐
즑
즒
즓
즔
즕
즖
즗
즘
즙
즚
즛
즜
증
즞
즟
즠
즡
즢
즣
즤
즥
즦
즧
즨
즩
즪
즫
즬
즭
즮
즯
즰
즱
즲
즳
즴
즵
즶
즷
즸
즹
즺
즻
즼
즽
즾
즿
지
직
짂
짃
진
짅
짆
짇
질
짉
짊
짋
짌
짍
짎
짏
짐
집
짒
짓
짔
징
짖
짗
짘
짙
짚
짛
짜
짝
짞
짟
짠
짡
짢
짣
짤
짥
짦
짧
짨
짩
짪
짫
짬
짭
짮
짯
짱
짲
짳
짴
짵
짶
짷
째
짹
짺
짻
짼
짽
짾
짿
쨀
쨁
쨂
쨃
쨄
쨅
쨆
쨇
쨈
쨉
쨊
쨋
쨌
쨍
쨎
쨏
쨐
쨑
쨒
쨓
쨔
쨕
쨖
쨗
쨘
쨙
쨚
쨛
쨜
쨝
쨞
쨟
쨠
쨡
쨢
쨣
쨤
쨥
쨦
쨧
쨨
쨩
쨪
쨫
쨬
쨭
쨮
쨯
쨰
쨱
쨲
쨳
쨴
쨵
쨶
쨷
쨸
쨹
쨺
쨻
쨼
쨽
쨾
쨿
쩀
쩁
쩂
쩃
쩄
쩅
쩆
쩇
쩈
쩉
쩊
쩋
쩌
쩍
쩎
쩏
쩐
쩑
쩒
쩓
쩔
쩕
쩖
쩗
쩘
쩙
쩚
쩛
쩜
쩝
쩞
쩟
쩠
쩡
쩢
쩣
쩤
쩥
쩦
쩧
쩨
쩩
쩪
쩫
쩬
쩭
쩮
쩯
쩰
쩱
쩲
쩳
쩴
쩵
쩶
쩷
쩸
쩹
쩺
쩻
쩼
쩽
쩾
쩿
쪀
쪁
쪂
쪃
쪄
쪅
쪆
쪇
쪈
쪉
쪊
쪋
쪌
쪍
쪎
쪏
쪐
쪑
쪒
쪓
쪔
쪕
쪖
쪗
쪘
쪙
쪚
쪛
쪜
쪝
쪞
쪟
쪠
쪡
쪢
쪣
쪤
쪥
쪦
쪧
쪨
쪩
쪪
쪫
쪬
쪭
쪮
쪯
쪰
쪱
쪲
쪳
쪴
쪵
쪶
쪷
쪸
쪹
쪺
쪻
쪼
쪽
쪾
쪿
쫀
쫁
쫂
쫃
쫄
쫅
쫆
쫇
쫈
쫉
쫊
쫋
쫌
쫍
쫎
쫏
쫐
쫑
쫒
쫓
쫔
쫕
쫖
쫗
쫘
쫙
쫚
쫛
쫜
쫝
쫞
쫟
쫠
쫡
쫢
쫣
쫤
쫥
쫦
쫧
쫨
쫩
쫪
쫫
쫭
쫮
쫯
쫰
쫱
쫲
쫳
쫴
쫵
쫶
쫷
쫸
쫹
쫺
쫻
쫼
쫽
쫾
쫿
쬀
쬁
쬂
쬃
쬄
쬅
쬆
쬇
쬈
쬉
쬊
쬋
쬌
쬍
쬎
쬏
쬐
쬑
쬒
쬓
쬔
쬕
쬖
쬗
쬙
쬚
쬛
쬜
쬝
쬞
쬟
쬡
쬢
쬣
쬤
쬥
쬦
쬧
쬨
쬩
쬪
쬫
쬬
쬭
쬮
쬯
쬰
쬱
쬲
쬳
쬴
쬵
쬶
쬷
쬸
쬹
쬺
쬻
쬼
쬽
쬾
쬿
쭀
쭁
쭂
쭃
쭄
쭅
쭆
쭇
쭈
쭉
쭊
쭋
쭌
쭍
쭎
쭏
쭐
쭑
쭒
쭓
쭔
쭕
쭖
쭗
쭘
쭙
쭚
쭛
쭜
쭝
쭞
쭟
쭠
쭡
쭢
쭣
쭤
쭥
쭦
쭧
쭨
쭩
쭪
쭫
쭬
쭭
쭮
쭯
쭰
쭱
쭲
쭳
쭴
쭵
쭶
쭷
쭸
쭹
쭺
쭻
쭼
쭽
쭾
쭿
쮀
쮁
쮂
쮃
쮄
쮅
쮆
쮇
쮈
쮉
쮊
쮋
쮌
쮍
쮎
쮏
쮐
쮑
쮒
쮓
쮔
쮕
쮖
쮗
쮘
쮙
쮚
쮛
쮜
쮝
쮞
쮟
쮠
쮡
쮢
쮣
쮤
쮥
쮦
쮧
쮨
쮩
쮪
쮫
쮬
쮭
쮮
쮯
쮰
쮱
쮲
쮳
쮴
쮵
쮶
쮷
쮸
쮹
쮺
쮻
쮼
쮽
쮾
쮿
쯀
쯁
쯂
쯃
쯄
쯅
쯆
쯇
쯈
쯉
쯊
쯋
쯌
쯍
쯎
쯏
쯐
쯑
쯒
쯓
쯔
쯕
쯖
쯗
쯘
쯙
쯚
쯛
쯜
쯝
쯞
쯟
쯠
쯡
쯢
쯣
쯤
쯥
쯦
쯧
쯨
쯩
쯪
쯫
쯬
쯭
쯮
쯯
쯰
쯱
쯲
쯳
쯴
쯵
쯶
쯷
쯸
쯹
쯺
쯻
쯼
쯽
쯾
쯿
찀
찁
찂
찃
찄
찅
찆
찇
찈
찉
찊
찋
찌
찍
찎
찏
찐
찑
찒
찓
찔
찕
찖
찗
찘
찙
찚
찛
찜
찝
찞
찟
찠
찡
찢
찣
찤
찥
찦
찧
차
착
찪
찫
찬
찭
찮
찯
찰
찱
찲
찳
찴
찵
찶
찷
참
찹
찺
찻
창
찾
찿
챀
챁
챂
챃
채
책
챆
챇
챈
챉
챊
챋
챌
챍
챎
챏
챐
챑
챒
챓
챔
챕
챖
챗
챘
챙
챚
챛
챜
챝
챞
챟
챠
챡
챢
챣
챤
챥
챦
챧
챨
챩
챪
챫
챬
챭
챮
챯
챰
챱
챲
챳
챴
챵
챶
챷
챸
챹
챺
챻
챼
챽
챾
챿
첀
첁
첂
첃
첄
첅
첆
첇
첈
첉
첊
첋
첌
첍
첎
첏
첐
첑
첒
첓
첔
첕
첖
첗
처
척
첚
첛
천
첝
첞
첟
철
첡
첢
첣
첤
첥
첦
첧
첨
첩
첪
첫
첬
청
첮
첯
첰
첱
첲
첳
체
첵
첶
첷
첸
첹
첺
첻
첼
첽
첾
첿
쳀
쳁
쳂
쳃
쳄
쳅
쳆
쳇
쳈
쳉
쳊
쳋
쳌
쳍
쳎
쳏
쳐
쳑
쳒
쳓
쳔
쳕
쳖
쳗
쳘
쳙
쳚
쳛
쳜
쳝
쳞
쳟
쳠
쳡
쳢
쳣
쳤
쳥
쳦
쳧
쳨
쳩
쳪
쳫
쳬
쳭
쳮
쳯
쳰
쳱
쳲
쳳
쳴
쳵
쳶
쳷
쳸
쳹
쳺
쳻
쳼
쳽
쳾
쳿
촀
촁
촂
촃
촄
촅
촆
촇
초
촉
촊
촋
촌
촍
촎
촏
촐
촑
촒
촓
촔
촕
촖
촗
촘
촙
촚
촛
촜
총
촞
촟
촠
촡
촢
촣
촤
촥
촦
촧
촨
촩
촪
촫
촬
촭
촮
촯
촰
촱
촲
촳
촴
촵
촶
촷
촸
촹
촺
촻
촼
촽
촾
촿
쵀
쵁
쵂
쵃
쵄
쵅
쵆
쵇
쵈
쵉
쵊
쵋
쵌
쵍
쵎
쵏
쵐
쵑
쵒
쵓
쵔
쵕
쵖
쵗
쵘
쵙
쵚
쵛
최
쵝
쵞
쵟
쵠
쵡
쵢
쵣
쵤
쵥
쵦
쵧
쵨
쵩
쵪
쵫
쵬
쵭
쵮
쵯
쵰
쵱
쵲
쵳
쵴
쵵
쵶
쵷
쵸
쵹
쵺
쵻
쵼
쵽
쵾
쵿
춀
춁
춂
춃
춄
춅
춆
춇
춈
춉
춊
춋
춌
춍
춎
춏
춐
춑
춒
춓
추
축
춖
춗
춘
춙
춚
춛
출
춝
춞
춟
춠
춡
춢
춣
춤
춥
춦
춧
춨
충
춪
춫
춬
춭
춮
춯
춰
춱
춲
춳
춴
춵
춶
춷
춸
춹
춺
춻
춼
춽
춾
춿
췀
췁
췂
췃
췄
췅
췆
췇
췈
췉
췊
췋
췌
췍
췎
췏
췐
췑
췒
췓
췔
췕
췖
췗
췘
췙
췚
췛
췜
췝
췞
췟
췠
췡
췢
췣
췤
췥
췦
췧
취
췩
췪
췫
췬
췭
췮
췯
췰
췱
췲
췳
췴
췵
췶
췷
췸
췹
췺
췻
췼
췽
췾
췿
츀
츁
츂
츃
츄
츅
츆
츇
츈
츉
츊
츋
츌
츍
츎
츏
츐
츑
츒
츓
츔
츕
츖
츗
츘
츙
츚
츛
츜
츝
츞
츟
츠
측
츢
츣
츤
츥
츦
츧
츨
츩
츪
츫
츬
츭
츮
츯
츰
츱
츲
츳
츴
층
츶
츷
츸
츹
츺
츻
츼
츽
츾
츿
칀
칁
칂
칃
칄
칅
칆
칇
칈
칉
칊
칋
칌
칍
칎
칏
칐
칑
칒
칓
칔
칕
칖
칗
치
칙
칚
칛
친
칝
칞
칟
칠
칡
칢
칣
칤
칥
칦
칧
침
칩
칪
칫
칬
칭
칮
칯
칰
칱
칲
칳
카
칵
칶
칷
칸
칹
칺
칻
칼
칽
칾
칿
캀
캁
캂
캃
캄
캅
캆
캇
캈
캉
캊
캋
캌
캍
캎
캏
캐
캑
캒
캓
캔
캕
캖
캗
캘
캙
캚
캛
캜
캝
캞
캟
캠
캡
캢
캣
캤
캥
캦
캧
캨
캩
캪
캫
캬
캭
캮
캯
캰
캱
캲
캳
캴
캵
캶
캷
캸
캹
캺
캻
캼
캽
캾
캿
컀
컁
컂
컃
컄
컅
컆
컇
컈
컉
컊
컋
컌
컍
컎
컏
컐
컑
컒
컓
컔
컕
컖
컗
컘
컙
컚
컛
컜
컝
컞
컟
컠
컡
컢
컣
커
컥
컦
컧
컨
컩
컪
컫
컬
컭
컮
컯
컰
컱
컲
컳
컴
컵
컶
컷
컹
컺
컻
컼
컽
컾
컿
케
켁
켂
켃
켄
켅
켆
켇
켈
켉
켊
켋
켌
켍
켎
켏
켐
켑
켒
켓
켔
켕
켖
켗
켘
켙
켚
켛
켜
켝
켞
켟
켠
켡
켢
켣
켤
켥
켦
켧
켨
켩
켪
켫
켬
켭
켮
켯
켰
켱
켲
켳
켴
켵
켶
켷
켸
켹
켺
켻
켼
켽
켾
켿
콀
콁
콂
콃
콄
콅
콆
콇
콈
콉
콊
콋
콌
콍
콎
콏
콐
콑
콒
콓
코
콕
콖
콗
콘
콙
콚
콛
콜
콝
콞
콟
콠
콡
콢
콣
콤
콥
콦
콧
콨
콩
콪
콫
콬
콭
콮
콯
콰
콱
콲
콳
콴
콵
콶
콷
콸
콹
콺
콻
콼
콽
콾
콿
쾀
쾁
쾂
쾃
쾄
쾅
쾆
쾇
쾈
쾉
쾊
쾋
쾌
쾍
쾎
쾏
쾐
쾑
쾒
쾓
쾔
쾕
쾖
쾗
쾘
쾙
쾚
쾛
쾜
쾝
쾞
쾟
쾠
쾡
쾢
쾣
쾤
쾥
쾦
쾧
쾨
쾩
쾪
쾫
쾬
쾭
쾮
쾯
쾰
쾱
쾲
쾳
쾴
쾵
쾶
쾷
쾸
쾹
쾺
쾻
쾼
쾽
쾾
쾿
쿀
쿁
쿂
쿃
쿄
쿅
쿆
쿇
쿈
쿉
쿊
쿋
쿌
쿍
쿎
쿏
쿐
쿑
쿒
쿓
쿔
쿕
쿖
쿗
쿘
쿙
쿚
쿛
쿜
쿝
쿞
쿟
쿠
쿡
쿢
쿣
쿤
쿥
쿦
쿧
쿨
쿩
쿪
쿫
쿬
쿭
쿮
쿯
쿰
쿱
쿲
쿳
쿴
쿵
쿶
쿷
쿸
쿹
쿺
쿻
쿼
쿽
쿾
쿿
퀀
퀁
퀂
퀃
퀄
퀅
퀆
퀇
퀈
퀉
퀊
퀋
퀌
퀍
퀎
퀏
퀐
퀑
퀒
퀓
퀔
퀕
퀖
퀗
퀘
퀙
퀚
퀛
퀜
퀝
퀞
퀟
퀠
퀡
퀢
퀣
퀤
퀥
퀦
퀧
퀨
퀩
퀪
퀫
퀬
퀭
퀮
퀯
퀰
퀱
퀲
퀳
퀴
퀵
퀶
퀷
퀸
퀹
퀺
퀻
퀼
퀽
퀾
퀿
큀
큁
큂
큃
큄
큅
큆
큇
큈
큉
큊
큋
큌
큍
큎
큏
큐
큑
큒
큓
큔
큕
큖
큗
큘
큙
큚
큛
큜
큝
큞
큟
큠
큡
큢
큣
큤
큥
큦
큧
큨
큩
큪
큫
크
큭
큮
큯
큰
큱
큲
큳
클
큵
큶
큷
큸
큹
큺
큻
큼
큽
큾
큿
킀
킁
킂
킃
킄
킅
킆
킇
킈
킉
킊
킋
킌
킍
킎
킏
킐
킑
킒
킓
킔
킕
킖
킗
킘
킙
킚
킛
킜
킝
킞
킟
킠
킡
킢
킣
키
킥
킦
킧
킨
킩
킪
킫
킬
킭
킮
킯
킰
킱
킲
킳
킴
킵
킶
킷
킸
킹
킺
킻
킼
킽
킾
킿
타
탁
탂
탃
탄
탅
탆
탇
탈
탉
탊
탋
탌
탍
탎
탏
탐
탑
탒
탓
탔
탕
탖
탗
탘
탙
탚
탛
태
택
탞
탟
탠
탡
탢
탣
탤
탥
탦
탧
탨
탩
탪
탫
탬
탭
탮
탯
탰
탱
탲
탳
탴
탵
탶
탷
탸
탹
탺
탻
탼
탽
탾
탿
턀
턁
턂
턃
턄
턅
턆
턇
턈
턉
턊
턋
턌
턍
턎
턏
턐
턑
턒
턓
턔
턕
턖
턗
턘
턙
턚
턛
턜
턝
턞
턟
턠
턡
턢
턣
턤
턥
턦
턧
턨
턩
턪
턫
턬
턭
턮
턯
터
턱
턲
턳
턴
턵
턶
턷
털
턹
턺
턻
턼
턽
턾
턿
텀
텁
텂
텃
텅
텆
텇
텈
텉
텊
텋
테
텍
텎
텏
텐
텑
텒
텓
텔
텕
텖
텗
텘
텙
텚
텛
템
텝
텞
텟
텠
텡
텢
텣
텤
텥
텦
텧
텨
텩
텪
텫
텬
텭
텮
텯
텰
텱
텲
텳
텴
텵
텶
텷
텸
텹
텺
텻
텼
텽
텾
텿
톀
톁
톂
톃
톄
톅
톆
톇
톈
톉
톊
톋
톌
톍
톎
톏
톐
톑
톒
톓
톔
톕
톖
톗
톘
톙
톚
톛
톜
톝
톞
톟
토
톡
톢
톣
톤
톥
톦
톧
톨
톩
톪
톫
톬
톭
톮
톯
톰
톱
톲
톳
톴
통
톶
톷
톸
톹
톺
톻
톼
톽
톾
톿
퇀
퇁
퇂
퇃
퇄
퇅
퇆
퇇
퇈
퇉
퇊
퇋
퇌
퇍
퇎
퇏
퇐
퇑
퇒
퇓
퇔
퇕
퇖
퇗
퇘
퇙
퇚
퇛
퇜
퇝
퇞
퇟
퇠
퇡
퇢
퇣
퇤
퇥
퇦
퇧
퇨
퇩
퇪
퇫
퇬
퇭
퇮
퇯
퇰
퇱
퇲
퇳
퇴
퇵
퇶
퇷
퇸
퇹
퇺
퇻
퇼
퇽
퇾
퇿
툀
툁
툂
툃
툄
툅
툆
툇
툈
툉
툊
툋
툌
툍
툎
툏
툐
툑
툒
툓
툔
툕
툖
툗
툘
툙
툚
툛
툜
툝
툞
툟
툠
툡
툢
툣
툤
툥
툦
툧
툨
툩
툪
툫
투
툭
툮
툯
툰
툱
툲
툳
툴
툵
툶
툷
툸
툹
툺
툻
툼
툽
툾
툿
퉀
퉁
퉂
퉃
퉄
퉅
퉆
퉇
퉈
퉉
퉊
퉋
퉌
퉍
퉎
퉏
퉐
퉑
퉒
퉓
퉔
퉕
퉖
퉗
퉘
퉙
퉚
퉛
퉜
퉝
퉞
퉟
퉠
퉡
퉢
퉣
퉤
퉥
퉦
퉧
퉨
퉩
퉪
퉫
퉬
퉭
퉮
퉯
퉰
퉱
퉲
퉳
퉴
퉵
퉶
퉷
퉸
퉹
퉺
퉻
퉼
퉽
퉾
퉿
튀
튁
튂
튃
튄
튅
튆
튇
튈
튉
튊
튋
튌
튍
튎
튏
튐
튑
튒
튓
튔
튕
튖
튗
튘
튙
튚
튛
튜
튝
튞
튟
튠
튡
튢
튣
튤
튥
튦
튧
튨
튩
튪
튫
튬
튭
튮
튯
튰
튱
튲
튳
튴
튵
튶
튷
트
특
튺
튻
튼
튽
튾
튿
틀
틁
틂
틃
틄
틅
틆
틇
틈
틉
틊
틋
틌
틍
틎
틏
틐
틑
틒
틓
틔
틕
틖
틗
틘
틙
틚
틛
틜
틝
틞
틟
틠
틡
틢
틣
틤
틥
틦
틧
틨
틩
틪
틫
틬
틭
틮
틯
티
틱
틲
틳
틴
틵
틶
틷
틸
틹
틺
틻
틼
틽
틾
틿
팀
팁
팂
팃
팄
팅
팆
팇
팈
팉
팊
팋
파
팍
팎
팏
판
팑
팒
팓
팔
팕
팖
팗
팘
팙
팚
팛
팜
팝
팞
팟
팠
팡
팢
팣
팤
팥
팦
팧
패
팩
팪
팫
팬
팭
팮
팯
팰
팱
팲
팳
팴
팵
팶
팷
팸
팹
팺
팻
팽
팾
팿
퍀
퍁
퍂
퍃
퍄
퍅
퍆
퍇
퍈
퍉
퍊
퍋
퍌
퍍
퍎
퍏
퍐
퍑
퍒
퍓
퍔
퍕
퍖
퍗
퍘
퍙
퍚
퍛
퍜
퍝
퍞
퍟
퍠
퍡
퍢
퍣
퍤
퍥
퍦
퍧
퍨
퍩
퍪
퍫
퍬
퍭
퍮
퍯
퍰
퍱
퍲
퍳
퍴
퍵
퍶
퍷
퍸
퍹
퍺
퍻
퍼
퍽
퍾
퍿
펀
펁
펂
펃
펄
펅
펆
펇
펈
펉
펊
펋
펌
펍
펎
펏
펐
펑
펒
펓
펔
펕
펖
펗
페
펙
펚
펛
펜
펝
펞
펟
펠
펡
펢
펣
펤
펥
펦
펧
펨
펩
펪
펫
펬
펭
펮
펯
펰
펱
펲
펳
펴
펵
펶
펷
편
펹
펺
펻
펼
펽
펾
펿
폀
폁
폂
폃
폄
폅
폆
폇
평
폊
폋
폌
폍
폎
폏
폐
폑
폒
폓
폔
폕
폖
폗
폘
폙
폚
폛
폜
폝
폞
폟
폠
폡
폢
폣
폤
폥
폦
폧
폨
폩
폪
폫
포
폭
폮
폯
폰
폱
폲
폳
폴
폵
폶
폷
폸
폹
폺
폻
폼
폽
폾
폿
퐀
퐁
퐂
퐃
퐄
퐅
퐆
퐇
퐈
퐉
퐊
퐋
퐌
퐍
퐎
퐏
퐐
퐑
퐒
퐓
퐔
퐕
퐖
퐗
퐘
퐙
퐚
퐛
퐜
퐝
퐞
퐟
퐠
퐡
퐢
퐣
퐤
퐥
퐦
퐧
퐨
퐩
퐪
퐫
퐬
퐭
퐮
퐯
퐰
퐱
퐲
퐳
퐴
퐵
퐶
퐷
퐸
퐹
퐺
퐻
퐼
퐽
퐾
퐿
푀
푁
푂
푃
푄
푅
푆
푇
푈
푉
푊
푋
푌
푍
푎
푏
푐
푑
푒
푓
푔
푕
푖
푗
푘
푙
푚
푛
표
푝
푞
푟
푠
푡
푢
푣
푤
푥
푦
푧
푨
푩
푪
푫
푬
푭
푮
푯
푰
푱
푲
푳
푴
푵
푶
푷
푸
푹
푺
푻
푼
푽
푾
푿
풀
풁
풂
풃
풄
풅
풆
풇
품
풉
풊
풋
풌
풍
풎
풏
풐
풑
풒
풓
풔
풕
풖
풗
풘
풙
풚
풛
풜
풝
풞
풟
풠
풡
풢
풣
풤
풥
풦
풧
풨
풩
풪
풫
풬
풭
풮
풯
풰
풱
풲
풳
풴
풵
풶
풷
풸
풹
풺
풻
풼
풽
풾
풿
퓀
퓁
퓂
퓃
퓄
퓅
퓆
퓇
퓈
퓉
퓊
퓋
퓌
퓍
퓎
퓏
퓐
퓑
퓒
퓓
퓔
퓕
퓖
퓗
퓘
퓙
퓚
퓛
퓜
퓝
퓞
퓟
퓠
퓡
퓢
퓣
퓤
퓥
퓦
퓧
퓨
퓩
퓪
퓫
퓬
퓭
퓮
퓯
퓰
퓱
퓲
퓳
퓴
퓵
퓶
퓷
퓸
퓹
퓺
퓻
퓼
퓽
퓾
퓿
픀
픁
픂
픃
프
픅
픆
픇
픈
픉
픊
픋
플
픍
픎
픏
픐
픑
픒
픓
픔
픕
픖
픗
픘
픙
픚
픛
픜
픝
픞
픟
픠
픡
픢
픣
픤
픥
픦
픧
픨
픩
픪
픫
픬
픭
픮
픯
픰
픱
픲
픳
픴
픵
픶
픷
픸
픹
픺
픻
피
픽
픾
픿
핀
핁
핂
핃
필
핅
핆
핇
핈
핉
핊
핋
핌
핍
핎
핏
핐
핑
핒
핓
핔
핕
핖
핗
하
학
핚
핛
한
핝
핞
핟
할
핡
핢
핣
핤
핥
핦
핧
함
합
핪
핫
핬
항
핮
핯
핰
핱
핲
핳
해
핵
핶
핷
핸
핹
핺
핻
핼
핽
핾
핿
햀
햁
햂
햃
햄
햅
햆
햇
했
행
햊
햋
햌
햍
햎
햏
햐
햑
햒
햓
햔
햕
햖
햗
햘
햙
햚
햛
햜
햝
햞
햟
햠
햡
햢
햣
햤
향
햦
햧
햨
햩
햪
햫
햬
햭
햮
햯
햰
햱
햲
햳
햴
햵
햶
햷
햸
햹
햺
햻
햼
햽
햾
햿
헁
헂
헃
헄
헅
헆
헇
허
헉
헊
헋
헌
헍
헎
헏
헐
헑
헒
헓
헔
헕
헖
헗
험
헙
헚
헛
헝
헞
헟
헠
헡
헢
헣
헤
헥
헦
헧
헨
헩
헪
헫
헬
헭
헮
헯
헰
헱
헲
헳
헴
헵
헶
헷
헹
헺
헻
헼
헽
헾
헿
혀
혁
혂
혃
현
혅
혆
혇
혈
혉
혊
혋
혌
혍
혎
혏
혐
협
혒
혓
혔
형
혖
혗
혘
혙
혚
혛
혜
혝
혞
혟
혠
혡
혢
혣
혤
혥
혦
혧
혨
혩
혪
혫
혬
혭
혮
혯
혰
혱
혲
혳
혴
혵
혶
혷
호
혹
혺
혻
혼
혽
혾
혿
홀
홁
홂
홃
홄
홅
홆
홇
홈
홉
홊
홋
홌
홍
홎
홏
홐
홑
홒
홓
화
확
홖
홗
환
홙
홚
홛
활
홝
홞
홟
홠
홡
홢
홣
홤
홥
홦
홧
홨
황
홪
홫
홬
홭
홮
홯
홰
홱
홲
홳
홴
홵
홶
홷
홸
홹
홺
홻
홼
홽
홾
홿
횀
횁
횂
횃
횄
횅
횆
횇
횈
횉
횊
횋
회
획
횎
횏
횐
횑
횒
횓
횔
횕
횖
횗
횘
횙
횚
횛
횜
횝
횞
횟
횠
횡
횢
횣
횤
횥
횦
횧
효
횩
횪
횫
횬
횭
횮
횯
횰
횱
횲
횳
횴
횵
횶
횷
횸
횹
횺
횻
횼
횽
횾
횿
훀
훁
훂
훃
후
훅
훆
훇
훈
훉
훊
훋
훌
훍
훎
훏
훐
훑
훒
훓
훔
훕
훖
훗
훘
훙
훚
훛
훜
훝
훞
훟
훠
훡
훢
훣
훤
훥
훦
훧
훨
훩
훪
훫
훬
훭
훮
훯
훰
훱
훲
훳
훴
훵
훶
훷
훸
훹
훺
훻
훼
훽
훾
훿
휀
휁
휂
휃
휄
휅
휆
휇
휈
휉
휊
휋
휌
휍
휎
휏
휐
휑
휒
휓
휔
휕
휖
휗
휘
휙
휚
휛
휜
휝
휞
휟
휠
휡
휢
휣
휤
휥
휦
휧
휨
휩
휪
휫
휬
휭
휮
휯
휰
휱
휲
휳
휴
휵
휶
휷
휸
휹
휺
휻
휼
휽
휾
휿
흀
흁
흂
흃
흄
흅
흆
흇
흈
흉
흊
흋
흌
흍
흎
흏
흐
흑
흒
흓
흔
흕
흖
흗
흘
흙
흚
흛
흜
흝
흞
흟
흠
흡
흢
흣
흤
흥
흦
흧
흨
흩
흪
흫
희
흭
흮
흯
흰
흱
흲
흳
흵
흶
흷
흸
흹
흺
흻
흼
흽
흾
흿
힀
힁
힂
힃
힄
힅
힆
힇
히
힉
힊
힋
힌
힍
힎
힏
힐
힑
힒
힓
힔
힕
힖
힗
힘
힙
힚
힛
힜
힝
힞
힟
힠
힡
힢
힣
##o
##u
##t
##b
##e
##r
##라
##츠
##다
##유
##사
##쿠
##억
##재
##강
##a
##s
##i
##n
##도
##자
##h
##m
##A
##F
##l
##W
##d
##움
##c
##g
##상
##진
##립
##단
##C
##H
##K
##O
##R
##E
##서
##감
##기
##로
##제
##U
##q
##Z
##P
##B
##치
##영
##y
##x
##0
##1
##8
##6
##2
##5
##3
##k
##v
##w
##키
##즈
##순
##병
##인
##요
##산
##법
##에
##f
##락
##궁
##9
##7
##j
##z
##나
##이
##소
##정
##p
##S
##I
##리
##월
##은
##숙
##람
##J
##먼
##Y
##D
##M
##느
##승
##선
##고
##과
##원
##철
##T
##약
##G
##송
##대
##N
##4
##하
##르
##트
##폰
##작
##센
##바
##마
##공
##괄
##피
##화
##드
##류
##안
##젤
##든
##테
##루
##L
##주
##보
##각
##건
##림
##수
##우
##문
##임
##차
##크
##롬
##지
##식
##노
##티
##어
##링
##갈
##덕
##헤
##푸
##실
##레
##모
##스
##맥
##슈
##동
##호
##분
##구
##비
##균
##징
##V
##톡
##턴
##X
##해
##권
##아
##국
##흑
##곰
##골
##}
##]
##&
##축
##포
##일
##낙
##코
##조
##데
##빌
##창
##두
##열
##중
##짐
##ㅑ
##ㅊ
##업
##욕
##님
##토
##알
##메
##박
##성
##학
##탱
##적
##!
##란
##한
##곡
##석
##만
##타
##러
##를
##았
##더
##니
##천
##면
##현
##악
##오
##게
##잡
##네
##옹
##을
##^
##:
##종
##섭
##괭
##입
##살
##'
##럼
##갤
##얀
##민
##왕
##풀
##캠
##벨
##망
##완
##미
##븐
##엔
##쫄
##시
##전
##부
##ㅒ
##ㅈ
##빔
##밥
##츄
##빈
##쟁
##뱀
##울
##{
##,
##\
##;
##훈
##합
##극
##커
##는
##등
##옥
##뇌
##연
##의
##워
##쭉
##댄
##멸
##파
##퀴
##너
##버
##틀
##롱
##졸
##남
##흥
##항
##채
##용
##츨
##웨
##책
##럽
##뜩
##거
##혁
##략
##뿔
##.
##"
##-
##형
##팀
##굽
##신
##돌
##컴
##퓨
##터
##속
##증
##장
##샹
##첸
##히
##홍
##준
##래
##저
##길
##근
##론
##광
##록
##위
##겨
##가
##홀
##암
##폼
##령
##혜
##ㅠ
##ㅎ
##생
##름
##태
##짜
##물
##튼
##야
##카
##효
##체
##그
##디
##탄
##와
##환
##쥐
##렉
##션
##덤
##양
##관
##블
##둥
##예
##쇠
##계
##범
##들
##향
##슨
##챈
##갑
##웅
##붙
##깃
##운
##몽
##폭
##셸
##금
##집
##봉
##읍
##횽
##겁
##프
##륙
##베
##배
##귀
##세
##발
##흐
##표
##역
##액
##런
##층
##군
##랑
##룡
##?
##퍄
##펠
##클
##린
##ㅛ
##ㄱ
##글
##방
###
##~
##브
##잔
##경
##쇼
##몬
##행
##불
##놈
##쾌
##납
##설
##탕
##규
##희
##질
##ㄶ
##슬
##목
##픠
##렌
##청
##춘
##널
##쉐
##누
##결
##명
##답
##렸
##던
##심
##쌀
##막
##걸
##톨
##온
##색
##윿
##엓
##ㅗ
##ㄿ
##끔
##뜨
##@
##였
##으
##궤
##익
##굴
##직
##땅
##춰
##졌
##룩
##룽
##개
##머
##뼈
##급
##량
##력
##+
##것
##언
##족
##녀
##플
##간
##격
##댕
##떼
##새
##헌
##뼉
##끼
##빗
##무
##/
##찬
##초
##뀨
##함
##활
##빛
##잎
##톤
##묵
##판
##쵸
##둑
##ㅕ
##ㅇ
##취
##씨
##료
##Q
##샤
##킨
##칠
##욱
##쥔
##쳐
##렐
##텐
##잭
##련
##킹
##엘
##통
##습
##음
##내
##랜
##달
##ㅆ
##ㅐ
##처
##쌍
##닥
##넨
##풍
##랄
##앤
##틸
##삼
##큼
##칵
##므
##칭
##잉
##때
##평
##핏
##(
##)
##넬
##폴
##앙
##별
##쥬
##ㄺ
##뚜
##줄
##ㅂ
##케
##페
##꾜
##셈
##복
##년
##값
##펨
##죽
##놀
##숭
##겸
##밤
##뀩
##여
##혼
##퀘
##매
##릉
##ㄷ
##찰
##맹
##율
##끈
##후
##룹
##묘
##켈
##같
##뾰
##뿅
##녘
##쉬
##윤
##침
##번
##벌
##늬
##곤
##늘
##얼
##윌
##굠
##험
##절
##ㅟ
##ㅄ
##교
##혈
##롤
##릭
##ㅡ
##촌
##추
##북
##$
##맣
##델
##ㅋ
##흠
##농
##출
##싱
##웃
##없
##룻
##숲
##>
##셀
##릿
##깅
##닝
##햄
##렬
##텔
##잘
##렘
##담
##회
##염
##점
##콕
##쓰
##반
##둘
##엽
##총
##*
##까
##컵
##훼
##ㅘ
##손
##띠
##섬
##왓
##엿
##퍼
##싴
##갠
##투
##긴
##날
##애
##볼
##충
##털
##었
##랴
##밋
##했
##벤
##척
##콘
##밀
##탁
##륜
##퇴
##듯
##눈
##외
##ㅅ
##허
##둬
##낚
##돔
##ㄽ
##큭
##%
##밴
##택
##논
##곱
##뺵
##며
##겐
##흘
##백
##할
##왈
##품
##밍
##딘
##곳
##탈
##싀
##튽
##쪽
##찮
##존
##본
##ㅞ
##ㅍ
##먹
##틴
##뒷
##뉴
##맨
##필
##탸
##려
##핵
##참
##귤
##독
##럴
##웰
##괘
##홉
##큐
##싸
##변
##튜
##ㄳ
##잠
##샘
##넥
##뜝
##뿌
##잇
##난
##닉
##팅
##견
##객
##긋
##퉁
##딱
##콤
##술
##킬
##녤
##쯤
##ㅜ
##죠
##첩
##엇
##엄
##짱
##응
##렛
##밖
##딩
##짝
##벡
##첼
##냐
##검
##측
##멕
##쪼
##뛰
##썽
##꾸
##률
##퀼
##된
##뭉
##턱
##뤼
##찌
##콩
##힐
##압
##냉
##쭈
##촬
##특
##올
##당
##뇰
##멘
##ㄲ
##휴
##팔
##뢰
##즐
##뱅
##톈
##득
##접
##능
##ㄹ
##ㅁ
##앗
##눞
##뿍
##륵
##셔
##켓
##듀
##져
##웍
##칸
##김
##좌
##례
##삭
##녕
##갓
##륨
##겔
##섯
##땁
##랍
##텟
##뵈
##윙
##패
##껏
##써
##ㅣ
##릅
##ㅝ
##빼
##콜
##덴
##셩
##삐
##쁘
##`
##핸
##ㅌ
##둔
##촨
##빠
##혀
##듬
##붑
##욘
##ㅢ
##씽
##렁
##황
##쇄
##념
##덩
##친
##웩
##뱃
##=
##_
##펙
##릴
##덜
##ㅚ
##ㄵ
##떤
##첨
##괴
##셰
##캄
##말
##앨
##맞
##훕
##께
##펜
##튝
##킴
##ㅏ
##받
##떄
##빨
##롮
##십
##힛
##켄
##탑
##꺽
##딸
##쉭
##낸
##벗
##숫
##뜻
##[
##ㄻ
##짓
##좀
##뜰
##휘
##렴
##풋
##젠
##짧
##뜽
##찔
##췩
##획
##캐
##줍
##따
##벽
##뷰
##ㄴ
##템
##팽
##멍
##롭
##샨
##툭
##땡
##핀
##뽕
##혹
##넓
##푼
##춤
##벳
##팬
##쪄
##켜
##젬
##ㄾ
##른
##ㅖ
##셉
##엠
##윽
##솔
##눟
##굉
##젝
##픈
##겠
##똥
##쟉
##챳
##ㅉ
##쯔
##꽈
##듭
##줌
##편
##텍
##돈
##뮤
##착
##쩍
##꽃
##얌
##랭
##꾼
##녹
##꼬
##힌
##삣
##텃
##캣
##멜
##팍
##육
##컥
##걱
##쒕
##짠
##뿐
##췅
##꼮
##퐁
##엑
##삿
##켐
##닌
##콰
##붸
##픽
##ㅔ
##윈
##옇
##캔
##ㅓ
##읽
##몐
##힘
##뉘
##껑
##뤄
##틱
##럭
##<
##뇸
##뻴
##즘
##깎
##쪘
##릇
##큰
##넷
##읫
##귯
##쩌
##훽
##훙
##띄
##맙
##놓
##샬
##있
##째
##넙
##ㄼ
##깔
##듦
##셜
##룬
##뇨
##툴
##녜
##앵
##닙
##녠
##펫
##윗
##흔
##굼
##쑈
##즤
##깟
##뷸
##ㅀ
##휼
##폐
##줘
##붕
##샵
##렇
##밭
##잣
##썩
##쿄
##ㅙ
##늄
##빙
##찍
##믹
##쭙
##잖
##확
##곶
##짤
##웹
##젓
##멧
##돼
##뺑
##츤
##갱
##셤
##닐
##죄
##낑
##쨋
##떠
##맵
##핑
##웜
##댈
##늑
##맷
##즙
##뮈
##텝
##룸
##깜
##쉥
##슥
##딜
##협
##즉
##슶
##틊
##옷
##뽀
##킷
##퀄
##톱
##냄
##껍
##떡
##늡
##또
##눙
##캑
##솥
##쮸
##묻
##칼
##팡
##탓
##껄
##쑤
##딤
##뒤
##몰
##똔
##솜
##훔
##벅
##셋
##낌
##멀
##깨
##봐
##슐
##뢍
##캘
##팝
##룀
##얘
##램
##헑
##냥
##캉
##큘
##넘
##꼴
##굇
##푀
##욤
##걀
##쾅
##밑
##쿨
##툰
##팩
##ㄸ
##탐
##닷
##좍
##뉻
##뒨
##똘
##뺙
##쓱
##띰
##롯
##퉈
##컨
##쟌
##겟
##칙
##끄
##랫
##댐
##훤
##쭘
##슴
##쩜
##붓
##융
##뱉
##궈
##봇
##및
##랕
##넌
##킁
##꽁
##팃
##앱
##굿
##헨
##멬
##햇
##꺄
##봙
##찡
##벼
##펑
##랏
##뻬
##쉴
##밈
##쳤
##웬
##꿀
##뮬
##낪
##밊
##되
##쌰
##씻
##샐
##뗘
##낭
##쿤
##못
##쑹
##덟
##흙
##즁
##펌
##덮
##쑝
##랸
##딕
##숀
##툉
##뇬
##낀
##뮨
##뻐
##잼
##깡
##늦
##빅
##꺅
##닢
##젖
##콧
##녁
##쿵
##쓸
##낼
##덱
##뮴
##췌
##떨
##쟈
##툠
##똑
##킥
##뚱
##갸
##뎀
##뻔
##셍
##쎄
##닜
##깥
##엃
##헣
##헗
##컼
##뾱
##떵
##튀
##핍
##챠
##힉
##꺘
##뜯
##곽
##둠
##쑥
##믈
##얏
##컬
##궐
##옘
##썬
##슘
##믜
##쥭
##숍
##옌
##끝
##퐈
##닭
##묜
##쌩
##헐
##됴
##즌
##싹
##촉
##햅
##깐
##냠
##렝
##랩
##슝
##눌
##쿙
##꾹
##맛
##헬
##벙
##뇽
##엡
##돗
##맑
##렷
##흉
##넣
##벰
##츙
##삽
##뚤
##쪠
##낫
##팜
##퉤
##씬
##퍽
##빵
##딧
##쳅
##핌
##뭄
##엉
##뜬
##닫
##삶
##늉
##빱
##혔
##띵
##|
##픔
##쏭
##깁
##쁶
##탤
##갬
##땐
##팟
##쨩
##뒿
##겜
##쮜
##뼤
##얄
##텅
##랙
##봄
##쉽
##떻
##챗
##숨
##겅
##츈
##씹
##걔
##뵙
##쿼
##홧
##엾
##눔
##탬
##갔
##뽄
##셴
##낵
##옵
##뼬
##튬
##꽝
##믄
##겼
##툼
##랰
##쇳
##뎃
##뫙
##숴
##툽
##빤
##훌
##윳
##낱
##멓
##촤
##촷
##뫼
##흡
##듈
##샷
##깍
##뼝
##딛
##뭇
##릎
##팸
##뮌
##찜
##섕
##댓
##핟
##뎨
##봊
##돤
##벵
##벚
##뜸
##됨
##엥
##렵
##펔
##뚠
##윰
##잨
##않
##듐
##캢
##욦
##탯
##ㅃ
##빰
##꼼
##덞
##긔
##쎠
##룰
##혐
##쮹
##킄
##컄
##짘
##싯
##뎅
##앳
##놔
##냑
##캇
##왁
##젹
##볶
##톰
##랗
##탭
##꺼
##꿍
##눅
##땜
##핫
##맆
##쉰
##쏙
##닿
##쭁
##렙
##칫
##왔
##쉑
##댔
##뷔
##딴
##땀
##늠
##씅
##닛
##벞
##읭
##켚
##앜
##컭
##쀼
##챔
##붉
##츼
##꿝
##늰
##뒁
##똟
##롄
##팰
##엣
##옴
##밟
##웁
##껀
##깽
##꺕
##뇓
##씀
##놋
##첬
##땛
##밻
##샒
##텀
##펭
##럿
##펄
##섹
##쓔
##쒀
##엌
##씩
##숩
##쌈
##뉵
##폿
##팁
##멈
##쟣
##최
##꼭
##폄
##뚝
##흫
##핳
##픗
##탠
##찐
##쏘
##낰
##폘
##웡
##욜
##앟
##끌
##썹
##뉼
##옛
##헥
##펀
##쁑
##헿
##캌
##컹
##숑
##컷
##푯
##륄
##줏
##뱔
##꼐
##쌓
##큥
##퐝
##촐
##덧
##샥
##됬
##츀
##듥
##꺵
##갛
##쥥
##갹
##먄
##믓
##륭
##랠
##얹
##븨
##깄
##젯
##땃
##샙
##읗
##뻘
##쇽
##듸
##픅
##쌔
##뵤
##푝
##쳉
##긇
##흟
##뽁
##꽥
##젼
##끗
##튠
##륍
##씁
##낄
##돋
##젴
##앉
##먁
##쨔
##쭨
##틈
##큮
##펩
##벫
##랼
##눼
##쉅
##볍
##깻
##짚
##줴
##먐
##먀
##멩
##섴
##뭔
##쥽
##쩡
##꾀
##쩐
##밧
##뇻
##뇾
##칩
##믁
##홈
##뾸
##퐐
##꺾
##옙
##윅
##쎼
##쌤
##흣
##댜
##힗
##듣
##끽
##햐
##뷜
##꿈
##찻
##갯
##팥
##쭌
##쬐
##룝
##났
##캎
##귁
##앞
##삑
##옿
##띤
##몇
##뀌
##챙
##풉
##둣
##퀸
##뷘
##큅
##샌
##킼
##뤀
##붇
##쓴
##갖
##뀽
##짬
##냇
##헠
##쩠
##햘
##녈
##쳰
##뒑
##뚬
##헉
##힝
##릏
##밗
##샴
##쫜
##훠
##꼽
##쨕
##뿜
##쉼
##푹
##뻑
##좡
##닊
##콥
##뢴
##쭝
##닯
##쳇
##쯸
##댸
##롼
##퀵
##덥
##숟
##슾
##켠
##윷
##꿎
##쩨
##졀
##맴
##흰
##륀
##롸
##탵
##셥
##쾨
##텨
##챡
##씰
##맏
##늅
##뮐
##숄
##벋
##퓔
##븀
##톼
##꿩
##횡
##홋
##끓
##삯
##씌
##멉
##맘
##캡
##빽
##붐
##뻥
##빕
##썰
##곧
##뗑
##뻡
##넛
##땽
##멤
##깩
##낮
##삥
##봤
##꿔
##첵
##싕
##챦
##찹
##귿
##핼
##낏
##좁
##왜
##틔
##츰
##쎌
##틋
##컫
##껴
##뫄
##퉅
##뒥
##뎬
##멋
##썄
##꽂
##삠
##댁
##씸
##훗
##죌
##햏
##빡
##쩔
##챱
##뎌
##큿
##퓌
##퐄
##헹
##몸
##췬
##웠
##쌘
##옳
##핰
##쌉
##슌
##짭
##뱌
##횻
##훨
##높
##왇
##팎
##잆
##픖
##텡
##롹
##촹
##챸
##둗
##쉔
##뜀
##긍
##뎡
##얍
##밸
##쳌
##셨
##쒜
##묑
##뿛
##뀍
##뼜
##뵷
##꼈
##챝
##럐
##쟙
##헝
##흄
##읏
##뱡
##깬
##쾰
##짹
##릐
##뽑
##뜳
##앍
##쀠
##왉
##얒
##끙
##샛
##곀
##뺴
##깤
##돫
##땍
##얇
##뺀
##껸
##촵
##댬
##됭
##킈
##꺠
##걕
##묭
##졔
##짼
##놰
##뒈
##궃
##볏
##휠
##띡
##쿰
##흗
##뢱
##뻣
##겻
##썸
##슙
##왑
##탔
##곯
##픓
##읋
##슛
##냣
##놉
##냅
##뽜
##냘
##뎁
##둴
##앓
##밣
##쥰
##쭤
##챨
##콸
##쯉
##휏
##듫
##춉
##꺌
##퓰
##쳑
##끤
##듟
##쾡
##롈
##챤
##훅
##뷀
##맢
##닮
##좆
##헛
##닼
##릯
##뙇
##츌
##솅
##볘
##앰
##셒
##췰
##뤽
##쾃
##뒬
##맫
##촘
##꾿
##앋
##넝
##딪
##캅
##몫
##끊
##뼛
##껠
##삘
##욧
##뭐
##뤠
##캬
##쨌
##옆
##듧
##빳
##엙
##쭀
##눗
##꿉
##뵐
##딥
##졋
##핲
##퉷
##앚
##옐
##싼
##쨘
##펴
##펐
##곁
##쿸
##칰
##몌
##귄
##홓
##쯧
##헴
##뤵
##떰
##톳
##훟
##엤
##잍
##얻
##췽
##췄
##뉜
##뉨
##킵
##랬
##겹
##샅
##캥
##뵥
##쑨
##쥿
##곲
##횞
##삾
##켤
##샠
##쏫
##룟
##픳
##깊
##뵹
##쟛
##넴
##죳
##쁠
##텁
##랣
##땗
##켬
##쁴
##떈
##껌
##믕
##끅
##킦
##끾
##흿
##섰
##죡
##솰
##곗
##졷
##덦
##웸
##얐
##쫑
##쨍
##믿
##괵
##톄
##혠
##돵
##믱
##챌
##삵
##넹
##튿
##헯
##젧
##줛
##놗
##괏
##솫
##뗛
##몼
##돇
##돣
##뢐
##홳
##잓
##웫
##룫
##뺃
##뗣
##볕
##왱
##귱
##밝
##촙
##젱
##룅
##곬
##뭬
##딯
##웽
##늕
##슭
##꿋
##븓
##쳄
##늿
##똏
##삧
##헵
##쁨
##궂
##돖
##캆
##왒
##싮
##밦
##곻
##쿡
##몆
##틍
##켕
##튄
##툑
##둡
##얗
##맡
##뛩
##죨
##휵
##찾
##췁
##늙
##숯
##믐
##퀀
##뼥
##륶
##닏
##눕
##될
##뗀
##쫓
##찟
##쨉
##뿁
##꽌
##팻
##쬬
##솟
##슷
##닦
##춧
##꼿
##읪
##픨
##깝
##쭐
##솽
##탼
##맇
##뚸
##돚
##쫙
##챃
##딍
##칡
##윱
##죗
##쎔
##넉
##삡
##쎕
##캰
##쯱
##띱
##겋
##켸
##챰
##꽊
##쒸
##묄
##퓍
##많
##쟝
##뽝
##좋
##몹
##옺
##툵
##숏
##욋
##쉘
##욷
##휙
##삔
##힁
##멱
##뺏
##윔
##궖
##궫
##궋
##닑
##돕
##뻗
##겍
##넵
##풹
##랃
##솬
##갚
##솨
##쳬
##혬
##댠
##쏼
##귓
##꿨
##젭
##숎
##닻
##짢
##뛣
##홣
##꾫
##펍
##썻
##뤂
##왼
##즛
##탹
##귝
##좐
##뱨
##뒓
##쁙
##뺩
##뿮
##뱦
##셕
##잿
##쥘
##쥴
##폕
##봑
##냔
##뚫
##뽈
##뻉
##롷
##횟
##쌜
##얔
##휀
##땨
##짖
##쏴
##훍
##겉
##헙
##켁
##띨
##윾
##횬
##빧
##휭
##춋
##쵤
##꿇
##쏠
##듕
##롁
##븝
##웟
##쁜
##줭
##늪
##쵹
##뎋
##썷
##좸
##헱
##롻
##먗
##쌥
##틉
##뒹
##꽤
##혓
##솝
##밬
##푷
##킳
##븍
##쏩
##뺅
##큇
##옅
##틷
##햣
##뿡
##즑
##쌕
##돠
##튕
##볜
##듁
##걷
##꽉
##꽐
##콴
##섀
##끜
##뚞
##룔
##췻
##뷴
##졈
##웈
##텬
##뎐
##궬
##뀫
##쌱
##볫
##굵
##퓩
##찎
##갷
##볽
##엮
##솹
##섞
##렞
##냈
##퇼
##봅
##팈
##긕
##냙
##랖
##걍
##헷
##굄
##죵
##몃
##큾
##벖
##텂
##엊
##읓
##읔
##엨
##샄
##뷉
##벱
##옻
##떳
##샻
##쐐
##귐
##뀐
##켰
##뜫
##앝
##풒
##뗏
##렫
##냏
##뢸
##븅
##긧
##큣
##뀜
##썝
##뿉
##푱
##싐
##돓
##쑴
##뚀
##둈
##랔
##뾘
##줓
##딨
##홐
##뉸
##힙
##즹
##쯪
##왂
##띔
##슼
##쏜
##탇
##엎
##홰
##븃
##퍅
##엫
##탉
##좇
##툇
##겊
##됸
##훜
##윻
##뗔
##쎈
##뫞
##뿷
##땞
##밪
##뒗
##렜
##됵
##롊
##웻
##칟
##뷇
##뎍
##쨰
##륑
##읅
##낲
##떽
##놘
##렀
##뢔
##슆
##쌋
##껫
##왧
##뷃
##꿏
##퀠
##숕
##츔
##퀌
##꺐
##밉
##랆
##켑
##뾲
##찢
##젔
##낳
##긱
##곖
##몀
##좂
##귬
##졍
##큠
##튱
##줵
##왐
##갉
##팉
##뙤
##섶
##쁅
##뺡
##뗡
##퇗
##읒
##뭍
##뚯
##쮝
##싟
##꼰
##툐
##뗄
##퇘
##앸
##쇅
##윘
##눤
##햟
##썅
##푈
##쁌
##쯋
##옮
##뱁
##됐
##뇩
##릘
##핥
##튮
##돿
##촡
##멨
##훳
##죔
##퉱
##끍
##휽
##끠
##촥
##퇀
##읖
##짞
##뿎
##섈
##맬
##쩅
##몊
##쯕
##볓
##핤
##롑
##뿟
##겿
##둍
##잽
##콱
##뀻
##퓻
##쬽
##챵
##롣
##붹
##괼
##칞
##녔
##넡
##셷
##웝
##뫃
##뚷
##뭏
##붖
##쫀
##횔
##뀪
##긤
##뎜
##숱
##뽱
##룳
##뱐
##빚
##칯
##쫭
##렡
##흇
##퐳
##씉
##뛃
##괧
##쭵
##둉
##큔
##웉
##엷
##잋
##슢
##붝
##얽
##윹
##싈
##돩
##쒹
##끕
##엗
##녓
##릾
##봫
##꼳
##탘
##쥠
##웤
##끨
##낻
##슽
##퍙
##끵
##먏
##넠
##펼
##큄
##쉟
##렣
##벍
##쀏
##빩
##싣
##콬
##톹
##퐆
##잰
##냟
##딫
##몯
##녑
##쳔
##뗻
##띧
##봡
##굛
##댦
##뷁
##겆
##튺
##꽇
##쁟
##
##굥
##혯
##귖
##궺
##긲
##깒
##깛
##긛
##퍗
##쳣
##셱
##쩬
##뺼
##돨
##덫
##쥣
##쬲
##먕
##뺄
##뫀
##귈
##풔
##걲
##맠
##꼇
##힡
##캭
##싄
##퓸
##삗
##쿱
##뜐
##쪨
##댱
##쿳
##삒
##잌
##춈
##옾
##뤯
##룱
##뻤
##킅
##쨥
##벓
##푠
##픋
##뺘
##룐
##빎
##웆
##몔
##췛
##숌
##둇
##툥
##픤
##홁
##놨
##쬷
##홅
##욿
##쌻
##풇
##컿
##횸
##뚥
##룺
##찓
##놏
##콫
##왘
##횩
##듄
##뎻
##돛
##껰
##줬
##걋
##뙳
##홂
##떅
##젏
##폵
##숧
##깏
##좨
##퀜
##셧
##돡
##땝
##븞
##듮
##괜
##쫒
##얅
##롇
##홝
##샇
##맺
##핡
##칽
##줜
##퀑
##댧
##댯
##낟
##쉡
##쓩
##믌
##엪
##릵
##긞
##긏
##귺
##궭
##갭
##잫
##꿘
##욺
##햑
##욣
##씃
##곈
##긿
##얶
##섣
##좹
##뺨
##츳
##꿰
##눝
##넽
##빻
##굳
##뺭
##캤
##쫣
##똵
##뽧
##꽑
##뽭
##덿
##밌
##맄
##빋
##솩
##썍
##꺆
##겡
##떱
##짒
##챞
##뭅
##랒
##흩
##괳
##꺙
##껚
##읶
##꾱
##뿗
##냫
##좟
##밐
##폯
##짇
##곺
##쎅
##쉏
##삜
##꿱
##혻
##뷫
##퇸
##깈
##댑
##땠
##낛
##읷
##덗
##볐
##먳
##맻
##뮻
##뭋
##췍
##껨
##싫
##쬴
##됼
##굑
##잏
##냬
##큽
##쵮
##콦
##엏
##봬
##뼸
##귡
##긮
##깑
##칣
##튤
##핱
##흧
##풮
##쯩
##훑
##쬭
##첫
##닳
##뿝
##낯
##쩝
##갇
##풱
##뫅
##윕
##얖
##춸
##딈
##싰
##겧
##읕
##뮺
##썼
##뒫
##뙈
##볈
##맓
##싧
##댋
##삷
##핿
##줊
##셟
##섧
##갊
##핣
##닚
##닧
##춱
##듳
##읃
##릊
##뛟
##쁭
##웳
##묶
##솁
##휩
##긶
##엒
##쉠
##긁
##뺌
##끆
##싁
##곂
##몄
##빖
##젮
##훁
##왠
##뀰
##뚧
##좔
##뿓
##쵁
##벜
##붱
##굣
##왷
##듹
##궇
##쭓
##핧
##쪙
##씍
##랐
##뛸
##뜷
##뙗
##퀙
##셣
##쉿
##죰
##폔
##졉
##쏨
##훓
##졧
##쭊
##슁
##둅
##닾
##솎
##궶
##궻
##랤
##궢
##긑
##찧
##벲
##뗠
##돘
##촛
##떙
##뫌
##힠
##녯
##쯰
##뒝
##졬
##롓
##썀
##휗
##슉
##쳡
##쬰
##꾁
##뽓
##욹
##톻
##찷
##뤙
##쏚
##쿶
##큉
##꼍
##횦
##쏀
##렂
##첮
##뎂
##닶
##쏟
##뤌
##륽
##쌐
##솀
##괆
##헼
##샢
##뗶
##뗵
##벧
##쩧
##앆
##풑
##팂
##얃
##갗
##퇵
##툿
##뺚
##웗
##꽯
##튐
##롫
##뿀
##푴
##붘
##뭘
##돜
##뷓
##팠
##릣
##뤨
##멦
##뭭
##뫟
##쑼
##컁
##츩
##휫
##쑁
##젋
##벐
##쀳
##좊
##덯
##즬
##괸
##줆
##죤
##둙
##띙
##삮
##얫
##홑
##뚮
##쐙
##뽟
##뿨
##쿜
##껒
##젊
##흨
##핻
##콣
##뤩
##뎊
##붚
##쑊
##찝
##씤
##쵼
##딺
##핚
##똬
##븟
##탙
##촾
##굘
##싶
##챘
##녿
##꺢
##텽
##챕
##헔
##쟤
##큪
##핔
##튭
##흓
##쎃
##옠
##뜜
##귶
##뙓
##욀
##랋
##꽦
##츺
##쫩
##얺
##붏
##껙
##륷
##퉹
##꽹
##뤕
##텤
##귪
##궸
##궼
##퍝
##홱
##겴
##콻
##쵠
##땩
##럇
##쥩
##겕
##췃
##얭
##똠
##짙
##뜵
##뮹
##띾
##횅
##쭛
##셭
##놑
##룍
##쟘
##쨈
##턻
##끎
##쥉
##갰
##쁐
##벩
##펡
##듶
##냌
##둩
##탒
에서
으로
ㄴ다
20
지만
에게
201
는데
19
까지
때문
아서
##00
아니
라고
라는
으며
다고
나오
면서
보이
10
경우
사용
어서
다는
공격
이후
자신
그리
##레이
사람
위하
대하
정도
부터
##스트
가능
다른
시키
12
보다
이나
200
가지
으나
등장
는다
11
아이
그러
그리고
##어지
게임
하나
버리
경기
..
만들
다가
못하
##er
사실
시간
사이
시작
일본
이름
이상
함께
모습
##니다
따르
##지만
상대
##어나
15
한국
문제
거나
다시
##in
프로
으면
하지만
##스터
생각
또한
아야
가장
들어
시즌
당시
캐릭
##대로
18
ㄴ데
##on
처럼
플레이
당하
캐릭터
##이트
능력
모두
ㄴ지
상황
상태
아도
모든
그렇
##or
세계
선수
추가
##an
16
결국
현재
카드
스킬
##미지
다음
통하
지역
미국
다만
ㄴ다는
많이
전투
그러나
30
효과
존재
13
199
여기
시리
14
##라이
매우
##ar
대학
라이
17
기록
달리
##he
의하
그런
상당
##at
인하
##리아
시리즈
스타
레벨
기술
ㅂ니다
레이
처음
다면
무기
이용
영화
물론
부르
이유
방송
자체
100
이것
해당
같이
여러
필요
이런
실제
25
일반
들어가
모르
주인
마법
ㄴ다고
리그
거의
돌아
어야
##리스
학교
역시
바로
##거리
사건
##en
나가
##이스
관련
특히
다르
이야
위치
기본
2017
부분
대표
국가
##이지
진행
##ou
그래
피해
##부분
제작
2018
방어
아무
이야기
활동
동안
는지
##지막
없이
인간
작품
알리
증가
대부분
##시아
일부
##al
마지막
2019
지나
본인
계속
자기
21
##es
감독
ㄴ가
서울
떨어지
라면
내용
우리
관계
만큼
올리
2016
중국
50
주인공
속도
이전
##전히
참고
어도
대신
생기
수준
전쟁
그냥
비슷
어느
타이
으니
기준
비하
지금
성공
22
198
대한
강하
도시
만나
##민국
이루
도록
밝히
인물
그녀
결과
24
연구
배우
최대
지원
습니다
상당히
공격력
올라
기사
마다
평가
시절
##it
그대로
빠르
대한민국
나타
자리
의미
너무
##버지
제외
므로
보스
##토리
죽이
로서
##부터
소속
전체
실제로
23
보내
2015
승리
직접
이미
##라지
개발
메이
원래
여자
영상
그것
어렵
언급
유닛
체력
000
##st
##ing
대로
##le
##ic
##학교
멤버
포함
데미지
이동
유저
정보
40
마음
방법
설정
##re
싸우
문서
선택
애니
과거
##가지
ㄴ다면
출연
차이
##랜드
##운드
##다가
머리
사회
몬스터
##이션
친구
불리
발매
성우
설명
우승
이러
여성
대상
##dd
거리
발생
최고
동시
엄청
소리
프리
시대
플레이어
바람
장면
아버지
공식
버전
힘들
사망
프랑
다니
사랑
대회
영향
바뀌
##주의
유명
2014
주로
스럽
결정
또는
주장
이렇
역사
남자
출신
려고
구성
26
파이
##la
정부
인터
일어나
마이
조금
운영
오르
학생
유지
공개
28
나라
음악
버스
##ff
초반
아이템
서로
중요
독일
전부
새롭
27
정치
대사
방식
과정
빠지
시스
걸리
the
스토리
월드
##el
파괴
##이드
나타나
31
모드
형태
최초
강화
역할
제대로
나이
자주
후반
노래
이때
아직
영국
최종
대전
##am
##om
##라도
##우스
쓰이
##벤트
변경
드라
마리
스테
강력
##머니
누구
이벤트
기존
회복
정말
197
##이도
조선
비교
보통
##is
그런데
##프트
드래
정신
라도
느끼
어떤
마을
마찬
마찬가지
##아가
소환
인기
이기
특성
발견
노선
행동
당연
성능
엄청나
2013
프랑스
확률
교육
아래
속성
바꾸
슈퍼
아들
모양
자유
바이
오히
차량
대학교
가깝
##리어
오히려
어떻
이제
29
라인
##너지
차지
##et
부족
문화
사라지
32
수록
확인
특수
##ol
활약
게다가
이번
생산
관리
##ion
유일
시스템
끝나
모델
00
2012
성격
제국
스트
따라
장비
내리
고등
입장
구하
영웅
맞추
선거
##디오
다이
일단
아예
축구
이렇게
계획
운동
어리
돌아오
반대
심지
2010
202
경찰
주변
먼저
##레스
기간
우주
자동
심지어
앨범
위원
개인
km
기능
완전히
##레이드
조건
##통령
사진
거기
중심
적용
건물
##nd
지구
드러
부대
##ow
감소
어요
##il
들어오
60
데이
떠나
으로서
난이도
##ig
중앙
발동
##ed
현대
회사
애니메
열리
초기
자세
실패
##므로
하이
##인트
지방
시기
대통령
참여
혹은
##니아
설치
196
35
그래서
세트
표현
지키
작가
드라마
프로그
던지
민주
어디
돌아가
라며
물리
다양
국내
덕분
얼굴
기관
전혀
데뷔
TV
반응
동일
지속
출시
패배
##리카
처리
오브
인정
원작
발표
판매
도움
순간
##ac
모으
획득
##버스
##as
애니메이션
그룹
스페
얼마
무엇
of
구조
명칭
담당
요구
더라도
후보
날리
##BS
정확
생활
2011
특별
##없이
진출
하루
시점
##나마
그렇게
넘어
굉장
밖에
선발
작중
단계
영어
상승
국제
기억
움직
##아내
경제
만화
가격
그림
아군
##ve
항목
##들이
Lv
올라가
##소드
세우
마스터
The
아마
시장
실력
그나마
으므로
가족
참가
로부터
특징
야구
에피
드래곤
대체
다며
계약
##비스
았었
사고
방향
이거
아르
조차
미치
01
경험
2000
고려
려는
범위
러시아
브라
##ot
수비
프로그램
연기
시청
##로스
디자
##소리
##뜨리
##스크
세대
묘사
500
패치
지니
확실
남기
한테
발사
고등학교
결혼
주의
폭발
##으키
에피소드
80
어머니
활용
밀리
각각
목적
피하
비판
어떻게
보호
##ad
더욱
준비
상위
무시
제공
중간
세기
라서
이어지
주요
국민
37
오리
심하
챔피
45
과학
194
조직
인구
조사
유럽
위험
이미지
아주
라운드
히로
패턴
버프
굉장히
이루어지
세이
내려
단순
크리스
전하
참조
St
진짜
생명
전문
다루
시도
세력
듯이
약하
대미지
가리
싸움
일으키
구간
불구
지하
연속
현실
##머지
나머지
나쁘
여담
아프
타입
파워
ㄹ지
유리
for
안타
출전
##id
소모
부산
성장
순위
조합
규모
약간
논란
동료
70
한정
혼자
포인트
사실상
항공
나무
지도
여전히
디자인
노리
##아오
뛰어나
기타
운행
##ay
분위
바라
연결
이해
트리
무장
이탈
90
09
한편
##나라
195
FC
소설
##스로
자연
학년
분위기
훨씬
예정
취급
으면서
성적
일정
부상
당연히
등급
사업
블랙
2009
투수
##ER
##러지
센터
태어나
마치
02
##ch
해결
향하
변화
mm
연합
삼성
기대
계열
가져
엔딩
##us
이르
그래도
최근
추정
300
2008
##이크
방영
##ir
발전
03
방면
스테이지
수정
기에
종류
의견
48
미션
이라
배치
표기
도망
33
잘못
전용
자면
ㄹ까
독립
##다리
그거
36
정상
##ur
05
퀘스트
속하
작전
소녀
수상
거대
안정
##스타
대화
터지
엔진
변하
철도
직업
종료
나중
08
움직이
충분
죽음
요소
스스로
챔피언
오래
##티브
도중
거치
수도
비행
07
올라오
에너지
세상
넘어가
펼치
기업
붙이
관하
##란드
공연
동물
특정
지내
건설
비롯
나누
달성
##od
지지
일행
느낌
##러스
벌이
행정
벌어지
##BC
훈련
싱글
마저
당신
전기
보상
HP
전설
미사
졸업
만드
무리
장착
스카
##im
남성
신경
스피
방어력
##..
부활
배틀
다리
지휘
06
유니
로마
황제
절대
위기
관심
군사
th
##자기
따라서
내부
올림
반면
포켓
번역
제목
요리
미래
번호
2007
##ut
공간
더불
##un
거두
목표
서비스
##어들
점수
만약
이끌
득점
바르
아이돌
근접
시험
전국
가르
04
전차
마르
소재
충격
의원
##지션
SK
시설
오늘
목소리
홈런
전사
무대
정체
34
##데이트
사이트
인도
업데이트
지정
작업
저지
분류
스파
작곡
you
배경
돌리
장소
똑같
가끔
##리오
도로
타격
##ro
최소
어찌
##인물
교체
링크
으로써
공중
항상
생존
##디어
##트리
북한
높이
전작
스포
각성
부여
##다니
파티
예상
단체
그만
분노
정식
193
클래
##너스
넘기
야마
아라
으려
제한
##수록
가수
##ver
베이
등장인물
##igh
##ec
사냥
##ag
포켓몬
자랑
스타일
얘기
엘리
결승
38
2020
인사
소개
늘어나
2006
올림픽
cm
목록
외국
종족
##ent
비밀
##운데
인터뷰
기계
악마
이어
##동안
이탈리아
개념
명령
수행
필드
75
카이
초등
크리
교통
애초
이외
괜찮
ㄹ로
판정
타카
기반
연출
정하
각종
in
하늘
병력
지상
클리어
로봇
군대
##드리
55
제일
전반
##보이
기체
비용
카운
확정
기동
설립
크기
가운데
프레
##화국
케이
##ak
표시
인식
파일
경쟁
갖추
##라인
행위
건담
정작
사항
평균
시티
레어
##um
통합
교수
별로
##젝트
아카
장갑
라이브
to
드러나
화력
포지션
##비아
수치
니까
정의
왕국
사격
따로
근처
완전
병원
진화
저항
감정
',
월드컵
국회
아키
보유
집중
사거리
노력
환경
전자
갑자기
인천
누르
변신
기회
42
언제
##아들이
임무
나름
의식
자원
고양
단점
직전
코스
특이
##르트
정리
살리
드리
##em
부정
제품
단어
오버
부모
vs
현상
탈출
던전
오른
냐고
위원회
사례
레인
##ST
##ula
압도
이닝
치료
마시
##라스
소련
주제
효율
판단
##ub
잠시
다크
때리
아파
극장
사정
2005
아스
촬영
시전
어쩌
본래
지배
원인
나서
느리
이쪽
가문
더니
치명
주민
form
정책
제거
요시
도입
대구
옮기
ㅏㅆ
유사
##000
여행
전력
무슨
상관
밴드
동생
##말로
192
삭제
고속
##루스
스코
주문
공동
기념
실험
도쿄
강제
파트
해군
의외
책임
사무
formula
중학교
병사
포기
키우
역대
의사
연습
물건
복귀
이하
발언
##무리
골드
전개
도전
##야마
완성
##어로
##ight
언어
음식
##요일
고정
기다리
앞서
새로
바다
나이트
노트
위력
이적
2004
살인
으로부터
41
차원
공주
접근
다수
직후
화면
점프
려면
모이
레드
페이
루트
확장
제도
중반
##학생
불가
전략
39
받아들이
정당
도착
음반
끝내
별명
##모토
선생
시민
가치
사상
히어로
사기
정규
히트
버티
분명
에게서
고자
산업
미니
잡히
숨기
타임
티어
어둠
##ce
마나
연장
오프
투표
무려
구역
LG
빌리
대기
마사
조종
신체
종교
로드
장치
줄이
소유
일러
##os
자료
추천
아파트
ㅓㅆ
녀석
크로
EX
은데
회피
노동
살아
고대
이곳
구매
##르크
형식
예전
##AR
##ri
빨리
인터넷
##드시
리더
##시마
타이틀
##그레이드
업그레이드
라이트
탈락
사령
롯데
폭탄
반드시
해외
44
단지
교회
아내
미사일
랭크
금지
학원
Ch
우선
완벽
부탁
심각
달러
클럽
##AN
2002
실시
이라고
##역시
일러스트
데스
하드
범죄
장점
검사
191
합류
이사
##ON
추측
구분
##ap
43
최강
##and
몇몇
선정
99
로스
조정
##이치
공포
대장
전통
데이터
차례
가사
마무리
취하
열차
요청
행사
No
위키
버그
프로젝트
그리스
종종
자마
선언
구단
스포츠
##트라
연재
점점
대중
스페인
st
수많
즐기
컴퓨
가드
개최
개월
서버
##이어
재료
설계
보병
##아하
에이
옵션
뉴스
##러리
46
조작
형제
47
kg
다소
51
광고
민족
생물
##나이
포스
그야
타자
마법사
암살
걱정
부하
거부
좋아하
언론
채우
KBS
##ter
입히
개그
연주
채널
성향
컴퓨터
통신
and
해석
코드
자마자
평범
보조
고르
한계
종합
디스
##조건
실점
아쉽
기지
개봉
전화
행성
회의
그야말로
재미
회장
2003
복수
52
대결
##ul
##FA
투입
아무리
지적
비중
워낙
지명
가정
다행
박사
원정
본격
미드
운용
알아
한글
자동차
##아지
광주
위협
무한
정확히
스위
집단
영혼
소년
소비
인상
등록
모자
실수
무조건
##op
%,
##무라
MA
##IN
평소
냐는
상징
페르
1000
대응
굳이
카메
공사
줄어들
생성
##자리
##버리
##타임
와중
##니스
대형
체제
##ck
대비
충분히
##로드
사태
태양
##ation
는가
##의원
보컬
조각
##리트
아웃
편성
군단
통과
여름
65
다운
전원
보너스
육군
150
분리
터미
이론
공항
플래
희생
개조
형성
분야
시청자
방문
뿌리
##ra
일종
MBC
무사
특유
기자
도망치
가면
제안
##로그
을지
장군
SP
동맹
고양이
치르
봉인
마력
네이
##려가
디지
스크
벗어나
64
전환
II
발음
로써
오리지
장기
가하
얼마나
반복
시나
장르
점령
드러내
안전
오랜
의도
##튜브
간단
##일러
You
경기도
소식
ㅏ서
먹이
예선
불과
빼앗
유튜브
서술
##오르
개선
합치
##시스
함정
유도
사쿠
바닥
마크
##려오
흡수
영입
##남도
##텐츠
에스
초대
공화국
브레이
평화
그때
근데
##니티
##art
400
코치
규정
괴물
는다는
의지
저격
투자
기원
독자
라디오
비디오
미리
숫자
확보
예술
전술
액션
최후
원하
방해
가져오
진입
수사
이치
따지
매일
오토
비트
필살
공략
##오스
놀라
49
화염
가스
2001
주력
인원
##런스
클래스
##나가
그저
은퇴
적극
외모
보도
56
관통
걸치
흐르
장난
승부
찾아오
들리
터미널
체육
지나가
적절
VS
모험
왼쪽
목숨
AP
계기
포르
컨셉
인류
눈물
In
아름
##니까
구축
패러
방패
1990
느냐
상자
작성
서브
회전
자라
완료
주연
뮤직
리어
공부
알렉
사과
##올리
부수
##동생
트랙
한국어
편집
54
장관
함대
의심
거짓
아프리카
53
분석
솔로
##모리
살아남
오리지널
저지르
수리
안드
더블
질문
##스케
보수
들이
PC
역전
민주당
단순히
약점
인형
필수
아시아
ㄴ지라
##페이지
코어
경상
마침
임명
황금
##ia
##라이더
...
끌어
시내
쓰러지
190
재판
##나다
풀리
오스
장애
대단
##로우
85
사단
착용
성인
인민
해제
중단
##래프트
꾸준
경계
##ie
##레이션
##시브
##ill
홈페이지
드라이
비난
소프트
현장
미스
승강
작용
하위
상대방
엄마
청소
희망
날개
사장
카페
습격
허용
수원
인지
선보이
공원
데리
진정
편하
코스트
관광
유래
제시
원거리
무력
지식
블루
선물
코믹
수호
영역
##RA
스마
남편
기획
가슴
베르
주도
ST
명중
수단
바탕
##IA
아름답
##북도
##ik
이스
부리
오른쪽
태도
본선
모티브
거주
에이스
행복
어라
##무원
탑재
확실히
카즈
비고
나카
저주
리스
감안
직원
체계
측면
59
##워드
지나치
멈추
표정
도서
##ab
무섭
주목
테크
쿨타임
돌파
상처
고통
의문
##마스
가까
베이스
텔레
친하
##est
그라
제기
보급
나타내
딱히
뉴욕
테마
##연히
72
게이
업무
기점
당장
지점
공장
소울
58
망하
협력
유우
고유
여부
120
기어
불명
멀티
부인
##th
비싸
57
62
대답
온라인
순서
통일
문자
날아가
카메라
위주
아요
귀족
우수
연방
후속
##all
제압
##울리
멀리
계산
챙기
박스
잠깐
소수
나뉘
을까
카운터
꺼내
문명
당선
MP
##ea
진영
멸망
66
1999
차별
95
패스
건너
후지
은행
##트롤
횟수
에어
버튼
약속
혁명
케이스
시나리오
드립
Lo
내려가
제조
Sh
##ct
국회의원
코너
Re
크로스
오후
마츠
고서
1998
겨우
살해
붕괴
달라지
지옥
자격
특기
오스트
삼국
상하
스케
최악
듀얼
##붙이
on
증거
스펙
연계
개편
외부
ㄹ수록
눈치
늘리
퍼지
##스티
##머리
가볍
시체
유키
딜러
##다르
군인
Sp
##니어
겨울
군주
##바이
게시
핵심
정권
그레이
의회
공산
어린
gt
가져가
매치
중화
##라리
ddd
##피아
처치
부담
교사
배신
미군
110
출발
스탠
컨트롤
대놓
##메달
출생
##AT
##레인
게이지
##AL
레이저
ㅓ서
자살
단위
드물
진실
##ddd
스프
dddddd
어울리
##학자
견제
해금
충돌
##PS
최대한
가로
아침
대원
브랜드
##워하
거절
장전
여왕
##터리
궁극
가르치
##OR
도구
필살기
전장
충전
댄스
홍콩
커뮤
미나
Th
로켓
거래
##아리
##로이드
자이
유용
교환
카르
SS
용병
이성
만족
##VE
반란
취소
부문
SBS
제로
lt
귀엽
##ess
##사카
마왕
체인
##ate
피아
한화
고급
일본어
부진
쓰러
닥터
타이밍
는다고
##ard
표준
기분
##ell
흔히
##광역시
스피드
61
협회
조준
피해자
발매되
Al
1997
브리
근무
아메
##전자
76
남부
애매
제주
단독
##ang
무게
미야
##ue
마이크
스킨
토스
공군
조지
공통
얼음
##ers
신화
비록
##ant
파악
극장판
하트
발휘
우려
판타
수입
비율
권력
세계관
유형
장수
##IC
건강
자르
끼리
경력
인생
헤드
##ine
겹치
가입
본부
자고
##ack
##래도
##하라
갈리
후반부
한자
순수
근거
공작
계급
레전
웨이
모션
FI
77
자치
커버
아무래도
물질
88
혼란
지시
패시브
구입
격투
외교
막히
몰리
##다수
아머
감염
입단
지하철
자식
따위
##두르
플라
해방
NP
파이터
프라
연대
기독
탄생
##달리
##OS
엑스
트레이
정령
##피스
캐나다
지대
##웨이
모리
증명
회수
##어내
등등
강조
채용
반영
내주
업체
생일
##심히
스코어
누리
테러
홍보
용도
입학
##가락
아사
실질
경영
승강장
##ok
폐지
밸런스
외치
ㅕ서
꾸준히
타워
대륙
##세이
1996
문학
언니
납치
경향
CD
불안
지급
##ive
기절
병기
be
무너지
오오
이슬
갤러리
##트로
대공
실행
돌격
트위
##디션
BG
1995
주어지
아나
왕자
1980
장식
98
추진
요원
트라
##아나
베트
출판
감사
광역
##고기
or
브라질
신문
##유키
",
랜덤
373
훌륭
메탈
600
계승
수학
맡기
파리
페이스
재생
주년
시행
온갖
사카
통제
마녀
fff
##ast
가까이
스튜
내내
집안
없애
설득
내놓
패러디
건축
##오리
단일
기독교
스페셜
대다수
작사
심리
파라
사전
정지
찌르
##들리
##AS
ㅓ야
용어
화살
울트라
찾아가
전선
아리
신뢰
경기장
##이터
고민
오픈
명예
상품
##카와
북쪽
##크래프트
별도
후쿠
스티
즉시
영원
기기
##웨어
선배
어차
서포
PS
##어리
##바로
살짝
폭풍
##ee
남쪽
연예
어차피
지우
68
적당
등판
##ED
800
가리키
괴롭
전달
페이지
대놓고
화장
보물
내려오
##스탄
변호
##즈키
마련
라스
미소
고전
63
##tt
##ong
탑승
뒤집
소문
당황
흘리
함선
러브
##uby
스파이
그곳
경유
푸르
말리
##시오
공기
오프닝
은근
레오
공유
트레
열심히
##AM
레전드
커뮤니티
입수
외국인
민간
갑옷
신청
오류
사령관
심장
한때
정류
##ort
##ith
운명
##if
반격
##거나
신고
##세우
엔터
아시
##도우
사운드
##ly
조치
트위터
임시
##타인
수업
74
댓글
연구소
1994
71
응원
아트
이승
격파
가면라이더
처하
김성
불만
##ld
ruby
##나무
##리티
쓰레
라이벌
마주
마인
랜드
고기
82
중계
편의
##아버지
갈등
환자
67
절반
습득
울산
73
주위
오해
크루
##아먹
관객
두산
하수
카나
메이저
북부
클라
스트라이
요새
##다지
보정
여론
널리
출장
##ain
MV
정말로
지형
##ist
전공
카라
대만
짜리
유로
고치
서부
전시
회원
아오
결승전
수용
보장
우스
시각
##fff
여신
주전
리버
....
이란
180
차트
##겨나
##ind
96
붙잡
재능
가득
압박
별개
ffffff
메타
전형
추적
왕조
##티컬
영토
쌓이
소멸
테이
##서트
무적
NC
전함
종점
메가
AT
##듀서
프로듀서
초월
오로
운전
네이버
판타지
TH
81
흔하
전역
폭력
도서관
체포
AC
늑대
제하
녹음
선호
그다지
아우
동기
##per
##가와
화이트
아일
컨텐츠
지켜
타점
가이
##지컬
시야
변형
파이어
돌진
개통
인수
##ew
##덜란드
네덜란드
##ps
강원
테스트
든지
향상
동원
메시
물러
##EN
91
##더스
시드
##사키
맞서
여동생
공급
동부
다행히
수요
일부러
불꽃
따오
동네
아가
화려
78
동쪽
신라
조절
파이널
도달
적히
##EC
##츠키
그만큼
수집
문제점
그림자
본명
스토
파견
클로
학과
자는
복잡
종이
지켜보
뛰어
잉글
쓰러뜨리
상향
##려움
소드
유비
연상
84
기초
신세
일상
니시
##OL
영업
연관
치명타
키스
식물
##돌리
현지
매력
##식간
부품
전적
##ry
최상
암흑
순식간
폭격
편지
##lo
무난
달하
작동
전방
찾아
학살
구현
##크스
CP
##퍼스
게이트
지르
그래픽
교황
시위
점차
이마
92
##드라
##어스
법원
토모
97
맞이
콘서트
##LC
코믹스
노예
대우
신인
아티
지도자
세포
해체
청년
프레임
충청
전투력
86
수송
마술
me
##시코
크리티컬
사자
##버트
입력
복장
고향
둘러
오빠
디아
국립
바라보
사토
호환
추락
서쪽
프리미
제이
수술
기여
모바
스톤
저런
드디어
그치
토리
경비
69
천사
콜라
한국인
반지
##오카
창작
레스
조성
아무런
간격
##레나
스마트
떡밥
##오프
189
생명력
출현
헤이
##노스
닌자
베트남
심판
An
폴란드
마스
해설
추격
##비전
제자
쓰레기
꼬리
블록
조용
전투기
엘프
##티나
인근
구체
개혁
##히로
만든
##둥이
##스트라
##어버리
it
검색
US
몰래
의상
고용
##IT
is
감시
다시피
의료
일제
구도
아무것
규칙
사쿠라
주먹
##디아
구속
성과
접하
무효
1992
은하
장교
마리오
후기
다섯
스카이
신호
막장
연애
NPC
##브리
돌아다니
통상
조조
토론
##타로
에드
##주시
일원
연사
슬롯
##ust
신성
실드
MS
대립
대대
김정
고교
##보내
차단
강의
전라
길이
신규
신분
놓치
##어도
연락
##톨릭
##특별
옛날
총기
어깨
나루
진지
예외
탱크
잉글랜드
범인
노출
경험치
250
마리아
미술
이래
런던
프린
입구
윌리
##보드
창조
투어
라이더
모바일
되찾
KT
##스턴
글자
정복
##일리
부위
##모로
동작
득표
농구
##도로
쿠키
불편
##50
아크
1993
메카
환상
글로
가시
디지털
##ore
요정
앞두
제어
승격
활성
전직
무료
마도
언제나
학자
이랑
양산
소총
##자키
미디어
바보
코인
고문
고생
Ar
##파이어
평타
음성
유희
권총
박살
De
이리
거짓말
안습
헌법
세월
총선
합성
##BO
잠수
출처
여러모로
극단
##영상
자이언
이득
공학
참전
대량
침공
스키
라이프
대체로
법률
이슬람
블레이드
##FC
반발
어택
이날
83
상호
수영
일자
가톨릭
89
사마
교전
간부
인증
헌터
##우드
보고
##저히
Te
출력
북미
상상
호평
정류장
93
띄우
중대
폭주
환승
알파
보석
합격
연도
상점
동영상
하고
101
사양
개정
총리
94
의무
79
기병
키리
적어도
결성
유대
아일랜드
re
지휘관
서양
마이클
제법
가량
전대
스웨
터치
원소
인공
반하
##FF
On
기습
사이드
다이아
마루
끼치
근육
예비
휘두르
분기
머신
태우
##일드
잖아
매니
##임스
##란색
제작진
메인
com
FIFA
##one
87
동방
히데
이재
MAX
대략
요괴
구출
가속
경고
탄약
이자
슈트
##se
바이러스
조심
지진
의혹
##미야
묘지
파일럿
세르
삼진
리얼
유령
박근
소화
축제
회차
노르
AI
사우
전면
요즘
이시
부부
##AC
1991
대항
##ip
##로나
포탑
##먼트
탱커
플랫
어린이
##워크
화학
리아
이내
발달
다면서
베스트
멋지
갤럭
패널
가게
노멀
실리
하수인
상업
나아가
플로
계정
똑같이
훔치
개체
예측
타케
취임
문장
볼넷
블러
##ere
자금
현역
보안
불법
플레이오프
멕시코
오가
네임
국방
정착
##ity
레인저
었었
DJ
호텔
메모리
자매
유행
캐스
어둡
핸드
미츠
##RE
특화
트로
익숙
##PG
제임스
MC
청소년
##ath
용사
갤럭시
묻히
결론
워치
리메
어지
SN
들어서
파크
##라이언
넘치
스튜디오
도망가
김영
이즈
형사
검찰
커맨
신설
원자
무역
저장
##end
피부
구멍
BGM
움직임
리스트
##창기
##고리
일시
육성
##릭스
예고
1970
도발
한방
연맹
소닉
##네스
빛나
리치
개방
FA
사제
부서
쿠로
냐며
루시
##요시
1988
스미
카타
신기
식민
불러
주식
##끄럽
##조리
식사
레이스
합의
조약
정면
길드
관할
긍정
역임
으니까
감옥
고백
파트너
차리
700
플레
구원
오랫
스톰
캐리
루타
대가
마냥
곧바로
마구
타마
프라이
이명
결합
전철
바치
웬만
Ro
와이
틀리
세이브
방출
찾아보
##데스
동의
박정
여유
인정받
##펙트
투구
전문가
초창기
볼트
소형
절망
처벌
어떠
!!
다스
진심
THE
카스
사이즈
방지
주간
강철
오늘날
통치
바위
여지
잡지
ㅕㅆ
기구
배차
##레이터
융합
국왕
반사
너무나
물러나
좌우
흥행
##구리
누적
##성기
아기
팀원
돼지
포스트
의존
번개
방사
커플
장악
##특별시
##디언
영향력
떠오르
착각
리메이크
##코드
위장
MVP
##ect
그동안
네트
정치인
목격
외계
미카
야스
기원전
에서부터
서울특별시
클리
아끼
아빠
포트
레이드
대리
랭킹
호주
망치
분량
내성
Wh
커지
##스키
내장
안드로이드
##OT
차라리
논리
면역
의뢰
인연
단장
고지
해병
루이
챕터
시즈
혐의
CC
브레이크
게스트
협박
유치
요코
칭하
Se
국군
코미
양쪽
에다
저녁
He
빌드
대지
포르투
지능
태그
마침내
확대
보관
변호사
골든
Le
##티아
공지
각자
타이거
박근혜
불교
AK
는다면
동화
홀로
윌리엄
태평
공무원
깨지
##베르
토르
최소한
괴롭히
권리
떠올리
##지마
오사카
오카
손가락
Me
무덤
접촉
재산
몰아
그대
먹히
한번
배트
오랫동안
박물
터키
대폭
1989
##밀리
후속작
으려고
해리
188
필리
라면서
DLC
##부르크
하필
스턴
크라
htt
수수
##age
Go
출마
과목
실버
##IS
공공
전후
소장
연료
팔리
악역
오전
주말
하우스
올해
소지
섞이
##구치
노부
금융
이집
이집트
소원
본작
리드
'.
PD
연인
명성
웹툰
수련
소스
##다이
권한
막차
그럼
흐름
al
육체
패하
수익
비행기
##og
적대
귀신
##페인
주기
계단
정비
스틸
##라드
다가오
학부
대처
예능
로즈
##바라
알렉산
##잡이
정원
나치
시마
내구
##아시아
강남
무렵
스웨덴
금속
트레이드
피스
놓이
부장
연극
##ide
선출
휴대
명중률
컬러
kt
원칙
호감
카오스
어쨌
Be
My
슈팅
안내
테일
해안
마키
합체
선전
간혹
GT
접속
그로
편입
써먹
##회사
캠퍼스
놀랍
##ime
##세스
허리
최다
예쁘
##ake
이지
모모
개성
협상
ㄴ다며
블리
원수
준수
##ark
130
교차
담기
##OM
메르
개입
떨어
퀄리티
##ss
일기
시계
새벽
종목
특집
궤도
게시판
Su
작곡가
SC
둘째
박물관
KIA
##ire
상당수
김태
화제
편곡
애플
더라
##어나오
외형
기도
저그
스위스
환영
성립
인조
꼽히
따라가
고구
갇히
누나
트랜
복무
민주주의
카미
유물
SM
##려주
할아버지
AR
전신
##바르
독특
##프레
알아보
피격
초간
재단
이익
깨닫
호수
WW
한동안
Tr
식당
이끄
페이즈
지위
극복
수십
주사
헤비
사도
##가리
치우
재정
##ID
##ES
전진
우라
어른
##닉스
시선
철학
##무르
굴리
매직
아이스
회상
116
##ite
##ge
정찰
HD
wh
160
블로그
위상
연타
##iv
으러
소중
거인
영문
SD
아니면
무겁
처형
양성
##ound
기사단
캐스팅
식량
까다
메뉴
동굴
정글
대개
용기
오스트리아
my
문재
면적
비례
익히
시내버스
일찍
안티
트럭
리듬
##가시
은근히
##다랗
손해
클래식
우위
참석
ㅓ도
음원
조언
팬덤
집행
과제
구나
아바
튀어나오
신앙
고수
위원장
별다르
는지라
##mp
해상
##던가
##iz
대충
IC
훗날
타인
각본
원본
더더
증언
자국
##테르
노인
개시
SR
트윈
이중
세이버
커스
털리
측정
날짜
##OP
##가미
신비
예산
김민
마비
빼앗기
멀쩡
##쳐지
펀치
''
중독
매체
칼리
세종
적응
신부
더더욱
##리그
무릎
살아가
구사
멘탈
커맨드
까다롭
천재
1987
캠페인
원주
이주
미터
적군
해적
삼국지
##OW
국적
##큐어
교류
절대로
제정
Gr
허나
패션
바리
갈수록
##ome
하락
임대
대학원
스승
크리스마스
일격
활발
놀이
재미있
기적
녹색
코우
데모
정수
클레
하얗
이브
관중
결코
느라
마이너
위대
화성
IS
시아
명단
매년
히메
주포
##BA
죄다
호위
##덩이
십자
UE
과연
유이
하야
작화
개막
진보
with
##데미
몽골
##ud
de
투명
충성
계통
모자라
어다
Love
##LL
포로
내세우
탄창
한참
열쇠
##몬드
어려움
##반도
##미니
체크
바퀴
희귀
주일
김종
Pr
우연히
1960
칭찬
안경
유적
루수
남북
사후
##UN
사막
대수
아카데미
경기력
데려오
비추
드레
흔적
개수
140
자본
채택
##아웃
로그
모래
기르
##ord
자극
후방
구리
업적
아미
흔들리
예수
##마디
아메리카
화물
비상
전성기
이영
당일
미안
일치
피아노
사유
##가스
심사
강점
행적
결말
스타크래프트
스프링
##공화국
새기
보존
##MA
신장
으라
오직
첫차
상급
이정
강도
인지도
재현
부지
기종
선고
아티스트
김동
단편
개량
BE
인민공화국
##려나
주택
보라
무작
농담
사라
부작
기울
도우
챌린
출입
추구
거점
기아
취미
가을
웃음
과장
토끼
저작
##사자
포항
상성
자책
버스터
관찰
고스트
어지간
포르투갈
식민지
합병
니코
px
클릭
1986
생존자
일반인
네트워크
어쨌든
##비드
행하
소위
유나이
소송
맥스
새끼
울리
##ure
프리큐어
ch
유나이티
##ance
본체
경로
##our
메리
로우
이민
의대
##이즈
건조
어마
바깥
##카드
으시
##mer
스마트폰
공룡
기용
##ix
##양함
연금
괴수
모조리
판매량
브루
어스
##ick
포드
EP
Bo
##ice
막대
체육관
차기
영구
공세
흥미
탈퇴
파츠
상실
잠재
자세히
덧붙이
전멸
에리
후계
가짜
이스라
an
인격
일본인
스트리
UEFA
##치기
미라
캡틴
시달리
아즈
사형
유통
국경
포격
JR
코코
타율
##ax
유니폼
186
카트
제작자
고도
GS
코리아
노벨
900
도주
로고
터널
연패
불타
일방
무지
승점
피터
색상
자전
SKT
Un
생겨나
##라노
판결
색깔
상인
##이너
관측
명확
취향
드라이브
가상
통산
항공기
메시지
요금
커피
레이더
기량
화장실
거듭
할머니
잘리
치유
억지
선거구
##랭크
비주
화재
어드
쌍둥이
무라
내지
베네
구경
강요
언스
순환
귀찮
마린
라이온
여객
한마디
##oc
타선
##시로
미루
집어
##AD
이스라엘
Ex
##시스트
모토
가요
동력
루카
오타
위반
사신
사원
소프트웨어
신사
##멘트
##qu
칭호
수출
비치
##랑이
날아오
아마도
이슈
아이콘
다름
187
빨갛
둘러싸
선택지
주소
승객
##코토
포수
레알
OST
다치
##10
금메달
데드
등지
간신
터뜨리
몰락
##own
트라이
무방
##고속
KO
박히
대선
조연
가루
연합군
영주
##{{
스페이스
##ber
교장
귀환
도끼
수장
광역시
매장
적합
즐겁
연승
##나카
냄새
GB
캐논
##80
본사
아케
구르
넥센
We
타락
서식
소라
복지
##ys
실망
1984
남녀
동성
콜라보
구글
외전
매니저
DS
타운
항복
##20
이터
텔레비전
함수
안타깝
찾아내
초보
고구려
미스터
흑인
곡명
캠프
##카리
배터리
제갈
백성
익스
비서
{{{
라인업
개국
유희왕
##av
통계
단단
인치
유효
변환
그만두
교실
잠수함
아랍
1985
아시안
예시
AM
타수
##노우
발행
커리어
혐오
양자
거미
오라
공업
간주
깔끔
##정부
법인
일대
##라이트
반동
##럼프
주자
sh
철수
스터
천만
인종
마드리
CPU
정기
포위
##ame
주역
중립
에르
레코드
##orld
유학
##old
용량
서구
고개
논의
드래프트
허가
인디
105
관람
노동자
표지
너희
글로벌
마드리드
조별
##든가
카츠
커다랗
##시타
##로디
##저스
##OC
##일보
후손
기생
흘러
수류
내전
마약
김재
예언
끊기
싱크
히어로즈
아쿠
공성
하단
즉위
위성
사이버
벌레
상단
휴식
티켓
##NA
복구
##리스트
디스크
연령
음모
스리
보험
메달
생략
CF
##위대
##lay
2021
LI
승률
.."
고위
태평양
고작
스텔
곤란
분쟁
근본
##ont
##머스
면모
좌석
추억
형상
##ies
도적
김대
감각
급격
##데이
표면
문구
최신
카운트
차이점
추종
준우
노스
후원
시그
그러니까
그랜드
적당히
자폭
중세
수류탄
클랜
소대
AD
언덕
오크
사명
상술
대인
치루
경주
담배
아르헨
It
실전
왕위
모니
언더
마디
학습
관점
허락
성남
다름없
히나
파르
고맙
KBO
마그
정차
더럽
연예인
입지
후술
오마
균형
SH
##팩트
일족
제약
3000
구석
모노
전주
아르헨티나
타로
##려들
후배
분열
지뢰
용서
떨어뜨리
지리
액티브
지경
DF
증오
취약
스트라이크
기숙
베리
체결
서포터
토벌
크리스탈
폐쇄
하차
공방
꾸미
침략
리타
숙련
시노
진압
아츠
##프리
더러
머무르
시너지
전이
데려가
사정거리
자막
침입
코르
산하
행보
제출
구슬
레슬
비스
미묘
lo
주차
해피
부각
어뢰
저렴
법정
부딪
쓸모
일본군
입대
간접
제트
XX
분해
텍스트
LC
이듬
워커
##키아
##마크
들키
드럼
나폴
##하면
무척
특전
정화
##OD
중첩
네요
루나
튕기
##US
이수
약화
블러드
아테
호흡
평생
우르
##ann
기관총
쿼터
가만
간신히
소방
세븐
니콜
총알
논문
트랜스
오랜만
유발
연고
뜬금
##자드
가동
##크라
인권
알아내
드롭
CV
##블린
이토
사령부
눈치채
MF
생년
신전
세인트
통화
거울
잡아먹
헬기
경상북도
찍히
NE
흡혈
악화
카카
여우
로버트
크림
공용
곳곳
동인
방어구
모시
나리
##어마
SE
조이
사귀
남아
다카
이혼
##pe
##베이
전파
플라이
혹시
인용
프란
강자
125
##PM
결심
토너
지불
부적
아이언
성당
##40
맛있
뮤지컬
네오
보건
찬스
자이언츠
##sh
저택
공정
WWE
윈도우
.....
악당
자녀
이듬해
페널
중력
어마어마
주둔
성별
아동
반전
히토
앨리스
미즈
애정
깨어나
##말리
제작사
암시
요인
##30
금방
내보내
보완
상기
이식
스크린
구름
복합
##io
잡아내
금액
되돌리
수석
##VD
엘리트
격추
AS
참모
양식
시상
긴장
온도
토니
En
##네임
스팀
시카
라기
용인
딜링
##싱턴
##은행
1950
원리
리온
시인
구미
악기
큐브
가라
발리
배포
라틴
1982
이온
보호막
충실
구축함
your
물리치
후계자
아저
##거지
##천시
헤어지
부자
아저씨
교과
유력
CJ
백작
결전
뽑히
동양
김현
낮추
토너먼트
우에
사인
부임
착하
대왕
의학
헨리
개설
##배우
초록
절차
얻어
천안
불사
;&
채팅
유전자
백인
##리나
임신
DE
상세
서서
상관없
열매
Pro
기상
더군
소유자
해치
야생
낚시
임금
##oo
빠져
하루카
상영
바이오
170
지라
교도
웨스트
루이스
본관
베타
정예
브레
증상
##에르
탐험
##센트
비아
공산당
뜨겁
드라이버
호기
1983
창원
답변
묘하
##라기
전승
실종
기인
법칙
선두
존재감
안기
코미디
학력
##비치
마주치
동명
도둑
수백
광장
견디
언젠
언젠가
걸어
방송국
##ave
업로드
창설
도박
발렌
악명
리뷰
항의
엮이
로리
릴리
그린
처분
뱀파이어
Com
문재인
짜증
천하
강원도
미네
중량
##포트
대책
행운
수호자
엑스트라
관리자
동점
에요
##ream
콜로
관계자
재밌
모터
분명히
##ond
기숙사
은신
##LE
만남
미키
의장
##누스
루비
미쿠
테라
쏟아지
승인
생명체
다이아몬드
##나미
정통
전동
진주
##걸이
인력
잔뜩
##팡이
이드
##월일
that
조리
치즈
기둥
와일드
에다가
보드
##도르
카와
1500
정황
토지
니스
##스럽
호칭
물고기
여야
캐스터
농업
단축
##를린
칼날
기름
난입
##iss
디지몬
크레
건국
유산
##ION
건드리
LV
UP
##플레이
무관
기후
##IP
아틀
##번트
##우마
심심
감지
성질
리오
도루
창단
잃어버리
유독
창고
부드
할인
문단
생년월일
부사
해명
투스
탄환
려던
지치
블라
EN
가방
ED
학위
영광
말투
참가자
서번트
논쟁
출구
##필더
미드필더
외계인
삽입
##펴보
살펴보
운동장
##ian
시공
하향
유기
해골
내각
프로필
부근
5000
상륙
##유럽
분신
막내
식품
울프
플래시
존경
유인
시합
항구
경남
주술
분대
한쪽
복제
장인
가공
미만
끔찍
발굴
그르
비전
사살
마블
##태우
그램
레딧
##어하
콘텐츠
부드럽
부스터
사법
유격
진학
우정
뛰어넘
##티스
준우승
정교
도라
주니어
그레
딜레이
디젤
->
로얄
##투스
요약
코트
엔젤
##게임
그렇지만
카를
왠지
아키라
전제
수면
승자
퇴장
손상
밀도
집착
루스
독재
슬로
태국
선제
샌드
통로
공허
민첩
오디션
시리아
##커스
상식
##운서
2022
스위치
아나운서
걸맞
시라
##TV
체험
휘말리
레지
by
동계
학기
깔리
시트
워싱턴
감추
헝가리
분포
##텐도
닌텐도
##카이
##60
시원
he
##셔널
BL
학문
작년
수명
Br
스쿨
하츠
마케
두르
Co
헤어
과학자
##세대
고리
훈장
커녕
##다나
호소
께서
불펜
##베스
철저
싫어하
전북
보충
##우리
##갈리
갑작
근대
단원
반박
회담
##소녀
나츠
여주
국장
하이퍼
배정
방위
자전거
??
공화
노바
공립
트럼프
##필드
##rom
##ory
##틀러
사용자
스폰
덩치
go
중형
비주얼
질병
옹호
펼쳐지
##ace
스트레스
기재
백제
111
배출
Bl
돌입
단행
고객
타석
##Hz
휘하
지사
격차
안녕
평양
##쟁이
&#
기운
185
깨달
마스크
토마
1945
그럭
대거
리스크
삼각
##카이도
오키
##세서
가죽
##포르
라니
웃기
경전
##던지
빅토
##저럭
임기
본진
디즈
데이비드
세부
웨이브
인질
출격
오염
나마
위안
그럭저럭
싸이
시신
소요
##신교
트리플
신도
속이
어필
##TE
DVD
##게이
마감
마우스
케인
요한
기갑
##oth
경상남도
하마
미나미
배트맨
축복
Or
##산시
파편
라이플
영지
##주교
하계
조기
파동
이펙트
##틀랜드
스펠
이글
나미
한반도
축하
실책
동남
처지
철거
중국어
완결
소음
헤르
장거리
##me
과도
피우
해양
개별
후퇴
지향
변수
차체
##하마
침묵
갈아
와타
원문
팬텀
보이스
1981
리카
복선
##ows
토크
##부로
물체
;&#
구별
군수
적중
##MP
메이드
날카
약탈
사회주의
상담
트롤
막판
##키지
치킨
플래그
우세
##TS
스트리트
취득
무인
브로
경직
기동성
##그리
##타이
후자
필리핀
간단히
남매
##먼스
왜곡
연습생
약물
손실
결투
슬라이
##무시
내일
근거리
솔직
브라운
부실
노조
두들
무작위
##키퍼
성전
신나
집합
##에이
규격
1979
지칭
주류
라우
부착
집권
수능
동급
급하
흰색
##화점
국정
테츠
선행
##아다니
개발자
날카롭
중시
패키지
넘버
센스
##IG
밀어
##aw
교토
멜로디
##경기
만주
##ale
수급
독일군
CG
스즈
바쁘
야수
전망
골키퍼
망가지
Sc
그날
유전
피트
유성
##다보
파생
최상위
일당
폴리
특별히
무산
영화제
리프
라라
신발
최적
양상
기세
For
엔드
##든지
원조
무사히
캘리
괜히
##프리카
서기
오이
베를린
즈음
##ike
끼우
##하시
핑크
모스크
모로
대포
마법소녀
프리미엄
킬러
##야수
사키
##네시아
타쿠
##ep
업계
SNS
##자와
간간
선조
##ach
##레일
Cl
여러분
##man
##공항
출루
질리
이웃
야구장
청주
페이스북
장탄
주행
Dr
영원히
대치
응용
175
바디
권위
진격
왜냐
##irl
기호
록맨
입주
첼시
안개
##ile
뭉치
Mo
부동
PV
##OU
서서히
임팩트
계시
이와
협정
중복
RPG
동경
해산
##바닥
장사
호랑이
여인
더군다나
선임
야마토
102
폭행
챌린지
투쟁
원형
당대
며칠
초인
암살자
매번
벨트
후임
프리미어
관여
직장
올스타
무시무시
##메이
106
117
최우
호시
GP
플러스
귀국
연산
챔피언십
악몽
프로토
개신교
##토스
오스만
나르
FM
개장
##ink
서클
OP
연구원
슬프
고장
신자
확산
추방
BB
##ial
##철도
동아리
##하르트
천연
Sk
사립
합계
잠입
엘리자
수비력
끌려가
퍼포
##아이
##우치
퍼포먼스
수립
페널티
합리
어이
인방
구성원
LA
제독
지팡이
##ish
115
공수
에릭
중장
무술
징역
##여객
권장
인피
조상
선사
놀리
##VA
주관
성경
배역
해킹
##아키
긴급
리라
UN
레일
Team
감싸
비틀
상한
배급
수동
Bla
히가시
체인지
독점
이종
돌연
##승부
물량
장로
시크
CH
파란색
임의
##런트
우드
##플렉
메이커
에디
##버그
기동전
폐기
데이트
DD
의외로
국어
국당
김경
가디언
ㄹ게
청와
하인
SU
회색
저하
미국인
가만히
사무소
쇼핑
트루
ㅂ시오
풍부
신입
라그
해내
나비
일람
##어놓
##데드
##II
스캔
##ower
출간
평점
마물
김상
건네
##쿠라
세팅
코난
모집
##운동
조명
복원
렌즈
대조
은지
Ne
배달
트릭
청와대
##래시
언데드
프레이
야간
공백
면허
스타디
명백
공인
제네
지연
포즈
스파이더
바둑
안양
화산
광산
전라남도
모듈
여전
장신
증폭
뱅크
교단
만만
전무
일화
##IM
냐면
목사
육상
행방
유미
억지로
감동
만일
다가가
와카
택시
듀오
로빈
간호
명의
기장
빌딩
뽑아내
라이너
재회
엄격
##숭이
이라크
방치
김진
아레나
거스
무스
끊임
세리
승무원
##슬라
여학생
##GE
분당
즉사
택하
Star
##오루
감상
궁금
혼돈
##크로
장미
평일
BS
잠들
우주선
피닉스
썬더
대단히
발목
버섯
신학
매출
산맥
우즈
규제
유출
계수
불량
사리
광선
타이거즈
자비
추리
캐치
##키스탄
통틀
천문
청구
부서지
수색
김기
센트
오메
we
##99
국무
포켓몬스터
시사
코멘트
DC
고소
##벌레
수비수
베이징
And
ID
350
고블린
깜짝
All
PR
우월
국제공항
재학
되게
처참
##!!
상관없이
우익
해머
Wind
실장
출범
##타카
박지
##히코
Man
본토
버드
드루
합동
배수
벌리
축소
바스
시상식
실내
만지
기쁘
##체스터
War
##ass
뚫리
히라
바르셀
포장
안쪽
질투
바르셀로나
혈액
고로
페리
비웃
심의
유언
스탠드
조롱
우유
뒤지
##번에
다운로드
라이온즈
탐정
승진
디즈니
토시
사이클
니아
당사자
운수
파이트
토미
수직
온천
LP
에픽
##gh
난사
알라
##11
세금
협의
여섯
쿠라
리가
치열
스타디움
태풍
따뜻
##카락
평론
스텝
##ib
##pp
머리카락
108
메이플
자꾸
360
충청남도
스미스
파멸
up
의자
서포트
기리
112
루크
##orm
한두
캘리포
권유
파울
fe
##ft
실현
체감
골렘
극도
키타
##민주
압력
소용
시외
나기
인접
우치
정발
오로지
기력
검술
뒤늦
전당
여파
황후
도저히
티아
시바
세라
타르
모험가
특급
1978
##tle
스테이션
New
젤리
사이코
##블로
손자
탐지
낙하
One
##릴라
캘리포니아
나노
모임
조용히
마코토
반부
배제
중지
##도리
##ous
비유
러시
아지
오락
##스티벌
페스티벌
##렐라
분산
103
##가드
단종
지인
지목
직선
##사이
SF
물품
루머
Mar
반감
묶이
##CG
마카
비명
범죄자
전남
신용
아쉬
스테이
스티븐
중순
일요일
프렌
AKB
맥주
서머
가난
리즈
어시스트
##려받
##sp
조르
디바
로맨
강등
붙잡히
스태
주최
1973
나스
주교
폭파
케이블
오우
스핀
넘어서
##amp
동반
토큰
함락
##now
힙합
##ms
##ment
재개
리버풀
이글스
드림
려다
기부
센서
생전
루피
캐시
로이
##70
꼬이
거북
조커
수월
##yle
실은
농장
To
부딪히
추세
불행
무승부
강사
##atch
베테
유의
184
토키
암호
조우
낙선
막아내
체중
넘어지
명문
능력자
타일
##란히
인자
IN
고속도로
카구
김해
기수
ex
수염
좌절
토요일
중부
연봉
Part
당당
비극
대성
드론
원시
아가씨
신속
개척
명목
ON
중화민국
소니
여고
스와
깊이
모스
기묘
김용
얻어맞
진상
빨간
더빙
수습
훼손
CS
음료
128
배드
##나오
조카
구조물
입자
BR
나요
패전
##케이션
두렵
주체
바론
실시간
살아나
후회
막상
경악
극히
엄밀
##hen
KR
Gam
던가
고시
183
히틀러
##ING
코마
되살
까이
##구나
믹스
##기에
각지
변동
영감
도리
##페라
억제
##ree
산탄
혜택
1974
채보
하여
쿠데
유망
##ae
##ase
나루토
듀스
집어넣
에반
혁신
상반
PP
리처
배려
질서
총장
##64
장성
잠실
경북
되돌
World
대시
하프
구동
재건
ㄴ다거나
국판
알바
복사
번지
휴가
샤이
도장
구장
핀란드
1972
노가
바지
호남
힐러
선수단
날씨
꼬마
찬성
철권
반짝
초콜
쇼크
포탄
견해
말기
계층
해병대
다투
벤치
이타
그랑
##베리
대행
마땅
쳐들
##불명
##구장
시로
지수
##az
슬라
고증
스코틀랜드
##사리
투척
사퇴
동해
##방송
닉네임
에로
천황
첫째
아이러
유재
수여
야쿠
장탄수
그라운드
갈색
##노리
##더라
사무실
트로피
퍼즐
레온
역습
가담
알레
달려가
운송
걸즈
제치
근원
거론
유니크
JT
중동
사로
동행
공격수
엑시
##저리
프랑스어
네티
장례
샷건
수지
##블리
##ear
때려
동서
짐작
최저
ㅂ니까
산타
거칠
확장팩
감수
기뻐
기뻐하
AN
키보드
동아
여의
##ason
제갈량
시비
라즈
유입
보라색
220
평하
##12
빨간색
공감
1975
뮌헨
So
무용
함부로
마일
상사
세자
인재
돌보
어쩌면
포스터
고무
래퍼
##러그
노란색
잭슨
짐승
오브젝트
인과
퇴각
백화점
##느리
##브라
##AY
GO
재직
여럿
영양
왕실
특별시
매주
가구
덴마크
보좌
##돌이
마오
대령
##MS
인도네시아
##직자
결제
진급
클린
각오
1976
사관
엔지
알렉스
##are
소재지
라크
베어스
양손
패밀리
안심
전날
정반
피로
반도
##리온
JP
세로
##iki
장난감
호불
호불호
강림
원더
와인
탐색
경호
상주
셔틀
페어
후반기
##사기
완공
트레이너
240
##지르
드레스
벨기에
여단
관료
차갑
연쇄
오더
##토니
도덕
흔들
요미
포획
모형
메이지
신선
카자
시카고
##저기
베기
프린세스
##차기
당기
포도
도어
사야
빠져나가
##미터
네티즌
연설
봉쇄
##ng
흡사
마계
문화재
거든
토대
지부
우호
생체
가두
역명
##bo
아베
갤러
국도
탐사
밀어내
화폐
타이탄
sp
막강
점유
##베이터
##ife
여기저기
선진
##박스
##루미
라마
유혹
결혼식
역량
우측
##gin
루프
학생회
세뇌
양반
여서
집회
##ven
강렬
소금
##슈타인
콘솔
뜬금없이
OS
끌리
려다가
##렉션
말레이
클론
시모
FW
출산
##레일리아
케이드
쿠데타
두들기
경찰서
신중
##AP
방탄
약자
깎이
날뛰
방송사
무실
교복
성분
tv
다큐
원곡
서바이
청나라
후미
우회
돋보이
콤비
선박
##ade
침대
부작용
ㄹ려
Wi
무공
모스크바
일곱
트라우마
빈도
위로
바나
간섭
박쥐
법무
중심지
AFC
디오
발명
트윈스
공산주의
폭스
아이디어
전동차
프라임
김준
비스트
스즈키
원주민
제물
##에른
스탈
통칭
소득
아이러니
윈드
##90
침투
포터
변이
##하나
출혈
로이드
트랩
##act
당초
연금술
취업
NH
드로우
##ank
전락
결계
창문
이스트
튼튼
리안
밀려나
##out
소통
강경
##천군
박살나
품질
하스
토하
http
오지
중점
MB
104
##싸움
##아치
오노
상무
##우트
소나
노무
##ork
콘스탄
##lect
##oll
선장
체코
글씨
판사
할리
123
허무
순양함
이순
단행본
부재
장판
항해
https
디시
아바타
히로시
홀리
도쿠
제재
홀드
전향
##aby
Do
마틴
명명
기하
마트
1971
혈통
명사
독일어
##른바
손꼽
이른바
책임지
강간
검토
성씨
낭비
리코
다스리
나아지
도감
##깨비
공대
블로
##ET
대타
##데레
쓸데
##ich
입증
분할
##ai
조종사
외곽
구상
시호
도트
발레
검증
##루션
기차
찰스
Up
전송
승차
장남
스트라이커
티스
부시
신데
##ey
1977
바이에른
~!
라가
공헌
히스
토요
페미니
트레일러
단기
관통력
##ary
%/
한창
##쿠스
경연
미미
히든
do
모니터
깃발
##추어
우루
III
장애물
끌어들이
워크
왕비
광물
존스
우승자
전격
오페라
김일
끊임없이
대법
백업
브라이언
싱가
태클
싱가포르
유연
넘어오
다지
루마
앤드
Fate
##way
마피아
부유
오스트레일리아
진단
사사
질량
술사
no
실상
매니아
그러므로
엘리베이터
182
신데렐라
성실
을수록
워크래프트
형편
라스트
LIVE
보고서
커스텀
강릉
대변
우울
부패
파도
간간히
입문
교리
##바야
충족
손오
비비
스나이
##저우
최선
범용
손쉽
저자
동전
135
설령
학사
재배
리모
중기
왜냐하면
파밍
고고
올드
원장
시게
검열
이어받
유료
대동
레이블
박정희
하하
고종
Ad
119
##UM
창립
연간
확신
사로잡
천천
ES
여타
특공
대접
사악
하반
are
딸리
##바지
올바르
탄핵
노르웨이
보스턴
하급
나폴레
압축
자네
초상
비기
키라
Day
일체
109
스타리그
스피릿
급행
1969
마산
근접전
맞붙
중위
중상
섀도우
단백
1968
예약
지선
공통점
나폴레옹
왼손
끌어올리
토마스
카시
평등
Oh
따라오
정석
##벤처
명분
크레이
제왕
일관
어드벤처
##orn
##타입
초콜릿
한나라
##모스
##pt
중고
한나라당
메일
유엔
시온
전생
쿠스
부속
조국
석유
미지
디자이너
##니시
##께끼
수수께끼
으려는
잔인
카더라
스플
강전
##르타
김수
트리거
케빈
플랜
##모함
곡인
불태우
##페이
마운
공단
##사스
##동자
구독
본질
##으로
지붕
이현
천천히
로보
단검
저기
메트로
흩어지
베테랑
Mk
터스
##의자
소모량
강호
군부
수인
친절
엔지니어
##능력
꿈꾸
리처드
스태프
코스튬
##가루
보르
망명
잉여
민중
라이언
바이올
질주
머물
##퍼드
121
##키리
단발
발판
홋카이도
관우
all
연수
갑작스럽
손오공
이병
선교
아스카
사촌
동정
동구
화상
카카오
씌우
치카
유망주
145
땅볼
br
비리
주식회사
성배
##라미
1963
그릇
기울이
총독
고스
니혼
lv
이틀
##다운
과자
손님
무제
##하루
고는
굴욕
버스트
후일
너머
nd
##네마
에이지
농민
레이디
테이블
쓰리
자제
친분
소집
107
크라이
##스레
프로게이
프로게이머
전라북도
##ah
메리트
도깨비
리퍼
하사
##iver
##어드
삼성전자
폭격기
##테이션
오메가
열정
="
머니
합작
파스
맹세
##슬리
178
현금
달아나
명시
교차로
이모
작위
Windows
어색
퍼스트
오케
항공모함
위엄
렉스
자율
극대
브라더스
RA
평행
김포
에드워드
IT
리틀
아아
강점기
왕복
단백질
쫓겨나
에버
할로
##마치
FF
미궁
그레이트
스케일
종결
조화
디펜
스택
지력
##ph
엔트리
지오
라그나
원숭이
ML
필름
이경
화해
점검
서명
165
##리스타
마타
백만
존중
##EM
Sw
파운드
시외버스
대박
윤리
천장
박살내
오렌
부스
스티브
##uck
카리스
도마
지분
자책점
가설
대전차
와이번
후드
일가
평론가
광기
완화
프랜
임진
AA
신동
봉사
그립
DP
화석
출판사
하이라이트
분자
##urn
계곡
카리
##군가
감자
물자
유치원
진에
터트리
피카
정사
블레이
인칭
과일
촉수
변태
서적
으라고
공신
매각
다니엘
엑시즈
고집
러스
유탄
사체
1930
여포
대위
보편
##소년
##ool
츠카
원전
스가
시골
자존
##ero
면하
누군가
시뮬
113
관장
마술사
초점
Con
표절
".
잊히
해소
Ph
교과서
사우스
입사
ne
병역
맨체스터
181
사족
유가
몸통
진동
탄압
하치
총합
프로그래
JTBC
노무현
##바나
이오
수천
호크
##ical
외우
꺼리
210
무실점
지역구
쳐들어
감탄
자산
챔프
줄기
착륙
1920
이대로
산소
무지막
무지막지
로키
##아들
란스
##anc
경사
주축
게이머
마케팅
떨치
NBA
서열
신지
오니
사수
중거리
다이스
모순
광명
터보
서방
BPM
Cr
임하
파랗
손꼽히
도심
페스
스포일러
검정
뚜렷
실체
친척
DPS
개명
##구미
부원
초청
메카닉
유격수
155
##마르
김지
타구
프론
힘입
부천
선로
##리안
국방부
지혜
토트
말씀
179
마유
표적
액체
동대
철저히
##리칸
고아
테스
##ung
어나
슬픔
브레이커
발발
호의
1940
깨끗
##은색
결의
제니
##ype
부산광역시
구로
알렉산드
##센스
향후
냉정
배구
장타
동속
미르
데빌
노가다
Qu
엘리자베스
성명
122
152
로프
##업자
매트
용산
불쌍
빙판
저렇
불능
##변이
돌연변이
겸하
마당
144
동성애
매드
미오
##ARD
에미
곤충
이케
지장
스노우
at
이노
일렉
마인드
주석
블리자드
1967
아드
북아
서류
모델링
##ens
참사
제리
다케
중구
집계
유니버스
레이어
때로
골프
우타
외국어
그해
광경
치안
스폰서
김유
플라스
목걸이
아깝
발탁
##very
비우
트래
##질랜드
미러
가이드
변장
뉴질랜드
실용
기질
씨앗
고사
##베트
행진
문양
모음
엘레
부스트
상금
김승
마하
사직
어벤
아마추어
민간인
내버리
##ence
##드러지
중원
##어트
amp
유아
취재
케이크
텍사스
무늬
##항공
시어
좌익
정문
{{{#
##시스코
아리아
워터
트윗
##테일
기소
도르
학대
수위
주사위
##ost
날아다니
박수
울트라맨
멍청
엄연히
워프
##상시
##젤레스
OVA
애칭
##끼리
재앙
나나
이라도
까마
근로
##시피
닥치
시조
카지
Station
누스
답답
전지
리나
포크
물어
이빨
우연
질환
레인지
하나하나
카네
녹화
정점
납득
자사
LO
예의
소비자
본능
절친
스카우트
##nt
국토
지로
쿠니
서울대
from
신하
고등학생
직책
각도
저서
##ble
열혈
이소
TVA
난무
압권
좌측
##ise
Fr
소생
에도
철갑
네이션
편리
경부
강민
##int
##ww
as
관직
발키리
워즈
패자
초능력
츠바
브래
주머니
정밀
일컫
KOF
실사
일리
혼인
헷갈리
라이즈
용암
침몰
정성
114
자칭
오죽
##과이
조항
작정
이념
개교
남동
어나더
##폭탄
드래곤볼
기스
##DD
페르시아
##타운
TR
만점
장벽
타츠
카레
##려워하
의정부
자아
IM
##지능
인공지능
덤비
##ans
##ign
사연
도색
이원
love
유스
발급
어이없
미성
이이
반경
아스트
교역
이진
##워즈
177
당국
예방
트릴
멋대로
대역
원로
필립
게르
##이동
엄밀히
포병
중국인
롤러
벙커
아자
적자
가마
거지
사투
박성
##이나
마음대로
DNA
아담
코토
재즈
CM
1962
학급
하이드
에디션
이어서
몰살
이대
리본
변명
인성
프레스
옥상
##ug
##야스
고가
안동
마찰
습니까
마모
Super
MG
고의
템플
##민주당
이누
초록색
##이치로
개구리
wiki
##oy
알아채
포착
##AK
오렌지
망토
협동
아케이드
펌프
갱신
##마루
방학
스타트
Dream
각인
비키
죄책
초과
격려
튜버
1966
124
매달리
법사
항모
남동생
민감
명나라
이명박
로라
극한
127
선동
시오
이태
스컬
로렌
루리
혼합
풍기
##하여
디스플레이
수신
만능
아사히
카운티
등극
용이
휩쓸
독립운동
베스
미인
달려들
부동산
통째
너스
1964
부채
원피스
##바야시
CE
수감
!"
##자치
생김
적절히
##지사
비평
들여
풍선
BJ
연소
마에
리사
##떨어지
can
종영
선포
쿠마
죄책감
덮치
코파
포탈
오다
슈퍼맨
금강
용자
추후
유진
방심
이윤
정신력
대피
USB
헬멧
교도소
쿠바
협조
www
발전소
후쿠오카
호러
##돌프
연전
부러지
엉망
450
고발
유고
인벤
감당
종전
도약
기법
다시금
제사
선원
정반대
은폐
##바이트
어설
신곡
연동
Pl
##vel
학술
##코트
내셔널
비단
뛰어들
스틱
억울
팔라
오른손
스토어
##치아
##IR
##나베
최순
카테
마라
해운
피오
다거나
블럭
##전차
카마
대차
##철수
왕족
흘러가
분홍
스로
##ode
컴백
##페이스
급격히
IP
덩어리
아이디
잔혹
this
공속
방침
시타
물려받
유카
철도역
경성
위쪽
아울
우마
절벽
##uk
아쿠아
내기
두드러지
보강
아무튼
Sch
페어리
바쿠
타치
빌보드
##생활
아인
녹이
크래프트
EC
제의
출동
득표율
구형
고립
사나
Ver
##ier
발각
욕설
서리
유동
청춘
쉴드
학회
사방
##VER
맞히
왕가
얽히
후유
그러면
162
공동체
사슬
무도
잔류
아랫
사무라이
생태
격렬
시크릿
ERA
인문
침착
기본기
측근
군요
연이
##헤이
La
내외
ㄴ데다
벨라
사물
Girl
##속기
##ash
진술
게끔
호드
회관
##나기
대세
##reat
실존
수소
분배
애완
리바
마야
키미
강대
나인
##역사
뺏기
##우라
그루
문신
마쓰
1200
야당
미아
궁전
현자
방사능
우크라
이행
정조
레이싱
ar
118
사와
이단
##틀리
코노
헬리
카리스마
신한
약혼
박자
모빌
전담
Season
애인
탄소
##공사
레나
히카
아비
함장
##usic
징계
퇴치
부가
스쿼
##크리
제주도
월간
반성
중재
style
직위
모욕
NO
카쿠
패트
태생
##믹스
워리어
반역
EXP
판도
사치
DM
존슨
##앤젤레스
로스앤젤레스
진에어
강타
흥분
Col
오퍼
가위
계절
가오
코스프레
제노
테르
1965
중소
러쉬
상부
tr
인쇄
타이어
잠기
유재석
이용자
왕후
노아
이카
김구
화기
##티노
##라이나
충청북도
탈환
궁합
물리학
카피
브론
모나
급속
종로
자이언트
WC
갈라지
1948
샘플
Vol
##te
한양
암컷
중견
##보기
시종
앨런
박진
벗기
로스트
말레이시아
##드로
건너가
점심
##IX
스탈린
아처
750
오사
정전
이놈
돌려주
금요일
불러오
Ed
흑마
도미
흡혈귀
피자
##사르
일환
##수리
안토니
중도
입원
비자
기동력
친애
##ose
퀴즈
우두
Max
항공사
1944
유우키
우지
##ail
##마리
Night
회로
은메달
난민
노랗
관문
사임
실적
등재
능가
한하
314
공국
고인
부처
황당
시범
##방울
마르코
호리
##리얼
라미
레아
생김새
안무
청하
자존심
방언
학년도
동메달
섬기
황태
섭취
피지컬
벌써
##사랑
대검
두려워하
방정
AV
스나이퍼
TS
성사
입시
##탐정
숙소
머스
망설
천상
적시타
조립
막부
코로나
건지
--
저글
대학생
극심
치이
그간
욕망
##ition
응답
##시고
토트넘
불길
요격
168
##ild
1946
석사
GM
불참
프랑크
탈취
스타즈
##서스
거세
에메
해역
차장
스파이더맨
아오이
그란
쿠르
얼티
오만
아메리칸
각국
##레아
뱅가드
과시
통솔
절단
무신
확립
할로윈
까마귀
##바리
##닐라
##시대
여태
나이프
그쪽
펑크
시시
##부키
스피어
테리
피난
소서
모종
##스카
Black
페르소
159
HE
부끄럽
칼라
나이츠
한꺼
헤라
희생자
한꺼번에
다녀
천국
필사
##구니
BC
##클린
Let
이별
요코하마
대안
##}}
so
인텔
하여금
ld
레버
필라
신생
미정
간판
경제학
국기
얼리
소소
##키스
아마존
##히토
부친
기껏
나들
괴인
이사장
테니스
강인
시안
나들목
##IL
해변
원판
일지
아리스
일조
저글링
점멸
##멘터리
스탭
Op
로맨스
병행
##파이
어원
히드라
##당기
마기
욕심
집필
##ody
도대
##msys
이승만
1961
ldmsys
토우
과금
지루
rd
들르
사탕
김주
목욕
고이
스윙
단자
대니
미녀
not
상냥
스매
리버스
##성군
페르소나
미노
코끼리
키요
김광
##워프
평택
지지율
교향
달려오
##러브
블라디
두껍
성벽
주한
사망자
승패
회계
오토바이
스케이
메디
히사
가해
##무지
##당초
항성
김치
##미르
사이토
하지
##타리
돌려
보로
그리스도
오즈
일일
고래
세례
멸종
지크
##gr
둥지
빅토리아
수컷
스크롤
다큐멘터리
주파
삼키
중공
광범
파고
ㄹ래
디아블로
BD
신작
##ough
유머
사르
전도
여주인
동사
직행
물약
##uc
AF
춤추
객관
##각형
해전
엉덩이
프롤
바텀
전임
침해
수중
만렙
식스
내밀
환생
믿음
퍼펙트
동북
무녀
##세지
밀리언
그랑프리
좌파
동상
빙결
라인하르트
부제
##진호
리자
##퍼니
도배
##프란
화신
보살
정서
일어
##33
퓨전
마도카
##메리카
아유
MM
해고
토라
대승
프랭크
북서
맛보
세르비아
원자력
상원
##와라
금발
GD
루마니아
진흥
##시티
모의
무능
mar
껍질
알렉산더
발사기
아포
접수
지각
벡터
외야수
노부나가
십자군
RE
도요
테이프
출석
간지
주저
수아
4000
워드
아무렇
김대중
불상
##모습
스텔스
##app
목포
미소녀
개업
명장
##티니
##aster
관광객
울음
1949
섬멸
스쿼드
리프트
약체
도대체
노릇
138
아슬
챔스
주입
연세대
두루
크롬
동아시아
방안
스네
##은이
##리히
서울시
샤를
에코
##스크림
##애나
##디스
베이비
아카네
둥글
##이센
OG
휴게
운반
일명
이니
Is
구호
en
눈앞
대국
##렉터
무자
151
두려움
카일
면제
하와
혼혈
공교
교대
##그라
퍼시
공명
##ari
공로
북동
##CE
##orts
와이번스
아니하
선회
스기
데몬
##ject
평판
사천
폭로
비로
성지
마을버스
스모
걸어가
##총장
천주교
신념
ㅔ요
평상시
AL
컬렉션
172
보우
타우
루미
인피니티
히로시마
이나마
사지
보복
꺼지
위시
그리핀
##고속도로
유메
격퇴
PK
아수
숙청
광범위
쿄코
드워프
대사관
대면
##OO
신관
휴대폰
이계
가령
컨디션
애용
Gu
CR
배리
집사
주공
남양
##긋나
풍경
가해자
편의점
큐어
정우
EU
숭배
장본
라비
최상급
158
le
리부
이무
카사
##아티아
크로아티아
스타워즈
소마
스카웃
컴퍼니
SA
신조
Am
천체
##다드
##iel
조수
컴뱃
##TA
로비
단련
제발
와타나베
단서
스칼
아폴
성대
감성
자력
남한
##트론
찬양
레슬링
달콤
수성
##0000
320
EXT
##부인
##oh
..?
카게
휴먼
냉장
우미
김병
떠돌
Time
정답
math
일련
으려면
##ye
독백
원한
민폐
광복
아르바이트
아쉬움
섬광
Mag
솔저
홈경기
테레
흑막
구제
##클리
권하
기온
케리
강동
테오
티저
점하
효소
EZ
법안
유즈
뻔하
수확
주차장
스톡
불화
시네마
제인
건립
가이아
남학생
추모
대교
상시
도스
##eth
지면
뒤쪽
상어
보직
타카하시
무선
##ings
서바이벌
##ats
균열
표기법
하도
##프라
176
##조합
라이드
개막전
장본인
눈동자
무슬
AB
통보
던지라
민병
Don
신임
사범
적이
살아오
일각
##오피스
바닷
이점
##ron
TOP
의의
무지개
배후
트이
리믹스
지미
단역
우기
GSL
UC
센트럴
걸음
대명
강아지
어기
투고
내정
인플
승려
자루
주의자
로크
문헌
315
CL
청사
탁월
카이저
오공
쿠사
비즈
순천
손잡이
고난
##바람
깃털
##eah
아이즈
ATK
##덕션
천지
어벤져
내면
재질
NT
문법
전염
얼티밋
다녀오
유라
실업
직무
그리하여
탐구
김일성
무슬림
하우
일산
126
찔리
제대
캡슐
##맥스
국민당
유해
##중간
결과물
시련
충남
##도전
##내리
여수
##운수
슬라이드
보트
가나
마미
이호
타스
악행
##ult
154
##총리
1958
응급
타리
블랙홀
성직자
132
이순신
염색
동이
스파크
ver
이세
흉내
자작
표식
금고
##성이
164
흑역사
총사
충고
신상
##나르
크라운
미세
매그
총선거
박스오피스
치고
김윤
소꿉
로열
독보
ME
발톱
쿠리
하나님
노비
1941
정의당
서원
친일
진도
자카
예고편
병살
리터
##inal
##ov
무한도전
유마
피드
리우스
라틴어
고조
다저스
호응
레이지
토론토
어판
마지
합법
습하
으리
보가
코프
표하
will
감금
iOS
심정
풀려나
그레이드
무비
재수
르노
병과
가왕
콜롬
계략
지지자
간파
당나라
수라
##느님
new
궁수
도사
KB
마가
차림
과격
군데
1954
니트
우두머리
성폭
바이킹
##널드
강수
LE
하느님
동등
주황
삽질
저항력
라이트닝
렀다
Mi
리볼
보루
이즈미
성숙
방울
완벽히
겨루
WH
배열
테란
##oul
쫓기
가미
강서
방정식
폴아웃
156
139
##바스
몸매
##GA
갈기
사료
유신
매기
##alk
태조
##==
거꾸
안보
취지
거스르
Ser
인천광역시
구청
어그
지표
통틀어
크로우
진하
##tern
플리
호스
오로치
like
허브
##yn
하드웨어
스치
전법
##ob
Your
응시
리츠
강습
218
153
흉악
레시피
##타르
제너
스콜
패왕
##up
손목
2023
##엘라
지배자
Car
마수
프로덕션
##빨리
아테나
맷집
##MAN
세미
오키나
##슬링
저승
생물학
{{{-
##베르트
발현
번식
이용객
프로이센
청장
나란히
##주의자
트론
안젤
드루이드
김성근
공모
무색
테크닉
먼지
##활약
상공
웨폰
장신구
코디
후쿠시마
지터
상의
태권
이인
교정
빗나가
완성도
미시
##프란시스코
반기
샌프란시스코
야망
이쿠
더미
##ould
선봉
디비전
급식
이리저리
버거
어드밴
엠블
##저래
148
유능
##제스
노라
맥락
##레이크
##reak
봉하
이래저래
벌금
키노
지성
충격파
##ions
난리
누이
라이징
후면
섬유
레바
떨구
짝사랑
핑계
셋째
마마
설탕
전두
##보우
오바
후반전
동년
167
브라우
##der
나열
재벌
이광
쥬얼
동지
법학
##13
미남
163
필두
양심
이영호
##able
카제
##레븐
신주
우편
표창
상속
##18
142
음향
Fl
감기
one
174
대법원
김선
초등학생
과언
능하
워너
전례
무궁
시간대
조던
맞대
거꾸로
##친구
##처럼
파이프
리리
접전
통행
##사고
1943
##고사
..!
종말
모에
203
복음
시뮬레이션
네스
양국
ㄴ가요
숙련도
커플링
휴스턴
놔두
무죄
범하
배상
##차리
몰려오
오케스트라
##퀘어
저격수
김두
네크로
도모
박탈
유카리
배율
스페인어
타키
최하
반장
연달
혼동
사가
애국
공격기
파우
하츠네
야마모토
당원
##무네
Gaming
스케줄
볼드
##문화
GK
장시
타당
드로
추출
##라이언스
크리스토
##터스
1942
자키
##결승
고우
엉뚱
ㄴ단
로제
부호
유타
##백과
통증
종사
##트랙
스마일
오역
10000
##ull
단의
##기업
SSR
##15
애드
어제
어긋나
쫓아내
대등
맞먹
##ll
##타니
ㄴ듯
데미
주유
가히
꾸리
##셉트
얼라이언스
수도원
냉장고
장례식
제프
137
맹활약
쟁이
사내
Min
수령
##니코
TP
##시다
절정
처녀
143
1956
se
플라스틱
달인
몰아넣
연안
버블
탄막
인명
황실
CN
황혼
무안
창당
카인
단식
RO
대외
pr
앞세우
##투아
가라앉
창작물
약칭
회견
시끄럽
주가
굳히
미쓰
월요일
##니즘
여주인공
노하
제자리
숙주
칠레
연고지
마스코트
주술사
염두
##FL
한층
초상화
생애
승급
역학
범주
정교회
바이크
깨우
##니스탄
음력
아수라
갈구
##상가
##립트
157
##재기
산화
밀레
수하
원화
진로
쳐들어오
사야카
빈약
원년
미하
이준
미트
차일드
사소
릴리스
현직
##더슨
영등
태자
레인보우
레이븐
##ube
토비
전학
##랄드
증기
LTE
제지
과감
##전사
카토
인체
능숙
##모어
오리온
죄수
구마
NM
129
공고
순간이동
##ECT
득실
IV
런처
러너
졸업식
헤드샷
have
폴리스
꼴찌
레슨
오디오
사우루스
시흥
외관
리볼버
한강
대군
오비
무너
무너뜨리
앞면
이오리
트러
찰나
평창
133
클라우드
델타
생각나
별칭
out
잔해
연막
오쿠
갈리아
##ICE
남미
##보라
이만
##물리
사당
관계없이
초래
##소수
유대인
카렌
투사
기관포
해상도
BGA
관절
축구단
싱어
페미니즘
대목
환호
Sum
146
시에
알아차리
코레
이력
바나나
몰아내
세키
호프
바그
반란군
가와
노골
무단
박종
설마
##니스트
1939
베어
득표수
격하
뮤지션
경찰청
밀어붙이
소우
체스
두뇌
136
##스티스
따내
230
순찰
313
전반기
십자가
북구
173
공습
청룡
단총
고질
방벽
한정판
라시
입법
HS
혹평
확고
바티
후대
크리스티
목재
차분
자포
너클
웨일
극우
쳐다보
##의회
##ica
un
망설이
##대사
공짜
우산
키드
##에트
코지
기이
스바
1959
화약
하비
##교통
경선
자회사
앵커
소꿉친구
기술력
내뱉
파키스탄
브레스
##박이
솔직히
지요
나카무라
프로그래밍
구독자
섹스
##제국
##회장
1900
다지만
개미
호출
기쁨
빙의
##che
ALL
BM
Play
태종
인터페이스
테일즈
영화배우
쇼트
As
방화
아래쪽
설비
끓이
공자
무식
1955
아테네
로지
##티넘
플래티넘
BO
랜서
플레임
지주
오딘
표본
##권자
프로스트
149
##ict
친정
빈번
##무게
몸무게
입국
지극
1936
테러리
브루스
##베리아
강탈
실바
##드리히
난투
키즈
비참
폐허
##스틴
우파
##토랑
제조사
발하
번갈
레스토랑
진구
맹독
ㄹ까요
오키나와
동로
카테고리
스트로
줄리
공천
134
극악
메테
남서
바인
도쿠가와
출제
슬슬
000000
팬티
Red
달래
시초
가로막
카오루
미들
리뉴
전수
치마
##ock
팀장
넓히
서장
해태
채찍
플레이버
##STER
set
##YP
##로프
박명
BT
힌트
심화
라파
혼다
##날두
##천사
얼터
경보
포니
호날두
프리드리히
la
샤오
사나이
부흥
수영복
##ater
서치
공과
OF
CB
하의
여장
know
저조
리셋
퍼센트
클리셰
파랑
나사
CO
찰리
포맷
운항
진리
수용소
147
EV
잠그
##DX
망상
##무이
캐슬
##주군
margin
##ons
멘붕
미모
히카루
오세
가혹
텔레포트
##IV
유선
1952
##ange
##MAX
나락
Of
대패
##풀이
수상자
야전
##ster
청원
High
Type
가의
해독
럭키
##생기
일러스트레이터
##소총
불쾌
양대
박영
1947
테일러
퇴역
라이센스
팩션
장갑차
##데르
박해
불문
무수
거느리
애쓰
재임
조력
##사관
복도
슬램
심야
냉동
실천
아이폰
##산역
BA
소행
##카미
파손
불가리아
오른팔
치바
둘러싸이
개판
시집
##무늬
정준
교육청
메세지
선형
플루
Light
준결승
생선
곡선
뒷면
맞물리
롤링
스콧
공손
왕관
##전설
가브리
지자
##왜란
교양
산탄총
##to
임진왜란
pro
##란트
미도리
클러
소령
제이슨
트랜스포
미숙
##에몽
경지
미스터리
스나
ㄹ라
열세
##ple
분쇄
미끼
##PA
배속
경질
차관
배우자
슈가
##14
책상
Gen
무명
자부
때려잡
증권
루키
##지않
증인
종착
TE
신세계
레슬러
슬라임
166
모어
트레이닝
사일
복용
개개
##BM
AG
펭귄
김천
Heart
격리
연말
악곡
비로소
편견
소매
NEW
어워드
로그인
상대식
주고
##메라
##ics
280
깡패
##레슬링
전두환
재림
지난
패스트
프랜차
브랜
비꼬
파괴력
필터
하이브리
##나리
진짜로
프로레슬링
스매시
외면
태미
##테스
##차례
켄지
퓨처
기행
보디
##교육
하이브리드
랜스
What
##17
봉기
인트
프로세서
수시로
##규모
반환
원망
중급
요우
심히
##지오
스트리밍
좌표
중후
섹시
고추
보잉
AE
열기
##고래
로브
안철수
프랜차이즈
소설가
##les
feat
포식
##구역
MO
미식
수다
심상
닫히
자켓
was
스팅
##모니
진형
시가
오프라인
스바루
실로
##세서리
앞뒤
마켓
르네
레프
사천왕
##바다
제우스
페이크
##즈카
##티지
삼촌
1919
웨인
제단
직통
동조
반군
%.
Tw
강세
##산동
골목
준공
Kor
슬러그
폐선
##CC
최정
##세포
222
선인
장학
Blo
탈당
감행
세일러
##nder
가르침
메구미
사모
냉각
드리블
용의자
러닝
GHz
템포
NHK
##텍스
보행
리플렉
Fe
음색
카우
하지메
면접
동문
나뭇
장편
##레드
##더기
적색
##ex
엄폐
소노
조교
착지
야마다
아랑
저스티스
원종
토막
김연
따라잡
재활
헐크
히나타
성기
타고
산악
이아
입양
세츠
우물
지문
신칸
불리우
애쉬
개그맨
##lass
철갑탄
공영
기피
##대기
굴러
의아
라임
술집
말년
##컨드
DI
Par
세컨드
속편
~"
##수수
1953
##사와
더구나
도호
킬로
채취
립스
##레이트
##전트
일삼
소사
거르
반론
기술자
정계
미호
콘셉트
GPU
달라
라바
위키백과
##ACK
PL
망원
##두리
꼼수
레귤
화소
배신자
모함
TO
고음
Mr
아이스크림
부당
하카
명탐정
방송인
헤일
##ors
라구
응하
LOVE
연기력
내역
체격
신칸센
두목
라든가
토가
호르
물가
주되
##바키아
발라드
이방
교섭
평안
하후
time
발간
원고
물어보
##어붙
서해
파문
냉기
카니
안드로
케리건
부도
전광
프랑스군
Good
고분
뇌물
경과
스크립트
투신
에그
정형
##콥터
픽셀
트랜스포머
모던
현존
oh
춘천
투성이
어린아이
버터
전열
골치
고산
캔디
330
심문
퍼붓
동호
스퀘어
카탈
자질
이에
LED
접어들
기관차
어벤져스
270
병종
패드
책략
##무실
여배우
화합
단과
어미
축적
##수아
사슴
그제
로저
##AND
MK
라트
공존
중성
수량
영등포
찌질
1938
레즈
범행
교통사고
마의
메우
Live
##프스
참으로
더하
성서
2500
베일
최우수
전속
하부
대중교통
하반기
##더링
방호
틀어
거품
호무
다중
윈터
도청
구절
하리
Per
카를로스
태극
최대치
쫓아가
테러리스트
클라이
레귤러
비타
인사이드
특훈
깃들
직속
로테이션
광대
심리학
FPS
특허
악하
엣지
##아슬
아슬아슬
그랜
##무기
전반전
순교
##볼루션
상행
속력
글리
##플러스
되살리
몹시
##ME
석방
더욱이
소규모
##단지
협약
1957
김도
##파리
마테
미수
조그
하시
소실
음악가
총회
방공
우체
세스
얼어붙
보리
패닉
225
요미우리
서민
담임
내뿜
뚜껑
적립
스텔라
영남
무고
즉각
##16
솜씨
중년
SL
불신
라프
오타쿠
우상
남작
죠죠
ll
유방
시가지
인구수
현황
파벌
총괄
카즈야
에메랄드
생산량
단말
스윕
신흥
순정
상쇄
서두르
저술
출고
파격
메이트
부류
멋있
영동
트렌
자본주의
노래방
사탄
스파이크
하와이
박상
홀딩
끝장
아홉
재빨리
##글라스
##eep
신병
상장
함성
간호사
두근
앤디
갈라
매지
루터
##포드
260
모양새
자문
저거
GTA
수평
프로모
차용
마초
혜성
This
Sm
Wii
석상
직격
#!
카디
##ott
다기
멜론
다이노스
적재
소비에트
페르난
저희
신정
초코
카이사르
원내
Rock
""
##리케이션
상용
클레이
호구
##HT
자각
장원
사투리
헬리콥터
am
핸드폰
짤리
##때로
급히
##문트
벚꽃
유지비
하행
지름
##코프
로스터
유나
여관
예배
GN
배리어
발렌타인
월등
쓰러트리
##델피아
필라델피아
고토
오락실
증발
새우
하원
##산물
##메스
##려보
털어놓
1800
Kn
프로토타입
넉넉
시부
쇠퇴
켈리
Li
##하이
양측
자칫
래스터
이례
호투
호세
휩싸
부사관
EBS
허위
유정
##두사
브이
플로리
만료
ab
바닐라
주거
행렬
격전
양보
핸들
윌슨
##받침
선우
부관
우천
공약
유니콘
군림
할리우드
여권
ㅓㅆ었
마신
브레인
야만
정정
포워드
미유키
설화
회화
관념
레이트
바오
중학생
미로
##파크
도마뱀
결함
호박
##킨스
리바운드
추궁
실력자
아르메
구타
유니온
풍속
농사
리조
본의
적성
가축
단정
프린스
에바
습관
후루
받치
MSL
밀집
술탄
169
##메다
Baby
타고나
몰아붙이
길거리
미티
야외
하라
기함
노동당
서정
안성
일례
편찬
IIDX
진수
쳐내
심연
히데요시
자발
리키
세션
##행위
재무
무르
유무
동요
페인
질풍
대진
징크스
게임즈
그래프
근력
꿰뚫
눈빛
운석
##anna
ㄹ지라도
유승
RC
##토르
송출
격투기
주파수
도시락
ㅏ야
의석
소리치
0900
##other
DB
교훈
불평
##자동
유배
##케인
요시다
정재
호그
리우
Ac
유로파
우루과이
고든
악령
조준경
드레드
민정
본가
프롤로그
카타르
탄탄
신수
실정
##IK
츤데레
ㄹ려고
우크
단속
##ins
##리우스
악어
베르크
일레븐
성비
훈훈
더라면
후안
##icro
바이올린
서태
니카
책정
트러블
wid
저러
전산
제보
청산
펠리
킹덤
##oss
회귀
##버드
우크라이나
550
##제르
Blue
요하
독서
유코
미팅
여당
포럼
수수료
스케이팅
Can
대출
서독
아프가
##ction
라던가
첫날
ONE
##ru
청동
재판소
자격증
원작자
분화
연루
황태자
us
##일으키
빈틈
불러일으키
말미
1914
특이점
수복
중추
밀란
스토커
자손
HARD
재위
샤워
독수리
우가
타다
줄어드
프랭
개칭
소시
##페르
보증
에필
촉진
##ood
에필로그
##기지
##코스
자크
Dark
김원
페니
박용
동래
경쟁자
##넘기
프렌즈
배송
1951
##세기
##르기
리부트
스릴
할당
##gain
클립
트로이
격침
##플렉스
마차
농촌
Sun
만루
야시
왕좌
브릿
라오
성수
가창
노트북
편안
##앙스
병장
첨단
피에
##na
##소스
구두
##19
오클
정동
그리드
장풍
라나
북극
진군
살피
요시노
OK
좁히
온몸
원활
기타리스트
루루
은혜
멀리서
몬테
유유
캐스트
사안
장동
히카리
진행자
밀어주
사다
분기점
Music
##land
결사
일품
##EL
해저
센티
야마구치
메모
야기
에일리
아틀레
서대
입체
크롤
남아프리카
총재
모친
홈즈
Im
대마
피에르
연금술사
더비
오시
cc
뉘앙스
##25
죄송
병합
지중
아프가니스탄
width
원천
장제스
완구
키트
토마토
로컬
자니
헌신
민영
당주
빅토르
베른
희대
파산
교내
셰프
##ty
진정하
수녀
아르카
KTX
윌리엄스
누명
미라이
연의
체형
제작비
게릴라
피치
미니언
##DS
페이커
고성
방과
갈아타
교시
##균관
제휴
게시물
말소
아울러
빠뜨리
때때로
나고
수강
MHz
정체불명
피츠
열악
##UT
##irst
잊어버리
본성
오리진
폭동
##agon
Bat
버릇
산책
하워드
수식
무사시
디렉터
##ky
내륙
매달
닉스
실루
비시
도라에몽
으리라
포대
Life
머릿
보구
용감
##지부
속박
요리사
Champ
유영
BBC
루이지
아르메니아
천마
초교
##자재
DR
++
분장
205
마운트
강팀
텍스
기획사
일렉트로
기성
안산
환수
돌아보
상가
휴게소
##놀이
단선
미성년
해임
성균관
주고받
##어쓰
##ady
니나
해수
대대로
직결
타카시
모범
불어
재난
브론즈
육지
격기
Korea
경순
고령
박재
발차기
커트
원흉
분홍색
쫓아오
##크리트
제스
창업
말아먹
일일이
찢어지
Summer
경감
Fire
1937
베이스볼
임원
매수
연하
##통수
선곡
슬퍼
유비트
열람
반대편
발광
아까
야심
##아르
라드
플로리다
back
양키스
김명
넥서스
목동
##무소
거니
##ium
탯이
리액
페루
살상
금색
탄도
OCG
달라붙
RP
석탄
자판
정벌
총격
환사
친목
엘리스
깨알
##토리얼
잠재력
냉전
##따르
백신
통수
포토
플레어
미끄
##혁명
쓸데없이
후궁
Ma
권능
튜토리얼
무진
프로모션
차선
스파르타
목적지
니코니코
미즈키
##베르크
계란
실무
항아리
무제한
베네치아
토이
파업
##ount
달걀
여정
합당
소극
자처
필연
na
동족
평원
댄서
합하
##로니
Sy
장안
데스티니
창시
명곡
진료
김형
일자리
성모
##커녕
650
매개
이창
충북
레이첼
토로
무상
아타
브레이브
넘사
에스파
넘사벽
도검
귀하
##박히
타나카
실습
개인전
##퍼런스
시코
행정부
저것
회고
빼내
밀치
비즈니스
드릴
저널
서초
금호
정립
##스트림
문고
강행
블래
성도
북방
CA
급기
남발
스캔들
흠좀
레이너
흠좀무
##테이너
부과
엿보
##ush
OB
코즈
귀중
대각
리턴
악의
이복
하타
이질
##현우
후예
조직원
교관
슈터
증후
어느새
기괴
줄줄
배기
사면
여진
위탁
나폴리
네이트
쐐기
쪼개
##누르
고속도
만행
호기심
프리즘
함재기
소동
야드
리마
험하
학점
BEMAN
계열사
##사이드
늦추
듀크
광속
적료
해적단
남극
다이스케
##곡동
시몬
치사
상류
설상가
Just
루팡
설상가상
스냅
인어
부여받
나레이션
미스트
휩싸이
감전
마요
주심
파인
##ne
##석민
콘크리트
한스
211
BEMANI
힐링
Ste
화내
시간표
지휘자
##ger
##현진
##마당
선구
로코
유난
자수
역과
상표
타이완
피카츄
까닭
파장
모닝
반항
살인마
화자
##베이스
손톱
##OID
아부
now
문어
러셀
##주리
204
대상자
박찬
뒤통수
피고
슬퍼하
로저스
가브리엘
공익
사찰
세레
이우
동체
퓨리
영장
우아
FB
강연
음주
펜듈
펜듈럼
세탁
사로잡히
지온
##베르토
But
진나라
지침
교향곡
성체
염려
GG
복면
서인
양호
선제골
Pre
바우
실명
선대
##pr
Ev
어퍼
슬로우
농락
##기사
##ution
가성
CON
돌이
박경
민법
점사
호노
노블
준하
##년기
숙이
똑똑
불로
##CH
투니
Gold
수락
미술관
네코
Out
바흐
한탄
지상파
3164
리엘
발칸
램프
어설프
가급
슬리
##메어
##블릿
STR
뷰티
연회
영리
##체스
지극히
끌어내
Over
출근
선방
DX
##미스
경찰관
솔리
한도
한발
월급
동탁
바비
세일
조류
망가
별점
캐리어
주재
스킵
Dance
콘티
스완
진성
##레스트
주황색
책임자
채집
합창
일본식
증후군
권고
Grand
##ally
신대
대표작
대공포
리브
이노우
##ator
증가량
##징어
1600
##노스케
마누
쓸어버리
day
개개인
관동
##산화
##미즈
구급
정렬
##inc
서지
예언자
호로
sc
스퍼
코다
나이트메어
##그룹
대주
마운드
홍성
각기
##GC
통신사
내걸
향기
바니
정자
부평
테루
한숨
행방불명
감히
호쿠
프로리그
논하
기복
아델
콜롬비아
UF
pt
캐롤
구단주
개연
예명
끼어들
라자
실루엣
현상금
저상
변질
투하
##토시
HK
전년
친선
##클럽
정세
FFF
일식
츠바사
신축
##air
매스
도메
Sec
여친
##저것
이것저것
스네이크
대본
외래
리히
전교
장기간
리베
##테이
고안
박명수
목요일
정확도
교직
##나드
##수스
신원
내수
추기
소피아
콜드
차후
암울
따라다니
열등
상하이
괴상
매너
전세
네놈
지자체
조영
##일라
오의
##준표
앙리
El
소수자
조달
##포스
##줌마
군복
번트
차남
케이지
출연진
접근성
Dis
외롭
tvN
샤프
광전사
get
코카
화나
접점
VOC
아줌마
##퇴근
이속
고요
##마침
반짝이
캐서
괴력
전류
##티콘
풍자
난감
1910
한성
검은색
추첨
영진
학계
TW
전리
트리스
퇴출
컨트롤러
차종
다짐
출루율
이변
대부
비장
이동하
크루즈
##보그
##ina
철회
미사키
백색
ARM
리트
케이트
간선
빌라
건축물
##바시
##얼거리
때마침
리에
카이토
어리석
카르마
클레어
완수
픽업
금화
꽂히
사육
자진
Mon
동창
딸기
레닌
이은
최영
베토
알고리
밀접
총사령
ㄴ들
Af
시정
경매
##꿈치
카밀
파파
beat
Win
수험
포효
##장난
간략
조제
군함
리티
예지
세세
코바야시
화가
##축구
서진
영조
일어서
만세
##라비아
해치우
일진
매출액
잔디
##휴일
##use
점거
무궁화
##네이터
웨어
다비
일절
At
박치기
Power
계좌
아이유
조형
스피커
딱딱
연발
횡단
경희
느니
예술가
그려
도피
간행
양주
여덟
코시
기밀
커비
SV
1935
성형
출중
에밀
연구실
사극
마르크스
고릴라
욕구
은밀
아카리
따돌리
러시아어
회오리
Fla
홍진호
처절
태수
파수
UI
고원
임관
힘쓰
DJMAX
6000
부대원
강판
알코
평민
츠나
대쉬
서사
존속
##츠카
태블릿
카가미
캐서린
빅뱅
Res
##장이
용맹
휴전
베니
소감
##ring
와이어
##아라
헤매
##카스
금성
뒤덮
타니
##여지
1934
가솔
스님
안면
오피스
경쟁력
정거
챌린저
뽐내
글래
회심
갈래
##동원
천공
자신감
but
상체
집결
우습
레몬
수요일
내야수
판권
코요
##프레스
달빛
##...
입술
##르드
모방
총열
베이더
바실
데이비스
미코토
매칭
##ART
1918
유난히
Fi
아카이
이용해
혈액형
미판
체리
민원
사이보그
케로
##범죄
다툼
견인
오인
##대부
256
우체국
채소
전전
후문
천둥
##ittle
티베트
김영삼
##LS
##라이어
man
페이트
유서
저렇게
솔라
공휴일
지그
카구라
대문
380
바주
레기
여사
##de
##XT
정크
ㄴ다던가
##ational
시드니
자유주의
VOCAL
오징어
이야말로
발트
Sing
런닝
카바
퇴사
원격
##관총
조지아
Rem
매진
풋볼
모호
상임
레이나
쇼군
퍼부
악장
튀기
강성
##소문
못지않
페더
평면
혹사
리전
튜닝
##외선
방어선
퓨어
중견수
유소년
카지노
MR
독성
타시
블루스
알고리즘
상수
노려보
초고
##be
김두한
호전
함포
CEO
##대교
제다이
젊은이
막아
워낙에
창의
피드백
FL
볼륨
유포
자바
사출
MX
섬세
인프라
경량
국사
기미
이성계
색채
피처
~~
동참
뒷받침
제르
##ello
로만
건전
제라
피스트
노엘
소절
양파
LCK
낙인
##ivers
영미
퀄컴
EM
애틀
베인
OPS
적발
본국
재고
연구자
웨이트
형편없
사스케
정은
궤적
부식
gr
패미
##루살
망령
베드
그리스어
키무라
자취
##루살렘
줄거리
로사
직구
고속버스
섀도
하임
총탄
카노
##ual
무효화
타국
기합
에우
자민
코이
발전기
부추
하르
정거장
허구
맥도
저리
가명
출퇴근
타나
HT
Rec
}}}
에티
공방전
가호
동갑
장병
애틀랜
MT
대칭
폭포
쿠루
군사력
SCP
핵무기
농협
##부시
##reen
나고야
당첨
Fem
타치바나
애시
에밀리
마에다
코스타
운동가
피라미
악용
허공
공성전
노이즈
성역
sm
무빙
##레오
속공
신시
족장
퍼스
정명
SG
어쌔
어쌔신
페가
직역
##해군
거제
표방
벽돌
옵티
##바퀴
집중력
포지
김정은
김택
수군
식별
##ern
등교
복싱
##리에
##심장
빌헬
넥슨
태세
루카스
판서
마이어
##af
King
실험실
궁지
조력자
선도
건재
가급적
유하
##ox
##회의
강변
명대사
##숨에
단숨에
메스
예루살렘
##에이터
##ERO
세조
노드
랩터
서킷
내구력
노기
테이크
첨가
결장
억압
통용
대인배
시립
소용돌이
두부
##ars
표명
블래스트
아이작
##riend
생산력
##코어
연예계
주방
##하하
카즈마
Ep
적진
세나
증세
##bs
수원시
막바지
##토미
괴리
뒤이
분경
역병
발상
신주쿠
아폴로
미야자키
광탈
에이전트
승천
MLB
지중해
군기
999
돌려보내
##연합
디펜스
IG
집정
초당
돌아서
예장
게임기
무전
##ts
초선
서식지
깊숙
블라디미르
이선
School
꺾이
단절
프론트
세균
파이브
근성
대제
고양시
슈퍼스타
동인지
흐리
요르
데우스
소진
데카
히토미
베가
히노
고베
##클레스
돌격소총
절규
Ge
Leg
End
대파
김창
Pv
##지리
길들이
둘러보
단조
##노미야
수비진
##itch
바루
포고
##IE
##칼리
1933
추적자
김희
무성
어인
박격
삼거리
스위트
카오리
추기경
남용
라지만
Miss
피리
엄지
##SS
출몰
##악기
##rist
양현
허리케인
지령
가뜩
급기야
Di
홍준표
미토
경신
매사
1932
스타팅
그려지
리쿠
설계도
임상
함경
##그레
기마
1931
##tr
착수
##atic
요건
카에
배지
킹스
성문
벅스
##사전
대명사
표출
민족주의
시스터
자유자재
131
네모
VR
레스터
별자리
포트리스
사사키
퍼시픽
쿠시
##일본
##린스
##스트로
제시카
상회
소피
입성
베토벤
발악
조폭
##질기
YOU
가뜩이나
배분
UFC
광학
중전차
오로라
유토
병단
##날드
옥타
인벤토리
Air
부럽
끈질기
아몬
광부
악랄
IDOL
BF
##ma
이노우에
헬스
just
실황
애교
양도
천도
피겨
토착
환원
도미니
럼블
흡연
##무스
극소수
아의
이가
##투르
인맥
1928
물들
스티커
초원
GR
다단
솔로몬
VOCALOID
##수엘라
##rain
어드밴스
##의사
위즈
쿠파
티코
##니클
스타크
리플
사부
깽판
품종
외무
무림
##oot
빨강
연호
##카즈
사우디아
장타율
선비
인테르
팔찌
쏠쏠
세간
진가
천적
랜턴
징징
모터스
수고
##슬러
응원가
시중
코타로
과부
당분
이치고
무어
일보
교란
올라서
Mod
교육부
태그팀
운운
안나
##재판
UM
왠만
플래닛
새로이
##ony
명령어
치명상
경유지
##셔츠
what
군벌
이화
넓이
키사
여고생
도도
오디
인내
징병
##ope
##ren
정유
커리
##노이
col
되살아나
염소
손아
불러들이
본디
편대
Che
재사
포털
내려지
총대
콘테
아이언맨
자주포
???
송도
STER
if
Sound
마커
정인
서드
베네수엘라
Hy
걸작
국력
볼리
다나카
스코프
반갑
단골
메라
ADV
고어
비늘
유목
관제
샤크
창병
##큘라
거주지
금전
방금
방황
종일
군중
굴복
철학자
취직
다이나
초사
도리어
직관
고폭탄
알프레
어우
여도
미끄러지
전편
예비군
'''
사교
밀라노
학업
이과
마이너스
마사키
두께
남구
담당자
글러브
교주
왕궁
##중국
##쿠버
진흙
##던트
뒤집히
위나라
##사우
부풀
비토
노조미
재팬
무언
국산
마이트
유교
토네
해인
##서야
제후
상반기
작별
정중
줄곧
##슬라비아
유고슬라비아
야쿠자
민국
손녀
지기
DO
가토
부치
##안군
Vo
토머스
한심
각색
강유
요동
체질
진공
치아
##원군
알코올
역설
연주자
디디
추이
프레데
법무부
##어먹
원호
##olog
드라큘라
바이스
광석
사업자
##iew
타케시
컨테이너
라지
청색
##UE
에일리언
광저우
관습
박주
미성년자
노숙
멀쩡히
조장
이치로
##세데스
휴일
메르세데스
안토니오
##ana
지망
레지스
우시
황족
##같이
아이리스
POP
슈타인
앞쪽
##스톤
천계
프런트
##데기
성추
아역
##UR
광신
##55
여의도
육식
연희
만류
서북
문과
번영
의거
화요일
벼슬
욕하
양면
재선
게재
##AA
사바
##려드
군산
효력
##폴리스
농도
즐거
##데아
하세
잉크
현명
학번
게리
카린
전념
EMP
MD
마니
망원경
해커
아치
불멸
피어
##쿠로
가솔린
카스미
옵티머스
주범
토오루
해운대
작아지
로딩
손바닥
사쿠라이
PVP
고독
저격총
애프
느냐는
애플리케이션
성채
리투아
고려대
리투아니아
night
SO
쿠노
득점자
유죄
##의정
플랫폼
##ield
신디
타노스
나날
성주
경인
부회장
친위대
괴담
타협
칼럼
재혼
뛰쳐
회복력
과실
로망
기한
사우디아라비아
제식
금기
리노
비오
메꾸
활주
미셸
백합
흑백
레이터
Cat
행태
CT
후유증
시한
스테이트
링컨
도널드
##카르
##변속기
오너
삼각형
매복
겉보기
이안
친밀
빼돌리
트림
##미아
유수
청량
Not
With
하야토
무작정
App
스루
조운
다정
수분
좌익수
don
아산
콜로니
바주카
생사
##oon
게리온
##거진
진작
나우
대용
김전
아야카
XP
굳어지
팔라딘
대두
일부분
임용
키워드
##티어
사에
##무장
##패스
골리
제멋
1924
피라미드
극찬
펄스
MASTER
##천동
빅터
먹방
건의
조율
##러미
시그마
##언스
빌헬름
총통
이윽
추대
가치관
이윽고
박준
선체
되돌아가
EA
WE
BAS
ㅋㅋ
양념
아그
텔레콤
농어
반다이
시력
##시계
가든
가가
안테
##ouse
##atale
카무이
후세
Run
재해
폴더
way
복종
##어찌
##슬로
Hard
브릿지
브라더
미타
섭외
체조
드라군
시위대
변종
Femme
광주광역시
분사
교구
다인
파고들
이마트
그닥
들려오
칭송
1100
조선일보
##블랜드
RS
빈사
쟁탈
액셀
340
가산
중령
언행
초토
참패
##돼지
클리블랜드
부화
소심
##elf
살라
낯설
설레
Rev
명작
무찌
##its
보답
아루
출입구
얼핏
바하
마도사
그놈
##먹이
어찌어찌
성공회
창원시
1929
추산
대잠
외출
페로
데이빗
성폭행
경장
애당초
서문
위생
한몫
폭발물
호대
촉구
미디
##니치
정장
택배
중앙선
승부차기
도호쿠
아종
스펙트
카도
미지수
확연히
아멜
##야샤
이누야샤
Da
뾰족
후타
기병대
전리품
채무
협곡
협의회
##레트
수렴
##마사
노이
카세
수준급
XXX
일쑤
학파
투르
HG
무찌르
쾌속
##언정
커브
피신
버지
##방향
의병
자연스레
강적
셀프
여건
연비
피곤
마모루
병살타
스튜어트
카자흐
셜록
214
정적
##로이
캡콤
탈옥
##먼드
동남아시아
위화
패기
효과음
쇼핑몰
봉황
안도
##저트
Get
접시
추석
설득력
아다
##Fatale
다던가
프랑켄
명인
소이
CCTV
FemmeFatale
반말
든가
바늘
데이브
겨누
동국
수작
무의
시구
장래
카가
도전자
듀엣
##징가
가로지르
서면
##암동
안치
자잘
근로자
이관
마징가
단층
예리
공채
이스터
경위
초식
꾀하
동물원
콘스탄티노
김전일
신이치
본문
##ane
선진국
충주
패트릭
dis
부츠
직감
입당
조세
손흥
광양
사위
박격포
Elect
대관
입맛
선교사
물려주
승기
키퍼
1925
환각
정제
동봉
토탈
말장난
종자
##사의
141
결별
##러드
계보
발효
온화
송구
웨일스
시동
Song
홈구장
사각
사용법
##인드
제정신
스폰지
식신
아벨
북유럽
충성심
##we
제이스
가네
케네
현행
##그라드
Ke
꼭두
순진
하코
분수
스크래
기각
수반
##75
##매매
##득점
쓸모없
목성
흑화
순조
익스프레스
치중
모라
VIP
가출
든든
알루미
특권
She
압살
발산
기와
유감
손흥민
마포
반칙
##라이즈
##제리
슈타
체이
홍수
포르노
밸리
안장
샌디
유한
들이대
아지트
8000
##무니
##치오
310
##미사
대변인
RG
bl
난전
진과
악세
트린
212
발렌시아
쓸데없
송이
윈스턴
상권
기만
대여
오미
##컨대
레트
좀처럼
액세서리
착공
SHOW
구자
침체
아즈사
##투수
1911
니키
##ecial
퍼뜨리
디에
사다리
호스트
미라클
팔레스
완전체
리포트
육박
향수
집정관
생리
술법
스왑
고장나
매거진
##제이
co
브란
빌미
법령
제비
허세
잠복
##asy
차세대
키리토
선발투수
최전
학창
마작
##케이
재사용
메테오
##라이터
가물
##MC
콜라보레이션
창출
프레디
시애
사설
리조트
수법
호조
대담
체가
마음껏
비정
##제품
만회
##지대
시궁
도르트
대강
에리카
작물
##아아
안드레아
임창
##히사
옐로
정무
불가사의
어처
평정
풀백
Back
설사
격돌
주주
상정
엑소
영락
김인
##눅스
RAW
최면
##투표
##ORE
비석
혼종
1917
##주곡
##푸스
수레
성취
폭사
미츠루
단테
베라
과반
농부
로드리
오리콘
스몰
제이크
호노카
콩고
편제
##부리
김혜
##조각
삽화
##ze
##테리
사마의
제구
탐욕
##나가와
타지
##네트
저번
Ang
Big
석궁
##66
아세
Comm
앞장
원동
시애틀
작살
##도니아
1927
입학식
꼭대기
바시
스플래시
순교자
늘어지
지아
부합
틀어지
Cy
DT
백미
알루미늄
선천
운전자
480
리눅스
신민
가즈
디트로
##용차
사과문
디트로이트
교감
자택
암석
광화
포화
시엘
소인
홍대
720
world
존댓
스크래치
존댓말
지바
팔레스타인
악보
공직
탄종
낙원
##유산
SW
거물
##벨트
애리
승계
검찰청
부추기
선명
##짜기
해협
##ness
넘쳐
와우
무자비
매입
불사조
틀림
##요환
##마이
프리즈
걸어오
라거나
김세
방대
##양군
수배
크로니클
동포
양동
열풍
블레이즈
겸임
항로
노브
코리
##ke
대전광역시
인민군
강당
##EX
사상자
느냐고
민병대
개종
화장품
황자
스칼렛
##ton
007
어처구니
젤다
팔꿈치
다이어트
##리즘
왼팔
차출
##링크
하드코어
가까스로
Every
다라
임요환
전복
white
되돌아오
아픔
전염병
##평군
더스트
국무총리
듀티
제이드
##포로
420
손수
와이드
su
서점
목표물
당당히
##ny
조선인
속삭
산지
투여
바바
파열
까먹
타라
정류소
Arm
스릴러
영분
볼텍스
##예프
아우구
송병
##패드
스케치
##틱스
박병
사절
##히트
##르바
첩보
0000
##sc
##appy
난동
로마자
바트
마티
에덴
인디언
커넥
자위대
다이브
con
유니버
흘러나오
위임
##평가
##페스트
비대
That
##비히
우익수
구이
나이지
적정
대장군
나이지리아
헤딩
GDP
한조
##선거
ㄴ다면서
마더
선공
도르트문트
해밀
사이퍼
심부
##부대
TB
이민자
위조
행선
두텁
커먼
자라나
네메
강남구
분교
어비스
이에야스
열받
나주
만두
유쾌
기총
##28
처단
플러그
##무진
##인간
볼프
시저
유체
메커
비약
체르
모티
페인트
서커스
Har
##니지
클로즈
유명세
스펙트럼
전태
에프
합방
망자
원산
보태
동대문
어휘
격노
코이치
대한항공
심포
화수
배척
Amer
괴로
주작
##노프
##작전
휩쓸리
총사령관
##UC
의미심장
대각선
##RAM
카야
류현진
레이크
테크노
노후
입상
독재자
동거
떠들
KS
히로유키
이따
클락
##24
오버로드
심플
주성
qu
마고
##파니
보유자
Order
서재
정현
UR
으라는
리젠
아론
##드래
주군
토의
매트릭스
오드
요크
방랑
신종
##애미
늘어놓
프리스트
능동
마이애미
##레미
##노기
프랭클린
침식
Des
1926
모건
##35
##교도
마늘
##모자
활주로
미련
서경
송파
유추
발령
경이
역기
크리스토퍼
낭만
비올
안드로메다
단신
빡빡
상경
엇갈리
소셜
야하
미얀
서스
대머리
조회
사토시
후일담
숙종
새해
퇴근
##AG
기라
리액션
정규군
##비우스
마카오
채굴
Skill
내려놓
박세
관광지
무협
라운
김정일
Pe
출세
치타
브로드
가변
올리버
일직
토요타
스탠다드
##공격
나가사키
케네디
문의
태연
##니트
시즈카
복권
벌칙
씁쓸
병영
합산
지체
##버린
김준호
인즈
##운전
버금
일찍이
토네이도
허영
단말기
>,
산호
##chor
게이밍
##자스
단거리
당분간
개화
춘추
선발전
비행선
마는
PSP
열전
메소
공병
사이오
##실히
te
누마
자석
장학금
디테일
좀비
중산
피크
옥스
윤종
장단
온전히
##비언
교원
소아
추월
##ious
크래
208
성추행
사비
오재
Tri
졸개
속옷
송라이터
정진
난폭
란트
푸드
##피어
인스
간식
장녀
튜브
Act
##느니
프레드
##위치
235
왕녀
마장
커터
NS
##자카
판본
항쟁
##각시
국정원
연평
조비
##즈마
Top
난해
이메
상대편
GL
국수
비숍
애틀랜타
느긋
##타자
어로
자부심
석화
펜스
영화판
교재
태고
상고
게르만
공전
노랑
후작
##빠르
세이부
Em
갈고리
사역
##ert
##pl
양아치
시노부
나나미
지독
짤방
##라이언트
다이묘
가메
서부터
케르
이어인
171
##net
플레이트
RF
법조
##정동
Str
클라이언트
850
이의
가차
##레인지
내년
초급
수산
연기자
1922
마그마
비틀즈
자의
##자루
##상스
최진
갑판
괴도
##버거
##단체
구세
빡세
알파벳
주스
조슈
항소
주권
화랑
##ient
줄리아
끊이
대적
##co
라이터
가쿠
##개골
비욘
##olution
역전승
##렉트
카멜
마드
위저
찬사
1923
켄타
초연
헌데
체이스
각본가
동독
카터
관대
트리오
제멋대로
소량
츠카사
거슬리
나탈
야채
직계
TCG
불운
올라타
데스크
잔당
FX
샤아
프라이즈
모기
##바위
클라우
유행어
스펙터
조인
주임
햇빛
헌병
##정역
오아
인신
255
UFO
FR
과다
리오스
##고쿠
자아내
##bps
이송
##둘기
보전
유세
용품
근래
하얀
안중
투기
##IST
래스
영창
포유
##랑카
의리
##ret
206
일선
미완
정경
천문학
나츠미
타쿠미
중공업
앞마당
앨리
미분
요일
##모사
다이너
성남시
cl
왕따
진전
중심부
편집자
NL
수년
형법
와일드카드
'-
동유럽
들려주
브라우저
튜너
왕립
##러기
부두
버디
##ideo
해결책
데프
로페
파드
Ab
LCD
##ner
골대
드레이크
중얼거리
구치
등산
청주시
##렉스
데뷔작
가중
독립운동가
##서리
법정동
호우
1921
Bea
연방군
마츠모토
푸른
신한은행
삿포로
##나들
메커니즘
주름
기통
서남
노사
정직
..'
LS
앤더슨
EXH
생계
키메라
외교관
면은
디비
루즈
이제동
왕건
##ful
오일
패거리
떨어트리
초동
밀러
##토록
ve
구애
리비아
어중간
영기
노동조합
거듭나
Fre
데일리
PO
우로
##럭스
부르크
오바마
내무
알아듣
경호원
God
한인
off
세단
선하
경관
박민
290
Bar
Met
##튀기
텐션
##ham
내심
두드리
벨벳
스플릿
유민
333
##캐슬
Sil
리바이
체류
특출
Hot
불분
뻥튀기
##ward
##소통
는군
우메
고모
특공대
##ning
영국인
209
의사소통
부메
작렬
어지간히
미하일
자며
##호도
버니
지출
규명
##ERS
이승엽
원제
포괄
##캐스트
과잉
드리프트
DEF
중소기업
힌두
##son
대한제국
이지스
##사우루스
산출
성종
##트니
215
레미
마천
말라
엘런
재상
치부
항우
##버릇
AMD
##어들이
시르
Inf
관악
메아리
평지
부딪치
뉴캐슬
이신
켄이치
팽창
희미
##day
레비
정종
진해
우즈베
대리인
의류
##조선
인장
부메랑
레고
Char
애덤
팩토리
나시
수영장
단단히
여리
##틀링
채권
##mania
로버
한가
##마츠
러시아군
Rain
대의
불분명
##레즈
판도라
자정
선풍
꼭두각시
탄수
토와
통역
후려
친근
TD
자드
버지니아
송곳
RAM
##마드
##곡리
궁정
받침
1912
자치구
츠루
코지마
앵글
증원
바람직
절묘
자연수
마우
줄줄이
kn
수료
동선
White
Ext
김제
무난히
동산
주립
토템
재화
척추
마케도니아
가창력
기겁
치밀
##뮤직
##let
##au
경상도
도보
의약
이분
충동
탈리
##마트
만화가
가세
##ATION
뇌격
우투
최성
소음기
경의
로니
외야
뒤틀리
주시
##ERT
두개골
성녀
전폭
바사
익명
##선스
소중히
최적화
서유럽
##생물
급여
르네상스
무로
인기투표
안테나
세토
코나미
헤라클레스
창간
버즈
트레이서
애리조
음양
여행자
Are
괴멸
뮤즈
시발
##oud
마취
May
KD
간장
그물
알맞
오마주
카프
사생활
성령
기판
자음
시궁창
다구
오피
심슨
FE
되려
##라트
라이선스
STAR
건너편
FN
셔츠
주부
##ump
비평가
Pop
나루호도
세무
데이즈
최우선
버금가
분과
피고인
1400
잔여
초중
점포
런닝맨
금하
다마
루드
저스틴
랜디
프란츠
공시
##그러지
샤이닝
배럴
명확히
영재
이시다
포이
헌납
##대표
이치카
고스란히
권역
덩크
때우
이목
투항
무심
현수
기생충
노프
##대군
207
데이터베이스
창세기
트레인
무네
계승자
나츠키
위화감
위인
어린애
##여행
##쩌둥
anchor
마오쩌둥
청문
최재
아이슬
성동
제품군
아이리
러블리
##살이
only
want
down
군단장
헛소리
혈관
앞장서
빈스
##실록
ㄹ지도
이시카와
**
다이렉트
every
유다
##하늘
심심찮
긴장감
##니케이션
아르테
PA
안식
로로
신촌
##EE
##내기
키바
커뮤니케이션
대도
스노
치세
##22
비하인드
ㄹ게요
북서쪽
공석
고갈
급진
맞춤
##88
랄까
시세
우사
월터
제각
인피니트
##ves
북두
단다
친화
감도
리언
정연
Game
역관
Master
감속
자재
도메인
161
공적
구스
##산면
##ape
ㅂ시다
장막
체로
문호
수리검
애프터
랄프
##겨지
스트레이트
조부
yout
아이슬란드
멧돼지
간첩
경합
Joh
황무지
유부
사단장
길목
니콜라
대입
##매니아
로자
OR
more
울부
원로원
TN
##HD
경시
찾아다니
여객철도
##석기
유우야
터무니
Open
개틀링
절약
남원
오스틴
플라워
김태균
요양
Cont
체내
##less
사카모토
극동
리시
##소타
##드래곤
구스타
오덕
제명
국물
민속
오퍼레이터
몸체
Bu
멸자
한결
열렬
쿼드
며느리
##피탈
급제
펠트
하렘
휘둘
심리전
IDOLM
과하
조니
무언가
카트라이더
기압
부녀
흑룡
명하
박기
레코
숙명
경전철
설문
##ien
##ift
하데스
라리
기공
##플러
COM
서울역
Hea
지갑
호타
무법
##도사
사병
이범
##zy
불가피
모로코
제네시스
단연
전과
체급
절감
해발
they
만화책
##ANC
기린
수뇌
충실히
일생
체하
촛불
엠파이어
케어
경희대
몸집
운임
농어촌
end
분전
언론사
##레인저
##ship
머들
나기사
아킬
즉석
냐면서
조로
부설
요지
정선
하천
병맛
티탄
미네소타
간편
강령
오스카
이라든가
발병
콘테스트
##지물
520
준장
회자
##관계
오반
쿠미
복부
아노
유시
한중
명품
어머
예하
TG
통근
DA
이장
몰아치
여대
뛰어다니
모리스
##led
감시자
선별
는데도
##현동
##메르
로미
울부짖
섭정
라데
아란
전용기
터리
탤런트
그토록
너구리
외래어
보단
##감치
##lock
민지
사시
##위원
##찌감치
행동력
##ize
칼리지
영화관
가야
신령
재빠르
발자
아만
##파르
##형제
쏠리
막스
비둘기
Bra
노스케
톱니
후하
관용
걸스
행각
헤더
활기
##LD
붙여지
성검
시프트
NG
특색
정착지
들통
GAM
반죽
역전패
댈러스
브룩
티나
다이빙
반자동
연장전
pl
온전
조나
리포
카르타
카에데
끝판
익스트림
나데
차마
폐하
필기
노마
##법인
메이크
Moon
서약
순차
젠지
음식점
무패
장대
크러
솔리드
Like
등용
세츠나
WAR
설립자
소망
##omb
1907
구만
자선
세속
##ited
##뿌리
Yeah
맞대결
Bad
Project
성급
김택용
짓밟
컬럼
Off
세련
단번에
레베
좌석버스
종속
학부모
하얀색
위태
크림슨
ㅏ요
다트
소프
뿜어내
news
우와
피니시
##오피아
에티오피아
페트
트레버
생포
완패
재차
##ita
1905
붉은색
전투원
##45
천연가스
Sky
##준호
당근
##교회
대지진
Med
나트
산산
선상
마비노기
순순
정국
태후
교직원
백지
헤지
메츠
독도
패미컴
옥수수
토사
출생지
ㄴ대
이유로
개드
검거
도타
자위
직면
포진
알비
우이
구비
##열차
터미네이터
플라잉
7000
부통령
남아공
전라도
Now
섹터
루시퍼
원나라
항속
##row
치키
Comp
TF
락스
##렁이
밴시
##부르
성품
뒤바
신공
인분
막시
세실
유스케
결선
마자
비범
치과
케미
회유
##고루
Battle
코팅
##람쥐
##ute
서스펜
칸나
드미
이북
나지
##레타
감염자
수족
불허
##소니
검출
##ALL
아브
일갈
이상민
221
이탈리아어
##문화재
원상
브래드
불안감
소주
비밀리
Way
계약자
이메일
성유
착취
관현
와타루
척하
부상자
브리핑
바빌
##vent
미카엘
JC
독설
배고
응징
자기장
##기어
눈부시
##조작
그지
청취
1300
관세
단간
지폐
돌풍
야자
우동
사업가
연대기
멀린
일간
희박
장려
밝혀
종로구
Soul
업자
경영학
힘겹
체구
##즐리
비행장
은가
##내셔널
정부군
인터내셔널
정관
승부조작
기염
##stem
협공
Special
over
팀킬
노원
##스기
##장구
릭스
붕대
빈센트
알제리
##준혁
순순히
파병
Po
TEC
남짓
온게임
조개
전투복
온게임넷
##ENT
눈썹
이바
빼놓
777
다발
순례
스켈
이어폰
소탕
##그마
번거
##시온
비서관
화합물
벤츠
흐트
개관
디에고
벌어들이
FBI
BASIC
톡톡
DDR
누락
신탁
##rop
사카이
다듬
픽처
산체스
##96
노보
휘둘리
##ORM
wiz
~'
태백
빵빵
순항
마코
TT
산림
솔루션
니즘
날아오르
바이올렛
일직선
##ling
##xt
음란
합금
##리아나
아틀라스
오모
##com
프라이드
네타
플랑
지못
흉터
지못미
반대쪽
하늘색
모치
Alb
음모론
타츠야
미얀마
경비원
바깥쪽
꼼짝
초회
낙하산
파나
하버드
외침
......
갱단
무모
브라이
송신
여느
올리브
프리드
크레이지
성원
이도
관건
튀김
밝혀내
밸브
급증
얀데레
good
아쉬워하
저력
213
선지
성범죄
넵튠
짤막
##산리
둔화
양육
티타
설교
탈주
나뭇잎
매도
Cent
형벌
호라이
##oney
북동쪽
##스부르크
카즈키
무당
##의지
반납
재주
피쳐
덮이
타가
이달
전위
티셔츠
진행하
향년
류지
고고학
Bur
중사
한족
김현수
하시모토
성운
##타기
라이브러리
벨리
에테르
방어전
내려찍
조현
##트리스
라든지
악인
추위
지도부
성가시
외환
통학
히코
275
막말
사하
##어내리
만장
세이지
WCS
린다
블레
언론인
샌드박스
다이크
1908
##가타
인승
앤드류
헬로
졸지
##UB
##ude
이남
드래곤즈
박태
백수
평의회
화속
223
재발
시베리아
아날
추상
사납
탈탈
네메시스
거행
##line
일정량
신봉
거창
일파
##방식
사죄
beatmania
성희
특촬
강호동
데니스
친왕
명백히
카자흐스탄
급상
개드립
ac
Dragon
레그
쪽지
##eng
제너럴
##play
반달
유노
미달
이나즈마
Hey
NAS
급습
밴쿠버
환불
##미츠
참모총장
루리웹
라파엘
수퍼
증진
WOR
니즈
민사
죄인
분비
대구광역시
본거지
##일관
저명
조원
거머
이천
마사무네
베풀
구라
는구나
생방송
임프
##고스
이끌리
수차례
아랍어
막아서
추론
탈것
투르크
시빌
##lt
제국주의
여하
조문
구루
Eng
밀양
티모
전갈
키프
눕히
자릿
칠흑
패권
ㄴ다든가
Int
our
부피
황소
고하
초전
코로
##시즘
폴라
365
일컬
가주
햄버거
레프트
연성
##린더
001
극성
##나우
자자
어우러지
증강
쿠퍼
해프
강서구
본드
부끄
사서
다량
마호
세비
유역
스탠딩
코일
팬클럽
변모
##23
버퍼
피버
돌기
복식
승하
현무
##규어
민심
지탱
##독부
보스니아
리더십
래쉬
고마
매점
행군
처방
미유
Ass
수당
철벽
폐위
부기
정주
테슬라
시연
액트
일괄
자결
베이커
##가요
슬라이딩
가신
반주
파괴자
대장장이
결단
이로
코브라
포자
호르몬
##27
중의원
사주
퇴임
폭군
엠마
##ata
넘쳐나
치히로
##스코
baby
사이먼
스투
##벅지
충무
IF
빈곤
생식
드러머
일찌감치
#,
감마
원어
##데라
##두근
케니
미용
일개
스탠스
전령
##방사기
370
화염방사기
수납
장동민
아카기
##닥치
관전
파기
부적절
겸비
광동
만년
왕세
자가
동아일보
스스
미처
래리
골짜기
토토
왕성
국내외
방사선
속사
해지
두각
럭스
"'
문성
바드
어부
영령
##아내리
##영향
보급품
에로게
골리앗
Last
손책
see
카논
해프닝
##IGHT
##ius
Yes
사생
암기
최하위
밀가루
Best
근위
만성
##공주
타오르
뒤쳐지
슬쩍
총애
미나토
부전
##FFF
번번
탄두
희생양
써니
클로버
양지
##원지
란다
블루투스
나선
216
마리사
갈아입
아득
신약
CIA
새신
##천리
max
자백
야구단
DAY
포상
##ated
오카다
볼일
수송선
악질
명실
서프
Show
방관
압둘
거머쥐
교제
미공
##디난
연합국
좌완
컨퍼런스
하남
구실
빅토리
쓸쓸
코칭
드래그
원자로
##탕스
레지스탕스
선역
이문
텐더
포레스트
막론
여명
재규어
총구
타케루
유족
편도
골고루
전문학교
나카노
Nor
백두
불거지
왕정
물류
원반
지질
최형
책봉
료마
마운틴
##red
수혜
##이즈미
Match
이강
제드
격납
소란
저축
보호자
Christ
매매
440
메두사
적도
후진
선글라스
right
행세
##툭튀
푸른색
##ets
거니와
해밀턴
골수
제곱
내리치
플레인
##홍철
물음
경전차
퍼트
연화
갑툭튀
크리에이터
에어컨
세가
개찰
##푸르트
아이오
Sur
변함
##III
절제
암흑기
say
자판기
매지컬
자유당
비타민
언락
명장면
공안
##혀가
템플러
Down
명은
초필
동맹군
Mir
욕먹
마공
##건설
##칠리아
견고
무소
서유
잠식
잡혀가
##세이더
크루세이더
세레나
폰트
크리스티안
정보원
정대
졸리
##ara
얼룩
소나타
동하
수속
본뜨
##럴드
SUP
덕택
무안타
카트리
한복
감찰
아이젠
조선소
납품
최장
동성애자
네로
ㄴ다든지
kr
사파이어
배급사
사드
석가
##ric
어지럽
아츠시
도입부
메르시
##거스
XY
리비
Art
이터널
##맹이
상승세
가르시아
의존도
수전
통찰
화질
카메오
짊어지
##ely
장기전
스케이트
포식자
PvP
노태우
문인
잘생기
##큐버스
Ook
미약
오보
불발
소나무
헤븐
자치령
슬로건
한국군
케로로
몽땅
에러
회원국
시오리
Core
보름
팰리스
거미줄
명왕
레오나
##제프
분출
장담
틈새
##이프
골격
함유
##29
##산군
시어터
공민
쟁탈전
보좌관
오클랜드
덤벼
사력
결투장
##페어
급상승
반려
공중전
후지와라
First
소름
정윤
적기
##일기
수뇌부
호화
시종일관
날라
연못
화판
크로노스
박차
TWICE
-.
하반신
확진
횡령
##테리어
배반
간직
또래
시라이
보이드
NAT
자멸
남동쪽
레니
슬러
하인리히
엎드리
##76
##나시
How
누님
변속기
승낙
임페
MI
현질
##ux
If
우대
Mark
난장
샤르
거유
##cl
오산
정몽
##ga
성단
예매
캄보
##44
부러
Ap
필적
pe
이규
his
신격
위아
쌍용
there
기어이
##통일
Tour
대북
필승
몰입
키치
Never
철퇴
순삭
알프레드
좌상
슬래시
BRV
창시자
떨리
알바니아
레바논
깜빡
슬립
에노
츠바키
악수
##다오
프론티어
오자
컬링
##ley
장자
난징
라르
크리드
에어리어
시미즈
조공
혼나
바이퍼
tw
잔재
판과
저항군
Sam
제동
##매치
무서
피그
노획
백룡
아레스
퇴마
시녀
악영향
##HC
##더스트
##천역
후카
바운드
피칭
모탈
이조
원성
##부수
##udio
Free
가넷
난쟁이
##로지
데스매치
테츠야
센트리
스맥
발해
##26
아리사
승승
이반
첨부
보리스
##임수
츠치
소모품
페달
스맥다운
묵직
신빙
이바라
주화
##도스
##ther
각별
판명
제복
HOT
조승
카툰
micro
근방
시술
얌전
Pol
뛰어내리
비열
어선
삼국사기
남산
열광
쿠도
##영수
활발히
이를
백과
특출나
파주
클라크
김소
토바
##테면
태양계
베아
상서
적시
남서쪽
페라리
아와
투표율
이를테면
RPM
공황
##세우스
무방비
들여오
아날로그
알트
축출
서태지
허벅지
이형
1906
##사관학교
219
##UST
우즈베키스탄
Na
루돌프
액수
엘소드
허술
커맨더
속주
RT
포메
##hy
##INE
재결
스피리
950
터프
잠자
다크니스
비운
##NG
바그너
who
뜬공
용인시
이니셜
골절
수박
##work
가늠
쿠폰
웨딩
충공
부토
아스타
지명타자
식인
##KO
블리츠
got
톰슨
문관
##OCK
미코
##ird
린치
토코
Side
대영
##총독부
조선총독부
끊어지
여운
동결
Cor
그제서야
Will
용왕
어쩌다
수제
id
고뇌
팝픈
팝픈뮤직
탐험가
닛산
잠정
##erm
베끼
##85
임페리얼
ㄴ답
재보
후리
금서
김신
라다
맨날
아돌프
##미트
재미없
킬로미터
간절
정시
위안부
##토니아
훈련소
540
곁들이
마라톤
Sim
민트
동급생
9000
NA
밤중
우디
큰일
급속도
픽처스
물결
곧장
구미호
대나무
소홀
건축가
City
KN
말살
반도체
히이
라카
약수
전자기
##지기
머릿속
켈트
하이브
낙동
##니르
중론
면도
소폭
군세
##블랑
즐거움
Magic
김호
전황
이대호
아유미
저음
광화문
외장
인테리어
화전
시리우스
활약상
인플레
틀어막
GPS
치프
퍼플
##보살
교명
파탄
페미니스트
##ERF
환산
티거
페드로
마토
복각
송나라
발사체
캄보디아
남친
내쫓
미움
알몸
푸쉬
무리수
미워하
중화기
시속
Great
겉모습
미완성
RED
뛰어오르
하쿠
다채
타원
나오키
스트림
에이미
페이퍼
로어
메트
영수
키쿠
해부
지하실
416
상소
궤멸
한미
체크카드
시커
feel
주지
다비드
벼락
혈압
후려치
넷째
##파일
동남아
FFFFFF
##yes
KA
도네
퍼니
##거래
남인
오도
유창
뚱뚱
안톤
전우
전쟁터
245
개헌
##리아스
퍼블
스턴트
사학
재일
금곡
덩달
독단
마키나
투수진
##충류
정승
나리타
사복
프리킥
Fall
검도
사우디
##ris
송병구
허니
노선도
북아메리카
개리
넬슨
선후
##황후
매그넘
단타
##rew
이룩
통영
##피드
##덱스
수사관
##다듬
##디우스
리벤
포섭
후사
질질
Cap
##가르드
ㄴ데다가
곡사
이롭
##사람
Track
서동
##하임
##오버
오아시스
전곡
사쿠야
규율
전패
천왕
##보스
병신
Come
멘토
화룡
##전쟁
로렌스
옵스
해설자
라티
##분투
몸싸움
앉히
엑셀
미니게임
화끈
##올로
지상군
Perf
di
밧줄
선율
족보
동그
흡입
##토모
공연장
청문회
로토
어시
Happy
자행
##월드
일기토
부우
지석
##요리
거액
출국
##삭스
그분
십상
형주
GX
신년
##que
성희롱
KCC
##니컬
직진
한눈
##이인
현종
PM
yeah
블룸
##ision
##tain
몬트리
몬트리올
검색어
토카
##게스
그러다가
소방서
엠블럼
증대
EB
갑주
부디
코러스
김한
퇴직
234
대구경
Edition
벤트
사적
코퍼
애니메이터
Party
엄폐물
카로
AW
개더링
트라웃
##소년단
시프
끝없이
미상
HR
적어지
Net
웍스
충원
스커
조짐
보이즈
아재
온건
진범
방망
조각상
빙하
옴니
윤성
야말로
우여
다이어
경비병
세바스
##UL
배틀필드
기증
내공
249
아소
090
Boy
도래
girl
약사
##UK
걷어
야인
올레
하강
티라노
야마자키
이석
마크로스
PT
김은
김하
BP
황폐
226
랍시고
카츠키
YG
이쁘
1913
두근두근
Final
가맹
차우
관현악
우선시
성시
짱구
초계
끌어오
끌어당기
향토
##폴트
고아원
부록
신드
##린트
##브레
이어주
BMW
브리지
##str
카르텔
Univers
정치가
클럭
편향
풀이
호라이즌
어려
목조
화보
대주교
참수
샌드위치
위닝
의뢰인
동명이인
ABC
##고생
##BOX
미식축구
발족
험악
효용
비룡
410
로스쿨
##김없이
분양
파비
망각
217
엠블렘
방탄소년단
자릿수
평준
삽입곡
충공깽
포구
실감
##부사
굴러가
야구부
쥬라기
능욕
메탈기어
프로토콜
바알
숙지
재래
아로
Club
플랜트
John
토드
야스오
엑스맨
업종
호족
혼잡
곧이어
##코스터
##슬쩍
동률
##레톤
유승민
소양
##aka
매끄럽
버겁
콩두
평야
이츠키
최원
그리폰
슈테
경멸
life
Stage
초딩
파커
싱크로
롤러코스터
보그
후후
디럭스
슬로바키아
벨라루스
시우
SEED
스켈레톤
다그
엘릭
아디
비잔
신천
판단력
프랑크푸르트
박병호
도봉
잔존
난장판
분지
Sl
투영
##타마
매료
발열
아야노
남아메리카
요가
강진
거라
철자
Angel
Little
치하
토우마
모차
유권자
1909
비야
##길이
기금
##헤드
신진
내용물
IMF
기교
##헤치
노미야
백병
염증
황색
기념일
항일
호각
Spring
군청
발포
흉기
다다르
문경
들어올리
물러서
트렌드
압승
카자마
뮐러
순회
우먼
악평
예민
짜이
허다
ISO
코바
사냥터
##ords
블로킹
make
궁궐
샬롯
수만
스테이크
##ism
Break
린이
독살
괄호
맥시
##ONE
##ASS
양방향
##관리
233
적과
RR
겁쟁이
강대국
슈리
신태
1915
서신
##트릭
##곡절
바티칸
요르단
메가트론
이완
##링턴
cont
무함
파라오
우여곡절
티르
그레이브
히브리
##arius
RX
초음
RB
##람회
배수량
보성
이트
##와르
오리지날
갈비
니퍼
텐트
##att
표준어
로젠
PH
코미디언
Fly
멜리
주루
##서니
##ival
part
버크
점치
환율
생몰
유상
##ross
중대장
소대장
계약서
Class
경부선
WHIP
의약품
보아
이보
엘라
자서
산전
센고쿠
소품
슬라이더
고체
발기
##래스카
##걸음
##재욱
228
김시
로트
원사
##모델
##ader
우울증
옥타브
경순양함
사요
피렌
미네랄
방영일
슬래
초라
인삼
최연
조동
##95
미도
예컨대
엘더스
천진
글래스
겐지
연마
BW
스팟
악단
월등히
fl
카라스
포커
##ause
과열
억양
황해
운하
Girls
모금
컬럼비아
고드
구가
224
im
##ama
모하
한승
##팔로
여중
ff
기하학
애시당초
수목
약품
클러치
용호
##신기
##ague
서주
속임수
##OWN
375
Mer
##데시
라이토
빨아들이
피노
Swe
잡아
고철
ER
별거
캠핑
Legend
북위
1904
치토
##블루
MY
레티
익산
제주특별
##IME
##자치도
제주특별자치도
애니플러스
양말
중순양함
교황청
진기
미우
취항
##시장
루기
마석
차오르
튀르크
편애
폭넓
견습
루가
받아치
검기
공평
징집
##uch
##하니
##구멍
칼질
아르타
구식
사오
는커녕
서산
용납
마르티
리제
시칠리아
승용차
에마
예비역
실탄
레인저스
교무실
협주곡
아누
피파
##느러미
평이
##해야
##ital
연합회
크로스오버
##대왕
##도어
줄무늬
광해군
어르
은색
잔소리
도요토미
틀림없
##21
##매김
has
북벌
식용
흥하
##83
##바이잔
차크라
##장치
##말라
경대
초구
허약
헌트
신승
인원수
##베트남
##슐리
자리매김
우등
SKE
숨지
아제르
히다
실록
역전재판
사춘
하자드
어웨이
염동
##아오르
마사토
아제르바이잔
390
포메이션
세터
캔자스
매튜
숙박
Take
낙서
라몬
머독
몰두
##테라
사이비
##ubl
수송기
##모트
설진
기울어지
겨냥
레볼루션
무예
길래
공식전
1916
데르
시메
컵스
티격
스테판
지식인
시급
임재
##피온
통치자
##마니
보류
천자
출진
##네즈
모자이크
대니얼
Mem
요법
집요
바이트
세계수
녹스
수학자
추축
최형우
비방
##넌트
위저드
TBS
복수심
주지사
NFL
시부야
aqu
김규
강희
목장
니콜라스
##날리
야나기
우루스
##IVE
사이다
거래소
##로그램
반입
광폭
만우
열대
오정
파충류
301
개표
셔먼
린드
227
분파
인제
청자
전압
##불리
APC
오거
시트콤
코우지
고참
헤엄
흑색
힘내
심복
'~
인계
전주시
Ind
주선
착안
는다며
어설트
파워레인저
박원
의결
허물
미시마
김구라
하동
fr
헤이세이
음료수
개전
이면
Cry
만악
EXO
담보
이븐
화성시
점성
치솟
거든요
강국
내비치
빈민
조슈아
아토
폭언
마이티
사춘기
강정
Hol
##티티
라디
위아래
마사히로
품목
##시간
정찰기
반공
코요미
숨결
웨스턴
마르셀
무함마드
명지
윤종신
again
초심
펠릭스
브록
호위함
키사라기
프로세스
##로리
누비
빙글
스틸러스
1700
##식물
위드
##르슈
;/
지원군
출연자
성소
박하
never
냉혹
램지
##교사
주조
차고
##ler
낙양
증식
국보
스탬
중종
##샤인
내분
##십자
윤영
증표
##리언
성우진
정민
만우절
인턴
동시대
정설
모사
키시
##body
##enc
레이카
조그맣
러스트
성매매
시제
미공개
대기실
은신처
통폐
자객
봄버
##사태
우왕
악연
##지우
512
미스테리
heart
PRO
계엄
니르
프렌드
교묘
올인
종파
크레인
호문
기권
##조림
쇼코
##ople
CGV
에라
맹렬
문예
역도
코만
##ura
울산광역시
em
사츠키
토치
하로
한판
##칼리버
##전함
##apan
우려먹
알라딘
경복
쇼타
요령
활력
클레멘
휴지
##ino
귀속
재계
##정리
Gl
머큐
이여
mA
건대
마레
규슈
애착
글루
제때
Ho
눈보라
타도
동맹국
가도
다나
##라이어티
건너오
향신
버라이어티
##글리
악세사리
노홍철
임정
xx
기념관
비견
기념비
나크
카오
나오미
시티즌
소외
가온
각광
폐업
괴이
장지
에버튼
동탄
크리스티나
교외
고야
고온
##브론
라이엇
Gal
다테
ad
고트
##뉴스
##주니어
Cal
총수
##oun
단결
테드
##팽이
사무총장
루시안
가계
오컬
ㅕ야
염기
푸시
##수염
오우거
sk
에디터
더듬
사칭
지평
##펠러
##iny
마방
##포동
이크
이리스
전조
Real
Rad
##그래
스미레
Sn
공소
은빛
크류
##푸르
##스틱
볶음
##훈련
Aut
넷플
오승
쾌락
넷플릭스
제천
기요
닛폰
##AE
서대문
FO
대련
도가
뜻밖
##세움
정치력
Sou
011
대성공
치환
##너드
타쿠야
페가수스
원가
정박
스냅드래곤
OO
허드
##바인
교통부
북아프리카
근황
수첩
저상버스
오현
재기
외지
게으
다다
뻔뻔
김종국
간과
자오
유키노
공모전
정근
##상부
경비대
오사무
상층
트리니티
조반
##발리
틈타
반쪽
사각형
큐트
통폐합
철혈
릴레이
표류
맹수
정명훈
모용
분광
풀타임
실물
##by
bo
예거
##irect
제네레이션
근교
##전대
돌변
##가키
모차르트
독소
인가
뜬금없
ㅏ라
투자자
나성
##IO
루트비히
DSP
계주
동자
양양
교량
탄산
EPL
오라클
방콕
##UD
도맡
쌍검
##lex
관람객
MUS
대서
그랜트
피렌체
오컬트
가비
야요
##TH
Who
콜린
##줄기
억누르
나카지마
김장
뜯어
순전히
조경
아틀란
껄끄럽
##ations
가늘
담원
도키
로더
매크로
무트
숙제
231
유니버설
Album
des
급감
자물
쿄스케
투덜
비터
박동
손발
걷어차
외과
##메이트
컬트
OM
When
공표
에너
##티시
##빠지
도넛
무마
독일인
747
서강
거침
세네
입점
252
둔기
설리
취리히
관행
238
에스토니아
##lection
가장자리
here
그늘
탁구
##유예
Je
타사
종양
폐인
##마을
아이파크
##aker
바닷가
뉴타입
Feel
매춘
어썰
##78
김종민
친일파
전광판
서스펜션
자물쇠
어썰트
올려
카즈미
##REME
꼬시
방아
내레이션
단호
담그
명제
데미안
기니
##gy
어려우
극하
다이노
백스
##그로
##DDR
퍼레이드
신해
##소연
꼬박
전구
대항전
Mbps
연정
일면
##뮬러
브리튼
합숙
식구
인기가요
계몽
닷컴
성북
아오키
ㄴ답시고
중용
출토
사고방식
라이덴
bb
min
고군
새턴
선샤인
Mac
##anger
~?
둘째치
가열
츠네
430
Single
Park
당부
브뤼
암묵
체이서
개요
고영
국지
가락
등기
아카이브
##onder
장시간
단국
완주
naver
피아니스트
이따금
벗겨지
일전
야요이
\]
세이야
GTX
스쿠
##BY
공무
노미
이그
##후미
합격자
광년
젠더
선단
엄연
하르트
떠나가
이슬람교
영도
##마르크
코스모스
뿌요
봉건
##동물
아라시
타카히로
꽃잎
번성
추격전
when
지브
특혜
신뢰도
Blood
프레데터
브리스
하룻
타이베이
금정
비어
상역
역적
진중
하가
세이프
열강
이코
질책
수비대
조건부
기형
조만
국한
브렌
여차
서바이버
볼링
외동
재편
합스부르크
환장
원정대
농성
송곳니
Ret
넥스트
수교
일렉트릭
let
똑바로
풍습
지효
다리우스
aquarius
선량
섬뜩
카리브
Hi
류우
피의자
라이스
마스터즈
백종
SMG
기시
사회학
카디널
어진
하즈
Du
NORM
열도
일루
데이지
양분
Inv
카모
플리트
아키타
엑스포
노노
gu
요절
##36
##arth
숙적
지저
##TC
피시
구기
짝퉁
CBS
강급
|[
수없이
히타
트롤링
비르
굴절
셀레
테두리
##우옌
주변인
기대감
아구
팔다리
스타킹
뒤바뀌
Ag
돌려받
촉매
원료
자일
그딴
테디
펠레
##리스크
mAh
##48
우라늄
공예
소자
실권
업소
음절
툭하면
##vil
금단
워스
이언
##산부
##raft
카니발
방주
앙상
##ya
이동기
집게
총무
탄력
##RO
나자
마커스
우의
샤이니
Val
에니
파헤치
함부르크
any
도면
레타
무례
손길
안주
##수원
신스
조례
NORMAL
별장
페르디난
포커스
로빈슨
Ult
수양
격분
전범
로켓단
Fun
만신
오기
세습
##eek
Esp
공구
음파
JYP
버팔로
웬디
한신
나츠메
명심
항공대
사이클론
껍데기
터너
##나르도
Mix
Hero
마일리
##나타
##노트
##숭아
##제트
ap
공문
작센
불러내
홍익
밝기
차츰
광란
완승
폭투
##사노
프리퀄
래빗
play
우터
코라
매카
멱살
사타
차차
평온
##ONG
##로니카
거처
유괴
진명
츳코
타카오
스프레이
롱주
Tech
분실
##ather
EXTREME
##립스
주점
판다
신노스케
##설수
이효
의과
이서
조시
한국식
개머리
배당
사보
왕권
육신
플롯
형용
##다주
##르도
테크놀
면담
서슴
역행
투지
팽팽
지원자
여제
치요
아라비아
인플레이션
직사
자서전
관내
냅다
실컷
##테르담
하모니
236
##uture
Dec
Say
달려드
세인
근육질
무서워하
이국
중수
Sweet
스펜
##ball
코스모
hp
뜯어내
성화
##하키
마리나
부대장
레베카
금천
예선전
향신료
야유
코아
쿠보
타깃
##알라
교육감
아틀란티스
루팅
앞부분
주유소
Kim
계책
어쩐
어쩐지
피어스
경계선
문화유산
뒤섞
##날레
시게루
생생
##로트
##리학
머큐리
##제비
##98
##정사
SNK
홀수
##ouble
을시
독창
위그
작자
눈길
보크
호모
802
클라라
red
낙사
수식어
말뚝
##방지
안드레
파라과이
Sol
대첩
백웅
윤지
WWF
굳건
반열
실린더
##클레
뒤따르
메릴
돼지고기
피쉬
##볼트
Space
감격
셰이
##매기
나토
돌고래
스메
레터
만연
천안시
리크
장민
하야테
실격
애호
로드리게스
도카이
마르크
물리학자
지네
장문
충당
공판
포뮬러
순종
한문
주둔지
하룻밤
수트
워킹
##비슷
강북
금세
티오
혹독
프리랜
가우스
265
보살피
이광수
베가스
속출
바래
이견
묘소
##ena
제이콥
국영
뭉개
은혼
저질
##태격
티격태격
성물
KE
짓거리
##ocal
010
QP
경제력
##ours
껴안
뒤집어쓰
힌두교
스무
232
루디
인위
최민
가우
발진
크래시
화순
##병기
어떡
호크스
돌출
월트
돌이키
종식
한류
베네딕
STA
KBL
승승장구
제련
##암리
수로
Def
서큐버스
메모리얼
Beat
some
몽환
변기
코타
##so
다케다
원안
격납고
결번
열화
##비어
대장간
왼발
난데
놀러
엄하
클리프
다람쥐
로데
치어리
통통
##뚜기
은근슬쩍
고딕
뒤떨어지
매혹
윤석민
사들이
악재
need
스콜피온
NASA
##더미
맥도날드
##노부
USS
비화
자습
격변
야권
어정
잘나
스트롱
Home
들이닥치
관례
미우라
##샤바
정신병
신야
잭스
반년
전면전
IBM
##틀린
로아
요요
최승
트란
판례
횃불
##thing
제이미
클라이맥스
를르슈
리저
이연
스탠리
조련
이라든지
꼼꼼
특례
코니
##ement
햄튼
##더리
510
알렌
위너스
정액
분단
불륜
그레이스
특별자치
특별자치시
나돌
심해
안방
유품
##리역
명절
외할
##ta
3500
개머리판
##배기
황녀
##onna
나니
변칙
실기
후추
내신
메기
변속
희소
결속
바카
대덕
스에
Story
대항해
PG
비지
피통
##태인
한없이
설날
노리코
눈여
##34
복판
이불
동일본
그릴
640
곡물
언뜻
스트링
노련
료코
사념
총체
인디애나
Dest
앙쥬
응우옌
컨버
알렉산드르
컨트리
태반
하키
##HN
딱지
옐로우
전시회
고라
난도
them
한테서
연장선
남코
색소
끌어안
우치하
사루
Pa
손대
유네스
재탕
디스코
세카
에비
최준
##욕장
니콜라이
Orig
GC
SB
기색
명계
빗대
홍차
##일랜드
##une
프리랜서
국외
다의
밀수
풀어내
단수
하네
레이브
레드삭스
캘리포니아주
##위원회
왕세자
딜런
마네
코피
일제히
체코슬로
##ANCED
체코슬로바키아
견주
타타
페라
##글라
기껏해야
##바탕
##ways
로밍
야가미
##ML
하루히
이윤열
프랑켄슈타인
랠리
수렵
시영
원군
앞머리
컷인
항만
##조사
305
##ider
조나단
외상
##사무소
325
클레오
디나
독주
잔치
Pla
산산조각
버트
쓸리
##티모어
불명예
가닥
초밥
##rough
##ano
마니아
SUV
Bro
이다
르블랑
흑발
히로미
모국
엽기
유린
편차
##란다
다르크
김건
메사
와해
ma
레테
히데키
리얼리티
분담
직렬
her
훌쩍
사이키
굴림
성자
파피
WORLD
Zero
강좌
장이
발자국
Ry
내던지
몰아가
##ait
웅장
##게일
서초구
깨뜨리
폐교
셰퍼드
속죄
실비아
##출력
길가
오소
친숙
조병
사일런트
제각각
내치
협업
이케다
##hammer
스캇
마음먹
이리야
비문
신재
##자락
GOT
영정
라오스
안즈
##뉴얼
납부
이부키
장영
##구르
고프
백악
엘사
위축
카스티
신영
Japan
KC
부포
오레
##투사
다이애나
슬라브
꼬맹이
우니
자하
##UG
##브로
근친
미야코
러프
양조
##bal
##드르
Young
수프
희한
내려치
;,
액스
##진구
##게이트
선호도
낙태
고압
국문
동떨어지
러시아인
ADVANCED
얼른
에인
동향
벽화
야오
옹립
효고
##eter
연막탄
분하
종업
등록금
족족
카롤
포박
불어넣
무궁화호
Kill
팔아먹
피셔
홍련
공격진
Storm
쿠즈
통솔력
칼데아
포세이
파이팅
포세이돈
봉투
왓슨
읽히
다던
정변
밀리터리
##세요
들이받
LOL
##카타
!!!
표지판
##입구역
##위성
교포
리차
이사벨
수기
심볼
##드릭
안영
푸딩
##ANG
인대
권력자
헤비급
기조
케일
황룡
이모티콘
모란
아라이
자궁
은둔
카나코
살포
고비
도하
우한
토성
##self
코퍼레이션
마즈
첩자
급수
몰려들
뫼비우스
일회
장발
한라
황산
##신문
사이타마
##코르
볼프강
김우
클러스터
병풍
폭죽
프로페
1896
로디
요나
##ands
쇼우
역마
조라
글로브
필리프
프롬
##DER
상디
클로드
번쩍
로건
위계
포도주
노우
잠자리
클래시
상병
덴마
수모
현저히
간수
육아
핑거
치료제
ATP
##und
피츠버그
Stri
목격자
치우치
대방
동강
철구
피지
##경민
##arm
아스가르드
이재명
PERF
자초
TC
she
람보
모색
봉화
##iful
이브스
유가족
ph
신예
EL
Jo
Gun
여객기
밀짚
굶주리
더욱더
Fight
고쿠
뒤엎
초신
##놀드
재킷
다는데
Dead
피스톨
유대교
각주
이데
##Pa
달랑
에지
-!
가뭄
못생기
##ene
243
행정동
금빛
김홍
앞당기
##light
셀렉
쿠루미
Wanna
사옥
##elie
중앙일보
공용어
정근우
볼티모어
블랑
양천
포터블
기폭
보위
공의회
호루스
주저앉
줄리엣
떠넘기
625
가희
중남
중앙아시아
##ection
물어뜯
동호회
고척
노무라
에볼루션
##jo
감명
비닐
괴짜
승선
어류
오줌
평시
LCS
리디
섬머
쫒아
프록
헬싱
##oup
##osh
560
하야시
NATO
소굴
청각
##TER
마츠다
징수
DL
파나마
엑스칼리버
터빈
##덴티티
아이덴티티
##ral
마성
반신
묵묵
노화
땅굴
Apple
Line
발랄
생소
Lee
차오
##환경
강민호
붕어
침범
포츈
갈망
괴로워하
간담
