[PAD]	0
[UNK]	0
[BOS]	0
[EOS]	0
[CLS]	0
[SEP]	0
[MASK]	0
▁▃	-0
▁ㅇ	-1
▁ㅇㅡ	-2
▁하	-3
ㄷㅏ	-4
▁.	-5
▁ㅇㅔ	-6
▁ㄱ	-7
▁이	-8
▁ㅇㅡㄹ	-9
ㅡㄴ	-10
ㄴㅡㄴ	-11
▁ㄷㅏ	-12
▁ㅇㅢ	-13
▁ㄴㅡㄴ	-14
▁ᆫ	-15
▁ㄹ	-16
▁,	-17
▁ㅇㅓ	-18
▁ㅇㅏ	-19
▁ㅇㅡㄴ	-20
▁1	-21
ㅅㅓ	-22
ㅡㄹ	-23
▁되	-24
▁ㅇㅣ	-25
▁ㄹㅡㄹ	-26
▁ㅇㅓㅆ	-27
▁ㄱㅗ	-28
▁년	-29
▁ㅇㅡㄹㅗ	-30
▁ㅇㅔㅅㅓ	-31
▁2	-32
▁있	-33
▁ㅇㅏㅆ	-34
▁대	-35
▁ㄹㅗ	-36
▁ㄱㅏ	-37
▁사	-38
▁지	-39
▁그	-40
ㅁㅕ	-41
▁일	-42
▁시	-43
▁ㄷ	-44
▁ㅇㅕ	-45
▁ᆫㄷㅏ	-46
▁들	-47
▁ㄱㅘ	-48
▁수	-49
▁가	-50
▁기	-51
▁전	-52
ㅈㅣ	-53
▁적	-54
▁아	-55
▁20	-56
▁ㅇㅘ	-57
▁ㄷㅗ	-58
▁월	-59
▁주	-60
▁제	-61
▁ㅁㅕ	-62
▁19	-63
▁다	-64
▁ᆯ	-65
▁정	-66
▁자	-67
▁중	-68
▁위	-69
▁인	-70
▁ㅇㅕㅆ	-71
▁공	-72
▁보	-73
▁세	-74
▁경	-75
▁것	-76
▁ㅈㅣ	-77
▁개	-78
▁부	-79
▁ㄹㅏ	-80
▁ㄱㅣ	-81
▁오	-82
▁유	-83
▁3	-84
▁"	-85
▁조	-86
▁나	-87
▁등	-88
▁ㄱㅔ	-89
▁스	-90
▁선	-91
▁성	-92
▁미	-93
▁동	-94
▁연	-95
▁마	-96
▁상	-97
▁소	-98
▁모	-99
▁한	-100
▁고	-101
▁비	-102
▁ㅇㅡㅁㅕ	-103
▁영	-104
▁의	-105
▁구	-106
▁국	-107
▁도	-108
ㄱㅗ	-109
▁발	-110
▁여	-111
▁서	-112
▁201	-113
▁'	-114
ㅁㅏ	-115
ㅓㄴ	-116
▁4	-117
▁후	-118
▁관	-119
▁명	-120
ㅁㅏㄴ	-121
▁신	-122
▁만	-123
▁프	-124
▁5	-125
▁때	-126
▁ㅁㅕㄴ	-127
▁200	-128
▁장	-129
▁-	-130
▁방	-131
▁ㄷㅓㄴ	-132
▁바	-133
▁교	-134
▁리	-135
▁해	-136
▁문	-137
▁역	-138
▁내	-139
▁차	-140
ㅌㅓ	-141
ㅂㅜ	-142
ㅂㅜㅌㅓ	-143
▁당	-144
▁무	-145
▁우	-146
▁원	-147
▁통	-148
▁계	-149
▁현	-150
▁남	-151
▁군	-152
▁노	-153
▁포	-154
▁분	-155
▁어	-156
▁6	-157
▁또	-158
▁화	-159
▁않	-160
▁거	-161
ㄲㅏ	-162
▁학	-163
▁생	-164
▁ㄲㅏ	-165
▁작	-166
▁ㄲㅏㅈㅣ	-167
▁같	-168
▁결	-169
▁강	-170
▁출	-171
ㄱㅔ	-172
▁파	-173
▁ㅇㅔㄱㅔ	-174
▁받	-175
▁대하	-176
▁진	-177
▁크	-178
▁단	-179
▁7	-180
▁번	-181
▁최	-182
▁반	-183
▁10	-184
▁불	-185
▁8	-186
▁알	-187
▁데	-188
▁위하	-189
▁호	-190
▁두	-191
▁회	-192
▁배	-193
▁ㅈㅣㅁㅏㄴ	-194
▁안	-195
▁카	-196
▁실	-197
▁형	-198
▁초	-199
▁말	-200
ㄴㅏ	-201
▁따	-202
▁예	-203
▁에	-204
▁재	-205
▁ㅂㅜㅌㅓ	-206
▁없	-207
▁로	-208
▁타	-209
ㄷㅔ	-210
▁사용	-211
▁9	-212
▁미국	-213
▁종	-214
▁ㄹㅏㄱㅗ	-215
▁라	-216
▁이후	-217
▁ㄹㅏㄴㅡㄴ	-218
▁요	-219
▁함	-220
▁설	-221
▁과	-222
ㅈㅏ	-223
▁특	-224
▁ㅁㅕㄴㅅㅓ	-225
▁일본	-226
▁코	-227
▁ㄴㅡㄴㄷㅔ	-228
▁산	-229
▁운	-230
▁권	-231
▁감	-232
▁독	-233
▁레	-234
▁활	-235
▁추	-236
▁베	-237
▁행	-238
▁ㅈㅏ	-239
▁왕	-240
▁피	-241
민국	-242
▁김	-243
▁그리	-244
▁지역	-245
▁음	-246
▁더	-247
▁양	-248
▁대한	-249
▁199	-250
▁ㅇㅡㄴㅏ	-251
▁매	-252
▁다음	-253
▁민	-254
▁평	-255
▁태	-256
▁많	-257
▁입	-258
▁12	-259
▁따르	-260
▁건	-261
▁대한민국	-262
▁참	-263
▁간	-264
▁18	-265
▁및	-266
▁경기	-267
▁승	-268
▁가지	-269
▁열	-270
▁ㄷㅏㄱㅗ	-271
▁목	-272
▁대학	-273
▁다른	-274
▁;	-275
▁의하	-276
리아	-277
00	-278
▁프로	-279
▁드	-280
▁총	-281
▁속	-282
▁ㅁㅏㄴ	-283
스트	-284
▁북	-285
or	-286
▁S	-287
▁집	-288
▁법	-289
▁11	-290
▁때문	-291
▁시작	-292
▁트	-293
▁체	-294
▁각	-295
▁물	-296
▁외	-297
▁달	-298
▁변	-299
▁천	-300
▁시키	-301
▁메	-302
▁임	-303
▁직	-304
▁표	-305
▁올	-306
▁처	-307
▁ᄆ	-308
▁토	-309
▁그러	-310
▁본	-311
▁사람	-312
▁&	-313
▁점	-314
▁쓰	-315
▁저	-316
▁함께	-317
▁A	-318
▁또한	-319
어지	-320
▁팀	-321
▁박	-322
어나	-323
▁치	-324
▁투	-325
▁선수	-326
▁청	-327
▁한국	-328
▁항	-329
▁ㅇㅏㅅㅓ	-330
▁브	-331
▁)	-332
▁세계	-333
▁사이	-334
▁영화	-335
▁버	-336
▁광	-337
▁새	-338
▁자신	-339
▁약	-340
la	-341
▁C	-342
▁게	-343
▁M	-344
▁경우	-345
▁통하	-346
▁용	-347
▁판	-348
▁ㄴㅏ	-349
▁f	-350
▁디	-351
▁T	-352
▁축	-353
▁현재	-354
▁기록	-355
▁F	-356
▁복	-357
▁하나	-358
▁야	-359
▁국가	-360
▁아니	-361
시아	-362
▁존	-363
▁네	-364
▁이름	-365
▁198	-366
▁ㄷㅏㄴㅡㄴ	-367
▁편	-368
▁당시	-369
▁가장	-370
▁확	-371
▁삼	-372
▁위치	-373
▁_	-374
▁보이	-375
▁활동	-376
▁조선	-377
▁학교	-378
▁뒤	-379
▁철	-380
▁만들	-381
주의	-382
▁리그	-383
▁그러나	-384
▁필	-385
▁(	-386
▁15	-387
▁ㅇㅣㄴㅏ	-388
▁살	-389
▁ㄴ	-390
▁금	-391
▁for	-392
▁페	-393
▁증	-394
▁합	-395
▁째	-396
▁루	-397
mu	-398
▁플	-399
▁백	-400
▁테	-401
▁심	-402
▁창	-403
mula	-404
▁애	-405
▁언	-406
▁formula	-407
ㄱㅏ	-408
▁식	-409
▁16	-410
▁대표	-411
레이	-412
▁연구	-413
▁병	-414
▁못	-415
▁근	-416
▁또는	-417
▁프랑	-418
▁그리고	-419
▁/	-420
▁황	-421
▁사회	-422
▁돌	-423
▁m	-424
▁규	-425
▁0	-426
▁D	-427
▁충	-428
▁17	-429
▁시즌	-430
▁패	-431
▁ㅇㅓㅅㅓ	-432
▁순	-433
▁첫	-434
▁]	-435
▁[	-436
ㅇㅑ	-437
▁197	-438
▁B	-439
▁완	-440
▁히	-441
랜드	-442
▁이루	-443
▁못하	-444
▁높	-445
▁다시	-446
▁중국	-447
▁알리	-448
▁협	-449
▁길	-450
▁서울	-451
▁클	-452
▁정부	-453
▁프랑스	-454
▁ㅂ	-455
학교	-456
▁영국	-457
▁K	-458
▁채	-459
▁I	-460
▁:	-461
▁시대	-462
▁ㄴㅡㄴㄷㅏ	-463
▁키	-464
▁도시	-465
▁k	-466
▁포함	-467
▁여러	-468
▁뜻	-469
▁196	-470
▁은	-471
▁전쟁	-472
▁14	-473
▁아이	-474
▁독일	-475
ㄹㅗ	-476
▁ㄹㅗㅅㅓ	-477
▁면	-478
▁죽	-479
er	-480
▁문화	-481
▁대회	-482
▁~	-483
▁g	-484
▁취	-485
▁배우	-486
▁13	-487
▁축구	-488
▁위원	-489
▁별	-490
▁허	-491
▁가능	-492
▁모두	-493
▁P	-494
▁ㅅㅓ	-495
▁ㄷㅏㄱㅏ	-496
▁동안	-497
▁뉴	-498
in	-499
▁ㅂㅗ	-500
▁모든	-501
▁ㅂㅗㄷㅏ	-502
▁이상	-503
▁친	-504
▁손	-505
▁곡	-506
▁감독	-507
▁정치	-508
▁194	-509
▁환	-510
▁일부	-511
▁방송	-512
▁l	-513
▁석	-514
▁문제	-515
▁처음	-516
▁대학교	-517
▁개발	-518
▁지방	-519
▁L	-520
▁제작	-521
▁%	-522
▁구성	-523
▁검	-524
▁캐	-525
▁인하	-526
▁국제	-527
▁러	-528
▁농	-529
라이	-530
▁터	-531
▁사건	-532
▁골	-533
▁니	-534
▁세기	-535
▁끝	-536
▁시간	-537
▁논	-538
▁이용	-539
▁일반	-540
▁씨	-541
▁부르	-542
▁존재	-543
▁ㄱㅓㄴ	-544
▁향	-545
▁G	-546
▁작품	-547
▁게임	-548
▁밀	-549
▁날	-550
▁정도	-551
▁운동	-552
▁폭	-553
▁주장	-554
▁급	-555
▁역사	-556
▁gt	-557
▁나오	-558
ㄹㅗㄱ	-559
▁곳	-560
▁N	-561
▁관계	-562
▁즉	-563
▁앞	-564
▁ㅅ	-565
▁섬	-566
니아	-567
▁인구	-568
▁티	-569
on	-570
▁효	-571
▁195	-572
▁교육	-573
▁음악	-574
▁km	-575
▁접	-576
▁ㄱㅓㄴㅏ	-577
▁나타	-578
▁중심	-579
▁ㄹㅕ	-580
▁lt	-581
▁육	-582
▁이러	-583
▁맡	-584
리스	-585
▁U	-586
▁극	-587
▁귀	-588
▁30	-589
▁쿠	-590
▁R	-591
▁절	-592
▁맞	-593
▁선거	-594
▁경제	-595
▁블	-596
부분	-597
▁발견	-598
통령	-599
▁전투	-600
▁민주	-601
▁담	-602
▁H	-603
화국	-604
▁봉	-605
▁ㄷㅗㄹㅗㄱ	-606
▁발표	-607
▁글	-608
▁갖	-609
▁홍	-610
▁E	-611
▁측	-612
▁기술	-613
▁누	-614
▁올림	-615
▁막	-616
▁암	-617
▁아들	-618
이스	-619
▁책	-620
▁우승	-621
▁ㄹㅗㅂㅜㅌㅓ	-622
▁2010	-623
▁공격	-624
▁엔	-625
▁대통령	-626
▁들어	-627
▁대부분	-628
▁잘	-629
▁영향	-630
▁사망	-631
▁올림픽	-632
an	-633
▁걸	-634
▁케	-635
▁ㅇㅡㅁ	-636
▁질	-637
▁결과	-638
▁헤	-639
000	-640
▁불리	-641
▁여기	-642
▁밝	-643
▁슈	-644
▁열리	-645
▁송	-646
▁새롭	-647
▁라이	-648
▁지원	-649
▁앨	-650
▁프로그	-651
리카	-652
▁193	-653
▁과정	-654
▁잡	-655
▁발생	-656
▁의미	-657
▁관련	-658
▁참여	-659
▁중앙	-660
▁유럽	-661
▁업	-662
▁진행	-663
▁최초	-664
▁c	-665
▁머	-666
란드	-667
▁얻	-668
▁범	-669
20	-670
▁준	-671
▁25	-672
▁고등	-673
▁부분	-674
ㅆㅓ	-675
▁독립	-676
▁특히	-677
▁자유	-678
ㅓㄹ	-679
▁태어나	-680
▁결정	-681
지만	-682
▁제국	-683
▁세우	-684
▁구조	-685
▁다양	-686
▁설립	-687
▁팔	-688
▁당하	-689
▁설치	-690
▁속하	-691
버지	-692
▁초등	-693
▁형태	-694
▁폐	-695
나라	-696
▁발매	-697
▁상태	-698
▁ᆫㄷㅏㄴㅡㄴ	-699
ㅁㅕㄴ	-700
▁악	-701
▁탄	-702
▁탈	-703
▁W	-704
▁벌	-705
▁소속	-706
▁온	-707
▁좌	-708
▁러시아	-709
▁2008	-710
▁이전	-711
▁사실	-712
▁하지만	-713
▁좋	-714
▁침	-715
▁21	-716
▁그녀	-717
▁일어나	-718
우스	-719
▁센	-720
▁줄	-721
▁스타	-722
▁르	-723
▁커	-724
디오	-725
▁같이	-726
▁로마	-727
▁ㅇㅡㄹㅗㅅㅓ	-728
▁폴	-729
▁이것	-730
▁여성	-731
▁인민	-732
▁주로	-733
▁프로그램	-734
▁나라	-735
▁타이	-736
▁생각	-737
▁ㅇㅏㅇㅑ	-738
▁필요	-739
▁갈	-740
▁2012	-741
▁2011	-742
▁출신	-743
▁혼	-744
▁싱	-745
▁참가	-746
▁이탈	-747
▁관리	-748
▁조직	-749
▁기준	-750
▁100	-751
▁보내	-752
▁운영	-753
▁위원회	-754
en	-755
▁2009	-756
▁오르	-757
▁중요	-758
▁여자	-759
▁윤	-760
▁생산	-761
▁2007	-762
▁계획	-763
▁기관	-764
▁2014	-765
▁t	-766
▁행정	-767
▁등장	-768
▁상대	-769
▁정보	-770
▁이르	-771
▁음반	-772
▁계속	-773
▁성공	-774
▁바이	-775
▁지정	-776
▁데이	-777
▁a	-778
▁매우	-779
▁지나	-780
▁국민	-781
▁콘	-782
▁데뷔	-783
▁넘	-784
▁2013	-785
▁해당	-786
▁O	-787
▁밝히	-788
he	-789
▁레이	-790
▁철도	-791
▁아버지	-792
▁과학	-793
ㄷㅗ	-794
▁칼	-795
스터	-796
▁고려	-797
▁대전	-798
▁이탈리아	-799
리즈	-800
▁발전	-801
▁몇	-802
▁주요	-803
프트	-804
▁자리	-805
▁사업	-806
▁191	-807
▁시스	-808
ㅓㄹㅓ	-809
▁묘	-810
▁ㅊ	-811
▁찾	-812
▁와	-813
▁23	-814
▁24	-815
▁지내	-816
ㅡㄹㅗ	-817
▁000	-818
▁억	-819
▁차지	-820
ar	-821
▁방법	-822
▁2015	-823
ㅓㄹㅓㅁ	-824
▁ㅊㅓㄹㅓㅁ	-825
남도	-826
▁2018	-827
▁헌	-828
라마	-829
▁월드	-830
▁앨범	-831
▁얼	-832
▁2016	-833
▁능	-834
레스	-835
▁최고	-836
▁그룹	-837
▁쇼	-838
▁돌아	-839
▁인도	-840
▁빌	-841
▁결국	-842
▁후보	-843
▁마이	-844
▁아래	-845
▁출연	-846
르크	-847
▁관하	-848
▁시리즈	-849
이션	-850
▁엘	-851
▁J	-852
▁전체	-853
▁생활	-854
es	-855
▁떨	-856
▁고등학교	-857
▁22	-858
▁빠	-859
▁이루어지	-860
▁회사	-861
▁한편	-862
▁2006	-863
▁이유	-864
이트	-865
▁우리	-866
▁내용	-867
▁그리스	-868
FA	-869
▁192	-870
▁ᆫㄷㅏㄱㅗ	-871
▁거치	-872
▁격	-873
비아	-874
▁나가	-875
▁층	-876
▁제공	-877
▁연합	-878
▁스페	-879
▁풍	-880
▁방식	-881
▁힘	-882
▁인간	-883
▁의원	-884
▁2017	-885
▁공식	-886
운데	-887
▁많이	-888
▁인터	-889
▁항공	-890
▁시기	-891
▁컴	-892
▁역할	-893
▁희	-894
▁몸	-895
▁잠	-896
▁가운데	-897
▁드라마	-898
▁군사	-899
▁조사	-900
▁시스템	-901
▁초기	-902
▁워	-903
▁출전	-904
▁유명	-905
▁거의	-906
▁ㄹㅏㄴ	-907
▁제도	-908
▁반대	-909
▁기업	-910
▁민족	-911
▁놓	-912
▁류	-913
▁나타나	-914
▁s	-915
▁ㅇㅡㄹㅗㅆㅓ	-916
▁퍼	-917
▁쓰이	-918
▁지구	-919
▁둘	-920
▁교회	-921
▁푸	-922
▁가리	-923
▁텔	-924
▁색	-925
▁수상	-926
▁떠	-927
▁대신	-928
▁달리	-929
▁유지	-930
비스	-931
▁평가	-932
▁표현	-933
▁울	-934
▁분류	-935
▁ㅇㅡㄹㅗㅂㅜㅌㅓ	-936
▁26	-937
▁몰	-938
ㄹㅏ	-939
▁올리	-940
ㄴㅣ	-941
▁대상	-942
▁홈	-943
▁!	-944
▁특별	-945
▁동시	-946
▁녹	-947
▁언어	-948
▁기능	-949
▁현대	-950
▁규모	-951
at	-952
▁공개	-953
▁프리	-954
▁응	-955
▁모습	-956
▁마지	-957
▁28	-958
▁ㅇㅑ	-959
▁이미	-960
▁자연	-961
▁노동	-962
▁졸	-963
▁각각	-964
▁연결	-965
▁웨	-966
야기	-967
▁개인	-968
▁승리	-969
▁ㅇㅓㅇㅑ	-970
▁들어가	-971
▁27	-972
▁이론	-973
▁전하	-974
▁2019	-975
▁뛰	-976
▁인정	-977
▁붙	-978
▁단체	-979
▁지도	-980
▁진출	-981
▁ㅅㅣ	-982
▁브라	-983
북도	-984
▁임명	-985
▁핵	-986
▁마지막	-987
▁2005	-988
▁V	-989
▁떨어지	-990
▁2000	-991
▁시장	-992
▁목적	-993
머니	-994
▁수도	-995
▁시절	-996
▁아르	-997
▁전문	-998
▁메이	-999
▁상황	-1000
▁정의	-1001
▁경상	-1002
▁정책	-1003
▁멀	-1004
▁난	-1005
▁눈	-1006
▁너	-1007
▁기간	-1008
▁목록	-1009
▁족	-1010
▁직접	-1011
▁산업	-1012
ic	-1013
▁이야기	-1014
▁먹	-1015
▁서로	-1016
al	-1017
스크	-1018
▁압	-1019
▁혁	-1020
▁야구	-1021
▁계약	-1022
▁오스트	-1023
▁밴	-1024
▁기원	-1025
▁슬	-1026
▁추가	-1027
▁건설	-1028
BS	-1029
▁공동	-1030
▁ㅁ	-1031
▁모델	-1032
▁2004	-1033
▁ㅇㅡㅁㅕㄴ	-1034
▁콜	-1035
▁개최	-1036
▁샤	-1037
▁FC	-1038
▁건물	-1039
▁플레이	-1040
▁공간	-1041
▁경찰	-1042
▁망	-1043
▁형성	-1044
▁50	-1045
▁활약	-1046
▁결혼	-1047
▁거리	-1048
ㄴㅣㄷㅏ	-1049
▁스페인	-1050
▁자동	-1051
▁부산	-1052
▁그것	-1053
▁31	-1054
▁훈	-1055
▁29	-1056
학자	-1057
▁졸업	-1058
▁변화	-1059
▁노래	-1060
▁사상	-1061
▁교수	-1062
▁칸	-1063
▁변경	-1064
▁b	-1065
으키	-1066
▁ㄴㅣ	-1067
▁국회	-1068
▁TV	-1069
▁뿐	-1070
▁인물	-1071
is	-1072
▁나이	-1073
▁마을	-1074
▁완전	-1075
re	-1076
▁공화국	-1077
it	-1078
▁다르	-1079
▁텔레	-1080
▁궁	-1081
▁벨	-1082
▁비롯	-1083
▁190	-1084
▁사랑	-1085
▁흐	-1086
▁노선	-1087
▁낮	-1088
▁역시	-1089
▁인민공	-1090
▁휴	-1091
▁인민공화국	-1092
비전	-1093
▁2020	-1094
▁느	-1095
▁학생	-1096
▁ㅏ	-1097
▁중학교	-1098
▁지지	-1099
ou	-1100
▁맥	-1101
▁실제	-1102
▁보통	-1103
▁최대	-1104
▁만나	-1105
이드	-1106
▁서비스	-1107
▁요구	-1108
▁볼	-1109
▁따라	-1110
▁지금	-1111
▁견	-1112
▁잉	-1113
▁탑	-1114
대로	-1115
▁보호	-1116
▁전국	-1117
프리카	-1118
▁싸	-1119
▁일으키	-1120
▁소설	-1121
▁의회	-1122
▁ㄱㅔㅆ	-1123
▁우주	-1124
▁중화	-1125
▁딸	-1126
▁겸	-1127
▁실시	-1128
▁없이	-1129
▁지하	-1130
▁기본	-1131
▁혹	-1132
▁황제	-1133
▁자기	-1134
역시	-1135
▁판매	-1136
▁다이	-1137
운드	-1138
▁가수	-1139
▁전통	-1140
▁싱글	-1141
▁비판	-1142
르트	-1143
▁밴드	-1144
▁높이	-1145
▁원래	-1146
▁옥	-1147
▁차이	-1148
▁기반	-1149
▁엄	-1150
▁ㅁㅏ	-1151
▁떠나	-1152
▁퇴	-1153
▁론	-1154
▁종교	-1155
너지	-1156
▁2002	-1157
▁어떤	-1158
▁세력	-1159
▁경기도	-1160
▁내리	-1161
▁버리	-1162
▁탐	-1163
로스	-1164
▁40	-1165
▁자료	-1166
▁소련	-1167
스탄	-1168
▁이끌	-1169
▁수행	-1170
▁환경	-1171
▁2003	-1172
▁가리키	-1173
▁기타	-1174
▁회의	-1175
▁센터	-1176
▁모양	-1177
▁전기	-1178
▁풀	-1179
▁월드컵	-1180
▁운행	-1181
▁시설	-1182
▁부대	-1183
▁밖	-1184
▁도쿄	-1185
▁전자	-1186
▁나타내	-1187
▁특징	-1188
러스	-1189
▁공연	-1190
▁그래	-1191
나다	-1192
▁걸치	-1193
▁교황	-1194
▁기념	-1195
▁컵	-1196
▁승강	-1197
▁분야	-1198
▁뮤	-1199
▁설명	-1200
▁명칭	-1201
▁예술	-1202
▁이동	-1203
▁기독	-1204
▁통합	-1205
le	-1206
▁텔레비전	-1207
▁작업	-1208
mp	-1209
▁남자	-1210
▁연방	-1211
▁도입	-1212
▁염	-1213
▁동물	-1214
▁득	-1215
▁구역	-1216
▁행동	-1217
▁따라서	-1218
▁선정	-1219
▁숙	-1220
▁전라	-1221
▁애니	-1222
▁바로	-1223
▁군대	-1224
스타	-1225
▁능력	-1226
들이	-1227
▁작용	-1228
▁가족	-1229
▁넓	-1230
▁남쪽	-1231
▁출시	-1232
▁소프트	-1233
▁할	-1234
▁증가	-1235
▁확인	-1236
▁방향	-1237
▁북쪽	-1238
▁기존	-1239
▁지휘	-1240
▁행위	-1241
▁제외	-1242
▁문학	-1243
▁=	-1244
▁교통	-1245
▁차량	-1246
▁이때	-1247
▁기독교	-1248
▁옮	-1249
의원	-1250
▁착	-1251
▁작가	-1252
▁비슷	-1253
▁사고	-1254
▁형식	-1255
▁국내	-1256
▁클럽	-1257
▁십	-1258
▁어머니	-1259
▁ㅁㅡㄹㅗ	-1260
▁윌	-1261
▁혁명	-1262
▁강하	-1263
▁도로	-1264
▁작곡	-1265
▁마르	-1266
▁빈	-1267
▁그렇	-1268
▁지배	-1269
▁효과	-1270
▁낙	-1271
▁역임	-1272
▁태양	-1273
▁승강장	-1274
▁몽	-1275
▁캐나다	-1276
▁왕국	-1277
▁유일	-1278
▁거두	-1279
▁컴퓨	-1280
▁FI	-1281
▁과거	-1282
▁열차	-1283
▁옮기	-1284
▁사무	-1285
▁챔	-1286
▁이적	-1287
▁갑	-1288
BC	-1289
▁협회	-1290
▁혹은	-1291
▁남부	-1292
리오	-1293
▁추정	-1294
▁흥	-1295
▁비교	-1296
▁뉴욕	-1297
▁베이	-1298
▁솔	-1299
▁생기	-1300
▁공산	-1301
▁흔	-1302
▁정당	-1303
자리	-1304
▁갖추	-1305
▁담당	-1306
▁이어지	-1307
▁육군	-1308
▁이사	-1309
▁시민	-1310
▁동일	-1311
▁주변	-1312
▁획	-1313
▁런	-1314
▁늘	-1315
▁1990	-1316
▁2001	-1317
▁홀	-1318
▁즈	-1319
▁적용	-1320
▁동쪽	-1321
▁인기	-1322
▁장관	-1323
▁대사	-1324
▁물리	-1325
▁스포	-1326
▁넣	-1327
▁스트	-1328
▁챔피	-1329
▁X	-1330
▁세포	-1331
▁윈	-1332
▁쪽	-1333
▁건축	-1334
▁예정	-1335
▁사단	-1336
▁공사	-1337
▁p	-1338
▁데이터	-1339
▁구간	-1340
▁개념	-1341
▁곧	-1342
▁상당	-1343
▁성장	-1344
▁ᆫㄷㅔ	-1345
▁마음	-1346
▁컴퓨터	-1347
▁조지	-1348
▁오늘	-1349
▁징	-1350
▁차례	-1351
▁크기	-1352
드리	-1353
▁품	-1354
▁서쪽	-1355
▁에너지	-1356
▁189	-1357
▁버스	-1358
▁돈	-1359
▁맨	-1360
▁멤	-1361
▁비하	-1362
▁흑	-1363
▁충청	-1364
▁바르	-1365
▁바꾸	-1366
이지	-1367
▁어리	-1368
▁치르	-1369
▁록	-1370
▁액	-1371
▁칭	-1372
▁작전	-1373
▁땅	-1374
▁자체	-1375
▁민주주의	-1376
▁조건	-1377
▁어느	-1378
▁실패	-1379
▁연기	-1380
▁디자	-1381
ㅓㅆ	-1382
▁잔	-1383
▁반응	-1384
▁율	-1385
▁이런	-1386
▁덕	-1387
▁돌아오	-1388
▁선언	-1389
▁FIFA	-1390
▁이어	-1391
▁d	-1392
▁연주	-1393
▁버전	-1394
▁종류	-1395
▁부족	-1396
▁특정	-1397
▁움	-1398
▁쉽	-1399
▁피해	-1400
▁컨	-1401
▁애니메	-1402
▁페르	-1403
가지	-1404
▁국립	-1405
▁연속	-1406
▁ㅁㅏㄷㅏ	-1407
▁익	-1408
▁방영	-1409
카이	-1410
▁쌍	-1411
▁대체	-1412
▁선택	-1413
el	-1414
▁공항	-1415
▁규정	-1416
▁해군	-1417
▁다루	-1418
▁대구	-1419
▁고대	-1420
거리	-1421
et	-1422
라지	-1423
▁내부	-1424
버스	-1425
▁체제	-1426
▁멤버	-1427
▁조약	-1428
▁속도	-1429
▁북부	-1430
▁결승	-1431
▁수록	-1432
루스	-1433
▁기원전	-1434
▁정신	-1435
▁명령	-1436
▁아시아	-1437
▁연대	-1438
▁선출	-1439
▁헌법	-1440
글랜드	-1441
▁애니메이션	-1442
▁ㄴㅡㄴㅈㅣ	-1443
▁쥐	-1444
▁왜	-1445
▁크리스	-1446
▁인천	-1447
▁휘	-1448
▁포르	-1449
▁옛	-1450
▁가치	-1451
▁개혁	-1452
▁단계	-1453
ion	-1454
▁영어	-1455
웨어	-1456
▁최종	-1457
▁물질	-1458
▁친구	-1459
▁자치	-1460
▁달러	-1461
ing	-1462
▁최근	-1463
▁나누	-1464
▁설계	-1465
▁분석	-1466
▁밤	-1467
▁척	-1468
▁가깝	-1469
▁ᆫㅈㅣ	-1470
▁의사	-1471
▁출판	-1472
▁비행	-1473
트남	-1474
▁강화	-1475
▁평균	-1476
시마	-1477
아가	-1478
▁1999	-1479
▁더욱	-1480
▁지명	-1481
▁소비	-1482
▁로스	-1483
▁체계	-1484
▁롭	-1485
널리	-1486
▁술	-1487
ol	-1488
라스	-1489
▁표준	-1490
▁배치	-1491
▁법원	-1492
메리카	-1493
▁1998	-1494
▁잉글랜드	-1495
▁집단	-1496
▁ㄹㅓ	-1497
▁머리	-1498
▁치료	-1499
▁남기	-1500
▁Y	-1501
▁북한	-1502
▁팬	-1503
▁관심	-1504
▁언급	-1505
▁씩	-1506
▁개월	-1507
▁획득	-1508
▁cm	-1509
21	-1510
▁부문	-1511
▁o	-1512
▁파이	-1513
▁하이	-1514
▁겨	-1515
▁헬	-1516
▁분리	-1517
▁현상	-1518
▁함수	-1519
▁먼	-1520
▁하계	-1521
▁지속	-1522
▁ㅇㅣㄹㅏ	-1523
▁1980	-1524
▁엔진	-1525
▁유사	-1526
▁부상	-1527
▁공원	-1528
▁실험	-1529
▁파리	-1530
▁맺	-1531
▁조정	-1532
▁벤	-1533
▁60	-1534
▁스테	-1535
스코	-1536
▁처리	-1537
▁스포츠	-1538
▁확장	-1539
▁선발	-1540
▁지니	-1541
▁베르	-1542
리지	-1543
▁마치	-1544
▁대중	-1545
▁제품	-1546
▁입단	-1547
▁관할	-1548
▁35	-1549
▁챔피언	-1550
▁소유	-1551
▁마리	-1552
▁공립	-1553
▁통일	-1554
▁빠르	-1555
▁목표	-1556
▁장군	-1557
▁어렵	-1558
▁도움	-1559
▁시도	-1560
▁요소	-1561
▁이해	-1562
▁재판	-1563
▁자동차	-1564
▁문자	-1565
▁주도	-1566
▁꽃	-1567
디어	-1568
▁요시	-1569
▁에스	-1570
▁향하	-1571
▁정규	-1572
▁mm	-1573
▁나무	-1574
▁외국	-1575
▁점령	-1576
▁거주	-1577
▁ㄱㅗㅈㅏ	-1578
▁후반	-1579
▁구단	-1580
▁주인	-1581
▁기사	-1582
▁편성	-1583
▁바뀌	-1584
▁시험	-1585
▁미치	-1586
▁원자	-1587
▁네덜	-1588
▁네덜란드	-1589
▁주민	-1590
▁학자	-1591
▁괴	-1592
▁잃	-1593
▁n	-1594
▁가르	-1595
▁행사	-1596
▁ㄹㅕㄱㅗ	-1597
광역시	-1598
▁앤	-1599
▁책임	-1600
▁통신	-1601
▁스럽	-1602
▁사령	-1603
▁결합	-1604
▁동맹	-1605
▁일종	-1606
▁안정	-1607
▁혈	-1608
▁끌	-1609
▁투표	-1610
▁웹	-1611
▁고속	-1612
▁수준	-1613
▁알렉	-1614
▁잇	-1615
▁불교	-1616
▁예선	-1617
▁앙	-1618
om	-1619
▁깊	-1620
▁길이	-1621
▁장치	-1622
▁언론	-1623
▁개봉	-1624
▁끝나	-1625
▁모르	-1626
야마	-1627
나무	-1628
▁아프리카	-1629
젝트	-1630
▁불구	-1631
▁1997	-1632
▁디자인	-1633
▁문서	-1634
▁본선	-1635
▁준비	-1636
▁정하	-1637
▁광주	-1638
▁촉	-1639
▁칠	-1640
일랜드	-1641
▁방문	-1642
▁ᄇ	-1643
▁베트남	-1644
▁사진	-1645
▁캠	-1646
▁신문	-1647
▁빛	-1648
▁가문	-1649
▁ㄱㅜ	-1650
▁다니	-1651
▁유전	-1652
▁정권	-1653
메달	-1654
st	-1655
▁가정	-1656
▁정확	-1657
▁구분	-1658
▁폴란드	-1659
▁1996	-1660
▁경험	-1661
▁The	-1662
▁제조	-1663
▁드러	-1664
▁그림	-1665
▁성적	-1666
▁1995	-1667
▁믿	-1668
▁요리	-1669
▁비디오	-1670
▁평화	-1671
▁핀	-1672
▁용어	-1673
▁amp	-1674
▁오늘날	-1675
▁부인	-1676
▁원인	-1677
▁통과	-1678
▁정리	-1679
▁32	-1680
▁부여	-1681
▁70	-1682
▁일제	-1683
▁값	-1684
▁찬	-1685
▁아직	-1686
▁왕조	-1687
▁프로젝트	-1688
특별	-1689
▁아마	-1690
▁ㄷㅏㅁㅕㄴ	-1691
▁추진	-1692
▁런던	-1693
▁ㄹㅕㄴㅡㄴ	-1694
▁병원	-1695
▁덴	-1696
스로	-1697
▁이곳	-1698
▁방어	-1699
▁깨	-1700
ㅇㅓㅆ	-1701
▁은퇴	-1702
▁올라	-1703
▁종합	-1704
▁널리	-1705
▁신라	-1706
▁멸	-1707
스턴	-1708
▁프레	-1709
▁해석	-1710
인트	-1711
▁슈퍼	-1712
▁ㅇㅡㅁㅡㄹㅗ	-1713
▁500	-1714
▁통치	-1715
▁영역	-1716
▁습	-1717
▁경쟁	-1718
▁폐지	-1719
▁끼	-1720
▁이듬	-1721
▁몬	-1722
▁인터넷	-1723
▁입장	-1724
▁민주당	-1725
▁경영	-1726
▁훈련	-1727
▁발달	-1728
웨이	-1729
▁미사	-1730
▁노력	-1731
▁보도	-1732
▁제주	-1733
▁츠	-1734
아들이	-1735
▁파괴	-1736
▁the	-1737
▁총리	-1738
▁제안	-1739
▁죽이	-1740
▁면적	-1741
레일	-1742
▁주제	-1743
am	-1744
▁주연	-1745
▁기여	-1746
▁부정	-1747
▁80	-1748
▁회장	-1749
▁만화	-1750
▁미술	-1751
▁접하	-1752
▁모으	-1753
▁번호	-1754
▁서부	-1755
▁유래	-1756
▁놀	-1757
▁이듬해	-1758
▁그런	-1759
▁지키	-1760
▁완전히	-1761
▁도서	-1762
▁야마	-1763
▁188	-1764
▁국회의원	-1765
▁경기장	-1766
리트	-1767
▁생물	-1768
▁남성	-1769
▁식민	-1770
▁빅	-1771
▁연맹	-1772
▁UE	-1773
▁요청	-1774
▁자주	-1775
라인	-1776
▁경계	-1777
▁동부	-1778
▁정상	-1779
▁궤	-1780
▁투수	-1781
▁법률	-1782
▁+	-1783
▁폰	-1784
▁ㄹㅜ	-1785
▁벌이	-1786
il	-1787
▁1994	-1788
▁행성	-1789
▁1970	-1790
▁ㅅㅡ	-1791
▁나뉘	-1792
▁무기	-1793
▁UEFA	-1794
▁수용	-1795
▁금지	-1796
▁돕	-1797
▁소재	-1798
▁등록	-1799
▁움직	-1800
▁삼성	-1801
▁인식	-1802
톨릭	-1803
▁연구소	-1804
▁제한	-1805
▁펼	-1806
ac	-1807
▁바탕	-1808
▁링	-1809
▁무대	-1810
▁라디오	-1811
▁지진	-1812
▁ㅅㅡㅂ	-1813
▁철학	-1814
▁영토	-1815
머지	-1816
▁꼬	-1817
▁외교	-1818
▁강원	-1819
▁나머지	-1820
▁발사	-1821
▁아시	-1822
▁박물	-1823
▁노르	-1824
▁접근	-1825
▁지대	-1826
▁ㅓ	-1827
▁반면	-1828
▁ᄇㄴㅣㄷㅏ	-1829
▁빠지	-1830
▁KBS	-1831
▁스스로	-1832
▁조각	-1833
▁업무	-1834
▁거부	-1835
▁더불	-1836
▁린	-1837
▁오래	-1838
▁표기	-1839
▁뉴스	-1840
▁뇌	-1841
▁정식	-1842
▁다리	-1843
▁돌아가	-1844
▁마찬	-1845
▁마찬가지	-1846
▁아일랜드	-1847
▁결성	-1848
▁오스	-1849
▁벽	-1850
▁받아들이	-1851
▁서식	-1852
▁필리	-1853
▁붙이	-1854
▁상호	-1855
▁1992	-1856
▁은행	-1857
▁펜	-1858
▁굴	-1859
▁다수	-1860
요일	-1861
▁짧	-1862
▁기초	-1863
▁45	-1864
▁가톨릭	-1865
▁공작	-1866
▁의식	-1867
▁소리	-1868
▁보수	-1869
▁논란	-1870
▁아카	-1871
▁복귀	-1872
▁박사	-1873
임스	-1874
▁주의	-1875
▁ㅕ	-1876
ro	-1877
▁이렇	-1878
▁득점	-1879
▁이기	-1880
▁바다	-1881
▁스웨	-1882
▁임시	-1883
▁성격	-1884
▁트리	-1885
▁수학	-1886
시코	-1887
▁장애	-1888
▁36	-1889
▁실제로	-1890
▁of	-1891
ed	-1892
모토	-1893
▁윌리	-1894
▁지도자	-1895
▁ㄹㅗㅆㅓ	-1896
▁해결	-1897
▁그대로	-1898
▁장소	-1899
▁브라질	-1900
▁초대	-1901
▁총선	-1902
워드	-1903
▁검사	-1904
▁박물관	-1905
▁에이	-1906
▁마이크	-1907
▁유로	-1908
▁이스	-1909
▁스위	-1910
▁패배	-1911
▁긴	-1912
▁여행	-1913
▁느끼	-1914
트리	-1915
▁강력	-1916
▁카드	-1917
▁표시	-1918
▁여름	-1919
▁차원	-1920
▁식물	-1921
▁집합	-1922
▁묘사	-1923
▁화학	-1924
▁오브	-1925
▁기구	-1926
▁ㅅㅡㅂㄴㅣㄷㅏ	-1927
▁제시	-1928
▁1960	-1929
▁계열	-1930
▁관측	-1931
ig	-1932
▁인사	-1933
▁이외	-1934
▁단순	-1935
▁연극	-1936
▁차트	-1937
▁안전	-1938
▁1991	-1939
▁유니	-1940
토리	-1941
▁뛰어나	-1942
▁스웨덴	-1943
▁활용	-1944
로나	-1945
▁권력	-1946
▁무역	-1947
▁곤	-1948
▁멕	-1949
▁디지	-1950
▁파일	-1951
▁회원	-1952
▁꾸	-1953
▁싸우	-1954
▁오스트리아	-1955
▁개국	-1956
▁히로	-1957
부르크	-1958
▁자라	-1959
▁기계	-1960
▁1993	-1961
▁형제	-1962
▁근처	-1963
레일리아	-1964
▁33	-1965
▁먼저	-1966
▁캐릭	-1967
▁취하	-1968
▁보다	-1969
▁반란	-1970
▁조성	-1971
▁지적	-1972
▁아무	-1973
▁소프트웨어	-1974
▁중간	-1975
▁붕	-1976
▁분포	-1977
▁ㅇㅏㄷㅗ	-1978
▁위험	-1979
▁중단	-1980
▁흡	-1981
배우	-1982
베이	-1983
▁세대	-1984
▁발행	-1985
▁일정	-1986
▁시행	-1987
▁도착	-1988
▁량	-1989
트로	-1990
▁기자	-1991
▁스코	-1992
▁스튜	-1993
▁협력	-1994
▁띠	-1995
특별시	-1996
▁여객	-1997
od	-1998
버트	-1999
▁서울특별시	-2000
▁사이트	-2001
사카	-2002
▁다만	-2003
▁윈도	-2004
▁단어	-2005
▁캐릭터	-2006
▁하루	-2007
주시	-2008
▁해안	-2009
▁지하철	-2010
▁186	-2011
▁죽음	-2012
▁",	-2013
▁렌	-2014
ve	-2015
니스	-2016
▁파견	-2017
워크	-2018
▁수많	-2019
▁들어오	-2020
▁세상	-2021
▁ᆫㄱㅏ	-2022
▁코드	-2023
▁연장	-2024
▁죄	-2025
as	-2026
▁혜	-2027
▁순위	-2028
▁내려	-2029
▁태평	-2030
▁다카	-2031
▁내각	-2032
▁공장	-2033
▁전시	-2034
▁오스트레일리아	-2035
▁투자	-2036
▁본부	-2037
▁경상남도	-2038
▁삶	-2039
▁겪	-2040
나이	-2041
▁후기	-2042
지션	-2043
▁감소	-2044
▁혐	-2045
▁생성	-2046
▁카이	-2047
▁번역	-2048
▁케이	-2049
▁근거	-2050
소년	-2051
▁뮤직	-2052
▁윌리엄	-2053
▁제기	-2054
▁옹	-2055
▁확대	-2056
▁경상북도	-2057
▁ㅇㅣㄹㅏㄱㅗ	-2058
▁네트	-2059
▁귀족	-2060
▁지상	-2061
▁보유	-2062
▁듣	-2063
▁지식	-2064
▁유형	-2065
▁보존	-2066
▁양식	-2067
▁?	-2068
▁균	-2069
▁관광	-2070
▁위기	-2071
무원	-2072
▁1988	-2073
▁구하	-2074
▁동생	-2075
▁멜	-2076
▁달성	-2077
▁상징	-2078
▁숨	-2079
▁187	-2080
▁촬	-2081
▁유대	-2082
▁전략	-2083
▁멕시코	-2084
▁극장	-2085
▁캘	-2086
▁수사	-2087
▁촌	-2088
▁h	-2089
▁원소	-2090
▁당선	-2091
ㅜㄴ	-2092
▁상업	-2093
▁완성	-2094
▁유리	-2095
▁성립	-2096
▁근무	-2097
▁디지털	-2098
▁영상	-2099
▁학위	-2100
▁대응	-2101
▁짓	-2102
▁단위	-2103
▁34	-2104
▁특수	-2105
▁이렇게	-2106
▁계승	-2107
▁체포	-2108
▁촬영	-2109
▁이슬	-2110
티아	-2111
▁옆	-2112
▁님	-2113
▁흐르	-2114
▁발매되	-2115
▁나중	-2116
▁몇몇	-2117
▁수비	-2118
▁식민지	-2119
▁체결	-2120
아내	-2121
▁38	-2122
▁권리	-2123
▁코치	-2124
id	-2125
▁전달	-2126
▁이집	-2127
▁마사	-2128
회사	-2129
▁이집트	-2130
▁ㅇㅗ	-2131
▁싶	-2132
▁알렉산	-2133
가리	-2134
▁생명	-2135
▁듀	-2136
▁벌어지	-2137
▁90	-2138
▁국왕	-2139
가와	-2140
▁종목	-2141
아시아	-2142
▁걸리	-2143
▁ㄷㅐ	-2144
▁맹	-2145
▁낳	-2146
▁시티	-2147
▁아내	-2148
▁판단	-2149
▁미래	-2150
▁직후	-2151
▁승격	-2152
▁톤	-2153
▁헨	-2154
▁타이틀	-2155
▁1989	-2156
▁이주	-2157
▁크로	-2158
▁관찰	-2159
▁주식	-2160
모리	-2161
▁시청	-2162
▁률	-2163
▁측정	-2164
▁펼치	-2165
▁틀	-2166
▁대륙	-2167
▁도서관	-2168
▁개통	-2169
▁미군	-2170
▁2021	-2171
▁소수	-2172
▁맞추	-2173
▁젊	-2174
▁즐	-2175
▁48	-2176
ec	-2177
▁밑	-2178
▁자본	-2179
▁동계	-2180
▁엘리	-2181
▁전환	-2182
▁채널	-2183
us	-2184
▁세르	-2185
▁홍콩	-2186
▁설정	-2187
▁스키	-2188
▁정치인	-2189
▁문화재	-2190
▁라인	-2191
NA	-2192
▁ㄷㅐㄹㅗ	-2193
▁얼마	-2194
▁쌓	-2195
▁개정	-2196
▁특성	-2197
▁새로	-2198
and	-2199
▁포르투	-2200
▁',	-2201
▁납	-2202
▁시위	-2203
▁의견	-2204
▁텍	-2205
▁미사일	-2206
▁신경	-2207
▁종료	-2208
ㅇㅔ	-2209
▁취임	-2210
▁상하	-2211
▁제정	-2212
▁지위	-2213
▁달하	-2214
▁기획	-2215
▁1950	-2216
▁|	-2217
▁300	-2218
▁주어지	-2219
▁후쿠	-2220
▁은하	-2221
▁본관	-2222
▁결승전	-2223
▁천황	-2224
▁사회주의	-2225
▁교체	-2226
▁전차	-2227
▁청년	-2228
▁헝	-2229
디아	-2230
스티	-2231
▁MBC	-2232
▁답	-2233
▁범죄	-2234
▁주인공	-2235
코드	-2236
▁ㅇㅡㅁㅕㄴㅅㅓ	-2237
▁출생	-2238
▁ㅃ	-2239
▁아키	-2240
▁제임스	-2241
▁e	-2242
▁예수	-2243
ad	-2244
▁주목	-2245
▁충돌	-2246
▁셀	-2247
▁해외	-2248
▁빼	-2249
▁ㅃㅜㄴ	-2250
▁소개	-2251
▁수정	-2252
▁계산	-2253
▁전라남도	-2254
▁녹음	-2255
▁장기	-2256
▁춘	-2257
▁ㅇㅏㅆㅇㅓㅆ	-2258
교회	-2259
▁벗	-2260
▁바이러스	-2261
▁비용	-2262
▁스티	-2263
▁1945	-2264
▁개선	-2265
▁음식	-2266
▁즉위	-2267
▁본래	-2268
▁모이	-2269
▁남북	-2270
전히	-2271
▁비밀	-2272
▁소장	-2273
▁자격	-2274
리학	-2275
▁공부	-2276
▁카운	-2277
▁건강	-2278
▁합류	-2279
▁건너	-2280
ent	-2281
▁계기	-2282
▁공급	-2283
▁이래	-2284
▁부모	-2285
▁펠	-2286
▁네트워크	-2287
▁만드	-2288
▁배경	-2289
스카	-2290
▁체육	-2291
▁궤도	-2292
▁에드	-2293
▁제거	-2294
▁시내	-2295
▁인근	-2296
50	-2297
▁털	-2298
▁원정	-2299
▁셰	-2300
▁누구	-2301
▁컬	-2302
▁홈런	-2303
▁각종	-2304
▁ㅏㅆ	-2305
▁오후	-2306
▁거대	-2307
▁작성	-2308
▁물론	-2309
▁감염	-2310
▁명예	-2311
▁공군	-2312
▁신학	-2313
▁자원	-2314
▁입학	-2315
▁집중	-2316
▁왼	-2317
▁가입	-2318
▁읽	-2319
▁국경	-2320
▁피아	-2321
보이	-2322
▁군인	-2323
▁가격	-2324
▁베네	-2325
▁객	-2326
▁전사	-2327
▁천문	-2328
▁성우	-2329
▁병력	-2330
베르	-2331
▁명단	-2332
▁통제	-2333
▁저항	-2334
▁울산	-2335
▁포지션	-2336
▁이슬람	-2337
티나	-2338
▁강조	-2339
▁줄이	-2340
▁아우	-2341
▁농업	-2342
▁신호	-2343
▁찰	-2344
▁측면	-2345
피아	-2346
리포	-2347
▁소송	-2348
▁기후	-2349
▁인수	-2350
▁질량	-2351
▁만약	-2352
▁학문	-2353
▁실행	-2354
▁St	-2355
▁터미	-2356
▁블랙	-2357
▁병사	-2358
▁세이	-2359
▁플로	-2360
▁던	-2361
▁나서	-2362
▁콩	-2363
▁피하	-2364
▁오른	-2365
ot	-2366
▁터키	-2367
도로	-2368
▁태평양	-2369
▁강원도	-2370
▁기회	-2371
니어	-2372
▁너무	-2373
▁겨울	-2374
▁최소	-2375
▁약간	-2376
▁증명	-2377
▁정착	-2378
▁변호	-2379
▁x	-2380
▁비트	-2381
▁엑	-2382
▁이번	-2383
▁잎	-2384
▁광고	-2385
▁미디어	-2386
▁쉬	-2387
▁무장	-2388
동안	-2389
▁노동자	-2390
▁외부	-2391
▁마리아	-2392
un	-2393
▁환자	-2394
▁해방	-2395
▁몽골	-2396
▁37	-2397
ow	-2398
▁쇠	-2399
▁국방	-2400
▁in	-2401
▁편집	-2402
▁터미널	-2403
▁마쓰	-2404
▁제목	-2405
▁사라지	-2406
철도	-2407
▁바라	-2408
▁냉	-2409
▁무렵	-2410
스키	-2411
▁지점	-2412
▁전반	-2413
▁도중	-2414
▁표면	-2415
▁바람	-2416
▁밀도	-2417
▁ㄹㅣ	-2418
▁금융	-2419
▁라운드	-2420
▁마련	-2421
▁혐의	-2422
▁ᆫㄷㅏㅁㅕㄴ	-2423
▁허용	-2424
▁유도	-2425
▁1987	-2426
오카	-2427
▁가스	-2428
▁충분	-2429
▁카르	-2430
▁빨	-2431
소리	-2432
▁그해	-2433
▁재산	-2434
▁힐	-2435
▁학년	-2436
▁루이	-2437
▁여전히	-2438
▁합병	-2439
▁인디	-2440
▁ㅕㅅㅓ	-2441
▁윈도우	-2442
▁래	-2443
▁충청남도	-2444
▁전력	-2445
▁민간	-2446
▁오사카	-2447
▁고전	-2448
▁꼬리	-2449
▁재직	-2450
▁숲	-2451
▁포르투갈	-2452
▁영화배우	-2453
▁양성	-2454
▁전역	-2455
▁가져	-2456
▁뒷	-2457
▁현실	-2458
▁등급	-2459
▁w	-2460
마크	-2461
▁킹	-2462
▁헝가리	-2463
▁41	-2464
▁선수단	-2465
▁령	-2466
▁오리	-2467
드로	-2468
▁붕괴	-2469
▁후지	-2470
▁재정	-2471
▁라이브	-2472
▁계급	-2473
▁행하	-2474
▁51	-2475
▁1986	-2476
▁공주	-2477
▁동료	-2478
▁공공	-2479
▁강제	-2480
ur	-2481
▁보고	-2482
▁1984	-2483
▁이하	-2484
▁적극	-2485
▁엔터	-2486
▁위원장	-2487
▁캘리포	-2488
▁스튜디오	-2489
▁ㄷㅡ	-2490
▁승인	-2491
▁봄	-2492
▁위협	-2493
▁전선	-2494
▁대대	-2495
▁군주	-2496
▁조치	-2497
▁대수	-2498
▁근대	-2499
▁구축	-2500
▁온도	-2501
▁롤	-2502
▁샌	-2503
▁수입	-2504
▁범위	-2505
▁유엔	-2506
▁업체	-2507
▁둥	-2508
▁임무	-2509
▁이제	-2510
▁꿈	-2511
▁이미지	-2512
▁점차	-2513
▁클라	-2514
▁논문	-2515
▁출발	-2516
▁캘리포니아	-2517
▁위성	-2518
▁경력	-2519
▁교사	-2520
▁양자	-2521
▁대학원	-2522
▁고구	-2523
▁원칙	-2524
▁공산당	-2525
▁다섯	-2526
▁항상	-2527
▁전개	-2528
▁거래	-2529
▁핀란드	-2530
▁확보	-2531
▁채택	-2532
▁성인	-2533
▁토론	-2534
▁수단	-2535
러지	-2536
▁잭	-2537
▁회복	-2538
▁필리핀	-2539
▁올라가	-2540
▁공업	-2541
마스	-2542
▁섭	-2543
▁앞서	-2544
▁수립	-2545
▁증거	-2546
▁ㄷㅡㄴ	-2547
▁강의	-2548
▁잡지	-2549
▁아시안	-2550
테르	-2551
ㅇㅛ	-2552
▁드래	-2553
▁남아	-2554
주교	-2555
ch	-2556
▁첨	-2557
▁39	-2558
▁남편	-2559
▁400	-2560
▁개편	-2561
▁매년	-2562
▁얼굴	-2563
▁합의	-2564
▁그래서	-2565
▁스파	-2566
▁기지	-2567
▁만족	-2568
▁선생	-2569
▁일원	-2570
▁의료	-2571
▁사례	-2572
▁어떻	-2573
고리	-2574
바이	-2575
▁시인	-2576
▁폭발	-2577
▁나카	-2578
▁앞두	-2579
▁부근	-2580
▁스위스	-2581
▁이스라	-2582
▁모스크	-2583
▁간주	-2584
▁1985	-2585
▁붉	-2586
▁장비	-2587
▁64	-2588
▁욕	-2589
▁이승	-2590
▁대형	-2591
로드	-2592
▁끊	-2593
▁종종	-2594
▁튀	-2595
▁ㄹㅏㅁㅕ	-2596
데미	-2597
▁아름	-2598
▁대기	-2599
▁군단	-2600
▁토지	-2601
▁둘러	-2602
▁스리	-2603
다리	-2604
▁경주	-2605
▁장면	-2606
▁불가	-2607
ir	-2608
▁아주	-2609
ay	-2610
▁뜨	-2611
▁규칙	-2612
▁이스라엘	-2613
▁분자	-2614
▁종이	-2615
▁경향	-2616
▁항성	-2617
▁어린	-2618
▁움직이	-2619
▁게이	-2620
▁II	-2621
▁ㅏㅅㅓ	-2622
ut	-2623
▁수원	-2624
▁까	-2625
▁기대	-2626
▁낭	-2627
▁조합	-2628
▁캄	-2629
백질	-2630
▁아랍	-2631
키아	-2632
▁해체	-2633
▁귀국	-2634
▁맛	-2635
▁심하	-2636
▁진화	-2637
▁ㅇㅔㄱㅔㅅㅓ	-2638
고기	-2639
▁탑재	-2640
▁확실	-2641
▁저지	-2642
um	-2643
▁그곳	-2644
▁레코드	-2645
▁강점	-2646
레이드	-2647
우드	-2648
▁대장	-2649
▁기억	-2650
▁43	-2651
▁아카데미	-2652
▁서양	-2653
▁향상	-2654
▁br	-2655
▁짐	-2656
▁장식	-2657
▁신화	-2658
▁평양	-2659
어들	-2660
▁아나	-2661
▁스피	-2662
▁좀	-2663
▁클래	-2664
▁투어	-2665
▁고양	-2666
▁아메리카	-2667
im	-2668
▁변하	-2669
▁청소년	-2670
▁침공	-2671
▁란	-2672
▁보장	-2673
▁융	-2674
▁의학	-2675
▁아름답	-2676
▁박쥐	-2677
▁42	-2678
▁청나라	-2679
▁만큼	-2680
요시	-2681
▁폼	-2682
▁고구려	-2683
▁사후	-2684
▁새기	-2685
▁랭	-2686
오스	-2687
▁불과	-2688
▁카운티	-2689
▁남동	-2690
▁선고	-2691
▁보병	-2692
▁메이저	-2693
▁가로	-2694
▁자금	-2695
▁켄	-2696
▁가사	-2697
▁에피	-2698
▁카메	-2699
보드	-2700
네스	-2701
▁성과	-2702
▁잠시	-2703
ver	-2704
▁소년	-2705
▁신설	-2706
▁스타일	-2707
▁감정	-2708
▁나치	-2709
▁이끄	-2710
라비아	-2711
▁독자	-2712
▁1982	-2713
▁고문	-2714
▁단백질	-2715
▁만주	-2716
타인	-2717
▁55	-2718
▁살해	-2719
▁우선	-2720
에르	-2721
▁중화민국	-2722
▁숭	-2723
▁라틴	-2724
▁단지	-2725
▁우수	-2726
▁확정	-2727
무르	-2728
▁편입	-2729
▁합치	-2730
▁ㅂㅏ	-2731
▁스카	-2732
라노	-2733
▁철도역	-2734
틀랜드	-2735
▁함대	-2736
▁신앙	-2737
▁복잡	-2738
▁지시	-2739
네시아	-2740
▁스케	-2741
▁광역시	-2742
▁나폴	-2743
▁비율	-2744
▁차별	-2745
▁의장	-2746
▁삭	-2747
▁예상	-2748
▁덴마크	-2749
▁1983	-2750
▁왕위	-2751
다이	-2752
▁44	-2753
▁i	-2754
▁태풍	-2755
▁세종	-2756
▁재단	-2757
▁마크	-2758
▁창설	-2759
▁구체	-2760
▁온라인	-2761
누스	-2762
일러	-2763
▁법인	-2764
▁LG	-2765
▁고향	-2766
▁전화	-2767
▁검찰	-2768
▁공유	-2769
뜨리	-2770
▁성당	-2771
▁전설	-2772
FC	-2773
▁동의	-2774
▁역대	-2775
▁짜	-2776
▁브리	-2777
▁선거구	-2778
▁참석	-2779
▁대립	-2780
▁반도	-2781
▁보급	-2782
▁솔로	-2783
▁판결	-2784
트라	-2785
▁육상	-2786
▁47	-2787
▁킬	-2788
▁삼국	-2789
▁묻	-2790
▁가하	-2791
ㅓㄹㅏ	-2792
▁브랜드	-2793
▁하늘	-2794
운동	-2795
▁둘러싸	-2796
▁수출	-2797
▁유학	-2798
뿌리	-2799
싱턴	-2800
▁듯	-2801
▁고정	-2802
의회	-2803
▁노예	-2804
▁ㄴㅑ	-2805
이크	-2806
▁저장	-2807
비드	-2808
▁협상	-2809
▁핵심	-2810
▁후손	-2811
▁집행	-2812
▁카를	-2813
▁애플	-2814
▁헤이	-2815
▁본격	-2816
없이	-2817
▁75	-2818
하라	-2819
▁보안	-2820
▁무엇	-2821
▁강점기	-2822
▁180	-2823
▁오픈	-2824
▁산맥	-2825
▁184	-2826
오프	-2827
▁초반	-2828
▁탄생	-2829
▁자세	-2830
▁Z	-2831
▁ㅈ	-2832
▁마드리	-2833
▁회전	-2834
▁대비	-2835
▁중반	-2836
▁대항	-2837
▁사전	-2838
▁암살	-2839
셔널	-2840
반도	-2841
원군	-2842
▁숫	-2843
각형	-2844
▁주교	-2845
▁옷	-2846
▁연고	-2847
▁이성	-2848
문화	-2849
▁로버트	-2850
▁1972	-2851
▁마드리드	-2852
▁아르헨	-2853
▁베이스	-2854
▁법칙	-2855
▁플랫	-2856
▁권한	-2857
▁전혀	-2858
리스트	-2859
▁어린이	-2860
▁켈	-2861
▁프란	-2862
소드	-2863
▁공학	-2864
▁단일	-2865
▁전용	-2866
▁46	-2867
▁이익	-2868
▁사우	-2869
▁순서	-2870
▁의무	-2871
▁1920	-2872
▁공기	-2873
▁말기	-2874
바르	-2875
▁이란	-2876
▁베를	-2877
▁직원	-2878
▁조금	-2879
▁아르헨티나	-2880
▁인상	-2881
레이션	-2882
▁유적	-2883
▁요한	-2884
▁시각	-2885
▁공포	-2886
▁수여	-2887
▁중심지	-2888
▁운전	-2889
CA	-2890
터리	-2891
▁가르치	-2892
▁ㄷㅓㄹㅏ	-2893
▁1979	-2894
▁별도	-2895
▁ㄹㅏㅁㅕㄴ	-2896
▁사항	-2897
▁아스	-2898
▁아미	-2899
▁비난	-2900
▁흔히	-2901
▁모리	-2902
▁덮	-2903
▁보조	-2904
▁스크	-2905
▁잘못	-2906
▁효소	-2907
▁전라북도	-2908
▁원주	-2909
▁상품	-2910
▁워싱턴	-2911
▁밀리	-2912
▁협정	-2913
▁글로	-2914
▁롯	-2915
▁전후	-2916
▁아파	-2917
▁변호사	-2918
▁을	-2919
▁CD	-2920
▁kg	-2921
▁기하	-2922
▁관료	-2923
▁통계	-2924
▁파크	-2925
▁인권	-2926
▁창조	-2927
▁방면	-2928
▁우크	-2929
정부	-2930
퍼드	-2931
▁1930	-2932
▁작곡가	-2933
ra	-2934
▁마시	-2935
▁투입	-2936
▁레드	-2937
▁소식	-2938
▁장착	-2939
▁In	-2940
▁1981	-2941
▁저서	-2942
▁금메달	-2943
▁심각	-2944
▁넘어	-2945
▁셋	-2946
무라	-2947
▁현장	-2948
▁1973	-2949
▁항복	-2950
▁정복	-2951
▁아침	-2952
▁놓이	-2953
▁150	-2954
▁하드	-2955
▁훨	-2956
▁호텔	-2957
▁공무원	-2958
▁벡	-2959
▁엠	-2960
사키	-2961
▁중세	-2962
10	-2963
퍼스	-2964
▁ㄴㄷㅏ	-2965
▁니콜	-2966
▁본인	-2967
▁갈등	-2968
▁헨리	-2969
▁ㄷㅡㅅ	-2970
▁오히	-2971
▁교류	-2972
▁공화	-2973
▁공산주의	-2974
▁건국	-2975
▁물러	-2976
▁오른쪽	-2977
▁교토	-2978
▁노스	-2979
▁훨씬	-2980
▁마이클	-2981
▁어떻게	-2982
os	-2983
▁요새	-2984
▁논의	-2985
겨나	-2986
▁중부	-2987
▁성경	-2988
▁출마	-2989
▁코미	-2990
▁오랜	-2991
▁v	-2992
▁김정	-2993
리어	-2994
▁무리	-2995
▁산하	-2996
▁빙	-2997
▁택	-2998
▁플레이어	-2999
▁뿌리	-3000
▁건조	-3001
▁유전자	-3002
▁한때	-3003
▁세인트	-3004
▁왼쪽	-3005
▁플라	-3006
▁인정받	-3007
▁인류	-3008
▁패하	-3009
▁연합군	-3010
▁오토	-3011
▁형사	-3012
▁추측	-3013
▁ㄹㅏㅇ	-3014
▁창립	-3015
▁서기	-3016
▁방출	-3017
▁금속	-3018
▁로드	-3019
▁1940	-3020
30	-3021
▁베이징	-3022
▁아프	-3023
▁투쟁	-3024
▁성질	-3025
▁원작	-3026
▁예산	-3027
▁주위	-3028
▁드러나	-3029
▁1974	-3030
▁태국	-3031
▁찍	-3032
▁185	-3033
BO	-3034
▁릴	-3035
▁노르웨이	-3036
em	-3037
일보	-3038
▁에피소드	-3039
▁북서	-3040
▁벗어나	-3041
▁에어	-3042
▁복합	-3043
▁제자	-3044
▁탁	-3045
▁군수	-3046
▁사령관	-3047
▁사태	-3048
▁코스	-3049
ter	-3050
▁효율	-3051
▁플레이오프	-3052
▁운용	-3053
▁모스크바	-3054
▁오전	-3055
▁논쟁	-3056
▁멸망	-3057
▁절대	-3058
▁반복	-3059
▁입자	-3060
▁정비	-3061
▁SBS	-3062
▁집안	-3063
▁뽑	-3064
▁구별	-3065
▁전철	-3066
▁제출	-3067
카와	-3068
▁스코틀랜드	-3069
▁노부	-3070
▁해양	-3071
▁가져오	-3072
▁합성	-3073
▁1948	-3074
▁메시	-3075
▁숫자	-3076
▁인종	-3077
▁사법	-3078
▁주기	-3079
▁연산	-3080
▁포위	-3081
▁거절	-3082
▁미니	-3083
▁블루	-3084
▁흡수	-3085
듀서	-3086
▁54	-3087
▁프로듀서	-3088
▁퍼지	-3089
머스	-3090
▁각본	-3091
붙이	-3092
▁중대	-3093
▁오히려	-3094
▁출장	-3095
▁1968	-3096
아오	-3097
▁인조	-3098
▁댄	-3099
▁연관	-3100
▁빌리	-3101
▁원리	-3102
▁델	-3103
▁마침	-3104
▁인공	-3105
▁목사	-3106
▁활발	-3107
▁1976	-3108
▁시점	-3109
▁웨스트	-3110
▁베를린	-3111
▁슬로	-3112
▁수송	-3113
도르	-3114
▁포기	-3115
▁경성	-3116
▁해상	-3117
▁신체	-3118
▁개시	-3119
▁소녀	-3120
▁전공	-3121
▁이민	-3122
▁북동	-3123
▁출입	-3124
▁건립	-3125
▁취급	-3126
▁인터뷰	-3127
▁넘기	-3128
▁주전	-3129
▁ㅂㅏㄲ	-3130
▁ㅂㅏㄲㅇㅔ	-3131
▁보스	-3132
▁우스	-3133
▁1975	-3134
▁즐기	-3135
▁프라	-3136
▁음력	-3137
▁읍	-3138
▁명성	-3139
▁사령부	-3140
▁디스	-3141
▁고용	-3142
▁실리	-3143
▁히데	-3144
데스	-3145
op	-3146
▁국도	-3147
▁던지	-3148
▁축제	-3149
▁동원	-3150
▁파라	-3151
▁취득	-3152
▁트랙	-3153
▁분쟁	-3154
▁활성	-3155
나이티	-3156
▁농민	-3157
▁주택	-3158
▁영화제	-3159
▁ㄹㅏㄷㅗ	-3160
시스	-3161
▁안타	-3162
▁장악	-3163
▁봉하	-3164
▁비록	-3165
▁유나이티	-3166
▁신성	-3167
▁1978	-3168
▁1971	-3169
▁56	-3170
▁구속	-3171
▁총독	-3172
▁갤	-3173
▁국장	-3174
▁미드	-3175
▁ㅇㅓㄷㅗ	-3176
ag	-3177
▁진보	-3178
▁일치	-3179
▁보컬	-3180
▁텐	-3181
▁견해	-3182
▁고유	-3183
▁소스	-3184
▁전부	-3185
▁1963	-3186
서트	-3187
에트	-3188
▁끝내	-3189
▁52	-3190
라크	-3191
산시	-3192
▁북아	-3193
▁불법	-3194
▁유물	-3195
▁직전	-3196
▁부활	-3197
▁49	-3198
▁후원	-3199
▁늘어나	-3200
▁관점	-3201
▁보험	-3202
▁하위	-3203
▁한자	-3204
▁자이	-3205
▁대리	-3206
▁코미디	-3207
▁ㄷㅓㄹㅏㄷㅗ	-3208
▁폭력	-3209
▁65	-3210
▁연료	-3211
▁정체	-3212
키스탄	-3213
▁포도	-3214
▁교차	-3215
▁학습	-3216
▁편지	-3217
비치	-3218
▁주관	-3219
▁도달	-3220
▁혼란	-3221
▁여객철도	-3222
▁타이완	-3223
▁닌	-3224
▁약속	-3225
▁수술	-3226
ce	-3227
▁상당히	-3228
메리	-3229
세이	-3230
▁철수	-3231
▁스미	-3232
▁항공기	-3233
▁아테	-3234
▁1969	-3235
▁관직	-3236
▁시리아	-3237
▁천체	-3238
▁179	-3239
▁Q	-3240
▁누리	-3241
▁반영	-3242
▁여부	-3243
▁한국어	-3244
기에	-3245
▁직업	-3246
▁물러나	-3247
릭스	-3248
▁하나님	-3249
젤레스	-3250
▁고종	-3251
▁선교	-3252
자기	-3253
쿠라	-3254
ㅇㅣ	-3255
▁본사	-3256
▁수집	-3257
▁그리스도	-3258
▁임금	-3259
▁백제	-3260
▁미나	-3261
▁명명	-3262
▁00	-3263
▁모시	-3264
▁장교	-3265
▁브레	-3266
리케	-3267
▁상륙	-3268
▁제어	-3269
▁넷	-3270
▁팝	-3271
▁데이비드	-3272
▁의존	-3273
▁논리	-3274
▁ㄷㅏㅁㅕ	-3275
▁테러	-3276
▁성능	-3277
어스	-3278
▁1946	-3279
▁주간	-3280
▁대화	-3281
▁보관	-3282
▁아사	-3283
▁화물	-3284
▁심리	-3285
▁백작	-3286
▁일대	-3287
▁부임	-3288
▁영업	-3289
▁학술	-3290
▁프리미	-3291
▁톰	-3292
▁폴리	-3293
공항	-3294
OS	-3295
▁콘서트	-3296
▁소방	-3297
▁주식회사	-3298
▁도구	-3299
▁불상	-3300
▁해산	-3301
▁좁	-3302
▁십자	-3303
▁교환	-3304
▁정지	-3305
▁53	-3306
▁전파	-3307
▁개체	-3308
▁연재	-3309
▁프로세	-3310
▁허가	-3311
▁나아가	-3312
▁스마	-3313
▁하우스	-3314
▁전문가	-3315
▁자살	-3316
▁제일	-3317
▁코로나	-3318
▁박정	-3319
미터	-3320
▁김영	-3321
oc	-3322
▁반발	-3323
▁1964	-3324
▁정원	-3325
▁대략	-3326
▁핑	-3327
▁그런데	-3328
▁방사	-3329
▁영향력	-3330
▁간단	-3331
▁판서	-3332
▁니시	-3333
▁충청북도	-3334
▁살인	-3335
▁헤르	-3336
▁거기	-3337
▁진입	-3338
▁고리	-3339
▁화성	-3340
▁상승	-3341
▁보건	-3342
▁먹이	-3343
▁원하	-3344
▁재료	-3345
▁공통	-3346
▁베스트	-3347
▁드리	-3348
▁리스	-3349
병대	-3350
▁학부	-3351
▁미터	-3352
▁소비에트	-3353
▁겐	-3354
▁신분	-3355
▁US	-3356
▁벨기에	-3357
▁항구	-3358
▁포트	-3359
이어	-3360
▁피아노	-3361
▁서버	-3362
▁영입	-3363
▁스프	-3364
▁약하	-3365
▁승진	-3366
▁and	-3367
▁국제공항	-3368
▁사장	-3369
ri	-3370
▁가을	-3371
▁학원	-3372
▁지붕	-3373
▁파트	-3374
▁꼭	-3375
▁인도네시아	-3376
▁부장	-3377
▁58	-3378
▁외국인	-3379
▁그레	-3380
▁진압	-3381
▁기도	-3382
▁학회	-3383
▁99	-3384
▁1000	-3385
▁시호	-3386
노스	-3387
▁ㄹㅔ	-3388
▁질병	-3389
▁루이스	-3390
▁도망	-3391
▁랜	-3392
▁사운드	-3393
▁횡	-3394
▁발언	-3395
▁스토	-3396
▁다스	-3397
▁구성원	-3398
▁브루	-3399
하마	-3400
오르	-3401
▁아라	-3402
▁탈출	-3403
▁현역	-3404
▁콤	-3405
▁창단	-3406
▁누르	-3407
▁머무르	-3408
▁공동체	-3409
▁주년	-3410
▁참전	-3411
▁채용	-3412
▁식품	-3413
▁트랜	-3414
▁계통	-3415
▁복무	-3416
▁닥	-3417
▁그치	-3418
▁변환	-3419
▁리더	-3420
▁한반도	-3421
▁탈락	-3422
▁감사	-3423
▁응용	-3424
▁픽	-3425
▁임대	-3426
▁PC	-3427
▁의도	-3428
▁쫓	-3429
▁통상	-3430
저우	-3431
▁1977	-3432
▁합격	-3433
▁요코	-3434
▁모드	-3435
▁장수	-3436
▁벼	-3437
▁작사	-3438
▁임의	-3439
▁민법	-3440
천군	-3441
▁고도	-3442
다가	-3443
아버지	-3444
▁망명	-3445
▁조작	-3446
▁친일	-3447
▁포로	-3448
▁문헌	-3449
▁신청	-3450
▁위반	-3451
▁말레이	-3452
▁SK	-3453
▁페이	-3454
▁롯데	-3455
▁화면	-3456
▁1949	-3457
▁로스앤	-3458
▁로스앤젤레스	-3459
성군	-3460
▁마케	-3461
▁띄	-3462
▁에도	-3463
▁문장	-3464
▁트라	-3465
▁방송국	-3466
▁부부	-3467
▁라이트	-3468
프리	-3469
▁동남	-3470
▁저작	-3471
▁탄소	-3472
▁학과	-3473
igh	-3474
▁FA	-3475
▁이치	-3476
문화재	-3477
▁ㅋ	-3478
▁트로	-3479
▁변형	-3480
▁배출	-3481
▁88	-3482
▁분열	-3483
▁선조	-3484
▁연출	-3485
▁수영	-3486
▁예측	-3487
▁절차	-3488
▁1962	-3489
▁청구	-3490
▁캠퍼스	-3491
▁상원	-3492
정식	-3493
▁수소	-3494
려움	-3495
▁엑스	-3496
▁자녀	-3497
▁요인	-3498
▁..	-3499
▁시카	-3500
▁메모리	-3501
▁주둔	-3502
▁62	-3503
▁칭하	-3504
ation	-3505
▁조절	-3506
▁코파	-3507
▁신인	-3508
▁레오	-3509
▁1967	-3510
▁전동	-3511
▁이중	-3512
드시	-3513
▁레스	-3514
▁큐	-3515
▁기호	-3516
▁선전	-3517
▁정기	-3518
▁막부	-3519
▁흉	-3520
▁화재	-3521
타르	-3522
▁서원	-3523
▁처형	-3524
카이도	-3525
▁국무	-3526
▁로켓	-3527
▁출간	-3528
▁등지	-3529
▁r	-3530
▁수리	-3531
페라	-3532
▁호수	-3533
크스	-3534
▁이승만	-3535
로그	-3536
천시	-3537
▁57	-3538
▁광장	-3539
▁실수	-3540
▁황금	-3541
▁남서	-3542
▁방지	-3543
▁증상	-3544
▁기법	-3545
▁이시	-3546
▁힘들	-3547
▁동작	-3548
▁어떠	-3549
▁취소	-3550
▁오스만	-3551
▁루트	-3552
▁카메라	-3553
▁왕자	-3554
▁지급	-3555
▁흑인	-3556
▁연안	-3557
▁동성	-3558
▁앵	-3559
▁선보이	-3560
▁생존	-3561
▁You	-3562
▁장르	-3563
▁콘스탄	-3564
라드	-3565
브리	-3566
▁개조	-3567
▁서구	-3568
▁예비	-3569
▁ㄴㅡㄴㄱㅏ	-3570
▁현지	-3571
▁Ch	-3572
▁롱	-3573
포르	-3574
▁히트	-3575
▁위상	-3576
▁늦	-3577
▁고지	-3578
▁좌우	-3579
▁반드시	-3580
▁농구	-3581
▁기체	-3582
▁여단	-3583
아나	-3584
▁희망	-3585
▁전주	-3586
▁임진	-3587
▁고치	-3588
▁진주	-3589
▁천연	-3590
▁공정	-3591
▁제대로	-3592
▁크리	-3593
▁일본군	-3594
▁맞서	-3595
▁무덤	-3596
▁181	-3597
▁터널	-3598
▁톱	-3599
▁노리	-3600
▁동아	-3601
▁도전	-3602
▁전면	-3603
▁분명	-3604
▁싸움	-3605
▁코르	-3606
▁맞이	-3607
▁파악	-3608
방송	-3609
▁ㅇㅡㄹㅕ	-3610
▁둘째	-3611
▁스탠	-3612
▁전형	-3613
▁1966	-3614
▁특이	-3615
▁압력	-3616
nd	-3617
▁묵	-3618
▁이온	-3619
▁%,	-3620
▁녹색	-3621
▁흘	-3622
▁66	-3623
라이언	-3624
▁독특	-3625
▁그레이	-3626
▁글자	-3627
▁미국인	-3628
▁독립운동	-3629
▁경로	-3630
▁리처	-3631
▁바둑	-3632
▁매일	-3633
▁법정	-3634
▁노벨	-3635
▁엄청	-3636
이치	-3637
▁드물	-3638
▁꺾	-3639
▁해리	-3640
▁1965	-3641
▁방정식	-3642
▁돌리	-3643
▁에르	-3644
▁KBO	-3645
▁목소리	-3646
▁68	-3647
▁부사	-3648
▁타임	-3649
▁183	-3650
티브	-3651
▁아리	-3652
▁유기	-3653
▁물체	-3654
▁성향	-3655
▁인지	-3656
더스	-3657
▁신뢰	-3658
▁체코	-3659
▁덧	-3660
▁지리	-3661
▁개신	-3662
▁가시	-3663
▁동기	-3664
▁61	-3665
▁클레	-3666
▁어디	-3667
▁알렉산드	-3668
▁우려	-3669
▁일식	-3670
▁분해	-3671
▁묶	-3672
▁처벌	-3673
▁밥	-3674
치아	-3675
ST	-3676
베스	-3677
에이	-3678
▁간행	-3679
▁일찍	-3680
▁퀸	-3681
▁유행	-3682
▁김일	-3683
▁타격	-3684
르타	-3685
▁찰스	-3686
▁분할	-3687
▁홋	-3688
▁방해	-3689
▁실질	-3690
▁화산	-3691
▁완료	-3692
▁추구	-3693
▁풍부	-3694
▁웅	-3695
▁내전	-3696
▁나들	-3697
바라	-3698
▁사립	-3699
▁손자	-3700
▁범주	-3701
▁나들목	-3702
질랜드	-3703
▁찌	-3704
▁평등	-3705
▁뉴질랜드	-3706
▁순환	-3707
▁아파트	-3708
▁아동	-3709
▁1961	-3710
▁삽	-3711
▁대개	-3712
▁복지	-3713
먼트	-3714
▁별명	-3715
▁희생	-3716
▁갈색	-3717
▁마르크	-3718
▁빼앗	-3719
▁플래	-3720
ER	-3721
▁비평	-3722
▁오프	-3723
▁800	-3724
art	-3725
▁부진	-3726
▁흰	-3727
▁곱	-3728
▁최다	-3729
▁마침내	-3730
▁가까	-3731
▁분기	-3732
ice	-3733
▁리가	-3734
▁시조	-3735
▁집권	-3736
▁파르	-3737
▁가상	-3738
▁600	-3739
▁점점	-3740
▁전원	-3741
▁창원	-3742
▁한정	-3743
▁시드	-3744
▁엄청나	-3745
▁사냥	-3746
▁86	-3747
▁첼	-3748
▁기둥	-3749
▁모형	-3750
▁구현	-3751
ON	-3752
▁대법	-3753
▁한계	-3754
▁판사	-3755
▁120	-3756
▁근본	-3757
▁완공	-3758
▁IS	-3759
▁벡터	-3760
유럽	-3761
▁테이	-3762
▁메리	-3763
다르	-3764
텐츠	-3765
▁훗	-3766
▁바치	-3767
▁부하	-3768
▁중기	-3769
▁명확	-3770
▁ㅇㅡㄴㅣ	-3771
▁웨이	-3772
▁사임	-3773
투스	-3774
▁프린	-3775
▁스토리	-3776
▁의지	-3777
▁충격	-3778
▁확산	-3779
▁일본인	-3780
▁교향	-3781
▁날개	-3782
▁분위	-3783
▁들어서	-3784
est	-3785
▁오페라	-3786
틀러	-3787
▁무게	-3788
피스	-3789
▁사원	-3790
은행	-3791
▁출범	-3792
▁사형	-3793
▁1919	-3794
▁대공	-3795
▁물리학	-3796
▁단독	-3797
ia	-3798
▁사마	-3799
▁re	-3800
▁호주	-3801
▁레인	-3802
▁캔	-3803
▁닛	-3804
디션	-3805
▁마법	-3806
▁명나라	-3807
▁뚜	-3808
▁상위	-3809
▁이자	-3810
▁드러내	-3811
▁가나	-3812
▁통산	-3813
▁알파	-3814
▁제이	-3815
▁적절	-3816
ap	-3817
▁렀	-3818
▁훌	-3819
▁의혹	-3820
▁연구원	-3821
▁98	-3822
TV	-3823
▁편찬	-3824
▁악화	-3825
▁서명	-3826
▁1944	-3827
▁모토	-3828
▁영웅	-3829
▁의심	-3830
▁당초	-3831
▁유치	-3832
▁조종	-3833
▁굽	-3834
세우	-3835
사스	-3836
나가	-3837
▁넓이	-3838
▁인접	-3839
▁무시	-3840
▁문명	-3841
▁키우	-3842
▁발굴	-3843
ak	-3844
라이나	-3845
▁도쿠	-3846
▁인증	-3847
▁회담	-3848
▁포인트	-3849
▁샘	-3850
▁모임	-3851
▁연간	-3852
▁추천	-3853
▁함락	-3854
▁곽	-3855
▁저술	-3856
▁사실상	-3857
▁쏘	-3858
▁생겨나	-3859
사자	-3860
▁자극	-3861
▁광복	-3862
▁각지	-3863
▁카라	-3864
▁접촉	-3865
▁개입	-3866
▁징역	-3867
▁동서	-3868
▁고속도로	-3869
▁기리	-3870
▁득표	-3871
▁프리미어	-3872
▁포항	-3873
▁1941	-3874
▁63	-3875
▁홍보	-3876
아보	-3877
▁독일군	-3878
▁사정	-3879
▁진정	-3880
▁순수	-3881
▁순간	-3882
우리	-3883
▁세르비아	-3884
▁그때	-3885
▁골든	-3886
▁드라이	-3887
연히	-3888
▁95	-3889
▁악기	-3890
▁기온	-3891
AR	-3892
▁멘	-3893
▁기기	-3894
▁올해	-3895
▁루스	-3896
▁개막	-3897
▁탐사	-3898
▁뮤지	-3899
▁오랫	-3900
▁구원	-3901
▁74	-3902
▁여론	-3903
▁학살	-3904
▁공로	-3905
▁DNA	-3906
▁등판	-3907
▁임기	-3908
민주	-3909
숭이	-3910
▁바위	-3911
버그	-3912
▁시카고	-3913
▁59	-3914
▁언제	-3915
▁경전	-3916
▁꼽	-3917
▁성분	-3918
▁178	-3919
▁행렬	-3920
학생	-3921
▁한국인	-3922
믹스	-3923
▁이닝	-3924
▁팽	-3925
▁Lo	-3926
▁변수	-3927
▁락	-3928
▁그라	-3929
▁추산	-3930
무부	-3931
▁수석	-3932
▁실현	-3933
▁앤드	-3934
▁태도	-3935
▁백성	-3936
▁예전	-3937
ct	-3938
▁닉	-3939
일리	-3940
▁공헌	-3941
▁입법	-3942
▁보고서	-3943
대부	-3944
▁네이	-3945
▁자전	-3946
▁확률	-3947
▁훗날	-3948
▁오랫동안	-3949
▁아티	-3950
▁양쪽	-3951
▁스마트	-3952
▁혼합	-3953
▁줄어들	-3954
▁감시	-3955
▁페르시아	-3956
▁춤	-3957
▁심사	-3958
▁튜	-3959
▁1958	-3960
▁프로그래	-3961
▁미쓰	-3962
▁방위	-3963
▁매장	-3964
▁IC	-3965
▁균형	-3966
ul	-3967
▁뱅	-3968
▁특별시	-3969
러리	-3970
리히	-3971
▁1947	-3972
▁왕실	-3973
▁에드워드	-3974
▁피터	-3975
▁리처드	-3976
▁출력	-3977
▁160	-3978
▁to	-3979
▁침략	-3980
▁82	-3981
▁영지	-3982
코스	-3983
▁개신교	-3984
▁원형	-3985
▁커뮤	-3986
▁;/	-3987
ㅡㅁ	-3988
▁신부	-3989
▁조별	-3990
▁줄기	-3991
▁대량	-3992
▁다케	-3993
▁저녁	-3994
▁76	-3995
▁경남	-3996
▁분위기	-3997
▁단편	-3998
▁1956	-3999
▁시사	-4000
▁멀리	-4001
▁안토	-4002
▁프라이	-4003
이너	-4004
▁승객	-4005
▁72	-4006
▁여왕	-4007
▁팔리	-4008
▁텍사스	-4009
▁랜드	-4010
▁승부	-4011
▁그래픽	-4012
▁ㅇㅔㅅㅓㅂㅜㅌㅓ	-4013
▁SS	-4014
▁제사	-4015
▁이라크	-4016
▁권위	-4017
▁고르	-4018
▁발발	-4019
▁무사	-4020
▁대선	-4021
▁미야	-4022
▁가와	-4023
▁아이돌	-4024
▁기울	-4025
▁타자	-4026
▁흐름	-4027
▁안동	-4028
▁커뮤니	-4029
▁ㄲ	-4030
ie	-4031
▁재건	-4032
▁작위	-4033
▁동명	-4034
▁마무	-4035
▁프랑크	-4036
▁점수	-4037
▁바깥	-4038
▁확립	-4039
▁교구	-4040
▁복원	-4041
▁데스	-4042
▁앉	-4043
리노	-4044
▁77	-4045
▁참고	-4046
▁석유	-4047
▁일상	-4048
▁입력	-4049
▁과학자	-4050
▁비치	-4051
▁1939	-4052
▁테스트	-4053
▁섞	-4054
▁원수	-4055
▁긍	-4056
▁잠수	-4057
▁67	-4058
▁축구단	-4059
메리칸	-4060
레나	-4061
▁폭탄	-4062
▁Th	-4063
▁리버	-4064
▁수익	-4065
▁시상	-4066
▁침입	-4067
▁민중	-4068
▁어깨	-4069
▁겹	-4070
▁도요	-4071
▁비상	-4072
▁복수	-4073
▁포켓	-4074
▁타워	-4075
▁당국	-4076
ud	-4077
▁신자	-4078
▁복음	-4079
▁기소	-4080
▁병합	-4081
▁일시	-4082
▁사자	-4083
▁AFC	-4084
▁브라운	-4085
▁자식	-4086
▁한글	-4087
일스	-4088
▁시마	-4089
▁재배	-4090
▁주최	-4091
ly	-4092
▁더블	-4093
레옹	-4094
▁본질	-4095
▁혁신	-4096
og	-4097
▁부지	-4098
▁다운	-4099
▁도모	-4100
▁대왕	-4101
메이	-4102
▁신고	-4103
▁정수	-4104
▁연예	-4105
마르	-4106
▁빅토	-4107
▁심지	-4108
▁가공	-4109
▁계층	-4110
▁보물	-4111
▁나폴레옹	-4112
▁덜	-4113
▁85	-4114
▁대성	-4115
▁동양	-4116
에른	-4117
ist	-4118
▁가량	-4119
▁사제	-4120
▁지형	-4121
▁내셔널	-4122
▁끼치	-4123
▁1954	-4124
th	-4125
▁공중	-4126
▁가담	-4127
▁평안	-4128
▁암호	-4129
▁창작	-4130
이센	-4131
▁힌	-4132
▁파워	-4133
▁훈장	-4134
마니아	-4135
▁ㄴㅔ	-4136
▁빌보드	-4137
레인	-4138
▁국기	-4139
▁거듭	-4140
▁우라	-4141
▁깃	-4142
▁인쇄	-4143
▁구글	-4144
▁폐쇄	-4145
▁후계	-4146
▁쌀	-4147
▁그렇게	-4148
왜란	-4149
▁노출	-4150
▁임진왜란	-4151
▁산화	-4152
아티아	-4153
▁크로아티아	-4154
AS	-4155
▁고기	-4156
▁참모	-4157
▁평론	-4158
▁움직임	-4159
ight	-4160
▁1952	-4161
▁총회	-4162
▁들이	-4163
▁가설	-4164
▁급제	-4165
▁비서	-4166
▁탱	-4167
▁력	-4168
▁세리	-4169
아지	-4170
▁다소	-4171
▁보살	-4172
▁73	-4173
▁가이	-4174
▁실력	-4175
▁아테네	-4176
▁고통	-4177
▁전신	-4178
▁조조	-4179
▁오가	-4180
▁발음	-4181
▁바닥	-4182
▁박정희	-4183
▁대지	-4184
▁채우	-4185
▁후속	-4186
▁스타디	-4187
▁동방	-4188
조합	-4189
▁보상	-4190
▁ㅇㅜ	-4191
▁오카	-4192
▁라스	-4193
▁람	-4194
▁96	-4195
▁상관	-4196
느리	-4197
▁따로	-4198
▁타운	-4199
▁*	-4200
▁탈퇴	-4201
아하	-4202
▁81	-4203
▁뮤지컬	-4204
필더	-4205
▁뷰	-4206
▁수도원	-4207
▁절반	-4208
▁행복	-4209
▁미드필더	-4210
▁무한	-4211
▁그만	-4212
▁셔	-4213
바로	-4214
▁Al	-4215
AT	-4216
▁국정	-4217
▁비례	-4218
▁뤼	-4219
▁장남	-4220
▁인용	-4221
▁78	-4222
▁청주	-4223
▁개설	-4224
▁로봇	-4225
▁김대	-4226
▁피해자	-4227
시오	-4228
▁재학	-4229
▁화이트	-4230
▁좋아하	-4231
▁도덕	-4232
▁센트	-4233
▁가까이	-4234
▁전투기	-4235
▁ᆯㅈㅣ	-4236
▁안드로	-4237
▁심장	-4238
▁이혼	-4239
▁소득	-4240
▁화장	-4241
▁젠	-4242
▁김성	-4243
▁하인	-4244
▁뮌	-4245
▁중력	-4246
▁전남	-4247
▁불만	-4248
▁아트	-4249
너스	-4250
▁전직	-4251
▁손상	-4252
▁여섯	-4253
▁천안	-4254
체스터	-4255
의정	-4256
▁바이에른	-4257
▁보르	-4258
타이	-4259
▁살리	-4260
▁산소	-4261
▁지향	-4262
▁처하	-4263
▁202	-4264
▁NH	-4265
▁지사	-4266
▁1959	-4267
▁국군	-4268
▁생물학	-4269
▁포스트	-4270
하여	-4271
▁177	-4272
▁교리	-4273
▁붓	-4274
▁빌딩	-4275
▁레알	-4276
▁블라	-4277
ess	-4278
▁질환	-4279
▁주력	-4280
▁윗	-4281
▁당나라	-4282
▁사무소	-4283
▁Li	-4284
▁백만	-4285
자치	-4286
BA	-4287
▁작동	-4288
▁문신	-4289
인물	-4290
▁ㄴㅡㄴㄷㅏㄴㅡㄴ	-4291
토스	-4292
▁검토	-4293
▁상역	-4294
▁콘스탄티	-4295
▁녀	-4296
▁인생	-4297
▁71	-4298
▁포스	-4299
▁부담	-4300
▁관여	-4301
▁와이	-4302
▁황후	-4303
직자	-4304
▁91	-4305
▁AT	-4306
▁패션	-4307
▁피부	-4308
▁화합	-4309
▁사우스	-4310
▁기상	-4311
▁마무리	-4312
▁총장	-4313
▁DV	-4314
▁호소	-4315
▁선박	-4316
클리	-4317
▁ㄹㅣㅇ	-4318
▁메시지	-4319
▁일컫	-4320
▁신사	-4321
▁유통	-4322
세포	-4323
▁결론	-4324
▁;,	-4325
▁상실	-4326
▁가마	-4327
▁사유	-4328
▁액션	-4329
▁승려	-4330
▁설득	-4331
▁아웃	-4332
▁1942	-4333
▁하원	-4334
▁가슴	-4335
가락	-4336
▁골드	-4337
▁의대	-4338
쿠스	-4339
스트라	-4340
▁약물	-4341
▁개방	-4342
▁심지어	-4343
▁역학	-4344
▁혼인	-4345
▁오직	-4346
▁프로이센	-4347
▁결의	-4348
▁페이지	-4349
▁수요	-4350
▁처분	-4351
▁내려오	-4352
▁분노	-4353
▁글로벌	-4354
▁ㅇㅕㅇㅑ	-4355
▁햄	-4356
▁동해	-4357
▁조카	-4358
▁모바	-4359
▁모터	-4360
▁좌상	-4361
▁규제	-4362
▁김일성	-4363
▁연습	-4364
▁적합	-4365
▁디스크	-4366
▁가요	-4367
▁매체	-4368
▁위키	-4369
▁넘어가	-4370
▁그린	-4371
▁87	-4372
미야	-4373
▁이명	-4374
IV	-4375
ub	-4376
▁왕비	-4377
▁구매	-4378
▁진단	-4379
▁1943	-4380
▁st	-4381
▁선임	-4382
▁심판	-4383
▁159	-4384
▁ㅎ	-4385
▁통화	-4386
▁위대	-4387
▁부산광역시	-4388
▁개성	-4389
▁1955	-4390
▁홋카이도	-4391
가니	-4392
▁말레이시아	-4393
▁야스	-4394
▁원년	-4395
드리히	-4396
▁서식지	-4397
▁잭슨	-4398
▁발탁	-4399
▁억제	-4400
▁지나가	-4401
▁스타디움	-4402
IA	-4403
▁1953	-4404
▁소멸	-4405
▁쿠데	-4406
▁\	-4407
▁드래프트	-4408
▁퀴	-4409
▁일기	-4410
▁예방	-4411
▁프랭	-4412
▁테크	-4413
▁주석	-4414
▁왕후	-4415
▁크루	-4416
▁1936	-4417
▁긍정	-4418
▁무료	-4419
히로	-4420
▁싱가	-4421
▁싱가포르	-4422
▁음악가	-4423
미르	-4424
▁AP	-4425
▁어려움	-4426
▁톨	-4427
ab	-4428
▁84	-4429
▁사도	-4430
▁프리드리히	-4431
▁필드	-4432
▁700	-4433
▁일체	-4434
▁사격	-4435
▁사무실	-4436
▁일본어	-4437
▁자이언	-4438
▁진영	-4439
▁나쁘	-4440
▁폭격	-4441
▁유형문화재	-4442
▁카스	-4443
▁티베	-4444
▁힙	-4445
▁태조	-4446
▁여우	-4447
▁굳	-4448
▁즉시	-4449
▁유고	-4450
▁조지아	-4451
▁루마니아	-4452
▁궁전	-4453
▁이와	-4454
▁정차	-4455
▁모바일	-4456
▁대책	-4457
▁타인	-4458
▁리드	-4459
▁불안	-4460
▁인원	-4461
▁천주교	-4462
데이	-4463
▁쾌	-4464
▁디아	-4465
▁세자	-4466
▁쿠데타	-4467
▁1910	-4468
▁기동	-4469
주군	-4470
유산	-4471
▁창당	-4472
▁시나	-4473
▁후쿠오카	-4474
버리	-4475
▁크로스	-4476
ine	-4477
▁김종	-4478
▁전동차	-4479
▁깊이	-4480
▁전북	-4481
▁히틀러	-4482
▁스티븐	-4483
▁막대	-4484
▁사라	-4485
▁연설	-4486
▁대체로	-4487
▁Re	-4488
▁ㅈㅏㄴㅡㄴ	-4489
▁닫	-4490
▁에서	-4491
▁몰리	-4492
▁학사	-4493
▁개칭	-4494
▁딜	-4495
▁상속	-4496
▁오이	-4497
올리	-4498
▁구입	-4499
▁전당	-4500
구리	-4501
▁97	-4502
란색	-4503
▁남아프리카	-4504
▁1957	-4505
▁챔피언십	-4506
▁아메리칸	-4507
▁강릉	-4508
▁진격	-4509
▁딘	-4510
▁원주민	-4511
▁알고리	-4512
우치	-4513
달리	-4514
ㅜㄹㅗㄱ	-4515
▁요금	-4516
구치	-4517
▁독재	-4518
▁본명	-4519
베르트	-4520
ew	-4521
▁자국	-4522
▁조상	-4523
▁콘텐츠	-4524
독부	-4525
▁발명	-4526
▁추방	-4527
▁타이거	-4528
▁초점	-4529
▁대우	-4530
▁필수	-4531
▁휴대	-4532
머리	-4533
▁늘리	-4534
▁생태	-4535
▁스미스	-4536
▁광범	-4537
▁부동	-4538
▁검색	-4539
▁1914	-4540
▁흔하	-4541
▁수호	-4542
▁메이지	-4543
원경	-4544
▁69	-4545
▁음성	-4546
▁전송	-4547
▁세트	-4548
▁동북	-4549
▁사과	-4550
▁담기	-4551
▁느낌	-4552
▁이즈	-4553
▁테마	-4554
미니	-4555
▁사기	-4556
▁알고리즘	-4557
▁기다리	-4558
▁92	-4559
▁덩	-4560
▁렀다	-4561
ue	-4562
▁="	-4563
▁이마	-4564
▁급격	-4565
▁천만	-4566
▁주소	-4567
▁인디언	-4568
▁포켓몬	-4569
시스코	-4570
▁신장	-4571
▁도마	-4572
▁수업	-4573
▁토론토	-4574
▁알바	-4575
▁신도	-4576
다랗	-4577
▁빚	-4578
▁업적	-4579
▁후임	-4580
▁클로	-4581
▁1900	-4582
▁1938	-4583
▁불가리아	-4584
▁미리	-4585
▁최우	-4586
▁림	-4587
▁코리아	-4588
▁핫	-4589
▁세부	-4590
▁랑	-4591
▁연락	-4592
▁잡히	-4593
▁완벽	-4594
▁이내	-4595
▁섹	-4596
▁서술	-4597
래프트	-4598
▁끌어	-4599
▁상인	-4600
▁똑	-4601
▁부위	-4602
▁펑	-4603
▁미술관	-4604
지사	-4605
▁게다가	-4606
▁전술	-4607
▁석사	-4608
EC	-4609
▁스탈	-4610
▁화려	-4611
▁스프링	-4612
자키	-4613
▁고급	-4614
▁유효	-4615
▁다스리	-4616
▁주니어	-4617
▁101	-4618
▁배포	-4619
비히	-4620
▁라이프	-4621
▁고시	-4622
▁ㄹㅕㅁㅕㄴ	-4623
▁ㄲㅔ	-4624
▁노트	-4625
▁바르셀	-4626
▁닥터	-4627
▁바르셀로나	-4628
▁언덕	-4629
▁재즈	-4630
▁늑	-4631
▁해발	-4632
▁HD	-4633
총리	-4634
▁영양	-4635
▁오키	-4636
다니	-4637
▁숨기	-4638
▁01	-4639
▁안드	-4640
▁물건	-4641
▁라틴어	-4642
▁립	-4643
로지	-4644
▁연평	-4645
▁1918	-4646
▁암컷	-4647
리그	-4648
▁선형	-4649
▁각국	-4650
▁윙	-4651
▁소비자	-4652
▁마르크스	-4653
▁소형	-4654
▁마스터	-4655
산화	-4656
▁개량	-4657
▁DVD	-4658
▁션	-4659
▁웰	-4660
▁랩	-4661
▁등장인물	-4662
▁질문	-4663
총독부	-4664
▁조선총독부	-4665
▁ㄷㅡㅅㅇㅣ	-4666
▁풋	-4667
▁1951	-4668
▁실천	-4669
▁유산	-4670
▁내놓	-4671
▁일련	-4672
▁저자	-4673
▁백인	-4674
▁손실	-4675
▁시내버스	-4676
▁상주	-4677
▁1932	-4678
제국	-4679
▁고위	-4680
▁언스	-4681
BM	-4682
▁집회	-4683
▁운항	-4684
▁화석	-4685
▁사퇴	-4686
▁on	-4687
▁반사	-4688
여금	-4689
▁게르	-4690
▁{	-4691
▁계곡	-4692
▁추기	-4693
▁1937	-4694
▁알레	-4695
▁감각	-4696
▁국적	-4697
▁정교회	-4698
▁메달	-4699
▁갑자기	-4700
무늬	-4701
▁경비	-4702
▁블록	-4703
▁영주	-4704
▁미스	-4705
▁ㄴㅡㄴㅑ	-4706
▁미시	-4707
▁번지	-4708
▁주체	-4709
▁개별	-4710
▁짝	-4711
▁프랑스군	-4712
▁말리	-4713
▁격파	-4714
▁만든	-4715
▁설치류	-4716
▁선포	-4717
▁진학	-4718
▁차단	-4719
가시	-4720
▁흰색	-4721
민주당	-4722
▁상수	-4723
▁대만	-4724
▁의문	-4725
▁마틴	-4726
▁용인	-4727
▁첩	-4728
▁고객	-4729
▁부친	-4730
▁방언	-4731
▁둥글	-4732
▁엘리자	-4733
필드	-4734
▁자본주의	-4735
펙트	-4736
▁89	-4737
▁광범위	-4738
▁1935	-4739
▁환승	-4740
▁이웃	-4741
▁올스타	-4742
ect	-4743
▁실업	-4744
▁182	-4745
▁넥	-4746
▁우크라	-4747
▁재개	-4748
▁거짓	-4749
▁찬성	-4750
▁후계자	-4751
▁분교	-4752
▁타율	-4753
▁칭호	-4754
▁화제	-4755
▁ㄱㅗㄴ	-4756
▁이스트	-4757
▁비스	-4758
▁비행기	-4759
▁93	-4760
▁사찰	-4761
▁크라	-4762
▁트레이드	-4763
사전	-4764
▁뮌헨	-4765
바키아	-4766
▁로렌	-4767
▁당원	-4768
▁중추	-4769
▁경제학	-4770
▁수치	-4771
ㅅㅜㄹㅗㄱ	-4772
▁Be	-4773
▁퀘	-4774
▁구상	-4775
▁베리	-4776
▁항의	-4777
▁추기경	-4778
동생	-4779
▁되돌	-4780
브라	-4781
▁기부	-4782
▁고양이	-4783
▁싱어	-4784
▁커버	-4785
▁데리	-4786
▁항공사	-4787
▁탄압	-4788
▁면역	-4789
▁사양	-4790
▁수백	-4791
▁파티	-4792
▁질서	-4793
▁발간	-4794
▁꾸준	-4795
▁체험	-4796
▁촉진	-4797
▁증언	-4798
▁허락	-4799
▁회로	-4800
▁겉	-4801
▁분화	-4802
▁최후	-4803
▁자산	-4804
▁클리	-4805
▁반지	-4806
▁남녀	-4807
▁법학	-4808
▁이념	-4809
▁웃	-4810
▁화폐	-4811
▁목성	-4812
▁푸르	-4813
▁마주	-4814
▁양산	-4815
▁구멍	-4816
▁쿨	-4817
▁곡선	-4818
▁마루	-4819
▁공신	-4820
런스	-4821
▁소문	-4822
▁시트	-4823
센트	-4824
▁OS	-4825
▁영원	-4826
▁아티스트	-4827
▁성남	-4828
다수	-4829
저스	-4830
▁소화	-4831
▁클래식	-4832
ore	-4833
슈타인	-4834
▁덧붙이	-4835
▁ㅇㅓㅇㅛ	-4836
▁시모	-4837
▁습격	-4838
▁대법원	-4839
▁94	-4840
▁FM	-4841
▁1933	-4842
▁가속	-4843
▁극단	-4844
▁소위	-4845
▁물고기	-4846
▁개척	-4847
▁내세우	-4848
▁잠수함	-4849
▁보편	-4850
▁탕	-4851
▁티베트	-4852
리우스	-4853
▁강남	-4854
▁소집	-4855
▁툴	-4856
▁수십	-4857
▁축소	-4858
IN	-4859
our	-4860
▁지수	-4861
▁탄핵	-4862
▁쿼	-4863
리나	-4864
▁1928	-4865
▁선호	-4866
▁아오	-4867
▁운송	-4868
▁펴	-4869
▁유배	-4870
▁CP	-4871
돼지	-4872
▁군부	-4873
도사	-4874
▁원시	-4875
▁동화	-4876
▁경사	-4877
▁영구	-4878
▁동경	-4879
▁프랑스어	-4880
▁팩	-4881
▁태종	-4882
▁혼자	-4883
▁1924	-4884
▁전적	-4885
▁조항	-4886
▁하여금	-4887
▁핸	-4888
ell	-4889
▁시신	-4890
▁료	-4891
▁약화	-4892
▁충분히	-4893
▁어둡	-4894
▁콜로	-4895
▁ㅈㅗ	-4896
▁상대식	-4897
공사	-4898
▁누스	-4899
▁지불	-4900
▁칠레	-4901
▁무너지	-4902
프레	-4903
▁국토	-4904
▁대로	-4905
▁용도	-4906
▁주일	-4907
려가	-4908
▁79	-4909
▁개명	-4910
른바	-4911
▁간부	-4912
▁틈	-4913
ㅊㅏ	-4914
▁당신	-4915
▁ㅈㅗㅊㅏ	-4916
▁세월	-4917
▁익스	-4918
▁정면	-4919
▁그리하여	-4920
▁멈	-4921
▁뼈	-4922
▁사막	-4923
▁조기	-4924
▁걷	-4925
▁댄스	-4926
▁이행	-4927
▁전망	-4928
▁직무	-4929
▁김해	-4930
▁메트로	-4931
▁발레	-4932
▁이른바	-4933
닉스	-4934
▁재능	-4935
들리	-4936
▁09	-4937
벤트	-4938
▁토대	-4939
▁따오	-4940
▁정통	-4941
▁콜롬	-4942
▁회색	-4943
▁펀	-4944
▁110	-4945
▁지나치	-4946
▁개장	-4947
▁프로그래밍	-4948
▁형상	-4949
슬링	-4950
▁입대	-4951
사이	-4952
▁실내	-4953
▁대칭	-4954
▁토마스	-4955
end	-4956
▁ㅎㅏ	-4957
▁러브	-4958
▁종사	-4959
▁열매	-4960
▁액체	-4961
▁의정부	-4962
▁이재	-4963
티스	-4964
▁합동	-4965
▁동굴	-4966
▁존스	-4967
▁브로	-4968
▁구름	-4969
▁파키스탄	-4970
▁04	-4971
▁반하	-4972
▁토착	-4973
▁오버	-4974
▁진실	-4975
코프	-4976
▁가난	-4977
▁지중	-4978
▁쟁	-4979
▁170	-4980
▁법안	-4981
▁손해	-4982
▁매치	-4983
▁단순히	-4984
▁판정	-4985
ill	-4986
▁초상	-4987
▁원자력	-4988
▁무용	-4989
어도	-4990
베리아	-4991
ain	-4992
▁총재	-4993
▁수컷	-4994
▁해제	-4995
▁안토니	-4996
ID	-4997
▁플로리	-4998
▁08	-4999
▁베네치아	-5000
▁뻗	-5001
과이	-5002
▁고교	-5003
▁정류	-5004
▁하와	-5005
▁자르	-5006
▁흔적	-5007
▁퓨	-5008
▁대승	-5009
▁자랑	-5010
▁Co	-5011
▁ㅓㅆ	-5012
▁재생	-5013
▁틴	-5014
테스	-5015
▁무력	-5016
▁개찰	-5017
ㅋㅡㅁ	-5018
▁당대	-5019
▁부리	-5020
▁세로	-5021
▁유아	-5022
ers	-5023
▁멀티	-5024
▁부속	-5025
▁엄격	-5026
▁스카이	-5027
▁안티	-5028
▁늑대	-5029
▁우에	-5030
▁프로토	-5031
▁룸	-5032
▁전제	-5033
▁경북	-5034
▁스톤	-5035
▁사이드	-5036
▁인민군	-5037
▁83	-5038
▁경고	-5039
▁주문	-5040
▁안쪽	-5041
▁오케	-5042
▁부서	-5043
▁서방	-5044
▁불러	-5045
▁로즈	-5046
▁힙합	-5047
▁장로	-5048
▁배열	-5049
▁비잔	-5050
▁오류	-5051
▁지표	-5052
페이스	-5053
▁다큐	-5054
▁일단	-5055
▁벼슬	-5056
▁주재	-5057
데르	-5058
▁강도	-5059
▁함경	-5060
▁혈액	-5061
▁국방부	-5062
▁레닌	-5063
ard	-5064
▁쌓이	-5065
▁분산	-5066
▁메탈	-5067
▁양국	-5068
▁평면	-5069
▁페리	-5070
▁경찰서	-5071
▁스크린	-5072
▁맡기	-5073
▁할아버지	-5074
▁한성	-5075
▁호흡	-5076
고속	-5077
▁대가	-5078
▁아프가니	-5079
▁강요	-5080
어로	-5081
▁마감	-5082
▁성서	-5083
▁중동	-5084
▁선로	-5085
▁1934	-5086
조선	-5087
▁대원	-5088
▁편의	-5089
▁동지	-5090
▁메르	-5091
▁이벤트	-5092
▁추적	-5093
▁ㅁㅏㄴㅋㅡㅁ	-5094
▁MS	-5095
▁거스	-5096
AN	-5097
▁주자	-5098
야스	-5099
▁De	-5100
▁철거	-5101
▁요코하마	-5102
▁빵	-5103
▁중지	-5104
▁대사관	-5105
▁닐	-5106
▁탓	-5107
▁자매	-5108
키퍼	-5109
▁농장	-5110
▁포드	-5111
▁찾아가	-5112
▁입구	-5113
▁골키퍼	-5114
유키	-5115
▁구사	-5116
▁느리	-5117
▁보스턴	-5118
▁놀이	-5119
▁판타	-5120
▁히어로	-5121
세대	-5122
▁근육	-5123
▁북미	-5124
▁장례	-5125
▁투스	-5126
▁스케이	-5127
사르	-5128
▁ㄱㅣㅇㅔ	-5129
▁노동당	-5130
▁스탈린	-5131
▁떼	-5132
▁광산	-5133
▁동구	-5134
▁거느리	-5135
레오	-5136
워하	-5137
▁봉기	-5138
아르	-5139
▁멈추	-5140
▁유키	-5141
▁쿠바	-5142
▁본토	-5143
▁현존	-5144
▁Me	-5145
▁130	-5146
▁대동	-5147
▁정확히	-5148
▁토머스	-5149
▁가볍	-5150
▁글리	-5151
▁동메달	-5152
▁정조	-5153
드라	-5154
즈니	-5155
▁카리	-5156
베르크	-5157
▁나이트	-5158
공업	-5159
▁뱀	-5160
▁거점	-5161
▁은메달	-5162
▁도쿠가와	-5163
▁밸	-5164
제르	-5165
▁코어	-5166
▁140	-5167
▁젤	-5168
▁남극	-5169
▁항해	-5170
▁아프가니스탄	-5171
▁접속	-5172
ne	-5173
▁식량	-5174
▁선물	-5175
▁부처	-5176
▁사카	-5177
▁시계	-5178
▁레지	-5179
▁야당	-5180
▁사망자	-5181
▁철학자	-5182
▁페이스	-5183
▁복사	-5184
▁중계	-5185
▁돔	-5186
하이	-5187
▁Sh	-5188
▁내려가	-5189
▁알렉산더	-5190
▁테르	-5191
▁새끼	-5192
▁김구	-5193
▁필립	-5194
▁대다수	-5195
▁초청	-5196
▁발전소	-5197
레아	-5198
보내	-5199
▁중성	-5200
▁모자	-5201
▁칼리지	-5202
▁재판소	-5203
▁맨체스터	-5204
위대	-5205
성기	-5206
▁곤충	-5207
▁농촌	-5208
▁안내	-5209
▁매주	-5210
▁관계자	-5211
돌프	-5212
▁독점	-5213
▁특별히	-5214
▁건너가	-5215
안군	-5216
▁화합물	-5217
▁증권	-5218
므로	-5219
▁th	-5220
OR	-5221
▁구로	-5222
▁로맨	-5223
▁새벽	-5224
▁역전	-5225
▁교향곡	-5226
크래프트	-5227
▁1931	-5228
▁세금	-5229
▁토너	-5230
▁르네	-5231
▁훼	-5232
▁구리	-5233
▁위안	-5234
▁유력	-5235
▁재임	-5236
▁겸하	-5237
▁풍속	-5238
▁오염	-5239
▁강등	-5240
▁커다랗	-5241
▁생애	-5242
▁휘하	-5243
▁체육관	-5244
▁타카	-5245
▁부호	-5246
▁아비	-5247
▁일곱	-5248
▁파울	-5249
베리	-5250
▁간격	-5251
▁존슨	-5252
▁펄	-5253
▁그러므로	-5254
▁금강	-5255
▁멸종	-5256
▁부드	-5257
▁그리스어	-5258
▁히로시마	-5259
▁종전	-5260
▁이정	-5261
▁계수	-5262
▁석방	-5263
▁물리치	-5264
▁목포	-5265
▁클래스	-5266
▁명시	-5267
▁진동	-5268
▁부품	-5269
▁달라지	-5270
▁cod	-5271
▁기병	-5272
▁모노	-5273
▁ㄷㅜ	-5274
▁기르	-5275
▁대변	-5276
▁비중	-5277
all	-5278
▁뚜렷	-5279
▁코너	-5280
게이	-5281
▁훌륭	-5282
▁자유주의	-5283
▁감옥	-5284
▁관객	-5285
▁미카	-5286
▁타원	-5287
▁무늬	-5288
▁타점	-5289
▁합리	-5290
▁ST	-5291
▁버지	-5292
레이크	-5293
▁찾아오	-5294
▁1921	-5295
▁하사	-5296
▁원조	-5297
▁176	-5298
▁An	-5299
AM	-5300
나르	-5301
▁해협	-5302
▁꾼	-5303
▁킬로	-5304
▁좌파	-5305
▁도망치	-5306
밀리	-5307
▁250	-5308
▁숙종	-5309
▁아이스	-5310
▁심리학	-5311
▁그래프	-5312
▁가구	-5313
▁기생	-5314
▁장점	-5315
느님	-5316
▁지휘관	-5317
▁마그	-5318
▁지칭	-5319
▁캠프	-5320
▁하버	-5321
ang	-5322
▁교도	-5323
▁수비수	-5324
▁하느님	-5325
▁연호	-5326
▁유발	-5327
▁공룡	-5328
▁1929	-5329
▁코트	-5330
널드	-5331
▁박근	-5332
▁후퇴	-5333
▁윤리	-5334
▁필라	-5335
▁스트라이	-5336
▁트랜스	-5337
▁토너먼트	-5338
▁특허	-5339
▁동성애	-5340
▁부드럽	-5341
둥이	-5342
▁닮	-5343
수량	-5344
▁소요	-5345
▁조문	-5346
▁폭풍	-5347
▁유대인	-5348
▁비즈	-5349
▁목숨	-5350
▁빗	-5351
▁강전	-5352
▁아틀	-5353
▁사관	-5354
▁스테이션	-5355
▁무겁	-5356
▁문재	-5357
▁운동가	-5358
▁단장	-5359
▁도메	-5360
▁수반	-5361
▁일환	-5362
▁집필	-5363
▁착용	-5364
▁올라오	-5365
▁성명	-5366
▁공세	-5367
▁대결	-5368
▁캡	-5369
▁05	-5370
▁칙	-5371
▁덕분	-5372
▁비틀	-5373
▁키스	-5374
▁y	-5375
▁첫째	-5376
▁기갑	-5377
시스트	-5378
▁극복	-5379
▁자이언츠	-5380
▁갤럭	-5381
▁다다	-5382
▁약탈	-5383
▁1925	-5384
▁라트	-5385
▁부작	-5386
▁마라	-5387
▁1923	-5388
투아	-5389
▁연상	-5390
▁김대중	-5391
산물	-5392
▁인터페이스	-5393
▁쯤	-5394
▁동반	-5395
▁살아	-5396
▁연평균	-5397
▁평론가	-5398
▁롬	-5399
▁첸	-5400
슬리	-5401
ss	-5402
미아	-5403
▁입사	-5404
▁삼각	-5405
▁조화	-5406
▁건담	-5407
▁공국	-5408
▁지부	-5409
▁잠재	-5410
▁매니	-5411
▁북아메리카	-5412
▁ㄴㅡㄴㄷㅏㄱㅗ	-5413
▁도호	-5414
▁갤럭시	-5415
▁성직자	-5416
▁협약	-5417
▁고고	-5418
▁과일	-5419
▁플로리다	-5420
무게	-5421
▁몸무게	-5422
▁추대	-5423
마이	-5424
▁가끔	-5425
▁압축	-5426
▁AC	-5427
▁요원	-5428
▁원장	-5429
▁틱	-5430
▁섬유	-5431
▁장갑	-5432
타카	-5433
▁의석	-5434
▁샤를	-5435
▁연계	-5436
▁07	-5437
▁딱	-5438
▁관리자	-5439
클린	-5440
▁북서쪽	-5441
▁대한제국	-5442
ity	-5443
▁발렌	-5444
▁며	-5445
▁불화	-5446
▁시게	-5447
▁램	-5448
베이스	-5449
▁추락	-5450
▁웨일스	-5451
▁남아메리카	-5452
▁유성	-5453
▁임신	-5454
▁단선	-5455
▁유비	-5456
▁얀	-5457
카스	-5458
▁영감	-5459
▁이수	-5460
▁우드	-5461
▁ㅇㅛ	-5462
▁캘리포니아주	-5463
▁ㅅㅠ	-5464
▁모험	-5465
▁사당	-5466
▁선교사	-5467
대문	-5468
▁발휘	-5469
▁영혼	-5470
추어	-5471
▁망원경	-5472
▁근로	-5473
▁미분	-5474
▁트레이	-5475
▁중립	-5476
▁카페	-5477
▁타입	-5478
▁페루	-5479
▁살아남	-5480
▁갱	-5481
키스	-5482
▁ㅋㅜ	-5483
▁북극	-5484
▁주사	-5485
▁161	-5486
▁박스	-5487
▁하와이	-5488
▁진흥	-5489
▁고분	-5490
▁필름	-5491
▁리스트	-5492
▁SC	-5493
▁삭제	-5494
▁수직	-5495
▁진술	-5496
▁다이묘	-5497
▁똑같	-5498
▁서인	-5499
▁종로	-5500
▁모로	-5501
▁일자	-5502
▁향토	-5503
▁지역구	-5504
▁민속	-5505
▁기관차	-5506
▁레벨	-5507
▁사거리	-5508
▁동인	-5509
▁채권	-5510
▁꼽히	-5511
▁영광	-5512
▁준우	-5513
▁카자	-5514
ff	-5515
▁그랜드	-5516
▁도마뱀	-5517
▁빅토리아	-5518
▁압도	-5519
▁codice	-5520
▁결심	-5521
▁제약	-5522
ㅅㅣ	-5523
▁1922	-5524
▁복구	-5525
▁EP	-5526
▁모음	-5527
▁삼각형	-5528
▁돌파	-5529
▁청동	-5530
▁프로세서	-5531
즈키	-5532
행성	-5533
▁변신	-5534
▁유가	-5535
▁교과	-5536
▁박근혜	-5537
▁파운드	-5538
▁홀로	-5539
▁문인	-5540
▁175	-5541
▁이조	-5542
▁엽	-5543
▁성씨	-5544
▁청하	-5545
▁레이블	-5546
▁de	-5547
▁칼리	-5548
▁수장	-5549
▁철저	-5550
▁명사	-5551
▁주류	-5552
▁중시	-5553
▁곰	-5554
▁화가	-5555
▁부탁	-5556
일본	-5557
▁바오	-5558
▁윤치	-5559
▁평생	-5560
▁루트비히	-5561
▁버지니아	-5562
▁ㅇㅣㄹㅏㄴ	-5563
▁틸	-5564
▁무릎	-5565
▁중구	-5566
▁피트	-5567
애나	-5568
▁때로	-5569
▁규슈	-5570
▁모래	-5571
▁프레임	-5572
오리	-5573
▁서적	-5574
▁My	-5575
▁부유	-5576
▁인천광역시	-5577
▁가톨릭교회	-5578
▁엘리자베스	-5579
▁공격수	-5580
▁각자	-5581
▁없애	-5582
▁투구	-5583
▁고안	-5584
▁부수	-5585
▁유역	-5586
▁1912	-5587
▁둔	-5588
▁여인	-5589
▁이날	-5590
▁토벌	-5591
▁표지	-5592
▁황태	-5593
▁직선	-5594
▁직위	-5595
▁최상	-5596
▁트럼	-5597
▁리치	-5598
▁교차로	-5599
▁설비	-5600
▁아과	-5601
▁지연	-5602
프란	-5603
▁유용	-5604
태우	-5605
▁음모	-5606
▁자치구	-5607
양군	-5608
▁왕가	-5609
▁파트너	-5610
메니아	-5611
▁164	-5612
▁국민당	-5613
▁수상자	-5614
▁글씨	-5615
니즘	-5616
▁구미	-5617
▁KT	-5618
▁동일본	-5619
눅스	-5620
부사	-5621
▁문법	-5622
▁아기	-5623
▁네이션	-5624
▁Love	-5625
▁사토	-5626
▁포유	-5627
ㅈㅓ	-5628
▁무산	-5629
▁크레	-5630
▁왈	-5631
▁Go	-5632
▁봉사	-5633
▁퍼시	-5634
▁노무	-5635
▁도어	-5636
▁벨라	-5637
▁블라디	-5638
ong	-5639
▁리눅스	-5640
▁""	-5641
타운	-5642
▁소설가	-5643
▁1908	-5644
▁영조	-5645
▁간섭	-5646
▁납치	-5647
멘트	-5648
▁아르메니아	-5649
라이터	-5650
▁목조	-5651
▁지중해	-5652
▁1906	-5653
야수	-5654
▁노비	-5655
▁모니	-5656
▁보통학교	-5657
▁경유	-5658
▁무인	-5659
▁릭	-5660
▁상처	-5661
▁인력	-5662
up	-5663
▁랭킹	-5664
▁돼지	-5665
▁어워드	-5666
▁아마추어	-5667
▁06	-5668
보살	-5669
▁건축물	-5670
▁패턴	-5671
▁사촌	-5672
▁자책	-5673
▁베타	-5674
▁장사	-5675
▁태자	-5676
▁토르	-5677
▁MV	-5678
▁마카	-5679
▁침해	-5680
▁남동쪽	-5681
▁SM	-5682
▁플레	-5683
▁교역	-5684
▁스케이팅	-5685
▁연소	-5686
▁1917	-5687
ip	-5688
▁연령	-5689
▁이종	-5690
멘터리	-5691
▁히가시	-5692
아리	-5693
▁베토	-5694
▁정자	-5695
▁준우승	-5696
▁다양체	-5697
사관	-5698
▁전향	-5699
▁제주도	-5700
▁호조	-5701
▁크림	-5702
슬로	-5703
▁1927	-5704
▁JR	-5705
▁과도	-5706
도니아	-5707
▁배상	-5708
▁에스파	-5709
▁적응	-5710
▁커피	-5711
IS	-5712
ld	-5713
▁삽입	-5714
▁모듈	-5715
마치	-5716
▁앨런	-5717
▁이토	-5718
▁통로	-5719
▁안양	-5720
▁03	-5721
▁명문	-5722
▁북동쪽	-5723
▁매각	-5724
▁적어도	-5725
▁조명	-5726
ant	-5727
▁우익	-5728
▁굿	-5729
▁호르	-5730
▁배급	-5731
▁스와	-5732
▁육성	-5733
▁BBC	-5734
▁시상식	-5735
▁과장	-5736
▁몬테	-5737
▁수지	-5738
▁전승	-5739
▁탐험	-5740
▁1907	-5741
OM	-5742
▁싫	-5743
다드	-5744
▁우크라이나	-5745
▁출현	-5746
▁석조	-5747
▁럭	-5748
▁대행	-5749
▁보좌	-5750
▁창간	-5751
▁1926	-5752
영상	-5753
▁라우	-5754
▁쇠퇴	-5755
▁시아	-5756
▁인자	-5757
▁전작	-5758
▁외계	-5759
▁흙	-5760
스팅	-5761
▁유인	-5762
▁정서	-5763
▁옹호	-5764
▁리아	-5765
▁옵	-5766
▁밀라노	-5767
▁산악	-5768
▁시집	-5769
▁항목	-5770
ED	-5771
▁산타	-5772
▁다큐멘터리	-5773
▁노인	-5774
▁앱	-5775
▁폐기	-5776
▁부동산	-5777
▁SN	-5778
▁색상	-5779
▁별로	-5780
▁체인	-5781
▁상하이	-5782
▁협의회	-5783
▁표본	-5784
몬드	-5785
▁대교	-5786
▁문하	-5787
▁의병	-5788
▁슐	-5789
▁단행	-5790
▁커지	-5791
▁송라이터	-5792
생물	-5793
▁왕립	-5794
av	-5795
▁관중	-5796
▁자문	-5797
이즈	-5798
▁168	-5799
▁탑승	-5800
▁포크	-5801
▁렉	-5802
▁험	-5803
스토	-5804
▁사신	-5805
▁종족	-5806
▁해설	-5807
페이지	-5808
▁자전거	-5809
▁He	-5810
▁지름	-5811
티움	-5812
▁수감	-5813
▁동아시아	-5814
▁무선	-5815
▁묘지	-5816
▁세조	-5817
▁유입	-5818
슬라	-5819
▁비전	-5820
▁호남	-5821
다이라	-5822
▁연고지	-5823
▁패러	-5824
▁PD	-5825
▁머물	-5826
▁상영	-5827
▁ㅁㅏㅈㅓ	-5828
▁꺼	-5829
ind	-5830
▁디즈니	-5831
▁아가	-5832
▁NHK	-5833
▁베토벤	-5834
런트	-5835
▁내장	-5836
▁꾸미	-5837
▁노조	-5838
▁스틸	-5839
▁1905	-5840
▁놀라	-5841
▁동사	-5842
로프	-5843
▁실점	-5844
▁아무런	-5845
튜브	-5846
▁사료	-5847
▁166	-5848
텐도	-5849
▁닌텐도	-5850
▁레이다	-5851
se	-5852
▁콩고	-5853
▁하천	-5854
▁162	-5855
▁기종	-5856
▁선제	-5857
▁좌익	-5858
ame	-5859
▁||	-5860
▁시에	-5861
▁에릭	-5862
▁오리지	-5863
▁최우수	-5864
AC	-5865
▁급속	-5866
▁합계	-5867
▁룩	-5868
▁겨우	-5869
▁진지	-5870
▁산지	-5871
▁안보	-5872
▁제후	-5873
▁문화유산	-5874
▁홈페이지	-5875
▁다가	-5876
▁연금	-5877
▁엄마	-5878
▁유튜브	-5879
▁물려	-5880
▁정사	-5881
▁기름	-5882
▁독일어	-5883
▁민족주의	-5884
세스	-5885
▁Sp	-5886
▁버그	-5887
브스	-5888
▁아울	-5889
▁151	-5890
▁비평가	-5891
▁비단	-5892
▁기하학	-5893
▁꾸준히	-5894
▁헤드	-5895
▁유신	-5896
▁묻히	-5897
▁원로	-5898
페인	-5899
총장	-5900
▁시외	-5901
▁예외	-5902
▁데이터베이스	-5903
▁주말	-5904
▁가쓰	-5905
▁대조	-5906
▁역과	-5907
▁참조	-5908
▁엉	-5909
▁사이클	-5910
ry	-5911
려나	-5912
ES	-5913
▁바이올	-5914
▁ㄴㄷㅏㄱㅗ	-5915
▁스승	-5916
▁우르	-5917
▁158	-5918
▁조선인	-5919
나카	-5920
무네	-5921
▁수명	-5922
▁증기	-5923
▁정류장	-5924
▁요미	-5925
▁트럭	-5926
▁드래곤	-5927
▁색깔	-5928
플레이	-5929
▁스페셜	-5930
▁품질	-5931
▁목격	-5932
▁상소	-5933
▁크리스토	-5934
지마	-5935
어트	-5936
ith	-5937
▁지바	-5938
▁아크	-5939
▁원산	-5940
▁리듬	-5941
▁모집	-5942
▁수천	-5943
▁커뮤니티	-5944
▁점성	-5945
▁나폴리	-5946
▁도리	-5947
▁곧바로	-5948
스케	-5949
ort	-5950
▁광역	-5951
▁선진	-5952
▁바라보	-5953
▁뚫	-5954
▁마일	-5955
▁셋째	-5956
▁주거	-5957
▁칩	-5958
▁문과	-5959
▁유고슬	-5960
▁유고슬라비아	-5961
▁기압	-5962
▁반환	-5963
▁주의자	-5964
▁자바	-5965
▁남서쪽	-5966
▁02	-5967
▁리얼	-5968
▁악장	-5969
▁라마	-5970
▁신비	-5971
▁흥미	-5972
엘라	-5973
▁대안	-5974
▁야생	-5975
▁주파	-5976
스티벌	-5977
▁할리	-5978
▁라이온	-5979
▁가미	-5980
▁옛날	-5981
▁플루	-5982
▁라이벌	-5983
▁수수	-5984
▁조르	-5985
▁레이스	-5986
▁페스티벌	-5987
잡히	-5988
▁향년	-5989
▁무관	-5990
▁빨리	-5991
▁입문	-5992
▁브라이언	-5993
ok	-5994
▁유닛	-5995
▁협의	-5996
▁사리	-5997
▁이오	-5998
▁이리	-5999
▁특급	-6000
▁베이스볼	-6001
▁구마	-6002
▁기점	-6003
▁토니	-6004
▁방안	-6005
▁인텔	-6006
▁도심	-6007
▁운명	-6008
▁운반	-6009
프란시스코	-6010
▁동치	-6011
▁십자군	-6012
▁안드로이드	-6013
▁재무	-6014
▁주한	-6015
▁샌프란시스코	-6016
▁입증	-6017
▁스피드	-6018
▁소니	-6019
▁사직	-6020
▁되찾	-6021
▁일행	-6022
▁기념물	-6023
▁단층	-6024
▁쿠르	-6025
▁디자이너	-6026
▁콜롬비아	-6027
▁오디션	-6028
▁한나라	-6029
▁미네	-6030
프스	-6031
▁적색	-6032
회의	-6033
▁사면	-6034
▁서북	-6035
▁한나라당	-6036
▁동영상	-6037
▁와카	-6038
해군	-6039
▁기용	-6040
▁렌즈	-6041
▁묘소	-6042
▁오리지널	-6043
▁마스	-6044
▁부시	-6045
▁1904	-6046
▁석탑	-6047
▁프랜	-6048
▁미만	-6049
▁저지르	-6050
▁직장	-6051
▁출산	-6052
▁출판사	-6053
▁연주자	-6054
▁마케도니아	-6055
▁케이블	-6056
▁날리	-6057
▁배제	-6058
▁정교	-6059
▁지휘자	-6060
▁알라	-6061
▁인치	-6062
▁개수	-6063
▁분배	-6064
▁신임	-6065
▁평소	-6066
▁복제	-6067
▁서경	-6068
▁왕족	-6069
▁진도	-6070
▁초래	-6071
▁템	-6072
루살	-6073
쳐지	-6074
▁관장	-6075
▁마쓰다이라	-6076
▁165	-6077
▁Un	-6078
▁예술가	-6079
루살렘	-6080
▁교전	-6081
▁급행	-6082
▁상무	-6083
▁파생	-6084
▁아서	-6085
▁의거	-6086
▁센트럴	-6087
▁챌	-6088
프라	-6089
▁사로	-6090
▁부패	-6091
▁154	-6092
▁스테이지	-6093
▁예언	-6094
▁기재	-6095
▁판타지	-6096
리케이션	-6097
▁WW	-6098
▁용기	-6099
▁긴급	-6100
▁계단	-6101
▁내륙	-6102
▁자사	-6103
▁동전	-6104
▁폭스	-6105
▁무신	-6106
▁비즈니스	-6107
▁콘스탄티노	-6108
ob	-6109
▁수면	-6110
ord	-6111
▁단종	-6112
▁오타	-6113
▁파나	-6114
▁당사자	-6115
▁Se	-6116
▁Wh	-6117
▁받침	-6118
▁합작	-6119
▁모순	-6120
qu	-6121
▁신하	-6122
▁좌석	-6123
▁여동생	-6124
터스	-6125
▁가게	-6126
▁사르	-6127
▁입히	-6128
▁권고	-6129
▁트레	-6130
▁156	-6131
▁겹치	-6132
▁163	-6133
▁도메인	-6134
문학	-6135
▁용산	-6136
모니	-6137
▁연애	-6138
▁167	-6139
▁사범	-6140
▁예루살렘	-6141
▁SF	-6142
▁링크	-6143
▁항일	-6144
▁스펙트	-6145
가스	-6146
▁신용	-6147
디스	-6148
우옌	-6149
▁무슬	-6150
▁DJ	-6151
▁압박	-6152
ate	-6153
▁리투아	-6154
▁리투아니아	-6155
▁스쿨	-6156
▁그랑	-6157
▁진상	-6158
▁정계	-6159
▁바이올린	-6160
▁크리스티	-6161
▁상임	-6162
▁여신	-6163
▁호환	-6164
▁타마	-6165
▁스펙트럼	-6166
식물	-6167
▁가득	-6168
PS	-6169
교육	-6170
▁끼리	-6171
▁900	-6172
▁무슬림	-6173
▁회원국	-6174
경기	-6175
▁AM	-6176
▁충남	-6177
▁아인	-6178
▁스마트폰	-6179
카르	-6180
페이	-6181
려오	-6182
▁밀접	-6183
▁자회사	-6184
▁발효	-6185
▁분지	-6186
▁어항	-6187
▁조류	-6188
▁챌린	-6189
▁한양	-6190
▁혜성	-6191
▁깔	-6192
▁니스	-6193
▁이지	-6194
▁우지	-6195
▁전염	-6196
껍질	-6197
▁비로	-6198
▁선사	-6199
지르	-6200
▁장편	-6201
▁서울시	-6202
▁번식	-6203
▁샹	-6204
▁게시	-6205
▁대단	-6206
▁미얀	-6207
▁바그	-6208
▁착륙	-6209
▁시달리	-6210
▁지주	-6211
▁씌	-6212
▁조국	-6213
길이	-6214
▁무라	-6215
▁오다	-6216
▁포맷	-6217
▁피렌	-6218
▁훼손	-6219
▁비잔티움	-6220
IC	-6221
▁팅	-6222
▁교섭	-6223
▁주립	-6224
▁지장	-6225
▁친정	-6226
커스	-6227
킨스	-6228
▁우루	-6229
▁일요일	-6230
▁고립	-6231
▁ㄹㅏㄱ	-6232
▁노무현	-6233
▁끄	-6234
▁애국	-6235
▁얼음	-6236
▁서브	-6237
랑이	-6238
▁UN	-6239
▁피스	-6240
▁진나라	-6241
▁식사	-6242
▁예능	-6243
▁오케스트라	-6244
▁ㅇㅓㅆㅇㅓㅆ	-6245
▁쇼군	-6246
▁농도	-6247
▁ᆯㅅㅜㄹㅗㄱ	-6248
잡이	-6249
▁요크	-6250
럼비아	-6251
▁아베	-6252
▁융합	-6253
▁최신	-6254
▁139	-6255
▁옌	-6256
▁AS	-6257
▁기아	-6258
예프	-6259
▁이명박	-6260
▁낱	-6261
▁구장	-6262
▁행정부	-6263
▁유하	-6264
▁과제	-6265
▁대령	-6266
▁참판	-6267
▁하트	-6268
▁알바니아	-6269
▁바티	-6270
▁아이디	-6271
부인	-6272
▁와중	-6273
ET	-6274
▁성종	-6275
▁시체	-6276
▁하드웨어	-6277
▁브라우	-6278
▁부흥	-6279
▁개발자	-6280
▁월간	-6281
▁차관	-6282
▁쿠스	-6283
▁145	-6284
▁주머니	-6285
▁킬로미터	-6286
▁기타리스트	-6287
▁강연	-6288
▁소나	-6289
▁용량	-6290
▁디비전	-6291
▁마리오	-6292
ast	-6293
▁뜨겁	-6294
▁선두	-6295
▁전이	-6296
로디	-6297
▁공과	-6298
▁발족	-6299
▁번주	-6300
▁지질	-6301
▁ㄱㅗㅅㅓ	-6302
▁투명	-6303
▁부통령	-6304
DP	-6305
▁파동	-6306
▁스트리트	-6307
▁학파	-6308
▁몸길이	-6309
▁피렌체	-6310
▁부자	-6311
▁임상	-6312
▁미나미	-6313
▁해인	-6314
▁보전	-6315
▁위주	-6316
▁관광객	-6317
▁야기	-6318
▁아세	-6319
▁페어	-6320
▁중국어	-6321
▁응우옌	-6322
수아	-6323
데이트	-6324
▁부도	-6325
▁규명	-6326
▁김동	-6327
▁저기	-6328
▁착수	-6329
▁고조	-6330
▁충성	-6331
▁잊	-6332
▁MVP	-6333
▁업데이트	-6334
▁거인	-6335
▁배정	-6336
▁전지	-6337
▁관찰사	-6338
▁마케팅	-6339
▁사사	-6340
▁전임	-6341
▁성공회	-6342
▁아이디어	-6343
▁간접	-6344
▁이에	-6345
레이터	-6346
if	-6347
▁1896	-6348
랑크	-6349
▁디오	-6350
▁마산	-6351
▁정벌	-6352
▁HIV	-6353
▁거스르	-6354
▁피에르	-6355
▁굉	-6356
▁넬	-6357
▁DS	-6358
▁사바	-6359
▁제네	-6360
▁측근	-6361
▁공용	-6362
트니	-6363
▁전류	-6364
▁하노	-6365
ack	-6366
▁형법	-6367
ive	-6368
▁맥스	-6369
▁공전	-6370
▁전두	-6371
▁점유	-6372
▁귀환	-6373
▁권유	-6374
▁로빈	-6375
▁완화	-6376
▁스콧	-6377
ure	-6378
어내	-6379
▁여덟	-6380
▁출구	-6381
▁짙	-6382
▁IP	-6383
▁경선	-6384
▁중도	-6385
IT	-6386
▁보드	-6387
▁차체	-6388
트롤	-6389
▁제의	-6390
란트	-6391
▁중독	-6392
▁젖	-6393
▁친선	-6394
▁게이트	-6395
▁수학자	-6396
▁둘러싸이	-6397
▁연수	-6398
▁스타크래프트	-6399
악기	-6400
▁성벽	-6401
▁애플리케이션	-6402
▁요미우리	-6403
▁샬	-6404
▁턴	-6405
▁히라	-6406
▁174	-6407
균관	-6408
▁152	-6409
운서	-6410
▁미하	-6411
▁옐	-6412
▁트윈	-6413
리티	-6414
ock	-6415
▁서열	-6416
▁아나운서	-6417
루미	-6418
▁마운	-6419
▁수산	-6420
▁우즈	-6421
▁살아가	-6422
▁5000	-6423
iv	-6424
▁플라스	-6425
▁관습	-6426
▁소송법	-6427
▁오렌	-6428
▁시드니	-6429
▁테일러	-6430
▁구동	-6431
▁세례	-6432
▁지각	-6433
주곡	-6434
▁검증	-6435
▁노동조합	-6436
▁메디	-6437
▁존경	-6438
▁서일본	-6439
▁석탄	-6440
▁정찰	-6441
▁조용	-6442
▁피난	-6443
▁뱅크	-6444
▁쇼핑	-6445
결승	-6446
▁157	-6447
▁Ar	-6448
토미	-6449
▁전문학교	-6450
▁으	-6451
▁변동	-6452
▁사명	-6453
▁뷔	-6454
▁장성	-6455
▁련	-6456
▁밀양	-6457
츠키	-6458
▁규격	-6459
▁금성	-6460
▁사인	-6461
▁실용	-6462
ck	-6463
▁전장	-6464
▁행진	-6465
▁꼴	-6466
▁곁	-6467
▁번뇌	-6468
▁전진	-6469
▁한화	-6470
▁프로세스	-6471
▁인과	-6472
▁수신	-6473
▁좌표	-6474
▁청와	-6475
▁한강	-6476
문관	-6477
▁루수	-6478
▁하버드	-6479
▁고개	-6480
▁디젤	-6481
▁준공	-6482
▁얼마나	-6483
▁신칸	-6484
▁빌헬	-6485
▁테오	-6486
▁미스터	-6487
▁책봉	-6488
▁청와대	-6489
가루	-6490
▁백신	-6491
▁카나	-6492
▁기울이	-6493
▁염색	-6494
▁자율	-6495
▁ㅈㅏㅁㅕㄴ	-6496
사기	-6497
▁급진	-6498
폴리스	-6499
▁다이아	-6500
▁복소	-6501
▁이슈	-6502
▁해전	-6503
▁킨	-6504
▁관현	-6505
▁신전	-6506
▁여의	-6507
▁장인	-6508
▁퇴각	-6509
▁호평	-6510
▁뿔	-6511
▁가즈	-6512
▁구제	-6513
원숭이	-6514
▁취약	-6515
외선	-6516
▁회수	-6517
▁상상	-6518
▁힘쓰	-6519
▁j	-6520
포스	-6521
▁국어	-6522
▁카시	-6523
▁MP	-6524
▁메가	-6525
▁적대	-6526
▁해임	-6527
▁자손	-6528
▁할당	-6529
▁성균관	-6530
전자	-6531
▁아울러	-6532
산군	-6533
니스트	-6534
▁연구자	-6535
끄럽	-6536
▁관념	-6537
▁흥행	-6538
▁판매량	-6539
카드	-6540
▁쏟	-6541
▁105	-6542
자와	-6543
▁몰락	-6544
▁무효	-6545
▁비극	-6546
▁연루	-6547
▁제휴	-6548
▁소총	-6549
▁식당	-6550
악단	-6551
▁소금	-6552
▁통행	-6553
하르트	-6554
트랙	-6555
▁따위	-6556
▁상류	-6557
▁히스	-6558
▁125	-6559
▁지분	-6560
▁승차	-6561
▁이순	-6562
▁146	-6563
▁1500	-6564
수수	-6565
혁명	-6566
▁남양	-6567
▁박영	-6568
▁파스	-6569
▁남인	-6570
▁적히	-6571
▁천문학	-6572
▁쥬	-6573
▁서독	-6574
▁여수	-6575
▁김용	-6576
▁루터	-6577
▁악마	-6578
▁응답	-6579
▁달아나	-6580
▁1911	-6581
▁이노	-6582
▁쳐	-6583
▁강사	-6584
▁술탄	-6585
12	-6586
▁휩	-6587
▁흩	-6588
▁나미	-6589
▁윌슨	-6590
▁착공	-6591
▁저기압	-6592
▁3000	-6593
▁들리	-6594
▁에티	-6595
▁창업	-6596
▁패전	-6597
▁동남아시아	-6598
▁마찰	-6599
▁외무	-6600
▁신칸센	-6601
ime	-6602
▁두드	-6603
▁두르	-6604
▁유출	-6605
▁쇄	-6606
▁이복	-6607
▁끈	-6608
▁우정	-6609
▁153	-6610
▁문제점	-6611
▁자책점	-6612
▁민국	-6613
▁성전	-6614
고속도로	-6615
▁나열	-6616
▁원나라	-6617
메르	-6618
▁마오	-6619
▁충족	-6620
▁프로토콜	-6621
라트	-6622
▁노드	-6623
▁믿음	-6624
▁여래	-6625
▁얇	-6626
▁매출	-6627
▁소관	-6628
▁저택	-6629
▁석가	-6630
▁소닉	-6631
▁아니하	-6632
▁항공모	-6633
▁하마	-6634
one	-6635
▁고원	-6636
▁곳곳	-6637
▁사지	-6638
▁순천	-6639
▁갈라지	-6640
▁PS	-6641
▁소재지	-6642
▁Le	-6643
▁디비	-6644
▁과목	-6645
▁조언	-6646
▁청사	-6647
일드	-6648
▁일렉	-6649
▁시외버스	-6650
▁단원	-6651
▁로고	-6652
▁카트	-6653
서양	-6654
제프	-6655
▁매개	-6656
▁희극	-6657
▁배구	-6658
▁서서	-6659
▁예배	-6660
▁이이	-6661
▁강수량	-6662
▁문재인	-6663
▁유언	-6664
▁증후	-6665
▁103	-6666
▁우주선	-6667
▁내내	-6668
▁동위	-6669
▁마천	-6670
팩트	-6671
▁아즈	-6672
▁폴리스	-6673
▁중점	-6674
▁지목	-6675
▁소지	-6676
▁떠오르	-6677
▁빌헬름	-6678
▁지지자	-6679
대군	-6680
▁비아	-6681
네이	-6682
▁보잉	-6683
▁환원	-6684
▁힌두	-6685
▁ISO	-6686
▁이글	-6687
▁Pro	-6688
▁찾아보	-6689
▁카자흐	-6690
토시	-6691
▁고무	-6692
▁환상	-6693
펴보	-6694
▁회견	-6695
▁살펴보	-6696
▁미얀마	-6697
▁고베	-6698
▁중장	-6699
▁천사	-6700
▁클린	-6701
▁MC	-6702
▁주권	-6703
▁특유	-6704
델피아	-6705
▁필라델피아	-6706
▁연인	-6707
▁회계	-6708
▁개업	-6709
▁공자	-6710
▁매사	-6711
▁눈물	-6712
▁법령	-6713
▁취재	-6714
▁편곡	-6715
▁셈	-6716
▁매기	-6717
▁선원	-6718
▁오클	-6719
ML	-6720
▁시립	-6721
▁비틀즈	-6722
AP	-6723
노리	-6724
▁기장	-6725
▁포장	-6726
▁해역	-6727
▁제트	-6728
▁후자	-6729
▁참가자	-6730
기니	-6731
노프	-6732
▁성모	-6733
▁나리	-6734
즈카	-6735
▁출입구	-6736
▁굵	-6737
▁155	-6738
▁겸임	-6739
▁공인	-6740
▁각본가	-6741
어리	-6742
▁친척	-6743
▁삿	-6744
▁중종	-6745
OC	-6746
▁닭	-6747
▁별개	-6748
▁일관	-6749
▁최적	-6750
▁진리	-6751
▁근접	-6752
▁터지	-6753
▁독립운동가	-6754
▁반격	-6755
마사	-6756
▁토크	-6757
▁협동	-6758
▁각기	-6759
▁공략	-6760
▁우편	-6761
▁보충	-6762
받침	-6763
▁카타	-6764
▁버튼	-6765
▁추모	-6766
시온	-6767
▁회화	-6768
▁오렌지	-6769
▁주파수	-6770
▁사가	-6771
▁와인	-6772
▁유해	-6773
▁점프	-6774
▁정치가	-6775
te	-6776
▁밭	-6777
▁앞면	-6778
▁별자리	-6779
▁증후군	-6780
동물	-6781
소스	-6782
▁이원	-6783
▁토리	-6784
▁허브	-6785
리크	-6786
▁게재	-6787
▁상자	-6788
▁격렬	-6789
▁법무	-6790
▁위장	-6791
▁유격	-6792
▁포수	-6793
▁108	-6794
▁이어서	-6795
▁항공모함	-6796
▁패스	-6797
▁빼앗기	-6798
▁동등	-6799
▁리메	-6800
▁민영	-6801
▁성주	-6802
▁생일	-6803
▁오키나	-6804
▁Bo	-6805
▁북동부	-6806
▁두드러지	-6807
▁미소	-6808
▁태우	-6809
▁컨트롤	-6810
▁사물	-6811
▁인형	-6812
▁트라이	-6813
▁실종	-6814
▁영동	-6815
▁이바	-6816
▁가라	-6817
▁아군	-6818
▁평행	-6819
▁두산	-6820
▁Con	-6821
▁개찰구	-6822
▁오디오	-6823
▁토요일	-6824
산면	-6825
▁나고	-6826
▁대답	-6827
▁유교	-6828
▁채무	-6829
▁담배	-6830
▁민사	-6831
▁아바	-6832
▁인격	-6833
▁합법	-6834
▁베르크	-6835
▁ㅇㅏㄹㅏ	-6836
플러	-6837
▁매력	-6838
▁감지	-6839
▁일찍이	-6840
▁사우디아	-6841
▁이인	-6842
▁룰	-6843
때로	-6844
▁레전	-6845
▁지우	-6846
▁테스	-6847
▁준결승	-6848
▁금액	-6849
▁미루	-6850
▁서해	-6851
▁하우	-6852
▁승무원	-6853
▁스파이	-6854
산리	-6855
io	-6856
▁내지	-6857
▁상부	-6858
▁외곽	-6859
▁아리스	-6860
상스	-6861
▁퍼시픽	-6862
▁히데요시	-6863
▁에디	-6864
▁일족	-6865
ber	-6866
▁고체	-6867
▁야간	-6868
▁양상	-6869
▁나고야	-6870
▁건의	-6871
▁교장	-6872
▁에우	-6873
▁자발	-6874
▁하인리히	-6875
▁이영	-6876
▁입상	-6877
▁박탈	-6878
▁스터	-6879
▁아케	-6880
▁화살	-6881
▁이사장	-6882
▁전두환	-6883
▁IT	-6884
베이터	-6885
▁상대방	-6886
▁드라이브	-6887
러미	-6888
▁브래	-6889
▁전례	-6890
▁에이스	-6891
▁해운	-6892
▁때때로	-6893
▁크리스마스	-6894
▁갓	-6895
▁상장	-6896
▁세균	-6897
▁꾀	-6898
▁얘	-6899
▁호세	-6900
▁앙리	-6901
▁생명체	-6902
▁서서히	-6903
▁1909	-6904
▁교단	-6905
▁섞이	-6906
▁외국어	-6907
가타	-6908
항공	-6909
화점	-6910
▁사다	-6911
▁트럼프	-6912
퍼니	-6913
▁싸이	-6914
▁대주교	-6915
▁시청자	-6916
▁ㅈㅏㄱㅗ	-6917
▁이슬람교	-6918
▁추격	-6919
▁김영삼	-6920
▁아우구	-6921
▁만세	-6922
▁149	-6923
▁128	-6924
▁캠페인	-6925
▁궁정	-6926
▁기금	-6927
▁복장	-6928
Pa	-6929
▁톈	-6930
▁부착	-6931
▁102	-6932
▁맵	-6933
▁콜라	-6934
▁향교	-6935
▁보스니아	-6936
모어	-6937
▁홍수	-6938
▁메타	-6939
▁물자	-6940
▁명의	-6941
▁무려	-6942
▁수성	-6943
▁연도	-6944
람회	-6945
▁고발	-6946
▁그만두	-6947
▁사용자	-6948
▁시라	-6949
▁전도	-6950
▁건축가	-6951
라이트	-6952
칠리아	-6953
▁제작자	-6954
▁안장	-6955
▁운동장	-6956
구장	-6957
▁골프	-6958
▁대군	-6959
▁#	-6960
▁치세	-6961
▁가르침	-6962
▁ㅈㅏㅁㅏ	-6963
▁배틀	-6964
▁어드	-6965
▁트위	-6966
▁호칭	-6967
▁후안	-6968
▁고가	-6969
▁짜리	-6970
▁트루	-6971
▁펼쳐지	-6972
▁발원	-6973
▁정밀	-6974
▁최저	-6975
▁르네상스	-6976
▁사우디아라비아	-6977
ge	-6978
age	-6979
▁긴장	-6980
▁대외	-6981
▁주지사	-6982
▁텍스트	-6983
▁에스파냐	-6984
▁집계	-6985
▁차남	-6986
먼드	-6987
▁계절	-6988
▁남한	-6989
▁발현	-6990
트릭	-6991
▁슬라	-6992
▁직책	-6993
▁셸	-6994
라미	-6995
▁전대	-6996
iz	-6997
집합	-6998
▁쉐	-6999
백과	-7000
▁여주	-7001
▁키프	-7002
▁중재	-7003
▁중국인	-7004
▁아미타	-7005
▁ㅈㅏㅁㅏㅈㅏ	-7006
▁$	-7007
▁Bl	-7008
▁섭취	-7009
▁존중	-7010
▁사이버	-7011
▁문양	-7012
▁네이버	-7013
▁자유당	-7014
▁송나라	-7015
▁세미	-7016
▁흘러	-7017
▁ㅇㅓㄷㅏ	-7018
▁포도주	-7019
나리	-7020
▁대니	-7021
▁시오	-7022
▁팽창	-7023
▁포괄	-7024
▁ᆯㄲㅏ	-7025
▁턱	-7026
▁원자로	-7027
▁피고	-7028
▁초창	-7029
▁향후	-7030
▁고래	-7031
▁레이저	-7032
▁강경	-7033
▁다중	-7034
▁리오	-7035
AD	-7036
▁며칠	-7037
▁상세	-7038
▁룽	-7039
▁단기	-7040
▁레전드	-7041
언스	-7042
▁넓히	-7043
▁조반	-7044
▁팔레스	-7045
▁청장	-7046
▁충주	-7047
▁최소한	-7048
생활	-7049
차례	-7050
▁조리	-7051
▁뽑히	-7052
▁사절	-7053
▁수평	-7054
▁태생	-7055
▁토마	-7056
▁127	-7057
▁탐지	-7058
▁블루스	-7059
▁로프	-7060
▁보리	-7061
▁CPU	-7062
▁노란색	-7063
▁댐	-7064
▁여진	-7065
▁아미노	-7066
▁고사	-7067
▁스릴	-7068
▁손가락	-7069
▁프랭크	-7070
▁왜성	-7071
▁토스	-7072
▁그랑프리	-7073
▁경부	-7074
▁147	-7075
▁엘리베이터	-7076
▁수군	-7077
▁1915	-7078
▁갑작	-7079
▁굉장	-7080
▁단점	-7081
▁방침	-7082
▁기수	-7083
▁볼리	-7084
▁케네	-7085
▁속성	-7086
▁역명	-7087
▁명목	-7088
▁하이드	-7089
sp	-7090
서리	-7091
울리	-7092
노부	-7093
▁객관	-7094
▁무죄	-7095
수엘라	-7096
▁난민	-7097
▁메인	-7098
▁동독	-7099
▁초연	-7100
▁로맨스	-7101
▁겔	-7102
▁1913	-7103
▁딩	-7104
▁알코	-7105
▁캄보	-7106
행위	-7107
▁촉구	-7108
▁마비	-7109
▁전함	-7110
orld	-7111
▁제곱	-7112
▁추증	-7113
▁황해	-7114
▁숭배	-7115
우라	-7116
▁북구	-7117
▁주축	-7118
▁171	-7119
▁동당	-7120
▁진군	-7121
▁취지	-7122
▁유소년	-7123
▁부천	-7124
▁오키나와	-7125
라리	-7126
▁윌리엄스	-7127
▁라파	-7128
▁낙선	-7129
▁입체	-7130
▁협조	-7131
▁후일	-7132
▁이어받	-7133
▁캐스팅	-7134
▁북방	-7135
▁분광	-7136
▁심의	-7137
▁테니스	-7138
▁위키백과	-7139
ik	-7140
▁음원	-7141
▁천문학자	-7142
두르	-7143
창군	-7144
▁따뜻	-7145
▁신흥	-7146
▁김재	-7147
▁동년	-7148
▁둘레	-7149
▁침몰	-7150
▁문학상	-7151
▁상당수	-7152
▁유니폼	-7153
▁베네수엘라	-7154
▁광년	-7155
▁김수	-7156
▁투르크	-7157
▁동래	-7158
▁부과	-7159
▁창건	-7160
기지	-7161
▁마하	-7162
▁출토	-7163
▁타르	-7164
▁추상	-7165
시티	-7166
▁태수	-7167
▁강과	-7168
▁낮추	-7169
▁대포	-7170
▁옥스	-7171
▁시그	-7172
▁초창기	-7173
▁개미	-7174
▁컬러	-7175
▁닿	-7176
▁팜	-7177
▁서사	-7178
▁재미	-7179
▁창시	-7180
▁센서	-7181
명사전	-7182
자치도	-7183
▁제주특별	-7184
▁제주특별자치도	-7185
▁원고	-7186
▁원반	-7187
▁언제나	-7188
포구	-7189
▁대역	-7190
▁이민자	-7191
▁수령	-7192
▁GT	-7193
▁수렴	-7194
▁이틀	-7195
▁169	-7196
▁CE	-7197
▁병역	-7198
▁카탈	-7199
▁코프	-7200
▁탈환	-7201
▁1895	-7202
▁수동	-7203
크리트	-7204
▁스파르타	-7205
▁어업	-7206
▁디스플레이	-7207
▁나가사키	-7208
▁바흐	-7209
▁al	-7210
▁머신	-7211
▁남원	-7212
▁링컨	-7213
▁무제	-7214
▁리메이크	-7215
▁딴	-7216
평군	-7217
▁SP	-7218
▁프레스	-7219
여지	-7220
▁내주	-7221
▁울리	-7222
▁WWE	-7223
▁기습	-7224
▁아폴	-7225
▁통칭	-7226
▁141	-7227
▁총선거	-7228
▁팔레스타인	-7229
▁모스	-7230
▁ㅇㅔㄷㅏ	-7231
▁광부	-7232
박쥐	-7233
▁쓰러지	-7234
▁인재	-7235
▁아사히	-7236
▁김진	-7237
▁흩어지	-7238
포트	-7239
▁Tr	-7240
▁동력	-7241
▁법제	-7242
▁종결	-7243
▁언론인	-7244
▁대처	-7245
▁유수	-7246
▁총괄	-7247
네스코	-7248
▁135	-7249
▁나주	-7250
▁적자	-7251
MS	-7252
공신	-7253
▁국사	-7254
▁주차	-7255
▁하부	-7256
▁ㄹㅐ	-7257
▁때리	-7258
▁비문	-7259
▁찾아내	-7260
▁다운로드	-7261
벌레	-7262
▁유연	-7263
▁초상화	-7264
▁한동안	-7265
▁엔지	-7266
▁온천	-7267
▁북서부	-7268
무기	-7269
그라드	-7270
▁탤	-7271
▁섭정	-7272
▁도호쿠	-7273
▁자기장	-7274
▁걱	-7275
보기	-7276
▁풋볼	-7277
ust	-7278
자스	-7279
▁계몽	-7280
▁소실	-7281
▁수용소	-7282
석기	-7283
▁대제	-7284
▁양주	-7285
▁문화방송	-7286
▁시공	-7287
▁ㄷㅡㄴㅈㅣ	-7288
와라	-7289
▁서머	-7290
▁신세	-7291
▁이진	-7292
▁후세	-7293
▁111	-7294
ep	-7295
▁해병대	-7296
▁어스	-7297
▁효력	-7298
▁144	-7299
선거	-7300
▁정말	-7301
▁청원	-7302
▁개관	-7303
▁귀중	-7304
▁반박	-7305
▁고백	-7306
▁끊임	-7307
▁나르	-7308
▁서울대	-7309
▁번영	-7310
▁후대	-7311
▁영리	-7312
▁저명	-7313
▁차기	-7314
▁더글	-7315
▁신중	-7316
▁중순	-7317
▁오빠	-7318
▁바실	-7319
▁몰아내	-7320
▁hPa	-7321
▁김태	-7322
▁김포	-7323
▁면하	-7324
▁스핀	-7325
▁스티브	-7326
▁폐위	-7327
▁함유	-7328
▁식별	-7329
▁첨가	-7330
▁풍경	-7331
▁아레나	-7332
▁대위	-7333
▁십자가	-7334
▁큰	-7335
int	-7336
▁장미	-7337
▁연세대	-7338
▁제수	-7339
▁기요	-7340
▁내외	-7341
▁평야	-7342
▁119	-7343
▁스릴러	-7344
▁컬럼비아	-7345
누엘	-7346
▁두루	-7347
▁무상	-7348
▁정전	-7349
▁리버풀	-7350
▁컴퍼니	-7351
▁파업	-7352
▁휴식	-7353
▁TH	-7354
▁공채	-7355
▁날짜	-7356
▁정무	-7357
▁조달	-7358
▁천도	-7359
▁캄보디아	-7360
▁인산	-7361
▁It	-7362
▁불편	-7363
▁신학교	-7364
▁이광	-7365
트리올	-7366
▁다니엘	-7367
▁케네디	-7368
▁몬트리올	-7369
▁도스	-7370
▁언더	-7371
따르	-7372
▁매카	-7373
▁별칭	-7374
키지	-7375
▁삼진	-7376
▁충실	-7377
▁172	-7378
▁교양	-7379
▁드럼	-7380
▁원내	-7381
▁CO	-7382
▁간호	-7383
▁아종	-7384
▁요르	-7385
▁중소	-7386
▁편리	-7387
GC	-7388
푸스	-7389
▁소환	-7390
EN	-7391
▁관통	-7392
▁총사	-7393
▁유니버	-7394
▁걱정	-7395
▁루시	-7396
▁병조	-7397
▁전성기	-7398
▁평일	-7399
▁꽤	-7400
시로	-7401
▁북위	-7402
▁사회학	-7403
▁우연히	-7404
▁친일인	-7405
▁친일인명사전	-7406
ib	-7407
▁룡	-7408
▁이글스	-7409
▁유네스코	-7410
▁껍질	-7411
▁명백	-7412
▁묘역	-7413
▁신기	-7414
▁장안	-7415
▁신학자	-7416
▁교원	-7417
▁선구	-7418
▁애덤	-7419
▁106	-7420
릴라	-7421
▁미주	-7422
▁바퀴	-7423
▁평하	-7424
▁니콜라	-7425
▁아틀레	-7426
▁페르난	-7427
스럽	-7428
ome	-7429
▁총대	-7430
▁테레	-7431
▁카리브	-7432
▁ㄲㅔㅅㅓ	-7433
▁베드	-7434
▁선종	-7435
▁해수	-7436
▁휴전	-7437
▁엔지니어	-7438
ian	-7439
ude	-7440
▁덤	-7441
그로	-7442
▁당일	-7443
▁위임	-7444
▁스페이스	-7445
니치	-7446
▁관람	-7447
▁리어	-7448
▁모방	-7449
▁아벨	-7450
▁공모	-7451
▁중량	-7452
▁김상	-7453
▁의상	-7454
▁고민	-7455
▁제갈	-7456
▁증진	-7457
▁공직	-7458
▁미즈	-7459
▁연패	-7460
케이션	-7461
▁프랑수아	-7462
▁슈트	-7463
▁승점	-7464
▁콰	-7465
▁초과	-7466
▁표명	-7467
▁콘크리트	-7468
▁등재	-7469
▁평범	-7470
▁아이슬	-7471
▁We	-7472
▁도주	-7473
▁보완	-7474
▁서남	-7475
▁알아	-7476
▁좌절	-7477
▁지혜	-7478
▁세계관	-7479
▁에스토	-7480
▁한성부	-7481
▁마츠	-7482
▁낱말	-7483
▁미토	-7484
▁정렬	-7485
▁지폐	-7486
▁소통	-7487
▁쇼트	-7488
▁생전	-7489
▁장려	-7490
내셔널	-7491
▁아이템	-7492
▁인터내셔널	-7493
▁멋	-7494
세츠	-7495
▁마인	-7496
▁열대	-7497
페르	-7498
ere	-7499
▁충북	-7500
▁케이스	-7501
선스	-7502
▁진짜	-7503
▁해변	-7504
▁잦	-7505
▁훔	-7506
▁돌연	-7507
▁방패	-7508
▁책임자	-7509
말라	-7510
▁영남	-7511
▁매사추	-7512
▁우울	-7513
▁전압	-7514
▁고수	-7515
▁배신	-7516
▁일화	-7517
▁합창	-7518
▁외교관	-7519
▁매사추세츠	-7520
▁대웅	-7521
▁상서	-7522
▁아이슬란드	-7523
블로	-7524
▁그루	-7525
▁탱크	-7526
주의자	-7527
▁우라늄	-7528
▁공단	-7529
▁중추원	-7530
치오	-7531
▁단식	-7532
ire	-7533
▁발트	-7534
▁암석	-7535
▁양도	-7536
▁황태자	-7537
루션	-7538
실록	-7539
▁치열	-7540
▁불명	-7541
▁일조	-7542
▁입지	-7543
▁투르	-7544
유행	-7545
▁도라	-7546
▁요하	-7547
▁포격	-7548
라이더	-7549
▁나스	-7550
▁바리	-7551
▁공의회	-7552
▁역설	-7553
▁부채	-7554
▁시흥	-7555
▁퍼센트	-7556
▁스페인어	-7557
▁교외	-7558
▁구이	-7559
▁다치	-7560
▁영장	-7561
ment	-7562
▁소유자	-7563
pe	-7564
ace	-7565
▁레바	-7566
▁호위	-7567
▁도르	-7568
▁도루	-7569
▁호프	-7570
▁시나리오	-7571
▁에스토니아	-7572
▁라이선스	-7573
▁횟	-7574
▁기어	-7575
▁신속	-7576
▁상담	-7577
▁실전	-7578
▁내려지	-7579
▁카이사르	-7580
▁장난	-7581
▁괴롭	-7582
▁에버	-7583
▁친왕	-7584
야시	-7585
▁로열	-7586
▁업계	-7587
▁조이	-7588
▁서정	-7589
▁통근	-7590
▁닝	-7591
ide	-7592
▁평택	-7593
▁밟	-7594
▁쿤	-7595
▁오사	-7596
▁김기	-7597
▁오세	-7598
마드	-7599
▁인연	-7600
▁중심부	-7601
▁물리학자	-7602
▁고령	-7603
▁사슬	-7604
▁오비	-7605
▁육지	-7606
▁창고	-7607
▁친하	-7608
▁대전광역시	-7609
석탑	-7610
▁견디	-7611
▁마약	-7612
▁봉쇄	-7613
▁오노	-7614
▁항소	-7615
오피아	-7616
층석탑	-7617
▁에티오피아	-7618
▁푼	-7619
▁애틀	-7620
▁기인	-7621
▁여지	-7622
▁차종	-7623
▁리비아	-7624
▁어쩌	-7625
▁치즈	-7626
리케인	-7627
바이잔	-7628
▁148	-7629
▁덮이	-7630
▁시선	-7631
▁즈음	-7632
▁현금	-7633
▁할리우드	-7634
▁전라도	-7635
▁슬로바키아	-7636
▁부재	-7637
▁탈당	-7638
▁1916	-7639
▁가로지르	-7640
제리	-7641
▁HT	-7642
▁협주곡	-7643
▁허리케인	-7644
▁신생	-7645
▁지능	-7646
▁136	-7647
▁끓	-7648
▁격투	-7649
▁파장	-7650
▁마이너	-7651
▁스튜어트	-7652
▁닛폰	-7653
▁해소	-7654
▁NBA	-7655
▁아제르	-7656
▁극동	-7657
▁의뢰	-7658
▁실시간	-7659
중국	-7660
▁병행	-7661
▁서재	-7662
▁그로	-7663
▁바닷	-7664
▁순회	-7665
▁얘기	-7666
▁위탁	-7667
지리아	-7668
▁나이지리아	-7669
▁TO	-7670
▁아드	-7671
▁네이션스	-7672
▁아제르바이잔	-7673
위원	-7674
▁낭만	-7675
▁성운	-7676
▁흘리	-7677
▁파이어	-7678
IM	-7679
▁추출	-7680
▁하락	-7681
▁IBM	-7682
아이	-7683
▁동상	-7684
▁입당	-7685
▁조연	-7686
▁갈리	-7687
▁명제	-7688
▁원숭이	-7689
▁이사회	-7690
하면	-7691
▁기단	-7692
▁다항	-7693
▁작센	-7694
▁솜	-7695
▁앓	-7696
▁동이	-7697
▁바스	-7698
▁산림	-7699
▁추세	-7700
▁특집	-7701
▁호기	-7702
▁결혼식	-7703
▁배터리	-7704
시피	-7705
▁막내	-7706
▁알아내	-7707
의자	-7708
▁부적	-7709
▁허리	-7710
▁라이언	-7711
바다	-7712
▁노부나가	-7713
▁시초	-7714
▁워드	-7715
▁의약	-7716
▁급격히	-7717
람쥐	-7718
▁우루과이	-7719
▁쌍둥이	-7720
▁국무총리	-7721
▁패키지	-7722
▁ㄷㅚ	-7723
▁구릉	-7724
▁안성	-7725
▁138	-7726
▁구도	-7727
▁DC	-7728
▁세션	-7729
▁신탁	-7730
▁약칭	-7731
▁전념	-7732
▁한스	-7733
▁실장	-7734
▁평원	-7735
▁브라우저	-7736
▁닷	-7737
▁니아	-7738
▁되게	-7739
▁사헌	-7740
▁유동	-7741
▁면허	-7742
▁반감	-7743
▁지류	-7744
▁데이비스	-7745
cl	-7746
▁솟	-7747
▁가동	-7748
▁격퇴	-7749
▁아마도	-7750
▁딕	-7751
▁구호	-7752
▁중위	-7753
▁현종	-7754
▁페르디	-7755
▁리틀	-7756
▁저하	-7757
▁주행	-7758
▁리우스	-7759
▁백화점	-7760
▁박해	-7761
▁섬기	-7762
▁해밀	-7763
타로	-7764
▁거론	-7765
▁백색	-7766
▁수습	-7767
▁신한	-7768
▁우세	-7769
▁회고	-7770
▁거제	-7771
▁경연	-7772
▁분당	-7773
▁시즈	-7774
▁후쿠시마	-7775
나오	-7776
▁la	-7777
▁객체	-7778
▁돌려	-7779
▁첼시	-7780
▁지선	-7781
▁360	-7782
▁구조물	-7783
파르	-7784
▁레논	-7785
▁신규	-7786
▁안기	-7787
▁이세	-7788
승지	-7789
▁개그	-7790
▁토성	-7791
▁고성	-7792
▁치명	-7793
▁중성자	-7794
▁시칠리아	-7795
▁상공	-7796
▁극히	-7797
▁오바	-7798
▁포터	-7799
▁거행	-7800
▁재위	-7801
▁춘천	-7802
▁바이오	-7803
▁영의정	-7804
▁ㅇㅓㄹㅏ	-7805
토모	-7806
▁최상위	-7807
▁뭉	-7808
타나	-7809
▁복선	-7810
▁라이브러리	-7811
여래	-7812
▁결선	-7813
▁고소	-7814
▁냉각	-7815
▁성숙	-7816
▁탐구	-7817
▁104	-7818
거지	-7819
▁익히	-7820
래스카	-7821
▁사헌부	-7822
▁어울리	-7823
▁도미	-7824
▁생식	-7825
▁외치	-7826
▁라트비아	-7827
▁깨달	-7828
▁아부	-7829
곡리	-7830
▁피에	-7831
마쓰	-7832
▁릉	-7833
대신	-7834
▁En	-7835
▁가면	-7836
▁한쪽	-7837
▁횟수	-7838
▁LP	-7839
▁감리	-7840
▁트래	-7841
▁펌	-7842
▁그램	-7843
▁도장	-7844
▁장학	-7845
▁애틀랜	-7846
▁비시	-7847
▁후방	-7848
▁게르만	-7849
양함	-7850
▁송시	-7851
▁어휘	-7852
▁임용	-7853
▁택시	-7854
▁오피스	-7855
▁랄	-7856
▁해적	-7857
▁혈통	-7858
▁테이블	-7859
리에	-7860
브레	-7861
ark	-7862
▁나비	-7863
▁돌보	-7864
▁모니터	-7865
▁혀	-7866
▁주가	-7867
▁춘추	-7868
리니	-7869
▁주름	-7870
은색	-7871
▁109	-7872
하시	-7873
▁성체	-7874
▁제독	-7875
▁차장	-7876
회장	-7877
▁그날	-7878
▁행적	-7879
▁환영	-7880
▁반도체	-7881
▁Pr	-7882
▁개원	-7883
▁고인	-7884
▁목판	-7885
▁스톡	-7886
▁재현	-7887
▁최악	-7888
▁잔류	-7889
어버리	-7890
▁스트레스	-7891
▁교황청	-7892
데시	-7893
▁ㅅㅗ	-7894
▁데모	-7895
▁비리	-7896
▁이케	-7897
▁칼라	-7898
▁방송사	-7899
▁별다르	-7900
▁올바르	-7901
▁123	-7902
베르토	-7903
▁ㄹㅏㄹ	-7904
▁코무네	-7905
타고	-7906
▁가짜	-7907
▁정점	-7908
▁휴스턴	-7909
▁대학생	-7910
▁뢰	-7911
▁옴	-7912
▁우위	-7913
▁반경	-7914
▁공수	-7915
▁동점	-7916
▁축하	-7917
▁대표작	-7918
▁하워드	-7919
더슨	-7920
▁아홉	-7921
고쿠	-7922
▁민회	-7923
▁바나	-7924
▁소매	-7925
▁햇	-7926
▁왜냐	-7927
▁통증	-7928
푸르트	-7929
▁억압	-7930
▁부당	-7931
▁펜실	-7932
▁폭동	-7933
베이니아	-7934
▁공산주의자	-7935
▁펜실베이니아	-7936
▁견제	-7937
▁명령어	-7938
▁매입	-7939
▁현저	-7940
ㄷㅓㄴ	-7941
▁루프	-7942
▁성취	-7943
포드	-7944
헤이	-7945
▁시바	-7946
▁인플	-7947
▁적당	-7948
▁종로구	-7949
▁타이거즈	-7950
▁순교	-7951
▁연하	-7952
▁AK	-7953
▁고장	-7954
▁광물	-7955
▁주주	-7956
▁한인	-7957
▁힘입	-7958
▁헐	-7959
란히	-7960
▁분비	-7961
▁아담	-7962
▁143	-7963
▁분기점	-7964
▁연합회	-7965
▁카자흐스탄	-7966
▁터치	-7967
▁야구장	-7968
▁너비	-7969
▁노바	-7970
차기	-7971
▁NC	-7972
▁벌금	-7973
▁주역	-7974
랜트	-7975
▁열정	-7976
▁AR	-7977
▁경관	-7978
▁여당	-7979
▁처녀	-7980
바시	-7981
▁다발	-7982
▁상점	-7983
▁수련	-7984
▁청춘	-7985
법인	-7986
▁리우	-7987
▁산란	-7988
▁신조	-7989
▁육체	-7990
▁동아일보	-7991
은이	-7992
▁누이	-7993
▁상단	-7994
▁이식	-7995
▁베스	-7996
▁사모	-7997
▁부르크	-7998
▁호랑이	-7999
▁이화	-8000
▁축적	-8001
글리	-8002
▁암시	-8003
▁팡	-8004
▁유한	-8005
▁토모	-8006
▁히메	-8007
AL	-8008
▁CS	-8009
▁염기	-8010
▁존속	-8011
▁피츠	-8012
▁이에야스	-8013
▁돋	-8014
▁성사	-8015
▁신주	-8016
▁제하	-8017
▁출처	-8018
▁마야	-8019
▁응원	-8020
▁col	-8021
▁롤링	-8022
▁비자	-8023
산동	-8024
▁컴파	-8025
▁팔라	-8026
▁자민	-8027
▁제프	-8028
▁박람회	-8029
ile	-8030
▁근교	-8031
▁블라디미르	-8032
▁휠	-8033
▁CC	-8034
▁목재	-8035
▁남동부	-8036
▁펑크	-8037
▁소나타	-8038
▁플라이	-8039
▁관구	-8040
▁통영	-8041
▁왓	-8042
▁에미	-8043
▁오해	-8044
▁폭행	-8045
▁김경	-8046
러스트	-8047
스틴	-8048
▁해명	-8049
▁룬	-8050
▁래퍼	-8051
▁비싸	-8052
▁음료	-8053
▁이윤	-8054
브리지	-8055
▁알코올	-8056
▁아예	-8057
▁유로파	-8058
▁친일파	-8059
▁다이아몬드	-8060
▁기적	-8061
▁부설	-8062
▁상반	-8063
▁차이점	-8064
▁경상도	-8065
▁태양계	-8066
▁계시	-8067
▁광학	-8068
▁블로그	-8069
▁갈라	-8070
▁법조	-8071
▁설탕	-8072
▁보석	-8073
▁상용	-8074
▁티스	-8075
▁Op	-8076
▁나트	-8077
▁적분	-8078
ies	-8079
▁운하	-8080
▁충전	-8081
▁황실	-8082
▁가죽	-8083
▁놀랍	-8084
▁시골	-8085
▁유죄	-8086
비나	-8087
▁조선일보	-8088
면체	-8089
살이	-8090
▁다녀	-8091
▁사육	-8092
▁신념	-8093
▁생산량	-8094
▁킥	-8095
▁규범	-8096
▁지르	-8097
▁그동안	-8098
▁내보내	-8099
라클	-8100
▁다투	-8101
xt	-8102
기업	-8103
▁만남	-8104
▁이타	-8105
▁증대	-8106
▁CON	-8107
▁말라	-8108
▁무지	-8109
▁경찰청	-8110
▁흠	-8111
▁동국	-8112
▁카롤	-8113
▁중의원	-8114
▁라오스	-8115
▁베어스	-8116
▁브라더스	-8117
도리	-8118
▁공익	-8119
▁단단	-8120
▁112	-8121
▁공습	-8122
▁히사	-8123
▁RNA	-8124
▁국소	-8125
▁빨간	-8126
▁합하	-8127
나스	-8128
▁부제	-8129
▁상사	-8130
▁어원	-8131
▁키프로스	-8132
▁거칠	-8133
▁107	-8134
▁공관	-8135
▁미르	-8136
▁시베리아	-8137
▁갇	-8138
ite	-8139
▁시어	-8140
▁우유	-8141
▁사업자	-8142
▁공천	-8143
▁비유	-8144
▁구축함	-8145
▁루이지	-8146
▁트윈스	-8147
▁삼층석탑	-8148
▁후사	-8149
▁깨닫	-8150
▁누나	-8151
▁레일	-8152
▁126	-8153
▁장거리	-8154
▁창원시	-8155
권자	-8156
▁가군	-8157
▁아랍어	-8158
▁우승자	-8159
▁is	-8160
▁신민	-8161
▁조세	-8162
고래	-8163
▁Te	-8164
▁발해	-8165
▁언니	-8166
▁카를로스	-8167
▁당주	-8168
▁성단	-8169
▁수법	-8170
▁옆면	-8171
▁트위터	-8172
▁거북	-8173
▁왜냐하면	-8174
도바	-8175
▁협박	-8176
▁확신	-8177
▁이산화	-8178
레기	-8179
스부르크	-8180
▁사우루스	-8181
▁이순신	-8182
▁줄무늬	-8183
▁신선	-8184
▁품종	-8185
▁탐사선	-8186
랑카	-8187
▁소셜	-8188
▁송시열	-8189
▁범인	-8190
▁헤비	-8191
▁117	-8192
▁교과서	-8193
▁대웅전	-8194
ft	-8195
▁맥락	-8196
▁구출	-8197
▁맥주	-8198
▁굉장히	-8199
▁조종사	-8200
▁플러스	-8201
지붕	-8202
▁대폭	-8203
▁실체	-8204
▁여파	-8205
▁연쇄	-8206
▁제재	-8207
▁동문	-8208
▁천장	-8209
▁할머니	-8210
▁도마뱀붙이	-8211
▁퐁	-8212
수리	-8213
▁왜곡	-8214
▁포럼	-8215
갈색	-8216
▁허위	-8217
▁드로	-8218
▁핸드	-8219
▁법무부	-8220
▁갇히	-8221
▁풀리	-8222
▁평의회	-8223
▁근원	-8224
▁네스	-8225
▁뉘	-8226
▁교정	-8227
▁소원	-8228
▁지평	-8229
▁우호	-8230
▁SE	-8231
▁마디	-8232
▁경보	-8233
▁꾀하	-8234
▁입원	-8235
▁제니	-8236
▁곡인	-8237
▁이경	-8238
▁피우	-8239
▁빈곤	-8240
▁인체	-8241
▁희생자	-8242
▁가마쿠라	-8243
▁아카데미상	-8244
▁인문	-8245
▁임하	-8246
다지	-8247
▁양키스	-8248
▁다지	-8249
▁고속도	-8250
▁빨간색	-8251
▁날씨	-8252
▁탐색	-8253
▁121	-8254
▁350	-8255
▁화장실	-8256
ath	-8257
▁몰래	-8258
▁줄리	-8259
▁진급	-8260
▁진하	-8261
▁com	-8262
▁신약	-8263
▁전자기	-8264
무스	-8265
조부	-8266
▁세라	-8267
▁펠리	-8268
▁137	-8269
▁일반인	-8270
▁통틀	-8271
▁필터	-8272
▁173	-8273
▁바오로	-8274
▁삼성전자	-8275
의장	-8276
▁거울	-8277
▁요동	-8278
▁제대	-8279
ound	-8280
ond	-8281
▁이브	-8282
▁연합국	-8283
▁필리프	-8284
▁CF	-8285
▁비르	-8286
▁일방	-8287
▁테이프	-8288
▁킴	-8289
시타	-8290
▁가축	-8291
OL	-8292
▁방화	-8293
▁후궁	-8294
▁성별	-8295
▁ㄴㅗ	-8296
▁문예	-8297
▁해고	-8298
▁수용체	-8299
▁맘	-8300
연합	-8301
▁결함	-8302
▁불타	-8303
▁샘플	-8304
▁라이너	-8305
▁총독부	-8306
▁1894	-8307
마루	-8308
승부	-8309
ㄷㅡㄴ	-8310
게이머	-8311
▁프로게이머	-8312
ory	-8313
▁승계	-8314
▁자아	-8315
▁주이	-8316
▁냄	-8317
▁양측	-8318
▁왕복	-8319
▁포병	-8320
▁물려받	-8321
▁헥	-8322
▁워터	-8323
▁엿	-8324
수소	-8325
▁믹스	-8326
베니아	-8327
▁113	-8328
▁가장자리	-8329
▁클라우드	-8330
끼리	-8331
▁다크	-8332
▁태권	-8333
▁개교	-8334
▁지미	-8335
▁진공	-8336
▁택하	-8337
▁철회	-8338
▁근로자	-8339
▁크리스토퍼	-8340
대기	-8341
▁만일	-8342
▁아야	-8343
▁핵무기	-8344
그레이드	-8345
▁궁극	-8346
▁레온	-8347
▁투옥	-8348
ov	-8349
▁놓치	-8350
▁문구	-8351
▁세속	-8352
▁수색	-8353
▁슬로베니아	-8354
▁땃	-8355
▁대의원	-8356
▁바티칸	-8357
▁브로드	-8358
▁업그레이드	-8359
▁드레	-8360
▁미션	-8361
▁적도	-8362
▁낫	-8363
▁뒷면	-8364
▁붐	-8365
단체	-8366
▁극심	-8367
▁뒤집	-8368
▁보증	-8369
▁화해	-8370
man	-8371
▁공민	-8372
▁공방	-8373
▁둥지	-8374
▁일가	-8375
▁알제리	-8376
번스	-8377
▁계정	-8378
▁대피	-8379
▁바우	-8380
▁가져가	-8381
로이	-8382
▁로이	-8383
▁서민	-8384
▁도미니	-8385
규모	-8386
▁코스타	-8387
톨레	-8388
▁최강	-8389
▁치안	-8390
그리	-8391
▁비추	-8392
▁혈관	-8393
▁농림	-8394
▁성도	-8395
▁유년	-8396
▁하동	-8397
크라	-8398
▁무어	-8399
▁용병	-8400
아키	-8401
▁먼지	-8402
▁게스트	-8403
▁몬스터	-8404
▁캐시	-8405
▁ㅓㅅㅓ	-8406
▁z	-8407
▁LC	-8408
▁강서	-8409
▁서진	-8410
▁제인	-8411
iver	-8412
▁124	-8413
▁멜로디	-8414
▁최대한	-8415
셰비	-8416
▁On	-8417
▁개종	-8418
▁결코	-8419
퍼런스	-8420
▁IM	-8421
▁신시	-8422
▁칭찬	-8423
▁게이지	-8424
아프리카	-8425
▁관음	-8426
▁군정	-8427
▁시뮬	-8428
▁즉각	-8429
▁판본	-8430
▁독일인	-8431
▁".	-8432
▁로우	-8433
▁공백	-8434
▁횡단	-8435
▁자연수	-8436
▁탤런트	-8437
▁명하	-8438
▁국내외	-8439
박스	-8440
▁be	-8441
▁모친	-8442
▁카카	-8443
▁타당	-8444
▁륙	-8445
▁김현	-8446
▁상표	-8447
▁두껍	-8448
▁스캔	-8449
mer	-8450
▁가루	-8451
▁넘치	-8452
▁성문	-8453
▁야마토	-8454
블리	-8455
▁그냥	-8456
대원군	-8457
▁World	-8458
▁쑤	-8459
로니	-8460
▁그대	-8461
▁피오	-8462
▁남서부	-8463
▁곤란	-8464
▁구절	-8465
▁서초	-8466
▁고고학	-8467
▁커뮤니케이션	-8468
▁제치	-8469
▁체크	-8470
▁학계	-8471
▁김정일	-8472
린스	-8473
▁닫히	-8474
▁초록	-8475
▁프랑크푸르트	-8476
▁내정	-8477
▁미키	-8478
▁욕구	-8479
▁항쟁	-8480
▁SU	-8481
▁일생	-8482
▁베네딕	-8483
▁CR	-8484
▁감자	-8485
▁디렉	-8486
▁야쿠	-8487
▁양호	-8488
▁1890	-8489
▁아랫	-8490
▁원전	-8491
▁풍자	-8492
▁New	-8493
▁영산	-8494
▁데르	-8495
▁우파	-8496
▁초월	-8497
ich	-8498
▁브리지	-8499
드르	-8500
▁러시	-8501
▁자선	-8502
▁오리콘	-8503
▁윤치호	-8504
줄기	-8505
축구	-8506
▁어미	-8507
▁배후	-8508
▁유저	-8509
▁검찰청	-8510
▁114	-8511
▁돌격	-8512
▁발리	-8513
▁땃쥐	-8514
▁자비	-8515
▁조부	-8516
▁시위대	-8517
▁오프닝	-8518
▁이거	-8519
▁제압	-8520
▁라이온즈	-8521
▁맑	-8522
▁부딪	-8523
▁선비	-8524
▁평정	-8525
프레스	-8526
▁기질	-8527
▁정세	-8528
▁침투	-8529
▁기업인	-8530
▁김규	-8531
▁소규모	-8532
▁안토니오	-8533
▁ㄷㅣ	-8534
▁미노	-8535
▁베니	-8536
▁이소	-8537
▁자오	-8538
▁다녀오	-8539
▁EC	-8540
▁대명	-8541
▁정주	-8542
▁므	-8543
▁증손	-8544
▁구스타	-8545
▁이준	-8546
▁분명히	-8547
▁과반	-8548
▁사상자	-8549
▁냉전	-8550
▁떨치	-8551
▁자택	-8552
▁알루미	-8553
▁알아보	-8554
ial	-8555
▁다가오	-8556
▁옵션	-8557
타리오	-8558
렉스	-8559
▁구와	-8560
▁어긋	-8561
▁지침	-8562
▁118	-8563
▁깎	-8564
러드	-8565
▁관세	-8566
▁자음	-8567
▁일리노	-8568
▁드라이버	-8569
IP	-8570
▁예조	-8571
▁블랙홀	-8572
▁히어로즈	-8573
▁가드	-8574
▁악단	-8575
▁이남	-8576
▁파이널	-8577
▁ㅇㅡㄹㅈㅣ	-8578
▁시정	-8579
▁이드	-8580
▁플래시	-8581
▁군중	-8582
▁대거	-8583
▁학명	-8584
▁일리노이	-8585
▁만료	-8586
▁징계	-8587
▁프로덕	-8588
▁도청	-8589
▁빛나	-8590
▁대부	-8591
▁서자	-8592
▁연이	-8593
▁예시	-8594
▁주부	-8595
▁미하일	-8596
▁파란색	-8597
▁Sc	-8598
▁말씀	-8599
▁원로원	-8600
▁풀려나	-8601
▁1898	-8602
ign	-8603
▁봉건	-8604
▁스칼	-8605
▁체스	-8606
▁체조	-8607
▁크리스티안	-8608
▁요정	-8609
▁종착	-8610
▁디비시온	-8611
hn	-8612
황후	-8613
▁재상	-8614
▁저널	-8615
▁하르	-8616
▁115	-8617
▁매니저	-8618
▁경신	-8619
▁괴물	-8620
▁연승	-8621
▁태극	-8622
▁용이	-8623
▁진사	-8624
▁경찰관	-8625
▁극장판	-8626
▁트로이	-8627
▁빔	-8628
▁컷	-8629
▁헬리	-8630
▁갑작스럽	-8631
▁인명	-8632
▁벵	-8633
하루	-8634
▁순조	-8635
▁지인	-8636
닐라	-8637
▁남구	-8638
▁봉안	-8639
▁중형	-8640
▁방사선	-8641
▁비로소	-8642
▁승부차기	-8643
저지	-8644
▁모로코	-8645
▁반지름	-8646
▁통치자	-8647
교도	-8648
▁우측	-8649
▁계열사	-8650
▁우즈베	-8651
▁뭐	-8652
벨트	-8653
히코	-8654
▁로그	-8655
조건	-8656
▁커널	-8657
▁두려	-8658
▁시가지	-8659
고스	-8660
아먹	-8661
▁SD	-8662
▁밀집	-8663
▁세이브	-8664
▁챌린지	-8665
지스	-8666
▁카우	-8667
▁희귀	-8668
▁앵글	-8669
▁헬기	-8670
▁ㅋㅔ	-8671
▁공조	-8672
▁남미	-8673
▁축출	-8674
▁키르	-8675
▁레바논	-8676
▁웨스턴	-8677
▁공감	-8678
▁매매	-8679
▁본국	-8680
▁필사	-8681
▁외야수	-8682
▁무성	-8683
기념	-8684
▁가옥	-8685
▁극작	-8686
▁비기	-8687
▁선도	-8688
▁패럴	-8689
보르	-8690
▁변이	-8691
▁GS	-8692
▁동정	-8693
▁전년	-8694
▁무승부	-8695
▁범유행	-8696
▁`	-8697
▁센티	-8698
마이오스	-8699
▁JT	-8700
▁통보	-8701
▁129	-8702
▁뉴저지	-8703
▁성리학	-8704
타니	-8705
▁직면	-8706
▁하프	-8707
▁부스	-8708
▁소모	-8709
▁웹툰	-8710
▁케냐	-8711
▁쫓겨나	-8712
▁렐	-8713
▁GP	-8714
▁답변	-8715
▁모나	-8716
▁사위	-8717
▁정변	-8718
▁컨셉	-8719
부리	-8720
▁외모	-8721
▁취업	-8722
▁켈리	-8723
▁혜택	-8724
▁대변인	-8725
▁캉	-8726
▁기증	-8727
▁왕세	-8728
▁그레고	-8729
▁글루	-8730
▁핑크	-8731
▁기각	-8732
▁뉴턴	-8733
▁천하	-8734
▁맏	-8735
바닥	-8736
▁의약품	-8737
타리	-8738
rom	-8739
▁코카	-8740
▁광해군	-8741
▁스타리그	-8742
▁럼	-8743
▁믹	-8744
개미	-8745
▁비주	-8746
▁개막전	-8747
▁캔자스	-8748
▁ㅌ	-8749
미사	-8750
▁젊은이	-8751
▁폭넓	-8752
▁체코슬로	-8753
▁체코슬로바키아	-8754
▁말미	-8755
▁숙청	-8756
▁쯔	-8757
▁러셀	-8758
▁예하	-8759
▁중산	-8760
▁쾌속	-8761
▁한족	-8762
▁닦	-8763
▁ㅕㅆ	-8764
▁미세	-8765
▁재혼	-8766
▁학업	-8767
▁벨라루스	-8768
레타	-8769
문트	-8770
▁맥도	-8771
▁발급	-8772
▁종속	-8773
▁황족	-8774
▁알루미늄	-8775
▁Ne	-8776
▁뇌물	-8777
▁첨단	-8778
▁연예인	-8779
▁ㅇㅡㄴㄷㅔ	-8780
▁호출	-8781
▁회관	-8782
▁마운트	-8783
▁괘	-8784
▁퉁	-8785
쟁이	-8786
▁리뷰	-8787
▁바빌	-8788
▁승자	-8789
▁퇴임	-8790
▁옳	-8791
▁스크립	-8792
▁총사령	-8793
▁밝기	-8794
▁빌라	-8795
방송공사	-8796
▁ㄷㅓㄴㅣ	-8797
먼스	-8798
▁로비	-8799
▁오오	-8800
▁스트리	-8801
▁장례식	-8802
느러미	-8803
▁터뜨리	-8804
ph	-8805
▁벽돌	-8806
▁요건	-8807
▁III	-8808
▁중공	-8809
▁창출	-8810
▁천재	-8811
▁조지프	-8812
▁종래	-8813
▁척추	-8814
▁천문대	-8815
▁끌어들이	-8816
▁남작	-8817
▁무명	-8818
▁1899	-8819
▁웬	-8820
수록	-8821
우트	-8822
천리	-8823
▁부피	-8824
▁재선	-8825
▁카디	-8826
▁월요일	-8827
▁감싸	-8828
▁서신	-8829
▁실망	-8830
▁어른	-8831
▁142	-8832
▁난징	-8833
TS	-8834
슬러	-8835
▁각도	-8836
▁기차	-8837
▁유라	-8838
▁일컬	-8839
▁케빈	-8840
▁넘어서	-8841
▁레슬링	-8842
▁부여받	-8843
▁생체	-8844
▁양반	-8845
▁응시	-8846
▁임원	-8847
▁케임	-8848
▁화력	-8849
▁브리튼	-8850
▁옹립	-8851
▁워너	-8852
▁토끼	-8853
▁토양	-8854
▁세이부	-8855
▁청주시	-8856
테르부르크	-8857
▁콕	-8858
▁배수	-8859
▁어긋나	-8860
▁두려워하	-8861
진군	-8862
urn	-8863
▁토미	-8864
▁폭포	-8865
▁기술자	-8866
화물	-8867
▁예고	-8868
코딩	-8869
▁룩셈	-8870
▁발병	-8871
▁설화	-8872
▁워크	-8873
▁관제	-8874
▁유방	-8875
▁저주	-8876
▁전속	-8877
롤라이나	-8878
▁프로덕션	-8879
▁룩셈부르크	-8880
포로	-8881
▁대치	-8882
▁대패	-8883
▁소생	-8884
▁총칭	-8885
▁축물	-8886
▁마르티	-8887
▁사쿠라	-8888
▁플라스틱	-8889
▁얹	-8890
함수	-8891
▁구경	-8892
▁리프	-8893
▁마력	-8894
▁무함	-8895
셰비키	-8896
▁더글러스	-8897
▁미들	-8898
▁사간	-8899
▁성폭	-8900
▁하얗	-8901
▁학기	-8902
▁뒷받침	-8903
▁타임스	-8904
▁확실히	-8905
▁사본	-8906
▁자크	-8907
▁정려	-8908
▁파산	-8909
ction	-8910
틱스	-8911
▁유진	-8912
▁대서양	-8913
▁스즈키	-8914
▁힌두교	-8915
로우	-8916
토르	-8917
▁거래소	-8918
▁프란츠	-8919
시즘	-8920
▁안테	-8921
▁광주광역시	-8922
도스	-8923
럴드	-8924
▁CJ	-8925
▁온타리오	-8926
▁감행	-8927
▁오크	-8928
파이어	-8929
▁ch	-8930
▁시범	-8931
▁금요일	-8932
▁부의장	-8933
▁1902	-8934
▁만성	-8935
▁혼동	-8936
브르	-8937
▁컴백	-8938
▁ID	-8939
▁가야	-8940
▁왼손	-8941
▁중복	-8942
▁지옥	-8943
▁지출	-8944
덩이	-8945
▁거세	-8946
▁보위	-8947
▁화상	-8948
▁플랫폼	-8949
ens	-8950
▁공적	-8951
▁광둥	-8952
▁연산자	-8953
▁잃어버리	-8954
▁등기	-8955
▁명종	-8956
MA	-8957
타주	-8958
▁동네	-8959
▁발기	-8960
pp	-8961
두리	-8962
▁독서	-8963
▁신원	-8964
▁운수	-8965
▁의자	-8966
▁찌르	-8967
▁Man	-8968
▁도카이	-8969
▁우체	-8970
▁화자	-8971
▁대성당	-8972
▁키보드	-8973
▁프톨레	-8974
▁프톨레마이오스	-8975
▁병기	-8976
▁연꽃	-8977
▁위쪽	-8978
▁지치	-8979
lan	-8980
▁설교	-8981
▁수분	-8982
▁그래미	-8983
▁''	-8984
▁니코	-8985
▁채소	-8986
▁피겨	-8987
▁원천	-8988
▁기사단	-8989
▁붙잡히	-8990
▁시코	-8991
▁청산	-8992
▁코시	-8993
▁형조	-8994
치기	-8995
▁물품	-8996
▁피신	-8997
▁지식인	-8998
▁그릇	-8999
▁대손	-9000
▁영등	-9001
▁바깥쪽	-9002
TA	-9003
▁강변	-9004
▁드림	-9005
▁스턴	-9006
▁아리아	-9007
▁사슴	-9008
▁체류	-9009
▁희곡	-9010
▁마녀	-9011
▁시가	-9012
▁원종	-9013
▁지켜	-9014
▁촉매	-9015
▁탄도	-9016
▁포획	-9017
▁감마	-9018
▁페널	-9019
샤바	-9020
lic	-9021
▁개소	-9022
▁게리	-9023
▁국영	-9024
▁비석	-9025
▁표적	-9026
▁뛰어	-9027
▁서류	-9028
▁하단	-9029
▁고양시	-9030
▁아돌프	-9031
▁벨트	-9032
▁교통국	-9033
▁비행장	-9034
▁끊임없이	-9035
▁BS	-9036
▁버드	-9037
▁선배	-9038
▁외관	-9039
▁정성	-9040
폴리	-9041
▁갈수록	-9042
크로	-9043
▁깃발	-9044
▁영문	-9045
▁참의	-9046
▁흔들리	-9047
▁단절	-9048
▁대합	-9049
▁간선	-9050
▁기니	-9051
▁정적	-9052
▁소나무	-9053
▁밍	-9054
글라	-9055
▁강동	-9056
▁마스크	-9057
▁춥	-9058
▁동행	-9059
▁생생	-9060
▁유체	-9061
▁페르디난	-9062
국사	-9063
▁의의	-9064
▁익스프레스	-9065
TC	-9066
▁얽	-9067
▁김지	-9068
▁습지	-9069
▁토착종	-9070
▁단축	-9071
▁스폰	-9072
▁주조	-9073
▁드러머	-9074
▁가환	-9075
▁동학	-9076
▁응하	-9077
▁해밀턴	-9078
▁매카트니	-9079
카가	-9080
▁김창	-9081
▁울프	-9082
▁혐오	-9083
▁ㅇㅡㄹㅕㄱㅗ	-9084
▁몫	-9085
ary	-9086
▁광명	-9087
▁단의	-9088
▁아산	-9089
▁입성	-9090
▁경성부	-9091
▁부회장	-9092
▁이용자	-9093
▁코끼리	-9094
▁서리	-9095
▁압둘	-9096
▁함정	-9097
▁스위치	-9098
▁제국주의	-9099
▁포켓몬스터	-9100
ㅌㅔ	-9101
▁제네바	-9102
▁코믹스	-9103
▁호르몬	-9104
▁선행	-9105
▁세비	-9106
▁화강	-9107
▁ㅎㅏㄴ	-9108
▁러시아어	-9109
구르	-9110
그룹	-9111
▁브뤼	-9112
▁수확	-9113
▁헌신	-9114
▁사이토	-9115
히토	-9116
▁공리	-9117
▁직결	-9118
▁폭격기	-9119
▁1901	-9120
ach	-9121
▁광대	-9122
▁본문	-9123
▁어류	-9124
▁정동	-9125
▁초신	-9126
▁보이스	-9127
▁간토	-9128
▁나노	-9129
▁아이오	-9130
▁여운	-9131
▁이단	-9132
속기	-9133
테인	-9134
▁ㅈㅛ	-9135
▁고아	-9136
▁복용	-9137
out	-9138
▁생략	-9139
▁소시	-9140
▁열도	-9141
▁축조	-9142
▁색채	-9143
▁약자	-9144
ert	-9145
▁쓰촨	-9146
▁알렉산드르	-9147
▁No	-9148
▁부가	-9149
▁일산	-9150
▁임관	-9151
▁퀘벡	-9152
▁울산광역시	-9153
▁입국	-9154
▁서유럽	-9155
짓점	-9156
피어	-9157
▁논하	-9158
▁면제	-9159
▁민감	-9160
▁보트	-9161
▁역량	-9162
▁염증	-9163
▁다항식	-9164
▁부작용	-9165
▁ㅎㅏㄴㅌㅔ	-9166
모스	-9167
▁코코	-9168
▁꼭짓점	-9169
미트	-9170
▁조립	-9171
▁하치	-9172
디나	-9173
▁권총	-9174
▁매수	-9175
▁수축	-9176
▁체르	-9177
▁현은	-9178
▁연기자	-9179
자르	-9180
▁바이킹	-9181
▁삿포로	-9182
▁렘	-9183
▁갱신	-9184
▁경과	-9185
▁무궁	-9186
▁자작	-9187
▁영국인	-9188
▁점성술	-9189
▁쿄	-9190
▁성지	-9191
▁손꼽	-9192
▁정문	-9193
▁체중	-9194
▁커스	-9195
▁아시카가	-9196
▁기숙	-9197
▁드라	-9198
▁표방	-9199
나우	-9200
루아	-9201
타임	-9202
▁서문	-9203
▁카미	-9204
LE	-9205
▁날카	-9206
▁보복	-9207
▁주되	-9208
▁치아	-9209
▁갈릴	-9210
▁이현	-9211
▁사회당	-9212
IG	-9213
링턴	-9214
▁MB	-9215
▁엔딩	-9216
▁크롬	-9217
▁간단히	-9218
▁그다지	-9219
ys	-9220
▁고산	-9221
▁실버	-9222
▁입각	-9223
▁정립	-9224
LS	-9225
▁전방	-9226
▁페니	-9227
▁검열	-9228
▁동조	-9229
▁특권	-9230
▁134	-9231
▁염색체	-9232
▁케임브리지	-9233
▁누적	-9234
▁버티	-9235
▁토기	-9236
일으키	-9237
▁불러일으키	-9238
▁례	-9239
▁아라비아	-9240
▁}	-9241
▁두께	-9242
▁조수	-9243
레슬링	-9244
▁광저우	-9245
▁푸에르	-9246
▁대구광역시	-9247
▁호모	-9248
노미야	-9249
▁요르단	-9250
▁장기간	-9251
ug	-9252
▁썰	-9253
▁보헤	-9254
▁스님	-9255
▁차르	-9256
▁크레이	-9257
▁옥스퍼드	-9258
그라	-9259
내리	-9260
▁김제	-9261
▁분수	-9262
▁원료	-9263
베트남	-9264
▁파이터	-9265
▁가역	-9266
▁상금	-9267
▁학대	-9268
▁트리플	-9269
▁무함마드	-9270
▁캐서	-9271
▁태그	-9272
▁KIA	-9273
펜하	-9274
▁독성	-9275
▁사업가	-9276
▁남매	-9277
▁THE	-9278
▁모서리	-9279
ase	-9280
▁대두	-9281
▁마우	-9282
▁미륵	-9283
▁박지	-9284
▁연봉	-9285
카미	-9286
▁시리	-9287
▁오쿠	-9288
▁갈리아	-9289
사리	-9290
▁원본	-9291
▁카프	-9292
▁All	-9293
▁미시시피	-9294
기스	-9295
▁공명	-9296
▁삼촌	-9297
▁직경	-9298
▁토요	-9299
▁쓰레기	-9300
▁지켜보	-9301
▁1903	-9302
▁프로레슬링	-9303
정리	-9304
▁레즈	-9305
▁불꽃	-9306
▁섹스	-9307
▁1884	-9308
▁Gr	-9309
▁ㅅㅑ	-9310
▁공예	-9311
▁노보	-9312
▁다마	-9313
▁소말	-9314
▁아브	-9315
▁만주국	-9316
▁신도비	-9317
대장	-9318
▁공고	-9319
▁불신	-9320
▁개인전	-9321
▁홈구장	-9322
▁쟈	-9323
퀘어	-9324
▁극대	-9325
▁산출	-9326
▁좌측	-9327
테르담	-9328
▁One	-9329
▁언어학	-9330
▁아인슈타인	-9331
▁이병	-9332
▁퇴역	-9333
▁관광지	-9334
▁이성계	-9335
▁교대	-9336
▁구형	-9337
▁라그	-9338
▁선동	-9339
▁쥐과	-9340
▁패널	-9341
▁하리	-9342
▁훔치	-9343
처스	-9344
▁강간	-9345
▁트로피	-9346
▁표기법	-9347
▁아리스토	-9348
▁EX	-9349
▁중령	-9350
▁하비	-9351
ke	-9352
카타	-9353
▁로저	-9354
▁이관	-9355
▁쓰시마	-9356
▁전염병	-9357
▁알렉산드리아	-9358
아웃	-9359
▁AN	-9360
▁개화	-9361
▁군산	-9362
▁슈팅	-9363
▁질소	-9364
▁니콜라이	-9365
▁루타	-9366
▁에콰	-9367
▁노태우	-9368
▁에콰도르	-9369
▁메커	-9370
▁타케	-9371
▁회상	-9372
▁도널드	-9373
▁어둠	-9374
ㅡㄹㅏ	-9375
▁패밀리	-9376
▁야마구치	-9377
▁정선	-9378
▁날카롭	-9379
▁피고인	-9380
텍처	-9381
▁Cl	-9382
▁퇴적	-9383
▁아키텍처	-9384
▁릿	-9385
▁아폴로	-9386
▁클라이	-9387
▁비타	-9388
▁스텔	-9389
▁히타	-9390
▁당연히	-9391
▁구스	-9392
▁꼭대기	-9393
▁도요토미	-9394
▁어뢰	-9395
▁제로	-9396
▁헌정	-9397
▁조반니	-9398
▁프란체	-9399
▁발렌시아	-9400
▁대문	-9401
▁우치	-9402
▁드레스	-9403
▁충청도	-9404
푸르	-9405
▁검출	-9406
▁뮤지션	-9407
▁복합체	-9408
▁깨지	-9409
▁페널티	-9410
▁1800	-9411
▁LA	-9412
▁공황	-9413
▁마키	-9414
▁실재	-9415
▁지도부	-9416
올로	-9417
▁비뉴	-9418
▁마르틴	-9419
방울	-9420
▁군함	-9421
▁어찌	-9422
▁정유	-9423
▁조형	-9424
▁함선	-9425
▁콤팩트	-9426
리코	-9427
▁달걀	-9428
▁뒤쪽	-9429
▁실무	-9430
▁철폐	-9431
▁삼국지	-9432
라이언트	-9433
그레	-9434
▁원더	-9435
라이어	-9436
▁마르코	-9437
▁히로시	-9438
ree	-9439
▁의결	-9440
▁해남	-9441
▁소방서	-9442
▁슬라브	-9443
▁곡물	-9444
▁기분	-9445
▁농부	-9446
▁당수	-9447
▁이태	-9448
▁장벽	-9449
▁터보	-9450
▁흥선	-9451
테이션	-9452
▁기념관	-9453
▁방글라	-9454
▁프레드	-9455
▁방글라데시	-9456
▁클라이언트	-9457
▁반공	-9458
▁발칸	-9459
▁전위	-9460
▁가오	-9461
▁토시	-9462
사이드	-9463
▁강대	-9464
▁까닭	-9465
▁도선	-9466
▁선우	-9467
▁인질	-9468
니시	-9469
▁경작	-9470
▁내걸	-9471
▁염소	-9472
▁유부	-9473
▁소행성	-9474
나미	-9475
▁강희	-9476
▁우회	-9477
▁카사	-9478
▁기념비	-9479
▁더욱이	-9480
▁카를로	-9481
간지	-9482
▁건륭	-9483
▁김홍	-9484
▁단면	-9485
▁묶이	-9486
▁밀란	-9487
▁분출	-9488
▁상가	-9489
▁하차	-9490
가와현	-9491
▁방사성	-9492
▁일렉트로	-9493
▁북아프리카	-9494
아들	-9495
▁경인	-9496
가르	-9497
▁자형	-9498
▁코믹	-9499
▁팟	-9500
▁물가	-9501
▁상경	-9502
▁전복	-9503
▁복소수	-9504
불교	-9505
▁로라	-9506
▁분량	-9507
▁에밀	-9508
▁우물	-9509
▁전구	-9510
▁활주	-9511
네마	-9512
▁IN	-9513
▁남동생	-9514
▁with	-9515
▁팰	-9516
산맥	-9517
▁기슭	-9518
▁진전	-9519
▁리더십	-9520
▁소수자	-9521
▁가브리	-9522
하키	-9523
▁권장	-9524
▁모모	-9525
▁발령	-9526
▁상응	-9527
▁현감	-9528
▁뉴욕주	-9529
▁다케다	-9530
▁스토어	-9531
▁그레이트	-9532
▁총대주교	-9533
개골	-9534
▁가산	-9535
▁파병	-9536
▁기관총	-9537
▁모리스	-9538
▁메커니즘	-9539
▁오사카부	-9540
▁궁중	-9541
▁상트	-9542
▁세바	-9543
▁수목	-9544
▁회피	-9545
▁아미노산	-9546
act	-9547
▁감안	-9548
▁냄새	-9549
▁중앙아시아	-9550
▁러스	-9551
▁브란	-9552
▁취항	-9553
▁220	-9554
구역	-9555
번뇌	-9556
ass	-9557
▁미라	-9558
▁116	-9559
▁거짓말	-9560
▁견인	-9561
▁관절	-9562
▁막스	-9563
▁세키	-9564
▁용서	-9565
▁창녕	-9566
▁에디션	-9567
▁Ad	-9568
▁대출	-9569
▁후작	-9570
▁교도소	-9571
▁아나키	-9572
11	-9573
▁Br	-9574
▁교량	-9575
▁등용	-9576
▁이북	-9577
▁준주	-9578
▁민간인	-9579
▁전시회	-9580
곡동	-9581
▁소자	-9582
▁안경	-9583
사우	-9584
▁CN	-9585
▁반군	-9586
▁신축	-9587
▁정화	-9588
▁추첨	-9589
▁거주지	-9590
▁각색	-9591
▁기저	-9592
▁맞붙	-9593
▁평창	-9594
▁와일드	-9595
▁포스터	-9596
▁ㅇㅡㄹㄲㅏ	-9597
▁한국방송공사	-9598
사업	-9599
▁농사	-9600
▁돌기	-9601
▁보성	-9602
▁되돌리	-9603
▁캐서린	-9604
▁1897	-9605
▁볼리비아	-9606
▁가계	-9607
▁장자	-9608
▁티코	-9609
▁컨트리	-9610
▁페이스북	-9611
pt	-9612
▁가열	-9613
▁낙동	-9614
▁상법	-9615
▁시야	-9616
▁취미	-9617
▁효고	-9618
▁간신	-9619
▁무슨	-9620
▁샌드	-9621
▁요약	-9622
▁마카오	-9623
▁스트라이크	-9624
▁강남구	-9625
▁방송인	-9626
▁버클리	-9627
▁일자리	-9628
역학	-9629
쿠버	-9630
▁갈래	-9631
▁델타	-9632
▁안산	-9633
▁절단	-9634
▁침체	-9635
▁태백	-9636
▁폭로	-9637
ream	-9638
▁일부분	-9639
▁카스티	-9640
▁일파	-9641
▁한층	-9642
▁교육청	-9643
▁데스크	-9644
▁1860	-9645
▁홉	-9646
▁반전	-9647
▁상고	-9648
▁아소	-9649
▁효종	-9650
벤처	-9651
▁깨끗	-9652
▁델라	-9653
▁올드	-9654
▁어드벤처	-9655
▁꿀	-9656
▁르노	-9657
▁오로	-9658
▁배우자	-9659
▁GO	-9660
▁마블	-9661
▁데카	-9662
▁마니	-9663
▁사살	-9664
▁연대기	-9665
파리	-9666
▁나루	-9667
▁리조	-9668
▁음향	-9669
▁확진	-9670
▁득표율	-9671
▁이주하	-9672
▁장제	-9673
▁휴가	-9674
기념물	-9675
▁가의	-9676
▁수료	-9677
▁알프레	-9678
▁고이	-9679
▁타우	-9680
▁쓸	-9681
▁Is	-9682
▁구약	-9683
▁마가	-9684
▁홍문관	-9685
▁Ex	-9686
▁네오	-9687
▁전산	-9688
▁접수	-9689
▁ㄴㅈㅣ	-9690
▁엇	-9691
▁대관	-9692
▁저렴	-9693
▁추론	-9694
▁스크립트	-9695
▁;&	-9696
▁공손	-9697
▁민정	-9698
▁심화	-9699
▁청색	-9700
▁카즈	-9701
▁카타르	-9702
▁샌디	-9703
▁체력	-9704
▁쿠니	-9705
캐롤라이나	-9706
▁앰	-9707
▁리히	-9708
▁북경	-9709
▁안치	-9710
▁사카이	-9711
▁경제학자	-9712
▁석불	-9713
스카르	-9714
▁122	-9715
츠크	-9716
▁가신	-9717
▁중공업	-9718
나드	-9719
▁글래	-9720
▁미네소	-9721
▁바르샤바	-9722
▁이반	-9723
▁쥐속	-9724
▁타지	-9725
▁모티브	-9726
▁떡	-9727
반구	-9728
▁적군	-9729
산성	-9730
▁이빨	-9731
▁안드레아	-9732
▁유닉스	-9733
도비	-9734
퍼슨	-9735
포터	-9736
▁소행	-9737
▁중원	-9738
▁2022	-9739
▁마애	-9740
▁석회	-9741
▁수중	-9742
▁입주	-9743
▁전격	-9744
▁집결	-9745
▁스퀘어	-9746
▁후반기	-9747
▁동형	-9748
▁막시	-9749
▁살피	-9750
▁게릴라	-9751
▁아마존	-9752
▁죠	-9753
▁타협	-9754
▁클라크	-9755
▁버마	-9756
▁종파	-9757
▁화순	-9758
▁갑옷	-9759
▁윤보	-9760
▁짐작	-9761
▁치우	-9762
▁합당	-9763
콥터	-9764
▁고토	-9765
▁브룩	-9766
▁솔루션	-9767
▁인테르	-9768
▁지지율	-9769
푸아	-9770
▁모용	-9771
▁특색	-9772
▁상트페	-9773
▁상트페테르부르크	-9774
ii	-9775
▁돌입	-9776
▁보강	-9777
▁신정	-9778
▁찰리	-9779
▁흥선대원군	-9780
▁무술	-9781
▁사적	-9782
▁창의	-9783
▁con	-9784
▁설립자	-9785
▁군청	-9786
▁메릴	-9787
▁세네	-9788
▁신동	-9789
▁종점	-9790
▁청소	-9791
▁공용어	-9792
▁1880	-9793
거진	-9794
▁애리	-9795
▁호쿠	-9796
▁NGC	-9797
▁급수	-9798
▁리만	-9799
▁갤러리	-9800
▁두개골	-9801
▁그리스인	-9802
▁눕	-9803
▁BM	-9804
▁강철	-9805
▁격차	-9806
▁과실	-9807
▁무로	-9808
▁정경	-9809
▁옥수수	-9810
▁유대교	-9811
▁감추	-9812
▁메라	-9813
▁용암	-9814
▁마라톤	-9815
▁새로이	-9816
네시	-9817
▁마당	-9818
▁빈도	-9819
▁유정	-9820
▁쳐들	-9821
▁호응	-9822
▁나란히	-9823
▁손꼽히	-9824
▁진행자	-9825
▁셜	-9826
▁어로	-9827
▁예명	-9828
▁장원	-9829
▁제작사	-9830
▁엮	-9831
▁공약	-9832
▁벽화	-9833
▁제리	-9834
▁콘테	-9835
▁함양	-9836
▁133	-9837
▁키예프	-9838
▁돌아다니	-9839
▁함부르크	-9840
▁그레고리오	-9841
▁실적	-9842
리즘	-9843
iss	-9844
▁루크	-9845
▁복권	-9846
▁이장	-9847
▁종말	-9848
▁처지	-9849
▁극작가	-9850
▁천연기념물	-9851
▁가네	-9852
▁노이	-9853
▁스노	-9854
▁추리	-9855
▁괴롭히	-9856
▁붙여지	-9857
▁기성	-9858
▁번성	-9859
▁이언	-9860
▁입양	-9861
▁자결	-9862
▁뻔	-9863
니지	-9864
타케	-9865
ake	-9866
▁ㄷㅔ	-9867
▁소령	-9868
▁일괄	-9869
▁프렌	-9870
▁확고	-9871
▁파라과이	-9872
기구	-9873
▁제왕	-9874
▁팔레	-9875
own	-9876
▁등극	-9877
▁선장	-9878
몰로지	-9879
▁디트로	-9880
▁이동하	-9881
▁디트로이트	-9882
▁가가	-9883
▁블리	-9884
▁왕정	-9885
▁출석	-9886
자치시	-9887
▁그림자	-9888
사관학교	-9889
▁특별자치시	-9890
▁연동	-9891
▁연못	-9892
▁그렇지만	-9893
케이	-9894
▁사쿠	-9895
▁준결승전	-9896
▁ᆫㄷㅏㅁㅕ	-9897
리안	-9898
▁수녀	-9899
▁심야	-9900
어뜨리	-9901
▁Mus	-9902
▁극도	-9903
▁몽고	-9904
▁이규	-9905
▁교육부	-9906
▁법정동	-9907
▁일러스트	-9908
▁오지	-9909
▁유령	-9910
▁랍	-9911
▁진료	-9912
▁경쟁력	-9913
▁무궁화	-9914
▁오락	-9915
▁즐겁	-9916
▁추종	-9917
▁평민	-9918
▁CBS	-9919
▁포도당	-9920
▁조계	-9921
▁펜싱	-9922
▁랴	-9923
▁농어	-9924
▁장흥	-9925
▁헬륨	-9926
▁미생물	-9927
▁고추	-9928
▁열심	-9929
▁CEO	-9930
▁GDP	-9931
▁아래쪽	-9932
▁그레고리	-9933
▁애틀랜타	-9934
▁무스	-9935
▁파우	-9936
▁위나라	-9937
▁사무총장	-9938
▁국유	-9939
▁명분	-9940
▁자생	-9941
▁자카	-9942
▁엘리트	-9943
▁낚	-9944
▁ES	-9945
▁스로	-9946
▁우상	-9947
▁겉보기	-9948
clude	-9949
▁싣	-9950
▁개항	-9951
▁도사	-9952
▁문경	-9953
▁아치	-9954
▁위생	-9955
▁앨리스	-9956
▁미셸	-9957
▁숙주	-9958
▁탁월	-9959
▁132	-9960
▁지방산	-9961
미스	-9962
▁수년	-9963
▁프랭클린	-9964
그래	-9965
타마	-9966
해지	-9967
▁니카	-9968
▁이득	-9969
▁칼뱅	-9970
▁주지	-9971
▁지청	-9972
▁스리랑카	-9973
▁스트라이커	-9974
HO	-9975
림픽	-9976
원장	-9977
old	-9978
▁결핍	-9979
▁듀얼	-9980
▁수심	-9981
▁진수	-9982
UR	-9983
▁유스	-9984
▁이데	-9985
▁정인	-9986
▁총무	-9987
▁대성전	-9988
멘스	-9989
▁더비	-9990
▁반역	-9991
Hz	-9992
▁툰	-9993
세기	-9994
▁재난	-9995
▁프롤	-9996
▁동성애자	-9997
▁섀	-9998
▁감동	-9999
▁까지	-10000
▁아데	-10001
▁앞장	-10002
▁글로브	-10003
▁인프라	-10004
▁시뮬레이션	-10005
에미	-10006
헌영	-10007
▁듀오	-10008
▁리모	-10009
▁++	-10010
▁광양	-10011
▁동요	-10012
▁애칭	-10013
▁삼국사기	-10014
위성	-10015
▁빈번	-10016
▁상연	-10017
▁정관	-10018
ㄴㅣㄲㅏ	-10019
▁인디애나	-10020
스기	-10021
▁대지진	-10022
▁결제	-10023
▁김민	-10024
미즈	-10025
▁NE	-10026
▁ㄹㅑ	-10027
▁꿈꾸	-10028
▁원격	-10029
▁초원	-10030
▁온갖	-10031
▁워치	-10032
바야시	-10033
▁마다가	-10034
ork	-10035
▁주화	-10036
▁해치	-10037
버러	-10038
▁격자	-10039
▁속편	-10040
▁조병	-10041
▁파이프	-10042
▁극락	-10043
▁베른	-10044
▁속이	-10045
▁무조건	-10046
ix	-10047
▁동참	-10048
▁시종	-10049
▁타석	-10050
▁마우스	-10051
거래	-10052
렉션	-10053
▁브랜	-10054
▁현직	-10055
▁호족	-10056
▁기상청	-10057
▁미주리	-10058
▁쾰	-10059
벨라	-10060
파크	-10061
▁강풍	-10062
▁복음서	-10063
▁요제프	-10064
GA	-10065
메다	-10066
▁or	-10067
▁재해	-10068
ㅇㅗ	-10069
▁현행	-10070
ence	-10071
▁국수	-10072
▁대사헌	-10073
▁보헤미아	-10074
▁패럴림픽	-10075
▁막히	-10076
▁상기	-10077
▁속주	-10078
▁pro	-10079
해튼	-10080
▁대국	-10081
▁현황	-10082
▁농산물	-10083
▁자세히	-10084
()	-10085
lo	-10086
천사	-10087
▁가타	-10088
▁김옥	-10089
▁신상	-10090
▁암흑	-10091
▁호리	-10092
▁저널리	-10093
▁대각	-10094
▁두렵	-10095
▁발각	-10096
▁요법	-10097
위원회	-10098
▁ㅎㅏㄱㅗ	-10099
러피	-10100
▁Ro	-10101
▁단과	-10102
▁맹세	-10103
▁청자	-10104
▁우체국	-10105
▁평안남도	-10106
▁kt	-10107
▁빠져	-10108
▁숨지	-10109
▁통틀어	-10110
루냐	-10111
ick	-10112
▁라오	-10113
▁피로	-10114
▁볼셰비키	-10115
▁무르	-10116
▁불행	-10117
▁투항	-10118
▁파문	-10119
마리	-10120
변이	-10121
▁후속작	-10122
▁돌연변이	-10123
▁합스부르크	-10124
▁슛	-10125
CAF	-10126
▁La	-10127
▁총기	-10128
▁호의	-10129
▁활주로	-10130
를테	-10131
▁PR	-10132
▁낙하	-10133
▁페로	-10134
▁황도	-10135
를테면	-10136
▁1870	-10137
▁이를테면	-10138
▁감금	-10139
▁공파	-10140
▁세손	-10141
▁해부	-10142
▁뾰	-10143
▁재질	-10144
▁초고	-10145
▁헛	-10146
▁공표	-10147
▁밀러	-10148
▁아빠	-10149
▁의과	-10150
▁장대	-10151
브리아	-10152
▁Mar	-10153
▁단행본	-10154
▁매거진	-10155
▁평안북도	-10156
▁숀	-10157
라기	-10158
▁서장	-10159
▁소울	-10160
▁표창	-10161
▁중앙부	-10162
▁창시자	-10163
삭스	-10164
홀름	-10165
▁관동	-10166
▁만년	-10167
▁생계	-10168
▁왜구	-10169
▁저격	-10170
▁모터스	-10171
▁트리니	-10172
▁우아	-10173
▁정국	-10174
▁To	-10175
▁시국	-10176
▁제너	-10177
▁타이베이	-10178
▁댓	-10179
▁DM	-10180
▁말년	-10181
▁따라가	-10182
▁매끄럽	-10183
▁소피아	-10184
플로	-10185
할시	-10186
▁루비	-10187
▁머스	-10188
▁양육	-10189
ance	-10190
▁450	-10191
▁NAS	-10192
공산	-10193
▁김병	-10194
▁복식	-10195
▁아쿠	-10196
▁청동기	-10197
▁1885	-10198
▁프랜시스	-10199
EM	-10200
▁엥	-10201
▁돌출	-10202
▁맞대	-10203
▁비늘	-10204
▁이븐	-10205
▁입수	-10206
▁대장군	-10207
▁애리조	-10208
▁국악	-10209
▁로페	-10210
▁배속	-10211
▁기병대	-10212
▁아스널	-10213
▁오로지	-10214
▁우즈베키스탄	-10215
▁른	-10216
▁Ph	-10217
▁포고	-10218
▁USS	-10219
▁1871	-10220
▁짱	-10221
▁앞쪽	-10222
▁리터	-10223
▁세븐	-10224
▁카바	-10225
▁비주얼	-10226
ection	-10227
▁아이스하키	-10228
십자	-10229
▁성령	-10230
▁수염	-10231
▁틀리	-10232
▁다람쥐	-10233
▁활발히	-10234
▁알래스카	-10235
티시	-10236
ear	-10237
▁un	-10238
▁난이	-10239
▁신종	-10240
타이드	-10241
테리아	-10242
▁로렌스	-10243
▁전날	-10244
▁앤더슨	-10245
▁1600	-10246
▁마르크스주의	-10247
제이	-10248
▁이모	-10249
▁중생	-10250
▁휩쓸	-10251
▁양성자	-10252
▁프레이	-10253
▁쿡	-10254
▁참사	-10255
▁맷	-10256
▁감수	-10257
lass	-10258
▁내면	-10259
▁차리	-10260
▁휴게	-10261
러피언	-10262
▁내무부	-10263
▁편집자	-10264
▁only	-10265
▁오클랜드	-10266
▁벤치	-10267
▁카터	-10268
▁경질	-10269
▁로리	-10270
▁요지	-10271
▁원심	-10272
▁중상	-10273
▁흉노	-10274
▁빅토르	-10275
틀리	-10276
ild	-10277
▁내성	-10278
▁매직	-10279
▁위스	-10280
▁이양	-10281
▁센고쿠	-10282
▁수원시	-10283
▁유러피언	-10284
▁부조	-10285
▁시애	-10286
▁자칭	-10287
▁박헌영	-10288
▁1200	-10289
쩌둥	-10290
irl	-10291
▁테일	-10292
▁퇴장	-10293
▁끌려가	-10294
▁파나마	-10295
▁마오쩌둥	-10296
▁능선	-10297
▁릴리	-10298
▁오라	-10299
▁유료	-10300
▁청룡	-10301
테쓰	-10302
▁역도	-10303
▁화랑	-10304
▁마닐라	-10305
▁케이프	-10306
돌리	-10307
▁GN	-10308
▁관행	-10309
▁봉수	-10310
▁중서	-10311
▁지성	-10312
▁콜레	-10313
▁해저	-10314
▁루카	-10315
▁반성	-10316
▁볼프	-10317
▁장단	-10318
▁탑신	-10319
▁예정자	-10320
▁잡아먹	-10321
▁조광	-10322
어오	-10323
▁수인	-10324
▁친분	-10325
▁240	-10326
▁윤보선	-10327
▁마다가스카르	-10328
▁즘	-10329
▁민요	-10330
▁바디	-10331
▁케라	-10332
▁반란군	-10333
체고	-10334
파이	-10335
▁리바	-10336
▁재외	-10337
▁카니	-10338
▁티켓	-10339
▁김정은	-10340
체고비나	-10341
▁SL	-10342
▁구니	-10343
▁출가	-10344
▁김규식	-10345
▁불태우	-10346
▁교실	-10347
▁스태	-10348
▁플랜	-10349
▁다나카	-10350
▁부원군	-10351
▁시애틀	-10352
▁오른손	-10353
▁이방	-10354
▁증인	-10355
▁실험실	-10356
올라	-10357
▁국당	-10358
▁빨갛	-10359
▁성실	-10360
▁구마모토	-10361
관리	-10362
맥스	-10363
▁vs	-10364
▁조례	-10365
▁초빙	-10366
▁알렉스	-10367
▁앤드루	-10368
▁프로리그	-10369
▁콘스탄티노폴리스	-10370
▁당내	-10371
▁생선	-10372
▁맨해튼	-10373
▁역사가	-10374
▁해리슨	-10375
▁ㄹㅕㄷㅓㄴ	-10376
▁수교	-10377
텔레스	-10378
▁프라하	-10379
▁AD	-10380
▁정제	-10381
▁제동	-10382
▁파인	-10383
OV	-10384
▁서산	-10385
▁지쿠	-10386
▁통역	-10387
▁제조업	-10388
메스	-10389
▁관문	-10390
▁리비	-10391
▁시중	-10392
▁이완	-10393
▁징병	-10394
천면	-10395
▁궁궐	-10396
▁무척	-10397
▁상급	-10398
▁송도	-10399
▁재활	-10400
▁동물원	-10401
▁미군정	-10402
▁헬리콥터	-10403
코토	-10404
▁Sy	-10405
▁개헌	-10406
▁경시	-10407
▁섬세	-10408
▁루돌프	-10409
▁왕세자	-10410
ans	-10411
▁경희	-10412
▁몸통	-10413
▁부각	-10414
▁함자	-10415
ivers	-10416
▁ㄴㅑㄴㅡㄴ	-10417
▁괄	-10418
지로	-10419
▁국보	-10420
▁남용	-10421
▁오미	-10422
▁허드	-10423
▁공민왕	-10424
▁고쿠	-10425
▁겁	-10426
ype	-10427
▁CM	-10428
▁남산	-10429
▁뾰족	-10430
▁창문	-10431
▁호크	-10432
▁대대로	-10433
▁동대문	-10434
▁성남시	-10435
▁신문사	-10436
▁하노이	-10437
▁아리스토텔레스	-10438
무소	-10439
▁이룩	-10440
▁커플	-10441
▁EBS	-10442
▁아무것	-10443
▁제퍼슨	-10444
사상	-10445
▁구청	-10446
▁분과	-10447
▁차용	-10448
▁한하	-10449
어사	-10450
▁줄거리	-10451
▁개개	-10452
▁총통	-10453
include	-10454
▁얕	-10455
▁남해	-10456
▁뉴클	-10457
▁드미	-10458
▁바트	-10459
▁위너스	-10460
▁클레이	-10461
▁클린턴	-10462
▁경영자	-10463
▁리조트	-10464
▁러시아인	-10465
▁ㅌㅣ	-10466
▁각성	-10467
▁농경	-10468
▁에프	-10469
▁총애	-10470
▁동유럽	-10471
▁사각형	-10472
▁서재필	-10473
ish	-10474
▁배려	-10475
▁카지	-10476
▁칼럼	-10477
▁화기	-10478
▁레이크	-10479
▁솔로몬	-10480
▁퍼스트	-10481
▁김원	-10482
▁통용	-10483
컨대	-10484
▁가늘	-10485
▁시합	-10486
▁하반	-10487
▁크라이	-10488
▁안녕	-10489
▁주임	-10490
▁퍼스	-10491
▁MTV	-10492
▁":	-10493
▁산호	-10494
▁시노	-10495
▁학설	-10496
▁선거법	-10497
▁나우	-10498
▁수필	-10499
▁약혼	-10500
▁하키	-10501
▁화엄	-10502
라니	-10503
▁나선	-10504
▁씨앗	-10505
▁포착	-10506
▁효자	-10507
▁자치체	-10508
▁해리스	-10509
GM	-10510
▁독창	-10511
▁지오	-10512
▁대합실	-10513
▁브루스	-10514
▁브레이크	-10515
oun	-10516
▁NT	-10517
▁보로	-10518
▁스가	-10519
▁주입	-10520
▁퍼포	-10521
▁케플러	-10522
▁관청	-10523
▁광도	-10524
▁모의	-10525
▁실존	-10526
▁천왕	-10527
▁허정	-10528
▁올림피아	-10529
에스	-10530
▁시부	-10531
▁하류	-10532
▁퍼포먼스	-10533
▁함경남도	-10534
▁ㄴㅡㄴㄷㅏㅁㅕㄴ	-10535
▁모호	-10536
▁진해	-10537
▁아키라	-10538
▁@	-10539
원수	-10540
▁독도	-10541
▁성화	-10542
▁수양	-10543
▁전래	-10544
▁차갑	-10545
▁칙령	-10546
▁예선전	-10547
RA	-10548
▁유혹	-10549
▁일당	-10550
▁ㄹㅣㄹㅏ	-10551
▁Jo	-10552
▁ex	-10553
▁들여	-10554
▁메뉴	-10555
▁자제	-10556
▁파도	-10557
▁스테파	-10558
▁요시다	-10559
▁유치원	-10560
▁총사령관	-10561
OD	-10562
fe	-10563
토랑	-10564
▁보라	-10565
▁분류군	-10566
▁레스토랑	-10567
▁경호	-10568
▁반기	-10569
▁지로	-10570
▁케인	-10571
▁테라	-10572
▁검정	-10573
▁로버	-10574
▁평형	-10575
▁내야수	-10576
▁데려오	-10577
▁멍	-10578
정원	-10579
▁극한	-10580
▁메카	-10581
▁트릭	-10582
▁긴테쓰	-10583
▁비밀리	-10584
▁유권자	-10585
ey	-10586
통일	-10587
▁다테	-10588
▁마차	-10589
▁분파	-10590
▁카테	-10591
▁호스	-10592
▁예수회	-10593
▁sc	-10594
▁만장	-10595
▁욕망	-10596
▁네이션스컵	-10597
▁리보	-10598
▁문고	-10599
▁보행	-10600
▁신발	-10601
▁전무	-10602
▁제물	-10603
히트	-10604
▁찬사	-10605
▁테리	-10606
▁아키타	-10607
▁어군	-10608
▁메이커	-10609
▁뉴클레오	-10610
▁스톡홀름	-10611
바흐	-10612
신문	-10613
창호	-10614
▁블로	-10615
▁실정	-10616
ical	-10617
▁뛰어들	-10618
▁비타민	-10619
▁알프스	-10620
등식	-10621
▁카피	-10622
▁컴퓨팅	-10623
환경	-10624
▁마술	-10625
▁원통	-10626
▁서대문	-10627
▁캐롤	-10628
▁벅	-10629
lat	-10630
▁포식	-10631
▁김유	-10632
▁소음	-10633
▁타스	-10634
▁보수당	-10635
▁자치주	-10636
▁플라톤	-10637
러브	-10638
▁드루	-10639
▁매리	-10640
▁박종	-10641
▁엄밀	-10642
▁이점	-10643
▁절망	-10644
▁개구리	-10645
▁다저스	-10646
▁오리온	-10647
TP	-10648
▁도교	-10649
▁스폰서	-10650
▁친위대	-10651
EG	-10652
▁넷째	-10653
▁도둑	-10654
▁마셜	-10655
▁묘비	-10656
▁방콕	-10657
▁블레	-10658
▁수복	-10659
▁프론	-10660
▁유아기	-10661
▁와이번스	-10662
암동	-10663
▁강령	-10664
▁리베	-10665
▁바이트	-10666
▁방어선	-10667
▁프린스	-10668
▁ㅇㅏㅇㅛ	-10669
▁모어	-10670
▁색소	-10671
▁ABC	-10672
▁마천루	-10673
메드	-10674
▁고든	-10675
▁본성	-10676
▁북아일랜드	-10677
▁럭비	-10678
▁천국	-10679
▁치과	-10680
▁파손	-10681
▁홀리	-10682
▁황소	-10683
▁ATP	-10684
▁멧	-10685
▁CH	-10686
▁DD	-10687
▁나인	-10688
▁불변	-10689
▁웨인	-10690
▁장시	-10691
▁전담	-10692
▁로드리	-10693
▁투자자	-10694
▁샐	-10695
▁천거	-10696
▁헬싱	-10697
▁나트륨	-10698
▁대원군	-10699
▁정의당	-10700
▁AV	-10701
▁구내	-10702
▁구실	-10703
▁노론	-10704
▁동로	-10705
▁일리	-10706
▁추이	-10707
▁톈진	-10708
▁폭파	-10709
▁피라미	-10710
▁피아니스트	-10711
▁마켓	-10712
▁무실	-10713
▁상행	-10714
▁실권	-10715
▁야드	-10716
▁포토	-10717
덴부르크	-10718
▁벤처	-10719
▁시몬	-10720
▁연산군	-10721
매매	-10722
▁당연	-10723
▁침묵	-10724
▁210	-10725
▁마누엘	-10726
▁연극배우	-10727
▁대본	-10728
▁리사	-10729
▁소극	-10730
▁영유	-10731
▁정거	-10732
▁ㄹㅏㅅㅓ	-10733
▁Fr	-10734
▁삼존	-10735
▁선천	-10736
▁쾰른	-10737
▁정부군	-10738
▁튀르크	-10739
▁콘테스트	-10740
▁국공	-10741
▁슬하	-10742
▁제노	-10743
▁찬양	-10744
▁퇴직	-10745
▁화약	-10746
▁용인시	-10747
▁화강암	-10748
▁헤르체고비나	-10749
군다	-10750
are	-10751
▁스텝	-10752
▁적외선	-10753
▁토스카	-10754
▁가브리엘	-10755
놀이	-10756
대교	-10757
부르	-10758
▁pr	-10759
▁소중	-10760
▁야전	-10761
▁약사	-10762
▁왕권	-10763
▁특전	-10764
▁앞장서	-10765
▁책임지	-10766
▁프레데	-10767
FL	-10768
티넘	-10769
▁백두	-10770
▁스칸	-10771
▁선구자	-10772
▁알파벳	-10773
▁주차장	-10774
▁플래티넘	-10775
ica	-10776
▁결별	-10777
▁마에	-10778
▁아나톨	-10779
EL	-10780
▁Ma	-10781
▁본작	-10782
▁사방	-10783
▁여유	-10784
▁중퇴	-10785
▁목요일	-10786
▁오바마	-10787
▁가솔	-10788
▁따지	-10789
▁이의	-10790
▁차출	-10791
▁채취	-10792
▁가이드	-10793
▁경전철	-10794
▁유격수	-10795
사고	-10796
수스	-10797
▁동시대	-10798
▁별세	-10799
▁부치	-10800
▁위그	-10801
▁he	-10802
▁리본	-10803
▁유선	-10804
▁준수	-10805
대표	-10806
▁감찰	-10807
▁대북	-10808
▁로크	-10809
▁뭉치	-10810
▁방치	-10811
▁봉화	-10812
▁1889	-10813
▁ㄹㅕㄷㅏ	-10814
▁가락	-10815
▁담보	-10816
▁밸리	-10817
▁삼림	-10818
▁영정	-10819
▁한미	-10820
▁안테나	-10821
말리	-10822
▁반포	-10823
▁아날	-10824
▁요충	-10825
공산당	-10826
▁리프트	-10827
난성	-10828
▁가맹	-10829
▁강렬	-10830
▁송신	-10831
▁슬픔	-10832
▁임정	-10833
▁모하	-10834
▁새우	-10835
▁종식	-10836
▁초신성	-10837
▁고속버스	-10838
▁스카우트	-10839
클레	-10840
▁실록	-10841
▁사로잡	-10842
60	-10843
소통	-10844
천동	-10845
▁불참	-10846
▁여권	-10847
▁유목	-10848
▁켈트	-10849
▁아이폰	-10850
▁잇따르	-10851
▁베트	-10852
▁우림	-10853
▁직통	-10854
▁하시	-10855
▁호대	-10856
▁기관지	-10857
▁패트릭	-10858
▁공존	-10859
▁딥	-10860
충류	-10861
▁비엔	-10862
▁중합	-10863
▁투여	-10864
▁갈아	-10865
▁정형	-10866
테이너	-10867
▁늙	-10868
▁So	-10869
▁대영	-10870
▁아끼	-10871
▁전전	-10872
▁도망가	-10873
▁밴쿠버	-10874
▁의사소통	-10875
▁간첩	-10876
▁니혼	-10877
▁산성	-10878
▁영예	-10879
▁왕건	-10880
▁의류	-10881
▁이송	-10882
▁주계	-10883
▁칸국	-10884
▁엔트리	-10885
카리	-10886
▁구르	-10887
▁능하	-10888
▁다윈	-10889
▁모금	-10890
▁불량	-10891
▁야시	-10892
▁집정	-10893
▁말미암	-10894
▁타이거스	-10895
▁구두	-10896
와라노	-10897
▁후지와라노	-10898
▁건전	-10899
▁김형	-10900
▁연말	-10901
▁메디치	-10902
▁CONCA	-10903
부로	-10904
위안	-10905
▁매트	-10906
▁미수	-10907
▁비야	-10908
▁사설	-10909
▁시크	-10910
▁플리	-10911
▁접어들	-10912
▁떨어뜨리	-10913
▁감상	-10914
▁중수	-10915
▁치루	-10916
▁판례	-10917
▁펌프	-10918
▁감성	-10919
▁격리	-10920
▁받치	-10921
▁예약	-10922
▁작물	-10923
▁절정	-10924
▁종자	-10925
▁형질	-10926
▁For	-10927
▁두려움	-10928
▁타이어	-10929
▁Live	-10930
▁CONCACAF	-10931
드레	-10932
▁그저	-10933
▁로트	-10934
▁열강	-10935
▁인가	-10936
▁피지	-10937
▁똑같이	-10938
▁센티미터	-10939
AF	-10940
바나	-10941
▁권하	-10942
▁김준	-10943
▁사서	-10944
▁지자	-10945
▁프란체스코	-10946
▁금호	-10947
▁라자	-10948
▁서임	-10949
▁수락	-10950
▁정읍	-10951
▁로마인	-10952
▁소말리아	-10953
▁라리	-10954
▁무형	-10955
▁의령	-10956
▁후배	-10957
▁ㅓㅇㅑ	-10958
▁낙동강	-10959
▁발라드	-10960
sh	-10961
▁앙골	-10962
▁JTBC	-10963
▁훙	-10964
▁원군	-10965
▁캐리	-10966
▁생존자	-10967
▁미야자키	-10968
▁마땅	-10969
▁사탕	-10970
▁애정	-10971
▁정종	-10972
▁하야	-10973
▁드디어	-10974
bo	-10975
▁극우	-10976
▁사역	-10977
▁쿠퍼	-10978
▁열심히	-10979
휴일	-10980
▁메소	-10981
▁목회	-10982
▁은거	-10983
블랜드	-10984
▁시네마	-10985
▁챙	-10986
란토	-10987
유예	-10988
▁가도	-10989
▁백과	-10990
▁스트로	-10991
▁가나가와현	-10992
망디	-10993
▁잠정	-10994
▁정작	-10995
▁제명	-10996
▁Sou	-10997
▁레이싱	-10998
▁나카무라	-10999
▁카탈루냐	-11000
가미	-11001
프로	-11002
▁기이	-11003
▁도피	-11004
▁송출	-11005
도르프	-11006
캐슬	-11007
▁고딕	-11008
▁리옹	-11009
▁징수	-11010
▁치환	-11011
에미리트	-11012
▁자유민주당	-11013
▁아랍에미리트	-11014
지기	-11015
▁공소	-11016
▁금산	-11017
▁바지	-11018
▁습윤	-11019
▁요격	-11020
바이트	-11021
▁장학금	-11022
▁피라미드	-11023
▁클리블랜드	-11024
EE	-11025
▁모색	-11026
▁연정	-11027
IL	-11028
▁가두	-11029
tern	-11030
▁간신히	-11031
▁미야기	-11032
▁볼트	-11033
▁유의	-11034
하이오	-11035
▁여배우	-11036
▁오하이오	-11037
▁프랑스인	-11038
▁비준	-11039
▁트렌	-11040
마르크	-11041
▁캅	-11042
▁로얄	-11043
▁평평	-11044
추부사	-11045
▁Com	-11046
지능	-11047
▁GB	-11048
▁거미	-11049
▁유희	-11050
▁AKB	-11051
▁광복군	-11052
▁교통부	-11053
▁유니버설	-11054
▁인공지능	-11055
▁김명	-11056
▁벨리	-11057
▁순종	-11058
▁항만	-11059
▁int	-11060
간다	-11061
대사	-11062
자루	-11063
ood	-11064
▁"&	-11065
▁당기	-11066
▁무네	-11067
▁악보	-11068
▁워커	-11069
▁검은색	-11070
▁카카오	-11071
▁츄	-11072
▁격추	-11073
▁삼중	-11074
▁Col	-11075
▁레이트	-11076
▁마이어	-11077
▁Part	-11078
▁깜	-11079
풀이	-11080
현동	-11081
ost	-11082
▁성곽	-11083
▁여고	-11084
▁자서	-11085
▁에이즈	-11086
▁Time	-11087
▁EU	-11088
▁무과	-11089
▁암스	-11090
▁1848	-11091
▁수로	-11092
▁페트	-11093
찌르	-11094
▁모욕	-11095
▁문집	-11096
▁사쓰	-11097
▁서태	-11098
▁뉴캐슬	-11099
▁토리노	-11100
나마	-11101
▁익숙	-11102
▁추력	-11103
▁탄약	-11104
▁티아	-11105
▁한림	-11106
▁한중	-11107
▁기숙사	-11108
▁레이더	-11109
화문	-11110
▁추억	-11111
에몽	-11112
row	-11113
▁포털	-11114
▁해태	-11115
span	-11116
거스	-11117
지부	-11118
▁부총리	-11119
▁급여	-11120
▁댄서	-11121
▁여의도	-11122
▁onlyinclude	-11123
▁재팬	-11124
▁하행	-11125
▁해피	-11126
uc	-11127
애미	-11128
정동	-11129
▁김광	-11130
▁오만	-11131
프랑크	-11132
▁공휴일	-11133
▁마이애미	-11134
의사	-11135
▁라이더	-11136
▁부딪히	-11137
▁브레이	-11138
▁튀니지	-11139
▁도래	-11140
▁라르	-11141
▁매킨	-11142
▁볼로	-11143
▁양심	-11144
▁여사	-11145
▁토트	-11146
▁바그너	-11147
▁프랑스령	-11148
lay	-11149
▁남군	-11150
▁셀레	-11151
▁우한	-11152
▁종군	-11153
▁지상파	-11154
▁카스티야	-11155
▁병자	-11156
▁보령	-11157
▁재일	-11158
▁절벽	-11159
▁조인	-11160
▁해독	-11161
▁대니얼	-11162
▁무찌르	-11163
▁스타트	-11164
▁어시스트	-11165
ous	-11166
▁공대	-11167
▁국한	-11168
▁워즈	-11169
▁특화	-11170
▁고인돌	-11171
▁대리인	-11172
▁클라우	-11173
▁프란치	-11174
▁대승불교	-11175
▁사민	-11176
▁유식	-11177
▁음절	-11178
▁우루스	-11179
▁일본국	-11180
▁정거장	-11181
▁페트로	-11182
▁가혹	-11183
▁교의	-11184
▁모건	-11185
▁비토	-11186
▁천주	-11187
페스트	-11188
▁무안	-11189
▁산둥	-11190
▁업자	-11191
▁코리	-11192
▁국제법	-11193
▁법원장	-11194
▁정치학	-11195
▁치카	-11196
파니아	-11197
ows	-11198
▁EM	-11199
▁방대	-11200
olog	-11201
▁지배자	-11202
메니	-11203
orn	-11204
▁굴절	-11205
▁인칭	-11206
▁제위	-11207
▁총격	-11208
▁클러	-11209
▁SNS	-11210
▁시멘트	-11211
▁시코쿠	-11212
▁관현악단	-11213
▁랴오	-11214
▁리카	-11215
▁비대	-11216
▁안개	-11217
해살이	-11218
▁그랜트	-11219
▁마법사	-11220
▁명확히	-11221
▁아이즈	-11222
▁공성	-11223
▁로키	-11224
▁비정	-11225
▁보수주의	-11226
▁가쿠	-11227
▁단결	-11228
▁마테	-11229
▁부평	-11230
▁Bla	-11231
▁숙부	-11232
▁케르	-11233
▁가솔린	-11234
▁하노버	-11235
브로	-11236
히사	-11237
ann	-11238
▁경복	-11239
▁선명	-11240
▁항체	-11241
▁저지대	-11242
▁제우스	-11243
▁카메룬	-11244
OP	-11245
▁거란	-11246
▁문단	-11247
▁최진	-11248
메이카	-11249
▁API	-11250
▁자메이카	-11251
▁줄기세포	-11252
az	-11253
도라	-11254
▁김인	-11255
▁사수	-11256
▁신곡	-11257
▁용액	-11258
▁평지	-11259
▁황색	-11260
▁Your	-11261
▁류큐	-11262
▁명소	-11263
▁연립	-11264
▁오디	-11265
클리드	-11266
▁131	-11267
▁대단히	-11268
▁부다	-11269
드리아	-11270
서스	-11271
▁BC	-11272
▁귀신	-11273
▁대마	-11274
▁몰아	-11275
▁부합	-11276
▁안방	-11277
▁대나무	-11278
▁정보원	-11279
▁헤어지	-11280
▁NASA	-11281
▁at	-11282
▁메일	-11283
▁베어	-11284
▁서귀	-11285
▁설문	-11286
▁점포	-11287
▁지법	-11288
▁대법관	-11289
▁레드삭스	-11290
▁고로	-11291
▁도키	-11292
▁선봉	-11293
▁적료	-11294
▁쪼	-11295
▁쾨	-11296
▁검거	-11297
▁글꼴	-11298
▁동산	-11299
빌라이	-11300
▁ref	-11301
▁욱	-11302
▁모범	-11303
▁모빌	-11304
▁종양	-11305
▁하코	-11306
▁항우	-11307
관계	-11308
칼리	-11309
▁메스	-11310
▁재편	-11311
▁전한	-11312
시노	-11313
▁속력	-11314
▁응급	-11315
른스트	-11316
▁제이슨	-11317
▁1883	-11318
▁녕	-11319
▁공영	-11320
▁기와	-11321
▁사림	-11322
▁지석	-11323
▁패러디	-11324
▁곶	-11325
으로	-11326
▁골격	-11327
▁남방	-11328
▁초콜	-11329
▁혼다	-11330
▁OST	-11331
▁영화상	-11332
▁동진	-11333
▁소외	-11334
▁전보	-11335
네그로	-11336
레스트	-11337
▁라파엘	-11338
▁u	-11339
▁계주	-11340
▁관상	-11341
▁기세	-11342
▁다툼	-11343
▁수식	-11344
▁연희	-11345
▁중엽	-11346
▁한신	-11347
▁방사능	-11348
▁줄리아	-11349
지아	-11350
▁다듬	-11351
▁무작	-11352
▁탄자	-11353
▁날아가	-11354
▁ㄹㅏㄱㅣ	-11355
▁그라운드	-11356
▁녹화	-11357
▁식스	-11358
▁진로	-11359
▁노르망디	-11360
▁텍사스주	-11361
▁본뜨	-11362
▁부상자	-11363
▁판소리	-11364
▁교향악단	-11365
▁대좌	-11366
▁도박	-11367
▁쌍대	-11368
▁코소	-11369
▁큐브	-11370
▁형벌	-11371
▁비서관	-11372
80	-11373
▁GM	-11374
▁경위	-11375
▁실증	-11376
▁피리	-11377
▁연구회	-11378
▁간략	-11379
▁근사	-11380
▁봉인	-11381
▁삽화	-11382
▁유공	-11383
▁이터	-11384
▁평판	-11385
▁tv	-11386
▁가우	-11387
▁가토	-11388
▁병마	-11389
▁산요	-11390
▁자명	-11391
▁에스페	-11392
▁해상도	-11393
▁공무	-11394
▁라바	-11395
▁타락	-11396
▁하남	-11397
▁프로그래머	-11398
▁뫼	-11399
▁리즈	-11400
▁야외	-11401
▁유우	-11402
▁절감	-11403
▁카네	-11404
▁카마	-11405
▁편견	-11406
▁꺼내	-11407
▁리마	-11408
▁온난	-11409
▁은혜	-11410
▁조교	-11411
▁최선	-11412
▁고분군	-11413
센스	-11414
▁가중	-11415
▁우산	-11416
▁에이전	-11417
▁위구르	-11418
▁파일럿	-11419
▁촛	-11420
▁Ge	-11421
▁니키	-11422
▁단군	-11423
▁송파	-11424
▁콘솔	-11425
▁이용객	-11426
▁체인지	-11427
▁토마토	-11428
▁쿠빌라이	-11429
합성	-11430
▁노면	-11431
▁발상	-11432
▁상어	-11433
▁열전	-11434
▁요절	-11435
▁만화가	-11436
▁ㄴㄷㅏㅁㅕㄴ	-11437
용차	-11438
▁고생	-11439
▁월터	-11440
ern	-11441
▁라디	-11442
▁받들	-11443
▁야마가타	-11444
▁RP	-11445
▁기량	-11446
▁부왕	-11447
▁성동	-11448
▁안나	-11449
▁유생	-11450
▁함량	-11451
▁후진	-11452
▁해안선	-11453
▁콥	-11454
제품	-11455
▁고흥	-11456
▁권역	-11457
▁수위	-11458
▁1882	-11459
▁봇	-11460
버른	-11461
▁관례	-11462
▁북군	-11463
▁스루	-11464
▁엔드	-11465
▁친족	-11466
▁학력	-11467
▁Day	-11468
▁Wind	-11469
40	-11470
▁고노	-11471
▁국교	-11472
▁국외	-11473
▁모세	-11474
▁범하	-11475
▁세습	-11476
▁위로	-11477
워스	-11478
프턴	-11479
▁간사	-11480
▁거성	-11481
▁기전	-11482
스트리	-11483
▁슈퍼컵	-11484
▁스칼라	-11485
▁연장전	-11486
▁원산지	-11487
▁중소기업	-11488
II	-11489
포시	-11490
▁고의	-11491
▁덮개	-11492
▁루키	-11493
▁헬레	-11494
▁다이어	-11495
▁예컨대	-11496
▁올리브	-11497
▁통신사	-11498
에고	-11499
ink	-11500
▁RS	-11501
▁SA	-11502
▁가고	-11503
▁무섭	-11504
▁아이언	-11505
CC	-11506
돌이	-11507
▁몰타	-11508
토프	-11509
▁내일	-11510
▁단정	-11511
▁배분	-11512
▁왕궁	-11513
▁유서	-11514
▁주선	-11515
▁데니스	-11516
치히	-11517
▁정월	-11518
▁조셉	-11519
▁미토콘	-11520
▁전반기	-11521
▁사로잡히	-11522
▁아날로그	-11523
▁미토콘드리아	-11524
교통	-11525
여객	-11526
▁FK	-11527
▁보루	-11528
▁우시	-11529
▁지극	-11530
다운	-11531
▁ㅅㅕ	-11532
▁멋지	-11533
▁수다	-11534
▁요양	-11535
▁이회	-11536
▁파벌	-11537
▁플러	-11538
오르크	-11539
▁330	-11540
▁공화정	-11541
▁카스트	-11542
▁관계없이	-11543
RT	-11544
▁장덕	-11545
▁직속	-11546
▁항원	-11547
▁단체전	-11548
▁대표자	-11549
▁앗	-11550
▁관악	-11551
▁도네	-11552
▁자수	-11553
▁Sch	-11554
▁강당	-11555
▁결사	-11556
▁급증	-11557
▁단속	-11558
▁부교	-11559
▁붙잡	-11560
▁사영	-11561
▁세련	-11562
▁아목	-11563
▁제천	-11564
갈리	-11565
▁관목	-11566
▁램프	-11567
▁상록	-11568
▁정정	-11569
▁선진국	-11570
▁해운대	-11571
▁미스터리	-11572
▁동포	-11573
▁씨족	-11574
▁타수	-11575
▁국정원	-11576
▁중공군	-11577
데라	-11578
▁배달	-11579
▁성원	-11580
▁시안	-11581
▁위조	-11582
▁재래	-11583
▁노벨상	-11584
▁ㅇㅡㄹㅣ	-11585
▁브루클린	-11586
▁시즈오카	-11587
▁몹	-11588
서니	-11589
▁딜런	-11590
▁사학	-11591
▁최영	-11592
▁협업	-11593
▁경주시	-11594
▁영원히	-11595
▁테네시	-11596
▁호스트	-11597
▁산시	-11598
▁외래	-11599
▁조슈	-11600
▁주창	-11601
▁후예	-11602
▁4000	-11603
▁정은	-11604
▁Girl	-11605
게스	-11606
▁랭크	-11607
▁베풀	-11608
▁어기	-11609
▁염려	-11610
▁북유럽	-11611
▁지붕돌	-11612
▁파푸아	-11613
▁필립스	-11614
본부	-11615
팡이	-11616
▁부르주	-11617
▁사업소	-11618
▁제갈량	-11619
▁휴게소	-11620
▁보름	-11621
▁레오폴	-11622
▁안티오	-11623
▁ㅇㅕㅅㅓ	-11624
▁넬슨	-11625
▁빙하	-11626
▁사치	-11627
▁소프	-11628
▁제단	-11629
▁천수	-11630
▁콜럼	-11631
▁new	-11632
▁베이커	-11633
▁괌	-11634
▁단말	-11635
▁영덕	-11636
▁잠깐	-11637
▁군사력	-11638
▁너무나	-11639
▁대상자	-11640
▁멜버른	-11641
융합	-11642
▁규탄	-11643
▁남하	-11644
▁발동	-11645
▁수열	-11646
▁표정	-11647
▁산티아	-11648
▁메릴랜드	-11649
▁유클리드	-11650
▁컨테이너	-11651
US	-11652
▁라미	-11653
▁번창	-11654
▁서면	-11655
▁선대	-11656
스탄불	-11657
▁1868	-11658
▁이스탄불	-11659
OT	-11660
▁Or	-11661
▁범행	-11662
▁얽히	-11663
▁일각	-11664
▁형편	-11665
▁회귀	-11666
▁OB	-11667
▁과테	-11668
▁밝혀	-11669
▁양보	-11670
▁어파	-11671
▁할인	-11672
▁앙골라	-11673
▁요충지	-11674
▁과테말라	-11675
▁컨트롤러	-11676
▁냥	-11677
ㄷㅐ	-11678
▁대인	-11679
▁종영	-11680
▁태후	-11681
▁피핀	-11682
티모어	-11683
▁핵융합	-11684
▁사이타마	-11685
oll	-11686
▁군벌	-11687
▁사안	-11688
▁신입	-11689
▁사회민주당	-11690
▁동적	-11691
▁스캔들	-11692
▁오스틴	-11693
▁몬테네그로	-11694
▁급속히	-11695
▁노사	-11696
▁전수	-11697
▁라인업	-11698
▁우의정	-11699
▁겨루	-11700
▁충렬	-11701
▁파시즘	-11702
해자	-11703
▁농지	-11704
▁이바지	-11705
협회	-11706
▁객차	-11707
▁고트	-11708
▁사천	-11709
▁우월	-11710
펜하겐	-11711
▁밝혀내	-11712
▁주계열	-11713
▁폐기물	-11714
▁코펜하겐	-11715
▁노후	-11716
▁뒤이	-11717
▁버터	-11718
▁트이	-11719
▁기념일	-11720
▁프랜차	-11721
▁영월	-11722
▁오아	-11723
▁청도	-11724
히드	-11725
▁강행	-11726
▁배리	-11727
▁법관	-11728
▁장병	-11729
▁하의	-11730
웨이트	-11731
▁데려가	-11732
지리	-11733
▁부파	-11734
▁성산	-11735
▁영암	-11736
▁초안	-11737
▁항로	-11738
▁아케이드	-11739
▁사운드트랙	-11740
▁colspan	-11741
▁교직	-11742
▁너머	-11743
▁다우	-11744
▁우왕	-11745
▁위촉	-11746
▁저조	-11747
▁독수리	-11748
▁무실점	-11749
▁커리어	-11750
▁히브리	-11751
당기	-11752
▁러일	-11753
▁식용	-11754
▁카세	-11755
▁320	-11756
▁LED	-11757
▁ㅅㅕㄴ	-11758
▁신주쿠	-11759
▁요하네스	-11760
▁프란시스코	-11761
▁양수	-11762
▁외과	-11763
▁외형	-11764
▁차선	-11765
ㄲㅡㅁ	-11766
▁김옥균	-11767
▁베르나르	-11768
▁ㄱㅔㄲㅡㅁ	-11769
▁찢	-11770
▁대청	-11771
▁사비	-11772
▁아유	-11773
▁이메	-11774
▁절제	-11775
▁청계	-11776
▁사이먼	-11777
▁좌의정	-11778
호란	-11779
▁교부	-11780
▁망치	-11781
▁복종	-11782
▁추서	-11783
▁피드	-11784
▁헌장	-11785
▁수요일	-11786
▁야마모토	-11787
▁암스테르담	-11788
▁프랜차이즈	-11789
▁밀레	-11790
▁은신	-11791
▁족보	-11792
▁종신	-11793
▁준장	-11794
▁증폭	-11795
▁카툰	-11796
▁end	-11797
공주	-11798
우에	-11799
▁대덕	-11800
▁상국	-11801
▁소아	-11802
▁안무	-11803
▁치유	-11804
▁타리	-11805
▁효고현	-11806
바오	-11807
▁거처	-11808
▁끊기	-11809
▁우연	-11810
▁증오	-11811
▁치하	-11812
▁리믹스	-11813
디나비아	-11814
▁스칸디나비아	-11815
▁렛	-11816
▁슌	-11817
▁고온	-11818
▁금전	-11819
▁내분	-11820
▁대도	-11821
▁도상	-11822
▁스콜	-11823
▁위력	-11824
▁이항	-11825
▁정령	-11826
▁컨설	-11827
▁오일러	-11828
▁게오르크	-11829
▁DF	-11830
▁성악	-11831
▁시비	-11832
▁직행	-11833
▁출동	-11834
토리코	-11835
▁니콜라스	-11836
▁여성주의	-11837
꼬리	-11838
▁네티	-11839
▁샤프	-11840
▁양대	-11841
▁전세	-11842
▁조영	-11843
▁타일	-11844
▁피치	-11845
▁자서전	-11846
▁산티아고	-11847
걸이	-11848
gin	-11849
▁순차	-11850
▁슈테	-11851
▁자재	-11852
▁축산	-11853
▁출자	-11854
▁데이브	-11855
▁서해안	-11856
▁에른스트	-11857
amp	-11858
▁by	-11859
▁공안	-11860
▁국철	-11861
▁노아	-11862
▁동향	-11863
▁분사	-11864
▁습관	-11865
▁타로	-11866
아다니	-11867
▁로마자	-11868
▁브뤼셀	-11869
▁헤이안	-11870
▁쿠웨이트	-11871
▁놈	-11872
익스	-11873
▁TR	-11874
▁압록	-11875
▁코스타리카	-11876
▁능동	-11877
▁문종	-11878
▁정몽	-11879
ㄹㅏㄷㅗ	-11880
▁육군사관학교	-11881
LA	-11882
단지	-11883
▁김윤	-11884
▁아흐	-11885
▁첼로	-11886
▁어웨이	-11887
▁천안시	-11888
니파	-11889
려들	-11890
셀러	-11891
어넣	-11892
▁거지	-11893
▁김선	-11894
▁리코	-11895
▁바울	-11896
▁시트콤	-11897
▁함경북도	-11898
▁푸에르토리코	-11899
계승	-11900
웍스	-11901
▁잔인	-11902
▁정반	-11903
▁호아	-11904
▁결과물	-11905
▁발전기	-11906
▁법조인	-11907
▁각료	-11908
▁모차	-11909
▁브릿	-11910
▁주성	-11911
▁주심	-11912
▁퍼즐	-11913
▁함흥	-11914
▁280	-11915
▁그만큼	-11916
▁윗부분	-11917
▁텔레콤	-11918
aw	-11919
▁갯	-11920
▁결핵	-11921
▁긴밀	-11922
▁내무	-11923
▁데드	-11924
▁라카	-11925
▁서주	-11926
▁켄트	-11927
▁동맹국	-11928
▁서사시	-11929
▁위안부	-11930
▁유학자	-11931
▁복음주의	-11932
▁맬	-11933
▁온화	-11934
▁천마	-11935
▁칭송	-11936
▁코네	-11937
▁피크	-11938
▁포르노	-11939
▁화장품	-11940
▁루이지애나	-11941
▁늪	-11942
▁수량	-11943
▁이아	-11944
▁전락	-11945
▁점거	-11946
▁짐승	-11947
▁폐렴	-11948
▁펠릭스	-11949
▁문무	-11950
▁박성	-11951
▁백악	-11952
▁이우	-11953
▁전학	-11954
▁측량	-11955
▁편향	-11956
▁흡사	-11957
▁203	-11958
▁IOC	-11959
▁장로교	-11960
▁1893	-11961
북구	-11962
▁Fe	-11963
▁김승	-11964
▁리튬	-11965
▁배드	-11966
▁유족	-11967
▁정재	-11968
▁차츰	-11969
▁톰슨	-11970
▁학장	-11971
▁후유	-11972
▁가고시마	-11973
gr	-11974
▁영천	-11975
▁원활	-11976
▁척도	-11977
▁한번	-11978
퍼레이션	-11979
▁이탈리아어	-11980
게임	-11981
나기	-11982
▁이황	-11983
▁집착	-11984
▁천천	-11985
▁축전	-11986
▁해왕	-11987
▁철저히	-11988
OW	-11989
세유	-11990
▁le	-11991
▁배양	-11992
▁생리	-11993
▁심포	-11994
▁하타	-11995
▁가라앉	-11996
▁교육자	-11997
▁민병대	-11998
▁부르고	-11999
▁해안가	-12000
▁탄자니아	-12001
▁고집	-12002
▁선인	-12003
▁소대	-12004
▁조제	-12005
▁트리오	-12006
▁마이크로	-12007
les	-12008
▁Mo	-12009
▁분단	-12010
▁접종	-12011
▁충무	-12012
로이드	-12013
▁도자기	-12014
▁로베르	-12015
독립	-12016
상시	-12017
ung	-12018
▁관우	-12019
▁레프	-12020
▁우두	-12021
라이드	-12022
▁데일리	-12023
화학	-12024
▁김치	-12025
▁도우	-12026
▁천천히	-12027
▁Rock	-12028
몬트	-12029
▁격려	-12030
▁금동	-12031
▁대종	-12032
▁톱니	-12033
▁하급	-12034
▁헤로	-12035
▁노미야	-12036
▁서초구	-12037
▁아라곤	-12038
▁유적지	-12039
▁Comp	-12040
▁톡	-12041
▁간직	-12042
▁림프	-12043
▁박상	-12044
▁조니	-12045
▁한문	-12046
▁후쿠오카현	-12047
▁NP	-12048
▁과시	-12049
▁관성	-12050
▁김천	-12051
▁한큐	-12052
▁비스타	-12053
▁아우르	-12054
▁불경	-12055
▁앤디	-12056
▁자진	-12057
▁주세	-12058
▁탈취	-12059
▁헌터	-12060
▁녹색당	-12061
티에	-12062
eth	-12063
▁마타	-12064
▁미성	-12065
▁칼슘	-12066
▁동맹군	-12067
▁컬렉션	-12068
▁플랑크	-12069
▁덥	-12070
레드	-12071
▁서스	-12072
▁아츠	-12073
▁전미	-12074
▁Univers	-12075
▁핏	-12076
▁버섯	-12077
▁애인	-12078
▁장녀	-12079
▁Car	-12080
업자	-12081
▁끓이	-12082
▁도출	-12083
▁심부	-12084
▁강화도	-12085
▁도야마	-12086
▁스포르	-12087
익스피어	-12088
▁레인저스	-12089
▁갚	-12090
▁버러	-12091
▁아메	-12092
▁에마	-12093
▁불계승	-12094
▁픽처스	-12095
▁미나모토	-12096
▁셰익스피어	-12097
들러	-12098
▁격하	-12099
▁구금	-12100
▁노랑	-12101
▁라흐	-12102
▁사귀	-12103
▁오하	-12104
루이스	-12105
▁TBS	-12106
▁ㄹㅓㄴ	-12107
▁초콜릿	-12108
▁촐	-12109
▁Am	-12110
▁도이	-12111
▁막판	-12112
▁시속	-12113
▁심상	-12114
▁발사체	-12115
▁우울증	-12116
▁케이크	-12117
▁도카이도	-12118
IR	-12119
▁공양	-12120
▁라즈	-12121
▁바비	-12122
▁휴양	-12123
▁명인	-12124
▁소사	-12125
▁Rec	-12126
▁게오르	-12127
▁참모총장	-12128
oth	-12129
▁굳히	-12130
▁까마	-12131
▁미츠	-12132
▁비지	-12133
▁월트	-12134
▁점검	-12135
▁페더	-12136
▁황산	-12137
▁후하	-12138
▁고려대	-12139
▁로스쿨	-12140
▁부르고뉴	-12141
태평	-12142
▁AB	-12143
▁기쁨	-12144
▁에로	-12145
▁현판	-12146
▁230	-12147
▁순양함	-12148
▁인공위성	-12149
▁반동	-12150
▁유영	-12151
▁카레	-12152
▁GNU	-12153
▁베르타	-12154
▁스탠리	-12155
▁from	-12156
▁에스페란토	-12157
▁플로리다주	-12158
트르	-12159
폭탄	-12160
▁구치	-12161
▁대차	-12162
▁Sup	-12163
▁글래스	-12164
▁상관없이	-12165
▁핼	-12166
국적	-12167
▁강진	-12168
▁낚시	-12169
▁노프	-12170
▁당뇨	-12171
▁대주	-12172
▁배역	-12173
▁상정	-12174
▁조롱	-12175
▁특사	-12176
▁물려주	-12177
▁가와사키	-12178
▁견고	-12179
▁귀속	-12180
▁무단	-12181
▁사상가	-12182
▁서바이	-12183
ublic	-12184
▁가르시아	-12185
▁러시아군	-12186
▁구독	-12187
▁마트	-12188
▁심문	-12189
▁용품	-12190
▁운임	-12191
▁향기	-12192
민스터	-12193
▁ㄹㅏㅁ	-12194
▁밀려나	-12195
▁마르세유	-12196
▁중앙은행	-12197
▁슈타	-12198
▁이범	-12199
▁청량	-12200
▁파편	-12201
▁로빈슨	-12202
▁지바현	-12203
▁프리스	-12204
▁Do	-12205
▁미아	-12206
▁발목	-12207
▁스킴	-12208
▁피사	-12209
▁흥분	-12210
▁휘말리	-12211
▁IV	-12212
▁가부	-12213
▁대진	-12214
▁스투	-12215
▁재차	-12216
▁기업가	-12217
▁수나라	-12218
그마	-12219
바리	-12220
▁꾸리	-12221
▁끼우	-12222
▁동종	-12223
▁배기	-12224
▁청송	-12225
▁1888	-12226
유사	-12227
헤드	-12228
▁네모	-12229
▁대접	-12230
▁울릉	-12231
▁유포	-12232
▁쇠고기	-12233
▁펠리페	-12234
▁율리우스	-12235
▁Su	-12236
▁시우	-12237
▁페오	-12238
▁이바라	-12239
▁노스캐롤라이나	-12240
▁닉슨	-12241
▁명부	-12242
▁온대	-12243
▁ㄹㄹㅏ	-12244
▁경계선	-12245
▁세비야	-12246
▁수차례	-12247
▁하이퍼	-12248
▁매달	-12249
▁물결	-12250
▁백자	-12251
▁성기	-12252
▁국제선	-12253
▁로이드	-12254
▁ㄷㅏㅁㅕㄴㅅㅓ	-12255
둘기	-12256
▁리차	-12257
▁사커	-12258
▁아와	-12259
▁카야	-12260
▁애덤스	-12261
▁1892	-12262
▁박테리아	-12263
▁Sw	-12264
▁붕어	-12265
▁사키	-12266
▁산수	-12267
▁웃음	-12268
▁재발	-12269
▁지난	-12270
▁다이빙	-12271
▁케이트	-12272
▁평안도	-12273
▁허드슨	-12274
▁깁	-12275
▁푹	-12276
▁ar	-12277
▁데미	-12278
▁메틸	-12279
▁시문	-12280
▁입헌	-12281
▁제철	-12282
▁쫓아내	-12283
▁우에스기	-12284
▁공법	-12285
▁사변	-12286
▁어의	-12287
▁에바	-12288
▁유무	-12289
▁제창	-12290
▁프로모	-12291
연수	-12292
홍색	-12293
▁이봉	-12294
▁주먹	-12295
▁펠트	-12296
▁대전차	-12297
▁산스크	-12298
▁소학교	-12299
▁자라나	-12300
▁절도사	-12301
▁산스크리트	-12302
▁납부	-12303
▁모던	-12304
▁새뮤	-12305
▁연회	-12306
▁원유	-12307
▁코사	-12308
▁다카라	-12309
▁활동가	-12310
AI	-12311
▁고스	-12312
▁나뭇	-12313
▁낙양	-12314
▁농축	-12315
▁재앙	-12316
▁조선왕	-12317
▁펩	-12318
자동	-12319
▁계량	-12320
▁미식	-12321
▁산청	-12322
미디어	-12323
▁대공국	-12324
▁대명사	-12325
▁문자열	-12326
▁ㅇㅡㄹㅏ	-12327
▁ㅇㅡㄹㅕㄴㅡㄴ	-12328
AE	-12329
비크	-12330
암리	-12331
▁강성	-12332
▁군데	-12333
▁옥타	-12334
▁위계	-12335
▁자립	-12336
▁해병	-12337
▁볼로냐	-12338
▁스탠드	-12339
▁스테판	-12340
▁아브라	-12341
▁차세대	-12342
다오	-12343
티노	-12344
▁공시	-12345
▁니켈	-12346
▁라드	-12347
▁순례	-12348
▁자코	-12349
▁공방전	-12350
▁관현악	-12351
▁데스크톱	-12352
▁소동	-12353
▁필하	-12354
▁하임	-12355
▁더블린	-12356
▁레이디	-12357
▁지리학	-12358
▁1876	-12359
보리	-12360
▁wh	-12361
▁선양	-12362
▁애초	-12363
▁직계	-12364
▁논리학	-12365
▁북조선	-12366
▁사간원	-12367
▁굶	-12368
▁씻	-12369
사태	-12370
▁CG	-12371
▁불사	-12372
▁생모	-12373
▁장래	-12374
▁중고	-12375
▁침례	-12376
로니아	-12377
▁USB	-12378
▁세네갈	-12379
▁앤서니	-12380
▁후원자	-12381
네트	-12382
▁완도	-12383
▁조개	-12384
▁축성	-12385
▁고려사	-12386
▁성매매	-12387
▁페르난도	-12388
▁프레임워크	-12389
ah	-12390
▁맥아	-12391
▁반주	-12392
▁복싱	-12393
▁손녀	-12394
▁이나	-12395
▁토이	-12396
▁통폐	-12397
▁사단장	-12398
▁올리버	-12399
▁1866	-12400
▁가면라이더	-12401
▁뱃	-12402
▁노랗	-12403
▁이산	-12404
▁ㅇㅡㅅㅣ	-12405
▁알렉산드로스	-12406
광성	-12407
▁간혹	-12408
▁로브	-12409
▁세레	-12410
▁소용	-12411
▁알폰	-12412
▁채색	-12413
▁전주시	-12414
▁1886	-12415
▁베네딕토	-12416
▁프린스턴	-12417
너드	-12418
로쿠	-12419
▁대금	-12420
▁미미	-12421
▁발의	-12422
▁수력	-12423
▁전권	-12424
▁정진	-12425
▁포탄	-12426
르타뉴	-12427
▁260	-12428
▁사절단	-12429
▁서기관	-12430
▁헤라클	-12431
▁브르타뉴	-12432
▁펫	-12433
▁군관	-12434
▁두각	-12435
▁송환	-12436
▁Gre	-12437
▁보좌관	-12438
▁덱	-12439
다보	-12440
뮬러	-12441
▁거룩	-12442
▁면모	-12443
▁부양	-12444
▁죄수	-12445
▁파파	-12446
▁펴내	-12447
▁장제스	-12448
네임	-12449
분열	-12450
▁저우	-12451
▁교구장	-12452
▁도르트	-12453
▁구스타프	-12454
▁베이시스트	-12455
▁웨스트민스터	-12456
EST	-12457
▁co	-12458
▁당황	-12459
▁댓글	-12460
▁아디	-12461
▁앨리	-12462
▁조소	-12463
▁풍습	-12464
▁생리학	-12465
▁이즈미	-12466
▁카운트	-12467
▁집행유예	-12468
▁인플레이션	-12469
철수	-12470
▁너스	-12471
▁바시	-12472
▁번갈	-12473
▁비우	-12474
▁살라	-12475
▁원상	-12476
리카락	-12477
▁게시판	-12478
▁브래드	-12479
▁조나라	-12480
▁드미트리	-12481
▁머리카락	-12482
▁얼룩	-12483
▁잘리	-12484
▁덩어리	-12485
▁바이어	-12486
▁꽂	-12487
▁뮐	-12488
큐어	-12489
▁과연	-12490
▁마린	-12491
▁부류	-12492
▁유능	-12493
▁임계	-12494
▁초전	-12495
▁파커	-12496
▁펀드	-12497
▁합천	-12498
▁민영화	-12499
▁코소보	-12500
레시	-12501
코르	-12502
▁서예	-12503
▁신진	-12504
▁약점	-12505
▁에리	-12506
▁270	-12507
▁새뮤얼	-12508
▁스테인	-12509
▁통폐합	-12510
▁페미니	-12511
▁Tour	-12512
직경	-12513
▁긴키	-12514
▁단조	-12515
▁마나	-12516
▁본체	-12517
▁엘런	-12518
▁현과	-12519
▁간사이	-12520
우회	-12521
ron	-12522
▁깃털	-12523
▁위패	-12524
▁이호	-12525
▁조현	-12526
▁퇴위	-12527
▁경영학	-12528
▁독립군	-12529
▁시직경	-12530
▁프란치스코	-12531
▁펭	-12532
▁경무	-12533
▁나름	-12534
▁도성	-12535
▁도약	-12536
▁아자	-12537
▁유다	-12538
▁보살상	-12539
▁삼각주	-12540
▁1887	-12541
▁브리티시	-12542
▁도하	-12543
▁수하	-12544
▁음운	-12545
▁일진	-12546
▁제르	-12547
▁포츠	-12548
▁프루	-12549
꿈치	-12550
▁모라	-12551
▁박수	-12552
▁산물	-12553
▁표하	-12554
▁강서구	-12555
▁금나라	-12556
▁사쓰마	-12557
▁서포터	-12558
▁역사학	-12559
▁주니치	-12560
▁축구팀	-12561
▁마르쿠스	-12562
ble	-12563
러뜨리	-12564
라호	-12565
슈타	-12566
쓰기	-12567
▁동창	-12568
▁박자	-12569
land	-12570
▁Wii	-12571
▁근거지	-12572
▁이어주	-12573
▁화요일	-12574
지오	-12575
ave	-12576
▁ML	-12577
▁고창	-12578
▁도제	-12579
▁망하	-12580
▁물류	-12581
▁배척	-12582
▁중개	-12583
▁출혈	-12584
▁편안	-12585
▁행방	-12586
▁도미니카	-12587
왕후	-12588
▁KB	-12589
▁Up	-12590
▁무수	-12591
▁악곡	-12592
▁여타	-12593
▁오산	-12594
▁자궁	-12595
▁코호	-12596
▁타구	-12597
▁펠로	-12598
▁용의자	-12599
▁유전학	-12600
▁1861	-12601
▁모차르트	-12602
▁프리미엄	-12603
▁Dream	-12604
비안	-12605
제비	-12606
클라	-12607
하임	-12608
▁과잉	-12609
▁레트	-12610
▁지아	-12611
19	-12612
▁단거리	-12613
▁베이비	-12614
▁부분군	-12615
▁쏟아지	-12616
▁Life	-12617
▁재단법인	-12618
코타	-12619
▁it	-12620
▁올레	-12621
▁유머	-12622
▁유타	-12623
▁직사	-12624
▁해결책	-12625
▁클레멘스	-12626
▁버크	-12627
▁형용	-12628
짜기	-12629
▁SV	-12630
▁광선	-12631
▁급히	-12632
▁습득	-12633
▁집정관	-12634
▁1864	-12635
▁볼티모어	-12636
▁불러들이	-12637
▁세분	-12638
▁신세계	-12639
라르	-12640
▁가닥	-12641
▁슬램	-12642
▁특기	-12643
▁아무리	-12644
▁모닝	-12645
▁수이	-12646
▁오대	-12647
▁완결	-12648
▁장애물	-12649
▁황해도	-12650
▁석가모니	-12651
▁카르타고	-12652
ult	-12653
▁기밀	-12654
▁불분	-12655
▁왕관	-12656
▁위시	-12657
▁익명	-12658
솔리니	-12659
▁후세인	-12660
DA	-12661
▁몰두	-12662
▁장전	-12663
▁천지	-12664
▁환관	-12665
▁당선자	-12666
▁데이빗	-12667
▁홈경기	-12668
▁SH	-12669
▁교지	-12670
▁모국	-12671
▁사하	-12672
▁세무	-12673
▁아쉽	-12674
▁오메	-12675
▁외환	-12676
▁정예	-12677
▁공연장	-12678
▁바로크	-12679
▁음악원	-12680
▁좌표계	-12681
▁프랑코	-12682
▁스트리밍	-12683
콘신	-12684
▁구문	-12685
▁꺼리	-12686
▁라시	-12687
▁마구	-12688
▁빅뱅	-12689
▁사내	-12690
▁슬프	-12691
▁승단	-12692
▁양현	-12693
▁뛰어넘	-12694
▁백악기	-12695
▁코스트	-12696
▁위스콘신	-12697
즐리	-12698
플린	-12699
▁내포	-12700
▁리트	-12701
▁에두	-12702
▁페스	-12703
▁1850	-12704
▁싹	-12705
디슨	-12706
▁RT	-12707
▁경건	-12708
▁지면	-12709
▁포화	-12710
▁다카라즈카	-12711
동자	-12712
열차	-12713
▁TC	-12714
▁ㄴㅛ	-12715
▁철강	-12716
▁혼혈	-12717
▁홀딩	-12718
▁다행	-12719
▁무자	-12720
▁발톱	-12721
▁촛불	-12722
▁파직	-12723
▁홍성	-12724
▁남베트남	-12725
▁레버	-12726
▁실각	-12727
▁여건	-12728
▁착하	-12729
▁평탄	-12730
▁개정안	-12731
▁모나코	-12732
ational	-12733
▁렙	-12734
orm	-12735
▁만점	-12736
▁복위	-12737
▁암모	-12738
▁허블	-12739
▁네티즌	-12740
▁휘두르	-12741
ition	-12742
▁마을버스	-12743
▁고모	-12744
▁스모	-12745
▁어우	-12746
▁오일	-12747
▁잔디	-12748
▁추존	-12749
▁카이로	-12750
▁컨텐츠	-12751
▁1881	-12752
EP	-12753
▁승하	-12754
▁증세	-12755
▁보너스	-12756
▁토트넘	-12757
▁건네	-12758
▁공판	-12759
▁에반	-12760
▁접합	-12761
▁쿼크	-12762
▁토목	-12763
▁푸아	-12764
▁하얀	-12765
▁히토	-12766
바도르	-12767
▁바람직	-12768
▁생성물	-12769
▁참의원	-12770
▁행정동	-12771
브웨	-12772
▁워킹	-12773
▁자릿	-12774
▁홈즈	-12775
▁가해자	-12776
▁사나이	-12777
▁Music	-12778
니오	-12779
▁구례	-12780
▁리에	-12781
▁백업	-12782
▁부풀	-12783
▁예의	-12784
▁재결	-12785
▁짐바	-12786
▁노동력	-12787
▁보안법	-12788
▁사들이	-12789
▁재판관	-12790
▁if	-12791
▁객원	-12792
▁군세	-12793
▁근래	-12794
▁도산	-12795
▁마요	-12796
▁요금소	-12797
ton	-12798
▁en	-12799
▁관내	-12800
▁삼척	-12801
▁쓰루	-12802
▁황자	-12803
▁아카이	-12804
▁재판부	-12805
▁미네소타	-12806
예술	-12807
▁AG	-12808
▁구획	-12809
▁눈치	-12810
▁요괴	-12811
▁잠실	-12812
▁차수	-12813
▁카와	-12814
▁대교구	-12815
▁대표단	-12816
▁1830	-12817
▁루스벨트	-12818
▁크리에이	-12819
▁계보	-12820
▁괘불	-12821
▁뒤늦	-12822
▁방공	-12823
▁침대	-12824
▁무작위	-12825
▁유니버스	-12826
▁돗	-12827
린트	-12828
▁고하	-12829
▁남조	-12830
▁더하	-12831
▁매진	-12832
▁민물	-12833
▁아타	-12834
▁왕성	-12835
▁이력	-12836
▁자판	-12837
라호마	-12838
▁압록강	-12839
▁주나라	-12840
른베르크	-12841
▁오클라호마	-12842
렌스	-12843
▁산기	-12844
▁승지	-12845
▁헌납	-12846
▁로맨틱	-12847
▁합창단	-12848
▁도라에몽	-12849
▁컴파일러	-12850
뛰기	-12851
▁강세	-12852
▁목욕	-12853
▁뷰티	-12854
▁전리	-12855
▁판관	-12856
▁관련자	-12857
▁외무부	-12858
▁장난감	-12859
▁닛산	-12860
▁동차	-12861
▁말단	-12862
▁오우	-12863
▁패권	-12864
▁편하	-12865
▁화성시	-12866
아메리카	-12867
▁소라	-12868
▁이별	-12869
▁익산	-12870
▁재벌	-12871
▁전교	-12872
▁코난	-12873
ject	-12874
▁iOS	-12875
▁XP	-12876
▁관용	-12877
▁러닝	-12878
▁벌레	-12879
▁세간	-12880
▁스몰	-12881
▁이누	-12882
▁현미	-12883
▁마르셀	-12884
▁야구단	-12885
화경	-12886
▁경도	-12887
▁스기	-12888
▁아편	-12889
▁쿠로	-12890
▁돋보이	-12891
라이어티	-12892
▁버라이어티	-12893
▁헤라클레스	-12894
▁Ed	-12895
▁다비	-12896
▁미상	-12897
▁발포	-12898
▁별장	-12899
▁정황	-12900
▁파주	-12901
▁까마귀	-12902
▁반대파	-12903
▁여학생	-12904
▁1872	-12905
평리	-12906
▁경매	-12907
▁남송	-12908
▁부전	-12909
▁스윙	-12910
▁엿보	-12911
▁감리교	-12912
▁해석학	-12913
▁세르게이	-12914
ION	-12915
▁딸리	-12916
▁시원	-12917
▁알맞	-12918
▁조심	-12919
▁종업	-12920
▁찍히	-12921
▁파열	-12922
▁팔작	-12923
▁ㄴㄷㅔ	-12924
▁불분명	-12925
▁이메일	-12926
▁낭만주의	-12927
▁무솔리니	-12928
▁이시카와	-12929
▁꿰	-12930
▁an	-12931
▁신봉	-12932
▁챙기	-12933
▁라치오	-12934
▁Open	-12935
▁트레이닝	-12936
께끼	-12937
림사	-12938
비오	-12939
타입	-12940
▁금고	-12941
▁기고	-12942
▁김희	-12943
▁당진	-12944
▁등등	-12945
▁레비	-12946
▁발자	-12947
▁배트	-12948
▁삭스	-12949
▁의례	-12950
▁조경	-12951
▁흑백	-12952
슬라프	-12953
▁피닉스	-12954
▁수수께끼	-12955
▁루나	-12956
▁마티	-12957
▁애슬	-12958
▁체하	-12959
▁농어촌	-12960
달마	-12961
▁몸돌	-12962
▁양조	-12963
▁용사	-12964
▁이은	-12965
▁켄터	-12966
▁트란	-12967
▁750	-12968
▁다비드	-12969
▁라이스	-12970
▁모멘트	-12971
▁베일	-12972
▁복직	-12973
▁승상	-12974
▁여호	-12975
▁인제	-12976
▁종묘	-12977
▁중랑	-12978
브리드	-12979
▁롬바르	-12980
▁유라시아	-12981
▁엡	-12982
나파	-12983
덕왕	-12984
▁BL	-12985
▁te	-12986
▁교동	-12987
▁꼬마	-12988
▁양면	-12989
▁필연	-12990
태평양	-12991
▁대중교통	-12992
▁대한항공	-12993
▁교제	-12994
▁기통	-12995
▁두어	-12996
▁야망	-12997
▁원동	-12998
▁의용	-12999
▁주고	-13000
▁콘티	-13001
ㅌㅇㅣ	-13002
▁범죄자	-13003
▁센다이	-13004
▁ㄱㅏㅌㅇㅣ	-13005
▁부다페스트	-13006
어드	-13007
▁그란	-13008
▁선율	-13009
▁음주	-13010
▁청년회	-13011
▁부르주아	-13012
더지	-13013
데자	-13014
ics	-13015
▁경량	-13016
▁레아	-13017
▁모란	-13018
▁변종	-13019
▁샤이	-13020
▁진흙	-13021
▁캐피	-13022
▁햇빛	-13023
▁허목	-13024
▁Don	-13025
▁아이콘	-13026
▁초록색	-13027
▁하얀색	-13028
▁화학자	-13029
데자네이	-13030
ru	-13031
쿠니	-13032
▁도봉	-13033
▁발산	-13034
▁복역	-13035
▁브렌	-13036
▁오스트리	-13037
▁튼	-13038
번에	-13039
클럽	-13040
▁메우	-13041
▁발하	-13042
▁생도	-13043
▁지경	-13044
▁친밀	-13045
▁격투기	-13046
▁세군다	-13047
▁호크스	-13048
▁하이브리드	-13049
ier	-13050
▁가든	-13051
▁탄산	-13052
▁ㅇㅡㄹㅣㄹㅏ	-13053
▁Sm	-13054
▁넥센	-13055
▁대강	-13056
▁반죽	-13057
▁순항	-13058
▁오트	-13059
▁이례	-13060
▁장쑤	-13061
▁투하	-13062
▁티모	-13063
▁계승자	-13064
▁다시금	-13065
▁파충류	-13066
▁1863	-13067
▁도르트문트	-13068
바인	-13069
▁Ab	-13070
▁가독	-13071
▁배향	-13072
▁보정	-13073
▁슈고	-13074
▁옹주	-13075
▁작품상	-13076
▁탐험가	-13077
▁1865	-13078
▁"-	-13079
▁납작	-13080
▁당과	-13081
▁매스	-13082
▁파기	-13083
리아스	-13084
▁개체군	-13085
▁밀가루	-13086
▁박영효	-13087
▁항아리	-13088
매김	-13089
워즈	-13090
▁과다	-13091
▁닌자	-13092
▁단국	-13093
▁봉황	-13094
▁피셔	-13095
▁휩싸	-13096
▁기획사	-13097
▁시간대	-13098
▁타임즈	-13099
▁쵸	-13100
리쿠	-13101
▁덴쇼	-13102
▁이니	-13103
▁작년	-13104
▁편제	-13105
▁피카	-13106
▁난이도	-13107
▁HTML	-13108
▁교통사고	-13109
단위	-13110
루크	-13111
▁왓슨	-13112
▁코마	-13113
▁탐정	-13114
▁페라	-13115
▁앞세우	-13116
▁유전체	-13117
▁챌린저	-13118
▁공군기지	-13119
데자네이루	-13120
▁리우데자네이루	-13121
▁거꾸	-13122
▁조공	-13123
▁청문	-13124
▁클릭	-13125
▁고성군	-13126
▁승정원	-13127
▁1891	-13128
▁오카야마	-13129
▁Night	-13130
친왕	-13131
▁살짝	-13132
▁잠기	-13133
▁조시	-13134
▁발기인	-13135
▁우간다	-13136
리야	-13137
ode	-13138
▁곱셈	-13139
▁대의	-13140
▁어촌	-13141
▁경복궁	-13142
▁유니언	-13143
ool	-13144
▁AL	-13145
▁곡면	-13146
▁란스	-13147
▁처방	-13148
▁취향	-13149
▁아이디얼	-13150
▁자리매김	-13151
▁경마	-13152
▁고난	-13153
▁구슬	-13154
▁메츠	-13155
▁애완	-13156
▁태아	-13157
▁안산시	-13158
▁1873	-13159
미쓰	-13160
훈장	-13161
▁대목	-13162
▁미인	-13163
▁법전	-13164
▁철종	-13165
▁포대	-13166
▁한창	-13167
▁ret	-13168
▁선제골	-13169
▁앤드류	-13170
▁여진족	-13171
▁조선소	-13172
▁켄터키	-13173
▁쩔	-13174
▁박진	-13175
▁완비	-13176
▁요즘	-13177
▁직관	-13178
올로기	-13179
▁베스트셀러	-13180
▁이데올로기	-13181
TE	-13182
쿠르	-13183
▁경지	-13184
▁벌리	-13185
▁열렬	-13186
▁조장	-13187
▁카슈	-13188
▁킹스	-13189
▁승용차	-13190
▁세계유산	-13191
▁짐바브웨	-13192
타스	-13193
ise	-13194
▁굴복	-13195
▁내재	-13196
▁두텁	-13197
▁루즈	-13198
▁배아	-13199
▁충당	-13200
▁픽셀	-13201
▁해킹	-13202
▁와이드	-13203
QL	-13204
UC	-13205
▁--	-13206
▁고마	-13207
▁구강	-13208
▁반점	-13209
▁쇼크	-13210
▁입시	-13211
▁재고	-13212
▁정명	-13213
▁후미	-13214
▁다국적	-13215
▁받침돌	-13216
▁수시로	-13217
▁자유형	-13218
▁려	-13219
스레	-13220
▁계좌	-13221
▁상파	-13222
▁시진	-13223
▁어는	-13224
▁여대	-13225
이스케	-13226
▁단자	-13227
▁리브	-13228
▁부실	-13229
▁부추	-13230
▁코뮌	-13231
▁혈압	-13232
▁몰도바	-13233
▁발가락	-13234
▁포항시	-13235
ai	-13236
▁PM	-13237
▁걸작	-13238
▁도도	-13239
▁매립	-13240
▁모함	-13241
▁촉발	-13242
▁노르드	-13243
▁릴레이	-13244
▁ㅇㅕㄷㅗ	-13245
▁온타리오주	-13246
▁샨	-13247
린더	-13248
▁NS	-13249
▁기쁘	-13250
▁마모	-13251
▁공통점	-13252
▁그나마	-13253
▁제너럴	-13254
▁테무르	-13255
동맹	-13256
che	-13257
▁과격	-13258
▁리키	-13259
▁비키	-13260
▁자켓	-13261
▁착취	-13262
▁필두	-13263
stem	-13264
▁국민회	-13265
▁MA	-13266
▁급하	-13267
▁등단	-13268
▁반항	-13269
▁신대	-13270
▁외상	-13271
▁위법	-13272
▁토로	-13273
▁튼튼	-13274
플렉스	-13275
▁시티즌	-13276
▁샵	-13277
레반	-13278
▁볼넷	-13279
▁입술	-13280
▁합금	-13281
▁매달리	-13282
▁백악관	-13283
▁제프리	-13284
▁팔작지붕	-13285
▁Black	-13286
무제	-13287
▁계엄	-13288
▁리자	-13289
▁신의	-13290
▁야심	-13291
▁헤어	-13292
▁현무	-13293
부아르	-13294
합중국	-13295
▁괜	-13296
▁국호	-13297
▁양궁	-13298
▁인위	-13299
▁최장	-13300
▁통지	-13301
▁페인	-13302
▁하스	-13303
▁Can	-13304
▁공식전	-13305
▁슬로건	-13306
▁종업원	-13307
▁야쿠르트	-13308
성경	-13309
▁교서	-13310
▁극찬	-13311
▁라크	-13312
▁분경	-13313
▁불로	-13314
▁유태	-13315
▁해시	-13316
▁김성수	-13317
70	-13318
바지	-13319
세다	-13320
▁당당	-13321
▁라면	-13322
▁에치	-13323
▁연화	-13324
▁적발	-13325
▁조준	-13326
▁체내	-13327
▁키즈	-13328
ower	-13329
▁Good	-13330
NG	-13331
▁믈	-13332
▁켜	-13333
킨슨	-13334
▁간판	-13335
▁병단	-13336
▁서위	-13337
▁아뢰	-13338
▁용감	-13339
▁스테이트	-13340
▁구시	-13341
▁버펄	-13342
▁산책	-13343
▁거꾸로	-13344
▁삼국유사	-13345
▁이바라키	-13346
▁section	-13347
▁콧	-13348
▁광배	-13349
▁네임	-13350
▁병과	-13351
▁소작	-13352
▁양양	-13353
▁을사	-13354
▁이강	-13355
▁토유	-13356
▁헌병	-13357
선거구	-13358
▁550	-13359
▁다마스	-13360
▁트로트	-13361
▁무로마치	-13362
▁머니	-13363
▁문정	-13364
▁부에	-13365
▁우마	-13366
▁파랑	-13367
타나베	-13368
▁하반기	-13369
▁아비달마	-13370
▁피츠버그	-13371
상어	-13372
▁qu	-13373
▁증강	-13374
▁터빈	-13375
▁705	-13376
▁Let	-13377
▁댈	-13378
▁나탈	-13379
▁무고	-13380
▁아델	-13381
▁앵커	-13382
▁연행	-13383
▁주저	-13384
▁캐논	-13385
▁지자체	-13386
▁취리히	-13387
▁1862	-13388
▁페르디난트	-13389
▁q	-13390
티야	-13391
펠러	-13392
▁산신	-13393
▁오즈	-13394
▁흔들	-13395
▁반정부	-13396
▁캐스트	-13397
▁1867	-13398
▁El	-13399
▁MM	-13400
▁국부	-13401
▁무도	-13402
▁진언	-13403
▁진원	-13404
▁채굴	-13405
▁피어	-13406
▁현도	-13407
스코트	-13408
▁650	-13409
▁앨버트	-13410
▁폼페이	-13411
▁삐	-13412
진구	-13413
ank	-13414
▁독주	-13415
▁모반	-13416
▁서지	-13417
▁황폐	-13418
드라마	-13419
▁크루즈	-13420
▁아오모리	-13421
▁이노우에	-13422
▁코호몰로지	-13423
▁광자	-13424
▁농성	-13425
▁맞춤	-13426
▁타도	-13427
▁미카엘	-13428
▁스테이	-13429
레타리아	-13430
해살이풀	-13431
▁미합중국	-13432
▁프롤레타리아	-13433
대전	-13434
방군	-13435
정사	-13436
▁AI	-13437
▁경은	-13438
▁조어	-13439
▁증발	-13440
▁해지	-13441
▁IMF	-13442
▁연주회	-13443
▁용산구	-13444
▁자외선	-13445
▁온건	-13446
▁투신	-13447
▁활자	-13448
ings	-13449
▁스코어	-13450
▁알폰소	-13451
곡면	-13452
▁가비	-13453
▁북벌	-13454
▁세단	-13455
▁송진	-13456
▁수퍼	-13457
▁열쇠	-13458
▁전멸	-13459
▁흡연	-13460
▁경희대	-13461
▁서두르	-13462
조리	-13463
▁대담	-13464
▁사교	-13465
▁심정	-13466
세우스	-13467
▁변광성	-13468
▁증조부	-13469
리언	-13470
▁스킬	-13471
▁손잡이	-13472
▁언론사	-13473
▁엑스포	-13474
▁조선왕조	-13475
포타	-13476
▁AU	-13477
▁광업	-13478
▁완수	-13479
▁잔존	-13480
▁조서	-13481
▁국민학교	-13482
DS	-13483
고르	-13484
▁노브	-13485
▁연달	-13486
▁증식	-13487
절도사	-13488
▁사이타마현	-13489
투르	-13490
활약	-13491
▁Ac	-13492
▁군자	-13493
▁양군	-13494
▁예종	-13495
▁옥시	-13496
▁유구	-13497
▁접전	-13498
▁사보이	-13499
▁연출가	-13500
▁타이탄	-13501
▁캣	-13502
렐라	-13503
참찬	-13504
▁걸프	-13505
▁엘라	-13506
▁MSL	-13507
▁레인저	-13508
포타미아	-13509
▁신한은행	-13510
▁메소포타미아	-13511
센터	-13512
▁LS	-13513
▁UC	-13514
▁보직	-13515
▁장신	-13516
▁저축	-13517
▁쿠라	-13518
▁노르만	-13519
▁맹활약	-13520
▁6000	-13521
▁빠져나가	-13522
▁라이프치히	-13523
▁썩	-13524
▁기묘	-13525
▁성수	-13526
▁씌우	-13527
▁온두	-13528
▁위헌	-13529
▁처치	-13530
▁캐치	-13531
▁코모	-13532
▁키릴	-13533
▁페드로	-13534
▁온두라스	-13535
북면	-13536
lar	-13537
▁치이	-13538
▁푸드	-13539
▁횡령	-13540
▁곁들이	-13541
▁대리석	-13542
▁사무국	-13543
비언	-13544
인구	-13545
▁국력	-13546
▁꽃잎	-13547
▁나사	-13548
▁처장	-13549
▁감염증	-13550
▁일본식	-13551
▁출입문	-13552
▁편집장	-13553
▁궐	-13554
▁낡	-13555
▁-&	-13556
▁간결	-13557
▁상선	-13558
▁서한	-13559
▁충칭	-13560
▁기원후	-13561
▁다이노스	-13562
디언	-13563
▁변증	-13564
▁엘레	-13565
▁오보	-13566
▁조석	-13567
▁협동조합	-13568
tr	-13569
ㄹㅜ	-13570
▁강호	-13571
▁동탁	-13572
▁버진	-13573
▁세토	-13574
▁신해	-13575
▁1878	-13576
▁미나모토노	-13577
ky	-13578
할린	-13579
▁루피	-13580
▁유림	-13581
▁유망	-13582
▁차림	-13583
▁마그네	-13584
▁부여군	-13585
▁신기록	-13586
▁치료제	-13587
▁컴파일	-13588
▁타타르	-13589
중추부사	-13590
▁프로모션	-13591
▁밋	-13592
사화	-13593
위치	-13594
▁Qu	-13595
▁동자	-13596
▁변모	-13597
▁스톰	-13598
▁시역	-13599
▁작중	-13600
rist	-13601
▁갈아타	-13602
▁건륭제	-13603
▁웨이브	-13604
▁백과사전	-13605
▁샴	-13606
젤로	-13607
▁ㅁㅗ	-13608
▁당파	-13609
▁도발	-13610
▁매도	-13611
▁번개	-13612
▁자행	-13613
▁지그	-13614
▁지탱	-13615
▁직교	-13616
▁필명	-13617
▁Ser	-13618
▁제조사	-13619
ta	-13620
퉁이	-13621
hem	-13622
▁가극	-13623
▁고찰	-13624
▁무너	-13625
▁사드	-13626
▁옥천	-13627
▁절약	-13628
▁참패	-13629
▁사대부	-13630
▁프리츠	-13631
▁되돌아가	-13632
▁무너뜨리	-13633
▁뵈	-13634
▁완만	-13635
▁이끼	-13636
▁표출	-13637
플로러	-13638
▁주고받	-13639
▁홀딩스	-13640
▁익스플로러	-13641
▁팍	-13642
시게	-13643
▁괄호	-13644
▁자부	-13645
▁중용	-13646
▁충신	-13647
▁하중	-13648
▁HMS	-13649
▁이성질	-13650
▁고등학생	-13651
▁비스마르크	-13652
빌리	-13653
▁개기	-13654
▁국인	-13655
▁급성	-13656
▁회유	-13657
▁후드	-13658
▁입법부	-13659
▁프로테	-13660
▁DR	-13661
▁바쿠	-13662
▁지린	-13663
▁히노	-13664
▁802	-13665
▁And	-13666
▁경쟁자	-13667
▁뉴기니	-13668
▁무사히	-13669
▁플러그	-13670
ee	-13671
▁ㅣ	-13672
▁킷	-13673
▁팻	-13674
산부	-13675
▁가물	-13676
▁다량	-13677
▁라다	-13678
▁부군	-13679
▁시르	-13680
▁영사	-13681
▁일설	-13682
▁적정	-13683
▁청각	-13684
▁행군	-13685
▁글로브상	-13686
▁스케이트	-13687
▁요리토모	-13688
▁프라이즈	-13689
▁일리노이주	-13690
루엔	-13691
일치	-13692
▁길드	-13693
▁보류	-13694
▁참수	-13695
뉴기니	-13696
▁액세스	-13697
▁플루토	-13698
▁핵분열	-13699
다발	-13700
벤션	-13701
▁매슈	-13702
▁손님	-13703
▁스에	-13704
▁정박	-13705
▁널	-13706
▁밧	-13707
▁부두	-13708
▁애기	-13709
▁용해	-13710
▁육식	-13711
▁일선	-13712
▁직물	-13713
변속기	-13714
시아드	-13715
▁해부학	-13716
▁와타나베	-13717
다스	-13718
▁tr	-13719
▁과자	-13720
▁서점	-13721
▁소피	-13722
▁잉크	-13723
▁저해	-13724
▁점진	-13725
▁와세다	-13726
▁이브스	-13727
▁1869	-13728
▁유니버시아드	-13729
▁ㄹㅏㅁㅕㄴㅅㅓ	-13730
▁Ag	-13731
▁수레	-13732
▁피처	-13733
▁마포구	-13734
▁불가피	-13735
▁업로드	-13736
▁자릿수	-13737
▁특별법	-13738
▁포뮬러	-13739
누마	-13740
▁고국	-13741
▁몸체	-13742
▁현악	-13743
▁페르미	-13744
▁코퍼레이션	-13745
내티	-13746
셔주	-13747
▁객실	-13748
▁북대	-13749
▁수급	-13750
▁방위군	-13751
▁봉우리	-13752
▁수비대	-13753
▁외교부	-13754
▁쿠르드	-13755
▁ㅇㅡㄹㅓ	-13756
▁신시내티	-13757
▁근방	-13758
▁면직	-13759
▁벵골	-13760
▁솔라	-13761
▁잔해	-13762
▁아이젠	-13763
▁원자핵	-13764
▁그거	-13765
▁기조	-13766
▁다목	-13767
▁맛보	-13768
▁지체	-13769
▁추후	-13770
▁표절	-13771
▁형주	-13772
ㅓㄴㅏ	-13773
▁베르나	-13774
▁인지도	-13775
▁제작진	-13776
▁키르기스	-13777
▁후지와라	-13778
ae	-13779
정보	-13780
▁SO	-13781
▁무비	-13782
▁서거	-13783
▁패킷	-13784
▁포천	-13785
▁포탑	-13786
▁행보	-13787
▁썬	-13788
▁대타	-13789
▁로시	-13790
▁용수	-13791
▁텍스	-13792
▁기동전	-13793
▁1592	-13794
▁명성황후	-13795
▁강우	-13796
▁모티	-13797
▁목동	-13798
▁박원	-13799
▁항생	-13800
▁사생활	-13801
▁안동시	-13802
▁영유권	-13803
▁장로회	-13804
마디	-13805
▁고을	-13806
▁성품	-13807
▁오자	-13808
▁유화	-13809
▁축일	-13810
▁골짜기	-13811
▁수도회	-13812
▁스파이더	-13813
▁친선경기	-13814
▁AA	-13815
▁반입	-13816
▁부관	-13817
▁시시	-13818
▁이목	-13819
스타인	-13820
ount	-13821
▁운동량	-13822
▁인코딩	-13823
▁프라임	-13824
▁탬	-13825
노르	-13826
▁무색	-13827
▁사부	-13828
▁수당	-13829
▁위도	-13830
▁자처	-13831
▁토라	-13832
▁생화학	-13833
▁오스카	-13834
암사	-13835
티컷	-13836
▁글렌	-13837
▁금색	-13838
▁논산	-13839
▁빈민	-13840
▁쫓기	-13841
▁치사	-13842
▁콜드	-13843
▁포자	-13844
▁헤더	-13845
▁부등식	-13846
▁유엔군	-13847
▁코네티컷	-13848
세르	-13849
▁그물	-13850
▁민심	-13851
▁상의	-13852
▁컴필	-13853
▁로타르	-13854
▁며느리	-13855
▁목적지	-13856
▁연예계	-13857
▁지하역	-13858
▁Song	-13859
▁컴필레이션	-13860
▁크리스티나	-13861
수염	-13862
▁국세	-13863
▁내란	-13864
▁사소	-13865
▁소박	-13866
▁자정	-13867
▁토키	-13868
가르트	-13869
▁금강산	-13870
▁여객기	-13871
▁팔꿈치	-13872
▁1840	-13873
자원	-13874
▁PL	-13875
▁숙소	-13876
▁위즈	-13877
▁절친	-13878
▁바닷물	-13879
▁파시스트	-13880
▁프랑스와	-13881
BI	-13882
▁낯	-13883
네르	-13884
작전	-13885
▁단역	-13886
▁린다	-13887
▁빅터	-13888
▁폴라	-13889
▁516	-13890
▁Mon	-13891
▁리차드	-13892
▁ㄴㅑㄱㅗ	-13893
ata	-13894
▁RC	-13895
▁가방	-13896
▁지문	-13897
▁출국	-13898
▁헤겔	-13899
▁강력히	-13900
▁네이트	-13901
▁유년기	-13902
▁마스코트	-13903
▁힐베르트	-13904
▁로드리게스	-13905
구스	-13906
▁가곡	-13907
▁귀인	-13908
▁분별	-13909
▁아어	-13910
▁암수	-13911
▁캐슬	-13912
▁쿼터	-13913
▁아우구스	-13914
▁여우원숭이	-13915
pr	-13916
per	-13917
▁닉스	-13918
▁변질	-13919
▁추축	-13920
▁티저	-13921
▁풍기	-13922
▁하수	-13923
▁레지스터	-13924
▁랙	-13925
블릿	-13926
ade	-13927
▁me	-13928
▁고제	-13929
▁디나	-13930
▁벤츠	-13931
▁병풍	-13932
▁자루	-13933
▁자취	-13934
▁튜브	-13935
▁하라	-13936
▁헤일	-13937
▁사이언스	-13938
▁에이전트	-13939
▁볶	-13940
효소	-13941
▁공상	-13942
▁넘버	-13943
▁다쓰	-13944
▁단서	-13945
▁상식	-13946
▁휘발	-13947
▁과반수	-13948
▁시니어	-13949
▁창립자	-13950
▁심리학자	-13951
▁Heart	-13952
▁아나톨리아	-13953
▁return	-13954
▁KN	-13955
▁바쁘	-13956
▁블러	-13957
▁심소	-13958
▁영수	-13959
▁유이	-13960
▁최하	-13961
▁패망	-13962
▁떠올리	-13963
▁패스트	-13964
▁필사본	-13965
▁벳	-13966
부시	-13967
히메	-13968
▁거창	-13969
▁국화	-13970
▁백조	-13971
▁영미	-13972
▁유자	-13973
▁입출	-13974
ㅇㅡㄴ	-13975
▁그래도	-13976
▁글러브	-13977
▁종착역	-13978
▁히타치	-13979
▁매킨토시	-13980
▁지장보살	-13981
▁Pe	-13982
▁ab	-13983
▁계룡	-13984
▁성가	-13985
▁수만	-13986
▁자질	-13987
▁천상	-13988
▁출세	-13989
▁탁구	-13990
이치로	-13991
▁맥아더	-13992
▁휩싸이	-13993
90	-13994
찬성	-13995
▁란트	-13996
▁발착	-13997
▁성대	-13998
▁워스	-13999
▁유골	-14000
▁전단	-14001
▁구단주	-14002
▁테크놀	-14003
▁파주시	-14004
사우루스	-14005
▁펜실베이니아주	-14006
테랑	-14007
▁괜찮	-14008
▁렉스	-14009
▁염화	-14010
▁나치오	-14011
▁스트림	-14012
▁예언자	-14013
▁와카야마	-14014
▁Windows	-14015
날드	-14016
ium	-14017
▁농가	-14018
▁쌍성	-14019
▁이카	-14020
▁뒤따르	-14021
▁8000	-14022
히데	-14023
▁거사	-14024
▁겸직	-14025
▁끌리	-14026
▁라라	-14027
▁미학	-14028
▁악명	-14029
▁여포	-14030
▁보유자	-14031
▁세미나	-14032
▁어도비	-14033
▁적십자	-14034
▁그린란드	-14035
IX	-14036
▁강인	-14037
▁권익	-14038
▁능가	-14039
▁라프	-14040
▁상과	-14041
▁스택	-14042
▁온실	-14043
▁청취	-14044
▁퀴즈	-14045
▁비둘기	-14046
▁엇갈리	-14047
▁지질학	-14048
▁ㄴㅣㄲㅏ	-14049
▁ㄹㅏㅇㅜ	-14050
▁영등포구	-14051
어하	-14052
전선	-14053
▁Gl	-14054
▁베오	-14055
▁실상	-14056
▁오시	-14057
▁윤휴	-14058
▁페레	-14059
▁흥원	-14060
▁관심사	-14061
▁남아시아	-14062
넌트	-14063
선언	-14064
▁바보	-14065
▁바인	-14066
▁에트	-14067
▁의주	-14068
▁중견	-14069
▁초음	-14070
▁하구	-14071
크라테스	-14072
▁알프레드	-14073
▁아나키스트	-14074
▁세인트루이스	-14075
IF	-14076
욕장	-14077
▁규율	-14078
▁기행	-14079
▁문중	-14080
▁반론	-14081
▁의복	-14082
▁조비	-14083
▁댈러스	-14084
▁1875	-14085
던트	-14086
▁As	-14087
▁뉴런	-14088
▁박히	-14089
▁시찰	-14090
▁연중	-14091
▁피살	-14092
▁시미즈	-14093
▁운전자	-14094
▁데카르트	-14095
계사	-14096
테이	-14097
▁동호	-14098
▁왜군	-14099
▁임종	-14100
▁저그	-14101
▁Out	-14102
▁채권자	-14103
▁헤르만	-14104
▁되돌아오	-14105
링겐	-14106
수단	-14107
▁상동	-14108
▁숙련	-14109
▁준동	-14110
▁침식	-14111
▁고문서	-14112
▁안창호	-14113
▁진주시	-14114
▁집단군	-14115
▁Aw	-14116
▁노현	-14117
▁삭감	-14118
▁유카	-14119
▁이심	-14120
▁나리타	-14121
▁이와테	-14122
▁모자이크	-14123
▁강습	-14124
▁니케	-14125
▁다름	-14126
▁들르	-14127
▁볼록	-14128
▁사각	-14129
▁신지	-14130
▁외척	-14131
▁콜린	-14132
▁담당자	-14133
▁보리스	-14134
▁근본번뇌	-14135
기즈	-14136
탄두	-14137
▁도적	-14138
▁독살	-14139
▁마레	-14140
▁양파	-14141
▁은밀	-14142
▁직렬	-14143
▁질투	-14144
▁친화	-14145
▁안타깝	-14146
구니	-14147
기아	-14148
▁뒤지	-14149
▁디바	-14150
▁웍스	-14151
▁징집	-14152
▁키리	-14153
▁표제	-14154
▁토요타	-14155
▁회고록	-14156
어가	-14157
▁귀엽	-14158
▁기린	-14159
▁몹시	-14160
▁미지	-14161
▁수증	-14162
▁호른	-14163
▁Gen	-14164
▁예비역	-14165
▁치료법	-14166
▁고등교육	-14167
이에	-14168
itt	-14169
▁VS	-14170
▁김연	-14171
▁설리	-14172
▁아다	-14173
▁예프	-14174
▁원단	-14175
▁철자	-14176
▁최남	-14177
▁타나	-14178
▁호그	-14179
▁게임기	-14180
▁사이즈	-14181
▁표트르	-14182
▁남양주시	-14183
보당	-14184
사유	-14185
▁걸음	-14186
▁교파	-14187
▁노원	-14188
▁선상	-14189
▁여럿	-14190
▁용지	-14191
▁위크	-14192
▁이선	-14193
▁잠입	-14194
▁정오	-14195
▁파랗	-14196
▁한민	-14197
▁혼잡	-14198
레이트	-14199
▁KTX	-14200
▁친환경	-14201
▁컨벤션	-14202
뻐하	-14203
son	-14204
▁김두	-14205
▁로사	-14206
▁문체	-14207
▁어사	-14208
▁월화	-14209
▁일명	-14210
▁텐서	-14211
▁해트	-14212
▁AMD	-14213
▁기뻐하	-14214
▁리스본	-14215
▁매디슨	-14216
▁일부러	-14217
▁학술지	-14218
▁DB	-14219
▁sh	-14220
▁교훈	-14221
▁면담	-14222
▁방울	-14223
▁셔틀	-14224
▁이희	-14225
▁인승	-14226
▁컵스	-14227
▁키드	-14228
▁돌고래	-14229
날레	-14230
▁다자	-14231
▁변혁	-14232
▁열세	-14233
▁의정	-14234
▁절충	-14235
▁착각	-14236
▁출품	-14237
▁통도사	-14238
▁피의자	-14239
▁뉘른베르크	-14240
▁브란덴부르크	-14241
▁막강	-14242
▁목장	-14243
▁생원	-14244
▁첩보	-14245
세데스	-14246
▁아세틸	-14247
▁칭기즈	-14248
▁파라오	-14249
▁함경도	-14250
▁병자호란	-14251
▁쳐들어오	-14252
▁땀	-14253
놀드	-14254
세서	-14255
▁닥치	-14256
▁달콤	-14257
▁서약	-14258
▁아노	-14259
▁에레	-14260
▁외면	-14261
▁취직	-14262
▁터너	-14263
▁강희제	-14264
▁북극점	-14265
▁장갑차	-14266
▁몽고메리	-14267
▁메르세데스	-14268
▁눌	-14269
더링	-14270
어류	-14271
조사	-14272
▁기운	-14273
▁단양	-14274
▁리크	-14275
▁문관	-14276
▁순식	-14277
▁어부	-14278
▁집전	-14279
▁타쿠	-14280
에이고	-14281
▁강대국	-14282
▁테오도	-14283
▁샌디에이고	-14284
▁포르투갈어	-14285
PA	-14286
방향	-14287
은사	-14288
▁금정	-14289
▁비료	-14290
▁선체	-14291
▁슈투	-14292
▁안중	-14293
▁야수	-14294
▁레스터	-14295
▁이사벨	-14296
▁크메르	-14297
알라	-14298
엽수	-14299
▁TS	-14300
▁로큰	-14301
▁바늘	-14302
▁배반	-14303
▁아지	-14304
▁의성	-14305
▁태안	-14306
able	-14307
▁380	-14308
▁가환환	-14309
▁광둥성	-14310
▁다이쇼	-14311
▁성폭행	-14312
▁통신망	-14313
▁항공대	-14314
▁구루	-14315
▁생쥐	-14316
▁실명	-14317
▁체로	-14318
▁특공	-14319
해방군	-14320
▁꽃차례	-14321
▁데이트	-14322
▁슈타인	-14323
▁스케치	-14324
▁연속극	-14325
▁클리어	-14326
▁인민해방군	-14327
▁디디	-14328
▁버트	-14329
▁서당	-14330
▁원효	-14331
록대부	-14332
▁야마다	-14333
▁중앙선	-14334
▁안드로메다	-14335
▁교관	-14336
▁양지	-14337
▁포인	-14338
▁"()	-14339
▁송파구	-14340
▁신석기	-14341
▁이랜드	-14342
▁저널리스트	-14343
두사	-14344
부대	-14345
ale	-14346
▁기판	-14347
▁레몬	-14348
▁율법	-14349
▁즐거	-14350
▁폐허	-14351
▁로큰롤	-14352
▁바나나	-14353
▁베르트	-14354
▁부적절	-14355
▁쇼핑몰	-14356
▁스피커	-14357
▁종사자	-14358
▁코트디	-14359
▁클레어	-14360
▁행해지	-14361
▁페널티킥	-14362
▁코트디부아르	-14363
ng	-14364
세키	-14365
▁모질	-14366
▁방호	-14367
▁세일	-14368
▁예식	-14369
▁왕래	-14370
▁인먼	-14371
▁로버츠	-14372
▁비단털	-14373
▁싫어하	-14374
▁크라운	-14375
몽골	-14376
촌리	-14377
▁KO	-14378
▁감기	-14379
▁동거	-14380
▁라울	-14381
▁로바	-14382
▁성행	-14383
▁애착	-14384
▁영락	-14385
▁칸트	-14386
루엔자	-14387
▁Par	-14388
▁아리랑	-14389
스코리아	-14390
▁비단털쥐	-14391
▁오프라인	-14392
▁기공	-14393
▁명상	-14394
▁슬리	-14395
▁일차	-14396
▁반감기	-14397
▁상반기	-14398
▁파스칼	-14399
르카	-14400
▁교화	-14401
▁래리	-14402
▁수마	-14403
▁술라	-14404
▁스펜	-14405
▁안식	-14406
▁자장	-14407
▁마주치	-14408
▁프론트	-14409
▁끌어올리	-14410
▁바빌로니아	-14411
니에	-14412
우주	-14413
크리	-14414
▁가모	-14415
▁기마	-14416
▁모피	-14417
▁수은	-14418
▁실은	-14419
▁헤센	-14420
▁환율	-14421
▁활기	-14422
▁ㄹㅗㄹ	-14423
▁맥스웰	-14424
▁정치국	-14425
▁WC	-14426
▁결전	-14427
▁구아	-14428
▁금환	-14429
▁보그	-14430
▁보우	-14431
▁야권	-14432
▁장정	-14433
▁정에	-14434
▁중일	-14435
▁708	-14436
▁선거인	-14437
▁University	-14438
UN	-14439
데기	-14440
박사	-14441
시대	-14442
행파	-14443
▁극소	-14444
▁모사	-14445
▁사주	-14446
▁서클	-14447
▁엔젤	-14448
▁이홍	-14449
▁잉카	-14450
▁향신	-14451
▁대항전	-14452
▁형용사	-14453
▁관음보살	-14454
▁보컬리스트	-14455
▁가세	-14456
▁모체	-14457
▁문수	-14458
▁위트	-14459
▁출격	-14460
▁205	-14461
▁Vol	-14462
▁건너오	-14463
▁라이베리아	-14464
▁탭	-14465
▁가명	-14466
▁거머	-14467
▁구세	-14468
▁동군	-14469
▁정언	-14470
▁정칙	-14471
▁후루	-14472
▁ATC	-14473
▁데뷔작	-14474
▁보호법	-14475
▁합성어	-14476
건설	-14477
▁At	-14478
▁규약	-14479
▁야코	-14480
▁열악	-14481
▁순식간	-14482
▁콘라트	-14483
▁벙	-14484
▁경순	-14485
▁경의	-14486
▁라벨	-14487
▁샤르	-14488
▁실사	-14489
▁이질	-14490
▁획기	-14491
▁되풀이	-14492
▁보조금	-14493
▁사할린	-14494
▁싯	-14495
연구	-14496
▁데일	-14497
▁로니	-14498
▁복부	-14499
▁조봉	-14500
▁집사	-14501
very	-14502
▁ᄇㅅㅣ	-14503
▁통계청	-14504
▁쇼트트랙	-14505
▁엑스박스	-14506
▁인플루엔자	-14507
쿠사	-14508
▁미첼	-14509
▁ㄷㅏㄴ	-14510
▁사학자	-14511
▁슈미트	-14512
▁캐스터	-14513
▁조선공산당	-14514
▁텅	-14515
윽고	-14516
▁JC	-14517
▁경종	-14518
▁구타	-14519
▁기미	-14520
▁박용	-14521
▁박재	-14522
▁외손	-14523
▁월남	-14524
▁치마	-14525
▁NBC	-14526
▁김해시	-14527
▁이윽고	-14528
▁IR	-14529
▁금하	-14530
▁배당	-14531
▁베티	-14532
▁불쾌	-14533
▁상계	-14534
▁시의	-14535
▁아연	-14536
▁안톤	-14537
▁에코	-14538
▁염두	-14539
▁외할	-14540
▁토피	-14541
▁235	-14542
▁개그맨	-14543
▁스케줄	-14544
▁시마즈	-14545
▁name	-14546
▁로베르토	-14547
루즈	-14548
모음	-14549
벌리	-14550
양이	-14551
▁군복	-14552
▁등산	-14553
▁자위	-14554
▁초계	-14555
▁후한	-14556
▁DOS	-14557
▁가이아	-14558
▁호흡기	-14559
▁엣	-14560
▁서안	-14561
▁수역	-14562
▁양극	-14563
▁양서	-14564
▁에노	-14565
▁자키	-14566
▁재화	-14567
▁칼륨	-14568
▁호로	-14569
폴리탄	-14570
▁메트로폴리탄	-14571
사와	-14572
▁남단	-14573
▁내림	-14574
▁노카	-14575
▁비옥	-14576
▁정글	-14577
▁풀백	-14578
co	-14579
▁뤄	-14580
▁골절	-14581
▁나기	-14582
▁마흐	-14583
▁사미	-14584
▁안팎	-14585
▁외삼	-14586
▁우기	-14587
▁하산	-14588
▁후이	-14589
▁스케일	-14590
▁최성기	-14591
▁그레이엄	-14592
▁셴	-14593
화당	-14594
▁리나	-14595
▁불복	-14596
▁석기	-14597
▁솜씨	-14598
▁신병	-14599
▁유충	-14600
▁족장	-14601
▁타시	-14602
▁tvN	-14603
▁남극점	-14604
▁자격증	-14605
▁테두리	-14606
▁지하철역	-14607
▁랠	-14608
▁cc	-14609
▁경화	-14610
▁대류	-14611
▁라가	-14612
▁무능	-14613
▁병렬	-14614
▁안심	-14615
▁웨어	-14616
▁케리	-14617
▁코바	-14618
▁포니	-14619
▁화승	-14620
▁브로드웨이	-14621
에쓰	-14622
황색	-14623
▁실효	-14624
▁재보	-14625
▁카로	-14626
▁한겨	-14627
▁사무관	-14628
▁열역학	-14629
▁조각상	-14630
▁채무자	-14631
▁우두머리	-14632
so	-14633
그램	-14634
보라	-14635
큐슈	-14636
▁띄우	-14637
▁버니	-14638
▁종가	-14639
▁통솔	-14640
▁간호사	-14641
▁당뇨병	-14642
▁로페스	-14643
▁안드레	-14644
18	-14645
르산	-14646
▁가뭄	-14647
▁균일	-14648
▁나한	-14649
▁세스	-14650
▁소론	-14651
▁오마	-14652
▁축복	-14653
▁패치	-14654
▁반대편	-14655
▁안양시	-14656
▁천도교	-14657
▁This	-14658
▁미스코리아	-14659
▁아우구스투스	-14660
▁맴	-14661
IVE	-14662
▁결말	-14663
▁고층	-14664
▁뉴멕	-14665
▁부엌	-14666
▁요직	-14667
▁이달	-14668
▁일간	-14669
▁창구	-14670
▁키타	-14671
▁키트	-14672
▁협곡	-14673
▁화원	-14674
▁동아리	-14675
▁시그마	-14676
▁신호장	-14677
▁뉴멕시코	-14678
▁중앙아메리카	-14679
yn	-14680
▁잼	-14681
▁동백	-14682
▁리시	-14683
▁무가	-14684
▁시제	-14685
▁양평	-14686
▁정승	-14687
▁줄곧	-14688
▁공주시	-14689
▁파푸아뉴기니	-14690
나들	-14691
열대	-14692
텐셜	-14693
ATO	-14694
▁마늘	-14695
▁무예	-14696
▁산조	-14697
▁악당	-14698
▁은폐	-14699
▁일주	-14700
▁칠성	-14701
▁침범	-14702
스크림	-14703
▁거주자	-14704
▁조각가	-14705
▁카디널	-14706
▁유가행파	-14707
▁일삼	-14708
▁잔혹	-14709
▁확충	-14710
▁다가가	-14711
▁라스트	-14712
▁스틸러스	-14713
신저	-14714
악산	-14715
주크	-14716
ala	-14717
▁기스	-14718
▁숙박	-14719
▁중남	-14720
▁한복	-14721
▁홍익	-14722
▁교육감	-14723
▁무지개	-14724
▁트레일	-14725
▁1874	-14726
▁일렉트릭	-14727
▁sp	-14728
▁ㅅㅏ	-14729
▁기닿	-14730
▁다쿠	-14731
▁몰수	-14732
▁이색	-14733
진보당	-14734
▁재미있	-14735
▁퍼텐셜	-14736
▁컨퍼런스	-14737
시험	-14738
▁넷플	-14739
▁레나	-14740
▁발작	-14741
▁베크	-14742
▁잔여	-14743
▁성폭력	-14744
▁저스틴	-14745
▁넷플릭스	-14746
▁콘퍼런스	-14747
징어	-14748
net	-14749
▁메모	-14750
▁묘호	-14751
▁빌드	-14752
▁판명	-14753
▁향수	-14754
▁가요제	-14755
▁동남쪽	-14756
▁에스컬	-14757
▁클로드	-14758
▁한겨레	-14759
▁항공편	-14760
▁휴대폰	-14761
▁바그다드	-14762
▁호소카와	-14763
▁알렉산데르	-14764
▁에스컬레이터	-14765
프랑	-14766
▁가온	-14767
▁라플	-14768
▁송이	-14769
▁읍성	-14770
▁인스	-14771
▁젠더	-14772
▁조동	-14773
▁캠벨	-14774
▁학당	-14775
▁204	-14776
▁대수학	-14777
▁서스펜	-14778
▁앞바다	-14779
▁후쿠이	-14780
▁벚	-14781
운수	-14782
▁낭비	-14783
▁미겔	-14784
▁발판	-14785
▁소양	-14786
▁손목	-14787
▁싱크	-14788
▁이문	-14789
▁잉여	-14790
▁쿠마	-14791
▁게임즈	-14792
▁지리산	-14793
▁1877	-14794
▁ᆫㄷㅏㄴ	-14795
▁바이마르	-14796
▁퀄	-14797
소문	-14798
ody	-14799
▁리타	-14800
▁맞물	-14801
▁옥사	-14802
▁품목	-14803
야누스	-14804
▁뉴올리	-14805
▁오르간	-14806
▁프레슬리	-14807
ax	-14808
me	-14809
▁흐리	-14810
▁여운형	-14811
▁기울어지	-14812
▁슈퍼스타	-14813
▁콜럼버스	-14814
anc	-14815
▁단발	-14816
▁애드	-14817
▁점하	-14818
▁차명	-14819
▁코크	-14820
▁루이즈	-14821
▁사하라	-14822
▁참전하	-14823
▁7000	-14824
▁오아시스	-14825
▁트라야누스	-14826
더릭	-14827
▁SR	-14828
▁강좌	-14829
▁사중	-14830
▁상한	-14831
▁예멘	-14832
▁주군	-14833
▁코로	-14834
▁하지	-14835
▁허베이	-14836
▁서아프리카	-14837
▁격전	-14838
▁복속	-14839
▁산문	-14840
▁선단	-14841
▁에페	-14842
▁재회	-14843
▁차오	-14844
▁클랜	-14845
▁탄수	-14846
▁원주시	-14847
▁멀티미디어	-14848
민당	-14849
ash	-14850
oid	-14851
▁도형	-14852
▁아킬	-14853
▁행선	-14854
어나오	-14855
▁Bab	-14856
▁공학자	-14857
▁돌려보내	-14858
▁쿰	-14859
▁AF	-14860
▁GR	-14861
▁강국	-14862
▁그립	-14863
▁델리	-14864
▁민원	-14865
▁본존	-14866
▁앞뒤	-14867
▁양천	-14868
▁APG	-14869
▁중거리	-14870
▁핸드볼	-14871
GB	-14872
au	-14873
혈구	-14874
▁그르	-14875
▁두뇌	-14876
▁모치	-14877
▁무주	-14878
▁바니	-14879
▁석권	-14880
▁순찰	-14881
▁엄지	-14882
▁출사	-14883
▁토바	-14884
▁화염	-14885
▁컨설팅	-14886
▁Best	-14887
높이	-14888
바드	-14889
양구	-14890
ose	-14891
▁경내	-14892
▁고승	-14893
▁곤살	-14894
▁너희	-14895
▁바야	-14896
▁전조	-14897
▁지령	-14898
▁지크	-14899
▁처마	-14900
▁총영	-14901
▁추계	-14902
▁518	-14903
▁교육학	-14904
▁브리스	-14905
▁수백만	-14906
▁클러스터	-14907
ps	-14908
▁툼	-14909
변수	-14910
▁et	-14911
▁깔리	-14912
▁우표	-14913
▁인성	-14914
▁카일	-14915
▁퇴진	-14916
▁Her	-14917
▁비잔틴	-14918
▁셀주크	-14919
▁스타드	-14920
▁아놀드	-14921
▁콜린스	-14922
일기	-14923
▁나일	-14924
▁로망	-14925
▁산체	-14926
▁요가	-14927
▁부르봉	-14928
▁플루토늄	-14929
22	-14930
계약	-14931
를레	-14932
비에	-14933
▁노하	-14934
▁밸브	-14935
▁시발	-14936
▁에볼	-14937
▁오구	-14938
▁오릭스	-14939
▁청문회	-14940
▁한국군	-14941
▁갈릴레오	-14942
▁다카하시	-14943
14	-14944
피크	-14945
ict	-14946
▁건지	-14947
▁결장	-14948
▁공문	-14949
▁뮐러	-14950
▁블랑	-14951
▁숙명	-14952
▁예금	-14953
▁코린	-14954
▁만장일치	-14955
▁캄파니아	-14956
범죄	-14957
▁AE	-14958
▁가선	-14959
▁감축	-14960
▁거시	-14961
▁도안	-14962
▁라임	-14963
▁소르	-14964
▁소인	-14965
▁소주	-14966
▁유창	-14967
▁인계	-14968
▁자성	-14969
▁제지	-14970
▁강화군	-14971
▁경부선	-14972
▁엘비스	-14973
▁포식자	-14974
▁1859	-14975
▁ㅁㅓ	-14976
▁관아	-14977
▁나투	-14978
▁문맥	-14979
▁방학	-14980
▁벗기	-14981
▁상감	-14982
▁승률	-14983
▁완장	-14984
▁1700	-14985
▁Hell	-14986
▁메모리얼	-14987
남면	-14988
토크	-14989
▁YG	-14990
▁도읍	-14991
▁레크	-14992
▁사연	-14993
▁원사	-14994
▁앙드레	-14995
▁레닌주의	-14996
▁스테파노	-14997
▁KS	-14998
▁곡식	-14999
▁대입	-15000
▁뚜껑	-15001
▁중건	-15002
▁CIA	-15003
▁거머쥐	-15004
▁곧이어	-15005
▁전시관	-15006
▁콘티넨	-15007
▁현미경	-15008
▁사무라이	-15009
▁us	-15010
▁니즈	-15011
▁문물	-15012
▁볼드	-15013
▁북측	-15014
▁사병	-15015
▁산재	-15016
▁선과	-15017
▁스펙	-15018
▁요도	-15019
▁원문	-15020
▁율리	-15021
▁재물	-15022
▁루카스	-15023
▁외계인	-15024
▁프리큐어	-15025
장사	-15026
제철	-15027
형제	-15028
▁되살	-15029
▁미켈	-15030
▁미트	-15031
▁서체	-15032
▁스플	-15033
▁의제	-15034
▁퇴치	-15035
▁펭귄	-15036
▁아파치	-15037
▁연방군	-15038
▁클레오	-15039
▁혼합물	-15040
▁도부	-15041
▁뒤덮	-15042
▁명왕	-15043
▁법규	-15044
▁이씨	-15045
▁태화	-15046
▁플랑	-15047
▁게이밍	-15048
▁사다리	-15049
▁아키텐	-15050
▁오리엔	-15051
▁인류학	-15052
13	-15053
15	-15054
▁켐	-15055
EEE	-15056
▁네브	-15057
▁서품	-15058
▁쓰리	-15059
▁억울	-15060
▁통찰	-15061
▁화음	-15062
▁개화파	-15063
▁돌려주	-15064
▁울트라	-15065
▁라이센스	-15066
▁쓰러뜨리	-15067
란다	-15068
▁과세	-15069
▁리안	-15070
▁제비	-15071
▁허물	-15072
▁625	-15073
▁셰퍼드	-15074
▁우에노	-15075
나시	-15076
데일	-15077
로트	-15078
무장	-15079
▁공병	-15080
▁구가	-15081
▁맹렬	-15082
▁모교	-15083
▁부식	-15084
▁블룸	-15085
▁투사	-15086
▁순천시	-15087
▁이론가	-15088
▁이케다	-15089
▁미야기현	-15090
▁자이언트	-15091
▁자카르타	-15092
고사	-15093
마을	-15094
매기	-15095
완다	-15096
▁전범	-15097
▁푸젠	-15098
▁함장	-15099
▁달려가	-15100
▁억제제	-15101
▁핵탄두	-15102
▁테크놀로지	-15103
▁뉴클레오타이드	-15104
VA	-15105
▁멱	-15106
주석	-15107
▁se	-15108
▁경합	-15109
▁롤러	-15110
▁바투	-15111
▁앨라	-15112
▁화소	-15113
▁대사간	-15114
▁제니퍼	-15115
투리	-15116
▁구전	-15117
▁만지	-15118
▁바젤	-15119
▁백운	-15120
▁왕당	-15121
▁전서	-15122
▁후회	-15123
▁서태지	-15124
▁^	-15125
▁웜	-15126
▁챠	-15127
uck	-15128
▁김우	-15129
▁만류	-15130
▁베다	-15131
▁원점	-15132
▁츠카	-15133
▁하층	-15134
▁가치관	-15135
▁빌바오	-15136
▁이주민	-15137
▁출장소	-15138
▁뮈	-15139
동원	-15140
버터	-15141
▁박찬	-15142
▁발터	-15143
▁상환	-15144
▁원만	-15145
▁일어	-15146
▁길거리	-15147
▁직사각	-15148
▁환승역	-15149
▁아드리아	-15150
▁아이스크림	-15151
de	-15152
▁거병	-15153
▁관위	-15154
▁레티	-15155
▁산남	-15156
▁아누	-15157
▁후견	-15158
▁난쟁이	-15159
▁불러오	-15160
▁소아시아	-15161
▁크리스틴	-15162
과학	-15163
재판	-15164
▁결여	-15165
▁무공	-15166
▁속국	-15167
▁자갈	-15168
▁적법	-15169
▁결의안	-15170
▁목표물	-15171
▁미성년	-15172
▁바스크	-15173
▁선제후	-15174
▁카리스	-15175
▁IEEE	-15176
HC	-15177
HL	-15178
▁샷	-15179
나주	-15180
▁군기	-15181
▁사와	-15182
▁여정	-15183
▁총감	-15184
▁피자	-15185
reak	-15186
▁기념장	-15187
▁쓰촨성	-15188
▁출판물	-15189
▁탈레반	-15190
▁트레인	-15191
▁튀어나오	-15192
▁긋	-15193
▁끔	-15194
장조	-15195
▁근간	-15196
▁다윗	-15197
▁덮치	-15198
▁로코	-15199
▁백지	-15200
▁변론	-15201
▁왕명	-15202
▁이창	-15203
▁정청	-15204
▁주포	-15205
▁테헤	-15206
▁후면	-15207
▁순교자	-15208
▁아이치	-15209
▁이치현	-15210
조류	-15211
주사	-15212
▁로보	-15213
▁리언	-15214
▁발광	-15215
▁보어	-15216
▁북인	-15217
▁사산	-15218
▁산술	-15219
▁코이	-15220
▁하후	-15221
▁회차	-15222
▁희미	-15223
▁340	-15224
▁통계학	-15225
▁고바야시	-15226
oo	-15227
▁짚	-15228
스톤	-15229
티지	-15230
ail	-15231
▁FF	-15232
▁경원	-15233
▁수주	-15234
▁오와	-15235
▁자백	-15236
▁조회	-15237
▁튜링	-15238
▁특명	-15239
▁로저스	-15240
▁마코토	-15241
▁미트라	-15242
▁케이드	-15243
▁서바이벌	-15244
▁아미타불	-15245
르바	-15246
어놓	-15247
패드	-15248
▁김학	-15249
▁뉴잉	-15250
▁도끼	-15251
▁알로	-15252
▁용맹	-15253
▁자네	-15254
▁빈센트	-15255
▁실린더	-15256
▁향신료	-15257
▁as	-15258
▁개경	-15259
▁관군	-15260
▁논증	-15261
▁달력	-15262
▁담양	-15263
▁로디	-15264
▁승낙	-15265
▁이만	-15266
▁일면	-15267
▁장경	-15268
▁대혁명	-15269
▁볼프강	-15270
▁Star	-15271
▁카디널스	-15272
ㄱㅜ	-15273
의식	-15274
▁섹션	-15275
▁안주	-15276
▁전봉	-15277
▁진천	-15278
▁청정	-15279
▁헬스	-15280
▁화풍	-15281
게이트	-15282
▁레이건	-15283
▁지석묘	-15284
▁펙	-15285
ㅇㅏ	-15286
스퍼	-15287
▁발진	-15288
▁보국	-15289
▁양동	-15290
▁오인	-15291
▁유틸	-15292
▁정역	-15293
▁퇴출	-15294
▁폐차	-15295
▁헤라	-15296
▁Sun	-15297
▁로스트	-15298
▁안철수	-15299
▁이광수	-15300
▁정착지	-15301
▁해인사	-15302
▁국가원수	-15303
▁유틸리티	-15304
▁매사추세츠주	-15305
▁공석	-15306
▁도매	-15307
▁문건	-15308
▁미러	-15309
▁보디	-15310
▁상설	-15311
▁어선	-15312
▁홀수	-15313
하마드	-15314
▁교황령	-15315
▁오슬로	-15316
▁거문	-15317
▁금관	-15318
▁나바	-15319
▁베가	-15320
▁사생	-15321
▁상층	-15322
▁수프	-15323
▁우니	-15324
▁입찰	-15325
▁젤리	-15326
▁진심	-15327
▁310	-15328
▁가우스	-15329
▁개척자	-15330
ㄱㅓㄴㅏ	-15331
▁오토바이	-15332
▁Super	-15333
팩스	-15334
플레	-15335
▁구라	-15336
▁부락	-15337
▁세제	-15338
▁손수	-15339
▁추장	-15340
▁타파	-15341
▁통감	-15342
▁개막식	-15343
▁예문관	-15344
▁페스트	-15345
▁어우러지	-15346
댓값	-15347
소니	-15348
▁my	-15349
▁떠돌	-15350
▁아칸	-15351
▁호화	-15352
떨어지	-15353
▁울주군	-15354
▁원정대	-15355
▁얄	-15356
배마	-15357
▁교감	-15358
▁사탄	-15359
▁연해	-15360
▁짝수	-15361
▁커브	-15362
▁타밀	-15363
▁평방	-15364
▁폐하	-15365
▁209	-15366
▁국내선	-15367
▁디에고	-15368
▁아니면	-15369
▁아스카	-15370
▁앨라배마	-15371
구미	-15372
바퀴	-15373
vel	-15374
▁교인	-15375
▁멜라	-15376
▁모션	-15377
▁어학	-15378
▁추밀	-15379
▁템플	-15380
▁you	-15381
▁무신론	-15382
▁바빌론	-15383
▁브레멘	-15384
학파	-15385
▁과달	-15386
▁김도	-15387
▁김주	-15388
▁수문	-15389
▁시력	-15390
▁대관식	-15391
▁셀레우	-15392
▁윤치영	-15393
▁그래픽스	-15394
▁유니코드	-15395
▁뉴잉글랜드	-15396
▁후쿠시마현	-15397
▁콘스탄티누스	-15398
▁ad	-15399
▁근세	-15400
▁늦추	-15401
▁뚫리	-15402
▁명륜	-15403
▁산정	-15404
▁토프	-15405
▁항문	-15406
▁대대장	-15407
▁대제학	-15408
▁에이브	-15409
▁자오선	-15410
▁자치현	-15411
▁1812	-15412
▁뽀	-15413
iel	-15414
▁닷컴	-15415
▁산인	-15416
▁속초	-15417
▁정실	-15418
▁타선	-15419
▁르완다	-15420
▁송진우	-15421
▁Soul	-15422
▁중앙일보	-15423
TF	-15424
▁DO	-15425
▁강유	-15426
▁동급	-15427
▁로컬	-15428
▁맞배	-15429
▁박경	-15430
▁선별	-15431
▁성조	-15432
▁수라	-15433
▁의인	-15434
▁지카	-15435
▁충동	-15436
▁탄두	-15437
▁피그	-15438
▁삼거리	-15439
▁에이지	-15440
구나	-15441
초프	-15442
티어	-15443
▁Kn	-15444
▁김덕	-15445
▁루드	-15446
▁메드	-15447
▁장강	-15448
▁지검	-15449
▁터스	-15450
▁호국	-15451
▁206	-15452
▁한자어	-15453
▁ICBM	-15454
▁모니터링	-15455
▁알렉세이	-15456
▁무형문화재	-15457
▁근위	-15458
▁나시	-15459
▁로런	-15460
▁센타	-15461
▁수구	-15462
▁안면	-15463
▁어지	-15464
▁장지	-15465
▁호이	-15466
▁단말기	-15467
▁에세이	-15468
▁음식점	-15469
▁자본가	-15470
▁접미사	-15471
▁조광조	-15472
▁주거지	-15473
▁선거관리	-15474
▁아이파크	-15475
▁선거관리위원회	-15476
59	-15477
▁름	-15478
▁루손	-15479
▁산동	-15480
▁아호	-15481
▁풀이	-15482
▁슈투트	-15483
▁여수시	-15484
▁John	-15485
▁Christ	-15486
▁슈투트가르트	-15487
샤오	-15488
▁동맥	-15489
▁마다	-15490
▁무위	-15491
▁무진	-15492
▁빨강	-15493
▁손쉽	-15494
▁수질	-15495
▁스쿼	-15496
▁이건	-15497
▁점토	-15498
▁주유	-15499
▁코우	-15500
▁투니	-15501
하우스	-15502
▁서비스업	-15503
▁안토니우스	-15504
▁쑹	-15505
디드	-15506
▁Mi	-15507
▁Tw	-15508
▁금천	-15509
▁도자	-15510
▁법상	-15511
▁샤오	-15512
▁의논	-15513
▁장이	-15514
▁조던	-15515
▁쪼개	-15516
▁황위	-15517
시아키	-15518
▁조르주	-15519
▁주제가	-15520
네오	-15521
도감	-15522
ute	-15523
▁IF	-15524
▁ON	-15525
▁걸스	-15526
▁매듭	-15527
▁배타	-15528
▁세밀	-15529
▁연대장	-15530
▁북대서양	-15531
면적	-15532
탄올	-15533
▁교재	-15534
▁집적	-15535
▁천자	-15536
▁춘계	-15537
▁카보	-15538
공화당	-15539
▁747	-15540
▁기생충	-15541
▁록히드	-15542
▁안데스	-15543
▁1879	-15544
▁건국훈장	-15545
▁막시밀리	-15546
▁베르사유	-15547
▁민주공화당	-15548
EA	-15549
gh	-15550
버라	-15551
▁귀순	-15552
▁그늘	-15553
▁당상	-15554
▁변성	-15555
▁솔리	-15556
▁차역	-15557
▁철기	-15558
▁초식	-15559
▁콘스	-15560
▁콜론	-15561
▁포상	-15562
▁해주	-15563
▁로널드	-15564
▁ㄴㅏㅁㅏ	-15565
▁아브라함	-15566
▁과감	-15567
▁구비	-15568
▁규합	-15569
▁로지	-15570
▁버밍	-15571
▁범람	-15572
▁양원	-15573
▁하강	-15574
▁보이즈	-15575
▁조봉암	-15576
▁파르마	-15577
태자	-15578
▁스완	-15579
▁정맥	-15580
▁카토	-15581
라이스	-15582
▁고지대	-15583
▁레코딩	-15584
▁석회암	-15585
▁의병장	-15586
▁카지노	-15587
▁테헤란	-15588
▁피어스	-15589
무지	-15590
방스	-15591
▁HP	-15592
▁슬러	-15593
▁아람	-15594
▁영도	-15595
▁청일	-15596
▁카펠	-15597
▁바닷가	-15598
▁제이크	-15599
▁일렉트로닉	-15600
슐리	-15601
▁Mr	-15602
▁고후	-15603
▁공경	-15604
▁논평	-15605
▁니치	-15606
▁대방	-15607
▁도파	-15608
▁딱딱	-15609
▁양념	-15610
▁울루	-15611
▁위축	-15612
▁백두산	-15613
▁사우디	-15614
▁여러분	-15615
▁끔찍	-15616
▁동대	-15617
▁유계	-15618
▁임실	-15619
▁자석	-15620
▁초회	-15621
▁해커	-15622
▁호투	-15623
▁휴일	-15624
▁개개인	-15625
▁게이오	-15626
▁독재자	-15627
▁태블릿	-15628
▁ㅇㅔㄷㅏㄱㅏ	-15629
OK	-15630
▁관개	-15631
▁농담	-15632
▁듀스	-15633
▁리퍼	-15634
▁부기	-15635
▁CoA	-15636
▁des	-15637
▁뉴올리언스	-15638
RI	-15639
네프	-15640
분투	-15641
화산	-15642
▁대여	-15643
▁모태	-15644
▁유세	-15645
▁이코	-15646
▁풍요	-15647
▁App	-15648
▁라그랑	-15649
▁리그컵	-15650
▁여행자	-15651
블릭	-15652
▁국문	-15653
▁노역	-15654
▁소량	-15655
▁소포	-15656
▁수족	-15657
▁원한	-15658
▁유보	-15659
▁일보	-15660
▁카파	-15661
▁쿠시	-15662
▁호적	-15663
로세서	-15664
▁420	-15665
▁무사시	-15666
▁아이작	-15667
▁가창	-15668
▁군마	-15669
▁노마	-15670
▁단수	-15671
▁두부	-15672
▁방탄	-15673
▁부화	-15674
▁불문	-15675
▁사파	-15676
▁양정	-15677
▁영종	-15678
▁예보	-15679
▁클럭	-15680
▁리바이	-15681
▁사가미	-15682
리아누스	-15683
신보	-15684
정변	-15685
▁능숙	-15686
▁비오	-15687
▁상이	-15688
▁스킨	-15689
▁스텐	-15690
▁전열	-15691
▁컬링	-15692
▁호시	-15693
레틱스	-15694
▁그러면	-15695
▁암스트	-15696
▁애슬레틱스	-15697
연맹	-15698
▁기권	-15699
▁낯설	-15700
▁두스	-15701
▁반납	-15702
▁보아	-15703
▁불능	-15704
▁빛깔	-15705
▁용역	-15706
▁조우	-15707
▁카다	-15708
▁글리제	-15709
▁썸	-15710
▁개표	-15711
▁권투	-15712
▁끊이	-15713
▁머큐	-15714
▁반달	-15715
▁열람	-15716
▁유상	-15717
▁차차	-15718
▁최용	-15719
▁현수	-15720
를레앙	-15721
▁Str	-15722
▁국방군	-15723
▁니가타	-15724
▁변호인	-15725
▁영사관	-15726
▁인산화	-15727
▁트리스	-15728
▁원종공신	-15729
▁파르티아	-15730
▁꽝	-15731
▁Gu	-15732
▁강가	-15733
▁인삼	-15734
▁중등	-15735
▁오메가	-15736
▁테크노	-15737
▁주머니쥐	-15738
▁Record	-15739
링크	-15740
반정	-15741
ull	-15742
▁김시	-15743
▁인척	-15744
▁자각	-15745
▁처칠	-15746
▁체리	-15747
▁알칼리	-15748
▁들어올리	-15749
▁쿵	-15750
산업	-15751
VID	-15752
▁감당	-15753
▁애호	-15754
▁후추	-15755
▁440	-15756
▁클라리	-15757
▁아우구스트	-15758
▁퀼	-15759
박이	-15760
자드	-15761
장군	-15762
▁"|	-15763
▁PA	-15764
▁광시	-15765
▁대등	-15766
▁부트	-15767
▁수아	-15768
▁시타	-15769
▁잇달	-15770
▁제고	-15771
▁타라	-15772
▁할구	-15773
▁수영장	-15774
▁잠비아	-15775
▁항생제	-15776
▁print	-15777
▁ᆯㅈㅣㄹㅏㄷㅗ	-15778
티보	-15779
▁게놈	-15780
▁남경	-15781
▁도나	-15782
▁동하	-15783
▁용문	-15784
▁유민	-15785
▁군주제	-15786
▁본거지	-15787
▁엘리엇	-15788
▁유기체	-15789
▁타지키스탄	-15790
▁public	-15791
▁뜯	-15792
선교	-15793
▁당장	-15794
▁성자	-15795
▁신익	-15796
▁실베	-15797
▁압수	-15798
▁왕녀	-15799
▁커리	-15800
▁폴로	-15801
▁항전	-15802
▁Per	-15803
▁바실리	-15804
▁스위트	-15805
▁야구부	-15806
▁여주인	-15807
▁조용히	-15808
▁즐거움	-15809
▁불법행위	-15810
▁쑨	-15811
길준	-15812
덕궁	-15813
수지	-15814
▁po	-15815
▁궁주	-15816
▁금기	-15817
▁미타	-15818
▁소진	-15819
▁아로	-15820
▁전곡	-15821
▁접목	-15822
▁투병	-15823
▁실리콘	-15824
▁엘리스	-15825
▁오토모	-15826
▁합병증	-15827
대비	-15828
▁노엘	-15829
▁리노	-15830
▁사체	-15831
▁상회	-15832
▁앉히	-15833
▁앙상	-15834
▁역동	-15835
▁이석	-15836
▁자존	-15837
▁제방	-15838
▁종실	-15839
▁쿠루	-15840
▁투기	-15841
▁환산	-15842
▁페이퍼	-15843
▁허버트	-15844
▁리바운드	-15845
▁엔지니어링	-15846
▁ㅇㅡㄹㅅㅜㄹㅗㄱ	-15847
▁CA	-15848
▁nm	-15849
▁나토	-15850
▁동두	-15851
▁라쿠	-15852
▁성현	-15853
▁열거	-15854
▁유관	-15855
▁은평	-15856
▁이한	-15857
▁증축	-15858
▁화이	-15859
▁흐트	-15860
▁Hot	-15861
▁ㄹㄹㅗ	-15862
▁공성전	-15863
▁산투스	-15864
▁슈트라	-15865
▁양산시	-15866
▁엔리케	-15867
▁영화관	-15868
바이러스	-15869
▁헬레니즘	-15870
레미	-15871
자나	-15872
▁균등	-15873
▁명동	-15874
▁무패	-15875
▁문어	-15876
▁사나	-15877
▁아루	-15878
▁퀸스	-15879
로그램	-15880
▁바레인	-15881
▁부추기	-15882
▁제시카	-15883
▁카스텔	-15884
▁2500	-15885
25	-15886
데오	-15887
황제	-15888
▁교학	-15889
▁그릴	-15890
▁기시	-15891
▁담수	-15892
▁리지	-15893
▁마거	-15894
▁북마	-15895
▁시영	-15896
▁식이	-15897
▁온전	-15898
▁왕좌	-15899
▁요셉	-15900
▁콜리	-15901
▁파고	-15902
▁환초	-15903
▁256	-15904
▁살아오	-15905
▁오우치	-15906
▁대법원장	-15907
▁다마스쿠스	-15908
▁슈트라우스	-15909
쿠치	-15910
▁매복	-15911
▁바바	-15912
▁이설	-15913
▁코니	-15914
ㄹㄹㅗ	-15915
▁고다이	-15916
▁기본법	-15917
▁부서지	-15918
▁시에라	-15919
▁캅카스	-15920
▁플래닛	-15921
▁천문단위	-15922
ㅁㅏㄹㄹㅗ	-15923
ty	-15924
발트	-15925
▁내시	-15926
▁사목	-15927
▁접시	-15928
▁중신	-15929
▁코인	-15930
▁Win	-15931
▁맞물리	-15932
▁비행사	-15933
▁초고층	-15934
16	-15935
일체	-15936
ual	-15937
▁군도	-15938
▁사스	-15939
▁정직	-15940
▁헐리	-15941
고로드	-15942
▁ㅁㅓㄴ	-15943
▁버스터	-15944
▁왕당파	-15945
포리	-15946
▁광동	-15947
▁성교	-15948
▁성형	-15949
▁우타	-15950
▁탈피	-15951
▁향로	-15952
ogle	-15953
▁광합성	-15954
▁랴오닝	-15955
▁부러지	-15956
▁접근성	-15957
▁페르시	-15958
▁사이클론	-15959
▁크리스탈	-15960
▁동체	-15961
▁셔츠	-15962
▁아역	-15963
▁왕릉	-15964
▁유미	-15965
▁카츠	-15966
▁피질	-15967
▁호찌	-15968
▁렌더링	-15969
▁지극히	-15970
▁최진실	-15971
빨리	-15972
스틱	-15973
▁고독	-15974
▁반정	-15975
▁반향	-15976
▁오차	-15977
▁패자	-15978
▁힐스	-15979
▁예수교	-15980
▁이세이	-15981
▁프리드	-15982
울루	-15983
자락	-15984
▁가결	-15985
▁교명	-15986
▁농협	-15987
▁라사	-15988
▁석재	-15989
▁실책	-15990
▁양구	-15991
▁행운	-15992
▁깨어나	-15993
▁남북조	-15994
▁매니아	-15995
▁브루노	-15996
▁요나라	-15997
▁리치먼드	-15998
▁캥	-15999
다임	-16000
커우	-16001
▁Ke	-16002
▁금리	-16003
▁깊숙	-16004
▁담임	-16005
▁바타	-16006
▁응력	-16007
그래피	-16008
▁예비군	-16009
▁제주시	-16010
▁조연상	-16011
▁주둔지	-16012
▁1789	-16013
▁HS	-16014
▁아구	-16015
▁체질	-16016
▁코일	-16017
▁킬러	-16018
던지기	-16019
▁208	-16020
▁베이직	-16021
▁춘천시	-16022
▁기타큐슈	-16023
▁플랑드르	-16024
▁아미타여래	-16025
무트	-16026
▁NM	-16027
▁녹이	-16028
▁득실	-16029
▁미녀	-16030
▁봉분	-16031
▁부안	-16032
▁여관	-16033
▁예쁘	-16034
▁워낙	-16035
▁이보	-16036
▁칠곡	-16037
▁트램	-16038
▁생산자	-16039
▁오이타	-16040
▁유도탄	-16041
▁토론회	-16042
▁호기심	-16043
▁후유증	-16044
▁1801	-16045
▁Back	-16046
는점	-16047
▁mu	-16048
▁노골	-16049
▁느슨	-16050
▁스팀	-16051
▁시온	-16052
▁즉흥	-16053
▁지브	-16054
▁촐라	-16055
▁할로	-16056
프리드	-16057
▁911	-16058
▁사무엘	-16059
▁스텔스	-16060
▁웨슬리	-16061
▁조제프	-16062
▁패러다임	-16063
불명	-16064
RNA	-16065
▁강타	-16066
▁곱하	-16067
▁기피	-16068
▁유독	-16069
▁히코	-16070
▁머큐리	-16071
▁유길준	-16072
▁잠재력	-16073
▁재결합	-16074
▁1400	-16075
▁Kore	-16076
▁포틀랜드	-16077
▁ㅅㅡㅂㄴㅣㄲㅏ	-16078
▁둠	-16079
평면	-16080
▁강자	-16081
▁사조	-16082
▁소노	-16083
▁총생	-16084
▁폐교	-16085
▁다행히	-16086
▁아르테	-16087
ll	-16088
▁기한	-16089
▁내기	-16090
▁누마	-16091
▁멘델	-16092
▁신천	-16093
▁쌍용	-16094
▁악어	-16095
▁전과	-16096
▁정중	-16097
▁준하	-16098
▁진성	-16099
▁초석	-16100
▁침수	-16101
리오스	-16102
▁네바다	-16103
▁들여오	-16104
▁불거지	-16105
▁이회창	-16106
▁판매고	-16107
▁암스트롱	-16108
인산	-16109
▁Fl	-16110
▁MD	-16111
▁동률	-16112
▁안시	-16113
▁영성	-16114
▁원곡	-16115
▁작자	-16116
▁치밀	-16117
▁Get	-16118
▁MIT	-16119
▁길버트	-16120
▁사천왕	-16121
▁영문학	-16122
▁ㄹㅏㄴㅣ	-16123
제사	-16124
▁KD	-16125
▁구애	-16126
▁대용	-16127
▁에픽	-16128
▁이크	-16129
▁치킨	-16130
▁파피	-16131
▁광주시	-16132
▁디아스	-16133
▁로런스	-16134
▁사망률	-16135
▁지배하	-16136
▁남한산성	-16137
▁비로자나	-16138
로움	-16139
스텐	-16140
▁겨냥	-16141
▁교란	-16142
▁국산	-16143
▁군량	-16144
▁애프	-16145
▁윤곽	-16146
▁조율	-16147
▁중학	-16148
▁탄력	-16149
▁브릿지	-16150
▁앙상블	-16151
▁NATO	-16152
ox	-16153
▁NL	-16154
▁오웬	-16155
▁청중	-16156
▁370	-16157
▁ㅇㅗㅂ	-16158
▁내몽골	-16159
▁마거릿	-16160
▁방법론	-16161
▁브루크	-16162
▁양평군	-16163
▁영장류	-16164
▁유물론	-16165
▁쐐	-16166
▁킵	-16167
라과	-16168
▁NA	-16169
▁가전	-16170
▁갑신	-16171
▁거품	-16172
▁구부	-16173
▁군림	-16174
▁기일	-16175
▁발열	-16176
▁약품	-16177
▁채집	-16178
▁첫날	-16179
ames	-16180
▁생물학자	-16181
▁프린세스	-16182
▁궁수	-16183
▁균열	-16184
▁변천	-16185
▁총국	-16186
▁225	-16187
▁마운틴	-16188
▁붉은색	-16189
▁드래곤즈	-16190
▁미식축구	-16191
▁Intern	-16192
▁렬	-16193
이상	-16194
▁관저	-16195
▁구명	-16196
▁도화	-16197
▁레저	-16198
▁미로	-16199
▁신궁	-16200
▁쐐기	-16201
▁악의	-16202
lect	-16203
▁Mag	-16204
▁급속도	-16205
▁동일시	-16206
▁선수상	-16207
▁독립선언	-16208
▁탄수화물	-16209
▁항공우주	-16210
모닉	-16211
▁극회	-16212
▁먼로	-16213
▁미디	-16214
▁민선	-16215
▁승선	-16216
▁예편	-16217
▁우디	-16218
▁출정	-16219
▁카인	-16220
▁흘러가	-16221
ology	-16222
▁이마가와	-16223
▁해수욕장	-16224
GO	-16225
▁관원	-16226
▁성부	-16227
▁세타	-16228
▁승마	-16229
▁안건	-16230
▁얼리	-16231
▁장승	-16232
▁제헌	-16233
▁커넥	-16234
▁코딩	-16235
▁타키	-16236
▁탄성	-16237
▁트론	-16238
▁하세	-16239
▁현관	-16240
▁후난	-16241
▁남아공	-16242
▁디렉터	-16243
▁메신저	-16244
▁알베르	-16245
▁오리건	-16246
▁추축국	-16247
▁후반전	-16248
▁리하르트	-16249
▁셀레우코스	-16250
YP	-16251
▁가변	-16252
▁노름	-16253
▁로만	-16254
▁무소	-16255
▁솔직	-16256
▁유재	-16257
▁책정	-16258
▁코디	-16259
▁호지	-16260
▁방문객	-16261
▁요시카	-16262
▁ㄱㅗㄴㅡㄴ	-16263
의금	-16264
피카	-16265
let	-16266
▁군위	-16267
▁다채	-16268
▁만물	-16269
▁열기	-16270
▁제타	-16271
▁나카노	-16272
▁부천시	-16273
▁와이어	-16274
▁작아지	-16275
▁클라인	-16276
그라운드	-16277
ature	-16278
▁Baby	-16279
▁니카라과	-16280
▁트로츠키	-16281
▁나날	-16282
▁무쓰	-16283
▁생포	-16284
▁오랑	-16285
▁유익	-16286
▁장차	-16287
▁지회	-16288
▁캡틴	-16289
▁케로	-16290
▁호전	-16291
피에르	-16292
▁미요시	-16293
▁베테랑	-16294
▁부사장	-16295
▁레오나르	-16296
▁서귀포시	-16297
▁안티오키아	-16298
17	-16299
▁갸	-16300
▁뿜	-16301
레븐	-16302
백색	-16303
파니	-16304
ove	-16305
▁누에	-16306
▁니트	-16307
▁무루	-16308
▁진위	-16309
▁최순	-16310
▁캔터	-16311
▁효성	-16312
▁시나노	-16313
▁콜라보	-16314
▁태양광	-16315
▁돼지고기	-16316
▁에두아르	-16317
▁베오그라드	-16318
남동	-16319
능력	-16320
득점	-16321
▁격화	-16322
▁사일	-16323
▁안락	-16324
▁황하	-16325
▁흉내	-16326
▁거듭나	-16327
▁블러드	-16328
▁신안군	-16329
▁이유로	-16330
경찰	-16331
락부	-16332
무실	-16333
enn	-16334
▁가령	-16335
▁고관	-16336
▁공훈	-16337
▁리라	-16338
▁생장	-16339
▁소마	-16340
▁주스	-16341
▁초판	-16342
▁친히	-16343
▁탄광	-16344
코비치	-16345
▁기네스	-16346
▁범어사	-16347
▁스태프	-16348
▁주세페	-16349
심원	-16350
차리	-16351
▁BB	-16352
▁BO	-16353
▁Cr	-16354
▁강구	-16355
▁박태	-16356
▁베아	-16357
▁불길	-16358
▁서곡	-16359
▁외가	-16360
▁조엘	-16361
▁카노	-16362
▁카불	-16363
▁파출	-16364
▁피시	-16365
▁합장	-16366
inal	-16367
▁고스트	-16368
▁다카시	-16369
▁두더지	-16370
▁리카르	-16371
▁페라리	-16372
▁게오르기	-16373
▁프레더릭	-16374
UM	-16375
▁씬	-16376
ors	-16377
▁개축	-16378
▁경산	-16379
▁고취	-16380
▁김장	-16381
▁대소	-16382
▁도보	-16383
▁레반	-16384
▁매튜	-16385
▁비방	-16386
▁사옥	-16387
▁수화	-16388
▁출항	-16389
스트림	-16390
▁GPS	-16391
▁강릉시	-16392
▁만주족	-16393
▁타일러	-16394
▁로베르트	-16395
▁개리	-16396
▁공지	-16397
▁도식	-16398
▁명장	-16399
▁연어	-16400
▁유감	-16401
▁천태	-16402
▁철근	-16403
▁출병	-16404
▁포메	-16405
▁효모	-16406
말라야	-16407
▁Res	-16408
▁김종직	-16409
▁압둘라	-16410
▁이치로	-16411
▁인문학	-16412
▁혈액형	-16413
TN	-16414
▁결투	-16415
▁깁슨	-16416
▁듀엣	-16417
▁라테	-16418
▁브이	-16419
▁야만	-16420
▁약수	-16421
▁틈타	-16422
▁하츠	-16423
▁흡입	-16424
▁Way	-16425
▁스트라	-16426
▁해수면	-16427
▁이리하여	-16428
금속	-16429
메랄	-16430
훈련	-16431
▁DA	-16432
▁공평	-16433
▁레르	-16434
▁봉헌	-16435
▁잔치	-16436
▁조너	-16437
▁폭주	-16438
▁한꺼	-16439
▁207	-16440
▁365	-16441
▁알레산	-16442
▁체육회	-16443
▁태극기	-16444
▁서대문구	-16445
▁선거인단	-16446
▁한꺼번에	-16447
갱이	-16448
덱스	-16449
▁교내	-16450
▁굳이	-16451
▁기형	-16452
▁미끄	-16453
▁베라	-16454
▁베컴	-16455
▁알마	-16456
▁운석	-16457
▁직각	-16458
▁춘향	-16459
▁키치	-16460
▁동북부	-16461
▁스펜서	-16462
▁아열대	-16463
▁이지스	-16464
▁Amer	-16465
광사	-16466
즈미	-16467
▁명중	-16468
▁미추	-16469
▁살레	-16470
▁양위	-16471
▁증류	-16472
▁천적	-16473
▁통킹	-16474
▁풋살	-16475
▁흑색	-16476
▁일제히	-16477
노스아이	-16478
▁1815	-16479
▁1820	-16480
▁아르바이트	-16481
노스아이레스	-16482
▁부에노스아이레스	-16483
▁둑	-16484
마니	-16485
시카	-16486
app	-16487
▁OK	-16488
▁결렬	-16489
▁도량	-16490
▁맞닿	-16491
▁박동	-16492
▁설과	-16493
▁신안	-16494
▁핼리	-16495
▁화교	-16496
스티안	-16497
이즈미	-16498
▁무정부	-16499
▁어드밴	-16500
▁지방도	-16501
▁페레스	-16502
▁프린터	-16503
▁히말라야	-16504
▁소크라테스	-16505
24	-16506
▁공보	-16507
▁그간	-16508
▁북송	-16509
▁사계	-16510
▁세도	-16511
▁습도	-16512
▁에든	-16513
▁청군	-16514
▁감마선	-16515
▁노무라	-16516
▁조합원	-16517
▁Cent	-16518
▁에든버러	-16519
FS	-16520
처럼	-16521
▁격침	-16522
▁결단	-16523
▁내역	-16524
▁비이	-16525
▁시성	-16526
▁인노	-16527
▁총수	-16528
▁퇴계	-16529
▁야행성	-16530
▁라이온스	-16531
▁리얼리티	-16532
▁레닌그라드	-16533
▁낸	-16534
가요	-16535
나비	-16536
오드	-16537
월드	-16538
ina	-16539
▁담장	-16540
▁모잠	-16541
▁변조	-16542
▁시편	-16543
▁전극	-16544
▁죄인	-16545
▁한라	-16546
▁호박	-16547
ange	-16548
▁국무부	-16549
▁농민군	-16550
▁사법부	-16551
▁오징어	-16552
▁전동기	-16553
▁함부로	-16554
▁모잠비크	-16555
현실	-16556
▁던전	-16557
▁만수	-16558
▁서역	-16559
▁술집	-16560
▁표어	-16561
▁해머	-16562
ater	-16563
▁ㄱㅜㄴ	-16564
▁시아파	-16565
▁제품군	-16566
▁후베이	-16567
로프로세서	-16568
▁System	-16569
▁마이크로프로세서	-16570
▁Dr	-16571
▁격상	-16572
▁김석	-16573
▁스틱	-16574
▁양분	-16575
▁월경	-16576
▁천리	-16577
▁필로	-16578
▁도나우	-16579
▁디나모	-16580
▁리그전	-16581
▁유명세	-16582
▁정몽주	-16583
▁지포스	-16584
▁트럼펫	-16585
▁마쓰모토	-16586
▁결실	-16587
▁굴욕	-16588
▁김은	-16589
▁담그	-16590
▁데니	-16591
▁로제	-16592
▁부이	-16593
▁에다	-16594
▁윈드	-16595
▁토하	-16596
▁트롤	-16597
레이즈	-16598
어들이	-16599
▁조병옥	-16600
▁알베르트	-16601
▁유럽연합	-16602
▁카롤루스	-16603
▁막시밀리안	-16604
니츠	-16605
▁SW	-16606
▁마취	-16607
▁세실	-16608
▁에인	-16609
▁재심	-16610
▁지반	-16611
▁트림	-16612
▁피쳐	-16613
▁허들	-16614
▁넘어지	-16615
▁아드리	-16616
▁모노이드	-16617
▁이오니아	-16618
▁알렉산드라	-16619
▁폼페이우스	-16620
za	-16621
▁앳	-16622
거루	-16623
▁결집	-16624
▁노총	-16625
▁당사	-16626
▁리서	-16627
▁마초	-16628
▁소켓	-16629
▁어인	-16630
▁위태	-16631
▁으뜸	-16632
▁조나	-16633
▁직류	-16634
▁쿠사	-16635
▁학도	-16636
▁유공자	-16637
▁전망대	-16638
▁총생산	-16639
▁1858	-16640
▁알아차리	-16641
▁오스트로	-16642
쓰네	-16643
▁"'	-16644
▁미완	-16645
▁본진	-16646
▁산마	-16647
▁성내	-16648
▁아토	-16649
▁융기	-16650
▁장론	-16651
▁장서	-16652
▁좌랑	-16653
▁코넬	-16654
▁모델링	-16655
▁혁명가	-16656
▁마그네슘	-16657
▁프로방스	-16658
ret	-16659
▁갑오	-16660
▁기주	-16661
▁달마	-16662
▁벅스	-16663
▁성찬	-16664
▁슐레	-16665
▁영위	-16666
▁옵티	-16667
▁이구	-16668
▁충고	-16669
▁탈리	-16670
▁특위	-16671
▁펜스	-16672
▁Mac	-16673
▁신익희	-16674
▁연습생	-16675
▁일진회	-16676
▁파블로	-16677
▁ㄴㅡㄹㅏ	-16678
▁고고학자	-16679
▁이성질체	-16680
▁챈	-16681
비츠	-16682
입자	-16683
▁'-	-16684
▁갈비	-16685
▁경구	-16686
▁녹말	-16687
▁배지	-16688
▁분담	-16689
▁하카	-16690
▁해내	-16691
▁가디언	-16692
▁민의원	-16693
▁조너선	-16694
▁필하모닉	-16695
▁class	-16696
▁폴리네시아	-16697
동리	-16698
러기	-16699
토바	-16700
ons	-16701
▁기욤	-16702
▁납품	-16703
▁본능	-16704
▁소정	-16705
▁에뮬	-16706
▁엠마	-16707
▁자막	-16708
▁창씨	-16709
▁테살	-16710
▁특혜	-16711
▁형광	-16712
▁날아오	-16713
▁도치기	-16714
▁제노바	-16715
▁중심핵	-16716
▁맞배지붕	-16717
가라	-16718
▁더빙	-16719
▁디펜	-16720
▁만연	-16721
▁사보	-16722
▁완산	-16723
▁장택	-16724
▁좌천	-16725
▁지뢰	-16726
▁합산	-16727
지먼트	-16728
ions	-16729
▁라이드	-16730
▁마에다	-16731
▁봉수대	-16732
▁지팡이	-16733
▁크레타	-16734
▁필리스	-16735
▁천연가스	-16736
▁매니지먼트	-16737
ley	-16738
▁의왕	-16739
▁이삭	-16740
▁이철	-16741
▁태상	-16742
▁토의	-16743
▁군산시	-16744
▁그리드	-16745
▁선데이	-16746
▁포인터	-16747
▁무궁화호	-16748
▁써	-16749
코인	-16750
▁낙태	-16751
▁농작	-16752
▁달래	-16753
▁상해	-16754
▁선서	-16755
▁소탕	-16756
▁육박	-16757
▁재주	-16758
▁종단	-16759
▁출루	-16760
▁Tra	-16761
▁노트북	-16762
▁목포시	-16763
▁분홍색	-16764
▁스와프	-16765
▁시게루	-16766
▁유성구	-16767
▁적절히	-16768
▁전철역	-16769
▁항소심	-16770
▁서프랑크	-16771
att	-16772
▁고택	-16773
▁광서	-16774
▁기민	-16775
▁동티	-16776
▁새해	-16777
▁수강	-16778
▁정공	-16779
▁진구	-16780
▁콘셉	-16781
▁토드	-16782
▁펠레	-16783
▁포섭	-16784
▁푸틴	-16785
▁Int	-16786
▁USA	-16787
▁넘어오	-16788
▁대학살	-16789
▁모터쇼	-16790
▁평의원	-16791
▁1814	-16792
라나	-16793
▁SG	-16794
▁급사	-16795
▁대정	-16796
▁도난	-16797
▁매질	-16798
▁모여	-16799
▁사악	-16800
▁수선	-16801
▁실태	-16802
▁아말	-16803
▁Not	-16804
▁ㄱㅔㅅ	-16805
▁안티고	-16806
▁트랜싯	-16807
▁동아프리카	-16808
ux	-16809
사랑	-16810
정제	-16811
▁견지	-16812
▁궁내	-16813
▁기교	-16814
▁남궁	-16815
▁니체	-16816
▁로타	-16817
▁마도	-16818
▁성제	-16819
▁안재	-16820
▁정현	-16821
▁테드	-16822
▁헬렌	-16823
▁쌍방울	-16824
▁평상시	-16825
▁type	-16826
▁귤	-16827
당류	-16828
촌동	-16829
컨드	-16830
테일	-16831
▁말소	-16832
▁문성	-16833
▁미자	-16834
▁벨벳	-16835
▁위배	-16836
▁정과	-16837
▁총살	-16838
▁모조리	-16839
▁비올라	-16840
▁직할시	-16841
▁1300	-16842
널목	-16843
실험	-16844
자유	-16845
토쿠	-16846
ART	-16847
▁귀하	-16848
▁덕수	-16849
▁독실	-16850
▁민가	-16851
▁음양	-16852
▁음역	-16853
▁핑계	-16854
▁헤지	-16855
▁흥덕	-16856
▁IEC	-16857
▁MHz	-16858
▁건너편	-16859
▁건널목	-16860
▁피드백	-16861
▁High	-16862
NT	-16863
거성	-16864
싸움	-16865
재단	-16866
▁Of	-16867
▁아약	-16868
▁이덕	-16869
▁전집	-16870
▁증직	-16871
▁키아	-16872
▁튀기	-16873
▁휴먼	-16874
▁겨울철	-16875
▁수도사	-16876
▁충주시	-16877
▁보호구역	-16878
▁산업단지	-16879
▁알베르토	-16880
▁클라이맥스	-16881
▁Google	-16882
BN	-16883
▁엎	-16884
기둥	-16885
림동	-16886
▁기근	-16887
▁마틸	-16888
▁소치	-16889
▁우도	-16890
▁콤비	-16891
▁퍼플	-16892
▁War	-16893
▁광화문	-16894
▁깨달음	-16895
▁마피아	-16896
▁미우라	-16897
▁밀어내	-16898
▁연구실	-16899
▁오나라	-16900
▁티무르	-16901
▁평택시	-16902
니코	-16903
랭크	-16904
마일	-16905
▁kW	-16906
▁바사	-16907
▁버거	-16908
▁부탄	-16909
▁석등	-16910
▁시차	-16911
▁신관	-16912
▁전액	-16913
▁퀘이	-16914
▁맞대결	-16915
▁성북구	-16916
▁세컨드	-16917
▁액티브	-16918
▁플래그	-16919
▁What	-16920
▁암모니아	-16921
데냐	-16922
민정	-16923
▁간지	-16924
▁견훤	-16925
▁고갈	-16926
▁미에	-16927
▁비호	-16928
▁윗면	-16929
▁유승	-16930
▁전란	-16931
▁제보	-16932
▁주상	-16933
▁캐럴	-16934
▁헤임	-16935
▁홍천	-16936
씨식물	-16937
▁WHO	-16938
▁니스트	-16939
▁막아내	-16940
▁패트리	-16941
▁프렌즈	-16942
▁그래미상	-16943
▁사르데냐	-16944
▁석가여래	-16945
ㄷㅡㄴㄱㅏ	-16946
▁고요	-16947
▁공해	-16948
▁군비	-16949
▁군집	-16950
▁라지	-16951
▁레미	-16952
▁목화	-16953
▁스팅	-16954
▁애쓰	-16955
▁증원	-16956
▁쿠리	-16957
▁진정하	-16958
▁한정판	-16959
살바도르	-16960
▁1795	-16961
▁부위원장	-16962
▁ᄇㄴㅣㄲㅏ	-16963
▁조선왕조실록	-16964
▁규장	-16965
▁바하	-16966
▁보카	-16967
▁열망	-16968
▁예일	-16969
▁완주	-16970
▁패퇴	-16971
▁페데	-16972
▁헨드	-16973
▁미시간	-16974
▁아약스	-16975
▁혁명군	-16976
▁플레이스	-16977
퍼트	-16978
회원	-16979
ger	-16980
▁FS	-16981
▁군락	-16982
▁도표	-16983
▁수의	-16984
▁스쿠	-16985
▁우대	-16986
▁지층	-16987
▁포진	-16988
정보부	-16989
▁290	-16990
▁LCK	-16991
▁국문학	-16992
▁라쿠텐	-16993
▁성명서	-16994
▁연금술	-16995
▁우승컵	-16996
▁익산시	-16997
▁통신부	-16998
▁플라자	-16999
▁다리우스	-17000
▁토스카나	-17001
▁밈	-17002
▁윔	-17003
베인	-17004
식스	-17005
전차	-17006
▁루지	-17007
▁리츠	-17008
▁발췌	-17009
▁보육	-17010
▁본초	-17011
▁애매	-17012
▁원생	-17013
▁초당	-17014
▁재빨리	-17015
구멍	-17016
alk	-17017
▁PH	-17018
▁멘토	-17019
▁스톨	-17020
▁암초	-17021
▁약학	-17022
▁에런	-17023
▁우사	-17024
▁춤추	-17025
▁패드	-17026
▁TBC	-17027
▁블루어	-17028
▁주교좌	-17029
▁커티스	-17030
▁With	-17031
▁디렉터리	-17032
▁샌드위치	-17033
▁크리스천	-17034
▁구석	-17035
▁도정	-17036
▁로동	-17037
▁로어	-17038
▁브람	-17039
▁아난	-17040
▁앨버	-17041
▁인대	-17042
▁잊히	-17043
▁정일	-17044
▁켈빈	-17045
▁프록	-17046
▁할양	-17047
▁허구	-17048
▁혼돈	-17049
지스터	-17050
▁MLB	-17051
▁관찰자	-17052
▁홉킨스	-17053
ye	-17054
▁렝	-17055
부미	-17056
▁RA	-17057
▁북상	-17058
▁얼터	-17059
▁총액	-17060
▁코지	-17061
▁Dis	-17062
▁로렌초	-17063
▁스레드	-17064
▁원정군	-17065
▁창덕궁	-17066
▁하모니	-17067
▁켓	-17068
고나	-17069
yle	-17070
▁모식	-17071
▁몬태	-17072
▁보훈	-17073
▁비욘	-17074
▁실크	-17075
▁아랑	-17076
▁아핀	-17077
▁열풍	-17078
▁포교	-17079
디우스	-17080
▁480	-17081
▁ㅇㅓㅇ	-17082
▁남조선	-17083
▁리포트	-17084
▁선언문	-17085
▁수마트라	-17086
▁ㅁㅕㄴㅇㅡㄴ	-17087
▁쥘	-17088
건적	-17089
라도	-17090
카라	-17091
▁부녀	-17092
▁아픔	-17093
▁알렌	-17094
▁에린	-17095
▁장준	-17096
▁함의	-17097
▁헬로	-17098
▁850	-17099
▁Art	-17100
▁남해군	-17101
▁대항해	-17102
▁스타즈	-17103
▁에히메	-17104
▁창업자	-17105
▁트루먼	-17106
▁헬싱키	-17107
의금부사	-17108
▁안드레이	-17109
▁프로이트	-17110
▁트랜지스터	-17111
▁괴뢰	-17112
▁당명	-17113
▁매춘	-17114
▁보궐	-17115
▁선회	-17116
▁세베	-17117
▁우이	-17118
▁웰스	-17119
▁종친	-17120
▁풍수	-17121
▁238	-17122
▁북반구	-17123
▁정확도	-17124
▁합천군	-17125
▁아틀레틱	-17126
▁그리스도인	-17127
스테	-17128
팽이	-17129
enc	-17130
▁급기	-17131
▁김세	-17132
▁니나	-17133
▁미숙	-17134
▁반야	-17135
▁숭실	-17136
▁천정	-17137
주니어	-17138
▁고조선	-17139
▁보행자	-17140
▁드레이크	-17141
▁관대	-17142
▁광택	-17143
▁데쓰	-17144
▁승전	-17145
▁영재	-17146
▁옥상	-17147
▁유원	-17148
▁장조	-17149
▁토비	-17150
▁평신	-17151
▁훈족	-17152
플레잉	-17153
▁ㄷㅔㄴ	-17154
▁개최지	-17155
▁충렬왕	-17156
▁페테르	-17157
▁프리킥	-17158
▁가나자와	-17159
▁롤플레잉	-17160
레프	-17161
▁논설	-17162
▁덩굴	-17163
▁랜덤	-17164
▁버시	-17165
▁연유	-17166
▁윈터	-17167
▁첨부	-17168
가하라	-17169
ough	-17170
▁빅토리	-17171
▁요시아키	-17172
▁COVID	-17173
▁Di	-17174
▁각광	-17175
▁구토	-17176
▁기악	-17177
▁머피	-17178
▁비어	-17179
▁직권	-17180
▁팀장	-17181
▁남반구	-17182
▁보호관	-17183
▁안데르	-17184
▁지방관	-17185
▁Blue	-17186
UI	-17187
렁이	-17188
▁경이	-17189
▁교주	-17190
▁노화	-17191
▁더럽	-17192
▁민권	-17193
▁박승	-17194
▁웅진	-17195
▁장항	-17196
▁정여	-17197
네소스	-17198
▁공직자	-17199
▁수번뇌	-17200
▁타블로	-17201
▁포스코	-17202
▁1793	-17203
▁ㄷㅡㄹㅏ	-17204
▁카테고리	-17205
▁그리스도교	-17206
▁키르기스스탄	-17207
던스	-17208
천국	-17209
▁골수	-17210
▁국지	-17211
▁굶주	-17212
▁보츠	-17213
▁불평	-17214
▁서강	-17215
▁소도	-17216
▁효용	-17217
다람쥐	-17218
▁Rev	-17219
▁바로잡	-17220
▁사이공	-17221
▁산체스	-17222
▁스타인	-17223
▁이완용	-17224
▁취약점	-17225
▁크라스	-17226
▁1846	-17227
▁MPEG	-17228
▁사탕수수	-17229
▁이베리아	-17230
메트	-17231
블린	-17232
적분	-17233
que	-17234
▁ㄲㅗ	-17235
▁구룡	-17236
▁대뇌	-17237
▁데메	-17238
▁리저	-17239
▁묘법	-17240
▁쇠약	-17241
▁수렵	-17242
▁신구	-17243
▁올랭	-17244
▁율령	-17245
▁이트	-17246
▁정병	-17247
▁차분	-17248
▁천구	-17249
▁공기업	-17250
▁노르트	-17251
▁문하시	-17252
▁보라색	-17253
▁아산시	-17254
▁아칸소	-17255
▁페인트	-17256
▁물리학상	-17257
▁브루나이	-17258
26	-17259
▁뱌	-17260
ING	-17261
OVE	-17262
▁ED	-17263
▁괴멸	-17264
▁구자	-17265
▁멜론	-17266
▁미코	-17267
▁서보	-17268
▁설사	-17269
▁용접	-17270
▁쿠릴	-17271
▁하순	-17272
연화경	-17273
웨스트	-17274
▁돌아서	-17275
▁등록금	-17276
▁유격대	-17277
▁학생회	-17278
▁1839	-17279
▁에드먼드	-17280
▁자유민주	-17281
▁중앙정보부	-17282
ump	-17283
▁갤러	-17284
▁국과	-17285
▁남포	-17286
▁니콘	-17287
▁당분	-17288
▁맛있	-17289
▁역모	-17290
▁오호	-17291
▁와해	-17292
▁월북	-17293
▁직함	-17294
▁페터	-17295
▁학급	-17296
▁농작물	-17297
▁손바닥	-17298
▁엉덩이	-17299
▁추밀원	-17300
▁time	-17301
▁하시모토	-17302
뉴스	-17303
르모	-17304
전쟁	-17305
파스	-17306
▁'.	-17307
▁간디	-17308
▁과부	-17309
▁만기	-17310
▁무당	-17311
▁이효	-17312
▁퇴단	-17313
비우스	-17314
슬라브	-17315
시우스	-17316
▁배수량	-17317
▁시어터	-17318
▁여객선	-17319
▁중서부	-17320
▁1854	-17321
▁히로부미	-17322
▁시즈오카현	-17323
▁아오모리현	-17324
나물	-17325
바람	-17326
▁NX	-17327
▁ㄱㅓ	-17328
▁공덕	-17329
▁교묘	-17330
▁산불	-17331
▁삼키	-17332
▁순정	-17333
▁이국	-17334
▁국무원	-17335
▁아테나	-17336
▁에밀리	-17337
▁테트라	-17338
▁아나키즘	-17339
IO	-17340
▁꼼	-17341
▁훅	-17342
고트	-17343
운전	-17344
질량	-17345
▁MT	-17346
▁감탄	-17347
▁갑각	-17348
▁낙타	-17349
▁독소	-17350
▁몸집	-17351
▁유시	-17352
▁존상	-17353
▁펀치	-17354
▁표결	-17355
▁해자	-17356
▁휘트	-17357
▁베드로	-17358
▁아쿠아	-17359
▁전기장	-17360
▁촘	-17361
래시	-17362
der	-17363
▁Vf	-17364
▁걸맞	-17365
▁게일	-17366
▁군국	-17367
▁도색	-17368
▁망루	-17369
▁미묘	-17370
▁본당	-17371
▁부윤	-17372
▁심근	-17373
▁심플	-17374
▁엄정	-17375
▁정강	-17376
▁총체	-17377
▁추위	-17378
▁학창	-17379
▁737	-17380
▁대머리	-17381
▁외무성	-17382
▁체스터	-17383
▁트리니다드	-17384
▁중앙아프리카	-17385
모자	-17386
▁경멸	-17387
▁윤원	-17388
▁클루	-17389
▁현충	-17390
티우스	-17391
▁214	-17392
▁가시마	-17393
▁가입자	-17394
▁버나드	-17395
▁상대론	-17396
▁수증기	-17397
▁알레르	-17398
▁기념사업	-17399
▁언어학자	-17400
▁초등학생	-17401
대성	-17402
재란	-17403
후이	-17404
▁바일	-17405
▁범용	-17406
▁분양	-17407
▁세탁	-17408
▁아민	-17409
▁억류	-17410
▁베일리	-17411
▁분류학	-17412
▁산둥성	-17413
▁이브라	-17414
▁파트리	-17415
▁팩토리	-17416
총리대신	-17417
▁기독교인	-17418
▁어드밴스	-17419
▁자연주의	-17420
▁정유재란	-17421
▁세키가하라	-17422
▁내각총리대신	-17423
▁뚱	-17424
패스	-17425
▁구인	-17426
▁방조	-17427
▁손책	-17428
▁솔트	-17429
▁여과	-17430
▁인신	-17431
▁필기	-17432
▁환기	-17433
▁COM	-17434
▁기부금	-17435
▁윤리학	-17436
▁조계종	-17437
▁최하위	-17438
▁평화상	-17439
▁하카타	-17440
▁후임자	-17441
스트리트	-17442
▁비지니스	-17443
▁여주인공	-17444
▁등대	-17445
▁마한	-17446
▁야로	-17447
▁이형	-17448
▁인출	-17449
▁잠들	-17450
▁칼레	-17451
▁Min	-17452
▁메이트	-17453
▁안중근	-17454
▁키워드	-17455
▁황태후	-17456
▁개전	-17457
▁내구	-17458
▁박준	-17459
▁브론	-17460
▁상작	-17461
▁이부	-17462
▁제식	-17463
▁참배	-17464
▁코레	-17465
▁페드	-17466
학생회	-17467
▁LCD	-17468
▁교토부	-17469
▁낙하산	-17470
▁비행대	-17471
▁갈릴레이	-17472
▁비트코인	-17473
우어	-17474
▁ME	-17475
▁ㅇㅠ	-17476
▁고압	-17477
▁디온	-17478
▁라몬	-17479
▁루머	-17480
▁매번	-17481
▁박기	-17482
▁비크	-17483
▁상투	-17484
▁석상	-17485
▁오닐	-17486
▁오딘	-17487
▁유폐	-17488
▁찬탈	-17489
▁치중	-17490
▁특례	-17491
▁팬아	-17492
▁페가	-17493
▁후시	-17494
독립당	-17495
▁ㄴㄱㅏ	-17496
▁경비대	-17497
▁돗토리	-17498
▁보나파	-17499
▁북극해	-17500
▁증명서	-17501
▁초대칭	-17502
▁파출소	-17503
▁1849	-17504
▁공화주의	-17505
▁미성년자	-17506
▁오브젝트	-17507
▁총학생회	-17508
▁ㅁㅏㄴㅡㄴ	-17509
▁보나파르트	-17510
▁한국독립당	-17511
28	-17512
▁돛	-17513
▁퓌	-17514
탐정	-17515
▁간염	-17516
▁베버	-17517
▁북해	-17518
▁새턴	-17519
▁수표	-17520
▁이견	-17521
▁종주	-17522
▁파드	-17523
▁하디	-17524
캐스트	-17525
프랑스	-17526
▁넥스트	-17527
▁데포르	-17528
▁델라웨어	-17529
▁플로이드	-17530
▁넉	-17531
▁견습	-17532
▁교포	-17533
▁낙랑	-17534
▁내수	-17535
▁매월	-17536
▁바덴	-17537
▁시경	-17538
▁시주	-17539
▁웅장	-17540
▁존엄	-17541
▁화북	-17542
▁가파르	-17543
▁구청장	-17544
▁나가노	-17545
▁시공간	-17546
▁지난해	-17547
▁1856	-17548
▁Beat	-17549
▁네덜란드어	-17550
HD	-17551
사회	-17552
정권	-17553
호프	-17554
▁계투	-17555
▁광경	-17556
▁귀양	-17557
▁깜짝	-17558
▁남로	-17559
▁미모	-17560
▁분장	-17561
▁수류	-17562
▁신작	-17563
▁어이	-17564
▁오기	-17565
▁우동	-17566
▁웨일	-17567
▁육아	-17568
▁인피	-17569
▁장령	-17570
▁철원	-17571
▁태세	-17572
직할시	-17573
코스트	-17574
쿠스틱	-17575
▁변속기	-17576
▁식물원	-17577
▁에리크	-17578
베이거스	-17579
▁어쿠스틱	-17580
누아	-17581
▁분쇄	-17582
▁소란	-17583
▁이안	-17584
▁적재	-17585
atch	-17586
▁장택상	-17587
▁절대로	-17588
▁포위전	-17589
▁하이든	-17590
▁1851	-17591
▁크레이그	-17592
▁하이웨이	-17593
▁라스베이거스	-17594
23	-17595
▁깡	-17596
▁줌	-17597
담회	-17598
오린	-17599
케스	-17600
호르	-17601
▁만국	-17602
▁밀스	-17603
▁변방	-17604
▁본디	-17605
▁사죄	-17606
▁사흘	-17607
▁소홀	-17608
▁씨름	-17609
▁요아	-17610
▁해일	-17611
▁헤엄	-17612
타니아	-17613
▁430	-17614
▁감염자	-17615
▁스탠퍼드	-17616
▁페더레이션	-17617
OU	-17618
체어	-17619
▁낙엽	-17620
▁모기	-17621
▁민생	-17622
▁배설	-17623
▁비참	-17624
▁실로	-17625
▁연임	-17626
▁예속	-17627
▁유장	-17628
▁윤영	-17629
▁촌은	-17630
▁419	-17631
▁갖가지	-17632
▁건국대	-17633
▁교직원	-17634
▁디스코	-17635
▁레인보	-17636
▁입출력	-17637
▁해럴드	-17638
▁마음대로	-17639
▁사보이아	-17640
▁상파울루	-17641
▁이해관계	-17642
▁차량기지	-17643
▁PP	-17644
▁도독	-17645
▁셔먼	-17646
▁수배	-17647
▁효능	-17648
▁후백	-17649
▁벤피카	-17650
▁보르도	-17651
▁참모장	-17652
▁스티븐스	-17653
▁캐나다인	-17654
▁캔자스시티	-17655
86	-17656
▁럴	-17657
처리	-17658
▁김문	-17659
▁단사	-17660
▁라티	-17661
▁볼륨	-17662
▁상체	-17663
▁서천	-17664
▁수서	-17665
▁원성	-17666
▁주경	-17667
▁추궁	-17668
▁FBI	-17669
▁Top	-17670
▁다이나	-17671
▁어리석	-17672
▁진보당	-17673
▁찬드라	-17674
▁캥거루	-17675
▁하동군	-17676
▁1855	-17677
▁1857	-17678
▁블레이드	-17679
▁소용돌이	-17680
▁오하이오주	-17681
개혁	-17682
하늘	-17683
▁계란	-17684
▁대세	-17685
▁메사	-17686
▁보문	-17687
▁생가	-17688
▁쇼팽	-17689
▁알비	-17690
▁톨킨	-17691
▁현령	-17692
▁상속인	-17693
▁시부야	-17694
▁애벌레	-17695
▁핵폭탄	-17696
▁크리에이티브	-17697
산읍	-17698
섬유	-17699
▁간장	-17700
▁경색	-17701
▁적성	-17702
▁한서	-17703
▁서북쪽	-17704
▁수산물	-17705
▁휠체어	-17706
▁노동자당	-17707
봉사	-17708
하르	-17709
▁결탁	-17710
▁단성	-17711
▁담론	-17712
▁반려	-17713
▁벽면	-17714
▁서상	-17715
▁수훈	-17716
▁정시	-17717
▁착안	-17718
▁카잔	-17719
트로피	-17720
cess	-17721
icro	-17722
▁공사관	-17723
▁글리코	-17724
▁기념식	-17725
▁시흥시	-17726
▁아가씨	-17727
▁오비탈	-17728
▁작사가	-17729
▁폴란드인	-17730
▁여러해살이풀	-17731
▁뺏	-17732
▁좡	-17733
▁힉	-17734
버거	-17735
ery	-17736
▁봉작	-17737
▁아모	-17738
▁엠블	-17739
▁여생	-17740
▁외동	-17741
▁캔디	-17742
고양이	-17743
콥스키	-17744
▁301	-17745
▁Med	-17746
▁구미시	-17747
▁노스케	-17748
▁테이크	-17749
▁포천시	-17750
▁갑신정변	-17751
▁다이스케	-17752
▁정사각형	-17753
▁프란시스	-17754
BT	-17755
깨비	-17756
댄스	-17757
카테	-17758
▁단호	-17759
▁분개	-17760
▁압송	-17761
▁제학	-17762
▁체첸	-17763
▁치수	-17764
▁페티	-17765
▁베르디	-17766
▁봉사자	-17767
▁시우바	-17768
▁지평선	-17769
▁투데이	-17770
▁포브스	-17771
츠부르크	-17772
▁이와테현	-17773
▁데포르티보	-17774
▁민족주의자	-17775
▁병마절도사	-17776
서구	-17777
일라	-17778
재기	-17779
천년	-17780
▁YM	-17781
▁대광	-17782
▁신영	-17783
▁심슨	-17784
▁정년	-17785
▁주치	-17786
▁핵산	-17787
▁211	-17788
▁223	-17789
▁대주주	-17790
▁상세히	-17791
▁수수료	-17792
▁올라서	-17793
▁일간지	-17794
▁펠로폰	-17795
ㅇㅣㄷㅏ	-17796
메니스탄	-17797
▁반공주의	-17798
▁펠로폰네소스	-17799
▁투르크메니스탄	-17800
전기	-17801
▁TG	-17802
▁국면	-17803
▁롤리	-17804
▁명주	-17805
▁버퍼	-17806
▁셀룰	-17807
▁악역	-17808
▁유품	-17809
▁임베	-17810
▁팔자	-17811
▁해금	-17812
▁동의어	-17813
▁은하단	-17814
▁저작물	-17815
▁임베디드	-17816
레토	-17817
테른	-17818
▁CL	-17819
▁거액	-17820
▁랜디	-17821
▁조력	-17822
▁지소	-17823
▁크세	-17824
▁탄원	-17825
▁택지	-17826
▁포구	-17827
▁NAD	-17828
▁Pop	-17829
▁나주시	-17830
▁비엔나	-17831
▁집어넣	-17832
▁헤이스	-17833
니엄	-17834
증권	-17835
흐트	-17836
▁반열	-17837
▁성간	-17838
▁성채	-17839
▁소망	-17840
▁수스	-17841
▁실습	-17842
▁역습	-17843
▁외벽	-17844
▁욕설	-17845
▁이학	-17846
▁쟁점	-17847
▁친절	-17848
▁폰트	-17849
▁현명	-17850
▁화전	-17851
▁히나	-17852
▁그로스	-17853
▁카운터	-17854
▁Free	-17855
▁Will	-17856
쇼프	-17857
ont	-17858
▁IA	-17859
▁권세	-17860
▁노회	-17861
▁만리	-17862
▁무왕	-17863
▁박격	-17864
▁벚꽃	-17865
▁슈바	-17866
▁원제	-17867
▁음경	-17868
▁인테	-17869
▁지병	-17870
▁카렐	-17871
▁대각선	-17872
▁모자라	-17873
▁1776	-17874
▁서아시아	-17875
▁ㄹㅕㄷㅏㄱㅏ	-17876
로아	-17877
day	-17878
▁돌핀	-17879
▁변장	-17880
▁빌미	-17881
▁열반	-17882
▁현청	-17883
▁늘어지	-17884
▁보니파	-17885
▁컨디션	-17886
▁행정관	-17887
▁서스펜션	-17888
니크	-17889
▁고증	-17890
▁대적	-17891
▁요네	-17892
▁율곡	-17893
▁읽히	-17894
▁조식	-17895
▁친목	-17896
▁템포	-17897
▁파격	-17898
▁루터교	-17899
▁마그마	-17900
▁배트맨	-17901
▁수송기	-17902
▁제이스	-17903
타고라스	-17904
▁무라카미	-17905
▁사카모토	-17906
▁플루오린	-17907
광선	-17908
소득	-17909
스탕	-17910
왕국	-17911
지대	-17912
▁CT	-17913
▁대흥	-17914
▁코민	-17915
▁퇴사	-17916
▁한참	-17917
노벨라	-17918
루리아	-17919
시오날	-17920
▁레너드	-17921
▁모여들	-17922
▁바이스	-17923
▁변증법	-17924
▁하이델	-17925
▁형무소	-17926
▁나시오날	-17927
▁미주리주	-17928
▁엔트로피	-17929
▁그레고리력	-17930
▁텔레노벨라	-17931
27	-17932
바꿈	-17933
▁간파	-17934
▁급습	-17935
▁방한	-17936
▁선하	-17937
▁윤선	-17938
▁장구	-17939
▁타오	-17940
▁다면체	-17941
▁병원체	-17942
▁아세트	-17943
▁오카다	-17944
▁웨이트	-17945
▁이범석	-17946
▁핵실험	-17947
▁올랭피크	-17948
▁태평천국	-17949
볼트	-17950
투안	-17951
하스	-17952
▁골목	-17953
▁금광	-17954
▁까다	-17955
▁뇌졸	-17956
▁문교	-17957
▁미안	-17958
▁부총	-17959
▁서던	-17960
▁알론	-17961
▁언약	-17962
▁중첩	-17963
▁회부	-17964
▁XML	-17965
▁가속기	-17966
▁달라이	-17967
▁클라라	-17968
▁캄파니아주	-17969
가야	-17970
연대	-17971
▁개요	-17972
▁발송	-17973
▁센스	-17974
▁오도	-17975
▁항모	-17976
▁현생	-17977
리어스	-17978
▁독립국	-17979
▁뽑아내	-17980
▁스나이	-17981
▁통합진보당	-17982
ma	-17983
모습	-17984
▁MW	-17985
▁누각	-17986
▁땅콩	-17987
▁살림	-17988
▁상시	-17989
▁성추	-17990
▁액수	-17991
▁잠복	-17992
▁타현	-17993
▁한도	-17994
레시브	-17995
▁거제시	-17996
▁동북쪽	-17997
▁심포니	-17998
▁영산회	-17999
▁청구인	-18000
▁출생지	-18001
▁가까스로	-18002
▁국민회의	-18003
▁10000	-18004
▁프로그레시브	-18005
29	-18006
고도	-18007
를린	-18008
마타	-18009
▁Po	-18010
▁ne	-18011
▁괴팅	-18012
▁김한	-18013
▁버즈	-18014
▁양손	-18015
▁윤석	-18016
▁진안	-18017
▁찬스	-18018
▁퇴화	-18019
▁하쿠	-18020
▁호가	-18021
중국해	-18022
▁베르그	-18023
▁청교도	-18024
▁타고나	-18025
버드	-18026
▁간소	-18027
▁누락	-18028
▁로젠	-18029
▁마고	-18030
▁산탄	-18031
▁셰이	-18032
▁시왕	-18033
▁연좌	-18034
▁이로	-18035
▁히다	-18036
▁del	-18037
▁김종필	-18038
▁마인드	-18039
▁새천년	-18040
▁영등포	-18041
▁황도대	-18042
▁조기어류	-18043
▁피에트로	-18044
▁레오나르도	-18045
연료	-18046
▁가메	-18047
▁교복	-18048
▁국채	-18049
▁듯이	-18050
▁로로	-18051
▁명지	-18052
▁미망	-18053
▁미움	-18054
▁사극	-18055
▁심신	-18056
▁역행	-18057
▁와트	-18058
▁장타	-18059
▁최경	-18060
▁합체	-18061
들랜드	-18062
▁Bro	-18063
▁굳어지	-18064
▁사모아	-18065
▁서기장	-18066
▁어지럽	-18067
▁묘법연화경	-18068
저민	-18069
활성	-18070
its	-18071
▁각별	-18072
▁과업	-18073
▁기물	-18074
▁대열	-18075
▁몬트	-18076
▁사성	-18077
▁수잔	-18078
▁입안	-18079
▁질리	-18080
▁총알	-18081
▁혹독	-18082
▁홀드	-18083
irst	-18084
▁메이플	-18085
▁벤저민	-18086
▁샘플링	-18087
▁네브래스카	-18088
슐린	-18089
쿠젠	-18090
페리	-18091
평가	-18092
aut	-18093
▁로미	-18094
▁본기	-18095
▁습성	-18096
▁에나	-18097
▁이연	-18098
▁직제	-18099
▁케니	-18100
▁화신	-18101
궐선거	-18102
▁가로막	-18103
▁논산시	-18104
▁모티프	-18105
▁크리켓	-18106
▁원내대표	-18107
▁재보궐선거	-18108
급시	-18109
미치	-18110
▁BR	-18111
▁CV	-18112
▁감명	-18113
▁공녀	-18114
▁발주	-18115
▁비비	-18116
▁음란	-18117
▁재원	-18118
▁청화	-18119
▁콘월	-18120
▁파사	-18121
▁포에	-18122
▁Big	-18123
▁End	-18124
▁단기간	-18125
▁베리아	-18126
▁서남쪽	-18127
▁팰리스	-18128
ㅔㄴ	-18129
개발	-18130
▁ER	-18131
▁나나	-18132
▁노미	-18133
▁독감	-18134
▁마마	-18135
▁밑면	-18136
▁반일	-18137
▁배영	-18138
▁신명	-18139
▁요세	-18140
▁우문	-18141
▁정철	-18142
▁주둥	-18143
▁포탈	-18144
▁퓨전	-18145
▁215	-18146
▁ㄴㅗㄹㅏ	-18147
▁ㅇㅣㅇㅑ	-18148
▁미시간주	-18149
▁스포르팅	-18150
▁캔터베리	-18151
▁코미디언	-18152
▁begin	-18153
▁DL	-18154
▁경치	-18155
▁대양	-18156
▁로자	-18157
▁린드	-18158
▁세브	-18159
▁시로	-18160
▁언젠	-18161
▁원가	-18162
▁이공	-18163
▁장보	-18164
▁지단	-18165
▁천명	-18166
메데스	-18167
▁리서치	-18168
▁치우치	-18169
빼미	-18170
연의	-18171
▁노먼	-18172
▁레베	-18173
▁브롱	-18174
▁위드	-18175
▁유즈	-18176
▁준위	-18177
메네스	-18178
▁DFB	-18179
▁빠뜨리	-18180
▁언젠가	-18181
▁엑스선	-18182
▁프리랜	-18183
▁해설자	-18184
▁포레스트	-18185
▁언더그라운드	-18186
BL	-18187
니발	-18188
▁개간	-18189
▁다의	-18190
▁라비	-18191
▁생사	-18192
▁우메	-18193
▁원화	-18194
더니즘	-18195
▁239	-18196
▁레이어	-18197
▁문화사	-18198
▁비정규	-18199
▁특공대	-18200
▁포위망	-18201
ㅍㅣ	-18202
▁미팅	-18203
▁방수	-18204
▁서킷	-18205
▁어필	-18206
▁연천	-18207
▁위아	-18208
▁징후	-18209
▁체임	-18210
▁쿠키	-18211
▁틈새	-18212
▁픽업	-18213
▁510	-18214
▁기장군	-18215
▁살아나	-18216
▁유니온	-18217
ㅅㅣㅍㅣ	-18218
▁ㄷㅏㅅㅣㅍㅣ	-18219
HS	-18220
▁젬	-18221
가키	-18222
계리	-18223
코바	-18224
aff	-18225
▁HK	-18226
▁KC	-18227
▁SI	-18228
▁WH	-18229
▁낭독	-18230
▁루아	-18231
▁열광	-18232
▁전갈	-18233
▁종택	-18234
▁질레	-18235
▁창안	-18236
▁코다	-18237
▁평년	-18238
▁픽션	-18239
▁구석기	-18240
▁에인절	-18241
▁특이점	-18242
▁1792	-18243
▁프라이스	-18244
보스	-18245
▁가인	-18246
▁국고	-18247
▁니즘	-18248
▁듀크	-18249
▁서드	-18250
▁실드	-18251
▁아그	-18252
▁위니	-18253
▁조참	-18254
▁칸타	-18255
▁한방	-18256
▁황보	-18257
파트라	-18258
▁BMW	-18259
▁권력자	-18260
▁급기야	-18261
▁목걸이	-18262
▁월리스	-18263
▁전년도	-18264
▁소선거구	-18265
▁아틀라스	-18266
▁자동변속기	-18267
▁클레오파트라	-18268
br	-18269
▁까치	-18270
▁녀석	-18271
▁덧셈	-18272
▁도기	-18273
▁몰입	-18274
▁부원	-18275
▁살상	-18276
▁시료	-18277
▁시암	-18278
▁안상	-18279
▁영아	-18280
▁접착	-18281
▁정파	-18282
▁촌락	-18283
▁포즈	-18284
▁set	-18285
▁계약서	-18286
▁까다롭	-18287
▁부활절	-18288
▁브람스	-18289
▁사생아	-18290
▁void	-18291
▁ㅇㅣㄹㅜ	-18292
oss	-18293
▁내쫓	-18294
▁덤불	-18295
▁루소	-18296
▁메콩	-18297
▁명절	-18298
▁비슈	-18299
▁우랄	-18300
▁정약	-18301
▁제향	-18302
▁추석	-18303
▁패주	-18304
▁표상	-18305
▁함안	-18306
▁향리	-18307
▁Des	-18308
▁게이츠	-18309
▁과선교	-18310
▁서로마	-18311
▁Rain	-18312
▁프로토타입	-18313
▁랏	-18314
루이	-18315
삼문	-18316
지않	-18317
▁RE	-18318
▁경수	-18319
▁매드	-18320
▁바크	-18321
▁버락	-18322
▁세관	-18323
▁예천	-18324
▁유실	-18325
▁호엔	-18326
▁계약금	-18327
▁목격자	-18328
▁사중주	-18329
▁성추행	-18330
▁수메르	-18331
▁표준어	-18332
▁1853	-18333
▁알레르기	-18334
ㄷㅡㄴㅈㅣ	-18335
버섯	-18336
▁ㄴㅜ	-18337
▁감히	-18338
▁난간	-18339
▁동복	-18340
▁마자	-18341
▁상피	-18342
▁시구	-18343
▁시동	-18344
▁양력	-18345
▁영연	-18346
▁오쓰	-18347
▁최북	-18348
너티브	-18349
덜랜드	-18350
▁ㅇㅜㅁ	-18351
▁다다르	-18352
▁미술가	-18353
▁부제학	-18354
▁외삼촌	-18355
▁파이브	-18356
▁동대문구	-18357
▁클라리넷	-18358
▁얼터너티브	-18359
▁엘살바도르	-18360
▁JP	-18361
▁do	-18362
▁가평	-18363
▁그려	-18364
▁금화	-18365
▁다라	-18366
▁도고	-18367
▁박중	-18368
▁산토	-18369
▁성년	-18370
▁아속	-18371
▁티르	-18372
▁ㅇㅏㄴ	-18373
▁게이머	-18374
▁경기력	-18375
▁레일리	-18376
▁브레인	-18377
▁시설물	-18378
▁퍼뜨리	-18379
▁Show	-18380
▁모하메드	-18381
▁슈퍼주니어	-18382
막염	-18383
이인	-18384
행사	-18385
▁구급	-18386
▁모후	-18387
▁스커	-18388
▁으로	-18389
▁입적	-18390
▁자락	-18391
▁정량	-18392
▁청탁	-18393
▁탄환	-18394
▁튀르	-18395
▁홍백	-18396
▁꽃받침	-18397
▁무안군	-18398
▁무인역	-18399
▁미카사	-18400
▁퍼펙트	-18401
▁프레디	-18402
▁프로파	-18403
▁후반부	-18404
▁1791	-18405
▁1852	-18406
▁ㅅㅗㅅㅓ	-18407
▁권위주의	-18408
▁사다하루	-18409
▁속씨식물	-18410
▁크래프트	-18411
▁퓰	-18412
그림	-18413
서면	-18414
▁독신	-18415
▁밥상	-18416
▁방과	-18417
▁비츠	-18418
▁상권	-18419
▁시판	-18420
▁실화	-18421
▁아쓰	-18422
▁일람	-18423
▁절멸	-18424
▁조승	-18425
▁최치	-18426
핵생물	-18427
▁TOP	-18428
▁버밍엄	-18429
▁보호자	-18430
▁아르카	-18431
▁요리사	-18432
▁중생대	-18433
▁도네츠크	-18434
경궁	-18435
노동	-18436
바타	-18437
vis	-18438
▁교우	-18439
▁수전	-18440
▁오에	-18441
▁잠그	-18442
▁카쿠	-18443
▁캄포	-18444
▁커트	-18445
▁회중	-18446
▁따돌리	-18447
▁성동구	-18448
▁지도력	-18449
▁호위함	-18450
▁LIVE	-18451
▁인테리어	-18452
▁옅	-18453
얼빈	-18454
타라	-18455
IDS	-18456
oup	-18457
▁갑판	-18458
▁노던	-18459
▁도금	-18460
▁메트	-18461
▁부름	-18462
▁북제	-18463
▁비고	-18464
▁사구	-18465
▁셰프	-18466
▁숙성	-18467
▁약정	-18468
▁욕심	-18469
▁제반	-18470
▁후신	-18471
제르맹	-18472
▁끊어지	-18473
▁레프트	-18474
▁점성가	-18475
ement	-18476
▁Mnet	-18477
▁플레이트	-18478
be	-18479
하워	-18480
▁FN	-18481
▁관서	-18482
▁귀납	-18483
▁근연	-18484
▁래스	-18485
▁만다	-18486
▁박인	-18487
▁수첩	-18488
▁식료	-18489
▁실황	-18490
▁에타	-18491
▁연작	-18492
▁장영	-18493
▁제법	-18494
▁착오	-18495
▁플뢰	-18496
▁212	-18497
▁233	-18498
▁그려지	-18499
▁양서류	-18500
▁재정난	-18501
▁벌어들이	-18502
▁퍼레이드	-18503
▁아이젠하워	-18504
▁테러리스트	-18505
▁잣	-18506
팔렌	-18507
▁구보	-18508
▁능통	-18509
▁불황	-18510
▁색인	-18511
▁성하	-18512
▁신재	-18513
▁우쓰	-18514
▁케스	-18515
▁해동	-18516
즐랜드	-18517
▁동인도	-18518
▁분화구	-18519
▁에르난	-18520
▁잎자루	-18521
▁다운타운	-18522
▁빽	-18523
▁찻	-18524
노헤	-18525
티드	-18526
▁EN	-18527
▁FX	-18528
▁국물	-18529
▁대검	-18530
▁영세	-18531
▁장터	-18532
▁히브	-18533
▁ㄴㄷㅐ	-18534
▁검사장	-18535
▁유목민	-18536
▁음악회	-18537
▁정말로	-18538
▁황갈색	-18539
▁1847	-18540
▁Like	-18541
▁도쿠시마	-18542
▁생제르맹	-18543
▁퀸즐랜드	-18544
▁필리포스	-18545
▁히로시마현	-18546
▁뚝	-18547
▁강물	-18548
▁벨레	-18549
▁서하	-18550
▁수온	-18551
▁여태	-18552
▁원망	-18553
▁차가	-18554
▁친숙	-18555
▁팔각	-18556
▁호치	-18557
▁희박	-18558
▁개찰기	-18559
▁게이초	-18560
▁세례명	-18561
▁앵글로	-18562
▁조나단	-18563
▁지원자	-18564
▁LOVE	-18565
▁루키우스	-18566
▁뱀파이어	-18567
개명	-18568
에어	-18569
하트	-18570
▁EF	-18571
▁고타	-18572
▁귀향	-18573
▁독려	-18574
▁라벤	-18575
▁매너	-18576
▁수찬	-18577
▁슬럼	-18578
▁신숙	-18579
▁쑨원	-18580
▁예견	-18581
▁완투	-18582
▁요트	-18583
▁월급	-18584
▁윤상	-18585
▁은둔	-18586
▁이족	-18587
▁청진	-18588
▁상류층	-18589
▁이스턴	-18590
▁재판장	-18591
▁중학생	-18592
▁현악기	-18593
▁경향신문	-18594
▁천주교회	-18595
▁롬바르디아	-18596
▁콘스탄티노플	-18597
▁고작	-18598
▁김호	-18599
▁망상	-18600
▁보두	-18601
▁수뇌	-18602
▁출소	-18603
▁김포시	-18604
▁릴리스	-18605
▁옹진군	-18606
▁이베이	-18607
▁저술가	-18608
▁최적화	-18609
▁퀘스트	-18610
▁레인보우	-18611
▁시트르산	-18612
▁옥타비아	-18613
▁프리랜서	-18614
▁OC	-18615
▁mg	-18616
▁가봉	-18617
▁경감	-18618
▁계파	-18619
▁과천	-18620
▁기노	-18621
▁마로	-18622
▁밀턴	-18623
▁버블	-18624
▁섬멸	-18625
▁세가	-18626
▁안젤	-18627
▁야채	-18628
▁여야	-18629
▁영해	-18630
▁음색	-18631
▁이계	-18632
▁제각	-18633
▁쿠페	-18634
▁포리	-18635
▁호감	-18636
하이머	-18637
▁관악구	-18638
▁다각형	-18639
▁올빼미	-18640
▁인슐린	-18641
▁핵연료	-18642
▁옵티머스	-18643
▁은행나무	-18644
▁버지니아주	-18645
▁즌	-18646
방식	-18647
오세	-18648
▁NK	-18649
▁UK	-18650
▁고질	-18651
▁공물	-18652
▁관사	-18653
▁기치	-18654
▁마누	-18655
▁만찬	-18656
▁약국	-18657
▁유위	-18658
▁음소	-18659
▁점심	-18660
▁주술	-18661
▁초중	-18662
▁황성	-18663
▁회군	-18664
리오카	-18665
▁강아지	-18666
▁명백히	-18667
▁부끄럽	-18668
▁생태학	-18669
▁유학생	-18670
▁똥	-18671
▁젓	-18672
랄라	-18673
비어	-18674
way	-18675
▁구면	-18676
▁남짓	-18677
▁마조	-18678
▁불펜	-18679
▁수난	-18680
▁연사	-18681
▁조만	-18682
▁최재	-18683
▁품계	-18684
▁호러	-18685
자위대	-18686
▁221	-18687
▁Bar	-18688
▁Red	-18689
▁가오슝	-18690
▁레슬리	-18691
▁레오니	-18692
▁브룩스	-18693
▁세일러	-18694
▁중대장	-18695
▁편의점	-18696
▁한마디	-18697
▁현저히	-18698
▁Sound	-18699
▁안티고노스	-18700
▁뿌	-18701
귀비	-18702
야구	-18703
▁es	-18704
▁계명	-18705
▁나팔	-18706
▁냉동	-18707
▁미신	-18708
▁미일	-18709
▁발화	-18710
▁서간	-18711
▁송금	-18712
▁쓰가	-18713
▁차드	-18714
▁회기	-18715
ouse	-18716
▁Sec	-18717
▁뇌졸중	-18718
▁좀처럼	-18719
▁탈수소	-18720
▁하얼빈	-18721
▁Over	-18722
▁가이우스	-18723
▁Light	-18724
WS	-18725
▁읊	-18726
▁골자	-18727
▁궁금	-18728
▁대파	-18729
▁라피	-18730
▁명품	-18731
▁발라	-18732
▁보현	-18733
▁선방	-18734
▁스벤	-18735
▁연일	-18736
▁왈라	-18737
▁우성	-18738
▁주어	-18739
▁진과	-18740
▁콕스	-18741
▁푸시	-18742
▁혈청	-18743
▁리히텐	-18744
▁미망인	-18745
▁에버턴	-18746
브레히트	-18747
▁1100	-18748
▁Sing	-18749
▁브래들리	-18750
▁창씨개명	-18751
▁카리브해	-18752
▁콘티넨털	-18753
워키	-18754
▁나츠	-18755
▁따내	-18756
▁부응	-18757
▁슬롯	-18758
▁커크	-18759
▁클론	-18760
▁231	-18761
▁세포막	-18762
▁정보국	-18763
▁1844	-18764
▁동명이인	-18765
색슨	-18766
▁ac	-18767
▁낙인	-18768
▁동족	-18769
▁삼가	-18770
▁수작	-18771
▁슬퍼	-18772
▁신빙	-18773
▁오목	-18774
▁외화	-18775
▁크릭	-18776
대주의	-18777
하이드	-18778
ason	-18779
▁Eng	-18780
▁배상금	-18781
▁여름철	-18782
▁피스톤	-18783
▁요코스카	-18784
▁앵글로색슨	-18785
▁즙	-18786
옹주	-18787
▁갑상	-18788
▁굴리	-18789
▁베레	-18790
▁식년	-18791
▁신예	-18792
▁안구	-18793
▁앙주	-18794
▁울음	-18795
▁유주	-18796
▁이등	-18797
▁자력	-18798
▁정구	-18799
▁쾌락	-18800
▁파니	-18801
▁한류	-18802
▁후각	-18803
▁산화물	-18804
▁수류탄	-18805
▁계몽주의	-18806
▁곤살레스	-18807
▁랜드마크	-18808
aj	-18809
거슨	-18810
프슨	-18811
▁JS	-18812
▁간편	-18813
▁고부	-18814
▁과수	-18815
▁다키	-18816
▁색조	-18817
▁아워	-18818
▁오경	-18819
▁이면	-18820
▁재야	-18821
▁지드	-18822
▁하체	-18823
▁학점	-18824
▁갑각류	-18825
▁경영진	-18826
▁사이다	-18827
▁참가국	-18828
▁카이저	-18829
▁플랜트	-18830
▁하루카	-18831
▁사회단체	-18832
▁민속문화재	-18833
니언	-18834
루트	-18835
타바	-18836
▁RO	-18837
▁TA	-18838
[...]
