▁ᄋ -0
▁으 -1
▁ᄃ -2
▁. -3
▁ᄀ -4
▁에 -5
ᅳᆫ -6
▁ᄂ -7
▁다 -8
▁의 -9
▁는 -10
▁ᄅ -11
▁이 -12
▁, -13
▁하 -14
▁을 -15
▁ᄒ -16
▁이 -17
ᅡᆫ -18
▁은 -19
서 -20
▁1 -21
ᅳᆯ -22
▁를 -23
▁어 -24
로 -25
▁고 -26
▁년 -27
▁한 -28
▁으로 -29
▁에서 -30
▁2 -31
▁가 -32
▁있 -33
▁로 -34
▁되 -35
▁여 -36
▁대 -37
▁사 -38
▁었 -39
다 -40
▁해 -41
며 -42
▁그 -43
지 -44
▁일 -45
▁시 -46
▁과 -47
▁지 -48
▁들 -49
▁수 -50
▁했 -51
▁기 -52
▁전 -53
▁적 -54
▁였 -55
▁와 -56
▁20 -57
▁도 -58
▁아 -59
▁가 -60
▁월 -61
▁며 -62
▁제 -63
▁19 -64
▁인 -65
▁되 -66
▁다 -67
▁ᄇ -68
▁주 -69
▁정 -70
▁지 -71
▁중 -72
▁자 -73
▁된 -74
▁공 -75
해 -76
▁경 -77
▁인 -78
▁기 -79
▁아 -80
▁개 -81
▁것 -82
▁세 -83
▁유 -84
▁3 -85
▁" -86
▁라 -87
▁조 -88
▁부 -89
▁한다 -90
▁게 -91
▁등 -92
▁선 -93
▁성 -94
▁스 -95
▁미 -96
▁동 -97
▁연 -98
▁보 -99
▁마 -100
▁위 -101
▁상 -102
▁소 -103
▁오 -104
▁한 -105
나 -106
▁ᄆ -107
▁고 -108
▁영 -109
▁국 -110
고 -111
▁모 -112
▁구 -113
▁도 -114
▁발 -115
▁비 -116
ᅥᆫ -117
한 -118
▁201 -119
▁' -120
ᅧᆻ -121
▁하 -122
▁나 -123
▁여 -124
▁4 -125
▁서 -126
는 -127
▁ᄌ -128
▁후 -129
▁명 -130
▁ᄉ -131
▁신 -132
ᅵᆫ -133
▁면 -134
▁5 -135
▁프 -136
▁때 -137
▁관 -138
▁200 -139
▁장 -140
▁- -141
ᆯᄅ -142
▁방 -143
▁던 -144
▁의 -145
▁교 -146
▁만 -147
▁할 -148
▁ᄁ -149
▁리 -150
▁해 -151
▁문 -152
▁역 -153
터 -154
ᅮ터 -155
▁차 -156
▁바 -157
▁우 -158
으 -159
▁무 -160
▁계 -161
▁원 -162
▁현 -163
▁군 -164
▁포 -165
▁노 -166
▁분 -167
▁6 -168
▁으며 -169
▁당 -170
ᅡ지 -171
▁또 -172
▁않 -173
▁화 -174
▁남 -175
▁학 -176
▁았 -177
▁까지 -178
▁같 -179
▁결 -180
▁작 -181
어 -182
게 -183
▁나 -184
▁출 -185
▁에게 -186
▁파 -187
▁생 -188
▁진 -189
▁내 -190
▁대 -191
▁강 -192
▁단 -193
▁7 -194
▁받 -195
▁최 -196
▁번 -197
▁10 -198
ᅮᆫ -199
▁8 -200
▁어 -201
▁된다 -202
▁반 -203
▁보 -204
▁호 -205
만 -206
▁회 -207
▁지만 -208
▁거 -209
▁데 -210
▁안 -211
▁형 -212
▁초 -213
▁카 -214
▁실 -215
▁예 -216
▁배 -217
▁에 -218
▁재 -219
▁불 -220
▁부터 -221
▁말 -222
▁위 -223
▁ᄄ -224
▁없 -225
▁로 -226
▁두 -227
데 -228
▁사용 -229
▁9 -230
▁미국 -231
▁타 -232
▁라고 -233
▁종 -234
▁라 -235
▁이후 -236
▁라는 -237
▁요 -238
▁함 -239
▁통 -240
▁설 -241
▁과 -242
▁자 -243
▁만 -244
▁특 -245
▁면서 -246
▁일본 -247
▁는데 -248
▁코 -249
▁산 -250
▁운 -251
▁ᄐ -252
으며 -253
▁권 -254
▁감 -255
▁독 -256
▁레 -257
▁활 -258
가 -259
▁왕 -260
▁추 -261
민국 -262
▁김 -263
▁베 -264
▁음 -265
▁지역 -266
▁크 -267
▁양 -268
▁행 -269
▁대한 -270
▁199 -271
▁더 -272
▁다음 -273
▁민 -274
▁많 -275
▁평 -276
▁12 -277
라 -278
▁매 -279
▁피 -280
▁입 -281
▁대한 -282
▁대한민국 -283
▁간 -284
▁참 -285
▁18 -286
진 -287
▁및 -288
▁경기 -289
▁승 -290
▁다고 -291
▁목 -292
▁다른 -293
▁대학 -294
▁거 -295
▁; -296
리아 -297
00 -298
ᆼ해 -299
▁건 -300
▁총 -301
▁프로 -302
스트 -303
▁그리 -304
▁위해 -305
▁북 -306
▁S -307
or -308
▁알 -309
▁집 -310
▁때문 -311
▁법 -312
▁11 -313
▁시작 -314
▁체 -315
▁각 -316
▁천 -317
▁트 -318
▁외 -319
▁직 -320
▁임 -321
▁표 -322
▁드 -323
▁ᄏ -324
▁따 -325
운 -326
▁변 -327
▁사람 -328
▁토 -329
▁& -330
▁본 -331
▁그러 -332
▁함께 -333
▁처 -334
▁또한 -335
▁물 -336
▁A -337
▁속 -338
▁점 -339
▁팀 -340
▁메 -341
▁ᄎ -342
▁박 -343
▁투 -344
▁한국 -345
▁선수 -346
▁항 -347
▁청 -348
▁브 -349
▁세계 -350
▁) -351
▁사이 -352
▁영화 -353
▁저 -354
▁자신 -355
▁광 -356
져 -357
la -358
▁오 -359
▁게 -360
▁C -361
▁시 -362
▁M -363
▁경우 -364
▁달 -365
▁판 -366
▁용 -367
▁태 -368
▁약 -369
▁f -370
▁디 -371
▁기록 -372
▁T -373
▁축 -374
▁F -375
▁현재 -376
ᆯ려 -377
▁복 -378
▁하나 -379
▁국가 -380
▁야 -381
시아 -382
▁존 -383
▁198 -384
▁다는 -385
▁이름 -386
▁당시 -387
▁편 -388
▁확 -389
▁가장 -390
▁토 -391
▁네 -392
▁위치 -393
▁삼 -394
▁열 -395
▁따라 -396
▁_ -397
▁활동 -398
▁테 -399
▁가지 -400
▁조선 -401
▁학교 -402
▁철 -403
ᅵᆫ다 -404
주의 -405
▁그러나 -406
▁리그 -407
▁필 -408
▁버 -409
▁15 -410
▁( -411
▁이나 -412
▁올 -413
졌 -414
▁금 -415
▁뒤 -416
▁페 -417
▁증 -418
▁for -419
▁째 -420
▁루 -421
mu -422
▁플 -423
러 -424
▁백 -425
▁서 -426
▁창 -427
▁언 -428
▁의해 -429
mula -430
▁formula -431
내 -432
▁16 -433
▁대표 -434
▁식 -435
레이 -436
▁연구 -437
▁병 -438
▁치 -439
▁근 -440
▁또는 -441
▁프랑 -442
부터 -443
▁통해 -444
▁그리고 -445
난 -446
▁심 -447
▁합 -448
▁/ -449
▁황 -450
▁사회 -451
으나 -452
여 -453
▁규 -454
▁m -455
▁0 -456
▁모 -457
▁살 -458
▁애 -459
야 -460
▁D -461
▁충 -462
▁17 -463
▁시즌 -464
▁] -465
▁[ -466
▁첫 -467
▁따 -468
아 -469
▁순 -470
▁부 -471
▁197 -472
▁B -473
▁완 -474
▁ᄊ -475
▁아니 -476
랜드 -477
▁히 -478
▁시ᄏ -479
▁다시 -480
▁중국 -481
▁협 -482
▁바 -483
▁서울 -484
▁클 -485
▁정부 -486
▁프랑스 -487
▁영국 -488
▁패 -489
▁K -490
학교 -491
▁시대 -492
▁I -493
▁: -494
▁대해 -495
▁는다 -496
▁높 -497
▁만들 -498
른 -499
▁k -500
▁포함 -501
▁여러 -502
▁도시 -503
▁뜻 -504
▁196 -505
났 -506
▁전쟁 -507
▁채 -508
▁은 -509
▁14 -510
▁새 -511
워 -512
▁독일 -513
▁으나 -514
▁로서 -515
▁아이 -516
▁키 -517
er -518
▁문화 -519
▁대회 -520
▁~ -521
ᅵᆯ -522
▁다가 -523
▁g -524
▁13 -525
▁면 -526
쳐 -527
▁축구 -528
ᆯ어 -529
▁모두 -530
▁가능 -531
▁위원 -532
▁큰 -533
▁동안 -534
▁P -535
▁뉴 -536
▁모든 -537
in -538
▁이상 -539
▁보다 -540
▁곡 -541
▁감독 -542
▁정치 -543
▁194 -544
▁환 -545
▁쓰 -546
▁손 -547
▁별 -548
▁일부 -549
▁문제 -550
려 -551
▁친 -552
▁석 -553
▁방송 -554
▁l -555
▁길 -556
▁내 -557
▁처음 -558
▁개발 -559
▁대학교 -560
▁알려 -561
▁L -562
▁위한 -563
▁지방 -564
▁허 -565
와 -566
▁% -567
▁제작 -568
▁취 -569
▁구성 -570
▁죽 -571
▁검 -572
▁ᄑ -573
▁였으며 -574
▁국제 -575
▁러 -576
▁농 -577
▁될 -578
▁배우 -579
▁사건 -580
▁골 -581
라이 -582
겨 -583
▁니 -584
▁세기 -585
▁시간 -586
▁새 -587
▁이용 -588
▁캐 -589
▁마 -590
▁일반 -591
▁논 -592
▁씨 -593
▁존재 -594
▁작품 -595
▁G -596
▁게임 -597
▁정도 -598
▁폭 -599
▁운동 -600
▁주장 -601
▁역사 -602
▁gt -603
록 -604
▁관계 -605
▁곳 -606
▁급 -607
▁즉 -608
▁N -609
니아 -610
▁교육 -611
▁인구 -612
▁음악 -613
▁효 -614
▁티 -615
on -616
▁195 -617
▁함 -618
▁km -619
▁거나 -620
▁중심 -621
▁려 -622
▁lt -623
리스 -624
▁육 -625
▁섬 -626
▁이러 -627
▁돌 -628
▁돼 -629
▁U -630
▁30 -631
▁극 -632
▁R -633
▁쿠 -634
▁했으며 -635
▁경제 -636
▁날 -637
▁선거 -638
부분 -639
통령 -640
▁발견 -641
▁블 -642
▁귀 -643
▁전투 -644
▁절 -645
이스 -646
▁민주 -647
▁H -648
▁발표 -649
▁맡 -650
화국 -651
▁측 -652
▁홍 -653
▁글 -654
▁E -655
▁기술 -656
▁올림 -657
▁도록 -658
▁암 -659
▁아들 -660
▁밀 -661
▁시키 -662
▁우승 -663
▁막 -664
▁책 -665
▁로부터 -666
▁터 -667
▁공격 -668
▁엔 -669
ᆫ다 -670
▁2010 -671
▁대통령 -672
▁대부분 -673
했 -674
▁영향 -675
▁사망 -676
▁올림픽 -677
an -678
▁결과 -679
▁케 -680
ᆯ라 -681
000 -682
▁슈 -683
▁송 -684
▁질 -685
▁떠 -686
▁지원 -687
▁라이 -688
▁앨 -689
▁잘 -690
▁향 -691
써 -692
▁프로그 -693
▁담 -694
리카 -695
도 -696
▁과정 -697
▁접 -698
▁끝 -699
▁193 -700
▁발생 -701
▁의미 -702
▁관련 -703
▁참여 -704
ᆯ린 -705
▁중앙 -706
▁유럽 -707
▁앞 -708
▁헤 -709
▁업 -710
▁봉 -711
오 -712
▁최초 -713
▁c -714
▁얻 -715
▁진행 -716
란드 -717
▁준 -718
로운 -719
20 -720
▁25 -721
▁부분 -722
▁특히 -723
▁고등 -724
▁독립 -725
▁자유 -726
▁태 -727
지만 -728
▁결정 -729
▁범 -730
▁제국 -731
▁못 -732
▁됐 -733
▁구조 -734
▁들 -735
▁다양 -736
▁세 -737
▁설립 -738
▁못 -739
면 -740
▁이ᄅ -741
▁어서 -742
버지 -743
▁설치 -744
▁상태 -745
나라 -746
▁W -747
▁폐 -748
▁형태 -749
▁초등 -750
ᆯ러 -751
▁탈 -752
▁탄 -753
▁발매 -754
▁소속 -755
▁온 -756
▁좌 -757
▁누 -758
▁러시아 -759
▁악 -760
▁2008 -761
▁사실 -762
▁하지만 -763
니 -764
▁잡 -765
▁이전 -766
▁침 -767
▁그녀 -768
▁21 -769
우스 -770
였 -771
▁새로운 -772
▁스타 -773
▁센 -774
▁르 -775
▁인해 -776
▁같이 -777
▁태어 -778
▁로마 -779
디오 -780
▁으로서 -781
▁갖 -782
▁여성 -783
▁맞 -784
▁폴 -785
▁나라 -786
▁처 -787
ᅮᆯ -788
▁생각 -789
▁인민 -790
▁주로 -791
▁프로그램 -792
▁ᄈ -793
▁필요 -794
▁타이 -795
▁2011 -796
▁2012 -797
냈 -798
▁버 -799
▁이것 -800
▁출신 -801
▁싱 -802
▁참가 -803
▁혼 -804
▁이탈 -805
▁조직 -806
▁관리 -807
▁머 -808
▁좋 -809
▁100 -810
▁기준 -811
▁운영 -812
▁위원회 -813
▁중요 -814
en -815
▁2009 -816
▁생산 -817
▁윤 -818
▁여자 -819
▁계획 -820
▁2007 -821
▁기관 -822
▁2014 -823
럼 -824
▁t -825
▁상대 -826
▁행정 -827
▁등장 -828
ᆯ렸 -829
▁정보 -830
▁성공 -831
▁계속 -832
▁이루 -833
▁음반 -834
▁바이 -835
▁국민 -836
▁지정 -837
▁매우 -838
▁데이 -839
▁콘 -840
▁a -841
ᆼ한 -842
▁해서 -843
▁그 -844
▁데뷔 -845
▁해당 -846
▁2013 -847
▁O -848
▁갈 -849
he -850
▁레이 -851
▁과학 -852
▁팔 -853
▁철도 -854
▁아버지 -855
▁고려 -856
▁칼 -857
스터 -858
▁대전 -859
▁몇 -860
▁발전 -861
▁이탈리아 -862
리즈 -863
▁주요 -864
▁자리 -865
르크 -866
▁따르 -867
프트 -868
▁사업 -869
▁191 -870
▁시스 -871
▁와 -872
▁24 -873
ᅳ로 -874
▁23 -875
▁묘 -876
▁커 -877
▁처럼 -878
▁방법 -879
▁차지 -880
▁000 -881
▁2015 -882
ar -883
▁억 -884
▁2018 -885
▁보이 -886
남도 -887
▁헌 -888
▁월드 -889
▁앨범 -890
라마 -891
ᆯ아 -892
▁2016 -893
레스 -894
▁최고 -895
▁쇼 -896
▁그룹 -897
▁인도 -898
▁야 -899
▁결국 -900
▁후보 -901
▁줄 -902
▁일 -903
ᆰᄒ -904
▁능 -905
린 -906
▁마이 -907
▁출연 -908
▁아래 -909
▁시리즈 -910
▁엘 -911
▁생활 -912
▁전체 -913
이션 -914
▁J -915
▁22 -916
es -917
▁고등학교 -918
▁한편 -919
▁회사 -920
▁이유 -921
▁내용 -922
▁졌 -923
▁2006 -924
▁그리스 -925
이트 -926
▁우리 -927
FA -928
▁192 -929
비아 -930
▁사 -931
▁격 -932
▁였으나 -933
▁층 -934
▁제공 -935
타 -936
▁연합 -937
▁인간 -938
▁스페 -939
▁방식 -940
▁밝ᄒ -941
▁풍 -942
▁못하 -943
ᆫ한 -944
▁의원 -945
▁2017 -946
▁공식 -947
▁많이 -948
운데 -949
▁인터 -950
▁항공 -951
▁시기 -952
▁역할 -953
▁컴 -954
진다 -955
▁몸 -956
▁가운데 -957
▁얼 -958
▁군사 -959
▁조사 -960
왔 -961
▁시스템 -962
▁드라마 -963
▁초기 -964
▁빌 -965
▁거의 -966
▁기업 -967
▁워 -968
▁출전 -969
▁유명 -970
▁제도 -971
▁반대 -972
▁민족 -973
▁들어 -974
▁볼 -975
▁진 -976
▁s -977
▁으로써 -978
▁지구 -979
▁교회 -980
ᅮ어 -981
인 -982
▁음 -983
▁수상 -984
▁대신 -985
▁텔 -986
▁평가 -987
▁유지 -988
ᅮᆫ다 -989
▁표현 -990
비스 -991
▁해야 -992
▁색 -993
▁란 -994
인다 -995
▁으로부터 -996
▁분류 -997
▁잠 -998
▁26 -999
▁동시 -1000
▁홈 -1001
▁대상 -1002
▁특별 -1003
▁! -1004
▁현대 -1005
▁걸 -1006
▁기능 -1007
▁이르 -1008
▁규모 -1009
▁언어 -1010
▁이미 -1011
▁모습 -1012
▁공개 -1013
at -1014
▁나타 -1015
▁프리 -1016
▁노동 -1017
▁자연 -1018
▁28 -1019
▁승리 -1020
▁류 -1021
▁마지 -1022
▁개인 -1023
▁각각 -1024
야기 -1025
▁연결 -1026
▁27 -1027
▁이론 -1028
▁녹 -1029
▁인정 -1030
▁졸 -1031
▁2019 -1032
▁여기 -1033
▁진출 -1034
▁단체 -1035
▁응 -1036
▁지도 -1037
▁시켰 -1038
▁브라 -1039
쳤 -1040
▁임명 -1041
▁마지막 -1042
▁웨 -1043
갔 -1044
렸 -1045
북도 -1046
▁핵 -1047
▁V -1048
▁시장 -1049
▁2005 -1050
▁목적 -1051
▁2000 -1052
▁울 -1053
▁상황 -1054
닌 -1055
머니 -1056
▁수도 -1057
▁시절 -1058
▁아르 -1059
▁정책 -1060
ᆸ니 -1061
▁전문 -1062
▁난 -1063
▁기간 -1064
▁정의 -1065
▁알려져 -1066
▁경상 -1067
어지 -1068
▁희 -1069
▁직접 -1070
▁왔 -1071
▁산업 -1072
▁목록 -1073
▁족 -1074
▁이야기 -1075
▁치 -1076
▁서로 -1077
ic -1078
al -1079
▁계약 -1080
▁압 -1081
▁했으나 -1082
▁힘 -1083
겼 -1084
▁일어 -1085
▁올라 -1086
▁오스트 -1087
스크 -1088
▁야구 -1089
▁혁 -1090
▁불리 -1091
▁열린 -1092
▁추가 -1093
▁밴 -1094
▁기원 -1095
▁공동 -1096
▁건설 -1097
BS -1098
▁모델 -1099
웠 -1100
▁눈 -1101
▁2004 -1102
▁콜 -1103
▁개최 -1104
▁먹 -1105
▁샤 -1106
▁경찰 -1107
▁플레이 -1108
▁건물 -1109
▁FC -1110
▁찾 -1111
▁형성 -1112
▁공간 -1113
▁50 -1114
ᆸ니다 -1115
▁활약 -1116
▁자동 -1117
▁푸 -1118
▁결혼 -1119
▁관한 -1120
▁부산 -1121
▁보여 -1122
▁스페인 -1123
▁넘 -1124
든 -1125
▁31 -1126
▁훈 -1127
▁29 -1128
▁태어났 -1129
▁변화 -1130
학자 -1131
▁노래 -1132
▁사상 -1133
▁거리 -1134
▁니 -1135
▁졸업 -1136
▁교수 -1137
▁그것 -1138
▁변경 -1139
▁으면 -1140
▁뿐 -1141
▁칸 -1142
▁의하 -1143
▁국회 -1144
▁b -1145
▁TV -1146
▁인물 -1147
▁완전 -1148
▁마을 -1149
▁나이 -1150
온 -1151
is -1152
▁너 -1153
re -1154
▁공화국 -1155
it -1156
▁궁 -1157
▁텔레 -1158
▁벨 -1159
▁부르 -1160
ᅳ러 -1161
▁비롯 -1162
▁사랑 -1163
▁퍼 -1164
▁역시 -1165
▁190 -1166
▁망 -1167
▁노선 -1168
▁인민공 -1169
▁휴 -1170
▁저 -1171
▁인민공화국 -1172
▁둘 -1173
이드 -1174
▁비 -1175
비전 -1176
어나 -1177
▁2020 -1178
▁구 -1179
▁학생 -1180
한다 -1181
▁실제 -1182
ou -1183
▁최대 -1184
▁맥 -1185
▁중학교 -1186
▁보통 -1187
▁요구 -1188
▁볼 -1189
▁지금 -1190
▁서비스 -1191
▁잉 -1192
대로 -1193
▁탑 -1194
▁보호 -1195
▁낮 -1196
▁겠 -1197
▁슬 -1198
▁전국 -1199
▁속하 -1200
▁지지 -1201
프리카 -1202
▁나타 -1203
▁우주 -1204
▁소설 -1205
▁의회 -1206
▁중화 -1207
▁떨어 -1208
▁거쳐 -1209
자 -1210
른다 -1211
▁없이 -1212
▁실시 -1213
▁메이 -1214
▁기본 -1215
▁자기 -1216
르트 -1217
들 -1218
▁판매 -1219
▁지하 -1220
▁황제 -1221
▁혹 -1222
운드 -1223
▁가수 -1224
▁비판 -1225
역시 -1226
▁다이 -1227
▁전통 -1228
▁싱글 -1229
▁달리 -1230
ᅡᆫ다 -1231
▁한다는 -1232
▁따라 -1233
▁밴드 -1234
▁원래 -1235
▁옥 -1236
▁기반 -1237
▁론 -1238
▁퇴 -1239
▁소 -1240
▁가진 -1241
▁종교 -1242
▁세력 -1243
▁어떤 -1244
▁노 -1245
▁차이 -1246
▁견 -1247
▁2002 -1248
▁위하 -1249
▁경기도 -1250
▁딸 -1251
로스 -1252
▁40 -1253
▁못했 -1254
▁탐 -1255
▁돌아 -1256
▁무 -1257
▁소련 -1258
▁자료 -1259
스탄 -1260
▁겸 -1261
▁몰 -1262
▁수행 -1263
▁환경 -1264
▁기타 -1265
▁2003 -1266
▁회의 -1267
▁아닌 -1268
▁전기 -1269
▁모양 -1270
▁센터 -1271
▁월드컵 -1272
▁대해서 -1273
▁밖 -1274
▁부대 -1275
▁시설 -1276
▁운행 -1277
▁그래 -1278
▁특징 -1279
▁공연 -1280
▁전자 -1281
러스 -1282
▁도쿄 -1283
▁이루어 -1284
나다 -1285
▁나오 -1286
▁교황 -1287
▁뮤 -1288
▁설명 -1289
▁컵 -1290
▁통합 -1291
▁놓 -1292
▁기념 -1293
▁이동 -1294
▁예술 -1295
▁분야 -1296
▁기독 -1297
▁전 -1298
▁승강 -1299
▁명칭 -1300
▁작업 -1301
le -1302
▁득 -1303
mp -1304
▁남자 -1305
▁텔레비전 -1306
▁행동 -1307
▁도입 -1308
▁동물 -1309
▁염 -1310
▁연방 -1311
▁따라서 -1312
▁구역 -1313
▁선정 -1314
▁온 -1315
▁의한 -1316
▁바로 -1317
▁군대 -1318
▁벌 -1319
▁전라 -1320
친 -1321
▁능력 -1322
▁애니 -1323
까 -1324
▁출시 -1325
스타 -1326
▁가족 -1327
▁증가 -1328
▁작용 -1329
▁숙 -1330
ᆼ했 -1331
▁할 -1332
▁남쪽 -1333
▁기존 -1334
▁확인 -1335
▁방향 -1336
▁소프트 -1337
▁행위 -1338
▁지휘 -1339
너지 -1340
▁북쪽 -1341
▁제외 -1342
▁이때 -1343
▁문학 -1344
▁교통 -1345
▁기독교 -1346
▁차량 -1347
▁작가 -1348
▁= -1349
의원 -1350
▁므로 -1351
▁국내 -1352
▁알 -1353
▁비슷 -1354
▁형식 -1355
▁사고 -1356
▁십 -1357
▁클럽 -1358
▁어머니 -1359
▁혁명 -1360
▁윌 -1361
▁작곡 -1362
▁도로 -1363
▁효과 -1364
▁빈 -1365
▁낙 -1366
▁몽 -1367
▁왕국 -1368
▁역임 -1369
▁과거 -1370
▁태양 -1371
▁유일 -1372
▁캐나다 -1373
▁컴퓨 -1374
▁승강장 -1375
▁챔 -1376
▁FI -1377
▁쓰 -1378
▁한다고 -1379
▁열차 -1380
▁사무 -1381
리 -1382
▁이적 -1383
▁착 -1384
▁더 -1385
BC -1386
▁혹은 -1387
▁협회 -1388
▁높이 -1389
ᅡᆯ -1390
리오 -1391
▁남부 -1392
▁비교 -1393
▁추정 -1394
▁지배 -1395
▁공산 -1396
▁정당 -1397
▁솔 -1398
▁뉴욕 -1399
▁두 -1400
▁흥 -1401
▁담당 -1402
▁시민 -1403
자리 -1404
▁적용 -1405
▁건 -1406
긴 -1407
▁이사 -1408
▁이끌 -1409
▁속 -1410
▁동일 -1411
▁넓 -1412
▁획 -1413
▁육군 -1414
▁주변 -1415
▁흐 -1416
▁베이 -1417
▁런 -1418
▁1990 -1419
▁인기 -1420
▁장관 -1421
▁대사 -1422
▁2001 -1423
▁챔피 -1424
▁동쪽 -1425
▁즈 -1426
▁홀 -1427
▁시켜 -1428
▁스포 -1429
▁만든 -1430
▁스트 -1431
▁세포 -1432
▁쪽 -1433
▁갑 -1434
▁X -1435
▁곧 -1436
▁윈 -1437
▁건축 -1438
▁상당 -1439
▁예정 -1440
▁사단 -1441
▁공사 -1442
▁성장 -1443
▁마음 -1444
▁개념 -1445
▁데이터 -1446
▁p -1447
▁구간 -1448
▁오늘 -1449
▁컴퓨터 -1450
▁러 -1451
▁징 -1452
▁차례 -1453
▁조지 -1454
▁품 -1455
▁크기 -1456
ᅮᆷ -1457
▁에너지 -1458
▁돈 -1459
▁대하 -1460
▁멤 -1461
▁맨 -1462
▁서쪽 -1463
▁189 -1464
▁마르 -1465
▁버스 -1466
▁넣 -1467
▁흑 -1468
이지 -1469
▁본 -1470
▁엄 -1471
▁충청 -1472
▁액 -1473
▁록 -1474
▁자체 -1475
▁어느 -1476
▁땅 -1477
▁실패 -1478
낸 -1479
▁조건 -1480
▁작전 -1481
▁민주주의 -1482
으ᄏ -1483
▁디자 -1484
▁다르 -1485
▁연기 -1486
▁나가 -1487
▁이런 -1488
▁잔 -1489
▁율 -1490
▁반응 -1491
▁덕 -1492
▁이어 -1493
▁선언 -1494
▁위해서 -1495
▁연주 -1496
▁FIFA -1497
▁마다 -1498
▁피해 -1499
▁부족 -1500
▁컨 -1501
▁종류 -1502
▁특정 -1503
▁d -1504
▁버전 -1505
▁연속 -1506
▁페르 -1507
▁선택 -1508
드리 -1509
메이션 -1510
▁국립 -1511
▁대체 -1512
▁규정 -1513
▁쌍 -1514
▁방영 -1515
카이 -1516
el -1517
▁해군 -1518
▁대구 -1519
▁공항 -1520
▁고대 -1521
▁내부 -1522
루스 -1523
가지 -1524
▁멤버 -1525
et -1526
▁체제 -1527
▁속도 -1528
▁지냈 -1529
버스 -1530
▁결승 -1531
▁조약 -1532
▁정신 -1533
▁아시아 -1534
▁북부 -1535
▁명령 -1536
▁기원전 -1537
▁수록 -1538
▁들어 -1539
▁밝혔 -1540
▁는지 -1541
▁연대 -1542
▁왜 -1543
글랜드 -1544
▁선출 -1545
▁헌법 -1546
▁인천 -1547
▁크리스 -1548
▁애니메이션 -1549
거리 -1550
▁풀 -1551
▁단계 -1552
▁가치 -1553
▁옛 -1554
▁포르 -1555
▁옮 -1556
▁개혁 -1557
▁걸쳐 -1558
ion -1559
▁최종 -1560
▁친구 -1561
▁일으ᄏ -1562
▁물질 -1563
▁보인다 -1564
▁영어 -1565
웨어 -1566
▁분석 -1567
▁자치 -1568
▁달러 -1569
▁최근 -1570
ing -1571
ᆽᄎ -1572
▁설계 -1573
▁밤 -1574
▁척 -1575
트남 -1576
▁의사 -1577
▁강화 -1578
▁엔 -1579
▁더욱 -1580
▁출판 -1581
▁평균 -1582
ᅳᆷ -1583
▁비행 -1584
▁생 -1585
▁소비 -1586
시마 -1587
▁1999 -1588
▁지명 -1589
▁체계 -1590
▁물리 -1591
▁로스 -1592
▁술 -1593
▁걸 -1594
▁법원 -1595
▁북한 -1596
▁집단 -1597
ol -1598
▁불러 -1599
라스 -1600
▁배치 -1601
▁잉글랜드 -1602
▁관심 -1603
▁1998 -1604
▁표준 -1605
▁머리 -1606
메리카 -1607
▁팬 -1608
▁언급 -1609
▁익 -1610
▁개월 -1611
▁Y -1612
▁치료 -1613
널리 -1614
▁획득 -1615
▁부문 -1616
▁쥐 -1617
▁씩 -1618
▁엔진 -1619
▁cm -1620
난다 -1621
▁하이 -1622
21 -1623
▁현상 -1624
▁o -1625
▁먼 -1626
ᆸᄒ -1627
렇게 -1628
▁뛰 -1629
▁헬 -1630
▁드 -1631
▁지속 -1632
▁조정 -1633
▁써 -1634
▁분리 -1635
▁부상 -1636
▁실험 -1637
▁당하 -1638
▁1980 -1639
▁선발 -1640
▁유사 -1641
▁60 -1642
▁하계 -1643
▁함수 -1644
▁빠 -1645
▁파리 -1646
▁벤 -1647
▁처리 -1648
▁스테 -1649
▁확장 -1650
▁스포츠 -1651
▁공원 -1652
▁챔피언 -1653
스코 -1654
▁대중 -1655
▁베르 -1656
▁맺 -1657
▁제품 -1658
▁마리 -1659
▁흔 -1660
▁35 -1661
▁어야 -1662
▁입단 -1663
▁겨 -1664
리지 -1665
▁커 -1666
▁관할 -1667
▁소유 -1668
▁시도 -1669
▁통일 -1670
▁가리 -1671
▁목표 -1672
▁이해 -1673
▁자동차 -1674
▁도움 -1675
▁공립 -1676
▁장군 -1677
▁요소 -1678
▁느 -1679
▁재판 -1680
▁칭 -1681
▁주도 -1682
ᅵᆷ -1683
▁정규 -1684
디어 -1685
▁후반 -1686
▁mm -1687
▁문자 -1688
▁에스 -1689
▁스 -1690
▁점령 -1691
▁외국 -1692
에 -1693
▁요시 -1694
▁거주 -1695
▁고자 -1696
▁구단 -1697
▁긴 -1698
▁주인 -1699
▁나무 -1700
▁지나 -1701
▁려고 -1702
▁꽃 -1703
▁편성 -1704
▁주민 -1705
▁기사 -1706
▁임 -1707
▁시험 -1708
▁원자 -1709
▁네덜 -1710
▁네덜란드 -1711
▁학자 -1712
▁행사 -1713
▁통신 -1714
▁안정 -1715
▁n -1716
▁앤 -1717
광역시 -1718
ᆯ린다 -1719
▁느 -1720
▁동맹 -1721
▁결합 -1722
▁사령 -1723
▁투표 -1724
▁파이 -1725
▁혈 -1726
▁수준 -1727
▁붙 -1728
▁일종 -1729
▁알렉 -1730
▁웹 -1731
▁고속 -1732
▁언론 -1733
▁불구 -1734
▁장치 -1735
▁깊 -1736
▁데 -1737
▁예선 -1738
▁불교 -1739
▁앙 -1740
om -1741
▁디자인 -1742
▁길이 -1743
▁아프리카 -1744
▁개봉 -1745
야마 -1746
▁1997 -1747
나무 -1748
▁준비 -1749
젝트 -1750
▁베트남 -1751
▁문서 -1752
▁본선 -1753
▁방문 -1754
▁촉 -1755
▁광주 -1756
일랜드 -1757
▁싸 -1758
▁책임 -1759
▁사진 -1760
▁비해 -1761
▁캠 -1762
▁신문 -1763
▁바르 -1764
▁갔 -1765
▁끄 -1766
▁인데 -1767
▁정권 -1768
▁휘 -1769
보 -1770
▁가문 -1771
▁줄 -1772
▁유전 -1773
▁칠 -1774
▁경험 -1775
▁정확 -1776
▁가정 -1777
▁믿 -1778
메달 -1779
▁구분 -1780
st -1781
▁성적 -1782
▁1996 -1783
▁The -1784
▁폴란드 -1785
▁제조 -1786
▁올랐 -1787
▁그림 -1788
▁평화 -1789
▁1995 -1790
▁비디오 -1791
▁핀 -1792
▁오늘날 -1793
▁요리 -1794
▁원인 -1795
▁amp -1796
▁통과 -1797
▁부인 -1798
▁밝 -1799
▁용어 -1800
▁왕조 -1801
▁부여 -1802
▁다면 -1803
▁알려진 -1804
▁먼 -1805
▁아직 -1806
▁32 -1807
▁정리 -1808
▁거두 -1809
▁70 -1810
▁려는 -1811
▁일제 -1812
▁추진 -1813
▁찬 -1814
▁아마 -1815
▁런던 -1816
▁프로젝트 -1817
▁빠 -1818
스로 -1819
▁쉽 -1820
▁방어 -1821
▁빛 -1822
었 -1823
특별 -1824
▁너 -1825
▁병원 -1826
▁이곳 -1827
▁종합 -1828
▁덴 -1829
므로 -1830
▁신라 -1831
▁은퇴 -1832
스턴 -1833
▁해석 -1834
▁입장 -1835
▁프레 -1836
▁경쟁 -1837
▁경영 -1838
▁통치 -1839
▁멸 -1840
▁슈퍼 -1841
인트 -1842
▁발달 -1843
▁500 -1844
▁영역 -1845
▁몬 -1846
▁이듬 -1847
▁인터넷 -1848
▁노력 -1849
▁폐지 -1850
▁움 -1851
▁널리 -1852
▁훈련 -1853
▁보도 -1854
▁쓴 -1855
▁펴 -1856
▁민주당 -1857
▁파괴 -1858
▁미사 -1859
웨이 -1860
▁제주 -1861
▁츠 -1862
▁그런 -1863
▁제안 -1864
▁주제 -1865
▁총리 -1866
▁일어나 -1867
▁the -1868
▁부정 -1869
▁멀 -1870
am -1871
레일 -1872
▁면적 -1873
▁회장 -1874
할 -1875
▁80 -1876
▁주연 -1877
▁오르 -1878
▁세워 -1879
▁기여 -1880
▁미술 -1881
▁완전히 -1882
▁서부 -1883
▁만화 -1884
▁이듬해 -1885
▁유래 -1886
▁번호 -1887
리트 -1888
▁요청 -1889
▁국회의원 -1890
▁188 -1891
▁정상 -1892
▁빅 -1893
▁값 -1894
▁경기장 -1895
▁도서 -1896
▁잃 -1897
▁야마 -1898
▁식민 -1899
▁남성 -1900
▁여겨 -1901
▁자주 -1902
▁투수 -1903
▁습 -1904
▁생물 -1905
▁연맹 -1906
▁UE -1907
라인 -1908
▁법률 -1909
▁경계 -1910
▁동부 -1911
▁궤 -1912
▁차 -1913
▁+ -1914
▁폰 -1915
▁1994 -1916
▁무기 -1917
il -1918
▁1970 -1919
▁남 -1920
▁행성 -1921
▁금지 -1922
▁수용 -1923
▁UEFA -1924
▁인식 -1925
▁등록 -1926
▁소재 -1927
▁이어 -1928
▁붙 -1929
▁삼성 -1930
▁제한 -1931
톨릭 -1932
▁철학 -1933
▁무대 -1934
▁연구소 -1935
▁더불 -1936
▁바탕 -1937
▁외교 -1938
▁링 -1939
▁영토 -1940
ac -1941
▁괴 -1942
머지 -1943
▁라디오 -1944
▁나머지 -1945
▁반면 -1946
▁접근 -1947
▁스스로 -1948
▁지진 -1949
▁지대 -1950
▁강원 -1951
▁KBS -1952
▁업무 -1953
▁노르 -1954
▁발사 -1955
▁거부 -1956
▁아시 -1957
▁박물 -1958
▁린 -1959
▁뇌 -1960
▁뉴스 -1961
▁조각 -1962
▁정식 -1963
▁표기 -1964
▁마찬 -1965
▁마찬가지 -1966
▁벽 -1967
▁오스 -1968
▁아일랜드 -1969
▁결성 -1970
▁당했 -1971
▁오래 -1972
▁상호 -1973
▁은행 -1974
▁서식 -1975
▁논란 -1976
▁필리 -1977
▁보수 -1978
▁의식 -1979
▁1992 -1980
▁펜 -1981
▁다수 -1982
▁기초 -1983
▁득점 -1984
▁가까 -1985
▁루 -1986
▁공작 -1987
▁45 -1988
▁복귀 -1989
요일 -1990
▁가톨릭 -1991
▁든 -1992
▁주의 -1993
▁박사 -1994
▁성격 -1995
▁트리 -1996
▁아카 -1997
임스 -1998
▁스웨 -1999
ro -2000
▁임시 -2001
시코 -2002
▁다리 -2003
▁바다 -2004
▁난 -2005
▁수학 -2006
▁패배 -2007
▁전해 -2008
▁총선 -2009
▁해결 -2010
▁장애 -2011
▁꼬 -2012
▁36 -2013
▁실제로 -2014
▁그대로 -2015
모토 -2016
▁로써 -2017
▁짧 -2018
▁윌리 -2019
▁소리 -2020
▁of -2021
▁검사 -2022
ed -2023
워드 -2024
▁지도자 -2025
▁장소 -2026
▁초대 -2027
▁습니다 -2028
▁브라질 -2029
▁유로 -2030
▁긴 -2031
▁마이크 -2032
▁강력 -2033
▁이스 -2034
▁바뀌 -2035
▁박물관 -2036
아가 -2037
▁스위 -2038
▁여행 -2039
▁뛰 -2040
▁차원 -2041
▁제시 -2042
▁미 -2043
▁표시 -2044
▁여름 -2045
▁묘사 -2046
▁오브 -2047
▁카드 -2048
라고 -2049
▁기구 -2050
▁화학 -2051
▁식물 -2052
▁나ᄂ -2053
▁인사 -2054
▁차트 -2055
▁단순 -2056
▁1960 -2057
▁집합 -2058
▁안전 -2059
ig -2060
▁이외 -2061
▁계열 -2062
▁관측 -2063
▁유니 -2064
▁에이 -2065
▁연극 -2066
▁권력 -2067
▁쓰이 -2068
▁활용 -2069
▁1991 -2070
토리 -2071
▁스웨덴 -2072
▁무역 -2073
▁히로 -2074
▁멕 -2075
▁오스트리아 -2076
▁끝 -2077
▁먼저 -2078
▁지적 -2079
▁곤 -2080
▁회원 -2081
▁기계 -2082
▁디지 -2083
▁파일 -2084
▁가리 -2085
▁보다 -2086
▁아무 -2087
▁캐릭 -2088
▁개국 -2089
로나 -2090
부르크 -2091
▁잇 -2092
▁형제 -2093
▁근처 -2094
▁1993 -2095
▁가리ᄏ -2096
▁밝혀 -2097
▁33 -2098
▁반란 -2099
▁조성 -2100
레일리아 -2101
트리 -2102
▁위험 -2103
▁중단 -2104
▁중간 -2105
▁세대 -2106
▁붕 -2107
▁소프트웨어 -2108
▁흡 -2109
▁일정 -2110
▁발행 -2111
▁분포 -2112
▁도착 -2113
ᅢᆫ -2114
▁시행 -2115
베이 -2116
배우 -2117
▁협력 -2118
▁기자 -2119
▁스코 -2120
▁스튜 -2121
▁량 -2122
트로 -2123
특별시 -2124
od -2125
버트 -2126
▁다만 -2127
▁사이트 -2128
▁여객 -2129
▁캐릭터 -2130
▁죽음 -2131
▁서울특별시 -2132
▁나타나 -2133
▁지난 -2134
▁하루 -2135
▁단어 -2136
사카 -2137
▁해안 -2138
▁186 -2139
▁지하철 -2140
▁윈도 -2141
주시 -2142
▁", -2143
▁파견 -2144
ve -2145
▁렌 -2146
▁세상 -2147
▁연장 -2148
▁통하 -2149
▁수많 -2150
▁주 -2151
질 -2152
니스 -2153
워크 -2154
▁카이 -2155
▁삶 -2156
▁죄 -2157
▁순위 -2158
▁혜 -2159
▁겪 -2160
as -2161
▁공장 -2162
▁투자 -2163
▁코드 -2164
▁제기 -2165
▁혐 -2166
▁감소 -2167
나이 -2168
▁본부 -2169
▁전시 -2170
▁뮤직 -2171
▁내각 -2172
▁다카 -2173
▁오스트레일리아 -2174
▁근거 -2175
▁확대 -2176
▁후기 -2177
일 -2178
▁경상남도 -2179
지션 -2180
▁번역 -2181
▁생성 -2182
▁케이 -2183
소년 -2184
▁ᄍ -2185
▁윌리엄 -2186
▁옹 -2187
▁귀족 -2188
▁? -2189
▁떠 -2190
▁인지 -2191
▁지상 -2192
▁경상북도 -2193
▁위기 -2194
▁지식 -2195
▁네트 -2196
▁보유 -2197
▁나타내 -2198
▁달성 -2199
▁태평 -2200
▁치러 -2201
▁보존 -2202
▁싸 -2203
▁균 -2204
▁양식 -2205
▁유형 -2206
▁바꾸 -2207
무원 -2208
▁관광 -2209
▁1988 -2210
▁동생 -2211
▁상징 -2212
▁세웠 -2213
▁멜 -2214
▁전략 -2215
▁촬 -2216
▁유대 -2217
▁케 -2218
▁187 -2219
▁h -2220
▁수사 -2221
▁멕시코 -2222
▁극장 -2223
▁당선 -2224
▁보내 -2225
▁완성 -2226
▁성립 -2227
▁유리 -2228
▁캘 -2229
▁내려 -2230
▁영상 -2231
▁상업 -2232
▁원소 -2233
▁촌 -2234
▁대응 -2235
▁근무 -2236
▁학위 -2237
▁이렇게 -2238
▁디지털 -2239
▁보였 -2240
▁굴 -2241
▁님 -2242
▁특수 -2243
▁계승 -2244
▁촬영 -2245
▁34 -2246
티아 -2247
▁단위 -2248
▁체포 -2249
▁이슬 -2250
▁올리 -2251
▁그렇 -2252
▁옆 -2253
▁나중 -2254
▁수비 -2255
▁어려 -2256
▁권리 -2257
▁38 -2258
▁식민지 -2259
▁따른 -2260
▁몇몇 -2261
▁체결 -2262
▁코치 -2263
▁전달 -2264
▁미래 -2265
▁이집 -2266
▁보내 -2267
▁이집트 -2268
회사 -2269
가리 -2270
id -2271
▁생명 -2272
▁마사 -2273
▁뛰어 -2274
▁알렉산 -2275
▁듀 -2276
▁판단 -2277
▁90 -2278
▁타이틀 -2279
아시아 -2280
▁으므로 -2281
▁시티 -2282
▁국왕 -2283
▁아내 -2284
▁종목 -2285
▁직후 -2286
▁맹 -2287
▁헨 -2288
가와 -2289
▁싶 -2290
▁관찰 -2291
▁이라고 -2292
▁승격 -2293
▁1989 -2294
▁시청 -2295
▁크로 -2296
▁이주 -2297
▁톤 -2298
▁률 -2299
▁자본 -2300
▁측정 -2301
▁깨 -2302
▁주식 -2303
▁젊 -2304
▁미군 -2305
▁대륙 -2306
모리 -2307
▁소수 -2308
▁개통 -2309
▁낳 -2310
▁전환 -2311
▁다루 -2312
▁도서관 -2313
▁2021 -2314
▁48 -2315
ec -2316
▁설정 -2317
▁채널 -2318
▁밑 -2319
▁엘리 -2320
▁동계 -2321
▁세르 -2322
▁대로 -2323
us -2324
▁라인 -2325
▁스키 -2326
▁얼마 -2327
간 -2328
▁새로 -2329
▁의견 -2330
▁', -2331
▁특성 -2332
▁홍콩 -2333
▁발매되 -2334
▁정치인 -2335
▁납 -2336
NA -2337
▁개정 -2338
▁시위 -2339
▁문화재 -2340
and -2341
▁부른다 -2342
▁포르투 -2343
▁종료 -2344
▁신경 -2345
▁텍 -2346
▁지위 -2347
▁넘 -2348
▁취임 -2349
▁제정 -2350
▁미사일 -2351
이 -2352
▁1950 -2353
▁| -2354
▁기획 -2355
▁아서 -2356
▁은하 -2357
▁교체 -2358
▁300 -2359
▁사회주의 -2360
▁가리킨다 -2361
▁헝 -2362
▁결승전 -2363
디아 -2364
▁후쿠 -2365
▁MBC -2366
▁주인공 -2367
스티 -2368
▁본관 -2369
▁예수 -2370
▁천황 -2371
▁범죄 -2372
▁청년 -2373
▁주목 -2374
코드 -2375
▁전차 -2376
▁뿐 -2377
▁못한 -2378
▁소개 -2379
▁출생 -2380
▁해외 -2381
▁충돌 -2382
ad -2383
▁장기 -2384
▁제임스 -2385
▁녹음 -2386
▁셀 -2387
▁강한 -2388
▁수정 -2389
▁아키 -2390
▁e -2391
▁춘 -2392
▁비용 -2393
▁계산 -2394
▁개선 -2395
교회 -2396
▁스티 -2397
날 -2398
▁전라남도 -2399
전히 -2400
▁본래 -2401
▁1945 -2402
▁바이러스 -2403
▁음식 -2404
▁남북 -2405
▁즉위 -2406
▁햐 -2407
▁보냈 -2408
▁계기 -2409
▁비밀 -2410
▁자격 -2411
▁합류 -2412
리학 -2413
▁져 -2414
▁공부 -2415
▁소장 -2416
▁건강 -2417
▁공급 -2418
▁어린 -2419
▁카운 -2420
▁이래 -2421
▁부모 -2422
ent -2423
▁늘 -2424
▁만드 -2425
▁펠 -2426
▁원정 -2427
▁홈런 -2428
▁배경 -2429
▁제거 -2430
▁물론 -2431
▁네트워크 -2432
스카 -2433
▁체육 -2434
▁에드 -2435
▁떨어진 -2436
▁궤도 -2437
간다 -2438
50 -2439
▁오후 -2440
▁각종 -2441
▁거대 -2442
▁옮겨 -2443
▁인근 -2444
▁으면서 -2445
▁시내 -2446
▁컬 -2447
▁셰 -2448
▁듣 -2449
▁작성 -2450
ᅯᆻ -2451
▁명예 -2452
▁자원 -2453
▁집중 -2454
▁신학 -2455
▁입학 -2456
▁감염 -2457
▁가입 -2458
▁가격 -2459
▁공군 -2460
▁왼 -2461
▁피아 -2462
▁베네 -2463
▁객 -2464
▁국경 -2465
▁군인 -2466
▁가리키 -2467
▁전사 -2468
▁병력 -2469
베르 -2470
▁준다 -2471
▁썼 -2472
▁끌 -2473
▁천문 -2474
▁강조 -2475
▁저항 -2476
▁머 -2477
▁갖ᄎ -2478
▁나누 -2479
▁통제 -2480
▁성우 -2481
▁이슬람 -2482
티나 -2483
▁측면 -2484
▁울산 -2485
▁명단 -2486
▁농업 -2487
▁일어난 -2488
ᆮ아 -2489
▁신호 -2490
피아 -2491
▁소송 -2492
▁찰 -2493
▁포지션 -2494
ᅳ러운 -2495
▁앞 -2496
니어 -2497
▁가까운 -2498
▁인수 -2499
▁준 -2500
▁바ᄁ -2501
▁병사 -2502
▁만약 -2503
▁세이 -2504
▁움직 -2505
▁학문 -2506
▁기후 -2507
▁메 -2508
리포 -2509
▁마치 -2510
▁이번 -2511
▁블랙 -2512
▁질량 -2513
▁너무 -2514
▁실행 -2515
▁기회 -2516
▁St -2517
▁플로 -2518
▁이루어져 -2519
▁터미 -2520
▁콩 -2521
ot -2522
▁오른 -2523
▁누 -2524
▁가져 -2525
▁터키 -2526
도로 -2527
▁변호 -2528
▁최소 -2529
▁겨울 -2530
▁증명 -2531
▁약간 -2532
▁강원도 -2533
▁광고 -2534
▁정착 -2535
너 -2536
혀 -2537
▁노동자 -2538
▁엑 -2539
▁비트 -2540
▁읽 -2541
동안 -2542
▁x -2543
거 -2544
▁무장 -2545
▁외부 -2546
▁잎 -2547
▁해방 -2548
▁펼 -2549
▁마리아 -2550
▁아우 -2551
▁미디어 -2552
un -2553
▁가졌 -2554
▁환자 -2555
▁몽골 -2556
▁37 -2557
▁다니 -2558
▁놀 -2559
▁국방 -2560
▁전반 -2561
▁들어가 -2562
ow -2563
▁편집 -2564
▁냉 -2565
▁제목 -2566
▁마쓰 -2567
▁in -2568
▁나왔 -2569
▁도중 -2570
▁인한 -2571
▁바람 -2572
▁터미널 -2573
▁태평양 -2574
▁무렵 -2575
▁표면 -2576
▁마련 -2577
▁허용 -2578
스키 -2579
▁지점 -2580
▁금융 -2581
철도 -2582
▁라운드 -2583
▁혐의 -2584
▁충분 -2585
▁재산 -2586
▁밀도 -2587
▁가스 -2588
▁만나 -2589
▁유도 -2590
▁1987 -2591
▁카르 -2592
▁여전히 -2593
소리 -2594
오카 -2595
▁힐 -2596
마 -2597
▁그해 -2598
▁짓 -2599
▁쇠 -2600
▁학년 -2601
름 -2602
▁루이 -2603
ᆽ아 -2604
▁벌 -2605
▁인디 -2606
▁합병 -2607
▁고전 -2608
를 -2609
▁가르 -2610
▁모리 -2611
▁갖추 -2612
▁시킨 -2613
▁전력 -2614
▁현실 -2615
▁래 -2616
▁민간 -2617
▁윈도우 -2618
▁헝가리 -2619
▁뒷 -2620
▁숲 -2621
▁재직 -2622
▁오사카 -2623
▁꼬리 -2624
▁전역 -2625
▁충청남도 -2626
▁양성 -2627
▁킹 -2628
▁등급 -2629
▁41 -2630
▁재정 -2631
▁포르투갈 -2632
▁영화배우 -2633
▁w -2634
마크 -2635
▁붕괴 -2636
▁적극 -2637
▁령 -2638
▁계급 -2639
▁선수단 -2640
드로 -2641
▁동료 -2642
▁지내 -2643
▁51 -2644
▁라이브 -2645
▁강제 -2646
▁위협 -2647
▁보고 -2648
▁공주 -2649
▁인하 -2650
▁1986 -2651
▁공공 -2652
▁리 -2653
▁엔터 -2654
▁조치 -2655
▁대대 -2656
▁위원장 -2657
▁이하 -2658
ur -2659
▁조 -2660
▁1984 -2661
▁근대 -2662
▁승인 -2663
▁온도 -2664
▁스튜디오 -2665
▁털 -2666
▁군주 -2667
▁봄 -2668
▁전선 -2669
▁캘리포 -2670
릴 -2671
▁유엔 -2672
▁롤 -2673
▁수입 -2674
▁구축 -2675
▁이미지 -2676
▁받아 -2677
▁상하 -2678
▁범위 -2679
▁점차 -2680
▁전하 -2681
▁대수 -2682
▁샌 -2683
▁논문 -2684
▁원칙 -2685
▁클라 -2686
▁임무 -2687
▁나온 -2688
▁불린다 -2689
▁받아들 -2690
▁오리 -2691
▁업체 -2692
▁확보 -2693
▁항상 -2694
▁출발 -2695
요 -2696
▁경력 -2697
▁위성 -2698
▁다섯 -2699
▁미치 -2700
▁공산당 -2701
▁거래 -2702
▁전개 -2703
▁양자 -2704
▁교사 -2705
▁회복 -2706
▁잭 -2707
▁대학원 -2708
▁캘리포니아 -2709
▁채택 -2710
▁고구 -2711
▁후지 -2712
▁수단 -2713
▁성인 -2714
▁증거 -2715
▁공업 -2716
마스 -2717
▁수립 -2718
▁토론 -2719
▁핀란드 -2720
▁섭 -2721
▁필리핀 -2722
▁찾아 -2723
▁강의 -2724
▁잡지 -2725
주교 -2726
테르 -2727
▁첨 -2728
▁합의 -2729
▁아시안 -2730
▁드래 -2731
▁그래서 -2732
ch -2733
▁남아 -2734
▁39 -2735
▁제 -2736
▁얼굴 -2737
▁남편 -2738
▁부근 -2739
▁만족 -2740
▁사례 -2741
▁스파 -2742
▁개편 -2743
▁400 -2744
▁냈 -2745
▁의료 -2746
▁일원 -2747
▁선생 -2748
바이 -2749
▁라며 -2750
▁매년 -2751
▁폭발 -2752
▁꿈 -2753
▁기지 -2754
▁됨 -2755
▁시인 -2756
▁나카 -2757
고리 -2758
▁선 -2759
▁답 -2760
▁이스라 -2761
▁이승 -2762
▁간주 -2763
▁스위스 -2764
▁장면 -2765
▁1985 -2766
▁모스크 -2767
▁대형 -2768
▁장비 -2769
▁64 -2770
▁군단 -2771
▁종종 -2772
▁토지 -2773
로드 -2774
▁욕 -2775
▁대기 -2776
▁불가 -2777
▁스리 -2778
▁끼 -2779
▁아주 -2780
▁붉 -2781
데미 -2782
▁경향 -2783
▁규칙 -2784
ay -2785
▁띠 -2786
▁이스라엘 -2787
▁롭 -2788
▁경주 -2789
▁분자 -2790
▁어린 -2791
ir -2792
▁벌어 -2793
▁주어 -2794
▁수원 -2795
▁종이 -2796
▁게이 -2797
키아 -2798
▁알리 -2799
▁항성 -2800
▁캄 -2801
▁그려 -2802
▁버리 -2803
ut -2804
▁조합 -2805
▁II -2806
▁꾸 -2807
▁열렸 -2808
▁확실 -2809
▁낭 -2810
▁진화 -2811
▁기억 -2812
▁불렀 -2813
▁에게서 -2814
▁아랍 -2815
▁이제 -2816
▁그곳 -2817
백질 -2818
▁일어났 -2819
울 -2820
▁귀국 -2821
▁해체 -2822
▁쉬 -2823
▁탑재 -2824
▁기대 -2825
레이드 -2826
▁43 -2827
▁향상 -2828
▁레코드 -2829
고기 -2830
우드 -2831
um -2832
▁대장 -2833
▁좀 -2834
▁강점 -2835
▁서양 -2836
▁장식 -2837
▁짐 -2838
▁세우 -2839
▁아카데미 -2840
▁스피 -2841
▁br -2842
▁어떻 -2843
▁평양 -2844
▁신화 -2845
▁투어 -2846
▁클래 -2847
▁아나 -2848
▁해도 -2849
▁보장 -2850
▁침공 -2851
▁틀 -2852
▁아메리카 -2853
ᅳᆯ어 -2854
▁만큼 -2855
▁란 -2856
▁융 -2857
▁불과 -2858
▁고양 -2859
im -2860
▁청나라 -2861
▁청소년 -2862
▁의학 -2863
▁42 -2864
▁폼 -2865
▁선고 -2866
갈 -2867
▁떨어져 -2868
▁감정 -2869
▁박쥐 -2870
요시 -2871
▁랭 -2872
▁가사 -2873
▁자금 -2874
▁사후 -2875
▁고구려 -2876
▁켄 -2877
오스 -2878
보드 -2879
▁성과 -2880
▁보병 -2881
▁잠시 -2882
▁남동 -2883
▁메이저 -2884
▁카운티 -2885
라도 -2886
▁스타일 -2887
▁에피 -2888
네스 -2889
▁카메 -2890
▁독자 -2891
▁빠르 -2892
▁이끄 -2893
ver -2894
▁고문 -2895
▁소년 -2896
▁우선 -2897
▁신설 -2898
라비아 -2899
▁세운 -2900
▁나치 -2901
▁55 -2902
▁확정 -2903
라노 -2904
▁단지 -2905
▁살해 -2906
▁1982 -2907
▁만주 -2908
▁맛 -2909
▁살 -2910
▁중화민국 -2911
타인 -2912
▁단백질 -2913
▁우수 -2914
▁모르 -2915
▁숭 -2916
에르 -2917
▁라틴 -2918
▁통한 -2919
▁지시 -2920
▁스카 -2921
▁편입 -2922
▁신앙 -2923
▁따라서 -2924
▁의해서 -2925
틀랜드 -2926
▁함대 -2927
▁복잡 -2928
▁알려졌 -2929
▁스케 -2930
섰 -2931
▁나폴 -2932
▁태풍 -2933
▁철도역 -2934
▁비율 -2935
▁예상 -2936
▁광역시 -2937
▁차별 -2938
네시아 -2939
▁왕위 -2940
▁구체 -2941
▁검찰 -2942
▁44 -2943
▁삭 -2944
▁의장 -2945
▁갖춘 -2946
누스 -2947
▁마크 -2948
▁전화 -2949
▁1983 -2950
▁덴마크 -2951
다이 -2952
▁재단 -2953
▁당한 -2954
▁뛰어난 -2955
▁창설 -2956
▁대립 -2957
▁고향 -2958
란 -2959
▁i -2960
▁세종 -2961
▁판결 -2962
▁법인 -2963
▁동의 -2964
▁LG -2965
▁성당 -2966
▁역대 -2967
▁온라인 -2968
일러 -2969
▁쓰인다 -2970
▁공유 -2971
▁모아 -2972
▁나뉘 -2973
▁태어난 -2974
▁전설 -2975
FC -2976
트라 -2977
▁이루어진 -2978
▁참석 -2979
▁수출 -2980
▁브리 -2981
▁시킬 -2982
▁솔로 -2983
▁보급 -2984
▁선거구 -2985
▁반도 -2986
▁47 -2987
▁육상 -2988
하라 -2989
▁킬 -2990
▁하늘 -2991
▁그린 -2992
▁브랜드 -2993
▁삼국 -2994
▁나와 -2995
▁냐 -2996
운동 -2997
▁이루어지 -2998
▁유학 -2999
싱턴 -3000
▁올렸 -3001
▁했었 -3002
▁합 -3003
없이 -3004
▁고정 -3005
▁노예 -3006
▁집행 -3007
온다 -3008
의회 -3009
▁핵심 -3010
▁협상 -3011
이크 -3012
▁본격 -3013
▁저장 -3014
▁후손 -3015
비드 -3016
▁카를 -3017
▁듯 -3018
▁애플 -3019
반도 -3020
오프 -3021
▁75 -3022
▁배 -3023
▁보안 -3024
▁탄생 -3025
▁초반 -3026
▁자세 -3027
을 -3028
▁앞두 -3029
▁네 -3030
▁180 -3031
▁184 -3032
▁대비 -3033
▁오픈 -3034
▁강점기 -3035
▁중반 -3036
▁산맥 -3037
▁사전 -3038
▁주교 -3039
▁대항 -3040
▁Z -3041
▁마드리 -3042
▁암살 -3043
▁옷 -3044
▁이성 -3045
▁지나 -3046
▁회전 -3047
▁아르헨 -3048
▁사라 -3049
▁사우 -3050
▁전혀 -3051
▁숫 -3052
▁까 -3053
원군 -3054
▁지키 -3055
셔널 -3056
▁연고 -3057
각형 -3058
어들 -3059
▁시킨다 -3060
문화 -3061
▁1972 -3062
▁의무 -3063
▁로버트 -3064
▁플랫 -3065
▁권한 -3066
▁베이스 -3067
▁마드리드 -3068
▁헤이 -3069
▁이익 -3070
▁법칙 -3071
▁어린이 -3072
리스트 -3073
▁단일 -3074
▁프란 -3075
▁공기 -3076
▁켈 -3077
▁직원 -3078
▁아르헨티나 -3079
▁전용 -3080
▁조금 -3081
▁46 -3082
▁인상 -3083
소드 -3084
▁공학 -3085
▁이란 -3086
으키 -3087
▁1920 -3088
▁순서 -3089
▁말기 -3090
▁떨 -3091
▁베를 -3092
▁운전 -3093
▁시각 -3094
▁나타내 -3095
터리 -3096
레이션 -3097
▁요한 -3098
▁라면 -3099
▁공포 -3100
▁사항 -3101
▁파 -3102
▁비난 -3103
▁유적 -3104
▁잘못 -3105
▁수여 -3106
▁별도 -3107
▁빨 -3108
▁중심지 -3109
▁아스 -3110
▁1979 -3111
▁에선 -3112
▁둔 -3113
CA -3114
▁퍼 -3115
▁보조 -3116
▁을 -3117
▁협정 -3118
▁상품 -3119
▁아미 -3120
▁흔히 -3121
▁스크 -3122
▁변호사 -3123
▁드러 -3124
▁전라북도 -3125
▁창조 -3126
▁원주 -3127
▁효소 -3128
▁워싱턴 -3129
▁글로 -3130
▁아파 -3131
▁전후 -3132
▁롯 -3133
▁인권 -3134
▁관료 -3135
▁쌓 -3136
▁kg -3137
정부 -3138
▁CD -3139
▁투입 -3140
▁통계 -3141
▁파크 -3142
▁느ᄁ -3143
▁작곡가 -3144
▁장착 -3145
▁방면 -3146
▁소식 -3147
퍼드 -3148
▁튀 -3149
ra -3150
▁1930 -3151
▁우크 -3152
▁심각 -3153
▁현장 -3154
▁레드 -3155
▁셋 -3156
▁놓 -3157
▁타 -3158
▁정복 -3159
▁드러 -3160
▁갈등 -3161
▁저서 -3162
▁항복 -3163
▁훨 -3164
▁In -3165
▁엠 -3166
▁오히 -3167
▁1981 -3168
▁금메달 -3169
▁듯 -3170
▁키 -3171
▁150 -3172
▁아침 -3173
▁1973 -3174
▁하드 -3175
무라 -3176
▁본인 -3177
▁중세 -3178
▁텐 -3179
▁강하 -3180
▁죽 -3181
▁어떻게 -3182
▁헨리 -3183
▁호텔 -3184
▁공무원 -3185
퍼스 -3186
▁숨 -3187
▁출마 -3188
10 -3189
사키 -3190
▁니콜 -3191
▁훨씬 -3192
리어 -3193
▁공산주의 -3194
▁교류 -3195
▁벡 -3196
▁v -3197
▁공화 -3198
▁마이클 -3199
▁논의 -3200
▁성경 -3201
▁요새 -3202
▁건국 -3203
▁교토 -3204
▁오랜 -3205
▁오른쪽 -3206
▁노스 -3207
▁무리 -3208
os -3209
▁중부 -3210
▁건조 -3211
▁유전자 -3212
▁인류 -3213
▁코미 -3214
▁김정 -3215
▁접 -3216
ᅳᆯ러 -3217
▁한때 -3218
▁플라 -3219
▁산하 -3220
▁오토 -3221
▁연합군 -3222
▁인정받 -3223
▁빙 -3224
▁방출 -3225
▁플레이어 -3226
▁세인트 -3227
▁예산 -3228
▁왼쪽 -3229
▁추측 -3230
▁끊 -3231
▁로드 -3232
▁금속 -3233
▁서기 -3234
▁창립 -3235
▁성질 -3236
30 -3237
▁주위 -3238
▁1940 -3239
▁투쟁 -3240
▁에어 -3241
▁베이징 -3242
일보 -3243
▁사태 -3244
▁태국 -3245
▁원작 -3246
▁릴 -3247
▁오전 -3248
▁일으키 -3249
▁1974 -3250
▁185 -3251
▁사령관 -3252
▁형사 -3253
BO -3254
▁열리 -3255
▁절대 -3256
▁노르웨이 -3257
▁북서 -3258
▁에피소드 -3259
em -3260
▁제자 -3261
▁코스 -3262
▁복합 -3263
▁플레이오프 -3264
▁내렸 -3265
ter -3266
▁벼 -3267
▁군수 -3268
▁멸망 -3269
▁운용 -3270
▁효율 -3271
▁반복 -3272
▁논쟁 -3273
▁제출 -3274
▁모스크바 -3275
▁빈 -3276
▁집안 -3277
▁구별 -3278
▁스코틀랜드 -3279
▁메시 -3280
린다 -3281
▁오히려 -3282
▁SBS -3283
▁정비 -3284
▁입자 -3285
카와 -3286
▁해양 -3287
▁합성 -3288
▁포위 -3289
▁전철 -3290
▁마침 -3291
▁인공 -3292
▁해상 -3293
▁1948 -3294
▁중대 -3295
▁사법 -3296
▁숫자 -3297
▁노부 -3298
▁진다 -3299
▁거절 -3300
▁이어지 -3301
▁미니 -3302
▁인종 -3303
▁흡수 -3304
▁탁 -3305
듀서 -3306
▁프로듀서 -3307
▁주기 -3308
▁출장 -3309
▁블루 -3310
▁54 -3311
▁연산 -3312
▁델 -3313
▁원리 -3314
머스 -3315
▁연관 -3316
▁인조 -3317
▁시점 -3318
▁1968 -3319
▁댄 -3320
▁각본 -3321
▁활발 -3322
▁델 -3323
▁목사 -3324
라크 -3325
▁포기 -3326
▁1976 -3327
▁불렸 -3328
▁웨스트 -3329
▁수송 -3330
▁슬로 -3331
▁베를린 -3332
▁인터뷰 -3333
▁둘러 -3334
▁소녀 -3335
도르 -3336
ᆷᄎ -3337
▁신체 -3338
▁개시 -3339
▁밖 -3340
▁이민 -3341
▁밖에 -3342
다리 -3343
▁다ᄅ -3344
▁붙여 -3345
▁경성 -3346
▁북동 -3347
▁지니 -3348
▁취급 -3349
▁우스 -3350
▁주전 -3351
▁들어갔 -3352
▁가로 -3353
▁출입 -3354
▁전공 -3355
▁건립 -3356
▁보스 -3357
▁1975 -3358
▁파라 -3359
▁통해서 -3360
▁고용 -3361
▁명성 -3362
▁분쟁 -3363
▁읍 -3364
시스 -3365
▁동원 -3366
▁빼 -3367
▁디스 -3368
▁음력 -3369
▁어렵 -3370
데스 -3371
▁주택 -3372
▁사령부 -3373
▁히데 -3374
▁취득 -3375
op -3376
나이티 -3377
▁장악 -3378
름다 -3379
▁아름다 -3380
▁구속 -3381
▁비록 -3382
▁죽이 -3383
▁축제 -3384
▁트랙 -3385
▁지ᄏ -3386
▁진보 -3387
▁활성 -3388
▁유나이티 -3389
▁신성 -3390
▁프라 -3391
▁국도 -3392
▁다ᄂ -3393
▁생기 -3394
▁농민 -3395
▁라도 -3396
▁영화제 -3397
▁일치 -3398
▁견해 -3399
▁전부 -3400
▁보컬 -3401
▁56 -3402
▁1978 -3403
서트 -3404
▁1971 -3405
▁총독 -3406
▁국장 -3407
▁미드 -3408
▁하나님 -3409
▁갤 -3410
▁불법 -3411
▁건너 -3412
ag -3413
▁고유 -3414
▁부활 -3415
▁1963 -3416
▁유물 -3417
▁직전 -3418
▁소스 -3419
▁더라도 -3420
▁52 -3421
산시 -3422
에트 -3423
▁보험 -3424
▁속한다 -3425
▁관점 -3426
▁북아 -3427
▁해졌 -3428
▁49 -3429
▁후원 -3430
▁편지 -3431
▁폭력 -3432
▁정체 -3433
▁약속 -3434
▁도달 -3435
▁이기 -3436
▁자이 -3437
키스탄 -3438
▁상당히 -3439
▁하위 -3440
▁65 -3441
▁혼란 -3442
쿠라 -3443
▁떠나 -3444
▁대리 -3445
▁코미디 -3446
▁주관 -3447
▁한자 -3448
▁연료 -3449
▁교차 -3450
▁학습 -3451
▁항공기 -3452
▁철수 -3453
▁포도 -3454
▁타이완 -3455
▁지낸 -3456
▁수술 -3457
▁그리스도 -3458
▁시리아 -3459
▁닌 -3460
▁직업 -3461
▁일으켰 -3462
ce -3463
▁여부 -3464
세이 -3465
▁1969 -3466
▁여객철도 -3467
▁반영 -3468
메리 -3469
▁아테 -3470
▁취하 -3471
▁임금 -3472
▁선교 -3473
▁관직 -3474
▁둥 -3475
자기 -3476
▁179 -3477
릭스 -3478
▁천체 -3479
▁Q -3480
▁다며 -3481
▁고종 -3482
▁브레 -3483
▁무엇 -3484
▁한국어 -3485
기에 -3486
▁팝 -3487
▁상륙 -3488
젤레스 -3489
리케 -3490
▁명명 -3491
▁백제 -3492
▁앤 -3493
▁겨 -3494
▁수집 -3495
▁떠났 -3496
▁성능 -3497
▁논리 -3498
▁의존 -3499
▁장교 -3500
▁00 -3501
▁제어 -3502
▁본사 -3503
▁대화 -3504
▁넷 -3505
▁내리 -3506
▁주간 -3507
▁미나 -3508
▁심리 -3509
▁테러 -3510
▁부임 -3511
▁데이비드 -3512
아내 -3513
▁교환 -3514
▁1946 -3515
▁예비 -3516
▁보관 -3517
▁십자 -3518
▁화물 -3519
▁판서 -3520
▁백작 -3521
▁일대 -3522
▁프리미 -3523
▁학술 -3524
▁그런데 -3525
▁영업 -3526
▁톰 -3527
▁콘서트 -3528
▁아사 -3529
▁스미 -3530
▁정지 -3531
▁해산 -3532
▁개체 -3533
준다 -3534
▁주식회사 -3535
▁도구 -3536
▁폴리 -3537
공항 -3538
▁허가 -3539
▁53 -3540
▁불상 -3541
▁소방 -3542
▁스마 -3543
OS -3544
▁전파 -3545
▁로운 -3546
▁상승 -3547
▁자살 -3548
▁낸 -3549
▁전문가 -3550
▁반발 -3551
▁하우스 -3552
▁연재 -3553
▁프로세 -3554
우 -3555
▁박정 -3556
▁제일 -3557
이어 -3558
▁거기 -3559
▁접하 -3560
▁빠른 -3561
▁방사 -3562
▁안타 -3563
▁영향력 -3564
▁진입 -3565
▁핑 -3566
▁코로나 -3567
미터 -3568
▁살인 -3569
▁1964 -3570
oc -3571
▁대략 -3572
▁김영 -3573
프리 -3574
병대 -3575
▁간단 -3576
▁정원 -3577
▁헤르 -3578
▁공통 -3579
▁화성 -3580
▁니시 -3581
▁리스 -3582
▁영입 -3583
▁충청북도 -3584
▁베스트 -3585
▁보건 -3586
▁재료 -3587
뿌리 -3588
▁신분 -3589
▁미터 -3590
▁학부 -3591
▁피아노 -3592
▁바라 -3593
▁US -3594
▁소비에트 -3595
▁겐 -3596
▁승진 -3597
▁사장 -3598
▁파트 -3599
▁항구 -3600
▁벨기에 -3601
▁가을 -3602
▁포트 -3603
▁꼭 -3604
▁외국인 -3605
▁부장 -3606
▁학원 -3607
▁서버 -3608
▁99 -3609
▁한반도 -3610
▁그레 -3611
▁기도 -3612
▁and -3613
노스 -3614
▁발언 -3615
▁지붕 -3616
▁국제공항 -3617
▁진압 -3618
▁58 -3619
▁1000 -3620
▁고리 -3621
▁스프 -3622
ri -3623
▁아야 -3624
▁사운드 -3625
▁인도네시아 -3626
▁학회 -3627
▁탈락 -3628
어스 -3629
▁감사 -3630
▁저지 -3631
▁질병 -3632
▁거ᄃ -3633
▁현역 -3634
▁레 -3635
▁탈출 -3636
▁횡 -3637
▁랜 -3638
▁구성원 -3639
▁시호 -3640
▁주년 -3641
▁채용 -3642
▁루이스 -3643
▁아라 -3644
▁의도 -3645
하마 -3646
▁리더 -3647
▁스토 -3648
▁신청 -3649
▁참전 -3650
▁브루 -3651
▁창단 -3652
▁콤 -3653
▁식품 -3654
▁공동체 -3655
▁통상 -3656
▁트랜 -3657
▁찍 -3658
다가 -3659
▁합격 -3660
▁픽 -3661
아들 -3662
▁복무 -3663
▁들어가 -3664
▁PC -3665
▁계통 -3666
천군 -3667
▁장수 -3668
▁임대 -3669
▁응용 -3670
▁1977 -3671
▁모드 -3672
▁스러운 -3673
▁벼 -3674
▁변환 -3675
저우 -3676
아버지 -3677
▁고도 -3678
▁망명 -3679
▁조작 -3680
▁위반 -3681
▁포로 -3682
▁SK -3683
▁요코 -3684
▁작사 -3685
▁임의 -3686
▁민법 -3687
▁문헌 -3688
▁롯데 -3689
▁1949 -3690
▁말레이 -3691
▁친일 -3692
▁화면 -3693
▁마케 -3694
▁페이 -3695
▁.. -3696
▁흐르 -3697
▁트라 -3698
▁청구 -3699
ᆯ릴 -3700
▁동남 -3701
▁부부 -3702
성군 -3703
▁문장 -3704
▁피 -3705
▁절차 -3706
▁로스앤 -3707
▁로스앤젤레스 -3708
▁방송국 -3709
▁라이트 -3710
▁FA -3711
igh -3712
▁요인 -3713
▁에도 -3714
▁이치 -3715
려움 -3716
▁저작 -3717
▁분열 -3718
▁신인 -3719
▁탄소 -3720
▁예측 -3721
▁트로 -3722
▁이뤄 -3723
▁학과 -3724
▁배출 -3725
▁변형 -3726
▁수영 -3727
▁지급 -3728
▁누구 -3729
▁연출 -3730
▁1962 -3731
문화재 -3732
▁88 -3733
▁선조 -3734
드시 -3735
▁캠퍼스 -3736
▁보낸 -3737
▁상원 -3738
▁엑스 -3739
▁주둔 -3740
▁레오 -3741
▁조절 -3742
정식 -3743
▁수소 -3744
▁자녀 -3745
▁선전 -3746
▁기하 -3747
▁시카 -3748
▁택 -3749
▁62 -3750
ation -3751
▁전동 -3752
▁코파 -3753
▁이중 -3754
▁메모리 -3755
▁심 -3756
▁1967 -3757
▁레스 -3758
▁국무 -3759
▁출간 -3760
▁큐 -3761
▁막부 -3762
▁앞서 -3763
▁좁 -3764
▁요 -3765
▁광장 -3766
▁정기 -3767
▁처형 -3768
▁스럽 -3769
타르 -3770
▁수리 -3771
▁기호 -3772
▁화재 -3773
▁태어났으며 -3774
▁이승만 -3775
크스 -3776
▁실수 -3777
▁황금 -3778
▁콘스탄 -3779
▁맞 -3780
로그 -3781
▁취소 -3782
페라 -3783
▁방지 -3784
▁서원 -3785
천시 -3786
카이도 -3787
▁로켓 -3788
▁어떠 -3789
▁r -3790
▁생존 -3791
▁기법 -3792
▁달하 -3793
▁장르 -3794
▁오스만 -3795
ᅱᆫ다 -3796
▁57 -3797
▁는가 -3798
▁호수 -3799
▁You -3800
▁남서 -3801
▁서구 -3802
▁이시 -3803
▁증상 -3804
▁왕자 -3805
▁흑인 -3806
▁카메라 -3807
▁동작 -3808
▁동성 -3809
▁앵 -3810
▁흉 -3811
ᆼ해졌 -3812
▁연안 -3813
▁현지 -3814
▁남겼 -3815
라드 -3816
브리 -3817
▁개조 -3818
▁루트 -3819
▁반드시 -3820
▁나갔 -3821
▁히트 -3822
▁롱 -3823
▁등지 -3824
▁제대로 -3825
바르 -3826
▁나타났 -3827
▁고지 -3828
▁Ch -3829
▁좌우 -3830
▁위상 -3831
포르 -3832
▁기체 -3833
아오 -3834
▁농구 -3835
▁여단 -3836
▁희망 -3837
▁전주 -3838
▁갈 -3839
▁무덤 -3840
▁톱 -3841
▁분명 -3842
▁공정 -3843
▁임진 -3844
▁도전 -3845
▁싸움 -3846
▁크리 -3847
▁된다는 -3848
▁입니다 -3849
▁천연 -3850
▁일본군 -3851
▁진주 -3852
길 -3853
무 -3854
비치 -3855
▁181 -3856
▁전면 -3857
▁치렀 -3858
▁파악 -3859
▁랑 -3860
▁터널 -3861
▁동아 -3862
▁우 -3863
▁압력 -3864
▁둘째 -3865
▁코르 -3866
▁전형 -3867
ᆯ렀 -3868
▁푸 -3869
▁짜 -3870
▁독특 -3871
▁1966 -3872
nd -3873
▁해리 -3874
▁스탠 -3875
▁특이 -3876
▁목소리 -3877
방송 -3878
▁이온 -3879
▁66 -3880
라이언 -3881
▁그레이 -3882
▁%, -3883
▁리처 -3884
▁녹색 -3885
▁미국인 -3886
▁매일 -3887
▁법정 -3888
▁경로 -3889
▁인가 -3890
▁성향 -3891
▁글자 -3892
▁모여 -3893
▁물체 -3894
▁에르 -3895
▁독립운동 -3896
▁동기 -3897
▁타임 -3898
▁1965 -3899
에이 -3900
▁이룬다 -3901
▁노벨 -3902
▁바둑 -3903
▁취 -3904
바라 -3905
▁부사 -3906
▁인지 -3907
▁68 -3908
▁신뢰 -3909
▁아프 -3910
▁유기 -3911
▁방정식 -3912
▁돌아가 -3913
▁뿌리 -3914
▁KBO -3915
▁183 -3916
더스 -3917
▁체코 -3918
티브 -3919
베스 -3920
▁즐 -3921
▁처벌 -3922
▁클레 -3923
▁개신 -3924
▁추구 -3925
▁알렉산드 -3926
치아 -3927
▁방해 -3928
▁나타난다 -3929
▁실질 -3930
세 -3931
▁61 -3932
▁밥 -3933
▁분해 -3934
ST -3935
▁나들 -3936
▁지리 -3937
▁타격 -3938
▁유행 -3939
▁일찍 -3940
▁일식 -3941
▁김일 -3942
▁봐 -3943
▁싸우 -3944
▁퀸 -3945
▁완료 -3946
▁간행 -3947
▁우려 -3948
▁구하 -3949
▁분할 -3950
▁찰스 -3951
이치 -3952
▁맞이 -3953
▁풍부 -3954
르타 -3955
▁먹이 -3956
▁내전 -3957
▁부진 -3958
질랜드 -3959
▁홋 -3960
▁화산 -3961
▁묵 -3962
▁끝난 -3963
▁복지 -3964
▁아동 -3965
▁던 -3966
▁사립 -3967
▁아파트 -3968
▁뉴질랜드 -3969
▁희생 -3970
▁닥 -3971
▁손자 -3972
▁마르크 -3973
▁웅 -3974
▁범주 -3975
ᆫ해 -3976
▁순환 -3977
▁아리 -3978
▁평등 -3979
▁버렸 -3980
▁삽 -3981
▁나들목 -3982
▁마침내 -3983
먼트 -3984
▁대개 -3985
▁만나 -3986
▁별명 -3987
▁1961 -3988
▁비평 -3989
▁향해 -3990
부 -3991
▁최다 -3992
▁플래 -3993
▁집권 -3994
움 -3995
▁오프 -3996
▁가까 -3997
▁800 -3998
ER -3999
▁갈색 -4000
art -4001
▁패 -4002
▁점점 -4003
▁한정 -4004
▁올라 -4005
▁첼 -4006
▁흰 -4007
▁시조 -4008
▁전원 -4009
▁파르 -4010
▁86 -4011
▁한계 -4012
▁600 -4013
▁향하 -4014
▁분기 -4015
▁간 -4016
▁사냥 -4017
▁판사 -4018
▁리가 -4019
▁가상 -4020
▁구현 -4021
▁대법 -4022
▁시드 -4023
ice -4024
▁창원 -4025
▁지닌 -4026
▁120 -4027
▁분위 -4028
유럽 -4029
▁의지 -4030
▁모형 -4031
▁근본 -4032
▁기둥 -4033
▁마시 -4034
▁부하 -4035
▁테이 -4036
▁매 -4037
▁명확 -4038
투스 -4039
▁가시 -4040
▁훗 -4041
▁충격 -4042
▁교향 -4043
▁사원 -4044
ON -4045
텐츠 -4046
▁맞추 -4047
▁완공 -4048
▁웨이 -4049
▁IS -4050
▁일본인 -4051
▁메리 -4052
▁중기 -4053
▁무게 -4054
▁사형 -4055
▁늦 -4056
▁사임 -4057
▁벡터 -4058
▁확산 -4059
▁스토리 -4060
▁프린 -4061
ᅡ진 -4062
▁오페라 -4063
▁출범 -4064
디션 -4065
▁날개 -4066
▁마법 -4067
▁단독 -4068
est -4069
▁1919 -4070
▁으려 -4071
▁통산 -4072
▁대공 -4073
은행 -4074
▁맞ᄎ -4075
▁호주 -4076
피스 -4077
▁사마 -4078
틀러 -4079
▁생겨 -4080
▁물리학 -4081
▁상위 -4082
▁의혹 -4083
▁캔 -4084
▁꺾 -4085
▁레인 -4086
▁악화 -4087
▁렀 -4088
▁적절 -4089
▁뚜 -4090
ia -4091
▁된다고 -4092
▁카라 -4093
▁훌 -4094
▁났 -4095
▁re -4096
▁의심 -4097
▁이자 -4098
TV -4099
▁명나라 -4100
▁닛 -4101
▁98 -4102
▁모토 -4103
▁끝나 -4104
▁영웅 -4105
▁회담 -4106
▁제이 -4107
▁무시 -4108
▁연구원 -4109
▁득표 -4110
리히 -4111
▁당초 -4112
▁알파 -4113
▁조종 -4114
▁유치 -4115
▁서명 -4116
▁가나 -4117
ap -4118
▁편찬 -4119
▁1944 -4120
사자 -4121
▁함락 -4122
▁이닝 -4123
▁문명 -4124
▁새롭 -4125
▁발굴 -4126
사스 -4127
▁추천 -4128
▁둘러ᄊ -4129
▁인접 -4130
▁사실상 -4131
▁빠져 -4132
▁징역 -4133
ak -4134
▁샘 -4135
▁넓이 -4136
▁자극 -4137
▁광복 -4138
▁연간 -4139
▁올려 -4140
▁곤 -4141
▁포인트 -4142
▁인증 -4143
▁포항 -4144
▁개입 -4145
▁모임 -4146
▁저술 -4147
라이나 -4148
▁여론 -4149
▁느끼 -4150
▁순간 -4151
▁접촉 -4152
▁도쿠 -4153
▁곽 -4154
▁밝히 -4155
▁각지 -4156
▁떠나 -4157
▁올해 -4158
▁그때 -4159
▁등판 -4160
▁순수 -4161
▁달 -4162
▁사정 -4163
▁세르비아 -4164
▁프리미어 -4165
▁홍보 -4166
연히 -4167
▁동서 -4168
▁1941 -4169
▁구원 -4170
▁고속도로 -4171
▁악기 -4172
▁개막 -4173
▁독일군 -4174
▁63 -4175
▁골든 -4176
▁오랫 -4177
▁태어나 -4178
우리 -4179
▁95 -4180
▁멘 -4181
▁루스 -4182
AR -4183
▁정하 -4184
▁드라이 -4185
▁기온 -4186
▁뮤지 -4187
▁도와 -4188
▁벗 -4189
▁탐사 -4190
▁새겨 -4191
▁기기 -4192
메이 -4193
▁그라 -4194
▁태도 -4195
▁학살 -4196
일리 -4197
▁74 -4198
▁DNA -4199
민주 -4200
학생 -4201
버그 -4202
▁59 -4203
▁Lo -4204
▁실현 -4205
▁임기 -4206
▁공로 -4207
▁백성 -4208
무부 -4209
▁바위 -4210
▁한국인 -4211
▁팽 -4212
▁수석 -4213
▁네이 -4214
▁변수 -4215
▁시카고 -4216
믹스 -4217
▁언제 -4218
▁성분 -4219
▁경전 -4220
▁행렬 -4221
▁가진다 -4222
▁락 -4223
숭이 -4224
▁예전 -4225
▁178 -4226
▁벗 -4227
▁공헌 -4228
▁보고서 -4229
▁앤드 -4230
▁스마트 -4231
▁입법 -4232
▁아티 -4233
▁오랫동안 -4234
▁양쪽 -4235
▁추산 -4236
ct -4237
▁심사 -4238
▁훗날 -4239
▁담 -4240
▁여야 -4241
▁페르시아 -4242
▁떨어지 -4243
▁닉 -4244
▁감시 -4245
대부 -4246
▁확률 -4247
▁뱅 -4248
▁튜 -4249
▁혼합 -4250
▁즐 -4251
▁자전 -4252
▁균형 -4253
▁방위 -4254
▁1958 -4255
▁프로그래 -4256
▁매장 -4257
▁침략 -4258
▁물러 -4259
힌 -4260
▁미쓰 -4261
▁분위기 -4262
▁왕실 -4263
ul -4264
▁에드워드 -4265
▁특별시 -4266
▁합쳐 -4267
러리 -4268
▁영지 -4269
▁리처드 -4270
▁한다면 -4271
▁IC -4272
▁출력 -4273
▁1947 -4274
▁신부 -4275
▁82 -4276
▁피터 -4277
▁내려 -4278
▁160 -4279
▁클 -4280
▁승부 -4281
코스 -4282
▁조별 -4283
▁커뮤 -4284
▁대량 -4285
▁to -4286
▁개신교 -4287
▁원형 -4288
▁자라 -4289
▁저녁 -4290
▁춤 -4291
▁무사 -4292
▁타자 -4293
▁이라크 -4294
▁대선 -4295
▁멀리 -4296
이너 -4297
▁76 -4298
▁시사 -4299
거운 -4300
▁단편 -4301
▁1956 -4302
▁안토 -4303
▁경남 -4304
▁프라이 -4305
▁;/ -4306
▁다케 -4307
▁72 -4308
▁에서부터 -4309
▁권위 -4310
▁승객 -4311
▁여왕 -4312
▁미야 -4313
ᆼ난 -4314
▁그래픽 -4315
▁줄기 -4316
▁텍사스 -4317
▁랜드 -4318
▁마무 -4319
ᆨ한 -4320
▁흐름 -4321
▁발발 -4322
▁제사 -4323
▁프랑크 -4324
▁아이돌 -4325
▁재건 -4326
▁SS -4327
▁커뮤니 -4328
▁가와 -4329
리노 -4330
ie -4331
▁안동 -4332
▁확립 -4333
▁받아들여 -4334
▁동명 -4335
▁77 -4336
▁바깥 -4337
▁복원 -4338
▁작위 -4339
▁긍 -4340
▁일상 -4341
▁석유 -4342
▁데스 -4343
▁참고 -4344
▁과학자 -4345
▁교구 -4346
▁베 -4347
▁침입 -4348
▁비상 -4349
▁점수 -4350
르 -4351
▁테스트 -4352
▁밝혀졌 -4353
▁입력 -4354
▁수익 -4355
▁복수 -4356
▁1939 -4357
▁흐 -4358
▁속한 -4359
▁잠수 -4360
▁폭탄 -4361
▁Th -4362
▁시상 -4363
▁당국 -4364
▁67 -4365
▁어깨 -4366
메리칸 -4367
레나 -4368
▁리버 -4369
▁민중 -4370
▁브라운 -4371
▁벌였 -4372
▁신자 -4373
▁축구단 -4374
▁심지 -4375
▁늘어 -4376
▁복음 -4377
▁도요 -4378
▁사자 -4379
▁일시 -4380
▁포켓 -4381
레옹 -4382
▁본질 -4383
▁어려운 -4384
▁재배 -4385
▁타워 -4386
ud -4387
▁기소 -4388
▁더블 -4389
▁AFC -4390
▁연예 -4391
▁자식 -4392
▁계층 -4393
▁병합 -4394
일스 -4395
▁움직이 -4396
▁나폴레옹 -4397
▁신고 -4398
▁한글 -4399
긴다 -4400
▁주최 -4401
▁혁신 -4402
▁시마 -4403
▁친 -4404
▁그렇게 -4405
▁대왕 -4406
▁가공 -4407
▁어디 -4408
▁부지 -4409
▁파워 -4410
▁빌보드 -4411
▁도모 -4412
ly -4413
og -4414
에른 -4415
▁가량 -4416
▁다운 -4417
이센 -4418
▁정수 -4419
▁빅토 -4420
▁85 -4421
▁동양 -4422
▁돌아왔 -4423
보이 -4424
▁지형 -4425
▁사제 -4426
▁가담 -4427
▁보물 -4428
th -4429
▁대성 -4430
▁창작 -4431
▁공중 -4432
▁내셔널 -4433
▁평안 -4434
▁1954 -4435
▁힌 -4436
마니아 -4437
ist -4438
▁폐쇄 -4439
▁움직임 -4440
올 -4441
▁암호 -4442
▁노출 -4443
▁돕 -4444
레인 -4445
아티아 -4446
▁누르 -4447
▁크로아티아 -4448
▁힘 -4449
선 -4450
▁가설 -4451
▁인쇄 -4452
ᆯ랐 -4453
▁후계 -4454
▁훈장 -4455
▁급제 -4456
▁아름다운 -4457
▁쌀 -4458
▁국기 -4459
▁산화 -4460
▁구글 -4461
▁우라 -4462
▁평론 -4463
▁채 -4464
ight -4465
▁총회 -4466
▁고통 -4467
▁비서 -4468
왜란 -4469
▁1952 -4470
▁임진왜란 -4471
AS -4472
차 -4473
▁참모 -4474
▁력 -4475
▁가이 -4476
▁다소 -4477
▁고기 -4478
▁탱 -4479
▁세리 -4480
▁실력 -4481
▁신 -4482
▁만들 -4483
▁전신 -4484
▁보상 -4485
ᅯᆫ -4486
▁박정희 -4487
▁73 -4488
▁후속 -4489
▁동방 -4490
▁상관 -4491
▁아테네 -4492
▁대지 -4493
ᆸ혀 -4494
▁96 -4495
조합 -4496
▁김대 -4497
▁람 -4498
▁따로 -4499
▁행복 -4500
▁쳐 -4501
▁나타낸다 -4502
▁절반 -4503
▁발음 -4504
▁라스 -4505
▁탈퇴 -4506
▁국정 -4507
▁조조 -4508
▁뮤지컬 -4509
▁스타디 -4510
▁오카 -4511
▁타운 -4512
▁비례 -4513
▁81 -4514
바로 -4515
볼 -4516
▁무한 -4517
▁인용 -4518
▁나뉜다 -4519
▁* -4520
▁뽑 -4521
▁Al -4522
▁넘어 -4523
필더 -4524
▁셔 -4525
▁개설 -4526
▁도덕 -4527
▁피해자 -4528
▁미드필더 -4529
▁수도원 -4530
▁소득 -4531
▁불만 -4532
▁뷰 -4533
▁기에 -4534
▁뤼 -4535
▁젠 -4536
▁심장 -4537
하여 -4538
▁78 -4539
▁장남 -4540
마르 -4541
▁로봇 -4542
▁가까이 -4543
▁청주 -4544
AT -4545
▁정해 -4546
▁부담 -4547
시오 -4548
▁옮겼 -4549
▁재학 -4550
▁묻 -4551
체스터 -4552
▁화이트 -4553
의정 -4554
▁전투기 -4555
▁손상 -4556
▁센트 -4557
▁전남 -4558
▁화장 -4559
▁안드로 -4560
두 -4561
ᆷ처 -4562
▁엄처 -4563
▁전직 -4564
▁김성 -4565
▁이혼 -4566
▁바이에른 -4567
▁나온다 -4568
▁는다는 -4569
▁끼 -4570
▁여섯 -4571
▁지향 -4572
▁바닥 -4573
▁뮌 -4574
▁기리 -4575
너스 -4576
타이 -4577
▁아트 -4578
▁중력 -4579
▁교리 -4580
▁국군 -4581
▁하인 -4582
▁천안 -4583
▁포스트 -4584
▁콘스탄티 -4585
▁블라 -4586
▁벌이 -4587
▁주력 -4588
▁산소 -4589
▁보르 -4590
▁작동 -4591
▁검토 -4592
▁총장 -4593
▁202 -4594
▁백만 -4595
▁피하 -4596
▁1959 -4597
▁NH -4598
▁마무리 -4599
▁레알 -4600
▁지사 -4601
▁인생 -4602
▁결론 -4603
▁기상 -4604
▁생물학 -4605
▁177 -4606
BA -4607
▁윗 -4608
ess -4609
▁당나라 -4610
▁관여 -4611
직자 -4612
▁빌딩 -4613
▁질환 -4614
▁와이 -4615
자치 -4616
▁상실 -4617
▁심지어 -4618
인물 -4619
토스 -4620
▁Li -4621
▁사무소 -4622
▁포스 -4623
▁녀 -4624
▁91 -4625
▁화합 -4626
▁황후 -4627
▁AT -4628
▁71 -4629
▁호소 -4630
▁아웃 -4631
▁설득 -4632
▁패션 -4633
▁문신 -4634
▁메시지 -4635
▁상역 -4636
▁피부 -4637
▁;, -4638
▁사유 -4639
▁선박 -4640
▁유통 -4641
▁사우스 -4642
가락 -4643
▁디아 -4644
▁엄청난 -4645
▁깃 -4646
▁DV -4647
▁가마 -4648
클리 -4649
▁처분 -4650
▁개방 -4651
▁신사 -4652
▁수요 -4653
▁이어졌 -4654
▁결의 -4655
스트라 -4656
세포 -4657
쿠스 -4658
▁분노 -4659
▁오직 -4660
▁끝내 -4661
▁골드 -4662
▁프로이센 -4663
▁가슴 -4664
▁액션 -4665
▁나아 -4666
▁규제 -4667
▁1942 -4668
▁여겨진다 -4669
▁승려 -4670
▁하원 -4671
▁덜 -4672
▁약물 -4673
▁이명 -4674
▁모터 -4675
▁연습 -4676
▁햄 -4677
▁가요 -4678
▁앉 -4679
칠 -4680
▁역학 -4681
▁혼인 -4682
▁글로벌 -4683
▁적합 -4684
▁진정 -4685
▁김일성 -4686
▁페이지 -4687
▁본다 -4688
▁동해 -4689
▁매체 -4690
IV -4691
냐 -4692
나가 -4693
▁선임 -4694
▁조카 -4695
▁산 -4696
▁구매 -4697
▁심판 -4698
▁쉬 -4699
▁디스크 -4700
▁그린 -4701
▁모바 -4702
▁위대 -4703
▁개성 -4704
▁좌상 -4705
▁87 -4706
▁이른다 -4707
드리히 -4708
▁왕비 -4709
▁띄 -4710
▁통화 -4711
▁비치 -4712
▁잭슨 -4713
▁진단 -4714
▁돌아와 -4715
미야 -4716
▁위키 -4717
친다 -4718
ub -4719
▁159 -4720
▁소멸 -4721
▁st -4722
▁1943 -4723
▁1955 -4724
▁긍정 -4725
▁야스 -4726
▁프랭 -4727
▁부산광역시 -4728
▁억제 -4729
▁발탁 -4730
▁크루 -4731
▁서식지 -4732
IA -4733
가니 -4734
▁원년 -4735
▁쿠데 -4736
▁말레이시아 -4737
▁홋카이도 -4738
▁일기 -4739
▁프리드리히 -4740
▁1953 -4741
▁스타디움 -4742
▁퀴 -4743
ᆸ혔 -4744
▁어려움 -4745
▁진영 -4746
▁보살 -4747
▁예방 -4748
▁주석 -4749
▁음악가 -4750
▁왕후 -4751
▁였을 -4752
▁드래프트 -4753
▁불안 -4754
▁톨 -4755
▁테크 -4756
▁거듭 -4757
▁700 -4758
▁\ -4759
▁필드 -4760
▁무료 -4761
▁일체 -4762
▁선보 -4763
▁사도 -4764
ab -4765
▁1936 -4766
▁조지아 -4767
▁싱가 -4768
▁싱가포르 -4769
▁벗어 -4770
▁생긴 -4771
▁졌으며 -4772
미르 -4773
▁84 -4774
▁자이언 -4775
▁덮 -4776
▁사격 -4777
▁사무실 -4778
▁대책 -4779
▁카스 -4780
▁일컫 -4781
▁힙 -4782
▁AP -4783
▁즉시 -4784
▁시나 -4785
▁폭격 -4786
▁유고 -4787
▁태조 -4788
▁일본어 -4789
▁루마니아 -4790
▁타인 -4791
▁티베 -4792
▁인원 -4793
▁궁전 -4794
▁쾌 -4795
▁천주교 -4796
▁쿠데타 -4797
▁유형문화재 -4798
▁세자 -4799
▁머무 -4800
▁여우 -4801
▁움 -4802
데이 -4803
▁막대 -4804
아들이 -4805
▁이와 -4806
▁상속 -4807
▁1910 -4808
▁모바일 -4809
▁기동 -4810
▁올 -4811
▁김종 -4812
▁정차 -4813
▁창당 -4814
▁곱 -4815
▁크로스 -4816
▁자는 -4817
▁전북 -4818
▁깊이 -4819
▁연설 -4820
▁대체로 -4821
▁덴 -4822
▁리드 -4823
▁스티븐 -4824
주군 -4825
ine -4826
▁전동차 -4827
▁쓰여 -4828
유산 -4829
▁누리 -4830
▁어도 -4831
▁후쿠오카 -4832
▁가르 -4833
▁Re -4834
▁히틀러 -4835
▁97 -4836
▁구입 -4837
▁딜 -4838
▁요금 -4839
▁전당 -4840
▁학사 -4841
▁에서 -4842
▁진격 -4843
▁챔피언십 -4844
▁딘 -4845
▁개칭 -4846
▁독재 -4847
▁남아프리카 -4848
▁오이 -4849
ᅮ록 -4850
▁아메리칸 -4851
구리 -4852
▁강릉 -4853
▁1957 -4854
▁원주민 -4855
▁속해 -4856
▁검색 -4857
란색 -4858
▁자국 -4859
리나 -4860
▁대우 -4861
▁발명 -4862
▁보여준다 -4863
▁조상 -4864
▁추방 -4865
▁자라 -4866
▁느낌 -4867
▁초점 -4868
▁부동 -4869
▁알고리 -4870
머리 -4871
▁본명 -4872
▁필수 -4873
▁스미스 -4874
ew -4875
혔 -4876
▁광범 -4877
베르트 -4878
▁콘텐츠 -4879
▁타이거 -4880
▁휴대 -4881
독부 -4882
히로 -4883
▁동북 -4884
▁수호 -4885
▁생태 -4886
▁음성 -4887
▁급격 -4888
▁전송 -4889
▁1914 -4890
▁69 -4891
▁께 -4892
▁세트 -4893
▁렀다 -4894
▁테마 -4895
▁메이지 -4896
▁사기 -4897
원경 -4898
▁신장 -4899
▁천만 -4900
미니 -4901
▁이즈 -4902
▁92 -4903
시스코 -4904
▁사과 -4905
▁수업 -4906
▁핫 -4907
▁이마 -4908
▁주소 -4909
▁인디언 -4910
▁알고리즘 -4911
ue -4912
▁알바 -4913
▁포켓몬 -4914
▁=" -4915
▁원수 -4916
▁업적 -4917
▁연락 -4918
▁미리 -4919
▁덩 -4920
▁완벽 -4921
▁신도 -4922
▁랑 -4923
▁이내 -4924
▁게다가 -4925
▁불가리아 -4926
▁토론토 -4927
▁도마 -4928
▁후임 -4929
▁최우 -4930
리그 -4931
▁1900 -4932
구치 -4933
▁세부 -4934
▁전술 -4935
▁코리아 -4936
▁1938 -4937
▁상인 -4938
▁클로 -4939
▁림 -4940
저 -4941
▁닥터 -4942
▁서술 -4943
▁섹 -4944
▁똑 -4945
▁스프링 -4946
래프트 -4947
▁려면 -4948
▁펑 -4949
▁스탈 -4950
지사 -4951
▁부위 -4952
▁와서 -4953
▁펼쳐 -4954
▁고급 -4955
▁유효 -4956
▁화려 -4957
▁미술관 -4958
EC -4959
▁물건 -4960
▁라이프 -4961
▁고시 -4962
▁빌리 -4963
▁석사 -4964
▁재즈 -4965
▁노트 -4966
▁그만 -4967
▁배포 -4968
▁주니어 -4969
▁101 -4970
▁바르셀 -4971
▁소비자 -4972
▁바르셀로나 -4973
자키 -4974
▁질문 -4975
▁암컷 -4976
비히 -4977
▁언덕 -4978
▁연평 -4979
▁각국 -4980
총리 -4981
▁늑 -4982
▁안드 -4983
▁영양 -4984
▁오키 -4985
▁숨 -4986
▁1918 -4987
▁마르크스 -4988
▁01 -4989
▁HD -4990
▁듯이 -4991
붙 -4992
로지 -4993
▁해발 -4994
▁립 -4995
▁라틴어 -4996
▁션 -4997
▁개량 -4998
▁윙 -4999
▁소형 -5000
산화 -5001
오르 -5002
뜨 -5003
▁랩 -5004
▁손실 -5005
▁느냐 -5006
▁실천 -5007
▁마스터 -5008
▁고위 -5009
▁선형 -5010
▁만났 -5011
▁백인 -5012
▁일련 -5013
ᆨ혀 -5014
▁사퇴 -5015
여금 -5016
▁언스 -5017
▁DVD -5018
▁등장인물 -5019
▁갑자기 -5020
▁집회 -5021
총독부 -5022
▁조선총독부 -5023
▁묶 -5024
▁풋 -5025
▁유산 -5026
▁웰 -5027
다란 -5028
▁상주 -5029
▁1951 -5030
▁경비 -5031
▁저자 -5032
▁화석 -5033
제국 -5034
▁프랑스군 -5035
▁1932 -5036
▁시내버스 -5037
▁감각 -5038
▁게르 -5039
▁추기 -5040
▁반사 -5041
▁운항 -5042
▁메달 -5043
▁주체 -5044
▁계곡 -5045
▁벌어진 -5046
BM -5047
▁국적 -5048
▁미스 -5049
▁영주 -5050
ᅴᆫ -5051
▁알레 -5052
▁개별 -5053
▁on -5054
▁격파 -5055
▁1937 -5056
▁블록 -5057
▁용인 -5058
▁생겼 -5059
▁{ -5060
▁정교회 -5061
▁노리 -5062
▁선포 -5063
▁의문 -5064
▁차단 -5065
무늬 -5066
▁짝 -5067
하 -5068
▁거짓 -5069
▁고객 -5070
▁자본주의 -5071
▁미시 -5072
▁만든 -5073
▁받아들이 -5074
▁관해 -5075
▁진학 -5076
▁마틴 -5077
민주당 -5078
▁상수 -5079
▁대만 -5080
▁올스타 -5081
필드 -5082
▁89 -5083
▁부친 -5084
▁흰색 -5085
▁설치류 -5086
▁엘리자 -5087
펙트 -5088
▁화제 -5089
▁넥 -5090
▁당원 -5091
▁변하 -5092
▁첩 -5093
▁광범위 -5094
▁재개 -5095
▁사양 -5096
▁방언 -5097
▁이웃 -5098
▁실업 -5099
바키아 -5100
▁찬성 -5101
▁타율 -5102
▁후계자 -5103
▁182 -5104
▁1935 -5105
▁다스 -5106
▁환승 -5107
▁비스 -5108
▁칭호 -5109
▁접한다 -5110
ect -5111
▁우크라 -5112
▁93 -5113
▁항의 -5114
▁수치 -5115
▁비행기 -5116
수록 -5117
▁트레이드 -5118
▁분교 -5119
▁크라 -5120
▁퀘 -5121
▁기부 -5122
▁이스트 -5123
▁내놓 -5124
▁뮌헨 -5125
▁구상 -5126
동생 -5127
▁꾸준 -5128
▁시트 -5129
▁Be -5130
▁로렌 -5131
▁추기경 -5132
▁사찰 -5133
▁커버 -5134
▁탄압 -5135
▁허락 -5136
▁파티 -5137
▁항공사 -5138
브라 -5139
사전 -5140
▁중추 -5141
▁질서 -5142
▁합니다 -5143
▁수백 -5144
▁줄이 -5145
▁경제학 -5146
▁남기 -5147
▁싱어 -5148
▁증언 -5149
▁최후 -5150
▁구멍 -5151
▁발간 -5152
▁고양이 -5153
▁면역 -5154
▁체험 -5155
가시 -5156
하이 -5157
▁일으켜 -5158
▁반지 -5159
▁분화 -5160
▁촉진 -5161
▁터 -5162
▁자산 -5163
▁겉 -5164
▁극단 -5165
▁남녀 -5166
▁회로 -5167
다수 -5168
▁성남 -5169
▁이념 -5170
▁곡선 -5171
▁아티스트 -5172
▁목성 -5173
▁법학 -5174
▁화폐 -5175
센트 -5176
▁양산 -5177
▁클리 -5178
▁공신 -5179
▁소화 -5180
▁마루 -5181
▁쿨 -5182
▁습격 -5183
▁거치 -5184
▁영원 -5185
▁소위 -5186
▁클래식 -5187
▁가속 -5188
런스 -5189
저스 -5190
ore -5191
리우스 -5192
▁개척 -5193
▁시모 -5194
슈타인 -5195
▁대법원 -5196
▁94 -5197
▁강남 -5198
▁보편 -5199
▁축소 -5200
▁였으 -5201
▁OS -5202
▁1933 -5203
▁잠수함 -5204
▁소집 -5205
▁탕 -5206
▁약화 -5207
ᅳᆯ려 -5208
▁FM -5209
▁물고기 -5210
▁운송 -5211
▁오버 -5212
our -5213
▁탄핵 -5214
▁줄어들 -5215
▁당해 -5216
▁티베트 -5217
▁유배 -5218
▁수십 -5219
▁쿼 -5220
▁충분히 -5221
▁툴 -5222
▁선호 -5223
▁조차 -5224
IN -5225
▁쓰였 -5226
▁지수 -5227
▁하여금 -5228
▁1928 -5229
▁군부 -5230
▁매치 -5231
▁그리하여 -5232
▁핸 -5233
른바 -5234
▁아오 -5235
▁동화 -5236
▁혼자 -5237
▁원시 -5238
▁베리 -5239
▁치르 -5240
▁CP -5241
돼지 -5242
▁조항 -5243
도사 -5244
▁전적 -5245
▁주일 -5246
▁지불 -5247
▁이른바 -5248
▁당신 -5249
▁직무 -5250
▁태종 -5251
▁누스 -5252
▁동경 -5253
▁돌아오 -5254
▁팩 -5255
▁국토 -5256
▁대로 -5257
▁세월 -5258
▁칠레 -5259
ell -5260
▁1924 -5261
▁시신 -5262
▁프랑스어 -5263
▁콜로 -5264
공사 -5265
▁오가 -5266
뜨리 -5267
▁료 -5268
▁영구 -5269
▁용도 -5270
▁이행 -5271
▁간부 -5272
▁펼 -5273
프레 -5274
▁정통 -5275
▁발레 -5276
▁개명 -5277
▁재능 -5278
▁덧 -5279
▁상대식 -5280
▁전망 -5281
▁79 -5282
▁댄스 -5283
▁정면 -5284
▁익스 -5285
▁조기 -5286
▁토대 -5287
▁흘러 -5288
▁사막 -5289
▁토마스 -5290
벤트 -5291
▁사라 -5292
▁간다 -5293
▁으니 -5294
▁09 -5295
▁김해 -5296
▁메트로 -5297
▁펀 -5298
닉스 -5299
▁의정부 -5300
▁형상 -5301
▁110 -5302
▁손해 -5303
▁실내 -5304
▁입대 -5305
드라 -5306
▁종사 -5307
▁브로 -5308
▁이재 -5309
▁프로그래밍 -5310
▁걸친 -5311
▁개장 -5312
▁회색 -5313
▁대칭 -5314
▁콜롬 -5315
▁단순히 -5316
▁빚 -5317
슬링 -5318
▁가난 -5319
▁웃 -5320
티스 -5321
▁빼앗 -5322
▁170 -5323
사이 -5324
▁러브 -5325
▁진실 -5326
end -5327
▁04 -5328
▁쟁 -5329
▁액체 -5330
▁파키스탄 -5331
▁구름 -5332
▁지중 -5333
▁쓸 -5334
▁동굴 -5335
▁판정 -5336
▁합동 -5337
▁수컷 -5338
▁열매 -5339
▁존스 -5340
▁초상 -5341
▁토착 -5342
과이 -5343
▁무력 -5344
▁자랑 -5345
▁해제 -5346
어도 -5347
코프 -5348
▁가깝 -5349
▁무용 -5350
ain -5351
▁유아 -5352
▁하와 -5353
▁베네치아 -5354
ill -5355
▁안토니 -5356
▁뼈 -5357
▁경고 -5358
▁양국 -5359
▁법안 -5360
큼 -5361
▁사이드 -5362
▁고교 -5363
▁당대 -5364
▁엄격 -5365
▁총재 -5366
▁흔적 -5367
리다 -5368
▁못한다 -5369
▁로즈 -5370
▁전제 -5371
▁밀리 -5372
베리아 -5373
▁원자력 -5374
ID -5375
테스 -5376
▁08 -5377
▁틴 -5378
▁재생 -5379
직 -5380
▁대승 -5381
▁안티 -5382
ers -5383
▁룸 -5384
▁분산 -5385
▁주문 -5386
▁들어오 -5387
▁멀티 -5388
▁인민군 -5389
▁흰 -5390
▁세로 -5391
▁퓨 -5392
▁Co -5393
▁일단 -5394
▁정류 -5395
▁소문 -5396
▁부속 -5397
▁오케 -5398
▁힙합 -5399
▁개찰 -5400
▁스카이 -5401
▁경북 -5402
▁강도 -5403
▁늑대 -5404
▁서방 -5405
▁스톤 -5406
▁우에 -5407
▁장로 -5408
▁대가 -5409
▁비잔 -5410
▁주재 -5411
▁프로토 -5412
▁83 -5413
▁다큐 -5414
▁오류 -5415
▁행하 -5416
▁안쪽 -5417
▁배열 -5418
▁한성 -5419
▁덧붙 -5420
▁세워졌 -5421
▁국방부 -5422
데르 -5423
▁레닌 -5424
▁지표 -5425
페이스 -5426
▁페리 -5427
▁동지 -5428
▁벼슬 -5429
▁MS -5430
ard -5431
▁호흡 -5432
▁강요 -5433
▁메탈 -5434
▁스크린 -5435
▁중동 -5436
▁함경 -5437
▁혈액 -5438
▁경찰서 -5439
▁마감 -5440
▁추적 -5441
▁할아버지 -5442
▁편의 -5443
▁평면 -5444
▁선로 -5445
▁주자 -5446
▁포드 -5447
▁이벤트 -5448
▁나섰 -5449
▁탓 -5450
▁중지 -5451
고속 -5452
야스 -5453
▁메르 -5454
▁만큼 -5455
조선 -5456
▁성서 -5457
▁놓여 -5458
▁대원 -5459
▁대사관 -5460
키퍼 -5461
▁농장 -5462
AN -5463
▁철거 -5464
▁1934 -5465
어로 -5466
▁링 -5467
▁골키퍼 -5468
▁아프가니 -5469
신 -5470
▁자매 -5471
▁쏘 -5472
▁북미 -5473
▁투스 -5474
▁De -5475
▁살아 -5476
▁구사 -5477
▁질 -5478
▁빵 -5479
▁스케이 -5480
세대 -5481
▁입구 -5482
▁요코하마 -5483
베르크 -5484
▁흘 -5485
▁놀이 -5486
▁스탈린 -5487
▁보스턴 -5488
▁닐 -5489
▁쿠바 -5490
▁근육 -5491
▁판타 -5492
유키 -5493
▁동구 -5494
▁노동당 -5495
▁본토 -5496
▁봉기 -5497
▁장례 -5498
▁정확히 -5499
▁히어로 -5500
▁광산 -5501
레오 -5502
▁130 -5503
▁현존 -5504
▁페이스 -5505
공업 -5506
▁드물 -5507
▁지켜 -5508
▁Me -5509
▁야당 -5510
림 -5511
▁식량 -5512
성기 -5513
▁정조 -5514
▁나이트 -5515
▁밸 -5516
아르 -5517
무르 -5518
▁대동 -5519
▁토머스 -5520
▁풍속 -5521
▁거점 -5522
제르 -5523
▁유키 -5524
▁동메달 -5525
▁사망자 -5526
▁철학자 -5527
▁뱀 -5528
즈니 -5529
▁글리 -5530
▁항해 -5531
ne -5532
▁젤 -5533
▁헤 -5534
▁은메달 -5535
▁선물 -5536
함 -5537
▁코어 -5538
▁접속 -5539
▁140 -5540
▁도쿠가와 -5541
▁시계 -5542
▁남극 -5543
▁관계자 -5544
▁대다수 -5545
▁맨체스터 -5546
▁중계 -5547
므로 -5548
▁부처 -5549
▁아프가니스탄 -5550
레아 -5551
▁휘 -5552
▁사카 -5553
▁카리 -5554
▁초청 -5555
▁필립 -5556
▁돔 -5557
▁레지 -5558
임 -5559
▁움직 -5560
▁새끼 -5561
▁알렉산더 -5562
▁복사 -5563
▁Sh -5564
▁발전소 -5565
▁김구 -5566
▁테르 -5567
사르 -5568
▁중성 -5569
▁특별히 -5570
▁재판소 -5571
▁칼리지 -5572
우치 -5573
위대 -5574
▁역전 -5575
▁안내 -5576
▁교향곡 -5577
▁훼 -5578
▁꼬 -5579
▁독점 -5580
▁농촌 -5581
▁매주 -5582
▁그러므로 -5583
돌프 -5584
▁증권 -5585
안군 -5586
▁화합물 -5587
▁경사 -5588
▁곤충 -5589
▁주어졌 -5590
▁새벽 -5591
▁밀려 -5592
▁세금 -5593
▁휘하 -5594
▁봉해졌 -5595
▁토너 -5596
OR -5597
▁르네 -5598
에도 -5599
▁th -5600
▁구로 -5601
크래프트 -5602
▁합리 -5603
▁유력 -5604
▁높 -5605
▁1931 -5606
▁로맨 -5607
▁오염 -5608
▁이정 -5609
▁위안 -5610
▁재임 -5611
베리 -5612
▁파울 -5613
▁체육관 -5614
▁부호 -5615
▁생애 -5616
▁비중 -5617
▁나ᄈ -5618
▁펼쳤 -5619
▁모노 -5620
▁타점 -5621
▁강등 -5622
▁일곱 -5623
레이크 -5624
▁히로시마 -5625
▁간격 -5626
▁종전 -5627
▁코너 -5628
▁훌륭 -5629
▁진동 -5630
▁관객 -5631
▁석방 -5632
▁문재 -5633
▁달려 -5634
▁기병 -5635
▁존슨 -5636
▁그리스어 -5637
▁뚜렷 -5638
▁타카 -5639
▁박근 -5640
▁클래스 -5641
▁계수 -5642
▁대변 -5643
▁부품 -5644
▁감옥 -5645
▁금강 -5646
▁폭풍 -5647
▁멸종 -5648
▁펄 -5649
▁명시 -5650
▁미카 -5651
▁목포 -5652
▁원조 -5653
▁힘들 -5654
느님 -5655
all -5656
▁ST -5657
▁아비 -5658
▁하사 -5659
▁하느님 -5660
▁자유주의 -5661
게이 -5662
ᇂ아 -5663
▁원 -5664
▁후퇴 -5665
▁cod -5666
▁뻗 -5667
AM -5668
▁1921 -5669
▁대결 -5670
▁무늬 -5671
▁타원 -5672
▁심리학 -5673
▁꾼 -5674
▁장점 -5675
나르 -5676
▁해협 -5677
▁버지 -5678
은 -5679
▁An -5680
▁176 -5681
▁250 -5682
▁배웠 -5683
▁커다란 -5684
▁교도 -5685
▁좌파 -5686
▁길 -5687
▁가구 -5688
▁다다 -5689
▁숙종 -5690
▁윤리 -5691
▁킬로 -5692
▁아이스 -5693
▁지휘관 -5694
▁캠프 -5695
▁그래프 -5696
▁수비수 -5697
▁공룡 -5698
▁기생 -5699
▁유발 -5700
▁지칭 -5701
ang -5702
▁마그 -5703
▁목숨 -5704
▁동성애 -5705
널드 -5706
▁덕분 -5707
▁지ᄂ -5708
▁구리 -5709
▁유대인 -5710
▁스트라이 -5711
▁토너먼트 -5712
▁일환 -5713
▁필라 -5714
▁하버 -5715
▁코트 -5716
▁첫째 -5717
시스트 -5718
▁1929 -5719
▁닮 -5720
둥이 -5721
▁연호 -5722
▁착용 -5723
▁성명 -5724
▁소요 -5725
여서 -5726
▁트랜스 -5727
▁공세 -5728
▁단장 -5729
▁강전 -5730
▁김대중 -5731
▁칙 -5732
▁뒤 -5733
▁조문 -5734
▁극복 -5735
▁특허 -5736
▁수반 -5737
▁집필 -5738
▁바이올 -5739
수량 -5740
▁비즈 -5741
▁마라 -5742
▁05 -5743
▁사관 -5744
▁약탈 -5745
▁캡 -5746
▁아틀 -5747
▁운동가 -5748
▁스테이션 -5749
▁자이언츠 -5750
▁키스 -5751
▁코 -5752
▁쯤 -5753
문 -5754
▁쿠 -5755
▁도메 -5756
ᆼ할 -5757
▁기갑 -5758
▁는다고 -5759
▁y -5760
▁연상 -5761
▁부작 -5762
▁슈 -5763
▁동반 -5764
▁평론가 -5765
▁1923 -5766
▁라트 -5767
▁1925 -5768
▁공국 -5769
▁조화 -5770
산물 -5771
▁빠지 -5772
투아 -5773
▁갤럭 -5774
▁의석 -5775
▁첸 -5776
밀리 -5777
▁매니 -5778
▁인터페이스 -5779
▁롬 -5780
▁성직자 -5781
▁옮 -5782
▁건담 -5783
미아 -5784
▁삼각 -5785
▁연평균 -5786
▁북아메리카 -5787
ss -5788
▁램 -5789
▁번지 -5790
▁협약 -5791
▁고고 -5792
▁섬유 -5793
▁입사 -5794
▁가끔 -5795
▁도호 -5796
▁지부 -5797
▁과일 -5798
▁요원 -5799
▁플로리다 -5800
클린 -5801
▁발휘 -5802
무게 -5803
▁몸무게 -5804
▁갤럭시 -5805
▁장갑 -5806
▁추대 -5807
▁원장 -5808
▁근로 -5809
▁불화 -5810
▁연계 -5811
▁틱 -5812
타카 -5813
▁영감 -5814
▁07 -5815
▁AC -5816
▁발렌 -5817
▁임신 -5818
▁관리자 -5819
▁지역구 -5820
▁샤를 -5821
▁압축 -5822
▁얀 -5823
▁이수 -5824
▁중립 -5825
▁북서쪽 -5826
▁타입 -5827
▁영혼 -5828
▁우드 -5829
▁추락 -5830
▁선교사 -5831
▁웨일스 -5832
▁대한제국 -5833
▁맞서 -5834
▁시게 -5835
ity -5836
▁살아남 -5837
▁트레이 -5838
마이 -5839
▁모험 -5840
대문 -5841
▁똑같 -5842
▁비하 -5843
▁카페 -5844
▁딱 -5845
카스 -5846
베이스 -5847
▁갱 -5848
▁고분 -5849
▁유성 -5850
느리 -5851
▁남아메리카 -5852
▁영광 -5853
▁진술 -5854
▁단선 -5855
▁사당 -5856
▁삭제 -5857
▁일자 -5858
▁유비 -5859
▁박근혜 -5860
키스 -5861
추어 -5862
▁이조 -5863
▁박스 -5864
▁망원경 -5865
▁하와이 -5866
▁캘리포니아주 -5867
▁수직 -5868
▁레벨 -5869
▁페루 -5870
▁161 -5871
▁리스트 -5872
▁데리 -5873
▁채권 -5874
▁돌아갔 -5875
▁북극 -5876
▁미분 -5877
▁진흥 -5878
▁필름 -5879
▁서인 -5880
▁압도 -5881
▁흔 -5882
▁쫓 -5883
▁메인 -5884
▁결심 -5885
▁마주 -5886
▁모로 -5887
▁제약 -5888
▁종로 -5889
▁기관차 -5890
▁돌파 -5891
▁동인 -5892
▁모시 -5893
▁다이묘 -5894
▁그려져 -5895
▁SC -5896
▁철저 -5897
▁그랜드 -5898
▁사거리 -5899
▁민속 -5900
▁준우 -5901
▁곰 -5902
▁변신 -5903
▁향토 -5904
▁홀로 -5905
ff -5906
ᆼᄀ -5907
▁설비 -5908
▁유가 -5909
▁카자 -5910
▁EP -5911
▁복구 -5912
▁주류 -5913
▁빅토리아 -5914
▁오른 -5915
▁파운드 -5916
▁교과 -5917
부사 -5918
▁WW -5919
▁부탁 -5920
▁성씨 -5921
▁잠재 -5922
▁청동 -5923
▁도마뱀 -5924
슬리 -5925
▁175 -5926
▁나아가 -5927
▁피트 -5928
▁중시 -5929
▁프로세서 -5930
▁1922 -5931
▁바오 -5932
▁codice -5933
▁모음 -5934
▁트럼 -5935
▁무릎 -5936
▁삼각형 -5937
▁엽 -5938
행성 -5939
▁문인 -5940
▁수장 -5941
▁레이블 -5942
▁넘겨 -5943
▁이란 -5944
즈키 -5945
▁나서 -5946
▁부유 -5947
▁여인 -5948
ᅡ진다 -5949
▁각자 -5950
▁틸 -5951
▁이날 -5952
▁평생 -5953
▁화가 -5954
▁프레임 -5955
▁de -5956
애나 -5957
▁My -5958
▁명사 -5959
일본 -5960
▁서적 -5961
▁중구 -5962
▁칼리 -5963
▁엘리자베스 -5964
▁인천광역시 -5965
▁모래 -5966
▁규슈 -5967
▁윤치 -5968
▁음모 -5969
▁버지니아 -5970
▁올라가 -5971
▁투구 -5972
▁공격수 -5973
오리 -5974
▁유역 -5975
▁지연 -5976
▁루트비히 -5977
▁고안 -5978
▁가톨릭교회 -5979
▁일어난다 -5980
▁토벌 -5981
▁건너 -5982
▁황태 -5983
▁탄 -5984
▁1912 -5985
▁유용 -5986
▁직위 -5987
프란 -5988
▁파트너 -5989
▁리치 -5990
▁직선 -5991
▁최상 -5992
▁도어 -5993
망 -5994
▁KT -5995
▁빼 -5996
▁노무 -5997
▁아기 -5998
▁리아 -5999
▁부ᄃ -6000
▁아과 -6001
▁국민당 -6002
▁Love -6003
▁왕가 -6004
메니아 -6005
▁교차로 -6006
▁며 -6007
니즘 -6008
▁164 -6009
▁자치구 -6010
▁무인 -6011
▁어워드 -6012
양군 -6013
▁무산 -6014
▁네이션 -6015
▁부서 -6016
▁크레 -6017
▁구미 -6018
▁수상자 -6019
▁인력 -6020
눅스 -6021
치 -6022
▁고르 -6023
▁글씨 -6024
▁간섭 -6025
▁문법 -6026
▁Go -6027
▁벨라 -6028
▁봉사 -6029
▁왈 -6030
ong -6031
▁드리 -6032
▁사토 -6033
▁베토 -6034
▁영조 -6035
▁포유 -6036
▁동일본 -6037
▁납치 -6038
▁패턴 -6039
▁퍼시 -6040
▁"" -6041
▁리눅스 -6042
▁소설가 -6043
타운 -6044
▁상처 -6045
▁아르메니아 -6046
▁블라디 -6047
▁1908 -6048
▁모니 -6049
멘트 -6050
▁노비 -6051
▁침해 -6052
▁MV -6053
▁SM -6054
▁꾸 -6055
▁도망 -6056
▁쪼 -6057
▁남겨 -6058
▁릭 -6059
라이터 -6060
▁아마추어 -6061
▁장사 -6062
▁지중해 -6063
▁표지 -6064
▁주사 -6065
▁랭킹 -6066
▁경유 -6067
▁목조 -6068
▁실점 -6069
▁자책 -6070
▁호조 -6071
▁사촌 -6072
▁1906 -6073
▁보통학교 -6074
▁나타나 -6075
야수 -6076
▁건축물 -6077
▁행해 -6078
▁06 -6079
▁연령 -6080
▁연소 -6081
▁이종 -6082
▁스케이팅 -6083
up -6084
▁돼지 -6085
▁옮기 -6086
▁교역 -6087
▁베타 -6088
▁전향 -6089
▁제주도 -6090
▁태자 -6091
보살 -6092
▁토르 -6093
▁뜨 -6094
지마 -6095
멘터리 -6096
▁남동쪽 -6097
▁1917 -6098
스 -6099
슬로 -6100
▁과도 -6101
▁마카 -6102
▁배상 -6103
사관 -6104
▁관하 -6105
▁플레 -6106
도니아 -6107
▁센 -6108
▁준우승 -6109
ip -6110
▁매각 -6111
▁둔 -6112
▁수지 -6113
▁히가시 -6114
▁삽입 -6115
▁적응 -6116
▁정자 -6117
▁1927 -6118
▁낸다 -6119
▁크림 -6120
▁적어도 -6121
▁올린 -6122
▁육성 -6123
▁커피 -6124
▁다양체 -6125
▁에스파 -6126
▁JR -6127
▁조명 -6128
▁시상식 -6129
다른 -6130
ant -6131
▁안양 -6132
ld -6133
▁통로 -6134
▁전승 -6135
IS -6136
▁03 -6137
▁시아 -6138
▁북동쪽 -6139
▁명문 -6140
▁우익 -6141
▁출현 -6142
▁옵 -6143
ED -6144
스팅 -6145
▁쇠퇴 -6146
▁앨런 -6147
▁이토 -6148
▁모듈 -6149
▁1907 -6150
▁이ᄁ -6151
▁굿 -6152
▁사라지 -6153
▁몬테 -6154
▁과장 -6155
▁스와 -6156
▁유인 -6157
▁배급 -6158
▁세워진 -6159
▁렉 -6160
▁대행 -6161
▁정서 -6162
▁탐험 -6163
OM -6164
▁전작 -6165
▁보좌 -6166
▁BBC -6167
영상 -6168
▁라우 -6169
▁외계 -6170
▁석조 -6171
▁인자 -6172
▁호르 -6173
▁럭 -6174
▁옹호 -6175
▁깨 -6176
▁노인 -6177
▁부동산 -6178
▁색상 -6179
▁밀라노 -6180
▁다큐멘터리 -6181
▁창간 -6182
▁1926 -6183
▁흙 -6184
다드 -6185
▁별로 -6186
▁종족 -6187
▁폐기 -6188
▁표본 -6189
▁베토벤 -6190
▁우크라이나 -6191
▁체인 -6192
몬드 -6193
▁관중 -6194
▁사신 -6195
이즈 -6196
▁항목 -6197
▁SN -6198
▁마저 -6199
▁단행 -6200
▁산타 -6201
▁협의회 -6202
▁기압 -6203
▁앱 -6204
▁산악 -6205
▁의병 -6206
▁호남 -6207
▁때로 -6208
▁비틀 -6209
▁자문 -6210
▁포크 -6211
▁맞춰 -6212
▁왕립 -6213
av -6214
▁슐 -6215
▁탑승 -6216
페이지 -6217
▁168 -6218
▁상하이 -6219
▁동아시아 -6220
▁무선 -6221
▁모자 -6222
▁송라이터 -6223
▁He -6224
▁아무런 -6225
생물 -6226
티움 -6227
▁문하 -6228
▁대교 -6229
▁해설 -6230
▁틈 -6231
▁선제 -6232
▁유입 -6233
▁노조 -6234
스토 -6235
▁내장 -6236
▁아가 -6237
▁연금 -6238
▁수감 -6239
▁PD -6240
▁안보 -6241
▁지름 -6242
▁자전거 -6243
▁급속 -6244
▁세조 -6245
▁패러 -6246
▁겨우 -6247
▁묘지 -6248
▁상영 -6249
ind -6250
▁비전 -6251
▁스틸 -6252
▁연고지 -6253
▁돌아온 -6254
슬라 -6255
▁기아 -6256
▁아울 -6257
▁헤드 -6258
▁디즈니 -6259
런트 -6260
▁사료 -6261
튜브 -6262
▁진지 -6263
▁그럼 -6264
다이라 -6265
▁NHK -6266
▁162 -6267
▁에릭 -6268
▁하천 -6269
▁166 -6270
▁꾸준히 -6271
▁이루어진다 -6272
▁동사 -6273
▁좌익 -6274
▁기종 -6275
▁합계 -6276
▁향한 -6277
로프 -6278
▁레이다 -6279
▁최우수 -6280
▁1905 -6281
▁들어서 -6282
▁이어져 -6283
라지 -6284
▁유신 -6285
▁그ᄅ -6286
▁홈페이지 -6287
ame -6288
▁정사 -6289
AC -6290
나카 -6291
▁제후 -6292
se -6293
▁원로 -6294
▁콩고 -6295
▁유튜브 -6296
▁오리지 -6297
되 -6298
버 -6299
▁꼽 -6300
▁떼 -6301
텐도 -6302
▁대조 -6303
▁닌텐도 -6304
▁민족주의 -6305
▁쓴다 -6306
▁룩 -6307
▁시에 -6308
▁예외 -6309
▁어두 -6310
▁비평가 -6311
▁Sp -6312
▁엄마 -6313
▁칭하 -6314
▁|| -6315
▁산지 -6316
▁기하학 -6317
▁비단 -6318
▁151 -6319
▁독일어 -6320
▁문화유산 -6321
세스 -6322
브스 -6323
▁그쳤 -6324
페인 -6325
▁버그 -6326
▁사이클 -6327
총장 -6328
▁가르치 -6329
▁유 -6330
▁조선인 -6331
▁스승 -6332
▁색깔 -6333
▁증기 -6334
▁시외 -6335
▁펼치 -6336
▁낼 -6337
▁줬 -6338
다니 -6339
▁가쓰 -6340
▁주말 -6341
ry -6342
▁트럭 -6343
▁품질 -6344
▁곧바로 -6345
▁굳 -6346
▁모집 -6347
▁흥미 -6348
▁데이터베이스 -6349
ES -6350
▁수천 -6351
▁158 -6352
▁수명 -6353
▁참조 -6354
▁역과 -6355
▁요미 -6356
▁목격 -6357
플레이 -6358
▁드래곤 -6359
▁겐 -6360
▁스페셜 -6361
▁리듬 -6362
▁운명 -6363
▁마일 -6364
▁셋째 -6365
▁굽 -6366
어트 -6367
▁리얼 -6368
▁악장 -6369
▁커뮤니티 -6370
▁둘러 -6371
▁전해진다 -6372
무네 -6373
▁선진 -6374
▁아크 -6375
▁칩 -6376
스케 -6377
▁상소 -6378
ith -6379
▁광역 -6380
▁문과 -6381
스티벌 -6382
▁유고슬 -6383
▁정류장 -6384
▁크리스토 -6385
▁유고슬라비아 -6386
▁라마 -6387
▁지바 -6388
엘라 -6389
▁원산 -6390
▁번 -6391
▁반환 -6392
▁나폴리 -6393
▁02 -6394
▁유닛 -6395
▁페스티벌 -6396
▁대안 -6397
▁십자군 -6398
▁협의 -6399
▁라이온 -6400
▁구마 -6401
▁이오 -6402
▁점성 -6403
▁주거 -6404
▁가미 -6405
ort -6406
▁신비 -6407
▁야생 -6408
▁옛날 -6409
▁자바 -6410
▁주한 -6411
▁남서쪽 -6412
▁주의자 -6413
▁해진 -6414
▁도리 -6415
▁방안 -6416
▁일행 -6417
▁입증 -6418
▁할리 -6419
▁라이벌 -6420
▁수수 -6421
▁주파 -6422
▁레이스 -6423
▁이리 -6424
▁플루 -6425
▁도심 -6426
▁입문 -6427
ok -6428
▁브라이언 -6429
▁소니 -6430
▁토니 -6431
프란시스코 -6432
▁무관 -6433
▁스피드 -6434
▁오디션 -6435
▁기점 -6436
▁되찾 -6437
▁샌프란시스코 -6438
▁특급 -6439
▁향년 -6440
▁운반 -6441
▁재무 -6442
▁일으킨 -6443
▁기용 -6444
▁인텔 -6445
▁동치 -6446
▁사면 -6447
▁베이스볼 -6448
▁거친 -6449
▁디자이너 -6450
▁적색 -6451
▁안드로이드 -6452
▁서북 -6453
▁몬 -6454
▁한나라 -6455
해군 -6456
▁배제 -6457
▁사직 -6458
▁여서 -6459
▁쿠르 -6460
▁연주자 -6461
▁한나라당 -6462
▁걷 -6463
▁인치 -6464
회의 -6465
▁단층 -6466
▁기념물 -6467
▁동영상 -6468
▁출판사 -6469
▁일어나 -6470
▁미네 -6471
▁미만 -6472
프스 -6473
▁마스 -6474
▁콜롬비아 -6475
▁우르 -6476
▁케이블 -6477
▁마케도니아 -6478
러지 -6479
▁와카 -6480
루살 -6481
▁정교 -6482
▁가하 -6483
▁렌즈 -6484
▁묘소 -6485
▁오리지널 -6486
▁분배 -6487
▁초래 -6488
▁직장 -6489
▁1904 -6490
▁평소 -6491
▁신임 -6492
▁출산 -6493
루살렘 -6494
▁그럼에도 -6495
▁복제 -6496
▁프랜 -6497
▁당사자 -6498
▁지휘자 -6499
▁개수 -6500
▁다녔 -6501
▁석탑 -6502
▁아서 -6503
▁알라 -6504
▁심하 -6505
▁부패 -6506
▁긴급 -6507
▁스테이지 -6508
▁나타난 -6509
▁예술가 -6510
▁템 -6511
▁폭스 -6512
▁콘스탄티노 -6513
▁빗 -6514
▁예언 -6515
▁단종 -6516
▁165 -6517
▁관장 -6518
▁왕족 -6519
▁교전 -6520
▁서경 -6521
▁용기 -6522
▁진도 -6523
▁기재 -6524
▁겹 -6525
▁의거 -6526
▁좌석 -6527
▁Un -6528
▁챌 -6529
▁파생 -6530
▁센트럴 -6531
▁마쓰다이라 -6532
프라 -6533
▁Wh -6534
▁상무 -6535
▁자사 -6536
▁가게 -6537
▁모순 -6538
▁걸리 -6539
▁급행 -6540
▁판타지 -6541
▁신하 -6542
▁내륙 -6543
▁154 -6544
리케이션 -6545
▁넘어 -6546
▁여동생 -6547
▁엉 -6548
교육 -6549
▁계단 -6550
ob -6551
ord -6552
▁기름 -6553
▁트레 -6554
▁비즈니스 -6555
▁걸려 -6556
문학 -6557
▁수면 -6558
▁오타 -6559
▁합작 -6560
▁Se -6561
▁동전 -6562
▁무신 -6563
▁예루살렘 -6564
▁무슬 -6565
▁파나 -6566
qu -6567
▁권고 -6568
▁받침 -6569
터스 -6570
▁사르 -6571
아보 -6572
▁압박 -6573
▁용산 -6574
▁찌 -6575
▁신용 -6576
▁안 -6577
페이 -6578
▁163 -6579
▁156 -6580
▁바이올린 -6581
▁정계 -6582
▁항일 -6583
▁스펙트 -6584
가스 -6585
▁링크 -6586
▁연애 -6587
▁도메인 -6588
▁무슬림 -6589
▁만난 -6590
▁DJ -6591
모니 -6592
▁선보였 -6593
우옌 -6594
▁사범 -6595
▁167 -6596
▁그랑 -6597
▁크리스티 -6598
▁SF -6599
▁스쿨 -6600
디스 -6601
아하 -6602
▁상임 -6603
▁여신 -6604
▁리투아 -6605
▁리투아니아 -6606
▁진상 -6607
▁스펙트럼 -6608
▁싫 -6609
▁얼음 -6610
ate -6611
▁퍼져 -6612
▁호환 -6613
▁마쳤 -6614
경기 -6615
▁덮 -6616
▁회원국 -6617
▁부리 -6618
▁훼손 -6619
▁끼리 -6620
▁900 -6621
▁머물렀 -6622
PS -6623
▁AM -6624
▁대단 -6625
▁밀접 -6626
▁부수 -6627
▁둘러싸 -6628
▁전염 -6629
랑이 -6630
식물 -6631
▁아인 -6632
▁타마 -6633
▁못해 -6634
▁서울시 -6635
▁비로 -6636
▁충남 -6637
▁이명박 -6638
▁자회사 -6639
▁조국 -6640
▁스마트폰 -6641
카르 -6642
▁참판 -6643
▁조류 -6644
▁노무현 -6645
▁장편 -6646
▁챌린 -6647
▁한양 -6648
▁번식 -6649
껍질 -6650
▁게시 -6651
▁고립 -6652
▁바그 -6653
▁니스 -6654
▁도망 -6655
▁우지 -6656
▁발효 -6657
▁어항 -6658
▁미얀 -6659
▁분지 -6660
▁선사 -6661
▁우루 -6662
▁친정 -6663
▁비잔티움 -6664
▁샹 -6665
▁과제 -6666
▁지주 -6667
▁혜성 -6668
리크 -6669
▁애국 -6670
▁싸웠 -6671
▁이지 -6672
▁착륙 -6673
▁좋아하 -6674
▁쇼군 -6675
▁칸 -6676
▁무라 -6677
▁일요일 -6678
▁교섭 -6679
▁와중 -6680
▁팅 -6681
킨스 -6682
IC -6683
▁예능 -6684
▁주립 -6685
▁오케스트라 -6686
▁오다 -6687
▁지장 -6688
▁저기 -6689
길이 -6690
▁피렌 -6691
▁UN -6692
▁식사 -6693
▁포맷 -6694
커스 -6695
▁시체 -6696
▁차관 -6697
▁서브 -6698
잡이 -6699
▁농도 -6700
▁139 -6701
▁진나라 -6702
▁성종 -6703
▁벌어지 -6704
▁피스 -6705
▁파동 -6706
▁선두 -6707
▁아베 -6708
▁알바니아 -6709
▁옌 -6710
▁구장 -6711
▁융합 -6712
▁최신 -6713
▁사리 -6714
▁요크 -6715
아지 -6716
▁물려 -6717
▁부흥 -6718
럼비아 -6719
마치 -6720
▁AS -6721
▁대령 -6722
▁145 -6723
▁행정부 -6724
예프 -6725
▁하트 -6726
▁디비전 -6727
로디 -6728
▁쿠스 -6729
▁낱 -6730
▁소나 -6731
ET -6732
▁바티 -6733
▁월간 -6734
▁기타리스트 -6735
부인 -6736
▁용량 -6737
▁강연 -6738
▁발족 -6739
▁야기 -6740
ast -6741
▁공과 -6742
▁위주 -6743
▁아이디 -6744
▁하드웨어 -6745
▁벌어졌 -6746
▁보전 -6747
▁개발자 -6748
▁사라졌 -6749
▁거인 -6750
▁전이 -6751
▁관찰사 -6752
▁주머니 -6753
▁킬로미터 -6754
▁빨리 -6755
▁투명 -6756
▁마리오 -6757
▁심한 -6758
▁충성 -6759
▁해인 -6760
▁간접 -6761
▁MVP -6762
▁브라우 -6763
▁착수 -6764
▁학파 -6765
▁부통령 -6766
▁주어진 -6767
▁지질 -6768
▁스트리트 -6769
▁번주 -6770
DP -6771
들리 -6772
▁김동 -6773
▁임상 -6774
▁HIV -6775
▁굉 -6776
▁고조 -6777
▁부자 -6778
▁전임 -6779
▁몸길이 -6780
▁아이디어 -6781
▁피렌체 -6782
▁응우옌 -6783
▁무너 -6784
▁페어 -6785
랑크 -6786
▁관광객 -6787
▁마케팅 -6788
▁미나미 -6789
▁제네 -6790
▁차체 -6791
▁측근 -6792
▁빌 -6793
▁알렸 -6794
▁넬 -6795
▁마산 -6796
▁전지 -6797
수아 -6798
▁규명 -6799
▁중국어 -6800
▁배정 -6801
▁아세 -6802
데이트 -6803
▁슬 -6804
if -6805
▁가득 -6806
▁완화 -6807
▁하노 -6808
▁정벌 -6809
▁업데이트 -6810
▁디오 -6811
▁전두 -6812
▁전류 -6813
▁점유 -6814
▁맥스 -6815
▁이에 -6816
▁1896 -6817
▁부시 -6818
▁권유 -6819
▁부도 -6820
트니 -6821
▁성공회 -6822
▁샬 -6823
레이터 -6824
▁피에르 -6825
트롤 -6826
ack -6827
ive -6828
▁경선 -6829
▁다이아 -6830
주곡 -6831
▁DS -6832
▁공용 -6833
▁귀환 -6834
▁사바 -6835
▁험 -6836
란트 -6837
아리 -6838
▁중도 -6839
▁출구 -6840
▁형법 -6841
▁공전 -6842
▁뱅크 -6843
▁여덟 -6844
▁들어간 -6845
IT -6846
균관 -6847
▁구동 -6848
▁묻 -6849
▁로빈 -6850
▁트윈 -6851
ure -6852
▁턴 -6853
▁스콧 -6854
▁보드 -6855
▁히라 -6856
리티 -6857
낼 -6858
▁게이트 -6859
▁친선 -6860
▁연수 -6861
▁붓 -6862
▁IP -6863
▁검증 -6864
▁디젤 -6865
▁들어와 -6866
악기 -6867
▁중독 -6868
▁스타크래프트 -6869
▁174 -6870
▁셔 -6871
▁성벽 -6872
▁섞 -6873
▁석탄 -6874
▁오렌 -6875
▁존경 -6876
▁수학자 -6877
▁애플리케이션 -6878
루미 -6879
▁마운 -6880
▁붙이 -6881
▁152 -6882
▁요미우리 -6883
▁관습 -6884
▁세례 -6885
▁노동조합 -6886
▁짙 -6887
▁청와 -6888
▁뜨 -6889
▁수산 -6890
▁다룬 -6891
▁옐 -6892
운서 -6893
츠키 -6894
▁실용 -6895
▁우즈 -6896
▁지각 -6897
▁플라스 -6898
▁5000 -6899
▁미하 -6900
iv -6901
ock -6902
▁서열 -6903
▁정찰 -6904
▁조용 -6905
▁피난 -6906
문관 -6907
▁인과 -6908
▁아나운서 -6909
▁시드니 -6910
▁고서 -6911
ᅱᆫ -6912
▁쇼핑 -6913
▁메디 -6914
▁전장 -6915
▁소송법 -6916
▁테일러 -6917
▁사명 -6918
▁청와대 -6919
결승 -6920
▁변동 -6921
▁157 -6922
▁서일본 -6923
▁행진 -6924
▁뷔 -6925
▁전진 -6926
▁련 -6927
▁Ar -6928
▁전문학교 -6929
▁사인 -6930
▁테오 -6931
▁얼마나 -6932
▁꼴 -6933
토미 -6934
▁밀양 -6935
사기 -6936
▁WWE -6937
▁장성 -6938
ck -6939
▁금성 -6940
폴리스 -6941
▁자면 -6942
▁루수 -6943
▁드러내 -6944
▁규격 -6945
▁준공 -6946
▁자율 -6947
▁한강 -6948
▁한화 -6949
▁해전 -6950
▁호평 -6951
▁빌헬 -6952
▁퇴각 -6953
▁저기압 -6954
▁수신 -6955
▁내세 -6956
▁프로세스 -6957
▁염색 -6958
▁고개 -6959
▁번뇌 -6960
▁이슈 -6961
▁좌표 -6962
▁아울러 -6963
▁미스터 -6964
▁회수 -6965
▁상상 -6966
▁신전 -6967
▁하버드 -6968
▁돌려 -6969
▁킨 -6970
▁구제 -6971
▁판매량 -6972
▁어릴 -6973
▁관현 -6974
▁적대 -6975
가루 -6976
▁책봉 -6977
▁급진 -6978
▁신칸 -6979
▁카나 -6980
▁취약 -6981
▁성균관 -6982
▁가즈 -6983
▁관념 -6984
▁연구자 -6985
▁뿔 -6986
외선 -6987
▁백신 -6988
▁장인 -6989
▁카시 -6990
▁흥행 -6991
▁가질 -6992
▁무효 -6993
▁닫 -6994
산군 -6995
트랙 -6996
▁복소 -6997
▁지분 -6998
▁반 -6999
▁비극 -7000
▁해임 -7001
▁자손 -7002
원숭이 -7003
붙이 -7004
▁MP -7005
전자 -7006
▁응답 -7007
▁몰락 -7008
니스트 -7009
수수 -7010
▁연루 -7011
▁제휴 -7012
▁문재인 -7013
▁국어 -7014
▁상류 -7015
▁김용 -7016
▁125 -7017
▁j -7018
▁식당 -7019
▁할당 -7020
▁쫓 -7021
카드 -7022
포스 -7023
▁메가 -7024
▁이순 -7025
하르트 -7026
▁146 -7027
▁서독 -7028
▁소금 -7029
▁통행 -7030
▁에티 -7031
▁피해 -7032
▁쇄 -7033
악단 -7034
▁105 -7035
▁쥬 -7036
▁마찰 -7037
▁악마 -7038
▁천문학 -7039
혁명 -7040
▁소총 -7041
▁승차 -7042
▁히스 -7043
▁1500 -7044
자와 -7045
▁문제점 -7046
▁패전 -7047
군 -7048
▁까 -7049
▁남양 -7050
▁충족 -7051
메르 -7052
▁파스 -7053
▁박영 -7054
▁남인 -7055
▁여수 -7056
▁창업 -7057
▁동남아시아 -7058
▁나미 -7059
▁루터 -7060
▁3000 -7061
▁강사 -7062
▁믿음 -7063
▁술탄 -7064
▁유출 -7065
12 -7066
▁마오 -7067
▁시집 -7068
▁거ᄉ -7069
▁젖 -7070
▁매출 -7071
▁1911 -7072
▁외무 -7073
▁우정 -7074
▁이노 -7075
▁착공 -7076
▁노드 -7077
▁서서 -7078
▁윌슨 -7079
ime -7080
▁민국 -7081
▁소지 -7082
▁자책점 -7083
▁저택 -7084
▁됐으며 -7085
고속도로 -7086
▁곳곳 -7087
▁신칸센 -7088
▁이복 -7089
▁얇 -7090
▁나가 -7091
▁성전 -7092
▁비아 -7093
▁153 -7094
▁원나라 -7095
▁지지자 -7096
▁나열 -7097
▁조언 -7098
라트 -7099
▁단원 -7100
▁소닉 -7101
▁항공모 -7102
일드 -7103
▁내내 -7104
▁하마 -7105
▁프로토콜 -7106
▁떨어졌 -7107
▁소관 -7108
▁PS -7109
▁고원 -7110
▁사사 -7111
▁여래 -7112
▁소재지 -7113
▁석가 -7114
▁일렉 -7115
one -7116
▁이이 -7117
▁청사 -7118
서양 -7119
▁Le -7120
▁순천 -7121
▁중점 -7122
▁지목 -7123
▁과목 -7124
▁디비 -7125
▁로고 -7126
▁사지 -7127
▁매개 -7128
▁카트 -7129
▁빌헬름 -7130
▁예배 -7131
▁유언 -7132
▁희극 -7133
▁MC -7134
▁회견 -7135
제프 -7136
▁103 -7137
▁폴리스 -7138
▁찌 -7139
▁환원 -7140
▁시외버스 -7141
▁고무 -7142
▁힌두 -7143
▁봤 -7144
▁아즈 -7145
▁강수량 -7146
▁증후 -7147
네이 -7148
▁환상 -7149
▁우주선 -7150
▁동위 -7151
▁배구 -7152
토시 -7153
▁편곡 -7154
▁조르 -7155
▁회계 -7156
대군 -7157
▁따위 -7158
▁와인 -7159
팩트 -7160
▁마천 -7161
ᆸ힌 -7162
된 -7163
▁보잉 -7164
▁중장 -7165
▁특유 -7166
▁Pro -7167
▁셈 -7168
▁연인 -7169
▁이글 -7170
▁후자 -7171
▁미얀마 -7172
▁카자흐 -7173
▁법령 -7174
▁클린 -7175
▁비틀즈 -7176
▁성모 -7177
▁천사 -7178
▁ISO -7179
▁주권 -7180
▁오클 -7181
▁참가자 -7182
▁개업 -7183
▁공자 -7184
▁취재 -7185
▁포장 -7186
델피아 -7187
▁벗어나 -7188
▁필라델피아 -7189
▁고베 -7190
▁일관 -7191
▁떠난 -7192
▁되도 -7193
▁채무 -7194
▁기장 -7195
▁매사 -7196
▁으 -7197
▁겸임 -7198
▁머물 -7199
▁제트 -7200
▁공략 -7201
▁선원 -7202
▁제의 -7203
▁반격 -7204
▁진리 -7205
▁공인 -7206
▁해역 -7207
▁찬 -7208
ML -7209
즈카 -7210
▁친척 -7211
▁이어서 -7212
AP -7213
노리 -7214
▁버튼 -7215
▁별개 -7216
▁시립 -7217
▁우편 -7218
▁점프 -7219
기니 -7220
▁늘어나 -7221
▁근접 -7222
▁나리 -7223
▁최적 -7224
▁오렌지 -7225
OC -7226
바 -7227
▁굵 -7228
▁눈물 -7229
▁패스 -7230
▁거둔 -7231
▁닭 -7232
▁삿 -7233
▁상자 -7234
▁155 -7235
▁출입구 -7236
Pa -7237
▁각기 -7238
▁중종 -7239
▁추모 -7240
▁약한 -7241
▁토크 -7242
▁각본가 -7243
받침 -7244
▁독립운동가 -7245
▁회화 -7246
어리 -7247
▁보충 -7248
▁테스 -7249
▁협동 -7250
마사 -7251
▁격렬 -7252
▁앞서 -7253
동물 -7254
▁게재 -7255
▁대답 -7256
▁허브 -7257
▁둘러싸 -7258
▁내지 -7259
▁아군 -7260
▁유해 -7261
▁인격 -7262
▁카타 -7263
▁주파수 -7264
▁꺼 -7265
▁유격 -7266
▁언 -7267
▁컨트롤 -7268
▁이원 -7269
▁불 -7270
▁정치가 -7271
▁밭 -7272
▁Bo -7273
▁모으 -7274
▁위장 -7275
시온 -7276
▁동등 -7277
▁별자리 -7278
te -7279
▁법무 -7280
▁사가 -7281
소스 -7282
▁담배 -7283
▁인형 -7284
노프 -7285
▁금액 -7286
▁사물 -7287
▁실종 -7288
▁앞면 -7289
▁오키나 -7290
▁증후군 -7291
▁민영 -7292
▁항공모함 -7293
▁생일 -7294
▁이인 -7295
▁토리 -7296
▁포수 -7297
▁108 -7298
▁리메 -7299
▁성주 -7300
시 -7301
▁미소 -7302
▁이영 -7303
▁북동부 -7304
▁즐기 -7305
▁평행 -7306
▁매력 -7307
▁이바 -7308
▁합법 -7309
▁컸 -7310
▁오디오 -7311
▁레전 -7312
▁유교 -7313
▁민사 -7314
▁토요일 -7315
▁감지 -7316
낸다 -7317
▁두산 -7318
▁영동 -7319
▁트라이 -7320
플러 -7321
▁Con -7322
ᆸ힌다 -7323
▁유한 -7324
▁거슬러 -7325
▁룰 -7326
리언 -7327
▁일찍이 -7328
▁아바 -7329
▁자발 -7330
▁아리스 -7331
▁양상 -7332
▁베르크 -7333
▁스파이 -7334
때로 -7335
▁서서히 -7336
▁나고 -7337
▁서해 -7338
▁외곽 -7339
▁개찰구 -7340
▁사우디아 -7341
▁들여 -7342
▁전두환 -7343
▁준결승 -7344
▁히데요시 -7345
산면 -7346
상스 -7347
▁하우 -7348
▁상대방 -7349
▁건의 -7350
io -7351
▁스터 -7352
▁승무원 -7353
▁상부 -7354
▁맡 -7355
▁멈 -7356
▁박탈 -7357
항공 -7358
▁고체 -7359
▁일족 -7360
▁알아 -7361
▁에디 -7362
▁이사장 -7363
▁퍼시픽 -7364
▁화살 -7365
▁시청자 -7366
ber -7367
▁교장 -7368
▁아케 -7369
▁자고 -7370
▁어두운 -7371
산리 -7372
▁추격 -7373
▁에이스 -7374
▁브래 -7375
▁야간 -7376
▁입상 -7377
▁나고야 -7378
▁트럼프 -7379
▁드라이브 -7380
▁크리스마스 -7381
▁전례 -7382
▁때때로 -7383
▁던지 -7384
▁앙리 -7385
▁호세 -7386
▁생명체 -7387
▁하인리히 -7388
베이터 -7389
▁태어나 -7390
가타 -7391
▁상장 -7392
▁한데 -7393
▁IT -7394
▁만세 -7395
▁무려 -7396
▁마친 -7397
러미 -7398
▁홍수 -7399
▁김영삼 -7400
▁물자 -7401
▁세균 -7402
▁해운 -7403
▁아우구 -7404
▁1909 -7405
퍼니 -7406
화점 -7407
▁교단 -7408
▁고발 -7409
▁궁정 -7410
▁외국어 -7411
▁부착 -7412
▁대주교 -7413
▁자마 -7414
▁기금 -7415
▁이슬람교 -7416
▁사다 -7417
▁보스니아 -7418
▁128 -7419
▁날 -7420
▁149 -7421
▁캠페인 -7422
져서 -7423
▁콜라 -7424
▁수성 -7425
▁연도 -7426
▁102 -7427
▁톈 -7428
▁트위 -7429
▁가르침 -7430
▁네이버 -7431
▁긴장 -7432
▁명의 -7433
▁시라 -7434
▁향교 -7435
▁운동장 -7436
모어 -7437
▁복장 -7438
▁전도 -7439
칠리아 -7440
▁사용자 -7441
▁남긴 -7442
▁# -7443
구장 -7444
▁골프 -7445
▁메타 -7446
▁물러났 -7447
▁대군 -7448
▁트루 -7449
▁자마자 -7450
▁고가 -7451
▁짜리 -7452
▁호칭 -7453
▁배틀 -7454
▁정밀 -7455
▁기다리 -7456
▁제작자 -7457
라이트 -7458
▁대외 -7459
▁안장 -7460
▁집계 -7461
▁건축가 -7462
▁어드 -7463
▁존중 -7464
▁치세 -7465
▁피고 -7466
▁헌 -7467
▁르네상스 -7468
▁슬라 -7469
▁후안 -7470
▁지나치 -7471
람회 -7472
▁중재 -7473
▁푸른 -7474
▁남한 -7475
▁중국인 -7476
▁에스파냐 -7477
▁발원 -7478
▁최저 -7479
▁텍스트 -7480
▁사우디아라비아 -7481
ᅢᆻ -7482
▁직책 -7483
ge -7484
트릭 -7485
▁가라 -7486
▁주지사 -7487
▁이른 -7488
▁얘 -7489
▁전대 -7490
▁레이저 -7491
▁계절 -7492
▁송나라 -7493
age -7494
▁발현 -7495
먼드 -7496
▁차남 -7497
▁리오 -7498
▁셸 -7499
라미 -7500
▁Bl -7501
▁여주 -7502
▁자유당 -7503
▁섭취 -7504
▁포괄 -7505
▁팽창 -7506
iz -7507
▁방침 -7508
▁세미 -7509
생활 -7510
집합 -7511
▁사절 -7512
▁시오 -7513
▁키프 -7514
▁패하 -7515
▁레전드 -7516
▁최소한 -7517
나리 -7518
▁강경 -7519
▁단기 -7520
백과 -7521
▁문양 -7522
▁아미타 -7523
▁$ -7524
▁상세 -7525
▁초창 -7526
▁향후 -7527
▁손가락 -7528
▁사이버 -7529
▁대니 -7530
▁원자로 -7531
▁포도주 -7532
▁댐 -7533
▁낙선 -7534
▁수평 -7535
▁턱 -7536
▁굉장 -7537
▁다중 -7538
▁에우 -7539
▁여의 -7540
▁둥ᄀ -7541
차례 -7542
▁원하 -7543
ᆩ여 -7544
▁청장 -7545
▁토스 -7546
우라 -7547
▁가져 -7548
▁고사 -7549
▁프랭크 -7550
AD -7551
▁고래 -7552
▁촉구 -7553
▁팔레스 -7554
▁객관 -7555
▁충주 -7556
▁캄보 -7557
▁탐지 -7558
▁147 -7559
▁유니폼 -7560
▁룽 -7561
▁조반 -7562
▁태생 -7563
▁그랑프리 -7564
따 -7565
▁로프 -7566
▁127 -7567
▁끈 -7568
▁블루스 -7569
▁단점 -7570
▁동독 -7571
▁김태 -7572
▁토마 -7573
▁CPU -7574
▁죽였 -7575
▁명목 -7576
▁볼리 -7577
▁경부 -7578
수엘라 -7579
▁속성 -7580
▁스릴 -7581
▁노란색 -7582
▁여진 -7583
▁아미노 -7584
▁1915 -7585
▁엘리베이터 -7586
▁판 -7587
▁딩 -7588
▁기수 -7589
▁무죄 -7590
▁초연 -7591
행위 -7592
▁수군 -7593
▁왜성 -7594
▁전함 -7595
▁캐스팅 -7596
▁메인 -7597
▁음원 -7598
▁171 -7599
▁갓 -7600
▁겔 -7601
워하 -7602
단 -7603
▁입체 -7604
▁진군 -7605
노부 -7606
▁숭배 -7607
▁주축 -7608
▁컬러 -7609
▁케네 -7610
▁하이드 -7611
서리 -7612
▁취지 -7613
▁협조 -7614
▁로맨스 -7615
▁역명 -7616
▁침몰 -7617
▁1913 -7618
▁윌리엄스 -7619
sp -7620
orld -7621
▁쉐 -7622
▁난민 -7623
▁버린 -7624
▁심의 -7625
▁알코 -7626
▁오키나와 -7627
▁hPa -7628
▁사ᄅ -7629
▁아도 -7630
▁마비 -7631
▁북구 -7632
▁북방 -7633
▁황해 -7634
▁유소년 -7635
▁제곱 -7636
▁상당수 -7637
▁가해 -7638
▁따뜻 -7639
▁추증 -7640
▁라파 -7641
▁이어받 -7642
던 -7643
▁후일 -7644
▁베네수엘라 -7645
▁부천 -7646
▁원고 -7647
▁천문학자 -7648
▁투르크 -7649
ik -7650
▁김재 -7651
▁동당 -7652
▁광년 -7653
▁김수 -7654
▁가져왔 -7655
창군 -7656
▁김진 -7657
▁신흥 -7658
▁언제나 -7659
▁부과 -7660
▁수동 -7661
▁문학상 -7662
▁동년 -7663
▁마하 -7664
▁옥스 -7665
▁테니스 -7666
▁분광 -7667
▁추상 -7668
▁출토 -7669
▁난다 -7670
시티 -7671
▁창건 -7672
▁위키백과 -7673
▁센서 -7674
▁초창기 -7675
▁이민자 -7676
▁미쳤 -7677
▁닿 -7678
▁뚫 -7679
▁둘레 -7680
▁보리 -7681
▁이틀 -7682
▁타르 -7683
▁산다 -7684
▁서사 -7685
▁전한다 -7686
▁팜 -7687
▁동래 -7688
▁탈환 -7689
▁태수 -7690
기지 -7691
ᆯ림 -7692
▁강과 -7693
▁대포 -7694
▁169 -7695
▁기습 -7696
▁수렴 -7697
▁시그 -7698
▁분 -7699
▁든지 -7700
▁개미 -7701
자치도 -7702
▁제주특별 -7703
▁제주특별자치도 -7704
▁머신 -7705
▁코프 -7706
▁GT -7707
▁창시 -7708
▁달린 -7709
▁가르쳤 -7710
▁병역 -7711
▁별 -7712
▁라이언 -7713
▁원반 -7714
▁에다 -7715
포구 -7716
▁수령 -7717
▁CE -7718
명사전 -7719
▁드러나 -7720
▁디스플레이 -7721
▁뽀 -7722
▁대역 -7723
▁바흐 -7724
▁스파르타 -7725
▁어업 -7726
▁종결 -7727
▁청원 -7728
▁1895 -7729
▁유수 -7730
▁SP -7731
▁광부 -7732
▁모스 -7733
▁카탈 -7734
▁조리 -7735
▁프레스 -7736
▁나가사키 -7737
▁리메이크 -7738
▁링컨 -7739
▁아폴 -7740
▁인재 -7741
▁정말 -7742
▁무제 -7743
▁총선거 -7744
▁끌어 -7745
▁걱 -7746
▁딴 -7747
▁al -7748
▁대제 -7749
▁대처 -7750
▁141 -7751
▁한동안 -7752
▁팔레스타인 -7753
석기 -7754
▁남원 -7755
▁재미 -7756
기 -7757
평군 -7758
포트 -7759
▁효력 -7760
▁135 -7761
▁초상화 -7762
▁계몽 -7763
▁유연 -7764
▁적자 -7765
▁통칭 -7766
▁아사히 -7767
▁주차 -7768
▁언론인 -7769
▁멈추 -7770
▁엔지 -7771
▁반박 -7772
MS -7773
벼 -7774
▁동력 -7775
▁끊임 -7776
▁법제 -7777
▁비문 -7778
▁섭정 -7779
▁거느리 -7780
박쥐 -7781
▁시공 -7782
▁다운로드 -7783
▁Tr -7784
▁총괄 -7785
▁부른 -7786
▁신세 -7787
공신 -7788
준 -7789
▁고백 -7790
▁삼진 -7791
▁하부 -7792
네스코 -7793
▁북서부 -7794
▁국사 -7795
▁나주 -7796
▁후세 -7797
▁데려 -7798
▁탤 -7799
벌레 -7800
▁온천 -7801
무기 -7802
ust -7803
▁소실 -7804
▁양주 -7805
▁111 -7806
와라 -7807
▁번영 -7808
▁차기 -7809
그라드 -7810
▁수용소 -7811
태우 -7812
자스 -7813
▁서머 -7814
▁도호쿠 -7815
보기 -7816
▁풋볼 -7817
▁십자가 -7818
▁자기장 -7819
▁지냈으며 -7820
▁바실 -7821
▁중순 -7822
▁버려 -7823
ep -7824
선거 -7825
▁이진 -7826
▁대위 -7827
▁신중 -7828
▁문화방송 -7829
▁어스 -7830
▁저명 -7831
▁개관 -7832
▁귀중 -7833
▁해병대 -7834
▁영리 -7835
▁서울대 -7836
▁캄보디아 -7837
▁144 -7838
▁여겼 -7839
▁날짜 -7840
▁더글 -7841
▁후대 -7842
▁내외 -7843
▁명백 -7844
▁오빠 -7845
▁원내 -7846
▁첨가 -7847
▁둥근 -7848
▁스핀 -7849
▁풍경 -7850
▁폐위 -7851
▁자랐 -7852
▁스티브 -7853
▁김포 -7854
▁함유 -7855
▁식별 -7856
▁께서 -7857
▁교원 -7858
▁병조 -7859
▁휴식 -7860
▁며칠 -7861
▁기요 -7862
▁당일 -7863
▁두루 -7864
▁정전 -7865
▁파업 -7866
▁리버풀 -7867
▁전성기 -7868
▁컴퍼니 -7869
▁걱정 -7870
▁연세대 -7871
int -7872
▁조달 -7873
▁써서 -7874
▁장미 -7875
▁아레나 -7876
▁둘러싼 -7877
▁큰 -7878
▁불편 -7879
▁제수 -7880
▁평야 -7881
▁It -7882
▁무상 -7883
▁이광 -7884
▁정무 -7885
누엘 -7886
키지 -7887
▁119 -7888
▁천도 -7889
▁충실 -7890
▁스릴러 -7891
▁컬럼비아 -7892
▁꽤 -7893
▁공채 -7894
▁소환 -7895
▁중소 -7896
▁TH -7897
▁관통 -7898
▁드럼 -7899
▁편리 -7900
▁신학교 -7901
EN -7902
▁CO -7903
▁총사 -7904
▁다니엘 -7905
▁우연히 -7906
▁매카 -7907
트리올 -7908
▁몬트리올 -7909
▁교양 -7910
▁인산 -7911
크리트 -7912
▁카이사르 -7913
▁간호 -7914
▁모방 -7915
▁별칭 -7916
▁언더 -7917
▁위임 -7918
▁172 -7919
▁정한 -7920
▁도스 -7921
▁북위 -7922
▁저지 -7923
▁버린다 -7924
▁룡 -7925
▁고민 -7926
▁케네디 -7927
▁총대 -7928
GC -7929
릴라 -7930
▁선구 -7931
▁요르 -7932
▁휴전 -7933
▁유니버 -7934
푸스 -7935
▁겸하 -7936
▁사회학 -7937
▁아종 -7938
리에 -7939
시로 -7940
▁관람 -7941
▁엔지니어 -7942
▁그렸 -7943
ib -7944
▁루시 -7945
▁리어 -7946
▁테레 -7947
▁신학자 -7948
▁이글스 -7949
▁쉬운 -7950
▁바치 -7951
▁106 -7952
▁껍질 -7953
▁미주 -7954
▁베드 -7955
▁평일 -7956
▁해수 -7957
▁니콜라 -7958
▁미즈 -7959
▁바퀴 -7960
▁연패 -7961
▁의상 -7962
▁장안 -7963
▁증진 -7964
ᅢᆯ -7965
그로 -7966
▁김상 -7967
▁선종 -7968
▁신기 -7969
▁친일인 -7970
▁스페이스 -7971
▁유네스코 -7972
▁친일인명사전 -7973
▁세계관 -7974
▁아틀레 -7975
ome -7976
▁묘역 -7977
▁보완 -7978
▁쇼트 -7979
▁애덤 -7980
▁진짜 -7981
▁평범 -7982
▁한성부 -7983
▁아이템 -7984
니치 -7985
ian -7986
▁공모 -7987
▁페르난 -7988
▁허 -7989
▁좌절 -7990
▁카리브 -7991
ude -7992
▁서남 -7993
▁중량 -7994
라리 -7995
▁초과 -7996
▁표명 -7997
케이션 -7998
▁아니 -7999
▁공직 -8000
▁도주 -8001
▁승점 -8002
▁장려 -8003
▁어요 -8004
▁미토 -8005
▁소통 -8006
▁아벨 -8007
▁열대 -8008
▁슈트 -8009
▁영남 -8010
▁기울 -8011
▁차종 -8012
▁케이스 -8013
▁콘크리트 -8014
▁마인 -8015
▁제갈 -8016
▁도왔 -8017
페르 -8018
▁고수 -8019
▁장난 -8020
▁치열 -8021
▁항소 -8022
란다 -8023
▁프랑수아 -8024
▁콰 -8025
▁마츠 -8026
▁지혜 -8027
▁에스토 -8028
▁놀라 -8029
▁벗어나 -8030
러드 -8031
▁들어왔 -8032
▁We -8033
▁등재 -8034
▁배신 -8035
▁방패 -8036
▁돌연 -8037
▁아이슬 -8038
▁책임자 -8039
▁생전 -8040
▁해변 -8041
▁쓰인 -8042
▁정렬 -8043
▁탱크 -8044
▁포격 -8045
▁그루 -8046
▁낱말 -8047
▁외교관 -8048
▁일어날 -8049
ere -8050
▁충북 -8051
▁달ᄅ -8052
▁쿤 -8053
▁지폐 -8054
내셔널 -8055
주의자 -8056
▁인터내셔널 -8057
루션 -8058
▁역설 -8059
▁일화 -8060
▁전압 -8061
블로 -8062
세츠 -8063
▁합창 -8064
▁영장 -8065
▁바라보 -8066
선스 -8067
말라 -8068
▁양도 -8069
▁업계 -8070
▁공단 -8071
▁불명 -8072
▁투르 -8073
▁매사추 -8074
실록 -8075
ire -8076
▁에버 -8077
▁일조 -8078
▁황태자 -8079
치오 -8080
▁단식 -8081
▁발트 -8082
▁입지 -8083
▁공의회 -8084
▁매사추세츠 -8085
▁부채 -8086
▁상서 -8087
▁퍼센트 -8088
▁아이슬란드 -8089
▁대웅 -8090
▁시흥 -8091
▁도라 -8092
▁물러 -8093
▁호위 -8094
▁우라늄 -8095
▁중추원 -8096
▁지나가 -8097
▁신속 -8098
▁암석 -8099
▁청하 -8100
▁나스 -8101
유행 -8102
라이더 -8103
▁소유자 -8104
▁시나리오 -8105
▁무거운 -8106
▁부재 -8107
▁덤 -8108
▁레바 -8109
▁협주곡 -8110
▁김기 -8111
▁도르 -8112
▁탈당 -8113
오피아 -8114
▁에티오피아 -8115
ace -8116
▁교외 -8117
▁도루 -8118
▁오비 -8119
▁위탁 -8120
▁친왕 -8121
▁오노 -8122
▁스페인어 -8123
▁에스토니아 -8124
▁오세 -8125
▁인연 -8126
▁호프 -8127
ment -8128
▁고령 -8129
▁실전 -8130
▁지능 -8131
pe -8132
▁육지 -8133
▁횟 -8134
▁마약 -8135
▁여지 -8136
▁기인 -8137
▁봉쇄 -8138
▁신탁 -8139
리케인 -8140
▁중심부 -8141
▁라이선스 -8142
▁로열 -8143
▁닝 -8144
야시 -8145
▁상담 -8146
▁서정 -8147
▁창고 -8148
▁평택 -8149
▁물리학자 -8150
ide -8151
마드 -8152
▁리비아 -8153
▁허리케인 -8154
▁슬로바키아 -8155
▁우울 -8156
▁통근 -8157
▁파장 -8158
▁해소 -8159
▁푼 -8160
▁오사 -8161
▁숨겨 -8162
▁바리 -8163
▁즈음 -8164
▁대전광역시 -8165
▁시선 -8166
▁136 -8167
▁쓰러 -8168
▁돌리 -8169
▁현금 -8170
바이잔 -8171
▁148 -8172
▁사슬 -8173
▁하락 -8174
▁전라도 -8175
▁병행 -8176
▁배터리 -8177
▁할리우드 -8178
▁나쁜 -8179
▁애틀 -8180
▁밟 -8181
석탑 -8182
▁의뢰 -8183
제리 -8184
▁NBA -8185
▁신생 -8186
▁호기 -8187
층석탑 -8188
ᆨ힌 -8189
의자 -8190
중국 -8191
하면 -8192
▁이사회 -8193
▁1916 -8194
▁격투 -8195
▁추세 -8196
▁부적 -8197
▁치즈 -8198
▁아제르 -8199
▁스튜어트 -8200
▁결혼식 -8201
▁다른 -8202
▁극동 -8203
▁낭만 -8204
▁실시간 -8205
▁바꿔 -8206
▁순회 -8207
▁마이너 -8208
▁아제르바이잔 -8209
▁바닷 -8210
▁HT -8211
▁TO -8212
▁추출 -8213
▁빠졌 -8214
▁닛폰 -8215
▁특집 -8216
승지 -8217
▁주행 -8218
아이 -8219
▁막내 -8220
▁서재 -8221
▁아드 -8222
▁앓 -8223
위원 -8224
▁성운 -8225
▁입당 -8226
▁급격히 -8227
▁우루과이 -8228
▁우세 -8229
▁허리 -8230
지리아 -8231
▁파이어 -8232
▁나이지리아 -8233
▁그로 -8234
▁동상 -8235
▁말리 -8236
▁조연 -8237
▁사헌 -8238
▁솜 -8239
▁IBM -8240
▁네이션스 -8241
IM -8242
▁격퇴 -8243
▁얘기 -8244
▁명제 -8245
▁세션 -8246
▁패키지 -8247
▁작센 -8248
▁아마도 -8249
▁DC -8250
▁구도 -8251
▁다항 -8252
▁원숭이 -8253
▁국무총리 -8254
▁기단 -8255
▁산림 -8256
▁거론 -8257
▁바스 -8258
▁실장 -8259
▁전념 -8260
시피 -8261
▁되게 -8262
▁실리 -8263
▁의약 -8264
▁내린 -8265
▁첼시 -8266
▁쌍둥이 -8267
▁데이비스 -8268
바다 -8269
▁시초 -8270
▁138 -8271
▁워드 -8272
▁유동 -8273
▁수습 -8274
▁노부나가 -8275
▁닷 -8276
▁잦 -8277
람쥐 -8278
▁가동 -8279
▁개그 -8280
▁박해 -8281
▁저하 -8282
▁중위 -8283
▁포터 -8284
▁현종 -8285
▁구릉 -8286
런 -8287
▁면허 -8288
▁반감 -8289
▁안성 -8290
▁한스 -8291
▁딕 -8292
▁구이 -8293
▁니아 -8294
▁분당 -8295
▁고소 -8296
▁신규 -8297
▁객체 -8298
▁페르디 -8299
▁백색 -8300
▁약칭 -8301
▁평원 -8302
▁회고 -8303
▁리우스 -8304
▁백화점 -8305
▁구호 -8306
▁지류 -8307
▁브라우저 -8308
▁치러진 -8309
아나 -8310
▁극히 -8311
▁깨달 -8312
▁후방 -8313
▁사헌부 -8314
cl -8315
▁리틀 -8316
▁전한 -8317
▁경연 -8318
▁치명 -8319
▁전했 -8320
▁la -8321
▁신한 -8322
▁레논 -8323
▁구조물 -8324
▁시칠리아 -8325
타로 -8326
▁거제 -8327
▁시즈 -8328
▁해밀 -8329
▁360 -8330
▁이세 -8331
▁지선 -8332
▁붙였 -8333
▁펌 -8334
▁반경 -8335
▁성숙 -8336
▁냉각 -8337
▁후쿠시마 -8338
▁나타낼 -8339
▁영의정 -8340
▁여겨졌 -8341
▁거행 -8342
▁중성자 -8343
▁고성 -8344
▁상공 -8345
▁토성 -8346
▁환영 -8347
타나 -8348
▁도미 -8349
▁재위 -8350
▁탐구 -8351
▁가벼 -8352
리니 -8353
양함 -8354
▁최악 -8355
▁춘천 -8356
▁최상위 -8357
토모 -8358
▁그날 -8359
▁복선 -8360
▁104 -8361
▁아부 -8362
▁바이오 -8363
▁가면 -8364
▁오바 -8365
▁LP -8366
▁재현 -8367
▁한쪽 -8368
▁라이브러리 -8369
▁결선 -8370
▁생식 -8371
▁게르만 -8372
▁다스리 -8373
대신 -8374
▁택시 -8375
▁해적 -8376
여래 -8377
▁기어 -8378
래스카 -8379
▁모른다 -8380
▁En -8381
▁반도체 -8382
▁라트비아 -8383
스틴 -8384
▁감리 -8385
▁그램 -8386
▁임용 -8387
곡리 -8388
▁없애 -8389
▁혈통 -8390
▁새겨져 -8391
▁동점 -8392
▁비시 -8393
▁차장 -8394
▁횟수 -8395
회장 -8396
▁성체 -8397
▁장학 -8398
▁춘추 -8399
▁피에 -8400
베르토 -8401
마쓰 -8402
▁도장 -8403
▁트래 -8404
▁휴스턴 -8405
▁랄 -8406
▁송시 -8407
▁애틀랜 -8408
▁테이블 -8409
▁릉 -8410
데시 -8411
타고 -8412
▁우위 -8413
▁모니터 -8414
▁가짜 -8415
▁어휘 -8416
▁주가 -8417
은색 -8418
ark -8419
▁고치 -8420
▁스트레스 -8421
브레 -8422
▁제독 -8423
▁약 -8424
▁오피스 -8425
▁잔류 -8426
▁109 -8427
▁Pr -8428
▁디 -8429
▁왜냐 -8430
▁주름 -8431
푸르트 -8432
▁개원 -8433
▁고인 -8434
▁뢰 -8435
하시 -8436
▁나비 -8437
▁행적 -8438
▁목판 -8439
▁축하 -8440
▁123 -8441
▁방송사 -8442
▁할지 -8443
▁스톡 -8444
▁힘입 -8445
▁별다른 -8446
▁부당 -8447
▁현저 -8448
▁하워드 -8449
▁옴 -8450
▁괴 -8451
▁이케 -8452
▁정점 -8453
▁칼라 -8454
▁대학생 -8455
▁견제 -8456
▁엘 -8457
▁호랑이 -8458
ᆶ어 -8459
▁교황청 -8460
▁랄 -8461
리안 -8462
▁억압 -8463
▁통증 -8464
▁대표작 -8465
▁성취 -8466
▁아홉 -8467
▁폭동 -8468
▁사우루스 -8469
▁코무네 -8470
▁햇 -8471
면체 -8472
▁공수 -8473
▁주주 -8474
▁소매 -8475
▁열정 -8476
▁야구장 -8477
고쿠 -8478
차기 -8479
▁매입 -8480
▁바나 -8481
▁여당 -8482
▁육체 -8483
▁공산주의자 -8484
더슨 -8485
란히 -8486
포드 -8487
▁비리 -8488
▁한인 -8489
▁루프 -8490
▁이식 -8491
▁민회 -8492
▁적당 -8493
▁실려 -8494
▁타이거즈 -8495
▁NC -8496
▁순교 -8497
▁아담 -8498
▁펜실 -8499
베이니아 -8500
▁펜실베이니아 -8501
랜트 -8502
▁연합회 -8503
▁래 -8504
▁공천 -8505
▁시바 -8506
▁명령어 -8507
▁풀려 -8508
▁모이 -8509
▁벌금 -8510
▁인플 -8511
▁축적 -8512
헤이 -8513
▁휠 -8514
▁143 -8515
▁카자흐스탄 -8516
▁노바 -8517
▁응원 -8518
▁주역 -8519
▁터치 -8520
▁종로구 -8521
▁나눌 -8522
은이 -8523
▁AK -8524
▁AR -8525
▁경관 -8526
▁광물 -8527
▁분비 -8528
▁팔라 -8529
▁못할 -8530
글리 -8531
▁너비 -8532
▁암시 -8533
▁요하 -8534
▁처녀 -8535
▁분기점 -8536
▁다스 -8537
법인 -8538
▁가죽 -8539
▁동아일보 -8540
▁수련 -8541
▁흩 -8542
▁덧붙여 -8543
▁상점 -8544
▁리우 -8545
▁베스 -8546
바시 -8547
▁다발 -8548
▁청춘 -8549
▁모ᄉ -8550
▁관해서 -8551
▁신조 -8552
▁해명 -8553
▁부르크 -8554
▁롤링 -8555
▁사모 -8556
▁상단 -8557
▁오해 -8558
▁산란 -8559
▁성사 -8560
▁유한 -8561
▁이화 -8562
▁넨 -8563
▁팡 -8564
▁CS -8565
▁존속 -8566
▁폭행 -8567
▁피츠 -8568
▁이에야스 -8569
▁기적 -8570
▁목재 -8571
▁발해 -8572
▁신주 -8573
▁토모 -8574
▁소나타 -8575
▁증대 -8576
▁히메 -8577
건 -8578
▁염기 -8579
AL -8580
▁자민 -8581
▁제프 -8582
▁마야 -8583
▁출처 -8584
들여 -8585
▁비자 -8586
▁이윤 -8587
▁차이점 -8588
▁플라이 -8589
▁킥 -8590
▁근교 -8591
▁상반 -8592
▁아예 -8593
▁다이아몬드 -8594
▁CC -8595
▁때 -8596
▁김경 -8597
▁col -8598
▁유로파 -8599
▁조선일보 -8600
▁두려 -8601
▁블라디미르 -8602
산동 -8603
▁컴파 -8604
▁펑크 -8605
ile -8606
▁살리 -8607
▁경상도 -8608
▁남동부 -8609
▁블로그 -8610
▁맵 -8611
▁그동안 -8612
▁박람회 -8613
▁늘어났 -8614
▁관구 -8615
▁신념 -8616
▁유죄 -8617
▁음료 -8618
▁통영 -8619
▁생산량 -8620
▁모았 -8621
▁왓 -8622
▁부설 -8623
▁광학 -8624
▁래퍼 -8625
▁실 -8626
▁법조 -8627
▁시골 -8628
▁충전 -8629
러스트 -8630
▁턴 -8631
▁알코올 -8632
▁룬 -8633
▁상용 -8634
▁운하 -8635
▁친일파 -8636
▁규범 -8637
▁나트 -8638
브리지 -8639
권자 -8640
라클 -8641
ies -8642
▁만남 -8643
▁무지 -8644
▁부제 -8645
▁쳤 -8646
▁태양계 -8647
▁원했 -8648
▁누이 -8649
▁보석 -8650
▁설탕 -8651
▁카롤 -8652
▁황실 -8653
▁Op -8654
▁시어 -8655
▁달했 -8656
비나 -8657
▁적분 -8658
▁잊 -8659
달리 -8660
기업 -8661
▁단단 -8662
▁사육 -8663
▁이타 -8664
▁티스 -8665
▁동국 -8666
살이 -8667
▁쏘 -8668
▁뜨거운 -8669
▁깨닫 -8670
▁상사 -8671
▁조세 -8672
▁라오스 -8673
▁흠 -8674
레기 -8675
▁비유 -8676
▁확신 -8677
▁바라 -8678
▁갈라 -8679
▁공관 -8680
▁공습 -8681
▁공익 -8682
▁경찰청 -8683
▁베어스 -8684
▁왜냐하면 -8685
▁히사 -8686
▁뛰어나 -8687
▁트위터 -8688
▁브라더스 -8689
▁속했 -8690
xt -8691
▁126 -8692
▁중의원 -8693
▁카를로스 -8694
▁마디 -8695
▁신민 -8696
▁CON -8697
▁이어진다 -8698
▁깔 -8699
도리 -8700
▁대폭 -8701
▁말라 -8702
▁112 -8703
▁장거리 -8704
▁협박 -8705
수리 -8706
▁레일 -8707
▁미르 -8708
▁품종 -8709
▁루이지 -8710
▁트윈스 -8711
ite -8712
▁어원 -8713
▁굉장히 -8714
▁구축함 -8715
▁이산화 -8716
▁시베리아 -8717
▁국소 -8718
▁빨간 -8719
▁후사 -8720
▁107 -8721
▁경보 -8722
▁RNA -8723
▁키프로스 -8724
▁우유 -8725
▁이순신 -8726
▁빠진 -8727
▁드러났 -8728
▁거북 -8729
▁수법 -8730
▁언니 -8731
▁달아 -8732
▁제재 -8733
▁법무부 -8734
▁사업자 -8735
▁창원시 -8736
▁구해 -8737
▁Te -8738
▁띤다 -8739
▁누나 -8740
▁우호 -8741
▁헤비 -8742
▁허위 -8743
▁삼층석탑 -8744
▁is -8745
▁구출 -8746
▁범인 -8747
▁왜곡 -8748
▁우승자 -8749
▁조종사 -8750
▁신선 -8751
▁플러스 -8752
▁가군 -8753
아다니 -8754
▁교과서 -8755
▁아랍어 -8756
▁받아들였 -8757
고래 -8758
▁당주 -8759
▁성단 -8760
▁입원 -8761
▁곡인 -8762
▁여파 -8763
▁옆면 -8764
도바 -8765
▁소셜 -8766
▁실체 -8767
▁117 -8768
▁탐사선 -8769
▁할머니 -8770
스부르크 -8771
랑카 -8772
▁몰래 -8773
▁송시열 -8774
▁맥락 -8775
▁보증 -8776
▁천장 -8777
▁포럼 -8778
▁줄무늬 -8779
▁근원 -8780
▁결함 -8781
▁맥주 -8782
ft -8783
▁나르 -8784
▁지평 -8785
▁핸드 -8786
▁그만두 -8787
▁살아가 -8788
▁연쇄 -8789
▁인문 -8790
▁대웅전 -8791
▁동문 -8792
▁느껴 -8793
▁생겨났 -8794
▁드로 -8795
▁빌려 -8796
▁이긴 -8797
▁퐁 -8798
지붕 -8799
▁몰리 -8800
▁소원 -8801
▁키우 -8802
▁담긴 -8803
갈색 -8804
다지 -8805
▁거울 -8806
▁네스 -8807
▁빈곤 -8808
▁평의회 -8809
▁다녀 -8810
▁도마뱀붙이 -8811
▁이경 -8812
▁인체 -8813
▁세라 -8814
▁스러 -8815
▁담겨 -8816
▁SE -8817
▁교정 -8818
▁350 -8819
▁희생자 -8820
▁내려오 -8821
▁가마쿠라 -8822
▁다룬다 -8823
▁일방 -8824
▁제니 -8825
▁물리치 -8826
▁일반인 -8827
▁찾아볼 -8828
▁신약 -8829
▁com -8830
▁데모 -8831
▁통틀 -8832
▁화장실 -8833
▁건너가 -8834
▁제대 -8835
▁양키스 -8836
▁테이프 -8837
▁쏟 -8838
▁탐색 -8839
ound -8840
▁갈라 -8841
▁성별 -8842
▁이브 -8843
▁해고 -8844
▁121 -8845
▁왔으며 -8846
시타 -8847
▁삼성전자 -8848
▁아카데미상 -8849
▁날씨 -8850
▁샘플 -8851
▁후궁 -8852
▁고속도 -8853
끼리 -8854
나스 -8855
승부 -8856
▁만일 -8857
▁진급 -8858
▁빨간색 -8859
▁CF -8860
▁173 -8861
▁철회 -8862
▁펠리 -8863
▁필터 -8864
▁137 -8865
▁개교 -8866
▁자아 -8867
▁바오로 -8868
▁전자기 -8869
무스 -8870
▁승계 -8871
ath -8872
▁맘 -8873
조부 -8874
▁연합국 -8875
의장 -8876
ond -8877
▁결코 -8878
▁근로자 -8879
▁반해 -8880
▁킴 -8881
연합 -8882
▁비르 -8883
▁주이 -8884
▁포병 -8885
▁물려받 -8886
▁방화 -8887
▁서진 -8888
▁양측 -8889
▁필리프 -8890
▁나눠 -8891
▁거쳤 -8892
OL -8893
▁가축 -8894
▁문예 -8895
▁나아가 -8896
▁라이너 -8897
▁1894 -8898
▁바른 -8899
▁끄 -8900
▁바우 -8901
▁수용체 -8902
▁냄 -8903
▁헥 -8904
▁궁극 -8905
▁왕복 -8906
▁화해 -8907
게이머 -8908
▁총독부 -8909
▁프로게이머 -8910
ory -8911
▁힘든 -8912
마루 -8913
▁투옥 -8914
▁가장자리 -8915
베니아 -8916
▁흩어 -8917
로니 -8918
▁다크 -8919
▁아야 -8920
▁진공 -8921
▁태권 -8922
▁워터 -8923
▁최강 -8924
▁무어 -8925
▁문구 -8926
▁미션 -8927
▁세속 -8928
▁수색 -8929
▁일가 -8930
man -8931
그레이드 -8932
수소 -8933
▁믹스 -8934
▁지미 -8935
▁113 -8936
▁클라우드 -8937
규모 -8938
크라 -8939
▁공민 -8940
▁레온 -8941
▁칭찬 -8942
▁슬로베니아 -8943
둔 -8944
▁공방 -8945
▁크리스토퍼 -8946
▁핵무기 -8947
▁업그레이드 -8948
▁용병 -8949
▁알제리 -8950
▁극심 -8951
▁보인 -8952
대기 -8953
▁유년 -8954
▁카카 -8955
▁도미니 -8956
▁멜로디 -8957
ov -8958
▁헐 -8959
▁IM -8960
▁농림 -8961
▁뒷면 -8962
▁게스트 -8963
▁대의원 -8964
▁LC -8965
▁계정 -8966
▁서민 -8967
▁즉각 -8968
▁바티칸 -8969
▁주어지 -8970
▁최대한 -8971
▁땃 -8972
단체 -8973
톨레 -8974
▁드레 -8975
▁적도 -8976
▁브로드 -8977
로이 -8978
번스 -8979
▁군정 -8980
▁대피 -8981
▁로이 -8982
▁성도 -8983
▁신시 -8984
▁요동 -8985
▁치안 -8986
▁그냥 -8987
▁공백 -8988
▁둥지 -8989
▁하동 -8990
▁코스타 -8991
▁곤란 -8992
▁124 -8993
▁강서 -8994
▁김현 -8995
▁혈관 -8996
셰비 -8997
▁". -8998
▁미키 -8999
▁타당 -9000
퍼런스 -9001
iver -9002
▁프랑크푸르트 -9003
▁먼지 -9004
▁미루 -9005
▁초월 -9006
▁게이지 -9007
▁독일인 -9008
아키 -9009
▁몬스터 -9010
▁개종 -9011
▁캐시 -9012
▁모친 -9013
▁제인 -9014
▁땄 -9015
▁국내외 -9016
▁곁 -9017
▁시뮬 -9018
▁z -9019
▁On -9020
아프리카 -9021
겨나 -9022
▁횡단 -9023
▁륙 -9024
mer -9025
▁관음 -9026
▁판본 -9027
▁탤런트 -9028
박스 -9029
▁스캔 -9030
▁서초 -9031
▁항쟁 -9032
▁구절 -9033
블리 -9034
▁상표 -9035
▁피오 -9036
▁자연수 -9037
▁World -9038
▁기질 -9039
▁내정 -9040
▁성문 -9041
▁욕구 -9042
▁야마토 -9043
▁오리콘 -9044
▁SU -9045
▁be -9046
▁붙인 -9047
▁커뮤니케이션 -9048
▁가루 -9049
▁배후 -9050
▁일생 -9051
▁학계 -9052
▁고고학 -9053
▁돌격 -9054
린스 -9055
▁말씀 -9056
▁야쿠 -9057
▁초록 -9058
▁디렉 -9059
▁원전 -9060
▁제압 -9061
대원군 -9062
▁김정일 -9063
▁감자 -9064
▁예조 -9065
▁남서부 -9066
▁양호 -9067
▁유저 -9068
▁자선 -9069
▁체크 -9070
▁검찰청 -9071
▁베네딕 -9072
▁고장 -9073
▁아랫 -9074
▁영산 -9075
▁풍자 -9076
▁New -9077
▁CR -9078
▁1890 -9079
ich -9080
▁옵션 -9081
▁우파 -9082
▁침투 -9083
▁분명히 -9084
▁들어간다 -9085
▁사로 -9086
▁자비 -9087
▁군 -9088
▁소규모 -9089
줄기 -9090
축구 -9091
▁브리지 -9092
▁라이온즈 -9093
▁드문 -9094
▁류 -9095
▁데르 -9096
▁어ᄍ -9097
▁맑 -9098
▁그치 -9099
▁아름 -9100
▁시위대 -9101
▁윤치호 -9102
▁러시 -9103
▁오프닝 -9104
드르 -9105
▁정세 -9106
▁평정 -9107
▁연이 -9108
▁조부 -9109
▁둔다 -9110
▁따른다 -9111
짐 -9112
▁베니 -9113
▁선비 -9114
▁114 -9115
▁냉전 -9116
▁로우 -9117
▁겹 -9118
▁논 -9119
▁보일 -9120
▁뉘 -9121
▁이준 -9122
▁팔리 -9123
▁대거 -9124
▁에미 -9125
▁안토니오 -9126
▁땃쥐 -9127
▁이소 -9128
▁사상자 -9129
▁EC -9130
▁과반 -9131
▁김규 -9132
▁알루미 -9133
▁그대 -9134
▁시정 -9135
프레스 -9136
▁자오 -9137
▁자택 -9138
▁징계 -9139
▁기업인 -9140
▁들어온 -9141
▁므 -9142
▁대명 -9143
▁매매 -9144
▁구스타 -9145
▁사쿠라 -9146
▁살아 -9147
▁밀 -9148
▁컷 -9149
▁내주 -9150
▁미노 -9151
▁정주 -9152
▁증손 -9153
▁블랙홀 -9154
▁고쳐 -9155
▁누가 -9156
▁군중 -9157
▁어미 -9158
▁원로원 -9159
IP -9160
▁관세 -9161
▁봉건 -9162
▁연승 -9163
▁태극 -9164
렉스 -9165
ign -9166
▁가드 -9167
▁이남 -9168
▁흔하 -9169
▁118 -9170
▁이드 -9171
ᆮ힌 -9172
▁구와 -9173
▁지침 -9174
ial -9175
▁경신 -9176
▁중형 -9177
▁물러나 -9178
▁히어로즈 -9179
▁괴물 -9180
타리오 -9181
▁방사선 -9182
▁일리노 -9183
▁파이널 -9184
▁드라이버 -9185
조건 -9186
▁만료 -9187
▁주부 -9188
▁대부 -9189
▁악단 -9190
▁퍼지 -9191
▁매니저 -9192
지스 -9193
▁도청 -9194
▁예시 -9195
▁요정 -9196
▁자음 -9197
▁플래시 -9198
▁일리노이 -9199
▁크리스티안 -9200
▁세이브 -9201
▁1898 -9202
▁승부차기 -9203
▁줄여서 -9204
▁Sc -9205
▁답변 -9206
▁본국 -9207
▁재상 -9208
▁비로소 -9209
▁프로덕 -9210
▁럼 -9211
▁벵 -9212
▁서자 -9213
▁학명 -9214
▁경찰관 -9215
▁빔 -9216
▁용이 -9217
▁진사 -9218
▁체스 -9219
▁115 -9220
▁파란색 -9221
hn -9222
저지 -9223
▁공조 -9224
▁저널 -9225
▁체조 -9226
▁미하일 -9227
▁SD -9228
▁공감 -9229
▁스칼 -9230
▁인명 -9231
▁멘 -9232
황후 -9233
▁종착 -9234
▁디비시온 -9235
▁하르 -9236
▁통치자 -9237
싼 -9238
▁극장판 -9239
▁지인 -9240
▁트로이 -9241
▁나올 -9242
교도 -9243
닐라 -9244
▁순조 -9245
▁우측 -9246
▁헬리 -9247
벨트 -9248
▁변이 -9249
▁컨셉 -9250
▁넘어가 -9251
▁우즈베 -9252
ᆫ한다 -9253
▁였음 -9254
▁전년 -9255
▁솟 -9256
고스 -9257
▁뉴턴 -9258
▁밀집 -9259
▁키르 -9260
▁무승부 -9261
▁반지름 -9262
▁어렸 -9263
하루 -9264
▁한족 -9265
▁계열사 -9266
▁남구 -9267
▁동정 -9268
▁축출 -9269
▁희귀 -9270
▁이끈 -9271
▁봉안 -9272
▁앵글 -9273
▁하프 -9274
▁모로코 -9275
▁기각 -9276
▁직면 -9277
▁레바논 -9278
▁챌린지 -9279
▁극작 -9280
▁로그 -9281
▁카우 -9282
▁뉴저지 -9283
▁시가지 -9284
▁` -9285
▁커널 -9286
▁웨스턴 -9287
▁통보 -9288
▁심해 -9289
▁이어진 -9290
▁JT -9291
▁남미 -9292
▁온다 -9293
▁무성 -9294
▁선도 -9295
▁대변인 -9296
마이오스 -9297
▁붐 -9298
문트 -9299
바닥 -9300
▁가옥 -9301
▁외모 -9302
▁혜택 -9303
▁외야수 -9304
보르 -9305
▁소모 -9306
▁취업 -9307
▁필사 -9308
▁헬기 -9309
▁셨 -9310
▁그레고 -9311
기념 -9312
▁기증 -9313
▁성리학 -9314
▁왕세 -9315
▁정변 -9316
▁패럴 -9317
▁광해군 -9318
▁연예인 -9319
▁체코슬로 -9320
▁체코슬로바키아 -9321
▁달한다 -9322
▁케냐 -9323
▁GS -9324
▁마력 -9325
▁말미 -9326
▁129 -9327
▁범유행 -9328
타니 -9329
▁센티 -9330
▁단 -9331
레타 -9332
▁사위 -9333
▁켈리 -9334
▁렐 -9335
▁캉 -9336
▁코카 -9337
▁개막전 -9338
▁두려워 -9339
▁믹 -9340
펴보 -9341
▁웹툰 -9342
▁폭넓 -9343
▁살펴보 -9344
▁젊은이 -9345
ᆯ리 -9346
▁핑크 -9347
먼스 -9348
쟁이 -9349
▁GP -9350
▁실망 -9351
▁학업 -9352
▁맏 -9353
히코 -9354
▁미세 -9355
▁비주 -9356
▁의약품 -9357
미사 -9358
▁글루 -9359
▁뇌물 -9360
▁맥도 -9361
▁캔자스 -9362
▁알루미늄 -9363
rom -9364
▁러셀 -9365
▁리뷰 -9366
▁빌라 -9367
▁종속 -9368
▁중산 -9369
▁천재 -9370
▁쾌속 -9371
▁척추 -9372
▁옳 -9373
▁짜 -9374
▁숙청 -9375
▁승자 -9376
▁총사령 -9377
▁스타리그 -9378
개미 -9379
▁부스 -9380
▁종래 -9381
▁호출 -9382
▁마운트 -9383
▁예하 -9384
▁첨단 -9385
▁케빈 -9386
▁구할 -9387
▁쯔 -9388
타리 -9389
▁재혼 -9390
▁커지 -9391
▁회관 -9392
▁로비 -9393
▁발급 -9394
▁재선 -9395
▁황족 -9396
▁끼쳤 -9397
▁요건 -9398
▁퇴임 -9399
▁벨라루스 -9400
▁Ne -9401
ph -9402
속기 -9403
▁바빌 -9404
▁사간 -9405
▁서신 -9406
▁화력 -9407
▁남작 -9408
테 -9409
▁어른 -9410
▁창출 -9411
▁확실히 -9412
그리 -9413
▁밝기 -9414
▁예고 -9415
ᅥᆯ -9416
▁괘 -9417
수록 -9418
슬러 -9419
치기 -9420
▁벽돌 -9421
▁카디 -9422
▁III -9423
▁스크립 -9424
방송공사 -9425
▁은데 -9426
▁적혀 -9427
TS -9428
▁웬 -9429
▁오오 -9430
▁토미 -9431
▁스트리 -9432
▁장례식 -9433
▁힘써 -9434
▁유방 -9435
▁일컬 -9436
▁중공 -9437
▁지우 -9438
▁흔한 -9439
▁각도 -9440
▁전속 -9441
▁파산 -9442
▁형조 -9443
▁기술자 -9444
▁조지프 -9445
우트 -9446
천리 -9447
▁부피 -9448
▁양반 -9449
▁옹립 -9450
▁응시 -9451
느러미 -9452
▁142 -9453
▁무명 -9454
▁더니 -9455
화물 -9456
▁등기 -9457
▁생체 -9458
▁임원 -9459
▁토양 -9460
▁브리튼 -9461
▁1899 -9462
▁기다 -9463
▁좋아 -9464
▁난징 -9465
▁워크 -9466
▁부여받 -9467
▁월요일 -9468
▁천문대 -9469
▁타임스 -9470
테르부르크 -9471
▁퉁 -9472
▁대패 -9473
▁감행 -9474
▁관제 -9475
▁미들 -9476
▁레슬링 -9477
▁세이부 -9478
▁유라 -9479
▁마르티 -9480
▁청주시 -9481
▁프란츠 -9482
▁떠오 -9483
진군 -9484
urn -9485
▁워너 -9486
▁케임 -9487
▁두ᄃ -9488
▁뒷받침 -9489
▁플라스틱 -9490
▁콕 -9491
시즘 -9492
포로 -9493
▁대치 -9494
▁컴백 -9495
▁토끼 -9496
▁폭포 -9497
▁꾸며 -9498
▁어려워 -9499
▁저주 -9500
▁학기 -9501
셰비키 -9502
▁더글러스 -9503
▁닦 -9504
아먹 -9505
코딩 -9506
▁무함 -9507
▁배수 -9508
▁성폭 -9509
▁소생 -9510
▁늘 -9511
▁ch -9512
▁리프 -9513
▁모나 -9514
▁발병 -9515
▁싸이 -9516
롤라이나 -9517
▁기울 -9518
▁구경 -9519
▁설화 -9520
▁지출 -9521
▁힌두교 -9522
▁CJ -9523
▁룩셈 -9524
로우 -9525
▁시범 -9526
▁유진 -9527
▁총칭 -9528
▁축물 -9529
▁프로덕션 -9530
▁룩셈부르크 -9531
버리 -9532
▁청산 -9533
함수 -9534
▁안테 -9535
▁자크 -9536
▁정려 -9537
ction -9538
▁사본 -9539
▁오크 -9540
▁대서양 -9541
토르 -9542
틱스 -9543
▁거래소 -9544
▁스즈키 -9545
도스 -9546
럴드 -9547
▁신원 -9548
▁페널 -9549
▁설교 -9550
▁화자 -9551
▁발리 -9552
▁혼동 -9553
▁화상 -9554
▁1902 -9555
▁만성 -9556
▁셀 -9557
▁광주광역시 -9558
▁외 -9559
▁벨트 -9560
▁원천 -9561
▁지옥 -9562
▁희곡 -9563
파이어 -9564
▁연 -9565
▁금요일 -9566
ᆶ어버 -9567
▁온타리오 -9568
▁잃어버 -9569
두리 -9570
▁가야 -9571
▁왼손 -9572
▁부의장 -9573
브르 -9574
ens -9575
▁동네 -9576
▁운수 -9577
▁중복 -9578
▁Man -9579
▁그래미 -9580
▁ID -9581
▁공적 -9582
▁광둥 -9583
▁명종 -9584
▁의자 -9585
▁프톨레 -9586
▁걸렸 -9587
▁프톨레마이오스 -9588
MA -9589
덩이 -9590
▁늘리 -9591
▁보위 -9592
▁피신 -9593
▁플랫폼 -9594
▁던져 -9595
▁덧 -9596
▁위쪽 -9597
lan -9598
▁독서 -9599
▁물품 -9600
▁병기 -9601
▁스턴 -9602
타주 -9603
▁피겨 -9604
▁키보드 -9605
▁끊임없이 -9606
▁니코 -9607
▁연산자 -9608
▁그릇 -9609
▁필 -9610
▁대성당 -9611
pp -9612
▁감마 -9613
▁체류 -9614
▁지식인 -9615
샤바 -9616
▁기차 -9617
▁우체 -9618
▁정성 -9619
▁태그 -9620
▁표적 -9621
▁도카이 -9622
▁수분 -9623
▁혐오 -9624
▁바깥쪽 -9625
▁채워 -9626
▁연꽃 -9627
▁발기 -9628
▁머무르 -9629
▁쫓겨 -9630
▁'' -9631
▁강변 -9632
▁서류 -9633
▁시코 -9634
▁채소 -9635
▁코시 -9636
▁포획 -9637
▁아리아 -9638
▁BS -9639
▁대손 -9640
▁원종 -9641
▁의의 -9642
▁가벼운 -9643
글라 -9644
▁단절 -9645
▁마녀 -9646
▁영등 -9647
▁기사단 -9648
▁부를 -9649
▁찾아가 -9650
▁간선 -9651
▁게리 -9652
▁드림 -9653
▁시가 -9654
▁느꼈 -9655
▁선배 -9656
TA -9657
▁국영 -9658
▁비석 -9659
▁사슴 -9660
▁코끼리 -9661
▁외관 -9662
▁촉매 -9663
▁탄도 -9664
▁하단 -9665
▁개소 -9666
▁갈수록 -9667
▁따온 -9668
▁참의 -9669
▁고양시 -9670
▁아돌프 -9671
lic -9672
▁동행 -9673
▁깃발 -9674
▁영문 -9675
▁밍 -9676
▁주조 -9677
▁함정 -9678
▁한테 -9679
▁마스크 -9680
▁보이스 -9681
▁비행장 -9682
▁죠 -9683
▁버드 -9684
▁교통국 -9685
▁페르디난 -9686
▁기니 -9687
▁부회장 -9688
폴리 -9689
▁유체 -9690
▁제네바 -9691
크로 -9692
▁김지 -9693
▁정적 -9694
▁소나무 -9695
▁김창 -9696
▁입성 -9697
▁헌신 -9698
▁매카트니 -9699
그룹 -9700
▁대합 -9701
▁매수 -9702
▁선행 -9703
▁강동 -9704
▁단축 -9705
▁정동 -9706
▁이용자 -9707
TC -9708
▁생생 -9709
▁수확 -9710
▁드러머 -9711
▁스위치 -9712
▁제국주의 -9713
▁익스프레스 -9714
국사 -9715
▁단의 -9716
▁동학 -9717
▁스폰 -9718
▁토착종 -9719
▁이겼 -9720
▁포켓몬스터 -9721
▁몫 -9722
카가 -9723
ary -9724
▁광대 -9725
▁광명 -9726
▁아산 -9727
▁울프 -9728
▁해밀턴 -9729
out -9730
▁샤 -9731
▁가환 -9732
▁간토 -9733
▁압둘 -9734
▁초신 -9735
ᇂ았 -9736
▁폭격기 -9737
▁쌓았 -9738
▁부가 -9739
▁서유럽 -9740
▁당한다 -9741
▁고아 -9742
▁역량 -9743
▁직결 -9744
▁화강 -9745
▁경성부 -9746
▁면제 -9747
▁색채 -9748
▁이단 -9749
▁아이오 -9750
▁호르몬 -9751
▁1901 -9752
▁러시아어 -9753
구르 -9754
▁어류 -9755
▁입국 -9756
▁코믹스 -9757
▁브뤼 -9758
▁세비 -9759
▁일산 -9760
▁조립 -9761
▁채우 -9762
▁부작용 -9763
▁트리플 -9764
짓점 -9765
ert -9766
▁공리 -9767
▁생략 -9768
▁약자 -9769
▁열도 -9770
▁사이토 -9771
▁일으킬 -9772
▁나노 -9773
▁민감 -9774
▁전방 -9775
▁축조 -9776
▁꼭짓점 -9777
▁꾀 -9778
테인 -9779
ach -9780
▁경과 -9781
▁복용 -9782
▁본문 -9783
▁퀘벡 -9784
▁쓰촨 -9785
어내 -9786
피어 -9787
▁갱신 -9788
▁성지 -9789
▁여운 -9790
▁임관 -9791
▁크롬 -9792
▁알렉산드르 -9793
타임 -9794
닐 -9795
▁No -9796
▁보트 -9797
▁소시 -9798
▁나선 -9799
▁어려서 -9800
나우 -9801
▁체르 -9802
▁울산광역시 -9803
모스 -9804
▁염증 -9805
▁표방 -9806
▁권총 -9807
▁코코 -9808
▁특권 -9809
▁하치 -9810
▁그다지 -9811
▁삿포로 -9812
▁연기자 -9813
▁패했 -9814
▁가까워 -9815
미트 -9816
▁다항식 -9817
▁영국인 -9818
▁제한 -9819
디나 -9820
▁자작 -9821
ys -9822
▁기숙 -9823
▁수축 -9824
▁체중 -9825
▁커스 -9826
▁입각 -9827
▁정립 -9828
▁정문 -9829
▁렘 -9830
▁염색체 -9831
▁나갈 -9832
자르 -9833
▁누적 -9834
▁무궁 -9835
▁불꽃 -9836
▁습지 -9837
▁실버 -9838
▁바이킹 -9839
LE -9840
▁검열 -9841
▁드라 -9842
▁현은 -9843
▁쿄 -9844
▁MB -9845
▁갈릴 -9846
▁김제 -9847
▁카미 -9848
▁간단히 -9849
▁점성술 -9850
▁아시카가 -9851
LS -9852
▁동조 -9853
▁보복 -9854
▁서문 -9855
▁원료 -9856
▁이현 -9857
▁차르 -9858
▁낫 -9859
루아 -9860
▁엔딩 -9861
▁천하 -9862
▁빼아 -9863
IG -9864
파르 -9865
▁치아 -9866
▁사회당 -9867
▁옥스퍼드 -9868
링턴 -9869
▁누군 -9870
▁두께 -9871
▁박지 -9872
▁제치 -9873
▁조이 -9874
▁페니 -9875
▁134 -9876
▁고산 -9877
▁슈팅 -9878
▁조수 -9879
▁토기 -9880
▁학대 -9881
레슬링 -9882
▁패한 -9883
▁공고 -9884
▁선동 -9885
▁호모 -9886
▁개인전 -9887
▁광저우 -9888
▁파이터 -9889
운다 -9890
▁케임브리지 -9891
▁보헤 -9892
▁카프 -9893
▁장기간 -9894
▁크레이 -9895
▁} -9896
▁어뢰 -9897
▁원본 -9898
▁쓰레기 -9899
▁요르단 -9900
▁무함마드 -9901
▁아라비아 -9902
▁례 -9903
▁연봉 -9904
▁하비 -9905
▁KIA -9906
▁모서리 -9907
▁푸에르 -9908
▁분수 -9909
▁불신 -9910
▁토요 -9911
베트남 -9912
▁대두 -9913
▁마우 -9914
▁상금 -9915
▁스님 -9916
노미야 -9917
▁갈리아 -9918
▁어우 -9919
▁대구광역시 -9920
ug -9921
기스 -9922
대장 -9923
펜하 -9924
▁독성 -9925
▁삼촌 -9926
▁All -9927
▁슨 -9928
▁공예 -9929
▁동이 -9930
▁둥글 -9931
▁소말 -9932
▁THE -9933
▁노태우 -9934
▁레즈 -9935
▁명하 -9936
▁좌측 -9937
▁사업가 -9938
▁1903 -9939
▁가역 -9940
▁공명 -9941
▁섹스 -9942
▁직경 -9943
▁전염병 -9944
▁루타 -9945
▁산출 -9946
▁캐서 -9947
▁변 -9948
▁아리스토 -9949
▁프로레슬링 -9950
▁쟈 -9951
ase -9952
▁남매 -9953
▁미륵 -9954
▁트로피 -9955
▁패밀리 -9956
카미 -9957
▁개화 -9958
▁군산 -9959
▁극대 -9960
▁기르 -9961
▁One -9962
▁페널티 -9963
▁피고인 -9964
▁주된 -9965
▁Gr -9966
▁회상 -9967
▁1884 -9968
들였 -9969
▁노보 -9970
▁오쿠 -9971
▁미시시피 -9972
그라 -9973
▁타케 -9974
▁홈구장 -9975
▁정해진 -9976
아웃 -9977
▁패널 -9978
테르담 -9979
▁당연히 -9980
▁신도비 -9981
리코 -9982
정리 -9983
카타 -9984
▁교대 -9985
▁다마 -9986
▁만주국 -9987
▁이성계 -9988
▁달라 -9989
▁모은 -9990
사리 -9991
▁아브 -9992
▁쓰시마 -9993
▁알렉산드리아 -9994
처스 -9995
퀘어 -9996
▁강간 -9997
▁구형 -9998
▁어둠 -9999
▁이병 -10000
▁터보 -10001
▁언어학 -10002
▁아인슈타인 -10003
▁EX -10004
▁메커 -10005
▁정선 -10006
▁중령 -10007
▁지도부 -10008
▁들어갈 -10009
올로 -10010
▁라그 -10011
▁퇴역 -10012
▁관광지 -10013
▁하리 -10014
▁뮤지션 -10015
ke -10016
▁로저 -10017
▁이관 -10018
▁쥐과 -10019
▁끌려 -10020
▁AN -10021
▁스텔 -10022
▁표기법 -10023
▁릿 -10024
▁에콰 -10025
▁질소 -10026
▁감 -10027
▁드레스 -10028
▁프레드 -10029
▁살ᄑ -10030
▁에콰도르 -10031
라이어 -10032
▁도널드 -10033
▁니콜라이 -10034
▁군함 -10035
히토 -10036
▁강대 -10037
▁검출 -10038
▁퇴적 -10039
▁헌정 -10040
▁아폴로 -10041
▁클라이 -10042
▁야마구치 -10043
▁Cl -10044
▁이태 -10045
▁조형 -10046
▁방글라 -10047
▁충청도 -10048
▁빼앗 -10049
▁지녔 -10050
▁방글라데시 -10051
▁벌인 -10052
▁비타 -10053
▁제로 -10054
▁함선 -10055
▁히타 -10056
▁1800 -10057
텍처 -10058
▁구스 -10059
▁우치 -10060
▁파병 -10061
▁발렌시아 -10062
▁아키텍처 -10063
▁따왔 -10064
▁LA -10065
▁기분 -10066
▁김홍 -10067
▁대문 -10068
▁실무 -10069
▁실재 -10070
▁원더 -10071
▁슬라브 -10072
▁조반니 -10073
▁공황 -10074
▁꼭대기 -10075
▁프란체 -10076
▁도요토미 -10077
▁물가 -10078
▁우회 -10079
▁섬 -10080
▁더욱이 -10081
▁복합체 -10082
▁농부 -10083
▁뒤쪽 -10084
▁전위 -10085
▁히로시 -10086
▁경작 -10087
▁반공 -10088
▁마르틴 -10089
라이언트 -10090
▁정유 -10091
▁넓 -10092
▁득표율 -10093
▁도선 -10094
▁비뉴 -10095
▁의결 -10096
사이드 -10097
테이션 -10098
▁마르코 -10099
▁무너지 -10100
▁을지 -10101
그레 -10102
▁곡물 -10103
▁장벽 -10104
▁하차 -10105
▁클라이언트 -10106
방울 -10107
▁건륭 -10108
▁단면 -10109
▁달걀 -10110
▁마키 -10111
▁인질 -10112
▁삼국지 -10113
▁컨트리 -10114
▁카사 -10115
사우 -10116
▁까닭 -10117
▁당수 -10118
▁돌기 -10119
▁발칸 -10120
▁철폐 -10121
▁해남 -10122
▁기념관 -10123
▁콤팩트 -10124
느 -10125
▁상고 -10126
▁회피 -10127
ree -10128
▁토시 -10129
니시 -10130
▁진전 -10131
▁흥선 -10132
▁소방서 -10133
나미 -10134
▁간신 -10135
▁거짓말 -10136
▁기념비 -10137
▁싸워 -10138
▁총대주교 -10139
▁가오 -10140
▁뒤집 -10141
▁선우 -10142
▁리더십 -10143
간지 -10144
▁밀란 -10145
▁방사성 -10146
▁염소 -10147
▁유부 -10148
▁전복 -10149
▁가브리 -10150
▁감안 -10151
▁분출 -10152
▁상가 -10153
▁상경 -10154
▁용서 -10155
▁소행성 -10156
▁그레이트 -10157
▁일렉트로 -10158
▁북아프리카 -10159
▁올라간다 -10160
▁강희 -10161
▁미라 -10162
▁에밀 -10163
▁활주 -10164
▁소수자 -10165
▁아나키 -10166
▁에디션 -10167
개골 -10168
▁분량 -10169
▁전구 -10170
▁창녕 -10171
▁취항 -10172
▁코믹 -10173
▁카를로 -10174
가르 -10175
▁IN -10176
▁경인 -10177
가와현 -10178
▁메커니즘 -10179
▁팟 -10180
불교 -10181
산맥 -10182
하키 -10183
▁권장 -10184
▁기슭 -10185
▁로라 -10186
▁우물 -10187
▁자형 -10188
▁남동생 -10189
▁모리스 -10190
▁팰 -10191
▁가산 -10192
▁궁중 -10193
▁대출 -10194
▁상응 -10195
▁중앙아시아 -10196
네마 -10197
▁CN -10198
▁무슨 -10199
▁신축 -10200
▁정화 -10201
▁핀 -10202
▁복소수 -10203
▁부드러운 -10204
ass -10205
▁냄새 -10206
▁시야 -10207
▁이북 -10208
▁with -10209
▁이룬 -10210
▁잘라 -10211
▁깨끗 -10212
▁발령 -10213
▁상트 -10214
▁교도소 -10215
▁민간인 -10216
▁스토어 -10217
▁약해 -10218
▁즐겨 -10219
▁돌아가 -10220
▁세바 -10221
▁현감 -10222
▁견인 -10223
▁맞붙 -10224
▁모모 -10225
▁반군 -10226
▁소자 -10227
▁한층 -10228
▁220 -10229
▁다케다 -10230
▁해진다 -10231
▁관절 -10232
▁등용 -10233
▁러스 -10234
▁수목 -10235
▁기관총 -10236
▁뉴욕주 -10237
▁와일드 -10238
▁볼리비아 -10239
▁으려고 -10240
▁Br -10241
▁막스 -10242
▁116 -10243
▁마ᄉ -10244
▁거주지 -10245
▁오사카부 -10246
구역 -10247
act -10248
▁데카 -10249
▁안경 -10250
▁침체 -10251
▁아미노산 -10252
▁페이스북 -10253
▁브란 -10254
▁세키 -10255
▁새겨진 -10256
곡동 -10257
사업 -10258
▁각색 -10259
▁기저 -10260
▁준주 -10261
▁폭로 -10262
▁밝힌 -10263
번뇌 -10264
▁Ad -10265
▁일자리 -10266
▁홍문관 -10267
▁1897 -10268
▁평창 -10269
파리 -10270
픈 -10271
▁가계 -10272
▁낙동 -10273
▁상법 -10274
▁추첨 -10275
▁후작 -10276
▁전시회 -10277
▁포스터 -10278
11 -10279
▁교량 -10280
▁다가 -10281
▁일파 -10282
▁일부분 -10283
▁시켰으며 -10284
▁가의 -10285
▁장자 -10286
▁취미 -10287
대 -10288
쿠버 -10289
▁요약 -10290
▁강남구 -10291
▁스트라이크 -10292
▁한국방송공사 -10293
▁가열 -10294
▁농사 -10295
▁샌드 -10296
▁심화 -10297
▁티코 -10298
▁다운 -10299
▁반전 -10300
▁보성 -10301
▁버클리 -10302
▁마가 -10303
▁캐서린 -10304
pt -10305
▁갈래 -10306
▁델타 -10307
▁안산 -10308
▁절단 -10309
▁태백 -10310
▁효고 -10311
ream -10312
▁마카오 -10313
▁방송인 -10314
▁지지율 -10315
▁카스티 -10316
역학 -10317
▁격차 -10318
▁마니 -10319
▁버마 -10320
▁1860 -10321
▁리조 -10322
▁홉 -10323
▁오로 -10324
▁올드 -10325
▁열린다 -10326
▁앰 -10327
▁구약 -10328
▁네오 -10329
▁접수 -10330
▁추론 -10331
▁교육청 -10332
▁데스크 -10333
▁추 -10334
▁나루 -10335
▁넘기 -10336
▁르노 -10337
▁민정 -10338
▁아소 -10339
▁음향 -10340
▁체력 -10341
▁효종 -10342
벤처 -10343
▁마블 -10344
▁연대기 -10345
▁어드벤처 -10346
▁그려진 -10347
▁델라 -10348
▁북경 -10349
▁꿀 -10350
▁;& -10351
▁GO -10352
▁배우자 -10353
▁이주하 -10354
▁공약 -10355
▁사살 -10356
▁수료 -10357
▁장제 -10358
▁타우 -10359
▁휴가 -10360
▁륜 -10361
▁알프레 -10362
바른 -10363
▁바르샤바 -10364
▁대관 -10365
▁중원 -10366
▁찰리 -10367
▁잠 -10368
▁아름답 -10369
▁잡혀 -10370
▁주어진다 -10371
▁깎 -10372
▁Ex -10373
▁글래 -10374
▁서리 -10375
▁저렴 -10376
▁확진 -10377
▁Is -10378
▁적군 -10379
기념물 -10380
▁느리 -10381
▁샌디 -10382
▁전산 -10383
▁카타르 -10384
▁후반기 -10385
나드 -10386
▁가신 -10387
▁특색 -10388
▁122 -10389
▁항 -10390
▁중공업 -10391
▁물리 -10392
▁청색 -10393
▁합당 -10394
▁스크립트 -10395
캐롤라이나 -10396
피언 -10397
▁공손 -10398
▁쿠니 -10399
▁게릴라 -10400
포터 -10401
▁돌입 -10402
▁청소 -10403
▁카즈 -10404
▁경제학자 -10405
▁안드레아 -10406
▁이반 -10407
▁사카이 -10408
츠크 -10409
얀 -10410
▁리히 -10411
▁집결 -10412
▁거뒀 -10413
▁떡 -10414
▁죠 -10415
▁석불 -10416
▁수중 -10417
스카르 -10418
▁미네소 -10419
▁다를 -10420
산성 -10421
▁세네 -10422
▁신정 -10423
▁타협 -10424
▁가져오 -10425
반구 -10426
부리 -10427
퍼슨 -10428
▁전격 -10429
▁짐작 -10430
▁마라톤 -10431
▁모티브 -10432
▁몰아내 -10433
▁솔루션 -10434
▁석회 -10435
▁이빨 -10436
▁쥐속 -10437
▁2022 -10438
푸르 -10439
▁막시 -10440
▁브룩 -10441
▁소행 -10442
▁입주 -10443
▁종파 -10444
▁클라크 -10445
▁한지 -10446
도비 -10447
▁보강 -10448
▁스퀘어 -10449
▁유닉스 -10450
ᅦᆫ -10451
▁고토 -10452
▁실적 -10453
▁안치 -10454
▁나간다 -10455
푸아 -10456
▁갑옷 -10457
▁마애 -10458
▁벽화 -10459
▁새로이 -10460
▁인테르 -10461
▁1880 -10462
▁봉해 -10463
거진 -10464
▁과실 -10465
▁동형 -10466
▁두개골 -10467
▁상트페 -10468
▁아마존 -10469
▁상트페테르부르크 -10470
콥터 -10471
▁신동 -10472
▁애리 -10473
▁창의 -10474
▁호응 -10475
▁화순 -10476
▁였으므로 -10477
▁루크 -10478
▁약하 -10479
▁정경 -10480
▁옥수수 -10481
▁그레고리오 -10482
▁캐 -10483
▁윤보 -10484
▁나란히 -10485
▁유대교 -10486
올리 -10487
▁BM -10488
▁모용 -10489
▁con -10490
▁갤러리 -10491
▁설립자 -10492
ᆮ혀 -10493
▁메릴 -10494
▁무술 -10495
▁빈도 -10496
▁사적 -10497
▁흥선대원군 -10498
ii -10499
▁강철 -10500
▁무로 -10501
▁선장 -10502
▁연동 -10503
▁종말 -10504
▁그리스인 -10505
▁군청 -10506
▁종점 -10507
▁팔레 -10508
▁가가 -10509
▁메라 -10510
▁유정 -10511
▁호쿠 -10512
▁NGC -10513
▁공용어 -10514
▁진행자 -10515
▁파라과이 -10516
리즘 -10517
▁강풍 -10518
▁복권 -10519
▁용암 -10520
▁이언 -10521
▁출석 -10522
▁확고 -10523
▁133 -10524
▁극작가 -10525
▁따랐 -10526
▁지켰 -10527
▁셜 -10528
▁급수 -10529
▁리만 -10530
▁마당 -10531
▁어로 -10532
▁옮겨졌 -10533
▁장원 -10534
▁제리 -10535
▁콘테 -10536
▁함양 -10537
▁제작사 -10538
▁함부르크 -10539
▁을까 -10540
네시 -10541
▁극도 -10542
▁입양 -10543
▁경쟁력 -10544
▁생긴다 -10545
기구 -10546
다르 -10547
▁기성 -10548
▁등극 -10549
▁무스 -10550
▁열심 -10551
▁예명 -10552
▁일괄 -10553
▁제왕 -10554
▁사로잡 -10555
▁붙여진 -10556
▁소령 -10557
▁연못 -10558
▁자결 -10559
▁추종 -10560
▁끊 -10561
▁이동하 -10562
▁키예프 -10563
▁그렇지만 -10564
니지 -10565
iss -10566
▁노이 -10567
▁수녀 -10568
▁이장 -10569
▁그림자 -10570
타케 -10571
▁가네 -10572
▁번성 -10573
▁진료 -10574
▁디트로 -10575
▁가로 -10576
▁살려 -10577
▁디트로이트 -10578
ake -10579
own -10580
▁스노 -10581
▁오락 -10582
▁교육부 -10583
사관학교 -10584
▁천연기념물 -10585
▁블리 -10586
▁왕정 -10587
▁프렌 -10588
▁준결승전 -10589
▁치른 -10590
▁두드러 -10591
▁가볍 -10592
싸 -10593
▁랍 -10594
자치시 -10595
▁Mus -10596
▁특별자치시 -10597
세우 -10598
케이 -10599
▁타지 -10600
▁기상청 -10601
▁몽고 -10602
▁숙주 -10603
▁심야 -10604
▁유령 -10605
몰로지 -10606
▁명분 -10607
▁엘리트 -10608
▁프랭클린 -10609
▁쑤 -10610
▁빛나 -10611
▁프롤 -10612
▁CBS -10613
▁덮여 -10614
▁몰려 -10615
▁CEO -10616
▁스로 -10617
▁이규 -10618
▁이데 -10619
▁평민 -10620
▁아래쪽 -10621
▁사무총장 -10622
▁일러스트 -10623
▁랴 -10624
ᆼ겨 -10625
▁국유 -10626
▁듀얼 -10627
▁법정동 -10628
▁된다면 -10629
▁아치 -10630
▁우상 -10631
▁원격 -10632
▁위생 -10633
▁탁월 -10634
▁파우 -10635
▁무궁화 -10636
▁미생물 -10637
▁ES -10638
▁미셸 -10639
▁이득 -10640
▁위나라 -10641
▁수년 -10642
▁장흥 -10643
▁포도당 -10644
▁애틀랜타 -10645
세기 -10646
▁고추 -10647
▁도사 -10648
▁조계 -10649
▁펜싱 -10650
▁GDP -10651
▁그레고리 -10652
▁농어 -10653
▁반역 -10654
▁재난 -10655
▁타석 -10656
▁헬륨 -10657
▁대사헌 -10658
▁앨리스 -10659
뜨렸 -10660
▁개항 -10661
▁문경 -10662
▁온갖 -10663
▁자카 -10664
미스 -10665
▁자생 -10666
▁겉보기 -10667
▁시킴 -10668
▁스트라이커 -10669
▁결핍 -10670
▁어리 -10671
▁무조건 -10672
▁동성애자 -10673
▁섀 -10674
▁툰 -10675
▁김민 -10676
▁132 -10677
clude -10678
▁스리랑카 -10679
멘스 -10680
원장 -10681
타마 -10682
▁속편 -10683
Hz -10684
UR -10685
old -10686
▁빈번 -10687
▁정인 -10688
▁지청 -10689
▁지방산 -10690
그래 -10691
▁감동 -10692
▁니카 -10693
▁더비 -10694
▁워치 -10695
▁유스 -10696
▁진수 -10697
▁대성전 -10698
HO -10699
▁칼뱅 -10700
림픽 -10701
▁자르 -10702
▁재해 -10703
▁정관 -10704
▁주지 -10705
▁시뮬레이션 -10706
끄러운 -10707
에미 -10708
▁동요 -10709
▁듀오 -10710
▁수심 -10711
▁대지진 -10712
▁붙자 -10713
버러 -10714
▁상연 -10715
▁애칭 -10716
▁총무 -10717
▁글로브 -10718
▁인프라 -10719
▁삼국사기 -10720
▁아닐 -10721
▁동참 -10722
▁아데 -10723
▁파이프 -10724
보내 -10725
위성 -10726
헌영 -10727
▁결제 -10728
▁광양 -10729
▁리모 -10730
▁울리 -10731
▁아니하 -10732
▁마우스 -10733
스기 -10734
▁++ -10735
▁베른 -10736
▁기병대 -10737
ᆸ니까 -10738
▁인디애나 -10739
미즈 -10740
▁느낀 -10741
▁슛 -10742
▁NE -10743
▁랴 -10744
▁얹 -10745
메다 -10746
▁vs -10747
▁불행 -10748
▁시종 -10749
▁초원 -10750
거래 -10751
ork -10752
▁까지 -10753
▁속주 -10754
▁조병 -10755
▁현직 -10756
▁맹세 -10757
▁부드 -10758
▁주화 -10759
▁현행 -10760
▁하고 -10761
GA -10762
렉션 -10763
▁신상 -10764
바야시 -10765
▁마다가 -10766
▁격자 -10767
▁암흑 -10768
▁자세히 -10769
ix -10770
파크 -10771
▁대국 -10772
▁발각 -10773
▁상기 -10774
▁호족 -10775
▁La -10776
▁극락 -10777
▁루비 -10778
▁미주리 -10779
▁요제프 -10780
▁통틀어 -10781
▁보헤미아 -10782
▁세워져 -10783
▁쾰 -10784
▁kt -10785
▁브랜 -10786
ence -10787
▁농산물 -10788
▁or -10789
▁호의 -10790
벨라 -10791
할시 -10792
▁가타 -10793
▁복음서 -10794
▁튀 -10795
▁국수 -10796
▁낮추 -10797
변이 -10798
해튼 -10799
ick -10800
▁요법 -10801
위원회 -10802
▁돌연변이 -10803
▁패럴림픽 -10804
▁둘러싸여 -10805
▁쳐 -10806
울리 -10807
천사 -10808
▁Ro -10809
▁줘 -10810
▁라오 -10811
▁파문 -10812
▁pro -10813
마리 -10814
▁단과 -10815
▁초고 -10816
▁해부 -10817
▁볼셰비키 -10818
▁붙여졌 -10819
() -10820
lo -10821
▁른 -10822
▁공표 -10823
▁김옥 -10824
▁대각 -10825
▁피로 -10826
▁현황 -10827
▁저널리 -10828
▁뿌 -10829
▁감금 -10830
▁의과 -10831
▁평안남도 -10832
▁든다 -10833
▁후 -10834
▁공파 -10835
▁김병 -10836
▁청자 -10837
▁투항 -10838
라기 -10839
▁세손 -10840
▁우체국 -10841
▁활주로 -10842
루냐 -10843
▁소울 -10844
▁아빠 -10845
▁1870 -10846
▁합스부르크 -10847
를테 -10848
▁밀러 -10849
를테면 -10850
▁후속작 -10851
▁이를테면 -10852
▁낙하 -10853
▁입수 -10854
▁저격 -10855
▁매거진 -10856
▁올바른 -10857
▁댓 -10858
▁생계 -10859
▁양육 -10860
▁재질 -10861
▁총기 -10862
▁황도 -10863
CAF -10864
▁서장 -10865
▁포고 -10866
▁소피아 -10867
▁오로지 -10868
▁쓸 -10869
▁PR -10870
▁만년 -10871
▁제너 -10872
▁페로 -10873
▁표창 -10874
브리아 -10875
▁모터스 -10876
▁이븐 -10877
▁장대 -10878
▁정국 -10879
▁Mar -10880
▁NAS -10881
▁타이베이 -10882
▁뾰 -10883
▁숀 -10884
▁관동 -10885
▁난이 -10886
▁우아 -10887
▁단행본 -10888
▁창시자 -10889
삭스 -10890
▁호리 -10891
ance -10892
▁아스널 -10893
▁중앙부 -10894
▁트리니 -10895
▁계시 -10896
▁리터 -10897
▁비늘 -10898
▁시국 -10899
▁내려가 -10900
▁애리조 -10901
▁평안북도 -10902
플로 -10903
홀름 -10904
▁To -10905
▁말년 -10906
▁머스 -10907
▁부조 -10908
▁왜구 -10909
▁1885 -10910
▁돌출 -10911
▁앞쪽 -10912
▁450 -10913
▁우즈베키스탄 -10914
▁엥 -10915
▁전날 -10916
▁선보이 -10917
▁활발히 -10918
▁꼽힌다 -10919
▁un -10920
▁국악 -10921
▁대장군 -10922
▁청동기 -10923
▁1871 -10924
EM -10925
공산 -10926
▁DM -10927
▁감수 -10928
▁내면 -10929
▁로페 -10930
▁배속 -10931
▁복식 -10932
▁성령 -10933
▁중상 -10934
▁프랜시스 -10935
▁아이스하키 -10936
▁마르크스주의 -10937
▁자란다 -10938
▁붙잡 -10939
▁아쿠 -10940
▁누군가 -10941
▁Ph -10942
▁퇴장 -10943
테리아 -10944
▁수원시 -10945
▁짱 -10946
십자 -10947
지로 -10948
▁벤치 -10949
▁신종 -10950
▁원심 -10951
▁비주얼 -10952
▁강해 -10953
▁세븐 -10954
▁수염 -10955
▁USS -10956
▁로렌스 -10957
쩌둥 -10958
▁참사 -10959
▁카바 -10960
▁마오쩌둥 -10961
▁꺼 -10962
▁편집자 -10963
▁1600 -10964
▁쿡 -10965
▁리바 -10966
▁매직 -10967
▁반성 -10968
▁중생 -10969
▁다람쥐 -10970
▁알래스카 -10971
ection -10972
ear -10973
irl -10974
▁빅토르 -10975
▁맷 -10976
제이 -10977
티시 -10978
▁경질 -10979
▁볼프 -10980
▁유러 -10981
▁증인 -10982
▁케라 -10983
타이드 -10984
▁빨 -10985
▁하얀 -10986
▁콘스탄티노폴리스 -10987
▁일으킨다 -10988
지오 -10989
▁수교 -10990
▁국당 -10991
▁흉노 -10992
▁찐 -10993
▁앤더슨 -10994
▁프레이 -10995
▁이양 -10996
▁자칭 -10997
▁지성 -10998
▁휴게 -10999
▁양성자 -11000
▁유러피언 -11001
▁올랐으며 -11002
▁내성 -11003
▁티켓 -11004
lass -11005
▁내무부 -11006
▁오클랜드 -11007
▁낚 -11008
▁관행 -11009
▁뛰어 -11010
▁시애 -11011
▁오라 -11012
▁카터 -11013
▁튼 -11014
▁즘 -11015
▁유료 -11016
▁콜레 -11017
▁화랑 -11018
▁only -11019
▁줄여 -11020
▁놀라 -11021
▁로리 -11022
▁반하 -11023
▁스태 -11024
▁위스 -11025
▁청룡 -11026
▁마닐라 -11027
▁1200 -11028
ild -11029
▁바디 -11030
▁테일 -11031
▁박헌영 -11032
▁반란군 -11033
▁센고쿠 -11034
▁모인 -11035
▁끝났 -11036
테쓰 -11037
▁제동 -11038
▁240 -11039
▁알렉스 -11040
파이 -11041
▁루카 -11042
▁알아 -11043
▁파나마 -11044
▁갈리 -11045
▁당내 -11046
▁수인 -11047
▁장단 -11048
▁중서 -11049
▁해저 -11050
▁시달리 -11051
▁걸린 -11052
▁GN -11053
▁능선 -11054
▁민요 -11055
▁역도 -11056
▁친분 -11057
▁케이프 -11058
▁시다 -11059
으므로 -11060
▁봉수 -11061
▁조광 -11062
텔레스 -11063
▁다나카 -11064
▁프로리그 -11065
▁냐는 -11066
▁불린 -11067
모 -11068
▁SL -11069
▁부각 -11070
▁이룩 -11071
▁이모 -11072
▁이방 -11073
▁탑신 -11074
▁김정은 -11075
▁역사가 -11076
▁려던 -11077
관리 -11078
체고 -11079
▁성실 -11080
▁카니 -11081
▁예정자 -11082
체고비나 -11083
▁부원군 -11084
▁시애틀 -11085
▁개개 -11086
▁다투 -11087
▁플랜 -11088
▁윤보선 -11089
▁마다가스카르 -11090
▁무척 -11091
▁분과 -11092
▁재외 -11093
▁초빙 -11094
▁출가 -11095
▁부드럽 -11096
▁오른손 -11097
▁교실 -11098
▁구니 -11099
▁남용 -11100
▁돌려 -11101
▁상급 -11102
ᆩ인 -11103
▁김규식 -11104
▁앤드루 -11105
▁몸통 -11106
▁섬세 -11107
▁실험실 -11108
▁제조업 -11109
▁프라하 -11110
▁하노이 -11111
▁괴로 -11112
꺼 -11113
맥스 -11114
▁티 -11115
▁조례 -11116
▁넘어갔 -11117
▁정제 -11118
▁맨해튼 -11119
▁왕세자 -11120
▁AD -11121
▁사쿠 -11122
▁시리 -11123
▁구마모토 -11124
▁아리스토텔레스 -11125
▁궁궐 -11126
▁리비 -11127
▁송도 -11128
▁통역 -11129
▁공민왕 -11130
▁아무것 -11131
▁해리슨 -11132
▁생선 -11133
▁시중 -11134
▁미군정 -11135
▁성남시 -11136
▁처해 -11137
메스 -11138
ans -11139
▁재활 -11140
▁징병 -11141
▁총애 -11142
▁동물원 -11143
▁루돌프 -11144
컨대 -11145
▁이완 -11146
▁차용 -11147
▁파인 -11148
OV -11149
▁관문 -11150
▁요지 -11151
▁지쿠 -11152
▁창문 -11153
▁허드 -11154
▁동대문 -11155
사상 -11156
올라 -11157
▁개헌 -11158
▁경희 -11159
▁서산 -11160
▁헬리콥터 -11161
천면 -11162
▁돌보 -11163
▁오미 -11164
▁칼럼 -11165
▁호크 -11166
▁대대로 -11167
▁각성 -11168
▁경시 -11169
▁고쿠 -11170
▁국보 -11171
▁실존 -11172
▁신문사 -11173
▁러시아인 -11174
▁괄 -11175
▁Sy -11176
▁독창 -11177
▁배려 -11178
▁퍼포 -11179
▁줄거리 -11180
코토 -11181
본 -11182
▁처하 -11183
▁EBS -11184
▁크라이 -11185
ivers -11186
▁나타냈 -11187
무소 -11188
▁CM -11189
▁농경 -11190
▁커플 -11191
▁퍼스 -11192
▁함자 -11193
▁경영자 -11194
▁리조트 -11195
▁생겨나 -11196
▁유권자 -11197
▁퍼포먼스 -11198
▁남산 -11199
▁수필 -11200
▁갑작 -11201
▁뾰족 -11202
▁얕 -11203
어사 -11204
ype -11205
▁구청 -11206
▁하반 -11207
▁제퍼슨 -11208
▁퍼스트 -11209
▁어려웠 -11210
▁시합 -11211
▁약혼 -11212
▁에프 -11213
▁포착 -11214
▁동유럽 -11215
▁브레이크 -11216
▁남해 -11217
▁뉴클 -11218
▁되돌 -11219
▁지오 -11220
▁칙령 -11221
▁테라 -11222
▁화기 -11223
▁위너스 -11224
▁해져 -11225
▁엮 -11226
▁김원 -11227
▁나선 -11228
▁총통 -11229
▁MTV -11230
▁클레이 -11231
▁클린턴 -11232
▁싣 -11233
▁드미 -11234
▁바트 -11235
▁파도 -11236
▁끈 -11237
include -11238
▁경호 -11239
▁학설 -11240
▁사각형 -11241
▁올림피아 -11242
▁는다면 -11243
ish -11244
▁통용 -11245
▁브루스 -11246
▁서재필 -11247
▁선거법 -11248
▁솔로몬 -11249
▁시노 -11250
▁안녕 -11251
▁푸르 -11252
▁하류 -11253
▁레이크 -11254
▁스테파 -11255
▁돋 -11256
▁카지 -11257
▁효자 -11258
▁유치원 -11259
▁해리스 -11260
▁가늘 -11261
▁모의 -11262
▁모호 -11263
▁유혹 -11264
따라 -11265
GM -11266
▁Jo -11267
▁마차 -11268
▁산호 -11269
▁스가 -11270
▁주임 -11271
▁내려졌 -11272
▁나우 -11273
▁욕망 -11274
▁트릭 -11275
▁겁 -11276
▁": -11277
▁신발 -11278
▁씨앗 -11279
▁전래 -11280
▁허정 -11281
토랑 -11282
▁일당 -11283
▁주입 -11284
▁하키 -11285
▁화엄 -11286
▁케플러 -11287
▁레스토랑 -11288
▁가솔 -11289
▁관청 -11290
▁자제 -11291
▁자치체 -11292
▁총사령관 -11293
▁어쩔 -11294
oun -11295
▁NT -11296
▁광도 -11297
▁보로 -11298
▁수양 -11299
▁시부 -11300
▁대합실 -11301
라니 -11302
에스 -11303
지르 -11304
▁보행 -11305
▁성화 -11306
▁천왕 -11307
▁평형 -11308
OD -11309
▁독도 -11310
▁실정 -11311
▁절망 -11312
▁진해 -11313
▁카테 -11314
▁케인 -11315
▁호스 -11316
▁쌓 -11317
▁분류군 -11318
▁함경남도 -11319
통일 -11320
▁아키라 -11321
▁예수회 -11322
▁요시다 -11323
fe -11324
▁@ -11325
▁뻔 -11326
원수 -11327
히트 -11328
▁로버 -11329
▁이렇 -11330
▁예선전 -11331
▁정의당 -11332
▁보낸다 -11333
AF -11334
신문 -11335
▁만장 -11336
▁메뉴 -11337
▁보라 -11338
▁찬사 -11339
▁포식 -11340
▁ex -11341
▁무실 -11342
▁분파 -11343
▁제물 -11344
▁지로 -11345
▁마술 -11346
▁긴테쓰 -11347
▁비밀리 -11348
정원 -11349
▁검정 -11350
▁전무 -11351
ᅡ질 -11352
▁되돌아 -11353
▁극한 -11354
▁나인 -11355
▁침묵 -11356
▁폭파 -11357
환경 -11358
are -11359
▁박종 -11360
▁소음 -11361
▁이점 -11362
▁테리 -11363
▁내야수 -11364
▁방어선 -11365
▁향했 -11366
창호 -11367
▁고든 -11368
▁리보 -11369
▁메카 -11370
▁보수당 -11371
나오 -11372
▁sc -11373
▁다테 -11374
▁플라톤 -11375
▁블레 -11376
▁원통 -11377
▁뉴클레오 -11378
▁네이션스컵 -11379
바흐 -11380
▁당연 -11381
▁문고 -11382
▁시몬 -11383
▁다저스 -11384
▁비타민 -11385
▁잡아먹 -11386
▁아키타 -11387
▁스톡홀름 -11388
▁어군 -11389
▁엄밀 -11390
▁천국 -11391
▁캐롤 -11392
▁샀 -11393
▁서대문 -11394
▁컴퓨팅 -11395
▁지닌다 -11396
▁올라갔 -11397
▁넷째 -11398
▁도둑 -11399
▁마셜 -11400
▁본성 -11401
▁블로 -11402
▁카피 -11403
▁프론 -11404
ical -11405
▁ABC -11406
▁바이트 -11407
▁알프스 -11408
▁실린 -11409
등식 -11410
▁김유 -11411
▁맞대 -11412
▁수복 -11413
▁휩 -11414
▁드루 -11415
▁색소 -11416
▁전담 -11417
▁유아기 -11418
러브 -11419
▁강령 -11420
▁타스 -11421
▁파손 -11422
▁개구리 -11423
▁쓰여진 -11424
메드 -11425
lat -11426
▁방콕 -11427
▁자치주 -11428
▁와이번스 -11429
▁도교 -11430
▁동로 -11431
▁리베 -11432
▁묘비 -11433
▁떨 -11434
▁나트륨 -11435
▁오리온 -11436
▁친위대 -11437
▁프린스 -11438
암동 -11439
▁소극 -11440
▁웨인 -11441
▁찬양 -11442
▁황소 -11443
▁스폰서 -11444
▁이뤄지 -11445
TP -11446
▁노론 -11447
▁대본 -11448
▁대북 -11449
▁릴리 -11450
▁소중 -11451
▁리프트 -11452
▁북아일랜드 -11453
EG -11454
IR -11455
▁넘치 -11456
▁모어 -11457
▁백두 -11458
▁멧 -11459
▁선천 -11460
▁스텝 -11461
▁라서 -11462
▁피아니스트 -11463
▁럭비 -11464
▁리사 -11465
▁불변 -11466
▁실권 -11467
▁천거 -11468
▁치과 -11469
▁마천루 -11470
▁투자자 -11471
▁샐 -11472
매매 -11473
▁구실 -11474
▁장시 -11475
▁채취 -11476
▁추이 -11477
▁ATP -11478
▁대원군 -11479
▁로드리 -11480
▁가브리엘 -11481
▁아름다움 -11482
▁DD -11483
▁담보 -11484
▁마켓 -11485
▁CH -11486
▁Fr -11487
▁포토 -11488
▁화약 -11489
▁용인시 -11490
▁피라미 -11491
▁AV -11492
▁상행 -11493
▁슬픔 -11494
▁야전 -11495
▁왕권 -11496
▁퇴직 -11497
▁한미 -11498
▁헬싱 -11499
▁널 -11500
▁마누엘 -11501
군다 -11502
▁결별 -11503
▁구내 -11504
▁국공 -11505
▁야드 -11506
▁영유 -11507
▁톈진 -11508
▁210 -11509
▁연산군 -11510
▁튀르크 -11511
▁합친 -11512
대표 -11513
▁로크 -11514
▁벤처 -11515
▁정거 -11516
▁정부군 -11517
▁토스카 -11518
덴부르크 -11519
▁사방 -11520
▁이의 -11521
▁특전 -11522
▁동시대 -11523
▁연극배우 -11524
▁헤르체고비나 -11525
지능 -11526
▁감찰 -11527
▁삼존 -11528
▁제노 -11529
▁쾰른 -11530
▁선구자 -11531
▁화강암 -11532
▁인공지능 -11533
▁슬하 -11534
▁가이드 -11535
▁적외선 -11536
▁콘테스트 -11537
FL -11538
놀이 -11539
▁Ma -11540
▁간첩 -11541
▁구두 -11542
▁스칸 -11543
▁여유 -11544
▁유격수 -11545
티넘 -11546
▁히 -11547
▁방치 -11548
▁약사 -11549
▁차출 -11550
▁아나톨 -11551
▁져서 -11552
▁플래티넘 -11553
▁즐길 -11554
ey -11555
언스 -11556
▁pr -11557
▁맞서 -11558
▁별세 -11559
▁알파벳 -11560
▁주차장 -11561
▁프레데 -11562
EL -11563
대교 -11564
▁강렬 -11565
▁위그 -11566
▁펌프 -11567
다운 -11568
ica -11569
▁로얄 -11570
▁마에 -11571
▁유선 -11572
▁중퇴 -11573
▁려다 -11574
▁이뤄졌 -11575
▁가락 -11576
▁왕건 -11577
▁준수 -11578
▁목요일 -11579
ᆼ한다 -11580
사고 -11581
▁본작 -11582
▁켈트 -11583
▁안테나 -11584
▁오바마 -11585
▁딥 -11586
수스 -11587
▁그저 -11588
▁일리 -11589
▁경전철 -11590
▁리본 -11591
▁모하 -11592
▁불참 -11593
▁삼림 -11594
▁종식 -11595
▁추리 -11596
▁초신성 -11597
▁이겨 -11598
▁나타낸 -11599
▁he -11600
▁공존 -11601
▁봉화 -11602
▁실록 -11603
▁임정 -11604
▁칸국 -11605
▁두려움 -11606
▁1889 -11607
▁아날 -11608
▁유목 -11609
▁러서 -11610
클레 -11611
▁밸리 -11612
▁이송 -11613
▁기관지 -11614
▁엔트리 -11615
▁스카우트 -11616
▁취했 -11617
60 -11618
ᆽ혀 -11619
▁김형 -11620
▁반포 -11621
▁영예 -11622
▁영정 -11623
▁요충 -11624
▁늙 -11625
난성 -11626
천동 -11627
▁건전 -11628
▁끼치 -11629
▁여권 -11630
▁예약 -11631
▁전전 -11632
▁직통 -11633
▁집정 -11634
▁하시 -11635
공산당 -11636
와라노 -11637
▁말미암 -11638
▁메이커 -11639
▁아이폰 -11640
▁후지와라노 -11641
소통 -11642
▁가맹 -11643
▁로트 -11644
▁마땅 -11645
▁송신 -11646
▁중합 -11647
▁형질 -11648
▁밴쿠버 -11649
▁타이어 -11650
▁고속버스 -11651
▁벌여 -11652
부로 -11653
▁모금 -11654
▁사역 -11655
▁연말 -11656
▁처지 -11657
▁패트릭 -11658
지기 -11659
▁다윈 -11660
▁대영 -11661
▁라자 -11662
▁베트 -11663
▁정형 -11664
▁플리 -11665
▁죽인 -11666
충류 -11667
▁불량 -11668
▁산성 -11669
▁우림 -11670
▁투여 -11671
테이너 -11672
▁드디어 -11673
▁절정 -11674
▁호대 -11675
▁멍 -11676
▁감성 -11677
▁비엔 -11678
▁사설 -11679
▁인가 -11680
▁간신히 -11681
▁열심히 -11682
▁의사소통 -11683
▁타이거스 -11684
▁끓 -11685
▁So -11686
▁니혼 -11687
▁열강 -11688
▁의류 -11689
▁판례 -11690
▁소말리아 -11691
▁극우 -11692
▁라리 -11693
▁비야 -11694
▁수락 -11695
▁야시 -11696
▁피지 -11697
▁똑같이 -11698
▁스트로 -11699
▁매트 -11700
▁종자 -11701
▁For -11702
▁메디치 -11703
▁바꿨 -11704
▁김준 -11705
▁악보 -11706
▁주계 -11707
▁캐리 -11708
▁발라드 -11709
위안 -11710
▁작물 -11711
▁지자 -11712
▁쿠퍼 -11713
▁로마인 -11714
▁날아 -11715
▁감상 -11716
▁격리 -11717
추부사 -11718
▁낙동강 -11719
▁힘썼 -11720
▁미수 -11721
▁사탕 -11722
▁시크 -11723
▁정작 -11724
블랜드 -11725
▁CONCA -11726
바나 -11727
카리 -11728
▁사서 -11729
▁중수 -11730
▁생존자 -11731
▁애정 -11732
▁JTBC -11733
bo -11734
드레 -11735
부르 -11736
유예 -11737
휴일 -11738
▁들이 -11739
▁의령 -11740
▁Live -11741
▁멈ᄎ -11742
▁프란체스코 -11743
▁CONCACAF -11744
가미 -11745
▁무형 -11746
▁삼중 -11747
▁센티미터 -11748
▁금호 -11749
▁서임 -11750
▁원군 -11751
▁정읍 -11752
▁후배 -11753
▁클리블랜드 -11754
▁훙 -11755
▁모셔 -11756
▁나카무라 -11757
▁고쳤 -11758
sh -11759
망디 -11760
▁목회 -11761
▁제명 -11762
▁징수 -11763
▁가솔린 -11764
▁미야자키 -11765
▁도피 -11766
▁모색 -11767
▁앙골 -11768
▁요격 -11769
▁정종 -11770
▁하야 -11771
▁가려 -11772
▁헛 -11773
▁고딕 -11774
▁메소 -11775
▁은거 -11776
▁잠정 -11777
▁Sou -11778
▁프랑스인 -11779
나마 -11780
▁공소 -11781
▁김명 -11782
▁반기 -11783
▁페트 -11784
▁카카오 -11785
▁거느 -11786
캐슬 -11787
▁기이 -11788
에미리트 -11789
▁아랍에미리트 -11790
▁가도 -11791
▁백과 -11792
▁송출 -11793
▁시네마 -11794
▁뛰어났 -11795
IL -11796
란토 -11797
풀이 -11798
프로 -11799
▁금산 -11800
▁볼트 -11801
▁레이싱 -11802
▁장학금 -11803
▁가나가와현 -11804
▁놀라운 -11805
네 -11806
▁비준 -11807
▁비추 -11808
▁습윤 -11809
▁유의 -11810
도르프 -11811
마르크 -11812
바이트 -11813
▁여배우 -11814
▁카탈루냐 -11815
▁자유민주당 -11816
▁연정 -11817
▁치환 -11818
▁트렌 -11819
▁설 -11820
▁피라미드 -11821
▁드러냈 -11822
EE -11823
▁리옹 -11824
▁유희 -11825
▁익숙 -11826
하이오 -11827
tern -11828
▁오하이오 -11829
▁가져온 -11830
▁EU -11831
▁모욕 -11832
▁서태 -11833
▁평평 -11834
▁한중 -11835
▁광복군 -11836
▁교통부 -11837
▁취해 -11838
▁어시스트 -11839
드 -11840
▁성곽 -11841
▁Com -11842
▁에이즈 -11843
▁벨리 -11844
▁어찌 -11845
▁미야기 -11846
ood -11847
▁격추 -11848
▁김광 -11849
▁무네 -11850
▁검은색 -11851
▁레이더 -11852
▁Time -11853
화문 -11854
▁순종 -11855
▁자서 -11856
▁항만 -11857
▁Col -11858
▁빨간 -11859
▁캅 -11860
간다 -11861
▁거미 -11862
▁워커 -11863
▁겸 -11864
▁마이어 -11865
▁유니버설 -11866
▁벅 -11867
▁츄 -11868
ost -11869
▁"& -11870
▁GB -11871
▁AKB -11872
▁스타트 -11873
▁Part -11874
대사 -11875
▁귀신 -11876
▁수로 -11877
▁암스 -11878
▁여고 -11879
▁탄약 -11880
▁int -11881
▁기숙사 -11882
▁1848 -11883
자루 -11884
▁급여 -11885
▁매킨 -11886
▁문집 -11887
▁양심 -11888
▁포털 -11889
▁뉴캐슬 -11890
▁토리노 -11891
현동 -11892
▁띄 -11893
▁바지 -11894
▁추억 -11895
▁라이더 -11896
▁레이트 -11897
▁프랑스령 -11898
▁무과 -11899
▁여사 -11900
▁티아 -11901
▁우루스 -11902
지부 -11903
▁사쓰 -11904
▁천주 -11905
▁최진 -11906
▁브레이 -11907
▁도래 -11908
▁줄리 -11909
▁해태 -11910
▁여의도 -11911
ᅱᆯ -11912
row -11913
▁꼽히 -11914
▁추력 -11915
▁한림 -11916
▁해피 -11917
▁풀 -11918
▁프란치 -11919
거스 -11920
▁사민 -11921
▁바그너 -11922
에몽 -11923
▁오만 -11924
▁명확히 -11925
▁지상파 -11926
도라 -11927
애미 -11928
의사 -11929
▁재팬 -11930
span -11931
▁대리인 -11932
▁부총리 -11933
▁마이애미 -11934
▁졌으나 -11935
▁TR -11936
▁국한 -11937
▁댄서 -11938
▁워즈 -11939
▁하행 -11940
▁견 -11941
▁휩 -11942
▁공휴일 -11943
▁가혹 -11944
▁모건 -11945
▁조인 -11946
▁토트 -11947
▁해독 -11948
▁튀니지 -11949
▁시켜서 -11950
▁onlyinclude -11951
uc -11952
정동 -11953
ous -11954
▁남군 -11955
▁볼로 -11956
▁재일 -11957
워서 -11958
▁지배자 -11959
▁느린 -11960
지아 -11961
lay -11962
▁공성 -11963
▁우한 -11964
▁종군 -11965
▁코리 -11966
프랑크 -11967
▁대니얼 -11968
▁정치학 -11969
▁카스티야 -11970
▁누렸 -11971
▁공대 -11972
▁라르 -11973
▁비정 -11974
▁셀레 -11975
▁절벽 -11976
▁클러 -11977
▁방대 -11978
▁병자 -11979
▁업자 -11980
▁총격 -11981
▁젠 -11982
▁클라우 -11983
orn -11984
▁EM -11985
▁무안 -11986
▁보령 -11987
▁비토 -11988
▁산둥 -11989
▁정거장 -11990
▁Your -11991
▁굴절 -11992
▁로키 -11993
▁안개 -11994
▁특화 -11995
▁고인돌 -11996
▁법원장 -11997
▁일본국 -11998
▁대승불교 -11999
▁보수주의 -12000
▁바뀐 -12001
▁부합 -12002
▁비대 -12003
▁어긋 -12004
파니아 -12005
▁페트로 -12006
▁교의 -12007
▁김인 -12008
▁유식 -12009
▁음절 -12010
▁합치 -12011
페스트 -12012
▁대단히 -12013
▁마법사 -12014
▁다치 -12015
▁제위 -12016
▁치카 -12017
▁국제법 -12018
▁대법관 -12019
으로 -12020
▁리카 -12021
▁부평 -12022
▁설문 -12023
▁SNS -12024
▁관현악단 -12025
관계 -12026
ann -12027
ows -12028
▁경복 -12029
▁랴오 -12030
▁신곡 -12031
▁인칭 -12032
olog -12033
▁시코쿠 -12034
▁미친 -12035
메니 -12036
▁가쿠 -12037
▁단결 -12038
▁선명 -12039
▁그랜트 -12040
▁아이즈 -12041
▁바꿀 -12042
OP -12043
aw -12044
▁모빌 -12045
▁문단 -12046
▁선봉 -12047
▁시멘트 -12048
▁시켜야 -12049
브로 -12050
▁사수 -12051
▁숙부 -12052
▁케르 -12053
해살이 -12054
▁잇 -12055
▁NASA -12056
▁류큐 -12057
▁마테 -12058
▁용액 -12059
▁Bla -12060
▁저지대 -12061
▁하노버 -12062
az -12063
▁고로 -12064
▁공영 -12065
▁대마 -12066
▁OST -12067
▁발 -12068
▁제우스 -12069
거지 -12070
▁BC -12071
▁GM -12072
▁거란 -12073
▁동산 -12074
▁연립 -12075
▁지법 -12076
▁항체 -12077
▁131 -12078
▁서귀 -12079
메이카 -12080
▁섰 -12081
▁대나무 -12082
▁카메룬 -12083
▁자메이카 -12084
▁줄기세포 -12085
▁사라진 -12086
▁동진 -12087
▁부다 -12088
▁소외 -12089
▁오디 -12090
▁진로 -12091
▁평지 -12092
▁API -12093
▁방사능 -12094
▁정보원 -12095
서스 -12096
▁검거 -12097
▁메일 -12098
▁베어 -12099
▁초콜 -12100
▁황색 -12101
▁명소 -12102
클리드 -12103
▁레드삭스 -12104
틀리 -12105
▁웨 -12106
▁도키 -12107
▁안방 -12108
▁재편 -12109
▁적료 -12110
▁점포 -12111
드리아 -12112
▁영화상 -12113
▁줄리아 -12114
▁1883 -12115
▁접한 -12116
▁쾨 -12117
▁골격 -12118
▁국교 -12119
▁라기 -12120
▁깜 -12121
▁at -12122
▁모범 -12123
▁사림 -12124
▁전보 -12125
▁종양 -12126
▁항우 -12127
▁형벌 -12128
빌라이 -12129
▁ref -12130
▁부상자 -12131
▁때려 -12132
▁그라운드 -12133
▁앗 -12134
칼리 -12135
▁글꼴 -12136
▁남방 -12137
▁속력 -12138
▁외치 -12139
▁지석 -12140
▁최선 -12141
▁라파엘 -12142
▁제이슨 -12143
▁팔렸 -12144
▁욱 -12145
▁가중 -12146
▁다듬 -12147
▁연희 -12148
▁혼다 -12149
▁패러디 -12150
▁기와 -12151
▁녹화 -12152
▁다툼 -12153
▁라디 -12154
▁중엽 -12155
▁하코 -12156
레스트 -12157
▁전한 -12158
▁절감 -12159
▁편견 -12160
네그로 -12161
른스트 -12162
▁노르망디 -12163
▁녕 -12164
시노 -12165
용차 -12166
히사 -12167
▁가토 -12168
▁수식 -12169
▁응급 -12170
▁평판 -12171
▁한신 -12172
▁달라지 -12173
▁바쳤 -12174
▁곶 -12175
▁고생 -12176
▁관상 -12177
▁도박 -12178
▁실증 -12179
▁홀리 -12180
▁비서관 -12181
▁교향악단 -12182
▁자란 -12183
▁기세 -12184
▁무작 -12185
▁봉인 -12186
▁탄자 -12187
▁판소리 -12188
▁u -12189
▁촛 -12190
▁펴 -12191
합성 -12192
▁계주 -12193
▁산요 -12194
▁송파 -12195
▁은혜 -12196
▁코소 -12197
▁타락 -12198
▁하남 -12199
▁후진 -12200
▁파일럿 -12201
▁기량 -12202
▁니키 -12203
▁대좌 -12204
▁삽화 -12205
▁식스 -12206
▁쌍대 -12207
▁경위 -12208
▁큐브 -12209
▁에스페 -12210
▁연구회 -12211
▁체인지 -12212
▁해상도 -12213
▁텍사스주 -12214
80 -12215
제품 -12216
▁리즈 -12217
▁야외 -12218
▁열전 -12219
▁자명 -12220
▁피리 -12221
▁고분군 -12222
▁나간 -12223
럴 -12224
▁tv -12225
▁간략 -12226
▁공무 -12227
▁근사 -12228
▁꿈꾸 -12229
▁라바 -12230
▁유공 -12231
▁콘솔 -12232
▁흘러 -12233
▁예컨대 -12234
▁흐른다 -12235
센스 -12236
▁온난 -12237
▁이터 -12238
▁조교 -12239
▁올라가 -12240
▁가우 -12241
▁발상 -12242
▁병마 -12243
▁이회 -12244
▁카네 -12245
▁프로그래머 -12246
▁램프 -12247
▁리마 -12248
▁세습 -12249
▁위로 -12250
▁카마 -12251
▁연장전 -12252
▁단군 -12253
▁걸쳐서 -12254
▁멋 -12255
▁우산 -12256
▁유생 -12257
▁유우 -12258
▁에이전 -12259
▁위구르 -12260
▁달랐 -12261
려가 -12262
▁Ge -12263
▁고의 -12264
▁노면 -12265
▁수위 -12266
▁월터 -12267
▁전반기 -12268
▁두꺼 -12269
▁쿠빌라이 -12270
▁도네 -12271
▁배분 -12272
▁상어 -12273
▁엔드 -12274
▁토마토 -12275
▁달아났 -12276
들이 -12277
▁권역 -12278
▁단속 -12279
▁요절 -12280
▁이용객 -12281
나갔 -12282
▁잃어버린 -12283
▁봇 -12284
ink -12285
▁관례 -12286
▁부왕 -12287
▁안나 -12288
▁지극 -12289
▁함량 -12290
▁만화가 -12291
▁중소기업 -12292
▁겹쳐 -12293
워스 -12294
치히 -12295
ern -12296
▁북군 -12297
▁학력 -12298
▁없 -12299
▁다이어 -12300
▁해안선 -12301
▁1882 -12302
돌이 -12303
에고 -12304
▁국외 -12305
▁단정 -12306
▁모세 -12307
▁부교 -12308
▁성동 -12309
▁330 -12310
▁관계없이 -12311
▁야마가타 -12312
CC -12313
▁RP -12314
▁간사 -12315
▁고흥 -12316
▁왕궁 -12317
▁Day -12318
▁통신사 -12319
▁Wind -12320
40 -12321
▁콥 -12322
버른 -12323
프턴 -12324
▁내일 -12325
▁루키 -12326
▁요양 -12327
▁친족 -12328
▁슈퍼컵 -12329
포시 -12330
▁거성 -12331
▁고노 -12332
▁기전 -12333
▁동포 -12334
▁스루 -12335
▁유서 -12336
▁주선 -12337
▁헬레 -12338
스트리 -12339
▁내세우 -12340
▁올리브 -12341
▁부디 -12342
토프 -12343
▁덮개 -12344
▁수다 -12345
▁교부 -12346
▁급증 -12347
▁위조 -12348
▁파벌 -12349
▁너무나 -12350
▁단체전 -12351
▁대표자 -12352
▁스칼라 -12353
▁아이언 -12354
▁원산지 -12355
▁가고 -12356
▁관악 -12357
▁내걸 -12358
▁범행 -12359
▁국정원 -12360
▁데니스 -12361
▁필립스 -12362
▁느낄 -12363
▁떨어진다 -12364
II -12365
교통 -12366
여객 -12367
▁RS -12368
▁SA -12369
▁사학 -12370
▁새우 -12371
▁장덕 -12372
▁정월 -12373
▁조셉 -12374
▁공화정 -12375
▁내보 -12376
▁아날로그 -12377
▁몹 -12378
오르크 -12379
▁결사 -12380
▁배달 -12381
▁씨족 -12382
▁타수 -12383
▁레오폴 -12384
▁선진국 -12385
▁영원히 -12386
▁카스트 -12387
▁Girl -12388
▁자수 -12389
▁플러 -12390
▁미토콘 -12391
▁부르주 -12392
▁미토콘드리아 -12393
▁FK -12394
▁산시 -12395
▁시안 -12396
▁우시 -12397
▁정정 -12398
▁직속 -12399
▁최영 -12400
▁Sch -12401
▁미스터리 -12402
▁뫼 -12403
지리 -12404
▁보루 -12405
▁성원 -12406
▁제천 -12407
▁강당 -12408
▁상록 -12409
▁재래 -12410
▁주창 -12411
▁태후 -12412
▁표정 -12413
▁항원 -12414
▁묻혔 -12415
데라 -12416
▁강행 -12417
▁랭크 -12418
▁선대 -12419
▁지르 -12420
▁중공군 -12421
▁4000 -12422
팡이 -12423
▁몰타 -12424
▁사영 -12425
▁아목 -12426
▁염려 -12427
▁지켜 -12428
▁군사력 -12429
▁북유럽 -12430
▁생겨난 -12431
▁관목 -12432
▁남하 -12433
▁협업 -12434
▁노벨상 -12435
▁무실점 -12436
▁해운대 -12437
▁시즈오카 -12438
▁비해서 -12439
US -12440
▁괌 -12441
▁넬슨 -12442
▁맡기 -12443
▁잠깐 -12444
▁형편 -12445
▁경주시 -12446
▁브루클린 -12447
서니 -12448
▁신입 -12449
▁양보 -12450
▁외래 -12451
▁천수 -12452
▁독수리 -12453
▁테네시 -12454
▁호스트 -12455
▁냥 -12456
▁딜런 -12457
▁사치 -12458
▁서면 -12459
▁조슈 -12460
▁안티오 -12461
▁어울리 -12462
게스 -12463
▁규탄 -12464
▁발동 -12465
▁정은 -12466
▁콜럼 -12467
▁파푸아 -12468
나기 -12469
본부 -12470
▁보름 -12471
▁빙하 -12472
▁소프 -12473
▁둘 -12474
▁떠오르 -12475
▁우의정 -12476
▁지붕돌 -12477
▁파시즘 -12478
▁휴게소 -12479
▁사안 -12480
▁제단 -12481
▁급속히 -12482
▁사업소 -12483
▁산티아 -12484
▁알아보 -12485
▁제갈량 -12486
▁1868 -12487
▁키워 -12488
▁만난다 -12489
융합 -12490
▁단말 -12491
▁영덕 -12492
▁일각 -12493
티모어 -12494
▁대상자 -12495
▁베이커 -12496
▁세요 -12497
▁바꾼 -12498
▁치러졌 -12499
OT -12500
▁노사 -12501
▁우월 -12502
▁하의 -12503
▁회귀 -12504
▁LED -12505
▁new -12506
▁라인업 -12507
▁멜버른 -12508
▁메릴랜드 -12509
▁놓인 -12510
▁뒤이 -12511
▁라미 -12512
▁번창 -12513
▁종영 -12514
▁후예 -12515
▁뛰어들 -12516
▁컨테이너 -12517
▁OB -12518
▁Or -12519
▁과테 -12520
▁대인 -12521
▁받들 -12522
▁수열 -12523
▁아유 -12524
스탄불 -12525
▁과테말라 -12526
▁유클리드 -12527
▁이스탄불 -12528
해자 -12529
협회 -12530
oll -12531
▁고트 -12532
▁족보 -12533
▁할인 -12534
▁핵융합 -12535
▁사이타마 -12536
▁상해 -12537
▁옮긴 -12538
▁오아 -12539
▁저조 -12540
▁스캔들 -12541
▁요충지 -12542
▁이바지 -12543
▁컨트롤러 -12544
▁몬테네그로 -12545
▁사운드트랙 -12546
▁객차 -12547
▁동적 -12548
▁어파 -12549
▁전수 -12550
▁피핀 -12551
▁띤 -12552
▁앙골라 -12553
▁오스틴 -12554
▁사회민주당 -12555
사 -12556
▁증폭 -12557
▁청계 -12558
들어 -12559
▁렛 -12560
▁군벌 -12561
▁외형 -12562
▁출자 -12563
▁피할 -12564
▁농지 -12565
▁영월 -12566
▁충렬 -12567
▁리믹스 -12568
▁좌의정 -12569
▁프랜차 -12570
▁았었 -12571
▁금전 -12572
▁성산 -12573
▁장병 -12574
▁절제 -12575
▁줄어 -12576
▁법관 -12577
▁사천 -12578
▁기념일 -12579
▁커리어 -12580
▁폐기물 -12581
일으ᄏ -12582
▁불러일으ᄏ -12583
▁너머 -12584
▁노후 -12585
▁우왕 -12586
▁초안 -12587
▁켄트 -12588
▁항로 -12589
펜하겐 -12590
▁코펜하겐 -12591
히드 -12592
설 -12593
▁러일 -12594
▁복종 -12595
▁영암 -12596
▁위촉 -12597
▁잔인 -12598
▁차선 -12599
▁션 -12600
▁주계열 -12601
▁베르나르 -12602
▁야마모토 -12603
끔 -12604
▁교직 -12605
▁라카 -12606
▁버터 -12607
▁안무 -12608
▁위력 -12609
▁증오 -12610
웨이트 -12611
▁없ᄋ -12612
▁거처 -12613
▁밀레 -12614
▁사비 -12615
▁스콜 -12616
▁양수 -12617
▁은신 -12618
▁청도 -12619
▁출동 -12620
▁넌 -12621
▁아케이드 -12622
▁요하네스 -12623
▁게끔 -12624
▁뭉 -12625
▁부파 -12626
▁세련 -12627
▁320 -12628
▁히브리 -12629
▁프란시스코 -12630
바오 -12631
▁타리 -12632
▁신주쿠 -12633
▁프랜차이즈 -12634
▁colspan -12635
어넣 -12636
▁다우 -12637
▁대도 -12638
▁식용 -12639
▁외과 -12640
▁이메 -12641
▁주심 -12642
▁카세 -12643
▁피드 -12644
▁해치 -12645
▁헌장 -12646
▁수요일 -12647
라는 -12648
▁드림 -12649
▁새긴 -12650
▁암스테르담 -12651
▁끝날 -12652
▁고온 -12653
▁도상 -12654
▁동향 -12655
▁성악 -12656
▁정몽 -12657
▁치유 -12658
▁공안 -12659
▁꾀하 -12660
▁내분 -12661
▁네티 -12662
▁이항 -12663
▁김옥균 -12664
▁사이먼 -12665
▁슌 -12666
공주 -12667
호란 -12668
▁대청 -12669
▁매리 -12670
▁분단 -12671
▁우연 -12672
▁종신 -12673
▁준장 -12674
▁추서 -12675
▁피우 -12676
▁피치 -12677
▁위함 -12678
▁DF -12679
▁능동 -12680
▁대덕 -12681
▁배리 -12682
▁분사 -12683
▁습관 -12684
▁end -12685
▁동맹국 -12686
▁자서전 -12687
디나비아 -12688
▁게오르크 -12689
▁니콜라스 -12690
▁스칸디나비아 -12691
▁상국 -12692
▁소아 -12693
▁슈테 -12694
▁시비 -12695
▁양대 -12696
▁치하 -12697
▁카툰 -12698
▁컨설 -12699
▁훔 -12700
▁효고현 -12701
▁여성주의 -12702
▁몰아 -12703
▁떠난다 -12704
우에 -12705
익스 -12706
▁고이 -12707
▁김윤 -12708
▁순차 -12709
▁전세 -12710
▁그만큼 -12711
▁산티아고 -12712
▁국철 -12713
▁긴밀 -12714
▁바울 -12715
▁자재 -12716
▁정령 -12717
▁첼로 -12718
▁축산 -12719
토리코 -12720
▁오일러 -12721
RT -12722
▁김선 -12723
▁조영 -12724
▁직행 -12725
▁타일 -12726
▁서해안 -12727
▁육군사관학교 -12728
걸이 -12729
꼬리 -12730
▁by -12731
▁모차 -12732
▁샤프 -12733
▁압록 -12734
▁톰슨 -12735
▁호아 -12736
▁울 -12737
▁결과물 -12738
amp -12739
gin -12740
▁거지 -12741
▁문종 -12742
▁함흥 -12743
▁문 -12744
▁데이브 -12745
▁헤이안 -12746
▁에른스트 -12747
▁쿠웨이트 -12748
니파 -12749
▁노아 -12750
▁데드 -12751
▁서주 -12752
▁전락 -12753
▁차츰 -12754
▁타로 -12755
▁브뤼셀 -12756
▁서사시 -12757
▁시트콤 -12758
▁당할 -12759
▁늪 -12760
독립 -12761
셀러 -12762
웍스 -12763
▁점거 -12764
▁칭송 -12765
▁280 -12766
▁로마자 -12767
▁루이지애나 -12768
▁코스타리카 -12769
▁었었 -12770
▁연한 -12771
▁정했 -12772
단지 -12773
▁김승 -12774
▁브릿 -12775
▁퍼즐 -12776
▁한번 -12777
▁발전기 -12778
▁위안부 -12779
▁철저히 -12780
▁텔레콤 -12781
▁내무 -12782
▁아흐 -12783
▁주성 -12784
▁돌 -12785
▁어웨이 -12786
▁윗부분 -12787
▁장로교 -12788
▁푸에르토리코 -12789
LA -12790
▁고집 -12791
▁문무 -12792
▁원활 -12793
▁전학 -12794
▁짐승 -12795
▁천천 -12796
▁흡사 -12797
▁천안시 -12798
▁높여 -12799
▁보여준 -12800
▁리코 -12801
▁박성 -12802
▁천마 -12803
▁203 -12804
▁법조인 -12805
▁펠릭스 -12806
▁화장품 -12807
▁함경북도 -12808
▁촐 -12809
계승 -12810
▁정재 -12811
▁후유 -12812
▁IOC -12813
▁칠 -12814
▁유학자 -12815
▁포르노 -12816
▁1893 -12817
▁나타날 -12818
▁각료 -12819
▁결핵 -12820
▁백악 -12821
▁소대 -12822
▁수량 -12823
▁유족 -12824
▁척도 -12825
▁편향 -12826
▁부르고 -12827
OW -12828
카 -12829
▁갯 -12830
▁놈 -12831
▁격려 -12832
▁리튬 -12833
▁배드 -12834
▁앤디 -12835
▁온화 -12836
▁축전 -12837
▁충무 -12838
▁피크 -12839
▁학장 -12840
▁트리오 -12841
▁복음주의 -12842
▁맬 -12843
게임 -12844
▁Fe -12845
▁과시 -12846
▁레프 -12847
▁박상 -12848
▁생리 -12849
▁코네 -12850
▁폐렴 -12851
▁접어들 -12852
▁천천히 -12853
퍼레이션 -12854
▁높였 -12855
북구 -12856
▁이아 -12857
▁집착 -12858
▁측량 -12859
▁데일리 -12860
▁민병대 -12861
업자 -12862
▁대종 -12863
▁서스 -12864
▁영천 -12865
▁가고시마 -12866
▁가했 -12867
gr -12868
ung -12869
▁막판 -12870
▁자진 -12871
라이드 -12872
▁교육자 -12873
▁이탈리아어 -12874
떠 -12875
세유 -12876
▁기쁨 -12877
▁선인 -12878
▁이황 -12879
▁해왕 -12880
▁헌터 -12881
▁마이크로 -12882
▁탄자니아 -12883
▁Mo -12884
▁NP -12885
▁김치 -12886
▁배양 -12887
▁조니 -12888
▁조제 -12889
▁도자기 -12890
▁로베르 -12891
▁해안가 -12892
▁날카 -12893
상시 -12894
les -12895
▁le -12896
▁숨기 -12897
▁심포 -12898
▁우두 -12899
▁접종 -12900
▁탈취 -12901
▁하타 -12902
▁헤로 -12903
▁동맹군 -12904
▁어긋나 -12905
▁갈ᄅ -12906
▁톡 -12907
▁혀 -12908
▁도우 -12909
▁하급 -12910
▁서초구 -12911
▁Rock -12912
▁갚 -12913
티에 -12914
화학 -12915
쁜 -12916
▁간직 -12917
로이드 -12918
▁관우 -12919
▁김천 -12920
▁애인 -12921
▁노미야 -12922
▁초콜릿 -12923
▁왔으나 -12924
▁핏 -12925
eth -12926
▁도이 -12927
▁미성 -12928
▁심상 -12929
▁유영 -12930
▁톱니 -12931
▁아라곤 -12932
▁Comp -12933
▁도로 -12934
▁살펴 -12935
▁취한 -12936
▁후쿠오카현 -12937
들러 -12938
몬트 -12939
▁관성 -12940
▁금동 -12941
▁도출 -12942
▁불경 -12943
▁한문 -12944
▁한큐 -12945
▁유적지 -12946
▁컬렉션 -12947
익스피어 -12948
▁귀 -12949
▁공양 -12950
▁림프 -12951
▁플랑크 -12952
▁가르시아 -12953
▁셰익스피어 -12954
▁도로는 -12955
봐 -12956
레드 -12957
▁구금 -12958
▁귀속 -12959
▁심부 -12960
▁주세 -12961
▁칼슘 -12962
루이스 -12963
▁고려대 -12964
▁비스타 -12965
▁보낼 -12966
▁마타 -12967
▁전미 -12968
▁점검 -12969
▁정반 -12970
▁녹색당 -12971
▁레인저스 -12972
▁바비 -12973
▁아츠 -12974
▁조롱 -12975
▁합하 -12976
▁흥분 -12977
▁몰 -12978
▁지켜보 -12979
▁케이크 -12980
▁픽처스 -12981
▁Univers -12982
▁버섯 -12983
▁강화도 -12984
▁글래스 -12985
▁서바이 -12986
▁스포르 -12987
▁미나모토 -12988
▁부르고뉴 -12989
▁미친다 -12990
oth -12991
▁견고 -12992
▁라흐 -12993
▁오하 -12994
▁장녀 -12995
▁현판 -12996
▁Rec -12997
▁도야마 -12998
▁우울증 -12999
▁다스렸 -13000
▁구독 -13001
▁명인 -13002
▁버러 -13003
▁소사 -13004
▁아메 -13005
▁에마 -13006
▁TBS -13007
▁사상가 -13008
어진 -13009
▁상관없이 -13010
▁다면서 -13011
▁AB -13012
▁Am -13013
▁까마 -13014
▁대주 -13015
▁배역 -13016
▁시속 -13017
▁페더 -13018
▁불계승 -13019
▁밝혀진 -13020
▁겹치 -13021
▁노랑 -13022
▁발목 -13023
▁에로 -13024
▁온대 -13025
▁월트 -13026
▁휴양 -13027
▁게오르 -13028
▁로스쿨 -13029
▁발사체 -13030
▁순양함 -13031
▁러시아군 -13032
▁스런 -13033
그 -13034
▁구치 -13035
▁라즈 -13036
▁무단 -13037
▁더러 -13038
▁도카이도 -13039
▁인공위성 -13040
▁내린다 -13041
태평 -13042
트르 -13043
▁마트 -13044
▁상정 -13045
▁심문 -13046
▁재차 -13047
▁기해 -13048
▁참모총장 -13049
▁가져다 -13050
▁낚시 -13051
▁물결 -13052
▁미츠 -13053
▁이우 -13054
▁청량 -13055
▁특사 -13056
▁황산 -13057
▁230 -13058
▁반동 -13059
▁에바 -13060
▁지난 -13061
▁끝냈 -13062
▁매끄러운 -13063
▁달라진다 -13064
폭탄 -13065
▁Do -13066
▁노프 -13067
▁베르타 -13068
▁찾아내 -13069
▁프리스 -13070
▁from -13071
▁플로리다주 -13072
▁핼 -13073
▁대접 -13074
▁미아 -13075
▁연회 -13076
▁침례 -13077
▁파편 -13078
▁GNU -13079
▁스탠리 -13080
▁가와사키 -13081
▁에스페란토 -13082
▁들어섰 -13083
▁대진 -13084
▁Sup -13085
▁국제선 -13086
▁흩어져 -13087
▁둘러싸인 -13088
국적 -13089
그마 -13090
바리 -13091
▁강진 -13092
▁나뭇 -13093
▁당뇨 -13094
▁슈타 -13095
▁용품 -13096
▁평안도 -13097
▁프로모 -13098
ublic -13099
▁마르세유 -13100
▁율리우스 -13101
▁뮐 -13102
헤드 -13103
▁대차 -13104
▁스투 -13105
▁울릉 -13106
▁유포 -13107
▁이범 -13108
▁재발 -13109
▁중앙은행 -13110
▁발라 -13111
▁IV -13112
▁가부 -13113
▁동종 -13114
▁운임 -13115
▁철강 -13116
▁향기 -13117
민스터 -13118
▁기업가 -13119
▁로빈슨 -13120
▁수차례 -13121
▁지바현 -13122
▁펠리페 -13123
▁Su -13124
▁리차 -13125
▁산수 -13126
▁피사 -13127
▁수나라 -13128
▁1888 -13129
▁거세 -13130
▁박테리아 -13131
▁견디 -13132
▁사커 -13133
▁스킴 -13134
▁애초 -13135
▁웃음 -13136
▁제창 -13137
▁페오 -13138
▁조선왕 -13139
▁하이퍼 -13140
유사 -13141
▁제철 -13142
▁카야 -13143
▁허드슨 -13144
▁감싸 -13145
▁배기 -13146
▁장래 -13147
▁청송 -13148
▁다이빙 -13149
▁로이드 -13150
▁이바라 -13151
▁1892 -13152
▁노스캐롤라이나 -13153
둘기 -13154
▁닉슨 -13155
▁데미 -13156
▁명부 -13157
▁소용 -13158
▁시우 -13159
▁경계선 -13160
▁사간원 -13161
▁세네갈 -13162
▁쇠고기 -13163
▁으리 -13164
▁CG -13165
▁공법 -13166
▁무르 -13167
▁재앙 -13168
▁Car -13169
▁케이트 -13170
AI -13171
▁Sw -13172
▁납부 -13173
▁메틸 -13174
▁소동 -13175
▁유무 -13176
▁터지 -13177
▁세비야 -13178
▁차세대 -13179
연수 -13180
▁백자 -13181
▁아와 -13182
▁원유 -13183
▁활동가 -13184
▁우에스기 -13185
▁닫힌 -13186
▁푹 -13187
티노 -13188
홍색 -13189
▁고스 -13190
▁붕어 -13191
▁사변 -13192
▁사키 -13193
▁벨 -13194
▁애덤스 -13195
▁절도사 -13196
▁덧붙였 -13197
AE -13198
▁ar -13199
▁강성 -13200
▁공시 -13201
▁모던 -13202
▁순례 -13203
▁시문 -13204
▁어의 -13205
▁옥타 -13206
▁입헌 -13207
▁주먹 -13208
▁관현악 -13209
▁소학교 -13210
▁과잉 -13211
▁군데 -13212
▁두려 -13213
▁새뮤 -13214
▁펠트 -13215
▁스탠드 -13216
▁헤라클 -13217
▁과연 -13218
▁낙양 -13219
▁불사 -13220
▁살라 -13221
▁위계 -13222
▁같 -13223
▁레이디 -13224
▁뱃 -13225
암리 -13226
▁맥아 -13227
▁면모 -13228
▁불러 -13229
▁이봉 -13230
미디어 -13231
▁공방전 -13232
▁대명사 -13233
▁대전차 -13234
▁산스크 -13235
▁후한 -13236
▁산스크리트 -13237
▁펩 -13238
사태 -13239
철수 -13240
▁반주 -13241
▁자립 -13242
▁코사 -13243
로니아 -13244
ᆸ한 -13245
▁고려사 -13246
▁논리학 -13247
▁다카라 -13248
▁대공국 -13249
▁더블린 -13250
▁스테판 -13251
▁알렉산드로스 -13252
네트 -13253
▁농축 -13254
▁미미 -13255
▁미식 -13256
▁세레 -13257
▁자코 -13258
▁하임 -13259
▁해병 -13260
▁눈 -13261
▁아브라 -13262
▁지리학 -13263
▁카운트 -13264
▁1876 -13265
비크 -13266
자동 -13267
▁IR -13268
▁계량 -13269
▁두드 -13270
▁산청 -13271
▁직계 -13272
▁문자열 -13273
▁사절단 -13274
▁후원자 -13275
▁프린스턴 -13276
▁니켈 -13277
▁도르트 -13278
▁볼로냐 -13279
▁데스크톱 -13280
▁펫 -13281
보리 -13282
▁대금 -13283
▁중고 -13284
▁USB -13285
▁북조선 -13286
▁올리버 -13287
▁전주시 -13288
ah -13289
▁생모 -13290
▁선양 -13291
▁사단장 -13292
▁성매매 -13293
▁접해 -13294
▁wh -13295
▁당황 -13296
▁댓글 -13297
▁두각 -13298
▁이나 -13299
▁이산 -13300
▁채색 -13301
▁엿 -13302
▁앤서니 -13303
▁집행유예 -13304
▁프레임워크 -13305
▁거룩 -13306
▁로브 -13307
▁부양 -13308
▁손녀 -13309
▁수력 -13310
▁조개 -13311
▁죄수 -13312
▁통폐 -13313
▁풍습 -13314
▁Gre -13315
▁브래드 -13316
▁아무리 -13317
▁1866 -13318
▁페르난도 -13319
▁가면라이더 -13320
▁베이시스트 -13321
▁깃털 -13322
▁메스 -13323
▁물류 -13324
▁발의 -13325
▁수하 -13326
▁완도 -13327
▁축성 -13328
▁토이 -13329
리카락 -13330
▁260 -13331
▁1886 -13332
▁커서 -13333
▁머리카락 -13334
▁덱 -13335
로쿠 -13336
▁간혹 -13337
▁복싱 -13338
▁송환 -13339
▁알폰 -13340
▁에반 -13341
▁전권 -13342
▁포탄 -13343
▁출 -13344
▁보좌관 -13345
▁서기관 -13346
광성 -13347
▁부류 -13348
▁카레 -13349
▁나빠 -13350
▁퍼졌 -13351
▁프란치스코 -13352
너드 -13353
네임 -13354
▁라드 -13355
▁약점 -13356
▁이호 -13357
▁조현 -13358
▁파파 -13359
르타뉴 -13360
▁갑작스 -13361
▁게시판 -13362
▁장제스 -13363
▁베네딕토 -13364
▁브르타뉴 -13365
뮬러 -13366
코르 -13367
▁군관 -13368
▁나름 -13369
▁너스 -13370
▁앨리 -13371
▁일진 -13372
▁저우 -13373
▁조소 -13374
▁교구장 -13375
▁생리학 -13376
▁조나라 -13377
▁인플레이션 -13378
▁번갈 -13379
▁아디 -13380
▁유능 -13381
▁잔 -13382
▁스테인 -13383
▁Tour -13384
EST -13385
▁본체 -13386
▁합천 -13387
▁270 -13388
▁구스타프 -13389
▁으려는 -13390
분열 -13391
▁co -13392
▁마린 -13393
▁바시 -13394
▁박수 -13395
▁엘런 -13396
▁킬 -13397
▁바이어 -13398
▁코소보 -13399
▁웨스트민스터 -13400
라호 -13401
▁도성 -13402
▁신진 -13403
▁원상 -13404
▁펀드 -13405
▁필하 -13406
▁독립군 -13407
▁베이비 -13408
▁이즈미 -13409
▁드미트리 -13410
▁몰랐 -13411
▁구르 -13412
▁무수 -13413
▁서예 -13414
▁유다 -13415
▁강서구 -13416
▁민영화 -13417
▁페미니 -13418
▁해결책 -13419
꿈치 -13420
레시 -13421
큐어 -13422
▁긴키 -13423
▁배척 -13424
▁초전 -13425
▁파커 -13426
▁행방 -13427
▁덩어리 -13428
▁새뮤얼 -13429
▁통폐합 -13430
▁돌아다니 -13431
▁도약 -13432
▁악곡 -13433
▁임계 -13434
▁서포터 -13435
▁역사학 -13436
▁용의자 -13437
▁장난감 -13438
▁마르쿠스 -13439
▁카르타고 -13440
▁열려 -13441
우회 -13442
ron -13443
▁도하 -13444
▁사내 -13445
▁산물 -13446
▁제르 -13447
▁현과 -13448
▁간사이 -13449
▁주니치 -13450
▁1887 -13451
▁모차르트 -13452
직경 -13453
▁마나 -13454
▁빅뱅 -13455
▁슬램 -13456
▁중개 -13457
▁퇴위 -13458
▁경영학 -13459
▁삼각주 -13460
▁프리미엄 -13461
쓰기 -13462
▁KB -13463
▁ML -13464
▁경무 -13465
▁위패 -13466
▁음운 -13467
▁타구 -13468
▁프루 -13469
▁금나라 -13470
▁바람직 -13471
▁시직경 -13472
▁이어주 -13473
▁1861 -13474
▁펭 -13475
짜기 -13476
▁도제 -13477
▁모라 -13478
▁박자 -13479
▁아자 -13480
▁여타 -13481
▁포츠 -13482
land -13483
▁보살상 -13484
▁사쓰마 -13485
▁여도 -13486
▁브리티시 -13487
슈타 -13488
▁동창 -13489
▁레트 -13490
▁집정관 -13491
▁축구팀 -13492
▁화요일 -13493
▁가로지르 -13494
ave -13495
ble -13496
▁급히 -13497
▁비지 -13498
▁습득 -13499
▁출혈 -13500
▁근거지 -13501
▁유전학 -13502
▁Dream -13503
19 -13504
왕후 -13505
▁광선 -13506
▁놓이 -13507
▁에두 -13508
▁위시 -13509
▁지아 -13510
▁페스 -13511
▁클레멘스 -13512
▁갖춰 -13513
하임 -13514
▁Up -13515
▁고창 -13516
▁마구 -13517
▁오산 -13518
▁유머 -13519
▁편안 -13520
▁Wii -13521
른베르크 -13522
▁재단법인 -13523
▁지나간다 -13524
제비 -13525
▁가닥 -13526
▁무자 -13527
▁자궁 -13528
▁펠로 -13529
▁장애물 -13530
▁도미니카 -13531
▁볼티모어 -13532
클라 -13533
▁성기 -13534
▁세분 -13535
▁코호 -13536
▁손 -13537
▁홈경기 -13538
▁Life -13539
▁가로지 -13540
동자 -13541
비안 -13542
▁SV -13543
▁몰두 -13544
▁1864 -13545
▁it -13546
▁버크 -13547
▁올레 -13548
▁정예 -13549
▁직사 -13550
▁특기 -13551
▁형용 -13552
▁환관 -13553
▁단거리 -13554
▁부분군 -13555
▁해냈 -13556
코타 -13557
▁라시 -13558
▁여건 -13559
▁유타 -13560
▁천지 -13561
DA -13562
라르 -13563
ult -13564
▁레버 -13565
▁외환 -13566
▁익명 -13567
▁촛불 -13568
▁포화 -13569
▁가라앉 -13570
▁당선자 -13571
▁뭐 -13572
▁만점 -13573
▁모국 -13574
▁오대 -13575
▁오지 -13576
▁자릿 -13577
▁황해도 -13578
▁다행 -13579
▁불분 -13580
으니 -13581
▁뛰어넘 -13582
▁신세계 -13583
▁코스트 -13584
▁후세인 -13585
▁모닝 -13586
▁양현 -13587
▁완결 -13588
▁교지 -13589
▁기밀 -13590
▁내포 -13591
▁수이 -13592
▁바로크 -13593
▁1850 -13594
▁와라 -13595
▁석가모니 -13596
열차 -13597
▁워 -13598
▁매달 -13599
▁왕관 -13600
▁장전 -13601
솔리니 -13602
▁데이빗 -13603
린트 -13604
▁RT -13605
▁발톱 -13606
▁세무 -13607
▁오메 -13608
▁지면 -13609
▁파직 -13610
▁런 -13611
▁공연장 -13612
▁네티즌 -13613
▁보안법 -13614
▁음악원 -13615
▁프랑코 -13616
▁스트리밍 -13617
▁SH -13618
▁경건 -13619
▁개정안 -13620
▁백악기 -13621
▁좌표계 -13622
▁카이로 -13623
▁섞여 -13624
즐리 -13625
콘신 -13626
▁구문 -13627
▁뒤늦 -13628
▁리트 -13629
▁스모 -13630
▁승단 -13631
▁재결 -13632
▁증세 -13633
▁혼혈 -13634
▁재판부 -13635
▁위스콘신 -13636
▁만날 -13637
디슨 -13638
▁뇨 -13639
▁복위 -13640
▁실각 -13641
▁잔디 -13642
▁가해자 -13643
▁모나코 -13644
예술 -13645
▁TC -13646
▁예의 -13647
▁이력 -13648
▁토목 -13649
▁홈즈 -13650
▁홍성 -13651
ᆨ혔 -13652
▁노동력 -13653
▁견ᄃ -13654
▁다카라즈카 -13655
ational -13656
▁인해서 -13657
▁근래 -13658
▁홀딩 -13659
ition -13660
▁남베트남 -13661
▁두려워하 -13662
▁깁 -13663
▁렙 -13664
니오 -13665
▁접합 -13666
▁평탄 -13667
▁히토 -13668
orm -13669
▁암모 -13670
▁응하 -13671
▁보너스 -13672
▁주나라 -13673
▁컨텐츠 -13674
▁토트넘 -13675
▁마을버스 -13676
▁Music -13677
진우 -13678
플린 -13679
▁객원 -13680
▁쓰루 -13681
▁오일 -13682
▁하얀 -13683
▁허블 -13684
라호마 -13685
▁재판관 -13686
▁1830 -13687
▁오클라호마 -13688
▁평했 -13689
▁공판 -13690
▁관내 -13691
▁군세 -13692
▁승지 -13693
▁추존 -13694
▁생성물 -13695
▁1881 -13696
EP -13697
▁AG -13698
▁기통 -13699
▁왕성 -13700
▁헌납 -13701
▁흘리 -13702
바도르 -13703
▁사나이 -13704
▁아카이 -13705
▁헤라클레스 -13706
▁갔으며 -13707
브웨 -13708
ton -13709
▁강세 -13710
▁계보 -13711
▁구례 -13712
▁도산 -13713
▁마요 -13714
▁워킹 -13715
▁쿼크 -13716
▁푸아 -13717
▁참의원 -13718
▁행정동 -13719
▁루스벨트 -13720
태 -13721
▁리에 -13722
▁매진 -13723
▁이별 -13724
▁조심 -13725
▁짐바 -13726
▁침대 -13727
▁패권 -13728
▁벤 -13729
▁유니버스 -13730
▁크리에이 -13731
다오 -13732
▁방공 -13733
▁백업 -13734
▁삼척 -13735
▁알맞 -13736
▁잠실 -13737
▁황자 -13738
▁미네소타 -13739
▁en -13740
▁if -13741
▁말단 -13742
▁민물 -13743
▁선율 -13744
▁요괴 -13745
▁정황 -13746
▁대표단 -13747
▁압록강 -13748
▁요금소 -13749
▁끝난다 -13750
▁날카로운 -13751
▁돗 -13752
▁남송 -13753
▁재벌 -13754
▁차수 -13755
▁카와 -13756
▁필연 -13757
▁관련자 -13758
▁대교구 -13759
▁무작위 -13760
▁화성시 -13761
두르 -13762
▁구획 -13763
▁목욕 -13764
▁승하 -13765
▁아타 -13766
▁전리 -13767
▁여학생 -13768
▁합창단 -13769
구 -13770
▁DR -13771
▁괘불 -13772
▁배트 -13773
▁세간 -13774
▁판관 -13775
▁남조 -13776
▁마티 -13777
▁복직 -13778
▁산기 -13779
▁자판 -13780
▁야구단 -13781
▁외무부 -13782
▁1872 -13783
▁낭만주의 -13784
▁도라에몽 -13785
▁컴파일러 -13786
▁트레이닝 -13787
렌스 -13788
▁경도 -13789
▁러닝 -13790
▁생도 -13791
▁전교 -13792
파 -13793
▁훔 -13794
뛰기 -13795
화경 -13796
▁Ed -13797
▁경매 -13798
▁관용 -13799
▁닛산 -13800
▁다비 -13801
▁동차 -13802
▁벌레 -13803
▁뷰티 -13804
▁소라 -13805
▁스윙 -13806
▁오우 -13807
▁종업 -13808
▁현미 -13809
ject -13810
▁까마귀 -13811
▁반대파 -13812
▁해석학 -13813
▁대한항공 -13814
▁오스트리 -13815
▁배운 -13816
▁스몰 -13817
▁신봉 -13818
▁아편 -13819
▁이누 -13820
▁조경 -13821
▁태우 -13822
▁마르셀 -13823
라이어티 -13824
아메리카 -13825
▁버라이어티 -13826
타입 -13827
평리 -13828
▁XP -13829
▁대강 -13830
▁발자 -13831
▁별장 -13832
▁익산 -13833
▁코난 -13834
▁흑백 -13835
▁iOS -13836
▁등등 -13837
▁미상 -13838
▁발포 -13839
▁스기 -13840
▁콘티 -13841
▁파주 -13842
▁도망치 -13843
▁로맨틱 -13844
▁부르주아 -13845
▁드러나 -13846
▁뽑혔 -13847
주 -13848
▁삭스 -13849
▁지경 -13850
▁쿠로 -13851
▁투하 -13852
▁감리교 -13853
▁불분명 -13854
▁선제골 -13855
▁이메일 -13856
▁무서 -13857
▁묻혀 -13858
작 -13859
▁기고 -13860
▁레비 -13861
▁시원 -13862
▁다비드 -13863
▁세르게이 -13864
▁이시카와 -13865
께끼 -13866
ION -13867
▁김희 -13868
▁부전 -13869
▁양면 -13870
▁용사 -13871
▁의례 -13872
▁파열 -13873
로자 -13874
▁750 -13875
▁피닉스 -13876
▁수수께끼 -13877
덕왕 -13878
▁금고 -13879
▁루나 -13880
▁여호 -13881
▁팔작 -13882
▁차가 -13883
▁무솔리니 -13884
▁같이 -13885
림사 -13886
비오 -13887
▁an -13888
▁교제 -13889
▁당진 -13890
▁배아 -13891
▁야망 -13892
▁이례 -13893
▁중랑 -13894
▁트란 -13895
▁파기 -13896
브리드 -13897
슬라프 -13898
▁락 -13899
▁라치오 -13900
▁롬바르 -13901
▁범죄자 -13902
▁Open -13903
▁나눈 -13904
▁죽여 -13905
▁엡 -13906
▁고모 -13907
▁꼬마 -13908
▁두어 -13909
▁승상 -13910
▁애슬 -13911
▁원동 -13912
▁진흙 -13913
▁친밀 -13914
▁햇빛 -13915
ᆸ작 -13916
▁난이도 -13917
▁그래 -13918
▁케이 -13919
▁도르트문트 -13920
▁사로자 -13921
▁열릴 -13922
나파 -13923
루크 -13924
▁BL -13925
▁교동 -13926
▁레아 -13927
▁베일 -13928
▁애완 -13929
▁이은 -13930
▁종묘 -13931
▁청문 -13932
▁켄터 -13933
태평양 -13934
▁농어촌 -13935
▁다시금 -13936
▁라이스 -13937
▁센다이 -13938
▁화학자 -13939
▁대중교통 -13940
▁유라시아 -13941
▁전해졌 -13942
달마 -13943
쿠니 -13944
▁몸돌 -13945
▁양조 -13946
▁Don -13947
▁모멘트 -13948
▁미칠 -13949
번에 -13950
어드 -13951
클럽 -13952
▁그란 -13953
▁당과 -13954
▁배향 -13955
▁복역 -13956
▁불타 -13957
▁엄청 -13958
▁주고 -13959
▁캐피 -13960
▁기획사 -13961
▁아이콘 -13962
▁걸린다 -13963
▁te -13964
▁경량 -13965
▁반죽 -13966
▁변종 -13967
▁샤이 -13968
▁음주 -13969
▁하얀색 -13970
▁부다페스트 -13971
▁튼 -13972
▁Ab -13973
▁단국 -13974
▁도봉 -13975
▁브렌 -13976
▁의용 -13977
변속기 -13978
▁개체군 -13979
▁청년회 -13980
▁초록색 -13981
▁호크스 -13982
▁하이브리드 -13983
ru -13984
데자 -13985
▁리브 -13986
▁섬기 -13987
▁조시 -13988
▁승용차 -13989
데자네이 -13990
▁1865 -13991
▁였음을 -13992
▁쵸 -13993
더지 -13994
리드 -13995
ics -13996
▁Sm -13997
▁닌자 -13998
▁매스 -13999
▁모란 -14000
▁발산 -14001
▁순항 -14002
▁장쑤 -14003
▁탄산 -14004
▁허목 -14005
▁격투기 -14006
▁유전체 -14007
▁타임즈 -14008
▁넥센 -14009
▁취향 -14010
▁통지 -14011
리아스 -14012
올로기 -14013
▁알아내 -14014
▁파충류 -14015
▁1863 -14016
▁이데올로기 -14017
▁살짝 -14018
▁열렬 -14019
▁인위 -14020
▁인제 -14021
▁작년 -14022
▁계승자 -14023
▁세군다 -14024
▁안산시 -14025
▁폼페이 -14026
▁앞선 -14027
매김 -14028
바인 -14029
ier -14030
▁가두 -14031
▁가든 -14032
▁감추 -14033
▁보정 -14034
▁슈고 -14035
▁오트 -14036
▁그나마 -14037
▁탐험가 -14038
▁맡겼 -14039
워즈 -14040
▁가독 -14041
▁대의 -14042
▁옹주 -14043
▁티모 -14044
▁페라 -14045
▁피카 -14046
▁밀가루 -14047
▁박영효 -14048
▁시간대 -14049
▁작품상 -14050
리쿠 -14051
▁과다 -14052
▁납작 -14053
▁내재 -14054
▁토로 -14055
▁한창 -14056
▁경복궁 -14057
▁항아리 -14058
▁1873 -14059
▁늘려 -14060
▁이뤄진 -14061
▁"- -14062
▁AL -14063
▁왓슨 -14064
▁이니 -14065
▁입시 -14066
▁처방 -14067
▁챌린저 -14068
▁1891 -14069
▁비싼 -14070
리야 -14071
▁예 -14072
▁단조 -14073
▁반항 -14074
▁봉황 -14075
▁부실 -14076
▁조공 -14077
▁충당 -14078
▁편제 -14079
▁피셔 -14080
▁고성군 -14081
▁두꺼운 -14082
단위 -14083
▁거스 -14084
▁덴쇼 -14085
▁머니 -14086
▁조장 -14087
▁직관 -14088
▁코마 -14089
▁승정원 -14090
▁우간다 -14091
▁Good -14092
▁HTML -14093
▁교통사고 -14094
▁오카야마 -14095
데자네이루 -14096
▁Night -14097
▁리우데자네이루 -14098
ool -14099
▁대목 -14100
▁잡히 -14101
▁클릭 -14102
▁탐정 -14103
▁포대 -14104
▁발기인 -14105
▁제프리 -14106
▁공군기지 -14107
▁자리매김 -14108
▁진한 -14109
친왕 -14110
▁볼넷 -14111
▁재고 -14112
▁킹스 -14113
▁유니언 -14114
▁걸작 -14115
▁경지 -14116
▁곡면 -14117
▁메츠 -14118
▁요즘 -14119
▁정명 -14120
▁태아 -14121
▁패해 -14122
▁아닌가 -14123
▁샵 -14124
▁곱셈 -14125
▁어촌 -14126
▁착취 -14127
▁공식전 -14128
▁앤드류 -14129
▁얽ᄒ -14130
▁베스트셀러 -14131
▁씻 -14132
훈장 -14133
▁거꾸 -14134
▁경마 -14135
▁굴복 -14136
▁란스 -14137
▁루즈 -14138
▁모함 -14139
▁병단 -14140
▁야심 -14141
▁페인 -14142
▁공통점 -14143
▁아이디얼 -14144
참찬 -14145
쿠르 -14146
▁가비 -14147
▁계좌 -14148
▁나탈 -14149
▁법전 -14150
▁입술 -14151
▁철종 -14152
▁촉발 -14153
▁조선소 -14154
▁켄터키 -14155
켜 -14156
미쓰 -14157
▁구강 -14158
▁미인 -14159
▁반점 -14160
▁픽셀 -14161
▁해킹 -14162
▁ret -14163
▁국민회 -14164
▁발가락 -14165
▁여진족 -14166
▁려 -14167
▁시진 -14168
▁완비 -14169
▁최장 -14170
▁와이드 -14171
▁짐바브웨 -14172
TE -14173
UC -14174
타스 -14175
ise -14176
▁-- -14177
▁과격 -14178
▁손꼽 -14179
▁여대 -14180
▁자켓 -14181
▁적발 -14182
▁카슈 -14183
이스케 -14184
▁세계유산 -14185
린더 -14186
바지 -14187
che -14188
▁쇼크 -14189
▁필두 -14190
▁수시로 -14191
▁제너럴 -14192
▁두드러지 -14193
QL -14194
▁상파 -14195
▁다국적 -14196
▁받침돌 -14197
▁자유형 -14198
▁테무르 -14199
어졌 -14200
▁단자 -14201
▁마모 -14202
▁세단 -14203
▁어는 -14204
▁위법 -14205
▁합금 -14206
ᅥᆫ가 -14207
▁시티즌 -14208
▁포항시 -14209
▁가리켜 -14210
NG -14211
ai -14212
▁괜 -14213
▁NS -14214
▁계엄 -14215
▁고마 -14216
▁극찬 -14217
▁도도 -14218
▁리자 -14219
▁매립 -14220
▁분경 -14221
▁불로 -14222
▁코뮌 -14223
▁튼튼 -14224
▁혈압 -14225
▁몰도바 -14226
▁PM -14227
▁국호 -14228
▁라크 -14229
▁매도 -14230
▁신대 -14231
▁외상 -14232
▁유태 -14233
부아르 -14234
플렉스 -14235
stem -14236
▁노르드 -14237
▁릴레이 -14238
▁백악관 -14239
▁종업원 -14240
▁온타리오주 -14241
▁벗어난 -14242
▁샨 -14243
동맹 -14244
▁등단 -14245
▁리키 -14246
▁용감 -14247
▁키즈 -14248
▁휩쓸 -14249
▁IMF -14250
▁크루즈 -14251
레타리아 -14252
▁프롤레타리아 -14253
▁댈 -14254
레반 -14255
무제 -14256
▁소작 -14257
▁신의 -14258
▁Can -14259
ode -14260
▁MA -14261
▁구시 -14262
▁당당 -14263
▁병과 -14264
▁오즈 -14265
▁해시 -14266
▁헤어 -14267
▁캐스트 -14268
▁야쿠르트 -14269
▁Black -14270
성경 -14271
진구 -14272
킨슨 -14273
▁무고 -14274
▁에치 -14275
▁연행 -14276
▁주저 -14277
▁하스 -14278
▁650 -14279
▁거꾸로 -14280
▁다마스 -14281
▁하반기 -14282
▁팔작지붕 -14283
세다 -14284
▁간판 -14285
▁교서 -14286
▁연화 -14287
▁을사 -14288
▁체내 -14289
▁현무 -14290
합중국 -14291
▁슬로건 -14292
▁앞둔 -14293
▁콧 -14294
상어 -14295
▁네임 -14296
▁베풀 -14297
▁산책 -14298
▁서지 -14299
▁양궁 -14300
▁양양 -14301
▁조준 -14302
▁김성수 -14303
▁찾아가 -14304
▁트로트 -14305
70 -14306
▁믈 -14307
▁라면 -14308
▁서위 -14309
▁파랑 -14310
ower -14311
▁연주회 -14312
▁스테이트 -14313
▁증강 -14314
▁채굴 -14315
선거구 -14316
▁반정부 -14317
▁용산구 -14318
▁지자체 -14319
▁무로마치 -14320
▁삼국유사 -14321
▁이바라키 -14322
▁커졌 -14323
▁페르디난트 -14324
▁갑작 -14325
▁강호 -14326
▁버펄 -14327
▁황폐 -14328
▁550 -14329
▁피츠버그 -14330
려들 -14331
▁광배 -14332
▁구슬 -14333
▁앵커 -14334
▁연달 -14335
▁우마 -14336
▁이강 -14337
▁헌병 -14338
▁조선왕조 -14339
▁section -14340
▁qu -14341
▁농성 -14342
▁박진 -14343
▁부에 -14344
▁증발 -14345
▁진원 -14346
▁토유 -14347
▁멋 -14348
▁1867 -14349
고르 -14350
▁국부 -14351
▁문정 -14352
▁아델 -14353
▁엘라 -14354
▁터빈 -14355
타나베 -14356
▁705 -14357
▁Let -14358
▁미카엘 -14359
▁앨버트 -14360
▁취리히 -14361
▁아비달마 -14362
▁사하 -14363
▁심정 -14364
▁전멸 -14365
▁진언 -14366
▁타도 -14367
▁스코어 -14368
▁1862 -14369
▁거쳐서 -14370
▁갈라져 -14371
내리 -14372
티야 -14373
ank -14374
▁군자 -14375
▁대담 -14376
▁독주 -14377
▁맞춤 -14378
▁무도 -14379
▁접전 -14380
▁캐논 -14381
▁자외선 -14382
▁q -14383
대전 -14384
펠러 -14385
딘 -14386
▁El -14387
▁사교 -14388
▁산신 -14389
▁열쇠 -14390
스코트 -14391
▁스테이 -14392
▁엑스포 -14393
▁길러 -14394
▁들려 -14395
▁숨겨진 -14396
▁AI -14397
▁MM -14398
▁경은 -14399
▁국력 -14400
▁모반 -14401
▁온건 -14402
▁조어 -14403
▁현도 -14404
▁활자 -14405
▁후미 -14406
ᆨ인 -14407
▁경희대 -14408
▁광업 -14409
▁예종 -14410
드라마 -14411
▁아오모리 -14412
▁이노우에 -14413
▁코호몰로지 -14414
▁광자 -14415
▁들리 -14416
▁조서 -14417
뜨려 -14418
▁노르만 -14419
▁언론사 -14420
해살이풀 -14421
▁미합중국 -14422
▁라이프치히 -14423
방군 -14424
정사 -14425
활약 -14426
▁루피 -14427
▁북벌 -14428
▁사드 -14429
▁수퍼 -14430
▁스킬 -14431
▁위헌 -14432
▁잔존 -14433
▁지탱 -14434
▁투신 -14435
ings -14436
▁손잡이 -14437
▁알폰소 -14438
▁싹 -14439
곡면 -14440
▁저축 -14441
▁처장 -14442
▁흡연 -14443
▁갈라지 -14444
▁다이노스 -14445
▁움직일 -14446
렐라 -14447
▁AU -14448
▁MSL -14449
▁맹활약 -14450
▁증조부 -14451
▁프로모션 -14452
포타 -14453
▁Ac -14454
▁걸프 -14455
▁서한 -14456
▁유구 -14457
▁증식 -14458
▁체하 -14459
세우스 -14460
▁변광성 -14461
▁타이탄 -14462
중추부사 -14463
▁국민학교 -14464
▁간결 -14465
▁노브 -14466
▁양군 -14467
▁완수 -14468
▁장신 -14469
▁표절 -14470
▁페드로 -14471
▁6000 -14472
▁토록 -14473
▁사이타마현 -14474
DS -14475
▁도발 -14476
▁상선 -14477
▁오보 -14478
▁지그 -14479
▁연출가 -14480
▁가르쳐 -14481
조리 -14482
▁LS -14483
▁변증 -14484
▁보직 -14485
▁옥시 -14486
▁유망 -14487
절도사 -14488
▁건륭제 -14489
▁레인저 -14490
포타미아 -14491
▁던졌 -14492
▁죽임 -14493
▁메소포타미아 -14494
▁낡 -14495
▁캣 -14496
비언 -14497
▁UC -14498
▁기묘 -14499
▁논하 -14500
▁변모 -14501
▁성수 -14502
▁티저 -14503
▁사무국 -14504
▁사보이 -14505
▁새겼 -14506
▁처한 -14507
인구 -14508
ᆸ아 -14509
▁번개 -14510
▁캐치 -14511
▁신한은행 -14512
센터 -14513
lar -14514
▁신해 -14515
▁쿠라 -14516
▁횡령 -14517
▁신기록 -14518
▁-& -14519
▁꽃잎 -14520
▁온두 -14521
▁유림 -14522
▁코모 -14523
▁키릴 -14524
▁푸드 -14525
▁감염증 -14526
▁대리석 -14527
▁편집장 -14528
▁온두라스 -14529
북면 -14530
위치 -14531
▁고찰 -14532
▁나사 -14533
▁자행 -14534
▁조석 -14535
▁충칭 -14536
▁기원후 -14537
▁일본식 -14538
▁출입문 -14539
▁프로테 -14540
▁쳐들어 -14541
ky -14542
▁궐 -14543
디언 -14544
사화 -14545
▁동자 -14546
▁무사히 -14547
▁1878 -14548
▁미나모토노 -14549
▁라면서 -14550
tr -14551
▁세토 -14552
▁엘레 -14553
▁임하 -14554
▁절약 -14555
▁참패 -14556
▁협동조합 -14557
▁겐지 -14558
▁저지른 -14559
▁행해졌 -14560
▁샴 -14561
▁팍 -14562
젤로 -14563
▁버진 -14564
▁스톰 -14565
▁작중 -14566
▁차림 -14567
▁표출 -14568
▁하중 -14569
▁회유 -14570
rist -14571
▁웨이브 -14572
▁자릿수 -14573
▁치료제 -14574
▁타타르 -14575
▁고등학생 -14576
▁취할 -14577
▁비스마르크 -14578
퉁이 -14579
할린 -14580
▁내란 -14581
▁동탁 -14582
▁직교 -14583
▁경쟁자 -14584
▁제조사 -14585
▁당파 -14586
▁완만 -14587
▁지린 -14588
▁Ser -14589
▁마그네 -14590
▁부여군 -14591
▁컴파일 -14592
ee -14593
ta -14594
▁밋 -14595
▁Qu -14596
▁시역 -14597
▁자부 -14598
▁필명 -14599
▁행군 -14600
▁백과사전 -14601
▁가극 -14602
▁급성 -14603
▁보류 -14604
▁옥천 -14605
▁적정 -14606
▁중용 -14607
▁충신 -14608
▁피어 -14609
▁후드 -14610
▁히노 -14611
▁외교부 -14612
▁주고받 -14613
▁줄일 -14614
hem -14615
▁국인 -14616
▁바쿠 -14617
▁시르 -14618
▁점진 -14619
▁정박 -14620
▁청각 -14621
▁HMS -14622
▁사대부 -14623
▁입법부 -14624
▁프리츠 -14625
▁해부학 -14626
▁날려 -14627
빌리 -14628
일치 -14629
▁Ag -14630
▁고국 -14631
▁벵골 -14632
▁봉하 -14633
▁서거 -14634
▁손님 -14635
▁이끼 -14636
플로러 -14637
▁밴 -14638
▁홀딩스 -14639
▁익스플로러 -14640
시게 -14641
▁괄호 -14642
▁라다 -14643
▁영사 -14644
▁저해 -14645
▁지체 -14646
▁현악 -14647
시아드 -14648
▁And -14649
▁불가피 -14650
▁이성질 -14651
▁인지도 -14652
▁플러그 -14653
▁떠날 -14654
내티 -14655
▁길드 -14656
▁다량 -14657
▁부군 -14658
▁일설 -14659
▁잉크 -14660
▁직물 -14661
거나 -14662
▁뉴기니 -14663
▁유엔군 -14664
▁스케이트 -14665
▁신시내티 -14666
▁유니버시아드 -14667
▁엇 -14668
▁킷 -14669
산부 -14670
▁북대 -14671
▁스에 -14672
▁일선 -14673
▁참수 -14674
▁802 -14675
▁액세스 -14676
▁이브스 -14677
▁1869 -14678
▁프라이즈 -14679
▁노란 -14680
▁일리노이주 -14681
▁맞춘 -14682
▁팻 -14683
다스 -14684
▁매슈 -14685
▁서점 -14686
▁수당 -14687
▁수레 -14688
▁용해 -14689
▁유화 -14690
▁지문 -14691
뉴기니 -14692
▁수비대 -14693
▁특별법 -14694
사우루스 -14695
▁글로브상 -14696
▁요리토모 -14697
▁후지와라 -14698
▁밧 -14699
다발 -14700
루엔 -14701
김 -14702
줄 -14703
▁가방 -14704
▁과자 -14705
▁버티 -14706
▁잔해 -14707
▁피처 -14708
▁행보 -14709
▁틀 -14710
▁베르나 -14711
▁업로드 -14712
▁와세다 -14713
▁제작진 -14714
▁플루토 -14715
▁핵분열 -14716
마디 -14717
벤션 -14718
▁SO -14719
▁부두 -14720
▁상의 -14721
▁수급 -14722
▁애기 -14723
▁골짜기 -14724
▁봉우리 -14725
▁코퍼레이션 -14726
▁넘겼 -14727
▁줄어든 -14728
▁썬 -14729
▁tr -14730
▁강우 -14731
▁객실 -14732
▁근방 -14733
▁기조 -14734
▁대타 -14735
▁몸체 -14736
▁소피 -14737
▁육식 -14738
▁이목 -14739
▁정진 -14740
▁굳 -14741
▁마포구 -14742
▁와타나베 -14743
▁생길 -14744
▁팔린 -14745
정보 -14746
장 -14747
▁표 -14748
▁박원 -14749
▁용수 -14750
▁토라 -14751
▁다가오 -14752
▁방위군 -14753
▁사생활 -14754
▁쿠르드 -14755
▁변한다 -14756
누마 -14757
▁개기 -14758
▁변질 -14759
▁추후 -14760
▁며느리 -14761
▁포뮬러 -14762
▁키로 -14763
▁스파이더 -14764
▁프랑스와 -14765
▁이어서 -14766
▁민심 -14767
▁헤더 -14768
▁아이젠 -14769
▁페르미 -14770
▁내세웠 -14771
셔주 -14772
▁모티 -14773
▁솔라 -14774
▁아뢰 -14775
▁자정 -14776
▁포천 -14777
▁수도회 -14778
▁원자핵 -14779
▁Song -14780
▁아우구스 -14781
▁변해 -14782
ae -14783
▁로시 -14784
▁면직 -14785
가르트 -14786
▁기동전 -14787
▁1840 -14788
▁됩니다 -14789
▁다목 -14790
▁무비 -14791
▁시시 -14792
▁자처 -14793
▁토키 -14794
▁포탑 -14795
▁형주 -14796
▁1592 -14797
▁키르기스 -14798
▁칭했 -14799
노르 -14800
려오 -14801
▁글렌 -14802
▁무색 -14803
▁반입 -14804
▁텍스 -14805
▁패킷 -14806
스타인 -14807
해서 -14808
▁강력히 -14809
▁명성황후 -14810
▁멋진 -14811
▁목동 -14812
▁성품 -14813
▁오자 -14814
▁축일 -14815
▁치사 -14816
▁콜드 -14817
▁연예계 -14818
▁영유권 -14819
▁오스카 -14820
▁장로회 -14821
▁프라임 -14822
▁친선경기 -14823
▁탬 -14824
세르 -14825
▁고을 -14826
▁귀인 -14827
▁벤츠 -14828
▁부관 -14829
▁항생 -14830
▁516 -14831
▁안동시 -14832
▁팔꿈치 -14833
▁불려 -14834
▁밝혀져 -14835
▁PL -14836
▁단서 -14837
▁소박 -14838
▁수증 -14839
▁숙소 -14840
▁위도 -14841
▁절친 -14842
▁생화학 -14843
▁운전자 -14844
▁냐고 -14845
▁그럴 -14846
▁사라져 -14847
암사 -14848
▁AA -14849
▁가곡 -14850
▁금색 -14851
▁단역 -14852
▁빈민 -14853
▁사소 -14854
▁위즈 -14855
▁저그 -14856
▁컴필 -14857
ount -14858
▁바닷물 -14859
▁운동량 -14860
▁인코딩 -14861
▁매킨토시 -14862
▁사이언스 -14863
▁그랬 -14864
▁컴필레이션 -14865
▁내려와 -14866
▁겨루 -14867
▁그물 -14868
▁린다 -14869
▁사부 -14870
▁입히 -14871
▁헤겔 -14872
▁금강산 -14873
▁목적지 -14874
▁유년기 -14875
▁파시스트 -14876
▁벳 -14877
자원 -14878
쳐지 -14879
티컷 -14880
▁괜찮 -14881
▁넘버 -14882
▁논산 -14883
▁출국 -14884
▁쿼터 -14885
▁포자 -14886
▁로타르 -14887
▁리차드 -14888
▁부등식 -14889
▁여객기 -14890
▁코네티컷 -14891
▁크리스티나 -14892
▁도망쳤 -14893
수염 -14894
찬성 -14895
▁RC -14896
▁분별 -14897
▁상식 -14898
▁자취 -14899
▁최하 -14900
▁킨 -14901
▁지하역 -14902
▁데카르트 -14903
pr -14904
네르 -14905
▁국세 -14906
▁렉스 -14907
▁인승 -14908
▁처치 -14909
▁추축 -14910
▁폴라 -14911
▁풀리 -14912
▁Mon -14913
▁맥아더 -14914
구스 -14915
작전 -14916
ade -14917
per -14918
▁공상 -14919
▁빅터 -14920
▁수만 -14921
▁자루 -14922
▁패망 -14923
▁채권자 -14924
▁로드리게스 -14925
▁랙 -14926
▁몰아 -14927
▁성가 -14928
▁영미 -14929
▁하수 -14930
▁그래도 -14931
▁네이트 -14932
▁예언자 -14933
▁패스트 -14934
▁레지스터 -14935
▁마스코트 -14936
▁널 -14937
ata -14938
▁고제 -14939
▁병풍 -14940
▁악명 -14941
▁암수 -14942
▁영수 -14943
▁이거 -14944
▁캐슬 -14945
▁튜브 -14946
▁휘발 -14947
▁힐베르트 -14948
▁에겐 -14949
▁아나톨리아 -14950
▁닉스 -14951
▁다쓰 -14952
▁아어 -14953
▁천상 -14954
▁과반수 -14955
▁시니어 -14956
▁파주시 -14957
▁8000 -14958
▁Heart -14959
▁여우원숭이 -14960
블릿 -14961
▁수 -14962
▁씌 -14963
▁거창 -14964
▁블러 -14965
▁양파 -14966
▁유자 -14967
▁하라 -14968
▁구단주 -14969
크라테스 -14970
▁심리학자 -14971
날드 -14972
걸 -14973
▁me -14974
▁강인 -14975
▁농가 -14976
▁디나 -14977
▁마레 -14978
▁유이 -14979
▁자질 -14980
▁헤일 -14981
▁댈러스 -14982
▁스트림 -14983
▁에이전트 -14984
▁모신 -14985
▁머물러 -14986
▁볶 -14987
효소 -14988
▁Pe -14989
▁능가 -14990
▁얼룩 -14991
▁직렬 -14992
▁출세 -14993
▁글러브 -14994
▁창립자 -14995
▁아나키스트 -14996
▁return -14997
▁KN -14998
▁ab -14999
▁규율 -15000
▁란트 -15001
▁백조 -15002
▁사귀 -15003
▁삭감 -15004
▁성대 -15005
▁심소 -15006
▁염화 -15007
▁세미나 -15008
▁필사본 -15009
▁차가운 -15010
▁찾아와 -15011
▁준다는 -15012
90 -15013
히메 -15014
▁DB -15015
▁Gl -15016
▁계룡 -15017
▁국화 -15018
▁발착 -15019
▁에트 -15020
▁유골 -15021
▁입출 -15022
▁전단 -15023
▁중견 -15024
▁청취 -15025
▁관심사 -15026
▁적십자 -15027
▁종착역 -15028
▁테크놀 -15029
▁히타치 -15030
▁지장보살 -15031
▁내세워 -15032
▁정해져 -15033
선언 -15034
테랑 -15035
▁트 -15036
▁겸직 -15037
▁라라 -15038
▁반론 -15039
▁실상 -15040
▁워스 -15041
▁초음 -15042
▁탁구 -15043
▁흥원 -15044
이치로 -15045
▁나치오 -15046
ium -15047
▁거사 -15048
▁김연 -15049
▁문중 -15050
▁미학 -15051
▁시찰 -15052
▁쌍성 -15053
▁의주 -15054
▁이카 -15055
▁임종 -15056
▁비둘기 -15057
▁Windows -15058
▁펜실베이니아주 -15059
수단 -15060
▁다름 -15061
▁변혁 -15062
▁스택 -15063
▁이심 -15064
▁페레 -15065
▁쩐 -15066
▁담당자 -15067
▁지질학 -15068
▁고등교육 -15069
▁와카야마 -15070
▁썩 -15071
전선 -15072
조사 -15073
히데 -15074
▁권익 -15075
▁라프 -15076
▁상과 -15077
▁온실 -15078
▁보유자 -15079
▁크메르 -15080
▁라우 -15081
▁남아시아 -15082
▁영등포구 -15083
▁세인트루이스 -15084
▁여포 -15085
▁왜군 -15086
▁퀴즈 -15087
▁피살 -15088
▁해트 -15089
▁어도비 -15090
▁올라오 -15091
▁그린란드 -15092
▁지나친 -15093
IX -15094
던트 -15095
▁Aw -15096
▁기행 -15097
▁바보 -15098
▁바인 -15099
▁베오 -15100
▁설리 -15101
▁연중 -15102
▁오시 -15103
▁하구 -15104
▁안창호 -15105
▁피의자 -15106
▁1875 -15107
▁알프레드 -15108
▁한다며 -15109
IF -15110
▁걸음 -15111
▁뉴런 -15112
▁니케 -15113
▁몹시 -15114
▁외면 -15115
▁윤휴 -15116
▁은밀 -15117
▁침식 -15118
▁호그 -15119
▁치료법 -15120
▁토요타 -15121
구니 -15122
넌트 -15123
▁As -15124
▁막강 -15125
▁숙련 -15126
▁의복 -15127
▁정오 -15128
▁질투 -15129
▁예비역 -15130
▁다룰 -15131
▁앞장 -15132
놀드 -15133
링겐 -15134
욕장 -15135
테이 -15136
▁디바 -15137
▁신지 -15138
▁어부 -15139
▁에리 -15140
▁외척 -15141
▁잠입 -15142
▁조비 -15143
▁호른 -15144
▁쉴 -15145
▁시미즈 -15146
▁진주시 -15147
▁헤르만 -15148
▁동호 -15149
▁상동 -15150
▁열세 -15151
▁위크 -15152
▁키드 -15153
▁Out -15154
▁집단군 -15155
▁풀려났 -15156
▁엿 -15157
계사 -15158
날레 -15159
▁강습 -15160
▁면담 -15161
▁친화 -15162
▁컵스 -15163
▁키리 -15164
▁모자이크 -15165
▁뛰어나 -15166
▁펼친 -15167
보당 -15168
▁교파 -15169
▁교훈 -15170
▁유카 -15171
▁준동 -15172
▁착각 -15173
▁콜린 -15174
▁KTX -15175
▁택 -15176
▁고문서 -15177
▁나리타 -15178
▁노현 -15179
▁미지 -15180
▁불복 -15181
▁웍스 -15182
세데스 -15183
▁Gen -15184
▁강대국 -15185
▁보리스 -15186
▁이와테 -15187
▁뉘른베르크 -15188
기즈 -15189
▁기린 -15190
▁독살 -15191
▁사각 -15192
▁출품 -15193
▁혼잡 -15194
▁이랜드 -15195
▁학술지 -15196
▁근본번뇌 -15197
▁메르세데스 -15198
기아 -15199
탄두 -15200
▁김두 -15201
▁도적 -15202
▁볼록 -15203
▁예프 -15204
▁이선 -15205
▁인먼 -15206
▁표제 -15207
▁종사자 -15208
▁친환경 -15209
▁표트르 -15210
▁회고록 -15211
▁거칠 -15212
▁로니 -15213
▁문체 -15214
▁슈투 -15215
▁어사 -15216
▁원단 -15217
▁의정 -15218
▁일명 -15219
▁징집 -15220
▁철자 -15221
▁폐허 -15222
▁일부러 -15223
사유 -15224
이에 -15225
itt -15226
son -15227
▁VS -15228
▁노원 -15229
▁선상 -15230
▁아다 -15231
▁야수 -15232
▁여럿 -15233
▁최남 -15234
▁취직 -15235
레이트 -15236
▁사이즈 -15237
▁클리어 -15238
▁페널티킥 -15239
▁로사 -15240
▁목장 -15241
▁생원 -15242
▁셔틀 -15243
▁한민 -15244
▁380 -15245
▁게임기 -15246
▁리스본 -15247
▁남양주시 -15248
▁sh -15249
▁순식 -15250
▁용지 -15251
▁절충 -15252
▁첩보 -15253
▁터너 -15254
▁컨벤션 -15255
▁안드로메다 -15256
BI -15257
세서 -15258
▁다자 -15259
▁서약 -15260
▁월화 -15261
▁차명 -15262
▁텐서 -15263
에이고 -15264
▁AMD -15265
▁데이트 -15266
▁돌고래 -15267
▁매디슨 -15268
▁송파구 -15269
▁함경도 -15270
▁샌디에이고 -15271
▁날리 -15272
▁달콤 -15273
▁리크 -15274
▁에레 -15275
▁의성 -15276
▁이희 -15277
▁집전 -15278
록대부 -15279
▁테오도 -15280
▁땀 -15281
▁TS -15282
▁비키 -15283
▁실명 -15284
▁아노 -15285
▁율법 -15286
▁태안 -15287
▁당 -15288
▁성폭행 -15289
▁스케치 -15290
▁스피커 -15291
▁칭기즈 -15292
▁통도사 -15293
▁니까 -15294
▁몽고메리 -15295
▁병자호란 -15296
▁브란덴부르크 -15297
▁로큰 -15298
▁버트 -15299
▁특공 -15300
▁싼 -15301
▁강희제 -15302
▁아세틸 -15303
▁통신망 -15304
▁파라오 -15305
PA -15306
방향 -15307
ale -15308
▁격하 -15309
▁문관 -15310
▁비료 -15311
▁성행 -15312
▁아지 -15313
▁예식 -15314
▁왕래 -15315
▁부적절 -15316
▁북극점 -15317
▁쇼핑몰 -15318
▁이사벨 -15319
▁장갑차 -15320
▁중앙선 -15321
▁채무자 -15322
▁최성기 -15323
▁클레어 -15324
▁항공대 -15325
▁꽂 -15326
더링 -15327
어류 -15328
▁금정 -15329
▁기판 -15330
▁단양 -15331
▁선체 -15332
▁안중 -15333
▁일차 -15334
▁타쿠 -15335
able -15336
이다 -15337
▁레스터 -15338
▁신석기 -15339
▁크라운 -15340
▁포르투갈어 -15341
니에 -15342
은사 -15343
▁바늘 -15344
▁방울 -15345
▁배반 -15346
▁베르트 -15347
▁상반기 -15348
▁슈타인 -15349
▁코트디 -15350
▁오를 -15351
▁이건 -15352
▁코트디부아르 -15353
UN -15354
알라 -15355
엽수 -15356
▁극소 -15357
▁생쥐 -15358
▁야권 -15359
▁정언 -15360
▁체로 -15361
▁환율 -15362
▁획기 -15363
▁렀 -15364
▁가환환 -15365
▁광둥성 -15366
▁다이쇼 -15367
▁로큰롤 -15368
▁친한 -15369
▁싯 -15370
▁KO -15371
▁구루 -15372
▁레몬 -15373
▁명상 -15374
▁슬리 -15375
▁영락 -15376
▁원효 -15377
해방군 -15378
▁롤 -15379
▁꽃차례 -15380
▁연속극 -15381
▁프론트 -15382
▁쇼트트랙 -15383
▁인민해방군 -15384
▁달린다 -15385
▁돌아갈 -15386
ng -15387
부대 -15388
세키 -15389
윽고 -15390
▁결전 -15391
▁서당 -15392
▁세일 -15393
▁술라 -15394
▁칸트 -15395
▁포인 -15396
▁로버츠 -15397
▁야마다 -15398
▁이윽고 -15399
▁파스칼 -15400
▁교관 -15401
▁"() -15402
▁아리랑 -15403
▁저널리스트 -15404
▁실렸 -15405
▁흔들 -15406
두사 -15407
르카 -15408
몽골 -15409
▁가세 -15410
▁교화 -15411
▁기공 -15412
▁동거 -15413
▁라울 -15414
▁박재 -15415
▁장정 -15416
▁중일 -15417
▁되풀이 -15418
▁바나나 -15419
▁바빌로니아 -15420
▁벙 -15421
시대 -15422
▁구세 -15423
▁기마 -15424
▁방호 -15425
▁스펜 -15426
▁실은 -15427
▁안식 -15428
▁안톤 -15429
▁애착 -15430
▁비단털 -15431
▁오프라인 -15432
▁펼쳐져 -15433
촌리 -15434
▁구타 -15435
▁로바 -15436
▁모체 -15437
▁모피 -15438
▁보우 -15439
▁엔젤 -15440
▁이질 -15441
▁지치 -15442
▁출격 -15443
루엔자 -15444
▁Par -15445
스코리아 -15446
▁비단털쥐 -15447
들인 -15448
▁보컬리스트 -15449
▁바뀐다 -15450
찬 -15451
▁가모 -15452
▁기운 -15453
▁사주 -15454
▁수마 -15455
▁수은 -15456
▁염두 -15457
▁찌르 -15458
▁헤센 -15459
ᆷ한 -15460
▁반감기 -15461
▁됐으나 -15462
▁삐 -15463
박사 -15464
우주 -15465
▁가명 -15466
▁경의 -15467
▁문수 -15468
▁샤르 -15469
▁잉카 -15470
▁자장 -15471
▁뭉 -15472
▁대항전 -15473
▁보호법 -15474
▁순식간 -15475
▁정치국 -15476
▁썼으며 -15477
▁랠 -15478
데기 -15479
▁WC -15480
▁래리 -15481
▁보그 -15482
▁위트 -15483
▁정에 -15484
▁205 -15485
▁708 -15486
▁맥스웰 -15487
▁선거인 -15488
▁흔들리 -15489
▁가졌으며 -15490
▁University -15491
▁구아 -15492
▁금환 -15493
▁기미 -15494
▁나쁘 -15495
▁망치 -15496
▁모사 -15497
▁에코 -15498
▁열악 -15499
▁이홍 -15500
▁개그맨 -15501
▁데뷔작 -15502
▁합성어 -15503
▁관음보살 -15504
▁텅 -15505
연구 -15506
행파 -15507
▁서클 -15508
▁향신 -15509
▁후루 -15510
very -15511
▁동 -15512
▁사학자 -15513
▁형용사 -15514
▁묶여 -15515
▁라이베리아 -15516
▁탭 -15517
▁경순 -15518
▁대류 -15519
▁동군 -15520
▁무능 -15521
▁배당 -15522
▁실사 -15523
▁아끼 -15524
▁흔들 -15525
▁NBC -15526
▁Vol -15527
▁스케줄 -15528
▁터뜨리 -15529
▁엣 -15530
건설 -15531
▁복부 -15532
▁야코 -15533
▁정칙 -15534
▁ATC -15535
▁보조금 -15536
▁빼앗기 -15537
▁아우구스투스 -15538
▁At -15539
▁경종 -15540
▁규약 -15541
▁월남 -15542
▁사할린 -15543
▁콘라트 -15544
▁통계청 -15545
▁이룰 -15546
▁잇따라 -15547
▁못했으며 -15548
▁cc -15549
▁라벨 -15550
▁미첼 -15551
▁불쾌 -15552
▁안팎 -15553
▁외손 -15554
▁집사 -15555
▁케리 -15556
▁한겨 -15557
▁내보내 -15558
▁슈미트 -15559
르산 -15560
쿠사 -15561
▁데일 -15562
▁시의 -15563
▁안심 -15564
▁외할 -15565
▁재화 -15566
▁조봉 -15567
▁타시 -15568
어나 -15569
▁캐스터 -15570
▁테두리 -15571
▁낮ᄎ -15572
▁엑스박스 -15573
▁인플루엔자 -15574
루즈 -15575
▁GR -15576
▁군복 -15577
▁등산 -15578
▁뮐러 -15579
▁박용 -15580
▁베티 -15581
▁양서 -15582
▁웨어 -15583
▁치마 -15584
▁235 -15585
▁김해시 -15586
▁물려주 -15587
▁불태 -15588
▁해질 -15589
▁조선공산당 -15590
▁JC -15591
▁상계 -15592
▁서안 -15593
▁아연 -15594
▁안기 -15595
▁양극 -15596
▁가이아 -15597
▁name -15598
▁로베르토 -15599
▁올릴 -15600
양이 -15601
anc -15602
net -15603
▁남단 -15604
▁내림 -15605
▁자위 -15606
▁재보 -15607
▁정글 -15608
▁족장 -15609
▁초계 -15610
▁칼륨 -15611
▁토피 -15612
▁후이 -15613
▁시마즈 -15614
▁안양시 -15615
▁말라 -15616
▁다녀왔 -15617
모음 -15618
주크 -15619
ody -15620
▁가뭄 -15621
▁균일 -15622
▁나기 -15623
▁비옥 -15624
▁수역 -15625
▁외삼 -15626
▁즐거 -15627
▁후한 -15628
▁DOS -15629
▁스케일 -15630
▁호흡기 -15631
▁맡겨 -15632
보라 -15633
화당 -15634
IVE -15635
▁골절 -15636
▁손목 -15637
▁신병 -15638
▁에노 -15639
▁자키 -15640
▁줄곧 -15641
▁축복 -15642
▁포니 -15643
▁풀백 -15644
▁호로 -15645
폴리탄 -15646
▁tvN -15647
▁오르간 -15648
▁메트로폴리탄 -15649
▁퀄 -15650
사와 -15651
황색 -15652
▁고층 -15653
▁노카 -15654
▁마흐 -15655
▁베크 -15656
▁세스 -15657
▁솜씨 -15658
▁이달 -15659
▁일간 -15660
▁젠더 -15661
▁키트 -15662
▁패치 -15663
▁하산 -15664
▁자격증 -15665
▁그레이엄 -15666
▁뤄 -15667
▁기스 -15668
▁사미 -15669
▁석기 -15670
▁오마 -15671
▁창구 -15672
▁반대편 -15673
▁서스펜 -15674
▁배워 -15675
▁쳐서 -15676
▁지하철역 -15677
▁전해져 -15678
▁셴 -15679
열대 -15680
▁가온 -15681
▁경화 -15682
▁나한 -15683
▁놓치 -15684
▁리나 -15685
▁버니 -15686
▁실효 -15687
▁유충 -15688
▁정승 -15689
▁코바 -15690
▁통솔 -15691
▁화승 -15692
▁간호사 -15693
▁남극점 -15694
▁따라가 -15695
▁사무관 -15696
▁손꼽히 -15697
▁열역학 -15698
▁조각상 -15699
▁1874 -15700
▁This -15701
▁우두머리 -15702
▁라가 -15703
▁병렬 -15704
▁일삼 -15705
▁카로 -15706
▁교육감 -15707
▁카디널 -15708
▁한겨레 -15709
▁브로드웨이 -15710
▁잼 -15711
벌리 -15712
에쓰 -15713
▁눈치 -15714
▁시제 -15715
▁잔여 -15716
▁잔혹 -15717
▁확충 -15718
어들이 -15719
▁로페스 -15720
▁신호장 -15721
▁일렉트릭 -15722
▁해준다 -15723
18 -15724
so -15725
큐슈 -15726
▁부엌 -15727
▁소양 -15728
▁요직 -15729
▁종가 -15730
▁코로 -15731
▁키타 -15732
진보당 -15733
▁거주자 -15734
▁당뇨병 -15735
▁동아리 -15736
▁안드레 -15737
▁기우 -15738
▁안겨 -15739
▁알렉산데르 -15740
▁시달렸 -15741
▁가로질러 -15742
ATO -15743
▁결말 -15744
▁마늘 -15745
▁무가 -15746
▁발판 -15747
▁소론 -15748
▁양평 -15749
▁침범 -15750
▁향수 -15751
▁천도교 -15752
▁슈퍼스타 -15753
▁미스코리아 -15754
악산 -15755
▁뉴멕 -15756
▁빌드 -15757
▁석권 -15758
▁일주 -15759
▁협곡 -15760
▁화원 -15761
▁공주시 -15762
▁시그마 -15763
▁조각가 -15764
▁뉴멕시코 -15765
▁중앙아메리카 -15766
▁파푸아뉴기니 -15767
▁낭비 -15768
▁동백 -15769
▁리시 -15770
▁몰수 -15771
▁숙박 -15772
▁악당 -15773
▁은폐 -15774
▁잉여 -15775
▁칠성 -15776
▁홍익 -15777
▁라스트 -15778
▁무지개 -15779
▁재미있 -15780
▁이라 -15781
▁스틸러스 -15782
▁오아시스 -15783
▁컨퍼런스 -15784
▁내릴 -15785
텐셜 -15786
▁무예 -15787
▁볼드 -15788
▁산조 -15789
▁중남 -15790
▁한복 -15791
스크림 -15792
▁204 -15793
▁가요제 -15794
▁책임지 -15795
▁바그다드 -15796
▁유가행파 -15797
▁콘퍼런스 -15798
▁골라 -15799
▁앞세 -15800
▁떨쳤 -15801
▁기울어 -15802
시험 -15803
신저 -15804
▁다쿠 -15805
▁발작 -15806
▁산문 -15807
▁이색 -15808
야누스 -15809
▁성폭력 -15810
▁저스틴 -15811
▁싸울 -15812
ala -15813
▁강국 -15814
▁리타 -15815
▁싱크 -15816
▁재회 -15817
▁코크 -15818
▁품목 -15819
올리언 -15820
▁아놀드 -15821
▁트레일 -15822
▁항공편 -15823
프랑 -15824
▁sp -15825
▁메모 -15826
▁받치 -15827
▁판명 -15828
▁동남쪽 -15829
▁청문회 -15830
▁퍼텐셜 -15831
▁호소카와 -15832
▁기단 -15833
▁트라야누스 -15834
▁올라와 -15835
징어 -15836
▁나일 -15837
▁넷플 -15838
▁라플 -15839
▁레나 -15840
▁인스 -15841
▁조동 -15842
▁쿠마 -15843
▁셀주크 -15844
▁클로드 -15845
▁넷플릭스 -15846
▁쓰일 -15847
▁맴 -15848
▁벚 -15849
▁강좌 -15850
▁델리 -15851
▁묘호 -15852
▁미겔 -15853
▁송이 -15854
▁인성 -15855
▁학당 -15856
▁대수학 -15857
▁에스컬 -15858
▁휴대폰 -15859
▁에스컬레이터 -15860
me -15861
▁격전 -15862
▁법규 -15863
▁사중 -15864
▁앨라 -15865
▁옥사 -15866
▁읍성 -15867
▁주군 -15868
▁캠벨 -15869
▁행선 -15870
▁Bab -15871
▁게임즈 -15872
▁아우르 -15873
▁앞바다 -15874
▁지리산 -15875
▁핸드볼 -15876
▁후쿠이 -15877
▁1877 -15878
▁바이마르 -15879
▁콜럼버스 -15880
운수 -15881
▁SR -15882
▁YG -15883
▁감축 -15884
▁공문 -15885
▁모치 -15886
▁복속 -15887
▁이문 -15888
▁클랜 -15889
▁하지 -15890
▁화염 -15891
▁참전하 -15892
▁뉴올리언 -15893
ax -15894
co -15895
소문 -15896
▁AE -15897
▁단발 -15898
▁상한 -15899
▁선단 -15900
▁에페 -15901
▁예금 -15902
▁중거리 -15903
▁7000 -15904
▁프레슬리 -15905
▁쫓아 -15906
▁서아프리카 -15907
더릭 -15908
▁민원 -15909
▁앞뒤 -15910
▁애드 -15911
▁출사 -15912
▁탄수 -15913
▁퇴진 -15914
▁화음 -15915
▁루이즈 -15916
▁여운형 -15917
▁포식자 -15918
▁허베이 -15919
▁물러난 -15920
au -15921
yn -15922
비에 -15923
▁곤살 -15924
▁도형 -15925
▁바니 -15926
▁북측 -15927
▁예멘 -15928
▁지크 -15929
▁탔 -15930
▁교육학 -15931
▁사하라 -15932
▁Best -15933
민당 -15934
▁김우 -15935
▁엄지 -15936
▁차오 -15937
▁처마 -15938
▁Her -15939
▁무ᄋ -15940
▁대사간 -15941
▁수백만 -15942
▁원주시 -15943
▁한국군 -15944
▁추운 -15945
▁쿰 -15946
계약 -15947
범죄 -15948
ash -15949
▁AF -15950
▁밸브 -15951
▁아킬 -15952
▁양천 -15953
▁지령 -15954
▁총영 -15955
▁비잔틴 -15956
▁컨설팅 -15957
▁멀티미디어 -15958
GB -15959
를레 -15960
oid -15961
▁무주 -15962
▁본존 -15963
▁블랑 -15964
▁승낙 -15965
▁에볼 -15966
▁의제 -15967
▁전조 -15968
▁518 -15969
▁CIA -15970
▁공학자 -15971
▁스타드 -15972
▁콘티넨 -15973
▁갈릴레오 -15974
▁레닌주의 -15975
▁돌렸 -15976
▁물러나 -15977
▁툼 -15978
▁재 -15979
▁결장 -15980
▁고승 -15981
▁나투 -15982
▁너희 -15983
▁두뇌 -15984
▁소인 -15985
▁요가 -15986
▁APG -15987
▁브리스 -15988
▁오릭스 -15989
뤄 -15990
바드 -15991
혈구 -15992
▁경내 -15993
▁바야 -15994
▁바투 -15995
▁산체 -15996
▁상환 -15997
▁순찰 -15998
▁시발 -15999
▁우표 -16000
▁제지 -16001
▁토바 -16002
▁클러스터 -16003
ps -16004
양구 -16005
일기 -16006
ose -16007
▁로망 -16008
▁추계 -16009
▁외계인 -16010
▁1859 -16011
▁걸어 -16012
HC -16013
변수 -16014
ict -16015
▁et -16016
▁쇼 -16017
▁거시 -16018
▁방학 -16019
▁소주 -16020
▁인계 -16021
▁카일 -16022
▁코린 -16023
▁부르봉 -16024
▁연방군 -16025
▁콜린스 -16026
▁1700 -16027
▁만장일치 -16028
▁사무라이 -16029
22 -16030
▁곡식 -16031
▁사연 -16032
▁소르 -16033
▁숙명 -16034
▁승률 -16035
▁억울 -16036
▁원사 -16037
▁유창 -16038
▁하층 -16039
▁해지 -16040
▁강화군 -16041
▁Hell -16042
▁갑작스럽 -16043
▁다카하시 -16044
▁플루토늄 -16045
▁했으므로 -16046
장사 -16047
피크 -16048
▁대입 -16049
▁도읍 -16050
▁라임 -16051
▁문물 -16052
▁스펙 -16053
▁오구 -16054
▁완장 -16055
▁통찰 -16056
▁캄파니아 -16057
▁무언가 -16058
14 -16059
ᆼᄉ -16060
▁도부 -16061
▁도안 -16062
▁맹렬 -16063
▁재물 -16064
▁경부선 -16065
▁곧이어 -16066
▁엘비스 -16067
▁바쳐 -16068
▁켐 -16069
제철 -16070
▁가선 -16071
▁경합 -16072
▁관아 -16073
▁문맥 -16074
▁변론 -16075
▁자성 -16076
▁퇴치 -16077
▁현미경 -16078
▁메모리얼 -16079
▁스테파노 -16080
의식 -16081
▁과세 -16082
▁레크 -16083
▁보어 -16084
▁사병 -16085
▁산재 -16086
▁상감 -16087
▁이씨 -16088
▁람 -16089
▁난쟁이 -16090
▁루카스 -16091
▁이주민 -16092
▁클레오 -16093
▁챠 -16094
남면 -16095
무장 -16096
토크 -16097
술 -16098
▁결여 -16099
▁제비 -16100
▁타선 -16101
▁625 -16102
▁게이밍 -16103
▁앙드레 -16104
▁전시관 -16105
배마 -16106
버터 -16107
음 -16108
▁KS -16109
▁se -16110
▁구가 -16111
▁니즈 -16112
▁두르 -16113
▁뚜껑 -16114
▁미켈 -16115
▁서품 -16116
▁스플 -16117
▁중건 -16118
▁후회 -16119
▁라이센스 -16120
▁앨라배마 -16121
▁프리큐어 -16122
▁us -16123
▁미트 -16124
▁서체 -16125
▁선과 -16126
▁여정 -16127
▁요도 -16128
▁원문 -16129
▁개화파 -16130
▁억제제 -16131
▁울트라 -16132
▁혼합물 -16133
형제 -16134
▁매기 -16135
▁블룸 -16136
▁투사 -16137
▁펭귄 -16138
▁플랑 -16139
▁사다리 -16140
▁아키텐 -16141
▁아파치 -16142
▁오리엔 -16143
▁이케다 -16144
▁나마 -16145
▁불릴 -16146
▁멱 -16147
▁짚 -16148
EEE -16149
▁리안 -16150
▁만류 -16151
▁명왕 -16152
▁태화 -16153
▁셰퍼드 -16154
▁순천시 -16155
▁이론가 -16156
▁인류학 -16157
13 -16158
15 -16159
▁끔 -16160
다보 -16161
동원 -16162
란다 -16163
▁구전 -16164
▁네브 -16165
▁모교 -16166
▁부식 -16167
▁적법 -16168
▁결의안 -16169
▁길거리 -16170
▁찾아오 -16171
▁세웠으며 -16172
데일 -16173
마을 -16174
▁공병 -16175
▁후견 -16176
▁미트라 -16177
▁안철수 -16178
▁우에노 -16179
▁뮈 -16180
고사 -16181
나시 -16182
로트 -16183
▁백운 -16184
▁북인 -16185
▁왕당 -16186
▁율리 -16187
▁자갈 -16188
▁평하 -16189
▁푸젠 -16190
▁함장 -16191
▁트레인 -16192
▁미야기현 -16193
▁소아시아 -16194
▁자이언트 -16195
▁자카르타 -16196
▁테크놀로지 -16197
▁뉴클레오타이드 -16198
▁웜 -16199
과학 -16200
매기 -16201
완다 -16202
▁관위 -16203
▁원만 -16204
▁원점 -16205
▁전범 -16206
▁츠카 -16207
▁끓 -16208
▁제니퍼 -16209
▁출장소 -16210
▁카리스 -16211
▁핵탄두 -16212
VA -16213
▁샷 -16214
주석 -16215
투리 -16216
ᆸ시 -16217
▁군기 -16218
▁롤러 -16219
▁바젤 -16220
▁박찬 -16221
▁베다 -16222
▁알로 -16223
▁전서 -16224
▁화소 -16225
▁가치관 -16226
▁서태지 -16227
▁크리스틴 -16228
재판 -16229
티지 -16230
uck -16231
▁근간 -16232
▁무공 -16233
▁발터 -16234
▁양지 -16235
▁일면 -16236
▁타파 -16237
reak -16238
▁미성년 -16239
▁빈센트 -16240
▁빌바오 -16241
▁서바이벌 -16242
▁아드리아 -16243
▁^ -16244
크리 -16245
▁미러 -16246
▁백지 -16247
▁사와 -16248
▁이창 -16249
▁헬스 -16250
▁후면 -16251
▁직사각 -16252
▁페스트 -16253
장조 -16254
▁거병 -16255
▁다윗 -16256
▁레티 -16257
▁속국 -16258
▁아누 -16259
▁이만 -16260
▁장경 -16261
▁예문관 -16262
▁출판물 -16263
▁환승역 -16264
▁아이스크림 -16265
de -16266
▁김학 -16267
▁문건 -16268
▁산남 -16269
▁왕명 -16270
▁테헤 -16271
▁희미 -16272
▁목표물 -16273
▁선제후 -16274
▁탈레반 -16275
뜨린 -16276
▁IEEE -16277
의 -16278
구나 -16279
▁로보 -16280
▁진심 -16281
▁피자 -16282
▁홀수 -16283
▁로저스 -16284
▁바스크 -16285
▁순교자 -16286
▁실린더 -16287
▁케이드 -16288
둘러 -16289
▁카디널스 -16290
HL -16291
▁공석 -16292
▁관군 -16293
▁도끼 -16294
▁사산 -16295
▁산술 -16296
▁용맹 -16297
▁자백 -16298
▁정청 -16299
▁주포 -16300
▁총감 -16301
▁퇴출 -16302
▁호투 -16303
▁회차 -16304
▁기념장 -16305
▁쓰촨성 -16306
르바 -16307
조류 -16308
▁경원 -16309
▁논증 -16310
▁로코 -16311
▁발광 -16312
▁수주 -16313
▁오인 -16314
▁하후 -16315
▁호화 -16316
▁340 -16317
▁아스카 -16318
▁아이치 -16319
▁이치현 -16320
▁정착지 -16321
▁통계학 -16322
▁아미타불 -16323
▁가문 -16324
▁저질렀 -16325
나주 -16326
주사 -16327
▁뉴잉 -16328
▁로디 -16329
▁리언 -16330
▁안주 -16331
▁코이 -16332
▁튜링 -16333
▁특명 -16334
▁대제학 -16335
▁Star -16336
▁고바야시 -16337
oo -16338
스톤 -16339
ail -16340
▁FF -16341
▁달력 -16342
▁보디 -16343
▁상층 -16344
▁오와 -16345
▁조회 -16346
▁화풍 -16347
하마드 -16348
▁팔 -16349
▁마코토 -16350
선다 -16351
▁정해졌 -16352
스퍼 -16353
패드 -16354
▁개경 -16355
▁발진 -16356
▁섹션 -16357
▁어선 -16358
▁청정 -16359
▁교황령 -16360
▁대혁명 -16361
▁로스트 -16362
▁볼프강 -16363
▁향신료 -16364
▁오토바이 -16365
▁넓혀 -16366
▁휩싸 -16367
소니 -16368
▁as -16369
▁교인 -16370
▁김덕 -16371
▁넓히 -16372
▁담양 -16373
▁보국 -16374
▁상설 -16375
▁세제 -16376
▁수라 -16377
▁수문 -16378
▁수프 -16379
▁진천 -16380
▁타밀 -16381
▁통감 -16382
▁헤라 -16383
게이트 -16384
▁디에고 -16385
▁레이건 -16386
▁으러 -16387
▁콘스탄티누스 -16388
▁펙 -16389
▁금관 -16390
▁도매 -16391
▁사탄 -16392
▁연해 -16393
▁우니 -16394
▁유틸 -16395
▁의인 -16396
▁전봉 -16397
▁호적 -16398
▁310 -16399
▁아니면 -16400
▁지석묘 -16401
▁해인사 -16402
▁국가원수 -16403
▁유틸리티 -16404
▁갇혀 -16405
▁두드러진 -16406
▁DO -16407
▁구라 -16408
▁김도 -16409
▁동급 -16410
▁사생 -16411
▁양동 -16412
▁정역 -16413
▁젤리 -16414
▁지검 -16415
▁폐차 -16416
▁Sun -16417
▁개척자 -16418
▁국내선 -16419
▁엄청나 -16420
▁오슬로 -16421
▁원정대 -16422
▁이광수 -16423
▁놓였 -16424
▁매사추세츠주 -16425
▁떠올랐 -16426
팩스 -16427
다ᄂ -16428
▁김주 -16429
▁짝수 -16430
▁터스 -16431
▁대관식 -16432
▁중앙일보 -16433
▁끼친 -16434
▁굶 -16435
▁거문 -16436
▁나바 -16437
▁멜라 -16438
▁베가 -16439
▁부락 -16440
▁손수 -16441
▁입찰 -16442
▁추장 -16443
▁커브 -16444
▁you -16445
▁가우스 -16446
▁개막식 -16447
▁대대장 -16448
▁브레멘 -16449
▁Super -16450
▁스러워 -16451
플레 -16452
▁my -16453
▁센타 -16454
▁수구 -16455
▁어학 -16456
▁호이 -16457
▁리바이 -16458
▁슈투트 -16459
▁여러분 -16460
▁지날 -16461
▁슈투트가르트 -16462
구미 -16463
댓값 -16464
▁교감 -16465
▁근세 -16466
▁모션 -16467
▁산정 -16468
▁시력 -16469
▁아칸 -16470
▁템플 -16471
▁209 -16472
▁순 -16473
▁무사시 -16474
▁에이브 -16475
▁울주군 -16476
▁1812 -16477
바퀴 -16478
vel -16479
▁과달 -16480
▁선별 -16481
▁평방 -16482
▁편 -16483
▁무신론 -16484
▁셀레우 -16485
▁자본가 -16486
▁조르주 -16487
▁뉴잉글랜드 -16488
▁잡힌 -16489
학파 -16490
▁강유 -16491
▁메드 -16492
▁무위 -16493
▁속초 -16494
▁추밀 -16495
▁충동 -16496
▁바빌론 -16497
▁매다 -16498
▁그래픽스 -16499
▁모니터링 -16500
▁산지 -16501
▁명륜 -16502
▁방탄 -16503
▁빨강 -16504
▁카파 -16505
▁한하 -16506
▁에세이 -16507
▁윤치영 -16508
▁유니코드 -16509
▁안토니우스 -16510
▁후쿠시마현 -16511
초프 -16512
▁ad -16513
▁걸스 -16514
▁닷컴 -16515
▁로컬 -16516
▁루드 -16517
▁배타 -16518
▁스쿼 -16519
▁장지 -16520
▁정실 -16521
▁토프 -16522
▁항문 -16523
▁해커 -16524
▁자오선 -16525
▁자치현 -16526
▁클라리 -16527
▁Soul -16528
▁아이파크 -16529
▁몰라 -16530
TF -16531
티어 -16532
iel -16533
▁Kn -16534
▁근위 -16535
▁나시 -16536
▁당상 -16537
▁박경 -16538
▁산인 -16539
▁성조 -16540
▁세밀 -16541
▁하강 -16542
▁황위 -16543
▁르완다 -16544
▁송진우 -16545
▁에이지 -16546
▁북대서양 -16547
▁선거관리 -16548
▁무형문화재 -16549
▁선거관리위원회 -16550
▁Tw -16551
▁과감 -16552
▁맞배 -16553
▁산동 -16554
▁수질 -16555
▁안면 -16556
▁조던 -16557
▁지카 -16558
▁탄두 -16559
▁피그 -16560
▁호국 -16561
하우스 -16562
▁206 -16563
▁삼거리 -16564
▁접미사 -16565
▁주거지 -16566
▁John -16567
▁서비스업 -16568
▁알렉세이 -16569
▁Christ -16570
▁물리쳤 -16571
찌 -16572
▁루손 -16573
▁의논 -16574
▁장강 -16575
▁주유 -16576
▁단말기 -16577
▁여수시 -16578
▁음식점 -16579
▁한자어 -16580
▁ICBM -16581
▁름 -16582
그램 -16583
▁꾀 -16584
▁논평 -16585
▁로런 -16586
▁이건 -16587
▁천자 -16588
▁코우 -16589
▁풀이 -16590
▁조광조 -16591
59 -16592
네오 -16593
디드 -16594
샤오 -16595
▁ON -16596
▁개표 -16597
▁고후 -16598
▁규합 -16599
▁끔찍 -16600
▁아호 -16601
▁점토 -16602
▁카보 -16603
▁콘스 -16604
▁투니 -16605
▁기울이 -16606
▁연대장 -16607
▁주제가 -16608
▁막시밀리 -16609
▁교재 -16610
▁귀순 -16611
▁금천 -16612
▁니치 -16613
▁도자 -16614
▁동맥 -16615
▁로지 -16616
▁무진 -16617
▁법상 -16618
▁위축 -16619
▁익히 -16620
▁포상 -16621
공화당 -16622
시아키 -16623
▁록히드 -16624
▁1879 -16625
▁민주공화당 -16626
▁잡혔 -16627
gh -16628
▁쑹 -16629
버라 -16630
ute -16631
▁Mi -16632
▁샤오 -16633
▁영도 -16634
▁장이 -16635
▁철기 -16636
▁춘계 -16637
▁개개인 -16638
▁보이즈 -16639
▁베르사유 -16640
▁싸운 -16641
▁파란 -16642
TR -16643
도감 -16644
탄올 -16645
▁IF -16646
▁Mr -16647
▁집적 -16648
▁747 -16649
▁기생충 -16650
▁레코딩 -16651
▁로널드 -16652
▁안데스 -16653
▁건국훈장 -16654
▁아브라함 -16655
▁치른다 -16656
EA -16657
▁뽀 -16658
▁썸 -16659
면적 -16660
여지 -16661
▁가창 -16662
▁구비 -16663
▁매듭 -16664
▁버밍 -16665
▁범람 -16666
▁스완 -16667
▁폐하 -16668
▁휴일 -16669
라이스 -16670
▁곁 -16671
▁고지대 -16672
▁슈트라 -16673
▁의병장 -16674
▁테헤란 -16675
▁파르마 -16676
▁김시 -16677
▁동대 -16678
▁변성 -16679
▁소량 -16680
▁양정 -16681
▁원한 -16682
▁유세 -16683
▁전열 -16684
▁차역 -16685
▁청일 -16686
▁초식 -16687
▁카토 -16688
▁콜론 -16689
▁사우디 -16690
▁석회암 -16691
▁리바운드 -16692
▁에다가 -16693
▁도망쳐 -16694
▁얄 -16695
방스 -16696
▁관개 -16697
▁농담 -16698
▁양원 -16699
▁우기 -16700
▁자네 -16701
▁카펠 -16702
▁그러면 -16703
▁백두산 -16704
▁조봉암 -16705
▁파르티아 -16706
▁꾸몄 -16707
▁슈트라우스 -16708
▁일렉트로닉 -16709
▁붙잡혀 -16710
더 -16711
▁썰 -16712
태자 -16713
▁그릴 -16714
▁단수 -16715
▁듀스 -16716
▁딱딱 -16717
▁부기 -16718
▁아람 -16719
▁양념 -16720
▁자각 -16721
▁정맥 -16722
▁체질 -16723
▁독재자 -16724
▁바닷가 -16725
▁카지노 -16726
▁피어스 -16727
▁죽일 -16728
▁태어날 -16729
말 -16730
▁HP -16731
▁공경 -16732
▁도파 -16733
▁상이 -16734
▁소포 -16735
▁예보 -16736
▁울루 -16737
▁택하 -16738
▁풍요 -16739
▁des -16740
▁썬 -16741
▁제이크 -16742
분투 -16743
슐리 -16744
▁노역 -16745
▁대방 -16746
▁리퍼 -16747
▁모태 -16748
▁불문 -16749
▁유계 -16750
▁유보 -16751
▁유상 -16752
▁임실 -16753
▁자석 -16754
▁해주 -16755
▁게이오 -16756
▁태블릿 -16757
으면 -16758
▁기울였 -16759
블릭 -16760
▁군마 -16761
▁당장 -16762
▁대여 -16763
▁빛깔 -16764
▁실베 -16765
▁용역 -16766
▁이코 -16767
▁일보 -16768
▁중등 -16769
▁초회 -16770
▁트림 -16771
▁420 -16772
▁뉴올리언스 -16773
OK -16774
네프 -16775
화산 -16776
▁감당 -16777
▁게놈 -16778
▁부화 -16779
▁사스 -16780
▁수족 -16781
▁차차 -16782
▁쿠시 -16783
로세서 -16784
를레앙 -16785
▁CoA -16786
▁라그랑 -16787
▁아인 -16788
▁불러일으켰 -16789
▁쑨 -16790
반정 -16791
정변 -16792
▁기권 -16793
▁능숙 -16794
▁대등 -16795
▁두부 -16796
▁무겁 -16797
▁상회 -16798
▁스킨 -16799
▁영종 -16800
▁현수 -16801
▁App -16802
▁리그컵 -16803
▁변호인 -16804
▁사가미 -16805
▁암스트 -16806
▁여행자 -16807
▁영사관 -16808
▁최진실 -16809
▁트리스 -16810
▁펼쳐진 -16811
신보 -16812
▁국문 -16813
▁노마 -16814
▁불능 -16815
▁사체 -16816
▁사파 -16817
▁온전 -16818
▁조우 -16819
▁최용 -16820
▁클럭 -16821
▁440 -16822
▁Str -16823
▁아이작 -16824
리아누스 -16825
▁불법행위 -16826
▁드러난다 -16827
▁당했으며 -16828
▁강가 -16829
▁반달 -16830
▁애호 -16831
▁열람 -16832
▁전곡 -16833
▁제고 -16834
레틱스 -16835
▁국방군 -16836
▁즐거움 -16837
▁애슬레틱스 -16838
▁Record -16839
▁적힌 -16840
▁반납 -16841
▁스텐 -16842
▁인삼 -16843
▁컬링 -16844
▁호시 -16845
어놓 -16846
연맹 -16847
의금 -16848
자드 -16849
VID -16850
▁광시 -16851
▁남경 -16852
▁두스 -16853
▁촐라 -16854
▁카다 -16855
▁타라 -16856
▁글리제 -16857
▁테크노 -16858
▁내게 -16859
▁원종공신 -16860
▁되돌려 -16861
▁꽝 -16862
ull -16863
▁Gu -16864
▁권투 -16865
▁노엘 -16866
▁도나 -16867
▁머큐 -16868
▁인척 -16869
▁처칠 -16870
▁후추 -16871
▁군주제 -16872
▁니가타 -16873
▁본거지 -16874
▁수영장 -16875
▁알칼리 -16876
▁여주인 -16877
▁인산화 -16878
▁사이클론 -16879
▁쿵 -16880
▁퀼 -16881
산업 -16882
▁수아 -16883
▁역동 -16884
▁왕좌 -16885
▁유민 -16886
▁자존 -16887
▁접목 -16888
▁체리 -16889
▁엘리엇 -16890
▁오메가 -16891
▁유기체 -16892
▁조용히 -16893
▁주머니쥐 -16894
▁올라왔 -16895
링크 -16896
선교 -16897
수지 -16898
▁비싸 -16899
▁성자 -16900
▁유관 -16901
▁증축 -16902
▁커리 -16903
▁투기 -16904
▁항전 -16905
▁매니아 -16906
▁야구부 -16907
▁페르시 -16908
▁눌러 -16909
▁아우구스트 -16910
장군 -16911
▁시타 -16912
▁제방 -16913
▁샌 -16914
▁공성전 -16915
▁엘리스 -16916
▁잠비아 -16917
▁2500 -16918
▁엔지니어링 -16919
▁입혔 -16920
티보 -16921
▁"| -16922
▁PA -16923
▁고난 -16924
▁부트 -16925
▁소진 -16926
▁압수 -16927
▁할구 -16928
▁Per -16929
▁광합성 -16930
▁바실리 -16931
▁양산시 -16932
▁지극히 -16933
▁항생제 -16934
▁print -16935
▁다마스쿠스 -16936
▁금기 -16937
▁라쿠 -16938
▁안락 -16939
▁양구 -16940
▁왕릉 -16941
▁용문 -16942
▁이석 -16943
▁폴로 -16944
▁환산 -16945
로그램 -16946
▁춘천시 -16947
▁합병증 -16948
말로 -16949
▁두터 -16950
▁세울 -16951
▁타지키스탄 -16952
▁public -16953
▁강했 -16954
길준 -16955
덕궁 -16956
▁CA -16957
▁궁주 -16958
▁동두 -16959
▁리지 -16960
▁무패 -16961
▁미타 -16962
▁신익 -16963
▁앙상 -16964
▁열거 -16965
▁왕녀 -16966
▁요셉 -16967
▁쿠루 -16968
▁화이 -16969
▁256 -16970
▁스위트 -16971
▁실리콘 -16972
▁이회창 -16973
▁제시카 -16974
▁페이퍼 -16975
▁플래닛 -16976
▁헬레니즘 -16977
▁나눈다 -16978
▁이루어질 -16979
▁찢 -16980
대비 -16981
▁po -16982
▁리노 -16983
▁종실 -16984
▁탈피 -16985
▁투병 -16986
리오스 -16987
▁Hot -16988
▁엔리케 -16989
▁영화관 -16990
▁오토모 -16991
▁호기심 -16992
▁대법원장 -16993
▁균등 -16994
▁매복 -16995
▁콜리 -16996
▁행운 -16997
▁바레인 -16998
▁허버트 -16999
바이러스 -17000
레미 -17001
발트 -17002
황제 -17003
▁nm -17004
▁나토 -17005
▁마거 -17006
▁명동 -17007
▁문어 -17008
▁성현 -17009
▁은평 -17010
▁이한 -17011
▁퀸스 -17012
▁춘 -17013
▁산투스 -17014
▁카스텔 -17015
스런 -17016
▁날렸 -17017
▁라고도 -17018
무지 -17019
일체 -17020
자나 -17021
▁ER -17022
▁내시 -17023
▁바바 -17024
▁북마 -17025
▁사나 -17026
▁시영 -17027
▁아루 -17028
▁연하 -17029
▁이설 -17030
▁작자 -17031
▁환초 -17032
▁버스터 -17033
▁섞인 -17034
16 -17035
25 -17036
데오 -17037
빨리 -17038
▁고독 -17039
▁광동 -17040
▁교학 -17041
▁담수 -17042
▁따지 -17043
▁사목 -17044
▁식이 -17045
▁워낙 -17046
▁정직 -17047
▁향로 -17048
▁기본법 -17049
▁오우치 -17050
▁왕당파 -17051
▁접근성 -17052
▁초고층 -17053
▁판매고 -17054
▁어라 -17055
ty -17056
쿠치 -17057
▁가결 -17058
▁마다 -17059
▁셔츠 -17060
▁실책 -17061
▁중신 -17062
▁코니 -17063
▁호찌 -17064
▁Win -17065
▁지ᄇ -17066
▁고다이 -17067
▁비행사 -17068
▁시에라 -17069
▁캅카스 -17070
▁천문단위 -17071
▁크리스탈 -17072
▁즐겼 -17073
▁습니까 -17074
디 -17075
포리 -17076
▁군도 -17077
▁끌어 -17078
▁담임 -17079
▁성형 -17080
▁접시 -17081
▁코인 -17082
▁킬러 -17083
▁패자 -17084
높이 -17085
다임 -17086
ual -17087
▁득실 -17088
▁레저 -17089
▁바타 -17090
▁석재 -17091
▁성교 -17092
▁우타 -17093
▁카츠 -17094
고로드 -17095
▁랴오닝 -17096
▁생산자 -17097
▁돌아간다 -17098
▁둠 -17099
는점 -17100
▁기한 -17101
▁깊숙 -17102
▁동률 -17103
▁반향 -17104
▁아역 -17105
▁오차 -17106
▁피질 -17107
ogle -17108
▁얼 -17109
▁재결합 -17110
▁토론회 -17111
▁후유증 -17112
▁안다 -17113
자락 -17114
▁Ke -17115
▁강자 -17116
▁내기 -17117
▁농협 -17118
▁동체 -17119
▁미녀 -17120
▁쌍용 -17121
▁유미 -17122
▁즉흥 -17123
▁칠곡 -17124
▁렌더링 -17125
▁이세이 -17126
▁프리드 -17127
▁냈으며 -17128
스틱 -17129
울루 -17130
▁HS -17131
▁mu -17132
▁교명 -17133
▁노골 -17134
▁느슨 -17135
▁대용 -17136
▁멘델 -17137
▁반정 -17138
▁브이 -17139
▁침수 -17140
▁할로 -17141
▁힐스 -17142
▁911 -17143
▁브루노 -17144
▁예비군 -17145
▁예수교 -17146
▁요나라 -17147
▁웨슬리 -17148
▁주둔지 -17149
▁후반전 -17150
▁리치먼드 -17151
▁패러다임 -17152
▁거느렸 -17153
▁을수록 -17154
커우 -17155
▁금리 -17156
▁기피 -17157
▁라사 -17158
▁스팀 -17159
▁지브 -17160
▁남북조 -17161
▁사무엘 -17162
▁스텔스 -17163
▁알베르 -17164
▁잠재력 -17165
▁조연상 -17166
▁1789 -17167
▁1801 -17168
▁Back -17169
▁캥 -17170
불명 -17171
▁관저 -17172
▁도화 -17173
▁사조 -17174
▁악어 -17175
▁응력 -17176
▁이보 -17177
▁코일 -17178
그래피 -17179
▁208 -17180
▁베이직 -17181
▁제주시 -17182
▁플랑드르 -17183
▁건네 -17184
무트 -17185
스텐 -17186
▁NM -17187
▁강타 -17188
▁봉분 -17189
▁부안 -17190
▁아구 -17191
▁여관 -17192
▁유독 -17193
▁진성 -17194
▁초석 -17195
▁탄력 -17196
던지기 -17197
▁오이타 -17198
▁기타큐슈 -17199
▁아미타여래 -17200
▁군림 -17201
▁정중 -17202
▁트램 -17203
▁광주시 -17204
▁다행히 -17205
▁유도탄 -17206
▁조제프 -17207
▁Kore -17208
▁ㅣ -17209
▁쐐 -17210
▁겨냥 -17211
▁누마 -17212
▁소노 -17213
▁시온 -17214
▁치킨 -17215
▁히코 -17216
프리드 -17217
▁말 -17218
▁길버트 -17219
▁넘어서 -17220
▁유길준 -17221
▁1400 -17222
▁암스트롱 -17223
▁포틀랜드 -17224
RNA -17225
▁Fl -17226
▁KD -17227
▁거머 -17228
▁구애 -17229
▁군량 -17230
▁로만 -17231
▁솔직 -17232
▁신천 -17233
▁원곡 -17234
▁전과 -17235
▁조율 -17236
▁머큐리 -17237
▁방법론 -17238
▁폼페이우스 -17239
▁엿볼 -17240
평면 -17241
▁기일 -17242
▁쐐기 -17243
▁악의 -17244
▁총생 -17245
▁폐교 -17246
▁네바다 -17247
▁브릿지 -17248
▁아르테 -17249
▁변했 -17250
ll -17251
득점 -17252
로움 -17253
▁MD -17254
▁보아 -17255
▁세타 -17256
▁애프 -17257
▁에픽 -17258
▁우디 -17259
▁청중 -17260
▁MIT -17261
▁디아스 -17262
▁영장류 -17263
▁인문학 -17264
▁NATO -17265
▁라니 -17266
▁독립선언 -17267
▁모였 -17268
인산 -17269
▁가전 -17270
▁교란 -17271
▁궁수 -17272
▁성부 -17273
▁안시 -17274
▁영성 -17275
▁윤곽 -17276
▁이크 -17277
▁파피 -17278
ᅢ했 -17279
▁370 -17280
▁Get -17281
▁동일시 -17282
▁마운틴 -17283
▁브루크 -17284
▁사망률 -17285
▁사천왕 -17286
▁선수상 -17287
▁앙상블 -17288
▁영문학 -17289
▁유물론 -17290
▁드래곤즈 -17291
▁지배했 -17292
▁선보인 -17293
피 -17294
제사 -17295
▁NL -17296
▁갑신 -17297
▁거품 -17298
▁면하 -17299
▁책정 -17300
▁첫날 -17301
lect -17302
▁아ᄉ -17303
▁내몽골 -17304
▁로런스 -17305
▁붉은색 -17306
▁스태프 -17307
▁남한산성 -17308
▁비로자나 -17309
ox -17310
▁NA -17311
▁국산 -17312
▁균열 -17313
▁변천 -17314
▁오웬 -17315
▁중학 -17316
▁채집 -17317
▁총국 -17318
▁최순 -17319
▁급속도 -17320
▁마거릿 -17321
▁Intern -17322
▁킵 -17323
라과 -17324
이상 -17325
ᆼ치 -17326
▁구명 -17327
▁발열 -17328
▁약품 -17329
▁열기 -17330
▁유감 -17331
▁엉 -17332
▁완 -17333
▁만주족 -17334
▁양평군 -17335
▁이유로 -17336
▁추축국 -17337
▁트럼펫 -17338
▁Baby -17339
▁생물학자 -17340
▁탄수화물 -17341
▁고는 -17342
▁이길 -17343
남동 -17344
▁가령 -17345
▁격화 -17346
▁출정 -17347
▁트론 -17348
ames -17349
끄러 -17350
▁225 -17351
▁펼쳐지 -17352
▁미식축구 -17353
▁프린세스 -17354
▁다닐 -17355
▁올림 -17356
▁오른다 -17357
▁시킨다는 -17358
▁렬 -17359
ove -17360
▁극회 -17361
▁깨지 -17362
▁나날 -17363
▁만물 -17364
▁미디 -17365
▁예편 -17366
▁유재 -17367
▁코디 -17368
▁호전 -17369
▁클라인 -17370
▁항공우주 -17371
▁나와서 -17372
YP -17373
모닉 -17374
▁관원 -17375
▁김장 -17376
▁다채 -17377
▁먼로 -17378
▁미로 -17379
▁민선 -17380
▁박태 -17381
▁승선 -17382
▁신궁 -17383
▁안건 -17384
▁유익 -17385
▁장승 -17386
▁장차 -17387
▁커넥 -17388
▁코딩 -17389
▁탄성 -17390
▁현관 -17391
▁후난 -17392
▁흑색 -17393
▁Mag -17394
▁디렉터 -17395
▁부천시 -17396
▁요시카 -17397
ology -17398
▁리하르트 -17399
▁셀레우코스 -17400
GO -17401
레븐 -17402
파니 -17403
▁Cr -17404
▁격침 -17405
▁고관 -17406
▁도식 -17407
▁수표 -17408
▁아로 -17409
▁아쉽 -17410
▁어둡 -17411
▁오랑 -17412
▁제헌 -17413
▁카인 -17414
▁황하 -17415
▁남아공 -17416
▁메신저 -17417
▁오리건 -17418
▁와이어 -17419
▁이마가와 -17420
▁해수욕장 -17421
▁지킬 -17422
▁행한 -17423
▁행해진 -17424
▁둑 -17425
▁공훈 -17426
▁교내 -17427
▁군위 -17428
▁노름 -17429
▁명장 -17430
▁무소 -17431
▁생포 -17432
▁승마 -17433
▁야만 -17434
▁의대 -17435
▁지회 -17436
▁타키 -17437
▁하세 -17438
▁방문객 -17439
▁부사장 -17440
ature -17441
든가 -17442
▁레오나르 -17443
▁서귀포시 -17444
▁이리하여 -17445
▁트로츠키 -17446
▁안티오키아 -17447
피카 -17448
▁가변 -17449
▁강구 -17450
▁조엘 -17451
▁진위 -17452
▁호지 -17453
▁기네스 -17454
▁나카노 -17455
▁베테랑 -17456
▁니카라과 -17457
▁바란다 -17458
백색 -17459
훈련 -17460
let -17461
▁공평 -17462
▁배지 -17463
▁제타 -17464
▁출항 -17465
▁캔터 -17466
▁캡틴 -17467
▁케로 -17468
▁통킹 -17469
▁효성 -17470
▁콜라보 -17471
▁타일러 -17472
그라운드 -17473
▁로베르트 -17474
▁소크라테스 -17475
능력 -17476
투르 -17477
▁결렬 -17478
▁결투 -17479
▁듀엣 -17480
▁무쓰 -17481
▁소마 -17482
▁초판 -17483
▁친히 -17484
▁탄광 -17485
▁흉내 -17486
피에르 -17487
▁고스트 -17488
▁미요시 -17489
▁블러드 -17490
▁시나노 -17491
▁돼지고기 -17492
▁에두아르 -17493
▁베오그라드 -17494
17 -17495
박이 -17496
스레 -17497
심원 -17498
▁BO -17499
▁그간 -17500
▁누에 -17501
▁니트 -17502
▁대소 -17503
▁리라 -17504
▁무루 -17505
▁비방 -17506
▁사일 -17507
▁수화 -17508
▁약수 -17509
▁양위 -17510
▁죄인 -17511
▁직각 -17512
▁총수 -17513
스트림 -17514
코비치 -17515
inal -17516
▁플 -17517
▁리카르 -17518
▁태양광 -17519
▁아님 -17520
▁씬 -17521
경찰 -17522
메랄 -17523
무실 -17524
▁개축 -17525
▁던전 -17526
▁명중 -17527
▁사옥 -17528
▁알마 -17529
▁카노 -17530
▁풍기 -17531
▁피시 -17532
▁Way -17533
▁신안군 -17534
▁주세페 -17535
▁해수면 -17536
▁프레더릭 -17537
TN -17538
락부 -17539
처럼 -17540
enn -17541
▁고취 -17542
▁공지 -17543
▁굳이 -17544
▁생장 -17545
▁서곡 -17546
▁외가 -17547
▁주스 -17548
▁한꺼 -17549
▁합장 -17550
▁다카시 -17551
▁범어사 -17552
▁사법부 -17553
▁스트라 -17554
▁아열대 -17555
▁어드밴 -17556
▁태극기 -17557
▁페라리 -17558
▁함부로 -17559
▁한꺼번에 -17560
금속 -17561
▁BB -17562
▁MR -17563
▁경산 -17564
▁꾸미 -17565
▁도보 -17566
▁라테 -17567
▁레반 -17568
▁베아 -17569
▁불길 -17570
▁인노 -17571
▁천태 -17572
▁출병 -17573
▁카불 -17574
▁파출 -17575
▁두더지 -17576
▁이치로 -17577
▁혈액형 -17578
▁게오르기 -17579
▁올라갈 -17580
▁나왔으며 -17581
UM -17582
▁쪼 -17583
ors -17584
▁개리 -17585
▁결단 -17586
▁매튜 -17587
▁증류 -17588
▁철근 -17589
▁춘향 -17590
▁하츠 -17591
▁효모 -17592
▁207 -17593
▁GPS -17594
▁Res -17595
▁강릉시 -17596
▁김종직 -17597
▁알레산 -17598
▁압둘라 -17599
▁느낀다 -17600
꼬 -17601
▁깁슨 -17602
▁레르 -17603
▁봉헌 -17604
▁연어 -17605
▁윈드 -17606
▁잔치 -17607
▁재심 -17608
▁흡입 -17609
말라야 -17610
▁스펜서 -17611
▁시아파 -17612
▁내려갔 -17613
▁꿰 -17614
가요 -17615
갱이 -17616
▁굴욕 -17617
▁내역 -17618
▁베라 -17619
▁베컴 -17620
▁사계 -17621
▁에인 -17622
▁운석 -17623
▁조너 -17624
▁청군 -17625
▁폭주 -17626
▁동북부 -17627
▁무정부 -17628
▁일제히 -17629
▁정몽주 -17630
▁항소심 -17631
의금부사 -17632
▁1820 -17633
▁휘마 -17634
▁DA -17635
▁결실 -17636
▁떨어 -17637
▁미추 -17638
▁북송 -17639
▁살레 -17640
▁시편 -17641
▁365 -17642
▁이지스 -17643
▁조합원 -17644
▁직할시 -17645
▁체육회 -17646
▁1815 -17647
▁리얼리티 -17648
▁서대문구 -17649
▁선거인단 -17650
▁이오니아 -17651
▁아르바이트 -17652
덱스 -17653
월드 -17654
즈미 -17655
app -17656
▁기형 -17657
▁김석 -17658
▁도량 -17659
▁맞닿 -17660
▁습도 -17661
▁이구 -17662
▁키치 -17663
▁버ᄐ -17664
▁페레스 -17665
노스아이 -17666
▁Amer -17667
▁불타 -17668
▁진이 -17669
노스아이레스 -17670
▁다닌다 -17671
▁부에노스아이레스 -17672
광사 -17673
나비 -17674
마니 -17675
시카 -17676
▁Dr -17677
▁OK -17678
▁결집 -17679
▁노하 -17680
▁세도 -17681
▁에든 -17682
▁천적 -17683
▁치루 -17684
▁토의 -17685
▁퇴계 -17686
▁풋살 -17687
▁필로 -17688
▁핼리 -17689
스티안 -17690
▁국무부 -17691
▁Cent -17692
▁에든버러 -17693
▁카롤루스 -17694
▁"' -17695
▁공보 -17696
▁김은 -17697
▁박동 -17698
▁산마 -17699
▁설과 -17700
▁술집 -17701
▁신안 -17702
▁좌랑 -17703
▁화교 -17704
이즈미 -17705
▁유명세 -17706
▁지방도 -17707
▁프린터 -17708
▁더라 -17709
▁라이온스 -17710
▁히말라야 -17711
▁말려 -17712
▁통치 -17713
▁세운다 -17714
24 -17715
끄럽 -17716
▁격상 -17717
▁떠돌 -17718
▁변조 -17719
▁해머 -17720
레이즈 -17721
▁감마선 -17722
▁노무라 -17723
▁모터쇼 -17724
▁일진회 -17725
▁유럽연합 -17726
▁여긴다 -17727
▁돌아올 -17728
▁낸 -17729
ret -17730
▁담장 -17731
▁로제 -17732
▁모잠 -17733
▁서역 -17734
▁시성 -17735
▁양분 -17736
▁영위 -17737
▁천리 -17738
ange -17739
▁리그전 -17740
▁야행성 -17741
▁오징어 -17742
▁전동기 -17743
▁제품군 -17744
▁후베이 -17745
▁끼워 -17746
▁모잠비크 -17747
로프로세서 -17748
▁오름 -17749
▁레닌그라드 -17750
▁막시밀리안 -17751
▁마이크로프로세서 -17752
오드 -17753
현실 -17754
ina -17755
▁만수 -17756
▁분담 -17757
▁스틱 -17758
▁전극 -17759
▁조나 -17760
▁치밀 -17761
▁쿠사 -17762
▁파고 -17763
▁표어 -17764
▁학도 -17765
▁한라 -17766
▁호박 -17767
▁힘쓰 -17768
ater -17769
▁농민군 -17770
▁도나우 -17771
▁연습생 -17772
▁혁명가 -17773
▁봐야 -17774
▁사라진다 -17775
FS -17776
▁마취 -17777
▁으뜸 -17778
▁충고 -17779
▁테살 -17780
▁트롤 -17781
▁피쳐 -17782
▁저지르 -17783
▁아라 -17784
▁System -17785
니츠 -17786
▁리서 -17787
▁본진 -17788
▁빠져 -17789
▁시차 -17790
▁어인 -17791
▁월경 -17792
▁장서 -17793
▁디나모 -17794
▁조병옥 -17795
▁지포스 -17796
▁고고학자 -17797
▁마쓰모토 -17798
▁알베르트 -17799
▁갑오 -17800
▁기욤 -17801
▁데니 -17802
▁모질 -17803
▁본능 -17804
▁세실 -17805
▁에다 -17806
▁위태 -17807
▁융기 -17808
▁이부 -17809
▁지반 -17810
▁펜스 -17811
▁아드리 -17812
▁연금술 -17813
▁지팡이 -17814
▁1858 -17815
▁알렉산드라 -17816
▁청했 -17817
▁합쳐져 -17818
za -17819
베인 -17820
▁SW -17821
▁노총 -17822
▁달마 -17823
▁당사 -17824
▁디펜 -17825
▁마초 -17826
▁벅스 -17827
▁슐레 -17828
▁이삭 -17829
▁출루 -17830
▁퍼플 -17831
▁합산 -17832
▁허들 -17833
▁모델링 -17834
▁선데이 -17835
▁유공자 -17836
▁중심핵 -17837
▁모노이드 -17838
▁프로방스 -17839
거루 -17840
비츠 -17841
ons -17842
▁경구 -17843
▁광서 -17844
▁만연 -17845
▁사보 -17846
▁사악 -17847
▁성찬 -17848
▁소정 -17849
▁소켓 -17850
▁실태 -17851
▁쓰리 -17852
▁자막 -17853
▁직류 -17854
▁코넬 -17855
▁탈리 -17856
▁겟 -17857
▁전망대 -17858
▁총생산 -17859
▁오스트로 -17860
▁마른 -17861
▁어우러 -17862
▁갸 -17863
▁챈 -17864
쓰네 -17865
▁능하 -17866
▁라지 -17867
▁미완 -17868
▁아토 -17869
▁장론 -17870
▁종단 -17871
▁특혜 -17872
▁형광 -17873
지먼트 -17874
우며 -17875
▁Int -17876
▁Mac -17877
▁딴 -17878
▁짐 -17879
▁가디언 -17880
▁라이드 -17881
▁민의원 -17882
▁적절히 -17883
▁무찌 -17884
▁이게 -17885
▁마그네슘 -17886
▁매니지먼트 -17887
입자 -17888
퍼트 -17889
ley -17890
▁'- -17891
▁기주 -17892
▁도난 -17893
▁매질 -17894
▁엠마 -17895
▁옵티 -17896
▁위배 -17897
▁전액 -17898
▁지뢰 -17899
▁특위 -17900
▁군산시 -17901
▁스와프 -17902
▁신익희 -17903
▁조너선 -17904
▁크레타 -17905
▁파블로 -17906
▁이성질체 -17907
▁필하모닉 -17908
▁폴리네시아 -17909
러기 -17910
토바 -17911
▁갈비 -17912
▁궁내 -17913
▁기민 -17914
▁녹말 -17915
▁새해 -17916
▁선서 -17917
▁육박 -17918
▁음양 -17919
▁하카 -17920
▁뭔 -17921
▁민 -17922
▁대학살 -17923
▁도치기 -17924
▁모조리 -17925
▁제노바 -17926
▁커져 -17927
▁알베르토 -17928
▁class -17929
▁구한 -17930
ux -17931
동리 -17932
▁견지 -17933
▁납품 -17934
▁더빙 -17935
▁에뮬 -17936
▁정현 -17937
▁좌천 -17938
▁창씨 -17939
▁콘셉 -17940
▁테드 -17941
ions -17942
▁Tra -17943
▁분홍색 -17944
▁필리스 -17945
▁맞배지붕 -17946
▁천연가스 -17947
올렸 -17948
▁늘렸 -17949
▁합쳐서 -17950
▁즐거운 -17951
가라 -17952
▁급사 -17953
▁기교 -17954
▁기근 -17955
▁상해 -17956
▁수강 -17957
▁완산 -17958
▁이철 -17959
▁장택 -17960
▁정공 -17961
▁태상 -17962
▁포섭 -17963
▁프록 -17964
▁핑계 -17965
▁USA -17966
▁관찰자 -17967
▁노트북 -17968
▁마에다 -17969
▁목포시 -17970
▁봉수대 -17971
▁시게루 -17972
▁High -17973
실험 -17974
정제 -17975
▁낙태 -17976
▁남궁 -17977
▁농작 -17978
▁니체 -17979
▁덕수 -17980
▁소탕 -17981
▁수선 -17982
▁의왕 -17983
▁재주 -17984
▁토드 -17985
▁펠레 -17986
▁망 -17987
▁광화문 -17988
▁그리드 -17989
▁달아나 -17990
▁마피아 -17991
▁안티고 -17992
▁유성구 -17993
▁포인터 -17994
▁무궁화호 -17995
▁던진 -17996
▁돌아온다 -17997
▁갑작스런 -17998
던스 -17999
라나 -18000
사랑 -18001
싸움 -18002
코인 -18003
att -18004
▁NX -18005
▁대정 -18006
▁마도 -18007
▁안재 -18008
▁정과 -18009
▁진구 -18010
▁콤비 -18011
▁푸틴 -18012
▁Not -18013
▁전철역 -18014
▁평상시 -18015
▁부러 -18016
▁서프랑크 -18017
정한 -18018
▁무너져 -18019
▁진정한 -18020
▁훅 -18021
컨드 -18022
테일 -18023
▁고택 -18024
▁독실 -18025
▁동티 -18026
▁마틸 -18027
▁말소 -18028
▁진하 -18029
▁총살 -18030
지스터 -18031
▁막아내 -18032
▁평의원 -18033
▁1300 -18034
▁1814 -18035
▁빨라 -18036
▁조선왕조실록 -18037
ᆺ가 -18038
▁SG -18039
▁기악 -18040
▁미자 -18041
▁벨벳 -18042
▁살피 -18043
▁성제 -18044
▁손쉽 -18045
▁아말 -18046
▁예일 -18047
▁음역 -18048
▁증원 -18049
▁패퇴 -18050
▁틈 -18051
▁거머쥐 -18052
▁베일리 -18053
▁비올라 -18054
▁트랜싯 -18055
▁티무르 -18056
▁플래그 -18057
▁피드백 -18058
▁동아프리카 -18059
▁귤 -18060
당류 -18061
촌동 -18062
토쿠 -18063
ᆨ여 -18064
▁공해 -18065
▁급기 -18066
▁로어 -18067
▁로타 -18068
▁문성 -18069
▁민가 -18070
▁알렌 -18071
▁우도 -18072
▁유승 -18073
▁제보 -18074
▁주상 -18075
▁헬렌 -18076
▁휴먼 -18077
▁MHz -18078
▁수도사 -18079
▁쌍방울 -18080
▁What -18081
▁type -18082
▁리라 -18083
▁클라이맥스 -18084
▁돌아와서 -18085
랭크 -18086
재단 -18087
ART -18088
▁고갈 -18089
▁군비 -18090
▁보육 -18091
▁비욘 -18092
▁소치 -18093
▁아약 -18094
▁이덕 -18095
▁키아 -18096
▁건너편 -18097
▁맞대결 -18098
▁미우라 -18099
▁성명서 -18100
▁보호구역 -18101
▁키웠 -18102
▁트랜지스터 -18103
▁내려가 -18104
기둥 -18105
널목 -18106
자유 -18107
▁Of -18108
▁RA -18109
▁목화 -18110
▁스팅 -18111
▁전집 -18112
▁퀘이 -18113
▁흥덕 -18114
▁290 -18115
▁IEC -18116
▁건널목 -18117
▁겨울철 -18118
▁깨달음 -18119
▁세컨드 -18120
▁액티브 -18121
▁그래미상 -18122
▁모를 -18123
▁이뤘 -18124
▁받아들일 -18125
BN -18126
▁앳 -18127
거성 -18128
데냐 -18129
마일 -18130
▁뚜 -18131
▁고요 -18132
▁보카 -18133
▁북상 -18134
▁비호 -18135
▁애매 -18136
▁완주 -18137
▁전란 -18138
▁증직 -18139
▁총액 -18140
▁쿠리 -18141
▁홍천 -18142
▁수증기 -18143
▁오나라 -18144
▁우승컵 -18145
▁충주시 -18146
▁커티스 -18147
▁평택시 -18148
▁사르데냐 -18149
▁산업단지 -18150
▁토스카나 -18151
▁Google -18152
림동 -18153
민정 -18154
▁갈아 -18155
▁부딪 -18156
▁수의 -18157
▁스쿠 -18158
▁신관 -18159
▁우대 -18160
▁War -18161
▁연구실 -18162
▁재빨리 -18163
▁주교좌 -18164
▁한정판 -18165
▁혁명군 -18166
▁암모니아 -18167
▁크리스천 -18168
▁다름 -18169
▁어려울 -18170
▁준다고 -18171
니코 -18172
▁kW -18173
▁규장 -18174
▁미에 -18175
▁바사 -18176
▁버거 -18177
▁부탄 -18178
▁석등 -18179
▁아픔 -18180
▁열망 -18181
▁윗면 -18182
▁포진 -18183
정보부 -18184
▁라쿠텐 -18185
▁성북구 -18186
▁패트리 -18187
▁1795 -18188
▁센다 -18189
▁가져갔 -18190
▁내려온 -18191
▁견훤 -18192
▁군집 -18193
▁바하 -18194
▁정일 -18195
▁캐럴 -18196
▁할양 -18197
▁헤임 -18198
씨식물 -18199
▁MLB -18200
▁WHO -18201
▁탈 -18202
▁니스트 -18203
▁아약스 -18204
▁프렌즈 -18205
▁석가여래 -18206
ger -18207
▁FS -18208
▁레미 -18209
▁선회 -18210
▁실크 -18211
▁앨버 -18212
▁열풍 -18213
▁지층 -18214
▁직권 -18215
▁초당 -18216
▁페데 -18217
▁허구 -18218
▁헨드 -18219
▁혼돈 -18220
▁훈족 -18221
▁LCK -18222
▁고조선 -18223
▁미시간 -18224
▁포스코 -18225
▁프리킥 -18226
살바도르 -18227
▁부위원장 -18228
▁샌드위치 -18229
▁그리스도인 -18230
구멍 -18231
전차 -18232
▁도표 -18233
▁루지 -18234
▁멘토 -18235
▁스톨 -18236
▁아난 -18237
▁어쩌 -18238
▁에린 -18239
▁옥상 -18240
▁켈빈 -18241
▁사이공 -18242
▁통신부 -18243
▁트루먼 -18244
▁플라자 -18245
▁다리우스 -18246
▁플레이스 -18247
▁보였으나 -18248
▁움직임 -18249
▁뿜 -18250
▁윔 -18251
식스 -18252
회원 -18253
▁군락 -18254
▁발췌 -18255
▁비어 -18256
▁세베 -18257
▁아랑 -18258
▁암초 -18259
▁원생 -18260
▁포교 -18261
▁Dis -18262
▁국문학 -18263
▁리포트 -18264
▁원정군 -18265
▁익산시 -18266
▁정확도 -18267
▁프로이트 -18268
▁돌아간 -18269
ye -18270
▁밈 -18271
alk -18272
▁PH -18273
▁애 -18274
▁감기 -18275
▁괴뢰 -18276
▁도정 -18277
▁리츠 -18278
▁매춘 -18279
▁본초 -18280
▁에런 -18281
▁인대 -18282
▁패드 -18283
▁850 -18284
▁TBC -18285
▁대항해 -18286
▁홉킨스 -18287
▁With -18288
▁뿌려 -18289
▁들러 -18290
▁부딪 -18291
▁무너졌 -18292
▁렝 -18293
▁간지 -18294
▁모식 -18295
▁몬태 -18296
▁약학 -18297
▁우사 -18298
▁헬로 -18299
▁480 -18300
▁댄 -18301
▁블루어 -18302
▁창업자 -18303
▁디렉터리 -18304
▁면은 -18305
yle -18306
▁로동 -18307
▁미숙 -18308
▁부녀 -18309
▁브람 -18310
▁쇠약 -18311
▁얼터 -18312
▁장조 -18313
▁풍수 -18314
▁남조선 -18315
▁선언문 -18316
▁창덕궁 -18317
▁하모니 -18318
▁귀여 -18319
▁카테고리 -18320
▁드러난 -18321
▁받아들인 -18322
▁뱌 -18323
▁쥘 -18324
부미 -18325
enc -18326
▁관대 -18327
▁광택 -18328
▁보훈 -18329
▁코지 -18330
▁토비 -18331
▁함의 -18332
주니어 -18333
▁Art -18334
▁낯 -18335
▁놀 -18336
▁물 -18337
▁남해군 -18338
▁로렌초 -18339
▁바로잡 -18340
▁보행자 -18341
▁스레드 -18342
▁스타즈 -18343
▁타블로 -18344
▁합천군 -18345
▁수마트라 -18346
▁줄였 -18347
NT -18348
▁켓 -18349
라도 -18350
▁그늘 -18351
▁김세 -18352
▁머피 -18353
▁보궐 -18354
▁아핀 -18355
▁우이 -18356
▁웅진 -18357
▁유원 -18358
▁종친 -18359
▁첨부 -18360
디우스 -18361
▁안드레이 -18362
▁올라온 -18363
건적 -18364
카라 -18365
팽이 -18366
▁당명 -18367
▁랜덤 -18368
▁미코 -18369
▁반야 -18370
▁웰스 -18371
▁유시 -18372
▁장준 -18373
▁천정 -18374
▁학급 -18375
▁헤지 -18376
▁공직자 -18377
▁돋보이 -18378
▁등록금 -18379
▁에히메 -18380
▁헬싱키 -18381
▁사탕수수 -18382
▁아틀레틱 -18383
▁COVID -18384
▁어딘 -18385
▁그리스도교 -18386
▁찾아왔 -18387
추 -18388
▁Di -18389
▁경이 -18390
▁니나 -18391
▁승전 -18392
▁윈터 -18393
▁효용 -18394
▁238 -18395
▁개최지 -18396
▁북반구 -18397
▁지방관 -18398
▁충렬왕 -18399
▁Blue -18400
▁드레이크 -18401
▁교묘 -18402
▁구자 -18403
▁국지 -18404
▁권하 -18405
▁소도 -18406
▁숭실 -18407
▁씨름 -18408
▁연유 -18409
▁영재 -18410
▁차분 -18411
▁팀장 -18412
▁평신 -18413
쳐서 -18414
▁페테르 -18415
▁원술 -18416
IO -18417
블린 -18418
▁각광 -18419
▁감탄 -18420
▁논설 -18421
▁덩굴 -18422
▁데쓰 -18423
▁맛있 -18424
▁불평 -18425
▁설사 -18426
▁엄정 -18427
플레잉 -18428
ough -18429
▁룬 -18430
▁남반구 -18431
▁빅토리 -18432
▁손바닥 -18433
▁스타인 -18434
▁학생회 -18435
▁가나자와 -18436
▁롤플레잉 -18437
▁요시아키 -18438
▁자연주의 -18439
▁쓰여졌 -18440
▁꼼 -18441
레프 -18442
▁걸치 -18443
▁남포 -18444
▁민권 -18445
▁박승 -18446
▁버시 -18447
▁세탁 -18448
▁율령 -18449
▁장항 -18450
가하라 -18451
▁옵 -18452
▁넥스트 -18453
▁보호관 -18454
▁산체스 -18455
▁1793 -18456
▁이베리아 -18457
▁빼앗겼 -18458
뉴스 -18459
천국 -18460
▁골수 -18461
▁구토 -18462
▁기시 -18463
▁당분 -18464
▁리저 -18465
▁수렵 -18466
▁와해 -18467
▁이트 -18468
▁정여 -18469
네소스 -18470
독립당 -18471
▁공기업 -18472
▁안데르 -18473
▁여객선 -18474
▁이완용 -18475
▁아나키즘 -18476
▁자유민주 -18477
▁팔려 -18478
▁중앙정보부 -18479
▁한국독립당 -18480
UI -18481
ING -18482
▁교주 -18483
▁내구 -18484
▁노화 -18485
▁데메 -18486
▁만기 -18487
▁멜론 -18488
▁묘법 -18489
▁신구 -18490
▁역모 -18491
▁존엄 -18492
▁쿠릴 -18493
▁하디 -18494
▁보라색 -18495
▁수번뇌 -18496
▁에밀리 -18497
▁유격대 -18498
▁취약점 -18499
▁페인트 -18500
▁아요 -18501
▁키르기스스탄 -18502
que -18503
▁ED -18504
▁Vf -18505
▁화 -18506
▁갤러 -18507
▁과부 -18508
▁국과 -18509
▁몸집 -18510
▁미묘 -18511
▁보츠 -18512
▁서강 -18513
▁올랭 -18514
▁용접 -18515
▁정병 -18516
▁직함 -18517
▁페터 -18518
▁하순 -18519
다람쥐 -18520
연화경 -18521
▁Rev -18522
▁문하시 -18523
▁크라스 -18524
스트리트 -18525
▁1846 -18526
▁MPEG -18527
▁물리학상 -18528
▁에드먼드 -18529
▁자동변속기 -18530
▁착한 -18531
26 -18532
고트 -18533
메트 -18534
뻐하 -18535
적분 -18536
OVE -18537
▁괴멸 -18538
▁구룡 -18539
▁대뇌 -18540
▁무당 -18541
▁민생 -18542
▁오호 -18543
▁윤원 -18544
▁이국 -18545
▁천구 -18546
비우스 -18547
[...]
