▁▃ -0
▁ㅇ -1
▁ㄱ -2
▁ㄷ -3
ㅡㄹ -4
▁ㅎ -5
▁ㅈ -6
▁ㅇㅣ -7
▁ㅅ -8
▁ㄴ -9
ㅏㄴ -10
ㅡㄴ -11
▁ㅁ -12
ㅏㅇ -13
▁ㅂ -14
▁ㄹ -15
▁. -16
▁ㅇㅔ -17
▁ㅇㅡㄹ -18
▁ㄴㅡㄴ -19
ㅓㄴ -20
ㅏㄹ -21
▁ㄷㅏ -22
ㅣㄴ -23
▁ㅇㅢ -24
ㅕㄴ -25
▁ㅎㅏ -26
ㅗㅇ -27
▁ㄱㅏ -28
ㅅㅓ -29
▁ㅊ -30
▁, -31
▁ㅇㅓ -32
ㅏㄱ -33
▁ㅍ -34
ㅜㄴ -35
ㅕㅇ -36
▁ㄱㅗ -37
▁ㅎㅏㄴ -38
ㅣㄹ -39
ㅜㄹ -40
ㅓㅇ -41
▁ㄹㅡㄹ -42
▁ㅇㅡㄴ -43
▁ㅌ -44
ㅗㄱ -45
ㅣㅁ -46
ㄷㅏ -47
▁ㅋ -48
▁1 -49
▁ㄷㅗ -50
ㅅㅡ -51
ㅈㅣ -52
ㅕㄱ -53
ㅗㄴ -54
▁ㅎㅐ -55
▁ㅇㅏ -56
ㅓㄹ -57
▁ㅇㅣㅆ -58
ㅣㄱ -59
ㅜㅇ -60
▁2 -61
▁ㄹㅗ -62
ㅣㅇ -63
▁ㄷㅚ -64
ㅜㄱ -65
ㅓㄱ -66
ㅏㅁ -67
ㅡㅇ -68
ㅐㅇ -69
▁ㄱㅣ -70
▁ㅇㅣㄴ -71
ㅡㅁ -72
▁ㅇㅔㅅㅓ -73
▁ㅇㅡㄹㅗ -74
▁ㄷㅡㄹ -75
▁ㄸ -76
ㅗㄹ -77
▁ㅇㅣㄹ -78
ㅇㅣ -79
ㅓㅁ -80
▁ㄱㅔ -81
▁ㄱㅘ -82
▁ㅈㅣ -83
▁ㄷㅐ -84
ㅓㅅ -85
▁ㅅㅏㅇ -86
▁ㅅㅜ -87
▁ㅇㅘ -88
▁ㅅㅣ -89
ㅝㄴ -90
▁ㅁㅏ -91
▁ㅈㅓㄴ -92
ㄷㅗ -93
▁ㅇㅕ -94
▁ㅇㅓㅆ -95
▁ㅈㅏ -96
ㄷㅡ -97
▁- -98
ㅈㅏㅇ -99
▁ㅁㅕㄴ -100
▁ㅈㅓㄱ -101
ㅓㅂ -102
▁ㄲ -103
ㅅㅣ -104
ㅛㅇ -105
▁ㅁㅏㄴ -106
ㄹㅣ -107
▁ㄱㅡ -108
▁ㄱㅓㅅ -109
ㄱㅣ -110
▁3 -111
ㅅㅏ -112
ㄷㅐ -113
ㅌㅡ -114
▁ㅁㅗ -115
▁ㅂㅗ -116
ㅐㄱ -117
▁ㅅㅡ -118
▁ㅎㅐㅆ -119
▁ㅈㅜㅇ -120
▁ㅈㅓㅇ -121
▁ㅎㅘ -122
ㅎㅐ -123
▁ㄱㅡㄹ -124
ㅈㅏ -125
ㅕㄹ -126
▁ㄱㅗㅇ -127
ㅎㅘ -128
▁ㅇㅠ -129
ㅔㄹ -130
▁ㅇㅏㄴ -131
▁ㅂㅜ -132
ㅅㅏㅇ -133
ㅑㅇ -134
▁20 -135
ㅈㅓㅇ -136
▁ㄸㅐ -137
▁' -138
▁ㄴㅕㄴ -139
ㄱㅏ -140
ㅣㅁㅏㄴ -141
▁: -142
ㅈㅓㄴ -143
ㅏㅇㅣ -144
ㅅㅜ -145
▁ㄱㅕㅇ -146
ㅌㅓ -147
▁ㅂㅏ -148
▁ㄴㅏ -149
ㄱㅔ -150
▁ㅇㅟ -151
ㄷㅔ -152
▁ㅈㅔ -153
▁ㅎㅏㄴㄷㅏ -154
ㅏㄴㅡㄴ -155
▁ㄷㅚㄴ -156
▁ㅅㅓㅇ -157
ㅎㅏㄴ -158
ㅎㅏ -159
▁ㅈㅗ -160
▁ㅆ -161
▁ㅇㅓㅄ -162
ㅊㅣ -163
▁ㅅㅏ -164
ㅔㅇㅣ -165
▁ㅎㅏㄹ -166
▁ㅈㅜ -167
ㅅㅣㄴ -168
ㅡㄱ -169
ㅇㅓ -170
ㅅㅓㅇ -171
▁4 -172
▁ㅈㅣㅁㅏㄴ -173
ㅐㄴ -174
ㅝㄹ -175
ㄱㅗ -176
▁ㄷㅡㅇ -177
ㅁㅜㄴ -178
▁ㅂㅏㄹ -179
ㅎㅣ -180
ㅡㄹㄹ -181
ㅇㅣㄴ -182
▁ㅈㅏㅇ -183
▁ㅇㅏㄶ -184
ㅈㅔ -185
▁ㅁㅕ -186
▁ㄷㅓㄴ -187
▁ㄷㅏㅇ -188
▁ㅇㅔㄱㅔ -189
▁5 -190
▁ㄷㅏㄹ -191
ㄷㅗㅇ -192
▁ㅅㅔ -193
▁ㅅㅏㄹ -194
▁ㄷㅗㅇ -195
ㅂㅜ -196
ㄱㅜㄱ -197
▁0 -198
▁ㅁㅏㄹ -199
ㅈㅣㄴ -200
ㅜㅁ -201
ㄹㅕㄱ -202
▁ㅈㅣㄴ -203
▁ㅂㅏㅇ -204
▁ㅇㅡㅁ -205
▁ㅇㅗ -206
▁ㅇㅝㄹ -207
ㄱㅕㄱ -208
▁" -209
▁201 -210
ㅏㄱㅗ -211
▁/ -212
▁ㅅㅣㄴ -213
▁ㅅㅣㄹ -214
ㅕㅆ -215
ㄱㅘ -216
▁ㅅㅓㄴ -217
▁ㅇㅕㅇ -218
ㅏㅈㅣ -219
▁ㅂㅣ -220
▁ㄹㅏ -221
▁ㅇㅕㄴ -222
ㅇㅜ -223
▁ㄴㅗ -224
▁ㅁㅣ -225
ㄹㅗ -226
ㅔㄴ -227
▁ㅂㅜㄹ -228
ㅈㅏㄱ -229
▁ㅃ -230
▁ㅅㅐㅇ -231
▁ㄱㅐ -232
▁ㅇㅏㄹ -233
▁ㄱㅏㅇ -234
ㅈㅜ -235
ㅅㅓㄴ -236
▁ㅈㅏㄱ -237
ㅊㅔ -238
▁ㅇㅕㄱ -239
▁ㄱㅓㄴ -240
▁ㅇㅑ -241
▁ㄱㅏㄴ -242
▁ㄴㅐ -243
▁ㄴㅡㄴㄷㅔ -244
▁ㅅㅗ -245
▁ㅇㅝㄴ -246
▁ㄷㅏㄴ -247
▁ㅂㅗㅇ -248
▁ㄸㅐㅁㅜㄴ -249
▁ㅁㅜㄴ -250
▁6 -251
▁ㅎㅚ -252
▁ㅎㅜ -253
ㅌㅏ -254
ㅇㅑ -255
▁ㅁㅜ -256
ㅁㅕㄴ -257
ㄱㅜ -258
ㅅㅣㄱ -259
▁10 -260
ㅁㅣ -261
▁ㄴㅏㅇ -262
ㄷㅏㅇ -263
▁ㅁㅕㅇ -264
ㄷㅡㄹ -265
▁ㅊㅚ -266
▁ㄲㅏㅈㅣ -267
▁ㅉ -268
▁ㅇㅣㅂ -269
ㅅㅣㄹ -270
▁ㅂㅓㄴ -271
▁ㄱㅏㅌ -272
▁ㅂㅏㄷ -273
ㅓㄹㅣ -274
ㅁㅜㄹ -275
ㄷㅏㄴ -276
▁ㅁㅜㄹ -277
▁ㅅㅣㄱ -278
▁ㄹㅔ -279
ㅋㅣ -280
▁7 -281
ㅈㅐ -282
ㅁㅕㅇ -283
ㅅㅗ -284
▁ㅇㅕㅆ -285
▁ㄱㅜ -286
ㅎㅜ -287
ㅋㅡ -288
▁ㅇㅗㄹ -289
▁ㄹㅏㄱㅗ -290
▁ㄹㅏㄴㅡㄴ -291
▁ㄴㅏㅁ -292
ㅂㅣ -293
▁ㄷㅔ -294
ㅎㅐㅇ -295
▁! -296
▁ㄱㅘㄴ -297
ㄱㅖ -298
▁ㅂㅗㄴ -299
▁ㅂㅏㄴ -300
▁S -301
▁ㅌㅡㄱ -302
▁8 -303
ㅇㅝㄴ -304
▁ㄱㅕㄹ -305
ㅐㄹ -306
▁ㅁㅏㄶ -307
ㅈㅡ -308
ㅈㅜㅇ -309
▁ㅇㅏㅆ -310
▁ㄷㅏㄱㅗ -311
▁ㅌㅏ -312
▁ㄷㅚㄴㄷㅏ -313
ㅡㅂ -314
ㅅㅗㄱ -315
ㅇㅣㄹ -316
▁ㅍㅡㄹ -317
ㅈㅓㅁ -318
ㅇㅣㅁ -319
▁ㅊㅏ -320
▁ㄱㅜㄱ -321
▁19 -322
▁ㅈㅣㄱ -323
▁ㅁㅕㄴㅅㅓ -324
ㅁㅏ -325
ㅂㅏㄴ -326
▁ㅋㅏ -327
ㅇㅛㅇ -328
▁ㄷㅡ -329
▁ㄱㅖ -330
▁ㅈㅏㄹ -331
▁9 -332
▁ㄱㅕㅇㅇㅜ -333
ㅎㅏㄱ -334
▁ㅂㅜㄴ -335
▁ㅅㅓ -336
▁ㄱㅗㅇㄱㅕㄱ -337
ㅂㅗ -338
ㅅㅐㅇ -339
ㄴㅣ -340
▁ㅊㅜㄹ -341
ㅂㅜㄴ -342
▁ㄱㅡㄴ -343
ㅂㅗㄴ -344
▁ㅎㅏㅁ -345
ㄹㅕ -346
ㅎㅚ -347
ㄱㅗㅇ -348
▁ㅁㅗㅅ -349
▁ㄷㅗㄹ -350
▁ㄷㅏㄴㅡㄴ -351
▁ㅅㅗㄱ -352
▁A -353
▁ㅁㅏㅈ -354
▁ㄹㅣ -355
▁ㅅㅏㅇㅛㅇ -356
ㅓㅎ -357
▁ㄷㅓ -358
▁ㄱㅓ -359
▁ㅇㅏㄴㅣ -360
▁ㅅㅡㅌ -361
ㅍㅡ -362
ㅅㅏㄴ -363
▁ㅍㅗ -364
ㄱㅏㄴ -365
ㅊㅏ -366
▁ㅈㅗㅎ -367
▁ㅅㅓㄹ -368
▁ㄱㅏㅁ -369
▁ㅁㅗㄷ -370
▁ㅎㅕㄴ -371
▁ㅈㅏㅅㅣㄴ -372
▁ㅍㅕㄴ -373
▁M -374
▁ㅈㅓㅁ -375
▁ㅇㅣㅎㅜ -376
ㅂㅓ -377
▁ㄴㅏㄹ -378
▁ㅇㅖ -379
▁ㅌㅗㅇ -380
▁ㅇㅜ -381
▁ㅎㅏㄱ -382
ㅣㅇㅏ -383
▁% -384
ㅋㅏ -385
▁ㅇㅛ -386
ㅂㅏㄹ -387
ㅏㄱㅏ -388
▁ㅊㅗ -389
▁ㅎㅗ -390
ㅅㅔ -391
▁ㅈㅗㅇ -392
ㄱㅛ -393
▁ㄴㅣ -394
ㅗㄹㅣ -395
ㅈㅜㄴ -396
ㅈㅗ -397
ㅣㅇㅓ -398
▁ㅋㅗ -399
▁ㅈㅓㅇㄷㅗ -400
▁ㅅㅏㄹㅏㅁ -401
ㅎㅗ -402
▁ㅍㅣ -403
ㅅㅡㅂ -404
ㅈㅓㄱ -405
▁ㅁㅔ -406
▁ㄱㅓㄹ -407
ㄹㅓ -408
ㄱㅏㄱ -409
ㅇㅛ -410
ㅇㅏㄴ -411
▁ㄱㅣㅁ -412
▁C -413
▁ㅈㅜㄱ -414
ㅂㅏㅇ -415
ㅓㄴㅏ -416
▁ㅅㅡㅇ -417
▁ㅁㅏㅇ -418
ㅂㅓㅂ -419
▁ㅍㅐ -420
ㅣㄴㄷㅏ -421
▁ㅅㅡㅋ -422
ㅌㅐ -423
ㅅㅜㄹ -424
ㅌㅣ -425
▁ㅇㅓㄴ -426
ㅈㅗㅇ -427
▁B -428
▁ㄱㅏㄴㅡㅇ -429
ㅁㅏㄴ -430
▁ㄱㅣㄹ -431
ㅇㅠ -432
ㄹㅏ -433
ㅅㅡㅇ -434
▁T -435
▁ㄸㅏㄹ -436
ㅅㅣㅁ -437
▁ㅈㅣㅇ -438
▁ㅊㅏㅁ -439
ㅇㅕㅇ -440
▁ㅂㅐ -441
ㅁㅗ -442
▁ㅅㅣㅁ -443
▁ㅇㅛㅇ -444
ㅈㅓ -445
ㄹㅠ -446
▁ㅎㅕㅇ -447
▁ㅂㅓ -448
▁ㄱㅜㄴ -449
▁ㄷㅜ -450
▁ㅇㅚ -451
ㅌㅗㅇ -452
ㅇㅏ -453
▁ㅍㅕㅇ -454
▁ㄷㅡㅇㅈㅏㅇ -455
ㅣㄱㅗ -456
ㅌㅗ -457
▁ㅂㅓㄹ -458
▁~ -459
▁ㅊㅓㄹ -460
▁D -461
▁ㄷㅏㄹㅡㄴ -462
ㅇㅟ -463
▁ㅂㅜㅌㅓ -464
▁ㅎㅐㅇ -465
▁ㅅㅏㅁ -466
▁+ -467
▁ㅎㅐㅅㅓ -468
▁ㅊㅜㄱ -469
▁ㅍㅡㄹㄹ -470
ㅅㅡㅌㅡ -471
▁? -472
▁ㄱㅛ -473
▁ㅅㅗㄴ -474
ㄱㅡㅂ -475
▁ㅇㅓㄹ -476
▁12 -477
▁ㄱㅔㅇㅣㅁ -478
▁ㄸㅗ -479
ㅈㅣㄹ -480
▁ㅇㅡㅁㅕ -481
ㅈㅣㄱ -482
▁ㅇㅔㄴ -483
▁ㅂㅗㄷㅏ -484
▁ㅍㅏㄴ -485
▁ㅌㅣㅁ -486
▁ㅇㅣㄴㅏ -487
▁ㅅㅏㄱ -488
ㅁㅣㄴ -489
▁ㄱㅝㄴ -490
ㅅㅕㄴ -491
ㅇㅕㄴ -492
▁ㅎㅏㅇ -493
ㅋㅗ -494
▁.. -495
▁ㅈㅐ -496
er -497
▁ㄷㅟ -498
▁200 -499
▁ㅈㅜㄹ -500
ㅡㄹㅣ -501
▁11 -502
▁ㅅㅣㅈ -503
ㅇㅡㅁ -504
▁L -505
▁ㅍㅣㄹ -506
▁ㄴㅔ -507
▁ㄱㅡㄹㅣㄱㅗ -508
▁ㅈㅣㅂ -509
00 -510
ㅈㅗㄱ -511
▁ㅎㅘㄱ -512
▁ㄴㅏㄴ -513
ㅡㄹㅗ -514
ㅌㅔ -515
▁ㅂㅏㄱ -516
ㅍㅏㄴ -517
▁ㅁㅐ -518
▁ㅇㅏㅇㅣ -519
▁ㅇㅜㄴ -520
▁ㅅㅏㅅㅣㄹ -521
▁ㅂㅕㄴ -522
▁ㄱㅏㄹ -523
in -524
▁ㅎㅏㄴㅏ -525
ㅂㅡ -526
ㅍㅗ -527
ㄱㅕㅇ -528
ㅇㅡㄴ -529
▁ㄷㅡㅅ -530
▁ㅇㅕㄹ -531
▁ㅇㅏㅇ -532
▁ㅅㅣㄱㅏㄴ -533
▁ㅊㅓㅇ -534
▁ㅍㅏ -535
▁ㄴㅓㅁ -536
▁F -537
ㄱㅘㄴ -538
ㄷㅣ -539
ㅍㅣ -540
▁ㅂㅏㄲ -541
▁ㅁㅗㄱ -542
▁P -543
▁ㅈㅜㄴ -544
ㅎㅘㅇ -545
▁ㄴㅡㄴㄷㅏ -546
ㅌㅏㄴ -547
ㅇㅢ -548
▁ㄱㅕㅇㄱㅣ -549
▁ㄲㅡ -550
▁ㅅㅜㄴ -551
▁ㅇㅟㅎㅐ -552
ㅍㅛ -553
▁ㅁㅗㄹ -554
ㅇㅕㄱ -555
▁ㅂㅗㄹ -556
ㄱㅓ -557
▁ㅁㅏㄱ -558
ㅐㅇㅜ -559
ㅁㅜ -560
▁ㅌㅔ -561
▁ㅍㅗㄱ -562
▁ㅂㅗㄱ -563
▁ㅊㅣ -564
▁ㅁㅗㅅㅡㅂ -565
ㄴㅣㄷㅏ -566
▁ㅇㅑㅇ -567
▁ㅇㅑㄱ -568
ㅇㅓㅂ -569
ㄱㅜㄴ -570
ㅂㅗㄱ -571
▁ㅈㅓ -572
▁ㄷㅏㄱㅏ -573
▁ㅇㅜㄹ -574
▁ㄴㅗㅍ -575
▁ㅎㅘㄹ -576
▁ㄱㅡㄱ -577
ㅈㅣㅁㅏㄴ -578
▁ㅇㅏㄱ -579
▁ㅇㅣㅅㅏㅇ -580
▁ㄷㅐㅎㅏㄴ -581
ㅎㅕㅇ -582
ㅊㅜㄹ -583
▁G -584
▁ㅇㅣㄱ -585
ㅍㅏ -586
▁ㄷㅗㄱ -587
▁ㅇㅣㄹㅡㅁ -588
▁ㅁㅣㄹ -589
ㅅㅓㄹ -590
▁ㄱㅏㄱ -591
ㅌㅜ -592
ㅊㅓㅇ -593
ㅅㅓㄱ -594
▁ㅊㅗㅇ -595
ㅇㅕ -596
▁ㅎㅣㅁ -597
ㅍㅜㅁ -598
▁ㄴㅏㅇㅗ -599
▁E -600
▁ㅅㅏㅇㄷㅐ -601
▁ㅍㅛ -602
▁ㅈㅗㄴ -603
ㄴㅏ -604
ㅎㅕㄴ -605
▁ㄹㅜ -606
▁ㄴㅡㅇ -607
ㅎㅑㅇ -608
ㄲㅔ -609
an -610
▁ㅋㅐㄹ -611
▁ㅇㅣㅁ -612
▁ㅅㅏㅇㅣ -613
▁ㅈㅏㅁ -614
▁ㅅㅏㄴ -615
▁ㅈㅏㅂ -616
▁ㄱㅣㄴ -617
▁ㅅㅣㅈㅏㄱ -618
▁ㄴㅗㄹ -619
ㅌㅡㄹ -620
▁ㅂㅐㄱ -621
▁ㅎㅏㅈㅣㅁㅏㄴ -622
▁ㅈㅗㄱ -623
▁ㅌㅗ -624
▁ㅌㅡㄹ -625
▁ㅁㅣㄴ -626
ㅅㅡㅌㅓ -627
ㄹㅗㄴ -628
ㅎㅏㅂ -629
▁ㅈㅡㅇ -630
▁ㅁㅜㄴㅈㅔ -631
on -632
▁15 -633
▁ㅇㅘㅇ -634
▁ㅇㅣㄹㅂㅗㄴ -635
▁ㅎㅏㅁㄲㅔ -636
▁ㅇㅓㅅㅓ -637
▁ㄱㅓㄴㅏ -638
▁ㅂㅕㄹ -639
ㅐㅁ -640
ㄹㅕㅇ -641
ㅎㅘㄴ -642
▁ㅅㅐㅇㄱㅏㄱ -643
ㅈㅕ -644
▁ㅂㅕㅇ -645
▁ㄱㅔㅆ -646
▁ㅁㅜㄱ -647
▁ㄱㅐㅇ -648
▁ㅎㅏㄴㄱㅜㄱ -649
ㅔㅅ -650
ㅂㅏ -651
ㅇㅓㄴ -652
▁ㅇㅡㅁㅕㄴ -653
▁ㄷㅣ -654
▁ㅎㅏㅂ -655
▁ㅁㅣㅊ -656
▁# -657
▁ㅋㅐㄹㅣㄱ -658
▁H -659
▁ㄹㅏㅇ -660
ㅇㅑㄱ -661
▁ㅊㅓㄴ -662
ㄹㅕㄴ -663
▁ㅇㅗㄴ -664
▁ㄷㅏㅅㅣ -665
▁R -666
▁ㅇㅘㄴ -667
▁ㄱㅣㅇ -668
▁ㅁㅏㄴㄷㅡㄹ -669
▁ㅋㅡ -670
▁K -671
▁ㄲㅡㅌ -672
▁ㅋㅐㄹㅣㄱㅌㅓ -673
▁ㅇㅏㅍ -674
ㅎㅕ -675
▁ㄱㅓㅁ -676
ㅂㅔㄹ -677
ㄷㅗㄱ -678
ㄷㅏㄹ -679
▁ㅋㅣ -680
▁ㄱㅗㄱ -681
▁ㄴㅡㅇㄹㅕㄱ -682
ㄷㅐㄹㅗ -683
▁ㄱㅡㅁ -684
ㅅㅏㄹ -685
ㄷㅓ -686
▁t -687
ㅂㅕㅇ -688
ㅅㅗㅇ -689
▁ㅁㅓㄱ -690
▁I -691
▁ㅅㅣㅈㅡㄴ -692
▁ㄱㅘㅇ -693
▁ㅇㅓㅁ -694
▁ㅊㅜㅇ -695
▁N -696
▁ㅅㅡㅋㅣㄹ -697
ㅊㅡ -698
▁ㅊㅔ -699
▁ㅅㅣㅋ -700
▁ㅅㅜㄹ -701
▁ㅊㅓㄹㅓㅁ -702
▁ㄷㅡㄹㅇ -703
ㅣㅇㅗ -704
ㅎㅓㅁ -705
▁ㅁㅗㅇ -706
▁ㄹㅏㅁ -707
▁ㅎㅛ -708
▁ㅇㅓㄷ -709
▁ㅂㅡㄹ -710
ㅊㅓㄴ -711
▁ㅊㅜㄱㅏ -712
ㅣㅂ -713
▁ㅆㅡ -714
ㅁㅗㄱ -715
▁m -716
▁ㄱㅏㅈㅣ -717
ㄷㅏㅁ -718
ㄱㅐ -719
▁ㅈㅣㄹ -720
▁ㅅㅏㅇㅎㅘㅇ -721
▁ㄱㅏㅈㅏㅇ -722
ㄷㅡㄴ -723
ㅘㅆ -724
▁ㄸㅗㅎㅏㄴ -725
▁ㅊㅣㄴ -726
ㅁㅏㄹ -727
▁ㅋㅏㄷㅡ -728
or -729
▁ㅊㅏㅇ -730
ㅈㅕㅆ -731
ㄷㅏㄴㅡㄴ -732
ㅁㅣㅈㅣ -733
▁ㅅㅏㅇㅌㅐ -734
▁ㅋㅡㄹㄹ -735
▁ㄱㅣㄱ -736
▁ㄷㅏㅇㅅㅣ -737
ㅇㅚ -738
▁ㅅㅗㅇ -739
ㅎㅏㄹ -740
▁ㄱㅗㄹ -741
▁ㅇㅓㅂ -742
▁ㄴㅜㄴ -743
▁ㅁㅗㄷㅜ -744
▁ㅅㅠ -745
▁ㄱㅡㄹㅓㄴ -746
ar -747
▁ㅊㅜ -748
▁ㄱㅕㄹㄱㅜㄱ -749
▁ㅈㅓㄹ -750
ㄹㅐ -751
ㅎㅏㅁ -752
▁ㅎㅛㄱㅘ -753
▁ㅌㅜ -754
ㅅㅐㄱ -755
▁ㅌㅏㄹ -756
ㅎㅐㅆ -757
▁ㄷㅏㅁㅏㄴ -758
ㅇㅏㅇ -759
▁ㅁㅗㄷㅡㄴ -760
ㅠㄹ -761
ㄷㅡㅇ -762
▁ㅆㅏㅇ -763
ㅁㅏㅇ -764
▁18 -765
▁16 -766
ㅈㅐㅇ -767
▁ㄸㅏㄹㅏ -768
▁ㅁㅣㄱ -769
▁ㅂㅗㅇㅕ -770
▁ㄱㅡㄹㅐ -771
▁ㅅㅟ -772
ㅕㅁ -773
▁ㅁㅏㄶㅇㅣ -774
▁ㅂㅗㅇㅣ -775
▁ㅇㅐ -776
▁O -777
ㅘㄴ -778
▁30 -779
ㄹㅣㄴ -780
ㅓㅈㅣ -781
at -782
▁ㅂㅔ -783
▁ㄱㅡㅂ -784
▁ㅍㅐㄴ -785
▁ㄷㅚㄹ -786
▁ㅅㅡㅍ -787
ㅌㅏㄹ -788
ㅣㅈㅡ -789
▁ㅇㅏㅁ -790
ㄱㅕㄹ -791
ㅓㅎㄱㅔ -792
▁ㄴㅐㅇ -793
▁ㄷㅏㅁ -794
ㄲㅏ -795
ㅘㅇ -796
▁13 -797
ㅇㅏㄱ -798
▁ㅌㅏㄴ -799
▁ㅍㅏㅇ -800
ㄹㅏㄴ -801
▁s -802
▁ㅅㅓㄴㅅㅜ -803
▁ㄹㅔㅂㅔㄹ -804
he -805
▁ㅂㅣㄹ -806
▁ㅍㅏㄹ -807
ㄴㅐ -808
▁ㅂㅡㄹㄹ -809
▁ㅅㅔㄱㅖ -810
ㄹㅛ -811
▁ㅁㅗㄴ -812
▁] -813
▁ㅃㅏㄹ -814
ㅁㅐ -815
▁W -816
▁ㅂㅜㄱ -817
ㅍㅓ -818
ㅌㅐㄱ -819
ㅈㅓㅂ -820
ㅊㅗ -821
ㅍㅕㄴ -822
ㅉㅗㄱ -823
▁ㅅㅡㅂ -824
ㄱㅡㅁ -825
▁ㅋㅡㄴ -826
ㅈㅓㄹ -827
▁ㄴㅏㅇㅗㄴ -828
▁14 -829
▁ㅋㅏㄹ -830
ㄹㅔ -831
▁ㅎㅕㄴㅈㅐ -832
▁[ -833
ㅂㅐ -834
▁ㅂㅜㅌ -835
▁ㄱㅓㅇ -836
▁ㅁㅐㅇㅜ -837
▁ㅅㅜㅇ -838
▁ㄹㅏㅇㅣ -839
▁ㅊㅟ -840
▁ㅅㅣㄹㅣㅈㅡ -841
▁ㅇㅡㄴㅏ -842
ㅓㄱㅏ -843
▁ㄷㅜㄹ -844
▁ㄱㅚ -845
▁ㅅㅏㅇㄷㅏㅇ -846
▁ㅍㅡㄹㅗ -847
▁ㄴㅡ -848
▁ㅈㅗㄴㅈㅐ -849
▁ㅁㅜㄱㅣ -850
▁ㅊㅓㅅ -851
▁ㅁㅜㄹㄹㅗㄴ -852
▁ㄱㅡㄹㅓㄴㅏ -853
▁ㅋㅡㄹ -854
ㅔㄹㅕㄱ -855
ㄱㅡㄴ -856
▁ㅎㅘㅇ -857
ㄷㅏㄱㅗ -858
▁ㄷㅏㅁㅕㄴ -859
ㄱㅡㄹ -860
▁ㅁㅏㅂㅓㅂ -861
en -862
▁ㄱㅜㅇ -863
▁ㅅㅣㅇ -864
ㅈㅗㄴ -865
ㅏㅁㅏ -866
ㄴㅏㄴ -867
▁c -868
▁ㅊㅏㅈ -869
▁17 -870
ㅊㅣㅇ -871
ㅔㄹㅗ -872
▁ㅇㅣㅇㅠ -873
▁ㅆㅡㄹ -874
▁ㅈㅏㅊㅔ -875
ㅕㅂ -876
▁ㅎㅗㄴ -877
ㄷㅡㄱ -878
▁ㄹㅣㅇ -879
ㄹㅣㅂ -880
▁ㄱㅣㅅㅜㄹ -881
▁ㅃㅜㄴ -882
▁100 -883
ㅂㅓㅁ -884
▁ㅇㅣㄹㅓㄴ -885
▁00 -886
▁ㅌㅏㅇ -887
▁ㅅㅡㄹ -888
▁ㅇㅗㄹㄹ -889
ㅌㅔㅁ -890
▁ㅇㅓㄸ -891
▁ㅇㅔㄹ -892
▁ㅅㅣㅋㅣ -893
ㅑㄱ -894
▁ㅇㅏㄴㅣㄴ -895
▁ㅈㅜㅇㅣㄴ -896
ㅡㅅ -897
ㄱㅏㅇ -898
▁ㅎㅐㅇㅑ -899
▁ㅈㅓㄴㅌㅜ -900
ㅇㅡㄴㅏ -901
▁ㅂㅓㅂ -902
▁ㄹㅣㄱ -903
▁ㄴㅓ -904
ㅈㅣㅂ -905
▁25 -906
ㅔㅇ -907
▁ㄱㅘㄴㄹㅕㄴ -908
▁ㅍㅣㅎㅐ -909
ou -910
▁ㄸㅓㄹ -911
▁ㄱㅗㅅ -912
▁ㄱㅏㅌㅇㅣ -913
▁ㄹㅏㄴ -914
▁V -915
al -916
ㅊㅓ -917
▁ㅇㅣㅇㅛㅇ -918
ㅇㅣㅂ -919
ㅎㅏㅇ -920
ㅋㅡㅁ -921
ㅍㅐ -922
▁ㅍㅣㄹㅇㅛ -923
ㄷㅗㄹ -924
▁ㅇㅣㄴㄷㅔ -925
▁ㅇㅕㄱㅣ -926
▁U -927
▁ㅊㅏㄹ -928
▁ㅂㅏㅇㅅㅗㅇ -929
▁ㄷㅏㅇㅡㅁ -930
▁ㅎㅐㄷㅏㅇ -931
ㄱㅏㅁ -932
▁ㄱㅣㅂㅗㄴ -933
▁ㄹㅔㅇㅣ -934
▁ㅈㅣㅇㅕㄱ -935
▁ㅇㅕㄱㅅㅣ -936
▁ㅂㅏㄹㅗ -937
▁ㅍㅜㄹ -938
▁ㅊㅓㅇㅡㅁ -939
▁ㅋㅐ -940
▁ㄱㅣㄹㅗㄱ -941
▁ㄷㅐㅎㅐ -942
▁ㄱㅟ -943
▁ㅎㅘㄴ -944
▁ㅅㅓㅂ -945
ㄹㅑㅇ -946
▁ㄱㅓㅇㅢ -947
▁ㅇㅣㄹㅂㅏㄴ -948
▁ㅂㅓㅁ -949
ㅂㅕㄹ -950
▁ㅂㅣㅇ -951
ㄱㅕㄴ -952
▁ㅉㅐ -953
▁ㅇㅠㄴㅣ -954
▁ㅎㅣ -955
▁ㄷㅙ -956
ㄷㅜ -957
ㅝㅆ -958
ㅐㄴㄷㅡ -959
▁2017 -960
▁ㅇㅣㅇㅑ -961
▁199 -962
▁ㅂㅣㄱ -963
▁ㅈㅗㅁ -964
▁ㄷㅐㅎㅏㄱ -965
▁ㅋㅜ -966
▁ㄱㅏㅈ -967
▁ㄴㅑ -968
▁ㅅㅐ -969
ㅌㅓㄴ -970
ㅊㅏㄱ -971
▁ㅊㅐ -972
ㄱㅗㄱ -973
▁ㅎㅗㅇ -974
▁2018 -975
▁ㄴㅗㅎ -976
ㅊㅕ -977
ㅈㅣㅇ -978
▁ㅅㅏㄱㅓㄴ -979
▁ㅇㅐㄴ -980
▁ㄷㅓㄱ -981
ㅇㅡㅁㅕ -982
▁ㅇㅣㅇㅑㄱㅣ -983
▁ㅁㅣㄱㅜㄱ -984
▁ㅇㅔㅅㅓㄴ -985
ㅊㅏㄹ -986
▁ㄱㅕㄱ -987
▁ㅁㅐㄴ -988
▁ㅂㅜㅇ -989
▁ㅌㅡㄱㅎㅣ -990
ㅊㅏㅇ -991
▁ㄴㅗㅇ -992
▁ㅅㅣㅍ -993
ㅗㅂ -994
▁k -995
▁ㅇㅓㅄㅇㅣ -996
ㅣㅁㅏㄱ -997
▁ㅂㅜㅂㅜㄴ -998
▁ㄸㅓㄹㅇㅓ -999
▁ㅌㅐ -1000
▁ㅈㅣㄴㅎㅐㅇ -1001
es -1002
▁ㅌㅡ -1003
▁ㅇㅕㅇㅎㅘ -1004
▁ㅎㅏㄱㄱㅛ -1005
▁ㅂㅗㄴㅇㅣㄴ -1006
▁ㅌㅗㅇㅎㅐ -1007
▁ㅅㅗㄹ -1008
▁ㅇㅣㄴㄱㅏㄴ -1009
▁ㄷㅡㄴ -1010
▁ㅇㅏㅅㅓ -1011
▁ㅋㅓ -1012
▁ㅇㅣㄴㅈㅣ -1013
▁ㄷㅏㄹㄹㅣ -1014
▁ㅁㅗㅅㅎㅏ -1015
ㅣㅅㅡ -1016
▁2019 -1017
▁ㅈㅡㄱ -1018
▁ㅊㅏㅁㄱㅗ -1019
ㅋㅓ -1020
▁ㅂㅓㄹㅣ -1021
it -1022
ㄴㅕㄴ -1023
▁ㄹㅕㄱ -1024
ㅊㅏㄴ -1025
▁ㅊㅣㅁ -1026
▁ㄹㅏㅁㅕㄴ -1027
▁ㅌㅓ -1028
▁ㅍㅡㄹㄹㅔㅇㅣ -1029
▁ㄱㅠ -1030
ㄱㅠ -1031
ㅂㅏㄱ -1032
▁ㅎㅐㄷㅗ -1033
▁ㅈㅡㅇㄱㅏ -1034
▁ㅁㅗㅁ -1035
▁ㅈㅜㅇㅣㄴㄱㅗㅇ -1036
ㅂㅜㅂㅜㄴ -1037
ㄱㅕ -1038
▁ㅎㅗㄱ -1039
▁ㅂㅣㅅㅡ -1040
▁ㅈㅔㅈㅏㄱ -1041
▁ㄹㅣㄱㅡ -1042
▁ㅁㅏㄴㅋㅡㅁ -1043
▁ㅁㅏㅈㅣㅁㅏㄱ -1044
▁ㅇㅞ -1045
▁ㄹㅕ -1046
▁ㅁㅕㅊ -1047
ㅣㅇㅓㄴ -1048
▁ㅅㅗㄱㄷㅗ -1049
▁ㅈㅓㅂ -1050
▁ㅈㅏㄱㅣ -1051
▁ㅈㅏㄱㅍㅜㅁ -1052
▁ㄱㅡㄴㅑㅇ -1053
ㄴㅡㅇ -1054
▁ㄴㅡㄴㅈㅣ -1055
ㄸㅐ -1056
▁21 -1057
ㅈㅣㄴㄷㅏ -1058
▁50 -1059
▁X -1060
▁ㄷㅣㄹ -1061
ㅂㅓㄹ -1062
▁ㅂㅏㄺ -1063
ㅂㅗㅇ -1064
▁ㅌㅐㅇ -1065
▁ㄴㅐㅇㅛㅇ -1066
▁2016 -1067
▁ㅉㅗㄱ -1068
ㅂㅕㄴ -1069
ㅏㄹㅣ -1070
▁ㅋㅗㄴ -1071
ㄹㅠㄹ -1072
ㅎㅗㄴ -1073
▁ㄱㅗㅇㄱㅕㄱㄹㅕㄱ -1074
▁ㄱㅖㅅㅗㄱ -1075
ㅏㅇㅜㄴ -1076
ㅎㅘㄹ -1077
▁ㅅㅜㅈㅜㄴ -1078
▁ㅌㅏㅇㅣ -1079
▁ㄷㅐㅍㅛ -1080
▁ㄴㅡㄲ -1081
▁ㄷㅐㅂㅜㅂㅜㄴ -1082
ㅇㅑㅇ -1083
▁ㅇㅣㄴㅁㅜㄹ -1084
▁ㄴㅏㅇㅣ -1085
ㄴㅏㄹ -1086
ㅊㅓㄹ -1087
ㅊㅜ -1088
▁& -1089
▁ㄷㅓㄹ -1090
▁ㄱㅐㅇㅛ -1091
is -1092
▁ㅁㅏㅌ -1093
ㅔㅇㅣㅈㅣ -1094
re -1095
▁ㅎㅗㅁ -1096
▁ㅇㅝ -1097
ㅈㅓㄴㅎㅣ -1098
▁ㅌㅣ -1099
▁ㅂㅗㅇㅣㄴㄷㅏ -1100
▁ㅇㅟㅊㅣ -1101
▁ㅂㅣㅅㅡㅅ -1102
▁ㅁㅔㅁ -1103
▁ㄴㅓㅎ -1104
ㅇㅗ -1105
▁ㅇㅕㄹㅓ -1106
▁w -1107
▁ㄷㅗㅇㅇㅏㄴ -1108
▁ㅅㅡㅌㅏ -1109
▁ㅅㅡㅂㄴㅣㄷㅏ -1110
▁ㅈㅣㄱㅡㅁ -1111
▁ㄷㅐㅅㅣㄴ -1112
▁22 -1113
▁ㅇㅣㄴㅎㅐ -1114
le -1115
ㅋㅜ -1116
ㅜㄹㅣ -1117
▁ㅊㅗㄱ -1118
▁ㄱㅜㄱㄱㅏ -1119
▁ㅅㅏㅇㄷㅏㅇㅎㅣ -1120
▁ㅍㅕㅇㄱㅏ -1121
▁ㅇㅓㄴㅡ -1122
▁ㄴㅗㄴ -1123
▁ㅁㅓㄴ -1124
▁ㅎㅢ -1125
▁ㄱㅣㅅㅏ -1126
ㅔㄴㅌㅡ -1127
ㄴㅏㅁ -1128
▁ㄴㅏㅈ -1129
ㅔㅇㅣㅅㅕㄴ -1130
▁ㅎㅘㄹㄷㅗㅇ -1131
▁ㄱㅘㄴㄱㅖ -1132
▁ㄴㅡㄹ -1133
▁ㅇㅣㅈㅓㄴ -1134
ㅇㅓㄴㅏ -1135
ㅇㅔ -1136
ㅅㅜㄴ -1137
▁ㅅㅔㄴ -1138
ㅌㅏㅇ -1139
▁ㅇㅕㅇㅅㅏㅇ -1140
▁J -1141
▁ㅋㅓㄴ -1142
ㅅㅡㄴ -1143
▁ㄱㅏㅂ -1144
▁d -1145
ㄱㅓㄹㅣ -1146
ㄷㅣㅇ -1147
▁ㅅㅓㅇㅜㄹ -1148
▁ㄷㅡㄹㅇㅓㄱㅏ -1149
▁ㅅㅑ -1150
ㅎㅣㄹ -1151
▁ㅂㅗㅅㅡ -1152
ㅏㄴㄷㅏ -1153
▁ㄱㅡㄷㅐㄹㅗ -1154
▁ㅁㅜㅇ -1155
▁ㅊㅔㄹㅕㄱ -1156
▁24 -1157
▁ㅇㅜㄹㅣ -1158
▁ㅇㅠㄴㅣㅅ -1159
▁ㄱㅏㅁㄷㅗㄱ -1160
▁ㄸㅟ -1161
▁ㅊㅚㄷㅐ -1162
▁ㅁㅜㄴㅅㅓ -1163
▁ㅍㅏㄱ -1164
▁ㅁㅏㄷㅏ -1165
▁ㅅㅓㅇㄱㅗㅇ -1166
ㅈㅡㅇ -1167
▁ㄴㅏㄱ -1168
▁ㄱㅣㅈㅜㄴ -1169
ㅍㅡㄹ -1170
▁ㅋㅣㅇ -1171
▁ㅅㅣㅈㅓㄹ -1172
▁ㅅㅓㄱ -1173
▁ㅍㅡㄹㄹㅔㅇ -1174
ㅎㅢ -1175
ing -1176
▁ㅎㅣㄹ -1177
▁ㄱㅏㄲ -1178
ic -1179
▁ㄷㅐㅇ -1180
▁ㅈㅔㅇㅚ -1181
▁f -1182
▁ㅈㅜㅇㄱㅜㄱ -1183
ㄹㅗㄱ -1184
▁ㄷㅔㅁㅣㅈㅣ -1185
▁ㅁㅡㄹㅗ -1186
▁ㅎㅔ -1187
▁ㅅㅣㄹㅈ -1188
ㄹㅏㄱ -1189
▁ㅇㅠㄱ -1190
▁ㅁㅗㄴㅅㅡㅌㅓ -1191
as -1192
▁ㅅㅣㄹㅈㅔㄹㅗ -1193
▁ㅂㅏㄹㅏㅁ -1194
ㄷㅏㄱㅏ -1195
▁ㄹㅓ -1196
▁ㅋㅗㄹ -1197
▁ㅂㅣㄴ -1198
▁ㅇㅠㅈㅓ -1199
▁ㅅㅓㄹㅈㅓㅇ -1200
▁ㄷㅗㄴ -1201
▁b -1202
▁ㄴㅣㅁ -1203
ㅗㅊ -1204
▁ㄱㅕㄹㄱㅘ -1205
▁ㄷㅐㄹㅗ -1206
▁ㄱㅡㄹㅓㅎ -1207
ㅌㅡㄴ -1208
ㅋㅡㄹ -1209
▁ㄱㅡㄴㅕ -1210
ㅇㅓㅄ -1211
▁ㅈㅓㄴㅈㅐㅇ -1212
▁ㄴㅏㄱㅏ -1213
▁ㅈㅣㅇㅝㄴ -1214
▁ㅋㅏㄴ -1215
▁ㅊㅣㄹ -1216
ㄹㅑㄱ -1217
▁ㅅㅡㅇㄹㅣ -1218
▁23 -1219
▁ㅂㅔㄹ -1220
ㅎㅏㄴㄷㅏ -1221
▁2015 -1222
▁ㅅㅗㅅㅗㄱ -1223
▁ㅇㅣㅁㅣ -1224
ㅇㅕㄹ -1225
▁ㅈㅏㄹㅣ -1226
ㄴㅗ -1227
ㅅㅡㅌ -1228
▁ㅇㅓㄴㄱㅡㅂ -1229
▁ㅁㅔㅁㅂㅓ -1230
▁ㅋㅗㅇ -1231
▁ㅇㅜㅇ -1232
▁ㄷㅗㄹㅗㄱ -1233
ㄱㅜㄹ -1234
▁ㄱㅓㄱ -1235
ㄹㅣㅇ -1236
▁ㅈㅏㄴ -1237
▁ㅊㅏㄱ -1238
ㅜㅅㅡ -1239
▁ㅇㅜㅁ -1240
▁ㅇㅝㄴㄹㅐ -1241
▁ㅈㅓㅇㅂㅗ -1242
▁ㄷㅡㄷ -1243
▁40 -1244
▁ㅈㅣㄱㅈㅓㅂ -1245
▁ㅇㅏㅂ -1246
ㄱㅘㅇ -1247
▁ㅇㅠㄹ -1248
▁ㅇㅡㄴㅣ -1249
▁ㅅㅓㅇㅇㅜ -1250
ㅂㅓㅈㅣ -1251
▁ㅅㅓㄹㅁㅕㅇ -1252
▁ㅁㅓㄹㅣ -1253
▁ㅇㅣㄷㅗㅇ -1254
▁ㅅㅓㄴㅌㅐㄱ -1255
▁ㅈㅓㄴㅊㅔ -1256
▁ㅅㅟㅂ -1257
ㅓㄴㅣ -1258
ㅅㅗㄴ -1259
▁ㅇㅢㅁㅣ -1260
▁ㅁㅏㅇㅡㅁ -1261
▁a -1262
▁ㄴㅓㅁㅜ -1263
▁ㅇㅣㄹㅂㅜ -1264
▁ㅆㅣㄱ -1265
▁ㅇㅕㅈㅏ -1266
ㅔㅇㅣㄷㅡ -1267
▁ㄹㅗㅇ -1268
ㅋㅔ -1269
▁ㅅㅓㅁ -1270
ㅇㅜㄴ -1271
▁ㄷㅏㄹㅡ -1272
▁ㅂㅘ -1273
ㄱㅝㄴ -1274
▁ㅋㅜㄹ -1275
▁ㅇㅓㅉ -1276
▁ㅇㅙ -1277
ㅇㅏㄱㅏ -1278
▁ㅎㅕㅂ -1279
▁< -1280
▁ㅎㅠ -1281
ㅊㅜㄱ -1282
▁ㅍㅗㄹ -1283
▁ㄹㅠ -1284
▁ㅋㅓㅁ -1285
▁ㅇㅓㅁㅊㅓㅇ -1286
▁ㅍㅡㄹㄹㅔㅇㅣㅇㅓ -1287
▁ㅊㅡㄱ -1288
ㅂㅜㄹ -1289
▁ㄴㅠ -1290
▁ㄱㅘㄱㅓ -1291
▁ㅊㅣㄴㄱㅜ -1292
ㅊㅣㄴ -1293
▁ㄲㅏ -1294
▁ㅂㅏㅇㅂㅓㅂ -1295
▁ㅊㅐㄱ -1296
▁) -1297
ㅂㅐㄱ -1298
▁ㄷㅗㅅㅣ -1299
▁ㅁㅛ -1300
▁ㄸㅏㅇ -1301
▁ㅊㅣㅇ -1302
ㅊㅐㄱ -1303
ㅇㅜㅇ -1304
▁ㅇㅏㅇㅣㅌㅔㅁ -1305
▁ㅈㅏㅇㅁㅕㄴ -1306
▁ㅇㅗㅇ -1307
▁ㄷㅙㅆ -1308
▁ㅊㅜㄹㅇㅕㄴ -1309
▁ㄴㅏㅇㅘㅆ -1310
▁ㅌㅏㅂ -1311
ㅡㄴㄷㅏ -1312
▁ㅂㅓㅈㅓㄴ -1313
ㅍㅣㄹ -1314
ㅇㅓㄹ -1315
▁ㅅㅡㅌㅗㄹㅣ -1316
om -1317
▁ㅈㅗㄱㅡㅁ -1318
ㅊㅗㅇ -1319
▁p -1320
▁ㄲㅙ -1321
ㅓㅅㅡ -1322
am -1323
▁ㅊㅏㅇㅣ -1324
▁ㄱㅜㄹ -1325
▁h -1326
▁ㅎㅗㄹ -1327
▁ㅎㅑㅇ -1328
▁ㅅㅗㄹㅣ -1329
▁ㅅㅜㄱ -1330
▁ㅅㅐㄱ -1331
▁ㅍㅔ -1332
ㅋㅔㅅ -1333
ㅎㅚㄱ -1334
▁ㄴㅏㅇㅗㄴㄷㅏ -1335
▁ㄴㅐㄴ -1336
ㅟㄴ -1337
▁ㅅㅛ -1338
▁ㅈㅣㅁ -1339
▁ㅌㅓㄴ -1340
▁ㄴㅏㅌㅏㄴ -1341
ㅜㅅ -1342
▁ㅅㅏㄹㅏㅇ -1343
▁ㅂㅣㅎㅐ -1344
ㅊㅣㅁ -1345
▁ㄴㅜㄱ -1346
▁ㅃㅏ -1347
ㅜㄴㄷㅡ -1348
▁ㄱㅗㅇㅅㅣㄱ -1349
ㅇㅐ -1350
▁ㅇㅣㄱㅓㅅ -1351
▁ㄷㅏㅇㅎㅏ -1352
▁ㄱㅐㅂㅏㄹ -1353
ㅉㅏ -1354
▁198 -1355
▁ㄷㅐㅅㅏㅇ -1356
▁ㅊㅗㅂㅏㄴ -1357
el -1358
▁ㅁㅗㄷㅡ -1359
▁ㅋㅗㅁ -1360
▁ㄱㅓㄹㅣ -1361
▁ㅂㅏㅇㅇㅓ -1362
ㄱㅣㄹ -1363
▁ㅈㅓㄴㅂㅜ -1364
ㅎㅏㄱㄱㅛ -1365
▁ㄷㅏㅂ -1366
ㄹㅓㄴ -1367
▁ㄷㅐㅅㅏ -1368
▁ㅂㅓㅅㅡ -1369
▁ㅇㅠㄴ -1370
▁ㄹㅏㅇㅣㄴ -1371
▁o -1372
▁ㅋㅣㄹ -1373
▁ㅋㅡㄹㅣ -1374
▁ㅈㅗㄹ -1375
▁ㄴㅗㄱ -1376
▁ㄹㅕㄱㅗ -1377
ㅍㅕㅇ -1378
▁ㅇㅓㄱ -1379
ㄹㅕㅆ -1380
▁ㄴㅏㅁㅈㅏ -1381
▁ㅇㅣㅂㅔㄴㅌㅡ -1382
▁ㅊㅡㅇ -1383
▁ㅋㅔ -1384
▁ㅇㅏㅅ -1385
▁ㅁㅏㄴㄷㅡㄴ -1386
▁ㅈㅔㄷㅐㄹㅗ -1387
▁ㄹㅗㅅㅓ -1388
▁ㅅㅗㄱㅅㅓㅇ -1389
▁ㅁㅣㅇ -1390
▁26 -1391
▁2014 -1392
▁ㅇㅕㅅㅓㅇ -1393
▁ㄷㅗㅇㅅㅣ -1394
▁ㅁㅓㄹ -1395
▁n -1396
▁ㅇㅏㄹㄹㅕ -1397
ㄱㅏㅈㅣ -1398
▁ㅍㅏㄱㅚ -1399
▁ㅉㅣㄱ -1400
▁ㅇㅠㅁㅕㅇ -1401
▁ㄱㅏㅇㅎㅘ -1402
▁ㅁㅏㄴㄴㅏ -1403
ㄱㅓㄴ -1404
▁ㅊㅡ -1405
▁ㅊㅚㄱㅗ -1406
▁ㅈㅓㅇㅁㅏㄹ -1407
ㅇㅣㅌㅡ -1408
▁ㅇㅐㄹ -1409
▁ㅇㅏㅂㅓㅈㅣ -1410
▁ㄱㅡㄹㅓ -1411
▁28 -1412
▁ㅅㅏㅁㅏㅇ -1413
▁ㅅㅗㅎㅘㄴ -1414
▁ㅇㅜㅅㅡㅇ -1415
▁ㅈㅏㅈㅜ -1416
▁ㅅㅓㅇㄴㅡㅇ -1417
▁ㅎㅏㄱㅅㅐㅇ -1418
ㅍㅔ -1419
ㅈㅏㅂ -1420
▁the -1421
▁27 -1422
▁ㅍㅗㅇ -1423
▁ㅇㅏㅈㅣㄱ -1424
▁ㅊㅚㅈㅗㅇ -1425
▁ㅇㅢㅎㅐ -1426
▁ㅇㅜㄴㅇㅕㅇ -1427
ㄱㅣㄴ -1428
▁ㅎㅚㅂㅗㄱ -1429
ㅇㅓㅆ -1430
▁ㅇㅕㄱㅅㅏ -1431
▁ㅎㅜㅂㅏㄴ -1432
▁ㄷㅏㅇㅇㅕㄴ -1433
▁31 -1434
▁= -1435
▁ㅂㅣㅊ -1436
▁ㅊㅜㄹㅅㅣㄴ -1437
▁ㅈㅜㄴㄷㅏ -1438
▁ㅇㅣㅇ -1439
▁ㄱㅣㅌㅏ -1440
▁ㄱㅡㄹㅓㄴㄷㅔ -1441
▁ㅆㅣ -1442
▁ㅇㅐㄱ -1443
▁ㅌㅡㄱㅅㅓㅇ -1444
▁ㅁㅗㄹㅡ -1445
▁ㄹㅏㄷㅗ -1446
ㅅㅡㄹ -1447
▁ㄱㅏㅇㄹㅕㄱ -1448
▁ㅎㅏㄴㄷㅏㄴㅡㄴ -1449
ㅅㅜㄱ -1450
▁ㄴㅗㄹㅐ -1451
▁ㅁㅐㅂ -1452
▁ㅈㅡ -1453
▁ㅇㅣㄸㅐ -1454
▁ㄱㅛㅇ -1455
▁ㅎㅟ -1456
▁ㄱㅗㅇㄱㅐ -1457
▁ㅎㅘㄱㄹㅠㄹ -1458
▁ㄷㅓㅇ -1459
▁ㅅㅓㄹㅗ -1460
ㅎㅜㄴ -1461
▁ㅆㅡㅇ -1462
▁ㄷㅓㅂ -1463
▁ㅇㅕㄴㄱㅜ -1464
ㅂㅕㄱ -1465
▁ㅈㅜㄹㅗ -1466
▁ㄱㅡㄱㅓㅅ -1467
ㅗㅇㅜㄴ -1468
▁ㄴㅗㅅㅓㄴ -1469
ㄱㅡㄱ -1470
ㅔㅇㅣㅅㅡ -1471
▁ㅂㅏㄹㅁㅐ -1472
▁ㅌㅔㄹ -1473
▁ㅎㅐㅆㅇㅡㄴㅏ -1474
▁ㅇㅟㅎㅏㄴ -1475
▁ㅇㅠㅈㅣ -1476
ol -1477
▁ㅌㅏㄱ -1478
▁ㅁㅐㄱ -1479
ㅏㄷㅗ -1480
▁ㅇㅗㄱ -1481
▁ㅂㅏㅇㅅㅣㄱ -1482
▁ㄴㅏㄹㅏ -1483
ㅇㅡㅇ -1484
▁ㅂㅏㄹㅅㅐㅇ -1485
ㅜㅂ -1486
▁000 -1487
▁ㅁㅏㅊㅏㄴ -1488
ㅂㅜㄱ -1489
▁ㅁㅏㅊㅏㄴㄱㅏㅈㅣ -1490
ㅠㄱ -1491
▁ㅈㅓㅇㅅㅣㄴ -1492
ㅋㅓㄹ -1493
▁ㄱㅕㄹㅈㅓㅇ -1494
▁ㅇㅣㅇㅓ -1495
▁ㅇㅕㅇㅎㅑㅇ -1496
ㄱㅏㄹ -1497
▁ㅌㅡㄱㅅㅜ -1498
▁ㅇㅗㅎㅣㄹ -1499
▁ㄱㅐㄱ -1500
ㅂㅜㅌㅓ -1501
▁ㄷㅐㅈㅓㄴ -1502
▁ㅇㅗㅎㅣㄹㅕ -1503
▁ㅊㅓ -1504
▁ㅇㅝㄹㄷㅡ -1505
ion -1506
▁ㅅㅣㅅㅡ -1507
ㅎㅘㄱ -1508
et -1509
▁ㅇㅣㅈㅔ -1510
▁ㅂㅕㄴㄱㅕㅇ -1511
▁ㅂㅣㄱㅛ -1512
▁ㅍㅗㅎㅏㅁ -1513
▁ㅇㅕㅇㅇㅜㅇ -1514
▁ㅈㅏㅇㅂㅣ -1515
▁ㄱㅣㅈㅗㄴ -1516
ac -1517
ㅇㅘㅇ -1518
▁ㅇㅕㄱㅎㅏㄹ -1519
ㅌㅣㅇ -1520
▁ㅅㅜㄹㅗㄱ -1521
▁ㅂㅐㅇㅜ -1522
▁ㄱㅔㄷㅏㄱㅏ -1523
ㅍㅗㄱ -1524
▁ㄱㅗㄴ -1525
ㄷㅓㄱ -1526
▁ㅉㅏ -1527
▁ㅂㅗㅌㅗㅇ -1528
▁ㅇㅓㄸㅓㄴ -1529
▁ㄸㅡㅅ -1530
▁ㅈㅏㄱㅈㅜㅇ -1531
▁32 -1532
▁ㅍㅡㄹㅏㅇ -1533
ㅔㅅㅡ -1534
▁ㄱㅏㅈㅣㄴ -1535
▁ㄱㅡㄹㅐㄷㅗ -1536
▁ㅁㅣㄷ -1537
▁ㄴㅏㄴㅇㅣ -1538
▁ㅁㅏㅇㅡㄹ -1539
▁ㅊㅏㄹㅑㅇ -1540
▁ㅇㅏㅇㅖ -1541
▁ㅈㅜㅇㅇㅛ -1542
▁ㄹㅣㄴ -1543
▁ㅇㅏㅁㅜㄹ -1544
▁ㅆㅓ -1545
▁ㅎㅕㅇㅌㅐ -1546
▁Y -1547
ㅂㅡㄹ -1548
▁ㅍㅜㅇ -1549
▁ㅇㅣㄹㄷㅏㄴ -1550
▁ㅁㅐㅇ -1551
▁ㅅㅓㅇㄱㅕㄱ -1552
▁ㄲㅐ -1553
▁ㅎㅐㅇㄷㅗㅇ -1554
ㅗㅅ -1555
▁ㅁㅏㅅ -1556
▁ㅇㅣㅂㅓㄴ -1557
▁ㅅㅣㅋㅕ -1558
▁ㅂㅓㄹㅕㅆ -1559
▁ㄴㅏㄴㅇㅣㄷㅗ -1560
▁ㅁㅗㅅㅎㅐㅆ -1561
▁ㅎㅚㄱ -1562
il -1563
▁ㅇㅣㄴㄱㅣ -1564
us -1565
▁ㅇㅡㅇ -1566
▁29 -1567
ㄱㅅㅡ -1568
▁ㅅㅔㅌㅡ -1569
ㅍㅜㅇ -1570
▁ㄱㅘㅈㅓㅇ -1571
▁ㅈㅜㅈㅏㅇ -1572
▁ㅂㅗㄴㅐ -1573
▁ㅁㅗㅇㅑㅇ -1574
▁ㅅㅜㅁ -1575
▁ㅇㅏㄹㅐ -1576
▁ㅎㅡㄱ -1577
ig -1578
▁v -1579
ㅊㅡㄱ -1580
▁ㅈㅕㅆ -1581
▁ㅍㅓ -1582
▁ㅅㅣㅁㅈㅣ -1583
▁ㅅㅣㄷㅐ -1584
ow -1585
▁ㅇㅡㅁㅇㅏㄱ -1586
▁ㅂㅜㅈㅗㄱ -1587
▁ㄷㅐㅎㅚ -1588
▁ㅃㅗㅂ -1589
▁ㅅㅐㄹ -1590
ed -1591
▁ㅊㅚㅊㅗ -1592
▁2013 -1593
▁ㅅㅣㅁㅈㅣㅇㅓ -1594
ㅁㅣㄴㄱㅜㄱ -1595
▁ㅅㅏㅎㅚ -1596
▁ㅎㅔㄹ -1597
▁ㅂㅜㄹㅡ -1598
▁ㄱㅜㅅㅓㅇ -1599
▁ㅍㅣㄱ -1600
▁ㅂㅣㅁ -1601
▁ㅇㅣㄹㅓㅎㄱㅔ -1602
▁ㅂㅏㄹㄷㅗㅇ -1603
▁ㅇㅘㅆ -1604
▁ㅇㅐㄴㅣㅁ -1605
▁ㅅㅡㄹㄹ -1606
ㅓㅇㅜㄴ -1607
▁ㅁㅏㅁ -1608
▁ㅂㅏㄲㅟ -1609
▁ㅇㅣㅂㅈㅏㅇ -1610
▁ㅍㅖ -1611
▁ㄷㅡㄹㅇㅓㅇ -1612
▁ㅇㅣㄹㅓ -1613
▁ㅎㅘㄱㅇㅣㄴ -1614
▁ㅇㅠㅇㅣㄹ -1615
▁ㅅㅔㄹ -1616
▁l -1617
▁ㅎㅣㅁㄷㅡㄹ -1618
▁ㅅㅠㅍㅓ -1619
▁ㄱㅓㄱㅣ -1620
ㅁㅏㄱ -1621
ㅎㅟ -1622
▁ㅎㅜㄴ -1623
▁ㅇㅛㄱ -1624
▁ㅎㅡㄴ -1625
▁ㅅㅏㅈㅣㄴ -1626
▁ㅁㅝ -1627
▁ㅁㅓㄴㅈㅓ -1628
▁ㄷㅡㄹㅐㄱ -1629
▁x -1630
▁ㅊㅐㅇ -1631
▁60 -1632
▁ㅎㅏㅇㅁㅗㄱ -1633
▁ㅎㅘㄹㅇㅑㄱ -1634
▁ㅇㅕㄷㅏㅁ -1635
ㅊㅜㅇ -1636
ㅣㄴㅏ -1637
▁ㅈㅗㄱㅓㄴ -1638
▁ㅂㅐㅇ -1639
▁ㅁㅗㄷㅔㄹ -1640
▁ㄱㅜㅁ -1641
▁ㅈㅏㅅㅔ -1642
▁ㄷㅡㄱ -1643
ㅇㅖ -1644
▁ㄷㅗㄹㅇㅏㅇ -1645
▁ㅇㅝㄴㅈㅏㄱ -1646
▁ㅈㅣㄴㅏ -1647
ㄱㅕㅆ -1648
▁ㄷㅓㄱㅂㅜㄴ -1649
▁35 -1650
▁ㄱㅕㄴ -1651
▁ㄹㅗㄱ -1652
▁ㅅㅣㅅㅡㅌㅔㅁ -1653
▁ㅇㅘㄴㅈㅓㄴㅎㅣ -1654
ㅌㅚ -1655
▁ㄱㅚㅇ -1656
ㅁㅗㄴ -1657
▁ㄷㅐㅎㅏㄴㅁㅣㄴㄱㅜㄱ -1658
▁ㅊㅏㅈㅣ -1659
id -1660
▁ㄱㅡㄹㅐㅅㅓ -1661
▁ㅈㅜㅂㅕㄴ -1662
▁Lv -1663
▁ㅎㅏㅂㄴㅣㄷㅏ -1664
▁ㅇㅓㅇㅑ -1665
▁ㅁㅔㅇㅣ -1666
▁ㄹㅐ -1667
▁ㅈㅘ -1668
▁ㄱㅐㄹ -1669
▁ㅇㅏㄷㅡㄹ -1670
ㅏㅁㅣ -1671
▁ㅇㅓㄹㅕㅇ -1672
ㅍㅡㅌㅡ -1673
▁ㅇㅣㅅ -1674
▁ㅋㅏㅇ -1675
▁ㅊㅐㅁ -1676
ㄹㅣㄴㄷㅏ -1677
▁ㅅㅜㄴㄱㅏㄴ -1678
▁ㄷㅗㄱㅇㅣㄹ -1679
▁ㅁㅕㅇㅊㅣㅇ -1680
▁ㄹㅏㅁㅕ -1681
ay -1682
▁ㄱㅏㅁㅅㅗ -1683
▁ㄸㅏㄹㅡ -1684
▁ㅇㅓㄹㄱㅜㄹ -1685
▁ㅁㅜㄷ -1686
▁ㅈㅓㄴㅎㅕ -1687
▁ㅍㅡㄹㅣ -1688
▁ㅈㅏㅇㅠ -1689
▁2012 -1690
ad -1691
▁ㅇㅐㄴㅣㅁㅔㅇㅣㅅㅕㄴ -1692
▁ㄱㅕㅇㅊㅏㄹ -1693
▁ㅇㅣㅀ -1694
ㅈㅡㅁ -1695
ㅊㅣㄱ -1696
▁ㅌㅡㄱㅈㅣㅇ -1697
▁ㅈㅏㄷㅗㅇ -1698
ㄱㅏㅂ -1699
▁01 -1700
ㄱㅟ -1701
▁ㅈㅓㄱㅇㅛㅇ -1702
▁ㅎㅐㄱ -1703
ㅂㅗㄹ -1704
▁ㄱㅛㅇㅠㄱ -1705
ㅂㅓㅅㅡ -1706
▁ㄱㅚㅇㅈㅏㅇ -1707
▁ㄲㅡㄹ -1708
▁ㄱㅏㄱㅕㄱ -1709
▁ㅇㅕㅇㅇㅓ -1710
▁ㅁㅠ -1711
▁r -1712
▁ㄱㅗㄷㅡㅇ -1713
▁ㄷㅓㄹㅏㄷㅗ -1714
▁ㄲㅜㅁ -1715
▁ㄹㅕㄴ -1716
ㄹㅏㅇ -1717
ㅜㄹㅏ -1718
▁ㅌㅏㅁ -1719
ㅣㄴㅌㅡ -1720
▁ㅍㅐㅂㅐ -1721
▁of -1722
▁ㄷㅡㄹㅐㄱㅗㄴ -1723
▁ㅇㅏㄱㅜㄴ -1724
▁ㅅㅣㄹㅍㅐ -1725
▁ㄹㅓㅅ -1726
▁ㅈㅣㅅ -1727
▁ㄷㅔㅂ -1728
▁ㄱㅡㄹㅓㅎㄱㅔ -1729
▁ㄱㅣㄱㅏㄴ -1730
▁ㅁㅏㅅㅡㅌㅓ -1731
ㅅㅗㄷㅡ -1732
ㅆㅓ -1733
▁ㄷㅗㅇㅜㅁ -1734
▁ㅌㅐㄱ -1735
ㄲㅣ -1736
▁ㄱㅐㅇㅣㄴ -1737
▁ㄷㅠ -1738
▁ㅅㅡㅁ -1739
▁ㄷㅔㅇㅣ -1740
▁ㅇㅐㄹㅂㅓㅁ -1741
ot -1742
▁ㅇㅜㅈㅜ -1743
▁ㅅㅐㅇㅅㅏㄴ -1744
▁ㄱㅓㄴㅁㅜㄹ -1745
▁ㅎㅏㄴㄷㅏㄱㅗ -1746
▁ㅅㅣㅈㅓㅁ -1747
ve -1748
▁ㅈㅛ -1749
and -1750
▁ㄱㅡㄴㅏㅁㅏ -1751
▁ㅅㅣㄹㄹㅕㄱ -1752
▁ㅅㅐㄹㅗㅇㅜㄴ -1753
▁ㅎㅗㄱㅇㅡㄴ -1754
▁ㅈㅣㅅㅗㄱ -1755
▁ㅅㅏㅇㅅㅡㅇ -1756
▁ㄹㅐㅇ -1757
ㅈㅜㅇㅢ -1758
▁ㅂㅏㄲㅇㅔ -1759
▁ㄱㅣㄴㅡㅇ -1760
▁ㄱㅘㄴㄹㅣ -1761
▁ㅊㅓㄹㅣ -1762
▁ㅈㅓㅇㅂㅜ -1763
▁ㅈㅏㄱㄱㅏ -1764
▁ㅇㅗㅂㅡ -1765
▁ㄱㅣㅇㅓㄱ -1766
▁ㄷㅔㄱ -1767
ㄷㅣㅇㅗ -1768
▁TV -1769
▁ㅎㅚㄱㄷㅡㄱ -1770
▁ㅂㅏㄹㄱㅕㄴ -1771
▁ㅍㅐㅊㅣ -1772
▁ㅂㅜㄷㅐ -1773
▁ㅇㅔㅍㅣ -1774
ㄷㅓㄴ -1775
▁ㅂㅏㄴㅇㅡㅇ -1776
▁y -1777
▁ㅋㅞ -1778
▁ㅍㅣㅇ -1779
ㅊㅏㄶ -1780
▁ㅈㅔㄱㅜㄱ -1781
ㅣㄹㅣ -1782
▁ㅈㅓㅇㅎㅘㄱ -1783
▁ㅅㅗㄱㅐ -1784
▁ㅋㅓㅂ -1785
▁ㄱㅡㄹㅣㅁ -1786
ㅗㄴㅡㄴ -1787
▁ㅊㅏㅁㅈㅗ -1788
▁ㅁㅏㄴㅎㅘ -1789
▁ㅇㅕㅇㄱㅜㄱ -1790
▁ㄷㅗㅇㅇㅣㄹ -1791
▁ㅇㅟㅎㅐㅅㅓ -1792
▁ㄹㅓㄴ -1793
20 -1794
▁ㄸㅏㄱ -1795
▁ㅁㅏㅇㅣ -1796
▁ㄷㅐㅎㅏㄱㄱㅛ -1797
ㄹㅣㅁ -1798
▁ㅅㅓㄴㅂㅏㄹ -1799
▁ㅎㅏㅇㅣ -1800
▁ㅂㅔㄴ -1801
▁ㅂㅏㄴㄷㅐ -1802
▁ㄱㅜㄱㄴㅐ -1803
▁ㅇㅓㄷㅗ -1804
▁ㅈㅗㅊㅏ -1805
▁ㄹㅑㅇ -1806
ㅈㅣㅁ -1807
▁ㅅㅏㄹㅏ -1808
▁ㅇㅓㅇ -1809
▁ㄷㅏㅁㄷㅏㅇ -1810
▁ㅇㅜㅅ -1811
ch -1812
▁ㄹㅔㄴ -1813
▁ㅊㅜㄹㅅㅣ -1814
▁ㄱㅖㅎㅚㄱ -1815
▁ㅇㅔㅍㅣㅅㅗㄷㅡ -1816
ㄱㅗㅅ -1817
▁ㄱㅣㄱㅘㄴ -1818
▁ㅎㅓㄴ -1819
▁ㅅㅣㅂ -1820
▁ㅊㅗㄱㅣ -1821
ㅣㄱㅅㅡ -1822
ㅗㅁ -1823
▁ㄱㅡㄹㅣ -1824
▁ㅂㅏㅁ -1825
▁ㅅㅔㄷㅐ -1826
▁ㅍㅡㄹㅗㄱ -1827
▁ㄷㅏㄴㄱㅖ -1828
▁ㄷㅡㄹㅏㅁㅏ -1829
▁ㅍㅏㅇㅣ -1830
▁ㅎㅕㄴㄷㅐ -1831
▁ㄹㅏㄱ -1832
▁ㅇㅜㅁㅈㅣㄱ -1833
▁ㅍㅔㄹ -1834
▁ㄷㅏㅁㅕ -1835
▁ㅎㅏㄴㅌㅔ -1836
▁ㅈㅣㄱㅜ -1837
un -1838
▁ㅇㅓㄹㅕ -1839
▁ㄸㅗㄴㅡㄴ -1840
▁ㄹㅏㅅㅓ -1841
▁ㅂㅓㅁㅇㅟ -1842
ㅎㅗㄱ -1843
ㅔㅇㅣㄴ -1844
▁ㅎㅏㄹㅜ -1845
ㅐㅆ -1846
▁ㅌㅏㅇㅣㅂ -1847
▁ㄹㅡ -1848
ㅕㅅㅓ -1849
▁ㅌㅚ -1850
ㄹㅣㅇㅏ -1851
▁ㄴㅗㅁ -1852
▁ㅎㅐㅆㅇㅡㅁㅕ -1853
▁ㅌㅔㄴ -1854
▁37 -1855
▁ㅂㅓㅍㅡ -1856
▁ㄹㅗㄴ -1857
ㅇㅕㅁ -1858
ㅅㅗㄹㅣ -1859
▁ㅅㅣㅊㅓㅇ -1860
▁The -1861
▁ㅁㅔㄴ -1862
▁2010 -1863
▁ㅆㅏ -1864
ㅅㅐ -1865
▁ㅁㅏㄹㅣ -1866
BS -1867
▁ㄷㅏㄴㅣ -1868
▁ㅍㅐㅌㅓㄴ -1869
▁ㅆㅏㅇㅜ -1870
ㅗㅇㅣ -1871
▁g -1872
▁ㅃㅏㄹㅡ -1873
ㄹㅣㄹ -1874
▁ㅍㅗㄱㅂㅏㄹ -1875
▁ㅅㅏㅇㅇㅟ -1876
▁ㅇㅏㅁㅜ -1877
▁ㄴㅏㅇㅘ -1878
▁ㅍㅛㅎㅕㄴ -1879
▁ㅅㅣㄱㅣ -1880
ㅁㅕ -1881
▁ㄸㅏㄹㅏㅅㅓ -1882
▁ㄷㅡㅇㄱㅡㅂ -1883
▁ㄷㅐㅁㅣㅈㅣ -1884
ㅎㅕㅆ -1885
ㅇㅓㅄㅇㅣ -1886
▁ㅅㅣㄹㅈㅔ -1887
ㅋㅣㅇ -1888
▁ㅁㅜㄴㅎㅘ -1889
▁ㅇㅓㄷㅣ -1890
▁ㅎㅘㄱㅅㅣㄹ -1891
▁80 -1892
▁ㅇㅓㄸㅓㅎㄱㅔ -1893
▁ㅌㅏㅇㅣㅁ -1894
▁500 -1895
▁ㄹㅏㅇㅜㄴㄷㅡ -1896
ㅎㅣㄴ -1897
▁ㅁㅜㄹㄹㅣ -1898
▁ㄱㅚㅇㅈㅏㅇㅎㅣ -1899
▁ㅇㅗㅂ -1900
▁ㅎㅚㅅㅏ -1901
▁St -1902
▁ㅇㅣㄴㅈㅓㅇ -1903
▁ㅈㅜㄱㅇㅣ -1904
▁ㅇㅣㅁㅣㅈㅣ -1905
▁45 -1906
ㅜㄹㅡ -1907
▁ㅅㅏㄱㅗ -1908
▁ㄱㅕㅇㅎㅓㅁ -1909
▁ㄱㅓㅂ -1910
▁ㅃㅐ -1911
▁ㄱㅏㅈㅗㄱ -1912
▁ㅇㅛㄱㅜ -1913
ㄱㅌㅡ -1914
▁ㅇㅏㅇㅑ -1915
ER -1916
▁ㄴㅓㅁㅇ -1917
▁ㅅㅐㅇㅎㅘㄹ -1918
▁ㅈㅜㅇㅢ -1919
▁ㄹㅕㄴㅡㄴ -1920
▁09 -1921
ㅁㅕㄹ -1922
▁ㅁㅗㅅㅎㅏㄴ -1923
▁ㅁㅛㅅㅏ -1924
▁ㅈㅐㄱ -1925
ㅌㅔㄴ -1926
▁* -1927
ㅣㅇㅓㄹ -1928
▁ㅌㅡㄱㅂㅕㄹ -1929
▁ㅎㅘㄹㅇㅛㅇ -1930
ㅈㅚ -1931
ㅔㅇㅣㅋㅡ -1932
▁ㅈㅝㅆ -1933
▁ㅈㅜㅇㅇㅏㅇ -1934
▁ㅍㅕㄹ -1935
▁ㅎㅗㄴㅈㅏ -1936
▁ㅁㅔㄹ -1937
ㅈㅏㅇㅣㄴ -1938
▁ㅇㅗㄹㅐ -1939
▁ㄴㅏㅃ -1940
▁02 -1941
▁ㅂㅏㅇㅎㅑㅇ -1942
▁03 -1943
dd -1944
▁ㄷㅣㅈㅏㅇㅣㄴ -1945
▁ㄷㅡㅅㅇㅣ -1946
▁197 -1947
▁ㅈㅣㄴㅊㅜㄹ -1948
▁ㅇㅡㄹㅗㅅㅓ -1949
▁ㅇㅜㄴㄷㅗㅇ -1950
▁km -1951
▁ㅊㅏㄴ -1952
▁ㅆㅏㅇㅜㅁ -1953
▁ㅎㅏㄴㅈㅓㅇ -1954
▁ㅈㅜㅇㄱㅏㄴ -1955
▁ㄱㅙ -1956
▁ㅌㅗㄴ -1957
▁ㅌㅜㅇ -1958
ㅅㅣㅇ -1959
▁ㄷㅔㅂㅟ -1960
ㅏㅂ -1961
▁ㄱㅡㄹㅜㅂ -1962
▁ㅌㅗㄹ -1963
▁ㅇㅓㄹㅕㅂ -1964
▁ㅅㅐㅇㅁㅕㅇ -1965
▁ㄹㅗㄹ -1966
ㅇㅣㄴㅁㅜㄹ -1967
ㄲㅡㄹ -1968
▁ㅈㅔㅎㅏㄴ -1969
▁ㅈㅓㅇㅊㅣ -1970
ㅌㅔㄹ -1971
ㅏㅇㅣㄹ -1972
▁ㅍㅗㅇㅣㄴㅌㅡ -1973
▁2011 -1974
ㅍㅡㄴ -1975
▁ㅇㅔㄴㄷㅣㅇ -1976
▁ㄷㅏㅇㅇㅕㄴㅎㅣ -1977
ㅊㅣㄹ -1978
▁ㅂㅜㄹㄹㅣ -1979
▁ㅍㅏㅇㅝ -1980
ㅡㄹㅐㅁ -1981
▁ㅈㅜㄴㅂㅣ -1982
▁ㅇㅔㅇㅣ -1983
▁ㅇㅏㅈㅜ -1984
▁ㅇㅓㄹㅣㄴ -1985
ㅍㅣㄱ -1986
▁ㅇㅟㅎㅓㅁ -1987
ㅜㄱㅣ -1988
▁ㅅㅡㅌㅔㅇㅣㅈㅣ -1989
ff -1990
▁ㅇㅕㅍ -1991
▁ㅍㅡㄹㅏㅇㅅㅡ -1992
▁ㅂㅏㄺㅎㅕ -1993
▁ㅎㅕㄴㅅㅣㄹ -1994
ㅉㅏㄱ -1995
▁ㅎㅜㅂㅗ -1996
▁ㄱㅣㅇㅔ -1997
ㅇㅓㄴㅏㄴ -1998
ㅆㅣㄴ -1999
▁ㅋㅏㅁ -2000
▁ㅅㅣㅈㅏㅇ -2001
▁ㅇㅓㅁㅊㅓㅇㄴㅏㄴ -2002
ㅏㅆ -2003
ㅍㅗㄴ -2004
ㄷㅏㅂ -2005
▁ㄷㅡㅇㅈㅏㅇㅇㅣㄴㅁㅜㄹ -2006
▁ㅈㅗㅎㅏㅂ -2007
▁ㅍㅐㄱ -2008
▁ㄴㅗㄴㄹㅏㄴ -2009
▁ㅈㅚ -2010
ir -2011
▁05 -2012
▁ㅇㅏㄴㅌㅏ -2013
ㄷㅓㅁ -2014
▁ㅅㅜㄴㅇㅟ -2015
▁ㅁㅜㅈㅏㅇ -2016
ㅌㅗㅇㄹㅕㅇ -2017
▁ㄱㅡㅇ -2018
ㅋㅏㄹ -2019
▁ㄷㅓㅇㅜㄱ -2020
▁ㅍㅔㄴ -2021
▁ㅇㅑㄱㅜ -2022
▁ㅇㅒ -2023
▁ㅈㅣㄴㅉㅏ -2024
ㅁㅗㅅ -2025
ㅎㅛ -2026
▁ㅇㅓㅁㅓㄴㅣ -2027
ㅗㅅㅡ -2028
▁ㅎㅡㅂ -2029
▁ㅁㅣㅅㅕㄴ -2030
▁ㅅㅣㅀ -2031
▁ㅇㅠㄹㅣ -2032
▁ㅂㅜㄴㅇㅟ -2033
▁ㄱㅙㄴ -2034
▁ㅅㅏㅅㅣㄹㅅㅏㅇ -2035
▁ㄸㅓㄹㅇㅓㅈㅣ -2036
▁ㅋㅐㄴ -2037
▁Z -2038
▁ㄱㅏㅆ -2039
▁ㅍㅛㄱㅣ -2040
▁ㅆㅗ -2041
▁ㅋㅞㅅㅡㅌㅡ -2042
os -2043
▁( -2044
▁ㅂㅣㅍㅏㄴ -2045
▁ㄷㅏㄴㅅㅜㄴ -2046
ㅅㅏㄱ -2047
▁ㄱㅗㄷㅡㅇㅎㅏㄱㄱㅛ -2048
▁08 -2049
▁ㅇㅣㄹㅇㅓㄴㅏ -2050
▁ㅇㅏㅋ -2051
▁70 -2052
▁90 -2053
▁ㅂㅜㄴㅇㅟㄱㅣ -2054
▁ㅂㅡㄹㄹㅐㄱ -2055
▁ㄱㅖㅇㅑㄱ -2056
▁ㄱㅜㅈㅗ -2057
▁ㅊㅏㅁㅇㅕ -2058
▁ㅎㅏㄱㄴㅕㄴ -2059
ㅆㅣ -2060
▁ㅎㅡㅇ -2061
▁ㅎㅝㄹ -2062
▁07 -2063
im -2064
▁ㅇㅕㅁ -2065
▁ㅇㅑㄱㄱㅏㄴ -2066
ㅇㅡ -2067
▁ㄷㅐㅌㅗㅇㄹㅕㅇ -2068
▁ㅈㅜㅇㅅㅣㅁ -2069
ㅇㅏㅂ -2070
▁ㄷㅗㅇㄹㅛ -2071
▁ㅈㅗㅅㅓㄴ -2072
▁ㅊㅟㄱㅡㅂ -2073
▁ㄹㅣㅇㅋㅡ -2074
▁ㅌㅜㅅㅜ -2075
ㅏㅇㅘ -2076
▁... -2077
ㄹㅣㅅㅡ -2078
ㅇㅓㄹㅕㄱ -2079
▁ㅂㅏㅇㅇㅓㄹㅕㄱ -2080
ㅁㅔ -2081
▁ㅂㅓㄱ -2082
▁ㄱㅕ -2083
▁ㅇㅏㅁㅏ -2084
▁ㅇㅡㅁㅡㄹㅗ -2085
▁ㄸㅗㄱ -2086
▁ㅈㅣㄱㅇㅓㅂ -2087
▁ㅈㅡㄹ -2088
▁ㅇㅕㄴㄱㅣ -2089
ㅝㅅㅓ -2090
▁ㅂㅓㄹㅣㄴㄷㅏ -2091
▁ㅍㅡㄹㅗㄱㅡㄹㅐㅁ -2092
▁ㄷㅐㅎㅐㅅㅓ -2093
▁48 -2094
ㅇㅠㄱ -2095
▁ㅎㅝㄹㅆㅣㄴ -2096
▁ㅁㅣㄴㅈㅜ -2097
▁ㅇㅕㅈㅓㄴㅎㅣ -2098
▁ㄱㅕㄹㅎㅗㄴ -2099
▁ㅌㅏㅅ -2100
▁HP -2101
▁ㄹㅣㅁ -2102
ㄱㅠㄴ -2103
▁ㅈㅏㅁㅕㄴ -2104
ㄴㅔ -2105
▁ㅋㅔㄴ -2106
▁ㄱㅜㄱㅏㄴ -2107
▁ㄱㅖㅇㅕㄹ -2108
ter -2109
▁ㄷㅏㅇㅑㅇ -2110
▁ㅇㅟㅇㅝㄴ -2111
▁ㄴㅏㅁㅓㅈㅣ -2112
▁ㅅㅣㄷㅗ -2113
▁ㅅㅓㄹㅊㅣ -2114
▁ㅇㅔㄴㅈㅣㄴ -2115
▁ㄷㅓㅁ -2116
▁ㅈㅓㄴㅇㅛㅇ -2117
ㅇㅝㄹ -2118
▁ㅂㅏㅇㅁㅕㄴ -2119
ㅎㅕㄱ -2120
▁ㅂㅜㄹㄱㅜ -2121
▁06 -2122
▁ㅂㅗㅇㅕㅆ -2123
▁ㄹㅐㄴ -2124
ㄹㅡ -2125
▁ㄱㅣㄷㅐ -2126
▁ㅅㅡㅌㅡㄹ -2127
▁ㅇㅣㄺ -2128
▁ㄷㅏㄱ -2129
▁ㅈㅜㅇㅛ -2130
▁ㅅㅓㅇㅈㅓㄱ -2131
▁ㅋㅓㄹ -2132
▁ㅁㅔㅇㅣㄴ -2133
▁ㅇㅣㄹㅈㅓㅇ -2134
▁2000 -2135
▁ㄷㅗㄹㅇㅏㄱㅏ -2136
▁ㅎㅣㄹㅗ -2137
ㅌㅣㄴ -2138
▁ㅂㅗㅅㅏㅇ -2139
▁mm -2140
▁ㅁㅗㄱㅈㅓㄱ -2141
ㅇㅏㅁ -2142
▁ㄱㅏㅇㅎㅏㄴ -2143
▁ㅇㅕㄴㅅㅗㄱ -2144
▁300 -2145
▁ㄷㅗㅁㅏㅇ -2146
▁ㅂㅏㄹㅅㅏ -2147
▁ㄱㅜㄷ -2148
ㅁㅣㄹ -2149
▁ㅅㅗㄴㅕ -2150
▁33 -2151
▁ㅅㅜㅈㅓㅇ -2152
▁ㅁㅜㅅㅣ -2153
▁ㄴㅏㅁㅜ -2154
ㅔㄹㅏ -2155
ㅂㅣㄴ -2156
▁ㅂㅓㄹㅣㄴ -2157
ur -2158
▁ㅅㅗㅁㅗ -2159
▁ㅅㅔㄹㅕㄱ -2160
▁ㅊㅜㄱㄱㅜ -2161
▁ㄱㅗㄷ -2162
▁ㅅㅜㅂㅣ -2163
▁ㅅㅓㅇㅈㅏㅇ -2164
▁ㄹㅠㄹ -2165
▁ㅋㅐㅁ -2166
▁04 -2167
▁ㅂㅕㄱ -2168
ㅋㅣㄴ -2169
▁ㅈㅏㄹㅁㅗㅅ -2170
ㅊㅕㅆ -2171
▁ㅌㅡㅇ -2172
▁ㅅㅏㅁㅅㅓㅇ -2173
▁ㅊㅕ -2174
▁ㅁㅓㅅ -2175
▁ㅅㅔㅇㅣ -2176
▁ㅂㅜㅅㅏㄴ -2177
▁36 -2178
▁ㅈㅣㅎㅏ -2179
▁ㅈㅗㅇㄹㅠ -2180
▁ㄷㅐㅎㅘ -2181
▁ㄱㅏㄱㄱㅏㄱ -2182
▁ㅂㅐㄹ -2183
ㅊㅓㄱ -2184
▁ㅂㅗㅎㅗ -2185
ㅅㅜㅇ -2186
▁ㅇㅓㄴㅈㅔ -2187
ㅅㅡㄹㅗ -2188
▁ㅈㅣㅂㅏㅇ -2189
▁ㄹㅗㅂㅗ -2190
ㅋㅗㄴ -2191
▁e -2192
▁ㅂㅓㅅ -2193
ㅊㅡㅇ -2194
▁ㄱㅗㄹㅕ -2195
▁ㅎㅐㄱㅕㄹ -2196
▁ㅍㅣㄴ -2197
▁ㅂㅗㅇㅕㅈㅜㄴ -2198
▁ㄷㅏㅇㅅㅣㄴ -2199
ㄱㅐㄱ -2200
▁ㅇㅣㄹㅎㅐㅇ -2201
od -2202
▁ㅇㅢㄱㅕㄴ -2203
ㅎㅖ -2204
▁ㅌㅟ -2205
ㅏㄹㅏ -2206
▁ㅇㅡㅁㅕㄴㅅㅓ -2207
ㅌㅓㅂ -2208
▁ㅌㅡㄹㅣ -2209
▁ㅇㅣㅂㄴㅣㄷㅏ -2210
ㄹㅛㅇ -2211
ㅈㅣㄹㅏ -2212
▁ㅍㅔㅇㅣ -2213
▁ㅂㅏㄹㅍㅛ -2214
ㅍㅡㄹㄹ -2215
▁ㄱㅏㅅㅡ -2216
ㅔㄱ -2217
ㄹㅜ -2218
▁th -2219
▁ㅂㅜㅅㅏㅇ -2220
ㄷㅜㅇ -2221
▁ㅊㅏㅁㄱㅏ -2222
ㅎㅕㄹ -2223
▁ㅇㅗㄹㅣ -2224
▁ㅈㅓㄴㅅㅓㄹ -2225
▁ㅍㅗㅋㅔㅅ -2226
▁ㄴㅡㄲㅣㅁ -2227
▁ㅇㅗㄹㄹㅣ -2228
▁ㄹㅔㅇㅣㄴ -2229
▁ㅁㅏㅈㅓ -2230
ag -2231
▁ㅍㅡ -2232
▁ㅋㅠ -2233
▁ㅈㅓㄴㅁㅜㄴ -2234
ㅈㅣㅅㅕㄴ -2235
▁ㄱㅓㄷㅐ -2236
▁ㅉㅏㄼ -2237
▁you -2238
▁ㅇㅖㅈㅓㅇ -2239
▁ㅇㅣㄹㅇㅡ -2240
▁ㄴㅕ -2241
▁ㅂㅏㅇㅇㅕㅇ -2242
▁ㄷㅏㅇㅜㄴ -2243
ㅎㅕㅂ -2244
▁ㄸㅏ -2245
▁ㄱㅏㅂㅈㅏㄱ -2246
ㅂㅏㄷ -2247
▁ㄲㅡㄶ -2248
ㄱㅏㅌ -2249
▁ㅍㅏㄴㅁㅐ -2250
▁ㅈㅗㅇㅈㅗㄱ -2251
▁ㅂㅓㄹㅇㅓ -2252
▁ㅅㅔㄴㅌㅓ -2253
▁ㅇㅣㅎㅐ -2254
▁ㄷㅔㄹ -2255
▁ㅂㅐㅌㅡㄹ -2256
▁ㄱㅘㅎㅏㄱ -2257
▁ㅈㅗㅇㄹㅛ -2258
▁ㅇㅜㄴㅎㅐㅇ -2259
▁ㅈㅜㄱㅇㅡㅁ -2260
▁ㅅㅗㅅㅓㄹ -2261
▁ㅂㅜㅎㅘㄹ -2262
▁ㅊㅜㅇㅂㅜㄴ -2263
▁ㄷㅗㅈㅜㅇ -2264
▁ㄱㅡㄴㅈㅓㅂ -2265
ㅣㄴㅓㄹ -2266
▁ㄱㅏㄱㅅㅓㅇ -2267
▁ㅇㅗㄹㅡㄴ -2268
▁ㅁㅏㄴㄷㅡ -2269
▁ㅂㅘㅆ -2270
▁FC -2271
ub -2272
▁ㅈㅣㅋ -2273
▁ㅊㅚㄱㅡㄴ -2274
▁ㅂㅐㅊㅣ -2275
▁ㅈㅏㅇㅊㅏㄱ -2276
▁ㄱㅜㄱㅁㅣㄴ -2277
▁ㅊㅓㄱ -2278
▁ㅇㅏㅇㅣㄷㅗㄹ -2279
▁ㅅㅔㅅㅏㅇ -2280
▁ㅈㅗㅅㅏ -2281
ㅏㅇㅗ -2282
ㄷㅔㅇㅣㅌㅡ -2283
▁ㄴㅏㅈㅜㅇ -2284
▁ㅇㅏㄴㅈㅓㅇ -2285
ㅠㄴ -2286
▁ㅇㅓㅂㄷㅔㅇㅣㅌㅡ -2287
▁ㅈㅓㄴㅈㅏㄱ -2288
ㅅㅡㅋㅡ -2289
ㅍㅣㅇㅓㄴ -2290
▁ㅈㅓㄹㄷㅐ -2291
▁ㄷㅡㄹㅇㅓㄱ -2292
▁ㅋㅡㄹㅣㅅㅡ -2293
▁ㅅㅡㅅㅡㄹㅗ -2294
▁ㅈㅔㄱㅗㅇ -2295
▁cm -2296
▁SK -2297
ㅈㅜㄹ -2298
▁ㅈㅓㅁㅅㅜ -2299
▁ㅎㅏㅇㄱㅗㅇ -2300
▁ㅈㅓㅇㅅㅏㅇ -2301
igh -2302
▁ㅈㅔㅁㅗㄱ -2303
ㄹㅏㅆ -2304
▁ㅊㅜㅇㄱㅕㄱ -2305
▁ㅈㅏㅇㅕㄴ -2306
▁ㄷㅏㄹㅅㅓㅇ -2307
ㄱㅗㄹ -2308
ㅊㅜㄴ -2309
▁ㅇㅗㅅ -2310
▁ㅂㅓㄴㅎㅗ -2311
ㅇㅛㄱ -2312
▁ㅋㅡㄹㅗ -2313
▁ㅅㅔㅁ -2314
▁ㅊㅐㅁㅍㅣㅇㅓㄴ -2315
▁ㅊㅜㅈㅓㅇ -2316
ㅊㅐ -2317
▁ㅈㅏㄱㅈㅓㄴ -2318
ver -2319
▁ㄴㅏㅌㅏㄴㅏ -2320
ㅌㅣㅂㅡ -2321
▁ㅂㅐㄱㅕㅇ -2322
ㅊㅏㅁ -2323
▁ㅅㅓㅅ -2324
▁ㅈㅣㄷㅗ -2325
▁ㅂㅓㄴㅇㅕㄱ -2326
▁ㄸㅗㄱㄱㅏㅌ -2327
▁ㅂㅣㅎㅐㅇ -2328
▁ㅁㅗㄱㅅㅗㄹㅣ -2329
ㅂㄴㅣㄷㅏ -2330
▁ㅈㅗㅈㅣㄱ -2331
▁ㅈㅓㅇㅊㅔ -2332
▁ㄱㅏㄲㅡㅁ -2333
▁ㅍㅜㅁ -2334
ak -2335
ent -2336
▁ㅅㅏㅇㅣㅌㅡ -2337
▁ㅁㅗㄱㄹㅗㄱ -2338
▁ㄱㅠㅁㅗ -2339
▁ㅎㅓㅇ -2340
▁ㅇㅛㅅㅗ -2341
▁ㅍㅗㅋㅔㅅㅁㅗㄴ -2342
ㅇㅝ -2343
▁ㄷㅏㅇㅎㅐㅆ -2344
ㅘㄹ -2345
▁ㄴㅏㅁㅅㅓㅇ -2346
ㄱㅓㅁ -2347
▁196 -2348
▁ㄹㅔㅇㅓ -2349
▁34 -2350
▁ㅅㅓㄴㄱㅓ -2351
ㅁㅐㅇ -2352
▁ㅎㅜㄴㄹㅕㄴ -2353
▁ㅊㅜㄹㅈㅓㄴ -2354
▁ㅇㅏㄱㅁㅏ -2355
ㅛㅇㅠㄹ -2356
▁ㄱㅗㅇㅈㅜㅇ -2357
▁ㅁㅣㄹㅐ -2358
▁ㅈㅓㄴㅅㅏ -2359
▁ㅌㅏㄱㅕㄱ -2360
▁ㅅㅡㅌㅏㅇㅣㄹ -2361
▁ㄱㅕㅇㅈㅔ -2362
▁ㄸㅓㄴㅏ -2363
▁ㄹㅗㅂㅜㅌㅓ -2364
▁ㅁㅏㄴㅇㅑㄱ -2365
▁ㅅㅡㄴ -2366
▁ㅂㅜㄴㄴㅗ -2367
▁ㄴㅜㄱㅜ -2368
▁ㄱㅙㄴㅊㅏㄶ -2369
▁ㅁㅜㄹㅣ -2370
▁ㄷㅟㅅ -2371
▁ㅇㅗㄹㄹㅏㄱㅏ -2372
▁ㅂㅜㄹㄹㅓ -2373
▁ㅋㅡㄹㄹㅐ -2374
▁ㄹㅗㅅ -2375
▁ㄱㅏㅇㅎㅏ -2376
▁ㄷㅜㄴ -2377
▁ㅅㅏㄴㅑㅇ -2378
▁ㅂㅕㄴㅎㅘ -2379
▁ㅅㅐㅇㅈㅗㄴ -2380
▁ㄱㅡㅁㅏㄴ -2381
▁ㅎㅕㄹ -2382
▁ㅇㅔㄴㅓㅈㅣ -2383
▁ㅎㅗㅁㄹㅓㄴ -2384
▁ㅍㅗㅈㅣㅅㅕㄴ -2385
▁ㅈㅓㄴㅊㅏ -2386
▁ㅅㅣㄴㄱㅕㅇ -2387
▁ㄷㅗㅇㅁㅜㄹ -2388
um -2389
▁ㅎㅜㅇ -2390
▁ㅇㅐㅊㅗ -2391
▁ㅎㅐㅆㅇㅓㅆ -2392
▁ㅎㅡㄹ -2393
▁ㅈㅏㄹㅏㅇ -2394
▁ㅋㅡㄹㄹㅣㅇㅓ -2395
▁ㄷㅡㄱㅈㅓㅁ -2396
▁ㅎㅏㄴㄷㅔ -2397
▁ㄷㅓㅂㅜㄹ -2398
ㅇㅕㅆ -2399
BC -2400
▁ㅇㅒㄱㅣ -2401
▁ㅅㅕㄴ -2402
ㅍㅏㅇ -2403
▁ㅅㅜㅅㅏㅇ -2404
▁ㅇㅛㄹㅣ -2405
▁ㅇㅕㄴㄱㅕㄹ -2406
ㅈㅜㄱ -2407
▁ㅍㅏㅌㅣ -2408
▁ㄸㅡ -2409
▁ㅈㅐㄹ -2410
ㄹㅕㄹ -2411
▁ㄷㅏㄴㅈㅓㅁ -2412
▁75 -2413
▁ㅍㅣㄹㄷㅡ -2414
ut -2415
ㄷㅗㄴ -2416
▁ㅎㅏㄴㅍㅕㄴ -2417
▁ㄹㅗㅂㅗㅅ -2418
▁ㄱㅜㄱㅈㅔ -2419
▁ㅈㅏㅇㄱㅏㅂ -2420
▁ㄱㅓㄴㄷㅏㅁ -2421
▁ㅅㅗㅈㅐ -2422
▁ㅇㅟㄱㅣ -2423
ㅅㅜㄹㅗㄱ -2424
ㅂㅓㄴ -2425
▁ㄱㅣㄷㅗㅇ -2426
▁ㅌㅡㄱㅈㅓㅇ -2427
▁ㅂㅏㄴㅁㅕㄴ -2428
ㅊㅟ -2429
▁ㅇㅕㄴㅎㅏㅂ -2430
▁ㄷㅐㅊㅔ -2431
▁ㅍㅏㅇㅣㄹ -2432
ㅋㅏㄴ -2433
ec -2434
▁ㅅㅣㅎㅓㅁ -2435
▁ㅈㅓㅎ -2436
▁vs -2437
ㅣㅇㅑ -2438
▁ㅍㅏㄴㅈㅓㅇ -2439
ㅓㅇㅗㄹ -2440
▁ㄲㅗㅊ -2441
▁ㅇㅏㅍㅏ -2442
▁ㅁㅜㅇㅓㅅ -2443
▁38 -2444
▁in -2445
▁ㅁㅓㅁ -2446
▁ㄱㅗㅇㅇㅕㄴ -2447
▁ㅅㅣㅇㄱㅡㄹ -2448
▁ㅇㅖㅅㅏㅇ -2449
ㅣㅇㅏㄴ -2450
▁ㅎㅏㄴㄷㅏㅁㅕㄴ -2451
▁ㅅㅏㅎㅏㅇ -2452
▁ㅇㅣㄹㄹㅓ -2453
▁ㅂㅣㅇㅛㅇ -2454
▁ㅎㅏㅇㅅㅏㅇ -2455
▁ㅁㅕㄹ -2456
▁ㅈㅏㅇㅅㅗ -2457
▁ㅈㅓㅇㅈㅏㄱ -2458
▁ㅁㅗㄱㅍㅛ -2459
▁ㄱㅡㄹㅓㅁ -2460
▁ㅇㅣㄱㅔ -2461
▁ㅎㅘㄹㅕㄱ -2462
▁ㄴㅜ -2463
ㅣㄱㅏ -2464
▁ㅁㅜㄷㅐ -2465
▁ㅇㅕㄴㅊㅜㄹ -2466
▁ㄱㅣㅊㅔ -2467
▁ㅇㅣㄴㅌㅓㅂ -2468
▁ㅅㅏㄱㅓㄹㅣ -2469
▁ㅊㅚㅅㅗ -2470
▁ㄱㅘㄴㅅㅣㅁ -2471
▁ㅅㅏㅇㅓㅂ -2472
▁ㅅㅣㅅㅓㄹ -2473
▁55 -2474
▁ㅇㅠㄹㅓㅂ -2475
▁ㅈㅓㄴㄱㅣ -2476
ㅈㅔㄹ -2477
▁ㅇㅣㄴㅌㅓㅂㅠ -2478
ㄷㅡㅁ -2479
ㅇㅏㄷㅡㄹ -2480
▁2009 -2481
▁ㄱㅛㅊㅔ -2482
▁ㅌㅓㄹ -2483
▁ㄷㅓㄴㅈㅓㄴ -2484
ㅗㅇㅜ -2485
ㄱㅜㅇ -2486
▁ㄴㅐㅂㅜ -2487
▁ㅃㅏㄹㅡㄴ -2488
ㅇㅗㄱ -2489
▁ㅎㅏㄴㅡㄹ -2490
▁ㅍㅗㄴ -2491
▁ㅈㅔㅇㅣㄹ -2492
▁ㅈㅣㅎㅟ -2493
▁ㅂㅣㅁㅣㄹ -2494
ㄲㅏㅂ -2495
▁ㅇㅣㄱㅓㄹ -2496
▁ㄷㅡㄹㅓㄴ -2497
▁ㅅㅏㄱㅕㄱ -2498
▁ㅇㅔㅁ -2499
ㄷㅗㅇㅇㅏㄴ -2500
▁ㅇㅕㅆㅇㅡㄴㅏ -2501
ㅌㅡㄹㅏ -2502
▁Q -2503
▁ㅂㅕㄹㄹㅗ -2504
▁ㄲㅏㄹ -2505
ㅣㅇㅗㄴ -2506
▁to -2507
▁ㅂㅕㄴㅅㅣㄴ -2508
▁ㅈㅓㄴㅌ -2509
ST -2510
ro -2511
▁ㅅㅣㅋㅕㅆ -2512
ㅅㅟ -2513
▁ㅂㅣㅈㅜㅇ -2514
▁ㄴㅏㄹㅡㅁ -2515
▁ㅈㅝ -2516
▁ㅇㅏㅅㅟ -2517
▁ㄴㅓㄼ -2518
▁ㄴㅣㄲㅏ -2519
▁ㄹㅣㄹ -2520
▁ㄱㅣㄱㅖ -2521
▁ㅈㅓㅇㅅㅣㄱ -2522
▁ㅅㅜㅊㅣ -2523
▁ㄷㅐㄴ -2524
▁ㅆㅡㅇㅣ -2525
ㅌㅡㄹㅣ -2526
▁ㅈㅏㄱㄱㅗㄱ -2527
▁ㅆㅡㄹㅓ -2528
▁ㅅㅣㅈㅓㄴ -2529
▁ㅈㅐㅇ -2530
▁ㅋㅏㅇㅜㄴ -2531
▁ㄱㅕㄹㅅㅡㅇ -2532
ㅇㅏㄴㅐ -2533
▁ㅇㅚㄴ -2534
▁ㅆㅡㄴ -2535
▁_ -2536
▁ㅂㅡㄹㅏ -2537
▁ㄱㅛㅌㅗㅇ -2538
▁ㅂㅣㄹㅗㅅ -2539
ㄷㅔㄹ -2540
▁ㄴㅏㅇㅗㄹ -2541
▁ㄲㅡㅌㄴㅏ -2542
▁ㅅㅣㅋㅣㄴ -2543
▁ㄱㅏㄱㅈㅗㅇ -2544
▁ㅇㅣㅌㅏㄹ -2545
▁ㅇㅗㄴㅡㄹ -2546
▁ㅅㅐㄹㅗ -2547
▁ㄸㅏㄹㅗ -2548
▁ㄲㅜ -2549
ㄹㅚ -2550
▁ㅎㅘㅇㅈㅔ -2551
ㄴㅕ -2552
▁ㅎㅘㄱㅈㅓㅇ -2553
▁ㅈㅗㄹㅇㅓㅂ -2554
▁ㄴㅑㄱㅗ -2555
ㅎㅐㅅㅓ -2556
▁ㅊㅐㄴ -2557
▁ㅈㅣㅅㅏㅇ -2558
▁ㄱㅏㅂㅈㅏㄱㅣ -2559
ㄴㅡㄴ -2560
▁ㅂㅕㅇㄹㅕㄱ -2561
▁ㅆㅏㅎ -2562
ㅅㅔㅂ -2563
▁ㅇㅟㄴ -2564
▁ㅈㅓㄴㅂㅏㄴ -2565
ㅍㅖ -2566
▁ㅊㅣㅁㅕㅇ -2567
▁ㅇㅣㅉㅗㄱ -2568
ㅃㅏ -2569
▁ㅂㅜㄱㅎㅏㄴ -2570
ㅅㅔㄴ -2571
▁ㄴㅏㅂ -2572
▁ㅈㅣㄴㅎㅘ -2573
▁ㄹㅓㅅㅣㅇㅏ -2574
▁ㅌㅡㄱㅇㅣ -2575
ㅅㅙ -2576
▁ㄷㅏㅇㅎㅏㄴ -2577
▁ㅇㅗㅍㅡㄴ -2578
▁ㄱㅣㅇㅓㅂ -2579
ㅋㅓㅂ -2580
▁ㅂㅏㄹㅈㅓㄴ -2581
ㅗㅇㅓ -2582
▁ㄱㅐㄹㄹ -2583
▁ㅇㅣㄹㅜ -2584
▁ㅋㅔㅇㅣ -2585
▁ㄹㅣㅂ -2586
▁ㄱㅓㄴㅅㅓㄹ -2587
▁ㅉㅡㅁ -2588
▁ㅁㅜㅅㅡㄴ -2589
▁ㅅㅣㅌㅣ -2590
▁ㅇㅏㅂㄷㅗ -2591
ㅎㅗㅇ -2592
▁ㅇㅣㅇㅚ -2593
▁ㅇㅢㅇㅚ -2594
ㅌㅡㄹㄹ -2595
▁ㅇㅣㄹㅜㅇ -2596
▁ㅇㅏㄷㅗ -2597
▁ㅅㅏㅈㅓㅇ -2598
▁ㅋㅏㅇㅣ -2599
▁ㄱㅐㄴ -2600
▁ㅂㅜㅇㅕ -2601
em -2602
ㅁㅏㄹㄹㅗ -2603
▁ㅁㅝㄴ -2604
ㅔㅇㅣㅁ -2605
▁ㅍㅐㄹ -2606
▁ㅇㅣㄴㅣㅇ -2607
▁EX -2608
▁ㄷㅏㄹㅣ -2609
▁ㄷㅗㅋ -2610
▁ㅇㅚㄱㅜㄱ -2611
▁2008 -2612
▁ㅇㅕㄱㄷㅐ -2613
▁ㅇㅣㄱㅓㄴ -2614
▁ㄱㅏㅁㅈㅓㅇ -2615
▁ㅎㅜㄹ -2616
▁ㅌㅏㄹㅊㅜㄹ -2617
▁ㅈㅜㅁㅜㄴ -2618
▁ㅅㅏㄱㅈㅔ -2619
▁ㅈㅣㄱㅈㅓㄴ -2620
▁ㅈㅓㅎㅏㅇ -2621
▁ㄱㅏㅅㅏ -2622
ight -2623
▁ㄸㅢ -2624
▁ㅇㅣㄴㄱㅏ -2625
▁ㅎㅓ -2626
▁ㄹㅔㅇ -2627
▁ㅁㅏㄴㅏ -2628
ㄹㅖ -2629
▁ㅇㅣㅁㅁㅜ -2630
▁ㄱㅗㅇㅑㅇ -2631
▁ㅌㅣㅇㅓ -2632
▁ㄷㅏㅋㅡ -2633
ㅈㅣㅅ -2634
▁ㄴㅐㄱ -2635
ㅊㅝ -2636
▁ㅈㅣㅋㅣ -2637
▁ㅇㅟㄹㅕㄱ -2638
▁ㅈㅏㅇㅝㄴ -2639
▁ㄲㅣ -2640
ㄹㅏㅇㅣ -2641
▁ㅇㅏㅅㅡ -2642
AN -2643
▁ㅅㅡㄹㅓㅇㅜㄴ -2644
▁ㅁㅏㅇㅣㄴ -2645
▁ㅈㅣㅈㅣ -2646
▁ㄱㅣㅍ -2647
▁ㅂㅘㄷㅗ -2648
▁ㅅㅏㄹㅖ -2649
▁ㅈㅣㅂㅈㅜㅇ -2650
ㅎㅡㅇ -2651
▁ㄱㅣㄷㅏㄹ -2652
ㅗㅎ -2653
▁ㅈㅔㄴ -2654
▁ㄷㅗㄹㅗ -2655
▁ㅇㅏㄹㅡ -2656
ㅌㅏㄱ -2657
▁ㅍㅗㅁ -2658
▁ㄹㅏㅇㅣㅂㅡ -2659
▁ㅅㅜㄷㅗ -2660
▁ㅇㅓㄷㅜㅁ -2661
AR -2662
▁ㅂㅏㅇㅣ -2663
▁ㅁㅏㅊㅣ -2664
ㅐㅍㅡㅌㅡ -2665
▁ㄸㅜ -2666
▁ㅇㅣㄱㅣ -2667
▁ㅍㅛㅅㅣ -2668
▁ㅂㅗㅇㅠ -2669
▁ㅈㅓㄴㄱㅜㄱ -2670
▁ㅇㅣㄴㄱㅜ -2671
▁ㅅㅏㅇㄱㅘㄴ -2672
▁ㅎㅛㅇㅠㄹ -2673
▁ㄲㅜㄴ -2674
▁ㅁㅕㅇㄹㅕㅇ -2675
▁ㅂㅜㄴㄹㅠ -2676
▁ㅈㅏㄱㅇㅓㅂ -2677
ㅉㅣㄱ -2678
▁ㄴㅚ -2679
▁ㅁㅣㅌ -2680
▁ㄱㅣㅎㅚ -2681
▁ㄹㅐㅇㅋㅡ -2682
▁ㅅㅓㅂㅣㅅㅡ -2683
ㄹㅠㄱ -2684
▁ㅇㅣㄴㅅㅣㄱ -2685
▁ㅅㅐㅇㄱㅣ -2686
▁ㅇㅘㄴㅈㅓㄴ -2687
▁ㅊㅓㅂ -2688
▁ㄴㅗㅌㅡ -2689
▁ㅇㅓㄹㅁㅏ -2690
▁ㄴㅣㄴ -2691
▁ㄷㅓㄴㅣ -2692
ㅈㅔㄱㅌㅡ -2693
▁ㄱㅗㅇㄱㅏㄴ -2694
▁ㅇㅕㄴㅅㅡㅂ -2695
ㅣㅇㅓㄹㅗ -2696
▁ㅁㅓ -2697
▁ㄴㅓㅁㅇㅓㄱㅏ -2698
▁ㅎㅣㅇㅓㄹㅗ -2699
ㄹㅏㅁ -2700
▁ㅎㅚㅍㅣ -2701
▁ㄱㅗㄹㄷㅡ -2702
ㅜㄴㅏ -2703
▁ㄹㅜㅌㅡ -2704
ㅇㅐㄱ -2705
▁ㅁㅜㄹㄱㅓㄴ -2706
ㅈㅕㅅㅓ -2707
ㅜㅇㅣ -2708
ap -2709
▁ㅇㅖㅅ -2710
▁ㅂㅡ -2711
ㄷㅓㄹ -2712
▁ㄷㅗㅈㅓㄴ -2713
▁ㄱㅕㅇㅈㅐㅇ -2714
▁ㅂㅏㄷㅏ -2715
▁ㄱㅡㄱㅈㅏㅇ -2716
▁ㅁㅣㅅㅏㅇ -2717
▁ㅎㅘㅁㅕㄴ -2718
▁ㄹㅗㅂ -2719
▁ㄱㅏㅅㅜ -2720
▁42 -2721
▁ㅈㅏㅇㅈㅓㅁ -2722
ㅇㅓㄷㅡㄹ -2723
▁ㄴㅕㅅㅓㄱ -2724
ON -2725
▁41 -2726
▁ㅈㅏㅁㅅㅣ -2727
▁ㅂㅕㄹㅁㅕㅇ -2728
▁ㅂㅜㅁㅗ -2729
ㅁㅓㄱ -2730
▁ㅊㅘㄹ -2731
▁ㄱㅐㄴㅕㅁ -2732
▁ㅅㅔㄱㅣ -2733
ㅂㅏㅂ -2734
▁ㄱㅏㅁㅜㄴ -2735
ㄱㅡㄹㅔㅇㅣㄷㅡ -2736
▁ㅇㅓㅂㄱㅡㄹㅔㅇㅣㄷㅡ -2737
▁ㅎㅐㅇㅈㅓㅇ -2738
▁ㄷㅏㄴㅇㅓ -2739
▁ㅅㅡㄹㅓㅂ -2740
▁ㅇㅓㅇㅛ -2741
▁ㄱㅔㅇㅣ -2742
▁ㅂㅕㅇㅇㅝㄴ -2743
▁ㄱㅡㄴㅊㅓ -2744
▁ㅈㅔㄹ -2745
▁ㅇㅣㄴㅊㅓㄴ -2746
▁ㅍㅜ -2747
▁ㅊㅜㅊㅓㄴ -2748
▁194 -2749
▁ㅈㅠ -2750
▁No -2751
▁ㅂㅏㄹㅇㅓㄴ -2752
▁ㄱㅏㄲㅏㅇㅜㄴ -2753
▁ㄹㅕㅁㅕㄴ -2754
▁ㅈㅓㄴㄹㅕㄱ -2755
▁ㄱㅏㅇㅣ -2756
▁ㅇㅐㅇ -2757
▁ㅇㅣㅈ -2758
▁ㅅㅏㄹㅇㅣㄴ -2759
▁ㅇㅢㅅㅣㄱ -2760
▁39 -2761
▁ㅈㅓㅁㅍㅡ -2762
▁ㅍㅗㄱㅣ -2763
▁ㅁㅜㄹㅕ -2764
▁ㅌㅓㅁ -2765
▁ㅂㅔㅇㅣ -2766
▁ㅇㅡㄴㄷㅔ -2767
▁Ch -2768
▁ㅇㅏㅍㅏㅌㅡ -2769
ㅕㅇㅑ -2770
ㅊㅗㄴ -2771
▁ㅋㅡㄱㅣ -2772
▁> -2773
▁ㅈㅓㄴㄱㅐ -2774
▁ㅇㅣㄴㅅㅏ -2775
▁ㅅㅣㄴㅊㅔ -2776
ㅎㅏㄱㅅㅐㅇ -2777
▁', -2778
▁ㅈㅓㅇㄹㅣ -2779
▁ㅈㅣㄴㅏㄴ -2780
▁ㅂㅏㅂ -2781
▁ㄱㅕㅁ -2782
▁ㅍㅏㄴㄷㅏㄴ -2783
ㅇㅜㄹ -2784
▁ㅊㅓㄹㄷㅗ -2785
ㅇㅓㅁ -2786
▁ㅈㅜㅈㅔ -2787
▁ㅊㅘㄹㅇㅕㅇ -2788
▁ㅅㅔㅅ -2789
▁ㄴㅗㄹㅕㄱ -2790
ㅁㅐㄴ -2791
▁ㅈㅕ -2792
ㅅㅡㅌㅏ -2793
▁ㅂㅗㄴㄹㅐ -2794
ㄷㅏㄴㅣ -2795
▁ㄱㅏㅇㅈㅔ -2796
▁ㅂㅏㄹㅏ -2797
▁ㄱㅗㅈㅓㅇ -2798
ul -2799
ㄹㅔㄱ -2800
▁ㅂㅜㅈㅓㅇ -2801
▁ㄲㅗ -2802
▁kg -2803
ㅏㅈㅏ -2804
ㅋㅠ -2805
ㅍㅔㅇㅣㅈㅣ -2806
ㅎㅓ -2807
▁ㅅㅏㄱㅣ -2808
▁st -2809
▁44 -2810
▁ㅂㅕㅇㅅㅏ -2811
▁ㅇㅗㄹㅡ -2812
▁ㅅㅓㄴㅅㅐㅇ -2813
▁ㅍㅕㅇㄱㅠㄴ -2814
ce -2815
▁ㄱㅗㅇㅈㅜ -2816
ik -2817
▁ㄷㅗㄱㄹㅣㅂ -2818
▁ㅊㅚㄱㅏㅇ -2819
▁2020 -2820
▁; -2821
▁ㅇㅘㅇㄱㅜㄱ -2822
▁ㅅㅣㅋㅣㄹ -2823
ㅋㅗㅇ -2824
▁ㅈㅔㄱㅓ -2825
▁ㅂㅜㄴㅁㅕㅇ -2826
▁ㅎㅏㄱㅇㅝㄴ -2827
▁ㅅㅡㅇㅟ -2828
▁ㄱㅗㅅㅗㄱ -2829
▁ㅂㅓㄱㅡ -2830
▁ㅂㅜㅌㅏㄱ -2831
ㅅㅜㅁ -2832
ㅡㄹㄹㅣㄴ -2833
▁ㅎㅗㅁㅍㅔㅇㅣㅈㅣ -2834
▁ㄹㅔㄷㅡ -2835
▁ㅍㅗㄱㅌㅏㄴ -2836
▁ㅇㅣㄴㅌㅓㄴ -2837
▁ㄲㅗㄱ -2838
000 -2839
▁ㄱㅜㅁㅐ -2840
▁ㄷㅔㄴ -2841
▁ㅈㅗㅈㅗㅇ -2842
▁ㅅㅐㅇㄱㅕㅆ -2843
ㅌㅠ -2844
▁ㅈㅔㅍㅜㅁ -2845
▁ㄹㅜㅁ -2846
▁ㄱㅜㅎㅏ -2847
▁99 -2848
▁ㄱㅜㄴㄷㅐ -2849
▁ㄷㅗㅇㅅㅐㅇ -2850
ㅓㄴㅌㅡ -2851
▁ㅁㅏㅂㅓㅂㅅㅏ -2852
▁ㄹㅗㅅㄷㅔ -2853
▁LG -2854
▁ㅅㅏㄹㅇㅏㄴ -2855
ㅁㅗㄹ -2856
▁ㅈㅜㅇㅂㅏㄴ -2857
▁ㅇㅖㅈㅓㄴ -2858
▁ㅇㅕㅎㅐㅇ -2859
▁ㅂㅜㄺ -2860
ㄱㅓㄹ -2861
ㅅㅑ -2862
▁ㅎㅐㅇㅇㅟ -2863
▁ㄷㅏㄴㅊㅔ -2864
▁ㅇㅡㅁㅅㅣㄱ -2865
▁ㄸㅓㄱ -2866
▁ㅅㅏㅋ -2867
▁ㄱㅕㄲ -2868
▁ㅇㅞㅂ -2869
▁ㅇㅐㄴㅣ -2870
▁ㅇㅘㄴㅂㅕㄱ -2871
▁ㅇㅗㅂㅅㅕㄴ -2872
ㅅㅓㅂ -2873
▁2007 -2874
▁ㅇㅗㄹㅣㅈㅣㄴ -2875
▁ㅎㅕㄴㅅㅏㅇ -2876
▁ㅉㅗㅊ -2877
▁ㅇㅣㄴㅅㅏㅇ -2878
▁195 -2879
▁ㄱㅏㄹㅡ -2880
▁ㅂㅏㄴㄷㅡ -2881
▁ㄷㅣㅅㅡ -2882
▁ㅅㅜㅎㅐㅇ -2883
▁ㅇㅣㄲㅡㄹ -2884
▁ㅁㅗㅂ -2885
all -2886
▁ㅌㅏㄹㄹㅏㄱ -2887
▁43 -2888
▁ㅇㅝㄴㅇㅣㄴ -2889
▁ㄴㅓㄹ -2890
▁ㄴㅗㄹㅣ -2891
▁ㅇㅟㅋㅣ -2892
▁ㅇㅘㄴㅅㅓㅇ -2893
▁ㄹㅏㄹ -2894
▁ㄷㅡㄹㅣㅂ -2895
▁ㄱㅡㅇㅑ -2896
▁ㅎㅣㅌㅡ -2897
▁ㄱㅜㅂㅜㄴ -2898
▁ㅋㅓㅁㅍ -2899
IN -2900
▁ㅂㅏㄴㄷㅡㅅㅣ -2901
ㅏㅅ -2902
ㅋㅗㄹ -2903
▁ㄹㅗㄷㅡ -2904
ㅡㅌ -2905
▁ㅇㅢㅇㅝㄴ -2906
ㅜㄴㄷㅔ -2907
▁ㅌㅔㅁ -2908
▁ㅌㅗㅇㅎㅏㅂ -2909
ㅊㅓㅂ -2910
▁ㄱㅓㄷ -2911
▁ㅈㅜㅁㅣㄴ -2912
▁ㅇㅔㄱㅔㅅㅓ -2913
▁ㅈㅓㄴㄹㅑㄱ -2914
▁ㅂㅏㄲㅜ -2915
▁ㅋㅗㅅㅡ -2916
▁ㅈㅣㄱㅎㅜ -2917
▁ㄱㅏㄷㅡ -2918
▁ㅊㅏㅇㅝㄴ -2919
▁MA -2920
▁ㅂㅗㄱㄱㅟ -2921
▁ㅇㅗㅂㅓ -2922
▁ㅈㅐㄹㅛ -2923
▁ㄷㅏㄴㅈㅣ -2924
ㅂㅔ -2925
▁ㄴㅏㅇㅣㅌㅡ -2926
ㄴㅏㄹㅏ -2927
▁ㅇㅣㄹㄹㅓㅅㅡㅌㅡ -2928
ㄹㅕㅅㅓ -2929
▁ㅎㅘㄴㄱㅕㅇ -2930
nd -2931
ㄸㅡㄹ -2932
ㅍㅏㄹ -2933
▁ㄷㅗㅇㅘ -2934
▁ㄱㅘㅇㅇㅕㄱ -2935
▁ㅁㅣㅁ -2936
▁ㄴㅡㅈ -2937
▁ㄸㅓ -2938
▁ㄱㅡㅇㅑㅁㅏㄹㄹㅗ -2939
ㅌㅏㅇㅣㅁ -2940
▁ㅁㅏㅁㅜㄹㅣ -2941
▁ㅊㅣㄹㅛ -2942
▁ㄱㅣㅂㅏㄴ -2943
▁ㅇㅡㄹㅗㅆㅓ -2944
▁ㄱㅓㄱㅈㅓㅇ -2945
▁ㅅㅑㅅ -2946
▁ㅇㅕㄴㅈㅐ -2947
▁ㄱㅓㄹㄹㅣ -2948
▁ㅈㅓㄴㅈㅏ -2949
ㅜㅁㅏ -2950
ㅈㅏㄹ -2951
▁ㅎㅏㄴㄱㅡㄹ -2952
▁ㅎㅐㄱㅜㄴ -2953
▁ㅅㅐㅇㄱㅣㄴ -2954
▁ㄱㅜㄴㅅㅏ -2955
▁46 -2956
ㅇㅡㄹ -2957
▁ㄴㅡㄲㅣ -2958
▁ㄷㅏㅎㅐㅇ -2959
▁47 -2960
ㅐㄴㄷㅏ -2961
▁ㅈㅓㅇㄱㅠ -2962
▁ㅈㅣㅈㅓㅇ -2963
▁ㅅㅜㅍ -2964
▁ㅅㅓㅂㅓ -2965
▁ㅇㅕㄴㅈㅏㅇ -2966
▁2006 -2967
ㅈㅡㄴ -2968
▁ㄷㅐㅈㅏㅇ -2969
▁ㅎㅐㅇㅚ -2970
ㅗㄴㄷㅏ -2971
▁ㅂㅏㄷㅇㅏㄷㅡㄹ -2972
▁ㄷㅗㅊㅏㄱ -2973
▁ㄹㅣㄷㅓ -2974
▁ㅂㅗㅂㅕㅇ -2975
▁ㅅㅣㅁㄱㅏㄱ -2976
▁ㅍㅕㅇㅂㅓㅁ -2977
▁ㅇㅗㄻ -2978
▁ㅇㅜㅅㅓㄴ -2979
ㅔㅇㅣㅌㅓ -2980
▁ㅊㅐㄱㅇㅣㅁ -2981
ㅈㅗㄱㅓㄴ -2982
▁ㅃㅓㄴ -2983
▁ㅇㅝㄴㅏㄱ -2984
▁ㅃㅏㄹㄹㅣ -2985
▁ㅂㅜㄹㄱㅏ -2986
▁ㅂㅗㄴㅓㅅㅡ -2987
▁ㅇㅝㄹㄷㅡㅋㅓㅂ -2988
▁ㅌㅏㅇㅣㅌㅡㄹ -2989
▁ㅂㅡㄹㄹㅗㄱ -2990
▁ㅂㅗㅇㅕㅈㅜㄴㄷㅏ -2991
▁ㅈㅗㅈㅏㄱ -2992
▁ㅁㅣㅅㅏㅇㅣㄹ -2993
▁ㅇㅏㅁㅜㄹㅣ -2994
ㅉㅐ -2995
▁ㅊㅜㅊㅡㄱ -2996
▁ㅋㅐㅂ -2997
▁ㅅㅣㄹㅎㅓㅁ -2998
▁ㅈㅏㅁㅏㅈㅏ -2999
ㅅㅏㅁ -3000
▁ㅇㅠㅅㅏ -3001
th -3002
▁ㅈㅓㅁㅈㅓㅁ -3003
▁ㄷㅏㅅㅜ -3004
▁ㄸㅟㅇㅓㄴㅏㄴ -3005
▁ㄱㅡㄱㅓㄹ -3006
▁51 -3007
▁ㄱㅏㅁㅕㄴ -3008
▁ㄱㅜㄷㅇㅣ -3009
tt -3010
▁ㅅㅏㅇㅅㅔ -3011
▁ㅇㅕㅆㅇㅡㅁㅕ -3012
▁ㅍㅣㄹㅅㅏㄹ -3013
▁ㅁㅏㅈㅊㅜ -3014
▁ㄷㅏㅅㅗ -3015
▁ㅃㅐㅇ -3016
▁ㅅㅖ -3017
▁ㅈㅓㅂㄱㅡㄴ -3018
▁ㅌㅏㅈㅏ -3019
▁ㅅㅓㅇㅎㅑㅇ -3020
ㄹㅔㄴ -3021
▁ㄷㅐㄱㅣ -3022
▁ㅈㅗㅎㅇㅏ -3023
▁ㅁㅜㅈㅗㄱㅓㄴ -3024
▁ㄱㅓㄹㄹㅗ -3025
▁ㅇㅕㅇㅎㅗㄴ -3026
ㅜㄴㄷㅏ -3027
▁ㅈㅜㅇㅎㅏㄱㄱㅛ -3028
▁ㅋㅗㅅㅡㅌㅡ -3029
▁ㅅㅣㄹㅈㅓㅁ -3030
▁ㅎㅏㄴㄱㅖ -3031
▁ㄱㅛㅅㅜ -3032
▁ㄱㅡㄹㅣㄴ -3033
▁ㅇㅔㄹㄹㅣ -3034
▁ㅇㅏㄹㅡㅁ -3035
op -3036
▁ㄱㅏㄹㅣ -3037
ㅌㅏㅂ -3038
▁ㄱㅗㅇㅍㅗ -3039
▁ㄷㅐㄱㅕㄹ -3040
▁ㅅㅣㅋㅣㄴㄷㅏ -3041
▁ㄷㅏㅇㅣ -3042
▁ㅇㅢㅅㅏ -3043
▁ㄴㅑㄴㅡㄴ -3044
▁ㅅㅡㅍㅗ -3045
▁ㅇㅣㅎㅏ -3046
ㅅㅓㅅ -3047
▁ㅂㅐㄴ -3048
▁ㅇㅔㄱ -3049
▁ㄷㅓㄴㅈㅣ -3050
▁ㅁㅜㅎㅏㄴ -3051
ㅅㅣㅁㅏ -3052
▁ㄱㅜㄱㅎㅚ -3053
▁SP -3054
st -3055
▁ㅂㅜㅎㅏ -3056
▁ㅂㅗㄱㅅㅜ -3057
▁ㅎㅐㄴ -3058
▁ㄹㅜㄹ -3059
▁ㅍㅡㄹㄹㅐ -3060
▁ㅇㅏㅁㅅㅏㄹ -3061
▁ㅈㅓㅇㅎㅘㄱㅎㅣ -3062
▁ㅇㅐㅁ -3063
▁ㅎㅏㅁㅈㅓㅇ -3064
▁ㅇㅏㄴㅐ -3065
ㄷㅏㄱ -3066
▁ㅍㅕㅇㅅㅗ -3067
ㅌㅗㄹ -3068
▁ㅈㅓㅇㅇㅢ -3069
▁ㄴㅔㅇㅣ -3070
▁ㅅㅔㅇㅛ -3071
ation -3072
ㅁㅏㄴㅏ -3073
▁ㅇㅢㅎㅏ -3074
ㅍㅣㄴ -3075
▁ㅇㅣㄴㅌㅓㄴㅔㅅ -3076
▁ㄴㅏㅅ -3077
ㅂㅜㅌ -3078
▁ㅈㅏㅇㄹㅡ -3079
▁ㅎㅕㄱ -3080
ra -3081
▁ㅁㅏㄹㅕㄱ -3082
▁ㅇㅘㅈㅜㅇ -3083
▁ㅂㅓㅁㅈㅚ -3084
▁ㅂㅗㅇㅇㅣㄴ -3085
▁ㄱㅘㅇㄱㅗ -3086
▁1000 -3087
▁ㅇㅗㅅㅡ -3088
▁ㅇㅏㅇㅜㅅ -3089
ack -3090
▁ㅎㅘㄱㅈㅏㅇ -3091
ia -3092
▁ㅇㅜㄴㅇㅛㅇ -3093
▁ㅊㅐㄴㅓㄹ -3094
▁ㄷㅏㄹㅜ -3095
▁ㅍㅗㅅㅡ -3096
▁ㅅㅏㄹㅕㅇ -3097
▁ㅈㅓㄴㅎㅘ -3098
▁ㅂㅏㄺㅎㅕㅆ -3099
▁ㅇㅣㄱㅗㅅ -3100
▁ㅎㅏㅂㄹㅠ -3101
▁ㄱㅗㅇㄹㅑㄱ -3102
ㅍㅣㅇ -3103
▁ㅈㅓㅇㄷㅏㅇ -3104
▁ㄷㅗㅋㅛ -3105
▁ㅃㅏㅇ -3106
▁ㅌㅡㅇㅟ -3107
▁ㅅㅗㄹㅕㄴ -3108
ㄲㅗㅊ -3109
▁and -3110
▁ㅈㅏㅇㅊㅣ -3111
▁ㅇㅓㄹㅕㅇㅜㄴ -3112
▁ㄴㅐㅆ -3113
ㅁㅕㅊ -3114
▁ㅁㅕㅊㅁㅕㅊ -3115
▁ㅍㅏㅁ -3116
▁ㅅㅡㅍㅣ -3117
▁ㄴㅜㄹ -3118
▁ㄱㅣㄴㅕㅁ -3119
oc -3120
ㅂㅣㅇ -3121
ㅊㅚ -3122
▁ㅍㅕㄹㅊㅣ -3123
▁ㄱㅏㅇㅜㄴㄷㅔ -3124
▁ㅅㅣㅊㅓㅇㅈㅏ -3125
▁ㅈㅗㅇㅈㅗㅇ -3126
▁ㅇㅣㅈㅓㄱ -3127
ㅅㅡㅋㅔ -3128
▁ㅅㅗㅇㅠ -3129
▁ㅊㅗㄷㅡㅇ -3130
▁ㅈㅣㅂㅐ -3131
▁150 -3132
▁ㅊㅜㅇㅂㅜㄴㅎㅣ -3133
▁ㄷㅗㅇㅣㅂ -3134
▁ㅅㅜㅁㅏ -3135
ㄹㅣㄱ -3136
ㅌㅠㅂㅡ -3137
▁ㄱㅗㅈㅏ -3138
▁65 -3139
ㅁㅗㅇ -3140
▁ㅌㅡㄱㅇㅠ -3141
▁ㄱㅓㅁㅅㅏ -3142
▁ㄸㅜㅀ -3143
ㅅㅣㅂㅡ -3144
▁ㅅㅣㄹㅅㅜ -3145
▁ㅇㅠㅌㅠㅂㅡ -3146
▁ㅂㅗㅋㅓㄹ -3147
ㅓㅈㅣㄴ -3148
▁ㄱㅡㄴㄷㅔ -3149
▁ㅇㅓㅁㅊㅓㅇㄴㅏ -3150
ㅍㅗㅁ -3151
▁ㅈㅓㅈㅣㄹ -3152
ㅝㄷㅡ -3153
▁ㅎㅜㅁ -3154
▁ㅋㅡㄹㄹㅓㅂ -3155
▁VS -3156
ㅌㅓㄹ -3157
ㅌㅗㄴ -3158
▁ㅇㅗㄹㄹㅕ -3159
▁ㄹㅏㅇㅣㅌㅡ -3160
▁ㅅㅗㄴㅕㄴ -3161
▁ㅎㅘㅇㅕㅁ -3162
▁ㅅㅣㅁㅣㄴ -3163
ㄸㅡㄹㅣ -3164
▁ㅂㅗㄴㄱㅕㄱ -3165
ㅓㅂㅡ -3166
▁ㅍㅡㄹㅗㅈㅔㄱㅌㅡ -3167
▁ㅌㅜㅇㅣㅂ -3168
▁ㅇㅗㄹㄹㅣㅁ -3169
▁ㄲㅡㅌㄴㅏㄴ -3170
▁ㅈㅓㄱㅕㄱ -3171
▁ㄴㅡㄹㅇㅓㄴㅏ -3172
▁ㅁㅣㄹㄹㅣ -3173
▁ㄱㅐㅈㅗ -3174
▁ㄹㅏㅂ -3175
▁ㄴㅐㄹㅣ -3176
▁ㅋㅓㅅ -3177
▁ㄴㅡㄴㄱㅏ -3178
▁ㅇㅣㄴㅎㅏㄴ -3179
▁ㅈㅓㄴㅇㅝㄴ -3180
▁ㄱㅣㅈㅣ -3181
ㅍㅗㄹ -3182
▁ㅇㅔㄱㅅㅡ -3183
▁ㄱㅚㅁㅜㄹ -3184
▁ㄲㅡㅌㄴㅐ -3185
▁ㅁㅜㅅㅏ -3186
▁ㅎㅕㅇㅈㅔ -3187
▁ㅇㅓㄹㅁㅏㄴㅏ -3188
▁ㄱㅡㅁㅈㅣ -3189
ie -3190
▁ㅅㅜㅁㅏㄶ -3191
ill -3192
ㄲㅏㄴ -3193
▁ㅎㅢㅅㅐㅇ -3194
▁ㄸㅓㅇㅗㄹ -3195
ㅈㅘ -3196
▁ㅂㅗㅈㅗ -3197
▁ㅎㅐㅇㅅㅏ -3198
ㅌㅡㄱ -3199
▁ㅌㅜㄱ -3200
▁ㅇㅛㅊㅓㅇ -3201
▁ㅇㅏㅇㅣㄹ -3202
▁ㅅㅓㄴㅂㅗㅇ -3203
ㅋㅡㄴ -3204
ㄷㅐㅇ -3205
▁ㅎㅏㅇㅑ -3206
▁ㄹㅗㅁㅏ -3207
▁ㅎㅠㅇ -3208
ㅅㅅㅜ -3209
▁ㅇㅏㅍㅅㅓ -3210
▁ㅎㅏㄷㅡ -3211
▁ㄷㅡㄹㅇㅓㅇㅗ -3212
▁%, -3213
▁ㅇㅝㄴㅈㅓㅇ -3214
▁ㄷㅐㅈㅜㅇ -3215
ㅏㄷㅏ -3216
▁ㅂㅏㄹㅇㅡㅁ -3217
▁ㄱㅗㅇㅑㅇㅇㅣ -3218
▁ㅅㅏㅌㅐ -3219
▁ㅁㅣㄷㅡ -3220
▁ㅅㅏㅇㅈㅣㅇ -3221
▁2005 -3222
▁52 -3223
ㅣㄹㅡ -3224
▁ㄷㅏㄹㄹㅏ -3225
▁KBS -3226
▁ㅈㅗㅇㅎㅏㅂ -3227
▁ㄷㅔㅅㅡ -3228
▁II -3229
▁ㄷㅐㄱㅜ -3230
▁ㅅㅡㅍㅗㅊㅡ -3231
▁ㅂㅐㄴㄷㅡ -3232
art -3233
▁ㅅㅜㅅ -3234
▁ㄱㅜㅇㅕㄱ -3235
▁ㅊㅜㅁ -3236
▁ㅋㅡㄹㄹㅐㅅㅡ -3237
▁ㄷㅐㅎㅕㅇ -3238
▁64 -3239
▁ㄱㅜㄴㄷㅏㄴ -3240
▁ㄷㅡㅁ -3241
▁ㄱㅗㄷㅐ -3242
▁ㄴㅠㅅㅡ -3243
ㄹㅗㅇ -3244
▁ㄴㅣㄱ -3245
ㅎㅓㄴ -3246
▁ㅇㅚㅁㅗ -3247
▁ㄷㅐㅂㅣ -3248
▁ㅇㅟㅎㅕㅂ -3249
▁ㅎㅣㅁㄷㅡㄴ -3250
▁ㄷㅚㄴㄷㅏㄴㅡㄴ -3251
▁ㅈㅗㅇㄱㅛ -3252
ㅌㅔㄴㅊㅡ -3253
ㄷㅓㅇ -3254
▁ㅈㅗㅈㅓㅇ -3255
▁ㄱㅡㅈㅓ -3256
▁ㅇㅜㅁㅈㅣㄱㅇㅣ -3257
ㅅㅗㄹ -3258
▁ㅇㅣㄴㅇㅝㄴ -3259
▁ㅎㅐㅈㅕㅆ -3260
▁ㅋㅣㄴ -3261
ㅏㄱㅣ -3262
ㅁㅜㄱ -3263
▁ㅅㅓㅅㅜㄹ -3264
▁ㅅㅐㅇㅁㅜㄹ -3265
▁ㄱㅏㄴㄷㅏㄴ -3266
▁ㅁㅝㄴㄱㅏ -3267
▁ㅂㅜㄹㅁㅕㅇ -3268
▁ㅈㅏㄹㅛ -3269
▁ㄱㅐㄱㅡ -3270
▁ㅊㅚㅎㅜ -3271
▁ㅈㅏㅇㄴㅏㄴ -3272
▁ㅅㅓㄲ -3273
▁ㅎㅕㅇㅅㅣㄱ -3274
ㅗㅌㅗ -3275
▁ㅂㅏㄷㅏㄱ -3276
▁ㄱㅘㄴㅌㅗㅇ -3277
▁ㅇㅑㄱㅈㅓㅁ -3278
▁ㄱㅏㄲㅏㅂ -3279
▁ㅇㅏㄹㅇㅏ -3280
▁ㅋㅓㄴㅅㅔㅂ -3281
▁ㅍㅐㄹㅓ -3282
ㅂㅣㅊ -3283
▁ㅇㅣㄹㅂㅗㄴㅇㅓ -3284
▁ㅅㅏㄹㅏㅈㅣ -3285
▁ㅂㅏㅇㅍㅐ -3286
▁ㅇㅗㄹㄹㅏㅇ -3287
▁ㄴㅔㄱ -3288
▁ㄷㅏㄹㄹㅓ -3289
▁ㅌㅜㅍㅛ -3290
▁You -3291
▁ㅎㅐㅇㅅㅓㅇ -3292
ㅂㅡㄴ -3293
▁2004 -3294
▁ㅋㅗㄷㅡ -3295
▁ㄴㅜㄴㅁㅜㄹ -3296
ri -3297
▁ㄴㅏㄹㄹㅕ -3298
▁ㅈㅓㅇㅊㅐㄱ -3299
ㅍㅔㄴ -3300
▁ㅈㅓㄴㅅㅜㄹ -3301
▁ㅌㅗㅇㅅㅣㄴ -3302
ㄷㅔㄴ -3303
▁ㅈㅣㅋㅕ -3304
▁ㅅㅏㅇㅈㅏ -3305
uby -3306
▁ㅇㅏㄵ -3307
ㄹㅏㄴㄷㅡ -3308
▁ㅇㅐㄱㅅㅕㄴ -3309
▁ㅁㅗㅎㅓㅁ -3310
ab -3311
▁49 -3312
▁ㅃㅏㅈㅣ -3313
▁ㅅㅓㅂㅡ -3314
ㅅㅣㅅㅡ -3315
▁ㄱㅓㅂㅜ -3316
▁ㅂㅣㄱㅗ -3317
▁ㅋㅔㄹ -3318
▁ㅈㅓㄻ -3319
▁ㅇㅠㅇ -3320
RA -3321
▁ㅇㅗㄹㅣㅈㅣㄴㅓㄹ -3322
▁AP -3323
▁ㅇㅢㄷㅗ -3324
ㅅㅣㅇㅏ -3325
▁ㅁㅕㅇㅈㅜㅇ -3326
▁ㅃㅐㅇㅏㅅ -3327
▁ㅂㅏㄴㅂㅗㄱ -3328
▁ㅌㅡㄹㅐㄱ -3329
ㅅㅡㄹㄹ -3330
▁ㅇㅣㄴㅎㅕㅇ -3331
▁56 -3332
▁ㅋㅜㄹㅌㅏㅇㅣㅁ -3333
▁ㅈㅟ -3334
▁ㅎㅚㅈㅏㅇ -3335
est -3336
▁ㄴㅏㅆ -3337
▁ST -3338
▁ㅈㅣㅈㅓㄱ -3339
ㅁㅜㅇ -3340
▁ㄱㅗㅇㄷㅗㅇ -3341
▁ㅁㅐㅇㅣㄹ -3342
▁ㄱㅐㅇㅝㄹ -3343
▁ㄴㅡㄴㄷㅏㄴㅡㄴ -3344
▁400 -3345
▁ruby -3346
▁ㅎㅡㄹㄹ -3347
▁ㄷㅡㅇㄹㅗㄱ -3348
▁ㅇㅕㅇㅇㅣㅂ -3349
▁ㅎㅐㅅㅓㄱ -3350
▁ㄱㅏㅊㅣ -3351
▁ㄱㅜㄷㅏㄴ -3352
▁ㄷㅐㅇㅡㅇ -3353
▁ㅅㅏㅅㅏㅇ -3354
▁MBC -3355
▁ㄲㅗㄹ -3356
ㅅㅣㅂ -3357
▁ㅇㅓㄴㄹㅗㄴ -3358
▁ㄲㅓ -3359
▁ㄱㅏㅄ -3360
▁ㅁㅗㅇㅏ -3361
ㅡㄹㅣㅋㅏ -3362
▁In -3363
▁dd -3364
▁ㅊㅏㅈㅇㅏㅇ -3365
▁ㅇㅗㄹㅐㄴ -3366
▁ㅈㅣㅁㅕㅇ -3367
▁ㅇㅕㄹㅊㅏ -3368
▁ㅁㅗㄱㅅㅜㅁ -3369
▁ㄱㅐㅂㅗㅇ -3370
▁ㄷㅡㄹㅓㄴㅏ -3371
▁ㅎㅓㅁ -3372
▁ㅈㅜㄹㅕㄱ -3373
▁ㄱㅡㄸㅐ -3374
▁ㅇㅝㄴㄱㅓㄹㅣ -3375
▁ㄱㅏㄴㄷㅏ -3376
ttp -3377
ㅁㅣㅇ -3378
▁ㅌㅏㅋㅏ -3379
▁ㅋㅗㅇㅓ -3380
▁ㅇㅟㄹ -3381
AL -3382
▁ㅂㅏㄱㅅㅏ -3383
▁ㅌㅏㅋ -3384
▁ㅇㅞㄴ -3385
▁http -3386
▁ㅅㅓㄴㅇㅓㄴ -3387
▁ㄹㅣㅇㅓ -3388
▁85 -3389
▁ㅉㅣ -3390
▁ㅅㅗㅅㅣㄱ -3391
▁ㅎㅕㅁ -3392
▁ㅎㅏㄴㄱㅜㄱㅇㅓ -3393
▁ㅊㅏㄹㅖ -3394
ㅇㅠㄴ -3395
▁ㅎㅖ -3396
▁ㅂㅣㅎㅏ -3397
▁ㅇㅢㅈㅣ -3398
ㅣㄷㅡ -3399
▁ㅇㅣㄹㅏㄱㅗ -3400
▁ㅁㅏㄹㅡ -3401
▁ㄴㅐㄹ -3402
▁ㄱㅓㅈㅣㅅ -3403
▁ㄲㅗㅂ -3404
▁ㅅㅓㄹㄱㅖ -3405
▁ㄴㅡㄴㅑ -3406
▁ㅍㅣㅎㅏ -3407
▁ㅂㅏㅇㅎㅐ -3408
▁ㅇㅕㄱㅈㅓㄴ -3409
▁ㅅㅡㅇㅂㅜ -3410
▁ㅅㅏㄹㅇㅏㄴㅏㅁ -3411
▁ㄴㅏㅃㅡ -3412
▁ㅈㅏㄷㅗㅇㅊㅏ -3413
▁ㅌㅐㅅ -3414
▁193 -3415
ㅈㅏㄹㅣ -3416
▁ㅈㅣㄴㄷㅏ -3417
▁53 -3418
ㅠㅌㅓ -3419
▁54 -3420
▁2002 -3421
▁ㄱㅘㄴㅎㅏㄴ -3422
▁ㅅㅏㄱㅘ -3423
▁ㄷㅐㄷㅏㄴ -3424
▁ㅇㅕㄹㅡㅁ -3425
ㅌㅡㅁ -3426
▁ㅋㅏㅍㅔ -3427
▁ㅇㅕㄴㄱㅖ -3428
▁ㅇㅓㅁㅁㅏ -3429
▁ㅁㅗㅌㅣㅂㅡ -3430
▁ㅈㅐㅁㅣ -3431
▁ㅅㅜㅅㅈㅏ -3432
ㅡㅌㅡ -3433
▁ㅍㅣㄹㅅㅏㄹㄱㅣ -3434
▁ㅈㅗㄱㅏㄱ -3435
▁ㄷㅏㄻ -3436
▁ㅈㅓㅈㅜ -3437
▁ㅇㅘㅅㅓ -3438
▁ㄱㅏㄷ -3439
▁ㄱㅣㅈㅏ -3440
▁ㅅㅗㅇㅜㄹ -3441
▁ㅈㅣㄴㅇㅣㅂ -3442
ㅐㅂ -3443
▁ㅂㅜㄹㄱㅘ -3444
▁ㄷㅓㅂㅡㄹ -3445
▁ㅁㅣㄹㅣ -3446
ㅇㅗㅅ -3447
▁ㄴㅜㄱㅜㄴ -3448
▁ㅊㅔㅇㅠㄱ -3449
▁ㅅㅑㅇ -3450
▁ㅃㅏㅈㅕ -3451
▁ㅅㅕ -3452
▁ㅇㅣㄴㄷㅗ -3453
▁ㅎㅘㅇㄱㅡㅁ -3454
▁PC -3455
▁ㅁㅐㅈ -3456
▁ㅅㅏㅇㄷㅐㅂㅏㅇ -3457
▁ㅇㅑㅁㅏ -3458
▁ㅇㅘㄴㄹㅛ -3459
ㅗㄹㅗ -3460
▁ㅈㅣㄹㅁㅜㄴ -3461
ㅔㅇㅣㄹ -3462
▁ㅎㅡㅂㅅㅜ -3463
▁ㅇㅣㅌㅏㄹㄹㅣㅇㅏ -3464
▁ㄱㅏㅈㅓㅇ -3465
ㅣㄹㄹㅓ -3466
▁ㅅㅐㅇㅅㅓㅇ -3467
▁ㅅㅏㄴㅇㅓㅂ -3468
▁ㅊㅏㄱㅇㅛㅇ -3469
ㅅㅠ -3470
ㅇㅡㄴㅣ -3471
▁ㅈㅓㄱㅈㅓㄹ -3472
▁ㅎㅐㅈㅔ -3473
▁Sh -3474
▁ㄱㅗㅇㅎㅘ -3475
▁ㅇㅣㄹㅡ -3476
▁ㅋㅓㅁㅍㅠㅌㅓ -3477
▁ㄷㅏㄴㅅㅜㄴㅎㅣ -3478
ㄷㅗㅇㅅㅐㅇ -3479
▁ㄱㅏㅈㅕㅇ -3480
▁ㅌㅓㅁㅣㄴㅓㄹ -3481
▁ㅋㅛ -3482
dddd -3483
▁dddddd -3484
▁ㄱㅕㅂ -3485
▁ㅆㅓㅆ -3486
▁ㅍㅛㅈㅓㅇ -3487
▁ㅅㅜㅎㅗ -3488
ㄲㅐ -3489
▁ㅍㅣㄹㅅㅜ -3490
▁ㄱㅔㄴ -3491
▁ㅋㅏㅇㅜㄴㅌㅓ -3492
▁ㅇㅗㅌㅗ -3493
▁ㄸㅏㄱㅎㅣ -3494
ㅣㄱㅓ -3495
▁ㅅㅓㄴㅈㅓㅇ -3496
▁ㅇㅢㅅㅣㅁ -3497
▁ㄷㅗㄱㅈㅏ -3498
▁ㅅㅡㅋㅣㄴ -3499
▁ㅍㅕㄴㅅㅓㅇ -3500
▁ㄴㅏㄹㄱㅐ -3501
ㄹㅏㅇㅣㄴ -3502
▁ff -3503
▁ㅇㅓㄴㅇㅓ -3504
▁ㅇㅣㄴㄹㅠ -3505
▁ㅇㅓㅇㅜㄹ -3506
▁ㅎㅐㅇㅈㅓㄱ -3507
▁ㅈㅓㄴㅎㅘㄴ -3508
▁ㅅㅓㄴㅁㅜㄹ -3509
▁ㅎㅘㄱㅅㅣㄹㅎㅣ -3510
up -3511
▁ㅅㅡㅂㄱㅕㄱ -3512
▁ㅁㅜㄹㅕㄱ -3513
▁ㅇㅔㅇㅣㅅㅡ -3514
▁ㄱㅏㅁㅇㅏㄴ -3515
▁ㄷㅏㅇㅈㅏㅇ -3516
▁ㄲㅜㅈㅜㄴ -3517
▁ㅅㅏㅈㅏㅇ -3518
▁ㅇㅚㄴㅉㅗㄱ -3519
▁ㅅㅓㄹㄹㅣㅂ -3520
▁ㅌㅡㄱㄱㅣ -3521
▁ㅍㅠ -3522
▁ㅌㅔㅁㅏ -3523
▁ㅁㅠㅈㅣㄱ -3524
▁ㄱㅣㅈㅓㅁ -3525
▁ㅈㅣㅂㄷㅏㄴ -3526
▁ㅍㅐㅅㅣㅂㅡ -3527
▁ㅎㅏㅁㄷㅐ -3528
▁ㅈㅏㄶ -3529
▁ㅇㅠㄷㅗ -3530
▁ㅇㅏㄴㅈㅓㄴ -3531
▁ㄹㅔㄱ -3532
ㅆㅏ -3533
▁ㅅㅗㄹㄹㅗ -3534
▁ㄱㅐㅅㅓㄴ -3535
▁ㅈㅔㄷㅗ -3536
▁re -3537
ㅎㅣㄴㄷㅏ -3538
▁ㄷㅏㅇㅎㅐ -3539
▁i -3540
▁ㄴㅗㅍㅇㅣ -3541
▁59 -3542
▁ㄲㅏㅁ -3543
▁ㅈㅏㅁㄲㅏㄴ -3544
▁ㄲㅓㄴ -3545
ㅇㅜㄱ -3546
▁ㅅㅣㅁㅎㅏ -3547
▁ㅇㅟㅇㅝㄴㅎㅚ -3548
▁ㅎㅘㄱㅂㅗ -3549
ㅂㅌㅓ -3550
▁ㄷㅔㅇㅣㅌㅓ -3551
▁ㅎㅐㅇㅂㅗㄱ -3552
▁MP -3553
▁ㄱㅕㅇㄹㅕㄱ -3554
▁ㅎㅚㅈㅓㄴ -3555
VE -3556
▁ㄷㅡㄹㅏㅇㅣ -3557
ㄱㅚ -3558
▁ㄱㅜㅊㅜㄱ -3559
ㅆㅏㅇ -3560
ㅜㄹㅕㄱ -3561
▁ㅋㅗㅊㅣ -3562
ㅑㅁㅏ -3563
▁ㅈㅣㅇㅗㄱ -3564
▁ㅌㅣㅇ -3565
▁ㅁㅗㄹㅣ -3566
ㅏㄹㅣㅇㅗ -3567
▁ㄴㅏㅅㅓ -3568
▁ㅇㅡㄹㅗㅂㅜㅌㅓ -3569
▁ㅌㅗㅇㄱㅘ -3570
▁ㅎㅢㅁㅏㅇ -3571
ㄴㅗㅎ -3572
▁ㅇㅏㄴㄷㅡㄹ -3573
▁ㅅㅣㄴㅐ -3574
▁Re -3575
▁ㅈㅣㄴㅈㅓㅇ -3576
ㅓㄴㅏㄴ -3577
▁ㅇㅗㄹㄹㅣㅁㅍㅣㄱ -3578
▁ㅈㅔㅇㅏㅂ -3579
▁ㅈㅏㅇㄱㅜㄴ -3580
▁ㅇㅣㄹㅈㅗㅇ -3581
▁ㅅㅣㄴㅏㄹㅣㅇㅗ -3582
ate -3583
▁ㅈㅓㄴㅌㅗㅇ -3584
▁Sp -3585
▁ㄱㅏㅅㅡㅁ -3586
▁58 -3587
▁ㄱㅓㄷㅜ -3588
▁ㅅㅏㅇㅊㅓ -3589
▁ㄴㅐㄹㅕㄱ -3590
▁ㅎㅏㅇㅟ -3591
ard -3592
▁ㄷㅏㄹㄹㅕ -3593
▁ㅇㅡㄹㅈㅣ -3594
▁ㄷㅐㄷㅏㅂ -3595
▁ㅎㅓㅅ -3596
▁ㅁㅏㅊㅣㅁ -3597
▁ㅈㅓㄱㄱㅡㄱ -3598
ㅣㄹㅏ -3599
▁ㄹㅗㅅㅡ -3600
▁ㄹㅏㄷㅣㅇㅗ -3601
▁ㅎㅚㅅㅅㅜ -3602
▁ㄷㅠㅇㅓㄹ -3603
▁ㅇㅣㅅㅏ -3604
▁ㄱㅗㅇㅎㅏㅇ -3605
▁120 -3606
▁ㄹㅗㅆㅓ -3607
▁ㅊㅔㅈㅔ -3608
▁ㅊㅗㄷㅐ -3609
AT -3610
▁ㄷㅐㅅ -3611
▁ㅈㅓㄴㅈㅏㅇ -3612
ㅏㅅㅡ -3613
▁ㅍㅕㄴㅈㅣㅂ -3614
▁ㄷㅣㄹㄹㅓ -3615
ㅍㅜㄹ -3616
▁ㅂㅏㅇㅁㅜㄴ -3617
ㄱㅣㄴㄷㅏ -3618
ang -3619
OR -3620
▁ㅁㅜㄴㅁㅕㅇ -3621
▁57 -3622
▁ㅂㅓㅌㅡㄴ -3623
▁ㅂㅣㄷㅣㅇㅗ -3624
▁ㄷㅗㄹㅇㅏ -3625
▁ㅇㅢㅁㅜㄴ -3626
▁ㅂㅐㅁ -3627
▁ㅎㅐㄱㅡㅁ -3628
▁ㄷㅚㅁ -3629
▁ㄴㅜㄴㅊㅣ -3630
ㄷㅡㅂ -3631
▁ㅇㅟㅈㅜ -3632
▁ㅁㅜㄲ -3633
▁ㅎㅕㄴㅈㅏㅇ -3634
▁ㅇㅣㅇㅓㅈㅣ -3635
▁66 -3636
▁95 -3637
▁ㄱㅗㅇㅅㅏ -3638
▁ㅋㅔㅇㅣㅅㅡ -3639
▁ㅅㅜㅇㅝㄴ -3640
▁ㅌㅐㄷㅗ -3641
ㅌㅡㄹㅗㄹ -3642
▁ㄷㅗㅇㅁㅐㅇ -3643
▁ㅂㅗㅁ -3644
▁2003 -3645
▁ㅇㅕㄴㅈㅜ -3646
▁ㄱㅗㅌㅗㅇ -3647
▁ㅁㅣㅅㅡ -3648
▁ㄸㅔ -3649
ㅋㅓㄴ -3650
▁ㅈㅏㄱㅅㅓㅇ -3651
ㅅㅏㅋㅣ -3652
▁ㄱㅘㅇㅈㅜ -3653
▁ㅊㅓㅊㅣ -3654
▁ㅈㅣㄴㅇㅕㅇ -3655
▁ㄷㅐㄴㅗㅎ -3656
▁ㅅㅡㅍㅏㅇㅣ -3657
▁ㄹㅣㅅㅡ -3658
▁ㄷㅗㄹㅍㅏ -3659
▁ㅌㅐㅇㅑㅇ -3660
ㄹㅓㄴㅅㅡ -3661
ㅏㄴㅗ -3662
ㅌㅣㅁ -3663
▁ㅈㅏㅇㅈㅓㄴ -3664
▁ㄱㅖㄱㅣ -3665
▁ㅂㅣㄴㅏㄴ -3666
▁ㅈㅐㄴ -3667
▁ㅁㅏㅇㅘㅇ -3668
▁ㅎㅐㅁ -3669
▁ㅂㅜㄴㄹㅣ -3670
ㅏㅇㅣㅌㅡ -3671
▁ㄴㅗㄷㅗㅇ -3672
▁ㅁㅓㄹㅌㅣ -3673
▁ㄲㅏㄲ -3674
▁ㅌㅜㅈㅏ -3675
▁ㅇㅖㅅㅓㄴ -3676
▁ㅁㅏㅋㅡ -3677
▁ㅅㅡㅍㅔㅇㅣㄴ -3678
▁ㅂㅣㅌㅡ -3679
ㅜㄹㅕ -3680
▁ㅊㅚㅇㅏㄱ -3681
▁ㅈㅔㅇㅏㄴ -3682
ㅌㅐㅇ -3683
IA -3684
▁ㅇㅙㄴ -3685
▁ㅇㅠㄱㄱㅜㄴ -3686
ㄷㅚ -3687
▁ㄱㅗㅇㅂㅜ -3688
▁ㄱㅗㅇㅠ -3689
▁ㅇㅏㄴㅣㅁ -3690
▁ㅈㅗㅂ -3691
▁ㅎㅜㅅㅗㄱ -3692
▁ㅅㅏㅁㄱㅜㄱ -3693
▁ㅍㅐㅅㅡ -3694
PS -3695
▁ㅈㅓㄴㅎㅐ -3696
▁ㄱㅞ -3697
▁ㄹㅜㄴ -3698
▁ㄹㅔㅇㅣㅈㅓ -3699
▁ㅅㅣㅊㅔ -3700
▁be -3701
▁ㅇㅞㅇㅣ -3702
ㅇㅛㅇㅣㄹ -3703
▁ㅍㅓㄴ -3704
ess -3705
ok -3706
▁ㅂㅐㅅㅣㄴ -3707
▁ㅅㅡㅍㅔㄱ -3708
ant -3709
▁ㅁㅜㅅㅓㅇ -3710
▁Bl -3711
▁ㅅㅡㅋㅡㄹ -3712
▁ㅎㅚㅇㅢ -3713
ㄷㅜㄹ -3714
▁ㅈㅔㄹㅗ -3715
▁ㅇㅗㄹㅡㄴㅉㅗㄱ -3716
▁ㄱㅏㅈㅕㄱ -3717
ㄷㅣㄴ -3718
▁ㅍㅕㅇㅎㅘ -3719
▁BG -3720
▁ㅇㅔㄱㅔㄴ -3721
ㅅㅚ -3722
▁110 -3723
▁ㄱㅐㅊㅚ -3724
▁ㅅㅓㅇㅇㅣㄴ -3725
▁ㄷㅏㄹㅡㅁ -3726
▁ㅁㅏㅈㅊㅝ -3727
ㅐㄷㅗ -3728
ㄹㅣㅅ -3729
ㅈㅏㄴ -3730
▁ㅎㅐㅈㅣㄴ -3731
▁ㅈㅗㅈㅜㄴ -3732
ㅈㅡㅋㅣ -3733
▁ㅁㅏㄴㄴㅏㄴ -3734
▁on -3735
▁ㅇㅕㅂㅜ -3736
▁ㄱㅔㅇㅣㅈㅣ -3737
▁ㅇㅛㅇㅂㅕㅇ -3738
▁ㅈㅣㄴㅣㄴ -3739
▁ㅈㅓㅁㄹㅕㅇ -3740
▁ㅋㅓㄴㅌㅡㄹㅗㄹ -3741
▁ㅇㅡ -3742
▁ㄱㅜㅇㄱㅡㄱ -3743
▁ㄱㅣㅎㅚㄱ -3744
ㅋㅟ -3745
▁ㅇㅟㅇ -3746
▁ㅌㅏㅂㅈㅐ -3747
▁ㅌㅏㅇㅣㅁㅣㅇ -3748
ell -3749
ㅓㄱㅜ -3750
▁ㄷㅗㄹㄹㅕ -3751
▁ㄱㅡㄱㅈㅏㅇㅍㅏㄴ -3752
▁ㅁㅐㅊㅣ -3753
▁ㅂㅗㄱㅡㅂ -3754
ㅓㅇㅝ -3755
▁ㅇㅏㅁㅓ -3756
IC -3757
▁SS -3758
▁ㅂㅣㄹㄹㅣ -3759
▁ㄱㅓㄴㄴ -3760
▁or -3761
▁ㅈㅣㄴㅅㅣㄹ -3762
▁ㅋㅗㄴㅓ -3763
▁ㅅㅟㅇㅜㄴ -3764
▁ㄱㅡㄹㅕ -3765
▁ㅇㅐㅁㅐ -3766
▁ㄴㅡㄱ -3767
▁ㅊㅚㄷㅐㅎㅏㄴ -3768
▁ㅈㅓㅇㄹㅕㅇ -3769
ct -3770
▁ㅊㅜㅇㅈㅓㄴ -3771
▁62 -3772
▁ㅈㅣㄱㅇㅝㄴ -3773
ㅜㅁㅣ -3774
▁ㅁㅓㄹㄹㅣ -3775
▁ㅂㅡㄹㅣ -3776
ㄱㅣㅁ -3777
▁ㄴㅏㅁㅍㅕㄴ -3778
▁373 -3779
▁ㅇㅑㄱㅅㅗㄱ -3780
▁ㄱㅘㄴㄱㅘㅇ -3781
▁ㅊㅔㅇㅣㄴ -3782
▁ㅂㅡㄹㄹㅜ -3783
ue -3784
▁ㄱㅣㅂㅜㄴ -3785
ine -3786
▁ㄴㅏㄹㄹㅣ -3787
▁ㅅㅜㄴㅅㅓ -3788
▁ㅌㅣㄱ -3789
▁ㅇㅡㄴㅌㅚ -3790
▁ㄱㅕㄴㅈㅔ -3791
▁ㅇㅣㄹㅇㅡㅋ -3792
▁ㅎㅜㅂㅏㄴㅂㅜ -3793
▁ㅇㅗㄴㄹㅏㅇㅣㄴ -3794
▁ㅅㅜㄷㅏㄴ -3795
▁ㄷㅐㄴㅅㅡ -3796
▁ㅌㅡㅁ -3797
▁ㅁㅗㅈ -3798
▁ㄱㅏㅅ -3799
▁ㄴㅜㄱㅜㄴㄱㅏ -3800
▁ㄷㅗㄷ -3801
▁ㄴㅜㄱㅏ -3802
ㅇㅣㄴㄷㅏ -3803
▁ㅁㅗㅅㅕㄴ -3804
ㅇㅓㄷㅗ -3805
▁ㅌㅓㅈㅣ -3806
ㅇㅠㄹ -3807
▁.... -3808
▁ㅇㅏㅁㅜㄹㅐㄷㅗ -3809
▁NP -3810
ㄹㅏㅇㅣㄷㅓ -3811
▁ㅁㅕㄹㅁㅏㅇ -3812
▁ㄹㅔㅈㅓㄴ -3813
▁ㅎㅏㄴㅎㅘ -3814
▁ㅎㅓㅇㅛㅇ -3815
▁ㄱㅛㅎㅚ -3816
▁Al -3817
▁ㅅㅔㄱㅖㄱㅘㄴ -3818
▁ㅅㅡㅍㅣㄷㅡ -3819
▁ㅂㅐㄹㄹㅓㄴㅅㅡ -3820
▁ㅁㅏㅅㅣ -3821
▁ㅁㅣㄴㅈㅜㄷㅏㅇ -3822
▁ㄹㅛ -3823
ist -3824
▁ㅁㅣㅊㅣㄴ -3825
ㅁㅜㅇㅝㄴ -3826
▁ㅎㅜㄱ -3827
▁ㅋㅏㅁㅔㄹㅏ -3828
▁ㅇㅓㄹㅇㅡㅁ -3829
▁76 -3830
▁ㄴㅡㄲㅕ -3831
▁ㅂㅗㄷㅗ -3832
▁ㅂㅏㄲㅟㄴ -3833
▁ㄱㅡㄱㅔ -3834
ㄷㅜㄴ -3835
ㅏㅇㅣㄴ -3836
ㅇㅓㅅㅓ -3837
▁ㅇㅕㅇㅘㅇ -3838
▁ㅁㅗㅅㅎㅏㄴㄷㅏ -3839
ㅗㅇㅣㄷㅡ -3840
▁ㅆㅡㄴㄷㅏ -3841
▁ㅎㅓㄹ -3842
▁ㅈㅔㅇㅣ -3843
▁Th -3844
▁ㅂㅗㅅㅜ -3845
ㅏㄹㅡ -3846
▁ㅌㅔㄱ -3847
▁ㄷㅜㅇ -3848
ove -3849
▁ㅍㅏㅇㅣㅌㅓ -3850
ore -3851
▁ㅋㅟ -3852
ㅎㅡㄱ -3853
▁ㅂㅜㄷㅏㅁ -3854
▁ㅅㅗㅂㅣ -3855
▁ㄱㅐㄹㄹㅓㄹㅣ -3856
▁ㅎㅏㅌㅡ -3857
▁ㄷㅐㅇㅝㄴ -3858
▁ㄷㅡㅇㄷㅡㅇ -3859
ㅣㅇㅔㄹ -3860
▁com -3861
▁ㅌㅗㅅㅡ -3862
▁ㅈㅣㄴㅣ -3863
▁ㅂㅜㄹㅡㄴㄷㅏ -3864
▁ㅌㅐㅇㅓㄴㅏ -3865
▁ㅇㅏㄹㅏ -3866
▁ㄲㅐㅇ -3867
▁ㅇㅠㅇㅛㅇ -3868
▁ㄹㅗㅋㅔㅅ -3869
▁ㅅㅜㄹㅣ -3870
▁ㅅㅏㅂ -3871
▁77 -3872
▁ㄷㅗㄹㄱㅕㄱ -3873
▁61 -3874
▁ㅇㅡㄹㄲㅏ -3875
▁ㅈㅣㅅㅣㄱ -3876
▁ㅅㅜㅅㅏ -3877
▁ㅂㅓㄹㅇㅣ -3878
▁ㅇㅜㅅㅜ -3879
▁ㅁㅣㅇㅑ -3880
▁ㅇㅠㅇㅜ -3881
▁ㅁㅜㄱㅔ -3882
▁ㅅㅏㄻ -3883
▁ㅇㅏㅋㅣ -3884
▁{ -3885
▁ㄱㅗㄱㅡㅂ -3886
▁ㄱㅕㅇㅜ -3887
▁ㅅㅐㅇㅇㅣㄹ -3888
▁ㅋㅣㅁ -3889
▁ㄱㅣㅈㅓㄹ -3890
▁ㄱㅠㅈㅓㅇ -3891
ㅠㄴㅣ -3892
▁ㅊㅏㅂㅕㄹ -3893
▁ㅁㅗㄹㄹㅏ -3894
▁ㅂㅗㄴㅅㅓㄴ -3895
▁ㄷㅗㄹㅇㅏㅇㅗ -3896
▁ㄸㅓㄹㅇㅓㅈㅣㄴ -3897
ㅁㅏㅅㅡ -3898
ort -3899
ㄹㅐㄴㄷㅡ -3900
ㅜㅁㅕㅇ -3901
▁ㅂㅣㅅ -3902
▁88 -3903
▁ㄴㅡㄴㄷㅏㄱㅗ -3904
▁ㅇㅏㄹㄹㅕㅈㅕ -3905
▁ㅋㅓㅁㅠㄴㅣ -3906
▁72 -3907
▁ㄱㅡㄹㅣㅅㅡ -3908
▁ㅈㅜㅇㄷㅏㄴ -3909
▁ㄱㅏㅁㅕㄴㄹㅏㅇㅣㄷㅓ -3910
▁ㄹㅐㄴㄷㅓㅁ -3911
▁ㅊㅡㄱㅁㅕㄴ -3912
▁ㄲㅣㄹㅣ -3913
▁ㅂㅕㅇㄱㅣ -3914
ㅇㅢㅇㅝㄴ -3915
▁ㅂㅜㄴㅇㅑ -3916
ㅅㅣㅁㅎㅣ -3917
▁ㅈㅏㅇㄱㅣ -3918
ㅇㅓㅇ -3919
▁ㅍㅏㅂ -3920
▁ㅇㅓㅉㅐ -3921
▁ㄴㅏㄴㅜ -3922
▁ㄷㅚㄴㄷㅏㄱㅗ -3923
ㅋㅡㄹㄹ -3924
▁ㅈㅣㅈㅓㅁ -3925
▁} -3926
▁ㅈㅏㄱㅗ -3927
▁ㅇㅏㅍㅡㄹㅣㅋㅏ -3928
ㅏㅇㅜ -3929
▁ㅇㅣㄴㅈㅣㄹㅏ -3930
ㅎㅏㄹㅏ -3931
▁2001 -3932
▁ㅍㅏㅌㅡ -3933
▁ㅋㅣㄱ -3934
▁ㄷㅏㄱㅌㅓ -3935
▁ㄴㅔㅅ -3936
ㅔㅇㅣㅌㅡ -3937
▁ㄱㅜㅎㅐ -3938
▁ㅁㅏㄴㅕ -3939
▁ㅋㅡㄹㅗㅅㅡ -3940
▁ㅍㅐㄹㅓㄷㅣ -3941
▁ㄴㅜㄹㅡ -3942
▁ㅎㅏㄴㅈㅏ -3943
▁ㅉㅏㄹ -3944
▁ㅂㅏㄹㅎㅟ -3945
▁ㅇㅓㄴㄴㅣ -3946
▁ㅈㅜㅁㅗㄱ -3947
▁ㄱㅕㅇㄱㅣㄷㅗ -3948
▁ㄱㅡㄹㅓㄹ -3949
▁ㅈㅏㅅㅏㄹ -3950
ㅇㅓㅈㅣ -3951
ㄹㅠㅇ -3952
▁ㅅㅏㅁㅜ -3953
ㅌㅓㅁ -3954
▁ㅎㅚㅅㅜ -3955
▁ㄷㅗㅅㅓ -3956
ive -3957
▁ㅇㅚㅂㅜ -3958
▁ㅇㅣㄴㅅㅐㅇ -3959
▁ㅇㅣㅂㅅㅜ -3960
▁ㅇㅔㅅㅡ -3961
▁ㅍㅣㅎㅐㅈㅏ -3962
▁ㅅㅏㄹㅎㅐ -3963
▁ㅊㅟㅅㅗ -3964
▁ffff -3965
▁ㄴㅐㄹㅕ -3966
▁ㄱㅕㅇㄱㅖ -3967
ㅇㅕㅂ -3968
▁ㄱㅗㅇㅌㅗㅇ -3969
▁ㅁㅣㄴㅣ -3970
▁ㅂㅓㄹㅕ -3971
ㅊㅗㄱ -3972
OS -3973
ㄹㅓㅇ -3974
▁ㅆㅓㅁ -3975
▁ㅇㅠㄹㅐ -3976
ㄹㅓㅅ -3977
▁ㅈㅣㄴㅐ -3978
ㅔㄹㅣ -3979
▁ㄷㅗㄱㅜ -3980
ong -3981
ㄲㅡㅁ -3982
▁ㄱㅣㅇㅓ -3983
▁ㄱㅛㅎㅘㄴ -3984
ㅔㅅㅕㄹ -3985
▁ㄱㅗㅇㅇㅝㄴ -3986
▁ㅇㅣㅅㅓㅇ -3987
▁ㅋㅓㅂㅓ -3988
▁ㅇㅏㅊㅣㅁ -3989
▁ㄱㅐㅍㅕㄴ -3990
▁ㄱㅜㄱㅈㅓㄱ -3991
▁ㅈㅔㅅㅣ -3992
▁ㅇㅗㅍㅡㄴㅣㅇ -3993
▁ㅇㅓㅊㅏ -3994
▁SBS -3995
▁ㄱㅣㄷㅏㄹㅣ -3996
▁ㅁㅣㄴㅈㅗㄱ -3997
▁ㅌㅡㅇㅟㅌㅓ -3998
▁ㄱㅗㅇㅈㅏㅇ -3999
▁ㅅㅡㅇㄱㅏㅇ -4000
▁ffffff -4001
ers -4002
▁ㄴㅏㅃㅡㄴ -4003
▁ㅇㅓㅊㅏㅍㅣ -4004
AM -4005
▁ㅅㅡㅍㅔㅅㅕㄹ -4006
▁ㅇㅗㄴㄱㅏ -4007
▁ㄱㅖㅅㅏㄴ -4008
▁ㅇㅣㄱㅓ -4009
▁ㅈㅐㅍㅏㄴ -4010
▁ㅎㅐㄱㅅㅣㅁ -4011
▁ㅇㅜㄱ -4012
▁ㅅㅓㅍㅗ -4013
▁ㅂㅜㅈㅣㄴ -4014
ㅋㅡㄹㅐㅍㅡㅌㅡ -4015
▁ㄱㅓㄴㅈㅣ -4016
▁ㄷㅐㄴㅗㅎㄱㅗ -4017
▁PS -4018
▁ㅉㅏㅇ -4019
▁ㅂㅜㅇㄱㅚ -4020
▁ㅅㅏㄷㅏㄴ -4021
AS -4022
▁ㅈㅏㅇㅇㅐ -4023
▁98 -4024
ㅇㅕㅅㅓ -4025
▁ㄱㅛㅅㅏ -4026
▁ㄱㅜㅇㅣㅂ -4027
ㅋㅏㅇㅘ -4028
▁ㅇㅗㄴㄱㅏㅈ -4029
ㅔㄹㄹㅏ -4030
▁ㅂㅏㅌㅏㅇ -4031
▁ㄷㅏㄴㄷㅗㄱ -4032
▁ㅁㅔㅌㅏㄹ -4033
ㅁㅐㄱ -4034
▁191 -4035
▁ㄱㅓㅈㅓㄹ -4036
▁ㄱㅕㅇㅜㄹ -4037
ㅊㅣㄴㄷㅏ -4038
▁ㄷㅣㅇ -4039
▁ㅊㅜㄹㅅㅐㅇ -4040
▁ㅂㅡㄹㅐㄴㄷㅡ -4041
▁ㅇㅛㅇㄷㅗ -4042
▁ㄱㅏㅂㅇㅗㅅ -4043
▁ㅊㅗㄴ -4044
▁ㅋㅏㄱ -4045
ㄷㅏㅅㅜ -4046
▁ㅇㅕㅇㅇㅕㄱ -4047
▁ㄷㅏㅇㅅㅓㄴ -4048
▁ㄷㅔㄹㅣ -4049
▁ㅂㅜㄴㅅㅓㄱ -4050
▁ㄱㅜㄴㅈㅜ -4051
▁ㅌㅏㄴㅅㅐㅇ -4052
▁ㅇㅓㅉㅓㄹ -4053
▁ㅇㅑㄱㅎㅏㄴ -4054
▁ㅈㅗㅎㅇㅏㅎㅏ -4055
▁ㅂㅘㅇㅑ -4056
▁ㅅㅏㄹㅉㅏㄱ -4057
▁ㅊㅜㄹㅂㅏㄹ -4058
ㅌㅣㅋㅓㄹ -4059
▁ㅎㅏㅁㅅㅓㄴ -4060
▁ㄴㅐㄹㅕㅇ -4061
▁ㅇㅛㅇㅝㄴ -4062
▁ㅇㅡㄴㄱㅡㄴ -4063
ㅍㅣㅅㅡ -4064
ED -4065
▁ㅈㅔㄱㅣ -4066
▁ㄴㅏㅂㅊㅣ -4067
ㅠㅁ -4068
ip -4069
▁ㄲㅜㅈㅜㄴㅎㅣ -4070
▁ㅅㅗㅅㅜ -4071
▁ㄱㅟㅈㅗㄱ -4072
▁ㅁㅔㄱ -4073
▁ㅇㅡㄴㅎㅐㅇ -4074
▁ㅍㅔㅇㅣㅈㅣ -4075
▁ㅈㅜㅇㅕㄴ -4076
▁ㅈㅜㄹㅇㅓㄷㅡㄹ -4077
▁ㅇㅏㅋㅏ -4078
▁ㅎㅘㅅㅏㄹ -4079
▁ㅌㅏㅇㅝ -4080
▁ㅅㅓㄴㅂㅐ -4081
ain -4082
ㅌㅡㅇ -4083
▁ㅇㅗㅎㅜ -4084
▁CD -4085
▁ㅈㅏㅅㅣㄱ -4086
▁ㅅㅡㅌㅡㄹㅏㅇㅣ -4087
ㅏㅇㅝ -4088
▁ㅍㅏㅇㅏㄱ -4089
▁ㅈㅐㅅㅐㅇ -4090
if -4091
▁ㄱㅗㅁㅣㄴ -4092
▁600 -4093
▁ㅇㅕㄹㄹㅣㄴ -4094
▁ㅅㅡㅂㄷㅡㄱ -4095
▁ㄸㅏㅈㅣ -4096
▁ㅊㅑ -4097
ㅍㅣㅇㅏ -4098
▁ㅅㅜㄴㅅㅜ -4099
▁ㅇㅛㅅㅣ -4100
▁ㄷㅐㄱㅗㅇ -4101
▁ㅈㅏㄱㅕㄱ -4102
▁ㅆㅗㄷ -4103
▁ㅇㅖㅅㅜㄹ -4104
ㅁㅏㅈ -4105
▁ㅇㅓㅂㅁㅜ -4106
ㄱㅏㄹㅏㄱ -4107
▁ㅎㅗㅇㅂㅗ -4108
ㅅㅏㅋㅏ -4109
▁ㅎㅕㅂㄹㅕㄱ -4110
▁ㄱㅗㅅㅓ -4111
ee -4112
▁ㅈㅏㅇㅅㅣㄱ -4113
▁ㄷㅏㅇㅎㅘㅇ -4114
▁ㄴㅗㄹㄹㅏ -4115
▁ㅇㅏㄹㄹㅣ -4116
▁1990 -4117
▁ㄸㅓㄹㅇㅓㅈㅕ -4118
ㅣㄴㅈㅣ -4119
▁ㄱㅜㄴㅇㅣㄴ -4120
▁ㅇㅠㅎㅕㅇ -4121
▁ㄹㅛㅇ -4122
▁ㅂㅗㅈㅓㅇ -4123
▁ㅁㅗㄹㅡㄴㄷㅏ -4124
▁ㅇㅓㅉㅣ -4125
▁| -4126
ㄷㅣㅅㅕㄴ -4127
▁ㅎㅜㄹㄹㅠㅇ -4128
▁ㄱㅓㄴㄱㅏㅇ -4129
▁ㅂㅔㅇㅣㅅㅡ -4130
▁ㅈㅣㄴㅏㄱㅏ -4131
EN -4132
▁ㅂㅏㄼ -4133
▁ㅇㅕㄹㅅㅣㅁㅎㅣ -4134
ㄷㅏㅇㅜㄴ -4135
▁ㅌㅔㄹㅓ -4136
▁ㄹㅔㅈㅓㄴㄷㅡ -4137
▁ㅈㅓㄱㄷㅏㅇ -4138
ㅌㅓㄹㅣ -4139
▁ㅍㅗㄱㅍㅜㅇ -4140
ㄹㅔㅇㅣ -4141
▁ㅅㅣㄴㅎㅘ -4142
▁ㄱㅕㅇㅇㅠ -4143
▁ㅆㅡㄹㅔ -4144
▁ㄷㅐㅅㄱㅡㄹ -4145
▁ㅇㅕㅇㅇㅝㄴ -4146
▁ㅇㅡㅇㅇㅝㄴ -4147
▁ㄱㅣㅃ -4148
▁ㅎㅡㄴㅎㅣ -4149
▁MV -4150
▁ㄴㅐㄴㅐ -4151
▁ㅉㅏㄱ -4152
▁ㄷㅟㅈㅣㅂ -4153
▁ㅂㅜㄹㅇㅏㄴ -4154
▁ㄸㅡㄴ -4155
▁63 -4156
ㅞㅇㅣ -4157
▁ㅁㅜㅈㅓㄱ -4158
▁ㅋㅝㄹ -4159
▁ㅉㅏㄹㅣ -4160
▁ㅂㅗㅁㅜㄹ -4161
▁ㅂㅣㄹㅗㄱ -4162
▁ㅍㅐㅇ -4163
▁ㅇㅡㄹㅕ -4164
ㅂㅣㄹ -4165
▁ㄱㅣㅁㅅㅓㅇ -4166
▁ㅈㅓㅇㅁㅏㄹㄹㅗ -4167
▁ㅂㅜㅇㅣㄴ -4168
▁ㄱㅗㅁ -4169
▁ㅌㅏㅂㅅㅡㅇ -4170
▁ㅁㅏㄴㅈㅗㄱ -4171
ㅅㅗㄴㅕㄴ -4172
ㄲㅜ -4173
▁ㅅㅗㄷㅡ -4174
▁ㅊㅜㄹㅊㅓ -4175
▁ㅈㅗㅇㅈㅓㅁ -4176
▁ㅈㅏㅇㄱㅘㄴ -4177
ㅊㅕㅅㅓ -4178
▁ㅎㅑㅇㅎㅐ -4179
▁ㅎㅗㄴㄹㅏㄴ -4180
▁ㅂㅓㅅㅇㅓㄴㅏ -4181
▁68 -4182
▁ㅂㅓㅌㅣ -4183
ㅇㅣㄱ -4184
▁ㅊㅐㅇㅛㅇ -4185
▁ㅇㅘㅇㅈㅏ -4186
ㅂㅜㅇ -4187
▁ㅈㅓㄴㅎㅏㅁ -4188
▁ㅅㅣㄹㅈㅣㄹ -4189
▁ㄴㅔㅇㅣㅂㅓ -4190
▁ㄱㅏㅈㅕㅆ -4191
▁ㄸㅏㄹㅡㄴ -4192
ith -4193
ㅇㅏㅁㅓㄱ -4194
ld -4195
▁ㅇㅜㄴㅈㅓㄴ -4196
▁ㅎㅔㄷㅡ -4197
▁ㄹㅐㅂ -4198
▁ㅂㅗㄴㅁㅕㅇ -4199
▁ㅋㅓㄴㅌㅔㄴㅊㅡ -4200
▁ㅅㅡㅋㅗㅇㅓ -4201
▁ㅅㅐㅁ -4202
▁ㅁㅗㅅㅎㅐ -4203
▁ㄷㅐㄷㅏㅅㅜ -4204
▁ㅁㅜㄴㅈㅔㅈㅓㅁ -4205
ly -4206
▁ㄱㅓㄹㅐ -4207
▁ㅇㅜㄴㅁㅕㅇ -4208
▁ㅂㅏㄴㄱㅕㄱ -4209
▁ㄴㅏㅎ -4210
▁ㄴㅓㄴ -4211
▁800 -4212
▁ㄸㅟㅇㅓㄴㅏ -4213
▁ㅎㅢㄴ -4214
▁ㄹㅗㅇㅜㄴ -4215
▁ㄱㅖㄱㅡㅂ -4216
▁ㄱㅠㄴ -4217
▁71 -4218
▁ㄱㅔㅅㅣ -4219
▁ㅈㅜㄷㅗ -4220
▁ㅂㅏㄱㅅㅡ -4221
ㅘㅅㅓ -4222
▁ㅈㅜㅇㄱㅖ -4223
▁ㅁㅣㄱㅜㄴ -4224
▁ㅅㅜㅁㄱㅕ -4225
▁ㅋㅓㅁㅠㄴㅣㅌㅣ -4226
▁ㅈㅓㅇㄹㅠ -4227
▁ㅅㅜㅅㅜㄹ -4228
▁ㄹㅏㅇㅣㅂㅓㄹ -4229
ind -4230
▁ㅊㅗㅇㅝㄹ -4231
▁ㅈㅣㄱㅡㅂ -4232
▁ㅂㅏㄲㅝ -4233
▁ㄷㅗㄹㅈㅣㄴ -4234
▁ㅇㅗㄹㅠ -4235
▁ㄷㅜㅅㅏㄴ -4236
▁ㅅㅜㅇㅣㅂ -4237
▁74 -4238
▁ㄱㅏㄲㅏㅇㅣ -4239
▁AC -4240
▁ㅊㅜㄴ -4241
ㄴㅔㅅ -4242
▁ㄷㅗㄹㄹㅣ -4243
▁ㅈㅓㄴㄱㅗㅇ -4244
ㅇㅏㄹㅣ -4245
▁ㅇㅗㅎㅐ -4246
▁ㅇㅕㄴㄷㅗ -4247
▁ㅇㅕㄴㅇㅖ -4248
▁ㅁㅗㅇㅡ -4249
▁ㅅㅡㅋㅏ -4250
ㅈㅜㅁ -4251
OL -4252
▁ㅍㅡㄹㅣㅁ -4253
▁ㅊㅣㅁㅕㅇㅌㅏ -4254
▁ㄱㅗㅇㄱㅜㄴ -4255
▁67 -4256
▁ㅅㅓㄹㄷㅡㄱ -4257
▁ㅊㅔㄱㅖ -4258
▁ㄴㅏㄲ -4259
ㅏㄴㅎㅣ -4260
▁ㅅㅗㅁㅜㄴ -4261
ㅔㄹㅡ -4262
ew -4263
▁ㅌㅗㅇㅇㅣㄹ -4264
▁ㅊㅜㅇㄷㅗㄹ -4265
ㄹㅣㅌㅣ -4266
ㅓㄴㅅㅡ -4267
▁ㅇㅕㅅㅣㄴ -4268
▁ㅂㅏㄴㅇㅕㅇ -4269
ㅡㅁㅏ -4270
ㅣㅅ -4271
▁ㅈㅡㄱㅅㅣ -4272
▁ㄷㅏㄴㅇㅟ -4273
▁ㅎㅘㅈㅏㅇ -4274
ㅌㅗㄹㅣ -4275
▁ㄱㅣㄱㅣ -4276
ㅂㅜㄹㅓ -4277
▁ㄹㅓㅂㅡ -4278
ry -4279
ㅠㅋㅣ -4280
▁73 -4281
▁ㅋㅗㅁㅣㄱㅅㅡ -4282
ㅌㅜㄴ -4283
▁ㄴㅔㅇㅣㅁ -4284
▁ㅂㅜㄹㄲㅗㅊ -4285
ㄹㅗㄷㅡ -4286
▁ㄱㅡㄹㅣㅁㅈㅏ -4287
▁TH -4288
▁ㅇㅗㄹㄹㅏㄱ -4289
▁ㅍㅕㄴㅇㅢ -4290
▁ㅇㅏㄴㅅㅡㅂ -4291
ast -4292
▁ㄱㅗㄱㅣ -4293
▁ㅊㅗㄹ -4294
▁ㅈㅏㅇㅅㅜ -4295
▁ㄷㅏㅎ -4296
▁ㅇㅏㅅㅣㅇㅏ -4297
ㄷㅏㅈㅣ -4298
▁96 -4299
▁NC -4300
▁ㅎㅗㅇㅋㅗㅇ -4301
▁ㅎㅏㄱㄱㅘ -4302
▁ㅈㅓㄴㅌㅜㄹㅕㄱ -4303
▁ㄷㅏㅇㅎㅏㄴㄷㅏ -4304
▁ㅈㅡㅇㄱㅓ -4305
▁ㄹㅔㅂ -4306
▁ㅍㅡㄹㅔ -4307
ㅡㄴㅏ -4308
▁ㅅㅣㅇㅑ -4309
▁AT -4310
▁ㅈㅜㄴㅕㄴ -4311
ㅋㅗㅁ -4312
▁ㅎㅐㅂㅏㅇ -4313
▁ㄷㅏㅎㅐㅇㅎㅣ -4314
ㅁㅓㄴㅣ -4315
▁ㅁㅗㅂㅏㅇ -4316
ㅌㅏㅇㅣㄴ -4317
▁ㅋㅡㄹㅣㅌㅣㅋㅓㄹ -4318
ㅈㅔㄴ -4319
▁ㅂㅣㅇㅠㄹ -4320
▁me -4321
▁ㅈㅏㄱㅅㅏ -4322
IT -4323
▁ㄴㅏㄴㄷㅏ -4324
▁ㅅㅡㅍㅡㄹ -4325
▁ㅇㅏㅁㅜㄱ -4326
▁ㅅㅡㄹㄹㅗㅅ -4327
▁ㅈㅣㅅㅣ -4328
▁ㄱㅜㄱㅎㅚㅇㅢㅇㅝㄴ -4329
ㅞㅇㅓ -4330
ㄹㅓㅆ -4331
▁ㅁㅔㅌㅏ -4332
▁ㄷㅡㄹㅇㅓㄱㅏㅆ -4333
▁ㄸㅓㄱㅂㅏㅂ -4334
▁ㅅㅏㅇㅎㅑㅇ -4335
▁ㄲㅓㄴㅐ -4336
▁ㅇㅣㄹㅂㅜㄹㅓ -4337
LC -4338
▁ㅅㅐㅇㅁㅕㅇㄹㅕㄱ -4339
▁ㅅㅣㄴㄹㅚ -4340
▁ㅂㅕㄴㅎㅏ -4341
▁ㄷㅡㄹㅇㅓㄱㅏㄴ -4342
ㄴㅕㅁ -4343
▁ㅇㅑㄱㅎㅏ -4344
▁ㄱㅕㄱㅍㅏ -4345
▁ㄱㅣㅅ -4346
EC -4347
▁ㄱㅗㅇㅎㅘㄱㅜㄱ -4348
▁81 -4349
▁ㄱㅡㄷㅏㅈㅣ -4350
▁ㄱㅘㄴㄱㅐㄱ -4351
▁ㄱㅏㅁㅅㅏ -4352
▁ㅅㅣㅁㅈㅏㅇ -4353
▁ㅇㅏㅁㅎㅡㄱ -4354
▁ㅅㅜㅇㅓㅂ -4355
▁ㄴㅓㄱ -4356
▁ㅁㅏㅅㅜㄹ -4357
▁ㅍㅏㅇㅣㄴㅓㄹ -4358
▁CP -4359
ㅌㅏㅈㅣ -4360
▁ㄴㅣㄴㅈㅏ -4361
▁ㄱㅡㅁㅏㄴㅋㅡㅁ -4362
▁ㄷㅡㅇㅍㅏㄴ -4363
▁ㅅㅏㅈㅓㄴ -4364
▁ㄷㅓㅍ -4365
▁ㄱㅏㅇㅎㅐ -4366
▁ㅅㅣㄴㄱㅗ -4367
▁ㄷㅚㅂㄴㅣㄷㅏ -4368
▁ㅋㅜㄴ -4369
ㅂㅏㄹㅗ -4370
▁ㅁㅜㄴㅈㅏ -4371
ㄷㅠ -4372
▁ㅍㅏㄴㅌㅏㅈㅣ -4373
▁ㄷㅗㅇㄴㅔ -4374
▁ㄱㅏㄷㅡㄱ -4375
▁ㅂㅜㅌㅈㅏㅂ -4376
▁ㄴㅏㄹㅇㅏㄱㅏ -4377
ㅏㅌㅡ -4378
▁j -4379
▁ㄱㅕㄱㅌㅜ -4380
FA -4381
▁ㄱㅏㅇㅣㅂ -4382
▁192 -4383
▁1999 -4384
▁ㅂㅕㄹㄱㅐ -4385
▁ㅈㅓㄹㅓㄴ -4386
▁ㅅㅣㄹㅅㅣ -4387
▁ㅇㅠㅂㅣ -4388
▁ㅇㅏㅂㅂㅏㄱ -4389
▁ㅅㅏㅇㅜㄴㄷㅡ -4390
▁ㅋㅝ -4391
▁ㅇㅕㄴㅅㅏ -4392
▁ㅈㅣㅂㅇㅏㄴ -4393
▁NPC -4394
▁78 -4395
ㅅㅣㄱㄱㅏㄴ -4396
▁84 -4397
▁ㅁㅏㅈㅜ -4398
end -4399
▁ㅈㅐㄴㅡㅇ -4400
▁ㅊㅏㅇㅈㅏㄱ -4401
▁ㅇㅢㅎㅏㄴ -4402
▁ㅅㅜㄴㅅㅣㄱㄱㅏㄴ -4403
▁ㅂㅗㄴㅂㅜ -4404
▁ㅁㅏㄱㅈㅏㅇ -4405
▁91 -4406
▁ㅈㅓㅇㅈㅣ -4407
▁ㄷㅡㄴㅈㅣ -4408
▁ㅈㅓㅇㅎㅐ -4409
▁ㅂㅏㄴㄹㅏㄴ -4410
▁ㄱㅡㄴㅁㅜ -4411
▁an -4412
▁ㄷㅡㄷㅣㅇㅓ -4413
ㅅㅜㅇㅣㄴ -4414
▁ㅅㅣㄹㄷㅡ -4415
▁ㅊㅜㅈㅓㄱ -4416
▁ㅇㅓㅂㅊㅔ -4417
▁ㅈㅣㅎㅏㅊㅓㄹ -4418
▁ㄷㅚㄷㅗㄹ -4419
▁ㅁㅣㅊㅣ -4420
ㅂㅡㄹㄹ -4421
▁ㅈㅣㅎㅕㅇ -4422
▁1998 -4423
ㅌㅏㄹㅗ -4424
▁ㅇㅓㅉㅐㅆ -4425
▁ㅂㅜㄹㅁㅏㄴ -4426
▁it -4427
▁ㅈㅓㄴㅈㅓㄱ -4428
▁ㄱㅏㄹㅗ -4429
▁ㅅㅐㄴ -4430
▁ㅇㅏㅌㅣ -4431
▁ㅇㅣㅂㅎㅏㄱ -4432
▁!! -4433
▁ㄱㅕㅇㅎㅑㅇ -4434
▁ㅈㅡㅇㅁㅕㅇ -4435
▁ㅅㅜㅎㅏㄱ -4436
▁ㅅㅣㄴㅅㅔ -4437
▁ㅇㅔㄹㅍㅡ -4438
▁ㅎㅘㅇㅣㅌㅡ -4439
▁ㄸㅐㄴ -4440
▁ㅇㅜㅇㅕㄴ -4441
ㅍㅐㄱ -4442
ㅅㅣㅇㅗ -4443
▁ㄱㅕㅇㅎㅓㅁㅊㅣ -4444
▁ㅂㅗㄷㅏㄴ -4445
og -4446
▁ㅅㅏㅇㅍㅜㅁ -4447
ㅎㅗㄹ -4448
▁ㄹㅕㅇ -4449
▁ㄴㅐㄴㅗㅎ -4450
▁ㅌㅔㅇㅣㄹ -4451
▁ㅊㅓㄴㅅㅏ -4452
▁ㅅㅡㅌㅗㄴ -4453
▁ㄱㅣㅇㅝㄴ -4454
▁ㄷㅐㅁㅏㄴ -4455
▁ㅎㅕㅇㅅㅓㅇ -4456
▁ㅈㅓㄴㅂㅏㅇ -4457
▁ㅅㅣㄴㅊㅓㅇ -4458
▁An -4459
▁ㅌㅗㅇㅎㅏ -4460
ㅑㄹ -4461
ㄱㅡㄹㄹ -4462
▁ㄱㅡㄹㅓㄴㅈㅣ -4463
▁ㅌㅠ -4464
▁ㅇㅕㄷㅗㅇㅅㅐㅇ -4465
▁ㄱㅔㅅ -4466
▁ㅁㅐㄹㅕㄱ -4467
▁ㄹㅏㅅㅡ -4468
▁ㅋㅗㅇㅣㄴ -4469
▁ㅂㅡㄹㄹㅔㅇㅣㄷㅡ -4470
ㅗㄴㅏ -4471
▁ㅈㅔㅈㅜ -4472
▁ㅆㅡㄹㅔㄱㅣ -4473
▁ㄴㅗㅁㅓㄹ -4474
ㅈㅐㄱ -4475
ㅏㅌ -4476
▁ㅇㅖㄱㅗ -4477
▁ㅈㅓㄹㅂㅏㄴ -4478
ㄲㅓㅅ -4479
▁ㅎㅚㅇ -4480
▁ㅈㅓㅇㄱㅝㄴ -4481
▁97 -4482
▁ㅅㅏㄹㅕㅇㄱㅘㄴ -4483
▁ㅋㅜㅋㅣ -4484
▁ㅁㅔㄱㅏ -4485
▁ㅈㅜㅁㅓㄱ -4486
▁ㄱㅏㅁㅇㅕㅁ -4487
ㅅㅓㅇㅣㄴㅈㅣ -4488
▁ㅇㅢㅅㅏㅇ -4489
▁ㅃㅏㄹㄱㅏㄴ -4490
▁ㅍㅏㅇㅣㅇㅓ -4491
▁ㄷㅏㅅㅣㅍㅣ -4492
ㄹㅡㅁ -4493
▁ㅇㅕㄹㅗㄴ -4494
▁ㅇㅜㄹㅕ -4495
▁ㅇㅚㄱㅜㄱㅇㅣㄴ -4496
▁Ar -4497
ㅇㅏㄹ -4498
▁He -4499
▁ㅈㅏㄶㅇㅏ -4500
▁ㅌㅏㅈㅓㅁ -4501
▁82 -4502
▁ㄱㅏㅇㅈㅗ -4503
▁ㅎㅚㅊㅏ -4504
▁ㅇㅠㅎㅢ -4505
▁69 -4506
▁ㄹㅏㅇㅣㄷㅓ -4507
▁ㅇㅣㄹㅇㅡㅋㅣ -4508
▁ㅅㅡㅌㅡㄹㅣ -4509
▁ㄷㅏㄴㅇㅣㄹ -4510
▁ㅇㅣㄹㅗㄴ -4511
ㄹㅗㅂ -4512
▁ㄸㅐㄹㅕ -4513
ㅈㅣㅋㅓㄹ -4514
▁ㄱㅔㅇㅣㅌㅡ -4515
ㅣㄴㅗ -4516
ㅏㄴㅏ -4517
▁ㅇㅣㅅㅡㅇ -4518
▁ㅅㅓㄴㅎㅗ -4519
▁ㅇㅏㄹㄹㅕㅈㅣㄴ -4520
▁ㅇㅓㅌㅐㄱ -4521
▁ㄱㅡㄴㄱㅓ -4522
▁ㅇㅗㅃㅏ -4523
▁ㅅㅗㅁㅕㄹ -4524
▁ㅂㅗㄱㅈㅏㅇ -4525
▁ㅇㅕㄴㅅㅏㅇ -4526
▁ㅅㅞ -4527
▁ㄴㅏㅁㄱㅣ -4528
▁ㅂㅕㄹㄷㅗ -4529
▁ㅇㅔㄴㅌㅓ -4530
▁ㅈㅓㄴㅅㅓㄴ -4531
▁ㅂㅓㄹㅣㄹ -4532
ㄱㅣㄱ -4533
▁is -4534
▁ㅅㅣㄹㅎㅐㅇ -4535
▁ㄷㅐㄹㅠㄱ -4536
▁ㅋㅟㄴ -4537
▁250 -4538
▁ㄱㅗㅇㅈㅏㄱ -4539
▁ㅆㅓㄴ -4540
▁ㅈㅔㅈㅗ -4541
▁ㅈㅜㅈㅓㄴ -4542
▁ㄹㅣㅂㅓ -4543
▁for -4544
▁ㅊㅚㅅㅏㅇ -4545
▁ㅈㅏㄱㅇㅛㅇ -4546
▁ㅇㅏㄴㅣㄹ -4547
ㅇㅕㄱㅅㅣ -4548
▁ㅋㅏㄹㅏ -4549
ㅅㅡㅌㅣㅇ -4550
▁ㅂㅏㅂㅗ -4551
▁ㅅㅜㅇㅛ -4552
▁ㅎㅏㄴㄸㅐ -4553
▁ㅇㅏㅁㅜㄱㅓㅅ -4554
▁ㅅㅏㅋㅜㄹㅏ -4555
▁180 -4556
▁MAX -4557
▁ㅇㅣㅊㅣ -4558
▁86 -4559
▁ㅂㅜㅍㅜㅁ -4560
▁ㄸㅐㄹㅣ -4561
▁ㅋㅗㄹㄹㅏ -4562
▁ㅍㅕㅇㅌㅏ -4563
▁ㄸㅏㅇㅟ -4564
ㄷㅓㅅㅡ -4565
▁SN -4566
▁ㅎㅘㄹㅕ -4567
▁ㅇㅛㅈㅓㅇ -4568
▁ㄱㅗㅇㅇㅠ -4569
▁ㅂㅜㄹㄹㅓㅆ -4570
▁190 -4571
▁ㄴㅡㄱㄷㅐ -4572
▁ㅎㅓㄴㅌㅓ -4573
▁ㄹㅐㄴㄷㅡ -4574
ㄸㅡㄱ -4575
▁ㅎㅐㅅㅓㄹ -4576
▁ㅍㅜㄹㅡㄴ -4577
▁ㄱㅓㅈㅜ -4578
▁ㅅㅚ -4579
▁ㄱㅝㄴㄹㅕㄱ -4580
▁ㄱㅏㄴㄱㅕㄱ -4581
▁ㄷㅐㅎㅏ -4582
▁ㅍㅡㄹㅔㅇㅣㅁ -4583
▁ㅊㅜㄹㅎㅕㄴ -4584
▁ㅎㅗㅎㅘㄴ -4585
▁ㅇㅏㅁㅜㄹㅓㄴ -4586
▁ㅁㅏㄷㅗ -4587
▁ㅋㅜㅇ -4588
▁ㄲㅡㅁ -4589
▁ㅈㅓㄴㅎㅕㅇ -4590
ㅍㅏㅇㅣㅇㅓ -4591
▁ㅈㅑ -4592
▁ㅇㅗㅇㅗ -4593
▁ㄴㅠㅇㅛㄱ -4594
▁ㅁㅏㅅㅡ -4595
ㅊㅡㅁ -4596
ㄱㅣㄹㅕㄱ -4597
▁ㅊㅜㄹㅈㅏㅇ -4598
▁ㄱㅓㄹㄹㅕ -4599
▁ㅇㅗㄹㄹㅕㅆ -4600
ㅎㅔㄴ -4601
▁ㅊㅜㄱㅕㄱ -4602
▁ㅇㅣㄹㅏㅇ -4603
▁ㅂㅏㄱㅅㅏㄹ -4604
▁ㅃㅜㄹ -4605
▁ㅇㅜㅁㅈㅣㄱㅇㅣㅁ -4606
▁ㄷㅏㅇㅎㅏㄹ -4607
▁ㅅㅏㄹㅏㅈㅕㅆ -4608
▁ㅇㅛㅅㅐ -4609
▁ㅈㅗㅇㅛㅇ -4610
▁ㅇㅠㅋㅣ -4611
▁ㄷㅜㄷㅡㄹ -4612
▁ㄱㅜㄷㅗ -4613
▁ㅁㅜㅎㅛ -4614
▁ㅈㅜㅇㅟ -4615
ath -4616
▁ㅋㅣㅅㅡ -4617
▁ㅇㅜㄹㅅㅏㄴ -4618
▁ㅂㅓㄹㅇㅓㅈㅣ -4619
▁BGM -4620
▁ㄱㅕㅇㅅㅏㅇ -4621
▁ㅁㅗㄹㄹㅐ -4622
▁ㅌㅐㅇㅋㅡ -4623
▁ㅁㅕㅇㅇㅖ -4624
ㅓㅁㅗㄹㅗ -4625
▁ㅇㅕㄹㅓㅁㅗㄹㅗ -4626
ㅅㅓㅌㅡ -4627
▁ㄲㅔ -4628
ㅓㅁㅍㅡ -4629
▁ㄱㅝㄴㅊㅗㅇ -4630
▁ㅂㅓㅁㅇㅣㄴ -4631
ㅇㅔㄷㅗ -4632
av -4633
ㅇㅏㅂㅓㅈㅣ -4634
▁ㅁㅔㄹㅣ -4635
RE -4636
▁ㅇㅜㅅㅡ -4637
▁ㅍㅗㄱㄱㅕㄱ -4638
▁1997 -4639
ㄷㅡㄹㅏ -4640
▁ㅊㅜㄹㅏㄱ -4641
ㅊㅡㅋㅣ -4642
ㅊㅏㅈ -4643
50 -4644
▁ㅈㅏㄴㅡㄴ -4645
▁De -4646
▁ㄱㅕㅇㅇㅕㅇ -4647
▁ㅅㅜㅇㅛㅇ -4648
▁Te -4649
▁ㄷㅜㄹㅕㅇ -4650
ㅂㅣㅅㅡ -4651
▁ㅅㅣㄴㄱㅠ -4652
▁ㅅㅣㅁㄹㅣ -4653
▁ㅈㅣㄷㅐ -4654
▁ㅅㅣㅁㅍㅏㄴ -4655
▁ㄷㅗㅇㄱㅣ -4656
ㄷㅠㅅㅓ -4657
▁ㅍㅡㄹㅗㄷㅠㅅㅓ -4658
▁ㅅㅗㅊㅗㅇ -4659
▁ㅇㅕㅇㅇㅓㅂ -4660
▁ㄱㅏㄹㄷㅡㅇ -4661
▁ㄱㅓㅈㅣㅅㅁㅏㄹ -4662
ㄷㅜㅇㅇㅣ -4663
ㅎㅡ -4664
▁MS -4665
▁ㅎㅏㅅㅜㅇㅣㄴ -4666
se -4667
▁ㅁㅏㅇㅣㅋㅡ -4668
▁ㅇㅣㄹㅅㅏㅇ -4669
▁ㅌㅏㄴㅇㅑㄱ -4670
▁ㅍㅗㄱㅈㅜ -4671
▁ㄱㅖㅅㅡㅇ -4672
one -4673
▁ㅇㅗㄹㄹㅏ -4674
ㅎㅣㄹㅗ -4675
▁ㅂㅗㄴㄷㅏ -4676
ㅎㅠ -4677
▁ㅌㅔㅅㅡㅌㅡ -4678
ㅇㅓㄴㅐ -4679
▁ㅇㅚㄱㅛ -4680
▁ㅎㅘㄴㅅㅏㅇ -4681
▁ㅇㅏㅇㅣㅅㅡ -4682
▁ㅂㅏㄺㅎㅣ -4683
▁ㅇㅕㄴㅇㅐ -4684
▁ㅁㅓㄱㅇㅣ -4685
▁ㅇㅕㄹㄹㅣ -4686
▁ㅎㅏㄱㅅㅏㄹ -4687
▁ㅃㅏㅈㅣㄴ -4688
▁ㅂㅏㄴㅈㅣ -4689
▁ㄱㅗㅈㅓㄴ -4690
▁ㅁㅔㅇㅣㅈㅓ -4691
ㅡㄹㄹㅕ -4692
▁ㅇㅛㄱㅚ -4693
▁ㅂㅡㄹㅏㅈㅣㄹ -4694
ㅇㅜㅅㅡ -4695
▁ㅇㅏㅌㅡ -4696
▁ㅎㅡ -4697
▁ㅊㅏㅈㅇㅏ -4698
▁ㅂㅜㄱㅁㅣ -4699
ㅔㅇㅓ -4700
▁ㅅㅏㅇㅑㅇ -4701
▁ㅈㅣㄴㅈㅣ -4702
▁ㅅㅏㅇㅈㅓㅁ -4703
▁ㅇㅓㄴㅈㅔㄴㅏ -4704
▁Be -4705
▁ㄷㅓㅅ -4706
▁ㅍㅕㄴㅎㅏ -4707
▁ㅂㅗㅅㅓㄱ -4708
▁ㅁㅏㄹㅕㄴ -4709
▁ㄱㅗㅂ -4710
▁ㅇㅣㅂㄹㅕㄱ -4711
▁ㅅㅣㄱㅏㄱ -4712
▁ㄱㅗㅇㅎㅏㄱ -4713
▁ㅎㅔㄴ -4714
▁ㅂㅕㄴㅎㅕㅇ -4715
▁ㅇㅣㄷㅡㄱ -4716
▁83 -4717
ㅎㅐㄱ -4718
▁ㄱㅏㅈㅊㅜ -4719
▁ㅍㅗㄱㄹㅕㄱ -4720
ㅡㅂㅏ -4721
▁ㅈㅔㅂㅓㅂ -4722
ㅣㅇㅔ -4723
▁ㅌㅔㅇㅣ -4724
▁ㅇㅖㅅㄴㅏㄹ -4725
▁ㄱㅟㅇㅕㅇ -4726
ㅇㅝㅆ -4727
▁ㅌㅐㅇㅋㅓ -4728
▁ㅎㅕㄱㅁㅕㅇ -4729
▁ㅇㅔㅇㅓ -4730
ㅅㅔㄹ -4731
▁ㅇㅠㄹㅕㅇ -4732
▁ㅂㅜㄹㅍㅕㄴ -4733
▁ㄱㅡㄹㅐㅍㅣㄱ -4734
▁ㅈㅔㅈㅏㄱㅈㅣㄴ -4735
▁ㅌㅗㅇㅅㅏㅇ -4736
▁ㅁㅓㅅㅣㄴ -4737
▁ㅈㅣㄴㅏㅊㅣ -4738
▁ㄱㅡㄱㅗㅅ -4739
ㅍㅓㅅㅡ -4740
▁ㅈㅏㄱㄷㅗㅇ -4741
▁KT -4742
▁ㄹㅣㅅㅡㅌㅡ -4743
▁ㄱㅗㄱㅛ -4744
ㄷㅗㅇㅜ -4745
▁ㅅㅓㅂㅜ -4746
▁ㅅㅏㅈㅏ -4747
▁ㅂㅜㅌㅇㅕ -4748
ust -4749
▁92 -4750
ㅌㅗㅂ -4751
▁89 -4752
▁ㅇㅖㅇㅚ -4753
▁ㅇㅓㅄㅇㅐ -4754
▁ㄷㅗㅇㅇㅝㄴ -4755
▁ㅇㅛㅇㅅㅏ -4756
▁ㅂㅡㄹㄹㅓ -4757
ㅐㄴㅅㅡ -4758
▁ㅇㅕㅅㅓ -4759
▁94 -4760
▁ㅈㅗㅅㅣㅁ -4761
▁ㅇㅣㄹㅏㄴ -4762
▁ㅈㅓㄴㅌㅜㄱㅣ -4763
▁ㅅㅡㅇㄱㅏㅇㅈㅏㅇ -4764
▁ㅂㅏㄺㅎㅕㅈㅕㅆ -4765
▁ㅇㅐㅂ -4766
▁ㅇㅕㄴㄷㅐ -4767
▁ㄱㅗㅅㅐㅇ -4768
▁ㄱㅜㅎㅕㄴ -4769
▁ㅅㅜㅈㅣㅂ -4770
▁ㅁㅣㄴㄱㅏㄴ -4771
▁ㅊㅣㄱㅏ -4772
▁ㅅㅡㅁㅏㅌㅡ -4773
▁ㅍㅏㅇㅣㄹㄹㅓㅅ -4774
▁ㄴㅏㄹㅜ -4775
▁ㅎㅕㄴㅈㅣ -4776
ide -4777
▁ㅎㅏㄴㄱㅜㄱㅇㅣㄴ -4778
▁ㅍㅡㄹㅗㅍㅣㄹ -4779
▁ㅁㅏㄹㅣㅇㅗ -4780
▁ㅅㅡㅌㅔ -4781
▁ㄷㅣㅇㅏ -4782
ㅅㅏㄱㅘㄴ -4783
▁ㅌㅗㅇㅈㅔ -4784
▁ㄴㅡㄹㅣ -4785
▁ㄱㅓㅁㅅㅐㄱ -4786
▁ㅇㅣㄹㅏ -4787
▁ㄷㅐㅇㅜ -4788
▁ㅍㅗㅌㅏㅂ -4789
▁79 -4790
▁ㅌㅓㅊㅣ -4791
▁Le -4792
▁ㅇㅝㅊㅣ -4793
▁ㅇㅣㅂㄱㅜ -4794
▁ㅅㅣㄴㅈㅏㅇ -4795
▁ㅊㅏㅈㅇㅏㄱㅏ -4796
ㅎㅗㅅㅏ -4797
▁ㅇㅣㄹㅈㅏ -4798
▁ㅅㅣㄴㅇㅣㄴ -4799
▁ㄷㅚㅊㅏㅈ -4800
▁ㅈㅗㅈㅗ -4801
▁ㄱㅕㅇㄱㅣㅈㅏㅇ -4802
▁ㅆㅣㄴ -4803
▁ㅁㅗㅂㅏㅇㅣㄹ -4804
▁ㄲㅓㄲ -4805
▁ㅈㅗㅈㅓㄹ -4806
ㄷㅏㄹㅡㄴ -4807
ㅇㅣㅊㅣ -4808
▁Se -4809
▁ㅁㅣㄷㅣㅇㅓ -4810
▁ㅅㅏㅇㅣㅈㅡ -4811
▁93 -4812
ity -4813
ㅉㅓㅇ -4814
▁ㄷㅗㅇㅇㅕㅇ -4815
▁ㅈㅓㄴㄷㅐ -4816
▁ㅋㅡㄹㄹㅗ -4817
PG -4818
▁ㄷㅜㅁ -4819
▁ㅇㅛㅈㅡㅁ -4820
▁ㄷㅗㄹㅇㅏㄱ -4821
▁ㅊㅏㄷㅏㄴ -4822
▁US -4823
▁ㅋㅣㅇㅜ -4824
▁ㅋㅗㄴㅅㅓㅌㅡ -4825
▁ㅂㅜㅇㅟ -4826
▁ㅊㅗㅇㄱㅣ -4827
▁ㅍㅛㅈㅜㄴ -4828
▁ㄹㅜㅇ -4829
ㅈㅡㄹ -4830
▁ㅅㅡㅌㅗㅁ -4831
▁ㅊㅐㅂㅌㅓ -4832
ㅁㅔㄷㅏㄹ -4833
▁ㄹㅔㅇㅣㄴㅈㅓ -4834
▁ㅂㅗㅈㅏㅇ -4835
▁ㄱㅛㅈㅓㄴ -4836
ㅉㅣ -4837
▁ㅍㅕㄴㅈㅣ -4838
▁ㅇㅡㅁㅂㅏㄴ -4839
▁ㅃㅜㄹㅣ -4840
▁ㅅㅜㅅㅗㅇ -4841
▁ㅌㅗㅇㅎㅏㄴ -4842
ㅈㅓㅎㅣ -4843
▁ㅅㅣㅎㅐㅇ -4844
OT -4845
▁ㅈㅓㅇㄹㅠㅈㅏㅇ -4846
▁ㄷㅗㅇㅂㅏㅇ -4847
▁ㅌㅗㄱ -4848
▁87 -4849
▁ㄷㅗㅂㅏㄹ -4850
▁ㄱㅗㅇㅅㅏㄴ -4851
▁ㄷㅣㄴ -4852
▁ㅁㅏㅈㅇㅣ -4853
▁ㅅㅠㅅ -4854
▁1996 -4855
▁101 -4856
▁ㅅㅏㅇㅅㅏㅇ -4857
▁ㅂㅜㅅㅜ -4858
▁ㄷㅗㅇㅇㅕㅇㅅㅏㅇ -4859
▁ㅈㅓㅈㅣ -4860
▁ㅎㅏㄴㅂㅏㅇ -4861
▁ㅈㅝㅇㅑ -4862
▁ㅇㅕㄴㄹㅏㄱ -4863
▁ㅎㅐㅈㅣㄴㄷㅏ -4864
▁ㅂㅐㅊㅏ -4865
▁ㅍㅐㄴㅓㄹ -4866
▁ㄹㅣㅇㅓㄹ -4867
▁ㄱㅣㅅㅡㅂ -4868
▁ㄱㅗㅇㄱㅣ -4869
▁AI -4870
▁ㅌㅔㄹㄹㅔ -4871
▁ㅂㅗㄹㄴㅔㅅ -4872
▁ㅇㅣㄹㅐ -4873
▁ㅇㅛㅇㅇㅓ -4874
▁1995 -4875
ere -4876
ㅂㅜㄱㄷㅗ -4877
▁MC -4878
▁DJ -4879
▁ㅍㅖㅈㅣ -4880
▁ㅁㅔㅅㅣ -4881
ㅍㅔㄹ -4882
▁ㄱㅜㅊㅜㄹ -4883
▁ㅁㅓㅇ -4884
▁ㅇㅡㅁㅅㅓㅇ -4885
AC -4886
▁ㅈㅏㅇㅣㅇㅓㄴ -4887
ㅈㅜㄴㄷㅏ -4888
▁ㅌㅗㅁ -4889
▁ㄸㅓㄴ -4890
▁ㅎㅗㅍㅕㅇ -4891
▁ㅇㅗㄹㄹㅏㅇㅗ -4892
▁ㄷㅡㄹㅓㄴㅐ -4893
▁ㅇㅕㄴㅂㅏㅇ -4894
▁ㄱㅐㄹㄹㅓㄱ -4895
▁ㄸㅗㄱㄱㅏㅌㅇㅣ -4896
▁ㅎㅡㅇㅎㅐㅇ -4897
▁ㄷㅗㄷㅏㄹ -4898
▁ㄱㅣㄹㄷㅡ -4899
▁ㄴㅏㄱㅏㄴ -4900
▁ㅍㅏㄹㅏㄴ -4901
▁ㄱㅣㅁㅈㅓㅇ -4902
▁ㄹㅜㅌㅏ -4903
▁ㄴㅐㄴㄷㅏ -4904
▁ㅌㅡㄱㅎㅘ -4905
▁ㄷㅏㅁㅕㄴㅅㅓ -4906
▁ㅈㅓㄴㅎㅏ -4907
▁ㅈㅓㅇㅂㅗㄱ -4908
▁ㅅㅔㅇㅝㄹ -4909
▁ㄸㅏㄴ -4910
▁On -4911
ㄲㅏㄹ -4912
▁ㅁㅏㄴㅑㅇ -4913
age -4914
▁ㅎㅡㅁ -4915
▁ㅇㅣㄴㅏㄹ -4916
▁ㅁㅜㄴㅏㄴ -4917
▁ㅊㅜㅈㅣㄴ -4918
▁ㅂㅓㄴㄱㅐ -4919
▁ㄱㅖㅈㅓㅇ -4920
▁ㄷㅗㅅㅓㄱㅘㄴ -4921
▁ㅁㅏㄴㄴㅏㅆ -4922
▁ㅂㅗㄹㅌㅡ -4923
▁ㅇㅓㄲㅐ -4924
▁ㅁㅏㅅㅏ -4925
▁ㅇㅕㄴㄱㅘㄴ -4926
▁ㄴㅏㅇㅘㅅㅓ -4927
▁ㄱㅏㅇㅊㅓㄹ -4928
▁ㅇㅣㄱㅅㅜㄱ -4929
▁ㅁㅜㄹㅛ -4930
▁ㄱㅓㄹㄹㅣㄴ -4931
▁ㄴㅑㅁㅕ -4932
▁ㄱㅕㄹㅅㅡㅇㅈㅓㄴ -4933
ㅍㅔㄱㅌㅡ -4934
▁ㄱㅚㄹㅗㅂ -4935
ㄹㅏㄹ -4936
▁ㅋㅜㄹㅗ -4937
▁ㄹㅏㅇㅣㅍㅡ -4938
▁ㅅㅣㄴㅁㅜㄴ -4939
ㅈㅏㅋㅣ -4940
ㅇㅣㅆ -4941
▁ㅈㅓㄴㄷㅏㄹ -4942
▁ㅈㅣㅎㅟㄱㅘㄴ -4943
▁ㅌㅗㅂ -4944
▁ㄹㅔㅇㅣㄷㅡ -4945
▁ㄴㅗㅇㅖ -4946
▁ㅈㅏㅁㅅㅜ -4947
▁ㄱㅡㄱㄷㅏㄴ -4948
▁ㅅㅏㅁㅈㅣㄴ -4949
▁ㅌㅗㅇㅎㅐㅅㅓ -4950
▁ㅅㅣㄴㅂㅜㄴ -4951
▁ㅈㅗㅊㅣ -4952
▁ㄱㅏㅅㅏㅇ -4953
▁ㅎㅑㅇㅅㅏㅇ -4954
▁@ -4955
ㅅㅡㅌㅣ -4956
▁ㅎㅔㅇㅓ -4957
▁ㄱㅗㅎㅑㅇ -4958
▁ㅆㅡㅇㅣㄴㄷㅏ -4959
▁ㄱㅓㅌ -4960
▁ㅎㅐㄴㄷㅡ -4961
▁ㄴㅏㄱㅏㅆ -4962
▁..... -4963
▁ㅈㅓㄴㅈㅣㄱ -4964
▁ㅈㅗㅇㅇㅣ -4965
▁ㅇㅏㄱㅏ -4966
▁ㅊㅓㅁ -4967
ㅅㅡㅌㅏㄴ -4968
▁ㅇㅘㄹ -4969
ㅓㄴㄱㅏ -4970
▁ㅇㅑㅇㅅㅏㄴ -4971
▁ㄱㅡㄷㅗㅇㅇㅏㄴ -4972
▁ㅈㅡㄹㄱㅣ -4973
▁ㄷㅏㄹㄹㅣㄴ -4974
▁ㅊㅐㄹ -4975
▁ㅊㅜㄹㄹㅕㄱ -4976
▁ㅂㅣㄹㄷㅡ -4977
ㅔㅁ -4978
▁ㅎㅘㄴㅈㅏ -4979
▁ㅅㅠㅌㅡ -4980
▁ㅅㅣㄴㅅㅓㅇ -4981
▁ㅈㅜㅅㅗ -4982
▁ㄴㅗㅊㅜㄹ -4983
▁ㄷㅗㅇㅈㅏㄱ -4984
▁ㅅㅡㅋㅣ -4985
▁ㅇㅕㄱㅕ -4986
▁ㄱㅡㄹㅐㅆ -4987
ㅅㅗㄴㅕ -4988
▁ㅂㅏㄱㄱㅡㄴ -4989
ㅣㄴㅣ -4990
▁ㅅㅏㅌㅗ -4991
▁ㅈㅏㅇㄱㅛ -4992
▁ㅊㅔㄹ -4993
▁ㅇㅏㄹㄹㅔㄱ -4994
▁ㅈㅓㄴㅇㅕㄱ -4995
▁ㅈㅣㄴㅅㅣㅁ -4996
▁ㅂㅗㄱㅈㅏㅂ -4997
▁ㅌㅣㅁㅇㅝㄴ -4998
▁ㅈㅔㅈㅏ -4999
▁ㅎㅏㄹㅈㅣ -5000
▁ㅅㅡㅌㅠ -5001
▁ㄱㅏㅅㅗㄱ -5002
▁ㄷㅗㄹㅇㅏㅇㅗㄴ -5003
▁ㅇㅞㄴㅁㅏㄴ -5004
▁ㅈㅓㄱㅇㅓㄷㅗ -5005
▁ㅎㅘㄴㅅㅡㅇ -5006
▁ㅇㅣㅁㅁㅕㅇ -5007
▁ㄱㅡㄹㅈㅏ -5008
▁ㄱㅏㄱㅔ -5009
▁ㅂㅗㅅ -5010
ㅔㄴㅏ -5011
▁ㅋㅙ -5012
▁ㄹㅔㅇㅣㅅㅡ -5013
▁ㅋㅣㄹㅣ -5014
qu -5015
▁ㅂㅜㅁㅜㄴ -5016
ㅊㅔㄹㅗ -5017
▁ㅅㅗㄴㅣㄱ -5018
▁px -5019
▁ㄴㅗㅇㄱㅜ -5020
▁ㅍㅔㅇ -5021
▁ㅂㅗㅇㅣㄴ -5022
▁ㅅㅔㅇㅣㅂㅡ -5023
▁ㄴㅐㅅㅓㅇ -5024
ㅔㄷㅡ -5025
▁ㄹㅓㄱ -5026
▁ㅇㅣㅂㄷㅏㄴ -5027
▁ㅇㅗㄹㄹㅏㅆ -5028
▁ㄷㅡㄹㅣㅁ -5029
▁ㄹㅣㅇㅏ -5030
▁ㅈㅓㄹㅁㅏㅇ -5031
▁ㅆㅓㅅㅓ -5032
▁DLC -5033
ood -5034
ㅓㅈㅕ -5035
▁ㄴㅜㄹㅣ -5036
▁ㄴㅓㅁㄱㅣ -5037
▁ㅎㅏㅅ -5038
▁ㄷㅐㅊㅔㄹㅗ -5039
▁ㅅㅓㅇㄱㅘ -5040
ㅗㅋㅏ -5041
▁AK -5042
▁ㅂㅏㅇㅇ -5043
▁ㅁㅛㅈㅣ -5044
▁ㅎㅐㅊㅔ -5045
▁ㄱㅏㅁㅅㅣ -5046
▁ㅇㅣㄲ -5047
▁ㅊㅗㅊㅏㅇ -5048
▁ㄱㅣㅂㅕㅇ -5049
▁ㄷㅣㅈㅣ -5050
▁ㅅㅓㅇㅂㅕㄹ -5051
▁ㄷㅡㅁㅜㄹ -5052
ㅌㅏㅁ -5053
ㅌㅡㄴㅓ -5054
▁ㄱㅏㄴㅂㅜ -5055
▁ㅁㅕㅇㅈㅜㅇㄹㅠㄹ -5056
▁ㄱㅜㅅㅗㄱ -5057
▁ㅍㅡㄹㅣㄴ -5058
▁THE -5059
▁ㅂㅗㅇㅣㄹ -5060
BO -5061
▁ㅊㅏㄱㄱㅏㄱ -5062
▁ㅇㅏㅅㅟㅂ -5063
▁ㅍㅔㅇㅣㅈㅡ -5064
▁ㅇㅏㅃㅏ -5065
ㅁㅓㄹㅣ -5066
▁ㅇㅕㅇㅠ -5067
▁MVP -5068
▁ㄴㅓㅁㅜㄴㅏ -5069
▁ㅁㅏㄱㅊㅏ -5070
▁ㅊㅏㄹㅏㄹㅣ -5071
▁ㅂㅏㅇㅣㄹ -5072
▁ㄱㅡㄴㅇㅠㄱ -5073
▁ㅂㅡㄹㅔㅇㅣㅋㅡ -5074
▁ㅅㅜㅇㅕㅇ -5075
▁ㅂㅓㅌ -5076
▁ㅇㅕㄴㄱㅜㅅㅗ -5077
▁ㅇㅠㄱㅅㅓㅇ -5078
▁ㅃㅏㄱ -5079
▁ㅂㅏㄹㅁㅐㄷㅚ -5080
▁Wh -5081
▁ㅅㅣㅁㅎㅏㄴ -5082
IS -5083
▁ㅇㅜㄹㅌㅡㄹㅏ -5084
▁ㅇㅣㅁㅅㅣ -5085
are -5086
▁ㅅㅡㅍㅏ -5087
▁ㄱㅗㅂㅐㄱ -5088
▁ㄱㅕㅇㄱㅗ -5089
▁CC -5090
PM -5091
▁ㅂㅜㅅ -5092
▁ㄷㅐㄹㅑㅇ -5093
▁ㄷㅓㄴㅈㅕ -5094
▁ㅈㅜㅇㅎㅘ -5095
ㅣㄹㄹㅏ -5096
▁ㅅㅕㅆ -5097
▁ㅇㅠㅇㅎㅏㅂ -5098
▁ㄱㅡㄹㅓㅁㅇㅔㄷㅗ -5099
▁ㅎㅣㅂ -5100
▁ㄱㅗㅇㅈㅣ -5101
▁ㄱㅐㅌㅗㅇ -5102
▁ㄱㅐㄹㄹㅓㄱㅅㅣ -5103
ㅣㄱㅡ -5104
▁ㅇㅣㄹㅇㅓㄴㅏㄴ -5105
▁ㄹㅣㅁㅔㅇㅣㅋㅡ -5106
▁ㅇㅕㄲ -5107
▁ㄱㅏㅇㅇㅝㄴ -5108
▁ㅊㅏㅁㅈㅓㄴ -5109
▁1994 -5110
▁ㅎㅏㅍㅣㄹ -5111
▁ㅁㅜㄹㅈㅣㄹ -5112
ㄷㅏㄷ -5113
▁ㅇㅣㄴㅈㅡㅇ -5114
▁$ -5115
▁ㄷㅚㄴㄷㅏㅁㅕㄴ -5116
▁ㄱㅠㅊㅣㄱ -5117
▁ㅇㅢㄹㅚ -5118
▁ㅋㅏㅇㅗㅅㅡ -5119
▁ㄷㅐㄷㅐ -5120
▁ㅇㅣㄴㅇㅕㄴ -5121
▁ㅅㅏㅇㅣㄷㅡ -5122
▁1980 -5123
▁ㅌㅗㄹㅣ -5124
ㅈㅓㄴㅈㅏ -5125
▁ㅊㅗㅊㅏㅇㄱㅣ -5126
▁ㅁㅏㄱㅜ -5127
▁ㄴㅏㄹㅉㅏ -5128
▁ㅈㅣㄴㅡㅇ -5129
▁ㅎㅕㅂㅎㅚ -5130
ㅋㅏㅇㅣ -5131
▁ㄱㅜㅊㅔ -5132
▁ㄱㅔㅅㅡㅌㅡ -5133
▁ㅈㅓㅁㅊㅏ -5134
▁ㅊㅏㅇㅈㅗ -5135
▁ㅁㅜㄴㅈㅏㅇ -5136
ㄴㅕㅇ -5137
▁ㅇㅣㅂㅎㅣ -5138
OM -5139
▁ㅍㅓㄹ -5140
▁ㅅㅡㅋㅏㅇㅣ -5141
▁ㄲㅜㄹ -5142
▁ㅂㅜㄴㄹㅑㅇ -5143
▁ㄱㅏㄹㅑㅇ -5144
▁ㅁㅗㅈㅏ -5145
▁ㄴㅐㅁ -5146
▁ㅅㅗㅎㅘ -5147
ob -5148
▁ㅊㅓㅇㄴㅕㄴ -5149
▁ㅇㅏㄱㅇㅕㄱ -5150
▁700 -5151
▁ㄷㅗㅁㅏㅇㅊㅣ -5152
▁ㄱㅗㅇㅛㅇ -5153
▁ㅁㅜㅇㅓㄴㄱㅏ -5154
▁ㅅㅣㄷㅡ -5155
▁ㄱㅡㄷㅐ -5156
▁ㅇㅢㅎㅗㄱ -5157
▁ㅋㅐㄹㅣ -5158
▁ㄴㅜㅈㅓㄱ -5159
▁ㄷㅐㄹㅣㅂ -5160
▁Tr -5161
▁ㅇㅡㄴㅣㄲㅏ -5162
▁ㅈㅏㅈ -5163
▁ㅂㅜㄴㄱㅣ -5164
ㅁㅓ -5165
▁ㅍㅏㄹㅏ -5166
▁ㅎㅏㅂㄱㅕㄱ -5167
▁ㅇㅣㄴㅐ -5168
▁ㄱㅣㅁㅇㅕㅇ -5169
▁ㅂㅔㄹㅡ -5170
▁ㅎㅚㅇㅝㄴ -5171
ock -5172
▁ㅈㅡㄹㄱ -5173
▁ㅂㅏㄴㅂㅏㄹ -5174
▁ㅎㅡㄴㄷㅡㄹ -5175
▁ㅇㅣㄹㅇㅓㄴㅏㅆ -5176
▁ㅇㅣㄴㅅㅜ -5177
▁ㅇㅓㅇㅜㄹㄹㅣ -5178
▁ㅅㅣㄱㅅㅏ -5179
▁ㅎㅕㅂㅂㅏㄱ -5180
▁ㅇㅕㅈㅣ -5181
▁ㄱㅟㅅㅣㄴ -5182
▁ㄴㅗㄱㅇㅡㅁ -5183
▁ㅇㅏㄹㅍㅏ -5184
▁ㅎㅏㅂㅊㅔ -5185
▁ㄷㅡㄹㅇㅓㄱㅏㄴㄷㅏ -5186
▁ㅌㅜㄱㅜ -5187
▁ㅌㅡㄹㅔㅇㅣㄴ -5188
ake -5189
▁ㅁㅐㄴㅣ -5190
▁ㄱㅏㅁㅇㅗㄱ -5191
▁ㅇㅟㅈㅏㅇ -5192
▁'' -5193
▁ㄱㅘㄱ -5194
▁ㄱㅕㄹㄹㅗㄴ -5195
▁ㅇㅣㅁㅕㅇ -5196
▁ㅇㅏㄴㅣㅁㅕㄴ -5197
ect -5198
▁ㅇㅣㄴㅎㅏ -5199
▁ㅅㅏㅅㅣㄴ -5200
our -5201
▁ㅃㅕ -5202
▁ㅇㅡㄹㅗㄴ -5203
▁ㄴㅡㄴㄷㅏㅁㅕㄴ -5204
OW -5205
ㅓㅂㅗ -5206
▁ㅇㅓㅉㅐㅆㄷㅡㄴ -5207
▁ㅎㅗㄱㅏㅁ -5208
ass -5209
ㅗㄹㅡ -5210
▁ㅅㅔㅇㅜ -5211
▁ㄱㅗㄷㅂㅏㄹㅗ -5212
▁he -5213
oy -5214
▁ㅍㅣㄱㅕㄱ -5215
▁ㅈㅏㅁㅐ -5216
▁ㄱㅔㅅㅣㅍㅏㄴ -5217
▁FI -5218
▁ㅊㅜㄹㅍㅏㄴ -5219
▁ㅆㅓㅁㅓㄱ -5220
ire -5221
▁ㅇㅚㄱㅖ -5222
▁ㅎㅚㅅㅏㅇ -5223
▁ㄱㅏㅇㅇㅢ -5224
▁ㅇㅞㅂㅌㅜㄴ -5225
▁ㅂㅠ -5226
▁ㅅㅟㄹ -5227
▁ㄱㅕㅇㅂㅣ -5228
▁ㅅㅣㄹㅂㅓ -5229
▁ㄴㅔㄴ -5230
ark -5231
▁ㅎㅜㅅㅗㄱㅈㅏㄱ -5232
▁ㄲㅗㄹㅣ -5233
▁ㅊㅏㅌㅡ -5234
ㅈㅏㅁ -5235
▁ㅇㅠㄹㅗ -5236
▁ㅊㅠ -5237
▁ㅆㅓㄱ -5238
▁ㅅㅏㅁㄱㅜㄱㅈㅣ -5239
▁ㅈㅓㅇㅁㅕㄴ -5240
ㄷㅗㄹㅗ -5241
▁ㅇㅖㅃ -5242
▁ㅌㅜㄹ -5243
▁ㅎㅏㅂㅅㅓㅇ -5244
ㄴㅣㄲㅏ -5245
▁ㅈㅗㅈㅣ -5246
ㅋㅙ -5247
ㄹㅡㅇ -5248
ite -5249
▁ㅂㅔㅅㅡㅌㅡ -5250
▁ㅂㅜㅅㅓ -5251
ㄹㅓㅁ -5252
ㅋㅓㅁ -5253
▁ㄷㅗㅂ -5254
▁ㄱㅜㅁㅓㅇ -5255
▁ㅊㅜㄱㅈㅔ -5256
▁ㄹㅔㅅ -5257
▁ㅂㅡㄹㅔㅇㅣ -5258
ㅡㄴㅔ -5259
▁ㅅㅏㅈㅔ -5260
ㅋㅡㄹㅗ -5261
▁ㄹㅐㅇㅋㅣㅇ -5262
▁ㄱㅣㅊㅗ -5263
▁ㄷㅡㄹㅣ -5264
▁ㅍㅕㄴㄱㅗㄱ -5265
▁ㅌㅗㄹㅗㄴ -5266
▁ㅊㅔㅍㅗ -5267
▁ㅂㅜㄹㅣ -5268
▁ㅂㅗㄴㅈㅏㄱ -5269
▁ㅇㅏㅁㅔㄹㅣ -5270
▁ㅅㅒ -5271
▁ㅋㅝㄹㄹㅣㅌㅣ -5272
▁ㄱㅗㅇㄱㅡㅂ -5273
ㅈㅣㅁㅏ -5274
▁ㅍㅏㅌㅡㄴㅓ -5275
▁ㅁㅏㄹㅜ -5276
▁ㅈㅔㅇㅣㅁ -5277
▁ㄴㅏㅁㅂㅜ -5278
▁ㅅㅜㄹㅕㄴ -5279
▁ㄱㅗㅁㅜㄴ -5280
▁ㅂㅗㄴㅐㄴ -5281
▁ㅈㅓㄱㅡ -5282
▁ㅇㅣㄹㅅㅣ -5283
▁ㄱㅐㅂㅏㅇ -5284
▁ㅂㅣㅈ -5285
ah -5286
▁ㅇㅣㄴㄱㅗㅇ -5287
▁ㄷㅏㄴㅈㅏㅇ -5288
▁ㅁㅏㅇㅣㅋㅡㄹ -5289
▁ㄸㅓㄹㅇㅓㅈㅕㅆ -5290
▁ㅇㅏㄴㄷㅡㄹㅗㅇㅣㄷㅡ -5291
▁ㅂㅜㅂㅜ -5292
▁ㄴㅐㅈㅜ -5293
▁ㅂㅡㄹㄹㅣ -5294
▁FA -5295
▁ㅇㅔㄷㅏ -5296
ㅏㅇㅛ -5297
▁SR -5298
▁wh -5299
▁ㄱㅓㅊㅕ -5300
▁ㅍㅡㄹㄹㅐㅅ -5301
ㅌㅡㄴㅏㅁ -5302
▁ㅅㅗㅎㅕㅇ -5303
▁ㄷㅏㅇㅣㅇ -5304
▁ㄷㅏㅅㅓㅅ -5305
ㅈㅜㅅㅣ -5306
▁ㅅㅗㅇㅝㄴ -5307
▁ㅃㅐㅅ -5308
▁ㅁㅐㅊㅔ -5309
▁ㅍㅔㅅ -5310
▁ㅈㅓㄴㅁㅕㄴ -5311
▁ㅈㅜㅇㄷㅐ -5312
▁ㄷㅗㅇㅎㅘ -5313
▁ㄹㅣㄷㅡㅁ -5314
▁ㄷㅐㅍㅗㄱ -5315
FC -5316
ES -5317
▁kt -5318
▁ㅅㅠㅌㅣㅇ -5319
▁Cl -5320
ㅅㅓㅇㄱㅣ -5321
▁ㅇㅠㅎㅐㅇ -5322
ㅇㅗㄴ -5323
▁ㅍㅏㄹㅣ -5324
▁ㄹㅣㅊㅣ -5325
▁ㅎㅣㄷㅔ -5326
▁AR -5327
▁ㄱㅕㅌ -5328
▁ㅇㅗㄹㅗ -5329
▁ㅈㅜㄱㅇㅕ -5330
▁ㅇㅣㄹㅉㅣㄱ -5331
▁ㅎㅐㅂㅕㅇ -5332
▁ㄱㅣㅁㄷㅗㅇ -5333
▁ㅇㅑㄴ -5334
▁ㅇㅖㄴㅡㅇ -5335
▁ㅎㅘㄹㅅㅓㅇ -5336
ㅇㅠㅇ -5337
▁ㅌㅜㅇㅓ -5338
▁ㄱㅘㅁㅗㄱ -5339
▁ㅂㅗㄴㅐㅆ -5340
UN -5341
▁ㅊㅗㄱㅏㄴ -5342
▁ㅍㅏㄱㅕㄴ -5343
ㅅㅡㅌㅓㄴ -5344
▁ㅁㅜㄴㅎㅏㄱ -5345
▁ㄷㅐㄹㅑㄱ -5346
ㅕㄱㅗ -5347
ㅂㅗㄷㅡ -5348
▁ㅆㅏㅇㅜㄹ -5349
▁ㅇㅢㄹㅛ -5350
ㅓㄱㅡ -5351
▁ㅁㅗㄱㄱㅕㄱ -5352
▁ㅁㅐㅈㅣㄱ -5353
▁ㅈㅓㄴㅅㅣ -5354
▁ㅂㅏㄹㅡ -5355
▁ㅅㅔㅇㅣㅂㅓ -5356
▁ㄱㅜㅇㅝㄴ -5357
ㄱㅗㄱㅣ -5358
ㅌㅡㄹㅗ -5359
▁ㅅㅗㄴㄱㅏㄹㅏㄱ -5360
▁ㄴㅐㅈㅏㅇ -5361
▁ㅋㅓㅁㅐㄴㄷㅡ -5362
▁ㅇㅘㅇㅈㅗ -5363
▁ㅇㅏㅋㅡ -5364
▁ㅅㅣㅇㅟ -5365
▁ㄴㅓㅁㄱㅕ -5366
▁GT -5367
▁ㅇㅕㄴㅌㅏ -5368
▁ㅅㅏㄹㄹㅕ -5369
iz -5370
ㄷㅡㄹㅣ -5371
ound -5372
▁ㅍㅣㅅ -5373
▁ㅈㅓㄱㄱㅜㄴ -5374
ㅗㄹㅜ -5375
▁ㄱㅘㄴㅈㅜㅇ -5376
▁ㅇㅚㅎㅕㅇ -5377
ㅆㅏㄴ -5378
▁ㄱㅏㄴㅎㅗㄱ -5379
▁ㅎㅏㄱㅗ -5380
▁ㄱㅡㅇㅈㅓㅇ -5381
ㅣㅇㅗㅍㅡ -5382
▁ㄴㅏㄴㅟ -5383
▁ㅋㅓㄹㄹㅓ -5384
▁ㅈㅔㅇㅓ -5385
▁ㅌㅡㄹㅏㅇ -5386
ㅓㅇㅑ -5387
▁ㄱㅡㄱㅓㄴ -5388
▁ㅌㅣㄹ -5389
▁ㅍㅐㄴㄷㅓㅁ -5390
ㄷㅓㄴㄱㅏ -5391
▁ㅂㅏㅇㅟ -5392
▁ㅂㅏㄱㄱㅡㄴㅎㅖ -5393
▁ㅇㅣㄹㅇㅝㄴ -5394
▁ㅂㅣㅊㄴㅏ -5395
ime -5396
▁ㅇㅏㄱㅣ -5397
▁ㅇㅗㄹㄹㅣㄴ -5398
▁ㅍㅡㄹㄹㅔㅇㅣㅇㅗㅍㅡ -5399
▁ㅂㅜㅈㅏㅇ -5400
▁ㄷㅏㄱㅏㅇ -5401
▁ㅈㅓㅇㄱㅡㄹ -5402
▁ㅅㅣㄱㅁㅜㄹ -5403
▁ㅌㅗㄹㅡ -5404
▁ㅎㅢㄱㅟ -5405
ㅌㅏㅇㅣ -5406
▁ㄴㅑㅇ -5407
ㅐㅅㅣ -5408
ㄹㅔㅁ -5409
▁ㅊㅚㅅㅗㅎㅏㄴ -5410
▁ㅇㅣㄹㅈㅣ -5411
▁ㄱㅗㄹㅡ -5412
▁ㄱㅏㅅㅣ -5413
▁my -5414
▁ㅇㅠㄱㅊㅔ -5415
▁ㄱㅏㅂㅕㅂ -5416
▁ㅍㅓㄴㅊㅣ -5417
▁ㅅㅏㅁㅏㄱ -5418
▁ㄱㅣㅁㅁㅣㄴ -5419
▁SD -5420
ㅅㅏㄱㅣ -5421
▁PD -5422
▁ㅇㅕㄴㅇㅣㄴ -5423
▁ㅈㅗㄹㅣ -5424
▁ㅅㅏㅇㅅㅓㅇ -5425
ㅅㅔㅇㅣ -5426
ㅋㅡㅅㅡ -5427
▁ㅇㅡㄴㄱㅡㄴㅎㅣ -5428
▁ㄷㅐㅊㅜㅇ -5429
▁ㅋㅡㄹㅜ -5430
LL -5431
▁ㅂㅡㄹㄹㅗㄱㅡ -5432
▁Gr -5433
iv -5434
▁ㅈㅏㅊㅣ -5435
▁ㅈㅜㄴㅅㅜ -5436
▁ㄹㅜㄱ -5437
▁ㅆㅏㄱ -5438
▁ㄷㅜㄱ -5439
▁ㅅㅏㄹㄹㅣ -5440
ㅔㄷㅏ -5441
ㅈㅏㅂㅇㅣ -5442
▁SC -5443
▁KIA -5444
▁Me -5445
ㅓㅁㅏ -5446
▁ㄷㅐㅊㅓ -5447
▁ㅁㅔㄴㅌㅏㄹ -5448
▁ㅈㅜㅁㅏㄹ -5449
▁ㄱㅜㄴㅏ -5450
ㄴㅡ -5451
▁ㄴㅡㄴㅈㅣㄹㅏ -5452
▁ㅇㅏㄹㅡㅁㄷㅏㅇㅜㄴ -5453
▁ㅊㅟㅎㅏ -5454
▁ㅇㅣㄴㄱㅡㄴ -5455
ㅈㅣㄹㅗ -5456
▁ㅂㅜㄹㅂㅓㅂ -5457
▁ㅂㅜㅌㅇㅣ -5458
ㅜㅊㅣ -5459
▁ㅇㅣㄹㄱㅕㄱ -5460
▁ㅇㅠㅇㅣ -5461
▁ㅁㅔㄴㅠ -5462
▁ㅅㅡㅌㅣ -5463
ID -5464
ㅍㅔㅇㅣㄴ -5465
▁ㄱㅏㄱㅈㅏ -5466
▁ㄲㅏㄷㅏㄹ -5467
▁ㅇㅖㅊㅡㄱ -5468
▁116 -5469
▁ㄱㅐㅊㅔ -5470
▁ㄹㅐㅁ -5471
▁ㄷㅏㅇㅣㄴ -5472
▁ㅌㅡㄱㅈㅣㅂ -5473
ㄹㅣㅇㅓㄴ -5474
▁ㅎㅘㄴㅇㅕㅇ -5475
▁ㅁㅏㅈㅅㅓ -5476
▁ㅈㅓㄴㅊㅓㄹ -5477
▁ㅂㅏㄱㅈㅓㅇ -5478
▁ㅈㅗㅅㅓㅇ -5479
▁ㄱㅗㄱㅁㅕㅇ -5480
▁ㅇㅕㅇㅌㅗ -5481
▁ㅇㅕㅇㅁㅜㄴ -5482
▁ㅈㅜㄱㅇㅣㄴ -5483
ㅈㅣㄱㅏㄴ -5484
▁ㅁㅜㄹㅡ -5485
▁ㅇㅣㅅㅡㄹㄹ -5486
▁ㅈㅓㄱㄷㅐ -5487
▁ㄸㅡㄷ -5488
▁SM -5489
▁My -5490
▁ㅁㅓㄹㅉㅓㅇ -5491
▁ㄱㅣㅅㅏㄷㅏㄴ -5492
▁ㄷㅔㅁ -5493
▁ㅋㅐㄴㅏㄷㅏ -5494
▁ㅂㅗㅇㅏㄴ -5495
▁ㅍㅏㅋㅡ -5496
▁ㅎㅗㄹㄹㅗ -5497
OP -5498
▁ㄱㅜㄱㄱㅜㄴ -5499
▁ㄷㅏㄷ -5500
▁ㄱㅓㄴㅊㅜㄱ -5501
▁130 -5502
▁ㅅㅗㅈㅜㅇ -5503
▁ㅎㅏㅇㅑㄴ -5504
▁ㅅㅓㅇㅑㅇ -5505
▁ㄷㅏㄹㅡㄹ -5506
▁ㅎㅏㅂㅊㅕ -5507
ㅋㅠㅇㅓ -5508
▁ㅊㅣㅁㄱㅗㅇ -5509
▁ㅇㅗㄹㅐㅅ -5510
▁ㄱㅣㅈㅓㄱ -5511
▁ㅁㅏㄹㅣㅇㅏ -5512
ㅣㄲㅏ -5513
▁ㅁㅗㄹㅡㄴ -5514
▁ㅇㅝㄴㅂㅗㄴ -5515
▁ㅅㅔㄱ -5516
▁ㅎㅕㅇㅅㅏ -5517
▁ㄱㅖㄷㅏㄴ -5518
▁ㄱㅏㅇㄴㅏㅁ -5519
▁ㄹㅣㅅ -5520
▁ㅍㅗㅅㅡㅌㅡ -5521
ㄹㅗㄱㅡ -5522
ㅍㅓㄹ -5523
ㄷㅓㅇㅜㄱ -5524
ㅣㅇㅓㅁ -5525
▁ㅈㅓㅂㅅㅗㄱ -5526
▁ㄷㅓㄷㅓㅇㅜㄱ -5527
▁ㄱㅓㅇㅣㄴ -5528
▁ㅌㅟㅇㅓㄴ -5529
▁ㄴㅜㄴㅏ -5530
▁ㅁㅝㄹ -5531
▁ㄹㅜㅇㅣ -5532
ㄹㅔㅅㅡ -5533
▁ㄷㅐㅈㅣ -5534
▁ㅇㅔㄹㅣ -5535
▁ㄲㅏㅇ -5536
▁ㅇㅓㄹㅡㄴ -5537
▁ㅈㅜㅍㅗ -5538
▁ㅌㅏㄴㅊㅏㅇ -5539
▁ㅎㅜㅅ -5540
▁ㅍㅣㅂㅜ -5541
▁Pr -5542
▁ㅇㅣㄱㅣㄹ -5543
▁ㄱㅕㄹㅁㅏㄹ -5544
▁{{ -5545
▁ㅎㅗㅌㅔㄹ -5546
▁ㄱㅣㄷㅗㄱ -5547
▁ㅇㅏㅅㅏ -5548
▁ㅈㅓㅇㅊㅏㄹ -5549
▁ㅈㅣㄷㅗㅈㅏ -5550
ㅆㅡㄹ -5551
ge -5552
▁ㅁㅕㄴㅇㅕㄱ -5553
▁ㄱㅓㄴㄴㅓ -5554
▁ㅇㅡㄹㅕㄱㅗ -5555
▁ㅈㅚㄷㅏ -5556
▁ㅎㅓㄴㅏ -5557
ㄷㅔㅅㅡ -5558
▁ㅊㅓㅂㅓㄹ -5559
▁ㅇㅣㄱㅅㅡ -5560
▁ㅇㅐㄱㅌㅣㅂㅡ -5561
▁ㅁㅣㅇㅏㄴ -5562
ㅅㅣㅋㅗ -5563
▁ㄱㅗㄹㄷㅡㄴ -5564
ㅇㅜㅁ -5565
▁ㄷㅐㅎㅏㅇ -5566
▁ㅅㅣㅅㅓㄴ -5567
▁ㅅㅣㄴㄹㅏ -5568
▁ㄴㅏㄱㅏㄹ -5569
▁ㅅㅣㄴㅐㅂㅓㅅㅡ -5570
▁{{{ -5571
▁ㅂㅏㄴㅅㅏ -5572
▁ㅃㅏㄹㄹㅏ -5573
▁https -5574
▁ㅁㅗㅁㅗ -5575
▁ㅈㅓㄹㄷㅐㄹㅗ -5576
▁ㅇㅣㄹㅜㅇㅓㅈㅣ -5577
ㅣㅆ -5578
▁ㅎㅏㄱㅂㅜ -5579
▁ㅂㅣㅎㅐㅅㅓ -5580
▁ㅎㅜㄱㅣ -5581
▁ㅎㅕㄴㅇㅕㄱ -5582
ㅜㅇㅑ -5583
▁BE -5584
▁ㅇㅡㅁㅇㅝㄴ -5585
ㅇㅓㅂㅓㄹ -5586
▁ㅅㅣㄱㄷㅏㅇ -5587
▁ㅈㅏㄱㅎㅘ -5588
▁ㄱㅚㅅㅜ -5589
ㅌㅡㅁㅐㄴ -5590
ax -5591
ome -5592
▁ㅅㅏㅇㄷㅏㅇㅅㅜ -5593
▁ㄱㅣㅇㅏ -5594
▁ㅁㅔㄹㅡ -5595
▁ㅌㅗㅁㅗ -5596
▁ㅅㅗㅈㅣ -5597
▁ㄱㅘㅇㅕㄴ -5598
▁ㅎㅜㅈㅣ -5599
▁ㅅㅣㄱㅖ -5600
ㅅㅛ -5601
▁ㅇㅔㅅㅓㅂㅜㅌㅓ -5602
▁ㅇㅣㄹㅝ -5603
▁ㅂㅏㄹㅏㅂㅗ -5604
▁ㅎㅐㅈㅓㄱ -5605
▁ㄴㅗㄹㅇㅣ -5606
▁ㅇㅓㄸㅓ -5607
▁ㄷㅗㄹㅇㅏㅇㅘㅆ -5608
▁ㅊㅟㅁㅣ -5609
ㅋㅓㅅ -5610
ㅁㅣㅇㅣㅆ -5611
▁ㅈㅐㅁㅣㅇㅣㅆ -5612
▁ㄷㅐㄱㅏ -5613
▁ㅋㅏㄴㅏ -5614
▁ㅋㅐㅅㅡㅌㅣㅇ -5615
▁ㅈㅓㄴㅕㄱ -5616
▁ㄴㅔㄷㅓㄹ -5617
▁ㅂㅓㅅㅡㅌㅓ -5618
▁ㅇㅣㄹㄱㅣ -5619
▁DF -5620
▁ㅈㅓㄴㅁㅜㄴㄱㅏ -5621
▁ㅈㅏㄱㅡㅁ -5622
▁ㅅㅐㅂㅕㄱ -5623
ance -5624
▁ㄱㅗㅅㅡㅌㅡ -5625
▁ㅈㅓㄴㅈㅣㄴ -5626
▁ㅍㅡㄹㅣㅋㅠㅇㅓ -5627
ㅇㅣㅇ -5628
uc -5629
▁ㅍㅕㄹㅊㅕ -5630
ㅉㅓㄱ -5631
ㅡㄴㅗ -5632
▁ㄷㅗㄹㅇㅏㄷㅏㄴㅣ -5633
▁ㄲㅗㅈ -5634
ㅣㅇㅓㅄ -5635
▁ㅈㅜㄱㅏㄴ -5636
▁ㄱㅘㅈㅔ -5637
▁ㄱㅡㄹㅔㅇㅣ -5638
▁ㄹㅏㅇㅣㄴㅇㅓㅂ -5639
▁ㅋㅏㅅㅡ -5640
ick -5641
▁ㄴㅏㅁㄱㅕ -5642
ㅇㅡㅂ -5643
▁ㅎㅗㅈㅜ -5644
▁MF -5645
▁ㅂㅜㄷㅣ -5646
ㅃㅏㄹ -5647
▁ㅇㅓㄹㅣㄴㅇㅣ -5648
▁ㅎㅏㄴㄷㅗㅇㅇㅏㄴ -5649
▁ㅇㅣㄹㅓㅎ -5650
▁ㅂㅣㅇㅏ -5651
▁ㅇㅏㅌㅣㅅㅡㅌㅡ -5652
▁ㅎㅔㅇㅣ -5653
▁ㅇㅕㄹㅅㅚ -5654
▁ㅎㅏㄴㅂㅓㄴ -5655
▁ㄷㅡㄹㅇㅣ -5656
ㅈㅗㄹ -5657
▁ㄹㅔㅇㅗ -5658
▁ㄲㅐㄷㅏㄷ -5659
▁Pl -5660
▁ㄴㅏㅌㅏㄴㅏㄴ -5661
▁ㅂㅣㅎㅐㅇㄱㅣ -5662
▁ch -5663
▁ㄷㅗㅇㅂㅜ -5664
▁ㅇㅖㅅㅣ -5665
▁ㄱㅗㅈㅣ -5666
▁ㄱㅓㅁㅊㅏㄹ -5667
▁ㅈㅜㄱㅇㅣㄹ -5668
▁ㅈㅜㄹㅇㅓ -5669
▁ㅎㅏㄴㅊㅏㅁ -5670
▁ㅊㅗㅇㅅㅓㄴ -5671
ㅊㅣㄱㅣ -5672
▁ㅂㅏㅇㅈㅣ -5673
▁ㅅㅣㄴㅎㅗ -5674
▁ㅊㅓㅅㅊㅏ -5675
▁ㅍㅡㄹㅗㄹ -5676
▁HD -5677
▁ㅇㅓㄹㅣㄹ -5678
▁ㅅㅡㅇㄱㅕㄱ -5679
10 -5680
▁ㅁㅗㄹㄹㅏㅆ -5681
▁\ -5682
ix -5683
MA -5684
▁ㅇㅜㅇㅟ -5685
▁WW -5686
▁ㅇㅛㅇㄱㅣ -5687
▁ㅇㅏㄴㅣㄴㄱㅏ -5688
▁ㅌㅡㄹㅔㅇㅣㄷㅡ -5689
▁ㅌㅡㄹㅓㄱ -5690
▁ㅇㅚㅊㅣ -5691
ord -5692
ㅡㄹㄹㅣㅇ -5693
mer -5694
▁ㅇㅢㅁㅜ -5695
▁ㅌㅡㅇㅟㄴ -5696
▁ㅍㅏㅊㅡ -5697
▁ㄱㅕㅇㄱㅣㄹㅕㄱ -5698
▁ㅇㅣㄹㅇㅓㄴ -5699
▁ㅌㅔㅋㅡ -5700
▁ㅇㅣㅈㅣ -5701
ㄱㅘㅇㅇㅕㄱㅅㅣ -5702
▁ㅁㅏㄹㅣㄴ -5703
▁ㅅㅔㅇㅝ -5704
▁?? -5705
▁ㅇㅣㅅㅡㄹㄹㅏㅁ -5706
ㅂㅓㅌㅡ -5707
▁ㅂㅗㄱㅗ -5708
▁ㅅㅣㅇㅏ -5709
▁ㅇㅓㅈㅣㄱㅏㄴ -5710
▁ㅋㅗㅇㅜ -5711
▁ㅅㅗㄱㅎㅏ -5712
▁ㅅㅣㄴㄱㅣ -5713
▁ㄷㅡㄹㅇㅓㄱㅏㄹ -5714
▁ㅇㅏㄴㄱㅕㅇ -5715
▁ㅈㅓㅈㅏㅇ -5716
ㅋㅏㄷㅡ -5717
▁ㅇㅑㅇㅉㅗㄱ -5718
▁ㄷㅗㅇㄱㅜㄹ -5719
▁ㅍㅡㄹㄹㅏ -5720
ㅁㅓㄴ -5721
ㄷㅏㅇㅣ -5722
▁ㅅㅏㅇㅎㅏㄴ -5723
▁ㅁㅗㅅㅎㅏㄹ -5724
▁ㅅㅡㅌㅏㅋㅡㄹㅐㅍㅡㅌㅡ -5725
▁160 -5726
ure -5727
▁ㅎㅘㅈㅔ -5728
▁ㄱㅏㄹㅅㅜㄹㅗㄱ -5729
▁ㅎㅓㄹㅣ -5730
▁ㅇㅟㅎㅏ -5731
▁ㄱㅐㅅㅓㅇ -5732
▁ㅎㅏㄹㅇㅏㅂㅓㅈㅣ -5733
▁ㅇㅣㅁㅏ -5734
▁ㄱㅗㅅㅜ -5735
▁ㄴㅗㅇㄷㅏㅁ -5736
▁ㅌㅡㄴ -5737
▁ㅈㅕㅅㅓ -5738
▁ㄷㅣㅈㅣㅌㅓㄹ -5739
▁ㅋㅐㅁㅍㅔㅇㅣㄴ -5740
▁GB -5741
▁ㅋㅐㅂㅌㅣㄴ -5742
▁ㅋㅡㄹㅣㅅㅡㅁㅏㅅㅡ -5743
▁ㅌㅗㄲㅣ -5744
▁ㅋㅐㅁㅍㅓㅅㅡ -5745
▁ㅊㅓㅇㅅㅗㄴㅕㄴ -5746
▁ㄴㅐㄹㅕㄱㅏ -5747
▁ㄴㅓㅁㅇㅓㄱ -5748
▁ㅅㅡㅌㅏㄹ -5749
▁ㅅㅏㅇㄱㅡㅂ -5750
▁ㄱㅐㅈㅓㅇ -5751
▁ㅇㅣㅅㅡㄹ -5752
▁ㅁㅜㄷㅓㅁ -5753
▁ㅇㅕㅇㅎㅑㅇㄹㅕㄱ -5754
▁ㅂㅏㄷㅇㅏㄷㅡㄹㅇㅣ -5755
▁ㅊㅓㄴㅈㅐ -5756
ㅌㅡㄱㅂㅕㄹ -5757
▁with -5758
▁OST -5759
▁ㅂㅜㄹㄹㅣㄴㄷㅏ -5760
▁ㄹㅣㅇㅗㄴ -5761
▁ㅁㅏㅊㅣㅁㄴㅐ -5762
▁1992 -5763
▁ㅇㅗㄹㅐㅅㄷㅗㅇㅇㅏㄴ -5764
ㄷㅏㄹㅣ -5765
▁ㅈㅗㅇㅓㄴ -5766
▁ㅇㅣㅇㅕㅇ -5767
▁ㅇㅏㅇㅣㅋㅗㄴ -5768
▁ㅇㅠㅎㅢㅇㅘㅇ -5769
▁ㅅㅣㄴㅂㅣ -5770
▁ㅇㅜㅅㅇㅡㅁ -5771
▁ㅇㅏㄴㄴㅐ -5772
▁ㅂㅏㅇㅊㅜㄹ -5773
▁ㅎㅗㅇㅟ -5774
▁ㅁㅣㅅㅜㄹ -5775
ㅁㅏㄷㅣ -5776
▁ㅌㅏㅇㅣㄱㅓ -5777
▁ㅇㅑㅁ -5778
▁ㄱㅡㄹㅏ -5779
▁ㅇㅣㄴㅈㅣㄷㅗ -5780
▁ㅁㅏㅇㅣㄴㅓ -5781
▁ㅂㅏㅋㅟ -5782
▁ㄴㅡㄹㅏ -5783
▁ㅋㅡㄹㄹㅐㅅㅣㄱ -5784
▁ㄹㅗㅈㅡ -5785
▁KO -5786
▁1993 -5787
▁ㄷㅡㄹㅏ -5788
▁ㅇㅗㄹㅎㅐ -5789
ud -5790
▁ㅎㅏㄹㅏㄱ -5791
▁ㅌㅔㄴㄷㅔ -5792
▁ㅈㅘㅇㅜ -5793
▁ㅎㅠㄷㅐ -5794
▁ㄱㅏㅈㅕㄱㅏ -5795
▁ㅇㅕㄴㄹㅛ -5796
▁ㄲㅡㄴ -5797
▁ㅈㅏㅇㅇㅏㄱ -5798
▁ㅈㅜㅇㄷㅗㄱ -5799
▁ㄱㅡㄱㅂㅗㄱ -5800
▁ㅇㅝㄴㅅㅗ -5801
▁ㅁㅜㅈㅏㄱ -5802
▁ㅈㅓㅂㅊㅗㄱ -5803
▁ㅈㅓㅇㅇㅝㄴ -5804
▁ㅌㅣㅂ -5805
▁ㅋㅡㄹㄹㅣㄱ -5806
▁ㅇㅢㅈㅗㄴ -5807
▁ㅂㅕㄹㄷㅏㄹㅡㄴ -5808
▁ㅂㅔㅌㅡㄴㅏㅁ -5809
▁ㄱㅜㄱㅂㅏㅇ -5810
▁ㄱㅟㅊㅏㄶ -5811
▁ㄴㅣㅅㅣ -5812
▁ㅁㅓㅁㅊㅜ -5813
▁SKT -5814
▁ㄷㅙㅈㅣ -5815
▁ㅇㅏㅅㅟㅇㅜㄴ -5816
▁ㄸㅓㄹㅇㅓㅈㅣㄴㄷㅏ -5817
▁ㄴㅗㅇㅣㄴ -5818
▁ㄷㅡㄹㅓㅁ -5819
▁ㅇㅣㄹㅈㅔ -5820
ㅇㅏㅈㅣ -5821
▁ㅇㅣㄴㅈㅓㅇㅂㅏㄷ -5822
▁ㄱㅕㄹㅋㅗ -5823
▁ㄷㅔㄹㅕㅇ -5824
ㅇㅑㅇㅎㅏㅁ -5825
▁ㅂㅏㅇㅣㄹㅓㅅㅡ -5826
▁ㅅㅣㄱㄹㅑㅇ -5827
▁ㅅㅏㄹㅏㅈㅣㄴ -5828
▁ㅅㅓㄴㅌㅐㄱㅈㅣ -5829
▁ㅎㅡㄹㅡㅁ -5830
▁ㅅㅏㄷㅗ -5831
▁140 -5832
▁ㅅㅐㅇㅈㅗㄴㅈㅏ -5833
▁ㅁㅣㄹㄹㅕ -5834
▁ㄹㅏㅁㅕㄴㅅㅓ -5835
▁ㅁㅣㄹㅏ -5836
▁Ex -5837
▁ㅇㅣㅈㅜㅇ -5838
▁ㅁㅗㅈㅗㄹㅣ -5839
ame -5840
▁ㅅㅜㅇㅣㄱ -5841
▁ㅈㅓㄴㅅㅣㄴ -5842
80 -5843
▁ㅎㅏㅇㅜㅅㅡ -5844
▁ㅂㅣㅆㅏ -5845
▁sh -5846
▁ㅊㅣㅇㅊㅏㄴ -5847
ㅋㅜㄹ -5848
▁ㅋㅐㄴㅗㄴ -5849
▁ㅁㅣㅊㅡ -5850
ㅇㅓㅈㅣㄴ -5851
ㅓㅂㅡㄹ -5852
▁ㅂㅗㄴㅊㅔ -5853
▁ㅋㅕ -5854
▁ㅅㅣㄴㅅㅓㄹ -5855
▁ㅂㅗㄱㅘㄴ -5856
▁ㅊㅐㄹㄹㅣㄴ -5857
▁ㅇㅓㄸㅓㅎ -5858
▁ㅆㅣㅂ -5859
▁ㅈㅓㄴㅁㅕㄹ -5860
ㅎㅡㅂ -5861
▁ㅁㅔㅁㅗㄹㅣ -5862
▁JR -5863
▁ㅊㅓㅎ -5864
▁ㅊㅛ -5865
▁ㅌㅜㅁㅕㅇ -5866
▁ㅋㅓㄹㅣㅇㅓ -5867
▁", -5868
▁ㄱㅗㅇㅁㅜㅇㅝㄴ -5869
AD -5870
▁ㅌㅏㅁㅏ -5871
ㅏㅁㅗㅌㅗ -5872
ㅋㅔㄴ -5873
▁ㅎㅐㄹㅣ -5874
▁ㅇㅚㅈㅓㄴ -5875
▁ㅈㅓㄴㅅㅓㅇㄱㅣ -5876
▁ㅈㅓㄱㅎㅕ -5877
▁ㅇㅡㄴㅎㅏ -5878
▁ㄱㅣㄷㅗ -5879
▁ㅊㅔㅇㅠㄱㄱㅘㄴ -5880
▁ㅊㅟㅎㅑㅇ -5881
▁ㅊㅕㅆ -5882
▁ㅅㅗㄴㅎㅐ -5883
▁ㅇㅣㅈㅏ -5884
▁ㄴㅗㄴㄹㅣ -5885
▁de -5886
▁ㅎㅜㅂㅏㅇ -5887
▁ㅊㅣㅇㅠ -5888
▁ㄱㅐㅅㅜ -5889
▁ㅅㅑㄹ -5890
▁ㅅㅡㅅㅡㅇ -5891
▁ㅎㅏㄴㅁㅏㄷㅣ -5892
ㅐㄹㅑㅇ -5893
ㅅㅣㄹㅗ -5894
▁IC -5895
▁ㅌㅏㅇㅣㄴ -5896
▁ㄱㅣㅈㅗㅇ -5897
▁ㅂㅏㄴㄷㅗㅇ -5898
ㅗㄹㄹㅣㄱ -5899
▁ㅅㅜㅅㅣㅂ -5900
▁ㄹㅜㅅㅜ -5901
▁ㄹㅗㅁ -5902
▁ㅂㅗㄹㅏ -5903
▁ㄱㅡㄹㄹㅗ -5904
ost -5905
▁ㅂㅜㄱㅂㅜ -5906
▁ㄱㅣㅁㅈㅗㅇ -5907
▁ㅇㅜㅇㅕㄴㅎㅣ -5908
▁ㅆㅓㄹ -5909
▁ㅊㅜㅇㅅㅓㅇ -5910
▁ㅁㅜㄹㅡㅍ -5911
▁ㅂㅜㄹㅡㄴ -5912
▁ㅌㅏㅋㅔ -5913
ㄴㅏㅂ -5914
▁ㄷㅗㅇㅇㅣㄴ -5915
▁ㄸㅟㅇㅓㄴ -5916
out -5917
▁ㅈㅣㅇㅜ -5918
▁ㄱㅣㄷㅗㄱㄱㅛ -5919
▁ㄷㅗㅇㅇㅢ -5920
▁ㄱㅏㅌㅗㄹㄹㅣㄱ -5921
▁ㄱㅛㅈㅏㅇ -5922
▁Love -5923
ㅅㅣㅌㅏ -5924
▁ㅂㅕㄴㅎㅗㅅㅏ -5925
▁ㅅㅡㅋㅗ -5926
▁ㅇㅗㄹㄹㅏㅇㅘㅆ -5927
▁ㅍㅓㅇ -5928
▁ㄱㅜㄱㅇㅓ -5929
▁ㄹㅗㅇㅜ -5930
▁ㅈㅐㅎㅕㄴ -5931
▁ㅊㅣㅂ -5932
ㅝㅎㅏ -5933
old -5934
ㅋㅗㅌㅗ -5935
▁ㅇㅣㄹㅂㅏㄴㅇㅣㄴ -5936
▁ㅇㅠㄴㅣㅍㅗㅁ -5937
▁ㅇㅡㄹㅓ -5938
▁ㄱㅜㄱㅕㅇ -5939
ㅅㅔㅅㅡ -5940
▁ㅊㅚㄷㅏ -5941
ㄷㅡㄴㄱㅏ -5942
▁ㄷㅡㄹㄹㅣ -5943
ㄹㅔㅅ -5944
▁GS -5945
▁ㅈㅔㅈㅏㄱㅈㅏ -5946
▁ㄴㅗㄹㅏㄴ -5947
▁ㄷㅏㅇㅇㅣㄹ -5948
▁ㅁㅕㅇㅅㅓㅇ -5949
▁ㅍㅡㄹㅏㅇㅣ -5950
▁ㄴㅏㄹㅇㅏㅇ -5951
▁900 -5952
▁ㅋㅏㄹㅡ -5953
▁ㅈㅓㄱㅇㅡㅇ -5954
▁Un -5955
▁ㅈㅔㅇㅣㅁㅅㅡ -5956
▁ㅁㅗㄹㅐ -5957
▁ㅇㅗㄴㄷㅏ -5958
ㅋㅏㄹㅣ -5959
▁ㅌㅏㅅㅓㄴ -5960
▁ㅇㅣㅈㅓㅇ -5961
▁ㄹㅔㅇㅣㄷㅓ -5962
▁ㅊㅜㅇㅊㅓㅇ -5963
▁ㅊㅗㅂㅗ -5964
▁ㅈㅏㄱㄱㅗㄱㄱㅏ -5965
own -5966
▁ㄲㅗㅁ -5967
▁ㅇㅏㅂㅏ -5968
▁ㅈㅡㅇㅇㅓㄴ -5969
▁ㅅㅣㅁㅎㅐ -5970
▁ㄷㅗㄲㅣ -5971
▁ㄷㅡㄹㅇㅓㅇㅗㄴ -5972
▁ㅂㅡㄹㅗ -5973
▁ㅇㅗㅈㅓㄴ -5974
▁ㄱㅣㅇㅕ -5975
▁ㅁㅏㅈㅊ -5976
▁ㅅㅏㅈㅓㅇㄱㅓㄹㅣ -5977
▁ㅅㅜㄹㅠ -5978
▁ㅈㅓㅅ -5979
▁ㅅㅓㄴㅈㅓㄴ -5980
▁ㅎㅏㅂㅇㅢ -5981
▁202 -5982
▁ㅈㅏㅅㅔㅎㅣ -5983
▁ㅂㅓㅂㄹㅠㄹ -5984
▁ㅇㅓㅂㅈㅓㄱ -5985
▁ㅍㅐㅅㅕㄴ -5986
▁ㅁㅜㅂㅏㅇ -5987
▁ㄱㅐㅇㅣㅂ -5988
▁ㄱㅣㄹㅑㅇ -5989
▁ㅌㅔㅋㅡㄴ -5990
▁ㅊㅣㄱ -5991
▁ㄱㅏㄹㄹㅣ -5992
▁ㅌㅏㄹㅏㄱ -5993
ㅜㄴㅣ -5994
ㅗㄴㄷㅡ -5995
▁ㅍㅏㄴㅁ -5996
▁ㅁㅗㄹㄹㅏㄷㅗ -5997
▁ㄱㅡㄹㅗ -5998
▁ㄹㅏㅇㅣㅇㅗㄴ -5999
▁ㅁㅗㅇㅕ -6000
▁ㅆㅗㄹ -6001
▁ㅂㅏㄲㅏㅌ -6002
▁ㅇㅕㄴㄱㅡㅁ -6003
▁ㄱㅏㅉㅏ -6004
▁ㅇㅠㅌㅗㅇ -6005
ㅜㅇㅏ -6006
▁ㅇㅏㅇㅛ -6007
▁ㅇㅓㄹㅕㅇㅜㅁ -6008
▁ㅍㅏㄴㅁㅐㄹㅑㅇ -6009
▁ㅅㅏㅋㅏ -6010
▁ㅇㅗㄻㄱㅕ -6011
▁ㅁㅜㅅㅣㅁ -6012
▁ㅇㅘㅇㅣㄹ -6013
▁ㅅㅣㄴㅂㅜ -6014
▁ㅇㅓㄷㅜㅇ -6015
▁ㅉㅣㅈ -6016
▁ㅇㅗㄱㅏ -6017
▁ㅂㅓㅂㅇㅝㄴ -6018
▁ㅈㅣㅋㅕㅂㅗ -6019
▁ㅈㅏㄱㅜㄱ -6020
▁ㅁㅣㅅㅗ -6021
▁ㄱㅓㅁㅣ -6022
▁ㅅㅣㅈㅡ -6023
▁ㅎㅏㄹㅁㅓㄴㅣ -6024
▁ㅎㅑㅇㅎㅏ -6025
▁ㅅㅏㅇㅇㅓㅂ -6026
▁ㄷㅡㄹㅏㅇㅣㅂㅡ -6027
▁ㄴㅐㅅㅔ -6028
▁ㅈㅏㅂㅈㅣ -6029
▁ㅊㅐㅇㅝ -6030
▁ㅈㅣㄱㅕㅇ -6031
▁ㅇㅗㅁ -6032
▁ㅅㅡㅇㅞ -6033
▁SH -6034
US -6035
▁ㅈㅜㅅㅣㄱ -6036
ㄴㅏㅁㄷㅗ -6037
▁ㅌㅐㅇㅓㄴㅏㄴ -6038
▁ㅂㅜㄱㅉㅗㄱ -6039
ㅅㅕ -6040
▁ㅇㅢㅎㅚ -6041
▁ㄷㅜㄹㅉㅐ -6042
▁ㄴㅔㄱㅅㅔㄴ -6043
▁ㅅㅗㅅㅡ -6044
▁ㅊㅟㅇㅣㅁ -6045
▁ㅎㅘㅈㅏㅇㅅㅣㄹ -6046
▁ㅈㅗㅇㅕㄴ -6047
ㅁㅏㅅ -6048
ㄸㅏㅇ -6049
▁LI -6050
▁ㅁㅏㅊㅡ -6051
ㄷㅣㅅ -6052
▁ㄷㅗㅁㅏㅇㄱㅏ -6053
▁ㅇㅣㄹㅂㅏㅇ -6054
▁ㅅㅜㄹㅠㅌㅏㄴ -6055
▁ㅍㅗㄱㅕㄱ -6056
▁ㄷㅏㄺ -6057
▁ㄸㅗㅇ -6058
▁EP -6059
▁ㅇㅠㅁㅜㄹ -6060
ㅘㄱ -6061
▁ㅇㅏㄹㅣ -6062
▁ㅊㅣㅋㅣㄴ -6063
▁wik -6064
ave -6065
▁ㅂㅓㄹㄹㅔ -6066
ㅇㅕㄴㅎㅣ -6067
▁ㄲㅏㄹㄲㅡㅁ -6068
ㅋㅐ -6069
▁ㅅㅜㅁㄱㅕㅈㅣㄴ -6070
▁ㄴㅏㅇㅏㄱㅏ -6071
▁ㅊㅏㄱㅣ -6072
▁ㅁㅔㄱㅅㅣㅋㅗ -6073
▁ㄱㅡㄹㅓㄴㅣㄲㅏ -6074
▁ㄴㅔㄷㅓㄹㄹㅏㄴㄷㅡ -6075
▁ㅇㅓㅅㅡ -6076
▁ㅈㅏㄹㅏ -6077
▁ㄱㅛㅅㅣㄹ -6078
▁ㅂㅗㄱㅁㅜ -6079
▁ㅅㅡㅇㅈㅓㅁ -6080
▁ㄱㅘㅈㅏㅇ -6081
▁ㅊㅜㄹㅁㅏ -6082
▁ㄱㅡㅁㅅㅗㄱ -6083
▁ㅆㅏㅇㄷㅜㅇㅇㅣ -6084
▁ㄴㅣㅇ -6085
▁ㅉㅣㄹㅡ -6086
▁FF -6087
pe -6088
▁ㅊㅔㅋㅡ -6089
▁ㄷㅐㄱㅐ -6090
ㅊㅣㅇㅣㄴ -6091
▁IS -6092
ㅇㅡㅁㅕㄴ -6093
ace -6094
▁ㅇㅣㄹㅣ -6095
▁ㄱㅕㄹㅅㅓㅇ -6096
▁ㅍㅔㅇㅣㅅㅡ -6097
▁ㄷㅡㄹㅗㅂ -6098
▁ㅈㅓㅇㅊㅏㄱ -6099
▁ㅇㅗㅅㅏㅋㅏ -6100
▁ㄴㅏㅁㅉㅗㄱ -6101
▁ㅇㅟㅅㅏㅇ -6102
▁ㅇㅣㄴㄱㅕㄱ -6103
per -6104
ㄷㅣㅇㅏ -6105
▁ㅈㅝㅅㅓ -6106
▁ㅂㅣㄹㅖ -6107
▁ㅅㅡㅌㅓㄴ -6108
▁ㅅㅡㅌㅣㄹ -6109
▁ㅎㅡㄴㅈㅓㄱ -6110
▁ㄱㅗㅇㅅㅓㅇ -6111
▁ㅈㅓㅇㅂㅣ -6112
ㅈㅟ -6113
▁ㅈㅓㄴㅎㅜ -6114
▁ㅈㅏㅍㅗㄱ -6115
▁XX -6116
▁ㄱㅓㅈㅓㅁ -6117
▁ㅂㅜㅈㅏㄱ -6118
▁ㅈㅜㅇㅣㄹ -6119
▁ㄷㅗㅇㄹㅕㄱ -6120
▁ㄴㅓㅎㅢ -6121
▁ㅇㅕㄴㅍㅐ -6122
▁ㄴㅏㄲㅅㅣ -6123
ng -6124
ㅂㅏㅇㅣ -6125
▁ㅇㅓㄷㅡㅂ -6126
▁ㅊㅓㅎㅕㅇ -6127
▁ㄱㅐㅁㅏㄱ -6128
▁ㅂㅏㄹㅣ -6129
ㅐㅇㅇㅣ -6130
▁ㄱㅝㄴㅎㅏㄴ -6131
▁ㅌㅟㅇ -6132
▁ㅊㅐㅇㅜ -6133
▁ㅅㅔㅇㅣㄹ -6134
ㄸㅏㄱ -6135
▁ㅅㅡㅍㅡㄹㅣㅇ -6136
▁ㄷㅗㄱㅌㅡㄱ -6137
ㅜㄷㅡ -6138
▁ㅍㅗㄷㅡ -6139
▁ㅂㅣㅆㅏㄴ -6140
ㅆㅡ -6141
ice -6142
▁ㄷㅗㅈㅓㄱ -6143
▁ㅎㅜㅅㄴㅏㄹ -6144
▁ㄱㅏㄴㅅㅣㄴ -6145
▁ㅂㅏㅇㅇㅓㄱㅜ -6146
▁1991 -6147
▁ㄴㅔㅇㅛ -6148
▁ㅅㅡㅁㅏㅌㅡㅍㅗㄴ -6149
ㅈㅛ -6150
▁ㅁㅗㄹㅡㄹ -6151
▁ㅇㅏㄹㄹㅔ -6152
▁ㄷㅐㅇㅣㄴ -6153
▁ㅅㅣㄷㅏㄹ -6154
▁ㅇㅟㄷㅐ -6155
▁ㅈㅏㅂㅎㅣ -6156
ㅐㅇㅋㅡ -6157
▁ㅎㅘㅎㅏㄱ -6158
ㄱㅏㅄ -6159
▁ㅈㅏㅊㅐㄱ -6160
▁ㅁㅐㄴㅣㅈㅓ -6161
ont -6162
▁ㄸㅏㄹㅏㄱㅏ -6163
ㄸㅡㅅ -6164
▁ㅈㅓㅇㅊㅣㅇㅣㄴ -6165
▁ㅅㅡㄹㄹㅏㅇㅣ -6166
ㅣㅇㅜㅅㅡ -6167
▁ㅇㅕㄴㅅㅡㅇ -6168
▁ㅅㅏㅇㅅㅜㄹ -6169
ㅇㅘ -6170
▁CV -6171
▁ㅂㅣㅅㅏㅇ -6172
▁ㅂㅡㄹㄹㅓㄷㅡ -6173
▁ㄱㅜㄱㄹㅣㅂ -6174
▁ㅅㅏㅇㅎㅗ -6175
▁1988 -6176
ㅗㄴㅣ -6177
ov -6178
▁ㄱㅗㅇㄹㅛㅇ -6179
▁ㅃㅓ -6180
▁ㅇㅣㄹㅜㅇㅓㅈㅣㄴ -6181
▁ㅍㅗㅎㅏㅇ -6182
▁ㅍㅗㅅㅜ -6183
▁ㄱㅣㅇㅛㅇ -6184
▁AD -6185
▁ㅋㅡㄹㄹㅐㄴ -6186
ㄱㅡㄹㄹㅐㄴㄷㅡ -6187
▁ㄱㅟㅎㅘㄴ -6188
▁ㅁㅗㄹㄹㅏㄱ -6189
▁ㅅㅣㄴㅓㅈㅣ -6190
▁CF -6191
▁We -6192
▁ㅎㅜㅅㅜㄹ -6193
▁ㄷㅗㅈㅜ -6194
▁ㄱㅗㅈㅏㄱ -6195
▁ㅈㅔㄱㅏㄹ -6196
OD -6197
▁ㅋㅏㅁㅣ -6198
▁ㅊㅜㅇㅓㄱ -6199
▁ㅎㅐㅇㅂㅗ -6200
▁ㅋㅡㄹㅣㅅㅡㅌㅏㄹ -6201
▁ㅌㅏㅅㅜ -6202
▁ㅈㅜㄱㅣ -6203
▁ㅅㅡㅌㅠㄷㅣㅇㅗ -6204
▁ㅅㅗㅍㅡㅌㅡ -6205
▁ㅅㅡㅍㅔㅇㅣㅅㅡ -6206
▁ㅍㅜㄹㄹㅣ -6207
▁ㅇㅣㅅㅠ -6208
▁ㅇㅏㅇㅣㄹㄹㅐㄴㄷㅡ -6209
▁ㄹㅓㄴㄷㅓㄴ -6210
▁ㅌㅐㄱㅡ -6211
▁ㄱㅐㄹㅑㅇ -6212
▁ㅈㅓㄱㄷㅏㅇㅎㅣ -6213
▁ㄹㅗㄱㅗ -6214
▁ㅋㅗㅁㅣ -6215
▁ㄱㅏㄱㅂㅗㄴ -6216
▁ㅈㅣㄹㅚ -6217
▁ㄷㅗㅇㅜ -6218
▁ㅅㅣㄹㅁㅏㅇ -6219
ㅜㅌ -6220
▁ㅅㅏㅇㅠ -6221
▁ㅎㅘㅅㅓㅇ -6222
▁ㄹㅣㄷㅡ -6223
▁ㄴㅐㅁㅅㅐ -6224
▁ㅎㅣㅁㅔ -6225
▁ㅎㅗㅅㅜ -6226
▁ㅅㅡㅇㄹㅠㄹ -6227
▁ㅅㅐㄱㄲㅏㄹ -6228
▁ㄷㅏㅅ -6229
▁ㄱㅗㅇㅅㅔ -6230
▁ㅈㅜㅇㅕㄱ -6231
▁ㅇㅣㅅㅣㄱ -6232
▁ㅅㅜㄱㄹㅕㄴ -6233
▁ㅎㅡㅇㅁㅣ -6234
▁105 -6235
▁ㄲㅣㅇ -6236
▁ㅇㅓㄴㅈㅔㄴ -6237
▁ㅎㅕㄹㅇㅐㄱ -6238
▁AM -6239
▁ㅈㅜㄹㅇㅣ -6240
▁ㄱㅘㅇㅇㅕㄱㅅㅣ -6241
▁ㄱㅓㅊㅣ -6242
ㅈㅏㄷㅡ -6243
▁ㄴㅗㄱㅅㅐㄱ -6244
▁ㅇㅗㅅㅡㅌㅡㄹ -6245
▁ㅈㅐㄷㅏㄴ -6246
▁ㄸㅡㄴㄱㅡㅁ -6247
▁ㅂㅜㅁ -6248
▁ㅂㅘㅅㅓ -6249
▁ㅌㅐㅇㅓㄴㅏㅆ -6250
orld -6251
▁ㅈㅏㅁㅏㄱ -6252
▁ㅌㅏㄹㅗ -6253
▁ㄷㅏㄹㅡㅁㅇㅓㅄ -6254
ies -6255
▁ㅇㅏㅍㅡ -6256
▁ㅇㅣㄴㅁㅣㄴ -6257
▁ㅅㅗㅇㅟ -6258
▁ㅎㅣㅇㅓㄹㅗㅈㅡ -6259
▁ㅋㅏㅇㅜㄴㅌㅡ -6260
▁ㅅㅜㅈㅏㅇ -6261
▁ㅇㅑㄱㅎㅐ -6262
▁DS -6263
▁ㅅㅓㅍㅗㅌㅓ -6264
▁ㅅㅓㄴㄱ -6265
▁ㅇㅣㄹㄹㅏㅁ -6266
▁ㅋㅓㅆ -6267
▁ㄴㅓㄹㄹㅣ -6268
▁.." -6269
▁ㄹㅜㄴㅏ -6270
ann -6271
▁ㅁㅏㅇㅊㅣ -6272
▁ㄱㅜㅅㅏ -6273
▁ㅎㅏㄱㄹㅕㄱ -6274
▁ㅅㅐㅇㄴㅕㄴ -6275
ㅍㅡㄹㅣ -6276
▁ㄱㅖㅌㅗㅇ -6277
▁ㄱㅡㅁㅇㅠㅇ -6278
ㅈㅡㅁㅣ -6279
▁ㅅㅐㄱㅅㅏㅇ -6280
▁ㅇㅣㅈㅔㄴ -6281
▁ㅅㅡㅌㅡㄹㅏㅇㅣㅋㅡ -6282
▁ㄷㅔㄷㅡ -6283
▁ㄱㅜㄱㅇㅘㅇ -6284
▁ㅅㅏㅇㅎㅏ -6285
▁ㅌㅣㅋㅔㅅ -6286
▁ㅌㅡㄱㅈㅓㄴ -6287
ㅘㅇㅣ -6288
▁ㄹㅣㅌㅏ -6289
▁SNS -6290
▁ㅁㅕㄴㅁㅗ -6291
▁ㄱㅘㄴㄹㅏㅁ -6292
▁ED -6293
▁ㅇㅛㄱㅡㅁ -6294
▁ㅈㅔㅈㅏㄱㅅㅏ -6295
▁ㄱㅣㄹㅇㅣ -6296
▁ㅎㅡㅂㅎㅕㄹ -6297
▁ㅋㅓㅍㅣ -6298
▁ㅎㅡㄹㄹㅣ -6299
▁ㄷㅓㅅㅂㅜㅌ -6300
▁ㅇㅕㅂ -6301
ㄷㅜㄱ -6302
OC -6303
▁ㅇㅟㄹㄹㅣㅇ -6304
▁ㄴㅐㄱㅜ -6305
▁ㅇㅕㅇㄱㅜ -6306
▁ㅇㅏㅁㅏㄷㅗ -6307
▁ㅇㅏㅇㅣㅇㅓㄴ -6308
▁ㄴㅏㄱㅏㄴㄷㅏ -6309
ㅌㅡㄱㅂㅕㄹㅅㅣ -6310
▁ㄹㅔㅅㅡ -6311
▁ㅎㅏㄷㅏㄴ -6312
▁ㄴㅜㄹㄹㅓ -6313
▁ㅇㅗㅈㅣㄱ -6314
▁ㅌㅡㄹㅗ -6315
▁ㄷㅏㄴㄷㅏㄴ -6316
ㄷㅏㄹㅏㄴ -6317
▁ㅊㅏㅇㅣㅈㅓㅁ -6318
▁ㅂㅐㅌㅓㄹㅣ -6319
▁ㄱㅏㅎㅐ -6320
▁ㄱㅣㅅㅜㄱ -6321
▁ㅅㅐㄲㅣ -6322
▁ㅍㅓㅅ -6323
▁ㅃㅣ -6324
▁ㅇㅗㄹㅐㄴㅁㅏㄴ -6325
▁ㄲㅏㅈㅣㄴ -6326
ㅈㅣㅁㅗㄴ -6327
▁ㅈㅐㅅㅏㄴ -6328
▁ㄷㅣㅈㅣㅁㅗㄴ -6329
▁ㄱㅐㅅㅣ -6330
▁ㄴㅡㄹㅣㄴ -6331
ㄷㅓㅇㅇㅣ -6332
▁ㄲㅡㄹㄹ -6333
▁ㅅㅔㅈㅗㅇ -6334
BA -6335
▁ㅅㅗㄹㅏ -6336
ㅋㅣㄹ -6337
ㅣㅇㅓㅅㅡ -6338
▁ㄹㅜㅋㅏ -6339
▁ㅅㅓㅇㅜㄹㅌㅡㄱㅂㅕㄹㅅㅣ -6340
▁ㅈㅜㅇㄹㅑㅇ -6341
▁ㄷㅏㅁㅂㅐ -6342
▁CPU -6343
▁ㅊㅜㅈㅗㅇ -6344
▁ㅁㅣㅁㅛ -6345
▁ㅊㅣㅇㅎㅗ -6346
▁ㄱㅗㅇㄱㅗㅇ -6347
▁ㅇㅓㄹㅚ -6348
▁ㅅㅔㅂㅡㄴ -6349
▁ㅅㅐㅇㄹㅑㄱ -6350
▁ㅇㅣㅂㅡ -6351
▁ㅇㅏㄴㅌㅣ -6352
▁ㅇㅣㄴㅌㅓ -6353
▁ㅇㅕㅅ -6354
▁ㅁㅏㅅㅇㅣㅆ -6355
LE -6356
▁ㅈㅜㅇㅊㅓㅂ -6357
▁DE -6358
▁ㅁㅔㄷㅏㄹ -6359
▁ㅈㅡㅇㅇㅗ -6360
▁ㅇㅛㅋㅗ -6361
▁ㄱㅏㅇㄷㅗ -6362
▁ㅋㅗㄹㅣㅇㅏ -6363
▁ㄱㅏㄹㅜ -6364
▁ㅂㅗㅎㅗㅁㅏㄱ -6365
▁ㅅㅣㄴㅇㅏㅇ -6366
▁ㅅㅏㅁㅜㄹ -6367
▁ㅌㅓㅋㅣ -6368
▁ㅁㅏㄴㄴㅏㄹ -6369
▁ㅅㅡㅌㅣㅁ -6370
▁ㅈㅘㅅㅓㄱ -6371
▁ㄹㅔㅇㅣㄹ -6372
▁ㅂㅏㄺㅎㅕㅈㅣㄴ -6373
▁ㅎㅕㅁㅇㅢ -6374
▁ㄴㅔㅇㅗ -6375
▁ㅇㅣㅇㅣㄱ -6376
▁ㅅㅔㅇㅣㄴ -6377
▁ㅆㅘ -6378
▁ㅁㅣㄴㅊㅓㅂ -6379
▁ㅌㅡㄹㅔ -6380
▁ㅇㅕㄴㄹㅕㅇ -6381
▁ㅊㅗㅇㅇㅏㄹ -6382
ㅅㅡㅇㅗ -6383
▁ㅍㅕㄴㅇㅣㅂ -6384
ㅏㅇㅔㄹ -6385
▁ㅎㅏㅇㅣㄹ -6386
▁ㅎㅕㅂㅅㅏㅇ -6387
▁ㄷㅡㄴㄷㅏ -6388
▁ㅇㅗㄹㄹㅏㅇㅗㄴ -6389
▁ㄱㅜㅅㅡㄹ -6390
▁ㅁㅏㅇㅑㄱ -6391
▁ㅈㅣㄹㅡ -6392
▁ㅎㅐㅅㅏㅇ -6393
ㅝㅇㅑ -6394
ㅈㅓㅅㅡ -6395
▁ㅇㅗㅋㅡ -6396
▁ㅇㅣㄴㅈㅗㅇ -6397
▁ㅎㅠㅅㅣㄱ -6398
▁ㅅㅏㅇㄷㅏㄴ -6399
▁ㅅㅣㄹㅈㅓㄴ -6400
▁LC -6401
▁ㅎㅣㄴㅏ -6402
▁ㄴㅗㅂㅔㄹ -6403
▁ㅇㅏㅈㅓ -6404
▁ㄷㅏㄴㅍㅕㄴ -6405
▁ㅇㅕㄴㅇㅖㅇㅣㄴ -6406
▁ㅉㅜㄱ -6407
▁ㄴㅡㄹㅇㅓㄴ -6408
▁ㅎㅏㅊㅏ -6409
▁ㅇㅣㅇㄱㅡㄹㄹㅐㄴㄷㅡ -6410
▁ㅇㅓㅁㅏㅇ -6411
▁ㅌㅏㅇㅠㄹ -6412
▁ㅅㅏㅇㅇㅣㄴ -6413
▁ㅂㅏㄹㄹㅏ -6414
▁ㅌㅓㄱ -6415
▁ㄷㅣㄹㄹㅣㅇ -6416
ㅌㅔㄱ -6417
▁your -6418
▁ㅇㅖㅇㅓㄴ -6419
ㅅㅣㅅㅡㅌㅡ -6420
ㅅㅈㅣㅂ -6421
▁ㅎㅡㄹㅡ -6422
▁ㅁㅜㄹㄹ -6423
▁ㅅㅡㅌㅗ -6424
▁ㄱㅗㄴㄹㅏㄴ -6425
▁ㄱㅏㅇㅛ -6426
▁ㄱㅜㅅㅓㄱ -6427
▁ㅇㅏㅈㅓㅆㅣ -6428
▁ㅊㅏㄴㅅㅡ -6429
ber -6430
▁ㅇㅛㅇㅅㅓ -6431
▁ㅁㅏㄱㄷㅐ -6432
▁LV -6433
▁NE -6434
▁ㅈㅓㅇㅎㅘ -6435
▁ㄱㅓㄹㅊㅕ -6436
ㅈㅕㄴ -6437
▁ㄱㅏㅇㅇㅛ -6438
▁ㅈㅜㅇㄱㅜㄱㅇㅓ -6439
▁ㅊㅔㄴ -6440
▁ㄴㅏㅁㄱㅕㅆ -6441
▁ㅌㅏㄹㅌㅚ -6442
▁ㅇㅓㅁㅏㅇㅓㅁㅏ -6443
ㅅㅏㅈㅏ -6444
ㅇㅓㄹㅣ -6445
ㅇㅓㅇㅗㄹ -6446
▁ㄱㅣㄱㅘㄴㅊㅗㅇ -6447
ys -6448
▁ㅇㅖㅅㅏㄴ -6449
▁189 -6450
▁ㄷㅗㅇㅉㅗㄱ -6451
▁ㄷㅔㄹㅕㄱ -6452
ㄲㅗㅂ -6453
▁ㅎㅏㄴㅈㅣ -6454
▁ㄴㅡㄲㅣㄹ -6455
▁ㅇㅝㅋㅓ -6456
▁ㄱㅗㅇㅂㅏㅇ -6457
▁ㅇㅛㅇㄹㅑㅇ -6458
▁ㅎㅜㅂㅐ -6459
▁ㅎㅔㅂㅣ -6460
▁SE -6461
▁ㄱㅐㅎㅕㄱ -6462
▁ㅁㅜㄴㄱㅜ -6463
▁ㄱㅏㅇㅈㅏ -6464
▁ㅇㅓㄴㅅㅡ -6465
der -6466
▁ㄱㅏㅎㅏ -6467
▁ㅋㅡㄹㅣㅁ -6468
▁ㅇㅓㄹㅕㅇㅝ -6469
▁ㅅㅐㅇㄱㅕ -6470
▁ㄷㅗㅁ -6471
▁ㅂㅔㅇㅓ -6472
▁ㅇㅝㄴㅊㅣㄱ -6473
▁ㄱㅣㅁㅎㅕㄴ -6474
aw -6475
▁ㅎㅏㄹㅜㅋㅏ -6476
ION -6477
▁ㅈㅏㄱㅡㄱ -6478
▁ㄴㅓㅁㅊㅣ -6479
▁ㅇㅏㄱㄷㅏㅇ -6480
▁It -6481
▁ㅂㅜㄱㅏㄱ -6482
ㅁㅣㄴㅣ -6483
▁ㄱㅏㅈㅕ -6484
▁ㅅㅗㅈㅏㅇ -6485
▁ㅋㅐㅁㅍㅡ -6486
▁ㅍㅗㄹㄹㅏㄴㄷㅡ -6487
▁ㅂㅓㄹㅇㅓㅈㅣㄴ -6488
▁ㄱㅡㅁㅂㅏㅇ -6489
▁ㅅㅜㅎㅗㅈㅏ -6490
ㄷㅜㄹㅡ -6491
▁ㅁㅐㄱㅅㅡ -6492
▁ㅅㅏㅇㅅㅣㄹ -6493
▁ㅇㅣㄹㅈㅗㄱ -6494
▁ㅈㅏㅁㅅㅜㅎㅏㅁ -6495
▁ㅅㅣㅁㅅㅏ -6496
▁ㄱㅜㅅ -6497
ㅁㅣㄹㄹㅣ -6498
60 -6499
ㅐㄱㅡ -6500
▁ㄴㅏㅁㄱㅣㄴ -6501
▁ㅇㅐㅍㅡㄹ -6502
▁ㄹㅣㅇㅗ -6503
▁ㅎㅓㄱ -6504
▁ㄷㅔㅁㅗㄴ -6505
▁ㅅㅏㅇㄱㅘㄴㅇㅓㅄ -6506
oo -6507
ㅈㅐㅇㅣㄴ -6508
▁ㅇㅝㄴㅎㅏ -6509
▁ㄱㅛㄹㅠ -6510
▁ㅊㅗㅇㄹㅣ -6511
▁ㅍㅣㅅㅡ -6512
▁ㅇㅣㄴㅊㅣ -6513
ㅗㄱㅣ -6514
▁ㅈㅣㅂㅎㅐㅇ -6515
▁ㅇㅝㄴㅅㅜ -6516
FF -6517
40 -6518
▁EN -6519
▁ㅁㅣㅌㅓ -6520
▁BPM -6521
▁ㅇㅔㅇㅛ -6522
▁ㅅㅜㄷㅗㅇ -6523
▁ㅈㅣㄴㅂㅗ -6524
▁ㅌㅏㅇㅜㄴ -6525
▁ㅇㅐㄹㄹㅣㅅㅡ -6526
▁ㅅㅡㅌㅓ -6527
▁ㅈㅏㅈㅓㄴ -6528
▁ㅇㅝㄴㅁㅜㄴ -6529
▁ㅇㅏㄹㅏㅂ -6530
▁ㅇㅠㅎㅛ -6531
ike -6532
▁ㅅㅏㅇㅣㅂㅓ -6533
▁ㅇㅓㄴㄷㅓㄱ -6534
ream -6535
▁ㄷㅔㅇㅣㅂㅣ -6536
▁ㄱㅕㄹㅈㅓㄴ -6537
▁ㅈㅓㅈㅏㄱ -6538
▁ㅍㅛㅈㅣ -6539
▁ㄱㅡㄹㅓㄱ -6540
▁ㄱㅏㄴㅅㅣㄴㅎㅣ -6541
ㅏㅇㅇㅣ -6542
▁ㅊㅐㅌㅣㅇ -6543
▁ㄱㅏㅇㅡㄹ -6544
ㄸㅜㅇ -6545
▁ㅇㅓㄹㅏ -6546
▁ㅎㅜㄱㅖ -6547
▁ㅈㅣㅍㅏㅇ -6548
▁ㅂㅐㅁㅍㅏㅇㅣㅇㅓ -6549
▁125 -6550
▁1989 -6551
▁ㅁㅜㅊㅓㄱ -6552
▁ㅎㅘㄹㅂㅏㄹ -6553
▁ㅇㅔㄱㅅㅡㅌㅡㄹㅏ -6554
ㅣㅊㅣ -6555
▁ㅅㅔㅇㅜㄴ -6556
▁ㅈㅜㅇㄹㅣㅂ -6557
▁ㅎㅔㄹㄱㅣ -6558
ㄱㅣㅇ -6559
▁ㅇㅣㅂㅈㅣ -6560
▁Com -6561
▁ㅇㅔㄹㄹㅣㅌㅡ -6562
ㅇㅏㅇㅜㅅ -6563
▁ㄴㅏㄴㅝ -6564
▁ㅁㅏㄷㅣ -6565
▁ㅁㅔㅅㅣㅈㅣ -6566
▁ㅎㅕㅁㅇㅗ -6567
ㅅㅜㄹㅅㅏ -6568
▁ㅅㅏㅎㅕㅇ -6569
▁ㅈㅓㄹㅕㅁ -6570
▁ㅇㅣㅁㄷㅐ -6571
▁ㅎㅘㅁㅜㄹ -6572
▁ㅎㅐㄱㅗㄹ -6573
▁ㅁㅜㄹㅕㅂ -6574
▁ㅍㅔㄹㅡㅅ -6575
ㅂㅔㄹㅡ -6576
▁ㅂㅏㅇㅣㅇㅗ -6577
ory -6578
▁ㅇㅣㄲㅡ -6579
▁ㅎㅐㅍㅣ -6580
▁ㄴㅔㄹ -6581
▁ㅇㅏㅊㅡ -6582
▁ㅋㅏㄹㄴㅏㄹ -6583
▁3000 -6584
▁ㅉㅏㅈㅡㅇ -6585
▁ㄷㅓㄱㅜㄴ -6586
▁ㄱㅣㅅㅐㅇ -6587
ㅇㅝㄹㅇㅣㄹ -6588
▁PV -6589
▁ㅈㅓㅇㅇㅖ -6590
▁ㅅㅏㅁㅕㅇ -6591
ㅂㅔㄴ -6592
▁ㅂㅗㄱㅈㅣ -6593
▁ㅅㅓㅂㅓㄴㅌㅡ -6594
▁ww -6595
▁ㄴㅏㅌㅏㄴㅏㄴㄷㅏ -6596
▁ㅇㅛㅇㅑㄱ -6597
▁ㅅㅓㅇㄴㅏㅁ -6598
ㄹㅏㅈㅣ -6599
▁ㅈㅐㅁㅣㅆ -6600
ㅋㅏㅇㅗ -6601
▁ㅇㅏㄴㄴㅕㅇ -6602
ㅁㅛ -6603
▁UP -6604
▁ㅊㅜㄱㅜ -6605
▁ㅁㅜㄴㅓ -6606
▁ㅅㅣㄴㅅㅏ -6607
▁ㅇㅣㄹㅂㅗㄴㅇㅣㄴ -6608
▁ㅎㅐㅇㅇㅜㄴ -6609
▁ㄱㅓㅇㅜㄹ -6610
▁ㅇㅟㅇㅝㄴㅈㅏㅇ -6611
ㅏㄷ -6612
▁ㅇㅗㄹㅏ -6613
ㅌㅏㄹㅣ -6614
▁ㄹㅔㅇㅏㄹ -6615
▁ㅇㅕㅇㅑ -6616
ㅈㅐㄱㅏㅁ -6617
▁ㅂㅜㄷㅣㅈ -6618
▁ㅈㅗㄴㅈㅐㄱㅏㅁ -6619
▁ㅈㅣㄹㅏ -6620
iss -6621
▁ㄴㅏㅊㅣ -6622
▁ㅍㅗㄹㅗ -6623
▁ㅇㅔㄴㅈㅔㄹ -6624
▁ㅈㅏㅂㅇㅏㅁㅓㄱ -6625
▁ㄱㅓㄷㅡㅂ -6626
▁ㅇㅐㅈㅓㅇ -6627
▁ㄸㅡㄱ -6628
▁ㅅㅐㅇㄴㅕㄴㅇㅝㄹㅇㅣㄹ -6629
▁ㅌㅓㄴㅓㄹ -6630
▁ㅂㅏㄴㅈㅓㄴ -6631
▁ㄷㅐㅎㅏㄱㅇㅝㄴ -6632
ㅎㅏㅁㅕㄴ -6633
▁ㄷㅣㄹㄹㅔㅇㅣ -6634
▁ㄷㅗㄷㅜㄱ -6635
▁ㅁㅏㅅㅣㄴ -6636
▁ㅋㅓㅍㅡㄹ -6637
▁ㅅㅜㄴㅎㅘㄴ -6638
▁ㄱㅜㅊㅜㄱㅎㅏㅁ -6639
▁ㄱㅏㄷㅗㅇ -6640
▁www -6641
▁ㅊㅓㄹㅎㅏㄱ -6642
ㅅㅡㅌㅣㄱ -6643
▁ㄱㅗㄱㅐ -6644
▁ㄱㅕㄱㅊㅜ -6645
▁ㄴㅘ -6646
▁ㅁㅏㄹㄹㅣ -6647
▁ㄹㅔㅇㅗㄴ -6648
ㅌㅣㄴㅏ -6649
▁ㅁㅓㅁㅜㄹ -6650
▁ㅈㅏㄴㄸㅡㄱ -6651
▁ㅊㅚㅅㅣㄴ -6652
▁AS -6653
▁ㅅㅣㅁㅏ -6654
ㅌㅣㄱ -6655
▁ㄴㅏㅅㅓㄴ -6656
▁ㅁㅓㅅㅈㅣㄴ -6657
▁ㅎㅣㅌㅗ -6658
▁ㅅㅏㅇㅝㄴ -6659
▁ㅁㅜㅇㅕㄱ -6660
▁ㅍㅣㅇㅏㄴㅗ -6661
▁ㅌㅔㄱㅅㅡㅌㅡ -6662
▁ㅅㅐㅇㄱㅕㄴ -6663
▁ㅇㅏㄲ -6664
▁ㅊㅏㅁㅅㅓㄱ -6665
▁ㅌㅐㅍㅕㅇ -6666
▁ㅋㅠㅂㅡ -6667
▁ㅅㅓㅉㅗㄱ -6668
▁ㅎㅟㅂ -6669
▁ㄷㅡㄹㅇㅓㅅㅓ -6670
ㅌㅜㅇ -6671
▁ㅎㅏㄱㅈㅏ -6672
▁ㅇㅏㄹㄹㅔㄱㅅㅏㄴ -6673
▁ㅁㅜㅅㅓㅇㅜㄴ -6674
ㅏㅇㅣㅌㅣ -6675
▁ㄱㅣㄱㅜ -6676
▁ㅂㅜㅈㅓㄱ -6677
▁ㅅㅣㅁㅅㅣㅁ -6678
▁ㄱㅣㅅㅜㄱㅅㅏ -6679
ㅕㅂㅗ -6680
▁ㅈㅜㅈㅏ -6681
▁ㅇㅓㄴㅈㅔㄴㄱㅏ -6682
▁-> -6683
▁ㅇㅘㅇㅣ -6684
▁ㅂㅜㅅㅡㅌㅓ -6685
▁ㅍㅜㅅ -6686
ㄴㅏㅁㅜ -6687
▁BL -6688
▁ㅇㅣㅈㅣㅂ -6689
▁ㅊㅟㅇㅑㄱ -6690
▁ㄷㅙㅅㅓ -6691
▁ㄱㅗㅇㅎㅓ -6692
▁ㄱㅗㅇㅇㅛㅇ -6693
▁ㅆㅓㅇㅑ -6694
30 -6695
▁ㅂㅜㄴㅅㅣㄴ -6696
ㅏㅋㅏ -6697
▁ㄷㅡㄹㅐㅍㅡㅌㅡ -6698
▁that -6699
ian -6700
▁ㅂㅜㄴㄷㅐ -6701
▁ㄹㅗㄹㅣ -6702
ㅋㅕ -6703
▁ㅅㅐㅇㄱㅣㄴㄷㅏ -6704
▁ㅋㅐㅅㅡㅌㅓ -6705
chor -6706
▁ㄱㅞㄷㅗ -6707
▁ㅂㅣㅅㅓ -6708
▁ㄷㅣㄱ -6709
▁ㅈㅜㄴㅇㅜ -6710
▁ㅇㅗㅀ -6711
▁ㅅㅏㅇㄱㅣ -6712
▁ㅌㅗㅇㅅㅏㄴ -6713
▁ㅈㅜㅊㅏ -6714
▁ㅍㅡㄹㄹㅐㄴ -6715
▁CJ -6716
▁ㅇㅠㅈㅓㄱ -6717
▁ㅊㅔㅈㅜㅇ -6718
▁ㅌㅗㅂㅓㄹ -6719
▁ㅍㅔㄹㅡ -6720
ㅎㅚㅅㅏ -6721
ㅜㅅㅣ -6722
▁ㅊㅗㄹㅗㄱ -6723
▁ㄴㅏㄴㅇㅣㅂ -6724
▁ㅍㅔㄴㅓㄹ -6725
▁ㄴㅏㅋㅏ -6726
▁ㄱㅛㅎㅘㅇ -6727
▁ㅁㅕㅇㄷㅏㄴ -6728
▁ㅌㅏㄴㅎㅘㄴ -6729
▁ㅅㅏㄹㅍ -6730
▁ㅅㅡㅍㅔㄹ -6731
▁ㅎㅘㄱㄷㅐ -6732
▁ㄷㅓㄹㅓ -6733
▁ㅇㅟㄹㄹㅣㅇㅓㅁ -6734
▁ㅅㅡㅇㅘ -6735
▁ㅍㅣㅎㅏㄹ -6736
ㅉㅏㄹ -6737
▁ㅅㅣㄱㅁㅣㄴ -6738
▁Pro -6739
▁ㄷㅗㅂㅏㄱ -6740
io -6741
▁ㅇㅠㄴㅏㅇㅣㅌㅣ -6742
▁ㅃㅐㄴ -6743
▁ㄱㅜㄹㅡㅁ -6744
▁ㄷㅡㄱㅍㅛ -6745
▁ㅇㅙㄴㅈㅣ -6746
▁ㄱㅟㅇㅕㅇㅜㄴ -6747
▁ㄱㅕㅇㄹㅗ -6748
▁ㅇㅡㄴㅅㅣㄴ -6749
▁ㅈㅗㅇㅁㅗㄱ -6750
▁ㅊㅜㄹㅇㅣㅂ -6751
▁ㅇㅏㄹㄹㅕㅈㅕㅆ -6752
▁ㅅㅣㄴㅈㅓㄴ -6753
▁ㅉㅗ -6754
▁ㅇㅣㅈㅐ -6755
▁ㅁㅏㄹㅌㅜ -6756
▁ㅇㅏㄱㅁㅕㅇ -6757
▁ㄷㅐㅅㅓㄴ -6758
▁ㅁㅗㄴㅣ -6759
▁ㄷㅗㅇㅅㅓㅇ -6760
▁ㅂㅗㄱㄱㅜ -6761
▁ㅃㅏㅈㅕㅆ -6762
▁ㅈㅔㅁ -6763
▁1970 -6764
▁ㅇㅚㄱㅖㅇㅣㄴ -6765
▁ㅂㅜㄹㅌㅏ -6766
▁ㅈㅔㅌㅡ -6767
▁ㄱㅣㅇㅜㄹ -6768
▁ㅋㅗㅁㅔㄴㅌㅡ -6769
▁ㄱㅡㄹㄹㅗㅂㅓㄹ -6770
▁ㅊㅐㅇㄱㅕ -6771
▁ㅌㅡㄹㅐㄴㅅㅡ -6772
▁ㅇㅣㅁㅣㄴ -6773
▁ㄷㅗㄹㅜ -6774
▁ㄱㅣㅇㅜㄴ -6775
▁ㅎㅟㄷㅜㄹ -6776
▁ㄲㅗㅇ -6777
▁ㅇㅠㄷㅗㄱ -6778
▁ㄱㅏㄴㅈㅓㅂ -6779
▁ㅎㅕㅇㅅㅏㅇ -6780
▁ㅇㅑㅇㅅㅓㅇ -6781
▁ㅇㅓㅂㄹㅗㄷㅡ -6782
▁ㅁㅔㅋㅏ -6783
▁ㅇㅣㅇㅜ -6784
▁ㄱㅣㅃㅓ -6785
▁ㄱㅏㅂㅏㅇ -6786
▁Fl -6787
▁ㅇㅔㄷㅏㄱㅏ -6788
▁ㅂㅏㄹㄷㅏㄹ -6789
▁ㄹㅜㅅㅣ -6790
▁ㅅㅏㅅㅏㄹ -6791
▁ㄴㅐㅂㅗㄴ -6792
▁ㄹㅔㄷㅣㅅ -6793
▁ㅇㅘㅇㅣㄹㄷㅡ -6794
ㅈㅡㅁㅏ -6795
ㅛㄱ -6796
▁ㄹㅏㄱㅣ -6797
▁ㅇㅑㅅㅡ -6798
▁ㅇㅕㄴㅁㅐㅇ -6799
▁ㅎㅏㅎㅑㅇ -6800
▁ㅊㅓㄴㅁㅏㄴ -6801
▁ㅋㅔㅇㅣㄴ -6802
▁ㄱㅝㄴㄹㅣ -6803
▁ㄴㅏㅌㅏㄴㅐ -6804
▁ㅈㅐㅈㅓㅇ -6805
▁ㅅㅜㅁㄱㅣ -6806
▁ㅇㅣㄹㅊㅣ -6807
▁ㅅㅣㄴㅗ -6808
▁ㅈㅓㄱㅎㅏㅂ -6809
▁Br -6810
ㅏㅇㅜㄴㄷㅡ -6811
▁ㅈㅏㅂㅎㅕ -6812
▁ㄷㅣㅅㅡㅋㅡ -6813
▁ㅁㅕㅇㅎㅘㄱ -6814
▁ㅅㅗㅇㅠㅈㅏ -6815
ㅔㅌㅡ -6816
▁ㅈㅏㅇㅌㅏㄴ -6817
▁ㅈㅔㅇㅑㄱ -6818
0000 -6819
▁ㅁㅜㄹㄹㅕ -6820
▁ㅃㅜㅁ -6821
▁ㄷㅜㄹㄹㅓ -6822
▁ㄴㅏㅌㅏㄴㅏㅆ -6823
▁ㄹㅏㅇㅣㅍㅡㄹ -6824
▁ㅇㅕㄴㄱㅡㄱ -6825
▁ㅈㅓㅇㅎㅘㅇ -6826
▁ㄷㅏㅇㅣㅇㅏㅁ -6827
▁ㅁㅏㅋㅣ -6828
▁ㅋㅓㄷㅏㄹㅏㄴ -6829
▁ㅎㅐㅇㅛ -6830
▁ㅁㅔㄹㄹㅗ -6831
▁ㅇㅟㅅ -6832
▁ㅅㅏㅎㅜ -6833
▁anchor -6834
▁ㄷㅡㄹㅏㅇㅣㅂㅓ -6835
▁ㄹㅜㅂㅣ -6836
▁;& -6837
▁ㅍㅐㄴㅌㅓㅁ -6838
▁ㅁㅏㅂㅣ -6839
▁ㅇㅣㅍㅔㄱㅌㅡ -6840
ㄱㅓㄹㅇㅣ -6841
▁ㅍㅣㅌㅓ -6842
▁ㅁㅐㅈㅏㅇ -6843
▁ㅇㅕㅇㅈㅜ -6844
▁ㅁㅣㄴㅏ -6845
▁ㅋㅓㄴㅕㅇ -6846
▁ㄹㅣㅅㅡㅋㅡ -6847
ㄲㅜㄹ -6848
▁ㅅㅏㅇㅣㄴ -6849
ㅇㅏㅍ -6850
▁ㅅㅡㅍㅣㄹㅣ -6851
ㅓㅅㅓㄴ -6852
▁ㄲㅡㅁㅉㅣㄱ -6853
▁ㅈㅓㅌㅐㄱ -6854
▁ㄱㅏㅇㅈㅓㅁ -6855
▁ㅇㅣㄹㅡㄴ -6856
▁ㄴㅏㄹㅣ -6857
▁ㅈㅓㄴㅇㅣ -6858
▁ㅅㅕㄹ -6859
▁ㅎㅓㄴㅂㅓㅂ -6860
▁ㄱㅡㄹㅐㅁ -6861
▁wiki -6862
▁WWE -6863
▁ㄱㅗㅅㄱㅗㅅ -6864
▁ㅇㅏㅋㅣㄹㅏ -6865
ㅊㅣㄹㅗ -6866
▁ㅈㅜㅌㅐㄱ -6867
▁ㄱㅡㄹㅐㄴㄷㅡ -6868
ㄲㅏㅇㅛ -6869
▁ㅅㅣㄹㅊㅐㄱ -6870
▁ㅎㅘㅈㅐ -6871
▁ㄱㅏㅈㅊㅜㄴ -6872
IP -6873
▁ㅅㅗㄷㅐ -6874
ㅍㅗㅌㅡ -6875
▁ㄹㅗㅇㅑㄹ -6876
▁ㅎㅏㄹㅇㅣㄴ -6877
▁le -6878
▁ㅂㅐㄱㅅㅓㅇ -6879
▁ㅇㅗㅌㅏ -6880
▁&# -6881
▁ㅅㅜㅅㅜ -6882
▁170 -6883
▁ㄹㅣㅂㅠ -6884
▁ㅂㅗㅇㅘㄴ -6885
▁ㅍㅕㅇㅅㅐㅇ -6886
ㅅㅡㅂㅜㄱ -6887
▁ㅇㅏㅍㄷㅜ -6888
▁ㅇㅏㅁㅅㅣ -6889
▁Or -6890
▁ㅅㅗㅁ -6891
▁ㅁㅜㄴㄷㅏㄴ -6892
▁ㄷㅏㅇㅣㅇㅏㅁㅗㄴㄷㅡ -6893
ㄲㅓㅂ -6894
▁ㅇㅏㅇㅣㄴ -6895
▁ㅅㅣㄴㅈㅣ -6896
UM -6897
▁ㅁㅏㄴㄴㅏㅁ -6898
▁ㅇㅠㅂㅏㄹ -6899
IG -6900
▁ㅇㅣㄱㅕㅆ -6901
▁ㅂㅣㅈㅜㅇㅓㄹ -6902
ㅌㅡㅇㅝ -6903
▁ㅇㅜㄴㄷㅗㅇㅈㅏㅇ -6904
▁ㅈㅗㅂㅕㄹ -6905
VD -6906
▁ㄷㅏㅂㅂㅕㄴ -6907
▁ㅇㅣㄴㅈㅗ -6908
▁ㄷㅏㄴㅊㅜㄱ -6909
ㅅㅔㅅ -6910
▁ㅇㅣㅇㅓㅅㅓ -6911
▁ㅎㅓㄹㅏㄱ -6912
▁ㄱㅓㄴㅈㅗ -6913
▁ㅊㅜㅇㅅㅣㄹ -6914
▁ㄱㅡㅁㅇㅐㄱ -6915
▁ㅇㅣㅈㅣㅂㅌㅡ -6916
ㅈㅓㄹㅓㄱ -6917
▁ㄱㅗㄷㅗ -6918
▁ㅇㅓㅍㅣㄹ -6919
▁ㅇㅞㅇㅣㅂㅡ -6920
▁ㅃㅓㄷ -6921
▁ㅁㅔㅇㅣㄷㅡ -6922
▁ㄱㅗㅇㅟ -6923
▁ㅁㅗㄹㅇㅏ -6924
▁ㅇㅑㅅㅜ -6925
▁ㄱㅡㄹㅓㄱㅈㅓㄹㅓㄱ -6926
▁ㅅㅡㅇㄱㅐㄱ -6927
TE -6928
▁ㄱㅓㄹㅁㅏㅈ -6929
▁ㅇㅕㅆㅇㅡㄹ -6930
ㅂㅣㄱ -6931
▁by -6932
▁ㄷㅓㅇㅊㅣ -6933
▁1987 -6934
▁ㅎㅗㄱㅣ -6935
▁ㅅㅣㅎㅏㅂ -6936
▁ㅁㅗㅈㅏㄹㅏ -6937
▁ㅂㅏㄱㅁㅜㄹ -6938
ㄱㅏㅅㅡ -6939
▁ㅂㅜㄹㅍㅔㄴ -6940
▁ㄱㅏㅂㅕㅇ -6941
oth -6942
▁ㅅㅡㅋㅡㄹㅣㄴ -6943
ㄷㅔㅇㅣ -6944
▁ㅁㅏㅇㄱㅏ -6945
▁ㄱㅏㅁㄱㅏㄱ -6946
▁ㅅㅏㅇㅅㅣㄱ -6947
▁ㅈㅏㅁㅈㅐ -6948
▁ㅇㅣㅅㅡ -6949
▁ㅈㅏㅇㅣㅇㅓㄴㅊㅡ -6950
▁ㅇㅜㄹㅍㅡ -6951
▁ㅎㅏㅇㄱㅗㅇㄱㅣ -6952
▁ㅂㅜㅈㅏ -6953
▁ㅁㅏㅂㅡㄹ -6954
ㅍㅐㄴ -6955
▁ㅇㅣㄴㅌㅔㄹ -6956
▁ㅅㅡㅌㅔㅇㅣ -6957
▁Dr -6958
▁ㅅㅓㅇㄹㅣㅂ -6959
▁ㅎㅜㅋㅜ -6960
▁ㅍㅏㅍㅕㄴ -6961
▁ㅇㅟㅂㅏㄴ -6962
▁ㄸㅟㅇㅓㄴㅓㅁ -6963
az -6964
▁ㅅㅏㄹㅏㅈㅣㄴㄷㅏ -6965
▁ㅁㅜㄹㅏ -6966
▁ㅎㅐㄴㅐ -6967
▁ㅇㅓㄴㄷㅓ -6968
▁ㅅㅡㅇㅞㄷㅔㄴ -6969
▁ㅂㅜㅈㅣ -6970
ㅂㅗㅇㅣ -6971
▁ㅌㅡㄹㅗㄹ -6972
▁ㅅㅡㅇㅈㅏ -6973
▁ㅊㅜㄹㄱㅕㄱ -6974
▁ㅁㅜㄹㄹㅓㄴㅏ -6975
▁ㅅㅏㅇㅇㅕㅇ -6976
ep -6977
▁ㅂㅜㄹㅅㅏ -6978
ㅅㅈㅣ -6979
▁ㄹㅕㄷㅓㄴ -6980
▁ㅅㅣㅇㅝㄴ -6981
▁ㅇㅣㅀㅇㅓㅂㅓㄹ -6982
▁ㄱㅣㄴㅈㅏㅇ -6983
man -6984
▁ㄱㅣㄷㅗㅇㅅㅓㅇ -6985
ㅇㅓㄴㅓㅎ -6986
▁ㅊㅜㄱㅂㅗㄱ -6987
▁ㅎㅏㅇㅣㅍㅓ -6988
▁ㅇㅣㅂㄷㅐ -6989
▁ㅂㅐㅌㅡㅁㅐㄴ -6990
▁ㅋㅣㄹㄹㅓ -6991
▁ㄹㅓㅁ -6992
▁ㅋㅏㅈㅡ -6993
ㄴㅔㅇㅣㅁ -6994
▁ㅇㅠㅎㅏㄱ -6995
▁ㅁㅐㄴㅕㄴ -6996
ㅅㅣㄱㅏㄴ -6997
▁ㄴㅐㅈㅣ -6998
ㅊㅓㅁ -6999
▁ㅈㅣㅂㅊㅏㄱ -7000
▁ㅈㅓㅇㅅㅜ -7001
▁ㄱㅡㅂㄱㅕㄱ -7002
▁ㅁㅜㄴㅈㅐㅇㅣㄴ -7003
OU -7004
▁ㄱㅜㄹㅣ -7005
▁ㅂㅜㄷㅡㄹ -7006
▁ㄹㅗㄱㅁㅐㄴ -7007
ㅍㅡㅁ -7008
▁ㅎㅡㅌ -7009
▁ㄴㅗㅎㅊㅣ -7010
ale -7011
▁ㅇㅗㅋㅏ -7012
▁;&# -7013
ㅋㅡㄹㅣ -7014
▁ㄹㅏㄴㅣ -7015
▁ㄱㅝㄴㅈㅏㅇ -7016
ㄷㅔㅁㅣ -7017
▁ㅍㅣㄹㄹㅣ -7018
▁OP -7019
ㄸㅓㄹ -7020
▁ㅈㅏㄱㄴㅕㄴ -7021
▁ㅎㅗㅊㅣㅇ -7022
▁ㅅㅓㅅㅓ -7023
VA -7024
▁ㄴㅘㅆ -7025
▁ㅌㅚㅈㅏㅇ -7026
▁ㄴㅐㅈㅓㄴ -7027
▁ㄱㅣㅇㅣㄴ -7028
▁ㅇㅏㅋㅏㄷㅔㅁㅣ -7029
▁ㄱㅜㄱㅡㄹ -7030
▁ㅍㅡㄹㄹㅐㄱㅡ -7031
▁ㅅㅣㅀㅇㅓ -7032
▁ㅇㅣㄷㅡ -7033
▁ㅎㅐㅁㅕㅇ -7034
ㅅㅡㅋㅣ -7035
▁ㄴㅣㅅㅡ -7036
▁ㅅㅡㅍㅗㄴ -7037
▁ㅊㅏㅇㄱㅗ -7038
▁ㅅㅡㅌㅔㄹ -7039
▁ㅊㅏㅁㄱㅏㅈㅏ -7040
▁ㄴㅏㅁㅏ -7041
▁ㅍㅕㅇㅈㅓㅁ -7042
▁ㅈㅓㄱㅈㅜㅇ -7043
▁ㅂㅜㄴㅁㅕㅇㅎㅣ -7044
▁ㅁㅏㅂㅓㅂㅅㅗㄴㅕ -7045
▁ㅎㅏㄴㅉㅗㄱ -7046
▁ㅊㅓㅇㅅㅗ -7047
▁ㅅㅠㅍ -7048
▁ㄱㅕㄹㅅㅣㅁ -7049
▁ㅎㅟㅁㅏㄹ -7050
▁RPG -7051
70 -7052
ach -7053
ㅅㅡㅌㅣㄴ -7054
▁ㅁㅣㅋㅣ -7055
▁ㅅㅓㄴㄱㅗ -7056
▁ㄸㅏㅇㅗㄴ -7057
▁ㅅㅣㄱㅗㅇ -7058
▁ㄴㅐㄹㅕㅆ -7059
ㅈㅐㅇㅇㅣ -7060
ㄷㅏㄴㅏ -7061
▁ㅅㅣㄹㅈㅗㅇ -7062
▁ㄱㅛㄱㅘ -7063
▁ㅌㅗㅇㅊㅣ -7064
▁ㅇㅗㅁㅏ -7065
▁ㅍㅗㄹㅡㅌ -7066
▁ㅇㅣㄹㄷㅐ -7067
▁ㅁㅔㅇㅣㄹ -7068
▁ㄷㅗㅇㅈㅓㅁ -7069
▁ㄱㅘㄴㅎㅏㄹ -7070
▁ㅂㅜㄹㅡㄹ -7071
▁ㅌㅏㅁㅎㅓㅁ -7072
arg -7073
▁ㅇㅕㄹㅁㅐ -7074
▁ㄸㅓㄴㅏㅆ -7075
ㅣㄱㅓㄴ -7076
▁ㅇㅗㅍㅡ -7077
▁ㅎㅞ -7078
▁1500 -7079
ㅏㅇㅜㄴㅅㅓ -7080
▁ㅇㅏㄴㅏㅇㅜㄴㅅㅓ -7081
▁ㄷㅐㄱㅜㄱ -7082
ㅓㅁㅓㄴㅌㅡ -7083
▁Sc -7084
▁ㅇㅛㅇㅇㅣㄴ -7085
ook -7086
▁ㄱㅡㄹㅓㅎㅈㅣㅁㅏㄴ -7087
▁ㅈㅜㄱㅇㅕㅆ -7088
▁ㄱㅡㄴㄱㅓㄹㅣ -7089
▁ㅎㅡㄱㅇㅣㄴ -7090
▁ㅇㅓㄷㅇㅓㅁ -7091
▁ㄴㅗㅂㅏ -7092
▁ㅇㅡㅂ -7093
▁ㅂㅗㄴㅈㅣㄴ -7094
ㅏㅇㅣㅁ -7095
▁ㅎㅏㄱㄱㅣ -7096
▁ㅈㅜㅇㅎㅕㅇ -7097
▁ㅇㅑㄱㅎㅘ -7098
▁ㄱㅕㄹㅎㅏㅂ -7099
▁ㄱㅕㄹㅌㅜ -7100
ows -7101
ㅣㄴㄱㅏ -7102
▁ㅂㅓㅂㅇㅣㄴ -7103
▁ㄱㅕㅇㅈㅣㄱ -7104
▁5000 -7105
▁ㄸㅓㅇㅗㄹㄹㅣ -7106
ㅌㅡㅇㅝㅋㅡ -7107
▁ㄱㅏㄹㅡㅊㅕ -7108
ㅃㅏㅇ -7109
▁ㅆㅡㄹㅓㄸㅡㄹ -7110
▁ㅍㅏㅅ -7111
▁ㅂㅗㄷㅡ -7112
▁ㅎㅐㅇㅏㄴ -7113
ㄱㅗㅂ -7114
ㅏㅇㅑ -7115
ㅍㅐㄱㅌㅡ -7116
ㅋㅣㅅ -7117
▁111 -7118
ㅓㅁㅕㄴ -7119
ㄸㅟ -7120
▁ㅎㅗㅎㅡㅂ -7121
orm -7122
▁ㅊㅣㄹㅡ -7123
▁ㅌㅗㄴㅓㅁㅓㄴㅌㅡ -7124
▁ㅅㅜㄴㅡㅇ -7125
▁ㄱㅙㄴㅎㅣ -7126
▁ㅇㅓㅍㅏㄴ -7127
▁ㅈㅓㄴㅅㅡㅇ -7128
▁ㅅㅐㅇㅁㅕㅇㅊㅔ -7129
▁ㅁㅣㅋㅏ -7130
▁ㅉㅣㄹ -7131
▁ㄷㅐㄹㅣ -7132
▁ㅇㅏㅁㅅㅏㄹㅈㅏ -7133
▁ㅇㅑㅅㅐㅇ -7134
▁ㅅㅡㅋㅐㄴ -7135
▁ㅂㅏㄹㄹㅔㄴ -7136
▁ㄴㅐㅇㅣㄹ -7137
▁ㅅㅔㄴㅅㅡ -7138
ㄲㅡㄴ -7139
ㅔㅇㅗ -7140
ish -7141
▁ㅇㅓㄹㅣ -7142
▁ㅊㅐㅂㅗ -7143
▁ㅇㅕㅇㅜ -7144
ky -7145
▁ㅌㅔㄹㅏ -7146
▁ㅆㅡㄹㅓㄸㅡㄹㅣ -7147
▁ㄱㅏㄹㄹㅏ -7148
▁ㅅㅓㄱㅜ -7149
▁ㅇㅕㄴㅎㅏㅂㄱㅜㄴ -7150
▁ㅅㅣㅇㅋㅡ -7151
▁Team -7152
▁ㅇㅏㄱㅁㅗㅇ -7153
▁ㅊㅓㄴㅇㅏㄴ -7154
▁KBO -7155
▁ㅇㅘㄴㄱㅕㄹ -7156
ㅎㅐㅇㅑ -7157
▁ㅍㅔㅇㅣㅅㅡㅂㅜㄱ -7158
▁ㅈㅣㅇㅟ -7159
▁ㄱㅡㄴㅂㅗㄴ -7160
▁ㄱㅕㅂㅊㅣ -7161
▁}} -7162
▁ㅍㅡㄹㄹㅐㅅㅣ -7163
▁ㄷㅗㅇㅇㅏㄹㅣ -7164
▁ㅁㅠㅈㅣㅋㅓㄹ -7165
▁ㅂㅕㄴㅎㅘㄴ -7166
▁ㅇㅜㅈㅓㅇ -7167
▁ㅂㅜㅅㅣㄹ -7168
▁ㅅㅡㅇㅟㅊㅣ -7169
▁ㅅㅗㄹㅈㅣㄱ -7170
▁ㅇㅏㅇㅗ -7171
▁ㅈㅓㅇㅊㅏ -7172
▁ㅂㅗㄴㅅㅏ -7173
▁BB -7174
▁Go -7175
▁ㅊㅣㅁㄹㅑㄱ -7176
▁ㅎㅟㄹ -7177
ae -7178
▁ㅎㅟㄷㅜㄹㅡ -7179
▁ㅇㅕㄴㅅㅡㅂㅅㅐㅇ -7180
▁ㅅㅓㄴㄷㅜ -7181
▁ㅊㅣㅁㅁㅜㄱ -7182
▁ㅂㅜㄹㄱㅛ -7183
▁ㅂㅏㄱㅁㅜㄹㄱㅘㄴ -7184
▁ㅇㅏㄹㅇㅏㅂㅗ -7185
▁ㅌㅗㅇㅎㅘ -7186
▁ㅅㅣㄴㅂㅏㄹ -7187
▁ㅅㅏㅋㅣ -7188
GE -7189
▁ㅊㅣㅁㅇㅣㅂ -7190
▁ㄱㅜㅎㅏㄹ -7191
ㅏㅇㅣㅇㅓㄴ -7192
▁ㅈㅣㅍㅏㅇㅇㅣ -7193
▁ㅁㅏㅇㅜㅅㅡ -7194
▁ㅈㅏㅇㅇㅣㄴ -7195
▁ㅂㅗㅇㅣㅅㅡ -7196
ug -7197
ㄷㅏㄱㅓㄴㅏ -7198
▁ㅅㅗㅇㅡㅁ -7199
▁ㅅㅏㄹㅇㅏㄱㅏ -7200
Hz -7201
▁ㄷㅡㄹㅇㅓㅇㅘㅆ -7202
▁ㅁㅏㄷㅡㄹ -7203
ade -7204
▁ㄷㅏㄹㅜㄴ -7205
rom -7206
▁ㅂㅡㄹㅏㅇㅜㄴ -7207
▁ㅇㅗㄹㄹㅣㄹ -7208
▁ㅎㅣㄱㅏ -7209
▁ㅊㅗㅇㅣㄴ -7210
▁ㅁㅏㅁㅜㄹ -7211
▁ㅁㅗㅌㅗ -7212
▁ㅂㅓㄹㅇㅓㅈㅕㅆ -7213
▁ㄷㅗㅇㄱㅡㅂ -7214
ㄷㅡㄴㅈㅣ -7215
ㅋㅓㅅㅡ -7216
▁ㄷㅏㄹㄹㅕㄱ -7217
▁ㅁㅣㅋ -7218
▁ㅇㅏㅅㅣㅇㅏㄴ -7219
▁ㅌㅏㅅㅓㄱ -7220
ㅇㅓㅂㅜㅌ -7221
ㅋㅜㅇ -7222
▁ㅇㅠㄹㅕㄱ -7223
▁ㄷㅗㄹㅇㅣㅂ -7224
ile -7225
▁ㄷㅡㅇㅈㅣ -7226
▁ㅈㅣㅈㅣㄴ -7227
▁ㅅㅣㄹㅏ -7228
▁ㅌㅗㅇㄱㅖ -7229
▁ㅁㅣㄱㅅㅡ -7230
▁ㅁㅕㄴㅈㅓㄱ -7231
▁ㅇㅠㄱㅕㄱ -7232
ㅣㅋㅗ -7233
▁ㅍㅏㄴㄱㅕㄹ -7234
▁ㅇㅕㅇㄱㅘㅇ -7235
yle -7236
▁ㅈㅘㅇ -7237
▁ㄱㅘㄴㄹㅣㅈㅏ -7238
▁ㅁㅐㄷㅏㄹ -7239
▁ㅇㅏㄴㄱㅐ -7240
▁FIFA -7241
▁ㅂㅓㅇ -7242
▁ㅇㅏㅈㅡ -7243
▁ㅈㅣㅂㅜㄹ -7244
▁ㅋㅗㄹㄹㅗ -7245
▁ㅊㅏㅁㅁㅗ -7246
▁ㅇㅣㅅㅣ -7247
▁ㅋㅝㅌㅓ -7248
▁ㅍㅓㅂ -7249
▁ㄷㅐㅇㅘㅇ -7250
▁ㅁㅏㅇㅣㄹ -7251
▁ㄱㅕㅇㅂㅜㄱ -7252
ㅏㅁㅜ -7253
▁ㅎㅐㅆㅇㅡㄴㅣ -7254
ㅈㅏㅇㅘ -7255
▁ㅅㅓㅋㅡㄹ -7256
▁ㅇㅣㅁㅍㅐㄱㅌㅡ -7257
▁ㅇㅣㄹㅂㅗㄴㄱㅜㄴ -7258
▁ㅂㅓㅂㅈㅓㅇ -7259
ㅂㅜㄹㅗ -7260
▁ㅅㅗㅂㅏㅇ -7261
▁ㅌㅗㄴㅣ -7262
▁ㅅㅐㄹㅗㅂ -7263
ash -7264
▁ㄹㅔㄹ -7265
ower -7266
▁ㅌㅡㄹㅣㅍㅡㄹ -7267
irl -7268
▁ㅍㅡㄹㄹㅏㅇㅣ -7269
▁ㅆㅢ -7270
ink -7271
▁ㄱㅜㅁㅣ -7272
▁ㅅㅜㄱㅡㅂ -7273
ㅋㅣㄱ -7274
▁ㅊㅓㄹㅅㅜ -7275
▁1986 -7276
ㄷㅔㄷㅡ -7277
ㅓㅂㅜㄴ -7278
▁ㄲㅐㄷㅏㄹ -7279
▁ㅈㅓㅇㅎㅏ -7280
▁ㅊㅜㄹㄱㅜ -7281
▁ㄱㅠㄴㅎㅕㅇ -7282
▁ㄱㅏㅈㅜㄱ -7283
ㅡㄹㅣㅅ -7284
▁ㅁㅜㅅㅣㅁㅜㅅㅣ -7285
ㅂㅣㄹㅕㄱ -7286
▁ㅆㅡㄹㅓㅈㅣ -7287
▁ㄱㅏㅁㅅㅏㅇ -7288
▁ㅇㅣㅁㅅㅣㄴ -7289
▁ㅁㅜㅈㅏㄱㅇㅟ -7290
▁ㅣ -7291
▁ㅁㅣㅋㅜ -7292
▁ㄱㅓㄹㄹㅕㅆ -7293
▁CH -7294
▁ㄷㅓㄱㅜㄴㄷㅏㄴㅏ -7295
▁ㅇㅖㅂㅣ -7296
▁ㅁㅜㄱㅘㄴ -7297
▁ㅇㅓㄴㄷㅔㄷㅡ -7298
▁ㅅㅜㅂㅣㄹㅕㄱ -7299
▁ㄱㅏㄷㅣㅇㅓㄴ -7300
▁ㅍㅡㄹㅣㅁㅣㅇㅓㅁ -7301
▁ㅂㅗㅎㅓㅁ -7302
▁ㄷㅐㄱㅓ -7303
TS -7304
▁ㅇㅓㄹㅕㅆ -7305
▁CG -7306
▁ㅅㅔㅌㅣㅇ -7307
▁ㄱㅏㅁㅈㅣ -7308
▁ㅂㅔㅌㅏ -7309
▁ㅎㅏㅇㅂㅗㄱ -7310
▁ㅇㅣㄴㅈㅣㄹ -7311
▁ㄱㅏㄴㄱㅏㄴ -7312
▁ㄹㅔㅅㅡㄹㄹ -7313
atch -7314
▁ㅍㅖㅅㅙ -7315
▁ㅁㅏㅅㅡㅋㅡ -7316
▁ㅇㅣㄴㄹㅕㄱ -7317
▁ㅊㅐㅌㅐㄱ -7318
▁FW -7319
▁ㅇㅕㄹㅓㅂㅜㄴ -7320
▁ㄷㅣㅈㅔㄹ -7321
▁ㅅㅣㅋㅕㅅㅓ -7322
▁ㅆㅓㄴㄷㅓ -7323
▁ㅈㅓㅇㄱㅣ -7324
▁ㅁㅏㄱㅍㅏㄴ -7325
▁ㄱㅕㄱㅊㅏ -7326
ㅍㅡㄹㅔ -7327
▁ㅅㅏㅂㅇㅣㅂ -7328
▁we -7329
▁ㅎㅗㄱㅅㅣ -7330
▁ㄱㅣㄹㅡㅁ -7331
ㅂㅏㄴㄷㅗ -7332
▁ㅅㅡㅋㅜㄹ -7333
▁ㅁㅗㅇㄱㅗㄹ -7334
▁ㅂㅏㄴㅂㅏㄱ -7335
▁ㄱㅗㅂㅡㄹㄹㅣㄴ -7336
▁ㅎㅓㄱㅏ -7337
▁ㅊㅓㄹㅈㅓ -7338
▁ㅁㅏㅇㅎㅐㅆ -7339
▁ㅇㅣㄴㅂㅏㅇ -7340
▁ㅇㅣㅎㅗㄴ -7341
▁ㅈㅔㅈㅓㅇ -7342
▁ㄴㅏㅁㅂㅜㄱ -7343
▁ㄷㅏㄴㅇㅝㄴ -7344
▁ㅇㅏㄲㅣ -7345
▁ㅅㅏㄱㅟ -7346
▁ㅂㅜㄹㄹㅓㅇ -7347
▁ㄱㅘㄴㄱㅖㅈㅏ -7348
IM -7349
▁ㅁㅗㅇㅣ -7350
▁ㄴㅣㄹ -7351
▁ㅅㅓㄴㅂㅗㅇㅕㅆ -7352
▁ㅂㅣㅈㅓㄴ -7353
▁DD -7354
▁ㄱㅕㅇㄴㅏㅁ -7355
▁ㅇㅓㄷㅣㄴㄱㅏ -7356
▁ㅊㅏㅇㅇㅝㄴ -7357
▁ㄷㅔㅁㅗ -7358
▁ㄴㅜㅇ -7359
▁ㅅㅗㅍㅡ -7360
▁ㅌㅔㅅ -7361
▁ㅇㅠㅇㅣㄴ -7362
▁ㅃㅏㅈㅕㄴ -7363
ial -7364
▁ㅈㅗㄴㄱㅕㅇ -7365
sh -7366
▁ㅂㅐㄱㅇㅣㄴ -7367
CG -7368
▁ㅌㅡㄹㅓㅁㅍㅡ -7369
▁ㅎㅜㄱㅖㅈㅏ -7370
▁ㅍㅗㅇㅟ -7371
▁ㄱㅣㅁㅅㅏㅇ -7372
▁ㅋㅗㄹㄹㅏㅂㅗ -7373
▁ㅍㅗㅋㅔㅅㅁㅗㄴㅅㅡㅌㅓ -7374
ㄸㅜㄱ -7375
▁ㅇㅏㄴㅣㄴㄷㅔ -7376
▁ㅂㅐㅍㅗ -7377
▁ㅁㅓㄹㅣㅋㅏㄹ -7378
▁ㅆㅏㅇㅝㅆ -7379
▁ㅇㅏㅁㅔㄹㅣㅋㅏ -7380
▁ㅁㅜㅅㅏㅎㅣ -7381
▁ㄴㅏㅁㅁㅐ -7382
▁ㅇㅕㅇㅇㅝㄴㅎㅣ -7383
▁ㅅㅜㅁㅕㄴ -7384
▁ㄱㅗㄹㄹㅔㅁ -7385
ㄹㅠㄴ -7386
▁ㄸㅓㄴㅏㄴ -7387
ㅏㅈ -7388
▁ㅌㅜㅅㅡ -7389
▁ㅅㅡㅌㅡㄹㅔㅅㅡ -7390
▁ㅌㅏㅇㅣㄹ -7391
▁ㅇㅏㄴㅏ -7392
ㅁㅗㅁ -7393
▁ㅊㅐㄹㄹㅣㄴㅈㅣ -7394
▁War -7395
▁ㄱㅣㅁㄱㅕㅇ -7396
▁ㅋㅏㅇㅘ -7397
▁ㅇㅣㅌㅗ -7398
▁ㅇㅣㄴㅇㅛㅇ -7399
▁ㅁㅗㄹㄹㅕ -7400
▁ㅁㅐㅂㅓㄴ -7401
▁ㅂㅗㄱㅈㅔ -7402
▁ㅇㅓㄷㅜㅇㅜㄴ -7403
▁ㄷㅗㅇㅇㅑㅇ -7404
ㅈㅓㅇㅂㅜ -7405
▁ㅇㅣㄹㄷㅏㅇ -7406
▁ㅆㅡㅇㅕㅆ -7407
▁ID -7408
ㅣㅇㅗㄹ -7409
▁ㅂㅔㄹㅣ -7410
▁ㅂㅗㄱㅅㅓㄴ -7411
▁ㅈㅗㄹㅗㅇ -7412
▁ㅁㅏㄱㄴㅐ -7413
▁ㅂㅏㄲㅟㄴㄷㅏ -7414
▁ㅇㅗㄴㅡㄹㄴㅏㄹ -7415
▁ㅌㅗㅁㅏ -7416
▁ㄹㅠㄴ -7417
▁ㅅㅗㅅㅗㅇ -7418
ㅗㄹㅏ -7419
▁ㄱㅣㄱㅏㅂ -7420
▁ㅁㅜㄴㅓㅈㅣ -7421
▁ㄱㅜㄱㄷㅏㅇ -7422
▁ㄱㅗㄱㅜㄹㅕ -7423
▁ㄱㅣㅅㅔ -7424
▁ㅇㅏㅌㅡㄹㄹ -7425
▁ㅎㅏㄱㅅㅡㅂ -7426
▁ㅍㅡㄹㅏㅇㅣㅁ -7427
ㅅㅣㄴㅗ -7428
▁LA -7429
ㅌㅡㄹㄹㅓ -7430
▁ㅍㅗㄹㅡㅌㅜㄱ -7431
▁Star -7432
▁ㅁㅜㄹㄹㅑㅇ -7433
▁ㄹㅣㅍㅡ -7434
▁106 -7435
▁ㅈㅜㅇㅂㅗㄱ -7436
▁ㅂㅏㄷㅣ -7437
▁ㄱㅐㅅㅓㄹ -7438
ㄲㅗ -7439
▁ㅍㅣㅇㅋㅡ -7440
▁ㅍㅗㄹㅡㅌㅜㄱㅏㄹ -7441
ㅋㅗㄷㅡ -7442
▁ㅈㅏㄹㄹㅏ -7443
▁ㄱㅏㅁㅏㄴㅎㅣ -7444
▁ㅅㅏㄴㅌㅏㄴ -7445
▁ㅂㅏㄴㅎㅐ -7446
▁up -7447
▁ㅂㅗㅊㅜㅇ -7448
▁ㅅㅜㅊㅜㄹ -7449
▁ㅈㅜㄴㅇㅜㅅㅡㅇ -7450
ㅈㅓㄴㅊㅏ -7451
ㅕㄹㅏ -7452
▁ㅇㅣㅇㅗㄴ -7453
▁ㅋㅐㅊㅣ -7454
▁ㅇㅙㄱㅗㄱ -7455
▁ㄴㅑㅁㅕㄴ -7456
▁ㅇㅔㄴㄷㅡ -7457
▁ㅇㅔㅍㅣㄱ -7458
▁ㄷㅗㅇㅁㅕㅇ -7459
▁ㄱㅏㄴㄷㅏㄴㅎㅣ -7460
▁ㄴㅏㄹㅋㅏㄹ -7461
▁ㅈㅡㄱㅅㅏ -7462
▁ㅅㅓㄴㅎㅐㅇ -7463
ㅍㅣㄹㄷㅡ -7464
▁ㅊㅔㅎㅓㅁ -7465
▁ㅋㅗㄴㅏㄴ -7466
▁ㅅㅏㅇㄷㅏㅁ -7467
▁ㅂㅗㄱㅓㄴ -7468
▁ㅅㅣㄴㄴㅏ -7469
▁ㅇㅗㄷㅣㅅㅕㄴ -7470
ㅡㅅㅔㄹ -7471
ㅅㅡㅌㅡㄹ -7472
▁ㅊㅓㄴㅎㅏ -7473
▁ㅈㅏㅇㅅㅣㄴ -7474
▁ㅂㅜㄴㅇㅕㄹ -7475
▁ㅁㅜㄹㄱㅗㄱㅣ -7476
▁ㄷㅐㅊㅐㄱ -7477
▁ㄴㅏㅋ -7478
▁ㅌㅗㅋㅡ -7479
▁ㅇㅞㄹ -7480
▁ㅁㅔㅇㅣㅍㅡㄹ -7481
▁ㄱㅣㅅㅏㅇ -7482
▁ㅋㅏㄹㄹㅣ -7483
▁ㅈㅓㅇㅌㅗㅇ -7484
▁ㅁㅗㅅㅈㅣ -7485
▁ㅁㅣㅁㅏㄴ -7486
▁ㅍㅣㄴㅣㄱㅅㅡ -7487
▁ㄷㅡㄹㅣㄹ -7488
▁ㅈㅏㅁㅇㅣㅂ -7489
ㅇㅏㅅㅣㅇㅏ -7490
▁ㅁㅏㄴㅁㅏㄴ -7491
▁ㄷㅐㅅㅜ -7492
▁ㄱㅟㅇㅕㅂ -7493
▁ㄷㅔㅇㅣㅌㅡ -7494
▁ㅎㅗㄴㄷㅗㄴ -7495
▁ㄴㅔㅌㅡㅇㅝㅋㅡ -7496
▁ㅈㅜㅇㄹㅕㄱ -7497
▁ㅂㅐㅈㅓㅇ -7498
▁ㄴㅣㄱㄴㅔㅇㅣㅁ -7499
▁DVD -7500
ㅌㅣㅅㅡ -7501
ㅊㅓㄴㅅㅣ -7502
▁ㅂㅏㅇㅇㅟ -7503
▁ㅎㅏㅇㅣㄴ -7504
▁ㅁㅔㅇㅣㅋㅓ -7505
ㅋㅣㅈㅣ -7506
▁ㅂㅓㅅㅓㅅ -7507
▁ㅊㅓㅂㅜㄴ -7508
▁ㅌㅡㄹㅏ -7509
▁ㅎㅐㅋㅣㅇ -7510
▁ㅌㅡㄹㅣㄱ -7511
▁ㅁㅔㄹㄹㅗㄷㅣ -7512
▁PR -7513
▁115 -7514
▁ㅈㅓㄴㅂㅜㄱ -7515
▁ㅎㅏㅇㅇㅢ -7516
ㅏㅇㅏ -7517
▁ㄱㅗㅇㅇㅓㅂ -7518
▁ㅎㅐㅁㅓ -7519
▁ㅁㅣㅈㅡ -7520
ㅎㅘㅈㅓㅁ -7521
▁ㅅㅜㅅㅓㄱ -7522
▁ㅅㅓㄴㅈㅔ -7523
▁ON -7524
ㅅㅓㅁ -7525
▁ㅇㅕㅈㅓㄴ -7526
▁ㅎㅜㅇㅝㄴ -7527
ㅂㅣㅇㅏ -7528
▁ㅅㅡㅌㅐㄴ -7529
▁ㅂㅏㄺㅎㅣㄴ -7530
▁ㅈㅣㄴㅇㅏㅂ -7531
ㅇㅓㄱㅏ -7532
▁ㄲㅞ -7533
▁ㅇㅓㄱㅈㅣㄹㅗ -7534
▁ㄷㅏㄴㅎㅐㅇ -7535
▁ㅈㅏㄹㅡ -7536
▁102 -7537
▁ㄴㅏㅁㄴㅕ -7538
ING -7539
▁ㅈㅜㄹㅇㅓㄷㅡㄴ -7540
▁ㅍㅐㅋㅣㅈㅣ -7541
▁ㅊㅔㅇㅣㄴㅈㅣ -7542
▁ㄱㅐㅇㅓㅂ -7543
▁ㅅㅜㅂㅐㄱ -7544
▁fe -7545
▁ㄷㅏㄴㅕㅆ -7546
▁ㅇㅏㄱㄱㅣ -7547
▁ㅈㅓㄴㄷㅗㅇ -7548
ous -7549
▁ㅈㅓㄴㅈㅜ -7550
▁ㄱㅣㅈㅐ -7551
▁ㅅㅏㄹㅕㅇㅂㅜ -7552
ㅍㅡㄹㄹㅔㅇㅣ -7553
▁ㅍㅏㅇㅣㅌㅡ -7554
▁ㅈㅏㅂㅗㄴ -7555
▁ㄷㅏㄴㅣㄴㄷㅏ -7556
▁ㅇㅠㅅㅏㄴ -7557
▁ㅂㅐㅇㅕㄱ -7558
▁ㅊㅜㄱㅎㅏ -7559
ㅁㅏㅂ -7560
▁ㅍㅓㅍㅗㅁ -7561
▁ㅍㅓㅍㅗㅁㅓㄴㅅㅡ -7562
▁ㄲㅔㅅㅓ -7563
▁ㅈㅏㅇㄱㅓㄹㅣ -7564
▁ㅎㅏㅎㅏ -7565
▁For -7566
▁ㅅㅜㅁㅕㅇ -7567
▁Ne -7568
ㅎㅣㅁ -7569
▁ㄱㅣㄷㅗㅇㅈㅓㄴ -7570
▁ㅅㅓㅍㅗㅌㅡ -7571
▁ㅈㅏㅇㅌㅏㄴㅅㅜ -7572
▁And -7573
att -7574
▁ㅍㅡㄹㄹㅓㅅㅡ -7575
▁ㅇㅏㄱㅎㅘ -7576
amp -7577
ㅅㅔㄷㅐ -7578
▁ㅍㅗㅈㅡ -7579
▁ㅅㅓㅇㅈㅓㄴ -7580
▁ㅇㅣㅌㅓ -7581
▁ㅁㅏㄷㅡㄹㅣㄷㅡ -7582
▁ㅅㅔㄹㅣ -7583
▁ㄱㅜㅇㄱㅡㅁ -7584
▁ㅈㅏㅈㅓㄴㄱㅓ -7585
▁ㅋㅗㄴㅌㅔㄴㅊㅡ -7586
ㅓㅅㅡㄴ -7587
▁ㅁㅜㅅㅜㄹ -7588
▁ㅇㅗㅇㅎㅗ -7589
▁ㅅㅏㅇㅣㅋㅗ -7590
▁ㄴㅣㅅ -7591
▁ㅍㅏㄷㅗㅇ -7592
▁ㅍㅏㅁㅕㄹ -7593
▁ㅌㅗㅇㄹㅗ -7594
▁ㅇㅜㅅㅔ -7595
▁ㅎㅗㄹㅏㅇㅇㅣ -7596
▁ㅂㅜㄴㅈㅐㅇ -7597
▁}}} -7598
▁ㅈㅓㅇㅂㅏㄹ -7599
▁ㅊㅐㅁㅍㅣ -7600
ㅏㅇㅔ -7601
▁ㅈㅓㄴㅈㅔ -7602
▁ㅇㅑㄱㅜㅈㅏㅇ -7603
ㅠㄹㄹㅓ -7604
▁ㅈㅣㄹㅣ -7605
▁ㅂㅜㄴㅎㅐ -7606
▁ㅈㅣㄴㅐㅆ -7607
▁ㅅㅏㅇㅛㅇㅈㅏ -7608
▁ㄱㅡㄴㅏㄹ -7609
▁ㅇㅜㄹㅌㅡㄹ -7610
▁ㄱㅏㄱㅗㅇ -7611
▁ㅅㅣㄴㅇㅣㅂ -7612
▁GP -7613
▁ㄷㅡㄹㅓㄴㅏㅆ -7614
▁ㅈㅐㅁ -7615
▁ㄱㅗㄹㅣ -7616
▁ㅍㅗㅌㅡ -7617
▁ㄷㅗㄱㅏㅁ -7618
▁ㅋㅓㅈㅣ -7619
▁ㅁㅗㅎㅓㅁㄱㅏ -7620
▁ㅊㅔㄹㅅㅣ -7621
▁175 -7622
ㄱㅏㄹㅣ -7623
▁ㅌㅏㅁㅈㅓㅇ -7624
▁Cr -7625
▁ㄱㅣㄹㅕㄱ -7626
▁ㅅㅔㅂㅜ -7627
ㅂㅏㄷㅏㄱ -7628
▁ㄴㅡㄹㅇㅓㄴㅏㅆ -7629
ㅏㅁㅐㄴ -7630
▁ㄴㅗㄴㅇㅢ -7631
▁ㅈㅐㅎㅚ -7632
▁188 -7633
▁Wind -7634
▁ㅌㅏㅇㅣㅌㅏㄴ -7635
▁ㅂㅐㄷㅏㄹ -7636
▁ㄴㅗㅅㅡ -7637
▁ㅇㅜㄹㅏ -7638
▁ㅊㅚㅅㅏㅇㅇㅟ -7639
ㅊㅡㅁㅣ -7640
▁ㅇㅠㅅㅓㅇ -7641
▁ㅈㅗㅇㅑㄱ -7642
▁ㄲㅏㅁㅉㅏㄱ -7643
▁ㅇㅏㄹㅡㅎㅔㄴ -7644
ㄷㅡㄹㄹ -7645
▁ㅌㅡㄹㅔㅇㅣㄹ -7646
▁ㅋㅗㄱ -7647
▁ㄱㅗㅇㅈㅓㅇ -7648
▁1985 -7649
▁ㄴㅡㄹㅕ -7650
▁ㄷㅐㅊㅣ -7651
▁ㅇㅏㅌㅔㄴ -7652
▁ㅊㅓㅊㅏㅁ -7653
▁ㅇㅗㅅㅡㅌㅡㄹㅣㅇㅏ -7654
▁ㅂㅣㅇㅜㅅ -7655
▁ㅎㅐㅇㅂㅏㅇ -7656
▁ㅊㅣㄴㅎㅏㄴ -7657
▁ㄱㅘㅇㅅㅓㄴ -7658
ㅍㅣㄴㅣ -7659
▁ㅇㅗㅁㅔ -7660
▁ㅇㅑㅇㅅㅏㅇ -7661
▁ㅍㅏㅅㅐㅇ -7662
ㅋㅣㅇㅏ -7663
me -7664
▁ㅍㅡㄹㅏ -7665
▁ㄲㅡㄹㄹㅕㄱ -7666
▁ㅌㅠㄴ -7667
▁ㅂㅣㄹㄹㅕ -7668
▁ㅎㅔㅅ -7669
▁ㅁㅜㅅㅡ -7670
▁ㅍㅓㅈㅣ -7671
▁ㅌㅓㅅㅡ -7672
▁bl -7673
▁ㅈㅣㄴㅎㅏㄱ -7674
ㅈㅜㅁㅣㄴ -7675
▁ㄱㅣㅁㅈㅣㄴ -7676
▁ㅊㅔㄱㅏㅁ -7677
▁ㅇㅓㅉㅓ -7678
▁ㅊㅚㅈㅓㄱ -7679
▁ㅊㅏㅊㅔ -7680
AY -7681
▁ㅇㅟㅇㅏㄴ -7682
▁ㅎㅜㅅㅗㄴ -7683
▁ㅁㅏㅋㅗㅌㅗ -7684
▁ㅇㅣㄴㅍㅣㄴㅣ -7685
▁ㅇㅏㄹㅡㅎㅔㄴㅌㅣㄴㅏ -7686
▁ㅈㅡㅇㅍㅗㄱ -7687
▁ㅍㅓㄱ -7688
ㅎㅔ -7689
ㅌㅔㄴㄷㅗ -7690
▁ㄴㅣㄴㅌㅔㄴㄷㅗ -7691
▁wid -7692
▁ㅈㅓㅈㅣㄹㅡ -7693
▁ㅇㅙㄴㅑ -7694
▁ㅅㅏㄴㅎㅏ -7695
ms -7696
ㅏㄷㅡ -7697
▁ㅇㅕㅎㅏㄱㅅㅐㅇ -7698
▁ㅋㅡㄹㅔ -7699
ib -7700
▁ㅈㅡㅇㅡㅁ -7701
64 -7702
▁ㄱㅘㄴㅈㅓㅁ -7703
▁ㅍㅗㄱㅎㅐㅇ -7704
▁ㅂㅜㅊㅏㄱ -7705
▁ㅇㅏㄷㅗㅇ -7706
▁ㅈㅜㄷㅜㄴ -7707
▁ㄴㅣㅋㅗㄹ -7708
▁ㄱㅡㅁㅁㅔㄷㅏㄹ -7709
▁al -7710
▁ㅂㅏㅇㅊㅣ -7711
▁ㄱㅠㄱㅕㄱ -7712
▁ㄴㅏㄴㅅㅏ -7713
ft -7714
▁ㄱㅏㅇㅇㅝㄴㄷㅗ -7715
ㅎㅏㅅㅣ -7716
▁ㅇㅓㅂㄱㅖ -7717
▁ㄱㅓㅁㅅㅜㄹ -7718
▁ㅎㅟㅎㅏ -7719
▁ㅈㅗㅇㅜ -7720
ㅊㅠ -7721
now -7722
▁ㅈㅗㅇㅣ -7723
▁ㅅㅣㅂㅈㅏㄱ -7724
▁ㅋㅏㅌㅏㄹ -7725
▁ㅈㅔㄷㅗㄱ -7726
▁ㄲㅡㅌㄴㅏㄴㄷㅏ -7727
▁ㄴㅏㅇㅛ -7728
▁ㄷㅠㅇㅗ -7729
▁ㄴㅣㅋㅗ -7730
▁ㅅㅣㅅㅏㅇ -7731
▁ㅁㅜㅇㅣㄴ -7732
▁350 -7733
▁ㅈㅏㅇㅁㅣ -7734
▁ㄱㅏㄹㅕ -7735
▁ㅈㅣㄹㅌㅜ -7736
▁width -7737
▁ㅇㅣㄱㅓㄹㄹㅗ -7738
▁ㅇㅠㄷㅐ -7739
▁ㄱㅗㅈㅏㅇ -7740
▁ㅅㅏㄹㅏㅈㅕ -7741
▁ㅈㅜㅇㅅㅔ -7742
▁ㅎㅜㄴㅈㅏㅇ -7743
▁ㅈㅓㄴㅁㅜ -7744
▁Gam -7745
ㅅㅡㅇㅂㅜ -7746
▁ㄸㅐㅇ -7747
▁ㄹㅗㅇㅣ -7748
▁ㅈㅗㄱㅣ -7749
▁ㅌㅐㄱㅅㅣ -7750
▁ㅂㅔㄹㅌㅡ -7751
▁ㅂㅜㄹㄹㅑㅇ -7752
▁ㅅㅡㅍㅣㄴ -7753
▁ㅇㅜㄹㅡ -7754
▁ㅈㅗㅋㅓ -7755
MP -7756
▁PP -7757
▁ㅈㅜㅇㅈㅏㅇ -7758
▁ㅋㅗㅌㅡ -7759
▁ㅅㅔㅇㅝㅆ -7760
▁ㅍㅏㄹㅏㄴㅅㅐㄱ -7761
ps -7762
▁ㅁㅗㄴㅗ -7763
▁ㄸㅣ -7764
▁ㅋㅓㅅㅓ -7765
▁ㄱㅡㄹㄹㅓ -7766
▁ㅌㅣㄴ -7767
▁ㅊㅡㄱㅈㅓㅇ -7768
▁ㅅㅗㅇㅛ -7769
▁ㄷㅗㄱㅈㅐ -7770
▁ㅎㅏㄴㄷㅜ -7771
▁ㄷㅡㄹㅗㄴ -7772
▁IN -7773
▁ㅈㅏㄲㅜ -7774
▁ㅂㅏㅇㅅㅗㅇㄱㅜㄱ -7775
▁ㄱㅐㅂㅏㄹㅈㅏ -7776
▁ㅅㅔㅍㅗ -7777
▁BS -7778
▁ㅅㅡㅌㅡㄹㅣㅌㅡ -7779
▁ㄱㅏㅁㄷㅗㅇ -7780
▁ㅁㅕㄴㅎㅓ -7781
▁ㅇㅣㅅㅡㄹㅏㅇㅔㄹ -7782
▁ㄷㅗㅈㅓㅎㅣ -7783
▁ㅁㅣㅅㅏ -7784
▁ㄴㅡㄹㄹㅣ -7785
▁ㅇㅗㅇㅕㅁ -7786
▁ㄴㅡㅇㄹㅕㄱㅈㅏ -7787
ㅔㄴㅈㅣ -7788
oll -7789
▁ㅌㅗㅋㅡㄴ -7790
▁ㅁㅣㄴㅏㅁㅣ -7791
ㅂㅣㅈㅓㄴ -7792
▁1984 -7793
▁ㅅㅗㅅ -7794
▁ㅅㅡㅇㅁㅜㅇㅝㄴ -7795
▁ㄴㅗㅈㅗ -7796
▁ㅇㅓㅍ -7797
▁ㅇㅑㄱㅌㅏㄹ -7798
▁ㄱㅣㅇㅝㄴㅈㅓㄴ -7799
▁ㅋㅐㅅ -7800
ㅛㅅㅣ -7801
▁ㅇㅣㄹㅇㅡㅋㅣㄴ -7802
ㄷㅡㅅ -7803
TV -7804
▁ㄱㅗㅇㅅㅜ -7805
▁ㅎㅜㅈㅏ -7806
▁ㅁㅏㅌㄱㅣ -7807
▁ㅂㅏㄹㅗㄴ -7808
pl -7809
▁ㅇㅣㅂㅈㅜ -7810
ㅍㅜ -7811
▁BR -7812
▁ㅂㅏㄹㅁㅗㄱ -7813
▁ㅇㅖㅅㅜ -7814
ㅏㅇㅓ -7815
▁ㄱㅏㄴㅈㅣ -7816
ㅈㅜㅇㅣㄴ -7817
▁Man -7818
ㅎㅣㅋㅗ -7819
12 -7820
▁ㅈㅜㄴㅣㅇㅓ -7821
▁AKB -7822
▁ㅆㅏㄴ -7823
▁ㄷㅐㄷㅏㄴㅎㅣ -7824
▁ㅇㅣㅈㅗㅇ -7825
▁ㄷㅐㅍㅗ -7826
▁ㄷㅏㄹㄹㅏㅈㅣ -7827
▁ㄱㅜㄱㅍㅏㄴ -7828
▁ㅇㅗㄻㄱㅣ -7829
▁ㅂㅣㄱㅌㅗㄹ -7830
▁ㄹㅜㅁㅓ -7831
▁ㅇㅟㅅㅓㅇ -7832
▁ㅎㅜㅌㅚ -7833
▁ㄷㅗㄹㅇㅏㅇㅘ -7834
▁ㄴㅏㄹㅜㅌㅗ -7835
▁ㅂㅏㄹㄱㅜㄹ -7836
▁ㅋㅗㄹㅡ -7837
port -7838
▁UN -7839
▁ㄱㅣㅈㅏㅇ -7840
▁ㄱㅜㅈㅏㅇ -7841
▁ㄷㅡㄹㅔ -7842
▁ㅇㅜㅇㅝㄹ -7843
▁ㅇㅠㄴㅣㅋㅡ -7844
▁ㅅㅡㄹㅓㅇ -7845
▁ㅌㅡㄹㅔㅇㅣ -7846
ㅂㅓㄹㄹㅔ -7847
ㅇㅘㄴ -7848
▁ㅇㅣㄹㅜㅇㅓㅈㅕ -7849
ㄴㅡㅈ -7850
▁All -7851
▁ㄱㅘㅇㅈㅏㅇ -7852
▁ㅍㅣㅌㅡ -7853
▁ㅅㅡㅌㅔㅂ -7854
▁ㄴㅐㄹㅕㅇㅗ -7855
▁ㅌㅓㅈㅕ -7856
▁ㅈㅜㅎㅐㅇ -7857
▁ㅎㅑㅇㅎㅏㄴ -7858
▁ㅅㅓㄴㄱㅓㄱㅜ -7859
ㅅㅡㅁ -7860
▁ㄱㅡㄹㅐㅅㅓㅇㅣㄴㅈㅣ -7861
▁ㅇㅜㄹㅣㄴ -7862
▁ㅈㅣㅅㅏ -7863
▁ㅇㅘㅇㅇㅟ -7864
▁ㅈㅣㄴㅈㅜ -7865
▁ㄹㅜㅇㅣㅅㅡ -7866
▁ㅅㅣㄱㅁㅣㄴㅈㅣ -7867
▁ㅇㅣㄱㅕㅇ -7868
▁ㅅㅏㅇㄱㅘㄴㅇㅓㅄㅇㅣ -7869
ㄴㅣㅁ -7870
▁ㅅㅑㅅㄱㅓㄴ -7871
▁ㄴㅏㅁㅣ -7872
ㅅㅣㄴㄱㅛ -7873
▁ex -7874
▁ㅎㅕㄹㅇㅐㄱㅎㅕㅇ -7875
▁ㅅㅗㅇㅛㅇ -7876
▁ㅅㅓㄴㅂㅗㅇㅣ -7877
▁ㅅㅓㅅㅓㅎㅣ -7878
▁ㅅㅔㄹㅡ -7879
▁ㅂㅏㄴㅉㅏㄱ -7880
▁ㅈㅗㅇㅛㅇㅎㅣ -7881
▁ㅂㅏㄲㅜㄴ -7882
▁ㅈㅏㄴㅕ -7883
▁ㄱㅗㄹㄹㅏ -7884
▁ㅊㅏㅇㄷㅏㄴ -7885
▁ㅁㅓㄹㅣㅋㅏㄹㅏㄱ -7886
▁Part -7887
▁ㅊㅓㄹㄱㅝㄴ -7888
▁SU -7889
▁ㅂㅏㄱㅈㅣ -7890
▁ㄹㅣㄹㄹㅣ -7891
▁ㅂㅔㄱㅣ -7892
ㅔㄱㅅㅡ -7893
▁ㅇㅔㅂㅏㄴ -7894
▁ㅈㅔㅊㅜㄹ -7895
▁112 -7896
▁ㅇㅗㄹㄹㅏㄱㅏㅆ -7897
▁ㄹㅏㅇㅣㄴㅓ -7898
▁ㅇㅣㄱㅣㄴ -7899
▁KR -7900
ㄹㅜㅇ -7901
▁ㄱㅗㄹㅗ -7902
▁ㄲㅏㅇㅣ -7903
▁ㄱㅗㅇㅂㅐㄱ -7904
▁ㄱㅣㄷㅜㅇ -7905
▁ㅇㅑㄱㅏㄴ -7906
▁ㄹㅜㅋㅡ -7907
▁ㅁㅕㅇㅇㅢ -7908
▁ㅈㅓㄴㅍㅏ -7909
▁ㅇㅏㄱㅏㅆㅣ -7910
▁ㅍㅡㄹㅏㄴ -7911
▁ㄷㅏㅇㅜㄴㄹㅗㄷㅡ -7912
▁ㅂㅜㄴㄷㅏㅇ -7913
▁ㅇㅔㄷㅣ -7914
▁En -7915
▁ㅂㅣㅁㅕㅇ -7916
▁ㅇㅓㄷㅇㅓㅁㅏㅈ -7917
▁ㅃㅓㅇ -7918
▁ㅁㅏㄱㅏㅁ -7919
▁ㅇㅣㄹㅎㅘ -7920
▁ㅊㅣㄴㅎㅐ -7921
▁ㅇㅚㄱㅘ -7922
▁ㅈㅜㅅㅏㅇ -7923
▁ㅎㅣㄹㄹㅓ -7924
▁ㅇㅛㅇㅣㄴ -7925
ond -7926
▁ㄲㅡㄶㅇㅣㅁ -7927
▁ㅇㅏㄹㅔㄴㅏ -7928
▁ㄹㅏㄹㅏ -7929
▁ㅇㅑㅁㅏㅌㅗ -7930
▁ㅁㅏㄱㅎㅣ -7931
ㅅㅔㅅㅓ -7932
▁ㅅㅜㅇㅝㄹ -7933
ㅋㅣㅍㅓ -7934
▁ㅇㅜㄴㅅㅜ -7935
▁ㅊㅓㅈㅣ -7936
▁ㅋㅏㅌㅡ -7937
▁ㅇㅕㄴㄱㅗ -7938
▁ㄱㅓㄹㄹㅣㄴㄷㅏ -7939
▁ㅌㅜㅊㅓㄱ -7940
▁ㅂㅐㄱㅈㅏㄱ -7941
▁ㅅㅛㅍㅣㅇ -7942
▁ㅂㅏㄲㅜㄹ -7943
▁ㄴㅏㅂㅣ -7944
▁ㅈㅣㄴㅇㅣ -7945
▁ㄷㅐㅅㅣ -7946
▁DC -7947
ment -7948
▁ㄷㅗㄹㅇㅕㄴ -7949
▁ㅅㅣㄹㅈㅏㅇ -7950
ㅌㅗㄱ -7951
▁LP -7952
▁ㅁㅏㄱㅅㅏㅇ -7953
▁ㄱㅗㅈㅡㅇ -7954
▁ㄷㅏㅅㅡ -7955
▁ㅁㅗㄳ -7956
▁ㅈㅏㅂㅇㅏㄴㅐ -7957
▁Sup -7958
▁ㅋㅗㅁㅏ -7959
▁ㄷㅓㅂㅣㅇ -7960
▁ㅈㅜㅇㅅㅣ -7961
▁ㄱㅜㄺ -7962
▁ㅂㅗㅈㅗㄴ -7963
ㅍㅣㄹㄷㅓ -7964
▁ㅁㅣㄷㅡㅍㅣㄹㄷㅓ -7965
▁ㅋㅗㅅㅡㅌ -7966
▁ㅈㅓㄹㅊㅏ -7967
▁ㄴㅏㄴㅗ -7968
▁ㅈㅜㄹㄱㅓㄹㅣ -7969
▁ㄱㅗㅇㅣㄴ -7970
▁Mar -7971
▁Fate -7972
▁ㅅㅣㅂㅅㅣㅇㅗ -7973
▁ㄷㅟㄴㅡㅈ -7974
▁ㅅㅣㅅㅣㄴ -7975
ㅠㄹㄹ -7976
▁ㅇㅝㄴㄹㅣ -7977
▁ㅈㅓㄴㅁㅏㅇ -7978
ㄷㅓㄹㅏ -7979
ㅓㅈㅣㄴㄷㅏ -7980
▁108 -7981
ase -7982
▁ㅇㅣㄱㅡㄹ -7983
▁ㅂㅓㅁㅈㅚㅈㅏ -7984
ㄷㅔㄹㅔ -7985
▁ㅌㅏㅇㅣㄱㅓㅈㅡ -7986
▁ㅅㅡㄹㅓㅇㅝ -7987
▁ㄱㅏㅂㅈㅏㄱㅅㅡㄹ -7988
▁ㄹㅣㅈㅡ -7989
▁ㄷㅓㄴㄱㅏ -7990
▁ㅁㅜㅅㅏㄴ -7991
▁ㄱㅕㅇㅇㅏㄱ -7992
▁AN -7993
▁ㅇㅏㅁㅣ -7994
▁ㄷㅠㅅㅡ -7995
▁ㅊㅐㅇㄱㅣ -7996
▁ㅎㅏㅂㅂㅕㅇ -7997
▁ㅇㅗㄴㅊㅓㄴ -7998
▁ㅈㅜㄹㅠ -7999
ㅌㅜㅅㅡ -8000
ㅂㅏㄲ -8001
▁ㄹㅕㄷㅏ -8002
▁ㅈㅓㅎㅏ -8003
▁ㅅㅣㅇㅚ -8004
▁ㅈㅏㅇㅅㅏ -8005
▁ㅅㅜㅅㅐㄱ -8006
▁ㅇㅗㄹㅏㄱ -8007
▁ㅌㅡㄱㄱㅡㅂ -8008
▁ㅇㅕㅇㅣㄴ -8009
▁ㄱㅣㄴㄱㅡㅂ -8010
▁ㅇㅔㅇㅣㄹ -8011
▁ㅇㅔㄹㅣㄱ -8012
▁ㄱㅏㄲㅏㅇㅝ -8013
▁ㄹㅏㅇㅣㅇㅗㄴㅈㅡ -8014
ool -8015
▁ㅊㅣㅈㅡ -8016
▁ㄱㅗㄱㅐㄱ -8017
▁ㅁㅏㅅㅏㄴ -8018
▁ㅅㅣㄱㅍㅜㅁ -8019
▁ㄱㅗㄹㅋㅣㅍㅓ -8020
▁ㄴㅏㅍㅗㄹ -8021
▁ㅂㅏㄷㅇㅏㄷㅡㄹㅇㅕ -8022
ㅗㅇㅣㄹㄹㅓ -8023
▁ㅇㅣㄴㄱㅝㄴ -8024
▁ㅍㅕㅇㅇㅣㄹ -8025
▁360 -8026
▁ㅎㅏㅂㄱㅖ -8027
▁117 -8028
▁ㅈㅗㅅㅏㅇ -8029
▁ㅋㅗㅋㅗ -8030
▁ㅂㅐㄱㅡㅂ -8031
▁ㅇㅝㄴㅈㅗ -8032
▁ㄴㅏㄱㅎㅏ -8033
▁ㅂㅏㄴㅂㅜ -8034
▁ㄹㅓㅅㅣㅇ -8035
▁ㅊㅓㅇㅇㅘ -8036
ㅎㅏㄹㅡㅌㅡ -8037
▁ㅇㅏㅇㅜ -8038
▁ㅇㅜㅇㅠ -8039
▁ㅅㅐㅇㅇㅐ -8040
▁ㅈㅔㄹㄹㅣ -8041
▁ㄱㅓㄹㅈㅡ -8042
▁ㅁㅏㄱㅖ -8043
▁ㅅㅡㅌㅐㄴㄷㅡ -8044
▁ㄱㅛㄷㅏㄴ -8045
▁ㅅㅓㅇㄷㅏㅇ -8046
▁ㅊㅓㄹㄱㅓ -8047
▁ㅅㅣㅇㅗㄴ -8048
▁ㅇㅚㅇㅑ -8049
▁ㅈㅣㅊㅣㅇ -8050
ㄸㅏㄹ -8051
▁ㅂㅗㄱㅎㅏㅂ -8052
▁ㅅㅣㄹㅇㅡㄴ -8053
▁ㅁㅏㄱㅇㅏㄴㅐ -8054
▁ㅋㅣㅅ -8055
▁ㅈㅣㄱㅈㅏㅇ -8056
▁ㄹㅗㅂㅣㄴ -8057
▁ㅇㅏㄴㅇㅑㅇ -8058
ㅂㅏㄹㅏ -8059
ㅅㅣㅈㅡ -8060
▁ㅈㅡㅇㅅㅏㅇ -8061
▁ㅈㅓㅈㅣㄹㅡㄴ -8062
▁ㅈㅏㅁㅅㅣㄹ -8063
ㄴㅏㄱ -8064
▁ㅅㅡㅍㅗㅇㅣㄹㄹㅓ -8065
▁ㅇㅣㅁㄱㅡㅁ -8066
▁One -8067
▁ㅆㅡㅇㅕ -8068
▁ㄹㅜㅍㅣ -8069
▁ㅁㅕㅊㅣㄹ -8070
▁ㄱㅗㅁㅏㅇ -8071
▁ㄱㅏㅇㄹㅣㅁ -8072
▁GO -8073
ph -8074
▁ㅍㅗㄱㅍㅏ -8075
▁ㄱㅓㅂㅜㄱ -8076
▁ㅁㅏㄴㅇㅣㄹ -8077
▁ㅎㅘㄱㅈㅏㅇㅍㅐㄱ -8078
▁ㅅㅡㅋㅔ -8079
▁ㅊㅓㅇㅇㅘㄷㅐ -8080
▁ㄷㅏㄹㅎㅏ -8081
▁ㄱㅗㅇㅇㅣㄴ -8082
▁ㅎㅐㄹㅏ -8083
▁ㅇㅓㅅㅣㅅㅡㅌㅡ -8084
▁ㄱㅜㄱㄱㅕㅇ -8085
ㅇㅗㅇ -8086
▁ㄲㅘㄱ -8087
▁ㅅㅗㄱㅎㅏㄴㄷㅏ -8088
ㅏㅇㅜㅅ -8089
▁ㅇㅕㄱㅗ -8090
▁ㄷㅏㅇㄷㅏㅇ -8091
▁ㅂㅜㅇㅣㅁ -8092
▁ㄱㅐㅂㅕㄹ -8093
▁ㅁㅗㄹㅗ -8094
▁ㅇㅠㅇㅢ -8095
ㅇㅡㄴㅎㅐㅇ -8096
▁ㄱㅡㄹㅏㅇㅜㄴㄷㅡ -8097
▁ㅎㅜㅎㅚ -8098
▁ㅈㅏㅂㅣ -8099
ree -8100
▁Oh -8101
▁ㄱㅣㅁㅛ -8102
▁ㅂㅓㄹㅕㅅㅓ -8103
▁ㄱㅡㄱㅎㅏㄴ -8104
▁ㄹㅗㅂㅓㅌㅡ -8105
▁ㅅㅔㄱㅡㅁ -8106
▁ㅁㅕㅇㅂㅐㄱ -8107
▁ㅂㅏㄹㅡㄴ -8108
▁ㅇㅗㄹㅗㅈㅣ -8109
▁ㄱㅛㅂㅗㄱ -8110
ㅏㅁㅜㄹㅏ -8111
▁ㅍㅏㅇㅜㄹ -8112
▁ㅍㅡㄹㅣㄴㅅㅔㅅㅡ -8113
▁ㅋㅗㅅㅡㅌㅠㅁ -8114
▁ㄴㅏㄱㅣ -8115
▁ㅇㅖㄱㅗㅍㅕㄴ -8116
▁ㅌㅡㄱㅂㅕㄹㅎㅣ -8117
▁ㄱㅡㄱㅓ -8118
▁ㄱㅔㄹ -8119
▁ㅍㅗㅅㅡㅌㅓ -8120
▁ㅇㅕㄱㅅㅡㅂ -8121
▁ㅌㅗㅇㅌㅡㄹ -8122
▁ㅈㅓㄴㄹㅏ -8123
ㅇㅓㄱ -8124
▁ㅎㅏㄱㅅㅐㅇㅎㅚ -8125
▁ㅂㅐㅇㅋㅡ -8126
▁ㅅㅓㄴㅅㅏ -8127
▁ㅊㅕㅅㅓ -8128
▁ㄱㅐㅈㅏㅇ -8129
▁ㅇㅓㅅ -8130
▁ㄱㅛㄷㅗ -8131
▁ㅂㅓㄷㅡ -8132
▁ㅎㅣㄷㅡㄴ -8133
▁ㅈㅣㅂㅇㅓㄴㅓㅎ -8134
▁As -8135
ㅇㅏㅇㅣ -8136
▁ㅅㅏㅇㅜ -8137
▁ㅂㅣㅊㅣ -8138
▁ㄱㅡㄱㄷㅗ -8139
ㅅㅟㅂ -8140
▁ㅌㅡㄹㅏㅇㅣ -8141
▁ㅌㅡㄹㅐㅂ -8142
▁ㅅㅓㅇㅈㅣㄹ -8143
ㅅㅏㅇㅣ -8144
▁New -8145
▁ㅎㅚㄷㅏㅁ -8146
ㅎㅏㄱㅈㅏ -8147
▁ㅆㅡㄹㄷㅔ -8148
▁ㅎㅏㅇㅣㄹㅏㅇㅣㅌㅡ -8149
▁ㅈㅗㅁㅕㅇ -8150
▁ㄷㅗㅌㅡ -8151
▁ㄷㅚㅅㅏㄹ -8152
▁ㄷㅜㄷㅡㄹㄱㅕ -8153
▁ㅅㅜㅇㅕㅁ -8154
ason -8155
▁ㄷㅜㄹㄹ -8156
▁ㅅㅏㅇㅑ -8157
▁ㅍㅓㅈㅡㄹ -8158
▁ㅆㅏㅇㅝ -8159
▁ㄱㅓㄷㅡㄴ -8160
ㅅㅠㄹ -8161
▁ㅁㅏㄹㅆ -8162
▁FM -8163
▁ㅅㅟㅇㅝ -8164
▁ㅌㅗㅋㅣ -8165
ㅅㅏㄹㅣ -8166
▁ㄱㅘㄴㅊㅏㄹ -8167
ㅂㅜㄹㅁㅕㅇ -8168
▁ㄸㅡㄴㄱㅡㅁㅇㅓㅄㅇㅣ -8169
ㅁㅔㄴ -8170
▁ㅇㅕㄱㅐㄱ -8171
▁103 -8172
▁ㄷㅚㄱㅔ -8173
▁ㅇㅓㅉㅓㅁㅕㄴ -8174
ai -8175
aby -8176
▁ㅂㅜㄹㅎㅐㅇ -8177
▁ㅁㅗㅈㅣㅂ -8178
▁ㄱㅐㅅㅣㄴㄱㅛ -8179
▁ㅂㅜㄲㅡㄹ -8180
ㄷㅗㄹㅡ -8181
▁ㄹㅔㄴㅈㅡ -8182
▁ㅇㅡㅁㅁㅗ -8183
ㅂㅜㄹㅎㅗ -8184
▁ㅅㅜㄹㅅㅏ -8185
▁ㅎㅗㅂㅜㄹㅎㅗ -8186
▁ㅅㅣㄹㅈㅗㄴ -8187
▁ㄷㅡㄹㄹㅕ -8188
▁ㅇㅑㅇㅅㅗㄴ -8189
▁ㅎㅢㄴㅅㅐㄱ -8190
▁ㅇㅗㄷㅓ -8191
ㅈㅣㅁㅏㄱ -8192
▁ㅂㅣㅅㅡㅌㅡ -8193
▁ㅌㅡㄹㅔㅇㅣㄹㄹㅓ -8194
▁ㄴㅣㅇㅏ -8195
▁ㅅㅔㄴㅚ -8196
▁1960 -8197
▁ㅇㅠㅇㅓㄴ -8198
▁ㄷㅗㅇㄱㅕㅇ -8199
▁ㅁㅐㅊㅜㄹ -8200
▁ㅇㅢㅈㅏㅇ -8201
▁ㅎㅡㄴㄷㅡㄹㄹㅣ -8202
▁ㅅㅕㅌㅡㄹ -8203
ㅛㅇㅣㄹ -8204
▁ㅂㅜㄷㅗㅇ -8205
▁ㅋㅔㅇㅣㄷㅡ -8206
ㅊㅕㄴ -8207
▁ㅂㅗㄹㅏㅅㅐㄱ -8208
▁220 -8209
▁ㄹㅣㅋㅏ -8210
▁ㄷㅓㄹㅏ -8211
▁ㅅㅏㅁㅏ -8212
▁ㅎㅡㄹㄹㅓ -8213
▁ㅁㅣㄹㅜ -8214
▁ㄱㅏㄱㅇㅗ -8215
▁ㄱㅣㅁㅈㅐ -8216
▁CS -8217
▁JP -8218
▁ㅁㅜㅅㅓㅂ -8219
▁ㅁㅜㄹㅍㅜㅁ -8220
ㅈㅓㄹㅣ -8221
▁ㅇㅗㄹㅅㅡㅌㅏ -8222
▁ㄱㅕㄹㄱㅖ -8223
▁ㄱㅘㅎㅏㄱㅈㅏ -8224
ㅅㅡㅌㅗㄹ -8225
▁ㅌㅡㄹㅔㅇㅣㄴㅓ -8226
▁ㅇㅜㅈㅜㅅㅓㄴ -8227
▁ㅍㅡㄹㅗㅌㅗ -8228
▁ㅇㅝㄴㅎㅏㄴ -8229
ㄷㅣㅇㅓ -8230
▁ㅈㅣㅇㅣㄴ -8231
ㅌㅟ -8232
▁ㄱㅕㅇㅈㅜ -8233
▁un -8234
▁ㅇㅠㅈㅐ -8235
▁ㅅㅑㅂ -8236
ㅈㅡㄴㅣ -8237
▁ㅂㅏㅅㅡ -8238
▁ㅊㅏㅈㅇㅏㅂㅗ -8239
▁ㅋㅏㅌㅏ -8240
▁ㅅㅗㄴㅅㅏㅇ -8241
▁ㄸㅓㅇㅗㄹㅡ -8242
▁ㅇㅠㅁㅏㅇ -8243
▁ㅇㅗㅂㅡㅈㅔㄱㅌㅡ -8244
▁ㅅㅣㅁㅇㅢ -8245
▁ㅋㅗㅁㅣㄷㅣ -8246
▁ㅇㅡㄹㅕㄴ -8247
▁ㅇㅕㅍㅏ -8248
▁ㅎㅚㅅㅐㄱ -8249
▁ㄲㅓㄹ -8250
▁ㅂㅓㅂㅊㅣㄱ -8251
▁ㅇㅕㄴㅂㅗㅇ -8252
▁z -8253
▁ㅊㅗㅋㅗㄹ -8254
▁UE -8255
▁ㄲㅗㅁㅏ -8256
▁ㅇㅣㄹㅇㅡㅋㅕ -8257
▁240 -8258
▁ㄱㅜㄱㅈㅓㅇ -8259
▁ㅎㅏㅇㄱㅜ -8260
▁ㅈㅣㅎㅑㅇ -8261
▁ㅂㅣㅇㅠ -8262
▁ㅇㅝㄴㄱㅗㄱ -8263
▁tv -8264
▁ㄷㅡㄹㅇㅓㅇㅗㄹ -8265
oon -8266
▁ㅅㅣㅌㅡ -8267
▁ㅁㅜㅅㅡㅇㅂㅜ -8268
▁ㅈㅣㄴㄱㅕㄱ -8269
▁ㅇㅟㄴㄷㅡ -8270
ㅇㅕㄱㅐㄱ -8271
▁ㅍㅗㅌㅏㄴ -8272
ㄷㅗㄹㅇㅣ -8273
▁ㅊㅓㅇㅈㅜ -8274
ㅐㅍㅡ -8275
▁ㅌㅐㅍㅕㅇㅇㅑㅇ -8276
▁ㅅㅗㄴㅅㅣㄹ -8277
▁ㅁㅏㅋㅔ -8278
▁ㅎㅔㄴㄹㅣ -8279
▁ㅎㅕ -8280
▁ㄷㅏㅁㄱㅣㄴ -8281
▁128 -8282
▁ㅊㅣㅇㅕㄹ -8283
ㅎㅕㅅㅓ -8284
90 -8285
▁ㄷㅡㄹㅗㅇㅜ -8286
ㅅㅣㅇㅌㅓㄴ -8287
▁ㄱㅏㅈㅕㅇㅗ -8288
▁ㄴㅡㄺ -8289
▁ㅈㅓㅇㅂㅏㄴ -8290
▁ㄱㅣㅁㅇㅛㅇ -8291
▁ㅅㅠㄴ -8292
▁ㅇㅠㅊㅜㄹ -8293
▁ㅍㅗㅈㅏㅇ -8294
ㅅㅡㅌㅗㄴ -8295
▁ㅋㅡㄹㄹㅗㄴ -8296
MS -8297
▁ㄱㅓㅊㅣㄴ -8298
▁ㄱㅓㄴㄱㅜㄱ -8299
▁ㄱㅜㄱㅈㅏㅇ -8300
▁ㄱㅘㅇㅅㅏㄴ -8301
▁ㅍㅡㄹㅔㄴ -8302
▁ㅎㅗㄹㄷㅡ -8303
▁ㅅㅣㄴㅅㅓㄴ -8304
▁ㄹㅏㅈㅡ -8305
▁ㅎㅏㅁㅂㅜㄹㅗ -8306
▁ㅍㅏㄹㅡ -8307
▁ㄸㅏㄸㅡㅅ -8308
▁ㅁㅜㄱㅗㅇ -8309
ㅈㅓㄱㅣ -8310
ㅐㅇㅣㄴ -8311
▁ㄹㅣㅂㅓㅍㅜㄹ -8312
▁ㅌㅏㄹㅡ -8313
▁ㅁㅐㄱㅈㅜ -8314
act -8315
▁ㅇㅣㄱㅡㄹㅅㅡ -8316
▁ㅈㅔㄱㅏㄹㄹㅑㅇ -8317
▁ㅋㅐㅅㅣ -8318
▁ㅈㅡㄱㅇㅟ -8319
▁ㅇㅣㄱㅕ -8320
ox -8321
▁ㄷㅗㅇㅎㅐㅇ -8322
▁ㅂㅔㅌㅔㄹ -8323
▁ㅈㅣㅁㅅㅡㅇ -8324
▁ㅇㅓㅁㅁㅣㄹ -8325
▁ㅈㅜㅇㅅㅜㄴ -8326
▁ㄹㅣㅇㅏㄴ -8327
▁ㅈㅏㅇㅍㅏㄴ -8328
ㅏㄹㄷㅡ -8329
▁ㅎㅐㅅ -8330
▁ㅍㅜㄴ -8331
▁ㅅㅣㄴㄷㅔㄹ -8332
▁ㅋㅗㅁㅣㄱ -8333
▁ㅌㅡㄹㄹ -8334
▁ㄴㅗㄷㅗㅇㅈㅏ -8335
ㅋㅡㄹㅏ -8336
hen -8337
▁ㅍㅐㅈㅓㄴ -8338
▁ㅂㅏㄴㄱㅏㅁ -8339
ㅇㅏㄴㅏ -8340
▁ㅂㅐㄹㅕ -8341
ㄱㅔㅇㅣㅁ -8342
▁ㅆㅏㄹ -8343
ㅊㅔㄹ -8344
▁ㅇㅕㄱㅣㅈㅓㄱㅣ -8345
▁ㅅㅐㅇㄱㅣㄹ -8346
ㅗㅌㅡ -8347
ARD -8348
▁ㅇㅝㅋㅡㄹㅐㅍㅡㅌㅡ -8349
ㅍㅛㅇㅠㄹ -8350
▁ㅇㅏㄴㅅㅣㅁ -8351
ㅊㅣㅇㅝㄴ -8352
▁go -8353
ㅜㄹㅜㅅㅡ -8354
▁ㅁㅓㄱㅎㅣ -8355
▁ㅎㅏㅂㄹㅣ -8356
ㅅㅡㅌㅓㅁ -8357
▁TVA -8358
▁ㄴㅔㅌㅣ -8359
▁ㅁㅗㄷㅠㄹ -8360
▁ㅎㅏㅅㅡ -8361
▁ㅅㅏㄹㅍㅕㅂㅗ -8362
▁ㄴㅐㄹㅣㄴ -8363
▁ㅇㅕㄴㄱㅜㅇ -8364
▁ㅎㅏㅍㅡ -8365
▁ㄱㅓㄴㄱㅏ -8366
▁ㄹㅏㅌㅣㄴ -8367
▁ㄱㅏㄲㅏㅇ -8368
▁%/ -8369
▁ㅎㅠㄱㅏ -8370
▁ㅇㅏㄹㄹㅔㄱㅅㅡ -8371
▁ㅋㅓㅅㅡㅌㅓㅁ -8372
▁ㅈㅣㄴㅕㅆ -8373
▁ㄷㅗㄱㅈㅓㅁ -8374
▁ㅅㅒㄷㅗㅇㅜ -8375
ank -8376
▁ㅊㅣㄴㄷㅏ -8377
▁ㅂㅐㄱㅈㅔ -8378
▁ㅇㅕㅇㅈㅣ -8379
ㅍㅏㄱ -8380
▁ㄱㅣㅅㅜ -8381
▁ㅌㅡㄹㅏㅇㅜㅁㅏ -8382
▁ㄹㅗㅇㅣㄷㅡ -8383
▁ㅁㅗㅅㅡ -8384
▁ㅇㅣㅁㅗ -8385
▁ㅌㅡㄹㅣㄱㅓ -8386
▁ㅁㅏㄸㅏㅇ -8387
▁ㅅㅡㄴㅏㅇㅣ -8388
▁ㅌㅏㅁㅈㅣ -8389
ㅎㅏㄴㅏ -8390
▁ㅅㅏㄹㅣㅂ -8391
▁ㅌㅡㄹㅗㅍㅣ -8392
ㅂㅕ -8393
▁ㅊㅚㅇㅜ -8394
▁ㄱㅏㅍ -8395
▁ㅈㅣㅇㅕㄴ -8396
▁ㄱㅘㄴㅌㅗㅇㄹㅕㄱ -8397
▁ㅈㅏㅇㄴㅏㄴㄱㅏㅁ -8398
ㅋㅣㄹㅣ -8399
▁ㅅㅣㄴㅇㅛㅇ -8400
▁ㄷㅏㄴㄱㅓㅁ -8401
▁ㅂㅏㅇㅌㅏㄴ -8402
▁ㄱㅏㄴㅈㅜ -8403
▁ㅇㅕㄹㅓㅅ -8404
▁ㅈㅜㄹㅇㅕ -8405
▁ㅇㅖㄹ -8406
▁ㅅㅏㅇㄹㅠㄱ -8407
ich -8408
▁ㄱㅣㅁㅈㅜㄴ -8409
▁ㅅㅐㅇㅈㅓㄴ -8410
▁ㅅㅗㅍㅡㅌㅡㅇ -8411
ㄷㅡㄹㅇㅣ -8412
▁ㅇㅜㅇㅣㄱ -8413
▁ㅇㅣㄹㅇㅛㅇㅣㄹ -8414
▁ㄷㅣㅅㅣ -8415
▁ㅈㅏㅇㄹㅗ -8416
▁ㅅㅗㅍㅡㅌㅡㅇㅞㅇㅓ -8417
▁World -8418
ㅇㅓㅈㅕ -8419
▁ㄴㅏㄹㅆㅣ -8420
▁1982 -8421
▁JT -8422
▁ㅈㅜㅇㅓㅈㅣ -8423
ㄲㅐㅂㅣ -8424
▁ㄷㅣㅈㅡㄴㅣ -8425
▁ㅅㅣㄴㄷㅔㄹㅔㄹㄹㅏ -8426
▁ㄷㅏㄴㅈㅗㅇ -8427
▁ㄸㅗㄹ -8428
▁ㅁㅣㅅ -8429
ear -8430
▁ㅇㅏㅇㅣㄹㅓㄴㅣ -8431
▁ㄷㅏㅇㄷㅐ -8432
▁ㅅㅔㅇㅣㄴㅌㅡ -8433
▁ㅅㅣㅇㅣㄴ -8434
▁ㅇㅏㅂㅏㅌㅏ -8435
▁ㅎㅣㅇ -8436
▁ㅁㅣㄱㅜㅇ -8437
▁ㅎㅖㅌㅐㄱ -8438
ㄹㅏㄷㅣㄴ -8439
ife -8440
▁ㅎㅏㅁㅏ -8441
▁ㅊㅐㅁㅍㅣㅇㅓㄴㅅㅣㅂ -8442
▁ㄱㅡㅁㅏㄴㄷㅜ -8443
▁ㅌㅗㅇㅛㅇㅣㄹ -8444
▁ㅇㅛㅎㅏㄴ -8445
ary -8446
lect -8447
▁ㅇㅑㅇㅈㅏ -8448
▁ㅅㅣㄴㅅㅗㄱ -8449
▁ㅃㅗ -8450
▁ㅌㅐㄱㅜㄱ -8451
▁Mk -8452
▁ㅆㅗㄷㅇㅏ -8453
▁ㅅㅜㅅㅡㅂ -8454
▁ㄹㅜㅅㅡ -8455
▁ㅊㅕㄷㅡㄹ -8456
▁ㅅㅓㄴㅇㅣㅁ -8457
▁ㅇㅡㅁㄹㅛ -8458
▁ㅅㅏㅂㅓㅂ -8459
▁ㄱㅝㄴㅇㅠ -8460
▁ㄱㅏㅈㅣㄹ -8461
▁ㅍㅏㅁㅣㅇ -8462
▁ㄷㅗㄱㅇㅣㄹㄱㅜㄴ -8463
▁ㄴㅡㄲㅣㄴ -8464
▁ㅂㅕㄴㅅㅜ -8465
▁ㄱㅣㅁㄷㅐ -8466
ㅡㅇㅣㄴ -8467
ㄹㅕㅇㅗ -8468
▁ㅅㅔㄴㅅㅓ -8469
▁ㄷㅏㅇㅅㅏㅈㅏ -8470
▁ㄷㅗㅈㅏㅇ -8471
▁ㅂㅏㅇㅅㅗㅇㅅㅏ -8472
▁ㄱㅡㄴㅇㅝㄴ -8473
▁ㄱㅖㅅㅜ -8474
▁ㄱㅣㅁㅌㅐㄱ -8475
▁ㄴㅔㅌㅣㅈㅡㄴ -8476
▁ㅅㅜㄴㅇㅑㅇㅎㅏㅁ -8477
▁ㄱㅝㄴㅇㅟ -8478
ㅂㅘ -8479
▁ㅇㅣㄹㅇㅡㅋㅕㅆ -8480
▁ㅁㅏㄱㄱㅏㅇ -8481
▁ㅅㅡㅌㅡㄹㅏㅇㅣㅋㅓ -8482
▁ㅊㅜㅅㅔ -8483
▁ㅂㅏㅈㅣ -8484
▁ㅅㅗㅁㅗㄹ -8485
▁ㅅㅡㅍㅣㄹㅣㅅ -8486
▁ㄹㅏㅋㅡ -8487
▁ㅅㅓㅂㅏㅇㅣ -8488
▁ㄱㅓㄴㄴㅔ -8489
▁ㅇㅢㅎㅏㄱ -8490
▁ㅈㅣㅁㅗㄱ -8491
uk -8492
▁ㄹㅕㄷㅏㄱㅏ -8493
▁ㅅㅏㅇㅂㅏㄴ -8494
AP -8495
ㅌㅗㅅㅡ -8496
ㅆㅏㅇㅜㅁ -8497
▁all -8498
▁ㅊㅜㅂㅏㅇ -8499
▁ㅎㅗㅅㅗ -8500
▁ㄱㅡㄹㅏㄴ -8501
▁ㅈㅣㄴㅅㅏㅇ -8502
▁ㄹㅏㅅㅡㅌㅡ -8503
▁ㅎㅜㅇㅣㅁ -8504
▁ㅇㅜㅌㅏ -8505
▁ㄷㅔㄹㅕㄱㅏ -8506
ㅋㅜㄹㅏ -8507
ET -8508
▁LIVE -8509
▁ㅇㅑㄱㅁㅜㄹ -8510
▁ㄲㅡㅀ -8511
▁ㅈㅓㄴㅅㅐㅇ -8512
▁ㅍㅡㄹㅗㄴ -8513
▁ㄷㅏㄱㅏㄱㅏ -8514
▁ㅅㅣㄴㅈㅏ -8515
▁ㅂㅏㅃ -8516
▁ㅋㅣㅂㅗㄷㅡ -8517
▁ㅂㅓㅅㅡㅌㅡ -8518
way -8519
▁SF -8520
▁ㅈㅣㅁㅈㅏㄱ -8521
▁ㄱㅘㄷㅗ -8522
▁ㅇㅜㅊㅣ -8523
▁ㅅㅓㅁㅓ -8524
ㅇㅣㄹㅂㅗ -8525
▁ㅌㅐㅂ -8526
▁ㅋㅏㄷㅓㄹㅏ -8527
▁ㄱㅕㄹㅈㅔ -8528
▁ㅈㅣㅇㅝ -8529
▁ㅇㅠㅎㅗㄱ -8530
ㅌㅡㄹㅣㅅㅡ -8531
▁ㅂㅜㄹㄹㅕㅆ -8532
▁ㅈㅓㄴㄴㅏㅁ -8533
▁ㅅㅓㄴㅈㅏㅇ -8534
▁ㅍㅛㅁㅕㄴ -8535
▁ㅇㅓㄺ -8536
ㅌㅓㅅㅡ -8537
▁ㅂㅐㅊㅜㄹ -8538
▁ㅎㅡㅂㅅㅏ -8539
▁ㅈㅣㄹㅕㄱ -8540
ple -8541
▁ㄱㅡㄱㅎㅣ -8542
▁ㅎㅜㅂㅏㄴㄱㅣ -8543
▁ㅁㅣㅅㅡㅌㅓ -8544
▁185 -8545
▁ㄱㅜㅈㅗㅁㅜㄹ -8546
▁Day -8547
▁ㅇㅢㅈㅏ -8548
▁ㅂㅓㄹㅇㅕㅆ -8549
▁ㅈㅜㅁ -8550
ㄴㅑㅇ -8551
▁ㄱㅡㄴㅈㅓㅂㅈㅓㄴ -8552
▁ㄷㅐㅅㅓㅇ -8553
▁ㄴㅗㄴㅈㅐㅇ -8554
▁Fr -8555
▁ㅌㅐㅋㅡㄹ -8556
▁ㅇㅗㄹㄹㅏㄱㅏㄴㄷㅏ -8557
▁1983 -8558
▁ㅅㅣㄹㅅㅣㄱㅏㄴ -8559
▁ㄱㅗㅊㅣ -8560
▁ㅅㅓㄹㄹㅕㅇ -8561
▁ㅎㅣㄱㅏㅅㅣ -8562
ㅏㅂㅔ -8563
▁ㅅㅏㅇㅅㅏ -8564
▁ㅈㅓㅇㅅㅓㄱ -8565
▁ㄴㅏㄱㅅㅓㄴ -8566
▁ㄴㅓㅁㅂㅓ -8567
▁ㅅㅣㅂㅏ -8568
▁ㅇㅏㅆㅇㅓㅆ -8569
▁ㅍㅐㅁㅣㄹㄹㅣ -8570
▁ㅁㅏㅍㅣㅇㅏ -8571
▁ㅇㅠㅈㅓㄴㅈㅏ -8572
▁ㅈㅘㅈㅓㄹ -8573
▁ㅎㅡㄴㅎㅏㄴ -8574
ㅂㅏㅌ -8575
▁ㅋㅡㄹㄹㅣㄴ -8576
▁ㄱㅏㅁㅅㅜ -8577
▁ㅋㅟㄱ -8578
▁ㄷㅗㅇㅅㅗㄱ -8579
▁ㄴㅣㅎㅗㄴ -8580
▁ㅊㅣㅁㄷㅐ -8581
▁ㄱㅣㅎㅗ -8582
▁ㅌㅡㄹㅜ -8583
▁ㄷㅡㄹㅔㅅㅡ -8584
▁are -8585
▁ㅎㅏㅂㄷㅗㅇ -8586
▁ㄷㅚㄹㅈㅣ -8587
▁ㄱㅏㅇㅅㅏ -8588
▁ㅁㅐㄴㅣㅇㅏ -8589
▁ㅊㅏㅇㅅㅓㄹ -8590
▁ㄲㅡㄹㅇㅓㅇㅗㄹ -8591
▁ㄴㅡㄲㅕㅆ -8592
▁ㄷㅜㄹㄹㅓㅂㅗ -8593
▁ㄹㅗㄱㅡ -8594
▁ㄱㅏㄴㄱㅏㄴㅎㅣ -8595
ㄱㅌㅓ -8596
▁ㅂㅣㄱㅡㄱ -8597
▁ㅋㅏㅈㅡㅇ -8598
▁ㅅㅡㅌㅏㄷㅣㅇ -8599
▁119 -8600
▁ㅍㅗㅎㅚㄱ -8601
ㅅㅑㅅ -8602
▁ㅅㅣㄴㄷㅗ -8603
▁ㅈㅔㄴㅣ -8604
▁ㅊㅏㅈㅇㅏㅇㅗ -8605
▁ㅇㅕㄱㅇㅣㅁ -8606
▁ㅁㅜㄹㅊㅔ -8607
▁ㅇㅜㄹㅌㅡㄹㅏㅁㅐㄴ -8608
ㅜㄴㅌㅡ -8609
ype -8610
▁nd -8611
ens -8612
▁do -8613
▁DPS -8614
▁ㅈㅣㅂㄱㅝㄴ -8615
▁ㅇㅝㄴㅎㅕㅇ -8616
▁ㅈㅜㅇㅅㅏㅇ -8617
▁ㅂㅐㄱㅎㅘㅈㅓㅁ -8618
▁ㅋㅜㄹㅏ -8619
▁ㅌㅏㄱㅏ -8620
▁ㄴㅏㅇㅂㅣ -8621
▁ㅅㅓㅇㅂㅐ -8622
▁ㅁㅏㅈㅊㅜㄴ -8623
▁lv -8624
▁ㄹㅔㄱㅅㅡ -8625
▁{{{# -8626
▁ㅈㅓㄴㄴㅏㄹ -8627
▁ㅅㅏㅁㅜㅅㅗ -8628
▁ㅇㅠㅁㅣ -8629
▁ㅈㅓㄱㅈㅏ -8630
ㄷㅓㄴㅈㅣ -8631
aster -8632
▁ㅂㅓㅁㅇㅛㅇ -8633
▁MB -8634
▁ㅂㅣㄹㄷㅣㅇ -8635
orn -8636
ork -8637
▁ㅅㅗㄴㅇㅗㄱ -8638
▁ㅅㅗㄴㅇㅗㄱㅗㅇ -8639
▁ㅅㅗㅁㅗㄹㅑㅇ -8640
▁ㅌㅡㄴㅌㅡㄴ -8641
▁ㄱㅜㄷㅗㅇ -8642
▁ㅁㅕㅇㅁㅗㄱ -8643
▁ㄱㅡㄹㄹ -8644
▁ㅉㅑㅇ -8645
▁ㅌㅡㄱㄱㅗㅇ -8646
▁ㄴㅡㄹㄹㅕ -8647
▁ㅎㅐㅂㅕㅇㄷㅐ -8648
▁ㅈㅓㅇㄱㅛ -8649
▁ㄴㅏㅅㅡ -8650
▁ㅇㅕㄴㄱㅜㅇㅝㄴ -8651
ㄹㅗㄴㅏ -8652
▁ㅍㅗㄹㅡ -8653
▁ㄲㅓㅂ -8654
▁ㅊㅜㄹㅎㅕㄹ -8655
▁ㅍㅕㄹㅊㅕㅆ -8656
▁123 -8657
▁ㅇㅓㅁㄱㅕㄱ -8658
▁ㅁㅗㄹㄹㅣ -8659
▁ㄷㅗㅇㄴㅏㅁ -8660
▁ㅅㅣㄹㄴㅐ -8661
ㄹㅣㅇㅗㄴ -8662
▁ㄱㅗㅇㄱㅏㅁ -8663
▁104 -8664
▁ㅁㅏㅅㅏㅇ -8665
▁ㅁㅣㄹㄹㅕㄴ -8666
▁ㅋㅗㄴㅅㅗㄹ -8667
▁ㅅㅏㅇㅏㄱ -8668
ㅁㅜㄹㅏ -8669
▁ㅅㅏㅁㄱㅏㄱ -8670
▁ㅂㅕㄴㅌㅐ -8671
▁ㅈㅣㅅㅓㄴ -8672
ㅅㅡㅌㅣㅂㅓㄹ -8673
11 -8674
▁ㅅㅐㄱㅕ -8675
▁ㅍㅔㅅㅡㅌㅣㅂㅓㄹ -8676
▁ㅈㅣㄹㅂㅕㅇ -8677
▁ㅂㅔㅇㅓㅅㅡ -8678
▁ㄱㅏㅂㅕㅇㅜㄴ -8679
▁ㅅㅜㅈㅣㄱ -8680
▁ㅂㅜㅅㅡㅌㅡ -8681
▁ㅅㅐㅇㅊㅔ -8682
▁ㄷㅐㅌㅏ -8683
▁ㅎㅗㄴㅏㅁ -8684
▁ㅂㅔㅌㅔㄹㅏㅇ -8685
ㅡㅋㅡ -8686
▁ㅂㅐㅈㅔ -8687
ans -8688
▁ㅆㅡㄹㅁㅗ -8689
▁ㅈㅣㄹㅈㅜ -8690
▁Ad -8691
▁ㅇㅣㅅㅜ -8692
▁Up -8693
▁ㅅㅡㅌㅐㅍㅡ -8694
▁DP -8695
ㅗㅍㅡ -8696
▁ㅅㅛㅋㅡ -8697
▁Wi -8698
ㄲㅡㅅ -8699
▁109 -8700
▁ㄱㅗㅅㅗ -8701
▁ㅅㅔㄹㅏ -8702
▁ㄱㅏㅇㄹㅕㄹ -8703
▁ㅂㅗㄱㅇㅝㄴ -8704
▁ㅈㅓㅈ -8705
ons -8706
▁ㄴㅏㄹㄸㅟ -8707
▁ㄱㅘㄴㅊㅡㄱ -8708
▁ㄷㅔㅇㅣㅂㅣㄷㅡ -8709
▁Sw -8710
▁ㅇㅗㅁㅔㄱㅏ -8711
▁ㅇㅑㅇㅂㅏㄴ -8712
▁ㅅㅣㄹㅅㅏㅇ -8713
▁ㅇㅣㅇㅓㅂ -8714
▁AA -8715
▁ㄱㅐㄱㅜㄱ -8716
▁ㅈㅣㄱㅅㅓㄴ -8717
▁ㅃㅏㄹㄱㅏㄴㅅㅐㄱ -8718
▁ㅅㅡㅈㅡㅋㅣ -8719
▁ㄹㅐㅍㅓ -8720
▁OVA -8721
ㅔㅇㅣㅁㅓ -8722
▁ㅇㅔㄱㅅㅣㅈㅡ -8723
▁ㄹㅔㅁ -8724
▁ㅈㅔㅁㅜㄹ -8725
▁ㅌㅏㅁㅅㅐㄱ -8726
▁ㄷㅏㄴㅎㅐㅇㅂㅗㄴ -8727
▁style -8728
▁ㅌㅡㄱㅂㅕㄹㅅㅣ -8729
ey -8730
▁ㅇㅜㅊㅡㄱ -8731
ㅞㄹ -8732
ㄱㅘㄹ -8733
▁ㅈㅣㄴㄱㅡㅂ -8734
▁ㄱㅡㄹㅏㅇ -8735
▁ㅋㅔㅇㅣㅂㅡㄹ -8736
▁ㄷㅣㅍㅔㄴ -8737
▁KOF -8738
▁ㅇㅓㅇㅣㅇㅓㅄ -8739
▁ㄷㅡㄹㅇㅓㅇㅘ -8740
▁ㅍㅔㅁㅣㄴㅣ -8741
▁ㅋㅏㅇㅣㄹ -8742
▁ㅇㅑㄱㅈㅏ -8743
▁ㅈㅓㄴㄹㅏㄱ -8744
very -8745
ㅅㅜㅇㅇㅣ -8746
▁ㅈㅏㅇㅅㅓㅇ -8747
▁ㅇㅣㅇㅓㅈㅣㄴ -8748
▁ㄱㅗㅇㄷㅐ -8749
▁ㅍㅣㅇㅏ -8750
▁ㄹㅔㅈㅣ -8751
▁ㅇㅣㅁㄱㅣ -8752
▁ㄷㅏㄱㅏㅇㅗ -8753
▁ㅁㅜㅅㅣㄹ -8754
▁ㅇㅡㄴㅈㅣ -8755
▁sp -8756
▁ㄱㅘㄴㅇㅕ -8757
▁ㅎㅏㄴㅂㅏㄴㄷㅗ -8758
▁ㄱㅜㄹㅡ -8759
▁ㄷㅗㄲㅐㅂㅣ -8760
▁ㅋㅏㅋㅏㅇㅗ -8761
▁ㅂㅡㄹㅔㅇㅣㅋㅓ -8762
▁ㄹㅣㅋㅗ -8763
▁ㅆㅡㅇㅣㄴ -8764
▁ㅅㅓㄴㅈㅗ -8765
▁ㄱㅘㅇㄱㅣ -8766
ㅎㅡㄴ -8767
▁ㄱㅓㄹㅗㄴ -8768
▁ㅇㅏㄴㅌㅗㄴ -8769
▁ㅎㅏㅂㅏㄴ -8770
▁ㅇㅕㄴㅅㅙ -8771
▁ES -8772
▁ㅇㅟㄹㅗ -8773
▁ㅁㅔㄹㅣㅌㅡ -8774
▁ㅂㅕㄴㄷㅗㅇ -8775
▁ㄲㅣㅊㅣ -8776
▁ㅇㅗㄹㄹㅏㅇㅘ -8777
ㅊㅏㄱㅣ -8778
▁ㅇㅗㄴㅣ -8779
▁ㅊㅏㄹㅣ -8780
NA -8781
ex -8782
ung -8783
ㅇㅣㄴㅏ -8784
▁ㅅㅐㄴㄷㅡ -8785
▁ㅅㅣㄹㅣㅇㅏ -8786
▁ㅊㅗㅇㅎㅏㅂ -8787
▁ㅂㅗㄴㄱㅘㄴ -8788
▁ㅅㅡㅌㅔㅇㅣㅅㅕㄴ -8789
▁III -8790
▁ㅂㅣㅊㅜ -8791
▁ㅎㅏㄴㅊㅏㅇ -8792
▁ㅊㅣㄴㅈㅓㄹ -8793
▁ㄸㅏㅇㅂㅗㄹ -8794
▁ㄴㅗㄴㅁㅜㄴ -8795
▁ㅇㅏㅅㅡㅋㅏ -8796
▁ㄱㅚㄹㅗㅂㅎㅣ -8797
▁ㅇㅠㅌㅏㄴ -8798
▁ㅂㅏㄷㅜㄱ -8799
▁ㅂㅐㄱㅇㅓㅂ -8800
▁ㅅㅣㄷㅏㄹㄹㅣ -8801
▁ㅁㅗㅇㅡㅁ -8802
▁ㅇㅣㄴㄷㅣ -8803
▁ㅇㅝㅅㅣㅇㅌㅓㄴ -8804
ㄷㅐㅇㅝㄴ -8805
ㅌㅏㅇㅣㅂ -8806
▁ㅊㅗㄱㅅㅜ -8807
▁ㅎㅣㄹㅗㅅㅣ -8808
▁ㅇㅕㅇㅢ -8809
▁ㅎㅐㅇㅑㅇ -8810
▁ㄱㅡㄺ -8811
▁ㅎㅞㅅㅗㄴ -8812
▁ㅈㅓㄴㄱㅕㄱ -8813
▁ㅌㅗㅇㅛ -8814
▁UEFA -8815
▁ㄷㅐㅂㅏㄱ -8816
▁ㅇㅟㅇㅓㅁ -8817
▁ㅊㅣㄴㅎㅏ -8818
▁ㅅㅜㅂㅣㅅㅜ -8819
ㄸㅏ -8820
▁ㅇㅣㅈㅡ -8821
▁ㄷㅏㄴㅂㅏㄹ -8822
▁ㄱㅣㅅㅡ -8823
▁ㅎㅏㄱㅡㅂ -8824
▁ㅁㅕㅇㅁㅜㄴ -8825
▁ㅊㅜㄱㅅㅗ -8826
ㄷㅏㅂㅗ -8827
▁ㅈㅏㅇㅇㅐㅁㅜㄹ -8828
▁ㅇㅡㄹㅅㅜㄹㅗㄱ -8829
▁ㅁㅏㅅㅜㄹㅅㅏ -8830
▁ㄸㅡㄴㄷㅏ -8831
▁ㅍㅔㅇㅣㄴ -8832
▁ㅇㅣㄹㅓㄹ -8833
EM -8834
▁ㄴㅗㄹㄹ -8835
▁ㅇㅡㅇㅇㅛㅇ -8836
▁ㅇㅗㅇㅣ -8837
▁ㅁㅣㄴㅈㅜㅈㅜㅇㅢ -8838
▁ㅍㅡㄹㅣㅁㅣㅇㅓ -8839
▁ㅋㅡㄹㄹㅣㅂ -8840
▁ㅉㅗㅈ -8841
▁ㅎㅕㅇㅍㅕㄴ -8842
ㅅㅡㅌㅔㄹ -8843
▁ㅇㅓㅅㅐㄱ -8844
▁ㅂㅏㄱㅅㅏㄹㄴㅐ -8845
▁ㄴㅟ -8846
ㅋㅡㄹㅣㅁ -8847
▁ㅈㅐㅎㅏㄱ -8848
▁ㅅㅓㅇㅅㅣㄹ -8849
▁ㅈㅜㅇㅈㅣ -8850
▁ㅅㅣㄹㅗ -8851
▁ㅊㅟㅇㅓㅂ -8852
▁ㅅㅡㅌㅏㄷㅣㅇㅜㅁ -8853
ㄲㅔㄲㅣ -8854
▁ㅅㅜㅅㅜㄲㅔㄲㅣ -8855
▁ㄴㅐㄱㅔ -8856
▁ㄷㅗㄹㅇㅏㄱㅏㅆ -8857
▁ㅂㅣㅌㅡㄹ -8858
▁ㅅㅗㄴㅣ -8859
▁RA -8860
▁ㅇㅜㅎㅗ -8861
▁ㄱㅡㄹㅓㄷㅏㄱㅏ -8862
▁!" -8863
▁ㅅㅡㅇㅟㅅㅡ -8864
ll -8865
▁ㅅㅡㅈㅡ -8866
▁ㅇㅘㅇㅣㅂ -8867
▁ㅎㅓㅁㅜ -8868
▁ㄴㅏㄹㅇㅏ -8869
▁ㅅㅡㄹㅣ -8870
▁ㅇㅏㄴㅉㅗㄱ -8871
▁ㅇㅕㄱㄹㅑㅇ -8872
▁ㄱㅜㅅㅓㅇㅇㅝㄴ -8873
▁ㅇㅣㄴㅈㅐ -8874
▁ㄹㅏㄱㅏ -8875
▁ㅁㅔㅋㅏㄴ -8876
anc -8877
▁as -8878
▁ㅎㅘㄱㅅㅏㄴ -8879
▁ㅂㅏㄹㅡㅅㅔㄹ -8880
▁ㄷㅔㅂㅣㄹ -8881
▁ㅈㅣㅌ -8882
▁ㅂㅏㄹㅡㅅㅔㄹㄹㅗㄴㅏ -8883
▁ㅍㅡㄹㅔㅇㅣ -8884
▁ㅇㅣㅇㅓㅈㅕㅆ -8885
▁ㄱㅜㄴㅅㅜ -8886
▁ㅊㅏㅇㅁㅜㄴ -8887
ㅓㅁㅐㄴ -8888
AK -8889
▁ㅇㅜㅎㅚ -8890
▁ㅌㅡㅇㅟㄴㅅㅡ -8891
▁ㅈㅣㅇㅇㅕㄱ -8892
▁ㄴㅗㄹㅏㄴㅅㅐㄱ -8893
▁ㄱㅔㅁ -8894
▁ㅇㅣㅇㅇㅕ -8895
▁Windows -8896
▁ㅇㅠㅁㅏㅇㅈㅜ -8897
▁ㄱㅗㄴㅡㄴ -8898
▁ㄴㅗㄱㅏㄷㅏ -8899
▁ㅈㅔㅇㅘㅇ -8900
ㅟㄴㄷㅏ -8901
ㅍㅣㅅ -8902
▁ㅊㅗㅋㅗㄹㄹㅣㅅ -8903
▁ㅍㅔㄹㅣ -8904
▁ㅋㅣㅇㅝ -8905
▁ㅎㅐㅈㅣㄹ -8906
▁ㅇㅕㄱㅁㅕㅇ -8907
▁ㅁㅏㅇㅠ -8908
▁ㅁㅔㅋㅏㄴㅣㄱ -8909
ㅍㅗㄹㅡ -8910
ㅊㅔㅅㅡㅌㅓ -8911
▁ㅂㅣㄴㄷㅗ -8912
ㄴㅗㄹ -8913
ㅡㅇㄹㅕㄱ -8914
▁ㄱㅣㅅㅂㅏㄹ -8915
▁no -8916
▁ㄱㅗㅇㅌㅗㅇㅈㅓㅁ -8917
ㅇㅣㅍ -8918
▁ㄱㅏㅇㄷㅡㅇ -8919
▁ㅁㅛㅎㅏ -8920
▁ㅇㅟㄴㄷㅗㅇㅜ -8921
▁ㅇㅣㅎㅕㄴ -8922
▁ㅊㅓㄴㅇㅕㄴ -8923
▁ㅇㅝㄴㅍㅣㅅㅡ -8924
▁en -8925
▁ㄷㅐㅎㅐㅇ -8926
▁ㅇㅕㅌㅏ -8927
▁ㄱㅏㄹㅣㅋㅣ -8928
▁ㄱㅘㅈㅏ -8929
▁ㅌㅚㄱㅏㄱ -8930
▁ㅂㅜㄹㅆㅏㅇ -8931
▁ㄱㅕㅇㅅㅏㅇㅂㅜㄱㄷㅗ -8932
▁ㅌㅣㅅㅡ -8933
▁ㅇㅣㄴㅈㅏ -8934
▁ㅂㅏㄹㅎㅐㅇ -8935
▁ㄹㅓㅅㅣ -8936
▁ㄱㅜㄹㅇㅛㄱ -8937
ㄹㅣㅋㅗ -8938
▁ㅂㅜㅈㅏㄱㅇㅛㅇ -8939
ㅔㅁㅏ -8940
▁ㅇㅔㅇㅣㅈㅣ -8941
ㅂㅓㄹㅕ -8942
ㅡㄹㅏ -8943
▁ㄹㅏㄴㅅㅡ -8944
ㅏㄱㅏㄴ -8945
▁ㅂㅜㄴㅅㅏㄴ -8946
▁ㅇㅣㄹㅇㅓㄴㅏㄹ -8947
▁ㄴㅗㄹㄹㅏㄴ -8948
▁ㅎㅣㅂㅎㅏㅂ -8949
ㅁㅗㅌㅗ -8950
▁ㅊㅚㅅㅓㄴ -8951
▁ㄴㅜㄴㅊㅣㅊㅐ -8952
▁ㅂㅏㅇㅅㅏ -8953
▁ㅇㅠㄹㅛ -8954
▁ㄱㅜㄷㅗㄱ -8955
▁ㅂㅗㅇㅅㅙ -8956
▁ㄴㅗㅇㅈㅏㅇ -8957
ero -8958
▁ㄱㅣㅁㄱㅣ -8959
ㅈㅣㅁㅏㄱㅈㅣ -8960
▁ㅊㅏㅈㅇㅏㅇㅗㄴ -8961
▁ㅁㅜㅈㅣㅁㅏㄱㅈㅣ -8962
▁ㅇㅜㅅㅡㅇㅈㅏ -8963
▁ㄱㅏㅇㅁㅣㄴ -8964
35 -8965
argin -8966
▁ㄷㅐㄹㅕㅇ -8967
▁ㅌㅗㅇㅊㅣㅇ -8968
▁ㅅㅣㄴㅈㅜㅇ -8969
▁ㅅㅜㅇㅣㄴ -8970
▁ㄷㅐㅈㅓㅂ -8971
▁ㅈㅓㄴㄷㅏㅇ -8972
▁ㄱㅏㅇㅎㅗ -8973
ㅍㅡㄹㄹㅣㅇ -8974
▁ㅇㅢㅎㅐㅅㅓ -8975
▁ㅇㅜㅈㅡ -8976
▁ㅊㅟㄷㅡㄱ -8977
▁ㅇㅣㅂㅕㅇ -8978
▁ㄷㅡㄹㅐㄱㅗㄴㅂㅗㄹ -8979
▁ㅅㅡㅁㅣㅅㅡ -8980
▁ㄱㅘㄴㅇㅜ -8981
▁ㄷㅗㅇㅂㅏㄴ -8982
▁ㅌㅟㅇㄱㅕ -8983
ㄹㅐㅇ -8984
▁ㅁㅏㅇㅗ -8985
▁ㅇㅓㄴㅏ -8986
▁ㅊㅣㅇㅜ -8987
▁187 -8988
▁ㅅㅣㅅㅏㅇㅅㅣㄱ -8989
▁ㄹㅜㅍㅡ -8990
oss -8991
▁ㅂㅏㄹㅍㅏㄴ -8992
▁ㄷㅗㅇㅎㅐ -8993
▁ㄲㅐㅇㅓㄴㅏ -8994
▁ㅁㅏㅌㅡ -8995
▁ㅅㅏㄱㅘㄴ -8996
▁Ph -8997
▁So -8998
ㅔㄴㅊㅓ -8999
▁ㅇㅠㄱㅣ -9000
▁ㅇㅜㄷㅡ -9001
▁ㅍㅏㄷㅗ -9002
▁ㅇㅘㅇㅣㄴ -9003
▁Qu -9004
▁ㅅㅓㄱㅣ -9005
▁ㅎㅘㅅㅏㄴ -9006
▁LO -9007
▁ㅅㅓㅇㅆㅣ -9008
▁Station -9009
▁ㅂㅗㄴㅌㅗ -9010
ㅣㅇㅓㅂ -9011
▁ㅇㅓㅂㅔㄴ -9012
▁ㅇㅓㄷㅡㅂㅔㄴㅊㅓ -9013
▁ㅂㅏㄹㅋㅣㄹㅣ -9014
ㅂㅏㅇㅑ -9015
▁ㄷㅔㄴㅁㅏ -9016
▁ㄹㅗㅁㅐㄴ -9017
▁ㅇㅏㅇㅜㄹ -9018
▁ㅊㅓㄴㅊㅓㄴ -9019
▁ㄱㅠㅈㅔ -9020
▁ㅋㅡㄹㄹㅏㅇㅜ -9021
▁ㄱㅜㄱㅁㅜ -9022
▁ㄹㅔㅇㅣㅇㅓ -9023
ㅊㅏㄹㅗ -9024
▁ㅅㅗㄴㄴㅣㅁ -9025
▁ㅇㅞㅅㅡㅌㅡ -9026
ㄷㅗㅇㅈㅏ -9027
▁margin -9028
▁ㅇㅗㅅㅡㅁㅏㄴ -9029
ㅎㅏㅁㅏ -9030
▁ㅊㅐㅁㅍㅡ -9031
▁ㅈㅣㄴㅇㅔ -9032
▁ㅎㅣㄴ -9033
▁ㄱㅕㄹㅎㅗㄴㅅㅣㄱ -9034
▁ㄱㅡㅂㅎㅐㅇ -9035
▁ㄴㅓㅁㅇㅓㅇ -9036
▁ㄴㅏㅅㅓㅆ -9037
▁ㅎㅡㄴㅎㅏ -9038
▁ㄱㅗㅇㅅㅏㄴㄷㅏㅇ -9039
▁ㅈㅜㅇㄱㅗ -9040
▁ㅅㅣㄴㄷㅗㅇ -9041
▁ㅈㅏㄴㅇㅣㄴ -9042
▁ML -9043
▁ㅊㅡㅂㅏ -9044
▁135 -9045
▁ㅁㅓㅇㅊㅓㅇ -9046
▁ㅂㅣㅇㅍㅏㄴ -9047
ㅋㅏㅇㅣㄷㅗ -9048
99 -9049
▁ㄱㅏㅇㄱㅏㄴ -9050
▁ㄱㅗㅇㄷㅏㄴ -9051
▁ㄷㅐㅈㅓㄴㅊㅏ -9052
▁ㅁㅣㅁㅣ -9053
ㅅㅏㄴㅅㅣ -9054
▁ㅎㅜㄷㅡ -9055
▁ㄴㅏㅃㅏ -9056
ㄹㅕㅇㅑ -9057
▁ㄱㅏㄴㅏㄴ -9058
▁ㅋㅣㄹㅡㄹ -9059
▁ㅅㅏㅈㅗㄱ -9060
pt -9061
▁ㅅㅙ -9062
▁ㅍㅕㅇㅇㅑㅇ -9063
ㅂㅣㅊㅣ -9064
▁ㅇㅣㄷㅐㄹㅗ -9065
▁ㅇㅠㅊㅣ -9066
▁210 -9067
ㄲㅓㅇ -9068
ㄹㅔㄱㅅㅕㄴ -9069
▁121 -9070
▁ㅍㅛㅈㅓㄹ -9071
ㅇㅡㄹㅗ -9072
▁ㄷㅡㄹㅇㅕ -9073
▁ㅇㅏㅋㅏㄴ -9074
▁ㄷㅡㅁㅜㄴ -9075
▁ㅅㅗㄴㄲㅗㅂ -9076
ise -9077
▁ㅈㅜㄴㄷㅏㄴㅡㄴ -9078
▁ㅈㅜㅅㅏㅇㅟ -9079
▁ㄱㅓㄴㄷㅔ -9080
▁ㄱㅓㅁㅇㅕㄹ -9081
▁ㄹㅔㅇㅣㄷㅣ -9082
▁ㅁㅏㄹㅏ -9083
▁ㄴㅓㅁㅓ -9084
▁ㅊㅜㄹㅣ -9085
▁ㅌㅓㄹㄹㅣ -9086
▁ㅊㅡㄴ -9087
▁ㅎㅘㅇㅎㅜ -9088
▁ㄷㅐㅈㅗ -9089
▁ㄷㅡㄹㅐ -9090
ㄱㅡ -9091
▁ㅇㅕㅍㅗ -9092
▁ㅋㅏㄹㅣㅅㅡ -9093
▁ㅊㅏㅈㅇㅏㄴㅐ -9094
▁ㅅㅡㅋㅔㅇㅣㄹ -9095
▁ㅌㅏㅊㅣ -9096
▁ㅇㅣㅅㅜㄴ -9097
▁ㅊㅣㅇㅎㅏ -9098
▁ㄹㅏㅇㅜ -9099
▁ㅇㅖㅇㅑㄱ -9100
ical -9101
▁ㄱㅕㅇㅇㅕㄴ -9102
▁ㅉㅗㄹ -9103
▁ㅊㅣㅁㅌㅜ -9104
▁ㅅㅗㅈㅐㅈㅣ -9105
ㅣㅂㅡㄴ -9106
ㄱㅗㄴ -9107
▁107 -9108
▁ㅅㅓㄴㅊㅜㄹ -9109
▁ㅁㅣㅇㅗ -9110
▁ㅁㅟㄴ -9111
▁ㄱㅐㅊㅓㄱ -9112
▁ㅂㅡㄹㄹㅣㅈㅏㄷㅡ -9113
▁ㅇㅗㄴㄷㅗ -9114
▁ㅁㅗㄱㄱㅓㄹㅇㅣ -9115
▁ㅊㅓㄴㅊㅓㄴㅎㅣ -9116
▁ㄱㅔㅇㅣㅁㅓ -9117
▁ㅌㅡㄱㅎㅜㄴ -9118
▁ㅇㅣㄹㅏㅋㅡ -9119
▁ㄴㅏㄹㅡ -9120
ㅌㅔㅇㅣㄹ -9121
ㅅㅕㄴㅓㄹ -9122
▁ㅅㅡㅌㅐㄱ -9123
ㅣㅇㅓㄴㅅㅡ -9124
▁ㄴㅓㅁㅇㅓㄱㅏㅆ -9125
▁Ver -9126
▁ㅅㅡㅌㅏㄹㅣㄱㅡ -9127
▁ㅍㅔㅇㅓ -9128
▁ㄱㅕㅂㅊㅕ -9129
▁ㅇㅏㄴㅌㅏㄲ -9130
▁ㄴㅏㄴㅁㅜ -9131
▁ㅂㅐㄷㅡ -9132
▁ㅅㅜㅈㅣ -9133
▁ㅁㅣㄱㅜㄱㅇㅣㄴ -9134
▁ㅈㅜㅊㅔ -9135
▁ㅋㅔㅂㅣㄴ -9136
▁ㅇㅢㅇㅚㄹㅗ -9137
▁ㅇㅚㄴㅅㅗㄴ -9138
▁ㅇㅕㄹㅎㅕㄹ -9139
▁1981 -9140
▁ㅇㅕㅅㅓㅅ -9141
▁-- -9142
ㄱㅗㅇㅎㅏㅇ -9143
▁ㄱㅏㅇㄱㅕㅇ -9144
▁ㄲㅡㄶㅇㅣㅁㅇㅓㅄㅇㅣ -9145
▁ㅅㅣㅇㅚㅂㅓㅅㅡ -9146
ㅌㅜㅁ -9147
ㅇㅕㅇㅑ -9148
▁ㅍㅔㅇㅓㄹㅣ -9149
▁ㄴㅏㄴㅏ -9150
▁ㅇㅝㅋㅡ -9151
▁ㅅㅏㅊㅔ -9152
▁ㅂㅕㄴㅇㅣ -9153
▁ㅂㅔㅇㅣㄴ -9154
▁ㄴㅏㄹㅇㅏㄱ -9155
▁MG -9156
▁ㄸㅢㅇㅜ -9157
ㅓㅄ -9158
▁ㅇㅔㄴㅌㅡㄹㅣ -9159
▁ㅇㅣㅈㅜ -9160
▁ㅇㅣㄴㅊㅣㅇ -9161
▁ㅁㅏㅈㅂㅜㅌ -9162
▁ㅍㅐㅈㅏ -9163
▁ㅂㅔㅇㅣㄹ -9164
▁ㅅㅗㅌㅗㅇ -9165
▁ㅈㅗㅈㅗㅇㅅㅏ -9166
▁ㅂㅏㄱㅅㅓㅇ -9167
▁ㄱㅏㅁㅌㅏㄴ -9168
▁ㄱㅗㅁㅜ -9169
▁ㄱㅘㅇㅁㅜㄹ -9170
▁ㄲㅡㄹㅇㅓㄷㅡㄹ -9171
▁ㅁㅕㅇㅂㅜㄴ -9172
ㅁㅗㅎㅏㅁ -9173
▁ㅈㅏㅇㅠㄹ -9174
▁ㅇㅓㄴㅏㄷㅓ -9175
ㄷㅜㅁ -9176
▁ㅂㅜㅈㅐ -9177
▁ㄱㅡㄹㅔㅇㅣㅌㅡ -9178
▁ㅈㅔㅈㅐ -9179
▁ㅅㅏㄹㅗ -9180
▁ㅂㅗㄴㄷㅏㅁㅕㄴ -9181
▁ㅈㅜㄱㅘㄴ -9182
▁ㅇㅝㅍㅡ -9183
ㅏㅇㅗㄴ -9184
▁ㅊㅏㄱㅎㅏㄴ -9185
▁pl -9186
▁ㅁㅓㄴㅣ -9187
▁ㄷㅏㅂㄷㅏㅂ -9188
▁ㄱㅜㅂ -9189
▁ㄹㅣㅍㅓ -9190
▁ㅈㅜㅇㄱㅓㄹㅣ -9191
ign -9192
ㄹㅜㅅㅕㄴ -9193
ㅎㅏㄹㅜ -9194
▁ㅈㅓㅁㄱㅓㅁ -9195
▁ㅊㅡㅋㅏ -9196
▁ㅎㅕㄹㅌㅗㅇ -9197
ㅎㅔㄹ -9198
▁ㅉㅏㄴ -9199
▁ㅂㅕㄴㅎㅏㄴ -9200
ㅍㅏㅇㅣ -9201
▁ㅂㅏㄹㅏㅂ -9202
▁ㅇㅏㅂㄱㅝㄴ -9203
▁ㅅㅏㅅㅜ -9204
▁ㅅㅡㅌㅣㅂㅡㄴ -9205
▁ㅍㅓㅅㅡㅌㅡ -9206
▁ㅇㅡㄹㅏㄱㅗ -9207
ㅏㅇㅜㅌㅡ -9208
▁ㅈㅡㄹㄱㅕ -9209
▁ㅅㅗㄱㅡㅁ -9210
ㅈㅏㅊㅣ -9211
gh -9212
▁ㅊㅓㅅㅉㅐ -9213
▁ㅁㅜㅇㅛㅇ -9214
▁ㅅㅓㄴㅈㅣㄴ -9215
▁ㅍㅡㄹㅗㄱㅔㅇㅣㅁㅓ -9216
▁ㄱㅜㄹㄹㅣ -9217
▁ㅈㅏㅈㅗㄴ -9218
▁ㅊㅓㅎㅏ -9219
▁ㄴㅐㅇㅈㅓㅇ -9220
▁ㅌㅡㅇㅟㅅ -9221
▁ㄱㅛㅌㅗ -9222
▁ㅁㅗㄷㅔㄹㄹㅣㅇ -9223
▁ㄱㅕㅇㅊㅏㄹㅅㅓ -9224
▁ㄹㅏㄱㅡㄴㅏ -9225
▁ㅇㅡㄹㅕㄴㅡㄴ -9226
▁ㅇㅏㅍㅡㄴ -9227
▁ㅇㅓㅁㅇㅕㄴㅎㅣ -9228
▁ㅇㅣㄹㅏㄷㅗ -9229
▁ㅅㅡㅋㅓㄹ -9230
▁ㄹㅣㅁㅗ -9231
▁ㅁㅣㅈㅓㅇ -9232
▁love -9233
▁ㄱㅏㄹㅡㅊㅣ -9234
▁ㅈㅓㅁㅇㅠ -9235
▁ㄷㅡㄹㅓㄴㅏㄴㄷㅏ -9236
▁ㄱㅣㅁㅅㅡㅇ -9237
▁ㅊㅓㄹㄱㅏㅂ -9238
ㅋㅣㅅㅡ -9239
▁ㅈㅔㄴㅗ -9240
▁ㅉㅡ -9241
▁EC -9242
▁ㅇㅣㅇㅣ -9243
▁ㅊㅜㄹㄱㅏㄴ -9244
▁ㄹㅔㅇㅣㄴㅈㅣ -9245
▁ㅍㅕㅇㄹㅗㄴ -9246
ㅊㅡㅇㅑ -9247
ㅣㅅㅣ -9248
▁ㅅㅏㅇㅣㄹ -9249
▁ㅎㅐㅅㅏㄴ -9250
ㅅㅅㅗㄱ -9251
▁ㄱㅗㅇㄱㅕㄱㅅㅜ -9252
▁ㄷㅗㄹㅣ -9253
▁ㅇㅕㄹㄹㅕㅆ -9254
ㅌㅏㅋㅏ -9255
▁ㅎㅔㅅㄱㅏㄹ -9256
▁ㅇㅣㅍ -9257
▁ㅅㅓㅅㅣㄱ -9258
▁ㅎㅔㅇ -9259
▁ㅎㅡㄺ -9260
▁ㅇㅗㅈㅜㄱ -9261
▁ㅎㅗㅅ -9262
▁ㅈㅜㅇㅇㅟ -9263
▁ㅇㅣㅁㅇㅢ -9264
IR -9265
ㅔㅅㅣㅇㅏ -9266
▁ㄱㅜㅂㅕㄹ -9267
▁ㅁㅣㅈㅣ -9268
▁ㅂㅕㄴㅎㅐ -9269
▁ㅅㅗㄴㅅㅟㅂ -9270
▁TR -9271
▁ㄱㅏㅁㅆㅏ -9272
▁ㅁㅏㅇㅌㅗ -9273
▁ㅍㅗㄱㄱㅕㄱㄱㅣ -9274
▁ㅈㅣㅅㅜ -9275
▁ㅅㅡㄹㅓㄴ -9276
▁ㅁㅐㅇㅅㅔ -9277
ail -9278
ㄱㅕㅇㄱㅣ -9279
urn -9280
ㅌㅜㄹ -9281
▁ㄹㅓㅅㅡ -9282
▁ㅊㅣㄴㅂㅜㄴ -9283
▁ㅈㅜㅇㄷㅗㅇ -9284
▁ㅇㅕㄴㅅㅏㄴ -9285
ㅌㅡㄹㅗㄴ -9286
▁ㅂㅗㅈㅘ -9287
▁math -9288
▁ㅇㅚㄱㅘㄱ -9289
▁ㅍㅔㅅㅡ -9290
▁ㅇㅏㄴㅑ -9291
▁Sk -9292
▁ㄹㅏㅇㅣㅈㅡ -9293
▁ㄹㅣㄹㅏ -9294
▁ㅂㅜㅌㅇㅣㄴ -9295
▁ㅈㅜㅊㅚ -9296
▁ㅇㅛㅇㅈㅏ -9297
▁ㅅㅣㅅㅏ -9298
▁ㅇㅙㄴㅑㅎㅏㅁㅕㄴ -9299
▁ㅂㅗㄴㄴㅡㅇ -9300
ㅓㅇㅇㅣ -9301
▁ㅇㅓㅉㅐㅅㅓ -9302
▁ㅈㅣㄹㅅㅓ -9303
▁ㅇㅕㄹㅈㅓㅇ -9304
▁ㅇㅗㄹㄷㅡ -9305
▁ㅍㅜㅇㅂㅜ -9306
▁ㄱㅗㅅㅏ -9307
▁ㅎㅘㅅㅏㅇ -9308
▁ㅈㅓㅇㅎㅐㅈㅣㄴ -9309
▁186 -9310
▁ㅆㅣㅇㅏ -9311
▁ㅈㅐㄱㅐ -9312
▁ㄱㅗㅈㅣㅂ -9313
▁JTBC -9314
▁ㅇㅖㅃㅡ -9315
▁ㄴㅏㅂㄷㅡㄱ -9316
ence -9317
▁ㅂㅏㄹㄹㅣ -9318
▁ㅇㅕㅇㄱㅏㅁ -9319
▁ㄱㅡㄹㅡㅅ -9320
▁ㅅㅟㄹㄷㅡ -9321
▁ㄷㅗㅇㅈㅓㅇ -9322
▁ㄷㅏㄴㅣㄹ -9323
▁ㄱㅜㄴㅇㅛ -9324
▁ㅎㅏㄴㅏㅎㅏㄴㅏ -9325
▁To -9326
ㄱㅓㅈㅣ -9327
▁ㅂㅜㄹㄴㅡㅇ -9328
▁ㅇㅠㄴㅣㅂㅓㅅㅡ -9329
▁ㄷㅗㅇㅓ -9330
▁ㄱㅜㅅㅏㅇ -9331
▁ㄱㅏㅈㅕㄷㅏ -9332
▁ㅂㅏㅇㅣㅇㅗㄹ -9333
▁ㅎㅏㅇㄱㅗㅇㅁㅗㅎㅏㅁ -9334
▁ㄹㅗㄹㄹㅓ -9335
▁ㅍㅕㅇㅅㅏㅇ -9336
ㅊㅜㅇㅓ -9337
▁ㅇㅠㅇㅣㅂ -9338
▁ㅋㅡㄹㅐㅍㅡㅌㅡ -9339
VER -9340
▁=" -9341
▁ㅇㅗㄴㅗ -9342
▁ㅁㅏㅇㅣㄴㄷㅡ -9343
ㅂㅡㄹㅣ -9344
▁ㅅㅏㅌㅚ -9345
▁ㅅㅏㅁㅜㅅㅣㄹ -9346
▁Super -9347
▁ㅅㅣㄹㅅㅏ -9348
▁ㅂㅕㄴㅈㅏㅇ -9349
ㅡㅇㅞㅇㅣ -9350
▁ㅇㅜㅇㅜㄹ -9351
▁ㅌㅡㄹㅣㄹ -9352
▁ㄲㅗㅂㅎㅣ -9353
▁ㅅㅡㅍㅗㄴㅅㅓ -9354
▁ㄱㅗㅅㅗㄱㄷㅗㄹㅗ -9355
▁122 -9356
▁ㅇㅗㅍ -9357
▁ㄱㅗㅇㅅㅗㄱ -9358
▁ㅊㅗㄴㅡㅇㄹㅕㄱ -9359
▁ㅈㅣㅂㅜ -9360
▁ㅇㅝㅁ -9361
▁ㄱㅘㅇㄱㅕㅇ -9362
▁ㅁㅜㅈㅣ -9363
▁ㅍㅣㅋㅏ -9364
▁ㅊㅏㄴㅅㅓㅇ -9365
▁ㅈㅓㅇㅅㅣㄴㄹㅕㄱ -9366
▁BJ -9367
▁ㅋㅏㅊㅡ -9368
▁ㅎㅘㅎㅐ -9369
▁ㅈㅏㄱㅈㅓㅇ -9370
▁ㅅㅐㅇㄱㅣㅁ -9371
ㅣㅁㅏ -9372
▁ㄷㅏㄲ -9373
▁ㄱㅘㅇㅁㅕㅇ -9374
▁ㅂㅏㅇㅅㅏㄴ -9375
▁ㅎㅘㄱㅅㅣㄴ -9376
▁ㅇㅓㅅㅓㄹ -9377
▁ㅌㅗㅈㅣ -9378
▁ㅎㅐㅈㅕ -9379
▁ㅇㅠㅇㅕㄴ -9380
▁ㄱㅡㅊㅣ -9381
▁ㅍㅡㄹㅏㅇㅅㅡㅇㅓ -9382
▁ㅈㅏㄴㅔ -9383
▁ㅇㅗㄹㅂㅏㄹ -9384
▁ㅈㅕㄴ -9385
▁ㄱㅜㄱㅈㅔㄱㅗㅇㅎㅏㅇ -9386
ㄱㅏㄷㅡ -9387
▁ㅇㅣㅈㅎㅕ -9388
▁Dream -9389
▁ㄱㅏㅈㅣㄴㄷㅏ -9390
▁ㅇㅜㅁㅈㅣㄱㅇㅣㄹ -9391
▁ㄱㅓㅁㅈㅓㅇ -9392
▁ㅇㅏㄴㅣㄹㄲㅏ -9393
▁ㅎㅣㅌㅡㄹㄹㅓ -9394
▁ㄱㅐㄱㅛ -9395
▁ㅁㅣㄹㅓ -9396
▁ㅁㅓㅅㄷㅐㄹㅗ -9397
ㄷㅗㅇㅕㄱ -9398
▁ㅍㅡㄹㄹㅣ -9399
▁ㅇㅔㄹㄹㅣㅂ -9400
▁ㅇㅔㄹㄹㅣㅂㅔㅇㅣㅌㅓ -9401
▁ㅇㅔㄷㅣㅅㅕㄴ -9402
▁ㄷㅏㅇㅣㅇㅏ -9403
▁ㅁㅗㅁㅌㅗㅇ -9404
▁ㅇㅕㅆㅇㅡㅁ -9405
▁ㅇㅣㄴㅂㅔㄴ -9406
▁ㅅㅏㅁㅅㅓㅇㅈㅓㄴㅈㅏ -9407
▁ㄱㅡㄴㄷㅐ -9408
▁ㅌㅏㄱㅜ -9409
▁ㄱㅣㅂㅗㄴㄱㅣ -9410
▁ㅇㅐㅊㅣㅇ -9411
▁ㅈㅜㅇㅈㅓㅁ -9412
▁ㄱㅡㄱㄷㅐ -9413
▁LE -9414
ㄴㅜㄴ -9415
▁ㅈㅏㅇㄹㅖ -9416
▁ㅇㅘㅅ -9417
▁1979 -9418
▁ㄱㅡㄹㅔ -9419
▁ㅊㅜㄹㅂㅓㅁ -9420
▁ㅊㅏㅈㅇㅏㅂㅗㄹ -9421
▁ㅂㅓㅂㅅㅏ -9422
▁ㄸㅏㅇㅘㅆ -9423
▁ㄹㅣㄴㅏ -9424
▁ㅅㅠㅍㅓㅁㅐㄴ -9425
▁ㅌㅜㄴ -9426
ㅁㅔㅅ -9427
▁ㅎㅏㄹㄹㅗㅇ -9428
ier -9429
▁ㅂㅕㄴㅁㅕㅇ -9430
▁ㄱㅣㅁㅇㅠ -9431
▁ㅊㅔㄱㅕㄹ -9432
▁ㅇㅗㄹㄹㅏㄱㅏㄹ -9433
▁ㅈㅣㅇㅗ -9434
▁ㅊㅗㅇㅈㅏㅇ -9435
▁ㄹㅣㅌㅡㄹ -9436
▁ㅇㅝㄴㅅㅜㅇㅇㅣ -9437
ㅂㅔㅅ -9438
ㅈㅝ -9439
▁ㅂㅕㄴㅎㅐㅆ -9440
▁ㅃㅏㅈㅕㄴㅏㄱㅏ -9441
▁can -9442
▁ㅋㅗㅌㅗ -9443
▁EXP -9444
ㅅㅁㅏㄹ -9445
▁ㅅㅡㅌㅡㄹㅣㅁ -9446
ㄱㅛㅇ -9447
▁145 -9448
▁ㅌㅜㅈㅐㅇ -9449
▁ㅇㅏㄴㅌㅏㄲㅏㅂ -9450
▁ㅇㅗㅋ -9451
▁ㅇㅣㅇㅜㅅ -9452
▁ㄱㅗㄱㅇㅣㄴ -9453
▁ㅇㅠㅊㅣㅇㅝㄴ -9454
▁ㅁㅣㄴㅏㅁ -9455
▁ㅁㅣㄴㄱㅜㄱ -9456
▁ㅊㅜㄹㅅㅏㄴ -9457
ble -9458
▁ㅁㅏㄴㄴㅡㅇ -9459
▁ㅈㅏㅁㄷㅡㄹ -9460
▁ㄴㅗㅁㅜ -9461
▁ㅇㅣㅇㅓㅂㅏㄷ -9462
▁ㅂㅜㄱㅡㄴ -9463
▁ㅁㅗㅇㅣㅁ -9464
▁ㄷㅗㄹㅇㅏㄱㅏㄴㄷㅏ -9465
▁ㄷㅗㅅㅐㄱ -9466
▁ㅇㅠㄱㅕㄱㅅㅜ -9467
▁ㅅㅡㄹㅍㅡㅁ -9468
▁ㅅㅗㄱㅎㅏㄴ -9469
▁ㄷㅓㄹㅓㅂ -9470
▁ㅅㅣㄹㅎㅕㄴ -9471
▁ㅂㅓㅌㅣㄹ -9472
▁ㅂㅡㄹㄹㅓㄱ -9473
IX -9474
▁ㅅㅣㅀㅇㅓㅎㅏ -9475
▁ㅊㅏㅇㅈㅏㄱㅁㅜㄹ -9476
▁ㅁㅜㅈㅔ -9477
oun -9478
▁ㅈㅐㅇㅏㅇ -9479
▁ㅊㅕㄷㅗ -9480
▁ㅌㅔㅇㅣㅂㅡㄹ -9481
▁ㅂㅡㄹㅏㄷㅓㅅㅡ -9482
▁ㅇㅏㅊㅓ -9483
ㄷㅓㅁㅐㄴ -9484
▁ㄱㅐㄹㄹㅓ -9485
▁ㅈㅏㅈㅔ -9486
▁NO -9487
▁ㄱㅣㄹㅡ -9488
▁ㅇㅔㄹㅡ -9489
▁ㅎㅔㄹㅁㅔㅅ -9490
▁ㅂㅜㅊㅓㄴ -9491
▁ㅂㅏㅇㅅㅣㅁ -9492
▁113 -9493
▁ㄲㅣㅇㅓ -9494
▁ㅎㅜㅇㅣㄹ -9495
▁ㅁㅜㅅㅣㄹㅈㅓㅁ -9496
▁ㅋㅣㄹㅏ -9497
▁ㅁㅐㅈㅜ -9498
▁ㅎㅏㄱㄱㅡㅂ -9499
▁ㄹㅣㅂㅗㄴ -9500
▁ㅇㅏㅁㅎㅗ -9501
▁ㅂㅡㄹㅏㅇㅣㅇㅓㄴ -9502
▁ㅆㅓㄷㅗ -9503
▁IM -9504
▁ㅇㅑㄹ -9505
▁ㅋㅡㄹㅏㅇㅣ -9506
▁ㅌㅠㅂㅓ -9507
▁Ap -9508
▁ㄱㅗㄷㅡㅇㅎㅏㄱㅅㅐㅇ -9509
▁ㅊㅚㅈㅓ -9510
▁ㅆㅣㅇㅏㅅ -9511
▁ㅊㅓㄹㅈㅓㅎㅣ -9512
ㅎㅠㅇ -9513
▁ㄱㅓㅁㅈㅡㅇ -9514
▁ㅈㅗㅋㅏ -9515
▁ㅍㅜㅇㅅㅓㄴ -9516
▁165 -9517
iver -9518
▁ㅁㅏㅈㅊㅝㅅㅓ -9519
▁1950 -9520
▁ㅅㅏㅆ -9521
▁ㄲㅐㅈㅣ -9522
ㅃㅏㄱ -9523
▁ㅇㅓㅇㅁㅏㅇ -9524
▁ㅇㅘㅇㅂㅗㄱ -9525
▁ㅎㅏㄴㄷㅏㅁㅕ -9526
▁ㅂㅏㅊㅣ -9527
▁ㅋㅗㄴㅗ -9528
ㄱㅗㅅㅗㄱ -9529
▁ㄴㅣㄷㅏ -9530
▁ㅌㅐㅇㅜ -9531
▁ㅇㅕㄲㅇㅣ -9532
▁ㅁㅗㄹㅅㅏㄹ -9533
▁ㅎㅏㅇㅁㅗ -9534
ott -9535
ㅈㅜㄱㅛ -9536
▁ㄱㅏㄱㅇㅣㄴ -9537
▁ㄱㅡㄹㅓㅁㅕㄴ -9538
▁ㅇㅣㄴㅈㅓㅂ -9539
▁ㅍㅗㅌㅏㄹ -9540
▁ㄱㅡㄹㅆㅣ -9541
ㅍㅗㅇ -9542
▁ㅎㅗㄹㅓ -9543
▁IT -9544
▁ㄹㅣㄱㅏ -9545
▁144 -9546
▁ㅋㅔㅇㅣㅋㅡ -9547
▁ㅇㅗㄱㅅㅏㅇ -9548
ㅂㅏㅁ -9549
▁ㅍㅓㅁ -9550
ㅑㅁ -9551
ㅌㅡㄹㄹㅐㄴㄷㅡ -9552
▁ㅅㅏㅇㅕㄴ -9553
▁ㅂㅕㅇㅇㅕㄱ -9554
▁ㅇㅓㅁㅁㅣㄹㅎㅣ -9555
▁ㅇㅣㄴㅅㅓㅇ -9556
▁ㄴㅗㄹㄹㅏㅇㅜㄴ -9557
▁155 -9558
▁ㅇㅜㄴㅅㅗㅇ -9559
ㅏㄱㅜㄴ -9560
▁ㅇㅔㄷㅡㅇ -9561
ㄹㅏㅅㅡ -9562
▁ㅂㅏㅌ -9563
▁ㅇㅠㅇㅜㅋㅣ -9564
▁ㅂㅓㅇㅋㅓ -9565
▁ㄹㅔㅇㅣㅂㅡㄹ -9566
▁ㅈㅓㄹㅊㅣㄴ -9567
▁ATK -9568
▁ㄷㅜㄹㅕㅇㅝ -9569
▁at -9570
▁ㄱㅣㅁㅌㅐ -9571
▁ㅇㅣㅀㅇㅓㅂㅓㄹㅣㄴ -9572
ㅌㅔㅇㅣㅅㅕㄴ -9573
▁ㅍㅖㄱㅣ -9574
▁ㅋㅜㄷㅔ -9575
▁ㅎㅘㅍㅖ -9576
▁ㄱㅏㄴㅅㅓㅂ -9577
▁ㅅㅡㅂㄴㅣㄲㅏ -9578
▁ㅇㅏㅁㅏㅈㅗㄴ -9579
▁ㅅㅡㅌㅡㄹㅗ -9580
▁CM -9581
▁ㅅㅏㅇㅁㅜ -9582
ㅗㅇㅑ -9583
ㅗㅇㅏ -9584
▁ㅇㅏㅁㅜㅌㅡㄴ -9585
▁ㅈㅚㅊㅐㄱ -9586
▁ㅌㅗㅇㅉㅐ -9587
▁ㅁㅏㄷㅏㅇ -9588
▁ㅅㅡㅇㅇㅣㄴ -9589
▁ㅈㅗㄱㅜㄱ -9590
ㅏㄴㅣ -9591
▁ㅋㅏㅋㅜ -9592
▁ㄷㅗㅇㅈㅓㄴ -9593
▁ㅍㅜㅁㅈㅣㄹ -9594
▁ㅅㅏㄹㅗㅈㅏㅂ -9595
▁ㅂㅗㄱㅅㅏ -9596
▁ㅎㅕㄴㄱㅡㅁ -9597
▁ㅁㅕㅇㅅㅏ -9598
▁ㅁㅜㅈㅣㄱ -9599
eah -9600
▁ㅅㅡㅇㅊㅏ -9601
▁ㅉㅣㄹㄹㅓ -9602
uck -9603
▁ㅂㅏㅇㅎㅏㄱ -9604
▁ㅇㅕㄴㅈㅓㄴ -9605
▁ㅍㅣㄹㅗ -9606
▁ㅁㅏㅇㅎㅏ -9607
▁Max -9608
▁ㅇㅕㅇㅇㅑㅇ -9609
ㅈㅣㄴㅎㅗ -9610
▁114 -9611
▁ㅁㅏㅇㅡㅁㄷㅐㄹㅗ -9612
▁ㅋㅗㅁㅂㅣ -9613
▁ㄹㅟ -9614
ㅍㅗㄱㅌㅏㄴ -9615
▁ㅌㅓㅂㅗ -9616
▁ㅇㅣㄹㄱㅗㅂ -9617
▁ㅁㅗㄱㅅㅏ -9618
▁ㄷㅗㄱㅇㅣㄹㅇㅓ -9619
▁ㄱㅣㅁㅎㅐ -9620
▁ㄱㅓㅈㅣ -9621
▁ㄴㅏㅊ -9622
▁ㅇㅠㅈㅐㅅㅓㄱ -9623
▁ㅊㅓㄴㅈㅏㅇ -9624
▁ㅅㅏㅇㄱㅡㅁ -9625
▁BD -9626
ode -9627
▁ㅇㅣㅂㅁㅜㄴ -9628
▁ㅂㅔㄴㅊㅣ -9629
▁ㄱㅣㅍㅇㅣ -9630
▁ㅇㅑㅇㅅㅣㄱ -9631
▁ㅎㅏㅁㄹㅏㄱ -9632
▁ERA -9633
ㅏㅇㅣㅈㅡ -9634
▁ㅈㅣㅂㅎㅚ -9635
▁ㅈㅚㅊㅐㄱㄱㅏㅁ -9636
II -9637
▁ㅅㅡㄴㅏㅇㅣㅍㅓ -9638
oh -9639
▁this -9640
▁ㅇㅝㄴㅈㅓㄴ -9641
▁ㅂㅐㅇㅜㄴ -9642
ㄸㅏㄴ -9643
▁ㅋㅔㅇ -9644
▁ㅇㅣㄴㅗㅁ -9645
▁ㅎㅕㄴㅈㅏ -9646
▁ㅁㅟㄴㅎㅔㄴ -9647
▁ㅂㅐㅇㄱㅏㄷㅡ -9648
ㅋㅗㅌㅡ -9649
▁ㅂㅓㄹㅇㅣㄴ -9650
▁ㅅㅡㅍㅡ -9651
▁ㅅㅣㅋㅡㄹㅣㅅ -9652
▁ㄱㅗㅊㅕ -9653
▁ㅅㅜㅇㅟ -9654
▁ㄴㅓㅅㅡ -9655
▁ㄴㅏㅇㅣㄴ -9656
ㅏㄴㅣㅇㅏ -9657
▁ㄱㅚㄹㅗㅇ -9658
▁ㄷㅏㅋㅠ -9659
▁ㄱㅣㄷㅗㅇㄹㅕㄱ -9660
ㅏㅇㅑㅁㅏ -9661
▁ㅅㅗㄴㅈㅏ -9662
▁ㅎㅕㄱㅅㅣㄴ -9663
▁ㄷㅣㅇㅗ -9664
▁ㅅㅡㅇㅈㅣㄴ -9665
▁ㅁㅜㄱㅓㅇㅜㄴ -9666
ㅡㄴㅣ -9667
▁ㅎㅗㅇㅢ -9668
▁ㅎㅗㄷㅡ -9669
ㅂㅐㅅ -9670
▁ㄷㅏㄱㅓㄴㅏ -9671
▁ㅁㅗㅇㅡㄴ -9672
▁ㅇㅣㅌㅡㄹ -9673
▁ㅊㅗㄹㅗㄱㅅㅐㄱ -9674
ㅇㅕㄱㅅㅏ -9675
▁ㅅㅡㅌㅣㅂㅡ -9676
▁ㅇㅏㅋㅜㅇㅏ -9677
▁ㅇㅛㅇㅇㅏㅁ -9678
▁ㅌㅗㄷㅐ -9679
▁ㄱㅐㄱㅜㄹㅣ -9680
▁ㅅㅓㅇㄱㅕㅇ -9681
▁ㅅㅏㄹㅣ -9682
▁ㅅㅡㅋㅏㅇㅜㅌㅡ -9683
▁ㅎㅏㄹㄹㅗㅇㅟㄴ -9684
▁ㅂㅏㄺㅎㅕㅈㅣㄴㄷㅏ -9685
ㅅㅂㅜㄹ -9686
▁ㅇㅝㄴㅅㅣ -9687
ㅣㅇㅠ -9688
▁ㅈㅓㄴㅎㅑㅇ -9689
ㄲㅣㄹㅣ -9690
ㅇㅏㄴㅐㅆ -9691
▁ㅂㅜㅍㅐ -9692
▁ㅈㅓㅇㅁㅜㄴ -9693
▁ㅅㅏㄴㅌㅏ -9694
▁ㅊㅚㅅㅜㄴ -9695
▁ㄹㅏㅇㅣㅇㅓㄴ -9696
▁ㅁㅔㅅ -9697
▁ㅈㅗㅇㄱㅕㄹ -9698
▁ㅊㅏㅁㅅㅏ -9699
▁ㄹㅔㅅㅣ -9700
▁ㅋㅗㅅㅡㅍㅡㄹㅔ -9701
▁ㄴㅡㄹㄹ -9702
▁ㅅㅣㅁㅠㄹㄹ -9703
▁ㄱㅜㅇㅎㅏㅂ -9704
▁ㄹㅓㅅㅟ -9705
▁ㅋㅓㅅㅡ -9706
▁ㅈㅓㄴㄷㅗㅇㅊㅏ -9707
▁ㅇㅝㄴㅈㅏㅇ -9708
▁ㅂㅣㄹㅣ -9709
▁ㅅㅔㄹㅗ -9710
▁ㄴㅗㄱㅎㅘ -9711
▁ㅈㅓㄴㄹㅏㄴ -9712
▁ㅌㅗㅅㅣ -9713
ㅋㅏㄹㅡ -9714
▁ㅇㅣㅇㅘ -9715
▁ㄷㅗㅇㄷㅐ -9716
▁ㅂㅓㅈ -9717
▁ㅌㅣㅈㅓ -9718
▁ㅅㅡㅍㅣㅇㅓ -9719
ㄹㅔㅂ -9720
▁750 -9721
▁..! -9722
▁ㅁㅣㅅㅓㅇ -9723
▁ㅍㅕㅇㅎㅐㅇ -9724
▁ㅇㅣㄴㄱㅘ -9725
▁ㄲㅐㄲㅡㅅ -9726
▁ㅎㅏㄴㄴㅏㄹㅏ -9727
▁ㅊㅣㄴㅇㅐ -9728
▁ㄹㅔㅅㅡㄴ -9729
▁ㅁㅏㄴㅈㅓㅁ -9730
▁ㅅㅏㅁㅜㄹㅏㅇㅣ -9731
▁GK -9732
▁from -9733
▁ㅈㅓㅇㅂㅏㄴㄷㅐ -9734
▁ㅎㅏㄴㄴㅏㄹㅏㄷㅏㅇ -9735
▁HE -9736
ㅋㅔㅇㅣㅅㅕㄴ -9737
▁ne -9738
▁ㅇㅏㅇㅣㄷㅣㅇㅓ -9739
▁ㅈㅓㅇㅅㅓㅇ -9740
▁ㄷㅐㅇㅟ -9741
▁ㅇㅡㄴㅍㅖ -9742
▁ㅈㅐㄱㅅㅡㄴ -9743
▁ㅎㅡㄱㅁㅏ -9744
▁ㅈㅣㄹㅗ -9745
▁ㄷㅗㄹㅇㅕㄴㅂㅕㄴ -9746
ㅅㅠㅌㅏㅇㅣㄴ -9747
▁ㄱㅡㄹㅣㅇ -9748
ㄹㅣㅇㅗ -9749
▁??? -9750
▁ㅇㅠㅈㅓㄴ -9751
▁ㅎㅕㅂㅇㅢ -9752
▁ㄷㅣㅈㅏㅇㅣㄴㅓ -9753
bs -9754
▁ㅁㅣㅇㅣㄴ -9755
int -9756
▁ㅁㅏㄹㅆㅡㅁ -9757
▁ㅋㅏㅁㅏ -9758
▁OS -9759
ㅇㅓㅈㅕㅆ -9760
▁ㄷㅗㅇㅑㄱ -9761
▁ㅆㅡㄹㅣ -9762
▁ㄱㅛㄱㅘㅅㅓ -9763
▁ㄴㅏㅇㅣㅍㅡ -9764
ㅐㄱㅅㅡ -9765
ㅏㄱㅟ -9766
▁ㅍㅔㄹㅡㅅㅗㄴㅏ -9767
▁ㅎㅗㅅㅣ -9768
▁ㅁㅔㅇㅣㅈㅣ -9769
▁ㅍㅣㄹㄹㅣㅍㅣㄴ -9770
▁ㅁㅏㅌㅏ -9771
ㄹㅗㅇㅜ -9772
▁ㅇㅣㄹㅕㄱ -9773
▁ㅈㅏㅊㅣㅇ -9774
▁ㅇㅝㅈㅡ -9775
▁ㅋㅡㄹㅣㅅㅡㅌ -9776
▁ㅎㅏㅇㅎㅐ -9777
▁ㅎㅓㅇㄱㅏㄹㅣ -9778
▁ㄱㅣㅎㅜ -9779
▁ㅅㅣㄹㅊㅔ -9780
▁ㅈㅓㄱㅈㅓㄹㅎㅣ -9781
▁ㅈㅣㅂㅜㄴ -9782
▁ㅎㅏㅂㅈㅏㄱ -9783
ㅌㅐㅇㅜ -9784
ㄷㅏㅁㅕㄴ -9785
▁ㄷㅏㄴㅣㅇㅔㄹ -9786
▁ㅂㅡㄹㅗㄴ -9787
▁ㅊㅜㅇㅈㅗㄱ -9788
▁ㅎㅡㅂㅎㅕㄹㄱㅟ -9789
▁450 -9790
▁tr -9791
▁NBA -9792
▁ㄱㅐㅅ -9793
▁ㅈㅣㄴㅇㅔㅇㅓ -9794
▁Season -9795
▁ㄸㅡㄱㅓㅇㅜㄴ -9796
ㅎㅏㅇㄱㅗㅇ -9797
▁ㅇㅑㅁㅏㅇ -9798
▁AB -9799
▁ㅈㅘㅊㅡㄱ -9800
▁ㅈㅗㅇㅇㅕㅇ -9801
▁ㅊㅣㅇㅏㄴ -9802
▁ㄸㅓㄴㅏㄴㄷㅏ -9803
▁ㅎㅏㄱㅁㅜㄴ -9804
▁ㄷㅏㅅㅣㄱ -9805
▁ㅈㅏㅇㅣㅇㅓㄴㅌㅡ -9806
▁ㅈㅐㅅㅏㅇ -9807
▁ㄷㅐㄷㅗㅇ -9808
itt -9809
ㅉㅜㄱ -9810
▁ㅈㅜㅇㅇㅝㄴ -9811
▁ㄸㅓㄹㅇㅓㄸㅡㄹ -9812
▁ㅅㅣㅂㅣ -9813
▁ㅇㅑㅁㅏㄴ -9814
IL -9815
ㅖㄴ -9816
▁ㅍㅣㅈㅏ -9817
▁ㅌㅓㄸㅡㄹ -9818
▁ㅇㅏㅇㅗㅇㅣ -9819
▁ㅇㅕㄷㅏㄴ -9820
▁ㅈㅣㅎㅖ -9821
ose -9822
▁ㅇㅛㄱㅅㅓㄹ -9823
▁ㅅㅣㄱㅗㄹ -9824
▁ㅇㅣㄹㄱㅘㄴ -9825
▁ㅅㅓㄹㅠ -9826
▁ㄹㅏㅁㅏ -9827
▁ㄱㅏㄷㅏㅁ -9828
▁ㅊㅏㅇㅣㄹ -9829
ㅅㅣㄱㅗ -9830
ㄹㅣㄴㅏ -9831
▁ㄱㅓㄴㄷㅡㄹ -9832
▁ㅇㅓㄹㅌㅣㅁ -9833
▁new -9834
ㅏㅁㅕㄴ -9835
▁ㅇㅣㅌㅏ -9836
▁ㅎㅏㄱㄷㅐ -9837
▁ㅊㅣㅁㅊㅏㄱ -9838
▁{{{- -9839
▁ㄴㅐㄱㅣ -9840
▁ㄹㅣㅅㅏ -9841
▁ㅎㅠㅁㅓㄴ -9842
▁ㄷㅓㄴㅈㅣㄴ -9843
ㅈㅣㅇㅗ -9844
ㄱㅗㄹㅣ -9845
▁ㅅㅡㅌㅐㅂ -9846
▁ㄴㅡㄴㄱㅜㄴ -9847
▁ㅇㅓㄱㅇㅜㄹ -9848
▁ㅎㅣㄷㅡㄹㅏ -9849
▁ㅇㅓㄹㅕㅇㅜㄹ -9850
▁ㅇㅣㅂㅈㅡㅇ -9851
▁ㄷㅏㄴㄱㅣ -9852
▁ㄹㅔㅋㅗㄷㅡ -9853
▁ㅈㅜㄴㄷㅏㄱㅗ -9854
▁ㄹㅣㄹㅣ -9855
▁ㄸㅓㄹㅇㅓㅈㅣㄹ -9856
▁EXT -9857
▁ㄱㅖㅊㅡㅇ -9858
▁ㅆㅏㅇㅜㄴ -9859
▁ㅇㅜㄹㄹㅣ -9860
▁ㄱㅏㄱㅈㅣ -9861
▁ㅇㅑㄼ -9862
▁ㄴㅗㄹㄹㅏㅂ -9863
▁ㅎㅕㅂㅈㅓㅇ -9864
▁ㅇㅚㄱㅜㄱㅇㅓ -9865
▁ㄸㅓㅆ -9866
▁ㅂㅜㄴㅎㅗㅇ -9867
▁ㅍㅗㅂㅕㅇ -9868
▁ㅅㅡㅋㅝㄷㅡ -9869
▁La -9870
ㅂㅡㄹㄹㅗ -9871
▁ㅇㅣㄷㅐ -9872
▁ㅇㅔㄹㄹㅣㅈㅏㅂ -9873
▁ㄱㅛㅊㅏ -9874
ㅈㅣㄴㅡㅇ -9875
▁ㅎㅐㄴㅐㅆ -9876
▁ㅇㅗㅇㅜ -9877
▁ㅈㅗㄴㅈㅜㅇ -9878
▁ㅎㅐㅅㅗ -9879
▁ㄷㅗㄹㅇㅏㄱㅏㄹ -9880
▁ㅅㅗㅅㅐㅇ -9881
ㄸㅣ -9882
▁Im -9883
▁ㄹㅗㄹㅏ -9884
▁ㄱㅏㅁㄷㅏㅇ -9885
▁EZ -9886
▁ㅊㅜㅎㅜ -9887
▁ㅈㅏㄴㅎㅗㄱ -9888
▁ㄲㅡㅌㄴㅏㄹ -9889
▁ㄷㅣㅁ -9890
▁ㅁㅏㄱㅣ -9891
▁ㅅㅏㅇㅈㅜ -9892
▁314 -9893
ㅈㅠ -9894
ㅅㅜㄹㅣ -9895
▁ㅎㅏㅁㅈㅏㅇ -9896
▁ㅂㅜㅇㅠ -9897
ㅌㅏㅁㅈㅓㅇ -9898
▁ㅂㅔㅇㅣㅈㅣㅇ -9899
reat -9900
▁ㄱㅗㅇㅢ -9901
ㄷㅡㄹㅗ -9902
▁ㄱㅏㅇㅟ -9903
▁ㅁㅔㅌㅡㄹㅗ -9904
▁ㅇㅏㅋㅔㅇㅣㄷㅡ -9905
ㅜㄹㅡㅋㅡ -9906
ㅈㅣㄱㅈㅏ -9907
▁ㅁㅣㄹㅇㅓㄴㅐ -9908
▁ㅊㅗㅅㅏㅇ -9909
▁ㄴㅏㅇㅣㅊㅡ -9910
▁ㅈㅓㄱㅡㄹㄹㅣㅇ -9911
▁ㄱㅏㅇㄹㅡㅇ -9912
ㅇㅡㄴㅅㅐㄱ -9913
▁ㅁㅜㄹㅈㅏ -9914
▁Con -9915
▁Vol -9916
▁ㅌㅡㄹㄹㅣㄴ -9917
▁ㅋㅏㄹㅣㅅㅡㅁㅏ -9918
▁ㅁㅣㄹㄷㅗ -9919
▁ㄱㅏㄹㅅㅐㄱ -9920
▁ㅅㅣㄲㅡㄹ -9921
▁124 -9922
▁ㄲㅣㅇㅝ -9923
▁ㅂㅜㅇㅝㄴ -9924
▁ㅎㅏㄱㄴㅕㄴㄷㅗ -9925
▁ㅇㅣㄴㄱㅗㅇㅈㅣㄴㅡㅇ -9926
ㅣㄹㅔ -9927
▁ㅅㅡㅍㅏㅇㅣㄷㅓㅁㅐㄴ -9928
ㅉㅏㅇ -9929
▁Sch -9930
▁ㅁㅣㄹㅡ -9931
▁ㅅㅣㄴㄱㅗㄱ -9932
▁ㅇㅣㄱㅎㅣ -9933
▁ㄹㅔㅇㅣㅅㅣㅇ -9934
▁ㅅㅏㅇㅣㅁ -9935
▁ㅋㅏㄹㅔ -9936
▁ㄱㅏㅊㅏㅇ -9937
▁ㅇㅠㅅㅡ -9938
ㅂㅏㅇㅑㅅㅣ -9939
▁ㅈㅓㅁㅁㅕㄹ -9940
▁Ed -9941
▁ㅍㅣㅈㅣㅋㅓㄹ -9942
▁rd -9943
▁ㅈㅔㅂㅏㄹ -9944
▁ㅈㅜㅅㅓㄱ -9945
▁ㅅㅡㅌㅏㅈㅡ -9946
▁ㄹㅗㅅㅡㅌㅡ -9947
▁ㅆㅏㅎㅇㅣ -9948
▁ㄷㅐㅅㅔ -9949
▁ㅇㅠㅋㅏ -9950
▁ㅇㅏㄹㅡㅂ -9951
▁ㅎㅘㅇㄷㅏㅇ -9952
▁ㅊㅜㄹㅍㅏㄴㅅㅏ -9953
ㅘㄹㅏ -9954
▁ㅇㅓㅉㅐㅅㅓㅇㅣㄴㅈㅣ -9955
ube -9956
▁ㄱㅏㅇㅌㅏ -9957
▁ㅂㅡㄹㄹㅏ -9958
▁ㄹㅔㄴㅏ -9959
▁Girl -9960
▁ㅁㅣㄴㄱㅏㄴㅇㅣㄴ -9961
▁ㅁㅜㄹㅇㅑㄱ -9962
▁ㅈㅓㅁㅅㅣㅁ -9963
▁ㄱㅏㅇㅈㅓㄴ -9964
▁ㅍㅓㅈㅕ -9965
ㅊㅓㄹㅅㅜ -9966
▁ㅎㅣㅁㅇㅣㅂ -9967
▁ㄱㅘㄱㅡㅁ -9968
▁ㅆㅏㅇㅜㄴㄷㅏ -9969
ㅗㄹㄹㅗ -9970
▁ㅇㅏㅂㄹㅕㄱ -9971
▁ㅍㅓㅁㅍㅡ -9972
ㅡㅇㅣ -9973
▁ㄷㅣㅇㅏㅂㅡㄹㄹㅗ -9974
▁ld -9975
ㅔㄴㅗ -9976
▁ㅇㅝㄴㅈㅏㄹ -9977
▁ㄱㅕㄱㄹㅕ -9978
ㅇㅠㄹㅓㅂ -9979
▁ㄱㅏㅇㅎㅐㅆ -9980
▁ㅍㅛㅈㅓㄱ -9981
▁RE -9982
▁ㅂㅜㅅㅗㄱ -9983
▁ㄷㅐㅂㅕㄴ -9984
▁ㄱㅓㄴㄷㅡㄹㅣ -9985
▁ㅁㅣㅊㅕ -9986
▁Night -9987
▁ㄷㅐㄱㅓㅁ -9988
▁ㄸㅜㅇ -9989
▁ㅁㅏㅌㅣㄴ -9990
▁ㅉㅗㅊㄱㅕㄴ -9991
▁ㅎㅏㄹㄲㅏ -9992
▁ㄱㅡㄹㅓㅁㅡㄹㅗ -9993
▁ㅌㅓㅈㅣㄴ -9994
▁ㅇㅣㄹㄱㅏㄱ -9995
ㅂㅏㅇㅅㅗㅇ -9996
▁ㅌㅓㅈㅕㅆ -9997
ㅂㅜㅋㅣ -9998
▁ㄱㅡㅉㅗㄱ -9999
▁USB -10000
▁ㅇㅣㅃㅏㄹ -10001
▁ㅇㅏㅂㅊㅜㄱ -10002
▁ㅎㅜㅁㅊㅕ -10003
▁183 -10004
ition -10005
ari -10006
ㅂㅐㅇ -10007
▁ㅌㅗㅇㅜ -10008
▁ㄷㅏㄹㄹㅕㄷㅡㄹ -10009
▁ㅇㅠㅈㅣㄴ -10010
usic -10011
▁ㄱㅚㅇㅣㄴ -10012
▁ㅂㅓㄹㅆㅓ -10013
▁ㅈㅗㄴㅅㅡ -10014
▁ㅇㅖㅇㅢ -10015
▁ㅅㅣㅋㅣㅂㄴㅣㄷㅏ -10016
▁ㅋㅟㅈㅡ -10017
▁ㅅㅏㄴㅁㅐㄱ -10018
▁ㄲㅏㄷㅏㄹㅗㅇㅜㄴ -10019
▁ㅇㅣㅈㅣㄴ -10020
▁ㄱㅏㄷㅎㅕ -10021
▁ㅇㅐㅇㅘㄴ -10022
▁ㅅㅐㅇㄱㅣㅁㅅㅐ -10023
msys -10024
▁ㅂㅣㅇㄱㅕㄹ -10025
▁ㅎㅜㅇㅠ -10026
▁ㅇㅣㅋㅔ -10027
▁ldmsys -10028
ㅅㅏㄹㅏㅇ -10029
ㅊㅓㄹㄷㅗ -10030
▁ㄷㅏㅅㅣㄱㅡㅁ -10031
▁ㅆㅣㅅ -10032
▁152 -10033
▁ㄱㅣㅈㅣㄹ -10034
▁ㄱㅗㅅㅣ -10035
▁ㅁㅏㅇㅅㅓㄹ -10036
▁ㅁㅣㅇㅏ -10037
▁ㅌㅔㅅㅡ -10038
▁ㅈㅓㄴㅅㅗㅇ -10039
15 -10040
▁ㅂㅕㅇㅅㅏㄹ -10041
▁ㅈㅜㅇㄱㅕㄴ -10042
▁ㅈㅡㄹㄱㅣㄹ -10043
ㅏㄱㅏㅇㅘ -10044
▁ㄱㅣㄲㅓㅅ -10045
▁ㅈㅐㄱㅓㄴ -10046
▁ㄴㅗㅇㅏ -10047
▁ㄴㅐㅇㅕㄱ -10048
▁ㅌㅚㅊㅣ -10049
▁ㅂㅗㅅㅡㅌㅓㄴ -10050
ats -10051
▁ㄹㅣㅂㅓㅅㅡ -10052
▁TS -10053
ㄷㅐㅇㅣㄴ -10054
▁ㅊㅜㄹㄷㅗㅇ -10055
▁ㅈㅔㄴㅔ -10056
▁ㅇㅣㅇㅓㅈㅣㄴㄷㅏ -10057
▁ㅇㅕㄴㅅㅓㄹ -10058
▁ㄱㅗㄹㅊㅣ -10059
▁ㅁㅏㅋㅔㅌㅣㅇ -10060
▁ㄷㅣㅂ -10061
▁..? -10062
▁ㄷㅐㅁ -10063
▁ㅎㅏㅊ -10064
▁ㅍㅡㄹㄹㅔㅇㅣㅁ -10065
▁ㅂㅏㄹㅅㅏㄱㅣ -10066
▁ㄷㅓㅇㅇㅓㄹㅣ -10067
▁ㅂㅏㄱㅅㅜ -10068
▁ㄷㅡㅇㅝ -10069
▁ㅇㅣㄹㅡㄴㅂㅏ -10070
▁ㅈㅠㄹ -10071
▁1200 -10072
▁ㅎㅔㅇㅣㄹ -10073
▁ㅇㅏㅋㅏㄴㅔ -10074
▁ㅁㅏㄴㄹㅔㅂ -10075
▁ㄱㅣㅂㅜ -10076
▁ㅈㅏㅈㅗㄴㅅㅣㅁ -10077
▁Black -10078
ㅍㅐㅇ -10079
▁ㅅㅡㅌㅣㄱ -10080
▁ㄴㅗㅁㅜㅎㅕㄴ -10081
▁ㅈㅓㅈㅣㄹㄹㅓㅆ -10082
▁ㅂㅏㄱㅈㅣㄴ -10083
▁ㅈㅣㅂㄱㅖ -10084
▁ㅂㅏㄱㅅㅡㅇㅗ -10085
▁ㅂㅏㄱㅅㅡㅇㅗㅍㅣㅅㅡ -10086
▁BC -10087
▁ㅎㅣㄹㅏ -10088
▁ㅃㅜㄹㅕ -10089
▁ㅌㅗㅁㅏㅅㅡ -10090
▁ㄷㅗㄷㅓㄱ -10091
ㅜㅁㅗ -10092
▁ㅅㅣㅇㅏㄴ -10093
▁ㅈㅏㅊㅐㄱㅈㅓㅁ -10094
▁ㅁㅗㅎㅕㅇ -10095
▁ㅂㅐㄱㅜ -10096
ㅇㅏㅊㅣ -10097
▁ㅅㅓㄴㄷㅗㅇ -10098
▁182 -10099
▁ㅅㅏㅊㅗㄴ -10100
▁ㅇㅖㅇㅛ -10101
▁ㄷㅏㄹㄹㅕㄱㅏ -10102
▁WC -10103
▁ㅁㅜㄴㅕ -10104
▁ㅈㅜㅊㅜㄱ -10105
▁ㅅㅗㅅㅗ -10106
▁ㅇㅟㅎㅐㅅㅓㄴ -10107
▁ㅇㅣㅂㅎㅣㄴㄷㅏ -10108
▁ㅂㅗㄴㅐㄹ -10109
▁ㅈㅏㅇㅂㅕㄱ -10110
▁ㄷㅗㄷㅐ -10111
▁Bo -10112
▁NH -10113
▁ㄴㅗㅇㅇㅓㅂ -10114
▁ㅂㅜㅅㅝ -10115
▁ㅁㅗㅈㅗㅇ -10116
▁ㅊㅓㄴㅅㅏㅇ -10117
13 -10118
▁ㅊㅣㅋㅏ -10119
▁ㅍㅗㅊㅏㄱ -10120
ㅅㅣㄷㅐ -10121
▁ㅁㅏㅎㅏ -10122
▁ㅇㅔㄷㅡ -10123
▁ㅂㅏㅌㅓㅁ -10124
▁ㄱㅔㄴㅈㅣ -10125
▁ㅊㅓㄹㄷㅗㅇㅕㄱ -10126
▁ㄱㅟㄱㅜㄱ -10127
▁ㅂㅗㄹㅣ -10128
yn -10129
▁ver -10130
ㅏㅁㄷㅗ -10131
▁ㅇㅣㄹㄹㅔㄱ -10132
▁ㅁㅜㄴㅇㅑㅇ -10133
▁ㅌㅗㅁㅣ -10134
▁ㅇㅝㄴㅍㅏㄴ -10135
▁ㅈㅓㄹㅂㅕㄱ -10136
▁ㅌㅗㅇㅅㅗㄹ -10137
▁ㄷㅡㅇㄱㅡㄱ -10138
ㄱㅏㄹㅜ -10139
▁ㄴㅏㅁㄷㅗㅇㅅㅐㅇ -10140
ㅅㅔㄴㅅㅡ -10141
▁ㄹㅔㅇㅏ -10142
▁ㅇㅕㄴㄷㅗㅇ -10143
▁ㅅㅣㅌㅏ -10144
▁ㅁㅣㄹㄹㅣㅇㅓㄴ -10145
ㅏㅇㅝㅈㅡ -10146
▁ㄴㅏㄹㄹㅣㄴㄷㅏ -10147
▁127 -10148
▁ㅁㅐㄷㅡ -10149
▁ㅋㅏㄱㅔ -10150
▁ㄷㅡㅇㅝㅍㅡ -10151
ㄷㅟ -10152
▁ㅁㅏㄷㅗㅋㅏ -10153
▁ㄱㅡㄹㅔㅇㅣㄷㅡ -10154
▁ㅂㅜㄹㄱㅣㄹ -10155
▁ㄹㅣㅊㅓ -10156
ㅓㄹㄷㅡ -10157
▁ㅅㅏㅇㄴㅑㅇ -10158
▁ㅇㅐㅇㅣㄴ -10159
▁ㄱㅘㄴㅈㅏㅇ -10160
▁ㅍㅡㄹㄹㅏㅇ -10161
▁Let -10162
▁ㅇㅣㅇㅝㄴ -10163
▁ㅇㅜㅁㅏ -10164
▁ㅇㅣㅇㅠㄴ -10165
▁ㅈㅓㄱㅅㅣㅌㅏ -10166
▁not -10167
app -10168
▁ㄱㅛㅊㅏㄹㅗ -10169
ㄷㅏㅇㅊㅗ -10170
ㅔㄴㅅㅡ -10171
▁ㅇㅗㄹㅡㄴㅅㅗㄴ -10172
▁ㅌㅏㄴㅎㅐㄱ -10173
▁ㅇㅏㄷㅏㅁ -10174
▁ㅎㅕㄴㅎㅘㅇ -10175
ㄹㅡㄴ -10176
▁ㅁㅗㅅㅡㅋㅡ -10177
▁ㅂㅏㄹㅁㅕㅇ -10178
▁ㄱㅣㅁㅍㅗ -10179
▁ㄴㅐㅂㅗㄴㅐ -10180
▁ㅁㅗㅂㅣㄹ -10181
ㄹㅣㅇㅏㄴ -10182
▁ㅇㅏㅀ -10183
▁ㅃㅓㄹ -10184
▁ㅈㅕㅆㅇㅡㅁㅕ -10185
▁ㅎㅚㄱㅘㄴ -10186
▁ㄷㅗㅂㅐ -10187
▁DM -10188
▁ㅅㅗㄹㅈㅓ -10189
▁MM -10190
▁ㅁㅣㅊㅣㄹ -10191
▁ㅌㅏㅇㅣㅇㅓ -10192
ㅊㅜㅁ -10193
▁ㅋㅜㄷㅔㅌㅏ -10194
ㅇㅣㄷㅗㅇ -10195
▁118 -10196
ㅂㅏㅈㅣ -10197
▁ㅇㅘㅇㅅㅣㄹ -10198
DD -10199
▁ㄹㅏㅇㅣㄴㅎㅏㄹㅡㅌㅡ -10200
▁ㅅㅗㅅㅓ -10201
▁ㅇㅠㄱㅅㅏㅇ -10202
▁ㄴㅏㄹㅋㅏㄹㅗㅇㅜㄴ -10203
ㅋㅏㄴㅗ -10204
▁ㅎㅕㅂㄷㅗㅇ -10205
▁ㅇㅣㄴㅎㅐㅅㅓ -10206
▁ㅋㅣㅇㅛ -10207
▁ㅂㅏㄹㄱㅡㅂ -10208
▁ㅅㅓㄲㅇㅕ -10209
▁ㅅㅡㅋㅡㄹㅗㄹ -10210
▁ㅇㅘㅇㅂㅣ -10211
▁ㅇㅏㅁㅏㅊㅜㅇㅓ -10212
▁ㅍㅠㅈㅓㄴ -10213
▁ㅂㅡㄹㄹㅗ -10214
▁ㅍㅡㄹㅐㄴ -10215
▁ㅇㅝㄴㅈㅜㅁㅣㄴ -10216
▁ㄴㅗㄹㅣㄴ -10217
▁ㄱㅏㄹㅕㅇ -10218
▁ㅅㅡㅌㅗㅇㅓ -10219
▁ㅊㅣㄹㅓ -10220
▁ㄱㅗㄱㅗ -10221
▁ㅇㅛㅇㅅㅏㄴ -10222
ough -10223
▁ㅂㅗㅇㅅㅏ -10224
▁ㅈㅓㅇㅁㅣㄹ -10225
▁ㅅㅓㅁㄱㅘㅇ -10226
▁ㅇㅗㅂㅓㄹ -10227
▁OG -10228
▁ㅅㅏㅂㅏㅇ -10229
▁ㅌㅔㅊㅡ -10230
▁ㅂㅏㅇㅅㅏㄴㅡㅇ -10231
▁ㄹㅜㅅㅣㅇ -10232
▁ㅎㅑㅇㅎㅜ -10233
▁184 -10234
▁ㅊㅏㄱㄹㅠㄱ -10235
▁ㄲㅏㅁㅏㄱㅟ -10236
ㄷㅚㄴ -10237
▁ㅅㅡㅁㅏㅇㅣㄹ -10238
▁ㅈㅓㄴㄷㅏㅁ -10239
▁ㅋㅣㅁㅣ -10240
▁ㅈㅣㅈㅏㅇ -10241
▁ㅋㅛㅋㅗ -10242
▁ㄲㅡㅌㄴ -10243
▁SSR -10244
▁ㅎㅘㄴㅅㅐㅇ -10245
▁Am -10246
ㅏㅂㅣㅇㅏ -10247
▁ㄱㅏㅁㅈㅏ -10248
▁ㅅㅓㅇㅕㄹ -10249
gr -10250
▁ㅈㅔㅊㅣ -10251
▁ㅇㅕㅌㅐ -10252
▁ㅌㅡㄹㅐ -10253
▁Op -10254
▁ㄱㅣㅁㅈㅣ -10255
ㅇㅏㄴㅐㄴ -10256
▁ㅅㅜㄱㅅㅗ -10257
ㅌㅏㄴㅣ -10258
ㄷㅡㄹㄹㅣ -10259
▁ㅇㅣㄹㄹㅓㅅㅡㅌㅡㄹ -10260
▁Str -10261
▁ㅇㅔㄹㄹㅔ -10262
▁ㅂㅏㄴㅅㅓㅇ -10263
▁Col -10264
▁ㄷㅗㄷㅐㅊㅔ -10265
▁AF -10266
▁ㅈㅏㅇㅏ -10267
▁ㅈㅏㅂㅎㅣㄴ -10268
▁ㅂㅔㄴㅔ -10269
ㄱㅔㄴ -10270
▁ㅎㅜㅁㅣ -10271
▁ㅎㅐㅇㅈㅣㄴ -10272
▁ㅎㅜㅋㅜㅇ -10273
▁ㅍㅓㅍㅔㄱㅌㅡ -10274
ye -10275
▁ㅇㅣㅂㅕㄹ -10276
▁GM -10277
▁ㄱㅏㄱㄷㅗ -10278
▁ㅇㅣㄴㅍㅣㄴㅣㅌㅣ -10279
▁ㅇㅣㄹㄲㅏ -10280
▁ㅇㅣㅂㅅㅣ -10281
▁ㅂㅏㄱㅈㅏ -10282
▁ㅁㅣㄴㅍㅖ -10283
▁ㅊㅓㅇㅊㅜㄴ -10284
▁ㅈㅣㄹㅜ -10285
▁ㄴㅏㄹㄹㅕㅆ -10286
▁ㅅㅓㅈㅓㄱ -10287
▁ㅁㅣㄴㅕ -10288
▁000000 -10289
▁ㅎㅏㅇㅕㄱ -10290
▁ㄱㅛㄷㅗㅅㅗ -10291
▁ㄱㅔㄲㅡㅁ -10292
▁ㅋㅓㅁㅂㅐㅅ -10293
▁ㄱㅏㅁㅊㅜ -10294
▁ㅋㅠㅇㅓ -10295
▁ㄱㅡㅊㅕㅆ -10296
▁ㅍㅣㄹㄹㅡㅁ -10297
▁ㅂㅏㄲㅝㅆ -10298
▁ㅅㅣㄹㅇㅛㅇ -10299
▁ㄴㅜㅂ -10300
▁ㅇㅛㄱㅅㅣㅁ -10301
▁Mag -10302
CE -10303
▁ㅁㅜㅈㅣㄱㅐ -10304
▁ㄱㅡㄱㅏㄴ -10305
▁ㄷㅗㅅㅣㅁ -10306
▁ㅅㅓㄴㅂㅏㄱ -10307
▁ㄱㅏㅇㅇㅣㄴ -10308
iel -10309
▁ㅈㅓㅈㅏ -10310
▁ㅂㅗㄴㅐㄴㄷㅏ -10311
▁ㅅㅗㄲ -10312
▁ㄷㅐㅊㅏ -10313
▁ㅆㅗㄴ -10314
▁ㅅㅣㅇㄱㅏ -10315
ㅌㅡㄴㅓㅁ -10316
▁ㅈㅣㅋㅡ -10317
▁ㄷㅐㅇㅕㄱ -10318
▁ㅍㅕㄴㄹㅣ -10319
▁ㅇㅏㅂㅔ -10320
▁ㄱㅐㅇㅅㅣㄴ -10321
▁ㅂㅜㅅㅡ -10322
▁ㅅㅡㅌㅏㅇㅝㅈㅡ -10323
▁ㅊㅣㄴㅊㅓㄱ -10324
▁ㄷㅏㅂㅣ -10325
▁ㄱㅡㅁㅂㅏㄹ -10326
▁ㅅㅡㅇㅍㅐ -10327
▁ㅈㅣㄱㅊㅐㄱ -10328
ㄹㅣㅅㅡㅌㅡ -10329
▁ㄱㅏㅈㅕㅇㅗㄴ -10330
ㅇㅜㄴㄷㅗㅇ -10331
▁ㄱㅏㅇㅣㄷㅡ -10332
▁ㅁㅗㅅㅜㄴ -10333
▁ㅈㅜㄱㅗㅇ -10334
▁ㅅㅓㄴㅇㅝㄴ -10335
▁ㅁㅏㅇㅡㄹㅂㅓㅅㅡ -10336
▁ㄱㅗㅁㅏㅂ -10337
ㅋㅗㄱ -10338
▁ㅎㅘㅅㅣㄴ -10339
▁ㅈㅗㅎㅘ -10340
▁ㄲㅏㄷㅏㄹㅗㅂ -10341
▁ㅇㅣㄹㅇㅣㄹ -10342
▁ㄱㅘㅇㅣㄹ -10343
▁AV -10344
ㅜㅇㅛ -10345
ㅏㄱㅏㄹ -10346
▁ㅎㅡㅇㅂㅜㄴ -10347
▁ㅌㅏㅁㅅㅏ -10348
▁ㅎㅏㄱㅅㅏ -10349
▁1978 -10350
▁ㅊㅓㅇㄱㅜ -10351
▁ㅂㅏㄹㄱㅏㄱ -10352
▁ㅇㅗㄹㅔㄴㅈㅣ -10353
ull -10354
▁ㅊㅣㅁㅁㅗㄹ -10355
vel -10356
▁ㅅㅏㅊㅣ -10357
▁ㅇㅓㅂㅔㄴㅈㅕ -10358
ㅇㅏㄴㅐㄹ -10359
▁ㅅㅡㅋㅏㅇㅜㅅ -10360
ㅓㄴㅇㅔ -10361
▁ㅎㅏㄴㄲㅓㅂ -10362
▁ㅎㅏㄴㄲㅓㅂㅓㄴㅇㅔ -10363
▁ㅇㅓㄹㅕㅇㅝㅆ -10364
▁AL -10365
▁ㅂㅏㅇㅣㅇㅔㄹ -10366
▁ㅌㅗㄹㅏ -10367
▁ㅍㅗㄹㅇㅏㅇㅜㅅ -10368
▁ㅅㅓㅁㅁㅕㄹ -10369
▁ㄱㅗㄹㅍㅡ -10370
ㄹㅜㅁ -10371
▁ㅇㅣㄱㅖ -10372
▁ㄱㅣㅁㄱㅘㅇ -10373
▁ㅁㅗㅇㅏㅅㅓ -10374
ㅇㅗㄹ -10375
▁ㅇㅘㄴㅎㅘ -10376
▁ㄱㅕㅇㅈㅓㄴ -10377
▁ㅈㅏㅇㅟ -10378
▁ㅎㅡㄱㅇㅕㄱㅅㅏ -10379
▁ㅋㅏㅁㅔㄹ -10380
▁ㄱㅜㅇㅜㄹ -10381
▁ㅈㅣㄴㄷㅏㄴ -10382
▁ㅇㅣㅅㅡㅌㅡ -10383
ㅓㅇㅜㅁ -10384
▁ㅇㅏㅍㅅㅓㄴ -10385
▁ㅇㅗㅌㅗㅂㅏㅇㅣ -10386
▁ㅂㅔㅅㅡ -10387
▁ㅎㅗㄹㄹㅣ -10388
▁ㅇㅣㄹㅇㅓㄴㅏㄴㄷㅏ -10389
▁ㅂㅗㄱㅏㅇ -10390
▁ㅎㅐㅇㅜㄴ -10391
▁ㅇㅠㄱㅏ -10392
▁ㅎㅡㄱㅁㅏㄱ -10393
▁ㅇㅗㄹㄹㅏㄱㅏㄴ -10394
▁ㅅㅡㄱㅏ -10395
▁ㄷㅡㄹㅋㅣ -10396
▁ㅅㅣㄱㅏㄴㄷㅐ -10397
▁ㅊㅓㄴㄱㅜㄱ -10398
ult -10399
▁ㅇㅝㄹㅣㅇㅓ -10400
▁ㅌㅏㄹㅣ -10401
▁ㅌㅗㅌㅡㄴㅓㅁ -10402
▁ㅁㅗㅇㅛㄱ -10403
▁ㅈㅓㅇㄷㅏㅂ -10404
▁ㅅㅓㅇㅁㅕㅇ -10405
▁ㅆㅡㄹㅓㅈㅣㄴ -10406
▁ㄴㅡㅇㄱㅏ -10407
▁178 -10408
▁ㅍㅛㅅㅣㄱ -10409
▁ㄱㅜㅎㅕㅇ -10410
ㅋㅣㅅㅡㅌㅏㄴ -10411
▁ㄹㅣㅂㅜ -10412
▁ㄹㅡㄴ -10413
▁ㅋㅓㅁㅂㅐㄱ -10414
ㅅㅓㅅㅡ -10415
▁CL -10416
▁ㅂㅏㄴㄱㅕㅇ -10417
▁ㅇㅛㅇㅇㅣ -10418
▁ㅇㅏㄹㅡㅁㄷㅏㅂ -10419
able -10420
▁ㅁㅣㄴㄱㅏㅁ -10421
▁ㅇㅑㄱㅎㅗㄴ -10422
▁ㅅㅡㅌㅔㄹㅅㅡ -10423
▁ㄱㅘㄴㅁㅜㄴ -10424
▁ㄷㅗㄹㅏ -10425
▁ㅎㅗㅅㅋㅏㅇㅣㄷㅗ -10426
▁ㅇㅣㄷㅏㄴ -10427
▁ㅊㅟㅈㅐ -10428
ㅜㅇㅣㄷㅡ -10429
▁ㅂㅡㄹㅐ -10430
▁ㄹㅗㅋㅣ -10431
▁1945 -10432
ject -10433
▁ㅂㅏㄴㅇㅕㄱ -10434
▁ㅅㅣㄴㄱㅘㄴ -10435
▁ㄹㅏㅇㅣㅌㅡㄴ -10436
▁ㅅㅗㄴㅏ -10437
ㅂㅜㅈㅣ -10438
▁ㄴㅗㄹㅡㅅ -10439
▁ㅁㅣㅅㅗㄴㅕ -10440
▁ㅁㅣㄹㄹㅏㄴ -10441
▁ㅅㅣㅇㄱㅏㅍㅗㄹㅡ -10442
ㅓㄹㅣㅇ -10443
▁ㅇㅗㅁㅏㄴ -10444
▁ㅇㅘㄴㄱㅗㅇ -10445
▁ㅇㅣㄴㅁㅜㄴ -10446
▁PK -10447
▁ㅅㅡㅇㅟㅇ -10448
▁ㅇㅓㅆㅇㅓㅆ -10449
▁ㄴㅡㄹㅇㅓㄴㅏㄴㄷㅏ -10450
▁ㄷㅗㅇㄱㅖ -10451
▁ㅊㅚㅅㅏㅇㄱㅡㅂ -10452
ㅂㅣㅅ -10453
▁ㅈㅓㄴㅈㅣ -10454
▁CE -10455
ㅁㅣㄴㅈㅜ -10456
▁ㄷㅡㅇㅈㅐ -10457
▁ㄱㅕㅇㅅㅏㅇㄴㅏㅁㄷㅗ -10458
▁ㄱㅡㄹㅣㅍㅣㄴ -10459
▁ㅇㅓㅇㄷㅓㅇㅇㅣ -10460
▁ㅇㅣㄹㅊㅔ -10461
▁ㄹㅔㅂㅓ -10462
▁ㄷㅏㄹㅇㅣㄴ -10463
▁ㄹㅡㅂ -10464
18 -10465
▁Co -10466
▁ㅁㅏㅇㅑ -10467
ㅠㄹㄹㅏ -10468
▁ㅈㅜㅁㅓㄴㅣ -10469
▁cl -10470
eth -10471
▁ㅅㅓㅇㅜㄹㄷㅐ -10472
▁ㅇㅏㄴㄱㅕ -10473
▁ㅁㅐㄱㅏㄱ -10474
▁ㅇㅔㄹㅗ -10475
▁ㅋㅏㅍㅣ -10476
▁ㅅㅗㄷㅡㄱ -10477
▁ㅇㅏㄹㅣㅇㅏ -10478
▁ㄱㅏㄴㅍㅏㄴ -10479
▁ㅅㅣㅋㅏㄱㅗ -10480
▁ㅈㅣㄱㅎㅐㅇ -10481
▁ㅇㅣㄴㅏㅁㅏ -10482
▁ㅇㅣㄹㄱㅏ -10483
▁ㅇㅓㄹㅌㅣㅁㅣㅅ -10484
▁ㅅㅏㅈㅣㄱ -10485
▁ㄱㅜㄴㅂㅜ -10486
▁ㅋㅣㅌㅏ -10487
▁ㅅㅣㅎㅗ -10488
ㅂㅏㅇㅇㅜㄹ -10489
▁ㅅㅣㄴㅈㅏㄱ -10490
▁ㅌㅏㅋㅏㅎㅏㅅㅣ -10491
▁ㅌㅓㄸㅡㄹㅣ -10492
▁ㄹㅣㅍㅡㄹㄹ -10493
▁ㅈㅜㅂㄴㅣㄷㅏ -10494
▁ㅅㅣㅈㅗㅇ -10495
▁ㄷㅗㄱㅂㅐㄱ -10496
▁ㅁㅣㄷㅗㄹㅣ -10497
▁ㅌㅔㄹㅏㄴ -10498
▁ㅇㅜㄹㅇㅡㅁ -10499
▁ㄷㅏㄹㄹㅏㅈㅣㄴㄷㅏ -10500
▁ㅇㅔㅋㅗ -10501
▁ㅂㅔㅇㅣㅂㅣ -10502
ㅁㅗㅅㅡㅂ -10503
ㄱㅓㅅ -10504
▁ㄹㅏㅇㅣㅌㅡㄴㅣㅇ -10505
MAN -10506
▁ㅂㅜㅊㅐ -10507
▁ㅇㅔㄹㄹㅣㅈㅏㅂㅔㅅㅡ -10508
▁ㅂㅏㄱㅅㅏㄹㄴㅏ -10509
▁ㄹㅣㅂㅗㄹ -10510
▁ㅈㅓㅇㅈㅓㅁ -10511
▁ㅈㅏㅇㄴㅏㅁ -10512
▁ㅇㅑㄱㅊㅔ -10513
▁ㅁㅗㅅㅎㅐㅅㅓ -10514
▁ㅂㅡㄹㅔ -10515
▁ㅅㅏㅇㅘ -10516
▁ㅅㅏㅌㅏㅇ -10517
▁ㅁㅕㅇㅈㅏㅇ -10518
▁ㅍㅏㄱㅗ -10519
▁ㅇㅛㄱㅕㄱ -10520
▁ㅊㅜㄹㄹㅜ -10521
▁ㅇㅓㄱㅈㅔ -10522
▁ㅌㅏㄹㅊㅟ -10523
▁ㄹㅔㅅㅣㅍㅣ -10524
ㅂㅡㄹㅏ -10525
▁ㅆㅏㅇㅣ -10526
▁ㄷㅣㅅㅡㅍㅡㄹㄹㅔㅇㅣ -10527
▁ㅋㅏㅈㅔ -10528
ㅅㅗㄱㄱㅣ -10529
▁ㅇㅕㅈㅜㅇㅣㄴ -10530
▁ㅉㅏㅁ -10531
▁ㅅㅜㅊㅓㄴ -10532
▁ㄱㅏㅇㄷㅐ -10533
▁ㄴㅡㅍ -10534
▁ㄱㅡㅁㅇㅛㅇㅣㄹ -10535
▁ㄱㅣㄹㅣ -10536
▁ㅂㅏㅇㅣㄴ -10537
▁ㄴㅜㄴㅇㅏㅍ -10538
▁ㅂㅜㄹㅊㅏㅁ -10539
▁ㅋㅏㅅ -10540
▁ㄷㅓㄴㅈㅣㄹㅏ -10541
▁ㅂㅐㅇㅜㄹ -10542
▁ㅍㅐㅇㅘㅇ -10543
▁ㅂㅏㅇㅣㅇㅔㄹㅡㄴ -10544
▁ㅇㅓㄵ -10545
▁ㅁㅗㅇㅔ -10546
▁ㅅㅣㄹㅈㅓㄱ -10547
▁ㅁㅜㄴㅡㅇ -10548
▁Is -10549
▁ㅁㅗㅇㅣㄴ -10550
▁ㅎㅏㅁㅅㅜ -10551
▁Do -10552
▁ㅍㅕㄴㅇㅢㅈㅓㅁ -10553
▁ㄷㅏㄴㅈㅏ -10554
▁ㅂㅐㅌㅡ -10555
ㅂㅏㄴㅏ -10556
▁TOP -10557
▁ㄱㅛㄹㅣ -10558
▁ㅇㅏㅅㅡㅌㅡ -10559
▁ㅈㅣㄴㄷㅗㅇ -10560
▁BO -10561
▁ㄹㅔㅇㅣㅈㅣ -10562
ild -10563
▁ㅅㅣㄴㅎㅏㄴ -10564
▁ㅅㅡㄹㅗ -10565
ㅅㅔㅈㅣ -10566
▁ㅋㅡㄹㅗㅇㅜ -10567
▁ㅂㅏㄱㅈㅓㅇㅎㅢ -10568
▁ㅌㅏㅆ -10569
▁ㅇㅛㄱㅁㅏㅇ -10570
▁ㅁㅗㄱㅇㅛㄱ -10571
▁ㄱㅘㅅㅣ -10572
▁ㅇㅐㅇㅛㅇ -10573
▁ㅋㅏㅇㅣㅈㅓ -10574
▁ㅇㅣㄹㄹㅓㅅㅡㅌㅡㄹㅔㅇㅣㅌㅓ -10575
25 -10576
▁ㅌㅐㅇㅝ -10577
▁ㅅㅗㅁㅏ -10578
▁ㅂㅗㅇㅜ -10579
▁ㅌㅐㅍㅜㅇ -10580
▁ㅁㅐㄴㅊㅔㅅㅡㅌㅓ -10581
▁ㅋㅗㄹㅔ -10582
ㅏㄹㅜ -10583
▁AFC -10584
▁ㄱㅣㅁㅊㅣ -10585
▁ㄱㅏㅇㅘㅇ -10586
▁4000 -10587
▁ㅅㅣㅂㅓㅁ -10588
▁ㄷㅐㅍㅣ -10589
▁ㄱㅡㅂㅎㅏ -10590
▁ㄱㅡㄹㅓㄷㅏ -10591
▁ㄴㅜㄴㄷㅗㅇㅈㅏ -10592
▁ㅍㅕㅇㅅㅏㅇㅅㅣ -10593
▁ㅇㅗㄱㅗㅇ -10594
▁ㅅㅏㅂㅈㅣㄹ -10595
▁ㄹㅓㅆ -10596
▁ㄴㅏㅇㅏ -10597
▁ㅇㅓㄱㅡ -10598
ㅅㅐㅇㅎㅘㄹ -10599
▁ㄱㅗㄴㅊㅜㅇ -10600
▁ㄱㅜㄻ -10601
ㅅㅔㅇㅛ -10602
▁ㅁㅗㄴㅣㅌㅓ -10603
▁ㅈㅘㅇㅣㄱ -10604
inal -10605
▁BGA -10606
▁ㄴㅔㅋㅡㄹㅗ -10607
▁ㅁㅜㄹㄹㅕㅂㅏㄷ -10608
▁ㅇㅏㅍㅗ -10609
ㅌㅏㄹㅜ -10610
▁ㄱㅗㅇㅅㅣㄴ -10611
ㅂㅏㄹㅏㅁ -10612
▁ㅍㅡㄹㄹㅗ -10613
▁ㄱㅣㅁㅇㅣㄹ -10614
▁ㄴㅏㅁㅎㅏㄱㅅㅐㅇ -10615
▁ㅅㅗㅈㅣㅂ -10616
▁ㅅㅜㄹㅣㅂ -10617
▁ㅍㅕㅇㄹㅗㄴㄱㅏ -10618
▁ㅇㅞㅍㅗㄴ -10619
▁ㄷㅡㄹㅜㅇㅣㄷㅡ -10620
▁ㅁㅐㅅㅈㅣㅂ -10621
▁ㄷㅏㄱㅏㄴ -10622
▁SA -10623
▁ㄷㅏㄴㄹㅕㄴ -10624
▁ㅂㅏㄹㅏㅂㄴㅣㄷㅏ -10625
▁ME -10626
ㄷㅗㅈㅓㄴ -10627
▁ㄱㅏㅇㅣㅇㅏ -10628
▁ㅇㅏㅅㅟㅇㅜㅁ -10629
▁ㄴㅐㅇㅈㅏㅇ -10630
▁ㄴㅗㅎㅇㅕ -10631
▁ㅁㅣㄴㅔ -10632
▁ㅌㅔㄹㅣ -10633
▁ㅇㅏㅈㅜㅁ -10634
▁Gaming -10635
▁ㅎㅐㅈㅜㄴㄷㅏ -10636
▁ㅅㅏㅊㅓㄴ -10637
▁ㅈㅣㅇㄱㅖ -10638
▁ㄱㅓㅁㅌㅗ -10639
▁CR -10640
▁320 -10641
▁1973 -10642
▁ㅍㅣㅊㅣ -10643
▁ㄱㅏㅇㄷㅗㅇ -10644
▁ㅇㅣㅇㅓㅈㅕ -10645
▁ㅇㅏㅇㅏ -10646
▁ㅅㅓㄴㅎㅚ -10647
▁ㄱㅣㅊㅏ -10648
▁ㅅㅡㅍㅏㅋㅡ -10649
▁ㄷㅏㄹㅋㅗㅁ -10650
▁ㅁㅕㅇㅅㅣ -10651
▁ㅇㅕㄴㅇㅣ -10652
▁ㅈㅏㅇㅂㅗㄴ -10653
▁ㅁㅏㅊㅡㅇ -10654
ings -10655
▁GSL -10656
▁ㄷㅐㅁㅕㄴ -10657
▁315 -10658
▁ㅇㅡㅅㅣㄴ -10659
▁ㅁㅗㅇㅢ -10660
▁ㅇㅝㅌㅓ -10661
▁ㅇㅓㅈㅔ -10662
▁ㅊㅗㄱㅘ -10663
ㅈㅓㄴㅅㅏ -10664
▁ㅋㅐㅂㅅㅠㄹ -10665
▁ㅅㅓㅇㅂㅜㄴ -10666
▁ㅂㅐㅇㅝㅆ -10667
▁ㅇㅣㅇㅛㅇㅈㅏ -10668
▁ㄹㅗㅍㅡ -10669
▁ㅁㅏㅊㅏㄹ -10670
▁ㅈㅠㄴ -10671
ㅠㄹㄹㅓㅁ -10672
▁ㄷㅏㅇㅊㅗ -10673
▁ㅅㅜㄱㄹㅕㄴㄷㅗ -10674
▁ㅋㅓㄹㄹㅔㄱㅅㅕㄴ -10675
▁Gl -10676
▁ㅊㅣㅇㅏ -10677
▁ㅈㅏㅇㅅㅣㄴㄱㅜ -10678
▁ㅇㅏㅇㅠ -10679
DX -10680
▁ㅈㅓㄱㅣ -10681
▁ㅇㅏㄹㅡㅂㅏㅇㅣㅌㅡ -10682
▁ㅁㅏㅁㅏ -10683
▁ㅈㅏㅅㅏ -10684
▁ㅋㅏㄹㅡㄹㄹ -10685
▁ㅁㅜㅎㅏㄴㄷㅗㅈㅓㄴ -10686
TA -10687
▁ㅈㅏㄹㅕㄱ -10688
▁ㅅㅣㄹㅕㄴ -10689
▁ㅇㅏㄹㅐㅅ -10690
▁ㅁㅣㄴㅈㅜㅇ -10691
▁ㅂㅕㄴㅎㅏㄴㄷㅏ -10692
▁ㅍㅡㄹㅔㅅㅡ -10693
▁ㅌㅜㄱㅗ -10694
▁ㅋㅡㄹㅏ -10695
▁ㅎㅕㅂㅈㅗ -10696
▁ㄴㅣㅋㅗㄴ -10697
▁Gu -10698
▁ㅇㅟㅉㅗㄱ -10699
ㅎㅏㅇㅣ -10700
▁ㅈㅜㅇㄱㅜㄱㅇㅣㄴ -10701
▁ㅇㅠㄷㅗㅇ -10702
▁ㅅㅡㄹㄹㅏㅇㅣㄷㅡ -10703
▁ㅋㅓㄴㄷㅣㅅㅕㄴ -10704
▁ㅌㅡㄹㅗㄴ -10705
▁ㄹㅏㅇㅣㄷㅡ -10706
reak -10707
▁ㄱㅜㄴㄷㅔ -10708
▁ㅇㅏㅈㅣ -10709
▁ㅋㅡㄹㄹㅏ -10710
▁ㅈㅣㅂㅅㅏ -10711
▁ㄱㅏㅇㅇㅏㅈㅣ -10712
▁ㄱㅗㅂㅏㄹ -10713
ㅌㅡㄹㅣㄱ -10714
▁ㅇㅣㄹㅁㅕㅇ -10715
▁ㅇㅗㄹㄹㅣㄴㄷㅏ -10716
▁ㅇㅣㅁㅕㅇㅂㅏㄱ -10717
▁ㄷㅐㅂㅓㅂ -10718
▁ㅇㅏㅁㅏㄴ -10719
▁ㅍㅗㅋㅡ -10720
ㅎㅔㅇㅣ -10721
ㄷㅐㅅㅏ -10722
▁ㅇㅘㅌㅏㄴ -10723
▁ㅇㅏㄹㅇㅏㄴㅐ -10724
▁ㅇㅘㅌㅏㄴㅏㅂㅔ -10725
▁ㄲㅏㄴ -10726
▁ㅇㅣㄴㄷㅗㄴ -10727
▁ㅋㅗㄲㅣㄹㅣ -10728
ㅎㅣㅌㅗ -10729
▁ㄱㅜㅇㅅㅜ -10730
ron -10731
▁ㅂㅡㄹㄹㅔㅇㅣ -10732
▁ㅈㅓㅎㅏㅇㄹㅕㄱ -10733
▁ㅈㅏㅇㅂㅗㄴㅇㅣㄴ -10734
▁ㅅㅣㅅㅣ -10735
▁ㅈㅏㄴㄹㅠ -10736
ㅌㅜㄹㅣ -10737
▁ㅅㅔㅂ -10738
▁ㄲㅡㄹㄹㅕㄱㅏ -10739
▁ㅇㅗㅈㅣ -10740
▁ㅅㅗㄲㅜㅂ -10741
ㄴㄷㅏ -10742
▁ㅎㅏㄷㅗ -10743
▁ㄷㅐㅎㅐㅅㅓㄴ -10744
▁ㅍㅏㅇㅜㄴㄷㅡ -10745
▁ㄱㅏㅈㅊㅝ -10746
▁ㅁㅜㄴㅢ -10747
▁ㅈㅜㅅㅜㄹㅅㅏ -10748
▁ㄱㅡㅁㄱㅏㅇ -10749
▁so -10750
▁ㅌㅗㅁㅗㅇ -10751
▁ㅈㅣㅁㅕㄴ -10752
▁ㅈㅓㅂㅎㅏ -10753
▁ㄱㅡㅂㅅㅣㄱ -10754
▁ㅎㅏㅊㅣ -10755
▁ㄴㅏㅍㅗㄹㄹㅔ -10756
ㅅㅓㅇㅑ -10757
▁ㅈㅏㄹㅏㄴ -10758
▁ㅈㅏㅅㅏㄴ -10759
▁ㅃㅑㅁ -10760
▁ㅇㅚㅇㅑㅅㅜ -10761
ㅌㅏㅇㅜㄴ -10762
▁ㅇㅏㅇㅣㄷㅣ -10763
▁ㄱㅡㅂㄱㅕㄱㅎㅣ -10764
▁ㅇㅘㅇㅣㅂㅓㄴㅅㅡ -10765
▁ㅎㅏㄱㅇㅟ -10766
▁168 -10767
▁ㄴㅐㅂ -10768
▁like -10769
▁ㅇㅣㅁㅏㄴ -10770
▁ㅅㅓㅂㅏㅇㅣㅂㅓㄹ -10771
▁ㄴㅔㅇㅣㅅㅕㄴ -10772
▁ㅅㅏㅇㅅㅣ -10773
ㄸㅓㄱ -10774
ㄱㅣㅇㅔ -10775
ㅈㅜㅇㄱㅏㄴ -10776
▁ㅅㅗㄱㅎㅐ -10777
▁ㅂㅜㅅㅣ -10778
▁ㅍㅏㄴㅅㅏ -10779
▁ㅈㅜㅅㅜㄹ -10780
▁ㅎㅗㄴㅎㅕㄹ -10781
▁ㅈㅓㄱㅎㅣㄴ -10782
▁ㅅㅜㅅㅣㄴ -10783
▁ㅂㅔㄹㅡㄹㄹㅣㄴ -10784
▁ㄱㅜㄱㄷㅗ -10785
ㅋㅡㅇ -10786
▁ㅎㅏㄷㅡㅇ -10787
▁ㅁㅜㄹㄹㅣㅊㅣ -10788
▁ㄷㅡㄹㅓㄴㅏㄴ -10789
▁ㅍㅕㅇㅌㅐㄱ -10790
▁ㅇㅏㅁㅜㄹㅓㅎ -10791
▁ㅂㅏㅇㅊㅣㅁ -10792
▁203 -10793
▁ㄴㅏㅍㅗㄹㄹㅔㅇㅗㅇ -10794
▁ㅁㅏㄱㅎㅕ -10795
▁ㅇㅣㅇㅛㅇㄱㅐㄱ -10796
▁will -10797
▁ㄴㅐㅇㅚ -10798
▁ㅎㅠㄷㅐㅍㅗㄴ -10799
▁ㅋㅣㄴㅗ -10800
▁ㄱㅗㅇㅎㅓㄴ -10801
▁ㅇㅠㅋㅏㄹㅣ -10802
▁ㅋㅡㄹㅏㅇㅜㄴ -10803
▁ㅅㅣㄴㅎㅏ -10804
14 -10805
▁NM -10806
▁ㅁㅏㄹㄹㅕ -10807
▁ㅁㅗㅎㅏㅁ -10808
▁ㅁㅏㅊㅣㄴ -10809
▁ㄷㅗㄹㅇㅏㅇㅗㄹ -10810
▁ㄹㅏㅇㅣㅈㅣㅇ -10811
▁ㅂㅜㅅㅏㄴㄱㅘㅇㅇㅕㄱㅅㅣ -10812
▁ㅅㅣㄱㅡ -10813
▁ㅅㅓㅇㄷㅐ -10814
▁ㅊㅗㅊㅓㅇ -10815
▁ㅇㅏㄱㅎㅐㅇ -10816
▁ㄱㅐㅁㅕㅇ -10817
ㄸㅜ -10818
▁ㅇㅣㅂㅅㅏ -10819
ㄱㅣㄱㅏㄴ -10820
▁ㄴㅐㄱㅏㄱ -10821
▁ㅂㅗㅈㅣㄱ -10822
PA -10823
▁ㄱㅏㄱㅜ -10824
▁ㅇㅘㅋㅏ -10825
▁ㅅㅡㅇㄱㅡㅂ -10826
▁ㅁㅗㅁㅁㅐ -10827
▁ㅇㅠㅁㅏ -10828
▁ㅎㅠㅇㅇㅏㄱ -10829
▁ㅇㅏㅅㅜㄹ -10830
▁ㅈㅗㄹㅣㅂ -10831
ㅂㅓㄹㅣㄴ -10832
▁218 -10833
17 -10834
▁ㄱㅣㅁㅂㅕㅇ -10835
ㅈㅓㄹㅐ -10836
▁ㅇㅣㄹㅐㅈㅓㄹㅐ -10837
▁ㅍㅗㄱㅅㅡ -10838
▁Min -10839
▁ㅍㅔㄱ -10840
▁ㄱㅠㄴㅇㅕㄹ -10841
▁ㅇㅗㅍㅔㄹㅏ -10842
▁ㄲㅜㅁㄲㅜ -10843
▁ㅅㅣㄴㅅㅏㅇ -10844
ㄱㅜㅈㅏㅇ -10845
▁ㅋㅐㄹㄹㅣ -10846
▁ㅈㅠㅇㅓㄹ -10847
ㅜㄹㅕㅅ -10848
▁ㄸㅜㄹㅕㅅ -10849
▁ㅋㅏㅇㅣㄴ -10850
▁ㅁㅗㅈㅏㄹ -10851
▁ㅅㅣㄴㅔㅁㅏ -10852
▁ㅇㅏㅌㅔㄴㅏ -10853
▁ㅂㅗㄲ -10854
ㅛㅇㅜ -10855
▁ㅅㅏㄹㅇㅏㅇ -10856
▁ㄷㅏㄴㅇㅕㄱ -10857
▁ㅈㅓㄱㅕㄱㅅㅜ -10858
▁ㄷㅏㄴㅊㅗㅇ -10859
▁ㅅㅏㅅㅡㄹ -10860
▁ㄹㅓㄴㅊㅓ -10861
▁ㅊㅜㅇㅊㅓㅇㄴㅏㅁㄷㅗ -10862
▁ㄹㅔㅇㅣㅂㅡㄴ -10863
ㅇㅓㄴㅗㅎ -10864
▁ㅇㅟㅅㅣ -10865
▁ㄷㅗㄱㅂㅗ -10866
▁ㅎㅘㅇㅎㅗㄴ -10867
▁ㅎㅠㄱㅔ -10868
▁ㅁㅜㄷㅗ -10869
▁ㅂㅐㅇㅠㄹ -10870
ㅡㄴㅏㄴ -10871
▁ㅇㅓㅇㅝㄴ -10872
▁ㅁㅏㅈㅜㅊㅣ -10873
▁ㅌㅔㅋㅡㄴㅣㄱ -10874
GA -10875
▁ㅅㅡㅋㅏㄹ -10876
▁ㅅㅓㅂㅏㅇ -10877
▁ㅌㅏㄴㅇㅏㅂ -10878
▁ㄴㅗㅍㅇㅕ -10879
▁ㅈㅓㅅㅡㅇ -10880
▁one -10881
▁ㅇㅜㅅㄱㅣ -10882
▁10000 -10883
ㄷㅏㅁㅕ -10884
▁ㅋㅡㄹㅗㅁ -10885
▁ㄷㅗㄹㅇㅕㄴㅂㅕㄴㅇㅣ -10886
▁ㅈㅔㅇㅣㄴ -10887
▁ㅊㅏㅈㅏㅇ -10888
▁ㄴㅗㅂㅜ -10889
▁ㄷㅐㅎㅏㄱㅅㅐㅇ -10890
▁ㅋㅜㄹㅣ -10891
ㅈㅜㅇㅢㅈㅏ -10892
▁ㅍㅣㄹㅅㅏ -10893
▁ㄴㅣㅌㅡ -10894
▁ㅁㅗㅅㅣ -10895
ㅂㅓㄱ -10896
▁ㅎㅗㅋㅡ -10897
▁ㄱㅛㅇㅕㄱ -10898
▁ㅎㅐㅊㅣ -10899
▁ㅅㅓㄹㅁㅏ -10900
ECT -10901
▁ㅅㅣㅋㅕㅇㅑ -10902
▁ㅈㅓㄹㄷㅏㄴ -10903
▁ㅈㅣㅈㅣㅇㅠㄹ -10904
▁ㅇㅗㄷㅏ -10905
▁ㅅㅏㄴㄷㅏ -10906
▁ㅂㅓㅂㅁㅜ -10907
▁ㅍㅏㅇㅣㄴ -10908
▁ㅅㅜㅈㅜㅇ -10909
▁ㅂㅜㄷㅗㅇㅅㅏㄴ -10910
▁ㄹㅣㅁㅣㄱㅅㅡ -10911
▁ㄱㅜㄱㅌㅗ -10912
▁ㅊㅚㅈㅓㅇ -10913
ㅅㅓㅇㅇㅣ -10914
▁ㄱㅜㄱㅂㅏㅇㅂㅜ -10915
▁ㅊㅜㅇㄱㅕㄱㅍㅏ -10916
▁ㄹㅣㅊㅡ -10917
▁ㄷㅏㄴㅅㅓ -10918
▁ㅅㅣㄹㄹㅣㄴ -10919
▁ㅇㅠㅁㅔ -10920
▁ㅁㅕㄴㅈㅔ -10921
ㅂㅌㅡ -10922
▁ㅁㅏㅅㅜ -10923
▁ㅅㅜㅅㅓㅇ -10924
▁ㅂㅓㄱㅓ -10925
▁ㅌㅟㅇㅓㄴㅏㅇㅗ -10926
▁ㅌㅓㅌㅡㄹ -10927
▁ㅇㅖㅃㅡㄴ -10928
▁Ro -10929
▁ㄹㅣㅍㅡㅌㅡ -10930
▁ㅂㅕㄴㅎㅏㅁ -10931
▁ㅇㅣㅇㅗㄹㅣ -10932
▁iOS -10933
▁ㅂㅔㄹㄱㅣㅇㅔ -10934
ㅂㅗㄱㅣ -10935
▁ㅂㅔㄹㅡㄴ -10936
▁ㅌㅏㄴㅁㅏㄱ -10937
ㅁㅜㅈㅣ -10938
▁ㅎㅏㅊㅡㄴㅔ -10939
▁ㅎㅔㄹㅏ -10940
▁ㅈㅏㄱㅇㅟ -10941
▁ㅈㅣㅌㅓ -10942
▁ㄱㅣㅁㅅㅓㅇㄱㅡㄴ -10943
▁ㄷㅐㄹ -10944
▁RO -10945
▁ㄷㅗㄹㅡ -10946
ICE -10947
▁ㄱㅗㄱㅏ -10948
▁ㅇㅣㄴㅁㅕㅇ -10949
▁na -10950
ㅌㅣㄹ -10951
▁ㅎㅏㄴㄱㅏㅇ -10952
▁ㄱㅕㄴㅎㅐ -10953
▁ㄴㅏㄴㄹㅣ -10954
▁ㄱㅓㄹㅇㅡㅁ -10955
▁ㅇㅗㅇㅕㄱ -10956
ㅇㅓㅇㅗ -10957
▁ㅁㅓㅅㅈㅣ -10958
▁ㅅㅡㅋㅗㄹ -10959
▁ㅂㅗㄹㅗ -10960
▁ㅂㅣㄷㅏㄴ -10961
▁ㅅㅣㄱㅏㄴㅍㅛ -10962
oul -10963
▁ㅈㅏㄹㅜ -10964
▁ㅇㅡㄹㅕㅁㅕㄴ -10965
▁ㅇㅣㄹㅣㅈㅓㄹㅣ -10966
▁ㅇㅘㅇㅈㅗㄱ -10967
ㄷㅡㄹㅣㄱ -10968
▁ALL -10969
▁Play -10970
▁ㄷㅓㅁㅣ -10971
▁ㅁㅜㅈㅏ -10972
▁ㅈㅓㅇㅈㅓㄴ -10973
▁ㅇㅔㅁㅂㅡㄹㄹ -10974
MAX -10975
ould -10976
▁1974 -10977
▁ㅋㅏㄴㅔ -10978
▁ㅍㅣㅇㅜ -10979
AND -10980
▁ㄲㅚ -10981
ㅔㄱㅌㅓ -10982
▁ㅈㅐㅃㅏㄹ -10983
▁ㅂㅐㄹㅣ -10984
▁ㅇㅣㅂㅇㅝㄴ -10985
▁ㅂㅓㅂㅡㄹ -10986
▁ㅎㅘㄱㅣ -10987
ㄹㅓㅅㅓ -10988
▁ㅋㅜㅁㅏ -10989
▁ㅍㅕㅇㅍㅏㄴ -10990
▁ㄷㅓㅅㅂㅜㅌㅇㅕ -10991
▁ㅅㅓㅇㅅㅏ -10992
▁KB -10993
▁Red -10994
▁ㄷㅡㄱㅍㅛㅇㅠㄹ -10995
▁ㅋㅜㅅㅡ -10996
▁ㄱㅏㄹㅇㅏ -10997
▁Ser -10998
▁ㄸㅏㅁ -10999
▁ㄱㅡㄱㅅㅣㅁ -11000
▁ㅂㅗㅍㅕㄴ -11001
▁ㄱㅖㄹㅑㄱ -11002
▁ㅎㅐㅇㅕㄱ -11003
▁ㄱㅏㅎㅐㅈㅏ -11004
▁ㅈㅜㅇㅎㅘㅁㅣㄴㄱㅜㄱ -11005
▁ㅍㅓㅇㅋㅡ -11006
▁ㅈㅜㅎㅘㅇ -11007
▁ㅇㅘㄴㅂㅕㄱㅎㅣ -11008
▁Type -11009
ㅊㅣㄴㄱㅜ -11010
ㅊㅕㅇㅑ -11011
▁ㄲㅡㅌㄴㅏㅆ -11012
▁ㄱㅗㅇㄱㅕㄱㄱㅣ -11013
▁ㅅㅑㅇㅣㄴ -11014
ody -11015
▁ㄱㅕㄱㄹㅕㄹ -11016
▁NT -11017
ㅡㄱㅏㄴ -11018
▁ㄱㅓㄷㅜㄴ -11019
▁ㅊㅜㄹㅅㅓㄱ -11020
▁ㅎㅏㅅㅏ -11021
▁UC -11022
ㄷㅜㅁㅓㄹㅣ -11023
ㅅㅣㄷㅏ -11024
▁ㅈㅓㄴㅂㅓㅂ -11025
▁ㄱㅏㄴㅍㅏ -11026
▁ㅅㅡㅌㅏㅌㅡ -11027
▁ㅅㅏㅇㅣㅌㅗ -11028
▁ㄷㅗㄹㅇㅏㅇㅗㄴㄷㅏ -11029
▁ㅅㅏㅅ -11030
▁ㅎㅢㅅㅐㅇㅈㅏ -11031
▁ㅇㅏㄹㅣㅅㅡ -11032
▁ㅇㅕㄴㅁㅏㄱ -11033
▁ㅇㅜㄷㅜㅁㅓㄹㅣ -11034
ㅂㅗㄴㄷㅏ -11035
▁ㅂㅏㄴㅈㅏㅇ -11036
▁ㅇㅣㄴㄷㅡㅅ -11037
▁177 -11038
▁se -11039
▁ㄷㅜㅇㅈㅣ -11040
ㅈㅣㄴㅗ -11041
▁ㅁㅏㄴㅈㅜ -11042
▁ㅇㅐㄱㅊㅔ -11043
▁Don -11044
ions -11045
▁ㅂㅏㄹㅌㅗㅂ -11046
▁ㅌㅏㄹㅎㅘㄴ -11047
▁ㄱㅖㅈㅓㄹ -11048
▁ㄱㅗㄴㅏㄴ -11049
▁ㄱㅏㅈㅕㅇㅘㅆ -11050
ㅔㄹㅜ -11051
▁ㅎㅔㄷㅡㅅㅑㅅ -11052
▁ㅅㅜㄴㄱㅏㄴㅇㅣㄷㅗㅇ -11053
▁ㅋㅓㅍㅡㄹㄹㅣㅇ -11054
▁ㄱㅣㅅㅌㅓㄹ -11055
▁ㅇㅣㅈㅡㅁㅣ -11056
▁ㅇㅣㄷㅡㅁ -11057
▁ㅈㅔㅇㅢ -11058
▁ㅇㅏㅅㅡㄹ -11059
▁ㄱㅣㅁㅇㅠㄴ -11060
▁Car -11061
▁ㅈㅜㅇㅣㅂ -11062
▁ㅎㅐㅂㅕㄴ -11063
▁ㄹㅣㅂㅗㄹㅂㅓ -11064
▁ㄱㅏㅁㅅㅓㅇ -11065
▁ㅌㅗㅂㅣ -11066
STER -11067
▁ㅁㅏㄴㅈㅣ -11068
▁ㄱㅏㅇㅅㅡㅂ -11069
▁ㅊㅜㅇㄱㅗ -11070
▁ㅎㅏㄴㅇㅑㅇ -11071
▁ㅍㅡㄹㄹㅔㅇㅣㅂㅓ -11072
▁ㅅㅡㄹㅍㅓ -11073
▁ㅈㅜㅅㅏ -11074
▁ㅅㅓㅇㅈㅣ -11075
▁ㅇㅢㅇㅢ -11076
▁ㅈㅣㄴㅎㅕㅇ -11077
▁ㅎㅡㄹㄹㅓㄱㅏ -11078
▁ㅅㅗㄴㅈㅏㅂㅇㅣ -11079
▁ㅁㅏㄺ -11080
▁ㅅㅓㄲㅇㅣㄴ -11081
▁ㅉㅏㄱㅅㅏㄹㅏㅇ -11082
▁ㄹㅐㄴㅅㅓ -11083
▁ㅈㅓㅇㅅㅏ -11084
▁ㅎㅗㅁㄱㅕㅇㄱㅣ -11085
▁ㅌㅐㅅㅐㅇ -11086
▁ㅂㅏㅇㅇㅜㄹ -11087
▁ㅇㅓㄹㄹㅏㅇ -11088
▁ㅈㅓㄴㄹㅏㄴㅏㅁㄷㅗ -11089
▁ㅁㅜㅂㅣ -11090
▁ㅅㅓㄴㄹㅗ -11091
▁us -11092
▁138 -11093
▁ㄱㅘㅇㅓㄴ -11094
▁ㄴㅏㄴㅟㄴㄷㅏ -11095
ㅌㅔㄱㅅㅡ -11096
▁ㄹㅏㅇㅣㅁ -11097
▁ㅅㅡㄹㄹㅏㅇㅣㅁ -11098
ㄹㅠㅁ -11099
▁1975 -11100
▁ㅂㅡㄹㅜ -11101
▁ㅇㅣㅎㅐㅇ -11102
▁ㅁㅐㅇㄷㅗㄱ -11103
▁ㄱㅓㅂㄴㅣㄷㅏ -11104
▁ㅇㅏㄴㅈㅔㄹ -11105
▁ㅇㅣㅇㅕㅇㅎㅗ -11106
▁ㄱㅡㅁㄱㅗ -11107
▁ㄱㅗㅇㅁㅕㅇ -11108
▁ㅅㅏㅇㅑㅋㅏ -11109
▁ㅅㅓㅁㅕㅇ -11110
▁ㅈㅜㄱㅛ -11111
▁ㅇㅣㅂㅈㅏ -11112
▁ㅂㅗㄹㅜ -11113
▁ㅂㅕㅇㄱㅘ -11114
▁ㅊㅡㄱㄱㅡㄴ -11115
▁ㅇㅠㅈㅣㅂㅣ -11116
▁ㄹㅗㅋㅡ -11117
▁ㅈㅐㅂㅐ -11118
▁ㄷㅗㅇㅅㅓㅇㅇㅐ -11119
▁ㅌㅡㄹㅐㄴㅅㅡㅍㅗㅁ -11120
▁Es -11121
▁ㅊㅏㅇㅣㄹㄷㅡ -11122
▁ㅇㅔㅇㅓㄹ -11123
▁ㅅㅏㅇㅇㅢ -11124
ㅊㅓㄴㄱㅜㄴ -11125
ㄷㅏㄺ -11126
▁ㅊㅓㄴㅈㅣ -11127
ven -11128
16 -11129
▁ㅊㅐㅁㅅㅡ -11130
▁ㅇㅏㅇㅣㅈㅡ -11131
▁ㅍㅣㄹㄹㅣㅂ -11132
▁ㄴㅓㅋㅡㄹ -11133
alk -11134
▁ㅋㅏㄹㅔㄴ -11135
▁ㅂㅐㅅㅜ -11136
▁ㅇㅝㄷㅡ -11137
▁ㅅㅡㅁㅗ -11138
▁ㅈㅏㅋㅔㅅ -11139
▁ㄹㅣㅊㅓㄷㅡ -11140
ㄸㅡ -11141
▁ㅅㅏㄴㅌㅏㄴㅊㅗㅇ -11142
▁ㅁㅔㅌㅔ -11143
ㄹㅔㅂㅡㄴ -11144
▁ㄷㅡㄹㅇㅡㅁㅕㄴ -11145
▁ㄷㅜㄹㅕㅇㅜㅁ -11146
▁ㄴㅐㅇㅈㅏㅇㄱㅗ -11147
▁ㅂㅜㅈㅔ -11148
▁ㅊㅏㄴㅇㅑㅇ -11149
▁ㅁㅏㄹㅡㅋㅗ -11150
▁ㅇㅘㄴㅅㅓㅇㄷㅗ -11151
▁ㅅㅓㄱㅇㅠ -11152
ㅇㅟㄷㅐ -11153
▁ㅇㅣㄴㄷㅗㄴㅔㅅㅣㅇㅏ -11154
▁ㅂㅓㅅㄱㅕ -11155
▁ㅅㅗㄴㅁㅗㄱ -11156
ㅐㄴㅏ -11157
▁ㄸㅓㄷㅗㄹ -11158
▁ㄹㅓㄴㅓ -11159
▁ㅅㅓㄹㅣ -11160
▁ㄴㅏㅈㅊㅜ -11161
▁ㅂㅏㅇㅣㅋㅡ -11162
▁ㅌㅏㅅㅡ -11163
▁ㅌㅣㅌㅏㄴ -11164
▁ㄴㅐㄹㅣㄴㄷㅏ -11165
▁ㄴㅏㄹㅇㅏㅇㅗ -11166
▁ㅇㅏㅅㅜㄹㅏ -11167
▁ㅂㅓㄴㅈㅣ -11168
▁ㅈㅗㄹㅇㅓㅂㅅㅣㄱ -11169
ㄹㅕㄱㅗ -11170
▁ㅌㅔㄴㅣㅅㅡ -11171
▁ㅍㅡㄹㅗㅅㅡㅌㅡ -11172
▁ㅎㅡㄹㄹㅓㄴ -11173
▁ㅅㅏㅇㅣㅋㅡㄹ -11174
▁ㄷㅏㅊㅣ -11175
▁ㅅㅏㅇㅇㅓ -11176
▁ㅇㅣㅅㅏㅈㅏㅇ -11177
▁ㅋㅜㄱ -11178
▁ㄹㅏㄷㅡㄴㄱㅏ -11179
▁ㄴㅗㄹㄹㅣ -11180
▁ㅂㅐㄱㅁㅏㄴ -11181
▁ㄸㅓㄹㅇㅓㄸㅡㄹㅣ -11182
ㅂㅗㅇㅜ -11183
▁ㅇㅓㄹㄹㅏㅇㅣㅇㅓㄴㅅㅡ -11184
▁Time -11185
▁ㅅㅗㅇㅜ -11186
▁ㅈㅜㅇㄷㅗ -11187
▁''' -11188
ㅣㄱㅣ -11189
▁ㄴㅗㅂㅜㄴ -11190
▁ㅍㅏㄹㄹㅣ -11191
▁ㅂㅗㄴㅈㅣㄹ -11192
af -11193
▁ㅇㅣㄴㅕㅁ -11194
ㅌㅜㄱ -11195
ㅅㅏㅅㅡ -11196
▁ㅁㅏㅅㅡㅋㅗㅌㅡ -11197
▁ㅋㅗㄴㅅㅡㅌㅏㄴ -11198
▁ㅁㅗㄹㅇㅏㄴ -11199
▁ㅇㅝㄹㄱㅏㄴ -11200
▁ㄹㅔㅇㅣㄴㅂㅗㅇㅜ -11201
ㅡㄹㅡ -11202
▁162 -11203
▁ㅎㅏㅊㅡ -11204
▁ㄸㅟㅇㅓㄷㅡㄹ -11205
▁ㄱㅕㄴㄷㅣ -11206
▁EU -11207
ㅅㅗㅊㅗㅇ -11208
▁ㄷㅗㅇㄱㅜ -11209
▁ㅇㅝㄴㅎㅘ -11210
▁have -11211
▁126 -11212
te -11213
ㅅㅡㅌㅣㅅㅡ -11214
▁ㅅㅜㄱㅏㅁ -11215
ㅓㄱㅣ -11216
▁ㅂㅜㄴㅎㅏㄹ -11217
▁ㄱㅏㅎㅣ -11218
▁ㅂㅗㄱㅏ -11219
▁ㅅㅣㄱㅅㅡ -11220
▁ㅇㅏㄹㄹㅏ -11221
ㅔㅈㅡ -11222
▁ㄴㅐㄹㅕㄱㅏㅆ -11223
▁ㅊㅏㄹㅅㅡ -11224
▁ㅂㅏㄱㅁㅕㅇ -11225
▁ㅇㅔㄴㅈㅣㄴㅣㅇㅓ -11226
▁ㅇㅣㄷㅡㅁㅎㅐ -11227
▁ㅂㅣㅇㅇㅢ -11228
▁ㅇㅓㅇㄸㅜㅇ -11229
▁ㅌㅏㄷㅏㅇ -11230
▁ㅅㅡㄹㄹㅓㄱㅡ -11231
▁ㅇㅢㅈㅓㅇㅂㅜ -11232
▁ㅊㅕㄴ -11233
▁ㅇㅔㅂㅓ -11234
▁ㅈㅐㅇㅇㅣ -11235
▁ㄴㅡㄹㅇㅓㄴㅏㄴ -11236
ㅂㅐㅌ -11237
▁ㅎㅣㅋㅏㄹ -11238
▁ㅋㅏㅇㅗㄹㅜ -11239
▁ㅍㅕ -11240
▁ㅂㅜㄱㅏ -11241
ㅓㅇㅣㄴ -11242
▁ㅍㅔㄴㅓㄹㅌㅣ -11243
▁ㅅㅡㅋㅗㅌㅡㄹㄹㅐㄴㄷㅡ -11244
▁ㅍㅕㅇㄷㅡㅇ -11245
▁ㄹㅗㄱㅡㅇㅣㄴ -11246
▁Sum -11247
▁WH -11248
▁ㅂㅗㄱㅗㅅㅓ -11249
▁ㅍㅣㅇㄱㅖ -11250
ㅌㅡㄹㅓㄹ -11251
▁ㄱㅣㅁㅅㅓㄴ -11252
ㅌㅔㅇㅣㄴ -11253
▁ㅁㅓㅅㅡ -11254
ics -11255
▁ㅅㅣㅁㅈㅓㅇ -11256
▁ㄴㅗㅂㅜㄴㅏㄱㅏ -11257
▁ㅈㅣㅇㅕㄱㄱㅜ -11258
▁ㅅㅣㄴㅅㅐㅇ -11259
▁ㅅㅣㄹㄹㅣ -11260
▁ㅍㅗㄱㄹㅗ -11261
▁ㅅㅡㅁㅐㅅㅣ -11262
▁ㅊㅏㄹㅣㅁ -11263
▁ㅋㅡㄹㄹㅣㅅ -11264
▁ㅅㅣㅇㅓ -11265
▁ㅇㅠㅁㅓ -11266
▁ㅅㅡㄴㅗㅇㅜ -11267
▁ㅈㅔㅈㅗㅅㅏ -11268
▁ㄱㅗㄹㅣㅂ -11269
▁ㄱㅣㄱㅘㄴㅍㅗ -11270
▁ㅁㅜㅅㅣㄱ -11271
▁ㅁㅏㄹㄱㅣ -11272
▁ㅌㅔㄹㄹㅔㅍㅗㅌㅡ -11273
▁ㅇㅔㄷㅡㅇㅝㄷㅡ -11274
▁ㅇㅗㄹㅡㄹ -11275
▁ㅇㅡㅇㄱㅡㅂ -11276
▁ㅋㅡㄹㄹㅣㅅㅖ -11277
▁ㅇㅕㅇㅎㅘㅈㅔ -11278
▁ㅊㅗㄷㅡㅇㅎㅏㄱㅅㅐㅇ -11279
ㄱㅟㄴ -11280
▁ㄲㅗㄹㅉㅣ -11281
YP -11282
▁ㅈㅗㄷㅓㄴ -11283
▁ㄱㅘㄱㅕㄱ -11284
▁ㄱㅗㅈㅗㅇ -11285
▁ㅇㅔㅁㅔㄹ -11286
▁ㅈㅜㅊㅏㅈㅏㅇ -11287
▁ㄷㅗㅇㅅㅏㅇ -11288
ㅡㄷㅡ -11289
▁ㅅㅏㅎㅚㅈㅜㅇㅢ -11290
▁ㅌㅗㄱㅏ -11291
▁ㄱㅣㅃㅓㅎㅏ -11292
▁ㅎㅜㅂㅏㄴㅈㅓㄴ -11293
▁ㅇㅏㅋㅔ -11294
ㅗㅅㅗ -11295
▁ㅅㅗㄹㅈㅣㄱㅎㅣ -11296
▁ㄴㅜㅅㅡ -11297
▁ㅁㅣㄴㅂㅕㅇ -11298
▁ㅇㅛㅇㅇㅢ -11299
▁ㄷㅏㅇㅣㅇㅓ -11300
▁ㅇㅠㄹㅏ -11301
▁ㄱㅗㅇㅉㅏ -11302
▁ㄴㅏㄹㅏㄱ -11303
▁ㅎㅚㄱㅖ -11304
▁ㅇㅏㅋㅜ -11305
▁ㄱㅕㄹㄱㅘㅁㅜㄹ -11306
ㅂㅏㄹㅣ -11307
ㅈㅐㅇㅝㄴ -11308
▁ㅇㅕㄱㅣㄴ -11309
▁ㅂㅕㅇㅎㅐㅇ -11310
▁ㄲㅡㄶㄱㅣ -11311
▁ㅁㅏㅈㅁㅓㄱ -11312
▁ㅈㅏㅋㅣ -11313
ㅅㅣㅅㅡㅋㅗ -11314
ㅈㅐㄱㅣ -11315
▁ㅎㅣㅋㅏㄹㅜ -11316
▁ㅈㅣㄱㅇㅟ -11317
▁ㅇㅟㅎㅏㅁ -11318
▁ㅍㅐㄱㅅㅕㄴ -11319
▁~" -11320
▁ㄷㅡㄱㅍㅛㅅㅜ -11321
ACK -11322
ㅈㅓㅇㅜ -11323
ㅣㅇㅏㄴㅏ -11324
▁ㄱㅏㅇㅗ -11325
▁BT -11326
▁know -11327
▁ㄹㅗㅂㅣ -11328
▁ㅁㅔㄴㅂㅜㅇ -11329
▁out -11330
▁ㄱㅗㅁㅏㅇㅝ -11331
▁ㅍㅗㅌㅓ -11332
▁oh -11333
▁ㅁㅗㄹㅡㄴㄷㅏㄴㅡㄴ -11334
▁ㅈㅜㅇㅈㅐ -11335
▁ㅇㅗㅈㅡ -11336
▁ㄱㅗㅊㅜ -11337
▁ㄷㅏㅈㅣㅁㅏㄴ -11338
▁IIDX -11339
▁CB -11340
▁BA -11341
ㅊㅓㄹㅓㅁ -11342
▁ㅍㅐㄴㅌㅣ -11343
ㅂㅏㄱㅅㅡ -11344
▁ㄱㅏㄹㅏ -11345
▁ㅈㅗㅎㅏㅇ -11346
▁ㄱㅡㄹㅜ -11347
ㅅㅏㄹㅡ -11348
▁ㅇㅠㄴㄹㅣ -11349
▁ㅈㅡㄹㄱㅓㅂ -11350
▁ㅈㅓㅇㅇㅢㄷㅏㅇ -11351
▁ㄹㅗㅈㅔ -11352
▁ㅂㅡㄹㅔㅅㅡ -11353
▁ㅇㅕㄴㅅㅔㄷㅐ -11354
▁ㅁㅗㅇㅏㅆ -11355
▁ㅂㅗㅂㅗㄱ -11356
▁ㅂㅏㅇㅂㅕㄱ -11357
▁ㅇㅐㅅㅟ -11358
▁ㄴㅓㅁㅇㅓㅅㅓ -11359
▁ㅅㅡㄹㅅㅡㄹ -11360
▁ㅈㅐㅈㅣㄹ -11361
▁ㅇㅕㄴㅅㅗ -11362
▁ㅅㅣㅁㅗㄴ -11363
▁ㅅㅜㄱㅊㅓㅇ -11364
▁1976 -11365
ㅃㅜㄹ -11366
▁ㅈㅜㅇㅠ -11367
▁ㅇㅏㄹㄹㅕㅈㅜㄴㄷㅏ -11368
tern -11369
▁ㅎㅜㅁㅕㄴ -11370
ㄹㅔㄴㅏ -11371
ins -11372
▁Kore -11373
▁ㄱㅡㄱㅇㅏㄱ -11374
▁ㅂㅜㄴㅂㅐ -11375
ict -11376
▁ㄹㅓㅂ -11377
▁ㅈㅔㅈㅏㄹㅣ -11378
▁313 -11379
▁EV -11380
▁ㅅㅡㄹㅍㅡㄴ -11381
▁ㅅㅗㄲㅜㅂㅊㅣㄴㄱㅜ -11382
▁pr -11383
▁ㅇㅏㄹㅡㅁㄷㅏㅇ -11384
▁ㄹㅣㅅㅔㅅ -11385
▁ㅅㅡㅂㅏㄹ -11386
▁ㅈㅣㅂㅐㅈㅏ -11387
▁ㅂㅏㄹㅈㅓㄴㅅㅗ -11388
▁ㅁㅗㄹㅇㅏㄴㅓㅎ -11389
▁ㄱㅓㄹㄹㅣㄹ -11390
▁ㄴㅓㅁㄱㅕㅆ -11391
▁ㄴㅐㅂㅐㅌ -11392
▁ㅎㅏㄴㅈㅓㅇㅍㅏㄴ -11393
▁132 -11394
▁LTE -11395
▁ㅋㅜㄴㅣ -11396
▁ㄴㅐㅁㅕㄴ -11397
▁ㅍㅔㅇㅣㅋㅡ -11398
▁ㄱㅕㄹㅇㅢ -11399
▁ㄴㅏㄴㅁㅣㄴ -11400
▁ㄹㅏㅅ -11401
▁ㅎㅗㄹㅣ -11402
▁ㅇㅝㄴㄷㅓ -11403
▁ㅁㅗㄴㅏ -11404
▁!!! -11405
▁ㄴㅏㄹㅇㅏㄷㅏㄴㅣ -11406
ㅘㅇㅇㅕㄱㅅㅣ -11407
ange -11408
▁ㅎㅐㄱㅗ -11409
▁ㅊㅏㄹㄴㅏ -11410
▁ㅋㅏㄹㄹㅏ -11411
▁ㅌㅔㅇㅣㅍㅡ -11412
▁ㅅㅣㄴㅎㅏㄱ -11413
▁ㄱㅡㄹㅕㅈㅣㄴ -11414
▁ㅅㅓㄴㅈㅣ -11415
▁ㄱㅏㅈㅕㄱㅏㅆ -11416
▁ㄷㅡㄹㅓㄴㅐㅆ -11417
▁ㅇㅑㄱㅊㅣㅇ -11418
ater -11419
▁ㅈㅔㅈㅜㄷㅗ -11420
▁ㅃㅗㅂㅇㅏㄴㅐ -11421
ㅈㅓㄴㅅㅓㄹ -11422
▁ㅎㅜㅁㅊㅣ -11423
▁ㅍㅛㄱㅣㅂㅓㅂ -11424
▁ㅋㅣㅈㅡ -11425
▁ㅂㅣㄴㅇㅑㄱ -11426
ㅍㅡㄹㄹㅓ -11427
▁Sun -11428
▁ㅍㅜㄱ -11429
▁DI -11430
▁ㅅㅜㄹㅏ -11431
▁ㄱㅓㄲㅜㄹ -11432
▁ㄱㅗㅇㄱㅛ -11433
▁ㅇㅣㅇㅣㄴ -11434
▁ㄷㅏㅈㅓㅅㅡ -11435
▁1972 -11436
▁ㅎㅏㅈㅣㅁ -11437
▁ㅇㅣㅊ -11438
▁ㅈㅜㅇㅎㅜ -11439
▁ㅊㅐㅉㅣㄱ -11440
▁ㄱㅐㅍㅏㄴ -11441
▁ㅇㅕㄱㅕㅆ -11442
▁ㅌㅜㅅㅏ -11443
▁ㅋㅏㅌㅔㄱ -11444
▁ㅋㅏㅌㅔㄱㅗㄹㅣ -11445
▁ㅍㅔㅁㅣㄴㅣㅈㅡㅁ -11446
▁ㅁㅜㅅㅣㄴ -11447
▁ㅅㅏㅇㅂㅜ -11448
▁ㅅㅜㅎㅘㄱ -11449
▁ㅈㅜㄹㅇㅕㅅㅓ -11450
▁ㅍㅣㄷㅡ -11451
▁ㅊㅔㅋㅗ -11452
▁set -11453
ㅐㄴㄷㅓ -11454
▁ㅇㅠㅂㅣㅌㅡ -11455
ㅓㅅㅣ -11456
▁ㄷㅣㅂㅏ -11457
ㅈㅕㅇㅑ -11458
▁ㅎㅐㅈㅓㄴ -11459
▁ㅁㅏㅁㅣ -11460
▁ㅇㅑㅋㅜ -11461
▁ㅇㅣㄹㅅㅏㄴ -11462
▁ㅂㅕㅇㅈㅗㅇ -11463
ㅡㄹㅜ -11464
▁ㅈㅐㅂㅓㄹ -11465
▁ㅇㅕㄴㄱㅏㄴ -11466
▁ㅂㅏㅇㅣㅋㅣㅇ -11467
▁ㅅㅜㅇㅕㅇㅂㅗㄱ -11468
▁ㅁㅣㄹㅇㅓㅂㅜㅌ -11469
▁ㅅㅓㅇㅅㅜㄱ -11470
▁ㅊㅡㄴㄷㅔㄹㅔ -11471
▁ㅈㅗㅇㅈㅓㄴ -11472
▁ㄴㅐㅃ -11473
▁ㅈㅓㅂㅈㅓㄴ -11474
▁158 -11475
▁ㄱㅏㅇㅌㅏㄹ -11476
▁ㅎㅏㅈㅣㅁㅔ -11477
▁ㅎㅘㄴㅎㅗ -11478
▁ㅇㅕㅈㅜㅇㅣㄴㄱㅗㅇ -11479
▁ㄴㅓㅁㅇㅓㄱㅏㄹ -11480
ㅌㅔㄹㅡ -11481
▁feat -11482
▁ㅈㅗㄹㅡ -11483
▁IP -11484
▁ㅁㅔㅅㅔㅈㅣ -11485
▁ㄱㅜㄷㅗㄱㅈㅏ -11486
▁ㅋㅏㄱㅜ -11487
▁ㅇㅗㄷㅣㄴ -11488
▁ㅈㅣㄴㅉㅏㄹ -11489
▁ㅌㅏㄱㅇㅝㄹ -11490
19 -11491
▁ㄱㅜㅊㅓㅇ -11492
▁GD -11493
▁ㅈㅓㅇㅈㅜㄴ -11494
▁ㅎㅣㅅㅡ -11495
▁ㅇㅣㄴㅗ -11496
ㄷㅗㄹㅍㅡ -11497
▁ㅅㅏㄱㅏㄱ -11498
▁ㄱㅡㄹㅏㅇㅍㅡㄹㅣ -11499
ㅂㅜㅇㅣㄴ -11500
ㅅㅏㅇㄱㅏ -11501
ㅍㅔㅇㅣㅅㅡ -11502
▁TP -11503
▁ㄴㅐㅈㅓㅇ -11504
▁MO -11505
ㅂㅗㄹㅏ -11506
▁ㅈㅏㅈㅏㄱ -11507
▁ㅅㅔㅈㅏ -11508
▁ㅅㅏㅇㅜㅅㅡ -11509
ㄱㅗㅁ -11510
▁ㅋㅡㄹㄹㅣ -11511
▁ㄱㅏㅅㅓㄹ -11512
ㅌㅓㄱ -11513
▁1977 -11514
▁ㄷㅏㅌㅜ -11515
▁ㅈㅣㄴㅉㅏㄹㅗ -11516
▁ㅍㅡㄹㅗㄹㄹㅗㄱㅡ -11517
▁ㅎㅣㄴㅌㅡ -11518
▁ㅁㅣㅌㅡ -11519
▁ㅊㅗㅈㅓㅁ -11520
▁ㄷㅐㄷㅡㅇ -11521
▁ㅅㅑㄴ -11522
▁ㄷㅏㅇㅎㅐㅅㅓ -11523
▁ㅅㅡㅋㅔㅈㅜㄹ -11524
▁ㅈㅓㄱㅇㅣ -11525
▁ㄱㅛㅎㅜㄴ -11526
▁IV -11527
▁ㄹㅣㄹㄹㅣㅅㅡ -11528
ㅌㅜㄱㅣ -11529
▁ㅈㅣㅋㅣㄹ -11530
▁230 -11531
▁ㅇㅠㄴㅡㅇ -11532
▁ㄹㅔㄱㅠㄹㄹㅓ -11533
▁ㅇㅜㅈㅣ -11534
▁ㅇㅡㅇㄷㅏㅂ -11535
▁ㅎㅓㅂ -11536
▁ㅃㅐㅇㅏㅅㄱㅣ -11537
▁ㄷㅏㄴㅕㅇ -11538
▁ㅅㅜㅇㅕ -11539
▁ㅍㅖㅅㅓㄴ -11540
▁ㄱㅘㄴㄹㅛ -11541
▁ㅅㅣㄴㄴㅕㅁ -11542
▁ㅇㅑㅁㅏㅁㅗㅌㅗ -11543
▁ㅈㅣㄴㄹㅗ -11544
▁ㅁㅏㅊ -11545
▁ㄱㅓㄲㅜㄹㅗ -11546
▁ㅋㅗㅅ -11547
▁High -11548
▁ㅁㅜㄱㅜㅇ -11549
▁ㅇㅣㅈㅓㅁ -11550
▁ㄱㅓㄹㄲㅏ -11551
▁ㅈㅏㅇㄷㅗㅇ -11552
▁ㄸㅜㄱ -11553
ㅎㅘㄹㅇㅑㄱ -11554
▁ㅍㅡㄹㅐㅇㅋㅡ -11555
▁ㅇㅣㅁㅈㅣㄴ -11556
▁ㄸㅢㅇㅝ -11557
▁ㄴㅣㅋㅗㄴㅣㅋㅗ -11558
▁ㄲㅏㅇㅍㅐ -11559
▁ㅈㅜㅇㄱㅡㅂ -11560
▁ㅍㅕㄴㅎㅏㄴ -11561
▁172 -11562
▁ㅊㅜㅇㄴㅏㅁ -11563
▁ㅋㅐㄴㄷㅣ -11564
▁ㅇㅐㄹㄹㅓㄴ -11565
▁ㅈㅜㅇㅂㅜ -11566
▁HS -11567
▁ㄱㅜㅎㅗ -11568
▁ㅈㅓㅂㅅㅜ -11569
▁ㅍㅣㄹㄷㅜ -11570
▁Light -11571
ㅣㅇㅑㅁㅏ -11572
▁ㄲㅓㅂㅈㅣㄹ -11573
▁ㅌㅣㅇㅏ -11574
▁ㅈㅏㅍㅗ -11575
▁ㄱㅏㅁㄱㅡㅁ -11576
▁ㅅㅣㅇㅗ -11577
▁ㅁㅜㅅㅓㅇㅝ -11578
▁ㅇㅘㅇㄱㅏ -11579
▁ㄸㅐㄹㅕㅈㅏㅂ -11580
▁ㅈㅜㄹㄱㅣ -11581
ㅈㅣㄹㅡ -11582
▁ㄱㅐㅁㅏㄱㅈㅓㄴ -11583
ㄱㅜㅁ -11584
▁ㄹㅏㅂㅣ -11585
▁ㄷㅐㅁㅕㅇ -11586
▁ㄹㅣㄴㅠ -11587
▁TE -11588
▁ㅅㅡㅂㅏㄹㅜ -11589
▁ㅎㅓㄹㅋㅡ -11590
ㅊㅓㄴㅅㅏ -11591
▁ㅊㅣㅂㅏ -11592
▁ㅌㅐㅁㅣ -11593
che -11594
▁ㄲㅜㅀ -11595
ME -11596
▁ㅅㅗㅂㅣㅈㅏ -11597
▁ㄸㅓㄹㅇㅓㅈㅕㅅㅓ -11598
▁ㅍㅣㄴㅏㄴ -11599
▁ㅋㅓㅁㅍㅓㄴㅣ -11600
▁ㅈㅣㅁㅣ -11601
▁ㅇㅑㅇㅅㅣㅁ -11602
ㄷㅣㄹ -11603
ㅁㅣㄴㅈㅜㄷㅏㅇ -11604
▁ㅎㅐㅈㅕㅅㅓ -11605
▁133 -11606
▁ㄱㅗㅇㄱㅜㄱ -11607
▁ㅎㅗㄱㅍㅕㅇ -11608
▁ㅅㅜㄴㅊㅓㄴ -11609
▁ㅂㅏㄱㅈㅟ -11610
▁ㅅㅓㅂㅊㅟ -11611
ㅍㅔㅇㅣ -11612
ㅇㅡㄴㅇㅣ -11613
▁LOVE -11614
▁ㄴㅗㄹㅏ -11615
▁ㄱㅗㅇㅜ -11616
▁ㅈㅣㄴㅏㅊㅣㄴ -11617
▁ㅈㅜㅅㅣㄱㅎㅚㅅㅏ -11618
▁ㅂㅏㄴㄷㅗ -11619
▁ㅇㅣㅅㅜㄴㅅㅣㄴ -11620
▁ㅎㅐㅅㅓㄴ -11621
▁ㄴㅐㅂㅓㄹㅕ -11622
▁ㅂㅟ -11623
▁ㅅㅡㄴㅏ -11624
▁ㅈㅐㄹㅣㅁ -11625
▁ㅂㅐㅎㅜ -11626
▁ㅁㅜㅅㅐㄱ -11627
ㅅㅔㅁ -11628
▁ㄱㅐㄱㄱㅘㄴ -11629
▁ㅌㅣㅁㅈㅏㅇ -11630
▁Your -11631
▁ㅊㅏㅂㅜㄴ -11632
▁ㅍㅏㄱㅚㄹㅕㄱ -11633
▁ㄱㅣㅅㅜㄹㄹㅕㄱ -11634
▁ㅁㅏㅇㅅㅏㅇ -11635
ㅈㅗㅁ -11636
▁ㅅㅜㄴㅊㅏㄹ -11637
▁ㄱㅡㄴㄹㅗ -11638
▁ㄹㅏㅅㅣ -11639
ㄷㅡㄹㅣㅂ -11640
▁ㅁㅣㅅㅜㄱ -11641
▁ㅈㅣㅅㅓㅇ -11642
▁ㄷㅡㄱㅅㅣㄹ -11643
▁ㄱㅗㅈㅣㄹ -11644
▁ㅈㅗㄴㅅㅡㄴ -11645
▁Tw -11646
ㅈㅔㅅㅡ -11647
▁ㅈㅣㅂㅜㅇ -11648
▁ㅍㅡㄹㄹㅔ -11649
▁ㅎㅗㅇㅡㅇ -11650
ㅁㅠ -11651
ㄷㅓㄱㅅㅕㄴ -11652
▁ㄱㅘㄱㅏㅁ -11653
▁ㅇㅕㄴㄷㅏㄹ -11654
▁la -11655
▁ㄴㅐㅇㄱㅣ -11656
▁148 -11657
▁ㅁㅣㄲㅣ -11658
▁ㅈㅣㄴㄱㅜ -11659
▁ㅇㅜㅁㅣ -11660
▁ㄱㅡㅂㅅㅗㄱ -11661
▁ㅇㅕㅈㅏㅇ -11662
▁ㅂㅏㄱㅈㅗㅇ -11663
▁ㅌㅗㅇㅂㅗ -11664
▁NEW -11665
▁ㄹㅐㄴㅅㅡ -11666
▁ㄷㅗㅅㅏ -11667
ㅣㄹㄹㅓㅅㅡ -11668
ㅅㅔㄴㅌㅡ -11669
▁ㄱㅐㄱㅡㅁ -11670
▁ㄱㅣㅁㅈㅜ -11671
▁ㅋㅜㅂㅏ -11672
▁ㅇㅏㄹㄹㅕㅆ -11673
▁ㅇㅗㄹㅡㄴㄷㅏ -11674
▁ㅈㅔㅈㅏㄱㅂㅣ -11675
▁179 -11676
▁ㅊㅜㄹㅈㅔ -11677
▁ㅈㅓㅅㅡㅌㅣㅅㅡ -11678
▁Mr -11679
▁ㅂㅗㄱㄷㅗ -11680
▁ㅎㅣㄴㅏㅌㅏ -11681
▁ㅍㅔㅇㄱㅟㄴ -11682
ㅅㅏㄱㅗ -11683
ㅂㅜㄹㅡㅋㅡ -11684
▁ㄱㅓㄴㄷㅏ -11685
▁ㅅㅏㄴㅅㅗ -11686
▁ㅁㅔㄱㅜㅁㅣ -11687
▁ㅋㅔㄹㅣㄱㅓㄴ -11688
▁ㅇㅓㅂㅔㄴㅈㅕㅅㅡ -11689
▁OF -11690
▁ㅍㅏㄴㄷㅏ -11691
▁ㄴㅡㅇㅅㅜㄱ -11692
ㅏㄱㅅㅡ -11693
▁ㄴㅗㄹㅕ -11694
▁ㅉㅣㅈㅣㄹ -11695
▁ㅁㅏㅇㅁㅕㅇ -11696
▁ㅅㅡㅌㅗㄱ -11697
▁ㄱㅏㅇㅅㅓ -11698
▁ㅈㅗㄹㅕㄱ -11699
▁ㄴㅏㄹㄹㅣㄴ -11700
▁ㅂㅣㅈㅏ -11701
▁ㄷㅗㅇㅅㅓ -11702
▁ㄷㅗㅅㅡ -11703
ica -11704
▁ㅂㅗㅌㅡ -11705
▁ㅌㅡㄹㄹㅣ -11706
ㅅㅏㄴㅇㅕㄱ -11707
▁ㅍㅏㄹㅏㅇ -11708
▁ㅎㅘㅇㅌㅐ -11709
▁ㅇㅛㅇㅜ -11710
▁ㄹㅔㅅㅡㄹㄹㅓ -11711
▁ㄷㅜㄱㅡㄴ -11712
▁ㅅㅔㄹㅖ -11713
▁ㄱㅕㄱㅌㅚ -11714
▁ㅇㅠㅇㅏ -11715
ㅇㅏㄶ -11716
▁ㅂㅏㅅ -11717
▁ㅈㅔㅈㅣ -11718
▁ㅂㅏㄹㅏㄴㄷㅏ -11719
▁ㅇㅗㄹㅡㄴㅍㅏㄹ -11720
▁ㅇㅗㅋㅔ -11721
▁ㅅㅓㅇㅂㅕㄱ -11722
▁ㅁㅐㅈㅣ -11723
ㅅㅔㅅㅓㄹㅣ -11724
▁ㅁㅗㅅㅡㅋㅡㅂㅏ -11725
ㅅㅑㅇ -11726
▁ㅍㅜㅇㄱㅕㅇ -11727
▁Gen -11728
▁ㅈㅏㅇㄱㅏㅂㅊㅏ -11729
▁ㅂㅗㄹㅡ -11730
▁ㅌㅡㄹㅐㄴㅅㅡㅍㅗㅁㅓ -11731
▁GTA -11732
▁ㄹㅏㅇㅣㅅㅔㄴㅅㅡ -11733
▁ㅂㅏㄴㄹㅗㄴ -11734
▁ㄹㅗㅁㅐㄴㅅㅡ -11735
▁ㅅㅣㅁㅎㅣ -11736
▁ㄱㅓㄹㅇㅓㄱㅏ -11737
▁ㅅㅡㅌㅣㅇ -11738
▁Mi -11739
▁ㄱㅛㅅㅣ -11740
▁ㅍㅗㄴㅣ -11741
▁ㄹㅗㅁㅏㄴ -11742
▁ㅎㅜㅋㅜㅇㅗㅋㅏ -11743
▁ㅈㅔㄷㅐ -11744
IK -11745
▁ㅅㅏㅈㅣ -11746
▁ㅇㅏㄴㄷㅗㅇ -11747
▁156 -11748
▁ㄹㅓㄱㅋㅣ -11749
▁ㅅㅏㄴㅏㅇㅣ -11750
▁Em -11751
▁ㄴㅗㄱㅗㄹ -11752
▁ㄷㅓㄹㅓㅇㅜㄴ -11753
▁am -11754
▁ㄷㅜㄴㅚ -11755
▁ㅅㅔㄱㅅㅣ -11756
▁154 -11757
▁ㅈㅣㅇㅛ -11758
▁ㅇㅣㄴㅌㅡ -11759
▁ㅇㅠㅌㅏ -11760
▁ㄱㅡㄹㅔㄱ -11761
▁ㅇㅕㅁㄷㅜ -11762
ㅓㅄㅇㅣ -11763
▁ㅅㅏㄴㅐ -11764
▁ㅈㅜㅇㄱㅗㅇ -11765
▁ㅊㅓㄹㄱㅏㅂㅌㅏㄴ -11766
ㅏㄹㄷㅜ -11767
▁ㅍㅏㅇㅜ -11768
▁ㅈㅗㅇㅁㅏㄹ -11769
▁ar -11770
▁ㄲㅗㅁㅅㅜ -11771
▁ㄷㅟㅉㅗㄱ -11772
▁ㅎㅗㄴㅏㄹㄷㅜ -11773
▁ㄸㅡㄹ -11774
▁ㅁㅓㄱㅇㅕ -11775
▁ㅇㅜㅇㅔ -11776
▁ㅎㅗㄴㅇㅣㄴ -11777
▁ㅁㅣㅁㅗ -11778
▁ㅍㅗㄷㅗ -11779
▁ㅇㅣㅈㅜㄴ -11780
▁ㅍㅛㅊㅏㅇ -11781
▁ㄹㅣㅌㅓ -11782
ors -11783
▁ㅅㅏㅅㅗ -11784
▁ㅅㅣㅈㅗ -11785
▁ㄷㅓㄴㅈㅕㅆ -11786
ㅍㅡㄹㅏㅇㅣㄴ -11787
▁Par -11788
ㅋㅣㄴㅗ -11789
▁ㄱㅛㅇㅠㄱㅊㅓㅇ -11790
▁ㅁㅏㄴㄴㅏㄴㄷㅏ -11791
ㅈㅣㅅㅏ -11792
▁ㅈㅔㄹㅏ -11793
▁ㅂㅣㅊㅏㅁ -11794
ㅋㅡㄹㄹㅣㄴ -11795
ㄹㅕㄴㅗㅎ -11796
ㅊㅝㅆ -11797
▁ㄱㅜㅎㅏㄴ -11798
▁ㄷㅓㅁㅂㅕ -11799
▁ㅂㅏㄴㅏㄴㅏ -11800
ㅅㅡㄹㅔ -11801
FL -11802
▁159 -11803
▁ㅈㅣㄴㅅㅜㄹ -11804
▁ㅎㅗㅁㅜ -11805
▁ㄴㅗㄹㅐㅂㅏㅇ -11806
ㅐㅁㅣ -11807
▁ㅋㅡㄹㅗㄴ -11808
▁ㄹㅔㅅㅡㄹㄹㅣㅇ -11809
▁ㅇㅏㅍㅅㅔ -11810
ㄴㅏㄱㅏ -11811
ㅈㅣㄹㅏㄷㅗ -11812
▁ㅁㅐㅇㅎㅘㄹㅇㅑㄱ -11813
ㄹㅗㅅㅡ -11814
▁ㅊㅗㅋㅗ -11815
▁ㄱㅣㅁㄷㅜ -11816
▁ㅇㅡㅁㅎㅑㅇ -11817
▁ㅁㅕㅇㄷㅐㅅㅏ -11818
▁ㅎㅗㄱㅜ -11819
ㅂㅏㅅㅡ -11820
▁176 -11821
▁ㄴㅏㅌㅏ -11822
▁ㅂㅏㅋㅜ -11823
▁ㅈㅣㄴㅎㅡㅇ -11824
▁222 -11825
▁ㅇㅏㄹㅇㅏㅊㅏㄹ -11826
HT -11827
▁ㅂㅐㅅㅣㄴㅈㅏ -11828
▁ㄴㅐㅇㄷㅗㅇ -11829
▁ㅊㅜㅁㅊㅜ -11830
▁ㅇㅣㄹㅋㅓ -11831
▁ㅈㅚㅅㅜ -11832
▁ㅇㅣㄹㅋㅓㄷ -11833
▁MK -11834
▁ㅇㅡㅇㅅㅣ -11835
▁ㅊㅏㄱㅈㅣ -11836
▁ㅂㅜㄴㅅㅙ -11837
▁ㅈㅓㄴㅂㅏㄴㄱㅣ -11838
ㅜㅇㅕㄱ -11839
▁ㄷㅐㅁㅗㄱ -11840
▁ㄱㅗㅇㄹㅣㅂ -11841
▁HARD -11842
▁ㅁㅣㅅㅔ -11843
▁ㅈㅐㅈㅡ -11844
▁ㅂㅏㄹㅌㅏㄱ -11845
▁1971 -11846
▁ㄱㅣㅎㅐㅇ -11847
▁ㅇㅔㅍㅣㄹ -11848
▁ㅈㅓㄴㅎㅏㄱ -11849
▁u -11850
▁ㅂㅏㄹㅂㅏㄹ -11851
▁ㅂㅡㄹㄹㅐㄱㅎㅗㄹ -11852
▁ㅁㅏㅈㅊㅜㄹ -11853
▁ㅁㅣㄷㅇㅡㅁ -11854
▁ㅅㅓㅇㅍㅗㄱ -11855
▁ㅇㅓㅁㅍㅖ -11856
▁ㅅㅗㅇㅣ -11857
▁ㅁㅏㅈㅁㅜㄹ -11858
▁ㅊㅏㅈㅇㅏㅇㅘ -11859
▁ㅊㅣㅁㅏ -11860
▁129 -11861
▁ㅁㅣㄲㅡㄹ -11862
▁ㅌㅗㅇㅌㅡㄹㅇㅓ -11863
▁ㅍㅖㅎㅓ -11864
ㅏㅇㅏㄵ -11865
▁ㄱㅏㄹㅏㅇㅏㄵ -11866
▁173 -11867
▁ㅌㅏㅁㄱㅜ -11868
▁ㅎㅑㅇㅎㅏㄴㄷㅏ -11869
ㅋㅏㅁㅣ -11870
ㄷㅣㅇㅓㄴ -11871
▁ㅎㅕㄴㅈㅣㄱ -11872
▁OCG -11873
▁ㄷㅡㄹㅇㅓㅇㅗㄴㄷㅏ -11874
ㅂㅓㄹㅕㅆ -11875
▁ㅂㅜㄹㄹㅣㅇ -11876
▁ㅈㅓㄴㅇㅣㅁ -11877
▁FPS -11878
▁ㄴㅏㅁㅇㅑㅇ -11879
▁ㅅㅏㅊㅓㄴㅇㅘㅇ -11880
ㅗㄷㅡ -11881
ㅂㅅㅡ -11882
ㅌㅣㅈㅣ -11883
▁ㅂㅓㄹㅣㅁ -11884
▁ㅈㅏㅂㅎㅕㅆ -11885
▁ㅌㅔㅇㅗ -11886
▁ㄱㅖㄱㅗㄱ -11887
▁ㅇㅣㅊㅏㅇ -11888
▁AE -11889
▁ㅇㅗㄹㅣㅇㅗㄴ -11890
▁ㅊㅐㄱㅅㅏㅇ -11891
▁ㄹㅣㅇㅜㅅㅡ -11892
▁ㅅㅣㄹㅂㅏ -11893
▁153 -11894
▁ㄱㅣㅁㅅㅜ -11895
▁ㄱㅗㄹㅐ -11896
▁ㅁㅕㅇㅌㅏㅁㅈㅓㅇ -11897
▁ㄴㅗㄹㅡㅇㅞㅇㅣ -11898
▁PL -11899
▁ㅇㅢㅇㅏ -11900
▁ㅁㅣㅎㅗ -11901
▁was -11902
▁ㅊㅓㄴㅁㅜㄴ -11903
▁ㅎㅘㅅㅓㄱ -11904
CH -11905
▁ll -11906
▁ㅌㅏㅇㅜ -11907
▁ㅇㅘㄹㅏ -11908
ㅂㅏㄱㅇㅣ -11909
▁ㅌㅔㄱㅅㅏㅅㅡ -11910
▁ㅈㅗㅅㅜ -11911
▁ㅋㅐㄹㄹㅣㅍㅗㄴ -11912
▁ㄴㅏㄹㅏㄴㅎㅣ -11913
▁ㄱㅓㄹㄹㅕㅅㅓ -11914
▁ㄴㅏㅁㅎㅏㄴ -11915
▁ㅅㅓㄴㅍㅗ -11916
▁ㅁㅜㄷㅎㅕ -11917
▁ㄷㅡㄹㅣㅂㅡㄹ -11918
▁ㅍㅡㄹㅗㄷㅓㄱㅅㅕㄴ -11919
▁ㄱㅗㅇㅡㅁ -11920
▁ㅍㅜㄹㄹㅕㄴ -11921
▁ㄹㅓㄹ -11922
pr -11923
▁ㅁㅝㄴㅈㅣ -11924
▁ㅈㅣㄹㅍㅜㅇ -11925
ㅁㅔㄴㅌㅓㄹㅣ -11926
▁ㅅㅣㅁㅠㄹㄹㅔㅇㅣㅅㅕㄴ -11927
UT -11928
ㄹㅔㄹ -11929
▁ㅌㅗㅁㅏㄱ -11930
▁ㅍㅜㄹㄹㅣㄴ -11931
▁137 -11932
▁ㅅㅡㅌㅏㄹㄹㅣㄴ -11933
▁ㅌㅔㄹㅓㄹㅣ -11934
▁Kn -11935
ㅎㅏㅇㅕ -11936
▁ㅇㅔㅁㅔㄹㅏㄹㄷㅡ -11937
▁ㄹㅏㄱㅗㄴ -11938
▁ㄹㅓㄴㅣㅇ -11939
▁ㅈㅔㄹㅣ -11940
eep -11941
ㅇㅏㄴㅣㄴ -11942
▁ㅇㅕㄴㅅㅜ -11943
▁Of -11944
▁ㅈㅛㅈㅛ -11945
▁ㅇㅜㅅㅏㄴ -11946
▁ㅁㅜㄹㅇㅓㅂ -11947
▁ㅊㅗㅇㅅㅏㄹ -11948
▁ㄴㅔㄴㅗㅁ -11949
▁ㅁㅐㄱㅡㄴ -11950
▁ㅁㅜㄷㅏㄴ -11951
▁ㅂㅗㅇㅕㅆㅇㅡㄴㅏ -11952
▁ㅋㅐㄹㄹㅣㅍㅗㄴㅣㅇㅏ -11953
▁ㅈㅣㄱㅏㄱ -11954
▁ㅎㅗㄴㄷㅏ -11955
▁ㅇㅏㅅㅏㅎㅣ -11956
▁ㅇㅣㄴㅍㅡㄹㄹ -11957
ㅋㅜㄴ -11958
▁ㅅㅣㄹㅇㅓㅂ -11959
▁ㅇㅝㄴㅎㅐㅆ -11960
▁ㅁㅐㄹ -11961
▁ㅇㅗㅍㅓㄹ -11962
▁ㅇㅓㄱㅡㅅ -11963
▁ㅇㅔㅍㅣㄹㄹㅗㄱㅡ -11964
ㅏㅇㅣㅇㅓ -11965
▁ㅈㅏㄴㅎㅐ -11966
ㅅㅡㅌㅓㄹㅣ -11967
▁ㄹㅐㅅㅡㅌㅓ -11968
▁ㅈㅓㄹㅈㅓㅇ -11969
▁ㅇㅗㄹㅏㄱㅅㅣㄹ -11970
▁ㅇㅣㄱㅘㅇ -11971
▁ㅁㅣㄹㅇㅓ -11972
▁ㄹㅗㅅㅡㅌㅓ -11973
▁ㄷㅐㅇㅏㄴ -11974
▁ㅁㅜㄴㅎㅘㅈㅐ -11975
▁~~ -11976
▁ㄱㅡㄹㅕㅆ -11977
▁ㄷㅏㄹㅡㅁㅇㅏㄴㅣㄴ -11978
▁What -11979
▁ㄱㅣㄷㅏㄹㅕ -11980
les -11981
ㄱㅛㅌㅗㅇ -11982
▁ㄷㅔㅇㅣㄹ -11983
▁ㅇㅕㅇㄷㅡㅇ -11984
▁ㅊㅐㄱㄹㅑㄱ -11985
▁ㄴㅏㅋㅏㅁㅜㄹㅏ -11986
▁ㄷㅜㅁㅗㄱ -11987
▁ㄱㅛㅈㅓㅇ -11988
▁ㅅㅣㅁㅅㅏㅇ -11989
▁ㅌㅔㄹㅔ -11990
▁GHz -11991
▁ㅂㅏㄹㄹㅔㄴㅌㅏㅇㅣㄴ -11992
ㅗㄹㄹㅏ -11993
▁ㄹㅏㄷㅓㄴㄱㅏ -11994
▁ㅇㅏㄴㄷㅡㄹㅔ -11995
▁ㅊㅓㅇㄹㅛㅇ -11996
▁ㅇㅖㅂㅏㅇ -11997
▁ㅇㅏㄹㅏㅇ -11998
▁ㅂㅐㄹㅣㅇㅓ -11999
▁ㄹㅗㅌㅔㅇㅣㅅㅕㄴ -12000
▁ㅁㅓㅅㅇㅣㅆ -12001
▁ㅅㅡㅌㅔㄹㄹㅏ -12002
▁ㅂㅜㄹㅁㅜㄴ -12003
▁ㅋㅐㅅㅡㄹ -12004
▁ㄴㅏㅊㅡ -12005
▁ㅅㅓㅊㅣ -12006
▁ㄱㅛㄷㅐ -12007
▁ㄱㅕㅇㅎㅗ -12008
▁ㅁㅏㄹㅅㅗ -12009
▁ㅇㅛㅋㅗㅎㅏㅁㅏ -12010
▁ㄹㅣㅂㅏㅇ -12011
▁1969 -12012
▁ㄹㅗㅇㅕㄹ -12013
▁ㅅㅣㄴㅅㅔㄱㅖ -12014
▁280 -12015
▁ㅇㅣㄹㅈㅗ -12016
▁ㅅㅣㅂㅈㅏㄱㅜㄴ -12017
▁ㅍㅗㄹㄹㅣ -12018
▁ㄷㅔㄹㅌㅏ -12019
▁ㅅㅜㅇㅂㅐ -12020
▁ㅎㅏㄴㄱㅕㄹ -12021
▁ㅇㅠㄴㅣㅋㅗㄴ -12022
▁BM -12023
▁ㅇㅓㄹㅇㅓㅂㅜㅌ -12024
▁ㅅㅡㄹㄹㅐㅁ -12025
▁ㅁㅔㄷㅣ -12026
▁ㄱㅣㅃㅡㅁ -12027
▁ㅇㅑㄷㅏㅇ -12028
▁ㄷㅏㅋㅠㅁㅔㄴㅌㅓㄹㅣ -12029
ㅇㅏㅅㅡㄹ -12030
▁ㅇㅏㅅㅡㄹㅇㅏㅅㅡㄹ -12031
▁174 -12032
▁ㅅㅓㅇㅜㄹㅅㅣ -12033
▁ㅊㅗㅇㅅㅓㄴㄱㅓ -12034
▁225 -12035
▁ㅋㅏㅌㅗ -12036
▁ㄱㅏㄹㅗㅁㅏㄱ -12037
▁ㅇㅔㅅㅈㅣ -12038
▁ㅁㅕㄴㅈㅓㅂ -12039
▁ㄱㅓㄷㅝㅆ -12040
▁ㄱㅗㄹㅁㅗㄱ -12041
▁139 -12042
▁ㅇㅕㅅㅜ -12043
▁Per -12044
ㄷㅓㄱㅣ -12045
ㅅㅏㅇㅘ -12046
▁ㄷㅐㄱㅛ -12047
▁134 -12048
▁163 -12049
▁ㅂㅐㅅ -12050
▁ㅇㅝㄴㅁㅏㅇ -12051
▁ㅁㅏㅌㄱㅕ -12052
▁ㅂㅜㅊㅣㄴ -12053
▁ㄸㅏㄹㅏㅈㅏㅂ -12054
▁ㅎㅏㅇㅢ -12055
▁ㅁㅣㅅㅣㄱ -12056
▁ㅋㅏㅈㅡㅇㅑ -12057
ㅍㅡㄹㄹㅓㅅㅡ -12058
▁ㅇㅝㄹㅇㅛㅇㅣㄹ -12059
▁ㅈㅜㅍㅏ -12060
▁ㅇㅠㅈㅡ -12061
▁167 -12062
▁ㅅㅣㅁㅇㅕㄴ -12063
▁ㅈㅓㅇㅈㅗ -12064
▁143 -12065
▁Fe -12066
▁ㅇㅏㄱㄱㅗㄱ -12067
▁ㄷㅏㄴㅇㅢ -12068
▁TO -12069
▁GPU -12070
▁ㄴㅐㅁㅣㄹ -12071
▁Heart -12072
▁ㄹㅗㅁㅏㅇ -12073
ㄹㅣㅇㅜㄷㅡ -12074
ㄹㅣㅇㅣㄴ -12075
▁ㅂㅣㄱㅌㅗㄹㅣㅇㅏ -12076
▁ㅌㅜㅅㅓㅇㅇㅣ -12077
ㅂㅗㄹㄹㅜㅅㅕㄴ -12078
▁ㅂㅜㄴㅍㅗ -12079
▁ㅇㅗㅌㅏㅋㅜ -12080
ㅇㅏㅍㅡㄹㅣㅋㅏ -12081
▁ㅇㅣㅁㅜ -12082
▁ㅇㅜㅅㅏㅇ -12083
▁ㅅㅡㅍㅏㅇㅣㅋㅡ -12084
▁ㅅㅏㅇㅈㅏㅇ -12085
▁ㅆㅡㄹㄷㅔㅇㅓㅄㅇㅣ -12086
▁ㅎㅐㅅㅏㅇㄷㅗ -12087
ㅍㅡㄹㅏㄴ -12088
▁ㅅㅡㅍㅔㅇㅣㄴㅇㅓ -12089
▁ㄲㅡㅌㅈㅏㅇ -12090
▁ㅊㅚㄷㅐㅊㅣ -12091
ㅎㅏㅇㅣㄹ -12092
▁Good -12093
▁ㅍㅏㅅㅡ -12094
ㅊㅗㅇㅈㅏㅇ -12095
ㅋㅓㄴㄷㅡ -12096
▁ㅈㅜㄹㅇㅓㄷㅡ -12097
ㅈㅏㄱㅣ -12098
▁ㅅㅔㅋㅓㄴㄷㅡ -12099
▁yout -12100
▁ㄱㅡㅈㅔ -12101
▁142 -12102
▁ㅈㅓㄴㄱㅘㅇ -12103
▁ㅎㅏㅁㅅㅓㅇ -12104
ㅅㅣㅁㅜㄹ -12105
▁CO -12106
▁ㅊㅓㅇㅅㅏ -12107
▁ㅂㅜㅊㅓ -12108
▁ㄹㅜㄹㅜ -12109
▁ㅆㅡㄹㅓㅈㅕ -12110
▁ㅇㅣㄴㄱㅜㅅㅜ -12111
▁ㅎㅘㅇㅑㄱ -12112
ㅌㅠㄴ -12113
▁ㅇㅛㅇㅇㅢㅈㅏ -12114
▁ㅇㅕㄴㄱㅣㄹㅕㄱ -12115
▁2500 -12116
agon -12117
▁ㄷㅏㅋㅔ -12118
▁ㅇㅘㅇㄱㅘㄴ -12119
▁ㅇㅕㄷㅗ -12120
▁ㅌㅐㄱㅝㄴ -12121
▁ㅁㅓㄴㅈㅣ -12122
▁ㄱㅕㅇㅅㅏ -12123
▁ㅍㅐㄴㅣㄱ -12124
▁ㄱㅘㄴㄱㅘㅇㄱㅐㄱ -12125
▁ㅂㅏㄴㄹㅏㄴㄱㅜㄴ -12126
ert -12127
▁ㅅㅡㅇㅟㅂ -12128
▁ㅅㅡㅍㅏㄹㅡ -12129
▁ㅈㅜㄹㅇㅓㄷㅡㄴㄷㅏ -12130
▁ㅎㅐㄹ -12131
▁ㄹㅗㅈㅣ -12132
▁164 -12133
▁ㅎㅏㅇㄱㅗㅇㅅㅏ -12134
▁ㅎㅣㅋㅏㄹㅣ -12135
▁ㅅㅓㄴㅅㅜㄷㅏㄴ -12136
▁CN -12137
▁ㅅㅡㅌㅗㅋㅓ -12138
▁ㅇㅣㄴㅅㅏㅇㅣㄷㅡ -12139
▁ㅌㅡㄹㅔㅇㅣㄴㅣㅇ -12140
▁ㄸㅐㄹㅗ -12141
ㄱㅕㅂ -12142
▁ㅈㅔㅅㅏ -12143
▁beat -12144
▁ㅁㅜㅇㅏㄴ -12145
ㅇㅝㅅㅓ -12146
▁ㅁㅏㄹㄹㅔㅇㅣ -12147
▁ㅁㅣㅇㅠㅋㅣ -12148
▁ㅂㅜㄹㅋㅙ -12149
▁ㅇㅣㅎㅗ -12150
▁ㅋㅗㄴㅅㅔㅂ -12151
ㄹㅓㅅㅡ -12152
▁ㄷㅡㄹㅔㄷㅡ -12153
▁pro -12154
▁ㄱㅜㅈㅔ -12155
▁ㄷㅗㅅㅣㄹ -12156
▁ㅅㅣㄹㄹㅗ -12157
EL -12158
▁ㅇㅑㅁㅏㄷㅏ -12159
ㄴㅣㅇ -12160
ㅇㅓㅂㅓㄹㅣ -12161
▁ㅎㅏㄹㅅㅜㄹㅗㄱ -12162
▁ㅅㅣㅁㅇㅑ -12163
▁ㅂㅐㅌ -12164
▁ㅇㅠㄴㅏ -12165
▁ㅅㅏㄴㅏ -12166
▁ㅁㅏㅇㅢ -12167
▁ONE -12168
▁ㅈㅔㄷㅏㄴ -12169
▁ㄴㅜㅇㅣ -12170
▁ㅊㅓㅇㅈㅏㅇ -12171
▁ㅇㅡㅁㅅㅐㄱ -12172
▁ㅅㅓㄴㅇㅣㄴ -12173
▁ㄸㅟㅇㅓ -12174
▁ㅈㅣㄱㄱㅕㄱ -12175
▁ㅇㅣㅇㅗ -12176
▁ㄱㅡㄱㅇㅜ -12177
▁ㅎㅗㅇㅅㅓㅇ -12178
▁ㄴㅠㅈㅣㄹ -12179
▁ㄷㅏㅁㄱㅕ -12180
▁ㅇㅘㅇㅎㅜ -12181
▁ㅇㅏㄱㄹㅕㅇ -12182
▁ㅍㅐㅅㅡㅌㅡ -12183
▁ㄷㅗㅇㅇㅏㅅㅣㅇㅏ -12184
▁ㅅㅣㄴㅈㅜ -12185
▁ㅈㅣㄱㅌㅗㅇ -12186
▁ㅇㅣㄹㅡㄴㄷㅏ -12187
▁136 -12188
ㅈㅏㅈㅐ -12189
▁ㅊㅜㅁㅗ -12190
▁ㄱㅣㅁㅇㅕㄴ -12191
▁ㄱㅣㅁㅊㅓㄴ -12192
▁ㄱㅘㄴㄱㅖㅇㅓㅄㅇㅣ -12193
▁ㅈㅣㄱㅡㄱ -12194
ㅈㅗㅁㅁㅜ -12195
▁ㄱㅗㅇㄱㅗ -12196
▁ㅎㅡㅁㅈㅗㅁㅁㅜ -12197
▁ㅋㅣㅇㄷㅓㅁ -12198
▁ㅋㅗㄴㅅㅔㅂㅌㅡ -12199
▁ㅈㅣㅇㅋㅡㅅㅡ -12200
▁ㅊㅏㅁㅇㅡㄹㅗ -12201
▁ㅆㅡㄹㅓㅌㅡㄹㅣ -12202
ㅏㄱㅏㄴㄷㅏ -12203
▁ㄷㅗㄹㅇㅏㄷㅏㄴ -12204
▁ㅎㅚㄹㅗ -12205
▁ㅂㅓㅈㄲㅗㅊ -12206
ㄴㅗㅁ -12207
▁ㄹㅣㅂㅜㅌㅡ -12208
▁ㅋㅗㅍㅡ -12209
▁ㅈㅔㅇㅣㅅㅡㄴ -12210
▁ㅋㅜㅁ -12211
▁Dark -12212
▁ㄴㅐㅅㅔㅇㅜ -12213
}} -12214
▁time -12215
▁KC -12216
▁ㅎㅏㅇㅜ -12217
▁ㅅㅓㅈㅏㅇ -12218
▁ㅌㅔㅁㅍㅗ -12219
▁ㅂㅏㅇㅇㅏㄴ -12220
▁ㅈㅓㄱㄹㅣㅂ -12221
ㅅㅏㄴㅗ -12222
▁ㅁㅐㅅ -12223
▁ㄱㅐㄱㅡㅁㅐㄴ -12224
▁ㅇㅏㅇㅣㅅㅡㅋㅡㄹㅣㅁ -12225
▁ㄷㅓㄱㅜㄴㅏ -12226
▁ㅂㅏㄱㅅㅏㅇ -12227
▁ㅇㅣㄹㅎㅘㄴ -12228
▁ㄷㅔㅅㅡㅌ -12229
▁ㄱㅜㅇㅈㅓㄴ -12230
ㅁㅜㅅㅣㄹ -12231
▁ㅇㅗㅍㅡㄹㅏㅇㅣㄴ -12232
ㅂㅐㄱㄱㅘ -12233
▁ㅇㅣㄹㄹㅣ -12234
▁ㅎㅐㄴㄷㅡㅍㅗㄴ -12235
▁ㅅㅑㅇㅗ -12236
▁ㄷㅗㅁㅏ -12237
▁ㄷㅗㅇㅂㅜㄱ -12238
▁ㄷㅟㅈㅣ -12239
▁ㅅㅏㅂㅓㅁ -12240
▁ㄷㅔㄹㅕ -12241
▁ㅌㅓㅇ -12242
▁ㅈㅗㅈㅜㄴㄱㅕㅇ -12243
▁ㅇㅏㅍㄷㅟ -12244
▁ㄱㅕㅇㅊㅏㄹㅊㅓㅇ -12245
▁ㅎㅏㄴㅊㅡㅇ -12246
▁ㅊㅟㅎㅏㄴ -12247
▁ㅎㅐㅌㅐ -12248
▁ㅂㅏㄴㅣㄹㄹㅏ -12249
ㄷㅗㄹㅏ -12250
▁ㅇㅐㅇㅋㅓ -12251
▁ㅇㅘㄴㄱㅜ -12252
▁ㅂㅓㄴㄱㅏㄹ -12253
▁ㅅㅗㄴㅗ -12254
▁ㅂㅡㄹㅐㄴ -12255
▁ㅇㅓㄹㅣㄴㅇㅏㅇㅣ -12256
▁ㄱㅕㅇㅈㅣ -12257
▁ㄱㅣㅇㅣ -12258
▁ㅎㅜㄴㅎㅜㄴ -12259
ㅁㅜㄱㅔ -12260
▁ㅁㅗㅁㅁㅜㄱㅔ -12261
▁1963 -12262
▁ㅁㅏㅇㅛ -12263
▁ㄷㅏㄹㅜㄹ -12264
▁157 -12265
▁ㅁㅣㄹㅏㅇㅣ -12266
▁ㅈㅣㄴㅅㅓㅇ -12267
▁ㅇㅠㅅㅓㄴ -12268
▁ㅇㅏㄴㅊㅓㄹㅅㅜ -12269
▁ㅈㅏㅂㅜ -12270
▁ㅈㅜㅇㅅㅣㅁㅈㅣ -12271
▁ㅎㅏㄴㄱㅏ -12272
▁ㅊㅔㄱㅕㄱ -12273
ㅂㅗㅅ -12274
▁ㅅㅜㄹㅈㅣㅂ -12275
▁330 -12276
▁0900 -12277
▁ㅇㅏㄴㅁㅜ -12278
▁ㅈㅚㅅㅗㅇ -12279
ㅅㅣㅌㅣ -12280
▁ㅈㅜㅇㄴㅕㄴ -12281
▁ㅎㅗㄴㄷㅗㅇ -12282
other -12283
▁ㄱㅡㄹㅐㄴ -12284
▁ㄴㅐㅃㅜㅁ -12285
▁ㅇㅝㄴㅈㅜ -12286
ㄸㅜㅀ -12287
▁ㅁㅗㄷㅓㄴ -12288
▁ㅁㅗㅇㅑㅇㅅㅐ -12289
▁ㅇㅠㅎㅐ -12290
ㅍㅜㄹㅇㅣ -12291
▁ㅂㅣㅂㅣ -12292
▁ㅎㅘㅅㅗ -12293
▁ㅇㅕㄴㅇㅢ -12294
iew -12295
▁ㅇㅕㄹㅅㅔ -12296
ㄱㅗㅅㅏ -12297
▁ab -12298
▁ㄷㅔㄴㅁㅏㅋㅡ -12299
▁ㄴㅏㄴㅌㅜ -12300
▁ㅊㅏㅈㅇㅏㅇㅘㅆ -12301
ideo -12302
▁ㄹㅣㅈㅏ -12303
land -12304
ㅋㅣㄴㅏ -12305
▁ㅁㅜㄴㅅㅣㄴ -12306
▁ㅈㅘㅍㅏ -12307
▁ㅈㅓㄴㅅㅜ -12308
▁ㄱㅡㄴㄹㅕㄱ -12309
▁ㅁㅠㅈㅣㅅㅕㄴ -12310
▁Sm -12311
▁ㅇㅚㅁㅕㄴ -12312
▁ㅂㅏㅇㅎㅗ -12313
▁ㅂㅐㅇㅜㅈㅏ -12314
▁ㅅㅜㄴㅈㅓㅇ -12315
ㅌㅣㄴㅓㅁ -12316
▁ㅈㅓㄴㅂㅏㄴㅈㅓㄴ -12317
▁ㅍㅡㄹㄹㅐㅌㅣㄴㅓㅁ -12318
▁ㄴㅜㄴㅂㅣㅊ -12319
▁ㄹㅔㅍㅡ -12320
▁ㅋㅗㅅㅡㅁㅗ -12321
▁ㅇㅜㅌㅜ -12322
ㅇㅡㅁㅡㄹㅗ -12323
▁ㅅㅏㅌㅜㄹㅣ -12324
▁ㅎㅗㅂㅏㄱ -12325
▁ㄴㅠㅈㅣㄹㄹㅐㄴㄷㅡ -12326
▁ㅊㅓㄴㅕ -12327
▁ㅂㅜㄹㄹㅣㄹ -12328
▁ㅇㅑㅇㄷㅐ -12329
▁ㅈㅏㅈㅣㄹ -12330
▁ㅎㅠㅅㅡㅌㅓㄴ -12331
air -12332
▁ㅊㅏㅇㄹㅣㅂ -12333
▁ㅇㅗㄹㅗㅊㅣ -12334
▁ㅍㅐㄷㅡ -12335
▁ㅇㅏㄹㅂㅏ -12336
▁Sl -12337
▁ㅎㅏㅂㅊㅣ -12338
▁ㅇㅕㄴㄱㅡㅁㅅㅜㄹㅅㅏ -12339
▁ㅇㅟㄴㅌㅓ -12340
▁ㅈㅜㅎㅏㄴ -12341
▁ㄷㅐㅈㅜㅇㄱㅛㅌㅗㅇ -12342
▁ㅂㅡㄹㅜㅅㅡ -12343
▁1968 -12344
▁ㅇㅜㅊㅓㄴ -12345
▁ㅈㅔㅇㅜㅅㅡ -12346
▁270 -12347
▁ㅇㅏㄴㅣㄴㅈㅣ -12348
ㄴㅐㅇ -12349
▁ㄴㅏㅁㅜㅅ -12350
▁ㅈㅓㅈㅗ -12351
▁ㅅㅏㅋㅜㄹ -12352
▁ㅅㅓㄹㅌㅏㅇ -12353
▁ㄸㅒ -12354
▁ㅊㅣㅁㅎㅐ -12355
▁ㅈㅏㅇㄹㅖㅅㅣㄱ -12356
▁ㅊㅜㄹㅇㅕㄴㅈㅣㄴ -12357
▁ㅋㅣㄹㅗ -12358
▁ㅂㅗㄴㅇㅢ -12359
▁ㅍㅡㄹㄹㅏㅅㅡㅌㅣㄱ -12360
▁ㅅㅣㅎㅡㅇ -12361
▁ㅈㅣㅂㅍㅣㄹ -12362
▁Blue -12363
▁ㄲㅞㄸㅜㅀ -12364
▁ㅌㅜㅅㅣㄴ -12365
▁ㄴㅗㅇㅁㅣㄴ -12366
▁ㅅㅣㄴㅇㅣㅁ -12367
▁ㅎㅛㅇ -12368
▁Baby -12369
▁ㅁㅔㅇㅣㅌㅡ -12370
▁AG -12371
ator -12372
▁ㅈㅓㅇㅅㅓ -12373
▁ㄷㅏㄹㄹㅏㅆ -12374
▁ㅎㅐㄷㅗㄱ -12375
▁ㅈㅜㅇㅝ -12376
▁ㅁㅣㄴㅣㅇㅓㄴ -12377
▁ㅇㅚㄱㅘㄴ -12378
▁ㅇㅣㅅㅓㄴ -12379
▁ㅁㅗㄱㅍㅗ -12380
▁ㄷㅏㅇㄱㅜㄱ -12381
▁ㄷㅗㅅㅣㄹㅏㄱ -12382
▁ㅋㅡㄹㄹㅏㅇㅜㄷㅡ -12383
▁...... -12384
oot -12385
▁ㅅㅡㅋㅔㅇㅣ -12386
▁ㅎㅘㄴㅅㅏ -12387
▁ㅈㅓㄴㅇㅕㄹ -12388
▁ㅌㅔㄹㅓㄹㅣㅅㅡㅌㅡ -12389
▁Ac -12390
anna -12391
▁ㅈㅜㅇㄱㅜ -12392
▁ㄷㅐㅈㅣㄴ -12393
▁ㅈㅏㅇㅍㅜㅇ -12394
▁ㅍㅏㅇㅣㅍㅡ -12395
ㅑㄴ -12396
▁ㅅㅑㅇㅝ -12397
▁ㅊㅗㄱㅛ -12398
▁ㄲㅐㅇㅏㄹ -12399
▁ㅂㅡㄹㅔㅇㅣㄴ -12400
▁ㄱㅣㅍㅣ -12401
▁ㄱㅣㅁㄷㅐㅈㅜㅇ -12402
ㅐㄱㅅㅕㄴ -12403
▁ㅅㅓㄴㄱㅛ -12404
▁ㅎㅏㅇㅣㅂㅡㄹㅣ -12405
▁ㅇㅠㅋㅗ -12406
▁ㅈㅓㅎㅢ -12407
▁ㅂㅓㄹㄱㅡㅁ -12408
▁ㅎㅏㅇㅣㅂㅡㄹㅣㄷㅡ -12409
ㄹㅓㄴㅌㅡ -12410
ㅋㅣㅁ -12411
▁ㅅㅜㅅㅣㄹㅗ -12412
▁ㅁㅔㄹㄹㅗㄴ -12413
▁ㅂㅜㅅㅏㄱㅘㄴ -12414
▁ㅈㅓㄴㄹㅏㅂㅜㄱㄷㅗ -12415
▁ㅂㅏㅇㅇㅓㄴ -12416
▁ㅊㅓㅇㄴㅏㄹㅏ -12417
▁ㅈㅏㅊㅣㅅ -12418
ush -12419
▁ㄱㅖㅅㅣ -12420
▁ㅁㅜㅅㅜ -12421
▁ㅈㅣㅂㅎㅏㅂ -12422
ㅜㄴㅔ -12423
▁ㅎㅣㄹㅗㅅㅣㅁㅏ -12424
▁ㅇㅏㄹㄹㅔㄱㅅㅏㄴㄷㅓ -12425
▁ㅇㅕㄴㅎㅚ -12426
▁ㅆㅙ -12427
▁ㄷㅏㅁㅇㅣㅁ -12428
▁149 -12429
ㄴㅓㄱ -12430
▁ㄲㅏㄹㄹㅕ -12431
▁ㅋㅣㄷㅡ -12432
▁ㅂㅏㅇㄱㅗㅇ -12433
▁ㅁㅗㄹㅇㅏㅂㅜㅌ -12434
▁ㅈㅣㅍ -12435
▁ㅁㅏㅊㅕㅆ -12436
▁ㅂㅡㄹㅗㄴㅈㅡ -12437
▁ㄱㅜㄹㅗ -12438
▁ㅅㅔㄴㅌㅡㄹㅓㄹ -12439
ㅅㅣㅁㅗㅌㅗ -12440
▁ㄱㅏㄱㄱㅜㄱ -12441
▁ㅅㅏㅌㅏㄴ -12442
▁ㅅㅔㄱㅅㅡ -12443
▁ㅅㅐㅇㄱㅕㅅㅓ -12444
▁ㅈㅓㄱㅅㅓㅇ -12445
▁ㄴㅓㄱㄴㅓㄱ -12446
▁ㅊㅟㅈㅣ -12447
▁ㅎㅢㄷㅐ -12448
▁ㅊㅗㅇㄷㅗㄱ -12449
▁ㄷㅏㄹㄹㅏㅈㅣㄴ -12450
ㅎㅜㄱ -12451
▁ㄹㅚ -12452
▁ㅈㅗㄴㄷㅐ -12453
▁146 -12454
▁ㅅㅏㅇㅅㅙ -12455
▁ㅌㅡㄹㅓㅂㅡㄹ -12456
▁ㄱㅕㅇㅈㅔㅎㅏㄱ -12457
▁ㅋㅏㅌㅡㄹ -12458
ㄷㅣㅅㅡ -12459
▁ㄱㅏㅎㅗㄱ -12460
▁ㅎㅘㅇㅅㅣㄹ -12461
▁ㅎㅘㄱㄱㅗ -12462
▁ㄱㅡㄹㅕㅈㅕ -12463
▁ㅁㅗㄹㅡㄴㄷㅏㄱㅗ -12464
ㅁㅗㅇㅓ -12465
▁ㅎㅓㅂㅡ -12466
▁Li -12467
▁OK -12468
▁ㅂㅔㅇ -12469
▁ㅅㅏㄹㅡ -12470
▁ㄱㅗㅇㅁㅗ -12471
▁ㅁㅓㅁㅊㅝ -12472
▁Fire -12473
▁ㅁㅏㅋㅔㅅ -12474
▁ㅈㅗㄱㅛ -12475
▁ㅇㅏㅁㅔㄹㅣㅋㅏㄴ -12476
▁ㅇㅣㅅㅔ -12477
▁ㅎㅏㅇㅣㅁ -12478
▁ㅅㅗㄴㄲㅗㅂㅎㅣ -12479
▁ㄱㅣㅎㅏㅁ -12480
na -12481
▁ㅂㅡㅇㅣ -12482
ㅂㅣㄱㅜㄴ -12483
▁ㅈㅣㅁㅜㄴ -12484
▁ㅁㅏㅊㅗ -12485
ㅌㅗㄹㅣㅇㅓㄹ -12486
▁ㄱㅕㄱㅈㅓㄴ -12487
▁ㅅㅣㅁㅎㅐㅆ -12488
▁ㅇㅔㅁㅣㄹ -12489
▁ㅎㅏㅇㅕㄱㅡㅁ -12490
▁ㅇㅏㅁㅋㅓㅅ -12491
▁ㄱㅓㅍㅜㅁ -12492
ㅇㅇㅣ -12493
▁ㅎㅜㅋㅜㅅㅣㅁㅏ -12494
▁ㅌㅠㅌㅗㄹㅣㅇㅓㄹ -12495
▁ㄱㅓㅊㅣㄹ -12496
▁ㅅㅏㅇㄱㅗㅇ -12497
▁260 -12498
▁ㅋㅡㄹㅗㄹ -12499
▁ㄴㅏㄺ -12500
▁ㅇㅑㅈㅓㄴ -12501
▁ㅇㅣㄹㅅㅏㅁ -12502
▁ㄱㅗㅇㅇㅕㅇ -12503
▁ㅈㅗㅇㅊㅏㄱ -12504
▁ㅅㅣㅁㅎㅘ -12505
▁ㅇㅝㄹㄷㅡㅇ -12506
▁ㅍㅡㄹㅗㅌㅗㅌㅏㅇㅣㅂ -12507
▁ㄱㅏㅇㅅㅔ -12508
▁ㅇㅠㄴㅣㅇㅗㄴ -12509
▁El -12510
▁ㅍㅔㅇㅣㅋㅓ -12511
ㅅㅣㄴㅏ -12512
▁ㅇㅞㅇㅣㄴ -12513
▁sm -12514
▁ㅈㅜㅇㅢㅈㅏ -12515
▁ㄴㅏㅁㅁㅣ -12516
▁ㅍㅡㄹㅔㄴㅈㅡ -12517
ㅏㅁㅗ -12518
▁ㅂㅣㄴㅌㅡㅁ -12519
▁ㄴㅔㅂ -12520
▁ㅁㅗㅇㅓ -12521
▁ㅁㅏㄹㄴㅕㄴ -12522
▁ㅂㅕㅇㅈㅏㅇ -12523
ㅈㅏㄹㅡ -12524
▁ㄱㅕㅇㄱㅘ -12525
▁ㅇㅏㄹㅡㅋㅏ -12526
▁Dis -12527
▁ㅈㅗㅎㅇㅏㅎㅏㄴㄷㅏ -12528
▁ㄴㅜㄴㅊㅣㅊ -12529
OID -12530
▁ㄷㅝㅆ -12531
▁ㅁㅐㄱㄹㅏㄱ -12532
▁ㅇㅜㄴㅂㅏㄴ -12533
▁ㅊㅗㅅㅏㅇㅎㅘ -12534
▁ㄹㅔㅇㅣㄴㅓ -12535
▁ㅅㅠㅌㅓ -12536
▁ㅈㅔㅍㅡ -12537
▁ㄹㅐㅂㅌㅓ -12538
▁ㅊㅏㄹㄹㅣ -12539
▁ㅇㅣㄴㅊㅔ -12540
▁ㅅㅓㅇㄱㅏ -12541
ady -12542
ㅈㅓㄴㅌㅡ -12543
▁ㅅㅣㄹㄹㅕㄱㅈㅏ -12544
▁ㅇㅣㄹㄹㅔㅂㅡㄴ -12545
▁ㄱㅡㄹㅣㄹ -12546
ㅏㄱㅔ -12547
ㄷㅓㅅㅡㄴ -12548
▁ㅈㅜㄹㄱㅔ -12549
▁ㄱㅗㅇㅅㅗㄴ -12550
▁ㅇㅣㄹㅍㅜㅁ -12551
▁BEMAN -12552
▁kr -12553
▁ㄱㅗㅅㅡ -12554
▁ㅇㅝㄴㅈㅏㄹㅕㄱ -12555
▁ㅅㅡㅌㅔㅍㅏㄴ -12556
▁ㅁㅣㅅㅡㅌㅓㄹㅣ -12557
▁ㅎㅏㅂㅂㅓㅂ -12558
▁ㅈㅏㅇㅣㄹ -12559
▁ㅊㅐㄱㅇㅣㅁㅈㅣ -12560
▁ㅌㅏㅋㅏㅅㅣ -12561
▁ㅇㅗㅇㅢ -12562
▁ㅍㅠㅊㅓ -12563
▁ㄱㅗㄹㅕㅇ -12564
▁ㅈㅣㅇㅗㄴ -12565
▁ㅅㅓㄱㅅㅏㅇ -12566
▁ㅈㅜㅇㅎㅏㄱㅅㅐㅇ -12567
▁ㄱㅗㅅㅓㅇ -12568
▁ㅍㅏㄱㅕㄱ -12569
▁ㅊㅔㅅㅡ -12570
▁ㅅㅜㄱㅈㅜ -12571
▁ㅍㅗㅇㅝㄷㅡ -12572
▁ㅈㅣㅇㅡㅁ -12573
▁ㅅㅣㄴㅂㅕㅇ -12574
▁ㅍㅡㄹㅗㅁㅗ -12575
ㄷㅏㄴㅈㅣ -12576
▁ㅂㅕㄹㅊㅣㅇ -12577
ㅇㅜㄴㅅㅜ -12578
▁ㅌㅗㅇㅎㅐㅇ -12579
▁ㅈㅓㄱㅈㅐ -12580
▁ㅈㅓㅇㅎㅐㅈㅕ -12581
▁ㅍㅕㄴㄱㅕㄴ -12582
▁ㅆㅗㄷㅇㅏㅈㅣ -12583
▁ㅅㅗㄱㄹㅕㄱ -12584
▁ㄲㅜㅁㅣ -12585
▁ㅋㅔㄴㅈㅣ -12586
▁ㅅㅜㄹㅑㅇ -12587
▁DJMAX -12588
▁ㄹㅡㄴㅗ -12589
▁BEMANI -12590
▁ㅁㅣㅈㅡㅋㅣ -12591
▁ㅁㅜㄴㅂㅓㅂ -12592
▁ㄱㅕㄱㄱㅣ -12593
▁ㅁㅜㅅㅓㄴ -12594
▁ㅅㅐㅇㅅㅓㄴ -12595
▁ㅌㅔㄹㅡ -12596
▁ㅁㅚ -12597
▁ㅍㅏㅅㅗㄴ -12598
ㅇㅓㅁㅓㄱ -12599
▁ㄷㅗㄱㅓㅁ -12600
▁ㄱㅓㄹㅇㅓㅅㅓ -12601
ㅅㅡㅌㅗㄹㅏㅇ -12602
▁ㄱㅏㅅㅓㅇ -12603
▁ㄷㅟㅅㅁㅕㄴ -12604
▁ㅇㅕㄴㅁㅏㄹ -12605
▁ㄹㅔㅅㅡㅌㅗㄹㅏㅇ -12606
▁fl -12607
▁ㅂㅣㄴㅂㅓㄴ -12608
▁Champ -12609
▁ㅍㅔㄹㅡㅅㅣㅇㅏ -12610
▁ㄹㅏㄴㅏ -12611
▁ㅅㅗㄱㄱㅗㅇ -12612
▁ㅂㅣㅇㄱㅡㄹ -12613
▁ㅈㅜㄱㅏ -12614
▁ㅁㅏㄹㅇㅏㅁㅓㄱ -12615
▁ㅂㅜㄹㅎㅘ -12616
▁ㄷㅓㄹㅏㅁㅕㄴ -12617
▁ㄹㅣㅂㅏㅇㅜㄴㄷㅡ -12618
▁ㄷㅏㅇㅣㄴㅗㅅㅡ -12619
▁ㅇㅜㅍㅕㄴ -12620
ution -12621
▁ㅍㅡㄹㅐㄴㅊ -12622
▁STR -12623
▁cc -12624
▁ㅎㅗㅊㅜㄹ -12625
▁ㅂㅗㄱㅜ -12626
▁ㅈㅜㄱㅗ -12627
▁ㅂㅗㄴㄱㅏ -12628
▁ㅁㅕㅇㅁㅕㅇ -12629
▁ㄱㅏㄹㄹㅣㅇㅏ -12630
▁ㅎㅏㅂㅏㄴㄱㅣ -12631
ㄸㅗㄱ -12632
▁ㅂㅏㄹㅊㅏㄱㅣ -12633
▁ㅇㅠㅇㅠ -12634
▁ㅂㅏㄱㅎㅕ -12635
▁ㅅㅡㅌㅡㄹㅣㅁㅣㅇ -12636
▁ㅅㅜㄹㅕㅇ -12637
▁ㅅㅗㄹㅕㅇ -12638
▁ㅇㅠㅅㅡㅇ -12639
▁ㅂㅏㄱㅁㅕㅇㅅㅜ -12640
▁ㅍㅣㅋㅏㅊㅠ -12641
▁Pre -12642
ㄱㅝㄹ -12643
▁ㄷㅔㅅㅡㅌㅣㄴㅣ -12644
ㅈㅏㅁㅏ -12645
▁ㄹㅏㅍㅡ -12646
▁ㅂㅏㅇㅎㅘ -12647
▁ㅁㅐㅁ -12648
ㅔㅅㅡㄹㄹㅣㅇ -12649
ㅅㅏㅂㅕㄱ -12650
▁ㅂㅜㄱㄱㅜ -12651
▁ㄴㅓㅁㅅㅏㅂㅕㄱ -12652
▁Ev -12653
▁ㅍㅡㄹㅐㄴㅊㅏㅇㅣㅈㅡ -12654
▁ㅍㅡㄹㅗㄹㅔㅅㅡㄹㄹㅣㅇ -12655
▁205 -12656
▁ㅈㅐㅃㅏㄹㄹㅣ -12657
▁ㄸㅜㄲㅓㅇ -12658
▁ㅂㅡㄹㄹㅐ -12659
▁ㅅㅜㅋㅓㅅ -12660
▁1967 -12661
▁ㅍㅜㅇㄱㅣ -12662
▁ㅇㅏㄹㄹㅔㄱㅅㅏㄴㄷㅡㄹ -12663
ㄷㅓㄹㅣㅇ -12664
▁ㅂㅓㄹㅕㅈㅣㄴ -12665
ㅌㅡㅁㅔㅇㅓ -12666
▁ㄴㅏㅇㅣㅌㅡㅁㅔㅇㅓ -12667
ㅉㅗㅊ -12668
▁ㅈㅏㄱㅏㄱ -12669
▁ㅍㅣㄹㄹㅏ -12670
▁ㅅㅗㅁㅆㅣ -12671
▁ㅂㅡㄹㅔㅇㅣㅂㅡ -12672
▁ㅍㅕㅇㅊㅏㅇ -12673
▁ㄷㅗㄷㅂㅗㅇㅣ -12674
▁ㅌㅚㅇㅕㄱ -12675
ㅈㅓㄷㅡ -12676
▁ㅊㅏㅇㅇㅓㅂ -12677
ㅇㅏㅇㅅㅡ -12678
▁ㄴㅟㅇㅏㅇㅅㅡ -12679
▁ㅊㅜㅊㅜㄹ -12680
▁DB -12681
ㅡㄹㄹㅓ -12682
▁ㄱㅘㄴㅎㅐ -12683
▁ㄷㅗㄱㄹㅣㅂㅇㅜㄴㄷㅗㅇ -12684
▁ㄷㅐㅅㅡㅇ -12685
▁ㅅㅣㄴㅅㅜ -12686
▁ㅈㅓㅇㅎㅕㅇ -12687
▁ㄲㅣㄴ -12688
▁ㅅㅓㄴㄱㅗㄱ -12689
▁ㅈㅡㅇㅇㅣㄴ -12690
▁ㅇㅏㅍㅁㅕㄴ -12691
▁ㅍㅜㄹㅡ -12692
▁ㄱㅏㅁㅏ -12693
▁ㅅㅐㅇㅌㅐ -12694
▁ㄷㅗㄹㅇㅏㄱㅏㄴ -12695
▁ㅍㅡㄹㅣㅈㅡㅁ -12696
▁ㄱㅕㅇㅈㅣㄹ -12697
▁ㅇㅣㅂㅏㅇ -12698
ㅌㅣㅇㅗ -12699
▁ㅈㅓㄴㅇㅕㅁ -12700
▁ㅈㅓㅇㅊㅔㅂㅜㄹㅁㅕㅇ -12701
▁ㅃㅗㅁ -12702
▁ㅇㅣㄹㄹㅖ -12703
▁ㅂㅏㄱㅇㅛㅇ -12704
ㅡㄴㅣㅁ -12705
▁ㅇㅝㄴㅎㅠㅇ -12706
ㅅㅓㄱㅁㅣㄴ -12707
▁ㄷㅏㄴㅅㅣㄱ -12708
▁ㅁㅜㅈㅚ -12709
ium -12710
▁550 -12711
▁ㄱㅏㄴㅎㅗㅅㅏ -12712
▁ㅇㅐㄴㄷㅣ -12713
▁ㅇㅖㄴ -12714
▁RP -12715
▁ㄴㅔㅅㅡ -12716
▁ㅋㅡㄹㄹㅓ -12717
▁ㅁㅏㅇㅎㅏㄴ -12718
▁ㅇㅐㄱㅜㄱ -12719
▁GG -12720
▁ㅈㅓㅇㅎㅏㄴ -12721
ㅣㅁㅇㅓㅄㅇㅣ -12722
▁ㅂㅜㄱㅘㄴ -12723
▁ㅌㅏㄴㅏㅋㅏ -12724
▁ㅈㅓㄴㄷㅗ -12725
▁ㅇㅜㄴㅅㅓㄱ -12726
▁ㅈㅣㄹㅎㅘㄴ -12727
▁ㄱㅕㄱㄹㅣ -12728
▁Summer -12729
▁ㄷㅏㄹㄹㅐ -12730
▁ㄱㅛㅌㅗㅇㅅㅏㄱㅗ -12731
▁ㄱㅣㅅㅗ -12732
▁ㄱㅏㅇㅢ -12733
▁ㄷㅗㅇㄹㅗ -12734
▁147 -12735
▁ㅂㅔㅅ -12736
ㅋㅣㅇㅗ -12737
▁ㄱㅘㅇㅈㅓㄴㅅㅏ -12738
▁ㄴㅏㅇㅕㄹ -12739
▁ㄱㅏㅇㅈㅓㅁㄱㅣ -12740
ㄱㅏㅇㅛ -12741
ㅌㅣㄴㅗ -12742
▁ㄷㅣㅂㅣㅈㅓㄴ -12743
▁ㅅㅓㄱㅅㅏ -12744
▁ㄴㅏㄹㅔㅇㅣㅅㅕㄴ -12745
▁ㅊㅡㅂㅏㅅㅏ -12746
▁ㅇㅗㅋㅣ -12747
ㄱㅣㄱㅘㄴ -12748
ㅔㄴㄷㅡ -12749
▁ㅇㅕㄱㅘㄴ -12750
▁ㅈㅣㅋㅕㅂ -12751
▁ㅅㅜㅅㅜㄹㅛ -12752
▁ㄸㅏㄷㅗㄹ -12753
▁ㅁㅗㅂㅅㅣ -12754
▁Grand -12755
▁ㅎㅏㄴㄷㅏㄱㅓㄴㅏ -12756
▁Rock -12757
▁ㄷㅏㄹㄱ -12758
▁ㅂㅓㅁㅎㅐㅇ -12759
ㅅㅡㅌㅡㄹㅏ -12760
▁ㄹㅓㅂㅡㄹ -12761
▁ㅅㅜㄷㅏ -12762
▁ㅍㅠㄹㅣ -12763
▁back -12764
▁ㅇㅝㄴㅈㅏㄱㅈㅏ -12765
▁ㅁㅣㅌㅣㅇ -12766
▁ㅅㅡㅋㅡㄹㅣ -12767
▁ㄴㅔㄱㅅㅓㅅㅡ -12768
▁ㄱㅔㅇㅣㅁㅈㅡ -12769
▁ㅅㅔㅇㅣㄹㄹㅓ -12770
▁ㄹㅏㅂㅏ -12771
▁ㅇㅜㄱㅏ -12772
▁ㅍㅡㄹㄹㅔㅇㅓ -12773
▁ㅇㅜㅊㅔ -12774
▁ㅁㅜㄱㅗ -12775
▁ㅍㅓㅅㅣ -12776
▁ㅍㅔㄴㄷ -12777
▁ㅊㅜㄱㅜㅇ -12778
▁ㅍㅔㄴㄷㅠㄹㄹㅓㅁ -12779
▁ㄸㅏㅇㅟㄴ -12780
▁ㅎㅏㄷㅡㅇㅞㅇㅓ -12781
▁ㄱㅏㄴㅎㅗ -12782
▁ㅎㅔㅇㅓㅈㅣ -12783
▁ㄷㅗㅇㄴㅕㄴ -12784
▁ㅂㅓㅌㅓ -12785
▁ㅁㅜㅁㅕㅇ -12786
▁ㅌㅗㅁㅏㅌㅗ -12787
▁ㄴㅓㅁㅇㅓㄱㅏㄴㄷㅏ -12788
▁ㅁㅗㅌㅓ -12789
▁ㅇㅣㅂㄱㅜㄱ -12790
▁SCP -12791
▁211 -12792
▁ㅇㅑㅁㅏㄱ -12793
▁ㅉㅗㅊㅇㅏㅇ -12794
▁ㄷㅏㄹㄹㅏㅈㅕㅆ -12795
gain -12796
▁ㄷㅗㅇㄷㅡㅇ -12797
▁ㅂㅜㅊㅜㄱ -12798
▁ㄱㅑ -12799
▁ㅁㅓㄹㄹㅣㅅㅓ -12800
▁ㄴㅐㅅㅕㄴㅓㄹ -12801
▁ㄴㅔㅋㅗ -12802
ㅌㅗㅇㅅㅜ -12803
▁ㅊㅣㄹㅜ -12804
▁ㅂㅓㄹㅡㅅ -12805
ㅊㅔㄴ -12806
▁ㅇㅠㅅㅣㄴ -12807
▁ㅌㅏㄴㅌㅏㄴ -12808
▁ㅊㅗㅇㅍㅕㅇ -12809
▁ㅅㅏㅋㅜ -12810
ㄱㅗㄷ -12811
▁now -12812
▁ㅌㅡㄱㅇㅣㅈㅓㅁ -12813
▁ㅍㅣㄴㄹㅏㄴㄷㅡ -12814
▁ㅋㅗㄷㅣ -12815
▁ㅅㅓㅇㄱㅣ -12816
▁ㅂㅐㅅㅗㄱ -12817
▁ㅇㅏㅎㅗ -12818
▁ㅂㅗㄱㅁㅕㄴ -12819
ㅆㅜ -12820
▁Over -12821
▁ㅇㅜㅍㅏ -12822
▁ㅇㅠㅁㅜ -12823
▁ㅂㅏㄱㅊㅏㄴ -12824
▁ㅁㅏㄴㄹㅜ -12825
▁ㅊㅔㅎㅕㅇ -12826
▁ㅇㅝㄴㅈㅗㅇ -12827
▁This -12828
▁ㅂㅓㅌㅕ -12829
▁ㅈㅓㄴㄹㅖ -12830
▁ㄱㅗㅇㅅㅡㅂ -12831
▁ㅃㅏㅈㅣㄴㄷㅏ -12832
▁ㄷㅐㅇㅚ -12833
▁ㄴㅣㄴㅏ -12834
▁ㅇㅏㅇㅣㅍㅗㄴ -12835
▁ㅂㅕ -12836
▁ㅇㅏㅅㅟㅇㅝ -12837
▁day -12838
▁ㄷㅐㅍㅐ -12839
▁ㄷㅏㅌㅜㅁ -12840
▁ㅁㅣㄴㅔㄹ -12841
ㅞㄴ -12842
▁ㄱㅜㄴㄹㅣㅁ -12843
▁ㄱㅝㄴㄴㅡㅇ -12844
▁ㄷㅔㄹㅕㅇㅗ -12845
▁ㅈㅐㅎㅘㄹ -12846
▁ㄱㅏㅁㅈㅓㄴ -12847
▁ㅎㅘㄴㅅㅜ -12848
▁ㅇㅡㄴㅁㅔㄷㅏㄹ -12849
▁ㅅㅏㅅㅡㅁ -12850
▁ㄱㅏㅇㅌㅣㅁ -12851
▁ㅅㅏㄷㅏㅇ -12852
▁ㅅㅣㅁㅁㅜㄴ -12853
ction -12854
▁ㅅㅣㅂㅈㅏㄱㅏ -12855
▁ㅈㅣㄴㄷㅗ -12856
ㅗㅅㅗㄱ -12857
▁ㅇㅣㅅㅗㄱ -12858
▁ㅁㅣㅅㅜ -12859
▁ㅋㅏㄴㅣ -12860
▁ㅁㅔㅁㅗ -12861
▁ㅎㅔㄱ -12862
▁ㄱㅡㄹㅣㄷㅡ -12863
▁ㅁㅜㅅㅡㄹㄹ -12864
▁ㅍㅗㅅㅣㄱ -12865
▁ㅇㅏㄹㅐㅉㅗㄱ -12866
▁ㅇㅕㄹㄹㅣㄴㄷㅏ -12867
▁LED -12868
▁Dance -12869
▁ㅎㅣㄹㄹㅣㅇ -12870
▁ㄱㅔㅅㅣㅁㅜㄹ -12871
▁ㅈㅜㅇㅓㅈㅣㄴ -12872
▁ㅂㅐㅅㅗㅇ -12873
▁ㅁㅏㄹㄹㅔㅇㅣㅅㅣㅇㅏ -12874
▁But -12875
▁ㅅㅗㄱㅂㅏㄱ -12876
▁ㅇㅗㄴㅁㅗㅁ -12877
▁ㅍㅗㄹㄹㅣㅅㅡ -12878
▁ㅈㅔㅂㅗ -12879
ㅍㅕㅇㄱㅏ -12880
▁ㅅㅏㄹㅇㅣㄴㅁㅏ -12881
▁ㄹㅔㅇㅣㅊㅔㄹ -12882
▁ㅎㅐㅆㅇㅓㄷㅗ -12883
▁ㅂㅜㅅㅏ -12884
▁ㄹㅔㅁㅗㄴ -12885
▁ㅍㅠㅇㅓ -12886
▁ㄱㅘㅇㅅㅗㄱ -12887
▁ㄹㅜㅍㅏㅇ -12888
▁ㅂㅏㅇㄱㅘ -12889
▁ㅍㅏㅁㅜㄴ -12890
▁ㄷㅐㄱㅜㄴ -12891
▁ㄱㅘㄴㅈㅓㄹ -12892
▁DR -12893
▁ㅂㅕㄹㅈㅏㄹㅣ -12894
ㅈㅣㄷㅗ -12895
▁ㅇㅕㅁㅅㅐㄱ -12896
▁ㅁㅜㅈㅔㅎㅏㄴ -12897
▁ㅎㅏㅁㅈㅐㄱㅣ -12898
▁ㅎㅗㄹㄷㅣㅇ -12899
▁ㅌㅗㅇㅅㅜ -12900
▁ㄴㅜㅇㅝ -12901
▁ㅅㅏㅇㅎㅐㅇ -12902
▁ㅁㅏㅂㅣㄴ -12903
ne -12904
irst -12905
▁ㄴㅐㅇㅑ -12906
▁ㄷㅏㄱㅊㅣ -12907
▁ㅈㅓㅁㅅㅏ -12908
ㄱㅕㄹㅅㅡㅇ -12909
ㅋㅔㄹ -12910
ㅏㅇㅣㄷㅓ -12911
ㅂㅗㄴㅐ -12912
▁ㄱㅘㄴㅎㅐㅅㅓ -12913
▁ㄴㅐㄱㅜㄹㅕㄱ -12914
▁VOC -12915
ㅡㄹㄹㅗ -12916
▁ㅎㅗㅌㅜ -12917
▁ㅂㅏㄱㅌㅏㄹ -12918
▁ㅍㅣㄱㅅㅔㄹ -12919
▁ㄴㅏㅅㅏ -12920
▁ㄱㅛㄴㅐ -12921
▁ㅁㅣㅊㅕㅆ -12922
▁ㅇㅣㅈㅣㄹ -12923
▁ㄱㅣㄹㄱㅓㄹㅣ -12924
▁SL -12925
▁ㄱㅕㄱㅊㅣㅁ -12926
▁ㄷㅡㄹㅇㅓ -12927
▁ㅈㅣㄱㅅㅗㄱ -12928
▁ㄴㅗㅌㅡㅂㅜㄱ -12929
▁ㅅㅖㅍㅡ -12930
▁ㅇㅜㅁㅜㄹ -12931
▁ㅇㅓㄴㅡㅅ -12932
▁Wii -12933
▁ㅂㅜㄹㅍㅕㅇ -12934
▁ㅌㅗㅇㅈㅡㅇ -12935
▁ㅂㅓㄹㅇㅓㅈㅣㄴㄷㅏ -12936
▁ㅊㅐㅊㅟ -12937
▁ㅇㅗㄷㅣㅇㅗ -12938
▁ㅅㅗㄱㅍㅕㄴ -12939
▁ㅂㅣㄱㅣ -12940
▁ㄱㅗㅇㅊㅓㄴ -12941
▁ㅂㅏㄹㅎㅕㄴ -12942
▁ㅇㅓㄴㅡㅅㅐ -12943
▁ㅇㅛㄹㅣㅅㅏ -12944
▁ㅂㅏㄹㄹㅏㄷㅡ -12945
▁ㅎㅣㅅㅏ -12946
▁ㄹㅗㅅㅡㅇ -12947
▁ㅋㅓㅈㅕㅆ -12948
▁MSL -12949
ㅂㅏㅇㅣㄴ -12950
ount -12951
▁Ste -12952
▁ㄴㅗㅂㅣ -12953
▁ㅁㅜㅅㅡㄹㄹㅣㅁ -12954
▁ㄱㅕㅇㅅㅜㄴ -12955
▁ㅇㅕㅂㅐㅇㅜ -12956
▁ㄱㅏㅂㅡㄹ -12957
▁ㄷㅏㄱㅣ -12958
▁ㄲㅡㄹㄹㅕ -12959
▁ㄴㅓㅁㅇㅓ -12960
ㅟㄹ -12961
▁Gold -12962
▁ㅎㅏㅎㅐㅇ -12963
▁ㅅㅡㅋㅞㅇㅓ -12964
▁ㅌㅜㅁ -12965
▁ㅁㅗㄱㅈㅐ -12966
▁ㅂㅗㅎㅐㅇ -12967
▁ㄱㅣㄱㅚ -12968
▁ㄷㅗㅇㅅㅏ -12969
▁ㅂㅏㄱㅇㅕㅇ -12970
▁ㄹㅣㅇㅔㄹ -12971
ㅂㅣㅁ -12972
▁ㅋㅗㅈㅣ -12973
▁ㅈㅏㄱㅕㄱㅈㅡㅇ -12974
ㅈㅡㅋㅏ -12975
▁ㅅㅓㅇㅈㅣㄱㅈㅏ -12976
ㅈㅏㄷㅗㅇ -12977
▁ㅅㅓㅇㅂㅣ -12978
▁ㅎㅐㅈㅓㄱㄷㅏㄴ -12979
▁3164 -12980
▁ㄱㅜㄱㄱㅣ -12981
▁ㅌㅔㅇㅣㄹㅈㅡ -12982
▁HG -12983
▁ㅍㅗㅎㅛ -12984
▁ㄱㅕㄱㅌㅜㄱㅣ -12985
▁ㅅㅣㅊㅗ -12986
▁ㄱㅛㅇㅑㅇ -12987
▁ㅅㅣㅁㅗ -12988
▁ㅇㅗㅋㅣㄴ -12989
▁ㄱㅏㄷㅡㄴ -12990
▁DX -12991
▁ㄴㅣㄱㅅㅡ -12992
▁Just -12993
▁ㅇㅘㅇㅈㅘ -12994
ㄱㅏㄹㅑㅇ -12995
▁ㅅㅔㅅㅉㅐ -12996
ㅊㅡㅋㅏ -12997
▁ㄴㅜㅁㅕㅇ -12998
▁ㅇㅣㄴㄷㅔㄷㅏ -12999
▁ㄷㅗㅇㅁㅜㄴ -13000
▁ㅇㅔㅂㅏ -13001
ㄱㅣㅅㅏ -13002
▁ㅁㅏㅈㄷㅐ -13003
▁ㅈㅡㅇㄱㅏㄹㅑㅇ -13004
▁ㅍㅣㅇㅗ -13005
▁ㅈㅣㅈㅣㅈㅏ -13006
▁ㄴㅏㅁㅂㅏㄹ -13007
▁ㅈㅜㄹㅈㅜㄹ -13008
▁ㄲㅗㅂㅎㅣㄴㄷㅏ -13009
▁ㄷㅗㅇㅁㅔㄷㅏㄹ -13010
▁ㅅㅡㄴㅔㅇㅣㅋㅡ -13011
▁ㅌㅏㅊㅣㅂㅏㄴㅏ -13012
▁ㅎㅏㄴㅡㄴㅣㅁ -13013
let -13014
▁1966 -13015
▁ㅊㅓㅅㄴㅏㄹ -13016
▁ㅆㅡㅇㅣㄹ -13017
▁ㄷㅏㄴㅁㅏㄹ -13018
▁ㄱㅜㅌㅏ -13019
▁HK -13020
ring -13021
▁ㅅㅔㅅㅡ -13022
▁ㄷㅜㄴㄷㅏ -13023
▁ㄴㅗㅇㄹㅏㄱ -13024
ㅎㅕㄴㅈㅣㄴ -13025
▁ㄱㅜㄱㅁㅣㄴㄷㅏㅇ -13026
▁ㄷㅟㅌㅗㅇㅅㅜ -13027
ㅓㄷㅡ -13028
▁ㅇㅣㄹㅇㅣㄹㅇㅣ -13029
▁ㄸㅏㅈㅕ -13030
▁ㄴㅗㄹㅣㄹ -13031
▁news -13032
▁ㅂㅣㄹㅂㅗㄷㅡ -13033
▁FL -13034
▁ㄷㅏㄹㄹㅏㅂㅜㅌ -13035
ㅜㅇㅔ -13036
ㄹㅣㅅㅡㅌㅏ -13037
▁ㅇㅗㄹㅂㅏㄹㅡㄴ -13038
▁ㄷㅐㄱㅗㅇㅍㅗ -13039
ㅈㅏㅇㅣ -13040
▁ㅇㅕㅊㅣㄴ -13041
▁ㄱㅣㅎㅚㄱㅅㅏ -13042
▁ㅂㅓㅅㅇㅓㄴㅏㄴ -13043
ㅃㅕ -13044
▁ㅅㅗㄱㅇㅣ -13045
▁ㅈㅡㅇㅂㅏㄹ -13046
▁ㅂㅏㅇㅅㅗㅇㅇㅣㄴ -13047
▁ㄷㅏㄴㅣㄴ -13048
▁204 -13049
▁ㅅㅖㄹ -13050
▁ㅊㅏㅇㅅㅔ -13051
ㅈㅓㄱㅓㅅ -13052
▁ㅅㅏㅁㅊㅗㄴ -13053
▁ㅇㅣㄱㅓㅅㅈㅓㄱㅓㅅ -13054
▁ㅇㅣㅋㅏ -13055
▁ㅅㅓㄴㅂㅏㅇ -13056
▁ㄹㅠㄱ -13057
▁ㅅㅜㄱㅏㅇ -13058
▁ㅈㅣㄴㅐㄴ -13059
▁ㅅㅗㄴㅌㅗㅂ -13060
▁ㅁㅕㄹㅈㅗㅇ -13061
▁ㅇㅏㅈㅜㅁㅁㅏ -13062
▁ㅁㅕㅇㄴㅏㄹㅏ -13063
ㅍㅡㄹㄹㅔㄱㅅㅡ -13064
▁ㄷㅗㅇㅈㅗ -13065
▁ㅂㅕㄹㅈㅓㅁ -13066
eng -13067
▁ㅂㅓㄴㅅㅣㄱ -13068
▁DNA -13069
▁ㅌㅐㅁ -13070
▁ㄷㅐㅅㅟ -13071
▁ㄴㅓㅁㅇㅓㅈㅣ -13072
▁ㄹㅣㅌㅓㄴ -13073
▁ㅈㅏㄴㅣ -13074
▁ㅎㅠㅇㄴㅐ -13075
DS -13076
▁ㅈㅔㅅㅡ -13077
▁ㅎㅚㄱㅕㄴ -13078
▁ㅁㅜㄹㄱㅏ -13079
▁ㅅㅐㄴㅍㅡㄹㅏㄴ -13080
▁ㄴㅓㅁㅇㅓㄱㅏㄴ -13081
▁ㅅㅐㄴㅍㅡㄹㅏㄴㅅㅣㅅㅡㅋㅗ -13082
▁ㅈㅔㄱ -13083
▁ㅎㅗㄴㅎㅏㅂ -13084
▁ㅋㅡㄹㅣㅅㅡㅌㅗ -13085
▁ㄱㅗㅇㅈㅗㄴ -13086
ㅋㅗㅇㅓ -13087
▁ㅋㅐㅅㅡㅌㅡ -13088
▁166 -13089
▁ㅅㅡㅋㅣㅂ -13090
▁ㄷㅡㄹㅇㅓㅇㅘㅅㅓ -13091
▁ㅎㅚㅂㅗㄱㄹㅕㄱ -13092
▁ㄷㅗㄱㅅㅜㄹㅣ -13093
▁ㅋㅏㄱㅜㄹㅏ -13094
▁ㅎㅏㄴㅅㅜㅁ -13095
▁ㄱㅕㅇㄱㅏㅁ -13096
▁ㅋㅏㄹㅣ -13097
▁ㅅㅏㅁㅏㅇㅈㅏ -13098
▁TW -13099
▁ㅌㅐㅅㅇㅣ -13100
▁ㄷㅗㅇㅈㅗㄱ -13101
ports -13102
▁ㅊㅐㄱㅈㅓㅇ -13103
▁ㅡ -13104
▁ㄱㅣㅎㅏㅂ -13105
▁ㅅㅡㅋㅡㄹㅣㅂㅌㅡ -13106
▁ㅂㅗㄱㅇㅛㅇ -13107
▁ㄱㅡㅂㅎㅣ -13108
▁ㅁㅣㄹㅗ -13109
▁ㄴㅘㄷㅜ -13110
▁pt -13111
▁ㅇㅗㅋㅣㄴㅏㅇㅘ -13112
▁ㅎㅜㄷㅐ -13113
▁ㅊㅣㄴㅁㅗㄱ -13114
▁ㄱㅚㄹㅕㄱ -13115
▁ㅅㅔㄹㅡㅂ -13116
▁ㄹㅗㅂㅡ -13117
▁ㅈㅓㅇㅈㅓㅇ -13118
▁ㅅㅔㅌㅏㄱ -13119
▁ㅅㅣㄱㅏ -13120
▁ㄷㅏㅈㅣㅁ -13121
▁ㅍㅡㄹㅗㅁㅗㅅㅕㄴ -13122
▁ㅈㅓㅇㅋㅡ -13123
▁Can -13124
▁ㄷㅏㅅㅡㄹㅣ -13125
▁ㅅㅏㄹㅛ -13126
▁Korea -13127
▁ㄷㅏㅇㅣㅅㅡㅋㅔ -13128
▁ㄷㅡㄹㄹㅣㄴㄷㅏ -13129
ㄹㅜㅅㅡ -13130
ㅍㅓㄷㅡ -13131
▁ㅈㅜㅅㅣㅁ -13132
▁ㅎㅔㄹㄹㅣㅋㅗ -13133
▁ㅎㅚㄱㅟ -13134
▁ㅁㅕㅇㄱㅗㄱ -13135
▁ㅇㅣㄴㅅㅙ -13136
▁ㄹㅗㄹㄹㅣㅇ -13137
▁ㄷㅏㄴㄱㅘ -13138
▁ㄷㅗㅇㅇㅏ -13139
▁ㅊㅏㄱㅏㅇㅜㄴ -13140
▁ㅎㅕㄴㅅㅏㅇㄱㅡㅁ -13141
▁ㅈㅏㅇㅣ -13142
ㅈㅏㄶ -13143
▁ㄱㅣㅅㅜㄹㅈㅏ -13144
▁ㅎㅚㅇㅗㄹㅣ -13145
▁FB -13146
▁ㄹㅡㅁ -13147
▁ㅅㅛㅌㅡ -13148
▁ㅇㅏㄲㅏㅂ -13149
▁ㄱㅖㄹㅏㄴ -13150
▁CA -13151
▁ㅅㅏㅇㅜㄹㅜㅅㅡ -13152
ㅌㅡㄹㄹㅣㄴ -13153
ㄷㅜㄹㅣ -13154
ina -13155
▁ㅋㅏㅇㅣㅌㅗ -13156
▁ㅎㅏㅋㅏ -13157
▁ㅈㅣㄱㅁㅜ -13158
ㅅㅗㅅㅜ -13159
▁ㅂㅜㄴㅈㅏㅇ -13160
▁VOCAL -13161
▁ㅋㅏㅋㅏ -13162
▁ㅋㅗㅂㅏㅇㅑㅅㅣ -13163
▁ㅍㅗㄷㅐ -13164
▁ㅇㅣㄹㅖ -13165
▁ㄷㅗㄹㅂㅗ -13166
▁ㅎㅜㅎㅜ -13167
▁ㄱㅡㄹㅣㅂ -13168
▁ㅂㅣㄹㅗㅅㅗ -13169
▁ㅅㅣㄹㅅㅡㅂ -13170
ㅍㅡㄹㅏ -13171
▁ㅁㅏㄴㅎㅐㅇ -13172
▁ㅂㅏㄱㅊㅣㄱㅣ -13173
▁ㄱㅏㅂㅡㄹㅣㅇㅔㄹ -13174
▁ㅎㅔㄹㄹㅣㅋㅗㅂㅌㅓ -13175
▁ㅎㅚㅅㅣㅁ -13176
ally -13177
▁ㅇㅏㅋㅏㄹㅣ -13178
▁ㅋㅏㄹㅡㅁㅏ -13179
▁ㅂㅓㄹㄹㅣ -13180
ㅏㅇㅔㅁㅗㅇ -13181
▁ㄷㅗㄹㅏㅇㅔㅁㅗㅇ -13182
▁ㅇㅕㄴㄱㅗㅈㅣ -13183
ㅌㅏㄹㅡ -13184
▁ㄱㅗㅇㅈㅏ -13185
ㅅㅏㅇㄱㅏㅅㅏㅇ -13186
▁ㄱㅣㅁㅇㅝㄴ -13187
▁ㅅㅓㄹㅅㅏㅇㄱㅏㅅㅏㅇ -13188
▁ㅇㅑㅌ -13189
▁ㅅㅡㄹㄹㅗㅇㅜ -13190
▁KTX -13191
▁ㅋㅣㅌㅡ -13192
▁ㅌㅗㅇㅣ -13193
ERO -13194
▁ㅂㅏㄴㄱㅜㄴ -13195
▁ㅁㅏㅌㅔ -13196
▁Sec -13197
▁ㄷㅡㄹㅗ -13198
▁ㅈㅏㅇㅇㅝㄴ -13199
▁ㅂㅜㄹㅠ -13200
ㅋㅓㄴㅕㅇ -13201
▁ㅇㅣㄴㅊㅓㄴㄱㅘㅇㅇㅕㄱㅅㅣ -13202
▁ㄱㅜㄴㅅㅏㄹ -13203
▁ㅍㅣㅅㅡㅌㅡ -13204
ㅂㅏㄷㅏ -13205
▁ㄷㅚㄷㅗㄹㄹㅣ -13206
▁ㅅㅡㄴㅐㅂ -13207
▁ㅎㅗㅇㅈㅣㄴㅎㅗ -13208
▁ㅇㅠㅇㅕㅇ -13209
▁ㅌㅔㄱㅅㅡ -13210
ㅓㅈㅕㅆ -13211
OO -13212
▁ㄴㅐㄹㅣㄹ -13213
▁ㄹㅗㅋㅓㄹ -13214
UR -13215
▁ㅁㅣㅍㅏㄴ -13216
▁ㄹㅐㄱ -13217
▁650 -13218
▁ㅂㅏㄲㅝㅅㅓ -13219
▁ㅅㅣㄴㅈㅓㅇ -13220
ㅇㅔㅅ -13221
▁MHz -13222
▁ㄴㅏㄴㄱㅏㅁ -13223
ㅆㅏㄱ -13224
▁ㄱㅘㅇㄷㅐ -13225
▁ㅇㅕㄹㄱㅣ -13226
▁ㅇㅠㅈㅓㅇ -13227
ㅂㅗㄱㅡ -13228
ㅈㅗㅎㅏㅂ -13229
▁ㅋㅐㄹㅣㅇㅓ -13230
▁At -13231
▁ㄱㅏㄲㅏㅇㅝㅆ -13232
ㄹㅜㅇㅔㅅ -13233
▁ㄷㅜㄹㅡ -13234
▁ㅇㅏㄱㅇㅓ -13235
▁ㄷㅣㄹㅔㄱㅌㅓ -13236
▁Music -13237
▁++ -13238
▁EBS -13239
▁ㅈㅐㅈㅣㄱ -13240
▁ㅂㅕㅇㅅㅏㄹㅌㅏ -13241
▁ㄱㅗㅈㅗ -13242
▁ㄸㅗㄱㄸㅗㄱ -13243
▁ㅂㅣㄲㅗ -13244
▁ㅈㅣㄱㅣ -13245
▁ㅇㅕㄹㄹㅏㅁ -13246
ㅅㅏㄴㄷㅗㅇ -13247
ㅌㅣㅋㅗㄴ -13248
ㅣㅇㅘ -13249
▁ㅈㅡㄹㄱㅓㅇㅜㄴ -13250
▁ㅁㅜㅈㅣㄴ -13251
▁ㅅㅡㅇㅘㄴ -13252
▁ㅂㅜㄴㅎㅗㅇㅅㅐㄱ -13253
▁ㄹㅜㄹㅣ -13254
▁ㅂㅏㄱㄱㅕㅇ -13255
▁ㅅㅏㄹㅅㅏㅇ -13256
▁ㅇㅗㄻㄱㅕㅆ -13257
▁ㅋㅏㅇㅜ -13258
▁ㄱㅏㄱㅡㅂ -13259
▁ㅇㅠㄴㅏㄴ -13260
▁Su -13261
▁ㅋㅋ -13262
▁ㄱㅐㅇㅕㄴ -13263
▁ㅁㅣㅅㅓㅇㄴㅕㄴ -13264
▁ㅌㅐㄱㅡㄱ -13265
▁ㄱㅏㅁㅎㅐㅇ -13266
▁ㅂㅗㅅㅏㄹ -13267
▁ㄱㅣㄷㅏㄹㅕㅆ -13268
▁ㅇㅔㄹㄹㅣㅅㅡ -13269
▁ㅍㅡㄹㅣㄴㅅㅡ -13270
ㅐㅁㅍㅡ -13271
▁ㅍㅐㅎㅐㅆ -13272
▁ㅍㅓㅅㅔㄴㅌㅡ -13273
▁ㄱㅣㅁㅎㅕㅇ -13274
▁ㅇㅏㅇㅣㅇㅠ -13275
▁1962 -13276
▁ㅍㅏㅅㅜ -13277
▁Ep -13278
▁ㄹㅣㅍㅡㄹㄹㅔㄱ -13279
▁ㅎㅐㅊㅣㅇ -13280
▁ㅂㅏㅌㅣ -13281
▁ㄹㅗㅈㅓ -13282
ㄷㅜㅎㅘㄴ -13283
▁ㄱㅚㅅㅏㅇ -13284
▁ㅇㅣㅂㅇㅑㅇ -13285
▁ㅂㅜㄷㅡㄹㅓㅇㅜㄴ -13286
▁ㅅㅣㄹㄹㅜㅇㅔㅅ -13287
ㅁㅏㄷㅏㅇ -13288
▁ㅊㅗㅇㅇㅕㄹ -13289
▁ㅈㅗㅈㅣㄱㅇㅝㄴ -13290
▁ㅎㅗㅁㅈㅡ -13291
▁ㅂㅣㅇㅜㄴ -13292
▁ㅃㅗㅇ -13293
ㅅㅡㅋㅏ -13294
▁ㅁㅏㅇㄹㅕㅇ -13295
▁ㅍㅡㄹㅏㅇㅋㅡ -13296
▁ㅌㅏㅅㅣ -13297
▁ㄹㅗㅋㅗ -13298
▁ㅅㅡㅂㄱㅘㄴ -13299
ㄷㅡㄷ -13300
▁ㅊㅓㄴㅁㅏ -13301
▁ㅎㅏㄴㅂㅏㄹ -13302
▁Live -13303
ㅔㅅㅡㅌㅡ -13304
▁ㄸㅏㄹㄱㅣ -13305
ㄷㅡㄹㅇㅕ -13306
▁ㅎㅏㄱㅈㅓㅁ -13307
▁get -13308
▁ㅈㅏㅇㅎㅏㄱ -13309
▁ㄱㅡㄹㅣㅎㅏㅇㅕ -13310
ART -13311
▁ㅇㅙㄴㅁㅏㄴ -13312
▁ㅇㅏㄱㅇㅢ -13313
▁ㅊㅜㄴㅊㅓㄴ -13314
▁ㅎㅏㅇㅇㅏㄹㅣ -13315
ㅇㅣㅇㅓ -13316
▁ㅁㅗㄴㅣㅇ -13317
ㄴㅗㅇ -13318
▁Comm -13319
▁ㅁㅣㅅㅏㅋㅣ -13320
ㅋㅔㅇㅣㄴ -13321
▁ㄷㅏㄴㅈㅓㅇ -13322
▁ㅈㅣㄴㄹㅣ -13323
▁GN -13324
▁ㅊㅣㄱㅗ -13325
▁ㅇㅑㅇㅚ -13326
▁ㄱㅘㄴㅈㅣㄱ -13327
▁ㄷㅏㄹㅂㅣㅊ -13328
▁ㅁㅜㄱㅓㅂ -13329
▁ㅇㅏㅁㅇㅜㄹ -13330
▁ㅁㅗㄱㄷㅗㅇ -13331
▁ㅎㅏㅂㅊㅕㅅㅓ -13332
ㅈㅏㅇㄴㅏㄴ -13333
▁ㅋㅗㄹㄹㅗㅁ -13334
ㅐㅊㅣ -13335
▁ㅇㅖㅈㅣ -13336
▁ㅈㅓㄹㅓㅎㄱㅔ -13337
▁ㅍㅏㄴㄱㅝㄴ -13338
▁BF -13339
▁ㅇㅛㅅㅣㄷㅏ -13340
use -13341
▁ㅅㅓㅁㅣㄴ -13342
ㅈㅔㄹㄹㅔㅅㅡ -13343
▁ㄱㅗㄹㅣㄹㄹㅏ -13344
▁ㅊㅓㅎㅏㄴ -13345
▁ㅁㅣㄷㅡㄹ -13346
ㄹㅣㄷㅡ -13347
▁ㅂㅏㄹㄱㅘㅇ -13348
▁ㄷㅐㅂㅗㄴ -13349
▁ㅎㅜㅈㅣㅇ -13350
ㅂㅓㄱㅡ -13351
▁ㄱㅗㅌㅗ -13352
▁ㅎㅜㅁㅜㄴ -13353
▁ㄱㅡㅁㅅㅐㄱ -13354
▁ㄱㅕㅇㅇㅠㅈㅣ -13355
▁MX -13356
▁ㅇㅑㅇㅂㅗ -13357
▁ㅇㅟㅋㅣㅂㅐㄱㄱㅘ -13358
▁ㄱㅣㅂㅓㅂ -13359
▁ㅍㅏㅂㅓㄹ -13360
▁ㄷㅐㅇㅣㄴㅂㅐ -13361
son -13362
▁ㄷㅗㄹㄱㅕㄱㅅㅗㅊㅗㅇ -13363
▁UF -13364
ㅈㅝㅆ -13365
▁ㅊㅓㄴㄱㅗㅇ -13366
▁ㅋㅔㅇㅣㅈㅣ -13367
▁ㅋㅣㅁㅜㄹㅏ -13368
▁169 -13369
▁ㅅㅏㅇㅣㅂㅗㄱㅡ -13370
▁ㅇㅛㅇㄱㅏㅁ -13371
▁` -13372
▁ㄱㅕㅇㅂㅜ -13373
▁ㅇㅗㅋㅔㅅㅡㅌㅡㄹㅏ -13374
▁ㄷㅡㅇㄱㅛ -13375
▁ㅎㅏㅂㅊㅣㄴ -13376
▁ㅈㅓㅅㅓ -13377
▁ㅇㅕㄴㅂㅏㄹ -13378
▁ㄱㅗㄷㅡㄴ -13379
▁ㄴㅚㅁㅜㄹ -13380
▁ㅁㅜㅅㅏㅅㅣ -13381
▁man -13382
ㅋㅜㅅㅡ -13383
▁ㄷㅗㅊㅓㅇ -13384
▁ㅁㅏㅊㅡㅁ -13385
▁1800 -13386
▁ㅌㅜㄴㅣ -13387
▁ㅅㅏㄴㅊㅐㄱ -13388
▁ㄹㅔㅇㅣㄴㅏ -13389
▁ㅅㅏㅅㅡㅋㅔ -13390
▁ㄱㅣㅁㅁㅕㅇ -13391
▁ㅂㅏㅈㅜ -13392
ㅈㅏㅇㅇㅣ -13393
▁ㄱㅜㄱㅡㅂ -13394
▁ㄱㅕㅇㅈㅐㅇㅈㅏ -13395
▁gr -13396
▁ㅈㅓㄴㅅㅗㄱ -13397
▁ㅎㅏㄴㅌㅏㄴ -13398
▁ㅋㅗㅇㅛ -13399
▁ㅊㅓㄴㄷㅜㅇ -13400
▁ㅅㅗㅈㅓㄹ -13401
itch -13402
▁ㄷㅏㄴㅅㅗㄱ -13403
▁ㄹㅣㅂㅅㅡ -13404
▁ㅋㅗㄷㅏ -13405
▁ㅅㅒㄷㅗ -13406
▁ㄷㅗㅁㅣㄴ -13407
▁ㅇㅗㄹㄹㅏㅅㅓ -13408
▁ㅂㅏㄹㄹㅔ -13409
▁ㄷㅣㅍㅔㄴㅅㅡ -13410
tr -13411
ㅏㅁㅔ -13412
▁ㅌㅐㄹ -13413
▁ㅂㅓㄴㅌㅡ -13414
▁but -13415
▁ㅂㅔㅇㅣㄷㅓ -13416
▁ㅋㅓㅂㅣ -13417
▁ㅌㅓㄹㅇㅓㄴㅗㅎ -13418
▁1944 -13419
▁ㅈㅓㅇㅈㅜㅇ -13420
▁ㅇㅏㅌㅗ -13421
▁ㄷㅗㄹㅇㅣ -13422
▁ㅇㅕㅇㅈㅣㄴ -13423
reen -13424
▁GR -13425
▁ㅇㅓㅍㅓ -13426
▁ㅌㅔㄹㅜ -13427
▁ㅈㅏㅁㅈㅐㄹㅕㄱ -13428
== -13429
▁Res -13430
▁Power -13431
ㅅㄷㅐ -13432
▁1940 -13433
▁ㅅㅣㄴㅈㅗㅇ -13434
▁ㅅㅜㅇㅛㅇㅅㅗ -13435
▁ㅋㅗㅇㅣ -13436
▁Leg -13437
▁Af -13438
▁ㄹㅗㅈㅓㅅㅡ -13439
attle -13440
▁ㅇㅓㅁㅣ -13441
▁ㅈㅜㅎㅘㅇㅅㅐㄱ -13442
▁ㅅㅜㅇㅏ -13443
▁ㅈㅐㅅㅏㅇㅛㅇ -13444
ㄴㅗㅅㅡㅋㅔ -13445
inn -13446
ㅎㅞ -13447
ㅌㅗㄹㅗㄱ -13448
▁ㅅㅏㄹㅇㅏㄴㅏ -13449
▁ㅊㅏㅇㅛㅇ -13450
▁ㅍㅔㅇㅣㅌㅡ -13451
▁ㅂㅓㅂㅇㅏㄴ -13452
▁ㅂㅗㄹㅌㅔㄱㅅㅡ -13453
ㅐㅅㅣㄴ -13454
▁ㄱㅕㄹㅅㅏ -13455
ㅂㅏㄹㅡ -13456
▁ㅂㅓㅅㅇㅓㄴ -13457
▁ㅅㅏㅅㅏ -13458
▁ㄴㅏㅁㅈㅏㄱ -13459
▁ㅎㅐㅇㅂㅏㅇㅂㅜㄹㅁㅕㅇ -13460
▁ㅊㅓㅈㅓㄹ -13461
▁ㅈㅔㄷㅏㅇㅣ -13462
ㅜㅇㅔㄹ -13463
▁ㅇㅡㄴㅎㅖ -13464
▁Hard -13465
▁ㅂㅐㅅㅏㅇ -13466
▁ㅇㅑㅇㄱㅜㄱ -13467
▁ㅊㅜㅈㅓㄱㅈㅏ -13468
▁RC -13469
ㅌㅗㄹㅡ -13470
▁ㄱㅛㄱㅘㄴ -13471
▁ㅈㅗㄹㅕㄱㅈㅏ -13472
▁MR -13473
▁ㅅㅗㅇㅊㅜㄹ -13474
▁ㄹㅣㅈㅓㄴ -13475
▁ㅇㅕㅇㄴㅏㅁ -13476
▁ㅇㅝㄹㄱㅡㅂ -13477
▁ㅈㅜㄱㅇㅣㄴㄷㅏ -13478
▁ㅋㅗㄹㄹㅗㄴ -13479
▁Pv -13480
▁ㄱㅗㅅㅏㄴ -13481
▁ㄹㅔㅇㅣㅌㅡ -13482
▁ㅇㅕㄹㅇㅏㄱ -13483
▁ㄴㅗㄹㄹㅏㅆ -13484
▁ㄱㅐㅁㅣ -13485
▁ㅈㅏㅍㅏㄴ -13486
▁ㄸㅏㄱㄸㅏㄱ -13487
▁ㅎㅣㅌㅗㅁㅣ -13488
▁ㅎㅗㄱㅅㅏ -13489
▁ㅈㅓㅂㅈㅓㅁ -13490
▁ㅊㅓㅇㅇㅝㄴ -13491
ㅁㅐㅅ -13492
ㅗㅅㅁㅣ -13493
▁ㄹㅓㄴㄴㅣㅇ -13494
▁ㅈㅣㅁㅗㅅㅁㅣ -13495
▁ㅅㅜㅎㅏ -13496
▁ㄱㅏㅁㅎㅣ -13497
▁ㅈㅏㅇㅈㅔㅅㅡ -13498
▁ㅎㅣㄹㅗㅇ -13499
▁UI -13500
▁ㅈㅓㅅㅏㅇ -13501
▁ㄱㅗㅇㅇㅑㄱ -13502
▁ㅈㅓㄴㅅㅏㄴ -13503
▁ㅂㅣㅈㅏㅇ -13504
▁ㄴㅐㅇㄱㅏㄱ -13505
▁ㅁㅏㄹㄹㅏ -13506
▁ㅈㅜㄴㄱㅕㄹㅅㅡㅇ -13507
▁ARM -13508
▁ㅇㅝㄴㅏㄱㅇㅔ -13509
▁ㅁㅏㅇㅜㄴㄷㅡ -13510
▁ㅊㅐㅈㅣㅂ -13511
▁ㄱㅕㅇㅅㅓㄴ -13512
▁ㅅㅜㅂㅗㄱ -13513
▁ㅈㅣㄱㄱㅕㄹ -13514
▁Ma -13515
▁Sing -13516
▁ㅇㅣㄹㅅㅜㄹㅗㄱ -13517
▁ㄹㅣㅌㅣ -13518
▁ㅋㅏㅈㅡㅁㅏ -13519
▁ㅍㅕㄴㅇㅏㄴ -13520
▁ㅋㅏㄹㅡㄹㄹㅗㅅㅡ -13521
▁Che -13522
▁ㅆㅙㄱㅣ -13523
▁ㅇㅔㅁㅣ -13524
▁ㅇㅕㅈㅓㅇ -13525
▁ㅇㅓㅆㅐㅅㅣㄴ -13526
ㄷㅜㅅㅏ -13527
▁ㅈㅜㄱㅓ -13528
▁ㄹㅣㅈㅗ -13529
▁ㅂㅜㅌㅇㅕㅆ -13530
▁ㅊㅜㄹㄱㅡㄴ -13531
▁ㅊㅜㄹㅈㅜㅇ -13532
▁ㅈㅝㄷㅗ -13533
▁ㄱㅏㅁㄱㅣ -13534
75 -13535
▁Life -13536
▁ㅈㅣㄴㅎㅐㅇㅈㅏ -13537
▁ㄸㅓㄴㅏㄹ -13538
ern -13539
▁ㄱㅏㅇㅎㅐㅅㅓ -13540
▁co -13541
▁ㄱㅏㅁㅣ -13542
▁ㄷㅗㅇㅇㅛ -13543
▁ㄱㅜㄷㅜ -13544
▁ㄱㅜㄹㄹㅓ -13545
▁ㅂㅗㅇㅣㅇ -13546
▁ㄹㅗㅇㅝ -13547
▁ㅇㅏㄲㅏ -13548
XT -13549
▁ㄱㅣㅂㅗㄱ -13550
▁ㄴㅏㄷㅡㄹ -13551
▁ㅁㅣㅋㅗㅌㅗ -13552
▁ㅈㅜㄴㄱㅗㅇ -13553
▁ㄷㅗㄹㄹㅕㅈㅜ -13554
▁ㄱㅗㅇㄱㅘ -13555
▁ㅋㅔㄹㄹㅣ -13556
▁ㅂㅡㄹㄹㅐㅅㅡㅌㅡ -13557
▁ㅈㅔㅇㅝㄴ -13558
▁Master -13559
▁ㅁㅛㅎㅏㄴ -13560
▁ㅇㅡㅇㅇㅝㄴㄱㅏ -13561
ㄱㅓㅂ -13562
TC -13563
ㅏㄵ -13564
▁ADV -13565
▁ㄷㅗㄱㅅㅓ -13566
▁ㅈㅓㄴㅅㅔ -13567
▁ㅇㅣㅋㅜ -13568
ars -13569
▁ㄱㅣㅁㄷㅜㅎㅏㄴ -13570
▁ㄱㅓㄹㅊㅣㄴ -13571
ㅇㅣㅇㅑ -13572
ㅊㅣㅇㅏ -13573
ㅖㄹ -13574
▁ㄱㅏㅎㅗ -13575
▁ㄷㅏㅋㅏ -13576
▁ㅇㅕㄱㅝㄴ -13577
▁ㅅㅣㄹㅈㅓㅇ -13578
▁ㅇㅣㅂㅎㅣㄹ -13579
▁ㅅㅛㄴ -13580
▁ㅈㅜㄱㅗㅂㅏㄷ -13581
ㅈㅣㅇㅇㅓ -13582
▁ㅎㅐㅇㅎㅏ -13583
▁ㅁㅜㅎㅛㅎㅘ -13584
▁ㅈㅓㅇㅎㅘㄱㄷㅗ -13585
▁im -13586
ㄴㅏㅆ -13587
▁ㅂㅏㄴㅣ -13588
▁ㅁㅜㅂㅣㅇ -13589
▁Rem -13590
▁ㅎㅗㄱㅣㅅㅣㅁ -13591
ㅈㅜㄴㅍㅛ -13592
▁ㅈㅓㄴㄷㅜㅎㅘㄴ -13593
▁ㅅㅓㄹㅎㅘ -13594
▁ㅅㅡㅋㅗㅅ -13595
▁ㅌㅓㅈㅣㄹ -13596
▁ㅌㅠㄴㅣㅇ -13597
▁ㅋㅗㅍㅏ -13598
▁ㅈㅜㅇㄱㅣ -13599
▁ㄴㅏㄷㅡㄹㅁㅗㄱ -13600
▁ㅍㅡㄹㅗㅇㅣ -13601
▁VOCALOID -13602
▁ㅌㅏㄹㄷㅏㅇ -13603
asy -13604
▁ㅈㅗㅇㅕㅇ -13605
▁ㅇㅖㅇㅓㄴㅈㅏ -13606
▁ㅇㅚㅇㅜ -13607
▁ㄱㅘㅇㅌㅏㄹ -13608
▁ㅂㅜㄹㅅㅣㄴ -13609
▁ㅎㅠㄱㅔㅅㅗ -13610
ㄴㅓ -13611
▁ㅈㅣㅇㅈㅣㅇ -13612
to -13613
▁ㅂㅜㄹㅌㅐㅇ -13614
▁ㄸㅏㄹㅡㄴㄷㅏ -13615
▁LCK -13616
ㄹㅜㅇㅠㄹ -13617
▁ㅊㅜㄹㄹㅜㅇㅠㄹ -13618
▁Lo -13619
▁ㅁㅜㄹㅣㅁ -13620
ㅊㅗㅇㄹㅣ -13621
▁ㅅㅣㄱㅏㅈㅣ -13622
ㅘㅇㅑ -13623
▁ㄹㅣㅂㅔㄹ -13624
rain -13625
ㅈㅣㄹㅣ -13626
▁ㄷㅗㅇㅌㅏㄱ -13627
▁ㅂㅏㄴㄷㅐㅍㅕㄴ -13628
ㄹㅗㅅ -13629
▁ㅎㅕㅇㅍㅕㄴㅇㅓㅄ -13630
▁ㄷㅔㅇㅜㅅㅡ -13631
▁Fem -13632
ㅅㅗㅁㅜㄴ -13633
▁ㅇㅝㄴㅎㅘㄹ -13634
▁ㅇㅑㅅㅣㅁ -13635
▁ㅁㅣㄴㅈㅓㅇ -13636
ㄱㅣㄱㅘㄴㅊㅗㅇ -13637
▁ㄷㅗㅇㅊㅔ -13638
▁ㅅㅏㅊㅜㄹ -13639
IE -13640
▁ㄹㅡㅇ -13641
▁1930 -13642
▁ㅂㅠㅌㅣ -13643
▁ㄴㅔㅇㅣㅌㅡ -13644
▁ㄷㅏㅇㅊㅓㅁ -13645
ㅍㅏㅋㅡ -13646
▁ㅃㅜ -13647
▁Out -13648
▁ㅋㅏㅇㅗㄹㅣ -13649
UE -13650
▁ㄱㅏㄷㅜ -13651
▁ㅂㅜㅎㅡㅇ -13652
▁ㅊㅜㅇㅊㅓㅇㅂㅜㄱㄷㅗ -13653
▁ㅅㅡㅍㅓ -13654
▁ㅅㅏㅇㅏㄴ -13655
▁ㅇㅣㅂㅕㄴ -13656
▁ㅂㅣㅊㅝ -13657
▁ㅍㅣㄱㅇㅓㅂ -13658
ㄱㅏㅇㅘ -13659
▁ㄷㅓㅇㅜㄱㅇㅣ -13660
▁ㅈㅓㄴㅎㅐㅈㅣㄴㄷㅏ -13661
▁ㄹㅓㅅㅣㅇㅏㅇㅓ -13662
ana -13663
ㅈㅜㄱㅜㄴ -13664
▁ㅅㅣㄹㅁㅕㅇ -13665
▁ㅂㅜㄷㅏㅇ -13666
▁ㅇㅕㄹㄷㅡㅇ -13667
▁ㄱㅛㅎㅑㅇ -13668
▁ㅌㅔㅇㅣㄹㄹㅓ -13669
▁ㄱㅡㄴㅅㅓㅇ -13670
▁ㅂㅜㄹㅕ -13671
▁ㄱㅗㅅㅓㄴ -13672
▁ㄷㅐㄴㅅㅓ -13673
▁ㅁㅐㅊㅣㅇ -13674
▁ㅋㅘ -13675
ㅅㅣㅁㅈㅏㅇ -13676
ㅜㄴㅗ -13677
▁ㅅㅠㅌㅏㅇㅣㄴ -13678
ㄲㅜㅁ -13679
▁ㅌㅔㅁㅍㅡㄹ -13680
▁ㄴㅓㅁㅊㅕㄴ -13681
▁ㄴㅗㅇㅎㅕㅂ -13682
▁ㄹㅔㅈㅡ -13683
▁ㅇㅛㅅㅣㄴㅗ -13684
▁ㅊㅏㅇㅂㅕㅇ -13685
▁ㅈㅏㅊㅓ -13686
▁ㅋㅏㄴㅗ -13687
▁ㅁㅐㅊㅜㄹㅇㅐㄱ -13688
▁OPS -13689
▁ㅊㅏㅎㅜ -13690
▁ㅍㅗㅅ -13691
▁ㄱㅕㅇㅂㅗ -13692
ㅊㅏㄹㅖ -13693
▁ㅇㅣㄹㅈㅓㄹ -13694
ㅁㅏㅊㅣㅁ -13695
ㅁㅗㄳ -13696
▁ㅋㅡㄹㅗㅇ -13697
▁ㄱㅞㅈㅓㄱ -13698
▁ㅍㅗㅌㅡㄹㅣㅅㅡ -13699
▁ㅅㅏㅇㅇㅛㅇ -13700
ㅁㅣㄱ -13701
▁ㅁㅣㅌㅣ -13702
▁ㅇㅏㄷㅔㄹ -13703
▁OB -13704
▁ㅍㅗㅁㅐㅅ -13705
▁151 -13706
▁ㄱㅡㅁㅎㅘ -13707
cl -13708
▁ㅇㅠㅎㅏㄴ -13709
▁ㅁㅏㅊㅏ -13710
▁ㅈㅓㄴㄱㅘ -13711
▁ㅈㅏㅎㅚㅅㅏ -13712
▁ㄱㅏㄴㅅㅓㄴ -13713
ield -13714
▁ㄱㅜㄷㅏㄴㅈㅜ -13715
▁ㅎㅏㄴㄷㅗ -13716
▁ㅊㅣㄴㅈㅓㅇ -13717
▁ㅇㅗㅅㅔ -13718
▁ㅅㅡㄹㄹㅣ -13719
▁ㅁㅗㄱㅈㅓㄱㅈㅣ -13720
▁ㅁㅣㄹㄹㅕㅆ -13721
▁ㄷㅡㄱㅈㅓㅁㅈㅏ -13722
▁ㄸㅐㅁㅏㅊㅣㅁ -13723
▁999 -13724
▁ㅁㅜㄴㄱㅗ -13725
▁ㅅㅣㄷ -13726
▁ㄷㅓㅂㅣ -13727
▁ㅁㅐㅇㅜㄴ -13728
▁ㅁㅗㅂㅓㅁ -13729
▁ㅎㅓㄱㅗㅇ -13730
▁ㅇㅓㄹㅣㅅㅓㄱ -13731
▁ㅈㅣㄴㅅㅜ -13732
▁ㅎㅏㄱㅅㅜㄹ -13733
▁ㅇㅠㅂㅏㅇ -13734
▁ㅁㅏㄱㅇㅏ -13735
▁ㅂㅏㄷㅏㅅ -13736
▁ㅅㅣㅇㅔㄹ -13737
24 -13738
▁ㅋㅗㅇㅏ -13739
ㅋㅡㄹㅣㅌㅡ -13740
▁ㅇㅣㅌㅓㄴ -13741
▁End -13742
▁ㄱㅚㄹㅣ -13743
▁256 -13744
▁ㄹㅗㄷㅣㅇ -13745
▁ㅍㅓㅂㅜㅅ -13746
riend -13747
▁ㅈㅣㄱㅡㄱㅎㅣ -13748
▁ㅅㅓㅈㅣ -13749
ㅎㅏㄴㄷㅏㅁㅕㄴ -13750
▁ㅊㅔㄹㅣ -13751
▁ㅋㅏㅇㅔ -13752
▁POP -13753
▁Hell -13754
▁ㅅㅣㄴㅋㅏㄴ -13755
▁ㄱㅗㅇㅛ -13756
▁ㄸㅏㄴㅐ -13757
▁ㅅㅓㅇㅇㅕㄱ -13758
ㅗㅁㅣㅇㅑ -13759
▁ㅇㅣㅇㅡㄴ -13760
▁ㅈㅜㅇㅈㅓㄴㅊㅏ -13761
▁ㅇㅣㄴㅂㅔㄴㅌㅗㄹㅣ -13762
▁ㄱㅜㄴㅂㅗㄱ -13763
▁ㅅㅔㄴㅏ -13764
▁ㅇㅐㄴㄷㅡㄹ -13765
▁ㅍㅏㄹㅉㅣ -13766
▁ㅁㅜㄴㅇㅓ -13767
▁ㅇㅠㄴㅏㄴㅎㅣ -13768
atic -13769
ㅓㅇㅣ -13770
▁ㅋㅗㅌㅏㄹㅗ -13771
▁ㄷㅡㄹㅣㅂㄴㅣㄷㅏ -13772
▁ㅇㅣㄹㅈㅣㄴ -13773
▁ㅅㅣㄴㅈㅗ -13774
ㅣㅇㅏㅅㅡ -13775
ㅣㄱㅓㅁ -13776
▁ㅅㅏㄱㅡㄱ -13777
▁ㄲㅐㅇㅍㅏㄴ -13778
▁ㅇㅏㅇㅣㄹㅣㅅㅡ -13779
▁1964 -13780
▁just -13781
▁ㄱㅛㄱㅏㅁ -13782
▁ㄷㅗㅇㄱㅏㅂ -13783
▁1965 -13784
▁ㅊㅗㅅㅓㄴ -13785
▁ㅈㅣㅈㅜ -13786
▁Fi -13787
▁ㅅㅜㅎㅓㅁ -13788
ㅋㅡㄹㄹㅓㅂ -13789
▁ㅆㅏㅁ -13790
▁ㅅㅡㅌㅏㅌㅣㅇ -13791
▁ㅂㅗㅇㅕㅅㅓ -13792
▁ㅋㅡㄹㅣㅇ -13793
▁ㄱㅏㄹㄹㅐ -13794
▁ㄱㅏㄹㅡㅊㅣㅁ -13795
▁ㅂㅜㄷㅐㅇㅝㄴ -13796
▁ㅈㅣㅍㅛ -13797
▁ㅇㅓㅅㅓㄴ -13798
▁ㅍㅣㄹㅇㅕㄴ -13799
▁ㅂㅣㅅㄴㅏㄱㅏ -13800
▁ㅇㅣㅇㅛㅇㅎㅐ -13801
▁ㅁㅗㅅㅈㅣㅇㅏㄶ -13802
▁ㅈㅏㄹㅣㅁ -13803
▁ㅅㅜㅅㅣㄱ -13804
▁ㅇㅏㅇㅣㅇㅓㄴㅁㅐㄴ -13805
▁ㄱㅣㅁㅇㅣㄹㅅㅓㅇ -13806
▁ㅇㅏㄴㅅㅓㅇ -13807
▁ㅆㅜㄱ -13808
▁ㅅㅣㄴㅋㅏㄴㅅㅔㄴ -13809
▁ㅈㅏㄴㄷㅣ -13810
▁ㅎㅏㅁㅍㅗ -13811
ㄷㅐㄱㅣ -13812
▁ㅂㅓㅂㅎㅏㄱ -13813
▁ㅅㅣㅅㅡㅌㅓ -13814
▁"" -13815
▁ㅊㅜㅇㅂㅜㄱ -13816
▁ㅇㅏㅁㅗㄴ -13817
▁ㅎㅘㄱㄹㅣㅂ -13818
▁PVP -13819
▁Miss -13820
ㅜㄱㅅㅡ -13821
▁ㅌㅏㅋㅣ -13822
33 -13823
▁ㅊㅕㄷㅏㅂㅗ -13824
▁ㅍㅏㄹㄹㅏㄷㅣㄴ -13825
▁ㅂㅐㅇㅕㄹ -13826
▁ㅎㅡㄴㄷㅡㄹㄹ -13827
ㅎㅡㅁ -13828
▁ㄱㅏㄸㅡㄱ -13829
▁sc -13830
ittle -13831
▁ㄴㅗㄱㅣ -13832
▁ㅇㅐㄱㅛ -13833
▁ㅊㅓㄴㅈㅜㄱㅛ -13834
▁ㅂㅣㄱㅌㅗㄹㅡ -13835
▁ㅅㅛㅅ -13836
▁ㅂㅗㄴㅅㅓㅇ -13837
▁ㅋㅓㅁㅓㄴ -13838
▁ㅆㅏㅎㅇㅣㄴ -13839
▁ㅈㅓㄹㄱㅠ -13840
▁ㅂㅏㄹㅇㅏㄱ -13841
▁ㅆㅏㅎㅇㅕ -13842
▁ㅈㅓㄴㅎㅐㅆ -13843
▁ㅇㅑㅁㅏㄱㅜㅊㅣ -13844
▁ㅈㅓㅇㄷㅗㅇ -13845
▁ㅋㅝㄹㅋㅓㅁ -13846
ㅏㅇㅣㅂㅡ -13847
▁ㄱㅜㅈㅓㄹ -13848
▁ㅈㅜㄹㄹㅣㅇ -13849
ㅇㅓㅇㅑ -13850
▁ㅌㅐㅈㅏ -13851
▁Air -13852
▁ㅌㅗㄹㅗ -13853
▁night -13854
▁ㅎㅗㄹㅗ -13855
▁ㅅㅜㄴㄱㅛ -13856
▁q -13857
▁ㅅㅡㅋㅐㄴㄷㅡㄹ -13858
▁SG -13859
▁ㄱㅐㄱㅐㅇㅣㄴ -13860
ㅅㅡㄹㄹㅏ -13861
▁ㅂㅜㄷㅡㄹㅓㅂ -13862
▁ㅈㅣㅂㅈㅜㅇㄹㅕㄱ -13863
▁what -13864
▁ㅌㅏㄱㅗㄴ -13865
▁ㅁㅏㄱㅏ -13866
▁ㄷㅗㅇㅈㅣ -13867
▁ㄱㅛㅈㅣㄱ -13868
▁ㄷㅗㄹㄹㅕㅆ -13869
▁ㄱㅏㅇㅎㅐㅇ -13870
▁ㅂㅜㅎㅗ -13871
▁ㄷㅐㅂㅓㅂㅇㅝㄴ -13872
▁ㄱㅏㄸㅡㄱㅇㅣㄴㅏ -13873
▁ㅂㅜㄷㅣㅈㅎㅣ -13874
▁6000 -13875
▁ㄷㅏㅇㅣㅁ -13876
▁ㅇㅕㅇㄷㅗㅇ -13877
▁ㅇㅐㅅㅣ -13878
▁ㅋㅏㅅㅡㅁㅣ -13879
LS -13880
▁ㅈㅗㅍㅗㄱ -13881
▁ㄱㅏㄴㄷㅏㄴㅡㄴ -13882
▁ㅇㅔㅇㅣㄹㄹㅣㅇㅓㄴ -13883
▁ㅂㅏㄴㅎㅏㅇ -13884
▁ㅎㅑㅇㄱㅣ -13885
▁ㅈㅜㅇㄱㅕㄴㅅㅜ -13886
▁ㅅㅓㄹㅂㅣ -13887
▁ㅈㅡㅇㄱㅣ -13888
ㅍㅏㄹㅣ -13889
▁ㄷㅜㄹㄹㅓㅆ -13890
▁ㄹㅓㅁㅂㅡㄹ -13891
▁ㄲㅐㄹ -13892
ㅇㅛㅅㅣ -13893
▁ㅇㅞㅇㅓ -13894
▁ㅅㅓㄴㅇㅜ -13895
▁ㅍㅗㅌㅗ -13896
▁ㅋㅜㅅㅣ -13897
▁Vo -13898
▁ㅌㅏㄴㅏ -13899
▁ㅇㅣㅊㅣㄱㅗ -13900
▁380 -13901
▁ㅇㅕㄴㄱㅜㅅㅣㄹ -13902
▁ㅇㅏㅎㅗㅂ -13903
▁ㅂㅜㄹㄹㅗ -13904
▁ㅅㅓㅈㅓㅇ -13905
▁ㄱㅏㄱㅡㅂㅈㅓㄱ -13906
▁ㅇㅣㄹㅂㅗㄴㅅㅣㄱ -13907
▁ㅇㅏㄱㄹㅏㄹ -13908
▁ㅇㅐㄱㅅㅔㄹ -13909
▁Hy -13910
▁ㄹㅐㄴㅌㅓㄴ -13911
▁ㅇㅕㄱㅂㅕㅇ -13912
▁ㅈㅣㄱㅇㅕㄱ -13913
▁ㅎㅏㄱㅂㅓㄴ -13914
▁ㅊㅗㄷㅏㅇ -13915
▁ㅅㅡㅌㅏㅋㅡ -13916
▁ㅅㅣㄴㅎㅡㅇ -13917
▁VR -13918
▁ㅅㅣㄴㄷㅐ -13919
▁ㅂㅓㄹㅇㅣㄴㄷㅏ -13920
▁ㅁㅣㄹㄹㅕㄴㅏ -13921
▁ㅋㅜㅍㅏ -13922
▁ㅅㅗㄱㅏㅁ -13923
▁ㅅㅗㄷㅗㅇ -13924
▁Mod -13925
▁ㅅㅣㄹㄹㅕ -13926
▁ㅊㅜㄹㅁㅗㄹ -13927
ㅂㅡㄹㄹㅣㅅ -13928
▁ㅂㅏㅈㅜㅋㅏ -13929
▁ㅈㅣㄱㄱㅜ -13930
▁ㅋㅡㄹㄹㅔㅇㅓ -13931
▁EMP -13932
ㄹㅣㄹㄹㅏ -13933
▁ㄱㅜㄱㅅㅏㄴ -13934
▁ㅂㅗㄹㄹㅠㅁ -13935
▁ㅈㅏㅋㅡ -13936
▁ㅇㅑㄷㅡ -13937
▁ㄱㅗㅍㅗㄱㅌㅏㄴ -13938
▁ㅇㅣㅇㅑㅁㅏㄹㄹㅗ -13939
ㅐㅅㅟ -13940
▁ㅇㅣㅁㅇㅝㄴ -13941
▁ㄴㅔㄱㅅㅡㄴ -13942
▁1920 -13943
▁ㅅㅑㅋㅡ -13944
▁ㅍㅔㄱㅏ -13945
▁ㄱㅔㄹㅣㄹㄹㅏ -13946
▁ㅅㅓㄹㄱㅖㄷㅗ -13947
▁ㅇㅗㅈㅣㅇㅇㅓ -13948
▁ㄷㅠㅋㅡ -13949
▁ㅎㅏㅂㅣ -13950
ㄱㅡㄹㅣ -13951
▁ㅈㅣㄴㅏㅆ -13952
▁ㅍㅐㅁㅣ -13953
▁ㅊㅏㄱㅘㄴ -13954
▁ㅅㅓㅇㅎㅕㅇ -13955
ㅆㅗㄹ -13956
▁ㄷㅐㅇㅢ -13957
▁ㅇㅑㅇㅊㅡㄱ -13958
▁ㅈㅡㄱㄱㅏㄱ -13959
▁ㄱㅓㅅㅔ -13960
▁ㄷㅏㄹㄹㅕㅆ -13961
▁ㅆㅗㄹㅆㅗㄹ -13962
▁ㅌㅗㅇㅗㄹㅜ -13963
ㄷㅓㅍ -13964
28 -13965
▁ㄴㅗㅇㅔㄹ -13966
▁ㅍㅔㄹㄹㅣ -13967
▁ㅅㅔㅅㅔ -13968
▁YOU -13969
▁ㅅㅡㅇㄹㅕ -13970
▁ㄹㅏㅌㅣㄴㅇㅓ -13971
▁ㅅㅏㅇㅊㅔ -13972
▁Di -13973
▁MT -13974
▁ㅈㅏㅈㅜㅍㅗ -13975
▁ㅊㅏㅅㅓㄴ -13976
▁ㅈㅔㄴㅓㄹ -13977
▁ㅈㅓㅂㄱㅡㄴㅅㅓㅇ -13978
▁ㅇㅝㄴㅈㅏ -13979
▁ㄱㅏㅇㅍㅏㄴ -13980
▁ㅈㅓㄴㅍㅗㄱ -13981
▁ㅎㅏㄴㅅㅣㅁ -13982
▁ㅁㅜㅈㅓㄴ -13983
▁ㅇㅏㅍㅡㄱㅏㄴ -13984
▁ㄹㅜㅋㅣ -13985
ㅅㅡㅌㅏㅇ -13986
▁ㅁㅣㅅㅡㅌㅡ -13987
▁ㅆㅡㅂ -13988
ㅔㅇㅣㄷㅗ -13989
▁ㅁㅏㄷㅗㅅㅏ -13990
▁ㅎㅜㅈㅣㄴ -13991
ㅅㅗㄹㄹㅣㄴ -13992
▁ㅁㅗㄹㅏ -13993
▁ㄷㅗㄹㄹㅣㄹ -13994
▁ㅍㅓㅂㅜ -13995
▁King -13996
▁ㅅㅏㅇㄱㅏ -13997
▁Sy -13998
▁ㅈㅏㅅㅣㄴㄱㅏㅁ -13999
▁ㅅㅗㅁㅐ -14000
▁ㅎㅜㅇㅖ -14001
▁ㅇㅕㄴㅂㅣ -14002
ㄷㅗㅇㅇㅝㄴ -14003
▁ㅇㅖㅈㅏㅇ -14004
▁ㄱㅗㅇㅅㅏㄴㅈㅜㅇㅢ -14005
▁Ang -14006
▁ㅌㅐㅇㅕㄴ -14007
▁ㄷㅡㄹㅏㄱㅜㄴ -14008
▁ㅅㅜㅅㅏㅇㅈㅏ -14009
▁ㅅㅓㄷㅐ -14010
▁ㅅㅗㄱㅠ -14011
▁ㅊㅗㅇㅌㅏㄴ -14012
▁XXX -14013
▁ㅊㅚㅇㅕㅇ -14014
▁ㄴㅗㅈㅗㅁㅣ -14015
▁ㅅㅗㄱㅠㅁㅗ -14016
▁ㄴㅐㅅㅜ -14017
▁ㅇㅗㅇㅣㄴ -14018
▁ㅇㅝㄴㅓ -14019
▁ㄱㅣㅅㅓㅇ -14020
▁ㅍㅐㄱㅣ -14021
▁ㅉㅗㅊㅇㅏㄱㅏ -14022
▁EA -14023
▁ㄴㅗㅇㅣㅈㅡ -14024
▁ㅈㅣㄴㄹㅛ -14025
▁ㅂㅣㅇㅛ -14026
▁ㅁㅏㅇㅔㄷㅏ -14027
▁ㄱㅓㄴㅈㅐ -14028
▁ㅇㅏㄱㅇㅛㅇ -14029
▁ㅍㅏㅇㅣㅂㅡ -14030
▁ㅇㅗㄹㅗㄹㅏ -14031
▁ㅅㅡㅇㅊㅓㄴ -14032
▁ㅇㅛㅇㅁㅐㅇ -14033
▁ㅊㅡㄴㅏ -14034
▁ㅍㅜㄹㄹㅕ -14035
▁ㅈㅓㄱㅈㅣㄴ -14036
ony -14037
▁tvN -14038
▁ㅁㅐㅅㅡ -14039
ㅅㅜㅁㅇㅔ -14040
▁ㄴㅘㅆㄷㅏ -14041
▁ㅌㅏㅋㅔㅅㅣ -14042
▁ㄷㅏㄴㅅㅜㅁㅇㅔ -14043
▁ㅊㅐㄹㄹㅣㄴㅈㅓ -14044
▁IG -14045
▁ㅊㅓㅁㄷㅏㄴ -14046
ㅋㅏㄴㅏ -14047
▁ㅂㅣㄴㅅㅏ -14048
▁ㄷㅗㅇㅛ -14049
▁ㄴㅏㅁㄷㅗㅇ -14050
▁ㅈㅓㄴㄹㅣ -14051
▁ㄷㅐㅊㅜㄹ -14052
▁ㅁㅣㄹㅈㅣㅂ -14053
▁ㅂㅏㄱㄱㅕㄱ -14054
▁ㄱㅘㅇㅅㅣㄴ -14055
▁ㅁㅓㄱㅂㅏㅇ -14056
ㄱㅜㅇㅕㄱ -14057
▁ㅅㅓㄴㄷㅐ -14058
▁ㅇㅣㅇㅏ -14059
▁ㅎㅓㅇㅟ -14060
▁ㅇㅕㅈㅜ -14061
▁ㅅㅡㅍㅡㄹㄹ -14062
▁ㄷㅏㄹㅜㄴㄷㅏ -14063
▁ㅊㅗㅅㅏ -14064
▁ㅌㅚㅊㅜㄹ -14065
▁0000 -14066
▁ㄷㅏㄹㄹㅕㅇ -14067
ㅅㄱㅓㄹㅣ -14068
▁ㅋㅡㄹㅜㅈㅡ -14069
▁ㅇㅣㄴㅌㅓㅍㅔㅇㅣㅅㅡ -14070
▁ㄱㅏㄴㄷㅏㄱㅗ -14071
▁ㅍㅔㄹㅡㄴㅏㄴ -14072
ㄱㅗㄹㅐ -14073
▁ㅂㅏㅂㅣ -14074
▁ㅋㅏㅌㅏㄹㅡ -14075
▁ㅌㅏㄱㅜㄱ -14076
▁ㅅㅜㄱㅗ -14077
ㅋㅠㄹㄹㅏ -14078
▁ㄴㅡㄲㅕㅈㅣㄴㄷㅏ -14079
ㅏㄱㅅㅣ -14080
▁ㅎㅟㅁㅏㄹㄹㅕ -14081
▁UFC -14082
▁ㅅㅐㅇㅅㅏㄴㄹㅕㄱ -14083
▁ㅅㅑㅁ -14084
▁ㅌㅚㅅㅏ -14085
ㅜㄱㅏㅇㅘ -14086
▁ㅋㅏㅁㅜㅇㅣ -14087
ㅍㅗㄷㅡ -14088
▁ㅅㅓㅋㅣㅅ -14089
▁ㅅㅜㅂㅣㅈㅣㄴ -14090
▁ㅋㅗㄹㄷㅡ -14091
▁ㅇㅜㄴㅇㅜㄴ -14092
▁ㅌㅏㄴㅗㅅㅡ -14093
ㅡㄴㅓㄹ -14094
▁ㅂㅜㄹㄹㅕ -14095
▁ㄴㅓㅁㄱㅣㄴ -14096
mania -14097
▁ㅅㅏㅅㅏㅋㅣ -14098
▁ㄱㅗㅇㅏ -14099
▁ㅇㅏㄴㅅㅏㄴ -14100
▁ㄷㅐㅅㅏㅇㅈㅏ -14101
▁ㅋㅏㄹㅣㄴ -14102
▁ㅅㅡㅍㅣㅋㅓ -14103
▁ㅂㅏㅇㅣㅇㅗㄹㄹㅣㄴ -14104
▁STER -14105
▁ㅁㅏㅈㅣ -14106
▁ㅅㅗㄱㅡㄱ -14107
ma -14108
ㄷㅙ -14109
ㅊㅡㄴㅏ -14110
▁ㅇㅝㄴㄴㅐ -14111
▁ㅅㅓㅁㄱㅣ -14112
▁ㄱㅣㅂㅗ -14113
▁ㅇㅡㄴㅁㅣㄹ -14114
▁ㅅㅣㄹㅎㅘㅇ -14115
▁ㅂㅏㄺㅎㅣㄴㄷㅏ -14116
▁ㅊㅗㅇㄱㅕㄱ -14117
▁ㅅㅗㅇㅛㅇㄷㅗㄹㅇㅣ -14118
ㅁㅠㅈㅣㄱ -14119
▁ㅈㅜㅂㅏㅇ -14120
▁ㅇㅔㅁㅣㄹㄹㅣ -14121
▁ㅅㅓㄴㅈㅔㄱㅗㄹ -14122
▁ㄷㅡㄹㅏㅋㅠㄹㄹㅏ -14123
▁ㅂㅕㄴㅈㅣㄹ -14124
▁ㄷㅐㄷㅐㄹㅗ -14125
▁ㅇㅏㄴㅁㅕㄴ -14126
▁ㅍㅡㄹㅐㅇ -14127
▁ㅂㅗㅈㅡㅇ -14128
▁ㅈㅐㅇㅟ -14129
▁ㅇㅣㅁㅊㅏㅇ -14130
▁ㅈㅐㄴㅏㄴ -14131
▁ㅇㅗㅂㅌㅣㅁ -14132
▁ㄹㅣㅇㅜ -14133
▁ㅈㅓㄱㅕㄱㅊㅗㅇ -14134
ㅋㅜㄹㅗ -14135
▁ㅈㅏㅇㅕㄴㅅㅜ -14136
▁ㄹㅣㅁㅏ -14137
ㅇㅜㅊㅣ -14138
▁ㅇㅠㅌㅗ -14139
▁ㅇㅏㅇㅣㅈㅏㄱ -14140
▁ㅌㅜㅎㅏ -14141
▁ㄷㅓㅊ -14142
▁Cy -14143
▁ㅎㅏㄱㅎㅚ -14144
▁ㄱㅔㄹㅣㅇㅗㄴ -14145
▁ㅈㅏㄹㅏㅆ -14146
▁ㅋㅏㅈㅣㄴㅗ -14147
▁ㅇㅣㄴㅗㅇ -14148
▁ㄴㅏㄱㅇㅣㄴ -14149
▁ㅅㅡㅂㅎㅏㄴ -14150
▁ㅁㅓㄹㅉㅓㅇㅎㅣ -14151
▁ㅌㅐㅅㅔ -14152
▁ㅈㅜㄴㅎㅏ -14153
▁Run -14154
▁ㅅㅜㄹㅏㄱ -14155
▁ㅈㅣㄴㅏㄹ -14156
▁ㅂㅏㅇㄱㅡㅁ -14157
▁ㅍㅜㄹㄹㅕㅆ -14158
▁1600 -14159
▁ㄱㅘㄴㄷㅗㅇ -14160
▁ㅇㅞㅇㅣㄹ -14161
ㄷㅏㄴㅊㅔ -14162
▁ㅅㅑㅍㅡ -14163
▁ㅇㅓㅈㅣㄹ -14164
▁ㅂㅓㄱㅅㅡ -14165
ㅎㅕㄴㅇㅜ -14166
▁ㅊㅓㄴㄱㅖ -14167
ㅣㅇㅓㅅ -14168
▁IDOL -14169
▁ㅍㅗㄹㅓㅁ -14170
▁ㄸㅓㅅㅓ -14171
ㄴㅚ -14172
ㅓㅅㅏ -14173
▁ㅌㅐㅂㅡㄹㄹㅣㅅ -14174
▁ㄱㅏㄹㄹㅣㄴㄷㅏ -14175
▁ㅊㅣㅁㅕㅇㅅㅏㅇ -14176
be -14177
▁ㄷㅏㄷㅏㄴ -14178
▁ㅊㅗㄹㅐ -14179
▁ㅇㅑㅋㅜㅈㅏ -14180
▁ㅁㅗㄱㅇㅛㅇㅣㄹ -14181
▁ㅋㅏㅇㅣㅅㅏㄹㅡ -14182
ual -14183
ㄸㅜㄹ -14184
▁ㅇㅕㅁㄹㅕ -14185
▁ㄱㅗㅇㅅㅓㅇㅈㅓㄴ -14186
▁131 -14187
ret -14188
▁ㅆㅗㄴㄷㅏ -14189
▁ㄷㅗㅇㅇㅣㄴㅈㅣ -14190
▁ㄹㅜㅁㅏㄴㅣㅇㅏ -14191
▁ㅅㅐㅇㅅㅏㄴㄹㅑㅇ -14192
▁ㅇㅓㅄㅇ -14193
ㅁㅜㄱㅣ -14194
▁ㅂㅔㄹㄹㅏ -14195
▁ㅁㅜㄱㅜㅇㅎㅘ -14196
▁ㅂㅕㄴㅎㅗ -14197
▁ㄷㅐㅁㅏ -14198
▁ㅈㅘㅍㅛ -14199
▁ㅊㅜㄱㅈㅓㄱ -14200
ㅎㅏㅇㅣㄴ -14201
▁ㅈㅓㅇㅈㅏㅇ -14202
▁ㄱㅏㅇㅅㅓㅇ -14203
ㅌㅡㄹㅣㄱㅅㅡ -14204
▁ㅊㅓㅇㅅㅏㄴ -14205
▁ㄱㅡㄱㅓㄹㄹㅗ -14206
▁ㅁㅜㄹㄹㅣㅎㅏㄱ -14207
ㅣㄴㅔ -14208
▁ㄴㅗㅇㅅㅏ -14209
ㅅㅜㅇㅝㄴ -14210
▁ㅂㅜㅍㅕㅇ -14211
▁ㅈㅏㅇㅍㅕㄴ -14212
▁ㅇㅣㅂㅗㄱ -14213
ㅎㅚㅈㅏㅇ -14214
▁ㅈㅏㅅㅜ -14215
▁SV -14216
▁ㅁㅣㄴㅇㅝㄴ -14217
▁ㅇㅑㅅㅣ -14218
▁ㅈㅏㅇㅠㅈㅏㅈㅐ -14219
▁ㅌㅡㄹㅗㅇㅣ -14220
▁ㄱㅘㅇㅂㅗㄱ -14221
▁ㅇㅏㅇㅑㅋㅏ -14222
▁UM -14223
▁ㅇㅏㄴㅂㅗ -14224
▁ㅆㅗㄷㅇㅏㅈㅕ -14225
▁white -14226
▁ㅋㅔㅇㅣㅌㅡ -14227
▁ㅅㅜㅇㅛㅇㅣㄹ -14228
▁ㅁㅓㅁㅜㄹㅡ -14229
▁ㅈㅏㅇㅌㅏㅇ -14230
▁ㅇㅕㅆㅇㅡㄴㅣ -14231
▁ㄱㅚㄷㅏㅁ -14232
ㄷㅓㅅ -14233
▁MLB -14234
ㅇㅏㄱㅏㄴㄷㅏ -14235
▁ㄱㅕㅇㅅㅓㅇ -14236
▁ㅇㅜㅊㅔㄱㅜㄱ -14237
▁ㄹㅐㅁㅍㅡ -14238
▁ㅇㅜㄹㅜㄱ -14239
▁MASTER -14240
▁ㅈㅓㄴㄱㅛ -14241
▁ㅎㅗㅈㅓㄴ -14242
▁ㅇㅜㄹㅜㄱㅘㅇㅣ -14243
▁ㄹㅏㅈㅣ -14244
▁ㅈㅓㄴㅍㅕㄴ -14245
▁ㅂㅣㄱㅂㅐㅇ -14246
▁ㄷㅏㅈㅜㅇ -14247
▁don -14248
▁ㅅㅡㅌㅣㅋㅓ -14249
ecial -14250
▁ㄴㅐㅇㅑㅅㅜ -14251
▁ㅊㅣㄹㄹㅔ -14252
▁ㅇㅏㅁㅔㄹ -14253
▁ㄷㅏㄴㄱㅗㄹ -14254
▁ㅍㅕㄴㅎㅐ -14255
ㅏㄴㅌㅡ -14256
▁ㅇㅣㅅㅡㅇㅁㅏㄴ -14257
▁ㄷㅐㄱㅏㄱ -14258
▁ㅁㅏㅅㅏㅋㅣ -14259
▁ㄷㅟㄷㅓㅍ -14260
▁ㄴㅏㅇㅗㄴㄷㅏㄴㅡㄴ -14261
▁School -14262
▁ㄱㅣㅎㅏㄴ -14263
▁ㄷㅗㅇㅊㅏㅇ -14264
▁ㅇㅣㄴㅁㅐㄱ -14265
▁ㅎㅏㅇㅑㅌㅗ -14266
ㅜㅇㅝㄴ -14267
▁ㅇㅣㅅㅗㅇ -14268
▁SO -14269
▁ㄷㅐㅈㅜ -14270
▁ㅁㅏㅈㅣㅇ -14271
▁ㄱㅏㅊㅜㄱ -14272
▁ㄷㅗㅇㅅㅓㄴ -14273
▁ㄹㅏㅈㅣㅁㅏㄴ -14274
▁ㅁㅏㅈㅣㅇㄱㅏ -14275
▁ㅅㅏㄱㅏ -14276
▁ㅌㅗㅇㅅㅣㄴㅅㅏ -14277
ane -14278
▁ㅆㅣㄹ -14279
ㅇㅏㄴㅐㄴㄷㅏ -14280
▁ㅇㅣㅂㅎㅏㄱㅅㅣㄱ -14281
ㅅㅜㄹㅑㅇ -14282
▁ㄱㅜㅇㅈㅣ -14283
▁ㅂㅜㄴㄱㅣㅈㅓㅁ -14284
▁ㅂㅐㄱㅎㅏㅂ -14285
ㅌㅡㄹㅐㄱ -14286
▁ㄷㅏㄹㄱㅑㄹ -14287
▁ㅇㅛㅁㅣ -14288
▁ㅎㅡㄱㅎㅘ -14289
▁ㄷㅐㅍㅏ -14290
ㄴㅕㄴㄱㅣ -14291
▁ㄱㅕㄹㅎㅏㅁ -14292
▁ㅁㅏㅇㅣㅌㅡ -14293
▁ㅇㅕㅇㅁㅣ -14294
▁Rec -14295
▁ㅁㅏㅋㅓ -14296
ㅓㅇㅝㅆ -14297
ㅂㅓㅁㅈㅚ -14298
▁ㅇㅝㄴㅎㅗ -14299
▁ㅎㅏㄴㅈㅣㄹㅏ -14300
▁ㅈㅏㅇㅌㅏㅇㅠㄹ -14301
▁ㅌㅐㅈㅗ -14302
▁ㅁㅜㄲㅇㅕ -14303
▁ㄷㅗㄷㅗ -14304
▁ㅅㅗㅅㅣㄹ -14305
▁ㅌㅏㄴㄷㅗ -14306
▁ㅈㅣㅅㅏㅇㅍㅏ -14307
▁ㄹㅣㅋㅜ -14308
▁ㅇㅜㅅㄱㅣㄴ -14309
▁ㅁㅏㄱㅂㅏㅈㅣ -14310
▁ㅎㅗㅇㅈㅜㄴㅍㅛ -14311
▁ㄱㅣㅁㅈㅓㄴ -14312
▁ㅈㅡㅇㄱㅝㄴ -14313
▁ㅈㅜㅈㅓㅇ -14314
▁way -14315
▁ㅅㅏㅇㅔ -14316
ㅈㅔㄹㅕㄱ -14317
▁ㄱㅗㅅㅗㄱㄷㅗ -14318
ope -14319
▁Sound -14320
▁ㄲㅡㄴㅈㅣㄹ -14321
▁ㅈㅔㅅㅣㅋㅏ -14322
▁ㅇㅕㄱㅗㅅㅐㅇ -14323
ㄹㅏㄷㅗ -14324
▁ㄱㅣㅁㅎㅢ -14325
▁Art -14326
▁ㅅㅞㄹ -14327
ㅌㅔㅇㅣㄴㅓ -14328
▁ㅈㅜㅇㅓㅈㅣㄴㄷㅏ -14329
▁Arm -14330
▁ㅉㅓㄹ -14331
▁ㅇㅣㄴㄴㅐ -14332
▁ㅎㅏㅂㄷㅏㅇ -14333
▁ㅁㅏㅇㅜㄴㅌㅡ -14334
▁ㅂㅏㄲㅟㄹ -14335
▁ㅁㅏㅇㅣㄴㅓㅅㅡ -14336
▁ㅂㅏㄱㅈㅜㄴ -14337
▁ㅍㅣㄷㅡㅂㅐㄱ -14338
ㄷㅗㄹㅣ -14339
▁ㅂㅏㅇㅎㅘㅇ -14340
▁ㅅㅏㅋㅜㄹㅏㅇㅣ -14341
▁ㄹㅜㅋㅏㅅㅡ -14342
▁ㅇㅣㄹㄹㅕㄴ -14343
▁ㄱㅘㄹ -14344
▁Yeah -14345
ㅌㅚㄱㅡㄴ -14346
▁ㅅㅣㅈㅣㅂ -14347
▁ㅇㅓㅇㅣㄴ -14348
Fat -14349
ㄲㅐㅇ -14350
▁ㅇㅘㄴㅅㅜ -14351
▁ㅇㅜㅇㅏ -14352
ㅎㅐㅇㅇㅟ -14353
▁ㅅㅗㅅㅓㄹㄱㅏ -14354
▁ㅎㅓㄴㅅㅣㄴ -14355
▁ㄱㅖㅇㅕㄹㅅㅏ -14356
▁ㅂㅔㄱㅏ -14357
▁ㄱㅗㅇㄹㅗ -14358
▁ㅎㅣㄴㅗ -14359
▁ㅍㅡㄹㅗㄹㅣㄱㅡ -14360
ㅅㅕㅊㅡ -14361
▁ㄱㅖㅈㅘ -14362
▁ㅇㅣㅁㅏㅌㅡ -14363
ㅂㅏㅋㅟ -14364
▁ㅉㅗㅊㄱㅣ -14365
▁ㅁㅏㄷ -14366
ㅅㅜㅅㅜ -14367
elf -14368
▁ㄲㅘㅇ -14369
▁ㄷㅜㄹㅕㅇㅝㅎㅏ -14370
ㅎㅡㄺ -14371
▁BAS -14372
ㅕㅁㅓㄱ -14373
▁ㄱㅏㅇㅈㅓㄱ -14374
▁ㅈㅓㄱㄹㅛ -14375
▁ㄱㅗㅅㅗㄱㅂㅓㅅㅡ -14376
▁ㄱㅡㄷㅏㄱ -14377
▁ㄱㅣㅁㅣㄹ -14378
▁ㅁㅏㅁㅗㄹㅜ -14379
▁ㅅㅗㅍㅣㅇㅏ -14380
▁ㄷㅏㅇㄴㅏㄹㅏ -14381
▁EM -14382
ㅡㅌㅣㅁ -14383
ㅣㄹㅇㅡ -14384
▁ㅂㅜㄹㄹㅓㅇㅣㄹㅇㅡ -14385
ision -14386
▁ㅎㅔㄹㅡㅁ -14387
▁ㅋㅓㄴㅌㅡㄹㅗㄹㄹㅓ -14388
▁ㅅㅐㅇㄱㅕㄴㅏ -14389
▁Femme -14390
▁ㄲㅏㄲㅇㅣ -14391
▁ㅂㅜㅅㅣㄱ -14392
▁ㄹㅣㅇㅔ -14393
▁ㅈㅏㄱㅂㅕㄹ -14394
ㅈㅐㅍㅏㄴ -14395
▁ㅅㅗㅎㅐㅇ -14396
▁ㅁㅏㄴㄹㅛ -14397
▁ㄹㅗㅅㅡㅇㅐㄴ -14398
▁ㄹㅗㅅㅡㅇㅐㄴㅈㅔㄹㄹㅔㅅㅡ -14399
▁Rev -14400
▁ㅈㅜㅂ -14401
▁1961 -14402
▁ㅈㅣㄴㄱㅏ -14403
▁Cat -14404
▁ㅂㅜㅊㅡ -14405
ㄷㅐㄱㅛ -14406
▁ㄷㅗㅇㄱㅜㄱ -14407
▁ㅊㅗㅅㅣㄱ -14408
▁ㅅㅡㅋㅗㅍㅡ -14409
ㅣㅇㅓㅉㅣ -14410
▁ㅇㅓㅉㅣㅇㅓㅉㅣ -14411
▁ㄱㅗㅇㅓ -14412
▁ㅍㅕㄴㄷㅐ -14413
▁ㄹㅔㅇㅣㅌㅓ -14414
▁ㄱㅏㄴㅏ -14415
▁ㅈㅏㅈㅣㄴ -14416
▁ㅍㅡㄹㄹㅐㄴㅣㅅ -14417
▁Ge -14418
▁ㄱㅕㅇㅎㅢ -14419
▁ㅁㅗㅊㅣㄴ -14420
▁ㄱㅏㄴㄹㅑㄱ -14421
▁ㅇㅗㄹㄹㅣㅂ -14422
▁ㄲㅐㅇㅓㄴㅏㄴ -14423
▁ㅅㅠㅍㅓㅅㅡㅌㅏ -14424
▁WE -14425
▁VIP -14426
▁ㅂㅏㄹㅅㅏㅇ -14427
▁ㄱㅡㄴㅗㅁ -14428
▁ㅈㅏㄱㅇㅣㄴ -14429
▁ㅂㅗㄹㄲㅏ -14430
▁ㅌㅐㅈㅗㅇ -14431
▁ㅇㅝㄴㅊㅓㄴ -14432
▁ㅊㅗㅇㄱㅘㄹ -14433
ㅜㅇㅑㅅㅑ -14434
▁ㅇㅣㄴㅜㅇㅑㅅㅑ -14435
▁ㅂㅏㄹㅋㅏㄴ -14436
▁ㅂㅜㄹㅁㅕㄹ -14437
▁ㅁㅜㄷㅎㅣ -14438
▁ㄷㅗㅇㄱㅡㄹ -14439
▁ㄱㅡㄱㅅㅗㅅㅜ -14440
▁ㄱㅣㅁㅈㅓㄴㅇㅣㄹ -14441
▁ㅇㅣㅂㅅㅜㄹ -14442
▁ㅁㅠㄹ -14443
▁ㅉㅗㄱㅐ -14444
▁ㄱㅗㅇㅂㅏㅇㅈㅓㄴ -14445
▁ㄷㅜㅂㅜ -14446
▁ㅃㅏㄹㄱㅏㅇ -14447
▁ㅎㅟㅂㅆㅡㄹ -14448
▁ㅎㅜㅇㅣㄹㄷㅏㅁ -14449
▁ㅇㅓㄷㅡㅂㅐㄴㅅㅡ -14450
▁DO -14451
▁ㅅㅜㄹㅂㅓㅂ -14452
we -14453
▁ㅈㅓㄹㅣ -14454
▁ㅈㅣㄴㅈㅓㅇㅎㅏㄴ -14455
▁ㅊㅟㅎㅐ -14456
▁ㅌㅐㄱㅡㅌㅣㅁ -14457
ㅜㄱㅓ -14458
▁ㅍㅏㅅㅏㄴ -14459
ㅍㅗㄱㅜ -14460
▁ㅅㅣㄱㅅㅣㄴ -14461
ㅇㅣㅁㅣ -14462
▁ㅅㅗㅅㅣㅁ -14463
ㅋㅝㄹ -14464
▁ㄲㅣㅇㅓㄷㅡㄹ -14465
▁ㄴㅣㅋㅏ -14466
▁ㅇㅜㅋㅡㄹㅏ -14467
▁ㅈㅣㄹㅕㅇ -14468
▁ㅇㅣㄹㅇㅡㅋㅣㄹ -14469
▁ㅁㅜㅈㅏㄱㅈㅓㅇ -14470
ㄱㅣㅇㅑ -14471
▁ㅇㅕㄷㅏㅇ -14472
▁ㅅㅓㄱㄱㅜㅇ -14473
ㅅㅜㅅㅡ -14474
▁ㅈㅗㄱㅈㅏㅇ -14475
▁ㅅㅗㅅㅣ -14476
▁ㅈㅔㅁㅓㅅ -14477
▁ㅅㅏㅇㅛㅇㅂㅓㅂ -14478
▁ㅋㅣㄱㅏ -14479
▁ㄱㅕㅇㄹㅑㅇ -14480
ㅏㅋㅣ -14481
▁ㅎㅏㄹㄹㅣㅇㅜㄷㅡ -14482
▁ㅅㅣㄹㅁㅜ -14483
▁ㄹㅣㅋㅣ -14484
▁ㅍㅣㅊㅓ -14485
▁ㅅㅣㄱㅜㅇ -14486
Fatale -14487
▁ㅂㅏㄹㅈㅓㄴㄱㅣ -14488
▁ㅅㅠㄱㅏ -14489
▁ㅈㅏㅊㅟ -14490
▁ㅋㅏㅅㅏ -14491
▁FemmeFatale -14492
ㄲㅜㅁㅊㅣ -14493
▁ㅈㅣㄴㅈㅏㄱ -14494
▁ㅆㅡㄹㄷㅔㅇㅓㅄ -14495
▁ㅈㅜㄴㄷㅏㅁㅕㄴ -14496
▁ㅁㅗㅅㅎㅏㄴㄷㅏㄴㅡㄴ -14497
▁ㅇㅏㅇㅢ -14498
str -14499
▁ㄹㅏㄷㅡ -14500
▁ㅇㅗㄴㅓ -14501
▁ㅂㅏㄴㅁㅏㄹ -14502
▁ㄷㅏㄷㅓㄴㄱㅏ -14503
ational -14504
▁ㅈㅓㅇㅁㅕㅇ -14505
▁ㅋㅡㄹㅗㄴㅣ -14506
ㅅㅐㅇㄱㅣㄴ -14507
▁ㅇㅏㄱㅎㅏㄴ -14508
▁ㅇㅠㄹㅗㅍㅏ -14509
▁ㄴㅏㅈㅣㄴ -14510
▁ㅇㅣㄹㅂㅗ -14511
▁ㅈㅏㄹㄹㅣ -14512
▁ㅂㅏㄹㅈㅏㄱ -14513
▁ㅈㅐㅅㅜ -14514
▁ㄷㅐㅈㅏㅁ -14515
▁ㅈㅓㅇㄱㅖ -14516
▁ㅇㅖㅁㅕㅇ -14517
▁ㅋㅡㄹㅗㄴㅣㅋㅡㄹ -14518
▁ㅈㅏㅋㅏ -14519
▁ㅈㅜㅈㅏㄱ -14520
▁ㅎㅏㄹㅣ -14521
▁ㅎㅜㅎㅏㄴ -14522
▁ㅅㅐㅁㅍㅡㄹ -14523
ouse -14524
▁dis -14525
▁ㄷㅏㄴㅂㅓㄴ -14526
▁ㄱㅜㄴㄱㅣ -14527
ㅁㅣㅅㅡ -14528
▁ㅇㅓㄸㅓㄹ -14529
▁ㅁㅜㄷㅎㅕㅆ -14530
SS -14531
▁ㅂㅣㅅㅣ -14532
▁ㅊㅚㅅㅓㅇ -14533
ㅓㄴㅈㅣ -14534
▁ㅎㅗㅅㅔ -14535
▁ㅎㅏㅎㅏㅎㅏ -14536
▁ㅇㅣㅇㅏㄴ -14537
▁ㄱㅏㅁㅕㅇ -14538
▁ㅎㅘㅇㅌㅐㅈㅏ -14539
▁ㄹㅕㅆ -14540
▁ㅅㅣㅋㅗ -14541
▁ㅅㅣㄴㄷㅣ -14542
▁ㅇㅕㄴㄱㅡㅁㅅㅜㄹ -14543
appy -14544
▁ㅅㅗㅈㅣㄴ -14545
▁ㅇㅑㅇㅍㅏ -14546
▁ㅈㅜㅇㅇㅓㄹ -14547
▁ㅇㅔㅇㅣㅈㅓㄴㅌㅡ -14548
▁ㅁㅏㅈㅏㄱ -14549
▁ㅂㅏㄱㅎㅣㄴ -14550
▁ㄷㅓㄴㅈㅣㄴㄷㅏ -14551
▁NHK -14552
▁ㅎㅏㅇㅝㄷㅡ -14553
▁ㄱㅓㅁㅇㅡㄴㅅㅐㄱ -14554
▁ㅎㅓㅅㅔ -14555
▁ㅇㅓㄹㅍㅣㅅ -14556
AG -14557
▁ㅅㅓㅁㅇㅠ -14558
▁ㄱㅡㄹㅕㅈㅣ -14559
▁ㅎㅗㄴㅈㅗㅇ -14560
▁ㅅㅖㅇㅣ -14561
▁ㄱㅡㅂㄱㅣㅇㅑ -14562
ORE -14563
▁ㄱㅗㄷㅗㄱ -14564
▁ㅇㅏㄱㅅㅔ -14565
▁ㅅㅡㅋㅏㄹㄹㅔㅅ -14566
▁ㅂㅏㄴㅎㅘㄴ -14567
▁ㅋㅣㄹㅣㅌㅗ -14568
▁ㅎㅛㄱㅘㅇㅡㅁ -14569
▁ㅁㅔㅌㅔㅇㅗ -14570
▁br -14571
▁ㄱㅡㅁㅎㅗ -14572
ㅗㄴㅗ -14573
▁ㅇㅏㄷㅡ -14574
▁ㅎㅗㄴㅗㅋㅏ -14575
▁ㅇㅔㄷㅗ -14576
▁ㅎㅘㅅㅜ -14577
▁ㄱㅘㅇㅅㅓㄱ -14578
▁ㅂㅕㅇㄷㅏㄴ -14579
▁ㅅㅓㅇㄷㅗ -14580
▁ㅇㅘㅇㅣㅇㅓ -14581
▁ㅍㅔㄴㅣ -14582
ㅌㅣㅇㅓ -14583
▁Order -14584
▁ㄱㅛㅅㅓㅂ -14585
▁ㅇㅐㄷㅏㅇㅊㅗ -14586
ness -14587
▁ㅅㅏㅇㅎㅚ -14588
▁1100 -14589
▁ㅈㅓㅁㄱㅓ -14590
▁ㄷㅏㅇㅇㅝㄴ -14591
▁ㅅㅜㅈㅜㄴㄱㅡㅂ -14592
▁ㄱㅣㅇㅗㄴ -14593
ㅁㅗㅇㅓㅄ -14594
▁ㅅㅏㅁㄱㅓㄹㅣ -14595
▁ㅆㅡㄹㅁㅗㅇㅓㅄ -14596
▁ㄸㅟㅊㅕㄴ -14597
▁ㄴㅏㄴㅈㅓㄴ -14598
▁ㅍㅏㅂㅍㅡㄴ -14599
▁ㅍㅏㅂㅍㅡㄴㅁㅠㅈㅣㄱ -14600
ㅈㅔㄱㅜㄱ -14601
▁ㅅㅡㅍㅡㄹㄹㅐㅅㅣ -14602
▁ㅈㅗㅇㅜㄴ -14603
▁ㅋㅣㅍㅓ -14604
▁ㅌㅐㄱㅂㅐ -14605
▁MD -14606
▁ㅁㅐㅅㅜ -14607
▁ㅂㅏㄱㅎㅐ -14608
▁ㅊㅗㅍㅣㄹ -14609
▁ㅁㅣㅈㅣㅅㅜ -14610
▁ㅈㅘㅇㅣㄱㅅㅜ -14611
▁ㅈㅔㅈㅓㅇㅅㅣㄴ -14612
▁ㄱㅛㅈㅜ -14613
▁ㅇㅏㅈㅡㅅㅏ -14614
▁ㅈㅏㅈㅏㄹ -14615
▁ㅈㅜㅂㅓㅁ -14616
▁ㅌㅡㄹㅣㅁ -14617
▁ㅎㅔㄹㅅㅡ -14618
▁ㅊㅓㄴㅈㅓㄱ -14619
▁ㅅㅓㅇㅊㅐ -14620
▁ㅇㅑㅇㅋㅣㅅㅡ -14621
▁ㄱㅣㅁㅎㅖ -14622
▁ㅅㅓㅇㅅㅜ -14623
▁ㅌㅗㄹㅗㄴㅌㅗ -14624
▁ㄱㅏㅂㅈㅏㄱㅅㅡㄹㅓㅂ -14625
ㅍㅓㅇ -14626
▁Elect -14627
▁ㄱㅣㅁㅊㅏㅇ -14628
▁ㅈㅓㄱㅂㅏㄹ -14629
▁ㄱㅕㅇㅁㅐ -14630
▁ㅇㅓㅁㅈㅣ -14631
▁ㅍㅓㄹㅅㅡ -14632
▁ㅇㅑㅇㅎㅕㄴ -14633
▁ㅍㅗㄱㄷㅗㅇ -14634
▁ㅋㅏㄱㅏ -14635
▁ㅁㅐㅈㅣㄴ -14636
▁ㅅㅣㄴㅈㅜㅋㅜ -14637
▁ㅇㅣㅊㅣㄹㅗ -14638
▁^ -14639
▁ㄷㅏㅇㅈㅜ -14640
▁ㅈㅓㅇㄹㅣㅂ -14641
▁ㅎㅏㄴㅁㅗㄳ -14642
ㄷㅔㄹㅍㅣㅇㅏ -14643
▁ㅍㅣㄹㄹㅏㄷㅔㄹㅍㅣㅇㅏ -14644
▁ㅎㅚㅎㅘ -14645
▁ㅂㅜㅌㅇㅕㅅㅓ -14646
▁ㅇㅘㄴㅈㅓㄴㅊㅔ -14647
▁ㄴㅏㅇㅘㅆㅇㅡㅁㅕ -14648
▁ㅅㅡㄹㄹㅗ -14649
▁ㅇㅛㅁㅣㅇ -14650
▁ㅇㅛㅁㅣㅇㅜㄹㅣ -14651
▁ㅎㅟㅂㅆ -14652
▁ㅅㅓㄹㄹㅔ -14653
▁ㅁㅣㄹㅏㅋㅡㄹ -14654
▁ㅎㅣㄷㅔㅇㅛㅅㅣ -14655
ㅗㅇㅣㄴ -14656
▁ㄱㅘㅂㅜ -14657
▁ㅇㅣㅅㅡㅌㅓ -14658
▁ㄸㅐㅁ -14659
▁ㅈㅗㅇㅇㅣㄹ -14660
inc -14661
▁ㄴㅜㄴㅆ -14662
▁ㅎㅏㅂㅜ -14663
▁ㄱㅣㅍㅅㅜㄱ -14664
▁TCG -14665
▁ㅂㅡㄹㄹㅔㅇㅣㅈㅡ -14666
▁ㄲㅏㄷㅏㄺ -14667
▁ㅃㅐㄷㅗㄹ -14668
ㅈㅓㅌㅡ -14669
▁EXH -14670
▁ㅅㅐㅇㄱㅕㄴㅏㅆ -14671
▁ㅇㅝㄴㄱㅗ -14672
▁ㅍㅡㄹㅗㅅㅔㅅㅓ -14673
▁ㅂㅐㅈㅣ -14674
▁ㅂㅗㅇㅣㄴㄷㅏㄴㅡㄴ -14675
▁ㄷㅐㅆ -14676
▁ㅂㅗㄱㅅㅣㅇ -14677
▁ㅂㅏㄱㅈㅐ -14678
▁ㅍㅣㄱㅗㄴ -14679
▁ㅁㅜㄴㅓㅈㅕ -14680
▁ㅅㅓㄷㅡ -14681
▁ㄱㅗㅇㅎㅠ -14682
▁CON -14683
▁ㅇㅓㅂㅣㅅㅡ -14684
▁ㅇㅗㅂㅌㅣㅁㅓㅅㅡ -14685
▁ㅇㅏㅂㅅㅏㄹ -14686
▁ㅇㅕㄴㅇㅖㄱㅖ -14687
▁ㅍㅡㄹㅏㅇㅋㅔㄴ -14688
▁ㄱㅘㅇㅂㅓㅁ -14689
ㅌㅜㅅㅜ -14690
ㅡㄹㄹㅣ -14691
▁ㅁㅏㄹㅈㅏㅇㄴㅏㄴ -14692
▁ㅈㅓㄴㄹㅣㅍㅜㅁ -14693
▁ㅅㅜㅍㅕㅇ -14694
▁ㅂㅗㄴㄷㅣ -14695
▁ㅅㅣㅎㅏㄴ -14696
▁ㅅㅡㅇㅟㅌㅡ -14697
▁ㅈㅣㅁㅏㅇ -14698
▁ㄷㅗㄹㅣㅇㅓ -14699
▁ㄱㅕㄹㅈㅏㅇ -14700
▁ㅈㅓㄱㅅㅐㄱ -14701
▁ㅅㅓㄴㅂㅏㄹㅌㅜㅅㅜ -14702
▁ㄷㅐㅅㅏㄱㅘㄴ -14703
ㅔㅌㅏ -14704
▁ㅇㅜㄴㅎㅏㅇ -14705
▁ㄱㅣㅁㅏ -14706
▁world -14707
▁ㅎㅠㅇㅣㄹ -14708
▁ㅅㅣㄴㅇㅣㅊㅣ -14709
▁ㅂㅏㄴㄷㅏㅇㅣ -14710
▁ㄷㅜㄲ -14711
▁ㅅㅓㅌㅐ -14712
▁ㅈㅗㅇㅣㄴ -14713
▁ㅅㅡㅇㅘㅂ -14714
▁214 -14715
▁RG -14716
▁ㅎㅜㄱㅜㅇ -14717
▁ㅈㅗㅎㅕㅇ -14718
▁ㄴㅐㅇㅈㅓㄴ -14719
ㄴㅗㄹㅇㅣ -14720
ㅇㅏㄱㅏㄹ -14721
▁ㅇㅣㄹㅆㅜ -14722
▁She -14723
ㄷㅔㅇㅏ -14724
▁ㄴㅗㄹㅡ -14725
▁ㄱㅏㅇㅎㅐㅈㅕㅆ -14726
ㅎㅣㅌㅡ -14727
▁ㅍㅗㄹㄷㅓ -14728
▁ㄱㅕㅇㅈㅏㅇ -14729
▁ㅅㅏㅇㅣㅍㅓ -14730
▁ㅅㅗㄴㅎㅡㅇ -14731
▁ㅃㅏㅈㅣㄹ -14732
▁SHOW -14733
▁ㄷㅏㅇㄱㅣ -14734
▁ㅈㅏㄱㅅㅏㄹ -14735
▁ㅂㅏㅇㅣㅅㅡ -14736
▁ㅃㅛ -14737
▁ㄱㅣㅁㅣ -14738
▁ㅈㅓㅇㅇㅡㄴ -14739
▁ㄴㅗㄹㄹㅣㅁ -14740
▁ㄷㅏㅇㅂㅜㄴ -14741
ㅎㅗㅇㅣㄴ -14742
▁ㅋㅣㅇㅝㄷㅡ -14743
▁ㄱㅛㄹㅏㄴ -14744
▁ㅅㅓㄴㅂㅗㅇㅣㄴ -14745
IV -14746
▁ㅂㅏㄹㅜ -14747
▁ㄱㅏㅇㅇㅠ -14748
▁ㄷㅡㄴㄱㅏ -14749
▁ㅁㅏㅈㅎㅣ -14750
▁ㅂㅘㅅㅓㄴ -14751
▁ㄸㅏㄹㅏㅇㅗ -14752
▁ㅇㅖㄹㄹㅗ -14753
▁ㄷㅏㅇㅣㅂㅡ -14754
▁ㅎㅏㄴㅏㅁ -14755
▁ㅎㅏㄴㅈㅗ -14756
day -14757
omb -14758
▁ㅎㅜㅇㅏㄴ -14759
ㅅㅏㅇㅢ -14760
▁ㅈㅓㅇㄱㅓ -14761
▁1943 -14762
▁ㄹㅣㄴㅗ -14763
▁ㄱㅗㅇㅎㅠㅇㅣㄹ -14764
▁ㅈㅔㅅㅣㄱ -14765
▁ㅅㅏㄴㅇㅏㄱ -14766
▁ㅁㅣㄹㅇㅓㅈㅜ -14767
▁ㅅㅡㅍㅗㄴㅈㅣ -14768
ㄷㅙㅈㅣ -14769
▁ㅂㅜㄹㅅㅏㅈㅗ -14770
its -14771
▁ㅌㅏㄴㅈㅗㅇ -14772
▁ㄷㅗㅎㅗ -14773
▁ㅅㅓㅇㅊㅜ -14774
▁ㄴㅗㅅㅜㄱ -14775
▁ㅇㅓㄱㅈㅣ -14776
▁ㅇㅣㄴㅗㅇㅜㅇㅔ -14777
ㅍㅜㄴ -14778
▁ㄱㅓㄴㅈㅓㄴ -14779
▁ㄷㅡㄹㅇㅣㄷㅐ -14780
▁ㅍㅡㄹㅓㄴㅌㅡ -14781
▁Da -14782
ㄱㅜㅊㅣ -14783
▁ㅇㅏㅈㅣㅌㅡ -14784
▁ㅌㅡㄹㅣㄴ -14785
▁ㄷㅐㅍㅛㅈㅏㄱ -14786
▁ㅇㅓㄴㅎㅐㅇ -14787
▁ㅅㅗㄱㅅㅏㄱ -14788
▁ㅅㅗㄴㅎㅡㅇㅁㅣㄴ -14789
▁ㅅㅓㅂㅇㅚ -14790
▁ap -14791
▁ㄷㅓㅅㅡㅌㅡ -14792
▁ㅁㅕㅇㅈㅏㄱ -14793
▁ㄷㅗㅋㅜㄱㅏㅇㅘ -14794
▁ㅇㅖㅂㅣㄱㅜㄴ -14795
▁ㅅㅡㅇㄱㅣ -14796
ㅏㄴㄷㅡ -14797
ㅋㅏㄹㅏ -14798
▁ㅊㅗㅌㅗ -14799
ㅍㅓㄹㅓㄴㅅㅡ -14800
▁naver -14801
ㅎㅗㅇㅝㄴ -14802
▁ㅅㅔㄹㅍㅡ -14803
▁ㅈㅓㅇㄱㅛㅎㅚ -14804
▁** -14805
▁340 -14806
ㅌㅜㅍㅛ -14807
ㅋㅣㄴㄷㅏ -14808
▁ㅈㅓㅇㄹㅠㅅㅗ -14809
▁ㅂㅜㅌㅓㄴ -14810
▁ㅎㅐㅇㅌㅐ -14811
▁beatmania -14812
▁ㅈㅣㄱㄱㅏㅁ -14813
▁ㅇㅑㅇㅎㅗ -14814
▁ㄹㅣㅌㅡ -14815
▁ㅇㅔㄹㅣㅋㅏ -14816
▁1942 -14817
▁ㅁㅏㅈㅊㅜㅁ -14818
▁ㅅㅏㅇㅅㅗㄱ -14819
▁ㄱㅣㄱㅗㅇ -14820
ham -14821
▁141 -14822
▁ㅈㅔㅇㅣㄷㅡ -14823
▁ㅋㅗㄹㄹㅏㅂㅗㄹ -14824
▁ㄴㅡㄴㅑㄴㅡㄴ -14825
▁ㄷㅗㅈㅓㄴㅈㅏ -14826
▁ㅇㅗㅂㅓㄹㅗㄷㅡ -14827
▁ㅎㅘㄱㅇㅕㄴㅎㅣ -14828
▁ㅌㅗㅌㅏㄹ -14829
▁ㅇㅣㄹㅇㅡㅋㅣㄴㄷㅏ -14830
▁ㅂㅏㄱㄱㅕㄱㅍㅗ -14831
▁ㅋㅗㄹㄹㅏㅂㅗㄹㅔㅇㅣㅅㅕㄴ -14832
▁ㅎㅔㄹㅡ -14833
▁ㅁㅣㅅㅓㅇㄴㅕㄴㅈㅏ -14834
▁ㅁㅜㅅㅏㅇ -14835
ious -14836
▁ㅅㅔㄹㅔ -14837
▁ㅈㅐㅇㅌㅏㄹ -14838
▁ㅇㅔㄱㅅㅗ -14839
▁ㅋㅡㄹㅜㅅ -14840
▁ㅍㅗㄱㅂㅏㄹㅁㅜㄹ -14841
▁ㄱㅐㅇㅣㄴㅈㅓㄴ -14842
▁ㅍㅏㄴㅌㅏ -14843
▁ㅋㅜㅅㅏ -14844
▁ㅈㅗㅁㅂㅣ -14845
▁ㅇㅟㄹㅅㅡㄴ -14846
▁ㅌㅔㄹㄹㅔㅂㅣㅈㅓㄴ -14847
▁ㄲㅐㅇㅜ -14848
▁ㅌㅗㅎㅏ -14849
▁ㅅㅗㅍㅣ -14850
ㄷㅏㄱㅏㄴ -14851
ㅜㄹㅡㅌㅡ -14852
▁ㅊㅏㅇㄷㅏㅇ -14853
▁ㅍㅡㄹㅗㅇㅣㅅㅔㄴ -14854
▁ㄱㅏㄷㅎㅣㄴ -14855
▁ㅈㅗㄴㄷㅐㅅㅁㅏㄹ -14856
ㅅㅏㅇㅜㄹㅜㅅㅡ -14857
▁ㅎㅟㅁㅏㄹㄹㅣ -14858
EX -14859
▁SW -14860
▁ㅇㅐㅍㅡ -14861
▁ㅈㅣㄴㄱㅜㄴ -14862
▁ㄱㅗㅇㅇㅣㄱ -14863
▁ㅊㅜㄹㅌㅚㄱㅡㄴ -14864
▁ㅌㅓㅈㅣㄴㄷㅏ -14865
▁ㄴㅡㄲㅣㄴㄷㅏ -14866
▁ㅁㅐㄴㅓ -14867
▁ㅎㅕㄴㅁㅕㅇ -14868
▁ㅂㅜㄹㄱㅏㅅㅏㅇㅢ -14869
▁ㅁㅗㅇㅕㅅㅓ -14870
▁ㅈㅏㅇㅂㅕㅇ -14871
ㅅㅔㄷㅔㅅㅡ -14872
▁ㅁㅔㄹㅡㅅㅔㄷㅔㅅㅡ -14873
▁ㅂㅣㅋㅣ -14874
▁ㅈㅡㅇㅅㅔ -14875
▁te -14876
▁ㅍㅗㄱㅅㅏ -14877
▁ㅂㅔㄴㅔㅅ -14878
ㄹㅓㄹㅣ -14879
▁ㅇㅣㄴㅇㅓ -14880
▁ㅇㅏㄹㅇㅏㅊㅐ -14881
▁ㅅㅕㄹㄹㅗㄱ -14882
▁ㅅㅏㅇㄷㅐㅅㅣㄱ -14883
▁ㅅㅏㅇㄱㅝㄴ -14884
▁ㄹㅔㅅㅡㅌㅓ -14885
▁ㅁㅜㄹㄹㅓㄴ -14886
▁ㅍㅡㄹㅗㄱㅡㄹㅐㅁㅣㅇ -14887
ㅅㅓㄹㅣㄴ -14888
▁ㅊㅜㄹㄱㅗ -14889
▁ㅅㅣㄴㅊㅜㄱ -14890
▁ㅇㅐㄱㅅㅔㅅㅓㄹㅣ -14891
▁ㅅㅓㅇㅝㄴ -14892
▁ㄲㅏㅁㅓㄱ -14893
▁ㄱㅔㅇㅣㅁㄱㅣ -14894
▁ㄱㅡㄹㄹㅓㅂㅡ -14895
▁Not -14896
▁ㄷㅏㅈㅓㅇ -14897
▁ㅂㅜㄹㅅㅏㅇ -14898
▁ㄱㅘㅇㅂㅓㅁㅇㅟ -14899
▁ㄹㅕㅁ -14900
▁ㅈㅓㅂㅓㄴ -14901
▁ㅍㅕㅇㅇㅝㄴ -14902
▁ㅅㅓㄴㄱㅗㅇ -14903
▁ㅇㅣㅂㅁㅏㅅ -14904
▁ㅅㅐㅇㅜ -14905
▁ㅋㅐㅂㅋㅗㅁ -14906
▁ㅎㅏㅂㅊㅏㅇ -14907
▁ㅈㅓㅇㄱㅓㅈㅏㅇ -14908
▁ㅇㅟㅈㅡ -14909
▁ㅅㅡㅍㅏㄹㅡㅌㅏ -14910
▁ㅈㅣㅈㅏ -14911
▁ㅇㅏㄴㄴㅏ -14912
▁ㅈㅏㅇㅕㄴㅅㅡㄹㅔ -14913
▁ㅈㅐㅂ -14914
▁ㄹㅓㅅㅔㄹ -14915
▁ㅎㅜㄹㅜ -14916
▁ㅎㅏㄷㅡㅋㅗㅇㅓ -14917
▁ㄱㅜㄴㅎㅏㅁ -14918
▁ㅁㅜㄴㅓㅈㅣㄴ -14919
▁ㄷㅗㅇㅂㅗㅇ -14920
▁ㄴㅔㅁㅔ -14921
▁ㅇㅠㅅㅓ -14922
▁ㅅㅜㄹㅌㅏㄴ -14923
▁ㅈㅐㄱㅗ -14924
▁ㅈㅓㅂㅇㅓㄷㅡㄹ -14925
aut -14926
▁ㄹㅏㄱㅓㄴㅏ -14927
ivers -14928
▁ㄷㅡㄴㄷㅡㄴ -14929
▁ㅂㅏㄴㄱㅏㅇ -14930
▁ㅅㅣㄱㅡㅁㅏ -14931
▁ㅅㅡㅋㅡㄹㅐㅊㅣ -14932
▁ㅅㅣㅇㅇㅓ -14933
▁ㅈㅏㅇㅇㅏㄴ -14934
▁ㄱㅜㄱㄹㅕㄱ -14935
▁ㄱㅓㄴㄴㅓㄱㅏ -14936
▁ㅁㅏㅇㄱㅏㅈㅣ -14937
ㄷㅓㄴㅌㅡ -14938
▁ㅍㅣㄹㅏㅁㅣ -14939
▁ㅌㅔㅇㅣㅋㅡ -14940
▁DEF -14941
ㅡㅌㅡㅁ -14942
▁ㅇㅣㄹㅜㄴ -14943
▁ㅍㅛㅂㅗㄴ -14944
▁ㅈㅓㅇㅂㅗㅇ -14945
▁ㄹㅣㅇㅐㄱㅅㅕㄴ -14946
ㅇㅛㅎㅘㄴ -14947
▁ㅁㅏㄱㅂㅜ -14948
▁Ke -14949
▁ㅅㅏㅇㅣㅇㅗ -14950
ㅏㅌㅣㅇㅏ -14951
▁ㄲㅡㄹㅇㅓㄴㅐ -14952
▁ㄲㅗㅇㅣ -14953
▁ㄱㅗㅇㄷㅗㅇㅊㅔ -14954
▁With -14955
27 -14956
ㅍㅐㅅㅡ -14957
▁ㄷㅗㅍㅣ -14958
▁ㅈㅜㅈㅓ -14959
▁ㅈㅣㄹㄹㅑㅇ -14960
▁ㅉㅣㄱㅎㅣㄴ -14961
▁ㅅㅏㅇㅂㅏㄴㄱㅣ -14962
▁RAW -14963
23 -14964
ERS -14965
▁ㅇㅏㄴㄷㅏ -14966
▁ㅂㅜㄷㅗ -14967
▁ㅈㅗㅇㅅㅏ -14968
▁ㅅㅔㅅㅕㄴ -14969
▁ㅎㅘㅈㅏ -14970
▁ㅅㅣㄴㄷㅏ -14971
▁Every -14972
▁ㅍㅡㄹㅣㅈㅡ -14973
▁ㅁㅏㅇㅡㅁㄲㅓㅅ -14974
ANC -14975
olution -14976
▁ㄹㅐㅅ -14977
▁ㅇㅟㅎㅘ -14978
▁ㅊㅔㅈㅣㄹ -14979
▁ㄷㅐㄱㅏㅇ -14980
▁ㅇㅗㅅㅡㅇ -14981
▁ㄱㅜㄴㅅㅏㄹㅕㄱ -14982
▁ㅈㅜㄷㅚㄴ -14983
▁ㅎㅓㄴㄷㅔ -14984
▁ㄲㅏㅆ -14985
▁ㅅㅏㅇㅍㅛ -14986
▁ㄱㅣㅁㅌㅐㅇ -14987
▁ㅅㅐㅇㄱㅏㄱㄴㅏ -14988
▁ㅇㅏㅇㅕㄱ -14989
▁ㅈㅓㄴㅈㅓㄴ -14990
▁ㅋㅐㅅㅓㄹㅣㄴ -14991
▁ㅇㅣㅁㅇㅛㅎㅘㄴ -14992
▁ㅌㅏㄹㅇㅗㄱ -14993
▁ㅍㅡㄹㅗㄴㅌㅡ -14994
▁ㅊㅣㅇㅣ -14995
▁ㅁㅏㅇㅈㅏ -14996
▁ㅇㅕㄹㅂㅏㄷ -14997
▁ㅇㅟㅌㅏㄱ -14998
ㅡㄹㄹㅐㄴㄷㅡ -14999
▁ㅇㅚㅊㅜㄹ -15000
▁ㅍㅡㄹㅣㅅㅡㅌㅡ -15001
▁ㄱㅘㄴㄴㅕㅁ -15002
▁ㅁㅣㅅㅣ -15003
▁ㅈㅐㅇㅣㅁ -15004
▁ㅋㅣㅇㅅㅡ -15005
▁ㅇㅟㄹㄹㅣㅇㅓㅁㅅㅡ -15006
olog -15007
▁ㅇㅓㅊㅓㄱ -15008
45 -15009
▁ㅂㅡㄹㅣㅅㅈㅣ -15010
▁ㅅㅗㅇㄱㅜ -15011
▁ㅂㅡㄹㅏㄷㅓ -15012
▁ㅅㅗㄴㅂㅏㄷㅏㄱ -15013
ㄱㅔㅇㅛ -15014
ㅁㅏㅂㅐㅁ -15015
▁ㅋㅗㄹㄹㅗㄴㅣ -15016
▁ㅇㅠㄴㅅㅓㅇ -15017
▁ph -15018
ㅌㅔㅅㅡ -15019
▁ㅇㅚㄴㅍㅏㄹ -15020
▁ㄴㅡㄲㅕㅈㅣㄹ -15021
UC -15022
▁ㅇㅘㅇㅜ -15023
▁ㅍㅕㅇㅁㅣㄴ -15024
▁310 -15025
▁ㅈㅔㄱㅜ -15026
ㅃㅣ -15027
▁ㅂㅏㅇㅈㅓㅇ -15028
▁ㅋㅗㅇㅣㅊㅣ -15029
▁ㄱㅣㅁㅈㅜㄴㅎㅗ -15030
▁ㄷㅐㅁㅜㄴ -15031
▁ㄹㅔㅂㅏㄴ -15032
▁ㅋㅓㄹㅣ -15033
▁ㅈㅣㅂㄱㅕㄹ -15034
▁ㅌㅏㄴㅅㅗ -15035
▁ㅇㅟㄴㅅㅡㅌㅓㄴ -15036
▁ㄹㅜㅌㅓ -15037
▁ㅇㅣㅅㅣㄴ -15038
▁ㅎㅔㅅㄱㅏㄹㄹㅣ -15039
▁ㅂㅔㄱ -15040
▁ㅍㅛㅊㅜㄹ -15041
▁ㄷㅏㄹㅡㄴㄷㅔ -15042
▁ㅅㅣㅈㅡㅋㅏ -15043
▁ㅎㅘㄴㄱㅏㄱ -15044
▁ㅇㅝㄴㅈㅔ -15045
ㅇㅏㅇㅣㄹ -15046
ㅓㅂㅈㅏ -15047
▁ㅅㅣㄴㅇㅝㄴ -15048
▁if -15049
▁ㅁㅓㅁㅊㅜㄴ -15050
▁ㅊㅚㅁㅕㄴ -15051
▁ㄴㅏㄴㅏㅁㅣ -15052
▁ㅅㅜㄴㅈㅣㄴ -15053
▁ㅅㅜㅇㅝㄴㅅㅣ -15054
▁ㄷㅠㅌㅣ -15055
▁Get -15056
▁ㅂㅏㄱㅂㅕㅇ -15057
▁ㅂㅜㅅㅓㅈㅣ -15058
▁ㅅㅗㅅㅜㅈㅏ -15059
▁ㅅㅡㅍㅏㅇㅣㄷㅓ -15060
▁ㄴㅏㄱㅇㅝㄴ -15061
▁ㅌㅓㅌㅡㄹㅣ -15062
▁ㄱㅕㅇㅊㅏㄹㄱㅘㄴ -15063
▁ㅂㅏㅎㅏ -15064
▁ㅂㅗㄷㅏㅂ -15065
▁Chr -15066
▁ㅊㅔㅇㅣ -15067
▁ㄴㅏㄴㅏㄹ -15068
▁ㅈㅓㅇㅅㅔ -15069
▁1946 -15070
▁ㅂㅣㅅㅛ -15071
▁ㄹㅠㅎㅕㄴㅈㅣㄴ -15072
▁ㅁㅏㄹㅂㅓㄹ -15073
29 -15074
▁EB -15075
▁007 -15076
▁ㅎㅐㅎㅏㄴㄷㅏ -15077
▁ㅈㅜㅍㅏㅅㅜ -15078
▁ㅅㅜㄴㅕ -15079
66 -15080
▁ㅋㅙㅅㅗㄱ -15081
▁ㅉㅏㄹㅂㅏㅇ -15082
▁FR -15083
ㅣㅁㅅㅐ -15084
▁CT -15085
▁ㅅㅣㄹㅣ -15086
▁ㅋㅓㅌㅓ -15087
ㄷㅡㄴㅣ -15088
ㄷㅔㄱㅣ -15089
▁ㅎㅐㅋㅓ -15090
▁ㅂㅜㄴㄱㅕㅇ -15091
▁ㅊㅚㅇㅜㅅㅜ -15092
▁ㄱㅣㅁㅈㅓㅇㅇㅡㄴ -15093
▁ㅅㅏㄱㅘㅁㅜㄴ -15094
▁ㄹㅓㅆㄷㅏ -15095
▁ㅅㅣㅈㅓ -15096
▁ㅎㅜㄹㅕ -15097
▁ㅅㅣㄴㅗㅂㅜ -15098
▁ㄷㅐㅁㅕㅇㅅㅏ -15099
▁ㅌㅏㄱㅗㄴㅏㄴ -15100
▁ㅊㅜㅅㅓㄱ -15101
▁ㅁㅣㅇㅑㅈㅏㅋㅣ -15102
ely -15103
▁ㅂㅓㄱㅡㅁ -15104
▁TB -15105
▁ㄹㅡㄴㅔ -15106
▁ㅈㅜㄹㄱㅗㄷ -15107
▁ㄱㅏㅊㅜㄹ -15108
▁ㅁㅏㅇㅣㅇㅓ -15109
▁ㅎㅘㅇㅛㅇㅣㄹ -15110
ty -15111
▁Har -15112
▁ㅋㅞㅇㅣ -15113
▁ㅈㅏㅂㅏㄹ -15114
▁ㅌㅏㅁㅇㅛㄱ -15115
▁ㅎㅡㅂㅇㅕㄴ -15116
▁ㄷㅡㄹㅓㄴㅐㄴ -15117
ㅈㅗㄱㅏㄱ -15118
▁Boy -15119
▁ㄲㅓㅈㅣ -15120
▁ㅂㅗㅇㅎㅘㅇ -15121
ㅎㅏㅇㅣㄴㄷㅡ -15122
▁ㅁㅜㅈㅏㅂㅣ -15123
▁ㅋㅣㅁㅔㄹㅏ -15124
▁ㅂㅏㄴㅊㅣㄱ -15125
▁ㅌㅗㄴㅔㅇㅣㄷㅗ -15126
▁ㄷㅐㅂㅜ -15127
▁ㅂㅣㅎㅏㅇㅣㄴㄷㅡ -15128
▁ㅁㅣㄹㄹㅔㄴ -15129
▁ㅋㅗㄴㅌㅣ -15130
▁ㅇㅑㅇㅇㅏㅊㅣ -15131
icro -15132
▁ㅁㅣㄴㅇㅕㅇ -15133
ㅅㅏㅇㅣㄷㅡ -15134
▁ㅃㅏㄱㅃㅏㄱ -15135
ny -15136
▁1954 -15137
▁ㄱㅣㅊㅗㅇ -15138
▁ㅅㅡㄴㅣㅁ -15139
▁ㅈㅣㄹㅡㅁ -15140
▁ㅇㅕㅇㅎㅘㅍㅏㄴ -15141
ㅣㅇㅋㅡ -15142
▁ㅇㅕㄴㅎㅢ -15143
▁ㄷㅏㅇㄷㅏㅇㅎㅣ -15144
▁ㅂㅏㄷㅇㅏㄷㅡㄹㅇㅕㅆ -15145
▁ㅇㅏㅈㅏ -15146
▁ㅅㅏㄱㅛ -15147
▁Skill -15148
▁ㅁㅏㅅㅂㅗ -15149
▁ㄷㅏㅁㄷㅏㅇㅈㅏ -15150
▁ㅁㅏㄷㅓ -15151
▁ㅈㅜㅇㅇㅏㅇㅅㅓㄴ -15152
ters -15153
▁ㅂㅔㄱㅌㅓ -15154
▁ㅎㅜㅇㅠㅈㅡㅇ -15155
▁720 -15156
ㅊㅜㄱㄱㅜ -15157
▁ㅇㅖㅂㅐ -15158
ㅂㅏㄷㅊㅣㅁ -15159
▁ㅈㅣㅊㅣㅁ -15160
▁ㅊㅜㅊㅓㅁ -15161
▁Des -15162
▁ㄹㅏㄱㅜ -15163
▁ㅂㅜㅇㅕㅂㅏㄷ -15164
▁ㅇㅣㄹㅜㅇㅓㅈㅣㄴㄷㅏ -15165
▁ㅇㅔㄷㅔㄴ -15166
▁ㅇㅏㄹㅜ -15167
▁ㅁㅜㅎㅕㅂ -15168
▁ㅇㅛㄱㅓㄴ -15169
▁ㅈㅜㄹㅇㅣㄹ -15170
ㅋㅣㄴㅅㅡ -15171
▁ㅇㅣㄱㅡㄴ -15172
ㅌㅡㄴㅣ -15173
▁1958 -15174
▁ㅁㅜㄴㅈㅐ -15175
▁ㅎㅖㅅㅓㅇ -15176
ㄲㅗㄹ -15177
▁ㅊㅟㅈㅣㄱ -15178
▁>, -15179
▁ㅂㅏㅇㅇㅓㅅㅓㄴ -15180
▁ㅅㅓㄷㅜㄹ -15181
▁ㅇㅕㅇㅂㅜㄴ -15182
▁ㅇㅢㅁㅣㅅㅣㅁㅈㅏㅇ -15183
▁Ab -15184
ㄹㅜㄱ -15185
ㅂㅔㄹㅡㅌㅗ -15186
▁ㄹㅣㅍㅗㅌㅡ -15187
▁ㅅㅏㅂㅜ -15188
▁ㅌㅓㄹㅣ -15189
▁ㄱㅜㄹㅂㅗㄱ -15190
▁ㄱㅚㄷㅗ -15191
▁ㄷㅏㄹㅇㅏㄴㅏ -15192
▁ㅇㅣㄷㅗㅇㅎㅏ -15193
▁ㅅㅓㅁㅅㅔ -15194
▁ㄱㅓㄹㅈㅏㄱ -15195
▁ㅅㅡㄱㅣ -15196
▁ㅇㅠㄱㅈㅣ -15197
▁ㅎㅔㅁㅐ -15198
▁ㅅㅓㄹㄷㅡㄱㄹㅕㄱ -15199
▁CCTV -15200
▁ㅂㅜㄱㅂㅏㅇ -15201
▁ㄹㅣㅈㅔㄴ -15202
▁ㄷㅏㄴㅅㅓㄴ -15203
▁ㅇㅠㄷㅐㅇㅣㄴ -15204
▁ㅁㅐㅂㅗㄱ -15205
▁ㅅㅏㅁㅏㅇㅢ -15206
▁ㄸㅓㄹㄱㅜ -15207
▁ㅋㅡㄹㄹㅏㄱ -15208
▁ㅇㅣㅇㅓㅇㅣㄴ -15209
▁1941 -15210
▁ㄷㅐㅇㅛㅇ -15211
▁ㅇㅣㄴㅈㅡ -15212
▁ㅇㅕㅇㄱㅣ -15213
▁ㅈㅣㄴㅎㅡㄺ -15214
▁ㄷㅏㄴㅌㅔ -15215
▁ㅇㅣㅈㅐㅇ -15216
▁ㅈㅔㄹㄷㅏ -15217
ㄹㅏㄴㄷㅡㅇ -15218
▁171 -15219
▁=, -15220
▁ㅇㅜㅅㅣ -15221
▁ㄷㅗㄷㅂㅗㅇ -15222
ient -15223
▁ㅈㅗㄹㄱㅐ -15224
▁ㅋㅏㅊ -15225
▁ㅁㅏㄴㄹㅠ -15226
▁ㅈㅏㅇㅏㄴ -15227
▁ㄷㅏㅇㅣㅇㅓㅌㅡ -15228
▁480 -15229
▁ㅊㅜㅇㅅㅓㅇㅅㅣㅁ -15230
▁ㅂㅜㄹㄱㅏㄹ -15231
▁DA -15232
▁ㅅㅐㅇㅁㅜㄹㅎㅏㄱ -15233
▁ㅅㅓㅇㅊㅔ -15234
▁ㅅㅣㄹㅕㄱ -15235
▁OO -15236
▁ㄱㅛㅎㅘ -15237
▁ㅅㅜㅈㅏㄱ -15238
▁ㄱㅕㅁㅎㅏ -15239
▁ㄱㅚㄹㅗㅂㅎㅣㅁ -15240
▁Big -15241
▁ㅊㅔㄱㅏ -15242
▁ㅇㅣㅇㅋㅡ -15243
ㅊㅔㅅㅡ -15244
ㅔㄹㅏㅇ -15245
▁ㅈㅗㅇㅠㄹ -15246
▁ㅇㅑㅇㄴㅕㅁ -15247
ㅔㄴㅣㅇㅏ -15248
▁ㄷㅠㅇㅔㅅ -15249
▁ㅁㅏㄴㄷㅜ -15250
▁id -15251
▁ㅋㅡㄹㅗㅇㅏㅌㅣㅇㅏ -15252
▁ㅇㅕㅅㅏ -15253
▁1900 -15254
▁ㅅㅓㄱㅎㅘ -15255
▁ㄱㅗㄹㅡㄹ -15256
▁ㅅㅓㅇㄴㅕ -15257
▁PSP -15258
▁ㅊㅏㅈㅗㅇ -15259
▁ㄴㅗㄹㄹㅏㅇ -15260
▁ㅊㅗㅇㅅㅏㄹㅕㅇ -15261
▁ㅇㅣㄱㅘ -15262
▁ㄱㅕㄴㅇㅣㄴ -15263
▁ㅎㅕㅂㄱㅗㄱ -15264
▁ㅅㅣㄴㄱㅣㄹ -15265
▁ㅋㅏㅇㅜㄴㅌㅣ -15266
▁ㅂㅜㅁㅔㄹㅏㅇ -15267
▁Tri -15268
▁ㅇㅠㅎㅐㅇㅇㅓ -15269
▁ㅈㅏㅁㅜㄴ -15270
▁ㅇㅗㅋㅡㄹㄹ -15271
▁ㄷㅡㄹㅣㅍㅡㅌㅡ -15272
ㅊㅣㄱㅘㄴ -15273
▁png -15274
▁ㅁㅏㄴㅅㅔ -15275
▁ㅇㅝㄴㄹㅗ -15276
▁ㄱㅓㅅㅡ -15277
▁kn -15278
▁ㅇㅣㅁㄱㅘㄴ -15279
▁ㅁㅔㄹㅏ -15280
▁ㅂㅗㄱㅇㅡㅁ -15281
▁ㅌㅠㄴㅓ -15282
▁ㅆㅡㅂㅆㅡㄹ -15283
▁ㅊㅣㅅㅏ -15284
▁ㅎㅐㅅㅓㅇㅣㄴㅈㅣ -15285
▁ㅌㅓㅂ -15286
▁ㅈㅔㅇㅣㅅㅡ -15287
▁ㅇㅕㅁㅅㅗ -15288
▁ㅈㅓㅇㅈㅐ -15289
▁181 -15290
▁ㅁㅏㄱㅎㅣㄴ -15291
▁ㅇㅣㅂㅎㅣㄴ -15292
▁ㅍㅡㄹㄹㅗㄹㅣ -15293
▁8000 -15294
▁ㅆㅡㄹㅓㅈㅣㄴㄷㅏ -15295
▁ㅅㅔㄱㅏㄴ -15296
▁ㄱㅕㅇㅈㅐㅇㄹㅕㄱ -15297
▁UR -15298
▁ㅅㅐㅇㅅㅏ -15299
▁ㅁㅜㄴㅎㅓㄴ -15300
▁ㄷㅡㄹㅓㄴㅐㄴㄷㅏ -15301
▁ㅌㅡㄹㄹㅕㅆ -15302
▁ㄱㅡㅁㄱㅗㄱ -15303
▁DT -15304
▁ㅁㅏㄴㅎㅚ -15305
▁ㅍㅣㄹㅣ -15306
▁ㅎㅏㄴㅅㅡ -15307
▁ㄷㅗㅁㅏㅇㅊㅕ -15308
ful -15309
uch -15310
▁ㅅㅣㄷㅗㅇ -15311
▁ㄱㅣㅁㅏㄴ -15312
▁ㅂㅣㄱㅌㅓ -15313
▁ㅈㅗㅈㅏㅇ -15314
ㅌㅡㄹㄹㅣ -15315
▁ㅇㅣㅂㅊㅔ -15316
▁ㄷㅗㅇㅊㅏㅁ -15317
▁ㅇㅓㅇㅝㄷㅡ -15318
▁ㅁㅣㄹㅕㄴ -15319
▁ㄱㅜㄴㅂㅓㄹ -15320
ㅐㄴㄷㅏㄷㅡ -15321
▁ㅅㅏㅇㅇㅝㄴ -15322
▁ㅅㅡㅌㅐㄴㄷㅏㄷㅡ -15323
▁ㅍㅏㅈㅏㅇ -15324
▁ㅈㅏㅁㄱㅡㅁ -15325
▁ㅇㅕㄴㅎㅕㄱ -15326
▁ㄱㅕㄱㄷㅗㄹ -15327
▁ㅇㅝㄴㄱㅕㄱ -15328
▁ㄱㅏㄹㅇㅏㅌㅏ -15329
▁ㅊㅓㄴㅎㅘㅇ -15330
▁ㄱㅗㅂㅜㄴ -15331
▁ㅊㅏㅇㅇㅢ -15332
▁ㅂㅏㄴㄱㅣ -15333
▁ㅂㅏㅇㄹㅏㅇ -15334
▁ㄴㅜㄱㅜㄴㅈㅣ -15335
▁ㅅㅓㅂㅜㅌㅓ -15336
▁ㅅㅑㅇㅣㄴㅣㅇ -15337
▁Ext -15338
▁ㅅㅡㅍㅔㄱㅌㅓ -15339
▁ㄴㅏㄴㄷㅗㅇ -15340
▁ㅇㅓㄷㅜㅂ -15341
▁ㅇㅠㄱㅏㅁ -15342
▁XP -15343
bl -15344
▁ㄱㅏㅊㅣㄱㅘㄴ -15345
▁ㄱㅕㄱㄴㅗ -15346
▁ㅌㅟㅇㅓㄴㅏㅇㅘ -15347
▁ㄷㅗㄹㅇㅏㅇㅘㅅㅓ -15348
▁ㄱㅟㅈㅜㅇ -15349
▁ㅁㅜㅇㅊㅣ -15350
▁ㅅㅐㅇㅁㅗㄹ -15351
ㅌㅗㅅㅣ -15352
▁ㄱㅡㄹㅔㄴ -15353
▁ㄱㅡㅁㄱㅣ -15354
▁ㅈㅡㅇㅇㅝㄴ -15355
▁ㅈㅣㄱㄱㅘㄴ -15356
ㅋㅡㄹㅗㅅㅡ -15357
▁ㅈㅔㅅ -15358
ㅋㅕㅆ -15359
▁ㄱㅏㅈㅔ -15360
▁ㅁㅏㅇㅎㅐ -15361
ㅍㅡㄹㅔㅅㅡ -15362
▁ㅁㅗㄱㅣ -15363
▁ㅌㅗㅇㅇㅛㅇ -15364
▁RS -15365
ship -15366
ㅅㅣㅁㅣ -15367
▁ㅅㅓㅇㅁㅗ -15368
▁ㄱㅣㄱㅘㄴㅊㅏ -15369
▁ㅇㅣㅇㅔ -15370
▁ㅇㅝㄴㄴㅕㄴ -15371
85 -15372
▁ㄴㅗㄹㅕㅆ -15373
▁ㅅㅓㅇㄱㅠㄴ -15374
ㅅㅡㅂㅜㄹㅡㅋㅡ -15375
▁ㅅㅓㄴㅊㅔ -15376
ㅂㅔㄹㅡㅌㅡ -15377
ㅋㅡㄹㄹㅔㅅㅡ -15378
▁ㄹㅔㅈㅣㄴ -15379
▁STAR -15380
▁ㅊㅣㅈㅜㅇ -15381
▁ㅇㅠㄴㅈㅗㅇ -15382
ㅇㅔㄴ -15383
▁ㅈㅏㅇㅟㄷㅐ -15384
▁ㄷㅚㄷㅗㄹㄹㅕ -15385
▁ㅅㅓㅇㄱㅠㄴㄱㅘㄴ -15386
▁ㅁㅣㄹㄹㅣㄴㄷㅏ -15387
▁ㅅㅑㅇㅏ -15388
▁ㅇㅑㅇㅁㅕㄴ -15389
▁ㅈㅏㅇㄱㅣㄱㅏㄴ -15390
▁ㅇㅕㅈㅣㄴ -15391
▁ㅊㅡㅋㅏㅅㅏ -15392
▁ㅈㅗㅈㅔ -15393
▁ㅌㅏㄷㅏ -15394
▁ㄴㅏㅊㅡㅁㅣ -15395
ㅋㅏㄹㄹㅣ -15396
▁ㅅㅗㅇㅂㅕㅇ -15397
▁ㅎㅏㄱㅊㅏㅇ -15398
ㅈㅏㅋㅏ -15399
▁1948 -15400
▁ㅇㅣㅅㅓㅇㄱㅖ -15401
▁ㅇㅣㄹㅡㄹ -15402
▁ㄷㅣㅌㅔㅇㅣㄹ -15403
▁ㅈㅏㅁㅂㅗㄱ -15404
ㅊㅘㄹ -15405
▁ㅎㅡㄱㅂㅐㄱ -15406
▁qu -15407
▁ㅇㅞㅇㅣㅌㅡ -15408
▁ㅋㅡㄹㅣㅅㅡㅌㅣㅇㅏㄴ -15409
▁255 -15410
▁ㅇㅣㄹㅝㅈㅣㄴ -15411
▁ㄴㅡㄱㅡㅅ -15412
▁ㅂㅐㅂㅜㄴ -15413
▁ㅂㅣㅅㅛㅂ -15414
ㄷㅡㄹㅣㅎㅣ -15415
▁ㅈㅓㅇㅇㅣㄴ -15416
▁ㅅㅜㄹㅣㄱㅓㅁ -15417
ㄹㅣㅋㅔㅇㅣㅅㅕㄴ -15418
▁ㄷㅜㄹㄹㅓㅆㅏㅇ -15419
ㅔㅁㅣ -15420
▁Inf -15421
ㅣㅇㅘㄴ -15422
▁ㅎㅏㄴㅎㅐㅅㅓ -15423
▁ㅎㅣㄹㅗㅇㅠㅋㅣ -15424
▁Bar -15425
▁Sil -15426
▁ㅂㅓㄹㅊㅣㄱ -15427
▁ㅇㅜㅇㅣㄱㅅㅜ -15428
▁ㄴㅐㄹㅕㅇㅗㄴ -15429
ㅅㅗㅅㅡ -15430
▁ㅅㅓㅋㅓㅅㅡ -15431
▁ㅅㅣㄱㅜㅇㅊㅏㅇ -15432
ㄲㅏㅂㅘ -15433
▁ㅈㅣㄷㅗㄱ -15434
▁ㅌㅚㄱㅡㄴ -15435
▁KS -15436
▁ㄱㅜㄴㅅㅏㄴ -15437
▁ㅍㅡㄹㅔㄷㅣ -15438
▁ㄷㅐㄴㅣ -15439
▁ㅊㅓㅇㄹㅑㅇ -15440
▁ㄷㅠㄹ -15441
ㅈㅓㅇㅇㅕㄱ -15442
▁ㅈㅓㄴㄴㅕㄴ -15443
▁ㅁㅗㅇㅡㄹ -15444
▁ㅇㅘㅇㄱㅜㅇ -15445
▁ㅌㅟㅇㅓㄴㅏㅇ -15446
▁ㅌㅔㄹㄹㅔㅋㅗㅁ -15447
▁ㅅㅡㅁㅣ -15448
▁ㅊㅜㅇㅣ -15449
ㅎㅏㄴㅡㄹ -15450
ㅣㅇㅞ -15451
▁ㅁㅗㅎㅗ -15452
▁OR -15453
▁ㅂㅔㄴㅣ -15454
▁ㅋㅓㅂㅡ -15455
▁White -15456
▁ㅈㅗㅎㅕㄴ -15457
ㅓㅂㅗㄹ -15458
▁ㅍㅔㄹㅗ -15459
▁ㅅㅗㄴㄴㅕ -15460
ㅋㅔㅇㅣ -15461
▁ㅃㅗㅂㅎㅣ -15462
▁ㅌㅗㅌㅔㅁ -15463
▁ㅇㅏㅌㅔㄴㅔ -15464
▁ㅍㅏㄴㄷㅗㄹㅏ -15465
▁Win -15466
▁ㅉㅣㄴ -15467
▁ㅌㅐㄱㅗ -15468
▁ㅈㅣㄴㄱㅘ -15469
▁ㅂㅜㄹㄹㅣㅇㅜ -15470
▁ㅅㅗㄹㄹㅗㅁㅗㄴ -15471
▁ㅇㅛㅇㅣㄹ -15472
▁ㅁㅣㄹㄹㅣㄴ -15473
▁ㅋㅏㅅㅣ -15474
▁ㅇㅏㄹㅗㄴ -15475
▁ㅊㅏㅇㅅㅣ -15476
▁Back -15477
▁ㅅㅗㅇㅇㅣ -15478
▁ㅈㅣㅋㅕㅆ -15479
ump -15480
▁ㅂㅏㅃㅡ -15481
▁ㅂㅗㄷㅣ -15482
co -15483
▁ㄱㅣㅁㅅㅔ -15484
▁ㅂㅜㅎㅘ -15485
▁ㅈㅏㄱㄹㅕㄹ -15486
▁ㅈㅗㅁㅊㅓㄹㅓㅁ -15487
▁ㅎㅘㄴㅐ -15488
▁ㅇㅓㄹㅌㅓ -15489
ㅌㅔㅇㅣ -15490
ㅎㅕㄱㅁㅕㅇ -15491
▁ㅇㅘㅇㄸㅏ -15492
▁ㅂㅚ -15493
ㅡㄱㅗ -15494
▁ㅇㅏㅅㅏㄴ -15495
▁ㅋㅗㄴㅋㅡㄹㅣㅌㅡ -15496
▁PO -15497
ㄱㅗㅇㄱㅕㄱ -15498
▁ㅂㅏㄱㅁㅣㄴ -15499
▁ㅍㅏㅋㅣㅅㅡㅌㅏㄴ -15500
26 -15501
▁ㅌㅏㅋㅜㅁㅣ -15502
▁ㅁㅏㄹㅡㅌㅣㄴ -15503
▁ㅊㅏㄱㅎㅏ -15504
ㄷㅝㅆ -15505
▁ㅌㅡㄱㅊㅘㄹ -15506
▁ㄱㅗㅇㅂㅕㅇ -15507
▁ㅈㅐㅍㅐㄴ -15508
▁ㄷㅓㄴㅈㅣㄹ -15509
ift -15510
▁ㄴㅏㄹㅇㅏㄱㅏㄴㄷㅏ -15511
▁PM -15512
▁ㅂㅏㄴㅡㄹ -15513
▁ㅇㅕㄴㄹㅜ -15514
▁jp -15515
▁ㄷㅏㄴㅅㅣㄴ -15516
▁ㅂㅡㄹㄹㅜㅅㅡ -15517
▁ㅂㅐㅇㅝ -15518
▁ㅍㅗㄱㅍㅗ -15519
▁ㅇㅏㅌㅡㄹㄹㅔ -15520
▁Fre -15521
ㅌㅟㄱㅣ -15522
▁ㅊㅚㅈㅓㄴ -15523
ㅅㅏㄱㅏ -15524
▁down -15525
ㅅㅏㄴㅁㅜㄹ -15526
▁ㄱㅗㄹㄱㅗㄹ -15527
▁ㄱㅗㅇㅑㅇㅅㅣ -15528
▁ㅈㅓㅂㅅㅣ -15529
▁ㅂㅏㄴㄷㅏㄹ -15530
▁ㅅㅔㄹㅡㅂㅣㅇㅏ -15531
▁ㄱㅏㄴㅅㅣㄱ -15532
▁ㅃㅓㅇㅌㅟㄱㅣ -15533
▁ㅊㅗㅇㅝㄴ -15534
▁ㅊㅐㅅㅗ -15535
▁ㄴㅏㄱㅣㅅㅏ -15536
▁ㅈㅔㅇㅣㅋㅡ -15537
▁NG -15538
ㅇㅣㅇㅣㄴ -15539
RAM -15540
▁ㅅㅡㅌㅔㅇㅣㅌㅡ -15541
▁ㅃㅐㄱ -15542
▁ㅂㅏㅅㅣㄹ -15543
▁ㅊㅗㄱㅡㅂ -15544
▁ㅎㅓㅇㅕㅇ -15545
▁420 -15546
▁ㅇㅣㅇㅡㄱ -15547
▁ㅂㅡㄴ -15548
ㅅㅣㄱㅖ -15549
[...]
