[PAD]
[UNK]
[BOS]
[EOS]
[CLS]
[SEP]
[MASK]
▁▃
▁.
▁이
▁에
▁다
▁의
▁는
▁,
▁하
▁을
▁은
▁가
▁1
▁고
▁를
▁한
▁으
▁년
▁로
▁으로
▁에서
▁2
▁지
▁있
▁대
▁기
▁되
▁사
▁인
▁었
▁그
▁시
▁도
▁일
▁과
▁아
▁들
▁수
▁했
▁전
▁어
▁적
▁와
▁여
▁자
▁였
▁20
▁월
▁부
▁제
▁19
▁라
▁정
▁주
▁중
▁위
▁공
▁된
▁보
▁해
▁경
▁개
▁세
▁나
▁게
▁것
▁유
▁3
▁"
▁조
▁한다
▁선
▁등
▁스
▁성
▁마
▁만
▁미
▁연
▁동
▁오
▁상
▁소
▁구
▁서
▁모
▁영
▁비
▁국
▁발
▁면
▁며
▁201
▁'
▁4
▁관
▁후
▁신
▁명
▁프
▁5
▁역
▁때
▁200
▁장
▁할
▁-
▁방
▁던
▁거
▁교
▁대한
▁바
▁리
▁문
▁차
▁생
▁당
▁우
▁무
▁내
▁원
▁통
▁진
▁계
▁현
▁분
▁노
▁군
▁남
▁포
▁화
▁6
▁또
▁않
▁까
▁학
▁작
▁결
▁았
▁까지
▁같
▁출
▁강
▁파
▁불
▁에게
▁받
▁함
▁단
▁번
▁으며
▁최
▁7
▁반
▁10
▁8
▁된다
▁알
▁배
▁호
▁데
▁안
▁회
▁실
▁초
▁형
▁지만
▁예
▁카
▁두
▁말
▁재
▁따
▁없
▁부터
▁타
▁사용
▁종
▁9
▁미국
▁요
▁라고
▁음
▁특
▁이후
▁설
▁라는
▁산
▁면서
▁일본
▁코
▁운
▁레
▁행
▁는데
▁감
▁권
▁활
▁독
민국
▁더
으며
▁추
▁다음
▁왕
▁처
▁베
▁건
▁태
▁김
▁입
▁간
▁지역
▁평
▁크
▁피
▁대한민국
▁양
▁매
▁민
▁199
▁및
▁많
▁참
▁12
▁경기
▁올
▁18
▁본
▁목
▁승
▁드
▁다른
▁다고
▁임
▁프로
▁대학
▁열
리아
▁;
▁속
00
▁총
스트
▁그리
▁야
▁위해
▁북
▁S
▁집
▁외
▁)
or
▁법
▁변
▁트
▁체
▁11
▁때문
▁달
▁물
▁각
▁시작
▁천
▁표
▁토
▁직
▁메
▁사람
▁&
▁따라
▁A
▁(
▁그러
▁팀
▁선수
▁점
▁함께
▁또한
▁박
▁한국
▁항
▁투
▁저
▁청
▁브
▁치
▁세계
▁영화
▁약
▁사이
▁버
▁광
▁판
▁자신
▁C
▁새
▁디
la
▁M
▁용
▁국가
▁경우
▁기록
▁루
▁T
▁복
▁f
▁F
▁축
▁현재
▁네
▁하나
시아
▁이름
▁편
▁존
▁활동
▁198
▁다는
▁확
▁삼
▁당시
▁위치
▁가장
▁철
▁테
▁필
▁합
주의
▁_
▁조선
▁가지
▁학교
▁이나
▁리그
▁뒤
▁그러나
▁살
▁플
▁15
▁증
▁언
▁금
▁페
▁째
▁for
▁심
▁대표
▁백
▁창
mu
레이
▁역사
▁의해
▁식
mula
▁연구
▁formula
▁근
▁16
▁병
▁못
▁쓰
▁프랑
▁또는
부터
▁니
▁그리고
▁/
▁사회
▁클
▁통해
▁황
▁애
▁규
▁D
▁돌
▁시즌
▁0
으나
▁m
▁순
▁충
▁17
▁패
▁[
▁첫
▁]
▁B
▁러
▁197
▁히
▁아니
▁완
랜드
▁보다
▁중국
▁다시
▁만들
▁협
▁키
▁높
▁시대
▁정부
▁프랑스
▁:
▁서울
▁K
▁영국
▁I
▁채
학교
▁대해
▁는다
▁k
▁도시
▁전쟁
▁뜻
▁여러
▁포함
▁문화
▁196
▁독일
▁14
▁죽
▁로서
▁친
▁아이
▁~
▁대회
er
▁으나
▁큰
▁별
▁다가
▁길
▁취
▁축구
▁g
▁13
▁엔
▁P
▁온
▁뉴
▁정치
▁가능
▁위원
▁준
▁곡
▁모두
in
▁환
▁논
▁모든
▁동안
▁감독
▁손
▁문제
▁이상
▁방송
▁구성
▁배우
▁194
▁개발
▁L
▁l
▁석
▁일부
▁허
▁지방
▁사건
▁처음
▁제작
▁대학교
▁알려
▁위한
▁검
▁캐
▁이루
▁%
▁국제
▁골
▁작품
▁농
▁케
▁관계
라이
▁이용
▁였으며
▁세기
▁될
▁시간
▁게임
▁끝
▁날
▁일반
▁씨
▁교육
▁G
▁존재
▁줄
▁인구
▁운동
▁향
▁폭
▁급
▁쿠
▁정도
▁티
▁볼
▁밀
▁걸
▁N
▁주장
▁음악
▁즉
▁gt
▁섬
▁곳
▁효
▁앞
니아
on
▁km
▁경제
▁려
▁195
▁접
▁중심
▁육
리스
▁나타
▁거나
▁lt
▁극
▁이러
▁R
▁맡
▁선거
▁U
▁전투
▁귀
▁터
▁새로
▁절
▁맞
▁30
▁블
▁발견
▁질
▁민주
통령
이스
▁했으며
▁기술
▁H
화국
▁담
부분
▁슈
▁E
▁글
▁측
▁봉
▁올림
▁홍
▁막
▁발표
▁누
▁갖
▁결과
▁암
▁구조
▁영향
▁도록
▁시키
▁태어
▁잘
▁책
▁아들
▁헤
▁사망
▁의미
▁2010
▁우승
▁공격
▁로부터
▁커
▁들어
▁대통령
▁과정
▁대부분
an
▁라이
▁갈
▁관련
▁올림픽
▁앨
▁송
▁밝
000
▁지원
▁프로그
리카
▁탄
▁업
▁발생
▁잡
▁참여
▁193
▁센
▁유럽
▁머
▁진행
▁중앙
▁범
지만
▁행정
▁최초
란드
▁독립
20
▁c
▁얻
▁자유
▁25
▁결정
▁W
▁부분
▁난
▁설립
▁특히
▁제국
▁형태
▁고등
▁악
▁탈
▁됐
▁발매
▁다양
▁폐
▁어서
▁상태
▁하지만
나라
▁설치
▁이전
버지
▁같이
▁러시아
▁스타
▁2008
▁소속
▁사실
▁좌
▁일어
▁초등
▁침
디오
▁21
우스
▁새로운
▁르
▁그녀
▁좋
▁로마
▁타이
▁인해
▁으로서
▁나라
▁조직
▁프로그램
▁인민
▁참가
▁생각
▁여성
▁폴
▁팔
▁등장
▁정보
▁주로
▁2011
▁2012
▁필요
▁싱
▁혼
▁이탈
▁주요
▁벌
▁관리
▁운영
▁출신
▁이것
▁기준
▁생산
▁계획
en
▁2009
▁100
▁기관
▁윤
▁중요
어진
▁위원회
▁2014
▁란
▁지정
▁2007
▁여자
므로
▁상대
▁음반
▁t
▁성공
▁바이
▁계속
▁시절
▁국민
▁콘
▁a
▁데이
▁헌
▁O
▁데뷔
▁매우
▁2013
▁해서
▁빌
▁철도
▁레이
▁넘
▁과학
▁대전
리즈
▁사업
▁시스
▁해당
▁발전
he
▁생활
▁이탈리아
▁뿐
▁방법
프트
▁칼
▁고려
르크
스터
▁아버지
▁몇
▁엘
▁자리
▁묘
▁찾
▁따르
▁191
▁생애
▁초기
▁쇼
▁2015
라마
▁23
▁2018
▁24
ar
▁억
▁월드
▁내용
이션
레스
▁처럼
▁능
▁앨범
▁000
▁출연
▁차지
▁2016
▁보이
▁최고
▁인도
▁후보
▁그룹
남도
▁시리즈
▁돌아
▁결국
▁마이
▁평가
▁가리
▁J
es
▁이어
▁아래
▁22
▁전체
▁회사
▁그리스
▁이유
▁방식
이트
▁2006
FA
▁둘
▁격
▁한편
▁고등학교
▁우리
▁떨
▁퍼
▁인간
▁졌
비아
▁얼
▁수상
▁풍
▁스페
▁192
▁2017
▁분류
▁힘
▁인터
▁연합
▁시기
▁태어났
▁공식
▁층
▁개요
▁항공
▁제공
운데
▁였으나
▁드라마
▁역할
▁의원
▁시스템
▁컴
▁정의
▁못하
▁빠
▁많이
▁기업
▁군사
▁제도
▁조사
▁떠
▁잠
▁워
▁가운데
▁몸
▁출전
▁유명
▁민족
▁기능
한다
▁교회
▁반대
▁거의
▁s
▁지구
▁먼
▁색
비스
▁으로써
▁텔
▁현대
▁언어
▁표현
▁응
▁대신
▁유지
▁울
▁목록
▁개인
▁느
▁해야
▁녹
▁대상
▁으로부터
▁홈
인다
▁특별
▁이론
▁동시
▁웨
▁류
▁26
at
▁몰
▁자연
▁!
▁규모
▁모습
야기
▁프리
▁공개
▁노동
▁이미
▁이르
▁졸
▁지도
▁야구
▁마지
▁따라서
▁연결
▁승리
▁28
▁열린
▁2019
▁특징
▁진출
▁27
▁놓
▁푸
▁단체
▁각각
▁밖
▁정책
▁브라
▁인정
▁여기
▁목적
▁칸
▁상황
▁붙
▁산업
▁인물
▁V
▁핵
▁시장
▁시켰
▁2000
▁2005
▁긴
▁마지막
▁기원
▁밴
▁가진
▁플레이
▁수도
▁아르
▁임명
▁족
▁전문
▁이야기
▁습
▁기간
북도
▁샤
▁눈
▁먹
▁희
머니
▁직접
▁알려져
▁구역
▁혁
al
ic
▁왔
▁모델
니다
스크
▁슬
▁경상
▁빈
▁압
▁서로
▁계약
▁뛰
▁오스트
▁불리
▁했으나
▁추가
▁건설
▁공동
▁개최
▁콜
▁FC
▁2004
BS
▁망
▁경찰
▁형성
▁공간
▁벨
▁사상
▁결혼
▁건물
▁자동
▁노선
▁변화
▁기타
▁50
▁활약
▁관한
▁스페인
▁훈
▁보여
▁노래
▁TV
▁31
▁변경
▁부산
학자
▁국회
▁29
▁너
▁거리
▁그것
킨다
▁교수
▁으면
▁나이
is
▁졸업
▁공화국
it
▁의하
이드
▁완전
▁텔레
▁b
re
▁마을
▁궁
▁인민공
▁경력
▁부르
▁인민공화국
▁클럽
▁사랑
비전
▁휴
▁비롯
▁역시
▁2020
▁190
▁낮
▁비판
▁서비스
▁학생
▁맥
ou
▁실제
▁론
▁최대
운드
▁소설
▁요구
▁보통
▁견
▁보호
▁잉
▁겠
▁지금
▁가수
▁중학교
대로
프리카
▁우주
▁기본
▁중화
▁의회
▁탑
거리
▁딸
▁종교
▁전국
▁다이
▁메이
▁지지
▁일으
▁속하
른다
▁자기
르트
▁지하
▁판매
▁거쳐
▁없이
▁싱글
▁겸
▁실시
▁전통
▁혹
▁차이
▁시설
▁황제
▁옥
역시
▁퇴
▁밴드
▁엄
▁기반
▁한다는
▁달리
▁그래
▁원래
▁어떤
▁싸
▁탐
▁만든
▁2002
▁세력
▁지나
▁운행
로스
▁명칭
▁환경
▁교통
▁위하
▁가족
▁자료
▁설명
▁40
▁경기도
▁소련
▁못했
▁뮤
스탄
▁월드컵
▁전기
▁센터
▁공연
▁2003
▁수행
▁회의
▁아닌
▁애니
▁전자
▁승강
러스
린다
▁모양
▁부대
▁도쿄
▁도로
▁흐
▁컵
▁분야
▁기독
▁예술
▁기념
▁이동
▁통합
▁교황
▁나오
▁득
나다
▁사고
▁앤
어져
mp
▁도입
▁텔레비전
le
▁작업
▁행동
▁남자
▁동물
▁연방
▁염
▁풀
▁선정
▁대해서
▁십
▁차량
▁의한
▁능력
▁소프트
▁작용
▁출시
▁바로
▁문학
▁숙
▁=
▁군대
▁피해
스타
의원
너지
▁증가
▁기독교
▁행위
▁형식
▁전라
▁방향
▁나가
▁기존
어지
▁확인
▁지휘
▁넓
▁작가
▁남쪽
▁효과
▁혁명
▁국내
▁과거
▁북쪽
▁작곡
▁이때
▁착
▁제외
▁이끌
▁비슷
진다
▁므로
▁승강장
▁옮
▁FI
▁런
▁지배
▁챔
▁컴퓨
▁주변
▁윌
▁낙
▁어머니
▁왕국
▁캐나다
▁몽
▁종류
▁마다
▁태양
▁열차
▁갑
▁사무
▁유일
▁비교
▁정당
▁한다고
▁역임
▁뉴욕
▁이적
▁남부
리오
BC
▁흥
▁링
▁솔
▁높이
▁협회
▁어린
▁적용
▁혹은
▁스포
▁보내
▁공산
▁잔
▁반응
▁성장
▁흔
자리
▁추정
▁담당
▁챔피
▁시민
▁건축
▁동일
▁개념
▁이사
▁즈
▁베이
▁1990
▁육군
▁대사
▁장관
▁홀
▁인기
▁돈
▁2001
▁맨
▁획
▁스트
▁X
▁세포
▁버스
▁징
▁윈
▁시켜
▁컴퓨터
▁동쪽
메이션
▁공사
▁덴
▁데이터
▁오늘
▁멤
▁구간
▁p
▁쪽
▁품
▁디자
▁마음
▁에너지
▁곧
▁사단
▁상당
▁물리
▁예정
▁연기
▁크기
▁움
▁액
▁작전
▁흑
▁조건
▁조지
▁대하
▁민주주의
이지
▁마르
▁189
▁차례
▁실패
▁넣
▁록
▁가까
▁서쪽
▁버전
▁자체
▁칭
▁FIFA
▁애니메이션
▁율
▁컨
▁어느
▁수록
▁땅
▁d
▁충청
▁다르
▁특정
▁이런
▁선언
▁올라
▁고대
▁덕
▁늘
드리
▁연주
▁체제
카이
▁부족
▁연속
▁쌍
▁방영
버스
▁선택
▁페르
▁익
▁규정
▁결승
▁내부
▁멤버
▁국립
el
▁해군
▁공항
▁개혁
▁대체
▁곤
et
루스
▁아시아
▁정신
▁속도
▁조약
웨어
▁이라
▁단계
▁대구
▁북부
▁위해서
가지
▁헌법
▁최종
▁명령
▁왜
▁벤
ion
▁연대
글랜드
▁인지
▁몬
▁기원전
▁포르
▁선출
▁밝혔
▁영어
▁지냈
▁분석
▁가치
▁는지
▁지명
▁자치
▁크리스
▁찬
▁옛
▁설계
▁인천
트남
▁물질
▁치료
▁로스
▁출판
▁입단
▁최근
▁친구
▁팬
▁걸쳐
▁체계
ing
▁의사
▁논란
▁소비
▁핀
▁관할
▁보인다
▁달러
▁강화
▁비행
▁척
시마
▁밤
▁더욱
▁일어나
▁집단
▁평균
▁북한
▁대중
▁1999
ol
메리카
▁휘
▁스포츠
▁표준
▁후반
▁술
라스
▁배치
21
▁널
▁엔진
▁법원
▁잉글랜드
▁제품
난다
▁언급
▁부문
▁하이
▁관심
▁현상
▁1998
▁Y
▁실험
▁겨
▁헬
▁챔피언
▁함수
▁머리
▁조정
▁o
▁내려
렇게
▁개월
▁예선
▁확장
▁스테
스코
▁쥐
▁씩
▁획득
▁파리
▁공원
▁1980
▁유사
▁선발
▁요소
▁분리
▁처리
▁주도
▁부상
▁지속
▁목표
▁배경
디어
▁당하
▁재판
▁cm
▁가리킨다
▁통일
▁60
▁하계
리지
▁자동차
▁베르
▁문자
▁주민
▁맺
▁소유
▁35
▁편성
▁유래
▁칠
▁시도
▁이해
▁어야
▁마리
▁정규
▁어려
▁구단
▁외국
▁도움
▁장군
▁고자
▁에스
▁뛰어
▁주인
▁거주
▁시험
▁점령
▁나무
▁가문
▁꽃
아들
▁공립
▁행사
▁기사
▁디자인
▁요시
▁원자
▁려고
▁앙
▁통신
▁mm
▁원인
▁네덜
▁네덜란드
▁파이
▁들어가
▁언론
▁안정
▁책임
▁다면
▁학자
▁캠
▁잃
▁결합
▁괴
▁동맹
▁투표
▁n
▁웹
▁준비
▁수준
▁사령
▁본선
▁혈
▁베트남
▁개봉
▁장치
▁불교
▁고속
▁일종
▁제한
▁아프리카
▁용어
광역시
om
젝트
▁알렉
▁은퇴
▁깊
▁불구
야마
▁성적
▁통치
나무
▁듯
▁1997
▁촉
▁구분
▁제조
일랜드
▁비디오
▁길이
▁나타나
▁빛
▁아마
▁방문
▁문서
▁사진
▁정권
▁유전
▁바르
▁가정
▁요리
▁광주
▁신문
▁인데
▁만나
▁대로
st
▁갔
▁해석
▁비해
▁믿
▁경험
▁폴란드
▁정리
▁드러
▁amp
▁그림
▁평화
▁정확
▁일제
▁The
▁1996
▁왕조
▁1995
▁오늘날
▁서식
▁32
메달
▁분포
▁추진
▁면적
▁올랐
▁끌
▁통과
▁프로젝트
▁그런
▁입장
▁경영
▁거두
▁부인
▁슈퍼
▁런던
▁려는
▁멸
▁종합
스턴
▁알려진
▁70
▁아직
▁값
▁부여
▁만화
▁경쟁
▁쉽
스로
▁멀
인트
▁병원
▁인터넷
▁신라
▁방어
▁발달
▁경기장
▁영역
▁쓴
▁프레
▁주제
특별
▁이곳
▁폐지
▁노력
▁훈련
▁츠
▁부정
▁500
▁보도
▁민주당
웨이
▁사라
▁미사
▁널리
▁파괴
▁이듬
레일
▁총리
▁놀
▁오르
▁생물
am
▁미술
▁제주
▁제안
▁서부
▁국회의원
▁도서
▁the
▁80
▁회장
▁복귀
▁철학
▁식민
리트
▁번호
▁델
라인
▁법률
▁빅
▁외교
▁기여
▁야마
▁정상
▁삼성
▁세워
▁완전히
▁가르
▁꼬
▁세대
▁궤
▁요청
▁188
▁주연
▁행성
▁남성
▁무기
▁동부
▁나온
▁라디오
▁이듬해
▁소재
▁경계
▁UE
▁인식
▁1970
▁자주
▁연맹
il
▁투수
▁+
▁무대
▁아서
▁여겨
▁수용
▁금지
▁등록
▁폰
▁1994
▁움직
▁UEFA
▁잇
톨릭
▁펼
▁지진
▁업무
▁표기
▁아시
▁전해
ac
▁깨
▁끼
▁접근
▁연구소
▁발사
▁영토
▁더불
▁뇌
▁노르
▁박물
▁지도자
▁바탕
▁결성
▁성격
▁득점
머지
▁스스로
▁나머지
▁거부
▁KBS
▁든
▁조각
▁상호
▁지대
▁반면
▁뉴스
▁아일랜드
▁수학
▁받아들
▁강원
▁정식
▁트리
▁오스
▁의식
▁보수
▁은행
▁펜
▁기초
▁주의
▁오래
▁벽
▁오른
▁필리
▁마찬
▁마찬가지
▁지난
▁소리
ro
▁1992
▁당했
▁캐릭
▁가톨릭
▁공작
토리
▁다리
▁찾아
▁임시
시코
▁다수
▁아카
▁스웨
▁45
▁짧
▁박사
▁화학
요일
▁장애
▁패배
임스
▁검사
▁바다
▁해결
▁죽음
▁장소
▁차트
▁파일
ed
▁36
▁브라질
워드
▁케이
▁차원
▁로써
모토
▁그대로
▁of
▁돼
▁이스
▁초대
▁박물관
▁습니다
▁활용
▁마이크
▁실제로
▁유니
▁총선
▁스위
▁카드
▁유로
▁둔
▁캐릭터
▁관측
▁윌리
▁기구
▁계열
▁여행
▁순위
▁밝혀
▁식물
▁안전
▁묘사
▁인사
▁린
▁오브
▁강력
▁바뀌
▁표시
▁지리
▁제시
▁단순
▁그린
▁집합
▁1960
▁에이
▁소프트웨어
▁일정
ig
▁무역
▁이외
로나
▁권력
▁여름
▁멕
▁연극
▁스웨덴
▁회원
▁1991
▁기계
▁디지
▁지적
부르크
▁쓰이
▁셀
▁위험
트리
▁삶
▁오스트리아
▁반란
▁히로
레일리아
▁먼저
▁붕
▁1993
▁조성
▁아무
▁33
▁발행
▁형제
▁중간
▁관광
▁기자
▁개국
▁가져
▁근처
▁중단
▁흡
▁만큼
▁협력
▁시행
▁스코
▁뮤직
▁기획
▁여객
베이
▁캘
트로
▁지하철
소년
▁도착
▁굴
▁멜
낸다
▁량
▁외부
▁스튜
▁쉬
▁투자
▁사이트
사카
▁다만
▁소개
od
배우
▁윈도
▁렌
▁나타내
▁번역
워크
나이
▁코드
▁단어
▁전시
▁",
버트
▁연장
▁유형
▁태평
니스
▁186
▁죄
ve
▁해안
▁하루
특별시
▁카이
▁후기
▁성립
as
▁확대
▁세상
▁혜
▁근거
▁꾸
▁서울특별시
▁상징
▁혐
▁통하
▁파견
▁오스트레일리아
▁공장
▁본부
▁위기
▁보유
▁내각
무원
▁수많
▁기후
▁제기
▁겪
▁떠나
▁생성
주시
▁양식
▁감소
▁네트
▁다카
▁지식
▁옹
▁보존
▁?
▁극장
▁수사
지션
▁지상
▁균
▁전략
▁래
▁촬
▁귀족
▁윌리엄
▁유대
▁특수
▁경상남도
▁상업
▁멕시코
▁달성
간다
▁특성
▁경상북도
▁h
▁대응
▁1988
▁바꾸
▁숨
▁출생
▁187
▁영상
▁원소
▁춘
▁떨어진
▁완성
▁유리
▁동생
▁디지털
▁단위
▁세웠
▁미래
▁촬영
▁님
▁당선
▁촌
▁이렇게
▁이슬
▁계승
▁보였
▁학위
아시아
▁시티
▁체포
▁따른
티아
▁34
▁근무
▁식민지
▁타이틀
▁젊
가리
▁이란
▁종목
회사
▁률
▁전달
▁그렇
▁권리
▁자본
어졌
▁생명
▁38
▁수비
id
▁코치
▁이집
▁이집트
▁올리
▁체결
▁시청
▁이루어진
▁듀
▁옆
▁측정
▁설정
▁판단
▁나중
▁직후
▁90
▁싶
▁승격
▁소수
▁마사
▁몇몇
▁정치인
가와
▁이라고
▁2021
▁맹
▁문화재
▁크로
▁알렉산
▁대륙
▁48
▁라인
▁주식
▁전환
▁국왕
모리
▁으므로
▁1989
▁채널
▁1950
▁아내
▁개정
▁컬
▁스키
▁도서관
▁이주
▁헨
▁관찰
▁미군
▁즐
NA
▁본관
us
▁톤
▁의견
ec
▁신경
▁개통
▁세르
▁포르투
▁다루
▁청년
▁녹음
▁납
▁지위
▁엘리
▁시위
▁밑
▁홍콩
▁낳
▁제정
▁결승전
▁부른다
▁텍
▁해외
▁',
▁얼마
▁은하
▁종료
▁취임
▁헝
▁셰
and
▁동계
▁미사일
▁범죄
▁즉위
▁주인공
▁계산
디아
▁사회주의
▁교체
▁음식
▁예수
▁져
스티
▁충돌
▁후쿠
▁아키
▁신학
▁300
코드
ad
▁남북
▁천황
▁빨
▁장기
▁e
교회
▁전차
▁쌓
▁발매되
▁개선
▁주목
▁비용
▁MBC
▁자격
▁수정
▁사후
▁강한
▁못한
▁찰
▁제임스
▁바이러스
▁벗
▁원정
▁|
▁건강
▁공급
▁스티
▁이래
▁계기
라도
▁1945
▁본래
▁비밀
▁소장
러운
ent
전히
▁가격
▁만드
▁네트워크
스카
▁궤도
▁명단
▁전라남도
▁심리
▁공부
▁펠
▁보냈
▁물론
▁부모
▁합류
▁라운드
▁제거
▁자원
▁카운
▁농업
▁홈런
▁랑
▁명예
▁객
▁체육
▁성우
▁집중
▁옮겨
▁거대
▁각종
▁시내
50
▁감염
▁롤
▁입학
▁에드
▁샌
▁증명
▁오후
▁작성
▁으면서
▁듣
▁가입
▁인근
▁천문
▁군인
▁읽
▁전사
▁소송
▁국경
▁이슬람
▁저항
▁베네
▁학문
▁공군
▁왼
▁측면
피아
티나
▁미디어
▁통제
베르
▁가리키
▁강조
▁피아
▁병력
▁준다
▁터미
▁인수
▁썼
동안
▁신호
니어
▁다니
▁세이
▁나누
▁울산
▁블랙
▁이번
▁터키
▁광고
▁태평양
▁플로
▁실행
▁일어난
▁St
리포
▁너무
▁아우
▁질량
▁해방
▁만약
ot
▁콩
▁마치
▁변호
▁포지션
▁엑
▁가까운
▁기회
▁틀
▁정착
▁병사
▁무장
어나
도로
▁이루어져
▁털
▁빼
▁냉
▁지내
▁겨울
▁최소
▁터미널
▁노동자
아가
▁비트
▁전반
▁제목
철도
▁금융
▁x
un
드로
▁약간
▁몽골
▁강원도
▁짓
▁유도
▁편집
▁바람
▁37
ow
▁국방
▁둘러
▁마리아
▁쇠
▁가졌
▁마쓰
▁in
▁잎
▁고전
▁사례
▁환자
▁전개
▁혐의
▁인한
스키
▁도중
▁지점
▁재산
▁허용
▁표면
▁나왔
▁마련
▁근대
▁카르
소리
오카
▁재정
▁합병
▁인디
▁충분
▁건너
▁밀도
▁무렵
▁가스
▁겐
▁힐
▁학년
▁헝가리
▁이하
▁전력
▁1987
▁오사카
▁민간
▁윈도우
▁선수단
▁현실
▁라이브
▁여전히
▁포르투갈
▁유엔
▁보고
▁붕괴
ra
▁등급
▁시킨
▁계급
▁모리
▁전역
▁뒷
▁킹
▁루이
▁그해
▁양성
▁범위
▁w
▁대수
▁41
▁갖추
▁령
▁흰
▁숲
▁원칙
▁재직
마크
▁51
▁강제
▁조치
▁공공
▁엔터
▁적극
▁꼬리
▁성질
▁위협
▁봄
▁수입
▁오리
▁충청남도
▁동료
▁1986
▁공주
▁군주
▁임무
▁인하
▁온도
▁이미지
▁전선
▁불린다
▁답
▁짐
▁논문
▁영화배우
▁스튜디오
▁토론
▁1984
▁대대
▁그려
▁업체
▁캘리포
▁위원장
▁승인
▁공업
▁클라
▁대학원
▁양자
▁구축
▁상하
▁거래
▁불러
▁미치
▁위성
▁꿈
▁고구
▁수립
▁교사
▁출발
▁회복
▁잭
▁그래서
▁점차
▁수단
▁킬
▁섭
▁확보
▁성인
▁항상
테르
▁다섯
▁신화
▁핀란드
▁역대
▁둥
▁필리핀
▁캘리포니아
▁공산당
▁후지
▁드래
▁아시안
▁증거
▁채택
▁스타일
ch
▁장비
▁규칙
마스
▁의료
▁강의
▁잡지
▁전하
바이
ur
▁시인
▁남아
▁첨
주교
▁합의
고리
▁39
▁됨
▁폭발
▁라며
▁기대
▁스파
▁나카
▁에피
▁만족
▁이스라
▁부근
▁얼굴
▁흘
▁모스크
▁개편
▁욕
▁스위스
▁선생
▁아라
▁냈
▁남편
▁진화
▁400
▁일원
▁매년
▁이승
▁불가
▁장면
▁경향
▁기지
▁대기
로드
▁1985
▁이스라엘
▁64
▁군단
▁대형
▁II
▁토지
▁가사
▁해체
▁통계
▁끊
▁분자
▁스리
▁아나
▁강점
▁아름
▁태풍
▁붉
▁아메리카
▁게이
▁종이
▁간주
▁롭
▁아주
데미
ut
▁종종
▁경주
▁캄
▁기억
▁띠
▁귀국
백질
▁튀
▁서양
우드
▁조합
▁낭
▁항성
리스트
키아
레이드
▁알리
▁아랍
▁라면
▁수원
▁성과
▁의학
▁불렀
▁버리
▁이제
고기
▁청소년
▁감정
▁확실
▁i
▁폼
▁스피
▁사항
▁클래
▁좀
▁초반
▁에게서
▁맛
▁보장
▁레코드
▁향상
▁대장
▁43
▁삼국
um
▁해도
▁열렸
▁투어
▁그곳
▁탑재
▁침공
▁장식
▁일어났
▁고양
▁어떻
▁아카데미
▁소년
▁융
▁LG
▁카메
▁자금
▁세우
오프
▁메이저
▁랭
▁나폴
▁가로
▁청나라
오스
▁평양
▁켄
▁불과
어들
▁고구려
▁선고
보드
요시
▁42
▁나치
▁남동
▁중화민국
▁신앙
▁떨어져
▁대립
▁보병
▁단백질
▁줄거리
ir
ver
▁전설
라노
▁라틴
▁우선
▁독자
▁잠시
▁확정
네스
▁세운
▁숭
일러
타인
▁고문
▁br
▁아야
▁만주
▁단지
틀랜드
▁빠르
▁박쥐
▁55
▁선거구
▁모르
▁1982
▁스케
▁신설
▁살해
운동
▁카운티
소드
▁차별
네시아
▁지시
▁스카
▁우수
▁복잡
▁이끄
▁구체
▁판결
▁철도역
▁의장
▁탄생
▁삭
▁의해서
▁육상
에르
▁비율
▁전화
▁검찰
▁예상
▁창설
▁성당
▁함대
▁갖춘
im
▁광역시
다이
▁온라인
FC
▁편입
▁브랜드
▁법인
▁왕위
▁재단
▁44
▁알려졌
▁마크
▁솔로
▁덴마크
트라
▁냐
누스
▁수출
▁저서
▁1983
▁브리
▁뛰어난
▁공유
▁동의
하라
▁고향
이크
▁유학
▁세종
▁강점기
▁보급
▁텐
의회
▁반도
▁아파
▁쓰인다
▁시킬
▁나와
▁47
▁나뉘
▁태어난
▁통한
싱턴
▁참석
셔널
▁노예
▁핵심
▁전후
▁집행
▁하늘
▁Z
▁마드리
CA
▁암살
▁애플
▁고정
▁협상
ay
반도
없이
▁이루어지
▁마드리드
▁사전
▁뿌
▁법칙
▁보안
▁본격
▁후손
▁저장
룬다
▁롯
▁했었
▁회전
▁이성
비드
▁중반
▁사우
▁올렸
▁의무
▁권한
▁헤이
▁오픈
▁아르헨
▁플랫
▁댄
▁논리
▁주교
▁대비
▁관료
▁자세
▁카를
퍼스
▁184
▁75
각형
▁전용
▁산맥
▁대항
레이션
▁숫
▁순서
▁연고
▁180
▁태어나
▁이익
▁전혀
▁상품
▁옷
▁하위
▁v
▁앞두
▁베를
▁공학
▁중세
▁유적
▁베이스
▁1972
▁아르헨티나
▁지키
▁플레이오프
문화
▁시킨다
▁단일
▁시각
▁어린이
원군
▁갈등
▁공기
▁직원
▁인상
▁로버트
▁에피소드
▁말기
▁1920
▁아스
▁켈
터리
▁46
▁프란
▁의도
▁CD
▁조금
▁에선
▁보조
▁스크
▁중심지
▁운전
▁창조
▁묻
▁공포
▁잘못
▁협정
▁아미
▁흔히
▁바라
▁변호사
▁인권
▁공무원
▁요한
▁원리
▁워싱턴
▁효소
▁비난
▁수여
▁성경
▁글로
▁원주
▁1979
▁하드
리어
해졌
▁별도
▁레드
▁셋
▁정복
▁덮
▁In
퍼드
▁물러
▁전라북도
▁작곡가
▁넘어
▁투입
▁1930
▁엠
정부
▁교류
▁파크
▁오히
▁우크
▁장착
▁소식
▁저지
▁벡
▁논쟁
▁플라
▁방면
▁앞서
▁kg
무라
▁본인
▁현장
사키
▁빙
▁건국
▁공화
▁논의
▁심각
▁어떻게
▁원작
▁호텔
▁항복
▁1981
▁1973
▁150
▁공산주의
▁강하
10
▁아침
▁훨
▁돌아가
▁택
▁중부
▁교토
os
▁출마
▁멘
▁건조
▁마이클
▁오랜
▁헨리
▁인류
▁금메달
▁노스
▁유전자
▁운용
▁무리
▁요새
▁사태
▁투쟁
▁세인트
▁훨씬
▁코미
다가
▁에어
▁오토
▁창립
▁니콜
▁연합군
▁합성
▁짜
▁연산
▁코스
▁로드
▁오른쪽
▁김정
▁멸망
▁예산
▁인가
▁추측
▁절대
▁플레이어
▁산하
▁금속
▁방출
▁태국
▁낸
▁1940
▁라도
▁릴
▁한때
▁인정받
30
▁인공
ter
▁서기
▁왼쪽
em
▁메시
▁노르웨이
▁모스크바
▁구별
▁찍
▁갤
▁복합
▁북서
▁형사
▁베이징
▁1974
BO
일보
▁주위
▁미니
▁트랙
▁사령관
▁스코틀랜드
▁효율
▁일으키
▁해양
▁탁
▁각본
▁제자
시스
▁오히려
▁반복
▁185
▁인종
카와
▁파라
▁오전
▁전철
▁블루
▁연관
▁정비
▁사법
▁입자
▁열리
▁제출
▁해상
▁진다
젤레스
▁출장
▁뽑
▁읍
▁노부
▁숫자
▁집안
▁주기
▁마침
▁내렸
▁신체
▁베를린
▁군수
▁보험
▁SBS
▁웨스트
▁슬로
▁분쟁
▁54
▁인터뷰
▁하나님
▁중대
머스
▁목사
▁포위
▁인조
나이티
▁흡수
듀서
▁프로듀서
▁축제
▁유나이티
▁디스
▁1948
▁거절
▁이민
▁지니
▁그레
▁우스
▁수송
▁이어지
▁소방
▁이기
▁시점
▁불렸
▁구속
▁포기
▁지닌
▁자이
▁취급
▁소녀
▁1968
▁관점
▁활발
▁1976
▁북동
▁개시
▁아름다
▁명성
도르
▁생겨
▁건립
▁보스
▁전공
▁출입
▁고용
▁견해
다리
▁붙여
op
▁밖에
▁직업
▁사령부
▁진보
▁1975
▁경성
▁통해서
▁한국어
데스
▁응용
▁활성
▁히데
▁부활
▁머물
▁프라
▁들어갔
서트
▁국도
▁안타
▁내리
▁생기
▁주택
▁학습
▁성능
▁신성
▁불법
▁동원
▁장악
▁주전
▁어렵
▁농민
▁죽이
▁소스
▁영화제
▁취득
▁여부
▁속한다
▁자라
▁정체
▁음력
▁비록
▁일치
▁명명
▁56
▁직전
▁써
▁총독
ag
▁고유
▁보컬
▁유물
▁후원
쿠라
▁전부
▁폭력
▁1978
▁1971
▁52
▁포도
▁Q
▁국장
▁1963
▁미드
▁한자
리케
▁더라도
▁여객철도
▁대리
▁연료
▁혼란
에트
키스탄
▁천체
어스
▁항공기
▁문헌
▁선교
▁코미디
▁65
▁약속
▁편지
▁시리아
▁타이완
세이
▁49
▁그리스도
▁다운
▁닌
▁교차
▁해졌
▁브레
▁상당히
▁임금
산시
▁수술
▁랜
메리
▁주관
ce
자기
▁팝
▁도달
▁관직
▁북아
▁로스앤
▁로스앤젤레스
▁백제
▁제어
▁본사
릭스
기에
▁일대
▁미나
▁철수
▁반영
▁아테
▁화물
▁예비
▁수집
▁취하
▁상륙
▁넷
▁테러
▁무엇
▁1969
▁대화
▁도구
▁주간
▁스마
▁의존
노스
▁일으켰
▁영업
▁고종
▁교환
▁179
▁지낸
▁학술
▁다며
▁캠퍼스
▁콘서트
▁00
▁십자
▁계통
OS
▁장교
▁전파
▁그런데
▁프로세
▁항구
▁증상
▁아사
▁정지
▁해산
▁보관
▁데이비드
▁재료
▁롯데
▁학부
▁이른
▁정원
▁사운드
▁구성원
▁떠났
▁자살
▁53
▁..
라비아
▁전문가
▁모드
▁프리미
▁톰
▁상승
▁연재
▁하우스
▁개체
▁주식회사
▁코로나
▁스미
▁1946
▁부임
▁간단
▁영향력
▁방사
▁백작
▁SK
▁판서
▁좁
▁김영
▁박정
▁핑
공항
▁살인
▁반발
▁허가
oc
▁거기
▁발언
▁로운
▁영입
프리
▁공통
준다
▁빠른
▁진입
▁리스
▁헤르
▁에도
▁질병
▁기도
▁불상
▁망명
▁알아
▁제일
▁위반
이어
▁사유
▁접하
▁쳐
▁파트
▁1964
▁신분
병대
▁외국인
▁락
▁99
▁니시
▁브루
미터
▁절차
▁화성
▁베스트
▁셔
▁보건
▁한반도
▁리더
▁US
▁시호
▁자녀
▁참전
▁감사
▁인도네시아
▁사장
▁저작
▁학원
▁렀
▁벨기에
ri
▁모여
▁미터
▁대략
▁서버
▁포트
▁변형
▁고리
▁갈라
▁소비에트
▁탈락
▁고도
▁변환
▁창단
▁꼭
▁시카
▁충청북도
▁페이
▁횡
▁조작
▁진압
▁트랜
▁58
▁폴리
▁피아노
▁스토
▁승진
▁당한
▁탈출
▁마케
▁통상
▁가을
▁1000
▁부장
하마
정식
▁픽
▁PC
▁학회
▁and
▁벼
▁스프
▁도망
▁채용
▁국제공항
▁복무
▁루이스
▁식품
▁임대
▁청구
▁요인
▁주년
▁현역
▁닥
▁신청
▁말레이
▁콤
▁공동체
▁다스
▁문장
▁모아
▁지붕
▁분열
▁요코
▁작사
▁기하
▁이중
▁라이트
▁동남
▁방송국
▁쫓
▁생태
▁장수
▁트라
▁스러운
저우
ation
▁합격
▁기호
▁1977
▁큐
▁연출
▁조절
▁트로
▁예측
▁탄소
▁FA
▁화면
▁민법
▁수영
▁포로
▁학과
아버지
▁1949
▁선보
천군
▁임의
▁신인
igh
▁지급
로그
▁엑스
▁친일
▁젠
▁막부
▁국무
▁흐르
크스
▁부부
카이도
▁기법
▁특이
▁위상
▁이치
▁생긴
▁장르
▁취소
▁카메라
▁88
▁누구
▁빠져
▁오페
▁동작
▁상원
▁메모리
▁이뤄
▁앵
▁62
성군
▁레스
▁참고
▁1962
▁전동
▁서식지
▁수소
▁실수
▁출간
▁정기
▁황금
▁선전
▁광장
▁배출
▁수리
▁스토리
▁독립운동
드시
▁흉
▁샘
▁코파
문화재
▁레오
▁화재
타르
▁개조
▁생존
▁선조
▁먹이
▁처형
▁방지
▁1967
브리
▁남서
▁흑인
▁Ch
▁주둔
▁기체
▁이승만
▁스럽
▁어떠
▁는가
▁57
▁도전
▁보낸
▁왕자
▁연안
▁그라
▁현지
▁호수
▁로켓
▁메인
▁이시
▁롱
▁서구
▁일본군
▁임진
▁공정
▁오스만
▁콘스탄
에이
포르
▁경로
▁동성
▁서원
▁농구
▁루트
바라
▁입니다
▁희망
천시
▁달하
▁크리
▁고지
▁You
바르
▁히트
▁방정식
▁나갔
수록
▁천연
▁싸움
▁제대로
▁반드시
▁태어났으며
▁우려
▁등지
▁뿌리
▁의혹
▁여단
▁동기
▁성향
▁나타났
▁뜨
▁좌우
▁남겼
▁된다는
▁늦
인물
▁분명
▁여야
먼트
▁동아
▁무덤
▁전주
▁진주
비치
nd
▁맞이
▁노벨
▁터널
▁톱
▁그레이
▁181
▁타임
▁스탠
▁미국인
▁시드
▁압력
더스
▁전면
▁파악
▁둘째
▁삽
▁이온
▁한계
▁살아
▁목소리
▁내전
▁법정
▁전형
▁신뢰
▁엄청
▁코르
베스
▁유기
▁66
▁1966
▁끝나
▁꺾
라이언
▁독특
티브
▁녹색
▁치렀
▁r
▁에르
ST
▁개신
▁해리
▁처벌
▁범주
▁글자
▁비평
▁덧
▁물체
▁%,
▁유행
▁체코
▁홋
ON
▁68
▁아동
▁별명
▁아파트
▁람
▁복지
▁1965
▁분해
▁순환
▁매일
▁리처
▁61
▁부사
▁분할
▁이룬다
▁오프
방송
▁추구
▁방해
▁아프
▁KBO
▁모형
▁밥
▁퀸
▁평등
▁183
▁타격
▁치러
▁실질
▁집권
▁클레
▁구하
▁바둑
▁간행
▁움직임
치아
▁구현
▁알렉산드
▁나타난다
질랜드
▁화산
▁묶
이치
▁묵
▁뉴질랜드
▁캔
▁김일
▁마르크
▁웅
▁광복
▁한정
▁싸우
ER
▁부진
▁희생
르타
▁일찍
▁찰스
피스
▁풍부
▁뮤지
▁최다
▁첼
▁아리
art
유럽
▁나들
▁사립
▁플래
▁완료
▁가상
▁시조
텐츠
▁마시
▁빼앗
▁버렸
▁올려
▁끝난
▁일식
▁1961
▁벡터
디션
▁800
▁86
▁파르
▁마침내
▁사원
▁어도
▁테이
▁마법
▁물리학
▁대개
▁대법
▁션
▁손자
▁통산
▁사냥
▁근본
▁향해
▁악기
▁분위
▁의지
▁레인
▁전원
▁중기
▁점점
▁확산
▁호주
▁오페라
▁일본인
▁분기
▁600
▁120
투스
믹스
▁사형
▁출범
▁나들목
▁부하
ice
▁웨이
▁판사
▁향하
▁갈색
▁알파
▁프린
사자
est
▁카라
▁회담
▁쓸
▁창원
▁가시
▁영웅
▁유치
▁충격
▁IS
▁여론
▁완공
▁시카고
▁리가
▁기둥
▁달라
▁명확
▁개입
은행
▁교향
▁날개
▁저술
ia
▁훗
▁단독
▁제이
▁대공
▁무게
▁가나
▁맞추
▁사임
▁포인트
▁모토
라드
▁인접
▁발굴
▁훌
▁메리
▁악화
▁이자
▁적절
리히
▁인증
▁편찬
▁98
▁순간
▁조별
▁닛
▁사마
▁1919
▁홍보
▁으려
틀러
▁문명
다는
사스
▁상위
▁둘러싸
TV
▁무시
▁의심
▁났
▁뚜
▁조종
▁된다고
ap
▁re
▁도와
▁명나라
▁함락
▁탐사
AR
▁기기
▁등장인물
▁성분
▁당초
▁밝히
▁연간
▁도쿠
▁자극
▁징역
▁서명
▁순수
▁곽
▁접촉
▁득표
▁연구원
▁나뉜
▁나아가
▁각지
ak
▁그때
▁새롭
▁1944
▁느끼
▁추천
우리
▁임기
▁모임
▁사정
▁이닝
▁진정
▁드라이
▁구원
민주
▁입법
▁넓이
▁새겨
▁학살
버그
▁스마트
▁독일군
▁태도
▁올해
▁포항
▁63
▁행렬
라이나
▁95
일리
▁DNA
▁팽
연히
▁고속도로
▁링크
▁세르비아
▁변수
▁사실상
▁골든
▁1941
▁뱅
▁동서
▁흘러
▁개막
▁프리미어
▁네이
▁심사
▁아티
▁루스
▁실현
메이
▁74
▁정하
▁59
▁예전
▁등판
학생
▁자전
러리
시오
▁경전
▁꼽
▁재배
▁한국인
▁균형
▁공헌
ct
▁프로그래
▁혼합
▁바위
▁춤
▁시사
▁오랫
▁기온
▁보고서
▁백성
▁확률
▁Lo
무부
▁언제
▁수석
▁페르시아
▁공로
▁감시
▁튜
▁커뮤
▁닉
▁178
▁매장
▁방위
▁침략
▁개신교
ul
▁앤드
▁떨어지
▁대선
▁긍
숭이
▁출력
▁분위기
▁영지
▁훗날
▁IC
▁양쪽
▁흐름
▁급제
대부
▁오랫동안
코스
▁왕실
▁프라이
▁72
▁단편
▁무사
▁이라크
▁미쓰
▁안드로
▁띄
▁승부
▁대량
▁커뮤니
▁지형
▁특별시
▁추산
▁한다면
▁재건
▁텍사스
▁82
▁160
▁1947
▁랜드
이너
▁SS
▁1958
▁76
▁원형
▁그래픽
▁에드워드
▁줄기
▁합쳐
▁동해
▁권위
▁다케
▁뮤지컬
▁피터
▁미야
▁리처드
▁신부
▁안토
▁확립
▁내셔널
▁복원
▁점수
거운
▁1956
▁to
▁마무
▁여왕
▁동명
▁발발
▁저녁
▁아이돌
▁프랑크
▁시상
ie
▁석유
▁타자
▁가와
▁우라
▁멀리
▁에서부터
리노
▁일상
▁경남
▁제사
▁속한
▁승객
▁AFC
▁77
▁비상
▁파워
▁테스트
▁복수
▁입력
▁침입
▁브라운
▁리버
▁도요
▁;/
▁보물
▁복음
▁작위
▁데스
▁앉
▁교구
▁포켓
▁진단
▁수익
▁업적
▁과학자
▁개설
▁연예
▁1939
▁가설
메리칸
▁타워
▁Th
▁바깥
▁기소
▁안동
▁창작
▁혁신
▁더블
▁잠수
▁민중
▁정수
▁펼쳐
▁한글
▁받아들여
▁가공
▁67
▁섞
▁암호
레옹
레나
▁일시
▁본질
ud
일스
▁계층
▁힌
▁사자
▁정해
▁기울
▁지켜
▁밝혀졌
▁나폴레옹
▁당국
▁와이
og
▁어깨
▁폭탄
▁그렇게
▁자식
▁곱
▁소득
▁신고
에른
▁기에
▁시마
▁동양
IA
왜란
▁임진왜란
▁겹
▁평론
▁심지
이센
▁85
▁병합
▁축구단
▁쌀
ist
▁사제
▁대왕
▁움직이
▁벌였
▁공중
▁신자
▁어디
▁빌보드
▁발음
▁듯이
▁부지
▁주최
▁거듭
ly
▁빅토
▁후계
th
▁후속
마니아
▁력
레인
▁인쇄
▁폐쇄
▁훈장
▁턴
▁도모
▁깃
▁어려운
▁고통
▁가진다
▁자이언
▁가량
▁1954
▁가담
▁보상
▁노출
▁돌아왔
▁벗어나
▁국기
체스터
▁고기
▁구글
아티아
▁크로아티아
▁돕
▁산화
▁동방
▁총회
▁국정
▁평안
▁실력
ight
▁아름다운
▁대지
▁참모
BA
▁96
▁블라
▁생물학
▁73
▁라스
▁매체
▁1952
▁누르
▁Al
▁박정희
▁탱
▁비서
▁인용
▁전신
▁끝내
조합
▁아트
▁가이
▁세리
▁DV
▁결론
타이
▁뷰
▁오카
▁행복
▁도덕
▁포스트
▁다소
▁상관
▁무한
▁레알
▁아테네
▁께
▁교리
▁김대
▁로봇
▁타운
▁이혼
▁탈퇴
▁부담
▁역학
▁작동
▁조조
▁81
▁그만
▁예방
▁피해자
▁알바
▁수도원
▁바닥
마르
▁화이트
▁비례
하여
▁*
▁따로
▁심장
▁나타낸다
▁뤼
▁78
▁대성
▁보살
▁뮌
▁최후
▁인생
▁중력
▁수요
▁환승
▁절반
너스
▁스타디
▁바이에른
▁화합
▁지향
AS
▁덜
▁타이거
▁좋아
▁기상
▁재학
▁나뉜다
AT
▁규제
▁불만
▁화장
▁장남
▁김성
▁유한
▁포스
나가
▁센트
▁손상
터스
▁가까이
필더
▁심판
▁질환
▁총장
토스
▁미드필더
▁전투기
▁개방
▁유통
▁녀
▁지사
ess
▁메달
▁전남
▁천안
세포
▁액션
▁청주
▁하인
클리
▁아웃
▁국군
▁여섯
▁마무리
▁옮겼
▁사무소
▁91
▁약물
▁메시지
▁주력
▁피부
▁는다는
의정
▁패션
▁검토
▁골드
▁피하
▁71
▁벌이
▁연습
▁콘스탄티
▁긍정
▁보르
▁전직
▁1959
▁산소
▁모바
▁기리
▁빌딩
▁디아
▁선박
▁202
▁AT
▁이명
▁가마
▁황후
▁처분
▁햄
▁Li
▁상실
스트라
▁NH
▁백만
▁유산
▁혼인
▁결의
직자
▁통화
자치
▁당나라
▁사우스
▁신사
▁관여
▁호소
▁;,
▁글로벌
쿠스
▁세부
▁프로이센
▁인원
▁177
▁심지어
▁분노
▁가요
▁대책
▁소멸
▁윗
▁말레이시아
▁설득
▁엄청난
IV
가락
▁문신
▁오직
▁디스크
▁가슴
▁하원
▁승려
▁위대
▁이어졌
▁요금
▁1942
▁홋카이도
▁시나
▁쿠데
▁조지아
▁창당
▁위키
▁구매
▁왕비
▁두려
▁퀴
▁잭슨
▁김일성
▁상역
▁적합
ub
▁페이지
▁여겨진다
▁크루
드리히
리학
▁87
▁개성
▁선임
▁억제
▁부친
▁모바일
▁쾌
▁비치
▁AP
▁음악가
▁1943
미야
▁사격
▁일기
▁st
▁테크
▁불안
▁사도
▁일컫
▁야스
▁올라가
▁이른다
▁일본어
▁조카
▁나온다
▁싱가
▁주석
▁크로스
▁돌아와
▁1955
▁싱가포르
▁쿠데타
▁톨
▁진영
▁필드
▁맞서
▁좌상
▁프리드리히
▁전당
▁159
▁드래프트
▁프랭
▁어려움
▁일체
가니
▁700
▁조차
▁타인
▁알고리
▁무료
▁84
▁카스
▁1953
▁굳
▁웃
ab
▁원년
▁스타디움
▁주어진
▁발탁
▁상속
▁였을
▁닫
▁챔피언십
▁벌어진
미르
▁루마니아
▁힙
▁1936
▁부산광역시
▁세자
▁유고
해서
▁본명
▁천주교
▁테마
▁이와
▁본다
▁티베
▁김종
데이
▁Re
▁기동
▁폭격
▁즉시
▁왕후
▁토론토
아내
▁알고리즘
▁후쿠오카
유산
▁궁전
▁독재
▁여우
▁콘텐츠
▁막대
▁1910
▁깊이
▁사무실
▁누리
▁발명
▁연설
▁\
▁리드
▁용도
▁메이지
ine
▁딘
▁각국
▁전동차
▁부동
▁태조
▁대체로
슬러
▁97
▁딜
▁쓰여
▁사양
▁졌으며
▁정차
▁오이
▁검색
▁구입
▁전북
▁1900
▁음성
▁스티븐
▁학사
구리
▁유형문화재
▁원주민
▁히틀러
리나
오르
▁진격
원경
주군
▁휴대
▁느낌
▁추방
시스코
▁수호
▁주소
▁대우
▁사기
▁남아프리카
바로
▁1957
▁영양
▁속해
▁아메리칸
▁이즈
▁자국
▁전술
▁조상
ew
▁DVD
▁개칭
▁세트
▁초점
▁포켓몬
▁신장
래프트
▁강릉
제국
▁필수
베르트
▁동북
▁사과
▁최우
란색
머리
▁수업
▁불가리아
▁전송
▁광범
▁보여준다
▁코리아
▁스미스
▁이마
▁인디언
▁덩
ue
▁핫
▁늘어
▁69
▁급격
▁완벽
▁1914
▁92
▁미리
미니
▁게르
▁섹
▁클로
히로
▁넥
구치
독부
▁노트
▁게다가
▁개량
EC
▁원수
▁유효
▁바르셀
▁오키
▁바르셀로나
▁서술
리그
▁질문
▁똑
▁빚
▁펑
▁도마
▁자는
▁천만
로지
지사
▁WW
▁라이프
▁연락
▁늑
▁선형
▁고급
▁미술관
▁재즈
▁커버
▁림
▁신도
▁101
▁라틴어
드라
▁스탈
▁마르크스
▁랄
▁후임
▁핸
총리
▁와서
▁상인
▁렀다
▁소비자
▁1938
▁립
▁스프링
▁부위
▁이내
▁주니어
▁="
▁배포
▁달려
▁물건
▁랩
▁화려
▁고시
▁닥터
▁손실
▁저자
다란
▁01
▁운항
▁실천
▁주체
▁려면
▁밀려
산화
▁HD
▁료
▁언덕
▁윙
▁빌리
▁오가
자키
▁느냐
▁1918
▁모음
▁돌려
▁석사
▁블록
▁알레
▁마스터
▁사퇴
▁상주
▁소형
▁백인
▁시내버스
▁언스
▁화석
▁라우
▁의문
▁연평
▁고위
▁갑자기
▁내세
▁이념
▁일련
▁국적
▁암컷
▁웰
비히
▁추기
▁상수
▁자본주의
여금
▁방언
▁집회
▁대만
▁개별
▁만났
▁정교회
▁감각
▁반사
▁미스
BM
▁해발
민주당
펙트
▁풋
▁경비
▁올스타
▁당해
▁고객
친다
▁차단
▁매치
▁1951
▁발간
▁짝
▁영주
▁계곡
▁줄어들
▁분화
▁탄압
▁경제학
▁화폐
드레
▁조선총
▁선포
▁실업
필드
▁미시
▁거짓
▁조선총독부
▁on
▁생겼
▁노리
▁89
▁1937
▁1932
▁성남
▁용인
▁프랑스군
▁뮌헨
▁우크라
▁격파
▁합니다
▁받아들이
바키아
▁구상
▁당원
▁화제
▁재개
▁크라
▁다다
▁마틴
▁엘리자
▁이웃
▁항공사
▁후계자
▁93
▁변하
▁퀘
▁칭호
▁182
▁기부
▁이스트
▁진학
▁찬성
▁체험
▁시트
무늬
▁싱어
▁클리
▁회로
▁추기경
▁고양이
▁첩
어도
저스
▁옵
▁면역
▁1935
▁질서
▁수치
▁비행기
ect
▁곡선
▁비스
▁광범위
▁파티
▁흰색
▁사찰
▁항의
▁내놓
▁트레이드
▁공신
▁자산
▁접한다
▁Be
▁되돌
어로
▁덧붙
▁아티스트
▁겉
가시
▁증언
▁촉진
▁세월
▁클래식
▁꾸준
▁설치류
▁마루
사전
▁구멍
▁오버
동생
▁타율
▁로렌
▁소화
▁극단
▁개척
▁중추
▁가속
▁남기
▁법학
▁운송
▁히어로
▁반지
▁줄이
▁유배
▁습격
▁지수
▁보편
▁영원
▁쿨
▁쿼
▁남녀
하이
▁OS
▁전망
▁허락
▁분교
▁전적
런스
▁시모
ore
▁소위
▁수백
▁소문
▁양산
▁94
슈타인
▁축소
벤트
▁탕
▁마주
▁일으켜
▁탄핵
▁직무
▁대법원
다수
our
▁목성
▁물고기
▁아오
▁팩
센트
IN
추어
▁툴
▁쟁
ell
▁동화
▁잠수함
▁강남
▁힘들
▁거치
▁원시
리우스
▁약화
▁티베트
▁뼈
▁프랑스어
▁산지
▁1933
▁소집
▁CP
▁FM
▁대칭
▁베리
▁조항
▁충분히
▁그리하여
도사
▁밸
▁프로그래밍
▁끈
슬링
▁무용
▁수십
▁이른바
▁하여금
▁멀티
▁선호
▁익스
▁혼자
▁영구
▁군부
▁콜로
▁주일
▁돌아오
▁고교
▁정통
▁1928
프레
▁누스
닉스
▁정류
ers
▁칠레
▁쓰였
사이
▁간부
▁당신
▁이행
▁틴
공사
▁치르
▁개명
▁댄스
▁시신
▁국토
ID
▁으니
▁형상
▁경사
▁실내
▁틈
▁동경
▁발레
▁판정
▁돌아온
▁재능
▁펀
▁09
▁콜롬
▁자매
▁해제
▁손해
▁메트로
▁79
▁진실
▁브로
▁사이드
▁1924
▁부속
▁액체
▁지불
▁태종
▁04
▁토마스
▁자이언츠
▁사막
▁조기
▁토대
▁개장
▁멈
▁이재
▁110
▁단순히
과이
▁입대
▁이어진
▁지중
▁종사
end
▁토너
▁강전
▁합동
▁동인
▁원자력
▁이벤트
코프
▁열매
▁파키스탄
▁전제
▁정면
▁오류
▁08
▁쏘
브라
ill
▁늑대
페이스
▁구름
▁170
▁아마추어
▁김해
▁주문
▁지표
▁플로리
▁걸친
▁프로토
▁대승
▁분산
▁경고
▁코너
▁퓨
▁양국
▁유아
▁스카이
▁안티
▁러브
▁상대식
▁서방
▁무력
▁비잔
▁하와
▁가난
▁의정부
▁Co
▁놀이
▁동굴
▁토착
▁안토니
▁룸
▁성서
▁엄격
▁재생
▁회색
▁MS
▁장점
▁투스
▁베네치아
▁존스
▁로즈
▁총재
▁못한다
▁당대
▁보스턴
▁수컷
▁주어졌
▁법안
베리아
ain
▁자랑
▁스크린
▁밀리
▁배열
▁호흡
성기
▁초상
테스
▁중동
▁가깝
▁강도
▁들어오
▁뻗
▁오케
▁부서
▁우에
티스
▁행적
▁흔적
▁세로
▁일단
▁편의
AN
▁{
ard
▁봉기
▁스톤
▁평면
▁맨체스터
▁젤
공업
▁다큐
▁북미
▁인민군
▁83
야스
▁힙합
▁엉
조선
▁De
▁토너먼트
레오
▁동지
▁마저
▁아인
▁대가
▁요코하마
▁메탈
▁주재
▁행하
▁중계
▁판타
▁간다
▁메르
▁장로
▁빵
에도
▁레닌
▁재임
▁야당
▁강요
▁스케이
데르
▁경북
▁페리
▁세워졌
뜨리
▁추적
▁대원
▁쿠바
▁선로
▁대사관
▁드물
▁혈액
▁뱀
▁철거
▁1934
▁나이트
▁개찰
▁마감
▁국방부
▁포드
▁한성
즈니
▁근육
▁탓
▁구사
▁안쪽
▁벼슬
▁주자
▁카리
제르
▁나섰
▁중지
▁풍속
▁농장
▁장례
▁발전소
▁리아
▁입구
▁코어
▁르네
▁해설
▁관계자
▁할아버지
세대
키퍼
▁글리
▁페이스
▁동구
▁본토
▁함경
▁경찰서
▁골키퍼
아르
▁스탈린
▁놓여
베르크
▁안내
▁화합물
위대
▁접속
▁농촌
▁도쿠가와
▁현존
▁노동당
▁아프가니
▁킨
▁꾼
▁닐
유키
▁관객
▁철학자
▁시계
▁심리학
▁광산
▁역전
고속
크래프트
▁리스트
▁구로
▁증권
▁사망자
▁오염
▁거점
▁거느
▁곤충
▁얀
▁선물
▁130
ne
▁Me
▁항해
▁모노
▁식량
▁복사
▁대동
▁레지
▁정확히
▁정조
▁조문
▁모자
▁부작
▁토머스
무르
▁사카
▁유키
▁남극
▁계수
▁부호
▁재판소
▁동메달
▁부처
▁폭풍
▁독점
▁나선
▁Sh
▁종전
▁필립
▁합리
▁140
▁그러므로
▁훼
▁그리스어
▁이정
▁문재
▁중성
▁테르
▁알렉산더
▁비중
▁대다수
우치
▁대결
▁초청
▁돔
▁세금
▁아프가니스탄
▁김구
레이크
▁휘하
▁은메달
사르
▁히로시마
▁특별히
▁클래스
▁윤리
▁WWE
▁펄
OR
▁유대인
▁새끼
▁칼리지
▁아과
▁석방
▁교향곡
▁필라
▁자유주의
돌프
▁로맨
▁멸종
▁박근
▁원조
▁매주
▁파울
▁체육관
▁새벽
▁대한제국
▁ST
▁부품
▁이어서
AM
▁진동
▁th
▁타카
▁성명
▁훌륭
▁위안
▁지질
▁아비
▁유력
▁그래프
베리
안군
▁미카
힌다
all
▁1931
▁마그
▁펼쳤
▁봉해졌
▁아이스
▁간격
▁아틀
▁캠프
▁일곱
클린
▁금강
▁캡
사관
▁트랜스
나르
느님
▁감옥
▁부드
▁타점
▁기생
▁타원
▁존슨
▁하느님
▁꺼
▁강등
▁문법
▁코트
▁기병
▁뚜렷
ang
▁스트라이
▁An
▁연호
▁명시
▁첫째
▁특허
▁대변
▁사신
▁공세
▁전한
▁후퇴
▁인터페이스
▁지칭
여서
▁좌파
▁해협
▁250
▁놀라
▁도메
▁네이션
▁지휘관
▁버지
▁비즈
▁교도
▁단장
▁평론가
▁집필
▁커다란
▁공룡
▁1921
▁극복
▁목포
▁유발
▁고고
▁스테이션
▁가구
▁사관
게이
▁cod
▁무늬
▁소요
▁킬로
▁176
▁구리
▁크레
▁갤럭
▁덕분
▁동반
▁수반
▁닮
생활
▁키스
▁목숨
▁박스
▁김대중
▁매니
▁배웠
시스트
▁동성애
▁협약
밀리
▁빗
▁칙
▁조화
▁05
▁1929
ss
산물
▁숙종
▁타입
▁하버
▁삼각
▁약탈
둥이
▁일환
▁물려
마이
▁틱
▁건담
▁착용
▁수비수
▁바이올
널드
▁미분
▁잠재
▁원장
▁입사
▁성씨
▁드리
▁라트
▁지부
▁샤를
▁갤럭시
▁de
▁연계
▁의석
▁y
▁험
▁영혼
▁곰
미아
▁AC
▁고서
▁연상
▁운동가
▁비하
▁롬
▁발렌
▁근로
▁설비
▁데리
▁중립
수량
▁발휘
베이스
▁1923
▁램
▁쯤
▁기갑
▁섬유
▁이수
▁는다고
▁경유
▁공국
▁비틀
▁플로리다
▁07
▁빠지
▁1925
▁임신
▁망원경
페인
ity
▁서적
▁그럼
▁도호
▁압축
▁불화
투아
키스
▁과일
▁추락
▁웨일스
▁성직자
▁안드로이드
▁모험
▁어두
▁영감
타카
▁살아남
▁첸
▁다이묘
▁SC
▁레벨
▁진흥
▁박근혜
▁트레이
▁딱
▁모로
▁요원
▁남아메리카
▁변신
▁유가
니즘
▁라이온
▁선교사
▁캘리포니아주
▁연평균
▁고분
▁삭제
▁우드
▁채권
▁갱
▁장갑
▁관리자
▁지역구
▁디오
일본
▁가끔
▁제약
▁번지
▁영광
▁민속
▁악장
무게
▁몸무게
▁북서쪽
▁유비
▁유성
▁프로세서
▁어원
▁똑같
▁페루
▁소설가
카스
▁진술
▁교과
▁수직
▁추대
▁시게
▁드러나
▁죠
▁무너
▁161
▁그랜드
▁변동
▁하와이
ff
▁일자
▁EP
▁돌파
▁명사
▁수명
대문
▁필름
up
▁음모
▁복구
▁카자
▁주류
▁압도
▁어워드
프란
▁기관차
▁사당
▁저널
▁프레임
▁파트너
▁결심
▁수상자
▁빅토리아
▁북극
▁중시
▁청동
▁돌아갔
행성
▁서인
▁철저
▁파생
▁단선
▁이조
▁레이블
▁수장
▁엽
▁KT
보이
▁쇠퇴
▁삼각형
▁가톨릭교회
스팅
▁홀로
▁175
▁사거리
▁어항
▁모시
▁부탁
▁도마뱀
▁종로
슬리
▁틸
▁칼리
▁그려져
▁동일본
▁규슈
▁트럼
▁바오
▁이날
▁표지
▁피트
▁최상
▁건축물
애나
▁나폴리
즈키
▁북아메리카
▁도어
▁랭킹
▁평생
부사
▁파운드
▁향토
▁황태
▁각자
▁쓰러
멘트
▁리치
▁무릎
메니아
▁유역
▁자치구
▁여인
▁My
▁노무
▁빨간
▁왕가
▁전승
▁지연
▁엘리자베스
▁떼
▁준우
▁투구
▁1922
▁고안
▁codice
▁SM
▁유용
▁나서
▁넘겨
▁화가
▁버지니아
▁부유
▁직선
▁무인
▁벨라
타운
▁라마
▁아기
▁""
IS
▁굽
▁이오
▁중구
▁침해
▁노비
▁문인
▁토벌
▁1912
▁아르메니아
▁공격수
▁국민당
▁JR
▁단행
▁연령
라이터
▁모니
▁모래
▁납치
▁구미
▁직위
눅스
▁패턴
▁무산
▁간섭
▁봉사
▁인천광역시
▁색상
▁다양체
▁루트비히
▁왈
▁적응
▁리눅스
▁지중해
▁MV
▁관하
▁인력
▁포유
▁모듈
▁스케이팅
▁베타
▁윤치
▁항목
▁164
▁사토
▁수지
▁퍼시
▁탐험
▁동아시아
▁06
▁고르
▁상처
▁올린
▁일어난다
▁Go
▁주사
▁Love
ip
▁출현
▁교차로
▁넬
▁릭
▁교역
▁매각
▁이종
▁하사
▁마카
ant
ong
▁연소
양군
▁배상
▁삽입
지마
▁블라디
▁글씨
▁베토
▁영조
▁남겨
▁토르
▁상무
ED
ld
▁실점
▁전향
▁들어서
▁시상식
▁돼지
▁시아
▁플레
▁부동산
▁헤드
▁1908
▁렉
▁행해
▁호조
▁과도
▁커피
▁제주도
슬로
▁가해
▁연금
▁패러
멘터리
▁장사
▁우루
▁굿
▁자책
▁참조
▁남동쪽
▁싫
▁03
▁육성
▁조명
▁크림
▁태자
▁SN
도니아
▁히가시
▁1917
OM
▁기종
▁아울
▁사촌
▁옮기
▁에스파
▁1906
▁외계
▁목조
▁배급
▁시집
▁체인
▁기하학
▁낸다
▁인자
야수
▁정서
▁관중
▁밀라노
▁명문
▁비전
몬드
▁종족
▁폐기
▁입문
▁호르
▁시외
보살
▁전작
▁마라
▁안양
영상
이즈
▁동사
▁통로
▁럭
▁표본
▁띤
▁우익
▁적어도
▁옹호
▁유인
▁보통학교
▁무선
▁이토
▁정자
▁몬테
▁사이클
▁앱
▁1927
▁산타
▁앨런
av
▁과장
▁의병
▁창간
▁송라이터
▁대행
▁자전거
▁노인
▁북동쪽
▁보좌
▁스와
▁진지
▁트윈
▁낼
▁다큐멘터리
란다
▁선제
▁산악
▁아가
▁준우승
▁들여
▁기압
▁세워진
▁안보
▁내장
▁유신
▁포크
플레이
▁1907
▁1926
티움
▁정류장
▁유닛
▁별로
▁사라지
▁오리지
▁협의회
▁디즈니
▁최우수
▁유입
▁슐
▁예외
▁흙
튜브
▁탑승
▁스페셜
▁노조
AC
▁수감
▁걷
▁아무런
▁왕립
페이지
▁베토벤
▁우크라이나
▁168
▁기아
▁맞춰
▁석조
▁자문
▁BBC
▁묘지
▁드래곤
▁PD
▁데려
▁때로
▁상영
▁호남
▁He
▁연고지
▁유튜브
스토
▁급속
▁하천
슬라
▁스틸
▁기름
▁번식
다니
▁시에
▁여서
▁주거
▁상하이
▁광역
▁카페
런트
다이라
▁독일어
ind
▁Sp
▁데이터베이스
▁에릭
▁라이벌
▁대교
어트
▁버그
▁할리
▁색깔
se
▁겨우
▁대안
▁사료
▁지름
▁점성
▁정사
▁합계
▁찌
▁커뮤니티
▁선진
무네
로프
▁지바
▁홈페이지
▁줬
▁문하
▁제후
▁세조
▁자바
브스
ame
▁마오
▁룩
텐도
▁흥미
▁닌텐도
생물
▁요미
▁좌익
▁NHK
▁민족주의
총장
▁원로
프란시스코
세스
▁소니
▁특급
▁대조
▁방안
▁분배
▁수수
▁콩고
▁품질
▁꾸준히
▁리듬
▁상세
▁증기
▁166
▁162
▁샌프란시스코
▁레이스
▁1905
긴다
▁엄마
▁해진
▁문화유산
▁레이다
▁칩
▁원산
다른
▁운명
ort
▁반환
▁와카
▁칭하
▁151
ry
▁트럭
▁스승
▁아크
▁주한
▁딴
▁모집
▁비평가
▁십자군
▁마일
▁가쓰
스티벌
▁랴
▁진도
▁가르치
▁이어져
▁주의자
▁재무
▁뚫
▁구마
▁역과
▁출산
▁현황
▁페스티벌
ith
▁02
▁협의
▁조선인
▁모터
▁셋째
▁신비
▁리얼
스케
▁비단
▁펼치
ES
▁쥬
▁일행
▁주말
▁유고슬
▁유고슬라비아
▁챌
▁목격
▁주파
▁늘어나
나카
▁거둔
▁그쳤
▁곧바로
▁스피드
▁도리
▁158
▁묘소
▁한나라
엘라
▁크리스토
▁렌즈
▁야생
▁정계
▁오리지널
▁가미
▁단층
▁배정
▁보전
▁플루
▁오디션
▁한나라당
▁||
▁전해진다
▁문과
▁옛날
▁한화
▁입증
▁남서쪽
▁스테이지
▁템
▁상소
프스
▁수천
결승
▁토니
▁이리
▁직장
▁동전
▁무관
▁미네
▁푸른
▁문제점
▁운반
교육
▁기점
▁복제
▁사면
▁되찾
▁동영상
▁급행
▁도심
▁출판사
리케이션
▁브라이언
▁적색
▁디자이너
▁마스
▁서북
▁기용
▁긴급
▁인텔
▁케이블
ok
▁Un
▁거친
▁동치
▁인치
▁합작
▁쿠르
▁지휘자
회의
▁배제
▁호환
▁심하
▁베이스볼
▁알라
▁예언
▁드러내
▁폭스
▁프랜
▁나타난
▁일으킨
으므로
▁연주자
▁판타지
▁콜롬비아
▁마케도니아
▁번주
▁기념물
▁당사자
▁교전
▁우르
▁기단
▁단종
해군
▁신임
▁향년
▁비즈니스
▁련
▁부패
▁사직
▁쓴다
▁그럼에도
▁이루어진다
▁초래
▁회원국
루살
프라
▁예술가
▁모순
▁걸려
▁드림
▁살펴
▁오다
▁개수
▁좌석
▁가하
▁미만
▁정교
▁용기
루살렘
▁하드웨어
▁기재
▁도메인
▁선사
▁트레
qu
▁수면
▁집계
▁가게
▁붙잡
▁역명
▁오타
▁평소
▁포맷
▁165
▁마쓰다이라
▁AM
▁관장
▁파나
▁센트럴
▁스펙트
▁콘스탄티노
▁서경
모니
▁154
▁내륙
▁자회사
▁1904
▁이지
▁시달
▁신용
▁다녔
경기
▁의거
ord
▁석탑
▁항일
▁과제
▁무신
▁왕족
▁사로
▁연애
▁스펙트럼
▁옌
▁Wh
▁Se
▁걸리
PS
▁이력
▁봐
문학
▁신하
▁임상
▁자사
▁파동
▁여동생
▁압박
ob
▁권고
▁비아
▁아도
▁전염
▁여신
▁챌린
▁이명박
▁용산
▁DJ
식물
▁장편
▁마케팅
▁예루살렘
▁계단
▁SF
▁사르
▁만난
▁선보였
IC
▁163
▁900
▁발효
▁167
▁혜성
▁스마트폰
우옌
▁차관
가스
페이
▁팅
ate
▁무슬
▁샬
▁가득
▁이글
▁그랑
▁대단
▁스쿨
▁게시
▁훼손
▁부수
▁두려워
▁바이올린
▁무라
▁서브
▁사범
디스
▁조류
▁156
▁상임
▁노무현
▁받침
▁크리스티
▁교섭
▁미얀
▁얼음
▁끼리
▁두드
▁부흥
▁차체
▁리투아
▁리투아니아
▁식사
▁무슬림
▁행정부
▁비잔티움
운서
▁디비전
▁쇼군
▁저기
▁진상
▁서울시
▁분지
▁아나운서
▁AS
▁규격
▁말라
▁예능
▁니스
▁부리
▁조국
▁댐
마치
▁비로
▁타마
▁마쳤
▁밀접
▁착륙
▁피스
▁샹
껍질
▁한양
▁성공회
▁UN
▁간접
▁지주
랑이
커스
▁애국
▁퍼져
▁정벌
▁고립
▁자마
▁친정
▁머물렀
카르
▁아베
▁바그
▁우지
▁구장
▁오케스트라
▁낱
아지
▁하트
▁월간
▁점유
▁사인
잡이
▁피렌
로디
▁와중
▁융합
ET
▁출구
리크
▁충남
▁뛰어나
▁브라우
▁아이디
▁좋아하
▁주립
▁바티
▁뱅크
▁제네
▁학파
▁참판
▁부통령
ast
▁선두
▁용량
▁잊
▁소나
▁페어
▁하노
▁일요일
킨스
▁거인
▁몰락
▁요크
▁스타크래프트
▁싸웠
럼비아
▁농도
▁진나라
예프
▁김동
▁굉
▁귀환
▁두산
▁맥스
▁이에
▁지장
▁최신
▁시체
▁투명
▁벌어지
▁쿠스
▁개발자
들리
▁공과
▁MVP
▁야기
▁흥행
▁발족
▁성종
▁위주
부인
▁강연
▁사리
▁완화
데이트
▁중국어
길이
▁사사
▁스트리트
▁알바니아
▁충성
▁139
▁마천
▁다이아
▁업데이트
▁애플리케이션
▁DS
▁대령
▁전지
▁미나미
▁아세
트롤
▁부자
▁HIV
▁전이
▁145
▁마리오
if
▁고조
▁공용
▁서열
▁빨리
▁측근
▁응우옌
▁이슈
▁피렌체
▁디젤
▁시드니
▁킬로미터
▁착수
AD
▁경선
▁사라졌
▁서일본
▁던지
▁부도
▁심한
▁기타리스트
▁벌어졌
주곡
▁검증
▁리오
▁해인
레이터
▁깔
트랙
▁게이트
▁주머니
▁준결승
랑크
ive
▁관찰사
▁중도
▁아이디어
▁수산
란트
▁사명
▁전두
수아
▁구동
▁마산
▁형법
IT
▁사바
▁푼
▁요미우리
▁아종
▁해전
▁전류
▁전임
악기
▁공전
▁규명
▁부시
▁테오
▁174
▁관광객
츠키
▁알렸
나와
카드
▁아울러
▁붓
▁석탄
▁몸길이
리티
ack
ure
▁권유
▁지각
트니
▁들어간
▁수학자
▁제의
▁IP
▁인과
▁연수
▁중독
▁소송법
▁관습
▁플라스
▁좌표
▁1896
토미
▁천문학
▁로빈
▁자율
▁소재지
아리
▁실용
루미
▁Ar
▁노동조합
▁젖
▁청와
▁판매량
▁스콧
▁우즈
▁피에르
▁여덟
▁마운
▁메디
▁정찰
▁책봉
▁뷔
균관
▁쇼핑
▁시라
▁옐
▁신칸
▁세례
▁존경
▁호평
▁자면
iv
▁백신
▁오렌
▁통행
▁청와대
▁붙이
▁5000
ock
▁보드
▁성벽
▁꼴
▁수신
▁전장
▁친선
▁저기압
▁피난
▁룬
▁다룬
▁152
▁찾아가
로운
▁로고
▁조용
▁들어와
▁행진
▁짙
▁프로세스
▁전진
ck
▁미하
▁문재인
▁복소
▁회수
▁테일러
▁상상
▁염색
▁달아
▁악마
▁신전
▁157
▁시외버스
▁쏟
▁고사
▁구제
▁자손
▁취약
▁폴리스
▁전문학교
문관
▁비극
▁카시
▁연구자
가루
▁미스터
▁관념
혁명
▁과목
▁MP
▁대외
▁지분
▁얼마나
▁급진
▁뿔
▁장성
▁유년
▁준공
▁한강
▁할당
▁금성
▁빌헬
▁동남아시아
▁유출
▁곁
▁어릴
▁루터
▁무효
▁밀양
▁창업
▁쇄
창기
▁관현
▁마찰
▁번뇌
▁식당
▁퇴각
▁파스
▁독립운동가
▁믿음
▁일화
▁적대
▁제휴
▁해임
외선
▁루수
▁고개
▁메가
▁힌두
▁신칸센
▁응답
수수
▁가질
▁히스
▁가즈
▁국어
▁히라
▁승차
▁에티
12
전자
▁장인
▁하버드
포스
▁김용
▁카나
▁j
일드
▁서독
메르
▁나미
▁상류
▁물러나
▁이순
니스트
▁성균관
▁소금
▁희극
▁프로토콜
▁연루
▁105
산군
▁매출
델피아
▁필라델피아
▁PS
▁동위
▁중점
▁소총
폴리스
▁외무
▁충족
▁패전
▁휩
▁소닉
하르트
▁1500
▁3000
▁노드
▁성전
▁소지
악단
▁박영
▁저택
▁항공모
자와
▁니아
▁이노
▁125
▁MC
▁와인
▁청사
▁우정
▁1911
▁가라
▁매개
▁146
▁오클
▁남인
▁아즈
▁자고
원숭이
▁예배
▁흩
▁Le
▁추모
▁단점
▁성모
▁제트
▁편곡
▁조언
▁참가자
팩트
▁봤
▁얇
▁서서
▁주권
▁하마
▁술탄
▁여수
▁원나라
▁보잉
▁천사
▁남양
one
▁개원
▁민국
▁환원
ML
▁강사
▁증후
▁우주선
▁법령
▁Pro
▁포장
▁153
▁단원
네이
▁반격
▁착공
▁패스
▁초창기
▁회계
▁됐으며
▁고무
▁회화
▁곳곳
▁환상
▁자책점
라트
▁고원
▁윌슨
▁회견
▁지지자
오리
ime
▁내내
▁나열
▁여진
▁카자흐
AP
▁유언
서양
▁배구
▁일렉
상스
▁눈물
▁연인
▁조르
▁셈
▁리메
▁별자리
고속도로
▁점프
▁친척
▁카트
▁미얀마
▁빌헬름
▁이복
▁지목
▁특유
▁여래
▁103
▁닭
▁고베
▁근접
▁두드러
▁내지
▁따위
▁후자
OC
▁개업
▁소관
▁떨어졌
▁출입구
▁인격
▁디비
제프
토시
▁석가
▁순천
▁기장
▁못해
▁양상
▁일관
▁민사
▁대답
▁없애
어리
▁공략
▁사지
▁오디오
▁진리
▁채무
▁유해
▁최적
▁한데
▁북동부
▁비틀즈
▁정치가
▁룰
▁삿
▁공인
▁강수량
노리
▁우편
▁인형
리언
▁위장
▁컨트롤
te
즈카
▁이원
▁협동
▁보충
▁실종
▁여의
▁이이
▁이글스
▁클린
▁토크
▁나리
▁얘
▁매력
▁중장
▁해역
동물
소스
▁허브
▁사로잡
대군
▁공자
▁항공모함
▁취재
▁베르크
기니
▁매사
▁게재
▁선원
▁주파수
Pa
▁레전
▁증후군
▁사우디아
▁나고
▁ISO
▁약한
▁카타
▁155
▁떠난
▁상자
▁토리
▁오렌지
▁별개
▁사가
▁굵
▁전례
▁갓
받침
▁미소
▁버튼
▁민영
▁유격
▁이영
▁테스
▁아군
▁시립
항공
▁각기
▁발해
▁합법
▁트라이
▁겸임
▁사물
▁호칭
▁르네상스
▁승무원
▁각본가
▁#
마사
▁금액
▁법무
▁중종
io
▁Con
▁배틀
▁스터
▁유교
▁담배
▁스파이
노프
▁연도
플러
▁Bo
▁즐기
▁이인
▁지나가
▁격렬
▁동등
▁평행
▁아리스
▁성주
▁캐스팅
▁108
▁히데요시
▁아바
▁아케
▁밭
▁모으
▁자발
때로
▁사다
▁일족
▁캠페인
시온
ber
▁상장
▁생일
▁이바
▁컸
▁가르침
▁포수
▁고체
▁옴
▁세균
▁레이저
▁서해
▁어두운
▁에이스
▁이슬람교
▁치세
▁하얀
▁전두환
▁영동
▁나고야
▁생명체
▁일찍이
▁드라이브
pe
▁IT
▁앞면
▁해운
▁복장
▁에디
▁퍼시픽
▁감지
▁거슬러
▁서서히
▁고발
▁콜라
▁화살
▁시청자
▁토요일
▁브래
▁때때로
시티
퍼니
▁만세
라이트
▁상대방
모어
▁궁정
▁외곽
▁하우
▁사우디아라비아
▁헐
▁메타
▁야간
▁골프
▁연혁
▁호세
▁교단
▁마친
▁추격
▁가계
▁교장
▁1909
▁향후
▁이사장
▁트럼프
▁쉐
▁최저
▁박탈
▁어드
▁홍수
▁트위
▁크리스마스
ge
▁건의
▁무려
▁상부
▁입상
▁아우구
베이터
▁하인리히
라미
러미
화점
▁기금
▁김영삼
행위
▁꾀
▁펴
▁방침
▁속성
▁유니폼
구장
▁김태
▁일생
▁개찰구
▁전함
▁외국어
산리
▁긴장
▁초연
칠리아
산면
▁발현
▁앙리
▁중재
가타
▁전도
▁단기
집합
▁튼
▁명의
▁수성
▁128
▁레전드
▁다중
▁톈
▁건축가
▁개관
▁물자
▁네이버
람회
▁남긴
▁슬라
▁피고
▁끊임
▁149
▁사이버
▁하이드
▁부착
▁트루
▁102
▁자마자
▁대주교
▁송나라
▁포도주
▁보스니아
▁세미
▁남한
▁전대
▁제작자
▁Bl
▁조리
▁운동장
▁텍스트
▁GT
▁섭취
▁안장
▁정밀
▁캄보
▁아미노
▁존중
▁팽창
▁유소년
▁주지사
▁취지
▁고가
▁대군
▁짜리
▁셸
▁굉장
▁직책
다드
▁에스파냐
▁기수
▁예시
▁발원
▁기다리
▁자유당
▁향한
▁숭배
▁컬러
트릭
▁포괄
▁지나치
▁계절
▁여주
▁토스
▁중국인
▁객관
iz
▁딩
▁물러났
▁안드레
▁강경
▁향교
▁원자로
리즘
붙이
▁키프
▁시오
▁입체
▁후안
DP
먼드
▁오키나와
▁고래
▁문양
▁팔레스
우라
▁계몽
▁촉구
▁병역
▁차남
▁낙선
▁사절
orld
백과
▁탐지
▁블루스
▁최소한
age
▁서사
▁동독
▁수평
▁통칭
▁태생
▁룽
▁턱
▁토마
▁음원
▁청장
▁스릴
▁손가락
▁수군
▁추상
▁CPU
▁대니
▁로프
사기
▁경과
▁센서
▁에우
▁디스플레이
▁$
▁볼리
▁패하
▁뉘
▁갑작
▁북방
수엘라
▁뢰
▁머신
▁원하
▁정말
▁그랑프리
▁리메이크
▁겔
▁둥근
▁아미타
▁프랭크
▁조반
석기
▁무죄
▁진군
차례
▁끌어
▁명목
▁시그
▁심의
▁충주
▁침몰
▁147
서리
▁김진
▁효력
노부
▁마하
▁어업
▁팜
▁엘리베이터
▁난민
▁마비
▁버린
▁엔지
▁왜성
▁저명
▁협조
▁127
▁171
▁건너가
▁제곱
▁종결
▁알코
▁hPa
▁김재
▁죽였
ik
▁경부
▁원고
▁후일
▁타이거즈
▁대처
▁수렴
▁스핀
▁노란색
▁로맨스
▁1915
▁모스
▁수동
▁트윈스
포트
▁베네수엘라
다고
▁라파
▁신흥
▁투르크
▁윌리엄스
보기
▁반박
▁부천
▁케네
▁세계관
▁추증
▁언론인
자스
▁달린
EN
▁분광
▁주축
▁도라
▁재미
▁휠
▁김수
▁전성기
▁1913
▁코프
▁그동안
와라
▁동년
▁북구
▁옥스
▁타르
▁이어받
▁부과
▁창시
▁풍경
▁시공
▁인재
▁문학상
▁언제나
▁테니스
▁프레스
▁보리
▁황해
▁이민자
▁나가사키
▁al
▁개미
▁공직
▁기습
▁탈환
▁상당수
▁닿
▁따뜻
▁출토
▁원반
▁위키백과
▁천문학자
기지
▁동력
크리트
▁가져왔
▁께서
▁창건
트리올
▁몬트리올
▁넨
▁SP
▁둘러싼
▁동당
▁차종
▁청원
▁강과
▁광년
▁아폴
▁Tr
▁아사히
▁네이션스
▁결선
▁미쳤
무기
▁섭정
▁북서부
창군
▁대역
▁링컨
▁별칭
▁이틀
▁169
▁캄보디아
▁버려
▁스파르타
▁팔레스타인
sp
▁둘레
▁바흐
▁어요
▁주차
▁걱
▁정무
▁동래
▁유수
▁아이템
▁대포
▁태수
▁라이언
▁식별
▁적자
▁고백
▁나주
▁유연
▁든지
▁수령
▁대제
▁카탈
▁에다
▁이진
▁도호쿠
자치도
▁전한다
▁제주특별
▁제주특별자치도
▁온천
▁차기
▁가르쳤
포구
▁풋볼
MS
▁광부
▁신세
▁사회학
▁자기장
▁1895
선거
▁언더
▁후대
▁비문
▁총괄
▁북위
▁지폐
네스코
태우
▁그로
▁영리
▁무제
▁번영
▁베어스
▁남원
▁리버풀
▁NC
▁135
▁141
▁초상화
▁한동안
▁장학
▁폐위
▁후세
▁다운로드
리에
▁부른
공신
▁날짜
▁대위
▁멈추
▁어스
명사전
▁무상
▁양주
▁총선거
▁교원
▁풀려
▁거느리
▁십자가
▁하부
▁111
▁법제
▁삼진
▁조달
▁아틀레
▁해병대
▁탤
평군
ust
▁바실
▁여파
그라드
▁서울대
▁수용소
벌레
▁휴전
키지
▁소환
▁관람
▁국사
▁다녀
▁소실
▁첨가
▁중소
▁컴퍼니
▁기요
▁원내
▁장미
▁제수
선스
▁위임
▁144
▁CE
▁오빠
▁드라
▁명백
▁미즈
▁서머
▁중순
▁신중
▁카리브
▁CO
▁걱정
▁인산
▁파업
박쥐
▁정전
▁천도
▁119
▁모방
니치
▁의상
▁이광
GC
ep
▁덤
▁불편
▁휴식
▁버린다
▁신학자
▁리어
▁여겼
▁충실
ib
▁민회
▁스릴러
▁더글
▁당일
▁고민
▁김포
▁함유
ian
▁내외
▁다니엘
▁스티브
▁문화방송
▁지냈으며
▁선구
▁쇼트
루션
▁왓
int
▁루시
▁TO
▁도스
▁실전
▁요르
▁TH
▁귀중
▁지능
▁172
▁두루
라이더
▁아레나
▁컬럼비아
▁캉
▁드럼
▁소통
▁장난
▁해수
리케인
케이션
▁시나리오
릴라
푸스
▁교양
▁연세대
▁엔지니어
▁써서
▁케이스
▁고인
▁관통
▁자랐
▁신학교
그로
▁총사
▁라이선스
▁간호
▁평야
▁허리케인
▁It
▁바꿔
▁스러
▁넘어가
▁슈트
▁외교관
▁공모
▁바퀴
▁병조
▁오세
▁정렬
▁증진
▁스페이스
누엘
ome
▁김상
▁선종
▁할리우드
▁꽤
▁좌절
▁항소
ire
▁며칠
▁신탁
말라
▁배신
▁신기
▁초과
▁아이슬
▁유니버
▁카이사르
라리
▁격투
▁미토
▁약칭
▁총대
▁테레
▁편리
▁106
▁유네스코
페르
▁We
▁마인
▁베드
▁연패
▁진짜
▁껍질
▁아벨
▁NBA
▁마이너
▁매카
▁미주
▁우연히
▁영남
▁영장
▁평범
▁케네디
▁룡
▁쿤
▁공채
▁바치
▁에버
▁인연
▁그루
▁낱말
▁콘크리트
▁그렸
▁서남
▁역설
▁표명
▁구조물
시로
▁장려
▁가벼
▁겸하
▁바이오
▁보완
▁승점
▁의의
▁에스토
▁마츠
▁지혜
▁평일
▁아이슬란드
▁멋
▁공의회
▁구이
▁도주
▁실린
▁느낀
▁부재
▁중량
▁니콜라
▁돌연
▁등재
▁애덤
▁콰
▁열대
▁차이점
▁닷
▁고수
▁누군
▁업계
▁들어온
치오
▁오비
▁제갈
▁묘역
▁합창
▁해변
져서
▁애틀
▁전압
▁탱크
▁포격
블로
▁공단
▁몰려
내셔널
▁인터내셔널
▁훔
▁부채
▁쓰인
▁우울
▁입지
▁치열
▁책임자
▁양도
▁장안
▁한성부
▁도르
▁잦
▁발트
▁우라늄
▁단식
▁배터리
▁나스
▁레바
▁친일인
▁파이어
▁황태자
▁친일인명사전
▁오사
▁방패
▁생전
▁들어왔
▁프랑수아
▁도왔
▁바리
▁첼시
나리
ere
ude
▁로열
▁마약
주의자
▁일어날
▁바라보
▁스페인어
세츠
실록
▁봉쇄
▁쫓겨
▁라이온즈
▁교외
▁파장
▁횟
▁쉬운
▁투르
▁에스토니아
의자
▁불명
▁통근
▁매사추
▁냄
▁동문
▁호위
▁매사추세츠
▁신속
▁호프
▁암석
▁주행
▁협주곡
▁대전광역시
유행
▁HT
▁상담
▁오피스
▁기어
▁난다
▁다항
▁사슬
▁상서
▁재위
▁충북
▁어울
▁일조
오피아
▁리비아
▁에티오피아
ide
▁치즈
▁하락
▁닝
▁DC
▁개그
▁낭만
▁유동
▁슬로바키아
ment
▁생식
▁신생
▁여지
▁탈당
▁밟
제리
▁고령
▁김기
▁시흥
▁어휘
ace
▁나쁜
▁오노
▁지선
바이잔
▁CON
▁특집
중국
▁청하
▁추세
▁해소
야시
▁".
▁대웅
▁서정
▁위탁
▁중심부
▁물리학자
▁응원
▁명제
▁소유자
▁우루과이
▁끓
번스
▁시선
IM
▁가면
▁기인
▁추출
▁현금
▁육지
▁무거운
▁돌리
▁바른
▁조연
▁아제르
▁중추원
▁햇
▁친왕
▁평택
▁실시간
▁퍼센트
▁닛폰
▁도루
▁의뢰
▁출처
▁병행
▁호기
▁아제르바이잔
▁숨겨
▁얘기
▁패키지
▁국무총리
▁객체
마드
▁성운
▁시초
▁보일
▁즈음
▁바닷
▁바스
하면
▁극동
▁부적
▁창고
지리아
▁노부나가
▁나이지리아
위원
▁브라우저
▁바뀐
▁순회
▁지류
▁136
▁박해
▁전라도
▁벗어
▁신념
바다
▁구도
▁빠졌
▁쌍둥이
▁휴스턴
▁1916
▁포터
▁구호
▁세션
▁입당
▁작센
▁결혼식
▁이사회
▁고소
▁148
▁끌려
▁동상
▁우세
▁허리
▁페르난
석탑
▁실리
▁의약
▁중위
▁딕
▁막내
▁신규
▁내린
층석탑
▁IBM
▁리틀
▁말리
▁워드
▁스튜어트
▁솜
▁수습
▁자아
▁깨달
▁실장
▁펌
승지
▁격퇴
▁애틀랜
▁되게
▁해적
▁서재
▁저하
▁급격히
▁산림
▁안성
▁거론
▁냉각
▁분당
▁이세
▁138
시피
▁경연
▁극히
▁백색
▁아마도
▁면허
▁도장
▁만남
▁원숭이
▁LP
▁성숙
▁한지
▁해밀
▁라이브러리
▁la
▁시즈
▁시칠리아
드리아
▁대의원
▁앓
▁가동
▁산다
▁인플
▁택시
▁내려가
▁신한
▁모른다
▁삼국지
▁데이비스
▁전념
타로
▁반감
▁탐구
▁백화점
▁후쿠시마
▁회고
▁감리
▁동점
▁주이
▁평원
어버
▁비리
▁대표작
▁테이블
▁이식
▁최상위
아이
▁반경
▁사헌
▁현종
▁360
▁솟
고쿠
▁미라
▁코무네
▁환영
▁게르만
▁도미
▁리우스
▁스톡
▁전했
▁할지
▁라트비아
람쥐
▁최악
▁토성
▁한스
▁한쪽
▁횟수
푸르트
리니
▁고성
▁치명
▁혈통
▁모니터
양함
▁붙였
▁오해
▁반도체
▁중성자
대신
▁구릉
▁후한
▁내보
토모
▁En
▁사우루스
▁뭉
데시
▁트래
▁104
▁그램
▁야구장
▁영의정
▁페르디
▁부당
▁피에
▁후방
타나
▁가짜
▁성체
▁오바
▁잡아
▁칼라
cl
▁그날
▁실려
▁산란
▁나타낼
▁공천
▁리라
▁상공
▁임용
▁주가
▁춘추
▁치러진
▁아부
▁재현
▁정한
▁플랜
▁거행
▁복선
▁레논
▁음료
▁잔류
▁치아
▁순교
▁사헌부
▁거제
▁여당
하시
▁성취
▁팔라
베르토
▁대학생
브레
타고
▁일러
▁춘천
래스카
▁갑작스
▁여겨졌
▁AK
▁시바
▁109
▁다스리
▁방송사
마쓰
▁비시
▁주주
▁증대
▁힘입
▁Mar
▁명령어
스틴
▁스트레스
▁릉
▁견제
▁나비
▁이를
▁피츠
회장
▁루프
▁우위
▁폭행
▁보인
▁왜냐
▁적분
▁품종
▁현저
은색
▁폭동
▁교황청
▁맵
▁차장
▁이에야스
여래
▁고치
▁목판
▁한인
▁열정
▁제독
▁축적
▁새겨져
▁공수
▁플라이
▁눌
글리
▁매입
▁아홉
살이
▁AR
▁CS
▁송시
▁123
곡리
▁주역
▁축하
▁육체
▁이윤
▁정점
▁별다른
▁몰아
▁분비
▁수련
▁하워드
▁호랑이
▁킥
▁카자흐스탄
▁다발
▁사모
▁이케
▁터치
▁충전
▁광학
▁아담
▁모이
▁억압
▁통증
▁히어로즈
▁매달
▁법조
▁주름
▁해명
권자
헤이
▁기적
▁바나
란히
▁소매
▁연합회
▁공산주의자
차기
▁관구
▁다이아몬드
AL
은이
▁경관
▁래퍼
▁팡
▁신조
▁요하
실베이
실베이니아
▁펜실베이니아
▁고장
▁관해
▁광물
ies
▁Op
▁드로
▁암시
▁규범
▁처녀
더슨
▁벌금
▁청춘
▁사업자
법인
포드
▁못할
▁히메
▁부르크
▁생산량
▁리우
▁상용
▁관해서
▁마야
▁남동부
바시
▁목재
▁베스
▁존속
▁상점
▁컴파
▁CC
▁나눌
▁염기
▁143
▁소나타
▁태양계
▁살리
▁펑크
▁상반
▁박람회
▁자민
▁헤라
▁돋
▁너비
▁아예
▁무지
▁블로그
▁가죽
▁제프
▁티스
▁경상도
▁동아일보
▁성사
▁신주
브리지
▁공습
▁덧붙여
▁보석
▁사육
▁신약
▁이화
▁공관
▁노바
▁롤링
▁적당
▁분기점
▁종로구
▁이소
▁평의회
ile
▁국소
▁부설
▁요건
▁조세
▁토모
▁라오스
▁가군
▁김경
▁부제
▁조선일보
▁운하
▁태권
▁친일파
▁비자
▁우유
▁유로파
▁근교
▁레일
▁왜곡
▁블라디미르
▁헤비
▁알코올
▁엿
▁상단
▁서진
연합
▁이타
▁허위
▁황실
▁누가
▁동국
▁누군가
▁나트
▁날씨
▁공익
▁맥락
▁몰리
▁비유
▁RNA
▁늘어났
▁범인
▁설탕
▁통영
▁경보
▁마디
▁모았
▁협박
산동
▁소셜
▁유죄
▁굉장히
레기
▁Pr
▁뜨거운
▁트위터
▁상사
▁화해
▁확신
▁col
▁시골
▁제재
▁끄
수리
ite
▁누나
▁대폭
▁원했
▁인체
▁112
비나
▁인문
▁쳤
▁성단
▁신민
▁플러스
▁드문
▁장거리
▁전자기
▁Te
▁맥주
▁카롤
▁브라더스
▁미르
▁미션
▁루이지
▁흠
▁깨닫
▁구출
▁달했
▁왜냐하면
xt
거진
▁누이
▁우승자
▁아랍어
▁중의원
▁카를로스
▁갇
기업
▁성별
▁포럼
▁법무부
▁양키스
▁시베리아
▁CF
▁근원
▁빠진
▁경찰청
▁키프로스
▁믹스
▁나르
▁보증
▁연쇄
▁히사
도리
의장
▁창원시
▁떨어
▁실체
▁필터
도바
▁속했
▁126
▁이순신
▁거북
▁느껴
▁자선
▁개교
▁당주
▁언니
▁우호
▁107
▁단단
▁수법
▁핸드
▁이산화
스부르크
▁교과서
▁탐사선
랑카
▁가마쿠라
▁117
▁SE
▁세라
▁신선
▁시어
▁구축함
▁결함
▁탐색
▁거울
▁다크
▁소원
▁일방
▁입원
▁희생자
()
고래
▁빈곤
▁후사
▁냉전
▁양측
▁드러났
▁릿
▁인명
ath
▁이긴
ound
▁곡인
▁조종사
ft
단체
▁드레
▁몰래
▁제니
▁is
▁천장
▁KIA
▁공방
▁투옥
▁샘플
▁수색
▁이브
▁후궁
▁할머니
그레이드
▁지평
▁교정
▁이경
▁게스트
▁살아가
▁빌려
▁350
▁수용체
▁받아들였
▁제대
▁삼층석탑
▁업그레이드
▁퐁
▁문예
▁네스
승부
▁승계
▁송시열
▁철회
▁com
▁고속도
▁도마뱀붙이
OL
▁찾아볼
다지
▁신시
▁물리치
▁칭찬
▁그만두
▁통틀
▁핵무기
▁데모
▁말씀
▁줄무늬
▁클라우드
▁결코
▁성도
▁을지
▁판본
▁대웅전
▁생겨났
▁삼성전자
크라
▁IM
▁상표
▁진공
▁맘
갈색
▁도청
▁극장판
▁근로자
▁테이프
▁옆면
▁요약
▁워터
베니아
▁아카데미상
▁담겨
▁일가
▁내려오
▁라이너
▁일반인
▁CR
▁담긴
▁세속
▁173
▁헥
끼리
ond
▁문구
▁요동
▁키우
▁해고
▁고고학
▁사생활
▁연합국
나스
수소
▁궁극
▁방화
▁121
▁알제리
▁Am
▁LC
▁스캔
▁진급
▁포병
▁브로드
▁다룬다
▁슬로베니아
마루
▁그냥
▁멜로디
▁화장실
▁항쟁
▁113
▁137
▁킴
▁가축
▁김현
▁만일
무스
▁구해
▁펠리
▁기업인
시타
▁떠올
▁치안
▁1894
박스
▁나눠
▁대명
▁뒤집
▁비르
▁약력
▁공백
▁레온
▁바우
▁왔으며
조부
ory
▁타당
▁빨간색
▁프랑크푸르트
ov
▁기다
▁힘든
▁몬스터
▁지미
▁카카
▁게이지
▁캐시
▁시뮬
▁최강
▁도미니
▁바티칸
▁갈릴
▁말년
▁제인
▁z
▁무어
▁왕복
▁초월
▁둥지
게이머
▁바오로
▁프로게이머
축구
톨레
▁SU
▁럼
▁붐
▁농림
▁야쿠
▁용병
▁원전
▁오프닝
▁총독부
▁코스타
규모
man
▁미키
▁일컬
▁피오
리안
▁계정
▁적도
▁물려받
▁공민
▁구절
▁옵션
아프리카
로이
▁거쳤
▁띤다
▁상해
▁사상자
▁야마토
린스
▁군정
▁혈관
▁기질
▁더니
▁로우
▁먼지
▁서민
▁크리스토퍼
대기
블리
▁필리프
▁대피
▁학명
▁남서부
▁사쿠라
지붕
▁주어지
▁최대한
▁커뮤니케이션
▁가루
▁내정
▁학계
▁World
퍼런스
iver
▁가장자리
▁극심
▁즉각
▁횡단
▁뒷면
▁욕구
▁곤란
▁정세
로니
▁그랜
▁돌격
▁성문
셰비
▁개종
▁외모
▁124
▁로이
▁부딪
▁국내외
▁침투
▁독일인
▁배후
▁모친
▁자비
▁하동
▁1890
▁관세
▁평정
▁파이널
▁셨
▁On
▁우파
▁체크
프레스
▁탤런트
▁서초
▁프로덕
▁강서
▁미루
▁브리지
▁New
▁땃
▁자오
▁제압
▁트로이
줄기
▁데르
▁이드
▁계열사
▁분명히
▁오리콘
▁므
▁슨
▁EC
▁러시
▁풍자
▁붙인
▁드라이버
IP
▁오라
▁징계
▁초록
▁자연수
▁륙
▁감자
▁내주
▁디렉
▁체조
ich
▁관음
▁챌린지
▁땄
드르
▁be
▁그치
▁봉건
▁설화
▁SD
▁vs
▁매매
▁선비
▁부작용
▁뉴턴
▁정변
▁줄여서
▁쾌속
지스
▁괴물
▁예조
▁114
▁검찰청
▁블랙홀
▁들어간다
▁미노
▁베니
▁연이
▁유저
▁소규모
▁맑
▁발라
▁정주
▁베네딕
▁플래시
▁대거
대원군
▁방사선
렉스
ial
▁공감
▁그대
▁김정일
▁매니저
▁알루미
▁영산
▁태극
▁코믹스
▁이어진다
▁빔
▁자음
▁아랫
▁컨셉
▁태그
▁학업
▁안토니오
먼스
▁경신
▁이준
▁따른다
hn
러드
▁은데
▁퇴임
▁파인
▁고쳐
▁캔자스
▁답변
▁시정
▁지침
▁군중
▁양호
▁요정
▁팔리
▁컷
황후
▁Sc
▁어미
ign
▁가드
▁에미
▁조부
▁중형
▁악단
▁운수
▁자택
▁115
▁구스타
▁벵
▁김규
▁스칼
▁앵글
▁이남
▁118
▁시위대
저지
▁비로소
▁통치자
▁로그
▁연승
타리오
조건
▁공조
▁세이브
▁윤치호
▁`
▁체스
▁원로원
TS
▁과반
▁비주
▁하프
▁변이
보르
▁심해
▁진사
▁일리노
▁취업
닐라
▁대부
▁생체
▁깎
▁남미
▁종착
▁주부
▁일리노이
▁믹
▁나올
▁어긋
▁용이
▁키르
▁혜택
▁크리스티안
하루
▁동정
▁증손
▁하르
▁헬리
▁무승부
▁우즈베
▁땃쥐
▁지인
▁경찰관
▁승부차기
▁구와
▁재상
▁카우
▁커널
▁흔하
▁1898
기념
문트
▁숙청
▁퍼지
▁뉴저지
▁레바논
▁팰
▁마력
▁만료
▁힌두교
▁꿀
▁남구
▁반해
▁기각
▁밝기
▁본국
마이오스
▁GP
▁극작
▁맥도
▁서자
▁종속
▁미하일
▁소방서
▁모로코
▁소모
▁밀집
▁외관
▁파란색
교도
함수
▁GS
▁미세
▁헬기
▁바빌
바닥
▁순조
▁축출
▁통보
▁뇌물
▁우측
벨트
▁어렸
▁한족
▁III
▁반지름
▁살펴보
▁스폰
▁전년
▁직면
▁코카
▁필사
▁성리학
▁왕세
▁이끈
▁연예인
▁웨스턴
▁체코슬로
▁체코슬로바키아
▁렐
▁선도
▁리뷰
▁사적
▁희귀
▁쯔
미사
히코
▁였음
▁예고
ph
쟁이
▁관제
▁웹툰
▁레슬링
▁스크립
▁그레고
▁디비시온
▁프로덕션
시즘
▁부스
▁지우
▁케빈
▁범유행
속기
▁기증
▁호출
▁가옥
▁배수
▁척추
▁천재
타니
▁서신
▁지출
▁케냐
▁129
▁시가지
▁무성
▁카디
▁젊은이
레타
▁나눈
▁날아
▁발급
▁종래
▁대변인
▁의약품
▁알루미늄
▁광해군
틱스
화물
▁말미
▁패럴
▁화력
테르부르크
▁맏
▁모나
▁승자
▁임원
아키
▁파산
▁페널
▁외야수
▁로비
▁발병
▁봉안
▁Ne
▁스타리그
▁옳
▁센티
▁재혼
▁컴백
▁개막전
▁닦
▁등기
▁어른
▁워크
▁중산
▁창출
▁실망
▁응시
▁켈리
▁폭넓
▁핑크
▁달한다
치기
▁난징
▁1899
▁벨라루스
▁글루
▁원천
▁부의장
▁어려워
▁사위
▁재선
▁첨단
▁연산자
▁총사령
▁무명
▁마운트
코딩
▁저주
▁전속
▁중공
▁세이부
▁확실히
개미
그리
▁부피
▁성폭
▁지옥
▁청산
▁케임
▁사용자
▁러셀
▁미들
▁예하
▁토양
▁한테
▁회관
▁흔들
▁브리튼
TA
타리
▁싸이
▁총칭
▁천문대
▁퉁
레아
▁사본
▁장례식
▁키보드
온다
▁기술자
▁플라스틱
니까
rom
▁웬
우트
▁황족
▁유라
▁커지
▁뒷받침
▁극한
▁오오
▁워너
▁스트리
▁바꾼
▁토끼
▁희곡
포로
▁유진
▁ch
▁구할
▁유방
▁각도
▁남작
▁토미
▁감행
▁안테
▁적혀
▁흔한
느러미
▁끌어들
▁괘
▁구경
▁벽돌
▁시범
▁에밀
▁142
▁얹
▁공리
▁양반
▁오크
▁옹립
▁혼동
MA
로우
▁ID
▁가신
▁끼쳤
▁거래소
▁조지프
▁설교
▁독서
▁리프
▁사간
▁소생
▁교통국
▁아리아
ens
▁대치
▁폭포
▁월요일
토르
▁감마
▁만성
▁제국주의
▁대패
▁벨트
▁병기
파이어
▁타임스
▁프란츠
pp
▁채워
▁학기
셰비키
방송공사
진군
▁BS
▁CJ
▁공적
▁광둥
▁채소
▁화자
ction
▁썬
urn
▁신원
▁형조
▁도카이
타주
▁무함
▁정성
▁피겨
▁화상
▁프톨레
▁더글러스
▁프톨레마이오스
▁가야
▁중복
▁룩셈
▁본문
▁시코
lan
▁스턴
▁마르티
▁룩셈부르크
럴드
▁JT
▁김지
▁수분
▁트리플
▁온타리오
▁보위
▁의자
▁Man
▁잃어버
▁쟈
▁체류
▁대서양
▁부여받
ert
▁끊임없이
▁발리
▁제네바
글라
올라
▁마녀
▁시가
▁영문
▁왼손
▁축물
▁청주시
▁밍
브르
▁자크
롤라이나
▁선배
▁금요일
▁스즈키
샤바
▁서류
▁그래미
▁점성술
▁콕
▁서장
▁촉매
▁코시
덩이
▁동네
▁빌라
▁선행
▁정적
▁피신
▁플랫폼
▁게리
▁유체
▁광주광역시
▁익스프레스
▁던져
▁동학
▁1902
▁간선
▁물품
▁발기
▁함정
▁가벼운
▁기사단
천리
▁걸렸
▁명종
▁혐오
▁다항식
▁호르몬
두리
▁간토
▁기차
▁늘리
▁니코
▁포획
▁보이스
▁표기법
▁''
▁가환
▁깃발
▁엔딩
▁정려
▁표적
▁강변
▁국영
▁독성
크로
▁느꼈
▁버드
▁부를
▁우체
▁초신
▁스위치
▁러시아어
▁준결승전
▁몫
그룹
▁그릇
▁이관
▁단절
▁따온
▁영등
▁서유럽
lic
▁사슴
▁정동
▁관광지
▁마스크
▁바깥쪽
▁지식인
▁겁
▁수확
▁약자
▁위쪽
▁타케
▁갈수록
▁코끼리
aw
▁나노
▁메커
▁머무르
▁얽
▁당한다
나우
▁가까워
▁소나무
▁매수
▁기니
▁로라
▁원종
▁해밀턴
▁광명
▁동행
▁세비
▁이겼
▁정립
▁판례
▁참의
▁캐서
▁아이오
ys
ach
▁불꽃
▁연꽃
폴리
▁개소
▁검열
▁면제
▁부가
▁상금
▁슈팅
▁습지
▁이건
▁입각
▁주조
▁나갈
▁대합
▁성지
▁전방
▁조립
▁채우
▁탄도
▁비석
▁하단
▁비행장
▁아돌프
짓점
▁고아
▁대손
▁복용
▁역량
▁기숙
▁마블
▁입국
▁꼭짓점
▁부회장
▁단축
▁보복
▁소시
▁염증
▁퀘벡
▁크롬
▁뮤지션
▁이용자
TC
▁강동
▁실버
▁원료
▁이단
▁헌신
레슬링
▁연기자
카가
텍처
▁갱신
▁산출
▁색채
▁쓰촨
▁울프
▁입성
▁고양시
▁아키텍처
▁박지
▁아산
▁열도
▁하치
▁간단히
LS
타임
▁둔다
▁직결
▁코코
▁1901
▁포켓몬스터
디나
▁No
▁광대
▁브뤼
▁에디션
▁패밀리
구르
▁염색체
out
▁쌓았
▁커스
▁삿포로
▁토착종
▁페널티
▁페르디난
▁들이
▁민감
▁생생
▁임관
▁체르
▁특권
▁폭격기
테인
▁대두
▁스텔
▁쿄
미트
▁단의
▁보트
▁시네
▁드러머
국사
▁극대
▁누적
▁서문
▁압둘
▁축조
▁표방
▁매카트니
LE
그라
▁권총
▁이현
피어
▁공명
▁생략
▁오를
▁제로
▁프로레슬링
링턴
▁둥글
▁어류
▁일산
모스
▁수축
▁천하
▁카미
▁사이토
▁영국인
루아
자르
▁레즈
▁분수
▁리더십
▁요르단
IG
▁공예
▁호모
▁케임브리지
▁김창
▁아라비아
▁라그
▁안경
▁즐겨
▁페니
▁경성부
▁일으킬
▁낫
▁자작
▁바이킹
▁메커니즘
▁울산광역시
▁여운
아웃
일으
▁소말
▁실적
▁도요토미
▁불러일으
ug
▁렘
▁례
▁괴롭
▁아브
▁오쿠
▁정문
▁사회당
▁차르
▁화강
▁kt
▁고산
▁체중
▁하비
▁언어학
▁발렌시아
▁동조
▁보헤
▁원본
▁터보
▁특색
▁패했
▁광저우
▁알렉산드르
▁날카
▁무궁
▁학대
▁쓰레기
▁어려서
▁아리스토
▁아시카가
▁옥스퍼드
▁MB
▁이태
▁그다지
파르
▁비타
▁선동
▁조이
▁갈리아
▁사업가
▁이병
▁조수
▁퇴역
▁노태우
▁장기간
▁트로피
▁홈구장
▁섹스
▁어둠
▁회상
클레스
기스
▁불신
▁손꼽
▁잡혀
▁제치
▁카프
▁토기
▁All
▁개인전
▁파이터
쿠버
펜하
▁교대
▁기르
▁다마
▁크레이
테르담
▁134
▁마우
▁질소
카미
▁연봉
노미야
ype
▁개화
▁현은
라이어
▁방송인
▁두께
▁조형
▁전염병
▁피고인
▁아인슈타인
올로
▁스님
▁원더
▁취항
▁당연히
▁알렉산드리아
▁Cl
▁EX
▁패널
▁THE
▁푸에르
▁무함마드
▁검출
▁공고
▁김제
▁어뢰
ke
대장
▁루타
▁만주국
▁지도부
▁1903
그래
정리
ase
▁공황
▁패한
▁드레스
▁모서리
▁정해진
카타
퀘어
▁리만
▁반공
그레
▁미륵
▁AN
▁가역
▁모모
▁전위
▁좌측
▁토요
▁헌정
베트남
사리
하키
▁강간
▁명하
▁삼촌
▁배우자
▁이성계
▁야마구치
▁노보
▁마키
사이드
▁방글라
▁컨트리
▁1884
▁방글라데시
▁기분
▁아폴로
▁엇
방울
▁구형
▁물가
▁직경
▁파병
▁쓰시마
리코
▁김홍
▁상고
▁잘라
▁와일드
처스
▁Gr
▁각색
▁남매
▁단면
▁에콰
▁취미
▁코믹
▁미시시피
▁에콰도르
▁하리
▁One
도스
천사
▁로저
▁우치
▁인질
▁차가
▁함선
역학
CAF
▁동이
▁정유
▁LA
▁모은
▁슬라브
▁세키
▁회피
▁히타
▁기념관
▁그레이트
▁대구광역시
▁앰
▁실재
▁정선
▁기념비
▁더욱이
▁데카
▁밀란
▁장벽
▁토시
▁1800
▁군산
▁조승
▁복합체
라이언트
▁따왔
가와현
▁신도비
▁아나키
▁염소
▁진전
▁오사카부
▁와이번스
▁발칸
▁의결
▁클라이언트
고스
▁갈래
▁네오
▁준주
▁중령
▁지녔
▁클라이
▁아미노산
불교
히토
▁강대
▁실무
▁우회
▁마르틴
▁프란체
▁히로시
▁중앙아시아
▁구스
▁군함
▁상응
▁상트
▁들어갈
▁프레드
간지
▁농부
▁도널드
▁콤팩트
▁북아프리카
▁륜
▁IN
11
▁경작
▁퇴적
▁티코
▁니콜라이
▁샌디
▁추첨
가르
▁음향
▁}
니시
▁CN
▁간신
▁대문
▁분량
▁무너지
▁조반니
▁밝힌
▁복소수
▁충청도
▁벌인
▁소자
▁유부
▁이북
▁전구
▁진료
▁마르코
▁효고
▁꼭대기
▁되돌아
ree
▁곡물
▁구약
▁도선
▁상가
▁달걀
▁불린
▁카사
번뇌
▁관절
▁비뉴
▁철폐
테이션
▁선우
▁추론
▁팟
사우
▁공약
▁당수
▁무슨
▁심화
▁쥐과
▁소행성
▁일자리
▁기저
▁다름
▁종말
▁갤러리
▁총대주교
파리
▁까닭
▁분출
▁민간인
▁소수자
pt
포터
▁가려
▁가산
▁상경
▁유대교
▁전시회
ary
▁GO
▁한층
▁거짓말
▁데스크
▁방사성
ass
▁가열
▁가오
▁겐지
▁권장
▁싸워
▁전복
▁하차
▁다케다
▁Ad
▁건륭
▁교량
▁러스
▁브란
▁신축
▁용서
▁정화
▁침체
▁득표율
▁카스티
act
▁델타
▁돌기
▁뉴욕주
▁대성당
▁스토어
사업
▁Br
▁대출
▁뒤쪽
▁반전
▁가브리
벤처
산성
▁감안
▁격차
▁프론
▁해남
▁활주
▁흥선
▁with
▁어드벤처
▁강희
▁모리스
▁수목
▁교도소
▁마가
▁막스
▁시야
▁자형
▁진행자
▁일렉트로
구역
▁견인
▁궁중
▁급수
▁냄새
▁불타
▁상법
▁이룬
▁장자
▁으려고
산맥
▁복권
▁살라
▁시킴
▁우물
▁해진다
▁올라간다
▁반군
▁샌드
▁이반
▁116
▁220
▁지지율
▁부드러운
개골
▁등용
▁남동생
▁볼리비아
▁절단
▁창녕
▁칼뱅
▁현감
▁거주지
▁기관총
▁쑤
▁맞붙
몰로지
▁인테르
▁페이스북
▁씌
▁찐
▁깨끗
▁라오
▁카를로
▁1860
ark
▁경인
▁농사
▁민정
▁버마
▁체력
▁폭로
▁스트라이크
▁연대기
▁스크립트
▁글래
▁기슭
▁디트로
▁마카오
▁포스터
▁디트로이트
▁발령
▁접수
기념물
▁버클리
▁줘
▁마니
▁무로
▁애리
▁올드
▁일파
▁새겨진
▁세바
▁1897
▁Ex
▁낙동
▁신정
▁오로
▁중원
▁피치
ream
▁시켰으며
▁홉
곡동
▁후반기
▁나루
▁평창
▁떡
▁단행본
▁중공업
▁카타르
버리
▁대관
▁찰리
▁후작
▁몰아내
▁생겨나
▁가의
▁종파
▁태백
▁모티브
▁홍문관
▁애칭
▁온대
▁사카이
▁일부분
▁가가
▁보성
▁상트페
▁상트페테르부르크
▁벽화
▁아소
▁쿠니
▁타우
▁솔루션
▁북경
▁전격
▁강남구
나드
▁리조
▁장제
▁적군
▁과실
▁동형
▁안산
▁왕정
▁입주
▁아름답
▁캐서린
▁바르샤바
▁랍
▁다를
▁전산
▁학력
▁델라
▁르노
▁브랜
▁미네소
▁속편
▁카즈
▁합당
▁그려진
츠크
푸르
▁느리
▁사살
▁마당
▁수중
▁나간다
▁제작사
▁경제학자
▁애틀랜타
▁셜
바른
▁Is
▁공손
▁돌입
▁서리
▁수료
▁호쿠
▁휴가
▁한국방송공사
▁넘기
▁저렴
▁효종
▁교육청
▁청소
▁팔레
▁공용어
▁클라크
▁섀
반구
▁;&
▁con
▁스퀘어
▁알프레
세기
▁리히
▁무술
▁조인
▁집결
▁가져오
▁유닉스
▁1880
▁신동
▁아닐
▁프렌
▁확진
부리
▁BM
▁노이
▁분파
▁소행
▁이빨
▁122
▁안드레아
푸아
▁고토
▁연동
▁정경
▁쥐속
▁타협
▁마라톤
▁함부르크
니지
▁갑옷
▁보강
▁빈도
▁숙주
▁창의
▁그림자
▁아마존
▁옥수수
▁거처
▁경위
▁청색
스카르
iss
▁김민
▁게릴라
▁이주하
▁일러스트
▁파라과이
▁뻔
피언
▁거뒀
▁메라
▁세네
▁설립자
나미
▁다툼
▁브룩
▁블리
▁을까
▁나란히
▁새로이
▁2022
▁슛
퍼슨
▁고추
▁동요
▁루크
▁막시
▁예명
▁오락
▁천연기념물
UR
▁낚
▁강풍
▁듀얼
▁석회
▁열심
▁유령
▁극작가
ii
▁강철
▁군청
▁두꺼
▁입양
▁진해
▁제조업
으니
케이
콥터
▁ES
▁석불
▁어리
▁이데
▁장원
▁출석
▁133
▁그레고리오
기구
▁어로
▁재해
네시
▁메릴
▁짐작
ake
▁등극
▁용암
▁NGC
▁++
▁이언
▁프롤
▁호응
▁였으므로
▁스노
▁스트라이커
▁엮
▁더비
▁무스
▁살려
▁두개골
▁교육부
▁키예프
▁기성
▁수녀
▁약하
▁원격
▁확고
▁경쟁력
▁추종
▁엘리트
▁이용객
▁도사
▁마애
▁이장
▁지청
▁쳐들
▁해부
▁지방산
▁사무총장
▁흥선대원군
타케
해튼
▁극도
▁번성
▁유스
▁제왕
▁화순
▁주어진다
▁소령
▁안치
▁위생
▁유정
자치시
▁CEO
▁특별자치시
▁대국
▁타지
▁기상청
▁DM
▁봉해
▁빛나
▁연못
▁요법
▁우상
▁워치
▁윤보
▁재난
▁현행
캐롤라이나
▁선장
▁자카
▁콘테
▁그렇지만
▁격자
▁따랐
▁몽고
▁붙여진
▁넌
old
▁아치
▁함양
▁이동하
▁반역
▁이득
▁장단
▁종점
▁진수
▁치른
▁파우
HO
타마
▁가볍
▁결핍
▁심야
▁제리
▁Mus
▁미생물
▁인프라
▁포도당
사관학교
▁결제
▁국유
▁농어
▁대본
▁일괄
▁지켰
▁옮겨졌
GA
▁개항
▁모용
▁자결
▁정관
▁가네
▁니카
▁울리
▁후진
다운
own
▁Ro
▁이규
▁헬륨
▁CBS
▁대지진
▁법정동
▁시뮬레이션
▁프랭클린
▁감동
▁명분
▁야시
▁펜싱
▁파이프
▁스리랑카
▁들려
▁가도
▁스로
▁암흑
▁된다면
▁아스널
▁앨리스
▁위나라
▁자치체
거래
뜨렸
ork
▁도우
▁파문
▁평민
끄러운
▁무궁화
▁샐
렉션
▁성령
▁자생
▁탁월
▁국악
▁앞장
▁겉보기
▁아니하
▁조계
▁아래쪽
▁그레고리
▁툰
미스
▁덮여
▁GDP
에미
▁NE
▁만년
▁문경
▁불행
▁아데
▁정인
▁무조건
▁열린다
lo
멘스
삭스
파크
▁온갖
▁하고
▁대사헌
▁마우스
버러
▁수년
▁스태
▁모터스
▁선거법
▁듀오
▁루비
▁미셸
▁부조
▁132
▁동성애자
▁삼국사기
위성
ick
▁닫힌
▁자르
▁아이스하키
▁PR
▁가타
▁타석
▁쾰
▁시종
▁장흥
▁총무
▁인디애나
▁동참
▁베른
▁속주
▁후속작
▁른
▁낙하
▁리모
▁모인
▁빈번
▁복음서
▁or
▁주화
▁퇴장
스기
원장
▁미친
▁상연
▁조병
▁주지
위원회
림픽
▁상기
▁시리
▁신상
▁정국
▁센고쿠
▁그리스인
▁CONCA
▁글로브
변이
헌영
▁수심
▁시국
▁초원
▁돌연변이
▁보헤미아
Hz
▁대각
▁시애
▁장대
▁표창
▁호족
▁비주얼
▁CONCACAF
▁국당
▁단과
▁매거진
▁헛
미즈
▁제너
라기
▁구니
▁아쿠
▁황도
ence
▁광양
▁현직
브리아
▁대성전
ix
타이드
▁통틀어
clude
메다
운다
▁공파
▁총기
▁기병대
▁국수
▁김병
▁맹세
▁발각
▁이모
▁마다가
마리
▁카바
바야시
▁애리조
▁오클랜드
▁초고
▁pro
▁댓
벨라
▁양육
▁미주리
▁자세히
▁짱
▁SL
▁난이
▁소울
▁저격
▁피로
▁시애틀
▁타이베이
▁합스부르크
할시
▁투항
플로
홀름
▁계시
▁낮추
▁로리
▁재질
공산
▁호의
ance
▁마르크스주의
▁숀
▁앗
▁관동
▁메일
▁페로
▁농산물
▁맨해튼
▁선보이
▁세워져
▁요제프
EM
다르
루냐
테면
▁복식
▁청동기
▁둘러싸여
▁이를테면
▁엥
ear
▁비늘
▁극락
▁아빠
▁티켓
▁소피아
▁볼셰비키
▁패럴림픽
▁감금
▁반성
▁붙여졌
▁우즈베키스탄
어질
▁공표
▁김옥
▁내면
▁민요
▁수교
▁의과
▁활주로
▁1885
▁GN
▁Ph
▁개헌
▁밀러
▁배속
▁이븐
▁포고
▁중앙부
십자
▁리터
▁매직
▁세븐
▁실존
▁즘
▁수염
▁야구단
▁창시자
▁입수
▁퍼포
▁올바른
▁1870
티시
▁바디
▁NAS
▁스폰서
▁세손
▁제동
▁호리
▁오로지
▁퍼포먼스
쩌둥
▁감수
▁생계
▁마오쩌둥
파이
▁일리
▁청자
▁예선전
▁유권자
지오
▁리바
▁머스
▁원심
▁지로
▁우체국
관리
▁un
▁경질
▁왜구
▁대장군
▁To
▁냐는
▁우아
▁240
▁450
▁1871
▁평안남도
▁뾰
제이
▁참사
▁테일
테리아
▁프랜시스
▁돌출
▁벤치
▁하노이
▁네이션스컵
▁쉴
▁중상
▁학설
▁볼프
▁카터
▁꼽힌다
OV
▁관행
▁내성
▁신종
▁전날
▁전단
▁마닐라
▁활발히
irl
▁증인
텔레스
▁갈리
▁유료
▁프레이
▁온다
▁중서
▁청룡
▁편집자
▁맷
▁역도
▁주된
▁중생
▁화랑
lass
면체
▁지성
▁함자
▁해저
▁로렌스
▁쿡
테쓰
▁각성
▁남용
▁뉴클
▁실험실
▁1600
▁평안북도
ild
▁AD
▁반하
▁앞쪽
▁이양
▁수원시
컨대
▁당내
▁콜레
▁파나마
▁USS
▁내무부
▁알래스카
▁분과
▁수인
▁유러
▁줄어
▁출가
▁카니
등식
▁CM
▁고쿠
▁로페
▁생선
▁흉노
▁아리스토텔레스
▁개개
▁시합
▁테라
▁트릭
▁푸르
▁양성자
▁프라하
▁프로리그
▁문고
▁불어
▁위스
▁퍼스
▁빅토르
ection
맥스
ans
▁루카
▁호크
▁다람쥐
▁유치원
▁브레이크
▁감싸
▁상급
▁요지
▁자칭
▁지오
▁휴게
▁알렉스
▁앤더슨
▁일으킨다
▁능선
▁성실
▁다나카
라고
▁구청
▁궁궐
▁줄여
▁박헌영
▁자란다
▁러시아인
사상
▁무척
▁이룩
▁정제
▁퍼스트
▁1200
▁유러피언
▁교실
▁끝났
▁리비
▁이완
▁화기
▁역사가
지기
▁걸린
▁독도
▁부각
▁케라
▁국보
▁다투
▁조광
▁친분
▁케인
▁아무것
▁올림피아
▁멍
으로
▁조례
▁왕세자
▁올랐으며
▁Sy
▁동로
▁경영자
▁잡아먹
▁케이프
▁시중
▁칼럼
▁동유럽
▁반란군
▁오른손
▁오미
▁신문사
▁마다가스카르
▁글러
▁려던
▁사쿠
▁차용
▁초빙
▁동물원
▁only
▁구마모토
메스
체고
▁돌보
▁서산
▁재외
▁지쿠
▁김정은
▁루돌프
▁시달리
체고비나
무소
▁섬세
▁성화
▁이방
▁EBS
▁레이싱
▁앤드루
▁몸통
▁한미
▁미군정
▁강령
▁징병
▁평형
▁부드럽
▁봉수
▁약혼
▁MTV
▁공민왕
▁다저스
ivers
▁뉴클레오
ish
▁경시
▁김원
▁농경
▁메카
▁칙령
▁통용
▁배려
▁재활
▁밴쿠버
OD
▁바트
▁송도
▁신발
▁통역
▁윤보선
GM
바흐
▁관문
▁수필
▁김규식
▁유년기
▁클레이
▁헬리콥터
▁괄
드슨
환경
▁가솔
▁나인
▁에프
▁영예
▁창문
▁특전
▁동대문
▁레이크
통일
▁전래
▁절망
▁주입
▁탑신
▁하류
▁넘어갔
▁부원군
▁로얄
▁포식
▁예정자
▁경희
▁나우
▁메뉴
▁일당
▁총애
▁정의당
▁친위대
▁Jo
▁독창
▁총통
▁커플
▁비타민
▁성남시
▁크라이
코토
▁보라
▁욕망
▁는다면
▁예수회
▁위너스
▁해리슨
▁남산
▁마술
▁산호
▁처하
▁나타냈
▁리조트
어사
▁NT
▁명소
▁시노
▁카테
▁케플러
▁경호
▁수다
▁시부
▁편제
▁포착
▁호스
▁솔로몬
▁ex
▁검정
▁제노
▁대대로
▁어려웠
토랑
▁담보
▁보행
▁아날
▁안녕
▁찬양
▁하반
▁사각형
▁레스토랑
▁해져
▁도교
▁마차
▁카지
▁제퍼슨
▁컴퓨팅
▁맞대
▁신지
▁유혹
▁파도
▁하키
▁가져온
▁고속버스
RA
▁얕
oun
▁대북
▁모의
▁시몬
▁실정
▁화엄
원수
▁당연
▁뾰족
▁플라톤
매매
▁관청
▁광도
▁모호
▁사역
▁소극
▁소음
▁스가
▁아키라
▁싣
천면
▁남해
▁테리
▁대합실
▁클린턴
▁해리스
▁벅
▁추이
▁브루스
EL
lat
▁가맹
▁어쩔
▁찬사
▁천왕
▁침묵
▁긴테쓰
fe
에스
지르
are
▁수양
▁이겨
▁보낸다
▁보로
▁블레
▁블로
▁최진
▁황소
▁효자
▁스톡홀름
az
신문
아나
▁라서
▁씨앗
▁Fr
▁국공
▁드미
▁불변
▁자제
ical
▁스테파
▁북아일랜드
▁이렇
▁허정
▁서재필
▁오리온
EG
▁다테
▁선천
▁연한
▁방어선
▁알프스
▁요시다
▁가늘
▁김유
▁마켓
▁무실
▁이점
▁바이트
▁아나톨
▁@
지능
히트
▁박종
▁주임
▁캐롤
▁내려졌
▁인공지능
▁sc
▁드루
▁럭비
▁리보
▁폭파
▁개구리
▁리프트
▁총사령관
include
▁도둑
▁수복
블랜드
▁넷째
▁라자
▁만장
▁본성
▁제물
▁분류군
려서
▁색소
▁ABC
▁결별
▁채취
▁타스
▁피라미
▁별세
▁화약
▁그래도
▁보수당
▁아키타
TP
▁":
▁CH
▁스텝
▁어군
▁카피
▁클리블랜드
정원
▁모어
▁엄밀
덴부르크
창호
▁DD
▁전담
▁포토
대표
▁AV
▁고든
▁로버
▁영유
▁원통
▁정거
▁나트륨
▁마천루
▁토스카
▁프린스
▁함경남도
▁전무
▁비밀리
▁투자자
▁구두
▁넘치
▁벤처
▁천국
▁210
▁릴리
▁슬픔
▁쓰여진
▁초신성
▁리사
▁야전
▁퇴직
▁가이드
놀이
라니
▁마셜
▁향했
▁내야수
▁타이거스
▁콘스탄티노폴리스
▁쾰른
▁로드리
▁선구자
▁자치주
▁방콕
▁소중
▁대원군
▁샀
군다
▁극우
▁동향
▁웨인
▁유선
▁제명
▁차출
▁치과
▁서대문
▁알파벳
▁올라갔
란토
사고
▁백두
▁약사
▁정형
▁켈트
카리
▁노론
▁리베
▁메이커
▁로크
▁묘비
▁실권
▁위그
▁안테나
▁추리
▁ATP
▁펌프
▁경전철
▁동시대
▁유아기
▁김형
▁왕권
▁장시
▁천거
▁파손
▁유격수
▁가브리엘
메드
▁종식
▁중합
공산당
▁주차장
▁피아니스트
▁멧
▁삼림
▁아이폰
▁타이어
▁튀르크
FL
대사
▁구실
▁미수
▁플리
▁적외선
▁아름다움
▁봇
▁엣
언스
▁강렬
▁밸리
▁여유
▁우림
▁형질
▁드디어
러지
클레
▁목회
▁야드
▁왕건
▁이의
▁톈진
▁합친
▁헬싱
▁용인시
▁정부군
수스
▁감상
▁모셔
▁안드
암동
휴일
ica
▁감성
▁감찰
▁마에
▁상행
▁스칸
▁임정
질러
▁가락
▁사방
▁유목
▁연극배우
소통
▁간첩
▁그저
▁불참
▁사설
▁잇따
▁친족
▁딥
충류
▁져서
대교
▁매트
▁어찌
해살이
▁콘테스트
▁헤르체고비나
▁구내
▁방치
▁삽화
▁애정
▁마누엘
▁소말리아
ey
캐슬
티넘
▁끼치
▁리본
▁악보
▁죽인
▁준수
▁칸국
▁캐리
▁플래티넘
▁he
▁공존
▁실록
▁절정
▁즐길
와라노
▁연산군
▁프레데
▁의사소통
▁후지와라노
▁고딕
▁산성
▁송신
▁여권
▁연말
▁예약
▁운임
▁사라진
▁스트로
▁1889
▁브루클린
60
▁비엔
▁사탕
▁삼존
▁어는
▁불량
▁슬하
▁외형
▁전전
▁지자
▁직통
테이너
tern
▁간신히
▁나타낸
합성
▁마땅
▁시네마
▁열심히
▁나카무라
▁스카우트
▁니혼
▁모하
▁서임
▁와라
▁치환
▁가솔린
▁화강암
▁늙
▁건전
▁라리
▁러서
▁로트
▁모금
▁본작
▁의류
▁집정
▁쿠퍼
▁기관지
▁두려움
▁목요일
▁발라드
▁가나가와현
들여
▁대영
▁징수
▁무형
▁하시
▁해독
▁AKB
▁말미암
▁메디치
▁브레이
▁엔트리
▁오바마
▁챙
▁강해
▁김준
▁봉화
▁중퇴
▁피지
▁For
▁패트릭
sh
▁댈
망디
▁반포
▁베트
▁사서
▁삼중
▁시크
▁이송
▁처지
▁OST
▁라이더
▁이뤄졌
▁찾아내
난성
▁백과
▁영정
▁취했
▁So
▁나아
바나
▁다윈
▁메소
▁요충
▁뉴캐슬
AF
▁혀
위안
▁모색
▁유희
▁자란
▁토트
▁Com
부로
천동
▁pr
▁격리
▁비야
▁로마인
▁갈아
▁겹쳐
▁금호
▁리옹
▁벌여
▁작물
▁트렌
▁한중
▁해태
▁피라미드
bo
▁싼
가미
▁바꿨
▁볼트
▁은거
▁하야
▁생존자
IL
▁송출
▁호대
▁츄
유예
▁종자
▁항만
▁깜
▁Ma
▁도피
▁유의
▁정작
▁휩쓸
▁기숙사
▁낙동강
▁스타트
애미
▁공소
▁노면
▁비준
▁똑같이
▁Part
▁마이애미
▁훙
▁Mo
▁도래
▁베어
▁요격
▁투여
▁후배
도르프
▁장학금
▁지상파
▁프란체스코
프로
▁수락
▁클러
추부사
▁카카오
교통
부르
▁앙골
▁음운
▁공휴일
▁토리노
▁Live
▁미야자키
풀이
▁김명
▁열강
▁주계
▁중수
▁생긴다
▁일본국
▁자유민주당
▁EU
▁거미
▁비추
▁정종
▁힘썼
▁Sou
▁들어올
에미리트
▁아랍에미리트
▁걸어
▁양심
▁잠정
▁병자
▁의령
▁정읍
▁페트
▁드러냈
▁1848
▁공성
▁반기
▁벨리
▁서태
▁워즈
▁한신
바이트
▁어시스트
말로
▁거란
▁원군
▁천주
▁놀라운
▁여배우
▁튀니지
▁JTBC
▁프랑스인
▁고쳤
▁기이
▁연정
▁광복군
▁프랑스령
▁급여
▁모욕
▁성곽
EE
▁평판
클리드
▁미야기
▁센티미터
▁격추
▁내걸
▁순종
▁암스
▁포털
▁Col
▁유니버설
uc
화문
▁귀신
▁김광
▁인칭
▁자서
마르크
▁에스페
▁티아
▁대리인
▁에이즈
▁보수주의
▁카탈루냐
에몽
▁금산
▁워커
▁레이더
▁마이어
의사
▁교의
▁굴절
▁무과
▁습윤
▁응급
▁익숙
▁탄약
▁대법관
▁대승불교
▁"&
▁랴오
▁만화가
▁무네
▁국제법
▁뛰어났
▁마법사
▁줄기세포
▁캅
▁매킨
▁해피
▁카스티야
관계
▁문집
하이오
▁API
▁검은색
▁여의도
▁레드삭스
▁오하이오
워하
▁쌍대
▁진로
▁코리
▁모건
▁유식
▁교통부
▁사운드트랙
ann
▁류큐
▁배분
▁사쓰
▁평평
▁정거장
▁패러디
거스
▁바지
▁볼로
▁자명
▁우루스
▁지배자
▁니키
▁음절
페스트
▁Time
브로
▁부합
▁줄리
레스트
▁시코쿠
메니
▁EM
▁여사
▁재팬
▁추력
▁혼다
파니아
▁int
나마
lay
▁BC
▁권역
▁수로
▁한림
▁아이즈
row
▁공대
▁공영
▁국한
▁꼽히
▁총격
▁바그너
▁그라운드
나오
▁기전
▁김인
▁댄서
▁때려
▁리카
▁안개
▁여고
▁재일
olog
▁SNS
▁시켜서
워서
ous
▁동진
▁비정
▁점포
▁추억
▁파란
▁대단히
▁레이트
▁부총리
▁정치학
▁하노버
▁아날로그
▁맞춘
▁비토
▁느린
▁비대
▁사민
▁산둥
▁업자
▁명확히
OP
지부
▁검거
▁국외
▁라르
▁로키
▁사수
▁설문
▁치카
▁대니얼
▁프란치
자루
orn
ows
▁고생
▁실증
▁오만
▁방사능
▁가혹
▁도박
▁동산
▁든다
▁지법
현동
▁근사
▁누렸
▁모세
▁종군
▁시멘트
서스
▁GB
▁고로
▁골격
▁절벽
▁제위
▁특화
▁하행
▁커리어
용차
▁그랜트
▁모라
▁초콜
▁졌으나
▁섰
▁우한
▁헬레
프랑크
▁고인돌
▁카메룬
▁남군
▁다치
▁단결
▁대마
▁바꿀
▁방대
▁선명
▁용액
▁클라우
▁문단
▁셀레
▁관현악단
지아
▁경복
▁연립
▁오디
▁케르
▁합치
▁법원장
▁페트로
▁곶
▁국교
▁글꼴
▁Bla
▁어긋나
▁노르망디
시노
정동
▁남방
▁마테
▁부평
▁최선
▁편견
▁시켜야
▁Your
▁맬
▁관상
▁무안
▁범행
▁사림
▁신곡
▁종양
▁타락
▁라인업
▁제우스
버른
제품
▁보령
▁소외
▁항체
span
▁131
▁이뤄지
거지
▁가쿠
▁메스
▁부다
▁황색
▁대나무
▁저지대
▁파일럿
▁onlyinclude
▁GM
▁가중
▁단군
▁하코
▁형벌
▁체인지
▁NASA
▁촛
▁가고
▁간략
▁모빌
▁선봉
▁커서
▁콘솔
메이카
▁정보원
▁자메이카
▁쾨
칼리
▁수식
▁은혜
▁Sch
▁예컨대
▁교부
▁봉인
▁외치
▁중소기업
▁찔
▁선대
▁1883
▁라디
▁라바
▁모범
▁숙부
▁절감
▁영화상
틀리
▁at
▁무작
▁보루
▁재편
▁녕
▁객차
▁김윤
▁속력
▁중엽
▁원산지
센스
토프
▁사학
▁산요
▁유우
▁정반
▁가져다
▁공화정
▁제이슨
▁u
▁기세
▁다우
▁전보
른스트
▁라파엘
▁연구회
▁줄리아
amp
▁리즈
▁야외
▁연희
▁판소리
▁욱
▁가토
▁도키
▁리마
▁서귀
▁접한
▁피리
▁홀리
▁전반기
▁공무
▁기해
▁녹화
▁램프
▁맞춤
▁발상
▁큐브
▁국정원
▁에이전
▁기량
▁코소
▁해치
▁달라지
▁쳐들어
워스
▁SA
▁다듬
▁라기
▁식스
▁엔드
▁유공
▁적료
▁평지
▁플러
▁할인
네그로
▁해상도
▁하남
▁항우
▁ref
▁고분군
▁뛰어들
▁교향악단
▁유클리드
80
▁열전
▁팔렸
▁부상자
▁스칼라
CC
▁기와
▁안방
▁위조
빌라이
▁비서관
▁흐른다
히사
ood
▁Ge
▁분단
▁조교
▁카네
티모어
▁북유럽
▁텍사스주
돌이
들이
ink
▁고의
▁병마
▁안나
▁카마
▁잃어버린
ern
▁꿈꾸
▁너머
▁바쳤
▁스루
▁씨족
▁외래
▁이터
▁이회
▁자수
▁탄자
스트리
▁걸쳐서
▁뫼
▁Or
▁사영
▁온난
▁지석
▁멜버른
▁선진국
▁연장전
▁가우
▁나간
▁밀어
▁상어
▁송파
▁수위
▁약해
▁다이어
▁스캔들
▁Wind
프턴
▁RS
▁간사
▁도네
▁세습
▁콜럼
▁노벨상
▁위구르
▁프로모
▁1882
RT
▁계주
▁지극
▁헤이안
에고
치히
▁OB
▁우산
▁위로
▁통신사
▁대인
▁다이노스
II
▁콥
화학
▁RP
▁고마
▁관례
▁단속
▁요양
ost
▁tv
▁결사
▁달랐
▁족보
▁함량
▁토마토
▁프로그래머
US
▁관악
▁왕궁
▁요절
▁파벌
▁너무나
▁내일
▁대좌
▁동적
▁부교
▁여도
▁천수
▁표정
▁거성
▁단정
▁시안
▁군사력
▁아이언
▁카스트
40
▁루키
▁성원
▁월터
▁유생
▁재래
▁회귀
▁330
▁해안선
▁강행
▁북군
▁사안
▁세요
▁유서
▁주선
▁야마가타
도라
▁배달
▁새우
▁정정
▁최영
▁Day
▁미토콘
▁산티아
▁관계없이
▁미토콘드리아
데라
팡이
협회
▁군데
▁세련
▁장덕
▁내세우
▁고흥
▁그릴
▁급증
▁동포
▁법관
▁정은
▁올리브
▁중공군
▁히브리
▁Girl
▁La
▁내력
▁정월
▁항원
▁기념일
▁영원히
▁파시즘
▁필립스
▁쿠빌라이
융합
▁부왕
▁성동
▁출자
▁협업
▁시즈오카
▁고노
▁느낄
▁랭크
스탄불
▁달아났
▁대상자
▁대표자
▁폐기물
▁미스터리
▁이스탄불
▁덮개
▁아유
▁리믹스
▁몰타
▁부파
▁직속
▁항로
▁독수리
▁사이타마
▁줌
▁서면
▁어파
▁우시
▁우월
▁종영
▁데니스
▁부르주
▁사업소
▁슈퍼컵
▁핵융합
▁효고현
포시
호란
▁상록
▁수열
▁식용
▁몹
▁단말
▁빙하
▁잠깐
▁조셉
▁LED
▁단체전
▁해운대
지리
▁FK
▁남하
▁받들
▁아목
▁조슈
▁지르
▁형편
▁레오폴
▁어울리
▁프랜차
▁호스트
▁컨트롤러
▁렛
게스
서니
▁발동
▁주창
▁무실점
▁냥
여객
▁생겨난
▁지닌다
▁뇨
▁러일
▁소프
▁타수
▁호아
▁후예
오르크
▁4000
▁사회민주당
OT
▁군벌
▁노사
▁맡기
▁보름
▁스콜
▁제천
▁진한
▁비해서
▁테네시
나갔
oll
▁강당
▁넬슨
▁대진
▁산시
▁앞선
▁옮긴
▁증폭
▁켄트
▁피드
▁서사시
▁번창
▁양보
▁1868
▁컨테이너
▁묻혔
▁사치
▁신입
▁태후
▁오스틴
▁오일러
▁아케이드
▁관목
▁규탄
▁버터
▁사천
▁타일
▁떠오르
▁안티오
▁프랜차이즈
▁괌
▁쩐
▁놓인
▁염려
▁위력
▁알아보
▁여성주의
▁교직
▁내분
▁고트
▁금전
▁딜런
▁라미
▁분사
▁양수
▁제단
▁만난다
▁법조인
▁앙골라
▁제갈량
▁휴게소
본부
▁매리
▁전수
▁증오
▁키워
▁메릴랜드
▁쪼
▁과테
▁라카
▁무서
▁성악
▁베이커
▁과테말라
▁능동
▁시비
▁급속히
▁배역
▁오아
▁전세
▁점거
▁퍼즐
▁하의
▁각료
▁농지
▁밀레
▁320
▁경주시
▁파푸아
▁샨
히드
▁국철
▁습관
▁영덕
▁일각
▁절제
▁접종
▁청계
▁로마자
▁접어들
▁가고시마
▁거세
▁공안
▁대도
▁야마모토
▁찢
웨이트
펜하겐
▁new
▁발전기
▁레인저스
▁코펜하겐
▁몬테네그로
▁암스테르담
▁안무
▁저조
▁척도
▁초안
▁축전
▁카세
▁우의정
▁베르나르
바오
▁박성
▁외과
▁정령
▁대명사
▁노후
▁데드
▁생리
▁컨설
▁타리
▁사이먼
▁놈
걸이
게임
▁고온
▁넥센
▁았었
▁우연
▁이항
▁헌장
▁복음주의
▁TR
▁바울
▁우왕
▁이메
▁잔인
▁장병
▁치하
▁요충지
▁지붕돌
▁치러졌
▁산티아고
▁프란시스코
내리
웍스
▁수량
▁정몽
▁종신
▁출동
▁치유
▁편향
▁피할
▁에스페란토
▁후쿠오카현
▁복종
▁피우
▁이바지
▁코스타리카
▁늪
독립
▁DF
▁배드
▁양대
19
▁게끔
▁성산
▁소아
▁주심
LA
les
▁꾀하
▁브릿
▁자진
▁자서전
▁화장품
▁마이크로
▁도상
▁상국
▁서스
▁서주
▁영월
▁루이지애나
▁김선
▁조영
▁차선
▁충렬
▁피핀
▁그만큼
▁서바이
▁신주쿠
▁좌의정
디나비아
▁스칸디나비아
gr
▁사비
▁위촉
▁이아
▁위안부
▁주계열
▁네티
▁샤프
▁슈테
▁톰슨
▁페더
▁end
▁떠난다
▁보여준
▁수요일
▁요하네스
▁쿠웨이트
ung
▁천마
▁헌터
▁결과물
▁포르노
퍼레이션
▁이탈리아어
▁슌
▁끝날
▁위함
▁은신
▁철강
▁동맹국
꼬리
▁소대
▁순차
▁영암
▁자재
▁청도
▁추서
▁흩어져
▁거지
▁리코
▁축산
▁"()
▁텔레콤
▁가면라이더
익스
▁NP
▁정재
토리코
▁도자기
▁에른스트
▁le
▁당할
▁모차
▁직행
▁김옥균
▁서해안
▁결핵
▁고이
▁무언
▁타로
▁피크
▁해왕
라이드
▁김승
▁대청
▁새긴
▁전락
▁카툰
▁하타
▁브뤼셀
▁시트콤
▁철저히
▁갯
▁촐
▁고집
▁대덕
▁문무
▁주성
▁충무
▁부르고
▁Comp
▁육군사관학교
OW
▁톡
공주
우에
▁노아
▁배양
▁압록
▁함흥
▁후유
▁교육자
▁게오르크
▁니콜라스
▁기쁨
▁긴밀
▁대종
▁리튬
▁문종
▁전학
▁준장
▁칭송
▁탈취
▁203
▁데이브
▁유적지
▁컬렉션
▁트리오
▁colspan
니파
▁대차
▁차츰
▁첼로
▁측량
▁초콜릿
▁by
▁레프
▁바비
▁오하
▁코네
로이드
▁데일리
▁케이크
▁푸에르토리코
비크
▁격려
▁낚시
▁높였
▁박상
▁아드
▁원활
▁재발
▁짐승
▁글래스
▁로스쿨
▁도카이도
▁스킴
▁아흐
▁앤디
▁집착
▁기업가
▁1893
셀러
업자
gin
▁Fe
▁공양
▁높여
▁미성
▁었었
▁페오
▁폐렴
▁한큐
▁280
▁가라앉
▁장로교
▁지리학
상시
eth
▁내무
▁온화
▁정했
▁헤로
▁흡사
▁흥분
레드
▁백악
▁조니
▁하급
▁막판
▁선인
▁심포
▁학장
▁아라곤
▁윗부분
▁펠릭스
▁플랑크
▁해안가
▁플로리다주
▁갚
▁관성
▁김치
▁조제
▁나타날
▁생리학
▁지바현
세유
▁영천
▁월트
▁천천
▁IOC
▁어웨이
IR
▁과시
▁도출
▁반동
▁우두
▁스포르
▁유학자
▁천안시
▁가르시아
티에
▁AB
▁가했
▁금동
▁아와
▁유족
▁도야마
몬트
바리
▁도이
▁불사
▁주세
▁침례
▁TBS
▁노미야
▁민병대
▁비스타
▁함경북도
▁핼
▁관우
▁입헌
▁칼슘
루이스
▁논리학
▁왔으나
▁프리스
▁Univers
북구
▁숨기
▁에로
▁점검
▁천천히
▁Rock
▁핏
▁구한
▁까마
▁림프
▁마트
▁심부
▁제철
▁조롱
▁특기
▁탄자니아
계승
▁발목
▁심상
▁애인
▁유영
▁유포
▁한문
▁Rec
▁국제선
▁로베르
▁지켜보
▁부르고뉴
들러
▁간직
▁과잉
▁버러
▁소동
▁아츠
▁이황
▁서초구
▁픽처스
나기
▁기뻐
▁위즈
▁전미
▁Sup
▁게오르
▁다스렸
▁발사체
▁사상가
익스피어
▁가부
▁귀속
▁공방전
▁동맹군
▁셰익스피어
oth
▁겹치
▁상정
▁소사
▁스런
▁우울증
▁하이퍼
▁대주
▁마타
▁버섯
▁심문
▁용품
▁중고
▁녹색당
▁조선왕
▁미나모토
▁참모총장
▁Su
▁구금
▁구치
▁라흐
▁미아
▁세레
▁톱니
▁휴양
▁고려사
▁더블린
▁인플레이션
▁펫
▁공법
▁구독
▁미츠
▁위계
▁재차
▁특사
▁순양함
▁가와사키
국적
▁명인
▁취한
▁쇠고기
▁인공위성
▁IV
▁견고
▁김천
▁무단
▁물결
▁한번
▁도로는
▁서포터
▁수나라
▁카운트
▁중앙은행
태평
▁강성
▁배리
▁웃음
▁청량
▁황산
민스터
▁도르트
▁밝혀진
▁당뇨
▁명부
▁불경
▁아메
▁악곡
▁에바
▁자립
▁장녀
▁파편
▁강화도
▁절도사
▁매끄러운
▁고스
▁라가
▁메틸
▁보낼
▁스투
▁이우
▁취해
▁경계선
▁내린다
▁성매매
▁데스크톱
폭탄
mer
▁시속
▁에마
▁이바라
▁평안도
▁슈타
▁슬램
▁조현
▁직계
▁풍습
▁현판
▁휘말
로니아
▁스탠드
▁차세대
▁박테리아
▁노랑
▁대접
▁소용
▁연회
▁제창
▁230
▁GNU
▁율리우스
그마
▁CG
▁나뭇
▁노프
▁원유
▁주먹
▁USB
▁산스크
▁러시아군
▁상관없이
▁산스크리트
▁Do
▁무르
▁축성
▁코호
▁피사
▁하구
▁다이빙
▁1892
▁달라진다
▁펩
비안
유사
▁견디
▁코사
▁베르타
▁마르세유
▁프레임워크
연수
자동
트르
▁공시
▁끝냈
▁데미
▁라드
▁사변
▁옥타
▁이범
▁장래
▁Car
▁스탠리
▁1888
▁뮐
네임
헤드
▁면모
▁발자
▁이은
▁형용
▁과연
▁산수
▁유무
▁자코
▁재앙
▁합하
▁향기
▁아브라
▁리차
▁시우
▁울릉
▁금나라
▁다면서
▁덧붙였
▁로이드
ublic
▁둘러싸인
▁계량
▁닉슨
▁불계승
▁서기관
▁세비야
▁수차례
▁케이트
▁from
ah
▁푹
▁Sw
▁강진
▁계보
▁네모
▁라즈
▁애초
▁어의
▁에반
▁하임
미디어
▁관현악
▁세네갈
▁허드슨
▁마요
▁미식
▁사키
▁온건
▁펠트
▁문자열
▁펠리페
▁대중교통
▁볼티모어
▁덱
쓰기
연의
▁ar
▁동종
▁반주
▁배기
▁카야
▁퇴위
▁들어섰
▁로빈슨
둘기
▁거룩
▁모던
▁수력
▁순례
▁정진
▁터지
▁사커
▁이봉
▁소학교
▁유전학
▁좌표계
보리
티노
▁농축
▁변종
▁접해
▁포츠
▁대공국
▁활동가
ron
▁머니
▁복싱
▁청송
▁애덤스
▁조승우
AE
철수
코르
홍색
▁대금
▁붕어
▁페스
▁해결책
▁1876
▁겟
사태
▁납부
▁맥아
▁시문
▁아디
▁이산
▁펀드
▁게시판
▁고려대
▁볼로냐
▁참의원
▁후원자
DA
▁뱃
클라
▁단조
▁서예
▁약점
▁으리
▁이니
▁재결
▁우에스기
▁프린스턴
▁알렉산드로스
▁굶
▁당황
▁선양
▁일진
▁카레
▁토이
▁다카라
▁대전차
▁레이디
▁보좌관
▁아무리
▁펭
네트
라호
▁co
▁박수
▁부류
▁해병
▁주니치
로쿠
▁너스
▁니켈
▁도제
▁새뮤
▁채색
▁꽂
▁씻
▁오지
▁사간원
▁으려는
▁프리미엄
▁노스캐롤라이나
뮬러
큐어
▁구문
▁군관
▁낙양
▁본체
▁스모
▁임계
▁죄수
▁파파
▁브래드
▁사절단
▁나름
▁레버
▁미미
▁부양
▁Gre
▁바이어
▁이즈미
ational
▁웨스트민스터
광성
▁도하
▁라시
▁물류
▁중일
▁통폐
▁필하
▁교구장
▁민영화
▁북조선
▁올리버
▁용의자
▁장난감
▁토트넘
▁1866
암리
▁ML
▁댓글
▁도약
▁마구
▁바시
▁박자
▁수하
▁신진
▁에리
▁유능
▁사단장
▁집행유예
▁경무
▁구르
▁긴키
▁깃털
▁백자
▁앤서니
분열
▁SH
▁송환
▁이호
▁전권
▁중개
▁즐거
리카락
른베르크
▁1886
▁머리카락
▁SV
▁마린
▁알폰
▁애슬
▁오메
▁제르
▁조개
▁초전
▁간사이
▁스테판
▁장제스
▁wh
▁실각
▁익명
▁지면
▁덩어리
▁베이비
▁구스타프
▁브리티시
▁광선
▁두각
▁몰랐
▁베일
▁산청
▁습득
▁여건
▁유머
▁260
▁바람직
▁보안법
▁이어주
▁전주시
ble
▁간혹
▁레트
▁앨리
▁퍼졌
▁코소보
▁페미니
▁Tour
슈타
우회
▁거스
▁로브
▁생모
▁손녀
▁유다
▁작중
▁저우
▁조소
▁경영학
▁독립군
▁조나라
▁프란치스코
EST
▁무수
▁원상
▁천지
▁행방
르타뉴
▁역사학
▁브르타뉴
▁페르난도
▁베이시스트
꿈치
▁아자
▁요괴
▁프루
▁270
▁구획
▁발의
▁산물
▁얼룩
▁완도
▁촛불
▁출혈
▁쿼크
land
▁스테이
▁스테인
짜기
▁마티
▁엘런
▁차수
▁펠로
▁포탄
▁통폐합
▁돌아다니
▁돗
레시
▁KB
▁도성
▁번갈
▁세분
▁파커
▁해냈
▁삼각주
▁1887
▁베네딕토
하임
▁배척
▁장애물
▁1861
▁대한항공
너드
▁배운
▁빅뱅
▁성기
▁타구
▁현과
▁Wii
▁모나코
▁바로크
▁도미니카
▁모차르트
▁Dream
▁삼국지연의
▁뭐
▁마나
▁위시
▁사쓰마
▁축구팀
▁코스트
▁재단법인
▁라니
▁여타
▁지아
▁피어
▁근거지
▁새뮤얼
ition
▁가로지르
▁프로모션
AI
▁거칠
▁동창
▁외환
▁포화
▁합천
▁홍성
▁강서구
▁부분군
▁홈경기
▁1850
▁Life
ult
▁강세
▁경매
▁내포
▁사내
▁오일
▁생성물
▁화요일
▁유니버스
▁가닥
▁무자
▁비지
▁올레
▁자판
▁공연장
▁해석학
▁마르쿠스
▁카르타고
▁RT
▁it
▁완결
▁음주
▁정예
브리드
▁개정안
▁컨텐츠
▁드미트리
▁싹
orm
▁Up
▁놓이
▁세무
▁오대
▁오산
▁피닉스
▁렙
코타
▁AG
▁남조
▁모국
▁복위
▁증세
▁직사
▁홀딩
▁당선자
▁요금소
린트
즐리
▁TC
▁배트
▁전과
▁접합
▁뛰어넘
▁보너스
▁센다이
▁집정관
니오
▁급히
▁저축
▁토목
▁편안
▁평했
▁표절
스코트
▁보살상
▁선제골
▁낭만주의
제비
▁모닝
▁몰두
▁부름
▁이별
▁자궁
라호마
▁아카이
▁오클라호마
동자
▁에두
▁자릿
▁환관
▁노동력
▁달아나
▁프랑코
아메리카
▁하이브리드
직경
▁경건
▁나마
▁앵커
▁유타
▁가해자
▁Ed
▁고창
▁다행
▁버크
▁위패
▁이누
▁시직경
▁신세계
▁클레멘스
▁기밀
▁삭스
▁필연
▁히토
▁재판부
▁헤라클레스
왕후
▁갖춰
▁교지
▁패권
솔리니
▁알아내
▁스트리밍
▁오스트리
▁관내
▁동차
▁만점
▁말단
▁왕관
▁워킹
▁치우
▁단거리
▁인해서
▁1864
▁Open
▁지나간다
거나
콘신
▁"-
▁암모
▁애완
▁죽임
▁1830
▁석가모니
▁위스콘신
열차
▁눈치
▁만날
▁여호
▁예의
▁전교
▁파직
▁음악원
▁도라에몽
▁백악기
▁카이로
EP
▁깁
예술
타입
ton
▁공판
▁광업
▁대강
▁뒤늦
▁리트
▁매스
▁양현
▁혼혈
▁후세인
▁마을버스
▁컴파일러
▁도르트문트
▁쥘
▁en
▁가독
▁관용
▁근래
▁스몰
▁평탄
▁허블
▁감리교
라이어티
▁미네소타
▁버라이어티
디슨
▁발톱
▁승단
▁아다
▁잔디
▁장전
▁카와
▁네티즌
▁데이빗
▁크리에이
▁다카라즈카
▁방공
▁쓰루
▁재벌
▁홈즈
▁로맨틱
▁사나이
▁주나라
▁황해도
▁아이디얼
▁이시카와
▁쑨
▁배아
▁불분
▁수이
▁아편
▁정황
▁추존
▁현미
▁흘리
▁격투기
▁관련자
▁재판관
해살이풀
▁백업
▁트레이닝
달마
클럽
▁라라
▁매진
▁민물
▁뷰티
▁섞여
▁스기
▁스윙
▁청문
▁푸아
바도르
▁캣
▁an
▁등등
▁조경
▁내보내
▁라치오
▁유전체
▁1881
ION
ave
▁선율
▁황자
▁난이도
▁남베트남
두르
▁객원
▁러닝
▁벌레
▁소라
▁승하
▁양조
▁응하
▁침대
▁헌납
▁iOS
▁두려워하
께끼
플린
▁Ab
▁기고
▁도산
▁보정
▁부실
▁처해
▁까마귀
▁무작위
▁수수께끼
브웨
▁다비
▁알맞
▁야망
▁잠실
▁전리
▁코난
▁트란
▁행정동
▁피츠버그
리쿠
▁구례
▁남송
▁목욕
▁아타
▁조심
▁캐스트
▁Music
TE
▁그란
▁기통
▁세간
▁열려
▁왕성
▁짐바
ject
▁롬바르
▁모멘트
▁반대파
▁외무부
▁1872
▁리에
▁생도
▁아이콘
▁압록강
▁루스벨트
▁XP
▁군세
▁로니
▁승지
▁오우
▁재고
▁코뮌
▁흑백
올로기
▁기획사
▁대표단
▁이데올로기
다오
▁루나
▁별장
▁산기
▁용사
▁쿠로
▁농어촌
▁이메일
▁부다페스트
▁레비
▁발포
▁양면
▁의례
▁일지
▁지경
▁헤일
▁여학생
▁제프리
▁합창단
▁날카로운
▁닌자
▁반죽
▁복직
▁캐피
▁콘티
▁통지
▁750
나파
덕왕
렌스
리드
▁BL
▁김희
▁미상
▁부전
▁어촌
▁토로
▁투하
▁판관
▁끝난다
▁화성시
▁쵸
▁킷
ics
▁if
▁국호
▁삼척
▁상한
▁원동
▁종업
▁갔으며
▁대교구
▁파충류
▁부르주아
▁세계유산
▁교제
▁극찬
▁리브
▁메츠
▁직관
▁태우
▁파기
▁헤어
리아스
▁라이스
쿠니
▁곡면
▁곱셈
▁이례
▁파주
▁노르드
▁범죄자
뛰기
바인
성경
▁경도
▁꼬마
▁닛산
▁미칠
▁상파
▁시원
▁신봉
▁다시금
▁마르셀
▁1863
▁무솔리니
▁당과
▁뽑혔
▁샤이
▁진흙
▁탄산
▁도망치
▁밀가루
▁HTML
화경
ier
▁Sm
▁가곡
▁경량
▁괘불
▁내재
▁모신
▁발산
▁북벌
▁정명
▁죽여
▁친밀
▁파열
변속기
▁다비드
▁슬로건
ool
▁금고
▁배향
▁익산
▁중랑
▁취향
부아르
▁승용차
▁화학자
루크
리야
림사
▁베풀
▁순항
▁가든
▁가비
▁고모
▁브렌
▁주고
▁해킹
태평양
▁개체군
▁무로마치
QL
러진
▁나탈
▁묻혀
▁인위
▁계승자
평리
▁AL
▁병단
▁살짝
▁종묘
▁Don
▁참가국
▁취리히
▁코호몰로지
ru
▁엡
▁단국
▁레아
▁앞세
▁인제
▁입시
▁켄터
▁탐정
▁호크스
▁te
▁거꾸
▁계좌
▁고난
▁납작
▁당진
▁사나
▁의용
슬라프
▁전해졌
▁초록색
▁유라시아
느리
데자
워즈
▁대의
▁두어
▁루즈
▁복역
▁섬기
▁승상
▁어우
▁불분명
▁작품상
데자네이
▁1873
▁세르게이
비오
che
▁덴쇼
▁오트
▁클릭
▁햇빛
▁타임즈
번에
▁가두
▁조장
▁페라
▁페인
▁공통점
▁국민회
▁1865
▁교통사고
▁교동
▁매립
▁완비
▁장쑤
▁조시
▁태아
▁피카
▁시간대
▁아닌가
▁청년회
▁하얀색
지로
ise
▁감추
▁경마
▁구슬
▁모란
▁박진
▁위법
▁을사
▁작년
▁코마
▁킹스
▁휩싸
▁무언가
▁여진족
▁이뤄진
▁폼페이
▁샵
타스
ode
▁도도
▁머무
▁서지
▁에치
▁엘라
▁열릴
▁잡히
▁팔작
▁걸린다
▁와이드
▁항아리
▁계엄
▁과다
▁뒤따
▁신대
▁옹주
▁왓슨
▁이야
▁IMF
▁그나마
▁챌린저
▁탐험가
▁마스코트
▁열렬
▁외상
▁픽셀
▁경복궁
▁오카야마
▁맡겼
▁양궁
▁충당
▁하스
▁해시
▁였음을
▁제너럴
▁1891
▁PM
▁걸작
▁몸돌
▁착취
▁한창
▁허목
▁따라가
▁안산시
▁야쿠르트
데자네이루
▁리우데자네이루
시대
▁등단
▁티모
▁유니언
더지
매김
▁구강
▁단자
▁대목
▁봉황
▁비싼
▁슈고
▁요즘
▁조공
▁처방
▁캐치
stem
▁몰도바
▁박영효
▁Night
바지
▁반항
▁법전
▁세단
▁쇼크
▁다국적
▁생화학
▁제조사
▁조선소
▁크루즈
▁아비달마
▁아오모리
▁경지
▁도봉
▁루피
▁리자
▁야심
▁어선
▁입술
▁합금
▁발기인
미쓰
▁라크
▁모함
▁최장
▁피셔
▁시티즌
▁지자체
▁공군기지
UC
친왕
쿠르
▁MA
▁부에
▁분경
▁사드
▁산책
▁포대
▁혈압
플렉스
▁고성군
▁우간다
▁온타리오주
▁괜
단위
사화
인구
▁--
▁NS
▁매도
▁부추
▁적발
▁촉발
▁카슈
이스케
▁공식전
▁세군다
▁종사자
으면
훈장
▁버펄
▁볼넷
▁주저
▁증발
▁현무
합중국
▁승정원
▁앤드류
▁자리매김
▁베라
▁우마
▁철종
▁타도
▁필두
▁가리켜
▁벗어난
▁해부학
▁조선왕조
▁불로
▁진이
▁두꺼운
▁발가락
▁켄터키
▁과격
▁란스
▁미인
▁채굴
▁650
▁제작진
▁짐바브웨
NG
동맹
참찬
▁MM
▁더러
▁반점
▁거꾸로
레타리아
▁프롤레타리아
▁꿰
▁마모
▁무고
▁스킬
▁증강
▁진원
▁스코어
▁Good
▁두드러지
▁이바라키
▁베스트셀러
ai
레반
▁AI
▁굴복
▁시진
▁연행
▁체내
▁캐논
▁키즈
▁헌병
▁현도
▁Black
ank
▁강호
▁소작
▁여대
▁유태
▁후미
ower
▁릴레이
▁연출가
상어
▁qu
▁반론
▁성가
▁오즈
▁자켓
▁접전
▁직교
▁다마스
▁스테이트
▁콧
▁터빈
▁튼튼
▁파랑
▁Can
▁노르만
▁종업원
▁포항시
▁삼국유사
▁사이타마현
▁샴
▁간판
▁기묘
▁기운
▁네임
▁농성
▁도발
▁앞둔
▁용감
▁토록
▁ret
▁댈러스
▁백악관
▁국부
▁스톰
▁위헌
▁적정
▁들리
▁NAD
▁트로트
▁미합중국
킨슨
포타
▁노란
▁당당
▁산신
▁조준
▁투신
▁550
▁수시로
▁테무르
70
▁믈
▁씬
무제
세다
▁El
▁내란
▁대담
▁리키
▁문정
▁병과
▁열쇠
▁저해
▁횡령
▁거쳐서
▁반정부
▁자외선
▁자유형
DS
고르
▁교서
▁나빠
▁변증
▁사교
▁신의
▁원한
▁이선
▁행보
▁흡연
▁용산구
▁이성질
▁하반기
▁1862
내티
티야
▁걸프
▁무도
▁수퍼
▁연달
▁미카엘
▁받침돌
▁타이탄
포타미아
▁신시내티
▁메소포타미아
▁q
펠러
▁다닌
▁분별
▁전멸
▁티저
▁히노
▁Qu
▁길드
▁내역
▁사하
▁아델
▁양양
▁연화
▁오보
▁완수
▁장신
▁조어
▁증식
▁커졌
▁활자
타나베
▁Ser
▁숨겨진
▁국력
▁서위
▁송진
▁심정
▁이강
▁조서
▁조석
▁진언
▁필명
▁김성수
▁엑스포
▁입법부
▁LS
▁군자
▁북대
▁성수
▁신해
▁언론사
▁연주회
▁플러그
루엔
▁교훈
▁임하
▁황폐
▁1867
디언
▁독주
▁모반
▁온두
▁용해
▁레인저
▁편집장
▁온두라스
▁페르디난트
▁챈
▁UC
▁광자
▁아지
▁에겐
▁Let
▁페르미
▁6000
▁팔작지붕
▁라이프치히
▁Ac
▁간결
▁고찰
▁모조
▁지문
▁처장
▁푸드
세우스
▁705
▁사무국
테이
▁DR
▁광배
▁서한
▁양군
드라마
선거구
▁가르쳐
▁갈라져
▁변광성
▁앨버트
▁증조부
▁타타르
정사
활약
▁AU
▁꺼내
▁나사
▁노브
▁변모
▁옥시
▁경희대
구나
단지
진구
lar
▁오름
▁패해
ings
▁팍
센터
▁엇갈
▁유구
▁토유
▁표출
▁MSL
▁맹활약
▁손잡이
▁알폰소
▁페드로
▁데카르트
비언
▁예종
▁지탱
▁쿠라
▁회유
▁프로테
▁백과사전
▁이노우에
▁section
▁궐
▁객실
▁보직
▁잔존
▁코모
▁키릴
▁움직일
다발
▁폴라
▁사보이
▁치료제
중추부사
▁프라이즈
▁협동조합
ta
▁낡
렐라
방군
위치
젤로
▁-&
▁경은
▁넘버
▁성품
▁수당
▁잉크
▁청각
▁하중
▁갈라지
▁부등식
▁홀딩스
▁썩
▁상선
절도사
▁감염증
▁됩
▁탬
자원
할린
▁당파
▁던졌
▁버진
▁번개
▁절약
▁체하
▁충칭
▁피처
▁해지
▁기원후
▁이브스
▁일본식
▁특별법
▁삐
▁심소
▁차림
▁헤겔
rist
▁And
▁라면서
▁무사히
▁미친다
▁웨이브
▁명성황후
tr
끄러
▁가극
▁논하
▁벵골
▁아쉬
▁유망
▁스파이더
▁신한은행
▁후지와라
ee
▁Ag
▁꾸며
▁수급
▁엘레
▁지그
▁참패
▁마그네
▁봉우리
▁인지도
▁1878
▁둠
니티
마디
정보
▁가방
▁그럴
▁박원
▁자행
▁컴파일
▁국민학교
▁미나모토노
▁코퍼레이션
ky
▁PL
▁글렌
▁내림
▁동탁
▁시르
▁영미
▁중용
▁지린
▁자릿수
▁저지른
▁플루토
▁고등학생
▁SO
▁처한
▁키로
▁후드
가르트
▁수도회
▁행해졌
▁교화
▁동자
▁변질
▁솔라
▁참수
▁건륭제
▁경쟁자
▁연예계
▁지질학
▁비스마르크
▁아나톨리아
▁일리노이주
르바
빌리
▁꽃잎
▁떠날
▁렉스
▁보류
▁서거
▁세토
▁유림
▁직물
▁충신
▁대리석
▁주고받
▁출입문
▁스에
▁점진
▁추축
▁행군
플로러
▁나치오
▁신기록
▁아이젠
▁익스플로러
산부
▁건널
▁괄호
▁구아
▁국화
▁미학
▁서점
▁손님
▁현악
▁802
▁베르나
▁외교부
▁패스트
▁스케이트
▁tr
▁구부
▁냐고
▁라다
▁새겼
▁용수
▁텍스
▁항생
▁불가피
▁사대부
▁프랑스와
▁급성
▁자부
▁차명
▁액세스
▁밧
누마
▁무비
▁수레
▁완만
▁유화
▁지체
▁축일
▁골짜기
▁뉴기니
▁요리토모
북면
일치
hem
▁RC
▁각주
▁다목
▁모티
▁바쿠
▁사부
▁수증
▁습성
▁정박
▁추후
▁출국
▁취할
▁형주
에이고
▁영유권
▁쿠르드
▁아우구스
▁키르기스
▁샌디에이고
작전
질렀
▁과자
▁버티
▁생길
▁아뢰
▁영사
▁환율
▁원자핵
▁인코딩
▁포뮬러
▁프리츠
▁공상
▁근방
▁부관
▁에트
▁옥천
▁추계
▁토라
▁패킷
▁랙
대전
벤션
셔주
시게
▁거사
▁고국
▁국인
▁반입
▁시역
▁콜드
▁변한다
▁여객기
BI
퉁이
▁강우
▁그물
▁기조
▁사소
▁육식
▁일설
▁잔해
▁줄일
▁처치
▁치사
▁516
▁핵분열
사우루스
▁대타
▁시시
▁출세
▁패망
▁헤더
▁다가오
▁방위군
▁부여군
▁수비대
▁프라임
▁1869
▁힐베르트
▁팻
수단
▁교파
▁다량
▁매슈
▁무색
▁봉하
▁인승
▁일선
▁절친
▁해트
시아드
▁HMS
▁기동전
▁운동량
▁줄어든
▁1840
▁글로브상
▁와타나베
▁이끼
▁집어
▁채권자
▁유니버시아드
pr
뜨려
▁길러
▁로시
▁면직
▁소피
▁오자
▁의정
▁초음
▁쿼터
▁며느리
▁바닷물
▁와세다
▁닉스
▁부두
▁상식
▁상의
▁포천
뉴기니
▁업로드
▁운전자
▁유엔군
▁끔
블릿
▁그랬
▁멋진
▁목동
▁빅터
▁쌍성
▁이목
▁자정
▁자처
▁저그
▁청취
▁칭했
▁컵스
▁됩니다
▁마포구
▁치료법
▁날려
▁몸체
▁벤츠
▁퀴즈
▁토키
▁팔린
▁오스카
▁낯
노르
▁국세
▁귀인
▁넘겼
▁민심
▁애기
▁입출
스타인
▁예언자
▁팔꿈치
▁레지스터
▁사이언스
▁에이전트
곡면
ade
▁개기
▁입히
▁컴필
▁하라
▁휘발
▁Mon
▁강력히
▁시니어
▁Song
▁매킨토시
▁컴필레이션
ae
▁벳
▁볶
날레
선언
▁단서
▁바인
▁베오
▁부군
▁부풀
▁자취
▁포자
▁포탑
▁호그
▁피의자
▁파시스트
▁로드리게스
▁아나키스트
조사
효소
▁디나
▁바보
▁변혁
▁위도
▁텐서
▁금강산
▁내세웠
크라테스
per
▁마레
▁글러브
▁네이트
▁스트림
▁모자이크
▁와카야마
▁겨루
▁빈민
▁숙소
▁이거
▁자질
▁캐슬
ount
▁목적지
탄두
▁AA
▁Pe
▁VS
▁강인
▁걸음
▁다닐
▁지요
▁천상
▁하수
▁세미나
티컷
▁me
▁괜찮
▁단역
▁박재
▁백조
▁블러
▁소박
▁아어
▁풀리
▁맥아더
▁밝혀져
▁1592
▁고등교육
▁남아시아
▁코네티컷
▁밋
히메
▁As
▁논산
▁스택
▁실사
▁영수
▁철자
▁끌어올
▁사라져
▁종착역
▁창립자
구스
▁고을
▁고제
▁니까
▁직렬
암사
ium
▁Aw
▁금색
▁린다
▁사귀
▁의복
▁펼친
▁관심사
▁테크놀
▁8000
▁병자호란
▁친선경기
IF
▁암수
▁양파
▁자루
▁튜브
이치로
▁머물러
▁보유자
▁안동시
▁장로회
▁필사본
▁크리스티나
수염
ale
▁KN
▁규율
▁리스본
▁이랜드
▁적십자
▁히타치
▁Windows
IX
보당
전선
히데
▁란트
▁슈투
▁어부
▁어사
▁왜군
▁유이
▁이와테
▁지나친
▁코트디
▁뉘른베르크
▁코트디부아르
▁펜실베이니아주
90
▁기행
▁다쓰
▁성대
▁연해
▁온실
▁은밀
▁피살
▁KTX
▁과반수
▁준다는
로움
▁외면
▁유자
▁도망쳤
▁지하역
▁떨어진다
▁Heart
▁포르투갈어
찬성
ata
▁노현
▁동호
▁방탄
▁비키
▁사주
▁악명
▁웍스
▁유골
▁임종
▁구단주
▁내세워
▁담당자
▁보호법
▁어도비
▁클리어
▁헤르만
테랑
▁Gl
▁ab
▁능가
▁면담
▁병풍
▁수만
▁질투
▁심리학자
▁계룡
▁농가
▁삭감
▁이카
▁준동
▁380
▁로타르
▁차가운
▁파주시
날드
던트
▁뉴런
▁여포
▁의주
▁탁구
▁1875
▁그린란드
▁페널티킥
▁세인트루이스
링겐
▁거창
▁내려와
▁크메르
▁형용사
▁근본번뇌
넌트
세르
▁권익
▁김연
▁문중
▁서약
▁연중
▁염화
▁오구
▁위크
▁정오
▁친한
▁비둘기
▁신석기
▁니케
▁디바
▁라프
▁문체
▁방울
▁볼록
▁열세
▁예식
▁워스
▁일명
▁잠입
▁흥원
루엔자
▁Gen
▁성폭행
▁올라오
세키
욕장
▁독살
▁미지
▁숙련
▁실상
▁오시
▁율법
▁특공
▁한민
▁스피커
▁찾아와
▁통신망
▁한다며
▁여우원숭이
son
▁강습
▁결말
▁상과
▁설리
▁셔틀
▁외척
▁원문
▁친화
▁콜린
▁키드
▁타쿠
▁페레
▁호른
▁사이즈
▁안창호
▁정해져
▁집단군
▁학술지
▁기판
▁날리
▁늘려
▁루도
▁막강
▁상동
▁시찰
▁야수
▁예금
▁이심
▁타나
세데스
▁개그맨
▁지장보살
▁브란덴부르크
▁배당
▁불려
▁불복
▁엔젤
▁원단
▁유카
▁중견
▁칸트
▁친환경
▁메르세데스
▁return
▁sh
▁겸직
▁도적
▁발착
▁변해
▁비료
▁사각
▁실명
▁윤휴
▁Out
▁회고록
▁영등포구
▁바빌로니아
▁기한
▁절충
▁최하
레이트
▁강대국
▁몽고메리
▁기린
▁로큰
▁아노
▁재보
▁정칙
▁징집
▁침식
▁향신
▁가환환
▁고문서
▁스케줄
▁시미즈
▁예비역
▁크라운
▁토요타
부대
알라
itt
▁구루
▁몹시
▁조비
▁키리
▁포인
▁나리타
▁대항전
▁아세틸
ng
기아
세서
▁다자
▁로사
▁선상
▁이길
▁게임기
▁레스터
▁스케치
▁엑스박스
▁랠
기즈
놀드
사유
▁TS
▁예프
▁착각
▁출품
▁AMD
▁다이쇼
▁보리스
▁클레어
▁파스칼
▁함경도
▁합성어
▁항공대
▁인플루엔자
▁땀
이에
▁다룰
▁슬리
▁야권
▁첩보
▁폐허
▁로큰롤
▁사무라이
PA
계사
▁구시
▁달콤
▁최남
▁표제
▁슈타인
▁열역학
▁일부러
▁최성기
▁싯
더링
▁DB
▁김두
▁리크
▁명상
▁사와
▁애착
▁자장
▁데이트
▁벙
방향
양이
▁바늘
▁오마
▁왕래
▁부적절
▁진주시
▁컨벤션
▁풀려났
UN
▁생원
▁쏟아
▁일차
▁혼잡
그래피
▁데뷔작
▁채무자
▁테오도
두사
르카
▁에코
▁오도
▁인먼
▁강희제
▁그러면
▁돌고래
▁매디슨
▁표트르
▁알프레드
▁극소
▁버트
▁서클
▁선체
▁순식
▁여럿
▁예멘
▁이희
▁취직
▁터너
▁맥스웰
▁파라오
▁프론트
▁안드로메다
▁샷
▁격하
▁노원
▁배반
▁성행
▁이씨
▁타시
▁태안
▁반감기
▁칭기즈
▁오프라인
몽골
IVE
▁라벨
▁목장
▁용지
▁웨어
▁재화
▁집전
▁헤센
▁획기
able
▁Par
▁광둥성
▁쇼핑몰
▁중앙선
▁타일러
행파
▁결전
▁레몬
▁스펜
▁월남
▁지치
▁되풀이
▁베르트
▁송파구
▁남양주시
▁맴
ody
▁KO
▁구타
▁메모
▁모피
▁수은
▁술라
▁싫어
▁의성
▁장정
▁치킨
▁Vol
▁야마다
건설
시험
▁WC
▁끼친
▁안식
▁안중
▁이질
▁235
VA
엽수
윽고
임새
▁기마
▁등산
▁양극
▁양지
▁영락
▁월화
▁토피
▁보조금
▁이윽고
▁장갑차
▁쇼트트랙
▁거머
▁문관
▁에레
▁유충
▁찌르
▁체로
록대부
▁중앙아메리카
▁뵈
▁텅
모음
▁가세
▁경의
▁기공
▁동거
▁모체
▁묘호
▁법규
▁생쥐
▁서안
▁이홍
▁DOS
▁돌아갈
▁상반기
▁선거인
▁이사벨
▁통도사
▁University
▁가모
▁거시
▁보우
▁원효
▁아리랑
▁흔들리
13
우주
화당
▁나쁘
▁수마
▁자격증
▁아우구스투스
루즈
어류
은사
▁교관
▁금정
▁모사
▁무능
▁방호
▁서당
▁활기
▁캐스터
▁브로드웨이
▁구세
▁근세
▁로바
▁실은
▁안톤
▁위트
▁코로
▁사할린
▁카디널
▁저널리스트
me
▁탭
벌리
▁가명
▁골라
▁베티
▁보그
▁세일
▁수역
▁실렸
▁열악
▁잉카
▁정언
▁젤리
▁콘스
▁키트
해방군
▁동아리
▁바나나
▁서스펜
▁슈퍼스타
▁인민해방군
박사
텐셜
▁규약
▁라울
▁시의
▁양서
▁요가
▁일간
▁출격
올리언
▁달린다
▁북극점
▁연속극
▁정치국
▁대류
▁망치
▁배워
▁샤르
▁염두
▁이룰
▁패치
▁205
▁NBC
▁꽃차례
▁됐으나
▁통계청
사와
▁동군
▁문수
▁미트
▁박용
▁변천
▁빌드
▁사미
▁야코
▁이달
▁정글
▁종가
▁확충
▁순식간
▁콜럼버스
18
르산
anc
▁경순
▁세스
▁시제
▁은폐
▁출사
▁키타
▁가이아
▁교육감
▁퍼텐셜
▁라이베리아
▁보컬리스트
▁IR
▁경종
▁병렬
▁잉여
▁자위
▁중남
▁집사
▁후루
진보당
▁가요제
▁로버츠
▁터뜨리
쿠사
▁At
▁기미
▁단양
▁래리
▁볼드
▁상계
▁석기
▁소양
▁실효
▁아끼
▁악당
▁안심
▁전조
▁빼앗기
▁사학자
▁청문회
▁펼쳐져
스코리아
▁뉴올리언
▁나일
▁노라
▁숙박
▁싱크
▁초계
▁케리
▁하지
▁시그마
▁퀄
데기
보내
▁가뭄
▁델리
▁라지
▁신병
▁정승
▁정에
▁대수학
▁무지개
▁비단털
▁썼으며
▁셴
보라
촌리
▁균일
▁노카
▁데일
▁미첼
▁바니
▁복부
▁불쾌
▁자키
▁품목
▁호로
very
▁708
▁슈미트
▁아스카
▁비단털쥐
▁잼
에쓰
연구
주크
▁AE
▁베크
▁외할
▁일주
▁축복
▁스케일
▁콘라트
▁관음보살
▁유가행파
▁지하철역
au
▁뤄
▁군복
▁나기
▁라플
▁무가
▁묶여
▁산문
▁아연
▁에볼
▁조봉
▁족장
▁차오
▁총영
▁칼륨
▁한겨
▁해질
▁재미있
▁호흡기
▁Hell
▁서비스업
▁썰
▁cc
▁경화
▁금환
▁불태
▁빨라
▁안팎
▁화음
▁ATC
▁게임즈
▁교육학
▁당뇨병
▁로베르토
▁바이마르
▁스틸러스
net
▁단발
▁맡겨
▁안기
▁옥사
▁잔혹
▁폐교
▁한복
▁비잔틴
▁오르간
▁전해져
▁조선공산당
열대
▁JC
▁기스
▁남단
▁리시
▁뮐러
▁줄곧
▁초회
▁신호장
▁테두리
▁갈릴레오
큐슈
ala
▁골절
▁놓치
▁시성
▁안겨
▁애드
▁쳐서
▁후이
스크림
▁거주자
▁그레이엄
▁마흐
▁손목
▁오니
▁코크
▁포니
▁향수
폴리탄
▁간호사
▁시마즈
▁유명세
▁조각상
▁1874
▁name
▁가졌으며
▁못했으며
▁일렉트릭
▁클러스터
▁메트로폴리탄
바드
ATO
▁낭비
▁스펙
▁전범
▁치마
▁침범
▁카로
▁클랜
▁리차드
▁물려주
▁오릭스
▁뜰
▁벚
라르
변수
▁비옥
▁솜씨
▁싸울
▁올릴
▁외손
▁우표
▁읍성
▁인성
▁손꼽히
▁조각가
▁해준다
▁후쿠이
민당
악산
▁고층
▁보어
▁소론
▁에노
▁젠더
▁통솔
▁하산
▁화승
▁김해시
▁출판물
▁케이드
▁sp
▁내릴
▁다쿠
▁외삼
▁일삼
▁Her
▁공학자
▁라스트
▁성폭력
▁콘퍼런스
14
구니
프랑
▁되살
▁무예
▁쫓아
▁쿠마
▁화원
▁반대편
▁최진실
▁포식자
▁우두머리
ps
범죄
ash
▁강국
▁과세
▁나한
▁뉴멕
▁도형
▁리나
▁모치
▁몰수
▁밸브
▁재회
▁창구
▁탄수
▁풀백
▁다녀왔
▁사무관
▁안양시
▁전시관
▁핸드볼
▁뉴멕시코
▁멱
신저
▁SR
▁et
▁강좌
▁관위
▁발작
▁이문
▁tvN
▁한겨레
▁This
▁오아시스
데일
▁넷플
▁리타
▁발판
▁버니
▁사중
▁양평
▁적법
▁사하라
▁컨설팅
▁트레일
▁가로질러
▁넷플릭스
▁멀티미디어
소문
황색
▁가온
▁동백
▁요직
▁학당
▁남극점
▁부르봉
▁셀주크
▁여운형
▁바그다드
▁알렉산데르
ax
▁YG
▁마늘
▁예제
▁잔여
▁조동
▁저스틴
▁책임지
▁휴대폰
▁1877
▁유니코드
▁컨퍼런스
▁서아프리카
15
co
▁맞물
▁석권
▁이색
▁코린
▁화염
▁204
▁클로드
HC
▁떨쳤
▁레나
▁문맥
▁산조
▁인스
▁칠성
▁코바
▁협곡
▁로페스
▁시달렸
▁올라와
▁외계인
▁중거리
▁천도교
▁항공편
▁미스코리아
▁뉴클레오타이드
▁"|
▁격전
▁공문
▁김우
▁너희
▁백지
▁우니
▁자성
▁홍익
▁아우르
▁이주민
▁핵탄두
▁파푸아뉴기니
스퍼
피크
▁가선
▁변론
▁선단
▁엄지
▁템플
야누스
▁지리산
▁캄파니아
▁플루토늄
▁호소카와
GB
so
yn
▁쿰
일기
▁고승
▁두뇌
▁부엌
▁소인
▁의제
▁주군
▁퇴진
▁행선
▁회차
▁CIA
▁Dra
▁동남쪽
▁한국군
▁띈
징어
▁경합
▁문물
▁바야
▁에페
▁지크
▁공주시
▁아놀드
▁레닌주의
▁서바이벌
▁트라야누스
▁뜬
계약
네르
비에
혈구
▁AF
▁복속
▁싸운
▁제비
▁판명
▁펭귄
▁Best
▁챠
▁툼
oid
▁GR
▁논증
▁소르
▁송이
▁여정
▁카일
▁518
▁허베이
▁현미경
▁7000
▁감축
▁경내
▁승낙
▁시발
▁쓰일
▁원사
▁재물
▁캠벨
▁Bab
▁개화파
▁앞바다
▁에스컬
▁카리스
▁트레인
▁에스컬레이터
▁탔
더릭
토크
▁곤살
▁도부
▁라임
▁무주
▁미겔
▁블랑
▁세제
▁제지
▁퇴치
▁후회
▁브리스
▁오리엔
▁참전하
▁콘티넨
동원
▁민원
▁받치
▁스플
▁아킬
▁앨라
▁미트라
▁스타드
▁프레슬리
▁켜
투리
▁레크
▁서품
▁양천
▁1700
▁다카하시
마을
재판
▁Mi
▁결장
▁도읍
▁미러
▁베다
▁앞뒤
▁억울
▁요도
▁추운
▁트림
▁물러난
▁클레오
▁페스트
ict
▁달력
▁바젤
▁바투
▁박찬
▁소주
▁대사간
▁수백만
▁울트라
▁웜
운수
티지
ose
▁로망
▁바쳐
▁북측
▁산술
▁산체
▁루이즈
▁콜린스
제철
▁거병
▁돌렸
▁미켈
▁숙명
▁순찰
▁승률
▁지령
▁츠카
▁타선
▁통찰
▁하층
▁625
▁사다리
▁원주시
▁인류학
22
▁랏
▁얄
▁켐
의식
▁본존
▁사연
▁산재
▁산정
▁토바
▁화소
▁APG
▁길거리
▁루카스
▁아키텐
▁엘비스
▁연방군
▁우에노
▁이론가
▁만장일치
▁아드리아
뜨린
장사
형제
▁공병
▁다윗
▁인계
▁자백
▁처마
▁투사
▁게이밍
▁경부선
▁억제제
▁1859
▁라이센스
▁카디널스
▁프리큐어
▁KS
▁결여
▁대입
▁맹렬
▁불릴
▁상환
▁나투
▁롤러
▁방학
▁블룸
▁테헤
▁앙드레
다보
로트
▁문건
▁북인
▁상설
▁강화군
▁서태지
▁튀어나
양구
▁도안
▁뒤덮
▁수질
▁푸젠
▁함장
▁난쟁이
▁통계학
▁향신료
▁갑작스럽
▁했으므로
▁짚
과학
무장
▁se
▁곡식
▁구전
▁김주
▁네브
▁만류
▁명왕
▁성조
▁유창
▁차역
▁후견
▁가져가
▁빌바오
▁이케다
▁제니퍼
▁자이언트
나시
▁김도
▁리안
▁반달
▁발광
▁알로
▁전봉
▁플랑
▁헬스
▁가치관
▁매니아
▁아이치
▁아이스크림
EEE
▁니즈
▁로디
▁무공
▁백운
▁비싸
▁사병
▁완장
▁빈센트
▁자카르타
장조
▁us
▁관아
▁구가
▁두르
▁부식
▁서체
▁이만
▁주포
▁진심
▁결의안
▁곧이어
▁찾아오
▁혼합물
▁스테파노
▁뚜껑
▁매기
▁멜라
▁사산
▁상감
▁원점
▁폐차
▁대혁명
▁슈투트
▁테크놀로지
▁슈투트가르트
uck
▁군기
▁루드
▁선과
▁수프
▁의인
▁일면
▁자네
▁카보
▁퇴출
▁피자
▁홀수
▁미성년
▁순천시
▁아파치
▁출장소
▁미야기현
▁사이클론
▁뮈
매기
배마
소니
스톤
▁금관
▁소서
▁왕당
reak
▁셰퍼드
▁메모리얼
▁앨라배마
플레
▁오와
▁율리
▁중건
▁타파
▁튜링
▁후면
de
▁펙
▁이창
▁바스크
▁이치현
▁소아시아
남면
▁모교
▁발터
▁보디
▁안주
▁어지
▁어학
▁예보
▁타라
▁태화
▁터스
▁가우스
▁개최지
▁대제학
▁순교자
▁직사각
▁세웠으며
▁^
완다
크리
vel
▁레티
▁모션
▁수주
▁340
▁쓰촨성
▁안철수
▁저질렀
▁정착지
▁헬레니즘
고사
정변
▁사생
▁선별
▁장경
▁전서
▁정역
▁타밀
▁학창
▁무신론
▁브레멘
▁IEEE
▁국가원수
▁크리스틴
▁Super
학파
▁관군
▁리언
▁비어
▁어라
▁원만
▁입찰
▁자갈
▁총감
▁호투
▁흐트
▁목표물
▁바빌론
▁아니면
▁환승역
▁안토니우스
그램
댓값
▁교재
▁근간
▁로보
▁로코
▁사탄
▁스완
▁오인
▁평하
▁호적
▁화풍
▁개막식
▁떠올랐
▁라그랑
▁로스트
▁마코토
HL
oo
▁FF
▁공석
▁교감
▁뉴잉
▁속국
▁아누
▁짝수
▁코이
▁하후
▁국내선
▁기념장
▁로저스
▁무사시
▁조르주
버터
티어
팩스
▁김학
▁도끼
▁동급
▁발진
▁산남
▁슬러
▁유틸
▁작자
게이트
▁310
▁des
▁선제후
▁실린더
▁엄청나
▁에세이
▁두드러진
▁유틸리티
나주
둘러
패드
ail
▁as
▁개표
▁섹션
▁조회
▁처칠
▁통감
레틱스
▁대관식
▁볼프강
▁예문관
▁Star
▁그래픽스
▁오토바이
▁무형문화재
▁애슬레틱스
▁후쿠시마현
TF
바퀴
조류
▁경원
▁구라
▁베가
▁산인
▁센타
▁수구
▁시력
▁왕명
▁용맹
▁기생충
▁원정대
▁정해졌
▁탈레반
▁모니터링
▁썸
▁쏜
들였
버라
주사
▁거문
▁과달
▁교인
▁도매
▁변성
▁상층
▁추장
▁희미
공화당
▁개척자
▁리바이
▁1812
▁선거관리
▁중앙일보
▁뉴올리언스
▁민주공화당
▁매사추세츠주
▁선거관리위원회
디드
▁my
▁매듭
▁정청
▁커리
▁호화
▁레이건
▁슈트라
▁오슬로
▁John
▁나바
▁넓혀
▁아칸
▁투기
▁황위
하마드
▁디에고
▁분류학
▁여러분
▁해인사
▁아이파크
▁콘스탄티누스
iel
▁DO
▁ON
▁나시
▁노마
▁담양
▁닷컴
▁도파
▁버밍
▁철기
▁허물
▁교황령
▁슈트라우스
▁뽀
▁ad
▁갇혀
▁기권
▁무위
▁보국
▁보아
▁세밀
▁손수
▁스쿼
▁양동
▁잡힌
▁청정
▁추밀
▁포상
▁하강
▁호국
▁자본가
▁합병증
▁고바야시
▁아미타불
gh
▁Kn
▁근위
▁따돌
▁메드
▁박경
▁시편
▁유보
▁평방
▁Sun
▁록히드
▁셀레우
▁스러워
▁테헤란
▁한자어
▁불법행위
주석
▁게놈
▁공경
▁레저
▁명륜
▁빨강
▁용역
▁울루
▁진천
▁체질
▁커브
▁특명
▁호이
시아키
▁you
▁이광수
▁후반전
▁뉴잉글랜드
RI
▁당상
▁부락
▁수문
▁으러
▁토프
▁단말기
▁보이즈
▁에이지
▁인산화
▁Soul
▁아브라함
구미
▁걸스
▁넓히
▁두터
▁로런
▁무진
▁배타
▁주유
▁지킬
▁해커
▁App
ray
▁개경
▁김덕
▁로컬
▁수라
▁정실
▁지날
▁충동
▁퀸스
▁한하
▁항문
▁209
▁에이브
▁파르마
▁북대서양
OK
▁IF
▁가창
▁과감
▁관개
▁논평
▁놓였
▁뒤이
▁소포
▁수족
▁식이
▁아요
▁아호
▁은지
▁조던
▁지검
▁천자
▁청일
▁총생
▁카파
▁코우
▁공성전
▁대대장
▁레코딩
▁오메가
▁울주군
▁Christ
블릭
ute
▁Mr
▁구비
▁리퍼
▁샤오
▁애호
▁양념
▁쿠루
▁투니
▁피그
▁태블릿
EA
연맹
▁귀순
▁금기
▁도자
▁의논
▁익히
▁패자
하우스
▁게이오
▁기울이
▁송진우
▁접미사
▁주거지
▁지석묘
▁ICBM
▁리바운드
▁궈
▁강유
▁안면
▁카펠
▁휴일
▁206
▁사우디
▁파르티아
▁아람
▁영도
▁풀이
▁바뀐다
▁주제가
▁클라리
▁페르시
▁쑹
탄올
▁금천
▁끔찍
▁당장
▁무찌
▁법상
▁속초
▁유계
▁잡혔
▁장강
▁장지
▁점토
▁죽일
▁천적
▁풍요
라이스
▁르완다
▁베르사유
도감
샤오
초프
▁HP
▁그늘
▁김시
▁사파
▁양원
▁유상
▁인척
▁조우
▁탄두
▁끌려가
▁스태프
▁자오선
▁1879
59
▁름
화산
▁NM
▁Tw
▁규합
▁단수
▁로지
▁부기
▁상이
▁지카
▁집적
▁해주
▁남북조
▁여주인
▁영사관
▁음식점
▁막시밀리
레앙
분투
자드
▁고후
▁니치
▁듀스
▁루손
▁반정
▁자존
▁차차
▁개개인
▁물리쳤
▁윤치영
▁자치현
▁조광조
네프
반정
▁감당
▁눌러
▁산동
▁유세
▁카토
▁콜론
▁쿠시
▁747
▁라고도
▁백두산
▁안데스
▁엘리스
▁알렉세이
네오
라는
스레
▁군마
▁모태
▁부화
▁불문
▁유민
▁자석
▁춘계
▁폐하
▁현수
▁효능
로세서
▁고지대
▁에다가
▁여수시
▁카지노
▁트리스
16
방스
티보
▁동맥
▁두부
▁딱딱
▁범람
▁역동
▁위축
▁이코
▁독재자
▁삼거리
▁아이작
▁연대장
▁의병장
▁피어스
▁금리
▁농담
▁시타
▁중등
▁광합성
▁NX
▁갑신
▁떠돌
▁맞배
▁성자
▁자각
▁420
▁도망쳐
▁로널드
▁선수상
▁조봉암
▁페이퍼
▁유럽연합
YP
▁꽝
다임
슐리
▁PA
▁반납
▁생김
▁양정
▁정맥
▁카다
▁택하
▁힐스
로그램
▁석회암
▁남경
▁대등
▁대여
▁라쿠
▁변함
▁불능
▁빛깔
▁스킨
▁전열
▁초식
▁국방군
▁치른다
17
▁쿵
나들
산업
▁Gu
▁반향
▁상회
▁소량
▁수아
▁앙상
▁장이
▁호시
스트림
▁Win
▁바닷가
▁건국훈장
면적
여지
일체
▁국문
▁꾸몄
▁나토
▁동대
▁머큐
▁시영
▁우기
▁CoA
▁사가미
▁즐거움
▁펼쳐진
▁패러다임
▁불러일으켰
▁뜯
▁퀼
수지
ual
▁무패
▁실베
▁영종
▁오웬
▁인삼
▁촐라
▁컬링
▁킬러
▁폴로
▁버스터
▁재결합
▁일렉트로닉
태자
▁내시
▁온전
▁클럭
▁440
▁변호인
▁붙잡혀
▁제이크
▁테크노
▁항생제
▁말려
▁부트
▁안락
▁유관
▁제고
▁죄인
▁군주제
▁니가타
▁들어선
▁여행자
▁태어날
리아누스
▁포틀랜드
링크
ull
▁"'
▁RA
▁권투
▁능숙
▁두스
▁먼로
▁압수
▁일보
▁투병
▁할로
▁호찌
▁리그컵
▁바레인
▁플래닛
▁엔지니어링
▁Record
가요
울루
의금
▁무겁
▁스텐
▁열람
▁이설
▁임실
▁할구
▁항전
▁기울였
▁랴오닝
▁수영장
▁알칼리
▁암스트
▁야구부
▁영화관
▁요나라
▁접근성
선교
장군
▁고독
▁노역
▁대방
▁바바
▁전곡
▁화이
▁Per
▁드러난다
▁크리스탈
▁Intern
발트
신보
VID
▁강가
▁사목
▁요셉
▁이석
▁증축
▁후추
▁글리제
▁스텔스
▁실리콘
▁오우치
▁고요
▁날렸
▁매복
▁멘델
▁사체
▁산투스
▁지극히
▁당했으며
높이
▁KD
▁리노
▁입혔
▁적힌
▁접목
▁최용
▁코인
▁행운
▁환산
▁256
▁본거지
▁호기심
바이러스
능력
대비
▁광시
▁기피
▁도나
▁망가
▁바타
▁소진
▁솔직
▁아쉽
▁오차
▁체리
▁파고
리오스
▁911
▁기본법
▁베이직
▁스위트
▁올라왔
▁유기체
▁잠비아
▁이루어질
▁다마스쿠스
▁아우구스트
▁미타
▁성형
▁정직
▁제방
▁225
▁Str
▁엔리케
▁이회창
▁조용히
▁토론회
▁판매고
▁2500
▁그러다가
▁원종공신
▁MD
▁따지
▁문어
▁세울
▁열거
▁트램
▁타지키스탄
쿠치
▁po
▁가결
▁노엘
▁담수
▁섞인
▁시온
▁아로
▁왕릉
▁왕좌
▁우디
▁케로
▁바실리
▁양산시
▁엘리엇
▁대법원장
▁뭔
▁강했
▁내기
▁멘토
▁봉분
▁우타
▁이한
▁중신
▁탈피
고로드
▁연금술
니에
데오
러져
레미
스틱
▁mu
▁담임
▁미녀
▁성현
▁양구
▁왕녀
▁워낙
▁콜리
▁Hot
▁디스코
▁렌더링
▁초고층
▁총생산
▁후유증
▁'.
▁교명
▁균등
▁동두
▁리지
▁만물
▁사조
▁성교
▁수표
▁아역
▁악어
▁응력
▁코니
▁탄력
▁피질
ions
▁고다이
▁네바다
▁습니까
▁잠재력
▁제시카
▁춘천시
▁주머니쥐
▁쐐
▁짠
▁nm
▁강자
▁군도
▁노름
▁브이
▁신익
▁영성
▁용문
▁윤곽
▁비행사
▁왕당파
▁프리드
▁돌아간다
길준
▁CA
▁궁주
▁득실
▁로만
▁사스
▁원곡
▁즐겼
▁카츠
▁히코
레이즈
▁되돌려
▁생산자
▁시에라
▁오토모
▁카스텔
▁허버트
▁독립선언
▁public
ty
는점
무지
피카
황제
▁광동
▁교내
▁동체
▁무소
▁북마
▁세타
▁실책
▁쌍용
▁쐐기
▁유미
▁은평
▁이보
▁파출
▁길버트
▁앙상블
▁예비군
▁웨슬리
▁이세이
▁지배했
25
▁앳
덕궁
스텐
ors
▁HS
▁관저
▁대용
▁변한
▁애프
▁여관
▁조율
▁날아가
▁캅카스
▁Kore
▁드래곤즈
빨리
인산
자나
▁거품
▁교학
▁구명
▁라사
▁마거
▁아루
▁환초
▁오나라
▁프린세스
▁print
▁쏠
무트
RNA
▁Ke
▁강타
▁명동
▁연하
▁유독
▁즉흥
▁지브
▁코일
▁호지
▁마운틴
▁브릿지
▁사무엘
▁유물론
ll
▁농협
▁미디
▁셔츠
▁스팀
▁종실
▁방법론
▁와이어
▁주둔지
▁추축국
▁1789
▁기타큐슈
▁리치먼드
라과
불명
커우
훈련
▁OK
▁누마
▁아님
▁접시
▁침수
▁파피
▁거느렸
▁머큐리
▁프로필
▁탄수화물
▁플랑드르
이상
▁가전
▁구애
▁군림
▁던전
▁동률
▁장차
▁제타
▁채집
▁춘향
▁커넥
▁향로
▁흉내
▁고스트
▁디아스
▁브루노
▁오이타
▁유도탄
▁을수록
▁이마가와
포리
▁간지
▁노골
▁느슨
▁마른
▁면하
▁석재
▁성부
▁아구
▁진성
ames
▁오리건
▁제품군
▁조연상
▁콜라보
▁천문단위
▁베오그라드
평면
▁'-
▁NL
▁깊숙
▁정중
▁현관
▁흡입
▁내몽골
▁냈으며
▁넘어서
▁다행히
▁알베르
▁인문학
▁1801
▁NATO
자락
▁Fl
▁귀여
▁도식
▁소노
▁엿볼
▁진위
▁칠곡
lect
ogle
▁208
▁오른다
▁제노바
▁Back
▁캥
던스
모닉
ove
▁가령
▁공평
▁도화
▁무루
▁신천
▁청중
▁타키
▁트론
▁급속도
▁사법부
▁사천왕
▁선보인
▁압둘라
▁아미타여래
든가
▁강구
▁야만
▁유익
▁이크
▁재심
▁중학
던지기
▁예수교
▁클라인
▁니카라과
▁돼지고기
GO
▁박태
▁안건
▁첫날
▁카인
▁트럼펫
▁1400
▁미식축구
제사
▁다채
▁라테
▁부안
▁생장
▁열기
▁최순
▁통킹
▁함의
프리드
▁동일시
▁브루크
▁영문학
▁영장류
▁조제프
ox
레븐
▁BO
▁Cr
▁결투
▁교란
▁군량
▁균열
▁더라
▁악의
▁안시
▁유감
▁초석
▁초판
▁탄성
▁후난
▁붉은색
▁아르테
▁ㅣ
▁킵
▁가변
▁겨냥
▁김장
▁승마
▁양위
▁총국
▁캡틴
▁코디
▁표어
▁호전
▁370
▁나와서
▁나카노
▁유길준
▁제주시
▁항소심
▁Amer
▁시킨다는
▁암스트롱
▁이성질체
득점
파니
▁기일
▁변했
▁사일
▁소마
▁약품
▁유재
▁책정
▁코딩
▁타오
▁핼리
▁Res
▁War
▁광주시
▁남아공
▁동북부
▁미요시
▁방문객
▁페라리
노스아이
▁생물학자
▁항공우주
▁해수욕장
▁셀레우코스
노스아이레스
▁부에노스아이레스
▁렬
▁격침
▁격화
▁굳이
▁김은
▁모였
▁본능
▁실태
▁약수
▁어인
▁예편
▁이가
▁폭주
▁Mag
▁기네스
▁어드밴
▁해수면
▁이리하여
▁소크라테스
▁고관
▁궁수
▁신궁
▁알마
▁에픽
▁운석
▁직각
▁흑색
▁Get
▁만주족
▁리하르트
▁폼페이우스
▁고는
▁깨지
▁명장
▁의대
▁황하
▁GPS
▁메신저
▁사망률
▁요시카
그라운드
▁비로자나
월드
처럼
let
▁BB
▁서곡
▁수화
▁천태
▁철근
▁출정
▁출항
▁MIT
▁디렉터
▁로런스
▁베테랑
▁태양광
▁트로츠키
▁둑
▁뿜
enn
▁나날
▁무쓰
▁배지
▁버거
▁어둡
▁오랑
▁하세
inal
▁마거릿
▁Baby
▁남한산성
▁레오나르
UM
▁DA
▁니트
▁듀엣
▁발열
▁비방
▁윈드
▁효모
▁라이드
▁부천시
▁스펜서
▁양평군
▁주세페
▁펼쳐지
ology
경찰
박이
심원
투르
▁개축
▁결단
▁결렬
▁공지
▁관원
▁국산
▁미로
▁박동
▁생포
▁장론
▁제헌
▁탄광
▁행한
▁호박
▁화교
▁아열대
▁행해진
남동
덱스
메랄
오드
▁극회
▁누에
▁민선
▁승선
▁쓰리
▁장승
▁쟁점
▁조엘
▁치밀
▁허구
▁블러드
▁모노이드
TN
▁Dr
▁개리
▁건네
▁공훈
▁그간
▁다라
▁대소
▁레반
▁비고
▁사옥
▁수선
▁예일
▁증류
▁지회
▁청군
▁카불
▁알아차
▁한정판
▁안티오키아
금속
무실
▁결집
▁군위
▁기교
▁꾸미
▁도보
▁총수
▁출병
▁친히
▁캔터
▁365
▁Way
▁모터쇼
▁민의원
▁부사장
▁사이다
▁스트라
▁시나노
▁이유로
▁이지스
▁정몽주
▁선거인단
니츠
시카
입자
▁PH
▁니체
▁베아
▁봉헌
▁악역
▁필로
▁감마선
▁혈액형
▁게오르기
▁서귀포시
당류
테일
▁굴욕
▁명중
▁불길
▁연어
▁외가
▁충고
▁카노
▁학도
▁효성
▁리카르
▁쌍방울
▁전망대
ature
▁로베르트
가키
락부
▁고취
▁기형
▁비긴
▁산마
▁에인
▁으뜸
▁해머
이즈미
▁직할시
▁리얼리티
▁이오니아
▁프레더릭
나비
백색
컨드
app
ons
ret
▁도난
▁도량
▁벅스
▁북송
▁사계
▁설과
▁영위
▁키치
코비치
▁TOP
▁다카시
▁리그전
▁범어사
▁선데이
▁시아파
▁올라갈
▁태극기
▁Cent
▁라이온스
갱이
▁SG
▁SW
▁갑오
▁끼워
▁변조
▁이게
▁이부
▁창씨
▁콘셉
▁풍기
▁국무부
▁대학살
▁도나우
▁신안군
▁알레산
▁이치로
▁지포스
▁함부로
의금부사
▁에두아르
▁System
FS
za
즈미
현실
▁결실
▁경산
▁레르
▁맞닿
▁매튜
▁벗겨
▁선서
▁스틱
▁풋살
피에르
▁나눈다
▁디나모
▁프린터
▁1815
▁나왔으며
▁아르바이트
▁리서
▁살레
▁성찬
▁세도
▁습도
▁에든
▁전극
▁주스
▁토의
▁특혜
말라야
▁Dis
▁무정부
▁일제히
▁피드백
▁필리스
▁에든버러
랭크
민정
▁노하
▁롤리
▁사악
▁인노
▁장서
▁쿠사
▁퍼플
▁하츠
▁합장
▁207
▁김종직
▁생김새
▁세컨드
▁야행성
▁유공자
▁전동기
▁포인터
로프로세서
▁마이크로프로세서
▁갸
▁욘
▁공해
▁기주
▁내게
▁모잠
▁사보
▁새해
▁천리
▁치루
▁트롤
▁한꺼
ater
▁가디언
▁농민군
▁조합원
▁1820
▁모잠비크
▁한꺼번에
카라
ina
▁깁슨
▁봐야
▁서역
▁월경
▁위배
▁잔치
▁테살
▁강릉시
▁내려갔
▁돌아올
▁모델링
▁미우라
▁일진회
▁지팡이
▁훅
다스
마니
▁공보
▁베컴
▁본진
▁소탕
▁음역
▁이구
▁조너
▁종단
▁하카
지먼트
▁노무라
▁두더지
▁혁명가
▁사라진다
▁필하모닉
▁매니지먼트
▁폴리네시아
24
▁기근
▁김석
▁당사
▁모질
▁슐레
▁슬퍼
▁이삭
▁자막
▁직류
▁펜스
▁헬로
▁힘쓰
ange
▁고고학자
▁마쓰모토
▁서대문구
▁히말라야
▁레닌그라드
끄럽
▁격상
▁견지
▁녹말
▁달마
▁디펜
▁만수
▁분담
▁아약
▁에뮬
▁음양
▁조나
▁피시
▁그리드
▁연습생
▁저지르
▁오스트로
▁막시밀리안
실험
▁로제
▁마취
▁살피
▁시차
▁전란
▁형광
▁휴먼
▁Tra
▁오징어
▁페레스
▁후베이
▁High
ux
▁경구
▁더빙
▁마초
▁미완
▁미추
▁신안
▁옵티
▁정현
▁특위
▁학생회
▁카롤루스
토바
▁던진
▁술집
▁전액
▁좌랑
▁징후
▁코넬
▁태상
▁한라
▁Int
▁노르트
▁적절히
▁체육회
▁프로방스
광사
라나
쓰네
▁노총
▁담장
▁마도
▁융기
▁지반
▁출루
▁퇴계
스티안
▁마피아
▁아드리
▁지방도
▁알베르트
자유
ley
▁FS
▁기민
▁발췌
▁세실
▁앨버
▁쿠리
▁프록
▁피쳐
▁USA
▁광화문
▁군산시
▁선언문
▁아약스
▁액티브
▁조병옥
▁트랜싯
▁1858
▁밈
▁엎
퍼트
▁기욤
▁데니
▁위태
▁지뢰
▁한가
가하라
▁Mac
▁Not
▁도망가
▁수증기
▁크레타
▁프렌즈
▁천연가스
▁알렉산드라
▁캔자스시티
▁귤
거루
베인
비츠
적분
▁관대
▁낙태
▁만연
▁매질
▁소켓
▁아토
▁양분
▁엠블
▁완산
▁육박
▁초당
▁퀘이
▁탈리
▁테드
▁핑계
▁도치기
▁목포시
▁즐거운
▁평상시
▁합쳐져
글러
운전
전쟁
▁대정
▁로어
▁안재
▁제법
▁진하
▁콤비
▁포섭
▁노트북
▁라쿠텐
▁분홍색
▁마그네슘
▁알베르토
att
▁광서
▁군집
▁기악
▁당명
▁수훈
▁엠마
▁율령
▁주상
▁토드
▁허들
▁MLB
▁관찰자
▁내려온
▁중심핵
▁쫓겨나
▁파블로
▁Type
▁조선왕조실록
▁고택
▁납품
▁농작
▁도표
▁마신
▁스쿠
▁스팅
▁청했
▁거머쥐
▁깨달음
▁모조리
▁베일리
▁비올라
▁안티고
▁티무르
데냐
사랑
싸움
▁군비
▁급사
▁능하
▁말소
▁보카
▁수강
▁좌천
▁커져
▁합산
▁효용
▁마에다
▁수도사
▁스와프
▁신익희
▁갑작스런
▁보호구역
▁사르데냐
▁암모니아
▁동아프리카
정제
▁고갈
▁궁내
▁급기
▁데인
▁마고
▁바하
▁우대
▁우이
▁재주
▁펠레
▁막아내
▁연구실
▁조너선
▁플래그
▁1814
▁자연주의
▁class
토쿠
▁견훤
▁군락
▁남궁
▁동티
▁보육
▁아핀
▁알렌
▁에린
▁열망
▁이철
▁총액
▁풍수
▁학급
▁혼돈
정보부
▁고조선
▁스타인
▁시게루
▁크라스
▁무궁화호
식스
촌동
코인
ART
▁갈비
▁로타
▁모식
▁부탄
▁비욘
▁수의
▁애매
▁어쨌
▁어쩌
▁의왕
▁정공
▁제보
▁진구
▁총살
▁키아
▁푸틴
지스터
▁리포트
▁스레드
▁플라자
▁돌아와서
▁서아시아
기둥
▁감탄
▁독실
▁선지
▁소정
▁아말
▁아픔
▁용접
▁원생
▁유승
▁전집
▁증직
▁직권
▁290
▁IEC
▁WHO
▁니스트
▁성명서
▁어려울
▁정확도
▁클라이맥스
뉴스
동리
마일
스테
재단
▁니라
▁덕수
▁마틸
▁모를
▁민가
▁벨벳
▁비호
▁성제
▁완주
▁장택
▁정일
▁증원
▁Art
▁가져갔
▁사이공
▁주교좌
▁혁명군
▁1300
▁샌드위치
▁토스카나
▁그리스도교
▁그리스도인
어냈
OVE
▁Of
▁괴뢰
▁늘렸
▁북상
▁열풍
▁팬아
▁헤지
▁헬렌
플레잉
▁봉수대
▁커티스
▁합쳐서
▁그래미상
▁롤플레잉
▁자유민주
▁프로이트
▁트랜지스터
que
▁구자
▁노화
▁랜덤
▁만기
▁미자
▁영재
▁우도
▁정과
▁패드
▁TBC
▁교토부
▁올라온
▁유성구
▁지방관
▁취약점
▁패트리
▁type
▁맞배지붕
▁받아들일
▁서프랑크
▁세키가하라
거성
전차
enc
▁루지
▁리츠
▁머피
▁승전
▁실크
▁약학
▁틈타
▁패퇴
▁훈족
▁무너져
▁전철역
▁타블로
▁프리킥
살바도르
▁플레이스
▁여러해살이풀
yle
▁EN
▁감기
▁레딧
▁면은
▁목화
▁문성
▁바사
▁손쉽
▁신관
▁씨름
▁옥상
▁이덕
▁지층
▁캐럴
▁키웠
▁토비
▁판다
▁포진
▁공기업
▁상대론
▁하모니
▁보였으나
▁페더레이션
BN
회원
alk
▁ED
▁Vf
▁리온
▁미에
▁아랑
▁암초
▁얼터
▁웅진
▁이뤘
▁흥덕
▁LCK
▁건널목
▁겨울철
▁아쿠아
▁파출소
▁평의원
▁What
▁산업단지
▁크리스천
ye
▁뱌
구멍
▁게일
▁규장
▁나눔
▁소치
▁헤임
씨식물
▁MHz
▁대항해
▁맞대결
▁미시간
▁변속기
▁스타즈
▁에히메
▁창업자
▁아나키즘
▁병인
▁보궐
▁소도
▁포교
▁할양
학생회
ough
▁Med
▁건너편
▁다면체
▁돌아간
▁등록금
▁성북구
▁수번뇌
▁우승컵
▁준다고
▁중서부
▁충주시
▁아오모리현
건적
ger
▁Di
▁kW
▁구석
▁려다
▁올랭
▁238
▁남조선
▁넥스트
▁드러난
▁바로잡
▁여긴다
▁재빨리
▁초대칭
▁키워드
▁With
▁수마트라
▁요시아키
▁총학생회
ING
▁민권
▁선회
▁세베
▁언젠
▁인대
▁장조
▁직함
▁파드
▁홍천
▁나가노
▁보행자
▁윤리학
▁평택시
▁포스코
▁1795
▁아틀레틱
▁Google
TR
▁렝
르모
천국
▁개전
▁경이
▁김세
▁드니
▁레미
▁매춘
▁미숙
▁석등
▁순정
▁스톨
▁일람
▁착한
네소스
독립당
▁850
▁원정군
▁홉킨스
▁받아들인
▁카테고리
▁한국독립당
▁윔
림동
▁과부
▁독소
▁멜론
▁쇠약
▁우사
▁윈터
▁이효
▁정여
▁켈빈
▁페터
▁하디
▁헨드
주니어
▁남반구
▁쓰여졌
▁트루먼
▁포위전
▁갑신정변
팽이
▁내수
▁마는
▁몬태
▁브람
▁수렵
▁에런
▁윗면
▁이국
▁준하
▁차분
▁첨부
▁페데
디우스
▁480
▁메이트
▁무너졌
▁베드로
▁블루어
▁석가여래
▁어드밴스
▁언어학자
▁중앙정보부
니코
부미
▁고해
▁어딘
▁월북
▁웰스
▁유시
▁빼앗겼
▁익산시
▁통신부
▁MPEG
▁드레이크
▁디렉터리
▁사탕수수
▁여주인공
▁키르기스스탄
▁깡
레프
▁국지
▁니나
▁니콘
▁도정
▁민생
▁반야
▁부녀
▁장준
▁정병
▁코지
▁국문학
▁로렌초
▁여객선
▁다리우스
▁하이웨이
대성
블린
▁PP
▁도색
▁루머
▁여과
▁원술
▁유원
▁줄였
▁특례
▁공직자
▁웨이트
▁찾아왔
▁체스터
▁자동변속기
UI
▁뚱
▁먀
▁뺏
▁각광
▁골수
▁광택
▁국과
▁굶주
▁기시
▁남포
▁데메
▁맛있
▁미코
▁보훈
▁본초
▁불평
▁신구
▁심플
▁이트
▁인신
▁팀장
▁필기
▁COM
▁Rev
▁빅토리
▁시공간
▁합천군
▁황태후
▁부위원장
▁COVID
▁켓
▁걸치
▁당분
▁로동
▁발단
▁버시
▁이형
▁정강
▁참배
▁펀치
▁훔쳐
시우스
▁737
▁북반구
▁1793
▁안드레이
사회
▁교묘
▁내구
▁몸집
▁종친
▁평신
▁해일
캐스트
▁223
▁돋보이
▁에밀리
▁가나자와
23
개혁
der
▁갤러
▁고운
▁구인
▁군국
▁깜짝
▁낙타
▁덩굴
▁데쓰
▁바덴
▁바일
▁설사
▁세탁
▁센다
▁연유
▁천구
▁클루
슬라브
▁가입자
▁남해군
▁데포르
▁돗토리
▁손바닥
▁안데르
▁알레르
▁제이스
▁창덕궁
▁팩토리
▁Blue
▁꼼
섬유
재란
▁간디
▁논설
▁느라
▁랜디
▁무당
▁박승
▁보츠
▁솔트
▁야로
▁엄정
▁오호
▁존엄
▁쿠릴
▁기뻐하
▁벤피카
▁산체스
▁이완용
▁추밀원
▁정유재란
메트
하스
▁교주
▁권하
▁돌핀
▁마조
▁말린
▁범용
▁산불
▁숭실
▁장항
▁천정
▁환기
루리아
코스트
▁낙하산
▁유격대
▁페테르
총리대신
▁1846
▁갈릴레이
▁기념사업
▁브루나이
▁블레이드
▁상파울루
▁이베리아
▁이해관계
▁시즈오카현
▁내각총리대신
▁낀
래시
모자
ump
▁다지
▁묘법
▁성내
▁아민
▁언약
▁역습
▁이견
▁표결
▁농작물
▁보라색
▁아칸소
▁이브라
▁테이크
▁평화상
26
BT
▁넉
든지
바람
증권
▁갑각
▁걸맞
▁구토
▁귀양
▁리저
▁서강
▁억류
▁예속
▁철원
▁총체
▁치중
▁데려가
▁문하시
▁보호관
▁엉덩이
▁입출력
▁전기장
▁지난해
▁페인트
▁하카타
▁중앙아프리카
IO
LC
나물
리가
▁경멸
▁교포
▁국면
▁대뇌
▁분양
▁새기
▁유품
▁제식
▁주경
▁톨킨
▁하순
▁핵산
▁Top
▁국무원
▁충렬왕
▁테트라
▁에드먼드
▁퓌
▁ME
▁구룡
▁박기
▁베버
▁본당
▁섬겼
▁실로
▁역모
▁와해
▁윤석
▁조력
▁추위
▁트러
연화경
웨스트
▁LCD
▁Min
▁기부금
▁다이나
▁상속인
▁Beat
▁서스펜션
▁초등학생
▁돛
파스
패스
호프
후이
▁괴멸
▁봉작
▁상작
▁서보
▁수류
▁칼레
▁페가
▁후시
비우스
▁산둥성
▁시어터
▁외무성
▁물리학상
▁오브젝트
▁하시모토
▁히로부미
▁네덜란드어
HD
처리
▁간장
▁라티
▁모기
▁미묘
▁박인
▁브롱
▁심근
▁웨일
▁육아
▁치수
다람쥐
티우스
프랑스
▁구청장
▁버나드
▁절대로
스트리트
▁1839
▁공화주의
▁미성년자
▁소용돌이
▁촘
우어
질량
▁방조
▁인출
▁해자
▁현충
쿠스틱
▁러서는
▁아산시
▁지난다
▁1854
▁time
▁어쿠스틱
버드
연대
▁고하
▁공덕
▁망루
▁볼륨
▁윤원
▁쪼개
▁휘트
▁가시마
▁배수량
▁배트맨
▁취한다
▁비지니스
▁간염
▁등대
▁디디
▁몰입
▁박준
▁브론
▁사흘
▁상투
▁새턴
▁성추
▁아모
▁욕설
▁인피
▁코레
▁후백
▁214
▁430
▁아테나
▁오비탈
베이거스
▁끌어들이
깨비
왕국
천년
▁고압
▁마한
▁매월
▁반려
▁반열
▁본디
▁비참
▁사죄
▁센스
▁오딘
▁찬탈
▁케도
▁퇴단
▁교직원
▁보나파
▁비행대
▁언젠가
▁찬드라
▁파트리
▁기독교인
▁데포르티보
▁보나파르트
▁라스베이거스
고트
러기
렁이
정권
▁견습
▁메사
▁생가
▁석상
▁어기
▁적재
▁종주
▁치가
니다드
▁건국대
▁증명서
▁향한다
▁후임자
▁1849
▁차량기지
▁트리니다드
OU
▁걸로
▁매번
▁미모
▁부윤
▁소홀
▁시경
▁신작
▁오닐
▁원제
▁유폐
▁으론
▁인테
▁제학
▁존상
▁현령
▁화전
트로피
▁211
▁경비대
▁식물원
▁어리석
▁진보당
▁헬싱키
▁플로이드
담회
호르
▁계란
▁담론
▁북해
▁소란
▁손책
▁알비
▁우동
▁태세
▁화북
고양이
atch
▁419
▁보르도
▁장택상
▁마음대로
28
▁럴
누아
▁김문
▁만국
▁변방
▁어이
▁웅장
▁윤영
▁임베
▁잇달
▁제원
▁파격
▁FBI
▁건너갔
▁대머리
▁안중근
▁노동자당
▁비트코인
▁임베디드
오린
탐정
▁낙랑
▁단사
▁배설
▁분쇄
▁분장
▁셔먼
▁스맥
▁유장
▁친절
▁틀리
▁폰트
▁필살
▁갖가지
▁은하단
▁하이든
▁1856
▁정사각형
려야
소득
재기
▁TG
▁광경
▁단성
▁두껍
▁라몬
▁비크
▁여생
▁장령
▁페드
▁한서
궐선거
리어스
타니아
▁레인보
▁조계종
▁참모장
▁해럴드
▁Will
▁이와테현
▁크레이그
▁재보궐선거
▁통합진보당
▁크리에이티브
버거
전기
oup
▁가니
▁명주
▁부이
▁열반
▁적성
▁추궁
▁가속기
▁감염자
▁시부야
▁카운터
▁펠로폰
츠부르크
타고라스
▁1851
▁델라웨어
▁펠로폰네소스
▁쥔
니크
일라
▁낙엽
▁단호
▁대세
▁마자
▁밀스
▁수배
▁태워
▁한참
▁301
▁베르디
▁아가씨
▁에리크
▁특이점
▁반공주의
▁스탠퍼드
ery
▁KC
▁계투
▁남로
▁낯선
▁디온
▁방한
▁벽면
▁시주
▁심슨
▁요아
▁원가
▁이안
▁타현
▁팔려
▁페티
▁글리코
▁대주주
▁북극해
▁쓰여져
▁저작물
86
ma
▁녜
바꿈
카테
쿠젠
▁결탁
▁서상
▁연임
▁타고
▁히다
직할시
icro
▁공사관
▁레이어
▁일간지
▁사보이아
▁폴란드인
케스
▁상체
▁성간
▁소망
▁오기
▁카잔
▁케니
cess
▁그로스
▁다닌다
▁명명법
▁스나이
▁잇따라
▁투데이
▁핵폭탄
메니스탄
▁1857
▁스맥다운
▁올랭피크
▁캐나다인
▁투르크메니스탄
로아
지대
테른
투안
하늘
▁ER
▁IA
▁거액
▁귀납
▁니즘
▁도독
▁발송
▁방수
▁버퍼
▁빌미
▁원성
▁잊혀
▁잠복
▁재원
▁정시
▁착안
▁찬스
▁촌은
▁퇴사
▁헤엄
▁현청
▁히나
▁변증법
▁세운다
▁수산물
▁수수료
▁진정한
▁집어넣
▁핵실험
▁다이스케
▁엔트로피
니엄
모습
체어
▁쇼팽
▁하쿠
▁현명
제르맹
▁노스케
▁무서운
▁바란다
▁새천년
▁지평선
▁쫓아내
▁최하위
▁형무소
▁1855
▁힉
레토
연료
▁경색
▁미안
▁보문
▁신영
▁쌓여
▁현생
▁마그마
▁서북쪽
▁하이델
▁행정관
▁Free
▁프란시스
29
봉사
▁YM
▁가메
▁김한
▁노다
▁박격
▁변장
▁분개
▁수서
▁정년
▁헐리
▁대각선
▁동의어
▁모여서
▁사모아
▁애벌레
▁캥거루
▁하동군
▁빠져나가
▁스티븐스
쇼프
흐트
▁과업
▁까다
▁벚꽃
▁액수
▁외동
▁음경
▁주치
▁체임
▁캔디
▁택지
▁템포
▁항모
들랜드
중국해
▁XML
▁구석기
▁기념식
▁봉사자
▁시흥시
▁황도대
▁생제르맹
하르
▁간파
▁대열
▁몰라
▁무왕
▁비이
▁서천
▁이로
▁지소
▁포구
▁픽션
▁합체
▁Pop
▁비정규
▁상세히
▁성추행
▁작사가
▁컨디션
▁포브스
▁휠체어
▁무라카미
▁사카모토
▁열렸으며
▁병마절도사
▁캄파니아주
27
▁기물
▁대광
▁덧셈
▁맛보
▁슈바
▁주둥
▁친목
▁병원체
▁찾아온
▁들어와서
▁민족주의자
▁오하이오주
▁구운
▁권세
▁노회
▁본기
▁성년
▁성채
▁수스
▁신명
▁역행
▁이학
▁지어
▁체첸
▁코민
▁한도
메네스
콥스키
▁루터교
▁모티프
▁오카다
▁해설자
▁스포르팅
▁원내대표
▁뛴
▁좡
댄스
평가
▁Po
▁고증
▁대적
▁도기
▁라데
▁만리
▁미팅
▁서드
▁슬픈
▁위니
▁장구
▁중첩
▁지병
▁해금
▁회부
시오날
▁마인드
▁비엔나
▁태그팀
▁LIVE
▁나시오날
▁불렀으며
▁태평천국
▁플루오린
산읍
ont
▁급습
▁녀석
▁셀룰
▁셰이
▁실습
▁요네
▁카렐
▁칸타
▁급기야
▁나주시
▁달라이
▁샘플링
▁포천시
▁프로파
▁ne
▁누락
▁딸린
▁레베
▁문교
▁버릴
▁비기
▁산탄
▁외벽
▁이공
▁탄원
▁퇴화
▁호가
▁화신
덜랜드
▁Bro
▁구미시
▁려다가
▁베르그
▁출생지
▁포위망
▁미주리주
▁포레스트
노동
마타
스탕
▁계파
▁몬트
▁사극
▁살림
▁압송
▁입안
▁직제
▁베리아
▁시우바
▁헤이스
를린
서구
day
▁금광
▁당기
▁버즈
▁영아
▁와트
▁준위
▁청탁
▁크세
▁파사
▁수송기
▁시설물
▁좋아했
▁팰리스
▁항구역
▁1776
▁가까스로
▁클라리넷
가야
광선
▁교복
▁국고
▁뇌졸
▁명지
▁율곡
▁지남
▁총알
▁최경
▁타가
레시브
▁del
▁독립국
▁브레인
▁아세트
▁영등포
▁원한다
▁퍼펙트
▁국민회의
▁프로그레시브
계리
페리
활성
aut
▁HK
▁반가
▁심신
▁음란
▁천명
▁팔자
▁픽업
▁End
▁리서치
▁보니파
▁이범석
▁크리켓
▁올랐으나
▁플레이트
▁국물
▁대흥
▁명절
▁생사
▁알론
▁이연
▁장타
▁정파
▁포탈
▁표했
▁혹독
메데스
▁게이츠
▁메이플
▁바이스
▁청교도
▁청구인
▁후반부
▁코미디언
▁그레고리력
▁레오나르도
▁프로토타입
돼지
팔렌
▁골목
▁김보
▁나나
▁메콩
▁부총
▁서던
▁세브
▁연좌
▁연천
▁음소
▁정량
▁포에
▁홀드
▁다시피
▁목걸이
▁서기장
▁에인절
버섯
▁BR
▁FX
▁린드
▁사성
▁양손
▁조식
▁쿠페
▁한방
▁233
▁가까웠
▁레일리
▁부활절
▁브리트
▁클라라
▁특공대
▁10000
니발
▁각별
▁간소
▁박주
▁발주
▁비슈
▁수잔
▁여긴
▁전갈
▁접착
▁지워
▁클론
▁판별
▁포즈
노벨라
▁215
▁거제시
▁경기력
▁레너드
▁심포니
▁유니온
▁미시간주
▁인테리어
▁텔레노벨라
행사
its
▁TN
▁괴팅
▁국채
▁노미
▁땅콩
▁로로
▁모더
▁세가
▁영세
▁표상
▁퓨전
▁가로막
▁계약서
▁단기간
▁서둘러
▁수메르
▁엑스선
▁해적단
HS
▁쉰
oss
▁끊이
▁누각
▁대양
▁반증
▁살상
▁샬럿
▁시로
▁안다
▁양력
▁욕심
▁창안
▁편하
▁Des
▁김종필
▁쓰러져
▁영산회
▁이어질
▁네브래스카
슐린
▁MW
▁로미
▁루아
▁미망
▁반일
▁어진
▁영연
▁우랄
▁지단
▁계약금
▁버려진
▁서로마
▁에버턴
▁플랜트
▁LOVE
▁피에트로
▁묘법연화경
▁언더그라운드
br
개발
급시
볼트
빼미
에리
워키
▁CV
▁교우
▁금화
▁노먼
▁달렸
▁로젠
▁미움
▁상시
▁실드
▁어필
▁커트
▁Big
▁권력자
▁돌려주
▁동북쪽
▁Sing
저민
IDS
▁JP
▁가인
▁시왕
▁아속
▁열광
▁요세
▁위드
▁유즈
▁윤선
▁점하
▁조참
▁진안
▁쿠키
파트라
irst
▁239
▁510
▁벤저민
▁파이브
▁클레오파트라
▁RE
▁WH
▁구나
▁독감
▁돼서
▁라비
▁마마
▁맞섰
▁부원
▁수난
▁시판
▁에나
▁우메
▁이족
▁제반
▁콘월
▁문화사
▁Rain
▁돌아온다
▁아틀라스
▁알레르기
타라
▁감명
▁구면
▁루소
▁면접
▁서훈
▁숙성
▁약정
▁주어
▁최북
▁카쿠
핵생물
▁212
▁미카사
▁생태학
▁한마디
▁사다하루
▁캔터베리
be
미치
하워
▁SI
▁감히
▁낭독
▁도핑
▁북제
▁불황
▁시동
▁신재
▁위아
▁이계
▁정약
▁청화
▁황보
▁BMW
▁사중주
▁조기어류
▁아이젠하워
▁히로시마현
▁개간
▁경수
▁상피
▁서킷
▁시료
▁은둔
▁정철
▁즐겁
▁처했
▁틈새
▁향리
▁호치
▁DFB
▁set
▁게이초
▁버밍엄
▁서남쪽
▁아르카
▁전년도
▁Mnet
▁권위주의
개명
▁공녀
▁대검
▁로자
▁배영
▁세관
▁아그
▁우문
▁원화
▁음색
▁장보
▁치이
너티브
▁미술가
▁보호자
▁사생아
▁양서류
▁요리사
▁월리스
ement
▁1792
▁떨어뜨리
▁뱀파이어
▁얼터너티브
BL
▁찻
▁큼
지않
쳐서
▁CT
▁귀향
▁근연
▁도금
▁디어
▁사구
▁시구
▁질레
▁촌락
▁탄환
▁튀르
▁패주
▁호러
▁홍백
▁경영진
▁논산시
▁정말로
▁출연진
▁퀘스트
▁표준어
▁프리랜
▁핵연료
▁호위함
▁계몽주의
▁젬
살라
코바
▁개년
▁나니
▁덤불
▁듀크
▁밑면
▁방과
▁상권
▁슬럼
▁시암
▁안상
▁외화
▁지드
▁추석
▁출소
▁코다
▁트인
즐랜드
▁부제학
▁슈퍼주니어
▁잣
이인
▁내쫓
▁도고
▁독신
▁유실
▁윤회
▁이면
▁정태
▁제향
▁착오
▁티르
▁히브
메이트
▁Bar
▁게이머
▁목격자
▁밀워키
▁재정난
▁퀸즐랜드
▁begin
▁롬바르디아
그림
얼빈
▁경치
▁만찬
▁바크
▁수뇌
▁스커
▁최재
▁춤추
▁호엔
▁명백히
▁베이컨
▁브람스
▁재판장
▁크래프트
▁엘살바도르
▁퓰
타바
▁do
▁까치
▁라벤
▁매너
▁색인
▁선방
▁쓰가
▁지터
▁칼빈
▁케스
▁쾌락
▁틀림
▁후신
▁기장군
▁릴리스
▁랜드마크
▁소선거구
▁카리브해
▁퍼레이드
보스
삼문
임수
aff
vis
▁CL
▁구급
▁다의
▁메트
▁서하
▁절멸
▁카오
▁회중
▁앵글로
▁좀처럼
▁중학생
▁지도력
▁1852
▁경향신문
▁천주교회
▁프라이스
▁Hello
경궁
바타
방식
▁관서
▁그람
▁비츠
▁수온
▁실화
▁어음
▁예견
▁오쓰
▁우쓰
▁유루
▁타코
▁탄화
▁함안
▁검사장
▁다각형
▁동식물
▁외삼촌
▁중생대
▁1853
▁Road
▁도네츠크
▁동대문구
▁모하메드
▁창씨개명
도서
루이
▁FN
▁나츠
▁나팔
▁배울
▁수첩
▁식료
▁에타
▁예천
▁요트
▁제각
▁주술
▁그려지
▁더구나
▁앞장섰
▁에르난
▁콘셉트
▁1791
▁Show
▁옥타비아
▁즌
▁가평
▁입적
▁점심
▁종택
▁초중
▁키움
▁평년
▁무인역
▁프레디
▁void
▁옅
노헤
막염
오세
▁구보
▁모후
▁밀턴
▁산토
▁섬멸
▁셰프
▁오에
▁자락
▁카멜
▁캄포
▁합방
▁황성
▁희박
하이머
▁과선교
▁중대장
▁지원자
▁최적화
▁현악기
▁다운타운
▁시트르산
▁Sound
▁테러리스트
▁콘스탄티노플
고도
티드
▁EF
▁갑판
▁관사
▁난간
▁노던
▁망상
▁미신
▁박중
▁버블
▁아쓰
▁연작
▁지기
▁친숙
▁푸시
컨트리
▁간행물
▁무안군
▁벌어들
▁브리즈
▁앞장서
▁사회단체
▁속씨식물
▁필리포스
▁강물
▁고질
▁고타
▁기노
▁노년
▁뭔가
▁버락
▁울음
▁원망
▁이도
▁진과
▁한류
▁호감
▁늘어난
▁분화구
▁세일러
▁이베이
▁조나단
▁1100
▁좋아한다
▁크로스컨트리
▁뚝
귀비
야구
하트
ech
▁RD
▁기치
▁김호
▁래스
▁부응
▁아만
▁여태
▁영해
▁월급
▁장영
▁최치
▁도지사
▁비스트
▁싫어하
▁유목민
▁레인보우
way
▁es
▁강수
▁고작
▁궁금
▁냉동
▁능통
▁대파
▁독려
▁동복
▁린치
▁마왕
▁발화
▁밥상
▁보두
▁안젤
▁윤상
▁자력
▁파니
▁학점
▁느낀다
▁레프트
▁쓰임새
▁올빼미
▁옹진군
▁저술가
▁점성가
▁카이저
▁1847
▁개인주의
▁팬아메리칸
▁똥
▁빽
색슨
에어
▁가한
▁경감
▁남짓
▁띈다
▁미일
▁수전
▁수찬
▁얼리
▁해동
대주의
▁221
▁LTE
▁Red
▁강아지
▁레슬리
▁상류층
▁성동구
▁세포막
▁음악회
▁피스톤
▁하얼빈
▁Like
▁글래스고
▁모모야마
▁앵글로색슨
▁RO
▁베레
▁베인
▁벨레
▁북진
▁삼부
▁송금
▁실황
▁쑨원
▁장터
▁장현
▁정구
▁패미
▁폐간
▁품계
▁후각
리오카
소년단
▁관악구
▁꽃받침
▁수류탄
▁현저히
▁교섭단체
▁시라카와
▁옵티머스
WS
yl
▁덥
거슨
니언
▁가봉
▁골자
▁동족
▁들였
▁불펜
▁비약
▁서간
▁앙주
▁유위
▁전륜
▁존호
▁청진
▁추월
▁플뢰
▁가져와
▁내세운
▁독립성
▁브룩스
▁이스턴
▁인슐린
▁Over
▁움직인다
오밍
▁MX
▁OC
▁ac
▁교착
▁본적
▁슬롯
▁완투
▁왈라
▁우화
▁회군
노세키
▁Eng
▁김포시
▁배상금
▁세례명
▁유학생
▁정보국
▁브래들리
▁에트루리아
서기
ric
▁경학
▁국명
▁업소
▁연사
▁연일
▁오경
▁오목
▁우성
▁조위
▁팔각
▁포리
자위대
ouse
▁390
▁편의점
▁콘티넨털
▁Light
▁안티고노스
▁즙
비어
슈티
쿠로
ana
▁고부
▁궤멸
▁마누
▁마로
▁봉산
▁수작
▁신예
▁혈청
▁혹평
▁회기
▁...
▁나뭇잎
▁뇌졸중
▁박격포
▁유가족
▁탈수소
▁동명이인
▁루키우스
▁프리랜서
iet
▁NK
▁UK
▁강압
▁계명
▁공물
▁다키
▁드릴
▁들러
▁벙커
▁신숙
▁약국
▁유주
▁재귀
▁케어
▁크릭
▁흡혈
▁Net
▁갑각류
▁리히텐
▁잎자루
▁정찰기
▁황갈색
▁가이우스
▁도쿠시마
▁오를레앙
▁카리스마
▁프라이드
▁읊
랄라
본다
▁JS
▁갑상
▁계략
▁과천
▁낙인
▁덴버
▁반민
▁뿌려
▁색조
▁선승
▁신빙
▁안구
▁커크
▁프롬
하이드
▁개찰기
▁부사관
▁생산력
▁찾아보
▁프런트
▁하루카
▁은행나무
▁민속문화재
▁버지니아주
루트
▁고즈
▁균류
▁명품
▁무방
▁부결
▁성직
▁야채
▁외전
▁유흥
▁임업
▁조만
▁중흥
▁차드
▁친하
▁해류
ason
▁231
▁멤피스
▁미망인
▁자신감
▁태권도
▁후견인
보레
시간
옹주
▁mg
▁매운
▁비명
▁수유
▁스벤
▁여순
▁오데
▁우미
▁이등
▁쟁취
▁치타
▁키노
▁토사
베를린
슈타트
▁228
▁가오슝
▁도깨비
▁산화물
▁성범죄
▁요코스카
▁알려졌으며
▁꽁
어난
어내
코로
ner
▁TA
▁간편
▁다방
▁담화
▁미약
▁바예
▁북단
▁셀러
▁셀프
▁재야
▁청렴
▁토토
자동차
▁가야금
▁구한다
▁할수록
▁피타고라스
제곱
체인
▁PK
▁Pa
▁과수
▁노시
▁라피
▁보현
▁선더
▁속이
▁송병
▁실바
▁아레
▁체온
▁콕스
▁티나
▁정착민
▁집합론
▁1837
▁1844
▁팁
호크
▁각인
▁메로
▁비니
▁식년
▁아워
▁약제
▁유예
▁장엄
▁칼초
▁Sec
▁예배당
▁창세기
브레히트
▁포리스트
▁강판
▁거장
▁걸즈
▁노숙
▁동천
▁만능
▁아론
▁정연
▁취락
▁트랩
▁하체
▁한옥
▁해왔
▁홍명
▁Har
▁무척추
▁비대칭
▁연장선
▁취임식
▁저널리즘
▁네덜란드인
▁렸
조작
프슨
ven
▁ro
▁걸릴
▁급부
▁눈부
▁독단
▁아저
▁열등
▁요안
▁풍토
▁950
▁단체장
▁드래건
▁모국어
▁반대쪽
▁발자국
▁여름철
▁곤살레스
▁트레이너
▁고군
▁김혜
▁냉방
▁밀교
▁연마
▁원판
▁이천
▁일직
▁청풍
▁코노
echn
▁미스트
▁쓰러지
▁아저씨
▁아즈치
▁조교수
▁합쳐진
▁현급시
▁환경부
코프스키
▁고속철도
99
소시
▁GD
▁맨틀
▁미오
▁방랑
▁성희
▁숙고
▁엘프
▁옴니
▁익주
▁제례
▁집약
▁출근
▁테츠
▁호라
▁홍대
사이클
▁226
▁520
▁SQL
▁Sum
▁발명가
▁항저우
▁호찌민
▁Stud
▁북베트남
▁알레산드로
aj
부스
red
▁낙농
▁때리
▁라코
▁만경
▁매드
▁벨로
▁속죄
▁스털
▁자니
▁친형
▁발행인
▁예카테
▁아시리아
▁오렌지색
HT
실론
▁거물
▁구했
▁라나
▁말러
▁무거
▁반원
▁방전
▁아명
▁예우
▁주앙
▁주청
▁초보
▁판도
▁007
▁fun
▁군단장
▁스타스
▁스턴트
▁유리수
▁임팩트
▁최남단
▁테레사
ution
▁1836
▁스테레오
뿌리
▁FR
▁가자
▁김나
▁김응
▁난자
▁라운
▁여가
▁여장
▁운문
▁이매
▁일신
▁자폐
▁총지
▁코라
▁타국
▁히치
국민당
민정음
정대부
▁로스터
▁지켜야
▁평창군
▁화순군
▁휘두르
▁CCTV
▁방탄소년단
▁Af
▁고야
▁광종
▁나방
▁넓혔
▁망막
▁문부
▁성왕
▁슈가
▁심층
▁썬더
▁전황
▁정순
▁증서
▁합전
▁혼용
▁가져올
▁자연사
▁헤이룽
▁페미니즘
IE
곡선
링거
시설
▁OF
▁건안
▁랭커
▁리턴
▁방황
▁빈약
▁사세
▁서동
▁소토
▁스퍼
▁알현
▁영흥
▁외젠
▁찬가
▁편모
▁폭우
니우스
▁315
▁관리국
▁아이유
▁요시노
▁움직여
▁일대기
▁제작소
▁케네스
▁퍼블릭
데하이드
▁블리자드
▁산마리노
▁승부조작
교동
기술
승람
타야
▁HE
▁XX
▁기만
▁난사
▁리부
▁반구
▁아의
▁앞당
▁예리
▁익사
▁목판본
▁이준용
▁근본주의
▁요시노부
07
▁칵
도체
영향
회로
▁군현
▁냉정
▁녹스
▁로랑
▁보사
▁우부
▁은사
▁이대
▁전광
▁정희
▁척수
▁허영
vent
▁기다렸
▁동인도
▁버틀러
▁윈스턴
▁헤이그
▁블레이크
▁훈민정음
개석
날두
돈나
하나
ism
▁난입
▁레고
▁물의
▁미용
▁선덕
▁성녀
▁소단
▁소변
▁숙의
▁오거
▁이젠
▁자급
▁전폭
▁주살
▁체격
▁투영
▁퍼부
▁포사
바이크
▁관동군
▁다이너
▁명륜당
▁빼앗긴
▁서산시
▁수호자
▁스코트
▁구스타브
▁마르티네스
uk
▁쉘
▁얌
생명
우며
전력
젤란
▁Mk
▁각오
▁공회
▁길목
▁디시
▁마태
▁모레
▁어판
▁워런
▁제스
▁증산
▁출진
▁핀다
▁757
▁노원구
▁닭고기
▁상나라
▁슐레스
▁아닌지
▁호날두
▁라플라스
자재
치카
▁EV
▁김만
▁도큐
▁마포
▁명은
▁병영
▁복고
▁봐서
▁살롱
▁승천
▁액정
▁이프
▁증여
▁지에
▁키나
▁키시
▁테베
▁토우
소시엄
유철도
ital
▁217
▁거문고
▁게임스
▁마리나
▁신인왕
▁앙코르
▁에리트
▁1794
▁컨소시엄
▁일본국유철도
피오
▁고드
▁관공
▁낸시
▁도노
▁바랐
▁비오
▁사시
▁상석
▁시술
▁아문
▁의금
▁이근
▁일류
▁주시
▁척탄
미사일
클랜드
▁640
▁베르너
▁시크릿
▁에스테
▁울릉도
▁원통형
▁위클리
▁최치원
등기
젠더
테롤
화가
▁데시
▁돌풍
▁마셨
▁마현
▁북면
▁용매
▁720
▁경제력
▁군사령
▁끊임없
▁알론소
▁연천군
▁매트릭스
▁모노레일
▁브리트니
▁콘스탄틴
루프
상도
우병
▁OP
▁UR
▁el
▁결속
▁낙향
▁단련
▁대면
▁동태
▁북조
▁수생
▁야르
▁이각
▁학제
▁히바
ator
▁경작지
▁밀양시
▁비디아
▁비서실
▁알렉시
▁오미야
▁정규군
▁제작비
▁1806
▁레오폴트
▁콘스탄티노스
시계
처분
▁고어
▁궁예
▁김부
▁매표
▁불순
▁사표
▁성충
▁쇼니
▁슈뢰
▁스즈
▁이교
사와라
▁공로자
▁떠올리
▁아타리
▁증손자
▁라그랑주
▁비로자나불
▁알브레히트
이나
플리
bum
▁대일
▁러더
▁명맥
▁박세
▁상도
▁쓸모
▁염료
▁정설
▁함평
▁610
▁Sci
▁갈라진
▁도승지
▁본회의
▁허난성
▁후백제
▁무너뜨리
▁코르테스
▁리히텐슈타인
▁딤
▁웁
야르
여왕
▁도감
▁불멸
▁오성
▁욕계
▁우트
▁접경
▁주오
▁철제
▁카밀
▁켈러
▁폐단
▁표범
▁헌제
▁후학
oney
port
▁교통량
▁니케아
▁만화책
▁문화원
▁야구팀
▁콩쿠르
▁우리나라
▁세르비아인
▁쁘
공간
급수
▁내사
▁돈녕
▁부록
▁비핵
▁선무
▁섭씨
▁수능
▁자의
▁저압
▁절연
▁타계
▁탈선
▁티노
▁달려가
▁복잡도
▁불명예
▁오보에
▁전투력
▁지린성
▁Play
▁총영사관
▁플라스마
08
▁ㄱ
외과
장자
▁GL
▁개회
▁낙원
▁누워
▁대축
▁로움
▁밀착
▁서라
▁여전
▁오정
▁와다
▁위선
▁의화
▁이발
▁잔당
▁조모
▁주방
▁키는
▁한산
▁Boy
▁RPG
▁고창군
▁규장각
▁기후현
▁남겨진
▁농경지
▁득점자
▁배포판
▁스털링
▁옆구리
▁이교도
▁코코넛
▁후쿠다
▁밀리미터
MP
▁봅
들레
사병
요리
▁관방
▁구식
▁산간
▁설법
▁세나
▁송정
▁인현
▁지루
▁차후
▁최충
▁퍼진
▁한진
▁희소
▁비핵화
▁에볼라
▁온전히
▁최북단
▁풀려나
▁하코다
▁밝혔으며
▁이스마일
▁오가사와라
▁프레데리크
▁박현
▁상향
▁신간
▁아일
▁인장
▁장부
▁채팅
▁해구
▁화사
form
▁갔으나
▁문학가
▁설리번
▁연구관
▁연주가
▁조선조
▁징병제
▁포워드
▁코민테른
고시
셔스
▁MT
▁군용
▁달래
▁릭스
▁민자
▁박제
▁반유
▁변제
▁비닐
▁숨졌
▁신현
▁실라
▁유추
▁윤봉
▁이륙
▁캡슐
▁파헤
▁펄스
▁폐막
▁Bad
▁갈아탈
▁비행단
▁사사키
▁생산물
▁실종자
▁오리올
▁윈난성
▁인구수
성이
시프
▁IB
▁동결
▁딸기
▁막혀
▁만두
▁번복
▁부마
▁소감
▁승소
▁아코
▁양부
▁의외
▁인솔
▁인턴
▁인회
▁조미
▁치앙
▁탐욕
▁투고
▁헌종
▁815
▁min
▁고분자
▁나가토
▁다가가
▁본다면
▁엄격히
▁영화사
▁예산군
▁오와리
▁충실히
▁그레이스
▁보였으며
▁프레드릭
▁슐레스비히
UT
▁젯
더기
무덤
바스
서면
▁기함
▁노량
▁단가
▁묵시
▁백국
▁보비
▁신데
▁실물
▁애도
▁엣지
▁원치
▁전소
▁주니
▁주안
▁주필
▁중사
▁진양
▁차리
▁출제
▁회랑
▁후생
스타파
스트로
▁공모전
▁모아서
▁에탄올
▁연해주
▁철원군
▁테슬라
▁해산물
▁흰개미
▁1798
▁보냈으며
▁호몰로지
전리
ony
▁구국
▁깔끔
▁노획
▁동면
▁번번
▁서광
▁순창
▁암벽
▁왜적
▁전경
▁토고
▁파벨
▁편수
▁하향
▁각운동
▁그린다
▁라이터
▁앞세워
▁오시마
▁조직원
▁족제비
▁학부모
▁1842
▁애틀랜틱
lex
ush
▁구레
▁극좌
▁네프
▁니컬
▁단판
▁병리
▁성급
▁쇼난
▁이레
▁종과
▁집현
▁처단
▁표류
▁피노
▁OVA
▁Rem
▁문학사
▁선발전
▁완주군
▁코러스
▁한니발
▁1796
▁1832
▁놓쳤
▁누설
▁로메
▁방계
▁선풍
▁신년
▁아슈
▁추봉
▁편차
▁학비
▁현안
▁EMI
▁감독상
▁글리세
▁대문자
▁웰링턴
▁쿠르트
▁헤이룽장
▁멕시코시티
▁뺨
▁간청
▁궁지
▁루르
▁만석
▁소각
▁소드
▁수계
▁쌍방
▁애너
▁유혈
▁이을
▁조그
▁책판
▁치역
raph
▁Met
▁마티아
▁술탄국
▁원동력
▁자위대
▁지원금
▁칭한다
▁코페르
▁That
▁레즈비언
▁마우리아
▁애기박쥐
▁브라이언트
▁트랜스젠더
▁페르난데스
▁뺀
▁간간
▁김소
▁벤자
▁어셈
▁의리
▁철권
▁촉한
▁티오
레이스
▁wid
▁미즈노
▁주간지
▁케로로
▁2030
▁King
▁마이니치
▁맥도널드
▁에드워즈
▁나가사키현
▁옙
그란
상가
▁거둬
▁공생
▁누벨
▁도합
▁문묘
▁보손
▁엥겔
▁잡음
▁절터
▁정산
▁침전
▁222
▁가부장
▁다섯째
▁도리어
▁무찌르
▁보두앵
▁불태우
▁인터랙
▁자치령
▁참정권
▁합법화
▁헥타르
▁홋스퍼
▁이오시프
af
뿔소
▁관철
▁금상
▁다원
▁물병
▁살균
▁소경
▁열중
▁정토
▁태사
▁독립당
▁소시지
▁앞부분
▁어쨌든
▁에르빈
▁이주한
▁잉글리
▁테크니
▁상륙작전
▁젓
ady
▁럭키
▁마수
▁성층
▁쿼드
▁토레
▁투과
▁후왕
이스터
▁460
▁660
▁ROM
▁남양주
▁레인지
▁미완성
▁아랍인
▁제이미
▁쫓겨났
▁타이밍
▁트래픽
▁Inst
▁각운동량
▁스위프트
▁멩
▁횃
밍고
트론
▁MR
▁각계
▁고금
▁고우
▁래드
▁밤중
▁상온
▁알카
▁에렌
▁외출
▁작인
▁장진
▁절도
▁치소
▁Cor
▁NHL
▁글라스
▁밀어내
▁부스터
▁엄밀히
▁전사자
▁맥도날드
▁시켰으나
▁지느러미
▁Colle
▁받아들여졌
▁외할아버지
YS
공원
동면
에즈
▁no
▁구어
▁다뤄
▁동과
▁반장
▁수륙
▁양당
▁양재
▁위문
▁철교
▁페퍼
▁호송
orce
▁232
▁귀족원
▁스톤스
▁재정부
▁퍼거슨
▁1790
▁소선거구제
▁프로테스탄
권력
루브
치니
테아
폭스
▁괴로
▁당부
▁레퍼
▁레흐
▁습기
▁승패
▁알토
▁연성
▁임사
▁주공
▁질산
▁최규
▁침착
▁핸들
▁not
▁명탐정
▁박지원
▁법학자
▁사림파
▁생산지
▁안성시
▁좌찬성
▁콜레스
▁호쿠리쿠
▁우쓰노미야
대왕
elf
▁간통
▁견딜
▁도립
▁보임
▁선법
▁유유
▁참봉
▁철로
▁총합
▁파노
▁피르
▁황궁
▁김유신
▁메이어
▁아즈마
▁주황색
▁터키어
▁포터블
여지승람
컬럼비아
▁이끌어냈
▁경부고속도로
▁브리티시컬럼비아
WA
▁핍
눌프
물질
오버
카레
케인
iew
▁pH
▁다나
▁메우
▁몰살
▁심볼
▁옐친
▁종일
▁카렌
▁커비
▁호골
사우스
연수원
▁216
▁관광업
▁이시다
▁1831
▁스트라스
▁아르눌프
▁무척추동물
▁사법연수원
가슴
국수
병원
영화
테리
▁교두
▁국자
▁기틀
▁두만
▁배럴
▁범하
▁빌레
▁승탑
▁시퀀
▁암술
▁업종
▁에니
▁의종
▁장력
▁지토
▁청조
▁프시
▁화친
▁회합
▁234
▁유망주
▁카네기
▁밀레니엄
▁비정규직
▁아이패드
09
pm
we
▁깅
▁뛸
농사
▁국판
▁명회
▁모셨
▁수제
▁일례
▁참호
▁클락
▁파샤
▁필적
▁구독자
▁다름없
▁도요타
▁로런츠
▁앙투안
▁플루트
▁1810
▁브루크너
▁모터사이클
ama
▁다롄
▁명창
▁방비
▁수개
▁시메
▁신드
▁야후
▁유약
▁지파
▁차질
▁하일
그래프
▁264
▁410
▁RCA
▁경유지
▁일레븐
▁콜레스테롤
▁School
KA
레도
연장
키타
▁군무
▁기흥
▁누명
▁떨치
▁린네
▁사향
▁색슨
▁석학
▁수월
▁신변
▁제군
▁조산
▁찬반
▁초조
▁피플
▁후스
▁흐루
▁달팽이
▁밀려나
▁애프터
▁완도군
▁진동수
▁학년도
▁호프만
▁레퍼토리
▁신약성경
▁인사이드
▁노스캐롤라이나주
마켓
민턴
조치
ins
▁EL
▁김봉
▁난방
▁노토
▁당도
▁로워
▁삼남
▁였었
▁오두
▁윈저
▁윤지
▁정장
▁통사
수산부
▁Run
▁뱅크스
▁수감자
▁슈바르
▁전반전
▁타고난
▁해남군
▁that
▁어니스트
▁사회주의자
sc
▁쉼
복음
슬란
우마
테크
ane
ney
▁결부
▁겸했
▁구워
▁노포
▁바뀔
▁봉승
▁분대
▁아강
▁아포
▁어가
▁여류
▁영하
▁유색
▁중문
▁판권
껍데기
▁Web
▁버펄로
▁아소카
▁인더스
▁정반대
▁척탄병
▁프로페
▁피난민
▁휴양지
▁Great
▁퀵
더드
라프
틸렌
rop
▁UI
▁나자
▁노릇
▁선왕
▁윤종
▁입교
▁자객
▁차우
▁후버
르트르
ript
▁괴팅겐
▁미시마
▁스러웠
▁어딘가
▁에이미
▁울타리
▁의성군
▁테크닉
▁1841
▁매일신보
▁숄
넬라
넬리
누이
렉트
차크
▁Je
▁괴산
▁그립
▁근해
▁레니
▁로펌
▁마의
▁멜리
▁분실
▁불도
▁사멸
▁색계
▁설가
▁성호
▁이랑
▁전량
▁티미
▁파가
▁현내
스토크
▁보이콧
▁이와키
▁일수록
▁제사장
▁다다요시
▁배드민턴
▁시스템즈
▁원더러스
▁알렉산드로
사지
상부
평동
IST
ene
▁we
▁가위
▁꾸짖
▁남문
▁라부
▁라야
▁막말
▁만과
▁비사
▁섀도
▁송강
▁아픈
▁연선
▁키요
▁튜버
▁휘그
거래소
▁GPU
▁노동부
▁달성군
▁미나토
▁오로라
▁진흥왕
▁차이나
바노
uth
▁군왕
▁그걸
▁덕흥
▁드롭
▁루브
▁방형
▁빽빽
▁성찰
▁안달
▁양시
▁영일
▁용법
▁이여
▁청두
▁초본
▁타다
▁항거
▁가속도
▁군주국
▁마돈나
▁미야코
▁번역본
▁안타깝
▁클리프
▁다카마쓰
▁오카자키
▁워싱턴주
▁코페르니
▁오키나와현
▁Project
EX
▁엷
무드
퓨터
▁UF
▁갈레
▁광석
▁극성
▁노블
▁뜨겁
▁마더
▁신디
▁양제
▁울림
▁원예
▁쟁탈
▁져야
▁지세
▁카도
▁코흐
▁허무
▁Are
▁가극단
▁다케시
▁로열스
▁애슐리
▁예비치
▁스파이크
▁요시히로
▁꿇
가쿠
단조
ARD
▁고비
▁궤간
▁북로
▁불허
▁산학
▁속현
▁손오
▁애버
▁재량
▁채운
웨일스
▁213
▁고생물
▁보이저
▁샐러드
▁안후이
▁은평구
▁정나라
▁와이파이
▁요시타카
▁Every
▁width
▁노브고로드
보냈
시효
▁계면
▁남측
▁내비
▁사족
▁야인
▁연골
▁연체
▁오수
▁임차
▁전군
▁전횡
▁조예
▁체이
▁캐스
▁파탄
▁홍준
▁공예품
▁몰아넣
▁생물체
▁야나기
▁전쟁터
▁파이썬
▁하야시
▁개혁주의
▁뉴사우스
▁스토리지
▁트랜스포
▁align
▁뉴사우스웨일스
▁International
04
묘지
시다
장어
ott
▁달인
▁사네
▁신승
▁정대
▁중주
▁집시
▁타사
▁페론
라이즈
▁리오스
▁보성군
▁빠진다
▁애스턴
▁인도인
▁주택지
▁케이지
▁토착민
스티누스
▁귄
▁개폐
▁리빙
▁본드
▁석호
▁스메
▁신촌
▁신파
▁원추
▁위엄
▁유모
▁자상
▁졸라
▁친필
▁포지
▁UAE
▁메이크
▁반다이
▁스텔라
▁위아래
▁음식물
▁지휘봉
▁총동원
▁탈바꿈
▁프렌치
▁1804
▁this
▁매개변수
▁슬라이드
▁하비에르
▁농어촌버스
▁캇
eng
▁곤도
▁공구
▁금주
▁매겨
▁몽케
▁생후
▁안트
▁외세
▁음극
▁처우
▁파월
▁YTN
▁고르바
▁그리핀
▁올바르
▁가선대부
를로
미드
블러
▁계책
▁광원
▁금품
▁박차
▁셰리
▁수차
▁이변
▁저당
▁코팅
▁탈옥
▁텐트
▁환생
▁Mod
▁구로다
▁기술력
▁김천시
▁리스크
▁벗어났
▁벤자민
▁엡실론
▁의금부
▁지구대
▁옥타비아누스
경제
북동
숭아
키르
▁건지
▁매핑
▁미티
▁소이
▁수완
▁수혈
▁어종
▁이따
▁전처
▁중년
▁진관
▁포체
▁허니
▁Rad
▁빌리지
▁서양식
▁설득력
▁아이비
▁찾아갔
▁칭다오
▁통영시
▁편집기
▁고이즈미
▁플러그인
▁스파이더맨
▁웸
길동
스프
에타
티엄
▁up
▁꼭두
▁니르
▁린턴
▁임지
▁정열
▁주루
▁혈연
그레브
tain
▁거주민
▁과도기
▁로망스
▁막바지
▁바꾼다
▁펜티엄
▁형이상
▁남태평양
▁자그레브
lement
▁땐
로리
ize
▁UP
▁am
▁ha
▁겸손
▁교위
▁근현
▁김효
▁꾸려
▁다짐
▁레노
▁무오
▁무적
▁박철
▁배송
▁선주
▁실격
▁어간
▁오고
▁최승
▁축약
▁타니
▁판각
오피스
▁219
▁Off
▁괴롭히
▁귀퉁이
▁설계자
▁소방관
▁유태인
▁이영호
▁아나스타
▁고르바초프
▁베른하르트
노신
뉴얼
바겐
조약
티니
▁간헐
▁격돌
▁동관
▁동음
▁레게
▁만력
▁매료
▁시복
▁신창
▁야자
▁양전
▁엘튼
▁연필
▁옐로
▁총력
▁커맨
▁키라
▁키미
▁탄탄
▁파멸
▁판문
▁호우
▁255
▁광명시
▁아니한
▁얼스터
▁여겨져
▁제이콥
▁집현전
▁초능력
라이언스
▁안드레아스
▁뭄
룩스
웨시
청정
퇴근
▁DP
▁결점
▁권영
▁근심
▁급유
▁돌진
▁맬컴
▁배합
▁수기
▁역법
▁우의
▁원균
▁유병
▁은상
▁정랑
▁지국
▁처남
▁체의
▁투라
▁해법
▁ARM
▁EOS
▁FTA
▁라이히
▁밤하늘
▁방문자
▁완성도
▁흘러가
▁1843
▁술라웨시
▁와이오밍
▁전체주의
▁샛
▁교신
▁구파
▁남진
▁넥슨
▁느려
▁도민
▁도조
▁보답
▁분립
▁뽑히
▁산군
▁성상
▁인방
▁전법
▁짝짓
▁클립
▁퍼드
▁한일
atic
▁275
▁공포증
▁디지몬
▁주사위
▁헤비급
▁고다이고
SI
럭스
중미
푸라
▁감로
▁결번
▁권선
▁금하
▁단념
▁배재
▁성시
▁섹시
▁소부
▁신겐
▁오존
▁유람
▁티니
▁함포
▁혼슈
라리온
▁감염병
▁대해선
▁바울로
▁바이든
▁북중미
▁소시에
▁스포트
▁파스타
▁1809
▁1821
▁스트로스
▁시에라리온
룬궁
▁-.
▁각서
▁공제
▁군소
▁농노
▁뒤편
▁마네
▁명기
▁문답
▁미혼
▁보은
▁생부
▁우등
▁원뿔
▁지의
▁홍주
▁강동구
▁강진군
▁안기부
▁파룬궁
▁파올로
▁1813
▁슈바르츠
ations
▁야마구치현
코어
▁간척
▁근친
▁남명
▁놀랍
▁다기
▁레디
▁발데
▁비안
▁예거
▁유복
▁정운
▁정육
▁취역
▁탁발
▁하룻
리스타
▁Blu
▁Ind
▁key
▁구로구
▁남원시
▁무너진
▁버몬트
▁베니스
▁양주군
▁우참찬
▁1623
▁1783
▁나카지마
▁신데렐라
▁영지주의
▁전자기파
노지
사촌
장식
▁Mc
▁VV
▁괴테
▁레터
▁무녀
▁민병
▁부러
▁불의
▁수험
▁울진
▁인맥
▁조희
▁증설
▁그려졌
▁미소녀
▁부대원
▁브리핑
▁호르헤
▁더글라스
▁소프라노
▁엑스트라
▁이야말로
▁카슈미르
▁뎀
ams
▁Em
▁가노
▁고주
▁농악
▁머릿
▁밀수
▁반칙
▁법당
▁본점
▁세그
▁순치
▁야노
▁유랑
▁유례
▁장직
▁지온
▁찔러
▁치를
▁하랄
▁횃불
▁회생
레우스
▁기울기
▁김제시
▁담양군
▁비트겐
▁사토시
▁줄리엣
▁출퇴근
▁호스팅
▁1805
▁가시광선
▁에인절스
▁허베이성
▁가고시마현
▁구마모토현
▁비트겐슈타인
▁욜
마뉴
춘기
▁FL
▁길쭉
▁놀란
▁리포
▁마세
▁목축
▁밀로
▁바드
▁박희
▁보주
▁연례
▁온양
▁육류
▁임박
▁재기
▁차내
▁타트
▁특파
▁히포
▁Rob
▁Sub
▁레이터
▁마애불
▁서보장
▁양주시
▁칼리파
▁하룻밤
▁다이렉트
▁디바이스
▁샤를마뉴
▁클라우스
▁score
NS
난히
바야
▁DL
▁GE
▁네온
▁데루
▁도당
▁부역
▁비탈
▁삼가
▁서영
▁수미
▁스무
▁심혈
▁에그
▁지망
▁진봉
▁총관
▁측도
▁타치
즈버그
▁레이드
▁밑부분
▁소유주
▁송광사
▁진도군
▁1799
▁1835
▁1845
▁궁수자리
▁아사쿠라
▁였음에도
▁프로펠러
▁코페르니쿠스
▁윅
로메
롤터
슈빌
암면
정책
함대
▁Im
▁가파
▁따를
▁무학
▁속박
▁시군
▁원대
▁유쾌
▁유파
▁은총
▁응고
▁임성
▁장본
▁창사
▁총상
▁친교
어도어
▁교회법
▁넘어섰
▁모리슨
▁불안감
▁연나라
▁자존심
▁작용소
▁장시간
▁저수지
▁주둥이
▁지낸다
▁카세트
▁트렌드
▁훈련소
▁1819
▁손꼽힌다
▁시어도어
▁지브롤터
▁20120
▁아케메네스
▁크리스토프
▁헤르베르트
05
▁넵
▁댁
▁기류
▁나크
▁라타
▁밀크
▁비법
▁사노
▁서군
▁섹터
▁송영
▁시련
▁암반
▁오피
▁왕전
▁우먼
▁저마
▁절개
▁조안
▁청천
▁혼재
▁She
▁val
▁신숙주
▁피루브
▁혁명당
▁법무법인
▁인기가요
▁애리조나주
na
레마
▁격분
▁겸비
▁광무
▁드론
▁리티
▁메기
▁민진
▁석물
▁시보
▁완충
▁정다
▁파면
▁DMB
▁드나들
▁라이즈
▁멧돼지
▁번역가
▁브란트
▁비무장
▁옮겨져
▁제후국
▁키루스
▁팬클럽
▁홍준표
▁1803
▁Fire
▁코르도바
▁인터랙티브
르노
erm
▁라빈
▁루가
▁루빈
▁마유
▁반탁
▁분투
▁선산
▁셀라
▁알린
▁엿보
▁중류
▁체사
▁크래
▁투아
▁흑자
가르드
▁Inc
▁OEC
▁구조대
▁동반자
▁오쿠보
▁증권거래소
광석
런드
야카
엄경
칼라
▁DE
▁nt
▁경직
▁나포
▁다승
▁리호
▁마역
▁매화
▁몰렸
▁무마
▁부계
▁심했
▁일광
▁자가
▁정미
▁지산
▁참새
▁총신
▁카고
ates
▁227
▁내려지
▁어려우
▁출발점
▁휘트니
▁YMCA
▁세그먼트
▁중합효소
▁카스트로
놀룰
입상
▁KR
▁강탈
▁다호
▁미화
▁버디
▁보천
▁성유
▁세세
▁순국
▁스물
▁아령
▁옥중
▁와시
▁재가
▁주정
▁지와
놀룰루
▁Bel
▁모여들
▁마츠모토
▁킬로그램
▁핵미사일
▁호놀룰루
봉산
예보
oph
▁RF
▁급하
▁김순
▁데릭
▁록맨
▁만지
▁순사
▁쓰키
▁아방
▁압승
▁앵무
▁얽힌
▁옮길
▁조밀
▁종용
▁질의
▁충절
▁파머
▁함인
▁떨어질
▁블레어
▁아무르
▁알파인
▁에드윈
▁에스터
▁영연방
▁올린다
▁창녕군
▁HTTP
▁마스터스
▁트리니티
▁Award
▁소시에다드
UL
▁VR
▁노팅
▁대간
▁엘렌
▁유린
▁전각
▁전태
▁조앤
▁탈라
▁활력
프리트
▁Ste
▁근거리
▁도에이
▁상주시
▁영동군
▁웸블리
▁칼데라
▁플뢰레
▁흑사병
▁얼라이언스
▁헴
두스
렌츠
미츠
▁EA
▁MY
▁Sk
▁김익
▁돌방
▁로잔
▁마드
▁목도
▁뭉치
▁발부
▁주법
▁행태
티나무
▁구락부
▁기울여
▁사춘기
▁세이버
▁수공업
▁양방향
▁오사무
▁의석수
▁파르티
▁폭발물
▁현무암
▁루즈벨트
▁미네소타주
▁웡
▁팥
란도
랜도
버린
▁라모
▁민방
▁볼라
▁여흥
▁전령
▁조운
▁중창
▁진남
▁진폭
▁피력
▁한수
▁행했
드랑이
복지부
▁발레리
▁비욘세
▁아프간
▁퇴적물
▁화물선
▁어린아이
▁페미니스트
▁해양수산부
06
▁펨
마트
별초
아노
아비
투라
해져
혈병
ava
▁DX
▁구지
▁기약
▁눈앞
▁벌리
▁산도
▁산양
▁삼위
▁애비
▁원지
▁주동
▁집게
▁친다
▁헌트
어진다
▁Raw
▁간담회
▁경순왕
▁기쿠치
▁노나라
▁메이드
▁함양군
irect
▁AIDS
▁피루브산
▁Korea
기군
네세
신기
▁RX
▁WK
▁랄프
▁만호
▁면치
▁미케
▁밀정
▁바레
▁본가
▁어퍼
▁오언
▁유현
▁자모
▁프티
▁해면
▁헤딩
▁325
▁AEK
▁Act
▁Ass
▁결론지
▁마우리
▁바르트
▁산사태
▁아르마
▁오마르
▁전환점
▁점령지
▁지원군
▁Down
▁레버쿠젠
▁페가수스
xy
만금
보전
분별
비노
지도
지우
air
▁OR
▁견과
▁궁녀
▁만네
▁비장
▁상학
▁쓰쿠
▁앤젤
▁야오
▁오레
▁이쿠
▁탱화
▁행법
▁매출액
▁문교부
▁사이키
▁사회부
▁새만금
▁수행원
▁알아냈
▁여호와
▁외래어
▁음성군
▁이즈모
▁OECD
▁브롱크스
▁삼위일체
▁폭스바겐
▁Micro
▁갠
러니
튠즈
하리
▁마두
▁보가
▁상보
▁에베
▁오드
▁외쳤
▁용자
▁윙스
▁찬송
▁친근
▁하녀
▁환호
▁황조
어머니
▁253
▁고구마
▁금산군
▁무용가
▁박원순
▁색소폰
▁아우디
▁엠블럼
▁요시오
▁Game
▁Just
▁아이튠즈
▁20100
▁에리트레아
▁이탈리아인
▁일어났으며
▁홀로코스트
곡사
정지
타기
파업
oud
▁TF
▁강민
▁급식
▁기로
▁다각
▁도체
▁문란
▁미쿠
▁순절
▁쓰시
▁옥고
▁요나
▁이분
▁이비
▁주미
▁코칭
▁판독
▁포프
▁한눈
▁헤아
▁후천
▁218
▁are
▁ver
▁기업체
▁밝혀냈
▁사바나
▁서커스
▁수니파
▁식료품
▁에반스
▁크롬웰
▁터뜨렸
▁파이낸
▁해져서
▁1824
▁에스파뇰
▁평양직할시
어놓
콘티
▁감속
▁계림
▁금오
▁변의
▁상아
▁쌓이
▁오귀
▁왕망
▁원순
▁청양
▁추도
▁태클
▁특산
세이돈
▁Che
▁POS
▁노선도
▁마사카
▁불어넣
▁안보리
▁영암군
▁정한다
▁지원병
▁총파업
▁크레인
▁토레스
▁에마누엘
▁엠파이어
▁포세이돈
▁Power
▁시모노세키
래곤
베그
▁게코
▁굴곡
▁나베
▁들판
▁모계
▁박명
▁승화
▁양공
▁양사
▁오코
▁이숙
▁입선
▁차인
▁팔로
▁햇볕
▁회가
적으로
▁224
▁777
▁가져야
▁다이라
▁올랜도
▁자라나
▁중국식
▁휘발유
▁9000
▁comp
▁느티나무
▁금메달리스트
가라
클로
riv
▁고차
▁누드
▁선분
▁소급
▁자일
▁작화
▁투척
리스토
▁Ang
▁How
▁느냐고
▁로도스
▁매크로
▁미카와
▁사마의
▁수족관
▁에이드
▁음악상
▁정읍시
▁초음파
▁친동생
aster
▁1802
▁스피어스
▁주계열성
▁카롤링거
▁켄터키주
▁라이프니츠
발라
▁LD
▁고단
▁김택
▁랭스
▁러너
▁망하
▁미처
▁백금
▁병장
▁분청
▁석축
▁은색
▁입회
▁진법
▁초인
▁BSD
▁Who
▁동작구
▁손오공
▁애호가
▁전임자
▁중앙당
▁푸른색
▁호나우
티아누스
▁1775
▁마사히로
▁비스콘티
▁오스트로네시아
03
에다
▁di
▁단테
▁대시
▁명곡
▁무릅
▁본따
▁생년
▁성결
▁아난
▁완패
▁장방
▁팬덤
샘프턴
▁거창군
▁신생아
▁아르타
▁차일드
▁피에로
▁마리우스
▁스포르차
▁아랫부분
▁야마자키
TO
궤도
멘토
▁만인
▁문항
▁미역
▁버림
▁산현
▁시랑
▁아퀴
▁약체
▁영제
▁장충
▁접대
▁특진
▁패소
▁푸트
룸푸르
▁305
▁316
▁CNN
▁공격력
▁내려진
▁스피어
▁에리히
▁징역형
▁합중국
▁시리우스
▁요시쓰네
▁포츠머스
▁반유대주의
MC
▁콴
▁텃
게니
마당
사쿠
요크
쿼이
튿날
▁가압
▁기즈
▁넓적
▁눈길
▁데어
▁메노
▁민첩
▁볼가
▁속곡
▁엄호
▁이륜
▁전치
▁책상
▁처참
▁추앙
▁캡콤
▁토구
▁헬라
스카이
▁237
▁512
▁남대문
▁몽골족
▁무제한
▁밀리언
▁발사대
▁발상지
▁쉐보레
▁에이커
▁화학식
보스토크
▁1808
▁모른다는
▁수양대군
▁스포츠카
▁블라디보스토크
들인
러햄
▁Bu
▁돌궐
▁반월
▁비비
▁상쇄
▁스이
▁시연
▁양치
▁완행
▁이요
▁정석
▁직구
▁크누
▁티어
▁파급
▁평온
▁포티
ster
▁par
▁관람객
▁대장경
▁메이슨
▁아오이
▁안타까
▁연기력
▁올라프
▁체이스
▁카오스
▁확고히
▁말레이어
▁깼
벌린
케라
▁감영
▁금당
▁높일
▁도저
▁문공
▁미쳐
▁육조
▁의향
▁임해
▁중군
▁커밍
▁560
▁940
▁노이즈
▁보상금
▁유타카
▁짝사랑
▁청계천
▁청년단
▁피어슨
▁1807
▁동프랑크
▁비상사태
▁아라카와
▁야마시타
▁올렸으며
▁콤플렉스
▁행방불명
▁스테로이드
▁췌
▁폈
▁고보
▁김남
▁나침
▁뒤셀
▁말갈
▁신당
▁아수
▁지났
▁취입
▁퀴어
▁해충
▁행차
▁후두
샤오핑
ited
▁501
▁껍데기
▁노키아
▁맞물려
▁보수파
▁스피릿
▁이튿날
▁평양성
▁하르트
ittle
▁1834
▁덩샤오핑
▁신비주의
▁이사벨라
▁콜로라도
▁하코다테
▁뒤셀도르프
▁트랜스포머
MI
▁힝
리시
미분
슈나
▁간쑤
▁남만
▁사샤
▁시급
▁식생
▁알프
▁원당
▁응축
▁인어
▁잡스
▁조망
▁지프
▁판무
▁행주
▁화의
▁황룡
ield
▁Dav
▁Pre
▁고흥군
▁날카롭
▁마인츠
▁밸런스
▁사용법
▁세포질
▁쌍계사
▁특산물
▁함안군
▁아오야마
▁불러일으키
▁에이브러햄
▁스트라스부르
▁아르메니아인
기름
냅스
레알
이츠
▁TP
▁교목
▁덩치
▁뒤지
▁소조
▁수려
▁쉬르
▁신보
▁아머
▁장화
▁저온
▁주박
▁터리
▁트립
▁계엄령
▁마쓰이
▁미하엘
▁바나흐
▁비키니
▁세르비
▁시냅스
▁웨이크
▁전산망
▁중견수
▁플레어
▁2023
▁위안스카이
du
고백
도어
바사
▁각하
▁강박
▁계모
▁기예
▁기제
▁대첩
▁백마
▁복건
▁소하
▁악한
▁여종
▁웨딩
▁제석
▁카누
▁호분
오스트
트리스
▁보령시
▁집대성
▁교통수단
▁레이더스
▁신앙고백
▁인조반정
▁크리스털
▁파트너십
▁Dance
▁프로테스탄트
구동
와트
▁구드
▁냉장
▁단락
▁뒷날
▁랜스
▁명실
▁부치
▁빌럼
▁사철
▁야산
▁원호
▁입방
▁장유
▁호에
▁303
▁Pol
▁감사원
▁교차점
▁당분간
▁마산시
▁문인석
▁스턴스
▁완벽히
▁다이오드
▁사고방식
ME
▁씹
마침
무로
와르
진법
타일
▁가릴
▁공론
▁공위
▁나혜
▁노우
▁데라
▁리야
▁바쁜
▁방목
▁석굴
▁역간
▁영창
▁우여
▁입힌
▁정우
▁조중
▁체구
▁칼날
▁코토
▁탑비
▁합세
▁Tim
▁all
▁괴산군
▁남북한
▁니제르
▁명목상
▁부산물
▁속임수
▁아폴론
▁옥타브
▁코나미
▁거듭제곱
▁구약성경
▁잘츠부르크
오스트레일리아
bs
▁툭
메라
무진
문왕
ape
▁가석
▁고라
▁그쳐
▁미구
▁백범
▁벌써
▁세드
▁송준
▁잠들
▁진왕
▁치부
▁카베
▁칸토
▁포경
▁훔치
▁'()
▁530
▁강우량
▁거둔다
▁내려왔
▁모음곡
▁미코토
▁으라고
▁이동식
▁테레비
▁스키타이
▁페니키아
CO
카쓰
톱스
▁그게
▁내통
▁넘긴
▁라브
▁봉선
▁불발
▁속기
▁오위
▁잡종
▁코덱
▁터진
▁토후
▁퇴학
▁특보
▁편평
▁풀럼
▁해탈
▁999
▁Air
▁Und
▁리소스
▁상거래
▁소장품
▁아브루
▁아비뇽
▁지하수
▁카톨릭
▁케이시
▁홍성군
케라톱스
▁바티스타
▁알려준다
▁젝
내려
저기
촌면
포도
▁감형
▁거센
▁관부
▁김좌
▁남코
▁납북
▁위세
▁줘야
▁충정
▁홍진
로니카
▁244
▁Hol
▁개정판
▁계획안
▁귀여운
▁덕양구
▁동구권
▁로이스
▁보병대
▁볼거리
▁수녀원
▁에드거
▁에테르
▁조사단
▁쭉
권법
룬디
통감
페라
▁고레
▁끝낸
▁드와
▁따내
▁삼매
▁세아
▁소현
▁육사
▁음수
▁책자
▁컴포
▁키보
▁테너
▁폐암
간지주
아가라
▁540
▁Mer
▁net
▁경사면
▁그레그
▁나바라
▁모니카
▁상상력
▁성행위
▁툴루즈
▁프리덤
▁하남시
▁황금기
▁회의소
▁당간지주
▁블루투스
▁나이아가라
▁메달리스트
▁파이어폭스
▁항공우주국
공격
▁가내
▁경쾌
▁귀박
▁명승
▁백석
▁부령
▁산세
▁살린
▁수모
▁전초
레슈티
▁321
▁글쓰기
▁눈동자
▁레슬러
▁악영향
▁원거리
▁유키오
▁처해졌
▁추진력
▁케이티
▁타악기
▁행진곡
보르기니
▁러더퍼드
▁리카르도
GE
수사
시장
정기
코더
햄프
▁가만
▁데크
▁도맡
▁동주
▁로카
▁마정
▁면화
▁병참
▁심취
▁유황
▁코비
▁티비
▁판교
▁평단
▁피파
▁하토
▁헬멧
▁401
▁국경선
▁김원봉
▁나침반
▁마일스
▁접두사
▁다이라노
▁레이아웃
▁람보르기니
▁꼰
비시
준호
▁MK
▁군역
▁기라
▁다트
▁단풍
▁대연
▁명망
▁무아
▁반투
▁소공
▁외양
▁윔블
▁재림
▁접견
▁조아
▁조짐
▁최단
▁한상
노스케
▁뉴햄프
▁베로나
▁스파크
▁으리라
▁철도선
▁파이트
▁표준시
▁필살기
▁형이상학
▁Records
징금
호텔
ATA
ari
▁내과
▁명작
▁방직
▁베넷
▁생육
▁시세
▁예장
▁우가
▁응집
▁이서
헌대부
▁Fre
▁Now
▁SUV
▁느냐는
▁니코스
▁마쓰다
▁프레시
▁힐러리
▁Mark
▁우르바노
▁제네시스
▁Again
▁등지느러미
45
바트
▁다로
▁분신
▁성역
▁양명
▁에지
▁음각
▁최성
▁팀원
▁학식
▁행각
▁환각
ther
▁그러다
▁두터운
▁마틸다
▁안재홍
▁앨리슨
▁에릭슨
▁에치젠
▁윔블던
▁홍천군
▁못했으나
▁보인다고
▁여기저기
▁이뤄지지
▁전용도로
▁중앙유럽
▁켤
널리
비르
샤르
▁가출
▁간극
▁길가
▁꾸란
▁리허
▁문리
▁봉천
▁원초
▁일축
▁저상
▁전업
▁전영
▁중경
▁풍미
▁항법
▁횡포
▁KAI
▁Tri
▁Ver
▁긴꼬리
▁두만강
▁무릅쓰
▁복숭아
▁아라이
▁유기물
▁자부심
▁지배층
▁차라리
▁스탠더드
▁트라우마
▁보건복지부
▁보니파시오
곡절
너리
부패
주제
티콘
▁망설
▁써야
▁완강
▁제논
▁최윤
게임넷
ning
ring
▁265
▁Cal
▁가나안
▁교두보
▁내슈빌
▁때마침
▁사브르
▁중랑장
▁1392
▁1787
▁1833
▁들어올렸
▁온게임넷
DR
▁긁
▁텀
정신
학사
▁노섬
▁당산
▁더그
▁더미
▁두아
▁묶음
▁산후
▁식단
▁일인
▁입석
▁천성
▁청해
▁택했
atur
▁리저브
▁마사키
▁바바라
▁밝혀내
▁방어력
▁부산시
▁엘리사
▁였으니
▁의용군
▁캐롤라
▁Real
▁부정부패
▁아세트산
▁파이터스
▁해발고도
▁프로페셔널
▁꽉
시니
저리
춘추
▁Si
▁고영
▁고환
▁굴뚝
▁기복
▁낙관
▁마름
▁마샬
▁만행
▁볼링
▁성안
▁수탈
▁스탬
▁시한
▁악용
▁외직
▁채식
▁코요
▁쿠프
▁포이
▁퓨처
▁힉스
ated
▁가와치
▁극소수
▁원작자
▁윤선도
▁의사당
other
▁아이오딘
▁우여곡절
▁차이콥스키
관총
그러
보쿠
자브
inc
mas
▁게양
▁김미
▁레우
▁맞먹
▁뮤즈
▁민다
▁반시
▁소국
▁순응
▁스탄
▁식읍
▁신격
▁실링
▁정혜
▁쫓기
▁코메
▁풍선
▁나혜석
▁로미오
▁살펴볼
▁시행령
▁신뢰도
▁이뤄져
▁인디아
▁좌참찬
▁직선제
▁프로스
▁허정숙
▁후시미
▁1597
▁1816
▁Home
▁대통령령
▁인도주의
계선
▁OG
▁궁핍
▁기년
▁깔려
▁노렸
▁노린
▁레브
▁법대
▁본대
▁봐도
▁수박
▁아보
▁양태
▁유괴
▁이신
▁초급
▁캐머
▁푸앵
▁헌팅
▁회동
▁RFC
▁가석방
▁레이테
▁슬퍼하
▁콜레라
니히
any
▁개천
▁고귀
▁근소
▁동리
▁될지
▁말엽
▁무찔
▁문의
▁박은
▁변태
▁브렛
▁사선
▁선화
▁쉬워
▁스매
▁신수
▁압류
▁유토
▁재실
▁정할
▁진중
▁캐넌
▁팬텀
▁풍력
▁풍화
▁혼수
컴퓨터
ling
▁가평군
▁마라도
▁말라위
▁벌어져
▁재방송
▁청도군
▁그리피스
zy
저트
전설
카시
▁KF
▁김철
▁끈질
▁난해
▁달빛
▁데프
▁도총
▁미그
▁미뤄
▁반년
▁봉토
▁빙판
▁성심
▁소신
▁심복
▁오퍼
▁우암
▁이충
▁전근
▁좌완
▁총명
▁칸나
▁포커
▁245
▁TNA
▁Vis
▁공양왕
▁공학부
▁데이먼
▁동역학
▁미에현
▁비행선
▁산기슭
▁아라키
▁참으로
▁초나라
▁1818
▁국민정부
▁라치오주
▁페널티킥을
▁눔
네일
다녔
원사
카쿠
플라
▁관입
▁난부
▁노자
▁눈금
▁문호
▁물량
▁사돈
▁수세
▁시녀
▁식수
▁앤트
▁외피
▁용모
▁월등
▁이두
▁진통
▁진평
▁차려
▁철새
▁킬리
▁토막
▁포용
▁680
▁곁들여
▁기록물
▁남해안
▁다녀온
▁모듈러
▁유미르
▁정약용
▁펀자브
▁항등식
축구협회
▁아카이브
▁플리머스
▁히타이트
▁대한축구협회
gy
르템
콜라
▁고상
▁기쁘
▁다인
▁도트
▁루벤
▁모씨
▁민스
▁버금
▁심도
▁인내
▁진무
▁판화
▁풍산
▁해요
▁후량
▁대국민
▁대동강
▁모기업
▁붙인다
▁에이트
▁청량리
▁홍백가
▁사실주의
▁파피루스
르템베르크
▁뻘
▁솅
네즈
미나
터우
토끼
▁PV
▁Sn
▁군내
▁꾸민
▁돌이
▁람다
▁묵살
▁미우
▁병부
▁사누
▁샤먼
▁선적
▁악몽
▁츠나
▁치솟
▁타개
▁Soc
▁겉모습
▁대마도
▁루도비
▁세바스
▁수신기
▁슬럼프
▁여학교
▁체로키
▁히데키
▁못한다는
▁셉
카즈
히라
vil
▁KM
▁객사
▁교배
▁국권
▁그분
▁닛코
▁디랙
▁레위
▁명료
▁박병
▁변명
▁순화
▁신춘
▁양털
▁엄중
▁요사
▁우방
▁원류
▁잉어
루시아
▁311
▁Ber
▁imp
▁관공서
▁마땅히
▁박중양
▁수뇌부
▁시간표
▁쓰러졌
▁유배지
▁정선군
▁주제곡
▁킵차크
▁합격자
▁헬레나
▁버펄로스
▁브리즈번
▁스탠다드
▁평화통일
전서
ook
▁;"
▁간택
▁고명
▁독학
▁바루
▁발문
▁소제
▁속명
▁수체
▁심경
▁약어
▁우레
▁유표
▁장도
▁장주
▁지라
▁태위
▁호두
▁흘려
ival
▁262
▁263
▁강경파
▁골프장
▁돌아보
▁바르톨
▁불명확
▁상록수
▁수산화
▁옹정제
▁이따금
▁이주해
▁정신병
▁존스턴
▁칠곡군
▁학술원
▁찜
가이
디트
lin
▁IL
▁대례
▁반짝
▁방진
▁부쿠
▁산초
▁소명
▁영공
▁제복
▁참관
▁폐업
▁효행
ican
▁313
▁괴롭힘
▁대사성
▁동남아
▁머레이
▁아르키
▁야전군
▁적혈구
▁페라라
▁그라나다
▁사쿠라이
▁오스카르
▁파르티잔
▁Never
▁부쿠레슈티
lt
쓰키
애자
터슨
▁강기
▁군의
▁금발
▁농심
▁도지
▁동선
▁메탄
▁모면
▁세차
▁수혜
▁정광
▁천억
▁최국
▁크론
▁통학
▁폴드
▁필즈
▁학관
▁회남
▁Fri
▁UTC
▁고려인
▁벗어날
▁부안군
▁사라이
▁억지로
▁의령군
▁진보신
▁희극인
▁2600
▁Jour
▁나카모리
▁마사유키
▁프레이저
▁아르키메데스
▁쇤
양동
전동
추얼
▁AW
▁OH
▁다정
▁양각
▁에워
▁위급
▁음계
▁피코
▁휴고
트리아
▁Sil
▁org
▁내보냈
▁단양군
▁드레이
▁리버스
▁리처즈
▁문무왕
▁부딪혀
▁브라만
▁사이고
▁성장률
▁수성구
▁스노우
▁이제동
▁자주포
▁잠자리
▁조선족
▁진행할
▁카다피
▁마르코스
▁사라예보
▁시라쿠사
도전
리처
이시
환국
▁BJ
▁Ig
▁가용
▁갇힌
▁나요
▁넘쳐
▁노령
▁대홍
▁박문
▁번가
▁빙상
▁사피
▁인왕
▁일요
▁자파
▁제청
▁진자
▁현자
▁휴지
본주의
티스트
▁386
▁달서구
▁드러낸
▁모닝구
▁바하마
▁붙여서
▁시바타
▁아닐까
▁안도라
▁야마노
▁줄어드
▁컨셉트
▁통행료
델라
변사
이동
지드
OCA
▁Wr
▁리쿠
▁무굴
▁백련
▁속출
▁승무
▁유량
▁즉석
▁티탄
▁힘써
커버리
▁금지법
▁미란다
▁에디터
▁우메다
▁이자겸
▁쿠알라
▁탈리아
▁플레인
▁카를로만
▁쿠알라룸푸르
ek
▁뽕
버려
슬론
츠만
ino
▁Sa
▁gr
▁기뢰
▁김화
▁눈썹
▁두리
▁맞선
▁맹자
▁범퍼
▁볼레
▁분구
▁비버
▁셜록
▁시치
▁신토
▁엘람
▁역적
▁온몸
▁저희
▁칩셋
▁통수
▁티타
▁평산
▁풀밭
▁헤스
애슬론
평대군
▁거쳐야
▁기관사
▁레지옹
▁마운드
▁무자비
▁반혁명
▁셰필드
Force
▁City
▁Draw
▁랭커스터
▁스웨덴어
▁트라키아
▁20200
▁UD
▁기내
▁꺼려
▁누릴
▁다산
▁뭉쳐
▁미호
▁방파
▁배차
▁비각
▁사담
▁사문
▁소가
▁쇄신
▁수조
▁양왕
▁에토
▁워프
▁월계
▁임영
▁장동
▁장막
▁재킷
▁접할
▁제패
▁초구
▁품류
▁황기
▁Pet
▁런타임
▁보일러
▁수집가
▁수페르
▁신조어
▁여고생
▁여서는
▁초이스
▁충성심
▁후지타
▁흔들림
▁Moon
▁모리오카
▁시킨다고
▁헤르메스
간드
극장
케로
▁갈대
▁고루
▁과대
▁교각
▁납세
▁서유
▁성신
▁신식
▁양질
▁엽록
▁원광
▁이권
▁적시
▁정액
▁종반
▁중진
▁태정
▁한영
▁호메
플러스
▁Die
▁mod
▁out
▁노이만
▁문학부
▁부드러
▁시마네
▁이동한
▁이스터
▁전봉준
▁1763
▁펼쳐진다
▁크로스오버
자카
fin
▁NO
▁니더
▁미달
▁비바
▁상전
▁속옷
▁스냅
▁안지
▁역인
▁외야
▁울라
▁익혔
▁저승
▁총탄
▁패닉
▁편대
▁구례군
▁구사론
▁더욱더
▁도저히
▁레이첼
▁바이런
▁베이시
▁산청군
▁의화단
▁최우선
▁1780
▁말라리아
▁앨프리드
▁초전도체
▁한국은행
▁한국전력
셀라
코이
ves
▁경국
▁딱정
▁랜더
▁망토
▁셰르
▁습작
▁시디
▁여담
▁원어
▁유르
▁응모
▁징발
▁퍼트
▁허나
▁호부
세서리
클라베
▁333
▁980
▁Fun
▁MLS
▁대륙군
▁비활성
▁순환선
▁시작점
▁역무원
▁연수구
▁웨일즈
▁적갈색
ouble
▁1825
▁청소년기
▁콘클라베
▁하드코어
▁할지라도
딩턴
뚜기
럽트
발디
출마
ely
err
▁누비
▁누출
▁당면
▁도원
▁이극
▁전편
▁지네
▁항변
apan
▁달라질
▁동인지
▁매장량
▁사투리
▁성희롱
▁쇼펜하
▁시퀀스
▁아바스
▁아우렐
▁진안군
▁집합체
▁플레밍
▁1453
▁호메로스
▁Group
▁쇼펜하우어
yr
▁쩌
베다
포화
하타
▁관립
▁꾀했
▁능률
▁던스
▁레자
▁리니
▁미흡
▁병세
▁브록
▁우뚝
▁조강
▁철갑
▁한탄
▁회자
▁훈구
▁흥국
차일드
▁Swe
▁경덕왕
▁관측소
▁김홍집
▁노르딕
▁놓여졌
▁부룬디
▁아스타
▁조슈아
▁찾아냈
▁클레르
▁퓨처스
▁해왕성
▁훈련장
▁1778
▁머리장식
▁Techn
▁홑
사항
자료
중앙
▁간절
▁김신
▁도일
▁돼야
▁리디
▁매시
▁비구
▁산개
▁안국
▁진산
▁케토
메이슨
▁Cre
▁강연회
▁고메스
▁벌인다
▁산리쿠
▁수사관
▁아이누
▁역전승
▁조소앙
▁무라야마
▁선덜랜드
▁연꽃무늬
▁카트리지
▁렴
▁Hz
▁곡사
▁구기
▁금방
▁남도
▁니어
▁단추
▁대월
▁빈혈
▁역병
▁육안
▁임오
▁조원
▁침실
▁펴낸
▁한학
itch
▁.."
▁광산구
▁로버스
▁보호령
▁스티커
▁아리마
▁영양분
▁전해질
▁패미컴
▁포르쉐
▁1817
▁left
▁인터럽트
▁펩타이드
베쓰
페어
펠트
ars
▁개역
▁고착
▁기꺼
▁남강
▁대림
▁마제
▁망라
▁백합
▁법치
▁부츠
▁석실
▁성군
▁성혼
▁수재
▁쌓인
▁악행
▁워렌
▁잉태
▁출몰
▁큰곰
▁티그
▁푸코
▁하대
▁학무
바니아
reet
ress
work
▁나루토
▁도파민
▁미켈란
▁워터스
▁자연히
▁카트린
▁1828
▁딱정벌레
▁판타스틱
▁판의금부사
▁새천년민주당
▁쏴
치산
ope
▁BP
▁강정
▁강태
▁갯벌
▁검역
▁관인
▁구소
▁난폭
▁누아
▁닐스
▁도내
▁만루
▁미끄
▁범종
▁변주
▁셔터
▁솔리
▁의전
▁질주
▁참된
▁코즈
▁콥트
▁클랩
▁핀치
▁호종
노비치
도토스
▁노비타
▁레이철
▁백혈병
▁애니콜
▁영천시
▁올라간
▁요크셔
▁원피스
▁위해선
▁응원가
▁적시타
▁채플린
▁국제기구
▁아브루초
▁열린집합
▁치렀으며
▁카를루스
▁흐루쇼프
ts
각시
강도
게르
나잇
덕리
레즈
바위
털루
▁MI
▁ph
▁공범
▁근절
▁기득
▁기려
▁더운
▁동궁
▁바친
▁뼈대
▁살포
▁승문
▁야나
▁열혈
▁영가
▁오현
▁우로
▁원구
▁잔재
▁전등
▁종별
▁천진
스티스
자유당
▁광양시
▁레트로
▁마술사
▁미술사
▁재경기
▁저소득
▁코르넬
▁휘그당
▁Team
▁나카가와
▁마사무네
▁코린토스
▁Album
▁민주자유당
▁아우구스티누스
▁뮬
가치
그너
슈트
일점
찰사
키리
폭력
▁고른
▁다뉴
▁마장
▁보크
▁빈스
▁소우
▁임재
▁장공
▁재키
▁제회
▁찬미
▁폐비
▁한기
베르데
▁관측자
▁기동성
▁도봉구
▁몽골어
▁무분별
▁무안타
▁빙그레
▁성장기
▁스크롤
▁일라이
▁전해진
▁조그마
▁크랭크
▁문하시중
▁아니한다
▁에너지원
▁포항제철
팔로
▁HR
▁격노
▁고품
▁내연
▁리뉴
▁북주
▁사별
▁송수
▁시일
▁알림
▁양기
▁어제
▁염전
▁용담
▁의열
▁장마
▁종위
▁준용
▁진달
▁테루
▁표고
▁피레
▁가처분
▁마사코
▁마젤란
▁사냥개
▁사이코
▁사진가
▁신경망
▁안세이
▁양성소
▁옥개석
▁외조부
▁이방인
▁제미니
▁카이두
▁코발트
▁Hist
▁매리너스
▁모더니즘
▁무한도전
▁브라이트
▁스타트업
▁Enter
▁눕
무사
스름
장성
포츠
▁동질
▁반미
▁불연
▁비신
▁아밀
▁안도
▁알콜
▁이그
▁자영
▁정준
▁최동
▁카가
▁팰컨
▁황주
▁흑연
▁고쿠라
▁뒷부분
▁록펠러
▁미도리
▁부총재
▁선교회
▁아리안
▁앙카라
▁에디슨
▁장본인
▁장신구
▁조그만
▁죽인다
프레이즈
▁1593
▁1788
▁분리주의
▁이브라힘
▁세워졌으며
링스
ler
▁TE
▁기오
▁노크
▁로슈
▁루니
▁볼턴
▁손잡
▁신랑
▁양광
▁연접
▁원경
▁주현
▁지안
▁콘도
▁타바
▁편도
▁플롯
▁힐튼
ific
▁960
▁금정구
▁리누스
▁사업비
▁삼별초
▁수호신
▁영광군
▁장덕수
▁재계약
▁조선어
▁진사시
▁캐피탈
▁퓰리처
▁비토리오
▁이집트인
▁한국일보
▁헝가리인
▁자유주의자
yp
롤라
충사
화사
▁거든
▁광릉
▁굳건
▁면도
▁불운
▁비춰
▁소학
▁앙헬
▁약초
▁어귀
▁영내
▁예민
▁은닉
▁조진
▁충선
▁후주
군주제
연구소
▁POP
▁PSP
▁광무제
▁끌어내
▁나오키
▁슬라이
▁신해철
▁클로즈
▁퍼킨스
▁포병대
▁Happ
▁로트링겐
▁무스타파
▁민다나오
▁사로잡혀
▁크로노스
▁아일랜드어
▁앨라배마주
▁우크라이나인
▁콜라보레이션
록색
성장
지상
패닉
포동
ike
▁내밀
▁더듬
▁도프
▁맥라
▁바카
▁반송
▁비웃
▁에라
▁열병
▁위화
▁인트
▁질타
▁창법
▁편광
▁혈전
▁SNK
▁갈라타
▁고용주
▁관리법
▁꽃가루
▁대표부
▁도로시
▁레오니
▁부끄러
▁사육신
▁수에즈
▁시나이
▁코베인
▁1838
▁팔레르모
▁히로유키
▁히스패닉
▁First
▁솔트레이크
개토
걸스
렁크
첼로
ird
▁경당
▁네버
▁도면
▁라메
▁모성
▁무정
▁순열
▁예기
▁원각
▁직역
▁콜트
▁229
▁860
▁ESP
▁나이토
▁눈부신
▁모자라
▁스피너
▁유스티
▁카르타
▁파티마
▁헤이케
▁나가오카
▁모하마드
▁물병자리
▁헐리우드
▁미켈란젤로
▁수페르리가
▁Little
▁Summer
소프
oom
▁KP
▁fe
▁경왕
▁교상
▁기절
▁낙점
▁남대
▁내해
▁녹훈
▁뒤섞
▁박혀
▁베릴
▁수고
▁아달
▁원세
▁최인
▁퇴거
▁티티
▁페달
▁할까
무스메
▁Dig
▁나선다
▁동두천
▁리허설
▁매표소
▁법상종
▁실비아
▁음운론
▁지표면
▁텅스텐
▁SEED
▁플랑크톤
▁모닝구무스메
ha
코니
하치
ris
▁경리
▁계비
▁고졸
▁권했
▁기침
▁난바
▁노기
▁단언
▁대박
▁동강
▁듀이
▁떠오
▁마미
▁보단
▁비우
▁빼내
▁숨진
▁슈만
▁에비
▁연경
▁열녀
▁찰나
▁통가
▁하목
▁SAR
▁광개토
▁극락전
▁메소드
▁서천군
▁선인장
▁에미상
▁움직였
▁정여립
▁조건부
▁차베스
▁프리즘
▁피오나
ative
▁1797
▁드래건스
▁드레스덴
▁테네시주
▁히스파니아
▁안드로메다자리
시드
▁갈망
▁구균
▁다드
▁도킹
▁로더
▁문지
▁물음
▁박순
▁분가
▁알란
▁역경
▁역관
▁오동
▁용호
▁카구
▁캘빈
▁혜왕
▁회선
머니즘
삼각형
스탕스
▁323
▁공문서
▁구매자
▁기꺼이
▁남수단
▁라이징
▁미적분
▁밝힌다
▁오베르
▁워털루
▁표지판
▁프랑켄
▁Char
▁세종실록
▁스케이프
▁하나하나
▁레지스탕스
▁프리스타일
▁하이델베르크
▁쑥
지움
텍스
틀린
▁Ap
▁If
▁교민
▁말뚝
▁불우
▁비와
▁산발
▁선량
▁신광
▁어근
▁외장
▁울창
▁이혜
▁인목
▁입궁
▁접했
▁코먼
▁파시
▁호구
▁황화
리아노
에이터
카이치
혁명당
ross
▁가파른
▁갑상선
▁내려놓
▁말버러
▁브라이
▁수호이
▁이니셜
▁저항성
▁지멘스
▁캐머런
슈바이크
▁1636
▁Gold
▁다이애나
▁모리셔스
▁트레이시
▁인디애나주
▁페르세우스
ze
관광
메인
소녀
켄지
ECT
▁MO
▁OL
▁구주
▁굴드
▁레몽
▁루앙
▁말레
▁스탭
▁애쉬
▁양해
▁원안
▁유임
▁일약
▁졸리
▁탐라
▁후륜
▁249
▁257
▁가쓰라
▁관박쥐
▁셰이크
▁스토크
▁이규완
▁재통일
▁토후국
▁다치바나
▁집적회로
▁트레일러
▁Stage
▁하이라이트
▁브라운슈바이크
yc
▁ㅇ
▁씽
착륙
▁DT
▁니노
▁대불
▁락스
▁복도
▁소품
▁신령
▁약재
▁영인
▁우와
▁유종
▁인두
▁작아
▁주걱
▁증보
▁채웠
▁큼직
▁피했
▁하한
▁항등
▁해마
▁효시
파고스
▁Tom
▁경호원
▁공작원
▁다뉴브
▁리베라
▁메디아
▁자본금
▁정상부
▁확장팩
▁이로쿼이
▁익스트림
▁카나리아
▁크리슈나
▁주간고속도로
디니
ius
▁Nt
▁ed
▁검교
▁금과
▁등식
▁명랑
▁바벨
▁번진
▁봉신
▁붓다
▁비앙
▁성탄
▁속인
▁안수
▁올가
▁용납
▁용두
▁이과
▁인동
▁저런
▁주종
▁커튼
▁파치
▁평시
▁풍성
▁프릴
▁흑해
▁Pla
▁RAM
▁가르친
▁거느린
▁공급원
▁근연종
▁너구리
▁마사토
▁베니토
▁상징물
▁섬네일
▁수십만
▁수자원
▁의정서
▁청취자
▁탐험대
▁트렁크
▁특파원
▁한해서
▁Plan
▁part
▁나뭇가지
▁보호관찰
▁세웠으나
▁야마나시
▁차가타이
▁테마파크
▁페르미온
▁디스커버리
▁왁
르담
get
umb
uro
▁광교
▁남면
▁루미
▁만슈
▁무령
▁봉급
▁섭동
▁연제
▁왕상
▁장한
▁좡족
▁추수
▁편년
▁피델
▁협연
▁화단
바라기
▁570
▁AES
▁관중석
▁남동구
▁로리타
▁몰려들
▁미술품
▁민스크
▁소작농
▁송준길
▁스코프
▁십시오
▁연합체
▁위스키
▁진천군
▁페드루
▁피그미
▁하인츠
▁황무지
▁김나지움
▁노트르담
▁로테이션
▁블록체인
▁노스웨스트
마에
천후
키치
▁MG
▁검단
▁공비
▁규소
▁단부
▁레그
▁말투
▁배서
▁백스
▁심재
▁연명
▁왼발
▁원외
▁일일
▁죄목
▁지으
▁징용
▁처자
▁초명
▁코보
▁한우
▁황토
▁흐른
uman
▁810
▁MBN
▁May
▁der
▁도전자
▁보급품
▁서귀포
▁신간회
▁워크스
▁웹스터
▁은하수
▁중남부
▁편집국
▁2024
▁Conc
▁패러데이
▁미시시피주
▁예카테리나
WC
다라
랜즈
리프
아보
▁Vo
▁고뇌
▁과소
▁국학
▁굴착
▁난소
▁다부
▁도운
▁두른
▁보소
▁본받
▁신증
▁애용
▁옹기
▁절기
▁태실
▁특검
▁허적
▁환수
line
▁353
▁도플러
▁발트해
▁부딪히
▁서울역
▁세기말
▁시프트
▁신대륙
▁아르민
▁우분투
▁재조합
▁저압부
▁초거성
▁코스닥
▁화엄경
▁고전주의
▁네이티브
▁아유타야
▁해졌으며
▁Class
▁민코프스키
▁브리타니아
▁사우스캐롤라이나
뜨릴
의어
태영
▁Pi
▁곡성
▁당구
▁방아
▁방역
▁변위
▁서른
▁아계
▁어벤
▁유두
▁이음
▁정호
▁질감
▁최정
▁토치
▁266
▁273
▁306
▁관리인
▁금지령
▁나아갔
▁내려다
▁데려오
▁릴리즈
▁시스터
▁진주성
▁총감독
▁펌웨어
▁히메지
▁More
▁poem
▁대학원생
▁삼성그룹
AV
to
빌라
현리
els
ero
▁급감
▁다진
▁도인
▁두목
▁모유
▁사공
▁스틴
▁요일
▁은화
▁초각
▁튀김
▁학상
▁허셜
▁훌린
orth
▁경사각
▁경산시
▁공격자
▁김정희
▁르베그
▁에일리
▁크루스
▁파이리
▁홍건적
▁1777
▁1826
▁고생물학
▁니가타현
▁돌려보내
▁레이먼드
▁럽
사장
실히
▁금석
▁더더
▁마노
▁물어
▁법사
▁비누
▁삼보
▁선군
▁수론
▁순방
▁에센
▁잔기
▁장명
▁파베
▁판시
▁페소
▁함축
스카야
▁But
▁TCP
▁건너온
▁걸어서
▁라벤나
▁부조리
▁스트립
▁유력자
▁캐리어
▁허스트
수염박쥐
▁Year
▁가와카미
▁마티아스
▁Gener
▁right
▁캐치프레이즈
▁떴
덕사
디크
밍턴
▁군악
▁노려
▁뇌터
▁메토
▁무량
▁빗물
▁시럽
▁암사
▁야유
▁엉뚱
▁오펜
▁우고
▁켤레
▁파타
▁한결
▁404
▁God
▁갈매기
▁군자금
▁되돌리
▁레반트
▁미추홀
▁법무관
▁소득세
▁쓰러진
▁영주시
▁음악인
▁이승훈
▁조언자
▁주원장
▁카니발
▁페르마
▁에히메현
▁푸앵카레
티르
ACK
▁Km
▁nd
▁구심
▁굴리
▁그야
▁류성
▁번사
▁봉투
▁비소
▁삼도
▁신나
▁에덴
▁월성
▁읍내
▁의탁
▁작별
▁쾌적
▁파로
엽수림
▁긴장감
▁대마초
▁드레드
▁미노루
▁수출입
▁온건파
▁전람회
▁참석자
▁통일부
▁호남선
▁활화산
▁LGBT
▁포메이션
▁다이어그램
olution
거북
라티
리기
림리
소송
연사
쿠마
▁Fi
▁KL
▁so
▁네빌
▁도가
▁로직
▁백남
▁북문
▁분분
▁서화
▁석장
▁세터
▁얽매
▁연원
▁요요
▁전가
▁진시
▁칙서
▁태즈
▁파비
토니오
▁Sky
▁다거나
▁대역폭
▁미크로
▁배심원
▁부평구
▁세르히
▁아가미
▁예천군
▁윤원형
▁제트기
▁춘추관
▁평신도
▁포츠담
▁회색빛
▁모리타니
▁옥스포드
▁해바라기
▁메릴랜드주
소네
찰청
첼리
포항
▁Tu
▁고봉
▁광천
▁노정
▁뉴펀
▁니우
▁대권
▁레코
▁로건
▁룬드
▁막론
▁법의
▁사복
▁사색
▁상비
▁석좌
▁수납
▁숨지
▁슈마
▁액자
▁어마
▁어택
▁이춘
▁재조
▁토종
▁피보
▁헥사
▁630
▁Aut
▁겨울잠
▁그로브
▁기무라
▁런던탑
▁마오리
▁문하생
▁슈바벤
▁아메리
▁외손자
▁중앙동
▁하리마
▁TOUR
▁대검찰청
▁문화재청
▁시마네현
▁테크니컬
▁뉴펀들랜드
▁위스콘신주
▁폄
가드
덕면
엔드
음악
춘다
케르
후미
▁건반
▁라키
▁몬티
▁박창
▁본위
▁수르
▁알자
▁양준
▁쟁이
▁치매
▁타슈
▁화구
▁회령
▁SHO
▁var
▁대구경
▁빠져나
▁실력자
▁애국심
▁은밀히
▁인도양
▁재래식
▁조이스
▁천태종
▁카메오
▁포커스
▁하이데
니아누스
▁다카사키
▁드래곤볼
▁카탈로그
▁탄화수소
▁하마마쓰
▁Girls
▁받아들인다
▁function
▁짤
에나
▁Rh
▁가트
▁경장
▁군공
▁드가
▁미제
▁분묘
▁비티
▁이찬
▁정촌
▁지간
▁질책
▁천공
▁천인
▁체급
▁초순
▁퀴리
▁페놀
▁환공
▁회송
크루스
▁GHz
▁NGO
▁STX
▁app
▁감독관
▁계산기
▁곰팡이
▁리디아
▁리포터
▁마커스
▁모셔져
▁미국식
▁발원문
▁불신임
▁셀틱스
▁야코프
▁외로움
▁운전사
▁콜롬비
▁1680
▁1784
PG
gg
▁댕
누르
티늄
▁강선
▁교점
▁납득
▁대산
▁데비
▁랠리
▁벌집
▁부아
▁상산
▁선한
▁세인
▁인포
▁임수
▁장연
▁짜여
▁코아
▁탈영
▁하네
네이터
▁620
▁Bra
▁OFC
▁고릴라
▁관습법
▁광주군
▁노후화
▁로베스
▁마가렛
▁부지사
▁사령탑
▁양양군
▁이시이
▁인덱스
▁전시실
▁주자학
▁카이퍼
▁펼쳐졌
▁마라도나
▁스티븐슨
▁쓰러뜨리
▁윗수염박쥐
▁Direct
▁로베스피에르
GS
멜로
무역
배상
야식
장이
즈다
ful
ren
▁Da
▁OM
▁가람
▁간언
▁리토
▁막히
▁보타
▁비관
▁설날
▁성토
▁성하
▁스스
▁안료
▁양안
▁어순
▁어획
▁염원
▁이걸
▁이응
▁재적
▁하퍼
▁항암
▁후아
디비시
프레임
▁236
▁군포시
▁맥라렌
▁벨리즈
▁붙잡혔
▁비슈누
▁살아온
▁영양소
▁정류소
▁정복자
▁테이트
▁현대식
▁ISIL
▁main
▁영산회상
▁적십자사
▁진핵생물
▁에레디비시
▁카운트다운
▁미크로네시아
가나
데나
언군
테로
era
▁가꾸
▁거둘
▁날조
▁랄리
▁모지
▁방산
▁산국
▁수안
▁신다
▁아센
▁약관
▁오족
▁인화
▁창극
▁태고
▁파블
▁폰티
▁폴더
▁풍조
▁한두
▁힘러
메이커
▁880
▁마니아
▁마테오
▁맘루크
▁수필가
▁충선왕
▁커진다
▁크로마
▁키케로
▁잉글리시
▁자연환경
▁Beaut
▁Japan
▁갈라파고스
놀즈
험자
led
▁건기
▁고함
▁곡률
▁등각
▁똑똑
▁레토
▁링고
▁병설
▁샤크
▁성황
▁장석
▁정릉
▁지마
▁췌장
▁팩터
▁평영
롭스크
▁243
▁710
▁Vir
▁개혁가
▁구덩이
▁누리꾼
▁아카시
▁장흥군
▁재건축
▁정치범
▁중심가
▁그야말로
▁남중국해
▁로테르담
▁아키타현
▁에노모토
▁올렸으나
▁표현주의
▁솥
왕도
체계
타자
▁Sl
▁구정
▁독보
▁란다
▁로쿠
▁마담
▁멸치
▁야역
▁양모
▁옥산
▁웨버
▁융성
▁음파
▁적국
▁절지
▁제과
▁진부
▁한시
▁향유
▁화평
슬레이
▁Fla
▁res
▁경영난
▁고속철
▁군부인
▁나이츠
▁넥서스
▁닉네임
▁마르키
▁방어전
▁보험료
▁봉화군
▁양천구
▁영남대
▁의료진
▁페트라
▁혼마루
▁휘말려
▁히카리
umber
▁Long
▁국민은행
▁비엔날레
▁이복동생
▁전통문화
▁크리스트
▁놉
▁CI
▁가례
▁궁도
▁류지
▁묵인
▁백상
▁쇄도
▁자드
▁좌초
▁파평
▁푸이
▁하청
▁행상
▁허벅
▁헬름
▁호도
▁Bus
▁pop
▁과학부
▁구릉지
▁달라졌
▁스트링
▁요아힘
▁이코마
▁조로아
▁주성분
▁지치부
▁파이퍼
▁Dark
▁끌어들여
▁아일랜드인
▁프리메이슨
▁ㄷ
소수
판윤
AND
▁경서
▁곧장
▁내년
▁노고
▁뒤쫓
▁악사
▁엑소
▁여중
▁완봉
▁천호
▁측실
▁터전
▁티토
▁화정
▁화천
텐디크
ents
▁415
▁국세청
▁루시아
▁몽구스
▁어두워
▁은언군
▁의왕시
▁이데아
▁주동자
▁콜로니
▁튀링겐
▁플렉스
▁현충원
▁휘말리
itude
▁Comm
▁언더우드
▁포클랜드
▁그로텐디크
▁한성부판윤
CE
강원
사의
어드
팬지
ISC
▁갑과
▁검진
▁경공
▁공진
▁기모
▁나설
▁대식
▁대작
▁마실
▁메티
▁문선
▁민트
▁번안
▁순진
▁스필
▁아톰
▁와우
▁와의
▁우당
▁웅변
▁인부
▁잠금
▁저빌
▁정평
less
▁470
▁UFO
▁공로상
▁능력자
▁뒷다리
▁매개체
▁메네스
▁무한히
▁블랙번
▁세미놀
▁시발점
▁연면적
▁제천시
▁존재감
▁클랜시
▁파울리
▁홍길동
iness
▁되돌아왔
▁마요르카
▁아킬레스
▁오피스텔
▁요시미쓰
▁페데리코
▁Stand
▁White
▁유스티니아누스
▁쎄
녜스
임자
ald
▁귀부
▁귀한
▁도의
▁사타
▁상군
▁시무
▁아탈
▁오치
▁육신
▁은유
▁작은
▁죄책
▁차고
▁청백
▁쿼리
▁토가
▁파수
▁후카
▁히우
ople
▁247
▁MGM
▁공손찬
▁광우병
▁기차역
▁따라잡
▁마이트
▁메디컬
▁벨라스
▁브라흐
▁시그널
▁쏟아져
▁안무가
▁오랜만
▁오세아
▁인천시
▁일일이
▁제럴드
▁제레미
▁침팬지
▁토바고
▁헨리크
▁소방본부
▁액세서리
▁지주회사
▁크리스티아
대상
댑터
▁공교
▁교조
▁기력
▁남이
▁농수
▁대함
▁멈춰
▁면세
▁무모
▁배교
▁백양
▁부득
▁북두
▁사경
▁성비
▁소다
▁안현
▁연변
▁우현
▁위인
▁육영
▁전생
▁주례
▁치바
▁터져
▁확증
메랄드
▁304
▁345
▁남학생
▁다비트
▁대방광
▁마주치
▁병리학
▁불포화
▁서라벌
▁세이프
▁아루바
▁아메바
▁아쉬움
▁어댑터
▁일반직
▁자작곡
▁체세포
▁출입국
▁풀타임
투아네트
▁에메랄드
랴쿠
쓰카
종합
토닌
▁HM
▁광기
▁도니
▁밧줄
▁비드
▁산대
▁스컬
▁언양
▁에콜
▁용골
▁이괄
▁일깨
▁일절
▁작풍
▁재거
▁직할
▁청대
▁체액
▁최창
▁출하
▁통설
▁폭설
▁회개
▁후송
▁후크
▁GUI
▁PHP
▁bes
▁mac
▁갈루아
▁광진구
▁그래피
▁따라야
▁랜더스
▁목적물
▁밀려났
▁반대자
▁발표회
▁실업자
▁암살자
▁유스케
▁조리법
▁충무공
▁칼리프
▁플라잉
▁헤럴드
▁헬무트
▁흘러들
▁흩어지
▁1660
▁1811
▁1822
▁Roll
▁나카소네
▁레이놀즈
AX
르겐
비지
사토
시안
엑스
통신
asy
▁Na
▁__
▁px
▁감귤
▁게스
▁꼽혔
▁디리
▁룰라
▁병약
▁샌타
▁앞섰
▁야고
▁언행
▁에머
▁연개
▁연의
▁완승
▁입건
▁재빠
▁정창
▁초승
▁코피
▁토큰
▁페름
▁피격
▁피임
▁한나
▁화법
레인지
▁데미지
▁로고스
▁로지스
▁리아스
▁분류법
▁불태워
▁사나다
▁사업장
▁수산업
▁알레포
▁은신처
▁임진강
▁패터슨
▁헤이시
▁후원회
▁8859
▁Miss
▁갈라진다
▁Sweet
▁헤로도토스
mb
디브
렌트
문제
조프
▁공허
▁김안
▁다뤘
▁다졌
▁머드
▁민수
▁벌목
▁북청
▁불선
▁상술
▁오션
▁용융
▁의기
▁자화
▁주당
▁채드
▁최익
▁태원
▁특질
▁폭락
▁표수
▁형평
▁Ret
▁공백기
▁끓는점
▁다득점
▁링네임
▁시흥군
▁식물학
▁유의미
▁이스타
▁이와타
▁지리지
▁파열음
▁하루히
▁1620
▁Fall
▁되돌아가
▁볼리바르
▁스테파니
▁어셈블리
▁오리건주
▁체임벌린
▁칼뱅주의
▁찹
메데
이행
차오
▁강론
▁나눗
▁만회
▁말살
▁문맹
▁본과
▁북키
▁비겼
▁성금
▁잡이
▁적립
▁카게
▁협찬
▁NXT
▁군부대
▁근위대
▁깨어나
▁문화상
▁법률가
▁스트롱
▁신의주
▁오다큐
▁위그노
▁이동해
▁자연법
▁침례교
▁클로버
lease
▁마쓰야마
▁석불입상
▁캔자스주
▁핀란드어
▁박스오피스
▁앙투아네트
더미
모트
잭션
▁각막
▁거동
▁고케
▁기입
▁나그
▁남초
▁내선
▁다임
▁라구
▁미마
▁방광
▁봉행
▁선국
▁스펠
▁습한
▁약소
▁엘베
▁오모
▁입혀
▁접영
▁정윤
▁조프
▁채찍
▁충만
▁카제
▁큐어
디스트
순양함
▁UFC
▁거북이
▁기동대
▁나눗셈
▁달리기
▁돌핀스
▁마린스
▁메콩강
▁명부전
▁변경백
▁성주군
▁수리남
▁수세기
▁승문원
▁신고식
▁으려면
▁전교조
▁정무직
▁태안군
▁하행선
▁로버트슨
▁봅슬레이
▁스프린트
▁트랜잭션
▁헨드릭스
▁크리에이터
▁하드리아누스
▁American
▁Christmas
erv
▁Ca
▁괴담
▁다도
▁라싱
▁몰린
▁부석
▁분말
▁생강
▁선착
▁소독
▁스톱
▁역수
▁완구
▁이징
▁정각
▁중정
▁천둥
▁팬터
▁핑거
▁호드
▁화분
달레나
oman
▁나이키
▁넘어선
▁분석가
▁스쿼드
▁신중도
▁영월군
▁우주국
▁저마다
▁중남미
▁지하실
▁참나무
▁카펠라
▁특별상
▁피아트
▁하우젠
▁char
▁꼭두각시
▁미쓰나리
▁컴포넌트
▁Elect
▁Young
sy
▁ㅅ
노미
떡잎
무이
민관
추리
▁검소
▁근신
▁끊기
▁능히
▁다네
▁단총
▁대미
▁물산
▁방재
▁배움
▁배추
▁비노
▁스팟
▁아커
▁양복
▁왕사
▁진종
▁초간
▁카포
▁터졌
▁페미
베스트
▁Cry
▁def
▁경시청
▁더더욱
▁데이비
▁삼척시
▁울진군
▁주둔군
▁중립국
▁처한다
▁최고봉
▁카디프
▁히라이
▁1610
▁사다리꼴
▁소행성대
▁실증주의
▁에르난데스
▁와일드카드
아스
키오
태후
mun
▁"/
▁골대
▁교세
▁녹지
▁대잠
▁도살
▁로아
▁매혹
▁명신
▁배스
▁비운
▁비파
▁씨방
▁자회
▁점막
▁조업
▁종성
▁체신
▁파지
▁피복
테우스
▁고케닌
▁김종서
▁데이지
▁몰디브
▁반역자
▁부적합
▁산호초
▁수행자
▁아스트
▁에어컨
▁초음속
▁험프리
축구연맹
▁1770
▁가니메데
▁갑오개혁
▁스탠포드
▁오카모토
▁중심주의
▁타카하시
KO
타다
BSD
▁고신
▁군체
▁귀도
▁네리
▁뉴딜
▁루주
▁무반
▁변할
▁빗대
▁소성
▁신채
▁양화
▁얽혀
▁유향
▁질식
▁첨탑
▁총경
▁크롤
▁키가
▁테디
▁246
▁Mat
▁끌려갔
▁드래그
▁레드불
▁레이지
▁무용수
▁바우어
▁부코바
▁비변사
▁수송선
▁시리얼
▁쑤저우
▁아그리
▁인스트
▁페루자
▁헤어지
▁네바다주
▁롯데월드
▁슬라이더
▁지그문트
▁해군기지
▁Under
fr
▁젼
산염
und
▁고다
▁난시
▁목초
▁바를
▁봄바
▁부로
▁사재
▁사포
▁서프
▁실학
▁아롱
▁야사
▁웨스
▁중임
▁태초
▁통째
▁트렉
▁펴냈
▁호성
▁흥업
레흐트
▁간사장
▁괘불탱
▁그라드
▁나오미
▁법주사
▁불가침
▁생방송
▁소유스
▁유원지
▁이사금
▁인텔리
▁제이컵
▁청송군
▁출루율
▁티라노
▁평가전
▁프로메
▁한국사
▁한림원
▁1519
▁루도비코
▁스나이퍼
▁아뢰야식
▁헤이세이
뎅이
뮤다
박해
▁AH
▁검술
▁국조
▁덴분
▁뜻밖
▁방벽
▁배위
▁상봉
▁원담
▁원환
▁원회
▁위서
▁자퇴
▁정묘
▁정민
▁폐포
▁효령
예비치
▁930
▁PCI
▁동해안
▁드리블
▁마자르
▁매달려
▁미라클
▁배급사
▁버뮤다
▁빈번히
▁생활비
▁카시오
▁클랩튼
▁후보자
안토니오
▁3500
▁기요모리
▁달마티아
▁드러낸다
▁태어난다
▁해운대구
▁프라이부르크
88
▁ㅁ
▁캬
산역
에라
좌상
청사
텔라
트린
▁갖췄
▁계양
▁공역
▁답습
▁뽑힌
▁수보
▁순무
▁아덴
▁의관
▁조간
▁징시
▁토번
▁하양
▁혈당
▁히든
▁다이요
▁대구시
▁동호회
▁맞아들
▁문화부
▁물방울
▁성악가
▁엘레나
▁임실군
▁플리트
▁1604
▁1827
▁주니어스
▁파우스트
▁GeForce
ka
▁럿
군트
디시
렐리
예트
트만
▁LM
▁Us
▁광의
▁굽히
▁급한
▁기선
▁낙성
▁낙후
▁늦추
▁덮인
▁링스
▁받쳐
▁사저
▁서얼
▁수각
▁스며
▁신심
▁일까
▁케미
▁탱고
▁특무
▁플린
aven
ible
illa
▁286
▁Mem
▁모회사
▁뽑아내
▁설계도
▁수사학
▁오마이
▁이방원
▁졸업식
▁중시조
▁청년기
▁초승달
▁코카인
▁홀랜드
▁흘러드
▁Spec
▁보르네오
▁부르군트
▁에이로쿠
▁Party
▁파이프라인
▁일러스트레이터
▁ㄹ
델리
워프
진흥
콜리
▁-"
▁가늠
▁고배
▁두건
▁말초
▁방망
▁별시
▁샤론
▁석고
▁시추
▁쌍극
▁아헨
▁액면
▁역원
▁장호
▁종인
▁청혼
▁초의
▁컬럼
▁탈북
▁태인
▁평점
▁허준
바르드
▁252
▁403
▁뉴타운
▁동음이
▁로비치
▁백혈구
▁역사관
▁인디펜
▁전리품
▁쥐라기
▁집행부
▁최신형
▁축전기
▁타이타
▁통감부
▁파비아
▁판문점
▁협력자
▁니코니코
▁안드레스
▁요구사항
▁요시노리
▁조지아주
ki
li
▁숍
▁츨
라크
막이
몬테
워했
하드
▁낭트
▁내뿜
▁데바
▁도다
▁도바
▁로토
▁멀린
▁사대
▁옷감
▁증조
▁탄창
▁티크
▁포물
▁표식
▁하숙
▁후국
▁겐로쿠
▁교육법
▁노히트
▁디오니
▁레시피
▁미즈키
▁발루아
▁스러움
▁이나바
▁중합체
▁진달래
▁통찰력
▁호시노
▁통정대부
▁퍼져나갔
▁위트레흐트
▁플루오린화
▁깍
▁넛
규어
닝스
록스
소나
지방
nal
▁CB
▁GA
▁QS
▁VL
▁군장
▁귀의
▁남침
▁몸소
▁배격
▁베츠
▁부토
▁세심
▁소추
▁슈리
▁음표
▁쾌거
▁킹덤
▁화형
마리아
▁GSL
▁NCA
▁라이플
▁로그인
▁목욕탕
▁비스듬
▁소비량
▁앞다리
▁우익수
▁유난히
▁지상군
▁쫓겨난
▁횡성군
▁1829
▁고스란히
▁나갔으며
▁아데노신
▁아흐마드
▁오리온스
▁호그와트
▁황소자리
▁안티오코스
▁이슬람교도
bc
고원
더넷
밴드
raw
▁JO
▁UH
▁거류
▁걸림
▁검문
▁결산
▁램지
▁론도
▁부차
▁불기
▁손톱
▁시화
▁암묵
▁연전
▁우량
▁유코
▁장판
▁접점
▁제강
▁집요
▁키츠
▁피쉬
▁히젠
부쿠로
▁302
▁307
▁dis
▁도함수
▁발원지
▁분당선
▁세라믹
▁스콜라
▁연수원
▁영락제
▁우에다
▁이더넷
▁전도사
▁킹스턴
떡잎식물
▁1823
▁IDOL
▁디아블로
▁석불좌상
▁아드리안
▁올림푸스
▁줄어든다
▁핼리팩스
▁호나우두
▁Season
ml
▁숯
처치
▁그건
▁난류
▁동중
▁면책
▁벤트
▁병상
▁사루
▁소호
▁손견
▁신혼
▁아고
▁암행
▁양봉
▁저속
▁전패
▁제호
▁조음
▁진척
▁초토
▁친위
▁팔달
▁휴스
스턴트
즈베리
▁LNG
▁Sur
▁Val
▁김성근
▁도망친
▁마르텔
▁반자동
▁볼프스
▁사마르
▁성전환
▁에리카
▁으니까
▁지급시
▁최고점
▁커맨드
▁판무관
▁확장자
▁동부승지
▁미야모토
▁스타워즈
▁스테이크
▁알카에다
▁Story
▁National
by
경사
삼국
와프
펄스
헤르
▁RB
▁그렉
▁금수
▁뇌전
▁레진
▁록과
▁목과
▁목련
▁백기
▁부팅
▁샤흐
▁석성
▁수크
▁실기
▁알랭
▁완치
▁원죄
▁홍영
사무소
▁242
▁251
▁285
▁288
▁DDR
▁고기압
▁공격기
▁권위자
▁네모난
▁더라면
▁메이스
▁아르투
▁이홍장
▁장성군
▁장애인
▁Kiss
▁끌어들였
▁Child
▁조로아스터
▁카트라이더
31
▁춥
십리
ENT
▁CW
▁Er
▁격납
▁과당
▁데빌
▁삼색
▁애들
▁일찌
▁최현
▁충적
▁토와
▁틀린
▁하도
▁합한
▁현세
다이스
사회당
▁PSV
▁도호부
▁베르겐
▁서부터
▁유사시
▁제곱근
▁커플링
▁탈북자
▁테일즈
▁플라워
▁1598
▁리처드슨
▁베트남어
▁상무위원
▁약사여래
▁자동차도
▁스테인리스
▁카보베르데
ms
구로
도치
롭스
발리
사위
스컵
아과
코지
bit
▁JK
▁광구
▁굽타
▁기거
▁대운
▁반출
▁벌일
▁벤조
▁스캐
▁염분
▁영안
▁예스
▁왜관
▁우생
▁임직
▁참회
▁칭화
▁피폐
▁해답
▁행의
프로스
▁EXO
▁마르타
▁법체계
▁부주석
▁사타케
▁아세안
▁여행기
▁키르케
▁털어놓
▁후이족
▁1018
▁1750
▁STER
▁chem
▁마르코프
▁세바스티안
▁챔피언스컵
▁테오도시우스
UE
▁깐
▁잖
gon
▁꿀벌
▁네발
▁도수
▁레빈
▁매점
▁매클
▁바브
▁백군
▁빈부
▁삼지
▁상량
▁샤토
▁석주
▁슬립
▁싸여
▁썸머
▁예지
▁우발
▁전우
▁조도
▁지롱
▁청담
▁택배
▁통달
▁팽팽
▁홍가
레이저
▁274
▁615
▁910
▁Cap
▁버팔로
▁삽입곡
▁수개월
▁신천지
▁아미르
▁엄정화
▁오스본
▁유리창
▁장수군
▁퀘벡주
르크세스
예술종합
▁1603
▁BEST
▁구이저우
▁오고타이
▁케이블카
▁행해진다
▁Staff
▁에뮬레이터
예술종합학교
▁크세르크세스
▁한국예술종합학교
VF
▁룹
신경
쓰구
장치
틸라
lus
▁각류
▁거침
▁교로
▁닥치
▁두들
▁둘렀
▁목공
▁반부
▁산골
▁수운
▁시프
▁식초
▁실외
▁양립
▁양키
▁자구
▁잡식
▁주범
▁주영
▁크렘
▁편이
▁해미
arth
▁TTC
▁URL
▁메이든
▁복사본
▁분당구
▁새마을
▁서태후
▁에라스
▁옥천군
▁이고르
▁이기붕
▁작용기
▁총인구
▁카시니
▁커스텀
▁트러스
▁흥덕구
▁Club
▁Last
▁요시모토
▁인스턴트
▁전륜구동
▁일으켰으며
DC
▁뤽
새우
셔츠
의지
자매
▁감바
▁개점
▁갤리
▁고흐
▁곱하
▁기화
▁놀랐
▁당근
▁리전
▁비결
▁상형
▁숙적
▁에일
▁예니
▁오군
▁용강
▁유허
▁이왕
▁재촉
▁적위
▁출원
▁캘리
▁휴즈
의사당
▁580
▁맞춤법
▁베르토
▁소대장
▁수없이
▁장방형
▁전용선
▁주택가
▁청양군
▁틀림없
▁프리마
리니스트
▁도치기현
▁아이치현
▁Inter
▁대하드라마
▁와카야마현
▁볼프스부르크
▁바이올리니스트
96
▁젱
쿠프
▁NR
▁건재
▁공언
▁롬멜
▁빅스
▁서도
▁솅겐
▁씌워
▁아웅
▁악수
▁어법
▁자포
▁캘러
▁통풍
▁후금
빌리시
gram
▁map
▁가창력
▁남북국
▁디제이
▁리간드
▁버추얼
▁불러오
▁상층부
▁알타이
▁윤봉길
▁지휘부
▁1689
▁간선도로
▁뉴저지주
▁중성자별
▁트빌리시
▁팟캐스트
시기
아먹
호쿠
▁겸한
▁도굴
▁러쉬
▁묻힌
▁뽑혀
▁사행
▁상좌
▁쇼어
▁식욕
▁악성
▁앙겔
▁요로
▁이티
▁정안
▁조스
▁지낼
▁충효
▁치프
▁하바
▁협공
나이더
▁670
▁Lee
▁가만히
▁고이치
▁당진시
▁대축일
▁동래구
▁세자빈
▁신이치
▁아와지
▁알자스
▁야마나
▁에번스
▁오세훈
▁요시마
▁윌리암
▁적당히
▁전화기
▁mark
▁모른다고
▁바르바로
▁아칸소주
▁요한네스
▁전기철도
▁크라쿠프
▁해방전선
▁style
oon
▁Oh
▁강직
▁경련
▁교습
▁군축
▁나돌
▁단형
▁뒤떨
▁라만
▁레슨
▁반디
▁밤낮
▁비가
▁생동
▁서무
▁스푸
▁왜건
▁우바
▁윤정
▁조양
▁카산
ends
soft
▁JYP
▁Son
▁per
▁고위급
▁니시노
▁로이터
▁리에주
▁솔리드
▁알렉상
▁어쩌면
▁자연석
▁종교인
▁Boys
▁마르티노
▁분청사기
▁오리엔트
▁하세가와
▁하토야마
▁독립선언서
▁알려졌으나
▁이바라키현
▁헵
나디
대륙
루치
츠카
▁강주
▁고슴
▁굳혔
▁금연
▁남사
▁남우
▁남정
▁노장
▁농상
▁대모
▁대보
▁듀란
▁랠프
▁레테
▁막사
▁반승
▁베텔
▁비축
▁순결
▁스팸
▁신월
▁암각
▁영변
▁요란
▁자강
▁장문
▁차녀
▁참지
▁호퍼
▁Som
▁곡성군
▁다방면
▁당상관
▁문학관
▁미라이
▁순서수
▁아사노
▁오타쿠
▁지대공
▁1774
▁절지동물
UB
▁륭
성사
▁jp
▁고심
▁김무
▁김중
▁루블
▁루체
▁막심
▁발하
▁실세
▁예절
▁외주
▁유마
▁의창
▁전능
▁차륜
▁촘촘
▁펜타
▁흐리
▁희종
벌랜드
ould
▁고조부
▁공고히
▁구치소
▁나무과
▁대유행
▁로터리
▁불국사
▁슈테판
▁스테드
▁음모론
▁이용해
▁제자리
▁처인구
▁컨버터
▁투성이
▁1624
▁Want
▁고슴도치
▁나카야마
▁무하마드
▁바이너리
▁아이러니
▁올리비아
▁이와쿠라
▁코스모스
▁국회의사당
▁뽐
▁잿
레트
▁HC
▁가운
▁내심
▁닫혀
▁대남
▁메흐
▁변절
▁사오
▁실형
▁이다
▁이쪽
▁잎겨
▁전립
▁진경
▁천동
▁포카
▁할레
▁행장
▁후불
▁휘장
절제사
▁295
▁Que
▁대공포
▁디나르
▁라이어
▁무한대
▁발사기
▁빨치산
▁살인범
▁스플릿
▁신속히
▁정의역
▁최충헌
▁허벅지
▁헌병대
▁1617
▁Core
▁미네르바
▁북키프로스
▁잎겨드랑이
85
▁퀀
와서
총사
ola
oul
▁게티
▁대당
▁디미
▁레시
▁리세
▁만을
▁물망
▁밀폐
▁바주
▁박노
▁보부
▁비나
▁스나
▁시해
▁오무
▁외측
▁종시
▁중턱
▁천일
▁폐선
▁피폭
▁합해
▁화차
▁후부
▁312
▁그라스
▁드리스
▁불출마
▁상당구
▁수영복
▁시에나
▁신고전
▁신정부
▁완전열
▁쥐아과
▁진다는
▁코뿔소
▁표시기
▁헤르츠
▁Come
▁Park
▁Take
▁배웠으며
▁큰곰자리
▁color
▁가이드라인
▁코네티컷주
GL
로빈
바니
숨에
▁경미
▁남중
▁무례
▁불공
▁빠짐
▁석관
▁성무
▁심청
▁엑셀
▁예테
▁좌안
▁철조
▁파마
iter
▁갤러거
▁고품질
▁구한말
▁단숨에
▁도시락
▁마리안
▁수용액
▁에가와
▁오른팔
▁형태학
▁로체스터
▁베네딕트
▁예테보리
▁주체사상
▁남해고속도로
윳값
SQL
▁각칙
▁결절
▁관보
▁기강
▁답사
▁대호
▁린스
▁분전
▁설파
▁소의
▁시전
▁십육
▁얼티
▁여산
▁왜소
▁익혀
▁작정
▁정위
▁체전
▁최명
▁친부
▁트릴
▁펀딩
▁품위
▁풍년
▁풍물
리스크
망원경
▁324
▁346
▁ITV
▁USD
▁und
▁고윳값
▁달라붙
▁루치아
▁베르가
▁부유층
▁세이지
▁스키장
▁에나쓰
▁인버터
▁축구장
▁클레멘
▁트란실
▁피터슨
erson
▁1650
▁보인다는
▁오디세이
▁외무대신
▁처녀자리
▁David
▁라디에이터
▁이케부쿠로
▁자유민주연합
▁트란실바니아
LD
ex
▁깬
이다
참모
흥사
▁가재
▁강신
▁견뎌
▁괴인
▁권상
▁기우
▁나경
▁대격
▁또래
▁뜨거
▁박규
▁변칙
▁상냥
▁선례
▁앰프
▁어거
▁육로
▁음정
▁치욕
▁황진
iful
rown
ters
▁308
▁강북구
▁구속력
▁리어스
▁매뉴얼
▁소문자
▁소화기
▁운전석
▁유위법
▁재규어
▁죄책감
▁지부장
▁후쿠치
▁1758
▁Work
▁브레스트
▁There
대리
사람
ada
con
▁BA
▁간과
▁갇히
▁결방
▁나로
▁남연
▁녹차
▁도농
▁도브
▁딱히
▁레기
▁리암
▁미정
▁바움
▁방편
▁비엘
▁비화
▁사해
▁샬롯
▁속속
▁수달
▁아귀
▁아함
▁야훼
▁예부
▁완고
▁우다
▁유경
▁자임
▁접두
▁찍혀
▁천민
▁쿠즈
▁키를
▁킬링
▁혈장
▁혜종
▁호군
로니키
obal
▁241
▁254
▁970
▁add
▁게시물
▁경전차
▁고려조
▁고령군
▁고아원
▁기술원
▁노이드
▁동급생
▁무색계
▁바이크
▁받침대
▁신청서
▁아오키
▁알버트
▁오라클
▁오로치
▁오야마
▁월간지
▁이코스
▁추징금
▁훈련기
ATION
▁PROD
▁long
▁마이너스
▁입헌군주제
▁테살로니키
▁페르디난도
▁떤
긴스
버시
슨스
예스
ube
▁IG
▁건원
▁그친
▁대내
▁대추
▁몸값
▁보닌
▁분동
▁산전
▁샐리
▁스베
▁신태
▁실러
▁오송
▁익룡
▁장손
▁조속
▁체형
▁컬트
▁코브
▁과천시
▁알아볼
▁유행어
▁제니스
▁새마을호
▁생겼으며
▁스페인인
▁어우러져
▁안달루시아
▁하우스도르프
▁ㄴ
▁뜸
돋움
라다
렉틱
실린
임관
토키
호테
fer
▁GC
▁Hi
▁gl
▁고니
▁넬리
▁망고
▁멸시
▁물색
▁미남
▁베시
▁빌린
▁산로
▁선망
▁소백
▁신야
▁신오
▁역내
▁연지
▁유류
▁유속
▁이피
▁전상
▁정방
▁정영
▁청국
▁청서
▁청어
▁훌라
수수색
스코샤
▁Cat
▁관리원
▁매카시
▁미니애
▁비너스
▁샌더스
▁아바타
▁에미넴
▁오두막
▁지요다
▁체르노
▁최강전
▁클로스
▁행렬식
오세티야
▁나미비아
▁시킨다면
▁심플렉틱
▁아시아나
▁압수수색
▁인문주의
▁크레이지
▁프레스코
▁해왔으며
▁Radio
▁나타났으며
▁미니애폴리스
문예
이익
▁감도
▁강착
▁교행
▁국을
▁글라
▁넉넉
▁다빈
▁단바
▁미비
▁배선
▁불쌍
▁서수
▁섭외
▁성관
▁스도
▁식성
▁아길
▁여제
▁유탄
▁임씨
▁제제
▁조재
▁친해
▁팬더
▁하진
▁해달
▁호앙
야구장
▁248
▁299
▁525
▁거듭나
▁건축학
▁괴로움
▁리버티
▁문경시
▁보건부
▁아토스
▁장보고
▁코브라
▁피난처
▁햄버거
earch
▁1080
▁1618
▁2025
▁라인란트
▁슈퍼마켓
▁유한회사
▁차례차례
▁필라멘트
▁Trans
▁노바스코샤
▁오세아니아
▁동지중추부사
▁아시아나항공
▁레트로바이러스
▁긋
▁숱
물관
벨리
lad
▁김책
▁노니
▁돋보
▁랍비
▁만민
▁미개
▁사암
▁산모
▁수형
▁시지
▁알선
▁오븐
▁토속
▁화족
린다는
iano
▁258
▁272
▁318
▁490
▁경전선
▁녹는점
▁딜레마
▁레베카
▁마그나
▁말린스
▁뭄바이
▁미네랄
▁상대편
▁승강기
▁한양대
▁한자음
▁회사법
▁휴식기
▁니시무라
▁살아간다
▁신춘문예
▁중선거구
▁남오세티야
노바
미도
반응
소총
웰스
체육
▁계측
▁고경
▁군포
▁금은
▁꺼리
▁날로
▁단맛
▁동고
▁불거
▁사외
▁셀틱
▁소상
▁연표
▁예매
▁예쁜
▁외성
▁최연
▁퇴원
▁플립
▁행세
▁허수
▁협소
▁회심
클레어
▁269
▁MiG
▁Sal
▁기흥구
▁도로망
▁로페즈
▁목적어
▁몬태나
▁물리량
▁발돋움
▁방화벽
▁빼어난
▁산토스
▁어울려
▁에어백
▁제러미
▁조에쓰
▁주고쿠
▁파도바
▁퍼블리
▁하지메
▁화천군
▁1781
▁Mach
▁리얼리즘
▁싸웠으나
▁요시마사
▁샌안토니오
▁알렉상드르
▁우주망원경
▁트리케라톱스
▁솝
킹엄
ERT
▁*/
▁Hy
▁TW
▁개구
▁개창
▁교유
▁군법
▁금욕
▁김이
▁당인
▁뒷산
▁라세
▁라싸
▁망각
▁맞은
▁문희
▁번트
▁선의
▁성소
▁셜리
▁셰어
▁영묘
▁예브
▁와타
▁왔었
▁정간
▁제소
▁증득
▁차갑
▁초라
▁캄차
▁탐진
▁행할
▁혈증
▁혹시
평장사
izza
▁276
▁293
▁CSS
▁VfL
▁가리킬
▁고위직
▁구리시
▁김연아
▁리라는
▁바스티
▁부총장
▁사누키
▁생명력
▁서고트
▁아카드
▁와이즈
▁이세민
▁저격수
▁지배력
▁직제학
▁체사레
▁총연장
▁헨더슨
▁화산재
▁흩어진
▁서베를린
▁우즈베크
▁폴란드어
▁보수주의자
▁스프링필드
▁프라이버시
46
덕동
요스
mus
rib
▁OO
▁UM
▁감격
▁강산
▁경동
▁군신
▁귀결
▁노모
▁니티
▁마쿠
▁바가
▁버들
▁부검
▁서성
▁석패
▁순경
▁오너
▁일소
▁잠식
▁코타
▁파테
▁팍스
▁폴스
▁형량
▁회절
▁히가
드리치
리아나
▁279
▁990
▁Ext
▁가드너
▁감비아
▁내용물
▁버금가
▁볼츠만
▁부득이
▁사라왁
▁사유지
▁상행선
▁생산품
▁서강대
▁아래층
▁이치카
▁자유시
▁채권법
▁철광석
▁파슨스
▁회의실
ember
▁1785
▁1786
▁Band
▁슈베르트
▁트러스트
▁오카야마현
▁옻
공연
레로
레르
100
▁==
▁FP
▁Kh
▁각급
▁격변
▁계신
▁관등
▁권속
▁권신
▁동단
▁무속
▁반스
▁법명
▁병용
▁본연
▁비보
▁성터
▁소질
▁쇠락
▁시파
▁에브
▁연비
▁위너
▁위정
▁재치
▁조커
▁줄인
▁중핵
▁치켜
▁타츠
▁탁자
▁태산
▁태운
▁팔츠
▁폭정
▁헤밍
ache
▁TNT
▁따돌림
▁모퉁이
▁밑바닥
▁발매될
▁부산항
▁식별자
▁신호기
▁쏟아지
▁알바로
▁유제품
▁장학생
▁콘트라
▁함평군
▁흡혈귀
▁1506
▁temp
▁will
▁마쓰마에
▁수아레스
▁순회공연
▁왼손잡이
▁히로히토
▁애들레이드
▁PRODUC
▁루이지애나주
시리
후보
sch
▁강병
▁공증
▁관작
▁노런
▁못함
▁병무
▁봉지
▁산산
▁손발
▁시책
▁요는
▁일전
▁젊음
▁조군
▁토륨
▁퐁텐
▁학산
▁호자
▁홀름
▁홀트
▁회도
▁히에
가사키
스토이
▁581
▁갈고리
▁나세르
▁내버려
▁몰아냈
▁법화경
▁변주곡
▁사야카
▁승하차
▁이상재
▁자가용
▁쟁탈전
▁컴팩트
▁폭발력
▁히다카
press
▁NCAA
▁브레이커
ga
벡스
조각
▁BN
▁LE
▁난항
▁다낭
▁딜러
▁런닝
▁매상
▁매키
▁목수
▁몸담
▁백선
▁백호
▁산천
▁석영
▁슐츠
▁알릴
▁유후
▁일회
▁입소
▁전연
▁정이
▁펄프
▁해온
▁황우
▁황인
▁후나
▁희석
립니다
사이저
아비브
폴리오
▁Del
▁건조물
▁들려주
▁문제삼
▁미유키
▁사부로
▁수출품
▁스쿼시
▁신채호
▁요시키
▁재처리
▁치타스
▁톰프슨
▁투수진
▁한라산
▁해파리
▁1413
▁1590
▁1614
▁독립신문
▁드와이트
▁아퀴나스
▁야마우치
▁페르소나
▁형제자매
▁Instit
35
▁놔
▁묀
▁잰
교구
내기
달라
전지
팔트
포이
▁가다
▁가칭
▁간이
▁경정
▁고음
▁공납
▁국책
▁내막
▁단파
▁돌린
▁동초
▁면밀
▁봉고
▁비숍
▁양곤
▁양말
▁예문
▁오소
▁용성
▁위층
▁장형
▁죄악
▁중증
▁터프
▁학예
▁해골
▁행크
▁혼례
▁화질
▁히키
뮤지스
▁730
▁GPL
▁OBS
▁공급자
▁네우스
▁상공업
▁시구르
▁알레한
▁영상물
▁올라서
▁총면적
▁편집인
▁막내아들
▁불가사의
▁쓰였으며
▁암행어사
▁텔아비브
▁하치노헤
▁나인뮤지스
48
yo
▁튕
감치
유정
ets
ift
▁대야
▁도울
▁된장
▁명과
▁몽테
▁문왕
▁문익
▁방주
▁변인
▁브룬
▁아멘
▁용구
▁위례
▁위수
▁유조
▁자우
▁잠자
▁장계
▁주보
▁촉탁
▁최병
▁출옥
▁커질
▁크립
▁타결
▁탈린
▁혈중
▁황국
ider
ious
▁351
▁421
▁Kid
▁경찰대
▁돌출부
▁동북아
▁맞은편
▁엥겔스
▁작업장
▁저고리
▁캔버라
▁테라스
▁통한다
▁필리포
cript
▁1609
▁News
▁시구르드
▁저스티스
▁코카서스
▁트리오스
▁플로렌스
▁신시사이저
▁포트폴리오
SS
pl
▁쌈
게티
딩거
사드
제도
uss
▁강림
▁루디
▁믈라
▁백서
▁섬진
▁아악
▁앗딘
▁예르
▁외인
▁일문
▁임했
▁자꾸
▁장어
▁찬란
▁타령
▁판과
▁행실
안데르
쿠츠크
▁335
▁JAP
▁KNN
▁간쑤성
▁경의선
▁나탈리
▁누에바
▁다무라
▁득표자
▁메구미
▁보은군
▁사계절
▁성삼문
▁세계사
▁수출국
▁실내악
▁이사국
▁제라드
▁칭하이
▁행정학
▁NADP
▁다이어트
▁도미니크
▁베이루트
▁사르트르
▁에마누엘레
▁이르쿠츠크
HA
VB
▁땡
양성
청년
▁HN
▁경조
▁고선
▁관복
▁기문
▁기보
▁기염
▁니야
▁로베
▁마호
▁발성
▁보필
▁비견
▁소바
▁신일
▁아네
▁양승
▁어구
▁어차
▁역세
▁울려
▁인덕
▁정법
▁조피
▁징조
▁참파
▁채광
▁천궁
▁첨사
▁코만
▁탈주
▁필러
▁한식
▁흑점
프스키
ruct
ving
▁870
▁BGM
▁cle
▁경비원
▁근현대
▁김장생
▁막대기
▁선전관
▁여행객
▁이그나
▁종목별
▁주유소
▁출산율
▁충실하
▁흥천사
▁보냈으나
▁스키피오
▁시나가와
▁애너하임
▁인류학자
▁중등학교
▁파이낸셜
▁Songs
FF
LO
▁냇
▁챕
소닉
▁TT
▁강계
▁남안
▁단막
▁두근
▁드골
▁무임
▁미연
▁변국
▁사에
▁서호
▁섞이
▁신교
▁신랄
▁심성
▁야영
▁양민
▁오더
▁원론
▁진저
▁첨지
▁초속
▁코언
▁핍박
▁해짐
▁향사
▁회이
▁후렴
대표제
▁Fly
▁GTX
▁Mad
▁Max
▁갈아타
▁공화제
▁노하우
▁다라니
▁메시아
▁묘지명
▁사무처
▁삼총사
▁아즈텍
▁위르겐
▁유프라
▁카르텔
▁코시모
▁퀘이사
▁크누트
▁탐지기
▁피오르
▁text
▁손해배상
▁슈나이더
▁Count
▁동음이의어
▁수동변속기
▁유프라테스
ti
▁푀
다닌
다코
사건
에프
여름
열왕
이라
▁건수
▁군제
▁김근
▁노퍽
▁논어
▁다미
▁대천
▁명정
▁무연
▁소꿉
▁송사
▁연약
▁오야
▁음대
▁장재
▁적기
▁정씨
▁초성
▁투리
▁협시
▁호안
▁환멸
▁흔치
레이라
소수점
플라이
▁405
▁HBO
▁경쟁사
▁고유종
▁교수진
▁기계식
▁부녀자
▁순례자
▁아람어
▁아이다
▁출신자
▁칵테일
▁크리크
▁파이팅
▁회의장
▁히데오
▁Feel
▁cent
▁두루마리
▁머라이어
▁부분집합
▁자격정지
▁서울특별시장
▁넋
▁롄
▁헹
뭉치
용수
충제
프먼
INE
oot
uch
▁;-
▁BE
▁XL
▁개울
▁구개
▁굴러
▁극본
▁돌림
▁마코
▁목차
▁문동
▁박선
▁보나
▁볶음
▁봉양
▁서포
▁숙이
▁아전
▁알스
▁여느
▁연남
▁영릉
▁영생
▁유어
▁장내
▁쟁의
▁출고
▁칭한
▁타히
▁형세
▁환대
▁히카
▁maj
▁동화사
▁드웨이
▁리아노
▁부수찬
▁아스투
▁임산부
▁지배인
▁카르멘
다코타주
▁over
▁군사령관
▁현대그룹
▁아스투리아스
▁셍
같이
애플
▁골반
▁극진
▁데브
▁르망
▁미공
▁부성
▁사투
▁수일
▁실례
▁아체
▁야즈
▁어색
▁올슨
▁외르
▁임자
▁정가
▁지친
▁직간
▁통곡
▁항고
▁허균
▁홍조
▁화포
베르투
▁Lin
▁Mot
▁Say
▁대성공
▁대장균
▁디저트
▁살라딘
▁아담스
▁일개미
▁제철소
▁주모자
▁지나간
▁지나갈
▁최익현
▁크로우
▁프로비
▁헤일리
▁형태소
▁히로키
▁0000
▁1718
▁Hard
▁끌어올리
▁소프트볼
▁슬라브족
▁아스팔트
▁크라이슬러
순환
여겨
참배
▁거버
▁건넌
▁공청
▁굴지
▁남평
▁랩퍼
▁매국
▁본떠
▁본원
▁부곡
▁서두
▁소래
▁송곳
▁수피
▁수해
▁에딘
▁예후
▁운트
▁일로
▁임천
▁적개
▁전야
▁제전
▁주산
▁쥬얼
▁징벌
▁처소
▁체가
▁초유
▁최면
▁판자
▁피침
르트헤
▁TBN
▁공대공
▁다빈치
▁미쓰이
▁번식기
▁브렌트
▁사마소
▁사마시
▁슈퍼맨
▁오랑캐
▁옹호자
▁좌익수
▁파이크
▁함재기
▁Mind
▁비행대대
▁신사참배
▁오이라트
▁티베트족
▁아방가르드
▁페르디난드
나귀
숙왕
운사
irc
▁간대
▁구포
▁군영
▁김관
▁너클
▁다쳤
▁로터
▁맞췄
▁비인
▁상왕
▁성진
▁스켈
▁안사
▁에러
▁유순
▁응징
▁인양
▁자경
▁자자
▁재연
▁존자
▁창가
드로스
▁","
▁Mil
▁Thr
▁가마터
▁갈라졌
▁김좌진
▁미끄러
▁미워하
▁사용량
▁스크리
▁싸운다
▁에드먼
▁영업소
▁오티스
▁조직법
▁줄리안
▁챈들러
▁충숙왕
▁태양풍
▁페넌트
▁허가서
지느러미
▁공동묘지
▁기독교도
▁마사요시
▁신해혁명
▁에밀리아
▁인피니티
▁자유로이
▁지명타자
가족
교사
네사
보트
사슬
센테
은하
III
IME
▁go
▁가택
▁고법
▁공여
▁랑고
▁래피
▁료마
▁루마
▁서핑
▁셋쓰
▁안영
▁알류
▁예송
▁원부
▁자야
▁점근
▁제하
▁주서
▁최루
▁최태
▁쿠도
▁쿠타
▁키티
▁타타
▁팬택
▁풀러
▁하로
▁험준
▁현주
▁혈류
▁홍종
박물관
ular
▁707
▁SSG
▁각본상
▁급성장
▁다이시
▁다카오
▁대륙성
▁로스엔
▁만토바
▁버려졌
▁봉은사
▁부교리
▁북극성
▁불태웠
▁사업단
▁스폰지
▁애국가
▁애국자
▁제닝스
안데르탈
bject
▁경국대전
▁백조자리
▁아우크스
▁통근열차
▁프레데릭
▁하이패스
▁IDOLM
▁네안데르탈
▁랑고바르드
▁팬터그래프
▁로스엔젤레스
▁아우크스부르크
▁듬
▁숏
▁슝
당기
벤토
집행
▁공저
▁국원
▁낙마
▁남위
▁늘릴
▁닐슨
▁매그
▁모독
▁반다
▁반목
▁백수
▁삼청
▁상복
▁생합
▁석비
▁성좌
▁일월
▁적설
▁종중
▁직급
▁집산
▁칠리
▁카슨
▁포시
▁프랫
▁한발
▁항속
▁화보
▁흉년
상가상
스티니
▁Dec
▁나아갈
▁대용량
▁데이즈
▁동해선
▁마르스
▁무찔렀
▁세자르
▁순창군
▁신분증
▁아라시
▁우편물
▁의열단
▁행선지
렌부르크
▁1050
▁글리세롤
▁베네벤토
▁선덕여왕
▁설상가상
▁일찌감치
▁자유자재
▁테오도르
▁퓰리처상
▁지중추부사
▁파라다이스
▁클라우디우스
OX
▁딛
동국
110
ury
▁끊겼
▁낭인
▁린지
▁맹주
▁무종
▁비음
▁심벌
▁양인
▁우구
▁우키
▁직영
▁착하
▁철인
▁추돌
▁쿠엔
▁퇴폐
▁트이
▁포그
▁필치
▁남긴다
▁노래방
▁다이스
▁도이치
▁매도인
▁보관소
▁새크라
▁실학자
▁유방암
▁정규직
▁조만식
▁철자법
젠테이션
▁1644
▁두려워한
▁제곱미터
▁코르시카
▁JAPAN
▁베스트팔렌
▁새크라멘토
▁랫
겨운
리얼
뱅이
하탄
▁MF
▁ll
▁골문
▁광운
▁권제
▁난동
▁노로
▁라로
▁리의
▁만만
▁반찬
▁사울
▁삭과
▁소연
▁숭상
▁스지
▁신통
▁아실
▁악셀
▁오파
▁오행
▁우계
▁운남
▁장량
▁촌의
▁트롬
▁푸리
▁MBA
▁NFL
▁Reg
▁고니시
▁나치스
▁니시오
▁다카기
▁렀으며
▁매립지
▁사리탑
▁이산해
▁작곡자
▁지휘권
▁캄차카
▁태양신
▁현대사
지상주의
타르코스
▁1605
▁돗토리현
▁마법소녀
▁불러들였
▁윈체스터
▁임상시험
▁체르노빌
▁코먼웰스
▁부동소수점
▁워크래프트
go
조림
카인
▁IQ
▁끈다
▁니조
▁동도
▁뚫려
▁매겼
▁모른
▁묶인
▁박형
▁베링
▁본교
▁사동
▁선녀
▁소거
▁야곱
▁엔도
▁육수
▁이본
▁임치
▁제롬
▁참혹
▁측선
▁합주
네이도
다코타
시아스
프레드
ense
▁317
▁가등기
▁간다는
▁금천구
▁덕수궁
▁마키노
▁모리타
▁무령왕
▁부교수
▁사들였
▁샤프트
▁세계인
▁에비스
▁엔리코
▁이시영
▁진출권
▁푸리에
▁하이트
▁호치민
▁훈련원
▁Only
▁cont
▁메인보드
▁토네이도
▁Break
▁올림피아드
▁티베리우스
공단
러시
▁가경
▁단죄
▁
▃
이
다
.
에
의
는
로
하
,
을
1
가
지
고
서
한
은
기
0
사
리
대
으
시
스
2
를
도
인
년
아
자
어
라
수
일
있
나
부
전
그
정
국
되
9
과
해
주
제
었
들
성
구
장
여
상
적
동
했
와
위
3
원
선
공
게
트
마
였
보
드
만
조
5
경
중
며
화
4
8
미
우
월
학
소
유
교
비
세
오
신
르
6
개
역
문
치
7
계
명
연
회
후
관
면
진
터
등
것
모
된
영
용
프
발
군
산
러
타
무
니
작
"
당
민
방
레
단
데
거
재
음
생
카
e
통
바
분
간
반
크
안
포
a
행
차
체
내
운
호
식
요
노
o
본
파
현
물
남
할
t
출
'
종
양
r
m
속
때
임
야
실
토
두
결
루
형
l
함
설
던
강
코
표
키
려
i
-
히
각
법
초
배
태
디
업
승
독
n
건
력
직
버
록
래
입
불
까
합
S
피
A
점
예
매
최
번
C
또
티
않
받
았
천
같
베
권
른
약
메
브
말
더
왕
알
목
판
격
심
립
감
u
투
s
청
금
활
란
추
항
처
평
네
북
달
없
린
외
특
저
언
열
따
집
즈
테
석
편
복
향
T
류
병
변
F
광
질
준
족
령
M
B
페
근
I
난
올
름
랑
황
급
람
축
존
총
송
능
애
론
김
c
많
술
참
박
철
별
울
쪽
g
살
f
D
및
환
절
악
증
품
온
창
P
E
육
쿠
곡
료
;
플
백
d
)
h
망
새
쓰
필
순
림
케
돌
졌
&
께
클
량
머
글
확
져
든
팀
규
워
패
(
N
쟁
극
탈
색
범
련
견
너
삼
O
k
탄
날
L
랜
친
R
째
충
K
막
책
손
봉
접
p
퍼
G
완
츠
션
_
협
못
런
뒤
담
V
밀
블
채
습
/
골
길
럽
엔
녀
측
혼
험
취
즌
누
귀
커
슬
슈
암
H
벌
곳
찰
갈
겨
났
웨
앙
[
U
씨
y
]
뉴
칭
첫
허
침
효
높
획
징
널
:
쳐
볼
응
죽
센
논
뜻
락
착
례
큰
폭
검
헌
~
움
잡
렸
득
캐
희
엘
b
농
픽
줄
섬
틀
걸
럼
홍
풍
퇴
W
택
느
폴
헤
%
먼
좌
폐
싱
왔
층
될
압
끝
념
혁
턴
덕
앞
맞
즉
링
킨
슨
찬
윤
율
긴
릭
맡
익
델
늘
텔
빈
갖
써
염
v
램
빌
얼
벨
잘
묘
컵
콘
엄
궁
냈
맹
렌
앨
칸
닌
훈
균
팔
흥
억
밝
몇
객
휘
옥
칼
콜
얻
쇼
푸
맥
갔
J
됐
숙
괴
넘
샤
뷔
므
좋
흐
몰
핵
w
덴
템
찾
붙
떠
릴
빠
둘
X
낸
켰
률
몬
컴
액
혀
욕
혹
룹
탑
뿐
굴
십
쥐
놓
끌
칙
잠
롯
힘
죄
핀
갑
떨
싸
촌
척
벽
벤
먹
략
졸
맨
몸
잉
풀
렉
끼
춘
눈
잔
휴
틴
몽
켜
녹
컬
!
뮤
앤
쳤
홈
칠
곤
밴
폰
밖
털
렇
뛰
륙
탁
셀
멸
혜
탕
솔
꾸
둥
톤
겼
렀
윈
팅
Y
돈
홀
웠
혈
x
컨
넷
혔
님
텐
롤
냐
딸
겸
쿄
낮
둔
탐
퓨
톨
랐
욱
헨
촉
겠
셔
낙
떤
콩
킬
꽃
펜
넓
랙
왜
뇌
=
렬
킹
옹
붕
읍
멘
튜
덜
융
섭
젤
놀
흔
닝
슷
윌
헬
옮
빛
챔
듬
흑
겐
넣
깨
쉬
땅
딩
쌍
힌
곧
팬
답
즘
켓
롭
룬
큐
멤
쇄
튼
룡
짓
듀
젠
닉
뢰
값
밤
웅
릉
렵
랭
옛
흡
납
롱
씩
멜
랫
짜
젝
맺
닥
쉽
웃
궤
z
숭
펠
캠
꼬
빙
섯
듯
숨
멀
+
웹
핑
깊
잃
셰
잇
즐
틱
밍
|
믿
빅
쓴
뷰
텍
끄
뜨
큼
찍
덤
짐
틸
잎
돼
펼
멕
럭
쇠
롬
힐
엽
폼
빨
짧
럴
삭
뀌
딘
곱
릿
켈
삶
랍
첨
혐
Z
캘
?
켄
랄
촬
낭
닐
겪
썼
Q
얀
컷
콤
젊
벗
옆
꿈
밑
싶
셜
첩
곽
흘
뉘
쌓
낳
헝
냥
룩
옷
냉
빼
믹
닛
샌
듣
톱
엑
맛
븐
읽
퀴
왼
봄
벡
픈
엇
띠
잭
숲
뱅
튀
쿨
셋
묵
넬
낼
흰
뒷
섰
캄
됨
괄
벼
댄
앗
엠
좀
붉
슴
뿌
끊
둑
첼
웰
씬
뤄
밥
떻
늄
앵
덮
녕
톰
팩
륜
팽
찌
탱
뤼
숫
뱀
묻
짝
캔
늬
춤
j
렐
셈
렴
샘
쾌
팝
쓸
옌
훨
꼽
갤
륨
겔
깔
쫓
닫
횡
뽑
꺼
늦
룸
렘
뼈
끈
덩
앉
딜
흉
꼭
봇
좁
햄
펙
룰
멍
끔
뚜
깃
딕
꾼
탠
랩
퀸
윗
춰
륭
퀘
빗
궐
킴
덧
쿼
삽
첸
뮌
듭
긍
싼
윙
슐
홋
펴
q
꺾
셉
펄
렛
쌀
펑
묶
넌
툰
꼴
겹
눌
훌
넥
훗
섞
*
녁
뉜
넨
펀
돔
녔
띄
곰
섹
밭
낌
깥
\
툴
셸
돕
빵
랴
닷
엉
핸
콧
똑
톡
훼
뿔
갱
딱
팡
깝
늑
킷
닭
맷
틈
풋
콰
컫
콕
굳
힙
콥
흙
룽
뇨
뮬
밸
핫
굽
겁
빚
옵
킥
쏘
껍
{
벳
굿
멈
겉
턱
럿
봐
푼
떼
캡
샹
왈
딴
퉁
죠
뻗
홉
탓
꿀
렷
샬
닮
눅
쑤
쯤
쉐
엣
붓
툼
쁜
굉
듈
띤
릇
줬
뚫
셨
쥬
릎
칩
댐
싫
웬
놈
앱
헐
퐁
걷
챌
닿
쩌
갓
낀
낱
옴
젖
슘
흠
얄
삿
쿤
펌
톈
#
둠
쯔
걱
팜
봤
솟
잊
옐
렁
솜
캉
륵
냄
덟
멋
짙
곁
쏟
돋
탤
떡
휩
껴
흩
얇
$
긋
핍
밟
얘
굵
덱
텀
뭉
뚝
컸
맵
왓
꾀
훔
꿔
쁘
끓
휠
댓
햇
맘
썬
밋
빔
펫
픔
촨
괘
뀐
꽤
씀
잦
횟
벅
앓
줌
붐
엿
싯
샨
벵
슭
멧
짱
팟
}
뒀
헥
갇
츄
눠
딪
꼈
줘
튬
랏
`
몫
땄
곶
맑
얹
깎
땃
뭇
낫
텝
찐
윅
팰
닦
팍
걀
찔
맏
옳
쟈
얽
슛
깐
앰
캅
씌
끗
엥
뻔
쭉
귄
핏
궈
뱃
욘
캣
뚱
낚
듐
탬
챙
믈
볍
섀
찮
촐
뻐
넛
귤
헛
훙
쾰
엮
뭄
쩔
숀
샐
뫼
쉴
쿡
렝
꿨
뜬
@
싹
갯
푹
녜
뾰
셴
뮈
딧
돗
챈
삐
댈
딥
싣
얕
뤘
웍
낄
깜
랬
샀
렙
눔
펩
탭
늙
샵
꽂
슌
쾨
볶
냅
겟
맬
뇽
껏
췄
갚
촛
펭
꽝
쩐
큘
퀼
쁨
몹
췌
짚
깁
늪
뜸
썩
쪼
릅
츰
괌
숍
짖
즙
퓌
찢
쿰
훤
엡
넉
뜰
룻
롄
핼
뮐
빽
뿜
씻
젯
잼
샷
굶
퀄
쵸
뭐
뵈
쥘
샴
똥
잣
벚
쑨
벙
촘
욤
슝
탔
퓰
젓
뜯
썰
멩
팻
밧
엎
윽
땀
껑
켐
댕
괜
밈
꿰
둡
킵
튠
둬
쥔
텅
낡
뽀
츨
됩
낯
멱
꼼
깅
랠
쉰
뇰
뎀
퀀
놉
캇
맴
^
좡
딤
챠
쑹
썸
뮴
웜
팎
헴
쿵
뱌
팥
엌
띈
칫
캥
왁
꽁
쏜
쏠
솥
댁
훅
몄
앳
ㅣ
갸
짠
먀
뭔
쐐
윔
욜
옙
쉘
뎅
퍽
얌
젬
깡
덥
칵
넴
폈
잖
돛
쑥
쨌
뽕
툭
콴
뺏
쩍
눕
핌
뛴
찻
웁
힉
찜
캬
팁
늠
룀
닙
옅
갠
읊
ㄱ
볕
꼰
뺨
땐
쭈
봅
퀵
샛
딛
넵
뛸
썹
팸
뺀
뀔
숄
텡
뎌
횃
븀
쉼
쌈
젼
엷
꿇
냇
웡
웸
텃
펨
땡
줍
쎄
힝
깬
짤
씹
춧
텟
튿
깼
켤
씽
휼
눗
뻘
댑
긁
꽉
깍
솝
ㅇ
폄
뱉
솅
귈
쇤
찼
뢴
떴
랗
홑
윳
꺽
얏
쏴
뎃
뎬
뤽
ㅅ
ㅡ
ㄷ
젱
됭
뜩
숯
쭤
ㄹ
잰
ㅁ
륀
찹
꿩
쩡
숏
맙
ㄴ
춥
텁
륄
빴
탸
잿
헵
꿉
놔
푀
놨
뽐
굼
숱
컹
옻
볜
땜
헹
빡
셍
튕
묀
갬
볏
쌌
댜
챕
묄
넋
흄
랸
좇
낵
녘
뵤
뷸
햐
꿋
첵
놋
껌
냑
댔
밌
짬
몯
얗
챗
헷
탯
줏
핥
쌔
뻣
썽
셤
쥰
쳇
쨩
뎠
짊
툇
쁠
쟝
덫
똘
갭
탉
휜
겜
넝
눙
욧
듦
넙
쿱
괭
젭
췬
쭝
훠
껀
뷜
앴
ㅂ
눴
뵐
뺄
귓
앎
뉠
콸
튤
솽
숴
폿
긱
닳
꾹
넜
텨
궂
쏙
윕
헉
벰
섣
햅
뚤
몐
깟
셧
늉
팹
돤
셩
펍
ㅈ
뭘
ㅋ
뷴
쳅
톳
씰
숟
ㅎ
괵
뗀
긔
껄
빤
왑
쫄
떳
믐
냔
뗏
숑
팠
챤
푈
겅
냘
끽
솁
쥴
쬐
켠
꿍
닻
욥
듄
왐
챘
쳄
텼
힛
꼿
맣
샥
톄
왠
갉
쪄
묽
쉔
뺑
뻑
샅
칡
쩨
넹
쳉
믄
웩
죤
퉈
휨
켁
퓸
뭍
쭐
횔
ㅏ
땔
윰
꽈
뒬
뎁
륌
껫
튈
갛
됴
짰
섐
넸
뻬
탰
팃
뀜
뜀
뢸
빳
윷
씁
틋
츤
휫
ㅗ
퍄
빻
쾅
쾡
녓
뗄
튄
섕
잽
좨
홰
ㅊ
솀
잴
찧
켕
틔
뵙
웻
멎
ㅍ
냠
밉
쫑
퓔
퀜
짼
웽
훑
녠
띵
깻
쐈
꽌
뵘
찡
둣
뺐
쎈
깰
셌
깽
쟌
햘
ㅌ
뷧
뼛
쉥
빕
쏭
쫒
졍
짭
쯩
뻤
욀
쿈
홧
뎐
얍
ㅜ
겊
뎨
쇳
땋
쿳
읜
먄
뱁
졔
틍
맸
볐
잤
젋
혓
꽹
롼
섶
멥
옘
켑
궬
삯
줴
ㅓ
듸
똔
헙
뻥
쌩
쌘
쭌
뒹
ㅐ
낟
룔
삵
붑
뿍
읏
묠
닢
찟
푄
엾
쳔
낏
룅
큅
뷘
씸
큔
텄
ㅔ
묜
굄
녤
떫
뚬
띌
헀
쑈
컥
폽
ㅆ
뇬
숩
껐
뽁
쏨
읫
갗
겡
띨
섄
젹
츈
큄
툠
툽
ㅕ
뉼
쇽
툐
벋
쉿
ㄲ
똠
괸
쮸
뿡
얉
ㅠ
뗐
룝
귐
땠
졈
뱐
퇘
퇼
귬
쌤
쐬
믜
빰
죌
푯
퓐
ㅑ
쯕
툉
띔
밂
쇨
졀
좆
짢
촙
펏
괼
낑
뽈
솎
옝
뒨
벱
슥
큉
틂
ㅃ
륑
뮨
셱
싀
ㅛ
갹
궉
숌
쾃
ㅉ
죈
짇
캑
삔
짦
ㄸ
넒
죵
쌉
쓱
쨍
츳
갰
궜
돠
뺌
큇
덞
떵
쉈
퉜
녯
옇
캴
훵
꾐
뱡
옭
쩜
ㅢ
뼉
뿅
삥
얭
쨋
쫀
햏
휙
ㅒ
뵬
붇
쌕
ㅖ
덛
딨
묑
샾
썻
쎌
뵌
퀠
틉
ㅟ
껩
븡
쟀
퇀
푁
푤
끙
뚠
몌
횬
곗
꿎
뎡
땝
맟
잌
쿌
흭
ㅚ
걔
곪
귿
꿴
됸
묏
벧
볘
븓
웟
젔
쳥
캰
큥
겋
븨
샙
쒀
랖
랼
뼘
솃
쉑
펐
앏
윾
굠
떰
똣
솨
쏸
왬
챵
팼
ㅘ
긷
꺅
놘
돝
롸
싁
졉
킁
텬
걍
뤠
슙
읒
쳬
쳰
퇸
겍
굣
꾜
끎
륍
밞
슉
짹
쪘
큭
퍌
ㅄ
궃
꽥
멓
쉭
좐
죗
킈
탼
튐
곬
덖
릐
뭡
뱟
쁩
섈
쌋
쟤
춉
췐
귁
녈
뉸
닑
닯
댠
뜷
롹
몆
뭣
얜
엳
읗
쟉
쫌
챨
췰
쿽
풰
ㅙ
ㅝ
갼
겯
뀨
낍
냣
뉵
됙
밎
뽄
삑
슯
옯
읻
츌
햔
똬
믯
붸
쀼
쌰
읕
읖
찿
쵤
켸
큽
햑
흗
ㅞ
궨
긑
녬
늡
돐
듕
샜
솬
왱
죡
쫙
쬘
춍
핬
혠
훕
휀
뇩
늴
댱
먁
셕
셥
쑬
얠
왝
윁
읔
쥣
즁
쬔
찝
틑
퍈
>
겝
굘
뉨
됀
뒴
떱
룟
엊
졘
좃
즛
쨈
쨔
캤
쾍
튱
햣
ㄺ
ㄼ
껭
꿘
뀍
녑
륩
묫
믕
읓
쥠
쳡
겻
곯
낢
뚧
밪
볓
붜
삘
슾
옉
죔
짯
쩬
쮠
챡
캪
퀑
텽
풂
ㄳ
ㄻ
ㅀ
걲
깸
꺄
뙈
륏
맻
벛
섥
썅
앝
엹
읃
잍
잛
쭘
쯧
촤
큠
튁
푠
횐

ㄿ
꼍
뇸
뉙
딫
뙤
뜽
렜
뢱
밷
봬
뻰
솓
슁
쎅
쏱
쒸
왹
욺
윱
첬
촹
츔
퀌
턔
햠
헸
ㄽ
겇
꼳
꽛
꾄
눞
늣
맽
멨
묭
묾
뱔
섁
섦
씐
엤
옜
욍
읠
읺
짫
츼
픙
ㄵ
ㄾ
겄
귑
껸
눼
닏
뎜
듧
뵨
븜
빋
빱
뺘
삳
얆
얐
얶
왯
욷
웤
졋
쨘
쭙
쮜
켯
콀
쾬
쿙
푕
픕
휭
ㄶ
갣
겿
꿕
낻
뉻
닸
덪
돟
둗
듁
땟
뚯
띡
렫
롐
룐
멉
벴
쏫
씃
얾
욋
잏
잗
쟛
쫏
챰
쳑
쵼
컁
켬
콱
탘
퍙
픠
햤
횻
훽
흴
걺
곂
곈
곷
괏
깯
꽅
꾿
넗
뉩
늗
닜
닺
땁
땨
땸
떄
뙡
랟
럄
럇
룁
몃
뭏
볻
봔
뷁
뷕
븍
뺴
뻴
섿
슽
쌴
씼
엶
옫
옸
쟐
좔
짔
쩝
쬼
쯘
챱
촥
쵹
춋
쾀
퀍
톺
톼
폘
퐝
핮
혤
홤
휑
걈
겆
곙
굥
깆
깩
꽆
꾕
끕
넀
넖
넢
넫
녇
닽
댛
덨
뎰
됫
뒸
뗑
띰
띱
뢨
뤗
먈
멂
몔
뫃
뮹
믓
믾
뱄
빝
샇
쇵
숳
싻
쎙
쐰
쑜
앧
욈
읆
쟂
쟙
젇
쩽
쬠
찓
쳘
쳣
춈
츅
츙
콛
콬
탙
텦
툿
튽
햗
헿
홥
홱
횩
횰
횽
흝
흫
힁
갂
갘
걑
걘
곌
괂
깉
깠
깹
꺠
껜
껶
꽦
꿏
꿸
뀀
뀝
냬
녣
놰
뇻
늇
덝
뎍
뎦
돴
됄
됏
됮
둄
뒈
듫
떽
뗬
뗴
럅
렢
롈
뤀
륻
맄
맆
뫄
밣
붘
븥
빎
뽓
뿟
삠
삡
삮
샏
섓
셖
솦
솻
쇘
숰
쉉
쉡
쎔
쓔
앟
얖
얺
엜
엵
욌
욯
윶
읭
읳
읹
잋
쟘
졜
졷
좽
줫
쩄
쩰
쫜
쬬
찣
챦
쵝
츕
츩
콮
퀭
텉
툥
튝
팯
푱
풉
퓬
핟
핶
핻
홛
횄
훍
훓
훝
흿
갃
걋
겂
겣
곅
곘
굑
굔
궅
귝
깂
깢
껙
껼
꼇
꼐
꽐
뀠
냡
넎
넚
넡
넶
녝
뇐
뇔
뉫
늚
늰
댤
덣
돎
돚
돵
돽
둰
둴
둿
뒁
뒥
뒫
듥
딷
뗌
뗘
똫
뙨
뛔
뜁
뜌
띳
랒
럐
럔
렡
롑
롓
뤌
맜
먕
먗
먿
몀
몴
뫙
뭅
뭰
뮝
믏
믠
밒
밨
밫
밯
뱆
뱜
벉
봍
봘
뵉
뵷
붏
붖
붛
붴
뷋
뺩
뺵
뼁
뼤
삣
삻
샂
샊
섡
셑
쇗
숖
숡
숸
슼
싈
싰
싲
싾
쎕
쎴
쏩
쏳
쐇
쑴
쒜
쓿
씉
앃
앋
얅
얬
엩
옄
옰
옲
옺
왰
웝
윘
윟
읅
읶
읿
잩
쟨
젣
젿
죕
죰
줃
줓
쥭
즤
짗
쨉
쩸
쩻
쫃
쫍
쫗
춴
췅
칲
칳
캌
캭
컈
켙
콙
퀏
킼
턀
텥
톹
퇌
퇻
퉤
튭
틧
팈
팉
퍅
퍠
폅
폔
폳
퐈
푣
풜
핔
핳
햊
햋
햬
헜
혿
홅
홯
횓
횢
훋
휄
휏
힜
갅
갆
갊
갋
갌
갍
갎
갏
갞
갟
갡
갢
갥
갦
갧
갨
갩
갪
갫
갮
갲
갳
갴
갵
갶
갷
갺
갻
갽
갾
갿
걁
걂
걃
걄
걅
걆
걇
걉
걊
걌
걎
걏
걐
걒
걓
걕
걖
걗
걙
걚
걛
걜
걝
걞
걟
걠
걡
걢
걣
걤
걥
걦
걧
걨
걩
걪
걫
걬
걭
걮
걯
걳
걵
걶
걹
걻
걼
걽
걾
걿
겈
겎
겏
겑
겒
겓
겕
겖
겘
겙
겚
겛
겞
겢
겤
겥
겦
겧
겫
겭
겮
겱
겲
겳
겴
겵
겶
겷
겺
겾
곀
곃
곆
곇
곉
곊
곋
곍
곎
곏
곐
곑
곒
곓
곔
곕
곖
곚
곛
곜
곝
곲
곹
곺
괁
괍
괕
괗
괠
굇
굦
굻
궇
궎
궘
궝
궡
궷
귯
긆
긜
긧
긪
긾
깄
깋
깓
깖
꺌
껠
껬
꼮
꾈
꿧
끟
낛
낣
낲
냤
넁
넏
넑
넞
녋
녙
놃
놧
놩
뇍
뇓
뇜
눋
눝
늅
늏
늒
늕
늩
늿
닁
닞
닟
닠
댇
댚
댝
댸
덙
덭
덯
뎗
뎝
돇
돍
돓
돰
됍
됢
됬
됰
됼
둉
둏
둙
둚
둟
둧
뒵
듲
듳
듹
듼
딀
딈
딭
딯
딲
땍
땽
떘
떙
떢
떥
떦
떪
떯
뗼
뚷
뚸
뚼
뜹
띁
띅
랃
랓
랕
랛
랢
랰
랲
럈
럘
럲
럻
렃
렆
렗
렠
렣
롣
롲
뢀
뢉
룍
룧
룯
뤈
뤨
뤰
뤳
뤵
륐
륫
륱
륽
릌
릍
릏
릘
릫
릳
맀
맃
맊
맍
맔
맕
맗
맠
맢
먓
먘
먾
멏
멪
멵
몊
몪
뫂
뫈
뫔
묺
뭌
뭬
뭴
뮺
믁
밚
밠
밬
뱍
뱓
벏
벐
벓
벹
볃
볈
볿
봋
봌
봣
봥
뵛
뵝
붊
붔
붠
붵
뷀
뷃
뷤
븃
븕
븝
븟
빍
빧
빩
뺙
뺬
뺸
뺼
뻇
뻠
뻡
뻩
뻼
뽝
뿗
뿝
쀍
쁭
삜
샆
샞
섊
섧
섨
섵
섷
셒
솏
솑
쇡
쇰
숔
숮
쉅
쉠
쉣
슢
슦
슳
싄
싡
싦
싪
싵
싿
쌁
썊
썪
쎗
쎘
쎼
쎾
쐉
쐑
쐼
쑷
쒼
쓘
씜
앀
앆
앖
앚
앛
앹
앾
얂
얃
얊
얨
얫
엗
엪
옂
옏
옽
옾
왇
왘
왙
왤
왿
욨
욽
욿
웆
웇
웑
윋
윛
윥
읂
읇
읋
읐
읙
읟
읷
잂
잆
잙
잚
잧
잨
쟃
쟇
쟎
쟬
젃
젆
젏
젗
젙
젲
젵
졩
졶
좍
좧
죳
줜
줼
쥉
쥤
쥥
쥼
쥿
즑
즞
짎
짛
짥
쨀
쨜
쨤
쩃
쩟
쩩
쩹
쪗
쪤
쫘
쭁
찯
챂
첟
첮
첯
첲
쳠
촏
촣
쵀
쵣
춛
춝
춟
춭
췍
췡
췩
췽
츹
칯
칱
캎
캿
컀
컅
컺
켭
켱
켼
콭
쾁
쾩
쾭
쾻
쾽
쿸
쿹
퀩
퀫
큎
큣
큹
킄
킌
킽
탇
탣
탶
턚
텛
텤
텰
텸
텻
툅
툘
툱
튻
틜
틩
팑
팤
팦
퍁
펲
폏
폶
퐃
퐅
퐌
퐷
푓
푝
픅
픝
픞
핃
핒
핓
핝
핞
핢
핦
핧
핱
핲
햝
햡
