[UNK]	0
[CLS]	1
[SEP]	2
[PAD]	3
[MASK]	4
!	5
"	6
#	7
$	8
%	9
&	10
'	11
(	12
)	13
*	14
+	15
,	16
-	17
.	18
/	19
0	20
1	21
2	22
3	23
4	24
5	25
6	26
7	27
8	28
9	29
:	30
;	31
<	32
=	33
>	34
?	35
@	36
A	37
B	38
C	39
D	40
E	41
F	42
G	43
H	44
I	45
J	46
K	47
L	48
M	49
N	50
O	51
P	52
Q	53
R	54
S	55
T	56
U	57
V	58
W	59
X	60
Y	61
Z	62
[	63
\	64
]	65
^	66
_	67
`	68
a	69
b	70
c	71
d	72
e	73
f	74
g	75
h	76
i	77
j	78
k	79
l	80
m	81
n	82
o	83
p	84
q	85
r	86
s	87
t	88
u	89
v	90
w	91
x	92
y	93
z	94
{	95
|	96
}	97
~	98
	99
ㄱ	100
ㄲ	101
ㄳ	102
ㄴ	103
ㄵ	104
ㄶ	105
ㄷ	106
ㄸ	107
ㄹ	108
ㄺ	109
ㄻ	110
ㄼ	111
ㄽ	112
ㄾ	113
ㄿ	114
ㅀ	115
ㅁ	116
ㅂ	117
ㅃ	118
ㅄ	119
ㅅ	120
ㅆ	121
ㅇ	122
ㅈ	123
ㅉ	124
ㅊ	125
ㅋ	126
ㅌ	127
ㅍ	128
ㅎ	129
ㅏ	130
ㅐ	131
ㅑ	132
ㅒ	133
ㅓ	134
ㅔ	135
ㅕ	136
ㅖ	137
ㅗ	138
ㅘ	139
ㅙ	140
ㅚ	141
ㅛ	142
ㅜ	143
ㅝ	144
ㅞ	145
ㅟ	146
ㅠ	147
ㅡ	148
ㅢ	149
ㅣ	150
가	151
각	152
갂	153
갃	154
간	155
갅	156
갆	157
갇	158
갈	159
갉	160
갊	161
갋	162
갌	163
갍	164
갎	165
갏	166
감	167
갑	168
값	169
갓	170
갔	171
강	172
갖	173
갗	174
갘	175
같	176
갚	177
갛	178
개	179
객	180
갞	181
갟	182
갠	183
갡	184
갢	185
갣	186
갤	187
갥	188
갦	189
갧	190
갨	191
갩	192
갪	193
갫	194
갬	195
갭	196
갮	197
갯	198
갰	199
갱	200
갲	201
갳	202
갴	203
갵	204
갶	205
갷	206
갸	207
갹	208
갺	209
갻	210
갼	211
갽	212
갾	213
갿	214
걀	215
걁	216
걂	217
걃	218
걄	219
걅	220
걆	221
걇	222
걈	223
걉	224
걊	225
걋	226
걌	227
걍	228
걎	229
걏	230
걐	231
걑	232
걒	233
걓	234
걔	235
걕	236
걖	237
걗	238
걘	239
걙	240
걚	241
걛	242
걜	243
걝	244
걞	245
걟	246
걠	247
걡	248
걢	249
걣	250
걤	251
걥	252
걦	253
걧	254
걨	255
걩	256
걪	257
걫	258
걬	259
걭	260
걮	261
걯	262
거	263
걱	264
걲	265
걳	266
건	267
걵	268
걶	269
걷	270
걸	271
걹	272
걺	273
걻	274
걼	275
걽	276
걾	277
걿	278
검	279
겁	280
겂	281
것	282
겄	283
겅	284
겆	285
겇	286
겈	287
겉	288
겊	289
겋	290
게	291
겍	292
겎	293
겏	294
겐	295
겑	296
겒	297
겓	298
겔	299
겕	300
겖	301
겗	302
겘	303
겙	304
겚	305
겛	306
겜	307
겝	308
겞	309
겟	310
겠	311
겡	312
겢	313
겣	314
겤	315
겥	316
겦	317
겧	318
겨	319
격	320
겪	321
겫	322
견	323
겭	324
겮	325
겯	326
결	327
겱	328
겲	329
겳	330
겴	331
겵	332
겶	333
겷	334
겸	335
겹	336
겺	337
겻	338
겼	339
경	340
겾	341
겿	342
곀	343
곁	344
곂	345
곃	346
계	347
곅	348
곆	349
곇	350
곈	351
곉	352
곊	353
곋	354
곌	355
곍	356
곎	357
곏	358
곐	359
곑	360
곒	361
곓	362
곔	363
곕	364
곖	365
곗	366
곘	367
곙	368
곚	369
곛	370
곜	371
곝	372
곞	373
곟	374
고	375
곡	376
곢	377
곣	378
곤	379
곥	380
곦	381
곧	382
골	383
곩	384
곪	385
곫	386
곬	387
곭	388
곮	389
곯	390
곰	391
곱	392
곲	393
곳	394
곴	395
공	396
곶	397
곷	398
곸	399
곹	400
곺	401
곻	402
과	403
곽	404
곾	405
곿	406
관	407
괁	408
괂	409
괃	410
괄	411
괅	412
괆	413
괇	414
괈	415
괉	416
괊	417
괋	418
괌	419
괍	420
괎	421
괏	422
괐	423
광	424
괒	425
괓	426
괔	427
괕	428
괖	429
괗	430
괘	431
괙	432
괚	433
괛	434
괜	435
괝	436
괞	437
괟	438
괠	439
괡	440
괢	441
괣	442
괤	443
괥	444
괦	445
괧	446
괨	447
괩	448
괪	449
괫	450
괬	451
괭	452
괮	453
괯	454
괰	455
괱	456
괲	457
괳	458
괴	459
괵	460
괶	461
괷	462
괸	463
괹	464
괺	465
괻	466
괼	467
괽	468
괾	469
괿	470
굀	471
굁	472
굂	473
굃	474
굄	475
굅	476
굆	477
굇	478
굈	479
굉	480
굊	481
굋	482
굌	483
굍	484
굎	485
굏	486
교	487
굑	488
굒	489
굓	490
굔	491
굕	492
굖	493
굗	494
굘	495
굙	496
굚	497
굛	498
굜	499
굝	500
굞	501
굟	502
굠	503
굡	504
굢	505
굣	506
굤	507
굥	508
굦	509
굧	510
굨	511
굩	512
굪	513
굫	514
구	515
국	516
굮	517
굯	518
군	519
굱	520
굲	521
굳	522
굴	523
굵	524
굶	525
굷	526
굸	527
굹	528
굺	529
굻	530
굼	531
굽	532
굾	533
굿	534
궀	535
궁	536
궂	537
궃	538
궄	539
궅	540
궆	541
궇	542
궈	543
궉	544
궊	545
궋	546
권	547
궍	548
궎	549
궏	550
궐	551
궑	552
궒	553
궓	554
궔	555
궕	556
궖	557
궗	558
궘	559
궙	560
궚	561
궛	562
궜	563
궝	564
궞	565
궟	566
궠	567
궡	568
궢	569
궣	570
궤	571
궥	572
궦	573
궧	574
궨	575
궩	576
궪	577
궫	578
궬	579
궭	580
궮	581
궯	582
궰	583
궱	584
궲	585
궳	586
궴	587
궵	588
궶	589
궷	590
궸	591
궹	592
궺	593
궻	594
궼	595
궽	596
궾	597
궿	598
귀	599
귁	600
귂	601
귃	602
귄	603
귅	604
귆	605
귇	606
귈	607
귉	608
귊	609
귋	610
귌	611
귍	612
귎	613
귏	614
귐	615
귑	616
귒	617
귓	618
귔	619
귕	620
귖	621
귗	622
귘	623
귙	624
귚	625
귛	626
규	627
귝	628
귞	629
귟	630
균	631
귡	632
귢	633
귣	634
귤	635
귥	636
귦	637
귧	638
귨	639
귩	640
귪	641
귫	642
귬	643
귭	644
귮	645
귯	646
귰	647
귱	648
귲	649
귳	650
귴	651
귵	652
귶	653
귷	654
그	655
극	656
귺	657
귻	658
근	659
귽	660
귾	661
귿	662
글	663
긁	664
긂	665
긃	666
긄	667
긅	668
긆	669
긇	670
금	671
급	672
긊	673
긋	674
긌	675
긍	676
긎	677
긏	678
긐	679
긑	680
긒	681
긓	682
긔	683
긕	684
긖	685
긗	686
긘	687
긙	688
긚	689
긛	690
긜	691
긝	692
긞	693
긟	694
긠	695
긡	696
긢	697
긣	698
긤	699
긥	700
긦	701
긧	702
긨	703
긩	704
긪	705
긫	706
긬	707
긭	708
긮	709
긯	710
기	711
긱	712
긲	713
긳	714
긴	715
긵	716
긶	717
긷	718
길	719
긹	720
긺	721
긻	722
긼	723
긽	724
긾	725
긿	726
김	727
깁	728
깂	729
깃	730
깄	731
깅	732
깆	733
깇	734
깈	735
깉	736
깊	737
깋	738
까	739
깍	740
깎	741
깏	742
깐	743
깑	744
깒	745
깓	746
깔	747
깕	748
깖	749
깗	750
깘	751
깙	752
깚	753
깛	754
깜	755
깝	756
깞	757
깟	758
깠	759
깡	760
깢	761
깣	762
깤	763
깥	764
깦	765
깧	766
깨	767
깩	768
깪	769
깫	770
깬	771
깭	772
깮	773
깯	774
깰	775
깱	776
깲	777
깳	778
깴	779
깵	780
깶	781
깷	782
깸	783
깹	784
깺	785
깻	786
깼	787
깽	788
깾	789
깿	790
꺀	791
꺁	792
꺂	793
꺃	794
꺄	795
꺅	796
꺆	797
꺇	798
꺈	799
꺉	800
꺊	801
꺋	802
꺌	803
꺍	804
꺎	805
꺏	806
꺐	807
꺑	808
꺒	809
꺓	810
꺔	811
꺕	812
꺖	813
꺗	814
꺘	815
꺙	816
꺚	817
꺛	818
꺜	819
꺝	820
꺞	821
꺟	822
꺠	823
꺡	824
꺢	825
꺣	826
꺤	827
꺥	828
꺦	829
꺧	830
꺨	831
꺩	832
꺪	833
꺫	834
꺬	835
꺭	836
꺮	837
꺯	838
꺰	839
꺱	840
꺲	841
꺳	842
꺴	843
꺵	844
꺶	845
꺷	846
꺸	847
꺹	848
꺺	849
꺻	850
꺼	851
꺽	852
꺾	853
꺿	854
껀	855
껁	856
껂	857
껃	858
껄	859
껅	860
껆	861
껇	862
껈	863
껉	864
껊	865
껋	866
껌	867
껍	868
껎	869
껏	870
껐	871
껑	872
껒	873
껓	874
껔	875
껕	876
껖	877
껗	878
께	879
껙	880
껚	881
껛	882
껜	883
껝	884
껞	885
껟	886
껠	887
껡	888
껢	889
껣	890
껤	891
껥	892
껦	893
껧	894
껨	895
껩	896
껪	897
껫	898
껬	899
껭	900
껮	901
껯	902
껰	903
껱	904
껲	905
껳	906
껴	907
껵	908
껶	909
껷	910
껸	911
껹	912
껺	913
껻	914
껼	915
껽	916
껾	917
껿	918
꼀	919
꼁	920
꼂	921
꼃	922
꼄	923
꼅	924
꼆	925
꼇	926
꼈	927
꼉	928
꼊	929
꼋	930
꼌	931
꼍	932
꼎	933
꼏	934
꼐	935
꼑	936
꼒	937
꼓	938
꼔	939
꼕	940
꼖	941
꼗	942
꼘	943
꼙	944
꼚	945
꼛	946
꼜	947
꼝	948
꼞	949
꼟	950
꼠	951
꼡	952
꼢	953
꼣	954
꼤	955
꼥	956
꼦	957
꼧	958
꼨	959
꼩	960
꼪	961
꼫	962
꼬	963
꼭	964
꼮	965
꼯	966
꼰	967
꼱	968
꼲	969
꼳	970
꼴	971
꼵	972
꼶	973
꼷	974
꼸	975
꼹	976
꼺	977
꼻	978
꼼	979
꼽	980
꼾	981
꼿	982
꽀	983
꽁	984
꽂	985
꽃	986
꽄	987
꽅	988
꽆	989
꽇	990
꽈	991
꽉	992
꽊	993
꽋	994
꽌	995
꽍	996
꽎	997
꽏	998
꽐	999
꽑	1000
꽒	1001
꽓	1002
꽔	1003
꽕	1004
꽖	1005
꽗	1006
꽘	1007
꽙	1008
꽚	1009
꽛	1010
꽜	1011
꽝	1012
꽞	1013
꽟	1014
꽠	1015
꽡	1016
꽢	1017
꽣	1018
꽤	1019
꽥	1020
꽦	1021
꽧	1022
꽨	1023
꽩	1024
꽪	1025
꽫	1026
꽬	1027
꽭	1028
꽮	1029
꽯	1030
꽰	1031
꽱	1032
꽲	1033
꽳	1034
꽴	1035
꽵	1036
꽶	1037
꽷	1038
꽸	1039
꽹	1040
꽺	1041
꽻	1042
꽼	1043
꽽	1044
꽾	1045
꽿	1046
꾀	1047
꾁	1048
꾂	1049
꾃	1050
꾄	1051
꾅	1052
꾆	1053
꾇	1054
꾈	1055
꾉	1056
꾊	1057
꾋	1058
꾌	1059
꾍	1060
꾎	1061
꾏	1062
꾐	1063
꾑	1064
꾒	1065
꾓	1066
꾔	1067
꾕	1068
꾖	1069
꾗	1070
꾘	1071
꾙	1072
꾚	1073
꾛	1074
꾜	1075
꾝	1076
꾞	1077
꾟	1078
꾠	1079
꾡	1080
꾢	1081
꾣	1082
꾤	1083
꾥	1084
꾦	1085
꾧	1086
꾨	1087
꾩	1088
꾪	1089
꾫	1090
꾬	1091
꾭	1092
꾮	1093
꾯	1094
꾰	1095
꾱	1096
꾲	1097
꾳	1098
꾴	1099
꾵	1100
꾶	1101
꾷	1102
꾸	1103
꾹	1104
꾺	1105
꾻	1106
꾼	1107
꾽	1108
꾾	1109
꾿	1110
꿀	1111
꿁	1112
꿂	1113
꿃	1114
꿄	1115
꿅	1116
꿆	1117
꿇	1118
꿈	1119
꿉	1120
꿊	1121
꿋	1122
꿌	1123
꿍	1124
꿎	1125
꿏	1126
꿐	1127
꿑	1128
꿒	1129
꿓	1130
꿔	1131
꿕	1132
꿖	1133
꿗	1134
꿘	1135
꿙	1136
꿚	1137
꿛	1138
꿜	1139
꿝	1140
꿞	1141
꿟	1142
꿠	1143
꿡	1144
꿢	1145
꿣	1146
꿤	1147
꿥	1148
꿦	1149
꿧	1150
꿨	1151
꿩	1152
꿪	1153
꿫	1154
꿬	1155
꿭	1156
꿮	1157
꿯	1158
꿰	1159
꿱	1160
꿲	1161
꿳	1162
꿴	1163
꿵	1164
꿶	1165
꿷	1166
꿸	1167
꿹	1168
꿺	1169
꿻	1170
꿼	1171
꿽	1172
꿾	1173
꿿	1174
뀀	1175
뀁	1176
뀂	1177
뀃	1178
뀄	1179
뀅	1180
뀆	1181
뀇	1182
뀈	1183
뀉	1184
뀊	1185
뀋	1186
뀌	1187
뀍	1188
뀎	1189
뀏	1190
뀐	1191
뀑	1192
뀒	1193
뀓	1194
뀔	1195
뀕	1196
뀖	1197
뀗	1198
뀘	1199
뀙	1200
뀚	1201
뀛	1202
뀜	1203
뀝	1204
뀞	1205
뀟	1206
뀠	1207
뀡	1208
뀢	1209
뀣	1210
뀤	1211
뀥	1212
뀦	1213
뀧	1214
뀨	1215
뀩	1216
뀪	1217
뀫	1218
뀬	1219
뀭	1220
뀮	1221
뀯	1222
뀰	1223
뀱	1224
뀲	1225
뀳	1226
뀴	1227
뀵	1228
뀶	1229
뀷	1230
뀸	1231
뀹	1232
뀺	1233
뀻	1234
뀼	1235
뀽	1236
뀾	1237
뀿	1238
끀	1239
끁	1240
끂	1241
끃	1242
끄	1243
끅	1244
끆	1245
끇	1246
끈	1247
끉	1248
끊	1249
끋	1250
끌	1251
끍	1252
끎	1253
끏	1254
끐	1255
끑	1256
끒	1257
끓	1258
끔	1259
끕	1260
끖	1261
끗	1262
끘	1263
끙	1264
끚	1265
끛	1266
끜	1267
끝	1268
끞	1269
끟	1270
끠	1271
끡	1272
끢	1273
끣	1274
끤	1275
끥	1276
끦	1277
끧	1278
끨	1279
끩	1280
끪	1281
끫	1282
끬	1283
끭	1284
끮	1285
끯	1286
끰	1287
끱	1288
끲	1289
끳	1290
끴	1291
끵	1292
끶	1293
끷	1294
끸	1295
끹	1296
끺	1297
끻	1298
끼	1299
끽	1300
끾	1301
끿	1302
낀	1303
낁	1304
낂	1305
낃	1306
낄	1307
낅	1308
낆	1309
낇	1310
낈	1311
낉	1312
낊	1313
낋	1314
낌	1315
낍	1316
낎	1317
낏	1318
낐	1319
낑	1320
낒	1321
낓	1322
낔	1323
낕	1324
낖	1325
낗	1326
나	1327
낙	1328
낚	1329
낛	1330
난	1331
낝	1332
낞	1333
낟	1334
날	1335
낡	1336
낢	1337
낣	1338
낤	1339
낥	1340
낦	1341
낧	1342
남	1343
납	1344
낪	1345
낫	1346
났	1347
낭	1348
낮	1349
낯	1350
낰	1351
낱	1352
낲	1353
낳	1354
내	1355
낵	1356
낶	1357
낷	1358
낸	1359
낹	1360
낺	1361
낻	1362
낼	1363
낽	1364
낾	1365
낿	1366
냀	1367
냁	1368
냂	1369
냃	1370
냄	1371
냅	1372
냆	1373
냇	1374
냈	1375
냉	1376
냊	1377
냋	1378
냌	1379
냍	1380
냎	1381
냏	1382
냐	1383
냑	1384
냒	1385
냓	1386
냔	1387
냕	1388
냖	1389
냗	1390
냘	1391
냙	1392
냚	1393
냛	1394
냜	1395
냝	1396
냞	1397
냟	1398
냠	1399
냡	1400
냢	1401
냣	1402
냤	1403
냥	1404
냦	1405
냧	1406
냨	1407
냩	1408
냪	1409
냫	1410
냬	1411
냭	1412
냮	1413
냯	1414
냰	1415
냱	1416
냲	1417
냳	1418
냴	1419
냵	1420
냶	1421
냷	1422
냸	1423
냹	1424
냺	1425
냻	1426
냼	1427
냽	1428
냾	1429
냿	1430
넀	1431
넁	1432
넂	1433
넃	1434
넄	1435
넅	1436
넆	1437
넇	1438
너	1439
넉	1440
넊	1441
넋	1442
넌	1443
넍	1444
넎	1445
넏	1446
널	1447
넑	1448
넒	1449
넓	1450
넔	1451
넕	1452
넖	1453
넗	1454
넘	1455
넙	1456
넚	1457
넛	1458
넜	1459
넝	1460
넞	1461
넟	1462
넠	1463
넡	1464
넢	1465
넣	1466
네	1467
넥	1468
넦	1469
넧	1470
넨	1471
넩	1472
넪	1473
넫	1474
넬	1475
넭	1476
넮	1477
넯	1478
넰	1479
넱	1480
넲	1481
넳	1482
넴	1483
넵	1484
넶	1485
넷	1486
넸	1487
넹	1488
넺	1489
넻	1490
넼	1491
넽	1492
넾	1493
넿	1494
녀	1495
녁	1496
녂	1497
녃	1498
년	1499
녅	1500
녆	1501
녇	1502
녈	1503
녉	1504
녊	1505
녋	1506
녌	1507
녍	1508
녎	1509
녏	1510
념	1511
녑	1512
녒	1513
녓	1514
녔	1515
녕	1516
녖	1517
녗	1518
녘	1519
녙	1520
녚	1521
녛	1522
녜	1523
녝	1524
녞	1525
녟	1526
녠	1527
녡	1528
녢	1529
녣	1530
녤	1531
녥	1532
녦	1533
녧	1534
녨	1535
녩	1536
녪	1537
녫	1538
녬	1539
녭	1540
녮	1541
녯	1542
녰	1543
녱	1544
녲	1545
녳	1546
녴	1547
녵	1548
녶	1549
녷	1550
노	1551
녹	1552
녺	1553
녻	1554
논	1555
녽	1556
녾	1557
녿	1558
놀	1559
놁	1560
놂	1561
놃	1562
놄	1563
놅	1564
놆	1565
놇	1566
놈	1567
놉	1568
놊	1569
놋	1570
놌	1571
농	1572
놎	1573
놏	1574
놐	1575
놑	1576
높	1577
놓	1578
놔	1579
놕	1580
놖	1581
놗	1582
놘	1583
놙	1584
놚	1585
놛	1586
놜	1587
놝	1588
놞	1589
놟	1590
놠	1591
놡	1592
놢	1593
놣	1594
놤	1595
놥	1596
놦	1597
놧	1598
놨	1599
놩	1600
놪	1601
놫	1602
놬	1603
놭	1604
놮	1605
놯	1606
놰	1607
놱	1608
놲	1609
놳	1610
놴	1611
놵	1612
놶	1613
놷	1614
놸	1615
놹	1616
놺	1617
놻	1618
놼	1619
놽	1620
놾	1621
놿	1622
뇀	1623
뇁	1624
뇂	1625
뇃	1626
뇄	1627
뇅	1628
뇆	1629
뇇	1630
뇈	1631
뇉	1632
뇊	1633
뇋	1634
뇌	1635
뇍	1636
뇎	1637
뇏	1638
뇐	1639
뇑	1640
뇒	1641
뇓	1642
뇔	1643
뇕	1644
뇖	1645
뇗	1646
뇘	1647
뇙	1648
뇚	1649
뇛	1650
뇜	1651
뇝	1652
뇞	1653
뇟	1654
뇠	1655
뇡	1656
뇢	1657
뇣	1658
뇤	1659
뇥	1660
뇦	1661
뇧	1662
뇨	1663
뇩	1664
뇪	1665
뇫	1666
뇬	1667
뇭	1668
뇮	1669
뇯	1670
뇰	1671
뇱	1672
뇲	1673
뇳	1674
뇴	1675
뇵	1676
뇶	1677
뇷	1678
뇸	1679
뇹	1680
뇺	1681
뇻	1682
뇼	1683
뇽	1684
뇾	1685
뇿	1686
눀	1687
눁	1688
눂	1689
눃	1690
누	1691
눅	1692
눆	1693
눇	1694
눈	1695
눉	1696
눊	1697
눋	1698
눌	1699
눍	1700
눎	1701
눏	1702
눐	1703
눑	1704
눒	1705
눓	1706
눔	1707
눕	1708
눖	1709
눗	1710
눘	1711
눙	1712
눚	1713
눛	1714
눜	1715
눝	1716
눞	1717
눟	1718
눠	1719
눡	1720
눢	1721
눣	1722
눤	1723
눥	1724
눦	1725
눧	1726
눨	1727
눩	1728
눪	1729
눫	1730
눬	1731
눭	1732
눮	1733
눯	1734
눰	1735
눱	1736
눲	1737
눳	1738
눴	1739
눵	1740
눶	1741
눷	1742
눸	1743
눹	1744
눺	1745
눻	1746
눼	1747
눽	1748
눾	1749
눿	1750
뉀	1751
뉁	1752
뉂	1753
뉃	1754
뉄	1755
뉅	1756
뉆	1757
뉇	1758
뉈	1759
뉉	1760
뉊	1761
뉋	1762
뉌	1763
뉍	1764
뉎	1765
뉏	1766
뉐	1767
뉑	1768
뉒	1769
뉓	1770
뉔	1771
뉕	1772
뉖	1773
뉗	1774
뉘	1775
뉙	1776
뉚	1777
뉛	1778
뉜	1779
뉝	1780
뉞	1781
뉟	1782
뉠	1783
뉡	1784
뉢	1785
뉣	1786
뉤	1787
뉥	1788
뉦	1789
뉧	1790
뉨	1791
뉩	1792
뉪	1793
뉫	1794
뉬	1795
뉭	1796
뉮	1797
뉯	1798
뉰	1799
뉱	1800
뉲	1801
뉳	1802
뉴	1803
뉵	1804
뉶	1805
뉷	1806
뉸	1807
뉹	1808
뉺	1809
뉻	1810
뉼	1811
뉽	1812
뉾	1813
뉿	1814
늀	1815
늁	1816
늂	1817
늃	1818
늄	1819
늅	1820
늆	1821
늇	1822
늈	1823
늉	1824
늊	1825
늋	1826
늌	1827
늍	1828
늎	1829
늏	1830
느	1831
늑	1832
늒	1833
늓	1834
는	1835
늕	1836
늖	1837
늗	1838
늘	1839
늙	1840
늚	1841
늛	1842
늜	1843
늝	1844
늞	1845
늟	1846
늠	1847
늡	1848
늢	1849
늣	1850
늤	1851
능	1852
늦	1853
늧	1854
늨	1855
늩	1856
늪	1857
늫	1858
늬	1859
늭	1860
늮	1861
늯	1862
늰	1863
늱	1864
늲	1865
늳	1866
늴	1867
늵	1868
늶	1869
늷	1870
늸	1871
늹	1872
늺	1873
늻	1874
늼	1875
늽	1876
늾	1877
늿	1878
닀	1879
닁	1880
닂	1881
닃	1882
닄	1883
닅	1884
닆	1885
닇	1886
니	1887
닉	1888
닊	1889
닋	1890
닌	1891
닍	1892
닎	1893
닏	1894
닐	1895
닑	1896
닒	1897
닓	1898
닔	1899
닕	1900
닖	1901
닗	1902
님	1903
닙	1904
닚	1905
닛	1906
닜	1907
닝	1908
닞	1909
닟	1910
닠	1911
닡	1912
닢	1913
닣	1914
다	1915
닥	1916
닦	1917
닧	1918
단	1919
닩	1920
닪	1921
닫	1922
달	1923
닭	1924
닮	1925
닯	1926
닰	1927
닱	1928
닲	1929
닳	1930
담	1931
답	1932
닶	1933
닷	1934
닸	1935
당	1936
닺	1937
닻	1938
닼	1939
닽	1940
닾	1941
닿	1942
대	1943
댁	1944
댂	1945
댃	1946
댄	1947
댅	1948
댆	1949
댇	1950
댈	1951
댉	1952
댊	1953
댋	1954
댌	1955
댍	1956
댎	1957
댏	1958
댐	1959
댑	1960
댒	1961
댓	1962
댔	1963
댕	1964
댖	1965
댗	1966
댘	1967
댙	1968
댚	1969
댛	1970
댜	1971
댝	1972
댞	1973
댟	1974
댠	1975
댡	1976
댢	1977
댣	1978
댤	1979
댥	1980
댦	1981
댧	1982
댨	1983
댩	1984
댪	1985
댫	1986
댬	1987
댭	1988
댮	1989
댯	1990
댰	1991
댱	1992
댲	1993
댳	1994
댴	1995
댵	1996
댶	1997
댷	1998
댸	1999
댹	2000
댺	2001
댻	2002
댼	2003
댽	2004
댾	2005
댿	2006
덀	2007
덁	2008
덂	2009
덃	2010
덄	2011
덅	2012
덆	2013
덇	2014
덈	2015
덉	2016
덊	2017
덋	2018
덌	2019
덍	2020
덎	2021
덏	2022
덐	2023
덑	2024
덒	2025
덓	2026
더	2027
덕	2028
덖	2029
덗	2030
던	2031
덙	2032
덚	2033
덛	2034
덜	2035
덝	2036
덞	2037
덟	2038
덠	2039
덡	2040
덢	2041
덣	2042
덤	2043
덥	2044
덦	2045
덧	2046
덨	2047
덩	2048
덪	2049
덫	2050
덬	2051
덭	2052
덮	2053
덯	2054
데	2055
덱	2056
덲	2057
덳	2058
덴	2059
덵	2060
덶	2061
덷	2062
델	2063
덹	2064
덺	2065
덻	2066
덼	2067
덽	2068
덾	2069
덿	2070
뎀	2071
뎁	2072
뎂	2073
뎃	2074
뎄	2075
뎅	2076
뎆	2077
뎇	2078
뎈	2079
뎉	2080
뎊	2081
뎋	2082
뎌	2083
뎍	2084
뎎	2085
뎏	2086
뎐	2087
뎑	2088
뎒	2089
뎓	2090
뎔	2091
뎕	2092
뎖	2093
뎗	2094
뎘	2095
뎙	2096
뎚	2097
뎛	2098
뎜	2099
뎝	2100
뎞	2101
뎟	2102
뎠	2103
뎡	2104
뎢	2105
뎣	2106
뎤	2107
뎥	2108
뎦	2109
뎧	2110
뎨	2111
뎩	2112
뎪	2113
뎫	2114
뎬	2115
뎭	2116
뎮	2117
뎯	2118
뎰	2119
뎱	2120
뎲	2121
뎳	2122
뎴	2123
뎵	2124
뎶	2125
뎷	2126
뎸	2127
뎹	2128
뎺	2129
뎻	2130
뎼	2131
뎽	2132
뎾	2133
뎿	2134
돀	2135
돁	2136
돂	2137
돃	2138
도	2139
독	2140
돆	2141
돇	2142
돈	2143
돉	2144
돊	2145
돋	2146
돌	2147
돍	2148
돎	2149
돏	2150
돐	2151
돑	2152
돒	2153
돓	2154
돔	2155
돕	2156
돖	2157
돗	2158
돘	2159
동	2160
돚	2161
돛	2162
돜	2163
돝	2164
돞	2165
돟	2166
돠	2167
돡	2168
돢	2169
돣	2170
돤	2171
돥	2172
돦	2173
돧	2174
돨	2175
돩	2176
돪	2177
돫	2178
돬	2179
돭	2180
돮	2181
돯	2182
돰	2183
돱	2184
돲	2185
돳	2186
돴	2187
돵	2188
돶	2189
돷	2190
돸	2191
돹	2192
돺	2193
돻	2194
돼	2195
돽	2196
돾	2197
돿	2198
됀	2199
됁	2200
됂	2201
됃	2202
됄	2203
됅	2204
됆	2205
됇	2206
됈	2207
됉	2208
됊	2209
됋	2210
됌	2211
됍	2212
됎	2213
됏	2214
됐	2215
됑	2216
됒	2217
됓	2218
됔	2219
됕	2220
됖	2221
됗	2222
되	2223
됙	2224
됚	2225
됛	2226
된	2227
됝	2228
됞	2229
됟	2230
될	2231
됡	2232
됢	2233
됣	2234
됤	2235
됥	2236
됦	2237
됧	2238
됨	2239
됩	2240
됪	2241
됫	2242
됬	2243
됭	2244
됮	2245
됯	2246
됰	2247
됱	2248
됲	2249
됳	2250
됴	2251
됵	2252
됶	2253
됷	2254
됸	2255
됹	2256
됺	2257
됻	2258
됼	2259
됽	2260
됾	2261
됿	2262
둀	2263
둁	2264
둂	2265
둃	2266
둄	2267
둅	2268
둆	2269
둇	2270
둈	2271
둉	2272
둊	2273
둋	2274
둌	2275
둍	2276
둎	2277
둏	2278
두	2279
둑	2280
둒	2281
둓	2282
둔	2283
둕	2284
둖	2285
둗	2286
둘	2287
둙	2288
둚	2289
둛	2290
둜	2291
둝	2292
둞	2293
둟	2294
둠	2295
둡	2296
둢	2297
둣	2298
둤	2299
둥	2300
둦	2301
둧	2302
둨	2303
둩	2304
둪	2305
둫	2306
둬	2307
둭	2308
둮	2309
둯	2310
둰	2311
둱	2312
둲	2313
둳	2314
둴	2315
둵	2316
둶	2317
둷	2318
둸	2319
둹	2320
둺	2321
둻	2322
둼	2323
둽	2324
둾	2325
둿	2326
뒀	2327
뒁	2328
뒂	2329
뒃	2330
뒄	2331
뒅	2332
뒆	2333
뒇	2334
뒈	2335
뒉	2336
뒊	2337
뒋	2338
뒌	2339
뒍	2340
뒎	2341
뒏	2342
뒐	2343
뒑	2344
뒒	2345
뒓	2346
뒔	2347
뒕	2348
뒖	2349
뒗	2350
뒘	2351
뒙	2352
뒚	2353
뒛	2354
뒜	2355
뒝	2356
뒞	2357
뒟	2358
뒠	2359
뒡	2360
뒢	2361
뒣	2362
뒤	2363
뒥	2364
뒦	2365
뒧	2366
뒨	2367
뒩	2368
뒪	2369
뒫	2370
뒬	2371
뒭	2372
뒮	2373
뒯	2374
뒰	2375
뒱	2376
뒲	2377
뒳	2378
뒴	2379
뒵	2380
뒶	2381
뒷	2382
뒸	2383
뒹	2384
뒺	2385
뒻	2386
뒼	2387
뒽	2388
뒾	2389
뒿	2390
듀	2391
듁	2392
듂	2393
듃	2394
듄	2395
듅	2396
듆	2397
듇	2398
듈	2399
듉	2400
듊	2401
듋	2402
듌	2403
듍	2404
듎	2405
듏	2406
듐	2407
듑	2408
듒	2409
듓	2410
듔	2411
듕	2412
듖	2413
듗	2414
듘	2415
듙	2416
듚	2417
듛	2418
드	2419
득	2420
듞	2421
듟	2422
든	2423
듡	2424
듢	2425
듣	2426
들	2427
듥	2428
듦	2429
듧	2430
듨	2431
듩	2432
듪	2433
듫	2434
듬	2435
듭	2436
듮	2437
듯	2438
듰	2439
등	2440
듲	2441
듳	2442
듴	2443
듵	2444
듶	2445
듷	2446
듸	2447
듹	2448
듺	2449
듻	2450
듼	2451
듽	2452
듾	2453
듿	2454
딀	2455
딁	2456
딂	2457
딃	2458
딄	2459
딅	2460
딆	2461
딇	2462
딈	2463
딉	2464
딊	2465
딋	2466
딌	2467
딍	2468
딎	2469
딏	2470
딐	2471
딑	2472
딒	2473
딓	2474
디	2475
딕	2476
딖	2477
딗	2478
딘	2479
딙	2480
딚	2481
딛	2482
딜	2483
딝	2484
딞	2485
딟	2486
딠	2487
딡	2488
딢	2489
딣	2490
딤	2491
딥	2492
딦	2493
딧	2494
딨	2495
딩	2496
딪	2497
딫	2498
딬	2499
딭	2500
딮	2501
딯	2502
따	2503
딱	2504
딲	2505
딳	2506
딴	2507
딵	2508
딶	2509
딷	2510
딸	2511
딹	2512
딺	2513
딻	2514
딼	2515
딽	2516
딾	2517
딿	2518
땀	2519
땁	2520
땂	2521
땃	2522
땄	2523
땅	2524
땆	2525
땇	2526
땈	2527
땉	2528
땊	2529
땋	2530
때	2531
땍	2532
땎	2533
땏	2534
땐	2535
땑	2536
땒	2537
땓	2538
땔	2539
땕	2540
땖	2541
땗	2542
땘	2543
땙	2544
땚	2545
땛	2546
땜	2547
땝	2548
땞	2549
땟	2550
땠	2551
땡	2552
땢	2553
땣	2554
땤	2555
땥	2556
땦	2557
땧	2558
땨	2559
땩	2560
땪	2561
땫	2562
땬	2563
땭	2564
땮	2565
땯	2566
땰	2567
땱	2568
땲	2569
땳	2570
땴	2571
땵	2572
땶	2573
땷	2574
땸	2575
땹	2576
땺	2577
땻	2578
땼	2579
땽	2580
땾	2581
땿	2582
떀	2583
떁	2584
떂	2585
떃	2586
떄	2587
떅	2588
떆	2589
떇	2590
떈	2591
떉	2592
떊	2593
떋	2594
떌	2595
떍	2596
떎	2597
떏	2598
떐	2599
떑	2600
떒	2601
떓	2602
떔	2603
떕	2604
떖	2605
떗	2606
떘	2607
떙	2608
떚	2609
떛	2610
떜	2611
떝	2612
떞	2613
떟	2614
떠	2615
떡	2616
떢	2617
떣	2618
떤	2619
떥	2620
떦	2621
떧	2622
떨	2623
떩	2624
떪	2625
떫	2626
떬	2627
떭	2628
떮	2629
떯	2630
떰	2631
떱	2632
떲	2633
떳	2634
떴	2635
떵	2636
떶	2637
떷	2638
떸	2639
떹	2640
떺	2641
떻	2642
떼	2643
떽	2644
떾	2645
떿	2646
뗀	2647
뗁	2648
뗂	2649
뗃	2650
뗄	2651
뗅	2652
뗆	2653
뗇	2654
뗈	2655
뗉	2656
뗊	2657
뗋	2658
뗌	2659
뗍	2660
뗎	2661
뗏	2662
뗐	2663
뗑	2664
뗒	2665
뗓	2666
뗔	2667
뗕	2668
뗖	2669
뗗	2670
뗘	2671
뗙	2672
뗚	2673
뗛	2674
뗜	2675
뗝	2676
뗞	2677
뗟	2678
뗠	2679
뗡	2680
뗢	2681
뗣	2682
뗤	2683
뗥	2684
뗦	2685
뗧	2686
뗨	2687
뗩	2688
뗪	2689
뗫	2690
뗬	2691
뗭	2692
뗮	2693
뗯	2694
뗰	2695
뗱	2696
뗲	2697
뗳	2698
뗴	2699
뗵	2700
뗶	2701
뗷	2702
뗸	2703
뗹	2704
뗺	2705
뗻	2706
뗼	2707
뗽	2708
뗾	2709
뗿	2710
똀	2711
똁	2712
똂	2713
똃	2714
똄	2715
똅	2716
똆	2717
똇	2718
똈	2719
똉	2720
똊	2721
똋	2722
똌	2723
똍	2724
똎	2725
똏	2726
또	2727
똑	2728
똒	2729
똓	2730
똔	2731
똕	2732
똖	2733
똗	2734
똘	2735
똙	2736
똚	2737
똛	2738
똜	2739
똝	2740
똞	2741
똟	2742
똠	2743
똡	2744
똢	2745
똣	2746
똤	2747
똥	2748
똦	2749
똧	2750
똨	2751
똩	2752
똪	2753
똫	2754
똬	2755
똭	2756
똮	2757
똯	2758
똰	2759
똱	2760
똲	2761
똳	2762
똴	2763
똵	2764
똶	2765
똷	2766
똸	2767
똹	2768
똺	2769
똻	2770
똼	2771
똽	2772
똾	2773
똿	2774
뙀	2775
뙁	2776
뙂	2777
뙃	2778
뙄	2779
뙅	2780
뙆	2781
뙇	2782
뙈	2783
뙉	2784
뙊	2785
뙋	2786
뙌	2787
뙍	2788
뙎	2789
뙏	2790
뙐	2791
뙑	2792
뙒	2793
뙓	2794
뙔	2795
뙕	2796
뙖	2797
뙗	2798
뙘	2799
뙙	2800
뙚	2801
뙛	2802
뙜	2803
뙝	2804
뙞	2805
뙟	2806
뙠	2807
뙡	2808
뙢	2809
뙣	2810
뙤	2811
뙥	2812
뙦	2813
뙧	2814
뙨	2815
뙩	2816
뙪	2817
뙫	2818
뙬	2819
뙭	2820
뙮	2821
뙯	2822
뙰	2823
뙱	2824
뙲	2825
뙳	2826
뙴	2827
뙵	2828
뙶	2829
뙷	2830
뙸	2831
뙹	2832
뙺	2833
뙻	2834
뙼	2835
뙽	2836
뙾	2837
뙿	2838
뚀	2839
뚁	2840
뚂	2841
뚃	2842
뚄	2843
뚅	2844
뚆	2845
뚇	2846
뚈	2847
뚉	2848
뚊	2849
뚋	2850
뚌	2851
뚍	2852
뚎	2853
뚏	2854
뚐	2855
뚑	2856
뚒	2857
뚓	2858
뚔	2859
뚕	2860
뚖	2861
뚗	2862
뚘	2863
뚙	2864
뚚	2865
뚛	2866
뚜	2867
뚝	2868
뚞	2869
뚟	2870
뚠	2871
뚡	2872
뚢	2873
뚣	2874
뚤	2875
뚥	2876
뚦	2877
뚧	2878
뚨	2879
뚩	2880
뚪	2881
뚫	2882
뚬	2883
뚭	2884
뚮	2885
뚯	2886
뚰	2887
뚱	2888
뚲	2889
뚳	2890
뚴	2891
뚵	2892
뚶	2893
뚷	2894
뚸	2895
뚹	2896
뚺	2897
뚻	2898
뚼	2899
뚽	2900
뚾	2901
뚿	2902
뛀	2903
뛁	2904
뛂	2905
뛃	2906
뛄	2907
뛅	2908
뛆	2909
뛇	2910
뛈	2911
뛉	2912
뛊	2913
뛋	2914
뛌	2915
뛍	2916
뛎	2917
뛏	2918
뛐	2919
뛑	2920
뛒	2921
뛓	2922
뛔	2923
뛕	2924
뛖	2925
뛗	2926
뛘	2927
뛙	2928
뛚	2929
뛛	2930
뛜	2931
뛝	2932
뛞	2933
뛟	2934
뛠	2935
뛡	2936
뛢	2937
뛣	2938
뛤	2939
뛥	2940
뛦	2941
뛧	2942
뛨	2943
뛩	2944
뛪	2945
뛫	2946
뛬	2947
뛭	2948
뛮	2949
뛯	2950
뛰	2951
뛱	2952
뛲	2953
뛳	2954
뛴	2955
뛵	2956
뛶	2957
뛷	2958
뛸	2959
뛹	2960
뛺	2961
뛻	2962
뛼	2963
뛽	2964
뛾	2965
뛿	2966
뜀	2967
뜁	2968
뜂	2969
뜃	2970
뜄	2971
뜅	2972
뜆	2973
뜇	2974
뜈	2975
뜉	2976
뜊	2977
뜋	2978
뜌	2979
뜍	2980
뜎	2981
뜏	2982
뜐	2983
뜑	2984
뜒	2985
뜓	2986
뜔	2987
뜕	2988
뜖	2989
뜗	2990
뜘	2991
뜙	2992
뜚	2993
뜛	2994
뜜	2995
뜝	2996
뜞	2997
뜟	2998
뜠	2999
뜡	3000
뜢	3001
뜣	3002
뜤	3003
뜥	3004
뜦	3005
뜧	3006
뜨	3007
뜩	3008
뜪	3009
뜫	3010
뜬	3011
뜭	3012
뜮	3013
뜯	3014
뜰	3015
뜱	3016
뜲	3017
뜳	3018
뜴	3019
뜵	3020
뜶	3021
뜷	3022
뜸	3023
뜹	3024
뜺	3025
뜻	3026
뜼	3027
뜽	3028
뜾	3029
뜿	3030
띀	3031
띁	3032
띂	3033
띃	3034
띄	3035
띅	3036
띆	3037
띇	3038
띈	3039
띉	3040
띊	3041
띋	3042
띌	3043
띍	3044
띎	3045
띏	3046
띐	3047
띑	3048
띒	3049
띓	3050
띔	3051
띕	3052
띖	3053
띗	3054
띘	3055
띙	3056
띚	3057
띛	3058
띜	3059
띝	3060
띞	3061
띟	3062
띠	3063
띡	3064
띢	3065
띣	3066
띤	3067
띥	3068
띦	3069
띧	3070
띨	3071
띩	3072
띪	3073
띫	3074
띬	3075
띭	3076
띮	3077
띯	3078
띰	3079
띱	3080
띲	3081
띳	3082
띴	3083
띵	3084
띶	3085
띷	3086
띸	3087
띹	3088
띺	3089
띻	3090
라	3091
락	3092
띾	3093
띿	3094
란	3095
랁	3096
랂	3097
랃	3098
랄	3099
랅	3100
랆	3101
랇	3102
랈	3103
랉	3104
랊	3105
랋	3106
람	3107
랍	3108
랎	3109
랏	3110
랐	3111
랑	3112
랒	3113
랓	3114
랔	3115
랕	3116
랖	3117
랗	3118
래	3119
랙	3120
랚	3121
랛	3122
랜	3123
랝	3124
랞	3125
랟	3126
랠	3127
랡	3128
랢	3129
랣	3130
랤	3131
랥	3132
랦	3133
랧	3134
램	3135
랩	3136
랪	3137
랫	3138
랬	3139
랭	3140
랮	3141
랯	3142
랰	3143
랱	3144
랲	3145
랳	3146
랴	3147
략	3148
랶	3149
랷	3150
랸	3151
랹	3152
랺	3153
랻	3154
랼	3155
랽	3156
랾	3157
랿	3158
럀	3159
럁	3160
럂	3161
럃	3162
럄	3163
럅	3164
럆	3165
럇	3166
럈	3167
량	3168
럊	3169
럋	3170
럌	3171
럍	3172
럎	3173
럏	3174
럐	3175
럑	3176
럒	3177
럓	3178
럔	3179
럕	3180
럖	3181
럗	3182
럘	3183
럙	3184
럚	3185
럛	3186
럜	3187
럝	3188
럞	3189
럟	3190
럠	3191
럡	3192
럢	3193
럣	3194
럤	3195
럥	3196
럦	3197
럧	3198
럨	3199
럩	3200
럪	3201
럫	3202
러	3203
럭	3204
럮	3205
럯	3206
런	3207
럱	3208
럲	3209
럳	3210
럴	3211
럵	3212
럶	3213
럷	3214
럸	3215
럹	3216
럺	3217
럻	3218
럼	3219
럽	3220
럾	3221
럿	3222
렀	3223
렁	3224
렂	3225
렃	3226
렄	3227
렅	3228
렆	3229
렇	3230
레	3231
렉	3232
렊	3233
렋	3234
렌	3235
렍	3236
렎	3237
렏	3238
렐	3239
렑	3240
렒	3241
렓	3242
렔	3243
렕	3244
렖	3245
렗	3246
렘	3247
렙	3248
렚	3249
렛	3250
렜	3251
렝	3252
렞	3253
렟	3254
렠	3255
렡	3256
렢	3257
렣	3258
려	3259
력	3260
렦	3261
렧	3262
련	3263
렩	3264
렪	3265
렫	3266
렬	3267
렭	3268
렮	3269
렯	3270
렰	3271
렱	3272
렲	3273
렳	3274
렴	3275
렵	3276
렶	3277
렷	3278
렸	3279
령	3280
렺	3281
렻	3282
렼	3283
렽	3284
렾	3285
렿	3286
례	3287
롁	3288
롂	3289
롃	3290
롄	3291
롅	3292
롆	3293
롇	3294
롈	3295
롉	3296
롊	3297
롋	3298
롌	3299
롍	3300
롎	3301
롏	3302
롐	3303
롑	3304
롒	3305
롓	3306
롔	3307
롕	3308
롖	3309
롗	3310
롘	3311
롙	3312
롚	3313
롛	3314
로	3315
록	3316
롞	3317
롟	3318
론	3319
롡	3320
롢	3321
롣	3322
롤	3323
롥	3324
롦	3325
롧	3326
롨	3327
롩	3328
롪	3329
롫	3330
롬	3331
롭	3332
롮	3333
롯	3334
롰	3335
롱	3336
롲	3337
롳	3338
롴	3339
롵	3340
롶	3341
롷	3342
롸	3343
롹	3344
롺	3345
롻	3346
롼	3347
롽	3348
롾	3349
롿	3350
뢀	3351
뢁	3352
뢂	3353
뢃	3354
뢄	3355
뢅	3356
뢆	3357
뢇	3358
뢈	3359
뢉	3360
뢊	3361
뢋	3362
뢌	3363
뢍	3364
뢎	3365
뢏	3366
뢐	3367
뢑	3368
뢒	3369
뢓	3370
뢔	3371
뢕	3372
뢖	3373
뢗	3374
뢘	3375
뢙	3376
뢚	3377
뢛	3378
뢜	3379
뢝	3380
뢞	3381
뢟	3382
뢠	3383
뢡	3384
뢢	3385
뢣	3386
뢤	3387
뢥	3388
뢦	3389
뢧	3390
뢨	3391
뢩	3392
뢪	3393
뢫	3394
뢬	3395
뢭	3396
뢮	3397
뢯	3398
뢰	3399
뢱	3400
뢲	3401
뢳	3402
뢴	3403
뢵	3404
뢶	3405
뢷	3406
뢸	3407
뢹	3408
뢺	3409
뢻	3410
뢼	3411
뢽	3412
뢾	3413
뢿	3414
룀	3415
룁	3416
룂	3417
룃	3418
룄	3419
룅	3420
룆	3421
룇	3422
룈	3423
룉	3424
룊	3425
룋	3426
료	3427
룍	3428
룎	3429
룏	3430
룐	3431
룑	3432
룒	3433
룓	3434
룔	3435
룕	3436
룖	3437
룗	3438
룘	3439
룙	3440
룚	3441
룛	3442
룜	3443
룝	3444
룞	3445
룟	3446
룠	3447
룡	3448
룢	3449
룣	3450
룤	3451
룥	3452
룦	3453
룧	3454
루	3455
룩	3456
룪	3457
룫	3458
룬	3459
룭	3460
룮	3461
룯	3462
룰	3463
룱	3464
룲	3465
룳	3466
룴	3467
룵	3468
룶	3469
룷	3470
룸	3471
룹	3472
룺	3473
룻	3474
룼	3475
룽	3476
룾	3477
룿	3478
뤀	3479
뤁	3480
뤂	3481
뤃	3482
뤄	3483
뤅	3484
뤆	3485
뤇	3486
뤈	3487
뤉	3488
뤊	3489
뤋	3490
뤌	3491
뤍	3492
뤎	3493
뤏	3494
뤐	3495
뤑	3496
뤒	3497
뤓	3498
뤔	3499
뤕	3500
뤖	3501
뤗	3502
뤘	3503
뤙	3504
뤚	3505
뤛	3506
뤜	3507
뤝	3508
뤞	3509
뤟	3510
뤠	3511
뤡	3512
뤢	3513
뤣	3514
뤤	3515
뤥	3516
뤦	3517
뤧	3518
뤨	3519
뤩	3520
뤪	3521
뤫	3522
뤬	3523
뤭	3524
뤮	3525
뤯	3526
뤰	3527
뤱	3528
뤲	3529
뤳	3530
뤴	3531
뤵	3532
뤶	3533
뤷	3534
뤸	3535
뤹	3536
뤺	3537
뤻	3538
뤼	3539
뤽	3540
뤾	3541
뤿	3542
륀	3543
륁	3544
륂	3545
륃	3546
륄	3547
륅	3548
륆	3549
륇	3550
륈	3551
륉	3552
륊	3553
륋	3554
륌	3555
륍	3556
륎	3557
륏	3558
륐	3559
륑	3560
륒	3561
륓	3562
륔	3563
륕	3564
륖	3565
륗	3566
류	3567
륙	3568
륚	3569
륛	3570
륜	3571
륝	3572
륞	3573
륟	3574
률	3575
륡	3576
륢	3577
륣	3578
륤	3579
륥	3580
륦	3581
륧	3582
륨	3583
륩	3584
륪	3585
륫	3586
륬	3587
륭	3588
륮	3589
륯	3590
륰	3591
륱	3592
륲	3593
륳	3594
르	3595
륵	3596
륶	3597
륷	3598
른	3599
륹	3600
륺	3601
륻	3602
를	3603
륽	3604
륾	3605
륿	3606
릀	3607
릁	3608
릂	3609
릃	3610
름	3611
릅	3612
릆	3613
릇	3614
릈	3615
릉	3616
릊	3617
릋	3618
릌	3619
릍	3620
릎	3621
릏	3622
릐	3623
릑	3624
릒	3625
릓	3626
릔	3627
릕	3628
릖	3629
릗	3630
릘	3631
릙	3632
릚	3633
릛	3634
릜	3635
릝	3636
릞	3637
릟	3638
릠	3639
릡	3640
릢	3641
릣	3642
릤	3643
릥	3644
릦	3645
릧	3646
릨	3647
릩	3648
릪	3649
릫	3650
리	3651
릭	3652
릮	3653
릯	3654
린	3655
릱	3656
릲	3657
릳	3658
릴	3659
릵	3660
릶	3661
릷	3662
릸	3663
릹	3664
릺	3665
릻	3666
림	3667
립	3668
릾	3669
릿	3670
맀	3671
링	3672
맂	3673
맃	3674
맄	3675
맅	3676
맆	3677
맇	3678
마	3679
막	3680
맊	3681
맋	3682
만	3683
맍	3684
많	3685
맏	3686
말	3687
맑	3688
맒	3689
맓	3690
맔	3691
맕	3692
맖	3693
맗	3694
맘	3695
맙	3696
맚	3697
맛	3698
맜	3699
망	3700
맞	3701
맟	3702
맠	3703
맡	3704
맢	3705
맣	3706
매	3707
맥	3708
맦	3709
맧	3710
맨	3711
맩	3712
맪	3713
맫	3714
맬	3715
맭	3716
맮	3717
맯	3718
맰	3719
맱	3720
맲	3721
맳	3722
맴	3723
맵	3724
맶	3725
맷	3726
맸	3727
맹	3728
맺	3729
맻	3730
맼	3731
맽	3732
맾	3733
맿	3734
먀	3735
먁	3736
먂	3737
먃	3738
먄	3739
먅	3740
먆	3741
먇	3742
먈	3743
먉	3744
먊	3745
먋	3746
먌	3747
먍	3748
먎	3749
먏	3750
먐	3751
먑	3752
먒	3753
먓	3754
먔	3755
먕	3756
먖	3757
먗	3758
먘	3759
먙	3760
먚	3761
먛	3762
먜	3763
먝	3764
먞	3765
먟	3766
먠	3767
먡	3768
먢	3769
먣	3770
먤	3771
먥	3772
먦	3773
먧	3774
먨	3775
먩	3776
먪	3777
먫	3778
먬	3779
먭	3780
먮	3781
먯	3782
먰	3783
먱	3784
먲	3785
먳	3786
먴	3787
먵	3788
먶	3789
먷	3790
머	3791
먹	3792
먺	3793
먻	3794
먼	3795
먽	3796
먾	3797
먿	3798
멀	3799
멁	3800
멂	3801
멃	3802
멄	3803
멅	3804
멆	3805
멇	3806
멈	3807
멉	3808
멊	3809
멋	3810
멌	3811
멍	3812
멎	3813
멏	3814
멐	3815
멑	3816
멒	3817
멓	3818
메	3819
멕	3820
멖	3821
멗	3822
멘	3823
멙	3824
멚	3825
멛	3826
멜	3827
멝	3828
멞	3829
멟	3830
멠	3831
멡	3832
멢	3833
멣	3834
멤	3835
멥	3836
멦	3837
멧	3838
멨	3839
멩	3840
멪	3841
멫	3842
멬	3843
멭	3844
멮	3845
멯	3846
며	3847
멱	3848
멲	3849
멳	3850
면	3851
멵	3852
멶	3853
멷	3854
멸	3855
멹	3856
멺	3857
멻	3858
멼	3859
멽	3860
멾	3861
멿	3862
몀	3863
몁	3864
몂	3865
몃	3866
몄	3867
명	3868
몆	3869
몇	3870
몈	3871
몉	3872
몊	3873
몋	3874
몌	3875
몍	3876
몎	3877
몏	3878
몐	3879
몑	3880
몒	3881
몓	3882
몔	3883
몕	3884
몖	3885
몗	3886
몘	3887
몙	3888
몚	3889
몛	3890
몜	3891
몝	3892
몞	3893
몟	3894
몠	3895
몡	3896
몢	3897
몣	3898
몤	3899
몥	3900
몦	3901
몧	3902
모	3903
목	3904
몪	3905
몫	3906
몬	3907
몭	3908
몮	3909
몯	3910
몰	3911
몱	3912
몲	3913
몳	3914
몴	3915
몵	3916
몶	3917
몷	3918
몸	3919
몹	3920
몺	3921
못	3922
몼	3923
몽	3924
몾	3925
몿	3926
뫀	3927
뫁	3928
뫂	3929
뫃	3930
뫄	3931
뫅	3932
뫆	3933
뫇	3934
뫈	3935
뫉	3936
뫊	3937
뫋	3938
뫌	3939
뫍	3940
뫎	3941
뫏	3942
뫐	3943
뫑	3944
뫒	3945
뫓	3946
뫔	3947
뫕	3948
뫖	3949
뫗	3950
뫘	3951
뫙	3952
뫚	3953
뫛	3954
뫜	3955
뫝	3956
뫞	3957
뫟	3958
뫠	3959
뫡	3960
뫢	3961
뫣	3962
뫤	3963
뫥	3964
뫦	3965
뫧	3966
뫨	3967
뫩	3968
뫪	3969
뫫	3970
뫬	3971
뫭	3972
뫮	3973
뫯	3974
뫰	3975
뫱	3976
뫲	3977
뫳	3978
뫴	3979
뫵	3980
뫶	3981
뫷	3982
뫸	3983
뫹	3984
뫺	3985
뫻	3986
뫼	3987
뫽	3988
뫾	3989
뫿	3990
묀	3991
묁	3992
묂	3993
묃	3994
묄	3995
묅	3996
묆	3997
묇	3998
묈	3999
묉	4000
묊	4001
묋	4002
묌	4003
묍	4004
묎	4005
묏	4006
묐	4007
묑	4008
묒	4009
묓	4010
묔	4011
묕	4012
묖	4013
묗	4014
묘	4015
묙	4016
묚	4017
묛	4018
묜	4019
묝	4020
묞	4021
묟	4022
묠	4023
묡	4024
묢	4025
묣	4026
묤	4027
묥	4028
묦	4029
묧	4030
묨	4031
묩	4032
묪	4033
묫	4034
묬	4035
묭	4036
묮	4037
묯	4038
묰	4039
묱	4040
묲	4041
묳	4042
무	4043
묵	4044
묶	4045
묷	4046
문	4047
묹	4048
묺	4049
묻	4050
물	4051
묽	4052
묾	4053
묿	4054
뭀	4055
뭁	4056
뭂	4057
뭃	4058
뭄	4059
뭅	4060
뭆	4061
뭇	4062
뭈	4063
뭉	4064
뭊	4065
뭋	4066
뭌	4067
뭍	4068
뭎	4069
뭏	4070
뭐	4071
뭑	4072
뭒	4073
뭓	4074
뭔	4075
뭕	4076
뭖	4077
뭗	4078
뭘	4079
뭙	4080
뭚	4081
뭛	4082
뭜	4083
뭝	4084
뭞	4085
뭟	4086
뭠	4087
뭡	4088
뭢	4089
뭣	4090
뭤	4091
뭥	4092
뭦	4093
뭧	4094
뭨	4095
뭩	4096
뭪	4097
뭫	4098
뭬	4099
뭭	4100
뭮	4101
뭯	4102
뭰	4103
뭱	4104
뭲	4105
뭳	4106
뭴	4107
뭵	4108
뭶	4109
뭷	4110
뭸	4111
뭹	4112
뭺	4113
뭻	4114
뭼	4115
뭽	4116
뭾	4117
뭿	4118
뮀	4119
뮁	4120
뮂	4121
뮃	4122
뮄	4123
뮅	4124
뮆	4125
뮇	4126
뮈	4127
뮉	4128
뮊	4129
뮋	4130
뮌	4131
뮍	4132
뮎	4133
뮏	4134
뮐	4135
뮑	4136
뮒	4137
뮓	4138
뮔	4139
뮕	4140
뮖	4141
뮗	4142
뮘	4143
뮙	4144
뮚	4145
뮛	4146
뮜	4147
뮝	4148
뮞	4149
뮟	4150
뮠	4151
뮡	4152
뮢	4153
뮣	4154
뮤	4155
뮥	4156
뮦	4157
뮧	4158
뮨	4159
뮩	4160
뮪	4161
뮫	4162
뮬	4163
뮭	4164
뮮	4165
뮯	4166
뮰	4167
뮱	4168
뮲	4169
뮳	4170
뮴	4171
뮵	4172
뮶	4173
뮷	4174
뮸	4175
뮹	4176
뮺	4177
뮻	4178
뮼	4179
뮽	4180
뮾	4181
뮿	4182
므	4183
믁	4184
믂	4185
믃	4186
믄	4187
믅	4188
믆	4189
믇	4190
믈	4191
믉	4192
믊	4193
믋	4194
믌	4195
믍	4196
믎	4197
믏	4198
믐	4199
믑	4200
믒	4201
믓	4202
믔	4203
믕	4204
믖	4205
믗	4206
믘	4207
믙	4208
믚	4209
믛	4210
믜	4211
믝	4212
믞	4213
믟	4214
믠	4215
믡	4216
믢	4217
믣	4218
믤	4219
믥	4220
믦	4221
믧	4222
믨	4223
믩	4224
믪	4225
믫	4226
믬	4227
믭	4228
믮	4229
믯	4230
믰	4231
믱	4232
믲	4233
믳	4234
믴	4235
믵	4236
믶	4237
믷	4238
미	4239
믹	4240
믺	4241
믻	4242
민	4243
믽	4244
믾	4245
믿	4246
밀	4247
밁	4248
밂	4249
밃	4250
밄	4251
밅	4252
밆	4253
밇	4254
밈	4255
밉	4256
밊	4257
밋	4258
밌	4259
밍	4260
밎	4261
및	4262
밐	4263
밑	4264
밒	4265
밓	4266
바	4267
박	4268
밖	4269
밗	4270
반	4271
밙	4272
밚	4273
받	4274
발	4275
밝	4276
밞	4277
밟	4278
밠	4279
밡	4280
밢	4281
밣	4282
밤	4283
밥	4284
밦	4285
밧	4286
밨	4287
방	4288
밪	4289
밫	4290
밬	4291
밭	4292
밮	4293
밯	4294
배	4295
백	4296
밲	4297
밳	4298
밴	4299
밵	4300
밶	4301
밷	4302
밸	4303
밹	4304
밺	4305
밻	4306
밼	4307
밽	4308
밾	4309
밿	4310
뱀	4311
뱁	4312
뱂	4313
뱃	4314
뱄	4315
뱅	4316
뱆	4317
뱇	4318
뱈	4319
뱉	4320
뱊	4321
뱋	4322
뱌	4323
뱍	4324
뱎	4325
뱏	4326
뱐	4327
뱑	4328
뱒	4329
뱓	4330
뱔	4331
뱕	4332
뱖	4333
뱗	4334
뱘	4335
뱙	4336
뱚	4337
뱛	4338
뱜	4339
뱝	4340
뱞	4341
뱟	4342
뱠	4343
뱡	4344
뱢	4345
뱣	4346
뱤	4347
뱥	4348
뱦	4349
뱧	4350
뱨	4351
뱩	4352
뱪	4353
뱫	4354
뱬	4355
뱭	4356
뱮	4357
뱯	4358
뱰	4359
뱱	4360
뱲	4361
뱳	4362
뱴	4363
뱵	4364
뱶	4365
뱷	4366
뱸	4367
뱹	4368
뱺	4369
뱻	4370
뱼	4371
뱽	4372
뱾	4373
뱿	4374
벀	4375
벁	4376
벂	4377
벃	4378
버	4379
벅	4380
벆	4381
벇	4382
번	4383
벉	4384
벊	4385
벋	4386
벌	4387
벍	4388
벎	4389
벏	4390
벐	4391
벑	4392
벒	4393
벓	4394
범	4395
법	4396
벖	4397
벗	4398
벘	4399
벙	4400
벚	4401
벛	4402
벜	4403
벝	4404
벞	4405
벟	4406
베	4407
벡	4408
벢	4409
벣	4410
벤	4411
벥	4412
벦	4413
벧	4414
벨	4415
벩	4416
벪	4417
벫	4418
벬	4419
벭	4420
벮	4421
벯	4422
벰	4423
벱	4424
벲	4425
벳	4426
벴	4427
벵	4428
벶	4429
벷	4430
벸	4431
벹	4432
벺	4433
벻	4434
벼	4435
벽	4436
벾	4437
벿	4438
변	4439
볁	4440
볂	4441
볃	4442
별	4443
볅	4444
볆	4445
볇	4446
볈	4447
볉	4448
볊	4449
볋	4450
볌	4451
볍	4452
볎	4453
볏	4454
볐	4455
병	4456
볒	4457
볓	4458
볔	4459
볕	4460
볖	4461
볗	4462
볘	4463
볙	4464
볚	4465
볛	4466
볜	4467
볝	4468
볞	4469
볟	4470
볠	4471
볡	4472
볢	4473
볣	4474
볤	4475
볥	4476
볦	4477
볧	4478
볨	4479
볩	4480
볪	4481
볫	4482
볬	4483
볭	4484
볮	4485
볯	4486
볰	4487
볱	4488
볲	4489
볳	4490
보	4491
복	4492
볶	4493
볷	4494
본	4495
볹	4496
볺	4497
볻	4498
볼	4499
볽	4500
볾	4501
볿	4502
봀	4503
봁	4504
봂	4505
봃	4506
봄	4507
봅	4508
봆	4509
봇	4510
봈	4511
봉	4512
봊	4513
봋	4514
봌	4515
봍	4516
봎	4517
봏	4518
봐	4519
봑	4520
봒	4521
봓	4522
봔	4523
봕	4524
봖	4525
봗	4526
봘	4527
봙	4528
봚	4529
봛	4530
봜	4531
봝	4532
봞	4533
봟	4534
봠	4535
봡	4536
봢	4537
봣	4538
봤	4539
봥	4540
봦	4541
봧	4542
봨	4543
봩	4544
봪	4545
봫	4546
봬	4547
봭	4548
봮	4549
봯	4550
봰	4551
봱	4552
봲	4553
봳	4554
봴	4555
봵	4556
봶	4557
봷	4558
봸	4559
봹	4560
봺	4561
봻	4562
봼	4563
봽	4564
봾	4565
봿	4566
뵀	4567
뵁	4568
뵂	4569
뵃	4570
뵄	4571
뵅	4572
뵆	4573
뵇	4574
뵈	4575
뵉	4576
뵊	4577
뵋	4578
뵌	4579
뵍	4580
뵎	4581
뵏	4582
뵐	4583
뵑	4584
뵒	4585
뵓	4586
뵔	4587
뵕	4588
뵖	4589
뵗	4590
뵘	4591
뵙	4592
뵚	4593
뵛	4594
뵜	4595
뵝	4596
뵞	4597
뵟	4598
뵠	4599
뵡	4600
뵢	4601
뵣	4602
뵤	4603
뵥	4604
뵦	4605
뵧	4606
뵨	4607
뵩	4608
뵪	4609
뵫	4610
뵬	4611
뵭	4612
뵮	4613
뵯	4614
뵰	4615
뵱	4616
뵲	4617
뵳	4618
뵴	4619
뵵	4620
뵶	4621
뵷	4622
뵸	4623
뵹	4624
뵺	4625
뵻	4626
뵼	4627
뵽	4628
뵾	4629
뵿	4630
부	4631
북	4632
붂	4633
붃	4634
분	4635
붅	4636
붆	4637
붇	4638
불	4639
붉	4640
붊	4641
붋	4642
붌	4643
붍	4644
붎	4645
붏	4646
붐	4647
붑	4648
붒	4649
붓	4650
붔	4651
붕	4652
붖	4653
붗	4654
붘	4655
붙	4656
붚	4657
붛	4658
붜	4659
붝	4660
붞	4661
붟	4662
붠	4663
붡	4664
붢	4665
붣	4666
붤	4667
붥	4668
붦	4669
붧	4670
붨	4671
붩	4672
붪	4673
붫	4674
붬	4675
붭	4676
붮	4677
붯	4678
붰	4679
붱	4680
붲	4681
붳	4682
붴	4683
붵	4684
붶	4685
붷	4686
붸	4687
붹	4688
붺	4689
붻	4690
붼	4691
붽	4692
붾	4693
붿	4694
뷀	4695
뷁	4696
뷂	4697
뷃	4698
뷄	4699
뷅	4700
뷆	4701
뷇	4702
뷈	4703
뷉	4704
뷊	4705
뷋	4706
뷌	4707
뷍	4708
뷎	4709
뷏	4710
뷐	4711
뷑	4712
뷒	4713
뷓	4714
뷔	4715
뷕	4716
뷖	4717
뷗	4718
뷘	4719
뷙	4720
뷚	4721
뷛	4722
뷜	4723
뷝	4724
뷞	4725
뷟	4726
뷠	4727
뷡	4728
뷢	4729
뷣	4730
뷤	4731
뷥	4732
뷦	4733
뷧	4734
뷨	4735
뷩	4736
뷪	4737
뷫	4738
뷬	4739
뷭	4740
뷮	4741
뷯	4742
뷰	4743
뷱	4744
뷲	4745
뷳	4746
뷴	4747
뷵	4748
뷶	4749
뷷	4750
뷸	4751
뷹	4752
뷺	4753
뷻	4754
뷼	4755
뷽	4756
뷾	4757
뷿	4758
븀	4759
븁	4760
븂	4761
븃	4762
븄	4763
븅	4764
븆	4765
븇	4766
븈	4767
븉	4768
븊	4769
븋	4770
브	4771
븍	4772
븎	4773
븏	4774
븐	4775
븑	4776
븒	4777
븓	4778
블	4779
븕	4780
븖	4781
븗	4782
븘	4783
븙	4784
븚	4785
븛	4786
븜	4787
븝	4788
븞	4789
븟	4790
븠	4791
븡	4792
븢	4793
븣	4794
븤	4795
븥	4796
븦	4797
븧	4798
븨	4799
븩	4800
븪	4801
븫	4802
븬	4803
븭	4804
븮	4805
븯	4806
븰	4807
븱	4808
븲	4809
븳	4810
븴	4811
븵	4812
븶	4813
븷	4814
븸	4815
븹	4816
븺	4817
븻	4818
븼	4819
븽	4820
븾	4821
븿	4822
빀	4823
빁	4824
빂	4825
빃	4826
비	4827
빅	4828
빆	4829
빇	4830
빈	4831
빉	4832
빊	4833
빋	4834
빌	4835
빍	4836
빎	4837
빏	4838
빐	4839
빑	4840
빒	4841
빓	4842
빔	4843
빕	4844
빖	4845
빗	4846
빘	4847
빙	4848
빚	4849
빛	4850
빜	4851
빝	4852
빞	4853
빟	4854
빠	4855
빡	4856
빢	4857
빣	4858
빤	4859
빥	4860
빦	4861
빧	4862
빨	4863
빩	4864
빪	4865
빫	4866
빬	4867
빭	4868
빮	4869
빯	4870
빰	4871
빱	4872
빲	4873
빳	4874
빴	4875
빵	4876
빶	4877
빷	4878
빸	4879
빹	4880
빺	4881
빻	4882
빼	4883
빽	4884
빾	4885
빿	4886
뺀	4887
뺁	4888
뺂	4889
뺃	4890
뺄	4891
뺅	4892
뺆	4893
뺇	4894
뺈	4895
뺉	4896
뺊	4897
뺋	4898
뺌	4899
뺍	4900
뺎	4901
뺏	4902
뺐	4903
뺑	4904
뺒	4905
뺓	4906
뺔	4907
뺕	4908
뺖	4909
뺗	4910
뺘	4911
뺙	4912
뺚	4913
뺛	4914
뺜	4915
뺝	4916
뺞	4917
뺟	4918
뺠	4919
뺡	4920
뺢	4921
뺣	4922
뺤	4923
뺥	4924
뺦	4925
뺧	4926
뺨	4927
뺩	4928
뺪	4929
뺫	4930
뺬	4931
뺭	4932
뺮	4933
뺯	4934
뺰	4935
뺱	4936
뺲	4937
뺳	4938
뺴	4939
뺵	4940
뺶	4941
뺷	4942
뺸	4943
뺹	4944
뺺	4945
뺻	4946
뺼	4947
뺽	4948
뺾	4949
뺿	4950
뻀	4951
뻁	4952
뻂	4953
뻃	4954
뻄	4955
뻅	4956
뻆	4957
뻇	4958
뻈	4959
뻉	4960
뻊	4961
뻋	4962
뻌	4963
뻍	4964
뻎	4965
뻏	4966
뻐	4967
뻑	4968
뻒	4969
뻓	4970
뻔	4971
뻕	4972
뻖	4973
뻗	4974
뻘	4975
뻙	4976
뻚	4977
뻛	4978
뻜	4979
뻝	4980
뻞	4981
뻟	4982
뻠	4983
뻡	4984
뻢	4985
뻣	4986
뻤	4987
뻥	4988
뻦	4989
뻧	4990
뻨	4991
뻩	4992
뻪	4993
뻫	4994
뻬	4995
뻭	4996
뻮	4997
뻯	4998
뻰	4999
뻱	5000
뻲	5001
뻳	5002
뻴	5003
뻵	5004
뻶	5005
뻷	5006
뻸	5007
뻹	5008
뻺	5009
뻻	5010
뻼	5011
뻽	5012
뻾	5013
뻿	5014
뼀	5015
뼁	5016
뼂	5017
뼃	5018
뼄	5019
뼅	5020
뼆	5021
뼇	5022
뼈	5023
뼉	5024
뼊	5025
뼋	5026
뼌	5027
뼍	5028
뼎	5029
뼏	5030
뼐	5031
뼑	5032
뼒	5033
뼓	5034
뼔	5035
뼕	5036
뼖	5037
뼗	5038
뼘	5039
뼙	5040
뼚	5041
뼛	5042
뼜	5043
뼝	5044
뼞	5045
뼟	5046
뼠	5047
뼡	5048
뼢	5049
뼣	5050
뼤	5051
뼥	5052
뼦	5053
뼧	5054
뼨	5055
뼩	5056
뼪	5057
뼫	5058
뼬	5059
뼭	5060
뼮	5061
뼯	5062
뼰	5063
뼱	5064
뼲	5065
뼳	5066
뼴	5067
뼵	5068
뼶	5069
뼷	5070
뼸	5071
뼹	5072
뼺	5073
뼻	5074
뼼	5075
뼽	5076
뼾	5077
뼿	5078
뽀	5079
뽁	5080
뽂	5081
뽃	5082
뽄	5083
뽅	5084
뽆	5085
뽇	5086
뽈	5087
뽉	5088
뽊	5089
뽋	5090
뽌	5091
뽍	5092
뽎	5093
뽏	5094
뽐	5095
뽑	5096
뽒	5097
뽓	5098
뽔	5099
뽕	5100
뽖	5101
뽗	5102
뽘	5103
뽙	5104
뽚	5105
뽛	5106
뽜	5107
뽝	5108
뽞	5109
뽟	5110
뽠	5111
뽡	5112
뽢	5113
뽣	5114
뽤	5115
뽥	5116
뽦	5117
뽧	5118
뽨	5119
뽩	5120
뽪	5121
뽫	5122
뽬	5123
뽭	5124
뽮	5125
뽯	5126
뽰	5127
뽱	5128
뽲	5129
뽳	5130
뽴	5131
뽵	5132
뽶	5133
뽷	5134
뽸	5135
뽹	5136
뽺	5137
뽻	5138
뽼	5139
뽽	5140
뽾	5141
뽿	5142
뾀	5143
뾁	5144
뾂	5145
뾃	5146
뾄	5147
뾅	5148
뾆	5149
뾇	5150
뾈	5151
뾉	5152
뾊	5153
뾋	5154
뾌	5155
뾍	5156
뾎	5157
뾏	5158
뾐	5159
뾑	5160
뾒	5161
뾓	5162
뾔	5163
뾕	5164
뾖	5165
뾗	5166
뾘	5167
뾙	5168
뾚	5169
뾛	5170
뾜	5171
뾝	5172
뾞	5173
뾟	5174
뾠	5175
뾡	5176
뾢	5177
뾣	5178
뾤	5179
뾥	5180
뾦	5181
뾧	5182
뾨	5183
뾩	5184
뾪	5185
뾫	5186
뾬	5187
뾭	5188
뾮	5189
뾯	5190
뾰	5191
뾱	5192
뾲	5193
뾳	5194
뾴	5195
뾵	5196
뾶	5197
뾷	5198
뾸	5199
뾹	5200
뾺	5201
뾻	5202
뾼	5203
뾽	5204
뾾	5205
뾿	5206
뿀	5207
뿁	5208
뿂	5209
뿃	5210
뿄	5211
뿅	5212
뿆	5213
뿇	5214
뿈	5215
뿉	5216
뿊	5217
뿋	5218
뿌	5219
뿍	5220
뿎	5221
뿏	5222
뿐	5223
뿑	5224
뿒	5225
뿓	5226
뿔	5227
뿕	5228
뿖	5229
뿗	5230
뿘	5231
뿙	5232
뿚	5233
뿛	5234
뿜	5235
뿝	5236
뿞	5237
뿟	5238
뿠	5239
뿡	5240
뿢	5241
뿣	5242
뿤	5243
뿥	5244
뿦	5245
뿧	5246
뿨	5247
뿩	5248
뿪	5249
뿫	5250
뿬	5251
뿭	5252
뿮	5253
뿯	5254
뿰	5255
뿱	5256
뿲	5257
뿳	5258
뿴	5259
뿵	5260
뿶	5261
뿷	5262
뿸	5263
뿹	5264
뿺	5265
뿻	5266
뿼	5267
뿽	5268
뿾	5269
뿿	5270
쀀	5271
쀁	5272
쀂	5273
쀃	5274
쀄	5275
쀅	5276
쀆	5277
쀇	5278
쀈	5279
쀉	5280
쀊	5281
쀋	5282
쀌	5283
쀍	5284
쀎	5285
쀏	5286
쀐	5287
쀑	5288
쀒	5289
쀓	5290
쀔	5291
쀕	5292
쀖	5293
쀗	5294
쀘	5295
쀙	5296
쀚	5297
쀛	5298
쀜	5299
쀝	5300
쀞	5301
쀟	5302
쀠	5303
쀡	5304
쀢	5305
쀣	5306
쀤	5307
쀥	5308
쀦	5309
쀧	5310
쀨	5311
쀩	5312
쀪	5313
쀫	5314
쀬	5315
쀭	5316
쀮	5317
쀯	5318
쀰	5319
쀱	5320
쀲	5321
쀳	5322
쀴	5323
쀵	5324
쀶	5325
쀷	5326
쀸	5327
쀹	5328
쀺	5329
쀻	5330
쀼	5331
쀽	5332
쀾	5333
쀿	5334
쁀	5335
쁁	5336
쁂	5337
쁃	5338
쁄	5339
쁅	5340
쁆	5341
쁇	5342
쁈	5343
쁉	5344
쁊	5345
쁋	5346
쁌	5347
쁍	5348
쁎	5349
쁏	5350
쁐	5351
쁑	5352
쁒	5353
쁓	5354
쁔	5355
쁕	5356
쁖	5357
쁗	5358
쁘	5359
쁙	5360
쁚	5361
쁛	5362
쁜	5363
쁝	5364
쁞	5365
쁟	5366
쁠	5367
쁡	5368
쁢	5369
쁣	5370
쁤	5371
쁥	5372
쁦	5373
쁧	5374
쁨	5375
쁩	5376
쁪	5377
쁫	5378
쁬	5379
쁭	5380
쁮	5381
쁯	5382
쁰	5383
쁱	5384
쁲	5385
쁳	5386
쁴	5387
쁵	5388
쁶	5389
쁷	5390
쁸	5391
쁹	5392
쁺	5393
쁻	5394
쁼	5395
쁽	5396
쁾	5397
쁿	5398
삀	5399
삁	5400
삂	5401
삃	5402
삄	5403
삅	5404
삆	5405
삇	5406
삈	5407
삉	5408
삊	5409
삋	5410
삌	5411
삍	5412
삎	5413
삏	5414
삐	5415
삑	5416
삒	5417
삓	5418
삔	5419
삕	5420
삖	5421
삗	5422
삘	5423
삙	5424
삚	5425
삛	5426
삜	5427
삝	5428
삞	5429
삟	5430
삠	5431
삡	5432
삢	5433
삣	5434
삤	5435
삥	5436
삦	5437
삧	5438
삨	5439
삩	5440
삪	5441
삫	5442
사	5443
삭	5444
삮	5445
삯	5446
산	5447
삱	5448
삲	5449
삳	5450
살	5451
삵	5452
삶	5453
삷	5454
삸	5455
삹	5456
삺	5457
삻	5458
삼	5459
삽	5460
삾	5461
삿	5462
샀	5463
상	5464
샂	5465
샃	5466
샄	5467
샅	5468
샆	5469
샇	5470
새	5471
색	5472
샊	5473
샋	5474
샌	5475
샍	5476
샎	5477
샏	5478
샐	5479
샑	5480
샒	5481
샓	5482
샔	5483
샕	5484
샖	5485
샗	5486
샘	5487
샙	5488
샚	5489
샛	5490
샜	5491
생	5492
샞	5493
샟	5494
샠	5495
샡	5496
샢	5497
샣	5498
샤	5499
샥	5500
샦	5501
샧	5502
샨	5503
샩	5504
샪	5505
샫	5506
샬	5507
샭	5508
샮	5509
샯	5510
샰	5511
샱	5512
샲	5513
샳	5514
샴	5515
샵	5516
샶	5517
샷	5518
샸	5519
샹	5520
샺	5521
샻	5522
샼	5523
샽	5524
샾	5525
샿	5526
섀	5527
섁	5528
섂	5529
섃	5530
섄	5531
섅	5532
섆	5533
섇	5534
섈	5535
섉	5536
섊	5537
섋	5538
섌	5539
섍	5540
섎	5541
섏	5542
섐	5543
섑	5544
섒	5545
섓	5546
섔	5547
섕	5548
섖	5549
섗	5550
섘	5551
섙	5552
섚	5553
섛	5554
서	5555
석	5556
섞	5557
섟	5558
선	5559
섡	5560
섢	5561
섣	5562
설	5563
섥	5564
섦	5565
섧	5566
섨	5567
섩	5568
섪	5569
섫	5570
섬	5571
섭	5572
섮	5573
섯	5574
섰	5575
성	5576
섲	5577
섳	5578
섴	5579
섵	5580
섶	5581
섷	5582
세	5583
섹	5584
섺	5585
섻	5586
센	5587
섽	5588
섾	5589
섿	5590
셀	5591
셁	5592
셂	5593
셃	5594
셄	5595
셅	5596
셆	5597
셇	5598
셈	5599
셉	5600
셊	5601
셋	5602
셌	5603
셍	5604
셎	5605
셏	5606
셐	5607
셑	5608
셒	5609
셓	5610
셔	5611
셕	5612
셖	5613
셗	5614
션	5615
셙	5616
셚	5617
셛	5618
셜	5619
셝	5620
셞	5621
셟	5622
셠	5623
셡	5624
셢	5625
셣	5626
셤	5627
셥	5628
셦	5629
셧	5630
셨	5631
셩	5632
셪	5633
셫	5634
셬	5635
셭	5636
셮	5637
셯	5638
셰	5639
셱	5640
셲	5641
셳	5642
셴	5643
셵	5644
셶	5645
셷	5646
셸	5647
셹	5648
셺	5649
셻	5650
셼	5651
셽	5652
셾	5653
셿	5654
솀	5655
솁	5656
솂	5657
솃	5658
솄	5659
솅	5660
솆	5661
솇	5662
솈	5663
솉	5664
솊	5665
솋	5666
소	5667
속	5668
솎	5669
솏	5670
손	5671
솑	5672
솒	5673
솓	5674
솔	5675
솕	5676
솖	5677
솗	5678
솘	5679
솙	5680
솚	5681
솛	5682
솜	5683
솝	5684
솞	5685
솟	5686
솠	5687
송	5688
솢	5689
솣	5690
솤	5691
솥	5692
솦	5693
솧	5694
솨	5695
솩	5696
솪	5697
솫	5698
솬	5699
솭	5700
솮	5701
솯	5702
솰	5703
솱	5704
솲	5705
솳	5706
솴	5707
솵	5708
솶	5709
솷	5710
솸	5711
솹	5712
솺	5713
솻	5714
솼	5715
솽	5716
솾	5717
솿	5718
쇀	5719
쇁	5720
쇂	5721
쇃	5722
쇄	5723
쇅	5724
쇆	5725
쇇	5726
쇈	5727
쇉	5728
쇊	5729
쇋	5730
쇌	5731
쇍	5732
쇎	5733
쇏	5734
쇐	5735
쇑	5736
쇒	5737
쇓	5738
쇔	5739
쇕	5740
쇖	5741
쇗	5742
쇘	5743
쇙	5744
쇚	5745
쇛	5746
쇜	5747
쇝	5748
쇞	5749
쇟	5750
쇠	5751
쇡	5752
쇢	5753
쇣	5754
쇤	5755
쇥	5756
쇦	5757
쇧	5758
쇨	5759
쇩	5760
쇪	5761
쇫	5762
쇬	5763
쇭	5764
쇮	5765
쇯	5766
쇰	5767
쇱	5768
쇲	5769
쇳	5770
쇴	5771
쇵	5772
쇶	5773
쇷	5774
쇸	5775
쇹	5776
쇺	5777
쇻	5778
쇼	5779
쇽	5780
쇾	5781
쇿	5782
숀	5783
숁	5784
숂	5785
숃	5786
숄	5787
숅	5788
숆	5789
숇	5790
숈	5791
숉	5792
숊	5793
숋	5794
숌	5795
숍	5796
숎	5797
숏	5798
숐	5799
숑	5800
숒	5801
숓	5802
숔	5803
숕	5804
숖	5805
숗	5806
수	5807
숙	5808
숚	5809
숛	5810
순	5811
숝	5812
숞	5813
숟	5814
술	5815
숡	5816
숢	5817
숣	5818
숤	5819
숥	5820
숦	5821
숧	5822
숨	5823
숩	5824
숪	5825
숫	5826
숬	5827
숭	5828
숮	5829
숯	5830
숰	5831
숱	5832
숲	5833
숳	5834
숴	5835
숵	5836
숶	5837
숷	5838
숸	5839
숹	5840
숺	5841
숻	5842
숼	5843
숽	5844
숾	5845
숿	5846
쉀	5847
쉁	5848
쉂	5849
쉃	5850
쉄	5851
쉅	5852
쉆	5853
쉇	5854
쉈	5855
쉉	5856
쉊	5857
쉋	5858
쉌	5859
쉍	5860
쉎	5861
쉏	5862
쉐	5863
쉑	5864
쉒	5865
쉓	5866
쉔	5867
쉕	5868
쉖	5869
쉗	5870
쉘	5871
쉙	5872
쉚	5873
쉛	5874
쉜	5875
쉝	5876
쉞	5877
쉟	5878
쉠	5879
쉡	5880
쉢	5881
쉣	5882
쉤	5883
쉥	5884
쉦	5885
쉧	5886
쉨	5887
쉩	5888
쉪	5889
쉫	5890
쉬	5891
쉭	5892
쉮	5893
쉯	5894
쉰	5895
쉱	5896
쉲	5897
쉳	5898
쉴	5899
쉵	5900
쉶	5901
쉷	5902
쉸	5903
쉹	5904
쉺	5905
쉻	5906
쉼	5907
쉽	5908
쉾	5909
쉿	5910
슀	5911
슁	5912
슂	5913
슃	5914
슄	5915
슅	5916
슆	5917
슇	5918
슈	5919
슉	5920
슊	5921
슋	5922
슌	5923
슍	5924
슎	5925
슏	5926
슐	5927
슑	5928
슒	5929
슓	5930
슔	5931
슕	5932
슖	5933
슗	5934
슘	5935
슙	5936
슚	5937
슛	5938
슜	5939
슝	5940
슞	5941
슟	5942
슠	5943
슡	5944
슢	5945
슣	5946
스	5947
슥	5948
슦	5949
슧	5950
슨	5951
슩	5952
슪	5953
슫	5954
슬	5955
슭	5956
슮	5957
슯	5958
슰	5959
슱	5960
슲	5961
슳	5962
슴	5963
습	5964
슶	5965
슷	5966
슸	5967
승	5968
슺	5969
슻	5970
슼	5971
슽	5972
슾	5973
슿	5974
싀	5975
싁	5976
싂	5977
싃	5978
싄	5979
싅	5980
싆	5981
싇	5982
싈	5983
싉	5984
싊	5985
싋	5986
싌	5987
싍	5988
싎	5989
싏	5990
싐	5991
싑	5992
싒	5993
싓	5994
싔	5995
싕	5996
싖	5997
싗	5998
싘	5999
싙	6000
싚	6001
싛	6002
시	6003
식	6004
싞	6005
싟	6006
신	6007
싡	6008
싢	6009
싣	6010
실	6011
싥	6012
싦	6013
싧	6014
싨	6015
싩	6016
싪	6017
싫	6018
심	6019
십	6020
싮	6021
싯	6022
싰	6023
싱	6024
싲	6025
싳	6026
싴	6027
싵	6028
싶	6029
싷	6030
싸	6031
싹	6032
싺	6033
싻	6034
싼	6035
싽	6036
싾	6037
싿	6038
쌀	6039
쌁	6040
쌂	6041
쌃	6042
쌄	6043
쌅	6044
쌆	6045
쌇	6046
쌈	6047
쌉	6048
쌊	6049
쌋	6050
쌌	6051
쌍	6052
쌎	6053
쌏	6054
쌐	6055
쌑	6056
쌒	6057
쌓	6058
쌔	6059
쌕	6060
쌖	6061
쌗	6062
쌘	6063
쌙	6064
쌚	6065
쌛	6066
쌜	6067
쌝	6068
쌞	6069
쌟	6070
쌠	6071
쌡	6072
쌢	6073
쌣	6074
쌤	6075
쌥	6076
쌦	6077
쌧	6078
쌨	6079
쌩	6080
쌪	6081
쌫	6082
쌬	6083
쌭	6084
쌮	6085
쌯	6086
쌰	6087
쌱	6088
쌲	6089
쌳	6090
쌴	6091
쌵	6092
쌶	6093
쌷	6094
쌸	6095
쌹	6096
쌺	6097
쌻	6098
쌼	6099
쌽	6100
쌾	6101
쌿	6102
썀	6103
썁	6104
썂	6105
썃	6106
썄	6107
썅	6108
썆	6109
썇	6110
썈	6111
썉	6112
썊	6113
썋	6114
썌	6115
썍	6116
썎	6117
썏	6118
썐	6119
썑	6120
썒	6121
썓	6122
썔	6123
썕	6124
썖	6125
썗	6126
썘	6127
썙	6128
썚	6129
썛	6130
썜	6131
썝	6132
썞	6133
썟	6134
썠	6135
썡	6136
썢	6137
썣	6138
썤	6139
썥	6140
썦	6141
썧	6142
써	6143
썩	6144
썪	6145
썫	6146
썬	6147
썭	6148
썮	6149
썯	6150
썰	6151
썱	6152
썲	6153
썳	6154
썴	6155
썵	6156
썶	6157
썷	6158
썸	6159
썹	6160
썺	6161
썻	6162
썼	6163
썽	6164
썾	6165
썿	6166
쎀	6167
쎁	6168
쎂	6169
쎃	6170
쎄	6171
쎅	6172
쎆	6173
쎇	6174
쎈	6175
쎉	6176
쎊	6177
쎋	6178
쎌	6179
쎍	6180
쎎	6181
쎏	6182
쎐	6183
쎑	6184
쎒	6185
쎓	6186
쎔	6187
쎕	6188
쎖	6189
쎗	6190
쎘	6191
쎙	6192
쎚	6193
쎛	6194
쎜	6195
쎝	6196
쎞	6197
쎟	6198
쎠	6199
쎡	6200
쎢	6201
쎣	6202
쎤	6203
쎥	6204
쎦	6205
쎧	6206
쎨	6207
쎩	6208
쎪	6209
쎫	6210
쎬	6211
쎭	6212
쎮	6213
쎯	6214
쎰	6215
쎱	6216
쎲	6217
쎳	6218
쎴	6219
쎵	6220
쎶	6221
쎷	6222
쎸	6223
쎹	6224
쎺	6225
쎻	6226
쎼	6227
쎽	6228
쎾	6229
쎿	6230
쏀	6231
쏁	6232
쏂	6233
쏃	6234
쏄	6235
쏅	6236
쏆	6237
쏇	6238
쏈	6239
쏉	6240
쏊	6241
쏋	6242
쏌	6243
쏍	6244
쏎	6245
쏏	6246
쏐	6247
쏑	6248
쏒	6249
쏓	6250
쏔	6251
쏕	6252
쏖	6253
쏗	6254
쏘	6255
쏙	6256
쏚	6257
쏛	6258
쏜	6259
쏝	6260
쏞	6261
쏟	6262
쏠	6263
쏡	6264
쏢	6265
쏣	6266
쏤	6267
쏥	6268
쏦	6269
쏧	6270
쏨	6271
쏩	6272
쏪	6273
쏫	6274
쏬	6275
쏭	6276
쏮	6277
쏯	6278
쏰	6279
쏱	6280
쏲	6281
쏳	6282
쏴	6283
쏵	6284
쏶	6285
쏷	6286
쏸	6287
쏹	6288
쏺	6289
쏻	6290
쏼	6291
쏽	6292
쏾	6293
쏿	6294
쐀	6295
쐁	6296
쐂	6297
쐃	6298
쐄	6299
쐅	6300
쐆	6301
쐇	6302
쐈	6303
쐉	6304
쐊	6305
쐋	6306
쐌	6307
쐍	6308
쐎	6309
쐏	6310
쐐	6311
쐑	6312
쐒	6313
쐓	6314
쐔	6315
쐕	6316
쐖	6317
쐗	6318
쐘	6319
쐙	6320
쐚	6321
쐛	6322
쐜	6323
쐝	6324
쐞	6325
쐟	6326
쐠	6327
쐡	6328
쐢	6329
쐣	6330
쐤	6331
쐥	6332
쐦	6333
쐧	6334
쐨	6335
쐩	6336
쐪	6337
쐫	6338
쐬	6339
쐭	6340
쐮	6341
쐯	6342
쐰	6343
쐱	6344
쐲	6345
쐳	6346
쐴	6347
쐵	6348
쐶	6349
쐷	6350
쐸	6351
쐹	6352
쐺	6353
쐻	6354
쐼	6355
쐽	6356
쐾	6357
쐿	6358
쑀	6359
쑁	6360
쑂	6361
쑃	6362
쑄	6363
쑅	6364
쑆	6365
쑇	6366
쑈	6367
쑉	6368
쑊	6369
쑋	6370
쑌	6371
쑍	6372
쑎	6373
쑏	6374
쑐	6375
쑑	6376
쑒	6377
쑓	6378
쑔	6379
쑕	6380
쑖	6381
쑗	6382
쑘	6383
쑙	6384
쑚	6385
쑛	6386
쑜	6387
쑝	6388
쑞	6389
쑟	6390
쑠	6391
쑡	6392
쑢	6393
쑣	6394
쑤	6395
쑥	6396
쑦	6397
쑧	6398
쑨	6399
쑩	6400
쑪	6401
쑫	6402
쑬	6403
쑭	6404
쑮	6405
쑯	6406
쑰	6407
쑱	6408
쑲	6409
쑳	6410
쑴	6411
쑵	6412
쑶	6413
쑷	6414
쑸	6415
쑹	6416
쑺	6417
쑻	6418
쑼	6419
쑽	6420
쑾	6421
쑿	6422
쒀	6423
쒁	6424
쒂	6425
쒃	6426
쒄	6427
쒅	6428
쒆	6429
쒇	6430
쒈	6431
쒉	6432
쒊	6433
쒋	6434
쒌	6435
쒍	6436
쒎	6437
쒏	6438
쒐	6439
쒑	6440
쒒	6441
쒓	6442
쒔	6443
쒕	6444
쒖	6445
쒗	6446
쒘	6447
쒙	6448
쒚	6449
쒛	6450
쒜	6451
쒝	6452
쒞	6453
쒟	6454
쒠	6455
쒡	6456
쒢	6457
쒣	6458
쒤	6459
쒥	6460
쒦	6461
쒧	6462
쒨	6463
쒩	6464
쒪	6465
쒫	6466
쒬	6467
쒭	6468
쒮	6469
쒯	6470
쒰	6471
쒱	6472
쒲	6473
쒳	6474
쒴	6475
쒵	6476
쒶	6477
쒷	6478
쒸	6479
쒹	6480
쒺	6481
쒻	6482
쒼	6483
쒽	6484
쒾	6485
쒿	6486
쓀	6487
쓁	6488
쓂	6489
쓃	6490
쓄	6491
쓅	6492
쓆	6493
쓇	6494
쓈	6495
쓉	6496
쓊	6497
쓋	6498
쓌	6499
쓍	6500
쓎	6501
쓏	6502
쓐	6503
쓑	6504
쓒	6505
쓓	6506
쓔	6507
쓕	6508
쓖	6509
쓗	6510
쓘	6511
쓙	6512
쓚	6513
쓛	6514
쓜	6515
쓝	6516
쓞	6517
쓟	6518
쓠	6519
쓡	6520
쓢	6521
쓣	6522
쓤	6523
쓥	6524
쓦	6525
쓧	6526
쓨	6527
쓩	6528
쓪	6529
쓫	6530
쓬	6531
쓭	6532
쓮	6533
쓯	6534
쓰	6535
쓱	6536
쓲	6537
쓳	6538
쓴	6539
쓵	6540
쓶	6541
쓷	6542
쓸	6543
쓹	6544
쓺	6545
쓻	6546
쓼	6547
쓽	6548
쓾	6549
쓿	6550
씀	6551
씁	6552
씂	6553
씃	6554
씄	6555
씅	6556
씆	6557
씇	6558
씈	6559
씉	6560
씊	6561
씋	6562
씌	6563
씍	6564
씎	6565
씏	6566
씐	6567
씑	6568
씒	6569
씓	6570
씔	6571
씕	6572
씖	6573
씗	6574
씘	6575
씙	6576
씚	6577
씛	6578
씜	6579
씝	6580
씞	6581
씟	6582
씠	6583
씡	6584
씢	6585
씣	6586
씤	6587
씥	6588
씦	6589
씧	6590
씨	6591
씩	6592
씪	6593
씫	6594
씬	6595
씭	6596
씮	6597
씯	6598
씰	6599
씱	6600
씲	6601
씳	6602
씴	6603
씵	6604
씶	6605
씷	6606
씸	6607
씹	6608
씺	6609
씻	6610
씼	6611
씽	6612
씾	6613
씿	6614
앀	6615
앁	6616
앂	6617
앃	6618
아	6619
악	6620
앆	6621
앇	6622
안	6623
앉	6624
않	6625
앋	6626
알	6627
앍	6628
앎	6629
앏	6630
앐	6631
앑	6632
앒	6633
앓	6634
암	6635
압	6636
앖	6637
앗	6638
았	6639
앙	6640
앚	6641
앛	6642
앜	6643
앝	6644
앞	6645
앟	6646
애	6647
액	6648
앢	6649
앣	6650
앤	6651
앥	6652
앦	6653
앧	6654
앨	6655
앩	6656
앪	6657
앫	6658
앬	6659
앭	6660
앮	6661
앯	6662
앰	6663
앱	6664
앲	6665
앳	6666
앴	6667
앵	6668
앶	6669
앷	6670
앸	6671
앹	6672
앺	6673
앻	6674
야	6675
약	6676
앾	6677
앿	6678
얀	6679
얁	6680
얂	6681
얃	6682
얄	6683
얅	6684
얆	6685
얇	6686
얈	6687
얉	6688
얊	6689
얋	6690
얌	6691
얍	6692
얎	6693
얏	6694
얐	6695
양	6696
얒	6697
얓	6698
얔	6699
얕	6700
얖	6701
얗	6702
얘	6703
얙	6704
얚	6705
얛	6706
얜	6707
얝	6708
얞	6709
얟	6710
얠	6711
얡	6712
얢	6713
얣	6714
얤	6715
얥	6716
얦	6717
얧	6718
얨	6719
얩	6720
얪	6721
얫	6722
얬	6723
얭	6724
얮	6725
얯	6726
얰	6727
얱	6728
얲	6729
얳	6730
어	6731
억	6732
얶	6733
얷	6734
언	6735
얹	6736
얺	6737
얻	6738
얼	6739
얽	6740
얾	6741
얿	6742
엀	6743
엁	6744
엂	6745
엃	6746
엄	6747
업	6748
없	6749
엇	6750
었	6751
엉	6752
엊	6753
엋	6754
엌	6755
엍	6756
엎	6757
엏	6758
에	6759
엑	6760
엒	6761
엓	6762
엔	6763
엕	6764
엖	6765
엗	6766
엘	6767
엙	6768
엚	6769
엛	6770
엜	6771
엝	6772
엞	6773
엟	6774
엠	6775
엡	6776
엢	6777
엣	6778
엤	6779
엥	6780
엦	6781
엧	6782
엨	6783
엩	6784
엪	6785
엫	6786
여	6787
역	6788
엮	6789
엯	6790
연	6791
엱	6792
엲	6793
엳	6794
열	6795
엵	6796
엶	6797
엷	6798
엸	6799
엹	6800
엺	6801
엻	6802
염	6803
엽	6804
엾	6805
엿	6806
였	6807
영	6808
옂	6809
옃	6810
옄	6811
옅	6812
옆	6813
옇	6814
예	6815
옉	6816
옊	6817
옋	6818
옌	6819
옍	6820
옎	6821
옏	6822
옐	6823
옑	6824
옒	6825
옓	6826
옔	6827
옕	6828
옖	6829
옗	6830
옘	6831
옙	6832
옚	6833
옛	6834
옜	6835
옝	6836
옞	6837
옟	6838
옠	6839
옡	6840
옢	6841
옣	6842
오	6843
옥	6844
옦	6845
옧	6846
온	6847
옩	6848
옪	6849
옫	6850
올	6851
옭	6852
옮	6853
옯	6854
옰	6855
옱	6856
옲	6857
옳	6858
옴	6859
옵	6860
옶	6861
옷	6862
옸	6863
옹	6864
옺	6865
옻	6866
옼	6867
옽	6868
옾	6869
옿	6870
와	6871
왁	6872
왂	6873
왃	6874
완	6875
왅	6876
왆	6877
왇	6878
왈	6879
왉	6880
왊	6881
왋	6882
왌	6883
왍	6884
왎	6885
왏	6886
왐	6887
왑	6888
왒	6889
왓	6890
왔	6891
왕	6892
왖	6893
왗	6894
왘	6895
왙	6896
왚	6897
왛	6898
왜	6899
왝	6900
왞	6901
왟	6902
왠	6903
왡	6904
왢	6905
왣	6906
왤	6907
왥	6908
왦	6909
왧	6910
왨	6911
왩	6912
왪	6913
왫	6914
왬	6915
왭	6916
왮	6917
왯	6918
왰	6919
왱	6920
왲	6921
왳	6922
왴	6923
왵	6924
왶	6925
왷	6926
외	6927
왹	6928
왺	6929
왻	6930
왼	6931
왽	6932
왾	6933
왿	6934
욀	6935
욁	6936
욂	6937
욃	6938
욄	6939
욅	6940
욆	6941
욇	6942
욈	6943
욉	6944
욊	6945
욋	6946
욌	6947
욍	6948
욎	6949
욏	6950
욐	6951
욑	6952
욒	6953
욓	6954
요	6955
욕	6956
욖	6957
욗	6958
욘	6959
욙	6960
욚	6961
욛	6962
욜	6963
욝	6964
욞	6965
욟	6966
욠	6967
욡	6968
욢	6969
욣	6970
욤	6971
욥	6972
욦	6973
욧	6974
욨	6975
용	6976
욪	6977
욫	6978
욬	6979
욭	6980
욮	6981
욯	6982
우	6983
욱	6984
욲	6985
욳	6986
운	6987
욵	6988
욶	6989
욷	6990
울	6991
욹	6992
욺	6993
욻	6994
욼	6995
욽	6996
욾	6997
욿	6998
움	6999
웁	7000
웂	7001
웃	7002
웄	7003
웅	7004
웆	7005
웇	7006
웈	7007
웉	7008
웊	7009
웋	7010
워	7011
웍	7012
웎	7013
웏	7014
원	7015
웑	7016
웒	7017
웓	7018
월	7019
웕	7020
웖	7021
웗	7022
웘	7023
웙	7024
웚	7025
웛	7026
웜	7027
웝	7028
웞	7029
웟	7030
웠	7031
웡	7032
웢	7033
웣	7034
웤	7035
웥	7036
웦	7037
웧	7038
웨	7039
웩	7040
웪	7041
웫	7042
웬	7043
웭	7044
웮	7045
웯	7046
웰	7047
웱	7048
웲	7049
웳	7050
웴	7051
웵	7052
웶	7053
웷	7054
웸	7055
웹	7056
웺	7057
웻	7058
웼	7059
웽	7060
웾	7061
웿	7062
윀	7063
윁	7064
윂	7065
윃	7066
위	7067
윅	7068
윆	7069
윇	7070
윈	7071
윉	7072
윊	7073
윋	7074
윌	7075
윍	7076
윎	7077
윏	7078
윐	7079
윑	7080
윒	7081
윓	7082
윔	7083
윕	7084
윖	7085
윗	7086
윘	7087
윙	7088
윚	7089
윛	7090
윜	7091
윝	7092
윞	7093
윟	7094
유	7095
육	7096
윢	7097
윣	7098
윤	7099
윥	7100
윦	7101
윧	7102
율	7103
윩	7104
윪	7105
윫	7106
윬	7107
윭	7108
윮	7109
윯	7110
윰	7111
윱	7112
윲	7113
윳	7114
윴	7115
융	7116
윶	7117
윷	7118
윸	7119
윹	7120
윺	7121
윻	7122
으	7123
윽	7124
윾	7125
윿	7126
은	7127
읁	7128
읂	7129
읃	7130
을	7131
읅	7132
읆	7133
읇	7134
읈	7135
읉	7136
읊	7137
읋	7138
음	7139
읍	7140
읎	7141
읏	7142
읐	7143
응	7144
읒	7145
읓	7146
읔	7147
읕	7148
읖	7149
읗	7150
의	7151
읙	7152
읚	7153
읛	7154
읜	7155
읝	7156
읞	7157
읟	7158
읠	7159
읡	7160
읢	7161
읣	7162
읤	7163
읥	7164
읦	7165
읧	7166
읨	7167
읩	7168
읪	7169
읫	7170
읬	7171
읭	7172
읮	7173
읯	7174
읰	7175
읱	7176
읲	7177
읳	7178
이	7179
익	7180
읶	7181
읷	7182
인	7183
읹	7184
읺	7185
읻	7186
일	7187
읽	7188
읾	7189
읿	7190
잀	7191
잁	7192
잂	7193
잃	7194
임	7195
입	7196
잆	7197
잇	7198
있	7199
잉	7200
잊	7201
잋	7202
잌	7203
잍	7204
잎	7205
잏	7206
자	7207
작	7208
잒	7209
잓	7210
잔	7211
잕	7212
잖	7213
잗	7214
잘	7215
잙	7216
잚	7217
잛	7218
잜	7219
잝	7220
잞	7221
잟	7222
잠	7223
잡	7224
잢	7225
잣	7226
잤	7227
장	7228
잦	7229
잧	7230
잨	7231
잩	7232
잪	7233
잫	7234
재	7235
잭	7236
잮	7237
잯	7238
잰	7239
잱	7240
잲	7241
잳	7242
잴	7243
잵	7244
잶	7245
잷	7246
잸	7247
잹	7248
잺	7249
잻	7250
잼	7251
잽	7252
잾	7253
잿	7254
쟀	7255
쟁	7256
쟂	7257
쟃	7258
쟄	7259
쟅	7260
쟆	7261
쟇	7262
쟈	7263
쟉	7264
쟊	7265
쟋	7266
쟌	7267
쟍	7268
쟎	7269
쟏	7270
쟐	7271
쟑	7272
쟒	7273
쟓	7274
쟔	7275
쟕	7276
쟖	7277
쟗	7278
쟘	7279
쟙	7280
쟚	7281
쟛	7282
쟜	7283
쟝	7284
쟞	7285
쟟	7286
쟠	7287
쟡	7288
쟢	7289
쟣	7290
쟤	7291
쟥	7292
쟦	7293
쟧	7294
쟨	7295
쟩	7296
쟪	7297
쟫	7298
쟬	7299
쟭	7300
쟮	7301
쟯	7302
쟰	7303
쟱	7304
쟲	7305
쟳	7306
쟴	7307
쟵	7308
쟶	7309
쟷	7310
쟸	7311
쟹	7312
쟺	7313
쟻	7314
쟼	7315
쟽	7316
쟾	7317
쟿	7318
저	7319
적	7320
젂	7321
젃	7322
전	7323
젅	7324
젆	7325
젇	7326
절	7327
젉	7328
젊	7329
젋	7330
젌	7331
젍	7332
젎	7333
젏	7334
점	7335
접	7336
젒	7337
젓	7338
젔	7339
정	7340
젖	7341
젗	7342
젘	7343
젙	7344
젚	7345
젛	7346
제	7347
젝	7348
젞	7349
젟	7350
젠	7351
젡	7352
젢	7353
젣	7354
젤	7355
젥	7356
젦	7357
젧	7358
젨	7359
젩	7360
젪	7361
젫	7362
젬	7363
젭	7364
젮	7365
젯	7366
젰	7367
젱	7368
젲	7369
젳	7370
젴	7371
젵	7372
젶	7373
젷	7374
져	7375
젹	7376
젺	7377
젻	7378
젼	7379
젽	7380
젾	7381
젿	7382
졀	7383
졁	7384
졂	7385
졃	7386
졄	7387
졅	7388
졆	7389
졇	7390
졈	7391
졉	7392
졊	7393
졋	7394
졌	7395
졍	7396
졎	7397
졏	7398
졐	7399
졑	7400
졒	7401
졓	7402
졔	7403
졕	7404
졖	7405
졗	7406
졘	7407
졙	7408
졚	7409
졛	7410
졜	7411
졝	7412
졞	7413
졟	7414
졠	7415
졡	7416
졢	7417
졣	7418
졤	7419
졥	7420
졦	7421
졧	7422
졨	7423
졩	7424
졪	7425
졫	7426
졬	7427
졭	7428
졮	7429
졯	7430
조	7431
족	7432
졲	7433
졳	7434
존	7435
졵	7436
졶	7437
졷	7438
졸	7439
졹	7440
졺	7441
졻	7442
졼	7443
졽	7444
졾	7445
졿	7446
좀	7447
좁	7448
좂	7449
좃	7450
좄	7451
종	7452
좆	7453
좇	7454
좈	7455
좉	7456
좊	7457
좋	7458
좌	7459
좍	7460
좎	7461
좏	7462
좐	7463
좑	7464
좒	7465
좓	7466
좔	7467
좕	7468
좖	7469
좗	7470
좘	7471
좙	7472
좚	7473
좛	7474
좜	7475
좝	7476
좞	7477
좟	7478
좠	7479
좡	7480
좢	7481
좣	7482
좤	7483
좥	7484
좦	7485
좧	7486
좨	7487
좩	7488
좪	7489
좫	7490
좬	7491
좭	7492
좮	7493
좯	7494
좰	7495
좱	7496
좲	7497
좳	7498
좴	7499
좵	7500
좶	7501
좷	7502
좸	7503
좹	7504
좺	7505
좻	7506
좼	7507
좽	7508
좾	7509
좿	7510
죀	7511
죁	7512
죂	7513
죃	7514
죄	7515
죅	7516
죆	7517
죇	7518
죈	7519
죉	7520
죊	7521
죋	7522
죌	7523
죍	7524
죎	7525
죏	7526
죐	7527
죑	7528
죒	7529
죓	7530
죔	7531
죕	7532
죖	7533
죗	7534
죘	7535
죙	7536
죚	7537
죛	7538
죜	7539
죝	7540
죞	7541
죟	7542
죠	7543
죡	7544
죢	7545
죣	7546
죤	7547
죥	7548
죦	7549
죧	7550
죨	7551
죩	7552
죪	7553
죫	7554
죬	7555
죭	7556
죮	7557
죯	7558
죰	7559
죱	7560
죲	7561
죳	7562
죴	7563
죵	7564
죶	7565
죷	7566
죸	7567
죹	7568
죺	7569
죻	7570
주	7571
죽	7572
죾	7573
죿	7574
준	7575
줁	7576
줂	7577
줃	7578
줄	7579
줅	7580
줆	7581
줇	7582
줈	7583
줉	7584
줊	7585
줋	7586
줌	7587
줍	7588
줎	7589
줏	7590
줐	7591
중	7592
줒	7593
줓	7594
줔	7595
줕	7596
줖	7597
줗	7598
줘	7599
줙	7600
줚	7601
줛	7602
줜	7603
줝	7604
줞	7605
줟	7606
줠	7607
줡	7608
줢	7609
줣	7610
줤	7611
줥	7612
줦	7613
줧	7614
줨	7615
줩	7616
줪	7617
줫	7618
줬	7619
줭	7620
줮	7621
줯	7622
줰	7623
줱	7624
줲	7625
줳	7626
줴	7627
줵	7628
줶	7629
줷	7630
줸	7631
줹	7632
줺	7633
줻	7634
줼	7635
줽	7636
줾	7637
줿	7638
쥀	7639
쥁	7640
쥂	7641
쥃	7642
쥄	7643
쥅	7644
쥆	7645
쥇	7646
쥈	7647
쥉	7648
쥊	7649
쥋	7650
쥌	7651
쥍	7652
쥎	7653
쥏	7654
쥐	7655
쥑	7656
쥒	7657
쥓	7658
쥔	7659
쥕	7660
쥖	7661
쥗	7662
쥘	7663
쥙	7664
쥚	7665
쥛	7666
쥜	7667
쥝	7668
쥞	7669
쥟	7670
쥠	7671
쥡	7672
쥢	7673
쥣	7674
쥤	7675
쥥	7676
쥦	7677
쥧	7678
쥨	7679
쥩	7680
쥪	7681
쥫	7682
쥬	7683
쥭	7684
쥮	7685
쥯	7686
쥰	7687
쥱	7688
쥲	7689
쥳	7690
쥴	7691
쥵	7692
쥶	7693
쥷	7694
쥸	7695
쥹	7696
쥺	7697
쥻	7698
쥼	7699
쥽	7700
쥾	7701
쥿	7702
즀	7703
즁	7704
즂	7705
즃	7706
즄	7707
즅	7708
즆	7709
즇	7710
즈	7711
즉	7712
즊	7713
즋	7714
즌	7715
즍	7716
즎	7717
즏	7718
즐	7719
즑	7720
즒	7721
즓	7722
즔	7723
즕	7724
즖	7725
즗	7726
즘	7727
즙	7728
즚	7729
즛	7730
즜	7731
증	7732
즞	7733
즟	7734
즠	7735
즡	7736
즢	7737
즣	7738
즤	7739
즥	7740
즦	7741
즧	7742
즨	7743
즩	7744
즪	7745
즫	7746
즬	7747
즭	7748
즮	7749
즯	7750
즰	7751
즱	7752
즲	7753
즳	7754
즴	7755
즵	7756
즶	7757
즷	7758
즸	7759
즹	7760
즺	7761
즻	7762
즼	7763
즽	7764
즾	7765
즿	7766
지	7767
직	7768
짂	7769
짃	7770
진	7771
짅	7772
짆	7773
짇	7774
질	7775
짉	7776
짊	7777
짋	7778
짌	7779
짍	7780
짎	7781
짏	7782
짐	7783
집	7784
짒	7785
짓	7786
짔	7787
징	7788
짖	7789
짗	7790
짘	7791
짙	7792
짚	7793
짛	7794
짜	7795
짝	7796
짞	7797
짟	7798
짠	7799
짡	7800
짢	7801
짣	7802
짤	7803
짥	7804
짦	7805
짧	7806
짨	7807
짩	7808
짪	7809
짫	7810
짬	7811
짭	7812
짮	7813
짯	7814
짰	7815
짱	7816
짲	7817
짳	7818
짴	7819
짵	7820
짶	7821
짷	7822
째	7823
짹	7824
짺	7825
짻	7826
짼	7827
짽	7828
짾	7829
짿	7830
쨀	7831
쨁	7832
쨂	7833
쨃	7834
쨄	7835
쨅	7836
쨆	7837
쨇	7838
쨈	7839
쨉	7840
쨊	7841
쨋	7842
쨌	7843
쨍	7844
쨎	7845
쨏	7846
쨐	7847
쨑	7848
쨒	7849
쨓	7850
쨔	7851
쨕	7852
쨖	7853
쨗	7854
쨘	7855
쨙	7856
쨚	7857
쨛	7858
쨜	7859
쨝	7860
쨞	7861
쨟	7862
쨠	7863
쨡	7864
쨢	7865
쨣	7866
쨤	7867
쨥	7868
쨦	7869
쨧	7870
쨨	7871
쨩	7872
쨪	7873
쨫	7874
쨬	7875
쨭	7876
쨮	7877
쨯	7878
쨰	7879
쨱	7880
쨲	7881
쨳	7882
쨴	7883
쨵	7884
쨶	7885
쨷	7886
쨸	7887
쨹	7888
쨺	7889
쨻	7890
쨼	7891
쨽	7892
쨾	7893
쨿	7894
쩀	7895
쩁	7896
쩂	7897
쩃	7898
쩄	7899
쩅	7900
쩆	7901
쩇	7902
쩈	7903
쩉	7904
쩊	7905
쩋	7906
쩌	7907
쩍	7908
쩎	7909
쩏	7910
쩐	7911
쩑	7912
쩒	7913
쩓	7914
쩔	7915
쩕	7916
쩖	7917
쩗	7918
쩘	7919
쩙	7920
쩚	7921
쩛	7922
쩜	7923
쩝	7924
쩞	7925
쩟	7926
쩠	7927
쩡	7928
쩢	7929
쩣	7930
쩤	7931
쩥	7932
쩦	7933
쩧	7934
쩨	7935
쩩	7936
쩪	7937
쩫	7938
쩬	7939
쩭	7940
쩮	7941
쩯	7942
쩰	7943
쩱	7944
쩲	7945
쩳	7946
쩴	7947
쩵	7948
쩶	7949
쩷	7950
쩸	7951
쩹	7952
쩺	7953
쩻	7954
쩼	7955
쩽	7956
쩾	7957
쩿	7958
쪀	7959
쪁	7960
쪂	7961
쪃	7962
쪄	7963
쪅	7964
쪆	7965
쪇	7966
쪈	7967
쪉	7968
쪊	7969
쪋	7970
쪌	7971
쪍	7972
쪎	7973
쪏	7974
쪐	7975
쪑	7976
쪒	7977
쪓	7978
쪔	7979
쪕	7980
쪖	7981
쪗	7982
쪘	7983
쪙	7984
쪚	7985
쪛	7986
쪜	7987
쪝	7988
쪞	7989
쪟	7990
쪠	7991
쪡	7992
쪢	7993
쪣	7994
쪤	7995
쪥	7996
쪦	7997
쪧	7998
쪨	7999
쪩	8000
쪪	8001
쪫	8002
쪬	8003
쪭	8004
쪮	8005
쪯	8006
쪰	8007
쪱	8008
쪲	8009
쪳	8010
쪴	8011
쪵	8012
쪶	8013
쪷	8014
쪸	8015
쪹	8016
쪺	8017
쪻	8018
쪼	8019
쪽	8020
쪾	8021
쪿	8022
쫀	8023
쫁	8024
쫂	8025
쫃	8026
쫄	8027
쫅	8028
쫆	8029
쫇	8030
쫈	8031
쫉	8032
쫊	8033
쫋	8034
쫌	8035
쫍	8036
쫎	8037
쫏	8038
쫐	8039
쫑	8040
쫒	8041
쫓	8042
쫔	8043
쫕	8044
쫖	8045
쫗	8046
쫘	8047
쫙	8048
쫚	8049
쫛	8050
쫜	8051
쫝	8052
쫞	8053
쫟	8054
쫠	8055
쫡	8056
쫢	8057
쫣	8058
쫤	8059
쫥	8060
쫦	8061
쫧	8062
쫨	8063
쫩	8064
쫪	8065
쫫	8066
쫬	8067
쫭	8068
쫮	8069
쫯	8070
쫰	8071
쫱	8072
쫲	8073
쫳	8074
쫴	8075
쫵	8076
쫶	8077
쫷	8078
쫸	8079
쫹	8080
쫺	8081
쫻	8082
쫼	8083
쫽	8084
쫾	8085
쫿	8086
쬀	8087
쬁	8088
쬂	8089
쬃	8090
쬄	8091
쬅	8092
쬆	8093
쬇	8094
쬈	8095
쬉	8096
쬊	8097
쬋	8098
쬌	8099
쬍	8100
쬎	8101
쬏	8102
쬐	8103
쬑	8104
쬒	8105
쬓	8106
쬔	8107
쬕	8108
쬖	8109
쬗	8110
쬘	8111
쬙	8112
쬚	8113
쬛	8114
쬜	8115
쬝	8116
쬞	8117
쬟	8118
쬠	8119
쬡	8120
쬢	8121
쬣	8122
쬤	8123
쬥	8124
쬦	8125
쬧	8126
쬨	8127
쬩	8128
쬪	8129
쬫	8130
쬬	8131
쬭	8132
쬮	8133
쬯	8134
쬰	8135
쬱	8136
쬲	8137
쬳	8138
쬴	8139
쬵	8140
쬶	8141
쬷	8142
쬸	8143
쬹	8144
쬺	8145
쬻	8146
쬼	8147
쬽	8148
쬾	8149
쬿	8150
쭀	8151
쭁	8152
쭂	8153
쭃	8154
쭄	8155
쭅	8156
쭆	8157
쭇	8158
쭈	8159
쭉	8160
쭊	8161
쭋	8162
쭌	8163
쭍	8164
쭎	8165
쭏	8166
쭐	8167
쭑	8168
쭒	8169
쭓	8170
쭔	8171
쭕	8172
쭖	8173
쭗	8174
쭘	8175
쭙	8176
쭚	8177
쭛	8178
쭜	8179
쭝	8180
쭞	8181
쭟	8182
쭠	8183
쭡	8184
쭢	8185
쭣	8186
쭤	8187
쭥	8188
쭦	8189
쭧	8190
쭨	8191
쭩	8192
쭪	8193
쭫	8194
쭬	8195
쭭	8196
쭮	8197
쭯	8198
쭰	8199
쭱	8200
쭲	8201
쭳	8202
쭴	8203
쭵	8204
쭶	8205
쭷	8206
쭸	8207
쭹	8208
쭺	8209
쭻	8210
쭼	8211
쭽	8212
쭾	8213
쭿	8214
쮀	8215
쮁	8216
쮂	8217
쮃	8218
쮄	8219
쮅	8220
쮆	8221
쮇	8222
쮈	8223
쮉	8224
쮊	8225
쮋	8226
쮌	8227
쮍	8228
쮎	8229
쮏	8230
쮐	8231
쮑	8232
쮒	8233
쮓	8234
쮔	8235
쮕	8236
쮖	8237
쮗	8238
쮘	8239
쮙	8240
쮚	8241
쮛	8242
쮜	8243
쮝	8244
쮞	8245
쮟	8246
쮠	8247
쮡	8248
쮢	8249
쮣	8250
쮤	8251
쮥	8252
쮦	8253
쮧	8254
쮨	8255
쮩	8256
쮪	8257
쮫	8258
쮬	8259
쮭	8260
쮮	8261
쮯	8262
쮰	8263
쮱	8264
쮲	8265
쮳	8266
쮴	8267
쮵	8268
쮶	8269
쮷	8270
쮸	8271
쮹	8272
쮺	8273
쮻	8274
쮼	8275
쮽	8276
쮾	8277
쮿	8278
쯀	8279
쯁	8280
쯂	8281
쯃	8282
쯄	8283
쯅	8284
쯆	8285
쯇	8286
쯈	8287
쯉	8288
쯊	8289
쯋	8290
쯌	8291
쯍	8292
쯎	8293
쯏	8294
쯐	8295
쯑	8296
쯒	8297
쯓	8298
쯔	8299
쯕	8300
쯖	8301
쯗	8302
쯘	8303
쯙	8304
쯚	8305
쯛	8306
쯜	8307
쯝	8308
쯞	8309
쯟	8310
쯠	8311
쯡	8312
쯢	8313
쯣	8314
쯤	8315
쯥	8316
쯦	8317
쯧	8318
쯨	8319
쯩	8320
쯪	8321
쯫	8322
쯬	8323
쯭	8324
쯮	8325
쯯	8326
쯰	8327
쯱	8328
쯲	8329
쯳	8330
쯴	8331
쯵	8332
쯶	8333
쯷	8334
쯸	8335
쯹	8336
쯺	8337
쯻	8338
쯼	8339
쯽	8340
쯾	8341
쯿	8342
찀	8343
찁	8344
찂	8345
찃	8346
찄	8347
찅	8348
찆	8349
찇	8350
찈	8351
찉	8352
찊	8353
찋	8354
찌	8355
찍	8356
찎	8357
찏	8358
찐	8359
찑	8360
찒	8361
찓	8362
찔	8363
찕	8364
찖	8365
찗	8366
찘	8367
찙	8368
찚	8369
찛	8370
찜	8371
찝	8372
찞	8373
찟	8374
찠	8375
찡	8376
찢	8377
찣	8378
찤	8379
찥	8380
찦	8381
찧	8382
차	8383
착	8384
찪	8385
찫	8386
찬	8387
찭	8388
찮	8389
찯	8390
찰	8391
찱	8392
찲	8393
찳	8394
찴	8395
찵	8396
찶	8397
찷	8398
참	8399
찹	8400
찺	8401
찻	8402
찼	8403
창	8404
찾	8405
찿	8406
챀	8407
챁	8408
챂	8409
챃	8410
채	8411
책	8412
챆	8413
챇	8414
챈	8415
챉	8416
챊	8417
챋	8418
챌	8419
챍	8420
챎	8421
챏	8422
챐	8423
챑	8424
챒	8425
챓	8426
챔	8427
챕	8428
챖	8429
챗	8430
챘	8431
챙	8432
챚	8433
챛	8434
챜	8435
챝	8436
챞	8437
챟	8438
챠	8439
챡	8440
챢	8441
챣	8442
챤	8443
챥	8444
챦	8445
챧	8446
챨	8447
챩	8448
챪	8449
챫	8450
챬	8451
챭	8452
챮	8453
챯	8454
챰	8455
챱	8456
챲	8457
챳	8458
챴	8459
챵	8460
챶	8461
챷	8462
챸	8463
챹	8464
챺	8465
챻	8466
챼	8467
챽	8468
챾	8469
챿	8470
첀	8471
첁	8472
첂	8473
첃	8474
첄	8475
첅	8476
첆	8477
첇	8478
첈	8479
첉	8480
첊	8481
첋	8482
첌	8483
첍	8484
첎	8485
첏	8486
첐	8487
첑	8488
첒	8489
첓	8490
첔	8491
첕	8492
첖	8493
첗	8494
처	8495
척	8496
첚	8497
첛	8498
천	8499
첝	8500
첞	8501
첟	8502
철	8503
첡	8504
첢	8505
첣	8506
첤	8507
첥	8508
첦	8509
첧	8510
첨	8511
첩	8512
첪	8513
첫	8514
첬	8515
청	8516
첮	8517
첯	8518
첰	8519
첱	8520
첲	8521
첳	8522
체	8523
첵	8524
첶	8525
첷	8526
첸	8527
첹	8528
첺	8529
첻	8530
첼	8531
첽	8532
첾	8533
첿	8534
쳀	8535
쳁	8536
쳂	8537
쳃	8538
쳄	8539
쳅	8540
쳆	8541
쳇	8542
쳈	8543
쳉	8544
쳊	8545
쳋	8546
쳌	8547
쳍	8548
쳎	8549
쳏	8550
쳐	8551
쳑	8552
쳒	8553
쳓	8554
쳔	8555
쳕	8556
쳖	8557
쳗	8558
쳘	8559
쳙	8560
쳚	8561
쳛	8562
쳜	8563
쳝	8564
쳞	8565
쳟	8566
쳠	8567
쳡	8568
쳢	8569
쳣	8570
쳤	8571
쳥	8572
쳦	8573
쳧	8574
쳨	8575
쳩	8576
쳪	8577
쳫	8578
쳬	8579
쳭	8580
쳮	8581
쳯	8582
쳰	8583
쳱	8584
쳲	8585
쳳	8586
쳴	8587
쳵	8588
쳶	8589
쳷	8590
쳸	8591
쳹	8592
쳺	8593
쳻	8594
쳼	8595
쳽	8596
쳾	8597
쳿	8598
촀	8599
촁	8600
촂	8601
촃	8602
촄	8603
촅	8604
촆	8605
촇	8606
초	8607
촉	8608
촊	8609
촋	8610
촌	8611
촍	8612
촎	8613
촏	8614
촐	8615
촑	8616
촒	8617
촓	8618
촔	8619
촕	8620
촖	8621
촗	8622
촘	8623
촙	8624
촚	8625
촛	8626
촜	8627
총	8628
촞	8629
촟	8630
촠	8631
촡	8632
촢	8633
촣	8634
촤	8635
촥	8636
촦	8637
촧	8638
촨	8639
촩	8640
촪	8641
촫	8642
촬	8643
촭	8644
촮	8645
촯	8646
촰	8647
촱	8648
촲	8649
촳	8650
촴	8651
촵	8652
촶	8653
촷	8654
촸	8655
촹	8656
촺	8657
촻	8658
촼	8659
촽	8660
촾	8661
촿	8662
쵀	8663
쵁	8664
쵂	8665
쵃	8666
쵄	8667
쵅	8668
쵆	8669
쵇	8670
쵈	8671
쵉	8672
쵊	8673
쵋	8674
쵌	8675
쵍	8676
쵎	8677
쵏	8678
쵐	8679
쵑	8680
쵒	8681
쵓	8682
쵔	8683
쵕	8684
쵖	8685
쵗	8686
쵘	8687
쵙	8688
쵚	8689
쵛	8690
최	8691
쵝	8692
쵞	8693
쵟	8694
쵠	8695
쵡	8696
쵢	8697
쵣	8698
쵤	8699
쵥	8700
쵦	8701
쵧	8702
쵨	8703
쵩	8704
쵪	8705
쵫	8706
쵬	8707
쵭	8708
쵮	8709
쵯	8710
쵰	8711
쵱	8712
쵲	8713
쵳	8714
쵴	8715
쵵	8716
쵶	8717
쵷	8718
쵸	8719
쵹	8720
쵺	8721
쵻	8722
쵼	8723
쵽	8724
쵾	8725
쵿	8726
춀	8727
춁	8728
춂	8729
춃	8730
춄	8731
춅	8732
춆	8733
춇	8734
춈	8735
춉	8736
춊	8737
춋	8738
춌	8739
춍	8740
춎	8741
춏	8742
춐	8743
춑	8744
춒	8745
춓	8746
추	8747
축	8748
춖	8749
춗	8750
춘	8751
춙	8752
춚	8753
춛	8754
출	8755
춝	8756
춞	8757
춟	8758
춠	8759
춡	8760
춢	8761
춣	8762
춤	8763
춥	8764
춦	8765
춧	8766
춨	8767
충	8768
춪	8769
춫	8770
춬	8771
춭	8772
춮	8773
춯	8774
춰	8775
춱	8776
춲	8777
춳	8778
춴	8779
춵	8780
춶	8781
춷	8782
춸	8783
춹	8784
춺	8785
춻	8786
춼	8787
춽	8788
춾	8789
춿	8790
췀	8791
췁	8792
췂	8793
췃	8794
췄	8795
췅	8796
췆	8797
췇	8798
췈	8799
췉	8800
췊	8801
췋	8802
췌	8803
췍	8804
췎	8805
췏	8806
췐	8807
췑	8808
췒	8809
췓	8810
췔	8811
췕	8812
췖	8813
췗	8814
췘	8815
췙	8816
췚	8817
췛	8818
췜	8819
췝	8820
췞	8821
췟	8822
췠	8823
췡	8824
췢	8825
췣	8826
췤	8827
췥	8828
췦	8829
췧	8830
취	8831
췩	8832
췪	8833
췫	8834
췬	8835
췭	8836
췮	8837
췯	8838
췰	8839
췱	8840
췲	8841
췳	8842
췴	8843
췵	8844
췶	8845
췷	8846
췸	8847
췹	8848
췺	8849
췻	8850
췼	8851
췽	8852
췾	8853
췿	8854
츀	8855
츁	8856
츂	8857
츃	8858
츄	8859
츅	8860
츆	8861
츇	8862
츈	8863
츉	8864
츊	8865
츋	8866
츌	8867
츍	8868
츎	8869
츏	8870
츐	8871
츑	8872
츒	8873
츓	8874
츔	8875
츕	8876
츖	8877
츗	8878
츘	8879
츙	8880
츚	8881
츛	8882
츜	8883
츝	8884
츞	8885
츟	8886
츠	8887
측	8888
츢	8889
츣	8890
츤	8891
츥	8892
츦	8893
츧	8894
츨	8895
츩	8896
츪	8897
츫	8898
츬	8899
츭	8900
츮	8901
츯	8902
츰	8903
츱	8904
츲	8905
츳	8906
츴	8907
층	8908
츶	8909
츷	8910
츸	8911
츹	8912
츺	8913
츻	8914
츼	8915
츽	8916
츾	8917
츿	8918
칀	8919
칁	8920
칂	8921
칃	8922
칄	8923
칅	8924
칆	8925
칇	8926
칈	8927
칉	8928
칊	8929
칋	8930
칌	8931
칍	8932
칎	8933
칏	8934
칐	8935
칑	8936
칒	8937
칓	8938
칔	8939
칕	8940
칖	8941
칗	8942
치	8943
칙	8944
칚	8945
칛	8946
친	8947
칝	8948
칞	8949
칟	8950
칠	8951
칡	8952
칢	8953
칣	8954
칤	8955
칥	8956
칦	8957
칧	8958
침	8959
칩	8960
칪	8961
칫	8962
칬	8963
칭	8964
칮	8965
칯	8966
칰	8967
칱	8968
칲	8969
칳	8970
카	8971
칵	8972
칶	8973
칷	8974
칸	8975
칹	8976
칺	8977
칻	8978
칼	8979
칽	8980
칾	8981
칿	8982
캀	8983
캁	8984
캂	8985
캃	8986
캄	8987
캅	8988
캆	8989
캇	8990
캈	8991
캉	8992
캊	8993
캋	8994
캌	8995
캍	8996
캎	8997
캏	8998
캐	8999
캑	9000
캒	9001
캓	9002
캔	9003
캕	9004
캖	9005
캗	9006
캘	9007
캙	9008
캚	9009
캛	9010
캜	9011
캝	9012
캞	9013
캟	9014
캠	9015
캡	9016
캢	9017
캣	9018
캤	9019
캥	9020
캦	9021
캧	9022
캨	9023
캩	9024
캪	9025
캫	9026
캬	9027
캭	9028
캮	9029
캯	9030
캰	9031
캱	9032
캲	9033
캳	9034
캴	9035
캵	9036
캶	9037
캷	9038
캸	9039
캹	9040
캺	9041
캻	9042
캼	9043
캽	9044
캾	9045
캿	9046
컀	9047
컁	9048
컂	9049
컃	9050
컄	9051
컅	9052
컆	9053
컇	9054
컈	9055
컉	9056
컊	9057
컋	9058
컌	9059
컍	9060
컎	9061
컏	9062
컐	9063
컑	9064
컒	9065
컓	9066
컔	9067
컕	9068
컖	9069
컗	9070
컘	9071
컙	9072
컚	9073
컛	9074
컜	9075
컝	9076
컞	9077
컟	9078
컠	9079
컡	9080
컢	9081
컣	9082
커	9083
컥	9084
컦	9085
컧	9086
컨	9087
컩	9088
컪	9089
컫	9090
컬	9091
컭	9092
컮	9093
컯	9094
컰	9095
컱	9096
컲	9097
컳	9098
컴	9099
컵	9100
컶	9101
컷	9102
컸	9103
컹	9104
컺	9105
컻	9106
컼	9107
컽	9108
컾	9109
컿	9110
케	9111
켁	9112
켂	9113
켃	9114
켄	9115
켅	9116
켆	9117
켇	9118
켈	9119
켉	9120
켊	9121
켋	9122
켌	9123
켍	9124
켎	9125
켏	9126
켐	9127
켑	9128
켒	9129
켓	9130
켔	9131
켕	9132
켖	9133
켗	9134
켘	9135
켙	9136
켚	9137
켛	9138
켜	9139
켝	9140
켞	9141
켟	9142
켠	9143
켡	9144
켢	9145
켣	9146
켤	9147
켥	9148
켦	9149
켧	9150
켨	9151
켩	9152
켪	9153
켫	9154
켬	9155
켭	9156
켮	9157
켯	9158
켰	9159
켱	9160
켲	9161
켳	9162
켴	9163
켵	9164
켶	9165
켷	9166
켸	9167
켹	9168
켺	9169
켻	9170
켼	9171
켽	9172
켾	9173
켿	9174
콀	9175
콁	9176
콂	9177
콃	9178
콄	9179
콅	9180
콆	9181
콇	9182
콈	9183
콉	9184
콊	9185
콋	9186
콌	9187
콍	9188
콎	9189
콏	9190
콐	9191
콑	9192
콒	9193
콓	9194
코	9195
콕	9196
콖	9197
콗	9198
콘	9199
콙	9200
콚	9201
콛	9202
콜	9203
콝	9204
콞	9205
콟	9206
콠	9207
콡	9208
콢	9209
콣	9210
콤	9211
콥	9212
콦	9213
콧	9214
콨	9215
콩	9216
콪	9217
콫	9218
콬	9219
콭	9220
콮	9221
콯	9222
콰	9223
콱	9224
콲	9225
콳	9226
콴	9227
콵	9228
콶	9229
콷	9230
콸	9231
콹	9232
콺	9233
콻	9234
콼	9235
콽	9236
콾	9237
콿	9238
쾀	9239
쾁	9240
쾂	9241
쾃	9242
쾄	9243
쾅	9244
쾆	9245
쾇	9246
쾈	9247
쾉	9248
쾊	9249
쾋	9250
쾌	9251
쾍	9252
쾎	9253
쾏	9254
쾐	9255
쾑	9256
쾒	9257
쾓	9258
쾔	9259
쾕	9260
쾖	9261
쾗	9262
쾘	9263
쾙	9264
쾚	9265
쾛	9266
쾜	9267
쾝	9268
쾞	9269
쾟	9270
쾠	9271
쾡	9272
쾢	9273
쾣	9274
쾤	9275
쾥	9276
쾦	9277
쾧	9278
쾨	9279
쾩	9280
쾪	9281
쾫	9282
쾬	9283
쾭	9284
쾮	9285
쾯	9286
쾰	9287
쾱	9288
쾲	9289
쾳	9290
쾴	9291
쾵	9292
쾶	9293
쾷	9294
쾸	9295
쾹	9296
쾺	9297
쾻	9298
쾼	9299
쾽	9300
쾾	9301
쾿	9302
쿀	9303
쿁	9304
쿂	9305
쿃	9306
쿄	9307
쿅	9308
쿆	9309
쿇	9310
쿈	9311
쿉	9312
쿊	9313
쿋	9314
쿌	9315
쿍	9316
쿎	9317
쿏	9318
쿐	9319
쿑	9320
쿒	9321
쿓	9322
쿔	9323
쿕	9324
쿖	9325
쿗	9326
쿘	9327
쿙	9328
쿚	9329
쿛	9330
쿜	9331
쿝	9332
쿞	9333
쿟	9334
쿠	9335
쿡	9336
쿢	9337
쿣	9338
쿤	9339
쿥	9340
쿦	9341
쿧	9342
쿨	9343
쿩	9344
쿪	9345
쿫	9346
쿬	9347
쿭	9348
쿮	9349
쿯	9350
쿰	9351
쿱	9352
쿲	9353
쿳	9354
쿴	9355
쿵	9356
쿶	9357
쿷	9358
쿸	9359
쿹	9360
쿺	9361
쿻	9362
쿼	9363
쿽	9364
쿾	9365
쿿	9366
퀀	9367
퀁	9368
퀂	9369
퀃	9370
퀄	9371
퀅	9372
퀆	9373
퀇	9374
퀈	9375
퀉	9376
퀊	9377
퀋	9378
퀌	9379
퀍	9380
퀎	9381
퀏	9382
퀐	9383
퀑	9384
퀒	9385
퀓	9386
퀔	9387
퀕	9388
퀖	9389
퀗	9390
퀘	9391
퀙	9392
퀚	9393
퀛	9394
퀜	9395
퀝	9396
퀞	9397
퀟	9398
퀠	9399
퀡	9400
퀢	9401
퀣	9402
퀤	9403
퀥	9404
퀦	9405
퀧	9406
퀨	9407
퀩	9408
퀪	9409
퀫	9410
퀬	9411
퀭	9412
퀮	9413
퀯	9414
퀰	9415
퀱	9416
퀲	9417
퀳	9418
퀴	9419
퀵	9420
퀶	9421
퀷	9422
퀸	9423
퀹	9424
퀺	9425
퀻	9426
퀼	9427
퀽	9428
퀾	9429
퀿	9430
큀	9431
큁	9432
큂	9433
큃	9434
큄	9435
큅	9436
큆	9437
큇	9438
큈	9439
큉	9440
큊	9441
큋	9442
큌	9443
큍	9444
큎	9445
큏	9446
큐	9447
큑	9448
큒	9449
큓	9450
큔	9451
큕	9452
큖	9453
큗	9454
큘	9455
큙	9456
큚	9457
큛	9458
큜	9459
큝	9460
큞	9461
큟	9462
큠	9463
큡	9464
큢	9465
큣	9466
큤	9467
큥	9468
큦	9469
큧	9470
큨	9471
큩	9472
큪	9473
큫	9474
크	9475
큭	9476
큮	9477
큯	9478
큰	9479
큱	9480
큲	9481
큳	9482
클	9483
큵	9484
큶	9485
큷	9486
큸	9487
큹	9488
큺	9489
큻	9490
큼	9491
큽	9492
큾	9493
큿	9494
킀	9495
킁	9496
킂	9497
킃	9498
킄	9499
킅	9500
킆	9501
킇	9502
킈	9503
킉	9504
킊	9505
킋	9506
킌	9507
킍	9508
킎	9509
킏	9510
킐	9511
킑	9512
킒	9513
킓	9514
킔	9515
킕	9516
킖	9517
킗	9518
킘	9519
킙	9520
킚	9521
킛	9522
킜	9523
킝	9524
킞	9525
킟	9526
킠	9527
킡	9528
킢	9529
킣	9530
키	9531
킥	9532
킦	9533
킧	9534
킨	9535
킩	9536
킪	9537
킫	9538
킬	9539
킭	9540
킮	9541
킯	9542
킰	9543
킱	9544
킲	9545
킳	9546
킴	9547
킵	9548
킶	9549
킷	9550
킸	9551
킹	9552
킺	9553
킻	9554
킼	9555
킽	9556
킾	9557
킿	9558
타	9559
탁	9560
탂	9561
탃	9562
탄	9563
탅	9564
탆	9565
탇	9566
탈	9567
탉	9568
탊	9569
탋	9570
탌	9571
탍	9572
탎	9573
탏	9574
탐	9575
탑	9576
탒	9577
탓	9578
탔	9579
탕	9580
탖	9581
탗	9582
탘	9583
탙	9584
탚	9585
탛	9586
태	9587
택	9588
탞	9589
탟	9590
탠	9591
탡	9592
탢	9593
탣	9594
탤	9595
탥	9596
탦	9597
탧	9598
탨	9599
탩	9600
탪	9601
탫	9602
탬	9603
탭	9604
탮	9605
탯	9606
탰	9607
탱	9608
탲	9609
탳	9610
탴	9611
탵	9612
탶	9613
탷	9614
탸	9615
탹	9616
탺	9617
탻	9618
탼	9619
탽	9620
탾	9621
탿	9622
턀	9623
턁	9624
턂	9625
턃	9626
턄	9627
턅	9628
턆	9629
턇	9630
턈	9631
턉	9632
턊	9633
턋	9634
턌	9635
턍	9636
턎	9637
턏	9638
턐	9639
턑	9640
턒	9641
턓	9642
턔	9643
턕	9644
턖	9645
턗	9646
턘	9647
턙	9648
턚	9649
턛	9650
턜	9651
턝	9652
턞	9653
턟	9654
턠	9655
턡	9656
턢	9657
턣	9658
턤	9659
턥	9660
턦	9661
턧	9662
턨	9663
턩	9664
턪	9665
턫	9666
턬	9667
턭	9668
턮	9669
턯	9670
터	9671
턱	9672
턲	9673
턳	9674
턴	9675
턵	9676
턶	9677
턷	9678
털	9679
턹	9680
턺	9681
턻	9682
턼	9683
턽	9684
턾	9685
턿	9686
텀	9687
텁	9688
텂	9689
텃	9690
텄	9691
텅	9692
텆	9693
텇	9694
텈	9695
텉	9696
텊	9697
텋	9698
테	9699
텍	9700
텎	9701
텏	9702
텐	9703
텑	9704
텒	9705
텓	9706
텔	9707
텕	9708
텖	9709
텗	9710
텘	9711
텙	9712
텚	9713
텛	9714
템	9715
텝	9716
텞	9717
텟	9718
텠	9719
텡	9720
텢	9721
텣	9722
텤	9723
텥	9724
텦	9725
텧	9726
텨	9727
텩	9728
텪	9729
텫	9730
텬	9731
텭	9732
텮	9733
텯	9734
텰	9735
텱	9736
텲	9737
텳	9738
텴	9739
텵	9740
텶	9741
텷	9742
텸	9743
텹	9744
텺	9745
텻	9746
텼	9747
텽	9748
텾	9749
텿	9750
톀	9751
톁	9752
톂	9753
톃	9754
톄	9755
톅	9756
톆	9757
톇	9758
톈	9759
톉	9760
톊	9761
톋	9762
톌	9763
톍	9764
톎	9765
톏	9766
톐	9767
톑	9768
톒	9769
톓	9770
톔	9771
톕	9772
톖	9773
톗	9774
톘	9775
톙	9776
톚	9777
톛	9778
톜	9779
톝	9780
톞	9781
톟	9782
토	9783
톡	9784
톢	9785
톣	9786
톤	9787
톥	9788
톦	9789
톧	9790
톨	9791
톩	9792
톪	9793
톫	9794
톬	9795
톭	9796
톮	9797
톯	9798
톰	9799
톱	9800
톲	9801
톳	9802
톴	9803
통	9804
톶	9805
톷	9806
톸	9807
톹	9808
톺	9809
톻	9810
톼	9811
톽	9812
톾	9813
톿	9814
퇀	9815
퇁	9816
퇂	9817
퇃	9818
퇄	9819
퇅	9820
퇆	9821
퇇	9822
퇈	9823
퇉	9824
퇊	9825
퇋	9826
퇌	9827
퇍	9828
퇎	9829
퇏	9830
퇐	9831
퇑	9832
퇒	9833
퇓	9834
퇔	9835
퇕	9836
퇖	9837
퇗	9838
퇘	9839
퇙	9840
퇚	9841
퇛	9842
퇜	9843
퇝	9844
퇞	9845
퇟	9846
퇠	9847
퇡	9848
퇢	9849
퇣	9850
퇤	9851
퇥	9852
퇦	9853
퇧	9854
퇨	9855
퇩	9856
퇪	9857
퇫	9858
퇬	9859
퇭	9860
퇮	9861
퇯	9862
퇰	9863
퇱	9864
퇲	9865
퇳	9866
퇴	9867
퇵	9868
퇶	9869
퇷	9870
퇸	9871
퇹	9872
퇺	9873
퇻	9874
퇼	9875
퇽	9876
퇾	9877
퇿	9878
툀	9879
툁	9880
툂	9881
툃	9882
툄	9883
툅	9884
툆	9885
툇	9886
툈	9887
툉	9888
툊	9889
툋	9890
툌	9891
툍	9892
툎	9893
툏	9894
툐	9895
툑	9896
툒	9897
툓	9898
툔	9899
툕	9900
툖	9901
툗	9902
툘	9903
툙	9904
툚	9905
툛	9906
툜	9907
툝	9908
툞	9909
툟	9910
툠	9911
툡	9912
툢	9913
툣	9914
툤	9915
툥	9916
툦	9917
툧	9918
툨	9919
툩	9920
툪	9921
툫	9922
투	9923
툭	9924
툮	9925
툯	9926
툰	9927
툱	9928
툲	9929
툳	9930
툴	9931
툵	9932
툶	9933
툷	9934
툸	9935
툹	9936
툺	9937
툻	9938
툼	9939
툽	9940
툾	9941
툿	9942
퉀	9943
퉁	9944
퉂	9945
퉃	9946
퉄	9947
퉅	9948
퉆	9949
퉇	9950
퉈	9951
퉉	9952
퉊	9953
퉋	9954
퉌	9955
퉍	9956
퉎	9957
퉏	9958
퉐	9959
퉑	9960
퉒	9961
퉓	9962
퉔	9963
퉕	9964
퉖	9965
퉗	9966
퉘	9967
퉙	9968
퉚	9969
퉛	9970
퉜	9971
퉝	9972
퉞	9973
퉟	9974
퉠	9975
퉡	9976
퉢	9977
퉣	9978
퉤	9979
퉥	9980
퉦	9981
퉧	9982
퉨	9983
퉩	9984
퉪	9985
퉫	9986
퉬	9987
퉭	9988
퉮	9989
퉯	9990
퉰	9991
퉱	9992
퉲	9993
퉳	9994
퉴	9995
퉵	9996
퉶	9997
퉷	9998
퉸	9999
퉹	10000
퉺	10001
퉻	10002
퉼	10003
퉽	10004
퉾	10005
퉿	10006
튀	10007
튁	10008
튂	10009
튃	10010
튄	10011
튅	10012
튆	10013
튇	10014
튈	10015
튉	10016
튊	10017
튋	10018
튌	10019
튍	10020
튎	10021
튏	10022
튐	10023
튑	10024
튒	10025
튓	10026
튔	10027
튕	10028
튖	10029
튗	10030
튘	10031
튙	10032
튚	10033
튛	10034
튜	10035
튝	10036
튞	10037
튟	10038
튠	10039
튡	10040
튢	10041
튣	10042
튤	10043
튥	10044
튦	10045
튧	10046
튨	10047
튩	10048
튪	10049
튫	10050
튬	10051
튭	10052
튮	10053
튯	10054
튰	10055
튱	10056
튲	10057
튳	10058
튴	10059
튵	10060
튶	10061
튷	10062
트	10063
특	10064
튺	10065
튻	10066
튼	10067
튽	10068
튾	10069
튿	10070
틀	10071
틁	10072
틂	10073
틃	10074
틄	10075
틅	10076
틆	10077
틇	10078
틈	10079
틉	10080
틊	10081
틋	10082
틌	10083
틍	10084
틎	10085
틏	10086
틐	10087
틑	10088
틒	10089
틓	10090
틔	10091
틕	10092
틖	10093
틗	10094
틘	10095
틙	10096
틚	10097
틛	10098
틜	10099
틝	10100
틞	10101
틟	10102
틠	10103
틡	10104
틢	10105
틣	10106
틤	10107
틥	10108
틦	10109
틧	10110
틨	10111
틩	10112
틪	10113
틫	10114
틬	10115
틭	10116
틮	10117
틯	10118
티	10119
틱	10120
틲	10121
틳	10122
틴	10123
틵	10124
틶	10125
틷	10126
틸	10127
틹	10128
틺	10129
틻	10130
틼	10131
틽	10132
틾	10133
틿	10134
팀	10135
팁	10136
팂	10137
팃	10138
팄	10139
팅	10140
팆	10141
팇	10142
팈	10143
팉	10144
팊	10145
팋	10146
파	10147
팍	10148
팎	10149
팏	10150
판	10151
팑	10152
팒	10153
팓	10154
팔	10155
팕	10156
팖	10157
팗	10158
팘	10159
팙	10160
팚	10161
팛	10162
팜	10163
팝	10164
팞	10165
팟	10166
팠	10167
팡	10168
팢	10169
팣	10170
팤	10171
팥	10172
팦	10173
팧	10174
패	10175
팩	10176
팪	10177
팫	10178
팬	10179
팭	10180
팮	10181
팯	10182
팰	10183
팱	10184
팲	10185
팳	10186
팴	10187
팵	10188
팶	10189
팷	10190
팸	10191
팹	10192
팺	10193
팻	10194
팼	10195
팽	10196
팾	10197
팿	10198
퍀	10199
퍁	10200
퍂	10201
퍃	10202
퍄	10203
퍅	10204
퍆	10205
퍇	10206
퍈	10207
퍉	10208
퍊	10209
퍋	10210
퍌	10211
퍍	10212
퍎	10213
퍏	10214
퍐	10215
퍑	10216
퍒	10217
퍓	10218
퍔	10219
퍕	10220
퍖	10221
퍗	10222
퍘	10223
퍙	10224
퍚	10225
퍛	10226
퍜	10227
퍝	10228
퍞	10229
퍟	10230
퍠	10231
퍡	10232
퍢	10233
퍣	10234
퍤	10235
퍥	10236
퍦	10237
퍧	10238
퍨	10239
퍩	10240
퍪	10241
퍫	10242
퍬	10243
퍭	10244
퍮	10245
퍯	10246
퍰	10247
퍱	10248
퍲	10249
퍳	10250
퍴	10251
퍵	10252
퍶	10253
퍷	10254
퍸	10255
퍹	10256
퍺	10257
퍻	10258
퍼	10259
퍽	10260
퍾	10261
퍿	10262
펀	10263
펁	10264
펂	10265
펃	10266
펄	10267
펅	10268
펆	10269
펇	10270
펈	10271
펉	10272
펊	10273
펋	10274
펌	10275
펍	10276
펎	10277
펏	10278
펐	10279
펑	10280
펒	10281
펓	10282
펔	10283
펕	10284
펖	10285
펗	10286
페	10287
펙	10288
펚	10289
펛	10290
펜	10291
펝	10292
펞	10293
펟	10294
펠	10295
펡	10296
펢	10297
펣	10298
펤	10299
펥	10300
펦	10301
펧	10302
펨	10303
펩	10304
펪	10305
펫	10306
펬	10307
펭	10308
펮	10309
펯	10310
펰	10311
펱	10312
펲	10313
펳	10314
펴	10315
펵	10316
펶	10317
펷	10318
편	10319
펹	10320
펺	10321
펻	10322
펼	10323
펽	10324
펾	10325
펿	10326
폀	10327
폁	10328
폂	10329
폃	10330
폄	10331
폅	10332
폆	10333
폇	10334
폈	10335
평	10336
폊	10337
폋	10338
폌	10339
폍	10340
폎	10341
폏	10342
폐	10343
폑	10344
폒	10345
폓	10346
폔	10347
폕	10348
폖	10349
폗	10350
폘	10351
폙	10352
폚	10353
폛	10354
폜	10355
폝	10356
폞	10357
폟	10358
폠	10359
폡	10360
폢	10361
폣	10362
폤	10363
폥	10364
폦	10365
폧	10366
폨	10367
폩	10368
폪	10369
폫	10370
포	10371
폭	10372
폮	10373
폯	10374
폰	10375
폱	10376
폲	10377
폳	10378
폴	10379
폵	10380
폶	10381
폷	10382
폸	10383
폹	10384
폺	10385
폻	10386
폼	10387
폽	10388
폾	10389
폿	10390
퐀	10391
퐁	10392
퐂	10393
퐃	10394
퐄	10395
퐅	10396
퐆	10397
퐇	10398
퐈	10399
퐉	10400
퐊	10401
퐋	10402
퐌	10403
퐍	10404
퐎	10405
퐏	10406
퐐	10407
퐑	10408
퐒	10409
퐓	10410
퐔	10411
퐕	10412
퐖	10413
퐗	10414
퐘	10415
퐙	10416
퐚	10417
퐛	10418
퐜	10419
퐝	10420
퐞	10421
퐟	10422
퐠	10423
퐡	10424
퐢	10425
퐣	10426
퐤	10427
퐥	10428
퐦	10429
퐧	10430
퐨	10431
퐩	10432
퐪	10433
퐫	10434
퐬	10435
퐭	10436
퐮	10437
퐯	10438
퐰	10439
퐱	10440
퐲	10441
퐳	10442
퐴	10443
퐵	10444
퐶	10445
퐷	10446
퐸	10447
퐹	10448
퐺	10449
퐻	10450
퐼	10451
퐽	10452
퐾	10453
퐿	10454
푀	10455
푁	10456
푂	10457
푃	10458
푄	10459
푅	10460
푆	10461
푇	10462
푈	10463
푉	10464
푊	10465
푋	10466
푌	10467
푍	10468
푎	10469
푏	10470
푐	10471
푑	10472
푒	10473
푓	10474
푔	10475
푕	10476
푖	10477
푗	10478
푘	10479
푙	10480
푚	10481
푛	10482
표	10483
푝	10484
푞	10485
푟	10486
푠	10487
푡	10488
푢	10489
푣	10490
푤	10491
푥	10492
푦	10493
푧	10494
푨	10495
푩	10496
푪	10497
푫	10498
푬	10499
푭	10500
푮	10501
푯	10502
푰	10503
푱	10504
푲	10505
푳	10506
푴	10507
푵	10508
푶	10509
푷	10510
푸	10511
푹	10512
푺	10513
푻	10514
푼	10515
푽	10516
푾	10517
푿	10518
풀	10519
풁	10520
풂	10521
풃	10522
풄	10523
풅	10524
풆	10525
풇	10526
품	10527
풉	10528
풊	10529
풋	10530
풌	10531
풍	10532
풎	10533
풏	10534
풐	10535
풑	10536
풒	10537
풓	10538
풔	10539
풕	10540
풖	10541
풗	10542
풘	10543
풙	10544
풚	10545
풛	10546
풜	10547
풝	10548
풞	10549
풟	10550
풠	10551
풡	10552
풢	10553
풣	10554
풤	10555
풥	10556
풦	10557
풧	10558
풨	10559
풩	10560
풪	10561
풫	10562
풬	10563
풭	10564
풮	10565
풯	10566
풰	10567
풱	10568
풲	10569
풳	10570
풴	10571
풵	10572
풶	10573
풷	10574
풸	10575
풹	10576
풺	10577
풻	10578
풼	10579
풽	10580
풾	10581
풿	10582
퓀	10583
퓁	10584
퓂	10585
퓃	10586
퓄	10587
퓅	10588
퓆	10589
퓇	10590
퓈	10591
퓉	10592
퓊	10593
퓋	10594
퓌	10595
퓍	10596
퓎	10597
퓏	10598
퓐	10599
퓑	10600
퓒	10601
퓓	10602
퓔	10603
퓕	10604
퓖	10605
퓗	10606
퓘	10607
퓙	10608
퓚	10609
퓛	10610
퓜	10611
퓝	10612
퓞	10613
퓟	10614
퓠	10615
퓡	10616
퓢	10617
퓣	10618
퓤	10619
퓥	10620
퓦	10621
퓧	10622
퓨	10623
퓩	10624
퓪	10625
퓫	10626
퓬	10627
퓭	10628
퓮	10629
퓯	10630
퓰	10631
퓱	10632
퓲	10633
퓳	10634
퓴	10635
퓵	10636
퓶	10637
퓷	10638
퓸	10639
퓹	10640
퓺	10641
퓻	10642
퓼	10643
퓽	10644
퓾	10645
퓿	10646
픀	10647
픁	10648
픂	10649
픃	10650
프	10651
픅	10652
픆	10653
픇	10654
픈	10655
픉	10656
픊	10657
픋	10658
플	10659
픍	10660
픎	10661
픏	10662
픐	10663
픑	10664
픒	10665
픓	10666
픔	10667
픕	10668
픖	10669
픗	10670
픘	10671
픙	10672
픚	10673
픛	10674
픜	10675
픝	10676
픞	10677
픟	10678
픠	10679
픡	10680
픢	10681
픣	10682
픤	10683
픥	10684
픦	10685
픧	10686
픨	10687
픩	10688
픪	10689
픫	10690
픬	10691
픭	10692
픮	10693
픯	10694
픰	10695
픱	10696
픲	10697
픳	10698
픴	10699
픵	10700
픶	10701
픷	10702
픸	10703
픹	10704
픺	10705
픻	10706
피	10707
픽	10708
픾	10709
픿	10710
핀	10711
핁	10712
핂	10713
핃	10714
필	10715
핅	10716
핆	10717
핇	10718
핈	10719
핉	10720
핊	10721
핋	10722
핌	10723
핍	10724
핎	10725
핏	10726
핐	10727
핑	10728
핒	10729
핓	10730
핔	10731
핕	10732
핖	10733
핗	10734
하	10735
학	10736
핚	10737
핛	10738
한	10739
핝	10740
핞	10741
핟	10742
할	10743
핡	10744
핢	10745
핣	10746
핤	10747
핥	10748
핦	10749
핧	10750
함	10751
합	10752
핪	10753
핫	10754
핬	10755
항	10756
핮	10757
핯	10758
핰	10759
핱	10760
핲	10761
핳	10762
해	10763
핵	10764
핶	10765
핷	10766
핸	10767
핹	10768
핺	10769
핻	10770
핼	10771
핽	10772
핾	10773
핿	10774
햀	10775
햁	10776
햂	10777
햃	10778
햄	10779
햅	10780
햆	10781
햇	10782
했	10783
행	10784
햊	10785
햋	10786
햌	10787
햍	10788
햎	10789
햏	10790
햐	10791
햑	10792
햒	10793
햓	10794
햔	10795
햕	10796
햖	10797
햗	10798
햘	10799
햙	10800
햚	10801
햛	10802
햜	10803
햝	10804
햞	10805
햟	10806
햠	10807
햡	10808
햢	10809
햣	10810
햤	10811
향	10812
햦	10813
햧	10814
햨	10815
햩	10816
햪	10817
햫	10818
햬	10819
햭	10820
햮	10821
햯	10822
햰	10823
햱	10824
햲	10825
햳	10826
햴	10827
햵	10828
햶	10829
햷	10830
햸	10831
햹	10832
햺	10833
햻	10834
햼	10835
햽	10836
햾	10837
햿	10838
헀	10839
헁	10840
헂	10841
헃	10842
헄	10843
헅	10844
헆	10845
헇	10846
허	10847
헉	10848
헊	10849
헋	10850
헌	10851
헍	10852
헎	10853
헏	10854
헐	10855
헑	10856
헒	10857
헓	10858
헔	10859
헕	10860
헖	10861
헗	10862
험	10863
헙	10864
헚	10865
헛	10866
헜	10867
헝	10868
헞	10869
헟	10870
헠	10871
헡	10872
헢	10873
헣	10874
헤	10875
헥	10876
헦	10877
헧	10878
헨	10879
헩	10880
헪	10881
헫	10882
헬	10883
헭	10884
헮	10885
헯	10886
헰	10887
헱	10888
헲	10889
헳	10890
헴	10891
헵	10892
헶	10893
헷	10894
헸	10895
헹	10896
헺	10897
헻	10898
헼	10899
헽	10900
헾	10901
헿	10902
혀	10903
혁	10904
혂	10905
혃	10906
현	10907
혅	10908
혆	10909
혇	10910
혈	10911
혉	10912
혊	10913
혋	10914
혌	10915
혍	10916
혎	10917
혏	10918
혐	10919
협	10920
혒	10921
혓	10922
혔	10923
형	10924
혖	10925
혗	10926
혘	10927
혙	10928
혚	10929
혛	10930
혜	10931
혝	10932
혞	10933
혟	10934
혠	10935
혡	10936
혢	10937
혣	10938
혤	10939
혥	10940
혦	10941
혧	10942
혨	10943
혩	10944
혪	10945
혫	10946
혬	10947
혭	10948
혮	10949
혯	10950
혰	10951
혱	10952
혲	10953
혳	10954
혴	10955
혵	10956
혶	10957
혷	10958
호	10959
혹	10960
혺	10961
혻	10962
혼	10963
혽	10964
혾	10965
혿	10966
홀	10967
홁	10968
홂	10969
홃	10970
홄	10971
홅	10972
홆	10973
홇	10974
홈	10975
홉	10976
홊	10977
홋	10978
홌	10979
홍	10980
홎	10981
홏	10982
홐	10983
홑	10984
홒	10985
홓	10986
화	10987
확	10988
홖	10989
홗	10990
환	10991
홙	10992
홚	10993
홛	10994
활	10995
홝	10996
홞	10997
홟	10998
홠	10999
홡	11000
홢	11001
홣	11002
홤	11003
홥	11004
홦	11005
홧	11006
홨	11007
황	11008
홪	11009
홫	11010
홬	11011
홭	11012
홮	11013
홯	11014
홰	11015
홱	11016
홲	11017
홳	11018
홴	11019
홵	11020
홶	11021
홷	11022
홸	11023
홹	11024
홺	11025
홻	11026
홼	11027
홽	11028
홾	11029
홿	11030
횀	11031
횁	11032
횂	11033
횃	11034
횄	11035
횅	11036
횆	11037
횇	11038
횈	11039
횉	11040
횊	11041
횋	11042
회	11043
획	11044
횎	11045
횏	11046
횐	11047
횑	11048
횒	11049
횓	11050
횔	11051
횕	11052
횖	11053
횗	11054
횘	11055
횙	11056
횚	11057
횛	11058
횜	11059
횝	11060
횞	11061
횟	11062
횠	11063
횡	11064
횢	11065
횣	11066
횤	11067
횥	11068
횦	11069
횧	11070
효	11071
횩	11072
횪	11073
횫	11074
횬	11075
횭	11076
횮	11077
횯	11078
횰	11079
횱	11080
횲	11081
횳	11082
횴	11083
횵	11084
횶	11085
횷	11086
횸	11087
횹	11088
횺	11089
횻	11090
횼	11091
횽	11092
횾	11093
횿	11094
훀	11095
훁	11096
훂	11097
훃	11098
후	11099
훅	11100
훆	11101
훇	11102
훈	11103
훉	11104
훊	11105
훋	11106
훌	11107
훍	11108
훎	11109
훏	11110
훐	11111
훑	11112
훒	11113
훓	11114
훔	11115
훕	11116
훖	11117
훗	11118
훘	11119
훙	11120
훚	11121
훛	11122
훜	11123
훝	11124
훞	11125
훟	11126
훠	11127
훡	11128
훢	11129
훣	11130
훤	11131
훥	11132
훦	11133
훧	11134
훨	11135
훩	11136
훪	11137
훫	11138
훬	11139
훭	11140
훮	11141
훯	11142
훰	11143
훱	11144
훲	11145
훳	11146
훴	11147
훵	11148
훶	11149
훷	11150
훸	11151
훹	11152
훺	11153
훻	11154
훼	11155
훽	11156
훾	11157
훿	11158
휀	11159
휁	11160
휂	11161
휃	11162
휄	11163
휅	11164
휆	11165
휇	11166
휈	11167
휉	11168
휊	11169
휋	11170
휌	11171
휍	11172
휎	11173
휏	11174
휐	11175
휑	11176
휒	11177
휓	11178
휔	11179
휕	11180
휖	11181
휗	11182
휘	11183
휙	11184
휚	11185
휛	11186
휜	11187
휝	11188
휞	11189
휟	11190
휠	11191
휡	11192
휢	11193
휣	11194
휤	11195
휥	11196
휦	11197
휧	11198
휨	11199
휩	11200
휪	11201
휫	11202
휬	11203
휭	11204
휮	11205
휯	11206
휰	11207
휱	11208
휲	11209
휳	11210
휴	11211
휵	11212
휶	11213
휷	11214
휸	11215
휹	11216
휺	11217
휻	11218
휼	11219
휽	11220
휾	11221
휿	11222
흀	11223
흁	11224
흂	11225
흃	11226
흄	11227
흅	11228
흆	11229
흇	11230
흈	11231
흉	11232
흊	11233
흋	11234
흌	11235
흍	11236
흎	11237
흏	11238
흐	11239
흑	11240
흒	11241
흓	11242
흔	11243
흕	11244
흖	11245
흗	11246
흘	11247
흙	11248
흚	11249
흛	11250
흜	11251
흝	11252
흞	11253
흟	11254
흠	11255
흡	11256
흢	11257
흣	11258
흤	11259
흥	11260
흦	11261
흧	11262
흨	11263
흩	11264
흪	11265
흫	11266
희	11267
흭	11268
흮	11269
흯	11270
흰	11271
흱	11272
흲	11273
흳	11274
흴	11275
흵	11276
흶	11277
흷	11278
흸	11279
흹	11280
흺	11281
흻	11282
흼	11283
흽	11284
흾	11285
흿	11286
힀	11287
힁	11288
힂	11289
힃	11290
힄	11291
힅	11292
힆	11293
힇	11294
히	11295
힉	11296
힊	11297
힋	11298
힌	11299
힍	11300
힎	11301
힏	11302
힐	11303
힑	11304
힒	11305
힓	11306
힔	11307
힕	11308
힖	11309
힗	11310
힘	11311
힙	11312
힚	11313
힛	11314
힜	11315
힝	11316
힞	11317
힟	11318
힠	11319
힡	11320
힢	11321
힣	11322
##복	11323
##해	11324
##주	11325
##었	11326
##습	11327
##니	11328
##다	11329
##.	11330
##i	11331
##l	11332
##e	11333
##t	11334
##a	11335
##n	11336
##s	11337
##c	11338
##항	11339
##전	11340
##을	11341
##0	11342
##1	11343
##9	11344
##8	11345
##5	11346
##기	11347
##름	11348
##으	11349
##로	11350
##클	11351
##리	11352
##지	11353
##/	11354
##이	11355
##봉	11356
##준	11357
##옥	11358
##난	11359
##도	11360
##를	11361
##게	11362
##라	11363
##는	11364
##수	11365
##빈	11366
##2	11367
##,	11368
##행	11369
##의	11370
##베	11371
##캡	11372
##날	11373
##인	11374
##회	11375
##나	11376
##면	11377
##아	11378
##사	11379
##무	11380
##시	11381
##온	11382
##센	11383
##체	11384
##질	11385
##에	11386
##오	11387
##"	11388
##방	11389
##감	11390
##며	11391
##하	11392
##4	11393
##3	11394
##은	11395
##부	11396
##채	11397
##파	11398
##초	11399
##속	11400
##과	11401
##진	11402
##했	11403
##데	11404
##균	11405
##조	11406
##건	11407
##반	11408
##츠	11409
##동	11410
##k	11411
##r	11412
##가	11413
##선	11414
##산	11415
##키	11416
##냐	11417
##고	11418
##O	11419
##G	11420
##_	11421
##년	11422
##할	11423
##남	11424
##자	11425
##만	11426
##A	11427
##D	11428
##7	11429
##6	11430
##g	11431
##o	11432
##-	11433
##E	11434
##!	11435
##음	11436
##영	11437
##풀	11438
##문	11439
##답	11440
##장	11441
##제	11442
##마	11443
##병	11444
##엽	11445
##린	11446
##순	11447
##간	11448
##화	11449
##운	11450
##학	11451
##살	11452
##서	11453
##룡	11454
##m	11455
##구	11456
##와	11457
##공	11458
##국	11459
##쿠	11460
##벅	11461
##'	11462
##텨	11463
##댄	11464
##급	11465
##융	11466
##상	11467
##두	11468
##크	11469
##래	11470
##프	11471
##트	11472
##탄	11473
##든	11474
##릭	11475
##랜	11476
##드	11477
##%	11478
##중	11479
##였	11480
##f	11481
##녀	11482
##출	11483
##원	11484
##정	11485
##티	11486
##캐	11487
##터	11488
##들	11489
##꾸	11490
##내	11491
##막	11492
##페	11493
##~	11494
##족	11495
##약	11496
##탈	11497
##종	11498
##보	11499
##통	11500
##허	11501
##극	11502
##츄	11503
##럴	11504
##엔	11505
##텍	11506
##틀	11507
##어	11508
##져	11509
##된	11510
##네	11511
##스	11512
##그	11513
##민	11514
##대	11515
##차	11516
##유	11517
##르	11518
##뇰	11519
##겨	11520
##누	11521
##세	11522
##망	11523
##술	11524
##덱	11525
##착	11526
##솔	11527
##판	11528
##형	11529
##코	11530
##미	11531
##비	11532
##명	11533
##령	11534
##당	11535
##석	11536
##W	11537
##모	11538
##델	11539
##:	11540
##춰	11541
##요	11542
##셔	11543
##즈	11544
##톨	11545
##단	11546
##ㅎ	11547
##ㅍ	11548
##ㅇ	11549
##림	11550
##물	11551
##루	11552
##안	11553
##톱	11554
##갈	11555
##u	11556
##떡	11557
##칠	11558
##던	11559
##Y	11560
##포	11561
##야	11562
##짐	11563
##익	11564
##버	11565
##링	11566
##메	11567
##레	11568
##딜	11569
##한	11570
##)	11571
##달	11572
##력	11573
##심	11574
##줄	11575
##찰	11576
##밀	11577
##계	11578
##독	11579
##신	11580
##템	11581
##란	11582
##났	11583
##집	11584
##식	11585
##액	11586
##려	11587
##역	11588
##우	11589
##존	11590
##재	11591
##징	11592
##송	11593
##치	11594
##람	11595
##머	11596
##타	11597
##류	11598
##왕	11599
##토	11600
##락	11601
##까	11602
##았	11603
##땐	11604
##졌	11605
##것	11606
##각	11607
##교	11608
##개	11609
##론	11610
##임	11611
##j	11612
##랑	11613
##거	11614
##볼	11615
##창	11616
##절	11617
##때	11618
##워	11619
##평	11620
##카	11621
##처	11622
##돌	11623
##발	11624
##업	11625
##궁	11626
##호	11627
##작	11628
##용	11629
##므	11630
##투	11631
##소	11632
##련	11633
##총	11634
##d	11635
##z	11636
##V	11637
##X	11638
##p	11639
##읍	11640
##v	11641
##b	11642
##]	11643
##슈	11644
##증	11645
##갑	11646
##블	11647
##생	11648
##북	11649
##바	11650
##위	11651
##되	11652
##낙	11653
##편	11654
##킬	11655
##쓰	11656
##뮬	11657
##런	11658
##경	11659
##설	11660
##최	11661
##샵	11662
##(	11663
##직	11664
##곡	11665
##접	11666
##법	11667
##륙	11668
##품	11669
##현	11670
##성	11671
##근	11672
##금	11673
##h	11674
##실	11675
##U	11676
##S	11677
##뉴	11678
##김	11679
##씩	11680
##열	11681
##번	11682
##분	11683
##R	11684
##광	11685
##+	11686
##C	11687
##쇼	11688
##I	11689
##끼	11690
##잖	11691
##퍼	11692
##러	11693
##여	11694
##엇	11695
##견	11696
##측	11697
##합	11698
###	11699
##플	11700
##효	11701
##셀	11702
##롯	11703
##펠	11704
##긴	11705
##닌	11706
##폭	11707
##천	11708
##B	11709
##M	11710
##불	11711
##능	11712
##후	11713
##등	11714
##K	11715
##일	11716
##핫	11717
##칸	11718
##썸	11719
##y	11720
##잇	11721
##텀	11722
##놓	11723
##침	11724
##벌	11725
##략	11726
##힐	11727
##군	11728
##암	11729
##관	11730
##윤	11731
##울	11732
##더	11733
##놈	11734
##겼	11735
##톤	11736
##혈	11737
##표	11738
##F	11739
##격	11740
##렸	11741
##슬	11742
##맨	11743
##골	11744
##벤	11745
##협	11746
##강	11747
##례	11748
##훈	11749
##쪽	11750
##맙	11751
##틸	11752
##노	11753
##홍	11754
##P	11755
##적	11756
##귀	11757
##너	11758
##같	11759
##피	11760
##닛	11761
##글	11762
##청	11763
##쨩	11764
##빠	11765
##릴	11766
##덤	11767
##쟁	11768
##듯	11769
##퇴	11770
##맵	11771
##L	11772
##큼	11773
##싸	11774
##입	11775
##&	11776
##저	11777
##?	11778
##양	11779
##브	11780
##걸	11781
##웃	11782
##핵	11783
##샨	11784
##핑	11785
##몰	11786
##훼	11787
##궂	11788
##룸	11789
##필	11790
##먹	11791
##럽	11792
##믹	11793
##싱	11794
##펜	11795
##듈	11796
##럼	11797
##룰	11798
##T	11799
##x	11800
##Z	11801
##q	11802
##H	11803
##휘	11804
##연	11805
##겠	11806
##특	11807
##애	11808
##립	11809
##섭	11810
##료	11811
##량	11812
##N	11813
##쯤	11814
##본	11815
##디	11816
##른	11817
##탱	11818
##곤	11819
##|	11820
##폐	11821
##뢰	11822
##>	11823
##득	11824
##켰	11825
##점	11826
##철	11827
##왔	11828
##렙	11829
##랍	11830
##슨	11831
##케	11832
##션	11833
##향	11834
##묻	11835
##히	11836
##넓	11837
##박	11838
##쥐	11839
##털	11840
##쿼	11841
##킨	11842
##젤	11843
##척	11844
##길	11845
##왈	11846
##테	11847
##삼	11848
##배	11849
##록	11850
##헛	11851
##압	11852
##책	11853
##웠	11854
##캔	11855
##깃	11856
##봤	11857
##뇨	11858
##늘	11859
##땅	11860
##윗	11861
##따	11862
##콘	11863
##십	11864
##쉽	11865
##함	11866
##월	11867
##묘	11868
##뿐	11869
##냔	11870
##택	11871
##튼	11872
##예	11873
##<	11874
##잊	11875
##축	11876
##뇌	11877
##풍	11878
##황	11879
##엘	11880
##랫	11881
##눠	11882
##환	11883
##앞	11884
##빅	11885
##깨	11886
##힘	11887
##;	11888
##친	11889
##픽	11890
##컵	11891
##태	11892
##팔	11893
##매	11894
##냠	11895
##끄	11896
##백	11897
##곱	11898
##꿈	11899
##추	11900
##멘	11901
##흑	11902
##덩	11903
##헨	11904
##없	11905
##삐	11906
##[	11907
##톰	11908
##렉	11909
##w	11910
##돈	11911
##폰	11912
##팟	11913
##틱	11914
##언	11915
##켜	11916
##츤	11917
##줌	11918
##권	11919
##찬	11920
##있	11921
##냥	11922
##롤	11923
##둑	11924
##밭	11925
##춘	11926
##변	11927
##텝	11928
##휴	11929
##랬	11930
##뭐	11931
##놨	11932
##맹	11933
##별	11934
##툼	11935
##칭	11936
##흰	11937
##층	11938
##랐	11939
##뺨	11940
##큐	11941
##짜	11942
##죠	11943
##겸	11944
##둥	11945
##팡	11946
##샤	11947
##낭	11948
##*	11949
##팀	11950
##님	11951
##움	11952
##=	11953
##홈	11954
##멜	11955
##컬	11956
##악	11957
##승	11958
##탐	11959
##쏘	11960
##률	11961
##결	11962
##렛	11963
##객	11964
##탠	11965
##패	11966
##솥	11967
##얼	11968
##말	11969
##빌	11970
##딩	11971
##충	11972
##획	11973
##엉	11974
##늄	11975
##잣	11976
##궤	11977
##윈	11978
##멸	11979
##검	11980
##겐	11981
##벨	11982
##Q	11983
##깊	11984
##완	11985
##닉	11986
##롄	11987
##캄	11988
##혔	11989
##높	11990
##섹	11991
##씨	11992
##켓	11993
##닝	11994
##앙	11995
##킹	11996
##외	11997
##롭	11998
##느	11999
##햇	12000
##쫓	12001
##흥	12002
##응	12003
##험	12004
##갤	12005
##럭	12006
##뽑	12007
##덕	12008
##널	12009
##괴	12010
##잠	12011
##규	12012
##칙	12013
##턴	12014
##활	12015
##늬	12016
##됐	12017
##앏	12018
##뭇	12019
##썩	12020
##셰	12021
##헤	12022
##맞	12023
##팅	12024
##틴	12025
##색	12026
##펫	12027
##커	12028
##농	12029
##취	12030
##죽	12031
##껴	12032
##봐	12033
##빙	12034
##웨	12035
##덴	12036
##팬	12037
##킷	12038
##앱	12039
##랏	12040
##륭	12041
##확	12042
##받	12043
##알	12044
##쟈	12045
##억	12046
##쳐	12047
##렌	12048
##쿄	12049
##돼	12050
##챠	12051
##될	12052
##앉	12053
##쩍	12054
##섬	12055
##육	12056
##멤	12057
##혼	12058
##잎	12059
##굴	12060
##냉	12061
##범	12062
##ㅗ	12063
##ㄵ	12064
##놀	12065
##챔	12066
##릿	12067
##담	12068
##꾼	12069
##웰	12070
##뱅	12071
##목	12072
##손	12073
##올	12074
##앨	12075
##몬	12076
##낌	12077
##갱	12078
##맡	12079
##핍	12080
##듐	12081
##촉	12082
##넬	12083
##짤	12084
##몸	12085
##즐	12086
##헬	12087
##새	12088
##숙	12089
##핏	12090
##뷰	12091
##옷	12092
##뜸	12093
##\	12094
##욱	12095
##앤	12096
##죄	12097
##희	12098
##념	12099
##J	12100
##밴	12101
##얏	12102
##꽃	12103
##앗	12104
##룽	12105
##탁	12106
##뗑	12107
##냈	12108
##샷	12109
##렐	12110
##뤼	12111
##릎	12112
##팍	12113
##찌	12114
##흐	12115
##못	12116
##룬	12117
##혁	12118
##텐	12119
##묵	12120
##콧	12121
##싶	12122
##웅	12123
##엠	12124
##겁	12125
##몽	12126
##않	12127
##푸	12128
##붕	12129
##욕	12130
##텔	12131
##챗	12132
##혀	12133
##렘	12134
##율	12135
##펙	12136
##논	12137
##칼	12138
##빼	12139
##촙	12140
##켈	12141
##맥	12142
##ㅊ	12143
##좌	12144
##뒤	12145
##뎀	12146
##밋	12147
##빛	12148
##셨	12149
##캠	12150
##잉	12151
##짠	12152
##쭈	12153
##숍	12154
##첸	12155
##먼	12156
##힌	12157
##셜	12158
##웹	12159
##됨	12160
##찍	12161
##튜	12162
##떼	12163
##곶	12164
##넷	12165
##뻥	12166
##쁘	12167
##콤	12168
##ㅣ	12169
##욭	12170
##큰	12171
##쵸	12172
##짱	12173
##펀	12174
##줬	12175
##탭	12176
##봇	12177
##써	12178
##솜	12179
##꼬	12180
##컨	12181
##ㅋ	12182
##뜨	12183
##븐	12184
##탑	12185
##즌	12186
##쭤	12187
##헙	12188
##헌	12189
##핀	12190
##벼	12191
##또	12192
##빡	12193
##켄	12194
##삭	12195
##겹	12196
##찜	12197
##꼈	12198
##얀	12199
##붉	12200
##놋	12201
##셋	12202
##째	12203
##톡	12204
##곰	12205
##팝	12206
##슷	12207
##깝	12208
##쟤	12209
##럿	12210
##뜬	12211
##잡	12212
##콜	12213
##값	12214
##옵	12215
##뺐	12216
##벳	12217
##렇	12218
##딱	12219
##첩	12220
##궐	12221
##찾	12222
##얬	12223
##넘	12224
##춤	12225
##팽	12226
##왓	12227
##넥	12228
##빵	12229
##혜	12230
##납	12231
##웜	12232
##돛	12233
##참	12234
##앵	12235
##엄	12236
##쉴	12237
##뷔	12238
##께	12239
##곳	12240
##홀	12241
##밍	12242
##겔	12243
##줘	12244
##흡	12245
##멕	12246
##쌀	12247
##캣	12248
##롱	12249
##낵	12250
##봄	12251
##젠	12252
##눈	12253
##퉁	12254
##찮	12255
##쳤	12256
##잽	12257
##셴	12258
##쭝	12259
##닢	12260
##녕	12261
##넌	12262
##닐	12263
##램	12264
##쿨	12265
##둘	12266
##흙	12267
##픈	12268
##좋	12269
##컴	12270
##꼴	12271
##밧	12272
##렁	12273
##댐	12274
##쌍	12275
##ㅂ	12276
##ㄴ	12277
##ㅜ	12278
##ㅄ	12279
##컷	12280
##뀌	12281
##얔	12282
##킥	12283
##촌	12284
##벡	12285
##쓸	12286
##밖	12287
##캥	12288
##셉	12289
##쉬	12290
##뚫	12291
##슴	12292
##좀	12293
##ㅅ	12294
##꺼	12295
##쌈	12296
##놔	12297
##밌	12298
##빨	12299
##푀	12300
##낸	12301
##닥	12302
##숨	12303
##쉰	12304
##꿔	12305
##뼈	12306
##뎃	12307
##혹	12308
##섯	12309
##듀	12310
##쑥	12311
##뒀	12312
##릉	12313
##쥬	12314
##쩔	12315
##밸	12316
##낮	12317
##찔	12318
##짝	12319
##갔	12320
##띵	12321
##벽	12322
##많	12323
##둠	12324
##숲	12325
##땃	12326
##탕	12327
##떻	12328
##폴	12329
##샘	12330
##멍	12331
##염	12332
##붙	12333
##갸	12334
##왼	12335
##뤄	12336
##톈	12337
##{	12338
##}	12339
##^	12340
##밥	12341
##굽	12342
##촨	12343
##콩	12344
##툴	12345
##랄	12346
##쉔	12347
##랭	12348
##룹	12349
##즘	12350
##잘	12351
##펄	12352
##덜	12353
##쇄	12354
##씀	12355
##괄	12356
##쾨	12357
##넨	12358
##땡	12359
##댕	12360
##쪼	12361
##뵤	12362
##멀	12363
##햄	12364
##딘	12365
##랴	12366
##괸	12367
##겄	12368
##푼	12369
##ㄹ	12370
##ㄷ	12371
##슝	12372
##폈	12373
##뭉	12374
##뎡	12375
##턱	12376
##맛	12377
##녁	12378
##깔	12379
##겜	12380
##쓴	12381
##펍	12382
##흠	12383
##팩	12384
##닮	12385
##퐁	12386
##깁	12387
##흉	12388
##렬	12389
##흔	12390
##엣	12391
##궈	12392
##냄	12393
##멋	12394
##흘	12395
##폼	12396
##뵈	12397
##끗	12398
##맴	12399
##듬	12400
##둔	12401
##및	12402
##륜	12403
##ㅈ	12404
##딤	12405
##@	12406
##닷	12407
##낼	12408
##렴	12409
##랙	12410
##훗	12411
##쩌	12412
##솰	12413
##졔	12414
##랠	12415
##퓨	12416
##뿌	12417
##쨌	12418
##펩	12419
##녹	12420
##욘	12421
##듣	12422
##츨	12423
##잔	12424
##곧	12425
##혐	12426
##힛	12427
##튄	12428
##셈	12429
##돔	12430
##킵	12431
##엿	12432
##촬	12433
##믈	12434
##넛	12435
##쌔	12436
##굵	12437
##쎄	12438
##쾌	12439
##됩	12440
##똑	12441
##읽	12442
##씬	12443
##딕	12444
##릅	12445
##퓌	12446
##볏	12447
##숭	12448
##뎐	12449
##돋	12450
##넣	12451
##빗	12452
##껍	12453
##옹	12454
##뉘	12455
##윙	12456
##잭	12457
##렵	12458
##떤	12459
##삶	12460
##툰	12461
##멧	12462
##탓	12463
##쩡	12464
##씹	12465
##뮈	12466
##괼	12467
##귤	12468
##핸	12469
##벗	12470
##홉	12471
##댔	12472
##뜀	12473
##끌	12474
##쁠	12475
##쌤	12476
##짓	12477
##꽂	12478
##폿	12479
##젼	12480
##숫	12481
##딸	12482
##쯔	12483
##젝	12484
##눔	12485
##겟	12486
##뱀	12487
##뻔	12488
##옌	12489
##푹	12490
##웬	12491
##팜	12492
##핥	12493
##ㅓ	12494
##ㄼ	12495
##밤	12496
##뿡	12497
##쉐	12498
##윌	12499
##떨	12500
##첵	12501
##칩	12502
##놉	12503
##눴	12504
##꽉	12505
##륵	12506
##몹	12507
##졸	12508
##땋	12509
##꿀	12510
##젓	12511
##퀼	12512
##$	12513
##`	12514
##끝	12515
##첨	12516
##큘	12517
##둡	12518
##냅	12519
##닿	12520
##닫	12521
##쇠	12522
##쵼	12523
##롬	12524
##돕	12525
##뻐	12526
##똥	12527
##퀸	12528
##댁	12529
##뜯	12530
##퍽	12531
##삿	12532
##튬	12533
##헹	12534
##뮤	12535
##깜	12536
##뎅	12537
##딴	12538
##얄	12539
##꺄	12540
##꿨	12541
##뚜	12542
##텟	12543
##잤	12544
##룩	12545
##괘	12546
##닭	12547
##ㅡ	12548
##꽤	12549
##엥	12550
##콥	12551
##틈	12552
##띠	12553
##긱	12554
##낄	12555
##왜	12556
##렀	12557
##퀴	12558
##숀	12559
##슘	12560
##끔	12561
##뽕	12562
##튤	12563
##땜	12564
##뛰	12565
##싹	12566
##걀	12567
##뜩	12568
##캇	12569
##튠	12570
##챈	12571
##츙	12572
##끎	12573
##깐	12574
##빽	12575
##뚝	12576
##슛	12577
##췄	12578
##졍	12579
##퀘	12580
##ㅔ	12581
##갓	12582
##삽	12583
##덟	12584
##콕	12585
##콰	12586
##훔	12587
##랩	12588
##짖	12589
##떠	12590
##줍	12591
##쁨	12592
##픔	12593
##겊	12594
##솝	12595
##쟘	12596
##떄	12597
##슌	12598
##헝	12599
##닙	12600
##첼	12601
##릇	12602
##쿤	12603
##뽜	12604
##뽀	12605
##뚱	12606
##섞	12607
##녔	12608
##즉	12609
##엑	12610
##싼	12611
##끈	12612
##둬	12613
##솟	12614
##엎	12615
##꼐	12616
##뵐	12617
##뿜	12618
##짚	12619
##낫	12620
##빔	12621
##썽	12622
##걱	12623
##탯	12624
##썬	12625
##콴	12626
##딪	12627
##숴	12628
##춥	12629
##땀	12630
##퀵	12631
##풋	12632
##훤	12633
##겅	12634
##꿘	12635
##싫	12636
##찟	12637
##됭	12638
##샴	12639
##슐	12640
##샹	12641
##곽	12642
##옴	12643
##벙	12644
##챌	12645
##싯	12646
##펌	12647
##끅	12648
##얘	12649
##펐	12650
##뜻	12651
##펭	12652
##귄	12653
##밑	12654
##옆	12655
##갯	12656
##캰	12657
##끓	12658
##늑	12659
##윔	12660
##쫄	12661
##뀔	12662
##ㄱ	12663
##댈	12664
##횡	12665
##갉	12666
##뺑	12667
##쨋	12668
##뀜	12669
##밝	12670
##쥿	12671
##뤠	12672
##킴	12673
##밟	12674
##젬	12675
##쁜	12676
##뎌	12677
##돠	12678
##휼	12679
##헥	12680
##툭	12681
##팁	12682
##빰	12683
##샌	12684
##꾹	12685
##늅	12686
##촵	12687
##뱃	12688
##냑	12689
##뜰	12690
##녘	12691
##쏙	12692
##좁	12693
##쿵	12694
##꼭	12695
##썰	12696
##벞	12697
##댜	12698
##ㄶ	12699
##쥔	12700
##볍	12701
##슺	12702
##툐	12703
##춧	12704
##쭉	12705
##헷	12706
##댓	12707
##뺄	12708
##ㅠ	12709
##쿳	12710
##맘	12711
##칫	12712
##짇	12713
##됬	12714
##좆	12715
##묭	12716
##괜	12717
##샬	12718
##얗	12719
##딨	12720
##뱁	12721
##ㅒ	12722
##ㄺ	12723
##잌	12724
##윾	12725
##솁	12726
##멥	12727
##쭌	12728
##튕	12729
##캉	12730
##쭐	12731
##꺅	12732
##걷	12733
##풉	12734
##둣	12735
##앰	12736
##엡	12737
##굉	12738
##젯	12739
##캬	12740
##펑	12741
##껏	12742
##챤	12743
##떴	12744
##옮	12745
##챕	12746
##팸	12747
##땠	12748
##쉘	12749
##펴	12750
##읔	12751
##쳔	12752
##밎	12753
##냣	12754
##잼	12755
##굼	12756
##뀐	12757
##깡	12758
##쾰	12759
##뭄	12760
##샀	12761
##힝	12762
##텡	12763
##맷	12764
##튀	12765
##벵	12766
##긍	12767
##ㅁ	12768
##ㄲ	12769
##짭	12770
##뻘	12771
##뮨	12772
##셸	12773
##톳	12774
##곗	12775
##뷸	12776
##쏠	12777
##붓	12778
##ㅞ	12779
##ㅆ	12780
##듭	12781
##딧	12782
##찝	12783
##씻	12784
##핳	12785
##겉	12786
##뱡	12787
##삡	12788
##졘	12789
##썌	12790
##눌	12791
##횟	12792
##굿	12793
##륨	12794
##똔	12795
##퀜	12796
##랗	12797
##섨	12798
##쁩	12799
##뭔	12800
##볶	12801
##엌	12802
##뭘	12803
##돜	12804
##앜	12805
##펨	12806
##쳠	12807
##헴	12808
##딛	12809
##ㅏ	12810
##쳬	12811
##굳	12812
##믿	12813
##넉	12814
##좡	12815
##룀	12816
##얜	12817
##렷	12818
##쥘	12819
##쌓	12820
##힙	12821
##뤘	12822
##쟌	12823
##섰	12824
##긋	12825
##캘	12826
##챙	12827
##멱	12828
##텅	12829
##큭	12830
##왁	12831
##춋	12832
##쎈	12833
##꽁	12834
##늠	12835
##웩	12836
##쨰	12837
##컹	12838
##먀	12839
##눕	12840
##쳉	12841
##쑈	12842
##탰	12843
##닦	12844
##꽈	12845
##섀	12846
##꽝	12847
##옛	12848
##헐	12849
##톄	12850
##쐬	12851
##츰	12852
##봅	12853
##챘	12854
##빚	12855
##껄	12856
##훙	12857
##찢	12858
##떵	12859
##씌	12860
##귈	12861
##볐	12862
##긁	12863
##탬	12864
##괭	12865
##씽	12866
##찹	12867
##귓	12868
##긔	12869
##띄	12870
##롁	12871
##껑	12872
##쾡	12873
##맣	12874
##뿅	12875
##옐	12876
##ㄿ	12877
##팥	12878
##냘	12879
##팠	12880
##뜌	12881
##얍	12882
##뎬	12883
##젔	12884
##죡	12885
##몄	12886
##큄	12887
##휠	12888
##덥	12889
##꺃	12890
##햐	12891
##깎	12892
##뫼	12893
##낀	12894
##붐	12895
##멩	12896
##훌	12897
##뿔	12898
##뺭	12899
##몇	12900
##낳	12901
##ㅉ	12902
##ㅐ	12903
##넙	12904
##ㅕ	12905
##윅	12906
##ㅌ	12907
##챱	12908
##뎁	12909
##퀄	12910
##괵	12911
##앴	12912
##쫜	12913
##젖	12914
##뻤	12915
##ㄳ	12916
##쑬	12917
##켕	12918
##왑	12919
##얌	12920
##묶	12921
##덮	12922
##쩐	12923
##깥	12924
##헵	12925
##섶	12926
##짧	12927
##셌	12928
##캅	12929
##즙	12930
##웍	12931
##킁	12932
##쿡	12933
##얽	12934
##딫	12935
##뺸	12936
##뒷	12937
##덧	12938
##깍	12939
##ㅢ	12940
##멓	12941
##갭	12942
##꼼	12943
##훠	12944
##갛	12945
##퓸	12946
##늙	12947
##큥	12948
##뺌	12949
##눗	12950
##폄	12951
##멈	12952
##듦	12953
##볕	12954
##얹	12955
##돗	12956
##팰	12957
##큅	12958
##싷	12959
##숯	12960
##됴	12961
##섵	12962
##쾅	12963
##옙	12964
##ㅙ	12965
##딥	12966
##텁	12967
##븀	12968
##낱	12969
##뎍	12970
##틋	12971
##퍄	12972
##괌	12973
##쏜	12974
##넸	12975
##샥	12976
##눅	12977
##븟	12978
##붸	12979
##욧	12980
##쫀	12981
##쑤	12982
##얻	12983
##팎	12984
##밉	12985
##셱	12986
##짞	12987
##뎠	12988
##셍	12989
##륌	12990
##늪	12991
##곬	12992
##댑	12993
##녈	12994
##깅	12995
##쉼	12996
##굶	12997
##룻	12998
##썹	12999
##굣	13000
##꼽	13001
##맆	13002
##륍	13003
##짬	13004
##쩝	13005
##갠	13006
##삘	13007
##ㅀ	13008
##낟	13009
##앳	13010
##켐	13011
##띤	13012
##샾	13013
##텃	13014
##훕	13015
##칵	13016
##쎼	13017
##쿰	13018
##맑	13019
##솬	13020
##넴	13021
##껌	13022
##탸	13023
##쩨	13024
##썼	13025
##컥	13026
##녜	13027
##샐	13028
##덫	13029
##뽄	13030
##촛	13031
##뀨	13032
##뻗	13033
##깟	13034
##젊	13035
##뚤	13036
##덨	13037
##뤌	13038
##삑	13039
##깄	13040
##욤	13041
##웡	13042
##ㅃ	13043
##떱	13044
##꼰	13045
##씰	13046
##ㅛ	13047
##ㅑ	13048
##훨	13049
##랖	13050
##픠	13051
##탔	13052
##잃	13053
##뭍	13054
##뷘	13055
##찐	13056
##숱	13057
##짘	13058
##췃	13059
##찼	13060
##찻	13061
##켑	13062
##졋	13063
##숄	13064
##밈	13065
##핌	13066
##꺾	13067
##돝	13068
##랸	13069
##팃	13070
##뮌	13071
##꿉	13072
##갖	13073
##퇘	13074
##ㅘ	13075
##쪄	13076
##렝	13077
##ㅟ	13078
##맸	13079
##빋	13080
##휙	13081
##닠	13082
##뒹	13083
##낍	13084
##쟝	13085
##촐	13086
##젋	13087
##쿗	13088
##헉	13089
##믐	13090
##슭	13091
##찡	13092
##끊	13093
##갚	13094
##홋	13095
##넜	13096
##뺘	13097
##륀	13098
##욜	13099
##숔	13100
##륑	13101
##쭘	13102
##뗄	13103
##끙	13104
##ㅚ	13105
##쨔	13106
##둙	13107
##닑	13108
##쏟	13109
##졓	13110
##췌	13111
##엮	13112
##꼇	13113
##벚	13114
##줫	13115
##쥰	13116
##읜	13117
##앎	13118
##띨	13119
##띱	13120
##츼	13121
##맠	13122
##놜	13123
##냇	13124
##헀	13125
##쌴	13126
##닻	13127
##넵	13128
##뽁	13129
##퓰	13130
##읏	13131
##꿩	13132
##쳇	13133
##빴	13134
##뮴	13135
##걍	13136
##맺	13137
##빤	13138
##귬	13139
##떳	13140
##즤	13141
##똠	13142
##꿍	13143
##혠	13144
##앍	13145
##훑	13146
##궃	13147
##깽	13148
##즛	13149
##쒸	13150
##옾	13151
##싀	13152
##첫	13153
##쏼	13154
##푤	13155
##홓	13156
##낑	13157
##붑	13158
##셧	13159
##쌩	13160
##줏	13161
##캑	13162
##몐	13163
##곁	13164
##탉	13165
##홰	13166
##꿋	13167
##뒈	13168
##엨	13169
##늦	13170
##쏭	13171
##뺴	13172
##꾀	13173
##짹	13174
##륄	13175
##삥	13176
##귐	13177
##띔	13178
##뜝	13179
##쌰	13180
##뱌	13181
##퀀	13182
##묄	13183
##뗀	13184
##얕	13185
##튿	13186
##삯	13187
##웟	13188
##훅	13189
##숏	13190
##씁	13191
##뱉	13192
##뎨	13193
##픅	13194
##궉	13195
##핬	13196
##낰	13197
##봈	13198
##몌	13199
##룐	13200
##넝	13201
##묙	13202
##릐	13203
##꿇	13204
##쳄	13205
##옇	13206
##윽	13207
##쮸	13208
##몫	13209
##뫄	13210
##흣	13211
##뢴	13212
##ㄻ	13213
##낚	13214
##햅	13215
##츈	13216
##텼	13217
##뻑	13218
##쫘	13219
##눙	13220
##짢	13221
##뷕	13222
##뻬	13223
##ㄽ	13224
##죌	13225
##끽	13226
##쌥	13227
##뤽	13228
##깼	13229
##솽	13230
##ㅖ	13231
##줸	13232
##펼	13233
##짙	13234
##햏	13235
##뇽	13236
##뵬	13237
##꽥	13238
##뺏	13239
##몆	13240
##몯	13241
##쇤	13242
##꺽	13243
##웁	13244
##쫒	13245
##돤	13246
##헸	13247
##퀠	13248
##읓	13249
##잴	13250
##쉠	13251
##옉	13252
##곘	13253
##뷃	13254
##뿗	13255
##쳣	13256
##큔	13257
##닳	13258
##핼	13259
##샜	13260
##솹	13261
##쫌	13262
##옳	13263
##쫑	13264
##뷜	13265
##꿰	13266
##럅	13267
##릵	13268
##잿	13269
##윳	13270
##셕	13271
##넼	13272
##먕	13273
##칳	13274
##좨	13275
##챳	13276
##믄	13277
##휜	13278
##텄	13279
##삵	13280
##쓱	13281
##쥴	13282
##빕	13283
##붜	13284
##탤	13285
##툵	13286
##붠	13287
##밞	13288
##뺀	13289
##슁	13290
##먄	13291
##밢	13292
##숑	13293
##쉈	13294
##갇	13295
##슥	13296
##쥼	13297
##	13298
##깈	13299
##몭	13300
##뭅	13301
##옘	13302
##윕	13303
##쉭	13304
##쿱	13305
##쌉	13306
##걔	13307
##퉈	13308
##뷁	13309
##냨	13310
##핟	13311
##잰	13312
##헣	13313
##욍	13314
##깹	13315
##켯	13316
##첬	13317
##뛴	13318
##틍	13319
##켁	13320
##갼	13321
##엾	13322
##쪙	13323
##겡	13324
##굇	13325
##촘	13326
##왠	13327
##궜	13328
##푈	13329
##쳅	13330
##갬	13331
##쟛	13332
##옭	13333
##뵙	13334
##덞	13335
##퇼	13336
##잍	13337
##븥	13338
##컁	13339
##쇅	13340
##컫	13341
##텦	13342
##묾	13343
##뼉	13344
##헠	13345
##벰	13346
##똘	13347
##꽌	13348
##샛	13349
##땄	13350
##앓	13351
##왘	13352
##맢	13353
##갞	13354
##즏	13355
##쌌	13356
##얇	13357
##슼	13358
##뫃	13359
##쯰	13360
##럄	13361
##낯	13362
##넹	13363
##횔	13364
##켔	13365
##췬	13366
##샙	13367
##셤	13368
##윰	13369
##븨	13370
##퓔	13371
##햣	13372
##휩	13373
##횬	13374
##셩	13375
##멂	13376
##껀	13377
##떈	13378
##뛸	13379
##왐	13380
##썅	13381
##쪘	13382
##떽	13383
##뮐	13384
##뿍	13385
##슾	13386
##앟	13387
##삠	13388
##땽	13389
##뭣	13390
##꾜	13391
##껫	13392
##돚	13393
##솩	13394
##쐈	13395
##싣	13396
##귕	13397
##쩩	13398
##릍	13399
##뾰	13400
##콛	13401
##갰	13402
##웸	13403
##귑	13404
##쩼	13405
##춉	13406
##폽	13407
##죈	13408
##캎	13409
##ㄾ	13410
##홧	13411
##몀	13412
##숟	13413
##깬	13414
##죤	13415
##켘	13416
##믓	13417
##됫	13418
##켠	13419
##뷉	13420
##벱	13421
##뵌	13422
##땁	13423
##맬	13424
##왱	13425
##큇	13426
##뗴	13427
##븅	13428
##겋	13429
##멨	13430
##틔	13431
##쨈	13432
##읫	13433
##깠	13434
##쌘	13435
##컽	13436
##믕	13437
##빟	13438
##뼘	13439
##껒	13440
##됸	13441
##뚠	13442
##횐	13443
##팻	13444
##뎟	13445
##갹	13446
##킄	13447
##쉿	13448
##쌕	13449
##엫	13450
##쬐	13451
##ㅝ	13452
##쳰	13453
##젱	13454
##춛	13455
##촹	13456
##쟎	13457
##랼	13458
##묏	13459
##뗌	13460
##쨍	13461
##괏	13462
##쭙	13463
##듄	13464
##햎	13465
##헿	13466
##힁	13467
##굥	13468
##엤	13469
##떙	13470
##쩜	13471
##씄	13472
##뮹	13473
##쳑	13474
##멎	13475
##쉑	13476
##훰	13477
##흫	13478
##놘	13479
##웝	13480
##닯	13481
##쟂	13482
##눼	13483
##푱	13484
##퓜	13485
##툑	13486
##띈	13487
##씸	13488
##맏	13489
##늗	13490
##핰	13491
##뷴	13492
##쀠	13493
##긘	13494
##껭	13495
##툿	13496
##띰	13497
##읃	13498
##컾	13499
##뱟	13500
##탼	13501
##쨕	13502
##쌜	13503
##뇬	13504
##귁	13505
##쿌	13506
##듸	13507
##뽐	13508
##쑴	13509
##뽈	13510
##팼	13511
##펏	13512
##쒀	13513
##끆	13514
##깻	13515
##홥	13516
##웻	13517
##핱	13518
##솨	13519
##볓	13520
##뇐	13521
##죵	13522
##퐄	13523
##힉	13524
##뗔	13525
##슉	13526
##옄	13527
##뚬	13528
##삣	13529
##큠	13530
##쇳	13531
##콸	13532
##늉	13533
##쾀	13534
##컸	13535
##푁	13536
##킼	13537
##컄	13538
##컼	13539
##킠	13540
##댱	13541
##횽	13542
##웽	13543
##뗏	13544
##숌	13545
##놐	13546
##탶	13547
##햔	13548
##믜	13549
##럇	13550
##볜	13551
##젶	13552
##쓩	13553
##뻣	13554
##샏	13555
##훵	13556
##겪	13557
##븬	13558
##횢	13559
##묺	13560
##붛	13561
##낏	13562
##듧	13563
##넫	13564
##밷	13565
##뉜	13566
##벋	13567
##햑	13568
##옻	13569
##옅	13570
##껸	13571
##첯	13572
##뤤	13573
##뭡	13574
##콱	13575
##츳	13576
##섦	13577
##칰	13578
##뻭	13579
##댸	13580
##깸	13581
##곯	13582
##쳥	13583
##퀫	13584
##잦	13585
##뜄	13586
##ㄸ	13587
##쳈	13588
##펵	13589
##잪	13590
##뗜	13591
##뜷	13592
##흩	13593
##봥	13594
##갗	13595
##룟	13596
##톸	13597
##뼛	13598
##덝	13599
##롸	13600
##턚	13601
##븍	13602
##삳	13603
##쑨	13604
##솅	13605
##혓	13606
##헯	13607
##젧	13608
##쀍	13609
##썖	13610
##넀	13611
##흴	13612
##삔	13613
##롹	13614
##빳	13615
##좔	13616
##쩄	13617
##쫙	13618
##핡	13619
##쬬	13620
##헭	13621
##욯	13622
##닺	13623
##젭	13624
##닼	13625
##묀	13626
##륩	13627
##밮	13628
##쾃	13629
##홤	13630
##힣	13631
##봊	13632
##좇	13633
##랓	13634
##쏴	13635
##쉥	13636
##둏	13637
##랃	13638
##삗	13639
##씅	13640
##뗐	13641
##걘	13642
##셑	13643
##읶	13644
##끕	13645
##쐐	13646
##깰	13647
##떁	13648
##옝	13649
##쭁	13650
##졈	13651
##켤	13652
##븜	13653
##겇	13654
##슸	13655
##륐	13656
##옡	13657
##녯	13658
##뻉	13659
##쎾	13660
##픗	13661
##촤	13662
##쪠	13663
##빱	13664
##렜	13665
##뱈	13666
##땍	13667
##뉼	13668
##뭬	13669
##뉵	13670
##롇	13671
##윷	13672
##묜	13673
##넡	13674
##봙	13675
##옲	13676
##샒	13677
##쇨	13678
##껨	13679
##픕	13680
##롲	13681
##뻰	13682
##귯	13683
##쇽	13684
##꼯	13685
##먁	13686
##낡	13687
##쟆	13688
##릏	13689
##읗	13690
##젇	13691
##톼	13692
##랲	13693
##놧	13694
##돐	13695
##믖	13696
##쯩	13697
##곈	13698
##팹	13699
##횃	13700
##캌	13701
##흭	13702
##쯧	13703
##켸	13704
##밂	13705
##볘	13706
##쨉	13707
##딹	13708
##륾	13709
##빻	13710
##꼿	13711
##샅	13712
##앚	13713
##쑹	13714
##뒴	13715
##얺	13716
##붇	13717
##늣	13718
##듓	13719
##섐	13720
##섈	13721
##닜	13722
##쁑	13723
##챵	13724
##뢸	13725
##뻡	13726
##냡	13727
##뒨	13728
##쯥	13729
##녤	13730
##읋	13731
##찧	13732
##뉠	13733
##픝	13734
##눞	13735
##챰	13736
##깉	13737
##좃	13738
##먑	13739
##륏	13740
##틑	13741
##뒬	13742
##챂	13743
##칲	13744
##씼	13745
##챨	13746
##쌱	13747
##벹	13748
##푠	13749
##덬	13750
##꼠	13751
##뉸	13752
##읖	13753
##뭥	13754
##턉	13755
##핲	13756
##됑	13757
##꿎	13758
##댇	13759
##퉜	13760
##뿟	13761
##읕	13762
##핝	13763
##욬	13764
##읂	13765
##핧	13766
##툠	13767
##슄	13768
##켬	13769
##켙	13770
##겍	13771
##껼	13772
##떰	13773
##얶	13774
##퉤	13775
##뿝	13776
##숩	13777
##큿	13778
##욥	13779
##뚯	13780
##먈	13781
##쓔	13782
##겻	13783
##쥡	13784
##쿈	13785
##퀍	13786
##묠	13787
##녛	13788
##짯	13789
##웤	13790
##쎔	13791
##춍	13792
##롼	13793
##뼝	13794
##팓	13795
##퍙	13796
##쎠	13797
##겆	13798
##졷	13799
##솃	13800
##돡	13801
##꺗	13802
##텻	13803
##늿	13804
##뙇	13805
##슙	13806
##붗	13807
##휀	13808
##쿙	13809
##챦	13810
##늇	13811
##쟨	13812
##뾼	13813
##엳	13814
##퀑	13815
##붆	13816
##쳘	13817
##쑵	13818
##쎌	13819
##칮	13820
##갨	13821
##뾆	13822
##셥	13823
##햘	13824
##홇	13825
##퐝	13826
##맅	13827
##쁭	13828
##죱	13829
##똣	13830
##쉄	13831
##캴	13832
##썻	13833
##뛔	13834
##쟉	13835
##밐	13836
##즁	13837
##쎽	13838
##쬲	13839
##짰	13840
##읎	13841
##츔	13842
##죰	13843
##붯	13844
##왚	13845
##엶	13846
##햡	13847
##냤	13848
##짼	13849
##긂	13850
##껐	13851
##풂	13852
##읊	13853
##됄	13854
##툽	13855
##엷	13856
##삤	13857
##섑	13858
##읭	13859
##똏	13860
##퐞	13861
##줎	13862
##뉨	13863
##욹	13864
##뀍	13865
##밡	13866
##싴	13867
##넖	13868
##흄	13869
##뇩	13870
##녬	13871
##솎	13872
##졀	13873
##젴	13874
##햝	13875
##좐	13876
##댯	13877
##렫	13878
##풰	13879
##퀭	13880
##띃	13881
##눝	13882
##쥠	13883
##쪈	13884
##얙	13885
##뀻	13886
##꿴	13887
##긷	13888
##맟	13889
##섕	13890
##펲	13891
##딲	13892
##튽	13893
##쟐	13894
##쨘	13895
##쇙	13896
##엃	13897
##팤	13898
##씜	13899
##훍	13900
##푕	13901
##겯	13902
##쟠	13903
##줴	13904
##췐	13905
##곲	13906
##읪	13907
##쒱	13908
##귿	13909
##싁	13910
##묑	13911
##쀼	13912
##밨	13913
##튁	13914
##뺠	13915
##씐	13916
##쏽	13917
##룁	13918
##츕	13919
##섻	13920
##튝	13921
##맇	13922
##쟀	13923
##짊	13924
##짆	13925
##틉	13926
##뗘	13927
##줓	13928
##몿	13929
##흗	13930
##탖	13931
##럤	13932
##횻	13933
##곸	13934
##봌	13935
##죗	13936
##캿	13937
##깏	13938
##핮	13939
##췩	13940
##믾	13941
##픳	13942
##휏	13943
##퐃	13944
##슮	13945
##틂	13946
##씡	13947
##춈	13948
##덖	13949
##롑	13950
##룔	13951
##꽐	13952
##푯	13953
##뵹	13954
##캪	13955
##졉	13956
##롓	13957
##썡	13958
##꺵	13959
##늡	13960
##혬	13961
##놃	13962
##쫗	13963
##솀	13964
##엏	13965
##똴	13966
##쒜	13967
##롷	13968
##츌	13969
##럯	13970
##맻	13971
##벛	13972
##풔	13973
##닒	13974
##햤	13975
##퐈	13976
##햬	13977
##웉	13978
##턀	13979
##귱	13980
##딬	13981
##폘	13982
##꾕	13983
##뤀	13984
##벴	13985
##뢉	13986
##뤗	13987
##큡	13988
##퍅	13989
##킈	13990
##윱	13991
##곌	13992
##큣	13993
##쨜	13994
##얐	13995
##촴	13996
##퇙	13997
##읻	13998
##멬	13999
##욀	14000
##옼	14001
##큽	14002
##킾	14003
##됌	14004
##릠	14005
##챃	14006
##롣	14007
##셒	14008
##룍	14009
##긑	14010
##볱	14011
##됏	14012
##쩰	14013
##녓	14014
##먐	14015
##뀩	14016
##쿸	14017
##젹	14018
##얭	14019
##쨎	14020
##찦	14021
##챡	14022
##옿	14023
##앀	14024
##짗	14025
##섊	14026
##맂	14027
##쳴	14028
##샼	14029
##칡	14030
##컺	14031
##떯	14032
##뱐	14033
##퉷	14034
##꿏	14035
##긲	14036
##뜽	14037
##댠	14038
##웊	14039
##엊	14040
##껃	14041
##쟹	14042
##튭	14043
##룅	14044
##싟	14045
##걁	14046
##걋	14047
##뙳	14048
##홂	14049
##믽	14050
##샶	14051
##읰	14052
##솧	14053
##쒠	14054
##볙	14055
##줜	14056
##엜	14057
##엒	14058
##섣	14059
##옸	14060
##뫙	14061
##훁	14062
##걲	14063
##훋	14064
##퍌	14065
##퇀	14066
##캤	14067
##끍	14068
##랒	14069
##닰	14070
##켭	14071
##묽	14072
##왇	14073
##뜹	14074
##줒	14075
##댘	14076
##췰	14077
##돨	14078
##롮	14079
##엙	14080
##텠	14081
##덛	14082
##핦	14083
##욿	14084
##휄	14085
##녠	14086
##읒	14087
##뇸	14088
##칽	14089
##꺠	14090
##젙	14091
##냫	14092
##끤	14093
##왝	14094
##륻	14095
##쉅	14096
##샄	14097
##븻	14098
##쐉	14099
##풱	14100
##핶	14101
##궝	14102
##멉	14103
##둰	14104
##섥	14105
##붏	14106
##솓	14107
##쓤	14108
##츻	14109
##뾱	14110
##밬	14111
##푷	14112
##쌋	14113
##맼	14114
##뵜	14115
##릘	14116
##짂	14117
##퓩	14118
##혿	14119
##멌	14120
##겝	14121
##읅	14122
##곀	14123
##봬	14124
##쥤	14125
##쫭	14126
##봔	14127
##뒥	14128
##쑊	14129
##븩	14130
##뺫	14131
##맍	14132
##듁	14133
##갘	14134
##닟	14135
##쟜	14136
##땨	14137
##긜	14138
##랕	14139
##쉣	14140
##쫏	14141
##휅	14142
##섡	14143
##돞	14144
##튐	14145
##뎋	14146
##겣	14147
##갅	14148
##뻠	14149
##넋	14150
##앆	14151
##턍	14152
##팏	14153
##뵨	14154
##솊	14155
##쬽	14156
##퓽	14157
##꽅	14158
##섧	14159
##휸	14160
##쫫	14161
##븃	14162
##엪	14163
##꼳	14164
##왤	14165
##듟	14166
##쏨	14167
##둗	14168
##쎅	14169
##껜	14170
##횸	14171
##퓐	14172
##졧	14173
##읧	14174
##읠	14175
##샇	14176
##켱	14177
##궨	14178
##큫	14179
##펔	14180
##췸	14181
##킳	14182
##봣	14183
##뷛	14184
##럈	14185
##뢍	14186
##퍀	14187
##핚	14188
##릁	14189
##엍	14190
##긿	14191
##푄	14192
##껵	14193
##쉨	14194
##폯	14195
##뙤	14196
##뎄	14197
##벫	14198
##먗	14199
##챸	14200
##넒	14201
##휭	14202
##쵭	14203
##뀝	14204
##뜁	14205
##얉	14206
##죶	14207
##쩧	14208
##롫	14209
##밗	14210
##묫	14211
##맀	14212
##닸	14213
##곙	14214
##댭	14215
##슽	14216
##튱	14217
##뱔	14218
##껠	14219
##뤡	14220
##흎	14221
##흓	14222
##쵁	14223
##늒	14224
##썎	14225
##낢	14226
##늕	14227
##볻	14228
##뎻	14229
##퀌	14230
##욷	14231
##꽹	14232
##쎃	14233
##쨤	14234
##쬰	14235
##궷	14236
##튈	14237
##찓	14238
##쥭	14239
##즑	14240
##싢	14241
##덪	14242
##맫	14243
##킅	14244
##꿜	14245
##닊	14246
##눟	14247
##퍈	14248
##얫	14249
##믁	14250
##홑	14251
##땟	14252
##찎	14253
##뒫	14254
##뉻	14255
##슆	14256
##롈	14257
##싿	14258
##콉	14259
##똬	14260
##휳	14261
##봍	14262
##꺏	14263
##쫣	14264
##똵	14265
##뽧	14266
##꽑	14267
##뽭	14268
##딺	14269
##쑘	14270
##퍠	14271
##쑝	14272
##윝	14273
##벍	14274
##넗	14275
##쓲	14276
##옑	14277
##퀙	14278
##쏸	14279
##삷	14280
##쯕	14281
##큉	14282
##벜	14283
##꾱	14284
##퓙	14285
##륫	14286
##뱍	14287
##돴	14288
##찣	14289
##늴	14290
##춯	14291
##띁	14292
##웄	14293
##쬈	14294
##뙈	14295
##탿	14296
##첲	14297
##믬	14298
##걳	14299
##벲	14300
##캆	14301
##굔	14302
##뎰	14303
##굄	14304
##붊	14305
##쒔	14306
##곪	14307
##묷	14308
##밪	14309
##쬘	14310
##욌	14311
##즠	14312
##횰	14313
##즨	14314
##앧	14315
##엩	14316
##휫	14317
##덍	14318
##떧	14319
##탵	14320
##앸	14321
##췁	14322
##읙	14323
##꿕	14324
##롶	14325
##뎜	14326
##붘	14327
##쳡	14328
##듼	14329
##뺩	14330
##뜐	14331
##궆	14332
##깩	14333
##틐	14334
##탏	14335
##뚥	14336
##됀	14337
##씪	14338
##좍	14339
##촥	14340
##꺘	14341
##쮜	14342
##낲	14343
##쒐	14344
##쪨	14345
##뤈	14346
##릊	14347
##랳	14348
##뎂	14349
##슶	14350
##닶	14351
##뻿	14352
##뉩	14353
##붤	14354
##찿	14355
##힜	14356
##훟	14357
##삮	14358
##긺	14359
##훓	14360
##듥	14361
##녂	14362
##쥽	14363
##퉨	14364
##윥	14365
##앋	14366
##맄	14367
##띌	14368
##홐	14369
##픤	14370
##뿁	14371
##돇	14372
##붵	14373
##촠	14374
##둍	14375
##섁	14376
##샆	14377
##닞	14378
##낻	14379
##뢱	14380
##둟	14381
##쳌	14382
##섴	14383
##솑	14384
##웱	14385
##읆	14386
##엻	14387
##쏀	14388
##짷	14389
##괋	14390
##횩	14391
##폳	14392
##얅	14393
##쏵	14394
##뒕	14395
##뫞	14396
##뿷	14397
##땞	14398
##뒗	14399
##됵	14400
##롊	14401
##뙨	14402
##셆	14403
##봘	14404
##쵀	14405
##퓻	14406
##죷	14407
##샊	14408
##둴	14409
##콭	14410
##쬼	14411
##빂	14412
##쩒	14413
##랟	14414
##꿝	14415
##늰	14416
##뒁	14417
##뗃	14418
##뤅	14419
##룄	14420
##듹	14421
##뽂	14422
##궘	14423
##쬥	14424
##톹	14425
##댤	14426
##젟	14427
##뗵	14428
##뼤	14429
##뚧	14430
##렼	14431
##슦	14432
##텬	14433
##쮠	14434
##촟	14435
##콬	14436
##퐆	14437
##잆	14438
##픖	14439
##틊	14440
##졤	14441
##뵀	14442
##팉	14443
##웦	14444
##뱨	14445
##럐	14446
##뤯	14447
##룱	14448
##됍	14449
##핻	14450
##뇻	14451
##봑	14452
##먜	14453
##렺	14454
##똽	14455
##쁙	14456
##읐	14457
##랔	14458
##긏	14459
##봫	14460
##햫	14461
##쎵	14462
##픎	14463
##휨	14464
##숸	14465
##볔	14466
##쥇	14467
##긇	14468
##챽	14469
##톩	14470
##쪾	14471
##볫	14472
##쩃	14473
##븝	14474
##팦	14475
##꿧	14476
##햊	14477
##훝	14478
##뤔	14479
##곃	14480
##쭊	14481
##팈	14482
##뤂	14483
##곻	14484
##쑛	14485
##볌	14486
##햠	14487
##돳	14488
##깆	14489
##뻴	14490
##윜	14491
##꿸	14492
##웕	14493
##욉	14494
##씯	14495
##놰	14496
##혱	14497
##퐤	14498
##덭	14499
##뱄	14500
##혤	14501
##턕	14502
##껗	14503
##홱	14504
##뮉	14505
##뗬	14506
##홭	14507
##힠	14508
##톮	14509
##퍗	14510
##곺	14511
##욨	14512
##훳	14513
##몪	14514
##렄	14515
##쵤	14516
##낔	14517
##빝	14518
##싐	14519
##윘	14520
##눤	14521
##뗍	14522
##븡	14523
##뀽	14524
##툻	14525
##렂	14526
##붝	14527
##홯	14528
##듷	14529
##졲	14530
##숖	14531
##뉙	14532
##뗼	14533
##쾍	14534
##뷫	14535
##줭	14536
##뜳	14537
##뚵	14538
##즷	14539
##핣	14540
##듕	14541
##췍	14542
##쬔	14543
##왯	14544
##녇	14545
##퓬	14546
##덣	14547
##죸	14548
##끠	14549
##잋	14550
##븛	14551
##얃	14552
##칻	14553
##좂	14554
##뼁	14555
##뫅	14556
##됙	14557
##읹	14558
##껬	14559
##잏	14560
##쎕	14561
##춭	14562
##뀬	14563
##끜	14564
##픟	14565
##읿	14566
##씔	14567
##앒	14568
##긩	14569
##떘	14570
##뱝	14571
##칬	14572
##춀	14573
##땔	14574
##슧	14575
##뿓	14576
##뗋	14577
##쏩	14578
##몋	14579
##쵹	14580
##홪	14581
##껩	14582
##겓	14583
##죔	14584
##햿	14585
##풜	14586
##챺	14587
##릥	14588
##몓	14589
##멛	14590
##쯱	14591
##궛	14592
##탹	14593
##텹	14594
##툉	14595
##졎	14596
##잗	14597
##흨	14598
##폕	14599
##폥	14600
##쿽	14601
##뾔	14602
##믻	14603
##멷	14604
##잞	14605
##떥	14606
##좈	14607
##욺	14608
##츹	14609
##돧	14610
##앛	14611
##꼉	14612
##쯜	14613
##쓿	14614
##뷋	14615
##퀏	14616
##콮	14617
##쉡	14618
##쨱	14619
##뭭	14620
##뫟	14621
##걜	14622
##뿎	14623
##꼍	14624
##쌨	14625
##킽	14626
##뾲	14627
##깤	14628
##읳	14629
##쐇	14630
##툇	14631
##팣	14632
##꿑	14633
##뗶	14634
##걼	14635
##걏	14636
##닲	14637
##릳	14638
##렆	14639
##킸	14640
##죹	14641
##쿧	14642
##씝	14643
##딍	14644
##캍	14645
##텊	14646
##닽	14647
##쟙	14648
##칢	14649
##띡	14650
##텋	14651
##럘	14652
##윁	14653
##겿	14654
##놕	14655
##햚	14656
##닧	14657
##싕	14658
##밁	14659
##밣	14660
##풒	14661
##렞	14662
##젛	14663
##쐰	14664
##쯋	14665
##잨	14666
##툥	14667
##꽊	14668
##겴	14669
##훽	14670
##텩	14671
##즥	14672
##덙	14673
##헜	14674
##똟	14675
##똡	14676
##펬	14677
##츩	14678
##돍	14679
##닁	14680
##튺	14681
##귡	14682
##긮	14683
##깑	14684
##툘	14685
##굈	14686
##벧	14687
##춱	14688
##냬	14689
##쭓	14690
##뀢	14691
##빧	14692
##폑	14693
##폮	14694
##젂	14695
##쎗	14696
##떦	14697
##둇	14698
##땝	14699
##쩸	14700
##맜	14701
##캽	14702
##돖	14703
##왒	14704
##싮	14705
##밦	14706
##듳	14707
##썋	14708
##돵	14709
##쑻	14710
##힡	14711
##웎	14712
##잂	14713
##찯	14714
##쟞	14715
##잩	14716
##믤	14717
##퇗	14718
##늩	14719
##푝	14720
##괍	14721
##씃	14722
##솦	14723
##궬	14724
##쓋	14725
##갣	14726
##닏	14727
##룝	14728
##귝	14729
##웥	14730
##닡	14731
##샠	14732
##췼	14733
##캋	14734
##쨥	14735
##읇	14736
##윀	14737
##왹	14738
##읩	14739
##윸	14740
##랆	14741
##퉆	14742
##쌐	14743
##췅	14744
##낛	14745
##갂	14746
##캵	14747
##쁫	14748
##뉫	14749
##쿔	14750
##뚞	14751
##쭹	14752
##뺚	14753
##뫀	14754
##듨	14755
##웓	14756
##춣	14757
##긤	14758
##롐	14759
##굘	14760
##꽛	14761
##눨	14762
##뷧	14763
##냏	14764
##곷	14765
##옺	14766
##낪	14767
##밊	14768
##뎊	14769
##벖	14770
##넠	14771
##쨀	14772
##넚	14773
##좟	14774
##끟	14775
##쥣	14776
##괗	14777
##쉪	14778
##괂	14779
##옠	14780
##욋	14781
##펰	14782
##짴	14783
##먿	14784
##랰	14785
##쌞	14786
##픨	14787
##땻	14788
##킐	14789
##쁋	14790
##옓	14791
##곕	14792
##놁	14793
##뒿	14794
##댊	14795
##땗	14796
##줙	14797
##뛌	14798
##뷀	14799
##짦	14800
##렾	14801
##놂	14802
##좝	14803
##붴	14804
##뿨	14805
##햰	14806
##갊	14807
##돎	14808
##뭏	14809
##뚼	14810
##뼌	14811
##긶	14812
##쫍	14813
##뀙	14814
##뚮	14815
##쐙	14816
##뽟	14817
##뀪	14818
##툣	14819
##볽	14820
##긪	14821
##홁	14822
##쯬	14823
##쩬	14824
##헔	14825
##덷	14826
##틓	14827
##굷	14828
##쯉	14829
##븓	14830
##쎆	14831
##뽤	14832
##꿂	14833
##꿱	14834
##싰	14835
##슳	14836
##됮	14837
##놯	14838
##됗	14839
##솖	14840
##춴	14841
##엞	14842
##퐠	14843
##쀏	14844
##욣	14845
##츅	14846
##쌸	14847
##렿	14848
##긌	14849
##퍝	14850
##줃	14851
##싈	14852
##씍	14853
##뇝	14854
##칯	14855
##봒	14856
##켝	14857
##쀨	14858
##뇄	14859
##뭈	14860
##묗	14861
##싑	14862
##낶	14863
##즹	14864
##봨	14865
##몃	14866
##뛹	14867
##죨	14868
##뭋	14869
##엵	14870
##뽓	14871
##옜	14872
##윋	14873
##둫	14874
##탣	14875
##똻	14876
##괬	14877
##쉇	14878
##쒹	14879
##쨏	14880
##귾	14881
##몊	14882
##튓	14883
##쵠	14884
##뼸	14885
##뢔	14886
##죻	14887
##쯘	14888
##돩	14889
##캢	14890
##깢	14891
##횄	14892
##컈	14893
##졩	14894
##깞	14895
##숡	14896
##릋	14897
##껙	14898
##뫈	14899
##챝	14900
##밠	14901
##둉	14902
##쾁	14903
##벐	14904
##꺀	14905
##턔	14906
##멻	14907
##럲	14908
##쩟	14909
##쮹	14910
##뎔	14911
##룳	14912
##첞	14913
##쓺	14914
##퓅	14915
##슡	14916
##쎂	14917
##긓	14918
##텣	14919
##쏌	14920
##뽴	14921
##뾸	14922
##횅	14923
##룃	14924
##퐐	14925
##밯	14926
##쩠	14927
##딮	14928
##믯	14929
##늨	14930
##캭	14931
##녺	14932
##왬	14933
##왂	14934
##쒯	14935
##럍	14936
##큺	14937
##헡	14938
##삒	14939
##몔	14940
##쁐	14941
##챼	14942
##픓	14943
##봠	14944
##쫔	14945
##뛈	14946
##봴	14947
##돟	14948
##렏	14949
##뎢	14950
##릃	14951
##녑	14952
##콀	14953
##텽	14954
##댝	14955
##앖	14956
##줕	14957
##핛	14958
##륗	14959
##괃	14960
##쒴	14961
##엦	14962
##뺵	14963
##겕	14964
##냙	14965
##뗠	14966
##뷤	14967
##싲	14968
##쾩	14969
##갵	14970
##둄	14971
##넢	14972
##슯	14973
##큪	14974
##걐	14975
##렡	14976
##탙	14977
##븕	14978
##닾	14979
##륽	14980
##퇸	14981
##늫	14982
##뻄	14983
##팯	14984
##쑌	14985
##뜫	14986
##슢	14987
##잫	14988
##쳒	14989
##숳	14990
##쏻	14991
##랛	14992
##맊	14993
##씤	14994
##웒	14995
##쑐	14996
##핓	14997
##뷍	14998
##맃	14999
##쇡	15000
##멑	15001
##샂	15002
##늼	15003
##뱋	15004
##랋	15005
##듶	15006
##놇	15007
##훴	15008
##댖	15009
##뚁	15010
##훯	15011
##껚	15012
##쨧	15013
##쎘	15014
##샸	15015
##햌	15016
##쏫	15017
##쉖	15018
##댧	15019
##튘	15020
##쪌	15021
##햛	15022
##쿩	15023
##쁥	15024
##콫	15025
##뭴	15026
##뭠	15027
##좄	15028
##셭	15029
##놑	15030
##꼮	15031
##띙	15032
##붹	15033
##옃	15034
##틆	15035
##쩅	15036
##썄	15037
##빜	15038
##뤁	15039
##륷	15040
##탇	15041
##짔	15042
##릌	15043
##큩	15044
##텰	15045
##뤨	15046
##둿	15047
##옒	15048
##덯	15049
##죳	15050
##뷥	15051
##쁴	15052
##휵	15053
##딈	15054
##첄	15055
##곅	15056
##뒓	15057
##쵝	15058
##딯	15059
##뛗	15060
##눽	15061
##젺	15062
##뫁	15063
##횾	15064
##곂	15065
##섺	15066
##귺	15067
##겢	15068
##쉤	15069
##윶	15070
##뭑	15071
##쌟	15072
##땛	15073
##쮀	15074
##붱	15075
##뒵	15076
##핔	15077
##뭊	15078
##캼	15079
##쑼	15080
##졵	15081
##줼	15082
##휗	15083
##헼	15084
##췻	15085
##윿	15086
##엓	15087
##햟	15088
##쓉	15089
##짡	15090
##뒑	15091
##켮	15092
##싄	15093
##슻	15094
##켣	15095
##놥	15096
##쉉	15097
##쨖	15098
##퀩	15099
##냟	15100
##틧	15101
##뻼	15102
##딀	15103
##뢐	15104
##끡	15105
##묨	15106
##짿	15107
##셖	15108
##웈	15109
##큮	15110
##꺌	15111
##뽝	15112
##뎦	15113
##됈	15114
##꺙	15115
##뀰	15116
##팒	15117
##릈	15118
##꾿	15119
##쾽	15120
##벝	15121
##팂	15122
##틩	15123
##섄	15124
##줆	15125
##짛	15126
##둚	15127
##벸	15128
##엝	15129
##쉒	15130
##렦	15131
##촷	15132
##멶	15133
##꽭	15134
##얾	15135
##썪	15136
##좧	15137
##줐	15138
##쬴	15139
##됼	15140
##굑	15141
##꺢	15142
##뭎	15143
##맓	15144
##싧	15145
##댋	15146
##핿	15147
##줊	15148
##셟	15149
##닚	15150
##숮	15151
##돰	15152
##뵷	15153
##졜	15154
##싦	15155
##춝	15156
##틜	15157
##벟	15158
##랻	15159
##띾	15160
##뽱	15161
##젆	15162
##옏	15163
##뭌	15164
##캜	15165
##뀟	15166
##썐	15167
##쥥	15168
##퓹	15169
##쾈	15170
##갋	15171
##뇠	15172
##쥑	15173
##궹	15174
##륶	15175
##긧	15176
##떫	15177
##얖	15178
##몼	15179
##톲	15180
##똧	15181
##뽘	15182
##쑷	15183
##쮝	15184
##츗	15185
##뺙	15186
##믱	15187
##뷈	15188
##먳	15189
##뮻	15190
##넽	15191
##즂	15192
##릆	15193
##쒞	15194
##틷	15195
##튻	15196
##촾	15197
##휑	15198
##뚸	15199
##괆	15200
##췈	15201
##넞	15202
##웷	15203
##뤵	15204
##맗	15205
##췽	15206
##꼄	15207
##겤	15208
##곩	15209
##빾	15210
##컭	15211
##뵑	15212
##룯	15213
##귶	15214
##뙓	15215
##톗	15216
##뭩	15217
##퇄	15218
##뭵	15219
##삨	15220
##뒝	15221
##궇	15222
##쉙	15223
##뢓	15224
##쩽	15225
##땕	15226
##뱆	15227
##똫	15228
##즵	15229
##떔	15230
##컿	15231
##깂	15232
##슟	15233
##녝	15234
##먺	15235
##톕	15236
##겾	15237
##뇓	15238
##뮜	15239
##숼	15240
##먘	15241
##셊	15242
##곖	15243
##쵮	15244
##빩	15245
##왖	15246
##굠	15247
##뚀	15248
##셣	15249
##짋	15250
##폇	15251
##찷	15252
##쮓	15253
##헁	15254
##갷	15255
##혻	15256
##욾	15257
##읺	15258
##끨	15259
##샻	15260
##쳿	15261
##앢	15262
##곴	15263
##헑	15264
##쇗	15265
##귚	15266
##괙	15267
##믇	15268
##훡	15269
##꽜	15270
##핖	15271
##쑟	15272
##뛟	15273
##봗	15274
##삧	15275
##쟄	15276
##풑	15277
##쒼	15278
##욛	15279
##핤	15280
##웋	15281
##쏲	15282
##뀠	15283
##믙	15284
##쟻	15285
##췹	15286
##쳗	15287
##꾁	15288
##웧	15289
##흟	15290
##흝	15291
##핁	15292
##깋	15293
##픙	15294
##낣	15295
##쭨	15296
##쪗	15297
##롵	15298
##릔	15299
##릮	15300
##퉅	15301
##팖	15302
##앝	15303
##늧	15304
##젵	15305
##홒	15306
##햭	15307
##웛	15308
##뺅	15309
##욈	15310
##퉌	15311
##쫩	15312
##핽	15313
##훚	15314
##벎	15315
##왙	15316
##얿	15317
##폅	15318
##칱	15319
##굛	15320
##댦	15321
##쾬	15322
##줵	15323
##랅	15324
##혯	15325
##릯	15326
##뎈	15327
##킌	15328
##읨	15329
##썀	15330
##챞	15331
##믛	15332
##홨	15333
##썁	15334
##뗗	15335
##뚭	15336
##큎	15337
##텆	15338
##슲	15339
##뇔	15340
##뿠	15341
##줠	15342
##멊	15343
##찱	15344
##걕	15345
##땩	15346
##뼥	15347
##앻	15348
##헗	15349
##쀡	15350
##윹	15351
##퇜	15352
##윟	15353
##빪	15354
##걌	15355
##럶	15356
##틘	15357
##끾	15358
##쎙	15359
##몴	15360
##흿	15361
##맽	15362
##쀾	15363
##먃	15364
##삜	15365
##끵	15366
##뫌	15367
##덌	15368
##츱	15369
##듫	15370
##칞	15371
##캈	15372
##셓	15373
##놏	15374
##잒	15375
##쥌	15376
##풸	15377
##돿	15378
##촡	15379
##춇	15380
##뺼	15381
##쭀	15382
##퐑	15383
##볟	15384
##놩	15385
##큻	15386
##혅	15387
##넎	15388
##눶	15389
##돫	15390
##줮	15391
##껶	15392
##웗	15393
##뛃	15394
##괧	15395
##쭵	15396
##힗	15397
##붰	15398
##뇹	15399
##핕	15400
##춸	15401
##퓍	15402
##쀓	15403
##콪	15404
##릾	15405
##뢀	15406
##깯	15407
##뿩	15408
##쒂	15409
##쩹	15410
##뛩	15411
##랎	15412
##엱	15413
##뜜	15414
##롕	15415
##킆	15416
##벉	15417
##듰	15418
##옂	15419
##맖	15420
##귥	15421
##롴	15422
##뻇	15423
##띳	15424
##붼	15425
##븪	15426
##풴	15427
##옽	15428
##땸	15429
##릀	15430
##썜	15431
##걩	15432
##듵	15433
##땳	15434
##렢	15435
##얠	15436
##꼅	15437
##톺	15438
##컀	15439
##쯍	15440
##텗	15441
##궭	15442
##긬	15443
##몁	15444
##륮	15445
##쌷	15446
##돓	15447
##깓	15448
##뽙	15449
##뚷	15450
##붖	15451
##뜵	15452
##둩	15453
##뛷	15454
##뗻	15455
##띧	15456
##쭸	15457
##뷇	15458
##괠	15459
##싻	15460
##삻	15461
##떋	15462
##둈	15463
##뾘	15464
##빆	15465
##뵥	15466
##뛣	15467
##홣	15468
##꾫	15469
##벏	15470
##덀	15471
##쑁	15472
##횝	15473
##옫	15474
##즡	15475
##쟴	15476
##칀	15477
##둧	15478
##죙	15479
##궞	15480
##귪	15481
##궸	15482
##궼	15483
##꺈	15484
##푴	15485
##뇾	15486
##뺶	15487
##젃	15488
##봡	15489
##뵘	15490
##슠	15491
##맒	15492
##굻	15493
##켞	15494
##럻	15495
##뛝	15496
##헚	15497
##큾	15498
##텂	15499
##쬿	15500
##넁	15501
##뼜	15502
##걓	15503
##옰	15504
##딻	15505
##쬷	15506
##홅	15507
##쌻	15508
##풇	15509
##껰	15510
##퇵	15511
##뤰	15512
##쯈	15513
##썯	15514
##켚	15515
##웖	15516
##딭	15517
##앺	15518
##꿐	15519
##걈	15520
##셦	15521
##쫋	15522
##깣	15523
##욦	15524
##놬	15525
##쎴	15526
##궙	15527
##쌑	15528
##쎋	15529
##믗	15530
##잚	15531
##쫅	15532
##쀄	15533
##칟	15534
##좜	15535
##쿜	15536
##훇	15537
##닪	15538
##븰	15539
##뙜	15540
##폔	15541
##즞	15542
##뜼	15543
##쏏	15544
##웇	15545
##욳	15546
##췔	15547
##훞	15548
##싞	15549
##읁	15550
##띕	15551
##얷	15552
##눜	15553
##욻	15554
##쀵	15555
##꺑	15556
##벩	15557
##펡	15558
##빞	15559
##횓	15560
##댚	15561
##멭	15562
##뱓	15563
##씺	15564
##밫	15565
##뱽	15566
##쨻	15567
##쁵	15568
##홛	15569
##쪤	15570
##깪	15571
##픞	15572
##븧	15573
##돘	15574
##븠	15575
##벷	15576
##잙	15577
##횦	15578
##겈	15579
##뚕	15580
##퐅	15581
##섿	15582
##묯	15583
##꽯	15584
##콣	15585
##솼	15586
##콙	15587
##쿏	15588
##슀	15589
##땹	15590
##녿	15591
##쥩	15592
##굦	15593
##츞	15594
##휔	15595
##꼻	15596
##튑	15597
##뚂	15598
##걾	15599
##켼	15600
##븸	15601
##옟	15602
##끋	15603
##퀧	15604
##낤	15605
##엗	15606
##럔	15607
##됰	15608
##궶	15609
##궫	15610
##궻	15611
##랤	15612
##궢	15613
##죕	15614
##컶	15615
##젅	15616
##깳	15617
##꺐	15618
##쀳	15619
##탘	15620
##헽	15621
##둪	15622
##궄	15623
##뀓	15624
##힚	15625
##꿃	15626
##몥	15627
##옯	15628
##엋	15629
##긐	15630
##셐	15631
##뎧	15632
##훜	15633
##꺤	15634
##꽦	15635
##쒓	15636
##팊	15637
##딋	15638
##굸	15639
##윻	15640
##퐙	15641
##찳	15642
##퉄	15643
##찃	15644
##샟	15645
##킫	15646
##쎀	15647
##쩻	15648
##볃	15649
##웆	15650
##퉹	15651
##뤳	15652
##뜃	15653
##솠	15654
##톧	15655
##첐	15656
##왰	15657
##밻	15658
##숞	15659
##슞	15660
##뒸	15661
##쇱	15662
##젏	15663
##폵	15664
##숧	15665
##댼	15666
##늖	15667
##첟	15668
##꿯	15669
##궳	15670
##랣	15671
##횞	15672
##삾	15673
##콦	15674
##븏	15675
##냌	15676
##벓	15677
##푿	15678
##럮	15679
##쇵	15680
##쫃	15681
##떢	15682
##뗆	15683
##뫚	15684
##븎	15685
##궡	15686
##솻	15687
##븁	15688
##꽇	15689
##힏	15690
##홝	15691
##쁍	15692
##뙡	15693
##읷	15694
##덗	15695
##좊	15696
##쉏	15697
##싘	15698
##핢	15699
##뙭	15700
##괳	15701
##칣	15702
##왉	15703
##꼤	15704
##쟣	15705
##븉	15706
##췜	15707
##튔	15708
##셷	15709
##뿛	15710
##똈	15711
##헱	15712
##롻	15713
##샫	15714
##짫	15715
##욽	15716
##튮	15717
##쁶	15718
##욼	15719
##츸	15720
##꺕	15721
##댬	15722
##럳	15723
##찭	15724
##픋	15725
##푭	15726
##렠	15727
##쿶	15728
##굗	15729
##듛	15730
##탂	15731
##럷	15732
##킻	15733
##푣	15734
##뗳	15735
##컅	15736
##몟	15737
##벆	15738
##졶	15739
##쀒	15740
##빖	15741
##젮	15742
##븞	15743
##듮	15744
##럣	15745
##뚦	15746
##췛	15747
##챷	15748
##벾	15749
##솢	15750
##겧	15751
##뇜	15752
##눀	15753
##뢇	15754
##겷	15755
##밇	15756
##웴	15757
##븗	15758
##읾	15759
##꿻	15760
##퉱	15761
##휽	15762
##쎤	15763
##뽥	15764
##쌧	15765
##덢	15766
##뭗	15767
##떗	15768
##꺆	15769
##싨	15770
##꼣	15771
##빎	15772
##좸	15773
##왧	15774
##켇	15775
##댛	15776
##뚐	15777
##렣	15778
##뀁	15779
##뷓	15780
##붚	15781
##멮	15782
##헰	15783
##뻨	15784
##먓	15785
##솸	15786
##돆	15787
##덿	15788
##괐	15789
##궯	15790
##혉	15791
##늚	15792
##꼵	15793
##혂	15794
##픐	15795
##썷	15796
##팛	15797
##냩	15798
##맕	15799
##첱	15800
##낞	15801
##캊	15802
##핗	15803
##긕	15804
##턷	15805
##룥	15806
##쓍	15807
##흇	15808
##궖	15809
##궋	15810
##뎗	15811
##궅	15812
##핃	15813
##뼬	15814
##똰	15815
##펖	15816
##첡	15817
##궚	15818
##귖	15819
##궺	15820
##깒	15821
##깛	15822
##긛	15823
##뢨	15824
##삝	15825
##멦	15826
##퍕	15827
##곹	15828
##쵣	15829
##틇	15830
##풅	15831
##쁟	15832
##웚	15833
##쯪	15834
##넏	15835
##붭	15836
##쏚	15837
##쒕	15838
##닍	15839
##깇	15840
##뎝	15841
##휋	15842
##섮	15843
##짒	15844
##뮷	15845
##똗	15846
##왛	15847
##썝	15848
##뿉	15849
##뵉	15850
##룴	15851
##쾻	15852
##룧	15853
##턋	15854
##뮝	15855
##렧	15856
##쉩	15857
##갴	15858
##졬	15859
##얆	15860
##쇀	15861
##뉔	15862
##쉟	15863
##텥	15864
##졐	15865
##틒	15866
##쁎	15867
##쁀	15868
##쐑	15869
##풮	15870
##얒	15871
##앩	15872
##갃	15873
##튎	15874
##좹	15875
##쀽	15876
##볠	15877
##뿀	15878
##겦	15879
##봁	15880
##둽	15881
##걉	15882
##쭟	15883
##뀀	15884
##쫴	15885
##솏	15886
##흧	15887
##핺	15888
##턩	15889
##좬	15890
##떟	15891
##쟥	15892
##둅	15893
##븘	15894
##럌	15895
##덦	15896
##솄	15897
##퉥	15898
##쩖	15899
##톋	15900
##씉	15901
##굯	15902
##뗉	15903
##뤩	15904
##묳	15905
##뒺	15906
##줅	15907
##낐	15908
##쿹	15909
##톻	15910
##룺	15911
##퇻	15912
##믠	15913
##퐳	15914
##웳	15915
##쥉	15916
##잀	15917
##뢘	15918
##즯	15919
##랢	15920
##읈	15921
##룪	15922
##텇	15923
##쏱	15924
##쑜	15925
##휱	15926
##퉭	15927
##씋	15928
##쟢	15929
##릣	15930
##솤	15931
##뜅	15932
##윞	15933
##귻	15934
##믌	15935
##멵	15936
##퇍	15937
##잕	15938
##됒	15939
##쐴	15940
##첮	15941
##껖	15942
##숕	15943
##쏄	15944
##볈	15945
##숎	15946
##챶	15947
##좠	15948
##텉	15949
##쑉	15950
##꼔	15951
##턻	15952
##좥	15953
##춬	15954
##끑	15955
##밲	15956
##쩎	15957
##긃	15958
##풹	15959
##쟇	15960
##뤃	15961
##츺	15962
##댥	15963
##깕	15964
##믏	15965
##긆	15966
##슿	15967
##뚊	15968
##싳	15969
##딷	15970
##훃	15971
##읟	15972
##늭	15973
##뵽	15974
##쉛	15975
##먏	15976
##흽	15977
##쵇	15978
##햙	15979
##틤	15980
##빏	15981
##떅	15982
##힇	15983
##줗	15984
##춏	15985
##귔	15986
##쐥	15987
##벯	15988
##쁌	15989
##똄	15990
##섷	15991
##륳	15992
##섟	15993
##뺍	15994
##걿	15995
##퐌	15996
##럑	15997
##툱	15998
##씥	15999
##큳	16000
##쁢	16001
##쟬	16002
##늏	16003
##줛	16004
##놗	16005
##솫	16006
##뗛	16007
##돣	16008
##홳	16009
##잓	16010
##웫	16011
##룫	16012
##뺃	16013
##뗣	16014
##긎	16015
##콻	16016
##뻈	16017
##퓟	16018
##걺	16019
##덻	16020
##뤕	16021
##긊	16022
##츀	16023
##앾	16024
##훉	16025
##땈	16026
##혭	16027
##빢	16028
##굡	16029
##쑦	16030
##쭛	16031
##왷	16032
##띅	16033
##멏	16034
##윛	16035
##뮺	16036
##뜔	16037
##뤙	16038
##넟	16039
##샢	16040
##탒	16041
##땓	16042
##뙴	16043
##꼑	16044
##륿	16045
##욝	16046
##멐	16047
##킦	16048
##텤	16049
##뿮	16050
##뱦	16051
##긞	16052
##럸	16053
##쁅	16054
##뺡	16055
##뗡	16056
##쬭	16057
##뙗	16058
##쯸	16059
##다.	16060
##으로	16061
##에서	16062
##하는	16063
20	16064
##지만	16065
##이다.	16066
있다.	16067
##었다.	16068
##에게	16069
##하고	16070
201	16071
##이라	16072
##00	16073
##한다.	16074
있는	16075
##고,	16076
##다는	16077
##다고	16078
##했다.	16079
##..	16080
때문	16081
##까지	16082
19	16083
##에는	16084
##면서	16085
##들이	16086
##하게	16087
##는데	16088
##며,	16089
한다.	16090
##에서는	16091
##적으로	16092
경우	16093
때문에	16094
사용	16095
##였다.	16096
##적인	16097
##레이	16098
##하여	16099
##부터	16100
아니	16101
이후	16102
자신	16103
##리고	16104
공격	16105
##해서	16106
##하기	16107
10	16108
사람	16109
##스트	16110
##대로	16111
##라는	16112
##라고	16113
##다가	16114
##하면	16115
##들은	16116
##이나	16117
다른	16118
##지만,	16119
정도	16120
##되었다.	16121
##들을	16122
##으나	16123
##지는	16124
##에도	16125
##기도	16126
##들의	16127
대한	16128
등장	16129
##하다.	16130
##기를	16131
##리는	16132
200	16133
것이	16134
그리고	16135
된다.	16136
##기에	16137
##하지	16138
##되어	16139
가능	16140
아이	16141
같은	16142
들어	16143
##er	16144
하나	16145
하는	16146
사실	16147
##으며,	16148
하지만	16149
12	16150
게임	16151
##으며	16152
그러	16153
시작	16154
##하였다.	16155
##는데,	16156
##거나	16157
모습	16158
일본	16159
이름	16160
함께	16161
##보다	16162
##스터	16163
##는다.	16164
##리를	16165
한국	16166
##...	16167
있었	16168
##in	16169
##이트	16170
11	16171
##이라고	16172
위해	16173
##았다.	16174
##이라는	16175
##된다.	16176
##다면	16177
##기가	16178
것을	16179
나오	16180
이상	16181
생각	16182
만들	16183
문제	16184
##되는	16185
##어서	16186
##하며	16187
또한	16188
##니다.	16189
##학교	16190
따라	16191
가장	16192
##되었	16193
##력을	16194
프로	16195
다시	16196
##에서도	16197
##리가	16198
사이	16199
당시	16200
##릭터	16201
##이었	16202
##on	16203
##지를	16204
##처럼	16205
되었다.	16206
없는	16207
캐릭터	16208
##라이	16209
##력이	16210
모두	16211
##데,	16212
상대	16213
##0년	16214
##으면	16215
15	16216
##기는	16217
없다.	16218
상황	16219
##an	16220
플레이	16221
모든	16222
##or	16223
결국	16224
추가	16225
것이다.	16226
##8년	16227
시간	16228
##지고	16229
했다.	16230
것으로	16231
##리아	16232
##스의	16233
##이지	16234
현재	16235
##이는	16236
##9년	16237
상태	16238
##자가	16239
자신의	16240
보여	16241
많이	16242
것은	16243
##하면서	16244
그러나	16245
다만	16246
존재	16247
##7년	16248
##리스	16249
다음	16250
그런	16251
보면	16252
시즌	16253
전투	16254
18	16255
미국	16256
##리즈	16257
##6년	16258
스킬	16259
##스를	16260
매우	16261
##ar	16262
##성이	16263
카드	16264
많은	16265
##.1	16266
선수	16267
199	16268
세계	16269
효과	16270
##스가	16271
##므로	16272
##5년	16273
그래	16274
##he	16275
나온	16276
상당	16277
##.0	16278
##at	16279
경기	16280
##들에게	16281
##인이	16282
물론	16283
아니라	16284
않는	16285
이용	16286
지역	16287
있었다.	16288
처음	16289
##가는	16290
16	16291
기록	16292
이유	16293
##가지	16294
##4년	16295
아닌	16296
##사를	16297
그렇	16298
하고	16299
자체	16300
실제	16301
돌아	16302
##인다.	16303
이런	16304
여러	16305
##-1	16306
필요	16307
##하였	16308
##들과	16309
##000	16310
일반	16311
시리즈	16312
##부분	16313
이미	16314
##어진	16315
13	16316
바로	16317
##지가	16318
##이고	16319
##하자	16320
거의	16321
##시키	16322
역시	16323
##졌다.	16324
##en	16325
라이	16326
되어	16327
해당	16328
피해	16329
##사가	16330
##상을	16331
##인지	16332
특히	16333
모습을	16334
기술	16335
##이스	16336
영화	16337
##시아	16338
주인	16339
30	16340
14	16341
##어나	16342
##주의	16343
기본	16344
##도가	16345
##ou	16346
마법	16347
통해	16348
관련	16349
진행	16350
아무	16351
이야	16352
##장을	16353
##기로	16354
##3년	16355
같이	16356
17	16357
##지막	16358
##2년	16359
수도	16360
##라도	16361
##에선	16362
##했던	16363
##성을	16364
##국의	16365
좋은	16366
##로는	16367
위치	16368
제작	16369
방송	16370
##al	16371
##거리	16372
##st	16373
##이가	16374
##해야	16375
대부분	16376
되었	16377
부분	16378
사건	16379
##이었다.	16380
##주는	16381
작품	16382
마지막	16383
스타	16384
계속	16385
##1년	16386
증가	16387
##20	16388
참고	16389
##린다.	16390
##아서	16391
##으나,	16392
방어	16393
않았	16394
##르는	16395
일부	16396
않고	16397
인간	16398
달리	16399
##스는	16400
되는	16401
있어	16402
##로,	16403
주인공	16404
내용	16405
##전히	16406
서울	16407
있을	16408
##하고,	16409
않은	16410
보고	16411
능력	16412
활동	16413
가지고	16414
##리에	16415
비슷	16416
그냥	16417
##으니	16418
##시간	16419
올라	16420
레벨	16421
이전	16422
어느	16423
##드는	16424
국가	16425
레이	16426
##이며	16427
100	16428
##정을	16429
##시에	16430
인해	16431
##어가	16432
성공	16433
그의	16434
정도로	16435
##re	16436
대신	16437
이를	16438
##.2	16439
수준	16440
##dd	16441
##인의	16442
##드를	16443
대해	16444
지금	16445
##자를	16446
##장이	16447
25	16448
감독	16449
##도록	16450
상당히	16451
##le	16452
##자의	16453
##수가	16454
그녀	16455
않는다.	16456
##있는	16457
대표	16458
보인다.	16459
높은	16460
##10	16461
최대	16462
##위를	16463
198	16464
이동	16465
기준	16466
##it	16467
##렸다.	16468
것.	16469
##마다	16470
제외	16471
타이	16472
것도	16473
##트를	16474
너무	16475
여기	16476
그대로	16477
인물	16478
좋아	16479
##와의	16480
##되고	16481
나타	16482
이는	16483
##로운	16484
##ff	16485
##리의	16486
##사의	16487
떨어	16488
결과	16489
중국	16490
##도를	16491
##들도	16492
의미	16493
대한민	16494
##진다.	16495
##려고	16496
없이	16497
직접	16498
등의	16499
##드의	16500
##기의	16501
##수를	16502
##이션	16503
전체	16504
원래	16505
받아	16506
##스로	16507
언급	16508
##도로	16509
-2	16510
##이자	16511
##ing	16512
알려	16513
##이며,	16514
##전을	16515
##ic	16516
##르게	16517
하다.	16518
애니	16519
만들어	16520
##지도	16521
동안	16522
##리어	16523
경우가	16524
##.5	16525
데미	16526
##일에	16527
##치는	16528
자신이	16529
관계	16530
##로서	16531
의해	16532
##자는	16533
있던	16534
소속	16535
##다!	16536
##번째	16537
##이지만	16538
##대의	16539
##습니다.	16540
마음	16541
시절	16542
나오는	16543
전쟁	16544
##하지만	16545
멤버	16546
##정이	16547
##인데	16548
과거	16549
유저	16550
##으로,	16551
지원	16552
이것	16553
##대를	16554
문서	16555
##우는	16556
선택	16557
##자.	16558
2018년	16559
이어	16560
##드가	16561
이에	16562
유닛	16563
포함	16564
많다.	16565
##스타	16566
발매	16567
##리지	16568
##중에	16569
그는	16570
##하던	16571
자기	16572
최고	16573
몬스터	16574
엄청	16575
##없이	16576
위한	16577
##등학교	16578
50	16579
##점을	16580
설명	16581
평가	16582
방법	16583
21	16584
크게	16585
##화를	16586
##나는	16587
출연	16588
불가	16589
나왔	16590
아버	16591
찾아	16592
개발	16593
스토	16594
유명	16595
연구	16596
##과는	16597
있으며,	16598
##am	16599
##치가	16600
장면	16601
만든	16602
##치를	16603
##인을	16604
2019년	16605
리그	16606
영향	16607
12월	16608
2017년	16609
##이드	16610
사망	16611
##어로	16612
실제로	16613
##되지	16614
##하기도	16615
이루	16616
발생	16617
7월	16618
4월	16619
있다는	16620
##상이	16621
초반	16622
##어난	16623
8월	16624
조금	16625
이때	16626
말을	16627
지나	16628
##이기	16629
##이를	16630
3월	16631
5월	16632
##으로는	16633
프랑	16634
우승	16635
9월	16636
##트가	16637
10월	16638
##원이	16639
22	16640
##만큼	16641
주로	16642
6월	16643
이러	16644
##준다.	16645
전부	16646
2016년	16647
##es	16648
##전에서	16649
공식	16650
출신	16651
##이어	16652
무기	16653
24	16654
##머니	16655
제대로	16656
##전에	16657
사라	16658
운영	16659
##랜드	16660
아이템	16661
사랑	16662
인터	16663
##el	16664
소환	16665
도시	16666
하지	16667
##과의	16668
자주	16669
중요	16670
##식을	16671
그것	16672
##리그	16673
##운드	16674
##하며,	16675
없었	16676
##있다.	16677
보여주	16678
또는	16679
최종	16680
아직	16681
공격력	16682
1월	16683
##명이	16684
##일,	16685
정보	16686
the	16687
최초	16688
##명을	16689
이렇	16690
##om	16691
##이크	16692
##와는	16693
서로	16694
친구	16695
참고로	16696
##에서의	16697
역할	16698
학생	16699
나온다.	16700
학교	16701
적이	16702
이벤	16703
있어서	16704
강력	16705
파괴	16706
##-0	16707
비해	16708
기존	16709
##이터	16710
프리	16711
##했을	16712
가진	16713
공개	16714
##리카	16715
노래	16716
##la	16717
여성	16718
11월	16719
23	16720
비교	16721
##격을	16722
정말	16723
마찬	16724
##50	16725
##자로	16726
##였던	16727
어떤	16728
마찬가지	16729
##is	16730
강화	16731
사회	16732
등을	16733
당연	16734
해도	16735
독일	16736
##같은	16737
변경	16738
사람이	16739
형태	16740
결정	16741
##히려	16742
설정	16743
##사는	16744
유지	16745
보통	16746
##명의	16747
##인은	16748
##하려	16749
##나라	16750
바람	16751
그런데	16752
##동안	16753
때문이다.	16754
오히려	16755
##개의	16756
2015년	16757
##니아	16758
##서는	16759
##수의	16760
##라마	16761
살아	16762
##르면	16763
아니다.	16764
배우	16765
##지의	16766
##요.	16767
##했고,	16768
##스와	16769
정신	16770
##오는	16771
##대에	16772
후반	16773
##군의	16774
##프트	16775
회복	16776
##어도	16777
##지어	16778
##하거나	16779
발견	16780
##나가	16781
아래	16782
2월	16783
##et	16784
##점이	16785
슈퍼	16786
##음을	16787
##물을	16788
음악	16789
게다가	16790
알고	16791
##분에	16792
197	16793
조선	16794
##하다	16795
드래	16796
이번	16797
이러한	16798
않았다.	16799
영상	16800
##는지	16801
유일	16802
구성	16803
##ol	16804
##원을	16805
행동	16806
여자	16807
있다고	16808
40	16809
있으며	16810
있는데,	16811
##ion	16812
사실상	16813
가까	16814
그래서	16815
주장	16816
##어를	16817
##,000	16818
##이도	16819
##트로	16820
##nd	16821
모양	16822
##스템	16823
##자인	16824
새로운	16825
하면	16826
##회의	16827
##했다고	16828
일단	16829
아예	16830
##30	16831
##11	16832
자유	16833
특수	16834
확률	16835
##-2	16836
##리오	16837
##경기	16838
이렇게	16839
어려	16840
승리	16841
활약	16842
##이기도	16843
부족	16844
##대가	16845
##지로	16846
##나마	16847
성능	16848
노선	16849
월드	16850
들어가	16851
##화에서	16852
등이	16853
동시에	16854
##디오	16855
##시켜	16856
주변	16857
비슷한	16858
먼저	16859
심지어	16860
정부	16861
##임을	16862
대한민국	16863
##드로	16864
##적이	16865
가능하다.	16866
버전	16867
발동	16868
드러	16869
##스,	16870
완전히	16871
같다.	16872
스테	16873
바뀌	16874
확인	16875
##화가	16876
##그램	16877
수록	16878
그렇게	16879
힘들	16880
##ow	16881
성우	16882
차지	16883
##밖에	16884
그래도	16885
그리	16886
##다며	16887
정치	16888
##통령	16889
적용	16890
방식	16891
내려	16892
##내는	16893
생산	16894
##ig	16895
26	16896
일이	16897
어떻	16898
좋다.	16899
보스	16900
##상으로	16901
영웅	16902
##ed	16903
##il	16904
28	16905
##보면	16906
모델	16907
##메이션	16908
있는데	16909
##도의	16910
영국	16911
##다"	16912
스트	16913
2014년	16914
##구를	16915
이야기	16916
시스템	16917
성격	16918
혹은	16919
한번	16920
27	16921
##르고	16922
실패	16923
##하는데	16924
전에	16925
자세	16926
기사	16927
전혀	16928
##간에	16929
만나	16930
있지만	16931
##스크	16932
못한	16933
우리	16934
패배	16935
원작	16936
어떻게	16937
##니까	16938
##ac	16939
31	16940
##!!	16941
##시킨	16942
##더라도	16943
차량	16944
##원의	16945
장비	16946
위해서	16947
감소	16948
않아	16949
만큼	16950
##as	16951
사진	16952
국내	16953
##대한	16954
얼굴	16955
동일	16956
때는	16957
불가능	16958
있고	16959
가지	16960
중심	16961
얼마	16962
##ve	16963
##BS	16964
대통령	16965
앨범	16966
오브	16967
지속	16968
데뷔	16969
대학	16970
체력	16971
표현	16972
대회	16973
참여	16974
이제	16975
나가	16976
1,	16977
##인데,	16978
##지에	16979
마을	16980
##어버	16981
획득	16982
플레이어	16983
굉장	16984
출시	16985
##간다.	16986
##른다.	16987
힘을	16988
##.3	16989
##트의	16990
of	16991
##이었던	16992
##보다는	16993
없어	16994
다양	16995
##라의	16996
애니메이션	16997
##움을	16998
계획	16999
반응	17000
##했고	17001
##났다.	17002
##장의	17003
특성	17004
등장하는	17005
##이의	17006
196	17007
##대학교	17008
발표	17009
##체를	17010
##라가	17011
##다'	17012
움직	17013
인정	17014
##버스	17015
정확	17016
가져	17017
##자,	17018
기억	17019
바이	17020
스페	17021
기능	17022
##해도	17023
자동	17024
명칭	17025
##제가	17026
그나마	17027
담당	17028
쓰는	17029
문제가	17030
따라서	17031
에피	17032
하루	17033
드래곤	17034
드라마	17035
있고,	17036
자신을	17037
진출	17038
상승	17039
경우도	17040
덕분에	17041
이름을	17042
남자	17043
판매	17044
번째	17045
작중	17046
사용하는	17047
대체	17048
##으므로	17049
##상의	17050
역사	17051
받은	17052
있기	17053
##수는	17054
아마	17055
##문을	17056
요구	17057
특징	17058
##으로서	17059
##조차	17060
수비	17061
##우스	17062
공격을	17063
설치	17064
경찰	17065
선발	17066
제1	17067
다이	17068
##0년대	17069
##ot	17070
##라면	17071
있게	17072
조건	17073
그림	17074
##장에서	17075
상위	17076
2017	17077
밝혀	17078
##들에	17079
남아	17080
하였다.	17081
받고	17082
고려	17083
##했다는	17084
개인	17085
##제를	17086
중앙	17087
Lv	17088
마이	17089
이벤트	17090
##도는	17091
##한다는	17092
참가	17093
##피언	17094
따르면	17095
듯.	17096
축구	17097
에피소	17098
##했지만	17099
가능한	17100
##아가	17101
##권을	17102
##한테	17103
##사로	17104
자체가	17105
하이	17106
물리	17107
##ad	17108
항목	17109
29	17110
강력한	17111
##군이	17112
해서	17113
더욱	17114
다르	17115
순간	17116
2013년	17117
##부의	17118
넘어	17119
##전이	17120
주의	17121
##수로	17122
2차	17123
각각	17124
##.4	17125
##레벨	17126
대해서	17127
건물	17128
##장은	17129
우주	17130
-1	17131
경험	17132
##지지	17133
어머니	17134
시점	17135
후보	17136
확실	17137
상대로	17138
굉장히	17139
##적을	17140
##지,	17141
비판	17142
사람들이	17143
##계를	17144
편이다.	17145
시간이	17146
##문에	17147
##스러	17148
러시아	17149
현대	17150
가격	17151
결혼	17152
작가	17153
어렵	17154
가족	17155
##장에	17156
후에	17157
구조	17158
어린	17159
##리,	17160
프로그램	17161
피해를	17162
보내	17163
말이	17164
챔피언	17165
불구	17166
##치고	17167
단순	17168
##리와	17169
아주	17170
참조	17171
나와	17172
어디	17173
여담	17174
위험	17175
##부를	17176
##되면서	17177
##id	17178
교육	17179
무시	17180
초기	17181
주요	17182
##mm	17183
마찬가지로	17184
##감을	17185
여기서	17186
사용할	17187
폭발	17188
진짜	17189
##량이	17190
##선을	17191
##이라면	17192
대미	17193
##부에	17194
선거	17195
준비	17196
아르	17197
##ch	17198
2012년	17199
##위원	17200
##대는	17201
있었던	17202
과정	17203
가면	17204
속성	17205
일으	17206
##으면서	17207
제공	17208
##타를	17209
나머	17210
되고	17211
##레이드	17212
엄청난	17213
##리로	17214
##장으로	17215
지구	17216
가능성이	17217
메이	17218
약간	17219
받았	17220
##까지는	17221
##치로	17222
쉽게	17223
The	17224
활용	17225
않다.	17226
##체가	17227
가는	17228
##리티	17229
알아	17230
방영	17231
##ay	17232
히로	17233
받는	17234
제한	17235
2000	17236
보이	17237
##ER	17238
클리어	17239
대전	17240
시청	17241
마스터	17242
##정한	17243
##."	17244
여전히	17245
##키는	17246
논란	17247
194	17248
발사	17249
프랑스	17250
동료	17251
수가	17252
##시키는	17253
##.6	17254
##시즌	17255
부산	17256
60	17257
당연히	17258
작은	17259
패턴	17260
##리기	17261
쓰러	17262
분위	17263
##인물	17264
한편	17265
##력은	17266
못하고	17267
훨씬	17268
##려서	17269
지하	17270
St	17271
현실	17272
사고	17273
크리스	17274
주는	17275
##.7	17276
##었던	17277
제국	17278
##업을	17279
유럽	17280
##식이	17281
1일	17282
강한	17283
##없는	17284
혼자	17285
그가	17286
하며	17287
한정	17288
이해	17289
제2	17290
영향을	17291
##개를	17292
##us	17293
##트는	17294
##심을	17295
방향	17296
##하다는	17297
적을	17298
##40	17299
그를	17300
##정도	17301
##히는	17302
보호	17303
##만한	17304
특별	17305
브라	17306
기간	17307
##티브	17308
##위로	17309
잡아	17310
##행을	17311
##놓고	17312
조합	17313
##만이	17314
잘못	17315
FC	17316
크로	17317
##제로	17318
##합니다.	17319
##해주	17320
파워	17321
해결	17322
최근	17323
취급	17324
나이	17325
계약	17326
삼성	17327
2010년	17328
도망	17329
##다니	17330
##ro	17331
##사와	17332
역할을	17333
본인	17334
##수록	17335
##게임	17336
영어	17337
블랙	17338
소모	17339
##프를	17340
##겠다고	17341
연결	17342
의견	17343
스토리	17344
##자기	17345
국민	17346
##.8	17347
##나,	17348
##다,	17349
보는	17350
국제	17351
때문.	17352
##만에	17353
기준으로	17354
##라인	17355
##로를	17356
##라운드	17357
##이고,	17358
않을	17359
for	17360
문제는	17361
##학년	17362
##위가	17363
처리	17364
이탈	17365
지방	17366
##!"	17367
다양한	17368
##로부터	17369
##기,	17370
중요한	17371
생활	17372
##시의	17373
다니	17374
TV	17375
정도.	17376
버스	17377
##ir	17378
전용	17379
추정	17380
##BC	17381
자연	17382
2011년	17383
##레스	17384
것에	17385
##듯이	17386
##나게	17387
##면,	17388
충분	17389
##위에	17390
없었다.	17391
##인트	17392
##학생	17393
##이란	17394
방면	17395
오래	17396
이유는	17397
나무	17398
라인	17399
##사에	17400
2018	17401
##도,	17402
스스로	17403
문화	17404
##신이	17405
불구하고	17406
오른	17407
다음과	17408
운동	17409
느낌	17410
받았다.	17411
##지션	17412
##자와	17413
##난다.	17414
아군	17415
장착	17416
비롯	17417
##12	17418
보이는	17419
이루어	17420
##로가	17421
##일을	17422
조직	17423
타입	17424
##만을	17425
##신을	17426
출전	17427
195	17428
##구가	17429
등장한다.	17430
들고	17431
##가를	17432
기타	17433
##한다고	17434
하여	17435
퀘스트	17436
아버지	17437
##ht	17438
내가	17439
##라를	17440
부활	17441
낮은	17442
##단의	17443
운행	17444
예정	17445
##나이	17446
입장	17447
미션	17448
##기와	17449
##소를	17450
##회를	17451
##져서	17452
아이돌	17453
이유로	17454
##보니	17455
경제	17456
##성은	17457
##대학	17458
편.	17459
HP	17460
##갔다.	17461
##th	17462
중에	17463
연속	17464
모드	17465
##명은	17466
대부분의	17467
##성의	17468
##자들이	17469
아들	17470
경우는	17471
나는	17472
##'라는	17473
유니	17474
에너	17475
##이즈	17476
전문	17477
절대	17478
##하다고	17479
##비아	17480
##un	17481
되면	17482
종료	17483
더불	17484
구간	17485
##im	17486
##하다가	17487
##초에	17488
##라서	17489
수상	17490
타고	17491
말한다.	17492
##dddd	17493
독립	17494
##데이트	17495
##당한	17496
##의를	17497
번역	17498
달성	17499
하기	17500
되지	17501
##카이	17502
포켓	17503
메인	17504
##ur	17505
엔딩	17506
##.9	17507
##원은	17508
제목	17509
##전의	17510
근접	17511
##이면	17512
##지게	17513
##od	17514
이상의	17515
##세대	17516
##유의	17517
##말로	17518
##시켰	17519
##세기	17520
싱글	17521
목소	17522
##력으로	17523
만약	17524
일본의	17525
##에게는	17526
관리	17527
##가가	17528
자리	17529
##시를	17530
##15	17531
종류	17532
소설	17533
항공	17534
배경	17535
##32	17536
일을	17537
졸업	17538
##냈다.	17539
현재는	17540
업데이트	17541
생존	17542
난이도	17543
더불어	17544
검은	17545
했지만	17546
SK	17547
가끔	17548
##km	17549
세이	17550
##공격	17551
##으로도	17552
##사,	17553
##함을	17554
스피	17555
위에	17556
일어나	17557
에피소드	17558
반대	17559
대상	17560
##기고	17561
시도	17562
야구	17563
민주	17564
하면서	17565
속도	17566
밖에	17567
##조건	17568
##어들	17569
##ST	17570
##시마	17571
나머지	17572
배틀	17573
일정	17574
##같이	17575
##비가	17576
##ut	17577
최소	17578
##스에	17579
엔진	17580
##왔다.	17581
##신의	17582
##야마	17583
##일이	17584
만화	17585
제외한	17586
목표	17587
##려는	17588
지휘	17589
##마저	17590
2019	17591
항상	17592
202	17593
부르	17594
##시가	17595
##세를	17596
##점으로	17597
##ag	17598
얻을	17599
##거나,	17600
분노	17601
##관이	17602
능력을	17603
##ver	17604
수정	17605
대사	17606
##운데	17607
##종의	17608
##리게	17609
유리	17610
생긴	17611
성장	17612
##60	17613
##르크	17614
직업	17615
##이로	17616
정도의	17617
공연	17618
신경	17619
##원으로	17620
##?"	17621
##단을	17622
정식	17623
두고	17624
##겼다.	17625
전설	17626
유명한	17627
##부가	17628
전작	17629
##ec	17630
##19	17631
##시로	17632
소재	17633
##라며	17634
##37	17635
무엇	17636
##림픽	17637
2016	17638
##혔다.	17639
좋지	17640
포켓몬	17641
계열	17642
##지기	17643
싸우	17644
해야	17645
##리면	17646
사람은	17647
##냐고	17648
##버린	17649
비행	17650
나왔다.	17651
이끌	17652
북한	17653
you	17654
자랑	17655
##스티	17656
그룹	17657
사실을	17658
로마	17659
##어진다.	17660
인터뷰	17661
##했으며,	17662
##카와	17663
##비를	17664
아프	17665
##상에	17666
##계의	17667
##물이	17668
높다.	17669
미사	17670
##ent	17671
거기	17672
각종	17673
##호를	17674
##으로써	17675
##어야	17676
오늘	17677
##선이	17678
다르게	17679
끝나	17680
##겠지만	17681
괜찮	17682
##주를	17683
35	17684
##되기	17685
하지만,	17686
상황에서	17687
바람에	17688
##여서	17689
##했으나	17690
빠른	17691
대한민국의	17692
것과	17693
##방송	17694
##나의	17695
##군은	17696
##스럽	17697
비밀	17698
작곡	17699
부여	17700
참조.	17701
미래	17702
이름이	17703
불러	17704
연출	17705
이외	17706
건설	17707
만드는	17708
전반	17709
##ak	17710
##하지만,	17711
정작	17712
##음에도	17713
##서를	17714
누구	17715
##이라도	17716
모습이	17717
적은	17718
##해진	17719
##로의	17720
##무를	17721
##다운	17722
미국의	17723
시전	17724
##수한	17725
있다	17726
##선의	17727
##t;	17728
라고	17729
전국	17730
32	17731
결승	17732
스파	17733
있지만,	17734
##호가	17735
##미가	17736
##시는	17737
등으로	17738
##....	17739
1회	17740
스테이지	17741
못하는	17742
엘리	17743
수는	17744
소녀	17745
케이	17746
자세한	17747
80	17748
##cm	17749
따로	17750
나서	17751
제일	17752
때,	17753
##외로	17754
##디어	17755
##었다고	17756
훈련	17757
전차	17758
있다면	17759
과학	17760
별로	17761
특정	17762
##스러운	17763
위치한	17764
묘사	17765
##동을	17766
##움이	17767
갑자기	17768
##부터는	17769
나름	17770
모르	17771
##더니	17772
기관	17773
##80	17774
##고를	17775
예상	17776
달려	17777
타카	17778
##모토	17779
70	17780
2009년	17781
##장,	17782
악마	17783
않게	17784
연기	17785
때문에,	17786
클래	17787
없을	17788
종족	17789
인구	17790
이탈리아	17791
여담으로	17792
경우에는	17793
##고는	17794
##단이	17795
1년	17796
하늘	17797
뒤에	17798
소개	17799
##입니다.	17800
일행	17801
##하라	17802
##크로	17803
분류	17804
안에	17805
1위	17806
근처	17807
평균	17808
상황이	17809
##이,	17810
보유	17811
확정	17812
필요한	17813
효과를	17814
to	17815
있으니	17816
게임을	17817
##어의	17818
아키	17819
명령	17820
1차	17821
서비	17822
이름은	17823
포지션	17824
##ffff	17825
##프로	17826
##지와	17827
##ub	17828
지난	17829
압도	17830
인천	17831
행정	17832
최고의	17833
공중	17834
개념	17835
##세가	17836
교체	17837
안정	17838
##제의	17839
이걸	17840
없고	17841
예를	17842
사냥	17843
본인이	17844
아카	17845
##크를	17846
집중	17847
등장인물	17848
설립	17849
##군을	17850
##이다	17851
2008년	17852
지켜	17853
애초에	17854
것이라고	17855
파티	17856
각성	17857
나타나	17858
193	17859
이쪽	17860
식으로	17861
잠시	17862
##야말로	17863
생명	17864
지정	17865
표기	17866
나올	17867
지도	17868
이게	17869
##율이	17870
특이	17871
##'의	17872
본래	17873
언제	17874
가까운	17875
나중에	17876
##리며	17877
##계가	17878
시작했다.	17879
머리	17880
부모	17881
##지면	17882
없다는	17883
기대	17884
이용해	17885
있으면	17886
##'를	17887
##소가	17888
##고등학교	17889
스포	17890
즉,	17891
기반	17892
발전	17893
경쟁	17894
탈출	17895
최강	17896
##',	17897
##하나	17898
##치기	17899
경우,	17900
죽은	17901
일러	17902
##타로	17903
기다	17904
in	17905
하게	17906
물건	17907
##보는	17908
못했다.	17909
갖고	17910
##부로	17911
치명	17912
처음으로	17913
배치	17914
연합	17915
차이가	17916
없다고	17917
라는	17918
벌어	17919
보니	17920
존재한다.	17921
외국	17922
사례	17923
##원에	17924
지지	17925
##트라	17926
수행	17927
##았던	17928
파이	17929
위의	17930
##인으로	17931
빠르게	17932
##-3	17933
월드컵	17934
이야기를	17935
새로	17936
사용자가	17937
##대표	17938
무슨	17939
##타임	17940
등장한	17941
이적	17942
다크	17943
##ight	17944
사이에	17945
중에서	17946
##부는	17947
##가의	17948
##드시	17949
제거	17950
##량을	17951
대기	17952
빠져	17953
좋아하는	17954
##em	17955
카운	17956
기동	17957
vs	17958
소련	17959
아니면	17960
##스테	17961
##역을	17962
##:0	17963
##스케	17964
##란드	17965
##상은	17966
##'을	17967
도입	17968
달라	17969
부정	17970
말에	17971
건담	17972
바꾸	17973
##ON	17974
##쪽으로	17975
##만의	17976
이후로	17977
고양	17978
##스코	17979
기본적으로	17980
발언	17981
나라	17982
여기에	17983
##화의	17984
완전	17985
목록	17986
##,#	17987
##었고,	17988
그녀의	17989
등급	17990
##간의	17991
저지	17992
##16	17993
지배	17994
##즈의	17995
라이브	17996
##냐는	17997
무려	17998
##마자	17999
직후	18000
##치의	18001
##AR	18002
##마가	18003
복귀	18004
남은	18005
##ce	18006
##25	18007
##이니	18008
변신	18009
##내고	18010
도쿄	18011
2000년	18012
##타가	18013
과정에서	18014
타격	18015
군사	18016
보기	18017
##:00	18018
베이	18019
도착	18020
날아	18021
연습	18022
##'라고	18023
##감이	18024
포기	18025
접근	18026
가운데	18027
##심이	18028
대구	18029
촬영	18030
동생	18031
유사	18032
사이트	18033
##문이	18034
##터를	18035
돌아가	18036
##됐다.	18037
보아	18038
##우가	18039
유일한	18040
사람을	18041
제품	18042
500	18043
시험	18044
##버렸다.	18045
2,	18046
가르	18047
관한	18048
##하였고,	18049
죽음	18050
##미를	18051
##롭게	18052
##도에	18053
살해	18054
하는데	18055
블루	18056
회피	18057
했던	18058
##학과	18059
남성	18060
##um	18061
45	18062
##AN	18063
데미지	18064
업그	18065
##진이	18066
2007년	18067
##ap	18068
##주고	18069
##되었고,	18070
링크	18071
듣고	18072
역대	18073
##ri	18074
알게	18075
상태에서	18076
분명	18077
##os	18078
추천	18079
완성	18080
정규	18081
##48	18082
일러스트	18083
반면	18084
때마다	18085
이곳	18086
고정	18087
이건	18088
범위	18089
준다.	18090
##프가	18091
##많은	18092
##'s	18093
반드시	18094
하였	18095
##에만	18096
조종	18097
끝에	18098
##한다	18099
LG	18100
##스토	18101
사용한다.	18102
상당한	18103
##체의	18104
싫어	18105
받을	18106
타이틀	18107
부탁	18108
##낸다.	18109
유튜	18110
##광역	18111
##주가	18112
해외	18113
##18	18114
##차가	18115
이하	18116
##점은	18117
소리	18118
중간	18119
효과가	18120
심각	18121
상관	18122
완벽	18123
##()	18124
##ula	18125
##력과	18126
저항	18127
뛰어난	18128
##들어	18129
탈락	18130
어둠	18131
하자	18132
투수	18133
##했는데	18134
##이지만,	18135
지상	18136
유일하게	18137
##and	18138
올림픽	18139
경기에서	18140
추측	18141
##지면서	18142
자체는	18143
마무	18144
미니	18145
점을	18146
한다는	18147
2개	18148
##파트	18149
앞에	18150
다루	18151
##"라고	18152
##했으며	18153
동물	18154
비용	18155
90	18156
몇몇	18157
정상	18158
느끼	18159
자리를	18160
경기를	18161
##들로	18162
인터넷	18163
주민	18164
-3	18165
##진을	18166
반대로	18167
##지라	18168
삭제	18169
프레	18170
판단	18171
##관을	18172
공동	18173
오버	18174
##러스	18175
연재	18176
롯데	18177
에이	18178
치료	18179
무장	18180
우선	18181
회사	18182
합류	18183
충격	18184
##받은	18185
구매	18186
점점	18187
실험	18188
통합	18189
##술을	18190
환경	18191
##문의	18192
시간을	18193
##했는데,	18194
리더	18195
많아	18196
##버린다.	18197
##민주	18198
1개	18199
도중	18200
봐도	18201
##로우	18202
##키가	18203
##형을	18204
##탄을	18205
##키의	18206
전략	18207
올려	18208
인도	18209
##보를	18210
이로	18211
##주로	18212
팀의	18213
높아	18214
##시킬	18215
다소	18216
없어서	18217
요시	18218
##어는	18219
##겠다는	18220
##지.	18221
##세계	18222
form	18223
수많은	18224
공간	18225
##체는	18226
종종	18227
개최	18228
##것도	18229
##화국	18230
EX	18231
가수	18232
##자들은	18233
스코	18234
쓰고	18235
##드와	18236
##화된	18237
192	18238
기념	18239
##스카	18240
생각해	18241
##ula_	18242
##분이	18243
카드를	18244
##터가	18245
No	18246
불리	18247
##석이	18248
후,	18249
##인,	18250
규모	18251
트리	18252
기업	18253
기계	18254
##하자.	18255
##금을	18256
정의	18257
의외로	18258
##일러	18259
제외하면	18260
##단계	18261
싸움	18262
##하는데,	18263
시리즈의	18264
장소	18265
개봉	18266
formula_	18267
암살	18268
종교	18269
상태로	18270
맞추	18271
##크가	18272
##이와	18273
히어로	18274
##받는	18275
전통	18276
않으면	18277
아니고	18278
보여준다.	18279
그야말로	18280
##되면	18281
조사	18282
##14	18283
순위	18284
평범	18285
도와	18286
##지에서	18287
공포	18288
##정에	18289
##플레이	18290
##IN	18291
떠나	18292
장갑	18293
화면	18294
무조건	18295
##무라	18296
300	18297
워낙	18298
바다	18299
듯하다.	18300
알려져	18301
소유	18302
##용으로	18303
##가,	18304
Ch	18305
아내	18306
디자인	18307
##회가	18308
2006년	18309
그린	18310
KBS	18311
인한	18312
전사	18313
##두고	18314
33	18315
프로젝	18316
##질을	18317
다행	18318
##차를	18319
요청	18320
전개	18321
정리	18322
단,	18323
야마	18324
어려운	18325
마사	18326
##인과	18327
홈런	18328
3개	18329
##판을	18330
and	18331
스크	18332
##구의	18333
빨리	18334
컴퓨	18335
본격	18336
##/2	18337
2015	18338
##트리	18339
하고,	18340
전기	18341
생성	18342
없음	18343
##로드	18344
##력의	18345
##적으로는	18346
##아버	18347
##로그	18348
시대	18349
도전	18350
아무리	18351
##르트	18352
##속도	18353
2년	18354
카이	18355
가서	18356
##이므로	18357
##어,	18358
##식으로	18359
개그	18360
##원,	18361
평소	18362
그걸	18363
비중	18364
##스에서	18365
한글	18366
것처럼	18367
굳이	18368
부하	18369
##ul	18370
##적은	18371
##1,	18372
##한다면	18373
##일부터	18374
최초로	18375
##TV	18376
##방을	18377
##되며	18378
데미지를	18379
##FA	18380
##원에서	18381
적의	18382
##석을	18383
외에도	18384
최후	18385
사업	18386
##호선	18387
##하도록	18388
##마의	18389
충분히	18390
레드	18391
##크의	18392
변화	18393
##니티	18394
지키	18395
##라,	18396
##에게서	18397
##르의	18398
투입	18399
영혼	18400
##시,	18401
##정은	18402
상징	18403
이름으로	18404
대중	18405
##op	18406
##드에	18407
탓에	18408
위협	18409
오프	18410
일어	18411
무한	18412
##운동	18413
진화	18414
이와	18415
열린	18416
##ck	18417
##승을	18418
비롯한	18419
의하면	18420
##라스	18421
##수도	18422
##했기	18423
파일	18424
경기도	18425
데이터	18426
끌어	18427
능력이	18428
##13	18429
##이닝	18430
##17	18431
##쪽에	18432
##온다.	18433
마나	18434
##아의	18435
##안을	18436
##ter	18437
##%,	18438
##특별	18439
중반	18440
사람들은	18441
##었고	18442
##적이다.	18443
로봇	18444
안전	18445
선언	18446
##보고	18447
##성에	18448
##보다도	18449
##ation	18450
돈을	18451
버그	18452
대응	18453
최초의	18454
시설	18455
36	18456
##'로	18457
보다	18458
##으로부터	18459
##세이	18460
##왕의	18461
사무	18462
##법을	18463
거부	18464
##ra	18465
##었을	18466
거기에	18467
옵션	18468
##정의	18469
성우는	18470
등에	18471
##교육	18472
범죄	18473
##동생	18474
##인가	18475
확장	18476
생각하면	18477
표시	18478
손을	18479
대화	18480
붉은	18481
##이에	18482
언론	18483
카메	18484
##세의	18485
트위	18486
때까지	18487
듯한	18488
##대전	18489
대형	18490
특유의	18491
##2,	18492
조작	18493
성향	18494
##다른	18495
##요일	18496
희생	18497
##지역	18498
##조의	18499
##가와	18500
기존의	18501
맞춰	18502
##라이더	18503
운용	18504
관련된	18505
##페이지	18506
##시브	18507
말하는	18508
##기사	18509
##너스	18510
##래도	18511
th	18512
##호는	18513
간단	18514
대결	18515
오리지	18516
##하려고	18517
##미널	18518
점이	18519
하며,	18520
작업	18521
##IC	18522
네이	18523
밝혔다.	18524
패치	18525
얼마나	18526
##구에	18527
사기	18528
본인의	18529
##시오	18530
##부에서	18531
명중	18532
MA	18533
km	18534
##성과	18535
보조	18536
##나와	18537
##자에	18538
##미의	18539
맞는	18540
하드	18541
선생	18542
극장	18543
##'이라는	18544
주고	18545
그리스	18546
확률로	18547
플래	18548
##드리	18549
구분	18550
장면이	18551
2020년	18552
빼앗	18553
##려면	18554
##경을	18555
##회에서	18556
점령	18557
사격	18558
무리	18559
가깝	18560
오랜	18561
체력이	18562
통과	18563
##일의	18564
##바이	18565
시민	18566
태양	18567
##로도	18568
##텐츠	18569
마르	18570
##드,	18571
##자들의	18572
거쳐	18573
##음이	18574
시나	18575
나오지	18576
다운	18577
##세트	18578
얻어	18579
##다고.	18580
불과	18581
마치	18582
##레인	18583
마리	18584
반복	18585
화염	18586
프로듀	18587
유튜브	18588
##때문에	18589
##쳤다.	18590
내용은	18591
사는	18592
##수,	18593
내에서	18594
힘든	18595
제3	18596
##약을	18597
2005년	18598
난이	18599
있지	18600
MBC	18601
지금은	18602
##남도	18603
##70	18604
시기	18605
투표	18606
재료	18607
앞서	18608
앞에서	18609
뛰어	18610
되면서	18611
##시킨다.	18612
그럼	18613
데이	18614
서술	18615
인식	18616
##시대	18617
3일	18618
데려	18619
영입	18620
적에게	18621
정책	18622
하는데,	18623
붙어	18624
몸을	18625
100%	18626
신체	18627
중심으로	18628
##라우	18629
##치게	18630
서버	18631
오르	18632
##다시	18633
##단에	18634
##론을	18635
입고	18636
나이트	18637
38	18638
개조	18639
소년	18640
##90	18641
2회	18642
대표적인	18643
외모	18644
선정	18645
모르는	18646
진입	18647
패러	18648
##제는	18649
##레이션	18650
SP	18651
그저	18652
클럽	18653
##인들이	18654
득점	18655
세트	18656
후속	18657
34	18658
근데	18659
바라	18660
##리온	18661
사쿠	18662
##아이	18663
##실을	18664
사태	18665
##광역시	18666
##그룹	18667
##했지만,	18668
디자	18669
이들은	18670
적극	18671
##라.	18672
##하니	18673
고대	18674
##해를	18675
디지	18676
##정으로	18677
은퇴	18678
받는다.	18679
때도	18680
##사카	18681
##명으로	18682
점프	18683
##전은	18684
살아남	18685
말았다.	18686
목숨	18687
##kg	18688
공략	18689
좀비	18690
보상	18691
다만,	18692
오오	18693
##시티	18694
바닥	18695
올라가	18696
##임이	18697
##RA	18698
방어력	18699
##러가	18700
##스킬	18701
##버리	18702
거두	18703
##전쟁	18704
인기	18705
대단	18706
주문	18707
장난	18708
꽤나	18709
컨셉	18710
여름	18711
##기관	18712
그려	18713
이기	18714
불안	18715
아는	18716
그때	18717
막아	18718
무너	18719
##방에	18720
##전으로	18721
VS	18722
##장과	18723
##만으로	18724
##래프트	18725
2004년	18726
소비	18727
맞아	18728
광주	18729
지닌	18730
##형이	18731
##트와	18732
초대	18733
##art	18734
##소년	18735
적절	18736
스위	18737
자료	18738
사람의	18739
단순히	18740
You	18741
마무리	18742
하나의	18743
비고	18744
대해서는	18745
이후에	18746
살인	18747
##규모	18748
##마를	18749
음반	18750
##이상	18751
마음을	18752
##:2	18753
철도	18754
##이야	18755
U+	18756
##ie	18757
오리지널	18758
##복을	18759
방문	18760
오토	18761
꾸준	18762
##ab	18763
문제를	18764
##선수	18765
서브	18766
마침	18767
2일	18768
게이	18769
##해졌다.	18770
미드	18771
1000	18772
거대한	18773
##니스	18774
무사	18775
채널	18776
보였다.	18777
상황을	18778
특성상	18779
##분을	18780
##제에	18781
##'가	18782
선보	18783
다르다.	18784
착용	18785
코스	18786
##45	18787
대학교	18788
##버리는	18789
받지	18790
저격	18791
##스럽게	18792
##도우	18793
##하려는	18794
활동을	18795
부분이	18796
##군에	18797
##호의	18798
모습으로	18799
손에	18800
##르가	18801
관통	18802
거짓	18803
아름	18804
한국의	18805
부르는	18806
날려	18807
##하므로	18808
비난	18809
알렉	18810
##어.	18811
모험	18812
##99	18813
국회의	18814
요리	18815
단계	18816
부대	18817
##/0	18818
##코의	18819
노력	18820
아쉬	18821
요소	18822
되고,	18823
##위는	18824
미리	18825
##패를	18826
원거리	18827
##해진다.	18828
##이라서	18829
전환	18830
##즈가	18831
##되었으며,	18832
의한	18833
설계	18834
점은	18835
37	18836
##카가	18837
##ill	18838
떨어진	18839
분리	18840
##IA	18841
일반적인	18842
##답게	18843
돌려	18844
인사	18845
##트에	18846
##니다	18847
먹고	18848
더블	18849
나쁘	18850
하나로	18851
죽을	18852
##ia	18853
##워서	18854
정당	18855
대비	18856
탑재	18857
누군	18858
2014	18859
포함한	18860
##소녀	18861
교통	18862
앞으로	18863
##회에	18864
##방의	18865
했으나	18866
보컬	18867
##고가	18868
##ik	18869
##나를	18870
##센터	18871
도로	18872
도움을	18873
##률이	18874
##~2	18875
##화에	18876
등장.	18877
모티브	18878
##었다는	18879
##연히	18880
감안	18881
##산을	18882
자신은	18883
브레이	18884
##골을	18885
보병	18886
점에서	18887
##역으로	18888
팀이	18889
경상	18890
아프리카	18891
비교적	18892
노동	18893
2번	18894
승리를	18895
AP	18896
필살	18897
확보	18898
확실히	18899
인기가	18900
##일은	18901
왕국	18902
##요?	18903
##트롤	18904
191	18905
황금	18906
일은	18907
페르	18908
##에게도	18909
고등학교	18910
기체	18911
스카	18912
완료	18913
##놓은	18914
지적	18915
등록	18916
##나다	18917
승강	18918
조각	18919
##되었고	18920
##타는	18921
##고속	18922
##35	18923
딱히	18924
스포츠	18925
남편	18926
눈에	18927
##힌다.	18928
PC	18929
##구는	18930
##진의	18931
사과	18932
##마트	18933
바탕	18934
정보를	18935
제압	18936
논란이	18937
만들어진	18938
차례	18939
##시키고	18940
고속	18941
그에	18942
금지	18943
##시켰다.	18944
In	18945
포인트	18946
유래	18947
허용	18948
먹는	18949
##초등학교	18950
150	18951
상처	18952
##미는	18953
##신은	18954
연주	18955
일어난	18956
75	18957
구축	18958
연장	18959
1번	18960
상대가	18961
##악의	18962
##판이	18963
##all	18964
##성도	18965
몰아	18966
##라와	18967
추가로	18968
컴퓨터	18969
있습니다.	18970
병사	18971
고통	18972
지니	18973
##에서만	18974
나누	18975
거리	18976
가게	18977
원정	18978
수밖에	18979
실시	18980
명의	18981
캐릭터가	18982
10일	18983
때의	18984
대답	18985
##프의	18986
##루가	18987
형성	18988
그레이	18989
##사이	18990
분야	18991
임명	18992
##:5	18993
##력에	18994
곳에	18995
15일	18996
이것은	18997
##식의	18998
인류	18999
##AT	19000
걱정	19001
##었지만	19002
##까지도	19003
작성	19004
스킬을	19005
##EN	19006
##개로	19007
##바로	19008
##토리	19009
##ea	19010
아시아	19011
##문화	19012
임무	19013
이유가	19014
차이	19015
주목	19016
파트	19017
##렀다.	19018
##티어	19019
##선에	19020
기술을	19021
##다보니	19022
멸망	19023
##하였고	19024
##ne	19025
수호	19026
##FF	19027
본인은	19028
##우고	19029
##프레	19030
##자들	19031
솔로	19032
##르기	19033
##을때	19034
트랙	19035
사용한	19036
##바람	19037
희망	19038
필요가	19039
II	19040
##가로	19041
##역이	19042
이용한	19043
##키를	19044
##ue	19045
갤러	19046
##동,	19047
##코가	19048
어찌	19049
편집	19050
아나	19051
끝난	19052
##PS	19053
만한	19054
유우	19055
짧은	19056
##리스트	19057
시작한다.	19058
##나무	19059
##피아	19060
잠깐	19061
녀석	19062
##리트	19063
##당의	19064
##사에서	19065
가슴	19066
##화에서는	19067
카즈	19068
초반에	19069
##AL	19070
해석	19071
방해	19072
해금	19073
##크래프트	19074
그만	19075
측면	19076
##공을	19077
##:1	19078
겨우	19079
##북도	19080
##발을	19081
##"라는	19082
##잖아	19083
30일	19084
##상태	19085
##기.	19086
뿐만	19087
따른	19088
##권이	19089
##먼트	19090
평범한	19091
주연	19092
이전에	19093
거주	19094
엄청나게	19095
라이트	19096
48	19097
생기	19098
부른다.	19099
없기	19100
커뮤	19101
보였	19102
있으나	19103
5일	19104
##ll	19105
장기	19106
멀티	19107
던전	19108
라디오	19109
삼국	19110
한다고	19111
젊은	19112
레어	19113
##포를	19114
불리는	19115
##자에게	19116
##위의	19117
액션	19118
##선거	19119
여행	19120
홈페이지	19121
예전	19122
##질이	19123
골드	19124
뉴욕	19125
모아	19126
##ct	19127
느껴	19128
이사	19129
업그레이드	19130
끝내	19131
##토가	19132
동맹	19133
20일	19134
##리안	19135
2002년	19136
##이던	19137
어느정도	19138
##ss	19139
원래는	19140
##상에서	19141
##량의	19142
포르	19143
듀얼	19144
3년	19145
55	19146
##도시	19147
+1	19148
##조가	19149
멀리	19150
사령	19151
보이지	19152
센터	19153
##-4	19154
##하의	19155
대놓고	19156
안타	19157
##서가	19158
흡수	19159
에너지	19160
그녀는	19161
타임	19162
뮤직	19163
##즈를	19164
25일	19165
"이	19166
##dddddd	19167
카오	19168
190	19169
st	19170
##품을	19171
최대한	19172
필수	19173
되기	19174
바꿔	19175
쿨타임	19176
만다.	19177
##다가,	19178
##동이	19179
떨어져	19180
##,#dddddd	19181
평가를	19182
##OR	19183
물어	19184
말했다.	19185
유도	19186
있도록	19187
##모리	19188
1.	19189
스케	19190
해군	19191
제시	19192
속도가	19193
걸어	19194
##ate	19195
태어	19196
아스	19197
약속	19198
사이에서	19199
##랐다.	19200
##임에도	19201
다름	19202
내부	19203
대공	19204
형태로	19205
##기술	19206
내용을	19207
42	19208
궁극	19209
봉인	19210
단체	19211
없지만	19212
당선	19213
보급	19214
##디아	19215
힘이	19216
효율	19217
##하여,	19218
##생활	19219
가정	19220
드라이	19221
##물로	19222
자신에게	19223
눈을	19224
출생	19225
##차로	19226
##모를	19227
##카의	19228
##지자	19229
##되며,	19230
3,	19231
코너	19232
##.10	19233
직전	19234
맞고	19235
중단	19236
##대에서	19237
##자리	19238
50%	19239
##든지	19240
육군	19241
끝까지	19242
종합	19243
팀을	19244
밀어	19245
코믹	19246
어울	19247
##물의	19248
##'이	19249
게임의	19250
2003년	19251
##웠다.	19252
##락을	19253
오후	19254
트레이	19255
##했다	19256
재미	19257
생겨	19258
MP	19259
이야기가	19260
능력치	19261
이후에는	19262
4일	19263
거절	19264
##카드	19265
국가대표	19266
이것이	19267
##사건	19268
##되기도	19269
##량은	19270
##주시	19271
광역	19272
받아들	19273
거야	19274
시나리오	19275
알려진	19276
유용	19277
밸런	19278
처음에는	19279
버프	19280
##관은	19281
##함이	19282
28일	19283
잡고	19284
가리	19285
게시	19286
용병	19287
##'는	19288
길을	19289
개의	19290
바뀐	19291
개선	19292
제조	19293
##능력	19294
##미야	19295
2.	19296
##계에	19297
부담	19298
애매	19299
뭔가	19300
##까지의	19301
##하기로	19302
##단은	19303
##구나	19304
컨트롤	19305
##트,	19306
##ove	19307
걸로	19308
##권의	19309
소울	19310
미친	19311
나카	19312
무기를	19313
소리를	19314
##메달	19315
##3,	19316
중이다.	19317
집에	19318
##론이	19319
##수와	19320
##oo	19321
7일	19322
수준의	19323
인기를	19324
흔히	19325
뒤로	19326
##받고	19327
보여주는	19328
귀족	19329
##도와	19330
##이치	19331
중화	19332
강제	19333
##ard	19334
Re	19335
도움이	19336
##모로	19337
##대,	19338
10%	19339
참고.	19340
증거	19341
##비의	19342
본편	19343
##ang	19344
##위원회	19345
SBS	19346
##PC	19347
##하자면	19348
##어져	19349
습격	19350
##달라고	19351
전술	19352
##ell	19353
콤보	19354
사상	19355
##성으로	19356
##성,	19357
발휘	19358
스탠	19359
때부터	19360
##루스	19361
##다면,	19362
추가된	19363
당장	19364
히트	19365
유키	19366
서비스	19367
Sh	19368
##등을	19369
말고	19370
폭탄	19371
위에서	19372
타이밍	19373
레이저	19374
##우의	19375
##크는	19376
왼쪽	19377
바뀌었다.	19378
27일	19379
##ant	19380
지옥	19381
##ers	19382
##버렸	19383
해주	19384
개편	19385
진영	19386
##토의	19387
그들의	19388
##ine	19389
##쳐서	19390
상대의	19391
서울특별	19392
##언을	19393
무게	19394
거대	19395
속에서	19396
##사키	19397
##마을	19398
##관의	19399
자살	19400
재생	19401
##자들을	19402
제외하고	19403
어렵다.	19404
또한,	19405
##주차	19406
싶어	19407
39	19408
넘어가	19409
##스턴	19410
##해졌	19411
##타의	19412
##식은	19413
레전	19414
쉬운	19415
없게	19416
상대적으로	19417
공통	19418
에서	19419
처치	19420
##마스	19421
##아웃	19422
아무래도	19423
문제로	19424
상황에	19425
시작한	19426
원하는	19427
##OS	19428
##와서	19429
지역의	19430
일반적으로	19431
올리	19432
제안	19433
못한다.	19434
부상	19435
##전사	19436
##심히	19437
많았	19438
14일	19439
##해보	19440
사건이	19441
##오의	19442
죽이	19443
스탯	19444
산업	19445
##효과	19446
한다	19447
단독	19448
구입	19449
중에서도	19450
하나를	19451
지명	19452
전자	19453
크다.	19454
줄어들	19455
오스트	19456
황제	19457
수치	19458
누가	19459
겨울	19460
비록	19461
##로스	19462
홍콩	19463
##중학교	19464
반란	19465
21일	19466
스펙	19467
##대와	19468
##느냐	19469
##연구	19470
얘기	19471
상대를	19472
아침	19473
##러를	19474
##.12	19475
계산	19476
패시브	19477
##조를	19478
##토를	19479
아웃	19480
##디션	19481
충돌	19482
##AS	19483
스페인	19484
##/3	19485
26일	19486
2013	19487
##향이	19488
조준	19489
파악	19490
##스탄	19491
시내	19492
로드	19493
근거	19494
핵심	19495
##터의	19496
##지며	19497
상태가	19498
##수에	19499
자기가	19500
##AM	19501
꾸준히	19502
떨어지는	19503
행복	19504
늘어나	19505
##ED	19506
##에,	19507
Sp	19508
민족	19509
기절	19510
##개월	19511
향해	19512
##사항	19513
로켓	19514
그녀를	19515
출발	19516
온라인	19517
이미지	19518
##형의	19519
하나가	19520
모자	19521
##교통	19522
##치지	19523
의심	19524
##VE	19525
##겠다.	19526
17일	19527
싶은	19528
##있던	19529
게임이	19530
책임	19531
못해	19532
사실은	19533
탑승	19534
기획	19535
##격이	19536
12일	19537
##당이	19538
##라리	19539
동일한	19540
##하게도	19541
##원과	19542
만족	19543
##비는	19544
##것이	19545
여겨	19546
8일	19547
광고	19548
채용	19549
##적이고	19550
반영	19551
우려	19552
##서,	19553
##먹는	19554
##기인	19555
실질	19556
머리를	19557
##하러	19558
##다이	19559
##철도	19560
##/32	19561
장르	19562
##구로	19563
두산	19564
##-10	19565
11일	19566
##이라며	19567
건너	19568
밀려	19569
존재하는	19570
고유	19571
뿐이다.	19572
문서:	19573
약한	19574
테마	19575
판타	19576
##학을	19577
##었는데	19578
메가	19579
22일	19580
필드	19581
시티	19582
사항	19583
##할때	19584
18일	19585
붕괴	19586
##ive	19587
##친다.	19588
그게	19589
혼란	19590
온갖	19591
16일	19592
##권에서	19593
플라	19594
##받아	19595
바르	19596
텔레	19597
##되고,	19598
내용이	19599
인생	19600
맡았다.	19601
힘들다.	19602
24일	19603
##500	19604
사람들	19605
오는	19606
카페	19607
##gt;	19608
##로서의	19609
이상한	19610
##안타	19611
공격력이	19612
##ee	19613
기록했다.	19614
BG	19615
6일	19616
처음부터	19617
안습	19618
되었고,	19619
에이스	19620
##끼리	19621
있으므로	19622
##점에서	19623
23일	19624
위로	19625
##히고	19626
대다	19627
강조	19628
##오가	19629
데스	19630
##ack	19631
활약을	19632
"그	19633
극장판	19634
훌륭	19635
##니가	19636
관광	19637
생물	19638
##사인	19639
살짝	19640
그것을	19641
에어	19642
##기만	19643
해제	19644
패러디	19645
SS	19646
없고,	19647
##차피	19648
기원	19649
##ast	19650
##373	19651
불명	19652
13일	19653
당시에는	19654
자이	19655
나오고	19656
3회	19657
랜덤	19658
어쩔	19659
설득	19660
커버	19661
배신	19662
탄생	19663
120	19664
수원	19665
두번째	19666
미나	19667
둘이	19668
##주년	19669
Th	19670
##스포	19671
##시와	19672
고민	19673
인간의	19674
9일	19675
아오	19676
19일	19677
그럴	19678
##전에서는	19679
그렇다고	19680
공산	19681
##모가	19682
##루를	19683
##하였으며,	19684
마이크	19685
하위	19686
한화	19687
방식으로	19688
FI	19689
지하철	19690
플레이어가	19691
##가능	19692
[[	19693
##uby	19694
보여준	19695
아니지만	19696
돌파	19697
페이	19698
아야	19699
주도	19700
서포	19701
지급	19702
숨겨	19703
##4,	19704
화살	19705
##과학	19706
부터	19707
29일	19708
않기	19709
##왕이	19710
##스에게	19711
중간에	19712
만들었다.	19713
##'에	19714
않지만	19715
ST	19716
당황	19717
감염	19718
스킨	19719
##&gt;	19720
##만은	19721
속에	19722
사람들을	19723
말해	19724
2012	19725
무서	19726
##선은	19727
아메	19728
##자마자	19729
셈.	19730
은근	19731
##게도	19732
##정부	19733
들어오	19734
##속성	19735
나쁜	19736
##3c	19737
뒤집	19738
납치	19739
2001년	19740
##lt;	19741
말도	19742
##님이	19743
와중에	19744
이들	19745
1위를	19746
##오카	19747
그다	19748
시점에서	19749
방패	19750
##거리가	19751
##되었던	19752
##선에서	19753
표준	19754
오프닝	19755
아라	19756
마지막으로	19757
##루의	19758
들어간	19759
##ong	19760
##기에는	19761
입은	19762
우승을	19763
가입	19764
##드라	19765
작전	19766
가로	19767
일종의	19768
##웨이	19769
47	19770
##AC	19771
be	19772
##독교	19773
즉시	19774
얻은	19775
##하긴	19776
한국어	19777
##은행	19778
갖추	19779
열심히	19780
##개가	19781
##파이어	19782
대륙	19783
##ort	19784
외에	19785
구단	19786
확률이	19787
신뢰	19788
##ruby	19789
이름의	19790
둘러	19791
3번	19792
보여줬	19793
##판에	19794
실행	19795
해설	19796
발음	19797
##국이	19798
마련	19799
##방이	19800
있었지만	19801
##지마	19802
하기도	19803
##if	19804
때려	19805
오른쪽	19806
##LC	19807
만에	19808
있었고,	19809
한때	19810
주력	19811
추정된다.	19812
##ind	19813
실력	19814
##오프	19815
데미지가	19816
버튼	19817
##마리	19818
##5%	19819
##ith	19820
##a3c	19821
##373a3c	19822
##점에	19823
늘어	19824
공항	19825
400	19826
받게	19827
##트남	19828
##EC	19829
##세는	19830
대미지	19831
##동에	19832
라이벌	19833
아사	19834
명예	19835
역전	19836
PS	19837
않아서	19838
##ruby]	19839
버티	19840
##ld	19841
옆에	19842
##화로	19843
하던	19844
어차피	19845
모션	19846
이르	19847
바탕으로	19848
##정보	19849
##장.	19850
현재의	19851
단일	19852
내에	19853
##즈키	19854
것이라는	19855
만난	19856
사실이	19857
어째	19858
내내	19859
습득	19860
들어가는	19861
사정	19862
##시리즈	19863
등등	19864
이론	19865
드랍	19866
클로	19867
서울특별시	19868
##마법	19869
##베르	19870
##ly	19871
10년	19872
성적	19873
##스트로	19874
후쿠	19875
제주	19876
디스	19877
수입	19878
##해져	19879
##진은	19880
댓글	19881
##ffffff	19882
아이템을	19883
커뮤니티	19884
교환	19885
이래	19886
뒤,	19887
언어	19888
##데미	19889
동아	19890
보수	19891
분석	19892
여러가지	19893
##직을	19894
브라질	19895
베이스	19896
##인지라	19897
20%	19898
입학	19899
##면서도	19900
이승	19901
##하기에	19902
##증을	19903
스페셜	19904
##까?	19905
눈치	19906
##즈는	19907
절반	19908
가면라이더	19909
그곳	19910
초월	19911
통일	19912
스프	19913
경유	19914
붙잡	19915
인지	19916
박살	19917
공주	19918
무력	19919
음식	19920
##우를	19921
2위	19922
공격이	19923
들어서	19924
##프는	19925
##어주	19926
2루	19927
김성	19928
##ist	19929
것이었다.	19930
카드가	19931
집안	19932
놓고	19933
돌격	19934
형제	19935
46	19936
##급의	19937
44	19938
건축	19939
쓰지	19940
시행	19941
뽑아	19942
메이저	19943
사거리	19944
##지컬	19945
##회는	19946
##말을	19947
정말로	19948
##시한	19949
##선으로	19950
##VP	19951
했는데	19952
##스트를	19953
##ain	19954
행동을	19955
##원들이	19956
공을	19957
##//	19958
정글	19959
##군과	19960
재능	19961
이슬	19962
가득	19963
계승	19964
##'으로	19965
##.11	19966
위키	19967
##역,	19968
##ps	19969
##~3	19970
##했다가	19971
벗어나	19972
내구	19973
말한	19974
##리아의	19975
그다지	19976
##단으로	19977
선배	19978
부분은	19979
오픈	19980
조정	19981
레인	19982
###x	19983
수리	19984
얼음	19985
베르	19986
##기에서	19987
##-5	19988
##요!	19989
파이터	19990
오리	19991
격파	19992
미야	19993
위하여	19994
##per	19995
##치에	19996
사람도	19997
마주	19998
제국의	19999
##리자	20000
안되는	20001
##공항	20002
안드로	20003
노래를	20004
##가에	20005
##했으나,	20006
##권에	20007
##각을	20008
덕에	20009
##하지는	20010
01	20011
나의	20012
##해지는	20013
마법사	20014
계속해서	20015
격투	20016
정도는	20017
울트라	20018
제기	20019
크리	20020
마츠	20021
##면을	20022
##니,	20023
밴드	20024
마녀	20025
##해주는	20026
정령	20027
팀은	20028
쓰러뜨	20029
세력	20030
점수	20031
##병을	20032
공유	20033
##족의	20034
맡은	20035
위해서는	20036
##라운	20037
적도	20038
##연합	20039
그녀가	20040
그만큼	20041
##이나,	20042
##리나	20043
살고	20044
고급	20045
걸려	20046
소멸	20047
죽는	20048
당시의	20049
07	20050
의미가	20051
전달	20052
일부러	20053
##판의	20054
그것도	20055
하다가	20056
붙여	20057
##다"고	20058
곳에서	20059
그동안	20060
보인	20061
다행히	20062
##시안	20063
북미	20064
경계	20065
가문	20066
피아	20067
물러	20068
근무	20069
테러	20070
##역에서	20071
때문인지	20072
건강	20073
하수	20074
없었던	20075
메탈	20076
NC	20077
사용하면	20078
미사일	20079
##est	20080
모양.	20081
카르	20082
네이버	20083
외교	20084
랭크	20085
대장	20086
데리고	20087
##HE	20088
##긴다.	20089
울산	20090
연예	20091
뛰어나	20092
추진	20093
와서	20094
##리면서	20095
생각하는	20096
##OL	20097
순식	20098
##:3	20099
##기간	20100
아무도	20101
비하면	20102
##악한	20103
의도	20104
트레	20105
공작	20106
이들이	20107
증명	20108
##화,	20109
##류가	20110
통한	20111
##서의	20112
##소의	20113
정체	20114
스타일	20115
##판에서는	20116
##였고,	20117
떠올	20118
패치로	20119
프로토	20120
무난	20121
쓰레	20122
심각한	20123
##시코	20124
알았	20125
장애	20126
##사용	20127
암흑	20128
케이스	20129
거래	20130
##니어	20131
해체	20132
##화는	20133
후에는	20134
홍보	20135
역으로	20136
아우	20137
##리티컬	20138
신인	20139
가까이	20140
##0000	20141
43	20142
얼굴을	20143
3.	20144
오로	20145
아무런	20146
포인	20147
스트라이	20148
##ry	20149
압박	20150
##스팅	20151
실제로는	20152
전체적으로	20153
##랭크	20154
화려	20155
쓰이는	20156
되돌	20157
자리에	20158
갑옷	20159
##IT	20160
##373a3c,#dddddd	20161
클리	20162
##아,	20163
##디언	20164
주인공이	20165
했다고	20166
싸우는	20167
##시간이	20168
02	20169
08	20170
전투에서	20171
못할	20172
자원	20173
##스키	20174
##니의	20175
##등급	20176
연계	20177
##별로	20178
##lo	20179
시야	20180
자동차	20181
3차	20182
민간	20183
한계	20184
입수	20185
##판은	20186
글로	20187
취소	20188
컨텐츠	20189
하나인	20190
##64	20191
해적	20192
##들이다.	20193
순식간에	20194
기독교	20195
##하이	20196
추가되었다.	20197
함정	20198
노트	20199
##부와	20200
##리언	20201
1999년	20202
##-12	20203
스튜	20204
사건을	20205
관객	20206
8강	20207
##면에	20208
##색이	20209
여동생	20210
##로로	20211
뒤를	20212
지금까지	20213
생겼	20214
관심을	20215
회전	20216
보여주었다.	20217
##명,	20218
캐나다	20219
##보단	20220
않고,	20221
목적으로	20222
##인.	20223
카운터	20224
부족한	20225
##피스	20226
난이도가	20227
##'이라고	20228
##시장	20229
이스	20230
복잡	20231
신의	20232
있긴	20233
##FC	20234
채로	20235
도달	20236
많았다.	20237
아케	20238
##실이	20239
통해서	20240
때에는	20241
선수가	20242
예술	20243
프로젝트	20244
얻는	20245
##유키	20246
선호	20247
어쨌	20248
첫번째	20249
돌아오	20250
or	20251
아티	20252
파견	20253
##거운	20254
방송을	20255
##사람	20256
쏟아	20257
당한	20258
떡밥	20259
돌진	20260
##워드	20261
목적	20262
me	20263
##PU	20264
국회의원	20265
아닐	20266
1998년	20267
최악의	20268
##겠지만,	20269
이들의	20270
##되었으며	20271
##오를	20272
##호,	20273
괴물	20274
캐릭터의	20275
##시스	20276
on	20277
##만원	20278
크리티컬	20279
##중한	20280
체포	20281
수요	20282
강원	20283
##가락	20284
##해,	20285
##으려	20286
##지방	20287
06	20288
몰래	20289
드디어	20290
정확히	20291
체육	20292
CD	20293
빨간	20294
맞이	20295
투자	20296
도움	20297
##관으로	20298
03	20299
방향으로	20300
소프트	20301
출현	20302
조지	20303
##듯.	20304
파이널	20305
경영	20306
쓴다.	20307
두려	20308
##하시	20309
##100	20310
##장인	20311
나루	20312
관계를	20313
흔들	20314
세워	20315
러브	20316
네덜	20317
리버	20318
##류를	20319
옮겨	20320
불꽃	20321
수용	20322
##널티	20323
##BO	20324
테크	20325
본격적으로	20326
해방	20327
기회를	20328
넓은	20329
노출	20330
지역에	20331
##대회	20332
##관에	20333
하자.	20334
입단	20335
문을	20336
있었으나	20337
드립	20338
개통	20339
조용	20340
##마는	20341
크레	20342
교황	20343
고전	20344
제로	20345
폭풍	20346
부진	20347
의식	20348
것이라	20349
NPC	20350
에스	20351
09	20352
##아파트	20353
it	20354
방법을	20355
##인에게	20356
##우리	20357
##것을	20358
단지	20359
추락	20360
잉글	20361
충청	20362
뉴스	20363
요새	20364
##거리는	20365
구현	20366
의사	20367
##목을	20368
넘는	20369
쓰인다.	20370
이쪽은	20371
응원	20372
##ust	20373
아무것도	20374
다니는	20375
##당을	20376
후지	20377
편이	20378
쓰면	20379
등판	20380
감독이	20381
##관계	20382
변호	20383
목숨을	20384
99	20385
눈이	20386
의견이	20387
대규모	20388
계급	20389
64	20390
대로	20391
##]]	20392
52	20393
중.	20394
##5,	20395
##터리	20396
가능.	20397
##자들에게	20398
등에서	20399
영원	20400
단점	20401
##구,	20402
아니라,	20403
했지만,	20404
##카를	20405
견제	20406
최상	20407
방법이	20408
카나	20409
##았을	20410
##형은	20411
없다	20412
신규	20413
편성	20414
AT	20415
충전	20416
작용	20417
##실에	20418
1인	20419
되찾	20420
프리미	20421
...	20422
신청	20423
##라노	20424
사이의	20425
해당하는	20426
##머리	20427
##체로	20428
됐다.	20429
수학	20430
화이트	20431
못하게	20432
is	20433
성능이	20434
##트에서	20435
중인	20436
Su	20437
##브를	20438
##한국	20439
##종이	20440
인근	20441
##까지만	20442
치고	20443
49	20444
되는데	20445
##치와	20446
아직도	20447
이용하여	20448
상향	20449
이후로는	20450
깊은	20451
했을	20452
감독의	20453
유명하다.	20454
열차	20455
##타이	20456
1997년	20457
##메이	20458
쪽으로	20459
교수	20460
제이	20461
폐지	20462
##코는	20463
모습은	20464
대립	20465
##부,	20466
마지막에	20467
##라기	20468
모른	20469
옛날	20470
##se	20471
협력	20472
보도	20473
모른다.	20474
말할	20475
여러모로	20476
비슷하게	20477
베트남	20478
##사.	20479
기록을	20480
흘러	20481
있었는데,	20482
##주인	20483
기초	20484
가이	20485
동원	20486
보너스	20487
##이었으나	20488
괜찮은	20489
통신	20490
180	20491
다가	20492
##시설	20493
영상을	20494
스마트	20495
대상으로	20496
불편	20497
트위터	20498
테이	20499
있어야	20500
##ore	20501
##역에	20502
집단	20503
31일	20504
##주,	20505
생각을	20506
기능을	20507
##공의	20508
효과는	20509
##장한	20510
그에게	20511
##톨릭	20512
출판	20513
부분을	20514
##저히	20515
크루	20516
수집	20517
캐릭터를	20518
필요하다.	20519
기여	20520
##었는데,	20521
'이	20522
모바	20523
##:4	20524
이후의	20525
우리가	20526
##6,	20527
쪽이	20528
파이어	20529
##인들은	20530
혼자서	20531
언제나	20532
##색을	20533
고향	20534
이뤄	20535
만들고	20536
##RE	20537
##고의	20538
##브리	20539
토모	20540
##형으로	20541
연애	20542
##경이	20543
그래픽	20544
무료	20545
US	20546
전투를	20547
수준으로	20548
말이다.	20549
##인민	20550
1.5	20551
##의가	20552
전라	20553
##one	20554
글을	20555
운전	20556
걸쳐	20557
대폭	20558
MS	20559
무대	20560
다수	20561
반응을	20562
없애	20563
어깨	20564
행사	20565
##소에	20566
##미,	20567
경기가	20568
##영상	20569
##야의	20570
그런지	20571
##용이	20572
##가?	20573
00	20574
매일	20575
##파의	20576
##되자	20577
먹을	20578
유저들이	20579
30%	20580
##스트라	20581
마음에	20582
맡고	20583
갤럭	20584
##24	20585
닥터	20586
순서	20587
복수	20588
아일	20589
창작	20590
유희	20591
공부	20592
하나.	20593
공화국	20594
빠진	20595
본선	20596
고생	20597
푸른	20598
##해가	20599
몸에	20600
꺼내	20601
KT	20602
걸린	20603
##아를	20604
학살	20605
##자키	20606
##해지	20607
##보스	20608
타워	20609
상황.	20610
자체를	20611
##였지만	20612
자신과	20613
대체로	20614
나뉘	20615
&lt;	20616
달러	20617
돌아온	20618
자이언	20619
주어	20620
죽여	20621
##책을	20622
평화	20623
위기에	20624
##인이다.	20625
##였다고	20626
##전투	20627
만든다.	20628
장점	20629
이득	20630
번호	20631
##인인	20632
오스	20633
무효	20634
화장	20635
제법	20636
인상	20637
주지	20638
간의	20639
기습	20640
사람들의	20641
##였고	20642
몸이	20643
##의로	20644
사진을	20645
있었는데	20646
노예	20647
다섯	20648
콘서	20649
이후에도	20650
어디까지	20651
브랜드	20652
전원	20653
드물	20654
##민이	20655
##격으로	20656
중학교	20657
##율을	20658
##함에	20659
등과	20660
이날	20661
이것을	20662
#373a3c,#dddddd	20663
안에서	20664
그와	20665
달아	20666
넣어	20667
본인도	20668
##치,	20669
주먹	20670
오빠	20671
참전	20672
2배	20673
##렸을	20674
성능을	20675
어그	20676
##동의	20677
모리	20678
##라이언	20679
An	20680
거기다	20681
##카는	20682
사이가	20683
##자고	20684
조금씩	20685
적어도	20686
스폰	20687
특별한	20688
04	20689
##PG	20690
##운다.	20691
추적	20692
##비전	20693
네가	20694
위치를	20695
말은	20696
##다의	20697
작동	20698
호평	20699
##ip	20700
마시	20701
##어와	20702
이중	20703
##연이	20704
계획을	20705
명이	20706
양산	20707
정류	20708
A4	20709
딜러	20710
##지원	20711
05	20712
영문	20713
다리	20714
구출	20715
유전	20716
이시	20717
코드	20718
하나는	20719
똑같이	20720
3위	20721
조심	20722
들은	20723
알파	20724
된다는	20725
##타입	20726
점차	20727
4강	20728
대략	20729
##:30	20730
##내며	20731
##.25	20732
하다	20733
##사랑	20734
곡을	20735
65	20736
보낸	20737
##",	20738
그렇지	20739
##업이	20740
댄스	20741
똑같은	20742
##마저도	20743
길이	20744
##end	20745
##인에	20746
그것이	20747
4년	20748
##러운	20749
마이클	20750
시키	20751
##할수	20752
가드	20753
##보가	20754
세월	20755
##표를	20756
##링을	20757
##ere	20758
있으나,	20759
차별	20760
파일럿	20761
##기지	20762
노멀	20763
연사	20764
체력을	20765
##하에	20766
변경되었다.	20767
곳이	20768
진정한	20769
입장에서는	20770
4개	20771
1996년	20772
내는	20773
준우	20774
있었고	20775
4,	20776
##함으로써	20777
공급	20778
동작	20779
익숙	20780
연방	20781
##제한	20782
##당에	20783
Te	20784
##관,	20785
귀여	20786
되는데,	20787
전직	20788
##33	20789
그들은	20790
던져	20791
캐릭터.	20792
##프리	20793
##세에	20794
잡는	20795
도서	20796
행성	20797
##적의	20798
##조는	20799
##75	20800
미츠	20801
런던	20802
사토	20803
위원	20804
##역의	20805
타케	20806
##??	20807
거라고	20808
생겼다.	20809
##부르크	20810
고양이	20811
파란	20812
관계가	20813
어쩌	20814
레오	20815
##동차	20816
##국을	20817
임시	20818
엑스	20819
비중이	20820
그럼에도	20821
##라에	20822
스킬이	20823
프린	20824
널리	20825
##ity	20826
의원	20827
##실에서	20828
##님의	20829
코스트	20830
##파를	20831
불법	20832
되자	20833
##력도	20834
형태의	20835
##주에	20836
의혹	20837
예선	20838
##재를	20839
심한	20840
##병이	20841
시기에	20842
했고,	20843
##유가	20844
도중에	20845
##ath	20846
최후의	20847
선물	20848
##-11	20849
기반으로	20850
요즘	20851
##화되어	20852
펼치기	20853
##짜리	20854
스웨	20855
##었으나	20856
때가	20857
##상,	20858
동네	20859
##무원	20860
마리오	20861
1대	20862
이재	20863
##고로	20864
성인	20865
더빙	20866
##공화국	20867
어지	20868
세계의	20869
##드에서	20870
집어	20871
##-20	20872
1995년	20873
BGM	20874
조절	20875
이내	20876
##부대	20877
##데스	20878
##.01	20879
살려	20880
##들에게는	20881
##티아	20882
권총	20883
어드	20884
마크	20885
조성	20886
국립	20887
16강	20888
##시절	20889
아머	20890
제4	20891
헤드	20892
수영	20893
##체에	20894
시각	20895
##였으나	20896
변형	20897
##히로	20898
MAX	20899
인공	20900
간다.	20901
Ar	20902
정도가	20903
##이긴	20904
근처에	20905
달린	20906
기어	20907
전형	20908
등은	20909
##민의	20910
고용	20911
이슬람	20912
공격에	20913
메카	20914
신성	20915
##메이크	20916
##테인	20917
보이고	20918
막을	20919
장식	20920
합격	20921
Ne	20922
박근	20923
##과,	20924
##당하는	20925
2010	20926
유로	20927
유령	20928
##색으로	20929
##냐며	20930
붙은	20931
##미와	20932
지니고	20933
비디오	20934
##200	20935
##주면	20936
마도	20937
정확한	20938
한마	20939
SN	20940
구속	20941
De	20942
##인들의	20943
##항공	20944
##받았다.	20945
##과를	20946
플레	20947
##하였으나	20948
##았다고	20949
##료를	20950
##버트	20951
##한의	20952
곧바로	20953
5회	20954
##베이	20955
윌리	20956
페이스	20957
접기	20958
태어난	20959
##이었고,	20960
언니	20961
##ome	20962
수송	20963
전까지	20964
제임	20965
이성	20966
이거	20967
4회	20968
##비스	20969
##영화	20970
등장했다.	20971
낮아	20972
팬들이	20973
빠르	20974
레전드	20975
트로	20976
##름을	20977
대부분이	20978
여왕	20979
아버지가	20980
##들,	20981
지속적으로	20982
##65	20983
하더라도	20984
디지털	20985
넘겨	20986
대미지를	20987
평가가	20988
FIFA	20989
크로스	20990
AI	20991
있었다고	20992
시장	20993
##해의	20994
나를	20995
모으	20996
##라이트	20997
소리가	20998
-원	20999
어떠	21000
##MA	21001
블록	21002
매니	21003
팬들은	21004
주변에	21005
출처	21006
불린다.	21007
괴롭	21008
무언	21009
단순한	21010
김영	21011
쿠로	21012
예측	21013
모두가	21014
너무나	21015
몰려	21016
오랫	21017
9회	21018
크고	21019
생활을	21020
가톨릭	21021
합쳐	21022
녹음	21023
판타지	21024
되었고	21025
종점	21026
##중인	21027
생일	21028
적극적으로	21029
##조리	21030
##지않	21031
득표	21032
연상	21033
예외	21034
어둠의	21035
취임	21036
##홈런	21037
##등이	21038
펼쳐	21039
##씨가	21040
파라	21041
##미니	21042
##우,	21043
무엇보다	21044
수사	21045
전함	21046
##데다	21047
서서	21048
않았던	21049
판정	21050
검색	21051
초창	21052
극단	21053
58	21054
막기	21055
거리가	21056
어떻게든	21057
플레이를	21058
기억을	21059
포탑	21060
구해	21061
추격	21062
-명	21063
가졌	21064
2011	21065
##내기	21066
##교의	21067
전쟁을	21068
그랬	21069
리메이크	21070
공개된	21071
##법이	21072
자신들의	21073
반격	21074
일본어	21075
편의	21076
##당은	21077
줄어	21078
잠수	21079
이들을	21080
절망	21081
##쟁이	21082
커맨	21083
스카이	21084
##술사	21085
업무	21086
##담을	21087
##야구	21088
AC	21089
##7,	21090
##자면	21091
##age	21092
##산이	21093
아쉽	21094
모바일	21095
##.02	21096
##권은	21097
고백	21098
스파이	21099
요괴	21100
##레나	21101
##IS	21102
##양이	21103
근육	21104
지나치게	21105
내의	21106
##무기	21107
5년	21108
MVP	21109
보물	21110
차단	21111
소닉	21112
##사업	21113
갈아	21114
위험한	21115
존재하지	21116
##경찰	21117
##뿐만	21118
라이더	21119
승격	21120
##평가	21121
##니다!	21122
##전차	21123
없으니	21124
##영이	21125
##다니는	21126
중에는	21127
않아도	21128
압도적인	21129
MC	21130
다이아	21131
진지	21132
등,	21133
189	21134
##'에서	21135
3D	21136
##학자	21137
파트너	21138
##실한	21139
##야.	21140
타이거	21141
##관리	21142
저그	21143
작중에서	21144
중국의	21145
대항	21146
목격	21147
##당히	21148
정착	21149
##22	21150
##소는	21151
동방	21152
밖으로	21153
기점	21154
영국의	21155
없으면	21156
주전	21157
탱커	21158
##마루	21159
이후,	21160
##이었지만	21161
이루어진	21162
박정	21163
마리아	21164
발달	21165
일도	21166
소화	21167
FA	21168
불가능하다.	21169
##II	21170
##호로	21171
##드립	21172
##쪽의	21173
반발	21174
능력은	21175
관할	21176
##버리고	21177
클래스	21178
##인간	21179
상품	21180
마법을	21181
본작	21182
##마이	21183
특이한	21184
규정	21185
##츠키	21186
전면	21187
게이지	21188
높이	21189
나타난	21190
##티드	21191
3대	21192
##스톤	21193
설정이	21194
##ect	21195
신설	21196
장수	21197
부상을	21198
1994년	21199
##안이	21200
##편의	21201
##디로	21202
후속작	21203
##하라고	21204
활성	21205
가깝다.	21206
##론의	21207
##동으로	21208
유행	21209
와이	21210
전력	21211
##개발	21212
##했었다.	21213
##://	21214
느낌이	21215
일시	21216
##국가	21217
##둥이	21218
##하면서도	21219
##구역	21220
##%의	21221
외계	21222
##ire	21223
하필	21224
홀로	21225
##슈타	21226
보여주고	21227
중계	21228
차라리	21229
##환이	21230
단어	21231
주의.	21232
##나라의	21233
##소에서	21234
인수	21235
플랫	21236
저장	21237
써서	21238
에드	21239
그로	21240
##으론	21241
##리우	21242
##린이	21243
DLC	21244
##.03	21245
자가	21246
##현이	21247
의뢰	21248
예비	21249
입력	21250
##석은	21251
##세요.	21252
통상	21253
성격이	21254
용의	21255
THE	21256
##전,	21257
기능이	21258
되어서	21259
##BA	21260
식민	21261
##로나	21262
##츠의	21263
한동안	21264
##하기는	21265
##방어	21266
폭주	21267
##린의	21268
##친구	21269
지금의	21270
히데	21271
##tt	21272
##디가	21273
##함과	21274
아름다운	21275
곳으로	21276
루트	21277
계약을	21278
외부	21279
작품의	21280
이전의	21281
대상이	21282
##어버린	21283
모여	21284
최강의	21285
무적	21286
하야	21287
아바	21288
오랫동안	21289
##66	21290
긍정	21291
최다	21292
치명타	21293
##되었을	21294
창조	21295
##명이다.	21296
착각	21297
블러	21298
협박	21299
2부	21300
##~4	21301
예능	21302
강철	21303
나와서	21304
국방	21305
중에서는	21306
##으려고	21307
##라!	21308
##노가	21309
##했는지	21310
베어	21311
##었기	21312
##-8	21313
들이	21314
##연을	21315
##번에	21316
##분의	21317
##연의	21318
##당했다.	21319
사운드	21320
역임	21321
의존	21322
버려	21323
튀어나	21324
법률	21325
##유를	21326
##편에서	21327
서양	21328
전후	21329
현지	21330
다룬	21331
부른	21332
##당하고	21333
실력을	21334
유형	21335
쫓아	21336
성적을	21337
마침내	21338
8회	21339
있기에	21340
맞지	21341
시켜	21342
41	21343
많아서	21344
##해서는	21345
남겨	21346
##들과는	21347
잡을	21348
말하면	21349
##교를	21350
자매	21351
헤어	21352
##르를	21353
기원전	21354
죽인	21355
어쨌든	21356
현상	21357
##토는	21358
학원	21359
베스트	21360
청년	21361
신기	21362
##og	21363
##네가	21364
결성	21365
승부	21366
끌려	21367
외에는	21368
스티	21369
감시	21370
간혹	21371
출신의	21372
'아	21373
오사카	21374
##OT	21375
Le	21376
##류의	21377
회의	21378
저녁	21379
다루는	21380
가볍	21381
대사를	21382
##었다	21383
구멍	21384
##킨다.	21385
대화를	21386
##ide	21387
##/4	21388
신고	21389
쓰기	21390
##어리	21391
##과도	21392
하나이다.	21393
대처	21394
방출	21395
오늘날	21396
##팀이	21397
총을	21398
어디까지나	21399
##ID	21400
감옥	21401
끝나고	21402
##'.	21403
##령을	21404
주기	21405
싸울	21406
프라	21407
보장	21408
커플	21409
생각이	21410
##ure	21411
##감독	21412
순수	21413
##터테인	21414
아니냐는	21415
기술이	21416
가속	21417
##되었다고	21418
찾는	21419
##구치	21420
심리	21421
잃은	21422
1990년	21423
##배를	21424
엄마	21425
사용하여	21426
##ake	21427
##버려	21428
##"는	21429
##하는게	21430
박근혜	21431
##사령	21432
콜라	21433
##설을	21434
적대	21435
골든	21436
쉽다.	21437
나나	21438
56	21439
##번호	21440
##세로	21441
아리	21442
했다는	21443
##ime	21444
##곡을	21445
##군으로	21446
내놓	21447
까지	21448
않는다는	21449
##진,	21450
강제로	21451
지어	21452
세계를	21453
이지	21454
말아	21455
이리	21456
끌고	21457
지역을	21458
##28	21459
생각하고	21460
##기업	21461
처벌	21462
받아들이	21463
보일	21464
##만큼은	21465
침공	21466
##던가	21467
안내	21468
##소한	21469
##크라	21470
54	21471
##웨어	21472
경기는	21473
마인	21474
날개	21475
맞은	21476
힘으로	21477
비슷하다.	21478
##당해	21479
##통을	21480
Me	21481
했는데,	21482
##르지	21483
주말	21484
##파이	21485
Se	21486
##터는	21487
##다'는	21488
##더스	21489
AK	21490
##일드	21491
##세요	21492
외국인	21493
좌우	21494
이어지는	21495
##리얼	21496
나름대로	21497
##회사	21498
자는	21499
통제	21500
##실,	21501
디버	21502
##금이	21503
김태	21504
올린	21505
3루	21506
인간이	21507
정치적	21508
2기	21509
만났	21510
죽음을	21511
##심으로	21512
59	21513
독자	21514
드러나	21515
##등의	21516
일본에서	21517
무덤	21518
구체	21519
합성	21520
##amp	21521
생각보다	21522
##ark	21523
##판에서	21524
마음이	21525
##타와	21526
##하거나,	21527
이끌고	21528
WW	21529
실버	21530
전화	21531
미스	21532
##OM	21533
마이너	21534
자신도	21535
똑같	21536
한국에서	21537
이집	21538
한자	21539
까다	21540
가고	21541
둘째	21542
소수	21543
무작	21544
##노우	21545
대만	21546
##77	21547
##니와	21548
화력	21549
필리	21550
다수의	21551
윌리엄	21552
##신으로	21553
은하	21554
훌륭한	21555
코미	21556
##인지는	21557
인형	21558
##슬러	21559
##ES	21560
정확히는	21561
정복	21562
##노의	21563
지금도	21564
마구	21565
풀어	21566
포르투	21567
##소리	21568
작사	21569
어릴	21570
우리는	21571
##량으로	21572
막장	21573
구성되어	21574
발매된	21575
##일로	21576
사용해	21577
아가	21578
##줘야	21579
은근히	21580
관심이	21581
##보기	21582
일으키	21583
##물에	21584
어두	21585
접촉	21586
600	21587
수록곡	21588
무기로	21589
정면	21590
##이게	21591
감정	21592
인하여	21593
남아있	21594
KIA	21595
향상	21596
##ite	21597
희귀	21598
##었으며,	21599
깨닫	21600
Lv.	21601
소형	21602
성립	21603
##들.	21604
##주지	21605
##38	21606
플로	21607
더더	21608
6회	21609
했고	21610
수련	21611
##팀의	21612
방법은	21613
영업	21614
웹툰	21615
##OP	21616
##이트를	21617
##페이	21618
강남	21619
##계에서	21620
초등학교	21621
밝혀졌다.	21622
호텔	21623
##묘한	21624
알렉산	21625
유대	21626
정지	21627
것만	21628
##아는	21629
##지고,	21630
#ffffff	21631
##크,	21632
##재가	21633
DJ	21634
##식에	21635
##하고자	21636
##당한다.	21637
노부	21638
한편,	21639
없던	21640
캐릭터로	21641
규칙	21642
팬들의	21643
독특	21644
kt	21645
동시	21646
지역에서	21647
출장	21648
요코	21649
일제	21650
##환을	21651
누적	21652
로스	21653
태어나	21654
##UN	21655
다들	21656
마왕	21657
사용하지	21658
등장인물.	21659
상호	21660
무렵	21661
흥행	21662
##안에	21663
##야가	21664
##ound	21665
##.05	21666
제5	21667
##실로	21668
옷을	21669
예고	21670
피격	21671
이길	21672
##하려면	21673
강하게	21674
몬스터를	21675
##았고,	21676
태그	21677
경향이	21678
대원	21679
이끄	21680
##한을	21681
융합	21682
##시키기	21683
##iv	21684
##구려	21685
이치	21686
##치며	21687
##oy	21688
##피를	21689
헤이	21690
##'t	21691
##된다는	21692
##트워	21693
스웨덴	21694
더더욱	21695
이란	21696
##점,	21697
2017-0	21698
지내	21699
##산업	21700
멀쩡	21701
당신	21702
##림을	21703
my	21704
안티	21705
CC	21706
포스트	21707
기본적인	21708
극복	21709
아빠	21710
의료	21711
##iz	21712
##였다는	21713
##에다	21714
'그	21715
##현의	21716
찾아가	21717
말로	21718
메시	21719
역사상	21720
##미네	21721
들어간다.	21722
세상을	21723
##파가	21724
피를	21725
7회	21726
편입	21727
탄약	21728
일찍	21729
##명한	21730
경비	21731
수십	21732
브루	21733
반응이	21734
##조차도	21735
전에는	21736
스피드	21737
##법은	21738
He	21739
특기	21740
고등	21741
테란	21742
결과를	21743
김정	21744
##초간	21745
##민주당	21746
88	21747
소총	21748
노르	21749
인물.	21750
웨이	21751
지능	21752
##막을	21753
##명에	21754
5개	21755
갤럭시	21756
슬롯	21757
맞게	21758
Be	21759
하얀	21760
##.08	21761
##재로	21762
팬덤	21763
지원을	21764
제2차	21765
##구와	21766
##투를	21767
주었다.	21768
##리에서	21769
##OW	21770
##소로	21771
스튜디오	21772
연극	21773
니시	21774
##코,	21775
나아	21776
훗날	21777
이상으로	21778
불가능한	21779
##이었고	21780
사람들에게	21781
할아버	21782
뜻은	21783
블로그	21784
경험치	21785
##하겠	21786
##군,	21787
##AD	21788
대개	21789
원본	21790
AR	21791
코어	21792
##ge	21793
사랑을	21794
##전과	21795
별다른	21796
##다면서	21797
역을	21798
프로듀서	21799
감사	21800
나눠	21801
##ess	21802
부품	21803
어른	21804
들어갈	21805
+2	21806
##크와	21807
57	21808
장면을	21809
적응	21810
접속	21811
상황이다.	21812
이주	21813
게임에서	21814
청소년	21815
##심한	21816
저주	21817
##론은	21818
문재	21819
사용하고	21820
달고	21821
속하는	21822
있었기	21823
관계로	21824
##이었다고	21825
내세	21826
레벨이	21827
죄다	21828
대충	21829
문학	21830
새벽	21831
사라진	21832
##영의	21833
##종을	21834
GT	21835
66	21836
##색의	21837
전성	21838
이끄는	21839
##비에	21840
중의	21841
관심	21842
##에서,	21843
##되었는데,	21844
안드로이드	21845
1992년	21846
당해	21847
전시	21848
##로봇	21849
절대로	21850
멈추	21851
스미	21852
##도르	21853
5,	21854
환승	21855
이즈	21856
##단과	21857
##다시피	21858
##익을	21859
갈라	21860
이정	21861
##화와	21862
##용을	21863
다를	21864
##9,	21865
전형적인	21866
한참	21867
버리고	21868
공격하는	21869
랭킹	21870
##기까지	21871
헌터	21872
네덜란드	21873
내리	21874
정도다.	21875
##전대	21876
개입	21877
각본	21878
스톰	21879
##졌고,	21880
챔피언스	21881
카타	21882
##망을	21883
##~20	21884
있다가	21885
1993년	21886
검사	21887
방에	21888
결코	21889
2대	21890
"아	21891
##테이	21892
트윈	21893
들어갔	21894
갈수록	21895
죽음의	21896
연도	21897
활발	21898
##석의	21899
##OC	21900
##등장	21901
이외에도	21902
애플	21903
물을	21904
사용되는	21905
다음날	21906
해병	21907
물고	21908
무릎	21909
2층	21910
바보	21911
분위기를	21912
상업	21913
제어	21914
오해	21915
##다란	21916
##sh	21917
멕시코	21918
대하여	21919
결합	21920
##니는	21921
##음악	21922
막차	21923
싸움을	21924
일상	21925
##향을	21926
##산의	21927
어떠한	21928
실력이	21929
스코어	21930
##사회	21931
보며	21932
##즈,	21933
Wh	21934
SD	21935
독일의	21936
##비트	21937
들을	21938
성공했다.	21939
보게	21940
잡혀	21941
도발	21942
##관에서	21943
죽일	21944
리듬	21945
아니라고	21946
SC	21947
3인	21948
##LL	21949
수준.	21950
은행	21951
2의	21952
이외의	21953
##는데도	21954
가야	21955
들어온	21956
과거의	21957
##.09	21958
비트	21959
명령을	21960
##역은	21961
사건의	21962
##버스터	21963
##하였으며	21964
##경에	21965
##코를	21966
위치해	21967
##모델	21968
테스트	21969
나가는	21970
의미한다.	21971
##대장	21972
My	21973
1기	21974
##이기에	21975
##그래	21976
##화한	21977
적혀	21978
공군	21979
브리	21980
태평	21981
##코와	21982
써먹	21983
퀄리티	21984
##.07	21985
갖춘	21986
##했습니다.	21987
캐스팅	21988
우연히	21989
##트릭	21990
것인지	21991
##츠가	21992
##드레	21993
의무	21994
카를	21995
장교	21996
##즈와	21997
##com	21998
이라는	21999
##바라	22000
##px	22001
평이	22002
경우에	22003
##포가	22004
##36	22005
##자도	22006
##-7	22007
##공이	22008
싫어하는	22009
with	22010
전철	22011
##맨의	22012
박사	22013
##ame	22014
개방	22015
칭찬	22016
짓을	22017
##ord	22018
검찰	22019
자치	22020
디아	22021
선출	22022
자동으로	22023
분위기가	22024
Tr	22025
250	22026
상태.	22027
김민	22028
##시험	22029
전방	22030
##랜드의	22031
꿈을	22032
같아	22033
약간의	22034
##()는	22035
카드의	22036
방사	22037
##ud	22038
아니었다.	22039
직원	22040
##국은	22041
서부	22042
전멸	22043
스태	22044
어지간	22045
그건	22046
세종	22047
이글	22048
##물은	22049
유사한	22050
##실의	22051
점이다.	22052
##당할	22053
##으러	22054
그들이	22055
금속	22056
연관	22057
캠페	22058
##비로	22059
불을	22060
페이지	22061
작가가	22062
아니라는	22063
##없다.	22064
##문은	22065
첫차	22066
##키와	22067
버프를	22068
미카	22069
이영	22070
미술	22071
##령이	22072
##.04	22073
##느라	22074
적절한	22075
인터뷰에서	22076
참석	22077
키리	22078
치는	22079
과연	22080
플랫폼	22081
만나게	22082
덤.	22083
보너	22084
유저가	22085
##선,	22086
자랑한다.	22087
85	22088
##메가	22089
슈팅	22090
메타	22091
##미터	22092
준우승	22093
##상한	22094
##다를	22095
##여자	22096
나쁘지	22097
##유럽	22098
##기나	22099
가문의	22100
과정을	22101
오전	22102
##중앙	22103
선생님	22104
##수.	22105
김종	22106
트랜	22107
이제는	22108
##도에서	22109
##34	22110
폴란드	22111
덧붙	22112
대표적으로	22113
##받을	22114
##국에	22115
많고	22116
어마	22117
##경의	22118
밝히	22119
HD	22120
##our	22121
##정,	22122
##보드	22123
이민	22124
하니	22125
시달	22126
그라	22127
SM	22128
구사	22129
편곡	22130
추가바람	22131
모양이다.	22132
사람들도	22133
##집을	22134
열쇠	22135
기자	22136
72	22137
##"를	22138
부서	22139
위주로	22140
##탄이	22141
토론	22142
##'은	22143
그들을	22144
매직	22145
##다나	22146
모조리	22147
##레이터	22148
보지	22149
2번째	22150
벌어진	22151
##ax	22152
오직	22153
선수들이	22154
1학년	22155
병력	22156
자식	22157
있어도	22158
##지인	22159
##ance	22160
개막	22161
시절의	22162
-위	22163
매년	22164
가능성도	22165
##oc	22166
원칙	22167
왕의	22168
빛의	22169
##ix	22170
입을	22171
##로와	22172
사장	22173
##ok	22174
68	22175
되었다고	22176
의미로	22177
##어요.	22178
내장	22179
##토와	22180
##일본	22181
아버지의	22182
봐야	22183
노란	22184
프리큐	22185
정찰	22186
기병	22187
날짜	22188
비싸	22189
1991년	22190
뒤에서	22191
##렬한	22192
##계로	22193
우수	22194
형식	22195
챌린	22196
##마에	22197
아쉬운	22198
아들이	22199
##가시	22200
휘두	22201
메뉴	22202
##배우	22203
##번,	22204
과거에	22205
재사용	22206
김동	22207
경기에	22208
사양	22209
스트리	22210
대사가	22211
이상을	22212
##'와	22213
##ice	22214
심하게	22215
Al	22216
##마스터	22217
IS	22218
UE	22219
별명	22220
##단지	22221
보라	22222
스타크래프트	22223
##러의	22224
##되어서	22225
회수	22226
지나가	22227
##ww	22228
188	22229
보관	22230
##ick	22231
이른	22232
와타	22233
네오	22234
채택	22235
목소리가	22236
##았다는	22237
보안	22238
아파트	22239
태어났다.	22240
믿고	22241
주인공의	22242
##버그	22243
자리에서	22244
맞서	22245
##나카	22246
##하라는	22247
스마트폰	22248
채워	22249
사용된다.	22250
이라	22251
교회	22252
4.	22253
패션	22254
##로서는	22255
이루어져	22256
##.06	22257
피해량	22258
한타	22259
환영	22260
집에서	22261
완벽한	22262
보유하고	22263
##것은	22264
정신을	22265
3학년	22266
쓰레기	22267
사후	22268
##{{	22269
##-9	22270
기분	22271
셈이다.	22272
수수	22273
드는	22274
헌법	22275
허나	22276
좋을	22277
##리고,	22278
##하가	22279
출마	22280
군단	22281
##약한	22282
110	22283
비례	22284
빛을	22285
있었을	22286
##렸던	22287
##으로서의	22288
유나이	22289
그것은	22290
SKT	22291
학생들이	22292
##번의	22293
JR	22294
임무를	22295
잃고	22296
##역이다.	22297
##루는	22298
감안하면	22299
PD	22300
##학적	22301
손으로	22302
##하기가	22303
클레	22304
방법으로	22305
##오리	22306
##pe	22307
카와	22308
박스	22309
카미	22310
##데이	22311
후계	22312
##()은	22313
동굴	22314
##급으로	22315
반면,	22316
30분	22317
위치에	22318
시즈	22319
##봐야	22320
##증이	22321
뜻을	22322
행위	22323
남부	22324
잡은	22325
전진	22326
남북	22327
플레이오프	22328
좋게	22329
##커가	22330
##것으로	22331
동부	22332
##비와	22333
가을	22334
밸런스	22335
하락	22336
여신	22337
올리는	22338
되며	22339
죽어	22340
##링이	22341
부수	22342
장악	22343
##하자,	22344
보이며	22345
하거나	22346
전체를	22347
자리잡	22348
유니폼	22349
거듭	22350
정체를	22351
##소,	22352
소식을	22353
크기	22354
카라	22355
##했다면	22356
제임스	22357
신이	22358
하트	22359
자세히	22360
재현	22361
귀찮	22362
일방	22363
맞다.	22364
폭격	22365
무방	22366
SR	22367
바깥	22368
눌러	22369
##카,	22370
##안의	22371
Go	22372
##39	22373
캐릭터는	22374
개혁	22375
##되었으나	22376
##츠를	22377
제갈	22378
이명	22379
내보	22380
모모	22381
확인할	22382
시그	22383
51	22384
곳은	22385
##계열	22386
##포로	22387
관중	22388
##니를	22389
따르면,	22390
나이가	22391
이닝	22392
자극	22393
공식적으로	22394
모래	22395
##"이라고	22396
증가한다.	22397
현재까지	22398
##오고	22399
##맨이	22400
어려워	22401
##되었다는	22402
##티나	22403
로그	22404
##브라	22405
de	22406
시즌을	22407
가짜	22408
이전에는	22409
##건을	22410
##EM	22411
##PM	22412
##na	22413
병력을	22414
##%로	22415
목소리	22416
둘은	22417
##속도가	22418
##였기	22419
라이온	22420
신앙	22421
사마	22422
얼굴이	22423
##스트의	22424
##률을	22425
##서에	22426
##사무	22427
가격이	22428
연락	22429
스승	22430
지형	22431
베네	22432
##야,	22433
배트	22434
작품을	22435
앞두고	22436
결과적으로	22437
2세	22438
거리를	22439
유닛을	22440
공화	22441
##라엘	22442
##욕을	22443
3연	22444
##학,	22445
GS	22446
##노스	22447
##가.	22448
Love	22449
##작을	22450
세계에서	22451
##번이	22452
재판	22453
캡틴	22454
출입	22455
##해준다.	22456
0.5	22457
않도록	22458
미국에서	22459
##호와	22460
알바	22461
잠재	22462
명확	22463
물론,	22464
2학년	22465
충격을	22466
몰라도	22467
작가의	22468
##시고	22469
전의	22470
강요	22471
##리케	22472
##때는	22473
##단체	22474
몽골	22475
터뜨	22476
언급한	22477
남긴	22478
전공	22479
아즈	22480
상급	22481
개시	22482
전부터	22483
2008	22484
카드.	22485
OST	22486
내지	22487
알리	22488
것일	22489
메르	22490
95	22491
##검을	22492
체계	22493
간신	22494
외의	22495
나타난다.	22496
##스트가	22497
명을	22498
##마와	22499
2009	22500
##석에	22501
시스템을	22502
가스	22503
##프와	22504
눈물을	22505
의지	22506
욕을	22507
가사	22508
넣고	22509
프라이	22510
##질로	22511
##own	22512
이용해서	22513
깔끔	22514
기울	22515
버린	22516
##위키	22517
해상	22518
되며,	22519
##"의	22520
놀라	22521
머물	22522
군주	22523
전쟁이	22524
색깔	22525
##에겐	22526
혁명	22527
어린이	22528
UEFA	22529
할머니	22530
##씨는	22531
##qu	22532
##졌을	22533
##ber	22534
넥센	22535
##장갑	22536
1층	22537
##자치	22538
추구	22539
인원	22540
배우는	22541
비싼	22542
저작	22543
2000년대	22544
EP	22545
게임에	22546
{{{	22547
##68	22548
간부	22549
돈이	22550
빠져나	22551
영구	22552
처형	22553
##가고	22554
장군	22555
##은,	22556
챔피언십	22557
스틸	22558
##파로	22559
들려	22560
때에	22561
한명	22562
##생을	22563
800	22564
스톤	22565
있었다는	22566
분위기	22567
비주	22568
##인들을	22569
감독은	22570
98	22571
나오기	22572
메리	22573
CPU	22574
화를	22575
왔다.	22576
집을	22577
잡지	22578
##주민	22579
있었지만,	22580
어택	22581
등장하지	22582
오스트리아	22583
터키	22584
1988년	22585
##.18	22586
##실점	22587
당하는	22588
##선과	22589
##old	22590
야스	22591
포항	22592
발생한	22593
된다고	22594
##한이	22595
단단	22596
##그라	22597
##보로	22598
챙겨	22599
아크	22600
차원	22601
통산	22602
조별	22603
신문	22604
##US	22605
##방향	22606
##학의	22607
삼국지	22608
홈런을	22609
##상과	22610
##쿠라	22611
포르투갈	22612
클래식	22613
##%를	22614
한다면	22615
##조로	22616
##프,	22617
적합	22618
스프링	22619
노리	22620
##av	22621
##우와	22622
발언을	22623
가라	22624
공격할	22625
떨어진다.	22626
탈퇴	22627
한정으로	22628
##동은	22629
뜬금	22630
찾기	22631
밝혀진	22632
##ng	22633
중독	22634
단편	22635
[ruby]	22636
지식	22637
아이를	22638
62	22639
단점이	22640
드림	22641
##하겠다고	22642
##종은	22643
쿠키	22644
오카	22645
터치	22646
이번에는	22647
머리가	22648
천재	22649
신분	22650
헤비	22651
##110	22652
##세한	22653
볼넷	22654
77	22655
정부의	22656
잉글랜드	22657
##인도	22658
계기로	22659
찍어	22660
만들기	22661
유효	22662
카메라	22663
##들만	22664
회원	22665
53	22666
##됩니다.	22667
수준이다.	22668
기용	22669
효과로	22670
특집	22671
##여객	22672
##위,	22673
미디어	22674
목표로	22675
하나도	22676
공공	22677
숨겨진	22678
##모드	22679
군대	22680
현역	22681
##orld	22682
##.15	22683
몰락	22684
##커의	22685
이것도	22686
##lay	22687
스턴	22688
##게이	22689
##받는다.	22690
어째서	22691
무시하고	22692
없으며,	22693
##바의	22694
기록한	22695
날아가	22696
앉아	22697
구원	22698
맞으면	22699
싸워	22700
아마도	22701
코치	22702
합체	22703
1989년	22704
챕터	22705
##퍼스	22706
업그레이	22707
##자이다.	22708
김재	22709
플레이어의	22710
##생의	22711
컬러	22712
아일랜드	22713
강하다.	22714
##EX	22715
##정과	22716
국가대표팀	22717
데이비	22718
마술	22719
넣는	22720
레어도	22721
##이면서	22722
##양을	22723
초반에는	22724
일명	22725
1군	22726
##교회	22727
이식	22728
##있어	22729
##터미널	22730
##임은	22731
그러자	22732
##/h	22733
##언이	22734
후술	22735
나중	22736
주간	22737
공개되었다.	22738
##직한	22739
##각이	22740
##오와	22741
농구	22742
##비,	22743
##체육	22744
상상	22745
유치	22746
성남	22747
최신	22748
당시에	22749
늑대	22750
##s,	22751
성능은	22752
KO	22753
##후의	22754
세르	22755
오래된	22756
##타운	22757
피아노	22758
모르고	22759
고작	22760
##통신	22761
프랑스의	22762
레알	22763
이은	22764
76	22765
퀘스트를	22766
비공	22767
바꾼	22768
##ont	22769
나아가	22770
핸드	22771
##았지만	22772
몰랐	22773
있는지	22774
##진으로	22775
올라온	22776
마력	22777
자체의	22778
구글	22779
자폭	22780
않으며	22781
##나서	22782
인물이	22783
조건을	22784
##서로	22785
Ro	22786
물려	22787
승객	22788
시너	22789
떨어뜨	22790
않았을	22791
약점	22792
드라	22793
잡기	22794
타락	22795
##버릴	22796
##중이다.	22797
##~5	22798
리가	22799
아쿠	22800
느린	22801
대표팀	22802
휴대	22803
##커를	22804
식의	22805
적당히	22806
##국제	22807
한쪽	22808
그러한	22809
사막	22810
##27	22811
만날	22812
##었지만,	22813
이용하는	22814
트럼	22815
사우	22816
##희가	22817
상술	22818
캐논	22819
아이스	22820
##ies	22821
##랑이	22822
느낀	22823
##일보	22824
##어마	22825
뜻하는	22826
왕이	22827
마드리	22828
##주와	22829
사카	22830
##방에서	22831
##번을	22832
사망한	22833
거기서	22834
팬들	22835
##그리	22836
죽고	22837
##치면	22838
탄창	22839
찍은	22840
사용이	22841
##되게	22842
##pt	22843
Ex	22844
고위	22845
##포의	22846
올랐다.	22847
이미지가	22848
##저의	22849
의미를	22850
급격	22851
파리	22852
선전	22853
160	22854
##율은	22855
##주기	22856
개정	22857
블레이	22858
달리,	22859
세이버	22860
느낄	22861
도구	22862
##21	22863
##타,	22864
매치	22865
버렸다.	22866
##군.	22867
##았고	22868
##-6	22869
다닌	22870
것으로,	22871
##시피	22872
위장	22873
또다시	22874
추억	22875
##망이	22876
##탄의	22877
그러니까	22878
별개로	22879
즉위	22880
전해	22881
확대	22882
그러다가	22883
130	22884
육성	22885
##인들	22886
##족이	22887
##유닛	22888
##셔널	22889
관람	22890
라운드	22891
다음에	22892
생략	22893
김대	22894
이어서	22895
네트워	22896
들여	22897
오지	22898
커다란	22899
##제와	22900
책을	22901
후손	22902
##OD	22903
직전에	22904
살펴	22905
되기도	22906
미안	22907
##두는	22908
빨라	22909
부상으로	22910
고구려	22911
트라이	22912
진보	22913
##29	22914
##으로만	22915
미군	22916
##디를	22917
미스터	22918
이겨	22919
KBO	22920
##제국	22921
##차는	22922
아이콘	22923
드리	22924
신경쓰	22925
저런	22926
무관	22927
점수를	22928
이상이	22929
경고	22930
남녀	22931
처럼	22932
아닌가	22933
78	22934
저렴	22935
##실은	22936
##되는데,	22937
범위가	22938
금메달	22939
멜로	22940
아메리카	22941
##지?	22942
##아와	22943
K리그	22944
종목	22945
아랍	22946
보여주며	22947
아르헨	22948
세운	22949
비판을	22950
##있게	22951
주변의	22952
##현,	22953
수도권	22954
보존	22955
##레일	22956
근본	22957
수업	22958
##하더라도	22959
간신히	22960
국왕	22961
##투스	22962
환상	22963
제작한	22964
장전	22965
독특한	22966
북쪽	22967
##사거리	22968
결과는	22969
초기에는	22970
##요,	22971
블라	22972
곡명	22973
새끼	22974
DF	22975
무척	22976
1부	22977
움직이는	22978
우리나라	22979
했으나,	22980
화려한	22981
카드는	22982
에너지를	22983
것,	22984
##하를	22985
공격력을	22986
동의	22987
부딪	22988
wh	22989
##통이	22990
버린다.	22991
초보	22992
너의	22993
메달	22994
74	22995
루시	22996
##+1	22997
##죠.	22998
##관과	22999
아테	23000
인증	23001
##/10	23002
코믹스	23003
양쪽	23004
##들과의	23005
MF	23006
가볍게	23007
그렇지만	23008
수류	23009
##저가	23010
남쪽	23011
곳을	23012
잘못된	23013
연료	23014
##이든	23015
피해가	23016
게임은	23017
##결을	23018
해주는	23019
##네.	23020
##요시	23021
##법에	23022
이나	23023
당연한	23024
LI	23025
호위	23026
Un	23027
##네의	23028
도끼	23029
##로워	23030
총알	23031
##끄러	23032
사전	23033
없으며	23034
##패로	23035
작품이	23036
포스	23037
관측	23038
주제에	23039
아니고,	23040
민주당	23041
떠오	23042
멤버들이	23043
판정이	23044
##년에	23045
포함되어	23046
찾을	23047
손가락	23048
##io	23049
##NA	23050
용도로	23051
##박을	23052
일어났	23053
가끔씩	23054
있음을	23055
패턴이	23056
##백을	23057
공성	23058
##약이	23059
대회에서	23060
##구에서	23061
##-15	23062
식물	23063
이스라엘	23064
예정이다.	23065
곤란	23066
##레가	23067
중립	23068
언젠	23069
비상	23070
##명과	23071
##자나	23072
##린을	23073
덤으로	23074
시절에	23075
검을	23076
##고속도로	23077
##적,	23078
##세스	23079
어마어마	23080
개량	23081
존재를	23082
##이었기	23083
곳곳	23084
WWE	23085
시작으로	23086
글로벌	23087
1세	23088
게이트	23089
해안	23090
서식	23091
##훈련	23092
고교	23093
##천시	23094
CF	23095
부문	23096
레이더	23097
##거를	23098
액티브	23099
가시	23100
카트	23101
##ET	23102
##디의	23103
가치가	23104
##졌다고	23105
시간에	23106
##씨의	23107
##력,	23108
이펙	23109
2인	23110
시대의	23111
2020	23112
루이	23113
##양함	23114
수출	23115
안나	23116
사냥꾼	23117
##션을	23118
기록이	23119
클랜	23120
제정	23121
##린은	23122
##내지	23123
지시	23124
##MP	23125
건조	23126
그림자	23127
##설이	23128
##발이	23129
가만	23130
실망	23131
고문	23132
화가	23133
처음에	23134
않았고,	23135
출연한	23136
물질	23137
##먹고	23138
마다	23139
sh	23140
토끼	23141
##차례	23142
의문	23143
##졌고	23144
의견을	23145
망가	23146
저질	23147
##구리	23148
아틀	23149
##되던	23150
도주	23151
##만,	23152
후반에	23153
마그	23154
보석	23155
아시안	23156
##였을	23157
##세.	23158
##고에	23159
오버워	23160
나폴	23161
숙련	23162
죽이고	23163
기록하며	23164
효율이	23165
관찰	23166
네임	23167
격추	23168
생년	23169
##돌이	23170
사쿠라	23171
특성을	23172
your	23173
mm	23174
리얼	23175
##VD	23176
##제,	23177
140	23178
않으며,	23179
##야만	23180
하나씩	23181
흡혈	23182
후배	23183
공룡	23184
##cm,	23185
속도를	23186
않았지만	23187
부각	23188
코코	23189
##포인트	23190
##바닥	23191
##내가	23192
Pro	23193
미치	23194
없지만,	23195
##생이	23196
##/1	23197
취급을	23198
위반	23199
시작된	23200
주둔	23201
커리어	23202
완벽하게	23203
그랜드	23204
위대한	23205
##후반	23206
나오면	23207
침략	23208
CV	23209
걸고	23210
##98	23211
##진과	23212
U+11	23213
진짜로	23214
67	23215
이미지를	23216
죽이는	23217
부분에	23218
치유	23219
1라운드	23220
난다.	23221
##들인	23222
##수사	23223
무지	23224
크리스탈	23225
카오스	23226
###x11	23227
늘어난	23228
타겟	23229
##들보다	23230
##속에	23231
귀환	23232
주사	23233
초중	23234
##싱턴	23235
소드	23236
일이다.	23237
##공사	23238
확실한	23239
티어	23240
언더	23241
집으로	23242
자전	23243
제도	23244
##900	23245
감정을	23246
무기는	23247
토벌	23248
##"을	23249
멘탈	23250
문재인	23251
페널티	23252
구하기	23253
##하마	23254
부를	23255
4대	23256
재정	23257
한국에서는	23258
곡이	23259
방송에서	23260
##Hz	23261
##하자마자	23262
We	23263
##비디오	23264
간접	23265
##능력을	23266
사람에게	23267
있었으나,	23268
한번에	23269
I'	23270
비해서	23271
문자	23272
발행	23273
정도였다.	23274
다스	23275
아이언	23276
하차	23277
농담	23278
유저들은	23279
북부	23280
##보이	23281
##플렉	23282
##까진	23283
집행	23284
후에도	23285
##조에	23286
##었으며	23287
##모의	23288
금방	23289
기숙	23290
넣은	23291
모를	23292
불렀	23293
##병원	23294
무기가	23295
##판으로	23296
편이라	23297
폐쇄	23298
##리포	23299
동쪽	23300
유닛이	23301
아케이드	23302
##러니	23303
성공한다.	23304
소지	23305
##과에	23306
제작된	23307
이혼	23308
니콜	23309
드레	23310
4번	23311
면에서	23312
언덕	23313
통치	23314
받아들여	23315
##테르	23316
포위	23317
골을	23318
보면,	23319
CJ	23320
얻게	23321
문서를	23322
[...]
