[PAD]	0
[UNK]	0
[BOS]	0
[EOS]	0
[CLS]	0
[SEP]	0
[MASK]	0
▁▃	-0
▁이	-1
▁하	-2
▁.	-3
▁에	-4
▁다	-5
▁의	-6
▁ㄴ	-7
▁는	-8
▁,	-9
▁을	-10
▁은	-11
▁가	-12
▁1	-13
▁으	-14
▁고	-15
▁되	-16
▁아	-17
▁를	-18
▁었	-19
▁지	-20
▁년	-21
▁로	-22
▁으로	-23
▁에서	-24
▁2	-25
▁있	-26
▁대	-27
▁어	-28
▁았	-29
▁기	-30
▁사	-31
▁그	-32
▁시	-33
▁도	-34
▁과	-35
▁일	-36
▁ㄴ다	-37
▁들	-38
▁수	-39
▁전	-40
▁적	-41
▁자	-42
▁여	-43
▁와	-44
▁20	-45
▁부	-46
▁월	-47
▁주	-48
▁제	-49
▁19	-50
▁ㄹ	-51
▁라	-52
▁정	-53
▁보	-54
▁중	-55
▁위	-56
▁인	-57
▁였	-58
▁공	-59
▁나	-60
▁경	-61
▁개	-62
▁세	-63
▁게	-64
▁것	-65
▁오	-66
▁유	-67
▁3	-68
▁조	-69
▁"	-70
▁선	-71
▁스	-72
▁등	-73
▁성	-74
▁마	-75
▁미	-76
▁만	-77
▁연	-78
▁동	-79
▁상	-80
▁서	-81
▁소	-82
▁구	-83
▁한	-84
▁모	-85
▁비	-86
▁영	-87
▁국	-88
▁발	-89
▁면	-90
▁며	-91
▁으며	-92
▁201	-93
▁'	-94
▁4	-95
▁관	-96
▁후	-97
▁명	-98
▁신	-99
▁프	-100
▁5	-101
▁역	-102
▁때	-103
▁200	-104
▁장	-105
▁-	-106
▁방	-107
▁던	-108
▁거	-109
▁교	-110
▁바	-111
▁리	-112
▁문	-113
▁해	-114
▁차	-115
▁내	-116
▁생	-117
▁우	-118
▁당	-119
▁무	-120
▁원	-121
▁통	-122
▁계	-123
▁현	-124
▁노	-125
▁분	-126
▁남	-127
▁군	-128
▁포	-129
▁화	-130
▁6	-131
▁또	-132
▁학	-133
▁않	-134
▁까	-135
▁결	-136
▁작	-137
▁까지	-138
▁같	-139
▁강	-140
▁출	-141
▁파	-142
▁에게	-143
▁진	-144
▁대하	-145
▁크	-146
▁받	-147
▁단	-148
▁번	-149
▁최	-150
▁7	-151
▁반	-152
▁불	-153
▁10	-154
▁8	-155
▁데	-156
▁알	-157
▁배	-158
▁위하	-159
▁호	-160
▁두	-161
▁회	-162
▁안	-163
▁초	-164
▁지만	-165
▁카	-166
▁실	-167
▁형	-168
▁예	-169
▁말	-170
▁재	-171
▁따	-172
▁부터	-173
▁없	-174
▁타	-175
▁사용	-176
▁종	-177
▁음	-178
▁9	-179
▁미국	-180
▁특	-181
▁라고	-182
▁요	-183
▁이후	-184
▁설	-185
▁라는	-186
▁함	-187
▁면서	-188
▁일본	-189
▁운	-190
▁코	-191
▁레	-192
▁산	-193
▁행	-194
▁는데	-195
▁권	-196
▁활	-197
▁감	-198
민국	-199
▁독	-200
▁더	-201
▁대한	-202
▁추	-203
▁다음	-204
▁베	-205
▁왕	-206
▁피	-207
▁처	-208
▁태	-209
▁김	-210
▁그리	-211
▁대한민국	-212
▁지역	-213
▁평	-214
▁양	-215
▁민	-216
▁매	-217
▁199	-218
▁으나	-219
▁및	-220
▁건	-221
▁입	-222
▁참	-223
▁많	-224
▁12	-225
▁따르	-226
▁경기	-227
▁간	-228
▁18	-229
▁승	-230
▁목	-231
▁열	-232
▁드	-233
▁다고	-234
▁가지	-235
▁프로	-236
▁대학	-237
▁다른	-238
리아	-239
▁;	-240
▁총	-241
00	-242
▁속	-243
▁의하	-244
스트	-245
▁야	-246
▁북	-247
▁S	-248
▁외	-249
▁집	-250
or	-251
▁법	-252
▁트	-253
▁변	-254
▁체	-255
▁11	-256
▁때문	-257
▁물	-258
▁각	-259
▁메	-260
▁시작	-261
▁천	-262
▁임	-263
▁표	-264
▁직	-265
▁달	-266
▁시키	-267
▁올	-268
▁ᄆ	-269
▁토	-270
어나	-271
▁본	-272
▁저	-273
▁그러	-274
▁사람	-275
▁점	-276
▁&	-277
▁쓰	-278
▁선수	-279
▁A	-280
▁팀	-281
▁함께	-282
▁박	-283
▁또한	-284
▁한국	-285
▁치	-286
▁아서	-287
어지	-288
▁투	-289
▁청	-290
▁항	-291
▁브	-292
▁세계	-293
▁약	-294
▁버	-295
▁영화	-296
▁)	-297
▁사이	-298
▁광	-299
▁새	-300
▁자신	-301
▁C	-302
la	-303
▁디	-304
▁M	-305
▁용	-306
▁판	-307
▁국가	-308
▁네	-309
▁경우	-310
▁통하	-311
▁루	-312
▁기록	-313
▁f	-314
▁복	-315
▁T	-316
▁축	-317
▁F	-318
▁현재	-319
시아	-320
▁하나	-321
▁아니	-322
▁이름	-323
▁편	-324
▁활동	-325
▁존	-326
▁198	-327
▁다는	-328
▁삼	-329
▁확	-330
▁당시	-331
▁가장	-332
▁위치	-333
▁_	-334
▁철	-335
▁조선	-336
주의	-337
▁학교	-338
▁보이	-339
▁리그	-340
▁만들	-341
▁뒤	-342
▁이나	-343
▁필	-344
▁그러나	-345
▁(	-346
▁15	-347
▁살	-348
▁증	-349
▁금	-350
▁플	-351
▁페	-352
▁합	-353
▁for	-354
▁째	-355
▁대표	-356
▁백	-357
▁테	-358
▁심	-359
mu	-360
▁언	-361
▁애	-362
▁창	-363
▁역사	-364
레이	-365
▁식	-366
mula	-367
▁formula	-368
▁연구	-369
▁16	-370
▁병	-371
▁근	-372
▁못	-373
▁프랑	-374
▁또는	-375
▁니	-376
부터	-377
▁/	-378
▁사회	-379
▁그리고	-380
▁황	-381
▁규	-382
▁돌	-383
▁시즌	-384
▁D	-385
▁0	-386
▁m	-387
▁충	-388
▁순	-389
▁17	-390
▁패	-391
▁클	-392
▁]	-393
▁어서	-394
▁[	-395
▁첫	-396
▁B	-397
▁197	-398
▁러	-399
▁보다	-400
▁히	-401
랜드	-402
▁완	-403
▁이루	-404
▁중국	-405
▁다시	-406
▁못하	-407
▁협	-408
▁높	-409
▁알리	-410
▁길	-411
▁시대	-412
▁정부	-413
▁프랑스	-414
▁서울	-415
▁K	-416
▁:	-417
▁채	-418
▁I	-419
▁영국	-420
학교	-421
▁키	-422
▁는다	-423
▁도시	-424
▁전쟁	-425
▁k	-426
▁배우	-427
▁포함	-428
▁뜻	-429
▁여러	-430
▁문화	-431
▁196	-432
▁14	-433
▁아이	-434
▁독일	-435
▁죽	-436
▁대회	-437
▁로서	-438
▁다가	-439
▁~	-440
▁별	-441
er	-442
▁축구	-443
▁취	-444
▁g	-445
▁13	-446
▁뉴	-447
▁P	-448
▁허	-449
▁정치	-450
▁위원	-451
▁가능	-452
▁곡	-453
▁모두	-454
in	-455
▁동안	-456
▁환	-457
▁친	-458
▁모든	-459
▁손	-460
▁감독	-461
▁이상	-462
▁방송	-463
▁문제	-464
▁구성	-465
▁194	-466
▁논	-467
▁개발	-468
▁일부	-469
▁석	-470
▁L	-471
▁l	-472
▁지방	-473
▁사건	-474
▁대학교	-475
▁제작	-476
▁처음	-477
▁캐	-478
▁검	-479
▁%	-480
▁국제	-481
▁인하	-482
▁농	-483
▁작품	-484
▁터	-485
라이	-486
▁관계	-487
▁이용	-488
▁세기	-489
▁골	-490
▁시간	-491
▁게임	-492
▁씨	-493
▁끝	-494
▁일반	-495
▁G	-496
▁교육	-497
▁운동	-498
▁존재	-499
▁부르	-500
▁향	-501
▁날	-502
▁밀	-503
▁폭	-504
▁급	-505
▁티	-506
▁인구	-507
▁쿠	-508
▁정도	-509
▁주장	-510
▁N	-511
▁음악	-512
▁gt	-513
▁즉	-514
▁나오	-515
▁곳	-516
▁효	-517
▁앞	-518
니아	-519
▁섬	-520
▁려	-521
▁195	-522
on	-523
▁접	-524
▁경제	-525
▁육	-526
▁km	-527
▁중심	-528
▁나타	-529
리스	-530
▁거나	-531
▁lt	-532
▁이러	-533
▁선거	-534
▁극	-535
▁맡	-536
▁U	-537
▁전투	-538
▁R	-539
▁귀	-540
▁절	-541
▁30	-542
▁블	-543
▁맞	-544
▁민주	-545
▁발견	-546
통령	-547
화국	-548
▁H	-549
부분	-550
▁기술	-551
▁담	-552
▁누	-553
▁E	-554
▁봉	-555
▁측	-556
▁홍	-557
▁슈	-558
▁글	-559
▁발표	-560
▁도록	-561
▁올림	-562
▁막	-563
▁갖	-564
▁결과	-565
▁암	-566
▁구조	-567
이스	-568
▁태어나	-569
▁영향	-570
▁아들	-571
▁책	-572
▁케	-573
▁사망	-574
▁2010	-575
▁우승	-576
▁엔	-577
▁공격	-578
▁의미	-579
▁로부터	-580
▁대통령	-581
▁들어	-582
▁줄	-583
▁과정	-584
▁대부분	-585
▁잘	-586
▁올림픽	-587
▁라이	-588
▁질	-589
an	-590
▁관련	-591
▁걸	-592
▁헤	-593
▁송	-594
▁지원	-595
▁새롭	-596
▁밝	-597
▁프로그	-598
▁여기	-599
000	-600
▁불리	-601
▁열리	-602
▁앨	-603
리카	-604
▁업	-605
▁발생	-606
▁참여	-607
▁잡	-608
▁193	-609
▁유럽	-610
▁진행	-611
▁머	-612
▁중앙	-613
▁준	-614
▁범	-615
▁독립	-616
▁행정	-617
20	-618
▁최초	-619
란드	-620
▁c	-621
▁얻	-622
▁자유	-623
▁25	-624
▁고등	-625
▁결정	-626
▁부분	-627
▁설립	-628
▁제국	-629
지만	-630
▁특히	-631
▁형태	-632
▁악	-633
▁다양	-634
▁팔	-635
▁폐	-636
▁발매	-637
▁세우	-638
▁W	-639
▁탄	-640
▁상태	-641
▁당하	-642
나라	-643
▁설치	-644
▁ㄴ다는	-645
▁탈	-646
버지	-647
▁이전	-648
▁속하	-649
▁온	-650
▁2008	-651
▁초등	-652
▁소속	-653
▁스타	-654
▁러시아	-655
▁같이	-656
▁벌	-657
▁좌	-658
▁침	-659
▁아야	-660
▁사실	-661
디오	-662
▁센	-663
▁21	-664
우스	-665
▁하지만	-666
▁좋	-667
▁커	-668
▁르	-669
▁그녀	-670
▁일어나	-671
▁로마	-672
▁타이	-673
▁인민	-674
▁프로그램	-675
▁나라	-676
▁폴	-677
▁으로서	-678
▁참가	-679
▁여성	-680
▁이것	-681
▁조직	-682
▁정보	-683
▁2011	-684
▁2012	-685
▁생각	-686
▁갈	-687
▁등장	-688
▁주로	-689
▁혼	-690
▁필요	-691
▁싱	-692
▁주요	-693
▁출신	-694
▁관리	-695
▁운영	-696
▁이탈	-697
▁기준	-698
▁계획	-699
▁2009	-700
▁윤	-701
▁100	-702
▁위원회	-703
▁지정	-704
▁생산	-705
▁기관	-706
▁2014	-707
en	-708
▁보내	-709
▁여자	-710
▁2007	-711
▁중요	-712
▁오르	-713
▁란	-714
므로	-715
▁음반	-716
▁t	-717
▁상대	-718
▁바이	-719
▁시절	-720
▁성공	-721
▁이르	-722
▁계속	-723
▁데이	-724
▁콘	-725
▁지나	-726
▁국민	-727
▁a	-728
▁데뷔	-729
▁2013	-730
▁매우	-731
▁O	-732
▁레이	-733
▁철도	-734
▁넘	-735
▁사업	-736
▁시스	-737
▁해당	-738
▁대전	-739
▁과학	-740
▁밝히	-741
리즈	-742
▁발전	-743
he	-744
▁생활	-745
프트	-746
▁고려	-747
▁방법	-748
▁뿐	-749
▁칼	-750
▁가리	-751
▁이탈리아	-752
▁아버지	-753
스터	-754
▁ㄴ다고	-755
▁몇	-756
▁생애	-757
▁묘	-758
▁자리	-759
▁191	-760
▁찾	-761
▁초기	-762
▁2015	-763
▁23	-764
▁24	-765
라마	-766
▁2018	-767
▁월드	-768
▁억	-769
레스	-770
▁내용	-771
ar	-772
▁헌	-773
이션	-774
▁쇼	-775
▁능	-776
▁지내	-777
▁처럼	-778
▁차지	-779
▁앨범	-780
▁출연	-781
▁000	-782
▁얼	-783
▁2016	-784
남도	-785
▁최고	-786
▁인도	-787
▁후보	-788
▁그룹	-789
▁돌아	-790
▁시리즈	-791
▁빌	-792
▁마이	-793
▁결국	-794
르크	-795
▁평가	-796
▁관하	-797
▁J	-798
▁엘	-799
▁아래	-800
es	-801
▁22	-802
▁전체	-803
FA	-804
▁방식	-805
이트	-806
▁2006	-807
▁고등학교	-808
▁빠	-809
▁회사	-810
▁우리	-811
▁떨	-812
▁이유	-813
▁그리스	-814
▁이루어지	-815
▁격	-816
▁한편	-817
▁수상	-818
비아	-819
▁개요	-820
▁분류	-821
▁192	-822
▁거치	-823
▁인간	-824
▁나가	-825
▁스페	-826
▁연합	-827
▁풍	-828
▁층	-829
▁2017	-830
▁시기	-831
▁공식	-832
▁인터	-833
▁제공	-834
▁항공	-835
▁힘	-836
▁의원	-837
▁정의	-838
▁드라마	-839
▁시스템	-840
▁역할	-841
▁많이	-842
▁군사	-843
▁컴	-844
운데	-845
▁조사	-846
▁희	-847
▁제도	-848
▁잠	-849
▁기업	-850
▁출전	-851
▁워	-852
▁몸	-853
▁류	-854
▁민족	-855
▁유명	-856
▁가운데	-857
▁반대	-858
▁기능	-859
▁거의	-860
▁교회	-861
▁퍼	-862
▁놓	-863
▁s	-864
▁나타나	-865
▁지구	-866
▁텔	-867
▁색	-868
▁으로써	-869
비스	-870
▁푸	-871
▁울	-872
▁쓰이	-873
▁둘	-874
▁언어	-875
▁현대	-876
▁목록	-877
▁표현	-878
▁떠	-879
▁응	-880
▁대신	-881
▁유지	-882
▁달리	-883
▁녹	-884
▁개인	-885
▁몰	-886
▁특별	-887
▁느	-888
▁으로부터	-889
▁홈	-890
▁대상	-891
▁이론	-892
▁웨	-893
▁26	-894
▁동시	-895
▁올리	-896
▁규모	-897
▁자연	-898
▁!	-899
▁프리	-900
▁노동	-901
at	-902
야기	-903
▁공개	-904
▁모습	-905
▁야구	-906
▁이미	-907
▁연결	-908
▁지도	-909
▁마지	-910
▁28	-911
▁승리	-912
▁특징	-913
▁2019	-914
▁졸	-915
▁진출	-916
▁어야	-917
▁전하	-918
▁들어가	-919
▁27	-920
▁단체	-921
▁각각	-922
▁밖	-923
▁인정	-924
▁목적	-925
▁브라	-926
▁뛰	-927
▁붙	-928
▁정책	-929
▁V	-930
▁핵	-931
▁산업	-932
▁상황	-933
▁인물	-934
▁시장	-935
▁2005	-936
▁2000	-937
▁기원	-938
▁임명	-939
▁마지막	-940
▁플레이	-941
북도	-942
▁메이	-943
▁족	-944
▁아르	-945
▁샤	-946
▁떨어지	-947
▁난	-948
▁전문	-949
▁기간	-950
▁수도	-951
▁습	-952
▁너	-953
▁이야기	-954
머니	-955
▁멀	-956
▁먹	-957
▁눈	-958
▁구역	-959
▁가리키	-960
▁경상	-961
▁혁	-962
▁직접	-963
▁모델	-964
ic	-965
al	-966
니다	-967
스크	-968
▁서로	-969
▁압	-970
▁계약	-971
▁오스트	-972
▁슬	-973
▁밴	-974
▁추가	-975
▁건설	-976
BS	-977
▁FC	-978
▁개최	-979
▁공동	-980
▁2004	-981
▁콜	-982
▁으면	-983
▁망	-984
▁경찰	-985
▁공간	-986
▁형성	-987
▁결혼	-988
▁건물	-989
▁사상	-990
▁자동	-991
▁활약	-992
▁노선	-993
▁50	-994
▁기타	-995
▁변화	-996
▁거리	-997
▁훈	-998
▁스페인	-999
▁부산	-1000
▁TV	-1001
▁그것	-1002
▁국회	-1003
▁31	-1004
▁변경	-1005
학자	-1006
▁29	-1007
▁노래	-1008
▁교수	-1009
▁칸	-1010
▁졸업	-1011
▁나이	-1012
으키	-1013
▁텔레	-1014
▁b	-1015
▁공화국	-1016
is	-1017
▁경력	-1018
▁완전	-1019
▁마을	-1020
it	-1021
re	-1022
▁궁	-1023
▁벨	-1024
▁인민공	-1025
▁다르	-1026
▁인민공화국	-1027
▁클럽	-1028
비전	-1029
▁사랑	-1030
▁2020	-1031
▁휴	-1032
▁비롯	-1033
▁흐	-1034
▁190	-1035
▁역시	-1036
▁낮	-1037
▁비판	-1038
이드	-1039
▁학생	-1040
▁ㅏ	-1041
▁서비스	-1042
▁맥	-1043
▁지지	-1044
ou	-1045
▁볼	-1046
▁실제	-1047
거리	-1048
▁견	-1049
▁보통	-1050
▁중학교	-1051
운드	-1052
▁요구	-1053
▁최대	-1054
▁잉	-1055
▁만나	-1056
▁보호	-1057
프리카	-1058
▁소설	-1059
▁의회	-1060
▁따라	-1061
▁가수	-1062
▁론	-1063
▁탑	-1064
▁우주	-1065
▁지금	-1066
▁기본	-1067
▁중화	-1068
대로	-1069
▁싸	-1070
▁전국	-1071
▁겠	-1072
▁종교	-1073
▁다이	-1074
▁일으키	-1075
▁자기	-1076
▁차이	-1077
▁딸	-1078
▁지하	-1079
▁판매	-1080
▁겸	-1081
▁실시	-1082
▁없이	-1083
▁옥	-1084
▁황제	-1085
▁시설	-1086
르트	-1087
▁싱글	-1088
▁전통	-1089
역시	-1090
▁혹	-1091
▁퇴	-1092
▁밴드	-1093
너지	-1094
▁엄	-1095
▁높이	-1096
▁기반	-1097
▁탐	-1098
▁떠나	-1099
▁원래	-1100
▁2002	-1101
▁운행	-1102
▁세력	-1103
로스	-1104
▁교통	-1105
▁어떤	-1106
▁자료	-1107
▁버리	-1108
▁환경	-1109
▁내리	-1110
▁가족	-1111
▁경기도	-1112
▁명칭	-1113
▁설명	-1114
▁40	-1115
▁소련	-1116
스탄	-1117
▁센터	-1118
▁월드컵	-1119
▁전기	-1120
▁2003	-1121
▁이끌	-1122
▁수행	-1123
▁회의	-1124
▁승강	-1125
▁뮤	-1126
▁공연	-1127
▁풀	-1128
▁부대	-1129
▁전자	-1130
러스	-1131
▁모양	-1132
▁그래	-1133
▁애니	-1134
▁컵	-1135
▁교황	-1136
▁분야	-1137
▁기독	-1138
▁기념	-1139
▁예술	-1140
▁도쿄	-1141
▁사고	-1142
▁통합	-1143
나다	-1144
▁나타내	-1145
▁이동	-1146
▁득	-1147
▁텔레비전	-1148
▁걸치	-1149
▁작업	-1150
▁남자	-1151
▁도입	-1152
▁동물	-1153
mp	-1154
le	-1155
▁행동	-1156
▁염	-1157
▁연방	-1158
▁선정	-1159
▁차량	-1160
▁소프트	-1161
▁능력	-1162
▁따라서	-1163
▁=	-1164
▁작용	-1165
▁숙	-1166
▁문학	-1167
▁출시	-1168
▁군대	-1169
스타	-1170
▁할	-1171
▁바로	-1172
의원	-1173
▁전라	-1174
들이	-1175
▁기독교	-1176
▁행위	-1177
▁형식	-1178
▁도로	-1179
▁방향	-1180
▁증가	-1181
▁기존	-1182
▁확인	-1183
▁지휘	-1184
▁넓	-1185
▁남쪽	-1186
▁십	-1187
▁효과	-1188
▁혁명	-1189
▁작가	-1190
▁국내	-1191
▁북쪽	-1192
▁착	-1193
▁승강장	-1194
▁제외	-1195
▁과거	-1196
▁작곡	-1197
▁이때	-1198
▁비슷	-1199
▁옮	-1200
▁FI	-1201
▁므로	-1202
▁빈	-1203
▁강하	-1204
▁윌	-1205
▁낙	-1206
▁어머니	-1207
▁그렇	-1208
▁주변	-1209
▁마르	-1210
▁런	-1211
▁지배	-1212
▁몽	-1213
▁왕국	-1214
▁컴퓨	-1215
▁태양	-1216
▁열차	-1217
▁캐나다	-1218
▁챔	-1219
▁종류	-1220
▁마다	-1221
▁역임	-1222
▁사무	-1223
▁거두	-1224
▁유일	-1225
▁비교	-1226
▁이적	-1227
▁갑	-1228
▁옮기	-1229
▁뉴욕	-1230
BC	-1231
▁정당	-1232
▁ㄴ데	-1233
▁흥	-1234
▁협회	-1235
리오	-1236
▁솔	-1237
▁남부	-1238
▁혹은	-1239
▁베이	-1240
▁공산	-1241
▁링	-1242
▁스포	-1243
▁적용	-1244
▁추정	-1245
▁반응	-1246
▁물리	-1247
자리	-1248
▁생기	-1249
▁시민	-1250
▁성장	-1251
▁건축	-1252
▁흔	-1253
▁이사	-1254
▁1990	-1255
▁담당	-1256
▁동일	-1257
▁이어지	-1258
▁즈	-1259
▁육군	-1260
▁갖추	-1261
▁개념	-1262
▁장관	-1263
▁홀	-1264
▁어리	-1265
▁2001	-1266
▁획	-1267
▁대사	-1268
▁인기	-1269
▁늘	-1270
▁챔피	-1271
▁X	-1272
▁스트	-1273
▁버스	-1274
▁윈	-1275
▁세포	-1276
▁공사	-1277
▁동쪽	-1278
▁징	-1279
▁넣	-1280
▁구간	-1281
▁맨	-1282
▁데이터	-1283
▁멤	-1284
▁컴퓨터	-1285
▁사단	-1286
▁에너지	-1287
메이션	-1288
드리	-1289
▁쪽	-1290
▁예정	-1291
▁품	-1292
▁p	-1293
▁디자	-1294
▁곧	-1295
▁상당	-1296
▁오늘	-1297
▁마음	-1298
▁크기	-1299
▁조지	-1300
▁작전	-1301
▁움	-1302
▁민주주의	-1303
▁돈	-1304
▁조건	-1305
이지	-1306
▁바르	-1307
▁차례	-1308
▁189	-1309
▁흑	-1310
▁액	-1311
▁비하	-1312
▁ㄴ지	-1313
▁버전	-1314
▁서쪽	-1315
▁잔	-1316
▁FIFA	-1317
▁록	-1318
▁실패	-1319
▁수록	-1320
▁연기	-1321
▁바꾸	-1322
▁충청	-1323
▁칭	-1324
▁자체	-1325
▁율	-1326
▁치르	-1327
▁땅	-1328
▁애니메이션	-1329
▁어느	-1330
▁이라	-1331
▁컨	-1332
▁선언	-1333
▁특정	-1334
▁이런	-1335
▁덕	-1336
▁연주	-1337
▁피해	-1338
▁고대	-1339
▁돌아오	-1340
버스	-1341
▁이어	-1342
▁쌍	-1343
▁방영	-1344
▁결승	-1345
▁연속	-1346
▁부족	-1347
▁페르	-1348
▁d	-1349
▁체제	-1350
▁쉽	-1351
▁익	-1352
▁선택	-1353
▁멤버	-1354
▁규정	-1355
카이	-1356
▁국립	-1357
▁내부	-1358
▁공항	-1359
가지	-1360
▁해군	-1361
▁대체	-1362
el	-1363
루스	-1364
▁조약	-1365
▁대구	-1366
▁아시아	-1367
▁개혁	-1368
et	-1369
▁속도	-1370
▁다루	-1371
라지	-1372
웨어	-1373
▁정신	-1374
▁명령	-1375
▁단계	-1376
▁헌법	-1377
▁연대	-1378
▁선출	-1379
▁북부	-1380
▁최종	-1381
▁왜	-1382
글랜드	-1383
▁기원전	-1384
▁지명	-1385
▁ㅓ	-1386
▁인천	-1387
▁분석	-1388
▁포르	-1389
▁가치	-1390
▁는지	-1391
▁크리스	-1392
▁입단	-1393
▁휘	-1394
▁자치	-1395
▁쥐	-1396
▁설계	-1397
▁치료	-1398
▁영어	-1399
ion	-1400
▁로스	-1401
▁옛	-1402
▁물질	-1403
▁최근	-1404
트남	-1405
▁친구	-1406
▁출판	-1407
▁먼	-1408
▁체계	-1409
▁관할	-1410
ing	-1411
▁논란	-1412
▁의사	-1413
▁달러	-1414
▁척	-1415
▁밤	-1416
▁비행	-1417
▁나누	-1418
▁강화	-1419
▁소비	-1420
▁평균	-1421
시마	-1422
▁1999	-1423
▁가깝	-1424
아가	-1425
▁표준	-1426
▁더욱	-1427
▁북한	-1428
메리카	-1429
▁술	-1430
▁스포츠	-1431
▁배치	-1432
▁롭	-1433
21	-1434
라스	-1435
▁집단	-1436
ol	-1437
▁대중	-1438
▁잉글랜드	-1439
▁법원	-1440
▁파이	-1441
▁팬	-1442
▁하이	-1443
▁제품	-1444
▁곤	-1445
널리	-1446
▁후반	-1447
▁1998	-1448
▁부문	-1449
▁실험	-1450
▁머리	-1451
▁함수	-1452
▁Y	-1453
▁엔진	-1454
▁관심	-1455
▁현상	-1456
▁남기	-1457
▁언급	-1458
▁예선	-1459
▁헬	-1460
스코	-1461
▁확장	-1462
▁획득	-1463
▁개월	-1464
▁스테	-1465
▁씩	-1466
▁겨	-1467
▁선발	-1468
▁분리	-1469
▁유사	-1470
▁조정	-1471
▁하계	-1472
▁1980	-1473
▁벤	-1474
▁파리	-1475
▁o	-1476
▁cm	-1477
▁공원	-1478
▁배경	-1479
▁지속	-1480
▁처리	-1481
▁재판	-1482
▁챔피언	-1483
▁부상	-1484
▁60	-1485
디어	-1486
▁목표	-1487
▁주민	-1488
리지	-1489
▁요소	-1490
▁지니	-1491
▁통일	-1492
▁베르	-1493
▁고자	-1494
▁문자	-1495
▁맺	-1496
▁소유	-1497
▁편성	-1498
▁자동차	-1499
▁마치	-1500
▁35	-1501
▁정규	-1502
▁시도	-1503
▁마리	-1504
▁유래	-1505
▁구단	-1506
▁외국	-1507
▁이해	-1508
▁어렵	-1509
▁도움	-1510
▁빠르	-1511
▁장군	-1512
▁에스	-1513
▁시험	-1514
▁꽃	-1515
▁공립	-1516
▁향하	-1517
▁주도	-1518
▁점령	-1519
▁거주	-1520
▁나무	-1521
▁ㅂ	-1522
▁행사	-1523
▁mm	-1524
▁요시	-1525
▁미치	-1526
▁주인	-1527
▁원자	-1528
▁디자인	-1529
▁기사	-1530
▁앙	-1531
▁원인	-1532
▁네덜	-1533
▁네덜란드	-1534
▁통신	-1535
▁려고	-1536
▁괴	-1537
▁책임	-1538
▁언론	-1539
▁투표	-1540
▁다면	-1541
▁학자	-1542
▁바뀌	-1543
▁동맹	-1544
▁캠	-1545
▁잃	-1546
▁안정	-1547
▁가르	-1548
▁n	-1549
▁웹	-1550
▁혈	-1551
▁고속	-1552
▁사령	-1553
▁결합	-1554
▁불교	-1555
▁준비	-1556
▁스럽	-1557
▁본선	-1558
▁앤	-1559
광역시	-1560
▁끌	-1561
▁장치	-1562
▁아프리카	-1563
▁수준	-1564
▁은퇴	-1565
젝트	-1566
▁일종	-1567
▁개봉	-1568
▁알렉	-1569
▁베트남	-1570
▁모르	-1571
▁성적	-1572
▁용어	-1573
om	-1574
▁깊	-1575
▁잇	-1576
▁1997	-1577
▁불구	-1578
▁끝나	-1579
야마	-1580
나무	-1581
▁촉	-1582
▁듯	-1583
▁다니	-1584
▁덴	-1585
▁구분	-1586
▁길이	-1587
▁문서	-1588
▁비디오	-1589
▁칠	-1590
▁광주	-1591
일랜드	-1592
▁방문	-1593
▁유전	-1594
▁사진	-1595
▁빛	-1596
▁아마	-1597
▁제조	-1598
▁정하	-1599
▁정권	-1600
▁요리	-1601
▁가정	-1602
▁신문	-1603
▁가문	-1604
▁몬	-1605
▁정리	-1606
st	-1607
▁폴란드	-1608
▁일제	-1609
▁경험	-1610
▁해석	-1611
▁평화	-1612
▁정확	-1613
▁1996	-1614
▁믿	-1615
▁amp	-1616
메달	-1617
▁그림	-1618
▁드러	-1619
▁The	-1620
▁분포	-1621
▁왕조	-1622
▁1995	-1623
▁서식	-1624
▁대로	-1625
▁핀	-1626
▁32	-1627
▁프로젝트	-1628
▁오늘날	-1629
▁통과	-1630
▁추진	-1631
▁찬	-1632
▁부인	-1633
▁방어	-1634
▁멸	-1635
스턴	-1636
▁값	-1637
▁70	-1638
▁부여	-1639
▁런던	-1640
▁경영	-1641
▁민주당	-1642
▁종합	-1643
▁신라	-1644
▁아직	-1645
▁입장	-1646
▁경쟁	-1647
▁려는	-1648
▁통치	-1649
▁깨	-1650
▁병원	-1651
인트	-1652
▁슈퍼	-1653
▁프레	-1654
특별	-1655
스로	-1656
▁인터넷	-1657
▁발달	-1658
▁주제	-1659
▁폐지	-1660
▁영역	-1661
▁올라	-1662
▁이곳	-1663
▁경기장	-1664
▁널리	-1665
▁훈련	-1666
▁보도	-1667
▁끼	-1668
▁부정	-1669
▁미사	-1670
▁500	-1671
▁으므로	-1672
▁노력	-1673
▁만화	-1674
웨이	-1675
▁면적	-1676
▁츠	-1677
▁총리	-1678
▁이듬	-1679
▁제주	-1680
▁파괴	-1681
▁미술	-1682
▁생물	-1683
아들이	-1684
▁국회의원	-1685
레일	-1686
▁제안	-1687
▁놀	-1688
▁꼬	-1689
▁도서	-1690
am	-1691
▁죽이	-1692
▁번호	-1693
▁식민	-1694
▁모으	-1695
▁80	-1696
▁회장	-1697
▁그런	-1698
▁복귀	-1699
▁기여	-1700
▁the	-1701
리트	-1702
▁삼성	-1703
▁주연	-1704
▁서부	-1705
▁법률	-1706
▁철학	-1707
라인	-1708
▁외교	-1709
▁행성	-1710
▁궤	-1711
▁세대	-1712
▁빅	-1713
▁정상	-1714
▁지키	-1715
▁완전히	-1716
▁UE	-1717
▁라디오	-1718
▁남성	-1719
▁야마	-1720
▁ㅂ니다	-1721
▁188	-1722
▁접하	-1723
▁요청	-1724
▁이듬해	-1725
▁무기	-1726
▁연맹	-1727
▁자주	-1728
▁경계	-1729
▁등록	-1730
▁+	-1731
▁동부	-1732
▁투수	-1733
▁린	-1734
▁금지	-1735
▁1970	-1736
▁인식	-1737
▁폰	-1738
▁1994	-1739
▁수용	-1740
▁UEFA	-1741
il	-1742
▁제한	-1743
▁벌이	-1744
▁아시	-1745
톨릭	-1746
▁소재	-1747
▁움직	-1748
▁지진	-1749
▁나뉘	-1750
▁돕	-1751
▁발사	-1752
▁무대	-1753
▁표기	-1754
▁연구소	-1755
▁업무	-1756
▁뇌	-1757
▁접근	-1758
▁영토	-1759
ac	-1760
▁박물	-1761
▁지도자	-1762
▁노르	-1763
▁KBS	-1764
▁펼	-1765
▁바탕	-1766
▁결성	-1767
▁다리	-1768
▁더불	-1769
머지	-1770
▁강원	-1771
▁뉴스	-1772
▁빠지	-1773
▁나머지	-1774
▁조각	-1775
▁거부	-1776
▁성격	-1777
▁지대	-1778
▁득점	-1779
▁반면	-1780
▁스스로	-1781
▁수학	-1782
▁상호	-1783
▁오스	-1784
▁아일랜드	-1785
▁벽	-1786
▁오래	-1787
▁ㅕ	-1788
▁돌아가	-1789
▁트리	-1790
▁정식	-1791
▁받아들이	-1792
▁펜	-1793
▁필리	-1794
▁주의	-1795
▁은행	-1796
▁기초	-1797
▁보수	-1798
▁마찬	-1799
▁마찬가지	-1800
▁의식	-1801
▁가톨릭	-1802
▁1992	-1803
▁소리	-1804
▁굴	-1805
▁공작	-1806
▁붙이	-1807
토리	-1808
▁임시	-1809
▁다수	-1810
▁이기	-1811
ro	-1812
시코	-1813
▁이렇	-1814
▁짧	-1815
▁45	-1816
▁스웨	-1817
▁아카	-1818
요일	-1819
▁장애	-1820
▁박사	-1821
▁검사	-1822
▁바다	-1823
▁화학	-1824
임스	-1825
▁죽음	-1826
▁장소	-1827
▁캐릭	-1828
▁아도	-1829
▁해결	-1830
워드	-1831
트리	-1832
▁36	-1833
▁차원	-1834
▁박물관	-1835
▁로써	-1836
▁총선	-1837
▁실제로	-1838
▁차트	-1839
▁카드	-1840
ed	-1841
▁유니	-1842
모토	-1843
▁초대	-1844
▁유로	-1845
▁패배	-1846
▁활용	-1847
▁브라질	-1848
▁마이크	-1849
▁긴	-1850
▁관측	-1851
▁에이	-1852
▁이스	-1853
▁윌리	-1854
▁순위	-1855
▁그대로	-1856
▁스위	-1857
▁여행	-1858
▁of	-1859
▁안전	-1860
▁기구	-1861
▁습니다	-1862
▁식물	-1863
▁묘사	-1864
▁지리	-1865
▁계열	-1866
▁느끼	-1867
▁ㄴ가	-1868
▁표시	-1869
▁인사	-1870
▁집합	-1871
▁강력	-1872
▁오브	-1873
▁1960	-1874
▁제시	-1875
▁여름	-1876
▁연극	-1877
▁무역	-1878
▁소프트웨어	-1879
▁캐릭터	-1880
▁일정	-1881
로나	-1882
▁권력	-1883
▁이외	-1884
▁단순	-1885
ig	-1886
▁회원	-1887
▁멕	-1888
▁파일	-1889
▁디지	-1890
▁스웨덴	-1891
▁1991	-1892
▁기계	-1893
▁반란	-1894
부르크	-1895
▁뛰어나	-1896
▁위험	-1897
▁오스트리아	-1898
▁붕	-1899
▁꾸	-1900
▁삶	-1901
▁싸우	-1902
레일리아	-1903
▁지적	-1904
▁관광	-1905
▁히로	-1906
▁조성	-1907
▁1993	-1908
▁개국	-1909
▁33	-1910
▁먼저	-1911
▁아무	-1912
▁형제	-1913
▁자라	-1914
▁근처	-1915
▁발행	-1916
▁취하	-1917
▁중단	-1918
▁흡	-1919
▁중간	-1920
▁협력	-1921
베이	-1922
▁시행	-1923
▁기획	-1924
트로	-1925
▁기자	-1926
▁만큼	-1927
▁뮤직	-1928
배우	-1929
▁도착	-1930
▁량	-1931
▁스튜	-1932
▁여객	-1933
▁스코	-1934
▁소개	-1935
▁외부	-1936
▁사이트	-1937
▁윈도	-1938
od	-1939
▁지하철	-1940
▁코드	-1941
▁렌	-1942
▁유형	-1943
▁전시	-1944
나이	-1945
소년	-1946
▁띠	-1947
▁다만	-1948
워크	-1949
사카	-1950
▁번역	-1951
버트	-1952
▁죄	-1953
특별시	-1954
니스	-1955
▁연장	-1956
▁후기	-1957
▁단어	-1958
▁하루	-1959
ve	-1960
▁태평	-1961
▁서울특별시	-1962
▁혜	-1963
▁투자	-1964
▁카이	-1965
▁186	-1966
▁파견	-1967
▁해안	-1968
▁성립	-1969
주시	-1970
무원	-1971
▁근거	-1972
▁들어오	-1973
as	-1974
▁기후	-1975
▁",	-1976
▁공장	-1977
▁세상	-1978
▁상징	-1979
▁본부	-1980
▁내각	-1981
▁혐	-1982
▁오스트레일리아	-1983
▁보유	-1984
▁수많	-1985
▁확대	-1986
▁위기	-1987
▁케이	-1988
▁생성	-1989
▁보존	-1990
지션	-1991
▁내려	-1992
▁다카	-1993
▁제기	-1994
▁감소	-1995
▁겪	-1996
▁옹	-1997
▁네트	-1998
▁양식	-1999
▁극장	-2000
▁지상	-2001
▁경상남도	-2002
▁전략	-2003
▁이라고	-2004
▁지식	-2005
▁윌리엄	-2006
▁균	-2007
▁수사	-2008
▁귀족	-2009
▁촬	-2010
▁래	-2011
▁?	-2012
▁경상북도	-2013
▁유대	-2014
▁듣	-2015
▁멜	-2016
▁상업	-2017
▁특수	-2018
▁특성	-2019
▁멕시코	-2020
▁출생	-2021
▁구하	-2022
▁대응	-2023
▁1988	-2024
▁원소	-2025
▁달성	-2026
▁숨	-2027
▁영상	-2028
▁동생	-2029
▁187	-2030
▁디지털	-2031
▁당선	-2032
▁캘	-2033
▁유리	-2034
▁h	-2035
▁촌	-2036
▁완성	-2037
▁이슬	-2038
▁단위	-2039
▁촬영	-2040
▁계승	-2041
▁근무	-2042
▁학위	-2043
▁종목	-2044
▁식민지	-2045
▁체포	-2046
아시아	-2047
▁미래	-2048
▁님	-2049
▁시티	-2050
▁이렇게	-2051
▁34	-2052
티아	-2053
▁권리	-2054
▁젊	-2055
▁짓	-2056
▁률	-2057
▁코치	-2058
▁이집	-2059
가리	-2060
▁이집트	-2061
▁38	-2062
▁수비	-2063
회사	-2064
▁전달	-2065
▁흐르	-2066
▁타이틀	-2067
▁생명	-2068
▁옆	-2069
▁체결	-2070
아내	-2071
▁시청	-2072
▁직후	-2073
▁문화재	-2074
▁승격	-2075
▁나중	-2076
▁측정	-2077
▁듀	-2078
id	-2079
▁소수	-2080
▁싶	-2081
▁2021	-2082
▁몇몇	-2083
▁정치인	-2084
▁발매되	-2085
▁설정	-2086
▁이란	-2087
▁알렉산	-2088
▁마사	-2089
▁판단	-2090
▁맹	-2091
▁90	-2092
▁48	-2093
▁국왕	-2094
▁벌어지	-2095
▁크로	-2096
▁걸리	-2097
▁본관	-2098
▁채널	-2099
▁대륙	-2100
▁도서관	-2101
▁낳	-2102
▁자본	-2103
▁1989	-2104
가와	-2105
▁아내	-2106
▁헨	-2107
모리	-2108
▁1950	-2109
▁주식	-2110
▁관찰	-2111
▁미군	-2112
▁개정	-2113
▁이주	-2114
▁틀	-2115
▁라인	-2116
▁톤	-2117
▁스키	-2118
▁전환	-2119
▁개통	-2120
ec	-2121
▁즐	-2122
▁맞추	-2123
▁펼치	-2124
▁결승전	-2125
▁엘리	-2126
▁신경	-2127
▁청년	-2128
▁홍콩	-2129
▁세르	-2130
NA	-2131
▁동계	-2132
us	-2133
▁시위	-2134
▁의견	-2135
▁녹음	-2136
▁주어지	-2137
▁납	-2138
▁지위	-2139
▁텍	-2140
▁밑	-2141
▁포르투	-2142
▁ㄴ다면	-2143
▁미사일	-2144
▁해외	-2145
▁취임	-2146
▁제정	-2147
▁종료	-2148
▁즉위	-2149
▁얼마	-2150
▁새로	-2151
▁답	-2152
▁계산	-2153
▁쌓	-2154
▁은하	-2155
▁범죄	-2156
▁',	-2157
and	-2158
▁셰	-2159
▁상하	-2160
▁사회주의	-2161
▁헝	-2162
▁교체	-2163
디아	-2164
▁아라	-2165
▁음식	-2166
코드	-2167
▁주인공	-2168
스티	-2169
▁충돌	-2170
▁300	-2171
▁예수	-2172
▁전차	-2173
▁달하	-2174
▁남북	-2175
▁|	-2176
▁e	-2177
▁아키	-2178
▁셀	-2179
▁MBC	-2180
ad	-2181
교회	-2182
▁장기	-2183
▁후쿠	-2184
▁사후	-2185
▁자격	-2186
▁천황	-2187
▁비용	-2188
▁수정	-2189
▁주목	-2190
▁으면서	-2191
▁춘	-2192
▁개선	-2193
▁신학	-2194
▁빼	-2195
▁건강	-2196
▁바이러스	-2197
▁제임스	-2198
▁소장	-2199
▁벗	-2200
▁원정	-2201
▁았었	-2202
▁1945	-2203
▁스티	-2204
▁명단	-2205
▁전라남도	-2206
▁비밀	-2207
▁공급	-2208
▁계기	-2209
▁궤도	-2210
▁본래	-2211
전히	-2212
▁네트워크	-2213
▁모이	-2214
▁공부	-2215
ent	-2216
▁펠	-2217
▁합류	-2218
▁카운	-2219
▁체육	-2220
▁만드	-2221
▁부모	-2222
▁심리	-2223
스카	-2224
▁라운드	-2225
▁컬	-2226
▁성우	-2227
▁시내	-2228
▁명예	-2229
▁건너	-2230
▁제거	-2231
▁가격	-2232
▁이래	-2233
▁자원	-2234
▁홈런	-2235
▁감염	-2236
▁누구	-2237
50	-2238
▁에드	-2239
▁농업	-2240
▁입학	-2241
▁객	-2242
▁털	-2243
▁인근	-2244
▁물론	-2245
▁천문	-2246
▁각종	-2247
▁작성	-2248
▁롤	-2249
▁거대	-2250
▁군인	-2251
▁가입	-2252
▁ㅏㅆ	-2253
▁증명	-2254
▁집중	-2255
▁이슬람	-2256
▁오후	-2257
▁공군	-2258
▁전사	-2259
▁피하	-2260
▁랑	-2261
▁소송	-2262
▁저항	-2263
▁읽	-2264
▁베네	-2265
보이	-2266
▁학문	-2267
피아	-2268
▁터미	-2269
▁피아	-2270
▁국경	-2271
▁병력	-2272
▁왼	-2273
▁측면	-2274
베르	-2275
티나	-2276
▁통제	-2277
▁울산	-2278
▁미디어	-2279
▁신호	-2280
라도	-2281
▁강조	-2282
▁인수	-2283
▁아우	-2284
▁블랙	-2285
▁찰	-2286
▁세이	-2287
▁질량	-2288
▁광고	-2289
▁포지션	-2290
▁줄이	-2291
▁플로	-2292
리포	-2293
▁실행	-2294
▁태평양	-2295
▁St	-2296
▁콩	-2297
도로	-2298
▁해방	-2299
▁엑	-2300
▁변호	-2301
▁병사	-2302
▁만약	-2303
▁정착	-2304
▁터미널	-2305
▁터키	-2306
ot	-2307
▁기회	-2308
▁나서	-2309
▁쇠	-2310
니어	-2311
▁무장	-2312
▁너무	-2313
▁이번	-2314
▁비트	-2315
▁겨울	-2316
▁냉	-2317
▁최소	-2318
▁노동자	-2319
▁강원도	-2320
▁오른	-2321
▁x	-2322
▁쉬	-2323
▁약간	-2324
드로	-2325
▁몽골	-2326
▁마리아	-2327
▁유도	-2328
▁제목	-2329
un	-2330
▁잎	-2331
▁국방	-2332
▁편집	-2333
철도	-2334
동안	-2335
▁37	-2336
▁금융	-2337
▁전반	-2338
ow	-2339
▁사례	-2340
▁환자	-2341
▁바람	-2342
▁마쓰	-2343
▁in	-2344
▁바라	-2345
▁사라지	-2346
스키	-2347
▁표면	-2348
▁전개	-2349
▁지점	-2350
▁재산	-2351
▁허용	-2352
▁고전	-2353
▁혐의	-2354
▁밀도	-2355
▁도중	-2356
▁카르	-2357
▁합병	-2358
소리	-2359
▁무렵	-2360
▁선수단	-2361
▁가스	-2362
▁인디	-2363
▁이하	-2364
▁마련	-2365
▁힐	-2366
▁학년	-2367
▁전력	-2368
▁근대	-2369
▁충분	-2370
▁1987	-2371
▁윈도우	-2372
▁재정	-2373
▁오리	-2374
▁유엔	-2375
오카	-2376
▁붕괴	-2377
▁빨	-2378
▁등급	-2379
▁여전히	-2380
▁ㅕ서	-2381
▁라이브	-2382
▁헝가리	-2383
▁민간	-2384
▁오사카	-2385
▁루이	-2386
▁샌	-2387
▁현실	-2388
▁전역	-2389
▁그해	-2390
▁대수	-2391
▁보고	-2392
▁킹	-2393
▁계급	-2394
▁뒷	-2395
▁양성	-2396
▁포르투갈	-2397
▁재직	-2398
▁령	-2399
ra	-2400
▁범위	-2401
▁가져	-2402
▁숲	-2403
마크	-2404
▁충청남도	-2405
▁w	-2406
▁41	-2407
▁공공	-2408
▁꼬리	-2409
▁강제	-2410
▁51	-2411
▁성질	-2412
▁영화배우	-2413
▁원칙	-2414
▁공주	-2415
▁후지	-2416
▁엔터	-2417
▁조치	-2418
▁위협	-2419
▁임무	-2420
▁군주	-2421
▁동료	-2422
▁적극	-2423
▁전선	-2424
▁스튜디오	-2425
▁1986	-2426
▁행하	-2427
▁위원장	-2428
▁토론	-2429
▁1984	-2430
▁업체	-2431
▁승인	-2432
▁대학원	-2433
▁온도	-2434
▁캘리포	-2435
▁이미지	-2436
▁수입	-2437
▁대대	-2438
▁논문	-2439
▁봄	-2440
▁구축	-2441
▁양자	-2442
▁클라	-2443
▁위성	-2444
▁이제	-2445
▁고구	-2446
▁공업	-2447
▁거래	-2448
▁꿈	-2449
▁성인	-2450
▁교사	-2451
▁공산당	-2452
▁출발	-2453
▁수립	-2454
▁회복	-2455
▁점차	-2456
▁아시안	-2457
▁둥	-2458
▁섭	-2459
▁필리핀	-2460
▁수단	-2461
▁드래	-2462
▁캘리포니아	-2463
▁역대	-2464
▁증거	-2465
▁확보	-2466
▁다섯	-2467
▁항상	-2468
▁잭	-2469
▁채택	-2470
▁의료	-2471
마스	-2472
테르	-2473
러지	-2474
▁핀란드	-2475
▁스타일	-2476
▁장비	-2477
▁규칙	-2478
▁앞서	-2479
주교	-2480
고리	-2481
▁든	-2482
▁강의	-2483
▁올라가	-2484
ch	-2485
▁남아	-2486
▁첨	-2487
▁시인	-2488
▁잡지	-2489
▁스파	-2490
▁기대	-2491
▁합의	-2492
▁에피	-2493
바이	-2494
▁폭발	-2495
ur	-2496
▁39	-2497
▁신화	-2498
▁개편	-2499
▁만족	-2500
▁그래서	-2501
▁어떻	-2502
▁얼굴	-2503
▁선생	-2504
▁남편	-2505
▁진화	-2506
▁400	-2507
▁일원	-2508
▁이스라	-2509
▁욕	-2510
▁기지	-2511
▁이승	-2512
▁스위스	-2513
▁나카	-2514
▁대기	-2515
▁부근	-2516
▁강점	-2517
▁모스크	-2518
▁라며	-2519
▁매년	-2520
▁64	-2521
▁튀	-2522
로드	-2523
▁II	-2524
▁해체	-2525
▁1985	-2526
▁토지	-2527
▁통계	-2528
▁앞두	-2529
▁불가	-2530
▁장면	-2531
▁가사	-2532
▁경향	-2533
▁군단	-2534
▁대형	-2535
▁간주	-2536
▁이스라엘	-2537
▁스리	-2538
▁종이	-2539
▁붉	-2540
▁경주	-2541
▁끊	-2542
다리	-2543
▁분자	-2544
▁태풍	-2545
▁항성	-2546
▁아름	-2547
▁귀국	-2548
데미	-2549
▁아나	-2550
▁둘러	-2551
▁종종	-2552
▁움직이	-2553
▁뜨	-2554
우드	-2555
▁어린	-2556
▁아주	-2557
▁게이	-2558
▁낭	-2559
▁조합	-2560
▁캄	-2561
레이드	-2562
ut	-2563
키아	-2564
▁수원	-2565
▁기억	-2566
▁서양	-2567
▁아랍	-2568
백질	-2569
▁ㅏ서	-2570
▁청소년	-2571
▁의학	-2572
▁아메리카	-2573
▁i	-2574
▁라면	-2575
▁스피	-2576
▁사항	-2577
▁삼국	-2578
▁성과	-2579
▁맛	-2580
▁확실	-2581
▁저지	-2582
▁심하	-2583
▁대장	-2584
▁레코드	-2585
▁에게서	-2586
고기	-2587
um	-2588
▁투어	-2589
▁초반	-2590
▁클래	-2591
▁탑재	-2592
▁침공	-2593
▁폼	-2594
▁그곳	-2595
▁43	-2596
▁향상	-2597
▁아카데미	-2598
▁좀	-2599
▁장식	-2600
▁고양	-2601
▁짐	-2602
▁융	-2603
어들	-2604
오프	-2605
▁LG	-2606
▁평양	-2607
▁메이저	-2608
▁청나라	-2609
▁랭	-2610
▁보장	-2611
▁카메	-2612
▁감정	-2613
오스	-2614
▁고구려	-2615
▁변하	-2616
▁아름답	-2617
▁자금	-2618
▁42	-2619
▁소년	-2620
▁줄거리	-2621
▁켄	-2622
요시	-2623
▁불과	-2624
▁선고	-2625
▁나치	-2626
보드	-2627
▁br	-2628
▁박쥐	-2629
▁보병	-2630
▁가로	-2631
▁남동	-2632
▁중화민국	-2633
▁선거구	-2634
네스	-2635
▁신앙	-2636
▁새기	-2637
▁고문	-2638
▁카운티	-2639
▁숭	-2640
▁전설	-2641
ver	-2642
▁만주	-2643
▁잠시	-2644
▁단백질	-2645
운동	-2646
▁독자	-2647
▁스케	-2648
소드	-2649
▁우선	-2650
▁1982	-2651
타인	-2652
▁신설	-2653
ir	-2654
▁라틴	-2655
▁단지	-2656
▁확정	-2657
▁55	-2658
▁우수	-2659
▁이끄	-2660
▁스카	-2661
▁나폴	-2662
▁살해	-2663
라노	-2664
▁차별	-2665
▁육상	-2666
틀랜드	-2667
▁판결	-2668
▁의장	-2669
▁함대	-2670
▁철도역	-2671
▁지시	-2672
▁광역시	-2673
에르	-2674
▁복잡	-2675
▁삭	-2676
무르	-2677
네시아	-2678
▁편입	-2679
▁탄생	-2680
FC	-2681
▁왕위	-2682
▁창설	-2683
▁합치	-2684
▁비율	-2685
▁구체	-2686
▁온라인	-2687
▁재단	-2688
▁대립	-2689
일러	-2690
im	-2691
▁검찰	-2692
▁예상	-2693
▁솔로	-2694
▁덴마크	-2695
▁법인	-2696
▁마크	-2697
▁전화	-2698
▁44	-2699
▁브랜드	-2700
누스	-2701
다이	-2702
▁강점기	-2703
▁세종	-2704
▁냐	-2705
▁1983	-2706
▁공유	-2707
▁유학	-2708
▁동의	-2709
▁성당	-2710
트라	-2711
▁수출	-2712
▁저서	-2713
▁브리	-2714
▁고향	-2715
뜨리	-2716
▁보급	-2717
▁짜	-2718
의회	-2719
▁참석	-2720
▁마드리	-2721
▁킬	-2722
싱턴	-2723
이크	-2724
▁반도	-2725
▁47	-2726
▁암살	-2727
▁가하	-2728
▁노예	-2729
▁애플	-2730
▁묻	-2731
▁고정	-2732
▁전후	-2733
▁하늘	-2734
▁협상	-2735
▁후손	-2736
▁마드리드	-2737
뿌리	-2738
▁집행	-2739
▁핵심	-2740
▁둘러싸	-2741
▁법칙	-2742
▁어도	-2743
ay	-2744
반도	-2745
▁보안	-2746
▁저장	-2747
▁헤이	-2748
▁회전	-2749
▁사전	-2750
▁Z	-2751
▁무엇	-2752
▁본격	-2753
▁오픈	-2754
▁롯	-2755
없이	-2756
비드	-2757
▁이성	-2758
▁중반	-2759
하라	-2760
▁관료	-2761
▁카를	-2762
▁주교	-2763
퍼스	-2764
▁사우	-2765
▁75	-2766
▁자세	-2767
▁의무	-2768
▁권한	-2769
▁순서	-2770
▁플랫	-2771
▁대비	-2772
▁논리	-2773
▁184	-2774
▁대항	-2775
▁숫	-2776
각형	-2777
▁아르헨	-2778
▁180	-2779
CA	-2780
▁전용	-2781
문화	-2782
셔널	-2783
원군	-2784
▁산맥	-2785
▁옷	-2786
▁공학	-2787
▁플레이오프	-2788
▁유적	-2789
리스트	-2790
▁베이스	-2791
레이션	-2792
▁이익	-2793
▁어린이	-2794
▁연고	-2795
▁에피소드	-2796
▁시각	-2797
▁상품	-2798
▁전혀	-2799
▁공기	-2800
▁하위	-2801
▁1972	-2802
▁단일	-2803
▁갈등	-2804
▁CD	-2805
▁베를	-2806
▁로버트	-2807
▁아르헨티나	-2808
▁켈	-2809
▁말기	-2810
▁1920	-2811
터리	-2812
▁프란	-2813
▁v	-2814
▁중세	-2815
▁직원	-2816
바르	-2817
▁인상	-2818
▁46	-2819
▁스크	-2820
▁의도	-2821
▁아스	-2822
▁운전	-2823
▁아파	-2824
▁조금	-2825
어스	-2826
▁보조	-2827
▁공무원	-2828
▁공포	-2829
▁인권	-2830
▁요한	-2831
▁기하	-2832
▁변호사	-2833
▁협정	-2834
▁원주	-2835
▁모리	-2836
▁잘못	-2837
▁창조	-2838
▁워싱턴	-2839
▁비난	-2840
▁아미	-2841
▁수여	-2842
▁가르치	-2843
▁글로	-2844
▁효소	-2845
▁중심지	-2846
▁1979	-2847
▁하드	-2848
▁별도	-2849
▁원리	-2850
▁밀리	-2851
▁전라북도	-2852
▁레드	-2853
▁정복	-2854
▁흔히	-2855
▁덮	-2856
퍼드	-2857
정부	-2858
▁파크	-2859
▁마시	-2860
▁성경	-2861
▁교류	-2862
▁투입	-2863
▁작곡가	-2864
▁엠	-2865
▁우크	-2866
▁벡	-2867
▁방면	-2868
▁kg	-2869
▁1930	-2870
▁셋	-2871
▁소식	-2872
▁논쟁	-2873
▁현장	-2874
▁건국	-2875
▁공화	-2876
▁In	-2877
▁장착	-2878
▁항복	-2879
무라	-2880
▁넘어	-2881
▁플라	-2882
10	-2883
▁심각	-2884
▁1981	-2885
▁아침	-2886
▁150	-2887
▁호텔	-2888
▁1973	-2889
▁택	-2890
▁금메달	-2891
▁논의	-2892
▁공산주의	-2893
▁훨	-2894
사키	-2895
▁오히	-2896
▁본인	-2897
▁헨리	-2898
▁빙	-2899
▁출마	-2900
▁세인트	-2901
▁놓이	-2902
▁니콜	-2903
▁건조	-2904
▁유전자	-2905
▁요새	-2906
▁운용	-2907
▁어떻게	-2908
▁노스	-2909
▁창립	-2910
▁연산	-2911
▁김정	-2912
▁물러	-2913
▁교토	-2914
▁훨씬	-2915
▁마이클	-2916
▁오토	-2917
▁연합군	-2918
os	-2919
▁투쟁	-2920
▁인류	-2921
▁무리	-2922
▁코스	-2923
▁중부	-2924
▁합성	-2925
▁방출	-2926
▁사태	-2927
▁형사	-2928
▁뿌리	-2929
▁예산	-2930
▁오른쪽	-2931
▁금속	-2932
▁오랜	-2933
겨나	-2934
▁산하	-2935
▁로드	-2936
▁멸망	-2937
▁코미	-2938
▁플레이어	-2939
▁추측	-2940
▁서기	-2941
▁패하	-2942
▁원작	-2943
▁릴	-2944
▁한때	-2945
▁라도	-2946
▁1940	-2947
▁인정받	-2948
▁왼쪽	-2949
▁태국	-2950
BO	-2951
30	-2952
▁에어	-2953
▁드러나	-2954
▁트랙	-2955
▁베이징	-2956
▁아프	-2957
일보	-2958
▁절대	-2959
▁복합	-2960
▁노르웨이	-2961
em	-2962
▁주위	-2963
▁제자	-2964
▁벗어나	-2965
▁1974	-2966
▁찍	-2967
▁던지	-2968
▁미니	-2969
▁해양	-2970
▁사령관	-2971
▁인공	-2972
▁탁	-2973
ter	-2974
▁구별	-2975
▁185	-2976
▁블루	-2977
▁효율	-2978
▁전철	-2979
▁모스크바	-2980
▁사법	-2981
▁인종	-2982
▁자이	-2983
▁읍	-2984
▁메시	-2985
시스	-2986
▁정비	-2987
▁반복	-2988
▁오전	-2989
▁북서	-2990
젤레스	-2991
▁군수	-2992
▁연관	-2993
▁스코틀랜드	-2994
▁집안	-2995
▁출장	-2996
▁SBS	-2997
▁숫자	-2998
▁신체	-2999
▁입자	-3000
카와	-3001
▁뽑	-3002
▁주기	-3003
▁제출	-3004
▁가져오	-3005
▁해상	-3006
▁웨스트	-3007
▁포위	-3008
▁분쟁	-3009
▁노부	-3010
▁소방	-3011
▁오히려	-3012
▁슬로	-3013
▁흡수	-3014
▁1948	-3015
머스	-3016
▁빌리	-3017
▁베를린	-3018
나이티	-3019
▁인조	-3020
▁축제	-3021
듀서	-3022
▁중대	-3023
▁프로듀서	-3024
▁델	-3025
▁54	-3026
▁디스	-3027
▁댄	-3028
▁마침	-3029
▁거절	-3030
▁이민	-3031
▁유나이티	-3032
▁수송	-3033
▁목사	-3034
붙이	-3035
▁각본	-3036
아오	-3037
▁1968	-3038
▁포기	-3039
▁시점	-3040
▁퍼지	-3041
▁활발	-3042
▁1976	-3043
▁개시	-3044
▁취급	-3045
▁출입	-3046
▁건립	-3047
▁관점	-3048
▁인터뷰	-3049
▁소녀	-3050
▁명성	-3051
▁우스	-3052
▁보스	-3053
▁전공	-3054
▁경성	-3055
▁넘기	-3056
▁견해	-3057
▁밖에	-3058
▁파라	-3059
▁사령부	-3060
▁고용	-3061
▁한국어	-3062
▁북동	-3063
▁주택	-3064
▁갤	-3065
▁주전	-3066
▁활성	-3067
도르	-3068
데스	-3069
▁1975	-3070
▁보험	-3071
▁진보	-3072
op	-3073
▁부활	-3074
▁구속	-3075
▁즐기	-3076
▁텐	-3077
▁장악	-3078
▁응용	-3079
▁취득	-3080
▁프라	-3081
▁신성	-3082
▁동원	-3083
▁히데	-3084
▁농민	-3085
▁실리	-3086
▁안타	-3087
서트	-3088
▁불법	-3089
▁음력	-3090
▁성능	-3091
▁여부	-3092
▁총독	-3093
▁소스	-3094
▁국도	-3095
▁하나님	-3096
▁후원	-3097
▁비록	-3098
▁유물	-3099
▁먹이	-3100
▁고유	-3101
▁명명	-3102
▁일치	-3103
▁영화제	-3104
▁직전	-3105
▁56	-3106
▁학습	-3107
▁1978	-3108
▁보컬	-3109
▁봉하	-3110
▁정체	-3111
▁직업	-3112
▁Q	-3113
▁미드	-3114
▁전부	-3115
▁국장	-3116
▁대리	-3117
▁끝내	-3118
ag	-3119
▁1971	-3120
▁북아	-3121
▁폭력	-3122
▁52	-3123
▁1963	-3124
리어	-3125
▁연료	-3126
에트	-3127
▁포도	-3128
▁천체	-3129
▁한자	-3130
키스탄	-3131
▁늘어나	-3132
리케	-3133
산시	-3134
▁항공기	-3135
▁선교	-3136
▁혼란	-3137
▁문헌	-3138
▁49	-3139
▁더라도	-3140
▁수술	-3141
▁편지	-3142
▁교차	-3143
▁브레	-3144
▁시리아	-3145
▁65	-3146
▁타이완	-3147
비치	-3148
▁여객철도	-3149
▁주관	-3150
▁관직	-3151
메리	-3152
▁누리	-3153
▁약속	-3154
▁그리스도	-3155
▁로스앤	-3156
▁로스앤젤레스	-3157
▁철수	-3158
▁코미디	-3159
▁도달	-3160
세이	-3161
▁상당히	-3162
▁닌	-3163
기에	-3164
▁일대	-3165
▁임금	-3166
▁랜	-3167
▁아테	-3168
ce	-3169
릭스	-3170
▁화물	-3171
▁스미	-3172
▁백제	-3173
다가	-3174
▁미나	-3175
▁테러	-3176
▁상륙	-3177
▁수집	-3178
▁1969	-3179
▁팝	-3180
▁반영	-3181
자기	-3182
쿠라	-3183
▁넷	-3184
▁고종	-3185
▁대화	-3186
▁179	-3187
▁도구	-3188
▁캠퍼스	-3189
▁학술	-3190
▁십자	-3191
▁물러나	-3192
▁다며	-3193
▁00	-3194
▁계통	-3195
노스	-3196
▁영업	-3197
▁증상	-3198
▁교환	-3199
▁의존	-3200
▁본사	-3201
OS	-3202
▁스마	-3203
▁프로세	-3204
▁제어	-3205
▁장교	-3206
▁주간	-3207
▁보관	-3208
▁전파	-3209
▁콘서트	-3210
▁학부	-3211
▁정원	-3212
▁항구	-3213
▁폴리	-3214
▁자살	-3215
▁정지	-3216
▁아사	-3217
▁재료	-3218
▁롯데	-3219
▁해산	-3220
▁모드	-3221
▁모시	-3222
라비아	-3223
▁데이비드	-3224
▁톰	-3225
▁SK	-3226
▁프리미	-3227
▁하우스	-3228
▁1946	-3229
▁코로나	-3230
▁백작	-3231
▁개체	-3232
▁방사	-3233
▁부임	-3234
▁구성원	-3235
▁김영	-3236
▁53	-3237
▁사운드	-3238
▁주식회사	-3239
▁영향력	-3240
▁핑	-3241
공항	-3242
▁좁	-3243
▁연재	-3244
▁허가	-3245
▁그런데	-3246
▁박정	-3247
▁불상	-3248
▁판서	-3249
▁살인	-3250
▁상승	-3251
▁전문가	-3252
▁고리	-3253
▁반발	-3254
▁나아가	-3255
▁그레	-3256
▁공통	-3257
▁망명	-3258
▁사유	-3259
▁리스	-3260
▁헤르	-3261
▁브루	-3262
oc	-3263
▁시호	-3264
▁제일	-3265
▁간단	-3266
▁질병	-3267
병대	-3268
▁진입	-3269
▁보건	-3270
▁거기	-3271
▁드리	-3272
▁발언	-3273
▁파트	-3274
▁외국인	-3275
▁자녀	-3276
▁1964	-3277
▁신분	-3278
▁화성	-3279
미터	-3280
▁..	-3281
▁영입	-3282
▁니시	-3283
▁포트	-3284
▁서버	-3285
▁원하	-3286
▁기도	-3287
▁위반	-3288
▁스프	-3289
▁대략	-3290
▁학원	-3291
▁충청북도	-3292
▁베스트	-3293
▁US	-3294
▁벨기에	-3295
▁겐	-3296
▁한반도	-3297
▁절차	-3298
▁소비에트	-3299
▁변형	-3300
▁저작	-3301
▁미터	-3302
▁참전	-3303
이어	-3304
▁감사	-3305
▁진압	-3306
▁99	-3307
▁사장	-3308
▁약하	-3309
▁변환	-3310
▁피아노	-3311
ri	-3312
▁시카	-3313
▁임대	-3314
▁창단	-3315
▁승진	-3316
▁학회	-3317
▁트랜	-3318
▁인도네시아	-3319
▁횡	-3320
정식	-3321
▁가을	-3322
▁꼭	-3323
▁고도	-3324
▁복무	-3325
▁1000	-3326
▁통상	-3327
▁리더	-3328
▁마케	-3329
▁탈출	-3330
▁락	-3331
▁스토	-3332
▁식품	-3333
▁부장	-3334
하마	-3335
▁조작	-3336
▁닥	-3337
▁픽	-3338
▁PC	-3339
▁국제공항	-3340
▁콤	-3341
▁58	-3342
▁현역	-3343
▁도망	-3344
▁지붕	-3345
▁and	-3346
▁채용	-3347
▁루이스	-3348
▁주년	-3349
▁공동체	-3350
오르	-3351
▁페이	-3352
▁요인	-3353
▁탈락	-3354
▁문장	-3355
▁신청	-3356
▁다스	-3357
▁분열	-3358
▁청구	-3359
▁방송국	-3360
▁누르	-3361
▁에도	-3362
▁그치	-3363
천군	-3364
▁작사	-3365
▁벼	-3366
▁생태	-3367
▁요코	-3368
▁장수	-3369
저우	-3370
▁민법	-3371
▁머무르	-3372
▁합격	-3373
▁친일	-3374
▁수영	-3375
▁쫓	-3376
▁1977	-3377
▁포로	-3378
▁큐	-3379
▁학과	-3380
▁기호	-3381
▁말레이	-3382
▁동남	-3383
▁화면	-3384
▁라이트	-3385
▁트로	-3386
▁트라	-3387
▁이중	-3388
▁임의	-3389
아버지	-3390
프리	-3391
▁조절	-3392
▁예측	-3393
▁엑스	-3394
▁1949	-3395
▁FA	-3396
▁위상	-3397
▁부부	-3398
igh	-3399
▁탄소	-3400
성군	-3401
▁특이	-3402
▁상원	-3403
▁연출	-3404
▁띄	-3405
크스	-3406
▁지급	-3407
▁기법	-3408
문화재	-3409
▁메모리	-3410
▁88	-3411
▁이치	-3412
려움	-3413
▁서식지	-3414
▁신인	-3415
▁국무	-3416
▁정기	-3417
▁참고	-3418
▁독립운동	-3419
▁수리	-3420
▁수소	-3421
▁카메라	-3422
▁취소	-3423
▁배출	-3424
▁동작	-3425
▁레오	-3426
▁화재	-3427
▁코파	-3428
▁선조	-3429
▁황금	-3430
▁1962	-3431
ation	-3432
▁앵	-3433
▁레스	-3434
▁전동	-3435
▁처형	-3436
로그	-3437
▁선전	-3438
▁62	-3439
▁주둔	-3440
▁스토리	-3441
▁개조	-3442
▁출간	-3443
▁흉	-3444
타르	-3445
▁실수	-3446
드시	-3447
▁생존	-3448
▁막부	-3449
▁왕자	-3450
▁장르	-3451
▁로켓	-3452
▁광장	-3453
▁칭하	-3454
▁방지	-3455
▁오페	-3456
▁1967	-3457
▁이승만	-3458
▁예비	-3459
▁서원	-3460
▁오스만	-3461
▁기체	-3462
브리	-3463
▁동성	-3464
▁임진	-3465
카이도	-3466
▁호수	-3467
▁57	-3468
천시	-3469
▁콘스탄	-3470
▁서구	-3471
▁롱	-3472
▁이시	-3473
▁등지	-3474
▁선보이	-3475
▁경로	-3476
라드	-3477
▁루트	-3478
▁현지	-3479
▁힘들	-3480
▁공정	-3481
포르	-3482
▁어떠	-3483
▁흑인	-3484
▁방정식	-3485
▁연안	-3486
▁희망	-3487
▁남서	-3488
▁You	-3489
▁농구	-3490
▁히트	-3491
▁고지	-3492
▁는가	-3493
▁천연	-3494
▁여단	-3495
수록	-3496
▁Ch	-3497
▁크리	-3498
▁도전	-3499
▁반드시	-3500
아나	-3501
▁무덤	-3502
▁좌우	-3503
▁의혹	-3504
▁전주	-3505
▁동기	-3506
▁늦	-3507
▁진주	-3508
▁싸움	-3509
▁성향	-3510
▁일본군	-3511
▁제대로	-3512
먼트	-3513
▁터널	-3514
▁톱	-3515
▁맞서	-3516
▁고치	-3517
▁동아	-3518
▁노리	-3519
▁시드	-3520
▁181	-3521
▁이온	-3522
nd	-3523
▁분명	-3524
▁전면	-3525
▁맞이	-3526
▁코르	-3527
▁법정	-3528
에이	-3529
인물	-3530
더스	-3531
▁노벨	-3532
▁인지	-3533
▁스탠	-3534
▁압력	-3535
▁전형	-3536
▁타임	-3537
바라	-3538
▁내전	-3539
▁둘째	-3540
▁묵	-3541
▁파악	-3542
▁녹색	-3543
▁해리	-3544
▁그레이	-3545
방송	-3546
ST	-3547
▁66	-3548
▁엄청	-3549
라이언	-3550
▁개신	-3551
▁우려	-3552
▁으려	-3553
▁한계	-3554
▁목소리	-3555
▁r	-3556
▁범주	-3557
▁비평	-3558
▁에르	-3559
▁1966	-3560
▁흘	-3561
▁독특	-3562
▁신뢰	-3563
▁처벌	-3564
티브	-3565
▁꺾	-3566
▁유기	-3567
▁매일	-3568
▁돌리	-3569
▁멘	-3570
▁미국인	-3571
▁글자	-3572
▁물체	-3573
▁KBO	-3574
▁덧	-3575
▁리처	-3576
▁부사	-3577
▁아리	-3578
▁유행	-3579
▁68	-3580
▁삽	-3581
▁%,	-3582
▁람	-3583
▁아파트	-3584
▁체코	-3585
▁바둑	-3586
▁복지	-3587
▁1965	-3588
▁드물	-3589
▁분할	-3590
▁퀸	-3591
이치	-3592
▁별명	-3593
▁오프	-3594
▁가시	-3595
베스	-3596
▁간행	-3597
▁모형	-3598
▁순환	-3599
▁61	-3600
▁183	-3601
▁어디	-3602
▁클레	-3603
▁알렉산드	-3604
▁밥	-3605
▁타격	-3606
▁방해	-3607
▁집권	-3608
▁구현	-3609
▁평등	-3610
치아	-3611
▁분해	-3612
▁추구	-3613
질랜드	-3614
▁홋	-3615
▁묶	-3616
▁웅	-3617
▁아동	-3618
▁실질	-3619
▁곱	-3620
▁김일	-3621
▁광복	-3622
▁뉴질랜드	-3623
르타	-3624
▁화산	-3625
ON	-3626
ER	-3627
피스	-3628
▁찰스	-3629
▁일찍	-3630
▁한정	-3631
▁희생	-3632
▁일식	-3633
▁완료	-3634
▁마르크	-3635
▁시조	-3636
▁첼	-3637
▁풍부	-3638
▁부진	-3639
▁찌	-3640
▁최다	-3641
텐츠	-3642
▁사립	-3643
▁플래	-3644
▁벡터	-3645
유럽	-3646
▁가상	-3647
▁파르	-3648
▁손자	-3649
art	-3650
▁빼앗	-3651
▁대법	-3652
▁나들	-3653
디션	-3654
▁나들목	-3655
▁중기	-3656
▁1961	-3657
▁분기	-3658
▁호주	-3659
▁사냥	-3660
▁800	-3661
▁대개	-3662
▁엄청나	-3663
▁물리학	-3664
▁확산	-3665
▁마침내	-3666
▁일본인	-3667
▁션	-3668
▁전원	-3669
▁86	-3670
▁갈색	-3671
▁마법	-3672
▁통산	-3673
▁그라	-3674
투스	-3675
ice	-3676
▁사원	-3677
▁테이	-3678
▁가까	-3679
▁흰	-3680
▁근본	-3681
▁출범	-3682
▁사형	-3683
▁판사	-3684
▁캔	-3685
▁알파	-3686
▁악기	-3687
▁점점	-3688
▁레인	-3689
▁부하	-3690
▁600	-3691
▁웨이	-3692
▁120	-3693
▁IS	-3694
▁기둥	-3695
▁창원	-3696
▁리가	-3697
▁의지	-3698
▁으니	-3699
▁프린	-3700
▁분위	-3701
▁충격	-3702
▁완공	-3703
▁메리	-3704
다르	-3705
▁오페라	-3706
▁시카고	-3707
▁교향	-3708
▁무게	-3709
▁사임	-3710
est	-3711
▁날개	-3712
▁바치	-3713
▁회담	-3714
▁명확	-3715
은행	-3716
▁발굴	-3717
▁유치	-3718
▁훗	-3719
▁편찬	-3720
▁저술	-3721
▁단독	-3722
▁대공	-3723
▁인증	-3724
▁사마	-3725
▁영웅	-3726
사자	-3727
▁제이	-3728
▁닛	-3729
▁개입	-3730
틀러	-3731
ap	-3732
▁들어서	-3733
사스	-3734
▁조별	-3735
▁홍보	-3736
▁1919	-3737
▁인접	-3738
▁악화	-3739
▁여론	-3740
▁모토	-3741
▁문명	-3742
▁상위	-3743
▁드러내	-3744
▁98	-3745
▁가나	-3746
▁이자	-3747
▁키우	-3748
ak	-3749
▁뚜	-3750
▁re	-3751
▁탐사	-3752
▁함락	-3753
▁명나라	-3754
▁의심	-3755
▁렀	-3756
▁적절	-3757
TV	-3758
▁훌	-3759
▁연간	-3760
▁기기	-3761
▁연구원	-3762
▁포인트	-3763
▁서명	-3764
▁조종	-3765
▁무시	-3766
▁쏘	-3767
▁굽	-3768
세우	-3769
▁1944	-3770
▁성분	-3771
▁샘	-3772
▁카라	-3773
▁당초	-3774
▁추천	-3775
▁접촉	-3776
▁곽	-3777
▁득표	-3778
▁자극	-3779
▁넓이	-3780
▁임기	-3781
▁학살	-3782
믹스	-3783
▁각지	-3784
민주	-3785
▁이닝	-3786
라이나	-3787
버그	-3788
AR	-3789
▁포항	-3790
▁순간	-3791
▁드라이	-3792
▁모임	-3793
ia	-3794
▁등장인물	-3795
우리	-3796
▁도쿠	-3797
▁순수	-3798
▁뮤지	-3799
▁입법	-3800
▁사실상	-3801
▁사정	-3802
▁진정	-3803
▁고속도로	-3804
▁링크	-3805
▁행렬	-3806
▁그때	-3807
▁올해	-3808
▁징역	-3809
▁생겨나	-3810
▁변수	-3811
▁팽	-3812
▁63	-3813
▁구원	-3814
▁독일군	-3815
▁세르비아	-3816
▁프리미어	-3817
▁스마트	-3818
▁개막	-3819
▁동서	-3820
▁1941	-3821
▁골든	-3822
▁루스	-3823
아보	-3824
▁95	-3825
메이	-3826
▁등판	-3827
▁심사	-3828
▁기리	-3829
시오	-3830
연히	-3831
학생	-3832
▁자전	-3833
▁DNA	-3834
나가	-3835
▁경전	-3836
▁네이	-3837
일리	-3838
러리	-3839
▁74	-3840
▁태도	-3841
▁59	-3842
▁공헌	-3843
▁언제	-3844
▁오랫	-3845
▁확률	-3846
▁한국인	-3847
▁기온	-3848
▁실현	-3849
▁바위	-3850
▁아티	-3851
▁재배	-3852
▁여야	-3853
▁꼽	-3854
▁프로그래	-3855
▁공로	-3856
▁Lo	-3857
▁페르시아	-3858
▁혼합	-3859
무부	-3860
▁시사	-3861
ct	-3862
▁매장	-3863
▁백성	-3864
▁닉	-3865
▁수석	-3866
숭이	-3867
▁보고서	-3868
▁뱅	-3869
▁튜	-3870
▁감시	-3871
▁IC	-3872
▁커뮤	-3873
▁앤드	-3874
▁예전	-3875
▁178	-3876
▁방위	-3877
▁균형	-3878
▁춤	-3879
▁개신교	-3880
▁대선	-3881
▁추산	-3882
▁줄어들	-3883
대부	-3884
▁양쪽	-3885
▁특별시	-3886
▁랜드	-3887
▁훗날	-3888
▁출력	-3889
▁침략	-3890
▁오랫동안	-3891
▁긍	-3892
코스	-3893
▁프라이	-3894
▁급제	-3895
ul	-3896
▁왕실	-3897
▁안드로	-3898
▁점수	-3899
▁이라크	-3900
▁1958	-3901
▁줄기	-3902
▁지형	-3903
▁영지	-3904
▁텍사스	-3905
▁미쓰	-3906
▁커뮤니	-3907
▁승부	-3908
리히	-3909
▁82	-3910
▁복원	-3911
▁재건	-3912
▁흐름	-3913
▁SS	-3914
▁에드워드	-3915
▁단편	-3916
▁신부	-3917
▁1947	-3918
이너	-3919
▁160	-3920
▁리처드	-3921
▁분위기	-3922
▁76	-3923
▁피터	-3924
▁대량	-3925
▁원형	-3926
▁그래픽	-3927
▁72	-3928
▁무사	-3929
▁경남	-3930
▁to	-3931
▁안토	-3932
▁발발	-3933
▁저녁	-3934
▁다케	-3935
▁여왕	-3936
▁고르	-3937
▁승객	-3938
▁미야	-3939
▁1956	-3940
▁타자	-3941
▁제사	-3942
▁프랑크	-3943
▁권위	-3944
▁멀리	-3945
▁팔리	-3946
▁기울	-3947
▁;/	-3948
▁AFC	-3949
▁아이돌	-3950
▁우라	-3951
▁비상	-3952
▁확립	-3953
▁가와	-3954
▁보물	-3955
▁에서부터	-3956
▁77	-3957
▁테스트	-3958
▁마무	-3959
▁교구	-3960
▁시상	-3961
▁석유	-3962
▁일상	-3963
▁작위	-3964
▁동명	-3965
▁침입	-3966
▁데스	-3967
ie	-3968
▁안동	-3969
▁입력	-3970
▁포켓	-3971
▁리버	-3972
리노	-3973
▁원수	-3974
▁복수	-3975
▁비치	-3976
▁앉	-3977
▁복음	-3978
메리칸	-3979
▁잠수	-3980
▁한글	-3981
▁개설	-3982
▁업적	-3983
▁바깥	-3984
▁수익	-3985
▁과학자	-3986
▁가설	-3987
▁젠	-3988
▁1939	-3989
▁연예	-3990
▁정수	-3991
▁타워	-3992
레옹	-3993
▁ㄹ지	-3994
▁민중	-3995
▁67	-3996
▁더블	-3997
▁사자	-3998
▁폭탄	-3999
▁Th	-4000
▁브라운	-4001
▁도요	-4002
▁파워	-4003
▁섞	-4004
▁축구단	-4005
▁나폴레옹	-4006
레나	-4007
▁와이	-4008
▁가공	-4009
▁혁신	-4010
▁겹	-4011
▁창작	-4012
▁계층	-4013
왜란	-4014
▁본질	-4015
▁임진왜란	-4016
▁기소	-4017
▁자식	-4018
일스	-4019
IA	-4020
▁동양	-4021
▁일시	-4022
▁어깨	-4023
ud	-4024
▁당국	-4025
에른	-4026
▁암호	-4027
▁병합	-4028
▁사제	-4029
▁신자	-4030
마르	-4031
▁대왕	-4032
▁신고	-4033
▁심지	-4034
▁덜	-4035
▁다운	-4036
og	-4037
▁시마	-4038
▁끼치	-4039
▁힌	-4040
이센	-4041
▁85	-4042
▁후계	-4043
마니아	-4044
▁주최	-4045
▁공중	-4046
▁빅토	-4047
ly	-4048
▁부지	-4049
▁폐쇄	-4050
▁국기	-4051
▁평론	-4052
th	-4053
▁산화	-4054
▁훈장	-4055
▁인쇄	-4056
▁진단	-4057
▁대성	-4058
▁내셔널	-4059
▁력	-4060
▁구글	-4061
▁도모	-4062
▁발음	-4063
▁그렇게	-4064
레인	-4065
ist	-4066
▁거듭	-4067
▁깃	-4068
▁가담	-4069
▁후속	-4070
▁가량	-4071
▁빌보드	-4072
▁노출	-4073
▁총회	-4074
▁평안	-4075
▁자이언	-4076
▁1954	-4077
아티아	-4078
▁보상	-4079
▁크로아티아	-4080
▁움직임	-4081
ight	-4082
▁쌀	-4083
▁듯이	-4084
BA	-4085
▁동방	-4086
▁고통	-4087
▁가이	-4088
▁고기	-4089
체스터	-4090
▁생물학	-4091
▁레알	-4092
▁탱	-4093
▁들이	-4094
조합	-4095
▁라스	-4096
▁비서	-4097
▁참모	-4098
▁아트	-4099
▁세리	-4100
▁1952	-4101
▁대지	-4102
▁DV	-4103
▁96	-4104
▁뮤지컬	-4105
▁73	-4106
아지	-4107
▁실력	-4108
▁셔	-4109
▁김대	-4110
▁인용	-4111
▁포스트	-4112
▁국정	-4113
▁전신	-4114
▁탈퇴	-4115
▁박정희	-4116
▁아테네	-4117
▁채우	-4118
▁역학	-4119
▁타운	-4120
▁무한	-4121
▁다소	-4122
▁상관	-4123
▁조조	-4124
▁뷰	-4125
▁결론	-4126
▁작동	-4127
▁지나가	-4128
▁보살	-4129
▁행복	-4130
▁오가	-4131
▁비례	-4132
▁*	-4133
▁81	-4134
▁도덕	-4135
▁로봇	-4136
▁환승	-4137
느리	-4138
▁Al	-4139
▁교리	-4140
▁심장	-4141
▁예방	-4142
아하	-4143
▁이혼	-4144
▁피해자	-4145
▁바닥	-4146
▁오카	-4147
▁매체	-4148
▁화이트	-4149
▁뮌	-4150
▁알바	-4151
▁중력	-4152
▁그만	-4153
▁뤼	-4154
AS	-4155
너스	-4156
▁78	-4157
▁소득	-4158
▁스타디	-4159
▁타이거	-4160
▁최후	-4161
▁따로	-4162
▁바이에른	-4163
▁절반	-4164
▁수도원	-4165
▁인생	-4166
필더	-4167
▁재학	-4168
▁미드필더	-4169
▁청주	-4170
타이	-4171
▁화장	-4172
▁김성	-4173
▁좋아하	-4174
▁불만	-4175
▁장남	-4176
AT	-4177
▁지향	-4178
▁부담	-4179
▁전남	-4180
▁질환	-4181
▁화합	-4182
▁지사	-4183
▁천안	-4184
▁손상	-4185
▁센트	-4186
토스	-4187
의정	-4188
▁메달	-4189
▁포스	-4190
▁전투기	-4191
하여	-4192
▁붓	-4193
▁가까이	-4194
▁기상	-4195
▁사무소	-4196
▁살리	-4197
터스	-4198
▁국군	-4199
▁약물	-4200
▁하인	-4201
▁께	-4202
▁블라	-4203
▁전직	-4204
▁총장	-4205
▁보르	-4206
▁황후	-4207
▁산소	-4208
세포	-4209
▁여섯	-4210
▁처하	-4211
▁202	-4212
클리	-4213
▁아웃	-4214
▁녀	-4215
▁메시지	-4216
ess	-4217
▁콘스탄티	-4218
▁AT	-4219
▁골드	-4220
▁패션	-4221
▁는다는	-4222
▁91	-4223
▁검토	-4224
▁선박	-4225
자치	-4226
▁71	-4227
▁주력	-4228
▁혼인	-4229
▁당나라	-4230
▁긍정	-4231
▁빌딩	-4232
▁1959	-4233
▁유산	-4234
▁NH	-4235
▁모바	-4236
▁개방	-4237
▁심판	-4238
▁사우스	-4239
▁규제	-4240
▁피부	-4241
직자	-4242
▁Li	-4243
▁유통	-4244
▁상실	-4245
▁마무리	-4246
▁백만	-4247
스트라	-4248
▁177	-4249
▁관여	-4250
▁문신	-4251
▁세부	-4252
▁신사	-4253
▁글로벌	-4254
쿠스	-4255
▁수요	-4256
▁윗	-4257
▁햄	-4258
▁이명	-4259
▁호소	-4260
▁인원	-4261
▁결의	-4262
▁하원	-4263
▁가마	-4264
▁심지어	-4265
▁가요	-4266
▁요금	-4267
▁처분	-4268
▁액션	-4269
▁프로이센	-4270
▁설득	-4271
가락	-4272
▁상역	-4273
▁승려	-4274
▁;,	-4275
▁소멸	-4276
▁왕비	-4277
▁분노	-4278
▁위키	-4279
▁일컫	-4280
▁가슴	-4281
▁쿠데	-4282
IV	-4283
▁연습	-4284
▁디스크	-4285
▁통화	-4286
▁1942	-4287
▁동해	-4288
▁오직	-4289
▁퀴	-4290
▁구매	-4291
▁그린	-4292
▁의대	-4293
▁창당	-4294
▁적합	-4295
▁김일성	-4296
▁대책	-4297
▁페이지	-4298
▁위대	-4299
리학	-4300
▁내려오	-4301
▁넘어가	-4302
▁AP	-4303
▁개성	-4304
▁87	-4305
▁좌상	-4306
▁사격	-4307
▁크루	-4308
미야	-4309
▁일기	-4310
▁음악가	-4311
▁선임	-4312
▁잭슨	-4313
▁조카	-4314
▁말레이시아	-4315
▁모바일	-4316
▁드래프트	-4317
ub	-4318
▁억제	-4319
▁주석	-4320
▁1943	-4321
드리히	-4322
▁쿠데타	-4323
▁st	-4324
▁시나	-4325
▁필드	-4326
▁사도	-4327
가니	-4328
▁전당	-4329
▁테크	-4330
▁159	-4331
▁알고리	-4332
▁쾌	-4333
▁프랭	-4334
▁톨	-4335
▁1955	-4336
▁진영	-4337
▁상속	-4338
▁홋카이도	-4339
▁부산광역시	-4340
▁야스	-4341
▁싱가	-4342
▁일체	-4343
▁싱가포르	-4344
▁불안	-4345
▁무료	-4346
▁발탁	-4347
▁원년	-4348
▁왕후	-4349
▁어려움	-4350
▁크로스	-4351
▁디아	-4352
▁1953	-4353
▁700	-4354
▁84	-4355
▁천주교	-4356
▁유고	-4357
▁프리드리히	-4358
▁일본어	-4359
▁스타디움	-4360
▁루마니아	-4361
▁세자	-4362
▁1936	-4363
▁카스	-4364
▁닫	-4365
미르	-4366
▁조차	-4367
▁기동	-4368
히로	-4369
▁힙	-4370
▁폭격	-4371
ab	-4372
▁타인	-4373
▁\	-4374
유산	-4375
▁테마	-4376
▁티베	-4377
▁알고리즘	-4378
▁김종	-4379
▁토론토	-4380
데이	-4381
▁굳	-4382
▁사무실	-4383
버리	-4384
▁나쁘	-4385
▁궁전	-4386
▁조지아	-4387
▁콘텐츠	-4388
▁즉시	-4389
▁태조	-4390
▁1910	-4391
▁독재	-4392
▁이와	-4393
▁유형문화재	-4394
▁리드	-4395
▁여우	-4396
올리	-4397
▁전북	-4398
▁Re	-4399
▁연설	-4400
▁용도	-4401
▁사라	-4402
▁정차	-4403
▁딜	-4404
▁챔피언십	-4405
▁막대	-4406
주군	-4407
▁1900	-4408
▁발명	-4409
ine	-4410
▁부동	-4411
▁전동차	-4412
▁깊이	-4413
▁몰리	-4414
▁검색	-4415
▁자는	-4416
▁학사	-4417
▁97	-4418
▁오이	-4419
▁음성	-4420
▁스티븐	-4421
▁원주민	-4422
▁각국	-4423
▁히틀러	-4424
▁딘	-4425
▁대체로	-4426
▁후쿠오카	-4427
▁추방	-4428
▁남아프리카	-4429
▁구입	-4430
▁진격	-4431
래프트	-4432
시스코	-4433
구리	-4434
▁강릉	-4435
우치	-4436
▁대우	-4437
▁아메리칸	-4438
▁주소	-4439
▁DVD	-4440
▁영양	-4441
원경	-4442
▁조상	-4443
▁사양	-4444
▁세트	-4445
바로	-4446
▁개칭	-4447
▁포켓몬	-4448
▁수호	-4449
▁메이지	-4450
▁휴대	-4451
▁1957	-4452
ew	-4453
구치	-4454
베르트	-4455
달리	-4456
▁전술	-4457
▁전송	-4458
▁사기	-4459
▁사과	-4460
란색	-4461
▁필수	-4462
▁코리아	-4463
▁수업	-4464
▁초점	-4465
▁자국	-4466
▁스미스	-4467
▁늘리	-4468
▁최우	-4469
머리	-4470
▁본명	-4471
▁신장	-4472
독부	-4473
▁인디언	-4474
미니	-4475
▁이즈	-4476
▁느낌	-4477
▁1914	-4478
▁동북	-4479
▁69	-4480
▁광범	-4481
▁흔하	-4482
▁덩	-4483
▁이마	-4484
▁92	-4485
▁담기	-4486
▁기다리	-4487
▁핫	-4488
▁넥	-4489
▁렀다	-4490
▁급격	-4491
ue	-4492
▁클로	-4493
▁미리	-4494
▁불가리아	-4495
▁게르	-4496
▁개량	-4497
▁섹	-4498
지사	-4499
▁서술	-4500
▁선형	-4501
▁라이프	-4502
EC	-4503
▁신도	-4504
▁천만	-4505
다랗	-4506
▁빚	-4507
▁연락	-4508
▁완벽	-4509
▁랄	-4510
제국	-4511
▁림	-4512
▁스프링	-4513
로지	-4514
▁노트	-4515
▁도마	-4516
▁바르셀	-4517
▁잡히	-4518
▁바르셀로나	-4519
▁펑	-4520
▁="	-4521
▁유효	-4522
▁재즈	-4523
▁똑	-4524
▁상인	-4525
▁커버	-4526
▁후임	-4527
▁끌어	-4528
▁이내	-4529
▁101	-4530
▁미술관	-4531
▁부위	-4532
▁1938	-4533
▁스탈	-4534
▁게다가	-4535
▁배포	-4536
▁HD	-4537
▁닥터	-4538
▁고급	-4539
▁마르크스	-4540
총리	-4541
▁주니어	-4542
▁윙	-4543
▁고시	-4544
▁립	-4545
리그	-4546
▁시내버스	-4547
▁랩	-4548
▁저자	-4549
▁01	-4550
▁화려	-4551
▁소비자	-4552
산화	-4553
▁오키	-4554
▁려면	-4555
▁늑	-4556
▁물건	-4557
▁상주	-4558
▁석사	-4559
▁알레	-4560
▁손실	-4561
▁숨기	-4562
▁질문	-4563
▁화석	-4564
▁다스리	-4565
▁마스터	-4566
▁언덕	-4567
다니	-4568
▁실천	-4569
▁연평	-4570
▁운항	-4571
▁추기	-4572
비히	-4573
▁1918	-4574
▁라틴어	-4575
자키	-4576
▁소형	-4577
▁안드	-4578
▁주체	-4579
▁국적	-4580
▁웰	-4581
▁집회	-4582
▁암컷	-4583
▁언스	-4584
▁상수	-4585
▁료	-4586
▁방언	-4587
▁의문	-4588
▁블록	-4589
▁사퇴	-4590
▁라우	-4591
▁고위	-4592
▁해발	-4593
▁대만	-4594
▁백인	-4595
BM	-4596
▁정교회	-4597
▁풋	-4598
▁반사	-4599
▁올스타	-4600
민주당	-4601
펙트	-4602
▁미스	-4603
총독부	-4604
▁조선총독부	-4605
▁내놓	-4606
▁이념	-4607
▁감각	-4608
▁일련	-4609
▁개별	-4610
▁느냐	-4611
▁1951	-4612
여금	-4613
▁경비	-4614
▁차단	-4615
▁영주	-4616
▁프랑스군	-4617
▁짝	-4618
필드	-4619
▁계곡	-4620
▁1932	-4621
▁갑자기	-4622
▁경제학	-4623
▁미시	-4624
▁분화	-4625
▁자본주의	-4626
▁1937	-4627
▁고객	-4628
▁거짓	-4629
▁선포	-4630
▁탄압	-4631
▁on	-4632
▁뮌헨	-4633
▁실업	-4634
▁격파	-4635
▁말리	-4636
▁재개	-4637
▁{	-4638
무늬	-4639
▁추기경	-4640
▁구상	-4641
▁만든	-4642
▁용인	-4643
▁찬성	-4644
▁후계자	-4645
▁퀘	-4646
▁당원	-4647
▁마틴	-4648
▁이웃	-4649
▁화제	-4650
▁엘리자	-4651
▁클리	-4652
▁우크라	-4653
▁번지	-4654
가시	-4655
▁89	-4656
▁싱어	-4657
바키아	-4658
▁첩	-4659
저스	-4660
▁기부	-4661
▁진학	-4662
▁체험	-4663
▁칭호	-4664
▁이스트	-4665
▁크라	-4666
▁회로	-4667
▁부친	-4668
▁비스	-4669
ect	-4670
▁면역	-4671
▁93	-4672
▁수치	-4673
▁파티	-4674
▁흰색	-4675
▁화폐	-4676
▁사찰	-4677
▁1935	-4678
▁고양이	-4679
▁설치류	-4680
▁광범위	-4681
▁베리	-4682
▁트레이드	-4683
▁둥글	-4684
사전	-4685
▁182	-4686
▁옵	-4687
▁항의	-4688
▁로렌	-4689
▁비행기	-4690
▁Be	-4691
▁시트	-4692
▁곡선	-4693
▁분교	-4694
▁증언	-4695
▁타율	-4696
▁질서	-4697
▁겉	-4698
▁중추	-4699
▁되돌	-4700
▁자산	-4701
▁반지	-4702
▁공신	-4703
▁데리	-4704
동생	-4705
▁OS	-4706
▁항공사	-4707
▁발간	-4708
▁유배	-4709
▁꾸준	-4710
▁촉진	-4711
▁웃	-4712
▁어요	-4713
▁극단	-4714
▁아티스트	-4715
▁구멍	-4716
▁법학	-4717
▁세월	-4718
▁허락	-4719
▁가속	-4720
▁개척	-4721
▁습격	-4722
▁양산	-4723
▁전적	-4724
▁클래식	-4725
▁소화	-4726
▁지수	-4727
▁쿨	-4728
▁운송	-4729
▁남녀	-4730
▁수백	-4731
센트	-4732
▁성남	-4733
런스	-4734
▁전망	-4735
▁목성	-4736
▁탄핵	-4737
▁보편	-4738
▁영원	-4739
▁쿼	-4740
▁마루	-4741
▁대법원	-4742
▁탕	-4743
▁잠수함	-4744
▁축소	-4745
슈타인	-4746
▁소문	-4747
▁카리	-4748
▁마주	-4749
▁직무	-4750
추어	-4751
IN	-4752
ore	-4753
▁푸르	-4754
▁시모	-4755
▁덧붙이	-4756
다수	-4757
어로	-4758
▁팩	-4759
벤트	-4760
▁소위	-4761
▁툴	-4762
▁쟁	-4763
▁94	-4764
▁내세우	-4765
▁FM	-4766
▁강남	-4767
▁티베트	-4768
▁물고기	-4769
▁소집	-4770
▁CP	-4771
▁원시	-4772
▁동화	-4773
▁1933	-4774
▁핸	-4775
▁기에	-4776
▁히어로	-4777
▁영구	-4778
ell	-4779
our	-4780
▁조항	-4781
도사	-4782
▁대칭	-4783
▁매치	-4784
▁무용	-4785
▁정류	-4786
▁프랑스어	-4787
▁군부	-4788
▁아오	-4789
▁선호	-4790
▁약화	-4791
▁1928	-4792
▁수십	-4793
▁펴	-4794
돼지	-4795
▁익스	-4796
▁콜로	-4797
▁뼈	-4798
▁프로그래밍	-4799
▁멀티	-4800
공사	-4801
▁칠레	-4802
▁경사	-4803
리우스	-4804
▁충분히	-4805
프레	-4806
▁어둡	-4807
슬링	-4808
▁하여금	-4809
ID	-4810
▁누스	-4811
▁실내	-4812
▁이행	-4813
▁혼자	-4814
▁그리하여	-4815
▁시신	-4816
▁주일	-4817
▁태종	-4818
▁정통	-4819
▁동경	-4820
▁무너지	-4821
▁지불	-4822
닉스	-4823
▁국토	-4824
▁당신	-4825
려가	-4826
▁간부	-4827
▁고교	-4828
▁자매	-4829
른바	-4830
▁발레	-4831
사이	-4832
▁지나치	-4833
▁09	-4834
▁79	-4835
▁개명	-4836
▁댄스	-4837
▁해제	-4838
▁1924	-4839
▁걷	-4840
▁조기	-4841
▁재능	-4842
▁판정	-4843
▁자이언츠	-4844
▁부속	-4845
▁이른바	-4846
▁손해	-4847
▁메트로	-4848
▁펀	-4849
▁이재	-4850
▁입대	-4851
▁콜롬	-4852
▁틈	-4853
▁오버	-4854
▁멈	-4855
▁사막	-4856
▁04	-4857
▁토마스	-4858
end	-4859
▁토너	-4860
들리	-4861
▁김해	-4862
▁형상	-4863
▁파키스탄	-4864
▁개장	-4865
▁브로	-4866
▁110	-4867
▁상대식	-4868
▁열매	-4869
▁진실	-4870
▁원자력	-4871
▁정면	-4872
▁합동	-4873
과이	-4874
▁강전	-4875
▁토대	-4876
▁구름	-4877
▁오류	-4878
▁프로토	-4879
▁지중	-4880
▁의정부	-4881
▁반하	-4882
▁종사	-4883
▁사이드	-4884
▁이벤트	-4885
▁동굴	-4886
▁따오	-4887
페이스	-4888
▁플로리	-4889
▁안티	-4890
▁아마추어	-4891
▁러브	-4892
▁재생	-4893
▁토착	-4894
▁170	-4895
▁액체	-4896
▁주문	-4897
▁코너	-4898
▁대승	-4899
▁회색	-4900
▁가난	-4901
▁전제	-4902
코프	-4903
▁유아	-4904
▁초상	-4905
▁하와	-4906
▁08	-4907
▁MS	-4908
▁단순히	-4909
▁행적	-4910
브라	-4911
▁지표	-4912
▁퓨	-4913
▁로즈	-4914
▁무력	-4915
▁존스	-4916
▁법안	-4917
▁베네치아	-4918
ill	-4919
▁스카이	-4920
▁틴	-4921
사르	-4922
▁경고	-4923
▁보스턴	-4924
테스	-4925
▁당대	-4926
▁서방	-4927
▁스크린	-4928
▁안토니	-4929
ers	-4930
▁성서	-4931
베리아	-4932
▁룸	-4933
▁ㅓㅆ	-4934
▁수컷	-4935
▁장점	-4936
▁총재	-4937
▁분산	-4938
▁Co	-4939
▁놀이	-4940
▁배열	-4941
▁엄격	-4942
▁강도	-4943
▁자랑	-4944
▁자르	-4945
티스	-4946
▁양국	-4947
▁흔적	-4948
어도	-4949
ain	-4950
▁평면	-4951
▁부리	-4952
▁오케	-4953
▁인민군	-4954
▁우에	-4955
▁다큐	-4956
▁비잔	-4957
▁스톤	-4958
▁편의	-4959
▁봉기	-4960
▁세로	-4961
▁뻗	-4962
성기	-4963
▁늑대	-4964
▁중동	-4965
▁호흡	-4966
▁투스	-4967
▁중계	-4968
▁토너먼트	-4969
AN	-4970
▁장로	-4971
▁엉	-4972
▁불러	-4973
▁부서	-4974
▁힙합	-4975
▁스케이	-4976
▁개찰	-4977
▁페리	-4978
▁일단	-4979
▁젤	-4980
▁83	-4981
데르	-4982
▁경북	-4983
▁메탈	-4984
▁주재	-4985
▁대가	-4986
▁북미	-4987
▁혈액	-4988
▁레닌	-4989
▁De	-4990
▁메르	-4991
▁철거	-4992
▁맨체스터	-4993
조선	-4994
▁추적	-4995
▁대사관	-4996
▁국방부	-4997
▁선로	-4998
ard	-4999
▁재임	-5000
▁동지	-5001
▁한성	-5002
▁나이트	-5003
▁찾아가	-5004
▁요코하마	-5005
리나	-5006
▁강요	-5007
▁대원	-5008
▁안쪽	-5009
▁야당	-5010
▁쌓이	-5011
▁마저	-5012
▁맡기	-5013
▁벼슬	-5014
▁장례	-5015
▁포드	-5016
▁쿠바	-5017
▁경찰서	-5018
▁근육	-5019
고속	-5020
▁주자	-5021
▁함경	-5022
▁마감	-5023
베르크	-5024
제르	-5025
▁판타	-5026
▁아프가니	-5027
▁농장	-5028
▁해설	-5029
▁1934	-5030
▁할아버지	-5031
레오	-5032
▁빵	-5033
키퍼	-5034
▁중지	-5035
크래프트	-5036
야스	-5037
▁거스	-5038
▁발전소	-5039
공업	-5040
▁안내	-5041
▁골키퍼	-5042
▁탓	-5043
세대	-5044
▁접속	-5045
▁노동당	-5046
▁광산	-5047
▁스탈린	-5048
▁시계	-5049
▁닐	-5050
▁느리	-5051
▁코어	-5052
▁입구	-5053
▁구사	-5054
▁밸	-5055
워하	-5056
▁르네	-5057
▁현존	-5058
▁동구	-5059
▁페이스	-5060
▁철학자	-5061
▁떼	-5062
▁리스트	-5063
▁사망자	-5064
▁대동	-5065
▁본토	-5066
▁정조	-5067
▁동메달	-5068
유키	-5069
▁곤충	-5070
▁구로	-5071
▁멈추	-5072
▁얀	-5073
드라	-5074
▁거느리	-5075
아르	-5076
▁글리	-5077
▁130	-5078
▁가볍	-5079
▁뱀	-5080
▁식량	-5081
▁항해	-5082
▁관계자	-5083
▁레지	-5084
▁Me	-5085
▁정확히	-5086
즈니	-5087
▁조문	-5088
▁거점	-5089
▁복사	-5090
▁화합물	-5091
위대	-5092
▁선물	-5093
하이	-5094
▁유키	-5095
▁재판소	-5096
▁토머스	-5097
▁심리학	-5098
▁사카	-5099
▁계수	-5100
ne	-5101
▁140	-5102
▁남극	-5103
▁도쿠가와	-5104
▁부작	-5105
▁부호	-5106
▁아프가니스탄	-5107
▁중성	-5108
▁테르	-5109
▁모노	-5110
▁알렉산더	-5111
▁모자	-5112
▁은메달	-5113
▁증권	-5114
▁Sh	-5115
▁역전	-5116
▁돔	-5117
▁부처	-5118
▁김구	-5119
▁오염	-5120
▁종전	-5121
▁필립	-5122
▁풍속	-5123
▁내려가	-5124
▁독점	-5125
▁새끼	-5126
▁대다수	-5127
보내	-5128
OR	-5129
▁초청	-5130
▁아과	-5131
▁펄	-5132
▁석방	-5133
▁훼	-5134
레아	-5135
▁세금	-5136
▁멸종	-5137
▁휘하	-5138
▁이정	-5139
▁농촌	-5140
▁아비	-5141
▁칼리지	-5142
▁폭풍	-5143
돌프	-5144
▁교향곡	-5145
▁위안	-5146
안군	-5147
▁클래스	-5148
▁체육관	-5149
AM	-5150
▁특별히	-5151
▁합리	-5152
▁건너가	-5153
▁구리	-5154
▁그러므로	-5155
▁리아	-5156
▁필라	-5157
▁th	-5158
▁진동	-5159
레이크	-5160
▁로맨	-5161
▁매주	-5162
▁새벽	-5163
▁히로시마	-5164
▁ST	-5165
베리	-5166
▁파울	-5167
▁성명	-5168
▁커다랗	-5169
▁간격	-5170
▁자유주의	-5171
▁금강	-5172
▁비중	-5173
▁고서	-5174
▁관객	-5175
▁부품	-5176
▁1931	-5177
▁겸하	-5178
▁문재	-5179
▁윤리	-5180
클린	-5181
▁유력	-5182
▁아틀	-5183
▁원조	-5184
▁타카	-5185
▁물리치	-5186
▁그리스어	-5187
사관	-5188
▁기생	-5189
▁그래프	-5190
▁아이스	-5191
all	-5192
▁기병	-5193
▁박근	-5194
▁일곱	-5195
▁존슨	-5196
밀리	-5197
▁달라지	-5198
▁강등	-5199
▁타원	-5200
▁미카	-5201
▁감옥	-5202
▁대결	-5203
▁연호	-5204
▁마그	-5205
▁부드	-5206
▁타점	-5207
느님	-5208
▁명시	-5209
▁특허	-5210
▁훌륭	-5211
▁기르	-5212
▁트랜스	-5213
게이	-5214
▁하느님	-5215
나르	-5216
▁꾼	-5217
▁공세	-5218
▁대변	-5219
▁목포	-5220
▁뚜렷	-5221
▁캠프	-5222
▁찾아오	-5223
▁An	-5224
▁후퇴	-5225
▁cod	-5226
▁유대인	-5227
▁인터페이스	-5228
▁좌파	-5229
▁도메	-5230
▁문법	-5231
▁사관	-5232
▁지휘관	-5233
▁스트라이	-5234
▁공룡	-5235
▁대한제국	-5236
▁250	-5237
▁무늬	-5238
▁버지	-5239
▁비즈	-5240
▁동성애	-5241
▁코트	-5242
▁도망치	-5243
▁1921	-5244
▁해협	-5245
▁가구	-5246
▁집필	-5247
▁176	-5248
▁교도	-5249
▁단장	-5250
▁비틀	-5251
▁유발	-5252
▁고고	-5253
▁네이션	-5254
▁박스	-5255
둥이	-5256
ang	-5257
▁숙종	-5258
▁김대중	-5259
▁소요	-5260
▁하버	-5261
▁칙	-5262
▁킬로	-5263
▁협약	-5264
▁캡	-5265
▁건담	-5266
▁수산	-5267
▁삼각	-5268
▁스테이션	-5269
▁첫째	-5270
▁키스	-5271
생활	-5272
▁수비수	-5273
▁05	-5274
▁극복	-5275
▁약탈	-5276
널드	-5277
▁동반	-5278
▁지칭	-5279
▁1929	-5280
▁빗	-5281
▁성씨	-5282
▁수반	-5283
▁착용	-5284
▁닮	-5285
▁올라오	-5286
▁목숨	-5287
▁미분	-5288
▁연계	-5289
▁입사	-5290
▁원장	-5291
▁부드럽	-5292
▁운동가	-5293
▁덕분	-5294
시스트	-5295
▁의석	-5296
▁일환	-5297
▁평론가	-5298
수량	-5299
▁라트	-5300
▁무겁	-5301
▁곰	-5302
▁틱	-5303
미아	-5304
▁잠재	-5305
▁조화	-5306
▁기갑	-5307
▁갤럭	-5308
▁섬유	-5309
키스	-5310
마이	-5311
▁AC	-5312
▁압축	-5313
▁롬	-5314
투아	-5315
▁매니	-5316
▁발렌	-5317
▁y	-5318
▁타입	-5319
▁경유	-5320
▁지부	-5321
슬리	-5322
▁공국	-5323
▁첸	-5324
▁불화	-5325
▁연상	-5326
ss	-5327
▁살아	-5328
▁쯤	-5329
▁1925	-5330
▁플로리다	-5331
▁중립	-5332
▁과일	-5333
▁성직자	-5334
▁북아메리카	-5335
페인	-5336
▁다다	-5337
▁설비	-5338
▁임신	-5339
▁는다고	-5340
▁1923	-5341
▁안드로이드	-5342
▁램	-5343
▁SC	-5344
▁영감	-5345
▁서적	-5346
▁갤럭시	-5347
▁근로	-5348
베이스	-5349
▁07	-5350
▁장갑	-5351
▁추락	-5352
▁도호	-5353
▁모로	-5354
▁고분	-5355
▁망원경	-5356
▁연평균	-5357
▁이수	-5358
▁레벨	-5359
▁민속	-5360
▁요원	-5361
▁선교사	-5362
▁관리자	-5363
▁라이온	-5364
▁진흥	-5365
▁추대	-5366
▁웨일스	-5367
▁딱	-5368
타카	-5369
▁영혼	-5370
▁트레이	-5371
니즘	-5372
▁가끔	-5373
▁유성	-5374
▁디오	-5375
ity	-5376
▁지역구	-5377
▁남아메리카	-5378
▁모험	-5379
▁우드	-5380
무게	-5381
▁삭제	-5382
▁유비	-5383
▁몸무게	-5384
▁수직	-5385
▁갱	-5386
▁프로세서	-5387
▁캘리포니아주	-5388
▁악장	-5389
카스	-5390
▁샤를	-5391
▁영광	-5392
▁수명	-5393
▁진술	-5394
▁페루	-5395
▁발휘	-5396
대문	-5397
▁동인	-5398
▁시게	-5399
▁제약	-5400
▁주사	-5401
▁하와이	-5402
▁유가	-5403
▁기관차	-5404
▁교과	-5405
▁일자	-5406
▁채권	-5407
▁둔	-5408
▁EP	-5409
▁명사	-5410
▁북서쪽	-5411
▁사당	-5412
▁박근혜	-5413
▁필름	-5414
▁변신	-5415
▁살아남	-5416
▁수상자	-5417
▁161	-5418
▁그랜드	-5419
▁복구	-5420
▁똑같	-5421
▁단선	-5422
▁북극	-5423
▁어항	-5424
▁소설가	-5425
▁사거리	-5426
프란	-5427
▁청동	-5428
▁서인	-5429
ff	-5430
▁엽	-5431
▁어원	-5432
▁카자	-5433
▁음모	-5434
행성	-5435
▁돌파	-5436
▁홀로	-5437
▁다이묘	-5438
▁어워드	-5439
▁프레임	-5440
▁모음	-5441
일본	-5442
▁이조	-5443
▁빅토리아	-5444
▁결심	-5445
▁쇠퇴	-5446
▁주류	-5447
▁압도	-5448
▁종로	-5449
▁꼽히	-5450
▁향토	-5451
▁삼각형	-5452
▁파트너	-5453
▁트럼	-5454
애나	-5455
▁수장	-5456
▁준우	-5457
▁황태	-5458
▁철저	-5459
▁틸	-5460
▁175	-5461
▁바오	-5462
▁레이블	-5463
▁파운드	-5464
▁투구	-5465
▁건축물	-5466
▁가톨릭교회	-5467
▁codice	-5468
즈키	-5469
▁칼리	-5470
▁표지	-5471
▁부탁	-5472
▁여인	-5473
▁도마뱀	-5474
▁파생	-5475
▁랭킹	-5476
▁평생	-5477
▁화가	-5478
▁KT	-5479
▁My	-5480
▁피트	-5481
▁SM	-5482
▁중시	-5483
▁지연	-5484
▁변동	-5485
▁1922	-5486
▁무인	-5487
▁문인	-5488
▁부수	-5489
▁때로	-5490
▁엘리자베스	-5491
▁규슈	-5492
▁동일본	-5493
▁도어	-5494
▁무릎	-5495
태우	-5496
▁토벌	-5497
▁노무	-5498
▁왕가	-5499
부사	-5500
스팅	-5501
▁중구	-5502
▁청하	-5503
타운	-5504
▁각자	-5505
▁라마	-5506
▁유역	-5507
▁WW	-5508
▁de	-5509
▁부유	-5510
▁유용	-5511
▁버지니아	-5512
라이터	-5513
▁리치	-5514
▁없애	-5515
▁직선	-5516
눅스	-5517
IS	-5518
오리	-5519
▁모래	-5520
▁인천광역시	-5521
▁이날	-5522
▁전승	-5523
▁국민당	-5524
▁구미	-5525
▁윤치	-5526
메니아	-5527
▁1912	-5528
▁연령	-5529
▁자치구	-5530
▁고안	-5531
▁죠	-5532
멘트	-5533
▁직위	-5534
▁최상	-5535
▁리눅스	-5536
▁루트비히	-5537
▁공격수	-5538
▁침해	-5539
▁크레	-5540
▁봉사	-5541
▁아기	-5542
▁색상	-5543
▁간섭	-5544
▁납치	-5545
▁무산	-5546
▁다양체	-5547
▁스케이팅	-5548
▁모니	-5549
▁인력	-5550
▁왈	-5551
▁포유	-5552
▁교차로	-5553
▁탐험	-5554
▁JR	-5555
▁노비	-5556
▁패턴	-5557
▁Love	-5558
▁아르메니아	-5559
양군	-5560
▁단행	-5561
▁""	-5562
▁Go	-5563
▁모듈	-5564
▁164	-5565
▁글씨	-5566
▁상무	-5567
▁항목	-5568
▁동아시아	-5569
▁릭	-5570
ong	-5571
▁퍼시	-5572
▁사토	-5573
▁이종	-5574
▁하사	-5575
▁지중해	-5576
▁베타	-5577
▁연소	-5578
▁MV	-5579
▁벨라	-5580
up	-5581
▁영조	-5582
▁전향	-5583
▁교역	-5584
▁삽입	-5585
▁06	-5586
▁상처	-5587
▁장사	-5588
▁블라디	-5589
▁1908	-5590
▁적응	-5591
▁매각	-5592
▁배상	-5593
슬로	-5594
▁토르	-5595
▁제주도	-5596
▁플레	-5597
멘터리	-5598
▁돼지	-5599
▁마카	-5600
▁베토	-5601
▁태자	-5602
ED	-5603
▁과도	-5604
▁목조	-5605
▁수지	-5606
▁호조	-5607
▁자책	-5608
▁출현	-5609
▁1906	-5610
▁1917	-5611
ip	-5612
▁사촌	-5613
▁시아	-5614
▁조명	-5615
OM	-5616
보살	-5617
ld	-5618
▁시외	-5619
▁안양	-5620
▁크림	-5621
▁실점	-5622
도니아	-5623
▁부동산	-5624
▁에스파	-5625
마치	-5626
아리	-5627
▁커피	-5628
▁아가	-5629
야수	-5630
ant	-5631
▁보통학교	-5632
▁03	-5633
▁우루	-5634
▁ㄹ수록	-5635
▁외계	-5636
▁굿	-5637
▁정자	-5638
▁시집	-5639
▁정서	-5640
▁시상식	-5641
▁패러	-5642
▁히가시	-5643
▁육성	-5644
▁참조	-5645
▁비전	-5646
영상	-5647
▁옹호	-5648
▁남동쪽	-5649
▁렉	-5650
▁SN	-5651
▁기하학	-5652
▁준우승	-5653
▁입문	-5654
▁송라이터	-5655
▁앱	-5656
▁우익	-5657
▁폐기	-5658
▁통로	-5659
▁럭	-5660
▁관중	-5661
▁명문	-5662
▁호르	-5663
▁동사	-5664
▁인자	-5665
몬드	-5666
▁기종	-5667
▁싫	-5668
▁몬테	-5669
▁연금	-5670
▁종족	-5671
▁스와	-5672
▁의병	-5673
▁자전거	-5674
▁1927	-5675
▁이토	-5676
▁보좌	-5677
▁체인	-5678
▁정류장	-5679
▁노인	-5680
▁무선	-5681
▁다큐멘터리	-5682
▁배급	-5683
▁적어도	-5684
▁앨런	-5685
▁유인	-5686
▁밀라노	-5687
▁대행	-5688
▁산타	-5689
▁표본	-5690
▁창간	-5691
▁1907	-5692
▁과장	-5693
▁사이클	-5694
▁전작	-5695
▁석조	-5696
▁우크라이나	-5697
▁BBC	-5698
▁북동쪽	-5699
▁사신	-5700
▁최우수	-5701
▁협의회	-5702
▁1926	-5703
▁내장	-5704
▁흙	-5705
튜브	-5706
▁호남	-5707
▁묘지	-5708
▁산악	-5709
▁커지	-5710
페이지	-5711
▁오리지	-5712
AC	-5713
▁탑승	-5714
▁트윈	-5715
▁PD	-5716
▁노조	-5717
▁수감	-5718
▁스틸	-5719
▁예외	-5720
av	-5721
▁슐	-5722
▁험	-5723
이즈	-5724
티움	-5725
▁상영	-5726
▁자문	-5727
▁별로	-5728
▁유닛	-5729
▁포크	-5730
▁스페셜	-5731
▁왕립	-5732
플레이	-5733
스토	-5734
▁유신	-5735
▁유튜브	-5736
▁대교	-5737
▁안보	-5738
▁번식	-5739
▁베토벤	-5740
▁He	-5741
▁유입	-5742
▁주거	-5743
▁168	-5744
▁사료	-5745
▁꺼	-5746
▁세조	-5747
▁합계	-5748
▁헤드	-5749
ind	-5750
▁점성	-5751
▁상하이	-5752
런트	-5753
▁문하	-5754
▁할리	-5755
▁하천	-5756
슬라	-5757
로프	-5758
▁놀라	-5759
▁선제	-5760
▁정사	-5761
▁라이벌	-5762
▁카페	-5763
▁아무런	-5764
▁Sp	-5765
▁대안	-5766
▁버그	-5767
▁홈페이지	-5768
▁지름	-5769
▁드래곤	-5770
▁커뮤니티	-5771
브스	-5772
ame	-5773
다이라	-5774
▁디즈니	-5775
▁문화유산	-5776
▁에릭	-5777
▁레이다	-5778
▁연고지	-5779
생물	-5780
▁머물	-5781
▁꾸미	-5782
▁광역	-5783
▁룩	-5784
▁상세	-5785
▁진지	-5786
▁시에	-5787
▁NHK	-5788
▁요미	-5789
▁좌익	-5790
▁민족주의	-5791
세스	-5792
▁급속	-5793
▁데이터베이스	-5794
▁겨우	-5795
▁자바	-5796
총장	-5797
▁166	-5798
▁레이스	-5799
se	-5800
▁콩고	-5801
▁증기	-5802
▁독일어	-5803
▁십자군	-5804
▁1905	-5805
프란시스코	-5806
▁기름	-5807
▁대조	-5808
▁현황	-5809
▁162	-5810
▁제후	-5811
▁아울	-5812
▁산지	-5813
▁샌프란시스코	-5814
▁원로	-5815
▁나폴리	-5816
▁비평가	-5817
텐도	-5818
▁기압	-5819
▁닌텐도	-5820
▁칩	-5821
▁꾸준히	-5822
▁엄마	-5823
▁색깔	-5824
▁소니	-5825
▁바이올	-5826
▁수수	-5827
▁아크	-5828
▁모집	-5829
▁반환	-5830
▁품질	-5831
▁비단	-5832
ES	-5833
▁주말	-5834
▁151	-5835
▁조선인	-5836
▁도리	-5837
▁진도	-5838
▁출산	-5839
▁특급	-5840
▁쥬	-5841
▁트럭	-5842
ry	-5843
▁물려	-5844
▁묘소	-5845
▁유고슬	-5846
▁유고슬라비아	-5847
▁||	-5848
▁리듬	-5849
▁주파	-5850
▁스승	-5851
려나	-5852
▁가쓰	-5853
▁선진	-5854
▁신비	-5855
▁운명	-5856
▁묻히	-5857
지마	-5858
▁방안	-5859
▁우르	-5860
스티벌	-5861
▁스피드	-5862
무네	-5863
▁원산	-5864
▁정계	-5865
ort	-5866
▁흥미	-5867
▁단층	-5868
▁리얼	-5869
▁플루	-5870
▁마일	-5871
▁야생	-5872
▁지바	-5873
▁페스티벌	-5874
▁뚫	-5875
▁02	-5876
▁주의자	-5877
엘라	-5878
▁역과	-5879
▁와카	-5880
▁바라보	-5881
어트	-5882
▁목격	-5883
▁재무	-5884
▁158	-5885
▁크리스토	-5886
ith	-5887
▁배정	-5888
▁상소	-5889
결승	-5890
나카	-5891
▁셋째	-5892
▁랴	-5893
▁구마	-5894
▁모터	-5895
▁주한	-5896
▁보전	-5897
▁수천	-5898
▁한화	-5899
▁곧바로	-5900
스케	-5901
▁조르	-5902
▁오리지널	-5903
▁동전	-5904
▁문과	-5905
▁이오	-5906
▁협의	-5907
▁렌즈	-5908
▁일행	-5909
▁스테이지	-5910
▁동치	-5911
▁가미	-5912
▁분배	-5913
▁사리	-5914
▁입증	-5915
▁오디션	-5916
▁사면	-5917
▁옛날	-5918
▁급행	-5919
▁이리	-5920
▁적색	-5921
▁토니	-5922
▁챌	-5923
▁도심	-5924
▁운반	-5925
▁한나라	-5926
▁템	-5927
잡히	-5928
▁무관	-5929
▁복제	-5930
▁동영상	-5931
▁쿠르	-5932
▁한나라당	-5933
회의	-5934
▁빨리	-5935
▁인텔	-5936
▁남서쪽	-5937
▁케이블	-5938
ok	-5939
해군	-5940
▁기점	-5941
▁미네	-5942
▁기념물	-5943
리케이션	-5944
▁호환	-5945
프스	-5946
▁문제점	-5947
▁브라이언	-5948
▁지휘자	-5949
▁출판사	-5950
▁베이스볼	-5951
▁사직	-5952
교육	-5953
▁디자이너	-5954
▁날리	-5955
▁향년	-5956
▁예언	-5957
▁교전	-5958
▁되찾	-5959
▁마라	-5960
▁배제	-5961
▁기용	-5962
▁마스	-5963
▁긴급	-5964
▁알라	-5965
▁콜롬비아	-5966
▁서북	-5967
▁직장	-5968
▁연주자	-5969
▁마케도니아	-5970
▁예술가	-5971
▁부패	-5972
프라	-5973
루살	-5974
▁정교	-5975
▁저지르	-5976
▁개수	-5977
▁부시	-5978
▁수면	-5979
▁신임	-5980
▁인치	-5981
▁프랜	-5982
▁회원국	-5983
루살렘	-5984
▁하드웨어	-5985
▁파나	-5986
▁비즈니스	-5987
▁단종	-5988
▁선사	-5989
▁미만	-5990
▁석탑	-5991
▁모순	-5992
▁서경	-5993
▁좌석	-5994
▁도메인	-5995
▁기재	-5996
▁지질	-5997
▁집계	-5998
▁1904	-5999
▁Un	-6000
▁관장	-6001
▁무신	-6002
▁폭스	-6003
▁당사자	-6004
▁스펙트	-6005
▁오타	-6006
▁용기	-6007
▁포맷	-6008
▁판타지	-6009
▁초래	-6010
▁콘스탄티노	-6011
모니	-6012
▁평소	-6013
▁합작	-6014
▁신용	-6015
▁왕족	-6016
▁이력	-6017
쳐지	-6018
▁의거	-6019
▁165	-6020
▁신하	-6021
▁센트럴	-6022
▁마쓰다이라	-6023
▁임상	-6024
▁내륙	-6025
▁트레	-6026
▁스펙트럼	-6027
문학	-6028
▁항일	-6029
▁사로	-6030
▁역명	-6031
▁연애	-6032
▁154	-6033
▁전염	-6034
▁자사	-6035
qu	-6036
ord	-6037
▁Se	-6038
▁챌린	-6039
▁Wh	-6040
▁사르	-6041
ob	-6042
▁가게	-6043
▁계단	-6044
▁예루살렘	-6045
▁AM	-6046
페이	-6047
▁무슬	-6048
▁여동생	-6049
▁이지	-6050
▁입히	-6051
▁권고	-6052
▁용산	-6053
▁이글	-6054
식물	-6055
▁DJ	-6056
경기	-6057
▁자회사	-6058
PS	-6059
▁받침	-6060
▁마케팅	-6061
가스	-6062
▁겹치	-6063
▁사범	-6064
▁바이올린	-6065
▁그랑	-6066
▁번주	-6067
▁상임	-6068
▁무슬림	-6069
▁아인	-6070
▁압박	-6071
▁팅	-6072
우옌	-6073
▁과제	-6074
▁진상	-6075
▁리투아	-6076
▁리투아니아	-6077
▁스쿨	-6078
▁여신	-6079
▁163	-6080
▁167	-6081
디스	-6082
▁156	-6083
ate	-6084
▁900	-6085
▁SF	-6086
▁행정부	-6087
IC	-6088
▁서브	-6089
▁스마트폰	-6090
▁조류	-6091
▁이명박	-6092
▁노무현	-6093
▁니스	-6094
▁발효	-6095
▁혜성	-6096
▁크리스티	-6097
▁교섭	-6098
운서	-6099
▁훼손	-6100
▁가득	-6101
▁타마	-6102
▁파동	-6103
▁서울시	-6104
▁아나운서	-6105
▁부흥	-6106
▁한양	-6107
▁AS	-6108
▁분지	-6109
▁UN	-6110
▁착륙	-6111
▁끼리	-6112
▁장편	-6113
▁저기	-6114
▁깔	-6115
려오	-6116
커스	-6117
▁차관	-6118
랑이	-6119
▁미얀	-6120
▁기아	-6121
▁고립	-6122
▁쇼군	-6123
▁애국	-6124
▁정벌	-6125
▁얼음	-6126
▁조국	-6127
▁게시	-6128
▁식사	-6129
▁예능	-6130
카르	-6131
▁오다	-6132
▁비잔티움	-6133
▁샹	-6134
껍질	-6135
▁바그	-6136
▁비로	-6137
▁대단	-6138
▁충남	-6139
▁스타크래프트	-6140
▁하트	-6141
▁밀접	-6142
▁출구	-6143
▁친정	-6144
▁지주	-6145
▁피렌	-6146
▁우지	-6147
▁부통령	-6148
▁오케스트라	-6149
▁규격	-6150
▁피스	-6151
▁성공회	-6152
▁시달리	-6153
▁씌	-6154
▁유하	-6155
▁진나라	-6156
▁무라	-6157
ET	-6158
▁옌	-6159
지르	-6160
▁용량	-6161
▁차체	-6162
▁디비전	-6163
잡이	-6164
▁구장	-6165
▁융합	-6166
▁간접	-6167
▁브라우	-6168
▁일요일	-6169
▁자마	-6170
▁끄	-6171
▁었었	-6172
▁주립	-6173
▁지장	-6174
▁페어	-6175
킨스	-6176
▁소나	-6177
▁학파	-6178
▁아이디	-6179
▁바티	-6180
▁요크	-6181
로디	-6182
▁귀환	-6183
▁아베	-6184
▁시체	-6185
▁참판	-6186
데이트	-6187
▁성종	-6188
럼비아	-6189
예프	-6190
▁김동	-6191
▁낱	-6192
▁련	-6193
길이	-6194
▁와중	-6195
▁최신	-6196
▁139	-6197
▁알바니아	-6198
▁업데이트	-6199
▁전이	-6200
▁쿠스	-6201
▁농도	-6202
▁두산	-6203
▁몰락	-6204
▁강연	-6205
부인	-6206
ast	-6207
▁발족	-6208
▁선두	-6209
▁점유	-6210
▁맥스	-6211
▁투명	-6212
▁거인	-6213
▁145	-6214
▁제네	-6215
▁월간	-6216
▁개발자	-6217
▁전지	-6218
▁대령	-6219
▁부도	-6220
DP	-6221
▁사사	-6222
▁완화	-6223
▁마천	-6224
▁뜨겁	-6225
▁서열	-6226
▁피렌체	-6227
▁기타리스트	-6228
▁부자	-6229
▁미나미	-6230
▁애플리케이션	-6231
▁스트리트	-6232
▁공용	-6233
▁MVP	-6234
▁마리오	-6235
▁준결승	-6236
랑크	-6237
▁HIV	-6238
▁DS	-6239
▁하노	-6240
트롤	-6241
▁공과	-6242
▁야기	-6243
▁충성	-6244
산물	-6245
▁고조	-6246
▁아세	-6247
▁착수	-6248
레이터	-6249
▁주머니	-6250
▁잊	-6251
▁위주	-6252
트랙	-6253
▁측근	-6254
▁경선	-6255
▁형법	-6256
▁응우옌	-6257
▁중국어	-6258
▁샬	-6259
▁해인	-6260
▁킬로미터	-6261
▁아종	-6262
▁전두	-6263
▁아이디어	-6264
if	-6265
수아	-6266
▁보드	-6267
▁마산	-6268
▁시드니	-6269
▁공전	-6270
▁이슈	-6271
▁전류	-6272
▁관찰사	-6273
▁게이트	-6274
▁흥행	-6275
IT	-6276
▁넬	-6277
▁중도	-6278
▁몸길이	-6279
트니	-6280
▁해전	-6281
▁관광객	-6282
▁비아	-6283
▁사바	-6284
▁굉	-6285
▁IP	-6286
▁뱅크	-6287
▁턴	-6288
▁검증	-6289
▁규명	-6290
▁중독	-6291
▁지각	-6292
ive	-6293
▁요미우리	-6294
악기	-6295
▁전임	-6296
▁이에	-6297
란트	-6298
▁소송법	-6299
▁1896	-6300
ack	-6301
▁거스르	-6302
카드	-6303
▁관습	-6304
주곡	-6305
▁로빈	-6306
▁책봉	-6307
▁연수	-6308
▁노동조합	-6309
어내	-6310
▁서일본	-6311
▁좌표	-6312
리티	-6313
▁천문학	-6314
ure	-6315
▁권유	-6316
▁구동	-6317
▁인과	-6318
▁피에르	-6319
균관	-6320
▁메디	-6321
▁제의	-6322
▁마운	-6323
▁친선	-6324
▁백신	-6325
▁젖	-6326
▁사명	-6327
▁실용	-6328
▁세례	-6329
▁정찰	-6330
▁174	-6331
▁여덟	-6332
▁오렌	-6333
▁통행	-6334
▁석탄	-6335
▁스콧	-6336
츠키	-6337
▁디젤	-6338
▁수신	-6339
▁수학자	-6340
▁우즈	-6341
▁플라스	-6342
▁뷔	-6343
▁사인	-6344
▁쇼핑	-6345
▁피난	-6346
▁복소	-6347
폴리스	-6348
▁프로세스	-6349
▁옐	-6350
루미	-6351
ock	-6352
▁자율	-6353
▁짙	-6354
토미	-6355
▁성벽	-6356
▁존경	-6357
▁청와	-6358
▁152	-6359
▁둘러싸이	-6360
▁전장	-6361
▁행진	-6362
▁다이아	-6363
▁살아가	-6364
▁5000	-6365
▁시외버스	-6366
iv	-6367
▁꼴	-6368
▁조용	-6369
▁테오	-6370
▁리오	-6371
▁테일러	-6372
▁로고	-6373
▁미하	-6374
ck	-6375
▁저기압	-6376
▁전진	-6377
▁청와대	-6378
▁전문학교	-6379
▁시라	-6380
▁신칸	-6381
▁자손	-6382
▁판매량	-6383
▁회수	-6384
▁Ar	-6385
▁고사	-6386
▁미스터	-6387
▁번뇌	-6388
▁157	-6389
▁ㄹ까	-6390
▁염색	-6391
▁과목	-6392
▁유년	-6393
▁장성	-6394
문관	-6395
▁금성	-6396
▁신전	-6397
▁MP	-6398
▁취약	-6399
▁독립운동가	-6400
▁곁	-6401
▁밀양	-6402
▁구제	-6403
▁퇴각	-6404
▁준공	-6405
▁자면	-6406
▁한강	-6407
▁얼마나	-6408
혁명	-6409
▁카나	-6410
▁기울이	-6411
▁동남아시아	-6412
▁뿔	-6413
▁상상	-6414
▁관현	-6415
▁급진	-6416
창기	-6417
▁비극	-6418
▁무효	-6419
▁빌헬	-6420
▁지분	-6421
12	-6422
▁관념	-6423
▁제휴	-6424
▁고개	-6425
▁루수	-6426
▁킨	-6427
가루	-6428
▁승차	-6429
▁호평	-6430
외선	-6431
▁적대	-6432
▁여의	-6433
▁카시	-6434
▁히스	-6435
▁하버드	-6436
▁쇄	-6437
포스	-6438
▁국어	-6439
▁해임	-6440
산군	-6441
▁유출	-6442
▁악마	-6443
▁장인	-6444
▁할당	-6445
▁대외	-6446
▁식당	-6447
▁창업	-6448
▁파스	-6449
▁문재인	-6450
▁성균관	-6451
▁동위	-6452
▁루터	-6453
▁일화	-6454
끄럽	-6455
일드	-6456
▁응답	-6457
▁연구자	-6458
▁프로토콜	-6459
▁가즈	-6460
▁끈	-6461
수수	-6462
▁김용	-6463
▁j	-6464
▁나미	-6465
▁마찰	-6466
니스트	-6467
▁쏟	-6468
▁이순	-6469
▁메가	-6470
▁아울러	-6471
전자	-6472
▁서독	-6473
메르	-6474
▁PS	-6475
▁연루	-6476
▁박영	-6477
▁희극	-6478
▁외무	-6479
▁소총	-6480
▁힘쓰	-6481
▁WWE	-6482
▁신칸센	-6483
▁상류	-6484
▁성전	-6485
▁패전	-6486
델피아	-6487
원숭이	-6488
▁105	-6489
▁필라델피아	-6490
악단	-6491
▁매출	-6492
▁남인	-6493
▁에티	-6494
▁소금	-6495
▁125	-6496
▁146	-6497
▁1500	-6498
▁니아	-6499
하르트	-6500
▁MC	-6501
▁이노	-6502
▁청사	-6503
▁쳐	-6504
▁소지	-6505
▁여수	-6506
자와	-6507
▁믿음	-6508
▁휩	-6509
▁노드	-6510
▁들리	-6511
▁따위	-6512
▁남양	-6513
▁마오	-6514
▁오클	-6515
▁우정	-6516
▁3000	-6517
▁달아나	-6518
▁항공모	-6519
▁예배	-6520
▁흩	-6521
▁두드	-6522
▁술탄	-6523
▁적히	-6524
▁히라	-6525
팩트	-6526
▁강사	-6527
▁저택	-6528
▁개원	-6529
▁소닉	-6530
▁힌두	-6531
▁아니하	-6532
▁단점	-6533
▁매개	-6534
▁중점	-6535
▁환원	-6536
▁추모	-6537
▁원나라	-6538
▁충족	-6539
▁착공	-6540
▁폴리스	-6541
▁1911	-6542
▁153	-6543
라트	-6544
▁배구	-6545
▁자고	-6546
AP	-6547
one	-6548
▁윌슨	-6549
▁유언	-6550
▁증후	-6551
고속도로	-6552
▁이이	-6553
▁Le	-6554
▁여래	-6555
▁우주선	-6556
▁초창기	-6557
▁민국	-6558
▁하마	-6559
ime	-6560
▁단원	-6561
▁포장	-6562
▁자책점	-6563
▁지지자	-6564
서양	-6565
▁천사	-6566
▁고무	-6567
▁반격	-6568
▁법령	-6569
ML	-6570
네이	-6571
▁보잉	-6572
▁조언	-6573
▁카트	-6574
▁참가자	-6575
▁소관	-6576
▁회계	-6577
▁서서	-6578
▁얇	-6579
▁순천	-6580
▁아즈	-6581
▁곳곳	-6582
▁두르	-6583
▁이복	-6584
▁나열	-6585
▁소재지	-6586
▁고원	-6587
▁일렉	-6588
▁Pro	-6589
▁매기	-6590
▁출입구	-6591
OC	-6592
▁석가	-6593
▁성모	-6594
▁제트	-6595
▁편곡	-6596
▁주권	-6597
▁회화	-6598
▁103	-6599
▁별자리	-6600
▁친척	-6601
▁떠오르	-6602
상스	-6603
▁기장	-6604
▁사지	-6605
▁갈라지	-6606
▁미얀마	-6607
▁내내	-6608
▁지목	-6609
▁비틀즈	-6610
▁회견	-6611
▁빌헬름	-6612
▁카자흐	-6613
▁눈물	-6614
▁디비	-6615
▁연인	-6616
제프	-6617
▁리메	-6618
▁강수량	-6619
대군	-6620
토시	-6621
▁환상	-6622
▁찾아보	-6623
▁이글스	-6624
▁셈	-6625
▁공략	-6626
▁와인	-6627
▁정치가	-6628
▁가라	-6629
▁클린	-6630
노프	-6631
▁개업	-6632
▁고베	-6633
▁근접	-6634
▁점프	-6635
▁최적	-6636
▁패스	-6637
▁공자	-6638
▁유해	-6639
▁중장	-6640
▁이원	-6641
동물	-6642
펴보	-6643
▁살펴보	-6644
즈카	-6645
▁채무	-6646
▁나리	-6647
▁매사	-6648
▁우편	-6649
▁인격	-6650
▁주파수	-6651
▁공인	-6652
▁보충	-6653
▁특유	-6654
▁오디오	-6655
▁민사	-6656
▁취재	-6657
▁후자	-6658
▁ISO	-6659
▁선원	-6660
▁일관	-6661
▁진리	-6662
▁테스	-6663
▁컨트롤	-6664
▁굵	-6665
▁협동	-6666
▁양상	-6667
▁위장	-6668
▁인형	-6669
어리	-6670
▁토크	-6671
▁실종	-6672
▁터지	-6673
▁삿	-6674
▁오렌지	-6675
▁닭	-6676
▁얘	-6677
▁레전	-6678
▁상자	-6679
소스	-6680
▁버튼	-6681
▁시립	-6682
▁중종	-6683
▁증후군	-6684
기니	-6685
노리	-6686
▁해역	-6687
▁이영	-6688
▁항공모함	-6689
▁허브	-6690
▁트라이	-6691
▁155	-6692
▁겸임	-6693
▁카타	-6694
te	-6695
▁별개	-6696
▁대답	-6697
▁민영	-6698
▁승무원	-6699
▁법무	-6700
▁토리	-6701
▁각본가	-6702
▁룰	-6703
▁나고	-6704
▁게재	-6705
▁담배	-6706
▁아군	-6707
▁지우	-6708
▁이어서	-6709
▁르네상스	-6710
▁유격	-6711
▁합법	-6712
리크	-6713
받침	-6714
▁오키나	-6715
▁각기	-6716
▁전례	-6717
▁평행	-6718
▁생일	-6719
io	-6720
마사	-6721
▁미소	-6722
▁성주	-6723
▁유교	-6724
▁동등	-6725
▁빼앗기	-6726
▁사가	-6727
▁스파이	-6728
플러	-6729
▁사물	-6730
▁두드러지	-6731
▁Bo	-6732
▁격렬	-6733
▁밭	-6734
시온	-6735
▁이인	-6736
▁태우	-6737
▁연도	-6738
▁#	-6739
▁108	-6740
▁Con	-6741
▁아리스	-6742
▁맵	-6743
▁앞면	-6744
▁아바	-6745
▁베르크	-6746
▁쉐	-6747
▁포수	-6748
▁일족	-6749
▁호칭	-6750
▁북동부	-6751
▁사우디아	-6752
▁전두환	-6753
▁매력	-6754
▁연혁	-6755
▁영동	-6756
▁이바	-6757
▁자발	-6758
▁캠페인	-6759
▁스터	-6760
시티	-6761
▁금액	-6762
▁복장	-6763
▁서해	-6764
▁이슬람교	-6765
▁고체	-6766
▁드라이브	-6767
▁히데요시	-6768
모어	-6769
▁감지	-6770
▁IT	-6771
▁에디	-6772
▁해운	-6773
▁토요일	-6774
▁미루	-6775
▁화살	-6776
▁하우	-6777
베이터	-6778
pe	-6779
▁세균	-6780
▁야간	-6781
▁에우	-6782
▁트럼프	-6783
▁입상	-6784
▁레이저	-6785
▁박탈	-6786
▁상장	-6787
ber	-6788
▁메타	-6789
▁외곽	-6790
▁홍수	-6791
▁개찰구	-6792
▁갓	-6793
▁건의	-6794
▁내지	-6795
▁배틀	-6796
▁퍼시픽	-6797
▁아케	-6798
▁생명체	-6799
▁이사장	-6800
▁일찍이	-6801
▁크리스마스	-6802
때로	-6803
항공	-6804
▁교장	-6805
▁상대방	-6806
Pa	-6807
▁교단	-6808
▁조리	-6809
▁유니폼	-6810
산면	-6811
산리	-6812
▁나고야	-6813
▁캐스팅	-6814
▁콜라	-6815
▁향후	-6816
▁에이스	-6817
러미	-6818
화점	-6819
▁브래	-6820
▁상부	-6821
▁추격	-6822
라이트	-6823
▁외국어	-6824
퍼니	-6825
▁고발	-6826
▁서서히	-6827
다드	-6828
▁만세	-6829
▁앙리	-6830
▁일생	-6831
▁시청자	-6832
▁하인리히	-6833
▁치세	-6834
▁김영삼	-6835
▁꾀	-6836
▁궁정	-6837
▁아우구	-6838
라미	-6839
▁기금	-6840
▁싸이	-6841
▁호세	-6842
▁가계	-6843
▁골프	-6844
▁다중	-6845
▁가르침	-6846
▁대주교	-6847
▁때때로	-6848
▁톈	-6849
▁전도	-6850
▁트위	-6851
▁128	-6852
ge	-6853
▁1909	-6854
집합	-6855
▁어드	-6856
▁유소년	-6857
▁섞이	-6858
▁운동장	-6859
▁최저	-6860
가타	-6861
▁슬라	-6862
칠리아	-6863
▁긴장	-6864
▁안장	-6865
▁부착	-6866
▁사다	-6867
▁149	-6868
▁사이버	-6869
▁명의	-6870
▁발현	-6871
▁속성	-6872
▁트루	-6873
▁레전드	-6874
구장	-6875
▁102	-6876
▁무려	-6877
▁중재	-6878
▁물자	-6879
▁섭취	-6880
▁건축가	-6881
▁주지사	-6882
▁보스니아	-6883
▁방침	-6884
언스	-6885
행위	-6886
▁Bl	-6887
▁텍스트	-6888
람회	-6889
▁그만두	-6890
▁대군	-6891
▁향교	-6892
▁사우디아라비아	-6893
▁개관	-6894
▁고가	-6895
▁발원	-6896
▁여진	-6897
▁사용자	-6898
▁세미	-6899
▁수성	-6900
▁계절	-6901
▁정밀	-6902
▁팽창	-6903
▁자유당	-6904
▁셸	-6905
▁피고	-6906
▁송나라	-6907
▁남한	-6908
▁원자로	-6909
▁초연	-6910
▁포도주	-6911
▁에스파냐	-6912
▁댐	-6913
▁직책	-6914
▁네이버	-6915
▁제작자	-6916
▁존중	-6917
▁GT	-6918
▁짜리	-6919
▁후안	-6920
▁자마자	-6921
▁기수	-6922
▁문양	-6923
▁시오	-6924
▁전대	-6925
▁캄보	-6926
트릭	-6927
먼드	-6928
▁키프	-6929
▁중국인	-6930
▁펼쳐지	-6931
iz	-6932
백과	-6933
▁단기	-6934
AD	-6935
▁차남	-6936
▁토스	-6937
▁사절	-6938
▁여주	-6939
▁탐지	-6940
▁병역	-6941
▁강경	-6942
▁포괄	-6943
▁고래	-6944
▁입체	-6945
▁취지	-6946
▁딩	-6947
▁수평	-6948
▁아미타	-6949
▁룽	-6950
▁낙선	-6951
▁동독	-6952
▁숭배	-6953
▁객관	-6954
▁계몽	-6955
▁흘러	-6956
▁턱	-6957
▁며칠	-6958
▁태생	-6959
▁청장	-6960
▁CPU	-6961
age	-6962
▁토마	-6963
▁$	-6964
사기	-6965
▁경과	-6966
▁엘리베이터	-6967
▁아미노	-6968
▁최소한	-6969
▁넓히	-6970
▁대니	-6971
▁보리	-6972
▁볼리	-6973
▁메인	-6974
▁충주	-6975
▁컬러	-6976
▁손가락	-6977
▁팔레스	-6978
서리	-6979
▁그랑프리	-6980
▁로프	-6981
▁수군	-6982
▁왜성	-6983
수엘라	-6984
orld	-6985
▁뢰	-6986
▁프랭크	-6987
▁갑작	-6988
▁블루스	-6989
▁뽑히	-6990
▁음원	-6991
차례	-6992
▁침몰	-6993
▁명목	-6994
▁조반	-6995
▁127	-6996
▁겔	-6997
▁경부	-6998
▁굉장	-6999
▁무죄	-7000
▁촉구	-7001
▁147	-7002
▁추상	-7003
▁하이드	-7004
▁디스플레이	-7005
▁김재	-7006
▁심의	-7007
▁제곱	-7008
▁팜	-7009
라리	-7010
▁리메이크	-7011
▁타이거즈	-7012
울리	-7013
▁북방	-7014
▁전함	-7015
▁진군	-7016
노부	-7017
▁스릴	-7018
▁시그	-7019
▁알코	-7020
▁분광	-7021
▁추증	-7022
▁부천	-7023
▁171	-7024
▁로맨스	-7025
▁난민	-7026
▁북구	-7027
▁수렴	-7028
▁저명	-7029
▁효력	-7030
▁1915	-7031
▁머신	-7032
▁케네	-7033
▁오키나와	-7034
▁노란색	-7035
▁언론인	-7036
▁센서	-7037
포트	-7038
▁마비	-7039
▁마하	-7040
▁베네수엘라	-7041
우라	-7042
▁라파	-7043
▁어업	-7044
▁모스	-7045
▁후일	-7046
▁협조	-7047
▁신흥	-7048
▁전성기	-7049
▁투르크	-7050
▁김수	-7051
▁서사	-7052
자스	-7053
▁수동	-7054
▁테니스	-7055
두르	-7056
▁종결	-7057
▁주축	-7058
▁황해	-7059
▁문학상	-7060
▁윌리엄스	-7061
▁1913	-7062
▁위키백과	-7063
기지	-7064
석기	-7065
▁동당	-7066
▁결선	-7067
▁원반	-7068
ik	-7069
▁원고	-7070
▁타르	-7071
▁네이션스	-7072
▁창건	-7073
트리올	-7074
▁세계관	-7075
▁몬트리올	-7076
▁옥스	-7077
▁풍경	-7078
▁이민자	-7079
EN	-7080
창군	-7081
▁김진	-7082
크리트	-7083
▁트윈스	-7084
▁천문학자	-7085
▁SP	-7086
▁따뜻	-7087
▁개미	-7088
▁상당수	-7089
▁이어받	-7090
무기	-7091
▁부과	-7092
▁인재	-7093
▁재미	-7094
▁청원	-7095
▁코프	-7096
▁대처	-7097
▁반박	-7098
▁창시	-7099
▁공직	-7100
▁출토	-7101
▁낮추	-7102
▁탈환	-7103
▁태수	-7104
▁내주	-7105
▁동래	-7106
▁둘레	-7107
▁프레스	-7108
▁스핀	-7109
▁아폴	-7110
▁스파르타	-7111
▁대포	-7112
▁언제나	-7113
▁닿	-7114
▁광년	-7115
▁기습	-7116
▁대역	-7117
▁바흐	-7118
▁시공	-7119
▁예시	-7120
자치도	-7121
▁아이템	-7122
▁제주특별	-7123
▁제주특별자치도	-7124
sp	-7125
▁동년	-7126
▁섭정	-7127
▁유수	-7128
MS	-7129
▁이틀	-7130
▁169	-7131
▁강과	-7132
▁비문	-7133
▁쓰러지	-7134
포구	-7135
▁동력	-7136
▁수령	-7137
▁주차	-7138
▁카탈	-7139
▁링컨	-7140
▁정무	-7141
▁김태	-7142
▁울리	-7143
▁이진	-7144
선거	-7145
공신	-7146
▁Tr	-7147
명사전	-7148
▁1895	-7149
▁남원	-7150
▁지폐	-7151
▁통칭	-7152
▁폐위	-7153
▁나가사키	-7154
▁후대	-7155
▁자기장	-7156
▁초상화	-7157
▁온천	-7158
▁유연	-7159
▁팔레스타인	-7160
▁무제	-7161
▁엔지	-7162
▁적자	-7163
▁캄보디아	-7164
▁광부	-7165
▁번영	-7166
▁식별	-7167
▁신세	-7168
▁딴	-7169
▁든지	-7170
▁별칭	-7171
▁후세	-7172
그라드	-7173
▁찾아내	-7174
▁총선거	-7175
▁나르	-7176
▁대제	-7177
▁양주	-7178
네스코	-7179
▁141	-7180
여지	-7181
평군	-7182
▁하부	-7183
▁사회학	-7184
▁아사히	-7185
▁다운로드	-7186
▁장학	-7187
▁정말	-7188
▁베어스	-7189
▁al	-7190
▁hPa	-7191
▁흩어지	-7192
보기	-7193
▁고백	-7194
▁국사	-7195
▁때리	-7196
▁무상	-7197
▁차종	-7198
▁법제	-7199
▁북위	-7200
▁어스	-7201
▁걱	-7202
▁탤	-7203
▁수용소	-7204
벌레	-7205
와라	-7206
▁나주	-7207
▁아틀레	-7208
▁총괄	-7209
▁135	-7210
▁날짜	-7211
▁한동안	-7212
▁께서	-7213
▁여파	-7214
ust	-7215
▁서머	-7216
▁십자가	-7217
▁해병대	-7218
박쥐	-7219
▁민회	-7220
▁소실	-7221
▁에다	-7222
▁차기	-7223
▁도호쿠	-7224
▁리버풀	-7225
▁끊임	-7226
▁바실	-7227
▁영리	-7228
▁파업	-7229
▁북서부	-7230
▁풋볼	-7231
▁NC	-7232
▁관람	-7233
▁장미	-7234
키지	-7235
▁삼진	-7236
▁정전	-7237
▁111	-7238
▁교원	-7239
▁그로	-7240
▁대위	-7241
▁첨가	-7242
▁문화방송	-7243
▁천도	-7244
▁카리브	-7245
▁원내	-7246
▁신중	-7247
▁144	-7248
GC	-7249
▁오빠	-7250
▁중순	-7251
▁캉	-7252
선스	-7253
▁서울대	-7254
▁컴퍼니	-7255
▁소환	-7256
▁김포	-7257
▁CE	-7258
▁귀중	-7259
▁조달	-7260
▁휴전	-7261
▁큰	-7262
int	-7263
▁CO	-7264
▁위임	-7265
▁면하	-7266
ep	-7267
▁더글	-7268
▁언더	-7269
▁도스	-7270
▁제수	-7271
▁함유	-7272
▁몰아내	-7273
▁내외	-7274
▁119	-7275
니치	-7276
▁교양	-7277
▁루시	-7278
▁이광	-7279
▁휴식	-7280
▁스티브	-7281
▁모방	-7282
▁덤	-7283
▁기요	-7284
▁외교관	-7285
▁신기	-7286
▁의상	-7287
▁컬럼비아	-7288
▁구이	-7289
▁드럼	-7290
▁불편	-7291
▁선구	-7292
▁TH	-7293
▁간호	-7294
▁알아	-7295
▁인산	-7296
▁중소	-7297
▁연세대	-7298
따르	-7299
루션	-7300
푸스	-7301
▁당일	-7302
▁두루	-7303
▁명백	-7304
▁실전	-7305
▁카이사르	-7306
그로	-7307
▁TO	-7308
리케인	-7309
▁신학교	-7310
▁아레나	-7311
▁정렬	-7312
케이션	-7313
▁신학자	-7314
누엘	-7315
▁평하	-7316
ib	-7317
▁룡	-7318
▁관통	-7319
▁드라	-7320
▁병조	-7321
▁It	-7322
▁걱정	-7323
▁공모	-7324
▁매카	-7325
▁총대	-7326
▁할리우드	-7327
▁허리케인	-7328
▁선종	-7329
▁아벨	-7330
▁요르	-7331
▁총사	-7332
▁충실	-7333
▁다니엘	-7334
▁스페이스	-7335
▁편리	-7336
▁스릴러	-7337
릴라	-7338
▁해수	-7339
▁마이너	-7340
▁라이선스	-7341
▁유니버	-7342
▁케네디	-7343
▁케이스	-7344
▁꽤	-7345
▁마인	-7346
▁평야	-7347
▁172	-7348
▁공채	-7349
▁쇼트	-7350
▁테레	-7351
▁콘크리트	-7352
스럽	-7353
▁김상	-7354
▁평일	-7355
▁엔지니어	-7356
▁유네스코	-7357
▁껍질	-7358
▁미주	-7359
▁미즈	-7360
ome	-7361
▁We	-7362
▁우연히	-7363
▁인연	-7364
▁역설	-7365
▁고민	-7366
▁미토	-7367
▁바퀴	-7368
▁소통	-7369
▁NBA	-7370
시로	-7371
▁베드	-7372
▁슈트	-7373
▁구조물	-7374
▁장난	-7375
▁항소	-7376
▁리어	-7377
▁묘역	-7378
▁영남	-7379
▁106	-7380
▁공의회	-7381
페르	-7382
▁연패	-7383
▁제갈	-7384
▁좌절	-7385
▁증진	-7386
▁장안	-7387
▁도주	-7388
▁서남	-7389
▁바리	-7390
▁애덤	-7391
▁중량	-7392
▁니콜라	-7393
▁바이오	-7394
▁승점	-7395
▁의의	-7396
▁지혜	-7397
▁시나리오	-7398
▁오세	-7399
▁친일인	-7400
▁친일인명사전	-7401
▁등재	-7402
▁보완	-7403
▁진짜	-7404
▁해변	-7405
▁돌연	-7406
▁장려	-7407
▁아이슬	-7408
▁에스토	-7409
▁콰	-7410
ian	-7411
▁공단	-7412
▁전압	-7413
▁배신	-7414
▁우울	-7415
▁평범	-7416
▁페르난	-7417
▁고수	-7418
▁애틀	-7419
▁초과	-7420
▁합창	-7421
▁한성부	-7422
▁쿤	-7423
ude	-7424
▁단식	-7425
▁닷	-7426
▁에버	-7427
▁열대	-7428
▁표명	-7429
▁우라늄	-7430
▁오비	-7431
▁프랑수아	-7432
▁낱말	-7433
내셔널	-7434
▁황태자	-7435
▁인터내셔널	-7436
나리	-7437
▁양도	-7438
▁지능	-7439
▁탱크	-7440
▁그루	-7441
▁마츠	-7442
▁방패	-7443
▁부채	-7444
▁생전	-7445
▁치열	-7446
▁포격	-7447
라이더	-7448
▁멋	-7449
▁잦	-7450
ire	-7451
치오	-7452
▁부재	-7453
주의자	-7454
▁차이점	-7455
실록	-7456
▁책임자	-7457
블로	-7458
▁로열	-7459
▁발트	-7460
▁아이슬란드	-7461
▁입지	-7462
▁라이온즈	-7463
세츠	-7464
유행	-7465
▁영장	-7466
▁격투	-7467
▁투르	-7468
▁횟	-7469
▁훔	-7470
▁레바	-7471
▁마약	-7472
▁나스	-7473
▁도르	-7474
▁상서	-7475
ere	-7476
▁동문	-7477
▁업계	-7478
▁충북	-7479
▁호위	-7480
▁매사추	-7481
말라	-7482
▁봉쇄	-7483
▁매사추세츠	-7484
▁HT	-7485
▁대웅	-7486
▁요하	-7487
▁통근	-7488
▁불명	-7489
▁암석	-7490
▁파장	-7491
▁첼시	-7492
▁개그	-7493
▁낭만	-7494
▁호프	-7495
▁고령	-7496
▁다항	-7497
▁생식	-7498
▁어휘	-7499
▁배터리	-7500
▁괴롭	-7501
▁스페인어	-7502
▁일조	-7503
▁신속	-7504
▁위탁	-7505
▁중추원	-7506
▁에스토니아	-7507
▁닝	-7508
ace	-7509
▁김기	-7510
▁도라	-7511
▁리비아	-7512
▁기어	-7513
▁퍼센트	-7514
IM	-7515
▁상담	-7516
▁시흥	-7517
▁소유자	-7518
▁다치	-7519
▁사슬	-7520
▁조이	-7521
▁오피스	-7522
▁교외	-7523
▁오노	-7524
ide	-7525
▁섬기	-7526
▁친왕	-7527
▁특집	-7528
▁협주곡	-7529
▁대전광역시	-7530
▁탈당	-7531
ment	-7532
▁밟	-7533
▁신생	-7534
번스	-7535
▁도루	-7536
▁서정	-7537
▁평택	-7538
오피아	-7539
▁에티오피아	-7540
의자	-7541
제리	-7542
▁어쩌	-7543
▁조연	-7544
바이잔	-7545
▁지선	-7546
▁출처	-7547
▁해소	-7548
▁파이어	-7549
▁닛폰	-7550
▁친하	-7551
▁오사	-7552
▁내려지	-7553
▁슬로바키아	-7554
▁".	-7555
▁육지	-7556
▁재위	-7557
▁견디	-7558
▁기인	-7559
▁얘기	-7560
▁여지	-7561
▁창고	-7562
▁현금	-7563
▁물리학자	-7564
마드	-7565
위원	-7566
▁줄리	-7567
▁추세	-7568
▁아제르	-7569
▁명제	-7570
▁중심부	-7571
석탑	-7572
▁순회	-7573
▁시선	-7574
▁신탁	-7575
▁패키지	-7576
▁우루과이	-7577
▁성운	-7578
▁하락	-7579
▁치즈	-7580
층석탑	-7581
▁실시간	-7582
▁이사회	-7583
▁아제르바이잔	-7584
▁푼	-7585
중국	-7586
▁세션	-7587
▁응원	-7588
▁전라도	-7589
바야	-7590
▁병행	-7591
▁추출	-7592
아이	-7593
▁부적	-7594
▁국무총리	-7595
▁극동	-7596
▁어다	-7597
▁을지	-7598
▁148	-7599
▁시초	-7600
▁입당	-7601
▁주행	-7602
▁끓	-7603
▁어라	-7604
▁의뢰	-7605
▁즈음	-7606
▁결혼식	-7607
▁아드	-7608
▁의약	-7609
지리아	-7610
▁1916	-7611
▁나이지리아	-7612
▁구도	-7613
▁신념	-7614
▁호기	-7615
▁흘리	-7616
▁브라우저	-7617
▁136	-7618
▁지류	-7619
▁스튜어트	-7620
▁갈리	-7621
▁유동	-7622
▁박해	-7623
▁워드	-7624
▁허리	-7625
하면	-7626
▁객체	-7627
▁동상	-7628
▁바닷	-7629
▁서재	-7630
▁쌍둥이	-7631
▁가로지르	-7632
▁DC	-7633
▁산림	-7634
▁수습	-7635
▁펌	-7636
▁비리	-7637
▁구호	-7638
▁덮이	-7639
▁작센	-7640
▁대의원	-7641
▁애틀랜	-7642
▁면허	-7643
▁해밀	-7644
▁알아내	-7645
▁원숭이	-7646
▁휴스턴	-7647
▁솜	-7648
▁바스	-7649
▁IBM	-7650
시피	-7651
▁막내	-7652
▁포터	-7653
▁LP	-7654
▁격퇴	-7655
▁경연	-7656
▁고소	-7657
▁리틀	-7658
▁우세	-7659
▁동이	-7660
▁딕	-7661
▁실장	-7662
▁택시	-7663
▁앓	-7664
▁분당	-7665
▁라이언	-7666
▁노부나가	-7667
▁약칭	-7668
▁해적	-7669
▁삼국지	-7670
▁신한	-7671
▁백색	-7672
▁사헌	-7673
▁중위	-7674
▁급격히	-7675
▁백화점	-7676
▁라이브러리	-7677
▁가동	-7678
▁저하	-7679
▁냉각	-7680
▁안성	-7681
바다	-7682
승지	-7683
▁기단	-7684
▁반감	-7685
▁데이비스	-7686
▁전념	-7687
람쥐	-7688
▁되게	-7689
▁신규	-7690
▁현종	-7691
▁138	-7692
▁시칠리아	-7693
▁가면	-7694
▁그램	-7695
▁회고	-7696
▁아마도	-7697
▁평원	-7698
▁거론	-7699
▁도미	-7700
▁한스	-7701
▁리우스	-7702
파르	-7703
▁구릉	-7704
▁깨달	-7705
▁성숙	-7706
▁시즈	-7707
▁360	-7708
▁대표작	-7709
▁중성자	-7710
▁안기	-7711
▁도장	-7712
▁토성	-7713
▁솟	-7714
▁만남	-7715
▁횟수	-7716
▁영의정	-7717
타로	-7718
▁고성	-7719
양함	-7720
▁페르디	-7721
▁돌려	-7722
▁라트비아	-7723
거지	-7724
▁la	-7725
▁감리	-7726
▁레논	-7727
▁복선	-7728
▁이세	-7729
▁혈통	-7730
cl	-7731
▁주이	-7732
▁탐구	-7733
▁트래	-7734
▁후쿠시마	-7735
▁거제	-7736
▁돌보	-7737
▁오해	-7738
▁가짜	-7739
▁극히	-7740
▁외치	-7741
▁치명	-7742
▁사헌부	-7743
▁상공	-7744
▁모니터	-7745
▁혀	-7746
▁춘천	-7747
▁환영	-7748
▁뭉	-7749
▁임용	-7750
▁어울리	-7751
▁테이블	-7752
토모	-7753
▁AK	-7754
▁춘추	-7755
타나	-7756
▁게르만	-7757
▁반도체	-7758
▁후방	-7759
▁거행	-7760
▁스톡	-7761
▁아부	-7762
▁104	-7763
▁옴	-7764
래스카	-7765
▁순교	-7766
▁적분	-7767
▁사우루스	-7768
▁릉	-7769
여래	-7770
타고	-7771
▁En	-7772
▁동점	-7773
▁이식	-7774
▁재현	-7775
▁주가	-7776
▁방송사	-7777
▁최상위	-7778
▁피에	-7779
▁CON	-7780
▁성체	-7781
▁최악	-7782
▁익히	-7783
▁대학생	-7784
▁명령어	-7785
대신	-7786
데시	-7787
▁비시	-7788
▁산란	-7789
푸르트	-7790
▁나비	-7791
▁목판	-7792
▁스트레스	-7793
▁리라	-7794
▁고인	-7795
▁그날	-7796
▁데모	-7797
▁송시	-7798
▁제독	-7799
▁피츠	-7800
▁교황청	-7801
▁주주	-7802
▁차장	-7803
▁한쪽	-7804
▁109	-7805
브레	-7806
▁칼라	-7807
베르토	-7808
어버리	-7809
회장	-7810
▁부당	-7811
▁잔류	-7812
▁폭동	-7813
곡리	-7814
▁루프	-7815
마쓰	-7816
ark	-7817
▁반경	-7818
▁올바르	-7819
고쿠	-7820
하시	-7821
▁성취	-7822
▁CS	-7823
▁우위	-7824
▁한인	-7825
▁공수	-7826
▁별다르	-7827
▁견제	-7828
▁주름	-7829
살이	-7830
▁AR	-7831
▁코무네	-7832
▁호랑이	-7833
▁인플	-7834
▁이케	-7835
▁정점	-7836
▁야구장	-7837
은색	-7838
▁터치	-7839
▁폭행	-7840
▁히어로즈	-7841
리니	-7842
▁다발	-7843
▁플랜	-7844
▁래퍼	-7845
▁법조	-7846
▁통증	-7847
▁하워드	-7848
▁바나	-7849
▁억압	-7850
▁오바	-7851
▁음료	-7852
▁주역	-7853
▁축하	-7854
▁왜냐	-7855
▁123	-7856
▁팡	-7857
▁관구	-7858
리에	-7859
▁수련	-7860
▁육체	-7861
▁현저	-7862
▁광물	-7863
▁매입	-7864
▁햇	-7865
▁고장	-7866
▁사모	-7867
▁아홉	-7868
▁힘입	-7869
▁연합회	-7870
AL	-7871
▁공산주의자	-7872
▁경관	-7873
▁광학	-7874
▁발해	-7875
▁여당	-7876
▁품종	-7877
▁소매	-7878
▁아담	-7879
▁유한	-7880
▁열정	-7881
▁충전	-7882
▁해명	-7883
더슨	-7884
▁다이아몬드	-7885
▁카자흐스탄	-7886
포드	-7887
▁팔라	-7888
글리	-7889
▁분비	-7890
▁제하	-7891
차기	-7892
▁리우	-7893
▁신조	-7894
▁헐	-7895
▁CC	-7896
실베이	-7897
▁부르크	-7898
실베이니아	-7899
▁휠	-7900
헤이	-7901
▁상점	-7902
▁플라이	-7903
▁펜실베이니아	-7904
법인	-7905
▁마야	-7906
▁베스	-7907
▁축적	-7908
란히	-7909
▁암시	-7910
▁처녀	-7911
▁청춘	-7912
▁143	-7913
은이	-7914
▁벌금	-7915
▁상용	-7916
▁적당	-7917
▁기적	-7918
▁미라	-7919
▁연하	-7920
▁태양계	-7921
▁비자	-7922
▁시바	-7923
▁이윤	-7924
▁소나타	-7925
▁드로	-7926
▁신주	-7927
▁염기	-7928
▁동아일보	-7929
▁분기점	-7930
▁Op	-7931
▁공천	-7932
▁컴파	-7933
▁목재	-7934
▁이화	-7935
▁킥	-7936
바시	-7937
▁공관	-7938
▁너비	-7939
▁성사	-7940
▁자민	-7941
▁태권	-7942
▁종로구	-7943
▁부설	-7944
▁가죽	-7945
▁토모	-7946
▁공습	-7947
▁누이	-7948
▁히메	-7949
권자	-7950
▁갈라	-7951
▁김경	-7952
러스트	-7953
▁롤링	-7954
브리지	-7955
▁블로그	-7956
▁계시	-7957
▁존속	-7958
▁왓	-7959
▁다투	-7960
▁상단	-7961
▁상반	-7962
▁통영	-7963
▁박람회	-7964
▁생산량	-7965
ile	-7966
▁제프	-7967
▁증대	-7968
▁이에야스	-7969
▁룬	-7970
▁가군	-7971
▁무지	-7972
▁신약	-7973
▁돋	-7974
스틴	-7975
▁아예	-7976
▁이소	-7977
▁티스	-7978
▁경상도	-7979
▁유로파	-7980
▁날씨	-7981
▁놀랍	-7982
▁비싸	-7983
▁펑크	-7984
▁조선일보	-7985
산동	-7986
▁공익	-7987
▁국소	-7988
▁운하	-7989
ies	-7990
▁규범	-7991
▁알코올	-7992
▁친일파	-7993
나오	-7994
▁근교	-7995
▁나트	-7996
▁부제	-7997
▁사육	-7998
▁이타	-7999
▁조세	-8000
▁지르	-8001
▁남동부	-8002
▁유죄	-8003
▁헤라	-8004
▁col	-8005
▁에미	-8006
▁레일	-8007
▁황실	-8008
▁블라디미르	-8009
▁시어	-8010
▁말라	-8011
▁보석	-8012
▁서진	-8013
▁시골	-8014
▁신민	-8015
▁왜곡	-8016
▁동국	-8017
▁카롤	-8018
▁허위	-8019
▁내보내	-8020
▁라오스	-8021
▁루이지	-8022
비나	-8023
수리	-8024
ite	-8025
▁그동안	-8026
▁누나	-8027
▁비유	-8028
▁성단	-8029
▁포럼	-8030
기업	-8031
▁상사	-8032
▁양키스	-8033
▁평의회	-8034
▁제재	-8035
▁RNA	-8036
▁범인	-8037
▁플러스	-8038
xt	-8039
▁장거리	-8040
▁설탕	-8041
▁소셜	-8042
▁우승자	-8043
의장	-8044
▁인체	-8045
▁필터	-8046
▁협박	-8047
▁흠	-8048
도리	-8049
▁CF	-8050
▁트위터	-8051
스부르크	-8052
레기	-8053
▁다녀	-8054
▁112	-8055
▁키프로스	-8056
▁거칠	-8057
▁깨닫	-8058
▁맥락	-8059
▁히사	-8060
▁사업자	-8061
▁중의원	-8062
▁미르	-8063
▁확신	-8064
▁갇	-8065
▁거북	-8066
▁보증	-8067
▁구출	-8068
▁단단	-8069
▁마디	-8070
▁인문	-8071
▁126	-8072
▁교과서	-8073
▁구축함	-8074
▁시베리아	-8075
▁근원	-8076
▁성별	-8077
▁경찰청	-8078
▁브라더스	-8079
▁뉘	-8080
▁미션	-8081
▁수법	-8082
▁이순신	-8083
나스	-8084
▁믹스	-8085
▁SE	-8086
▁개교	-8087
▁경보	-8088
▁연쇄	-8089
▁이산화	-8090
▁우유	-8091
▁자선	-8092
▁핸드	-8093
▁107	-8094
▁탐사선	-8095
▁희생자	-8096
▁Pr	-8097
▁노바	-8098
▁대폭	-8099
▁우호	-8100
▁후사	-8101
▁왜냐하면	-8102
랑카	-8103
▁결함	-8104
▁세라	-8105
▁헤비	-8106
▁카를로스	-8107
고래	-8108
▁합하	-8109
▁창원시	-8110
▁엿	-8111
▁후궁	-8112
▁아랍어	-8113
▁전자기	-8114
도바	-8115
▁Te	-8116
▁삼층석탑	-8117
▁맥주	-8118
▁다지	-8119
▁빨간	-8120
▁신선	-8121
▁실체	-8122
▁법무부	-8123
▁릿	-8124
▁언니	-8125
▁이경	-8126
▁탐색	-8127
▁퐁	-8128
▁is	-8129
▁인명	-8130
▁투옥	-8131
▁KIA	-8132
▁굉장히	-8133
▁소원	-8134
▁송시열	-8135
ft	-8136
▁거울	-8137
▁지평	-8138
그레이드	-8139
▁당주	-8140
▁입원	-8141
▁할머니	-8142
▁제니	-8143
▁조종사	-8144
▁교정	-8145
▁냉전	-8146
▁다크	-8147
▁대웅전	-8148
▁공방	-8149
ound	-8150
▁117	-8151
▁업그레이드	-8152
▁갇히	-8153
▁천장	-8154
단체	-8155
▁옆면	-8156
▁게스트	-8157
▁고속도	-8158
연합	-8159
▁수색	-8160
▁가마쿠라	-8161
▁임하	-8162
▁네스	-8163
▁줄무늬	-8164
▁클라우드	-8165
▁몰래	-8166
▁빈곤	-8167
▁핵무기	-8168
OL	-8169
다지	-8170
▁com	-8171
▁곡인	-8172
▁샘플	-8173
▁워터	-8174
▁풀리	-8175
▁자아	-8176
▁승계	-8177
▁신시	-8178
▁제대	-8179
▁진하	-8180
▁판본	-8181
▁피우	-8182
ath	-8183
▁꾀하	-8184
▁일방	-8185
지붕	-8186
▁요동	-8187
▁수용체	-8188
▁이브	-8189
▁도마뱀붙이	-8190
▁LC	-8191
▁방화	-8192
▁약력	-8193
▁철회	-8194
갈색	-8195
끼리	-8196
크라	-8197
▁CR	-8198
▁연합국	-8199
▁테이프	-8200
▁화장실	-8201
▁350	-8202
▁드레	-8203
▁문예	-8204
▁진공	-8205
▁121	-8206
▁고고학	-8207
▁사생활	-8208
▁극장판	-8209
▁펠리	-8210
▁기업인	-8211
▁라이너	-8212
▁일반인	-8213
▁킴	-8214
▁스캔	-8215
▁요약	-8216
▁진급	-8217
▁포병	-8218
▁해고	-8219
시타	-8220
▁일가	-8221
▁137	-8222
▁삼성전자	-8223
▁맘	-8224
▁가축	-8225
▁세속	-8226
▁173	-8227
무스	-8228
게이머	-8229
▁프로게이머	-8230
▁헥	-8231
▁바우	-8232
▁통틀	-8233
▁ㅁ	-8234
▁대명	-8235
▁치안	-8236
베니아	-8237
▁IM	-8238
▁비르	-8239
▁1894	-8240
▁아카데미상	-8241
▁택하	-8242
▁도미니	-8243
▁말년	-8244
▁양측	-8245
▁113	-8246
▁빨간색	-8247
승부	-8248
▁김현	-8249
▁만일	-8250
▁불타	-8251
▁브로드	-8252
▁알제리	-8253
마루	-8254
수소	-8255
ond	-8256
▁바오로	-8257
▁비추	-8258
▁총독부	-8259
▁슬로베니아	-8260
▁레온	-8261
▁최강	-8262
▁항쟁	-8263
▁화해	-8264
▁근로자	-8265
▁바티칸	-8266
ory	-8267
▁ㅓ서	-8268
▁문구	-8269
▁상표	-8270
▁시뮬	-8271
조부	-8272
톨레	-8273
▁놓치	-8274
▁왕복	-8275
▁용병	-8276
▁가져가	-8277
▁냄	-8278
▁공백	-8279
▁필리프	-8280
▁붐	-8281
▁군정	-8282
▁농림	-8283
▁지미	-8284
▁쑤	-8285
▁초월	-8286
▁타당	-8287
▁멜로디	-8288
▁몬스터	-8289
man	-8290
규모	-8291
▁결코	-8292
▁계정	-8293
▁대피	-8294
▁물려받	-8295
▁궁극	-8296
▁둥지	-8297
▁적도	-8298
▁게이지	-8299
▁낫	-8300
▁서민	-8301
▁혈관	-8302
▁SU	-8303
▁더니	-8304
▁뒤집	-8305
▁피오	-8306
▁가장자리	-8307
그리	-8308
▁공민	-8309
▁원전	-8310
▁사상자	-8311
▁프랑크푸르트	-8312
▁내정	-8313
▁먼지	-8314
아프리카	-8315
▁크리스토퍼	-8316
ov	-8317
대기	-8318
로이	-8319
▁뒷면	-8320
▁로우	-8321
▁학계	-8322
▁오프닝	-8323
▁코스타	-8324
▁칭찬	-8325
블리	-8326
▁미키	-8327
▁성도	-8328
퍼런스	-8329
▁개종	-8330
▁극심	-8331
▁무어	-8332
▁캐시	-8333
▁124	-8334
▁구절	-8335
▁로이	-8336
▁성문	-8337
▁카카	-8338
▁하동	-8339
▁커뮤니케이션	-8340
린스	-8341
셰비	-8342
▁땃	-8343
▁강서	-8344
▁말씀	-8345
▁즉각	-8346
박스	-8347
▁체크	-8348
▁횡단	-8349
▁야쿠	-8350
▁옵션	-8351
▁독일인	-8352
▁최대한	-8353
▁탤런트	-8354
▁z	-8355
아키	-8356
▁닫히	-8357
▁World	-8358
mer	-8359
▁그냥	-8360
▁국내외	-8361
▁륙	-8362
▁두껍	-8363
▁배후	-8364
프레스	-8365
iver	-8366
로니	-8367
▁그랜	-8368
▁제인	-8369
▁곤란	-8370
▁욕구	-8371
▁기질	-8372
▁명하	-8373
▁On	-8374
▁관음	-8375
▁모친	-8376
▁정세	-8377
▁가루	-8378
▁부딪	-8379
▁야마토	-8380
▁자연수	-8381
▁러시	-8382
▁자오	-8383
▁파이널	-8384
▁서초	-8385
▁체조	-8386
▁브리지	-8387
▁넘치	-8388
▁돌격	-8389
▁디렉	-8390
▁발리	-8391
▁평정	-8392
축구	-8393
▁오라	-8394
▁이거	-8395
▁침투	-8396
▁풍자	-8397
▁자비	-8398
▁김정일	-8399
▁그대	-8400
▁데르	-8401
▁외모	-8402
대원군	-8403
IP	-8404
▁감자	-8405
▁제치	-8406
▁New	-8407
▁챌린지	-8408
줄기	-8409
▁매매	-8410
▁우파	-8411
▁유저	-8412
▁프로덕	-8413
▁드라이버	-8414
▁be	-8415
▁오리콘	-8416
▁영산	-8417
▁초록	-8418
▁부작용	-8419
▁블랙홀	-8420
▁므	-8421
▁EC	-8422
▁검찰청	-8423
드르	-8424
▁뉴턴	-8425
▁제압	-8426
▁베네딕	-8427
▁정변	-8428
▁남서부	-8429
▁소규모	-8430
▁1890	-8431
▁어미	-8432
▁이준	-8433
▁징계	-8434
▁트로이	-8435
▁SD	-8436
▁양호	-8437
▁자음	-8438
▁쾌속	-8439
▁방사선	-8440
▁설화	-8441
▁아랫	-8442
▁114	-8443
ich	-8444
▁퇴임	-8445
렉스	-8446
▁베니	-8447
▁플래시	-8448
▁맑	-8449
▁미노	-8450
▁봉건	-8451
▁태극	-8452
▁시위대	-8453
▁스칼	-8454
▁계열사	-8455
▁다가오	-8456
▁윤치호	-8457
▁김규	-8458
▁이드	-8459
▁시정	-8460
▁관세	-8461
▁선비	-8462
▁악단	-8463
▁분명히	-8464
▁캔자스	-8465
▁예조	-8466
▁안토니오	-8467
▁정주	-8468
ial	-8469
▁경신	-8470
▁조부	-8471
▁학업	-8472
▁구스타	-8473
▁요정	-8474
▁컨셉	-8475
▁학명	-8476
▁이남	-8477
▁체스	-8478
▁알루미	-8479
▁가드	-8480
▁연승	-8481
저지	-8482
지스	-8483
▁도청	-8484
▁지침	-8485
▁다녀오	-8486
▁통치자	-8487
ign	-8488
▁땃쥐	-8489
▁연이	-8490
▁벵	-8491
황후	-8492
▁변이	-8493
▁은데	-8494
▁자택	-8495
▁빔	-8496
▁과반	-8497
▁대거	-8498
▁떨치	-8499
▁비주	-8500
▁어긋	-8501
▁컷	-8502
러드	-8503
▁Sc	-8504
▁괴물	-8505
▁로그	-8506
▁빛나	-8507
▁깎	-8508
▁뭐	-8509
▁115	-8510
▁118	-8511
먼스	-8512
▁증손	-8513
▁하프	-8514
▁알아보	-8515
▁숙청	-8516
▁주부	-8517
▁커널	-8518
교도	-8519
조건	-8520
▁구와	-8521
▁모나	-8522
타리오	-8523
▁소방서	-8524
기념	-8525
▁재상	-8526
▁경찰관	-8527
▁세이브	-8528
▁대부	-8529
▁키르	-8530
▁원로원	-8531
▁럼	-8532
문트	-8533
▁군중	-8534
▁진사	-8535
▁하르	-8536
▁매니저	-8537
▁일리노	-8538
▁운수	-8539
▁지인	-8540
▁GP	-8541
▁생체	-8542
▁하야	-8543
▁만료	-8544
▁중형	-8545
▁헬리	-8546
▁갑작스럽	-8547
hn	-8548
닐라	-8549
함수	-8550
▁공감	-8551
▁서자	-8552
▁혜택	-8553
▁뉴저지	-8554
▁일리노이	-8555
TS	-8556
▁답변	-8557
▁저널	-8558
▁모로코	-8559
▁반지름	-8560
▁우즈베	-8561
마이오스	-8562
▁1898	-8563
▁크리스티안	-8564
▁용이	-8565
▁미하일	-8566
▁풀려나	-8567
▁극작	-8568
▁승부차기	-8569
▁공조	-8570
▁동정	-8571
▁레바논	-8572
▁파란색	-8573
▁엇	-8574
▁본국	-8575
▁외관	-8576
▁취업	-8577
▁성리학	-8578
▁GS	-8579
▁남미	-8580
▁비기	-8581
▁남구	-8582
▁바빌	-8583
▁축출	-8584
▁비로소	-8585
보르	-8586
▁앵글	-8587
▁왕세	-8588
▁카우	-8589
벨트	-8590
▁기각	-8591
▁두려	-8592
▁순조	-8593
▁종착	-8594
▁헬기	-8595
▁웹툰	-8596
▁범유행	-8597
히코	-8598
▁레슬링	-8599
▁디비시온	-8600
▁체코슬로	-8601
▁체코슬로바키아	-8602
▁전년	-8603
▁광해군	-8604
▁스크립	-8605
▁vs	-8606
▁뇌물	-8607
▁우측	-8608
▁천하	-8609
▁한족	-8610
▁희귀	-8611
미사	-8612
▁가옥	-8613
▁밀집	-8614
▁웨스턴	-8615
▁리뷰	-8616
▁선도	-8617
▁필사	-8618
하루	-8619
▁스폰	-8620
▁종속	-8621
▁III	-8622
▁`	-8623
아먹	-8624
틱스	-8625
▁스타리그	-8626
▁믹	-8627
타니	-8628
▁부스	-8629
▁패럴	-8630
▁무승부	-8631
▁시가지	-8632
▁렐	-8633
▁관제	-8634
▁기증	-8635
▁무성	-8636
▁직면	-8637
▁의약품	-8638
시즘	-8639
▁봉안	-8640
▁소모	-8641
▁케냐	-8642
▁코카	-8643
▁통보	-8644
▁그레고	-8645
▁연예인	-8646
바닥	-8647
▁척추	-8648
▁카디	-8649
▁129	-8650
▁미세	-8651
▁발급	-8652
▁사위	-8653
▁임원	-8654
레타	-8655
▁대변인	-8656
타리	-8657
▁요건	-8658
▁재혼	-8659
▁핑크	-8660
부리	-8661
슬러	-8662
쟁이	-8663
▁발병	-8664
▁사적	-8665
▁외야수	-8666
▁센티	-8667
▁응시	-8668
▁로비	-8669
▁승자	-8670
▁쫓겨나	-8671
▁쯔	-8672
▁글루	-8673
▁등기	-8674
▁예고	-8675
▁워크	-8676
▁중산	-8677
▁켈리	-8678
▁호출	-8679
▁마운트	-8680
▁부의장	-8681
▁프로덕션	-8682
▁재선	-8683
▁화력	-8684
▁젊은이	-8685
화물	-8686
▁배수	-8687
▁말미	-8688
▁파산	-8689
▁맏	-8690
개미	-8691
▁미들	-8692
▁성폭	-8693
▁개막전	-8694
▁맥도	-8695
▁부피	-8696
▁퉁	-8697
▁무명	-8698
▁실망	-8699
▁세이부	-8700
▁장례식	-8701
▁연산자	-8702
▁1899	-8703
▁알루미늄	-8704
▁닦	-8705
▁JT	-8706
▁Ne	-8707
▁ㅕㅆ	-8708
▁러셀	-8709
▁서신	-8710
▁천재	-8711
▁괘	-8712
▁밝기	-8713
▁폭넓	-8714
▁벨라루스	-8715
속기	-8716
rom	-8717
▁힌두교	-8718
ph	-8719
▁옳	-8720
▁첨단	-8721
▁총사령	-8722
▁기차	-8723
▁마력	-8724
▁웬	-8725
우트	-8726
▁어른	-8727
▁예하	-8728
▁황족	-8729
▁회관	-8730
▁저주	-8731
▁지옥	-8732
▁케빈	-8733
▁케임	-8734
테르부르크	-8735
▁오오	-8736
▁원천	-8737
▁난징	-8738
▁유라	-8739
▁스트리	-8740
코딩	-8741
▁종래	-8742
▁양반	-8743
▁오크	-8744
▁컴백	-8745
▁브리튼	-8746
▁천문대	-8747
▁터뜨리	-8748
▁유방	-8749
▁토양	-8750
▁ID	-8751
▁각도	-8752
▁감싸	-8753
▁벽돌	-8754
▁사간	-8755
▁전속	-8756
▁토끼	-8757
▁남작	-8758
▁중공	-8759
▁창출	-8760
느러미	-8761
▁키보드	-8762
방송공사	-8763
▁만성	-8764
▁142	-8765
▁사쿠라	-8766
▁콕	-8767
▁소생	-8768
▁유진	-8769
▁토미	-8770
▁넘어서	-8771
▁ch	-8772
▁대치	-8773
▁옹립	-8774
▁폭포	-8775
▁두려워하	-8776
▁조지프	-8777
MA	-8778
포로	-8779
▁혼동	-8780
니까	-8781
▁사본	-8782
▁청산	-8783
▁기술자	-8784
▁월요일	-8785
▁끌어들이	-8786
▁리프	-8787
▁시범	-8788
▁지출	-8789
▁어긋나	-8790
▁확실히	-8791
▁플라스틱	-8792
진군	-8793
urn	-8794
▁워너	-8795
▁일컬	-8796
▁프란츠	-8797
셰비키	-8798
로우	-8799
▁구경	-8800
▁신원	-8801
▁타임스	-8802
▁청주시	-8803
토르	-8804
▁BS	-8805
▁설교	-8806
▁대서양	-8807
▁마르티	-8808
▁감행	-8809
▁무함	-8810
▁안테	-8811
▁학기	-8812
▁희곡	-8813
▁부여받	-8814
▁프톨레	-8815
▁프톨레마이오스	-8816
▁공적	-8817
▁대패	-8818
롤라이나	-8819
ction	-8820
▁독서	-8821
▁룩셈	-8822
▁의자	-8823
▁뒷받침	-8824
▁아리아	-8825
pp	-8826
▁공리	-8827
▁병기	-8828
▁하얗	-8829
▁화상	-8830
▁거래소	-8831
▁룩셈부르크	-8832
▁교통국	-8833
▁도카이	-8834
▁거세	-8835
▁보위	-8836
▁본문	-8837
▁그래미	-8838
▁스즈키	-8839
▁더글러스	-8840
럴드	-8841
▁CJ	-8842
▁가야	-8843
▁김지	-8844
▁드림	-8845
▁마녀	-8846
▁발기	-8847
▁자크	-8848
▁중복	-8849
▁축물	-8850
▁광주광역시	-8851
▁스턴	-8852
▁점성술	-8853
▁감마	-8854
▁서장	-8855
▁체류	-8856
▁코시	-8857
▁페널	-8858
▁잃어버리	-8859
▁벨트	-8860
▁시리	-8861
▁총칭	-8862
▁피겨	-8863
▁형조	-8864
파이어	-8865
▁얹	-8866
타주	-8867
ens	-8868
▁지치	-8869
▁화자	-8870
TA	-8871
▁Man	-8872
브르	-8873
천리	-8874
▁정려	-8875
▁온타리오	-8876
▁시코	-8877
▁유체	-8878
▁익스프레스	-8879
▁수분	-8880
▁왼손	-8881
▁지켜	-8882
▁1902	-8883
▁밍	-8884
▁쟈	-8885
샤바	-8886
치기	-8887
▁니코	-8888
▁동네	-8889
▁동학	-8890
▁정성	-8891
lan	-8892
▁광둥	-8893
덩이	-8894
두리	-8895
▁서류	-8896
▁습지	-8897
▁정적	-8898
▁혐오	-8899
▁금요일	-8900
▁기사단	-8901
▁물품	-8902
▁촉매	-8903
▁함정	-8904
▁명종	-8905
▁찌르	-8906
▁포획	-8907
▁대성당	-8908
▁채소	-8909
▁피신	-8910
▁다항식	-8911
▁준결승전	-8912
▁가환	-8913
▁간선	-8914
▁우체	-8915
▁표적	-8916
▁위쪽	-8917
▁태그	-8918
글라	-8919
▁영문	-8920
▁초신	-8921
▁플랫폼	-8922
크로	-8923
▁게리	-8924
▁시가	-8925
▁붙잡히	-8926
▁깃발	-8927
▁로라	-8928
▁마스크	-8929
▁해밀턴	-8930
▁강변	-8931
▁원종	-8932
▁제국주의	-8933
▁독성	-8934
▁지식인	-8935
▁메커	-8936
▁선행	-8937
▁보이스	-8938
▁스위치	-8939
▁코끼리	-8940
▁표기법	-8941
▁끊임없이	-8942
▁그릇	-8943
▁연꽃	-8944
▁관광지	-8945
▁바깥쪽	-8946
▁앗	-8947
▁판례	-8948
▁''	-8949
▁엔딩	-8950
▁탄도	-8951
▁몫	-8952
▁대합	-8953
▁동행	-8954
▁얽	-8955
lic	-8956
▁국영	-8957
▁기숙	-8958
▁대손	-8959
▁사슴	-8960
▁선배	-8961
▁영등	-8962
▁호르몬	-8963
▁단절	-8964
▁염증	-8965
▁제네바	-8966
▁러시아어	-8967
그룹	-8968
▁뛰어	-8969
▁면제	-8970
▁비석	-8971
▁입국	-8972
▁흔들리	-8973
▁세비	-8974
▁주조	-8975
폴리	-8976
▁정동	-8977
▁아돌프	-8978
▁개소	-8979
▁광명	-8980
▁기니	-8981
▁매수	-8982
▁빌라	-8983
▁상금	-8984
▁서유럽	-8985
▁간토	-8986
▁수확	-8987
▁참의	-8988
▁이용자	-8989
ary	-8990
▁강동	-8991
▁버드	-8992
▁소나무	-8993
TC	-8994
▁검열	-8995
▁나노	-8996
▁약자	-8997
▁응하	-8998
▁퀘벡	-8999
▁하단	-9000
▁고양시	-9001
▁비행장	-9002
▁춥	-9003
▁갈수록	-9004
▁코믹스	-9005
▁울프	-9006
▁으려고	-9007
▁고아	-9008
▁토착종	-9009
▁포켓몬스터	-9010
▁부회장	-9011
▁헌신	-9012
▁페르디난	-9013
▁복용	-9014
▁산출	-9015
▁서리	-9016
▁에디션	-9017
▁단축	-9018
▁불꽃	-9019
국사	-9020
▁갈릴	-9021
▁부가	-9022
▁브뤼	-9023
▁성지	-9024
▁아산	-9025
▁특권	-9026
LS	-9027
▁소시	-9028
▁이단	-9029
▁뮤지션	-9030
▁아이오	-9031
▁폭격기	-9032
▁매카트니	-9033
ys	-9034
▁역량	-9035
▁임관	-9036
▁조립	-9037
▁커스	-9038
▁한테	-9039
▁연기자	-9040
▁단의	-9041
테인	-9042
텍처	-9043
ach	-9044
▁광대	-9045
▁색채	-9046
▁생생	-9047
▁드러머	-9048
▁아키텍처	-9049
디나	-9050
짓점	-9051
카가	-9052
구르	-9053
링턴	-9054
미트	-9055
타임	-9056
▁직결	-9057
▁꼭짓점	-9058
▁1901	-9059
ert	-9060
▁민감	-9061
▁서문	-9062
▁축조	-9063
out	-9064
▁생략	-9065
▁쓰촨	-9066
▁압둘	-9067
▁열도	-9068
▁입성	-9069
▁크롬	-9070
▁호모	-9071
▁사회당	-9072
▁울산광역시	-9073
▁렘	-9074
▁No	-9075
▁보복	-9076
▁실버	-9077
▁경성부	-9078
자르	-9079
피어	-9080
▁사이토	-9081
▁례	-9082
모스	-9083
히토	-9084
▁레즈	-9085
▁분수	-9086
▁어류	-9087
▁코코	-9088
▁갱신	-9089
▁김창	-9090
▁보트	-9091
▁페니	-9092
▁삿포로	-9093
▁트리플	-9094
LE	-9095
▁박지	-9096
▁수축	-9097
▁일산	-9098
▁체르	-9099
▁화강	-9100
IG	-9101
▁쿄	-9102
아웃	-9103
▁공명	-9104
▁하치	-9105
▁염색체	-9106
▁메커니즘	-9107
▁이현	-9108
▁정립	-9109
▁바이킹	-9110
▁개화	-9111
▁여운	-9112
▁공예	-9113
▁실적	-9114
▁원료	-9115
▁kt	-9116
▁권총	-9117
▁개인전	-9118
▁케임브리지	-9119
▁논하	-9120
▁대두	-9121
▁원본	-9122
▁학대	-9123
▁현은	-9124
▁언어학	-9125
루아	-9126
▁누적	-9127
▁무궁	-9128
▁입각	-9129
▁전방	-9130
▁정문	-9131
▁체중	-9132
▁카미	-9133
▁토기	-9134
▁영국인	-9135
▁아라비아	-9136
▁알렉산드르	-9137
▁MB	-9138
▁자작	-9139
▁광저우	-9140
▁버티	-9141
▁표방	-9142
클레스	-9143
▁쓰레기	-9144
나우	-9145
▁보헤	-9146
▁퇴역	-9147
▁날카	-9148
▁라그	-9149
▁차르	-9150
▁그다지	-9151
쿠버	-9152
ype	-9153
▁스텔	-9154
▁주되	-9155
▁방송인	-9156
▁지켜보	-9157
▁김제	-9158
▁동조	-9159
▁조수	-9160
▁치아	-9161
▁요르단	-9162
▁크레이	-9163
▁옥스퍼드	-9164
펜하	-9165
▁카프	-9166
레슬링	-9167
▁패밀리	-9168
▁아시카가	-9169
▁썰	-9170
▁고산	-9171
▁트로피	-9172
▁아리스토	-9173
▁간단히	-9174
▁갈리아	-9175
▁사업가	-9176
▁불신	-9177
▁손꼽	-9178
일으키	-9179
▁134	-9180
▁발렌시아	-9181
▁불러일으키	-9182
ug	-9183
▁가역	-9184
▁마우	-9185
▁섹스	-9186
▁노태우	-9187
▁푸에르	-9188
기스	-9189
정리	-9190
▁두께	-9191
▁미륵	-9192
▁어뢰	-9193
▁장기간	-9194
▁전염병	-9195
▁파이터	-9196
사리	-9197
▁교대	-9198
▁극대	-9199
대장	-9200
▁EX	-9201
베트남	-9202
테르담	-9203
▁무함마드	-9204
▁공고	-9205
▁선동	-9206
▁THE	-9207
방울	-9208
▁강간	-9209
▁슈팅	-9210
▁토요	-9211
▁하비	-9212
▁모서리	-9213
▁지도부	-9214
ase	-9215
▁AN	-9216
▁공황	-9217
▁이병	-9218
▁타케	-9219
▁특색	-9220
노미야	-9221
▁All	-9222
▁리더십	-9223
▁만주국	-9224
▁홈구장	-9225
▁아인슈타인	-9226
▁알렉산드리아	-9227
▁}	-9228
내리	-9229
카미	-9230
▁소말	-9231
▁연봉	-9232
▁이태	-9233
▁검출	-9234
▁스님	-9235
라이어	-9236
▁프로레슬링	-9237
올로	-9238
퀘어	-9239
▁다마	-9240
▁파병	-9241
▁헌정	-9242
▁드레스	-9243
▁피고인	-9244
▁패널	-9245
▁도요토미	-9246
▁미시시피	-9247
그래	-9248
그레	-9249
▁삼촌	-9250
▁와일드	-9251
▁어둠	-9252
▁회상	-9253
▁대구광역시	-9254
▁노보	-9255
▁아브	-9256
▁좌측	-9257
▁직경	-9258
▁One	-9259
▁쓰시마	-9260
▁아폴로	-9261
▁1903	-9262
▁오쿠	-9263
▁캐서	-9264
▁기념관	-9265
▁신도비	-9266
▁페널티	-9267
▁정선	-9268
▁제로	-9269
▁질소	-9270
카타	-9271
▁Cl	-9272
▁에콰	-9273
▁에콰도르	-9274
처스	-9275
▁LA	-9276
▁어찌	-9277
▁정유	-9278
▁훔치	-9279
▁1884	-9280
▁와이번스	-9281
역학	-9282
▁구형	-9283
▁남매	-9284
▁전위	-9285
▁터보	-9286
그라	-9287
▁기념비	-9288
▁슬라브	-9289
▁이성계	-9290
▁1800	-9291
천사	-9292
▁군산	-9293
▁취미	-9294
▁하리	-9295
도스	-9296
▁로저	-9297
▁루타	-9298
▁실재	-9299
하키	-9300
▁상고	-9301
▁원더	-9302
라이언트	-9303
11	-9304
▁단면	-9305
▁조형	-9306
▁복합체	-9307
불교	-9308
▁반공	-9309
▁회피	-9310
▁프레드	-9311
▁함선	-9312
▁당연히	-9313
▁콤팩트	-9314
▁클라이언트	-9315
▁IN	-9316
▁군함	-9317
▁리만	-9318
▁비타	-9319
▁우치	-9320
▁날카롭	-9321
▁방글라	-9322
▁방글라데시	-9323
▁이관	-9324
▁인질	-9325
▁장벽	-9326
▁복소수	-9327
▁클라이	-9328
고스	-9329
▁발칸	-9330
▁퇴적	-9331
▁각색	-9332
▁강대	-9333
▁밀란	-9334
▁우회	-9335
▁의결	-9336
▁중령	-9337
▁히타	-9338
▁니콜라이	-9339
ke	-9340
번뇌	-9341
▁Gr	-9342
▁경작	-9343
▁구스	-9344
▁김홍	-9345
▁실무	-9346
▁티코	-9347
▁도널드	-9348
▁야마구치	-9349
▁기분	-9350
▁유부	-9351
▁쥐과	-9352
테이션	-9353
▁대문	-9354
▁상응	-9355
▁샌디	-9356
▁추첨	-9357
▁물가	-9358
사이드	-9359
▁충청도	-9360
푸르	-9361
▁마르틴	-9362
ree	-9363
▁염소	-9364
▁마르코	-9365
▁중앙아시아	-9366
▁깨지	-9367
▁농부	-9368
▁프란체	-9369
▁북아프리카	-9370
▁팰	-9371
네마	-9372
▁도선	-9373
▁꼭대기	-9374
▁소수자	-9375
▁조반니	-9376
▁상가	-9377
▁준주	-9378
▁진료	-9379
▁카사	-9380
▁관절	-9381
▁당수	-9382
▁철폐	-9383
▁토시	-9384
▁소행성	-9385
▁팟	-9386
니시	-9387
▁GO	-9388
▁마키	-9389
▁선우	-9390
▁전구	-9391
▁갤러리	-9392
▁컨트리	-9393
▁가산	-9394
▁세키	-9395
▁진전	-9396
▁코믹	-9397
▁아나키	-9398
▁히로시	-9399
▁CN	-9400
▁가오	-9401
▁방사성	-9402
▁묶이	-9403
▁비뉴	-9404
▁더욱이	-9405
▁전시회	-9406
▁총대주교	-9407
리코	-9408
사우	-9409
▁건륭	-9410
▁기저	-9411
▁내걸	-9412
▁달걀	-9413
▁데카	-9414
▁뒤쪽	-9415
▁흥선	-9416
▁곡물	-9417
▁모모	-9418
▁소자	-9419
▁하차	-9420
▁해남	-9421
가르	-9422
포터	-9423
▁교량	-9424
▁분출	-9425
▁상경	-9426
▁음향	-9427
▁이북	-9428
간지	-9429
아들	-9430
▁Ad	-9431
▁돌기	-9432
▁러스	-9433
▁에밀	-9434
가와현	-9435
▁뉴욕주	-9436
사업	-9437
▁구약	-9438
▁권장	-9439
▁까닭	-9440
▁상트	-9441
▁거짓말	-9442
▁스토어	-9443
pt	-9444
▁추론	-9445
▁활주	-9446
▁진행자	-9447
▁아미노산	-9448
▁꿀	-9449
▁데스크	-9450
구역	-9451
▁정화	-9452
▁가브리	-9453
▁앰	-9454
ass	-9455
▁간신	-9456
▁용서	-9457
▁취항	-9458
▁득표율	-9459
▁공약	-9460
▁우물	-9461
▁자형	-9462
▁전복	-9463
▁창녕	-9464
▁그레이트	-9465
▁강희	-9466
▁궁중	-9467
▁상법	-9468
▁다케다	-9469
개골	-9470
▁경인	-9471
▁급수	-9472
▁침체	-9473
▁오사카부	-9474
▁견인	-9475
▁신축	-9476
▁일렉트로	-9477
▁반전	-9478
▁남동생	-9479
▁모리스	-9480
산맥	-9481
▁분량	-9482
▁116	-9483
▁유대교	-9484
▁카를로	-9485
▁with	-9486
▁볼리비아	-9487
파리	-9488
▁막스	-9489
기념물	-9490
▁민간인	-9491
▁페이스북	-9492
▁대출	-9493
▁반군	-9494
▁시야	-9495
▁안경	-9496
▁장자	-9497
▁인테르	-9498
▁카스티	-9499
▁포스터	-9500
▁Br	-9501
▁냄새	-9502
▁세바	-9503
▁종말	-9504
▁스크립트	-9505
act	-9506
▁감안	-9507
▁등용	-9508
▁발령	-9509
▁샌드	-9510
▁거주지	-9511
▁교도소	-9512
▁연대기	-9513
▁기슭	-9514
▁델타	-9515
▁을까	-9516
▁기관총	-9517
▁디트로	-9518
▁버클리	-9519
▁디트로이트	-9520
▁가열	-9521
▁글래	-9522
▁수목	-9523
▁절단	-9524
▁평창	-9525
▁220	-9526
▁심화	-9527
몰로지	-9528
▁되돌리	-9529
▁브란	-9530
곡동	-9531
벤처	-9532
▁깨끗	-9533
▁무슨	-9534
▁어드벤처	-9535
▁농사	-9536
▁폭로	-9537
▁현감	-9538
▁후작	-9539
▁스트라이크	-9540
▁마니	-9541
▁맞붙	-9542
▁보성	-9543
▁일자리	-9544
▁1860	-9545
▁낙동	-9546
ream	-9547
▁마카오	-9548
▁라오	-9549
▁마가	-9550
▁한층	-9551
▁1897	-9552
▁홉	-9553
▁일파	-9554
▁가의	-9555
▁네오	-9556
▁민정	-9557
▁대관	-9558
▁오로	-9559
▁체력	-9560
▁후반기	-9561
▁떡	-9562
▁리조	-9563
▁효고	-9564
▁카타르	-9565
▁Ex	-9566
▁안산	-9567
▁홍문관	-9568
▁태백	-9569
▁배우자	-9570
▁격차	-9571
▁올드	-9572
▁일부분	-9573
▁한국방송공사	-9574
▁가신	-9575
▁복권	-9576
▁북경	-9577
▁아소	-9578
▁솔루션	-9579
▁캐서린	-9580
▁접수	-9581
▁강남구	-9582
▁갈래	-9583
▁나루	-9584
▁동형	-9585
▁장제	-9586
▁타우	-9587
▁효종	-9588
▁마블	-9589
▁단행본	-9590
▁지지율	-9591
▁바르샤바	-9592
▁랍	-9593
▁브랜	-9594
▁찰리	-9595
▁애틀랜타	-9596
▁쓸	-9597
▁벽화	-9598
▁입주	-9599
▁전산	-9600
▁공손	-9601
▁확진	-9602
▁교육청	-9603
▁중원	-9604
▁청소	-9605
▁팔레	-9606
▁휴가	-9607
▁모티브	-9608
▁미네소	-9609
나드	-9610
▁델라	-9611
▁르노	-9612
▁마당	-9613
▁수료	-9614
▁신동	-9615
▁종파	-9616
▁합당	-9617
츠크	-9618
▁고이	-9619
▁과실	-9620
▁수중	-9621
▁신정	-9622
▁왕정	-9623
▁중공업	-9624
▁적군	-9625
▁유닉스	-9626
▁경제학자	-9627
리즘	-9628
▁Is	-9629
▁마라톤	-9630
▁애리	-9631
▁쿠니	-9632
▁타지	-9633
▁;&	-9634
▁버마	-9635
▁사살	-9636
▁청색	-9637
▁카즈	-9638
▁ㄴ다며	-9639
▁게릴라	-9640
▁이주하	-9641
▁리히	-9642
▁공용어	-9643
▁BM	-9644
▁저렴	-9645
▁학력	-9646
▁122	-9647
▁스퀘어	-9648
▁알프레	-9649
산성	-9650
▁돌입	-9651
▁함부르크	-9652
캐롤라이나	-9653
반구	-9654
▁노이	-9655
▁빈도	-9656
▁소행	-9657
▁사카이	-9658
▁상트페	-9659
▁천연기념물	-9660
▁상트페테르부르크	-9661
▁가가	-9662
▁석불	-9663
▁세네	-9664
▁치우	-9665
▁타협	-9666
▁이반	-9667
▁이빨	-9668
▁프렌	-9669
스카르	-9670
▁아마존	-9671
▁2022	-9672
▁경위	-9673
▁보강	-9674
▁안치	-9675
▁메라	-9676
▁살피	-9677
▁전격	-9678
퍼슨	-9679
CAF	-9680
▁고토	-9681
▁무술	-9682
▁안드레아	-9683
ii	-9684
▁연동	-9685
▁집결	-9686
▁호쿠	-9687
▁파라과이	-9688
ake	-9689
▁무로	-9690
▁정경	-9691
▁클라크	-9692
▁1880	-9693
▁ES	-9694
▁브룩	-9695
▁++	-9696
▁분파	-9697
▁강철	-9698
▁김민	-9699
▁루크	-9700
▁마애	-9701
▁입양	-9702
▁창의	-9703
▁추리	-9704
▁극작가	-9705
▁옥수수	-9706
거진	-9707
▁속편	-9708
▁con	-9709
▁괴롭히	-9710
콥터	-9711
푸아	-9712
▁갑옷	-9713
▁막시	-9714
▁석회	-9715
▁쥐속	-9716
▁두개골	-9717
▁설립자	-9718
iss	-9719
▁블리	-9720
▁용암	-9721
▁유령	-9722
▁유스	-9723
▁짐작	-9724
▁칼뱅	-9725
▁호응	-9726
▁제작사	-9727
▁키예프	-9728
▁흥선대원군	-9729
기구	-9730
▁윤보	-9731
▁NGC	-9732
▁그림자	-9733
▁그레고리오	-9734
▁눕	-9735
나미	-9736
▁듀얼	-9737
▁릴리	-9738
▁숙주	-9739
▁화순	-9740
▁새로이	-9741
▁돌아다니	-9742
▁셜	-9743
네시	-9744
케이	-9745
▁무스	-9746
▁장원	-9747
▁133	-9748
니지	-9749
▁군청	-9750
▁동요	-9751
▁유정	-9752
▁메릴	-9753
▁그리스인	-9754
▁낚	-9755
▁오락	-9756
▁원격	-9757
▁콘테	-9758
▁프롤	-9759
▁사무총장	-9760
▁엮	-9761
▁감추	-9762
▁모용	-9763
▁스노	-9764
▁애칭	-9765
▁이장	-9766
자치시	-9767
▁나란히	-9768
▁이용객	-9769
▁특별자치시	-9770
▁예명	-9771
▁위생	-9772
▁쳐들	-9773
▁이데	-9774
▁종점	-9775
▁경쟁력	-9776
▁DM	-9777
▁이규	-9778
▁재해	-9779
▁제왕	-9780
▁처지	-9781
▁출석	-9782
▁해부	-9783
▁법정동	-9784
▁뻔	-9785
▁기성	-9786
▁더비	-9787
▁요법	-9788
▁장단	-9789
▁함양	-9790
▁선장	-9791
▁이언	-9792
▁대국	-9793
▁번성	-9794
▁수녀	-9795
▁어로	-9796
▁연못	-9797
▁우상	-9798
▁일괄	-9799
▁펜싱	-9800
▁일러스트	-9801
▁극도	-9802
▁등극	-9803
▁야시	-9804
▁열심	-9805
▁지방산	-9806
사관학교	-9807
▁스트라이커	-9808
▁결핍	-9809
▁소령	-9810
▁제리	-9811
▁파우	-9812
▁헬륨	-9813
▁확고	-9814
▁위나라	-9815
UR	-9816
타케	-9817
▁고추	-9818
▁오지	-9819
▁자결	-9820
▁코리	-9821
▁교육부	-9822
▁손꼽히	-9823
▁이동하	-9824
▁인프라	-9825
▁가네	-9826
▁심야	-9827
▁워치	-9828
바야시	-9829
HO	-9830
own	-9831
▁결제	-9832
▁몽고	-9833
▁이득	-9834
▁미생물	-9835
▁붙여지	-9836
▁포도당	-9837
▁반역	-9838
▁진수	-9839
▁추종	-9840
▁그렇지만	-9841
GA	-9842
해튼	-9843
▁농어	-9844
▁재난	-9845
▁겉보기	-9846
▁엘리트	-9847
▁프랭클린	-9848
▁도사	-9849
▁문경	-9850
▁스로	-9851
▁CBS	-9852
▁섀	-9853
▁정관	-9854
▁즐겁	-9855
▁현행	-9856
▁무궁화	-9857
▁격자	-9858
▁자카	-9859
▁조계	-9860
▁평민	-9861
어뜨리	-9862
▁CEO	-9863
▁대지진	-9864
▁시뮬레이션	-9865
▁개항	-9866
▁국유	-9867
▁사쿠	-9868
▁정인	-9869
▁파문	-9870
▁GDP	-9871
▁Mus	-9872
▁그레고리	-9873
세기	-9874
▁국악	-9875
▁명분	-9876
▁앨리스	-9877
▁스리랑카	-9878
삭스	-9879
▁리모	-9880
▁아치	-9881
old	-9882
▁암흑	-9883
렉션	-9884
▁앞장	-9885
▁동성애자	-9886
위성	-9887
▁선거법	-9888
▁제조업	-9889
미스	-9890
버러	-9891
▁장흥	-9892
▁아래쪽	-9893
▁파이프	-9894
▁툰	-9895
타마	-9896
▁NE	-9897
▁Ro	-9898
▁만년	-9899
▁미셸	-9900
▁자생	-9901
멘스	-9902
▁가도	-9903
▁불행	-9904
▁싣	-9905
에미	-9906
▁강풍	-9907
▁니카	-9908
▁탁월	-9909
림픽	-9910
파크	-9911
▁총무	-9912
▁수년	-9913
▁정국	-9914
▁주화	-9915
▁해치	-9916
거래	-9917
▁PR	-9918
▁속주	-9919
▁132	-9920
▁대사헌	-9921
▁주지	-9922
▁기상청	-9923
▁모터스	-9924
▁무조건	-9925
▁복음서	-9926
▁인디애나	-9927
▁광양	-9928
▁대각	-9929
▁온갖	-9930
위원회	-9931
▁대성전	-9932
▁아스널	-9933
▁삼국사기	-9934
원장	-9935
▁듀오	-9936
▁아데	-9937
▁비주얼	-9938
clude	-9939
▁베른	-9940
▁지청	-9941
▁타석	-9942
▁마우스	-9943
▁신상	-9944
▁조병	-9945
▁글로브	-9946
Hz	-9947
▁쾰	-9948
ork	-9949
▁빈번	-9950
▁상연	-9951
▁수심	-9952
▁황도	-9953
스기	-9954
헌영	-9955
▁감동	-9956
▁속이	-9957
▁초원	-9958
▁후속작	-9959
lo	-9960
▁꿈꾸	-9961
▁낙하	-9962
▁댓	-9963
▁슛	-9964
라기	-9965
미즈	-9966
변이	-9967
▁동참	-9968
▁시애	-9969
▁이모	-9970
▁기병대	-9971
▁돌연변이	-9972
▁보헤미아	-9973
▁아이스하키	-9974
벨라	-9975
▁공파	-9976
▁스태	-9977
▁발각	-9978
▁오클랜드	-9979
▁합스부르크	-9980
ix	-9981
▁총기	-9982
▁헛	-9983
메다	-9984
▁La	-9985
▁단과	-9986
▁현직	-9987
▁호족	-9988
할시	-9989
해지	-9990
ick	-9991
▁표창	-9992
▁마다가	-9993
▁시종	-9994
▁막히	-9995
▁무르	-9996
▁상기	-9997
▁저격	-9998
▁투항	-9999
▁자세히	-10000
EM	-10001
▁or	-10002
▁두렵	-10003
▁소울	-10004
▁하고	-10005
▁미주리	-10006
▁자치체	-10007
▁청동기	-10008
▁른	-10009
▁극락	-10010
▁김옥	-10011
▁맹세	-10012
▁패럴림픽	-10013
▁김병	-10014
▁복식	-10015
▁아빠	-10016
ence	-10017
▁저널리	-10018
▁타이베이	-10019
▁가타	-10020
▁감금	-10021
▁국당	-10022
▁국수	-10023
▁빠져	-10024
▁장대	-10025
▁재질	-10026
▁호리	-10027
▁시애틀	-10028
▁애리조	-10029
▁요제프	-10030
러피	-10031
▁성령	-10032
▁호의	-10033
▁pro	-10034
▁농산물	-10035
▁마르크스주의	-10036
▁짱	-10037
▁난이	-10038
▁소피아	-10039
루냐	-10040
십자	-10041
▁초고	-10042
▁페로	-10043
▁통틀어	-10044
▁활주로	-10045
▁루비	-10046
▁피로	-10047
▁볼셰비키	-10048
마리	-10049
홀름	-10050
▁세손	-10051
▁양육	-10052
▁의과	-10053
▁공표	-10054
▁부조	-10055
▁세븐	-10056
▁청자	-10057
브리아	-10058
()	-10059
ance	-10060
▁관동	-10061
▁매직	-10062
▁숨지	-10063
▁매끄럽	-10064
▁야구단	-10065
▁SL	-10066
▁밀러	-10067
▁왜구	-10068
▁포고	-10069
▁우체국	-10070
▁1870	-10071
▁평안남도	-10072
▁즘	-10073
▁아요	-10074
▁입수	-10075
▁매거진	-10076
플로	-10077
▁아쿠	-10078
▁제너	-10079
▁카바	-10080
▁Mar	-10081
▁네이션스컵	-10082
공산	-10083
타이드	-10084
▁예선전	-10085
▁우즈베키스탄	-10086
▁리터	-10087
▁시국	-10088
▁창시자	-10089
를테	-10090
▁로리	-10091
▁배속	-10092
▁이븐	-10093
를테면	-10094
▁맨해튼	-10095
▁이를테면	-10096
▁생계	-10097
▁따라가	-10098
▁머스	-10099
▁틀리	-10100
▁스폰서	-10101
▁엥	-10102
▁학설	-10103
▁NAS	-10104
▁1885	-10105
관리	-10106
▁To	-10107
▁비늘	-10108
▁우아	-10109
▁뾰	-10110
제이	-10111
ear	-10112
▁감수	-10113
▁대장군	-10114
▁오로지	-10115
▁숀	-10116
▁돌출	-10117
▁맞대	-10118
▁민요	-10119
▁수교	-10120
▁신종	-10121
▁참사	-10122
▁청룡	-10123
▁평안북도	-10124
티시	-10125
파이	-10126
▁AD	-10127
▁un	-10128
▁벤치	-10129
▁원심	-10130
▁증인	-10131
▁지로	-10132
▁화랑	-10133
테리아	-10134
▁450	-10135
▁센고쿠	-10136
▁중앙부	-10137
▁볼프	-10138
▁수염	-10139
▁휩쓸	-10140
어오	-10141
쩌둥	-10142
▁로렌스	-10143
▁마오쩌둥	-10144
▁프랜시스	-10145
▁Ph	-10146
▁내성	-10147
▁실존	-10148
▁유료	-10149
▁중상	-10150
▁중생	-10151
▁1871	-10152
▁개헌	-10153
▁내면	-10154
▁앞쪽	-10155
▁제동	-10156
▁테일	-10157
▁퇴장	-10158
▁함자	-10159
▁프레이	-10160
▁알래스카	-10161
▁쿡	-10162
등식	-10163
▁역도	-10164
▁전날	-10165
▁1600	-10166
▁경질	-10167
▁로페	-10168
▁출가	-10169
▁티켓	-10170
▁흉노	-10171
▁편집자	-10172
▁활발히	-10173
ild	-10174
▁퍼포	-10175
▁휴게	-10176
▁파나마	-10177
ection	-10178
테쓰	-10179
▁바디	-10180
▁수다	-10181
▁해저	-10182
▁240	-10183
▁다람쥐	-10184
▁실험실	-10185
▁리바	-10186
▁지성	-10187
▁차리	-10188
러피언	-10189
▁USS	-10190
▁양성자	-10191
▁퍼포먼스	-10192
▁프로리그	-10193
▁맷	-10194
돌리	-10195
▁GN	-10196
▁남용	-10197
▁당내	-10198
▁반성	-10199
▁요지	-10200
▁이양	-10201
▁카니	-10202
텔레스	-10203
▁마닐라	-10204
irl	-10205
▁지오	-10206
▁케라	-10207
▁콜레	-10208
lass	-10209
▁관행	-10210
▁수인	-10211
▁빅토르	-10212
▁유러피언	-10213
▁앤더슨	-10214
라고	-10215
틀리	-10216
올라	-10217
▁루카	-10218
▁분과	-10219
▁자칭	-10220
▁끌려가	-10221
사상	-10222
▁정제	-10223
▁카터	-10224
▁파인	-10225
▁프라하	-10226
면체	-10227
▁CM	-10228
▁위스	-10229
▁조광	-10230
▁중서	-10231
▁내무부	-10232
▁박헌영	-10233
▁올림피아	-10234
▁궁궐	-10235
▁이완	-10236
▁재외	-10237
▁왕세자	-10238
▁1200	-10239
OV	-10240
▁각성	-10241
▁국보	-10242
▁호크	-10243
▁반란군	-10244
▁수원시	-10245
▁퍼스트	-10246
▁아리스토텔레스	-10247
▁콘스탄티노폴리스	-10248
맥스	-10249
▁리비	-10250
▁성실	-10251
▁김정은	-10252
▁only	-10253
▁교실	-10254
▁능선	-10255
▁조례	-10256
▁퍼스	-10257
▁케이프	-10258
▁멍	-10259
▁고쿠	-10260
▁봉수	-10261
▁친분	-10262
▁EBS	-10263
▁구니	-10264
▁무척	-10265
▁생선	-10266
▁알렉스	-10267
▁잡아먹	-10268
▁유권자	-10269
▁냐는	-10270
▁상급	-10271
▁송도	-10272
▁이방	-10273
▁윤보선	-10274
▁구마모토	-10275
체고	-10276
▁서산	-10277
▁성화	-10278
▁징병	-10279
▁동물원	-10280
▁불태우	-10281
▁역사가	-10282
체고비나	-10283
▁마다가스카르	-10284
▁빨갛	-10285
▁다나카	-10286
▁다저스	-10287
▁앤드루	-10288
▁하노이	-10289
▁탑신	-10290
▁김규식	-10291
▁러시아인	-10292
ans	-10293
▁몸통	-10294
▁부각	-10295
▁오미	-10296
▁동유럽	-10297
▁부원군	-10298
▁괄	-10299
▁Sy	-10300
▁이룩	-10301
▁미군정	-10302
▁예정자	-10303
▁구청	-10304
▁재활	-10305
▁통역	-10306
▁화기	-10307
▁오른손	-10308
GM	-10309
▁려던	-10310
▁지쿠	-10311
▁초빙	-10312
▁경영자	-10313
▁루돌프	-10314
▁밴쿠버	-10315
▁유년기	-10316
메스	-10317
▁수필	-10318
▁시중	-10319
▁평형	-10320
▁강령	-10321
▁개개	-10322
▁칙령	-10323
▁칼럼	-10324
▁레이크	-10325
▁나선	-10326
▁남산	-10327
▁섬세	-10328
▁시합	-10329
▁영예	-10330
▁차용	-10331
▁창문	-10332
▁해리슨	-10333
무소	-10334
▁경시	-10335
▁관문	-10336
▁농경	-10337
▁뉴클	-10338
▁독도	-10339
▁공민왕	-10340
▁레이싱	-10341
▁신문사	-10342
▁클레이	-10343
▁메뉴	-10344
▁동대문	-10345
▁헬리콥터	-10346
▁ex	-10347
▁테라	-10348
OD	-10349
▁겁	-10350
어사	-10351
▁경희	-10352
▁한하	-10353
▁리조트	-10354
▁아무것	-10355
▁브레이크	-10356
▁에프	-10357
▁총통	-10358
▁편제	-10359
▁포식	-10360
▁약혼	-10361
▁총애	-10362
▁정의당	-10363
환경	-10364
▁극한	-10365
▁나우	-10366
▁배려	-10367
▁위너스	-10368
▁유치원	-10369
▁커플	-10370
▁트릭	-10371
▁솔로몬	-10372
▁크라이	-10373
ivers	-10374
▁고속버스	-10375
컨대	-10376
코토	-10377
▁독창	-10378
▁허드	-10379
▁케플러	-10380
천면	-10381
통일	-10382
▁검정	-10383
▁명소	-10384
▁산호	-10385
▁화엄	-10386
▁대대로	-10387
▁예수회	-10388
▁CONCA	-10389
▁김원	-10390
▁메카	-10391
▁제퍼슨	-10392
TP	-10393
토랑	-10394
▁일당	-10395
▁성남시	-10396
▁레스토랑	-10397
▁얕	-10398
바흐	-10399
▁남해	-10400
▁바트	-10401
▁뾰족	-10402
▁특전	-10403
▁파도	-10404
▁대합실	-10405
▁CONCACAF	-10406
RA	-10407
▁경호	-10408
▁마술	-10409
▁매리	-10410
▁소음	-10411
▁전래	-10412
▁천왕	-10413
▁클린턴	-10414
▁광도	-10415
▁시노	-10416
▁하반	-10417
▁효자	-10418
원수	-10419
ish	-10420
▁모호	-10421
▁포착	-10422
▁사각형	-10423
▁@	-10424
에스	-10425
▁드미	-10426
▁모의	-10427
▁보행	-10428
▁안녕	-10429
▁MTV	-10430
▁브루스	-10431
매매	-10432
▁마차	-10433
▁신발	-10434
▁주입	-10435
▁카지	-10436
▁하키	-10437
▁호스	-10438
▁일리	-10439
▁추이	-10440
▁통용	-10441
▁서재필	-10442
▁해리스	-10443
▁관청	-10444
▁케인	-10445
▁하류	-10446
▁수양	-10447
▁진해	-10448
include	-10449
oun	-10450
▁카테	-10451
▁긴테쓰	-10452
▁보로	-10453
▁스가	-10454
▁씨앗	-10455
▁유혹	-10456
▁한미	-10457
▁플라톤	-10458
▁차갑	-10459
▁는다면	-10460
▁컴퓨팅	-10461
fe	-10462
▁도교	-10463
▁시부	-10464
▁주임	-10465
▁허정	-10466
▁Jo	-10467
▁가늘	-10468
▁블로	-10469
▁실정	-10470
▁욕망	-10471
▁메이커	-10472
▁박종	-10473
▁반기	-10474
▁전한	-10475
▁절망	-10476
▁스테파	-10477
▁아키라	-10478
▁뉴클레오	-10479
▁대북	-10480
▁문고	-10481
히트	-10482
are	-10483
▁":	-10484
▁김유	-10485
▁들여	-10486
▁찬사	-10487
블랜드	-10488
▁데려오	-10489
▁스톡홀름	-10490
▁총사령관	-10491
신문	-10492
▁로버	-10493
▁자제	-10494
▁침묵	-10495
▁테리	-10496
▁분류군	-10497
▁요시다	-10498
라니	-10499
▁나인	-10500
▁폭파	-10501
▁프론	-10502
▁바이트	-10503
▁친위대	-10504
▁벅	-10505
▁라자	-10506
▁만장	-10507
▁보라	-10508
▁블레	-10509
▁선천	-10510
▁제물	-10511
▁방어선	-10512
▁국공	-10513
▁수복	-10514
▁이점	-10515
EG	-10516
▁NT	-10517
▁결별	-10518
▁무실	-10519
▁불변	-10520
▁함경남도	-10521
▁클리블랜드	-10522
▁sc	-10523
▁리보	-10524
▁북아일랜드	-10525
창호	-10526
▁마켓	-10527
▁오리온	-10528
정원	-10529
▁가솔	-10530
▁럭비	-10531
▁별세	-10532
▁시몬	-10533
▁정거	-10534
▁카피	-10535
▁보수당	-10536
▁피라미	-10537
▁다테	-10538
▁도둑	-10539
▁어군	-10540
▁캐롤	-10541
▁타스	-10542
▁뛰어들	-10543
러브	-10544
▁고든	-10545
▁당연	-10546
▁드루	-10547
▁소극	-10548
▁원통	-10549
▁전무	-10550
▁나트륨	-10551
▁비밀리	-10552
▁비타민	-10553
▁대본	-10554
▁색소	-10555
▁퇴직	-10556
▁개구리	-10557
▁리프트	-10558
▁타이거스	-10559
▁CH	-10560
▁넷째	-10561
▁담보	-10562
▁라서	-10563
▁본성	-10564
▁사역	-10565
▁전담	-10566
▁화약	-10567
ical	-10568
놀이	-10569
▁묘비	-10570
▁엄밀	-10571
▁내야수	-10572
▁리베	-10573
▁스텝	-10574
▁약사	-10575
▁유선	-10576
▁황소	-10577
▁ABC	-10578
▁대원군	-10579
▁알파벳	-10580
▁AV	-10581
▁DD	-10582
▁동로	-10583
▁방콕	-10584
▁제노	-10585
▁포토	-10586
▁서대문	-10587
▁아키타	-10588
▁초신성	-10589
▁프린스	-10590
대표	-10591
▁백두	-10592
▁천국	-10593
▁210	-10594
▁가이드	-10595
▁유아기	-10596
▁가맹	-10597
▁선구자	-10598
▁알프스	-10599
▁자치주	-10600
▁투자자	-10601
EL	-10602
▁마셜	-10603
▁모어	-10604
▁벤처	-10605
▁야전	-10606
▁채취	-10607
lat	-10608
▁ㅓ야	-10609
▁차출	-10610
▁쾰른	-10611
▁ATP	-10612
▁샐	-10613
▁찬양	-10614
▁멧	-10615
부르	-10616
사고	-10617
▁노론	-10618
▁제명	-10619
▁홀리	-10620
▁피아니스트	-10621
FL	-10622
▁Fr	-10623
▁동향	-10624
▁웨인	-10625
▁치과	-10626
▁튀르크	-10627
▁파손	-10628
▁마천루	-10629
▁연극배우	-10630
암동	-10631
▁천거	-10632
▁톈진	-10633
▁경전철	-10634
▁토스카	-10635
▁구두	-10636
▁로크	-10637
▁리사	-10638
▁상행	-10639
▁실권	-10640
▁영유	-10641
▁왕권	-10642
▁장시	-10643
▁펌프	-10644
▁가브리엘	-10645
▁Ma	-10646
▁소중	-10647
▁헬싱	-10648
▁로드리	-10649
▁앞장서	-10650
덴부르크	-10651
메드	-10652
▁적외선	-10653
▁주차장	-10654
대교	-10655
클레	-10656
▁임정	-10657
▁종식	-10658
▁동시대	-10659
▁정부군	-10660
대사	-10661
▁구내	-10662
▁슬픔	-10663
▁연산군	-10664
▁콘테스트	-10665
▁딥	-10666
▁구실	-10667
▁로얄	-10668
▁사방	-10669
카리	-10670
▁감상	-10671
▁미수	-10672
▁삼존	-10673
▁야드	-10674
▁형질	-10675
▁책임지	-10676
수스	-10677
▁김형	-10678
▁마에	-10679
▁밸리	-10680
▁불참	-10681
▁송신	-10682
▁실록	-10683
▁여권	-10684
▁운임	-10685
▁위그	-10686
▁이의	-10687
▁칸국	-10688
▁켈트	-10689
▁헤르체고비나	-10690
말리	-10691
▁간첩	-10692
▁감찰	-10693
▁리본	-10694
▁중합	-10695
▁마누엘	-10696
▁아나톨	-10697
군다	-10698
소통	-10699
지능	-10700
ica	-10701
▁가락	-10702
▁여유	-10703
▁정형	-10704
▁플리	-10705
▁안테나	-10706
▁인공지능	-10707
캐슬	-10708
티넘	-10709
▁스칸	-10710
▁악보	-10711
공산당	-10712
▁용인시	-10713
▁플래티넘	-10714
▁따지	-10715
▁방치	-10716
▁본작	-10717
▁사설	-10718
▁삼림	-10719
▁타이어	-10720
▁프레데	-10721
▁브루클린	-10722
ey	-10723
▁봇	-10724
▁아날	-10725
▁어는	-10726
▁직통	-10727
테이너	-10728
▁화강암	-10729
▁슬하	-10730
▁예약	-10731
▁준수	-10732
▁지자	-10733
▁친족	-10734
해살이	-10735
▁AKB	-10736
▁유격수	-10737
60	-10738
▁뭉치	-10739
▁목요일	-10740
▁오바마	-10741
▁잇따르	-10742
▁의사소통	-10743
▁극우	-10744
▁목회	-10745
▁산성	-10746
▁영정	-10747
▁유목	-10748
▁중퇴	-10749
충류	-10750
합성	-10751
▁he	-10752
▁구르	-10753
▁대영	-10754
▁봉화	-10755
▁부치	-10756
▁메디치	-10757
▁아이폰	-10758
▁스카우트	-10759
휴일	-10760
▁다윈	-10761
▁무형	-10762
▁왕건	-10763
▁전전	-10764
▁스트로	-10765
▁강렬	-10766
▁공존	-10767
▁김준	-10768
▁모금	-10769
▁캐리	-10770
▁하시	-10771
▁기관지	-10772
▁로트	-10773
▁모하	-10774
▁비야	-10775
▁시크	-10776
▁외형	-10777
▁집정	-10778
▁두려움	-10779
▁사로잡	-10780
▁엔트리	-10781
▁절정	-10782
난성	-10783
▁반포	-10784
▁불량	-10785
▁이송	-10786
▁1889	-10787
▁그저	-10788
▁매트	-10789
▁송출	-10790
와라노	-10791
▁후지와라노	-10792
천동	-10793
▁건전	-10794
▁비엔	-10795
▁새우	-10796
▁서임	-10797
▁의류	-10798
▁엣	-10799
위안	-10800
▁라리	-10801
▁백과	-10802
▁사탕	-10803
▁연말	-10804
▁기숙사	-10805
▁뉴캐슬	-10806
▁시네마	-10807
▁접어들	-10808
▁늙	-10809
바나	-10810
▁격리	-10811
▁마땅	-10812
▁메소	-10813
▁베트	-10814
▁요충	-10815
▁패트릭	-10816
AF	-10817
▁So	-10818
▁감성	-10819
▁고딕	-10820
▁요격	-10821
▁치환	-10822
▁해태	-10823
▁도망가	-10824
▁아끼	-10825
▁종자	-10826
▁토트	-10827
▁생존자	-10828
망디	-10829
부로	-10830
▁pr	-10831
▁갈아	-10832
▁능하	-10833
▁니혼	-10834
▁리옹	-10835
▁열강	-10836
▁투여	-10837
▁피지	-10838
▁호대	-10839
▁말미암	-10840
▁볼트	-10841
▁사서	-10842
▁여서	-10843
▁우림	-10844
▁인가	-10845
▁작물	-10846
▁For	-10847
bo	-10848
애미	-10849
▁주계	-10850
▁OST	-10851
▁발라드	-10852
▁마이애미	-10853
IL	-10854
▁비준	-10855
▁징수	-10856
▁트렌	-10857
▁피라미드	-10858
▁도피	-10859
▁정종	-10860
▁간신히	-10861
▁열심히	-10862
▁챙	-10863
▁훙	-10864
다운	-10865
▁EU	-10866
▁은거	-10867
▁음운	-10868
▁치루	-10869
▁쿠퍼	-10870
▁한중	-10871
▁떨어뜨리	-10872
▁소말리아	-10873
가미	-10874
▁공소	-10875
▁김명	-10876
▁삽화	-10877
▁중수	-10878
▁낙동강	-10879
▁드디어	-10880
▁애정	-10881
▁똑같이	-10882
▁장학금	-10883
▁Live	-10884
란토	-10885
▁권하	-10886
▁금호	-10887
▁지상파	-10888
sh	-10889
▁튼	-10890
교통	-10891
프로	-10892
▁의령	-10893
도르프	-10894
▁로마인	-10895
▁자유민주당	-10896
▁모색	-10897
▁수락	-10898
▁JTBC	-10899
▁가나가와현	-10900
▁기이	-10901
▁원군	-10902
▁잠정	-10903
▁Sou	-10904
▁프란체스코	-10905
▁받치	-10906
▁삼중	-10907
▁유희	-10908
▁정작	-10909
▁항만	-10910
에미리트	-10911
▁아랍에미리트	-10912
드레	-10913
▁병자	-10914
▁유의	-10915
▁후배	-10916
추부사	-10917
유예	-10918
지기	-10919
▁금산	-10920
▁양심	-10921
▁정읍	-10922
▁Com	-10923
▁공휴일	-10924
▁브레이	-10925
▁토리노	-10926
▁프랑스인	-10927
EE	-10928
▁Mo	-10929
▁공성	-10930
▁연정	-10931
▁천주	-10932
바이트	-10933
▁미야자키	-10934
▁센티미터	-10935
▁츄	-10936
▁스타트	-10937
▁여배우	-10938
▁나카무라	-10939
▁바지	-10940
▁앙골	-10941
▁페트	-10942
마르크	-10943
클리드	-10944
▁가두	-10945
▁급여	-10946
▁당기	-10947
▁순종	-10948
하이오	-10949
▁국제법	-10950
▁에이즈	-10951
▁오하이오	-10952
▁줄기세포	-10953
▁카탈루냐	-10954
▁김광	-10955
▁모욕	-10956
▁해독	-10957
tern	-10958
▁부딪히	-10959
▁Part	-10960
▁대승불교	-10961
풀이	-10962
화문	-10963
▁벨리	-10964
▁자서	-10965
▁광복군	-10966
▁레이더	-10967
▁카카오	-10968
▁깜	-10969
▁격추	-10970
▁귀신	-10971
▁서태	-10972
▁워즈	-10973
▁평판	-10974
▁라이더	-10975
▁도래	-10976
▁무과	-10977
▁문집	-10978
▁습윤	-10979
▁암스	-10980
▁유식	-10981
▁대법관	-10982
▁1848	-10983
▁레드삭스	-10984
▁캅	-10985
▁거미	-10986
▁성곽	-10987
▁레이트	-10988
▁보수주의	-10989
▁워커	-10990
▁탄약	-10991
▁Col	-10992
▁프랑스령	-10993
▁매킨	-10994
▁한신	-10995
▁가솔린	-10996
▁우루스	-10997
▁유니버설	-10998
▁교의	-10999
▁응급	-11000
▁최진	-11001
▁교통부	-11002
▁클러	-11003
▁미야기	-11004
▁여의도	-11005
간다	-11006
에몽	-11007
▁EM	-11008
▁익숙	-11009
▁추력	-11010
▁평평	-11011
▁해피	-11012
▁일본국	-11013
▁정거장	-11014
▁사운드트랙	-11015
의사	-11016
▁굴절	-11017
▁쌍대	-11018
▁포털	-11019
▁API	-11020
▁마이어	-11021
▁Time	-11022
말로	-11023
▁볼로	-11024
▁사쓰	-11025
▁음절	-11026
▁하구	-11027
▁무네	-11028
▁비정	-11029
▁int	-11030
▁마법사	-11031
▁여사	-11032
▁추억	-11033
▁튀니지	-11034
▁카스티야	-11035
▁공영	-11036
▁수로	-11037
▁여고	-11038
▁자명	-11039
▁조인	-11040
▁검은색	-11041
▁정치학	-11042
거스	-11043
자루	-11044
▁공대	-11045
▁티아	-11046
▁어시스트	-11047
메니	-11048
▁인칭	-11049
▁한림	-11050
▁대리인	-11051
▁바그너	-11052
uc	-11053
현동	-11054
row	-11055
▁"&	-11056
▁기전	-11057
▁SNS	-11058
지부	-11059
lay	-11060
▁라르	-11061
▁오만	-11062
▁패러디	-11063
▁프란치	-11064
▁BC	-11065
▁권역	-11066
▁사민	-11067
나마	-11068
찌르	-11069
▁동진	-11070
▁비대	-11071
▁부총리	-11072
▁하노버	-11073
관계	-11074
▁김인	-11075
▁비토	-11076
▁셀레	-11077
▁재팬	-11078
▁시멘트	-11079
▁ㄹ라	-11080
▁국한	-11081
▁총격	-11082
▁특화	-11083
▁하행	-11084
페스트	-11085
프랑크	-11086
▁방사능	-11087
▁지배자	-11088
▁남군	-11089
▁댄서	-11090
▁리카	-11091
▁고인돌	-11092
orn	-11093
ous	-11094
▁가혹	-11095
▁동산	-11096
▁산둥	-11097
▁우한	-11098
▁진로	-11099
▁만화가	-11100
▁시코쿠	-11101
정동	-11102
ows	-11103
▁국외	-11104
▁대마	-11105
▁로키	-11106
▁류큐	-11107
▁설문	-11108
▁점포	-11109
▁치카	-11110
▁사수	-11111
▁업자	-11112
▁재일	-11113
▁종군	-11114
span	-11115
▁모건	-11116
▁무안	-11117
▁제위	-11118
▁지법	-11119
▁명확히	-11120
OP	-11121
▁GB	-11122
▁검거	-11123
▁보령	-11124
▁부합	-11125
▁안개	-11126
▁용액	-11127
▁절벽	-11128
▁대니얼	-11129
▁클라우	-11130
▁페트로	-11131
▁onlyinclude	-11132
▁거란	-11133
▁경복	-11134
▁골격	-11135
▁글꼴	-11136
▁문단	-11137
▁방대	-11138
▁연립	-11139
파니아	-11140
▁법원장	-11141
▁아이즈	-11142
▁카메룬	-11143
서스	-11144
▁항체	-11145
ann	-11146
▁단결	-11147
▁랴오	-11148
olog	-11149
▁무찌르	-11150
▁Your	-11151
▁사림	-11152
▁실증	-11153
드리아	-11154
▁커리어	-11155
▁관현악단	-11156
aw	-11157
▁관상	-11158
▁근사	-11159
▁메일	-11160
▁부평	-11161
▁선명	-11162
메이카	-11163
▁정보원	-11164
▁자메이카	-11165
브로	-11166
▁가쿠	-11167
▁간략	-11168
▁고로	-11169
▁마테	-11170
▁모빌	-11171
▁배분	-11172
▁베어	-11173
▁수식	-11174
▁오디	-11175
레스트	-11176
▁Bla	-11177
▁그랜트	-11178
▁그라운드	-11179
▁녕	-11180
▁남방	-11181
▁부다	-11182
▁케르	-11183
▁몰아	-11184
▁숙부	-11185
▁편견	-11186
▁황색	-11187
▁131	-11188
▁대단히	-11189
▁욱	-11190
버른	-11191
▁가중	-11192
▁신곡	-11193
▁노르망디	-11194
용차	-11195
▁헬레	-11196
▁제우스	-11197
으로	-11198
▁도박	-11199
▁범행	-11200
▁속력	-11201
▁초콜	-11202
▁형벌	-11203
▁라인업	-11204
▁저지대	-11205
▁헤어지	-11206
az	-11207
▁촛	-11208
▁모범	-11209
▁선봉	-11210
▁쾨	-11211
시노	-11212
지아	-11213
칼리	-11214
히사	-11215
▁메스	-11216
▁보루	-11217
▁종양	-11218
▁곶	-11219
센스	-11220
▁공화정	-11221
▁판소리	-11222
▁NASA	-11223
▁고생	-11224
▁국교	-11225
▁정반	-11226
▁콘솔	-11227
▁u	-11228
▁GM	-11229
▁리즈	-11230
▁재편	-11231
▁전보	-11232
▁대나무	-11233
▁줄리아	-11234
▁파일럿	-11235
▁쪼	-11236
▁공무	-11237
▁도키	-11238
▁서귀	-11239
▁절감	-11240
▁평지	-11241
▁에스페	-11242
▁1883	-11243
▁사학	-11244
▁소외	-11245
▁타락	-11246
▁하코	-11247
▁항우	-11248
▁혼다	-11249
▁라파엘	-11250
▁꺼내	-11251
▁다듬	-11252
▁적료	-11253
▁고분군	-11254
▁부상자	-11255
▁영화상	-11256
▁체인지	-11257
▁단군	-11258
▁무작	-11259
▁안방	-11260
▁유공	-11261
빌라이	-11262
▁스칼라	-11263
▁해상도	-11264
▁기세	-11265
▁식스	-11266
▁야외	-11267
▁연희	-11268
▁은혜	-11269
▁최선	-11270
▁at	-11271
▁가토	-11272
▁녹화	-11273
▁라바	-11274
▁발상	-11275
▁열전	-11276
▁지석	-11277
▁코소	-11278
▁큐브	-11279
른스트	-11280
▁ref	-11281
▁에이전	-11282
▁연구회	-11283
▁계주	-11284
▁기와	-11285
▁노면	-11286
▁라디	-11287
▁피리	-11288
네그로	-11289
▁전반기	-11290
▁교향악단	-11291
▁유클리드	-11292
제품	-11293
▁SA	-11294
▁다툼	-11295
▁이터	-11296
▁플러	-11297
티모어	-11298
▁제이슨	-11299
▁텍사스주	-11300
▁봉인	-11301
▁조교	-11302
80	-11303
CC	-11304
ink	-11305
▁고의	-11306
▁리마	-11307
▁중엽	-11308
▁할인	-11309
▁후진	-11310
▁병마	-11311
▁본뜨	-11312
▁사영	-11313
▁산요	-11314
▁엔드	-11315
▁탄자	-11316
▁날아가	-11317
▁노벨상	-11318
▁다이어	-11319
▁RS	-11320
▁세습	-11321
▁온난	-11322
워스	-11323
▁가우	-11324
▁유우	-11325
▁카마	-11326
▁원산지	-11327
▁모세	-11328
▁이회	-11329
▁뫼	-11330
▁Ge	-11331
▁대좌	-11332
▁송파	-11333
▁아유	-11334
▁위조	-11335
▁비서관	-11336
▁스캔들	-11337
치히	-11338
토프	-11339
프턴	-11340
▁RP	-11341
▁도네	-11342
▁외래	-11343
▁하남	-11344
▁Sch	-11345
▁멜버른	-11346
▁Wind	-11347
ood	-11348
▁간사	-11349
▁관례	-11350
▁스루	-11351
▁요절	-11352
▁카네	-11353
▁위구르	-11354
▁프로그래머	-11355
▁콥	-11356
▁객차	-11357
▁루키	-11358
▁유생	-11359
▁자수	-11360
▁콜럼	-11361
▁통신사	-11362
▁tv	-11363
▁니키	-11364
▁단속	-11365
▁몰타	-11366
▁범하	-11367
▁수위	-11368
▁우산	-11369
▁파벌	-11370
▁OB	-11371
▁라기	-11372
▁왕궁	-11373
▁연장전	-11374
▁천수	-11375
▁함량	-11376
▁중소기업	-11377
돌이	-11378
▁기량	-11379
▁내력	-11380
▁램프	-11381
▁무섭	-11382
▁위로	-11383
▁최영	-11384
스트리	-11385
▁예컨대	-11386
▁토마토	-11387
▁받들	-11388
▁어기	-11389
▁미토콘	-11390
▁북유럽	-11391
▁아이언	-11392
▁쿠빌라이	-11393
▁미토콘드리아	-11394
II	-11395
RT	-11396
ern	-11397
▁내일	-11398
▁상어	-11399
▁안나	-11400
▁요양	-11401
▁월터	-11402
▁유서	-11403
▁330	-11404
▁해안선	-11405
▁야마가타	-11406
에고	-11407
▁거성	-11408
▁고노	-11409
▁부왕	-11410
▁성동	-11411
▁시안	-11412
▁정은	-11413
▁국정원	-11414
40	-11415
지로	-11416
▁단정	-11417
▁배달	-11418
▁북군	-11419
▁정정	-11420
▁아날로그	-11421
도라	-11422
융합	-11423
▁가고	-11424
▁고흥	-11425
▁관악	-11426
▁항원	-11427
▁1882	-11428
▁덮개	-11429
▁지극	-11430
▁Day	-11431
▁올리브	-11432
▁카스트	-11433
▁파시즘	-11434
화학	-11435
ost	-11436
▁대인	-11437
▁동포	-11438
▁부교	-11439
▁재래	-11440
▁족보	-11441
▁주선	-11442
▁프로모	-11443
포시	-11444
▁FK	-11445
▁씨족	-11446
▁단체전	-11447
▁사업소	-11448
▁해운대	-11449
▁다이노스	-11450
▁멋지	-11451
▁부파	-11452
▁협업	-11453
▁슈퍼컵	-11454
▁핵융합	-11455
▁컨트롤러	-11456
갈리	-11457
데라	-11458
여객	-11459
▁급증	-11460
▁회귀	-11461
▁후예	-11462
▁군사력	-11463
▁대표자	-11464
▁상록	-11465
▁장덕	-11466
▁관계없이	-11467
▁사로잡히	-11468
▁결사	-11469
▁다우	-11470
▁식용	-11471
▁조셉	-11472
▁출자	-11473
▁레오폴	-11474
▁호스트	-11475
▁미스터리	-11476
호란	-11477
▁분단	-11478
▁세련	-11479
▁정월	-11480
▁항로	-11481
▁부르주	-11482
▁산티아	-11483
▁수열	-11484
▁아목	-11485
▁제천	-11486
오르크	-11487
▁데니스	-11488
▁필립스	-11489
US	-11490
▁동적	-11491
▁성원	-11492
▁우시	-11493
▁으리	-11494
▁종영	-11495
▁직속	-11496
▁피치	-11497
▁선진국	-11498
▁폐기물	-11499
▁강당	-11500
▁러일	-11501
▁태후	-11502
▁대상자	-11503
▁독수리	-11504
▁영원히	-11505
▁중공군	-11506
▁Girl	-11507
서니	-11508
▁강행	-11509
▁노사	-11510
▁단말	-11511
▁랭크	-11512
▁붙잡	-11513
▁서면	-11514
▁얽히	-11515
▁너무나	-11516
▁시즈오카	-11517
▁컨테이너	-11518
▁몹	-11519
팡이	-11520
▁베풀	-11521
▁어파	-11522
▁주창	-11523
▁기념일	-11524
▁냥	-11525
▁법관	-11526
▁우월	-11527
▁리믹스	-11528
OT	-11529
해자	-11530
▁군벌	-11531
▁보름	-11532
▁타수	-11533
▁안티오	-11534
▁휴게소	-11535
▁괌	-11536
▁번창	-11537
▁선대	-11538
▁조슈	-11539
▁법조인	-11540
▁제갈량	-11541
▁테네시	-11542
▁사회민주당	-11543
▁관목	-11544
▁남하	-11545
▁넬슨	-11546
▁대진	-11547
▁사치	-11548
▁증폭	-11549
▁표정	-11550
▁LED	-11551
▁무실점	-11552
▁오일러	-11553
▁4000	-11554
▁규탄	-11555
▁빙하	-11556
▁여성주의	-11557
▁Or	-11558
▁교직	-11559
▁딜런	-11560
▁산시	-11561
▁소프	-11562
▁양보	-11563
▁염려	-11564
▁영덕	-11565
▁피드	-11566
▁경주시	-11567
▁베이커	-11568
▁오스틴	-11569
본부	-11570
▁발동	-11571
▁사안	-11572
▁제단	-11573
▁뇨	-11574
게스	-11575
▁라미	-11576
▁잠깐	-11577
▁형편	-11578
스탄불	-11579
▁파푸아	-11580
▁사이타마	-11581
▁이스탄불	-11582
▁신입	-11583
▁청계	-11584
▁렛	-11585
▁오아	-11586
▁내분	-11587
▁사천	-11588
▁양수	-11589
▁우의정	-11590
▁1868	-11591
▁메릴랜드	-11592
oll	-11593
▁밀레	-11594
▁new	-11595
▁지붕돌	-11596
▁고트	-11597
▁과테	-11598
▁농지	-11599
▁일각	-11600
▁하의	-11601
펜하겐	-11602
▁프랜차	-11603
▁과테말라	-11604
▁레인저스	-11605
▁코펜하겐	-11606
지리	-11607
▁교부	-11608
▁김윤	-11609
▁대도	-11610
▁밝혀	-11611
▁성악	-11612
▁우왕	-11613
▁전수	-11614
웨이트	-11615
협회	-11616
▁능동	-11617
▁축전	-11618
▁겨루	-11619
▁노후	-11620
▁분사	-11621
▁생리	-11622
▁스콜	-11623
▁이항	-11624
▁절제	-11625
▁급속히	-11626
▁데려가	-11627
▁로마자	-11628
▁히브리	-11629
▁몬테네그로	-11630
바오	-11631
▁DF	-11632
▁TR	-11633
▁뒤이	-11634
▁버터	-11635
▁헌장	-11636
▁앙골라	-11637
▁샨	-11638
당기	-11639
▁소아	-11640
▁점거	-11641
▁편향	-11642
▁각료	-11643
▁국철	-11644
▁라카	-11645
▁습관	-11646
▁외과	-11647
▁위력	-11648
▁타리	-11649
▁피핀	-11650
▁요충지	-11651
▁이바지	-11652
▁암스테르담	-11653
▁망치	-11654
▁성산	-11655
▁영월	-11656
▁이메	-11657
▁장병	-11658
▁증오	-11659
▁초안	-11660
▁컨설	-11661
▁켄트	-11662
▁헤이안	-11663
▁산티아고	-11664
LA	-11665
▁찢	-11666
▁복종	-11667
▁시비	-11668
▁저조	-11669
▁충렬	-11670
▁320	-11671
▁대명사	-11672
▁프랜차이즈	-11673
▁금전	-11674
▁너머	-11675
▁안무	-11676
루이스	-11677
▁밝혀내	-11678
▁주계열	-11679
▁야마모토	-11680
▁루이지애나	-11681
히드	-11682
▁배드	-11683
▁브릿	-11684
▁종신	-11685
▁치유	-11686
▁카세	-11687
▁트이	-11688
▁발전기	-11689
▁베르나르	-11690
게임	-11691
웍스	-11692
▁배리	-11693
▁위촉	-11694
▁잔인	-11695
▁접종	-11696
▁퍼즐	-11697
▁end	-11698
▁위안부	-11699
▁자서전	-11700
▁프란시스코	-11701
▁넥센	-11702
▁박성	-11703
▁사비	-11704
▁우연	-11705
▁조영	-11706
▁천마	-11707
▁추서	-11708
▁치하	-11709
▁신주쿠	-11710
▁좌의정	-11711
▁요하네스	-11712
리안	-11713
▁김선	-11714
▁서주	-11715
▁수량	-11716
▁은신	-11717
▁전세	-11718
▁정령	-11719
▁정재	-11720
▁차선	-11721
▁척도	-11722
▁출동	-11723
19	-11724
▁네티	-11725
▁청도	-11726
▁타일	-11727
▁호아	-11728
▁서사시	-11729
▁아케이드	-11730
▁공안	-11731
▁바울	-11732
▁정몽	-11733
▁김옥균	-11734
▁쿠웨이트	-11735
꼬리	-11736
amp	-11737
▁거처	-11738
▁고온	-11739
▁대청	-11740
▁도상	-11741
▁영암	-11742
▁자재	-11743
▁주심	-11744
걸이	-11745
▁게끔	-11746
▁노랗	-11747
▁대덕	-11748
▁배역	-11749
▁슈테	-11750
▁페더	-11751
▁동맹국	-11752
▁놈	-11753
▁슌	-11754
▁샤프	-11755
▁순차	-11756
▁축산	-11757
▁사이먼	-11758
▁화장품	-11759
▁복음주의	-11760
▁코스타리카	-11761
공주	-11762
▁대차	-11763
▁양대	-11764
토리코	-11765
▁수요일	-11766
▁효고현	-11767
▁니콜라스	-11768
▁colspan	-11769
독립	-11770
어넣	-11771
▁노아	-11772
▁상국	-11773
▁톰슨	-11774
디나비아	-11775
▁스칸디나비아	-11776
▁끊기	-11777
▁리코	-11778
▁이아	-11779
▁준장	-11780
▁직행	-11781
▁카툰	-11782
▁함흥	-11783
▁게오르크	-11784
OW	-11785
▁늪	-11786
익스	-11787
gin	-11788
▁김승	-11789
▁데드	-11790
▁압록	-11791
라이드	-11792
▁타로	-11793
▁브뤼셀	-11794
▁텔레콤	-11795
▁포르노	-11796
▁갯	-11797
우에	-11798
▁NP	-11799
▁모차	-11800
▁문종	-11801
▁주성	-11802
▁피크	-11803
▁교육자	-11804
▁서해안	-11805
▁장로교	-11806
▁마이크로	-11807
gr	-11808
▁결핵	-11809
▁박상	-11810
▁전락	-11811
▁첼로	-11812
▁측량	-11813
▁후유	-11814
아다니	-11815
▁부르고	-11816
▁시트콤	-11817
▁육군사관학교	-11818
니파	-11819
▁by	-11820
▁거지	-11821
▁리튬	-11822
▁헌터	-11823
▁그만큼	-11824
▁데이브	-11825
▁에른스트	-11826
▁촐	-11827
▁전학	-11828
▁푸에르토리코	-11829
단지	-11830
▁소대	-11831
▁스킴	-11832
▁페오	-11833
▁280	-11834
▁결과물	-11835
▁도자기	-11836
▁컬렉션	-11837
▁맬	-11838
▁대종	-11839
▁문무	-11840
▁백악	-11841
로이드	-11842
▁203	-11843
▁긴밀	-11844
▁레프	-11845
▁서스	-11846
▁재발	-11847
▁충무	-11848
▁트리오	-11849
▁톡	-11850
려들	-11851
▁금동	-11852
▁배양	-11853
▁이우	-11854
▁짐승	-11855
▁칭송	-11856
▁코네	-11857
▁IOC	-11858
▁글래스	-11859
▁유적지	-11860
▁천안시	-11861
▁1893	-11862
▁이탈리아어	-11863
les	-11864
▁AB	-11865
▁공양	-11866
▁관성	-11867
▁아흐	-11868
▁유족	-11869
▁차츰	-11870
▁해왕	-11871
▁헤로	-11872
▁어웨이	-11873
▁가고시마	-11874
셀러	-11875
▁Fe	-11876
▁내무	-11877
▁학장	-11878
▁한번	-11879
▁스포르	-11880
▁철저히	-11881
▁펠릭스	-11882
▁Am	-11883
▁김치	-11884
▁영천	-11885
▁원활	-11886
▁탈취	-11887
▁폐렴	-11888
▁윗부분	-11889
퍼레이션	-11890
▁함경북도	-11891
레드	-11892
비크	-11893
업자	-11894
ung	-11895
▁조제	-11896
▁천천	-11897
▁흡사	-11898
▁가라앉	-11899
▁지리학	-11900
▁플랑크	-11901
계승	-11902
세유	-11903
▁격려	-11904
▁선인	-11905
▁심포	-11906
▁민병대	-11907
▁유학자	-11908
▁고집	-11909
▁앤디	-11910
▁자진	-11911
▁노미야	-11912
▁비스타	-11913
몬트	-11914
▁집착	-11915
▁발사체	-11916
▁아라곤	-11917
▁Comp	-11918
북구	-11919
상시	-11920
▁낚시	-11921
▁앨리	-11922
▁온화	-11923
▁한큐	-11924
▁생리학	-11925
▁핏	-11926
티에	-11927
▁관우	-11928
▁도우	-11929
▁미성	-11930
▁우두	-11931
▁이황	-11932
▁조니	-11933
▁TBS	-11934
▁로베르	-11935
▁천천히	-11936
▁le	-11937
▁소사	-11938
▁유영	-11939
▁하타	-11940
▁논리학	-11941
▁데일리	-11942
▁동맹군	-11943
▁초콜릿	-11944
IR	-11945
eth	-11946
▁과시	-11947
▁심상	-11948
▁톱니	-11949
▁탄자니아	-11950
▁기쁨	-11951
▁마트	-11952
▁특기	-11953
▁하급	-11954
▁녹색당	-11955
▁케이크	-11956
들러	-11957
▁도이	-11958
▁마타	-11959
▁막판	-11960
▁버러	-11961
▁애인	-11962
▁부르고뉴	-11963
▁갚	-11964
▁림프	-11965
▁반동	-11966
▁심부	-11967
▁조롱	-11968
▁흥분	-11969
▁공방전	-11970
▁사상가	-11971
▁우울증	-11972
▁김천	-11973
▁비지	-11974
▁전미	-11975
▁칼슘	-11976
▁한문	-11977
▁서바이	-11978
▁해안가	-11979
▁Rock	-11980
▁구독	-11981
▁버섯	-11982
▁사귀	-11983
▁로스쿨	-11984
▁서초구	-11985
▁순양함	-11986
익스피어	-11987
▁인공위성	-11988
▁후쿠오카현	-11989
▁간직	-11990
▁격하	-11991
▁구금	-11992
▁도출	-11993
▁바비	-11994
▁불경	-11995
▁아츠	-11996
▁여도	-11997
▁제철	-11998
▁주세	-11999
▁하이퍼	-12000
▁셰익스피어	-12001
oth	-12002
▁귀속	-12003
▁특사	-12004
▁Rec	-12005
▁수나라	-12006
▁핼	-12007
▁끓이	-12008
▁대주	-12009
▁위즈	-12010
▁휴양	-12011
▁강화도	-12012
▁픽처스	-12013
▁굳히	-12014
▁까마	-12015
▁명부	-12016
▁에로	-12017
▁유포	-12018
▁도야마	-12019
▁서포터	-12020
▁아우르	-12021
▁프리스	-12022
▁에스페란토	-12023
폭탄	-12024
▁IV	-12025
▁Su	-12026
▁당뇨	-12027
▁미츠	-12028
▁아메	-12029
▁오하	-12030
▁장녀	-12031
▁점검	-12032
▁청량	-12033
▁카레	-12034
▁현판	-12035
▁기업가	-12036
▁도카이도	-12037
▁미나모토	-12038
▁플로리다주	-12039
▁덥	-12040
그마	-12041
나기	-12042
▁견고	-12043
▁라즈	-12044
▁무단	-12045
▁용품	-12046
▁침례	-12047
▁GNU	-12048
▁고려대	-12049
▁Univers	-12050
▁공법	-12051
▁물결	-12052
▁소동	-12053
▁위계	-12054
▁황산	-12055
▁게오르	-12056
▁더블린	-12057
▁도르트	-12058
▁성매매	-12059
▁과잉	-12060
▁구치	-12061
▁심문	-12062
▁Sup	-12063
▁국제선	-12064
▁다이빙	-12065
▁가와사키	-12066
▁참모총장	-12067
태평	-12068
▁가부	-12069
▁노랑	-12070
▁라흐	-12071
▁배기	-12072
▁상정	-12073
▁스투	-12074
▁풍습	-12075
▁절도사	-12076
바리	-12077
▁명인	-12078
▁발자	-12079
▁악곡	-12080
▁철강	-12081
▁파편	-12082
로니아	-12083
민스터	-12084
국적	-12085
유사	-12086
트르	-12087
▁월트	-12088
▁230	-12089
▁밀려나	-12090
▁휘말리	-12091
▁러시아군	-12092
▁중앙은행	-12093
▁펫	-12094
▁공시	-12095
▁노프	-12096
▁시속	-12097
▁에마	-12098
▁에바	-12099
▁이범	-12100
▁자립	-12101
▁후하	-12102
▁불계승	-12103
▁데스크톱	-12104
▁상관없이	-12105
헤드	-12106
▁나뭇	-12107
▁미아	-12108
▁성기	-12109
▁연회	-12110
▁입헌	-12111
▁재차	-12112
▁경계선	-12113
▁다면서	-12114
▁조선왕	-12115
▁지바현	-12116
▁CG	-12117
▁Do	-12118
▁강진	-12119
▁라가	-12120
▁라드	-12121
▁산수	-12122
▁마르세유	-12123
▁뮐	-12124
▁강성	-12125
▁발목	-12126
▁슈타	-12127
▁웃음	-12128
▁직계	-12129
▁피사	-12130
▁향기	-12131
▁평안도	-12132
▁가르시아	-12133
연의	-12134
▁닉슨	-12135
▁대접	-12136
▁온대	-12137
▁제창	-12138
▁지난	-12139
▁베르타	-12140
▁스탠리	-12141
▁박테리아	-12142
▁계량	-12143
▁리차	-12144
▁사변	-12145
▁아와	-12146
▁서기관	-12147
▁율리우스	-12148
▁끼우	-12149
▁모던	-12150
▁울릉	-12151
▁코사	-12152
▁USB	-12153
▁물려주	-12154
▁펠리페	-12155
▁from	-12156
▁동종	-12157
▁코호	-12158
▁관현악	-12159
▁차세대	-12160
ublic	-12161
▁프레임워크	-12162
자동	-12163
▁Sw	-12164
▁계보	-12165
▁꾸리	-12166
▁유무	-12167
▁형용	-12168
미디어	-12169
▁로이드	-12170
▁세네갈	-12171
▁1888	-12172
▁대중교통	-12173
▁볼티모어	-12174
둘기	-12175
▁네모	-12176
▁데미	-12177
▁미식	-12178
▁변종	-12179
▁세레	-12180
▁소용	-12181
▁순례	-12182
▁재앙	-12183
▁청송	-12184
▁하임	-12185
▁쇠고기	-12186
▁이바라	-12187
▁활동가	-12188
▁깁	-12189
연수	-12190
▁자코	-12191
▁카야	-12192
▁Car	-12193
▁스탠드	-12194
▁아브라	-12195
▁카운트	-12196
▁1892	-12197
▁펩	-12198
▁푹	-12199
▁복싱	-12200
▁불사	-12201
▁사키	-12202
▁시우	-12203
▁원유	-12204
▁로빈슨	-12205
▁세비야	-12206
▁수차례	-12207
▁덱	-12208
▁매달	-12209
▁붕어	-12210
▁수력	-12211
▁시문	-12212
▁장래	-12213
▁정진	-12214
▁주먹	-12215
▁중고	-12216
▁문자열	-12217
▁유전학	-12218
▁자라나	-12219
▁케이트	-12220
▁노스캐롤라이나	-12221
▁고스	-12222
▁메틸	-12223
▁애초	-12224
▁이봉	-12225
▁펠트	-12226
▁산스크	-12227
▁소학교	-12228
▁으려는	-12229
▁산스크리트	-12230
철수	-12231
▁농축	-12232
▁살라	-12233
▁서예	-12234
▁조현	-12235
▁필하	-12236
▁우에스기	-12237
▁가면라이더	-12238
사태	-12239
클라	-12240
▁납부	-12241
▁옥타	-12242
▁볼로냐	-12243
▁쫓아내	-12244
AE	-12245
AI	-12246
▁겟	-12247
▁뱃	-12248
네트	-12249
▁어의	-12250
▁퇴위	-12251
▁고려사	-12252
▁사간원	-12253
▁애덤스	-12254
▁프린스턴	-12255
티노	-12256
▁이산	-12257
▁해병	-12258
▁다카라	-12259
▁레이디	-12260
▁주니치	-12261
▁허드슨	-12262
보리	-12263
▁ar	-12264
▁사커	-12265
▁교구장	-12266
▁해결책	-12267
홍색	-12268
ron	-12269
▁낙양	-12270
▁면모	-12271
▁반주	-12272
▁백자	-12273
▁새뮤	-12274
▁선양	-12275
▁죄수	-12276
▁게시판	-12277
▁대전차	-12278
▁보좌관	-12279
▁사절단	-12280
▁후원자	-12281
▁굶	-12282
▁거룩	-12283
▁군데	-12284
▁댓글	-12285
▁아다	-12286
▁대공국	-12287
▁알렉산드로스	-12288
▁씻	-12289
라호	-12290
뮬러	-12291
▁구문	-12292
▁너스	-12293
▁수하	-12294
▁재결	-12295
▁좌표계	-12296
분열	-12297
▁니켈	-12298
▁맥아	-12299
▁미미	-12300
▁통폐	-12301
▁1876	-12302
코르	-12303
큐어	-12304
▁단조	-12305
▁물류	-12306
▁으시	-12307
▁토이	-12308
▁북조선	-12309
▁용의자	-12310
▁SV	-12311
▁경무	-12312
▁부양	-12313
▁산청	-12314
▁아디	-12315
▁이니	-12316
▁임계	-12317
▁포츠	-12318
▁스테판	-12319
다보	-12320
▁군관	-12321
▁긴키	-12322
▁대금	-12323
▁레버	-12324
▁신진	-12325
▁애슬	-12326
▁채색	-12327
▁초전	-12328
▁사단장	-12329
▁전주시	-12330
▁조나라	-12331
▁인플레이션	-12332
광성	-12333
다오	-12334
쓰기	-12335
암리	-12336
▁과연	-12337
▁본체	-12338
▁송환	-12339
▁에반	-12340
▁축성	-12341
▁펀드	-12342
▁바이어	-12343
▁올리버	-12344
▁토트넘	-12345
▁생모	-12346
▁독립군	-12347
▁민영화	-12348
▁베이비	-12349
▁웨스트민스터	-12350
로쿠	-12351
EST	-12352
▁나름	-12353
▁도약	-12354
▁도제	-12355
▁두각	-12356
▁로브	-12357
▁박수	-12358
▁약점	-12359
▁완도	-12360
▁파파	-12361
▁Gre	-12362
▁경영학	-12363
▁금나라	-12364
▁브래드	-12365
▁앤서니	-12366
▁장제스	-12367
▁페미니	-12368
▁1866	-12369
▁당황	-12370
▁부류	-12371
▁실각	-12372
▁알폰	-12373
▁유다	-12374
▁전권	-12375
▁조소	-12376
리카락	-12377
▁머리카락	-12378
▁프리미엄	-12379
▁ML	-12380
▁wh	-12381
▁비우	-12382
▁손녀	-12383
▁원상	-12384
▁저우	-12385
르타뉴	-12386
▁아무리	-12387
▁코소보	-12388
▁브르타뉴	-12389
▁프란치스코	-12390
네임	-12391
▁co	-12392
▁라시	-12393
▁마린	-12394
▁유능	-12395
▁이호	-12396
▁조개	-12397
▁중개	-12398
▁역사학	-12399
▁1886	-12400
▁구스타프	-12401
▁페르난도	-12402
ble	-12403
▁간혹	-12404
▁아지	-12405
▁포탄	-12406
▁장난감	-12407
▁도미니카	-12408
▁베이시스트	-12409
우회	-12410
▁SH	-12411
▁발의	-12412
▁제르	-12413
▁260	-12414
▁270	-12415
▁통폐합	-12416
▁삼국지연의	-12417
▁펭	-12418
▁도성	-12419
▁바시	-12420
▁스모	-12421
▁일진	-12422
▁스테인	-12423
▁베네딕토	-12424
▁집행유예	-12425
ah	-12426
▁KB	-12427
▁깃털	-12428
▁라니	-12429
▁펴내	-12430
▁행방	-12431
른베르크	-12432
▁꽂	-12433
너드	-12434
▁마나	-12435
▁얼룩	-12436
▁에리	-12437
▁차수	-12438
▁파커	-12439
▁이즈미	-12440
▁슬램	-12441
▁엘런	-12442
▁익명	-12443
▁작중	-12444
▁합천	-12445
▁Wii	-12446
▁모나코	-12447
하임	-12448
▁무수	-12449
▁번갈	-12450
▁출혈	-12451
▁페스	-12452
▁프루	-12453
▁간사이	-12454
▁Dream	-12455
슈타	-12456
▁배척	-12457
▁아쉽	-12458
▁아자	-12459
▁잘리	-12460
러뜨리	-12461
▁강서구	-12462
▁덩어리	-12463
▁바로크	-12464
▁삼각주	-12465
▁Tour	-12466
▁카르타고	-12467
지오	-12468
▁광선	-12469
▁모라	-12470
▁유머	-12471
▁천지	-12472
▁촛불	-12473
▁펠로	-12474
▁표하	-12475
▁사쓰마	-12476
▁새뮤얼	-12477
▁요금소	-12478
▁드미트리	-12479
▁모차르트	-12480
꿈치	-12481
▁구획	-12482
▁동창	-12483
▁박자	-12484
▁세무	-12485
▁세분	-12486
▁오산	-12487
▁현과	-12488
▁장애물	-12489
▁1861	-12490
▁1887	-12491
▁마르쿠스	-12492
▁브리티시	-12493
레시	-12494
▁습득	-12495
▁여타	-12496
▁보너스	-12497
DA	-12498
비안	-12499
▁도하	-12500
▁레트	-12501
▁산물	-12502
▁자판	-12503
▁축구팀	-12504
▁재단법인	-12505
▁TC	-12506
▁Up	-12507
▁망하	-12508
▁빅뱅	-12509
land	-12510
▁바람직	-12511
▁부분군	-12512
린트	-12513
즐리	-12514
▁무자	-12515
▁외환	-12516
▁지아	-12517
▁화요일	-12518
▁1850	-12519
직경	-12520
짜기	-12521
▁여건	-12522
▁오대	-12523
▁위패	-12524
▁직사	-12525
▁타구	-12526
▁보살상	-12527
▁쏟아지	-12528
▁컨텐츠	-12529
▁코스트	-12530
▁Life	-12531
▁렙	-12532
▁고창	-12533
▁마구	-12534
▁오메	-12535
▁올레	-12536
▁자궁	-12537
▁환관	-12538
▁스테이	-12539
▁시직경	-12540
▁이어주	-12541
왕후	-12542
ult	-12543
▁급히	-12544
▁복위	-12545
▁요괴	-12546
▁위시	-12547
▁홍성	-12548
▁당선자	-12549
▁해석학	-12550
ition	-12551
▁낭만주의	-12552
▁불러들이	-12553
▁클레멘스	-12554
▁모닝	-12555
▁버크	-12556
▁완결	-12557
▁정예	-12558
▁토목	-12559
▁개정안	-12560
▁공연장	-12561
▁신세계	-12562
▁집정관	-12563
▁싹	-12564
제비	-12565
▁RT	-12566
▁앵커	-12567
▁편안	-12568
브리드	-12569
▁근거지	-12570
▁헤라클레스	-12571
니오	-12572
동자	-12573
▁가닥	-12574
▁접합	-12575
▁가해자	-12576
▁보안법	-12577
▁프로모션	-12578
▁AG	-12579
▁강세	-12580
▁남조	-12581
▁유타	-12582
▁포화	-12583
라호마	-12584
스코트	-12585
▁오클라호마	-12586
▁돗	-12587
코타	-12588
▁it	-12589
▁교지	-12590
▁사내	-12591
▁증세	-12592
▁단거리	-12593
▁유니버스	-12594
열차	-12595
▁내포	-12596
▁몰두	-12597
▁수이	-12598
▁자릿	-12599
▁파직	-12600
▁홈경기	-12601
▁1864	-12602
▁기밀	-12603
▁동차	-12604
▁슬프	-12605
▁승하	-12606
▁프랑코	-12607
▁오스트리	-12608
▁경건	-12609
▁모국	-12610
▁승단	-12611
▁허블	-12612
▁홀딩	-12613
▁마을버스	-12614
▁하이브리드	-12615
디슨	-12616
orm	-12617
▁불분	-12618
▁사하	-12619
▁음주	-12620
▁착하	-12621
▁아카이	-12622
▁황해도	-12623
▁후세인	-12624
아메리카	-12625
▁석가모니	-12626
▁다행	-12627
▁리트	-12628
▁삭스	-12629
▁양현	-12630
▁장전	-12631
▁표절	-12632
솔리니	-12633
▁Open	-12634
▁스트리밍	-12635
EP	-12636
달마	-12637
▁꺼리	-12638
▁왕관	-12639
▁전교	-12640
▁추존	-12641
▁혼혈	-12642
▁네티즌	-12643
▁뛰어넘	-12644
▁광업	-12645
▁만점	-12646
▁발톱	-12647
▁암모	-12648
▁잔디	-12649
▁지면	-12650
▁평탄	-12651
▁백악기	-12652
▁도르트문트	-12653
예술	-12654
콘신	-12655
▁라라	-12656
▁워킹	-12657
▁노동력	-12658
▁음악원	-12659
▁참의원	-12660
▁위스콘신	-12661
▁다카라즈카	-12662
▁가독	-12663
▁공판	-12664
▁관용	-12665
▁오일	-12666
▁격투기	-12667
▁데이빗	-12668
▁카이로	-12669
타입	-12670
플린	-12671
▁방공	-12672
▁에두	-12673
▁푸아	-12674
▁히토	-12675
▁주나라	-12676
▁휘두르	-12677
▁미네소타	-12678
▁크리에이	-12679
▁Ed	-12680
▁뒤늦	-12681
▁마요	-12682
▁백업	-12683
▁뷰티	-12684
▁예의	-12685
▁패권	-12686
▁현미	-12687
▁생성물	-12688
▁재판관	-12689
▁재판부	-12690
해살이풀	-12691
▁남베트남	-12692
▁캣	-12693
ION	-12694
▁근래	-12695
▁쿼크	-12696
▁사나이	-12697
라이어티	-12698
▁컴파일러	-12699
▁버라이어티	-12700
ational	-12701
▁객원	-12702
▁관내	-12703
▁구례	-12704
▁눈치	-12705
▁말단	-12706
▁아편	-12707
▁애완	-12708
▁침대	-12709
▁도라에몽	-12710
▁경매	-12711
▁러닝	-12712
▁부풀	-12713
ton	-12714
▁건네	-12715
▁배트	-12716
▁조경	-12717
바도르	-12718
▁관련자	-12719
▁행정동	-12720
▁1830	-12721
▁남송	-12722
▁리에	-12723
▁어우	-12724
▁이별	-12725
▁이은	-12726
▁전리	-12727
▁하얀	-12728
▁홈즈	-12729
▁고모	-12730
▁도산	-12731
▁쓰루	-12732
▁정황	-12733
▁카와	-12734
▁필연	-12735
ject	-12736
▁iOS	-12737
▁감리교	-12738
▁대표단	-12739
▁무작위	-12740
▁피닉스	-12741
▁1881	-12742
▁루스벨트	-12743
브웨	-12744
클럽	-12745
▁루나	-12746
▁민물	-12747
▁스윙	-12748
▁잠실	-12749
▁헌납	-12750
▁압록강	-12751
▁유전체	-12752
▁트레이닝	-12753
▁Music	-12754
▁군세	-12755
▁대강	-12756
▁목욕	-12757
▁복직	-12758
▁이누	-12759
▁짐바	-12760
▁코난	-12761
▁황자	-12762
▁반대파	-12763
렌스	-12764
▁더하	-12765
▁세간	-12766
▁재벌	-12767
▁난이도	-12768
▁사들이	-12769
스레	-12770
▁XP	-12771
▁보정	-12772
▁승지	-12773
▁오우	-12774
▁왕성	-12775
ave	-12776
▁고하	-12777
▁김희	-12778
▁삼척	-12779
▁스몰	-12780
▁대교구	-12781
▁모멘트	-12782
▁피츠버그	-12783
▁en	-12784
▁if	-12785
▁등등	-12786
▁마티	-12787
▁메츠	-12788
▁벌레	-12789
▁선율	-12790
▁스기	-12791
▁알맞	-12792
▁양조	-12793
▁조심	-12794
▁청문	-12795
▁기획사	-12796
▁외무부	-12797
▁이메일	-12798
▁캐스트	-12799
▁합창단	-12800
▁킷	-12801
▁an	-12802
▁나마	-12803
▁다비	-12804
▁발하	-12805
▁부전	-12806
▁소라	-12807
▁의례	-12808
▁까마귀	-12809
▁농어촌	-12810
▁여학생	-12811
▁아이디얼	-12812
께끼	-12813
뛰기	-12814
화경	-12815
▁괘불	-12816
▁기고	-12817
▁닛산	-12818
▁매진	-12819
▁종업	-12820
▁판관	-12821
▁편하	-12822
▁로맨틱	-12823
▁수수께끼	-12824
▁기통	-12825
▁미상	-12826
▁산기	-12827
▁아타	-12828
▁익산	-12829
▁쿠로	-12830
▁통지	-12831
▁파주	-12832
▁750	-12833
▁아이콘	-12834
TE	-12835
▁엿보	-12836
▁라치오	-12837
▁마르셀	-12838
▁1872	-12839
▁대한항공	-12840
▁댈	-12841
▁경도	-12842
▁곱셈	-12843
▁딸리	-12844
▁배아	-12845
▁생도	-12846
▁용사	-12847
▁찍히	-12848
▁챙기	-12849
▁흑백	-12850
▁HTML	-12851
▁부르주아	-12852
▁BL	-12853
▁교제	-12854
▁레비	-12855
▁발포	-12856
▁부실	-12857
▁북벌	-12858
▁야망	-12859
▁양면	-12860
▁콘티	-12861
▁돋보이	-12862
▁롬바르	-12863
▁화성시	-12864
▁이시카와	-12865
▁쵸	-12866
덕왕	-12867
▁그란	-12868
▁닌자	-12869
▁신봉	-12870
▁투하	-12871
▁트란	-12872
올로기	-12873
▁이데올로기	-12874
루크	-12875
어드	-12876
▁꼬마	-12877
▁로니	-12878
▁배향	-12879
▁별장	-12880
▁순항	-12881
▁여호	-12882
▁캐피	-12883
▁파열	-12884
▁슬로건	-12885
QL	-12886
▁베일	-12887
▁인제	-12888
▁범죄자	-12889
▁참가국	-12890
▁꿰	-12891
나파	-12892
▁가곡	-12893
▁경량	-12894
▁곡면	-12895
▁종묘	-12896
▁중랑	-12897
▁진흙	-12898
▁다비드	-12899
▁라이스	-12900
▁불분명	-12901
▁무솔리니	-12902
평리	-12903
ics	-12904
▁금고	-12905
▁내재	-12906
▁당과	-12907
▁머니	-12908
▁샤이	-12909
▁시원	-12910
▁취향	-12911
▁부다페스트	-12912
▁엡	-12913
림사	-12914
▁국호	-12915
▁당진	-12916
▁레아	-12917
▁매스	-12918
▁원동	-12919
리아스	-12920
▁세르게이	-12921
▁입시	-12922
▁지경	-12923
▁체하	-12924
▁켄터	-12925
▁해킹	-12926
▁개체군	-12927
▁파충류	-12928
▁화학자	-12929
비오	-12930
쿠니	-12931
▁Sm	-12932
▁교동	-12933
▁단국	-12934
▁발산	-12935
▁승상	-12936
▁친밀	-12937
▁코뮌	-12938
태평양	-12939
▁센다이	-12940
▁호크스	-12941
▁세계유산	-12942
바인	-12943
성경	-12944
▁"-	-12945
▁te	-12946
▁가든	-12947
▁반죽	-12948
▁의용	-12949
▁이례	-12950
▁팔작	-12951
슬라프	-12952
▁다시금	-12953
▁선제골	-12954
▁교통사고	-12955
데자	-12956
▁AL	-12957
▁Ab	-12958
▁복역	-12959
▁옹주	-12960
▁페라	-12961
▁계승자	-12962
데자네이	-12963
▁유라시아	-12964
리쿠	-12965
▁두어	-12966
▁조시	-12967
▁클릭	-12968
▁탄산	-12969
▁파기	-12970
▁모란	-12971
▁브렌	-12972
▁서지	-12973
▁완비	-12974
▁조장	-12975
▁주고	-12976
▁햇빛	-12977
▁청년회	-12978
워즈	-12979
▁메우	-12980
▁몸돌	-12981
▁을사	-12982
▁허목	-12983
▁Don	-12984
▁챌린저	-12985
▁코호몰로지	-12986
ru	-12987
▁과다	-12988
▁정명	-12989
▁하얀색	-12990
▁샵	-12991
번에	-12992
ode	-12993
▁양궁	-12994
▁인위	-12995
▁탐정	-12996
▁해시	-12997
▁경복궁	-12998
▁폼페이	-12999
▁1865	-13000
더지	-13001
▁경마	-13002
▁도봉	-13003
▁상파	-13004
▁슈고	-13005
▁오트	-13006
▁킹스	-13007
▁토로	-13008
▁티모	-13009
▁피카	-13010
▁앞세우	-13011
▁초록색	-13012
▁1873	-13013
▁아비달마	-13014
ier	-13015
▁봉황	-13016
▁장쑤	-13017
▁직관	-13018
▁휩싸	-13019
▁공통점	-13020
▁밀가루	-13021
▁탐험가	-13022
▁1863	-13023
▁거꾸	-13024
▁대의	-13025
▁처방	-13026
▁태아	-13027
▁국민회	-13028
▁승용차	-13029
▁안산시	-13030
▁유니언	-13031
▁마스코트	-13032
▁계좌	-13033
▁등단	-13034
▁열렬	-13035
▁합금	-13036
▁고성군	-13037
▁박영효	-13038
▁여진족	-13039
▁작품상	-13040
▁타임즈	-13041
▁항아리	-13042
데자네이루	-13043
▁리우데자네이루	-13044
▁리브	-13045
▁법전	-13046
▁비키	-13047
▁살짝	-13048
▁어촌	-13049
▁위법	-13050
▁조공	-13051
▁피셔	-13052
▁세군다	-13053
▁제프리	-13054
▁오카야마	-13055
▁Night	-13056
리야	-13057
매김	-13058
▁고난	-13059
▁기쁘	-13060
▁루즈	-13061
▁박진	-13062
▁반항	-13063
▁버펄	-13064
▁병단	-13065
▁신대	-13066
▁왓슨	-13067
▁작년	-13068
▁잠기	-13069
▁코마	-13070
▁포대	-13071
▁픽셀	-13072
▁시간대	-13073
쿠르	-13074
▁--	-13075
▁납작	-13076
▁대목	-13077
▁착취	-13078
▁페인	-13079
변속기	-13080
▁발기인	-13081
UC	-13082
단위	-13083
린더	-13084
ool	-13085
▁단자	-13086
▁덴쇼	-13087
▁리자	-13088
▁외상	-13089
▁그나마	-13090
사화	-13091
▁NS	-13092
▁쇼크	-13093
▁한창	-13094
stem	-13095
▁시티즌	-13096
▁와이드	-13097
▁우간다	-13098
▁지자체	-13099
▁1891	-13100
▁공군기지	-13101
친왕	-13102
▁구강	-13103
▁구슬	-13104
▁란스	-13105
▁미인	-13106
▁적발	-13107
▁철종	-13108
▁충당	-13109
▁노르드	-13110
▁조선소	-13111
인구	-13112
▁가비	-13113
▁경지	-13114
▁모함	-13115
▁벌리	-13116
▁재고	-13117
▁혈압	-13118
▁공식전	-13119
▁승정원	-13120
▁앤드류	-13121
▁야쿠르트	-13122
NG	-13123
라르	-13124
미쓰	-13125
▁계엄	-13126
▁도도	-13127
▁몰도바	-13128
▁생화학	-13129
▁자리매김	-13130
▁쩔	-13131
동맹	-13132
훈장	-13133
ise	-13134
▁볼넷	-13135
▁야심	-13136
▁요즘	-13137
▁입술	-13138
▁캐치	-13139
▁하스	-13140
▁현무	-13141
▁켄터키	-13142
바지	-13143
타스	-13144
▁PM	-13145
▁매도	-13146
▁매립	-13147
▁산책	-13148
▁이야	-13149
▁후한	-13150
▁IMF	-13151
▁다국적	-13152
시대	-13153
▁MA	-13154
▁고마	-13155
▁굴복	-13156
▁두텁	-13157
▁부추	-13158
▁카슈	-13159
플렉스	-13160
▁제너럴	-13161
▁무로마치	-13162
▁짐바브웨	-13163
▁AI	-13164
▁마모	-13165
▁유태	-13166
▁촉발	-13167
부아르	-13168
이스케	-13169
▁다마스	-13170
▁해부학	-13171
▁Good	-13172
▁괜	-13173
che	-13174
▁걸작	-13175
▁과격	-13176
▁맞춤	-13177
▁스킬	-13178
▁에치	-13179
▁여대	-13180
▁ret	-13181
▁발가락	-13182
▁베스트셀러	-13183
▁MM	-13184
▁라크	-13185
▁무고	-13186
▁불로	-13187
▁시진	-13188
▁자켓	-13189
▁최장	-13190
▁릴레이	-13191
▁백악관	-13192
▁삼국유사	-13193
▁급하	-13194
▁반점	-13195
▁아뢰	-13196
▁제작진	-13197
▁종업원	-13198
▁트로트	-13199
▁포항시	-13200
▁삐	-13201
거나	-13202
레반	-13203
▁우마	-13204
▁후미	-13205
▁노르만	-13206
▁수시로	-13207
▁크루즈	-13208
▁테무르	-13209
▁Black	-13210
▁온타리오주	-13211
▁샴	-13212
▁연행	-13213
▁진원	-13214
▁터빈	-13215
▁필두	-13216
레타리아	-13217
▁스테이트	-13218
▁프롤레타리아	-13219
▁오즈	-13220
▁위헌	-13221
▁증강	-13222
▁직교	-13223
▁체내	-13224
▁키즈	-13225
▁투신	-13226
▁튼튼	-13227
▁헤어	-13228
▁650	-13229
▁받침돌	-13230
▁자유형	-13231
참찬	-13232
▁극찬	-13233
▁부에	-13234
▁세단	-13235
▁신의	-13236
▁용감	-13237
▁조준	-13238
▁주저	-13239
▁매달리	-13240
70	-13241
무제	-13242
▁교서	-13243
▁리키	-13244
▁분경	-13245
▁소작	-13246
▁채굴	-13247
▁믈	-13248
▁국부	-13249
▁나탈	-13250
▁네임	-13251
▁반론	-13252
▁거꾸로	-13253
▁콧	-13254
내티	-13255
상어	-13256
세다	-13257
킨슨	-13258
▁농성	-13259
▁당당	-13260
▁문정	-13261
▁활자	-13262
▁흡연	-13263
합중국	-13264
▁Can	-13265
▁취리히	-13266
▁타이탄	-13267
▁신시내티	-13268
▁조선왕조	-13269
▁걸프	-13270
▁병과	-13271
▁흔들	-13272
▁김성수	-13273
고르	-13274
티야	-13275
포타	-13276
▁qu	-13277
▁간판	-13278
▁내역	-13279
ower	-13280
▁연주회	-13281
▁하반기	-13282
▁이바라키	-13283
ai	-13284
▁켜	-13285
▁강호	-13286
▁무도	-13287
▁사교	-13288
▁서위	-13289
▁신해	-13290
▁양양	-13291
▁연화	-13292
▁이강	-13293
▁조어	-13294
▁반정부	-13295
▁팔작지붕	-13296
DS	-13297
▁El	-13298
▁송진	-13299
▁오보	-13300
▁조석	-13301
▁처치	-13302
▁파랑	-13303
타나베	-13304
▁550	-13305
▁자외선	-13306
▁기묘	-13307
▁모반	-13308
▁수퍼	-13309
▁진언	-13310
▁해지	-13311
▁서두르	-13312
▁스코어	-13313
▁연출가	-13314
포타미아	-13315
▁메소포타미아	-13316
펠러	-13317
▁광자	-13318
▁사드	-13319
▁캐논	-13320
▁타도	-13321
▁피어	-13322
▁헌병	-13323
▁황폐	-13324
▁횡령	-13325
▁이성질	-13326
▁페르디난트	-13327
대전	-13328
리언	-13329
조리	-13330
ank	-13331
▁광배	-13332
▁엘라	-13333
▁열쇠	-13334
▁705	-13335
▁레인저	-13336
▁미카엘	-13337
▁엑스포	-13338
▁q	-13339
▁토유	-13340
선거구	-13341
▁용산구	-13342
▁입법부	-13343
▁플러그	-13344
▁1862	-13345
▁라이프치히	-13346
▁DR	-13347
▁Qu	-13348
▁국력	-13349
▁군자	-13350
▁대담	-13351
▁루피	-13352
▁변증	-13353
▁산신	-13354
▁아델	-13355
▁양군	-13356
▁저축	-13357
▁증발	-13358
▁처장	-13359
▁1867	-13360
▁section	-13361
정사	-13362
▁장신	-13363
▁전멸	-13364
▁Let	-13365
▁사무국	-13366
▁페드로	-13367
센터	-13368
▁Ac	-13369
▁성수	-13370
▁심정	-13371
▁온건	-13372
▁접전	-13373
▁증식	-13374
▁행보	-13375
세우스	-13376
▁타타르	-13377
진구	-13378
▁LS	-13379
▁길드	-13380
▁독주	-13381
▁분별	-13382
▁연달	-13383
▁티저	-13384
▁현도	-13385
▁MSL	-13386
▁부등식	-13387
▁앨버트	-13388
▁언론사	-13389
▁아오모리	-13390
▁사이타마현	-13391
▁궐	-13392
▁-&	-13393
▁UC	-13394
▁경은	-13395
▁교훈	-13396
▁노브	-13397
▁스톰	-13398
▁예종	-13399
▁온두	-13400
▁적정	-13401
드라마	-13402
▁변광성	-13403
▁사보이	-13404
▁6000	-13405
▁미합중국	-13406
▁빠져나가	-13407
▁온두라스	-13408
▁협동조합	-13409
다발	-13410
▁서한	-13411
▁저해	-13412
▁코모	-13413
ings	-13414
▁경희대	-13415
방군	-13416
▁AU	-13417
▁심소	-13418
▁옥시	-13419
▁유구	-13420
▁잔존	-13421
▁조서	-13422
▁쿠라	-13423
▁푸드	-13424
▁히노	-13425
▁이브스	-13426
▁백과사전	-13427
▁이노우에	-13428
비언	-13429
▁객실	-13430
▁나사	-13431
▁씌우	-13432
▁키릴	-13433
▁알폰소	-13434
▁팍	-13435
디언	-13436
렐라	-13437
투르	-13438
▁고찰	-13439
▁Ser	-13440
▁손잡이	-13441
위치	-13442
▁가물	-13443
▁당파	-13444
▁치이	-13445
▁하중	-13446
▁특별법	-13447
lar	-13448
▁간결	-13449
▁내란	-13450
▁변모	-13451
▁상선	-13452
▁청각	-13453
▁감염증	-13454
▁웨이브	-13455
▁제조사	-13456
▁종사자	-13457
▁프로테	-13458
▁탬	-13459
활약	-13460
▁도발	-13461
▁동탁	-13462
▁보직	-13463
▁완수	-13464
▁지그	-13465
▁지문	-13466
▁증조부	-13467
▁국민학교	-13468
▁동자	-13469
▁성품	-13470
▁유망	-13471
▁절약	-13472
▁지탱	-13473
▁회유	-13474
절도사	-13475
▁마그네	-13476
중추부사	-13477
루엔	-13478
▁건륭제	-13479
▁맹활약	-13480
▁치료제	-13481
▁페르미	-13482
▁플루토	-13483
▁신한은행	-13484
▁썩	-13485
▁번개	-13486
▁잉크	-13487
▁충칭	-13488
▁폴라	-13489
▁일본식	-13490
▁비스마르크	-13491
▁낡	-13492
젤로	-13493
▁괄호	-13494
▁교화	-13495
▁버진	-13496
▁수당	-13497
▁엘레	-13498
▁유림	-13499
rist	-13500
▁And	-13501
▁인지도	-13502
▁지질학	-13503
▁편집장	-13504
ky	-13505
▁썬	-13506
▁SO	-13507
▁가극	-13508
▁벵골	-13509
▁차림	-13510
가르트	-13511
▁댈러스	-13512
▁신기록	-13513
▁출입문	-13514
▁꽃잎	-13515
▁서거	-13516
▁표출	-13517
▁필명	-13518
▁곁들이	-13519
▁대리석	-13520
▁컴파일	-13521
▁1878	-13522
ee	-13523
▁자행	-13524
▁직물	-13525
▁항생	-13526
▁경쟁자	-13527
▁나치오	-13528
▁홀딩스	-13529
▁프라이즈	-13530
▁미나모토노	-13531
북면	-13532
▁무너	-13533
▁충신	-13534
▁행군	-13535
▁802	-13536
▁사대부	-13537
▁자릿수	-13538
▁무너뜨리	-13539
▁스파이더	-13540
ta	-13541
할린	-13542
▁급성	-13543
▁보류	-13544
▁세토	-13545
▁기원후	-13546
▁고등학생	-13547
▁뵈	-13548
자원	-13549
▁각주	-13550
▁라다	-13551
▁손님	-13552
▁옥천	-13553
▁용수	-13554
▁점진	-13555
▁중용	-13556
▁참수	-13557
▁추축	-13558
▁후드	-13559
▁무사히	-13560
tr	-13561
니티	-13562
빌리	-13563
산부	-13564
▁RC	-13565
▁국화	-13566
▁그거	-13567
▁시르	-13568
▁영미	-13569
▁용해	-13570
▁지린	-13571
▁참패	-13572
▁텍스	-13573
▁현악	-13574
에이고	-13575
플로러	-13576
▁샌디에이고	-13577
▁익스플로러	-13578
▁Ag	-13579
▁바쿠	-13580
▁박원	-13581
▁서점	-13582
▁완만	-13583
▁지체	-13584
▁라면서	-13585
▁프랑스와	-13586
▁밋	-13587
구나	-13588
퉁이	-13589
hem	-13590
▁PL	-13591
▁수급	-13592
▁유화	-13593
▁콜드	-13594
▁갈아타	-13595
▁부여군	-13596
▁되돌아가	-13597
▁밧	-13598
벤션	-13599
▁영사	-13600
▁피처	-13601
▁수도회	-13602
▁원자핵	-13603
▁포뮬러	-13604
▁프리츠	-13605
▁핵분열	-13606
▁데카르트	-13607
▁세인트루이스	-13608
정보	-13609
▁과자	-13610
▁글렌	-13611
▁북대	-13612
▁수레	-13613
▁습성	-13614
▁시역	-13615
▁일설	-13616
▁자부	-13617
▁잔해	-13618
▁추계	-13619
시아드	-13620
▁뉴기니	-13621
▁액세스	-13622
▁연예계	-13623
▁외교부	-13624
▁주고받	-13625
▁명성황후	-13626
▁스케이트	-13627
▁요리토모	-13628
▁팻	-13629
마디	-13630
시게	-13631
일치	-13632
▁고국	-13633
▁이끼	-13634
▁정박	-13635
▁출국	-13636
▁헤더	-13637
▁형주	-13638
▁HMS	-13639
▁프라임	-13640
▁일리노이주	-13641
▁유니버시아드	-13642
▁ㅣ	-13643
▁개기	-13644
▁국인	-13645
▁부군	-13646
▁소피	-13647
▁으러	-13648
▁기동전	-13649
▁베르나	-13650
▁쿠르드	-13651
▁키르기스	-13652
▁널	-13653
▁강우	-13654
▁부관	-13655
▁수비대	-13656
▁아이젠	-13657
▁유엔군	-13658
▁인코딩	-13659
네르	-13660
테이	-13661
▁근방	-13662
▁다량	-13663
▁모티	-13664
▁무비	-13665
▁솔라	-13666
▁스에	-13667
▁육식	-13668
▁축일	-13669
▁쿼터	-13670
▁패킷	-13671
뉴기니	-13672
▁봉우리	-13673
▁불가피	-13674
누마	-13675
▁기조	-13676
▁매슈	-13677
▁반입	-13678
▁일선	-13679
▁며느리	-13680
▁운동량	-13681
사우루스	-13682
▁1869	-13683
▁글로브상	-13684
▁와타나베	-13685
▁후지와라	-13686
▁코퍼레이션	-13687
▁넘버	-13688
▁맛보	-13689
▁부두	-13690
▁애기	-13691
▁추후	-13692
▁헤겔	-13693
▁방위군	-13694
▁와세다	-13695
▁아우구스	-13696
▁tr	-13697
▁가방	-13698
▁거사	-13699
▁면직	-13700
▁상의	-13701
▁516	-13702
▁골짜기	-13703
▁업로드	-13704
▁레지스터	-13705
▁힐베르트	-13706
곡면	-13707
▁닉스	-13708
▁대타	-13709
▁로시	-13710
▁몸체	-13711
▁무색	-13712
▁사소	-13713
▁마포구	-13714
▁패스트	-13715
▁1840	-13716
BI	-13717
▁교파	-13718
▁귀인	-13719
▁변질	-13720
▁의정	-13721
▁치사	-13722
▁퀴즈	-13723
▁토키	-13724
▁패망	-13725
▁포천	-13726
▁포탑	-13727
스타인	-13728
▁사이언스	-13729
▁랙	-13730
▁목동	-13731
▁이목	-13732
▁초음	-13733
▁출세	-13734
▁컴필	-13735
▁컵스	-13736
▁컴필레이션	-13737
셔주	-13738
▁그물	-13739
▁시시	-13740
▁오자	-13741
▁자정	-13742
▁포자	-13743
▁매킨토시	-13744
▁영유권	-13745
▁오스카	-13746
노르	-13747
블릿	-13748
작전	-13749
탄두	-13750
▁공상	-13751
▁디나	-13752
▁사부	-13753
▁쫓기	-13754
▁청취	-13755
▁토라	-13756
▁네이트	-13757
▁Song	-13758
▁에이전트	-13759
▁낯	-13760
세르	-13761
▁다목	-13762
▁민심	-13763
▁하수	-13764
▁휘발	-13765
▁금강산	-13766
▁시니어	-13767
▁치료법	-13768
▁벳	-13769
암사	-13770
티컷	-13771
▁단역	-13772
▁벤츠	-13773
▁숙소	-13774
▁입출	-13775
▁1592	-13776
▁친선경기	-13777
▁코네티컷	-13778
선언	-13779
▁AA	-13780
▁VS	-13781
▁냐고	-13782
▁단서	-13783
▁빈민	-13784
▁상식	-13785
▁쌍성	-13786
ount	-13787
▁보유자	-13788
▁여객기	-13789
pr	-13790
효소	-13791
ade	-13792
▁KN	-13793
▁베오	-13794
▁소박	-13795
▁에트	-13796
▁위도	-13797
▁자처	-13798
▁전단	-13799
▁절친	-13800
▁천상	-13801
▁강력히	-13802
▁스트림	-13803
▁안동시	-13804
▁예언자	-13805
▁장로회	-13806
▁채권자	-13807
크라테스	-13808
ata	-13809
per	-13810
▁논산	-13811
▁렉스	-13812
▁스택	-13813
▁자질	-13814
▁리차드	-13815
▁목적지	-13816
▁바닷물	-13817
▁팔꿈치	-13818
수염	-13819
▁고을	-13820
▁고제	-13821
▁국세	-13822
▁더러	-13823
▁빅터	-13824
▁성가	-13825
▁Mon	-13826
▁운전자	-13827
▁적십자	-13828
▁파시스트	-13829
▁크리스티나	-13830
IF	-13831
▁Pe	-13832
▁미학	-13833
▁바인	-13834
▁유자	-13835
▁자취	-13836
▁캐슬	-13837
▁떠올리	-13838
▁지하역	-13839
구스	-13840
▁금색	-13841
▁베라	-13842
▁변혁	-13843
▁블러	-13844
▁온실	-13845
▁저그	-13846
▁헤일	-13847
▁남아시아	-13848
▁린다	-13849
▁영수	-13850
▁자루	-13851
▁철자	-13852
▁풍기	-13853
▁호그	-13854
▁글러브	-13855
▁병자호란	-13856
날레	-13857
수단	-13858
조사	-13859
찬성	-13860
▁me	-13861
▁괜찮	-13862
▁병풍	-13863
▁암수	-13864
▁오마	-13865
▁유골	-13866
▁의복	-13867
▁텐서	-13868
▁튜브	-13869
▁로타르	-13870
▁이랜드	-13871
▁볶	-13872
ium	-13873
▁강인	-13874
▁계룡	-13875
▁마레	-13876
▁바쁘	-13877
▁슈투	-13878
▁최하	-13879
▁피살	-13880
▁맥아더	-13881
▁세미나	-13882
▁어도비	-13883
▁고등교육	-13884
▁아나키스트	-13885
▁Windows	-13886
90	-13887
IX	-13888
▁어사	-13889
▁준동	-13890
▁탁구	-13891
▁KTX	-13892
▁관심사	-13893
▁창립자	-13894
▁근본번뇌	-13895
▁로드리게스	-13896
부시	-13897
▁기행	-13898
▁란트	-13899
▁수만	-13900
▁악명	-13901
▁양파	-13902
▁여포	-13903
▁유이	-13904
▁직렬	-13905
▁그래도	-13906
▁엇갈리	-13907
▁테크놀	-13908
▁필사본	-13909
▁끌리	-13910
▁백조	-13911
▁성대	-13912
▁아어	-13913
▁환율	-13914
이치로	-13915
▁파주시	-13916
▁모자이크	-13917
▁심리학자	-13918
▁Heart	-13919
▁아나톨리아	-13920
▁거창	-13921
▁바보	-13922
▁염화	-13923
▁워스	-13924
▁웍스	-13925
▁이카	-13926
▁중일	-13927
▁구단주	-13928
▁휩싸이	-13929
▁여우원숭이	-13930
보당	-13931
▁Gl	-13932
▁규율	-13933
▁다쓰	-13934
▁볼록	-13935
▁의주	-13936
▁인승	-13937
▁임종	-13938
▁하라	-13939
▁과반수	-13940
날드	-13941
전선	-13942
▁니케	-13943
▁독살	-13944
▁삭감	-13945
▁상동	-13946
▁신지	-13947
▁오도	-13948
▁지요	-13949
▁클리어	-13950
▁뉘른베르크	-13951
넌트	-13952
욕장	-13953
▁동호	-13954
▁박히	-13955
▁사주	-13956
▁수증	-13957
▁실사	-13958
▁해트	-13959
▁흥원	-13960
▁뒤따르	-13961
▁비둘기	-13962
▁형용사	-13963
▁히타치	-13964
▁8000	-13965
▁그린란드	-13966
▁return	-13967
ae	-13968
던트	-13969
▁ab	-13970
▁김연	-13971
▁뉴런	-13972
▁셔틀	-13973
▁시찰	-13974
▁예식	-13975
▁윤휴	-13976
▁친화	-13977
▁개그맨	-13978
▁리스본	-13979
▁종착역	-13980
▁크메르	-13981
▁지장보살	-13982
▁펜실베이니아주	-13983
테랑	-13984
히메	-13985
▁라프	-13986
▁루도	-13987
▁발착	-13988
▁설리	-13989
▁실상	-13990
▁연중	-13991
▁이심	-13992
▁질투	-13993
▁와카야마	-13994
링겐	-13995
어하	-13996
ale	-13997
▁Aw	-13998
▁강습	-13999
▁농가	-14000
▁능가	-14001
▁다름	-14002
▁문체	-14003
▁상과	-14004
▁원문	-14005
▁정오	-14006
▁보호법	-14007
▁성폭행	-14008
기아	-14009
▁겸직	-14010
▁들르	-14011
▁문중	-14012
▁사와	-14013
▁어선	-14014
▁오시	-14015
▁외면	-14016
▁외척	-14017
▁위크	-14018
▁중견	-14019
▁페레	-14020
▁한민	-14021
▁380	-14022
▁안타깝	-14023
▁피의자	-14024
▁1875	-14025
히데	-14026
▁권익	-14027
▁조비	-14028
▁침식	-14029
▁담당자	-14030
▁안창호	-14031
▁집단군	-14032
▁헤르만	-14033
뻐하	-14034
사유	-14035
▁뒤지	-14036
▁사각	-14037
▁서약	-14038
▁키리	-14039
▁타나	-14040
▁호른	-14041
▁기뻐하	-14042
▁되돌아오	-14043
▁영등포구	-14044
기즈	-14045
▁걸음	-14046
▁숙련	-14047
▁잠입	-14048
▁포인	-14049
▁바빌로니아	-14050
어가	-14051
▁As	-14052
▁방울	-14053
▁유카	-14054
▁키드	-14055
레이트	-14056
▁Gen	-14057
▁가환환	-14058
▁시미즈	-14059
▁친환경	-14060
▁랠	-14061
구니	-14062
놀드	-14063
세서	-14064
▁기린	-14065
▁다자	-14066
▁디바	-14067
▁왜군	-14068
▁Out	-14069
▁대항전	-14070
▁토요타	-14071
▁학술지	-14072
▁알프레드	-14073
▁DB	-14074
▁도적	-14075
▁원단	-14076
▁은밀	-14077
▁재보	-14078
▁징집	-14079
▁콜린	-14080
▁특공	-14081
▁강대국	-14082
▁스피커	-14083
▁신석기	-14084
▁예비역	-14085
▁이와테	-14086
▁진주시	-14087
PA	-14088
계사	-14089
방향	-14090
▁로사	-14091
▁몹시	-14092
▁율법	-14093
▁파랗	-14094
▁AMD	-14095
▁데이트	-14096
▁레스터	-14097
▁사이즈	-14098
▁스케치	-14099
▁ㄴ단	-14100
▁노현	-14101
▁막강	-14102
▁미지	-14103
▁생원	-14104
▁선상	-14105
▁어부	-14106
▁이선	-14107
▁착각	-14108
▁혼잡	-14109
▁고문서	-14110
▁나리타	-14111
▁보리스	-14112
▁컨벤션	-14113
▁크라운	-14114
▁항공대	-14115
▁회고록	-14116
son	-14117
▁기판	-14118
▁선체	-14119
▁열세	-14120
▁표제	-14121
▁다이쇼	-14122
▁돌고래	-14123
▁파스칼	-14124
▁결말	-14125
▁귀엽	-14126
▁면담	-14127
▁목장	-14128
▁불복	-14129
▁엔젤	-14130
▁이씨	-14131
▁이희	-14132
세데스	-14133
▁매디슨	-14134
▁열역학	-14135
▁포르투갈어	-14136
▁싯	-14137
itt	-14138
▁바늘	-14139
▁비료	-14140
▁인먼	-14141
▁절충	-14142
▁정칙	-14143
▁집전	-14144
▁첩보	-14145
▁출품	-14146
루엔자	-14147
▁칭기즈	-14148
▁테오도	-14149
▁표트르	-14150
▁메르세데스	-14151
르카	-14152
이에	-14153
▁TS	-14154
▁sh	-14155
▁리크	-14156
▁명상	-14157
▁애착	-14158
▁일명	-14159
▁최남	-14160
▁태안	-14161
▁게임기	-14162
▁스케줄	-14163
▁통신망	-14164
▁몽고메리	-14165
▁김두	-14166
▁실명	-14167
▁야수	-14168
▁여럿	-14169
▁예프	-14170
▁파라오	-14171
UN	-14172
▁눌	-14173
더링	-14174
두사	-14175
행파	-14176
▁슬리	-14177
▁칸트	-14178
▁터너	-14179
▁폐허	-14180
▁아세틸	-14181
▁중앙선	-14182
▁페널티킥	-14183
▁안드로메다	-14184
▁벙	-14185
▁구루	-14186
▁노원	-14187
▁버트	-14188
▁아노	-14189
▁안중	-14190
▁취직	-14191
▁슈타인	-14192
▁일부러	-14193
▁땀	-14194
▁니까	-14195
▁디디	-14196
▁모피	-14197
▁문관	-14198
▁야권	-14199
▁즐거	-14200
▁차명	-14201
그래피	-14202
▁베르트	-14203
▁코트디	-14204
▁함경도	-14205
▁남양주시	-14206
▁쇼트트랙	-14207
▁오프라인	-14208
▁쳐들어오	-14209
▁코트디부아르	-14210
▁결전	-14211
▁단양	-14212
▁순식	-14213
▁안식	-14214
▁용지	-14215
▁의성	-14216
▁맥스웰	-14217
▁쇼핑몰	-14218
▁합성어	-14219
▁브란덴부르크	-14220
부대	-14221
세키	-14222
▁묘호	-14223
▁박재	-14224
▁술라	-14225
▁월화	-14226
▁일차	-14227
▁타쿠	-14228
▁토피	-14229
▁강희제	-14230
▁장갑차	-14231
▁통도사	-14232
▁끌어올리	-14233
VA	-14234
화당	-14235
▁금정	-14236
▁닥치	-14237
▁달콤	-14238
▁등산	-14239
▁로큰	-14240
▁배반	-14241
▁서클	-14242
▁수은	-14243
▁에레	-14244
▁자장	-14245
able	-14246
▁DOS	-14247
▁부적절	-14248
▁송파구	-14249
▁아리랑	-14250
▁이사벨	-14251
▁클레어	-14252
▁프론트	-14253
알라	-14254
은사	-14255
임새	-14256
ody	-14257
▁WC	-14258
▁극소	-14259
▁기마	-14260
▁레몬	-14261
▁로바	-14262
▁모질	-14263
▁원효	-14264
록대부	-14265
▁Vol	-14266
엽수	-14267
▁거시	-14268
▁구시	-14269
▁생쥐	-14270
▁체로	-14271
▁향신	-14272
▁235	-14273
▁선거인	-14274
▁채무자	-14275
▁인플루엔자	-14276
13	-14277
벌리	-14278
어류	-14279
▁KO	-14280
▁감기	-14281
▁교관	-14282
▁기운	-14283
▁배당	-14284
▁서당	-14285
▁에코	-14286
▁영락	-14287
모음	-14288
시험	-14289
▁방호	-14290
▁성행	-14291
▁왕래	-14292
▁장정	-14293
▁Par	-14294
▁로큰롤	-14295
▁북극점	-14296
▁야마다	-14297
▁텅	-14298
▁구타	-14299
▁동거	-14300
▁활기	-14301
해방군	-14302
▁광둥성	-14303
▁꽃차례	-14304
▁상반기	-14305
▁싫어하	-14306
▁자격증	-14307
▁행해지	-14308
▁인민해방군	-14309
크리	-14310
▁구세	-14311
▁보우	-14312
▁위트	-14313
▁정언	-14314
▁초회	-14315
▁콘스	-14316
▁캐스터	-14317
박사	-14318
우주	-14319
▁규약	-14320
▁기공	-14321
▁라벨	-14322
▁무능	-14323
▁박용	-14324
▁세일	-14325
▁스펜	-14326
▁양지	-14327
▁웨어	-14328
▁잉카	-14329
▁출격	-14330
▁키트	-14331
▁획기	-14332
▁마주치	-14333
▁연속극	-14334
▁정치국	-14335
건설	-14336
▁라울	-14337
▁메모	-14338
▁시제	-14339
▁이질	-14340
▁헤센	-14341
▁"()	-14342
▁동아리	-14343
▁로버츠	-14344
▁바나나	-14345
▁카디널	-14346
▁통계청	-14347
▁저널리스트	-14348
ng	-14349
▁IR	-14350
▁ㄴ대	-14351
▁경의	-14352
▁내림	-14353
▁모체	-14354
▁문수	-14355
스코리아	-14356
루즈	-14357
몽골	-14358
윽고	-14359
▁가모	-14360
▁가세	-14361
▁이달	-14362
▁이홍	-14363
▁되풀이	-14364
▁이윽고	-14365
▁중앙아메리카	-14366
그램	-14367
▁가명	-14368
▁경순	-14369
▁기미	-14370
▁샤르	-14371
▁실은	-14372
▁월남	-14373
▁205	-14374
▁반감기	-14375
▁스케일	-14376
▁최성기	-14377
▁보컬리스트	-14378
▁맴	-14379
▁경종	-14380
▁모사	-14381
▁보그	-14382
▁수마	-14383
▁집사	-14384
▁비단털	-14385
▁사학자	-14386
▁콜럼버스	-14387
▁라이베리아	-14388
▁샷	-14389
▁탭	-14390
촌리	-14391
▁거머	-14392
▁대류	-14393
▁동군	-14394
▁래리	-14395
▁법규	-14396
▁상계	-14397
▁안톤	-14398
▁야코	-14399
▁가이아	-14400
▁건너오	-14401
▁보조금	-14402
▁비단털쥐	-14403
▁엑스박스	-14404
▁아우구스투스	-14405
18	-14406
쿠사	-14407
IVE	-14408
▁구아	-14409
▁빌드	-14410
▁양서	-14411
▁열악	-14412
▁염두	-14413
▁조봉	-14414
▁출사	-14415
▁타시	-14416
▁순식간	-14417
▁관음보살	-14418
데기	-14419
▁베티	-14420
▁병렬	-14421
▁석기	-14422
▁외할	-14423
▁자키	-14424
▁전조	-14425
▁정에	-14426
▁젤리	-14427
▁후루	-14428
▁708	-14429
▁NBC	-14430
▁뉴올리	-14431
▁데뷔작	-14432
▁유가행파	-14433
▁University	-14434
연구	-14435
▁At	-14436
▁금환	-14437
▁데일	-14438
▁아연	-14439
▁은폐	-14440
▁정글	-14441
▁정승	-14442
▁초계	-14443
▁패치	-14444
▁한겨	-14445
very	-14446
▁대수학	-14447
▁브로드웨이	-14448
▁조선공산당	-14449
▁AE	-14450
▁금하	-14451
▁라플	-14452
▁미첼	-14453
▁사미	-14454
▁숙박	-14455
▁양극	-14456
▁자위	-14457
▁젠더	-14458
▁ATC	-14459
▁사할린	-14460
▁슈미트	-14461
▁Hell	-14462
▁뤄	-14463
텐셜	-14464
▁JC	-14465
▁군복	-14466
▁시의	-14467
▁안심	-14468
▁폐교	-14469
진보당	-14470
▁시그마	-14471
▁콘라트	-14472
▁스틸러스	-14473
▁경화	-14474
▁근세	-14475
▁바니	-14476
▁변천	-14477
▁축복	-14478
▁케리	-14479
▁교육감	-14480
▁호흡기	-14481
▁서비스업	-14482
▁지하철역	-14483
양이	-14484
▁뮐러	-14485
▁실효	-14486
▁에노	-14487
▁재화	-14488
▁당뇨병	-14489
▁무지개	-14490
사와	-14491
에쓰	-14492
▁가뭄	-14493
▁복부	-14494
▁세스	-14495
▁시성	-14496
▁신병	-14497
▁안팎	-14498
▁외손	-14499
▁족장	-14500
▁포니	-14501
▁가요제	-14502
▁퍼텐셜	-14503
▁셴	-14504
르산	-14505
보라	-14506
anc	-14507
▁cc	-14508
▁균일	-14509
▁기스	-14510
▁나기	-14511
▁불쾌	-14512
▁수역	-14513
▁악당	-14514
▁옥사	-14515
▁잉여	-14516
▁카로	-14517
▁칼륨	-14518
▁후이	-14519
▁간호사	-14520
▁오릭스	-14521
▁슈퍼스타	-14522
▁퀄	-14523
▁단발	-14524
▁리시	-14525
▁서안	-14526
▁애드	-14527
▁에볼	-14528
▁읍성	-14529
▁김해시	-14530
▁서스펜	-14531
▁시마즈	-14532
▁오르간	-14533
▁테두리	-14534
▁name	-14535
▁그레이엄	-14536
주크	-14537
▁골절	-14538
▁노카	-14539
▁띄우	-14540
▁라지	-14541
▁비옥	-14542
▁우기	-14543
▁치마	-14544
▁한복	-14545
▁호로	-14546
▁확충	-14547
▁성폭력	-14548
바드	-14549
변수	-14550
열대	-14551
▁유충	-14552
▁일주	-14553
▁잔혹	-14554
▁풀백	-14555
▁품목	-14556
폴리탄	-14557
▁거주자	-14558
▁신호장	-14559
▁조각상	-14560
▁청문회	-14561
▁메트로폴리탄	-14562
▁가온	-14563
▁남단	-14564
▁마흐	-14565
▁소양	-14566
▁손목	-14567
▁전시관	-14568
▁로베르토	-14569
14	-14570
net	-14571
▁낭비	-14572
▁무가	-14573
▁발작	-14574
▁스펙	-14575
▁외삼	-14576
▁일간	-14577
▁창구	-14578
▁하산	-14579
▁사무관	-14580
▁조각가	-14581
▁한겨레	-14582
▁고층	-14583
▁그립	-14584
▁나한	-14585
▁산문	-14586
▁소론	-14587
▁솜씨	-14588
▁우표	-14589
▁줄곧	-14590
▁통솔	-14591
▁향수	-14592
▁다가가	-14593
▁반대편	-14594
▁안양시	-14595
▁유명세	-14596
▁핸드볼	-14597
▁1874	-14598
▁오아시스	-14599
▁우두머리	-14600
▁일렉트릭	-14601
so	-14602
▁잼	-14603
▁sp	-14604
▁리나	-14605
▁예제	-14606
▁중남	-14607
▁코로	-14608
스크림	-14609
▁tvN	-14610
▁This	-14611
▁바이마르	-14612
나들	-14613
란다	-14614
민당	-14615
악산	-14616
황색	-14617
▁동백	-14618
▁리타	-14619
▁무예	-14620
▁버니	-14621
▁사중	-14622
▁양평	-14623
▁종가	-14624
▁키타	-14625
▁학당	-14626
▁화승	-14627
▁라스트	-14628
▁안드레	-14629
▁콘퍼런스	-14630
me	-14631
▁멱	-14632
▁벚	-14633
범죄	-14634
신저	-14635
ATO	-14636
▁강좌	-14637
▁노라	-14638
▁도형	-14639
▁베크	-14640
▁칠성	-14641
▁침범	-14642
▁코크	-14643
▁화원	-14644
▁화음	-14645
▁남극점	-14646
▁트레일	-14647
▁미스코리아	-14648
큐슈	-14649
▁SR	-14650
▁몰수	-14651
▁볼드	-14652
▁산조	-14653
▁싱크	-14654
▁일삼	-14655
▁총영	-14656
▁로페스	-14657
▁천도교	-14658
▁출판물	-14659
▁클러스터	-14660
▁알렉산데르	-14661
소문	-14662
▁강국	-14663
▁뉴멕	-14664
▁델리	-14665
▁요가	-14666
▁요직	-14667
▁조동	-14668
▁쿠마	-14669
▁행선	-14670
▁뉴멕시코	-14671
▁컨퍼런스	-14672
▁파푸아뉴기니	-14673
au	-14674
계약	-14675
데일	-14676
프랑	-14677
피크	-14678
ala	-14679
▁상한	-14680
▁이문	-14681
▁인성	-14682
▁자성	-14683
▁잔여	-14684
▁적법	-14685
▁교육학	-14686
▁재미있	-14687
▁컨설팅	-14688
▁포식자	-14689
▁핵탄두	-14690
▁휴대폰	-14691
▁바그다드	-14692
▁멀티미디어	-14693
스퍼	-14694
▁발판	-14695
▁부엌	-14696
▁이색	-14697
▁인스	-14698
▁재회	-14699
▁클랜	-14700
▁협곡	-14701
▁홍익	-14702
▁갈릴레오	-14703
▁유니코드	-14704
▁마늘	-14705
▁자네	-14706
▁공주시	-14707
▁플루토늄	-14708
15	-14709
▁다쿠	-14710
▁석권	-14711
▁송이	-14712
▁우니	-14713
▁의제	-14714
▁탄수	-14715
▁퇴진	-14716
▁Dra	-14717
▁게임즈	-14718
▁공학자	-14719
▁비잔틴	-14720
▁저스틴	-14721
GB	-14722
ax	-14723
일기	-14724
oid	-14725
▁AF	-14726
▁YG	-14727
▁나일	-14728
▁모치	-14729
▁소인	-14730
▁에페	-14731
▁204	-14732
▁아놀드	-14733
▁지리산	-14734
▁항공편	-14735
▁후쿠이	-14736
▁감축	-14737
▁그르	-14738
▁기닿	-14739
▁판명	-14740
▁하지	-14741
▁회차	-14742
▁CIA	-14743
▁부르봉	-14744
▁셀주크	-14745
▁에스컬	-14746
▁기울어지	-14747
▁호소카와	-14748
▁에스컬레이터	-14749
징어	-14750
▁GR	-14751
▁넷플	-14752
▁레나	-14753
▁맞물	-14754
▁선단	-14755
▁엄지	-14756
▁전범	-14757
▁점하	-14758
▁주군	-14759
▁화염	-14760
▁동남쪽	-14761
▁넷플릭스	-14762
비에	-14763
운수	-14764
ash	-14765
▁공문	-14766
▁과세	-14767
▁미겔	-14768
야누스	-14769
▁사하라	-14770
▁외계인	-14771
▁1877	-14772
▁서아프리카	-14773
▁격전	-14774
▁무주	-14775
▁바야	-14776
▁블랑	-14777
▁소주	-14778
▁앨라	-14779
▁예금	-14780
▁차오	-14781
▁캠벨	-14782
▁코린	-14783
▁개화파	-14784
▁스타드	-14785
▁클로드	-14786
▁허베이	-14787
yn	-14788
▁쿰	-14789
높이	-14790
혈구	-14791
▁너희	-14792
▁되살	-14793
▁문물	-14794
▁벗기	-14795
▁예멘	-14796
▁흐리	-14797
어나오	-14798
▁Bab	-14799
▁레닌주의	-14800
▁프레슬리	-14801
▁트라야누스	-14802
더릭	-14803
를레	-14804
▁경내	-14805
▁깔리	-14806
▁보어	-14807
▁복속	-14808
▁승낙	-14809
▁제비	-14810
▁템플	-14811
▁앞바다	-14812
▁한국군	-14813
▁현미경	-14814
HC	-14815
co	-14816
▁두뇌	-14817
▁문맥	-14818
▁민원	-14819
▁변론	-14820
▁아킬	-14821
▁여운형	-14822
▁7000	-14823
▁챠	-14824
▁Mi	-14825
▁고승	-14826
▁김우	-14827
▁논증	-14828
▁사연	-14829
▁서품	-14830
▁지크	-14831
▁퇴치	-14832
▁APG	-14833
▁Her	-14834
▁루이즈	-14835
▁원주시	-14836
▁중거리	-14837
▁참전하	-14838
▁돌려보내	-14839
▁툼	-14840
▁라임	-14841
▁레크	-14842
▁밸브	-14843
▁소르	-14844
▁스플	-14845
▁앞뒤	-14846
▁양천	-14847
▁여정	-14848
▁원사	-14849
▁제지	-14850
▁지령	-14851
▁브리스	-14852
▁오리엔	-14853
▁Best	-14854
재판	-14855
ose	-14856
▁건지	-14857
▁본존	-14858
▁북측	-14859
▁처마	-14860
▁토바	-14861
▁콘티넨	-14862
▁페스트	-14863
22	-14864
▁끔	-14865
▁승률	-14866
▁시발	-14867
▁코바	-14868
▁518	-14869
▁게이밍	-14870
▁수백만	-14871
▁울트라	-14872
▁인류학	-14873
제철	-14874
ict	-14875
▁et	-14876
▁곤살	-14877
▁산체	-14878
▁오니	-14879
▁사다리	-14880
▁아키텐	-14881
▁억제제	-14882
▁1700	-14883
▁사무라이	-14884
▁얄	-14885
의식	-14886
▁KS	-14887
▁경합	-14888
▁노하	-14889
▁달력	-14890
▁도안	-14891
▁도읍	-14892
▁로망	-14893
▁미트	-14894
▁바젤	-14895
▁백지	-14896
▁산술	-14897
▁상환	-14898
▁숙명	-14899
▁순찰	-14900
▁재물	-14901
▁라이센스	-14902
▁프리큐어	-14903
양구	-14904
▁거병	-14905
▁결장	-14906
▁통찰	-14907
▁투사	-14908
▁케이드	-14909
▁콜린스	-14910
▁카디널스	-14911
▁웜	-14912
장사	-14913
토크	-14914
▁김주	-14915
▁강화군	-14916
▁경부선	-14917
▁엘비스	-14918
▁1859	-14919
▁만장일치	-14920
▁캄파니아	-14921
▁랏	-14922
▁대입	-14923
▁방학	-14924
▁베다	-14925
▁부식	-14926
▁쓰리	-14927
▁억울	-14928
▁요도	-14929
▁유창	-14930
▁인계	-14931
▁카일	-14932
▁미트라	-14933
▁연방군	-14934
▁이론가	-14935
▁다카하시	-14936
▁켐	-14937
고사	-14938
▁결여	-14939
▁도부	-14940
▁미켈	-14941
▁블룸	-14942
▁산재	-14943
▁서체	-14944
▁펭귄	-14945
▁하층	-14946
▁거머쥐	-14947
▁이주민	-14948
▁트레인	-14949
▁뉴클레오타이드	-14950
ps	-14951
버터	-14952
티지	-14953
▁나투	-14954
▁명왕	-14955
▁백운	-14956
▁북인	-14957
▁오구	-14958
▁완장	-14959
▁율리	-14960
▁625	-14961
▁난쟁이	-14962
▁달려가	-14963
▁통계학	-14964
무장	-14965
▁곡식	-14966
▁관아	-14967
▁니즈	-14968
▁롤러	-14969
▁리안	-14970
▁무공	-14971
▁문건	-14972
▁사병	-14973
▁산정	-14974
▁차역	-14975
▁폐차	-14976
▁루카스	-14977
▁클레오	-14978
▁쓰러뜨리	-14979
▁자이언트	-14980
로트	-14981
▁se	-14982
▁가선	-14983
▁구전	-14984
▁맹렬	-14985
▁미러	-14986
▁상설	-14987
▁성조	-14988
▁곧이어	-14989
▁빌바오	-14990
▁순천시	-14991
▁아파치	-14992
▁출장소	-14993
▁카리스	-14994
형제	-14995
EEE	-14996
▁공병	-14997
▁뒤덮	-14998
▁상감	-14999
▁허물	-15000
▁대사간	-15001
▁앙드레	-15002
▁이케다	-15003
▁메모리얼	-15004
▁스테파노	-15005
마을	-15006
배마	-15007
장조	-15008
▁네브	-15009
▁뚜껑	-15010
▁만지	-15011
▁발광	-15012
▁선과	-15013
▁주포	-15014
▁중건	-15015
▁테헤	-15016
▁플랑	-15017
▁홀수	-15018
▁후견	-15019
▁후회	-15020
▁결의안	-15021
▁돌려주	-15022
▁셰퍼드	-15023
▁혼합물	-15024
▁앨라배마	-15025
▁자카르타	-15026
남면	-15027
매기	-15028
▁us	-15029
▁원점	-15030
▁이창	-15031
▁타선	-15032
▁태화	-15033
▁함장	-15034
▁헬스	-15035
▁슈투트	-15036
▁슈투트가르트	-15037
나시	-15038
▁구가	-15039
▁김도	-15040
▁일어	-15041
▁대혁명	-15042
▁서바이벌	-15043
▁뮈	-15044
▁짚	-15045
과학	-15046
동원	-15047
완다	-15048
uck	-15049
▁다윗	-15050
▁박찬	-15051
▁사산	-15052
▁수프	-15053
▁어학	-15054
▁장경	-15055
▁츠카	-15056
▁길거리	-15057
▁불러오	-15058
▁빈센트	-15059
▁안철수	-15060
▁우에노	-15061
▁테크놀로지	-15062
투리	-15063
▁군기	-15064
▁바투	-15065
▁왕당	-15066
▁튜링	-15067
▁푸젠	-15068
▁피자	-15069
▁개최지	-15070
▁미성년	-15071
▁아이스크림	-15072
정변	-15073
▁관위	-15074
▁만류	-15075
▁세제	-15076
▁정역	-15077
▁퇴출	-15078
▁가우스	-15079
▁가치관	-15080
▁바스크	-15081
▁브레멘	-15082
▁향신료	-15083
▁미야기현	-15084
▁긋	-15085
스톤	-15086
▁모교	-15087
▁사생	-15088
▁이만	-15089
▁전서	-15090
▁타파	-15091
▁후면	-15092
▁기념장	-15093
▁서태지	-15094
▁제니퍼	-15095
▁직사각	-15096
HL	-15097
▁레티	-15098
▁로보	-15099
▁로코	-15100
▁발터	-15101
▁알로	-15102
▁일면	-15103
▁하후	-15104
▁학창	-15105
게이트	-15106
reak	-15107
▁개막식	-15108
▁무신론	-15109
▁순교자	-15110
▁소아시아	-15111
de	-15112
르바	-15113
▁로디	-15114
▁산남	-15115
▁소서	-15116
▁입찰	-15117
▁자갈	-15118
▁자백	-15119
▁코이	-15120
▁화풍	-15121
레틱스	-15122
▁쓰촨성	-15123
▁IEEE	-15124
▁크리스틴	-15125
▁튀어나오	-15126
▁애슬레틱스	-15127
▁펙	-15128
소니	-15129
▁경원	-15130
▁속국	-15131
▁솔리	-15132
▁수질	-15133
▁오인	-15134
▁화소	-15135
▁아스카	-15136
▁정착지	-15137
▁국가원수	-15138
▁^	-15139
댓값	-15140
주사	-15141
▁금관	-15142
▁리언	-15143
▁섹션	-15144
▁수주	-15145
▁어지	-15146
▁오와	-15147
▁원만	-15148
▁전봉	-15149
▁총감	-15150
공화당	-15151
▁바빌론	-15152
▁탈레반	-15153
▁아드리아	-15154
▁민주공화당	-15155
oo	-15156
어놓	-15157
패드	-15158
▁FF	-15159
▁근간	-15160
▁김학	-15161
▁뉴잉	-15162
▁변성	-15163
▁수구	-15164
▁정청	-15165
▁진심	-15166
▁터스	-15167
▁실린더	-15168
▁사이클론	-15169
▁선거관리	-15170
▁무형문화재	-15171
▁선거관리위원회	-15172
티어	-15173
팩스	-15174
학파	-15175
▁도끼	-15176
▁사탄	-15177
▁아누	-15178
▁안주	-15179
▁의인	-15180
▁조회	-15181
▁희미	-15182
▁310	-15183
▁340	-15184
▁대관식	-15185
▁로저스	-15186
▁목표물	-15187
▁선제후	-15188
▁이치현	-15189
▁환승역	-15190
TF	-15191
vel	-15192
▁관군	-15193
▁담양	-15194
▁발진	-15195
▁선별	-15196
▁시력	-15197
▁왕명	-15198
▁용맹	-15199
▁유틸	-15200
▁교황령	-15201
▁로스트	-15202
▁아이치	-15203
▁원정대	-15204
▁유틸리티	-15205
▁뽀	-15206
▁공석	-15207
▁덮치	-15208
▁모션	-15209
▁보디	-15210
▁은지	-15211
▁짝수	-15212
▁타밀	-15213
▁호화	-15214
▁개척자	-15215
▁볼프강	-15216
▁오슬로	-15217
▁그래픽스	-15218
조류	-15219
▁거문	-15220
▁예보	-15221
▁철기	-15222
하마드	-15223
▁레이건	-15224
▁마코토	-15225
▁아미타불	-15226
▁Super	-15227
나주	-15228
주석	-15229
ail	-15230
▁과달	-15231
▁보국	-15232
▁상층	-15233
▁센타	-15234
▁수문	-15235
▁진천	-15236
▁청정	-15237
▁호국	-15238
▁호적	-15239
▁호투	-15240
▁국내선	-15241
▁예문관	-15242
▁합병증	-15243
▁고바야시	-15244
▁모니터링	-15245
▁뉴올리언스	-15246
바퀴	-15247
▁나바	-15248
▁멜라	-15249
▁무위	-15250
▁버밍	-15251
▁베가	-15252
▁기생충	-15253
▁Star	-15254
▁교감	-15255
▁구라	-15256
▁도매	-15257
▁동급	-15258
▁스완	-15259
▁통감	-15260
▁특명	-15261
▁호이	-15262
▁라그랑	-15263
▁아이파크	-15264
▁중앙일보	-15265
버라	-15266
▁무진	-15267
▁양동	-15268
떨어지	-15269
▁무사시	-15270
▁1812	-15271
▁오토바이	-15272
▁매사추세츠주	-15273
디드	-15274
▁DO	-15275
▁ad	-15276
▁as	-15277
▁매듭	-15278
▁손수	-15279
▁대제학	-15280
▁디에고	-15281
▁울주군	-15282
▁해인사	-15283
▁개경	-15284
▁교인	-15285
▁메드	-15286
▁박경	-15287
▁부락	-15288
▁슬러	-15289
▁연해	-15290
▁퀸스	-15291
▁황위	-15292
▁Sun	-15293
▁단말기	-15294
▁분류학	-15295
▁파르마	-15296
▁한자어	-15297
▁Soul	-15298
▁헬레니즘	-15299
▁뉴잉글랜드	-15300
구미	-15301
▁게놈	-15302
▁닷컴	-15303
▁로런	-15304
▁로컬	-15305
▁스쿼	-15306
▁추장	-15307
▁커브	-15308
▁포상	-15309
▁209	-15310
▁아니면	-15311
▁에세이	-15312
▁이광수	-15313
▁지석묘	-15314
▁ICBM	-15315
플레	-15316
▁Kn	-15317
▁공경	-15318
▁아칸	-15319
▁이건	-15320
▁청일	-15321
▁you	-15322
▁공성전	-15323
▁주거지	-15324
▁어우러지	-15325
▁콘스탄티누스	-15326
▁IF	-15327
▁강유	-15328
▁걸스	-15329
▁추밀	-15330
▁충동	-15331
▁토프	-15332
▁해커	-15333
▁에이지	-15334
▁여러분	-15335
▁조르주	-15336
▁안토니우스	-15337
iel	-15338
▁ON	-15339
▁my	-15340
▁개표	-15341
▁금기	-15342
▁김덕	-15343
▁떠돌	-15344
▁명륜	-15345
▁속초	-15346
▁아호	-15347
▁하강	-15348
▁App	-15349
▁대대장	-15350
▁셀레우	-15351
▁송진우	-15352
▁베르사유	-15353
▁쑹	-15354
샤오	-15355
▁Mr	-15356
▁근위	-15357
▁기권	-15358
▁논평	-15359
▁뚫리	-15360
▁산인	-15361
▁샤오	-15362
▁탄두	-15363
▁피그	-15364
하우스	-15365
▁르완다	-15366
▁리바이	-15367
▁에이브	-15368
▁자본가	-15369
▁테헤란	-15370
▁후쿠시마현	-15371
EA	-15372
OK	-15373
▁귀순	-15374
▁나시	-15375
▁배타	-15376
▁부기	-15377
▁유보	-15378
▁주유	-15379
▁투니	-15380
▁접미사	-15381
▁북대서양	-15382
▁불법행위	-15383
도감	-15384
탄올	-15385
▁관개	-15386
▁금천	-15387
▁빨강	-15388
▁소포	-15389
▁영도	-15390
▁유계	-15391
▁장지	-15392
▁지검	-15393
▁천자	-15394
▁천적	-15395
▁카보	-15396
▁카파	-15397
▁평방	-15398
▁폐하	-15399
▁항문	-15400
▁206	-15401
▁윤치영	-15402
▁자오선	-15403
▁조광조	-15404
▁파르티아	-15405
▁Christ	-15406
59	-15407
▁썸	-15408
초프	-15409
ray	-15410
▁Tw	-15411
▁교재	-15412
▁당상	-15413
▁도자	-15414
▁점토	-15415
▁정실	-15416
▁클라리	-15417
▁아브라함	-15418
gh	-15419
▁름	-15420
반정	-15421
▁늦추	-15422
▁도파	-15423
▁루드	-15424
▁법상	-15425
▁조던	-15426
▁지카	-15427
▁패자	-15428
▁자치현	-15429
네오	-15430
▁HP	-15431
▁가창	-15432
▁노마	-15433
▁로지	-15434
▁반정	-15435
▁산동	-15436
▁세밀	-15437
▁손쉽	-15438
▁수라	-15439
▁안면	-15440
▁울루	-15441
▁해주	-15442
▁휴일	-15443
▁삼거리	-15444
▁여수시	-15445
▁영사관	-15446
▁인산화	-15447
▁태블릿	-15448
RI	-15449
방스	-15450
▁루손	-15451
▁수족	-15452
▁유상	-15453
▁자석	-15454
▁장강	-15455
▁장이	-15456
▁쪼개	-15457
▁코우	-15458
▁게이오	-15459
▁음식점	-15460
▁John	-15461
▁알렉세이	-15462
ute	-15463
▁구비	-15464
▁그늘	-15465
▁맞배	-15466
▁방탄	-15467
▁아람	-15468
▁의논	-15469
▁타라	-15470
▁남북조	-15471
▁레코딩	-15472
▁록히드	-15473
▁보이즈	-15474
▁의병장	-15475
▁조봉암	-15476
▁NM	-15477
▁고후	-15478
▁끔찍	-15479
▁니치	-15480
▁리퍼	-15481
▁이코	-15482
▁춘계	-15483
▁카펠	-15484
▁콜론	-15485
▁풀이	-15486
라이스	-15487
로세서	-15488
시아키	-15489
▁747	-15490
▁백두산	-15491
▁사우디	-15492
▁주제가	-15493
16	-15494
분투	-15495
블릭	-15496
▁갑신	-15497
▁과감	-15498
▁규합	-15499
▁동맥	-15500
▁식이	-15501
▁인척	-15502
▁카토	-15503
▁효능	-15504
▁독재자	-15505
▁연대장	-15506
▁막시밀리	-15507
▁듀스	-15508
▁유세	-15509
▁총생	-15510
▁현수	-15511
▁선수상	-15512
▁슈트라	-15513
▁안데스	-15514
▁1879	-15515
▁건국훈장	-15516
네프	-15517
무지	-15518
티보	-15519
▁PA	-15520
▁단수	-15521
▁불문	-15522
▁비오	-15523
▁사파	-15524
▁스킨	-15525
▁양념	-15526
▁위축	-15527
▁유민	-15528
▁조우	-15529
▁흐트	-15530
▁광합성	-15531
▁그러면	-15532
▁로널드	-15533
산업	-15534
슐리	-15535
▁동대	-15536
▁양원	-15537
▁초식	-15538
▁컬링	-15539
▁420	-15540
▁개개인	-15541
▁트리스	-15542
▁피어스	-15543
▁슈트라우스	-15544
면적	-15545
▁군마	-15546
▁라쿠	-15547
▁머큐	-15548
▁범람	-15549
▁시영	-15550
▁양정	-15551
▁전열	-15552
▁정맥	-15553
▁집적	-15554
▁카지노	-15555
17	-15556
자드	-15557
태자	-15558
▁대여	-15559
▁소량	-15560
▁원한	-15561
▁자존	-15562
▁중등	-15563
▁차차	-15564
▁쿠루	-15565
▁아이작	-15566
▁에다가	-15567
▁항생제	-15568
▁리바운드	-15569
▁쑨	-15570
▁농담	-15571
▁두부	-15572
▁딱딱	-15573
▁모태	-15574
▁반납	-15575
▁상이	-15576
▁자각	-15577
▁쿠시	-15578
를레앙	-15579
▁일렉트로닉	-15580
▁국문	-15581
▁낯설	-15582
▁레저	-15583
▁반달	-15584
▁반향	-15585
▁유관	-15586
▁임실	-15587
▁폴로	-15588
▁풍요	-15589
▁des	-15590
▁고지대	-15591
▁변호인	-15592
▁석회암	-15593
▁스태프	-15594
▁오메가	-15595
▁제이크	-15596
▁테크노	-15597
▁꽝	-15598
▁그릴	-15599
▁김시	-15600
▁남경	-15601
▁대방	-15602
▁부트	-15603
▁부화	-15604
▁불능	-15605
▁아로	-15606
▁커리	-15607
▁클럭	-15608
▁투기	-15609
▁호시	-15610
▁힐스	-15611
▁CoA	-15612
▁리그컵	-15613
▁바닷가	-15614
▁사가미	-15615
YP	-15616
▁쿵	-15617
▁퀼	-15618
▁보아	-15619
▁빛깔	-15620
▁영종	-15621
▁용역	-15622
▁인삼	-15623
▁일보	-15624
▁촐라	-15625
▁투병	-15626
▁글리제	-15627
▁페이퍼	-15628
리아누스	-15629
링크	-15630
수지	-15631
▁노역	-15632
▁실베	-15633
▁이설	-15634
▁최용	-15635
▁할구	-15636
▁암스트	-15637
▁여행자	-15638
▁접근성	-15639
▁최진실	-15640
선교	-15641
연맹	-15642
화산	-15643
VID	-15644
▁당장	-15645
▁대등	-15646
▁사목	-15647
▁압수	-15648
▁역동	-15649
▁제고	-15650
▁증축	-15651
▁카다	-15652
▁버스터	-15653
▁뜯	-15654
신보	-15655
▁Gu	-15656
▁감당	-15657
▁능숙	-15658
▁동하	-15659
▁두스	-15660
▁사체	-15661
▁시타	-15662
▁앙상	-15663
▁애호	-15664
▁열람	-15665
▁온전	-15666
▁할로	-15667
▁항전	-15668
▁알칼리	-15669
▁재결합	-15670
▁포틀랜드	-15671
▁Record	-15672
대비	-15673
일체	-15674
ull	-15675
▁스텐	-15676
▁요셉	-15677
▁체질	-15678
▁Per	-15679
▁국방군	-15680
▁군주제	-15681
▁스텔스	-15682
▁즐거움	-15683
▁다마스쿠스	-15684
다임	-15685
▁강가	-15686
▁끊이	-15687
▁도나	-15688
▁전곡	-15689
▁체리	-15690
▁킬러	-15691
▁후추	-15692
▁베이직	-15693
▁산투스	-15694
▁후반전	-15695
▁ㄹ지라도	-15696
▁원종공신	-15697
▁크리스탈	-15698
▁엔지니어링	-15699
▁권투	-15700
▁수아	-15701
▁이석	-15702
▁처칠	-15703
▁환산	-15704
로그램	-15705
▁수영장	-15706
▁영화관	-15707
▁유기체	-15708
▁으리라	-15709
바이러스	-15710
▁들어올리	-15711
▁광시	-15712
▁균등	-15713
▁노엘	-15714
▁소진	-15715
▁왕릉	-15716
▁잇달	-15717
▁제방	-15718
▁코인	-15719
▁440	-15720
▁니가타	-15721
▁본거지	-15722
▁페르시	-15723
▁대법원장	-15724
▁타지키스탄	-15725
박이	-15726
ual	-15727
▁리노	-15728
▁성형	-15729
▁왕좌	-15730
▁접목	-15731
▁트림	-15732
▁여주인	-15733
▁조용히	-15734
▁패러다임	-15735
울루	-15736
장군	-15737
▁미타	-15738
▁성자	-15739
▁앉히	-15740
▁양구	-15741
▁열거	-15742
▁화이	-15743
▁기본법	-15744
▁매니아	-15745
▁스위트	-15746
▁엘리엇	-15747
▁플래닛	-15748
▁아우구스트	-15749
▁기시	-15750
▁기피	-15751
▁상회	-15752
▁신익	-15753
▁아역	-15754
▁용문	-15755
▁이한	-15756
▁부추기	-15757
▁야구부	-15758
▁양산시	-15759
▁엔리케	-15760
▁엘리스	-15761
▁잠비아	-15762
▁토론회	-15763
▁2500	-15764
▁주머니쥐	-15765
발트	-15766
▁CA	-15767
▁MD	-15768
▁ㄹ로	-15769
▁궁주	-15770
▁나토	-15771
▁바바	-15772
▁응력	-15773
▁256	-15774
▁실리콘	-15775
▁이회창	-15776
길준	-15777
니에	-15778
데오	-15779
의금	-15780
피카	-15781
▁KD	-15782
▁po	-15783
▁교명	-15784
▁기한	-15785
▁내시	-15786
▁무패	-15787
▁문어	-15788
▁브이	-15789
▁영성	-15790
▁코니	-15791
▁콜리	-15792
▁트램	-15793
▁파출	-15794
▁911	-15795
▁Str	-15796
▁디스코	-15797
▁바실리	-15798
▁춘천시	-15799
덕궁	-15800
레미	-15801
쿠치	-15802
▁"|	-15803
▁고독	-15804
▁동두	-15805
▁리지	-15806
▁멘델	-15807
▁성현	-15808
▁수표	-15809
▁왕녀	-15810
▁파고	-15811
▁Win	-15812
▁바레인	-15813
▁제시카	-15814
▁print	-15815
▁public	-15816
자나	-15817
황제	-15818
▁광동	-15819
▁금리	-15820
▁매복	-15821
▁북마	-15822
▁사나	-15823
▁성교	-15824
▁탈피	-15825
▁행운	-15826
▁호찌	-15827
▁살아오	-15828
▁오우치	-15829
▁을수록	-15830
▁지극히	-15831
▁카스텔	-15832
25	-15833
▁강자	-15834
▁교학	-15835
▁담수	-15836
▁라사	-15837
▁스팀	-15838
▁비행사	-15839
▁캅카스	-15840
▁후유증	-15841
스틱	-15842
▁담임	-15843
▁명동	-15844
▁사스	-15845
▁아루	-15846
▁오차	-15847
▁이보	-15848
▁정직	-15849
▁종실	-15850
▁피질	-15851
▁헐리	-15852
▁환초	-15853
▁Hot	-15854
▁깨어나	-15855
▁랴오닝	-15856
▁부서지	-15857
▁불거지	-15858
▁시에라	-15859
▁오토모	-15860
▁왕당파	-15861
▁요나라	-15862
▁허버트	-15863
▁호기심	-15864
▁드래곤즈	-15865
능력	-15866
스텐	-15867
▁nm	-15868
▁고요	-15869
▁마거	-15870
▁무소	-15871
▁시온	-15872
▁실책	-15873
▁유미	-15874
▁은평	-15875
▁작자	-15876
▁렌더링	-15877
▁초고층	-15878
▁리치먼드	-15879
ty	-15880
▁앳	-15881
RNA	-15882
▁농협	-15883
▁바타	-15884
▁사조	-15885
▁쌍용	-15886
▁카츠	-15887
▁코일	-15888
▁향로	-15889
고로드	-15890
▁길버트	-15891
▁맞물리	-15892
▁습니까	-15893
▁예비군	-15894
▁판매고	-15895
▁쐐	-15896
▁'.	-15897
▁군도	-15898
▁내기	-15899
▁더라	-15900
▁던전	-15901
▁동체	-15902
▁셔츠	-15903
▁우타	-15904
▁접시	-15905
▁중신	-15906
▁고다이	-15907
▁머큐리	-15908
▁부러지	-15909
▁웨슬리	-15910
▁잠재력	-15911
▁프리드	-15912
▁둠	-15913
빨리	-15914
훈련	-15915
▁HS	-15916
▁원곡	-15917
▁225	-15918
▁디아스	-15919
▁브릿지	-15920
▁유도탄	-15921
▁추축국	-15922
▁콜라보	-15923
▁독립선언	-15924
▁천문단위	-15925
포리	-15926
▁가결	-15927
▁노름	-15928
▁미녀	-15929
▁쐐기	-15930
▁워낙	-15931
▁조율	-15932
▁침수	-15933
▁히코	-15934
레이즈	-15935
ogle	-15936
▁유물론	-15937
▁이세이	-15938
는점	-15939
▁mu	-15940
▁교내	-15941
▁대용	-15942
▁득실	-15943
▁석재	-15944
▁세타	-15945
▁악어	-15946
▁치킨	-15947
▁칠곡	-15948
▁탄력	-15949
▁사무엘	-15950
▁아미타여래	-15951
ll	-15952
로움	-15953
무트	-15954
커우	-15955
평면	-15956
▁Ke	-15957
▁NA	-15958
▁곱하	-15959
▁동률	-15960
▁무루	-15961
▁부이	-15962
▁신천	-15963
▁안시	-15964
▁지브	-15965
▁진성	-15966
▁함의	-15967
던지기	-15968
▁생산자	-15969
▁앙상블	-15970
▁주둔지	-15971
자락	-15972
▁깊숙	-15973
▁도화	-15974
▁소노	-15975
▁아구	-15976
▁애프	-15977
▁이가	-15978
▁즉흥	-15979
▁커넥	-15980
리오스	-15981
▁고스트	-15982
▁브루노	-15983
▁사천왕	-15984
▁총생산	-15985
▁프로필	-15986
▁1789	-15987
▁1801	-15988
▁Back	-15989
▁프린세스	-15990
▁플랑드르	-15991
다스	-15992
이상	-15993
▁구애	-15994
▁녹이	-15995
▁느슨	-15996
▁박태	-15997
▁부안	-15998
▁생김	-15999
▁우디	-16000
▁진위	-16001
▁트론	-16002
▁파피	-16003
▁현관	-16004
▁208	-16005
▁브루크	-16006
▁사망률	-16007
▁제품군	-16008
제사	-16009
▁가전	-16010
▁노골	-16011
▁여관	-16012
▁유독	-16013
▁탄성	-16014
▁호지	-16015
▁마운틴	-16016
▁사법부	-16017
▁알베르	-16018
▁예수교	-16019
▁캥	-16020
로로	-16021
불명	-16022
▁구명	-16023
▁미디	-16024
▁예쁘	-16025
▁정중	-16026
▁준하	-16027
▁인문학	-16028
▁조연상	-16029
▁기타큐슈	-16030
GO	-16031
▁NL	-16032
▁거품	-16033
▁겨냥	-16034
▁군림	-16035
▁이크	-16036
▁치밀	-16037
스트림	-16038
▁오이타	-16039
▁유길준	-16040
▁제주시	-16041
▁1400	-16042
▁Kore	-16043
▁베오그라드	-16044
▁Fl	-16045
▁강타	-16046
▁관저	-16047
▁봉분	-16048
▁승마	-16049
▁안락	-16050
▁초석	-16051
▁총국	-16052
▁코딩	-16053
▁광주시	-16054
▁영문학	-16055
▁영장류	-16056
▁암스트롱	-16057
▁탄수화물	-16058
모닉	-16059
▁기일	-16060
▁누마	-16061
▁로만	-16062
▁제타	-16063
▁최순	-16064
▁카인	-16065
▁다행히	-16066
▁방법론	-16067
▁아르테	-16068
▁조제프	-16069
▁폼페이우스	-16070
▁킵	-16071
ove	-16072
▁궁수	-16073
▁균열	-16074
▁도식	-16075
▁생장	-16076
▁솔직	-16077
▁안건	-16078
▁약품	-16079
▁에픽	-16080
▁오웬	-16081
▁전과	-16082
▁중학	-16083
▁채집	-16084
▁첫날	-16085
프리드	-16086
lect	-16087
▁들여오	-16088
▁페라리	-16089
▁NATO	-16090
▁미식축구	-16091
▁비로자나	-16092
▁해수욕장	-16093
인산	-16094
▁군량	-16095
▁성부	-16096
▁열기	-16097
▁윤곽	-16098
▁타키	-16099
▁흡입	-16100
ames	-16101
▁Get	-16102
▁남아공	-16103
▁생물학자	-16104
▁렬	-16105
득점	-16106
라과	-16107
▁BO	-16108
▁교란	-16109
▁구부	-16110
▁먼로	-16111
▁악의	-16112
▁얼리	-16113
▁운석	-16114
▁청중	-16115
▁통킹	-16116
▁370	-16117
▁네바다	-16118
▁오리건	-16119
▁흘러가	-16120
ors	-16121
▁DA	-16122
▁격침	-16123
▁격화	-16124
▁결투	-16125
▁발열	-16126
▁사일	-16127
▁시편	-16128
▁예편	-16129
▁유재	-16130
▁재심	-16131
▁철근	-16132
▁출정	-16133
▁코디	-16134
▁동일시	-16135
▁와이어	-16136
▁남한산성	-16137
▁Intern	-16138
▁강구	-16139
▁관원	-16140
▁미로	-16141
▁신궁	-16142
▁야만	-16143
▁초판	-16144
▁흑색	-16145
▁MIT	-16146
▁기네스	-16147
▁마거릿	-16148
▁지배하	-16149
▁트럼펫	-16150
▁항공우주	-16151
ox	-16152
▁뿜	-16153
레븐	-16154
심원	-16155
차리	-16156
let	-16157
▁국산	-16158
▁나날	-16159
▁다채	-16160
▁배지	-16161
▁서곡	-16162
▁책정	-16163
▁내몽골	-16164
▁로런스	-16165
▁메신저	-16166
▁양평군	-16167
▁클라인	-16168
그라운드	-16169
▁이성질체	-16170
▁소크라테스	-16171
파니	-16172
▁BB	-16173
▁가령	-16174
▁극회	-16175
▁민선	-16176
▁유익	-16177
▁장승	-16178
▁폭주	-16179
▁호전	-16180
▁흉내	-16181
▁GPS	-16182
▁Mag	-16183
▁급속도	-16184
▁나카노	-16185
▁디렉터	-16186
▁만주족	-16187
▁붉은색	-16188
▁사이다	-16189
▁어드밴	-16190
UM	-16191
▁갸	-16192
경찰	-16193
▁고는	-16194
▁군위	-16195
▁니트	-16196
▁다라	-16197
▁만물	-16198
▁수화	-16199
▁약수	-16200
▁오랑	-16201
▁윈드	-16202
▁천태	-16203
▁하세	-16204
▁민의원	-16205
▁방문객	-16206
▁이지스	-16207
▁작아지	-16208
▁태양광	-16209
▁Baby	-16210
▁레오나르	-16211
▁트로츠키	-16212
▁셀레우코스	-16213
▁둑	-16214
오드	-16215
▁가변	-16216
▁공평	-16217
▁명장	-16218
▁승선	-16219
▁장차	-16220
▁제헌	-16221
▁출항	-16222
▁표어	-16223
▁황하	-16224
▁미요시	-16225
▁블러드	-16226
▁시나노	-16227
▁요시카	-16228
▁이유로	-16229
▁한정판	-16230
▁니카라과	-16231
▁안티오키아	-16232
▁결렬	-16233
▁고관	-16234
▁듀엣	-16235
▁사옥	-16236
▁생포	-16237
▁소마	-16238
▁유감	-16239
▁지회	-16240
▁직각	-16241
▁후난	-16242
▁부천시	-16243
▁쌍방울	-16244
ology	-16245
▁리하르트	-16246
▁이마가와	-16247
TN	-16248
남동	-16249
▁공훈	-16250
▁김장	-16251
▁레반	-16252
▁양위	-16253
▁청군	-16254
▁춘향	-16255
▁카노	-16256
▁캡틴	-16257
▁효모	-16258
inal	-16259
▁항소심	-16260
▁이리하여	-16261
▁라테	-16262
▁베아	-16263
▁수선	-16264
▁실태	-16265
▁알마	-16266
▁캔터	-16267
▁피시	-16268
▁핼리	-16269
▁거듭나	-16270
▁부사장	-16271
▁스트라	-16272
▁전망대	-16273
▁혈액형	-16274
ature	-16275
▁모노이드	-16276
▁서귀포시	-16277
▁선거인단	-16278
락부	-16279
▁OK	-16280
▁누에	-16281
▁대소	-16282
▁미끄	-16283
▁박동	-16284
▁비방	-16285
▁어인	-16286
▁증류	-16287
▁키치	-16288
▁탄광	-16289
▁라이드	-16290
▁범어사	-16291
▁베테랑	-16292
▁아열대	-16293
▁연금술	-16294
▁타일러	-16295
▁해수면	-16296
노스아이	-16297
▁돼지고기	-16298
노스아이레스	-16299
▁부에노스아이레스	-16300
가요	-16301
덱스	-16302
메랄	-16303
월드	-16304
▁개축	-16305
▁명중	-16306
▁무쓰	-16307
▁비고	-16308
▁출병	-16309
▁카불	-16310
▁풋살	-16311
▁효성	-16312
피에르	-16313
▁리그전	-16314
▁신안군	-16315
▁지포스	-16316
▁직할시	-16317
▁로베르트	-16318
▁씬	-16319
백색	-16320
enn	-16321
▁RA	-16322
▁공지	-16323
▁도난	-16324
▁도보	-16325
▁에인	-16326
▁연어	-16327
▁조엘	-16328
▁주스	-16329
▁디나모	-16330
▁이치로	-16331
▁체육회	-16332
▁게오르기	-16333
▁라이온스	-16334
▁프레더릭	-16335
가키	-16336
금속	-16337
무실	-16338
▁Cr	-16339
▁SG	-16340
▁갑오	-16341
▁결집	-16342
▁기형	-16343
▁변조	-16344
▁사계	-16345
▁설과	-16346
▁세도	-16347
▁습도	-16348
▁친히	-16349
▁허구	-16350
▁호박	-16351
코비치	-16352
▁대학살	-16353
▁리카르	-16354
▁시아파	-16355
▁에두아르	-16356
나비	-16357
▁결단	-16358
▁경산	-16359
▁그간	-16360
▁매튜	-16361
▁선서	-16362
▁성찬	-16363
▁죄인	-16364
▁학도	-16365
▁365	-16366
▁감마선	-16367
▁김종직	-16368
▁주세페	-16369
▁이오니아	-16370
던스	-16371
▁PH	-16372
▁SW	-16373
▁고취	-16374
▁굴욕	-16375
▁김은	-16376
▁봉헌	-16377
▁북송	-16378
▁불길	-16379
▁외가	-16380
▁장론	-16381
▁총수	-16382
▁하츠	-16383
▁합장	-16384
▁해머	-16385
▁화교	-16386
▁207	-16387
▁Res	-16388
▁Way	-16389
▁다카시	-16390
▁두더지	-16391
▁스펜서	-16392
▁알레산	-16393
▁전동기	-16394
▁태극기	-16395
민정	-16396
컨드	-16397
app	-16398
▁개리	-16399
▁굳이	-16400
▁필로	-16401
말라야	-16402
▁강릉시	-16403
▁동북부	-16404
▁무정부	-16405
▁포인터	-16406
▁필리스	-16407
FS	-16408
시카	-16409
처럼	-16410
▁깁슨	-16411
▁도량	-16412
▁레르	-16413
▁롤리	-16414
▁본진	-16415
▁비이	-16416
▁스틱	-16417
▁으뜸	-16418
▁인노	-16419
▁잔치	-16420
▁전극	-16421
▁창씨	-16422
▁한꺼	-16423
▁국무부	-16424
▁압둘라	-16425
▁조합원	-16426
▁프린터	-16427
▁함부로	-16428
▁1820	-16429
▁한꺼번에	-16430
로프로세서	-16431
▁System	-16432
▁마이크로프로세서	-16433
즈미	-16434
▁Dr	-16435
▁에든	-16436
▁에뮬	-16437
▁이구	-16438
▁장서	-16439
▁쟁점	-16440
▁특혜	-16441
이즈미	-16442
▁야행성	-16443
▁유공자	-16444
▁1815	-16445
▁Amer	-16446
▁리얼리티	-16447
▁알아차리	-16448
▁에든버러	-16449
▁유럽연합	-16450
24	-16451
za	-16452
▁훅	-16453
갱이	-16454
현실	-16455
▁기교	-16456
▁리서	-16457
▁살레	-16458
▁서역	-16459
▁월경	-16460
▁조너	-16461
▁틈타	-16462
▁노무라	-16463
니츠	-16464
입자	-16465
▁담그	-16466
▁본능	-16467
▁시차	-16468
▁옵티	-16469
▁콘셉	-16470
▁토의	-16471
▁트롤	-16472
▁특위	-16473
▁농민군	-16474
▁세컨드	-16475
▁일제히	-16476
▁정몽주	-16477
▁페레스	-16478
▁Cent	-16479
▁서대문구	-16480
▁아르바이트	-16481
▁낸	-16482
▁욘	-16483
마니	-16484
ina	-16485
ret	-16486
▁"'	-16487
▁기주	-16488
▁로제	-16489
▁미추	-16490
▁베컴	-16491
▁산마	-16492
▁신안	-16493
▁음양	-16494
▁이삭	-16495
▁직류	-16496
▁토하	-16497
▁퍼플	-16498
ange	-16499
ater	-16500
▁TOP	-16501
▁피드백	-16502
▁카롤루스	-16503
▁히말라야	-16504
실험	-16505
ons	-16506
▁NX	-16507
▁결실	-16508
▁공보	-16509
▁마초	-16510
▁맞닿	-16511
▁모잠	-16512
▁분담	-16513
▁아약	-16514
▁위배	-16515
▁음역	-16516
▁자막	-16517
▁종단	-16518
▁천리	-16519
▁탈리	-16520
▁형광	-16521
▁Dis	-16522
▁그리드	-16523
▁생김새	-16524
▁모잠비크	-16525
▁프로방스	-16526
▁레닌그라드	-16527
광사	-16528
든가	-16529
테일	-16530
▁공해	-16531
▁디펜	-16532
▁만수	-16533
▁성내	-16534
▁술집	-16535
▁정현	-16536
▁퇴계	-16537
▁한라	-16538
스티안	-16539
▁War	-16540
▁도나우	-16541
▁트랜싯	-16542
▁혁명가	-16543
자유	-16544
▁김석	-16545
▁담장	-16546
▁벅스	-16547
▁사보	-16548
▁소켓	-16549
▁쿠사	-16550
▁테살	-16551
▁피쳐	-16552
어들이	-16553
▁모델링	-16554
▁오징어	-16555
▁지방도	-16556
의금부사	-16557
▁오스트로	-16558
▁필하모닉	-16559
▁폴리네시아	-16560
▁밈	-16561
▁기근	-16562
▁당사	-16563
▁마취	-16564
▁완산	-16565
▁융기	-16566
▁조나	-16567
▁충고	-16568
▁가디언	-16569
▁일진회	-16570
▁제노바	-16571
▁조병옥	-16572
스테	-16573
▁경구	-16574
▁노총	-16575
▁녹말	-16576
▁니체	-16577
▁달마	-16578
▁더빙	-16579
▁발췌	-16580
▁새해	-16581
▁슐레	-16582
▁양분	-16583
▁전란	-16584
▁좌랑	-16585
▁지뢰	-16586
▁지반	-16587
▁해내	-16588
▁USA	-16589
▁마피아	-16590
▁후베이	-16591
▁마쓰모토	-16592
▁막시밀리안	-16593
▁캔자스시티	-16594
러기	-16595
베인	-16596
비츠	-16597
토바	-16598
▁'-	-16599
▁격상	-16600
▁미완	-16601
▁코넬	-16602
▁태상	-16603
▁펜스	-16604
▁프록	-16605
▁허들	-16606
지먼트	-16607
▁모터쇼	-16608
▁아약스	-16609
▁1858	-16610
▁알베르트	-16611
▁매니지먼트	-16612
▁알렉산드라	-16613
쓰네	-16614
▁영위	-16615
▁징후	-16616
▁Mac	-16617
▁Tra	-16618
▁지팡이	-16619
▁학생회	-16620
▁고고학자	-16621
▁써	-16622
거루	-16623
당류	-16624
적분	-16625
▁고택	-16626
▁낙태	-16627
▁데니	-16628
▁매질	-16629
▁세실	-16630
▁수훈	-16631
▁위태	-16632
▁Int	-16633
▁넘어지	-16634
▁라쿠텐	-16635
▁선데이	-16636
▁신익희	-16637
▁연습생	-16638
▁중심핵	-16639
ux	-16640
▁챈	-16641
랭크	-16642
퍼트	-16643
▁급사	-16644
▁기민	-16645
▁기욤	-16646
▁상해	-16647
▁소탕	-16648
▁아토	-16649
▁콤비	-16650
▁쿠리	-16651
▁하카	-16652
ions	-16653
▁아드리	-16654
▁액티브	-16655
▁크레타	-16656
▁Type	-16657
▁마그네슘	-16658
▁귤	-16659
운전	-16660
▁관대	-16661
▁광서	-16662
▁도표	-16663
▁발라	-16664
▁수강	-16665
▁엠마	-16666
▁출루	-16667
▁광화문	-16668
▁노트북	-16669
▁목포시	-16670
▁프렌즈	-16671
▁알베르토	-16672
ley	-16673
▁대정	-16674
▁만연	-16675
▁말소	-16676
▁소정	-16677
▁좌천	-16678
▁테드	-16679
▁헤지	-16680
▁헬로	-16681
▁관찰자	-16682
▁군산시	-16683
▁도치기	-16684
▁High	-16685
▁조선왕조실록	-16686
정제	-16687
▁FS	-16688
▁기악	-16689
▁남궁	-16690
▁달래	-16691
▁로어	-16692
▁마도	-16693
▁사악	-16694
▁엠블	-16695
▁용접	-16696
▁재주	-16697
▁정공	-16698
▁퀘이	-16699
▁펠레	-16700
▁포섭	-16701
가하라	-16702
▁Not	-16703
▁모조리	-16704
▁스와프	-16705
▁오나라	-16706
▁적절히	-16707
▁조너선	-16708
▁티무르	-16709
▁파블로	-16710
▁보호구역	-16711
▁천연가스	-16712
동리	-16713
라나	-16714
싸움	-16715
코인	-16716
▁갈비	-16717
▁견지	-16718
▁납품	-16719
▁농작	-16720
▁동티	-16721
▁마고	-16722
▁멘토	-16723
▁보카	-16724
▁스팅	-16725
▁안재	-16726
▁유승	-16727
▁육박	-16728
▁합산	-16729
▁날아오	-16730
▁봉수대	-16731
▁비올라	-16732
▁시게루	-16733
▁안티고	-16734
▁class	-16735
▁동아프리카	-16736
기둥	-16737
사랑	-16738
촌동	-16739
▁고갈	-16740
▁군비	-16741
▁니라	-16742
▁독실	-16743
▁로타	-16744
▁벨벳	-16745
▁아핀	-16746
▁완주	-16747
▁우이	-16748
▁이철	-16749
▁전액	-16750
▁전집	-16751
▁제보	-16752
▁진구	-16753
▁푸틴	-16754
▁밀어내	-16755
▁분홍색	-16756
▁무궁화호	-16757
▁토스카나	-16758
재단	-16759
ART	-16760
▁덕수	-16761
▁보육	-16762
▁앨버	-16763
▁의왕	-16764
▁장택	-16765
▁증직	-16766
▁휴먼	-16767
▁리포트	-16768
▁마에다	-16769
▁미우라	-16770
▁정확도	-16771
▁혁명군	-16772
▁type	-16773
▁맞배지붕	-16774
▁암모니아	-16775
▁군집	-16776
▁노화	-16777
▁리온	-16778
▁마틸	-16779
▁바하	-16780
▁성제	-16781
▁스쿠	-16782
▁애쓰	-16783
▁우대	-16784
▁제법	-16785
▁주상	-16786
▁핑계	-16787
▁ㅂ니까	-16788
▁선언문	-16789
▁유성구	-16790
▁패트리	-16791
▁서프랑크	-16792
전쟁	-16793
토쿠	-16794
att	-16795
▁궁내	-16796
▁리츠	-16797
▁미자	-16798
▁수의	-16799
▁신관	-16800
▁아말	-16801
▁알렌	-16802
▁영재	-16803
▁증원	-16804
▁토드	-16805
▁패드	-16806
▁효용	-16807
지스터	-16808
▁IEC	-16809
▁WHO	-16810
▁넘어오	-16811
▁수도사	-16812
▁평상시	-16813
▁플래그	-16814
▁1300	-16815
▁1814	-16816
▁프로이트	-16817
▁여러해살이풀	-16818
거성	-16819
널목	-16820
▁Vf	-16821
▁귀하	-16822
▁모여	-16823
▁문성	-16824
▁비호	-16825
▁실크	-16826
▁애매	-16827
▁예일	-16828
▁원생	-16829
▁이덕	-16830
▁정과	-16831
▁정일	-16832
▁직권	-16833
▁총살	-16834
▁팬아	-16835
▁290	-16836
▁LCK	-16837
▁MLB	-16838
▁건널목	-16839
▁막아내	-16840
▁전철역	-16841
▁지방관	-16842
▁진정하	-16843
▁파출소	-16844
▁평의원	-16845
▁What	-16846
▁그래미상	-16847
▁서아시아	-16848
▁클라이맥스	-16849
▁엎	-16850
식스	-16851
▁간지	-16852
▁레딧	-16853
▁바사	-16854
▁버거	-16855
▁키아	-16856
▁패퇴	-16857
▁포진	-16858
▁풍수	-16859
▁헬렌	-16860
▁혼돈	-16861
▁맞대결	-16862
▁사이공	-16863
▁취약점	-16864
▁산업단지	-16865
▁샌드위치	-16866
▁자유민주	-16867
▁플레이스	-16868
▁그리스도인	-16869
데냐	-16870
▁ED	-16871
▁Of	-16872
▁당명	-16873
▁루지	-16874
▁민가	-16875
▁부탄	-16876
▁비욘	-16877
▁소치	-16878
▁씨름	-16879
▁우도	-16880
▁이다	-16881
▁튀기	-16882
▁고조선	-16883
▁깨달음	-16884
▁니스트	-16885
▁등록금	-16886
▁미시간	-16887
▁성명서	-16888
▁수번뇌	-16889
▁스타즈	-16890
▁플라자	-16891
▁사르데냐	-16892
▁자연주의	-16893
▁트랜지스터	-16894
▁페더레이션	-16895
BN	-16896
회원	-16897
▁EN	-16898
▁구자	-16899
▁규장	-16900
▁모식	-16901
▁목화	-16902
▁보궐	-16903
▁약학	-16904
▁열망	-16905
▁열풍	-16906
▁올랭	-16907
▁캐럴	-16908
▁흥덕	-16909
정보부	-16910
▁MHz	-16911
마일	-16912
▁견훤	-16913
▁군락	-16914
▁아랑	-16915
씨식물	-16916
학생회	-16917
▁건너편	-16918
▁겨울철	-16919
▁대항해	-16920
▁스레드	-16921
▁주교좌	-16922
▁충주시	-16923
▁평택시	-16924
▁포스코	-16925
▁크리스천	-16926
▁Google	-16927
전차	-16928
천국	-16929
▁미에	-16930
▁북상	-16931
▁석등	-16932
▁인대	-16933
▁지층	-16934
▁총액	-16935
▁학급	-16936
▁할양	-16937
▁홍천	-16938
▁훈족	-16939
▁연구실	-16940
▁커티스	-16941
▁총학생회	-16942
▁그리스도교	-16943
ye	-16944
카라	-16945
▁면은	-16946
▁민권	-16947
▁병인	-16948
▁선회	-16949
▁일람	-16950
▁포교	-16951
▁헤임	-16952
▁남조선	-16953
▁다면체	-16954
▁베일리	-16955
▁우승컵	-16956
▁하모니	-16957
살바도르	-16958
▁1795	-16959
▁아틀레틱	-16960
▁세키가하라	-16961
▁윔	-16962
▁쥘	-16963
림동	-16964
▁구석	-16965
▁급기	-16966
▁레미	-16967
▁승전	-16968
▁정여	-16969
▁헨드	-16970
▁블루어	-16971
▁상대론	-16972
▁성북구	-16973
▁재빨리	-16974
▁석가여래	-16975
건적	-16976
구멍	-16977
yle	-16978
▁kW	-16979
▁매춘	-16980
▁아난	-16981
▁아픔	-16982
▁옥상	-16983
▁윗면	-16984
▁초당	-16985
▁넥스트	-16986
▁창업자	-16987
▁With	-16988
▁갑신정변	-16989
▁카테고리	-16990
▁렝	-16991
ger	-16992
▁괴뢰	-16993
▁비어	-16994
▁암초	-16995
▁에린	-16996
▁켈빈	-16997
▁페데	-16998
▁238	-16999
▁850	-17000
▁공기업	-17001
▁변속기	-17002
▁원정군	-17003
▁다리우스	-17004
▁디렉터리	-17005
▁뱌	-17006
니코	-17007
르모	-17008
팽이	-17009
enc	-17010
▁개전	-17011
▁도정	-17012
▁려다	-17013
▁브람	-17014
▁스톨	-17015
▁웅진	-17016
▁장조	-17017
▁장준	-17018
▁춤추	-17019
주니어	-17020
▁TBC	-17021
▁국문학	-17022
▁트루먼	-17023
▁프리킥	-17024
▁부위원장	-17025
ING	-17026
alk	-17027
▁Di	-17028
▁MT	-17029
▁김세	-17030
▁반야	-17031
▁보훈	-17032
▁소도	-17033
▁얼터	-17034
▁에런	-17035
▁잊히	-17036
▁코지	-17037
▁토비	-17038
▁Art	-17039
▁익산시	-17040
▁통신부	-17041
▁홉킨스	-17042
▁황태후	-17043
UI	-17044
▁켓	-17045
뉴스	-17046
▁감탄	-17047
▁도색	-17048
▁랜덤	-17049
▁미숙	-17050
▁본초	-17051
▁세베	-17052
▁우사	-17053
▁웰스	-17054
디우스	-17055
▁헬싱키	-17056
▁사탕수수	-17057
▁아나키즘	-17058
부미	-17059
▁남포	-17060
▁로동	-17061
▁미코	-17062
▁쇠약	-17063
▁윈터	-17064
▁율령	-17065
▁차분	-17066
▁480	-17067
▁남반구	-17068
▁빅토리	-17069
▁초대칭	-17070
▁합천군	-17071
▁COVID	-17072
레프	-17073
블린	-17074
▁광택	-17075
▁니나	-17076
▁몬태	-17077
▁민생	-17078
▁직함	-17079
▁첨부	-17080
네소스	-17081
ough	-17082
▁남해군	-17083
▁로렌초	-17084
▁보행자	-17085
▁여객선	-17086
▁창덕궁	-17087
▁드레이크	-17088
▁어드밴스	-17089
▁언어학자	-17090
▁먀	-17091
▁만기	-17092
▁부녀	-17093
▁유원	-17094
▁종친	-17095
▁천정	-17096
▁벤피카	-17097
▁윤리학	-17098
▁MPEG	-17099
▁수마트라	-17100
▁키르기스스탄	-17101
개혁	-17102
고나	-17103
▁골수	-17104
▁과부	-17105
▁국지	-17106
▁군국	-17107
▁독소	-17108
▁숭실	-17109
▁심플	-17110
▁이형	-17111
▁정강	-17112
▁특례	-17113
▁평신	-17114
▁필기	-17115
독립당	-17116
코스트	-17117
▁제이스	-17118
▁타블로	-17119
▁Blue	-17120
▁한국독립당	-17121
23	-17122
렁이	-17123
▁간디	-17124
▁교주	-17125
▁굶주	-17126
▁루머	-17127
▁묘법	-17128
▁버시	-17129
▁신구	-17130
▁인신	-17131
▁팀장	-17132
▁페터	-17133
▁공직자	-17134
▁북반구	-17135
▁알레르	-17136
▁체스터	-17137
▁크라스	-17138
▁가나자와	-17139
▁기념사업	-17140
▁안드레이	-17141
▁경이	-17142
▁국과	-17143
▁논설	-17144
▁더럽	-17145
▁데메	-17146
▁리저	-17147
▁바일	-17148
▁박승	-17149
▁세탁	-17150
▁솔트	-17151
▁연유	-17152
▁장항	-17153
시우스	-17154
▁Rev	-17155
▁에히메	-17156
▁페테르	-17157
▁중앙정보부	-17158
BT	-17159
재란	-17160
▁덩굴	-17161
▁데쓰	-17162
▁돌핀	-17163
▁맛있	-17164
▁산불	-17165
▁수렵	-17166
▁엄정	-17167
▁여과	-17168
▁월북	-17169
▁이국	-17170
▁이트	-17171
▁이효	-17172
▁정병	-17173
▁천구	-17174
▁하디	-17175
플레잉	-17176
▁223	-17177
▁노르트	-17178
▁데포르	-17179
▁돌아서	-17180
▁산체스	-17181
▁손바닥	-17182
▁스타인	-17183
▁아쿠아	-17184
▁에밀리	-17185
▁유격대	-17186
▁충렬왕	-17187
▁키워드	-17188
▁1793	-17189
▁롤플레잉	-17190
▁요시아키	-17191
▁정유재란	-17192
26	-17193
IO	-17194
▁뚱	-17195
OVE	-17196
▁갤러	-17197
▁교묘	-17198
▁구룡	-17199
▁낙타	-17200
▁대뇌	-17201
▁머피	-17202
▁멜론	-17203
▁서강	-17204
▁순정	-17205
▁주경	-17206
연화경	-17207
▁보호관	-17208
▁이완용	-17209
▁이베리아	-17210
▁꼼	-17211
모자	-17212
▁각광	-17213
▁불평	-17214
▁역모	-17215
▁오호	-17216
▁참배	-17217
▁쿠릴	-17218
▁펀치	-17219
▁표결	-17220
▁바로잡	-17221
▁상속인	-17222
▁테트라	-17223
▁팩토리	-17224
▁페인트	-17225
▁평화상	-17226
▁브루나이	-17227
▁하이웨이	-17228
▁줌	-17229
나물	-17230
▁구토	-17231
▁보츠	-17232
▁본당	-17233
▁설사	-17234
▁심근	-17235
▁와해	-17236
▁유시	-17237
▁존엄	-17238
비우스	-17239
슬라브	-17240
웨스트	-17241
캐스트	-17242
▁COM	-17243
▁문하시	-17244
▁수증기	-17245
▁안데르	-17246
▁전기장	-17247
▁중서부	-17248
▁포위전	-17249
스트리트	-17250
▁1846	-17251
▁갈릴레이	-17252
▁물리학상	-17253
래시	-17254
에리	-17255
질량	-17256
que	-17257
ump	-17258
▁내구	-17259
▁당분	-17260
▁무당	-17261
▁박기	-17262
▁발단	-17263
▁방조	-17264
▁베버	-17265
▁브롱	-17266
▁해일	-17267
다람쥐	-17268
▁737	-17269
▁낙하산	-17270
▁농작물	-17271
▁메이트	-17272
▁보라색	-17273
▁시어터	-17274
▁아칸소	-17275
▁중앙아프리카	-17276
바람	-17277
섬유	-17278
처리	-17279
패스	-17280
der	-17281
▁구인	-17282
▁귀양	-17283
▁니콘	-17284
▁봉작	-17285
▁억류	-17286
▁인출	-17287
▁LCD	-17288
▁Min	-17289
▁엉덩이	-17290
▁추밀원	-17291
▁time	-17292
▁비지니스	-17293
▁에드먼드	-17294
▁하시모토	-17295
대성	-17296
메트	-17297
▁게일	-17298
▁경멸	-17299
▁공덕	-17300
▁몸집	-17301
▁서보	-17302
▁악역	-17303
▁육아	-17304
▁추위	-17305
▁톨킨	-17306
▁하순	-17307
▁해자	-17308
▁현충	-17309
▁가입자	-17310
▁시공간	-17311
▁아산시	-17312
▁아테나	-17313
▁1839	-17314
▁오브젝트	-17315
▁촘	-17316
파스	-17317
▁ME	-17318
▁괴멸	-17319
▁내수	-17320
▁미묘	-17321
▁박준	-17322
▁범용	-17323
▁부윤	-17324
▁윤석	-17325
▁윤원	-17326
▁파드	-17327
▁버나드	-17328
▁베드로	-17329
▁오비탈	-17330
▁외무성	-17331
▁입출력	-17332
총리대신	-17333
▁블레이드	-17334
▁초등학생	-17335
▁히로부미	-17336
▁아오모리현	-17337
▁내각총리대신	-17338
HD	-17339
▁갑각	-17340
▁마한	-17341
▁망루	-17342
▁삼키	-17343
▁총체	-17344
▁환기	-17345
▁214	-17346
▁Top	-17347
▁국무원	-17348
▁배수량	-17349
▁산둥성	-17350
▁이브라	-17351
▁1854	-17352
▁미성년자	-17353
▁상파울루	-17354
▁시즈오카현	-17355
▁넉	-17356
▁퓌	-17357
사회	-17358
정권	-17359
▁간염	-17360
▁느라	-17361
▁마는	-17362
▁성추	-17363
▁유폐	-17364
▁인피	-17365
▁존상	-17366
▁클루	-17367
▁퇴단	-17368
▁페가	-17369
▁핵산	-17370
▁후시	-17371
▁휘트	-17372
티우스	-17373
▁다이나	-17374
▁지난해	-17375
▁공화주의	-17376
▁여주인공	-17377
▁차량기지	-17378
우어	-17379
후이	-17380
▁등대	-17381
▁볼륨	-17382
▁브론	-17383
▁상작	-17384
▁손책	-17385
▁아민	-17386
▁잠들	-17387
▁찬탈	-17388
▁칼레	-17389
▁후백	-17390
니다드	-17391
▁가시마	-17392
▁건국대	-17393
▁기부금	-17394
▁최하위	-17395
▁하카타	-17396
▁기독교인	-17397
▁자동변속기	-17398
▁트리니다드	-17399
28	-17400
고트	-17401
▁걸맞	-17402
▁분양	-17403
▁사흘	-17404
▁욕설	-17405
▁이견	-17406
▁종주	-17407
타니아	-17408
프랑스	-17409
▁경비대	-17410
▁식물원	-17411
▁증명서	-17412
▁진보당	-17413
▁파트리	-17414
▁후임자	-17415
▁이해관계	-17416
▁PP	-17417
▁가니	-17418
▁구나	-17419
▁깜짝	-17420
▁낙랑	-17421
▁바덴	-17422
▁반려	-17423
▁비참	-17424
▁새턴	-17425
▁석상	-17426
▁야로	-17427
▁이부	-17428
▁제식	-17429
▁조력	-17430
▁코레	-17431
▁구청장	-17432
▁비행대	-17433
▁안중근	-17434
▁데포르티보	-17435
버드	-17436
▁고압	-17437
▁메사	-17438
▁미모	-17439
▁역습	-17440
▁우동	-17441
▁유장	-17442
▁유품	-17443
▁치중	-17444
▁한서	-17445
▁교직원	-17446
▁대머리	-17447
▁돗토리	-17448
▁조계종	-17449
▁비트코인	-17450
▁플로이드	-17451
▁돛	-17452
▁럴	-17453
든지	-17454
천년	-17455
▁교포	-17456
▁단사	-17457
▁담론	-17458
▁라몬	-17459
▁매월	-17460
▁모기	-17461
▁수류	-17462
▁오딘	-17463
▁폰트	-17464
▁교토부	-17465
▁보나파	-17466
베이거스	-17467
▁보나파르트	-17468
재기	-17469
▁견습	-17470
▁상투	-17471
▁셔먼	-17472
▁실로	-17473
▁어이	-17474
▁언약	-17475
▁제원	-17476
▁페드	-17477
▁현령	-17478
트로피	-17479
atch	-17480
▁419	-17481
▁나가노	-17482
▁레인보	-17483
▁보르도	-17484
▁찬드라	-17485
▁하이든	-17486
▁1849	-17487
▁Beat	-17488
▁마음대로	-17489
▁크레이그	-17490
▁라스베이거스	-17491
▁깡	-17492
깨비	-17493
담회	-17494
▁간장	-17495
▁김문	-17496
▁매번	-17497
▁배설	-17498
▁분장	-17499
▁사죄	-17500
▁센스	-17501
▁소홀	-17502
▁시경	-17503
▁웅장	-17504
▁장령	-17505
▁적성	-17506
▁치수	-17507
▁태세	-17508
▁화북	-17509
쿠스틱	-17510
▁북극해	-17511
▁절대로	-17512
▁어쿠스틱	-17513
OU	-17514
탐정	-17515
호프	-17516
▁KC	-17517
▁낙엽	-17518
▁남로	-17519
▁단성	-17520
▁비크	-17521
▁소란	-17522
▁수배	-17523
▁알비	-17524
▁원성	-17525
▁웨일	-17526
▁윤영	-17527
▁조승	-17528
▁철원	-17529
▁친절	-17530
▁211	-17531
▁430	-17532
▁에리크	-17533
▁1856	-17534
▁반공주의	-17535
86	-17536
▁뺏	-17537
누아	-17538
오린	-17539
▁TG	-17540
▁광경	-17541
▁변방	-17542
▁분쇄	-17543
▁시주	-17544
▁연임	-17545
▁오닐	-17546
▁임베	-17547
▁화전	-17548
루리아	-17549
직할시	-17550
icro	-17551
▁가파르	-17552
▁감염자	-17553
▁갖가지	-17554
▁노동자당	-17555
▁델라웨어	-17556
▁사보이아	-17557
▁서스펜션	-17558
▁소용돌이	-17559
▁올랭피크	-17560
▁임베디드	-17561
▁정사각형	-17562
▁네덜란드어	-17563
▁오하이오주	-17564
전기	-17565
케스	-17566
▁계투	-17567
▁대세	-17568
▁디온	-17569
▁만국	-17570
▁명주	-17571
▁밀스	-17572
▁북해	-17573
▁상체	-17574
▁서상	-17575
▁신작	-17576
▁여생	-17577
▁이안	-17578
▁적재	-17579
▁추궁	-17580
▁페티	-17581
궐선거	-17582
▁테이크	-17583
▁특이점	-17584
▁캐나다인	-17585
▁재보궐선거	-17586
▁녜	-17587
일라	-17588
▁계란	-17589
▁라티	-17590
▁본디	-17591
▁예속	-17592
▁오기	-17593
▁파격	-17594
▁FBI	-17595
▁어리석	-17596
▁저작물	-17597
▁핵폭탄	-17598
츠부르크	-17599
▁1851	-17600
▁크리에이티브	-17601
쿠젠	-17602
하스	-17603
호르	-17604
▁ER	-17605
▁마자	-17606
▁생가	-17607
▁요아	-17608
▁잠복	-17609
▁제학	-17610
▁301	-17611
▁가속기	-17612
▁명명법	-17613
▁스나이	-17614
▁카운터	-17615
▁해럴드	-17616
▁핵실험	-17617
▁스탠퍼드	-17618
니엄	-17619
연대	-17620
왕국	-17621
증권	-17622
ery	-17623
▁DL	-17624
▁IA	-17625
▁결탁	-17626
▁경색	-17627
▁도독	-17628
▁드니	-17629
▁반열	-17630
▁방수	-17631
▁인테	-17632
▁촌은	-17633
▁카잔	-17634
▁히다	-17635
제르맹	-17636
▁Med	-17637
▁배트맨	-17638
▁장택상	-17639
▁지평선	-17640
▁투데이	-17641
타고라스	-17642
▁통합진보당	-17643
봉사	-17644
체어	-17645
하늘	-17646
oup	-17647
▁국면	-17648
▁박격	-17649
▁보문	-17650
▁수서	-17651
▁정시	-17652
▁헤엄	-17653
cess	-17654
▁대주주	-17655
▁웨이트	-17656
▁참모장	-17657
▁청교도	-17658
▁펠로폰	-17659
▁Free	-17660
▁프란시스	-17661
▁펠로폰네소스	-17662
29	-17663
버거	-17664
지대	-17665
▁단호	-17666
▁선하	-17667
▁외동	-17668
▁히나	-17669
▁글리코	-17670
▁노스케	-17671
▁대각선	-17672
▁수산물	-17673
▁수수료	-17674
▁시부야	-17675
▁아가씨	-17676
▁애벌레	-17677
▁하동군	-17678
▁황도대	-17679
▁1855	-17680
▁1857	-17681
▁다이스케	-17682
27	-17683
▁힉	-17684
연료	-17685
카테	-17686
투안	-17687
하르	-17688
▁YM	-17689
▁대열	-17690
▁발송	-17691
▁버퍼	-17692
▁서천	-17693
▁성간	-17694
▁쇼팽	-17695
▁원가	-17696
▁정년	-17697
▁지소	-17698
▁구석기	-17699
▁기념식	-17700
▁베르디	-17701
▁변증법	-17702
▁은하단	-17703
▁일간지	-17704
▁작사가	-17705
▁생제르맹	-17706
▁스티븐스	-17707
▁엔트로피	-17708
▁폴란드인	-17709
레토	-17710
▁기물	-17711
▁대광	-17712
▁벽면	-17713
▁열반	-17714
▁음경	-17715
▁주치	-17716
▁찬스	-17717
▁캔디	-17718
고양이	-17719
들랜드	-17720
▁공사관	-17721
▁그로스	-17722
▁마그마	-17723
▁봉사자	-17724
▁집어넣	-17725
▁캥거루	-17726
메니스탄	-17727
▁투르크메니스탄	-17728
바꿈	-17729
소득	-17730
쇼프	-17731
흐트	-17732
▁CL	-17733
▁덧셈	-17734
▁랜디	-17735
▁무왕	-17736
▁벚꽃	-17737
▁소망	-17738
▁심슨	-17739
▁아모	-17740
▁착안	-17741
▁체첸	-17742
▁항모	-17743
▁해금	-17744
▁현명	-17745
▁새천년	-17746
▁성추행	-17747
▁시흥시	-17748
▁행정관	-17749
▁휠체어	-17750
▁이와테현	-17751
▁태평천국	-17752
▁민족주의자	-17753
산읍	-17754
테른	-17755
▁과업	-17756
▁니즘	-17757
▁분개	-17758
▁성년	-17759
▁슈바	-17760
▁신명	-17761
▁실습	-17762
▁택지	-17763
▁현생	-17764
▁구미시	-17765
▁동의어	-17766
▁상세히	-17767
▁출생지	-17768
댄스	-17769
▁거액	-17770
▁노다	-17771
▁빌미	-17772
▁성채	-17773
▁템포	-17774
▁픽션	-17775
콥스키	-17776
▁루터교	-17777
▁마인드	-17778
▁병원체	-17779
▁서북쪽	-17780
▁올라서	-17781
▁포브스	-17782
▁포천시	-17783
▁Will	-17784
▁스포르팅	-17785
▁병마절도사	-17786
▁좡	-17787
▁CT	-17788
▁권세	-17789
▁셀룰	-17790
▁수스	-17791
▁신영	-17792
▁압송	-17793
▁위니	-17794
▁중첩	-17795
▁친목	-17796
시오날	-17797
▁나주시	-17798
▁형무소	-17799
▁나시오날	-17800
▁고증	-17801
▁김한	-17802
▁노회	-17803
▁변장	-17804
▁역행	-17805
▁외벽	-17806
▁이공	-17807
▁이학	-17808
▁크세	-17809
▁한참	-17810
▁NAD	-17811
▁Pop	-17812
▁모자라	-17813
▁베르그	-17814
▁샘플링	-17815
▁컨디션	-17816
▁하이델	-17817
▁항구역	-17818
니크	-17819
로아	-17820
모습	-17821
서구	-17822
▁만리	-17823
▁본기	-17824
▁지병	-17825
▁탄원	-17826
▁포구	-17827
▁비정규	-17828
▁시우바	-17829
▁팰리스	-17830
▁헤이스	-17831
스탕	-17832
ont	-17833
▁계파	-17834
▁까다	-17835
▁뇌졸	-17836
▁명지	-17837
▁버즈	-17838
▁요네	-17839
▁율곡	-17840
▁장구	-17841
▁카렐	-17842
▁타오	-17843
▁퇴사	-17844
▁합체	-17845
▁회부	-17846
▁비엔나	-17847
▁오카다	-17848
▁포위망	-17849
▁1776	-17850
▁플루오린	-17851
▁간파	-17852
▁교복	-17853
▁대적	-17854
▁방한	-17855
▁서드	-17856
▁팔자	-17857
▁한도	-17858
메데스	-17859
▁독립국	-17860
▁려다가	-17861
▁베리아	-17862
▁아세트	-17863
▁해설자	-17864
▁미주리주	-17865
평가	-17866
활성	-17867
▁급습	-17868
▁대흥	-17869
▁라데	-17870
▁알론	-17871
▁액수	-17872
▁와트	-17873
▁음란	-17874
▁재원	-17875
▁준위	-17876
▁코민	-17877
▁파사	-17878
메네스	-17879
▁XML	-17880
▁메이플	-17881
▁보니파	-17882
▁수송기	-17883
▁이범석	-17884
▁국민회의	-17885
▁무라카미	-17886
▁클라리넷	-17887
ma	-17888
마타	-17889
day	-17890
▁HK	-17891
▁몬트	-17892
▁미안	-17893
▁셰이	-17894
▁영아	-17895
▁윤선	-17896
▁조식	-17897
중국해	-17898
▁늘어지	-17899
▁달라이	-17900
▁모티프	-17901
▁바이스	-17902
▁시설물	-17903
▁청구인	-17904
▁사카모토	-17905
▁그레고리력	-17906
광선	-17907
를린	-17908
▁누락	-17909
▁몰입	-17910
▁사성	-17911
▁산탄	-17912
▁심신	-17913
▁연천	-17914
▁원제	-17915
▁이연	-17916
▁읽히	-17917
▁총알	-17918
▁칸타	-17919
▁케니	-17920
▁퇴화	-17921
▁포탈	-17922
▁현청	-17923
노벨라	-17924
▁233	-17925
▁End	-17926
▁거제시	-17927
▁뽑아내	-17928
▁에인절	-17929
▁크리켓	-17930
▁원내대표	-17931
▁텔레노벨라	-17932
페리	-17933
▁국채	-17934
▁금광	-17935
▁로로	-17936
▁미팅	-17937
▁사극	-17938
▁음소	-17939
▁직제	-17940
▁퓨전	-17941
▁픽업	-17942
▁Bro	-17943
▁모여들	-17944
▁브레인	-17945
▁서기장	-17946
▁프로파	-17947
▁가까스로	-17948
▁10000	-17949
BL	-17950
▁BR	-17951
▁FX	-17952
▁Po	-17953
▁ne	-17954
▁골목	-17955
▁땅콩	-17956
▁문교	-17957
▁부총	-17958
▁서던	-17959
▁양손	-17960
▁연좌	-17961
▁청탁	-17962
▁포에	-17963
▁화신	-17964
▁엑스선	-17965
▁타고나	-17966
▁포레스트	-17967
▁레오나르도	-17968
계리	-17969
버섯	-17970
행사	-17971
aut	-17972
▁귀납	-17973
▁발주	-17974
▁상시	-17975
▁생사	-17976
▁김종필	-17977
▁레너드	-17978
▁리서치	-17979
▁부활절	-17980
▁코미디언	-17981
▁묘법연화경	-17982
볼트	-17983
▁MW	-17984
▁괴팅	-17985
▁교우	-17986
▁만다	-17987
▁미망	-17988
▁이로	-17989
▁지단	-17990
▁클론	-17991
▁표상	-17992
▁하쿠	-17993
▁호가	-17994
레시브	-17995
▁사모아	-17996
▁심포니	-17997
▁영산회	-17998
▁클라라	-17999
▁프로그레시브	-18000
가야	-18001
슐린	-18002
▁가메	-18003
▁각별	-18004
▁국고	-18005
▁누각	-18006
▁살림	-18007
▁시왕	-18008
▁언젠	-18009
▁장타	-18010
▁조참	-18011
▁진안	-18012
▁질리	-18013
▁최경	-18014
▁타현	-18015
더니즘	-18016
덜랜드	-18017
▁동북쪽	-18018
▁어지럽	-18019
▁유니온	-18020
▁캄파니아주	-18021
워키	-18022
▁간소	-18023
▁대양	-18024
▁로젠	-18025
▁명절	-18026
▁미움	-18027
▁반일	-18028
▁세브	-18029
▁수잔	-18030
▁쿠키	-18031
▁판별	-18032
▁혹독	-18033
▁다시피	-18034
▁서로마	-18035
▁언젠가	-18036
▁영등포	-18037
▁특공대	-18038
▁퍼펙트	-18039
▁미시간주	-18040
▁프로토타입	-18041
니발	-18042
▁JP	-18043
▁노미	-18044
▁로미	-18045
▁린드	-18046
▁비비	-18047
▁천명	-18048
▁215	-18049
▁del	-18050
▁급기야	-18051
▁살아나	-18052
▁피에트로	-18053
▁네브래스카	-18054
HS	-18055
br	-18056
개발	-18057
저민	-18058
▁TN	-18059
▁독감	-18060
▁라비	-18061
▁아속	-18062
▁입안	-18063
▁정약	-18064
▁정파	-18065
▁창안	-18066
▁한방	-18067
▁황보	-18068
irst	-18069
▁510	-18070
▁가로막	-18071
▁굳어지	-18072
▁레이어	-18073
▁벤저민	-18074
▁수메르	-18075
▁언더그라운드	-18076
its	-18077
▁CV	-18078
▁나나	-18079
▁도핑	-18080
▁로자	-18081
▁살상	-18082
▁세가	-18083
▁어필	-18084
▁에나	-18085
▁영연	-18086
▁요세	-18087
▁원화	-18088
▁접착	-18089
▁정철	-18090
▁청화	-18091
▁포즈	-18092
▁홀드	-18093
▁239	-18094
▁set	-18095
▁계약서	-18096
▁단기간	-18097
▁빠뜨리	-18098
▁치우치	-18099
▁파이브	-18100
▁알레르기	-18101
▁조기어류	-18102
급시	-18103
▁감명	-18104
▁경수	-18105
▁배영	-18106
▁서훈	-18107
▁위드	-18108
▁장보	-18109
▁정량	-18110
▁콘월	-18111
▁Big	-18112
▁목걸이	-18113
▁사중주	-18114
▁생태학	-18115
▁LIVE	-18116
▁캔터베리	-18117
▁뿌	-18118
IDS	-18119
▁WH	-18120
▁구면	-18121
▁마마	-18122
▁상피	-18123
▁우문	-18124
▁유즈	-18125
▁DFB	-18126
▁문화사	-18127
▁해적단	-18128
▁Rain	-18129
▁플레이트	-18130
EX	-18131
노동	-18132
미치	-18133
빼미	-18134
▁SI	-18135
▁공녀	-18136
▁노먼	-18137
▁레베	-18138
▁루소	-18139
▁루아	-18140
▁서킷	-18141
▁수난	-18142
▁시로	-18143
▁영세	-18144
▁전갈	-18145
▁체임	-18146
▁틈새	-18147
핵생물	-18148
▁까다롭	-18149
▁논산시	-18150
▁미카사	-18151
▁버밍엄	-18152
▁퀘스트	-18153
▁계몽주의	-18154
▁아틀라스	-18155
▁개간	-18156
▁경치	-18157
▁까치	-18158
▁다의	-18159
▁매드	-18160
▁메콩	-18161
▁밑면	-18162
▁부원	-18163
▁시료	-18164
▁열광	-18165
▁우랄	-18166
▁제향	-18167
▁주둥	-18168
▁추석	-18169
▁카쿠	-18170
▁쿠페	-18171
▁BMW	-18172
▁게이츠	-18173
▁권력자	-18174
▁서남쪽	-18175
▁월리스	-18176
▁전년도	-18177
▁프리랜	-18178
▁후반부	-18179
▁인테리어	-18180
보스	-18181
이인	-18182
▁도금	-18183
▁듀크	-18184
▁북제	-18185
▁시동	-18186
▁신재	-18187
▁실드	-18188
▁아그	-18189
▁우메	-18190
▁은둔	-18191
▁호엔	-18192
▁미술가	-18193
▁사생아	-18194
▁호위함	-18195
▁begin	-18196
▁젬	-18197
개명	-18198
코바	-18199
타라	-18200
oss	-18201
▁가인	-18202
▁금화	-18203
▁도고	-18204
▁비슈	-18205
▁상권	-18206
▁세관	-18207
▁약정	-18208
▁위아	-18209
▁튀르	-18210
▁패주	-18211
▁필살	-18212
▁Des	-18213
▁경기력	-18214
▁레일리	-18215
▁목격자	-18216
▁밀워키	-18217
▁요리사	-18218
▁핵연료	-18219
지않	-18220
▁낭독	-18221
▁도기	-18222
▁독신	-18223
▁라벤	-18224
▁방과	-18225
▁숙성	-18226
▁시판	-18227
▁안상	-18228
▁유실	-18229
▁질레	-18230
▁코다	-18231
▁향리	-18232
▁게이머	-18233
▁보호자	-18234
▁출연진	-18235
▁1792	-18236
▁권위주의	-18237
▁슈퍼주니어	-18238
▁잣	-18239
그림	-18240
삼문	-18241
▁덤불	-18242
▁래스	-18243
▁만찬	-18244
▁스커	-18245
▁시암	-18246
▁착오	-18247
▁촌락	-18248
메이트	-18249
▁계약금	-18250
▁기장군	-18251
▁따돌리	-18252
▁릴리스	-18253
▁브람스	-18254
▁양서류	-18255
▁표준어	-18256
▁천주교회	-18257
▁퍼레이드	-18258
▁프라이스	-18259
be	-18260
▁찻	-18261
경궁	-18262
이다	-18263
▁내쫓	-18264
▁녀석	-18265
▁불황	-18266
▁실화	-18267
▁양력	-18268
▁예천	-18269
▁잠그	-18270
▁호치	-18271
파트라	-18272
▁212	-18273
▁아르카	-18274
▁재정난	-18275
▁도네츠크	-18276
▁랜드마크	-18277
▁소선거구	-18278
▁카리브해	-18279
▁Hello	-18280
▁클레오파트라	-18281
도서	-18282
얼빈	-18283
▁구급	-18284
▁그려	-18285
▁근연	-18286
▁사구	-18287
▁산토	-18288
▁서하	-18289
▁유루	-18290
▁절멸	-18291
▁종택	-18292
▁커트	-18293
▁티르	-18294
▁평년	-18295
▁홍백	-18296
▁무인역	-18297
▁부제학	-18298
▁에버턴	-18299
▁플랜트	-18300
ement	-18301
▁Mnet	-18302
▁void	-18303
▁동대문구	-18304
막염	-18305
▁관서	-18306
▁대검	-18307
▁비츠	-18308
▁수첩	-18309
▁시구	-18310
▁오쓰	-18311
▁이족	-18312
▁함안	-18313
너티브	-18314
▁검사장	-18315
▁과선교	-18316
▁다각형	-18317
▁프레디	-18318
▁1853	-18319
▁Show	-18320
▁크래프트	-18321
▁얼터너티브	-18322
▁퓰	-18323
타바	-18324
▁do	-18325
▁가평	-18326
▁감히	-18327
▁귀향	-18328
▁나팔	-18329
▁매너	-18330
▁메트	-18331
▁박주	-18332
▁수온	-18333
▁슬럼	-18334
▁케스	-18335
▁탄환	-18336
컨트리	-18337
▁경영진	-18338
▁다다르	-18339
▁무안군	-18340
▁외삼촌	-18341
▁중생대	-18342
▁지도력	-18343
▁1791	-18344
▁엘살바도르	-18345
루이	-18346
하워	-18347
aff	-18348
▁FN	-18349
▁난간	-18350
▁모후	-18351
▁바크	-18352
▁박중	-18353
▁섬멸	-18354
▁성하	-18355
▁수뇌	-18356
▁수전	-18357
▁요트	-18358
▁제반	-18359
▁최재	-18360
▁타코	-18361
▁회중	-18362
▁세일러	-18363
▁퍼뜨리	-18364
▁1852	-18365
▁시트르산	-18366
▁창씨개명	-18367
▁아이젠하워	-18368
▁크로스컨트리	-18369
▁박인	-18370
▁버락	-18371
▁욕심	-18372
▁음색	-18373
▁이계	-18374
▁이면	-18375
▁입적	-18376
▁초중	-18377
▁최치	-18378
▁출소	-18379
즐랜드	-18380
하이머	-18381
▁분화구	-18382
▁브리트	-18383
▁앵글로	-18384
▁정말로	-18385
▁Road	-18386
▁테러리스트	-18387
▁콘스탄티노플	-18388
▁RD	-18389
▁고타	-18390
▁동복	-18391
▁망상	-18392
▁미신	-18393
▁색인	-18394
▁아만	-18395
▁아쓰	-18396
▁외화	-18397
▁장영	-18398
▁최북	-18399
▁친숙	-18400
▁캄포	-18401
▁호러	-18402
▁명백히	-18403
▁쓰임새	-18404
▁중학생	-18405
▁모하메드	-18406
▁속씨식물	-18407
▁퀸즐랜드	-18408
▁Sound	-18409
▁즌	-18410
귀비	-18411
팔렌	-18412
vis	-18413
▁EF	-18414
▁갑판	-18415
▁관사	-18416
▁구보	-18417
▁김호	-18418
▁노년	-18419
▁밥상	-18420
▁셰프	-18421
▁에타	-18422
▁연작	-18423
▁윤상	-18424
▁자락	-18425
▁점심	-18426
▁게이초	-18427
▁꽃받침	-18428
▁레프트	-18429
▁음악회	-18430
▁지원자	-18431
▁한마디	-18432
▁레인보우	-18433
▁사다하루	-18434
▁롬바르디아	-18435
바타	-18436
방식	-18437
티드	-18438
▁강물	-18439
▁면접	-18440
▁버블	-18441
▁벨레	-18442
▁으라	-18443
▁주술	-18444
▁동식물	-18445
▁유목민	-18446
▁최적화	-18447
▁경향신문	-18448
▁뱀파이어	-18449
▁벌어들이	-18450
▁사회단체	-18451
▁옵티머스	-18452
WS	-18453
▁똥	-18454
▁뚝	-18455
노헤	-18456
▁나니	-18457
▁냉동	-18458
▁노던	-18459
▁선방	-18460
▁식료	-18461
▁예견	-18462
▁우쓰	-18463
▁울음	-18464
▁유위	-18465
▁윤회	-18466
▁정구	-18467
▁제각	-18468
▁품계	-18469
▁플뢰	-18470
▁Bar	-18471
▁성동구	-18472
▁에르난	-18473
▁옹진군	-18474
▁재판장	-18475
▁점성가	-18476
▁조나단	-18477
▁현악기	-18478
▁LOVE	-18479
▁Sing	-18480
▁개인주의	-18481
▁다운타운	-18482
▁필리포스	-18483
▁옅	-18484
▁능통	-18485
▁마조	-18486
▁반증	-18487
▁보두	-18488
▁부름	-18489
▁부응	-18490
▁실황	-18491
▁월급	-18492
▁청진	-18493
▁파니	-18494
▁학점	-18495
▁합방	-18496
▁해동	-18497
▁황성	-18498
▁후각	-18499
▁후신	-18500
▁히브	-18501
▁강아지	-18502
▁관악구	-18503
▁그려지	-18504
▁끊어지	-18505
▁동인도	-18506
▁베이컨	-18507
▁부끄럽	-18508
▁이스턴	-18509
▁콘셉트	-18510
▁팬아메리칸	-18511
▁빽	-18512
▁젓	-18513
에어	-18514
오세	-18515
하트	-18516
way	-18517
▁OC	-18518
▁원망	-18519
▁장터	-18520
▁차가	-18521
▁쾌락	-18522
▁폐간	-18523
▁호감	-18524
▁희박	-18525
대주의	-18526
▁비스트	-18527
▁세례명	-18528
▁이베이	-18529
▁인슐린	-18530
▁저술가	-18531
▁1847	-18532
▁히로시마현	-18533
야구	-18534
임수	-18535
▁교착	-18536
▁기노	-18537
▁미일	-18538
▁밀턴	-18539
▁불펜	-18540
▁송금	-18541
▁여태	-18542
▁오목	-18543
▁완투	-18544
▁지드	-18545
▁팔각	-18546
▁포리	-18547
▁간행물	-18548
▁상류층	-18549
▁좀처럼	-18550
▁하얼빈	-18551
▁Like	-18552
▁글래스고	-18553
▁도쿠시마	-18554
▁루키우스	-18555
비어	-18556
ech	-18557
▁가봉	-18558
▁고질	-18559
▁국물	-18560
▁독려	-18561
▁안젤	-18562
▁영해	-18563
▁조위	-18564
▁회군	-18565
자위대	-18566
▁Red	-18567
▁뇌졸중	-18568
▁박격포	-18569
▁잎자루	-18570
▁카이저	-18571
▁동명이인	-18572
▁옥타비아	-18573
▁안티고노스	-18574
색슨	-18575
▁계명	-18576
▁고작	-18577
▁그람	-18578
▁나츠	-18579
▁남짓	-18580
▁따내	-18581
▁마왕	-18582
▁수찬	-18583
▁신숙	-18584
▁쑨원	-18585
▁안구	-18586
▁앙주	-18587
▁이도	-18588
▁푸시	-18589
▁개찰기	-18590
▁김포시	-18591
▁나뭇잎	-18592
▁도지사	-18593
▁세포막	-18594
▁올빼미	-18595
▁유학생	-18596
▁정찰기	-18597
▁편의점	-18598
▁현저히	-18599
▁황갈색	-18600
▁Over	-18601
▁콘티넨털	-18602
▁프리랜서	-18603
▁Light	-18604
▁민속문화재	-18605
▁앵글로색슨	-18606
랄라	-18607
▁JS	-18608
▁NK	-18609
▁es	-18610
▁강수	-18611
▁강압	-18612
▁과천	-18613
▁기치	-18614
▁발화	-18615
▁벙커	-18616
▁베레	-18617
▁봉산	-18618
▁삼부	-18619
▁서간	-18620
▁오에	-18621
▁우성	-18622
▁유주	-18623
▁자력	-18624
▁존호	-18625
▁진과	-18626
▁혈청	-18627
▁회기	-18628
▁221	-18629
▁레슬리	-18630
▁브리즈	-18631
▁정보국	-18632
▁은행나무	-18633
슈티	-18634
옹주	-18635
▁MX	-18636
▁UK	-18637
▁경감	-18638
▁골자	-18639
▁공물	-18640
▁대파	-18641
▁마로	-18642
▁색조	-18643
▁수작	-18644
▁슬롯	-18645
▁왈라	-18646
▁우화	-18647
▁주어	-18648
▁프롬	-18649
▁독립성	-18650
▁미망인	-18651
▁산화물	-18652
▁탈수소	-18653
▁하루카	-18654
▁버지니아주	-18655
▁RO	-18656
▁고부	-18657
▁고해	-18658
▁낙인	-18659
▁마누	-18660
▁반민	-18661
▁슬퍼	-18662
▁쓰가	-18663
▁야채	-18664
▁약국	-18665
▁연사	-18666
▁연일	-18667
▁오경	-18668
▁재야	-18669
▁정태	-18670
▁조만	-18671
▁한류	-18672
ouse	-18673
▁LTE	-18674
▁가오슝	-18675
▁리히텐	-18676
▁부사관	-18677
▁브룩스	-18678
▁태권도	-18679
▁1100	-18680
▁시라카와	-18681
▁프라이드	-18682
니언	-18683
▁mg	-18684
▁경학	-18685
▁계략	-18686
▁비약	-18687
▁신빙	-18688
▁신예	-18689
▁이등	-18690
▁커크	-18691
▁탄화	-18692
리오카	-18693
ason	-18694
▁Net	-18695
▁더구나	-18696
▁멤피스	-18697
▁배상금	-18698
▁수류탄	-18699
▁중대장	-18700
▁피스톤	-18701
▁요코스카	-18702
HT	-18703
▁읊	-18704
루트	-18705
▁갑상	-18706
▁궁금	-18707
▁궤멸	-18708
▁동족	-18709
▁명품	-18710
▁보현	-18711
▁삼가	-18712
▁송병	-18713
▁임업	-18714
▁중흥	-18715
▁카오	-18716
▁콕스	-18717
▁해류	-18718
▁흡혈	-18719
▁231	-18720
▁교섭단체	-18721
▁포리스트	-18722
▁즙	-18723
시다	-18724
코로	-18725
▁미오	-18726
▁바예	-18727
▁성직	-18728
▁스벤	-18729
▁업소	-18730
▁여순	-18731
▁차드	-18732
▁Eng	-18733
▁성범죄	-18734
▁예배당	-18735
▁취임식	-18736
▁가이우스	-18737
▁브래들리	-18738
▁팁	-18739
시간	-18740
호크	-18741
▁TA	-18742
▁ac	-18743
▁과수	-18744
▁국명	-18745
▁균류	-18746
▁라피	-18747
▁셀프	-18748
▁수유	-18749
▁아론	-18750
▁어음	-18751
▁우미	-18752
▁토토	-18753
▁발자국	-18754
▁유가족	-18755
▁정착민	-18756
▁후견인	-18757
브레히트	-18758
▁오를레앙	-18759
거슨	-18760
제곱	-18761
조작	-18762
▁간편	-18763
▁굴리	-18764
▁덴버	-18765
▁동천	-18766
▁선지	-18767
▁아레	-18768
▁아워	-18769
▁유흥	-18770
▁쟁취	-18771
▁정연	-18772
▁추월	-18773
▁티나	-18774
▁하체	-18775
▁혹평	-18776
베를린	-18777
하이드	-18778
▁228	-18779
▁갑각류	-18780
▁집합론	-18781
▁1844	-18782
▁네덜란드인	-18783
프슨	-18784
iet	-18785
▁Pa	-18786
▁다키	-18787
▁담화	-18788
▁린치	-18789
▁부결	-18790
▁비니	-18791
▁비명	-18792
▁약제	-18793
▁외전	-18794
▁요안	-18795
▁원판	-18796
▁유예	-18797
▁장현	-18798
▁재귀	-18799
▁적시	-18800
▁청풍	-18801
▁체온	-18802
▁코노	-18803
▁크릭	-18804
▁390	-18805
▁여름철	-18806
▁1837	-18807
▁꽁	-18808
▁걸즈	-18809
▁만능	-18810
▁미약	-18811
▁북진	-18812
▁선승	-18813
▁실바	-18814
▁오데	-18815
▁취락	-18816
▁칼초	-18817
슈타트	-18818
▁단체장	-18819
▁도깨비	-18820
▁무척추	-18821
▁비대칭	-18822
▁곤살레스	-18823
▁알레산드로	-18824
보레	-18825
▁식년	-18826
▁제례	-18827
▁청렴	-18828
▁치타	-18829
▁트랩	-18830
▁패미	-18831
▁한옥	-18832
▁...	-18833
▁SQL	-18834
▁Sec	-18835
▁fun	-18836
▁드래건	-18837
▁미스트	-18838
▁슬퍼하	-18839
▁연장선	-18840
▁유리수	-18841
▁조교수	-18842
▁환경부	-18843
▁북베트남	-18844
▁저널리즘	-18845
▁피타고라스	-18846
쿠로	-18847
ric	-18848
▁PK	-18849
▁냉방	-18850
▁맨틀	-18851
▁방랑	-18852
▁선더	-18853
▁아저	-18854
▁증서	-18855
▁지터	-18856
▁토사	-18857
▁판도	-18858
▁호라	-18859
▁홍대	-18860
민정음	-18861
자동차	-18862
▁Har	-18863
▁반대쪽	-18864
▁평창군	-18865
▁프런트	-18866
▁현급시	-18867
[...]
