[PAD]
[UNK]
[BOS]
[EOS]
[CLS]
[SEP]
[MASK]
▁▃
▁ㅇ
ㅡㄴ
▁ㄱ
▁ㄷ
▁.
ㅡㄹ
▁ㄴ
▁ㄴㅡㄴ
▁ㅇㅔ
▁ㄹ
▁ㄷㅏ
▁ㅇㅣ
▁ㅎ
▁이
▁ㅇㅢ
▁ㅇㅡㄹ
▁하
ㅏㄴ
▁,
ㅅㅓ
▁ㄱㅏ
▁ㄹㅡㄹ
▁ㅇㅡㄴ
▁ㅁ
ㅈㅣ
▁ㄱㅗ
ㄷㅏ
▁ㅇㅡ
▁ㅎㅏㄴ
▁ㅇㅓ
▁있
ㄹㅗ
▁1
▁ㄷㅗ
▁ㄹㅗ
▁2
▁사
▁그
▁ㅎㅐ
▁ㅈㅣ
▁들
▁ㅁㅕ
▁아
▁시
▁ㅂ
▁수
▁대
▁되
▁ㄱㅣ
▁ㄱㅔ
▁ㄹㅏ
▁가
▁ㅇㅓㅆ
▁전
▁일
▁기
▁적
▁자
▁ㅇㅣㄴ
▁ㅁㅕㄴ
▁것
▁ㅇㅏ
▁다
▁-
▁보
▁지
▁ㅇㅘ
▁ㄱㅘ
▁ㅎㅐㅆ
▁스
▁마
▁주
▁정
ㄴㄷㅏ
▁상
ㄱㅗ
▁ㄷㅚ
▁'
▁때
ㅏㄹ
ㅓㄴ
ㄴㅡㄴ
▁3
ㅕㅆ
▁ㅎㅏㄴㄷㅏ
▁년
▁ㅈ
▁모
▁나
▁공
▁중
▁20
ㅁㅕ
▁유
▁경
ㅎㅐ
▁제
▁한
ㅁㅏㄴ
▁인
▁없
▁오
ㄴㅏ
▁부
▁등
▁성
▁:
▁소
▁ㄴㅏ
▁무
▁ㅅ
▁않
ㄱㅔ
▁ㅎㅏㄹ
▁ㅂㅗ
ㄷㅔ
▁비
▁미
▁ㄷㅓㄴ
ㅣㄴ
▁개
▁4
▁여
▁ㅁㅏㄴ
▁어
▁ㄲ
▁"
▁만
▁세
▁고
▁장
▁조
▁5
▁동
▁방
▁카
▁바
▁위
▁월
▁도
▁연
▁신
▁거
ㄹㄹ
▁영
▁타
▁때문
▁선
▁201
▁안
▁후
▁화
▁말
▁ㄴㅡㄴㄷㅔ
▁/
ㅎㅏㄴ
▁발
▁구
ㄱㅏ
ㅁㅕㄴ
▁리
▁레
▁ㄷㅚㄴ
▁ㄲㅏ
▁내
▁0
▁차
▁원
▁생
▁파
ㅇㅓ
▁우
▁최
▁실
▁당
▁명
▁문
▁노
▁같
▁많
▁ㅈㅏ
ㅜㄴ
▁ㅇㅕㅆ
▁ㄷㅚㄴㄷㅏ
▁번
▁해
▁더
▁단
▁포
▁데
▁ㄱㅓ
▁특
▁6
▁서
▁작
▁강
▁역
▁ㅂㅜ
▁경우
▁결
▁ㅇㅏㅆ
▁받
▁관
▁게
▁ㅊ
▁불
▁진
▁10
▁반
▁라
▁프
ㄷㅗ
▁초
▁의
ㄹㅏ
▁ㅁㅕㄴㅅㅓ
▁계
▁S
▁회
▁7
▁버
▁아니
▁코
▁배
▁ㅇㅕ
▁19
▁ㄸ
▁!
▁8
▁드
▁분
ㅌㅓ
▁현
▁물
▁남
▁에
▁편
▁사용
▁국
▁출
▁크
▁정도
▁사람
ㄹㅓ
▁이후
▁공격
ㅣㄴㄷㅏ
▁자신
▁추
▁매
▁피
▁9
레이
▁호
▁좋
▁로
▁ㄷㅐ
▁점
ㄴㅣ
▁A
▁ㅋ
▁M
▁감
▁요
▁트
▁그리
▁재
▁교
▁등장
▁학
▁ㅅㅓ
▁ㅆ
▁패
▁또
ㅇㅑ
▁참
▁가능
▁캐
▁예
▁형
▁저
▁설
▁두
ㄹㅕ
ㅇㅗ
▁입
스트
▁달
▁플
▁ㅇㅟ
▁본
ㅣㄹ
ㅇㅡ
▁함
▁치
▁ㅁㅗ
▁알
▁과
▁군
▁메
ㅇㅜㄴ
▁T
▁다른
▁C
▁속
▁판
▁게임
▁평
▁권
ㅇㅕ
▁200
▁종
▁ㅌ
ㅈㅣㄴ
▁외
▁..
▁용
▁D
▁ㄴㅡㄴㄷㅏ
▁김
▁아이
▁토
▁사실
▁B
▁애
▁그리고
▁%
▁~
▁체
▁직
▁ㅅㅣ
▁ㅇㅗ
▁ㅁㅏ
▁하나
▁쓰
▁잘
▁죽
▁처
▁키
▁승
ㅇㅏ
▁ㅂㅓ
▁ㄴㅣ
▁운
ㅇㅘ
▁확
▁심
▁필
▁살
▁테
▁히
▁행
▁+
▁못
▁디
▁?
▁간
▁사이
▁일본
▁팀
▁나오
▁ㅂㅏ
▁변
ㅇㅎㅐ
er
▁이름
▁12
▁모습
ㅈㅕ
▁P
▁통
▁투
▁야
▁시간
ㄴㅏㄴ
▁목
▁뒤
지만
▁집
00
▁이상
▁존
▁높
▁그러
▁베
▁ㄱㅓㄴ
▁활
▁네
스터
▁언
▁L
▁캐릭
ㄹㄹㅕ
▁양
▁맞
▁박
▁하지만
▁표
▁한국
▁문제
▁능
▁루
▁각
▁상대
▁ㄹㅕ
▁캐릭터
▁F
▁건
▁왕
▁듯
▁G
▁ㅈㅜ
▁생각
▁병
▁ㄱㅡ
▁함께
▁돌
in
▁ㅊㅓ
▁순
▁시작
ㄹㅓㅁ
ㅇㅝ
▁천
▁11
대로
▁약
▁항
▁손
▁E
▁완
▁별
▁경기
▁독
▁ㄴㅐ
ㄹㅡㄴ
▁브
▁당시
▁프로
▁능력
▁ㄱㅔㅆ
▁ㅍ
▁폭
▁블
▁효
▁식
▁근
▁가지
▁ㄸㅏ
▁ㅇㅑ
▁가장
▁따
▁K
▁만들
이트
▁복
▁막
▁잡
▁ㅎㅏ
▁ㅃ
▁음
▁시리
▁다시
▁또한
on
▁ㄱㅓㄹ
▁증
▁총
▁힘
▁먹
▁클
▁광
▁검
▁페
▁다만
▁삼
an
ㅈㅕㅆ
▁15
▁플레이
ㅂㄴㅣ
▁H
▁상황
▁결국
▁너
▁상태
▁날
▁시리즈
▁R
ㅓㄹ
▁시즌
▁많이
▁열
▁카드
ㅅㅓㄴ
미지
▁I
▁N
▁모두
▁충
▁쿠
▁악
▁백
ㄹㅣㄴ
▁세계
ㄴㅣㄴ
▁곡
▁m
▁존재
▁얼
▁물론
▁전투
▁보이
▁추가
▁급
▁금
▁모든
▁ㄷㅡㄹ
▁업
▁엔
▁ㅂㅗㄹ
▁상당
or
▁그런
▁t
라이
▁ㄷㅚㄹ
▁ㅁㅗㅅ
▁슈
▁산
ㄴㅐ
ㄲㅏ
▁끝
▁스킬
▁기술
ㄱㅕ
▁태
▁현재
▁라이
▁티
▁ㅇㅣㄹ
▁매우
▁이런
▁눈
ㅇㅗㄴ
▁올
▁자체
▁임
▁극
▁채
▁친
▁효과
▁및
▁그러나
▁#
▁무기
▁실제
▁선수
▁커
ㄹㄹㅏ
▁머
▁ㅋㅡㄴ
▁O
▁ㅅㅐ
▁레이
▁레벨
▁팬
▁절
ar
▁스타
▁민
▁이유
▁그렇
▁앞
▁길
ㅇㅣㄴㄷㅏ
▁거의
▁취
▁W
▁터
▁마법
▁이용
▁난
ㅜㄹ
ㅇㅘㅆ
▁주인
▁ㅇㅣㄴㄷㅔ
▁창
▁ㅌㅗ
▁철
ㅇㅣㄴ
▁니
▁ㄱㅣㄴ
▁황
▁16
▁관련
ㄹㅕㅆ
▁30
▁역시
▁여기
at
ㅇㅎㅏㄴ
▁얻
▁미국
▁환
▁케
ㄷㅡㄴ
▁시키
▁그래
he
▁ㄷㅡ
▁일반
▁바로
▁처음
▁18
▁첫
▁합
▁ㄷㅓ
▁해당
▁지역
▁13
ㅏㄴㄷㅏ
▁작품
▁ㅅㅡ
▁은
▁곳
▁북
▁허
▁ㅂㅣ
▁참고
거리
▁골
이지
▁워
이스
▁청
▁기본
▁탈
▁특히
▁여러
▁아무
▁누
▁199
▁필요
▁이야
▁ㅎㅐㅆㅇㅡ
▁인간
▁격
ㅊㅕ
▁100
▁다음
▁좀
▁부분
▁c
▁몬
▁이야기
부분
▁혼
▁14
▁새
▁영화
▁s
▁같이
▁대학
en
리스
▁달리
▁사건
▁ㄴㅡㄴㅈㅣ
ㅈㅣㄴㄷㅏ
▁그냥
▁법
▁ㅇㅔㄴ
ㅎㅕ
▁ㅇㅣㄴㅈㅣ
▁즉
▁ㅂㅘ
▁V
▁ㅈㅣㄴ
▁싸
▁없이
▁넘
▁기록
ㅎㅐㅆ
▁뿐
▁방송
▁대부분
▁탄
▁덕
지막
리아
▁인물
▁주인공
▁버리
▁ㄷㅡㄹㅇㅓ
▁잠
▁ㅎㅏㅁ
▁범
▁수준
▁째
▁비슷
▁글
▁귀
ㅇㅔ
ㅇㅗㄴㄷㅏ
▁못하
ㅇㅛ
▁줄
▁본인
▁자기
▁ㅌㅗㅇㅎㅐ
▁엘
▁면
▁몇
▁몸
▁ㄴㅑ
▁놓
ㄹㅗㄱ
▁17
▁제작
어지
▁25
▁방어
▁ㄷㅙ
▁마지막
▁쪽
▁k
▁ㄷㅡㄴ
al
▁U
▁싶
▁상당히
▁내용
전히
▁암
▁둘
▁걸
▁일부
▁ㅇㅡㅁ
▁와
▁어느
▁밀
▁리그
▁00
▁관계
▁시절
▁X
ㄹㄹㅓ
▁학교
▁국가
▁찾
▁대신
▁성우
▁진행
▁ㅇㅣㄴㅎㅐ
▁실제로
▁엄
▁이전
▁그대로
▁대표
ㅋㅕ
▁설정
▁헤
▁계속
▁애니
▁속도
▁지금
ou
▁담
▁준
토리
▁전쟁
es
▁팔
▁축
▁들어
▁보스
▁규
▁타이
▁ㄹㅏㄴ
▁활동
▁질
시아
▁위치
▁ㄴㅡ
▁러
▁원래
▁ㄱㅜ
▁몬스터
▁서울
▁붙
▁제외
▁2015
ㅇㅕㅆ
▁동안
▁기사
▁ㅁㅡ
▁피해
▁ㅇㅏㄹ
▁감독
▁느
▁너무
▁츠
▁맡
▁기준
it
▁낮
▁의미
▁접
▁평가
▁육
▁슬
버지
▁]
ㅇㄱ
▁언급
▁홈
▁ㅅㅏ
▁공격력
▁이미
▁중국
▁넣
▁50
▁직접
▁온
▁도시
▁빠
▁J
▁성공
▁그녀
▁문서
▁증가
▁ㅃㅏ
▁우리
▁갈
▁맨
▁묘
이션
▁다르
▁ㅂㅗㄴ
▁유저
▁벌
▁홍
▁데미지
▁과거
▁장면
ㄴㅏㅆ
▁이것
▁[
▁칼
▁머리
▁괴
▁꽤
▁쉽
▁자리
▁울
is
▁여자
▁&
▁유명
▁최대
▁정보
▁멤
▁유닛
▁돈
▁바람
▁지원
▁버전
ㄹㅣㄴㄷㅏ
▁논
가지
▁차이
▁2016
▁2014
▁ㅊㅣ
ㅡㅁ
▁ㄴㅗ
▁개요
▁멤버
re
▁봉
ㅂㅜ
▁설명
▁출연
▁개발
▁씩
le
ㅜㄴㄷㅏ
랜드
▁결과
▁ㅁㅜ
▁전체
▁체력
▁21
▁풀
▁소속
▁혹
ㄷㅡㄹ
▁측
어나
▁마음
▁님
▁방법
▁d
▁몰
▁딜
▁친구
ic
▁뉴
▁역사
▁스토리
▁영상
▁협
▁즈
▁ㅈㅝ
이드
▁선택
▁희
▁당하
▁당연
▁컨
다가
▁198
▁프리
▁ㅈㅜㄹ
▁파이
▁ㄷㅙㅆ
ㄹㅇㅏ
as
▁아버지
▁22
ㄹㄹㅣㄴ
▁그런데
ㅇㅣ
▁소리
▁ㅆㅓ
▁센
▁제대로
▁드래
▁남자
▁자주
▁조금
▁전부
▁아이템
▁이동
▁<
▁거리
▁ㅇㅏㄹㄹㅕ
▁노선
▁플레이어
▁ㅂㅏㄺ
▁최고
▁ㅈㅜㄴㄷㅏ
▁ㄹㅓ
▁ㄸㅓㄹ
▁압
▁공식
▁탑
▁w
▁주로
▁인기
▁갑
▁ㅅㅡㅂㄴㅣ
▁류
▁대전
▁여성
▁슈퍼
▁게다가
▁24
ㅜㅁ
▁보통
▁이렇
▁나라
ㅎㅏㄹ
▁2017
▁침
▁대사
▁발매
▁나이
▁40
▁ㅈㅗ
▁퍼
▁최종
▁책
▁정말
▁초반
▁2013
▁파괴
▁인터
▁ㄴㅓ
▁송
▁사랑
▁출신
▁승리
ing
▁농
▁시스
▁만큼
▁ㄴㅏㄹ
▁ㅈㅓ
▁2018
ㄹㅣㄹ
▁배우
▁버스
▁영향
▁그것
▁모드
▁씨
ㅔㄴ
▁마찬
▁마찬가지
▁대상
▁기타
▁쇼
▁ㄷㅡㅅ
▁나가
▁방식
▁ㅇㅗㄹㄹㅏ
▁ㅅㅐㅇㄱ
▁모르
▁성능
▁연구
▁작중
▁동시
▁비교
▁듣
▁아예
▁색
▁성격
▁사망
이도
▁항목
▁시대
▁이때
▁답
운드
ㅎㅏㄴㄷㅏ
▁ㄸㅓㄹㅇㅓ
▁후반
▁오히
▁정신
ㅇㅓㅆ
ㄱㅏㅆ
▁오히려
▁샤
▁뜻
▁우승
▁서로
ㄹㅡㄴㄷㅏ
▁일단
▁아직
▁궁
▁형태
▁볼
▁a
▁강력
▁b
▁왜
▁ㅆㅡㄹ
▁f
ㅁㅕㄴㅅㅓ
▁유지
▁차량
ㄱㅏㄴ
▁마이
▁23
▁심지
▁앨
▁역할
▁드라
▁밖
프트
▁부르
▁수록
▁스테
▁발생
ㅈㅏ
▁심지어
학교
▁ㅇㅕㅆㅇㅡ
▁학생
▁ㅇㅗㄴ
▁특성
▁멀
▁애니메
▁콘
▁속성
▁ㅁㅏㄴㄷㅡㄴ
▁포함
▁링
▁이러
▁마리
▁소환
머니
▁모양
ㅊㅣㄴ
▁만화
ㅣㅁ
▁술
▁노래
▁운영
▁ㄷㅗㄹㅇㅏ
▁월드
▁2012
▁원작
▁특수
om
▁기존
벤트
▁망
우스
▁잔
▁들어가
▁어떤
▁중요
▁갖
ㄱㅓㄹ
▁h
▁o
▁찍
▁자세
▁변경
ㅐㄴ
▁사회
▁ㅈㅕㅆ
아가
▁최초
▁르
▁빌
▁애니메이션
▁좌
▁액
▁유일
▁착
▁층
▁석
ㅁㅊ
▁음악
▁결정
▁폐
▁억
▁흑
▁이렇게
▁ㅅㅏㄹ
el
▁덕분
▁과정
▁그래서
▁섬
▁이벤트
▁거기
▁회복
리어
▁ㄷㅏㅇㅎㅐ
▁풍
▁떨
▁시스템
▁마을
▁우주
▁모델
ㅁㅏ
▁먼
▁ㅆㅡ
버스
am
▁강화
▁장비
▁행동
▁주장
▁까
▁부대
▁p
ion
▁ㅉ
▁솔
▁바뀌
▁ㅁㅗㅅㅎㅐㅆ
▁참조
▁독일
▁싱
ㄹㅐ
▁국내
▁여담
▁ㅁㅣ
레이드
▁부족
▁ㅊㅏ
ㄹㄹㅕㅆ
▁ㄴㅜ
▁대한
▁영어
▁명칭
▁난이도
▁라인
▁ㅆㅏ
▁완전히
▁2019
▁던
▁ㅋㅓ
소드
▁프랑
▁지구
▁구성
▁작가
▁휴
▁바이
나마
▁드래곤
▁스트
▁확률
ㅇㅜㄹ
▁훈
▁굉
민국
▁따르
▁아래
▁전혀
ㅈㅣㄹ
▁깨
▁발동
주의
▁사진
▁입장
▁활약
▁에피
ㄹㅡㄹ
▁n
▁the
▁오브
▁ㅅㅔ
▁ㅇㅘㅆ
▁특징
▁현대
▁ㄸㅓ
▁혹은
▁26
▁그나마
▁가격
▁아들
▁정치
▁2010
▁지나
▁주변
ㅊㅏ
▁대회
▁콜
▁영국
▁다이
▁얼굴
▁ㅇㅣㅁ
▁굉장
▁하이
▁에피소드
▁28
ac
▁어떻
▁먼저
▁자동
▁메이
ol
ㄱㅏㄴㄷㅏ
▁차지
ㅈㅊ
▁TV
▁할
▁영웅
▁드라마
▁27
▁힘들
▁제국
ㅇㅣㄹ
없이
ㅂㅗ
ㄲㅇㅔ
▁ㅂㅏㄲㅇㅔ
▁정확
▁하루
▁히로
▁묘사
▁대한민국
▁확인
▁시점
▁ㄴㅓㅁ
▁공개
▁회사
▁마스터
▁반대
▁뛰
▁윤
▁2011
▁얼마
▁ㅆㅡㄴ
▁짓
▁뭐
▁응
▁시기
디오
▁표현
▁초기
▁담당
ㅌㅏ
▁맵
▁기능
인트
ㄱㅏㄹ
▁빛
▁연기
▁000
▁ㄲㅡ
▁아마
▁빼
레스
▁동일
▁실력
▁폴
▁관리
인물
▁계획
▁생산
▁놀
▁=
▁딱
et
▁ㅈㅜㄴ
▁맥
▁자유
ㅓㅇ
▁듀
▁판매
▁실패
▁싸우
▁정부
▁야구
▁엔딩
▁웨
ㅇㅗㄹ
▁ㄴㅏㄴ
▁건물
ㅁㅡ
▁등장인물
▁그렇게
▁순간
▁사고
▁헬
▁녹
▁개인
▁기관
il
▁컴
ig
ㅇㅝㅆ
▁뮤
ed
▁그림
▁이미지
▁Y
▁적용
ㅆㅓ
▁교육
▁이제
▁인정
▁당연히
▁스페
▁앨범
▁고등
▁세대
▁경찰
▁떠
▁반응
▁조건
ow
▁km
▁세이
▁60
▁엑
▁파워
▁챔
▁벨
▁늘
▁죽이
▁맛
▁기억
▁따라
▁ㅈㅜㄱ
▁패치
▁문화
us
▁기간
▁퀘
소리
BS
▁진짜
▁표기
▁발견
▁끼
▁족
▁견
▁방면
▁불리
▁생활
▁디자
▁확실
▁of
▁오리
ㅌㅔ
▁굉장히
▁패턴
▁취급
ㅕㄴ
▁퇴
▁도움
▁프랑스
▁타입
▁땅
ㄴㅏㄴㄷㅏ
로스
▁ㅇㅓㅁㅊ
▁ㅇㅓㅁㅊㅓㅇ
▁29
▁출시
▁현실
▁뽑
▁무시
▁처리
▁아주
▁소개
ㄹㄹㅣㄴㄷㅏ
▁향
▁무장
▁패배
▁습
▁딸
▁ㄷㅏㅇㅎㅏㄴ
▁ㅎㅏㄴㅌㅔ
너지
▁칸
▁또는
ㄱㅣㄴ
▁킹
▁대체
▁헌
▁건담
▁Z
▁데이
▁폭발
▁ㅇㅓㅁㅊㅓㅇㄴㅏㄴ
▁중간
▁익
▁소설
▁잃
▁프로그
▁흔
▁단순
▁197
▁어디
▁그래도
▁홀
▁구간
▁ㄹㅜ
▁결혼
▁지속
▁빨
▁ㅂㅓㄹ
▁한정
▁훨
▁다니
▁단계
▁계열
ㄱㅓㄴ
▁ㅁㅔ
▁가족
▁대학교
▁35
▁콤
▁싸움
스크
▁주의
▁흡
▁31
▁발사
▁랭
▁사실상
▁약간
▁어렵
▁방향
▁v
▁조선
▁The
▁움
▁ㄱㅏㄹ
▁어머니
▁이번
▁구조
▁훨씬
▁어떻게
▁아르
ㅎㅣㄴ
▁빈
▁상승
▁경험
▁만나
▁중심
ad
▁세트
▁ㅂㅏㄺㅎㅕ
▁위험
▁아군
▁끌
▁겨
▁블랙
▁덱
▁동료
▁운동
▁특별
▁죄
▁활용
▁상위
▁더욱
▁분위
▁2000
▁믿
▁린
▁운행
▁범위
▁포켓
▁r
▁요구
▁떨어지
ㅎㅕㅆ
▁80
▁쿨
이크
▁분위기
▁쌍
▁똑
▁디자인
▁빠르
▁핵
▁낙
ㅋㅕㅆ
ㅝㄴ
▁감소
니아
▁수비
▁ㄹㅏㅇ
▁탓
▁불구
▁St
▁읽
▁소모
▁혼자
▁탐
▁ㅁㅓ
ER
▁시장
▁ㅈㅝㅆ
▁중앙
▁유리
▁목적
▁옆
▁지하
▁욕
▁여전히
▁숙
ㄱㅓ
▁그룹
비스
ㄴㅐㅆ
▁이루
▁졸
▁트리
▁37
▁ㄲㅡㅌ
▁밤
▁500
id
▁나중
▁다양
ot
▁염
▁론
and
▁진출
▁율
▁항공
▁켄
▁브라
ay
▁ㄸㅟ
머지
▁나머지
▁ㄱㅏㅆ
▁전용
▁ㄱㅏㅇㅎㅏㄴ
▁방영
▁얘
ㅋㅣㄴ
▁싫
▁푸
▁기체
▁설치
▁ㅁㅗㅅㅎㅏㄴ
▁ㅂㅜㄹㄹㅓ
스로
▁세력
▁ㅇㅣㄹㅇㅓ
▁프로그램
▁전차
▁부산
▁축구
ve
▁포인트
▁갤
리카
ch
▁잘못
▁번역
▁고려
▁미사
▁러시아
▁선발
▁괜
▁느낌
▁종족
▁ㅅㅓㄴ
▁포켓몬
▁90
▁미션
▁시청
▁퀘스트
ㅊㅕㅆ
▁성장
un
▁흥
▁스테이지
▁각각
▁꿈
▁대미지
▁스피
티브
▁주요
▁짜
20
▁계약
▁시도
ㅈㅓ
▁올라
▁크리스
▁득
▁mm
▁획
▁참여
▁l
▁ㅊㅕ
▁비판
▁성적
▁고등학교
dd
▁로봇
▁타카
▁엄청
▁올리
▁턴
ㄱㅕㅆ
▁투수
▁데뷔
ㅋㅡㅁ
▁전문
▁거대
▁과학
▁유니
▁절대
▁휘
ㅈㅜㄴㄷㅏ
▁부활
▁녀
▁ㅅㅗ
▁70
▁애초
▁척
▁셈
▁훈련
▁렌
▁배틀
▁만드
▁지방
▁ㅈㅕ
▁준비
▁충격
▁해결
▁논란
▁챔피
▁나무
▁이해
▁가끔
▁g
▁ㅌㅓ
▁ㅁㅏㄴㅋㅡㅁ
▁쉬
▁생명
▁배경
▁비행
▁스스로
▁경제
▁일행
▁소녀
▁전설
▁짧
▁철도
▁요소
▁전작
ro
▁웃
▁엔진
▁삭
▁야마
▁조직
▁량
▁부상
▁률
▁오래
▁똑같
통령
▁규모
▁강하
▁2009
▁정상
▁발표
▁큐
▁자랑
▁도중
▁삼성
▁일정
▁01
▁학년
▁의견
▁징
▁스파
▁벽
▁충분
▁변화
▁무리
▁밴
▁죽음
▁스카
▁팩
▁직업
▁사이트
▁혈
▁최근
▁45
▁...
▁스타일
▁ㄷㅜ
▁ㄷㅏㅇㅎㅐㅆ
▁빅
▁ㅅㅟ
▁정체
▁기동
▁유럽
▁옥
▁나타
▁작전
▁예정
▁종류
▁물리
ㄴㅏㄹ
▁이쪽
▁ㅎㅏㄴㄷㅔ
▁공중
▁보호
▁기대
▁랜
▁ㅂㅘㅆ
▁대통령
▁300
▁쓰이
▁제목
▁목소리
▁록
▁ㅎㅐㅆㅇㅓㅆ
▁조합
▁연속
▁품
▁근접
▁정작
스타
▁전사
▁버프
▁ㅎㅏㅂㄴㅣ
▁십
▁ㅌㅏ
▁별로
▁력
ir
▁ㄷㅡㅅㅇㅣ
▁장착
▁ㅂㅜㅌ
▁신경
▁지도
▁요리
▁연출
▁빙
ㅈㅇㅏ
▁아키
▁32
▁세상
ㅋㅣㄹ
▁추정
▁나름
▁ㄴㅔ
▁반면
▁ㅋㅣ
▁자연
▁굴
▁꾸
▁악마
▁캠
▁소재
▁카이
▁굳
▁냉
▁ㅈㅔ
▁번호
ter
▁란
▁라운드
▁숨
▁전기
▁수도
▁타격
ㄱㅎㅏㄴ
▁대화
▁남성
▁등급
▁국제
▁틀
▁196
▁탱
▁제공
▁참가
▁획득
▁다크
▁뒷
▁방어력
▁ㅌㅐ
▁연합
▁링크
리오
▁동물
▁판정
▁멸
ㅅㅣ
▁ㅁㅏㅈㅊ
ㅡㄹㅇㅓ
im
▁따로
▁후보
▁수정
▁)
▁비롯
▁정식
▁아이돌
▁의외
▁롯
▁당신
▁레어
▁교통
▁각종
▁48
▁극장
▁배치
▁연결
디어
▁ㅊㅏㅈㅇㅏ
▁곧
▁던전
▁케이
▁만약
자기
▁꼬
▁관심
▁위기
▁안정
▁개념
ㅇㄱㅕ
▁수상
▁센터
▁항상
▁사업
라지
▁특정
▁사례
▁시험
▁덤
▁레인
▁2008
▁내부
지션
▁에너지
러스
▁이외
▁분노
▁황제
▁변신
▁북한
▁민주
BC
ub
▁단점
▁파일
▁옵
▁단어
▁맹
▁종료
▁롤
▁필드
▁사격
▁cm
▁지휘
▁ㅇㅣㅂㄴㅣ
나라
ag
ㅋㅣㄴㄷㅏ
▁제일
▁나이트
▁36
▁무엇
▁힐
▁누구
▁크리
▁얘기
▁루트
▁칭
▁조사
▁발전
▁움직
▁공연
▁따라서
▁장갑
▁y
ㄹㄹㅣㄹ
▁다리
▁쯤
▁ㄴㅏㅁ
▁더불
▁지상
▁물건
▁스포
▁미래
너스
▁33
▁사정
▁인터뷰
▁챔피언
▁한편
동안
▁런
▁클래
▁서비스
▁괜찮
▁놈
▁ㅎㅣㅁ
▁ㄹㅣ
▁각성
▁엘리
▁사냥
▁선거
▁기계
▁x
▁외국
▁*
▁ㄷㅔ
라인
ㄴㅑ
데이트
▁Lv
ㄴㅐㄴ
▁업데이트
▁군사
▁보내
▁기업
▁그만
▁아카
▁파티
▁최소
▁특이
▁옷
▁ㅃㅜㄴ
▁점수
▁별명
이치
▁텐
믹스
▁e
▁이탈
ㄹㅏㄴ
▁ㄱㅗㄴ
▁인구
▁사항
▁인식
▁코스
▁완전
ur
▁시티
▁시설
▁05
od
아오
▁해군
▁시전
야마
▁국민
▁일러
▁도로
▁세기
▁안타
▁고속
▁화력
어로
os
▁히트
▁로드
▁조종
▁하늘
▁납
▁넓
▁제한
▁위력
▁02
▁오르
▁달성
ㄷㅓㄴ
▁닌
▁프레
▁돌아가
▁제품
▁생기
▁최강
▁가수
▁직전
▁th
▁개그
▁ㅈㅓㄴ
▁SK
▁생존
▁상관
▁비밀
▁마나
▁03
▁오프
ST
▁죠
▁그야
▁점프
▁삭제
▁순위
▁',
▁쏘
▁교체
▁일러스트
▁히어로
▁싱글
▁끊
▁감정
▁위원
▁홈런
▁옛
▁EX
▁사기
▁벤
▁보유
▁장소
▁전국
말로
▁역대
▁녀석
▁학원
▁목록
ㅕㄹ
▁본래
▁목표
▁몽
▁그야말로
▁요시
▁ㅊㅐ
▁왼
▁부모
▁압도
▁군대
▁분류
▁명령
▁뇌
▁ㅋㅡㄹ
▁출전
▁가드
▁ㄴㅓㅁㅇㅓ
▁주제
▁지키
▁깊
▁2007
▁펜
▁독립
▁붕
모토
▁묻
▁닥
▁픽
▁흐
▁ㅇㅡㄴㄷㅔ
▁마사
▁잉
▁ㅅㅣㅁ
▁꽃
▁포지션
um
▁스럽
▁무슨
▁예전
▁언제
▁연재
어들
▁갑자기
▁공간
라스
▁위키
▁진화
igh
ㅏㄹㄹㅏ
▁사거리
▁34
▁데스
▁워낙
▁어둠
▁아스
ff
▁마치
▁표시
▁라이트
▁ㄴㅐㄴ
▁HP
▁작곡
▁ㅇㅣㄴㄱㅏ
▁탈출
▁전개
▁폰
ut
ent
▁작업
▁병원
▁떡
▁중반
▁고양
▁ㅇㅛ
▁구하
50
▁크기
▁병력
▁예상
▁09
▁이기
ㅐㄹ
▁가문
▁레드
▁04
▁소련
▁ㅁㅓㄴ
▁컬
▁수치
▁ㅇㅜ
▁포기
▁톤
▁의식
▁원인
▁건설
시마
ak
▁노트
▁보상
▁현상
트라
▁병사
▁곤
▁밑
▁살인
▁겪
▁멘
ver
AR
▁노력
▁ㅊㅣㄴ
▁ㅅㅐㅇㄱㅕㅆ
ㅝㅆ
▁07
▁무대
ㄱㅣㄹ
▁08
▁포스
ㅂㅓ
▁행위
▁장점
▁전력
▁졸업
▁강제
▁클리어
▁윈
▁06
▁카운
▁미사일
아내
▁웹
다니
학생
▁도쿄
▁찬
▁오른
▁전자
ec
ㄱㅎㅕ
▁동생
▁무려
▁효율
▁아파
▁부정
▁롯데
▁비중
젝트
▁ㄱㅏㄴ
▁일어나
▁경쟁
▁ㅁㅗㄹㄹㅏ
▁194
▁임무
▁차원
▁확정
▁Q
▁인천
▁크로
ㄹㅡㅁ
▁고정
▁도입
▁쥬
▁발음
▁새로
▁ㅍㅜ
▁티어
▁파트
▁칠
▁이어
▁짐
▁이하
▁ㅍㅣ
▁ㅁㅝㄴ
▁2006
무라
▁해외
▁전반
▁가면
▁필살
▁화면
▁노리
▁부하
▁근처
▁주문
AN
▁인터넷
▁완성
▁잠시
▁음식
▁넘어
▁촬
▁오리지
▁아프
▁집중
▁신체
▁바꾸
▁무한
▁보병
▁꼭
▁공주
▁래
▁셋
▁평균
▁하드
▁밀리
▁결승
▁인사
▁ㄱㅘㄴ
▁인도
▁정확히
▁38
▁라이브
▁마법사
▁롭
▁한글
▁아무리
▁가사
▁분명
▁평범
▁션
▁ㅅㅐㅇㄱㅣㄴ
▁타임
▁드러
▁근데
▁밸
▁>
▁여행
▁유사
▁겸
▁행정
▁판단
▁환경
▁굳이
▁주민
▁kg
▁수행
▁ㄱㅓㄹㄹㅗ
르트
▁밝
루스
▁종종
▁종교
▁촬영
이어
ㄹㅓㄴ
▁캡
▁꾼
페이지
▁재미
▁몇몇
▁느끼
란드
▁폭탄
▁의하
▁비용
▁기반
▁발언
▁완벽
▁반드
트리
▁붉
▁대장
▁홈페이지
▁반드시
▁단체
▁선생
▁랭크
▁로마
▁광고
▁패러
▁ㄱㅏㄴㄷㅏ
▁ㅇㅣㄹㅇㅡ
▁제거
▁실험
▁플래
▁다수
조건
▁다루
▁봉인
▁지지
▁직후
래프트
▁성향
▁심각
▁아내
▁공포
▁운용
▁페이
▁ㅈㅣㄴㄷㅏ
▁밴드
▁버그
▁옵션
▁미니
▁in
▁오버
▁FC
▁LG
▁치료
▁나타나
▁킬
▁자원
▁점점
▁아파트
▁잭
▁대구
▁ㅇㅗㄹㄹㅕ
▁ㅈㅣㄹ
▁조작
▁암살
▁전략
다리
▁무조건
▁베이
▁걸리
러리
▁코드
▁도전
▁털
▁함정
▁단지
▁디스
▁구분
▁컵
▁특유
▁샷
▁다소
▁대중
▁대결
▁본격
▁통합
로그
▁한계
▁가깝
▁개조
▁골드
그레이드
▁기회
▁업그레이드
▁엄청나
▁소년
▁다행
▁왕국
▁맞추
▁연장
▁ㅋㅔ
▁월드컵
▁접근
▁바다
▁ㅂㅕㄴ
▁사쿠
▁저항
▁you
▁외모
▁밥
em
▁금지
▁뜨
▁시나
▁추측
운데
▁끝나
▁의사
▁군단
스케
▁빵
▁쿄
▁수많
▁최후
▁오늘
▁템
▁오리지널
▁정리
▁앙
▁확장
ON
▁살아
▁복수
▁열차
▁지배
▁범죄
▁복귀
▁장치
▁이끌
▁타이틀
▁치명
▁다운
▁ㅆㅡㄴㄷㅏ
▁일본어
무리
▁MA
▁구매
▁디지
▁스코
▁소유
라이더
▁2005
▁ㄴㅡㄴㄱㅏ
ㄸㅡ
▁ㅎㅑ
▁언어
▁쓸
▁멜
▁형제
▁부여
ㅃㅡㄴ
▁교수
▁광역
▁가리
▁젊
▁비하
▁브레이
▁ㅂㅓㄹㅇㅓ
▁고대
▁ㅈㅏㅂ
▁웬
▁대기
ight
▁득점
▁vs
▁to
▁낫
▁부탁
요일
ation
▁상징
▁우선
▁55
ㅅㅜ
▁삼국
▁ㅍㅓ
ㅇㅎㅏㄹ
▁평소
ㅏㄹㄹㅕ
▁투입
▁터미
▁ㄷㅏㄹㄹㅏ
▁올라가
▁불가
▁75
▁인상
▁II
▁가운데
▁99
▁사령
▁스포츠
▁대단
▁장르
▁달러
▁간단
▁형식
▁추천
▁바라
▁깔
▁영혼
▁유우
▁혁
▁2004
▁뻔
▁에이
▁ㅌㅏㄴ
▁해석
▁이곳
▁앤
▁ㅈㅛ
▁ㅇㅣㄴㅎㅏㄴ
▁흉
▁늦
퓨터
▁빨리
▁숫
▁정의
ce
▁ㄱㅏㅇㅎㅐ
▁가치
▁대형
▁대로
▁자동차
▁기념
▁Ch
▁ㅎㅣㅁㄷㅡㄴ
▁희생
▁이닝
▁걱
IN
▁잇
▁충분히
리트
▁사무
▁리더
▁걱정
▁주력
▁생물
▁벗
▁ㅂㅐ
▁일종
▁ㅁㅏㅈㅊㅝ
▁ㅁㅝㄴㄱㅏ
▁카오
▁즐
▁얼마나
▁사상
▁탈락
▁와중
▁카즈
ap
▁도망
뜨리
▁마크
▁이탈리아
▁스크
▁극장판
▁KBS
비아
▁불명
런스
▁42
▁마력
▁컴퓨터
▁행성
▁마무리
▁사태
▁도착
▁인류
▁ㄴㅏㄹㄹㅕ
▁이치
▁폼
▁네이
000
▁마르
▁필살기
▁전화
▁재료
▁공화
▁책임
▁찌
▁39
▁1000
▁통신
▁PC
▁택
▁지정
▁육군
▁MBC
▁회피
▁이르
▁서버
▁무사
▁닉
ㄹㅓㄹ
▁기지
▁그저
▁ㅆㅓㅆ
▁프로젝트
ul
▁셀
▁전통
ㄲㅟ
▁엠
▁공략
▁액션
▁거부
일러
▁2002
▁가정
▁행사
▁들어오
▁로스
▁서술
▁올림
▁구단
▁비트
▁한국어
▁시민
▁단순히
▁자료
ㄷㅡ
▁대비
니티
▁41
▁보너스
▁_
▁목숨
▁ㄴㅐㅆ
▁보조
▁넥
ㅇㅡㄹ
▁더블
ㄴㅐㄹ
▁살아남
▁닮
▁의도
▁드립
ㄷㅇㅏ
동생
▁집단
▁데이터
▁불과
▁박사
▁아웃
▁전원
▁장난
▁움직이
▁합류
▁구역
▁덩
▁의지
▁빠지
▁제로
레이션
▁괴물
▁사라지
▁심하
ㄲㅕ
▁전술
▁료
▁검사
▁컨셉
▁카메
▁라디오
▁딱히
▁흡수
▁ㄱㅣㄹ
▁내려
▁실수
▁ㅁㅏㄴㄷㅡㄹ
▁빔
▁내리
▁ㅉㅣ
▁연주
▁윌
ri
▁제도
▁ㅁㅗㅅㅎㅏㄴㄷㅏ
▁튀
ㄴㅣㄹ
▁숫자
▁적절
▁장군
▁클럽
▁후속
ㄹㅜ
▁화염
▁오토
▁상대방
▁모리
▁유키
▁조정
▁고양이
▁44
▁눈물
▁ㅅㅜㅁ
▁정규
▁함대
▁마츠
▁대응
▁텔
▁타자
▁위협
▁ㄴㅡㄹㅇㅓ
▁모티브
▁수리
▁장기
▁연습
▁드라이
▁듀얼
▁독자
ㅂㅊㅕ
ㄹㅣ
▁시내
▁ㅇㅏㅍ
크래프트
▁감안
▁케이스
▁저격
자리
▁릴
▁ㄷㅏㄹㄹㅕ
▁날개
▁보컬
▁약점
▁덜
▁테마
▁격투
▁꼴
▁반복
▁터미널
▁쌓
▁몹
니스
▁43
ㅈㅜㄴ
모리
ㄴㅐㄴㄷㅏ
▁넘어가
▁에이스
나이
RA
▁맺
▁테크
▁개월
nd
▁꾸준
▁닥터
▁상세
▁대놓
▁분리
▁어찌
▁설계
▁공항
▁이적
▁시나리오
▁종합
▁회전
▁BG
▁나쁘
▁보다
▁확실히
▁오랜
▁공동
▁ㄴㅏㅆ
타임
▁서브
▁이사
▁2003
▁코어
all
ㅊㅣㄹ
▁에어
▁댄
▁값
▁ㄲㅓ
▁숲
▁패러디
▁투표
▁미리
▁성인
▁페르
ㅉㅐ
AL
▁필수
▁세계관
▁ST
ia
▁유도
▁체제
▁지명
▁ㅁㅗㅅㅎㅐ
▁51
▁기어
▁클래스
▁컷
▁병기
▁요청
▁스탠
▁메탈
ack
st
▁계기
▁인지
▁훌
▁소식
▁그때
▁정책
▁지옥
▁착용
tt
로드
▁펀
▁피하
▁ㅇㅡㄹㅈㅣ
로우
▁광주
▁오오
▁띄
uby
연히
▁펼
▁채널
▁전환
▁스페인
▁150
▁지적
시스
▁바르
▁당장
▁195
▁초등
▁미스
▁ㄸㅐ
ㅎㅣㄴㄷㅏ
▁인원
▁ㅂㅏㄺㅎㅕㅆ
▁스마
▁파이터
▁던지
▁아머
▁높이
oc
▁뉴스
ㅡㄹㄹㅕ
▁47
▁촉
▁소울
▁편성
ㅅㅣㄴ
▁바닥
▁긴
▁산업
▁온라인
▁방패
▁선언
▁승부
▁앉
▁SP
▁저지
▁가슴
▁관통
▁베이스
▁중학교
▁ㄲㅐ
ㄱㅜㄴ
▁ruby
▁회장
▁궤
▁쥐
▁방해
▁나카
▁VS
▁배신
▁한자
▁모험
▁보급
▁크로스
▁등등
▁공사
▁무력
▁PS
▁원거리
▁소비
▁차례
▁핑
▁46
art
▁리어
▁ㄱㅘㄴㅎㅏㄴ
래도
▁은퇴
▁아무래도
▁등록
▁울트라
▁에스
▁올림픽
▁가면라이더
▁습격
▁그리스
▁관광
▁안습
▁언론
▁st
▁64
▁원정
▁특기
▁셰
▁상처
▁마시
▁잠깐
▁떠나
▁연계
ra
▁흔히
▁카페
▁저주
▁안전
▁판타
▁적극
▁혐
PC
▁통과
ㄱㅔㄴ
▁인형
▁버튼
▁토스
▁ㅃㅐ
▁실시
▁공부
▁마왕
▁ㅇㅗㄻ
▁여름
▁후반부
▁무게
▁구축
▁가스
▁i
▁지니
▁MP
▁승강
▁동맹
▁멸망
▁의심
▁유래
▁위주
▁ㄴㅏㄴㄷㅏ
▁아사
▁선정
▁미군
▁명중
▁혜
ㄷㅏㄴ
▁국회
▁블루
▁or
▁마침
유키
▁카운터
▁핸
▁and
▁No
▁실점
▁거짓
▁게이
▁오프닝
▁ㄷㅏㄴ
▁초대
▁교회
라리
▁공군
▁역전
▁겨우
▁코치
▁뱀
▁가르
ㄹㅝ
▁이어지
▁In
▁퓨
▁스펙
▁진입
AT
▁엄마
▁개선
▁게시
▁레이저
▁락
▁정당
하라
ㄴㅓ
시브
▁엉
레인
▁ㅎㅟ
▁코스트
▁밸런스
ㅡㄹㄹㅓ
르크
▁체인
op
▁태도
▁사장
ㄲㅝ
▁수호
▁민족
▁미나
▁안드
▁영입
ㅊㅣㄴㄷㅏ
ㅇㅜ
▁최악
▁투자
▁리스
▁ㅈㅓㄴㅎㅐ
▁왼쪽
▁그레이
▁ㅇㅜㅁ
▁날리
▁태양
▁코믹스
▁373
▁계급
▁뚫
▁코너
▁ㅅㅗㄱ
▁후지
ie
▁질문
▁400
▁시체
▁표정
▁설립
▁가까
▁미야
▁희망
▁고통
▁멀티
▁은근
▁텍
▁모션
est
▁dd
▁스위
▁삽
▁벌이
▁수단
▁하트
▁탑재
▁솔로
▁뿌
▁황금
▁분야
▁따지
▁ㅍㅕㄹ
▁룰
▁하위
▁ㅅㅣㄴ
ㄷㅜ
▁킥
트롤
▁스피드
▁대원
▁2001
▁CD
▁사단
OR
▁비디오
▁남편
▁ㄷㅚㅁ
무원
▁소드
IA
▁매일
▁군인
▁방문
▁막장
▁펼치
▁프라
▁미치
▁경력
▁셔
▁제압
▁의문
▁끼리
▁대놓고
▁ㅋㅜ
▁진영
ill
▁콩
ㅇㅎㅐㅆ
▁용병
다수
▁애매
머리
▁견제
▁주연
▁확보
▁행적
▁기자
▁조각
▁193
▁기점
▁튜
▁수원
▁엑스
▁쓰러
▁대답
▁비난
▁중단
▁아라
▁본선
▁차별
OS
▁자식
▁구입
▁개봉
▁ㅈㅡㄹ
▁ㄱㅕ
▁청소
▁오스
dddd
▁dddddd
▁고급
▁지식
▁사카
▁자살
▁탯
▁온갖
세이
▁노동
▁갓
▁해제
아다니
▁돌파
▁사과
▁롱
▁유용
▁52
▁거두
▁1990
▁ㅇㅗㄹ
ik
아하
▁패스
▁라이벌
▁어린
▁브랜드
▁살해
▁로켓
▁ㅂㅜㅌㅇㅕ
▁메가
▁기획
▁아시아
▁트랙
▁Re
▁개편
PS
▁장전
▁닌자
▁융
ate
▁선물
▁%,
▁공통
▁그라
▁예선
▁진실
▁조준
▁렉
▁단위
▁편집
▁체계
▁컨트롤
▁스파이
▁은행
드리
▁ㄱㅓㄹㄹㅕ
▁자이
워드
▁멀리
▁장애
터리
다지
▁어차
▁이스
▁아야
▁미드
▁ㅎㅔ
▁시청자
▁전장
▁발휘
▁65
▁어차피
아들
▁좋아하
▁모자
▁붕괴
▁용도
즈키
▁신화
▁경계
▁계산
th
▁Sh
▁랩
ㅇㅣㄴㅈㅣ
가와
▁오른쪽
▁룡
사카
▁부담
▁인생
▁경유
IC
▁연예
▁납치
▁떼
▁쫓
▁이거
▁순수
▁스트라이
▁행복
▁외부
▁ㅅㅡㄹ
▁대다수
▁평화
▁창작
▁실질
▁ㅂㅔ
▁의원
아보
▁펠
▁횟
▁궁극
▁떡밥
▁가이
▁소프트
▁현장
▁우수
ttp
▁정령
▁도서
▁갱
▁http
▁56
▁여왕
▁귀족
▁젤
▁ㄴㅐㄹ
▁최대한
▁스케
▁돌아오
▁그다지
▁카나
▁점령
▁ㄴㅏㄹㅇㅏ
▁게이지
▁끝내
▁포르
▁ㅇㅡㄹㄲㅏ
▁탄생
▁측면
▁영역
▁작성
▁주목
▁헤드
▁탑승
▁커뮤
ㅇㅜㄴㄷㅏ
바이
▁갤러리
ㅈㅣㄱ
▁니시
ED
▁체육
▁규정
▁진정
카와
▁승강장
ㅉㅓㄹ
리티
▁여부
▁ㅇㅑㄱㅎㅏㄴ
▁터지
▁제안
▁바탕
▁순서
ㅂㅗㄹ
▁러브
로이드
▁경향
▁ㅁㅗㄴ
▁꾸준히
▁생성
ㄱㅣ
가락
▁정류
▁얼음
▁Sp
▁업체
▁ㄷㅜㄴ
▁도구
▁상자
▁넷
▁요원
▁박스
어리
▁살짝
▁카메라
▁판타지
▁개최
▁완료
▁릭
▁오해
▁유희
▁나누
▁54
▁120
▁운전
▁공화국
▁횟수
▁2020
▁트위
▁타이밍
▁부인
▁돌격
▁ㄱㅜㄴ
▁쿨타임
▁ㄷㅏㅇㅎㅏㄴㄷㅏ
마스
AS
▁동네
▁테러
▁이성
▁고유
▁저런
▁49
▁훌륭
▁ㅂㅏㄷㅇㅏ
▁낳
▁선배
▁뮤직
▁짜리
▁마녀
▁제시
▁랍
▁정말로
▁지하철
▁53
▁장수
▁통일
▁ㅅㅜㅁㄱㅕ
▁반영
▁블레이드
▁전대
▁레전
▁비고
ㄹㅓㄴㅈㅣ
▁디아
▁ㅆㅗ
▁뱅
▁ㄲㅗ
▁보정
▁생일
▁약속
▁문명
▁SBS
▁빌리
▁삶
▁습득
ess
ab
▁You
ㅎㅏ
▁갑옷
EN
▁회의
▁기분
▁퀄
▁한화
▁파이어
▁커버
▁문자
▁알리
▁동방
▁일부러
▁왕자
▁교사
▁누르
▁줄어들
▁편의
▁ㅌㅟ
▁집안
▁자격
▁공원
▁미츠
▁페이지
ㄱㅣㄴㄷㅏ
▁아오
▁수요
▁신세
▁짝
▁폭풍
▁공장
▁ㄹㅔ
▁좁
심히
▁군주
▁윙
▁ㅂㅗㄴㄷㅏ
스티
▁지내
▁Bl
▁85
▁스프
▁대우
▁라스
▁허용
▁ㄱㅐㄹ
▁마도
▁예술
▁캔
▁플라
으키
▁응원
피스
▁지점
▁베르
▁업무
▁유비
▁천사
▁빼앗
▁키리
▁상품
▁토모
▁여신
▁알렉
▁마인
▁한때
▁비록
▁노멀
▁대공
▁데리
▁멋
▁홍보
튜브
▁ㄱㅓㄴㅈㅣ
▁유튜브
▁출발
▁ㅂㅓㅅ
▁이론
▁공기
▁ㅅㅐㅇㄱㅕ
▁적당
▁커맨
▁틈
▁내놓
ct
▁파일럿
▁ㄲㅡㅌㄴㅏㄴ
▁직원
ㅍㅣ
아먹
▁스페셜
▁약하
▁ㅇㅜㅁㅈㅣㄱ
▁단독
▁소수
▁비율
▁보수
▁기기
eat
▁재생
▁후쿠
▁레오
▁그래픽
ard
▁협력
▁써
▁꺼
▁충돌
▁거주
▁보도
▁춤
▁설득
텐츠
▁ㅍㅏ
▁거절
▁겨울
▁ㅁㅏㅈ
▁혼란
▁환승
티컬
▁회수
▁미소
▁여동생
이터
▁대륙
▁문제점
▁댓
▁무적
▁파악
▁57
▁트레이
▁전함
▁그만큼
up
▁근무
▁출처
▁짱
▁수사
▁이슬
▁AT
ㄱㅎㅣㄴ
▁트위터
▁취소
▁잊
▁66
▁변하
▁쓰레
▁영원
▁충전
▁눈치
▁격파
▁MS
▁봄
▁ㅇㅕㄹㄹㅣㄴ
▁용어
▁팝
▁메이저
ㄴㅕㅆ
▁패시브
▁DJ
▁본명
ㄹㅗㄴ
▁ㄷㅡㄴㅈㅣ
▁사이즈
▁가입
▁반란
▁랜덤
LC
▁1999
트로
▁NPC
▁AC
▁실행
▁건강
ㄹㅐㅆ
▁전형
▁커뮤니티
▁운명
ine
▁사쿠라
▁나루
▁사운드
▁동아
▁언니
▁핵심
ㅇㅜㅁ
▁오류
▁사토
▁분석
EC
▁가까이
▁수입
▁장교
ant
니어
ist
▁수학
▁별개
▁연상
아버지
▁ㄷㅟ
▁76
▁주년
▁늘어나
▁모으
▁예외
▁타케
▁웨이
히로
▁전투력
▁형성
▁우려
▁화살
ㅅㅔ
▁머신
▁샌
▁아침
▁95
▁아메
자키
▁ㅈㅓㅇㅎㅐ
▁거래
▁증거
OL
▁카미
▁낚
▁열심히
▁제조
▁AP
▁BGM
▁초월
ㄹㅣㅁ
▁내내
▁바보
▁섭
▁따위
▁섹
▁일으키
▁ㅈㅜㄱㅇㅕ
▁서포
▁심장
▁연애
▁연방
▁CP
▁통하
모로
▁카르
▁깎
▁58
▁묵
▁암흑
▁이마
▁신뢰
▁상향
▁흘
▁만족
▁개통
▁레전드
▁전투기
▁강조
▁헌터
▁ㅇㅑㄱ
▁스코어
▁권력
▁기다리
사키
▁제법
▁본부
▁피아
▁변형
디션
▁늑
▁피해자
▁고기
▁정권
▁화이트
피아
▁위원회
▁여러모로
▁77
파이어
▁돌리
▁복장
나다
▁고교
▁TH
▁연사
나가
▁re
▁꼽
▁아나
▁오로
▁다행히
ue
타인
▁재능
▁ㄲㅣ
▁기절
▁매치
▁마스
▁72
▁주먹
▁소문
▁주도
▁ㄸㅐㄴ
▁옛날
▁지나가
▁고민
▁페이스
▁쿠로
PG
더스
▁불꽃
▁키스
ip
▁파이널
▁아리
▁민간
▁ㅍㅐ
타로
▁트라
▁1998
도우
▁com
▁62
▁대만
▁마술
AM
ind
▁댄스
▁별도
▁묶
▁네이버
▁엘프
▁98
▁우스
▁실드
▁88
▁제기
▁전공
▁부진
▁삼국지
▁Al
ore
▁게이트
▁벌어지
▁총기
▁덴
▁절반
▁밟
▁함선
▁고생
▁심리
▁드리
▁옹
▁널
▁ㅎㅏㅂㅊㅕ
츠키
▁크루
▁ㅂㅜㄹㄹㅓㅆ
▁채용
▁ㄷㅗㄹㄹㅕ
돼지
▁스티
one
오리
▁사전
▁지급
보이
▁검색
ang
▁프레임
▁아프리카
▁Th
▁간부
고기
▁버티
▁레인저
▁낭
▁후속작
▁해방
▁추적
▁화장
▁라이더
▁선호
▁표준
▁폭주
▁ㅎㅑㅇㅎㅐ
▁불만
▁동영
▁입력
▁ㅌㅗㅇㅎㅏㄴ
▁재판
ㅆㅏㄴ
▁고전
▁ㄷㅏㅇㅎㅏㄹ
▁블러
▁요즘
▁한국인
▁당황
▁ㄱㅏㅈㅊ
▁학살
IT
▁ㅂㅣㄴ
▁계승
▁합체
▁히데
▁경기도
▁근거
▁조조
▁동원
▁'.
▁작용
▁ㄴㅘ
▁아가
ㅂㅘ
▁800
▁크리티컬
▁ㅌㅓㄴ
▁균
▁추락
▁마이크
▁화려
▁진지
▁동영상
▁커플
▁어택
스트라
▁SS
▁웬만
ell
▁학과
▁카오스
ㄶㅇㅏ
▁랜드
▁남기
▁찰
▁믹
식간
▁명예
▁아트
▁지형
▁ㄹㅏㄹ
▁나서
▁....
▁테이
어스
▁틱
▁순식간
▁대대
▁지나치
▁통제
▁ㅂㅏㄴ
▁일상
▁외국인
▁곰
▁늑대
▁600
▁현지
▁교환
▁갖추
▁쓰레기
▁오빠
의원
▁전철
▁가로
▁카라
▁권총
바로
▁59
▁최상
▁메카
▁해병
▁요새
▁환상
▁핀
▁젠
▁해설
▁시야
▁양산
▁부품
▁클라
▁반지
▁닿
▁미디어
▁ㅇㅓㄴ
둥이
▁사마
ㄹㅡㅁㄷㅏ
▁드디어
if
▁토리
▁구현
▁제작진
▁혁명
▁요괴
▁발매되
▁타워
▁김성
창기
▁수술
▁때리
▁사자
▁!!
ㅊㅣ
▁불편
▁지대
▁증명
▁시드
▁ㄴㅐㄴㄷㅏ
▁시각
▁쇠
▁정류장
▁트레
▁전선
▁지시
▁소멸
▁대하
▁정지
▁퀸
▁제자
▁소총
▁수송
ㄹㅡ
▁호환
▁리메
▁탱크
▁1997
▁ㄱㅟ
▁ㅅㅏㄹㄹㅕ
FA
▁매체
▁쳐
▁파라
ㅁㅏㅇ
▁유형
▁대체로
ort
▁레스
▁61
▁캐스
▁영업
▁ㅎㅏㄹㅈㅣ
▁아무런
ㅎㅣㄹ
▁갈등
ㄴㅣㄴㄷㅏ
▁근육
▁드물
▁중계
▁이승
▁ㅇㅝㄴ
▁매력
▁연대
▁소닉
▁편하
▁스토
▁ㅎㅡㄴ
▁마구
▁폐지
▁리버
▁전적
퍼스
▁마련
▁ㅁㅏㄴㄴㅏㄴ
▁전직
▁초창기
▁쾌
▁네임
이즈
▁ㄱㅏㅌ
▁테스트
▁복잡
▁즉시
▁처치
▁스카이
▁ㄷㅓㄴㅈㅕ
▁령
▁클로
▁불안
▁배트
ive
▁ㅉㅗ
▁겉
▁반격
▁수업
큐어
▁프린
▁191
▁경비
▁테일
도로
▁경영
▁몰래
▁폭격
▁작사
ok
ld
▁공작
ㅎㅏㅁ
▁출현
▁묘지
▁상상
▁두산
▁해금
▁신장
저히
▁동기
▁ㅇㅐㄴ
▁마루
▁스마트
▁커맨드
▁공유
▁",
▁출판
▁볼트
VE
▁텔레
▁신고
어도
▁극단
▁스톰
▁작동
▁ㅁㅓㄱ
▁조절
ers
▁콜라
▁룬
▁KO
▁잠수
▁리메이크
▁배차
▁인수
▁폭력
▁아티
▁1980
▁참전
▁장관
▁브리
▁연관
▁ㅅㅣㅁㅎㅏㄴ
지컬
▁ㅁㅣㄹㄹㅕ
▁압박
▁요정
▁구도
▁동작
▁연도
▁국적
▁악역
▁그림자
▁농구
▁알파
▁장식
▁ㄱㅏㅌㅇㅣ
ove
▁키우
▁조용
▁오픈
▁An
▁이리
▁전방
▁렙
▁공산
▁한방
▁NC
▁신분
▁언제나
ㅅㅟ
▁뉴욕
▁가져
▁외계
▁환자
▁사령관
ain
▁등판
▁출생
▁뒤집
▁프리큐어
지마
▁평타
▁왠
▁서양
일리
▁어깨
▁흥행
▁브라질
▁똑같이
▁74
▁ㅃㅏㄹ
▁ㅈㅏㄶㅇㅏ
▁물질
▁출장
▁드러나
▁절망
▁뛰어
▁아크
▁모바
ㄷㅡㄹㅇㅕ
▁분기
▁ㅇㅏㄴ
▁ㄱㅚ
▁돌진
드라
▁시행
▁간격
▁익숙
▁스타크래프트
▁탁
오카
▁Se
▁은근히
▁간혹
▁착각
▁게시판
▁적어도
▁사양
▁노예
▁63
▁노출
▁신청
ㄷㅡㄴㄱㅏ
▁글자
▁미카
▁팅
▁유령
▁프리미
▁코우
워하
조리
광역
▁어쩌
▁ㅍㅜㄹ
서트
▁겐
웨이
▁중대
▁뿌리
▁남부
▁신문
ong
▁경험치
▁어쨌
▁96
MA
▁입학
▁사이드
▁범인
▁슈트
▁1996
▁ㅇㅣㅂ
▁주위
▁종점
▁자이언
▁강철
▁고향
▁유희왕
울리
▁되찾
▁브레이크
▁ㄴㅗㅎ
▁먹이
▁DLC
ㅂㅅㅣ
▁저그
▁메모리
▁무난
▁탄약
▁71
ㄹㅏㅇ
▁68
▁즐기
전자
▁추진
▁an
▁써먹
▁유행
▁전시
ith
▁보장
▁MAX
▁스톤
▁가득
▁AK
▁구출
▁대량
▁KT
디아
▁챠
▁ㅁㅏㄴㄴㅏ
▁97
▁ㄷㅏㄹㄹㅣㄴ
▁열리
▁이시
▁보물
▁딜러
▁부위
▁출력
▁전역
▁밝히
▁뛰어나
▁이즈
▁아무것
▁스킨
▁통상
▁세월
웨어
광역시
▁문장
ast
▁주소
▁섞
EM
▁감사
성기
▁창조
▁시즈
▁감염
▁객
▁흠
▁당선
▁해체
▁도서관
펙트
▁제이
▁매직
올리
▁핸드
end
▁공학
▁걷
▁북미
▁대략
▁댓글
▁하야
▁대립
▁차라리
og
▁기독
▁호평
▁만든
ㄲㅇㅕ
▁어지
▁73
▁베트
▁조지
▁부문
▁은하
▁US
▁하필
▁기습
▁중화
▁상당수
▁샘
▁스튜
▁플레
▁1995
ew
톨릭
레이터
위대
▁융합
▁제주
▁ㄹㅣㅇ
▁리얼
ㄹㄹㅓㅆ
▁리치
▁ㅅㅓㄴㅂㅗ
▁듯이
▁인증
▁무료
▁김정
▁멕
라이언
▁종이
▁돼지
▁라이프
▁거짓말
▁모바일
ㄷㅓㄴㄱㅏ
▁서부
요시
▁신성
▁대충
▁용사
▁올라오
▁타마
▁번개
▁결말
▁회원
ㄹㅓㅁㅇㅔ
▁이슬람
▁앱
▁유이
▁67
▁멀쩡
ㅃㅏ
▁녹음
▁외교
▁입수
▁고백
▁추격
▁ㅂㅓㅅㅇㅓ
▁엔터
▁갤럭
▁이자
▁퀄리티
▁점차
▁음성
▁세이버
▁오카
▁ㅁㅐ
▁육체
려움
▁편지
▁야스
▁ff
▁결론
▁관객
▁타점
▁블로그
▁앵
▁으
▁수련
▁기원
미야
▁메시
▁붙이
▁He
▁;
▁78
▁부리
▁신인
▁특화
▁81
▁향상
▁이래
▁요코
▁콘서트
▁죄다
▁가톨릭
▁ㅇㅚ
▁ㅊㅟ
▁츄
av
▁예비
▁ㅃㅏㄹㄹㅏ
▁가속
▁루시
▁THE
▁단일
▁긍
▁정복
▁공급
▁유로
▁카타
▁느리
▁ㅁㅏㄴㄴㅏㅆ
▁음반
듀서
▁ㅇㅗㄹㄹㅕㅆ
▁프로듀서
▁캐스팅
▁협회
▁기독교
▁너무나
▁동화
▁조치
▁아기
▁JR
▁헨
▁192
버트
▁ㄲㅔ
오르
▁ㅍㅕㄴ
▁위장
▁기병
▁슛
▁가게
▁그곳
리그
▁맘
▁갤럭시
▁훗
PM
▁무효
▁180
▁91
나무
▁ㅇㅗㄴㄷㅏ
▁전달
▁프라이
▁가상
▁소화
▁펀치
▁맞이
▁현역
▁}
▁웹툰
▁반발
▁게스트
▁마리아
ly
▁ㅋㅐ
▁신기
▁블리
▁메인
▁세우
▁피부
▁마키
▁국회의원
▁과목
▁가량
▁주전
▁고용
▁겁
▁세이브
▁일원
▁HD
▁쟈
레나
▁꼬리
아들이
▁오후
▁횡
▁국군
▁문학
▁입구
▁리스트
▁마리오
▁깃
▁신규
▁어울리
▁태그
se
▁ㅇㅗㄹㄹㅏㅆ
▁바리
OT
▁기사단
▁울산
보드
▁수집
▁SD
▁메타
▁임시
▁넘기
▁진심
ㅅㅓㅆ
▁250
ㅍㅡㄴ
▁홍콩
▁섀
▁부수
▁조심
▁베스트
▁후기
▁1994
▁내구
▁청년
▁연구소
▁내장
IS
▁아우
▁전면
▁심판
▁이득
▁신라
란색
AC
▁ㅎㅡ
▁84
▁파리
ㄱㅜㄴㄱㅏ
BO
▁제어
▁길드
ㅇㅓㄴ
▁잡지
▁지능
아웃
▁킨
▁상점
ㄹㅜㄴ
ㄷㅎㅕ
▁수영
▁대개
▁j
쟁이
▁고문
구치
▁켈
▁립
▁쿼
▁박살
▁부부
▁MV
▁파트너
▁작화
▁카스
▁ㅇㅗㄻㄱㅕ
▁인공
▁침공
▁전하
▁육성
티나
▁ㅇㅏㄹㅇㅏ
잡이
▁슬롯
ㅇㅡㄴ
▁의무
구리
▁구멍
▁톱
▁아일
▁기종
▁헤비
▁디지몬
▁경상
▁시마
▁쿠키
▁SN
▁둔
▁자매
▁Ar
▁Le
▁타이거
▁여론
▁강의
코토
▁노부
▁영토
▁어른
▁연타
▁손가락
▁본작
FC
▁De
▁어린이
▁한번
▁외전
▁지휘관
▁여지
▁헤이
릭스
▁연인
▁사우
▁예능
▁아시
▁인근
크스
▁MC
▁정면
▁69
브리
▁명중률
▁일반인
▁ㄴㅓㅁㄱㅕ
▁ㅇㅑㄱㅎㅐ
▁에드
▁한마
▁82
▁인지도
▁터키
▁방사
▁190
▁최소한
▁ㅂㅜㄹㄹㅣㄴㄷㅏ
▁파견
호사
▁나뉘
▁감시
▁소형
▁특집
▁성과
ㄲㅟㄴ
▁대항
▁가볍
▁시내버스
▁86
▁회차
▁결승전
▁오랫
▁드러내
▁안경
▁살리
▁아바
▁식사
▁터치
▁클리
▁교전
▁여유
▁포탑
▁고지
▁왕조
▁ㄴㅓㄴ
아지
▁기초
▁트윈
▁규칙
▁사도
▁ㅅㅔㄴ
가미
▁어쨌든
▁PD
ry
▁더더
▁실버
▁대폭
▁아니면
ES
▁어지간
▁한동안
▁요금
ㄴㅣㄴㄱㅏ
어내
▁강남
▁국어
▁허나
▁합성
▁is
▁반사
▁해적
▁아쉽
▁왈
▁컬러
▁연락
▁이루어지
▁쏟
▁의상
▁더더욱
ㅂㅜㅌ
▁림
▁AI
▁스페이스
ㄴㅕ
▁차단
▁동부
▁도망치
▁{
▁매니
▁냄
▁전성기
▁레이스
▁썩
우드
▁프로필
지로
▁괴수
▁첨
▁경기장
▁버스터
▁속하
▁주포
▁분량
ㅂㅕ
▁국방
▁ㅂㅕㄹ
▁협박
▁입단
▁재미있
▁렛
▁절대로
▁빡
▁휴대
▁ㄷㅏㅁ
▁좌우
▁ㅆㅘ
▁의료
▁한참
▁치명타
▁겹
▁고르
▁고수
▁럭
▁핫
▁움직임
ㅇㅣㅁ
▁로즈
▁다이아
▁for
▁안티
▁예고
▁ㄷㅡㄴㄷㅏ
▁아빠
오프
▁블록
▁천재
▁캐논
▁GS
▁비행기
▁체포
▁허리
▁돕
▁다섯
▁히메
▁식물
▁영문
노스
▁인정받
▁카츠
ity
▁가시
▁스미
▁앞서
▁''
▁농담
▁주말
▁ㄸㅢ
▁구체
▁감옥
▁수십
▁민주당
▁일자
▁외치
먼트
▁대가
▁챕
▁트랜
카드
▁누나
▁아즈
▁처벌
▁FI
▁ㄱㅓㄹㄹㅣㄴ
▁수수
▁체크
▁뷰
▁일제
▁갈수
▁도달
▁한마디
▁92
▁취미
▁불법
시로
▁신호
▁레이드
▁널리
▁싱크
▁합격
▁임명
▁갈수록
▁드레
▁목격
▁소지
▁챕터
▁귀신
▁해리
바라
▁기아
▁취하
▁오사카
▁마비
▁크라
ㄷㅜㄴ
▁110
▁멘탈
▁로우
▁양쪽
▁뼈
▁안내
▁AR
▁자치
▁리아
▁이지
▁비아
▁재현
▁지우
▁be
▁비싸
▁김영
▁그동안
▁구속
▁트레이드
▁전신
▁잦
가시
▁컨텐츠
고속
▁깡
▁ㅅㅕㅆ
▁꺾
▁적대
ㅀㅇㅓ
▁봇
▁상성
▁소원
▁ㄷㅔㄴ
▁안드로이드
닉스
프레
▁취향
남도
▁오랫동안
▁복무
▁캐나다
메달
▁할아버지
▁웅
▁훗날
▁모모
▁상업
▁94
▁개체
▁의뢰
▁돌아다니
▁뜬
▁구사
▁뚜
▁ㅌㅔㄴ
▁79
▁홀로
▁대지
▁글로
▁춘
▁일격
페인
▁ㄱㅓㄹㅊㅕ
▁개량
▁캠퍼스
▁ㅇㅏㅍㅅㅓ
▁예시
▁북부
▁지도자
▁상급
▁이식
▁퀴
▁둥
▁스턴
▁회상
▁투어
▁93
▁ㅈㅜㄹㅇㅕ
▁입히
▁ㅁㅏㅇ
▁ㅂㅕㄹㄷㅏ
▁전후
▁디지털
려가
▁ㄷㅔㄹ
▁바퀴
▁IC
▁결코
▁수용
▁원본
▁ㅁㅝ
▁클래식
디언
▁83
▁명성
▁삼진
▁SC
라드
▁데드
▁랭킹
▁포트
▁모조리
▁딩
OM
▁깨닫
▁공지
▁ㄴㅗㄹㄹㅏ
시코
▁플로
▁베트남
▁미묘
ass
치기
▁FA
▁귀찮
▁박정
밀리
▁조성
▁마린
▁축제
▁도발
▁어스
▁경고
▁바위
▁700
▁일시
▁일기
▁ㅈㅜㄱㅇㅣㄴ
▁노인
ㅂㅏ
▁받아들이
▁편입
▁각자
다이
▁정비
▁누리
▁수익
▁토르
▁외형
스탄
▁팬덤
▁ffff
▁구원
▁접속
▁ㅈㅜㄱㅇㅣㄹ
▁승격
her
▁영향력
▁파츠
▁트로
▁89
ㄱㅜ
▁유니폼
▁긍정
▁GB
▁노벨
데스
▁룸
▁커스
ㅗㅂ
age
▁인하
▁내성
ㅎㅇㅏ
▁아케
구려
▁촌
▁어드
▁청소년
▁동인
▁유통
덜란드
▁OST
▁네덜란드
▁스승
▁곧바로
▁방지
▁연료
▁유대
ㅁㅜ
▁개성
▁시계
▁건축
▁스틸
▁무덤
▁바이러스
▁ㅅㅣㅁㅎㅐ
임스
▁형사
▁리듬
▁메뉴
▁하우스
ide
▁무라
▁87
ID
▁ffffff
▁전멸
▁거인
▁성별
▁펫
▁니코
▁보안
▁ㄴㅏㅁㄱㅕ
▁레이더
▁대인
▁환영
▁햄
▁CC
▁이명
▁이터
UN
▁투구
▁자국
▁GT
▁씹
▁정찰
▁단장
▁ㄸㅡㄴ
VA
▁사정거리
▁이영
▁주식
ark
▁이내
ㄴㅝ
▁부작
▁개방
▁어떠
▁패널
▁DS
▁멍
▁딘
▁보석
▁Tr
▁오타
▁코미
▁로고
▁나치
▁드라이브
▁저장
▁그럼
▁메르
▁톰
▁이날
▁자세히
▁쵸
▁윌리
▁김태
▁ㅋㅣㄹ
▁타인
▁논리
세스
▁연금
▁KIA
▁소중
▁블러드
▁ㅁㅗㅅㅎㅏㄹ
▁들이
▁쉐
▁원소
▁식당
▁빌드
▁생략
▁호주
▁곽
▁자금
▁스키
▁ㅈㅓㄱㅎㅕ
▁마침내
▁놀이
▁오스트
▁계통
▁와이
▁과연
▁칩
▁학부
▁인격
ep
▁주역
▁플레이오프
ㅏㄹㄹㅣㄴ
▁우라
▁플랫
ax
나미
▁제임스
스키
▁WW
▁사이버
▁스트라이크
▁맥스
▁똥
▁다름
▁의존
▁우연히
▁극복
▁미술
▁탄창
▁도우
▁인연
▁마이클
▁계단
▁골든
▁사라
▁전진
▁예측
▁ㅁㅗㄹㄹㅏㅆ
▁개정
▁전문가
▁ㅅㅏㄹㅇㅏ
▁어마
▁ㅎㅏㄴㅈㅣ
▁사신
▁악당
▁호텔
▁깜
▁트럭
ire
ㄲㅣㄹ
▁아일랜드
▁테츠
▁On
▁판매량
▁이브
▁캠페인
북도
▁타로
▁그러니
▁위하
▁준수
▁무릎
▁1992
▁차트
▁on
▁연예인
ㄲㅇㅣㄴ
▁좌석
▁사형
▁제갈
▁충성
ood
▁보관
▁차기
▁ㅎㅡㄹㄹㅓ
▁모토
▁조언
▁사제
▁캡틴
▁독특
ge
▁소위
▁무방
▁기적
▁저작
▁탱커
▁화제
▁혈액
▁실전
▁대처
▁유치
▁접촉
▁록맨
▁구경
▁CPU
▁용기
▁고스트
ust
▁날아가
▁벗어나
▁결성
ect
ob
ock
ㄱㅓㄹㄹㅗ
▁단편
▁램
▁특전
▁거치
▁붙잡
▁학자
▁포스트
▁조연
일드
▁네오
▁피스
▁덮
가스
▁스마트폰
▁원수
덩이
▁피격
▁ㅇㅗㄹㄹㅣㄴ
▁강원
▁ㄷㅜㄹ
▁멈
▁하루카
달리
▁시선
▁길이
AD
▁숭
▁흐름
▁드럼
▁화학
▁제작자
▁ㄲㅡㄹㅇㅓ
▁몰락
▁인조
▁1993
▁커피
▁ㅅㅠ
▁호감
▁하차
▁아키라
▁커리어
▁생명력
ㅈㅔㄴ
▁왠지
고리
▁호위
▁130
자드
▁ㅁㅝㄹ
▁신설
▁아이스
▁발달
▁슈팅
▁저렴
들리
▁후배
▁람
▁찌르
▁it
▁오크
멘트
▁툴
▁본체
▁타락
▁파크
▁ㄷㅚㅂㄴㅣ
스턴
▁델
▁하락
▁스텔
▁ㅈㅏㅂㅎㅕ
▁ㅅㅏㄴ
▁다스
ㅇㅎㅏㄴㄷㅏ
▁놀라
▁카와
▁일람
▁ㅌㅔㄴㄷㅔ
▁가짜
mer
▁냄새
워크
▁Be
▁국립
▁우위
▁익스
▁자전
▁해상
▁아마도
▁처형
▁결전
▁중독
러지
▁IS
▁초보
▁미라
▁아티스트
▁증오
▁활성
▁소스
▁그러니까
▁원주
▁SM
▁미터
▁음모
▁후방
▁북쪽
▁금속
▁둘째
▁장악
▁ㄷㅓㄴㅈㅣ
▁계정
▁위상
▁다름없
▁트랜스
▁들리
▁지경
▁닭
▁고작
▁가루
▁포수
▁AM
팩트
▁무지
▁시노
▁빚
▁외계인
▁신부
▁ㅁㅣㄹ
▁ㅊㅕㅆ
▁핏
▁패션
▁일본인
▁과제
양함
▁플래그
▁공무원
▁ㅋㅓㅆ
▁뜬금
▁업적
▁루타
▁상하
▁빗
▁디스크
▁인민
▁.."
▁남쪽
▁투명
▁미스터
▁보라
▁ㅂㅣㄹ
▁쌍둥이
▁자폭
▁|
▁동굴
▁EN
▁갈리
▁일족
▁ㅃㅜ
▁Te
▁선전
네스
▁터널
ㅁㅜㄴ
▁폴란드
▁me
▁음원
▁로리
▁세르
▁그로
are
▁헛
▁엮
▁편곡
▁포로
▁기동전
▁금융
▁아쿠
▁바이오
나카
▁정차
ㅈㅕㅆㅇㅡ
▁강도
▁동력
몬드
▁주사
▁에리
▁자막
▁체중
▁기도
▁표지
▁펄
▁아저
▁1988
▁개수
▁ㅉㅗㅊ
▁차이점
VD
▁완결
▁신비
▁트라이
▁열쇠
▁행보
▁잉글
▁라이온
▁히어로즈
▁아이언
▁연령
▁아저씨
▁무척
ㅇㅑㄴ
▁끄
▁노르
▁넉
▁전라
학자
▁비상
카리
▁마주
▁101
▁Me
▁부각
▁공룡
iv
▁액티브
CG
▁캐리
▁심심
▁격추
▁.....
▁건너
▁웃음
▁적응
▁면모
▁내지
랑이
▁멕시코
ance
▁최신
ㄷㅡㄴㅈㅣ
▁ch
▁ㄴㅜㄹㄹㅓ
▁지라
▁줄이
▁적당히
ㄱㅅ
▁간신
▁인치
그마
▁벌레
▁이집
▁미즈
▁제작사
▁의혹
▁이집트
▁승객
▁SR
ㅡㄹㄹㅣㄴ
▁정글
▁ㅅㅐㅇㄱㅣㄴㄷㅏ
▁색깔
▁@
▁할머니
▁칭호
▁부장
▁코인
▁나츠
▁흡혈
▁바라보
▁볼넷
▁상술
특별
ㄷㅐ
▁헬기
▁ㄱㅔㅅ
▁잠수함
▁후계
▁과장
▁ㅁㅏㅌ
▁개입
▁교황
▁시아
▁담배
▁팽
▁스터
▁일방
▁저녁
qu
▁후술
▁일찍
▁냥
▁첼
▁각본
▁예언
▁위대
our
▁리타
LL
ound
US
iz
▁로그
ㅆㅏ
▁방출
▁귀환
ㅂㅎㅕ
▁새벽
▁My
로디
▁십자
▁해피
ord
▁스튜디오
▁공성
▁도끼
▁페이즈
▁정착
▁총알
▁모래
▁화성
▁넥센
▁광역시
▁라이플
▁팀원
▁이중
▁클레
▁네트
이너
▁신사
▁어판
▁마디
▁흥미
▁썬
▁ㅇㅖ
라기
▁정발
▁도라
▁곤란
▁원칙
▁식량
▁ㅣ
▁수장
팡이
▁험
▁악명
▁ㄷㅏㄹ
▁깔끔
▁뜯
▁ㅍㅏㄴ
▁이정
▁식민
ime
▁소라
▁활발
▁무렵
▁멈추
▁동의
▁사후
▁이노
▁교류
▁짤
▁호기
▁XX
ix
▁집어
▁라면
▁반동
▁Cl
▁녹색
▁토끼
▁마약
▁Com
▁애플
▁1970
▁하단
▁손해
▁항공기
▁레슬
▁ㅅㅣㄹ
▁비주
▁상관없
▁제트
▁재산
▁1991
pe
▁드롭
▁원자
▁크리스마스
▁쓸모
▁사막
▁토론
▁펌
▁곁
▁풀리
▁칭찬
▁새끼
▁주일
▁뱀파이어
▁지켜
▁바깥
▁중국어
▁증언
▁리플
▁몰아
▁릿
▁배터리
우마
▁엔젤
▁작곡가
▁이드
▁애정
▁수류
▁SE
▁루카
▁자극
▁상기
ㅇㅓㄴㄱㅏ
▁대리
▁막대
▁흐르
▁부지
▁정원
▁천하
▁모노
▁포항
▁최다
▁미안
▁도주
▁MVP
OP
▁턱
▁ㄸㅡ
▁주기
▁엑스트라
어마
▁팬텀
▁내주
▁흑인
▁ㅂㅏㄴㅎㅐ
려오
▁올해
▁추구
▁씬
▁펑
▁배트맨
uc
회사
▁이재
저스
▁오가
▁채우
아리
▁호칭
ite
▁흔적
▁다가
▁그럭
▁할인
▁어마어마
▁동쪽
▁AD
▁궤도
▁막차
▁빛나
▁ㄴㅗㅍ
▁첩
▁강자
▁국왕
두르
▁상실
▁스웨
▁CV
저럭
하면
▁마이너
▁클릭
▁플래시
▁충실
▁불교
▁거미
▁승점
▁면역
▁용량
▁그럭저럭
주시
▁언더
▁가동
OW
▁코코
▁참모
버리
▁아이콘
▁분대
▁ㅁㅓㅅ
▁스즈
▁고구려
▁160
▁이익
▁기숙
▁시라
▁결합
▁탈퇴
▁시합
게임
▁김동
▁140
▁히나
▁ㅈㅗㅎㅇㅏ
▁남녀
ㄲㅡ
▁없애
▁수류탄
▁포격
▁강요
▁타율
▁앨리스
▁SH
▁신앙
▁관중
▁용서
▁무술
▁태평
▁예산
▁흘리
▁숙련
▁화장실
▁구석
▁이토
▁지켜보
▁ㅃㅗㅂ
▁기생
ure
▁미키
▁디젤
▁BPM
▁소대
▁ㄴㅏㅁㄱㅣㄴ
▁ㅇㅣㄹㅈㅣ
▁테라
▁짜증
▁등지
▁아메리카
▁의회
▁오늘날
▁나리
▁뿔
▁자책
▁루수
▁ㅎㅜㅁ
▁런던
▁고도
▁입지
▁아츠
▁윌리엄
▁단행
▁ㄹㅓㄴ
▁넘치
▁통산
▁매장
▁혐오
OD
▁교차
▁종목
▁ㅁㅏㅇㅎㅐㅆ
▁성립
▁적군
▁입대
▁오직
▁잡히
▁영구
▁900
▁ㄷㅓㅅ
▁문구
ㄷㅣㄴ
▁향하
▁딴
▁공방
사관
▁예수
▁ㅉㅏ
▁간접
▁잉글랜드
▁옳
▁사키
▁기구
▁포켓몬스터
▁가요
ㅂㅎㅏㄴ
▁하향
▁DVD
▁우에
▁출구
▁기여
▁ㄴㅏㅁㄱㅕㅆ
▁동급
▁구글
▁모니
▁일본군
▁토시
▁도박
▁얻어
여객
▁형상
▁1989
▁공공
▁$
▁그대
▁지뢰
▁철권
▁클랜
▁하이퍼
▁리오
▁힙
▁ㅁㅓㅁㅊ
▁낚시
▁덩치
▁Pr
▁오라
BA
▁존재감
▁말투
▁백성
▁Wh
ake
▁부자
▁아미
▁딕
▁실망
▁야마토
▁제약
▁Pl
▁KR
▁민첩
▁아서
▁Ex
▁지르
▁윗
▁크림
▁소유자
▁Un
머스
▁백인
▁보고
소녀
▁Pro
RE
▁피터
▁간신히
▁일치
▁서쪽
▁주간
▁금방
▁기관총
ION
▁연합군
▁히가시
▁중량
▁상인
▁ㄹㅠ
▁본사
▁초인
▁ㅋㅗ
▁이슈
▁망치
▁몽골
▁ㅂㅣㄹㄹㅕ
▁뎀
▁추억
▁쭉
▁일대
▁동성
▁칼날
▁ㅈㅜㄹㅇㅓ
▁어려움
▁매년
▁천만
▁구슬
▁단단
베르
▁뺏
▁사유
▁이스라
▁힌
▁NE
▁콜라보
▁RPG
▁순환
▁내전
▁포드
▁총리
▁ㅈㅏㄹㄹㅏ
▁법률
▁의외로
▁가하
▁와타
군다
▁임팩트
▁유독
▁화물
▁며
▁수비력
Hz
▁아랍
▁근본
ㅈㅎㅕ
▁그렇지만
▁분신
▁ㅁㅏㄴㄴㅏㄹ
▁난입
특별시
▁메이드
▁믹스
시즈
▁시공
▁건조
▁호수
▁권한
▁지위
▁스크린
▁개혁
▁심사
▁오마
▁세븐
▁ㅉㅏㄹ
oy
은행
▁유물
▁재단
▁스탠드
▁어리
▁선택지
▁평생
▁ㄱㅗㄹㄹㅏ
▁이끄
▁전동
▁침략
▁타선
▁리드
▁개막
ows
▁비스
▁원하
▁색상
▁가만
▁괜히
▁잠재
▁연극
화점
▁소장
▁상식
ud
▁ㅍㅕㄹㅊㅕ
▁Gr
▁란스
▁명확
▁스펠
▁뛰어넘
▁알아
▁ㄴㅓㄹ
▁서울특별시
무시
ㅁㅗ
▁꽂
▁인종
▁세종
▁메달
▁악기
▁with
IG
▁합의
▁반전
▁자라
▁ㅈㅕㅆㅇㅡ
OC
▁생존자
▁집착
▁곡명
▁개업
▁기숙사
▁맛있
▁ㄴㅘㅆ
▁그랜드
신교
▁유적
▁히토
▁크리스탈
▁협상
▁정통
▁변호사
▁BL
▁양성
사자
▁스팀
▁ㅈㅜㄱㅇㅕㅆ
▁삐
▁딜레이
▁잔뜩
▁ㅇㅕㅆㅇㅡㄹ
▁센스
▁복선
▁서구
▁브루
▁승률
▁너희
▁렐
▁재정
▁복지
▁단축
▁암시
▁집행
▁울프
티아
▁일화
▁걸맞
▁복구
▁총선
▁엘리트
▁카카
랭크
▁기인
▁메리
orld
▁내려가
▁이스라엘
▁교과
▁열매
▁영주
▁동양
▁흰
전차
▁KOF
▁포르투
▁출입
▁항복
▁무시무시
▁김종
▁임신
데레
▁he
▁고위
▁체육관
▁타쿠
▁정수
▁스트리트
히코
▁구축함
▁무역
▁상단
▁105
▁레지
▁비례
▁정치인
▁미나미
▁급격
▁자전거
▁채택
▁치즈
▁ㄹㅐ
▁고로
군다나
▁라인업
▁치킨
▁잡아먹
▁BS
▁코난
▁ㄷㅓㅅㅂㅜㅌ
▁수출
▁말리
▁진보
▁ㅊㅐㅇㄱㅕ
부로
▁ㅂㅜㄹ
▁경직
▁기량
▁ㅈㅏㅁ
aw
▁성남
▁당일
▁김민
▁나타내
▁굿
▁국판
▁간단히
▁존경
▁이펙트
▁확대
▁더군다나
▁꼼
▁War
▁부스터
▁넘버
▁사이코
▁적합
▁끔
▁대단히
▁금액
▁코리아
▁재밌
▁불사
▁누적
▁도둑
▁OVA
▁에로
▁칼리
▁강점
라이트
ace
▁스파이더
▁ED
▁사령부
▁EP
▁상호
▁키타
▁랄
▁을
▁화재
▁사살
▁꺼내
▁통계
▁스폰
데이
▁정화
▁철저
▁후손
▁ㄷㅜㄹㄹㅓ
80
▁메이플
▁전이
ave
▁콜로
▁DD
▁헐
▁유학
▁서포터
▁ㅇㅓㅄ
▁CG
▁Love
▁우정
▁이민
▁제독
ame
▁메시지
▁썬더
데드
▁ㅁㅗㄹㄹㅕ
▁자이언츠
▁이혼
▁혹시
▁허락
▁원문
아키
▁마블
▁간간
▁치유
▁언데드
▁마법소녀
▁가공
▁가을
▁대수
▁ㅇㅣㅀㅇㅓ
▁한쪽
▁ㅁㅓㅅㅈㅣㄴ
▁권리
ㄲㅟㄴㄷㅏ
▁ㅋㅏㄴ
▁우타
▁겹치
▁대거
▁끔찍
▁ㅆㅏㅎ
▁토너
▁후계자
▁기갑
▁수능
▁탄환
▁수백
▁검술
▁사원
▁LV
▁오락
▁철수
▁까이
▁면허
▁변환
▁천안
▁통치
▁수명
▁업계
▁부적
▁구리
▁토마
▁능력자
▁해머
▁1987
▁루이
▁주택
▁우르
▁피아노
▁드라이버
▁커녕
유럽
▁헤어
▁하츠
▁노가
▁언스
▁나루토
▁코멘트
▁루나
▁분명히
▁독재
▁실존
▁개신교
▁워크래프트
자와
▁초간
▁매니저
▁알렉산
▁트롤
▁삽입
▁동명
▁쟁
▁지불
▁박물
▁ㅁㅔㄴ
ice
ㄴㅔ
▁맷
▁숨기
▁ㄱㅏㅈㅊㅜㄴ
▁3000
ies
▁소음
▁타운
chor
▁202
▁WWE
▁오랜만
▁제정
▁닫
▁크레
▁히라
▁생명체
▁거울
▁세인트
▁읍
▁ㅃㅏㄹㄱㅏㄴ
▁배역
▁중립
▁마코토
▁프리미엄
포트
▁곳곳
▁유효
▁Wind
▁해안
▁쓰러뜨리
데미
ㅅㅓㄹ
▁자본
▁파생
▁캐치
own
▁기용
▁휘두르
▁폐쇄
IM
▁ㄱㅓㄹㄹㅣㄴㄷㅏ
▁원조
ㅢㄴ
▁시위
▁sh
▁중첩
▁구미
▁약화
▁마스크
▁플러스
▁루비
로나
▁뮤지컬
리온
▁결투
▁감각
▁보험
▁대왕
▁ㄱㅓㄹㅇㅓ
▁레딧
▁큐브
▁충청
per
▁ㅇㅓㅄㅇ
▁원리
▁서서
▁실종
▁인질
▁ㅊㅏㄴ
▁체인지
▁코믹
▁요약
▁지팡이
게이
▁모이
▁스프링
▁니혼
▁주자
▁중세
▁우월
▁아카데미
▁킬러
▁??
▁무관
▁엔드
▁만남
▁토너먼트
▁워커
걸이
▁하마
▁취약
▁여객
▁철학
하시
▁리카
반도
▁더빙
ath
TE
▁성전
▁리스크
▁보드
▁anchor
▁리프
man
▁TVA
▁기동성
▁니스
▁지리
▁전파
가드
▁de
▁이라
▁정기
▁카트
▁불타
▁사야
▁날짜
▁유산
▁방위
▁이나
▁KBO
▁무공
▁가라
▁중형
틀러
▁나미
▁드래프트
▁시크
▁ㅅㅗㄱㅎㅏㄴㄷㅏ
▁배포
▁호시
우치
운서
▁아나운서
▁딜링
▁결심
▁ㄲㅡㄹㄹㅕ
▁장탄
▁추종
▁시바
▁거듭
▁싹
▁베타
▁티켓
▁PV
▁개시
▁나기
▁도적
▁왜곡
old
ㄴㅣㄴㄷㅔ
ere
▁사명
▁We
▁허가
▁측정
▁와일드
▁대학원
▁해병대
▁PR
▁여우
ㄹㅏㅆ
▁스트레스
▁보충
▁인디
▁틸
▁돌입
▁ㄹㅠㄴ
▁1986
▁옮
▁시원
▁마우스
센트
카이
시스트
▁연패
▁휘하
▁야구장
▁무인
▁필리
▁복제
▁ID
▁시외
▁알아보
술사
텐도
▁용인
▁헌법
▁닌텐도
▁유격
▁저택
▁AS
▁승무원
▁관할
▁네트워크
▁분당
▁보완
▁들어서
▁파이트
▁부실
▁중시
▁억지로
▁이글
▁후자
▁장거리
▁뿜
▁고개
▁관점
10
▁인피
▁수호자
ick
▁ㄱㅓㄹㄹㅕㅆ
▁떠올리
▁토미
▁박물관
ber
▁서클
▁희귀
▁셜
▁언덕
▁ㄲㅡㅁ
▁주둔
▁혐의
▁문단
▁우치
▁악화
▁".
▁엄밀
▁쿠라
▁ㄲㅡㄶ
▁막내
▁미네
▁연고
▁조약
▁불량
▁당대
▁캠프
▁세포
▁기묘
▁톨
▁ㄷㅡㄹㅇㅕ
▁법원
네임
리나
▁유니크
▁ㄲㅜ
▁엑시즈
▁학력
▁롬
ㅈㅜㄹ
▁여전
▁오키
▁잠입
▁아끼
▁->
▁기상
GE
ory
▁유발
▁사귀
려들
▁단원
▁모로
▁방송국
▁식민지
▁지칭
▁ㄱㅓㄴㄴㅓ
▁럼
▁페널
▁그린
▁인용
ov
▁다이아몬드
▁버드
▁신나
▁카구
▁취임
▁단행본
▁김대
▁로얄
▁채보
▁지진
▁ㅇㅔㄹ
래시
▁연맹
▁인방
▁ㄴㅗㄹㄹ
▁둘러
▁스웨덴
▁치르
▁오메
▁데이트
▁AKB
▁코마
▁ㅎㅢㄴ
▁벨트
▁프라임
▁남매
▁만만
▁울트라맨
▁챌
ond
▁레일
▁쓰러지
▁반부
▁멜로디
▁my
TS
▁고증
▁살아가
▁즈음
부르크
▁면적
▁가죽
▁웰
▁부서
▁ㅍㅏㄹ
▁캐스터
▁도루
▁En
필드
▁GP
▁택시
▁디즈
▁법정
▁근거리
▁케이드
▁매번
▁거점
▁자비
▁선행
그나
▁배달
▁끈
▁중장
▁도망가
비드
▁아테
▁언젠
▁포위
▁아르헨
▁언젠가
▁공수
프리
▁중복
ream
▁혈액형
▁이주
▁방어구
▁신도
▁준우
▁진압
▁교도
▁남아
▁분쟁
▁스텝
▁FIFA
ㄷㅣㄴㄱㅏ
▁레알
▁파르
▁웨이브
▁CJ
▁굵
▁티아
▁득표
▁실은
ah
▁라틴
▁새롭
▁소요
▁호랑이
▁미쿠
티스
▁이수
out
▁따라가
▁전승
▁독일군
크로
▁Dr
▁아이러
▁차체
▁꿀
▁일당
블린
▁행방
▁ㅈㅏㄹ
▁도저히
▁연승
▁조리
시타
▁ㄷㅡㄹㅇㅡ
미니
▁아르헨티나
▁깨달
▁참석
▁갤러
▁189
붙이
▁답변
커스
▁휴식
카락
▁용자
▁돌려
▁wh
▁뻗
▁머리카락
▁균형
▁DC
▁ㅇㅗㄹㄹㅣㄹ
▁릴리
▁퍼지
▁법칙
IP
▁ㅅㅜㄴ
▁미만
▁공인
▁첫차
타카
▁저지르
▁케인
▁창원
▁오전
▁ㅊㅣㄴㅎㅏㄴ
ost
▁1500
세서
▁암살자
▁kt
▁시로
▁가져가
▁셔틀
▁비전
▁이온
ㄱㅗㄴ
▁마계
아이
▁유인
▁로이
▁관람
▁한두
▁주류
▁무작
▁발렌
▁학기
▁초록
▁토키
▁챌린
▁코트
▁슬라이
▁규격
베스
▁포탄
60
▁리뷰
▁본진
▁중력
바닥
▁챙
▁스위치
러그
ㅅㅕ
▁왜냐
▁트리플
▁\
▁주차
▁ㅊㅣㄴㄷㅏ
▁피닉스
▁질투
▁평일
UM
▁에반
런트
▁전주
렐라
LE
▁솔직
▁1985
▁에르
▁루머
▁쇼크
▁에이지
▁드래곤볼
▁닛
▁토벌
▁영원히
▁전제
▁For
▁김재
▁헝
▁침입
리스트
▁유력
▁통틀
▁무사히
▁클론
▁식품
▁ㄱㅕㅂㅊㅕ
가리
▁장인
▁남북
▁ㄷㅓㄴㄱㅏ
▁교실
▁ㅁㅜㄹ
▁글로벌
▁포르투갈
▁훼
▁격차
▁비주얼
▁조커
테르
▁ㅌㅣ
▁스테이션
ile
ㅇㅕㅆㅇㅡ
▁트루
블로
▁소방
▁박근
▁시너지
▁스태
▁앞두
▁개설
▁공업
▁ㅁㅜㄹㄹㅓ
▁오디션
야수
▁경로
▁1984
▁안개
▁합병
▁김경
▁구름
▁법인
▁베기
▁전무
▁보이스
▁항의
▁조기
▁인력
▁히로시
코드
▁집어넣
▁재회
▁이종
▁아틀
▁창고
▁은신
▁감지
▁탐정
▁노바
▁배수
▁정황
▁유성
▁돔
▁논쟁
▁백화점
▁확장팩
▁아동
ont
▁아가씨
▁긴장
▁진학
▁달라지
▁파동
▁선고
▁유미
▁무스
▁공허
▁주행
▁어뢰
▁신전
▁트릭
쿠라
▁제네
▁기름
▁토크
▁어필
▁호흡
▁우즈
▁안녕
▁ㅁㅏㄹ
▁하수
▁쓸데
▁난사
▁얀
ㄲㅜㄹ
▁감동
▁괴롭
▁양반
더라
▁막판
▁윈드
ㄲㅕㅆ
▁통화
▁사인
▁코르
ome
▁단종
ㄲㅜㄴ
▁베리
▁토니
▁소송
▁여주
▁카더라
▁ㅂㅏㄺㅎㅣㄴ
▁시카
▁역명
▁가방
▁배드
▁리온
▁신용
▁옮기
하르트
▁찾아보
▁급행
▁생년
▁ㄴㅜㄴ
번에
▁어이
▁범죄자
▁감상
▁It
▁수염
▁달하
▁마물
▁왕위
▁특별히
▁변태
▁위성
▁바디
세대
▁처지
▁보존
▁5000
▁김현
▁스쿨
▁메이커
그리
▁과도
▁장미
▁신자
▁명의
▁프란
▁학습
▁비유
키지
▁개발자
▁Star
정부
투스
노리
▁손오
▁요인
▁기운
▁자녀
▁서포트
▁분열
▁ㅊㅣㄴㅎㅐ
io
▁놓치
▁벙
▁블라
▁섀도우
▁패키지
▁직장
▁내려오
ㄷㅚ
▁막상
▁백제
▁진주
▁추세
▁노스
▁수면
▁운동장
▁창단
▁과학자
타입
▁DE
▁제갈량
▁영광
▁의학
▁야쿠
▁FM
▁ㄲㅡㅌㄴㅏㄴㄷㅏ
▁에디
ㄹㅜㄴㄷㅏ
▁발굴
▁가디언
▁귀엽
▁성당
▁신발
▁잉여
▁팟
▁아이러니
▁광선
▁스캔
▁ㅂㅕㄴㅎㅐ
▁정예
▁경기력
ㅟㄴ
az
▁비웃
▁때려
▁106
▁1960
▁매니아
▁SNS
▁오우
▁ww
▁라이온즈
▁성질
▁극히
▁카운트
▁EZ
▁나폴
▁기재
에이
▁기력
▁유재
▁임금
▁라라
▁복합
▁상관없이
도르
▁쇼핑
▁체감
▁오노
▁최상위
▁ㄱㅓㄴㄱㅏ
▁산하
▁진급
▁타이거즈
▁탐험
▁준우승
▁프린세스
▁우유
▁170
▁로버트
▁대책
▁러시
▁로보
▁무너지
▁루스
▁룩
▁스타리그
▁세라
사기
▁극도
▁만일
크라
▁도감
▁라즈
▁얻어맞
▁윈도우
▁Fl
▁서서히
▁판결
▁벼
▁걸즈
▁위엄
▁마냥
▁시상
▁늘리
▁행운
▁양자
불명
ian
▁에서
30
▁물량
▁공정
▁데빌
▁ㅊㅣㄹ
▁대조
▁손상
▁Station
벌레
▁여인
▁국경
▁ㄱㅔㄴ
▁www
일보
▁샌드
▁사관
▁커지
▁피트
▁워치
ㄱㅡ
▁오스트리아
▁우주선
▁카시
▁해골
능력
▁대치
▁야수
▁와카
▁출격
▁천연
▁Sc
▁여학생
▁플라이
▁체험
▁늙
▁AN
ade
▁정하
▁관계자
▁무산
▁Or
▁통로
▁콤비
저리
▁증상
▁ㄴㅡㄹㄹㅕ
▁처참
▁ㅇㅜㅅ
▁엘리자
▁사족
▁데모
▁하프
▁야간
▁소프트웨어
▁키라
▁퇴장
ㅂㅗㄴ
▁가만히
▁빙판
▁불행
릴라
▁띠
▁뜬금없이
▁엿
▁그레
▁상담
▁조상
ㅈㅜ
▁오염
▁ㅎㅣ
▁드림
▁손오공
▁찢
▁경주
▁결제
▁LC
▁고객
▁장로
▁맡기
▁Fate
▁투스
▁리즈
▁캐시
▁ㅎㅡㄴㅎㅏㄴ
▁Go
▁포장
▁자르
▁타수
▁심의
▁간주
▁출간
▁흡사
▁상륙
ㅇㅘㅆㅇㅡ
▁ㅈㅠ
▁캣
▁묘하
▁포터
ㄸㅓㄹ
저기
▁ㅂㅜㄹㄹㅕㅆ
▁원피스
구미
▁스핀
▁즉사
▁태평양
▁마케
▁연봉
▁중고
▁오로지
▁ㄷㅓㅅㅂㅜㅌㅇㅕ
▁세뇌
▁약물
▁디바
▁바스
▁파란색
▁모터
▁철거
▁아바타
▁Br
▁CF
▁태클
ason
▁사립
▁위반
▁마유
▁SF
▁베테
▁아시안
▁여기저기
▁가리키
▁함부로
▁Windows
▁ㄴㅔㄴ
▁시온
▁갈아
▁파편
▁콘솔
▁렌즈
▁몫
▁백작
▁배정
▁브로
▁샤이
▁BR
40
▁ㅂㅓㄴ
▁난무
▁뱃
▁비극
▁동아리
▁루크
▁비스트
▁당당
▁이웃
▁본토
▁창작물
▁태어나
▁불펜
▁폐기
▁처분
▁이와
▁파멸
▁캘
▁대령
▁지력
토스
▁실상
▁교장
▁ㅎㅣㅁㄷㅡㄹ
▁니콜
▁역습
▁맥주
▁수색
▁혜택
키아
▁코미디
▁악몽
sh
▁지향
메이
▁ㅅㅔㄹ
베이
▁나스
▁후미
▁명목
▁해킹
▁이타
▁유전자
▁거북
도리
ㄴㅑㅇ
▁동남
▁스포일러
▁이란
▁즉위
▁후퇴
▁시신
▁JP
▁125
▁경남
▁전동차
▁CH
카이도
▁썰
▁핑크
▁흔하
하마
▁프로토
▁동경
ㄹㅜㄹ
▁키보드
▁도장
▁경악
▁시트
▁상사
tle
▁타르
비전
▁물려
ㅃㅓ
▁여럿
▁추리
▁대포
▁제왕
▁장사
▁360
▁창설
ug
▁신데
▁헨리
▁교단
▁조우
▁짐작
▁UN
▁막히
▁디즈니
▁교토
▁물체
▁케이블
ㅇㅏㅅ
▁원곡
불호
▁호불호
▁혼돈
▁양손
▁OP
▁발행
▁랑
먼스
▁휴가
▁기둥
▁샷건
▁스테이
거지
▁장탄수
▁엄격
어놓
▁승차
▁막강
▁기세
▁선조
▁흰색
▁권위
▁LA
▁노조
▁조종사
▁반박
▁뒤늦
▁야생
▁https
▁한반도
▁나노
▁폭파
▁손실
▁신입
▁ㄱㅘㄴㅎㅐ
렉스
▁신데렐라
▁최적
▁고리
▁타석
▁축복
▁노가다
브라
▁내일
우리
▁광장
▁지선
▁포즈
▁구르
▁풋
▁개국
▁정교
▁배출
▁프랑스어
▁부착
▁하급
▁임대
▁프레이
▁스트라이커
▁낙하
▁모스
▁미오
월일
▁BE
▁트라우마
▁버섯
▁띄우
▁츤
ower
ach
▁ㅁㅏㅈㅅㅓ
▁회색
▁커스텀
▁승자
▁기장
▁텍스트
▁복원
▁옹호
▁채팅
▁패밀리
▁공세
▁실사
▁표면
▁베네
▁근접전
▁여파
▁응용
천시
▁오이
나기
▁근원
▁대시
▁어쩌면
▁대전차
▁히틀러
iss
▁조별
▁유기
▁잠실
▁세팅
▁구동
▁유언
▁무섭
▁여고
▁생년월일
▁Wi
▁장신
▁전북
▁끊임
▁개장
▁열혈
▁통칭
▁물고기
MP
▁첼시
▁바지
▁방치
▁올스타
▁루이스
▁전락
▁초능력
▁명백
▁투척
▁호소
▁브레
▁신지
▁관우
▁팡
▁ㅅㅕ
▁ㅅㅐㅇㄱㅣㄹ
▁이순
▁김상
▁출루
▁미국인
▁밍
▁솜
▁대접
▁굴욕
ash
▁비명
▁배려
▁소용
▁이글스
▁반감
▁시인
▁이라크
ARD
▁ㅇㅏㅆㅇㅓㅆ
라딘
▁카자
▁ㄱㅏㅁ
▁되게
▁장성
▁좌절
▁쌀
▁저하
▁간간히
▁마드리
▁카리스
▁그램
▁탕
▁부작용
▁궁금
▁마드리드
▁뽀
▁양상
▁엽
▁결계
ook
▁여타
▁상영
▁약자
▁타츠
▁1982
▁미루
ial
산역
▁선사
OU
▁성씨
▁며칠
▁고장
▁스태프
▁진격
ㄹㄹㅣㅁ
▁논의
▁틴
▁디시
▁빌딩
▁꽉
▁민주주의
▁마감
▁먹히
▁마다
▁올드
▁기수
▁스케일
지막지
▁무지막지
▁뻥
▁갚
▁스나이
▁로이드
▁발목
▁축하
▁아스카
▁여러분
▁근대
▁대차
▁센트
▁수월
▁공대
▁스노
▁모빌
▁지인
ㄷㅣ
사이
▁해명
▁프론
▁다운로드
▁공백
▁가난
▁사이클
▁깜짝
▁마트
▁비치
ann
▁합리
▁찾아가
▁수동
▁하하
▁약탈
▁기본기
▁집권
▁인자
▁최우
▁wik
▁그날
▁ㅅㅕㄴ
▁텟
▁레온
ps
▁사악
▁ㅇㅕㄴ
▁ㅍㅜㄹㄹㅕ
럼프
TV
▁칭하
포르
돌이
▁세금
▁고소
▁퍼포
▁브라운
▁하인
▁생전
▁퍼포먼스
▁강렬
ss
▁나나
▁떠오르
▁개별
철도
▁특급
▁박살내
▁시외버스
▁중동
ㅌㅡ
버그
▁구별
▁둠
▁꼬마
▁이누
▁ㅎㅓ
▁실책
▁후일
▁대박
▁독일어
▁한창
리안
▁엄밀히
▁폴아웃
▁노동자
펴보
▁살펴보
▁금메달
▁설령
▁보건
▁로빈
▁닐
▁우세
▁조용히
▁교복
▁오메가
▁조롱
▁1983
▁그만두
란히
ky
▁MB
▁슬로
▁라크
▁이용객
▁스즈키
irl
▁우드
누스
▁권장
▁삼각
▁성경
▁단검
모함
▁에픽
ㄲㅣㄴ
▁대선
센스
▁검찰
▁업로드
▁ㅇㅜㄹ
▁뭉
ib
▁음료
▁시달리
역사
▁왼손
▁폭행
▁마도카
▁Mk
▁훈장
▁선보이
▁라이너
▁페널티
70
▁비서
▁전격
▁조명
바야
ish
▁your
▁그레이트
▁친하
▁토요
▁페이스북
▁불쌍
▁감수
▁원전
▁스피릿
▁ㅁㅜㄷ
▁명문
▁웨스트
▁선제
▁산탄
▁닝
▁CS
▁GO
▁몰리
▁that
우트
▁포획
▁ㄸㅡㄴㄷㅏ
▁세부
▁독점
▁튼
▁고속도로
▁형편
숭이
▁소니
▁제물
▁지사
▁ㅅㅏㄴㄷㅏ
하나
▁인권
▁호크
아나
▁건국
▁트랩
▁온도
▁아스트
▁명사
▁선진
오스
▁직선
▁분해
▁PP
▁ㅌㅟㅇㄱㅕ
▁휠
보내
rom
▁마땅
▁ㅅㅜ
▁항구
▁위안
▁공통점
▁루프
▁상반
▁수직
▁중지
공항
▁에릭
▁유망
▁카를
▁구장
▁도트
▁발리
▁유혹
▁블레이
▁후임
▁학생회
▁벡
▁질병
루미
▁페리
▁김해
진호
탐정
▁그거
▁팁
▁le
▁츠바
▁겟
▁강간
▁ㅁㅏㅇㄱㅏ
▁주니어
▁조이
orm
▁신선
▁걸어
▁혈통
라노
▁각오
▁되돌
▁잔인
▁Ne
▁유나이
▁ON
▁후원
▁경부
게이머
▁프로게이머
▁평양
▁샵
▁술사
▁범용
▁오죽
▁타치
▁매드
차기
▁추방
▁끼치
▁찬스
▁물품
▁비틀
블리
▁부동
▁적중
ㅡㄹㄹㅕㅆ
ㄹㄹㅣ
▁토요일
▁엄연히
▁라스트
▁ㅂㅜㅌㅇㅣㄴ
▁항공모함
▁ㄱㅡㄹㄹㅓ
▁털리
▁고무
▁축소
▁ㄷㅚㄹㅈㅣ
▁루피
▁스컬
▁350
▁원더
▁유나이티
▁ML
▁하치
▁곱
▁레인지
▁동행
▁스와
▁강원도
▁베테랑
▁증폭
▁진상
▁엔지
▁압권
▁고치
▁{{
경기
▁검열
▁거론
벤처
▁메리트
▁어드벤처
싱턴
▁후회
이치로
▁쿠마
▁스폰서
▁선두
테일
▁원형
▁관찰
▁트윈스
▁하반
▁가르치
으로
▁킷
▁기후
▁성배
사리
▁TR
▁김기
▁마카
▁괴롭히
▁지연
▁출마
▁경전
▁허무
▁이어받
▁논문
전설
▁주체
▁변이
▁{{{
▁인칭
▁합동
▁ㅎㅜㅁㅊㅕ
에르
▁골렘
▁스리
amp
▁운수
▁부임
▁메트로
▁쨩
▁요한
ㅈㅣㅁ
▁교과서
▁장난감
▁해양
ft
▁흡혈귀
▁표절
▁도색
구장
▁중순
▁SKT
▁유니버스
▁바나
▁쿄코
▁유출
▁영지
▁친절
▁히든
ype
▁사사
▁유의
▁베어스
▁UE
▁쉴
▁슌
▁블로
▁하여
▁쿤
루션
▁지목
▁결혼식
▁보라색
▁쿠데
▁피카
▁권유
▁구성원
ㄴㅡㄴㄷㅔ
마크
▁전망
▁사무라이
어하
▁초콜
▁타이탄
▁다이스
러나
▁Mar
▁코스튬
▁나르
▁!"
▁시게
페라
▁역량
▁절차
▁ㅅㅓㄲㅇㅕ
▁박근혜
▁어색
▁우익
ous
니시
▁저렇
배우
▁특공
▁니아
▁치열
▁컴뱃
▁헤르
▁폴리
▁마술사
▁동대
▁과자
▁취업
▁페르소
▁빈도
▁버스트
▁ㄷㅏㅁㄱㅣㄴ
▁ㅊㅐㄴ
▁줄거리
▁뱅크
▁by
▁여단
▁유료
싸움
TR
▁긴급
▁엮이
▁시리아
▁안양
▁ex
▁애칭
▁이케
ㅁㅏㄹ
▁찾아오
▁카네
트론
▁사투
▁ㅈㅡㄹㄱㅕ
▁의자
▁서기
▁다큐
▁기호
ㄴㅣㄹㄲㅏ
▁동서
▁청주
▁돋
▁공용
▁고블린
▁튼튼
▁히카
▁손자
▁Sup
▁ㄷㅡㄹㄹㅕ
추어
▁상한
▁나이프
▁토우
ㄷㅚㄴ
시대
▁리나
▁캄
▁수습
▁우회
▁관여
▁빨간
▁유탄
산시
▁명단
▁막아내
▁we
▁GSL
▁LP
▁강호
▁징역
▁수급
▁터스
▁센서
!!
▁히스
▁광명
▁나비
▁침묵
FF
플레이
▁퍼즐
▁유전
ㅟㄴㄷㅏ
▁젼
▁풍부
▁ㅂㅏㄹㄹㅏ
▁대성
▁관통력
▁고스
▁규제
▁자꾸
슈타인
▁일요일
▁보호막
▁정사
▁동점
▁bl
ㅐㅆ
▁ㅆㅏㄴ
▁드레스
▁중상
▁가오
▁학문
▁순양함
▁의장
▁페어리
바나
▁큐어
ㅇㅏㅆ
▁끌어
▁포스터
▁이놈
▁스플
▁평행
▁전생
▁주어지
▁웜
▁호드
▁페르소나
▁우승자
▁겔
▁102
▁촉수
ey
▁해치
▁오브젝트
▁짙
▁오스만
▁태국
▁미미
▁불능
▁특별시
승부
▁ㄲㅗㅂ
▁앰
▁인재
▁ㅂㅓㄹㅇㅕㅆ
▁싫어하
▁프렌
▁아무튼
▁카마
▁도어
ING
▁부스트
▁덧
도전
▁분산
▁기스
▁침대
▁메카닉
▁선장
▁서바이
▁크라이
▁마인드
▁시모
▁III
▁트레이너
키퍼
▁후반기
▁꼽히
▁생김
ㄷㅝㅆ
▁러스
▁평상
▁동반
▁동해
▁젖
▁인과
▁배제
베리
▁철갑
▁관측
▁아케이드
▁강림
▁모집
▁기르
▁백업
▁눈치채
MS
▁빅토
▁수석
▁도리
▁관리자
▁참가자
렉션
AK
▁출산
▁지부
▁워리어
폭탄
▁취득
▁World
▁신속
▁시상식
▁낭비
▁날씨
▁챙기
▁정석
▁스위스
▁모에
하루
▁현금
▁안심
▁아쉬
▁유우키
▁박지
▁토라
▁무한도전
▁스탭
▁레이디
필더
▁미드필더
▁패전
▁마타
▁시그
▁모니터
▁짐승
▁왜냐하면
▁껍
ㄷㅡㄹㄱㅕ
대사
der
▁유재석
oll
▁블리자드
워즈
▁원판
▁화산
▁모험가
▁리모
▁붐
▁김용
▁시비
NA
▁성실
▁스피어
▁장타
▁벤치
▁연산
▁친분
▁플랜
▁통째
▁옐
▁New
▁골키퍼
ink
▁피로
▁se
▁대위
▁All
▁공감
▁조카
▁대세
ET
▁리틀
▁역임
▁ㅅㅟㄹ
▁꿰
▁뱅가드
▁강사
▁슬라
▁최저
▁ㅇㅣㅈㅎㅕ
▁냉정
▁워프
▁원주민
▁111
▁만주
ㄹㅗㅂ
▁프리미어
▁ㅇㅡㄹㅅㅜ
▁데몬
▁방송사
▁al
▁OG
▁카리스마
코트
▁미소녀
▁사무소
▁스기
▁ㅂㅕㄴㅎㅐㅆ
▁작년
▁일가
▁108
▁처하
▁DP
▁미인
▁쿼터
항공
▁따뜻
▁호러
▁흑역사
▁ㄱㅏㄹㄹㅏ
▁차리
▁생체
▁강등
▁품질
▁노란색
▁단발
▁IM
어드
▁IN
▁변장
▁생애
▁익히
▁포병
▁빨간색
▁유카
▁자네
▁워즈
▁미지
▁Season
▁광산
▁메일
▁가져오
▁싸이
ㄷㅡㅅ
▁영양
▁호남
▁카지
▁리버스
▁절친
▁스미스
▁오즈
▁국무
▁후드
▁출판사
▁재개
▁당사자
▁무용
▁소모량
▁SU
▁붓
▁루리
▁하나하나
주교
▁여포
▁un
▁땡
▁슈퍼맨
▁명분
ㄴㅣㄴㅈㅣ
▁트릴
▁방사능
▁국제공항
▁오지
▁넬
▁OS
▁자제
▁디펜
▁ㅍㅕ
▁유입
▁115
▁각지
▁단기
▁클린
▁정반
▁안쪽
▁연쇄
▁무도
▁봉쇄
▁폭스
▁마모
▁장판
▁코스프레
▁장례
▁쿠데타
이나
▁김포
▁애인
▁태우
▁발급
▁선임
▁몰살
▁전당
ㄷㅡㄹㅇㅓ
모스
▁위원장
▁리안
페이
▁MF
▁스네
▁여의
▁자칭
IX
▁수라
▁미러
▁깨지
▁마운
▁워크
▁밀어
▁마오
▁와인
▁항해
▁ㄷㅗㄹ
▁ㅊㅏㄱㅎㅏㄴ
▁동정
▁카쿠
▁해산
▁워싱턴
께끼
▁임기
▁수수께끼
네마
▁수인
▁국장
▁왕복
▁리처
▁마음대로
당초
▁아베
▁스티븐
▁자존
DX
▁수위
▁시크릿
▁트론
▁고등학생
▁곡인
▁망하
▁실현
▁동속
▁부근
▁레이지
▁퍼스트
▁ㅇㅡㄴㅈㅣ
▁카레
▁게이머
▁병역
▁자책점
▁브레이커
베이터
▁공단
▁바르셀
▁사와
▁바르셀로나
▁안타깝
35
▁렘
▁디자이너
▁멋대로
▁DF
▁사리
▁아름
셔널
▁ㅎㅑㅇㅎㅏㄴ
▁드로우
▁엉망
▁마그
▁lv
▁어벤
▁ㄱㅓㄴㄷㅔ
▁제출
▁데이비드
▁메이지
▁문재
▁ㅂㅜㅌㅈㅏ
▁끊임없이
▁ㄱㅏㅇㅎㅐㅆ
▁1981
▁구형
▁1950
▁라이징
▁확산
▁유망주
▁And
▁멍청
▁스텔스
▁할리
ㅍㅏ
▁켜
▁188
▁스탈
동자
▁NM
▁그치
▁BGA
▁우호
ㄱㅎㅕㅆ
▁흔들리
ㄹㅏㄴㄷㅏ
ank
▁쿠리
▁탐지
▁생김새
ㅇㅗㄹㄹㅏ
▁굴리
▁개구리
▁바치
▁원시
▁민간인
▁우울
▁양식
▁존스
▁To
▁부원
ai
▁만능
▁종영
▁침투
▁터보
▁힙합
▁고집
▁목사
▁기부
▁아아
▁레이어
▁z
▁맞붙
운수
▁경호
▁날뛰
▁그랑
▁얇
▁어원
▁1979
▁동전
▁방탄
▁수지
▁디아블로
MAX
▁철저히
틀랜드
우라
▁전남
▁카게
▁px
▁아수
▁후유
▁렉스
▁엔지니어
▁엘레
▁산맥
▁긁
▁작정
▁함장
▁카피
▁머니
▁실체
▁화해
▁브라이언
▁자사
스티벌
▁페스티벌
▁치안
▁변동
▁이스트
▁정신력
▁애완
▁ㅎㅏㄹㄲㅏ
▁투쟁
ary
ero
▁농장
▁니트
▁리본
▁알렉스
▁비추
▁유비트
▁혀
▁첫째
▁몸통
▁쇄
▁로맨
▁가이아
나베
▁간섭
▁매그
▁ㅍㅕㄹㅊㅕㅆ
▁오렌
▁능가
▁요미
▁라그나
▁원숭이
▁뉘
▁중위
바야시
므로
▁실내
▁군부
▁하스
▁압력
▁대역
▁미르
▁간지
▁세자
▁sp
▁Cr
▁ㅍㅣㄹ
▁트랜스포
▁ㅍㅡㄹ
▁Bo
▁함락
▁김준
▁떨어
▁재학
▁토지
▁다카
▁모형
▁ㅎㅏㅂ
비치
스레
▁트레일러
▁세리
▁운송
ng
▁폭격기
▁쿠스
▁크레이
▁입주
▁마하
▁이즈미
▁종결
ㄷㅇㅓ
바이트
군가
▁광기
▁예약
▁사야카
▁템플
아시아
▁ㅁㅜㅇ
▁오더
▁테스
▁ㅌㅡㄹㄹㅣㄴ
▁티스
▁스나이퍼
▁고가
▁금발
▁여섯
▁홀드
레븐
▁시골
▁실시간
▁거지
▁헬멧
▁닦
▁물자
▁Vol
▁계층
▁전향
▁쿵
▁세로
▁퍽
저래
ife
▁출범
바지
리드
▁마미
AY
ich
▁사수
▁아자
▁스카우트
▁이래저래
▁부스
▁압축
▁UEFA
ㄲㅝㅆ
aster
IVE
▁그러므로
▁입문
▁탐색
ㅈㅣㄹㄹㅓㅆ
▁콘텐츠
▁128
▁누군가
네시아
▁삽질
▁펌프
▁광경
▁고고
▁통솔
▁ㅇㅗㅂ
▁납득
▁뻘
▁겜
ㄷㅝ
ree
▁잔혹
▁주관
▁Day
▁반역
▁쿠사
ㅅㅝ
▁밀도
▁신하
▁ㅇㅜㅁㅈㅣㄱㅇㅣㄹ
▁젬
▁깃발
▁ㅈㅓㅂ
▁나폴레
▁스크롤
▁베를
ons
▁항모
▁Ad
▁ㅉㅗㅊㅇㅏ
▁시사
끼리
▁죄책
▁플라스
▁오른손
▁임의
▁표기법
▁민폐
▁en
ㄹㄹㅐ
▁쪼
▁대타
▁소금
▁기질
▁학대
▁영감
ㅈㅝ
▁마산
▁김유
른바
▁젤리
▁트리거
▁마라
▁이른바
ㅋㅏ
▁이모
▁커플링
▁나폴레옹
▁소생
▁군수
▁서적
▁ㅇㅕㄹㄹㅕㅆ
▁갈색
▁부유
▁초콜릿
▁직통
▁캡슐
▁파도
▁대행
▁강경
세우
ans
▁드론
▁닉네임
▁망토
▁무승부
▁엘리베이터
▁파스
▁죄책감
▁흑막
▁스파이더맨
▁ㄱㅏㄷㅎㅕ
라미
▁기껏
▁황당
▁관장
▁친척
▁라이언
리얼
▁수비수
pl
act
▁일렉
▁ㅌㅏㄹ
다보
▁그란
▁간판
▁감탄
부키
▁고사
▁부재
▁시시
▁매출
▁신중
▁아오이
▁실적
▁착륙
▁어나
▁하사
▁트랜스포머
▁도덕
▁WC
▁외국어
▁김일
▁프랜
▁화기
▁러쉬
▁깨끗
▁스타즈
▁ㅈㅡㄹㄱㅣㄹ
▁챔프
▁강대
▁알바
▁개척
▁김진
▁ㅂㅓㄹㅇㅣㄴ
러브
ase
▁방학
▁애용
▁카이저
▁GD
▁정문
▁호의
▁챌린지
렉터
▁엘리자베스
▁죠죠
▁선로
▁ㄴㅏㄹㅋㅏ
▁페어
▁가령
▁육상
▁코토
▁승진
▁위로
▁김치
▁입시
▁판도
▁고아
▁미궁
▁그쪽
▁아이디어
▁오다
▁목걸이
▁츤데레
▁신작
ple
▁ㅇㅓㅄㅇㅐ
▁힐러
uk
▁깊이
▁리리
▁어나더
▁탭
▁손쉽
▁스가
12
▁성분
▁IIDX
▁서방
▁케빈
고속도로
ear
▁공산당
▁출혈
▁마케팅
▁예의
▁미녀
▁아리아
▁스타워즈
▁퇴각
ㅌㅣㄹ
▁이소
▁왕비
ment
▁감자
▁만점
▁ㅇㅏㄴㅌㅏ
▁--
▁시뮬
▁하도
▁와이번
▁짬
▁마피아
▁레아
▁지수
▁침몰
▁워터
▁창문
▁극대
▁이오
▁슬픔
▁오락실
▁가이드
▁검증
▁오페라
▁발레
▁자이언트
▁필리핀
▁덩어리
▁리사
ction
▁혼혈
▁적절히
▁매트
▁카리
▁이병
▁고시
▁샐
▁제노
어트
▁AV
▁쉴드
▁괴인
▁DM
▁김수
▁머스
▁AA
업자
▁디오
▁쿠니
▁라이트닝
▁박자
▁츠카
ㄴㅣㅁ
▁쫒
슬라
▁ㅊㅜ
▁레이븐
ㅂㅗㄴㄷㅏ
90
▁다가오
▁우마
▁모음
▁마에
▁크래프트
▁Part
▁치카
▁합작
▁무제
▁사촌
▁존중
무지
▁연수
▁레이블
▁tv
▁토대
▁마기
▁매각
▁구상
▁어이없
▁노부나가
▁가위
▁닷
▁소꿉
▁드루
▁질서
ㅅㅡ
▁만렙
▁ㅂㅕㄴㅎㅏㄴ
▁현자
좀무
▁흠좀무
▁천국
▁아카네
ool
▁바쿠
▁ㅇㅏㄴㄷㅏ
oon
▁주축
▁구조물
▁One
▁개명
▁모임
▁팔리
▁총합
▁시타
▁리버풀
ode
▁중거리
▁모델링
▁여주인
▁리퍼
▁예쁘
▁복사
▁at
▁라미
▁외곽
▁우연
▁호리
▁유머
▁런처
▁ㅅㅏㅆ
▁원로
▁해운
▁도쿠
▁편리
번트
▁220
▁로키
ㅁㅗㄴ
사랑
야스
▁ㅂㅕㄴㅎㅏㄴㄷㅏ
▁오케
▁공속
▁너스
▁도심
▁왕실
▁유연
▁우측
▁초상
▁글씨
▁고의
▁103
▁박수
▁웨폰
▁앓
▁175
▁변명
▁부사관
▁물려받
헤이
▁ㅋㅐㄴ
▁실용
▁사천
▁찌질
▁연구원
▁톡
▁등극
▁최선
▁승인
VER
▁지분
▁화폐
▁삼성전자
ㄷㅡㄹㅇㅣㄴ
▁장애물
▁NBA
▁명대사
▁부천
▁240
▁서번트
▁스카웃
▁잭슨
▁놀랍
▁오역
▁레코드
▁타이어
▁아사히
▁Ap
▁황후
▁직책
▁포탈
▁표적
▁출동
▁전지
▁FF
▁타일
▁파울
▁뚱
▁감당
▁경찰서
▁ES
▁보좌
▁모듈
▁이카
▁일일
▁적자
▁ㅈㅡㄹㄱㅓ
▁테이블
▁전담
▁ㅁㅜㄷㅎㅕ
▁전날
▁각도
▁명장
▁참사
▁ㄷㅓㅍ
▁체결
▁중부
▁서식
▁LO
▁마야
▁무녀
▁지로
ㄱㅇㅣㄴ
▁재건
▁어시스트
▁노릇
▁힘입
▁1945
▁교리
▁듀오
▁돌연
ㄹㅕㅆㅇㅡ
IR
▁이무
▁암호
▁아수라
AP
▁ㅆㅗㄷㅇㅏ
▁ㅎㅜ
▁자력
ㄷㅜㄹㄹㅓ
▁선동
▁완공
▁ㄸㅓㅆ
▁자존심
▁워드
▁검정
▁네티
▁아마추어
▁쓰리
프리카
▁본능
▁사연
▁천천
▁ㄸㅜ
▁패자
라이언스
▁그릇
▁약혼
▁가담
▁싱가
▁싱가포르
▁오토바이
▁첸
▁NH
▁변수
깨비
▁Sw
▁보가
▁건드리
이동
▁마찰
▁아담
▁뮌
▁얼라이언스
▁미남
▁평상시
▁모순
▁브라더스
▁마일
▁해소
▁철도역
▁ㅅㅗㄱㅎㅏㄴ
은색
▁오니
▁리코
▁신동
▁수천
▁아드
▁ㅅㅑ
▁모종
▁얄
▁점유
▁에미
▁사법
▁민감
ㅈㅇㅓ
친구
▁무능
▁베스
▁리믹스
▁사치
▁마을버스
▁본관
▁답답
▁이단
ㄴㅏㅆㅇㅡ
▁ㅈㅣㄴㅇㅣ
bs
시오
▁유가
▁함수
▁ㅈㅔㄴ
▁까다
▁소우
▁ㅌㅏㅆ
▁해전
▁라인하르트
▁CM
▁달인
▁타카하시
▁농업
▁선출
▁큰
들이
▁홀리
▁트로피
▁온천
▁테일즈
▁흙
▁서열
▁오공
▁말기
▁몸매
▁크로우
▁견해
▁대동
▁퇴치
▁보직
▁알레
▁천장
▁날아오
▁열정
▁아르바이트
러가
▁기차
▁화상
사와
▁남동생
▁nd
▁후쿠시마
▁프로스트
▁이경
▁평론
▁레귤
▁한꺼
▁박정희
▁한꺼번에
ㅋㅣ
▁ㅁㅗㅅㅈㅣ
▁브래
▁타우
▁오로치
▁발판
▁아유
▁그라운드
▁바둑
▁발명
▁입자
▁테리
▁산타
▁맹세
▁맞서
▁부속
▁사무실
▁일관
▁자키
▁접하
▁어드밴
마루
▁전법
▁스트리
▁천천히
▁소마
▁확신
▁112
▁ㅂㅔㄹ
▁공신
▁요격
▁일체
▁카카오
▁비리
▁ㅁㅏㄱㅎㅕ
yle
▁단역
II
▁ㅂㅐㄴ
워프
▁가히
▁카테
▁오렌지
ike
▁트래
▁레나
겨나
▁Man
atch
orn
▁ㅆㅣㄴ
▁리처드
▁이오리
▁너클
▁기리
▁Up
ㄹㅔ
▁재수
▁너머
▁소나
▁헬리
▁ㅁㅓㄱㅇㅕ
▁보편
▁로프
▁펭
▁아레나
▁툭
▁세일러
▁휴먼
▁상냥
▁보로
ence
▁테란
▁에디션
▁최상급
▁로스트
▁곤충
운동
리스타
▁마스코트
▁장벽
생활
▁정점
▁잡아내
다운
▁바이올
▁서울대
▁에메
▁케리
▁필름
▁모스크
▁ㅇㅓㅆㅇㅓㅆ
바르
▁네티즌
▁상무
직자
▁더럽
▁EC
▁빠져
▁천지
▁기동력
▁유격수
▁NO
키스탄
▁ㅌㅡㄴ
▁ㅍㅣㄴ
▁인접
키리
hen
▁국도
▁홋
▁연동
▁흉악
스크림
▁피자
▁억울
▁지혜
▁메구미
▁퀵
▁매주
▁극한
▁협정
▁클리셰
▁혁신
ens
▁서류
▁면제
▁시카고
▁레이싱
iver
▁저글
▁얼티
▁레귤러
▁Ed
▁인문
▁일명
now
▁밀레
▁1978
▁까마
▁노아
▁로크
▁지장
▁탄압
▁상주
▁루미
ph
▁미아
▁ㄴㅗㄴ
▁와타나베
▁선박
▁소득
▁용이
▁이순신
▁인피니티
▁회담
▁이영호
니코
▁베를린
▁도르
▁작위
▁ㄱㅕㄴ
타운
▁다시금
▁미노
▁키요
▁엉덩이
타이
▁마틴
▁히카루
▁신한
▁우루
▁청춘
▁강민
▁욕설
▁계수
▁손님
▁페스
▁아쿠아
▁입증
▁트윗
박스
▁팬티
▁USB
ㄷㅓㄴㅈㅣ
▁이빨
▁장남
▁GM
▁페이크
▁사회주의
▁ㅎㅐㅆㅇㅓ
▁So
▁솔저
▁지터
▁퍼펙트
▁탈취
▁사나
▁헝가리
▁섬광
▁정밀
▁옥상
▁백만
▁자아
▁수신
▁ㅅㅣㅂㅅㅣ
▁드워프
▁크롬
▁격려
▁아포
▁일컫
▁선거구
▁일곱
▁프레스
민주
▁나아가
pt
▁과시
▁일지
▁Mag
▁스틱
▁장본
ail
▁ㅆㅢ
▁발사기
▁스티브
▁트럼프
▁그레이드
구니
▁리가
▁배구
▁쯔
▁부패
▁점검
▁IT
ㅁㅎㅏㄴ
▁ㅅㅡㄴ
▁공격수
▁물리치
▁시호
▁저글링
▁에드워드
어나오
▁과언
▁엇
▁슬러그
▁학사
▁전송
ork
케이션
▁멘붕
▁궁합
▁연설
▁파운드
▁미성
▁소꿉친구
▁블럭
▁RE
ition
▁사방
▁재앙
ㄷㅡㄴㄷㅏ
▁Super
▁귀국
▁펑크
마리
▁치우
▁신곡
토니
▁이현
ㄲㅡㅁ
▁한정판
▁주사위
99
▁골프
▁녹화
체스터
▁OCG
▁학년도
▁ㅈㅏㄴ
▁RA
▁갑작
▁보우
▁공헌
▁흔들
디움
▁인명
▁임진
▁석유
▁up
▁장본인
▁시오
가루
덕션
▁테니스
▁오사
▁토큰
▁제치
▁맞먹
▁DJMAX
▁아지
스카
▁엔트리
▁절단
▁희생자
▁호무
▁BD
▁Fr
▁Ph
▁야망
▁pl
▁무비
▁테크닉
ㄷㅡㄹㅇㅕㅆ
▁퀴즈
바람
▁박성
▁봉사
▁충족
▁오만
▁도깨비
▁박명
▁히사
▁까다롭
▁햇
▁시간대
방송
▁ㄴㅗㅍㅇㅕ
▁자루
▁리부
▁주최
▁카오루
ㄴㅟㄴㄷㅏ
▁코레
▁샬
▁얌
▁웃기
▁루마
▁풍선
▁마당
▁TP
▁에일리
▁ㄷㅗㅇ
▁ㄸㅜㅀ
▁원한
▁억제
▁화신
페이스
세지
▁당초
▁유동
▁까지
볼루션
ㅁㅏㄹㄹㅗ
▁광물
▁네크로
▁스모
▁카인
▁환생
▁라이즈
▁프로그래
▁대학생
▁신관
▁질주
▁이대로
▁편의점
아치
▁자포
▁위시
inal
▁가설
▁저상
▁무식
끄럽
▁흥분
▁라이센스
▁감추
▁모의
▁제재
▁소재지
▁스칼
▁아리스
▁과일
서스
▁유즈
▁ㄱㅓㄴㄴㅔ
▁련
▁김승
▁벙커
▁스윙
▁찬양
▁무실
▁정성
▁반짝
▁플레임
▁조화
▁킴
▁씨앗
▁방심
▁이이
▁엣
▁경북
느리
수리
▁강전
▁리뉴
▁인벤
▁123
▁고자
▁대검
▁동성애
▁내기
▁제리
▁스콜
▁직행
▁그러면
usic
ble
▁목욕
▁기술력
▁김성근
▁ㄷㅓㄴㅈㅣㄴ
▁선회
ㄴㅡ
▁스타트
▁초록색
▁정반대
▁ㄴㅏㄹㄹㅣㄴㄷㅏ
▁SA
▁비단
▁씻
▁국토
▁쌓이
▁타키
▁보르
▁중기
모습
▁캘리
▁이호
▁ㅎㅟㅂ
▁Qu
▁ㅇㅣㄴㄷㅡㅅ
te
지능
▁반도
▁일러스트레이터
▁104
▁스마일
▁인공지능
▁치바
▁ㄱㅏㅈㅊㅝ
▁번지
▁코끼리
▁옴
▁일산
▁야마모토
▁Dream
▁멧
▁제니
▁롤러
▁시종
▁레버
▁프로덕션
▁교대
▁are
▁국방부
▁고우
▁도미
ㄹㅝㅆ
바리
▁급격히
▁1973
▁유아
▁재질
▁지루
▁평판
▁쥰
다드
▁일레븐
▁109
▁리츠
▁포크
▁문양
▁계략
▁이리저리
▁아랫
▁병과
▁잠들
▁나락
▁대명
▁맷집
▁분홍
▁원화
▁프롤
▁카제
▁발각
▁스코틀랜드
▁스타디움
▁소소
▁ㅁㅜㄴ
▁이윤
▁DPS
▁숙청
▁수중
▁케이크
▁의의
전사
▁칼라
▁차림
▁대면
▁세키
▁사이토
▁무자
▁ㅇㅏㄴㄱㅕ
▁동구
▁이쿠
▁중원
▁강릉
▁제너
▁오타쿠
▁135
▁완성도
▁이력
▁쥬얼
▁흉내
▁밀리언
▁히드라
▁ㅎㅡㅌ
사르
▁총장
▁발전소
▁진동
▁Mi
▁토마스
▁샘플
▁아무렇
▁강인
▁명시
▁집계
▁훔
▁ㅉㅣㄹㄹㅓ
▁ㅌㅡ
▁손꼽
▁앤드
▁게르
▁에버
▁트러
▁스토어
▁완화
▁중점
▁레슬러
▁무신
▁155
▁아름답
▁고인
▁상금
▁카토
기에
▁순천
▁여주인공
▁바이크
▁ㄲㅡㅌㄴㅏㄹ
IK
▁도대
▁친애
▁김두
▁굽
▁공교
▁ㅈㅏㅂㅎㅣㄴ
▁여장
▁관료
▁자율
▁과격
▁거꾸
▁학위
▁튀어나오
▁무궁
▁여태
▁라이드
▁피오
▁외야수
▁갱신
▁반경
anc
▁인도네시아
보기
▁가나
▁쏠
▁무늬
▁항공사
▁챔피언십
▁도배
▁완구
▁다케
▁킹덤
▁때려잡
▁침착
▁ㅁㅗㄹㅇㅏ
▁툰
태우
▁뚜렷
▁중견
▁난리
▁ㅅㅗㄱㅎㅐ
▁지오
ㅅㅕㅆ
히토
▁젝
▁관문
▁리볼
천사
▁울리
▁해태
▁AB
▁ㅁㅏㅈㅊㅜㄴ
▁악행
▁체코
▁갯
▁짝사랑
▁하이드
▁스페인어
uck
▁남한
▁휴게
▁발키리
▁국정
▁독보
▁이듬
▁단련
티니
▁사가
테이션
ㅇㄱㅣㄴ
▁각인
▁1200
IL
▁185
못미
▁지못미
TA
PER
▁퓨전
▁갸
▁태권
▁정전
▁조립
▁부가
▁이대
ise
▁go
▁불러
방울
▁ㅇㅘㅆㅇㅡ
ㅌㅕ
▁심히
▁명탐정
▁스탈린
▁wiki
▁강타
▁이틀
▁스파크
의자
▁MM
▁도스
▁뮌헨
의회
▁켄지
▁손잡이
▁아이즈
▁스로
▁몰아넣
▁휴대폰
▁천상
▁신주
▁Ver
▁UP
▁아타
▁사체
▁중구
▁거꾸로
▁1974
▁내외
▁방언
▁연기력
▁공산주의
ㅅㅐ
▁팍
▁민국
▁울음
▁무작위
갈리
▁지온
▁배리
ㄱㅅㅏㄹ
쿠스
▁달려들
텍스
▁AL
▁성지
▁멋지
▁피우
▁찾아내
▁하수인
▁iOS
▁강동
▁시안
▁교역
▁반성
▁중소
▁교도소
▁단자
▁모욕
▁HE
▁찰스
▁창세
▁부제
▁바인
▁썸
▁시네마
▁보강
▁세츠
▁예고편
▁둘러보
▁지크
▁나이츠
ung
▁실리
▁포니
▁JT
무이
▁기관포
▁DI
▁유니콘
▁초등학생
스티스
▁코노
▁라마
▁이계
▁좌측
▁기행
▁릴리스
리칸
▁극심
▁MG
▁tr
▁ㄷㅙㅆㅇㅡ
▁개판
▁냉장
▁구로
▁ㅇㅗㄹㄹㅣㄴㄷㅏ
르타
▁주석
백과
▁도대체
▁아폴
▁향후
▁사천왕
▁입사
▁장갑차
▁야마다
▁부채
▁ㄹㅗㄹ
▁분할
▁간파
▁도약
▁찬성
▁레슬링
▁ㅅㅓㄲㅇㅣㄴ
▁이듬해
▁성대
멘터리
▁뤼
▁엉뚱
▁미유키
▁패왕
vel
▁버블
▁공격기
▁종전
▁극악
oun
▁ㅉㅗㅊㄱㅕ
▁심정
▁필사
▁배급
▁보스턴
에른
▁들키
▁견디
▁폐선
▁CL
▁마징
▁마징가
▁가구
▁소통
▁격렬
▁노하
▁ㅁㅗㄹ
파이
▁노무
▁ㄴㅗㅎㅇㅕ
▁깽
▁앗
▁르노
11
▁신생
▁CR
▁107
▁테이프
▁훼손
▁내각
▁서머
그라
▁유메
▁채찍
▁동아시아
느님
oo
▁유능
▁as
▁깡패
▁은폐
▁Team
▁186
▁결과물
▁래퍼
▁플리
▁비참
▁벨기에
▁BB
에몽
▁장풍
▁눈앞
▁양대
▁그간
▁이니
▁주술
▁중공
▁하느님
▁반장
▁헥
▁할로
▁자산
▁잼
▁미판
▁빈약
▁신학
▁재벌
▁다큐멘터리
▁일리
▁와이번스
▁헤라
way
▁소비자
urn
보우
ㅅㅜㄹ
사스
▁119
▁ㄱㅓㅂㄴㅣ
▁불길
▁김병
▁레시
▁엠블
▁유스
▁all
▁욕망
▁브레스
▁지면
▁인텔
▁초과
▁왕족
▁ㅂㅜㄴ
▁눈동자
▁모던
사벽
▁넘사벽
▁급하
▁잎
▁모시
▁대등
▁얼티밋
▁원작자
▁Black
▁ㅂㅏㄹ
▁탐사
▁1975
▁모기
▁충고
▁중국인
▁no
구역
▁진짜로
▁나카무라
▁벅
▁116
과이
▁취재
▁오퍼
▁정형
은이
0000
▁파괴력
▁이념
▁헤일
▁산소
▁용산
▁필립
▁LTE
▁바이에른
▁인성
▁홍진호
▁조국
▁후대
▁신조
▁주유
gh
▁출고
▁챔스
세서리
▁망명
▁주입
▁스노우
▁ㅂㅔㄴ
▁리우스
▁이원
구나
▁주머니
▁상부
▁사지
▁냉동
▁아울
▁Col
▁집사
더링
▁숙련도
▁나인
▁187
▁문재인
▁사나이
▁버거
▁식스
▁케리건
ale
▁근로
▁델타
진영
노스케
▁낮추
▁math
FL
▁소령
▁시범
▁일례
▁망상
▁쓸데없이
▁라가
▁유라
▁대피
▁추후
▁저항력
▁재즈
▁do
▁Night
▁수립
▁청룡
▁ㅈㅓㄱㅎㅣㄴ
▁날아다니
▁충격파
티어
▁메테
ject
▁순정
▁유치원
▁혼동
속기
▁종착
▁MO
▁성사
▁남학생
▁(
▁ERA
▁비자
시티
▁에코
▁금강
▁종로
▁FPS
▁경상북도
ier
▁주교
중간
▁요코하마
▁리플렉
▁뺨
지않
▁제의
▁퇴역
▁HS
▁구호
▁병행
▁투니
▁통틀어
ㅅㅣㄹ
▁Type
▁말년
▁트러블
▁아처
▁협조
ult
▁어벤져
▁도사
▁동사
▁떠돌
▁절정
▁고래
▁군데
▁키드
▁그루
▁앨런
▁피난
▁주저
▁한양
▁not
▁니코니코
▁대목
▁750
▁리볼버
▁어설
▁다투
▁입원
▁직위
▁다치
▁마가
▁저스티스
▁플라스틱
▁독백
▁영등
▁TS
▁부시
▁해고
▁마작
들목
▁욱
키스
▁~"
▁122
▁고립
▁나들목
▁Girl
ㄷㅓ
▁연전
▁절벽
▁중년
▁욕심
▁투고
▁중심지
▁용암
▁물러나
▁중화민국
▁시어
ㅅㄱㅏㄹ
메다
▁질풍
▁ㅈㅏㅂㅇㅏ
▁소서
▁포도
▁게리온
▁만지
▁113
드립
▁경사
▁연간
DD
▁재배
▁급속
▁동계
▁적립
▁약칭
▁평택
▁레인보우
돌프
▁국기
▁ㄹㅏㄱ
▁오른팔
ㄷㅎㅣㄴ
▁퍼시
▁왕가
니발
▁아인
▁이용자
▁노블
▁밀어내
▁홋카이도
▁카사
▁쿠바
▁카즈야
▁두목
▁빙의
▁진단
▁집필
▁초청
▁말씀
▁1977
▁미코토
슬링
▁손목
▁까마귀
▁유카리
▁beat
▁병장
▁불문
ose
▁격투기
▁내역
▁Gam
▁사투리
▁누스
▁방공
▁이만
▁제자리
ㅅㅏㄹ
▁144
▁1976
▁렀
▁사탄
▁섭취
▁강탈
▁미식
▁완벽히
▁실로
▁희대
▁본질
▁인체
▁포착
▁합계
▁450
▁모자라
▁꼼수
▁떨어뜨리
▁일각
▁스나
▁헐크
상가
▁대교
▁옵티
▁전수
▁Con
▁캇
▁4000
▁불참
▁야전
▁존슨
ox
자치
▁교향
▁승패
▁하후
▁크롤
▁공짜
▁정조
▁저격수
▁한나라
▁ㅂㅏㄱㅎㅕ
▁지극
▁두루
▁조던
▁인플
GA
▁한나라당
▁뮤지션
▁브레이브
▁무실점
ㅅㅓㄴㄷㅏ
▁딥
▁차장
▁베이비
▁ㄴㅏㄹㄹㅕㅆ
▁Max
▁Do
▁미트
▁히로시마
▁안젤
▁공명
▁동상
▁민중
▁염두
able
▁점심
▁탈환
▁320
무르
뮤직
ㄱㅇㅕ
▁하지
▁숭배
▁무지개
▁일조
▁호구
▁ne
▁훈훈
▁빼앗기
▁팜
성이
▁비키
▁토오
▁래스터
▁ㄷㅜㄴㄷㅏ
네이터
▁Op
▁의정부
▁MSL
▁ㅇㅣㄹㄲㅏ
▁ㅁㅏㄴㄴㅏㄴㄷㅏ
ㅈㅣㄹㄹㅓ
▁로렌
▁핑계
▁부산광역시
터스
ron
▁도마
▁검토
▁하행
▁행진
▁도검
▁서치
▁리터
▁ㅇㅣㅂㅎㅣㄴㄷㅏ
▁이태
▁키노
very
▁EV
▁ㅆㅗㄹ
ign
▁리셋
▁오딘
▁속편
▁동인지
▁철갑탄
▁단총
▁152
▁퉁
▁제인
int
▁누이
▁위쪽
▁패미
▁제발
▁틀리
▁김광
▁OF
▁대인배
▁기원전
▁교차로
▁145
▁립스
▁패트
▁사퇴
▁상행
▁터뜨리
▁주식회사
PA
▁처녀
▁세례
▁계곡
▁아랑
▁ㅇㅓㄺ
ㄲㅣㄴㄷㅏ
▁평점
▁사내
▁스톡
▁동호
▁ㅅㅣㄹㄹㅕ
▁경지
▁ㄲㅡㄴ
▁배신자
▁벌써
▁월간
▁후쿠오카
▁BC
▁원자력
▁측근
▁제주도
▁자켓
▁액체
EL
큘라
태자
▁회관
▁냉장고
▁베이징
▁각국
▁화약
고사
▁도라에몽
▁삿
▁사직
▁신세계
▁신칸
▁응급
카미
▁일품
▁앞면
▁데미
▁텔레포트
▁콰
사고
▁맹독
▁조교
▁에일리언
▁사일
▁김전
▁사물
▁남양
▁내뱉
▁쿠르
▁1972
▁황혼
▁전도
▁패닉
퍼드
▁우지
▁레이너
ㄸㅓㄹㅇㅓ
▁ㄴㅘㅆㄷㅏ
▁팰
▁신칸센
▁참으로
▁초필
▁테러리
▁태풍
▁아이디
미터
▁베어
▁사소
▁마초
▁시조
▁수하
▁금요일
▁토가
▁물약
▁토비
▁궤적
▁솔직히
▁KTX
▁타구
▁청나라
▁수감
타니
▁빠져나가
▁랜서
▁ㄴㅏㄹㄹㅣㄴ
▁노골
▁토막
▁시초
▁남미
▁ㅇㅜㅁㅈㅣㄱㅇㅕ
▁콧
▁페르시아
ild
▁인사이드
닐라
▁메디
▁법사
▁키미
▁ㅇㅗㄹㅂㅏ
▁210
▁연이
▁김전일
▁ㄲㅏㄹㄹㅕ
ㄷㅣㄹ
▁거스
▁ㅍㅕㄴㅎㅏㄴ
▁김구
▁더미
▁총사
▁투사
▁밭
▁비비
15
▁더구나
▁부딪
▁정우
▁판권
▁ㄱㅓㄹㄹㅣㄹ
iel
▁아슬
▁La
▁PSP
▁마주치
▁초점
▁주파
▁{{{#
▁대변
ㅌㅐ
ㅁㅓㄴ
▁BJ
▁일환
▁서태
▁브루스
박이
퀘어
▁Gre
드로
▁설마
▁영화제
▁음향
▁카일
▁부동산
▁Am
▁사탕
▁장동
▁두려움
▁볼드
▁해상도
▁스매
쳐지
▁스바
▁윤리
▁코즈
▁ㅎㅘ
▁줄기
▁태생
▁연소
▁격기
▁김지
▁상의
▁관광객
▁ㅈㅜㄱㅇㅣㄴㄷㅏ
▁적이
▁등재
▁서울시
랄드
▁이점
▁저승
▁타리
▁라틴어
▁프랜차
▁나레이션
▁껍질
▁피지컬
▁다니엘
▁객관
▁손꼽히
▁프랭크
하여
▁꿈꾸
▁사극
▁깨알
▁캘리포
▁정준
▁안드로
▁맑
▁보트
▁심야
▁텍사스
▁감금
▁랜스
▁접수
▁프랜차이즈
▁과금
▁바닷
▁안동
▁럭키
▁슬램
ANC
▁어퍼
▁메이트
▁알라
▁연금술사
▁탁월
ㅎㅣㅁ
▁본의
ㅊㅏㄴ
▁핀란드
▁왕후
▁알아내
▁박명수
▁파밍
▁다이스케
컨드
▁선원
▁어서
▁우두
▁ㄴㅏㅈㅊ
▁~!
▁리키
▁디스플레이
▁끊기
▁타스
▁세컨드
▁BM
▁헷
▁주황
▁우미
▁ㅂㅜㄹㄹㅣㄹ
▁비기
▁환호
▁약체
▁컬렉션
▁암컷
▁에필
▁에필로그
부인
▁사우스
▁휩
▁무색
ㄸㅏ
▁치마
ae
▁바이킹
▁목동
▁시뮬레이션
▁보복
▁이별
▁중급
뻐하
▁스팅
▁기뻐하
▁명나라
▁전학
▁캘리포니아
▁주한
▁고질
▁발발
▁165
▁놀리
▁별칭
▁DR
▁공국
▁아쉬움
▁히나타
▁옵티머스
▁팝픈
▁팝픈뮤직
▁GHz
▁개그맨
▁무단
▁보디
▁골치
▁브레인
▁스택
▁아테나
▁Wii
▁잔류
▁탄막
▁어린아이
▁섹스
▁내보내
▁feat
▁타카시
▁ㅂㅏㄱㅅㅏㄹ
▁외관
▁장시
▁노무현
▁십자가
▁강습
▁배후
▁지미
▁ㅅㅡㄹㅍㅡㄴ
▁능숙
▁슬슬
▁카구라
▁구청
▁강점기
▁사슬
▁조르
▁카이토
AND
▁조준경
▁마수
▁마의
▁노르웨이
▁경제학
▁아메리칸
ANI
▁마켓
▁시흥
▁요우
▁CN
▁청구
▁내면
▁저자
▁바나나
ㄹㅡㄹㄲㅏ
▁호응
교사
▁오리진
ㄲㅓ
▁혼인
▁유해
▁ㅋㅕ
▁데려가
▁무수
▁방침
▁1969
▁서바이벌
aby
소총
▁개미
▁신상
▁월등
▁평론가
▁Time
▁UC
▁ㄷㅡㄹㄹㅣㄴㄷㅏ
레이크
▁네이션
▁달라
▁..?
▁rd
보라
▁스네이크
▁술집
▁스토커
메라
▁화석
매니아
▁좌익
▁파우
▁나란히
▁토오루
▁바론
▁ㅁㅏㄹㄹㅕ
ull
gin
▁편견
▁고종
▁교정
▁점멸
▁음색
▁무슬
티지
ical
▁무사시
▁체격
▁1971
▁자작
▁전두
▁드라큘라
▁마지
▁수컷
▁}}
▁문법
STER
▁10000
▁모어
▁투신
앙스
▁필두
..
나리
▁캔디
▁훔치
▁GN
▁계절
▁선인
▁ㅅㅣㅁㅎㅐㅆ
▁격퇴
▁중후
▁질환
▁퓨처
▁뚝
맥스
▁직격
총장
▁풍기
▁드리블
▁로지
▁본가
▁인트
▁협동
▁MHz
▁from
▁관절
▁댐
ㅋㅓ
▁마저
▁유코
▁평등
▁단의
▁신념
▁ㅎㅡㄴㄷㅡㄹ
▁응원가
레일
▁머물
▁순간이동
▁방울
▁엣지
▁라비
▁타치바나
▁후루
▁모스크바
▁펭귄
▁최하
▁주차장
▁반론
▁궁수
▁인구수
▁무슬림
▁덴마크
▁컨디션
철수
▁뉘앙스
▁늪
▁비로
▁자부
▁얹
▁가해
▁멸종
▁정서
▁강아지
▁빙결
▁두뇌
▁미도리
▁레기
빨리
oul
▁마르코
▁마신
▁주공
베트
▁BEM
▁테레
▁일본식
▁아카리
▁부관
▁상장
▁종말
▁관계없이
콥터
▁조수
소수
▁천문
공사
▁빈번
▁KB
▁센트럴
▁테러리스트
▁생태
▁김주
▁양심
▁ㄷㅏㄹㄹㅏㅆ
▁차분
▁가혹
ㄹㅡㅁㅇㅏ
▁오키나
▁위키백과
▁반란군
▁유고
▁에메랄드
▁동등
플렉스
▁헤드샷
▁때로
▁현황
▁기울
▁말레이
▁스파이크
▁징계
▁프로토타입
▁목포
▁DX
▁분포
▁NEW
▁합치
▁성숙
▁제조사
▁Gu
▁벚
▁AFC
▁Gl
▁상어
▁스케줄
▁슬라이드
▁ㄲㅗㅂㅎㅣㄴㄷㅏ
천군
▁우투
▁타당
▁아르카
▁HARD
▁멋있
▁미모
▁수령
▁혼다
▁JTBC
▁파문
▁아마존
▁꼴찌
▁카렌
▁하라
▁서명
▁ㅅㅣㄴㄷㅏ
바스
▁영등포
▁솜씨
▁웨인
▁유유
▁ATK
▁ㅡ
▁발차기
▁콘스탄
▁유진
레슬링
ㅁㅏㄹㄹㅕ
tern
▁프롤로그
▁샤아
▁Ro
재기
▁대쉬
▁수여
▁숙소
▁국산
▁숙주
▁유마
▁스바루
▁샹
▁신병
▁확고
▁벨라
▁이방
▁흑마
▁라우
▁복용
▁TCG
▁ㄱㅕㅂ
▁ㄱㅜㄴㅇㅛ
▁프로레슬링
▁내세우
▁고맙
▁극우
▁나사
▁레오나
▁수수료
▁워낙에
ㄴㅕㅇ
▁하드웨어
▁폐허
▁new
▁이어서
TC
▁로열
▁리부트
▁고음
▁네스
▁매지
▁별자리
ㄷㅗㄹㄹㅕ
▁몹시
▁케로
idth
슬리
▁모함
▁맥락
▁ㅁㅓㅁㅊㅝ
▁근성
▁발톱
▁ㅎㅡㅌㅇㅓ
▁에그
▁예방
▁카테고리
▁하와
▁메세지
▁미끼
▁Co
gr
▁궁전
▁구제
▁미숙
▁보행
▁패드
▁합법
▁ㅂㅜㄹㄹㅕ
▁단말
▁에도
▁회계
▁가해자
▁EU
▁ㅆㅗㄴ
▁ㅁㅏㅈㅊㅜㄹ
▁cl
▁관직
▁헬리콥터
▁BEMANI
▁마마
▁가의
▁응시
▁상대식
▁체형
▁간호
▁ㅁㅏㅌㄱㅕ
▁믿음
▁콕
▁군림
▁우편
▁시가
▁집합
▁파손
▁고발
▁섬멸
▁쟁이
플러스
▁모양새
▁동체
▁외래
▁드릴
▁로컬
▁실장
▁분배
▁이광
레이트
▁Mr
▁노비
▁미스트
▁ㄷㅝ
▁그랜
시스코
ㅂㅎㅣㄴ
▁샤워
▁파격
▁풍경
▁선봉
▁천마
▁ㄱㅓㄴㄷㅡ
▁유신
▁미즈키
▁러시아어
▁할로윈
▁기법
▁지붕
▁전염
▁코지
▁수성
▁오케스트라
▁밧
app
▁생선
ㅉㅐㅆ
▁피카츄
▁정답
▁저기
▁ㄲㅏㄹ
▁기피
▁난민
ough
▁경상남도
▁연의
▁Ser
▁도시락
▁IP
▁출제
▁브론
13
어버리
ERO
▁사르
▁에바
교통
메어
▁ㅇㅝㄴㅎㅐㅆ
▁유방
▁이세
▁중도
▁연고지
▁원장
▁환수
▁푸르
▁단서
▁유정
▁직속
▁IV
▁뛰어들
대교
▁청사
지오
스럽
▁캐스트
▁하이라이트
▁Sk
▁감싸
eel
▁기함
▁루루
▁소집
▁크라운
▁114
▁스트로
▁액셀
▁다가가
▁제우스
▁유선
▁후면
▁UM
▁조력
▁ㄴㅓㅁㄱㅕㅆ
▁캐슬
▁오디오
▁LE
▁격침
▁인쇄
▁가창
▁농민
▁뒤쪽
▁제사
▁width
▁내뿜
▁오쿠
▁can
▁노래방
▁나이트메어
▁배송
▁성명
▁스쿼
▁랙
▁창립
▁다저스
▁소노
▁한층
글라스
▁CE
▁가미
▁미사키
현우
▁부류
▁ㄷㅓㅁ
▁장례식
▁NT
▁제작비
퍼니
▁AF
▁개교
▁박쥐
▁Heart
▁성비
▁이에
▁부사
▁Dark
▁하이브리
▁쓰러트리
▁ㅁㅝㄴㅈㅣ
▁하이브리드
▁컴백
어들이
▁닥치
▁차용
me
▁명곡
▁이인
▁추모
▁Sch
▁츠바사
▁키사
▁ㅎㅗ
▁거품
▁걸음
▁Car
▁ㅆㅓㄴ
▁무선
▁수시로
▁뒷면
▁츠나
ll
통수
▁일삼
▁해변
▁레바
▁응답
▁통수
▁드로
▁오바
▁파이프
▁불쾌
▁히데요시
처럼
▁대니
▁앞뒤
▁안토니
와라
▁지배자
전트
▁상시
▁ㅇㅐ
▁낙선
활약
▁방호
▁페인
▁ㅁㅜㄹㅇㅓ
ㅌㅓㄴ
▁상쇄
▁자각
▁홈즈
▁길거리
려나
▁ㅂㅓㄹㅇㅕ
▁ㅅㅏㅇㅎㅏㄴ
▁버릇
▁알렉산드
ye
▁전례
▁하의
▁레이트
▁ㅁㅣㄹㅇㅓ
▁괴상
▁난감
▁불화
▁브릿
▁명명
▁연세대
▁오비
▁주의자
소문
▁가브리
▁결의
▁뽑아내
▁리프트
ution
▁땀
▁이노우
저것
▁이것저것
▁가마
▁타다
▁로브
▁블랙홀
▁놔
▁PK
▁패스트
지사
▁그제
▁말아먹
▁보고서
▁보루
▁코요
츠카
▁로저
쌔신
▁사각
▁어쌔신
▁Em
▁ㄷㅣ
▁조항
▁즐겁
▁중학생
줌마
▁꾸미
▁손톱
▁UFC
▁ㅅㅡㅂㅎㅏㄴ
▁부친
▁깃털
▁연회
▁클라우드
▁}}}
바시
▁튜닝
▁내구력
무게
▁몸무게
▁아줌마
▁슈터
▁윈터
▁간선
저드
▁노트북
▁교관
▁배리어
▁카이사르
ee
▁천주교
▁Is
▁커먼
▁하시
▁하여금
▁악령
▁원흉
▁BT
▁폴리스
▁ㅇㅕㅆㅇㅡㅁ
▁기이
▁벌금
▁아이작
공화
▁Bat
▁공존
▁제이슨
▁콜로니
▁this
oh
▁강서
▁키무라
▁투성이
▁1968
▁ㅁㅐㄴ
ㅇㅟㄴ
보그
▁성역
▁지각
▁지성
▁산탄총
▁섹시
▁프로리그
▁혹평
▁전광
ings
▁강세
▁발탁
▁아비
▁민병
▁김두한
자재
▁원망
▁줄줄
▁포대
▁김대중
▁마모루
▁SL
▁네코
▁미호
▁시에
▁뚜껑
▁비타
▁공영
▁니나
▁교양
▁아이폰
▁여배우
▁플레어
reak
▁홈경기
▁문신
▁한강
▁컴퍼니
▁괴력
▁뒤통수
▁배우자
▁발현
풀이
▁코타로
▁심화
▁로라
▁ㄱㅓㄴㄷㅏ
▁로비
▁일일이
▁자주포
▁냅
듈럼
▁라프
▁시궁
▁주가
▁발렌타인
▁사범
▁상공
▁라임
▁오시
▁시스터
▁초상화
▁동북
▁미들
▁깽판
▁북아
▁오프라인
▁코바야시
▁보잉
▁무림
▁듀크
▁선포
▁면접
▁적성
▁하우
▁핸들
▁EBS
▁가라앉
▁행방불명
▁리자
▁센티
▁재활
▁전라남도
▁감성
▁뒤지
▁빅토리아
▁TO
▁고토
▁우가
▁타케시
▁방화
▁폭로
▁저서
▁포맷
▁ㅃㅗㅂㅇㅏ
단지
▁달라붙
▁기합
icro
▁캐리어
▁ㅇㅝㄴㅎㅏㄴㄷㅏ
▁꽁
▁총독
두사
▁Su
▁암울
▁슬라임
▁열악
▁증발
▁져
▁유난
▁김일성
▁펜듈럼
ict
▁테루
▁허브
▁ㅆㅏㅎㅇㅕ
▁직결
▁로맨스
▁전두환
▁ㅎㅏㄹㅅㅜ
▁맨체스터
니클
▁문고
▁남발
▁그랑프리
▁친목
CH
▁시코
▁연달
▁캡콤
▁저조
▁처절
▁교통사고
▁~~
▁당나라
▁나열
▁랜턴
▁도타
▁둥지
▁앵커
▁실력자
▁야만
▁환사
▁203
▁십자군
▁Light
▁뱉
▁외면
▁꿰뚫
노기
▁자위대
▁짤방
▁성직자
▁펴
▁책임지
▁우두머리
▁ㅅㅗㄴ
▁운석
▁계란
▁미세
▁오키나와
▁맹활약
▁ㅈㅏㅂㅎㅕㅆ
▁이행
▁침해
▁요리사
▁대외
▁스텔라
▁듀스
▁안무
▁솟
▁회로
▁요시다
▁뭔
▁무협
▁ver
▁Kore
ors
▁요시노
▁Im
▁사이보그
▁이치고
장난
▁레즈
▁개막전
▁박치기
▁직역
▁ㅁㅏㅇㅎㅏㄴ
▁단식
▁연막
▁수영복
▁LED
▁북두
▁테오
▁구절
▁부처
▁ADV
mania
ㅇㅜㄴㄷㅔ
▁힌트
▁샤프
▁신수
▁애국
▁넉넉
▁마사키
▁켄이치
▁GTA
▁럴
▁자칫
▁Sy
▁코디
▁117
▁개개
▁공고
레드
▁127
▁프랑켄
▁BO
셉트
▁ㅍㅜㄹㄹㅣㄴ
▁변호
▁어드밴스
▁냉전
▁사료
▁뉴질
▁적재
▁뉴질랜드
▁ㄷㅏㅁㄱㅕ
▁ㅈㅣㄴㅈㅓ
▁착지
▁파랑
▁케이지
▁볶
▁Ev
▁고속버스
무네
▁AE
▁롤링
▁성수
▁혼합
스트림
▁126
▁배속
▁어미
▁184
▁ㅈㅣㄴㅈㅓㅇㅎㅏㄴ
▁물가
▁괴리
▁실바
▁죄수
▁꿇
▁잔해
▁pro
▁푼
▁도요
▁다스리
▁그리하여
▁파고
▁므
▁여관
▁줄어드
민주당
▁ㅁㅛ
ACK
ㅁㅏㅇㅊㅕ
▁추적자
▁쫄
▁공모
▁메모
▁이사장
▁타나카
▁영미
▁확립
▁고조
▁번갈
▁호쿠
▁야쿠자
▁ㅈㅏㄹㄹㅕ
▁대안
▁아이스크림
▁스퀘어
▁사쿠라이
▁ㅁㅜㄹㄹㅣ
▁김윤
▁땅볼
▁장신구
모어
토랑
▁기쁨
▁고든
▁레스토랑
▁라파
▁제지
▁야마구치
▁찰나
14
▁담임
▁특훈
▁왓
▁그려
▁빈틈
▁수용소
▁드레드
ics
▁우상
▁지극히
더슨
▁플래닛
▁먼지
▁신이치
▁자회사
▁진로
▁자격증
▁실루
▁max
▁동족
▁서리
▁앤디
▁좌파
▁속력
▁수확
▁시부
▁ㅁㅜㄲㅇㅕ
▁ar
▁대법
▁만행
▁따라잡
▁어벤져스
치아
▁하반기
▁will
▁군복
▁니카
▁블라디
▁줌
▁금고
▁비로소
일라
▁병종
▁설화
▁ㄸㅔ
▁크리스토
▁정체불명
▁셸
▁무진
▁유타
▁유토
▁설탕
▁ㄴㅡㄹ
▁유무
▁간호사
▁휴게소
▁속이
▁중앙선
▁183
▁ㄱㅜㄹㄹㅕ
▁GPU
디스
▁온몸
▁해역
▁저렇게
▁감기
▁화소
주의자
▁테르
▁DNA
니카
야샤
▁이누야샤
휴일
▁호프
▁178
▁스크래
▁인어
▁가브리엘
▁공손
▁광전사
▁As
▁버터
▁실업
▁아이유
▁중전차
▁불평
▁기괴
▁영화판
산동
▁팩션
▁ㄷㅓㄴㅈㅕㅆ
▁이준
▁지주
요환
▁김연
▁내셔널
▁스쿼드
▁명작
▁사스케
▁퓨리
▁1967
▁대대로
ㅇㅎㅏㅁ
▁오덕
▁쾌속
▁통보
▁ㄱㅓㄹㄲㅏ
▁무겁
▁미수
▁연말
코어
▁과감
▁리쿠
▁실정
▁ㅎㅏㅂㅊㅣㄴ
▁텀
무기
▁놔두
▁후타
▁트레이닝
▁동년
▁Let
▁심상
▁중재
ex
▁HG
af
▁못지않
▁ㅇㅣㄹㅅㅜ
▁클레이
▁창세기
▁섀도
▁당국
▁마비노기
▁여수
▁데스티니
▁무궁화
▁접점
▁시가지
▁포트리스
▁WH
▁성기
▁마장
ammer
소년
▁걸어가
▁프린스
▁us
▁슈가
▁임요환
▁헤어지
▁상용
즈마
ㄹㅡㄴㄷㅔ
▁Of
▁샤크
▁ㅅㅣㄴㅈㅣ
마치
▁세미
▁Red
▁물리학
▁사망자
▁로코
▁Your
▁ㄱㅖ
▁운반
▁책상
▁태조
▁182
▁코이치
▁넵
요이
▁수량
▁ㄷㅝㅆ
IGH
▁사모
▁토트
▁호스
▁농협
▁신주쿠
퇴근
▁출루율
▁급기
▁루터
▁MX
▁이성계
르도
▁괴담
▁총선거
▁무명
▁오의
▁ㅊㅜㄹ
▁게임기
▁부평
▁사교
▁순찰
▁샤를
▁베이더
▁엄폐
▁치루
▁농락
▁비꼬
▁시엘
▁우체
▁ㄱㅏㄴㅈㅣ
트랙
▁냉기
▁골목
▁진수
▁페이트
▁제프
▁168
▁대중교통
▁카우
▁ㄴㅜㄴㅊㅣ
▁ㅂㅓㄹㅇㅣㄴㄷㅏ
▁리바
▁자판
▁사이퍼
▁Rock
▁인터페이스
▁스크래치
▁끓
▁른
▁호로
▁황실
▁계열사
▁레시피
▁키즈
▁내정
▁단과
▁예비군
▁매스
▁아깝
▁아몬
▁고속도
▁단속
▁바티
▁타니
▁LIVE
▁ㄱㅓㄹㅊㅣㄴ
che
▁Tw
▁ㅂㅓㅅㄱㅕ
▁법무
ica
▁이선
▁하비
▁..!
other
ody
▁더욱이
▁FW
▁행하
▁공휴일
▁박종
▁농사
▁후일담
쿠로
▁사출
▁플루
▁밈
테이
▁습관
▁찰리
▁오세
▁시궁창
▁ㅁㅏㄱ
▁세세
규모
▁1963
▁ㅁㅏㅇㅎㅐ
▁키바
▁330
▁브라더
▁통행
▁서해
▁한도
▁유난히
▁이노우에
르바
▁염색
고래
▁타국
▁페가
▁제스
LS
▁리턴
▁셋째
▁출중
▁ㅇㅏㄹㄹㅕㅆ
▁고성
▁전임
▁Don
▁해적단
아슬
▁아슬아슬
▁성형
▁관동
▁달콤
▁브랜
▁주고
ㄷㅗㄹㅇㅏ
▁열등
▁Min
▁낡
▁ㄷㅗㄷ
애나
▁다면
▁커트
16
▁경찰청
▁통신사
▁신임
▁막부
▁유니온
▁ㄱㅏㅆㅇㅡ
▁카노
▁코프
▁진리
oth
▁본디
▁수식
▁코다
▁파수
▁시련
▁Sun
▁러너
▁추출
변이
자동
▁돌연변이
▁졸개
▁부흥
▁ㅇㅏㅍㅅㅓㄴ
▁ㅁㅏㄴㄷㅡㄴㄷㅏ
▁듀티
▁키트
▁피드
▁륙
▁애쉬
▁클레어
▁하세
▁소설가
▁아즈사
▁용의자
▁하야토
▁혹사
▁have
▁나뭇
▁분장
▁카오리
▁오인
ins
▁고릴라
▁라바
▁클러
▁이명박
▁불로
▁블래
▁핸드폰
정역
▁이질
▁통증
▁정립
▁장편
▁2500
▁탄탄
▁코나미
▁ㅊㅐㅇㄱ
▁복싱
현진
▁단테
▁학점
▁SCP
▁치사
▁그려지
투표
▁쿠루
▁선수단
▁신대
▁가르침
말리
▁미하
▁독립운동
▁결사
ㅋㅕㅆㅇㅡ
▁MK
▁줄리
▁춤추
레인저
▁공습
▁조폭
▁스캔들
▁ㄱㅜㄹㄹㅓ
▁도호
▁ㅎㅏㄴㅎㅐ
▁그립
▁멀쩡히
▁퐁
더기
▁모범
▁162
▁TOP
▁고폭탄
▁푹
▁접근성
▁브라우
▁외우
▁꾀
▁탐구
미르
ㄹㅓㅆ
▁진구
▁자질
▁BAS
▁좌석버스
▁ㅎㅑㅇㅎㅏㄴㄷㅏ
▁동탁
▁Rev
▁감행
▁준하
▁클라이
기어
▁OB
▁방안
▁정명
▁ㅁㅏㅈㅁㅜ
▁제대
▁미티
▁출연진
로프
티콘
▁함포
▁야심
▁정교회
▁애프
▁애당초
▁전속
ㄷㅡㄹㅇㅣㄹ
▁대국
▁필터
▁연예계
▁UF
▁단정
▁진도
▁극소수
▁브이
▁임관
▁통용
▁군기
▁근력
▁미스터리
▁가급
▁하타
▁ㄷㅡㄴㄱㅏ
려워하
▁자유자재
▁리전
▁매너
▁쏟아지
▁ㅇㅗㄻㄱㅕㅆ
▁카무이
agon
▁호출
▁깨어나
ㅁㅏㅇㄱ
▁증권
▁ㅇㅕㄹㄹㅣㄴㄷㅏ
카즈
▁ㅈㅐ
▁에로게
스틴
▁158
▁트로이
▁Per
▁대명사
▁미성년
▁구타
▁세일
▁악곡
▁굶
▁판사
▁Sum
▁끌려가
▁재빨리
▁승려
▁실루엣
▁석상
▁한발
▁인맥
케인
▁장학
▁형편없
프라
▁소매
상가상
▁박살나
▁월요일
▁ㅁㅜㄷㅎㅕㅆ
▁설상가상
재판
▁월급
▁마이어
▁프로모
▁STER
GB
▁어인
▁연방군
평가
ㄹㅣㅂㄴㅣ
ㅊㅝ
▁샤오
▁카가미
▁사우루스
17
▁살상
▁Gen
▁ㅌㅐㄱ
▁ㅂㅜㅌㅇㅕㅆ
▁TEC
▁제다이
▁am
▁바닐라
▁볼텍스
▁호박
▁beatmania
▁Sl
▁바주
▁태자
▁특촬
▁내밀
▁연발
▁교내
▁출퇴근
ECT
▁패기
▁후문
▁후예
▁노기
▁비즈
▁토이
▁애시
▁성폭
▁게임즈
▁1944
▁이례
▁징징
▁ㅁㅜㅇㅊㅕ
토시
▁박탈
▁서킷
▁책정
▁트렌
▁one
ater
▁딱딱
ㅇㅜㄹㄹㅣㄴㄷㅏ
▁경연
▁누명
▁시몬
▁장병
▁충남
▁엎
▁DO
▁수강
▁하지메
▁격전
▁삼촌
테리
▁루키
▁파벌
▁숏
▁디렉터
▁마이트
▁1966
▁신흥
▁동래
▁일어
▁멀리서
▁동봉
▁발칸
▁일절
▁태종
▁닉스
▁라드
ium
▁커비
▁레지스
▁독수리
▁이치로
▁고어
▁가토
▁복음
▁우파
▁베인
▁세스
▁단골
▁얼터
▁열세
티노
▁분기점
▁소규모
▁OK
▁신정
▁태극
▁love
패스
▁홍성
▁132
▁벡터
▁세탁
ions
▁대군
▁하워드
▁ㄲㅏㅆ
▁사사키
두리
▁ㄲㅣㄴ
▁ㅇㅓㅍ
▁ㅍㅐㄴ
▁데려오
▁재고
▁배기
▁한몫
▁갈리아
▁선우
클린
▁도쿠가와
▁벚꽃
▁사에
▁되돌리
▁패미컴
▁ㅅㅣㄹㄹㅣㄴ
▁자처
▁레이터
DS
그룹
기지
▁LOVE
기사
▁전열
▁토네
▁자카
▁ㅅㅏㅁ
▁당주
▁영동
▁전세
▁질량
▁음주
▁승급
▁소사
UR
심장
▁159
▁빅뱅
▁ㅇㅜㄴ
▁징크스
▁리티
▁샴
▁대공포
▁입양
▁청와
▁탄소
▁절규
▁서대
▁네놈
▁히카리
▁하카
▁공성전
▁입국
▁로저스
▁카를로스
▁셉
▁건재
니즘
▁돋보이
▁그리스도
▁반다이
▁유대인
▁반군
▁133
▁DT
▁성벽
▁얼핏
▁돌보
▁집회
▁카린
▁와이어
▁뽕
▁리엘
ㅊㅐㄴ
ould
▁출근
▁사용자
▁최정
▁High
▁발악
port
▁말장난
▁천둥
ㅍㅕ
▁술법
▁Oh
▁동조
▁박찬
▁아래쪽
▁PL
▁124
▁오너
파크
▁리에
▁필연
▁EXT
▁시그마
▁아폴로
▁동갑
ange
미즈
▁배율
▁퇴사
▁바주카
▁구단주
▁액세서리
▁나고
▁동문
▁사당
▁시즈카
▁가변
▁IDOL
▁냉각
▁대본
▁러닝
▁김택
▁번식
▁제식
▁경보
▁FX
▁공방전
바다
▁서민
ott
▁본성
▁게릴라
▁인천광역시
▁악어
▁베가
▁데우스
▁싣
▁HK
▁기온
ㄴㅘ
▁태미
▁블레이즈
▁학급
▁어그
▁픽셀
▁마크로스
▁퇴출
▁방송인
▁크로니클
프란
▁모닝
▁직구
▁구급
▁우물
▁마이너스
les
▁상가
▁슈퍼스타
▁셰프
▁사다
▁마운트
▁프로그래밍
▁Par
▁넘어지
▁부드
▁ㄱㅏㄹㄹㅣㄴㄷㅏ
▁미로
▁허공
▁ㅇㅏㄱㅎㅏㄴ
▁사로
▁280
▁ㄷㅐㄴㄷㅏ
▁ㄲㅡㅌㄴㅏㅆ
▁광대
▁박영
▁흑화
어붙
▁동요
▁조직원
▁ㄱㅏㅁㅊ
▁의아
▁최대치
▁ㅁㅗㅅㅎㅐㅆㅇㅡ
▁BW
▁EM
니스트
▁MLB
▁1962
▁반항
▁비장
▁주술사
▁파이브
▁짚
▁묻히
▁세레
ator
파리
▁밀집
▁부도
노미야
▁156
▁분쇄
▁가로막
▁차선
▁악용
▁결함
IE
▁데카
ㅈㅓㅇ
▁1940
▁흩
▁경질
▁악랄
지부
▁br
▁배상
▁계좌
▁인기투표
▁볼륨
▁힐링
▁ㅇㅞ
▁연비
▁스칼렛
▁드루이드
▁El
어찌
▁학번
ㄷㅊㅕ
▁무죄
▁반말
▁Ang
▁Master
▁was
▁광복
▁기소
▁Arm
▁코카
▁일렉트로
▁ㅇㅜㅅㄱㅣㄴ
▁총열
▁함재기
▁복도
▁청와대
▁뷔
▁헌데
▁원호
▁지그
▁흡연
즈카
어먹
▁런닝
▁제시카
▁퍼센트
▁넘어서
▁필라
▁한탄
UT
▁심슨
▁파인
▁230
▁현상금
▁다이노스
ㅇㅡㄹㅈㅣ
▁거칠
▁허세
란트
▁무안
▁ㅂㅣㅅ
▁전편
▁GG
▁관념
▁금색
▁실습
▁기라
▁끝장
▁시간표
▁어찌어찌
▁RP
▁나츠미
▁성서
▁체질
▁118
▁여고생
▁이승만
인간
▁구두
징어
▁실황
▁체스
▁카도
▁토로
▁배열
▁아이언맨
18
▁정재
▁가성
▁광탈
▁추궁
▁운운
댓말
▁광속
▁ARM
▁존댓말
▁감히
▁기술자
▁장타율
널드
나드
▁메테오
▁ㅁㅣㄹㄹㅣㄴㄷㅏ
▁밋
▁138
▁터미네이터
▁가두
▁콜드
▁경쟁자
▁달려가
▁접전
▁ㅍㅕㄴㅎㅐ
프레스
▁헷갈리
▁취지
▁자드
▁펠리
ㅈㅏㅇ
▁ㅇㅓㄹ
▁포워드
▁화자
▁퓨어
▁열풍
▁소실
ICE
▁대패
▁텅
▁스매시
19
▁두르
▁노이즈
▁베일
▁성도
▁남작
▁회오리
꿈치
▁동로
립트
▁네이트
▁문어
▁웨어
▁ㅇㅜㅁㅈㅣㄱㅇㅣㅁ
▁게시물
▁이용해
▁페미니
▁훅
▁전반기
▁똑똑
▁바우
▁돌려주
▁히노
▁치명상
▁팔라딘
▁비시
▁탯이
▁라오
▁심문
▁장안
▁콘셉트
▁리조
▁강수
▁탄도
▁차후
▁Sec
▁경성
▁수험
▁알렉산더
▁ㅁㅜㄹㄹㅕ
조합
▁공로
▁불신
▁148
▁수상자
▁시저
▁악세
▁점사
▁ㅌㅏㄴㄷㅏ
▁마에다
▁당첨
▁카탈
▁계시
▁어느새
▁하렘
▁운항
▁이진
▁얼어붙
▁1930
▁말레이시아
▁해독
▁Fire
▁호노
▁토마토
▁ㅂㅜㄹㅌㅐ
▁국당
▁까닭
▁섬기
▁억지
lect
▁효과음
▁소시
▁학술
▁안산
▁ㅆㅗㄴㄷㅏ
날드
▁안면
▁분홍색
alk
▁경유지
▁서울역
▁스콧
▁위화
▁제정신
▁교시
▁로망
▁호전
▁넥서스
▁빌보드
▁메소
▁콜롬
▁스플래시
크리
▁급기야
▁원활
밀리아
▁드라군
▁성모
▁cc
▁얕
▁부드럽
▁수준급
▁550
▁영남
▁ㅎㅔㅅㄱㅏㄹ
▁CA
▁말미
▁스타팅
칼리
▁반대편
▁셜록
▁지상파
▁가명
▁김선
▁구마
▁소동
니스탄
▁급히
▁자손
olution
▁랩터
▁상권
▁하츠네
▁망가지
▁대출
▁조운
▁이마트
▁렀다
▁풍자
르기
▁ㅃㅐㄴ
리우스
▁균열
▁넥슨
▁바이올린
▁제라
▁007
▁간략
▁북구
▁축적
▁지휘자
ty
▁시중
▁일쑤
▁군사력
▁루마니아
▁원고
▁제르
▁대표작
▁가뜩
▁일보
land
베리아
▁제멋
▁백합
▁스피커
▁pr
▁왕관
▁초래
▁270
테스
▁정류소
▁머릿
엘라
▁제단
▁kr
▁김원
▁염려
▁고추
▁보증
▁부호
▁개개인
▁악의
▁야시
▁체이
젤레스
▁아야카
▁style
▁나나미
▁프로세서
▁레프
▁이아
▁팔찌
▁나고야
▁""
ㄲㅟㄹ
▁이시다
▁반기
▁ㅍㅏㄴㄷㅏ
▁발광
▁가뜩이나
▁ㅋㅣㄴ
▁스피리
▁모친
▁채취
▁172
ony
▁최면
▁외래어
▁그놈
▁디펜스
▁발라드
▁에이전트
▁호르
▁주황색
▁1964
▁금호
▁창시
▁딸기
▁피처
▁테이크
▁숀
▁서초
▁sm
▁경과
▁가축
▁병단
방향
▁FB
▁전폭
▁ㅅㅣㅀㅇㅓ
▁안드로메다
▁양보
▁저리
▁대용
▁제원
▁급식
▁ㅁㅏㅈㅁㅜㄹㄹㅕ
▁Li
▁so
▁고산
▁국력
▁춘천
▁레이첼
▁에리카
▁커터
▁키리토
▁열받
▁피에
▁궁지
▁일련
▁오징어
▁다단
▁투하
축구
▁안성
▁진행자
▁해운대
▁할리우드
▁프리즘
수스
▁리브
▁예언자
▁도피
▁안드레
▁대마
테이너
▁바비
▁BRV
▁파파
▁컨트롤러
pr
마침
▁라시
▁편대
▁항아리
▁메탈기어
▁프로모션
▁초교
▁호투
▁쿠시
▁조력자
▁스탠다드
▁우산
▁정정
▁튜너
▁회고
▁회화
▁우크라
▁양국
▁정확도
▁뮬
▁열전
▁브릿지
▁이나즈마
놀이
▁우천
▁설비
▁임원
▁체가
▁가급적
▁마츠모토
▁가넷
▁자잘
▁Rem
▁ㄹㅜㄴ
▁때마침
▁카지노
▁병맛
▁Dis
▁테일러
▁노숙
▁샤이닝
▁Blue
▁메가트론
▁바하
▁유나
▁코파
▁포효
▁Power
▁1965
▁블래스트
▁시력
▁와우
▁아테네
▁ㄷㅏㄹㅇㅏ
▁153
▁무작정
BM
ert
▁체크카드
▁떄
▁천공
▁피치
클럽
▁XY
▁덩크
ㅅㅐㅇㄱㅣㄴ
▁Fi
▁들여
비우스
홍철
▁무제한
▁주범
▁초코
▁개드립
▁열람
▁프론트
▁Good
▁로그인
▁ㅌㅡㄹㅇㅓ
차례
▁FL
▁군함
▁천적
▁177
▁Champ
▁로딩
▁스위트
▁지표
▁ㅍㅜㄹㄹㅕㅆ
▁솔리드
▁히로유키
▁로제
▁야외
▁은혜
▁퍼붓
▁하드코어
이프
▁증세
메스
▁칠레
게임넷
▁스타크
▁주고받
▁온게임넷
▁복면
▁쇠퇴
▁총격
ㅇㅓㄴㅈㅓㅇ
▁나기사
▁뇌물
▁도리어
▁카디
▁양키스
▁오버로드
포드
▁바그
▁na
▁주거
▁목적지
▁프런트
▁씌
▁제휴
▁귀도
▁마도사
▁불리우
지르
▁예지
▁대주
▁증기
▁창업
▁바사
▁여의도
▁체리
▁우체국
▁건전
▁공과
▁기총
▁영진
▁Pv
▁도청
▁슬리
행위
▁바니
▁밀어주
▁넵튠
▁리마
▁SO
▁ALL
▁쓸데없
▁ㅁㅣㄹㄹㅕㅆ
▁휴일
▁생물학
▁벌리
▁자취
▁충청남도
이센
▁주파수
OID
▁발상
▁코시
ㄷㅏㄹㄹㅕ
관총
▁경매
▁교향곡
▁얀데레
▁용감
ㅅㅂㅗㄹ
▁여권
▁저격총
▁보리
▁진에
▁원제
▁소행
라이즈
▁사용법
왜란
▁BA
▁ME
▁타쿠미
▁수작
▁쏠쏠
▁집정
▁천계
▁STR
▁민원
▁mar
▁우루과이
▁Sm
▁동창
▁르네
ㅋㅣㅂㄴㅣ
▁ㄷㅐㅆ
▁임진왜란
▁적색
▁완전체
▁%.
▁개연
▁소극
▁해수
ㄴㄱㅏ
▁프리스트
석민
▁서장
토리얼
▁레이나
▁그리드
▁상표
▁부대원
▁ㄷㅏㄹㄹㅕㅆ
ART
▁Play
▁야당
▁재직
▁종사
▁출석
▁코이
라이나
▁글러브
▁ㄷㅓㄴㅈㅣㄴㄷㅏ
tr
▁강유
▁탄핵
▁튜토리얼
▁기성
ㄹㅏㅂㄴㅣ
▁방정
▁열기
▁260
▁슬로우
▁GDP
▁스파르타
▁맥도
▁산악
▁서드
▁기미
▁눈빛
▁박재
부대
▁러셀
▁미정
▁ㄸㅏㄹ
ㅅㅏ
▁박경
▁생산량
▁단백
▁병살
▁상속
▁엑소
▁입체
▁폴더
▁북유럽
▁지망
▁횡단
▁카스미
▁경량
▁ㅆㅓㄹ
▁프론티어
▁???
▁바이스
▁양측
▁EMP
▁초사
▁포식
▁적진
▁미츠루
▁카타르
히사
▁사슴
▁학계
▁갭
같이
▁미시
▁두려워하
토르
마당
스트로
▁청량
▁샌프란
▁샌프란시스코
▁다이어트
▁아의
▁팀장
▁괄
▁첨단
▁후유증
▁금화
▁심심찮
▁적시타
▁프리즈
버릇
▁리트
▁친정
▁ㅇㅣㅂㅎㅣㄹ
▁송도
▁독재자
▁650
▁어리석
ㄲㅜㄴㄷㅏ
▁정벌
▁호기심
▁감전
무장
▁내수
▁다툼
▁다이나
ERS
▁밀란
▁페더
▁송출
▁지문
▁나데
▁마커
▁137
▁연금술
▁돌격소총
▁맞대
25
▁아카이
▁WCS
▁당당히
장이
▁개더링
▁Dance
▁실명
숨에
▁지령
▁단숨에
▁토네이도
▁마더
▁소심
▁루시퍼
내리
▁만화책
▁엘더스
▁Over
▁동지
▁선대
의사
▁유목
▁초토
▁원천
▁매수
▁부메
▁크루즈
▁레몬
▁적발
▁텔레비전
▁속옷
▁부츠
▁서독
▁충공
▁157
▁카르마
▁ㅇㅏㅍㅅㅔ
▁ㄴㅗㄹㄹㅏㄴ
ㅍㅓ
▁원종
▁세르비아
▁부메랑
▁대사관
▁슈타인
버드
▁154
▁179
▁CO
▁부당
air
▁Ac
▁ㅇㅠ
▁Str
▁경감
▁Ke
▁중성
▁쫓기
페르
베르트
▁황무지
▁토트넘
▁확연히
▁정장
▁미니언
저우
▁대문
▁스윕
▁취직
▁내야수
▁겸하
▁광신
틀링
▁매달
▁파산
▁164
▁공립
▁금곡
▁카즈키
무실
▁독서
▁섬유
▁회귀
▁장기간
▁미성년자
▁ㅆㅏㅎㅇㅣㄴ
▁금서
▁사임
▁공동체
▁생사
▁연습생
▁무전
▁박상
▁징병
▁ㄴㅗㄹㄹㅏㅆ
▁Music
▁덥
oot
▁단간
▁미디
▁왼팔
▁텔레콤
▁삽화
라이어
▁가출
▁Ep
▁Kn
▁출몰
▁우메
▁털어놓
▁깁
려드
▁유서
▁129
▁DDR
지리
▁금기
▁입맛
▁어처
ittle
▁양주
▁표식
▁최우수
ern
▁기판
▁친일
ㅇㄱㅏ
▁방황
▁ㅂㅡㄴ
▁직무
▁쇼트
▁드리프트
▁우기
▁225
▁부딪히
▁파워레인저
▁편안
▁기밀
▁트리스
▁광범
▁창병
▁ㅈㅓㅁ
▁겨루
▁팀킬
▁현명
매치
▁NL
▁설득력
▁와타루
▁데스매치
▁떨구
▁민영
▁본국
▁메스
▁교란
▁양호
레트
▁심리학
▁NHK
▁오리온
▁휘말리
산물
▁은혼
▁공병
▁만료
▁초식
▁씁
▁괴도
▁오반
▁콘티
▁한심
▁세간
▁ㄹㅕㅆ
▁아이리
▁김형
▁망령
▁폭사
▁ㅍㅛ
▁콜라보레이션
▁택배
▁대각
▁전용기
▁깎이
▁쓸모없
▁NS
▁바시
▁퍼부
▁툼
▁'''
▁만화가
AG
▁서점
▁수복
▁왠만
▁켄타
▁텍스
▁ㄴㅗㄹ
▁손바닥
▁지역구
▁쐐
▁네타
▁우로
▁최영
▁선진국
▁발간
▁순진
▁홀딩
셔츠
▁내륙
▁저상버스
▁천황
▁강적
▁역과
▁두부
▁Pre
▁개틀링
▁북방
▁젊은이
▁윌리엄스
▁ㅂㅏㄱㅎㅣㄴ
▁불멸
▁고령
▁머무르
▁스코프
▁펙
▁>,
▁솔라
ㄱㅅㅡ
▁Comm
▁어처구니
▁ㄲㅡㅌㄴㅐ
▁그닥
▁마차
천역
▁티탄
▁ㅈㅏㄱㅇㅣㄴ
▁광범위
▁ㄴㅓㅁㄱㅣㄴ
▁중령
▁후궁
▁1800
▁변질
▁평민
▁방벽
▁글래
▁박격
▁걸스
▁비범
바위
▁Korea
▁256
▁기타리스트
▁서정
▁장동민
hammer
▁쑥
▁RC
▁리액
▁포지
▁산책
▁핵무기
▁허리케인
▁흘러가
▁모호
▁에덴
▁예명
▁카자마
▁잖
▁유행어
oss
▁대진
▁클로즈
▁포토
▁이승엽
▁MR
▁곡선
▁좌표
▁FR
▁진료
▁육박
▁End
▁베이스볼
▁뫼
마츠
▁백미
▁사이언
▁하와이
ield
▁공익
▁토하
ㅇㅗㄹㄹㅕ
▁서커스
▁ㅂㅜㅌㅈㅏㅂㅎㅕ
동원
아서
ENT
▁라이터
▁충성심
▁재위
▁화수
▁Leg
▁out
아라
▁두드
▁범행
▁칙
▁김명
▁케이트
▁가솔
▁파장
▁검은색
▁LCD
▁ㅎㅓㄴ
자카
▁아란
▁134
▁139
▁쿄스케
▁불사조
▁목재
▁자진
▁코지마
▁신디
▁Life
▁스냅
▁점거
RAM
대기
결승
eng
▁색채
▁첫날
▁163
▁VOC
▁튕
▁중사
▁EXH
▁쩔
▁견인
▁999
▁136
▁사토시
슬러
평균
edia
▁기하
▁가창력
▁설사
▁기관차
외선
ㄴㅏㅁ
▁Gold
▁크리스티
▁JC
▁트린
▁yout
▁ㅍㅏㄹㄹㅕ
▁헛소리
레미
▁정계
▁선풍
▁스님
▁Cy
▁거유
▁진작
▁분자
▁176
▁BASIC
▁앙쥬
▁오미
▁접어들
▁강성
▁man
▁충공깽
▁방과
▁노홍철
▁자연스레
▁대여
▁엘소드
▁똘
리에
▁하리
▁협의
▁173
▁단말기
IST
▁지독
▁UFO
▁XXX
▁헌신
▁뉴타입
▁무빙
▁바트
▁토탈
▁경인
▁무고
▁하자드
ek
▁불어
▁피리
▁ㅃㅐㅅ
▁나츠키
▁167
▁XP
▁토우마
▁142
▁애프터
사우
▁MT
▁즉각
▁펄스
▁ㄷㅗㄹㄹㅣㄹ
▁선곡
▁전전
▁이스터
▁초딩
▁까먹
▁헬스
▁ㅉㅣㄱㅎㅕ
▁전라북도
inc
▁MD
▁SW
▁대승
▁카가
▁환각
▁강행
▁존속
▁SG
▁}{
▁두근
▁라자
▁스왑
▁양아치
▁램프
▁초선
▁집정관
▁co
▁로마자
▁초고
▁테크노
▁왕좌
▁포르노
▁어지간히
▁6000
▁더비
▁행태
▁경전철
무니
▁고양시
▁단백질
▁Summer
러드
▁위탁
▁책략
▁루리웹
▁세츠나
▁신공
▁충북
▁후반전
▁고난
▁손녀
▁......
▁강변
▁경순
▁야드
▁용맹
미스
▁로자
▁기획사
▁키워드
받침
▁격리
irst
▁149
▁말소
범죄
▁수리검
▁시노부
▁케로로
▁맴
▁국사
▁수원시
거진
▁자크
▁미지수
▁OR
▁애드
▁380
▁왕따
▁에스파
▁IDOLM
▁백신
▁영창
카스
▁본드
▁청산
ㅇㅝㅆㅇㅡ
▁요미우리
▁아치
▁프레데
서야
▁관제
▁제멋대로
▁고베
▁정거
▁천연가스
▁번트
▁퍼니
▁King
▁행선
수아
▁당기
▁페달
용차
▁권능
▁뷰티
▁여사
▁수평
▁ㅇㅜㅁㅈㅣㄱㅇㅣㄴㄷㅏ
▁캐서
운전
ual
▁살인마
▁1961
▁AG
▁박해
gain
▁생겨나
YP
비언
제국
▁에우
▁흑룡
▁남동
▁미쓰
마르
어쓰
▁다인
▁은밀
▁총괄
▁막바지
▁위화감
문트
세데스
▁..'
▁메르세데스
▁단선
▁스퍼
▁피스트
▁UI
▁강판
▁지자
▁하부
ㄷㅜㄹ
▁학창
▁특공대
▁질리
▁판본
▁회견
▁위나라
▁파키스탄
▁ONE
▁유명세
던트
▁성체
▁완수
▁한숨
▁류현진
▁전년
▁Win
데기
패드
▁봉황
▁키퍼
▁143
▁입술
▁전교
▁꼬이
▁망설
▁가치관
▁디비전
토미
▁노이
▁아홉
▁원격
▁어린애
▁멜론
▁옐로
준혁
▁가차
▁깊숙
▁댄서
▁바오
▁치부
▁표방
▁스티커
▁뢰
▁아부
▁정중
▁어비스
▁상회
▁게리
▁이안
▁영분
▁현존
▁그리스어
▁우습
▁새우
OO
aj
▁기와
▁무상
▁무언
ㄱㅇㅣㅁ
▁헤븐
▁Can
▁부서지
▁타케루
미츠
▁계보
▁타츠야
▁황태자
▁갈라
▁기마
▁의대
▁오리지날
▁세나
▁코우지
▁VOCAL
▁마누
▁역학
▁캐서린
▁제비
▁포럼
▁경의
▁첨가
▁리우
▁u
▁유노
▁차종
▁조형
크리트
▁인내
▁정거장
▁리히
ㅇㅗㄹㄹㅏㅆ
▁봉기
▁수고
▁키메라
▁사파이어
ㅅㅣㄴㄷㅏ
ㄷㅡㄹㅇㅣㄴㄷㅏ
쳐나
▁진공
▁표본
툭튀
▁선형
▁진가
▁청색
▁흑백
▁백색
▁한스
▁쉘
▁휴스턴
령관
▁테츠야
▁단신
▁알아듣
▁프랑크
yn
▁Vo
▁아제
▁준장
▁카논
▁휩쓸
▁Out
▁This
▁속공
▁페니
▁현직
ㅋㅣㅁ
▁커맨더
▁갑툭튀
▁오피스
▁친위대
ㄷㅕ
▁백룡
▁프로이센
▁서지
▁수군
▁시동
▁카에
▁합창
▁어둡
▁크래
▁타시
▁넘어오
▁해내
▁본문
하이
ube
▁걸작
▁무의
▁최전
▁다짐
▁이분
▁Int
▁1942
▁What
▁잔당
▁빡빡
▁베니
▁우사
▁무효화
▁아카기
▁커브
▁SEED
▁실무
▁아멜
IV
▁매진
▁여하
▁추월
▁ㅅㅓㄹ
▁사마의
▁죄송
▁거리표
▁세션
▁1943
▁ㅉㅣㄱㅎㅣㄴ
▁두께
▁Da
▁분사
▁어워드
▁미야자키
▁우시
▁OPS
▁마리사
▁애교
타르
▁쳐다보
▁플러그
조작
▁속박
▁치프
ㄷㅏㄱ
▁세이지
▁ㅈㅜㅂㄴㅣ
▁바바
▁tvN
▁가든
▁육지
▁츠루
▁끝판
▁승부조작
▁빨강
▁섬세
▁배수량
▁어중간
▁유지비
▁이터널
▁각색
▁난폭
▁모탈
▁가가
▁리젠
▁스크립트
▁대두
▁지아
▁제이크
▁심포
▁활주
ㄹㅗㅂㅎㅣㅁ
▁등교
▁121
▁MASTER
▁뽑히
ady
▁자발
▁Live
▁의미심장
▁사이오
▁오마주
▁갈기
▁설계도
레스트
▁디테일
▁소진
▁신시
▁씁쓸
▁안보
▁재팬
▁판과
▁레미
▁고독
▁교훈
▁치중
▁대부
▁재난
▁사로잡
ATION
시계
▁TD
▁교주
▁미라이
▁사카모토
▁콘크리트
▁장원
▁Hard
튀기
▁Act
▁대머리
▁매거진
▁맛보
▁왕건
▁초중
ㅇㅘㅆㅇㅓㅆ
▁연희
▁석사
▁ㅌㅗㅇㅎㅏㄴㄷㅏ
▁선구
▁시르
▁치이
▁매트릭스
▁강팀
▁관대
▁김도
let
▁처단
▁뻥튀기
작전
▁성녀
▁ㅁㅏㄹㄹㅏ
▁구독
▁무성
▁재임
▁뾰
▁세가
▁잉크
riend
▁ㅎㅡㄹㄹㅕ
▁격돌
▁경장
▁독설
전대
틀리
ush
▁칭송
▁되려
▁신축
▁관악
▁폭발물
로리
▁배지
▁서인
▁득표율
▁로스앤
▁로스앤젤레스
미사
▁튜버
▁노브
▁당분
▁언행
iew
▁시세
▁1920
▁174
▁ㄴㅓㅁㅊㅕ
킨스
▁수녀
▁매그넘
▁군산
▁수다
▁십상
▁되살
▁양면
▁괴멸
▁역관
▁능욕
▁수소
▁이속
▁문화재
▁음모론
▁인벤토리
중국
▁ㄴㅐㅆㅇㅡ
테나
▁혜성
▁ㄸㅡㄹ
▁배틀필드
▁콥
▁유우야
eet
▁베드
▁욕구
▁자신감
UC
▁루팡
베르토
▁라이토
▁엄지
▁조비
▁살아나
▁잠재력
▁바늘
▁출세
▁쇼핑몰
▁205
▁ㄹㅏㄹㄲㅏ
▁비약
▁아프가
▁이어인
ㄷㅜㄴㄷㅏ
bps
▁나우
▁아역
▁이제동
ational
▁볼프
▁호세
▁크리드
▁소용돌이
▁섭외
▁호그
▁이상민
▁워너
▁BF
▁송병
▁엑스맨
▁피에르
▁갑작스럽
rain
▁나오키
▁누님
▁준결승
▁EA
▁난해
▁여건
ORE
▁족장
▁겉보기
▁TG
▁성검
▁CB
▁반칙
▁조인
▁표출
ESS
▁제구
▁종일
▁Air
조각
▁꼭두
총리
▁반환
▁법안
▁도호쿠
▁베가스
페어
▁ㄷㅗㅇㅇㅣㄴ
▁다중
사이드
ita
▁난동
▁줄곧
▁폭동
▁ㄲㅐㄹ
▁자부심
▁ㄷㅚㄹㄲㅏ
▁느긋
▁솔로몬
▁포털
▁성우진
▁1946
▁ㅇㅣㄴㄷㅏ
▁쐐기
▁유포
▁ㅈㅓㅇㅎㅏㄴ
UE
▁이에야스
ane
▁줄줄이
버린
▁격하
▁송이
▁호대
▁템포
▁문헌
▁작별
▁틀림
▁히코
▁배럴
▁앙리
▁퍼스
▁보유자
니트
무진
▁박용
▁덕택
▁끼어들
▁검도
▁임페
▁평원
무소
▁레슨
▁루기
▁아프가니스탄
▁하르
▁양념
▁미상
▁승기
▁외출
▁언락
▁은메달
▁만루
▁VOCALOID
▁켈리
▁무자비
▁ㅂㅏㄷㅊㅕ
케이
▁거물
▁Warhammer
도스
▁유쾌
때로
▁sc
▁망가
▁박격포
▁time
▁즘
▁하데스
▁두드러지
▁얽
▁웍
▁국물
▁유영
모델
▁부우
▁심리전
▁꽝
▁부토
▁사병
▁주작
▁끌어들이
▁윌슨
▁병신
▁홍대
블릿
▁가네
▁착하
▁꺼리
▁ㅂㅏㄺㅎㅣㄴㄷㅏ
▁달빛
▁왕궁
▁ㅈㅜㅁ
▁동대문
▁ㄱㅏㄷㅎㅣㄴ
▁예배
▁담당자
▁새로이
ㄴㅜㄴ
▁임페리얼
▁ㅌㅡㄹㄹㅕㅆ
▁만세
▁총통
▁여친
▁카메오
▁이신
▁폭포
▁웨이트
▁ㅇㅕㄹㄹㅕ
퍼런스
▁리바이
▁지지자
▁역전재판
▁히토미
▁교섭
▁도모
▁피어
▁료마
▁데뷔작
▁빈사
▁상반기
▁유로파
▁졸지
공화국
▁Cat
▁ㅈㅓㄴㅎㅐㅆ
▁단절
클레스
▁허구
here
ness
▁교재
▁잘리
▁준공
▁블루스
▁피라미
▁세토
제스
▁각기
▁츠카사
▁Hell
▁용호
▁수락
▁부여받
▁빵빵
▁굴복
▁남극
▁퀄컴
▁사부
▁대한항공
▁킬로
소스
▁기한
▁비토
▁김정일
▁센트리
eth
▁채집
ㅂㅈㅏ
▁1941
▁컨테이너
ㅂㅈㅏㄱㅅㅡ
▁GR
▁랜디
▁단거리
▁`
▁q
▁법학
▁At
▁ll
▁밴시
▁티거
▁전류
▁내심
▁노엘
▁조제
▁ㄷㅐㄴ
▁판도라
▁김창
▁팔꿈치
▁벵
▁산화
▁la
▁나날
▁불상
▁요동
▁증후
▁Res
EX
▁허영
▁페인트
▁탈옥
▁싱크로
▁자본주의
▁미완
▁호타
▁학회
▁한조
유리
▁마니
▁GX
▁성균
▁진술
▁대제
▁연구실
▁자치령
ne
▁킹스
▁파업
▁피곤
ret
▁작렬
▁이동하
▁비정
▁손아
▁진형
itch
▁ㅈㅜㄹㅇㅣㄹ
▁심연
▁Sound
▁빅터
▁치아
▁든
▁도미니
▁성균관
▁뭉치
▁유스케
▁총탄
▁주군
▁익스트림
▁래스
▁벤트
▁유년
▁김택용
▁늘어놓
아아
컨대
▁id
▁스탠스
▁삼거리
▁창원시
▁마음껏
▁이니셜
▁내공
▁만두
▁명인
▁야기
▁염소
▁추석
▁단연
▁부녀
▁역병
▁이은
▁레베
▁베라
▁대장군
▁듀엣
▁이복
▁보단
▁우려먹
ㄴㅣㅂㄴㅣ
신기
▁미타
▁유엔
▁직감
▁ㄸㅏㄹㄹㅕ
▁신원
ㅈㅣㅂ
▁레볼루션
▁지지율
▁알코
▁오로라
▁코브라
▁참모총장
▁사바
▁ㄲㅡㅌㄴㅏ
▁듬
무늬
▁슬퍼
▁자수
▁장래
▁포고
▁도도
▁사안
코스
▁퇴마
▁동메달
▁어설트
▁SKE
▁들통
▁ㅋㅓㄹ
▁ㅇㅣㅂㅎㅕ
사우루스
▁리베
▁미련
▁조달
▁차세대
▁아울러
▁만류
▁대상자
▁ㅇㅜㄹㄹㅕ
▁옥타
▁태연
ㄱㅣㅁ
▁night
제품
▁셀프
▁유키노
▁대적
▁모나
▁Rec
na
▁따내
▁시발
▁항우
▁147
▁신노스케
▁서원
▁조장
럭스
▁연루
▁직관
▁해저
▁김정은
열차
▁저러
▁세이야
▁제너럴
▁Hy
▁과실
▁백수
▁빌미
▁채소
▁적료
▁시구
▁146
▁인민공화국
▁가주
▁사육
더스트
▁파드
▁후세
▁후안
▁경쟁력
▁따라오
▁증후군
▁ㄷㅡㄹㅇㅣ
▁진흥
▁피츠
IGHT
▁김영삼
▁오디
▁할당
▁와이드
▁슈타
▁편제
▁Big
▁스케치
▁크림슨
eath
▁익스프레스
▁방대
▁상원
▁이변
▁특허
아티아
▁크로아티아
▁집결
▁미팅
▁서태지
▁ㅈㅣㄹㄹㅓ
▁ㅎㅏㄹㄹㅕ
▁몽땅
▁복종
▁차남
▁근래
▁맞히
▁갈래
▁성채
ㄷㅣㅈ
▁낙원
▁화랑
▁org
▁민정
▁뿌요
▁ㅉㅏㄴ
▁알아채
▁그지
▁기겁
▁Heav
▁플레이트
ㅁㅏㅇㅊㅕㅆ
▁ㅅㅏㄹㄹㅣㄴ
▁택하
▁ㄷㅓㄴㅈㅣㄹ
교육
▁싱어
▁자문
▁노스케
▁교감
▁난전
▁노후
▁제각
▁클립
▁스펙터
▁1600
▁스트레이트
▁매개
▁어제
▁서면
▁ㄴㅏㄹㄹㅣㄹ
▁222
▁GK
▁Des
▁ㅍㅕㅇㅎㅐㅆ
▁고원
▁아유미
▁불태우
▁피니시
▁술탄
버거
▁오클
▁정크
▁동참
▁가솔린
▁미라클
▁상류
▁진군
▁증원
▁RAM
▁like
asy
▁일직
▁부록
▁ㅎㅟㅂㅆㅏ
▁맥시
▁의리
▁체급
▁회자
▁news
모니
▁Battle
▁대담
▁Mod
▁1954
▁페르난
▁연안
▁정종
▁하코
▁트리오
여행
▁가왕
▁마토
▁북극
▁이과
▁조류
▁휴전
캐스트
▁뒷받침
▁204
▁체이스
▁구치
▁태세
▁스탠딩
▁아지트
▁스킵
▁ㅃㅓㄴ
ny
수수
포스
▁결별
▁ㄱㅝㄴ
▁166
▁구미호
▁위생
▁티저
고쿠
▁두들
▁박준
▁재혼
▁주성
방사기
▁Che
▁키사라기
▁화염방사기
▁옌
▁줍
▁인피니트
OK
▁전투복
▁1958
▁스루
▁아킬
▁차관
▁천도
▁클락
▁행각
▁좆
ORM
ven
▁과부
▁극찬
▁유교
▁캐롤
▁명왕
▁유배
▁정의당
▁츠바키
린스
▁아까
▁지름
▁ㅎㅐㅇㅎㅐ
르슈
▁구세
▁미도
▁친근
▁호우
▁ㅈㅝㅆㅇㅡ
▁fl
▁시오리
르드
▁밸리
▁커리
▁한국군
▁탤
▁동거
▁인프라
▁등산
▁바쁘
▁태블릿
피온
▁노마
▁배분
▁명장면
▁다정
▁칼럼
▁대잠
▁웨일
▁향기
▁동유럽
날두
▁간편
▁럼블
▁인즈
▁저거
▁타협
▁트림
▁ㅅㅓㅁ
▁온화
▁전산
▁협약
▁ㅇㅕㄹ
▁ㄱㅜㄷㅇㅓ
틱스
▁호날두
▁박병
arm
▁우이
▁세레나
▁변종
▁난투
▁영락
▁원어
▁SSR
사의
▁ㅋㅋ
▁ㄱㅏㄹㄱ
▁일부분
티넘
ALL
▁ㄲㅕ
▁뚫리
▁호노카
▁플래티넘
▁ㄴㅗㄱㅇㅕ
▁DB
▁누마
▁엠블렘
모사
저트
▁상정
▁손수
▁수전
▁를
▁SV
ouse
▁로테이션
▁베른
▁철벽
▁ㅇㅣㅂㅎㅣㄴ
▁마그마
▁연기자
▁1948
각시
무스
▁공자
▁빼놓
벨트
▁기복
▁아이리스
▁ㄱㅏㅂㅈㅏㄱㅅㅡ
▁웬리
▁유감
내기
방식
▁치타
타리
▁부두
▁대각선
▁매칭
▁이창
▁대파
▁자위
▁한가
▁ㄲㅡㅀ
▁대입
▁동포
▁병영
코프
파니
▁선체
▁일선
▁플라잉
▁마테
▁저희
▁하반신
▁8000
▁KD
▁진흙
▁슬퍼하
▁아이젠
▁진과
▁낙인
▁이가
▁절묘
▁짝퉁
▁제네시스
▁츳
▁회복력
▁골리
▁쇼군
이팅
▁운임
▁평창
▁프라이즈
ru
▁퍼시픽
▁1949
▁갑판
▁레트
▁튕기
▁정신기
바퀴
▁범주
▁청동
▁넘쳐나
▁득실
▁예리
▁종자
▁소중히
▁용품
▁참패
▁알프레
▁활주로
이인
▁영리
▁Sing
▁라트
▁안도
▁유추
▁잔재
▁사생활
ㅇㅏㅅㄱㅣㄴ
곡동
▁프렌즈
ㄱㅏㅆㅇㅡ
권자
▁액트
▁에노
▁but
▁소음기
▁바실
▁코요미
▁선천
▁승하
▁자의
▁런닝맨
▁엠파이어
▁직계
▁목요일
▁불가사의
▁석화
▁사단장
러기
▁발트
▁외환
▁대강
▁동급생
▁세이부
▁ㅁㅏㄱㅎㅣㄴ
▁가메
▁육식
▁쳐들
영수
▁남아공
▁동맹군
▁ㄱㅏㄹㄹㅕ
▁안중
▁임하
▁생몰
칼리버
▁엘리스
▁아종
▁주방
▁평안
▁생각나
회장
▁수뇌
데르
▁카멜
▁BBC
▁귀중
▁마운드
▁책임자
▁카트리
▁갈아타
▁다나카
▁ㄲㅡㄹ
▁화장품
▁동명이인
▁푸른
▁하임
▁리포트
▁박진
▁하쿠
▁ㅊㅜㄴ
▁랫
해군
혁명
ㅁㅓ
토록
ari
▁~'
▁부과
▁예하
▁음양
링크
▁노선도
▁사츠키
▁Edition
ina
▁금전
▁탄두
▁탈것
▁제네레이션
▁욕먹
ount
지원
▁ㅈㅣㄹㄹㅕ
▁현행
▁총대
▁표창
▁하야테
▁벽돌
▁터무니
▁프레디
▁불가리아
자루
클리
▁기만
▁슬쩍
▁토론토
▁특이점
▁ㅇㅗㄻㄱㅣㄴ
▁유승
드래
▁구애
▁신촌
▁저력
▁지중
▁이문
▁치히로
▁NG
▁성원
▁외야
▁콘테
ivers
▁빅토리
모자
▁로로
▁수비진
▁if
▁태수
▁사위
▁운전자
▁충실히
▁뭣
▁루즈
▁템플러
▁문의
▁빌라
▁일진
▁차마
▁카바
▁XC
▁하루히
▁1900
▁매복
cl
▁마호
▁제보
▁공중전
▁과다
▁경부선
▁노조미
▁Song
▁가산
▁양동
▁향수
▁헤지
▁교육청
ㄱㅜㄴㅈㅣ
마사
▁경전차
▁독도
▁석궁
▁스몰
▁체구
▁히이
▁know
▁잽
▁안나
▁고스란히
▁드럼매니아
▁뮤즈
▁알몸
▁위조
▁친밀
▁340
▁목표물
▁기염
▁조슈
투아
▁거제
▁젤다
▁쩌
▁멸자
▁칸나
▁리언
▁모방
▁막론
▁무어
▁보답
▁비올
▁재해
▁점포
▁알코올
긋나
▁짱구
▁미토
▁군단장
지대
▁고모
▁때때로
▁배척
▁스스
실히
▁카야
▁폭군
▁Run
▁im
▁소감
▁키치
▁쥴
▁방랑
▁나리타
▁라운
▁맏
▁초전
ㄲㅡㄴ
ㄴㅜㄹ
▁실험실
ters
▁RAW
▁중공업
▁잔디
HN
▁태고
▁퇴근
▁사쿠야
▁포이
▁황족
▁But
▁쌩
use
▁도메
▁여진
▁Magic
▁체조
▁디스코
▁카운티
천동
▁발산
▁품종
▁신한은행
▁덫
▁정자
ㅈㅝㅆ
▁WAR
▁성공회
▁악질
▁안철수
고생
공격
▁CEO
▁데이브
▁따라다니
▁를르슈
▁토와
▁ㅇㅕㄲㅇㅣㄴ
▁우아
▁원년
▁090
▁터트리
지물
피어
▁국수
▁부합
▁선방
▁밀려나
▁하이브
기업
▁사역
▁신령
▁왕녀
▁AMD
▁공약
▁서문
▁삼국사기
돌리
▁'-
▁천체
▁방정식
▁소피아
▁프라이드
▁송파
▁333
ars
▁료코
▁코일
▁HOT
▁이지스
▁레이브
▁위저드
▁란트
▁피라미드
스기
▁끌어내
▁Ab
▁밀어붙이
▁어기
▁작살
▁국민당
▁ㅅㅏㄹㄹㅣㄹ
▁섹터
▁마키나
▁방어선
▁원사
▁반자동
ke
덱스
스톤
▁랄프
▁선역
▁민족주의
▁츠치
erm
▁슬래
▁프리드
▁정대
▁720
▁프랑스군
▁ㄷㅡㄹㄹㅓ
▁관용
▁아그
OUR
▁성문
▁득표수
▁올리버
ㄱㅇㅏ
▁치토
▁송곳
▁심플
▁지난
▁침체
▁민병대
▁RS
▁든든
▁경시
▁에러
바키아
▁day
나시
▁쟁탈
ㄴㅘㅆ
▁SNK
고루
▁고려대
▁로스터
▁선글라스
XT
▁꺼지
▁경찰관
▁ㄷㅏㄹㄹㅣㄴㄷㅏ
su
리케이션
▁토의
▁시집
▁오컬
▁꼭두각시
▁명실
블루
▁떠들
▁펜스
▁차크라
▁터프
▁문성
▁에티
▁헌병
▁랏
규어
매매
▁홈구장
▁ㅅㅛ
▁좀비
▁칼질
▁명령어
단체
▁경위
하하
▁로만
▁바운드
▁아츠시
▁암흑기
▁단조
▁에밀리
▁동물원
▁사업자
LD
▁Not
▁이따
▁드래그
디우스
▁소주
▁패거리
▁인스
탕스
▁Tri
▁레지스탕스
▁ㅈㅏㄹㄹㅣㄴ
위치
▁여명
▁GAM
▁비운
▁요르
▁칠흑
▁시한
▁악보
▁조율
ecial
▁만악
▁행군
▁알파벳
▁야채
▁원동
▁헤매
▁네기
▁인신
▁Grand
▁월터
▁전과
▁PVP
EME
▁음란
▁초당
▁Boy
▁몰아내
▁격변
▁비룡
▁스완
▁시프
▁아델
▁순순
▁체내
▁호라이
▁ㅂㅕㄴㅎㅏㅁ
▁네메
▁더스트
렉트
▁오스카
▁임창
▁정동
▁추첨
▁터리
▁얌전
▁첩보
▁퍼트
▁화판
▁며느리
▁야구단
▁비즈니스
레오
▁가호
▁래쉬
▁성추
▁허다
▁스폰지
ㄴㅜ
▁짤막
▁증가량
▁카터
▁양방향
▁오우거
▁진에어
주군
▁눕
▁수레
▁TF
▁시빌
▁울부
▁탐욕
▁오컬트
▁1959
}}
▁프랭
▁루카스
ship
AA
▁옴니
▁츳코
▁바람직
▁슐
▁KC
▁비평
▁격노
▁단번에
연합
▁압살
▁이탈리아어
▁수족
▁통학
▁코팅
▁가까스로
▁빌헬
▁오드
▁Dragon
▁PO
▁명품
▁수분
▁희생양
▁Baby
▁ㄷㅗㄷㅂㅗ
▁God
▁아르메
▁브란
UL
▁시애
▁개인전
세우스
노트
▁김혜
▁실천
▁픽업
▁현질
▁화룡
▁체이서
▁ㅂㅗㄹㄲㅏ
▁ㅁㅗㄹㄹㅣㄴ
▁김희
ana
rop
▁결장
▁도마뱀
형제
▁김인
▁농촌
▁장녀
▁정몽
▁펼쳐지
▁1955
▁ㄴㅡㄴㄱㅜ
▁승천
▁업종
▁영조
▁슬라이딩
사람
▁바이퍼
▁'~
▁마티
▁역설
▁조나
▁MAN
▁재규어
레일리아
▁드레이크
ift
▁볼일
▁탈탈
▁고갈
▁디셉
▁대법원
▁무궁화호
▁수법
▁수아
▁청장
▁해임
오피스
▁단단히
▁성폭행
립스
▁입성
▁일평균
▁쓸어버리
▁불운
▁평정
▁다이너
▁쌈
▁크러
메리카
▁151
▁거주지
▁Beat
▁ab
▁창의
▁광양
▁양파
라비아
▁수요일
▁순순히
▁젯
▁POP
▁그토록
유기
▁경희
▁광화
▁일개
▁훈련소
ys
▁어휘
▁지침
▁애시당초
▁OM
▁즐거
▁케르
▁비행선
▁시애틀
ㅃㅏㅆ
ㅂㅏㄱㅎㅕ
45
▁아득
▁억양
▁Spr
▁마사토
▁이어폰
▁1956
elf
▁엘런
▁타지
▁토리코
▁노어
omb
▁푸쉬
▁다이브
지기
▁가와
▁아날
▁야요이
▁뒤이
▁악장
▁전고
▁페루
▁건립
▁뾰족
▁탄수
▁서유럽
둘기
▁강급
▁둔화
▁아랍어
▁니즈
▁미카엘
베다
▁뺏기
▁아틀라스
▁뚱뚱
▁키쿠
▁앞마당
▁울부짖
▁졸업식
▁염동
▁NAS
▁오리콘
ㅁㅏㅇㅊㅣㄴ
▁장단
ㅇㄱㅡ
ally
▁상대편
▁리바운드
▁RO
▁무심
▁주임
▁게르만
▁온전히
▁추기
▁전염병
▁버디
▁블라디미르
▁교직
▁남용
▁일갈
▁ㄷㅏㄱ
▁마취
▁이바
▁불허
▁서진
▁쇼타
▁초계
▁페이커
ren
▁디트로
▁좀처럼
▁디트로이트
▁아르메니아
소니
▁도보
▁파열
▁001
▁총사령관
▁려
벅지
▁송구
▁챌린저
▁릉
▁Es
▁김준호
▁GL
▁산산
▁바사라
▁화질
리아스
▁카츠키
▁다이렉트
▁밀접
▁페라리
▁구자
▁남짓
▁포화
▁괴이
▁백지
▁앞쪽
▁ㄹㅏㅂㅅㅣ
IF
슬쩍
▁식인
▁제복
ㄹㅏㄹ
▁트레인
▁169
니지
▁갈구
▁학업
olog
▁ㄸㅟㄹ
▁클라우
▁Lo
▁사벨
▁부화
▁쌍용
▁난쟁이
▁Cont
▁연성
▁당분간
▁에어컨
▁Bar
▁죠셉
▁푸드
▁건너편
▁릭스
▁포커
▁NAT
▁수납
▁전태
▁케네
▁간식
▁덩달
▁성품
▁피버
ㅁㅣㄴ
장구
▁관습
▁활약상
▁여정
▁정은
▁항쟁
▁포터블
데라
▁불분
▁토코
▁풋볼
▁필적
▁전반전
▁ㅈㅓㅂㅎㅏㄴ
▁시프트
▁제품군
영웅
▁세무
포로
히트
▁블리치
▁메라
▁미셸
▁광학
▁김태균
▁수박
▁마공
▁선도
변속기
▁qu
▁루드
▁자판기
▁ㅇㅣㄱㅎㅕ
▁침식
병기
▁야마자키
▁덤비
▁IF
▁외장
▁임상
▁토토
ited
▁다트
▁박주
▁체로
▁이유로
▁ㄷㅓㅁㅂㅕ
▁전갈
▁Inf
▁음식점
▁불분명
▁삽입곡
▁알루미
III
▁나시
▁오일
▁쿠도
입구역
▁WOR
▁카즈마
▁프라모델
▁양현
리아나
▁중견수
▁저음
▁주스
▁투항
▁필기
▁허위
▁Gaming
▁몬테
▁선교
▁틀어
▁일직선
▁오스트레일리아
▁괴로
▁XBO
ㄴㅐㅆㅇㅡ
▁럽
▁수배
▁ㅎㅏㄴㄱㅏ
▁악인
▁야인
▁지기
▁world
HD
▁사면
▁ㄷㅗㄹㅂㅘ
호도
▁밀러
▁정세
▁ㅅㅐㅁ
▁권역
▁글리
▁백병
▁아르테
▁스트리밍
▁정적
▁라이덴
▁루이지
모트
▁000000
▁With
▁Angel
▁DA
▁레닌
▁로사
▁유부
마트
▁츠네
▁310
▁발전기
▁박스오피스
▁마포
▁집중력
▁소피
▁중화기
▁나루호도
▁이시카와
▁경이
▁요건
▁차출
▁흉터
▁맨날
▁코리
▁COM
row
▁금성
▁진해
▁충동
appy
▁VIP
▁ㅃㅏㄹㄹㅕ
▁말살
▁방금
▁지갑
▁빅토르
▁메두사
짜기
▁셔츠
▁소량
▁무언가
▁수영장
▁예비역
▁라지
▁미유
▁열렬
▁사설
▁스콜피온
▁충청북도
▁중대장
▁나탈
▁즉석
▁그물
▁미나토
▁사다리
▁VR
▁임용
▁접시
▁플리트
▁ㅎㅓㅁㅎㅏㄴ
미코
▁컷인
▁con
▁재미없
▁하르트
▁수뇌부
▁리그베다
▁비늘
▁시립
▁빽
▁데스크
▁다크니스
▁사우디아
▁마코
▁형벌
▁기린
▁ㅊㅏㄹ
▁임재
▁희박
▁ㅂㅣㅊ
▁진나라
▁분화
▁해커
▁폿
▁특권
▁코로
▁둘러싸
▁법정동
▁아라시
그래
▁진성
▁행세
▁131
▁micro
▁="
▁ER
▁명은
▁안기
▁총재
▁파탄
▁경비원
▁불러오
▁마사무네
콜로
▁배반
▁복부
▁악평
▁항로
▁협곡
ious
ful
▁붕대
▁폐인
▁환장
누르
▁손책
제리
▁FE
▁강연
▁She
▁ㄴㅓㅁㄱㅣㄹ
로이
전함
타기
▁옵스
▁하얀
▁골고루
▁폐하
▁Ste
보잡
▁사카이
해야
그라드
atic
▁PvP
▁동남아
만다
▁능동
▁항속
▁관광지
▁쇼우
▁신빙
▁재사
▁치밀
ㅊㅐㅆ
▁듣보잡
▁RX
▁무모
▁점하
▁255
▁CIA
▁최우선
▁피드백
▁ㄱㅣㄹㄹㅓ
▁밸브
▁자자
드리히
▁강호동
감치
▁카이지
▁몸집
▁슬립
▁외화
찌감치
▁파고들
▁알루미늄
▁구라
▁어로
▁1939
▁내레이션
▁스테이트
▁가쿠
▁철회
▁부식
▁이데
▁마스터즈
▁또래
▁이관
▁기생충
▁낙하산
▁영국인
▁피콜로
▁STAR
▁ㅁㅏㅇㅎㅏㄹ
▁윳
▁이클
▁하나님
▁1952
aut
▁만회
▁잠복
▁중산
▁헬로
▁베르크
▁토요타
▁ㄴㅏㅁㄱㅣㄴㄷㅏ
▁카에데
▁White
▁TW
▁다마
▁사오
▁성령
▁ㅅㅓㅆ
▁매지컬
▁호위함
TREME
▁아픔
▁오바마
▁햄버거
▁암기
▁티타
▁돌아보
▁카라스
▁ㄲㅏㄴㄷㅏ
▁조공
▁청취
▁성시
▁키시
▁플레인
▁연호
▁러시아군
▁기아스
▁안테나
시장
▁볼리
▁NCR
▁NFL
일기
▁류우
▁선상
▁강남구
▁ㄷㅚㄹㅅㅜ
MC
▁컬트
▁미시마
▁사과문
▁묵직
▁쿠폰
day
▁둔기
▁복권
▁비욘
▁계승자
▁브래드
▁티셔츠
▁프랑켄슈타인
▁노원
▁달걀
▁몸체
▁장막
▁FBI
▁위인
▁임프
▁치과
▁쿠루미
▁청원
▁한성
▁비틀즈
사포
▁지자체
▁ㄱㅏㅇㅎㅏㅁ
▁라다
▁한니발
▁세실
▁프리드리히
▁여당
오버
리히
▁라니
▁오자
▁ㅊㅐㄱㅇㅣㅁ
▁햇빛
세이더
▁크루세이더
ara
▁Pe
ㄱㅏㅁ
▁Sky
▁오토봇
▁장학금
▁미식축구
bl
▁재주
▁폰트
▁스튜어트
▁네모
델피아
▁인플레
▁필라델피아
세포
▁420
▁무리수
▁콜롬비아
▁FN
▁증인
▁환불
▁클라라
▁Project
INE
▁해프
▁긴장감
영향
▁ㄹㅏㅁ
▁소모품
▁일기토
▁자유주의
▁ㄷㅗㄹㄹㅕㅆ
▁뽐
리역
▁재상
▁850
▁노획
▁레그
▁구비
그레
▁사시
▁포진
이즈미
▁그래프
▁여행자
▁마개
▁쿠토
▁DIO
▁호스트
▁버금
▁베레
▁보구
▁타츠미
▁눈썹
▁세단
▁용왕
▁정렬
▁EXTREME
▁급상
▁로젠
▁친화
▁ㅅㅗㄱㅇㅕ
와르
▁동산
▁샌디
▁서사
▁유다
▁타카오
▁이클립스
75
▁141
▁안토니오
먹이
▁아론
▁나츠메
▁슬래시
▁걸치
▁선공
▁억압
▁토사
▁모터스
▁시술
▁카나코
▁파괴자
▁OO
▁골수
▁대관
▁소프
▁코스타
▁헤라클레스
▁새턴
▁커넥
트리스
▁패트릭
민수
▁호각
▁신세기
▁RR
▁농부
▁원상
▁치아키
▁부기
▁투타
▁개종
▁들이대
▁비둘기
▁오사무
▁조선소
▁부전
▁척하
▁슬레이
▁반납
▁아벨
▁ㅁㅕㄴㅇㅡㄴ
▁고뇌
▁원로원
▁Just
▁Get
큐버스
▁아날로그
하임
▁주부
▁도입부
맹이
▁리시
▁양도
▁최진
▁Gun
▁겁쟁이
▁사생
▁워페어
나타
넌트
▁머독
▁블레
▁자석
▁진기
▁브론즈
▁정치력
▁길목
▁본거지
▁플랜트
▁해프닝
▁그딴
▁디에
▁망원
▁로미
▁타카히로
▁고안
즐리
▁가세
▁겸비
▁정인
▁앤더슨
▁셔먼
▁여대
▁데이빗
▁꼼짝
▁레니
▁벌칙
▁팩토리
스코
ger
▁유수
▁대의
▁응징
▁중추
reat
▁딸리
▁저널
▁대항해
▁환율
▁붉은색
▁그해
▁변함
▁생리
▁신드
수엘라
▁PRO
▁축구단
▁사일런트
▁경신
▁스릴
▁허니
▁크리스토퍼
▁777
ㅡㄹㄹㅣㄴㄷㅏ
▁노랑
▁여느
▁선명
▁실탄
▁우대
▁토카
▁얼리
▁뫼비우스
▁ㅌㅓㄹㄹㅕㅆ
다카
▁해결책
▁정설
▁항성
▁권고
▁바알
▁상병
▁철퇴
▁한결
▁리조트
다르
전생
uch
▁납품
▁코만
▁수도원
▁사우디아라비아
준호
▁이화
▁마운틴
▁ㅈㅣㄴㅎㅐ
▁군중
▁기공
▁크류
▁티라노
장치
▁대지진
▁우등
▁카세
▁사이킥
치오
▁로드리
▁니즘
▁쓸쓸
▁자가
▁한복
▁ㅎㅟㅂㅆ
▁정시
▁환원
리카와
▁초원
▁함경
애미
▁꼬박
▁무당
▁디럭스
▁악영향
▁야가미
▁Game
▁코미디언
▁공채
▁사대
▁앨리
▁연하
▁마이애미
▁네로
▁520
▁리오스
▁월등히
무로
▁시라이
ric
▁라몬
▁현무
▁바흐
▁제드
▁겉모습
▁레이카
▁노사
▁신검
▁정윤
▁잿
공주
▁레비
▁보성
▁적정
▁백두
▁화요일
▁LS
▁정직
▁ㅉㅣㅈㅇㅓ
타자
▁검기
▁재래
▁투기
▁어르
▁위즈
▁평준
▁클로버
▁ㄱㅏㅁㅆㅏ
▁류지
▁반달
▁CCTV
▁사력
▁생계
▁ㅅㅡㅁ
▁악세사리
▁개리
▁조니
▁우치하
암동
▁감도
▁자대
▁재무
▁후작
▁Back
▁Side
ㅅㅡㄹㄹㅓ
니치
▁레이크
▁최적화
▁카이바
▁케네디
▁허벅지
윽고
▁처방
▁ㄷㅐㄹ
▁나뭇잎
▁이윽고
▁초급
▁ㅇㅡㄴㄱㅏ
리즘
▁소대장
▁Last
less
▁빈센트
▁베네수엘라
▁박기
▁벤츠
▁절감
▁조현
▁중론
▁뜬금없
▁절약
▁480
▁off
▁레코
▁엽기
▁평지
▁back
▁크로스오버
▁School
▁선비
▁자민
▁아스타
aka
▁Ge
▁냉혹
▁미약
▁개칭
▁외침
▁정경
툴루
▁끊이
▁나크
▁열광
▁이북
▁제이드
드래곤
▁지중해
▁통솔력
▁대장장이
▁기쁘
▁ㅈㅣㄴㅎㅏㄴ
▁모티
▁총구
▁Zero
▁제후
▁피쳐
▁TECHN
▁naver
▁샨
▁우크
▁벅스
▁ㄸㅟㄴ
bsp
▁보살
▁죄인
▁Ass
▁연대기
▁우크라이나
▁페가수스
▁동남아시아
▁ㅂㅓㄹㅇㅣㄹ
co
▁박히
▁결투장
펙터
후미
▁KS
▁xx
▁가늠
▁석방
▁셀렉
▁타가
▁크레이지
▁귤
▁ATM
▁근친
▁알맞
▁우동
▁좌완
▁토치
▁펠트
일관
▁남구
▁초동
▁탈당
▁Sil
▁미처
▁비숍
▁전우
▁춘추
▁상고
▁합당
▁기병대
▁시부야
레스타인
▁ㅁㅗㄹㄹㅕㅆ
IME
▁가즈
▁이의
▁리액션
ㄲㅇㅕㅆ
▁편애
▁화가
▁소탕
▁일생
푸스
▁모치
▁이를
▁예술가
▁nbsp
▁212
관계
▁라티
▁서스
▁쿼드
▁텐션
▁송병구
▁오토메
▁발렌시아
테면
▁간장
▁심부
페스트
▁빌헬름
▁스플릿
▁팬클럽
▁퀑
▁무네
▁멧돼지
▁끌어올리
▁텝
▁리벤
▁바루
▁하늘색
▁사이퍼즈
▁이를테면
▁급여
▁알비
▁잣
베이스
▁정명훈
▁Chr
▁그러다가
▁톡톡
▁도널드
▁캬
소통
▁광석
▁의사소통
사전
이라
▁ㄹㅑ
▁페로
▁맞춤
▁세균
▁에프
bo
▁개화
▁틈새
▁ㅍㅡㄴ
▁WE
▁노프
▁증차
레인지
라이언트
▁클라이언트
▁덤벼
▁써니
▁290
▁하시모토
▁강령
▁사죄
▁우의
▁골리앗
▁좌익수
▁결번
▁전념
▁경호원
▁ㄷㅏㅇㅎㅐㅆㅇㅡ
▁수혜
▁성추행
▁스타킹
▁프레드
▁Open
ㅅㅠ
ㅇㅢ
▁순삭
▁조로
▁전투원
▁삿포로
▁추기경
▁고참
▁급상승
▁디셉티콘
▁승부차기
▁통근
▁학파
▁합금
▁jp
▁승승
▁오승
ㅁㅜㄹ
▁Amer
▁절판
▁티격
▁Di
▁XBOX
▁반하
▁사루
▁유상
▁소름
▁검색어
▁유세이
▁ㅃㅗㅂㅎㅣㄴ
▁피신
에이터
▁거느리
▁미달
▁전황
▁철자
▁무난히
▁ㅅㅏㄹㅍㅕ
▁룽
팔로
▁블리츠
▁야나기
▁뇌격
▁동독
▁심복
▁빈스
▁수당
▁웨딩
▁자바
▁ㄷㅏㅇㄱㅕ
니컬
레즈
▁사요
▁협공
ㄱㅎㅐ
ORA
▁조회
▁Blood
▁엑스칼리버
투수
▁유원
▁너구리
▁켄시로
▁브라우저
UST
▁우와
▁프레데터
▁멩
▁들려
▁베아
▁편도
코스터
▁경비병
▁불발
▁야구부
▁군벌
▁의류
▁족보
▁라파엘
▁연주자
▁Moon
▁중소기업
▁대도
▁생포
▁소아
▁한중
▁재사용
▁크툴루
▁1400
▁원성
▁갈고리
▁몰려오
▁경대
▁통역
▁정준하
▁선발투수
▁장담
▁피그
자위대
▁버금가
▁시미즈
▁중순양함
▁ㅅㅓㄴㅈㅣ
▁ㅇㅣㄹㄹㅓ
▁ㅂㅜㅌㅇㅣㄴㄷㅏ
▁전복
▁음악가
▁미니게임
▁타쿠야
ely
▁그렌
▁전쟁터
▁소림
▁일자리
▁롤러코스터
▁액수
▁주주
▁해밀
▁저스틴
▁에볼루션
▁강정
▁스커
▁하네
▁명백히
▁인승
▁툭하면
▁ㄷㅏㄴㄷㅏ
▁찜
▁깔리
▁소수자
▁팔레스타인
▁ㄱㅡㅂㅎㅏㄴ
니르
▁질질
▁성남시
▁일정량
▁분과
▁데스노트
▁TB
▁낭만
▁능하
▁맹수
▁엄연
▁트와
ideo
▁달아나
▁margin
▁착공
▁가신
▁APC
▁나오미
▁Soul
▁Final
▁ㅅㅡㄹㅍㅓ
▁모선
▁대구경
▁사이비
▁선제골
▁비견
▁보호자
▁스턴트
▁나카지마
▁극성
▁성동
ㄲㅏㄴ
▁지방도
▁태그팀
▁절도
득점
▁마즈
▁오아
▁탈주
▁효용
▁Yes
▁쥬라기
▁파이팅
▁껌
▁촛
▁사복
▁박태
▁타라
▁Art
▁아리사
▁카미조
▁ㅁㅏㅈㅊㅝㅆ
▁엑셀
▁1953
▁마사히로
au
▁급습
▁실감
ㅁㅏㅇㅊㅣㄴㄷㅏ
▁버즈
▁치요
▁건의
▁신격
▁프리퀄
▁내년
▁일파
▁화끈
ning
▁기교
▁미완성
DER
▁일찌감치
▁공격대
▁간첩
▁석탄
▁거미줄
▁이우
▁홍준
▁분당선
ism
▁엘다
▁생산력
▁7000
▁고분
▁남산
비슷
▁읊
▁미용
ㅅㅏㄹㅇㅏ
▁크라이시스
▁방망
▁승계
▁웬디
▁헤이세이
▁교육부
▁플로리
파치
▁만년
▁밤중
▁Mix
▁수송기
▁에너
▁BMW
HC
▁비화
▁쌍검
▁재일
▁투르
▁험악
▁흉기
▁어쩌다
▁트리니티
▁ㅈㅏㄹㅅㅐㅇㄱㅣㄴ
▁모건
▁유세
고스
▁Du
▁회유
▁명확히
▁사상자
▁아사쿠라
▁매도
▁소망
▁요요
IKA
▁변모
▁Met
▁경상도
▁내려찍
85
정동
▁냅다
▁리노
▁찬사
▁유이치
▁크로노스
▁호라이즌
ㄱㅐ
ward
▁김구라
▁스쿠
▁미술관
▁공시
▁구식
▁오현
stem
▁박병호
32
▁pt
▁문관
▁Top
▁부회장
▁애틀
▁익명
▁반대쪽
▁히데키
ㄴㅏㄹㅅㅜ
▁개전
▁미우
▁블루투스
▁소이
▁천진
▁쿠즈
▁둘째치
▁무방비
▁1947
▁후지와라
▁착취
▁헤딩
▁불가피
▁선발전
▁이치카
▁푸른색
▁아키야마
▁멀린
▁아산
▁내용물
▁미스테리
▁페미니즘
▁동국
▁망각
▁완급
▁폐업
▁해설자
▁여신전생
led
▁무너
▁수제
▁기어이
▁무너뜨리
▁시속
▁양평
▁MiG
▁그제서야
to
▁영화관
▁래리
▁역마
일라잇
▁배달부
▁브로드
▁트와일라잇
▁ㅂㅏㄱㅅㅏㄹㄴㅏㄴ
▁유민
▁피노
▁마로
▁버니
▁Eng
▁방어전
▁네메시스
▁피겨
▁MIX
▁투표율
사노
▁도가
▁면도
월드
▁가야
▁구판
▁대격
▁어시
▁어정
▁표준어
▁뺑
▁마늘
▁선후
▁야자
▁어부
▁제이스
▁짓거리
▁매사
▁미움
▁서남
▁파치
폴트
▁지체
▁way
▁하얀색
▁홍준표
욕장
▁손발
▁액스
▁근육질
▁애틀랜
▁이츠키
▁테슬라
대왕
▁무로
▁장대
▁최재
▁레베카
▁로켓단
▁달랑
▁한족
ute
▁TE
▁저축
▁허약
▁페이퍼
▁Core
▁시종일관
▁벼락
▁토템
▁출입구
▁조영
▁EXP
ata
▁이큐
▁Off
▁문파
▁올인
eah
▁시게루
ision
▁ZZ
▁ㅍㅕㄹㅊㅣㄴ
▁젓
드런
현동
▁ㅇㅏㅍㄷㅜㄴ
요리
ump
▁반쪽
▁케니
▁1957
▁te
▁신봉
▁오보
린트
▁순항
▁악연
▁사나다
사관학교
▁스타더스트
▁ㅅㅐㅇㄱㅕㅆㅇㅡ
▁교제
▁IMF
▁영웅전설
▁쿠사나기
▁매입
▁수년
▁타사
▁난장
▁박세
▁슈우
▁포톤
아스
쩐지
▁CT
▁어진
▁조세
▁허술
▁어쩐지
▁Track
▁갇
▁메트
▁에디터
네트
▁희한
▁RPM
▁호루스
▁ㅎㅏㄴㄷㅡㄹ
▁메츠
▁새신
▁태권도
▁천왕
▁폴라
▁데이즈
▁프란츠
▁ㅇㅣㅈㅇㅓ
▁영재
▁위아
▁ㅎㅓㄹ
▁팔아먹
▁병합
▁파나
▁화내
▁쫓아내
▁쁘
▁테드
▁ㄲㅡㄶㅇㅓ
▁스미레
▁평하
▁밀리터리
▁켓
▁탬
▁에이미
▁바퀴벌레
▁^
세움
지우
▁로더
▁수렴
▁숙명
괭이
하니
▁합산
▁각본가
▁식별
▁참수
▁천자
▁이산
▁개인차
▁신민
▁안식
▁카프
▁보리스
▁카미야
▁랑그
▁구스타
▁ㄴㅡㄴㄱㅜㄴ
GN
▁농어
블랜드
▁요금제
▁ㄱㅔㄴㅈㅣ
▁클리블랜드
▁비대
▁요지
▁정현
▁충주
▁토바
▁투석
▁황자
▁209
▁나카노
▁빗나가
▁ㄸㅜㅀㄹㅕ
▁BP
▁요일
▁린치
▁수퍼
▁정액
▁정제
oney
▁둥글
▁Ext
비안
▁베토
▁북서
▁Mark
▁{{{-
▁김종국
▁아사미
▁연구자
제트
▁저질
▁적기
▁Cap
▁ㅊㅣㅇㅎㅏㄴㄷㅏ
▁낯
▁ve
▁공적
▁독단
▁리제
▁쪽지
▁포제
선스
악기
▁다듬
▁ㅁㅏㅌㄱㅕㅆ
▁원산
▁튜브
▁환산
▁에어리어
▁ADVANC
BY
▁대첩
▁급속도
▁학부모
눅스
▁문과
▁사냥터
▁카니발
▁긴토
▁잠자
▁진전
▁튀김
▁크레용
▁은근슬쩍
▁공전
▁맹장
▁차갑
▁첨부
▁청하
▁티베트
▁1914
▁라이선스
▁Little
▁쑤
▁증강
▁Special
▁모라
▁ㅈㅣㄹㅅㅜ
▁링컨
▁애니메이터
▁서재
▁쇼코
▁음력
▁홉
▁1938
▁아노
▁회심
▁신약
▁우선시
▁동방신기
뮬러
▁ph
▁린다
▁경영학
▁의뢰인
▁자멸
▁호르몬
린더
▁엔도
▁형주
▁느와르
▁사토미
▁셰퍼드
넘기
▁급증
▁발효
▁도전자
▁UR
▁경선
▁번번
▁우여
▁조짐
▁후카
▁사카키
▁갱단
▁업자
▁입점
▁막말
▁상체
▁송신
▁우먼
▁러블리
ㄱㅝ
▁TT
▁어긋나
▁계책
▁방관
▁위태
▁짓밟
▁하야시
▁켐
▁그분
▁모용
▁기껏해야
▁체르
▁홍수
ross
▁That
▁gr
▁광교
▁보그
▁초음
▁평이
▁리눅스
▁역전승
▁칸자키
▁Free
▁아오키
메일
▁가중
▁블러디
▁레이코
▁음료수
▁Comp
실록
▁격납
▁시녀
▁포메
차리
red
▁누락
▁뻔하
▁세속
▁재선
테리어
▁아틀레
▁성취
▁숙지
▁순례
▁파병
▁희미
▁ㄹㅏㄴㄷㅏ
▁근황
▁사주
▁이남
▁내려놓
ㄷㅏㄹㄹㅕㅆ
▁변속
▁암묵
▁황소
▁now
▁수송선
▁주변인
▁ap
▁해인
▁식신
▁지니어스
파일
▁설레
▁한국식
두근
▁ac
▁별거
▁체류
▁최연
▁카툰
CE
▁++
▁아캄
▁토드
▁조슈아
프스
ocal
▁구축전차
ㅇㅜㄹㄹㅕ
▁만우
▁정유
▁화합
▁이민자
▁장민
▁net
렁이
▁구스
▁지폐
▁태반
▁피칭
▁호화
ner
▁업소
▁순전히
▁서프
▁아레스
주곡
▁고철
▁도류
▁멜리
▁불안감
전쟁
▁달래
▁학군
▁버팔로
▁스팟
▁마르크스
▁성급
▁1100
▁사념
▁비밀리
▁심영
▁em
▁상경
▁일루
▁재기
aid
▁PT
▁구가
▁떨치
▁티나
▁판명
▁ㄴㅏㅈㅊㅝ
▁데프
▁요양
▁치세
▁Bad
▁레프트
▁ㄷㅡㄹㅋㅕ
ird
▁무예
▁제국주의
▁ㅂㅜㄹㅌㅏ
▁팻
▁일컬
▁아키코
▁꾹
▁더러
▁독성
▁왕성
▁찍히
▁ㅇㅕㅅㅂㅗㄹ
▁찔
▁의거
▁대전광역시
▁악단
▁열화
▁츠지
▁MOV
▁틀림없
▁ㄴㅏㄹㄹㅏ
▁의존도
ASS
▁갇히
▁자객
▁지탱
▁친선
▁1300
▁구작
▁기통
▁대함
▁토착
▁512
▁코스모스
OCK
▁휴지
▁플롯
▁샌드위치
▁의석
▁쿠보
▁도르트
▁만우절
투사
▁다량
▁동이
▁양양
ㄱㅎㅣㄹ
▁콘테스트
▁FO
▁추이
▁가격대
▁궤멸
▁적과
▁화속
▁Rob
▁야스오
▁피스톨
▁Every
뚜기
▁경원
▁난데
▁무법
▁블랑
▁!!!
▁부러지
▁아이카
▁정규군
▁ㄷㅏㄹㅎㅐㅆ
▁어도
▁이강
▁풀백
▁경제력
▁땜
▁주름
▁퍼플
▁get
▁마츠다
▁팔다리
▁서바이버
상부
▁#,
▁반주
▁호조
▁KA
▁부피
▁컬쳐
▁흡입
▁카르타
▁크레인
곡절
ton
▁평면
▁경비대
▁토모야
▁매점
▁설문
ㄱㅡㅁ
▁우여곡절
▁각별
▁ㄴㅡㄴㅋㅓ
소연
▁불곰
▁망설이
▁센고쿠
▁쫓아가
▁카자흐
▁유파
▁픽션
▁실컷
▁540
▁바가지
▁쟁탈전
▁코스모
▁공석
▁초밥
ㅁㅏㅇㅊㅣㄹ
▁mA
▁자재
▁Orig
▁스케이팅
lection
▁ㅇㅣㄱㅎㅣㄴ
먼드
▁권하
▁이트
▁착안
▁평시
▁365
▁강대국
▁ㅇㅕㅆㅇㅓㅆ
▁긋
▁HR
▁사찰
▁자음
▁ㄸㅢㄴㄷㅏ
▁로어
▁유한
▁작물
스부르크
▁거액
▁분대장
▁사서
▁서스펜
▁프리티
▁what
24
its
▁무패
▁소품
▁연화
▁게재
▁명심
▁저번
▁포뮬러
▁호문
▁사고방식
트릭
▁복수심
▁남아프리카
▁ADVANCED
시간
일본
▁매뉴
▁스켈
▁스투
▁이범
▁창시자
▁아디
▁여차
▁초라
▁시트콤
▁투수진
▁망자
▁번영
▁옥스
▁지저
▁Rain
▁폄
▁돌풍
▁카르텔
▁Af
▁내걸
▁노라
▁카나메
▁플랫폼
▁맥도날드
▁윤영
▁NA
▁광부
▁아틀란
▁ㄴㅡㄹㄹㅣㄹ
▁짭
▁하오
ㅇㅗㅁ
▁벨벳
▁그리핀
▁세바스
▁하세가와
▁추위
티티
▁거창
▁라리
▁민지
▁Order
▁사이코패스
▁슬로건
▁티코
▁206
▁May
▁암석
▁입법
▁카밀
▁하계
베르크
vent
▁꼭대기
▁다이빙
▁변속기
영웅전설
▁은하영웅전설
tm
▁창당
마을
캐슬
▁언뜻
▁비열
▁재탕
▁Po
▁노보
▁들려주
ㄴㅜㄴㄷㅏ
▁오피
▁TBS
▁don
▁애리
▁sw
▁덧붙이
▁베토벤
바인
▁선별
▁플로리다
▁멘토
▁태백
▁라이브러리
▁코러스
▁방아
▁봄버
▁판넬
▁필승
▁한눈
▁디바인
▁멱
살렘
ura
▁블룸
▁비타민
▁수식어
▁수만
orts
마니
▁공구
▁아랑전설
▁특색
루살렘
▁뉴캐슬
트니
▁근위
▁어감
▁갈아입
▁껴
▁ㄱㅣㅅ
▁편집자
▁각광
▁당원
▁새해
▁앵글
▁온건
▁아카시
▁행정부
▁뱌
▁바드
▁오거
▁바빌
▁색기
▁아우구
▁숙적
▁에지
▁전범
▁틀어막
▁역적
▁파충
▁노동당
▁수산
▁코피
▁공천
▁굴림
▁등용
▁레고
▁포신
▁알라딘
▁재판소
▁트렌드
▁동결
▁오모
▁오산
▁온전
▁인테르
▁PA
▁순조
▁안톤
▁패권
▁스트롱
태격
▁가맹
▁수료
▁장발
▁초회
▁티격태격
▁이리야
▁카즈미
▁요령
▁최성
▁Are
▁고드
▁낙서
▁서슴
▁자선
▁포섭
▁스트림
▁운동가
▁잔소리
▁징집
▁후진
▁여덟
▁자결
▁효력
리스크
▁알아차리
▁럿
ㅁㅐ
▁성주
▁성희
▁예매
▁채굴
▁흑발
▁구루
▁분수
▁조동
김없이
▁성범죄
▁아머드
▁캅
▁표류
▁풍속
▁ㄴㅓㄼ
▁여객기
▁인테리어
▁나선
▁미소년
▁아브
▁허접
ㄷㅐㅆ
▁야미
▁자서
▁근로자
▁도르트문트
▁png
▁정신병
니엄
▁농도
▁만장
▁소셜
▁역기
▁재림
▁최장
son
▁괴짜
▁동선
▁Best
▁밀레니엄
살이
스틱
ㅅㅔㄴ
▁레일건
▁9000
▁ㅈㅜㄹㅇㅣㄴ
▁민트
▁호족
▁ㄲㅜㄹ
▁베네치아
▁콜로세움
▁ㅈㅜㄹㄱㅔ
▁남친
▁린이
▁고아원
▁난장판
▁아르타
▁Stri
▁ㅁㅜㄷㅎㅣㄴ
ape
▁골격
▁골대
▁마성
▁ㄴㅏㅊ
▁사오리
▁판단력
▁진범
ㅇㅡㅁ
xt
▁깐
▁로버
▁메이크
▁아서스
▁코우타
▁ㅍㅏㄹㄹㅕㅆ
▁신차
▁티르
▁형법
▁MI
▁단타
▁아토
▁티모
▁제각각
▁길티
▁소양
▁카로
▁정부군
▁ㅂㅣㅅㄴㅏ
▁ㅂㅜㄹㄹㅣㄴ
▁ㄲㅞ
ster
▁트롤링
▁Pack
교도
ize
▁소홀
▁리비아
▁아틀란티스
▁힛
▁제명
anna
▁pe
▁미하일
▁예루살렘
▁조부
▁착수
▁GA
▁kn
▁근방
▁슈리
▁파기
▁파커
▁간과
▁다라
▁아즈텍
▁쎄
▁NP
▁마쓰
▁무토
▁통찰
▁원안
▁호밍
▁프리덤
▁히로미
▁경멸
▁서동
▁줄리아
▁매뉴얼
▁웍스
▁오카다
너드
▁물류
▁리포
부수
err
▁사비
▁악수
▁초심
▁ㅍㅜㄴ
▁ㄱㅕㄴㄷㅕ
▁디언
▁미우라
▁ㄲㅡㅌㄴㅐㄹ
▁나아지
문화
▁대련
▁마자
▁재결
▁쿠우
▁포자
▁항공대
▁ㄲㅡㅌㄴㅐㅆ
임수
▁고온
포동
▁동탄
▁행동력
▁그레이브
▁옅
▁ㄹㅗㄴㄱㅏ
네즈
황후
▁상임
▁유체
▁앞머리
▁전면전
▁1951
▁몰아붙이
슬로
AKA
▁겨누
▁미니건
▁PH
▁진중
▁짬뽕
▁370
▁스코어링
▁슬라이더
28
▁남코
▁독소
▁니퍼
▁은어
▁한판
ㄲㅗㅂ
▁ㅅㅗㄴㄲㅗㅂ
▁탤런트
oud
▁his
▁조종당
▁칠드런
▁tw
▁결단
▁불륜
▁유족
▁주시
피탈
▁대칭
▁차우
▁they
▁ㅎㅐㅆㄷㅏ
▁은색
▁이매
▁노리코
▁역전패
▁타노스
상스
▁기형
▁마고
▁윤성
▁Joh
▁Mir
▁마일리
▁정찰기
개골
▁사이먼
▁인조인간
▁Mbps
▁메커
▁쿠파
▁끝없이
▁앤드류
잣집
▁원가
▁하남
자국
▁교원
▁두각
▁벼슬
▁자일
▁무쌍
▁하가
▁ㄷㅏㄹㅎㅏㄴㄷㅏ
▁클러치
ㅇㅣㄹㅇㅡ
▁ㅇㅝㄴㅊㅣ
▁람보
▁설교
▁달려드
▁코만도
자스
OSS
▁말라
▁패하
▁홍차
IDE
▁관현
▁말뚝
▁세련
▁쿠노
▁흑색
▁조선인
▁피크
▁747
▁mAh
불리
▁표명
폴리스
▁크래시
ma
어뜯
▁미분
▁캐쉬
▁"..
▁경순양함
UG
▁통장
▁미츠키
▁갑주
▁몰입
▁유괴
▁이장
▁초연
ze
▁당근
▁무소
▁레이서
▁울버린
려보
ama
▁노노
▁서북
▁직종
▁나오토
▁노하라
▁세계수
썰트
▁빼내
▁불량배
▁어썰트
zy
▁ㅁㅏㄱㅎㅕㅆ
▁쭈
▁대물
▁인분
▁미카도
▁이방원
▁장시간
▁다채
▁식구
▁총회
▁ㅁㅓㄹ
hy
▁극동
▁반열
▁척추
▁171
▁토머스
▁촉한
▁왕정
▁나이지
▁나이지리아
▁국지
▁주점
▁창법
▁ㅇㅏㄹㄹㅣㅁ
▁215
▁이부키
▁First
▁ㅅㅓㄴㄱㅏ
SS
▁광화문
▁우익수
▁선량
▁앰프
▁음파
▁부끄
▁철구
▁마라톤
▁즌
려우
▁브룩
▁신야
▁어머
▁텐트
▁아돌프
▁데이비스
▁아오바
▁NORM
▁파밀리아
▁캉
헤드
▁지출
▁도요토미
END
▁부설
▁분파
▁오기
▁이연
▁도키
▁에라
▁히키
▁이세이
▁교구
▁금정
▁순차
▁카모
▁컨버
▁니티
▁덴마
▁치솟
▁아라이
▁도부
ㅊㅜ
▁발령
▁충원
▁ㅎㅗㄴ
▁천리
▁혈압
▁게이밍
▁애틀랜타
▁미코
▁161
▁ㄱㅣㄹㄹㅐ
훈련
▁복식
▁추축
▁정신줄
▁저술
▁181
▁실비아
▁독살
▁사학
▁강서구
▁여군
▁피고
▁기념일
▁벳
▁HT
▁넬슨
기수
▁발도
▁이목
▁잔존
▁호머
너티브
▁얼터너티브
어처
▁수기
▁유창
ㄱㅡㅅ
▁전광판
▁미니어처
▁포메이션
▁ㅅㅗㄱㅎㅐㅆ
▁교포
▁ㅇㅘㄴ
▁승용차
라이어티
▁급감
▁로데
▁아루
▁코타
▁상반신
▁버라이어티
로트
▁맨손
▁유죄
▁허준
▁MAD
▁라이저
▁1936
▁Perf
▁타케우치
▁각주
▁마천
▁우터
▁자행
▁골짜기
▁익산
▁235
▁ㄷㅏㄹㄹㅣㄹ
레마
▁분전
▁오재
▁NORMAL
시즘
▁탄피
▁Down
▁브라이트
▁용납
▁피파
▁시끄럽
▁Miss
▁ㅁㅣㄹㄹㅣㄴ
▁ㅎㅡㄹㄹㅕㅆ
▁거침
▁파주
▁포상
▁NMB
▁사우디
▁비터
▁요시카
특기
▁은빛
▁정선
▁주특기
ㅟㄹ
ume
▁쳇
▁시연
▁데니스
▁프렌드
▁City
▁ㄴㅗㅎㅇㅣㄴ
yes
▁실물
▁탄종
▁미노리
슬라비아
▁오퍼레이터
▁유고슬라비아
▁전곡
▁메사
▁물음
▁총애
▁Mem
▁ㄱㅓㄹㄹㅓ
▁ㅃㅗㅂㅎㅕㅆ
▁예민
▁통폐
▁Hot
▁수없이
▁토미노
▁Char
▁승승장구
▁매춘
▁선단
▁알제리
▁매기
▁북동
▁일면
▁wiz
▁자연히
36
▁뻔뻔
▁데미안
net
▁육신
▁출생지
▁한류
▁AGE
▁에그맨
▁한없이
▁페러
ga
▁안장
▁여제
▁향신
▁마카오
▁시베리아
▁카트리지
▁판교
▁275
▁공안
▁벨리
▁열폭
▁이케다
ㄴㅗ
▁약사
설수
▁혐한
▁데일리
▁시급
▁칵
▁돌변
▁발병
▁케미
▁207
▁Happy
UD
▁시영
▁씌우
▁DEF
▁다이크
▁어정쩡
▁강국
▁횡령
▁대성공
회전
▁명절
▁역행
▁왕창
▁ㅇㅝㄴㅅㅜㄹ
만화
▁낙양
▁알트
▁집게
▁이메일
▁단도
▁도맡
▁ㅈㅗㄹㄹㅏ
▁서경
▁슬프
▁완력
▁제때
▁김천
▁넥스트
▁NATO
▁마구잡이
▁몬스터즈
▁Break
▁Class
독스
▁관건
ㅎㅇㅏㅆ
▁ㅆㅏㅎㅇㅏㅆ
▁세인
▁Ret
▁조나단
▁나즈
▁약품
▁이송
▁RED
▁백병전
▁재수없
▁탑승자
▁겸임
▁니르
▁재발
▁컬처
▁dis
▁눈보라
▁ㄱㅓㄴㅁㅏㄴ
awn
▁발하
▁종파
▁풍습
▁Und
▁헤일로
▁골절
▁규율
▁일병
▁몸싸움
▁스트라
▁어르신
▁우울증
▁교묘
▁분실
▁신종
▁궁예
숭아
▁내쫓
▁치즈루
▁유토피아
조림
▁올레
▁유리카
▁just
▁ㅁㅓㄱㅎㅕ
▁잭스
▁ㅎㅐㅆㅇㅓㅆㅇㅡ
나우
▁옥수수
분투
▁덮치
▁MUS
▁르네상스
▁가발
48
▁펩
꼬박
▁꼬박꼬박
샤인
▁#!
▁도봉
▁베로
▁요하
▁전경
▁211
▁사옥
▁첩자
덴티티
▁Dec
▁SHD
▁아이덴티티
▁ㄱㅏㄹㄱㅜㅁ
▁발해
▁북벌
▁샤르
▁Stage
26
▁TN
▁헌트
▁선동열
▁감마
▁버크
▁머릿속
제이
▁스톨
▁전위
▁앞부분
▁관전
▁성의
▁헤드폰
▁순발
▁토모코
▁가차없이
IAL
▁요가
▁친숙
▁ㅍㅐㄹ
▁콴
▁미주
▁순화
▁정품
▁호시노
▁큰일
▁말버릇
▁외교관
▁철학자
▁ㅈㅓㅂㅎㅏㄹ
▁만담
▁러스트
▁기폭
▁번거
▁아로
▁역도
▁성희롱
▁위아래
▁쿼터백
ius
▁수렵
ㅇㅗㄹㄹㅕㅆ
▁망신
▁머들
▁입석
▁폭언
▁풍미
▁스테이크
부리
ONE
▁실록
▁오소
▁아키하
▁경관
▁단수
▁힌두
▁동호회
▁순발력
27
▁놓이
▁총검
▁하로
▁윈스턴
가키
▁다람
▁노하우
▁유키코
▁감속
▁견습
▁코퍼
▁핑거
▁Elect
▁과반
▁주재
로그램
▁프리랜
▁로니
▁분비
▁합숙
ORPG
▁STA
▁엄폐물
▁클라크
▁통폐합
▁승낙
▁조개
▁쪼개
ole
▁황폐
▁드래곤즈
▁ㄷㅗㄹㄹㅣㄴ
▁경산
▁닷컴
▁로페
▁마니아
▁전라도
▁GAME
▁동성애자
대상
que
▁노화
▁혈관
▁레기온
▁over
▁막스
▁선지
▁950
▁개머리
▁바카
▁키네
▁포이즌
ㅁㅜㄹㄹㅓ
▁행렬
▁드러머
▁레스터
▁시드니
▁최하위
att
▁매매
▁혼잡
▁재생성
▁요코야마
▁매튜
▁한신
▁765
▁방영일
비야
플러
▁곧장
▁베르나
▁우왕
▁나폴리
▁다케다
▁두개골
▁패러독스
▁예거
▁우에노
▁포레스트
▁애니플러스
▁촉진
▁화보
▁돼지고기
▁랠
구멍
▁노미
▁빙글
95
▁찻
▁퀀
▁반죽
ㅇㄱㅣㄴㄷㅏ
▁!!"
▁부상자
▁플라워
▁콩고
▁판다
▁풀이
오피아
▁440
▁ESP
▁디에고
▁예컨대
▁주둔지
▁일렉트릭
▁에티오피아
▁ㄷㅙㅆㅇㅓㅆ
▁레츠
▁코즈믹
삭스
▁Cor
▁샤이니
▁두근두근
▁Legend
멘션
블랑
▁양말
▁MOD
▁디멘션
▁가관
▁소란
▁숙박
▁수차례
▁every
▁ㅈㅓㅇㅎㅐㅆ
▁중남
▁수사관
▁다리우스
▁군세
▁전리
▁쳐내
▁2021
▁뻐
▁oh
▁동강
▁반신
▁왕세
▁최형
▁뛰어다니
▁ㅈㅣㄴㅎㅐㅇㅎㅏㄹ
▁이로
▁Fly
▁our
▁ㄷㅚㅆ
▁EXTRA
▁ㄱㅣㅅㄷㅡㄴ
▁로트
▁족족
▁Rad
▁속임수
▁경음
▁다분
▁애착
▁래빗
▁세카
▁208
▁htm
▁ㅌㅡㄹ
▁다이묘
▁알고리
▁약혼자
▁주유소
▁쫓겨나
▁컨퍼런스
▁쿠로사키
▁광주광역시
▁Fre
▁알프레드
▁코드네임
com
▁잠식
irect
▁넛
▁에비
▁어려우
▁ㅎㅡㄴㅊㅣ
▁덤블
▁산호
▁아발
ㄷㅎㅕㅆ
▁명언
▁주루
▁탈영
▁부잣집
▁과열
▁영장
▁단축키
▁대대장
▁마사루
▁명실상부
▁ㅈㅜㄱㅇㅣㅁ
▁다이노
▁타이완
GM
마드
▁엘더
▁짜장
▁TRA
▁유니버
▁니키
▁히로키
▁구실
▁깨우
▁양재
▁Aut
get
▁**
▁보름
▁이도
▁Dest
▁사칭
▁페트
▁포유
arth
▁메커니즘
▁EXPER
▁차고
▁천차
▁팬더
▁기로
▁펑펑
▁EXO
▁한국사
각형
레톤
▁역장
▁지간
▁박진영
▁클리프
▁Level
▁볶음
▁치하
▁Mac
▁Ry
▁죠타
▁자그마
▁스켈레톤
IO
▁이크
▁황색
▁이정훈
▁출연자
▁향신료
▁ㄷㅗㅇㄸㅓㄹㅇㅓ
▁딱지
▁214
노부
▁생소
▁양분
카이저
▁위스키
▁NASA
▁자속
▁브라이
▁시리우스
▁미야코
바탕
▁섬뜩
▁제타
▁풍신
▁헤더
▁교활
▁집요
▁포구
INAL
▁CGV
▁사업가
▁프리랜서
23
다듬
OTH
▁스메
얼거리
▁대나무
▁down
▁냉철
▁작자
▁Tech
▁노기자카
▁알고리즘
리언
▁검거
▁노년
▁미끄
▁분경
ㅃㅡㄹ
▁자서전
▁ㅉㅣㄹㄹㅕ
▁역세
▁잔여
떨어지
▁노미야
▁이따금
ㅁㅜㄹㄹㅓㅆ
▁보옥
▁위드
▁한인
글러브
▁골든글러브
▁건축물
▁파충류
▁산산조각
▁TECHNIKA
▁ㅈㅓㅇㅎㅏㄴㄷㅏ
▁사보
▁셰이
▁이비
▁클럭
▁훈련병
▁ㅁㅓㄱㅇㅣㄹ
▁곧잘
▁적도
▁301
▁경합
▁수병
▁정관
▁체하
▁취항
▁공연장
▁피어스
해머
▁혈연
▁훌쩍
가르드
▁보이드
▁Port
▁김응
▁백마
▁에뮬
▁탄산
▁이승현
▁자이로
▁하야미
▁more
▁백스
▁제동
벌이
▁Ul
▁기각
▁대영
▁화전
▁Pol
▁컴플렉스
▁빈민
▁외동
▁윤종
▁그랜트
▁ㅁㅣㄹㅊㅕ
우먼
▁과잉
▁뽐내
▁닳
TER
▁복서
▁요네
거스
▁아재
▁양지
▁최순
▁권력자
▁언론사
▁가르시아
▁카트라이더
선거
enc
▁권법
▁나주
▁EXPERT
▁휘둘
▁어웨이
▁ㅈㅑ
▁편찬
▁지상군
▁개머리판
▁모자이크
동물
▁무르
▁달려오
▁등록금
▁마이티
▁이어주
▁지명타자
▁된
노프
ano
▁국교
▁ㅍㅕㄹㅊㅣㄴㄷㅏ
▁AO
▁노우
▁미적
▁타타
▁410
▁주제가
▁난데없이
피드
▁차차
▁헤비급
▁ㅅㅏㅇㅎㅐ
▁=,
▁켄신
▁환술
▁RGB
펠러
▁닛산
▁싸구려
▁페널티가
▁자백
ya
ated
▁쿠퍼
▁애리조
도나
▁여중
▁마츠이
▁공황
▁덴오
▁아와
▁블로우
▁쏙
▁푸시
▁하피
▁Hol
▁생몰년
▁올리브
▁ㅂㅜㅌㅇㅣㄹ
▁아소
▁카니
▁펠레
▁갈라지
▁도카이
▁아키오
▁제이미
▁AW
▁놀림
▁무서
▁켈트
무쌍
▁공문
▁모차
▁송곳니
▁레토
▁자릿
▁홍련
▁밧줄
▁오레
▁투지
▁ABC
▁방탄복
▁하이스
▁ㅇㅓㄺㅎㅣㄴ
소타
▁포박
니케이션
▁마이스터
▁렐름
▁이면
▁농어촌
▁위용
▁광저우
▁라이스
▁파라오
▁조선일보
▁독립운동가
▁커뮤니케이션
tor
▁다의
▁선더
▁쾌락
▁동시대
▁특촬물
▁WHIP
ㅉㅣ
▁비행장
▁Line
에트
▁뒤덮
▁원대
▁정가
바위보
▁노태우
▁가위바위보
▁이나바
▁이윤열
▁서큐버스
▁돌려받
▁선샤인
▁졸지에
▁미네소타
▁ㄸㅡㄷㅇㅓ
uro
▁방주
ouble
▁ㅈㅏㅁㄷㅡㄴ
ㅈㅔ
수염
▁채무
▁즐거움
▁댁
매기
▁코칭
▁해부
▁호연
▁레인저스
▁진풍
▁Hey
▁거북이
▁Fall
▁자정
▁하긴
▁GPS
▁스사노
▁활발히
▁강당
▁속출
▁도메인
▁타카미
▁증식
▁AAA
성어
▁송지
도니아
ague
▁good
피디아
▁볼드모트
질기
▁레터
▁명맥
▁품목
▁들어맞
▁베이커
▁끈질기
▁보급품
▁위키피디아
▁다테
▁뒤엎
▁몬드
▁Val
▁마리나
▁소스케
하늘
▁바이트
▁라르
▁산전
▁오줌
▁요마
▁이룩
▁장기전
▁명계
▁반입
▁팽창
ther
▁ㄴㅔㄹ
▁경희대
be
비지
츠미
▁모성
▁Ant
▁아이슬
ㄱㅏㄹㅅㅜ
▁watch
▁갈비
▁티오
▁노이드
▁어설프
ㅇㅏㅅㄱㅕㅆ
▁고라
▁급소
▁연장선
96
▁고구
▁코라
▁라이엇
▁우즈베
▁타무라
▁ㅅㅓㄴㅎㅏㄴ
we
▁내무
▁영령
ㄸㅓ
▁"'
▁인계
▁일전
▁메모리얼
▁케이스케
▁하나같이
▁개중
▁후지타
▁감격
▁강북
▁레너드
▁ㅆㅡㄹㄹㅕ
▁남서
▁노드
▁살포
▁앤트
▁완투
▁지바
▁유희열
▁Kill
▁white
▁복판
▁피통
▁희소
▁매크로
▁Show
▁ㅈㅏㅁㄱㅕ
▁방사선
▁요스케
팽이
▁이펙터
도어
UND
▁OT
▁간직
▁녹스
▁소굴
ITAD
▁설립자
▁ㅈㅏㄱㅇㅏ
und
▁보크
▁속주
▁투여
▁병살타
▁낙동
▁영수
line
▁ㅋㅐㄹ
▁해밀턴
▁Spring
▁쿡
타마
▁발랄
▁008
▁Pop
▁EL
▁ㅃㅣ
▁머큐
▁오스틴
▁가락
▁목성
배기
▁꼼꼼
▁봉지
▁황천
▁물어뜯
▁장제스
키오
▁라카
▁몽환
▁호신
▁가요제
▁펌웨어
ck
▁튠
▁취역
던지
▁조련
▁총수
▁투영
▁팍팍
▁010
▁스타터
▁ㄱㅕㄴㄷㅣㄹ
조선
▁괄호
▁구이
▁리라
▁Cal
▁마츠리
▁바티칸
▁박지성
▁정상급
▁장문
▁연합국
▁아이슬란드
비어
▁EPL
▁Ind
▁공모전
▁한자어
▁마요
▁에니
▁와해
▁구세주
▁알버트
▁트랭크
▁히데오
▁디스트로
▁도래
▁청혼
▁동자
▁발열
▁의약
▁캠핑
▁중심부
▁묵시
▁상층
▁Way
걸음
▁소폭
▁외견
▁한술
▁조종석
▁Dead
▁디스트로이어
▁깍
구석
매김
▁수두
▁인파
▁천문학
▁Girls
럴드
▁내신
▁포괄
▁카디널
▁인민군
▁국무총리
▁자리매김
▁궁궐
▁상수
▁포츈
▁동해선
▁목욕탕
▁환상향
▁나토
▁아다
▁꼬맹이
▁은지원
▁GITAD
▁민심
▁비우
▁여하튼
▁Club
▁바이올렛
▁ㅈㅣㅁ
▁날카
▁다지
▁1937
▁고마
▁도살
▁빡세
▁연무
▁자물
▁공포증
▁조지아
▁ㅅㅣㄹㅈㅔ
▁영도
▁브리핑
▁원정대
▁이대호
▁타카기
▁사하
▁오블리
▁퍼니셔
▁후타바
▁사적
▁완패
▁편차
▁형용
지부지
ault
▁흐지부지
노세
▁자습
ㄷㅐㄴ
▁부적절
▁카나타
ipedia
▁ㅇㅣㅂㅎㅕㅆ
▁이석
▁방아쇠
▁자물쇠
▁물려주
▁비행단
▁생활관
▁세리카
▁김시
▁분식
▁장화
프레이
▁How
AV
▁뻑
▁반공
▁신탁
▁아쉬워하
▁MMORPG
▁로엔
▁사이키
▁스케이트
gy
▁노다
▁재킷
▁전조
▁혹독
▁데이지
ㅂㅎㅕㅆ
연의
▁간절
▁깃들
▁돌기
▁사나에
▁ㅁㅜㄹㅇㅡ
▁큘
▁sk
▁건달
▁원나라
▁SPEC
▁아카이브
▁ㄲㅡㅌㄴㅐㄴ
▁내비
▁이규
▁들이받
▁일찍이
▁티아라
ㄷㅣㅈㅎㅕ
▁WORLD
러미
▁성룡
▁조디
▁퀘이크
▁신천
▁ㅇㅑㄱㅎㅐㅆ
▁메우
▁비닐
▁샤먼
▁얼라
▁동호인
▁모차르트
게이트
▁Now
▁버지
▁오블리비언
▁길동
▁반려
▁위임
▁판인
▁에스퍼
▁윤석민
▁프랭클린
▁굳히
▁심볼
ayer
▁이광수
ㄸㅓㄹㄲㅏ
▁과묵
▁권속
▁스탬
▁일회
▁특례
▁거주민
▁똑바로
▁프로페
▁헤이즈
▁계약자
▁XI
▁격분
▁군용
▁달렉
▁절제
▁톰슨
ling
▁로렌스
▁싸그리
▁위안부
ㅇㄱㅕㅆ
▁DL
▁Hi
▁별점
▁숨결
▁경계선
▁다이어
▁추격전
제프
회의
▁깜빡
▁요도
▁한문
플라이
▁HKT
▁래더
▁실기
▁름
▁기권
▁하얗
▁ㅁㅏㅈㅊㅜㄴㄷㅏ
▁안치
▁일식
▁공민
▁승조
▁안구
갯소리
페르노
▁제라드
▁오아시스
▁슈츠
▁여운
▁원반
▁Har
▁모로코
▁이마이
ㅉㅐㅆㄷㅡㄴ
▁돗
▁귀속
▁만성
▁빈곤
▁사이렌
대군
▁Med
▁은신처
▁ㄱㅕㅂㅊㅣㄴㄷㅏ
▁백호
▁연마
▁EXE
▁끌어안
▁1934
▁공평
▁유품
▁Sam
▁인페르노
ㅈㅕㅆㅇㅓㅆ
▁구매자
▁호타루
▁야유
▁샘플링
▁Death
▁Space
▁워해머
▁주화
▁코쿠
▁황룡
▁선교사
▁MOVIE
▁아세
▁인술
▁타깃
▁마음먹
▁GITADORA
야구
▁KE
▁레티
▁루팅
▁양팔
▁시위대
▁연장전
▁테크놀
▁ㅃㅓㄴㅎㅏㄴ
안군
▁디디
▁세조
▁수모
▁안주
▁인턴
▁보컬로이드
통일
▁-!
▁인가
▁감염자
▁홈플러스
▁XG
▁고글
▁금단
▁창간
▁Def
▁태양계
▁Pass
▁ㅁㅏㅇㅅㅓㄹ
▁ㅈㅏㅂㅎㅣㄴㄷㅏ
▁금빛
▁도핑
▁번역본
▁Sweet
▁ㅍㅜㄹㄹㅣㄴㄷㅏ
▁바운
▁속칭
▁수속
▁유타카
▁휘둘리
▁Friend
▁장자
▁바닷가
▁우스갯소리
▁과하
▁드미
▁무트
▁발단
▁성종
▁수반
▁부착물
▁스펙트
▁Park
▁인플레이션
▁ㅁㅓㄱㅎㅣㄴㄷㅏ
▁무마
▁이견
▁종속
덩어리
▁템페스트
▁뿅
팔구
▁EB
▁하룻
▁엠블럼
▁드로이드
iny
▁독고
▁수첩
▁톱니
▁니스트
▁반짝이
▁소방서
▁만연
▁미얀
▁야오
▁팔라
▁ISO
▁아즈마
▁ㅎㅜㅁㅊㅣㄴ
▁햐
▁십중
▁함성
▁bit
▁선호도
▁세이프
▁고압
▁비겁
▁잠자리
ortex
▁스구
▁지마
▁십중팔구
▁플레이버
이시
▁받침
▁엠마
ople
▁포식자
▁삼국지연의
제비
▁그람
▁박차
▁자상
▁그지없
실신
▁HY
▁백과
▁번화
▁정박
▁껍데기
▁떡실신
▁레이팅
▁부르크
▁사토루
▁밀수
▁한큐
▁관현악
▁전근
UK
▁구수
▁식용
▁헌납
ental
ASY
▁셋쇼
▁양육
다이스
▁셋쇼마루
바꿈
▁조라
▁협의회
▁Story
▁MY
▁김연아
▁거너
▁검출
▁노장
▁신뢰도
꿀멍
▁머슬
▁습하
▁실격
▁안대
▁카빈
▁has
▁데꿀멍
▁ㄴㅓㅁㅊ
▁로드리게
▁Bu
▁If
▁금세
▁모란
▁땅굴
▁재차
▁Sur
unk
▁린코
▁Inv
▁WWF
▁디폴트
▁김세
▁라멘
▁직급
▁탈리
가요
송이
▁계투
▁번쩍
▁비어
▁엘릭
ander
▁슬럼프
▁더듬
▁숙제
▁카키
깃거리
▁min
▁지원자
▁걸어다니
재욱
▁슈테
▁정국
▁칩셋
▁경례
▁요절
▁원내
▁광해군
▁합격자
▁아톰
▁잠정
▁태후
▁통통
66
ubl
▁막시
▁발진
▁캡쳐
▁평온
▁삼각형
▁라그
▁음역
▁ㅅㅏㄹㄹㅕㅆ
▁맨몸
▁변칙
▁숙이
▁지네
▁하원
▁후리
▁Cha
일비
▁병풍
▁사스
▁신승
▁유흥
▁중파
▁무례
▁미국식
▁클라이맥스
▁생식
▁스톱
▁은둔
▁기울이
▁이바라
▁지원군
▁무구
▁속사
▁연옥
▁점장
▁창출
ㄴㅓㅁ
우로스
ㅇㄱㅏㄱ
▁이보
▁ㅅㅐㅇㄱㅏㄱ
▁본점
▁유린
▁지드
▁환승역
▁타이베이
▁Never
거래
▁관세
▁때우
▁의병
러나오
▁흘러나오
▁가희
▁사절
▁안즈
▁인삼
▁마일리지
▁반년
▁수트
▁트란
▁혼용
▁과거사
▁아야노
▁John
▁사이클론
▁케이이치
▁ㅊㅐㅇㄱㅕㅆ
str
▁GE
▁나트
▁바텀
▁서주
▁빗자루
▁상승세
▁ㅎㅑㅇㅎㅐㅆ
곡역
미아
ley
▁DSP
▁ㅈㅓㅇ
▁점프력
▁ㅈㅏㄹㄹㅕㅆ
걸스
▁나지
▁발성
▁성북
▁케어
▁쾌적
▁블로킹
▁ㄴㅡㅈㅊ
더리
폭풍
▁몽키
▁밀짚
▁봉신
▁일괄
▁다르크
RAS
▁군장
▁변기
▁살육
▁요크
▁LOL
▁평의회
▁핫토리
▁팥
▁di
▁부팅
▁스맥
▁양천
▁ㄴㅗㅎㅊㅕ
▁스냅드래곤
▁거하
▁제아
ords
▁스맥다운
▁ㅎㅏㅁㅇㅣㄴ
승우
ope
▁고딕
▁성물
▁그리폰
▁득점자
▁미치루
▁ㅁㅕㄴㅊㅣ
거나
▁노련
▁저편
메이트
▁바깥쪽
▁두루마리
▁난도
▁연혁
▁존기
▁미노루
▁야마노
▁일어서
▁RT
▁YG
▁샤인
▁결정타
자치단체
▁벗기
▁ㅅㅏㅁㅋㅕ
▁법령
▁노블레스
▁지선버스
▁GU
▁질럿
▁Tra
▁코마츠
▁키쿠치
▁키리코
▁3500
▁부지기수
고로
테라
▁멱살
▁음질
▁정근
▁쟝
▁백설
▁살벌
▁223
▁고고학
▁김유진
▁파우스트
▁갉
▁감명
▁몰두
▁샤우
▁이코
▁입찰
▁ㄷㅜㅁ
▁거리낌
ux
▁연장자
▁표지판
ㅇㅗㄹㄹㅣㄴ
▁디어
udio
▁ㅍㅏㄹㄹㅣㄴ
▁군청
▁껴안
▁몸값
▁연못
▁저것
▁타도
미사일
▁포스팅
▁Will
▁분출
▁안영
▁외주
▁제천
▁콘스
네이션
마이트
tain
▁Bro
▁\]
▁와드
프릭스
▁ㅇㅡㄹㅅㅣ
▁기타프릭스
당기
▁마우
▁혹시나
▁우버
▁Cry
▁Mer
▁아리마
▁아마노
▁신진
▁리토
▁압둘
▁대천사
▁ㄴㅗㄹㄹㅏㄴㄷㅏ
▁겨냥
▁차츰
▁페드로
▁wikipedia
▁내력
▁발기
▁Net
▁Set
▁there
▁훤
▁수이
▁웅장
▁추대
▁해협
▁로스쿨
▁수호신
▁하룻밤
▁다승
▁볼링
▁자택
▁불명예
토메
▁주지
▁파프
raft
▁아나킨
▁영웅전
▁Party
▁사채
▁에델
isode
카타
▁마석
▁비석
▁신룡
▁신혼
▁알렌
▁메꾸
▁사춘
▁핵폭탄
▁불상사
▁헬리오
▁동아일보
▁Single
▁노량
▁다비드
▁스크랩
▁오클랜드
▁다이너마이트
▁분단
▁스캇
▁입상
▁우에다
▁미네르바
ino
▁NV
▁소인
▁SHOW
▁짠
▁이건
▁이블
▁질책
▁hp
▁은인
▁타란
▁루돌프
▁마유미
▁살인범
▁논하
▁처자
▁체면
▁390
▁ㅉㅗㄹ
▁과대
▁life
▁뮐
rol
▁PM
▁왕권
▁USA
▁쌍방울
▁엄친
▁역이
▁관내
▁아귀
▁공용어
▁부조리
▁수교
▁저속
▁조만
▁날카롭
▁클레멘
ㅁㅏㄴㅇㅡㄴ
eed
▁권투
▁252
프레이즈
▁와이파이
▁등짝
▁시정
▁저절
▁주박
그래피
▁동맹국
▁보이즈
▁최종병기
▁경부고속도로
▁라벨
▁일간
테라스
▁fr
▁216
▁나이스
BE
아르
▁-.
▁바크
▁조예
▁드래건
▁탈바꿈
▁토에이
▁훈련장
▁궁정
▁총신
▁컵스
▁타루
▁계약서
▁이신형
▁Gener
융합
▁거란
▁애호
▁의인
▁이형
▁쿠가
▁호적
▁저절로
▁청주시
▁와일드카드
서리
▁긍지
▁외할
▁탄력
▁ㄲㅐㄴ
▁핵융합
▁나가사키
▁숄
▁횃
▁로토
▁애덤
ement
▁숙종
▁ㅁㅣㄴ
▁미네랄
ations
▁캐치프레이즈
▁불시
▁사타
▁유가족
▁아마테라스
▁애플리케이션
예프
▁ㄱㅜㄹ
▁번역가
▁달력
▁맹렬
▁물결
▁온리
세이돈
▁포세이돈
▁SKY
==
▁기증
▁수두룩
▁미야모토
빙글
▁국외
▁밑바닥
▁File
▁Hero
▁김호
▁나돌
▁분담
▁송정
▁스필
▁폐교
▁375
인드
ball
▁생방송
▁ㅂㅓㄹㄹㅕ
▁손길
▁익사
▁쿠와
▁격납고
▁교황청
▁불어넣
▁전리품
▁개관
▁뱌쿠
▁별반
▁인위
▁쿠페
▁큐리
▁터빈
▁환관
▁레바논
▁정보원
▁지하실
▁ㅎㅐㅆㅇㅡㄹㅈㅣ
▁김제
▁뒷담
▁반찬
▁비방
▁비오
▁무라카미
▁큼
▁피시
▁현종
▁메이슨
▁유목민
▁music
▁ㅈㅏㄹㄴㅏㄴ
보트
▁PG
▁방전
▁인장
ient
▁실린더
▁만신
▁휴재
▁글래스
▁모니카
▁권혁
▁상서
▁셔터
▁직진
▁밀가루
▁1935
▁ㄱㅏㄹㅇㅏ
▁ㅁㅓㅁㅊㅜㄹ
▁유시
나들
▁관하
▁산요
▁오나라
레프
이야
▁매출액
▁투르크
▁섣
▁링고
▁묵묵
▁발포
▁실례
▁조경
▁가우스
▁기념관
▁더욱더
의지
▁외판
▁사춘기
oe
▁Ma
▁김남
▁루가
▁불굴
▁폄하
겨지
포역
▁원체
ㄵㅎㅕ
▁사이다
▁셧
▁분양
▁옥타브
▁까칠
▁현세
▁흑기사
▁ㅁㅓㄱㅇㅣㄴ
LY
▁대모
▁속죄
▁정승
▁충신
ㅊㅜㄹ
▁포르쉐
▁구룡
▁박동
▁자급
▁해치우
▁1919
▁댈
▁김신
▁부풀
▁타코
ival
▁계급장
▁오랑
▁ㅊㅏㅆ
▁리투아
▁유키오
▁Tour
▁리투아니아
▁콘스탄티노
▁ㄱㅗㄹㄹㅏㅆ
더미
▁금천
▁퇴직
ㅇㅓㄹ
▁충실하
▁례
▁워스
▁육탄
▁후려
▁바리에
▁조준기
▁매그너스
▁et
▁두세
▁수양
▁통영
▁802
▁상급자
▁판박이
▁Christ
▁ㅇㅕㅆㅇㅡㅁㅇㅔ
▁적국
▁징벌
▁Sou
▁준이치
▁케이타
▁견고
▁세터
▁충무
▁USS
▁부대장
▁플루토
ㅂㅣ
▁내분
▁레진
▁엘렌
▁메이스
▁스파이럴
▁게인
▁무리뉴
▁농성
▁자릿수
핑크
▁국한
▁서커
▁지코
▁방향키
▁1911
브로
▁ㄴㅛ
▁백발
▁뿜어내
▁아니하
▁열등감
▁사카가미
▁ㄴㅏㅊㅅㅓㄴ
유산
▁루니
▁신해
▁쫒아
▁소이치로
▁BLACK
▁ㄴㅓㅁㄱㅣㄴㄷㅏ
▁가열
▁김한
▁큐트
▁DAY
▁ㅌㅡㅁ
▁미사토
▁네버
▁스니
▁위닝
▁정진
▁pop
▁왜냐면
날레
▁로아
▁마귀
▁스도
▁시커
▁315
TH
날리
루가
▁섭정
일비재
▁ㅁㅔㄹ
▁자가용
▁비일비재
▁ㅇㅓㄹㄹㅕ
▁극명
▁모태
▁살피
▁SSD
▁마사시
▁머큐리
▁1700
▁레퀴
▁매료
▁강남역
▁후부키
▁그레이스
▁ㅅㅣㅂㄴㅣ
ISS
▁도넛
▁마담
▁서든
▁의기
▁재계
아내리
▁파라다이스
▁op
▁인제
▁적잖
▁활력
▁YOU
▁연산군
▁지식인
ㅌㅡㄹㄹㅣㄴ
▁굵직
▁보전
▁손색
▁폐위
▁에리스
▁대전차포
▁ㅂㅜㄹㄹㅣ
▁샛
▁구위
▁끼얹
▁승룡
▁영차
밍고
백호
▁직설
주니어
▁심부름
press
ㄷㅏㄹㄹㅣㄴ
▁마제
▁손대
▁살라딘
▁아우라
차원
▁범하
▁밀짚모자
▁TA
▁가계
▁멩스
▁신형
▁수원역
▁츳코미
▁하버드
▁Storm
보스
▁핸디
▁황녀
▁ㄱㅏㅄ
vil
▁연필
▁종반
▁사치코
▁엑스포
▁음주운전
▁양정
▁잔치
▁한미
▁서대문
▁렴
그러
▁굳건
▁목장
▁이너
▁장이
▁원자로
▁KN
▁미화
▁영력
▁파란
▁본업
▁신스
▁세이라
▁Sn
▁가우
▁IEM
▁얌전히
▁1910
▁경기관총
▁이타치
▁ㄷㅜㅇㄱ
쩌둥
총사
▁외과
▁교직원
▁풀타임
▁마오쩌둥
▁교배
▁순교
▁재편
▁하강
▁묵시록
▁ㄲㅡㄶㄱㅕㅆ
▁쏴
une
▁나약
▁브렛
▁이덕
onder
▁성대모사
▁SPECIAL
어오
▁노역
▁스펜
▁매달리
공원
▁얽히
▁영정
▁이완
▁조차
▁코니
▁히타
▁305
▁Hel
▁경의선
▁동양인
▁cont
ㄷㅏㅇㄱㅕ
▁부치
▁소자
▁손견
▁ㄷㅓㄹ
osh
▁기색
▁호가
▁타마키
천리
ILL
▁라울
▁발주
▁재보
▁주선
▁ACE
▁ㅋㅡ
▁엘라
▁적장
▁성매매
▁포커스
ㅜㄹㅇㅓ
▁소비에트
▁ㅁㅜㄲㅇㅣㄴ
▁밀크
▁수회
▁이불
▁이징
▁Take
▁ㅁㅏㄴㅈㅕ
미트
저곳
▁ㅅㅓㅇ
▁이곳저곳
▁고군
▁대림
▁손잡
▁맹독충
▁돌이
▁음절
▁혼종
▁sec
▁퍼레이드
▁MH
▁금물
정사
▁돌발
▁추론
라이터
▁Mon
▁이카리
▁TRPG
▁북아프리카
▁부포
▁양덕
▁횃불
▁555
▁Key
▁옐로우
▁키리시마
ㄸㅐ
▁복각
ta
▁결속
▁김은
▁먹방
▁아린
▁연막탄
브레
파시
▁선율
▁서스펜션
건설
▁명동
▁반반
▁헐리
▁니콜라
▁팰리스
▁광동
▁루디
▁셔플
▁얼른
▁치어리
▁무용지물
▁마케도니아
▁김장
▁미역
▁증표
▁BMS
▁Que
▁모사
▁에마
▁올려
▁함유
▁야인시대
▁찾아다니
ㄴㅕㅆㅇㅡ
RO
센터
▁스에
▁적의
베트남
▁모의고사
▁콤플렉스
▁프로그래머
▁브렌
▁빙하
▁자우
▁헤카
▁흉노
▁히트맨
▁ㅇㅓㄺㅎㅕ
▁태사
▁후사
▁메피스
▁ㅈㅓㄴㅎㅏㄴㄷㅏ
마키
▁가늘
▁옆집
▁자초
ider
▁김기태
▁나가토
▁남대
▁요르단
▁FS
▁민망
▁재조
▁돌고래
▁도화
만별
▁나자
▁쾌감
▁우루스
▁천차만별
▁ㄴㅗㅎㅊㅕㅆ
WAR
▁가뭄
▁강기
▁신태
▁폭락
▁PTS
▁girl
산부
▁바벨
ense
▁666
판지
▁촛불
▁코바
▁주저앉
▁가트
▁거시
▁명색
▁왓슨
▁시이나
▁전기톱
work
▁무의미
▁걍
▁남궁
▁린스
▁쟈니
▁껄
▁정주
▁프록
▁Sol
▁스탠리
▁ㅂㅜㅌㅈㅏㅂㅎㅣㄴ
신저
▁ㅆㅜ
▁겨자
▁너트
▁미형
▁압승
▁용신
▁501
▁them
▁미츠루기
하고
▁보류
▁텔레파시
▁ㄷㅗㄹㅇㅣ
▁동백
▁라디
▁성불
▁펀트
▁하청
▁중용
▁진명
▁커밍
▁문화사
▁아이린
▁영화배우
▁렬
▁JD
▁눈매
▁씨름
▁Nor
▁vol
▁ㄱㅕㅁ
▁모모코
▁설리
▁식칼
▁이반
▁청각
▁시제
▁레퀴엠
▁밀라노
▁방망이
▁칼로리
▁통조림
▁문호
▁실권
▁장려
누마
▁감찰
▁라나
▁바키
▁이효
▁리아스
▁원서
▁416
▁html
효과
▁광란
▁없음
▁추앙
웨이트
onic
▁연구생
▁튀르크
▁하이스쿨
▁법조
▁시브
▁촌장
▁친부
▁타나
▁나루미
▁상하이
▁아라타
▁프라이스
경지
▁비들
ible
▁ZERO
▁youtube
ELL
▁딴지
▁성계
▁자림
▁end
▁XIII
▁Cortex
가짐
사태
▁무함
▁발당
▁최준
▁맞대결
▁적나라
▁ㅆㅓㅆㅇㅡ
▁대항해시대
▁명랑
▁유투
▁Dem
▁망원경
▁어쨌거나
▁견훤
▁백모
▁버트
▁타오
▁노무라
▁아이파크
▁해수욕장
▁삭스
▁채권
▁!!!!
▁Great
▁이야깃거리
▁보패
▁소나무
▁키네시스
▁핍
idd
▁오성
▁우주인
▁마부
▁아무로
가타
서니
와리
▁단결
▁전일
▁최형우
▁0000
▁쿠웨이트
br
▁뜨겁
▁짤짤
▁MUSIC
▁NR
▁남해
apan
▁차량기지
▁VF
▁마조
▁욕하
▁총평
▁표범
▁ARC
▁다이고
ㄷㅐㄴㄷㅏ
ㄹㅓㄴㄱㅏ
▁로케
▁말썽
▁Skill
▁심해
▁천룡
▁샌드백
▁종착역
▁ㄴㅗㄹㄹㅏㄹ
▁논외
▁리디
▁슈마
▁로미오
▁Univers
▁욘
▁냄비
▁용접
88
성장
▁도산
▁푸치
▁베로니카
ㄸㅜㄹㅇㅓ
▁감차
▁민수
▁사파
▁헬싱
▁갈아엎
▁되살리
▁크루저
▁ㅇㅕㄹㄹㅣㄹ
▁갈망
▁모하
프레소
▁모리스
ㄱㅎㅣㄴㄷㅏ
▁시메
▁온의
▁장창
▁대한제국
▁망나
▁타이가
올로
▁탈모
▁say
▁연두
▁완주
▁쿠지
▁뎁
▁검법
▁권수
▁윤회
▁충당
▁Die
▁근위대
▁무진장
▁Apple
ami
▁부디
▁오션
▁인대
▁카카시
▁ㄲㅡㄶㄱㅕ
광이
▁단호
▁우디
▁아스가르드
▁ㅌㅐㄱㅎㅐㅆ
▁숟
▁섬머
▁수프
▁천성
▁하체
페리온
▁배급사
▁Real
고짜
▁다짜
▁다짜고짜
▁카자흐스탄
▁간수
▁시우
▁에밀
▁박찬호
▁블라인
▁시발점
▁시험장
▁니콜라스
▁위압
▁Shad
▁극단주의
▁탁구
▁승하차
▁오라클
▁출국
▁크랙
▁430
▁비주류
▁Like
ATE
▁명지
▁현수
▁회식
▁트레이스
▁포르투갈어
▁nm
▁서강
▁소외
▁염증
▁원군
▁투창
▁일제히
▁want
ori
▁버퍼
▁안락
▁레드삭스
▁CU
▁추상
▁249
▁광명시
▁아오야마
▁야크
▁악재
▁자타
▁폭죽
마르크
▁빼먹
▁수난
▁순종
▁자하
▁국내외
▁유유히
▁관례
▁물들
▁웅진
▁슈이치
▁2022
메트
▁경복
▁불기
▁와다
▁시공간
▁아르마
▁고졸
▁몰아치
▁삼총사
▁적외선
▁줄리엣
▁루미너스
▁판타스틱
▁신오
▁페라
▁들려오
▁ㄱㅔㅆㄷㅏ
▁Winter
ㅍㅜ
▁별장
▁앙상
▁SUV
▁강민호
▁ㅇㅘㅆㅇㅓㅆ
▁넷째
▁둔갑
▁뒤쫓
▁사마귀
▁이리스
▁ㅇㅏㄹㄹㅣㄴ
▁상디
▁역정
▁위급
▁조반
▁토아
▁사유리
▁레전더리
▁무함마드
▁잇세
▁피쉬
▁오오타
▁해적판
▁다이나믹
▁코퍼레이션
ude
▁사샤
▁죠니
▁Mad
▁네이밍
▁라이어
65
▁자경
▁맘대로
▁정근우
▁Force
▁Trans
de
▁누드
▁은평
▁Doc
▁무기고
so
부쿠로
▁펠릭스
▁part
▁stay
▁열강
▁리어스
▁에스프레소
▁다그
▁리크
▁왜구
▁참호
▁하노
▁개표
▁금수
▁228
▁UTC
▁Road
uz
▁번작
▁ㄲㅏㄴ
▁아케미
▁전자기
▁트레버
▁셔틀버스
▁로디
▁교통부
▁Step
▁막사
▁에버튼
34
▁AH
▁비호
▁성자
ames
uture
링턴
▁빙글빙글
▁Champions
▁입당
▁주립
▁다이애나
▁루갈
▁아누
▁입김
▁덤벼들
▁파스타
light
ㅅㅓㄹㅍㅡㄴ
▁ㅇㅓㅄㅇㅐㄹ
▁Je
▁떄문
▁뜻밖
▁홍설
ㄱㅇㅓ
▁비트매니아
▁에루
▁츠요시
▁포르테
토모
▁건네
▁번성
▁야사
▁war
▁곧이어
▁기대감
▁마사미
▁아이샤
▁에미야
▁저항군
▁스틸러스
▁ㅂㅕㄴㅎㅏㄹ
▁그늘
▁미마
▁웨스
▁잠적
▁단기간
▁비웃음
▁ㄴㅗㅎㅊㅣㄴ
▁ㄷㅜㅇㄱㅡㄴ
▁Av
▁속아
▁페퍼
▁브리스
▁수학여행
▁케일
▁Feel
▁ㅈㅓㄴㅎㅏㄴ
▁챈
▁Ag
▁독주
▁락스
▁참치
▁조성주
▁종로구
▁코로나
WS
▁길가
▁번외
▁총체
▁ㅇㅓㅍㄷㅡ
위원
▁640
▁대기실
▁보좌관
▁이동기
▁이브스
▁테이머
▁VI
▁가닥
▁속삭
▁뒷부분
▁바그너
▁차일드
▁ㄱㅏㅈㅊㅝㅆ
▁지석
ㅋㅡㄴ
▁아야세
▁거세
▁포옹
▁행크
▁ㄸㅏㅆ
▁아이비
▁프랑코
▁미치광이
▁고비
▁미어
▁번들
▁브록
▁삼키
▁신의
▁정훈
▁다이버
▁도우미
▁현저히
당선
▁내림
▁수조
▁식감
▁234
▁ACT
▁김현수
▁유대교
놀드
덕지
▁고해
▁끼우
▁오정
▁잔잔
▁팔콤
▁쟤
▁iP
▁열도
▁치환
▁325
▁Her
▁칵테일
거시
▁멸시
▁세습
▁장보
ital
▁CON
▁스기타
▁초토화
ㄷㅗㄹㄹㅣㄹ
란다
▁mg
▁토도
▁효도
▁반역자
▁백두산
▁신타로
▁ㄱㅜㄹㄹㅣㄹ
▁랠리
▁열연
▁울릉
anger
드릭
사쿠
▁로또
▁알마
▁편향
▁한수
▁웨일스
▁종사자
▁니어
▁분투
▁청라
▁마나미
▁보안관
▁주택가
▁타이머
▁교화
▁죄악
▁고장나
▁레스큐
▁수리비
▁조각상
나츠
▁로밍
▁종업
▁축출
베로스
▁Gal
▁대니얼
▁부적합
보레
▁덜덜
ㄸㅡㄴ
현역
▁낙태
▁징표
▁초판
▁걔
▁광폭
▁브금
39
슐리
bum
▁당진
▁명수
▁영판
▁깨달음
▁엘리시
▁ㅠ
▁만인
▁방수
▁시치
▁오유
수아비
▁Mal
▁루시안
▁쇼타로
▁에테르
▁탐험대
▁허수아비
▁깡통
▁다발
▁실크
▁제패
▁하운드
▁라피
▁침범
▁이용한
▁SDRAM
22
▁ㄷㅓㅁㅂ
자마
▁눈알
▁일색
▁퇴임
래스카
▁add
▁간간이
▁톡톡히
▁Vita
▁쳐들어오
▁ㅎㅏㄴㄷㅏㅂㅅㅣ
▁싯
알라
▁뱃속
▁상류층
▁Knight
ㅆㅡㄴ
▁구설수
▁스프레이
▁파이어볼
▁경화
▁김풍
▁서고
▁심도
▁양날
▁진이
▁시그널
▁크랭크
▁EASY
국수
위성
▁gu
▁고쿠
▁구레
▁소말
▁자궁
▁플랑
▁남원
▁로카
▁신판
▁칠곡
▁노려보
쓸이
▁로건
▁영통
▁구독자
▁카우보이
▁ㄷㅡㄹㅇㅣㄴ
라면
▁Pa
▁단군
▁미켈
▁수완
▁승선
▁애원
▁양복
▁코그
▁265
▁스레드
▁이하일
▁정윤종
▁퍼스널
▁ㅇㅕㄴㄷㅏ
플린
▁HA
▁증대
▁비너스
ㅇㅗㄹㅈㅣ
▁찝
▁교명
▁근교
▁로터스
▁사냥감
▁스릴러
▁ㅅㅣㄹㄹㅕㅆ
lex
▁개역
▁구내
▁김갑
▁변조
▁art
▁넘버링
▁pack
▁낱
▁검투사
▁고세이
▁천안시
티엄
▁경차
▁대작
▁미워하
▁암살단
▁
▃
⊸
ㅇ
ㄴ
ㅏ
ㅡ
ㄹ
ㄷ
ㄱ
ㅗ
ㅣ
ㅔ
ㅓ
.
이
ㅎ
하
ㅢ
ㅁ
ㅕ
ㅅ
ㅆ
,
ㅈ
ㅐ
리
스
1
사
기
지
0
시
대
2
있
수
ㅘ
가
아
그
전
자
들
ㅂ
정
상
나
인
일
장
어
로
마
도
주
드
ㅜ
제
트
되
다
우
적
보
성
부
라
3
오
것
미
신
공
고
모
유
소
중
동
문
e
무
5
-
한
구
비
경
국
타
때
년
4
화
만
레
치
원
용
ㅚ
'
9
히
카
니
위
a
후
조
없
선
명
등
작
ㄲ
력
세
거
6
실
연
개
o
당
8
터
방
계
르
7
크
격
i
서
영
단
역
안
생
간
의
바
:
프
발
r
t
내
체
여
ㅌ
ㅊ
않
n
물
반
러
차
재
버
분
진
키
파
관
S
노
해
말
"
교
데
점
월
포
회
학
요
래
코
능
속
행
식
본
A
더
토
게
호
s
과
저
ㅑ
피
음
임
군
즈
/
루
결
ㅋ
C
각
강
두
야
초
종
l
번
현
매
출
디
입
배
같
최
m
형
불
T
판
설
M
많
통
편
티
산
승
에
직
남
P
람
메
특
브
d
받
외
심
급
양
D
감
E
태
투
ㅟ
h
면
금
건
운
추
B
예
ㄸ
!
패
함
u
표
ㅝ
업
법
약
c
런
목
민
I
달
언
테
플
R
병
살
L
복
O
권
준
처
네
술
G
독
참
천
습
너
좋
른
절
평
애
황
막
론
존
름
N
머
집
근
캐
또
왕
알
F
변
항
츠
합
록
박
쿠
g
션
환
활
필
악
페
베
별
확
블
y
김
K
릭
류
순
족
돌
p
V
못
청
려
열
~
석
죽
담
품
쓰
%
량
향
k
곡
ㅍ
잘
탄
망
광
H
울
증
날
?
련
료
팀
손
총
쪽
+
폭
커
케
질
먹
클
란
f
녀
맞
탈
백
퍼
잡
워
은
극
랑
송
글
창
범
완
뒤
접
령
난
색
철
효
높
ㅃ
얼
와
혼
검
벨
X
v
께
충
렇
든
듯
몬
느
U
따
삼
락
b
W
린
험
북
괴
w
슈
즌
립
힘
채
킬
귀
육
림
밀
올
친
엔
온
슬
골
랜
움
벌
맨
곳
견
덕
취
축
ㅛ
누
냥
길
새
희
착
쟁
규
택
틀
눈
템
놓
끝
엘
칭
허
링
득
#
팬
및
앞
봉
징
책
응
싸
널
턴
침
갑
째
엄
할
몇
넘
측
암
찬
얻
줄
첫
갈
률
좀
걸
끼
율
J
혹
풍
잠
억
굴
즉
럽
압
짜
팔
획
뿐
몸
빠
벤
늘
씨
묘
센
찾
붙
협
훈
슷
헤
둘
ㅙ
먼
궁
례
답
홍
찰
염
싶
돈
볼
논
퇴
Y
곤
뉴
넣
칼
쉽
ㅉ
벽
님
액
몰
숙
콘
x
휘
풀
딩
컬
닛
탑
샤
맡
렌
슨
익
낮
]
까
앙
컨
폐
략
홈
옥
큼
웃
층
웨
죄
을
빌
찍
[
멸
킹
욕
&
좌
롯
델
꽤
싱
멤
켓
멀
던
팅
꾸
윤
쇼
닝
씩
념
짓
갖
웅
ㄺ
콜
딜
빈
솔
잔
흑
쉬
롤
욱
덤
<
혈
뜻
객
깨
낙
농
척
폰
픽
맥
뮤
듣
Z
룡
랙
큐
렉
빛
폴
끌
맹
왜
닉
섬
밖
휴
칸
흥
헌
앨
램
닥
혀
떨
듀
떤
텐
컴
넷
럭
숨
톤
뀌
랭
탁
빙
놀
롭
균
찌
콤
떠
뛰
튼
맛
렵
텔
딱
믹
굉
겨
홀
십
끔
z
럼
땅
=
쿨
씬
혁
밥
쿄
헬
떻
는
짝
빼
빨
흡
푸
뭐
맵
멘
쌍
팩
봇
컵
퀘
옷
뢰
으
켄
탐
몽
뷰
딸
녹
펜
흔
꽃
젤
탕
릴
엑
뜨
찮
졸
혜
챔
릿
튜
윈
핵
삭
놈
뽑
덱
털
뇌
밤
잃
셀
똑
룹
훨
밍
칠
틴
둥
꿈
킨
낌
믿
납
꼬
읽
탓
퓨
흐
옆
뷔
셈
밴
핑
갤
얘
싫
잉
엇
섭
괜
죠
칙
붕
탱
롱
Q
빅
륙
촌
짧
셔
짐
곧
덜
틱
>
냉
*
펙
캠
깔
쇄
닌
힐
젠
)
굳
덴
폼
멜
콩
둠
뒷
셋
즘
깝
핀
촉
덩
셉
쥬
렬
떡
옵
쯤
쓸
젝
첩
넓
빵
쁘
즐
ㅠ
쏘
쇠
븐
깊
펠
컷
랍
j
묻
셜
웹
쳐
샷
융
끊
밑
옛
촬
왼
잇
늦
겸
퀴
값
랫
텍
꼭
흉
튀
겪
쥐
럿
묵
춘
톨
꾼
캡
밸
앤
렛
웬
겁
랩
져
랄
앗
슴
잭
붉
밝
셰
엽
옹
앉
톰
넥
{
끄
멍
뻔
}
헨
쾌
걱
엠
낫
를
벗
톱
딘
젊
꺼
렐
긴
킥
숫
틸
섯
ㄶ
_
꼴
빔
캔
듬
궤
둔
텀
닮
펀
뱀
깐
윙
윌
뱅
숲
뚫
ㄻ
춤
댄
맺
뿌
쌓
겐
탠
읍
엉
몹
럴
꼽
짱
팡
훌
혐
띄
갱
펼
틈
쫓
롬
핸
숭
룰
써
닫
렘
떼
갓
댓
퀄
멋
녕
툰
삽
첨
츄
깃
륭
룩
렙
탯
곰
켈
ㅀ
낭
흘
팝
룬
픈
횟
릉
쩌
렴
좁
릇
냐
뉘
낳
삶
q
밟
곽
룸
봄
섹
쿼
넬
빗
빡
잊
켜
샌
깎
낚
렁
윗
늑
퀸
돼
겹
닿
첼
둑
쩡
팽
묶
긍
끈
껏
;
앵
뼈
샘
핏
닐
짤
뚜
흠
ㅖ
뜩
닭
륜
겉
킷
얄
딴
톡
툴
횡
쭉
챠
왠
뚱
섞
왈
얀
쨌
뱃
멕
넉
슛
맘
훗
걷
썩
웰
쟈
곱
앱
펫
쉐
똥
펄
멈
딕
엣
섀
핫
턱
뿔
햄
큰
볍
펑
덮
뜬
냄
쩍
쏟
깡
며
돕
뮬
띠
맷
뜯
챕
뚝
쵸
잦
꺾
뿜
칩
씹
벅
괄
깜
탭
삐
벼
닷
@
싹
릎
녁
딧
훼
뎀
꼼
헛
텝
밋
멧
빚
펌
썬
|
슐
꿀
겔
펴
엮
몫
ㅄ
긋
므
잎
밭
힌
돔
\
깥
곁
꽂
붓
썰
퉁
듭
헐
$
줌
캣
옳
팟
힙
풋
뺏
듈
굿
툭
챙
벙
흰
콥
벳
쿤
밌
콧
팍
쌀
캄
벡
뭉
껍
늬
픔
뽀
옮
굵
챌
샵
뱉
엿
툼
뻗
흙
늄
츤
깽
헝
쏠
땡
귤
돋
큘
뻥
늙
튬
푼
겟
갚
솜
갯
냅
킴
첸
찢
텟
캘
칫
끗
ㅞ
콕
넌
뭇
덧
륨
엎
쿵
꽉
젼
붐
궐
휠
앰
쉴
팁
젖
뤼
슌
쨩
셸
쑤
퍽
튠
잖
웜
캇
짙
옴
옐
굽
뻐
콰
샬
꿰
뻘
닦
쯔
솟
쪼
팜
얇
긁
짖
젬
짬
얹
겜
잣
짚
앓
뽕
삿
뮌
귄
샐
꿉
볶
펭
쫒
렷
꽁
잼
홋
넛
퀵
쑥
얌
햇
컫
훔
썸
홉
갸
씀
맙
쥰
젓
넨
씻
맑
땀
쌔
헥
퐁
샹
껑
(
텅
딪
끓
뺨
댐
ㄼ
렀
딥
쫄
팰
푹
헷
휩
젯
벚
늪
탬
욘
밧
윽
눕
쩔
뇨
놔
왓
똘
줍
캉
숍
밈
씌
꽝
킵
뭔
덥
륵
윕
쁨
꿇
꾀
넵
쉘
뜸
랏
옌
룻
낡
깁
웍
쎄
샴
찔
훤
룽
굶
숏
훅
멩
캅
싣
탤
흩
빽
숀
벵
얕
찜
눅
뫼
떄
싯
샨
^
핍
갭
쌈
윅
씁
둡
왑
쐐
`
랴
튕
맴
뾰
썹
쌩
뺑
걀
깍
쭈
퀀
덫
얽
꿍
껄
늠
뻑
ㄵ
쩐
댕
좆
돗
츳
폿
꾹
낱
꿋
괘
뭣
잽
팻
췌
쥴
맏
칵
슘
캬
찝
윳
껌
땜
팥
낯
뎅
잿
뽐
솥
즙
퀑
켐
뱌
힛
뭄
껴
촛
괭
쳇
읊
뇽
댁
렝
얗
뿅
콴
갇
깅
퀼
왁
눌
짭
랗
멱
딛
폄
덟
찻
쏙
썽
릅
옅
된
씽
궂
츈
쿡
펩
츰
셴
랠
놉
닳
팸
쿰
뷸
곶
엥
솝
딤
햐
핥
넴
뎃
갉
쟝
ㅒ
얏
짠
뮐
샛
숄
횃
핌
섣
댈
셧
쏴
뚤
촘
숟
꺽
걍
뎁
챈
맣
컥
걔
쾅
쟤
뜰
낸
팎
뮈
갔
꿔
얍
넋
귓
춥
휙
쓴
헉
믈
듄
짊
띵
꼰
슝
찡
놋
텁
쉼
튤
엡
컹
삑
봐
캥
쾨
돛
줏
텃
톳
끽
촐
헴
쉔
듐
삥
륀
쟌
쓱
핼
웡
뿍
낄
휼
쫙
톈
뼛
찹
녜
엌
숯
찐
뇰
밉
쾰
꿎
쿈
녘
굼
갛
왔
퓰
앳
뻣
퓌
쑹
댑
윔
묠
갬
궈
춧
볕
떳
웁
괌
힉
낑
뵈
끙
뒹
슥
펍
뿡
쌤
홧
쇳
쨋
쉰
쬐
빤
욤
첵
닙
낵
숱
딨
듦
쏜
긱
낼
훑
롄
샅
츨
넝
뵙
횬
꺄
맬
냠
칰
닢
욜
삘
땋
큭
늉
싼
겅
쭐
빰
슭
퓸
꿩
눗
꽈
챗
챤
쫑
텡
빕
죤
랖
굇
눔
닻
샥
켠
쑨
씸
즛
벰
쑈
잰
넙
딫
쏭
쿱
윷
냑
틋
힝
뗏
탉
깻
웸
훙
엾
뮴
헹
촨
햏
욥
햅
헵
뭍
땔
펨
멥
혓
쩝
뤄
됨
킁
줘
흄
쭘
꼿
빳
뷜
뮨
좇
냇
몆
씰
깟
뜀
숑
멎
젭
뀨
떵
쫀
봅
찧
돡
볏
챰
큅
옙
웩
캑
큥
묀
쨍
튿
젔
쿳
콱
뻬
쮸
콸
젋
짢
뤽
뺌
쌰
옭
훠
꽥
멓
죗
욧
뭥
볜
솩
쐬
옻
쳉
넒
짦
휀
샙
둣
썅
붑
쥘
쩜
큔
긔
썻
띔
믐
셩
셍
뽈
쩨
맟
좡
팃
뜷
뵐
겼
룀
곪
쥔
ㄳ
섕
잌
됭
쳄
쉿
귈
탸
꼐
촙
쯧
슉
었
햣
흣
뎐
겋
엷
뎬
읏
츔
묽
옇
띨
갠
솅
왐
뉵
빻
뺀
묜
겍
껸
뺴
떫
켤
닯
둬
뽁
윰
춋
웠
쨰
춉
쾡
퀜
갗
앍
줴
뱁
챵
휑
뼉
꽐
쭤
핳
홑
랸
쨔
겡
륄
솎
닼
짹
슼
큄
푀
쭝
퐈
퉤
쌉
퍄
앜
붇
좔
옼
칡
쳅
챳
쌕
꺅
쇽
냘
퇘
뷁
읭
꿏
졋
굣
춰
믄
쪄
켁
횽
삵
쉑
삯
쫌
똬
왱
눙
벛
팹
밞
쇤
훍
갹
곯
겊
숴
았
븀
떽
틔
뢴
땃
촤
곗
묄
밎
샾
ㄿ
뵘
뷘
뒈
헣
웻
켕
롈
큿
벱
읆
컁
랬
왘
꺠
궨
뺄
푈
첬
뎨
쁠
똠
솀
푯
쉭
돚
뷴
켑
뼘
쀼
넹
췬
돤
괵
먀
늅
븅
헙
섶
꽹
벞
솁
홱
낀
늡
솬
젱
옉
됴
츙
볘
촥
찟
맆
궜
쏩
윾
묭
숌
뱐
졔
뵤
꾐
졍
좍
셤
훵
ㄾ
됸
겻
쫘
챱
멬
쨉
룔
였
뫄
흭
쳔
겆
궃
븨
쒸
믕
쏨
웽
낢
앎
읇
쭙
휨
큠
풉
듸
톄
휄
뗌
쩄
휭
뤠
캰
깄
붸
났
옯
좃
웤
튽
핡
핰
뱡
뾱
밣
귯
빱
쳬
텨
곬
껫
믓
땁
몐
뉼
먄
짯
홰
뚠
롹
춍
퀠
쨜
쬬
읺
폽
묫
퓬
녓
앏
푄
꼇
믜
솽
슾
쪙
헿
귐
뙤
뚥
찿
낟
릐
옘
땟
뙇
섐
툐
맻
솨
웟
헠
섄
튐
묏
됫
벧
싴
훓
멂
섥
쥠
쵼
귁
걼
뽄
뗑
섰
엪
했
끅
눝
뵹
뺐
꽌
밷
뻇
숔
잴
좨
찣
촹
삡
섈
귿
낏
슙
흫
긷
륌
엊
쉠
줫
퓽
녈
뒬
룅
혠
왝
큇
몌
췐
켯
풔
햝
횻
휫
랲
뽜
쁜
앟
큣
댜
렸
뭅
쬔
푱
웝
눞
밐
븝
쉥
툽
흝
껨
닠
똣
젹
쭌
쿽
펏
곂
졌
훕
듕
럇
벋
읖
쟘
츌
튈
튱
햔
싀
쎾
읔
쯩
툇
봣
쏼
쥿
떈
똔
랼
맠
큡
냣
쟙
퉈
퓔
뇬
뗴
뼝
쎼
쑴
짫
퓐
햘
뱟
쨘
뎡
떙
읗
챨
툿
흽
걲
녠
돝
띡
핲
휸
떰
뚯
꾜
덷
땍
랐
삣
셕
춈
힣
묾
봑
셱
솓
숩
왤
욬
즤
쳣
캪
콯
톩
뺘
짇
핬
혔
섵
쨈
훝
벴
솃
슁
앝
큉
팤
떱
삷
쿙
쎔
옜
읎
춫
궉
꾿
뢸
쟉
홓
퐝
꺵
댔
덪
뜽
얆
읕
쯋
쳰
횐
눼
컽
갞
뀽
늣
몪
뭏
뮻
봙
씼
얶
좝
괞
귬
넼
녔
먕
앚
쳥
캎
튄
틉
뵨
핧
댱
덬
뗀
뷕
썪
긺
딮
븟
뺙
뿟
죌
퉷
ㄽ
꿘
맕
솰
엏
읒
쳘
츕
캌
틍
틑
곘
끠
쓔
엶
쟐
졀
즁
퀭
튭
룝
볓
뻰
읜
졈
짼
촵
핱
쉣
쓩
엙
뚧
빋
뻉
앺
죔
챡
쵤
흗
넖
덞
맢
몿
믾
뷧
뺭
쁑
솊
싿
윱
쾀
툠
퐄
픕
괍
굥
덖
몀
썖
씡
읶
쭁
쳤
캿
풂
걋
뀩
닺
쫗
햤
혤
굄
깸
띱
륍
븍
븜
뿝
쐇
쒜
씅
읻
죙
캭
퓩
깹
꿧
놘
뎌
땐
뙈
뚸
룐
륑
륫
먐
뺸
앋
얔
옝
읃
잆
좐
쥼
캢
훽
굷
귑
깉
껒
뉸
돐
뜌
몃
뭬
뷀
옾
욺
칲
킄
겝
녤
띁
뱍
뺩
삠
싈
쏫
앖
욍
졷
줜
츼
켬
큽
킈
꼳
늴
뒨
롮
롷
룟
벜
뺵
쀍
쌥
썡
쎅
쮜
쯕
챦
췰
캴
캼
툥
궆
끎
끕
뇻
됩
뚬
뜹
랔
롼
맜
벫
쎠
웦
죡
쪘
쵱
퀫
픠
햑
꺨
넗
뚭
샄
숮
쑝
엨
욹
젧
짋
췍
켔
텬
톺
톼
걺
냨
늗
됄
됏
땨
룁
릍
먈
뼤
솧
왬
읷
죨
쩬
츗
켸
콬
튁
퍅
훚
냡
뎠
돨
둟
딲
륏
봘
셒
슶
쌐
얉
엤
쾍
킅
틩
겠
곷
깩
뒴
뚀
럄
쌋
쌜
욌
윶
읅
췩
팖
픗
횔
겯
놧
뇩
듁
롑
밨
붱
엹
잍
졘
쥣
챂
췃
탶
푕
롶
밪
빝
뻴
섴
슽
얺
옿
읠
쥑
컾
퇼
튑
틊
퍈
곈
긇
꾄
끉
낛
낪
덯
뛔
뢱
몯
볫
븃
뻡
쑵
옺
졉
좂
쯥
찦
칬
톸
퇸
펲
햡
휏
긑
껀
껠
녯
닜
띤
먁
뭘
뱔
볠
뵬
븡
뽝
삳
샼
섁
섧
앶
잨
죳
줭
쥽
쫍
콦
킼
훰
꺙
끟
낰
놰
뇸
돇
땝
똏
럐
뢔
맽
먺
뮹
뱝
봔
뽂
샏
쇨
쎆
쏀
쏵
엳
왚
웈
잋
쥡
쨤
쫏
쯱
쵝
춀
칯
쾬
쿸
팊
푠
긘
꺘
냤
넀
녂
녑
댠
댸
덛
뗘
륩
뫃
밊
벹
볻
봥
븥
빧
쁩
앆
얊
얖
엵
옄
웱
윜
읋
좄
쥤
쩃
챃
쳑
헑
곌
귱
깺
꺔
끵
댤
돎
둉
럅
롓
롣
맀
몄
벐
봊
붏
붗
붴
쀳
삻
샇
셥
솦
싑
쌘
얭
옧
욋
욯
윘
잛
줸
쪠
찎
쳌
췻
컶
켙
퀧
턍
퉅
푿
풰
퓻
핓
헼
홇
횅
힜
힠
갘
곹
궝
궬
깆
꺗
넊
눋
늧
덨
돟
똟
똭
랕
릳
맇
멉
뫙
묙
뭡
뱊
붊
뺍
뻩
쀏
썌
쒕
앒
앧
얋
엃
쟎
쟞
짘
짞
쨕
쩰
쪾
쯰
켰
켱
쾩
퀌
팏
햬
홥
횰
횸
훟
겞
괏
굘
껶
꾈
뀀
뀰
낍
넢
놂
놜
덭
됀
듫
떔
떪
렡
몔
밦
밯
벍
벓
볐
뻠
뾸
뿨
쀠
쁭
샊
섡
솸
쉅
쉡
싾
쏱
쏸
쐉
쓿
씜
얙
엫
욷
욿
읉
쳡
쵀
쵹
캍
톲
핟
핣
햛
훡
휵
힁
굔
궷
껩
껭
껼
뎍
떘
떯
뜅
뤈
맫
맼
밬
벎
볽
붘
붯
빪
뼸
뿛
쁌
섊
솹
싢
웷
잫
쟂
쟬
죰
죶
쥭
쩠
쵭
컄
쾃
톹
퇀
퉨
퐌
풿
횝
흇
갂
곲
굻
긂
긿
껙
꼍
꿕
뀍
뀵
끨
넸
뇐
늒
늫
덍
뎔
됌
뛟
랰
럈
럷
롸
릏
먫
멭
뭠
벖
볔
봍
봡
뵷
붤
빍
빩
뻆
뻤
뻿
삧
샆
샠
셑
숸
슸
싵
썛
쎗
쑌
쑛
씃
엍
옫
윁
읪
젏
젴
줗
짪
쬽
쵮
켚
쿗
텤
텦
텰
퉹
팦
폘
푝
픖
픙
핻
햌
햙
햠
햫
홤

갊
곀
곖
곸
궅
궛
긜
꺌
꼈
꼻
뀬
뉙
뉨
닸
댇
덣
뎄
뎊
뎦
됵
듵
딈
딍
땗
땽
뗍
뚦
띳
랎
렿
롫
룍
뤂
륽
맄
맍
멌
뫀
뫌
묑
묷
믇
밡
볱
뵥
빂
빎
빞
뺼
뻈
뿓
쀄
쁙
삾
샒
셊
솤
쌞
쌱
앀
왯
웉
읓
잏
좊
줆
짔
쩟
쩼
쭸
춸
캏
컼
쿔
탙
탼
턀
펔
폯
핮
홐
괃
궭
깬
꺆
꾁
뀡
낲
넠
녬
뇔
눨
늇
닁
닽
덿
뎧
듼
뙨
뚊
랃
렜
뤗
뤤
륻
릘
맂
맊
멏
몾
뫈
믁
믘
믙
뱦
벆
벏
벝
벟
벩
벸
볌
봆
뷥
빢
빴
뿕
쁐
삒
삱
슟
싄
싦
싰
싷
쌂
쎴
쏝
쏳
쑉
앛
옒
옰
왹
욛
웆
읐
읹
잗
잚
잪
쟃
짆
짥
쭵
챼
쳴
촷
췡
췤
츱
칟
캆
켘
탹
텼
툉
틂
퍗
퍙
퐐
푤
핝
햩
횞
훜
흨
힗
갅
걑
곺
굑
궘
귪
귺
긌
꾾
꿑
꿿
뀜
끋
낔
넜
넽
녛
놎
뇟
뉭
닏
닶
닾
댯
댼
덝
돜
됍
됒
둫
뒝
뒥
듰
딯
떢
뗼
똻
뜛
띾
럤
렫
롴
뢈
뢉
뢨
룃
룄
뤌
륷
릌
맒
먜
먿
몋
뭌
뭤
뮷
밂
밗
뱓
뱜
볃
붖
븰
빟
뼁
뽤
뾔
뾲
뿎
쀽
삮
숞
숼
슢
쌴
쌵
쌸
쎕
쎙
쎽
쐑
쓲
씉
씝
엗
옂
옸
윝
읨
젛
젶
졩
즥
쨥
쩻
쪨
쫩
쬼
쭀
쭃
쮀
쯍
쯘
챞
첡
쳠
쵇
쵠
쵷
췽
칮
캋
켭
탏
툵
팉
퍌
폮
풐
풾
픤
핔
핕
햋
햟
홅
훱
힏
갴
걩
굡
궻
귚
귝
긏
긩
긲
깢
깤
꺤
꼉
꼮
꽆
꽇
꽜
끆
끍
끡
끤
낋
넑
넫
뇹
눟
닧
닰
댛
덗
덢
뎈
뎜
됙
둇
둏
둗
둙
둴
듷
땈
뗵
똙
똡
뚮
뜳
뜵
띙
랓
랟
랣
럔
뢇
뢍
뢐
룱
뤨
륧
릠
맗
먖
먾
멊
뫚
묨
뭎
뭩
뭵
뮛
밢
밮
봃
봌
붒
뷫
븸
빏
빖
빸
뻢
뻭
뼌
뽇
뽘
뽱
뾼
쀓
쀾
삤
삲
삸
섦
셖
솢
숛
숳
쉨
쉪
슦
슧
슲
슳
슿
싕
싻
썜
썭
쎵
쏉
쐤
쑐
쑦
쑻
쒯
쒹
쓘
쓺
씺
얃
얒
얾
얿
엒
엺
옪
옽
욉
욣
웊
웕
윀
읿
잞
쟠
졤
좢
죹
짛
짮
쩧
쫭
쬲
쭊
쭛
쮹
쯉
찯
챷
챸
챺
첅
쳗
촏
촾
춣
춱
췁
췹
췼
츅
츩
칢
칽
컈
켝
켣
쾈
퀍
퀏
퀙
큟
탘
탣
턔
텊
텩
텻
텽
톧
폕
폣
퐅
풑
풩
풸
퓅
퓍
햾
헭
홝
훋
흒
흼
힡
갮
겧
곻
궞
궢
궸
궹
궼
귕
귻
귾
긕
깈
깓
껵
꽊
꿂
꿜
꿯
꿻
뀙
뀝
끾
낞
낣
냈
냔
넚
넾
놑
놥
눤
눽
뉏
늚
늨
늰
닊
닑
닲
댘
댥
돞
돩
돶
둚
둪
둰
뒁
뒑
듓
듧
딋
딿
떣
똇
똫
똰
똴
똵
뙭
뚄
뚕
뚷
뛃
뜃
뜐
랋
랒
렄
롇
롥
룯
뤔
뤕
륶
릋
릾
맃
맓
먑
먗
멑
멛
멞
멫
멮
몊
몭
뫅
묩
묯
뭆
뭷
뮝
믂
밫
뱕
뱨
벑
벾
볎
볾
봋
봎
뵫
뵭
뵳
뵶
붝
붰
붹
붼
뷱
뷹
븠
븩
빹
뺃
뺔
뺚
뺶
뻟
뻨
뼏
뼬
뽟
뽠
뽥
뽭
쁏
쁥
삝
샃
섢
섪
섮
섻
셐
쇌
쇘
숖
숝
쉛
슆
슻
싺
싽
쌑
쌙
썎
썐
썫
썲
쎀
쎤
쐙
씔
씤
씪
앐
앑
얬
엜
엯
엱
옦
왉
욮
욾
웗
웛
웧
윹
읙
읫
읰
읾
잩
쟜
젇
젗
젵
졎
좉
좽
죢
줃
쥇
즹
쨟
쨨
쫜
쬈
쬤
쬭
쭂
쮠
찱
첰
쳿
촊
촞
촟
촠
촢
촴
쵯
춭
춴
캜
캽
컭
컿
콀
콙
쾻
큳
큾
킸
킾
탇
탰
퇄
퉥
퉭
튓
튝
틤
틧
틷
팈
팓
폅
폔
퐙
퐞
풒
풹
퓜
픝
픨
햎
헔
헡
헯
혬
혯
혱
홛
홯
횩
휅
갋
갲
갵
걈
걉
겂
겕
겢
겤
곅
곕
곩
괆
괬
괱
괳
궋
궫
궳
궶
귍
귖
귛
귡
긄
긐
긓
긤
긮
깋
깏
깑
깛
깞
깪
꺕
꺢
꺴
껃
꼯
꽅
꽣
꽦
꽨
꾑
꾫
꾭
꿃
꿱
뀁
뀱
뀻
끑
냙
냟
냫
넡
녇
녋
놐
놞
놯
뇄
뇜
뇡
눜
뉫
늕
늼
닒
닞
닟
닡
닣
닪
댝
댬
덀
덌
덙
덠
덦
뎂
돆
돖
돠
됈
됑
됰
둅
뒓
뒵
뒺
듟
듥
듮
듳
듹
딀
딹
딺
딻
땇
땛
떧
떭
떷
뗃
뗆
뗠
똒
똗
똝
뙁
뙍
뙡
뚁
뚂
뚔
뚞
뚢
뚵
뛉
뛻
뜁
띃
띧
랅
랻
럂
럲
럶
럸
럻
렆
렏
렠
렢
렺
렼
롐
롕
롵
룥
뤀
뤘
뤡
뤵
릆
릣
릯
릵
맅
맋
맔
맚
먆
먘
먚
먛
먽
멁
멪
멷
몁
몓
몱
몲
몳
몼
묗
묦
뭊
뭑
뭨
뭭
뮉
뮘
뮥
뮽
믉
믠
믱
믻
밁
밇
밠
밲
밻
뱛
뱤
뱩
뱽
벘
벲
볟
볹
봀
봁
봈
봨
봫
봴
뵉
붂
붆
붋
붚
붛
뷮
븉
븓
븽
빘
빥
빮
빷
뺅
뺓
뺛
뺜
뺠
뺣
뺫
뻒
뻙
뻞
뻪
뻽
뼇
뼙
뼠
뼥
뽴
뾆
뾻
뿏
뿑
뿘
뿙
뿧
뿩
쀒
쁀
쁋
쁎
쁟
쁢
쁶
삗
삜
샂
샢
샻
섑
섟
섨
섫
섲
섷
섺
섿
셙
솑
솖
솘
솼
쇈
쇱
쇴
쇵
쉈
쉏
쉤
쉩
슀
슄
슡
슮
슺
싁
싐
싨
싪
싲
쌇
쌒
썀
썋
썍
썮
썯
쎃
쎥
쎨
쎿
쏄
쏚
쏢
쏶
쏽
쐔
쐽
쑞
쑩
쑼
쒓
쒝
쒰
쒱
쒴
쓉
쓋
씄
씋
씥
씯
앢
앩
앫
앸
앾
얂
얅
얎
얩
얷
엋
엩
엸
옑
옱
옶
왒
왛
왭
왰
왷
욈
욙
욝
욟
욡
욢
욨
웒
웥
윞
윲
윸
읈
읧
잀
잂
잢
잧
쟗
쟢
젒
젟
젨
젮
젺
졜
졵
좹
좼
죕
죸
줋
줐
줓
줠
줵
쥉
즂
즑
짂
짒
짗
짷
쨧
쨴
쩅
쩖
쩗
쪗
쫴
쬡
쬰
쬴
쬷
쭨
쭹
쯪
찫
찭
챀
챯
첞
첟
첧
첯
첲
촡
쵁
쵕
쵬
춛
춝
춢
춨
춪
춮
췄
췅
췔
췸
칀
캵
켮
켼
콛
콮
콻
쾔
쿜
쿭
퀨
킇
킐
킫
탖
탵
턑
텂
텉
텋
텥
텹
톋
톽
퉀
퉆
튮
튺
틜
팛
팣
퍘
퍚
펁
폂
폇
퐂
퐃
퐆
퐉
푴
푾
풬
풱
풴
퓟
픅
픋
픞
핛
핤
핶
헒
헗
헚
헲
홣
훛
훞
훸
휗
흖
흟
흿
힑
힚
갃
갣
갥
갨
걁
걂
걏
걓
걥
걳
걹
걽
걿
겇
겈
겓
겥
겦
겳
겾
겿
곃
곟
곴
괐
괗
괙
괠
괧
괩
괺
굅
굈
굗
굠
굸
굾
궄
궇
궔
궖
궮
귔
귘
귥
귵
귽
긃
긎
긒
긞
긡
긢
긣
긧
긶
깂
깇
깖
깣
깧
깳
꺀
꺃
꺍
꺐
꺑
꺓
껖
껗
껬
껰
꼄
꼑
꼔
꼠
꼲
꽛
꽭
꽯
꽸
꾔
꾕
꾴
꾺
꿆
꿝
뀂
뀟
뀠
뀢
끚
끛
끰
낐
낧
낻
냀
냌
냩
넎
넏
넟
녿
놁
놅
놇
놏
놕
놤
놨
놩
놬
놴
놶
뇝
뇠
눁
눶
뉍
뉔
뉩
뉽
늩
늭
닚
닱
댊
댋
댖
댗
댦
댶
덳
덾
뎉
뎒
뎗
뎙
뎟
뎢
뎰
뎽
돊
돍
돒
돘
돰
돵
돽
돿
됓
됗
됢
됧
됺
됻
됼
둈
둍
둩
둿
뒉
뒕
뒗
뒫
뒾
뒿
듇
듑
듛
듞
듶
딉
딦
딳
딵
딶
땊
땕
땞
땣
땥
땩
땳
땻
땼
떅
떋
떌
떑
떗
떥
떦
뗉
뗋
뗗
뗜
뗝
뗞
뗡
뗣
뗳
뗶
뗸
뗻
똛
똤
똧
똩
똷
똽
똿
뙜
뙬
뙮
뙱
뙴
뚆
뚣
뚩
뚳
뚶
뚼
뛀
뛇
뛈
뛓
뛗
뛛
뛝
뛣
뛧
뛷
뛹
뛼
뜏
뜔
뜫
뜴
뜼
뜾
띅
띇
띎
띕
띯
띻
띿
랆
랤
랮
랳
럑
럪
렓
렚
렞
렣
렦
렳
렾
롁
롊
롲
롳
롽
뢀
뢓
뢘
뢤
뢥
뢯
룛
룪
룳
룴
룷
룺
뤁
뤃
뤅
뤙
뤯
뤱
뤻
륐
륔
륝
륞
륡
릃
릈
릊
릔
릞
릟
릮
맪
맮
먃
먅
먍
먏
먓
먙
먪
먳
먵
멃
멆
멇
멐
멒
멦
멯
멹
멽
몉
몟
몥
몮
몴
몷
몺
뫁
뫔
뫘
뫞
뫠
뫤
뫵
뫽
묈
묍
묚
묟
묡
묬
묱
묳
묺
뭀
뭁
뭃
뭈
뭋
뭗
뭟
뭧
뭰
뭺
뮔
뮧
뮯
뮳
뮶
뮿
믌
믏
믗
믛
믺
밒
밓
밙
밚
뱏
뱒
뱚
뱞
뱷
뱸
뱺
벇
벉
벊
벒
벻
볅
볙
볳
볿
봂
봏
봒
봗
봠
봢
봵
봽
뵑
뵛
뵧
뵲
뵴
뵸
뵻
붃
붌
붍
붵
붷
뷇
뷉
뷋
뷏
뷐
뷓
뷛
뷟
뷤
뷦
뷩
뷭
뷵
뷷
뷼
븈
븎
븏
븕
븘
븞
븧
븬
빆
빒
빣
빫
빶
빺
빾
뺒
뺝
뺟
뺡
뺥
뺦
뺧
뺮
뺳
뺹
뺿
뻄
뻕
뻖
뻚
뻛
뻦
뻼
뼐
뼞
뼡
뼢
뼦
뼱
뽆
뽊
뽒
뽓
뽔
뽖
뽙
뽚
뽛
뽞
뽧
뽷
뽸
뾂
뾃
뾄
뾅
뾇
뾘
뾥
뾹
뿁
뿃
뿉
뿋
뿒
뿗
뿚
뿞
뿮
뿯
뿷
쀌
쀎
쀐
쀑
쀬
쀲
쀿
쁉
쁍
쁓
쁕
쁖
쁚
쁣
쁴
쁼
삂
삚
삹
샓
샟
샪
샫
샭
섚
섳
셟
셣
셦
셷
솈
솏
솒
솕
솗
솚
솛
솞
솠
솻
쇀
쇇
쇔
쇗
쇙
쇝
쇡
쇰
숁
숓
숕
숚
숢
숤
숥
숦
숪
숬
숰
쉙
쉚
쉜
쉟
쉵
슂
슅
슏
슓
슠
슫
싊
싘
싞
싧
싩
싮
싳
쌆
쌊
쌎
쌖
쌚
쌛
쌟
쌷
쌺
쌻
썁
썃
썗
썱
썳
썴
썷
쎋
쎞
쎟
쎡
쎫
쏌
쏏
쏔
쐅
쐏
쐠
쐣
쐥
쐩
쐼
쑀
쑁
쑍
쑟
쑫
쑱
쑷
쑽
쒂
쒄
쒐
쒠
쒧
쒨
쒺
쓀
쓈
쓕
쓚
쓜
쓤
쓷
앇
앦
앲
앷
앻
얓
얰
엓
엕
엟
엦
엻
옃
옓
옡
옲
왂
왖
욀
욚
욦
욵
웄
웇
웋
웎
웚
웞
웴
윚
윟
윢
윧
윪
윮
윺
읁
읂
읟
읤
읩
잒
잓
잕
잙
잜
잟
쟆
쟏
쟑
쟔
쟟
쟥
쟴
쟸
쟹
젂
젃
젆
젘
젚
젻
젿
졁
졂
졏
졐
졒
졥
졧
졬
졺
졽
졾
졿
좈
좒
좜
좟
좠
좧
좬
좸
죥
죧
죱
죷
죻
줅
줈
줊
줎
줒
줙
줮
쥥
쥮
쥻
즊
즠
즡
즨
즯
짡
짣
짩
짴
쨖
쨢
쨱
쩁
쩎
쩒
쩱
쩸
쩽
쪈
쪔
쫅
쫋
쫖
쫠
쫫
쫰
쬥
쭟
쭬
쮕
쮬
쯇
쯈
쯜
쯫
쯬
쯸
찃
찖
찗
찛
찥
찲
찳
찴
찺
챁
챣
챲
챴
챶
챹
챻
챽
첄
첐
첚
첛
첢
첣
첥
첦
첪
첮
첳
쳈
쳋
쳕
쳧
쳫
쳭
쳼
촁
촍
촎
촑
촒
촓
촕
촖
촣
촻
쵿
춇
춏
춗
춠
춡
춦
춬
췛
츀
츆
츎
츷
칚
칻
캟
캧
컛
켇
켳
콉
콫
쾁
쾋
쾐
쾹
쾽
쿌
쿏
쿧
쿩
쿪
퀡
큫
큱
킆
킦
킭
탂
탃
탆
탊
탍
탒
탗
탚
탺
탿
턁
턉
턋
턌
턐
턒
턓
턕
턚
턩
턹
턺
턻
텆
텈
텓
텗
텞
텠
텣
텪
텳
텸
톁
톃
톗
톙
톮
퇍
퇙
퇜
퇣
툄
툑
툓
툔
툘
툝
툡
툩
툫
툯
툷
툸
툹
툺
퉃
퉇
퉐
퉜
퉝
퉠
퉱
튎
튙
튟
튦
튲
튳
튵
튶
틐
틒
틓
틘
틥
팂
팄
팒
팗
팚
팮
퍐
퍠
퍿
펅
펋
펎
펖
펗
펡
펬
펰
펵
펻
폃
폡
폳
퐠
퐤
퐳
푥
푧
푩
푫
푭
푷
풄
풇
풏
풕
풘
풜
퓙
퓝
퓡
퓳
퓴
퓵
퓹
픁
픓
픟
픱
픳
핁
핃
핎
핖
핗
핚
핞
핦
핪
핽
핿
햍
햚
햭
햰
햼
햿
헁
헏
헓
헫
헺
혂
혅
혉
혒
혭
홒
홨
홪
홬
홴
횂
횄
횓
횜
횦
횹
횾
훁
훃
훇
훎
훒
훯
휋
휌
휍
휔
휢
휬
휰
휳
휽
흢
흪
힋
힍
갆
갌
갍
갎
갏
갟
갡
갢
갦
갧
갩
갪
갫
갳
갶
갷
갺
갻
갽
갾
갿
걃
걄
걅
걆
걇
걊
걌
걎
걐
걒
걕
걖
걗
걙
걚
걛
걝
걞
걟
걠
걡
걢
걣
걤
걦
걧
걨
걪
걫
걬
걭
걮
걯
걵
걶
걻
걾
겎
겏
겑
겒
겖
겗
겘
겙
겚
겛
겣
겫
겭
겮
겱
겲
겴
겵
겶
겷
겺
곆
곇
곉
곊
곋
곍
곎
곏
곐
곑
곒
곓
곔
곙
곚
곛
곜
곝
곞
곢
곣
곥
곦
곫
곭
곮
곾
곿
괁
괂
괅
괇
괈
괉
괊
괋
괎
괒
괓
괔
괕
괖
괚
괛
괝
괟
괡
괢
괣
괤
괥
괦
괨
괪
괫
괮
괯
괰
괲
괶
괷
괹
괻
괽
괾
괿
굀
굁
굂
굃
굆
굊
굋
굌
굍
굎
굏
굒
굓
굕
굖
굙
굚
굛
굜
굝
굞
굟
굢
굤
굦
굧
굨
굩
굪
굫
굮
굯
굱
굲
굹
굺
궀
궊
궍
궎
궏
궑
궒
궓
궕
궗
궙
궚
궟
궠
궡
궣
궥
궦
궧
궩
궪
궯
궰
궱
궲
궴
궵
궺
궽
궾
궿
귂
귃
귅
귆
귇
귉
귊
귋
귌
귎
귏
귒
귗
귙
귞
귟
귢
귣
귦
귧
귨
귩
귫
귭
귮
귰
귲
귳
귴
귶
귷
긅
긆
긊
긖
긗
긙
긚
긛
긝
긟
긠
긥
긦
긨
긪
긫
긬
긭
긯
긳
긵
긹
긻
긼
긽
긾
깒
깕
깗
깘
깙
깚
깦
깫
깭
깮
깯
깱
깲
깴
깵
깶
깷
깾
깿
꺁
꺂
꺇
꺈
꺉
꺊
꺋
꺎
꺏
꺒
꺖
꺚
꺛
꺜
꺝
꺞
꺟
꺡
꺣
꺥
꺦
꺧
꺩
꺪
꺫
꺬
꺭
꺮
꺯
꺰
꺱
꺲
꺳
꺶
꺷
꺸
꺹
꺺
꺻
꺿
껁
껂
껅
껆
껇
껈
껉
껊
껋
껎
껓
껔
껕
껚
껛
껝
껞
껟
껡
껢
껣
껤
껥
껦
껧
껪
껮
껯
껱
껲
껳
껷
껹
껺
껻
껽
껾
껿
꼀
꼁
꼂
꼃
꼅
꼆
꼊
꼋
꼌
꼎
꼏
꼒
꼓
꼕
꼖
꼗
꼘
꼙
꼚
꼛
꼜
꼝
꼞
꼟
꼡
꼢
꼣
꼤
꼥
꼦
꼧
꼨
꼩
꼪
꼫
꼱
꼵
꼶
꼷
꼸
꼹
꼺
꼾
꽀
꽄
꽋
꽍
꽎
꽏
꽑
꽒
꽓
꽔
꽕
꽖
꽗
꽘
꽙
꽚
꽞
꽟
꽠
꽡
꽢
꽧
꽩
꽪
꽫
꽬
꽮
꽰
꽱
꽲
꽳
꽴
꽵
꽶
꽷
꽺
꽻
꽼
꽽
꽾
꽿
꾂
꾃
꾅
꾆
꾇
꾉
꾊
꾋
꾌
꾍
꾎
꾏
꾒
꾓
꾖
꾗
꾘
꾙
꾚
꾛
꾝
꾞
꾟
꾠
꾡
꾢
꾣
꾤
꾥
꾦
꾧
꾨
꾩
꾪
꾬
꾮
꾯
꾰
꾱
꾲
꾳
꾵
꾶
꾷
꾻
꾽
꿁
꿄
꿅
꿊
꿌
꿐
꿒
꿓
꿖
꿗
꿙
꿚
꿛
꿞
꿟
꿠
꿡
꿢
꿣
꿤
꿥
꿦
꿪
꿫
꿬
꿭
꿮
꿲
꿳
꿵
꿶
꿷
꿹
꿺
꿼
꿽
꿾
뀃
뀅
뀆
뀇
뀈
뀉
뀊
뀋
뀎
뀏
뀑
뀒
뀓
뀕
뀖
뀗
뀘
뀚
뀛
뀞
뀣
뀤
뀥
뀦
뀧
뀪
뀫
뀭
뀮
뀯
뀲
뀳
뀴
뀶
뀷
뀸
뀹
뀺
뀼
뀾
뀿
끀
끁
끂
끃
끇
끏
끐
끒
끖
끘
끜
끞
끢
끣
끥
끦
끧
끩
끪
끫
끬
끭
끮
끯
끱
끲
끳
끴
끶
끷
끸
끹
끺
끻
끿
낁
낂
낃
낅
낆
낇
낈
낉
낊
낎
낒
낓
낕
낖
낗
낝
낤
낥
낦
낶
낷
낹
낺
낽
낾
낿
냁
냂
냃
냆
냊
냋
냍
냎
냏
냒
냓
냕
냖
냗
냚
냛
냜
냝
냞
냢
냦
냧
냪
냭
냮
냯
냱
냲
냳
냴
냵
냶
냷
냸
냹
냺
냻
냼
냽
냾
냿
넁
넂
넃
넄
넅
넆
넇
넍
넔
넕
넞
넦
넧
넩
넪
넭
넮
넯
넰
넱
넲
넳
넶
넺
넻
넿
녃
녅
녆
녉
녊
녌
녍
녎
녏
녒
녖
녗
녙
녚
녝
녞
녟
녡
녢
녣
녥
녦
녧
녨
녩
녪
녫
녭
녮
녰
녱
녲
녳
녴
녵
녶
녷
녺
녻
녽
녾
놃
놄
놆
놊
놌
놖
놗
놙
놚
놛
놝
놟
놠
놡
놢
놣
놦
놪
놫
놭
놮
놱
놲
놳
놵
놷
놸
놹
놺
놻
놼
놽
놾
놿
뇀
뇁
뇂
뇃
뇅
뇆
뇇
뇈
뇉
뇊
뇋
뇍
뇎
뇏
뇑
뇒
뇓
뇕
뇖
뇗
뇘
뇙
뇚
뇛
뇞
뇢
뇣
뇤
뇥
뇦
뇧
뇪
뇫
뇭
뇮
뇯
뇱
뇲
뇳
뇴
뇵
뇶
뇷
뇺
뇼
뇾
뇿
눀
눂
눃
눆
눇
눉
눊
눍
눎
눏
눐
눑
눒
눓
눖
눘
눚
눛
눡
눢
눣
눥
눦
눧
눩
눪
눫
눬
눭
눮
눯
눰
눱
눲
눳
눵
눷
눸
눹
눺
눻
눾
눿
뉀
뉁
뉂
뉃
뉄
뉅
뉆
뉇
뉈
뉉
뉊
뉋
뉌
뉎
뉐
뉑
뉒
뉓
뉕
뉖
뉗
뉚
뉛
뉝
뉞
뉟
뉡
뉢
뉣
뉤
뉥
뉦
뉧
뉪
뉬
뉮
뉯
뉰
뉱
뉲
뉳
뉶
뉷
뉹
뉺
뉻
뉾
뉿
늀
늁
늂
늃
늆
늈
늊
늋
늌
늍
늎
늏
늓
늖
늛
늜
늝
늞
늟
늢
늤
늮
늯
늱
늲
늳
늵
늶
늷
늸
늹
늺
늻
늽
늾
늿
닀
닂
닃
닄
닅
닆
닇
닋
닍
닎
닓
닔
닕
닖
닗
닩
댂
댃
댅
댆
댉
댌
댍
댎
댏
댒
댙
댚
댞
댟
댡
댢
댣
댧
댨
댩
댪
댫
댭
댮
댰
댲
댳
댴
댵
댷
댹
댺
댻
댽
댾
댿
덁
덂
덃
덄
덅
덆
덇
덈
덉
덊
덋
덎
덏
덐
덑
덒
덓
덚
덡
덲
덵
덶
덹
덺
덻
덼
덽
뎆
뎇
뎋
뎎
뎏
뎑
뎓
뎕
뎖
뎘
뎚
뎛
뎝
뎞
뎣
뎤
뎥
뎩
뎪
뎫
뎭
뎮
뎯
뎱
뎲
뎳
뎴
뎵
뎶
뎷
뎸
뎹
뎺
뎻
뎼
뎾
뎿
돀
돁
돂
돃
돉
돏
돑
돓
돢
돣
돥
돦
돧
돪
돫
돬
돭
돮
돯
돱
돲
돳
돴
돷
돸
돹
돺
돻
돾
됁
됂
됃
됅
됆
됇
됉
됊
됋
됎
됔
됕
됖
됚
됛
됝
됞
됟
됡
됣
됤
됥
됦
됪
됮
됯
됱
됲
됳
됶
됷
됹
됽
됾
됿
둀
둁
둂
둃
둄
둆
둊
둋
둌
둎
둒
둓
둕
둖
둛
둜
둝
둞
둢
둤
둦
둧
둨
둭
둮
둯
둱
둲
둳
둵
둶
둷
둸
둹
둺
둻
둼
둽
둾
뒂
뒃
뒄
뒅
뒆
뒇
뒊
뒋
뒌
뒍
뒎
뒏
뒐
뒒
뒔
뒖
뒘
뒙
뒚
뒛
뒜
뒞
뒟
뒠
뒡
뒢
뒣
뒦
뒧
뒩
뒪
뒭
뒮
뒯
뒰
뒱
뒲
뒳
뒶
뒸
뒻
뒼
뒽
듂
듃
듅
듆
듉
듊
듋
듌
듍
듎
듏
듒
듔
듖
듗
듘
듙
듚
듡
듢
듨
듩
듪
듲
듴
듺
듻
듽
듾
듿
딁
딂
딃
딄
딅
딆
딇
딊
딌
딎
딏
딐
딑
딒
딓
딖
딗
딙
딚
딝
딞
딟
딠
딡
딢
딣
딬
딭
딷
딼
딽
딾
땂
땆
땉
땎
땏
땑
땒
땓
땖
땘
땙
땚
땢
땤
땦
땧
땪
땫
땬
땭
땮
땯
땰
땱
땲
땴
땵
땶
땷
땸
땹
땺
땾
땿
떀
떁
떂
떃
떆
떇
떉
떊
떍
떎
떏
떐
떒
떓
떕
떖
떚
떛
떜
떝
떞
떟
떩
떬
떮
떲
떶
떸
떹
떺
떾
떿
뗁
뗂
뗅
뗇
뗈
뗊
뗎
뗒
뗓
뗔
뗕
뗖
뗙
뗚
뗛
뗟
뗢
뗤
뗥
뗦
뗧
뗨
뗩
뗪
뗫
뗭
뗮
뗯
뗰
뗱
뗲
뗷
뗹
뗺
뗽
뗾
뗿
똀
똁
똂
똃
똄
똅
똆
똈
똉
똊
똋
똌
똍
똎
똓
똕
똖
똚
똜
똞
똢
똦
똨
똪
똮
똯
똱
똲
똳
똶
똸
똹
똺
똼
똾
뙀
뙂
뙃
뙄
뙅
뙆
뙉
뙊
뙋
뙌
뙎
뙏
뙐
뙑
뙒
뙓
뙔
뙕
뙖
뙗
뙘
뙙
뙚
뙛
뙝
뙞
뙟
뙠
뙢
뙣
뙥
뙦
뙧
뙩
뙪
뙫
뙯
뙰
뙲
뙳
뙵
뙶
뙷
뙸
뙹
뙺
뙻
뙼
뙽
뙾
뙿
뚃
뚅
뚇
뚈
뚉
뚋
뚌
뚍
뚎
뚏
뚐
뚑
뚒
뚓
뚖
뚗
뚘
뚙
뚚
뚛
뚟
뚡
뚨
뚪
뚰
뚲
뚴
뚹
뚺
뚻
뚽
뚾
뚿
뛁
뛂
뛄
뛅
뛆
뛊
뛋
뛌
뛍
뛎
뛏
뛐
뛑
뛒
뛕
뛖
뛘
뛙
뛚
뛜
뛞
뛠
뛡
뛢
뛤
뛥
뛦
뛨
뛩
뛪
뛫
뛬
뛭
뛮
뛯
뛱
뛲
뛳
뛵
뛶
뛺
뛽
뛾
뛿
뜂
뜄
뜆
뜇
뜈
뜉
뜊
뜋
뜍
뜎
뜑
뜒
뜓
뜕
뜖
뜗
뜘
뜙
뜚
뜜
뜝
뜞
뜟
뜠
뜡
뜢
뜣
뜤
뜥
뜦
뜧
뜪
뜭
뜮
뜱
뜲
뜶
뜺
뜿
띀
띂
띆
띉
띊
띋
띍
띏
띐
띑
띒
띓
띖
띗
띘
띚
띛
띜
띝
띞
띟
띢
띣
띥
띦
띩
띪
띫
띬
띭
띮
띲
띴
띶
띷
띸
띹
띺
랁
랂
랇
랈
랉
랊
랚
랛
랝
랞
랡
랢
랥
랦
랧
랪
랯
랱
랶
랷
랹
랺
랽
랾
랿
럀
럁
럃
럆
럊
럋
럌
럍
럎
럏
럒
럓
럕
럖
럗
럘
럙
럚
럛
럜
럝
럞
럟
럠
럡
럢
럣
럥
럦
럧
럨
럩
럫
럮
럯
럱
럳
럵
럹
럺
럾
렂
렃
렅
렊
렋
렍
렎
렑
렒
렔
렕
렖
렗
렟
렧
렩
렪
렭
렮
렯
렰
렱
렲
렶
렻
렽
롂
롃
롅
롆
롉
롋
롌
롍
롎
롏
롒
롔
롖
롗
롘
롙
롚
롛
롞
롟
롡
롢
롦
롧
롨
롩
롪
롰
롺
롻
롾
롿
뢁
뢂
뢃
뢄
뢅
뢆
뢊
뢋
뢌
뢎
뢏
뢑
뢒
뢕
뢖
뢗
뢙
뢚
뢛
뢜
뢝
뢞
뢟
뢠
뢡
뢢
뢣
뢦
뢧
뢩
뢪
뢫
뢬
뢭
뢮
뢲
뢳
뢵
뢶
뢷
뢹
뢺
뢻
뢼
뢽
뢾
뢿
룂
룆
룇
룈
룉
룊
룋
룎
룏
룑
룒
룓
룕
룖
룗
룘
룙
룚
룜
룞
룠
룢
룣
룤
룦
룧
룫
룭
룮
룲
룵
룶
룼
룾
룿
뤆
뤇
뤉
뤊
뤋
뤍
뤎
뤏
뤐
뤑
뤒
뤓
뤖
뤚
뤛
뤜
뤝
뤞
뤟
뤢
뤣
뤥
뤦
뤧
뤩
뤪
뤫
뤬
뤭
뤮
뤰
뤲
뤳
뤴
뤶
뤷
뤸
뤹
뤺
뤾
뤿
륁
륂
륃
륅
륆
륇
륈
륉
륊
륋
륎
륒
륓
륕
륖
륗
륚
륛
륟
륢
륣
륤
륥
륦
륪
륬
륮
륯
륰
륱
륲
륳
륹
륺
륾
륿
릀
릁
릂
릑
릒
릓
릕
릖
릗
릙
릚
릛
릜
릝
릡
릢
릤
릥
릦
릧
릨
릩
릪
릫
릱
릲
릶
릷
릸
릹
릺
릻
맖
맦
맧
맩
맭
맯
맰
맱
맲
맳
맶
맾
맿
먂
먇
먉
먊
먋
먌
먎
먒
먔
먝
먞
먟
먠
먡
먢
먣
먤
먥
먦
먧
먨
먩
먬
먭
먮
먯
먰
먱
먲
먴
먶
먷
먻
멄
멅
멖
멗
멙
멚
멝
멟
멠
멡
멢
멣
멨
멲
멳
멵
멶
멺
멻
멼
멾
멿
몂
몈
몍
몎
몏
몑
몒
몕
몖
몗
몘
몙
몚
몛
몜
몝
몞
몠
몡
몢
몣
몤
몦
몧
몵
몶
뫂
뫆
뫇
뫉
뫊
뫋
뫍
뫎
뫏
뫐
뫑
뫒
뫓
뫕
뫖
뫗
뫛
뫜
뫝
뫟
뫡
뫢
뫣
뫥
뫦
뫧
뫨
뫩
뫪
뫫
뫬
뫭
뫮
뫯
뫰
뫱
뫲
뫳
뫴
뫶
뫷
뫸
뫹
뫺
뫻
뫾
뫿
묁
묂
묃
묅
묆
묇
묉
묊
묋
묌
묎
묐
묒
묓
묔
묕
묖
묛
묝
묞
묢
묣
묤
묥
묧
묪
묮
묰
묲
묹
묿
뭂
뭒
뭓
뭕
뭖
뭙
뭚
뭛
뭜
뭝
뭞
뭢
뭦
뭪
뭫
뭮
뭯
뭱
뭲
뭳
뭴
뭶
뭸
뭹
뭻
뭼
뭽
뭾
뭿
뮀
뮁
뮂
뮃
뮄
뮅
뮆
뮇
뮊
뮋
뮍
뮎
뮏
뮑
뮒
뮓
뮕
뮖
뮗
뮙
뮚
뮜
뮞
뮟
뮠
뮡
뮢
뮣
뮦
뮩
뮪
뮫
뮭
뮮
뮰
뮱
뮲
뮵
뮸
뮺
뮼
뮾
믃
믅
믆
믊
믋
믍
믎
믑
믒
믔
믖
믚
믝
믞
믟
믡
믢
믣
믤
믥
믦
믧
믨
믩
믪
믫
믬
믭
믮
믯
믰
믲
믳
믴
믵
믶
믷
믽
밃
밄
밅
밆
밳
밵
밶
밹
밺
밼
밽
밾
밿
뱂
뱆
뱇
뱈
뱋
뱎
뱑
뱖
뱗
뱘
뱙
뱠
뱢
뱣
뱥
뱧
뱪
뱫
뱬
뱭
뱮
뱯
뱰
뱱
뱲
뱳
뱴
뱵
뱶
뱹
뱻
뱼
뱾
뱿
벀
벁
벂
벃
벢
벣
벥
벦
벪
벬
벭
벮
벯
벶
벷
벺
벿
볁
볂
볆
볇
볈
볉
볊
볋
볒
볖
볗
볚
볛
볝
볞
볡
볢
볣
볤
볥
볦
볧
볨
볩
볪
볬
볭
볮
볯
볰
볲
볷
볺
봓
봕
봖
봚
봛
봜
봝
봞
봟
봦
봧
봩
봪
봭
봮
봯
봰
봱
봲
봳
봶
봷
봸
봹
봺
봻
봼
봾
봿
뵁
뵂
뵃
뵄
뵅
뵆
뵇
뵊
뵋
뵍
뵎
뵏
뵒
뵓
뵔
뵕
뵖
뵗
뵚
뵝
뵞
뵟
뵠
뵡
뵢
뵣
뵦
뵩
뵪
뵮
뵯
뵰
뵱
뵵
뵺
뵼
뵽
뵾
뵿
붅
붎
붔
붞
붟
붠
붡
붢
붣
붥
붦
붧
붨
붩
붪
붫
붬
붭
붮
붲
붳
붶
붺
붻
붽
붾
붿
뷂
뷃
뷄
뷅
뷆
뷈
뷊
뷌
뷍
뷎
뷑
뷒
뷖
뷗
뷙
뷚
뷝
뷞
뷠
뷡
뷢
뷣
뷨
뷪
뷬
뷯
뷲
뷳
뷶
뷺
뷻
뷽
뷾
뷿
븁
븂
븄
븆
븇
븊
븋
븑
븒
븖
븗
븙
븚
븛
븢
븣
븤
븦
븪
븫
븭
븮
븯
븱
븲
븳
븴
븵
븶
븷
븹
븺
븻
븼
븾
븿
빀
빁
빃
빇
빉
빊
빐
빑
빓
빜
빦
빬
빭
빯
빲
빿
뺁
뺂
뺆
뺇
뺈
뺉
뺊
뺋
뺎
뺕
뺖
뺗
뺞
뺢
뺤
뺪
뺬
뺯
뺰
뺱
뺲
뺷
뺺
뺻
뺽
뺾
뻀
뻁
뻂
뻃
뻅
뻊
뻋
뻌
뻍
뻎
뻏
뻓
뻜
뻝
뻧
뻫
뻮
뻯
뻱
뻲
뻳
뻵
뻶
뻷
뻸
뻹
뻺
뻻
뻾
뼀
뼂
뼃
뼄
뼅
뼆
뼊
뼋
뼍
뼎
뼑
뼒
뼓
뼔
뼕
뼖
뼗
뼚
뼟
뼣
뼧
뼨
뼩
뼪
뼫
뼭
뼮
뼯
뼰
뼲
뼳
뼴
뼵
뼶
뼷
뼹
뼺
뼻
뼼
뼽
뼾
뼿
뽃
뽅
뽉
뽋
뽌
뽍
뽎
뽏
뽗
뽡
뽢
뽣
뽦
뽨
뽩
뽪
뽫
뽬
뽮
뽯
뽰
뽲
뽳
뽵
뽶
뽹
뽺
뽻
뽼
뽽
뽾
뽿
뾀
뾁
뾈
뾉
뾊
뾋
뾌
뾍
뾎
뾏
뾐
뾑
뾒
뾓
뾕
뾖
뾗
뾙
뾚
뾛
뾜
뾝
뾞
뾟
뾠
뾡
뾢
뾣
뾤
뾦
뾧
뾨
뾩
뾪
뾫
뾬
뾭
뾮
뾯
뾳
뾴
뾵
뾶
뾷
뾺
뾽
뾾
뾿
뿀
뿂
뿄
뿆
뿇
뿈
뿊
뿖
뿢
뿣
뿤
뿥
뿦
뿪
뿫
뿬
뿭
뿰
뿱
뿲
뿳
뿴
뿵
뿶
뿸
뿹
뿺
뿻
뿼
뿽
뿾
뿿
쀀
쀁
쀂
쀃
쀅
쀆
쀇
쀈
쀉
쀊
쀋
쀔
쀕
쀖
쀗
쀘
쀙
쀚
쀛
쀜
쀝
쀞
쀟
쀡
쀢
쀣
쀤
쀥
쀦
쀧
쀨
쀩
쀪
쀫
쀭
쀮
쀯
쀰
쀱
쀴
쀵
쀶
쀷
쀸
쀹
쀺
쀻
쁁
쁂
쁃
쁄
쁅
쁆
쁇
쁈
쁊
쁒
쁔
쁗
쁛
쁝
쁞
쁡
쁤
쁦
쁧
쁪
쁫
쁬
쁮
쁯
쁰
쁱
쁲
쁳
쁵
쁷
쁸
쁹
쁺
쁻
쁽
쁾
쁿
삀
삁
삃
삄
삅
삆
삇
삈
삉
삊
삋
삌
삍
삎
삏
삓
삕
삖
삙
삛
삞
삟
삢
삦
삨
삩
삪
삫
삺
샋
샍
샎
샑
샔
샕
샖
샗
샚
샞
샡
샣
샦
샧
샩
샮
샯
샰
샱
샲
샳
샶
샸
샺
샽
샿
섂
섃
섅
섆
섇
섉
섋
섌
섍
섎
섏
섒
섓
섔
섖
섗
섘
섙
섛
섩
섽
셁
셂
셃
셄
셅
셆
셇
셎
셏
셓
셗
셚
셛
셝
셞
셠
셡
셢
셨
셪
셫
셬
셭
셮
셯
셲
셳
셵
셶
셹
셺
셻
셼
셽
셾
셿
솂
솄
솆
솇
솉
솋
솙
솣
솪
솫
솭
솮
솯
솱
솲
솳
솴
솵
솶
솷
솺
솾
솿
쇁
쇂
쇃
쇅
쇆
쇉
쇊
쇋
쇍
쇎
쇏
쇐
쇑
쇒
쇓
쇕
쇖
쇚
쇛
쇜
쇞
쇟
쇢
쇣
쇥
쇦
쇧
쇩
쇪
쇫
쇬
쇭
쇮
쇯
쇲
쇶
쇷
쇸
쇹
쇺
쇻
쇾
쇿
숂
숃
숅
숆
숇
숈
숉
숊
숋
숎
숐
숒
숗
숡
숣
숧
숵
숶
숷
숹
숺
숻
숽
숾
숿
쉀
쉁
쉂
쉃
쉄
쉆
쉇
쉉
쉊
쉋
쉌
쉍
쉎
쉒
쉓
쉕
쉖
쉗
쉝
쉞
쉢
쉦
쉧
쉫
쉮
쉯
쉱
쉲
쉳
쉶
쉷
쉸
쉹
쉺
쉻
쉾
슃
슇
슊
슋
슍
슎
슑
슒
슔
슕
슖
슗
슚
슜
슞
슣
슩
슪
슯
슰
슱
싂
싃
싅
싆
싇
싉
싋
싌
싍
싎
싏
싒
싓
싔
싖
싗
싙
싚
싛
싟
싡
싥
쌁
쌃
쌄
쌅
쌏
쌗
쌝
쌠
쌡
쌢
쌣
쌦
쌧
쌪
쌫
쌬
쌭
쌮
쌯
쌲
쌳
쌶
쌹
쌼
쌽
쌾
쌿
썂
썄
썆
썇
썈
썉
썊
썏
썑
썒
썓
썔
썕
썘
썙
썚
썝
썞
썟
썠
썢
썣
썤
썥
썦
썧
썵
썶
썺
썾
썿
쎁
쎂
쎇
쎉
쎊
쎍
쎎
쎏
쎐
쎑
쎒
쎓
쎖
쎚
쎛
쎜
쎝
쎢
쎣
쎦
쎧
쎩
쎪
쎬
쎭
쎮
쎯
쎰
쎱
쎲
쎳
쎶
쎷
쎸
쎹
쎺
쎻
쏁
쏂
쏃
쏅
쏆
쏇
쏈
쏊
쏋
쏍
쏎
쏐
쏑
쏒
쏓
쏕
쏖
쏗
쏛
쏞
쏡
쏣
쏤
쏥
쏦
쏧
쏪
쏬
쏮
쏯
쏰
쏲
쏷
쏹
쏺
쏻
쏾
쏿
쐀
쐁
쐂
쐃
쐄
쐆
쐊
쐋
쐌
쐍
쐎
쐒
쐓
쐕
쐖
쐗
쐘
쐚
쐛
쐜
쐝
쐞
쐟
쐡
쐢
쐦
쐧
쐨
쐪
쐫
쐭
쐮
쐯
쐱
쐲
쐳
쐵
쐶
쐷
쐸
쐹
쐺
쐻
쐾
쐿
쑂
쑃
쑄
쑅
쑆
쑇
쑊
쑋
쑎
쑏
쑑
쑒
쑓
쑔
쑕
쑖
쑗
쑘
쑙
쑚
쑜
쑠
쑡
쑢
쑣
쑧
쑪
쑭
쑮
쑯
쑰
쑲
쑳
쑶
쑸
쑺
쑾
쑿
쒁
쒃
쒅
쒆
쒇
쒈
쒉
쒊
쒋
쒌
쒍
쒎
쒏
쒑
쒒
쒖
쒗
쒘
쒙
쒚
쒛
쒞
쒟
쒡
쒢
쒣
쒤
쒥
쒦
쒩
쒪
쒫
쒬
쒭
쒮
쒲
쒳
쒵
쒶
쒷
쒻
쒽
쒾
쒿
쓁
쓂
쓃
쓄
쓅
쓆
쓇
쓊
쓌
쓍
쓎
쓏
쓐
쓑
쓒
쓓
쓖
쓗
쓙
쓛
쓝
쓞
쓟
쓠
쓡
쓢
쓣
쓥
쓦
쓧
쓨
쓪
쓫
쓬
쓭
쓮
쓯
쓳
쓵
쓶
쓹
쓻
쓼
쓽
쓾
씂
씆
씇
씈
씊
씍
씎
씏
씑
씒
씓
씕
씖
씗
씘
씙
씚
씛
씞
씟
씠
씢
씣
씦
씧
씫
씭
씮
씱
씲
씳
씴
씵
씶
씷
씾
씿
앁
앂
앃
앣
앥
앪
앬
앭
앮
앯
앹
앿
얁
얈
얚
얛
얝
얞
얟
얡
얢
얣
얤
얥
얦
얧
얨
얪
얮
얯
얱
얲
얳
엀
엁
엂
엖
엚
엛
엝
엞
엢
엧
엲
옊
옋
옍
옎
옏
옔
옕
옖
옗
옚
옞
옟
옠
옢
옣
옩
왃
왅
왆
왊
왋
왌
왍
왎
왏
왗
왙
왞
왟
왡
왢
왣
왥
왦
왧
왨
왩
왪
왫
왮
왲
왳
왴
왵
왶
왺
왻
왽
왾
왿
욁
욂
욃
욄
욅
욆
욇
욊
욎
욏
욐
욑
욒
욓
욖
욗
욞
욠
욪
욫
욭
욲
욳
욶
욻
욼
욽
웂
웏
웑
웖
웘
웙
웢
웣
웪
웫
웭
웮
웯
웲
웳
웵
웶
웺
웼
웾
웿
윂
윃
윆
윇
윉
윊
윋
윍
윎
윏
윐
윑
윒
윓
윖
윛
윣
윥
윦
윩
윫
윬
윭
윯
윴
윻
윿
읚
읛
읝
읞
읡
읢
읣
읥
읦
읬
읮
읯
읱
읲
읳
잁
잝
잮
잯
잱
잲
잳
잵
잶
잷
잸
잹
잺
잻
잾
쟄
쟅
쟇
쟊
쟋
쟍
쟒
쟓
쟕
쟖
쟚
쟡
쟣
쟦
쟧
쟩
쟪
쟫
쟭
쟮
쟯
쟰
쟱
쟲
쟳
쟵
쟶
쟷
쟺
쟻
쟼
쟽
쟾
쟿
젅
젉
젌
젍
젎
젙
젞
젡
젢
젣
젥
젦
젩
젪
젫
젰
젲
젳
젷
젽
젾
졃
졄
졅
졆
졇
졊
졑
졓
졕
졖
졗
졙
졚
졛
졝
졞
졟
졠
졡
졢
졣
졦
졨
졪
졫
졭
졮
졯
졲
졳
졶
졹
졻
졼
좎
좏
좑
좓
좕
좖
좗
좘
좙
좚
좛
좞
좣
좤
좥
좦
좩
좪
좫
좭
좮
좯
좰
좱
좲
좳
좴
좵
좶
좷
좺
좻
좾
좿
죀
죁
죂
죃
죅
죆
죇
죉
죊
죋
죍
죎
죏
죐
죑
죒
죓
죖
죚
죛
죜
죝
죞
죟
죣
죦
죩
죪
죫
죬
죭
죮
죯
죲
죴
죺
죾
죿
줁
줂
줇
줉
줔
줕
줖
줚
줛
줝
줞
줟
줡
줢
줣
줤
줥
줦
줧
줨
줩
줪
줯
줰
줱
줲
줳
줶
줷
줹
줺
줻
줼
줽
줾
줿
쥀
쥁
쥂
쥃
쥄
쥅
쥆
쥈
쥊
쥋
쥌
쥍
쥎
쥏
쥒
쥓
쥕
쥖
쥗
쥙
쥚
쥛
쥜
쥝
쥞
쥟
쥢
쥦
쥧
쥨
쥩
쥪
쥫
쥯
쥱
쥲
쥳
쥵
쥶
쥷
쥸
쥹
쥺
쥾
즀
즃
즄
즅
즆
즇
즋
즍
즎
즏
즒
즓
즔
즕
즖
즗
즚
즜
즞
즟
즢
즣
즦
즧
즩
즪
즫
즬
즭
즮
즰
즱
즲
즳
즴
즵
즶
즷
즸
즺
즻
즼
즽
즾
즿
짃
짅
짉
짌
짍
짎
짏
짟
짨
짲
짳
짵
짶
짺
짻
짽
짾
짿
쨁
쨂
쨃
쨄
쨅
쨆
쨇
쨊
쨎
쨏
쨐
쨑
쨒
쨓
쨗
쨙
쨚
쨛
쨝
쨞
쨠
쨡
쨣
쨦
쨪
쨫
쨬
쨭
쨮
쨯
쨲
쨳
쨵
쨶
쨷
쨸
쨹
쨺
쨻
쨼
쨽
쨾
쨿
쩀
쩂
쩆
쩇
쩈
쩉
쩊
쩋
쩏
쩑
쩓
쩕
쩘
쩙
쩚
쩛
쩞
쩢
쩣
쩤
쩥
쩦
쩩
쩪
쩫
쩭
쩮
쩯
쩲
쩳
쩴
쩵
쩶
쩷
쩹
쩺
쩾
쩿
쪀
쪁
쪂
쪃
쪅
쪆
쪇
쪉
쪊
쪋
쪌
쪍
쪎
쪏
쪐
쪑
쪒
쪓
쪕
쪖
쪚
쪛
쪜
쪝
쪞
쪟
쪡
쪢
쪣
쪤
쪥
쪦
쪧
쪩
쪪
쪫
쪬
쪭
쪮
쪯
쪰
쪱
쪲
쪳
쪴
쪵
쪶
쪷
쪸
쪹
쪺
쪻
쪿
쫁
쫂
쫃
쫆
쫇
쫈
쫉
쫊
쫎
쫐
쫔
쫕
쫚
쫛
쫝
쫞
쫟
쫡
쫢
쫣
쫤
쫥
쫦
쫧
쫨
쫪
쫮
쫯
쫱
쫲
쫳
쫵
쫶
쫷
쫸
쫹
쫺
쫻
쫼
쫽
쫾
쫿
쬀
쬁
쬂
쬃
쬄
쬅
쬆
쬇
쬉
쬊
쬋
쬌
쬍
쬎
쬏
쬑
쬒
쬓
쬕
쬖
쬗
쬙
쬚
쬛
쬜
쬝
쬞
쬟
쬢
쬣
쬦
쬧
쬨
쬩
쬪
쬫
쬮
쬯
쬱
쬳
쬵
쬶
쬸
쬹
쬺
쬻
쬾
쬿
쭄
쭅
쭆
쭇
쭋
쭍
쭎
쭏
쭑
쭒
쭓
쭔
쭕
쭖
쭗
쭚
쭜
쭞
쭠
쭡
쭢
쭣
쭥
쭦
쭧
쭩
쭪
쭫
쭭
쭮
쭯
쭰
쭱
쭲
쭳
쭴
쭶
쭷
쭺
쭻
쭼
쭽
쭾
쭿
쮁
쮂
쮃
쮄
쮅
쮆
쮇
쮈
쮉
쮊
쮋
쮌
쮍
쮎
쮏
쮐
쮑
쮒
쮓
쮔
쮖
쮗
쮘
쮙
쮚
쮛
쮝
쮞
쮟
쮡
쮢
쮣
쮤
쮥
쮦
쮧
쮨
쮩
쮪
쮫
쮭
쮮
쮯
쮰
쮱
쮲
쮳
쮴
쮵
쮶
쮷
쮺
쮻
쮼
쮽
쮾
쮿
쯀
쯁
쯂
쯃
쯄
쯅
쯆
쯊
쯌
쯎
쯏
쯐
쯑
쯒
쯓
쯖
쯗
쯙
쯚
쯛
쯝
쯞
쯟
쯠
쯡
쯢
쯣
쯦
쯨
쯭
쯮
쯯
쯲
쯳
쯴
쯵
쯶
쯷
쯹
쯺
쯻
쯼
쯽
쯾
쯿
찀
찁
찂
찄
찅
찆
찇
찈
찉
찊
찋
찏
찑
찒
찓
찕
찘
찙
찚
찞
찠
찤
찪
찵
찶
찷
챆
챇
챉
챊
챋
챍
챎
챏
챐
챑
챒
챓
챖
챚
챛
챜
챝
챟
챢
챥
챧
챩
챪
챫
챬
챭
챮
챾
챿
첀
첁
첂
첃
첆
첇
첈
첉
첊
첋
첌
첍
첎
첏
첑
첒
첓
첔
첕
첖
첗
첝
첤
첱
첶
첷
첹
첺
첻
첽
첾
첿
쳀
쳁
쳂
쳃
쳆
쳊
쳍
쳎
쳏
쳒
쳓
쳖
쳙
쳚
쳛
쳜
쳝
쳞
쳟
쳢
쳦
쳨
쳩
쳪
쳮
쳯
쳱
쳲
쳳
쳵
쳶
쳷
쳸
쳹
쳺
쳻
쳽
쳾
촀
촂
촃
촄
촅
촆
촇
촋
촔
촗
촚
촜
촦
촧
촩
촪
촫
촭
촮
촯
촰
촱
촲
촳
촶
촸
촺
촼
촽
촿
쵂
쵃
쵄
쵅
쵆
쵈
쵉
쵊
쵋
쵌
쵍
쵎
쵏
쵐
쵑
쵒
쵓
쵔
쵖
쵗
쵘
쵙
쵚
쵛
쵞
쵟
쵡
쵢
쵣
쵥
쵦
쵧
쵨
쵩
쵪
쵫
쵰
쵲
쵳
쵴
쵵
쵶
쵺
쵻
쵽
쵾
춁
춂
춃
춄
춅
춆
춊
춌
춎
춐
춑
춒
춓
춖
춙
춚
춞
춟
춯
춲
춳
춵
춶
춷
춹
춺
춻
춼
춽
춾
춿
췀
췂
췆
췇
췈
췉
췊
췋
췎
췏
췑
췒
췓
췕
췖
췗
췘
췙
췚
췜
췝
췞
췟
췠
췢
췣
췥
췦
췧
췪
췫
췭
췮
췯
췱
췲
췳
췴
췵
췶
췷
췺
췾
췿
츁
츂
츃
츇
츉
츊
츋
츍
츏
츐
츑
츒
츓
츖
츘
츚
츛
츜
츝
츞
츟
츢
츣
츥
츦
츧
츪
츫
츬
츭
츮
츯
츲
츴
츶
츸
츹
츺
츻
츽
츾
츿
칁
칂
칃
칄
칅
칆
칇
칈
칉
칊
칋
칌
칍
칎
칏
칐
칑
칒
칓
칔
칕
칖
칗
칛
칝
칞
칣
칤
칥
칦
칧
칪
칱
칳
칶
칷
칹
칺
칾
칿
캀
캁
캂
캃
캈
캊
캒
캓
캕
캖
캗
캙
캚
캛
캝
캞
캦
캨
캩
캫
캮
캯
캱
캲
캳
캶
캷
캸
캹
캺
캻
캾
컀
컂
컃
컅
컆
컇
컉
컊
컋
컌
컍
컎
컏
컐
컑
컒
컓
컔
컕
컖
컗
컘
컙
컚
컜
컝
컞
컟
컠
컡
컢
컣
컦
컧
컩
컪
컮
컯
컰
컱
컲
컳
컺
컻
켂
켃
켅
켆
켉
켊
켋
켌
켍
켎
켏
켒
켖
켗
켛
켞
켟
켡
켢
켥
켦
켧
켨
켩
켪
켫
켲
켴
켵
켶
켷
켹
켺
켻
켽
켾
켿
콁
콂
콃
콄
콅
콆
콇
콈
콊
콋
콌
콍
콎
콏
콐
콑
콒
콓
콖
콗
콚
콝
콞
콟
콠
콡
콢
콣
콨
콪
콭
콲
콳
콵
콶
콷
콹
콺
콼
콽
콾
콿
쾂
쾄
쾆
쾇
쾉
쾊
쾎
쾏
쾑
쾒
쾓
쾕
쾖
쾗
쾘
쾙
쾚
쾛
쾜
쾝
쾞
쾟
쾠
쾢
쾣
쾤
쾥
쾦
쾧
쾪
쾫
쾭
쾮
쾯
쾱
쾲
쾳
쾴
쾵
쾶
쾷
쾸
쾺
쾼
쾾
쾿
쿀
쿁
쿂
쿃
쿅
쿆
쿇
쿉
쿊
쿋
쿍
쿎
쿐
쿑
쿒
쿓
쿕
쿖
쿘
쿚
쿛
쿝
쿞
쿟
쿢
쿣
쿥
쿦
쿫
쿬
쿮
쿯
쿲
쿴
쿶
쿷
쿹
쿺
쿻
쿾
쿿
퀁
퀂
퀃
퀅
퀆
퀇
퀈
퀉
퀊
퀋
퀎
퀐
퀒
퀓
퀔
퀕
퀖
퀗
퀚
퀛
퀝
퀞
퀟
퀢
퀣
퀤
퀥
퀦
퀩
퀪
퀬
퀮
퀯
퀰
퀱
퀲
퀳
퀶
퀷
퀹
퀺
퀻
퀽
퀾
퀿
큀
큁
큂
큃
큆
큈
큊
큋
큌
큍
큎
큏
큑
큒
큓
큕
큖
큗
큙
큚
큛
큜
큝
큞
큢
큤
큦
큧
큨
큩
큪
큮
큯
큲
큵
큶
큷
큸
큹
큺
큻
킀
킂
킃
킉
킊
킋
킌
킍
킎
킏
킑
킒
킓
킔
킕
킖
킗
킘
킙
킚
킛
킜
킝
킞
킟
킠
킡
킢
킣
킧
킩
킪
킮
킯
킰
킱
킲
킳
킶
킺
킻
킽
킿
탅
탋
탌
탎
탛
탞
탟
탡
탢
탥
탦
탧
탨
탩
탪
탫
탮
탲
탳
탴
탷
탻
탽
탾
턂
턃
턄
턅
턆
턇
턈
턊
턎
턏
턖
턗
턘
턙
턛
턜
턝
턞
턟
턠
턡
턢
턣
턤
턥
턦
턧
턨
턪
턫
턬
턭
턮
턯
턲
턳
턵
턶
턷
턼
턽
턾
턿
텇
텎
텏
텑
텒
텕
텖
텘
텙
텚
텛
텢
텧
텫
텭
텮
텯
텱
텲
텴
텵
텶
텷
텺
텾
텿
톀
톂
톅
톆
톇
톉
톊
톌
톍
톎
톏
톐
톑
톒
톓
톔
톕
톖
톘
톚
톛
톜
톝
톞
톟
톢
톣
톥
톦
톪
톫
톬
톭
톯
톴
톶
톷
톻
톾
톿
퇁
퇂
퇃
퇅
퇆
퇇
퇈
퇉
퇊
퇋
퇌
퇎
퇏
퇐
퇑
퇒
퇓
퇔
퇕
퇖
퇗
퇚
퇛
퇝
퇞
퇟
퇠
퇡
퇢
퇤
퇥
퇦
퇧
퇨
퇩
퇪
퇫
퇬
퇭
퇮
퇯
퇰
퇱
퇲
퇳
퇵
퇶
퇷
퇹
퇺
퇻
퇽
퇾
퇿
툀
툁
툂
툃
툅
툆
툈
툊
툋
툌
툍
툎
툏
툒
툕
툖
툗
툙
툚
툛
툜
툞
툟
툢
툣
툤
툦
툧
툨
툪
툮
툱
툲
툳
툶
툻
툾
퉂
퉄
퉉
퉊
퉋
퉌
퉍
퉎
퉏
퉑
퉒
퉓
퉔
퉕
퉖
퉗
퉘
퉙
퉚
퉛
퉞
퉟
퉡
퉢
퉣
퉦
퉧
퉩
퉪
퉫
퉬
퉮
퉯
퉰
퉲
퉳
퉴
퉵
퉶
퉸
퉺
퉻
퉼
퉽
퉾
퉿
튂
튃
튅
튆
튇
튉
튊
튋
튌
튍
튏
튒
튔
튖
튗
튘
튚
튛
튞
튡
튢
튣
튥
튧
튨
튩
튪
튫
튯
튰
튴
튷
튻
튾
틁
틃
틄
틅
틆
틇
틌
틎
틏
틕
틖
틗
틙
틚
틛
틝
틞
틟
틠
틡
틢
틣
틦
틨
틪
틫
틬
틭
틮
틯
틲
틳
틵
틶
틹
틺
틻
틼
틽
틾
틿
팆
팇
팋
팑
팕
팘
팙
팞
팢
팧
팪
팫
팭
팯
팱
팲
팳
팴
팵
팶
팷
팺
팾
팿
퍀
퍁
퍂
퍃
퍆
퍇
퍉
퍊
퍋
퍍
퍎
퍏
퍑
퍒
퍓
퍔
퍕
퍖
퍛
퍜
퍝
퍞
퍟
퍡
퍢
퍣
퍤
퍥
퍦
퍧
퍨
퍩
퍪
퍫
퍬
퍭
퍮
퍯
퍰
퍱
퍲
퍳
퍴
퍵
퍶
퍷
퍸
퍹
퍺
퍻
퍾
펂
펃
펆
펇
펈
펉
펊
펒
펓
펕
펚
펛
펝
펞
펟
펢
펣
펤
펥
펦
펧
펪
펮
펯
펱
펳
펶
펷
펹
펺
펽
펾
펿
폀
폁
폆
폊
폋
폌
폍
폎
폏
폑
폒
폓
폖
폗
폙
폚
폛
폜
폝
폞
폟
폠
폢
폤
폥
폦
폧
폨
폩
폪
폫
폱
폲
폵
폶
폷
폸
폹
폺
폻
폾
퐀
퐇
퐊
퐋
퐍
퐎
퐏
퐑
퐒
퐓
퐔
퐕
퐖
퐗
퐘
퐚
퐛
퐜
퐟
퐡
퐢
퐣
퐥
퐦
퐧
퐨
퐩
퐪
퐫
퐬
퐭
퐮
퐯
퐰
퐱
퐲
퐴
퐵
퐶
퐷
퐸
퐹
퐺
퐻
퐼
퐽
퐾
퐿
푁
푂
푃
푅
푆
푇
푉
푊
푋
푌
푍
푎
푏
푐
푑
푒
푓
푔
푖
푗
푘
푙
푚
푛
푞
푟
푡
푢
푣
푦
푨
푪
푬
푮
푰
푲
푳
푵
푶
푺
푻
푽
풁
풃
풅
풆
풊
풌
풎
풓
풖
풗
풙
풚
풛
풝
풞
풟
풠
풡
풢
풣
풤
풥
풦
풧
풨
풪
풫
풭
풮
풯
풲
풳
풵
풶
풷
풺
풻
풼
풽
퓀
퓁
퓂
퓃
퓄
퓆
퓇
퓈
퓉
퓊
퓋
퓎
퓏
퓑
퓒
퓓
퓕
퓖
퓗
퓘
퓚
퓛
퓞
퓠
퓢
퓣
퓤
퓥
퓦
퓧
퓪
퓫
퓭
퓮
퓯
퓱
퓲
퓶
퓷
퓺
퓼
퓾
퓿
픀
픂
픃
픆
픇
픉
픊
픍
픎
픏
픐
픑
픒
픘
픚
픛
픜
픡
픢
픣
픥
픦
픧
픩
픪
픫
픬
픭
픮
픯
픰
픲
픴
픵
픶
픷
픸
픹
픺
픻
픾
픿
핂
핅
핆
핇
핈
핉
핊
핋
핐
핒
핢
핯
핷
핹
핺
핾
햀
햁
햂
햃
햆
햊
햒
햓
햕
햖
햗
햜
햞
햢
햦
햧
햨
햪
햮
햯
햱
햲
햳
햴
햵
햶
햷
햸
햹
햺
햻
햽
헂
헃
헄
헅
헆
헇
헊
헋
헍
헎
헕
헖
헞
헟
헢
헦
헧
헩
헪
헮
헰
헱
헳
헶
헻
헽
헾
혃
혆
혇
혊
혋
혌
혍
혎
혏
혖
혗
혘
혙
혚
혛
혝
혞
혟
혡
혢
혣
혥
혦
혧
혨
혩
혪
혫
혮
혰
혲
혳
혴
혵
혶
혷
혺
혻
혽
혾
혿
홁
홂
홃
홄
홆
홊
홌
홎
홏
홖
홗
홙
홚
홞
홟
홠
홡
홢
홦
홫
홭
홮
홲
홳
홵
홶
홷
홸
홹
홺
홻
홼
홽
홾
홿
횀
횁
횆
횇
횈
횉
횊
횋
횎
횏
횑
횒
횕
횖
횗
횘
횙
횚
횛
횠
횢
횣
횤
횥
횧
횪
횫
횭
횮
횯
횱
횲
횳
횴
횵
횶
횷
횺
횼
횿
훀
훂
훆
훉
훊
훏
훐
훖
훘
훢
훣
훥
훦
훧
훩
훪
훫
훬
훭
훮
훲
훳
훴
훶
훷
훹
훺
훻
훾
훿
휁
휂
휃
휆
휇
휈
휉
휊
휎
휐
휒
휓
휕
휖
휚
휛
휝
휞
휟
휡
휣
휤
휥
휦
휧
휪
휮
휯
휱
휲
휶
휷
휹
휺
휻
휾
휿
흀
흁
흂
흃
흅
흆
흈
흊
흋
흌
흍
흎
흏
흓
흕
흚
흛
흜
흞
흤
흦
흧
흮
흯
흱
흲
흳
흵
흶
흷
흸
흹
흺
흻
흾
힀
힂
힃
힄
힅
힆
힇
힊
힎
힒
힓
