{"version":"1.0","truncation":null,"padding":null,"added_tokens":[{"id":0,"special":true,"content":"[UNK]","single_word":false,"lstrip":false,"rstrip":false,"normalized":false},{"id":1,"special":true,"content":"[CLS]","single_word":false,"lstrip":false,"rstrip":false,"normalized":false},{"id":2,"special":true,"content":"[SEP]","single_word":false,"lstrip":false,"rstrip":false,"normalized":false},{"id":3,"special":true,"content":"[PAD]","single_word":false,"lstrip":false,"rstrip":false,"normalized":false},{"id":4,"special":true,"content":"[MASK]","single_word":false,"lstrip":false,"rstrip":false,"normalized":false}],"normalizer":{"type":"Sequence","normalizers":[{"type":"StripAccents"}]},"pre_tokenizer":{"type":"WhitespaceSplit"},"post_processor":{"type":"TemplateProcessing","single":[{"SpecialToken":{"id":"[CLS]","type_id":0}},{"Sequence":{"id":"A","type_id":0}},{"SpecialToken":{"id":"[SEP]","type_id":0}}],"pair":[{"SpecialToken":{"id":"[CLS]","type_id":0}},{"Sequence":{"id":"A","type_id":0}},{"SpecialToken":{"id":"[SEP]","type_id":0}},{"Sequence":{"id":"B","type_id":1}},{"SpecialToken":{"id":"[SEP]","type_id":1}}],"special_tokens":{"[CLS]":{"id":"[CLS]","ids":[1],"tokens":["[CLS]"]},"[SEP]":{"id":"[SEP]","ids":[2],"tokens":["[SEP]"]}}},"decoder":null,"model":{"type":"WordPiece","unk_token":"[UNK]","continuing_subword_prefix":"##","max_input_chars_per_word":100,"vocab":{"[UNK]":0,"[CLS]":1,"[SEP]":2,"[PAD]":3,"[MASK]":4,"!":5,"\"":6,"#":7,"$":8,"%":9,"&":10,"'":11,"(":12,")":13,"*":14,"+":15,",":16,"-":17,".":18,"/":19,"0":20,"1":21,"2":22,"3":23,"4":24,"5":25,"6":26,"7":27,"8":28,"9":29,":":30,";":31,"<":32,"=":33,">":34,"?":35,"@":36,"A":37,"B":38,"C":39,"D":40,"E":41,"F":42,"G":43,"H":44,"I":45,"J":46,"K":47,"L":48,"M":49,"N":50,"O":51,"P":52,"Q":53,"R":54,"S":55,"T":56,"U":57,"V":58,"W":59,"X":60,"Y":61,"Z":62,"[":63,"\\":64,"]":65,"^":66,"_":67,"`":68,"a":69,"b":70,"c":71,"d":72,"e":73,"f":74,"g":75,"h":76,"i":77,"j":78,"k":79,"l":80,"m":81,"n":82,"o":83,"p":84,"q":85,"r":86,"s":87,"t":88,"u":89,"v":90,"w":91,"x":92,"y":93,"z":94,"{":95,"|":96,"}":97,"~":98,"":99,"ᄀ":100,"ᄆ":101,"ᄇ":102,"ᆫ":103,"ᆯ":104,"ᆼ":105,"ㄱ":106,"ㄲ":107,"ㄳ":108,"ㄴ":109,"ㄵ":110,"ㄶ":111,"ㄷ":112,"ㄸ":113,"ㄹ":114,"ㄺ":115,"ㄻ":116,"ㄼ":117,"ㄽ":118,"ㄾ":119,"ㄿ":120,"ㅀ":121,"ㅁ":122,"ㅂ":123,"ㅃ":124,"ㅄ":125,"ㅅ":126,"ㅆ":127,"ㅇ":128,"ㅈ":129,"ㅉ":130,"ㅊ":131,"ㅋ":132,"ㅌ":133,"ㅍ":134,"ㅎ":135,"ㅏ":136,"ㅐ":137,"ㅑ":138,"ㅒ":139,"ㅓ":140,"ㅔ":141,"ㅕ":142,"ㅖ":143,"ㅗ":144,"ㅘ":145,"ㅙ":146,"ㅚ":147,"ㅛ":148,"ㅜ":149,"ㅝ":150,"ㅞ":151,"ㅟ":152,"ㅠ":153,"ㅡ":154,"ㅢ":155,"ㅣ":156,"가":157,"각":158,"갂":159,"갃":160,"간":161,"갅":162,"갆":163,"갇":164,"갈":165,"갉":166,"갊":167,"갋":168,"갌":169,"갍":170,"갎":171,"갏":172,"감":173,"갑":174,"값":175,"갓":176,"갔":177,"강":178,"갖":179,"갗":180,"갘":181,"같":182,"갚":183,"갛":184,"개":185,"객":186,"갞":187,"갟":188,"갠":189,"갡":190,"갢":191,"갣":192,"갤":193,"갥":194,"갦":195,"갧":196,"갨":197,"갩":198,"갪":199,"갫":200,"갬":201,"갭":202,"갮":203,"갯":204,"갰":205,"갱":206,"갲":207,"갳":208,"갴":209,"갵":210,"갶":211,"갷":212,"갸":213,"갹":214,"갺":215,"갻":216,"갽":217,"갾":218,"갿":219,"걀":220,"걁":221,"걂":222,"걃":223,"걄":224,"걅":225,"걆":226,"걇":227,"걈":228,"걉":229,"걊":230,"걋":231,"걌":232,"걍":233,"걎":234,"걏":235,"걐":236,"걑":237,"걒":238,"걓":239,"걔":240,"걕":241,"걖":242,"걗":243,"걙":244,"걚":245,"걛":246,"걝":247,"걞":248,"걟":249,"걠":250,"걡":251,"걢":252,"걣":253,"걤":254,"걥":255,"걦":256,"걧":257,"걨":258,"걩":259,"걪":260,"걫":261,"걬":262,"걭":263,"걮":264,"걯":265,"거":266,"걱":267,"걲":268,"걳":269,"건":270,"걵":271,"걶":272,"걷":273,"걸":274,"걹":275,"걺":276,"걻":277,"걼":278,"걽":279,"걾":280,"걿":281,"검":282,"겁":283,"겂":284,"것":285,"겄":286,"겅":287,"겆":288,"겇":289,"겈":290,"겉":291,"겊":292,"겋":293,"게":294,"겍":295,"겎":296,"겏":297,"겐":298,"겑":299,"겒":300,"겓":301,"겔":302,"겕":303,"겖":304,"겗":305,"겘":306,"겙":307,"겚":308,"겛":309,"겜":310,"겞":311,"겟":312,"겠":313,"겡":314,"겢":315,"겣":316,"겤":317,"겥":318,"겦":319,"겧":320,"겨":321,"격":322,"겪":323,"겫":324,"견":325,"겭":326,"겮":327,"겯":328,"결":329,"겱":330,"겲":331,"겳":332,"겴":333,"겵":334,"겶":335,"겷":336,"겸":337,"겹":338,"겺":339,"겻":340,"겼":341,"경":342,"겾":343,"겿":344,"곀":345,"곁":346,"곂":347,"곃":348,"계":349,"곅":350,"곆":351,"곇":352,"곈":353,"곉":354,"곊":355,"곋":356,"곌":357,"곍":358,"곎":359,"곏":360,"곐":361,"곑":362,"곒":363,"곓":364,"곔":365,"곕":366,"곖":367,"곗":368,"곘":369,"곙":370,"곚":371,"곛":372,"곜":373,"곝":374,"곞":375,"곟":376,"고":377,"곡":378,"곢":379,"곣":380,"곤":381,"곥":382,"곦":383,"곧":384,"골":385,"곩":386,"곪":387,"곫":388,"곬":389,"곭":390,"곮":391,"곯":392,"곰":393,"곱":394,"곲":395,"곳":396,"곴":397,"공":398,"곶":399,"곷":400,"곸":401,"곹":402,"곺":403,"곻":404,"과":405,"곽":406,"곾":407,"곿":408,"관":409,"괁":410,"괂":411,"괃":412,"괄":413,"괅":414,"괆":415,"괇":416,"괈":417,"괉":418,"괊":419,"괋":420,"괌":421,"괍":422,"괎":423,"괏":424,"괐":425,"광":426,"괒":427,"괓":428,"괔":429,"괕":430,"괖":431,"괗":432,"괘":433,"괙":434,"괚":435,"괛":436,"괜":437,"괝":438,"괞":439,"괟":440,"괠":441,"괡":442,"괢":443,"괣":444,"괤":445,"괥":446,"괦":447,"괧":448,"괨":449,"괩":450,"괪":451,"괫":452,"괬":453,"괭":454,"괮":455,"괯":456,"괰":457,"괱":458,"괲":459,"괳":460,"괴":461,"괵":462,"괶":463,"괷":464,"괸":465,"괹":466,"괺":467,"괻":468,"괼":469,"괽":470,"괾":471,"괿":472,"굀":473,"굁":474,"굂":475,"굃":476,"굄":477,"굅":478,"굆":479,"굇":480,"굈":481,"굉":482,"굊":483,"굋":484,"굌":485,"굍":486,"굎":487,"굏":488,"교":489,"굑":490,"굒":491,"굓":492,"굔":493,"굕":494,"굖":495,"굗":496,"굘":497,"굙":498,"굚":499,"굛":500,"굜":501,"굝":502,"굞":503,"굟":504,"굠":505,"굡":506,"굢":507,"굣":508,"굤":509,"굥":510,"굦":511,"굧":512,"굨":513,"굩":514,"굪":515,"굫":516,"구":517,"국":518,"굮":519,"굯":520,"군":521,"굱":522,"굲":523,"굳":524,"굴":525,"굵":526,"굶":527,"굷":528,"굸":529,"굹":530,"굺":531,"굻":532,"굼":533,"굽":534,"굾":535,"굿":536,"궀":537,"궁":538,"궂":539,"궃":540,"궄":541,"궅":542,"궆":543,"궇":544,"궈":545,"궉":546,"궊":547,"궋":548,"권":549,"궍":550,"궎":551,"궏":552,"궐":553,"궑":554,"궒":555,"궓":556,"궔":557,"궕":558,"궖":559,"궗":560,"궘":561,"궙":562,"궚":563,"궛":564,"궜":565,"궝":566,"궞":567,"궟":568,"궠":569,"궡":570,"궢":571,"궣":572,"궤":573,"궥":574,"궦":575,"궧":576,"궨":577,"궩":578,"궪":579,"궫":580,"궬":581,"궭":582,"궮":583,"궯":584,"궰":585,"궱":586,"궲":587,"궳":588,"궴":589,"궵":590,"궶":591,"궷":592,"궸":593,"궹":594,"궺":595,"궻":596,"궼":597,"궽":598,"궾":599,"궿":600,"귀":601,"귁":602,"귂":603,"귃":604,"귄":605,"귅":606,"귆":607,"귇":608,"귈":609,"귉":610,"귊":611,"귋":612,"귌":613,"귍":614,"귎":615,"귏":616,"귐":617,"귑":618,"귒":619,"귓":620,"귔":621,"귕":622,"귖":623,"귗":624,"귘":625,"귙":626,"귚":627,"귛":628,"규":629,"귝":630,"귞":631,"귟":632,"균":633,"귡":634,"귢":635,"귣":636,"귤":637,"귥":638,"귦":639,"귧":640,"귨":641,"귩":642,"귪":643,"귫":644,"귬":645,"귭":646,"귮":647,"귯":648,"귰":649,"귱":650,"귲":651,"귳":652,"귴":653,"귵":654,"귶":655,"귷":656,"그":657,"극":658,"귺":659,"귻":660,"근":661,"귽":662,"귾":663,"귿":664,"글":665,"긁":666,"긂":667,"긃":668,"긄":669,"긅":670,"긆":671,"긇":672,"금":673,"급":674,"긊":675,"긋":676,"긌":677,"긍":678,"긎":679,"긏":680,"긐":681,"긑":682,"긒":683,"긓":684,"긔":685,"긕":686,"긖":687,"긗":688,"긘":689,"긙":690,"긚":691,"긛":692,"긜":693,"긝":694,"긞":695,"긟":696,"긠":697,"긡":698,"긢":699,"긣":700,"긤":701,"긥":702,"긦":703,"긧":704,"긨":705,"긩":706,"긪":707,"긫":708,"긬":709,"긭":710,"긮":711,"긯":712,"기":713,"긱":714,"긲":715,"긳":716,"긴":717,"긵":718,"긶":719,"긷":720,"길":721,"긹":722,"긺":723,"긻":724,"긼":725,"긽":726,"긾":727,"긿":728,"김":729,"깁":730,"깂":731,"깃":732,"깄":733,"깅":734,"깆":735,"깇":736,"깈":737,"깉":738,"깊":739,"깋":740,"까":741,"깍":742,"깎":743,"깏":744,"깐":745,"깑":746,"깒":747,"깓":748,"깔":749,"깕":750,"깖":751,"깗":752,"깘":753,"깙":754,"깚":755,"깛":756,"깜":757,"깝":758,"깞":759,"깟":760,"깡":761,"깢":762,"깣":763,"깤":764,"깥":765,"깦":766,"깧":767,"깨":768,"깩":769,"깪":770,"깫":771,"깬":772,"깭":773,"깮":774,"깯":775,"깱":776,"깲":777,"깳":778,"깴":779,"깵":780,"깶":781,"깷":782,"깸":783,"깹":784,"깺":785,"깻":786,"깽":787,"깾":788,"깿":789,"꺀":790,"꺁":791,"꺂":792,"꺃":793,"꺄":794,"꺅":795,"꺆":796,"꺇":797,"꺈":798,"꺉":799,"꺊":800,"꺋":801,"꺌":802,"꺍":803,"꺎":804,"꺏":805,"꺐":806,"꺑":807,"꺒":808,"꺓":809,"꺔":810,"꺕":811,"꺖":812,"꺗":813,"꺘":814,"꺙":815,"꺚":816,"꺛":817,"꺜":818,"꺝":819,"꺞":820,"꺟":821,"꺠":822,"꺡":823,"꺢":824,"꺣":825,"꺤":826,"꺥":827,"꺦":828,"꺧":829,"꺨":830,"꺩":831,"꺪":832,"꺫":833,"꺬":834,"꺭":835,"꺮":836,"꺯":837,"꺰":838,"꺱":839,"꺲":840,"꺳":841,"꺴":842,"꺵":843,"꺶":844,"꺷":845,"꺸":846,"꺹":847,"꺺":848,"꺻":849,"꺼":850,"꺽":851,"꺾":852,"꺿":853,"껀":854,"껁":855,"껂":856,"껃":857,"껄":858,"껅":859,"껆":860,"껇":861,"껈":862,"껉":863,"껊":864,"껋":865,"껌":866,"껍":867,"껎":868,"껏":869,"껑":870,"껒":871,"껓":872,"껔":873,"껕":874,"껖":875,"껗":876,"께":877,"껙":878,"껚":879,"껛":880,"껝":881,"껞":882,"껟":883,"껠":884,"껡":885,"껢":886,"껣":887,"껤":888,"껥":889,"껦":890,"껧":891,"껨":892,"껩":893,"껪":894,"껫":895,"껬":896,"껭":897,"껮":898,"껯":899,"껰":900,"껱":901,"껲":902,"껳":903,"껴":904,"껵":905,"껶":906,"껷":907,"껸":908,"껹":909,"껺":910,"껻":911,"껼":912,"껽":913,"껾":914,"껿":915,"꼀":916,"꼁":917,"꼂":918,"꼃":919,"꼄":920,"꼅":921,"꼆":922,"꼇":923,"꼈":924,"꼉":925,"꼊":926,"꼋":927,"꼌":928,"꼍":929,"꼎":930,"꼏":931,"꼐":932,"꼑":933,"꼒":934,"꼓":935,"꼔":936,"꼕":937,"꼖":938,"꼗":939,"꼘":940,"꼙":941,"꼚":942,"꼛":943,"꼜":944,"꼝":945,"꼞":946,"꼟":947,"꼠":948,"꼡":949,"꼢":950,"꼣":951,"꼤":952,"꼥":953,"꼦":954,"꼧":955,"꼨":956,"꼩":957,"꼪":958,"꼫":959,"꼬":960,"꼭":961,"꼮":962,"꼯":963,"꼰":964,"꼱":965,"꼲":966,"꼳":967,"꼴":968,"꼵":969,"꼶":970,"꼷":971,"꼸":972,"꼹":973,"꼺":974,"꼻":975,"꼼":976,"꼽":977,"꼾":978,"꼿":979,"꽀":980,"꽁":981,"꽂":982,"꽃":983,"꽄":984,"꽅":985,"꽆":986,"꽇":987,"꽈":988,"꽉":989,"꽊":990,"꽋":991,"꽌":992,"꽍":993,"꽎":994,"꽏":995,"꽐":996,"꽑":997,"꽒":998,"꽓":999,"꽔":1000,"꽕":1001,"꽖":1002,"꽗":1003,"꽘":1004,"꽙":1005,"꽚":1006,"꽛":1007,"꽜":1008,"꽝":1009,"꽞":1010,"꽟":1011,"꽠":1012,"꽡":1013,"꽢":1014,"꽣":1015,"꽤":1016,"꽥":1017,"꽦":1018,"꽧":1019,"꽨":1020,"꽩":1021,"꽪":1022,"꽫":1023,"꽬":1024,"꽭":1025,"꽮":1026,"꽯":1027,"꽰":1028,"꽱":1029,"꽲":1030,"꽳":1031,"꽴":1032,"꽵":1033,"꽶":1034,"꽷":1035,"꽸":1036,"꽹":1037,"꽺":1038,"꽻":1039,"꽼":1040,"꽽":1041,"꽾":1042,"꽿":1043,"꾀":1044,"꾁":1045,"꾂":1046,"꾃":1047,"꾄":1048,"꾅":1049,"꾆":1050,"꾇":1051,"꾈":1052,"꾉":1053,"꾊":1054,"꾋":1055,"꾌":1056,"꾍":1057,"꾎":1058,"꾏":1059,"꾐":1060,"꾑":1061,"꾒":1062,"꾓":1063,"꾔":1064,"꾕":1065,"꾖":1066,"꾗":1067,"꾘":1068,"꾙":1069,"꾚":1070,"꾛":1071,"꾜":1072,"꾝":1073,"꾞":1074,"꾟":1075,"꾠":1076,"꾡":1077,"꾢":1078,"꾣":1079,"꾤":1080,"꾥":1081,"꾦":1082,"꾧":1083,"꾨":1084,"꾩":1085,"꾪":1086,"꾫":1087,"꾬":1088,"꾭":1089,"꾮":1090,"꾯":1091,"꾰":1092,"꾱":1093,"꾲":1094,"꾳":1095,"꾴":1096,"꾵":1097,"꾶":1098,"꾷":1099,"꾸":1100,"꾹":1101,"꾺":1102,"꾻":1103,"꾼":1104,"꾽":1105,"꾾":1106,"꾿":1107,"꿀":1108,"꿁":1109,"꿂":1110,"꿃":1111,"꿄":1112,"꿅":1113,"꿆":1114,"꿇":1115,"꿈":1116,"꿉":1117,"꿊":1118,"꿋":1119,"꿌":1120,"꿍":1121,"꿎":1122,"꿏":1123,"꿐":1124,"꿑":1125,"꿒":1126,"꿓":1127,"꿔":1128,"꿕":1129,"꿖":1130,"꿗":1131,"꿘":1132,"꿙":1133,"꿚":1134,"꿛":1135,"꿜":1136,"꿝":1137,"꿞":1138,"꿟":1139,"꿠":1140,"꿡":1141,"꿢":1142,"꿣":1143,"꿤":1144,"꿥":1145,"꿦":1146,"꿧":1147,"꿨":1148,"꿩":1149,"꿪":1150,"꿫":1151,"꿬":1152,"꿭":1153,"꿮":1154,"꿯":1155,"꿰":1156,"꿱":1157,"꿲":1158,"꿳":1159,"꿵":1160,"꿶":1161,"꿷":1162,"꿹":1163,"꿺":1164,"꿻":1165,"꿼":1166,"꿽":1167,"꿾":1168,"꿿":1169,"뀀":1170,"뀁":1171,"뀂":1172,"뀃":1173,"뀅":1174,"뀆":1175,"뀇":1176,"뀈":1177,"뀉":1178,"뀊":1179,"뀋":1180,"뀌":1181,"뀍":1182,"뀎":1183,"뀏":1184,"뀐":1185,"뀑":1186,"뀒":1187,"뀓":1188,"뀕":1189,"뀖":1190,"뀗":1191,"뀘":1192,"뀙":1193,"뀚":1194,"뀛":1195,"뀜":1196,"뀝":1197,"뀞":1198,"뀟":1199,"뀠":1200,"뀡":1201,"뀢":1202,"뀣":1203,"뀤":1204,"뀥":1205,"뀦":1206,"뀧":1207,"뀨":1208,"뀩":1209,"뀪":1210,"뀫":1211,"뀬":1212,"뀭":1213,"뀮":1214,"뀯":1215,"뀰":1216,"뀱":1217,"뀲":1218,"뀳":1219,"뀴":1220,"뀵":1221,"뀶":1222,"뀷":1223,"뀸":1224,"뀹":1225,"뀺":1226,"뀻":1227,"뀼":1228,"뀽":1229,"뀾":1230,"뀿":1231,"끀":1232,"끁":1233,"끂":1234,"끃":1235,"끄":1236,"끅":1237,"끆":1238,"끇":1239,"끈":1240,"끉":1241,"끊":1242,"끋":1243,"끌":1244,"끍":1245,"끎":1246,"끏":1247,"끐":1248,"끑":1249,"끒":1250,"끓":1251,"끔":1252,"끕":1253,"끖":1254,"끗":1255,"끘":1256,"끙":1257,"끚":1258,"끛":1259,"끜":1260,"끝":1261,"끞":1262,"끟":1263,"끠":1264,"끡":1265,"끢":1266,"끣":1267,"끤":1268,"끥":1269,"끦":1270,"끧":1271,"끨":1272,"끩":1273,"끪":1274,"끫":1275,"끬":1276,"끭":1277,"끮":1278,"끯":1279,"끰":1280,"끱":1281,"끲":1282,"끳":1283,"끴":1284,"끵":1285,"끶":1286,"끷":1287,"끸":1288,"끹":1289,"끺":1290,"끻":1291,"끼":1292,"끽":1293,"끾":1294,"끿":1295,"낀":1296,"낁":1297,"낂":1298,"낃":1299,"낄":1300,"낅":1301,"낆":1302,"낇":1303,"낈":1304,"낉":1305,"낊":1306,"낋":1307,"낌":1308,"낍":1309,"낎":1310,"낏":1311,"낐":1312,"낑":1313,"낒":1314,"낓":1315,"낔":1316,"낕":1317,"낖":1318,"낗":1319,"나":1320,"낙":1321,"낚":1322,"낛":1323,"난":1324,"낝":1325,"낞":1326,"낟":1327,"날":1328,"낡":1329,"낢":1330,"낣":1331,"낤":1332,"낥":1333,"낦":1334,"낧":1335,"남":1336,"납":1337,"낪":1338,"낫":1339,"났":1340,"낭":1341,"낮":1342,"낯":1343,"낰":1344,"낱":1345,"낲":1346,"낳":1347,"내":1348,"낵":1349,"낶":1350,"낷":1351,"낸":1352,"낹":1353,"낺":1354,"낻":1355,"낼":1356,"낽":1357,"낾":1358,"낿":1359,"냀":1360,"냁":1361,"냂":1362,"냃":1363,"냄":1364,"냅":1365,"냆":1366,"냇":1367,"냈":1368,"냉":1369,"냊":1370,"냋":1371,"냌":1372,"냍":1373,"냎":1374,"냏":1375,"냐":1376,"냑":1377,"냒":1378,"냓":1379,"냔":1380,"냕":1381,"냖":1382,"냗":1383,"냘":1384,"냙":1385,"냚":1386,"냛":1387,"냜":1388,"냝":1389,"냞":1390,"냟":1391,"냠":1392,"냡":1393,"냢":1394,"냣":1395,"냤":1396,"냥":1397,"냦":1398,"냧":1399,"냨":1400,"냩":1401,"냪":1402,"냫":1403,"냬":1404,"냭":1405,"냮":1406,"냯":1407,"냰":1408,"냱":1409,"냲":1410,"냳":1411,"냴":1412,"냵":1413,"냶":1414,"냷":1415,"냸":1416,"냹":1417,"냺":1418,"냻":1419,"냼":1420,"냽":1421,"냾":1422,"냿":1423,"넀":1424,"넁":1425,"넂":1426,"넃":1427,"넄":1428,"넅":1429,"넆":1430,"넇":1431,"너":1432,"넉":1433,"넊":1434,"넋":1435,"넌":1436,"넍":1437,"넎":1438,"넏":1439,"널":1440,"넑":1441,"넒":1442,"넓":1443,"넔":1444,"넕":1445,"넖":1446,"넗":1447,"넘":1448,"넙":1449,"넚":1450,"넛":1451,"넜":1452,"넝":1453,"넞":1454,"넟":1455,"넠":1456,"넡":1457,"넢":1458,"넣":1459,"네":1460,"넥":1461,"넦":1462,"넧":1463,"넨":1464,"넩":1465,"넪":1466,"넫":1467,"넬":1468,"넭":1469,"넮":1470,"넯":1471,"넰":1472,"넱":1473,"넲":1474,"넳":1475,"넴":1476,"넵":1477,"넶":1478,"넷":1479,"넸":1480,"넹":1481,"넺":1482,"넻":1483,"넼":1484,"넽":1485,"넾":1486,"넿":1487,"녀":1488,"녁":1489,"녂":1490,"녃":1491,"년":1492,"녅":1493,"녆":1494,"녇":1495,"녈":1496,"녉":1497,"녊":1498,"녋":1499,"녌":1500,"녍":1501,"녎":1502,"녏":1503,"념":1504,"녑":1505,"녒":1506,"녓":1507,"녔":1508,"녕":1509,"녖":1510,"녗":1511,"녘":1512,"녙":1513,"녚":1514,"녛":1515,"녜":1516,"녝":1517,"녞":1518,"녟":1519,"녠":1520,"녡":1521,"녢":1522,"녣":1523,"녤":1524,"녥":1525,"녦":1526,"녧":1527,"녨":1528,"녩":1529,"녪":1530,"녫":1531,"녬":1532,"녭":1533,"녮":1534,"녯":1535,"녰":1536,"녱":1537,"녲":1538,"녳":1539,"녴":1540,"녵":1541,"녶":1542,"녷":1543,"노":1544,"녹":1545,"녺":1546,"녻":1547,"논":1548,"녽":1549,"녾":1550,"녿":1551,"놀":1552,"놁":1553,"놂":1554,"놃":1555,"놄":1556,"놅":1557,"놆":1558,"놇":1559,"놈":1560,"놉":1561,"놊":1562,"놋":1563,"놌":1564,"농":1565,"놎":1566,"놏":1567,"놐":1568,"놑":1569,"높":1570,"놓":1571,"놔":1572,"놕":1573,"놖":1574,"놗":1575,"놘":1576,"놙":1577,"놚":1578,"놛":1579,"놜":1580,"놝":1581,"놞":1582,"놟":1583,"놠":1584,"놡":1585,"놢":1586,"놣":1587,"놤":1588,"놥":1589,"놦":1590,"놧":1591,"놨":1592,"놩":1593,"놪":1594,"놫":1595,"놬":1596,"놭":1597,"놮":1598,"놯":1599,"놰":1600,"놱":1601,"놲":1602,"놳":1603,"놴":1604,"놵":1605,"놶":1606,"놷":1607,"놸":1608,"놹":1609,"놺":1610,"놻":1611,"놼":1612,"놽":1613,"놾":1614,"놿":1615,"뇀":1616,"뇁":1617,"뇂":1618,"뇃":1619,"뇄":1620,"뇅":1621,"뇆":1622,"뇇":1623,"뇈":1624,"뇉":1625,"뇊":1626,"뇋":1627,"뇌":1628,"뇍":1629,"뇎":1630,"뇏":1631,"뇐":1632,"뇑":1633,"뇒":1634,"뇓":1635,"뇔":1636,"뇕":1637,"뇖":1638,"뇗":1639,"뇘":1640,"뇙":1641,"뇚":1642,"뇛":1643,"뇜":1644,"뇝":1645,"뇞":1646,"뇟":1647,"뇠":1648,"뇡":1649,"뇢":1650,"뇣":1651,"뇤":1652,"뇥":1653,"뇦":1654,"뇧":1655,"뇨":1656,"뇩":1657,"뇪":1658,"뇫":1659,"뇬":1660,"뇭":1661,"뇮":1662,"뇯":1663,"뇰":1664,"뇱":1665,"뇲":1666,"뇳":1667,"뇴":1668,"뇵":1669,"뇶":1670,"뇷":1671,"뇸":1672,"뇹":1673,"뇺":1674,"뇻":1675,"뇼":1676,"뇽":1677,"뇾":1678,"뇿":1679,"눀":1680,"눁":1681,"눂":1682,"눃":1683,"누":1684,"눅":1685,"눆":1686,"눇":1687,"눈":1688,"눉":1689,"눊":1690,"눋":1691,"눌":1692,"눍":1693,"눎":1694,"눏":1695,"눐":1696,"눑":1697,"눒":1698,"눓":1699,"눔":1700,"눕":1701,"눖":1702,"눗":1703,"눘":1704,"눙":1705,"눚":1706,"눛":1707,"눜":1708,"눝":1709,"눞":1710,"눟":1711,"눡":1712,"눢":1713,"눣":1714,"눤":1715,"눥":1716,"눦":1717,"눧":1718,"눨":1719,"눩":1720,"눪":1721,"눫":1722,"눬":1723,"눭":1724,"눮":1725,"눯":1726,"눰":1727,"눱":1728,"눲":1729,"눳":1730,"눵":1731,"눶":1732,"눷":1733,"눸":1734,"눹":1735,"눺":1736,"눻":1737,"눼":1738,"눽":1739,"눾":1740,"눿":1741,"뉀":1742,"뉁":1743,"뉂":1744,"뉃":1745,"뉄":1746,"뉅":1747,"뉆":1748,"뉇":1749,"뉈":1750,"뉉":1751,"뉊":1752,"뉋":1753,"뉌":1754,"뉍":1755,"뉎":1756,"뉏":1757,"뉐":1758,"뉑":1759,"뉒":1760,"뉓":1761,"뉔":1762,"뉕":1763,"뉖":1764,"뉗":1765,"뉘":1766,"뉙":1767,"뉚":1768,"뉛":1769,"뉜":1770,"뉝":1771,"뉞":1772,"뉟":1773,"뉡":1774,"뉢":1775,"뉣":1776,"뉤":1777,"뉥":1778,"뉦":1779,"뉧":1780,"뉨":1781,"뉩":1782,"뉪":1783,"뉫":1784,"뉬":1785,"뉭":1786,"뉮":1787,"뉯":1788,"뉰":1789,"뉱":1790,"뉲":1791,"뉳":1792,"뉴":1793,"뉵":1794,"뉶":1795,"뉷":1796,"뉸":1797,"뉹":1798,"뉺":1799,"뉻":1800,"뉼":1801,"뉽":1802,"뉾":1803,"뉿":1804,"늀":1805,"늁":1806,"늂":1807,"늃":1808,"늄":1809,"늅":1810,"늆":1811,"늇":1812,"늈":1813,"늉":1814,"늊":1815,"늋":1816,"늌":1817,"늍":1818,"늎":1819,"늏":1820,"느":1821,"늑":1822,"늒":1823,"늓":1824,"는":1825,"늕":1826,"늖":1827,"늗":1828,"늘":1829,"늙":1830,"늚":1831,"늛":1832,"늜":1833,"늝":1834,"늞":1835,"늟":1836,"늠":1837,"늡":1838,"늢":1839,"늣":1840,"늤":1841,"능":1842,"늦":1843,"늧":1844,"늨":1845,"늩":1846,"늪":1847,"늫":1848,"늬":1849,"늭":1850,"늮":1851,"늯":1852,"늰":1853,"늱":1854,"늲":1855,"늳":1856,"늴":1857,"늵":1858,"늶":1859,"늷":1860,"늸":1861,"늹":1862,"늺":1863,"늻":1864,"늼":1865,"늽":1866,"늾":1867,"늿":1868,"닀":1869,"닁":1870,"닂":1871,"닃":1872,"닄":1873,"닅":1874,"닆":1875,"닇":1876,"니":1877,"닉":1878,"닊":1879,"닋":1880,"닌":1881,"닍":1882,"닎":1883,"닏":1884,"닐":1885,"닑":1886,"닒":1887,"닓":1888,"닔":1889,"닕":1890,"닖":1891,"닗":1892,"님":1893,"닙":1894,"닚":1895,"닛":1896,"닜":1897,"닝":1898,"닞":1899,"닟":1900,"닠":1901,"닡":1902,"닢":1903,"닣":1904,"다":1905,"닥":1906,"닦":1907,"닧":1908,"단":1909,"닩":1910,"닪":1911,"닫":1912,"달":1913,"닭":1914,"닮":1915,"닯":1916,"닰":1917,"닱":1918,"닲":1919,"닳":1920,"담":1921,"답":1922,"닶":1923,"닷":1924,"닸":1925,"당":1926,"닺":1927,"닻":1928,"닼":1929,"닽":1930,"닾":1931,"닿":1932,"대":1933,"댁":1934,"댂":1935,"댃":1936,"댄":1937,"댅":1938,"댆":1939,"댇":1940,"댈":1941,"댉":1942,"댊":1943,"댋":1944,"댌":1945,"댍":1946,"댎":1947,"댏":1948,"댐":1949,"댑":1950,"댒":1951,"댓":1952,"댔":1953,"댕":1954,"댖":1955,"댗":1956,"댘":1957,"댙":1958,"댚":1959,"댛":1960,"댜":1961,"댝":1962,"댞":1963,"댟":1964,"댠":1965,"댡":1966,"댢":1967,"댣":1968,"댤":1969,"댥":1970,"댦":1971,"댧":1972,"댨":1973,"댩":1974,"댪":1975,"댫":1976,"댬":1977,"댭":1978,"댮":1979,"댯":1980,"댰":1981,"댱":1982,"댲":1983,"댳":1984,"댴":1985,"댵":1986,"댶":1987,"댷":1988,"댸":1989,"댹":1990,"댺":1991,"댻":1992,"댼":1993,"댽":1994,"댾":1995,"댿":1996,"덀":1997,"덁":1998,"덂":1999,"덃":2000,"덄":2001,"덅":2002,"덆":2003,"덇":2004,"덈":2005,"덉":2006,"덊":2007,"덋":2008,"덌":2009,"덍":2010,"덎":2011,"덏":2012,"덐":2013,"덑":2014,"덒":2015,"덓":2016,"더":2017,"덕":2018,"덖":2019,"덗":2020,"던":2021,"덙":2022,"덚":2023,"덛":2024,"덜":2025,"덝":2026,"덞":2027,"덟":2028,"덠":2029,"덡":2030,"덢":2031,"덣":2032,"덤":2033,"덥":2034,"덦":2035,"덧":2036,"덨":2037,"덩":2038,"덪":2039,"덫":2040,"덬":2041,"덭":2042,"덮":2043,"덯":2044,"데":2045,"덱":2046,"덲":2047,"덳":2048,"덴":2049,"덵":2050,"덶":2051,"덷":2052,"델":2053,"덹":2054,"덺":2055,"덻":2056,"덼":2057,"덽":2058,"덾":2059,"덿":2060,"뎀":2061,"뎁":2062,"뎂":2063,"뎃":2064,"뎄":2065,"뎅":2066,"뎆":2067,"뎇":2068,"뎈":2069,"뎉":2070,"뎊":2071,"뎋":2072,"뎌":2073,"뎍":2074,"뎎":2075,"뎏":2076,"뎐":2077,"뎑":2078,"뎒":2079,"뎓":2080,"뎔":2081,"뎕":2082,"뎖":2083,"뎗":2084,"뎘":2085,"뎙":2086,"뎚":2087,"뎛":2088,"뎜":2089,"뎝":2090,"뎞":2091,"뎟":2092,"뎠":2093,"뎡":2094,"뎢":2095,"뎣":2096,"뎤":2097,"뎥":2098,"뎦":2099,"뎧":2100,"뎨":2101,"뎩":2102,"뎪":2103,"뎫":2104,"뎬":2105,"뎭":2106,"뎮":2107,"뎯":2108,"뎰":2109,"뎱":2110,"뎲":2111,"뎳":2112,"뎴":2113,"뎵":2114,"뎶":2115,"뎷":2116,"뎸":2117,"뎹":2118,"뎺":2119,"뎻":2120,"뎼":2121,"뎽":2122,"뎾":2123,"뎿":2124,"돀":2125,"돁":2126,"돂":2127,"돃":2128,"도":2129,"독":2130,"돆":2131,"돇":2132,"돈":2133,"돉":2134,"돊":2135,"돋":2136,"돌":2137,"돍":2138,"돎":2139,"돏":2140,"돐":2141,"돑":2142,"돒":2143,"돓":2144,"돔":2145,"돕":2146,"돖":2147,"돗":2148,"돘":2149,"동":2150,"돚":2151,"돛":2152,"돜":2153,"돝":2154,"돞":2155,"돟":2156,"돠":2157,"돡":2158,"돢":2159,"돣":2160,"돤":2161,"돥":2162,"돦":2163,"돧":2164,"돨":2165,"돩":2166,"돪":2167,"돫":2168,"돬":2169,"돭":2170,"돮":2171,"돯":2172,"돰":2173,"돱":2174,"돲":2175,"돳":2176,"돴":2177,"돵":2178,"돶":2179,"돷":2180,"돸":2181,"돹":2182,"돺":2183,"돻":2184,"돼":2185,"돽":2186,"돾":2187,"돿":2188,"됀":2189,"됁":2190,"됂":2191,"됃":2192,"됄":2193,"됅":2194,"됆":2195,"됇":2196,"됈":2197,"됉":2198,"됊":2199,"됋":2200,"됌":2201,"됍":2202,"됎":2203,"됏":2204,"됐":2205,"됑":2206,"됒":2207,"됓":2208,"됔":2209,"됕":2210,"됖":2211,"됗":2212,"되":2213,"됙":2214,"됚":2215,"됛":2216,"된":2217,"됝":2218,"됞":2219,"됟":2220,"될":2221,"됡":2222,"됢":2223,"됣":2224,"됤":2225,"됥":2226,"됦":2227,"됧":2228,"됨":2229,"됩":2230,"됪":2231,"됫":2232,"됬":2233,"됭":2234,"됮":2235,"됯":2236,"됰":2237,"됱":2238,"됲":2239,"됳":2240,"됴":2241,"됵":2242,"됶":2243,"됷":2244,"됸":2245,"됹":2246,"됺":2247,"됻":2248,"됼":2249,"됽":2250,"됾":2251,"됿":2252,"둀":2253,"둁":2254,"둂":2255,"둃":2256,"둄":2257,"둅":2258,"둆":2259,"둇":2260,"둈":2261,"둉":2262,"둊":2263,"둋":2264,"둌":2265,"둍":2266,"둎":2267,"둏":2268,"두":2269,"둑":2270,"둒":2271,"둓":2272,"둔":2273,"둕":2274,"둖":2275,"둗":2276,"둘":2277,"둙":2278,"둚":2279,"둛":2280,"둜":2281,"둝":2282,"둞":2283,"둟":2284,"둠":2285,"둡":2286,"둢":2287,"둣":2288,"둤":2289,"둥":2290,"둦":2291,"둧":2292,"둨":2293,"둩":2294,"둪":2295,"둫":2296,"둬":2297,"둭":2298,"둮":2299,"둯":2300,"둰":2301,"둱":2302,"둲":2303,"둳":2304,"둴":2305,"둵":2306,"둶":2307,"둷":2308,"둸":2309,"둹":2310,"둺":2311,"둻":2312,"둼":2313,"둽":2314,"둾":2315,"둿":2316,"뒁":2317,"뒂":2318,"뒃":2319,"뒄":2320,"뒅":2321,"뒆":2322,"뒇":2323,"뒈":2324,"뒉":2325,"뒊":2326,"뒋":2327,"뒌":2328,"뒍":2329,"뒎":2330,"뒏":2331,"뒐":2332,"뒑":2333,"뒒":2334,"뒓":2335,"뒔":2336,"뒕":2337,"뒖":2338,"뒗":2339,"뒘":2340,"뒙":2341,"뒚":2342,"뒛":2343,"뒜":2344,"뒝":2345,"뒞":2346,"뒟":2347,"뒠":2348,"뒡":2349,"뒢":2350,"뒣":2351,"뒤":2352,"뒥":2353,"뒦":2354,"뒧":2355,"뒨":2356,"뒩":2357,"뒪":2358,"뒫":2359,"뒬":2360,"뒭":2361,"뒮":2362,"뒯":2363,"뒰":2364,"뒱":2365,"뒲":2366,"뒳":2367,"뒴":2368,"뒵":2369,"뒶":2370,"뒷":2371,"뒸":2372,"뒹":2373,"뒺":2374,"뒻":2375,"뒼":2376,"뒽":2377,"뒾":2378,"뒿":2379,"듀":2380,"듁":2381,"듂":2382,"듃":2383,"듄":2384,"듅":2385,"듆":2386,"듇":2387,"듈":2388,"듉":2389,"듊":2390,"듋":2391,"듌":2392,"듍":2393,"듎":2394,"듏":2395,"듐":2396,"듑":2397,"듒":2398,"듓":2399,"듔":2400,"듕":2401,"듖":2402,"듗":2403,"듘":2404,"듙":2405,"듚":2406,"듛":2407,"드":2408,"득":2409,"듞":2410,"듟":2411,"든":2412,"듡":2413,"듢":2414,"듣":2415,"들":2416,"듥":2417,"듦":2418,"듧":2419,"듨":2420,"듩":2421,"듪":2422,"듫":2423,"듬":2424,"듭":2425,"듮":2426,"듯":2427,"듰":2428,"등":2429,"듲":2430,"듳":2431,"듴":2432,"듵":2433,"듶":2434,"듷":2435,"듸":2436,"듹":2437,"듺":2438,"듻":2439,"듼":2440,"듽":2441,"듾":2442,"듿":2443,"딀":2444,"딁":2445,"딂":2446,"딃":2447,"딄":2448,"딅":2449,"딆":2450,"딇":2451,"딈":2452,"딉":2453,"딊":2454,"딋":2455,"딌":2456,"딍":2457,"딎":2458,"딏":2459,"딐":2460,"딑":2461,"딒":2462,"딓":2463,"디":2464,"딕":2465,"딖":2466,"딗":2467,"딘":2468,"딙":2469,"딚":2470,"딛":2471,"딜":2472,"딝":2473,"딞":2474,"딟":2475,"딠":2476,"딡":2477,"딢":2478,"딣":2479,"딤":2480,"딥":2481,"딦":2482,"딧":2483,"딨":2484,"딩":2485,"딪":2486,"딫":2487,"딬":2488,"딭":2489,"딮":2490,"딯":2491,"따":2492,"딱":2493,"딲":2494,"딳":2495,"딴":2496,"딵":2497,"딶":2498,"딷":2499,"딸":2500,"딹":2501,"딺":2502,"딻":2503,"딼":2504,"딽":2505,"딾":2506,"딿":2507,"땀":2508,"땁":2509,"땂":2510,"땃":2511,"땅":2512,"땆":2513,"땇":2514,"땈":2515,"땉":2516,"땊":2517,"땋":2518,"때":2519,"땍":2520,"땎":2521,"땏":2522,"땐":2523,"땑":2524,"땒":2525,"땓":2526,"땔":2527,"땕":2528,"땖":2529,"땗":2530,"땘":2531,"땙":2532,"땚":2533,"땛":2534,"땜":2535,"땝":2536,"땞":2537,"땟":2538,"땠":2539,"땡":2540,"땢":2541,"땣":2542,"땤":2543,"땥":2544,"땦":2545,"땧":2546,"땨":2547,"땩":2548,"땪":2549,"땫":2550,"땬":2551,"땭":2552,"땮":2553,"땯":2554,"땰":2555,"땱":2556,"땲":2557,"땳":2558,"땴":2559,"땵":2560,"땶":2561,"땷":2562,"땸":2563,"땹":2564,"땺":2565,"땻":2566,"땼":2567,"땽":2568,"땾":2569,"땿":2570,"떀":2571,"떁":2572,"떂":2573,"떃":2574,"떄":2575,"떅":2576,"떆":2577,"떇":2578,"떈":2579,"떉":2580,"떊":2581,"떋":2582,"떌":2583,"떍":2584,"떎":2585,"떏":2586,"떐":2587,"떑":2588,"떒":2589,"떓":2590,"떔":2591,"떕":2592,"떖":2593,"떗":2594,"떘":2595,"떙":2596,"떚":2597,"떛":2598,"떜":2599,"떝":2600,"떞":2601,"떟":2602,"떠":2603,"떡":2604,"떢":2605,"떣":2606,"떤":2607,"떥":2608,"떦":2609,"떧":2610,"떨":2611,"떩":2612,"떪":2613,"떫":2614,"떬":2615,"떭":2616,"떮":2617,"떯":2618,"떰":2619,"떱":2620,"떲":2621,"떳":2622,"떵":2623,"떶":2624,"떷":2625,"떸":2626,"떹":2627,"떺":2628,"떻":2629,"떼":2630,"떽":2631,"떾":2632,"떿":2633,"뗀":2634,"뗁":2635,"뗂":2636,"뗃":2637,"뗄":2638,"뗅":2639,"뗆":2640,"뗇":2641,"뗈":2642,"뗉":2643,"뗊":2644,"뗋":2645,"뗌":2646,"뗍":2647,"뗎":2648,"뗏":2649,"뗑":2650,"뗒":2651,"뗓":2652,"뗔":2653,"뗕":2654,"뗖":2655,"뗗":2656,"뗘":2657,"뗙":2658,"뗚":2659,"뗛":2660,"뗜":2661,"뗝":2662,"뗞":2663,"뗟":2664,"뗠":2665,"뗡":2666,"뗢":2667,"뗣":2668,"뗤":2669,"뗥":2670,"뗦":2671,"뗧":2672,"뗨":2673,"뗩":2674,"뗪":2675,"뗫":2676,"뗭":2677,"뗮":2678,"뗯":2679,"뗰":2680,"뗱":2681,"뗲":2682,"뗳":2683,"뗴":2684,"뗵":2685,"뗶":2686,"뗷":2687,"뗸":2688,"뗹":2689,"뗺":2690,"뗻":2691,"뗼":2692,"뗽":2693,"뗾":2694,"뗿":2695,"똀":2696,"똁":2697,"똂":2698,"똃":2699,"똄":2700,"똅":2701,"똆":2702,"똇":2703,"똈":2704,"똉":2705,"똊":2706,"똋":2707,"똌":2708,"똍":2709,"똎":2710,"똏":2711,"또":2712,"똑":2713,"똒":2714,"똓":2715,"똔":2716,"똕":2717,"똖":2718,"똗":2719,"똘":2720,"똙":2721,"똚":2722,"똛":2723,"똜":2724,"똝":2725,"똞":2726,"똟":2727,"똠":2728,"똡":2729,"똢":2730,"똣":2731,"똤":2732,"똥":2733,"똦":2734,"똧":2735,"똨":2736,"똩":2737,"똪":2738,"똫":2739,"똬":2740,"똭":2741,"똮":2742,"똯":2743,"똰":2744,"똱":2745,"똲":2746,"똳":2747,"똴":2748,"똵":2749,"똶":2750,"똷":2751,"똸":2752,"똹":2753,"똺":2754,"똻":2755,"똼":2756,"똽":2757,"똾":2758,"똿":2759,"뙀":2760,"뙁":2761,"뙂":2762,"뙃":2763,"뙄":2764,"뙅":2765,"뙆":2766,"뙇":2767,"뙈":2768,"뙉":2769,"뙊":2770,"뙋":2771,"뙌":2772,"뙍":2773,"뙎":2774,"뙏":2775,"뙐":2776,"뙑":2777,"뙒":2778,"뙓":2779,"뙔":2780,"뙕":2781,"뙖":2782,"뙗":2783,"뙘":2784,"뙙":2785,"뙚":2786,"뙛":2787,"뙜":2788,"뙝":2789,"뙞":2790,"뙟":2791,"뙠":2792,"뙡":2793,"뙢":2794,"뙣":2795,"뙤":2796,"뙥":2797,"뙦":2798,"뙧":2799,"뙨":2800,"뙩":2801,"뙪":2802,"뙫":2803,"뙬":2804,"뙭":2805,"뙮":2806,"뙯":2807,"뙰":2808,"뙱":2809,"뙲":2810,"뙳":2811,"뙴":2812,"뙵":2813,"뙶":2814,"뙷":2815,"뙸":2816,"뙹":2817,"뙺":2818,"뙻":2819,"뙼":2820,"뙽":2821,"뙾":2822,"뙿":2823,"뚀":2824,"뚁":2825,"뚂":2826,"뚃":2827,"뚄":2828,"뚅":2829,"뚆":2830,"뚇":2831,"뚈":2832,"뚉":2833,"뚊":2834,"뚋":2835,"뚌":2836,"뚍":2837,"뚎":2838,"뚏":2839,"뚐":2840,"뚑":2841,"뚒":2842,"뚓":2843,"뚔":2844,"뚕":2845,"뚖":2846,"뚗":2847,"뚘":2848,"뚙":2849,"뚚":2850,"뚛":2851,"뚜":2852,"뚝":2853,"뚞":2854,"뚟":2855,"뚠":2856,"뚡":2857,"뚢":2858,"뚣":2859,"뚤":2860,"뚥":2861,"뚦":2862,"뚧":2863,"뚨":2864,"뚩":2865,"뚪":2866,"뚫":2867,"뚬":2868,"뚭":2869,"뚮":2870,"뚯":2871,"뚰":2872,"뚱":2873,"뚲":2874,"뚳":2875,"뚴":2876,"뚵":2877,"뚶":2878,"뚷":2879,"뚸":2880,"뚹":2881,"뚺":2882,"뚻":2883,"뚼":2884,"뚽":2885,"뚾":2886,"뚿":2887,"뛀":2888,"뛁":2889,"뛂":2890,"뛃":2891,"뛄":2892,"뛅":2893,"뛆":2894,"뛇":2895,"뛈":2896,"뛉":2897,"뛊":2898,"뛋":2899,"뛌":2900,"뛍":2901,"뛎":2902,"뛏":2903,"뛐":2904,"뛑":2905,"뛒":2906,"뛓":2907,"뛔":2908,"뛕":2909,"뛖":2910,"뛗":2911,"뛘":2912,"뛙":2913,"뛚":2914,"뛛":2915,"뛜":2916,"뛝":2917,"뛞":2918,"뛟":2919,"뛠":2920,"뛡":2921,"뛢":2922,"뛣":2923,"뛤":2924,"뛥":2925,"뛦":2926,"뛧":2927,"뛨":2928,"뛩":2929,"뛪":2930,"뛫":2931,"뛬":2932,"뛭":2933,"뛮":2934,"뛯":2935,"뛰":2936,"뛱":2937,"뛲":2938,"뛳":2939,"뛵":2940,"뛶":2941,"뛷":2942,"뛸":2943,"뛹":2944,"뛺":2945,"뛻":2946,"뛼":2947,"뛽":2948,"뛾":2949,"뛿":2950,"뜀":2951,"뜁":2952,"뜂":2953,"뜃":2954,"뜄":2955,"뜅":2956,"뜆":2957,"뜇":2958,"뜈":2959,"뜉":2960,"뜊":2961,"뜋":2962,"뜌":2963,"뜍":2964,"뜎":2965,"뜏":2966,"뜐":2967,"뜑":2968,"뜒":2969,"뜓":2970,"뜔":2971,"뜕":2972,"뜖":2973,"뜗":2974,"뜘":2975,"뜙":2976,"뜚":2977,"뜛":2978,"뜜":2979,"뜝":2980,"뜞":2981,"뜟":2982,"뜠":2983,"뜡":2984,"뜢":2985,"뜣":2986,"뜤":2987,"뜥":2988,"뜦":2989,"뜧":2990,"뜨":2991,"뜩":2992,"뜪":2993,"뜫":2994,"뜬":2995,"뜭":2996,"뜮":2997,"뜯":2998,"뜰":2999,"뜱":3000,"뜲":3001,"뜳":3002,"뜴":3003,"뜵":3004,"뜶":3005,"뜷":3006,"뜸":3007,"뜹":3008,"뜺":3009,"뜻":3010,"뜼":3011,"뜽":3012,"뜾":3013,"뜿":3014,"띀":3015,"띁":3016,"띂":3017,"띃":3018,"띄":3019,"띅":3020,"띆":3021,"띇":3022,"띉":3023,"띊":3024,"띋":3025,"띍":3026,"띎":3027,"띏":3028,"띐":3029,"띑":3030,"띒":3031,"띓":3032,"띔":3033,"띕":3034,"띖":3035,"띗":3036,"띘":3037,"띙":3038,"띚":3039,"띛":3040,"띜":3041,"띝":3042,"띞":3043,"띟":3044,"띠":3045,"띡":3046,"띢":3047,"띣":3048,"띤":3049,"띥":3050,"띦":3051,"띧":3052,"띨":3053,"띩":3054,"띪":3055,"띫":3056,"띬":3057,"띭":3058,"띮":3059,"띯":3060,"띰":3061,"띱":3062,"띲":3063,"띳":3064,"띴":3065,"띵":3066,"띶":3067,"띷":3068,"띸":3069,"띹":3070,"띺":3071,"띻":3072,"라":3073,"락":3074,"띾":3075,"띿":3076,"란":3077,"랁":3078,"랂":3079,"랃":3080,"랄":3081,"랅":3082,"랆":3083,"랇":3084,"랈":3085,"랉":3086,"랊":3087,"랋":3088,"람":3089,"랍":3090,"랎":3091,"랏":3092,"랐":3093,"랑":3094,"랒":3095,"랓":3096,"랔":3097,"랕":3098,"랖":3099,"랗":3100,"래":3101,"랙":3102,"랚":3103,"랛":3104,"랜":3105,"랝":3106,"랞":3107,"랟":3108,"랠":3109,"랡":3110,"랢":3111,"랣":3112,"랤":3113,"랥":3114,"랦":3115,"랧":3116,"램":3117,"랩":3118,"랪":3119,"랫":3120,"랬":3121,"랭":3122,"랮":3123,"랯":3124,"랰":3125,"랱":3126,"랲":3127,"랳":3128,"랴":3129,"략":3130,"랶":3131,"랷":3132,"랸":3133,"랹":3134,"랺":3135,"랻":3136,"랼":3137,"랽":3138,"랾":3139,"랿":3140,"럀":3141,"럁":3142,"럂":3143,"럃":3144,"럄":3145,"럅":3146,"럆":3147,"럇":3148,"럈":3149,"량":3150,"럊":3151,"럋":3152,"럌":3153,"럍":3154,"럎":3155,"럏":3156,"럐":3157,"럑":3158,"럒":3159,"럓":3160,"럔":3161,"럕":3162,"럖":3163,"럗":3164,"럘":3165,"럙":3166,"럚":3167,"럛":3168,"럜":3169,"럝":3170,"럞":3171,"럟":3172,"럠":3173,"럡":3174,"럢":3175,"럣":3176,"럤":3177,"럥":3178,"럦":3179,"럧":3180,"럨":3181,"럩":3182,"럪":3183,"럫":3184,"러":3185,"럭":3186,"럮":3187,"럯":3188,"런":3189,"럱":3190,"럲":3191,"럳":3192,"럴":3193,"럵":3194,"럶":3195,"럷":3196,"럸":3197,"럹":3198,"럺":3199,"럻":3200,"럼":3201,"럽":3202,"럾":3203,"럿":3204,"렀":3205,"렁":3206,"렂":3207,"렃":3208,"렄":3209,"렅":3210,"렆":3211,"렇":3212,"레":3213,"렉":3214,"렊":3215,"렋":3216,"렌":3217,"렍":3218,"렎":3219,"렏":3220,"렐":3221,"렑":3222,"렒":3223,"렓":3224,"렔":3225,"렕":3226,"렖":3227,"렗":3228,"렘":3229,"렙":3230,"렚":3231,"렛":3232,"렜":3233,"렝":3234,"렞":3235,"렟":3236,"렠":3237,"렡":3238,"렢":3239,"렣":3240,"려":3241,"력":3242,"렦":3243,"렧":3244,"련":3245,"렩":3246,"렪":3247,"렫":3248,"렬":3249,"렭":3250,"렮":3251,"렯":3252,"렰":3253,"렱":3254,"렲":3255,"렳":3256,"렴":3257,"렵":3258,"렶":3259,"렷":3260,"렸":3261,"령":3262,"렺":3263,"렻":3264,"렼":3265,"렽":3266,"렾":3267,"렿":3268,"례":3269,"롁":3270,"롂":3271,"롃":3272,"롄":3273,"롅":3274,"롆":3275,"롇":3276,"롈":3277,"롉":3278,"롊":3279,"롋":3280,"롌":3281,"롍":3282,"롎":3283,"롏":3284,"롐":3285,"롑":3286,"롒":3287,"롓":3288,"롔":3289,"롕":3290,"롖":3291,"롗":3292,"롘":3293,"롙":3294,"롚":3295,"롛":3296,"로":3297,"록":3298,"롞":3299,"롟":3300,"론":3301,"롡":3302,"롢":3303,"롣":3304,"롤":3305,"롥":3306,"롦":3307,"롧":3308,"롨":3309,"롩":3310,"롪":3311,"롫":3312,"롬":3313,"롭":3314,"롮":3315,"롯":3316,"롰":3317,"롱":3318,"롲":3319,"롳":3320,"롴":3321,"롵":3322,"롶":3323,"롷":3324,"롸":3325,"롹":3326,"롺":3327,"롻":3328,"롼":3329,"롽":3330,"롾":3331,"롿":3332,"뢀":3333,"뢁":3334,"뢂":3335,"뢃":3336,"뢄":3337,"뢅":3338,"뢆":3339,"뢇":3340,"뢈":3341,"뢉":3342,"뢊":3343,"뢋":3344,"뢌":3345,"뢍":3346,"뢎":3347,"뢏":3348,"뢐":3349,"뢑":3350,"뢒":3351,"뢓":3352,"뢔":3353,"뢕":3354,"뢖":3355,"뢗":3356,"뢘":3357,"뢙":3358,"뢚":3359,"뢛":3360,"뢜":3361,"뢝":3362,"뢞":3363,"뢟":3364,"뢠":3365,"뢡":3366,"뢢":3367,"뢣":3368,"뢤":3369,"뢥":3370,"뢦":3371,"뢧":3372,"뢨":3373,"뢩":3374,"뢪":3375,"뢫":3376,"뢬":3377,"뢭":3378,"뢮":3379,"뢯":3380,"뢰":3381,"뢱":3382,"뢲":3383,"뢳":3384,"뢴":3385,"뢵":3386,"뢶":3387,"뢷":3388,"뢸":3389,"뢹":3390,"뢺":3391,"뢻":3392,"뢼":3393,"뢽":3394,"뢾":3395,"뢿":3396,"룀":3397,"룁":3398,"룂":3399,"룃":3400,"룄":3401,"룅":3402,"룆":3403,"룇":3404,"룈":3405,"룉":3406,"룊":3407,"룋":3408,"료":3409,"룍":3410,"룎":3411,"룏":3412,"룐":3413,"룑":3414,"룒":3415,"룓":3416,"룔":3417,"룕":3418,"룖":3419,"룗":3420,"룘":3421,"룙":3422,"룚":3423,"룛":3424,"룜":3425,"룝":3426,"룞":3427,"룟":3428,"룠":3429,"룡":3430,"룢":3431,"룣":3432,"룤":3433,"룥":3434,"룦":3435,"룧":3436,"루":3437,"룩":3438,"룪":3439,"룫":3440,"룬":3441,"룭":3442,"룮":3443,"룯":3444,"룰":3445,"룱":3446,"룲":3447,"룳":3448,"룴":3449,"룵":3450,"룶":3451,"룷":3452,"룸":3453,"룹":3454,"룺":3455,"룻":3456,"룼":3457,"룽":3458,"룾":3459,"룿":3460,"뤀":3461,"뤁":3462,"뤂":3463,"뤃":3464,"뤄":3465,"뤅":3466,"뤆":3467,"뤇":3468,"뤈":3469,"뤉":3470,"뤊":3471,"뤋":3472,"뤌":3473,"뤍":3474,"뤎":3475,"뤏":3476,"뤐":3477,"뤑":3478,"뤒":3479,"뤓":3480,"뤔":3481,"뤕":3482,"뤖":3483,"뤗":3484,"뤘":3485,"뤙":3486,"뤚":3487,"뤛":3488,"뤜":3489,"뤝":3490,"뤞":3491,"뤟":3492,"뤠":3493,"뤡":3494,"뤢":3495,"뤣":3496,"뤤":3497,"뤥":3498,"뤦":3499,"뤧":3500,"뤨":3501,"뤩":3502,"뤪":3503,"뤫":3504,"뤬":3505,"뤭":3506,"뤮":3507,"뤯":3508,"뤰":3509,"뤱":3510,"뤲":3511,"뤳":3512,"뤴":3513,"뤵":3514,"뤶":3515,"뤷":3516,"뤸":3517,"뤹":3518,"뤺":3519,"뤻":3520,"뤼":3521,"뤽":3522,"뤾":3523,"뤿":3524,"륀":3525,"륁":3526,"륂":3527,"륃":3528,"륄":3529,"륅":3530,"륆":3531,"륇":3532,"륈":3533,"륉":3534,"륊":3535,"륋":3536,"륌":3537,"륍":3538,"륎":3539,"륏":3540,"륐":3541,"륑":3542,"륒":3543,"륓":3544,"륔":3545,"륕":3546,"륖":3547,"륗":3548,"류":3549,"륙":3550,"륚":3551,"륛":3552,"륜":3553,"륝":3554,"륞":3555,"륟":3556,"률":3557,"륡":3558,"륢":3559,"륣":3560,"륤":3561,"륥":3562,"륦":3563,"륧":3564,"륨":3565,"륩":3566,"륪":3567,"륫":3568,"륬":3569,"륭":3570,"륮":3571,"륯":3572,"륰":3573,"륱":3574,"륲":3575,"륳":3576,"르":3577,"륵":3578,"륶":3579,"륷":3580,"른":3581,"륹":3582,"륺":3583,"륻":3584,"를":3585,"륽":3586,"륾":3587,"륿":3588,"릀":3589,"릁":3590,"릂":3591,"릃":3592,"름":3593,"릅":3594,"릆":3595,"릇":3596,"릈":3597,"릉":3598,"릊":3599,"릋":3600,"릌":3601,"릍":3602,"릎":3603,"릏":3604,"릐":3605,"릑":3606,"릒":3607,"릓":3608,"릔":3609,"릕":3610,"릖":3611,"릗":3612,"릘":3613,"릙":3614,"릚":3615,"릛":3616,"릜":3617,"릝":3618,"릞":3619,"릟":3620,"릠":3621,"릡":3622,"릢":3623,"릣":3624,"릤":3625,"릥":3626,"릦":3627,"릧":3628,"릨":3629,"릩":3630,"릪":3631,"릫":3632,"리":3633,"릭":3634,"릮":3635,"릯":3636,"린":3637,"릱":3638,"릲":3639,"릳":3640,"릴":3641,"릵":3642,"릶":3643,"릷":3644,"릸":3645,"릹":3646,"릺":3647,"릻":3648,"림":3649,"립":3650,"릾":3651,"릿":3652,"맀":3653,"링":3654,"맂":3655,"맃":3656,"맄":3657,"맅":3658,"맆":3659,"맇":3660,"마":3661,"막":3662,"맊":3663,"맋":3664,"만":3665,"맍":3666,"많":3667,"맏":3668,"말":3669,"맑":3670,"맒":3671,"맓":3672,"맔":3673,"맕":3674,"맖":3675,"맗":3676,"맘":3677,"맙":3678,"맚":3679,"맛":3680,"맜":3681,"망":3682,"맞":3683,"맟":3684,"맠":3685,"맡":3686,"맢":3687,"맣":3688,"매":3689,"맥":3690,"맦":3691,"맧":3692,"맨":3693,"맩":3694,"맪":3695,"맫":3696,"맬":3697,"맭":3698,"맮":3699,"맯":3700,"맰":3701,"맱":3702,"맲":3703,"맳":3704,"맴":3705,"맵":3706,"맶":3707,"맷":3708,"맹":3709,"맺":3710,"맻":3711,"맼":3712,"맽":3713,"맾":3714,"맿":3715,"먀":3716,"먁":3717,"먂":3718,"먃":3719,"먄":3720,"먅":3721,"먆":3722,"먇":3723,"먈":3724,"먉":3725,"먊":3726,"먋":3727,"먌":3728,"먍":3729,"먎":3730,"먏":3731,"먐":3732,"먑":3733,"먒":3734,"먓":3735,"먔":3736,"먕":3737,"먖":3738,"먗":3739,"먘":3740,"먙":3741,"먚":3742,"먛":3743,"먜":3744,"먝":3745,"먞":3746,"먟":3747,"먠":3748,"먡":3749,"먢":3750,"먣":3751,"먤":3752,"먥":3753,"먦":3754,"먧":3755,"먨":3756,"먩":3757,"먪":3758,"먫":3759,"먬":3760,"먭":3761,"먮":3762,"먯":3763,"먰":3764,"먱":3765,"먲":3766,"먳":3767,"먴":3768,"먵":3769,"먶":3770,"먷":3771,"머":3772,"먹":3773,"먺":3774,"먻":3775,"먼":3776,"먽":3777,"먾":3778,"먿":3779,"멀":3780,"멁":3781,"멂":3782,"멃":3783,"멄":3784,"멅":3785,"멆":3786,"멇":3787,"멈":3788,"멉":3789,"멊":3790,"멋":3791,"멌":3792,"멍":3793,"멎":3794,"멏":3795,"멐":3796,"멑":3797,"멒":3798,"멓":3799,"메":3800,"멕":3801,"멖":3802,"멗":3803,"멘":3804,"멙":3805,"멚":3806,"멛":3807,"멜":3808,"멝":3809,"멞":3810,"멟":3811,"멠":3812,"멡":3813,"멢":3814,"멣":3815,"멤":3816,"멥":3817,"멦":3818,"멧":3819,"멨":3820,"멩":3821,"멪":3822,"멫":3823,"멬":3824,"멭":3825,"멮":3826,"멯":3827,"며":3828,"멱":3829,"멲":3830,"멳":3831,"면":3832,"멵":3833,"멶":3834,"멷":3835,"멸":3836,"멹":3837,"멺":3838,"멻":3839,"멼":3840,"멽":3841,"멾":3842,"멿":3843,"몀":3844,"몁":3845,"몂":3846,"몃":3847,"몄":3848,"명":3849,"몆":3850,"몇":3851,"몈":3852,"몉":3853,"몊":3854,"몋":3855,"몌":3856,"몍":3857,"몎":3858,"몏":3859,"몐":3860,"몑":3861,"몒":3862,"몓":3863,"몔":3864,"몕":3865,"몖":3866,"몗":3867,"몘":3868,"몙":3869,"몚":3870,"몛":3871,"몜":3872,"몝":3873,"몞":3874,"몟":3875,"몠":3876,"몡":3877,"몢":3878,"몣":3879,"몤":3880,"몥":3881,"몦":3882,"몧":3883,"모":3884,"목":3885,"몪":3886,"몫":3887,"몬":3888,"몭":3889,"몮":3890,"몯":3891,"몰":3892,"몱":3893,"몲":3894,"몳":3895,"몴":3896,"몵":3897,"몶":3898,"몷":3899,"몸":3900,"몹":3901,"몺":3902,"못":3903,"몼":3904,"몽":3905,"몾":3906,"몿":3907,"뫀":3908,"뫁":3909,"뫂":3910,"뫃":3911,"뫄":3912,"뫅":3913,"뫆":3914,"뫇":3915,"뫈":3916,"뫉":3917,"뫊":3918,"뫋":3919,"뫌":3920,"뫍":3921,"뫎":3922,"뫏":3923,"뫐":3924,"뫑":3925,"뫒":3926,"뫓":3927,"뫔":3928,"뫕":3929,"뫖":3930,"뫗":3931,"뫘":3932,"뫙":3933,"뫚":3934,"뫛":3935,"뫜":3936,"뫝":3937,"뫞":3938,"뫟":3939,"뫠":3940,"뫡":3941,"뫢":3942,"뫣":3943,"뫤":3944,"뫥":3945,"뫦":3946,"뫧":3947,"뫨":3948,"뫩":3949,"뫪":3950,"뫫":3951,"뫬":3952,"뫭":3953,"뫮":3954,"뫯":3955,"뫰":3956,"뫱":3957,"뫲":3958,"뫳":3959,"뫴":3960,"뫵":3961,"뫶":3962,"뫷":3963,"뫸":3964,"뫹":3965,"뫺":3966,"뫻":3967,"뫼":3968,"뫽":3969,"뫾":3970,"뫿":3971,"묀":3972,"묁":3973,"묂":3974,"묃":3975,"묄":3976,"묅":3977,"묆":3978,"묇":3979,"묈":3980,"묉":3981,"묊":3982,"묋":3983,"묌":3984,"묍":3985,"묎":3986,"묏":3987,"묐":3988,"묑":3989,"묒":3990,"묓":3991,"묔":3992,"묕":3993,"묖":3994,"묗":3995,"묘":3996,"묙":3997,"묚":3998,"묛":3999,"묜":4000,"묝":4001,"묞":4002,"묟":4003,"묠":4004,"묡":4005,"묢":4006,"묣":4007,"묤":4008,"묥":4009,"묦":4010,"묧":4011,"묨":4012,"묩":4013,"묪":4014,"묫":4015,"묬":4016,"묭":4017,"묮":4018,"묯":4019,"묰":4020,"묱":4021,"묲":4022,"묳":4023,"무":4024,"묵":4025,"묶":4026,"묷":4027,"문":4028,"묹":4029,"묺":4030,"묻":4031,"물":4032,"묽":4033,"묾":4034,"묿":4035,"뭀":4036,"뭁":4037,"뭂":4038,"뭃":4039,"뭄":4040,"뭅":4041,"뭆":4042,"뭇":4043,"뭈":4044,"뭉":4045,"뭊":4046,"뭋":4047,"뭌":4048,"뭍":4049,"뭎":4050,"뭏":4051,"뭐":4052,"뭑":4053,"뭒":4054,"뭓":4055,"뭔":4056,"뭕":4057,"뭖":4058,"뭗":4059,"뭘":4060,"뭙":4061,"뭚":4062,"뭛":4063,"뭜":4064,"뭝":4065,"뭞":4066,"뭟":4067,"뭠":4068,"뭡":4069,"뭢":4070,"뭣":4071,"뭤":4072,"뭥":4073,"뭦":4074,"뭧":4075,"뭨":4076,"뭩":4077,"뭪":4078,"뭫":4079,"뭬":4080,"뭭":4081,"뭮":4082,"뭯":4083,"뭰":4084,"뭱":4085,"뭲":4086,"뭳":4087,"뭴":4088,"뭵":4089,"뭶":4090,"뭷":4091,"뭸":4092,"뭹":4093,"뭺":4094,"뭻":4095,"뭼":4096,"뭽":4097,"뭾":4098,"뭿":4099,"뮀":4100,"뮁":4101,"뮂":4102,"뮃":4103,"뮄":4104,"뮅":4105,"뮆":4106,"뮇":4107,"뮈":4108,"뮉":4109,"뮊":4110,"뮋":4111,"뮌":4112,"뮍":4113,"뮎":4114,"뮏":4115,"뮐":4116,"뮑":4117,"뮒":4118,"뮓":4119,"뮔":4120,"뮕":4121,"뮖":4122,"뮗":4123,"뮘":4124,"뮙":4125,"뮚":4126,"뮛":4127,"뮜":4128,"뮝":4129,"뮞":4130,"뮟":4131,"뮠":4132,"뮡":4133,"뮢":4134,"뮣":4135,"뮤":4136,"뮥":4137,"뮦":4138,"뮧":4139,"뮨":4140,"뮩":4141,"뮪":4142,"뮫":4143,"뮬":4144,"뮭":4145,"뮮":4146,"뮯":4147,"뮰":4148,"뮱":4149,"뮲":4150,"뮳":4151,"뮴":4152,"뮵":4153,"뮶":4154,"뮷":4155,"뮸":4156,"뮹":4157,"뮺":4158,"뮻":4159,"뮼":4160,"뮽":4161,"뮾":4162,"뮿":4163,"므":4164,"믁":4165,"믂":4166,"믃":4167,"믄":4168,"믅":4169,"믆":4170,"믇":4171,"믈":4172,"믉":4173,"믊":4174,"믋":4175,"믌":4176,"믍":4177,"믎":4178,"믏":4179,"믐":4180,"믑":4181,"믒":4182,"믓":4183,"믔":4184,"믕":4185,"믖":4186,"믗":4187,"믘":4188,"믙":4189,"믚":4190,"믛":4191,"믜":4192,"믝":4193,"믞":4194,"믟":4195,"믠":4196,"믡":4197,"믢":4198,"믣":4199,"믤":4200,"믥":4201,"믦":4202,"믧":4203,"믨":4204,"믩":4205,"믪":4206,"믫":4207,"믬":4208,"믭":4209,"믮":4210,"믯":4211,"믰":4212,"믱":4213,"믲":4214,"믳":4215,"믴":4216,"믵":4217,"믶":4218,"믷":4219,"미":4220,"믹":4221,"믺":4222,"믻":4223,"민":4224,"믽":4225,"믾":4226,"믿":4227,"밀":4228,"밁":4229,"밂":4230,"밃":4231,"밄":4232,"밅":4233,"밆":4234,"밇":4235,"밈":4236,"밉":4237,"밊":4238,"밋":4239,"밌":4240,"밍":4241,"밎":4242,"및":4243,"밐":4244,"밑":4245,"밒":4246,"밓":4247,"바":4248,"박":4249,"밖":4250,"밗":4251,"반":4252,"밙":4253,"밚":4254,"받":4255,"발":4256,"밝":4257,"밞":4258,"밟":4259,"밠":4260,"밡":4261,"밢":4262,"밣":4263,"밤":4264,"밥":4265,"밦":4266,"밧":4267,"밨":4268,"방":4269,"밪":4270,"밫":4271,"밬":4272,"밭":4273,"밮":4274,"밯":4275,"배":4276,"백":4277,"밲":4278,"밳":4279,"밴":4280,"밵":4281,"밶":4282,"밷":4283,"밸":4284,"밹":4285,"밺":4286,"밻":4287,"밼":4288,"밽":4289,"밾":4290,"밿":4291,"뱀":4292,"뱁":4293,"뱂":4294,"뱃":4295,"뱅":4296,"뱆":4297,"뱇":4298,"뱈":4299,"뱉":4300,"뱊":4301,"뱋":4302,"뱌":4303,"뱍":4304,"뱎":4305,"뱏":4306,"뱐":4307,"뱑":4308,"뱒":4309,"뱓":4310,"뱔":4311,"뱕":4312,"뱖":4313,"뱗":4314,"뱘":4315,"뱙":4316,"뱚":4317,"뱛":4318,"뱜":4319,"뱝":4320,"뱞":4321,"뱟":4322,"뱠":4323,"뱡":4324,"뱢":4325,"뱣":4326,"뱤":4327,"뱥":4328,"뱦":4329,"뱧":4330,"뱨":4331,"뱩":4332,"뱪":4333,"뱫":4334,"뱬":4335,"뱭":4336,"뱮":4337,"뱯":4338,"뱰":4339,"뱱":4340,"뱲":4341,"뱳":4342,"뱴":4343,"뱵":4344,"뱶":4345,"뱷":4346,"뱸":4347,"뱹":4348,"뱺":4349,"뱻":4350,"뱼":4351,"뱽":4352,"뱾":4353,"뱿":4354,"벀":4355,"벁":4356,"벂":4357,"벃":4358,"버":4359,"벅":4360,"벆":4361,"벇":4362,"번":4363,"벉":4364,"벊":4365,"벋":4366,"벌":4367,"벍":4368,"벎":4369,"벏":4370,"벐":4371,"벑":4372,"벒":4373,"벓":4374,"범":4375,"법":4376,"벖":4377,"벗":4378,"벘":4379,"벙":4380,"벚":4381,"벛":4382,"벜":4383,"벝":4384,"벞":4385,"벟":4386,"베":4387,"벡":4388,"벢":4389,"벣":4390,"벤":4391,"벥":4392,"벦":4393,"벧":4394,"벨":4395,"벩":4396,"벪":4397,"벫":4398,"벬":4399,"벭":4400,"벮":4401,"벯":4402,"벰":4403,"벱":4404,"벲":4405,"벳":4406,"벴":4407,"벵":4408,"벶":4409,"벷":4410,"벸":4411,"벹":4412,"벺":4413,"벻":4414,"벼":4415,"벽":4416,"벾":4417,"벿":4418,"변":4419,"볁":4420,"볂":4421,"볃":4422,"별":4423,"볅":4424,"볆":4425,"볇":4426,"볈":4427,"볉":4428,"볊":4429,"볋":4430,"볌":4431,"볍":4432,"볎":4433,"볏":4434,"볐":4435,"병":4436,"볒":4437,"볓":4438,"볔":4439,"볕":4440,"볖":4441,"볗":4442,"볘":4443,"볙":4444,"볚":4445,"볛":4446,"볜":4447,"볝":4448,"볞":4449,"볟":4450,"볠":4451,"볡":4452,"볢":4453,"볣":4454,"볤":4455,"볥":4456,"볦":4457,"볧":4458,"볨":4459,"볩":4460,"볪":4461,"볫":4462,"볬":4463,"볭":4464,"볮":4465,"볯":4466,"볰":4467,"볱":4468,"볲":4469,"볳":4470,"보":4471,"복":4472,"볶":4473,"볷":4474,"본":4475,"볹":4476,"볺":4477,"볻":4478,"볼":4479,"볽":4480,"볾":4481,"볿":4482,"봀":4483,"봁":4484,"봂":4485,"봃":4486,"봄":4487,"봅":4488,"봆":4489,"봇":4490,"봈":4491,"봉":4492,"봊":4493,"봋":4494,"봌":4495,"봍":4496,"봎":4497,"봏":4498,"봐":4499,"봑":4500,"봒":4501,"봓":4502,"봔":4503,"봕":4504,"봖":4505,"봗":4506,"봘":4507,"봙":4508,"봚":4509,"봛":4510,"봜":4511,"봝":4512,"봞":4513,"봟":4514,"봠":4515,"봡":4516,"봢":4517,"봣":4518,"봤":4519,"봥":4520,"봦":4521,"봧":4522,"봨":4523,"봩":4524,"봪":4525,"봫":4526,"봬":4527,"봭":4528,"봮":4529,"봯":4530,"봰":4531,"봱":4532,"봲":4533,"봳":4534,"봴":4535,"봵":4536,"봶":4537,"봷":4538,"봸":4539,"봹":4540,"봺":4541,"봻":4542,"봼":4543,"봽":4544,"봾":4545,"봿":4546,"뵁":4547,"뵂":4548,"뵃":4549,"뵄":4550,"뵅":4551,"뵆":4552,"뵇":4553,"뵈":4554,"뵉":4555,"뵊":4556,"뵋":4557,"뵍":4558,"뵎":4559,"뵏":4560,"뵐":4561,"뵑":4562,"뵒":4563,"뵓":4564,"뵔":4565,"뵕":4566,"뵖":4567,"뵗":4568,"뵘":4569,"뵙":4570,"뵚":4571,"뵛":4572,"뵝":4573,"뵞":4574,"뵟":4575,"뵠":4576,"뵡":4577,"뵢":4578,"뵣":4579,"뵤":4580,"뵥":4581,"뵦":4582,"뵧":4583,"뵨":4584,"뵩":4585,"뵪":4586,"뵫":4587,"뵬":4588,"뵭":4589,"뵮":4590,"뵯":4591,"뵰":4592,"뵱":4593,"뵲":4594,"뵳":4595,"뵴":4596,"뵵":4597,"뵶":4598,"뵷":4599,"뵸":4600,"뵹":4601,"뵺":4602,"뵻":4603,"뵼":4604,"뵽":4605,"뵾":4606,"뵿":4607,"부":4608,"북":4609,"붂":4610,"붃":4611,"분":4612,"붅":4613,"붆":4614,"붇":4615,"불":4616,"붉":4617,"붊":4618,"붋":4619,"붌":4620,"붍":4621,"붎":4622,"붏":4623,"붐":4624,"붑":4625,"붒":4626,"붓":4627,"붔":4628,"붕":4629,"붖":4630,"붗":4631,"붘":4632,"붙":4633,"붚":4634,"붛":4635,"붜":4636,"붝":4637,"붞":4638,"붟":4639,"붠":4640,"붡":4641,"붢":4642,"붣":4643,"붤":4644,"붥":4645,"붦":4646,"붧":4647,"붨":4648,"붩":4649,"붪":4650,"붫":4651,"붬":4652,"붭":4653,"붮":4654,"붯":4655,"붰":4656,"붱":4657,"붲":4658,"붳":4659,"붴":4660,"붵":4661,"붶":4662,"붷":4663,"붸":4664,"붹":4665,"붺":4666,"붻":4667,"붼":4668,"붽":4669,"붾":4670,"붿":4671,"뷀":4672,"뷁":4673,"뷂":4674,"뷃":4675,"뷄":4676,"뷅":4677,"뷆":4678,"뷇":4679,"뷈":4680,"뷉":4681,"뷊":4682,"뷋":4683,"뷌":4684,"뷍":4685,"뷎":4686,"뷏":4687,"뷐":4688,"뷑":4689,"뷒":4690,"뷓":4691,"뷔":4692,"뷕":4693,"뷖":4694,"뷗":4695,"뷘":4696,"뷙":4697,"뷚":4698,"뷛":4699,"뷜":4700,"뷝":4701,"뷞":4702,"뷟":4703,"뷠":4704,"뷡":4705,"뷢":4706,"뷣":4707,"뷤":4708,"뷥":4709,"뷦":4710,"뷧":4711,"뷨":4712,"뷩":4713,"뷪":4714,"뷫":4715,"뷬":4716,"뷭":4717,"뷮":4718,"뷯":4719,"뷰":4720,"뷱":4721,"뷲":4722,"뷳":4723,"뷴":4724,"뷵":4725,"뷶":4726,"뷷":4727,"뷸":4728,"뷹":4729,"뷺":4730,"뷻":4731,"뷼":4732,"뷽":4733,"뷾":4734,"뷿":4735,"븀":4736,"븁":4737,"븂":4738,"븃":4739,"븄":4740,"븅":4741,"븆":4742,"븇":4743,"븈":4744,"븉":4745,"븊":4746,"븋":4747,"브":4748,"븍":4749,"븎":4750,"븏":4751,"븐":4752,"븑":4753,"븒":4754,"븓":4755,"블":4756,"븕":4757,"븖":4758,"븗":4759,"븘":4760,"븙":4761,"븚":4762,"븛":4763,"븜":4764,"븝":4765,"븞":4766,"븟":4767,"븠":4768,"븡":4769,"븢":4770,"븣":4771,"븤":4772,"븥":4773,"븦":4774,"븧":4775,"븨":4776,"븩":4777,"븪":4778,"븫":4779,"븬":4780,"븭":4781,"븮":4782,"븯":4783,"븰":4784,"븱":4785,"븲":4786,"븳":4787,"븴":4788,"븵":4789,"븶":4790,"븷":4791,"븸":4792,"븹":4793,"븺":4794,"븻":4795,"븼":4796,"븽":4797,"븾":4798,"븿":4799,"빀":4800,"빁":4801,"빂":4802,"빃":4803,"비":4804,"빅":4805,"빆":4806,"빇":4807,"빈":4808,"빉":4809,"빊":4810,"빋":4811,"빌":4812,"빍":4813,"빎":4814,"빏":4815,"빐":4816,"빑":4817,"빒":4818,"빓":4819,"빔":4820,"빕":4821,"빖":4822,"빗":4823,"빘":4824,"빙":4825,"빚":4826,"빛":4827,"빜":4828,"빝":4829,"빞":4830,"빟":4831,"빠":4832,"빡":4833,"빢":4834,"빣":4835,"빤":4836,"빥":4837,"빦":4838,"빧":4839,"빨":4840,"빩":4841,"빪":4842,"빫":4843,"빬":4844,"빭":4845,"빮":4846,"빯":4847,"빰":4848,"빱":4849,"빲":4850,"빳":4851,"빴":4852,"빵":4853,"빶":4854,"빷":4855,"빸":4856,"빹":4857,"빺":4858,"빻":4859,"빼":4860,"빽":4861,"빾":4862,"빿":4863,"뺀":4864,"뺁":4865,"뺂":4866,"뺃":4867,"뺄":4868,"뺅":4869,"뺆":4870,"뺇":4871,"뺈":4872,"뺉":4873,"뺊":4874,"뺋":4875,"뺌":4876,"뺍":4877,"뺎":4878,"뺏":4879,"뺐":4880,"뺑":4881,"뺒":4882,"뺓":4883,"뺔":4884,"뺕":4885,"뺖":4886,"뺗":4887,"뺘":4888,"뺙":4889,"뺚":4890,"뺛":4891,"뺜":4892,"뺝":4893,"뺞":4894,"뺟":4895,"뺠":4896,"뺡":4897,"뺢":4898,"뺣":4899,"뺤":4900,"뺥":4901,"뺦":4902,"뺧":4903,"뺨":4904,"뺩":4905,"뺪":4906,"뺫":4907,"뺬":4908,"뺭":4909,"뺮":4910,"뺯":4911,"뺰":4912,"뺱":4913,"뺲":4914,"뺳":4915,"뺴":4916,"뺵":4917,"뺶":4918,"뺷":4919,"뺸":4920,"뺹":4921,"뺺":4922,"뺻":4923,"뺼":4924,"뺽":4925,"뺾":4926,"뺿":4927,"뻀":4928,"뻁":4929,"뻂":4930,"뻃":4931,"뻄":4932,"뻅":4933,"뻆":4934,"뻇":4935,"뻈":4936,"뻉":4937,"뻊":4938,"뻋":4939,"뻌":4940,"뻍":4941,"뻎":4942,"뻏":4943,"뻐":4944,"뻑":4945,"뻒":4946,"뻓":4947,"뻔":4948,"뻕":4949,"뻖":4950,"뻗":4951,"뻘":4952,"뻙":4953,"뻚":4954,"뻛":4955,"뻜":4956,"뻝":4957,"뻞":4958,"뻟":4959,"뻠":4960,"뻡":4961,"뻢":4962,"뻣":4963,"뻤":4964,"뻥":4965,"뻦":4966,"뻧":4967,"뻨":4968,"뻩":4969,"뻪":4970,"뻫":4971,"뻬":4972,"뻭":4973,"뻮":4974,"뻯":4975,"뻰":4976,"뻱":4977,"뻲":4978,"뻳":4979,"뻴":4980,"뻵":4981,"뻶":4982,"뻷":4983,"뻸":4984,"뻹":4985,"뻺":4986,"뻻":4987,"뻼":4988,"뻽":4989,"뻾":4990,"뻿":4991,"뼀":4992,"뼁":4993,"뼂":4994,"뼃":4995,"뼄":4996,"뼅":4997,"뼆":4998,"뼇":4999,"뼈":5000,"뼉":5001,"뼊":5002,"뼋":5003,"뼌":5004,"뼍":5005,"뼎":5006,"뼏":5007,"뼐":5008,"뼑":5009,"뼒":5010,"뼓":5011,"뼔":5012,"뼕":5013,"뼖":5014,"뼗":5015,"뼘":5016,"뼙":5017,"뼚":5018,"뼛":5019,"뼜":5020,"뼝":5021,"뼞":5022,"뼟":5023,"뼠":5024,"뼡":5025,"뼢":5026,"뼣":5027,"뼤":5028,"뼥":5029,"뼦":5030,"뼧":5031,"뼨":5032,"뼩":5033,"뼪":5034,"뼫":5035,"뼬":5036,"뼭":5037,"뼮":5038,"뼯":5039,"뼰":5040,"뼱":5041,"뼲":5042,"뼳":5043,"뼴":5044,"뼵":5045,"뼶":5046,"뼷":5047,"뼸":5048,"뼹":5049,"뼺":5050,"뼻":5051,"뼼":5052,"뼽":5053,"뼾":5054,"뼿":5055,"뽀":5056,"뽁":5057,"뽂":5058,"뽃":5059,"뽄":5060,"뽅":5061,"뽆":5062,"뽇":5063,"뽈":5064,"뽉":5065,"뽊":5066,"뽋":5067,"뽌":5068,"뽍":5069,"뽎":5070,"뽏":5071,"뽐":5072,"뽑":5073,"뽒":5074,"뽓":5075,"뽔":5076,"뽕":5077,"뽖":5078,"뽗":5079,"뽘":5080,"뽙":5081,"뽚":5082,"뽛":5083,"뽜":5084,"뽝":5085,"뽞":5086,"뽟":5087,"뽠":5088,"뽡":5089,"뽢":5090,"뽣":5091,"뽤":5092,"뽥":5093,"뽦":5094,"뽧":5095,"뽨":5096,"뽩":5097,"뽪":5098,"뽫":5099,"뽬":5100,"뽭":5101,"뽮":5102,"뽯":5103,"뽰":5104,"뽱":5105,"뽲":5106,"뽳":5107,"뽴":5108,"뽵":5109,"뽶":5110,"뽷":5111,"뽸":5112,"뽹":5113,"뽺":5114,"뽻":5115,"뽼":5116,"뽽":5117,"뽾":5118,"뽿":5119,"뾀":5120,"뾁":5121,"뾂":5122,"뾃":5123,"뾄":5124,"뾅":5125,"뾆":5126,"뾇":5127,"뾈":5128,"뾉":5129,"뾊":5130,"뾋":5131,"뾌":5132,"뾍":5133,"뾎":5134,"뾏":5135,"뾐":5136,"뾑":5137,"뾒":5138,"뾓":5139,"뾔":5140,"뾕":5141,"뾖":5142,"뾗":5143,"뾘":5144,"뾙":5145,"뾚":5146,"뾛":5147,"뾜":5148,"뾝":5149,"뾞":5150,"뾟":5151,"뾠":5152,"뾡":5153,"뾢":5154,"뾣":5155,"뾤":5156,"뾥":5157,"뾦":5158,"뾧":5159,"뾨":5160,"뾩":5161,"뾪":5162,"뾫":5163,"뾬":5164,"뾭":5165,"뾮":5166,"뾯":5167,"뾰":5168,"뾱":5169,"뾲":5170,"뾳":5171,"뾴":5172,"뾵":5173,"뾶":5174,"뾷":5175,"뾸":5176,"뾹":5177,"뾺":5178,"뾻":5179,"뾼":5180,"뾽":5181,"뾾":5182,"뾿":5183,"뿀":5184,"뿁":5185,"뿂":5186,"뿃":5187,"뿄":5188,"뿅":5189,"뿆":5190,"뿇":5191,"뿈":5192,"뿉":5193,"뿊":5194,"뿋":5195,"뿌":5196,"뿍":5197,"뿎":5198,"뿏":5199,"뿐":5200,"뿑":5201,"뿒":5202,"뿓":5203,"뿔":5204,"뿕":5205,"뿖":5206,"뿗":5207,"뿘":5208,"뿙":5209,"뿚":5210,"뿛":5211,"뿜":5212,"뿝":5213,"뿞":5214,"뿟":5215,"뿡":5216,"뿢":5217,"뿣":5218,"뿤":5219,"뿥":5220,"뿦":5221,"뿧":5222,"뿨":5223,"뿩":5224,"뿪":5225,"뿫":5226,"뿬":5227,"뿭":5228,"뿮":5229,"뿯":5230,"뿰":5231,"뿱":5232,"뿲":5233,"뿳":5234,"뿴":5235,"뿵":5236,"뿶":5237,"뿷":5238,"뿸":5239,"뿹":5240,"뿺":5241,"뿻":5242,"뿼":5243,"뿽":5244,"뿾":5245,"뿿":5246,"쀀":5247,"쀁":5248,"쀂":5249,"쀃":5250,"쀄":5251,"쀅":5252,"쀆":5253,"쀇":5254,"쀈":5255,"쀉":5256,"쀊":5257,"쀋":5258,"쀌":5259,"쀍":5260,"쀎":5261,"쀏":5262,"쀐":5263,"쀑":5264,"쀒":5265,"쀓":5266,"쀔":5267,"쀕":5268,"쀖":5269,"쀗":5270,"쀘":5271,"쀙":5272,"쀚":5273,"쀛":5274,"쀜":5275,"쀝":5276,"쀞":5277,"쀟":5278,"쀠":5279,"쀡":5280,"쀢":5281,"쀣":5282,"쀤":5283,"쀥":5284,"쀦":5285,"쀧":5286,"쀨":5287,"쀩":5288,"쀪":5289,"쀫":5290,"쀬":5291,"쀭":5292,"쀮":5293,"쀯":5294,"쀰":5295,"쀱":5296,"쀲":5297,"쀳":5298,"쀴":5299,"쀵":5300,"쀶":5301,"쀷":5302,"쀸":5303,"쀹":5304,"쀺":5305,"쀻":5306,"쀼":5307,"쀽":5308,"쀾":5309,"쀿":5310,"쁀":5311,"쁁":5312,"쁂":5313,"쁃":5314,"쁄":5315,"쁅":5316,"쁆":5317,"쁇":5318,"쁈":5319,"쁉":5320,"쁊":5321,"쁋":5322,"쁌":5323,"쁍":5324,"쁎":5325,"쁏":5326,"쁐":5327,"쁑":5328,"쁒":5329,"쁓":5330,"쁔":5331,"쁕":5332,"쁖":5333,"쁗":5334,"쁘":5335,"쁙":5336,"쁚":5337,"쁛":5338,"쁜":5339,"쁝":5340,"쁞":5341,"쁟":5342,"쁠":5343,"쁡":5344,"쁢":5345,"쁣":5346,"쁤":5347,"쁥":5348,"쁦":5349,"쁧":5350,"쁨":5351,"쁩":5352,"쁪":5353,"쁫":5354,"쁬":5355,"쁭":5356,"쁮":5357,"쁯":5358,"쁰":5359,"쁱":5360,"쁲":5361,"쁳":5362,"쁴":5363,"쁵":5364,"쁶":5365,"쁷":5366,"쁸":5367,"쁹":5368,"쁺":5369,"쁻":5370,"쁼":5371,"쁽":5372,"쁾":5373,"쁿":5374,"삀":5375,"삁":5376,"삂":5377,"삃":5378,"삄":5379,"삅":5380,"삆":5381,"삇":5382,"삈":5383,"삉":5384,"삊":5385,"삋":5386,"삌":5387,"삍":5388,"삎":5389,"삏":5390,"삐":5391,"삑":5392,"삒":5393,"삓":5394,"삔":5395,"삕":5396,"삖":5397,"삗":5398,"삘":5399,"삙":5400,"삚":5401,"삛":5402,"삜":5403,"삝":5404,"삞":5405,"삟":5406,"삠":5407,"삡":5408,"삢":5409,"삣":5410,"삤":5411,"삥":5412,"삦":5413,"삧":5414,"삨":5415,"삩":5416,"삪":5417,"삫":5418,"사":5419,"삭":5420,"삮":5421,"삯":5422,"산":5423,"삱":5424,"삲":5425,"삳":5426,"살":5427,"삵":5428,"삶":5429,"삷":5430,"삸":5431,"삹":5432,"삺":5433,"삻":5434,"삼":5435,"삽":5436,"삾":5437,"삿":5438,"상":5439,"샂":5440,"샃":5441,"샄":5442,"샅":5443,"샆":5444,"샇":5445,"새":5446,"색":5447,"샊":5448,"샋":5449,"샌":5450,"샍":5451,"샎":5452,"샏":5453,"샐":5454,"샑":5455,"샒":5456,"샓":5457,"샔":5458,"샕":5459,"샖":5460,"샗":5461,"샘":5462,"샙":5463,"샚":5464,"샛":5465,"생":5466,"샞":5467,"샟":5468,"샠":5469,"샡":5470,"샢":5471,"샣":5472,"샤":5473,"샥":5474,"샦":5475,"샧":5476,"샨":5477,"샩":5478,"샪":5479,"샫":5480,"샬":5481,"샭":5482,"샮":5483,"샯":5484,"샰":5485,"샱":5486,"샲":5487,"샳":5488,"샴":5489,"샵":5490,"샶":5491,"샷":5492,"샸":5493,"샹":5494,"샺":5495,"샻":5496,"샼":5497,"샽":5498,"샾":5499,"샿":5500,"섀":5501,"섁":5502,"섂":5503,"섃":5504,"섄":5505,"섅":5506,"섆":5507,"섇":5508,"섈":5509,"섉":5510,"섊":5511,"섋":5512,"섌":5513,"섍":5514,"섎":5515,"섏":5516,"섐":5517,"섑":5518,"섒":5519,"섓":5520,"섔":5521,"섕":5522,"섖":5523,"섗":5524,"섘":5525,"섙":5526,"섚":5527,"섛":5528,"서":5529,"석":5530,"섞":5531,"섟":5532,"선":5533,"섡":5534,"섢":5535,"섣":5536,"설":5537,"섥":5538,"섦":5539,"섧":5540,"섨":5541,"섩":5542,"섪":5543,"섫":5544,"섬":5545,"섭":5546,"섮":5547,"섯":5548,"섰":5549,"성":5550,"섲":5551,"섳":5552,"섴":5553,"섵":5554,"섶":5555,"섷":5556,"세":5557,"섹":5558,"섺":5559,"섻":5560,"센":5561,"섽":5562,"섿":5563,"셀":5564,"셁":5565,"셂":5566,"셃":5567,"셄":5568,"셅":5569,"셆":5570,"셇":5571,"셈":5572,"셉":5573,"셊":5574,"셋":5575,"셍":5576,"셎":5577,"셏":5578,"셐":5579,"셑":5580,"셒":5581,"셓":5582,"셔":5583,"셕":5584,"셖":5585,"셗":5586,"션":5587,"셙":5588,"셚":5589,"셛":5590,"셜":5591,"셝":5592,"셞":5593,"셟":5594,"셠":5595,"셡":5596,"셢":5597,"셣":5598,"셤":5599,"셥":5600,"셦":5601,"셧":5602,"셨":5603,"셩":5604,"셪":5605,"셫":5606,"셬":5607,"셭":5608,"셮":5609,"셯":5610,"셰":5611,"셱":5612,"셲":5613,"셳":5614,"셴":5615,"셵":5616,"셶":5617,"셷":5618,"셸":5619,"셹":5620,"셺":5621,"셻":5622,"셼":5623,"셽":5624,"셾":5625,"셿":5626,"솀":5627,"솁":5628,"솂":5629,"솃":5630,"솄":5631,"솅":5632,"솆":5633,"솇":5634,"솈":5635,"솉":5636,"솊":5637,"솋":5638,"소":5639,"속":5640,"솎":5641,"솏":5642,"손":5643,"솑":5644,"솒":5645,"솓":5646,"솔":5647,"솕":5648,"솖":5649,"솗":5650,"솘":5651,"솙":5652,"솚":5653,"솛":5654,"솜":5655,"솝":5656,"솞":5657,"솟":5658,"솠":5659,"송":5660,"솢":5661,"솣":5662,"솤":5663,"솥":5664,"솦":5665,"솧":5666,"솨":5667,"솩":5668,"솪":5669,"솫":5670,"솬":5671,"솭":5672,"솮":5673,"솯":5674,"솰":5675,"솱":5676,"솲":5677,"솳":5678,"솴":5679,"솵":5680,"솶":5681,"솷":5682,"솸":5683,"솹":5684,"솺":5685,"솻":5686,"솼":5687,"솽":5688,"솾":5689,"솿":5690,"쇀":5691,"쇁":5692,"쇂":5693,"쇃":5694,"쇄":5695,"쇅":5696,"쇆":5697,"쇇":5698,"쇈":5699,"쇉":5700,"쇊":5701,"쇋":5702,"쇌":5703,"쇍":5704,"쇎":5705,"쇏":5706,"쇐":5707,"쇑":5708,"쇒":5709,"쇓":5710,"쇔":5711,"쇕":5712,"쇖":5713,"쇗":5714,"쇘":5715,"쇙":5716,"쇚":5717,"쇛":5718,"쇜":5719,"쇝":5720,"쇞":5721,"쇟":5722,"쇠":5723,"쇡":5724,"쇢":5725,"쇣":5726,"쇤":5727,"쇥":5728,"쇦":5729,"쇧":5730,"쇨":5731,"쇩":5732,"쇪":5733,"쇫":5734,"쇬":5735,"쇭":5736,"쇮":5737,"쇯":5738,"쇰":5739,"쇱":5740,"쇲":5741,"쇳":5742,"쇴":5743,"쇵":5744,"쇶":5745,"쇷":5746,"쇸":5747,"쇹":5748,"쇺":5749,"쇻":5750,"쇼":5751,"쇽":5752,"쇾":5753,"쇿":5754,"숀":5755,"숁":5756,"숂":5757,"숃":5758,"숄":5759,"숅":5760,"숆":5761,"숇":5762,"숈":5763,"숉":5764,"숊":5765,"숋":5766,"숌":5767,"숍":5768,"숎":5769,"숏":5770,"숐":5771,"숑":5772,"숒":5773,"숓":5774,"숔":5775,"숕":5776,"숖":5777,"숗":5778,"수":5779,"숙":5780,"숚":5781,"숛":5782,"순":5783,"숝":5784,"숞":5785,"숟":5786,"술":5787,"숡":5788,"숢":5789,"숣":5790,"숤":5791,"숥":5792,"숦":5793,"숧":5794,"숨":5795,"숩":5796,"숪":5797,"숫":5798,"숬":5799,"숭":5800,"숮":5801,"숯":5802,"숰":5803,"숱":5804,"숲":5805,"숳":5806,"숴":5807,"숵":5808,"숶":5809,"숷":5810,"숸":5811,"숹":5812,"숺":5813,"숻":5814,"숼":5815,"숽":5816,"숾":5817,"숿":5818,"쉀":5819,"쉁":5820,"쉂":5821,"쉃":5822,"쉄":5823,"쉅":5824,"쉆":5825,"쉇":5826,"쉈":5827,"쉉":5828,"쉊":5829,"쉋":5830,"쉌":5831,"쉍":5832,"쉎":5833,"쉏":5834,"쉐":5835,"쉑":5836,"쉒":5837,"쉓":5838,"쉔":5839,"쉕":5840,"쉖":5841,"쉗":5842,"쉘":5843,"쉙":5844,"쉚":5845,"쉛":5846,"쉜":5847,"쉝":5848,"쉞":5849,"쉟":5850,"쉠":5851,"쉡":5852,"쉢":5853,"쉣":5854,"쉤":5855,"쉥":5856,"쉦":5857,"쉧":5858,"쉨":5859,"쉩":5860,"쉪":5861,"쉫":5862,"쉬":5863,"쉭":5864,"쉮":5865,"쉯":5866,"쉰":5867,"쉱":5868,"쉲":5869,"쉳":5870,"쉴":5871,"쉵":5872,"쉶":5873,"쉷":5874,"쉸":5875,"쉹":5876,"쉺":5877,"쉻":5878,"쉼":5879,"쉽":5880,"쉾":5881,"쉿":5882,"슀":5883,"슁":5884,"슂":5885,"슃":5886,"슄":5887,"슅":5888,"슆":5889,"슇":5890,"슈":5891,"슉":5892,"슊":5893,"슋":5894,"슌":5895,"슍":5896,"슎":5897,"슏":5898,"슐":5899,"슑":5900,"슒":5901,"슓":5902,"슔":5903,"슕":5904,"슖":5905,"슗":5906,"슘":5907,"슙":5908,"슚":5909,"슛":5910,"슜":5911,"슝":5912,"슞":5913,"슟":5914,"슠":5915,"슡":5916,"슢":5917,"슣":5918,"스":5919,"슥":5920,"슦":5921,"슧":5922,"슨":5923,"슩":5924,"슪":5925,"슫":5926,"슬":5927,"슭":5928,"슮":5929,"슯":5930,"슰":5931,"슱":5932,"슲":5933,"슳":5934,"슴":5935,"습":5936,"슶":5937,"슷":5938,"슸":5939,"승":5940,"슺":5941,"슻":5942,"슼":5943,"슽":5944,"슾":5945,"슿":5946,"싀":5947,"싁":5948,"싂":5949,"싃":5950,"싄":5951,"싅":5952,"싆":5953,"싇":5954,"싈":5955,"싉":5956,"싊":5957,"싋":5958,"싌":5959,"싍":5960,"싎":5961,"싏":5962,"싐":5963,"싑":5964,"싒":5965,"싓":5966,"싔":5967,"싕":5968,"싖":5969,"싗":5970,"싘":5971,"싙":5972,"싚":5973,"싛":5974,"시":5975,"식":5976,"싞":5977,"싟":5978,"신":5979,"싡":5980,"싢":5981,"싣":5982,"실":5983,"싥":5984,"싦":5985,"싧":5986,"싨":5987,"싩":5988,"싪":5989,"싫":5990,"심":5991,"십":5992,"싮":5993,"싯":5994,"싰":5995,"싱":5996,"싲":5997,"싳":5998,"싴":5999,"싵":6000,"싶":6001,"싷":6002,"싸":6003,"싹":6004,"싺":6005,"싻":6006,"싼":6007,"싽":6008,"싾":6009,"싿":6010,"쌀":6011,"쌁":6012,"쌂":6013,"쌃":6014,"쌄":6015,"쌅":6016,"쌆":6017,"쌇":6018,"쌈":6019,"쌉":6020,"쌊":6021,"쌋":6022,"쌍":6023,"쌎":6024,"쌏":6025,"쌐":6026,"쌑":6027,"쌒":6028,"쌓":6029,"쌔":6030,"쌕":6031,"쌖":6032,"쌗":6033,"쌘":6034,"쌙":6035,"쌚":6036,"쌛":6037,"쌜":6038,"쌝":6039,"쌞":6040,"쌟":6041,"쌠":6042,"쌡":6043,"쌢":6044,"쌣":6045,"쌤":6046,"쌥":6047,"쌦":6048,"쌧":6049,"쌩":6050,"쌪":6051,"쌫":6052,"쌬":6053,"쌭":6054,"쌮":6055,"쌯":6056,"쌰":6057,"쌱":6058,"쌲":6059,"쌳":6060,"쌴":6061,"쌵":6062,"쌶":6063,"쌷":6064,"쌸":6065,"쌹":6066,"쌺":6067,"쌻":6068,"쌼":6069,"쌽":6070,"쌾":6071,"쌿":6072,"썀":6073,"썁":6074,"썂":6075,"썃":6076,"썄":6077,"썅":6078,"썆":6079,"썇":6080,"썈":6081,"썉":6082,"썊":6083,"썋":6084,"썌":6085,"썍":6086,"썎":6087,"썏":6088,"썐":6089,"썑":6090,"썒":6091,"썓":6092,"썔":6093,"썕":6094,"썖":6095,"썗":6096,"썘":6097,"썙":6098,"썚":6099,"썛":6100,"썜":6101,"썝":6102,"썞":6103,"썟":6104,"썠":6105,"썡":6106,"썢":6107,"썣":6108,"썤":6109,"썥":6110,"썦":6111,"썧":6112,"써":6113,"썩":6114,"썪":6115,"썫":6116,"썬":6117,"썭":6118,"썮":6119,"썯":6120,"썰":6121,"썱":6122,"썲":6123,"썳":6124,"썴":6125,"썵":6126,"썶":6127,"썷":6128,"썸":6129,"썹":6130,"썺":6131,"썻":6132,"썼":6133,"썽":6134,"썾":6135,"썿":6136,"쎀":6137,"쎁":6138,"쎂":6139,"쎃":6140,"쎄":6141,"쎅":6142,"쎆":6143,"쎇":6144,"쎈":6145,"쎉":6146,"쎊":6147,"쎋":6148,"쎌":6149,"쎍":6150,"쎎":6151,"쎏":6152,"쎐":6153,"쎑":6154,"쎒":6155,"쎓":6156,"쎔":6157,"쎕":6158,"쎖":6159,"쎗":6160,"쎙":6161,"쎚":6162,"쎛":6163,"쎜":6164,"쎝":6165,"쎞":6166,"쎟":6167,"쎠":6168,"쎡":6169,"쎢":6170,"쎣":6171,"쎤":6172,"쎥":6173,"쎦":6174,"쎧":6175,"쎨":6176,"쎩":6177,"쎪":6178,"쎫":6179,"쎬":6180,"쎭":6181,"쎮":6182,"쎯":6183,"쎰":6184,"쎱":6185,"쎲":6186,"쎳":6187,"쎴":6188,"쎵":6189,"쎶":6190,"쎷":6191,"쎸":6192,"쎹":6193,"쎺":6194,"쎻":6195,"쎼":6196,"쎽":6197,"쎾":6198,"쎿":6199,"쏀":6200,"쏁":6201,"쏂":6202,"쏃":6203,"쏄":6204,"쏅":6205,"쏆":6206,"쏇":6207,"쏈":6208,"쏉":6209,"쏊":6210,"쏋":6211,"쏌":6212,"쏍":6213,"쏎":6214,"쏏":6215,"쏐":6216,"쏑":6217,"쏒":6218,"쏓":6219,"쏔":6220,"쏕":6221,"쏖":6222,"쏗":6223,"쏘":6224,"쏙":6225,"쏚":6226,"쏛":6227,"쏜":6228,"쏝":6229,"쏞":6230,"쏟":6231,"쏠":6232,"쏡":6233,"쏢":6234,"쏣":6235,"쏤":6236,"쏥":6237,"쏦":6238,"쏧":6239,"쏨":6240,"쏩":6241,"쏪":6242,"쏫":6243,"쏬":6244,"쏭":6245,"쏮":6246,"쏯":6247,"쏰":6248,"쏱":6249,"쏲":6250,"쏳":6251,"쏴":6252,"쏵":6253,"쏶":6254,"쏷":6255,"쏸":6256,"쏹":6257,"쏺":6258,"쏻":6259,"쏼":6260,"쏽":6261,"쏾":6262,"쏿":6263,"쐀":6264,"쐁":6265,"쐂":6266,"쐃":6267,"쐄":6268,"쐅":6269,"쐆":6270,"쐇":6271,"쐉":6272,"쐊":6273,"쐋":6274,"쐌":6275,"쐍":6276,"쐎":6277,"쐏":6278,"쐐":6279,"쐑":6280,"쐒":6281,"쐓":6282,"쐔":6283,"쐕":6284,"쐖":6285,"쐗":6286,"쐘":6287,"쐙":6288,"쐚":6289,"쐛":6290,"쐜":6291,"쐝":6292,"쐞":6293,"쐟":6294,"쐠":6295,"쐡":6296,"쐢":6297,"쐣":6298,"쐤":6299,"쐥":6300,"쐦":6301,"쐧":6302,"쐨":6303,"쐩":6304,"쐪":6305,"쐫":6306,"쐬":6307,"쐭":6308,"쐮":6309,"쐯":6310,"쐱":6311,"쐲":6312,"쐳":6313,"쐵":6314,"쐶":6315,"쐷":6316,"쐸":6317,"쐹":6318,"쐺":6319,"쐻":6320,"쐼":6321,"쐽":6322,"쐾":6323,"쐿":6324,"쑀":6325,"쑁":6326,"쑂":6327,"쑃":6328,"쑄":6329,"쑅":6330,"쑆":6331,"쑇":6332,"쑈":6333,"쑉":6334,"쑊":6335,"쑋":6336,"쑌":6337,"쑍":6338,"쑎":6339,"쑏":6340,"쑐":6341,"쑑":6342,"쑒":6343,"쑓":6344,"쑔":6345,"쑕":6346,"쑖":6347,"쑗":6348,"쑘":6349,"쑙":6350,"쑚":6351,"쑛":6352,"쑜":6353,"쑝":6354,"쑞":6355,"쑟":6356,"쑠":6357,"쑡":6358,"쑢":6359,"쑣":6360,"쑤":6361,"쑥":6362,"쑦":6363,"쑧":6364,"쑨":6365,"쑩":6366,"쑪":6367,"쑫":6368,"쑭":6369,"쑮":6370,"쑯":6371,"쑰":6372,"쑱":6373,"쑲":6374,"쑳":6375,"쑴":6376,"쑵":6377,"쑶":6378,"쑷":6379,"쑸":6380,"쑹":6381,"쑺":6382,"쑻":6383,"쑼":6384,"쑽":6385,"쑾":6386,"쑿":6387,"쒀":6388,"쒁":6389,"쒂":6390,"쒃":6391,"쒄":6392,"쒅":6393,"쒆":6394,"쒇":6395,"쒈":6396,"쒉":6397,"쒊":6398,"쒋":6399,"쒌":6400,"쒍":6401,"쒎":6402,"쒏":6403,"쒐":6404,"쒑":6405,"쒒":6406,"쒓":6407,"쒕":6408,"쒖":6409,"쒗":6410,"쒘":6411,"쒙":6412,"쒚":6413,"쒛":6414,"쒜":6415,"쒝":6416,"쒞":6417,"쒟":6418,"쒠":6419,"쒡":6420,"쒢":6421,"쒣":6422,"쒤":6423,"쒥":6424,"쒦":6425,"쒧":6426,"쒨":6427,"쒩":6428,"쒪":6429,"쒫":6430,"쒬":6431,"쒭":6432,"쒮":6433,"쒯":6434,"쒰":6435,"쒱":6436,"쒲":6437,"쒳":6438,"쒴":6439,"쒵":6440,"쒶":6441,"쒷":6442,"쒸":6443,"쒹":6444,"쒺":6445,"쒻":6446,"쒽":6447,"쒾":6448,"쒿":6449,"쓀":6450,"쓁":6451,"쓂":6452,"쓃":6453,"쓄":6454,"쓅":6455,"쓆":6456,"쓇":6457,"쓈":6458,"쓉":6459,"쓊":6460,"쓋":6461,"쓌":6462,"쓍":6463,"쓎":6464,"쓏":6465,"쓐":6466,"쓑":6467,"쓒":6468,"쓓":6469,"쓔":6470,"쓕":6471,"쓖":6472,"쓗":6473,"쓘":6474,"쓙":6475,"쓚":6476,"쓛":6477,"쓜":6478,"쓝":6479,"쓞":6480,"쓟":6481,"쓠":6482,"쓡":6483,"쓢":6484,"쓣":6485,"쓤":6486,"쓥":6487,"쓦":6488,"쓧":6489,"쓨":6490,"쓩":6491,"쓪":6492,"쓫":6493,"쓬":6494,"쓭":6495,"쓮":6496,"쓯":6497,"쓰":6498,"쓱":6499,"쓲":6500,"쓳":6501,"쓴":6502,"쓵":6503,"쓶":6504,"쓷":6505,"쓸":6506,"쓹":6507,"쓺":6508,"쓻":6509,"쓼":6510,"쓽":6511,"쓾":6512,"쓿":6513,"씀":6514,"씁":6515,"씂":6516,"씃":6517,"씄":6518,"씅":6519,"씆":6520,"씇":6521,"씈":6522,"씉":6523,"씊":6524,"씋":6525,"씌":6526,"씍":6527,"씎":6528,"씏":6529,"씑":6530,"씒":6531,"씓":6532,"씔":6533,"씕":6534,"씖":6535,"씗":6536,"씘":6537,"씙":6538,"씚":6539,"씛":6540,"씜":6541,"씝":6542,"씞":6543,"씟":6544,"씠":6545,"씡":6546,"씢":6547,"씣":6548,"씤":6549,"씥":6550,"씦":6551,"씧":6552,"씨":6553,"씩":6554,"씪":6555,"씫":6556,"씬":6557,"씭":6558,"씮":6559,"씯":6560,"씰":6561,"씱":6562,"씲":6563,"씳":6564,"씴":6565,"씵":6566,"씶":6567,"씷":6568,"씸":6569,"씹":6570,"씺":6571,"씻":6572,"씼":6573,"씽":6574,"씾":6575,"씿":6576,"앀":6577,"앁":6578,"앂":6579,"앃":6580,"아":6581,"악":6582,"앆":6583,"앇":6584,"안":6585,"앉":6586,"않":6587,"앋":6588,"알":6589,"앍":6590,"앎":6591,"앏":6592,"앐":6593,"앑":6594,"앒":6595,"앓":6596,"암":6597,"압":6598,"앖":6599,"앗":6600,"았":6601,"앙":6602,"앚":6603,"앛":6604,"앜":6605,"앝":6606,"앞":6607,"앟":6608,"애":6609,"액":6610,"앢":6611,"앣":6612,"앤":6613,"앥":6614,"앦":6615,"앧":6616,"앨":6617,"앩":6618,"앪":6619,"앫":6620,"앬":6621,"앭":6622,"앮":6623,"앯":6624,"앰":6625,"앱":6626,"앲":6627,"앳":6628,"앴":6629,"앵":6630,"앶":6631,"앷":6632,"앸":6633,"앹":6634,"앺":6635,"앻":6636,"야":6637,"약":6638,"앾":6639,"앿":6640,"얀":6641,"얁":6642,"얂":6643,"얃":6644,"얄":6645,"얅":6646,"얆":6647,"얇":6648,"얈":6649,"얉":6650,"얊":6651,"얋":6652,"얌":6653,"얍":6654,"얎":6655,"얏":6656,"얐":6657,"양":6658,"얒":6659,"얓":6660,"얔":6661,"얕":6662,"얖":6663,"얗":6664,"얘":6665,"얙":6666,"얚":6667,"얛":6668,"얜":6669,"얝":6670,"얞":6671,"얟":6672,"얡":6673,"얢":6674,"얣":6675,"얤":6676,"얥":6677,"얦":6678,"얧":6679,"얨":6680,"얩":6681,"얪":6682,"얫":6683,"얬":6684,"얭":6685,"얮":6686,"얯":6687,"얰":6688,"얱":6689,"얲":6690,"얳":6691,"어":6692,"억":6693,"얶":6694,"얷":6695,"언":6696,"얹":6697,"얺":6698,"얻":6699,"얼":6700,"얽":6701,"얾":6702,"얿":6703,"엀":6704,"엁":6705,"엂":6706,"엃":6707,"엄":6708,"업":6709,"없":6710,"엇":6711,"었":6712,"엉":6713,"엊":6714,"엋":6715,"엌":6716,"엍":6717,"엎":6718,"엏":6719,"에":6720,"엑":6721,"엒":6722,"엓":6723,"엔":6724,"엕":6725,"엖":6726,"엗":6727,"엘":6728,"엙":6729,"엚":6730,"엛":6731,"엜":6732,"엝":6733,"엞":6734,"엟":6735,"엠":6736,"엡":6737,"엢":6738,"엣":6739,"엤":6740,"엥":6741,"엦":6742,"엧":6743,"엨":6744,"엩":6745,"엪":6746,"엫":6747,"여":6748,"역":6749,"엮":6750,"엯":6751,"연":6752,"엱":6753,"엲":6754,"엳":6755,"열":6756,"엵":6757,"엶":6758,"엷":6759,"엸":6760,"엹":6761,"엺":6762,"엻":6763,"염":6764,"엽":6765,"엾":6766,"엿":6767,"였":6768,"영":6769,"옂":6770,"옃":6771,"옄":6772,"옅":6773,"옆":6774,"옇":6775,"예":6776,"옉":6777,"옊":6778,"옋":6779,"옌":6780,"옍":6781,"옎":6782,"옏":6783,"옐":6784,"옑":6785,"옒":6786,"옓":6787,"옔":6788,"옕":6789,"옖":6790,"옗":6791,"옘":6792,"옙":6793,"옚":6794,"옛":6795,"옜":6796,"옝":6797,"옞":6798,"옟":6799,"옠":6800,"옡":6801,"옢":6802,"옣":6803,"오":6804,"옥":6805,"옦":6806,"옧":6807,"온":6808,"옩":6809,"옪":6810,"옫":6811,"올":6812,"옭":6813,"옮":6814,"옯":6815,"옰":6816,"옱":6817,"옲":6818,"옳":6819,"옴":6820,"옵":6821,"옶":6822,"옷":6823,"옸":6824,"옹":6825,"옺":6826,"옻":6827,"옼":6828,"옽":6829,"옾":6830,"옿":6831,"와":6832,"왁":6833,"왂":6834,"왃":6835,"완":6836,"왅":6837,"왆":6838,"왇":6839,"왈":6840,"왉":6841,"왊":6842,"왋":6843,"왌":6844,"왍":6845,"왎":6846,"왏":6847,"왐":6848,"왑":6849,"왒":6850,"왓":6851,"왔":6852,"왕":6853,"왖":6854,"왗":6855,"왘":6856,"왙":6857,"왚":6858,"왛":6859,"왜":6860,"왝":6861,"왞":6862,"왟":6863,"왠":6864,"왡":6865,"왢":6866,"왣":6867,"왤":6868,"왥":6869,"왦":6870,"왧":6871,"왨":6872,"왩":6873,"왪":6874,"왫":6875,"왬":6876,"왭":6877,"왮":6878,"왯":6879,"왰":6880,"왱":6881,"왲":6882,"왳":6883,"왴":6884,"왵":6885,"왶":6886,"왷":6887,"외":6888,"왹":6889,"왺":6890,"왻":6891,"왼":6892,"왽":6893,"왾":6894,"왿":6895,"욀":6896,"욁":6897,"욂":6898,"욃":6899,"욄":6900,"욅":6901,"욆":6902,"욇":6903,"욈":6904,"욉":6905,"욊":6906,"욋":6907,"욌":6908,"욍":6909,"욎":6910,"욏":6911,"욐":6912,"욑":6913,"욒":6914,"욓":6915,"요":6916,"욕":6917,"욖":6918,"욗":6919,"욘":6920,"욙":6921,"욚":6922,"욛":6923,"욜":6924,"욝":6925,"욞":6926,"욟":6927,"욠":6928,"욡":6929,"욢":6930,"욣":6931,"욤":6932,"욥":6933,"욦":6934,"욧":6935,"욨":6936,"용":6937,"욪":6938,"욫":6939,"욬":6940,"욭":6941,"욮":6942,"욯":6943,"우":6944,"욱":6945,"욲":6946,"욳":6947,"운":6948,"욵":6949,"욶":6950,"욷":6951,"울":6952,"욹":6953,"욺":6954,"욻":6955,"욼":6956,"욽":6957,"욾":6958,"욿":6959,"움":6960,"웁":6961,"웂":6962,"웃":6963,"웄":6964,"웅":6965,"웆":6966,"웇":6967,"웈":6968,"웉":6969,"웊":6970,"웋":6971,"워":6972,"웍":6973,"웎":6974,"웏":6975,"원":6976,"웑":6977,"웒":6978,"웓":6979,"월":6980,"웕":6981,"웖":6982,"웗":6983,"웘":6984,"웙":6985,"웚":6986,"웛":6987,"웜":6988,"웝":6989,"웞":6990,"웟":6991,"웠":6992,"웡":6993,"웢":6994,"웣":6995,"웤":6996,"웥":6997,"웦":6998,"웧":6999,"웨":7000,"웩":7001,"웪":7002,"웫":7003,"웬":7004,"웭":7005,"웮":7006,"웯":7007,"웰":7008,"웱":7009,"웲":7010,"웳":7011,"웴":7012,"웵":7013,"웶":7014,"웷":7015,"웸":7016,"웹":7017,"웺":7018,"웻":7019,"웼":7020,"웽":7021,"웾":7022,"웿":7023,"윀":7024,"윁":7025,"윂":7026,"윃":7027,"위":7028,"윅":7029,"윆":7030,"윇":7031,"윈":7032,"윉":7033,"윊":7034,"윋":7035,"윌":7036,"윍":7037,"윎":7038,"윏":7039,"윐":7040,"윑":7041,"윒":7042,"윓":7043,"윔":7044,"윕":7045,"윖":7046,"윗":7047,"윘":7048,"윙":7049,"윚":7050,"윛":7051,"윜":7052,"윝":7053,"윞":7054,"윟":7055,"유":7056,"육":7057,"윢":7058,"윣":7059,"윤":7060,"윥":7061,"윦":7062,"윧":7063,"율":7064,"윩":7065,"윪":7066,"윫":7067,"윬":7068,"윭":7069,"윮":7070,"윯":7071,"윰":7072,"윱":7073,"윲":7074,"윳":7075,"윴":7076,"융":7077,"윶":7078,"윷":7079,"윸":7080,"윹":7081,"윺":7082,"윻":7083,"으":7084,"윽":7085,"윾":7086,"윿":7087,"은":7088,"읁":7089,"읂":7090,"읃":7091,"을":7092,"읅":7093,"읆":7094,"읇":7095,"읈":7096,"읉":7097,"읊":7098,"읋":7099,"음":7100,"읍":7101,"읎":7102,"읏":7103,"읐":7104,"응":7105,"읒":7106,"읓":7107,"읔":7108,"읕":7109,"읖":7110,"읗":7111,"의":7112,"읙":7113,"읚":7114,"읛":7115,"읜":7116,"읝":7117,"읞":7118,"읟":7119,"읠":7120,"읡":7121,"읢":7122,"읣":7123,"읤":7124,"읥":7125,"읦":7126,"읧":7127,"읨":7128,"읩":7129,"읪":7130,"읫":7131,"읬":7132,"읭":7133,"읮":7134,"읯":7135,"읰":7136,"읱":7137,"읲":7138,"읳":7139,"이":7140,"익":7141,"읶":7142,"읷":7143,"인":7144,"읹":7145,"읺":7146,"읻":7147,"일":7148,"읽":7149,"읾":7150,"읿":7151,"잀":7152,"잁":7153,"잂":7154,"잃":7155,"임":7156,"입":7157,"잆":7158,"잇":7159,"있":7160,"잉":7161,"잊":7162,"잋":7163,"잌":7164,"잍":7165,"잎":7166,"잏":7167,"자":7168,"작":7169,"잒":7170,"잓":7171,"잔":7172,"잕":7173,"잖":7174,"잗":7175,"잘":7176,"잙":7177,"잚":7178,"잛":7179,"잜":7180,"잝":7181,"잞":7182,"잟":7183,"잠":7184,"잡":7185,"잢":7186,"잣":7187,"장":7188,"잦":7189,"잧":7190,"잨":7191,"잩":7192,"잪":7193,"잫":7194,"재":7195,"잭":7196,"잮":7197,"잯":7198,"잰":7199,"잱":7200,"잲":7201,"잳":7202,"잴":7203,"잵":7204,"잶":7205,"잷":7206,"잸":7207,"잹":7208,"잺":7209,"잻":7210,"잼":7211,"잽":7212,"잾":7213,"잿":7214,"쟁":7215,"쟂":7216,"쟃":7217,"쟄":7218,"쟅":7219,"쟆":7220,"쟇":7221,"쟈":7222,"쟉":7223,"쟊":7224,"쟋":7225,"쟌":7226,"쟍":7227,"쟎":7228,"쟏":7229,"쟐":7230,"쟑":7231,"쟒":7232,"쟓":7233,"쟔":7234,"쟕":7235,"쟖":7236,"쟗":7237,"쟘":7238,"쟙":7239,"쟚":7240,"쟛":7241,"쟜":7242,"쟝":7243,"쟞":7244,"쟟":7245,"쟠":7246,"쟡":7247,"쟢":7248,"쟣":7249,"쟤":7250,"쟥":7251,"쟦":7252,"쟧":7253,"쟩":7254,"쟪":7255,"쟫":7256,"쟬":7257,"쟭":7258,"쟮":7259,"쟯":7260,"쟰":7261,"쟱":7262,"쟲":7263,"쟳":7264,"쟴":7265,"쟵":7266,"쟶":7267,"쟷":7268,"쟸":7269,"쟹":7270,"쟺":7271,"쟻":7272,"쟼":7273,"쟽":7274,"쟾":7275,"쟿":7276,"저":7277,"적":7278,"젂":7279,"젃":7280,"전":7281,"젅":7282,"젆":7283,"젇":7284,"절":7285,"젉":7286,"젊":7287,"젋":7288,"젌":7289,"젍":7290,"젎":7291,"젏":7292,"점":7293,"접":7294,"젒":7295,"젓":7296,"젔":7297,"정":7298,"젖":7299,"젗":7300,"젘":7301,"젙":7302,"젚":7303,"젛":7304,"제":7305,"젝":7306,"젞":7307,"젟":7308,"젠":7309,"젡":7310,"젢":7311,"젣":7312,"젤":7313,"젥":7314,"젦":7315,"젧":7316,"젨":7317,"젩":7318,"젪":7319,"젫":7320,"젬":7321,"젭":7322,"젮":7323,"젯":7324,"젰":7325,"젱":7326,"젲":7327,"젳":7328,"젴":7329,"젵":7330,"젶":7331,"젷":7332,"져":7333,"젹":7334,"젺":7335,"젻":7336,"젼":7337,"젽":7338,"젾":7339,"젿":7340,"졀":7341,"졁":7342,"졂":7343,"졃":7344,"졄":7345,"졅":7346,"졆":7347,"졇":7348,"졈":7349,"졉":7350,"졊":7351,"졋":7352,"졌":7353,"졍":7354,"졎":7355,"졏":7356,"졐":7357,"졑":7358,"졒":7359,"졓":7360,"졔":7361,"졕":7362,"졖":7363,"졗":7364,"졘":7365,"졙":7366,"졚":7367,"졛":7368,"졜":7369,"졝":7370,"졞":7371,"졟":7372,"졠":7373,"졡":7374,"졢":7375,"졣":7376,"졤":7377,"졥":7378,"졦":7379,"졧":7380,"졨":7381,"졩":7382,"졪":7383,"졫":7384,"졬":7385,"졭":7386,"졮":7387,"졯":7388,"조":7389,"족":7390,"졲":7391,"졳":7392,"존":7393,"졵":7394,"졶":7395,"졷":7396,"졸":7397,"졹":7398,"졺":7399,"졻":7400,"졼":7401,"졽":7402,"졾":7403,"졿":7404,"좀":7405,"좁":7406,"좂":7407,"좃":7408,"좄":7409,"종":7410,"좆":7411,"좇":7412,"좈":7413,"좉":7414,"좊":7415,"좋":7416,"좌":7417,"좍":7418,"좎":7419,"좏":7420,"좐":7421,"좑":7422,"좒":7423,"좓":7424,"좔":7425,"좕":7426,"좖":7427,"좗":7428,"좘":7429,"좙":7430,"좚":7431,"좛":7432,"좜":7433,"좝":7434,"좞":7435,"좟":7436,"좠":7437,"좡":7438,"좢":7439,"좣":7440,"좤":7441,"좥":7442,"좦":7443,"좧":7444,"좨":7445,"좩":7446,"좪":7447,"좫":7448,"좬":7449,"좭":7450,"좮":7451,"좯":7452,"좰":7453,"좱":7454,"좲":7455,"좳":7456,"좴":7457,"좵":7458,"좶":7459,"좷":7460,"좸":7461,"좹":7462,"좺":7463,"좻":7464,"좼":7465,"좽":7466,"좾":7467,"좿":7468,"죀":7469,"죁":7470,"죂":7471,"죃":7472,"죄":7473,"죅":7474,"죆":7475,"죇":7476,"죈":7477,"죉":7478,"죊":7479,"죋":7480,"죌":7481,"죍":7482,"죎":7483,"죏":7484,"죐":7485,"죑":7486,"죒":7487,"죓":7488,"죔":7489,"죕":7490,"죖":7491,"죗":7492,"죙":7493,"죚":7494,"죛":7495,"죜":7496,"죝":7497,"죞":7498,"죟":7499,"죠":7500,"죡":7501,"죢":7502,"죣":7503,"죤":7504,"죥":7505,"죦":7506,"죧":7507,"죨":7508,"죩":7509,"죪":7510,"죫":7511,"죬":7512,"죭":7513,"죮":7514,"죯":7515,"죰":7516,"죱":7517,"죲":7518,"죳":7519,"죴":7520,"죵":7521,"죶":7522,"죷":7523,"죸":7524,"죹":7525,"죺":7526,"죻":7527,"주":7528,"죽":7529,"죾":7530,"죿":7531,"준":7532,"줁":7533,"줂":7534,"줃":7535,"줄":7536,"줅":7537,"줆":7538,"줇":7539,"줈":7540,"줉":7541,"줊":7542,"줋":7543,"줌":7544,"줍":7545,"줎":7546,"줏":7547,"줐":7548,"중":7549,"줒":7550,"줓":7551,"줔":7552,"줕":7553,"줖":7554,"줗":7555,"줘":7556,"줙":7557,"줚":7558,"줛":7559,"줜":7560,"줝":7561,"줞":7562,"줟":7563,"줠":7564,"줡":7565,"줢":7566,"줣":7567,"줤":7568,"줥":7569,"줦":7570,"줧":7571,"줨":7572,"줩":7573,"줪":7574,"줫":7575,"줬":7576,"줭":7577,"줮":7578,"줯":7579,"줰":7580,"줱":7581,"줲":7582,"줳":7583,"줴":7584,"줵":7585,"줶":7586,"줷":7587,"줸":7588,"줹":7589,"줺":7590,"줻":7591,"줼":7592,"줽":7593,"줾":7594,"줿":7595,"쥀":7596,"쥁":7597,"쥂":7598,"쥃":7599,"쥄":7600,"쥅":7601,"쥆":7602,"쥇":7603,"쥈":7604,"쥉":7605,"쥊":7606,"쥋":7607,"쥌":7608,"쥍":7609,"쥎":7610,"쥏":7611,"쥐":7612,"쥑":7613,"쥒":7614,"쥓":7615,"쥔":7616,"쥕":7617,"쥖":7618,"쥗":7619,"쥘":7620,"쥙":7621,"쥚":7622,"쥛":7623,"쥜":7624,"쥝":7625,"쥞":7626,"쥟":7627,"쥠":7628,"쥡":7629,"쥢":7630,"쥣":7631,"쥤":7632,"쥥":7633,"쥦":7634,"쥧":7635,"쥨":7636,"쥩":7637,"쥪":7638,"쥫":7639,"쥬":7640,"쥭":7641,"쥮":7642,"쥯":7643,"쥰":7644,"쥱":7645,"쥲":7646,"쥳":7647,"쥴":7648,"쥵":7649,"쥶":7650,"쥷":7651,"쥸":7652,"쥹":7653,"쥺":7654,"쥻":7655,"쥼":7656,"쥽":7657,"쥾":7658,"쥿":7659,"즀":7660,"즁":7661,"즂":7662,"즃":7663,"즄":7664,"즅":7665,"즆":7666,"즇":7667,"즈":7668,"즉":7669,"즊":7670,"즋":7671,"즌":7672,"즍":7673,"즎":7674,"즏":7675,"즐":7676,"즑":7677,"즒":7678,"즓":7679,"즔":7680,"즕":7681,"즖":7682,"즗":7683,"즘":7684,"즙":7685,"즚":7686,"즛":7687,"즜":7688,"증":7689,"즞":7690,"즟":7691,"즠":7692,"즡":7693,"즢":7694,"즣":7695,"즤":7696,"즥":7697,"즦":7698,"즧":7699,"즨":7700,"즩":7701,"즪":7702,"즫":7703,"즬":7704,"즭":7705,"즮":7706,"즯":7707,"즰":7708,"즱":7709,"즲":7710,"즳":7711,"즴":7712,"즵":7713,"즶":7714,"즷":7715,"즸":7716,"즹":7717,"즺":7718,"즻":7719,"즼":7720,"즽":7721,"즾":7722,"즿":7723,"지":7724,"직":7725,"짂":7726,"짃":7727,"진":7728,"짅":7729,"짆":7730,"짇":7731,"질":7732,"짉":7733,"짊":7734,"짋":7735,"짌":7736,"짍":7737,"짎":7738,"짏":7739,"짐":7740,"집":7741,"짒":7742,"짓":7743,"짔":7744,"징":7745,"짖":7746,"짗":7747,"짘":7748,"짙":7749,"짚":7750,"짛":7751,"짜":7752,"짝":7753,"짞":7754,"짟":7755,"짠":7756,"짡":7757,"짢":7758,"짣":7759,"짤":7760,"짥":7761,"짦":7762,"짧":7763,"짨":7764,"짩":7765,"짪":7766,"짫":7767,"짬":7768,"짭":7769,"짮":7770,"짯":7771,"짱":7772,"짲":7773,"짳":7774,"짴":7775,"짵":7776,"짶":7777,"짷":7778,"째":7779,"짹":7780,"짺":7781,"짻":7782,"짼":7783,"짽":7784,"짾":7785,"짿":7786,"쨀":7787,"쨁":7788,"쨂":7789,"쨃":7790,"쨄":7791,"쨅":7792,"쨆":7793,"쨇":7794,"쨈":7795,"쨉":7796,"쨊":7797,"쨋":7798,"쨌":7799,"쨍":7800,"쨎":7801,"쨏":7802,"쨐":7803,"쨑":7804,"쨒":7805,"쨓":7806,"쨔":7807,"쨕":7808,"쨖":7809,"쨗":7810,"쨘":7811,"쨙":7812,"쨚":7813,"쨛":7814,"쨜":7815,"쨝":7816,"쨞":7817,"쨟":7818,"쨠":7819,"쨡":7820,"쨢":7821,"쨣":7822,"쨤":7823,"쨥":7824,"쨦":7825,"쨧":7826,"쨨":7827,"쨩":7828,"쨪":7829,"쨫":7830,"쨬":7831,"쨭":7832,"쨮":7833,"쨯":7834,"쨰":7835,"쨱":7836,"쨲":7837,"쨳":7838,"쨴":7839,"쨵":7840,"쨶":7841,"쨷":7842,"쨸":7843,"쨹":7844,"쨺":7845,"쨻":7846,"쨼":7847,"쨽":7848,"쨾":7849,"쨿":7850,"쩀":7851,"쩁":7852,"쩂":7853,"쩃":7854,"쩄":7855,"쩅":7856,"쩆":7857,"쩇":7858,"쩈":7859,"쩉":7860,"쩊":7861,"쩋":7862,"쩌":7863,"쩍":7864,"쩎":7865,"쩏":7866,"쩐":7867,"쩑":7868,"쩒":7869,"쩓":7870,"쩔":7871,"쩕":7872,"쩖":7873,"쩗":7874,"쩘":7875,"쩙":7876,"쩚":7877,"쩛":7878,"쩜":7879,"쩝":7880,"쩞":7881,"쩟":7882,"쩠":7883,"쩡":7884,"쩢":7885,"쩣":7886,"쩤":7887,"쩥":7888,"쩦":7889,"쩧":7890,"쩨":7891,"쩩":7892,"쩪":7893,"쩫":7894,"쩬":7895,"쩭":7896,"쩮":7897,"쩯":7898,"쩰":7899,"쩱":7900,"쩲":7901,"쩳":7902,"쩴":7903,"쩵":7904,"쩶":7905,"쩷":7906,"쩸":7907,"쩹":7908,"쩺":7909,"쩻":7910,"쩼":7911,"쩽":7912,"쩾":7913,"쩿":7914,"쪀":7915,"쪁":7916,"쪂":7917,"쪃":7918,"쪄":7919,"쪅":7920,"쪆":7921,"쪇":7922,"쪈":7923,"쪉":7924,"쪊":7925,"쪋":7926,"쪌":7927,"쪍":7928,"쪎":7929,"쪏":7930,"쪐":7931,"쪑":7932,"쪒":7933,"쪓":7934,"쪔":7935,"쪕":7936,"쪖":7937,"쪗":7938,"쪘":7939,"쪙":7940,"쪚":7941,"쪛":7942,"쪜":7943,"쪝":7944,"쪞":7945,"쪟":7946,"쪠":7947,"쪡":7948,"쪢":7949,"쪣":7950,"쪤":7951,"쪥":7952,"쪦":7953,"쪧":7954,"쪨":7955,"쪩":7956,"쪪":7957,"쪫":7958,"쪬":7959,"쪭":7960,"쪮":7961,"쪯":7962,"쪰":7963,"쪱":7964,"쪲":7965,"쪳":7966,"쪴":7967,"쪵":7968,"쪶":7969,"쪷":7970,"쪸":7971,"쪹":7972,"쪺":7973,"쪻":7974,"쪼":7975,"쪽":7976,"쪾":7977,"쪿":7978,"쫀":7979,"쫁":7980,"쫂":7981,"쫃":7982,"쫄":7983,"쫅":7984,"쫆":7985,"쫇":7986,"쫈":7987,"쫉":7988,"쫊":7989,"쫋":7990,"쫌":7991,"쫍":7992,"쫎":7993,"쫏":7994,"쫐":7995,"쫑":7996,"쫒":7997,"쫓":7998,"쫔":7999,"쫕":8000,"쫖":8001,"쫗":8002,"쫘":8003,"쫙":8004,"쫚":8005,"쫛":8006,"쫜":8007,"쫝":8008,"쫞":8009,"쫟":8010,"쫠":8011,"쫡":8012,"쫢":8013,"쫣":8014,"쫤":8015,"쫥":8016,"쫦":8017,"쫧":8018,"쫨":8019,"쫩":8020,"쫪":8021,"쫫":8022,"쫭":8023,"쫮":8024,"쫯":8025,"쫰":8026,"쫱":8027,"쫲":8028,"쫳":8029,"쫴":8030,"쫵":8031,"쫶":8032,"쫷":8033,"쫸":8034,"쫹":8035,"쫺":8036,"쫻":8037,"쫼":8038,"쫽":8039,"쫾":8040,"쫿":8041,"쬀":8042,"쬁":8043,"쬂":8044,"쬃":8045,"쬄":8046,"쬅":8047,"쬆":8048,"쬇":8049,"쬈":8050,"쬉":8051,"쬊":8052,"쬋":8053,"쬌":8054,"쬍":8055,"쬎":8056,"쬏":8057,"쬐":8058,"쬑":8059,"쬒":8060,"쬓":8061,"쬔":8062,"쬕":8063,"쬖":8064,"쬗":8065,"쬙":8066,"쬚":8067,"쬛":8068,"쬜":8069,"쬝":8070,"쬞":8071,"쬟":8072,"쬡":8073,"쬢":8074,"쬣":8075,"쬤":8076,"쬥":8077,"쬦":8078,"쬧":8079,"쬨":8080,"쬩":8081,"쬪":8082,"쬫":8083,"쬬":8084,"쬭":8085,"쬮":8086,"쬯":8087,"쬰":8088,"쬱":8089,"쬲":8090,"쬳":8091,"쬴":8092,"쬵":8093,"쬶":8094,"쬷":8095,"쬸":8096,"쬹":8097,"쬺":8098,"쬻":8099,"쬼":8100,"쬽":8101,"쬾":8102,"쬿":8103,"쭀":8104,"쭁":8105,"쭂":8106,"쭃":8107,"쭄":8108,"쭅":8109,"쭆":8110,"쭇":8111,"쭈":8112,"쭉":8113,"쭊":8114,"쭋":8115,"쭌":8116,"쭍":8117,"쭎":8118,"쭏":8119,"쭐":8120,"쭑":8121,"쭒":8122,"쭓":8123,"쭔":8124,"쭕":8125,"쭖":8126,"쭗":8127,"쭘":8128,"쭙":8129,"쭚":8130,"쭛":8131,"쭜":8132,"쭝":8133,"쭞":8134,"쭟":8135,"쭠":8136,"쭡":8137,"쭢":8138,"쭣":8139,"쭤":8140,"쭥":8141,"쭦":8142,"쭧":8143,"쭨":8144,"쭩":8145,"쭪":8146,"쭫":8147,"쭬":8148,"쭭":8149,"쭮":8150,"쭯":8151,"쭰":8152,"쭱":8153,"쭲":8154,"쭳":8155,"쭴":8156,"쭵":8157,"쭶":8158,"쭷":8159,"쭸":8160,"쭹":8161,"쭺":8162,"쭻":8163,"쭼":8164,"쭽":8165,"쭾":8166,"쭿":8167,"쮀":8168,"쮁":8169,"쮂":8170,"쮃":8171,"쮄":8172,"쮅":8173,"쮆":8174,"쮇":8175,"쮈":8176,"쮉":8177,"쮊":8178,"쮋":8179,"쮌":8180,"쮍":8181,"쮎":8182,"쮏":8183,"쮐":8184,"쮑":8185,"쮒":8186,"쮓":8187,"쮔":8188,"쮕":8189,"쮖":8190,"쮗":8191,"쮘":8192,"쮙":8193,"쮚":8194,"쮛":8195,"쮜":8196,"쮝":8197,"쮞":8198,"쮟":8199,"쮠":8200,"쮡":8201,"쮢":8202,"쮣":8203,"쮤":8204,"쮥":8205,"쮦":8206,"쮧":8207,"쮨":8208,"쮩":8209,"쮪":8210,"쮫":8211,"쮬":8212,"쮭":8213,"쮮":8214,"쮯":8215,"쮰":8216,"쮱":8217,"쮲":8218,"쮳":8219,"쮴":8220,"쮵":8221,"쮶":8222,"쮷":8223,"쮸":8224,"쮹":8225,"쮺":8226,"쮻":8227,"쮼":8228,"쮽":8229,"쮾":8230,"쮿":8231,"쯀":8232,"쯁":8233,"쯂":8234,"쯃":8235,"쯄":8236,"쯅":8237,"쯆":8238,"쯇":8239,"쯈":8240,"쯉":8241,"쯊":8242,"쯋":8243,"쯌":8244,"쯍":8245,"쯎":8246,"쯏":8247,"쯐":8248,"쯑":8249,"쯒":8250,"쯓":8251,"쯔":8252,"쯕":8253,"쯖":8254,"쯗":8255,"쯘":8256,"쯙":8257,"쯚":8258,"쯛":8259,"쯜":8260,"쯝":8261,"쯞":8262,"쯟":8263,"쯠":8264,"쯡":8265,"쯢":8266,"쯣":8267,"쯤":8268,"쯥":8269,"쯦":8270,"쯧":8271,"쯨":8272,"쯩":8273,"쯪":8274,"쯫":8275,"쯬":8276,"쯭":8277,"쯮":8278,"쯯":8279,"쯰":8280,"쯱":8281,"쯲":8282,"쯳":8283,"쯴":8284,"쯵":8285,"쯶":8286,"쯷":8287,"쯸":8288,"쯹":8289,"쯺":8290,"쯻":8291,"쯼":8292,"쯽":8293,"쯾":8294,"쯿":8295,"찀":8296,"찁":8297,"찂":8298,"찃":8299,"찄":8300,"찅":8301,"찆":8302,"찇":8303,"찈":8304,"찉":8305,"찊":8306,"찋":8307,"찌":8308,"찍":8309,"찎":8310,"찏":8311,"찐":8312,"찑":8313,"찒":8314,"찓":8315,"찔":8316,"찕":8317,"찖":8318,"찗":8319,"찘":8320,"찙":8321,"찚":8322,"찛":8323,"찜":8324,"찝":8325,"찞":8326,"찟":8327,"찠":8328,"찡":8329,"찢":8330,"찣":8331,"찤":8332,"찥":8333,"찦":8334,"찧":8335,"차":8336,"착":8337,"찪":8338,"찫":8339,"찬":8340,"찭":8341,"찮":8342,"찯":8343,"찰":8344,"찱":8345,"찲":8346,"찳":8347,"찴":8348,"찵":8349,"찶":8350,"찷":8351,"참":8352,"찹":8353,"찺":8354,"찻":8355,"창":8356,"찾":8357,"찿":8358,"챀":8359,"챁":8360,"챂":8361,"챃":8362,"채":8363,"책":8364,"챆":8365,"챇":8366,"챈":8367,"챉":8368,"챊":8369,"챋":8370,"챌":8371,"챍":8372,"챎":8373,"챏":8374,"챐":8375,"챑":8376,"챒":8377,"챓":8378,"챔":8379,"챕":8380,"챖":8381,"챗":8382,"챘":8383,"챙":8384,"챚":8385,"챛":8386,"챜":8387,"챝":8388,"챞":8389,"챟":8390,"챠":8391,"챡":8392,"챢":8393,"챣":8394,"챤":8395,"챥":8396,"챦":8397,"챧":8398,"챨":8399,"챩":8400,"챪":8401,"챫":8402,"챬":8403,"챭":8404,"챮":8405,"챯":8406,"챰":8407,"챱":8408,"챲":8409,"챳":8410,"챴":8411,"챵":8412,"챶":8413,"챷":8414,"챸":8415,"챹":8416,"챺":8417,"챻":8418,"챼":8419,"챽":8420,"챾":8421,"챿":8422,"첀":8423,"첁":8424,"첂":8425,"첃":8426,"첄":8427,"첅":8428,"첆":8429,"첇":8430,"첈":8431,"첉":8432,"첊":8433,"첋":8434,"첌":8435,"첍":8436,"첎":8437,"첏":8438,"첐":8439,"첑":8440,"첒":8441,"첓":8442,"첔":8443,"첕":8444,"첖":8445,"첗":8446,"처":8447,"척":8448,"첚":8449,"첛":8450,"천":8451,"첝":8452,"첞":8453,"첟":8454,"철":8455,"첡":8456,"첢":8457,"첣":8458,"첤":8459,"첥":8460,"첦":8461,"첧":8462,"첨":8463,"첩":8464,"첪":8465,"첫":8466,"첬":8467,"청":8468,"첮":8469,"첯":8470,"첰":8471,"첱":8472,"첲":8473,"첳":8474,"체":8475,"첵":8476,"첶":8477,"첷":8478,"첸":8479,"첹":8480,"첺":8481,"첻":8482,"첼":8483,"첽":8484,"첾":8485,"첿":8486,"쳀":8487,"쳁":8488,"쳂":8489,"쳃":8490,"쳄":8491,"쳅":8492,"쳆":8493,"쳇":8494,"쳈":8495,"쳉":8496,"쳊":8497,"쳋":8498,"쳌":8499,"쳍":8500,"쳎":8501,"쳏":8502,"쳐":8503,"쳑":8504,"쳒":8505,"쳓":8506,"쳔":8507,"쳕":8508,"쳖":8509,"쳗":8510,"쳘":8511,"쳙":8512,"쳚":8513,"쳛":8514,"쳜":8515,"쳝":8516,"쳞":8517,"쳟":8518,"쳠":8519,"쳡":8520,"쳢":8521,"쳣":8522,"쳤":8523,"쳥":8524,"쳦":8525,"쳧":8526,"쳨":8527,"쳩":8528,"쳪":8529,"쳫":8530,"쳬":8531,"쳭":8532,"쳮":8533,"쳯":8534,"쳰":8535,"쳱":8536,"쳲":8537,"쳳":8538,"쳴":8539,"쳵":8540,"쳶":8541,"쳷":8542,"쳸":8543,"쳹":8544,"쳺":8545,"쳻":8546,"쳼":8547,"쳽":8548,"쳾":8549,"쳿":8550,"촀":8551,"촁":8552,"촂":8553,"촃":8554,"촄":8555,"촅":8556,"촆":8557,"촇":8558,"초":8559,"촉":8560,"촊":8561,"촋":8562,"촌":8563,"촍":8564,"촎":8565,"촏":8566,"촐":8567,"촑":8568,"촒":8569,"촓":8570,"촔":8571,"촕":8572,"촖":8573,"촗":8574,"촘":8575,"촙":8576,"촚":8577,"촛":8578,"촜":8579,"총":8580,"촞":8581,"촟":8582,"촠":8583,"촡":8584,"촢":8585,"촣":8586,"촤":8587,"촥":8588,"촦":8589,"촧":8590,"촨":8591,"촩":8592,"촪":8593,"촫":8594,"촬":8595,"촭":8596,"촮":8597,"촯":8598,"촰":8599,"촱":8600,"촲":8601,"촳":8602,"촴":8603,"촵":8604,"촶":8605,"촷":8606,"촸":8607,"촹":8608,"촺":8609,"촻":8610,"촼":8611,"촽":8612,"촾":8613,"촿":8614,"쵀":8615,"쵁":8616,"쵂":8617,"쵃":8618,"쵄":8619,"쵅":8620,"쵆":8621,"쵇":8622,"쵈":8623,"쵉":8624,"쵊":8625,"쵋":8626,"쵌":8627,"쵍":8628,"쵎":8629,"쵏":8630,"쵐":8631,"쵑":8632,"쵒":8633,"쵓":8634,"쵔":8635,"쵕":8636,"쵖":8637,"쵗":8638,"쵘":8639,"쵙":8640,"쵚":8641,"쵛":8642,"최":8643,"쵝":8644,"쵞":8645,"쵟":8646,"쵠":8647,"쵡":8648,"쵢":8649,"쵣":8650,"쵤":8651,"쵥":8652,"쵦":8653,"쵧":8654,"쵨":8655,"쵩":8656,"쵪":8657,"쵫":8658,"쵬":8659,"쵭":8660,"쵮":8661,"쵯":8662,"쵰":8663,"쵱":8664,"쵲":8665,"쵳":8666,"쵴":8667,"쵵":8668,"쵶":8669,"쵷":8670,"쵸":8671,"쵹":8672,"쵺":8673,"쵻":8674,"쵼":8675,"쵽":8676,"쵾":8677,"쵿":8678,"춀":8679,"춁":8680,"춂":8681,"춃":8682,"춄":8683,"춅":8684,"춆":8685,"춇":8686,"춈":8687,"춉":8688,"춊":8689,"춋":8690,"춌":8691,"춍":8692,"춎":8693,"춏":8694,"춐":8695,"춑":8696,"춒":8697,"춓":8698,"추":8699,"축":8700,"춖":8701,"춗":8702,"춘":8703,"춙":8704,"춚":8705,"춛":8706,"출":8707,"춝":8708,"춞":8709,"춟":8710,"춠":8711,"춡":8712,"춢":8713,"춣":8714,"춤":8715,"춥":8716,"춦":8717,"춧":8718,"춨":8719,"충":8720,"춪":8721,"춫":8722,"춬":8723,"춭":8724,"춮":8725,"춯":8726,"춰":8727,"춱":8728,"춲":8729,"춳":8730,"춴":8731,"춵":8732,"춶":8733,"춷":8734,"춸":8735,"춹":8736,"춺":8737,"춻":8738,"춼":8739,"춽":8740,"춾":8741,"춿":8742,"췀":8743,"췁":8744,"췂":8745,"췃":8746,"췄":8747,"췅":8748,"췆":8749,"췇":8750,"췈":8751,"췉":8752,"췊":8753,"췋":8754,"췌":8755,"췍":8756,"췎":8757,"췏":8758,"췐":8759,"췑":8760,"췒":8761,"췓":8762,"췔":8763,"췕":8764,"췖":8765,"췗":8766,"췘":8767,"췙":8768,"췚":8769,"췛":8770,"췜":8771,"췝":8772,"췞":8773,"췟":8774,"췠":8775,"췡":8776,"췢":8777,"췣":8778,"췤":8779,"췥":8780,"췦":8781,"췧":8782,"취":8783,"췩":8784,"췪":8785,"췫":8786,"췬":8787,"췭":8788,"췮":8789,"췯":8790,"췰":8791,"췱":8792,"췲":8793,"췳":8794,"췴":8795,"췵":8796,"췶":8797,"췷":8798,"췸":8799,"췹":8800,"췺":8801,"췻":8802,"췼":8803,"췽":8804,"췾":8805,"췿":8806,"츀":8807,"츁":8808,"츂":8809,"츃":8810,"츄":8811,"츅":8812,"츆":8813,"츇":8814,"츈":8815,"츉":8816,"츊":8817,"츋":8818,"츌":8819,"츍":8820,"츎":8821,"츏":8822,"츐":8823,"츑":8824,"츒":8825,"츓":8826,"츔":8827,"츕":8828,"츖":8829,"츗":8830,"츘":8831,"츙":8832,"츚":8833,"츛":8834,"츜":8835,"츝":8836,"츞":8837,"츟":8838,"츠":8839,"측":8840,"츢":8841,"츣":8842,"츤":8843,"츥":8844,"츦":8845,"츧":8846,"츨":8847,"츩":8848,"츪":8849,"츫":8850,"츬":8851,"츭":8852,"츮":8853,"츯":8854,"츰":8855,"츱":8856,"츲":8857,"츳":8858,"츴":8859,"층":8860,"츶":8861,"츷":8862,"츸":8863,"츹":8864,"츺":8865,"츻":8866,"츼":8867,"츽":8868,"츾":8869,"츿":8870,"칀":8871,"칁":8872,"칂":8873,"칃":8874,"칄":8875,"칅":8876,"칆":8877,"칇":8878,"칈":8879,"칉":8880,"칊":8881,"칋":8882,"칌":8883,"칍":8884,"칎":8885,"칏":8886,"칐":8887,"칑":8888,"칒":8889,"칓":8890,"칔":8891,"칕":8892,"칖":8893,"칗":8894,"치":8895,"칙":8896,"칚":8897,"칛":8898,"친":8899,"칝":8900,"칞":8901,"칟":8902,"칠":8903,"칡":8904,"칢":8905,"칣":8906,"칤":8907,"칥":8908,"칦":8909,"칧":8910,"침":8911,"칩":8912,"칪":8913,"칫":8914,"칬":8915,"칭":8916,"칮":8917,"칯":8918,"칰":8919,"칱":8920,"칲":8921,"칳":8922,"카":8923,"칵":8924,"칶":8925,"칷":8926,"칸":8927,"칹":8928,"칺":8929,"칻":8930,"칼":8931,"칽":8932,"칾":8933,"칿":8934,"캀":8935,"캁":8936,"캂":8937,"캃":8938,"캄":8939,"캅":8940,"캆":8941,"캇":8942,"캈":8943,"캉":8944,"캊":8945,"캋":8946,"캌":8947,"캍":8948,"캎":8949,"캏":8950,"캐":8951,"캑":8952,"캒":8953,"캓":8954,"캔":8955,"캕":8956,"캖":8957,"캗":8958,"캘":8959,"캙":8960,"캚":8961,"캛":8962,"캜":8963,"캝":8964,"캞":8965,"캟":8966,"캠":8967,"캡":8968,"캢":8969,"캣":8970,"캤":8971,"캥":8972,"캦":8973,"캧":8974,"캨":8975,"캩":8976,"캪":8977,"캫":8978,"캬":8979,"캭":8980,"캮":8981,"캯":8982,"캰":8983,"캱":8984,"캲":8985,"캳":8986,"캴":8987,"캵":8988,"캶":8989,"캷":8990,"캸":8991,"캹":8992,"캺":8993,"캻":8994,"캼":8995,"캽":8996,"캾":8997,"캿":8998,"컀":8999,"컁":9000,"컂":9001,"컃":9002,"컄":9003,"컅":9004,"컆":9005,"컇":9006,"컈":9007,"컉":9008,"컊":9009,"컋":9010,"컌":9011,"컍":9012,"컎":9013,"컏":9014,"컐":9015,"컑":9016,"컒":9017,"컓":9018,"컔":9019,"컕":9020,"컖":9021,"컗":9022,"컘":9023,"컙":9024,"컚":9025,"컛":9026,"컜":9027,"컝":9028,"컞":9029,"컟":9030,"컠":9031,"컡":9032,"컢":9033,"컣":9034,"커":9035,"컥":9036,"컦":9037,"컧":9038,"컨":9039,"컩":9040,"컪":9041,"컫":9042,"컬":9043,"컭":9044,"컮":9045,"컯":9046,"컰":9047,"컱":9048,"컲":9049,"컳":9050,"컴":9051,"컵":9052,"컶":9053,"컷":9054,"컹":9055,"컺":9056,"컻":9057,"컼":9058,"컽":9059,"컾":9060,"컿":9061,"케":9062,"켁":9063,"켂":9064,"켃":9065,"켄":9066,"켅":9067,"켆":9068,"켇":9069,"켈":9070,"켉":9071,"켊":9072,"켋":9073,"켌":9074,"켍":9075,"켎":9076,"켏":9077,"켐":9078,"켑":9079,"켒":9080,"켓":9081,"켔":9082,"켕":9083,"켖":9084,"켗":9085,"켘":9086,"켙":9087,"켚":9088,"켛":9089,"켜":9090,"켝":9091,"켞":9092,"켟":9093,"켠":9094,"켡":9095,"켢":9096,"켣":9097,"켤":9098,"켥":9099,"켦":9100,"켧":9101,"켨":9102,"켩":9103,"켪":9104,"켫":9105,"켬":9106,"켭":9107,"켮":9108,"켯":9109,"켰":9110,"켱":9111,"켲":9112,"켳":9113,"켴":9114,"켵":9115,"켶":9116,"켷":9117,"켸":9118,"켹":9119,"켺":9120,"켻":9121,"켼":9122,"켽":9123,"켾":9124,"켿":9125,"콀":9126,"콁":9127,"콂":9128,"콃":9129,"콄":9130,"콅":9131,"콆":9132,"콇":9133,"콈":9134,"콉":9135,"콊":9136,"콋":9137,"콌":9138,"콍":9139,"콎":9140,"콏":9141,"콐":9142,"콑":9143,"콒":9144,"콓":9145,"코":9146,"콕":9147,"콖":9148,"콗":9149,"콘":9150,"콙":9151,"콚":9152,"콛":9153,"콜":9154,"콝":9155,"콞":9156,"콟":9157,"콠":9158,"콡":9159,"콢":9160,"콣":9161,"콤":9162,"콥":9163,"콦":9164,"콧":9165,"콨":9166,"콩":9167,"콪":9168,"콫":9169,"콬":9170,"콭":9171,"콮":9172,"콯":9173,"콰":9174,"콱":9175,"콲":9176,"콳":9177,"콴":9178,"콵":9179,"콶":9180,"콷":9181,"콸":9182,"콹":9183,"콺":9184,"콻":9185,"콼":9186,"콽":9187,"콾":9188,"콿":9189,"쾀":9190,"쾁":9191,"쾂":9192,"쾃":9193,"쾄":9194,"쾅":9195,"쾆":9196,"쾇":9197,"쾈":9198,"쾉":9199,"쾊":9200,"쾋":9201,"쾌":9202,"쾍":9203,"쾎":9204,"쾏":9205,"쾐":9206,"쾑":9207,"쾒":9208,"쾓":9209,"쾔":9210,"쾕":9211,"쾖":9212,"쾗":9213,"쾘":9214,"쾙":9215,"쾚":9216,"쾛":9217,"쾜":9218,"쾝":9219,"쾞":9220,"쾟":9221,"쾠":9222,"쾡":9223,"쾢":9224,"쾣":9225,"쾤":9226,"쾥":9227,"쾦":9228,"쾧":9229,"쾨":9230,"쾩":9231,"쾪":9232,"쾫":9233,"쾬":9234,"쾭":9235,"쾮":9236,"쾯":9237,"쾰":9238,"쾱":9239,"쾲":9240,"쾳":9241,"쾴":9242,"쾵":9243,"쾶":9244,"쾷":9245,"쾸":9246,"쾹":9247,"쾺":9248,"쾻":9249,"쾼":9250,"쾽":9251,"쾾":9252,"쾿":9253,"쿀":9254,"쿁":9255,"쿂":9256,"쿃":9257,"쿄":9258,"쿅":9259,"쿆":9260,"쿇":9261,"쿈":9262,"쿉":9263,"쿊":9264,"쿋":9265,"쿌":9266,"쿍":9267,"쿎":9268,"쿏":9269,"쿐":9270,"쿑":9271,"쿒":9272,"쿓":9273,"쿔":9274,"쿕":9275,"쿖":9276,"쿗":9277,"쿘":9278,"쿙":9279,"쿚":9280,"쿛":9281,"쿜":9282,"쿝":9283,"쿞":9284,"쿟":9285,"쿠":9286,"쿡":9287,"쿢":9288,"쿣":9289,"쿤":9290,"쿥":9291,"쿦":9292,"쿧":9293,"쿨":9294,"쿩":9295,"쿪":9296,"쿫":9297,"쿬":9298,"쿭":9299,"쿮":9300,"쿯":9301,"쿰":9302,"쿱":9303,"쿲":9304,"쿳":9305,"쿴":9306,"쿵":9307,"쿶":9308,"쿷":9309,"쿸":9310,"쿹":9311,"쿺":9312,"쿻":9313,"쿼":9314,"쿽":9315,"쿾":9316,"쿿":9317,"퀀":9318,"퀁":9319,"퀂":9320,"퀃":9321,"퀄":9322,"퀅":9323,"퀆":9324,"퀇":9325,"퀈":9326,"퀉":9327,"퀊":9328,"퀋":9329,"퀌":9330,"퀍":9331,"퀎":9332,"퀏":9333,"퀐":9334,"퀑":9335,"퀒":9336,"퀓":9337,"퀔":9338,"퀕":9339,"퀖":9340,"퀗":9341,"퀘":9342,"퀙":9343,"퀚":9344,"퀛":9345,"퀜":9346,"퀝":9347,"퀞":9348,"퀟":9349,"퀠":9350,"퀡":9351,"퀢":9352,"퀣":9353,"퀤":9354,"퀥":9355,"퀦":9356,"퀧":9357,"퀨":9358,"퀩":9359,"퀪":9360,"퀫":9361,"퀬":9362,"퀭":9363,"퀮":9364,"퀯":9365,"퀰":9366,"퀱":9367,"퀲":9368,"퀳":9369,"퀴":9370,"퀵":9371,"퀶":9372,"퀷":9373,"퀸":9374,"퀹":9375,"퀺":9376,"퀻":9377,"퀼":9378,"퀽":9379,"퀾":9380,"퀿":9381,"큀":9382,"큁":9383,"큂":9384,"큃":9385,"큄":9386,"큅":9387,"큆":9388,"큇":9389,"큈":9390,"큉":9391,"큊":9392,"큋":9393,"큌":9394,"큍":9395,"큎":9396,"큏":9397,"큐":9398,"큑":9399,"큒":9400,"큓":9401,"큔":9402,"큕":9403,"큖":9404,"큗":9405,"큘":9406,"큙":9407,"큚":9408,"큛":9409,"큜":9410,"큝":9411,"큞":9412,"큟":9413,"큠":9414,"큡":9415,"큢":9416,"큣":9417,"큤":9418,"큥":9419,"큦":9420,"큧":9421,"큨":9422,"큩":9423,"큪":9424,"큫":9425,"크":9426,"큭":9427,"큮":9428,"큯":9429,"큰":9430,"큱":9431,"큲":9432,"큳":9433,"클":9434,"큵":9435,"큶":9436,"큷":9437,"큸":9438,"큹":9439,"큺":9440,"큻":9441,"큼":9442,"큽":9443,"큾":9444,"큿":9445,"킀":9446,"킁":9447,"킂":9448,"킃":9449,"킄":9450,"킅":9451,"킆":9452,"킇":9453,"킈":9454,"킉":9455,"킊":9456,"킋":9457,"킌":9458,"킍":9459,"킎":9460,"킏":9461,"킐":9462,"킑":9463,"킒":9464,"킓":9465,"킔":9466,"킕":9467,"킖":9468,"킗":9469,"킘":9470,"킙":9471,"킚":9472,"킛":9473,"킜":9474,"킝":9475,"킞":9476,"킟":9477,"킠":9478,"킡":9479,"킢":9480,"킣":9481,"키":9482,"킥":9483,"킦":9484,"킧":9485,"킨":9486,"킩":9487,"킪":9488,"킫":9489,"킬":9490,"킭":9491,"킮":9492,"킯":9493,"킰":9494,"킱":9495,"킲":9496,"킳":9497,"킴":9498,"킵":9499,"킶":9500,"킷":9501,"킸":9502,"킹":9503,"킺":9504,"킻":9505,"킼":9506,"킽":9507,"킾":9508,"킿":9509,"타":9510,"탁":9511,"탂":9512,"탃":9513,"탄":9514,"탅":9515,"탆":9516,"탇":9517,"탈":9518,"탉":9519,"탊":9520,"탋":9521,"탌":9522,"탍":9523,"탎":9524,"탏":9525,"탐":9526,"탑":9527,"탒":9528,"탓":9529,"탔":9530,"탕":9531,"탖":9532,"탗":9533,"탘":9534,"탙":9535,"탚":9536,"탛":9537,"태":9538,"택":9539,"탞":9540,"탟":9541,"탠":9542,"탡":9543,"탢":9544,"탣":9545,"탤":9546,"탥":9547,"탦":9548,"탧":9549,"탨":9550,"탩":9551,"탪":9552,"탫":9553,"탬":9554,"탭":9555,"탮":9556,"탯":9557,"탰":9558,"탱":9559,"탲":9560,"탳":9561,"탴":9562,"탵":9563,"탶":9564,"탷":9565,"탸":9566,"탹":9567,"탺":9568,"탻":9569,"탼":9570,"탽":9571,"탾":9572,"탿":9573,"턀":9574,"턁":9575,"턂":9576,"턃":9577,"턄":9578,"턅":9579,"턆":9580,"턇":9581,"턈":9582,"턉":9583,"턊":9584,"턋":9585,"턌":9586,"턍":9587,"턎":9588,"턏":9589,"턐":9590,"턑":9591,"턒":9592,"턓":9593,"턔":9594,"턕":9595,"턖":9596,"턗":9597,"턘":9598,"턙":9599,"턚":9600,"턛":9601,"턜":9602,"턝":9603,"턞":9604,"턟":9605,"턠":9606,"턡":9607,"턢":9608,"턣":9609,"턤":9610,"턥":9611,"턦":9612,"턧":9613,"턨":9614,"턩":9615,"턪":9616,"턫":9617,"턬":9618,"턭":9619,"턮":9620,"턯":9621,"터":9622,"턱":9623,"턲":9624,"턳":9625,"턴":9626,"턵":9627,"턶":9628,"턷":9629,"털":9630,"턹":9631,"턺":9632,"턻":9633,"턼":9634,"턽":9635,"턾":9636,"턿":9637,"텀":9638,"텁":9639,"텂":9640,"텃":9641,"텅":9642,"텆":9643,"텇":9644,"텈":9645,"텉":9646,"텊":9647,"텋":9648,"테":9649,"텍":9650,"텎":9651,"텏":9652,"텐":9653,"텑":9654,"텒":9655,"텓":9656,"텔":9657,"텕":9658,"텖":9659,"텗":9660,"텘":9661,"텙":9662,"텚":9663,"텛":9664,"템":9665,"텝":9666,"텞":9667,"텟":9668,"텠":9669,"텡":9670,"텢":9671,"텣":9672,"텤":9673,"텥":9674,"텦":9675,"텧":9676,"텨":9677,"텩":9678,"텪":9679,"텫":9680,"텬":9681,"텭":9682,"텮":9683,"텯":9684,"텰":9685,"텱":9686,"텲":9687,"텳":9688,"텴":9689,"텵":9690,"텶":9691,"텷":9692,"텸":9693,"텹":9694,"텺":9695,"텻":9696,"텼":9697,"텽":9698,"텾":9699,"텿":9700,"톀":9701,"톁":9702,"톂":9703,"톃":9704,"톄":9705,"톅":9706,"톆":9707,"톇":9708,"톈":9709,"톉":9710,"톊":9711,"톋":9712,"톌":9713,"톍":9714,"톎":9715,"톏":9716,"톐":9717,"톑":9718,"톒":9719,"톓":9720,"톔":9721,"톕":9722,"톖":9723,"톗":9724,"톘":9725,"톙":9726,"톚":9727,"톛":9728,"톜":9729,"톝":9730,"톞":9731,"톟":9732,"토":9733,"톡":9734,"톢":9735,"톣":9736,"톤":9737,"톥":9738,"톦":9739,"톧":9740,"톨":9741,"톩":9742,"톪":9743,"톫":9744,"톬":9745,"톭":9746,"톮":9747,"톯":9748,"톰":9749,"톱":9750,"톲":9751,"톳":9752,"톴":9753,"통":9754,"톶":9755,"톷":9756,"톸":9757,"톹":9758,"톺":9759,"톻":9760,"톼":9761,"톽":9762,"톾":9763,"톿":9764,"퇀":9765,"퇁":9766,"퇂":9767,"퇃":9768,"퇄":9769,"퇅":9770,"퇆":9771,"퇇":9772,"퇈":9773,"퇉":9774,"퇊":9775,"퇋":9776,"퇌":9777,"퇍":9778,"퇎":9779,"퇏":9780,"퇐":9781,"퇑":9782,"퇒":9783,"퇓":9784,"퇔":9785,"퇕":9786,"퇖":9787,"퇗":9788,"퇘":9789,"퇙":9790,"퇚":9791,"퇛":9792,"퇜":9793,"퇝":9794,"퇞":9795,"퇟":9796,"퇠":9797,"퇡":9798,"퇢":9799,"퇣":9800,"퇤":9801,"퇥":9802,"퇦":9803,"퇧":9804,"퇨":9805,"퇩":9806,"퇪":9807,"퇫":9808,"퇬":9809,"퇭":9810,"퇮":9811,"퇯":9812,"퇰":9813,"퇱":9814,"퇲":9815,"퇳":9816,"퇴":9817,"퇵":9818,"퇶":9819,"퇷":9820,"퇸":9821,"퇹":9822,"퇺":9823,"퇻":9824,"퇼":9825,"퇽":9826,"퇾":9827,"퇿":9828,"툀":9829,"툁":9830,"툂":9831,"툃":9832,"툄":9833,"툅":9834,"툆":9835,"툇":9836,"툈":9837,"툉":9838,"툊":9839,"툋":9840,"툌":9841,"툍":9842,"툎":9843,"툏":9844,"툐":9845,"툑":9846,"툒":9847,"툓":9848,"툔":9849,"툕":9850,"툖":9851,"툗":9852,"툘":9853,"툙":9854,"툚":9855,"툛":9856,"툜":9857,"툝":9858,"툞":9859,"툟":9860,"툠":9861,"툡":9862,"툢":9863,"툣":9864,"툤":9865,"툥":9866,"툦":9867,"툧":9868,"툨":9869,"툩":9870,"툪":9871,"툫":9872,"투":9873,"툭":9874,"툮":9875,"툯":9876,"툰":9877,"툱":9878,"툲":9879,"툳":9880,"툴":9881,"툵":9882,"툶":9883,"툷":9884,"툸":9885,"툹":9886,"툺":9887,"툻":9888,"툼":9889,"툽":9890,"툾":9891,"툿":9892,"퉀":9893,"퉁":9894,"퉂":9895,"퉃":9896,"퉄":9897,"퉅":9898,"퉆":9899,"퉇":9900,"퉈":9901,"퉉":9902,"퉊":9903,"퉋":9904,"퉌":9905,"퉍":9906,"퉎":9907,"퉏":9908,"퉐":9909,"퉑":9910,"퉒":9911,"퉓":9912,"퉔":9913,"퉕":9914,"퉖":9915,"퉗":9916,"퉘":9917,"퉙":9918,"퉚":9919,"퉛":9920,"퉜":9921,"퉝":9922,"퉞":9923,"퉟":9924,"퉠":9925,"퉡":9926,"퉢":9927,"퉣":9928,"퉤":9929,"퉥":9930,"퉦":9931,"퉧":9932,"퉨":9933,"퉩":9934,"퉪":9935,"퉫":9936,"퉬":9937,"퉭":9938,"퉮":9939,"퉯":9940,"퉰":9941,"퉱":9942,"퉲":9943,"퉳":9944,"퉴":9945,"퉵":9946,"퉶":9947,"퉷":9948,"퉸":9949,"퉹":9950,"퉺":9951,"퉻":9952,"퉼":9953,"퉽":9954,"퉾":9955,"퉿":9956,"튀":9957,"튁":9958,"튂":9959,"튃":9960,"튄":9961,"튅":9962,"튆":9963,"튇":9964,"튈":9965,"튉":9966,"튊":9967,"튋":9968,"튌":9969,"튍":9970,"튎":9971,"튏":9972,"튐":9973,"튑":9974,"튒":9975,"튓":9976,"튔":9977,"튕":9978,"튖":9979,"튗":9980,"튘":9981,"튙":9982,"튚":9983,"튛":9984,"튜":9985,"튝":9986,"튞":9987,"튟":9988,"튠":9989,"튡":9990,"튢":9991,"튣":9992,"튤":9993,"튥":9994,"튦":9995,"튧":9996,"튨":9997,"튩":9998,"튪":9999,"튫":10000,"튬":10001,"튭":10002,"튮":10003,"튯":10004,"튰":10005,"튱":10006,"튲":10007,"튳":10008,"튴":10009,"튵":10010,"튶":10011,"튷":10012,"트":10013,"특":10014,"튺":10015,"튻":10016,"튼":10017,"튽":10018,"튾":10019,"튿":10020,"틀":10021,"틁":10022,"틂":10023,"틃":10024,"틄":10025,"틅":10026,"틆":10027,"틇":10028,"틈":10029,"틉":10030,"틊":10031,"틋":10032,"틌":10033,"틍":10034,"틎":10035,"틏":10036,"틐":10037,"틑":10038,"틒":10039,"틓":10040,"틔":10041,"틕":10042,"틖":10043,"틗":10044,"틘":10045,"틙":10046,"틚":10047,"틛":10048,"틜":10049,"틝":10050,"틞":10051,"틟":10052,"틠":10053,"틡":10054,"틢":10055,"틣":10056,"틤":10057,"틥":10058,"틦":10059,"틧":10060,"틨":10061,"틩":10062,"틪":10063,"틫":10064,"틬":10065,"틭":10066,"틮":10067,"틯":10068,"티":10069,"틱":10070,"틲":10071,"틳":10072,"틴":10073,"틵":10074,"틶":10075,"틷":10076,"틸":10077,"틹":10078,"틺":10079,"틻":10080,"틼":10081,"틽":10082,"틾":10083,"틿":10084,"팀":10085,"팁":10086,"팂":10087,"팃":10088,"팄":10089,"팅":10090,"팆":10091,"팇":10092,"팈":10093,"팉":10094,"팊":10095,"팋":10096,"파":10097,"팍":10098,"팎":10099,"팏":10100,"판":10101,"팑":10102,"팒":10103,"팓":10104,"팔":10105,"팕":10106,"팖":10107,"팗":10108,"팘":10109,"팙":10110,"팚":10111,"팛":10112,"팜":10113,"팝":10114,"팞":10115,"팟":10116,"팠":10117,"팡":10118,"팢":10119,"팣":10120,"팤":10121,"팥":10122,"팦":10123,"팧":10124,"패":10125,"팩":10126,"팪":10127,"팫":10128,"팬":10129,"팭":10130,"팮":10131,"팯":10132,"팰":10133,"팱":10134,"팲":10135,"팳":10136,"팴":10137,"팵":10138,"팶":10139,"팷":10140,"팸":10141,"팹":10142,"팺":10143,"팻":10144,"팽":10145,"팾":10146,"팿":10147,"퍀":10148,"퍁":10149,"퍂":10150,"퍃":10151,"퍄":10152,"퍅":10153,"퍆":10154,"퍇":10155,"퍈":10156,"퍉":10157,"퍊":10158,"퍋":10159,"퍌":10160,"퍍":10161,"퍎":10162,"퍏":10163,"퍐":10164,"퍑":10165,"퍒":10166,"퍓":10167,"퍔":10168,"퍕":10169,"퍖":10170,"퍗":10171,"퍘":10172,"퍙":10173,"퍚":10174,"퍛":10175,"퍜":10176,"퍝":10177,"퍞":10178,"퍟":10179,"퍠":10180,"퍡":10181,"퍢":10182,"퍣":10183,"퍤":10184,"퍥":10185,"퍦":10186,"퍧":10187,"퍨":10188,"퍩":10189,"퍪":10190,"퍫":10191,"퍬":10192,"퍭":10193,"퍮":10194,"퍯":10195,"퍰":10196,"퍱":10197,"퍲":10198,"퍳":10199,"퍴":10200,"퍵":10201,"퍶":10202,"퍷":10203,"퍸":10204,"퍹":10205,"퍺":10206,"퍻":10207,"퍼":10208,"퍽":10209,"퍾":10210,"퍿":10211,"펀":10212,"펁":10213,"펂":10214,"펃":10215,"펄":10216,"펅":10217,"펆":10218,"펇":10219,"펈":10220,"펉":10221,"펊":10222,"펋":10223,"펌":10224,"펍":10225,"펎":10226,"펏":10227,"펐":10228,"펑":10229,"펒":10230,"펓":10231,"펔":10232,"펕":10233,"펖":10234,"펗":10235,"페":10236,"펙":10237,"펚":10238,"펛":10239,"펜":10240,"펝":10241,"펞":10242,"펟":10243,"펠":10244,"펡":10245,"펢":10246,"펣":10247,"펤":10248,"펥":10249,"펦":10250,"펧":10251,"펨":10252,"펩":10253,"펪":10254,"펫":10255,"펬":10256,"펭":10257,"펮":10258,"펯":10259,"펰":10260,"펱":10261,"펲":10262,"펳":10263,"펴":10264,"펵":10265,"펶":10266,"펷":10267,"편":10268,"펹":10269,"펺":10270,"펻":10271,"펼":10272,"펽":10273,"펾":10274,"펿":10275,"폀":10276,"폁":10277,"폂":10278,"폃":10279,"폄":10280,"폅":10281,"폆":10282,"폇":10283,"평":10284,"폊":10285,"폋":10286,"폌":10287,"폍":10288,"폎":10289,"폏":10290,"폐":10291,"폑":10292,"폒":10293,"폓":10294,"폔":10295,"폕":10296,"폖":10297,"폗":10298,"폘":10299,"폙":10300,"폚":10301,"폛":10302,"폜":10303,"폝":10304,"폞":10305,"폟":10306,"폠":10307,"폡":10308,"폢":10309,"폣":10310,"폤":10311,"폥":10312,"폦":10313,"폧":10314,"폨":10315,"폩":10316,"폪":10317,"폫":10318,"포":10319,"폭":10320,"폮":10321,"폯":10322,"폰":10323,"폱":10324,"폲":10325,"폳":10326,"폴":10327,"폵":10328,"폶":10329,"폷":10330,"폸":10331,"폹":10332,"폺":10333,"폻":10334,"폼":10335,"폽":10336,"폾":10337,"폿":10338,"퐀":10339,"퐁":10340,"퐂":10341,"퐃":10342,"퐄":10343,"퐅":10344,"퐆":10345,"퐇":10346,"퐈":10347,"퐉":10348,"퐊":10349,"퐋":10350,"퐌":10351,"퐍":10352,"퐎":10353,"퐏":10354,"퐐":10355,"퐑":10356,"퐒":10357,"퐓":10358,"퐔":10359,"퐕":10360,"퐖":10361,"퐗":10362,"퐘":10363,"퐙":10364,"퐚":10365,"퐛":10366,"퐜":10367,"퐝":10368,"퐞":10369,"퐟":10370,"퐠":10371,"퐡":10372,"퐢":10373,"퐣":10374,"퐤":10375,"퐥":10376,"퐦":10377,"퐧":10378,"퐨":10379,"퐩":10380,"퐪":10381,"퐫":10382,"퐬":10383,"퐭":10384,"퐮":10385,"퐯":10386,"퐰":10387,"퐱":10388,"퐲":10389,"퐳":10390,"퐴":10391,"퐵":10392,"퐶":10393,"퐷":10394,"퐸":10395,"퐹":10396,"퐺":10397,"퐻":10398,"퐼":10399,"퐽":10400,"퐾":10401,"퐿":10402,"푀":10403,"푁":10404,"푂":10405,"푃":10406,"푄":10407,"푅":10408,"푆":10409,"푇":10410,"푈":10411,"푉":10412,"푊":10413,"푋":10414,"푌":10415,"푍":10416,"푎":10417,"푏":10418,"푐":10419,"푑":10420,"푒":10421,"푓":10422,"푔":10423,"푕":10424,"푖":10425,"푗":10426,"푘":10427,"푙":10428,"푚":10429,"푛":10430,"표":10431,"푝":10432,"푞":10433,"푟":10434,"푠":10435,"푡":10436,"푢":10437,"푣":10438,"푤":10439,"푥":10440,"푦":10441,"푧":10442,"푨":10443,"푩":10444,"푪":10445,"푫":10446,"푬":10447,"푭":10448,"푮":10449,"푯":10450,"푰":10451,"푱":10452,"푲":10453,"푳":10454,"푴":10455,"푵":10456,"푶":10457,"푷":10458,"푸":10459,"푹":10460,"푺":10461,"푻":10462,"푼":10463,"푽":10464,"푾":10465,"푿":10466,"풀":10467,"풁":10468,"풂":10469,"풃":10470,"풄":10471,"풅":10472,"풆":10473,"풇":10474,"품":10475,"풉":10476,"풊":10477,"풋":10478,"풌":10479,"풍":10480,"풎":10481,"풏":10482,"풐":10483,"풑":10484,"풒":10485,"풓":10486,"풔":10487,"풕":10488,"풖":10489,"풗":10490,"풘":10491,"풙":10492,"풚":10493,"풛":10494,"풜":10495,"풝":10496,"풞":10497,"풟":10498,"풠":10499,"풡":10500,"풢":10501,"풣":10502,"풤":10503,"풥":10504,"풦":10505,"풧":10506,"풨":10507,"풩":10508,"풪":10509,"풫":10510,"풬":10511,"풭":10512,"풮":10513,"풯":10514,"풰":10515,"풱":10516,"풲":10517,"풳":10518,"풴":10519,"풵":10520,"풶":10521,"풷":10522,"풸":10523,"풹":10524,"풺":10525,"풻":10526,"풼":10527,"풽":10528,"풾":10529,"풿":10530,"퓀":10531,"퓁":10532,"퓂":10533,"퓃":10534,"퓄":10535,"퓅":10536,"퓆":10537,"퓇":10538,"퓈":10539,"퓉":10540,"퓊":10541,"퓋":10542,"퓌":10543,"퓍":10544,"퓎":10545,"퓏":10546,"퓐":10547,"퓑":10548,"퓒":10549,"퓓":10550,"퓔":10551,"퓕":10552,"퓖":10553,"퓗":10554,"퓘":10555,"퓙":10556,"퓚":10557,"퓛":10558,"퓜":10559,"퓝":10560,"퓞":10561,"퓟":10562,"퓠":10563,"퓡":10564,"퓢":10565,"퓣":10566,"퓤":10567,"퓥":10568,"퓦":10569,"퓧":10570,"퓨":10571,"퓩":10572,"퓪":10573,"퓫":10574,"퓬":10575,"퓭":10576,"퓮":10577,"퓯":10578,"퓰":10579,"퓱":10580,"퓲":10581,"퓳":10582,"퓴":10583,"퓵":10584,"퓶":10585,"퓷":10586,"퓸":10587,"퓹":10588,"퓺":10589,"퓻":10590,"퓼":10591,"퓽":10592,"퓾":10593,"퓿":10594,"픀":10595,"픁":10596,"픂":10597,"픃":10598,"프":10599,"픅":10600,"픆":10601,"픇":10602,"픈":10603,"픉":10604,"픊":10605,"픋":10606,"플":10607,"픍":10608,"픎":10609,"픏":10610,"픐":10611,"픑":10612,"픒":10613,"픓":10614,"픔":10615,"픕":10616,"픖":10617,"픗":10618,"픘":10619,"픙":10620,"픚":10621,"픛":10622,"픜":10623,"픝":10624,"픞":10625,"픟":10626,"픠":10627,"픡":10628,"픢":10629,"픣":10630,"픤":10631,"픥":10632,"픦":10633,"픧":10634,"픨":10635,"픩":10636,"픪":10637,"픫":10638,"픬":10639,"픭":10640,"픮":10641,"픯":10642,"픰":10643,"픱":10644,"픲":10645,"픳":10646,"픴":10647,"픵":10648,"픶":10649,"픷":10650,"픸":10651,"픹":10652,"픺":10653,"픻":10654,"피":10655,"픽":10656,"픾":10657,"픿":10658,"핀":10659,"핁":10660,"핂":10661,"핃":10662,"필":10663,"핅":10664,"핆":10665,"핇":10666,"핈":10667,"핉":10668,"핊":10669,"핋":10670,"핌":10671,"핍":10672,"핎":10673,"핏":10674,"핐":10675,"핑":10676,"핒":10677,"핓":10678,"핔":10679,"핕":10680,"핖":10681,"핗":10682,"하":10683,"학":10684,"핚":10685,"핛":10686,"한":10687,"핝":10688,"핞":10689,"핟":10690,"할":10691,"핡":10692,"핢":10693,"핣":10694,"핤":10695,"핥":10696,"핦":10697,"핧":10698,"함":10699,"합":10700,"핪":10701,"핫":10702,"핬":10703,"항":10704,"핮":10705,"핯":10706,"핰":10707,"핱":10708,"핲":10709,"핳":10710,"해":10711,"핵":10712,"핶":10713,"핷":10714,"핸":10715,"핹":10716,"핺":10717,"핻":10718,"핼":10719,"핽":10720,"핾":10721,"핿":10722,"햀":10723,"햁":10724,"햂":10725,"햃":10726,"햄":10727,"햅":10728,"햆":10729,"햇":10730,"했":10731,"행":10732,"햊":10733,"햋":10734,"햌":10735,"햍":10736,"햎":10737,"햏":10738,"햐":10739,"햑":10740,"햒":10741,"햓":10742,"햔":10743,"햕":10744,"햖":10745,"햗":10746,"햘":10747,"햙":10748,"햚":10749,"햛":10750,"햜":10751,"햝":10752,"햞":10753,"햟":10754,"햠":10755,"햡":10756,"햢":10757,"햣":10758,"햤":10759,"향":10760,"햦":10761,"햧":10762,"햨":10763,"햩":10764,"햪":10765,"햫":10766,"햬":10767,"햭":10768,"햮":10769,"햯":10770,"햰":10771,"햱":10772,"햲":10773,"햳":10774,"햴":10775,"햵":10776,"햶":10777,"햷":10778,"햸":10779,"햹":10780,"햺":10781,"햻":10782,"햼":10783,"햽":10784,"햾":10785,"햿":10786,"헁":10787,"헂":10788,"헃":10789,"헄":10790,"헅":10791,"헆":10792,"헇":10793,"허":10794,"헉":10795,"헊":10796,"헋":10797,"헌":10798,"헍":10799,"헎":10800,"헏":10801,"헐":10802,"헑":10803,"헒":10804,"헓":10805,"헔":10806,"헕":10807,"헖":10808,"헗":10809,"험":10810,"헙":10811,"헚":10812,"헛":10813,"헝":10814,"헞":10815,"헟":10816,"헠":10817,"헡":10818,"헢":10819,"헣":10820,"헤":10821,"헥":10822,"헦":10823,"헧":10824,"헨":10825,"헩":10826,"헪":10827,"헫":10828,"헬":10829,"헭":10830,"헮":10831,"헯":10832,"헰":10833,"헱":10834,"헲":10835,"헳":10836,"헴":10837,"헵":10838,"헶":10839,"헷":10840,"헹":10841,"헺":10842,"헻":10843,"헼":10844,"헽":10845,"헾":10846,"헿":10847,"혀":10848,"혁":10849,"혂":10850,"혃":10851,"현":10852,"혅":10853,"혆":10854,"혇":10855,"혈":10856,"혉":10857,"혊":10858,"혋":10859,"혌":10860,"혍":10861,"혎":10862,"혏":10863,"혐":10864,"협":10865,"혒":10866,"혓":10867,"혔":10868,"형":10869,"혖":10870,"혗":10871,"혘":10872,"혙":10873,"혚":10874,"혛":10875,"혜":10876,"혝":10877,"혞":10878,"혟":10879,"혠":10880,"혡":10881,"혢":10882,"혣":10883,"혤":10884,"혥":10885,"혦":10886,"혧":10887,"혨":10888,"혩":10889,"혪":10890,"혫":10891,"혬":10892,"혭":10893,"혮":10894,"혯":10895,"혰":10896,"혱":10897,"혲":10898,"혳":10899,"혴":10900,"혵":10901,"혶":10902,"혷":10903,"호":10904,"혹":10905,"혺":10906,"혻":10907,"혼":10908,"혽":10909,"혾":10910,"혿":10911,"홀":10912,"홁":10913,"홂":10914,"홃":10915,"홄":10916,"홅":10917,"홆":10918,"홇":10919,"홈":10920,"홉":10921,"홊":10922,"홋":10923,"홌":10924,"홍":10925,"홎":10926,"홏":10927,"홐":10928,"홑":10929,"홒":10930,"홓":10931,"화":10932,"확":10933,"홖":10934,"홗":10935,"환":10936,"홙":10937,"홚":10938,"홛":10939,"활":10940,"홝":10941,"홞":10942,"홟":10943,"홠":10944,"홡":10945,"홢":10946,"홣":10947,"홤":10948,"홥":10949,"홦":10950,"홧":10951,"홨":10952,"황":10953,"홪":10954,"홫":10955,"홬":10956,"홭":10957,"홮":10958,"홯":10959,"홰":10960,"홱":10961,"홲":10962,"홳":10963,"홴":10964,"홵":10965,"홶":10966,"홷":10967,"홸":10968,"홹":10969,"홺":10970,"홻":10971,"홼":10972,"홽":10973,"홾":10974,"홿":10975,"횀":10976,"횁":10977,"횂":10978,"횃":10979,"횄":10980,"횅":10981,"횆":10982,"횇":10983,"횈":10984,"횉":10985,"횊":10986,"횋":10987,"회":10988,"획":10989,"횎":10990,"횏":10991,"횐":10992,"횑":10993,"횒":10994,"횓":10995,"횔":10996,"횕":10997,"횖":10998,"횗":10999,"횘":11000,"횙":11001,"횚":11002,"횛":11003,"횜":11004,"횝":11005,"횞":11006,"횟":11007,"횠":11008,"횡":11009,"횢":11010,"횣":11011,"횤":11012,"횥":11013,"횦":11014,"횧":11015,"효":11016,"횩":11017,"횪":11018,"횫":11019,"횬":11020,"횭":11021,"횮":11022,"횯":11023,"횰":11024,"횱":11025,"횲":11026,"횳":11027,"횴":11028,"횵":11029,"횶":11030,"횷":11031,"횸":11032,"횹":11033,"횺":11034,"횻":11035,"횼":11036,"횽":11037,"횾":11038,"횿":11039,"훀":11040,"훁":11041,"훂":11042,"훃":11043,"후":11044,"훅":11045,"훆":11046,"훇":11047,"훈":11048,"훉":11049,"훊":11050,"훋":11051,"훌":11052,"훍":11053,"훎":11054,"훏":11055,"훐":11056,"훑":11057,"훒":11058,"훓":11059,"훔":11060,"훕":11061,"훖":11062,"훗":11063,"훘":11064,"훙":11065,"훚":11066,"훛":11067,"훜":11068,"훝":11069,"훞":11070,"훟":11071,"훠":11072,"훡":11073,"훢":11074,"훣":11075,"훤":11076,"훥":11077,"훦":11078,"훧":11079,"훨":11080,"훩":11081,"훪":11082,"훫":11083,"훬":11084,"훭":11085,"훮":11086,"훯":11087,"훰":11088,"훱":11089,"훲":11090,"훳":11091,"훴":11092,"훵":11093,"훶":11094,"훷":11095,"훸":11096,"훹":11097,"훺":11098,"훻":11099,"훼":11100,"훽":11101,"훾":11102,"훿":11103,"휀":11104,"휁":11105,"휂":11106,"휃":11107,"휄":11108,"휅":11109,"휆":11110,"휇":11111,"휈":11112,"휉":11113,"휊":11114,"휋":11115,"휌":11116,"휍":11117,"휎":11118,"휏":11119,"휐":11120,"휑":11121,"휒":11122,"휓":11123,"휔":11124,"휕":11125,"휖":11126,"휗":11127,"휘":11128,"휙":11129,"휚":11130,"휛":11131,"휜":11132,"휝":11133,"휞":11134,"휟":11135,"휠":11136,"휡":11137,"휢":11138,"휣":11139,"휤":11140,"휥":11141,"휦":11142,"휧":11143,"휨":11144,"휩":11145,"휪":11146,"휫":11147,"휬":11148,"휭":11149,"휮":11150,"휯":11151,"휰":11152,"휱":11153,"휲":11154,"휳":11155,"휴":11156,"휵":11157,"휶":11158,"휷":11159,"휸":11160,"휹":11161,"휺":11162,"휻":11163,"휼":11164,"휽":11165,"휾":11166,"휿":11167,"흀":11168,"흁":11169,"흂":11170,"흃":11171,"흄":11172,"흅":11173,"흆":11174,"흇":11175,"흈":11176,"흉":11177,"흊":11178,"흋":11179,"흌":11180,"흍":11181,"흎":11182,"흏":11183,"흐":11184,"흑":11185,"흒":11186,"흓":11187,"흔":11188,"흕":11189,"흖":11190,"흗":11191,"흘":11192,"흙":11193,"흚":11194,"흛":11195,"흜":11196,"흝":11197,"흞":11198,"흟":11199,"흠":11200,"흡":11201,"흢":11202,"흣":11203,"흤":11204,"흥":11205,"흦":11206,"흧":11207,"흨":11208,"흩":11209,"흪":11210,"흫":11211,"희":11212,"흭":11213,"흮":11214,"흯":11215,"흰":11216,"흱":11217,"흲":11218,"흳":11219,"흵":11220,"흶":11221,"흷":11222,"흸":11223,"흹":11224,"흺":11225,"흻":11226,"흼":11227,"흽":11228,"흾":11229,"흿":11230,"힀":11231,"힁":11232,"힂":11233,"힃":11234,"힄":11235,"힅":11236,"힆":11237,"힇":11238,"히":11239,"힉":11240,"힊":11241,"힋":11242,"힌":11243,"힍":11244,"힎":11245,"힏":11246,"힐":11247,"힑":11248,"힒":11249,"힓":11250,"힔":11251,"힕":11252,"힖":11253,"힗":11254,"힘":11255,"힙":11256,"힚":11257,"힛":11258,"힜":11259,"힝":11260,"힞":11261,"힟":11262,"힠":11263,"힡":11264,"힢":11265,"힣":11266,"##1":11267,"##6":11268,"##3":11269,"##9":11270,"##i":11271,"##g":11272,"##h":11273,"##l":11274,"##n":11275,"##e":11276,"##년":11277,"##E":11278,"##T":11279,"##R":11280,"##A":11281,"##C":11282,"##I":11283,"##O":11284,"##N":11285,"##윤":11286,"##S":11287,"##켄":11288,"##드":11289,"##릴":11290,"##개":11291,"##코":11292,"##원":11293,"##숭":11294,"##이":11295,"##8":11296,"##2":11297,"##0":11298,"##5":11299,"##r":11300,"##o":11301,"##v":11302,"##s":11303,"##t":11304,"##7":11305,"##4":11306,"##u":11307,"##실":11308,"##마":11309,"##르":11310,"##a":11311,"##p":11312,"##D":11313,"##F":11314,"##L":11315,"##Y":11316,"##노":11317,"##비":11318,"##m":11319,"##b":11320,"##성":11321,"##c":11322,"##d":11323,"##z":11324,"##y":11325,"##형":11326,"##종":11327,"##세":11328,"##겸":11329,"##로":11330,"##필":11331,"##렌":11332,"##글":11333,"##리":11334,"##콜":11335,"##k":11336,"##f":11337,"##니":11338,"##M":11339,"##광":11340,"##둥":11341,"##q":11342,"##j":11343,"##J":11344,"##주":11345,"##콩":11346,"##일":11347,"##론":11348,"##ㄿ":11349,"##까":11350,"##천":11351,"##숙":11352,"##w":11353,"##Z":11354,"##벌":11355,"##푸":11356,"##라":11357,"##기":11358,"##즈":11359,"##모":11360,"##래":11361,"##교":11362,"##찬":11363,"##상":11364,"##암":11365,"##수":11366,"##용":11367,"##직":11368,"##x":11369,"##따":11370,"##K":11371,"##더":11372,"##프":11373,"##.":11374,"##^":11375,"##]":11376,"##ㅍ":11377,"##ㅅ":11378,"##와":11379,"##H":11380,"##U":11381,"##센":11382,"##베":11383,"##크":11384,"##탐":11385,"##화":11386,"##등":11387,"##선":11388,"##흥":11389,"##자":11390,"##진":11391,"##석":11392,"##쇄":11393,"##구":11394,"##의":11395,"##G":11396,"##남":11397,"##어":11398,"##빗":11399,"##넥":11400,"##스":11401,"##널":11402,"##티":11403,"##인":11404,"##지":11405,"##는":11406,"##학":11407,"##생":11408,"##,":11409,"##'":11410,"##쳐":11411,"##도":11412,"##악":11413,"##가":11414,"##B":11415,"##섹":11416,"##게":11417,"##예":11418,"##치":11419,"##홍":11420,"##호":11421,"##풍":11422,"##제":11423,"##동":11424,"##국":11425,"##갤":11426,"##V":11427,"##X":11428,"##문":11429,"##근":11430,"##사":11431,"##오":11432,"##카":11433,"##적":11434,"##엉":11435,"##에":11436,"##계":11437,"##은":11438,"##썸":11439,"##아":11440,"##평":11441,"##부":11442,"##령":11443,"##핵":11444,"##P":11445,"##시":11446,"##면":11447,"##튀":11448,"##칩":11449,"##간":11450,"##유":11451,"##초":11452,"##민":11453,"##레":11454,"##퍼":11455,"##툰":11456,"##명":11457,"##최":11458,"##승":11459,"##왕":11460,"##경":11461,"##식":11462,"##해":11463,"##서":11464,"##정":11465,"##우":11466,"##장":11467,"##조":11468,"##디":11469,"##란":11470,"##띠":11471,"##약":11472,"##웅":11473,"##나":11474,"##훈":11475,"##췄":11476,"##음":11477,"##응":11478,"##변":11479,"##집":11480,"##합":11481,"##작":11482,"##렁":11483,"##W":11484,"##태":11485,"##관":11486,"##렐":11487,"##야":11488,"##병":11489,"##두":11490,"##소":11491,"##연":11492,"##그":11493,"##너":11494,"##새":11495,"##룸":11496,"##고":11497,"##톨":11498,"##산":11499,"##피":11500,"##큘":11501,"##춘":11502,"##재":11503,"##군":11504,"##감":11505,"##루":11506,"##미":11507,"##한":11508,"##급":11509,"##과":11510,"##위":11511,"##샹":11512,"##쿠":11513,"##다":11514,"##탕":11515,"##강":11516,"##러":11517,"##벅":11518,"##무":11519,"##반":11520,"##바":11521,"##패":11522,"##셀":11523,"##현":11524,"##껍":11525,"##데":11526,"##플":11527,"##트":11528,"##ㅁ":11529,"##향":11530,"##님":11531,"##릉":11532,"##\\":11533,"##{":11534,"##매":11535,"##커":11536,"##같":11537,"##키":11538,"##항":11539,"##배":11540,"##속":11541,"##색":11542,"##준":11543,"##권":11544,"##웨":11545,"##콘":11546,"##짝":11547,"##랏":11548,"##ㅒ":11549,"##끔":11550,"##히":11551,"##여":11552,"##역":11553,"##림":11554,"##타":11555,"##금":11556,"##하":11557,"##슈":11558,"##ㅘ":11559,"##ㅀ":11560,"##길":11561,"##ㅠ":11562,"##누":11563,"##탄":11564,"##박":11565,"##설":11566,"##보":11567,"##파":11568,"##린":11569,"##대":11570,"##랴":11571,"##거":11572,"##복":11573,"##중":11574,"##영":11575,"##월":11576,"##말":11577,"##맥":11578,"##페":11579,"##든":11580,"##-":11581,"##!":11582,"##\"":11583,"##토":11584,"##슌":11585,"##랍":11586,"##슨":11587,"##방":11588,"##법":11589,"##양":11590,"##앗":11591,"##희":11592,"##철":11593,"##랙":11594,"##낙":11595,"##테":11596,"##섬":11597,"##녕":11598,"##걸":11599,"##전":11600,"##송":11601,"##범":11602,"##)":11603,"##물":11604,"##질":11605,"##홀":11606,"##케":11607,"##창":11608,"##순":11609,"##만":11610,"##름":11611,"##울":11612,"##투":11613,"##공":11614,"##샤":11615,"##랑":11616,"##슘":11617,"##각":11618,"##럭":11619,"##버":11620,"##덕":11621,"##곤":11622,"##충":11623,"##착":11624,"##출":11625,"##흡":11626,"##량":11627,"##돈":11628,"##회":11629,"##ㅇ":11630,"##칠":11631,"##던":11632,"##런":11633,"##셜":11634,"##욱":11635,"##셔":11636,"##였":11637,"##싁":11638,"##깨":11639,"##~":11640,"###":11641,"##립":11642,"##신":11643,"##ㄱ":11644,"##윈":11645,"##엄":11646,"##내":11647,"##칸":11648,"##겐":11649,"##칼":11650,"##엇":11651,"##락":11652,"##ㅡ":11653,"##풀":11654,"##들":11655,"##Q":11656,"##클":11657,"##엔":11658,"##묵":11659,"##균":11660,"##력":11661,"##랜":11662,"##안":11663,"##를":11664,"##$":11665,"##결":11666,"##ㅝ":11667,"##ㄳ":11668,"##달":11669,"##룰":11670,"##을":11671,"##분":11672,"##난":11673,"##톤":11674,"##룹":11675,"##엘":11676,"##꺅":11677,"##률":11678,"##삼":11679,"##운":11680,"##머":11681,"##혁":11682,"##챰":11683,"##갑":11684,"##효":11685,"##브":11686,"##귄":11687,"##롤":11688,"##줄":11689,"##꼴":11690,"##흐":11691,"##랄":11692,"##괴":11693,"##행":11694,"##씨":11695,"##몬":11696,"##곡":11697,"##첩":11698,"##규":11699,"##청":11700,"##츠":11701,"##윅":11702,"##터":11703,"##큐":11704,"##블":11705,"##딘":11706,"##켈":11707,"##침":11708,"##략":11709,"##릭":11710,"##즙":11711,"##펀":11712,"##솔":11713,"##?":11714,"##포":11715,"##텐":11716,"##백":11717,"##차":11718,"##뿌":11719,"##요":11720,"##목":11721,"##끼":11722,"##벽":11723,"##익":11724,"##련":11725,"##통":11726,"##판":11727,"##젠":11728,"##총":11729,"##졸":11730,"##%":11731,"##봉":11732,"##격":11733,"##친":11734,"##절":11735,"##었":11736,"##으":11737,"##ㄽ":11738,"##힘":11739,"##털":11740,"##링":11741,"##핰":11742,"##임":11743,"##폴":11744,"##워":11745,"##뻔":11746,"##옐":11747,"##려":11748,"##책":11749,"##꺼":11750,"##뱌":11751,"##메":11752,"##심":11753,"##증":11754,"##불":11755,"##섭":11756,"##셋":11757,"##팅":11758,"##ㅔ":11759,"##답":11760,"##액":11761,"##빈":11762,"##듀":11763,"##웽":11764,"##ㅚ":11765,"##ㅈ":11766,"##촉":11767,"##먼":11768,"##처":11769,"##옌":11770,"##<":11771,"##궁":11772,"##건":11773,"##입":11774,"##팩":11775,"##단":11776,"##훼":11777,"##헌":11778,"##돌":11779,"##혜":11780,"##녀":11781,"##*":11782,"##쟁":11783,"##넘":11784,"##손":11785,"##독":11786,"##넹":11787,"##냑":11788,"##킷":11789,"##덜":11790,"##촬":11791,"##옥":11792,"##존":11793,"##섈":11794,"##펫":11795,"##슬":11796,"##앙":11797,"##족":11798,"##퀴":11799,"##턴":11800,"##망":11801,"##컬":11802,"##=":11803,"##_":11804,"##쇠":11805,"##덩":11806,"##채":11807,"##휘":11808,"##쨔":11809,"##온":11810,"##벨":11811,"##쪽":11812,"##큼":11813,"##ㄷ":11814,"##ㅎ":11815,"##탁":11816,"##틴":11817,"##당":11818,"##협":11819,"##싱":11820,"##것":11821,"##댁":11822,"##징":11823,"##톡":11824,"##젤":11825,"##릿":11826,"##`":11827,"##렬":11828,"##멍":11829,"##삿":11830,"##갓":11831,"##갱":11832,"##짤":11833,"##측":11834,"##ㅆ":11835,"##렛":11836,"##표":11837,"##왈":11838,"##ㅑ":11839,"##ㄶ":11840,"##겧":11841,"##염":11842,"##록":11843,"##곰":11844,"##김":11845,"##쬰":11846,"##덤":11847,"##뚝":11848,"##활":11849,"##람":11850,"##셸":11851,"##깔":11852,"##킹":11853,"##못":11854,"##ㅗ":11855,"##탈":11856,"##궈":11857,"##층":11858,"##견":11859,"##후":11860,"##뜬":11861,"##북":11862,"##번":11863,"##떨":11864,"##쳤":11865,"##넨":11866,"##ㅊ":11867,"##낫":11868,"##꽝":11869,"##엽":11870,"##텅":11871,"##밭":11872,"##점":11873,"##저":11874,"##룽":11875,"##훙":11876,"##귀":11877,"##혼":11878,"##팀":11879,"##애":11880,"##갠":11881,"##환":11882,"##뿐":11883,"##억":11884,"##언":11885,"##샌":11886,"##완":11887,"##짐":11888,"##헤":11889,"##튼":11890,"##펑":11891,"##쾅":11892,"##뽑":11893,"##췌":11894,"##체":11895,"##없":11896,"##ㅏ":11897,"##쉬":11898,"##쓰":11899,"##업":11900,"##율":11901,"##델":11902,"##잎":11903,"##열":11904,"##츤":11905,"##탠":11906,"##ㄹ":11907,"##눈":11908,"##썹":11909,"##죽":11910,"##빵":11911,"##발":11912,"##꽃":11913,"##놀":11914,"##휏":11915,"##챤":11916,"##추":11917,"##져":11918,"##닌":11919,"##ㅋ":11920,"##네":11921,"##션":11922,"##켓":11923,"##뭄":11924,"##ㅛ":11925,"##ㄵ":11926,"##획":11927,"##밟":11928,"##낭":11929,"##텃":11930,"##엡":11931,"##룡":11932,"##허":11933,"##된":11934,"##텔":11935,"##살":11936,"##휴":11937,"##앜":11938,"##롱":11939,"##할":11940,"##때":11941,"##퀘":11942,"##팬":11943,"##짜":11944,"##농":11945,"##몰":11946,"##닝":11947,"##/":11948,"##담":11949,"##뭐":11950,"##맵":11951,"##쟝":11952,"##[":11953,"##늄":11954,"##느":11955,"##품":11956,"##취":11957,"##함":11958,"##륭":11959,"##잘":11960,"##본":11961,"##뇌":11962,"##므":11963,"##퍄":11964,"##밀":11965,"##샘":11966,"##택":11967,"##폰":11968,"##핏":11969,"##}":11970,"##뢰":11971,"##헬":11972,"##(":11973,"##껑":11974,"##골":11975,"##류":11976,"##빙":11977,"##틸":11978,"##칭":11979,"##막":11980,"##꿩":11981,"##럽":11982,"##숑":11983,"##흑":11984,"##험":11985,"##뜨":11986,"##득":11987,"##꾸":11988,"##봇":11989,"##편":11990,"##힐":11991,"##ㅌ":11992,"##얼":11993,"##킬":11994,"##뚜":11995,"##ㅓ":11996,"##쿤":11997,"##엣":11998,"##육":11999,"##쥐":12000,"##넷":12001,"##튜":12002,"##헨":12003,"##펠":12004,"##ㅖ":12005,"##륜":12006,"##샨":12007,"##ㄻ":12008,"##껄":12009,"##날":12010,"##즐":12011,"##덴":12012,"##낰":12013,"##ㄴ":12014,"##밍":12015,"##|":12016,"##알":12017,"##ㄼ":12018,"##며":12019,"##뤼":12020,"##죡":12021,"##촌":12022,"##:":12023,"##벤":12024,"##둑":12025,"##황":12026,"##축":12027,"##졍":12028,"##뇬":12029,"##척":12030,"##ㅕ":12031,"##ㄾ":12032,"##냐":12033,"##별":12034,"##잉":12035,"##쟌":12036,"##십":12037,"##ㅂ":12038,"##붕":12039,"##뱀":12040,"##른":12041,"##찌":12042,"##쭈":12043,"##핫":12044,"##렉":12045,"##빛":12046,"##솥":12047,"##ㅢ":12048,"##싫":12049,"##킨":12050,"##읍":12051,"##멀":12052,"##뿔":12053,"##값":12054,"##캉":12055,"##틀":12056,"##늘":12057,"##;":12058,"##잡":12059,"##긔":12060,"##놈":12061,"##칙":12062,"##륵":12063,"##롄":12064,"##밥":12065,"##굴":12066,"##갈":12067,"##콰":12068,"##봄":12069,"##램":12070,"##꿈":12071,"##뼈":12072,"##쉼":12073,"##맹":12074,"##ㅣ":12075,"##챙":12076,"##ㅄ":12077,"##썬":12078,"##묘":12079,"##@":12080,"##셈":12081,"##몽":12082,"##앱":12083,"##극":12084,"##읓":12085,"##걱":12086,"##얀":12087,"##받":12088,"##술":12089,"##죠":12090,"##놓":12091,"##핳":12092,"##딕":12093,"##쇼":12094,"##숲":12095,"##픽":12096,"##념":12097,"##탑":12098,"##횟":12099,"##웰":12100,"##>":12101,"##녜":12102,"##윌":12103,"##펜":12104,"##ㅜ":12105,"##되":12106,"##옹":12107,"##ㅟ":12108,"##틱":12109,"##멜":12110,"##검":12111,"##꿍":12112,"##떼":12113,"##곱":12114,"##땃":12115,"##폼":12116,"##넉":12117,"##잠":12118,"##럴":12119,"##둘":12120,"##융":12121,"##싹":12122,"##확":12123,"##춤":12124,"##줜":12125,"##뽄":12126,"##삡":12127,"##압":12128,"##먹":12129,"##갰":12130,"##젓":12131,"##외":12132,"##혔":12133,"##믓":12134,"##쩔":12135,"##쥬":12136,"##숫":12137,"##렝":12138,"##닛":12139,"##롬":12140,"##혹":12141,"##료":12142,"##딩":12143,"##큰":12144,"##짱":12145,"##펄":12146,"##쬬":12147,"##객":12148,"##슴":12149,"##믈":12150,"##즘":12151,"##잇":12152,"##돼":12153,"##쿰":12154,"##셩":12155,"##럼":12156,"##빠":12157,"##례":12158,"##빨":12159,"##캐":12160,"##습":12161,"##퀸":12162,"##ㅙ":12163,"##쉐":12164,"##짬":12165,"##ㄺ":12166,"##븐":12167,"##쯤":12168,"##앤":12169,"##끄":12170,"##겨":12171,"##뇨":12172,"##넓":12173,"##또":12174,"##겔":12175,"##잔":12176,"##팔":12177,"##핲":12178,"##벳":12179,"##쳉":12180,"##츄":12181,"##붉":12182,"##맷":12183,"##좌":12184,"##쪠":12185,"##능":12186,"##삭":12187,"##첼":12188,"##밝":12189,"##넬":12190,"##혈":12191,"##덱":12192,"##뿡":12193,"##톰":12194,"##댓":12195,"##빅":12196,"##탸":12197,"##쪼":12198,"##륙":12199,"##&":12200,"##햏":12201,"##올":12202,"##젯":12203,"##쌤":12204,"##움":12205,"##믕":12206,"##홓":12207,"##볼":12208,"##픈":12209,"##렸":12210,"##팁":12211,"##붓":12212,"##먕":12213,"##넌":12214,"##밑":12215,"##햄":12216,"##롸":12217,"##쏼":12218,"##캥":12219,"##뮬":12220,"##ㅞ":12221,"##졌":12222,"##됭":12223,"##했":12224,"##둴":12225,"##퇴":12226,"##흉":12227,"##겜":12228,"##솜":12229,"##첨":12230,"##켤":12231,"##돔":12232,"##냥":12233,"##싸":12234,"##챔":12235,"##렵":12236,"##댄":12237,"##벜":12238,"##잨":12239,"##논":12240,"##톱":12241,"##옛":12242,"##뜻":12243,"##룬":12244,"##앵":12245,"##굿":12246,"##괭":12247,"##쯋":12248,"##접":12249,"##갔":12250,"##앞":12251,"##흔":12252,"##딱":12253,"##갖":12254,"##밴":12255,"##딧":12256,"##촤":12257,"##촷":12258,"##참":12259,"##멘":12260,"##찰":12261,"##튕":12262,"##튭":12263,"##뮐":12264,"##긍":12265,"##욜":12266,"##늬":12267,"##잆":12268,"##븞":12269,"##릾":12270,"##듮":12271,"##뒤":12272,"##랃":12273,"##웃":12274,"##넛":12275,"##엠":12276,"##긴":12277,"##웍":12278,"##욕":12279,"##쌍":12280,"##좋":12281,"##굉":12282,"##궐":12283,"##ㄸ":12284,"##룩":12285,"##헣":12286,"##뉘":12287,"##뛰":12288,"##랭":12289,"##꿨":12290,"##킄":12291,"##짓":12292,"##쌩":12293,"##솨":12294,"##푹":12295,"##봊":12296,"##콤":12297,"##턱":12298,"##끈":12299,"##촨":12300,"##팡":12301,"##뻐":12302,"##낸":12303,"##찮":12304,"##멈":12305,"##빌":12306,"##핑":12307,"##퉁":12308,"##떡":12309,"##옙":12310,"##롮":12311,"##삐":12312,"##죄":12313,"##냇":12314,"##쌰":12315,"##찍":12316,"##꼬":12317,"##겟":12318,"##둠":12319,"##ㅐ":12320,"##얺":12321,"##씌":12322,"##첸":12323,"##쏘":12324,"##깃":12325,"##꽂":12326,"##킥":12327,"##찡":12328,"##픗":12329,"##꼭":12330,"##빼":12331,"##혐":12332,"##쑥":12333,"##셰":12334,"##쿼":12335,"##맨":12336,"##즌":12337,"##뢍":12338,"##돋":12339,"##듯":12340,"##횡":12341,"##ㅃ":12342,"##웬":12343,"##벡":12344,"##궤":12345,"##넴":12346,"##쑹":12347,"##댕":12348,"##템":12349,"##쟈":12350,"##룻":12351,"##퐈":12352,"##툴":12353,"##쩨":12354,"##줏":12355,"##닐":12356,"##쪙":12357,"##뱃":12358,"##꿀":12359,"##캄":12360,"##왜":12361,"##앟":12362,"##꿉":12363,"##끌":12364,"##뻑":12365,"##땀":12366,"##잭":12367,"##텀":12368,"##ㄲ":12369,"##펨":12370,"##돨":12371,"##긑":12372,"##쿨":12373,"##엑":12374,"##텍":12375,"##롭":12376,"##쵸":12377,"##괘":12378,"##릐":12379,"##븨":12380,"##뭇":12381,"##듬":12382,"##특":12383,"##닥":12384,"##땅":12385,"##흠":12386,"##톈":12387,"##랗":12388,"##귿":12389,"##낚":12390,"##뽀":12391,"##춰":12392,"##띤":12393,"##렙":12394,"##았":12395,"##펭":12396,"##쩌":12397,"##쩍":12398,"##닉":12399,"##+":12400,"##쿄":12401,"##톄":12402,"##폭":12403,"##윗":12404,"##콧":12405,"##렇":12406,"##있":12407,"##뜰":12408,"##냄":12409,"##똘":12410,"##맞":12411,"##쳇":12412,"##깥":12413,"##딤":12414,"##츙":12415,"##뉴":12416,"##푼":12417,"##쨩":12418,"##옵":12419,"##쯔":12420,"##써":12421,"##넝":12422,"##휭":12423,"##혀":12424,"##곽":12425,"##좀":12426,"##덮":12427,"##낄":12428,"##걀":12429,"##탱":12430,"##텟":12431,"##읽":12432,"##읅":12433,"##윽":12434,"##둙":12435,"##ㅉ":12436,"##쉑":12437,"##좡":12438,"##믄":12439,"##눌":12440,"##겁":12441,"##롼":12442,"##섯":12443,"##랫":12444,"##룝":12445,"##홈":12446,"##갬":12447,"##캘":12448,"##싀":12449,"##컴":12450,"##뻥":12451,"##핀":12452,"##륨":12453,"##쪄":12454,"##삽":12455,"##뱅":12456,"##멸":12457,"##밸":12458,"##폐":12459,"##헴":12460,"##맛":12461,"##믹":12462,"##뀽":12463,"##좆":12464,"##싄":12465,"##납":12466,"##툼":12467,"##밤":12468,"##퐁":12469,"##깅":12470,"##뷰":12471,"##킴":12472,"##랸":12473,"##챠":12474,"##틉":12475,"##퐐":12476,"##팻":12477,"##삥":12478,"##컨":12479,"##셉":12480,"##풋":12481,"##듣":12482,"##츨":12483,"##갯":12484,"##똥":12485,"##윙":12486,"##줌":12487,"##엿":12488,"##낵":12489,"##싯":12490,"##옾":12491,"##꺽":12492,"##뮤":12493,"##칵":12494,"##쥔":12495,"##엥":12496,"##씬":12497,"##벵":12498,"##뎐":12499,"##녹":12500,"##즁":12501,"##닫":12502,"##흫":12503,"##벗":12504,"##츈":12505,"##떠":12506,"##찜":12507,"##녁":12508,"##옴":12509,"##숍":12510,"##뿜":12511,"##욘":12512,"##꽥":12513,"##숀":12514,"##겠":12515,"##솅":12516,"##컄":12517,"##꺠":12518,"##랩":12519,"##엎":12520,"##뎁":12521,"##둔":12522,"##찐":12523,"##헹":12524,"##냉":12525,"##굽":12526,"##벼":12527,"##횩":12528,"##찾":12529,"##뜽":12530,"##뇽":12531,"##듧":12532,"##튽":12533,"##힉":12534,"##펙":12535,"##탓":12536,"##께":12537,"##딴":12538,"##삠":12539,"##묄":12540,"##튬":12541,"##쎅":12542,"##뙤":12543,"##렘":12544,"##핸":12545,"##홑":12546,"##힌":12547,"##팟":12548,"##헿":12549,"##꾼":12550,"##씸":12551,"##짖":12552,"##앨":12553,"##챱":12554,"##숟":12555,"##헐":12556,"##벙":12557,"##뛸":12558,"##뜷":12559,"##뙗":12560,"##퀙":12561,"##뎀":12562,"##쁘":12563,"##핍":12564,"##엃":12565,"##헗":12566,"##컼":12567,"##묻":12568,"##쉰":12569,"##쿵":12570,"##쭉":12571,"##겹":12572,"##쏙":12573,"##즉":12574,"##딸":12575,"##괄":12576,"##쌥":12577,"##닿":12578,"##삶":12579,"##왑":12580,"##빰":12581,"##쳅":12582,"##겼":12583,"##콕":12584,"##읔":12585,"##엨":12586,"##뎃":12587,"##쫑":12588,"##붙":12589,"##웤":12590,"##릇":12591,"##쓸":12592,"##멱":12593,"##뽕":12594,"##햣":12595,"##햐":12596,"##뮌":12597,"##뾱":12598,"##솽":12599,"##윷":12600,"##슥":12601,"##껌":12602,"##뉵":12603,"##젝":12604,"##뎬":12605,"##깐":12606,"##퉤":12607,"##뒑":12608,"##뒓":12609,"##퀼":12610,"##뚱":12611,"##땡":12612,"##훤":12613,"##깜":12614,"##릅":12615,"##칟":12616,"##뒫":12617,"##슐":12618,"##겋":12619,"##밖":12620,"##캠":12621,"##쏫":12622,"##흣":12623,"##뺙":12624,"##뇰":12625,"##얗":12626,"##듈":12627,"##흰":12628,"##뀌":12629,"##몸":12630,"##샐":12631,"##틈":12632,"##앳":12633,"##꺄":12634,"##늙":12635,"##껏":12636,"##춧":12637,"##꼼":12638,"##볕":12639,"##꺆":12640,"##틔":12641,"##됴":12642,"##딜":12643,"##늅":12644,"##콥":12645,"##댐":12646,"##싕":12647,"##뚠":12648,"##끗":12649,"##뜸":12650,"##씰":12651,"##좟":12652,"##낌":12653,"##촐":12654,"##땐":12655,"##닷":12656,"##굇":12657,"##롯":12658,"##쮜":12659,"##컹":12660,"##쎄":12661,"##팽":12662,"##났":12663,"##퉹":12664,"##잼":12665,"##팥":12666,"##훗":12667,"##늑":12668,"##빱":12669,"##째":12670,"##돗":12671,"##텡":12672,"##팰":12673,"##벰":12674,"##샷":12675,"##렴":12676,"##웁":12677,"##꼰":12678,"##씽":12679,"##뷔":12680,"##쭝":12681,"##쳡":12682,"##멬":12683,"##컥":12684,"##칫":12685,"##끝":12686,"##밋":12687,"##깡":12688,"##켠":12689,"##꿰":12690,"##퓨":12691,"##쟉":12692,"##훔":12693,"##샅":12694,"##짚":12695,"##얌":12696,"##퇸":12697,"##떵":12698,"##얄":12699,"##흙":12700,"##뫼":12701,"##왼":12702,"##둣":12703,"##샴":12704,"##맢":12705,"##곳":12706,"##젴":12707,"##뿅":12708,"##솎":12709,"##쌔":12710,"##뵈":12711,"##셴":12712,"##녘":12713,"##뺑":12714,"##멧":12715,"##듭":12716,"##젬":12717,"##읳":12718,"##뀨":12719,"##핌":12720,"##쿳":12721,"##퍽":12722,"##껴":12723,"##샬":12724,"##쌀":12725,"##숯":12726,"##깁":12727,"##뎍":12728,"##뭉":12729,"##꼐":12730,"##쳬":12731,"##쀳":12732,"##뜩":12733,"##쓱":12734,"##씩":12735,"##끵":12736,"##왔":12737,"##빳":12738,"##켜":12739,"##팍":12740,"##깊":12741,"##븀":12742,"##멋":12743,"##냙":12744,"##젼":12745,"##닯":12746,"##닭":12747,"##뢸":12748,"##췩":12749,"##릏":12750,"##맘":12751,"##쌓":12752,"##캔":12753,"##흘":12754,"##넡":12755,"##썰":12756,"##귖":12757,"##궺":12758,"##긲":12759,"##깒":12760,"##깛":12761,"##긛":12762,"##몔":12763,"##륀":12764,"##챗":12765,"##쑤":12766,"##솬":12767,"##뮴":12768,"##탬":12769,"##빤":12770,"##늠":12771,"##쨥":12772,"##멤":12773,"##챕":12774,"##캎":12775,"##낪":12776,"##밊":12777,"##땽":12778,"##왁":12779,"##둬":12780,"##얘":12781,"##뤄":12782,"##쭙":12783,"##뷜":12784,"##슷":12785,"##얒":12786,"##젖":12787,"##맡":12788,"##쿙":12789,"##멩":12790,"##훟":12791,"##륷":12792,"##잌":12793,"##옷":12794,"##컵":12795,"##읏":12796,"##슝":12797,"##믐":12798,"##벲":12799,"##캆":12800,"##쨈":12801,"##쾌":12802,"##툭":12803,"##봐":12804,"##쌜":12805,"##쁜":12806,"##놋":12807,"##힝":12808,"##땗":12809,"##튝":12810,"##뾰":12811,"##썩":12812,"##휵":12813,"##눅":12814,"##긋":12815,"##퀜":12816,"##띵":12817,"##뾸":12818,"##졔":12819,"##룺":12820,"##뱡":12821,"##몐":12822,"##캅":12823,"##튤":12824,"##꺾":12825,"##랬":12826,"##쮸":12827,"##샛":12828,"##똟":12829,"##않":12830,"##퉅":12831,"##얹":12832,"##뷸":12833,"##낮":12834,"##듸":12835,"##읶":12836,"##퀵":12837,"##듐":12838,"##벚":12839,"##휼":12840,"##믜":12841,"##땛":12842,"##밻":12843,"##샒":12844,"##낼":12845,"##댱":12846,"##쁑":12847,"##즹":12848,"##겅":12849,"##끎":12850,"##줘":12851,"##낑":12852,"##먐":12853,"##캇":12854,"##쩡":12855,"##벩":12856,"##펡":12857,"##푀":12858,"##퓻":12859,"##펔":12860,"##빔":12861,"##댔":12862,"##쥣":12863,"##깍":12864,"##갸":12865,"##닦":12866,"##챨":12867,"##쉡":12868,"##꼮":12869,"##숏":12870,"##맑":12871,"##럿":12872,"##촹":12873,"##좍":12874,"##촥":12875,"##뵤":12876,"##탙":12877,"##홉":12878,"##뀍":12879,"##붑":12880,"##묭":12881,"##홋":12882,"##좹":12883,"##놰":12884,"##뒈":12885,"##싼":12886,"##빖":12887,"##읪":12888,"##뛃":12889,"##괧":12890,"##쭵":12891,"##켁":12892,"##놔":12893,"##줭":12894,"##겆":12895,"##먀":12896,"##곶":12897,"##슭":12898,"##엊":12899,"##꿔":12900,"##뎡":12901,"##녓":12902,"##눙":12903,"##릎":12904,"##냅":12905,"##쳄":12906,"##팸":12907,"##왓":12908,"##떈":12909,"##땍":12910,"##웻":12911,"##깽":12912,"##먁":12913,"##셍":12914,"##퉈":12915,"##푴":12916,"##맫":12917,"##캑":12918,"##찔":12919,"##똑":12920,"##쯪":12921,"##튿":12922,"##봑":12923,"##윹":12924,"##귈":12925,"##듶":12926,"##씀":12927,"##괜":12928,"##큣":12929,"##킅":12930,"##폿":12931,"##죌":12932,"##굼":12933,"##톳":12934,"##쟣":12935,"##숴":12936,"##훅":12937,"##눔":12938,"##껚":12939,"##퐝":12940,"##뚤":12941,"##맠":12942,"##뻬":12943,"##렷":12944,"##끓":12945,"##컷":12946,"##뤠":12947,"##쉘":12948,"##솰":12949,"##킁":12950,"##앰":12951,"##닙":12952,"##쿜":12953,"##잰":12954,"##쭤":12955,"##칡":12956,"##쌱":12957,"##뺨":12958,"##냠":12959,"##헥":12960,"##팠":12961,"##쯱":12962,"##팜":12963,"##윘":12964,"##눤":12965,"##봤":12966,"##꺵":12967,"##셤":12968,"##멓":12969,"##쏴":12970,"##숨":12971,"##귐":12972,"##좁":12973,"##큾":12974,"##벖":12975,"##슶":12976,"##텂":12977,"##쏭":12978,"##젱":12979,"##븝":12980,"##룀":12981,"##썽":12982,"##밈":12983,"##툠":12984,"##뎅":12985,"##땜":12986,"##뀰":12987,"##뻘":12988,"##눕":12989,"##둇":12990,"##빽":12991,"##뒬":12992,"##쇽":12993,"##줵":12994,"##녤":12995,"##놉":12996,"##맣":12997,"##윰":12998,"##옇":12999,"##뺌":13000,"##앍":13001,"##뺩":13002,"##낳":13003,"##펩":13004,"##핥":13005,"##꾀":13006,"##쩐":13007,"##헙":13008,"##쾨":13009,"##낱":13010,"##쀼":13011,"##윳":13012,"##뽁":13013,"##삧":13014,"##돕":13015,"##밧":13016,"##폕":13017,"##잖":13018,"##잽":13019,"##륄":13020,"##닜":13021,"##쁨":13022,"##탤":13023,"##캣":13024,"##풹":13025,"##팝":13026,"##곻":13027,"##줍":13028,"##봙":13029,"##높":13030,"##꽁":13031,"##돵":13032,"##옆":13033,"##긤":13034,"##뢴":13035,"##귝":13036,"##룳":13037,"##왱":13038,"##숩":13039,"##텬":13040,"##콴":13041,"##뷘":13042,"##꿋":13043,"##볓":13044,"##씻":13045,"##띄":13046,"##첵":13047,"##퓌":13048,"##쌋":13049,"##꽈":13050,"##즤":13051,"##읭":13052,"##넙":13053,"##탔":13054,"##슛":13055,"##섞":13056,"##낛":13057,"##읷":13058,"##덗":13059,"##겿":13060,"##쉴":13061,"##떻":13062,"##똔":13063,"##쥰":13064,"##폄":13065,"##뻣":13066,"##쾡":13067,"##쪘":13068,"##쌈":13069,"##켐":13070,"##삯":13071,"##몹":13072,"##샵":13073,"##꼽":13074,"##퀄":13075,"##킼":13076,"##뵥":13077,"##왉":13078,"##푠":13079,"##딪":13080,"##찻":13081,"##쓴":13082,"##굵":13083,"##큭":13084,"##쨉":13085,"##짢":13086,"##턻":13087,"##뒷":13088,"##뜯":13089,"##흧":13090,"##빡":13091,"##뱉":13092,"##캡":13093,"##헑":13094,"##긇":13095,"##흟":13096,"##뮨":13097,"##뫄":13098,"##뭭":13099,"##뫟":13100,"##닢":13101,"##섶":13102,"##큠":13103,"##왘":13104,"##깻":13105,"##쉽":13106,"##쨍":13107,"##흗":13108,"##떳":13109,"##퇀":13110,"##꾹":13111,"##돿":13112,"##촡":13113,"##멨":13114,"##걷":13115,"##캌":13116,"##륶":13117,"##츰":13118,"##욧":13119,"##쿡":13120,"##녔":13121,"##돤":13122,"##컭":13123,"##쭘":13124,"##씅":13125,"##횻":13126,"##갭":13127,"##헛":13128,"##햘":13129,"##많":13130,"##뎨":13131,"##엌":13132,"##앉":13133,"##핡":13134,"##궭":13135,"##쓔":13136,"##쒀":13137,"##댜":13138,"##맇":13139,"##뚸":13140,"##켕":13141,"##뻡":13142,"##뼤":13143,"##뿍":13144,"##녠":13145,"##괂":13146,"##떤":13147,"##롹":13148,"##몌":13149,"##삘":13150,"##솟":13151,"##틋":13152,"##귤":13153,"##몆":13154,"##츩":13155,"##딛":13156,"##걍":13157,"##얔":13158,"##랼":13159,"##슾":13160,"##낀":13161,"##쥩":13162,"##솝":13163,"##몇":13164,"##쫄":13165,"##뵹":13166,"##끨":13167,"##웡":13168,"##쁠":13169,"##볶":13170,"##툐":13171,"##츹":13172,"##덟":13173,"##뮈":13174,"##옘":13175,"##볜":13176,"##퓸":13177,"##댈":13178,"##슼":13179,"##슙":13180,"##욤":13181,"##햑":13182,"##톼":13183,"##뇸":13184,"##볘":13185,"##졀":13186,"##돠":13187,"##씹":13188,"##욷":13189,"##냔":13190,"##휀":13191,"##깈":13192,"##랖":13193,"##쨋":13194,"##셕":13195,"##곖":13196,"##챌":13197,"##딈":13198,"##뤽":13199,"##될":13200,"##럇":13201,"##몃":13202,"##얶":13203,"##봡":13204,"##뼛":13205,"##욹":13206,"##웗":13207,"##꽯":13208,"##앓":13209,"##쑨":13210,"##쑈":13211,"##밉":13212,"##홧":13213,"##탭":13214,"##굣":13215,"##냘":13216,"##냈":13217,"##칰":13218,"##뜐":13219,"##쵼":13220,"##껠":13221,"##훌":13222,"##뢔":13223,"##윱":13224,"##붐":13225,"##껙":13226,"##뭬":13227,"##얏":13228,"##엾":13229,"##콸":13230,"##훠":13231,"##잣":13232,"##깄":13233,"##멕":13234,"##뼝":13235,"##챦":13236,"##떄":13237,"##뿮":13238,"##뱦":13239,"##뺴":13240,"##쬲":13241,"##죗":13242,"##샠":13243,"##삑":13244,"##낏":13245,"##긞":13246,"##긏":13247,"##귺":13248,"##썻":13249,"##즛":13250,"##쎼":13251,"##궶":13252,"##궫":13253,"##궻":13254,"##랤":13255,"##궢":13256,"##륍":13257,"##쭌":13258,"##쬐":13259,"##쵤":13260,"##튠":13261,"##컁":13262,"##틷":13263,"##섀":13264,"##뱔":13265,"##쩬":13266,"##펴":13267,"##짭":13268,"##곧":13269,"##뗏":13270,"##랣":13271,"##띱":13272,"##꺌":13273,"##룅":13274,"##꿝":13275,"##늰":13276,"##뒁":13277,"##춸":13278,"##꺐":13279,"##줴":13280,"##덧":13281,"##붏":13282,"##붇":13283,"##짧":13284,"##뜝":13285,"##뤨":13286,"##녈":13287,"##샻":13288,"##헝":13289,"##끙":13290,"##깝":13291,"##뭍":13292,"##셨":13293,"##눝":13294,"##텝":13295,"##틍":13296,"##쫙":13297,"##덥":13298,"##갗":13299,"##뎌":13300,"##캰":13301,"##뇩":13302,"##짇":13303,"##칯":13304,"##놏":13305,"##콫":13306,"##쩅":13307,"##촘":13308,"##맙":13309,"##쉔":13310,"##걋":13311,"##쉭":13312,"##둈":13313,"##랔":13314,"##뾘":13315,"##엮":13316,"##햇":13317,"##텁":13318,"##쑊":13319,"##깬":13320,"##롁":13321,"##춉":13322,"##핟":13323,"##찹":13324,"##촵":13325,"##뜵":13326,"##끊":13327,"##묶":13328,"##탯":13329,"##쭐":13330,"##헔":13331,"##쯉":13332,"##훍":13333,"##뚥":13334,"##쏜":13335,"##뺘":13336,"##듫":13337,"##폘":13338,"##뮹":13339,"##땨":13340,"##듦":13341,"##켸":13342,"##헷":13343,"##긿":13344,"##윔":13345,"##찷":13346,"##쉠":13347,"##뤀":13348,"##썅":13349,"##푈":13350,"##얻":13351,"##헠":13352,"##켚":13353,"##옮":13354,"##챵":13355,"##볏":13356,"##캬":13357,"##횬":13358,"##쇅":13359,"##챳":13360,"##짹":13361,"##삒":13362,"##귬":13363,"##쫣":13364,"##똵":13365,"##뽧":13366,"##꽑":13367,"##뽭":13368,"##퀀":13369,"##겊":13370,"##쇳":13371,"##펌":13372,"##쾰":13373,"##겉":13374,"##퍅":13375,"##깎":13376,"##숄":13377,"##긱":13378,"##늪":13379,"##샥":13380,"##뺀":13381,"##뷫":13382,"##냟":13383,"##툽":13384,"##좂":13385,"##졬":13386,"##챃":13387,"##큇":13388,"##쫭":13389,"##댑":13390,"##뼜":13391,"##쑜":13392,"##뉻":13393,"##뒨":13394,"##뎋":13395,"##챈":13396,"##늡":13397,"##죤":13398,"##훑":13399,"##뻗":13400,"##혓":13401,"##눼":13402,"##츌":13403,"##랠":13404,"##콬":13405,"##뿛":13406,"##쑝":13407,"##뎜":13408,"##츼":13409,"##훓":13410,"##쌉":13411,"##듹":13412,"##늦":13413,"##뙈":13414,"##텨":13415,"##컿":13416,"##웹":13417,"##죳":13418,"##큥":13419,"##쌕":13420,"##휫":13421,"##쑁":13422,"##귓":13423,"##튺":13424,"##넵":13425,"##슆":13426,"##넣":13427,"##몊":13428,"##맴":13429,"##빧":13430,"##혠":13431,"##틊":13432,"##믌":13433,"##몀":13434,"##퓰":13435,"##씁":13436,"##뀪":13437,"##뉨":13438,"##쿱":13439,"##뇓":13440,"##눞":13441,"##릊":13442,"##뛟":13443,"##쑴":13444,"##늿":13445,"##쎌":13446,"##퀠":13447,"##쥽":13448,"##밗":13449,"##랕":13450,"##튮":13451,"##옿":13452,"##꾜":13453,"##댠":13454,"##몫":13455,"##뒥":13456,"##볫":13457,"##펍":13458,"##힠":13459,"##궂":13460,"##췁":13461,"##뷴":13462,"##꽦":13463,"##츀":13464,"##홁":13465,"##탹":13466,"##뚧":13467,"##섕":13468,"##뗔":13469,"##찟":13470,"##겡":13471,"##삔":13472,"##쩠":13473,"##킵":13474,"##핱":13475,"##웆":13476,"##귁":13477,"##헉":13478,"##풔":13479,"##힛":13480,"##깤":13481,"##돫":13482,"##솁":13483,"##켑":13484,"##닻":13485,"##쨰":13486,"##휠":13487,"##홝":13488,"##딥":13489,"##끽":13490,"##훽":13491,"##볍":13492,"##갚":13493,"##벞":13494,"##깟":13495,"##쳑":13496,"##넠":13497,"##뼸":13498,"##둡":13499,"##뺏":13500,"##팃":13501,"##벐":13502,"##섣":13503,"##헼":13504,"##싴":13505,"##갛":13506,"##및":13507,"##칽":13508,"##륑":13509,"##헱":13510,"##롻":13511,"##헵":13512,"##곗":13513,"##펐":13514,"##굳":13515,"##퓔":13516,"##됨":13517,"##횸":13518,"##뀫":13519,"##뀩":13520,"##뺅":13521,"##꿏":13522,"##뿎":13523,"##꼍":13524,"##꼿":13525,"##먏":13526,"##쳰":13527,"##뤂":13528,"##죰":13529,"##돛":13530,"##칣":13531,"##끕":13532,"##뗠":13533,"##킳":13534,"##딍":13535,"##쯕":13536,"##먗":13537,"##핻":13538,"##븓":13539,"##왇":13540,"##퀑":13541,"##똏":13542,"##눟":13543,"##옻":13544,"##횽":13545,"##돖":13546,"##왒":13547,"##잍":13548,"##쫓":13549,"##탉":13550,"##펼":13551,"##셧":13552,"##덫":13553,"##쎔":13554,"##랐":13555,"##엙":13556,"##싐":13557,"##캤":13558,"##믿":13559,"##삾":13560,"##왐":13561,"##듳":13562,"##좇":13563,"##떰":13564,"##볐":13565,"##픔":13566,"##맺":13567,"##쾃":13568,"##걲":13569,"##곁":13570,"##뼉":13571,"##풮":13572,"##죵":13573,"##갹":13574,"##겕":13575,"##떽":13576,"##쪨":13577,"##꿇":13578,"##뜳":13579,"##뱐":13580,"##듕":13581,"##뀻":13582,"##쌐":13583,"##넽":13584,"##쓩":13585,"##닮":13586,"##큉":13587,"##떙":13588,"##듟":13589,"##듁":13590,"##엤":13591,"##꺘":13592,"##쥥":13593,"##픖":13594,"##쯰":13595,"##뉜":13596,"##쌘":13597,"##슉":13598,"##칞":13599,"##겻":13600,"##먳":13601,"##맻":13602,"##뮻":13603,"##뭋":13604,"##꾁":13605,"##꾿":13606,"##늉":13607,"##뉼":13608,"##롑":13609,"##췃":13610,"##릣":13611,"##읒":13612,"##뚫":13613,"##짙":13614,"##꽉":13615,"##뽝":13616,"##쩝":13617,"##찧":13618,"##읗":13619,"##퓩":13620,"##흄":13621,"##픨":13622,"##푱":13623,"##녑":13624,"##툵":13625,"##픋":13626,"##폔":13627,"##덦":13628,"##뿗":13629,"##씤":13630,"##뗀":13631,"##껀":13632,"##곬":13633,"##꽐":13634,"##걕":13635,"##쥉":13636,"##셱":13637,"##꺢":13638,"##팉":13639,"##붹":13640,"##빕":13641,"##뒹":13642,"##맬":13643,"##꾱":13644,"##썝":13645,"##뿉":13646,"##툿":13647,"##땁":13648,"##샙":13649,"##윕":13650,"##괼":13651,"##엏":13652,"##곈":13653,"##릘":13654,"##츳":13655,"##잿":13656,"##힁":13657,"##앆":13658,"##풑":13659,"##삵":13660,"##얇":13661,"##렀":13662,"##벋":13663,"##뽈":13664,"##휙":13665,"##쩜":13666,"##쉥":13667,"##췻":13668,"##쏠":13669,"##쟤":13670,"##캭":13671,"##쭁":13672,"##젏":13673,"##폵":13674,"##숧":13675,"##휗":13676,"##녯":13677,"##뵷":13678,"##킈":13679,"##껒":13680,"##줬":13681,"##뙇":13682,"##웠":13683,"##긧":13684,"##뭔":13685,"##뿨":13686,"##걔":13687,"##춱":13688,"##욣":13689,"##퓍":13690,"##쒸":13691,"##덞":13692,"##볽":13693,"##쯧":13694,"##쿶":13695,"##쒹":13696,"##퍝":13697,"##쁙":13698,"##띰":13699,"##묜":13700,"##롇":13701,"##꿱":13702,"##뿟":13703,"##둗":13704,"##옳":13705,"##벫":13706,"##떅":13707,"##삣":13708,"##뼥":13709,"##얽":13710,"##쎈":13711,"##쟛":13712,"##읋":13713,"##홰":13714,"##놘":13715,"##쵮":13716,"##곲":13717,"##젮":13718,"##쫀":13719,"##뺭":13720,"##횞":13721,"##콦":13722,"##씍":13723,"##짠":13724,"##뿓":13725,"##딫":13726,"##쥿":13727,"##쁅":13728,"##뺡":13729,"##뗡":13730,"##햅":13731,"##뚬":13732,"##쥭":13733,"##":13734,"##둉":13735,"##뺵":13736,"##훕":13737,"##큅":13738,"##탵":13739,"##츺":13740,"##혯":13741,"##쨌":13742,"##밣":13743,"##쏨":13744,"##꼈":13745,"##뻉":13746,"##썷":13747,"##꿎":13748,"##꿘":13749,"##뀐":13750,"##쯸":13751,"##쭓":13752,"##웩":13753,"##쿸":13754,"##냌":13755,"##옠":13756,"##웉":13757,"##혬":13758,"##힙":13759,"##벍":13760,"##셒":13761,"##뗑":13762,"##잫":13763,"##봅":13764,"##얭":13765,"##쒕":13766,"##췅":13767,"##픠":13768,"##찓":13769,"##큄":13770,"##늕":13771,"##밬":13772,"##푷":13773,"##쀏":13774,"##췛":13775,"##굥":13776,"##튄":13777,"##툥":13778,"##믱":13779,"##쐐":13780,"##젭":13781,"##꽌":13782,"##벱":13783,"##찎":13784,"##밐":13785,"##됬":13786,"##룐":13787,"##꽤":13788,"##빎":13789,"##궃":13790,"##뻴":13791,"##췬":13792,"##엪":13793,"##쳔":13794,"##웈":13795,"##쳌":13796,"##퐳":13797,"##돡":13798,"##팈":13799,"##뎊":13800,"##땩":13801,"##뚀":13802,"##괵":13803,"##훨":13804,"##롷":13805,"##뤙":13806,"##븟":13807,"##뤌":13808,"##뷀":13809,"##슢":13810,"##텽":13811,"##숌":13812,"##컫":13813,"##쥴":13814,"##똠":13815,"##퀌":13816,"##숱":13817,"##튱":13818,"##푯":13819,"##첬":13820,"##눗":13821,"##줓":13822,"##팎":13823,"##폯":13824,"##껫":13825,"##껨":13826,"##둍":13827,"##쨘":13828,"##띔":13829,"##떱":13830,"##갉":13831,"##쒜":13832,"##횔":13833,"##쑼":13834,"##듄":13835,"##콱":13836,"##첫":13837,"##맏":13838,"##뾲":13839,"##쎠":13840,"##냣":13841,"##젹":13842,"##릵":13843,"##툇":13844,"##샇":13845,"##얫":13846,"##쯩":13847,"##룟":13848,"##슁":13849,"##빚":13850,"##솹":13851,"##곯":13852,"##픓":13853,"##뗻":13854,"##띧":13855,"##엒":13856,"##쭨":13857,"##뗶":13858,"##뗵":13859,"##풱":13860,"##쮹":13861,"##쁶":13862,"##갷":13863,"##뭏":13864,"##렞":13865,"##곀":13866,"##닳":13867,"##켬":13868,"##쁴":13869,"##뿝":13870,"##낲":13871,"##셥":13872,"##젋":13873,"##봫":13874,"##퇵":13875,"##딯":13876,"##촙":13877,"##귪":13878,"##궸":13879,"##궼":13880,"##삗":13881,"##퍗":13882,"##쬴":13883,"##됼":13884,"##굑":13885,"##옅":13886,"##옺":13887,"##굘":13888,"##냫":13889,"##푝":13890,"##뼬":13891,"##쳣":13892,"##뫙":13893,"##챸":13894,"##탘":13895,"##뇻":13896,"##뇾":13897,"##뎂":13898,"##닶":13899,"##쭀":13900,"##띙":13901,"##좐":13902,"##촛":13903,"##쁌":13904,"##쨕":13905,"##픅":13906,"##쵠":13907,"##윻":13908,"##끤":13909,"##힡":13910,"##츔":13911,"##췽":13912,"##슽":13913,"##낟":13914,"##큿":13915,"##탼":13916,"##홥":13917,"##챘":13918,"##뉸":13919,"##둩":13920,"##몄":13921,"##즑":13922,"##랒":13923,"##왷":13924,"##흇":13925,"##벧":13926,"##끆":13927,"##엫":13928,"##웳":13929,"##롣":13930,"##탒":13931,"##짘":13932,"##쟙":13933,"##랰":13934,"##싶":13935,"##욋":13936,"##퐄":13937,"##닊":13938,"##깏":13939,"##좨":13940,"##뚮":13941,"##쐙":13942,"##뽟":13943,"##캢":13944,"##욦":13945,"##띨":13946,"##홱":13947,"##뿁":13948,"##툑":13949,"##땠":13950,"##얐":13951,"##핼":13952,"##뒝":13953,"##룔":13954,"##흨":13955,"##봬":13956,"##뤩":13957,"##뷇":13958,"##콣":13959,"##뫞":13960,"##뿷":13961,"##땞":13962,"##밪":13963,"##뒗":13964,"##렜":13965,"##됵":13966,"##롊":13967,"##쫒":13968,"##핧":13969,"##닑":13970,"##갇":13971,"##깩":13972,"##멦":13973,"##긕":13974,"##땝":13975,"##팂":13976,"##퇼":13977,"##윾":13978,"##댬":13979,"##싰":13980,"##뽜":13981,"##돓":13982,"##닾":13983,"##웸":13984,"##쭛":13985,"##숎":13986,"##챡":13987,"##큪":13988,"##핔":13989,"##굛":13990,"##댦":13991,"##뷁":13992,"##뜜":13993,"##얅":13994,"##긁":13995,"##헯":13996,"##젧":13997,"##픳":13998,"##읃":13999,"##큽":14000,"##힗":14001,"##뚯":14002,"##풉":14003,"##콻":14004,"##놨":14005,"##줛":14006,"##놗":14007,"##괏":14008,"##솫":14009,"##뗛":14010,"##몼":14011,"##돇":14012,"##돣":14013,"##뢐":14014,"##홳":14015,"##잓":14016,"##웫":14017,"##룫":14018,"##뺃":14019,"##뗣":14020,"##꽇":14021,"##젊":14022,"##셣":14023,"##렡":14024,"##췰":14025,"##냬":14026,"##뗘":14027,"##랋":14028,"##싮":14029,"##졈":14030,"##퇗":14031,"##뵐":14032,"##똬":14033,"##짼":14034,"##휩":14035,"##벓":14036,"##뷓":14037,"##뤯":14038,"##룱":14039,"##잋":14040,"##뫅":14041,"##촾":14042,"##닏":14043,"##쫜":14044,"##뢱":14045,"##긶":14046,"##뺼":14047,"##썀":14048,"##싟":14049,"##엗":14050,"##빋":14051,"##웝":14052,"##듥":14053,"##먄":14054,"##훁":14055,"##삜":14056,"##탇":14057,"##댸":14058,"##싣":14059,"##켰":14060,"##롓":14061,"##왂":14062,"##챝":14063,"##튐":14064,"##셭":14065,"##놑":14066,"##룍":14067,"##괸":14068,"##귡":14069,"##긮":14070,"##깑":14071,"##빩":14072,"##뤵":14073,"##뫃":14074,"##뚷":14075,"##붖":14076,"##븃":14077,"##찢":14078,"##좊":14079,"##뚞":14080,"##읖":14081,"##쉟":14082,"##렣":14083,"##얖":14084,"##쬭":14085,"##볈":14086,"##꼇":14087,"##섰":14088,"##뵙":14089,"##돚":14090,"##햟":14091,"##랆":14092,"##핤":14093,"##짒":14094,"##졷":14095,"##딺":14096,"##핚":14097,"##귯":14098,"##묺":14099,"##붛":14100,"##귶":14101,"##뙓":14102,"##븅":14103,"##춋":14104,"##윿":14105,"##엓":14106,"##얍":14107,"##졧":14108,"##짞":14109,"##뱨":14110,"##밦":14111,"##챞":14112,"##퉷":14113,"##톹":14114,"##퐆":14115,"##쵹":14116,"##믁":14117,"##뫌":14118,"##욀":14119,"##뜫":14120,"##숕":14121,"##쁟":14122,"##뭅":14123,"##딨":14124,"##찝":14125,"##끅":14126,"##뗄":14127,"##씃":14128,"##겍":14129,"##텤":14130,"##덯":14131,"##껰":14132,"##꺕":14133,"##붱":14134,"##뽱":14135,"##쁐":14136,"##붝":14137,"##돩":14138,"##졋":14139,"##끠":14140,"##욺":14141,"##웜":14142,"##뺄":14143,"##잏":14144,"##뛩":14145,"##샄":14146,"##쏩":14147,"##낯":14148,"##럐":14149,"##훜":14150,"##퍙":14151,"##굄":14152,"##륽":14153,"##괳":14154,"##엷":14155,"##롈":14156,"##쀠":14157,"##궖":14158,"##궋":14159,"##붸":14160,"##큔":14161,"##톻":14162,"##닼":14163,"##릯":14164,"##몯":14165,"##왧":14166,"##뷃":14167,"##웟":14168,"##킦":14169,"##끾":14170,"##궬":14171,"##앚":14172,"##섴":14173,"##뿀":14174,"##븍":14175,"##읕":14176,"##앸":14177,"##쉿":14178,"##좔":14179,"##풒":14180,"##쏀":14181,"##뤕":14182,"##렫":14183,"##췍":14184,"##댧":14185,"##댯":14186,"##뮺":14187,"##썼":14188,"##빻":14189,"##덿":14190,"##멉":14191,"##졉":14192,"##픤":14193,"##홐":14194,"##혻":14195,"##맄":14196,"##뎻":14197,"##굠":14198,"##됸":14199,"##쥘":14200,"##냏":14201,"##맓":14202,"##싧":14203,"##댋":14204,"##삷":14205,"##핿":14206,"##줊":14207,"##셟":14208,"##섧":14209,"##갊":14210,"##핣":14211,"##닚":14212,"##닧":14213,"##쭊":14214,"##곺":14215,"##둅":14216,"##뺚":14217,"##싈":14218,"##쟘":14219,"##쬽":14220,"##뷉":14221,"##앝":14222,"##밌":14223,"##쏟":14224,"##괆":14225,"##쏚":14226,"##퇘":14227,"##껸":14228,"##횅":14229,"##붚":14230,"##죔":14231,"##뜀":14232,"##묑":14233,"##셷":14234,"##횢":14235,"##흿":14236,"##뒿":14237,"##솩":14238,"##띾":14239,"##돘":14240,"##뽓":14241,"##횦":14242,"##붘":14243,"##쩧":14244,"##죨":14245,"##롫":14246,"##왠":14247,"##퉱":14248,"##끍":14249,"##휽":14250,"##뻤":14251,"##좸":14252,"##샢":14253,"##뭘":14254,"##돜":14255,"##쮝":14256,"##씉":14257,"##쥠":14258,"##썄":14259,"##흩":14260,"##뱁":14261,"##됐":14262,"##얃":14263,"##뙳":14264,"##홂":14265,"##삮":14266,"##줆":14267,"##쬷":14268,"##홅":14269,"##욿":14270,"##쌻":14271,"##풇":14272,"##맆":14273,"##겴":14274,"##춈":14275,"##훳":14276,"##쉏":14277,"##귱":14278,"##곂":14279,"##쫩":14280,"##뛣":14281,"##홣":14282,"##꾫":14283,"##뫀":14284,"##흓":14285,"##읫":14286,"##띡":14287,"##큮":14288,"##꺙":14289,"##솀":14290,"##뀜":14291,"##꽹":14292,"##끜":14293,"##젔":14294,"##꼳":14295,"##꽊":14296,"##쵁":14297,"##낻":14298,"##늏":14299,"##툉":14300,"##쎃":14301,"에서":14302,"으로":14303,"ᆫ다":14304,"20":14305,"지만":14306,"에게":14307,"201":14308,"는데":14309,"때문":14310,"19":14311,"까지":14312,"아서":14313,"##00":14314,"아니":14315,"라고":14316,"라는":14317,"나오":14318,"다고":14319,"으며":14320,"면서":14321,"보이":14322,"경우":14323,"10":14324,"어서":14325,"사용":14326,"다는":14327,"공격":14328,"이후":14329,"자신":14330,"그리":14331,"##레이":14332,"사람":14333,"위하":14334,"정도":14335,"대하":14336,"부터":14337,"##스트":14338,"가능":14339,"시키":14340,"다른":14341,"보다":14342,"이나":14343,"12":14344,"으나":14345,"가지":14346,"200":14347,"등장":14348,"는다":14349,"아이":14350,"11":14351,"그러":14352,"그리고":14353,"버리":14354,"##어지":14355,"게임":14356,"하나":14357,"경기":14358,"..":14359,"다가":14360,"만들":14361,"못하":14362,"##er":14363,"사실":14364,"시간":14365,"사이":14366,"시작":14367,"일본":14368,"이상":14369,"모습":14370,"이름":14371,"##니다":14372,"함께":14373,"따르":14374,"##지만":14375,"상대":14376,"한국":14377,"##어나":14378,"문제":14379,"15":14380,"다시":14381,"거나":14382,"##in":14383,"으면":14384,"하지만":14385,"프로":14386,"##스터":14387,"생각":14388,"아야":14389,"또한":14390,"가장":14391,"들어":14392,"캐릭":14393,"당시":14394,"##대로":14395,"시즌":14396,"처럼":14397,"캐릭터":14398,"당하":14399,"플레이":14400,"18":14401,"##on":14402,"능력":14403,"##이트":14404,"모두":14405,"상황":14406,"상태":14407,"아도":14408,"그렇":14409,"ᆫ지":14410,"모든":14411,"추가":14412,"ᆫ데":14413,"결국":14414,"세계":14415,"선수":14416,"##an":14417,"16":14418,"##or":14419,"스킬":14420,"카드":14421,"##미지":14422,"현재":14423,"다만":14424,"많이":14425,"통하":14426,"전투":14427,"효과":14428,"ᆫ다는":14429,"다음":14430,"30":14431,"그러나":14432,"존재":14433,"지역":14434,"13":14435,"미국":14436,"여기":14437,"시리":14438,"14":14439,"199":14440,"##라이":14441,"매우":14442,"##ar":14443,"라이":14444,"17":14445,"달리":14446,"대학":14447,"그런":14448,"상당":14449,"레벨":14450,"기록":14451,"##he":14452,"시리즈":14453,"##at":14454,"스타":14455,"인하":14456,"기술":14457,"레이":14458,"ᄇ니다":14459,"다면":14460,"물론":14461,"무기":14462,"이용":14463,"##리아":14464,"의하":14465,"처음":14466,"이유":14467,"자체":14468,"부르":14469,"방송":14470,"100":14471,"이것":14472,"이런":14473,"같이":14474,"필요":14475,"영화":14476,"실제":14477,"여러":14478,"해당":14479,"25":14480,"들어가":14481,"마법":14482,"모르":14483,"주인":14484,"일반":14485,"어야":14486,"돌아":14487,"거의":14488,"역시":14489,"##거리":14490,"바로":14491,"리그":14492,"##리스":14493,"학교":14494,"나가":14495,"사건":14496,"##이스":14497,"##en":14498,"다르":14499,"이야":14500,"특히":14501,"관련":14502,"기본":14503,"2017":14504,"부분":14505,"그래":14506,"##이지":14507,"위치":14508,"피해":14509,"진행":14510,"##ou":14511,"아무":14512,"방어":14513,"2018":14514,"이야기":14515,"##부분":14516,"대표":14517,"국가":14518,"는지":14519,"없이":14520,"##지막":14521,"제작":14522,"활동":14523,"인간":14524,"ᆫ다고":14525,"동안":14526,"작품":14527,"증가":14528,"대부분":14529,"알리":14530,"##al":14531,"마지막":14532,"본인":14533,"자기":14534,"2019":14535,"지나":14536,"일부":14537,"계속":14538,"##시아":14539,"떨어지":14540,"21":14541,"서울":14542,"라면":14543,"내용":14544,"만큼":14545,"##es":14546,"우리":14547,"올리":14548,"주인공":14549,"2016":14550,"감독":14551,"참고":14552,"속도":14553,"ᆫ가":14554,"관계":14555,"50":14556,"어도":14557,"##전히":14558,"생기":14559,"중국":14560,"대신":14561,"수준":14562,"이전":14563,"그냥":14564,"비슷":14565,"어느":14566,"으니":14567,"전쟁":14568,"타이":14569,"비하":14570,"지금":14571,"강하":14572,"만나":14573,"성공":14574,"22":14575,"기준":14576,"도시":14577,"밝히":14578,"인물":14579,"이루":14580,"습니다":14581,"도록":14582,"198":14583,"상당히":14584,"공격력":14585,"그녀":14586,"대한":14587,"24":14588,"배우":14589,"최대":14590,"기사":14591,"올라":14592,"마다":14593,"##민국":14594,"결과":14595,"지원":14596,"그대로":14597,"평가":14598,"시절":14599,"너무":14600,"빠르":14601,"자리":14602,"보스":14603,"제외":14604,"##it":14605,"므로":14606,"죽이":14607,"##토리":14608,"연구":14609,"##버지":14610,"의미":14611,"나타":14612,"실제로":14613,"로서":14614,"소속":14615,"##라지":14616,"이미":14617,"승리":14618,"직접":14619,"전체":14620,"2015":14621,"영상":14622,"대한민국":14623,"보내":14624,"메이":14625,"23":14626,"어렵":14627,"원래":14628,"유닛":14629,"체력":14630,"여자":14631,"##부터":14632,"언급":14633,"그것":14634,"대로":14635,"개발":14636,"데미지":14637,"멤버":14638,"##ing":14639,"유저":14640,"##st":14641,"##le":14642,"##학교":14643,"##ic":14644,"이동":14645,"마음":14646,"설정":14647,"40":14648,"싸우":14649,"정보":14650,"문서":14651,"방법":14652,"선택":14653,"애니":14654,"##가지":14655,"##re":14656,"##다가":14657,"과거":14658,"차이":14659,"##운드":14660,"머리":14661,"몬스터":14662,"출연":14663,"성우":14664,"친구":14665,"포함":14666,"##랜드":14667,"##dd":14668,"##이션":14669,"불리":14670,"거리":14671,"대상":14672,"설명":14673,"엄청":14674,"사회":14675,"소리":14676,"바람":14677,"플레이어":14678,"장면":14679,"힘들":14680,"우승":14681,"최고":14682,"여성":14683,"버전":14684,"사랑":14685,"다니":14686,"이러":14687,"바뀌":14688,"아버지":14689,"프리":14690,"동시":14691,"공식":14692,"유명":14693,"스럽":14694,"시대":14695,"2014":14696,"발생":14697,"영향":14698,"사망":14699,"이렇":14700,"주로":14701,"대회":14702,"려고":14703,"프랑":14704,"##주의":14705,"남자":14706,"결정":14707,"조금":14708,"파이":14709,"발매":14710,"26":14711,"주장":14712,"출신":14713,"아이템":14714,"##ff":14715,"초반":14716,"000":14717,"나라":14718,"인터":14719,"일어나":14720,"학생":14721,"전부":14722,"ᆫ다면":14723,"버스":14724,"마이":14725,"공개":14726,"역사":14727,"28":14728,"운영":14729,"오르":14730,"서로":14731,"유지":14732,"빠지":14733,"스토리":14734,"걸리":14735,"모드":14736,"##el":14737,"27":14738,"구성":14739,"대사":14740,"파괴":14741,"제대로":14742,"##am":14743,"정부":14744,"방식":14745,"음악":14746,"강화":14747,"31":14748,"자주":14749,"중요":14750,"아직":14751,"후반":14752,"이때":14753,"나타나":14754,"또는":14755,"월드":14756,"the":14757,"과정":14758,"##이드":14759,"나이":14760,"형태":14761,"최종":14762,"정치":14763,"새롭":14764,"독일":14765,"시스":14766,"역할":14767,"##라도":14768,"최초":14769,"노래":14770,"##벤트":14771,"대전":14772,"쓰이":14773,"이벤트":14774,"누구":14775,"##om":14776,"강력":14777,"마리":14778,"스테":14779,"정말":14780,"변경":14781,"회복":14782,"##머니":14783,"##이도":14784,"기존":14785,"##우스":14786,"그런데":14787,"드라":14788,"영국":14789,"라도":14790,"보통":14791,"드래":14792,"비교":14793,"소환":14794,"느끼":14795,"정신":14796,"##아가":14797,"마찬":14798,"마찬가지":14799,"##la":14800,"어떤":14801,"이기":14802,"조선":14803,"당연":14804,"특성":14805,"인기":14806,"##is":14807,"엄청나":14808,"성능":14809,"##프트":14810,"확률":14811,"속성":14812,"마을":14813,"행동":14814,"바꾸":14815,"2013":14816,"슈퍼":14817,"오히":14818,"노선":14819,"모양":14820,"오히려":14821,"##리어":14822,"어떻":14823,"아래":14824,"이제":14825,"가깝":14826,"자유":14827,"아들":14828,"교육":14829,"197":14830,"발견":14831,"차량":14832,"바이":14833,"라인":14834,"29":14835,"사라지":14836,"수록":14837,"##너지":14838,"게다가":14839,"32":14840,"부족":14841,"특수":14842,"프랑스":14843,"##et":14844,"이번":14845,"00":14846,"대학교":14847,"확인":14848,"성격":14849,"끝나":14850,"문화":14851,"유일":14852,"활약":14853,"차지":14854,"##ol":14855,"2012":14856,"관리":14857,"장비":14858,"##ion":14859,"영웅":14860,"모델":14861,"일단":14862,"입장":14863,"아예":14864,"구하":14865,"내리":14866,"생산":14867,"맞추":14868,"스트":14869,"따라":14870,"시스템":14871,"이렇게":14872,"제국":14873,"고등":14874,"다이":14875,"심지":14876,"어리":14877,"돌아오":14878,"심지어":14879,"먼저":14880,"경찰":14881,"반대":14882,"계획":14883,"주변":14884,"거기":14885,"##레이드":14886,"운동":14887,"2010":14888,"앨범":14889,"##디오":14890,"자동":14891,"어요":14892,"완전히":14893,"조건":14894,"드러":14895,"우주":14896,"기간":14897,"사진":14898,"##레스":14899,"난이도":14900,"들어오":14901,"부대":14902,"적용":14903,"발동":14904,"개인":14905,"기능":14906,"##ow":14907,"지구":14908,"건물":14909,"60":14910,"감소":14911,"위원":14912,"##nd":14913,"km":14914,"##20":14915,"축구":14916,"##통령":14917,"자세":14918,"##il":14919,"떠나":14920,"##ig":14921,"##므로":14922,"중심":14923,"으로서":14924,"##인트":14925,"##ed":14926,"실패":14927,"애니메":14928,"그래서":14929,"하이":14930,"세트":14931,"혹은":14932,"중앙":14933,"선거":14934,"지키":14935,"던지":14936,"어디":14937,"라며":14938,"현대":14939,"35":14940,"회사":14941,"덕분":14942,"데이":14943,"돌아가":14944,"초기":14945,"전혀":14946,"얼굴":14947,"작가":14948,"시기":14949,"표현":14950,"국내":14951,"원작":14952,"민주":14953,"대통령":14954,"패배":14955,"물리":14956,"처리":14957,"오브":14958,"순간":14959,"TV":14960,"동일":14961,"##버스":14962,"모으":14963,"지속":14964,"프로그":14965,"드라마":14966,"반응":14967,"지방":14968,"무엇":14969,"얼마":14970,"날리":14971,"열리":14972,"도움":14973,"더라도":14974,"인정":14975,"참여":14976,"기관":14977,"애니메이션":14978,"출시":14979,"##니아":14980,"명칭":14981,"##ac":14982,"판매":14983,"담당":14984,"데뷔":14985,"##as":14986,"##없이":14987,"##BS":14988,"정확":14989,"ㄴ다":14990,"요구":14991,"획득":14992,"196":14993,"##나마":14994,"##리카":14995,"굉장":14996,"스페":14997,"하루":14998,"생활":14999,"그렇게":15000,"of":15001,"시점":15002,"2011":15003,"설치":15004,"밖에":15005,"작중":15006,"넘어":15007,"다양":15008,"발표":15009,"후보":15010,"그룹":15011,"상승":15012,"진출":15013,"선발":15014,"아군":15015,"구조":15016,"기억":15017,"항목":15018,"##아내":15019,"Lv":15020,"영어":15021,"만화":15022,"가격":15023,"움직":15024,"단계":15025,"##소드":15026,"그림":15027,"특별":15028,"##들이":15029,"올라가":15030,"마스터":15031,"실력":15032,"##ve":15033,"그나마":15034,"으므로":15035,"드래곤":15036,"아마":15037,"다며":15038,"에피":15039,"세우":15040,"이거":15041,"01":15042,"조차":15043,"야구":15044,"았었":15045,"시장":15046,"The":15047,"가족":15048,"사고":15049,"범위":15050,"특징":15051,"경제":15052,"려는":15053,"##소리":15054,"시청":15055,"방향":15056,"연기":15057,"대체":15058,"패치":15059,"경험":15060,"##뜨리":15061,"계약":15062,"미치":15063,"고려":15064,"수비":15065,"##ot":15066,"한테":15067,"지니":15068,"아르":15069,"확실":15070,"참가":15071,"국제":15072,"디자":15073,"에피소드":15074,"500":15075,"세대":15076,"발사":15077,"폭발":15078,"##로스":15079,"남기":15080,"묘사":15081,"브라":15082,"로부터":15083,"##스크":15084,"밀리":15085,"주의":15086,"프로그램":15087,"고등학교":15088,"80":15089,"##비스":15090,"활용":15091,"2000":15092,"어떻게":15093,"피하":15094,"라서":15095,"어머니":15096,"상위":15097,"결혼":15098,"무시":15099,"##으키":15100,"비판":15101,"목적":15102,"더욱":15103,"준비":15104,"중간":15105,"심하":15106,"각각":15107,"##ad":15108,"37":15109,"보호":15110,"오리":15111,"러시아":15112,"45":15113,"아주":15114,"버프":15115,"챔피":15116,"라운드":15117,"굉장히":15118,"이미지":15119,"패턴":15120,"국민":15121,"히로":15122,"이어지":15123,"위험":15124,"진짜":15125,"참조":15126,"세이":15127,"내려":15128,"대미지":15129,"생명":15130,"조직":15131,"조사":15132,"단순":15133,"듯이":15134,"싸움":15135,"과학":15136,"여담":15137,"크리스":15138,"약하":15139,"이루어지":15140,"전하":15141,"나쁘":15142,"타입":15143,"다루":15144,"세력":15145,"현실":15146,"파워":15147,"St":15148,"안타":15149,"시도":15150,"소모":15151,"제공":15152,"주요":15153,"구간":15154,"194":15155,"유리":15156,"불구":15157,"전문":15158,"가리":15159,"지하":15160,"유럽":15161,"일으키":15162,"연속":15163,"부산":15164,"세기":15165,"##머지":15166,"나머지":15167,"혼자":15168,"순위":15169,"논란":15170,"조합":15171,"한정":15172,"포인트":15173,"사실상":15174,"약간":15175,"아프":15176,"동료":15177,"##아오":15178,"노리":15179,"##id":15180,"70":15181,"뛰어나":15182,"나무":15183,"분위":15184,"성장":15185,"09":15186,"##ay":15187,"무장":15188,"여전히":15189,"바라":15190,"디자인":15191,"분위기":15192,"당연히":15193,"취급":15194,"항공":15195,"출전":15196,"90":15197,"이해":15198,"으면서":15199,"트리":15200,"학년":15201,"##스로":15202,"일정":15203,"규모":15204,"등급":15205,"훨씬":15206,"FC":15207,"##ER":15208,"지도":15209,"투수":15210,"소설":15211,"ᆯ지":15212,"한편":15213,"예정":15214,"운행":15215,"블랙":15216,"성적":15217,"인구":15218,"##나라":15219,"##러지":15220,"부상":15221,"자연":15222,"엔딩":15223,"기타":15224,"그래도":15225,"마치":15226,"삼성":15227,"기대":15228,"계열":15229,"mm":15230,"02":15231,"해결":15232,"2009":15233,"03":15234,"사업":15235,"가져":15236,"##ch":15237,"스테이지":15238,"향하":15239,"센터":15240,"기에":15241,"방면":15242,"연결":15243,"미션":15244,"300":15245,"##이크":15246,"방영":15247,"최근":15248,"의견":15249,"연합":15250,"수정":15251,"##us":15252,"48":15253,"변화":15254,"도망":15255,"종류":15256,"자면":15257,"##ir":15258,"그거":15259,"이탈":15260,"표기":15261,"잘못":15262,"전용":15263,"이르":15264,"태어나":15265,"05":15266,"퀘스트":15267,"배치":15268,"195":15269,"추정":15270,"33":15271,"for":15272,"2008":15273,"이라":15274,"발전":15275,"터지":15276,"##다리":15277,"소녀":15278,"36":15279,"08":15280,"대화":15281,"변하":15282,"거대":15283,"정상":15284,"직업":15285,"안정":15286,"07":15287,"움직이":15288,"##ur":15289,"도중":15290,"죽음":15291,"엔진":15292,"충분":15293,"올라오":15294,"스스로":15295,"종료":15296,"##스타":15297,"작전":15298,"넘어가":15299,"##티브":15300,"수상":15301,"챔피언":15302,"펼치":15303,"세상":15304,"오래":15305,"나중":15306,"붙이":15307,"독립":15308,"일행":15309,"비행":15310,"요소":15311,"느낌":15312,"속하":15313,"마저":15314,"거치":15315,"당신":15316,"나누":15317,"HP":15318,"벌어지":15319,"벌이":15320,"보상":15321,"에너지":15322,"지내":15323,"방어력":15324,"달성":15325,"비롯":15326,"전설":15327,"수도":15328,"##..":15329,"공연":15330,"##od":15331,"무리":15332,"미사":15333,"06":15334,"만드":15335,"동물":15336,"배틀":15337,"##러스":15338,"##BC":15339,"부활":15340,"특정":15341,"관하":15342,"장착":15343,"훈련":15344,"스피":15345,"절대":15346,"th":15347,"스카":15348,"졸업":15349,"철도":15350,"유니":15351,"지지":15352,"##im":15353,"##자기":15354,"기업":15355,"전기":15356,"다리":15357,"포켓":15358,"위기":15359,"지휘":15360,"행정":15361,"싱글":15362,"번역":15363,"번호":15364,"근접":15365,"##란드":15366,"더불":15367,"아이돌":15368,"제목":15369,"점수":15370,"건설":15371,"04":15372,"관심":15373,"만약":15374,"미래":15375,"##어들":15376,"황제":15377,"내부":15378,"남성":15379,"요리":15380,"반면":15381,"따라서":15382,"득점":15383,"##un":15384,"충격":15385,"##ut":15386,"신경":15387,"SK":15388,"시험":15389,"전차":15390,"군사":15391,"가르":15392,"목소리":15393,"목표":15394,"거두":15395,"홈런":15396,"소재":15397,"이끌":15398,"전사":15399,"2007":15400,"##데이트":15401,"업데이트":15402,"바르":15403,"정체":15404,"you":15405,"ᆯ까":15406,"공간":15407,"##지션":15408,"똑같":15409,"가끔":15410,"저지":15411,"돌리":15412,"무대":15413,"스파":15414,"어찌":15415,"시설":15416,"사이트":15417,"올림":15418,"타격":15419,"로마":15420,"오늘":15421,"34":15422,"##인물":15423,"배경":15424,"링크":15425,"지정":15426,"장소":15427,"##리오":15428,"각성":15429,"전작":15430,"서비스":15431,"마르":15432,"공중":15433,"항상":15434,"##다니":15435,"##ro":15436,"최소":15437,"교체":15438,"그만":15439,"전국":15440,"파티":15441,"분노":15442,"##너스":15443,"##트리":15444,"생존":15445,"작곡":15446,"북한":15447,"넘기":15448,"등장인물":15449,"정식":15450,"으려":15451,"얘기":15452,"예상":15453,"##수록":15454,"자랑":15455,"의원":15456,"부여":15457,"으로써":15458,"클래":15459,"작업":15460,"높이":15461,"도로":15462,"포켓몬":15463,"사냥":15464,"##디어":15465,"아라":15466,"분류":15467,"종족":15468,"늘어나":15469,"스포":15470,"인사":15471,"인도":15472,"악마":15473,"##ag":15474,"##igh":15475,"소개":15476,"야마":15477,"38":15478,"스타일":15479,"비밀":15480,"##ver":15481,"엘리":15482,"단체":15483,"애초":15484,"제한":15485,"인터뷰":15486,"ㄹ로":15487,"괜찮":15488,"가수":15489,"필드":15490,"##ec":15491,"결승":15492,"##동안":15493,"cm":15494,"판정":15495,"크리":15496,"기계":15497,"이어":15498,"베이":15499,"클리어":15500,"75":15501,"목록":15502,"연출":15503,"각종":15504,"외국":15505,"카이":15506,"하늘":15507,"이외":15508,"타카":15509,"명령":15510,"정하":15511,"##ent":15512,"제일":15513,"2006":15514,"초등":15515,"##운데":15516,"기체":15517,"병력":15518,"지상":15519,"카운":15520,"로봇":15521,"개념":15522,"55":15523,"##보이":15524,"전반":15525,"확정":15526,"기동":15527,"in":15528,"교통":15529,"정작":15530,"193":15531,"건담":15532,"레어":15533,"비용":15534,"별로":15535,"##드리":15536,"파일":15537,"##ak":15538,"화력":15539,"장갑":15540,"올림픽":15541,"케이":15542,"수행":15543,"니까":15544,"군대":15545,"드러나":15546,"사항":15547,"갖추":15548,"표시":15549,"크기":15550,"가운데":15551,"프레":15552,"따로":15553,"인식":15554,"시티":15555,"행위":15556,"사격":15557,"수치":15558,"경쟁":15559,"라이브":15560,"2020":15561,"##라인":15562,"사거리":15563,"to":15564,"##um":15565,"아카":15566,"기반":15567,"변신":15568,"갑자기":15569,"저항":15570,"감정":15571,"',":15572,"나름":15573,"포지션":15574,"##젝트":15575,"언제":15576,"누르":15577,"진화":15578,"이탈리아":15579,"완전":15580,"평균":15581,"왕국":15582,"아키":15583,"단점":15584,"집중":15585,"인천":15586,"보유":15587,"교수":15588,"근처":15589,"통합":15590,"기회":15591,"병원":15592,"살리":15593,"vs":15594,"직전":15595,"던전":15596,"노력":15597,"특이":15598,"냐고":15599,"임무":15600,"##아들이":15601,"의식":15602,"코스":15603,"드리":15604,"자원":15605,"전자":15606,"국회":15607,"설립":15608,"탈출":15609,"레인":15610,"##화국":15611,"정의":15612,"오버":15613,"압도":15614,"##ST":15615,"오른":15616,"이닝":15617,"월드컵":15618,"부모":15619,"단어":15620,"다크":15621,"때리":15622,"부정":15623,"환경":15624,"##em":15625,"고양":15626,"현상":15627,"##ub":15628,"정리":15629,"마시":15630,"사례":15631,"잠시":15632,"사정":15633,"##비아":15634,"판단":15635,"효율":15636,"시전":15637,"제품":15638,"이쪽":15639,"어쩌":15640,"더니":15641,"아파":15642,"극장":15643,"치명":15644,"본래":15645,"##르트":15646,"느리":15647,"나서":15648,"##라스":15649,"##말로":15650,"주제":15651,"무슨":15652,"촬영":15653,"아스":15654,"##000":15655,"삭제":15656,"상관":15657,"의외":15658,"주문":15659,"위원회":15660,"전력":15661,"가문":15662,"ㅏㅆ":15663,"동생":15664,"고속":15665,"원인":15666,"주민":15667,"대구":15668,"여행":15669,"물건":15670,"옮기":15671,"제거":15672,"지배":15673,"강제":15674,"발언":15675,"키우":15676,"소련":15677,"연습":15678,"치료":15679,"병사":15680,"##어로":15681,"포기":15682,"스코":15683,"골드":15684,"위력":15685,"파트":15686,"요시":15687,"도전":15688,"##무리":15689,"전개":15690,"2005":15691,"기다리":15692,"이하":15693,"노트":15694,"역대":15695,"책임":15696,"해군":15697,"중학교":15698,"기념":15699,"##요일":15700,"사무":15701,"도입":15702,"정책":15703,"점프":15704,"나이트":15705,"완성":15706,"복귀":15707,"앞서":15708,"실험":15709,"##ight":15710,"화면":15711,"새로":15712,"42":15713,"려면":15714,"루트":15715,"고정":15716,"공주":15717,"도쿄":15718,"살인":15719,"유사":15720,"바다":15721,"의사":15722,"음식":15723,"41":15724,"##학생":15725,"레드":15726,"페이":15727,"모이":15728,"##야마":15729,"별명":15730,"차원":15731,"직후":15732,"선생":15733,"끝내":15734,"이적":15735,"히어로":15736,"불가":15737,"다수":15738,"버티":15739,"사기":15740,"중반":15741,"39":15742,"받아들이":15743,"잡히":15744,"티어":15745,"전략":15746,"히트":15747,"어둠":15748,"밴드":15749,"에게서":15750,"분명":15751,"마나":15752,"공동":15753,"숨기":15754,"도착":15755,"2004":15756,"무려":15757,"미니":15758,"##모토":15759,"접근":15760,"언어":15761,"녀석":15762,"가치":15763,"제도":15764,"일러":15765,"EX":15766,"LG":15767,"은데":15768,"정당":15769,"으로부터":15770,"오프":15771,"회피":15772,"ㅓㅆ":15773,"추천":15774,"타임":15775,"조종":15776,"고자":15777,"정규":15778,"사상":15779,"시민":15780,"대기":15781,"빌리":15782,"로드":15783,"예전":15784,"##ce":15785,"살아":15786,"확장":15787,"아파트":15788,"신체":15789,"빨리":15790,"##루스":15791,"##그레이드":15792,"업그레이드":15793,"마사":15794,"구매":15795,"##AR":15796,"##드시":15797,"줄이":15798,"연장":15799,"롯데":15800,"리더":15801,"자료":15802,"랭크":15803,"이곳":15804,"반드시":15805,"폭탄":15806,"##os":15807,"투표":15808,"탈락":15809,"타이틀":15810,"인터넷":15811,"부탁":15812,"장치":15813,"학원":15814,"단지":15815,"완벽":15816,"크로":15817,"라이트":15818,"미사일":15819,"종교":15820,"44":15821,"우선":15822,"##ri":15823,"일러스트":15824,"소유":15825,"형식":15826,"해외":15827,"고대":15828,"##시마":15829,"##AN":15830,"구역":15831,"장점":15832,"사령":15833,"최강":15834,"데스":15835,"심각":15836,"산업":15837,"아내":15838,"##ula":15839,"Ch":15840,"금지":15841,"하드":15842,"##ON":15843,"##역시":15844,"추측":15845,"버그":15846,"##이치":15847,"실시":15848,"No":15849,"자마":15850,"위키":15851,"마무리":15852,"##ap":15853,"43":15854,"99":15855,"이라고":15856,"대장":15857,"클럽":15858,"몇몇":15859,"공포":15860,"가사":15861,"노동":15862,"##and":15863,"2002":15864,"연재":15865,"가드":15866,"구분":15867,"취하":15868,"st":15869,"검사":15870,"범죄":15871,"합류":15872,"점점":15873,"달러":15874,"즐기":15875,"서버":15876,"로스":15877,"조정":15878,"##아하":15879,"요청":15880,"이사":15881,"행사":15882,"차례":15883,"##트라":15884,"form":15885,"옵션":15886,"재료":15887,"보병":15888,"그야":15889,"##러리":15890,"##이어":15891,"조작":15892,"선정":15893,"선언":15894,"수많":15895,"마법사":15896,"다소":15897,"전통":15898,"교회":15899,"타자":15900,"걱정":15901,"프로젝트":15902,"kg":15903,"그리스":15904,"종종":15905,"개그":15906,"47":15907,"스포츠":15908,"46":15909,"데이터":15910,"51":15911,"191":15912,"좋아하":15913,"컴퓨":15914,"개월":15915,"암살":15916,"부하":15917,"광고":15918,"입히":15919,"형제":15920,"열차":15921,"##르크":15922,"formula":15923,"에이":15924,"채우":15925,"성향":15926,"뉴스":15927,"대중":15928,"개최":15929,"평범":15930,"##나이":15931,"자마자":15932,"KBS":15933,"포스":15934,"아쉽":15935,"##조건":15936,"그야말로":15937,"실점":15938,"한계":15939,"스페인":15940,"구단":15941,"고르":15942,"재미":15943,"채널":15944,"대결":15945,"설계":15946,"코드":15947,"##ter":15948,"거부":15949,"통신":15950,"언론":15951,"아무리":15952,"워낙":15953,"생물":15954,"다행":15955,"비중":15956,"보조":15957,"복수":15958,"종합":15959,"전화":15960,"행성":15961,"기지":15962,"컴퓨터":15963,"민족":15964,"디스":15965,"and":15966,"한글":15967,"무한":15968,"투입":15969,"개봉":15970,"해석":15971,"알아":15972,"무조건":15973,"##아지":15974,"본격":15975,"영혼":15976,"정확히":15977,"연주":15978,"냐는":15979,"모자":15980,"운용":15981,"굳이":15982,"##ul":15983,"MA":15984,"평소":15985,"실수":15986,"회장":15987,"원정":15988,"광주":15989,"##IN":15990,"지적":15991,"소년":15992,"##타임":15993,"지명":15994,"와중":15995,"##무라":15996,"인상":15997,"1000":15998,"위협":15999,"미드":16000,"박사":16001,"##버리":16002,"2003":16003,"줄어들":16004,"회의":16005,"상징":16006,"충분히":16007,"##op":16008,"등록":16009,"는가":16010,"사태":16011,"집단":16012,"대형":16013,"가정":16014,"대응":16015,"카메":16016,"대비":16017,"보너스":16018,"터미":16019,"아웃":16020,"자동차":16021,"소비":16022,"##ck":16023,"전원":16024,"보컬":16025,"체제":16026,"공사":16027,"페르":16028,"시청자":16029,"%,":16030,"다운":16031,"##로드":16032,"태양":16033,"특유":16034,"희생":16035,"150":16036,"조각":16037,"플래":16038,"가면":16039,"개조":16040,"65":16041,"##FA":16042,"군단":16043,"##자리":16044,"##ation":16045,"무사":16046,"편성":16047,"뿌리":16048,"을지":16049,"도망치":16050,"봉인":16051,"##리트":16052,"여름":16053,"MBC":16054,"마력":16055,"##니스":16056,"SP":16057,"일종":16058,"기자":16059,"##로그":16060,"##ra":16061,"##려가":16062,"192":16063,"육군":16064,"발음":16065,"네이":16066,"장군":16067,"공항":16068,"스크":16069,"생성":16070,"통과":16071,"벗어나":16072,"얼마나":16073,"##의원":16074,"시나":16075,"분리":16076,"로써":16077,"방문":16078,"64":16079,"오리지":16080,"II":16081,"가하":16082,"드러내":16083,"장르":16084,"동맹":16085,"빼앗":16086,"장기":16087,"간단":16088,"함정":16089,"고양이":16090,"반복":16091,"ㅏ서":16092,"서술":16093,"##튜브":16094,"오랜":16095,"##일러":16096,"소식":16097,"의도":16098,"##려오":16099,"##오르":16100,"사쿠":16101,"분야":16102,"디지":16103,"전환":16104,"근데":16105,"52":16106,"불과":16107,"합치":16108,"유튜브":16109,"바닥":16110,"영입":16111,"먹이":16112,"안전":16113,"경기도":16114,"그때":16115,"치르":16116,"브레이":16117,"괴물":16118,"저격":16119,"마크":16120,"##텐츠":16121,"제안":16122,"흡수":16123,"점령":16124,"You":16125,"의지":16126,"##시스":16127,"는다는":16128,"예선":16129,"초대":16130,"필살":16131,"미리":16132,"최후":16133,"##니티":16134,"따지":16135,"400":16136,"개선":16137,"공략":16138,"유도":16139,"##남도":16140,"화염":16141,"숫자":16142,"놀라":16143,"독자":16144,"전술":16145,"##art":16146,"코치":16147,"그저":16148,"방해":16149,"주력":16150,"원하":16151,"액션":16152,"확보":16153,"외모":16154,"인원":16155,"가져오":16156,"매일":16157,"평화":16158,"비트":16159,"진입":16160,"터미널":16161,"이론":16162,"##런스":16163,"규정":16164,"관통":16165,"VS":16166,"클래스":16167,"라디오":16168,"에스":16169,"오토":16170,"찾아오":16171,"장난":16172,"수사":16173,"##오스":16174,"49":16175,"들리":16176,"##나가":16177,"이치":16178,"투자":16179,"승부":16180,"컨셉":16181,"##니까":16182,"눈물":16183,"체육":16184,"목숨":16185,"형성":16186,"지나가":16187,"적극":16188,"느냐":16189,"방패":16190,"AP":16191,"56":16192,"가스":16193,"패러":16194,"상자":16195,"음반":16196,"모험":16197,"사과":16198,"아름":16199,"서브":16200,"리어":16201,"왼쪽":16202,"적절":16203,"부수":16204,"흐르":16205,"인류":16206,"한국어":16207,"계기":16208,"보도":16209,"2001":16210,"##올리":16211,"함대":16212,"구축":16213,"##동생":16214,"거짓":16215,"저지르":16216,"살아남":16217,"의심":16218,"ᆫ지라":16219,"약점":16220,"예술":16221,"공화국":16222,"들이":16223,"역전":16224,"##스케":16225,"인형":16226,"기원":16227,"53":16228,"오리지널":16229,"54":16230,"비디오":16231,"##페이지":16232,"작성":16233,"완료":16234,"더블":16235,"##모리":16236,"...":16237,"자라":16238,"공부":16239,"은퇴":16240,"수리":16241,"코어":16242,"솔로":16243,"회전":16244,"스위":16245,"##라이더":16246,"쓰러지":16247,"풀리":16248,"단순히":16249,"대단":16250,"질문":16251,"In":16252,"걸치":16253,"PC":16254,"편집":16255,"황금":16256,"끌어":16257,"민주당":16258,"마침":16259,"뮤직":16260,"##래프트":16261,"알렉":16262,"시내":16263,"##로우":16264,"안드":16265,"##시브":16266,"홈페이지":16267,"착용":16268,"필수":16269,"트랙":16270,"상대방":16271,"꾸준":16272,"85":16273,"보수":16274,"해제":16275,"미스":16276,"엄마":16277,"카페":16278,"아프리카":16279,"드라이":16280,"경상":16281,"##ia":16282,"사단":16283,"습격":16284,"장관":16285,"편하":16286,"1990":16287,"현장":16288,"날개":16289,"사장":16290,"코스트":16291,"비난":16292,"포르":16293,"희망":16294,"원거리":16295,"##ill":16296,"데리":16297,"오스":16298,"수원":16299,"##ie":16300,"재판":16301,"선보이":16302,"분석":16303,"하위":16304,"##레이션":16305,"명중":16306,"아시아":16307,"진정":16308,"무력":16309,"코믹":16310,"선물":16311,"##RA":16312,"인지":16313,"성인":16314,"수호":16315,"ST":16316,"어라":16317,"모티브":16318,"##IA":16319,"비고":16320,"에이스":16321,"청소":16322,"확실히":16323,"블루":16324,"아름답":16325,"행복":16326,"경계":16327,"부리":16328,"저주":16329,"감안":16330,"카즈":16331,"중단":16332,"태도":16333,"가슴":16334,"190":16335,"##ik":16336,"임명":16337,"남편":16338,"공원":16339,"기획":16340,"지식":16341,"관광":16342,"##나다":16343,"표정":16344,"허용":16345,"승강":16346,"스마":16347,"쿨타임":16348,"장애":16349,"무섭":16350,"수단":16351,"지나치":16352,"오른쪽":16353,"탑재":16354,"바탕":16355,"본선":16356,"멈추":16357,"딱히":16358,"인민":16359,"제시":16360,"친하":16361,"소프트":16362,"상처":16363,"주도":16364,"##무원":16365,"당장":16366,"59":16367,"망하":16368,"##연히":16369,"가까":16370,"##북도":16371,"의문":16372,"영역":16373,"유래":16374,"기점":16375,"유우":16376,"테마":16377,"소울":16378,"테크":16379,"고통":16380,"리스":16381,"보급":16382,"##ab":16383,"직원":16384,"불명":16385,"날아가":16386,"비싸":16387,"아요":16388,"돌파":16389,"기어":16390,"베이스":16391,"위주":16392,"멀티":16393,"작용":16394,"주목":16395,"제압":16396,"대답":16397,"챙기":16398,"120":16399,"58":16400,"나카":16401,"잠깐":16402,"##마스":16403,"##워드":16404,"그라":16405,"주연":16406,"을까":16407,"카운터":16408,"여부":16409,"##울리":16410,"고유":16411,"순서":16412,"제기":16413,"측면":16414,"꺼내":16415,"베르":16416,"체계":16417,"도서":16418,"##est":16419,"게이":16420,"57":16421,"업무":16422,"박스":16423,"진영":16424,"부인":16425,"우수":16426,"##th":16427,"MP":16428,"멀리":16429,"문명":16430,"이스":16431,"카메라":16432,"패스":16433,"횟수":16434,"드립":16435,"후속":16436,"멸망":16437,"통일":16438,"온라인":16439,"##all":16440,"버튼":16441,"공장":16442,"##트롤":16443,"텔레":16444,"시나리오":16445,"지점":16446,"거주":16447,"케이스":16448,"귀족":16449,"나뉘":16450,"##ea":16451,"66":16452,"95":16453,"코너":16454,"문자":16455,"당선":16456,"내려가":16457,"에어":16458,"겨우":16459,"고서":16460,"협력":16461,"차별":16462,"특기":16463,"계산":16464,"소수":16465,"지옥":16466,"후지":16467,"약속":16468,"듀얼":16469,"삼국":16470,"최악":16471,"ㄴ데":16472,"눈치":16473,"마츠":16474,"크로스":16475,"건너":16476,"뉴욕":16477,"달라지":16478,"Sh":16479,"연계":16480,"딜러":16481,"시체":16482,"은행":16483,"##붙이":16484,"##머리":16485,"Lo":16486,"##ct":16487,"스펙":16488,"늘리":16489,"살해":16490,"가볍":16491,"ddd":16492,"on":16493,"나타내":16494,"개편":16495,"상하":16496,"오후":16497,"유키":16498,"가져가":16499,"1999":16500,"퍼지":16501,"##다르":16502,"스케":16503,"Re":16504,"붕괴":16505,"처치":16506,"배신":16507,"게시":16508,"대놓":16509,"자격":16510,"혁명":16511,"매치":16512,"군주":16513,"부담":16514,"110":16515,"##라리":16516,"##ddd":16517,"ㅓ서":16518,"dddddd":16519,"Sp":16520,"컨트롤":16521,"게이지":16522,"1998":16523,"##스티":16524,"##AL":16525,"해금":16526,"그레이":16527,"겨울":16528,"국회의원":16529,"어울리":16530,"견제":16531,"증거":16532,"레이저":16533,"스탠":16534,"외부":16535,"최대한":16536,"군인":16537,"장전":16538,"교사":16539,"필살기":16540,"##AT":16541,"62":16542,"출발":16543,"진실":16544,"자살":16545,"제조":16546,"핵심":16547,"##바이":16548,"##PS":16549,"정권":16550,"##워하":16551,"어린":16552,"##피아":16553,"대원":16554,"여왕":16555,"전장":16556,"드물":16557,"궁극":16558,"미군":16559,"##OR":16560,"중화":16561,"연방":16562,"용병":16563,"마왕":16564,"##니어":16565,"스프":16566,"로켓":16567,"귀엽":16568,"아침":16569,"댄스":16570,"##VE":16571,"##레인":16572,"거절":16573,"제로":16574,"충전":16575,"##아리":16576,"한화":16577,"타이밍":16578,"출생":16579,"쓰러":16580,"자이":16581,"유용":16582,"가르치":16583,"공산":16584,"체인":16585,"SS":16586,"일본어":16587,"기분":16588,"SBS":16589,"이성":16590,"##터리":16591,"커뮤":16592,"조준":16593,"만족":16594,"충돌":16595,"고급":16596,"브랜드":16597,"도구":16598,"단위":16599,"취소":16600,"ᆯ수록":16601,"애매":16602,"교환":16603,"는다고":16604,"스피드":16605,"부진":16606,"##달리":16607,"거래":16608,"##ate":16609,"스킨":16610,"ㄴ다고":16611,"##로이드":16612,"미나":16613,"##사카":16614,"수학":16615,"가로":16616,"흔히":16617,"##ess":16618,"피해자":16619,"극장판":16620,"토스":16621,"Th":16622,"카르":16623,"##ell":16624,"61":16625,"반란":16626,"제주":16627,"##광역시":16628,"발휘":16629,"세계관":16630,"얼음":16631,"##ard":16632,"무게":16633,"76":16634,"##래도":16635,"오스트":16636,"끼리":16637,"장수":16638,"파악":16639,"후반부":16640,"자고":16641,"하트":16642,"##ang":16643,"단독":16644,"아무래도":16645,"겹치":16646,"인생":16647,"모션":16648,"레전":16649,"홍콩":16650,"패시브":16651,"공통":16652,"##IC":16653,"갈리":16654,"근무":16655,"판타":16656,"자르":16657,"미야":16658,"##ue":16659,"신화":16660,"비록":16661,"격투":16662,"아머":16663,"막히":16664,"한자":16665,"헤드":16666,"우려":16667,"##ant":16668,"##ack":16669,"순수":16670,"##ers":16671,"따위":16672,"피아":16673,"몰리":16674,"Al":16675,"NP":16676,"웨이":16677,"77":16678,"구입":16679,"##두르":16680,"정령":16681,"파이터":16682,"브리":16683,"##ine":16684,"88":16685,"공군":16686,"1997":16687,"##다수":16688,"운전":16689,"72":16690,"등등":16691,"혼란":16692,"계급":16693,"자식":16694,"가입":16695,"수입":16696,"##하라":16697,"아메":16698,"스코어":16699,"닥터":16700,"##심히":16701,"내주":16702,"트레이":16703,"회수":16704,"권력":16705,"경력":16706,"##어내":16707,"본부":16708,"채용":16709,"지시":16710,"공작":16711,"근거":16712,"마이크":16713,"커버":16714,"##피스":16715,"탄생":16716,"생일":16717,"밸런스":16718,"해방":16719,"조지":16720,"비율":16721,"누리":16722,"외치":16723,"기절":16724,"건강":16725,"지하철":16726,"언니":16727,"용도":16728,"테러":16729,"남부":16730,"꾸준히":16731,"##가락":16732,"병기":16733,"엑스":16734,"표준":16735,"갤러리":16736,"BG":16737,"ㅕ서":16738,"타워":16739,"실질":16740,"돌격":16741,"지대":16742,"##ok":16743,"##OS":16744,"납치":16745,"증명":16746,"협회":16747,"반영":16748,"홍보":16749,"모리":16750,"지급":16751,"아사":16752,"무너지":16753,"프라":16754,"대공":16755,"강조":16756,"입학":16757,"be":16758,"플라":16759,"오오":16760,"업체":16761,"트위":16762,"불안":16763,"랜덤":16764,"373":16765,"FI":16766,"유형":16767,"외교":16768,"요원":16769,"##디션":16770,"경영":16771,"왕자":16772,"##아나":16773,"or":16774,"##유키":16775,"아나":16776,"감염":16777,"대륙":16778,"경향":16779,"##세이":16780,"98":16781,"fff":16782,"온갖":16783,"훌륭":16784,"광역":16785,"감사":16786,"CD":16787,"gt":16788,"연대":16789,"마녀":16790,"실행":16791,"맡기":16792,"장식":16793,"문학":16794,"##ive":16795,"패러디":16796,"##웨이":16797,"기독":16798,"트라":16799,"페이스":16800,"메탈":16801,"찌르":16802,"물질":16803,"600":16804,"주어지":16805,"##오리":16806,"없애":16807,"ㅓ야":16808,"내놓":16809,"입단":16810,"재생":16811,"가까이":16812,"##크래프트":16813,"울트라":16814,"스페셜":16815,"화살":16816,"추진":16817,"주년":16818,"어차":16819,"찾아가":16820,"집안":16821,"고민":16822,"내내":16823,"설득":16824,"대다수":16825,"계승":16826,"1996":16827,"서포":16828,"선배":16829,"승강장":16830,"살짝":16831,"사카":16832,"##트로":16833,"어차피":16834,"부문":16835,"폐지":16836,"##ast":16837,"이슬":16838,"캐나다":16839,"##고기":16840,"PS":16841,"##AS":16842,"영원":16843,"정지":16844,"대놓고":16845,"##들리":16846,"신문":16847,"베트":16848,"1995":16849,"보물":16850,"적당":16851,"지우":16852,"##메달":16853,"신뢰":16854,"사전":16855,"##바로":16856,"브라질":16857,"##어리":16858,"파라":16859,"연예":16860,"작사":16861,"즉시":16862,"아리":16863,"기기":16864,"##uby":16865,"\",":16866,"전선":16867,"당황":16868,"##ED":16869,"미소":16870,"내려오":16871,"함선":16872,"흘리":16873,"괴롭":16874,"##tt":16875,"##즈키":16876,"##이터":16877,"68":16878,"뒤집":16879,"페이지":16880,"##ee":16881,"폭풍":16882,"등판":16883,"은근":16884,"lt":16885,"오픈":16886,"800":16887,"소문":16888,"탑승":16889,"명예":16890,"열심히":16891,"스파이":16892,"상품":16893,"화장":16894,"입수":16895,"레전드":16896,"오프닝":16897,"갑옷":16898,"별도":16899,"경유":16900,"러브":16901,"심리":16902,"시행":16903,"경기장":16904,"단일":16905,"파리":16906,"##거나":16907,"63":16908,"라스":16909,"말리":16910,"의회":16911,"1980":16912,"변호":16913,"##시오":16914,"통제":16915,"마련":16916,"##카와":16917,"댓글":16918,"반격":16919,"##ong":16920,"##AM":16921,"ruby":16922,"스티":16923,"운명":16924,"가면라이더":16925,"오류":16926,"정류":16927,"응원":16928,"푸르":16929,"트레":16930,"##세우":16931,"레오":16932,"후쿠":16933,"한때":16934,"커뮤니티":16935,"신청":16936,"쓰레":16937,"트위터":16938,"격파":16939,"라이벌":16940,"사령관":16941,"##ort":16942,"김성":16943,"주전":16944,"고전":16945,"기독교":16946,"출판":16947,"습득":16948,"이승":16949,"##웨어":16950,"중계":16951,"공기":16952,"편의":16953,"##ith":16954,"수업":16955,"하수":16956,"심장":16957,"처하":16958,"##리티":16959,"오해":16960,"불만":16961,"신고":16962,"마인":16963,"마주":16964,"두산":16965,"울산":16966,"##아먹":16967,"71":16968,"##if":16969,"74":16970,"관객":16971,"##다지":16972,"외국인":16973,"카나":16974,"정말로":16975,"랜드":16976,"보정":16977,"주위":16978,"##ly":16979,"크루":16980,"##fff":16981,"건축":16982,"##아버지":16983,"출장":16984,"....":16985,"스트라이":16986,"용어":16987,"MV":16988,"##나무":16989,"##ld":16990,"고기":16991,"공유":16992,"그곳":16993,"전달":16994,"73":16995,"여론":16996,"67":16997,"아트":16998,"메이저":16999,"ffffff":17000,"민간":17001,"사운드":17002,"짜리":17003,"절반":17004,"가리키":17005,"조치":17006,"##티컬":17007,"고치":17008,"지형":17009,"갈등":17010,"여신":17011,"##도우":17012,"붙잡":17013,"임시":17014,"무적":17015,"자치":17016,"##학자":17017,"재능":17018,"가득":17019,"아오":17020,"전함":17021,"전공":17022,"요새":17023,"압박":17024,"NC":17025,"##ain":17026,"리버":17027,"별개":17028,"엔터":17029,"초월":17030,"##ist":17031,"96":17032,"카라":17033,"##겨나":17034,"쌓이":17035,"종점":17036,"연구소":17037,"오로":17038,"네이버":17039,"스튜":17040,"1994":17041,"##ind":17042,"북쪽":17043,"전형":17044,"추적":17045,"메가":17046,"TH":17047,"그다지":17048,"메타":17049,"시각":17050,"아시":17051,"##타인":17052,"180":17053,"컨텐츠":17054,"남쪽":17055,"제하":17056,"늑대":17057,"보장":17058,"발매되":17059,"이란":17060,"지켜":17061,"테이":17062,"AC":17063,"돌진":17064,"소멸":17065,"##서트":17066,"판타지":17067,"시야":17068,"81":17069,"AT":17070,"결승전":17071,"전시":17072,"널리":17073,"클라":17074,"타점":17075,"든지":17076,"다행히":17077,"파이어":17078,"일부러":17079,"##per":17080,"불꽃":17081,"그만큼":17082,"동네":17083,"화이트":17084,"환자":17085,"##듀서":17086,"프로듀서":17087,"##ps":17088,"강원":17089,"동기":17090,"가이":17091,"##지컬":17092,"##EN":17093,"서부":17094,"여동생":17095,"문제점":17096,"흔하":17097,"적히":17098,"화려":17099,"##츠키":17100,"쓰러뜨리":17101,"그림자":17102,"선호":17103,"왕조":17104,"동원":17105,"폭력":17106,"상향":17107,"우스":17108,"지켜보":17109,"파이널":17110,"회원":17111,"대만":17112,"뛰어":17113,"본명":17114,"치명타":17115,"유로":17116,"북부":17117,"유비":17118,"신세":17119,"아가":17120,"맞서":17121,"물러":17122,"##EC":17123,"소드":17124,"자는":17125,"따오":17126,"신라":17127,"78":17128,"##가와":17129,"##식간":17130,"91":17131,"##OL":17132,"##스탄":17133,"수요":17134,"순식간":17135,"연상":17136,"무난":17137,"##ew":17138,"도서관":17139,"테스트":17140,"향상":17141,"메시":17142,"전역":17143,"매력":17144,"클로":17145,"학과":17146,"##돌리":17147,"차트":17148,"전적":17149,"##더스":17150,"변형":17151,"스토":17152,"최상":17153,"전방":17154,"시드":17155,"부품":17156,"찾아":17157,"지르":17158,"84":17159,"CP":17160,"체포":17161,"영토":17162,"아일":17163,"일상":17164,"수집":17165,"크리티컬":17166,"암흑":17167,"전투력":17168,"게이트":17169,"##사키":17170,"코믹스":17171,"아우":17172,"키스":17173,"영업":17174,"##LC":17175,"마술":17176,"me":17177,"인수":17178,"토모":17179,"##ry":17180,"수용":17181,"이마":17182,"저런":17183,"조절":17184,"파견":17185,"드디어":17186,"폭격":17187,"복잡":17188,"학살":17189,"복장":17190,"유전":17191,"##려움":17192,"오빠":17193,"##어스":17194,"82":17195,"대우":17196,"바라보":17197,"떡밥":17198,"##lo":17199,"입력":17200,"그래픽":17201,"구현":17202,"편지":17203,"개통":17204,"생명력":17205,"호환":17206,"##드라":17207,"현지":17208,"97":17209,"니시":17210,"추락":17211,"신인":17212,"사자":17213,"천사":17214,"도달":17215,"아무런":17216,"고향":17217,"동부":17218,"닌자":17219,"사토":17220,"##덜란드":17221,"네덜란드":17222,"청년":17223,"86":17224,"창작":17225,"디아":17226,"경비":17227,"점차":17228,"반지":17229,"작동":17230,"맞이":17231,"콜라":17232,"콘서트":17233,"연관":17234,"프레임":17235,"교황":17236,"제이":17237,"엘프":17238,"종이":17239,"한국인":17240,"쓰레기":17241,"수송":17242,"출현":17243,"노예":17244,"스톤":17245,"기초":17246,"그치":17247,"##레나":17248,"모바":17249,"추격":17250,"해설":17251,"it":17252,"해체":17253,"69":17254,"##퍼스":17255,"다시피":17256,"몰래":17257,"달하":17258,"##어버리":17259,"구도":17260,"조용":17261,"충청":17262,"의상":17263,"##노스":17264,"심판":17265,"##크스":17266,"간격":17267,"공급":17268,"녹음":17269,"아티":17270,"is":17271,"주먹":17272,"아무것":17273,"##히로":17274,"식물":17275,"토리":17276,"막장":17277,"시위":17278,"조성":17279,"NPC":17280,"프리미":17281,"전투기":17282,"사쿠라":17283,"##오프":17284,"##IT":17285,"제자":17286,"조조":17287,"잉글":17288,"연사":17289,"둘러":17290,"##둥이":17291,"돌아다니":17292,"수술":17293,"무효":17294,"스마트":17295,"연애":17296,"검색":17297,"슬롯":17298,"실드":17299,"만든":17300,"##시코":17301,"마스":17302,"감시":17303,"##타로":17304,"레스":17305,"스카이":17306,"US":17307,"일제":17308,"블록":17309,"꼬리":17310,"헤이":17311,"법원":17312,"##스트라":17313,"동쪽":17314,"##특별":17315,"마리오":17316,"나루":17317,"경험치":17318,"구체":17319,"MS":17320,"고교":17321,"옛날":17322,"놓치":17323,"##오카":17324,"##보내":17325,"An":17326,"통상":17327,"총기":17328,"김정":17329,"##티나":17330,"범인":17331,"탱크":17332,"구속":17333,"베트남":17334,"라이더":17335,"진지":17336,"##모로":17337,"##버트":17338,"##ust":17339,"신분":17340,"대립":17341,"신규":17342,"장교":17343,"성과":17344,"은하":17345,"연락":17346,"국립":17347,"예외":17348,"쿠키":17349,"250":17350,"어깨":17351,"##주시":17352,"KT":17353,"강의":17354,"인근":17355,"##어도":17356,"입구":17357,"지도자":17358,"신성":17359,"다섯":17360,"차단":17361,"규칙":17362,"글자":17363,"##50":17364,"되찾":17365,"불편":17366,"대대":17367,"메카":17368,"이랑":17369,"마도":17370,"평타":17371,"프린":17372,"요정":17373,"언제나":17374,"바보":17375,"창조":17376,"박살":17377,"코인":17378,"마리아":17379,"안습":17380,"총선":17381,"유희":17382,"모바일":17383,"동작":17384,"토론":17385,"##도로":17386,"후기":17387,"전라":17388,"##비전":17389,"##일리":17390,"여러모로":17391,"환상":17392,"아크":17393,"에드":17394,"189":17395,"거짓말":17396,"##디아":17397,"노출":17398,"기여":17399,"의료":17400,"##파이어":17401,"##브리":17402,"권총":17403,"세월":17404,"소총":17405,"접하":17406,"이래":17407,"이리":17408,"이득":17409,"농구":17410,"어택":17411,"##자키":17412,"일원":17413,"자이언":17414,"무료":17415,"신호":17416,"가시":17417,"블레이드":17418,"202":17419,"서쪽":17420,"##영상":17421,"이날":17422,"1992":17423,"부위":17424,"출처":17425,"음성":17426,"정복":17427,"개혁":17428,"미술":17429,"폭주":17430,"극단":17431,"잠수":17432,"##스턴":17433,"고생":17434,"띄우":17435,"92":17436,"헌터":17437,"##BO":17438,"##ore":17439,"##저히":17440,"간부":17441,"##톨릭":17442,"Ar":17443,"참전":17444,"반발":17445,"전직":17446,"교전":17447,"고용":17448,"투어":17449,"대체로":17450,"양산":17451,"일자":17452,"보석":17453,"고문":17454,"폴란드":17455,"대량":17456,"키리":17457,"연도":17458,"상점":17459,"83":17460,"하고":17461,"글로":17462,"라이프":17463,"제법":17464,"호평":17465,"상상":17466,"제어":17467,"사마":17468,"길이":17469,"동영상":17470,"수영":17471,"정류장":17472,"승격":17473,"전대":17474,"Te":17475,"##보드":17476,"출력":17477,"사양":17478,"합격":17479,"89":17480,"기습":17481,"잖아":17482,"휘두르":17483,"터치":17484,"##FF":17485,"101":17486,"93":17487,"1993":17488,"공학":17489,"잉글랜드":17490,"반하":17491,"지휘관":17492,"북미":17493,"De":17494,"MAX":17495,"제작진":17496,"태우":17497,"기병":17498,"득표":17499,"윌리":17500,"중대":17501,"94":17502,"요괴":17503,"마루":17504,"합성":17505,"미디어":17506,"다이아":17507,"머신":17508,"환승":17509,"인증":17510,"법률":17511,"com":17512,"79":17513,"끼치":17514,"메인":17515,"적어도":17516,"##일드":17517,"탄약":17518,"조심":17519,"가량":17520,"박근":17521,"런던":17522,"회차":17523,"구출":17524,"요즘":17525,"탱커":17526,"##FC":17527,"파일럿":17528,"의혹":17529,"원소":17530,"re":17531,"매니":17532,"리얼":17533,"활성":17534,"사이드":17535,"동방":17536,"유령":17537,"포탑":17538,"하수인":17539,"알파":17540,"노멀":17541,"삼진":17542,"히데":17543,"침공":17544,"다면서":17545,"87":17546,"마이클":17547,"디지털":17548,"분기":17549,"이재":17550,"##란색":17551,"개정":17552,"서양":17553,"멋지":17554,"가톨릭":17555,"묘지":17556,"인공":17557,"의무":17558,"##우드":17559,"볼넷":17560,"훔치":17561,"이슬람":17562,"똑같이":17563,"네임":17564,"가속":17565,"결성":17566,"##one":17567,"예비":17568,"축제":17569,"대략":17570,"On":17571,"가게":17572,"블러":17573,"학자":17574,"패널":17575,"경고":17576,"레인저":17577,"계정":17578,"보고":17579,"##se":17580,"타케":17581,"이자":17582,"리아":17583,"##ip":17584,"헌법":17585,"소화":17586,"전면":17587,"이내":17588,"아일랜드":17589,"##AC":17590,"AI":17591,"부부":17592,"스키":17593,"DJ":17594,"특화":17595,"##RE":17596,"익숙":17597,"용사":17598,"상호":17599,"어지":17600,"##미야":17601,"나아가":17602,"미츠":17603,"었었":17604,"갤럭":17605,"##ere":17606,"캐스":17607,"##먼트":17608,"이시":17609,"스웨":17610,"##임스":17611,"문장":17612,"바이러스":17613,"메모리":17614,"슈트":17615,"도망가":17616,"워치":17617,"실리":17618,"근육":17619,"대항":17620,"커맨":17621,"불법":17622,"넘치":17623,"##PG":17624,"리메":17625,"BGM":17626,"MC":17627,"플레이오프":17628,"핸드":17629,"베스트":17630,"어둡":17631,"오가":17632,"플로":17633,"SN":17634,"자매":17635,"유행":17636,"묻히":17637,"한방":17638,"개체":17639,"##ity":17640,"도발":17641,"냐며":17642,"들어서":17643,"##ath":17644,"김영":17645,"##창기":17646,"보안":17647,"쿠로":17648,"육성":17649,"##조리":17650,"예측":17651,"빛나":17652,"어린이":17653,"예고":17654,"트로":17655,"소닉":17656,"이즈":17657,"자금":17658,"갤럭시":17659,"##라이언":17660,"신기":17661,"총리":17662,"으니까":17663,"루시":17664,"노르":17665,"검찰":17666,"취임":17667,"멕시코":17668,"형사":17669,"FIFA":17670,"터키":17671,"마냥":17672,"정면":17673,"결론":17674,"사제":17675,"길드":17676,"##end":17677,"국방":17678,"웬만":17679,"차리":17680,"리스트":17681,"스톰":17682,"고백":17683,"1991":17684,"##끄럽":17685,"루타":17686,"파크":17687,"구멍":17688,"캐리":17689,"식사":17690,"움직임":17691,"불러":17692,"마구":17693,"일시":17694,"레이스":17695,"리치":17696,"세이브":17697,"호텔":17698,"곧바로":17699,"상업":17700,"앞두":17701,"감옥":17702,"이명":17703,"!!":17704,"##펙트":17705,"저장":17706,"여유":17707,"절망":17708,"제임스":17709,"찾아보":17710,"개방":17711,"부서":17712,"진심":17713,"##워크":17714,"투구":17715,"사이즈":17716,"구원":17717,"틀리":17718,"유대":17719,"볼트":17720,"초창기":17721,"플랫":17722,"세르":17723,"THE":17724,"700":17725,"타마":17726,"플레":17727,"대가":17728,"FA":17729,"피부":17730,"너무나":17731,"와이":17732,"배차":17733,"##요시":17734,"박정":17735,"##고리":17736,"청소년":17737,"오랫":17738,"팀원":17739,"ㄴ다면":17740,"흥행":17741,"ㅕㅆ":17742,"강철":17743,"번개":17744,"바치":17745,"카타":17746,"착각":17747,"좌우":17748,"##특별시":17749,"전철":17750,"커플":17751,"##릭스":17752,"여지":17753,"1988":17754,"##구리":17755,"바위":17756,"파트너":17757,"발달":17758,"어떠":17759,"##레이터":17760,"세포":17761,"리메이크":17762,"MVP":17763,"소형":17764,"##로나":17765,"아끼":17766,"처벌":17767,"그동안":17768,"스미":17769,"서울특별시":17770,"떠오르":17771,"다스":17772,"현역":17773,"레이드":17774,"아기":17775,"신설":17776,"긍정":17777,"아빠":17778,"주식":17779,"융합":17780,"##데스":17781,"##네스":17782,"주간":17783,"원자":17784,"망치":17785,"외계":17786,"분량":17787,"차라리":17788,"프라이":17789,"정착":17790,"Ro":17791,"위장":17792,"물러나":17793,"미카":17794,"##OT":17795,"인정받":17796,"돼지":17797,"반사":17798,"챕터":17799,"카스":17800,"합의":17801,"##디언":17802,"식민":17803,"랭킹":17804,"내성":17805,"##성기":17806,"목격":17807,"인연":17808,"누적":17809,"커지":17810,"협박":17811,"전문가":17812,"내장":17813,"장악":17814,"단장":17815,"게스트":17816,"의뢰":17817,"화학":17818,"빌드":17819,"에다":17820,"CC":17821,"방지":17822,"에서부터":17823,"포스트":17824,"클리":17825,"야스":17826,"브레이크":17827,"잡지":17828,"박근혜":17829,"Wh":17830,"해병":17831,"영향력":17832,"공지":17833,"논리":17834,"대리":17835,"방출":17836,"안드로이드":17837,"동의":17838,"태그":17839,"국왕":17840,"사우":17841,"방사":17842,"는다면":17843,"AK":17844,"시즈":17845,"깨지":17846,"대지":17847,"타이거":17848,"먹히":17849,"조약":17850,"고지":17851,"포트":17852,"각자":17853,"그대":17854,"몰아":17855,"떠올리":17856,"요코":17857,"배트":17858,"한번":17859,"괴롭히":17860,"관할":17861,"저녁":17862,"지능":17863,"##ect":17864,"DLC":17865,"골든":17866,"국군":17867,"하필":17868,"칭하":17869,"htt":17870,"라면서":17871,"대폭":17872,"Se":17873,"1970":17874,"의존":17875,"##스키":17876,"최소한":17877,"양쪽":17878,"으려고":17879,"손가락":17880,"호주":17881,"토르":17882,"Le":17883,"악역":17884,"마침내":17885,"루이":17886,"스턴":17887,"##지마":17888,"동화":17889,"홀로":17890,"연맹":17891,"과목":17892,"변호사":17893,"실버":17894,"공무원":17895,"유치":17896,"'.":17897,"후속작":17898,"막차":17899,"기구":17900,"수련":17901,"본작":17902,"그럼":17903,"무역":17904,"섞이":17905,"수수":17906,"He":17907,"면역":17908,"소지":17909,"보관":17910,"소원":17911,"오랫동안":17912,"무덤":17913,"PD":17914,"##age":17915,"오사카":17916,"웹툰":17917,"주말":17918,"역임":17919,"##IS":17920,"귀신":17921,"오카":17922,"육체":17923,"연인":17924,"##밀리":17925,"크라":17926,"기원전":17927,"al":17928,"혐의":17929,"스튜디오":17930,"해리":17931,"내구":17932,"명중률":17933,"확대":17934,"재산":17935,"카오스":17936,"접촉":17937,"호감":17938,"어쨌":17939,"불교":17940,"다가오":17941,"적대":17942,"##구치":17943,"네트":17944,"kt":17945,"##잡이":17946,"노부":17947,"대처":17948,"명성":17949,"써먹":17950,"강남":17951,"스틸":17952,"태평":17953,"계단":17954,"올해":17955,"전후":17956,"비행기":17957,"Go":17958,"연료":17959,"예능":17960,"정비":17961,"Me":17962,"출마":17963,"통치":17964,"테일":17965,"간혹":17966,"슈팅":17967,"##페인":17968,"팔리":17969,"오늘날":17970,"합체":17971,"트레이드":17972,"피스":17973,"로즈":17974,"모모":17975,"예쁘":17976,"정치인":17977,"부장":17978,"컬러":17979,"마키":17980,"정원":17981,"퀄리티":17982,"흐름":17983,"개성":17984,"소장":17985,"블리":17986,"리드":17987,"시마":17988,"안내":17989,"놀랍":17990,"그로":17991,"학부":17992,"이지":17993,"오전":17994,"게시판":17995,"소스":17996,"GT":17997,"놓이":17998,"##다이":17999,"준수":18000,"휴대":18001,"접속":18002,"저그":18003,"수익":18004,"더라":18005,"권리":18006,"##베르":18007,"1989":18008,"떨어":18009,"##라드":18010,"KIA":18011,"권한":18012,"원수":18013,"특집":18014,"패하":18015,"연극":18016,"하우스":18017,"##og":18018,"외형":18019,"금융":18020,"##ake":18021,"##ide":18022,"필리":18023,"##어나오":18024,"박물":18025,"코미":18026,"선전":18027,"화제":18028,"김태":18029,"새벽":18030,"허리":18031,"윌리엄":18032,"상당수":18033,"##OM":18034,"Be":18035,"피격":18036,"이집":18037,"My":18038,"초간":18039,"이집트":18040,"주기":18041,"WW":18042,"무렵":18043,"따라가":18044,"공공":18045,"ᆫ다며":18046,"누나":18047,"담기":18048,"환영":18049,"편곡":18050,"페이즈":18051,"일기":18052,"130":18053,"최다":18054,"금속":18055,"포르투":18056,"갇히":18057,"꼽히":18058,"알아보":18059,"##려주":18060,"나치":18061,"AR":18062,"둘째":18063,"메르":18064,"고구":18065,"원칙":18066,"##ss":18067,"카미":18068,"결합":18069,"SC":18070,"##ark":18071,"##바라":18072,"##티아":18073,"##ime":18074,"깨닫":18075,"연타":18076,"##ire":18077,"알렉산":18078,"할아버지":18079,"치우":18080,"SM":18081,"편입":18082,"식당":18083,"시계":18084,"굴리":18085,"유물":18086,"개입":18087,"문재":18088,"캠퍼스":18089,"한동안":18090,"기도":18091,"인조":18092,"매직":18093,"어른":18094,"##세스":18095,"지진":18096,"거인":18097,"188":18098,"전신":18099,"으러":18100,"소중":18101,"아니면":18102,"극복":18103,"wh":18104,"116":18105,"블로그":18106,"전진":18107,"시선":18108,"까다":18109,"성립":18110,"영문":18111,"주사":18112,"my":18113,"Su":18114,"##ES":18115,"정찰":18116,"은근히":18117,"정글":18118,"헤비":18119,"회상":18120,"아바":18121,"기사단":18122,"##프레":18123,"사도":18124,"SD":18125,"협상":18126,"ㅓ도":18127,"캐스팅":18128,"메뉴":18129,"궤도":18130,"스웨덴":18131,"##ID":18132,"시내버스":18133,"팬덤":18134,"Tr":18135,"음원":18136,"는지라":18137,"대개":18138,"##닉스":18139,"작곡가":18140,"손해":18141,"##ite":18142,"##던가":18143,"익히":18144,"대충":18145,"구나":18146,"튀어나오":18147,"독특":18148,"재단":18149,"수십":18150,"동굴":18151,"##다랗":18152,"우위":18153,"더더":18154,"별다르":18155,"복무":18156,"무겁":18157,"##아시아":18158,"고수":18159,"안티":18160,"민주주의":18161,"용기":18162,"우라":18163,"식량":18164,"##부르크":18165,"털리":18166,"트럭":18167,"160":18168,"교차":18169,"종목":18170,"이익":18171,"해안":18172,"##회사":18173,"처형":18174,"##ound":18175,"조언":18176,"일찍":18177,"멀쩡":18178,"트랜":18179,"SR":18180,"아이스":18181,"클래식":18182,"과제":18183,"리듬":18184,"이끄":18185,"세이버":18186,"위상":18187,"##iv":18188,"원본":18189,"더더욱":18190,"HD":18191,"''":18192,"펀치":18193,"커맨드":18194,"신비":18195,"커스":18196,"##리그":18197,"김민":18198,"빼앗기":18199,"타인":18200,"박물관":18201,"까다롭":18202,"트윈":18203,"##가미":18204,"애플":18205,"##iz":18206,"##OP":18207,"삼국지":18208,"##쳐지":18209,"훗날":18210,"##ge":18211,"증언":18212,"해적":18213,"멘탈":18214,"천재":18215,"날짜":18216,"허나":18217,"절대로":18218,"적군":18219,"IC":18220,"자국":18221,"일격":18222,"살아가":18223,"마비":18224,"신앙":18225,"위원장":18226,"구사":18227,"##가리":18228,"신부":18229,"##큐어":18230,"##OW":18231,"갈수록":18232,"노인":18233,"재미있":18234,"각본":18235,"무릎":18236,"코우":18237,"중독":18238,"하얗":18239,"느라":18240,"##가시":18241,"기적":18242,"재정":18243,"죄다":18244,"바리":18245,"세종":18246,"주포":18247,"집행":18248,"양성":18249,"##무르":18250,"스승":18251,"철학":18252,"하락":18253,"참석":18254,"놀이":18255,"지위":18256,"##바르":18257,"마이너":18258,"캠페인":18259,"과연":18260,"비례":18261,"데모":18262,"유이":18263,"정수":18264,"개시":18265,"예산":18266,"결코":18267,"모자라":18268,"국적":18269,"적응":18270,"패션":18271,"교류":18272,"관중":18273,"호위":18274,"작화":18275,"크리스마스":18276,"한참":18277,"탄창":18278,"매체":18279,"이브":18280,"이중":18281,"##덩이":18282,"##LL":18283,"열쇠":18284,"안경":18285,"히메":18286,"##ome":18287,"하야":18288,"활발":18289,"시아":18290,"경기력":18291,"Gr":18292,"내세우":18293,"원주":18294,"어다":18295,"선출":18296,"투명":18297,"십자":18298,"##테르":18299,"해상":18300,"with":18301,"바퀴":18302,"우연히":18303,"김종":18304,"루수":18305,"체크":18306,"##BA":18307,"희귀":18308,"명단":18309,"비추":18310,"녹색":18311,"충성":18312,"##UN":18313,"화성":18314,"클레":18315,"##마디":18316,"진보":18317,"미안":18318,"스타크래프트":18319,"드레":18320,"데려오":18321,"이영":18322,"칭찬":18323,"개수":18324,"사막":18325,"개막":18326,"첫차":18327,"주일":18328,"로그":18329,"결말":18330,"##아웃":18331,"IS":18332,"위대":18333,"행적":18334,"##미니":18335,"전성기":18336,"##몬드":18337,"제정":18338,"으라":18339,"당일":18340,"의대":18341,"모래":18342,"기르":18343,"인지도":18344,"흔적":18345,"칼리":18346,"1987":18347,"상급":18348,"기종":18349,"챌린":18350,"흔들리":18351,"후방":18352,"업적":18353,"오스트리아":18354,"de":18355,"미터":18356,"강점":18357,"BE":18358,"px":18359,"임대":18360,"상성":18361,"140":18362,"농담":18363,"어지간":18364,"김동":18365,"웃음":18366,"포로":18367,"호수":18368,"계통":18369,"사유":18370,"도우":18371,"보라":18372,"##MA":18373,"Pr":18374,"버스터":18375,"재현":18376,"대학원":18377,"취미":18378,"면적":18379,"무작":18380,"새기":18381,"매년":18382,"##ord":18383,"스프링":18384,"어쨌든":18385,"Love":18386,"비상":18387,"오직":18388,"토끼":18389,"구리":18390,"어려움":18391,"체육관":18392,"클릭":18393,"##려나":18394,"심사":18395,"##ud":18396,"일반인":18397,"포항":18398,"고스트":18399,"개량":18400,"##가스":18401,"사후":18402,"신장":18403,"거점":18404,"프리큐어":18405,"생존자":18406,"유적":18407,"이정":18408,"남북":18409,"어마":18410,"강도":18411,"기아":18412,"자책":18413,"과장":18414,"니코":18415,"새끼":18416,"ch":18417,"본체":18418,"으시":18419,"모조리":18420,"##양함":18421,"자본":18422,"대수":18423,"괴수":18424,"자극":18425,"예수":18426,"이주":18427,"가을":18428,"##mp":18429,"부지":18430,"파츠":18431,"##사자":18432,"화물":18433,"##데미":18434,"울리":18435,"사라":18436,"##10":18437,"로우":18438,"부작":18439,"맥스":18440,"저작":18441,"전멸":18442,"##ame":18443,"기용":18444,"소위":18445,"UE":18446,"선고":18447,"##ance":18448,"아메리카":18449,"캡틴":18450,"연금":18451,"추구":18452,"기울":18453,"아티스트":18454,"SKT":18455,"##ax":18456,"##카드":18457,"미라":18458,"인격":18459,"자세히":18460,"에리":18461,"an":18462,"##치기":18463,"가짜":18464,"출입":18465,"행하":18466,"판매량":18467,"JR":18468,"공세":18469,"##ure":18470,"아카데미":18471,"유나이":18472,"유니폼":18473,"불타":18474,"##ix":18475,"어스":18476,"흥미":18477,"900":18478,"일치":18479,"차기":18480,"GS":18481,"승점":18482,"채택":18483,"시달리":18484,"포격":18485,"##코드":18486,"공룡":18487,"일방":18488,"단편":18489,"유나이티":18490,"취향":18491,"무지":18492,"##ick":18493,"소송":18494,"##mer":18495,"스마트폰":18496,"도주":18497,"덧붙이":18498,"포드":18499,"탈퇴":18500,"메리":18501,"카트":18502,"##이즈":18503,"코코":18504,"일본인":18505,"##ice":18506,"막대":18507,"사형":18508,"연패":18509,"기량":18510,"색깔":18511,"억지":18512,"타율":18513,"피아노":18514,"스트리":18515,"바깥":18516,"로고":18517,"몽골":18518,"귀찮":18519,"##our":18520,"제작자":18521,"잘리":18522,"한마디":18523,"Bo":18524,"유통":18525,"건조":18526,"노벨":18527,"코리아":18528,"상실":18529,"아즈":18530,"타선":18531,"화장실":18532,"할머니":18533,"드라이브":18534,"구경":18535,"후계":18536,"생겨나":18537,"영구":18538,"치유":18539,"집어":18540,"마린":18541,"라이온":18542,"측정":18543,"EP":18544,"식민지":18545,"비주":18546,"내지":18547,"미루":18548,"요금":18549,"##시로":18550,"아미":18551,"자전":18552,"보존":18553,"1986":18554,"거듭":18555,"날아오":18556,"다름":18557,"##공화국":18558,"선택지":18559,"쌍둥이":18560,"어드":18561,"무라":18562,"잠재":18563,"1960":18564,"아이콘":18565,"가요":18566,"##이너":18567,"OST":18568,"상인":18569,"무방":18570,"커피":18571,"##비드":18572,"빨갛":18573,"사신":18574,"강요":18575,"레이더":18576,"##랭크":18577,"메시지":18578,"##코토":18579,"인민공화국":18580,"KO":18581,"##{{":18582,"Un":18583,"간신":18584,"언스":18585,"이민":18586,"##고속":18587,"이슈":18588,"통산":18589,"동력":18590,"가상":18591,"고도":18592,"박히":18593,"##랑이":18594,"Ex":18595,"포수":18596,"신사":18597,"넥센":18598,"도끼":18599,"조연":18600,"색상":18601,"피터":18602,"다치":18603,"데드":18604,"캐논":18605,"##AD":18606,"명확":18607,"오타":18608,"몰락":18609,"연승":18610,"##qu":18611,"주택":18612,"화재":18613,"사원":18614,"여객":18615,"##멘트":18616,"루카":18617,"교장":18618,"네트워크":18619,"주소":18620,"타락":18621,"곡명":18622,"귀환":18623,"##oc":18624,"가루":18625,"냄새":18626,"브루":18627,"안타깝":18628,"{{{":18629,"외전":18630,"즐겁":18631,"초보":18632,"콜라보":18633,"##반도":18634,"유희왕":18635,"터뜨리":18636,"제갈":18637,"실망":18638,"판결":18639,"##80":18640,"구르":18641,"##시스트":18642,"소라":18643,"칭호":18644,"모토":18645,"등지":18646,"GB":18647,"##카리":18648,"대선":18649,"찾아내":18650,"경로":18651,"레알":18652,"수장":18653,"UEFA":18654,"항공기":18655,"이터":18656,"스페이스":18657,"광역시":18658,"남녀":18659,"위반":18660,"깔끔":18661,"매니저":18662,"거미":18663,"비치":18664,"포르투갈":18665,"DS":18666,"고구려":18667,"타수":18668,"연합군":18669,"186":18670,"##own":18671,"sh":18672,"##ys":18673,"아케":18674,"반동":18675,"아마도":18676,"라인업":18677,"순환":18678,"CPU":18679,"오라":18680,"##노우":18681,"혐오":18682,"##나카":18683,"교실":18684,"영주":18685,"##럼프":18686,"그만두":18687,"베네":18688,"법인":18689,"항복":18690,"백성":18691,"##라이트":18692,"##든가":18693,"너희":18694,"관찰":18695,"복지":18696,"타운":18697,"##라노":18698,"잠수함":18699,"미스터":18700,"##ber":18701,"단단":18702,"비서":18703,"주역":18704,"주자":18705,"적합":18706,"캠프":18707,"스터":18708,"배터리":18709,"매장":18710,"수류":18711,"We":18712,"관람":18713,"익스":18714,"AM":18715,"커다랗":18716,"예시":18717,"유효":18718,"강원도":18719,"커리어":18720,"드래프트":18721,"싱크":18722,"흘러":18723,"##저스":18724,"히어로즈":18725,"끊기":18726,"105":18727,"공성":18728,"카츠":18729,"공업":18730,"##av":18731,"아쿠":18732,"둘러싸":18733,"##OC":18734,"흑인":18735,"인치":18736,"하단":18737,"유학":18738,"벌레":18739,"트라이":18740,"이스라":18741,"승객":18742,"##old":18743,"예언":18744,"용량":18745,"김재":18746,"##정부":18747,"동성":18748,"..\"":18749,"고작":18750,"본사":18751,"##로디":18752,"##시타":18753,"상단":18754,"승률":18755,"##일보":18756,"국경":18757,"추억":18758,"소프트웨어":18759,"CF":18760,"면모":18761,"천만":18762,"마약":18763,"포위":18764,"휴식":18765,"서구":18766,"티켓":18767,"관측":18768,"LI":18769,"철수":18770,"수출":18771,"일대":18772,"그러니까":18773,"##orld":18774,"도적":18775,"곤란":18776,"중립":18777,"자폭":18778,"카운트":18779,"생략":18780,"스텔":18781,"구글":18782,"개국":18783,"표지":18784,"적당히":18785,"수류탄":18786,"인디":18787,"터널":18788,"상술":18789,"변환":18790,"음모":18791,"조별":18792,"클랜":18793,"마드리":18794,"기생":18795,"좌석":18796,"허가":18797,"합병":18798,"다름없":18799,"추종":18800,"형상":18801,"##위대":18802,"고맙":18803,"소대":18804,"대인":18805,"시그":18806,"사이버":18807,"실전":18808,"오크":18809,"히나":18810,"치루":18811,"정기":18812,"후술":18813,"아랍":18814,"김대":18815,"문구":18816,"내전":18817,"마드리드":18818,"통계":18819,"1984":18820,"디스크":18821,"더럽":18822,"보험":18823,"인종":18824,"차이점":18825,"메달":18826,"마디":18827,"##ont":18828,"1985":18829,"글로벌":18830,"연예인":18831,"최신":18832,"근본":18833,"복구":18834,"##려들":18835,"지경":18836,"언더":18837,"액티브":18838,"입지":18839,"사명":18840,"187":18841,"서포터":18842,"증오":18843,"SH":18844,"지뢰":18845,"후손":18846,"이스라엘":18847,"스트라이크":18848,"후배":18849,"아시안":18850,"용서":18851,"##데이":18852,"에르":18853,"구석":18854,"담배":18855,"성남":18856,"3000":18857,"사정거리":18858,"위성":18859,"일족":18860,"시너지":18861,"타로":18862,"크리스탈":18863,"오마":18864,"떨어뜨리":18865,"AD":18866,"##ies":18867,"허락":18868,"LC":18869,"기숙":18870,"고위":18871,"더러":18872,"DF":18873,"급격":18874,"그랜드":18875,"자막":18876,"즉위":18877,"리타":18878,"숙련":18879,"##머스":18880,"함수":18881,"논의":18882,"부각":18883,"전주":18884,"하차":18885,"고개":18886,"텔레비전":18887,"구슬":18888,"공방":18889,"lo":18890,"꾸미":18891,"KBO":18892,"행보":18893,"어뢰":18894,"미묘":18895,"경주":18896,"##팩트":18897,"토벌":18898,"시노":18899,"쓸모":18900,"감각":18901,"모니":18902,"발행":18903,"해피":18904,"데려가":18905,"아츠":18906,"모노":18907,"네요":18908,"들키":18909,"언덕":18910,"서식":18911,"It":18912,"왕위":18913,"마그":18914,"##lay":18915,"연령":18916,"특전":18917,"튕기":18918,"XX":18919,"준우":18920,"중첩":18921,"태평양":18922,"부딪":18923,"취약":18924,"가만":18925,"뜬금":18926,"후원":18927,"오랜만":18928,"제약":18929,"쿼터":18930,"블러드":18931,"루나":18932,"베리":18933,"노동자":18934,"무척":18935,"침략":18936,"저렴":18937,"정화":18938,"간신히":18939,"##자드":18940,"총알":18941,"기관총":18942,"##OD":18943,"침입":18944,"##하면":18945,"눈치채":18946,"세븐":18947,"노스":18948,"MF":18949,"드롭":18950,"간접":18951,"일본군":18952,"생년":18953,"##US":18954,"아르헨":18955,"방어구":18956,"##블린":18957,"제트":18958,"워커":18959,"흡혈":18960,"분쟁":18961,"법정":18962,"입대":18963,"##어마":18964,"알아내":18965,"헬기":18966,"파르":18967,"학습":18968,"혹시":18969,"균형":18970,"드럼":18971,"맛있":18972,"가동":18973,"찍히":18974,"아테":18975,"전이":18976,"CV":18977,"사귀":18978,"진압":18979,"강자":18980,"##프리":18981,"카카":18982,"산하":18983,"WWE":18984,".....":18985,"##PM":18986,"아르헨티나":18987,"##ann":18988,"잡아먹":18989,"곳곳":18990,"레슬":18991,"찬스":18992,"공용":18993,"텍스트":18994,"소방":18995,"평생":18996,"머무르":18997,"여우":18998,"조이":18999,"분열":19000,"스리":19001,"NE":19002,"아이언":19003,"SE":19004,"어마어마":19005,"주차":19006,"모시":19007,"비스":19008,"자이언츠":19009,"관점":19010,"##40":19011,"중세":19012,"네오":19013,"신전":19014,"동인":19015,"약화":19016,"악당":19017,"금방":19018,"정차":19019,"나리":19020,"125":19021,"##pe":19022,"깨어나":19023,"플라이":19024,"이토":19025,"잡아내":19026,"거울":19027,"##30":19028,"우르":19029,"트랜스":19030,"애정":19031,"부적":19032,"페널":19033,"결심":19034,"지리":19035,"이수":19036,"경상북도":19037,"딜링":19038,"반전":19039,"##말리":19040,"제작사":19041,"나폴":19042,"격추":19043,"내보내":19044,"제출":19045,"상기":19046,"##네임":19047,"성당":19048,"앨리스":19049,"##sh":19050,"라기":19051,"연고":19052,"보호막":19053,"your":19054,"니콜":19055,"이혼":19056,"되돌리":19057,"통화":19058,"양자":19059,"크림":19060,"스팀":19061,"토너":19062,"표면":19063,"호흡":19064,"##NA":19065,"폐쇄":19066,"##배우":19067,"사령부":19068,"금액":19069,"아저":19070,"##마크":19071,"결전":19072,"큐브":19073,"구축함":19074,"엘리트":19075,"미즈":19076,"아저씨":19077,"간주":19078,"코르":19079,"히토":19080,"악화":19081,"저택":19082,"보완":19083,"뮤지컬":19084,"창원":19085,"구름":19086,"이식":19087,"리온":19088,"세인트":19089,"얻어":19090,"인권":19091,"뽑히":19092,"충실":19093,"##VD":19094,"채팅":19095,"스크린":19096,"헤어지":19097,"CJ":19098,"김현":19099,"불사":19100,"선거구":19101,"착하":19102,"AS":19103,"용인":19104,"상관없":19105,"더군":19106,"참모":19107,"전파":19108,"초록":19109,"열매":19110,"가라":19111,"부자":19112,"주둔":19113,"지불":19114,"DE":19115,"발리":19116,"인용":19117,"하루카":19118,"유력":19119,"##은행":19120,"암시":19121,"대왕":19122,"천안":19123,"##ng":19124,"##키아":19125,"##io":19126,"낚시":19127,"긴장":19128,"정예":19129,"교과":19130,"지라":19131,"분해":19132,"물리치":19133,"묘하":19134,"##천시":19135,"해치":19136,"##베이":19137,"빠져":19138,"토니":19139,"프란":19140,"동양":19141,"유발":19142,"문재인":19143,"서서":19144,"보건":19145,"존재감":19146,"성별":19147,"공정":19148,"경남":19149,"체결":19150,"우에":19151,"남아":19152,"시인":19153,"배포":19154,"학력":19155,"상세":19156,"소유자":19157,"낮추":19158,"엮이":19159,"수석":19160,"##거지":19161,"후계자":19162,";&":19163,"악기":19164,"언젠":19165,"언젠가":19166,"답변":19167,"드라이버":19168,"마주치":19169,"걸어":19170,"짜증":19171,"##리나":19172,"상영":19173,"##oo":19174,"토너먼트":19175,"에요":19176,"원리":19177,"수호자":19178,"재밌":19179,"도둑":19180,"전승":19181,"엑스트라":19182,"바이오":19183,"악명":19184,"안기":19185,"행운":19186,"로버트":19187,"개설":19188,"##라기":19189,"호기":19190,"170":19191,"이듬":19192,"도박":19193,"Pro":19194,"구미":19195,"본관":19196,"뜨겁":19197,"천하":19198,"업로드":19199,"잔뜩":19200,"미쿠":19201,"기인":19202,"선두":19203,"은신":19204,"견디":19205,"기숙사":19206,"##싱턴":19207,"##월일":19208,"##ave":19209,"뱀파이어":19210,"양식":19211,"실종":19212,"쏟아지":19213,"교도":19214,"중량":19215,"에다가":19216,"지팡":19217,"루비":19218,"##포트":19219,"릴리":19220,"요인":19221,"백인":19222,"##걸이":19223,"로리":19224,"탐험":19225,"정황":19226,"##LE":19227,"부임":19228,"임신":19229,"난입":19230,"중력":19231,"아동":19232,"처분":19233,"대책":19234,"임금":19235,"동점":19236,"비아":19237,"LV":19238,"관리자":19239,"캐스터":19240,"디지몬":19241,"미키":19242,"심심":19243,"##번트":19244,"건드리":19245,"만남":19246,"방송국":19247,"that":19248,"논문":19249,"야생":19250,"칼날":19251,"UP":19252,"항의":19253,"테라":19254,"관계자":19255,"헨리":19256,"미네":19257,"생년월일":19258,"해명":19259,"백작":19260,"##나미":19261,"시카":19262,"유독":19263,"탄환":19264,"##센트":19265,"분명히":19266,"베타":19267,"호칭":19268,"##우마":19269,"복합":19270,"도루":19271,"서번트":19272,"카와":19273,"##스럽":19274,"금메달":19275,"말투":19276,"윈도우":19277,"##ION":19278,"동명":19279,"생명체":19280,"진주":19281,"문단":19282,"발렌":19283,"자녀":19284,"##ream":19285,"와일드":19286,"할인":19287,"법칙":19288,"수백":19289,"가방":19290,"다이아몬드":19291,"려던":19292,"콜로":19293,"ED":19294,"1500":19295,"여야":19296,"단축":19297,"절차":19298,"정통":19299,"루이스":19300,"잃어버리":19301,"EN":19302,"해골":19303,"분신":19304,"외계인":19305,"무관":19306,"영광":19307,"기상":19308,"보드":19309,"운동장":19310,"하향":19311,"이드":19312,"온도":19313,"지치":19314,"시합":19315,"조리":19316,"라틴":19317,"이듬해":19318,"브레":19319,"주술":19320,"분대":19321,"프로필":19322,"인력":19323,"리뷰":19324,"##리스트":19325,"##ond":19326,"창고":19327,"1982":19328,"치즈":19329,"->":19330,"딜레이":19331,"부스터":19332,"##펴보":19333,"살펴보":19334,"이온":19335,"니스":19336,"그르":19337,"리오":19338,"끔찍":19339,"광장":19340,"##어하":19341,"로얄":19342,"기름":19343,"플래시":19344,"##게임":19345,"##iss":19346,"Com":19347,"5000":19348,"왠지":19349,"사살":19350,"의학":19351,"기둥":19352,"크레":19353,"창설":19354,"그린":19355,"뛰어넘":19356,"전동":19357,"건국":19358,"성질":19359,"울프":19360,"전북":19361,"도라":19362,"마블":19363,"한쪽":19364,"유인":19365,"막내":19366,"공허":19367,"엔젤":19368,"체험":19369,"레딧":19370,"장인":19371,"부드":19372,"##에르":19373,"퇴장":19374,"그렇지만":19375,"물고기":19376,"부사":19377,"유격":19378,"존경":19379,"민첩":19380,"집착":19381,"커녕":19382,"##태우":19383,"우정":19384,"##운서":19385,"삽입":19386,"디젤":19387,"아나운서":19388,"걸맞":19389,"웨스트":19390,"상식":19391,"참가자":19392,"아키라":19393,"승자":19394,"1950":19395,"공산당":19396,"##플레이":19397,"##IP":19398,"##11":19399,"깔리":19400,"창단":19401,"요약":19402,"휘말리":19403,"##카이":19404,"시상":19405,"감지":19406,"시원":19407,"작년":19408,"진학":19409,"모터":19410,"시공":19411,"그램":19412,"증상":19413,"전제":19414,"독재":19415,"수면":19416,"감추":19417,"##다나":19418,"1983":19419,"하츠":19420,"의장":19421,"불펜":19422,"##60":19423,"학기":19424,"샌드":19425,"출구":19426,"복제":19427,"##ian":19428,"??":19429,"by":19430,"##비치":19431,"##소녀":19432,"아틀":19433,"블라":19434,"부드럽":19435,"오디션":19436,"he":19437,"두르":19438,"싫어하":19439,"나츠":19440,"유산":19441,"##커스":19442,"께서":19443,"비전":19444,"철저":19445,"선제":19446,"덩치":19447,"발굴":19448,"가공":19449,"시라":19450,"BL":19451,"하이퍼":19452,"헤어":19453,"단원":19454,"스위스":19455,"투스":19456,"유전자":19457,"스폰":19458,"##도르":19459,"&#":19460,"반박":19461,"##유럽":19462,"go":19463,"##갈리":19464,"그럭":19465,"레지":19466,"트럼프":19467,"여주":19468,"항구":19469,"타석":19470,"리스크":19471,"코트":19472,"미만":19473,"##세대":19474,"돌입":19475,"##저럭":19476,"웃기":19477,"안녕":19478,"갑작":19479,"중형":19480,"스쿨":19481,"사인":19482,"콘텐츠":19483,"스위치":19484,"펼쳐지":19485,"##티스":19486,"다카":19487,"비주얼":19488,"그럭저럭":19489,"사법":19490,"그레":19491,"주니어":19492,"##쟁이":19493,"노바":19494,"기운":19495,"##Hz":19496,"통로":19497,"준우승":19498,"배정":19499,"##TV":19500,"수명":19501,"백제":19502,"마스크":19503,"##던지":19504,"사용자":19505,"대거":19506,"어필":19507,"출격":19508,"휘하":19509,"기재":19510,"상륙":19511,"라이플":19512,"논쟁":19513,"웨이브":19514,"나마":19515,"정교":19516,"이펙트":19517,"본진":19518,"단행":19519,"자전거":19520,"##투스":19521,"가죽":19522,"배트맨":19523,"보충":19524,"토마":19525,"##베스":19526,"##ory":19527,"신도":19528,"깨달":19529,"트리플":19530,"훈장":19531,"##필드":19532,"호소":19533,"##TE":19534,"시리아":19535,"##우리":19536,"식품":19537,"회담":19538,"스트레스":19539,"격차":19540,"라니":19541,"국장":19542,"축복":19543,"속이":19544,"인질":19545,"##ace":19546,"##rom":19547,"코미디":19548,"시트":19549,"##크라":19550,"Co":19551,"##세서":19552,"실책":19553,"##틀러":19554,"스펠":19555,"근대":19556,"완결":19557,"위안":19558,"Bl":19559,"옹호":19560,"학문":19561,"파편":19562,"##카이도":19563,"태국":19564,"케인":19565,"평양":19566,"##누스":19567,"공화":19568,"카를":19569,"지사":19570,"처지":19571,"싸이":19572,"유기":19573,"마우스":19574,";&#":19575,"경전":19576,"공립":19577,"갈아":19578,"루스":19579,"워싱턴":19580,"팬텀":19581,"이글":19582,"부근":19583,"마케":19584,"적중":19585,"DVD":19586,"##필더":19587,"승인":19588,"미드필더":19589,"Br":19590,"원문":19591,
[...]
