[UNK]
[CLS]
[SEP]
[PAD]
[MASK]
!
"
#
$
%
&
'
(
)
*
+
,
-
.
/
0
1
2
3
4
5
6
7
8
9
:
;
<
=
>
?
@
A
B
C
D
E
F
G
H
I
J
K
L
M
N
O
P
Q
R
S
T
U
V
W
X
Y
Z
[
\
]
^
_
`
a
b
c
d
e
f
g
h
i
j
k
l
m
n
o
p
q
r
s
t
u
v
w
x
y
z
{
|
}
~

ᄀ
ᄆ
ᄇ
ᆫ
ᆯ
ᆼ
ㄱ
ㄲ
ㄳ
ㄴ
ㄵ
ㄶ
ㄷ
ㄸ
ㄹ
ㄺ
ㄻ
ㄼ
ㄽ
ㄾ
ㄿ
ㅀ
ㅁ
ㅂ
ㅃ
ㅄ
ㅅ
ㅆ
ㅇ
ㅈ
ㅉ
ㅊ
ㅋ
ㅌ
ㅍ
ㅎ
ㅏ
ㅐ
ㅑ
ㅒ
ㅓ
ㅔ
ㅕ
ㅖ
ㅗ
ㅘ
ㅙ
ㅚ
ㅛ
ㅜ
ㅝ
ㅞ
ㅟ
ㅠ
ㅡ
ㅢ
ㅣ
가
각
갂
갃
간
갅
갆
갇
갈
갉
갊
갋
갌
갍
갎
갏
감
갑
값
갓
갔
강
갖
갗
갘
같
갚
갛
개
객
갞
갟
갠
갡
갢
갣
갤
갥
갦
갧
갨
갩
갪
갫
갬
갭
갮
갯
갰
갱
갲
갳
갴
갵
갶
갷
갸
갹
갺
갻
갽
갾
갿
걀
걁
걂
걃
걄
걅
걆
걇
걈
걉
걊
걋
걌
걍
걎
걏
걐
걑
걒
걓
걔
걕
걖
걗
걙
걚
걛
걝
걞
걟
걠
걡
걢
걣
걤
걥
걦
걧
걨
걩
걪
걫
걬
걭
걮
걯
거
걱
걲
걳
건
걵
걶
걷
걸
걹
걺
걻
걼
걽
걾
걿
검
겁
겂
것
겄
겅
겆
겇
겈
겉
겊
겋
게
겍
겎
겏
겐
겑
겒
겓
겔
겕
겖
겗
겘
겙
겚
겛
겜
겞
겟
겠
겡
겢
겣
겤
겥
겦
겧
겨
격
겪
겫
견
겭
겮
겯
결
겱
겲
겳
겴
겵
겶
겷
겸
겹
겺
겻
겼
경
겾
겿
곀
곁
곂
곃
계
곅
곆
곇
곈
곉
곊
곋
곌
곍
곎
곏
곐
곑
곒
곓
곔
곕
곖
곗
곘
곙
곚
곛
곜
곝
곞
곟
고
곡
곢
곣
곤
곥
곦
곧
골
곩
곪
곫
곬
곭
곮
곯
곰
곱
곲
곳
곴
공
곶
곷
곸
곹
곺
곻
과
곽
곾
곿
관
괁
괂
괃
괄
괅
괆
괇
괈
괉
괊
괋
괌
괍
괎
괏
괐
광
괒
괓
괔
괕
괖
괗
괘
괙
괚
괛
괜
괝
괞
괟
괠
괡
괢
괣
괤
괥
괦
괧
괨
괩
괪
괫
괬
괭
괮
괯
괰
괱
괲
괳
괴
괵
괶
괷
괸
괹
괺
괻
괼
괽
괾
괿
굀
굁
굂
굃
굄
굅
굆
굇
굈
굉
굊
굋
굌
굍
굎
굏
교
굑
굒
굓
굔
굕
굖
굗
굘
굙
굚
굛
굜
굝
굞
굟
굠
굡
굢
굣
굤
굥
굦
굧
굨
굩
굪
굫
구
국
굮
굯
군
굱
굲
굳
굴
굵
굶
굷
굸
굹
굺
굻
굼
굽
굾
굿
궀
궁
궂
궃
궄
궅
궆
궇
궈
궉
궊
궋
권
궍
궎
궏
궐
궑
궒
궓
궔
궕
궖
궗
궘
궙
궚
궛
궜
궝
궞
궟
궠
궡
궢
궣
궤
궥
궦
궧
궨
궩
궪
궫
궬
궭
궮
궯
궰
궱
궲
궳
궴
궵
궶
궷
궸
궹
궺
궻
궼
궽
궾
궿
귀
귁
귂
귃
귄
귅
귆
귇
귈
귉
귊
귋
귌
귍
귎
귏
귐
귑
귒
귓
귔
귕
귖
귗
귘
귙
귚
귛
규
귝
귞
귟
균
귡
귢
귣
귤
귥
귦
귧
귨
귩
귪
귫
귬
귭
귮
귯
귰
귱
귲
귳
귴
귵
귶
귷
그
극
귺
귻
근
귽
귾
귿
글
긁
긂
긃
긄
긅
긆
긇
금
급
긊
긋
긌
긍
긎
긏
긐
긑
긒
긓
긔
긕
긖
긗
긘
긙
긚
긛
긜
긝
긞
긟
긠
긡
긢
긣
긤
긥
긦
긧
긨
긩
긪
긫
긬
긭
긮
긯
기
긱
긲
긳
긴
긵
긶
긷
길
긹
긺
긻
긼
긽
긾
긿
김
깁
깂
깃
깄
깅
깆
깇
깈
깉
깊
깋
까
깍
깎
깏
깐
깑
깒
깓
깔
깕
깖
깗
깘
깙
깚
깛
깜
깝
깞
깟
깡
깢
깣
깤
깥
깦
깧
깨
깩
깪
깫
깬
깭
깮
깯
깱
깲
깳
깴
깵
깶
깷
깸
깹
깺
깻
깽
깾
깿
꺀
꺁
꺂
꺃
꺄
꺅
꺆
꺇
꺈
꺉
꺊
꺋
꺌
꺍
꺎
꺏
꺐
꺑
꺒
꺓
꺔
꺕
꺖
꺗
꺘
꺙
꺚
꺛
꺜
꺝
꺞
꺟
꺠
꺡
꺢
꺣
꺤
꺥
꺦
꺧
꺨
꺩
꺪
꺫
꺬
꺭
꺮
꺯
꺰
꺱
꺲
꺳
꺴
꺵
꺶
꺷
꺸
꺹
꺺
꺻
꺼
꺽
꺾
꺿
껀
껁
껂
껃
껄
껅
껆
껇
껈
껉
껊
껋
껌
껍
껎
껏
껑
껒
껓
껔
껕
껖
껗
께
껙
껚
껛
껝
껞
껟
껠
껡
껢
껣
껤
껥
껦
껧
껨
껩
껪
껫
껬
껭
껮
껯
껰
껱
껲
껳
껴
껵
껶
껷
껸
껹
껺
껻
껼
껽
껾
껿
꼀
꼁
꼂
꼃
꼄
꼅
꼆
꼇
꼈
꼉
꼊
꼋
꼌
꼍
꼎
꼏
꼐
꼑
꼒
꼓
꼔
꼕
꼖
꼗
꼘
꼙
꼚
꼛
꼜
꼝
꼞
꼟
꼠
꼡
꼢
꼣
꼤
꼥
꼦
꼧
꼨
꼩
꼪
꼫
꼬
꼭
꼮
꼯
꼰
꼱
꼲
꼳
꼴
꼵
꼶
꼷
꼸
꼹
꼺
꼻
꼼
꼽
꼾
꼿
꽀
꽁
꽂
꽃
꽄
꽅
꽆
꽇
꽈
꽉
꽊
꽋
꽌
꽍
꽎
꽏
꽐
꽑
꽒
꽓
꽔
꽕
꽖
꽗
꽘
꽙
꽚
꽛
꽜
꽝
꽞
꽟
꽠
꽡
꽢
꽣
꽤
꽥
꽦
꽧
꽨
꽩
꽪
꽫
꽬
꽭
꽮
꽯
꽰
꽱
꽲
꽳
꽴
꽵
꽶
꽷
꽸
꽹
꽺
꽻
꽼
꽽
꽾
꽿
꾀
꾁
꾂
꾃
꾄
꾅
꾆
꾇
꾈
꾉
꾊
꾋
꾌
꾍
꾎
꾏
꾐
꾑
꾒
꾓
꾔
꾕
꾖
꾗
꾘
꾙
꾚
꾛
꾜
꾝
꾞
꾟
꾠
꾡
꾢
꾣
꾤
꾥
꾦
꾧
꾨
꾩
꾪
꾫
꾬
꾭
꾮
꾯
꾰
꾱
꾲
꾳
꾴
꾵
꾶
꾷
꾸
꾹
꾺
꾻
꾼
꾽
꾾
꾿
꿀
꿁
꿂
꿃
꿄
꿅
꿆
꿇
꿈
꿉
꿊
꿋
꿌
꿍
꿎
꿏
꿐
꿑
꿒
꿓
꿔
꿕
꿖
꿗
꿘
꿙
꿚
꿛
꿜
꿝
꿞
꿟
꿠
꿡
꿢
꿣
꿤
꿥
꿦
꿧
꿨
꿩
꿪
꿫
꿬
꿭
꿮
꿯
꿰
꿱
꿲
꿳
꿵
꿶
꿷
꿹
꿺
꿻
꿼
꿽
꿾
꿿
뀀
뀁
뀂
뀃
뀅
뀆
뀇
뀈
뀉
뀊
뀋
뀌
뀍
뀎
뀏
뀐
뀑
뀒
뀓
뀕
뀖
뀗
뀘
뀙
뀚
뀛
뀜
뀝
뀞
뀟
뀠
뀡
뀢
뀣
뀤
뀥
뀦
뀧
뀨
뀩
뀪
뀫
뀬
뀭
뀮
뀯
뀰
뀱
뀲
뀳
뀴
뀵
뀶
뀷
뀸
뀹
뀺
뀻
뀼
뀽
뀾
뀿
끀
끁
끂
끃
끄
끅
끆
끇
끈
끉
끊
끋
끌
끍
끎
끏
끐
끑
끒
끓
끔
끕
끖
끗
끘
끙
끚
끛
끜
끝
끞
끟
끠
끡
끢
끣
끤
끥
끦
끧
끨
끩
끪
끫
끬
끭
끮
끯
끰
끱
끲
끳
끴
끵
끶
끷
끸
끹
끺
끻
끼
끽
끾
끿
낀
낁
낂
낃
낄
낅
낆
낇
낈
낉
낊
낋
낌
낍
낎
낏
낐
낑
낒
낓
낔
낕
낖
낗
나
낙
낚
낛
난
낝
낞
낟
날
낡
낢
낣
낤
낥
낦
낧
남
납
낪
낫
났
낭
낮
낯
낰
낱
낲
낳
내
낵
낶
낷
낸
낹
낺
낻
낼
낽
낾
낿
냀
냁
냂
냃
냄
냅
냆
냇
냈
냉
냊
냋
냌
냍
냎
냏
냐
냑
냒
냓
냔
냕
냖
냗
냘
냙
냚
냛
냜
냝
냞
냟
냠
냡
냢
냣
냤
냥
냦
냧
냨
냩
냪
냫
냬
냭
냮
냯
냰
냱
냲
냳
냴
냵
냶
냷
냸
냹
냺
냻
냼
냽
냾
냿
넀
넁
넂
넃
넄
넅
넆
넇
너
넉
넊
넋
넌
넍
넎
넏
널
넑
넒
넓
넔
넕
넖
넗
넘
넙
넚
넛
넜
넝
넞
넟
넠
넡
넢
넣
네
넥
넦
넧
넨
넩
넪
넫
넬
넭
넮
넯
넰
넱
넲
넳
넴
넵
넶
넷
넸
넹
넺
넻
넼
넽
넾
넿
녀
녁
녂
녃
년
녅
녆
녇
녈
녉
녊
녋
녌
녍
녎
녏
념
녑
녒
녓
녔
녕
녖
녗
녘
녙
녚
녛
녜
녝
녞
녟
녠
녡
녢
녣
녤
녥
녦
녧
녨
녩
녪
녫
녬
녭
녮
녯
녰
녱
녲
녳
녴
녵
녶
녷
노
녹
녺
녻
논
녽
녾
녿
놀
놁
놂
놃
놄
놅
놆
놇
놈
놉
놊
놋
놌
농
놎
놏
놐
놑
높
놓
놔
놕
놖
놗
놘
놙
놚
놛
놜
놝
놞
놟
놠
놡
놢
놣
놤
놥
놦
놧
놨
놩
놪
놫
놬
놭
놮
놯
놰
놱
놲
놳
놴
놵
놶
놷
놸
놹
놺
놻
놼
놽
놾
놿
뇀
뇁
뇂
뇃
뇄
뇅
뇆
뇇
뇈
뇉
뇊
뇋
뇌
뇍
뇎
뇏
뇐
뇑
뇒
뇓
뇔
뇕
뇖
뇗
뇘
뇙
뇚
뇛
뇜
뇝
뇞
뇟
뇠
뇡
뇢
뇣
뇤
뇥
뇦
뇧
뇨
뇩
뇪
뇫
뇬
뇭
뇮
뇯
뇰
뇱
뇲
뇳
뇴
뇵
뇶
뇷
뇸
뇹
뇺
뇻
뇼
뇽
뇾
뇿
눀
눁
눂
눃
누
눅
눆
눇
눈
눉
눊
눋
눌
눍
눎
눏
눐
눑
눒
눓
눔
눕
눖
눗
눘
눙
눚
눛
눜
눝
눞
눟
눡
눢
눣
눤
눥
눦
눧
눨
눩
눪
눫
눬
눭
눮
눯
눰
눱
눲
눳
눵
눶
눷
눸
눹
눺
눻
눼
눽
눾
눿
뉀
뉁
뉂
뉃
뉄
뉅
뉆
뉇
뉈
뉉
뉊
뉋
뉌
뉍
뉎
뉏
뉐
뉑
뉒
뉓
뉔
뉕
뉖
뉗
뉘
뉙
뉚
뉛
뉜
뉝
뉞
뉟
뉡
뉢
뉣
뉤
뉥
뉦
뉧
뉨
뉩
뉪
뉫
뉬
뉭
뉮
뉯
뉰
뉱
뉲
뉳
뉴
뉵
뉶
뉷
뉸
뉹
뉺
뉻
뉼
뉽
뉾
뉿
늀
늁
늂
늃
늄
늅
늆
늇
늈
늉
늊
늋
늌
늍
늎
늏
느
늑
늒
늓
는
늕
늖
늗
늘
늙
늚
늛
늜
늝
늞
늟
늠
늡
늢
늣
늤
능
늦
늧
늨
늩
늪
늫
늬
늭
늮
늯
늰
늱
늲
늳
늴
늵
늶
늷
늸
늹
늺
늻
늼
늽
늾
늿
닀
닁
닂
닃
닄
닅
닆
닇
니
닉
닊
닋
닌
닍
닎
닏
닐
닑
닒
닓
닔
닕
닖
닗
님
닙
닚
닛
닜
닝
닞
닟
닠
닡
닢
닣
다
닥
닦
닧
단
닩
닪
닫
달
닭
닮
닯
닰
닱
닲
닳
담
답
닶
닷
닸
당
닺
닻
닼
닽
닾
닿
대
댁
댂
댃
댄
댅
댆
댇
댈
댉
댊
댋
댌
댍
댎
댏
댐
댑
댒
댓
댔
댕
댖
댗
댘
댙
댚
댛
댜
댝
댞
댟
댠
댡
댢
댣
댤
댥
댦
댧
댨
댩
댪
댫
댬
댭
댮
댯
댰
댱
댲
댳
댴
댵
댶
댷
댸
댹
댺
댻
댼
댽
댾
댿
덀
덁
덂
덃
덄
덅
덆
덇
덈
덉
덊
덋
덌
덍
덎
덏
덐
덑
덒
덓
더
덕
덖
덗
던
덙
덚
덛
덜
덝
덞
덟
덠
덡
덢
덣
덤
덥
덦
덧
덨
덩
덪
덫
덬
덭
덮
덯
데
덱
덲
덳
덴
덵
덶
덷
델
덹
덺
덻
덼
덽
덾
덿
뎀
뎁
뎂
뎃
뎄
뎅
뎆
뎇
뎈
뎉
뎊
뎋
뎌
뎍
뎎
뎏
뎐
뎑
뎒
뎓
뎔
뎕
뎖
뎗
뎘
뎙
뎚
뎛
뎜
뎝
뎞
뎟
뎠
뎡
뎢
뎣
뎤
뎥
뎦
뎧
뎨
뎩
뎪
뎫
뎬
뎭
뎮
뎯
뎰
뎱
뎲
뎳
뎴
뎵
뎶
뎷
뎸
뎹
뎺
뎻
뎼
뎽
뎾
뎿
돀
돁
돂
돃
도
독
돆
돇
돈
돉
돊
돋
돌
돍
돎
돏
돐
돑
돒
돓
돔
돕
돖
돗
돘
동
돚
돛
돜
돝
돞
돟
돠
돡
돢
돣
돤
돥
돦
돧
돨
돩
돪
돫
돬
돭
돮
돯
돰
돱
돲
돳
돴
돵
돶
돷
돸
돹
돺
돻
돼
돽
돾
돿
됀
됁
됂
됃
됄
됅
됆
됇
됈
됉
됊
됋
됌
됍
됎
됏
됐
됑
됒
됓
됔
됕
됖
됗
되
됙
됚
됛
된
됝
됞
됟
될
됡
됢
됣
됤
됥
됦
됧
됨
됩
됪
됫
됬
됭
됮
됯
됰
됱
됲
됳
됴
됵
됶
됷
됸
됹
됺
됻
됼
됽
됾
됿
둀
둁
둂
둃
둄
둅
둆
둇
둈
둉
둊
둋
둌
둍
둎
둏
두
둑
둒
둓
둔
둕
둖
둗
둘
둙
둚
둛
둜
둝
둞
둟
둠
둡
둢
둣
둤
둥
둦
둧
둨
둩
둪
둫
둬
둭
둮
둯
둰
둱
둲
둳
둴
둵
둶
둷
둸
둹
둺
둻
둼
둽
둾
둿
뒁
뒂
뒃
뒄
뒅
뒆
뒇
뒈
뒉
뒊
뒋
뒌
뒍
뒎
뒏
뒐
뒑
뒒
뒓
뒔
뒕
뒖
뒗
뒘
뒙
뒚
뒛
뒜
뒝
뒞
뒟
뒠
뒡
뒢
뒣
뒤
뒥
뒦
뒧
뒨
뒩
뒪
뒫
뒬
뒭
뒮
뒯
뒰
뒱
뒲
뒳
뒴
뒵
뒶
뒷
뒸
뒹
뒺
뒻
뒼
뒽
뒾
뒿
듀
듁
듂
듃
듄
듅
듆
듇
듈
듉
듊
듋
듌
듍
듎
듏
듐
듑
듒
듓
듔
듕
듖
듗
듘
듙
듚
듛
드
득
듞
듟
든
듡
듢
듣
들
듥
듦
듧
듨
듩
듪
듫
듬
듭
듮
듯
듰
등
듲
듳
듴
듵
듶
듷
듸
듹
듺
듻
듼
듽
듾
듿
딀
딁
딂
딃
딄
딅
딆
딇
딈
딉
딊
딋
딌
딍
딎
딏
딐
딑
딒
딓
디
딕
딖
딗
딘
딙
딚
딛
딜
딝
딞
딟
딠
딡
딢
딣
딤
딥
딦
딧
딨
딩
딪
딫
딬
딭
딮
딯
따
딱
딲
딳
딴
딵
딶
딷
딸
딹
딺
딻
딼
딽
딾
딿
땀
땁
땂
땃
땅
땆
땇
땈
땉
땊
땋
때
땍
땎
땏
땐
땑
땒
땓
땔
땕
땖
땗
땘
땙
땚
땛
땜
땝
땞
땟
땠
땡
땢
땣
땤
땥
땦
땧
땨
땩
땪
땫
땬
땭
땮
땯
땰
땱
땲
땳
땴
땵
땶
땷
땸
땹
땺
땻
땼
땽
땾
땿
떀
떁
떂
떃
떄
떅
떆
떇
떈
떉
떊
떋
떌
떍
떎
떏
떐
떑
떒
떓
떔
떕
떖
떗
떘
떙
떚
떛
떜
떝
떞
떟
떠
떡
떢
떣
떤
떥
떦
떧
떨
떩
떪
떫
떬
떭
떮
떯
떰
떱
떲
떳
떵
떶
떷
떸
떹
떺
떻
떼
떽
떾
떿
뗀
뗁
뗂
뗃
뗄
뗅
뗆
뗇
뗈
뗉
뗊
뗋
뗌
뗍
뗎
뗏
뗑
뗒
뗓
뗔
뗕
뗖
뗗
뗘
뗙
뗚
뗛
뗜
뗝
뗞
뗟
뗠
뗡
뗢
뗣
뗤
뗥
뗦
뗧
뗨
뗩
뗪
뗫
뗭
뗮
뗯
뗰
뗱
뗲
뗳
뗴
뗵
뗶
뗷
뗸
뗹
뗺
뗻
뗼
뗽
뗾
뗿
똀
똁
똂
똃
똄
똅
똆
똇
똈
똉
똊
똋
똌
똍
똎
똏
또
똑
똒
똓
똔
똕
똖
똗
똘
똙
똚
똛
똜
똝
똞
똟
똠
똡
똢
똣
똤
똥
똦
똧
똨
똩
똪
똫
똬
똭
똮
똯
똰
똱
똲
똳
똴
똵
똶
똷
똸
똹
똺
똻
똼
똽
똾
똿
뙀
뙁
뙂
뙃
뙄
뙅
뙆
뙇
뙈
뙉
뙊
뙋
뙌
뙍
뙎
뙏
뙐
뙑
뙒
뙓
뙔
뙕
뙖
뙗
뙘
뙙
뙚
뙛
뙜
뙝
뙞
뙟
뙠
뙡
뙢
뙣
뙤
뙥
뙦
뙧
뙨
뙩
뙪
뙫
뙬
뙭
뙮
뙯
뙰
뙱
뙲
뙳
뙴
뙵
뙶
뙷
뙸
뙹
뙺
뙻
뙼
뙽
뙾
뙿
뚀
뚁
뚂
뚃
뚄
뚅
뚆
뚇
뚈
뚉
뚊
뚋
뚌
뚍
뚎
뚏
뚐
뚑
뚒
뚓
뚔
뚕
뚖
뚗
뚘
뚙
뚚
뚛
뚜
뚝
뚞
뚟
뚠
뚡
뚢
뚣
뚤
뚥
뚦
뚧
뚨
뚩
뚪
뚫
뚬
뚭
뚮
뚯
뚰
뚱
뚲
뚳
뚴
뚵
뚶
뚷
뚸
뚹
뚺
뚻
뚼
뚽
뚾
뚿
뛀
뛁
뛂
뛃
뛄
뛅
뛆
뛇
뛈
뛉
뛊
뛋
뛌
뛍
뛎
뛏
뛐
뛑
뛒
뛓
뛔
뛕
뛖
뛗
뛘
뛙
뛚
뛛
뛜
뛝
뛞
뛟
뛠
뛡
뛢
뛣
뛤
뛥
뛦
뛧
뛨
뛩
뛪
뛫
뛬
뛭
뛮
뛯
뛰
뛱
뛲
뛳
뛵
뛶
뛷
뛸
뛹
뛺
뛻
뛼
뛽
뛾
뛿
뜀
뜁
뜂
뜃
뜄
뜅
뜆
뜇
뜈
뜉
뜊
뜋
뜌
뜍
뜎
뜏
뜐
뜑
뜒
뜓
뜔
뜕
뜖
뜗
뜘
뜙
뜚
뜛
뜜
뜝
뜞
뜟
뜠
뜡
뜢
뜣
뜤
뜥
뜦
뜧
뜨
뜩
뜪
뜫
뜬
뜭
뜮
뜯
뜰
뜱
뜲
뜳
뜴
뜵
뜶
뜷
뜸
뜹
뜺
뜻
뜼
뜽
뜾
뜿
띀
띁
띂
띃
띄
띅
띆
띇
띉
띊
띋
띍
띎
띏
띐
띑
띒
띓
띔
띕
띖
띗
띘
띙
띚
띛
띜
띝
띞
띟
띠
띡
띢
띣
띤
띥
띦
띧
띨
띩
띪
띫
띬
띭
띮
띯
띰
띱
띲
띳
띴
띵
띶
띷
띸
띹
띺
띻
라
락
띾
띿
란
랁
랂
랃
랄
랅
랆
랇
랈
랉
랊
랋
람
랍
랎
랏
랐
랑
랒
랓
랔
랕
랖
랗
래
랙
랚
랛
랜
랝
랞
랟
랠
랡
랢
랣
랤
랥
랦
랧
램
랩
랪
랫
랬
랭
랮
랯
랰
랱
랲
랳
랴
략
랶
랷
랸
랹
랺
랻
랼
랽
랾
랿
럀
럁
럂
럃
럄
럅
럆
럇
럈
량
럊
럋
럌
럍
럎
럏
럐
럑
럒
럓
럔
럕
럖
럗
럘
럙
럚
럛
럜
럝
럞
럟
럠
럡
럢
럣
럤
럥
럦
럧
럨
럩
럪
럫
러
럭
럮
럯
런
럱
럲
럳
럴
럵
럶
럷
럸
럹
럺
럻
럼
럽
럾
럿
렀
렁
렂
렃
렄
렅
렆
렇
레
렉
렊
렋
렌
렍
렎
렏
렐
렑
렒
렓
렔
렕
렖
렗
렘
렙
렚
렛
렜
렝
렞
렟
렠
렡
렢
렣
려
력
렦
렧
련
렩
렪
렫
렬
렭
렮
렯
렰
렱
렲
렳
렴
렵
렶
렷
렸
령
렺
렻
렼
렽
렾
렿
례
롁
롂
롃
롄
롅
롆
롇
롈
롉
롊
롋
롌
롍
롎
롏
롐
롑
롒
롓
롔
롕
롖
롗
롘
롙
롚
롛
로
록
롞
롟
론
롡
롢
롣
롤
롥
롦
롧
롨
롩
롪
롫
롬
롭
롮
롯
롰
롱
롲
롳
롴
롵
롶
롷
롸
롹
롺
롻
롼
롽
롾
롿
뢀
뢁
뢂
뢃
뢄
뢅
뢆
뢇
뢈
뢉
뢊
뢋
뢌
뢍
뢎
뢏
뢐
뢑
뢒
뢓
뢔
뢕
뢖
뢗
뢘
뢙
뢚
뢛
뢜
뢝
뢞
뢟
뢠
뢡
뢢
뢣
뢤
뢥
뢦
뢧
뢨
뢩
뢪
뢫
뢬
뢭
뢮
뢯
뢰
뢱
뢲
뢳
뢴
뢵
뢶
뢷
뢸
뢹
뢺
뢻
뢼
뢽
뢾
뢿
룀
룁
룂
룃
룄
룅
룆
룇
룈
룉
룊
룋
료
룍
룎
룏
룐
룑
룒
룓
룔
룕
룖
룗
룘
룙
룚
룛
룜
룝
룞
룟
룠
룡
룢
룣
룤
룥
룦
룧
루
룩
룪
룫
룬
룭
룮
룯
룰
룱
룲
룳
룴
룵
룶
룷
룸
룹
룺
룻
룼
룽
룾
룿
뤀
뤁
뤂
뤃
뤄
뤅
뤆
뤇
뤈
뤉
뤊
뤋
뤌
뤍
뤎
뤏
뤐
뤑
뤒
뤓
뤔
뤕
뤖
뤗
뤘
뤙
뤚
뤛
뤜
뤝
뤞
뤟
뤠
뤡
뤢
뤣
뤤
뤥
뤦
뤧
뤨
뤩
뤪
뤫
뤬
뤭
뤮
뤯
뤰
뤱
뤲
뤳
뤴
뤵
뤶
뤷
뤸
뤹
뤺
뤻
뤼
뤽
뤾
뤿
륀
륁
륂
륃
륄
륅
륆
륇
륈
륉
륊
륋
륌
륍
륎
륏
륐
륑
륒
륓
륔
륕
륖
륗
류
륙
륚
륛
륜
륝
륞
륟
률
륡
륢
륣
륤
륥
륦
륧
륨
륩
륪
륫
륬
륭
륮
륯
륰
륱
륲
륳
르
륵
륶
륷
른
륹
륺
륻
를
륽
륾
륿
릀
릁
릂
릃
름
릅
릆
릇
릈
릉
릊
릋
릌
릍
릎
릏
릐
릑
릒
릓
릔
릕
릖
릗
릘
릙
릚
릛
릜
릝
릞
릟
릠
릡
릢
릣
릤
릥
릦
릧
릨
릩
릪
릫
리
릭
릮
릯
린
릱
릲
릳
릴
릵
릶
릷
릸
릹
릺
릻
림
립
릾
릿
맀
링
맂
맃
맄
맅
맆
맇
마
막
맊
맋
만
맍
많
맏
말
맑
맒
맓
맔
맕
맖
맗
맘
맙
맚
맛
맜
망
맞
맟
맠
맡
맢
맣
매
맥
맦
맧
맨
맩
맪
맫
맬
맭
맮
맯
맰
맱
맲
맳
맴
맵
맶
맷
맹
맺
맻
맼
맽
맾
맿
먀
먁
먂
먃
먄
먅
먆
먇
먈
먉
먊
먋
먌
먍
먎
먏
먐
먑
먒
먓
먔
먕
먖
먗
먘
먙
먚
먛
먜
먝
먞
먟
먠
먡
먢
먣
먤
먥
먦
먧
먨
먩
먪
먫
먬
먭
먮
먯
먰
먱
먲
먳
먴
먵
먶
먷
머
먹
먺
먻
먼
먽
먾
먿
멀
멁
멂
멃
멄
멅
멆
멇
멈
멉
멊
멋
멌
멍
멎
멏
멐
멑
멒
멓
메
멕
멖
멗
멘
멙
멚
멛
멜
멝
멞
멟
멠
멡
멢
멣
멤
멥
멦
멧
멨
멩
멪
멫
멬
멭
멮
멯
며
멱
멲
멳
면
멵
멶
멷
멸
멹
멺
멻
멼
멽
멾
멿
몀
몁
몂
몃
몄
명
몆
몇
몈
몉
몊
몋
몌
몍
몎
몏
몐
몑
몒
몓
몔
몕
몖
몗
몘
몙
몚
몛
몜
몝
몞
몟
몠
몡
몢
몣
몤
몥
몦
몧
모
목
몪
몫
몬
몭
몮
몯
몰
몱
몲
몳
몴
몵
몶
몷
몸
몹
몺
못
몼
몽
몾
몿
뫀
뫁
뫂
뫃
뫄
뫅
뫆
뫇
뫈
뫉
뫊
뫋
뫌
뫍
뫎
뫏
뫐
뫑
뫒
뫓
뫔
뫕
뫖
뫗
뫘
뫙
뫚
뫛
뫜
뫝
뫞
뫟
뫠
뫡
뫢
뫣
뫤
뫥
뫦
뫧
뫨
뫩
뫪
뫫
뫬
뫭
뫮
뫯
뫰
뫱
뫲
뫳
뫴
뫵
뫶
뫷
뫸
뫹
뫺
뫻
뫼
뫽
뫾
뫿
묀
묁
묂
묃
묄
묅
묆
묇
묈
묉
묊
묋
묌
묍
묎
묏
묐
묑
묒
묓
묔
묕
묖
묗
묘
묙
묚
묛
묜
묝
묞
묟
묠
묡
묢
묣
묤
묥
묦
묧
묨
묩
묪
묫
묬
묭
묮
묯
묰
묱
묲
묳
무
묵
묶
묷
문
묹
묺
묻
물
묽
묾
묿
뭀
뭁
뭂
뭃
뭄
뭅
뭆
뭇
뭈
뭉
뭊
뭋
뭌
뭍
뭎
뭏
뭐
뭑
뭒
뭓
뭔
뭕
뭖
뭗
뭘
뭙
뭚
뭛
뭜
뭝
뭞
뭟
뭠
뭡
뭢
뭣
뭤
뭥
뭦
뭧
뭨
뭩
뭪
뭫
뭬
뭭
뭮
뭯
뭰
뭱
뭲
뭳
뭴
뭵
뭶
뭷
뭸
뭹
뭺
뭻
뭼
뭽
뭾
뭿
뮀
뮁
뮂
뮃
뮄
뮅
뮆
뮇
뮈
뮉
뮊
뮋
뮌
뮍
뮎
뮏
뮐
뮑
뮒
뮓
뮔
뮕
뮖
뮗
뮘
뮙
뮚
뮛
뮜
뮝
뮞
뮟
뮠
뮡
뮢
뮣
뮤
뮥
뮦
뮧
뮨
뮩
뮪
뮫
뮬
뮭
뮮
뮯
뮰
뮱
뮲
뮳
뮴
뮵
뮶
뮷
뮸
뮹
뮺
뮻
뮼
뮽
뮾
뮿
므
믁
믂
믃
믄
믅
믆
믇
믈
믉
믊
믋
믌
믍
믎
믏
믐
믑
믒
믓
믔
믕
믖
믗
믘
믙
믚
믛
믜
믝
믞
믟
믠
믡
믢
믣
믤
믥
믦
믧
믨
믩
믪
믫
믬
믭
믮
믯
믰
믱
믲
믳
믴
믵
믶
믷
미
믹
믺
믻
민
믽
믾
믿
밀
밁
밂
밃
밄
밅
밆
밇
밈
밉
밊
밋
밌
밍
밎
및
밐
밑
밒
밓
바
박
밖
밗
반
밙
밚
받
발
밝
밞
밟
밠
밡
밢
밣
밤
밥
밦
밧
밨
방
밪
밫
밬
밭
밮
밯
배
백
밲
밳
밴
밵
밶
밷
밸
밹
밺
밻
밼
밽
밾
밿
뱀
뱁
뱂
뱃
뱅
뱆
뱇
뱈
뱉
뱊
뱋
뱌
뱍
뱎
뱏
뱐
뱑
뱒
뱓
뱔
뱕
뱖
뱗
뱘
뱙
뱚
뱛
뱜
뱝
뱞
뱟
뱠
뱡
뱢
뱣
뱤
뱥
뱦
뱧
뱨
뱩
뱪
뱫
뱬
뱭
뱮
뱯
뱰
뱱
뱲
뱳
뱴
뱵
뱶
뱷
뱸
뱹
뱺
뱻
뱼
뱽
뱾
뱿
벀
벁
벂
벃
버
벅
벆
벇
번
벉
벊
벋
벌
벍
벎
벏
벐
벑
벒
벓
범
법
벖
벗
벘
벙
벚
벛
벜
벝
벞
벟
베
벡
벢
벣
벤
벥
벦
벧
벨
벩
벪
벫
벬
벭
벮
벯
벰
벱
벲
벳
벴
벵
벶
벷
벸
벹
벺
벻
벼
벽
벾
벿
변
볁
볂
볃
별
볅
볆
볇
볈
볉
볊
볋
볌
볍
볎
볏
볐
병
볒
볓
볔
볕
볖
볗
볘
볙
볚
볛
볜
볝
볞
볟
볠
볡
볢
볣
볤
볥
볦
볧
볨
볩
볪
볫
볬
볭
볮
볯
볰
볱
볲
볳
보
복
볶
볷
본
볹
볺
볻
볼
볽
볾
볿
봀
봁
봂
봃
봄
봅
봆
봇
봈
봉
봊
봋
봌
봍
봎
봏
봐
봑
봒
봓
봔
봕
봖
봗
봘
봙
봚
봛
봜
봝
봞
봟
봠
봡
봢
봣
봤
봥
봦
봧
봨
봩
봪
봫
봬
봭
봮
봯
봰
봱
봲
봳
봴
봵
봶
봷
봸
봹
봺
봻
봼
봽
봾
봿
뵁
뵂
뵃
뵄
뵅
뵆
뵇
뵈
뵉
뵊
뵋
뵍
뵎
뵏
뵐
뵑
뵒
뵓
뵔
뵕
뵖
뵗
뵘
뵙
뵚
뵛
뵝
뵞
뵟
뵠
뵡
뵢
뵣
뵤
뵥
뵦
뵧
뵨
뵩
뵪
뵫
뵬
뵭
뵮
뵯
뵰
뵱
뵲
뵳
뵴
뵵
뵶
뵷
뵸
뵹
뵺
뵻
뵼
뵽
뵾
뵿
부
북
붂
붃
분
붅
붆
붇
불
붉
붊
붋
붌
붍
붎
붏
붐
붑
붒
붓
붔
붕
붖
붗
붘
붙
붚
붛
붜
붝
붞
붟
붠
붡
붢
붣
붤
붥
붦
붧
붨
붩
붪
붫
붬
붭
붮
붯
붰
붱
붲
붳
붴
붵
붶
붷
붸
붹
붺
붻
붼
붽
붾
붿
뷀
뷁
뷂
뷃
뷄
뷅
뷆
뷇
뷈
뷉
뷊
뷋
뷌
뷍
뷎
뷏
뷐
뷑
뷒
뷓
뷔
뷕
뷖
뷗
뷘
뷙
뷚
뷛
뷜
뷝
뷞
뷟
뷠
뷡
뷢
뷣
뷤
뷥
뷦
뷧
뷨
뷩
뷪
뷫
뷬
뷭
뷮
뷯
뷰
뷱
뷲
뷳
뷴
뷵
뷶
뷷
뷸
뷹
뷺
뷻
뷼
뷽
뷾
뷿
븀
븁
븂
븃
븄
븅
븆
븇
븈
븉
븊
븋
브
븍
븎
븏
븐
븑
븒
븓
블
븕
븖
븗
븘
븙
븚
븛
븜
븝
븞
븟
븠
븡
븢
븣
븤
븥
븦
븧
븨
븩
븪
븫
븬
븭
븮
븯
븰
븱
븲
븳
븴
븵
븶
븷
븸
븹
븺
븻
븼
븽
븾
븿
빀
빁
빂
빃
비
빅
빆
빇
빈
빉
빊
빋
빌
빍
빎
빏
빐
빑
빒
빓
빔
빕
빖
빗
빘
빙
빚
빛
빜
빝
빞
빟
빠
빡
빢
빣
빤
빥
빦
빧
빨
빩
빪
빫
빬
빭
빮
빯
빰
빱
빲
빳
빴
빵
빶
빷
빸
빹
빺
빻
빼
빽
빾
빿
뺀
뺁
뺂
뺃
뺄
뺅
뺆
뺇
뺈
뺉
뺊
뺋
뺌
뺍
뺎
뺏
뺐
뺑
뺒
뺓
뺔
뺕
뺖
뺗
뺘
뺙
뺚
뺛
뺜
뺝
뺞
뺟
뺠
뺡
뺢
뺣
뺤
뺥
뺦
뺧
뺨
뺩
뺪
뺫
뺬
뺭
뺮
뺯
뺰
뺱
뺲
뺳
뺴
뺵
뺶
뺷
뺸
뺹
뺺
뺻
뺼
뺽
뺾
뺿
뻀
뻁
뻂
뻃
뻄
뻅
뻆
뻇
뻈
뻉
뻊
뻋
뻌
뻍
뻎
뻏
뻐
뻑
뻒
뻓
뻔
뻕
뻖
뻗
뻘
뻙
뻚
뻛
뻜
뻝
뻞
뻟
뻠
뻡
뻢
뻣
뻤
뻥
뻦
뻧
뻨
뻩
뻪
뻫
뻬
뻭
뻮
뻯
뻰
뻱
뻲
뻳
뻴
뻵
뻶
뻷
뻸
뻹
뻺
뻻
뻼
뻽
뻾
뻿
뼀
뼁
뼂
뼃
뼄
뼅
뼆
뼇
뼈
뼉
뼊
뼋
뼌
뼍
뼎
뼏
뼐
뼑
뼒
뼓
뼔
뼕
뼖
뼗
뼘
뼙
뼚
뼛
뼜
뼝
뼞
뼟
뼠
뼡
뼢
뼣
뼤
뼥
뼦
뼧
뼨
뼩
뼪
뼫
뼬
뼭
뼮
뼯
뼰
뼱
뼲
뼳
뼴
뼵
뼶
뼷
뼸
뼹
뼺
뼻
뼼
뼽
뼾
뼿
뽀
뽁
뽂
뽃
뽄
뽅
뽆
뽇
뽈
뽉
뽊
뽋
뽌
뽍
뽎
뽏
뽐
뽑
뽒
뽓
뽔
뽕
뽖
뽗
뽘
뽙
뽚
뽛
뽜
뽝
뽞
뽟
뽠
뽡
뽢
뽣
뽤
뽥
뽦
뽧
뽨
뽩
뽪
뽫
뽬
뽭
뽮
뽯
뽰
뽱
뽲
뽳
뽴
뽵
뽶
뽷
뽸
뽹
뽺
뽻
뽼
뽽
뽾
뽿
뾀
뾁
뾂
뾃
뾄
뾅
뾆
뾇
뾈
뾉
뾊
뾋
뾌
뾍
뾎
뾏
뾐
뾑
뾒
뾓
뾔
뾕
뾖
뾗
뾘
뾙
뾚
뾛
뾜
뾝
뾞
뾟
뾠
뾡
뾢
뾣
뾤
뾥
뾦
뾧
뾨
뾩
뾪
뾫
뾬
뾭
뾮
뾯
뾰
뾱
뾲
뾳
뾴
뾵
뾶
뾷
뾸
뾹
뾺
뾻
뾼
뾽
뾾
뾿
뿀
뿁
뿂
뿃
뿄
뿅
뿆
뿇
뿈
뿉
뿊
뿋
뿌
뿍
뿎
뿏
뿐
뿑
뿒
뿓
뿔
뿕
뿖
뿗
뿘
뿙
뿚
뿛
뿜
뿝
뿞
뿟
뿡
뿢
뿣
뿤
뿥
뿦
뿧
뿨
뿩
뿪
뿫
뿬
뿭
뿮
뿯
뿰
뿱
뿲
뿳
뿴
뿵
뿶
뿷
뿸
뿹
뿺
뿻
뿼
뿽
뿾
뿿
쀀
쀁
쀂
쀃
쀄
쀅
쀆
쀇
쀈
쀉
쀊
쀋
쀌
쀍
쀎
쀏
쀐
쀑
쀒
쀓
쀔
쀕
쀖
쀗
쀘
쀙
쀚
쀛
쀜
쀝
쀞
쀟
쀠
쀡
쀢
쀣
쀤
쀥
쀦
쀧
쀨
쀩
쀪
쀫
쀬
쀭
쀮
쀯
쀰
쀱
쀲
쀳
쀴
쀵
쀶
쀷
쀸
쀹
쀺
쀻
쀼
쀽
쀾
쀿
쁀
쁁
쁂
쁃
쁄
쁅
쁆
쁇
쁈
쁉
쁊
쁋
쁌
쁍
쁎
쁏
쁐
쁑
쁒
쁓
쁔
쁕
쁖
쁗
쁘
쁙
쁚
쁛
쁜
쁝
쁞
쁟
쁠
쁡
쁢
쁣
쁤
쁥
쁦
쁧
쁨
쁩
쁪
쁫
쁬
쁭
쁮
쁯
쁰
쁱
쁲
쁳
쁴
쁵
쁶
쁷
쁸
쁹
쁺
쁻
쁼
쁽
쁾
쁿
삀
삁
삂
삃
삄
삅
삆
삇
삈
삉
삊
삋
삌
삍
삎
삏
삐
삑
삒
삓
삔
삕
삖
삗
삘
삙
삚
삛
삜
삝
삞
삟
삠
삡
삢
삣
삤
삥
삦
삧
삨
삩
삪
삫
사
삭
삮
삯
산
삱
삲
삳
살
삵
삶
삷
삸
삹
삺
삻
삼
삽
삾
삿
상
샂
샃
샄
샅
샆
샇
새
색
샊
샋
샌
샍
샎
샏
샐
샑
샒
샓
샔
샕
샖
샗
샘
샙
샚
샛
생
샞
샟
샠
샡
샢
샣
샤
샥
샦
샧
샨
샩
샪
샫
샬
샭
샮
샯
샰
샱
샲
샳
샴
샵
샶
샷
샸
샹
샺
샻
샼
샽
샾
샿
섀
섁
섂
섃
섄
섅
섆
섇
섈
섉
섊
섋
섌
섍
섎
섏
섐
섑
섒
섓
섔
섕
섖
섗
섘
섙
섚
섛
서
석
섞
섟
선
섡
섢
섣
설
섥
섦
섧
섨
섩
섪
섫
섬
섭
섮
섯
섰
성
섲
섳
섴
섵
섶
섷
세
섹
섺
섻
센
섽
섿
셀
셁
셂
셃
셄
셅
셆
셇
셈
셉
셊
셋
셍
셎
셏
셐
셑
셒
셓
셔
셕
셖
셗
션
셙
셚
셛
셜
셝
셞
셟
셠
셡
셢
셣
셤
셥
셦
셧
셨
셩
셪
셫
셬
셭
셮
셯
셰
셱
셲
셳
셴
셵
셶
셷
셸
셹
셺
셻
셼
셽
셾
셿
솀
솁
솂
솃
솄
솅
솆
솇
솈
솉
솊
솋
소
속
솎
솏
손
솑
솒
솓
솔
솕
솖
솗
솘
솙
솚
솛
솜
솝
솞
솟
솠
송
솢
솣
솤
솥
솦
솧
솨
솩
솪
솫
솬
솭
솮
솯
솰
솱
솲
솳
솴
솵
솶
솷
솸
솹
솺
솻
솼
솽
솾
솿
쇀
쇁
쇂
쇃
쇄
쇅
쇆
쇇
쇈
쇉
쇊
쇋
쇌
쇍
쇎
쇏
쇐
쇑
쇒
쇓
쇔
쇕
쇖
쇗
쇘
쇙
쇚
쇛
쇜
쇝
쇞
쇟
쇠
쇡
쇢
쇣
쇤
쇥
쇦
쇧
쇨
쇩
쇪
쇫
쇬
쇭
쇮
쇯
쇰
쇱
쇲
쇳
쇴
쇵
쇶
쇷
쇸
쇹
쇺
쇻
쇼
쇽
쇾
쇿
숀
숁
숂
숃
숄
숅
숆
숇
숈
숉
숊
숋
숌
숍
숎
숏
숐
숑
숒
숓
숔
숕
숖
숗
수
숙
숚
숛
순
숝
숞
숟
술
숡
숢
숣
숤
숥
숦
숧
숨
숩
숪
숫
숬
숭
숮
숯
숰
숱
숲
숳
숴
숵
숶
숷
숸
숹
숺
숻
숼
숽
숾
숿
쉀
쉁
쉂
쉃
쉄
쉅
쉆
쉇
쉈
쉉
쉊
쉋
쉌
쉍
쉎
쉏
쉐
쉑
쉒
쉓
쉔
쉕
쉖
쉗
쉘
쉙
쉚
쉛
쉜
쉝
쉞
쉟
쉠
쉡
쉢
쉣
쉤
쉥
쉦
쉧
쉨
쉩
쉪
쉫
쉬
쉭
쉮
쉯
쉰
쉱
쉲
쉳
쉴
쉵
쉶
쉷
쉸
쉹
쉺
쉻
쉼
쉽
쉾
쉿
슀
슁
슂
슃
슄
슅
슆
슇
슈
슉
슊
슋
슌
슍
슎
슏
슐
슑
슒
슓
슔
슕
슖
슗
슘
슙
슚
슛
슜
슝
슞
슟
슠
슡
슢
슣
스
슥
슦
슧
슨
슩
슪
슫
슬
슭
슮
슯
슰
슱
슲
슳
슴
습
슶
슷
슸
승
슺
슻
슼
슽
슾
슿
싀
싁
싂
싃
싄
싅
싆
싇
싈
싉
싊
싋
싌
싍
싎
싏
싐
싑
싒
싓
싔
싕
싖
싗
싘
싙
싚
싛
시
식
싞
싟
신
싡
싢
싣
실
싥
싦
싧
싨
싩
싪
싫
심
십
싮
싯
싰
싱
싲
싳
싴
싵
싶
싷
싸
싹
싺
싻
싼
싽
싾
싿
쌀
쌁
쌂
쌃
쌄
쌅
쌆
쌇
쌈
쌉
쌊
쌋
쌍
쌎
쌏
쌐
쌑
쌒
쌓
쌔
쌕
쌖
쌗
쌘
쌙
쌚
쌛
쌜
쌝
쌞
쌟
쌠
쌡
쌢
쌣
쌤
쌥
쌦
쌧
쌩
쌪
쌫
쌬
쌭
쌮
쌯
쌰
쌱
쌲
쌳
쌴
쌵
쌶
쌷
쌸
쌹
쌺
쌻
쌼
쌽
쌾
쌿
썀
썁
썂
썃
썄
썅
썆
썇
썈
썉
썊
썋
썌
썍
썎
썏
썐
썑
썒
썓
썔
썕
썖
썗
썘
썙
썚
썛
썜
썝
썞
썟
썠
썡
썢
썣
썤
썥
썦
썧
써
썩
썪
썫
썬
썭
썮
썯
썰
썱
썲
썳
썴
썵
썶
썷
썸
썹
썺
썻
썼
썽
썾
썿
쎀
쎁
쎂
쎃
쎄
쎅
쎆
쎇
쎈
쎉
쎊
쎋
쎌
쎍
쎎
쎏
쎐
쎑
쎒
쎓
쎔
쎕
쎖
쎗
쎙
쎚
쎛
쎜
쎝
쎞
쎟
쎠
쎡
쎢
쎣
쎤
쎥
쎦
쎧
쎨
쎩
쎪
쎫
쎬
쎭
쎮
쎯
쎰
쎱
쎲
쎳
쎴
쎵
쎶
쎷
쎸
쎹
쎺
쎻
쎼
쎽
쎾
쎿
쏀
쏁
쏂
쏃
쏄
쏅
쏆
쏇
쏈
쏉
쏊
쏋
쏌
쏍
쏎
쏏
쏐
쏑
쏒
쏓
쏔
쏕
쏖
쏗
쏘
쏙
쏚
쏛
쏜
쏝
쏞
쏟
쏠
쏡
쏢
쏣
쏤
쏥
쏦
쏧
쏨
쏩
쏪
쏫
쏬
쏭
쏮
쏯
쏰
쏱
쏲
쏳
쏴
쏵
쏶
쏷
쏸
쏹
쏺
쏻
쏼
쏽
쏾
쏿
쐀
쐁
쐂
쐃
쐄
쐅
쐆
쐇
쐉
쐊
쐋
쐌
쐍
쐎
쐏
쐐
쐑
쐒
쐓
쐔
쐕
쐖
쐗
쐘
쐙
쐚
쐛
쐜
쐝
쐞
쐟
쐠
쐡
쐢
쐣
쐤
쐥
쐦
쐧
쐨
쐩
쐪
쐫
쐬
쐭
쐮
쐯
쐱
쐲
쐳
쐵
쐶
쐷
쐸
쐹
쐺
쐻
쐼
쐽
쐾
쐿
쑀
쑁
쑂
쑃
쑄
쑅
쑆
쑇
쑈
쑉
쑊
쑋
쑌
쑍
쑎
쑏
쑐
쑑
쑒
쑓
쑔
쑕
쑖
쑗
쑘
쑙
쑚
쑛
쑜
쑝
쑞
쑟
쑠
쑡
쑢
쑣
쑤
쑥
쑦
쑧
쑨
쑩
쑪
쑫
쑭
쑮
쑯
쑰
쑱
쑲
쑳
쑴
쑵
쑶
쑷
쑸
쑹
쑺
쑻
쑼
쑽
쑾
쑿
쒀
쒁
쒂
쒃
쒄
쒅
쒆
쒇
쒈
쒉
쒊
쒋
쒌
쒍
쒎
쒏
쒐
쒑
쒒
쒓
쒕
쒖
쒗
쒘
쒙
쒚
쒛
쒜
쒝
쒞
쒟
쒠
쒡
쒢
쒣
쒤
쒥
쒦
쒧
쒨
쒩
쒪
쒫
쒬
쒭
쒮
쒯
쒰
쒱
쒲
쒳
쒴
쒵
쒶
쒷
쒸
쒹
쒺
쒻
쒽
쒾
쒿
쓀
쓁
쓂
쓃
쓄
쓅
쓆
쓇
쓈
쓉
쓊
쓋
쓌
쓍
쓎
쓏
쓐
쓑
쓒
쓓
쓔
쓕
쓖
쓗
쓘
쓙
쓚
쓛
쓜
쓝
쓞
쓟
쓠
쓡
쓢
쓣
쓤
쓥
쓦
쓧
쓨
쓩
쓪
쓫
쓬
쓭
쓮
쓯
쓰
쓱
쓲
쓳
쓴
쓵
쓶
쓷
쓸
쓹
쓺
쓻
쓼
쓽
쓾
쓿
씀
씁
씂
씃
씄
씅
씆
씇
씈
씉
씊
씋
씌
씍
씎
씏
씑
씒
씓
씔
씕
씖
씗
씘
씙
씚
씛
씜
씝
씞
씟
씠
씡
씢
씣
씤
씥
씦
씧
씨
씩
씪
씫
씬
씭
씮
씯
씰
씱
씲
씳
씴
씵
씶
씷
씸
씹
씺
씻
씼
씽
씾
씿
앀
앁
앂
앃
아
악
앆
앇
안
앉
않
앋
알
앍
앎
앏
앐
앑
앒
앓
암
압
앖
앗
았
앙
앚
앛
앜
앝
앞
앟
애
액
앢
앣
앤
앥
앦
앧
앨
앩
앪
앫
앬
앭
앮
앯
앰
앱
앲
앳
앴
앵
앶
앷
앸
앹
앺
앻
야
약
앾
앿
얀
얁
얂
얃
얄
얅
얆
얇
얈
얉
얊
얋
얌
얍
얎
얏
얐
양
얒
얓
얔
얕
얖
얗
얘
얙
얚
얛
얜
얝
얞
얟
얡
얢
얣
얤
얥
얦
얧
얨
얩
얪
얫
얬
얭
얮
얯
얰
얱
얲
얳
어
억
얶
얷
언
얹
얺
얻
얼
얽
얾
얿
엀
엁
엂
엃
엄
업
없
엇
었
엉
엊
엋
엌
엍
엎
엏
에
엑
엒
엓
엔
엕
엖
엗
엘
엙
엚
엛
엜
엝
엞
엟
엠
엡
엢
엣
엤
엥
엦
엧
엨
엩
엪
엫
여
역
엮
엯
연
엱
엲
엳
열
엵
엶
엷
엸
엹
엺
엻
염
엽
엾
엿
였
영
옂
옃
옄
옅
옆
옇
예
옉
옊
옋
옌
옍
옎
옏
옐
옑
옒
옓
옔
옕
옖
옗
옘
옙
옚
옛
옜
옝
옞
옟
옠
옡
옢
옣
오
옥
옦
옧
온
옩
옪
옫
올
옭
옮
옯
옰
옱
옲
옳
옴
옵
옶
옷
옸
옹
옺
옻
옼
옽
옾
옿
와
왁
왂
왃
완
왅
왆
왇
왈
왉
왊
왋
왌
왍
왎
왏
왐
왑
왒
왓
왔
왕
왖
왗
왘
왙
왚
왛
왜
왝
왞
왟
왠
왡
왢
왣
왤
왥
왦
왧
왨
왩
왪
왫
왬
왭
왮
왯
왰
왱
왲
왳
왴
왵
왶
왷
외
왹
왺
왻
왼
왽
왾
왿
욀
욁
욂
욃
욄
욅
욆
욇
욈
욉
욊
욋
욌
욍
욎
욏
욐
욑
욒
욓
요
욕
욖
욗
욘
욙
욚
욛
욜
욝
욞
욟
욠
욡
욢
욣
욤
욥
욦
욧
욨
용
욪
욫
욬
욭
욮
욯
우
욱
욲
욳
운
욵
욶
욷
울
욹
욺
욻
욼
욽
욾
욿
움
웁
웂
웃
웄
웅
웆
웇
웈
웉
웊
웋
워
웍
웎
웏
원
웑
웒
웓
월
웕
웖
웗
웘
웙
웚
웛
웜
웝
웞
웟
웠
웡
웢
웣
웤
웥
웦
웧
웨
웩
웪
웫
웬
웭
웮
웯
웰
웱
웲
웳
웴
웵
웶
웷
웸
웹
웺
웻
웼
웽
웾
웿
윀
윁
윂
윃
위
윅
윆
윇
윈
윉
윊
윋
윌
윍
윎
윏
윐
윑
윒
윓
윔
윕
윖
윗
윘
윙
윚
윛
윜
윝
윞
윟
유
육
윢
윣
윤
윥
윦
윧
율
윩
윪
윫
윬
윭
윮
윯
윰
윱
윲
윳
윴
융
윶
윷
윸
윹
윺
윻
으
윽
윾
윿
은
읁
읂
읃
을
읅
읆
읇
읈
읉
읊
읋
음
읍
읎
읏
읐
응
읒
읓
읔
읕
읖
읗
의
읙
읚
읛
읜
읝
읞
읟
읠
읡
읢
읣
읤
읥
읦
읧
읨
읩
읪
읫
읬
읭
읮
읯
읰
읱
읲
읳
이
익
읶
읷
인
읹
읺
읻
일
읽
읾
읿
잀
잁
잂
잃
임
입
잆
잇
있
잉
잊
잋
잌
잍
잎
잏
자
작
잒
잓
잔
잕
잖
잗
잘
잙
잚
잛
잜
잝
잞
잟
잠
잡
잢
잣
장
잦
잧
잨
잩
잪
잫
재
잭
잮
잯
잰
잱
잲
잳
잴
잵
잶
잷
잸
잹
잺
잻
잼
잽
잾
잿
쟁
쟂
쟃
쟄
쟅
쟆
쟇
쟈
쟉
쟊
쟋
쟌
쟍
쟎
쟏
쟐
쟑
쟒
쟓
쟔
쟕
쟖
쟗
쟘
쟙
쟚
쟛
쟜
쟝
쟞
쟟
쟠
쟡
쟢
쟣
쟤
쟥
쟦
쟧
쟩
쟪
쟫
쟬
쟭
쟮
쟯
쟰
쟱
쟲
쟳
쟴
쟵
쟶
쟷
쟸
쟹
쟺
쟻
쟼
쟽
쟾
쟿
저
적
젂
젃
전
젅
젆
젇
절
젉
젊
젋
젌
젍
젎
젏
점
접
젒
젓
젔
정
젖
젗
젘
젙
젚
젛
제
젝
젞
젟
젠
젡
젢
젣
젤
젥
젦
젧
젨
젩
젪
젫
젬
젭
젮
젯
젰
젱
젲
젳
젴
젵
젶
젷
져
젹
젺
젻
젼
젽
젾
젿
졀
졁
졂
졃
졄
졅
졆
졇
졈
졉
졊
졋
졌
졍
졎
졏
졐
졑
졒
졓
졔
졕
졖
졗
졘
졙
졚
졛
졜
졝
졞
졟
졠
졡
졢
졣
졤
졥
졦
졧
졨
졩
졪
졫
졬
졭
졮
졯
조
족
졲
졳
존
졵
졶
졷
졸
졹
졺
졻
졼
졽
졾
졿
좀
좁
좂
좃
좄
종
좆
좇
좈
좉
좊
좋
좌
좍
좎
좏
좐
좑
좒
좓
좔
좕
좖
좗
좘
좙
좚
좛
좜
좝
좞
좟
좠
좡
좢
좣
좤
좥
좦
좧
좨
좩
좪
좫
좬
좭
좮
좯
좰
좱
좲
좳
좴
좵
좶
좷
좸
좹
좺
좻
좼
좽
좾
좿
죀
죁
죂
죃
죄
죅
죆
죇
죈
죉
죊
죋
죌
죍
죎
죏
죐
죑
죒
죓
죔
죕
죖
죗
죙
죚
죛
죜
죝
죞
죟
죠
죡
죢
죣
죤
죥
죦
죧
죨
죩
죪
죫
죬
죭
죮
죯
죰
죱
죲
죳
죴
죵
죶
죷
죸
죹
죺
죻
주
죽
죾
죿
준
줁
줂
줃
줄
줅
줆
줇
줈
줉
줊
줋
줌
줍
줎
줏
줐
중
줒
줓
줔
줕
줖
줗
줘
줙
줚
줛
줜
줝
줞
줟
줠
줡
줢
줣
줤
줥
줦
줧
줨
줩
줪
줫
줬
줭
줮
줯
줰
줱
줲
줳
줴
줵
줶
줷
줸
줹
줺
줻
줼
줽
줾
줿
쥀
쥁
쥂
쥃
쥄
쥅
쥆
쥇
쥈
쥉
쥊
쥋
쥌
쥍
쥎
쥏
쥐
쥑
쥒
쥓
쥔
쥕
쥖
쥗
쥘
쥙
쥚
쥛
쥜
쥝
쥞
쥟
쥠
쥡
쥢
쥣
쥤
쥥
쥦
쥧
쥨
쥩
쥪
쥫
쥬
쥭
쥮
쥯
쥰
쥱
쥲
쥳
쥴
쥵
쥶
쥷
쥸
쥹
쥺
쥻
쥼
쥽
쥾
쥿
즀
즁
즂
즃
즄
즅
즆
즇
즈
즉
즊
즋
즌
즍
즎
즏
즐
즑
즒
즓
즔
즕
즖
즗
즘
즙
즚
즛
즜
증
즞
즟
즠
즡
즢
즣
즤
즥
즦
즧
즨
즩
즪
즫
즬
즭
즮
즯
즰
즱
즲
즳
즴
즵
즶
즷
즸
즹
즺
즻
즼
즽
즾
즿
지
직
짂
짃
진
짅
짆
짇
질
짉
짊
짋
짌
짍
짎
짏
짐
집
짒
짓
짔
징
짖
짗
짘
짙
짚
짛
짜
짝
짞
짟
짠
짡
짢
짣
짤
짥
짦
짧
짨
짩
짪
짫
짬
짭
짮
짯
짱
짲
짳
짴
짵
짶
짷
째
짹
짺
짻
짼
짽
짾
짿
쨀
쨁
쨂
쨃
쨄
쨅
쨆
쨇
쨈
쨉
쨊
쨋
쨌
쨍
쨎
쨏
쨐
쨑
쨒
쨓
쨔
쨕
쨖
쨗
쨘
쨙
쨚
쨛
쨜
쨝
쨞
쨟
쨠
쨡
쨢
쨣
쨤
쨥
쨦
쨧
쨨
쨩
쨪
쨫
쨬
쨭
쨮
쨯
쨰
쨱
쨲
쨳
쨴
쨵
쨶
쨷
쨸
쨹
쨺
쨻
쨼
쨽
쨾
쨿
쩀
쩁
쩂
쩃
쩄
쩅
쩆
쩇
쩈
쩉
쩊
쩋
쩌
쩍
쩎
쩏
쩐
쩑
쩒
쩓
쩔
쩕
쩖
쩗
쩘
쩙
쩚
쩛
쩜
쩝
쩞
쩟
쩠
쩡
쩢
쩣
쩤
쩥
쩦
쩧
쩨
쩩
쩪
쩫
쩬
쩭
쩮
쩯
쩰
쩱
쩲
쩳
쩴
쩵
쩶
쩷
쩸
쩹
쩺
쩻
쩼
쩽
쩾
쩿
쪀
쪁
쪂
쪃
쪄
쪅
쪆
쪇
쪈
쪉
쪊
쪋
쪌
쪍
쪎
쪏
쪐
쪑
쪒
쪓
쪔
쪕
쪖
쪗
쪘
쪙
쪚
쪛
쪜
쪝
쪞
쪟
쪠
쪡
쪢
쪣
쪤
쪥
쪦
쪧
쪨
쪩
쪪
쪫
쪬
쪭
쪮
쪯
쪰
쪱
쪲
쪳
쪴
쪵
쪶
쪷
쪸
쪹
쪺
쪻
쪼
쪽
쪾
쪿
쫀
쫁
쫂
쫃
쫄
쫅
쫆
쫇
쫈
쫉
쫊
쫋
쫌
쫍
쫎
쫏
쫐
쫑
쫒
쫓
쫔
쫕
쫖
쫗
쫘
쫙
쫚
쫛
쫜
쫝
쫞
쫟
쫠
쫡
쫢
쫣
쫤
쫥
쫦
쫧
쫨
쫩
쫪
쫫
쫭
쫮
쫯
쫰
쫱
쫲
쫳
쫴
쫵
쫶
쫷
쫸
쫹
쫺
쫻
쫼
쫽
쫾
쫿
쬀
쬁
쬂
쬃
쬄
쬅
쬆
쬇
쬈
쬉
쬊
쬋
쬌
쬍
쬎
쬏
쬐
쬑
쬒
쬓
쬔
쬕
쬖
쬗
쬙
쬚
쬛
쬜
쬝
쬞
쬟
쬡
쬢
쬣
쬤
쬥
쬦
쬧
쬨
쬩
쬪
쬫
쬬
쬭
쬮
쬯
쬰
쬱
쬲
쬳
쬴
쬵
쬶
쬷
쬸
쬹
쬺
쬻
쬼
쬽
쬾
쬿
쭀
쭁
쭂
쭃
쭄
쭅
쭆
쭇
쭈
쭉
쭊
쭋
쭌
쭍
쭎
쭏
쭐
쭑
쭒
쭓
쭔
쭕
쭖
쭗
쭘
쭙
쭚
쭛
쭜
쭝
쭞
쭟
쭠
쭡
쭢
쭣
쭤
쭥
쭦
쭧
쭨
쭩
쭪
쭫
쭬
쭭
쭮
쭯
쭰
쭱
쭲
쭳
쭴
쭵
쭶
쭷
쭸
쭹
쭺
쭻
쭼
쭽
쭾
쭿
쮀
쮁
쮂
쮃
쮄
쮅
쮆
쮇
쮈
쮉
쮊
쮋
쮌
쮍
쮎
쮏
쮐
쮑
쮒
쮓
쮔
쮕
쮖
쮗
쮘
쮙
쮚
쮛
쮜
쮝
쮞
쮟
쮠
쮡
쮢
쮣
쮤
쮥
쮦
쮧
쮨
쮩
쮪
쮫
쮬
쮭
쮮
쮯
쮰
쮱
쮲
쮳
쮴
쮵
쮶
쮷
쮸
쮹
쮺
쮻
쮼
쮽
쮾
쮿
쯀
쯁
쯂
쯃
쯄
쯅
쯆
쯇
쯈
쯉
쯊
쯋
쯌
쯍
쯎
쯏
쯐
쯑
쯒
쯓
쯔
쯕
쯖
쯗
쯘
쯙
쯚
쯛
쯜
쯝
쯞
쯟
쯠
쯡
쯢
쯣
쯤
쯥
쯦
쯧
쯨
쯩
쯪
쯫
쯬
쯭
쯮
쯯
쯰
쯱
쯲
쯳
쯴
쯵
쯶
쯷
쯸
쯹
쯺
쯻
쯼
쯽
쯾
쯿
찀
찁
찂
찃
찄
찅
찆
찇
찈
찉
찊
찋
찌
찍
찎
찏
찐
찑
찒
찓
찔
찕
찖
찗
찘
찙
찚
찛
찜
찝
찞
찟
찠
찡
찢
찣
찤
찥
찦
찧
차
착
찪
찫
찬
찭
찮
찯
찰
찱
찲
찳
찴
찵
찶
찷
참
찹
찺
찻
창
찾
찿
챀
챁
챂
챃
채
책
챆
챇
챈
챉
챊
챋
챌
챍
챎
챏
챐
챑
챒
챓
챔
챕
챖
챗
챘
챙
챚
챛
챜
챝
챞
챟
챠
챡
챢
챣
챤
챥
챦
챧
챨
챩
챪
챫
챬
챭
챮
챯
챰
챱
챲
챳
챴
챵
챶
챷
챸
챹
챺
챻
챼
챽
챾
챿
첀
첁
첂
첃
첄
첅
첆
첇
첈
첉
첊
첋
첌
첍
첎
첏
첐
첑
첒
첓
첔
첕
첖
첗
처
척
첚
첛
천
첝
첞
첟
철
첡
첢
첣
첤
첥
첦
첧
첨
첩
첪
첫
첬
청
첮
첯
첰
첱
첲
첳
체
첵
첶
첷
첸
첹
첺
첻
첼
첽
첾
첿
쳀
쳁
쳂
쳃
쳄
쳅
쳆
쳇
쳈
쳉
쳊
쳋
쳌
쳍
쳎
쳏
쳐
쳑
쳒
쳓
쳔
쳕
쳖
쳗
쳘
쳙
쳚
쳛
쳜
쳝
쳞
쳟
쳠
쳡
쳢
쳣
쳤
쳥
쳦
쳧
쳨
쳩
쳪
쳫
쳬
쳭
쳮
쳯
쳰
쳱
쳲
쳳
쳴
쳵
쳶
쳷
쳸
쳹
쳺
쳻
쳼
쳽
쳾
쳿
촀
촁
촂
촃
촄
촅
촆
촇
초
촉
촊
촋
촌
촍
촎
촏
촐
촑
촒
촓
촔
촕
촖
촗
촘
촙
촚
촛
촜
총
촞
촟
촠
촡
촢
촣
촤
촥
촦
촧
촨
촩
촪
촫
촬
촭
촮
촯
촰
촱
촲
촳
촴
촵
촶
촷
촸
촹
촺
촻
촼
촽
촾
촿
쵀
쵁
쵂
쵃
쵄
쵅
쵆
쵇
쵈
쵉
쵊
쵋
쵌
쵍
쵎
쵏
쵐
쵑
쵒
쵓
쵔
쵕
쵖
쵗
쵘
쵙
쵚
쵛
최
쵝
쵞
쵟
쵠
쵡
쵢
쵣
쵤
쵥
쵦
쵧
쵨
쵩
쵪
쵫
쵬
쵭
쵮
쵯
쵰
쵱
쵲
쵳
쵴
쵵
쵶
쵷
쵸
쵹
쵺
쵻
쵼
쵽
쵾
쵿
춀
춁
춂
춃
춄
춅
춆
춇
춈
춉
춊
춋
춌
춍
춎
춏
춐
춑
춒
춓
추
축
춖
춗
춘
춙
춚
춛
출
춝
춞
춟
춠
춡
춢
춣
춤
춥
춦
춧
춨
충
춪
춫
춬
춭
춮
춯
춰
춱
춲
춳
춴
춵
춶
춷
춸
춹
춺
춻
춼
춽
춾
춿
췀
췁
췂
췃
췄
췅
췆
췇
췈
췉
췊
췋
췌
췍
췎
췏
췐
췑
췒
췓
췔
췕
췖
췗
췘
췙
췚
췛
췜
췝
췞
췟
췠
췡
췢
췣
췤
췥
췦
췧
취
췩
췪
췫
췬
췭
췮
췯
췰
췱
췲
췳
췴
췵
췶
췷
췸
췹
췺
췻
췼
췽
췾
췿
츀
츁
츂
츃
츄
츅
츆
츇
츈
츉
츊
츋
츌
츍
츎
츏
츐
츑
츒
츓
츔
츕
츖
츗
츘
츙
츚
츛
츜
츝
츞
츟
츠
측
츢
츣
츤
츥
츦
츧
츨
츩
츪
츫
츬
츭
츮
츯
츰
츱
츲
츳
츴
층
츶
츷
츸
츹
츺
츻
츼
츽
츾
츿
칀
칁
칂
칃
칄
칅
칆
칇
칈
칉
칊
칋
칌
칍
칎
칏
칐
칑
칒
칓
칔
칕
칖
칗
치
칙
칚
칛
친
칝
칞
칟
칠
칡
칢
칣
칤
칥
칦
칧
침
칩
칪
칫
칬
칭
칮
칯
칰
칱
칲
칳
카
칵
칶
칷
칸
칹
칺
칻
칼
칽
칾
칿
캀
캁
캂
캃
캄
캅
캆
캇
캈
캉
캊
캋
캌
캍
캎
캏
캐
캑
캒
캓
캔
캕
캖
캗
캘
캙
캚
캛
캜
캝
캞
캟
캠
캡
캢
캣
캤
캥
캦
캧
캨
캩
캪
캫
캬
캭
캮
캯
캰
캱
캲
캳
캴
캵
캶
캷
캸
캹
캺
캻
캼
캽
캾
캿
컀
컁
컂
컃
컄
컅
컆
컇
컈
컉
컊
컋
컌
컍
컎
컏
컐
컑
컒
컓
컔
컕
컖
컗
컘
컙
컚
컛
컜
컝
컞
컟
컠
컡
컢
컣
커
컥
컦
컧
컨
컩
컪
컫
컬
컭
컮
컯
컰
컱
컲
컳
컴
컵
컶
컷
컹
컺
컻
컼
컽
컾
컿
케
켁
켂
켃
켄
켅
켆
켇
켈
켉
켊
켋
켌
켍
켎
켏
켐
켑
켒
켓
켔
켕
켖
켗
켘
켙
켚
켛
켜
켝
켞
켟
켠
켡
켢
켣
켤
켥
켦
켧
켨
켩
켪
켫
켬
켭
켮
켯
켰
켱
켲
켳
켴
켵
켶
켷
켸
켹
켺
켻
켼
켽
켾
켿
콀
콁
콂
콃
콄
콅
콆
콇
콈
콉
콊
콋
콌
콍
콎
콏
콐
콑
콒
콓
코
콕
콖
콗
콘
콙
콚
콛
콜
콝
콞
콟
콠
콡
콢
콣
콤
콥
콦
콧
콨
콩
콪
콫
콬
콭
콮
콯
콰
콱
콲
콳
콴
콵
콶
콷
콸
콹
콺
콻
콼
콽
콾
콿
쾀
쾁
쾂
쾃
쾄
쾅
쾆
쾇
쾈
쾉
쾊
쾋
쾌
쾍
쾎
쾏
쾐
쾑
쾒
쾓
쾔
쾕
쾖
쾗
쾘
쾙
쾚
쾛
쾜
쾝
쾞
쾟
쾠
쾡
쾢
쾣
쾤
쾥
쾦
쾧
쾨
쾩
쾪
쾫
쾬
쾭
쾮
쾯
쾰
쾱
쾲
쾳
쾴
쾵
쾶
쾷
쾸
쾹
쾺
쾻
쾼
쾽
쾾
쾿
쿀
쿁
쿂
쿃
쿄
쿅
쿆
쿇
쿈
쿉
쿊
쿋
쿌
쿍
쿎
쿏
쿐
쿑
쿒
쿓
쿔
쿕
쿖
쿗
쿘
쿙
쿚
쿛
쿜
쿝
쿞
쿟
쿠
쿡
쿢
쿣
쿤
쿥
쿦
쿧
쿨
쿩
쿪
쿫
쿬
쿭
쿮
쿯
쿰
쿱
쿲
쿳
쿴
쿵
쿶
쿷
쿸
쿹
쿺
쿻
쿼
쿽
쿾
쿿
퀀
퀁
퀂
퀃
퀄
퀅
퀆
퀇
퀈
퀉
퀊
퀋
퀌
퀍
퀎
퀏
퀐
퀑
퀒
퀓
퀔
퀕
퀖
퀗
퀘
퀙
퀚
퀛
퀜
퀝
퀞
퀟
퀠
퀡
퀢
퀣
퀤
퀥
퀦
퀧
퀨
퀩
퀪
퀫
퀬
퀭
퀮
퀯
퀰
퀱
퀲
퀳
퀴
퀵
퀶
퀷
퀸
퀹
퀺
퀻
퀼
퀽
퀾
퀿
큀
큁
큂
큃
큄
큅
큆
큇
큈
큉
큊
큋
큌
큍
큎
큏
큐
큑
큒
큓
큔
큕
큖
큗
큘
큙
큚
큛
큜
큝
큞
큟
큠
큡
큢
큣
큤
큥
큦
큧
큨
큩
큪
큫
크
큭
큮
큯
큰
큱
큲
큳
클
큵
큶
큷
큸
큹
큺
큻
큼
큽
큾
큿
킀
킁
킂
킃
킄
킅
킆
킇
킈
킉
킊
킋
킌
킍
킎
킏
킐
킑
킒
킓
킔
킕
킖
킗
킘
킙
킚
킛
킜
킝
킞
킟
킠
킡
킢
킣
키
킥
킦
킧
킨
킩
킪
킫
킬
킭
킮
킯
킰
킱
킲
킳
킴
킵
킶
킷
킸
킹
킺
킻
킼
킽
킾
킿
타
탁
탂
탃
탄
탅
탆
탇
탈
탉
탊
탋
탌
탍
탎
탏
탐
탑
탒
탓
탔
탕
탖
탗
탘
탙
탚
탛
태
택
탞
탟
탠
탡
탢
탣
탤
탥
탦
탧
탨
탩
탪
탫
탬
탭
탮
탯
탰
탱
탲
탳
탴
탵
탶
탷
탸
탹
탺
탻
탼
탽
탾
탿
턀
턁
턂
턃
턄
턅
턆
턇
턈
턉
턊
턋
턌
턍
턎
턏
턐
턑
턒
턓
턔
턕
턖
턗
턘
턙
턚
턛
턜
턝
턞
턟
턠
턡
턢
턣
턤
턥
턦
턧
턨
턩
턪
턫
턬
턭
턮
턯
터
턱
턲
턳
턴
턵
턶
턷
털
턹
턺
턻
턼
턽
턾
턿
텀
텁
텂
텃
텅
텆
텇
텈
텉
텊
텋
테
텍
텎
텏
텐
텑
텒
텓
텔
텕
텖
텗
텘
텙
텚
텛
템
텝
텞
텟
텠
텡
텢
텣
텤
텥
텦
텧
텨
텩
텪
텫
텬
텭
텮
텯
텰
텱
텲
텳
텴
텵
텶
텷
텸
텹
텺
텻
텼
텽
텾
텿
톀
톁
톂
톃
톄
톅
톆
톇
톈
톉
톊
톋
톌
톍
톎
톏
톐
톑
톒
톓
톔
톕
톖
톗
톘
톙
톚
톛
톜
톝
톞
톟
토
톡
톢
톣
톤
톥
톦
톧
톨
톩
톪
톫
톬
톭
톮
톯
톰
톱
톲
톳
톴
통
톶
톷
톸
톹
톺
톻
톼
톽
톾
톿
퇀
퇁
퇂
퇃
퇄
퇅
퇆
퇇
퇈
퇉
퇊
퇋
퇌
퇍
퇎
퇏
퇐
퇑
퇒
퇓
퇔
퇕
퇖
퇗
퇘
퇙
퇚
퇛
퇜
퇝
퇞
퇟
퇠
퇡
퇢
퇣
퇤
퇥
퇦
퇧
퇨
퇩
퇪
퇫
퇬
퇭
퇮
퇯
퇰
퇱
퇲
퇳
퇴
퇵
퇶
퇷
퇸
퇹
퇺
퇻
퇼
퇽
퇾
퇿
툀
툁
툂
툃
툄
툅
툆
툇
툈
툉
툊
툋
툌
툍
툎
툏
툐
툑
툒
툓
툔
툕
툖
툗
툘
툙
툚
툛
툜
툝
툞
툟
툠
툡
툢
툣
툤
툥
툦
툧
툨
툩
툪
툫
투
툭
툮
툯
툰
툱
툲
툳
툴
툵
툶
툷
툸
툹
툺
툻
툼
툽
툾
툿
퉀
퉁
퉂
퉃
퉄
퉅
퉆
퉇
퉈
퉉
퉊
퉋
퉌
퉍
퉎
퉏
퉐
퉑
퉒
퉓
퉔
퉕
퉖
퉗
퉘
퉙
퉚
퉛
퉜
퉝
퉞
퉟
퉠
퉡
퉢
퉣
퉤
퉥
퉦
퉧
퉨
퉩
퉪
퉫
퉬
퉭
퉮
퉯
퉰
퉱
퉲
퉳
퉴
퉵
퉶
퉷
퉸
퉹
퉺
퉻
퉼
퉽
퉾
퉿
튀
튁
튂
튃
튄
튅
튆
튇
튈
튉
튊
튋
튌
튍
튎
튏
튐
튑
튒
튓
튔
튕
튖
튗
튘
튙
튚
튛
튜
튝
튞
튟
튠
튡
튢
튣
튤
튥
튦
튧
튨
튩
튪
튫
튬
튭
튮
튯
튰
튱
튲
튳
튴
튵
튶
튷
트
특
튺
튻
튼
튽
튾
튿
틀
틁
틂
틃
틄
틅
틆
틇
틈
틉
틊
틋
틌
틍
틎
틏
틐
틑
틒
틓
틔
틕
틖
틗
틘
틙
틚
틛
틜
틝
틞
틟
틠
틡
틢
틣
틤
틥
틦
틧
틨
틩
틪
틫
틬
틭
틮
틯
티
틱
틲
틳
틴
틵
틶
틷
틸
틹
틺
틻
틼
틽
틾
틿
팀
팁
팂
팃
팄
팅
팆
팇
팈
팉
팊
팋
파
팍
팎
팏
판
팑
팒
팓
팔
팕
팖
팗
팘
팙
팚
팛
팜
팝
팞
팟
팠
팡
팢
팣
팤
팥
팦
팧
패
팩
팪
팫
팬
팭
팮
팯
팰
팱
팲
팳
팴
팵
팶
팷
팸
팹
팺
팻
팽
팾
팿
퍀
퍁
퍂
퍃
퍄
퍅
퍆
퍇
퍈
퍉
퍊
퍋
퍌
퍍
퍎
퍏
퍐
퍑
퍒
퍓
퍔
퍕
퍖
퍗
퍘
퍙
퍚
퍛
퍜
퍝
퍞
퍟
퍠
퍡
퍢
퍣
퍤
퍥
퍦
퍧
퍨
퍩
퍪
퍫
퍬
퍭
퍮
퍯
퍰
퍱
퍲
퍳
퍴
퍵
퍶
퍷
퍸
퍹
퍺
퍻
퍼
퍽
퍾
퍿
펀
펁
펂
펃
펄
펅
펆
펇
펈
펉
펊
펋
펌
펍
펎
펏
펐
펑
펒
펓
펔
펕
펖
펗
페
펙
펚
펛
펜
펝
펞
펟
펠
펡
펢
펣
펤
펥
펦
펧
펨
펩
펪
펫
펬
펭
펮
펯
펰
펱
펲
펳
펴
펵
펶
펷
편
펹
펺
펻
펼
펽
펾
펿
폀
폁
폂
폃
폄
폅
폆
폇
평
폊
폋
폌
폍
폎
폏
폐
폑
폒
폓
폔
폕
폖
폗
폘
폙
폚
폛
폜
폝
폞
폟
폠
폡
폢
폣
폤
폥
폦
폧
폨
폩
폪
폫
포
폭
폮
폯
폰
폱
폲
폳
폴
폵
폶
폷
폸
폹
폺
폻
폼
폽
폾
폿
퐀
퐁
퐂
퐃
퐄
퐅
퐆
퐇
퐈
퐉
퐊
퐋
퐌
퐍
퐎
퐏
퐐
퐑
퐒
퐓
퐔
퐕
퐖
퐗
퐘
퐙
퐚
퐛
퐜
퐝
퐞
퐟
퐠
퐡
퐢
퐣
퐤
퐥
퐦
퐧
퐨
퐩
퐪
퐫
퐬
퐭
퐮
퐯
퐰
퐱
퐲
퐳
퐴
퐵
퐶
퐷
퐸
퐹
퐺
퐻
퐼
퐽
퐾
퐿
푀
푁
푂
푃
푄
푅
푆
푇
푈
푉
푊
푋
푌
푍
푎
푏
푐
푑
푒
푓
푔
푕
푖
푗
푘
푙
푚
푛
표
푝
푞
푟
푠
푡
푢
푣
푤
푥
푦
푧
푨
푩
푪
푫
푬
푭
푮
푯
푰
푱
푲
푳
푴
푵
푶
푷
푸
푹
푺
푻
푼
푽
푾
푿
풀
풁
풂
풃
풄
풅
풆
풇
품
풉
풊
풋
풌
풍
풎
풏
풐
풑
풒
풓
풔
풕
풖
풗
풘
풙
풚
풛
풜
풝
풞
풟
풠
풡
풢
풣
풤
풥
풦
풧
풨
풩
풪
풫
풬
풭
풮
풯
풰
풱
풲
풳
풴
풵
풶
풷
풸
풹
풺
풻
풼
풽
풾
풿
퓀
퓁
퓂
퓃
퓄
퓅
퓆
퓇
퓈
퓉
퓊
퓋
퓌
퓍
퓎
퓏
퓐
퓑
퓒
퓓
퓔
퓕
퓖
퓗
퓘
퓙
퓚
퓛
퓜
퓝
퓞
퓟
퓠
퓡
퓢
퓣
퓤
퓥
퓦
퓧
퓨
퓩
퓪
퓫
퓬
퓭
퓮
퓯
퓰
퓱
퓲
퓳
퓴
퓵
퓶
퓷
퓸
퓹
퓺
퓻
퓼
퓽
퓾
퓿
픀
픁
픂
픃
프
픅
픆
픇
픈
픉
픊
픋
플
픍
픎
픏
픐
픑
픒
픓
픔
픕
픖
픗
픘
픙
픚
픛
픜
픝
픞
픟
픠
픡
픢
픣
픤
픥
픦
픧
픨
픩
픪
픫
픬
픭
픮
픯
픰
픱
픲
픳
픴
픵
픶
픷
픸
픹
픺
픻
피
픽
픾
픿
핀
핁
핂
핃
필
핅
핆
핇
핈
핉
핊
핋
핌
핍
핎
핏
핐
핑
핒
핓
핔
핕
핖
핗
하
학
핚
핛
한
핝
핞
핟
할
핡
핢
핣
핤
핥
핦
핧
함
합
핪
핫
핬
항
핮
핯
핰
핱
핲
핳
해
핵
핶
핷
핸
핹
핺
핻
핼
핽
핾
핿
햀
햁
햂
햃
햄
햅
햆
햇
했
행
햊
햋
햌
햍
햎
햏
햐
햑
햒
햓
햔
햕
햖
햗
햘
햙
햚
햛
햜
햝
햞
햟
햠
햡
햢
햣
햤
향
햦
햧
햨
햩
햪
햫
햬
햭
햮
햯
햰
햱
햲
햳
햴
햵
햶
햷
햸
햹
햺
햻
햼
햽
햾
햿
헁
헂
헃
헄
헅
헆
헇
허
헉
헊
헋
헌
헍
헎
헏
헐
헑
헒
헓
헔
헕
헖
헗
험
헙
헚
헛
헝
헞
헟
헠
헡
헢
헣
헤
헥
헦
헧
헨
헩
헪
헫
헬
헭
헮
헯
헰
헱
헲
헳
헴
헵
헶
헷
헹
헺
헻
헼
헽
헾
헿
혀
혁
혂
혃
현
혅
혆
혇
혈
혉
혊
혋
혌
혍
혎
혏
혐
협
혒
혓
혔
형
혖
혗
혘
혙
혚
혛
혜
혝
혞
혟
혠
혡
혢
혣
혤
혥
혦
혧
혨
혩
혪
혫
혬
혭
혮
혯
혰
혱
혲
혳
혴
혵
혶
혷
호
혹
혺
혻
혼
혽
혾
혿
홀
홁
홂
홃
홄
홅
홆
홇
홈
홉
홊
홋
홌
홍
홎
홏
홐
홑
홒
홓
화
확
홖
홗
환
홙
홚
홛
활
홝
홞
홟
홠
홡
홢
홣
홤
홥
홦
홧
홨
황
홪
홫
홬
홭
홮
홯
홰
홱
홲
홳
홴
홵
홶
홷
홸
홹
홺
홻
홼
홽
홾
홿
횀
횁
횂
횃
횄
횅
횆
횇
횈
횉
횊
횋
회
획
횎
횏
횐
횑
횒
횓
횔
횕
횖
횗
횘
횙
횚
횛
횜
횝
횞
횟
횠
횡
횢
횣
횤
횥
횦
횧
효
횩
횪
횫
횬
횭
횮
횯
횰
횱
횲
횳
횴
횵
횶
횷
횸
횹
횺
횻
횼
횽
횾
횿
훀
훁
훂
훃
후
훅
훆
훇
훈
훉
훊
훋
훌
훍
훎
훏
훐
훑
훒
훓
훔
훕
훖
훗
훘
훙
훚
훛
훜
훝
훞
훟
훠
훡
훢
훣
훤
훥
훦
훧
훨
훩
훪
훫
훬
훭
훮
훯
훰
훱
훲
훳
훴
훵
훶
훷
훸
훹
훺
훻
훼
훽
훾
훿
휀
휁
휂
휃
휄
휅
휆
휇
휈
휉
휊
휋
휌
휍
휎
휏
휐
휑
휒
휓
휔
휕
휖
휗
휘
휙
휚
휛
휜
휝
휞
휟
휠
휡
휢
휣
휤
휥
휦
휧
휨
휩
휪
휫
휬
휭
휮
휯
휰
휱
휲
휳
휴
휵
휶
휷
휸
휹
휺
휻
휼
휽
휾
휿
흀
흁
흂
흃
흄
흅
흆
흇
흈
흉
흊
흋
흌
흍
흎
흏
흐
흑
흒
흓
흔
흕
흖
흗
흘
흙
흚
흛
흜
흝
흞
흟
흠
흡
흢
흣
흤
흥
흦
흧
흨
흩
흪
흫
희
흭
흮
흯
흰
흱
흲
흳
흵
흶
흷
흸
흹
흺
흻
흼
흽
흾
흿
힀
힁
힂
힃
힄
힅
힆
힇
히
힉
힊
힋
힌
힍
힎
힏
힐
힑
힒
힓
힔
힕
힖
힗
힘
힙
힚
힛
힜
힝
힞
힟
힠
힡
힢
힣
##1
##6
##3
##9
##i
##g
##h
##l
##n
##e
##년
##E
##T
##R
##A
##C
##I
##O
##N
##윤
##S
##켄
##드
##릴
##개
##코
##원
##숭
##이
##8
##2
##0
##5
##r
##o
##v
##s
##t
##7
##4
##u
##실
##마
##르
##a
##p
##D
##F
##L
##Y
##노
##비
##m
##b
##성
##c
##d
##z
##y
##형
##종
##세
##겸
##로
##필
##렌
##글
##리
##콜
##k
##f
##니
##M
##광
##둥
##q
##j
##J
##주
##콩
##일
##론
##ㄿ
##까
##천
##숙
##w
##Z
##벌
##푸
##라
##기
##즈
##모
##래
##교
##찬
##상
##암
##수
##용
##직
##x
##따
##K
##더
##프
##.
##^
##]
##ㅍ
##ㅅ
##와
##H
##U
##센
##베
##크
##탐
##화
##등
##선
##흥
##자
##진
##석
##쇄
##구
##의
##G
##남
##어
##빗
##넥
##스
##널
##티
##인
##지
##는
##학
##생
##,
##'
##쳐
##도
##악
##가
##B
##섹
##게
##예
##치
##홍
##호
##풍
##제
##동
##국
##갤
##V
##X
##문
##근
##사
##오
##카
##적
##엉
##에
##계
##은
##썸
##아
##평
##부
##령
##핵
##P
##시
##면
##튀
##칩
##간
##유
##초
##민
##레
##퍼
##툰
##명
##최
##승
##왕
##경
##식
##해
##서
##정
##우
##장
##조
##디
##란
##띠
##약
##웅
##나
##훈
##췄
##음
##응
##변
##집
##합
##작
##렁
##W
##태
##관
##렐
##야
##병
##두
##소
##연
##그
##너
##새
##룸
##고
##톨
##산
##피
##큘
##춘
##재
##군
##감
##루
##미
##한
##급
##과
##위
##샹
##쿠
##다
##탕
##강
##러
##벅
##무
##반
##바
##패
##셀
##현
##껍
##데
##플
##트
##ㅁ
##향
##님
##릉
##\
##{
##매
##커
##같
##키
##항
##배
##속
##색
##준
##권
##웨
##콘
##짝
##랏
##ㅒ
##끔
##히
##여
##역
##림
##타
##금
##하
##슈
##ㅘ
##ㅀ
##길
##ㅠ
##누
##탄
##박
##설
##보
##파
##린
##대
##랴
##거
##복
##중
##영
##월
##말
##맥
##페
##든
##-
##!
##"
##토
##슌
##랍
##슨
##방
##법
##양
##앗
##희
##철
##랙
##낙
##테
##섬
##녕
##걸
##전
##송
##범
##)
##물
##질
##홀
##케
##창
##순
##만
##름
##울
##투
##공
##샤
##랑
##슘
##각
##럭
##버
##덕
##곤
##충
##착
##출
##흡
##량
##돈
##회
##ㅇ
##칠
##던
##런
##셜
##욱
##셔
##였
##싁
##깨
##~
###
##립
##신
##ㄱ
##윈
##엄
##내
##칸
##겐
##칼
##엇
##락
##ㅡ
##풀
##들
##Q
##클
##엔
##묵
##균
##력
##랜
##안
##를
##$
##결
##ㅝ
##ㄳ
##달
##룰
##을
##분
##난
##톤
##룹
##엘
##꺅
##률
##삼
##운
##머
##혁
##챰
##갑
##효
##브
##귄
##롤
##줄
##꼴
##흐
##랄
##괴
##행
##씨
##몬
##곡
##첩
##규
##청
##츠
##윅
##터
##큐
##블
##딘
##켈
##침
##략
##릭
##즙
##펀
##솔
##?
##포
##텐
##백
##차
##뿌
##요
##목
##끼
##벽
##익
##련
##통
##판
##젠
##총
##졸
##%
##봉
##격
##친
##절
##었
##으
##ㄽ
##힘
##털
##링
##핰
##임
##폴
##워
##뻔
##옐
##려
##책
##꺼
##뱌
##메
##심
##증
##불
##섭
##셋
##팅
##ㅔ
##답
##액
##빈
##듀
##웽
##ㅚ
##ㅈ
##촉
##먼
##처
##옌
##<
##궁
##건
##입
##팩
##단
##훼
##헌
##돌
##혜
##녀
##*
##쟁
##넘
##손
##독
##넹
##냑
##킷
##덜
##촬
##옥
##존
##섈
##펫
##슬
##앙
##족
##퀴
##턴
##망
##컬
##=
##_
##쇠
##덩
##채
##휘
##쨔
##온
##벨
##쪽
##큼
##ㄷ
##ㅎ
##탁
##틴
##당
##협
##싱
##것
##댁
##징
##톡
##젤
##릿
##`
##렬
##멍
##삿
##갓
##갱
##짤
##측
##ㅆ
##렛
##표
##왈
##ㅑ
##ㄶ
##겧
##염
##록
##곰
##김
##쬰
##덤
##뚝
##활
##람
##셸
##깔
##킹
##못
##ㅗ
##탈
##궈
##층
##견
##후
##뜬
##북
##번
##떨
##쳤
##넨
##ㅊ
##낫
##꽝
##엽
##텅
##밭
##점
##저
##룽
##훙
##귀
##혼
##팀
##애
##갠
##환
##뿐
##억
##언
##샌
##완
##짐
##헤
##튼
##펑
##쾅
##뽑
##췌
##체
##없
##ㅏ
##쉬
##쓰
##업
##율
##델
##잎
##열
##츤
##탠
##ㄹ
##눈
##썹
##죽
##빵
##발
##꽃
##놀
##휏
##챤
##추
##져
##닌
##ㅋ
##네
##션
##켓
##뭄
##ㅛ
##ㄵ
##획
##밟
##낭
##텃
##엡
##룡
##허
##된
##텔
##살
##휴
##앜
##롱
##할
##때
##퀘
##팬
##짜
##농
##몰
##닝
##/
##담
##뭐
##맵
##쟝
##[
##늄
##느
##품
##취
##함
##륭
##잘
##본
##뇌
##므
##퍄
##밀
##샘
##택
##폰
##핏
##}
##뢰
##헬
##(
##껑
##골
##류
##빙
##틸
##칭
##막
##꿩
##럽
##숑
##흑
##험
##뜨
##득
##꾸
##봇
##편
##힐
##ㅌ
##얼
##킬
##뚜
##ㅓ
##쿤
##엣
##육
##쥐
##넷
##튜
##헨
##펠
##ㅖ
##륜
##샨
##ㄻ
##껄
##날
##즐
##덴
##낰
##ㄴ
##밍
##|
##알
##ㄼ
##며
##뤼
##죡
##촌
##:
##벤
##둑
##황
##축
##졍
##뇬
##척
##ㅕ
##ㄾ
##냐
##별
##잉
##쟌
##십
##ㅂ
##붕
##뱀
##른
##찌
##쭈
##핫
##렉
##빛
##솥
##ㅢ
##싫
##킨
##읍
##멀
##뿔
##값
##캉
##틀
##늘
##;
##잡
##긔
##놈
##칙
##륵
##롄
##밥
##굴
##갈
##콰
##봄
##램
##꿈
##뼈
##쉼
##맹
##ㅣ
##챙
##ㅄ
##썬
##묘
##@
##셈
##몽
##앱
##극
##읓
##걱
##얀
##받
##술
##죠
##놓
##핳
##딕
##쇼
##숲
##픽
##념
##탑
##횟
##웰
##>
##녜
##윌
##펜
##ㅜ
##되
##옹
##ㅟ
##틱
##멜
##검
##꿍
##떼
##곱
##땃
##폼
##넉
##잠
##럴
##둘
##융
##싹
##확
##춤
##줜
##뽄
##삡
##압
##먹
##갰
##젓
##외
##혔
##믓
##쩔
##쥬
##숫
##렝
##닛
##롬
##혹
##료
##딩
##큰
##짱
##펄
##쬬
##객
##슴
##믈
##즘
##잇
##돼
##쿰
##셩
##럼
##빠
##례
##빨
##캐
##습
##퀸
##ㅙ
##쉐
##짬
##ㄺ
##븐
##쯤
##앤
##끄
##겨
##뇨
##넓
##또
##겔
##잔
##팔
##핲
##벳
##쳉
##츄
##붉
##맷
##좌
##쪠
##능
##삭
##첼
##밝
##넬
##혈
##덱
##뿡
##톰
##댓
##빅
##탸
##쪼
##륙
##&
##햏
##올
##젯
##쌤
##움
##믕
##홓
##볼
##픈
##렸
##팁
##붓
##먕
##넌
##밑
##햄
##롸
##쏼
##캥
##뮬
##ㅞ
##졌
##됭
##했
##둴
##퇴
##흉
##겜
##솜
##첨
##켤
##돔
##냥
##싸
##챔
##렵
##댄
##벜
##잨
##논
##톱
##옛
##뜻
##룬
##앵
##굿
##괭
##쯋
##접
##갔
##앞
##흔
##딱
##갖
##밴
##딧
##촤
##촷
##참
##멘
##찰
##튕
##튭
##뮐
##긍
##욜
##늬
##잆
##븞
##릾
##듮
##뒤
##랃
##웃
##넛
##엠
##긴
##웍
##욕
##쌍
##좋
##굉
##궐
##ㄸ
##룩
##헣
##뉘
##뛰
##랭
##꿨
##킄
##짓
##쌩
##솨
##푹
##봊
##콤
##턱
##끈
##촨
##팡
##뻐
##낸
##찮
##멈
##빌
##핑
##퉁
##떡
##옙
##롮
##삐
##죄
##냇
##쌰
##찍
##꼬
##겟
##둠
##ㅐ
##얺
##씌
##첸
##쏘
##깃
##꽂
##킥
##찡
##픗
##꼭
##빼
##혐
##쑥
##셰
##쿼
##맨
##즌
##뢍
##돋
##듯
##횡
##ㅃ
##웬
##벡
##궤
##넴
##쑹
##댕
##템
##쟈
##룻
##퐈
##툴
##쩨
##줏
##닐
##쪙
##뱃
##꿀
##캄
##왜
##앟
##꿉
##끌
##뻑
##땀
##잭
##텀
##ㄲ
##펨
##돨
##긑
##쿨
##엑
##텍
##롭
##쵸
##괘
##릐
##븨
##뭇
##듬
##특
##닥
##땅
##흠
##톈
##랗
##귿
##낚
##뽀
##춰
##띤
##렙
##았
##펭
##쩌
##쩍
##닉
##+
##쿄
##톄
##폭
##윗
##콧
##렇
##있
##뜰
##냄
##똘
##맞
##쳇
##깥
##딤
##츙
##뉴
##푼
##쨩
##옵
##쯔
##써
##넝
##휭
##혀
##곽
##좀
##덮
##낄
##걀
##탱
##텟
##읽
##읅
##윽
##둙
##ㅉ
##쉑
##좡
##믄
##눌
##겁
##롼
##섯
##랫
##룝
##홈
##갬
##캘
##싀
##컴
##뻥
##핀
##륨
##쪄
##삽
##뱅
##멸
##밸
##폐
##헴
##맛
##믹
##뀽
##좆
##싄
##납
##툼
##밤
##퐁
##깅
##뷰
##킴
##랸
##챠
##틉
##퐐
##팻
##삥
##컨
##셉
##풋
##듣
##츨
##갯
##똥
##윙
##줌
##엿
##낵
##싯
##옾
##꺽
##뮤
##칵
##쥔
##엥
##씬
##벵
##뎐
##녹
##즁
##닫
##흫
##벗
##츈
##떠
##찜
##녁
##옴
##숍
##뿜
##욘
##꽥
##숀
##겠
##솅
##컄
##꺠
##랩
##엎
##뎁
##둔
##찐
##헹
##냉
##굽
##벼
##횩
##찾
##뜽
##뇽
##듧
##튽
##힉
##펙
##탓
##께
##딴
##삠
##묄
##튬
##쎅
##뙤
##렘
##핸
##홑
##힌
##팟
##헿
##꾼
##씸
##짖
##앨
##챱
##숟
##헐
##벙
##뛸
##뜷
##뙗
##퀙
##뎀
##쁘
##핍
##엃
##헗
##컼
##묻
##쉰
##쿵
##쭉
##겹
##쏙
##즉
##딸
##괄
##쌥
##닿
##삶
##왑
##빰
##쳅
##겼
##콕
##읔
##엨
##뎃
##쫑
##붙
##웤
##릇
##쓸
##멱
##뽕
##햣
##햐
##뮌
##뾱
##솽
##윷
##슥
##껌
##뉵
##젝
##뎬
##깐
##퉤
##뒑
##뒓
##퀼
##뚱
##땡
##훤
##깜
##릅
##칟
##뒫
##슐
##겋
##밖
##캠
##쏫
##흣
##뺙
##뇰
##얗
##듈
##흰
##뀌
##몸
##샐
##틈
##앳
##꺄
##늙
##껏
##춧
##꼼
##볕
##꺆
##틔
##됴
##딜
##늅
##콥
##댐
##싕
##뚠
##끗
##뜸
##씰
##좟
##낌
##촐
##땐
##닷
##굇
##롯
##쮜
##컹
##쎄
##팽
##났
##퉹
##잼
##팥
##훗
##늑
##빱
##째
##돗
##텡
##팰
##벰
##샷
##렴
##웁
##꼰
##씽
##뷔
##쭝
##쳡
##멬
##컥
##칫
##끝
##밋
##깡
##켠
##꿰
##퓨
##쟉
##훔
##샅
##짚
##얌
##퇸
##떵
##얄
##흙
##뫼
##왼
##둣
##샴
##맢
##곳
##젴
##뿅
##솎
##쌔
##뵈
##셴
##녘
##뺑
##멧
##듭
##젬
##읳
##뀨
##핌
##쿳
##퍽
##껴
##샬
##쌀
##숯
##깁
##뎍
##뭉
##꼐
##쳬
##쀳
##뜩
##쓱
##씩
##끵
##왔
##빳
##켜
##팍
##깊
##븀
##멋
##냙
##젼
##닯
##닭
##뢸
##췩
##릏
##맘
##쌓
##캔
##흘
##넡
##썰
##귖
##궺
##긲
##깒
##깛
##긛
##몔
##륀
##챗
##쑤
##솬
##뮴
##탬
##빤
##늠
##쨥
##멤
##챕
##캎
##낪
##밊
##땽
##왁
##둬
##얘
##뤄
##쭙
##뷜
##슷
##얒
##젖
##맡
##쿙
##멩
##훟
##륷
##잌
##옷
##컵
##읏
##슝
##믐
##벲
##캆
##쨈
##쾌
##툭
##봐
##쌜
##쁜
##놋
##힝
##땗
##튝
##뾰
##썩
##휵
##눅
##긋
##퀜
##띵
##뾸
##졔
##룺
##뱡
##몐
##캅
##튤
##꺾
##랬
##쮸
##샛
##똟
##않
##퉅
##얹
##뷸
##낮
##듸
##읶
##퀵
##듐
##벚
##휼
##믜
##땛
##밻
##샒
##낼
##댱
##쁑
##즹
##겅
##끎
##줘
##낑
##먐
##캇
##쩡
##벩
##펡
##푀
##퓻
##펔
##빔
##댔
##쥣
##깍
##갸
##닦
##챨
##쉡
##꼮
##숏
##맑
##럿
##촹
##좍
##촥
##뵤
##탙
##홉
##뀍
##붑
##묭
##홋
##좹
##놰
##뒈
##싼
##빖
##읪
##뛃
##괧
##쭵
##켁
##놔
##줭
##겆
##먀
##곶
##슭
##엊
##꿔
##뎡
##녓
##눙
##릎
##냅
##쳄
##팸
##왓
##떈
##땍
##웻
##깽
##먁
##셍
##퉈
##푴
##맫
##캑
##찔
##똑
##쯪
##튿
##봑
##윹
##귈
##듶
##씀
##괜
##큣
##킅
##폿
##죌
##굼
##톳
##쟣
##숴
##훅
##눔
##껚
##퐝
##뚤
##맠
##뻬
##렷
##끓
##컷
##뤠
##쉘
##솰
##킁
##앰
##닙
##쿜
##잰
##쭤
##칡
##쌱
##뺨
##냠
##헥
##팠
##쯱
##팜
##윘
##눤
##봤
##꺵
##셤
##멓
##쏴
##숨
##귐
##좁
##큾
##벖
##슶
##텂
##쏭
##젱
##븝
##룀
##썽
##밈
##툠
##뎅
##땜
##뀰
##뻘
##눕
##둇
##빽
##뒬
##쇽
##줵
##녤
##놉
##맣
##윰
##옇
##뺌
##앍
##뺩
##낳
##펩
##핥
##꾀
##쩐
##헙
##쾨
##낱
##쀼
##윳
##뽁
##삧
##돕
##밧
##폕
##잖
##잽
##륄
##닜
##쁨
##탤
##캣
##풹
##팝
##곻
##줍
##봙
##높
##꽁
##돵
##옆
##긤
##뢴
##귝
##룳
##왱
##숩
##텬
##콴
##뷘
##꿋
##볓
##씻
##띄
##첵
##퓌
##쌋
##꽈
##즤
##읭
##넙
##탔
##슛
##섞
##낛
##읷
##덗
##겿
##쉴
##떻
##똔
##쥰
##폄
##뻣
##쾡
##쪘
##쌈
##켐
##삯
##몹
##샵
##꼽
##퀄
##킼
##뵥
##왉
##푠
##딪
##찻
##쓴
##굵
##큭
##쨉
##짢
##턻
##뒷
##뜯
##흧
##빡
##뱉
##캡
##헑
##긇
##흟
##뮨
##뫄
##뭭
##뫟
##닢
##섶
##큠
##왘
##깻
##쉽
##쨍
##흗
##떳
##퇀
##꾹
##돿
##촡
##멨
##걷
##캌
##륶
##츰
##욧
##쿡
##녔
##돤
##컭
##쭘
##씅
##횻
##갭
##헛
##햘
##많
##뎨
##엌
##앉
##핡
##궭
##쓔
##쒀
##댜
##맇
##뚸
##켕
##뻡
##뼤
##뿍
##녠
##괂
##떤
##롹
##몌
##삘
##솟
##틋
##귤
##몆
##츩
##딛
##걍
##얔
##랼
##슾
##낀
##쥩
##솝
##몇
##쫄
##뵹
##끨
##웡
##쁠
##볶
##툐
##츹
##덟
##뮈
##옘
##볜
##퓸
##댈
##슼
##슙
##욤
##햑
##톼
##뇸
##볘
##졀
##돠
##씹
##욷
##냔
##휀
##깈
##랖
##쨋
##셕
##곖
##챌
##딈
##뤽
##될
##럇
##몃
##얶
##봡
##뼛
##욹
##웗
##꽯
##앓
##쑨
##쑈
##밉
##홧
##탭
##굣
##냘
##냈
##칰
##뜐
##쵼
##껠
##훌
##뢔
##윱
##붐
##껙
##뭬
##얏
##엾
##콸
##훠
##잣
##깄
##멕
##뼝
##챦
##떄
##뿮
##뱦
##뺴
##쬲
##죗
##샠
##삑
##낏
##긞
##긏
##귺
##썻
##즛
##쎼
##궶
##궫
##궻
##랤
##궢
##륍
##쭌
##쬐
##쵤
##튠
##컁
##틷
##섀
##뱔
##쩬
##펴
##짭
##곧
##뗏
##랣
##띱
##꺌
##룅
##꿝
##늰
##뒁
##춸
##꺐
##줴
##덧
##붏
##붇
##짧
##뜝
##뤨
##녈
##샻
##헝
##끙
##깝
##뭍
##셨
##눝
##텝
##틍
##쫙
##덥
##갗
##뎌
##캰
##뇩
##짇
##칯
##놏
##콫
##쩅
##촘
##맙
##쉔
##걋
##쉭
##둈
##랔
##뾘
##엮
##햇
##텁
##쑊
##깬
##롁
##춉
##핟
##찹
##촵
##뜵
##끊
##묶
##탯
##쭐
##헔
##쯉
##훍
##뚥
##쏜
##뺘
##듫
##폘
##뮹
##땨
##듦
##켸
##헷
##긿
##윔
##찷
##쉠
##뤀
##썅
##푈
##얻
##헠
##켚
##옮
##챵
##볏
##캬
##횬
##쇅
##챳
##짹
##삒
##귬
##쫣
##똵
##뽧
##꽑
##뽭
##퀀
##겊
##쇳
##펌
##쾰
##겉
##퍅
##깎
##숄
##긱
##늪
##샥
##뺀
##뷫
##냟
##툽
##좂
##졬
##챃
##큇
##쫭
##댑
##뼜
##쑜
##뉻
##뒨
##뎋
##챈
##늡
##죤
##훑
##뻗
##혓
##눼
##츌
##랠
##콬
##뿛
##쑝
##뎜
##츼
##훓
##쌉
##듹
##늦
##뙈
##텨
##컿
##웹
##죳
##큥
##쌕
##휫
##쑁
##귓
##튺
##넵
##슆
##넣
##몊
##맴
##빧
##혠
##틊
##믌
##몀
##퓰
##씁
##뀪
##뉨
##쿱
##뇓
##눞
##릊
##뛟
##쑴
##늿
##쎌
##퀠
##쥽
##밗
##랕
##튮
##옿
##꾜
##댠
##몫
##뒥
##볫
##펍
##힠
##궂
##췁
##뷴
##꽦
##츀
##홁
##탹
##뚧
##섕
##뗔
##찟
##겡
##삔
##쩠
##킵
##핱
##웆
##귁
##헉
##풔
##힛
##깤
##돫
##솁
##켑
##닻
##쨰
##휠
##홝
##딥
##끽
##훽
##볍
##갚
##벞
##깟
##쳑
##넠
##뼸
##둡
##뺏
##팃
##벐
##섣
##헼
##싴
##갛
##및
##칽
##륑
##헱
##롻
##헵
##곗
##펐
##굳
##퓔
##됨
##횸
##뀫
##뀩
##뺅
##꿏
##뿎
##꼍
##꼿
##먏
##쳰
##뤂
##죰
##돛
##칣
##끕
##뗠
##킳
##딍
##쯕
##먗
##핻
##븓
##왇
##퀑
##똏
##눟
##옻
##횽
##돖
##왒
##잍
##쫓
##탉
##펼
##셧
##덫
##쎔
##랐
##엙
##싐
##캤
##믿
##삾
##왐
##듳
##좇
##떰
##볐
##픔
##맺
##쾃
##걲
##곁
##뼉
##풮
##죵
##갹
##겕
##떽
##쪨
##꿇
##뜳
##뱐
##듕
##뀻
##쌐
##넽
##쓩
##닮
##큉
##떙
##듟
##듁
##엤
##꺘
##쥥
##픖
##쯰
##뉜
##쌘
##슉
##칞
##겻
##먳
##맻
##뮻
##뭋
##꾁
##꾿
##늉
##뉼
##롑
##췃
##릣
##읒
##뚫
##짙
##꽉
##뽝
##쩝
##찧
##읗
##퓩
##흄
##픨
##푱
##녑
##툵
##픋
##폔
##덦
##뿗
##씤
##뗀
##껀
##곬
##꽐
##걕
##쥉
##셱
##꺢
##팉
##붹
##빕
##뒹
##맬
##꾱
##썝
##뿉
##툿
##땁
##샙
##윕
##괼
##엏
##곈
##릘
##츳
##잿
##힁
##앆
##풑
##삵
##얇
##렀
##벋
##뽈
##휙
##쩜
##쉥
##췻
##쏠
##쟤
##캭
##쭁
##젏
##폵
##숧
##휗
##녯
##뵷
##킈
##껒
##줬
##뙇
##웠
##긧
##뭔
##뿨
##걔
##춱
##욣
##퓍
##쒸
##덞
##볽
##쯧
##쿶
##쒹
##퍝
##쁙
##띰
##묜
##롇
##꿱
##뿟
##둗
##옳
##벫
##떅
##삣
##뼥
##얽
##쎈
##쟛
##읋
##홰
##놘
##쵮
##곲
##젮
##쫀
##뺭
##횞
##콦
##씍
##짠
##뿓
##딫
##쥿
##쁅
##뺡
##뗡
##햅
##뚬
##쥭
##
##둉
##뺵
##훕
##큅
##탵
##츺
##혯
##쨌
##밣
##쏨
##꼈
##뻉
##썷
##꿎
##꿘
##뀐
##쯸
##쭓
##웩
##쿸
##냌
##옠
##웉
##혬
##힙
##벍
##셒
##뗑
##잫
##봅
##얭
##쒕
##췅
##픠
##찓
##큄
##늕
##밬
##푷
##쀏
##췛
##굥
##튄
##툥
##믱
##쐐
##젭
##꽌
##벱
##찎
##밐
##됬
##룐
##꽤
##빎
##궃
##뻴
##췬
##엪
##쳔
##웈
##쳌
##퐳
##돡
##팈
##뎊
##땩
##뚀
##괵
##훨
##롷
##뤙
##븟
##뤌
##뷀
##슢
##텽
##숌
##컫
##쥴
##똠
##퀌
##숱
##튱
##푯
##첬
##눗
##줓
##팎
##폯
##껫
##껨
##둍
##쨘
##띔
##떱
##갉
##쒜
##횔
##쑼
##듄
##콱
##첫
##맏
##뾲
##쎠
##냣
##젹
##릵
##툇
##샇
##얫
##쯩
##룟
##슁
##빚
##솹
##곯
##픓
##뗻
##띧
##엒
##쭨
##뗶
##뗵
##풱
##쮹
##쁶
##갷
##뭏
##렞
##곀
##닳
##켬
##쁴
##뿝
##낲
##셥
##젋
##봫
##퇵
##딯
##촙
##귪
##궸
##궼
##삗
##퍗
##쬴
##됼
##굑
##옅
##옺
##굘
##냫
##푝
##뼬
##쳣
##뫙
##챸
##탘
##뇻
##뇾
##뎂
##닶
##쭀
##띙
##좐
##촛
##쁌
##쨕
##픅
##쵠
##윻
##끤
##힡
##츔
##췽
##슽
##낟
##큿
##탼
##홥
##챘
##뉸
##둩
##몄
##즑
##랒
##왷
##흇
##벧
##끆
##엫
##웳
##롣
##탒
##짘
##쟙
##랰
##싶
##욋
##퐄
##닊
##깏
##좨
##뚮
##쐙
##뽟
##캢
##욦
##띨
##홱
##뿁
##툑
##땠
##얐
##핼
##뒝
##룔
##흨
##봬
##뤩
##뷇
##콣
##뫞
##뿷
##땞
##밪
##뒗
##렜
##됵
##롊
##쫒
##핧
##닑
##갇
##깩
##멦
##긕
##땝
##팂
##퇼
##윾
##댬
##싰
##뽜
##돓
##닾
##웸
##쭛
##숎
##챡
##큪
##핔
##굛
##댦
##뷁
##뜜
##얅
##긁
##헯
##젧
##픳
##읃
##큽
##힗
##뚯
##풉
##콻
##놨
##줛
##놗
##괏
##솫
##뗛
##몼
##돇
##돣
##뢐
##홳
##잓
##웫
##룫
##뺃
##뗣
##꽇
##젊
##셣
##렡
##췰
##냬
##뗘
##랋
##싮
##졈
##퇗
##뵐
##똬
##짼
##휩
##벓
##뷓
##뤯
##룱
##잋
##뫅
##촾
##닏
##쫜
##뢱
##긶
##뺼
##썀
##싟
##엗
##빋
##웝
##듥
##먄
##훁
##삜
##탇
##댸
##싣
##켰
##롓
##왂
##챝
##튐
##셭
##놑
##룍
##괸
##귡
##긮
##깑
##빩
##뤵
##뫃
##뚷
##붖
##븃
##찢
##좊
##뚞
##읖
##쉟
##렣
##얖
##쬭
##볈
##꼇
##섰
##뵙
##돚
##햟
##랆
##핤
##짒
##졷
##딺
##핚
##귯
##묺
##붛
##귶
##뙓
##븅
##춋
##윿
##엓
##얍
##졧
##짞
##뱨
##밦
##챞
##퉷
##톹
##퐆
##쵹
##믁
##뫌
##욀
##뜫
##숕
##쁟
##뭅
##딨
##찝
##끅
##뗄
##씃
##겍
##텤
##덯
##껰
##꺕
##붱
##뽱
##쁐
##붝
##돩
##졋
##끠
##욺
##웜
##뺄
##잏
##뛩
##샄
##쏩
##낯
##럐
##훜
##퍙
##굄
##륽
##괳
##엷
##롈
##쀠
##궖
##궋
##붸
##큔
##톻
##닼
##릯
##몯
##왧
##뷃
##웟
##킦
##끾
##궬
##앚
##섴
##뿀
##븍
##읕
##앸
##쉿
##좔
##풒
##쏀
##뤕
##렫
##췍
##댧
##댯
##뮺
##썼
##빻
##덿
##멉
##졉
##픤
##홐
##혻
##맄
##뎻
##굠
##됸
##쥘
##냏
##맓
##싧
##댋
##삷
##핿
##줊
##셟
##섧
##갊
##핣
##닚
##닧
##쭊
##곺
##둅
##뺚
##싈
##쟘
##쬽
##뷉
##앝
##밌
##쏟
##괆
##쏚
##퇘
##껸
##횅
##붚
##죔
##뜀
##묑
##셷
##횢
##흿
##뒿
##솩
##띾
##돘
##뽓
##횦
##붘
##쩧
##죨
##롫
##왠
##퉱
##끍
##휽
##뻤
##좸
##샢
##뭘
##돜
##쮝
##씉
##쥠
##썄
##흩
##뱁
##됐
##얃
##뙳
##홂
##삮
##줆
##쬷
##홅
##욿
##쌻
##풇
##맆
##겴
##춈
##훳
##쉏
##귱
##곂
##쫩
##뛣
##홣
##꾫
##뫀
##흓
##읫
##띡
##큮
##꺙
##솀
##뀜
##꽹
##끜
##젔
##꼳
##꽊
##쵁
##낻
##늏
##툉
##쎃
에서
으로
ᆫ다
20
지만
에게
201
는데
때문
19
까지
아서
##00
아니
라고
라는
나오
다고
으며
면서
보이
경우
10
어서
사용
다는
공격
이후
자신
그리
##레이
사람
위하
정도
대하
부터
##스트
가능
시키
다른
보다
이나
12
으나
가지
200
등장
는다
아이
11
그러
그리고
버리
##어지
게임
하나
경기
..
다가
만들
못하
##er
사실
시간
사이
시작
일본
이상
모습
이름
##니다
함께
따르
##지만
상대
한국
##어나
문제
15
다시
거나
##in
으면
하지만
프로
##스터
생각
아야
또한
가장
들어
캐릭
당시
##대로
시즌
처럼
캐릭터
당하
플레이
18
##on
능력
##이트
모두
상황
상태
아도
그렇
ᆫ지
모든
추가
ᆫ데
결국
세계
선수
##an
16
##or
스킬
카드
##미지
현재
다만
많이
통하
전투
효과
ᆫ다는
다음
30
그러나
존재
지역
13
미국
여기
시리
14
199
##라이
매우
##ar
라이
17
달리
대학
그런
상당
레벨
기록
##he
시리즈
##at
스타
인하
기술
레이
ᄇ니다
다면
물론
무기
이용
##리아
의하
처음
이유
자체
부르
방송
100
이것
이런
같이
필요
영화
실제
여러
해당
25
들어가
마법
모르
주인
일반
어야
돌아
거의
역시
##거리
바로
리그
##리스
학교
나가
사건
##이스
##en
다르
이야
특히
관련
기본
2017
부분
그래
##이지
위치
피해
진행
##ou
아무
방어
2018
이야기
##부분
대표
국가
는지
없이
##지막
제작
활동
인간
ᆫ다고
동안
작품
증가
대부분
알리
##al
마지막
본인
자기
2019
지나
일부
계속
##시아
떨어지
21
서울
라면
내용
만큼
##es
우리
올리
주인공
2016
감독
참고
속도
ᆫ가
관계
50
어도
##전히
생기
중국
대신
수준
이전
그냥
비슷
어느
으니
전쟁
타이
비하
지금
강하
만나
성공
22
기준
도시
밝히
인물
이루
습니다
도록
198
상당히
공격력
그녀
대한
24
배우
최대
기사
올라
마다
##민국
결과
지원
그대로
평가
시절
너무
빠르
자리
보스
제외
##it
므로
죽이
##토리
연구
##버지
의미
나타
실제로
로서
소속
##라지
이미
승리
직접
전체
2015
영상
대한민국
보내
메이
23
어렵
원래
유닛
체력
여자
##부터
언급
그것
대로
개발
데미지
멤버
##ing
유저
##st
##le
##학교
##ic
이동
마음
설정
40
싸우
정보
문서
방법
선택
애니
##가지
##re
##다가
과거
차이
##운드
머리
몬스터
출연
성우
친구
포함
##랜드
##dd
##이션
불리
거리
대상
설명
엄청
사회
소리
바람
플레이어
장면
힘들
우승
최고
여성
버전
사랑
다니
이러
바뀌
아버지
프리
동시
공식
유명
스럽
시대
2014
발생
영향
사망
이렇
주로
대회
려고
프랑
##주의
남자
결정
조금
파이
발매
26
주장
출신
아이템
##ff
초반
000
나라
인터
일어나
학생
전부
ᆫ다면
버스
마이
공개
역사
28
운영
오르
서로
유지
빠지
스토리
걸리
모드
##el
27
구성
대사
파괴
제대로
##am
정부
방식
음악
강화
31
자주
중요
아직
후반
이때
나타나
또는
월드
the
과정
##이드
나이
형태
최종
정치
새롭
독일
시스
역할
##라도
최초
노래
##벤트
대전
쓰이
이벤트
누구
##om
강력
마리
스테
정말
변경
회복
##머니
##이도
기존
##우스
그런데
드라
영국
라도
보통
드래
비교
소환
느끼
정신
##아가
마찬
마찬가지
##la
어떤
이기
조선
당연
특성
인기
##is
엄청나
성능
##프트
확률
속성
마을
행동
바꾸
2013
슈퍼
오히
노선
모양
오히려
##리어
어떻
아래
이제
가깝
자유
아들
교육
197
발견
차량
바이
라인
29
사라지
수록
##너지
게다가
32
부족
특수
프랑스
##et
이번
00
대학교
확인
성격
끝나
문화
유일
활약
차지
##ol
2012
관리
장비
##ion
영웅
모델
일단
입장
아예
구하
내리
생산
맞추
스트
따라
시스템
이렇게
제국
고등
다이
심지
어리
돌아오
심지어
먼저
경찰
반대
계획
주변
거기
##레이드
운동
2010
앨범
##디오
자동
어요
완전히
조건
드러
우주
기간
사진
##레스
난이도
들어오
부대
적용
발동
개인
기능
##ow
지구
건물
60
감소
위원
##nd
km
##20
축구
##통령
자세
##il
떠나
##ig
##므로
중심
으로서
##인트
##ed
실패
애니메
그래서
하이
세트
혹은
중앙
선거
지키
던지
어디
라며
현대
35
회사
덕분
데이
돌아가
초기
전혀
얼굴
작가
시기
표현
국내
원작
민주
대통령
패배
물리
처리
오브
순간
TV
동일
##버스
모으
지속
프로그
드라마
반응
지방
무엇
얼마
날리
열리
도움
더라도
인정
참여
기관
애니메이션
출시
##니아
명칭
##ac
판매
담당
데뷔
##as
##없이
##BS
정확
ㄴ다
요구
획득
196
##나마
##리카
굉장
스페
하루
생활
그렇게
of
시점
2011
설치
밖에
작중
넘어
다양
발표
후보
그룹
상승
진출
선발
아군
구조
기억
항목
##아내
Lv
영어
만화
가격
움직
단계
##소드
그림
특별
##들이
올라가
마스터
실력
##ve
그나마
으므로
드래곤
아마
다며
에피
세우
이거
01
조차
야구
았었
시장
The
가족
사고
범위
특징
경제
려는
##소리
시청
방향
연기
대체
패치
경험
##뜨리
계약
미치
고려
수비
##ot
한테
지니
아르
확실
참가
국제
디자
에피소드
500
세대
발사
폭발
##로스
남기
묘사
브라
로부터
##스크
밀리
주의
프로그램
고등학교
80
##비스
활용
2000
어떻게
피하
라서
어머니
상위
결혼
무시
##으키
비판
목적
더욱
준비
중간
심하
각각
##ad
37
보호
오리
러시아
45
아주
버프
챔피
라운드
굉장히
이미지
패턴
국민
히로
이어지
위험
진짜
참조
세이
내려
대미지
생명
조직
조사
단순
듯이
싸움
과학
여담
크리스
약하
이루어지
전하
나쁘
타입
다루
세력
현실
파워
St
안타
시도
소모
제공
주요
구간
194
유리
불구
전문
가리
지하
유럽
일으키
연속
부산
세기
##머지
나머지
혼자
순위
논란
조합
한정
포인트
사실상
약간
아프
동료
##아오
노리
##id
70
뛰어나
나무
분위
성장
09
##ay
무장
여전히
바라
디자인
분위기
당연히
취급
항공
출전
90
이해
으면서
트리
학년
##스로
일정
규모
등급
훨씬
FC
##ER
지도
투수
소설
ᆯ지
한편
예정
운행
블랙
성적
인구
##나라
##러지
부상
자연
엔딩
기타
그래도
마치
삼성
기대
계열
mm
02
해결
2009
03
사업
가져
##ch
스테이지
향하
센터
기에
방면
연결
미션
300
##이크
방영
최근
의견
연합
수정
##us
48
변화
도망
종류
자면
##ir
그거
이탈
표기
잘못
전용
이르
태어나
05
퀘스트
배치
195
추정
33
for
2008
이라
발전
터지
##다리
소녀
36
08
대화
변하
거대
정상
직업
안정
07
움직이
##ur
도중
죽음
엔진
충분
올라오
스스로
종료
##스타
작전
넘어가
##티브
수상
챔피언
펼치
세상
오래
나중
붙이
독립
일행
비행
요소
느낌
속하
마저
거치
당신
나누
HP
벌어지
벌이
보상
에너지
지내
방어력
달성
비롯
전설
수도
##..
공연
##od
무리
미사
06
만드
동물
배틀
##러스
##BC
부활
특정
관하
장착
훈련
스피
절대
th
스카
졸업
철도
유니
지지
##im
##자기
기업
전기
다리
포켓
위기
지휘
행정
싱글
번역
번호
근접
##란드
더불
아이돌
제목
점수
건설
04
관심
만약
미래
##어들
황제
내부
남성
요리
반면
따라서
득점
##un
충격
##ut
신경
SK
시험
전차
군사
가르
목소리
목표
거두
홈런
소재
이끌
전사
2007
##데이트
업데이트
바르
정체
you
ᆯ까
공간
##지션
똑같
가끔
저지
돌리
무대
스파
어찌
시설
사이트
올림
타격
로마
오늘
34
##인물
배경
링크
지정
장소
##리오
각성
전작
서비스
마르
공중
항상
##다니
##ro
최소
교체
그만
전국
파티
분노
##너스
##트리
생존
작곡
북한
넘기
등장인물
정식
으려
얘기
예상
##수록
자랑
의원
부여
으로써
클래
작업
높이
도로
포켓몬
사냥
##디어
아라
분류
종족
늘어나
스포
인사
인도
악마
##ag
##igh
소개
야마
38
스타일
비밀
##ver
엘리
단체
애초
제한
인터뷰
ㄹ로
괜찮
가수
필드
##ec
결승
##동안
cm
판정
크리
기계
이어
베이
클리어
75
목록
연출
각종
외국
카이
하늘
이외
타카
명령
정하
##ent
제일
2006
초등
##운데
기체
병력
지상
카운
로봇
개념
55
##보이
전반
확정
기동
in
교통
정작
193
건담
레어
비용
별로
##드리
파일
##ak
화력
장갑
올림픽
케이
수행
니까
군대
드러나
사항
갖추
표시
크기
가운데
프레
따로
인식
시티
행위
사격
수치
경쟁
라이브
2020
##라인
사거리
to
##um
아카
기반
변신
갑자기
저항
감정
',
나름
포지션
##젝트
언제
누르
진화
이탈리아
완전
평균
왕국
아키
단점
집중
인천
보유
교수
근처
통합
기회
병원
살리
vs
직전
던전
노력
특이
냐고
임무
##아들이
의식
코스
드리
자원
전자
국회
설립
탈출
레인
##화국
정의
오버
압도
##ST
오른
이닝
월드컵
부모
단어
다크
때리
부정
환경
##em
고양
현상
##ub
정리
마시
사례
잠시
사정
##비아
판단
효율
시전
제품
이쪽
어쩌
더니
아파
극장
치명
본래
##르트
느리
나서
##라스
##말로
주제
무슨
촬영
아스
##000
삭제
상관
의외
주문
위원회
전력
가문
ㅏㅆ
동생
고속
원인
주민
대구
여행
물건
옮기
제거
지배
강제
발언
키우
소련
연습
치료
병사
##어로
포기
스코
골드
위력
파트
요시
도전
##무리
전개
2005
기다리
이하
노트
역대
책임
해군
중학교
기념
##요일
사무
도입
정책
점프
나이트
완성
복귀
앞서
실험
##ight
화면
새로
42
려면
루트
고정
공주
도쿄
살인
유사
바다
의사
음식
41
##학생
레드
페이
모이
##야마
별명
차원
직후
선생
끝내
이적
히어로
불가
다수
버티
사기
중반
39
받아들이
잡히
티어
전략
히트
어둠
밴드
에게서
분명
마나
공동
숨기
도착
2004
무려
미니
##모토
접근
언어
녀석
가치
제도
일러
EX
LG
은데
정당
으로부터
오프
회피
ㅓㅆ
추천
타임
조종
고자
정규
사상
시민
대기
빌리
로드
예전
##ce
살아
확장
아파트
신체
빨리
##루스
##그레이드
업그레이드
마사
구매
##AR
##드시
줄이
연장
롯데
리더
자료
랭크
이곳
반드시
폭탄
##os
투표
탈락
타이틀
인터넷
부탁
장치
학원
단지
완벽
크로
라이트
미사일
종교
44
우선
##ri
일러스트
소유
형식
해외
고대
##시마
##AN
구역
장점
사령
최강
데스
심각
산업
아내
##ula
Ch
금지
하드
##ON
##역시
추측
버그
##이치
실시
No
자마
위키
마무리
##ap
43
99
이라고
대장
클럽
몇몇
공포
가사
노동
##and
2002
연재
가드
구분
취하
st
검사
범죄
합류
점점
달러
즐기
서버
로스
조정
##아하
요청
이사
행사
차례
##트라
form
옵션
재료
보병
그야
##러리
##이어
조작
선정
선언
수많
마법사
다소
전통
교회
타자
걱정
프로젝트
kg
그리스
종종
개그
47
스포츠
46
데이터
51
191
좋아하
컴퓨
개월
암살
부하
광고
입히
형제
열차
##르크
formula
에이
채우
성향
뉴스
대중
개최
평범
##나이
자마자
KBS
포스
아쉽
##조건
그야말로
실점
한계
스페인
구단
고르
재미
채널
대결
설계
코드
##ter
거부
통신
언론
아무리
워낙
생물
다행
비중
보조
복수
종합
전화
행성
기지
컴퓨터
민족
디스
and
한글
무한
투입
개봉
해석
알아
무조건
##아지
본격
영혼
정확히
연주
냐는
모자
운용
굳이
##ul
MA
평소
실수
회장
원정
광주
##IN
지적
소년
##타임
지명
와중
##무라
인상
1000
위협
미드
박사
##버리
2003
줄어들
회의
상징
충분히
##op
등록
는가
사태
집단
대형
가정
대응
카메
대비
보너스
터미
아웃
자동차
소비
##ck
전원
보컬
체제
공사
페르
시청자
%,
다운
##로드
태양
특유
희생
150
조각
플래
가면
개조
65
##FA
군단
##자리
##ation
무사
편성
뿌리
을지
도망치
봉인
##리트
여름
MBC
마력
##니스
SP
일종
기자
##로그
##ra
##려가
192
육군
발음
네이
장군
공항
스크
생성
통과
벗어나
얼마나
##의원
시나
분리
로써
방문
64
오리지
II
가하
드러내
장르
동맹
빼앗
장기
간단
함정
고양이
반복
ㅏ서
서술
##튜브
오랜
##일러
소식
의도
##려오
##오르
사쿠
분야
디지
전환
근데
52
불과
합치
유튜브
바닥
영입
먹이
안전
경기도
그때
치르
브레이
괴물
저격
마크
##텐츠
제안
흡수
점령
You
의지
##시스
는다는
예선
초대
필살
미리
최후
##니티
따지
400
개선
공략
유도
##남도
화염
숫자
놀라
독자
전술
##art
코치
그저
방해
주력
원하
액션
확보
외모
인원
가져오
매일
평화
비트
진입
터미널
이론
##런스
규정
관통
VS
클래스
라디오
에스
오토
찾아오
장난
수사
##오스
49
들리
##나가
이치
투자
승부
컨셉
##니까
눈물
체육
목숨
형성
지나가
적극
느냐
방패
AP
56
가스
패러
상자
음반
모험
사과
아름
서브
리어
왼쪽
적절
부수
흐르
인류
한국어
계기
보도
2001
##올리
함대
구축
##동생
거짓
저지르
살아남
의심
ᆫ지라
약점
예술
공화국
들이
역전
##스케
인형
기원
53
오리지널
54
비디오
##페이지
작성
완료
더블
##모리
...
자라
공부
은퇴
수리
코어
솔로
회전
스위
##라이더
쓰러지
풀리
단순히
대단
질문
In
걸치
PC
편집
황금
끌어
민주당
마침
뮤직
##래프트
알렉
시내
##로우
안드
##시브
홈페이지
착용
필수
트랙
상대방
꾸준
85
보수
해제
미스
엄마
카페
아프리카
드라이
경상
##ia
사단
습격
장관
편하
1990
현장
날개
사장
코스트
비난
포르
희망
원거리
##ill
데리
오스
수원
##ie
재판
선보이
분석
하위
##레이션
명중
아시아
진정
무력
코믹
선물
##RA
인지
성인
수호
ST
어라
모티브
##IA
비고
에이스
청소
확실히
블루
아름답
행복
경계
부리
저주
감안
카즈
중단
태도
가슴
190
##ik
임명
남편
공원
기획
지식
관광
##나다
표정
허용
승강
스마
쿨타임
장애
무섭
수단
지나치
오른쪽
탑재
바탕
본선
멈추
딱히
인민
제시
친하
소프트
상처
주도
##무원
당장
59
망하
##연히
가까
##북도
의문
영역
유래
기점
유우
테마
소울
테크
고통
리스
보급
##ab
직원
불명
날아가
비싸
아요
돌파
기어
베이스
위주
멀티
작용
주목
제압
대답
챙기
120
58
나카
잠깐
##마스
##워드
그라
주연
을까
카운터
여부
##울리
고유
순서
제기
측면
꺼내
베르
체계
도서
##est
게이
57
업무
박스
진영
부인
우수
##th
MP
멀리
문명
이스
카메라
패스
횟수
드립
후속
멸망
통일
온라인
##all
버튼
공장
##트롤
텔레
시나리오
지점
거주
케이스
귀족
나뉘
##ea
66
95
코너
문자
당선
내려가
에어
겨우
고서
협력
차별
특기
계산
소수
지옥
후지
약속
듀얼
삼국
최악
ㄴ데
눈치
마츠
크로스
건너
뉴욕
달라지
Sh
연계
딜러
시체
은행
##붙이
##머리
Lo
##ct
스펙
늘리
살해
가볍
ddd
on
나타내
개편
상하
오후
유키
가져가
1999
퍼지
##다르
스케
Re
붕괴
처치
배신
게시
대놓
자격
혁명
매치
군주
부담
110
##라리
##ddd
ㅓ서
dddddd
Sp
컨트롤
게이지
1998
##스티
##AL
해금
그레이
겨울
국회의원
어울리
견제
증거
레이저
스탠
외부
최대한
군인
장전
교사
필살기
##AT
62
출발
진실
자살
제조
핵심
##바이
##PS
정권
##워하
어린
##피아
대원
여왕
전장
드물
궁극
미군
##OR
중화
연방
용병
마왕
##니어
스프
로켓
귀엽
아침
댄스
##VE
##레인
거절
제로
충전
##아리
한화
타이밍
출생
쓰러
자이
유용
가르치
공산
체인
SS
일본어
기분
SBS
이성
##터리
커뮤
조준
만족
충돌
고급
브랜드
도구
단위
취소
ᆯ수록
애매
교환
는다고
스피드
부진
##달리
거래
##ate
스킨
ㄴ다고
##로이드
미나
##사카
수학
가로
흔히
##ess
피해자
극장판
토스
Th
카르
##ell
61
반란
제주
##광역시
발휘
세계관
얼음
##ard
무게
76
##래도
오스트
끼리
장수
파악
후반부
자고
하트
##ang
단독
아무래도
겹치
인생
모션
레전
홍콩
패시브
공통
##IC
갈리
근무
판타
자르
미야
##ue
신화
비록
격투
아머
막히
한자
헤드
우려
##ant
##ack
순수
##ers
따위
피아
몰리
Al
NP
웨이
77
구입
##두르
정령
파이터
브리
##ine
88
공군
1997
##다수
운전
72
등등
혼란
계급
자식
가입
수입
##하라
아메
스코어
닥터
##심히
내주
트레이
회수
권력
경력
##어내
본부
채용
지시
공작
근거
마이크
커버
##피스
탄생
생일
밸런스
해방
조지
비율
누리
외치
기절
건강
지하철
언니
용도
테러
남부
꾸준히
##가락
병기
엑스
표준
갤러리
BG
ㅕ서
타워
실질
돌격
지대
##ok
##OS
납치
증명
협회
반영
홍보
모리
지급
아사
무너지
프라
대공
강조
입학
be
플라
오오
업체
트위
불안
랜덤
373
FI
유형
외교
요원
##디션
경영
왕자
##아나
or
##유키
아나
감염
대륙
경향
##세이
98
fff
온갖
훌륭
광역
감사
CD
gt
연대
마녀
실행
맡기
장식
문학
##ive
패러디
##웨이
기독
트라
페이스
메탈
찌르
물질
600
주어지
##오리
없애
ㅓ야
내놓
입단
재생
가까이
##크래프트
울트라
스페셜
화살
추진
주년
어차
찾아가
집안
고민
내내
설득
대다수
계승
1996
서포
선배
승강장
살짝
사카
##트로
어차피
부문
폐지
##ast
이슬
캐나다
##고기
PS
##AS
영원
정지
대놓고
##들리
신문
베트
1995
보물
적당
지우
##메달
신뢰
사전
##바로
브라질
##어리
파라
연예
작사
즉시
아리
기기
##uby
",
전선
당황
##ED
미소
내려오
함선
흘리
괴롭
##tt
##즈키
##이터
68
뒤집
페이지
##ee
폭풍
등판
은근
lt
오픈
800
소문
탑승
명예
열심히
스파이
상품
화장
입수
레전드
오프닝
갑옷
별도
경유
러브
심리
시행
경기장
단일
파리
##거나
63
라스
말리
의회
1980
변호
##시오
통제
마련
##카와
댓글
반격
##ong
##AM
ruby
스티
운명
가면라이더
오류
정류
응원
푸르
트레
##세우
레오
후쿠
한때
커뮤니티
신청
쓰레
트위터
격파
라이벌
사령관
##ort
김성
주전
고전
기독교
출판
습득
이승
##웨어
중계
공기
편의
##ith
수업
하수
심장
처하
##리티
오해
불만
신고
마인
마주
두산
울산
##아먹
71
##if
74
관객
##다지
외국인
카나
정말로
랜드
보정
주위
##ly
크루
##fff
건축
##아버지
출장
....
스트라이
용어
MV
##나무
##ld
고기
공유
그곳
전달
73
여론
67
아트
메이저
ffffff
민간
사운드
짜리
절반
가리키
조치
##티컬
고치
지형
갈등
여신
##도우
붙잡
임시
무적
자치
##학자
재능
가득
아오
전함
전공
요새
압박
NC
##ain
리버
별개
엔터
초월
##ist
96
카라
##겨나
쌓이
종점
연구소
오로
네이버
스튜
1994
##ind
북쪽
전형
추적
메가
TH
그다지
메타
시각
아시
##타인
180
컨텐츠
남쪽
제하
늑대
보장
발매되
이란
지켜
테이
AC
돌진
소멸
##서트
판타지
시야
81
AT
결승전
전시
널리
클라
타점
든지
다행히
파이어
일부러
##per
불꽃
그만큼
동네
화이트
환자
##듀서
프로듀서
##ps
강원
동기
가이
##지컬
##EN
서부
여동생
문제점
흔하
적히
화려
##츠키
쓰러뜨리
그림자
선호
왕조
동원
폭력
상향
우스
지켜보
파이널
회원
대만
뛰어
본명
치명타
유로
북부
유비
신세
아가
맞서
물러
##EC
소드
자는
따오
신라
78
##가와
##식간
91
##OL
##스탄
수요
순식간
연상
무난
##ew
도서관
테스트
향상
메시
전역
매력
클로
학과
##돌리
차트
전적
##더스
변형
스토
최상
전방
시드
부품
찾아
지르
84
CP
체포
영토
아일
일상
수집
크리티컬
암흑
전투력
게이트
##사키
코믹스
아우
키스
영업
##LC
마술
me
인수
토모
##ry
수용
이마
저런
조절
파견
드디어
폭격
복잡
학살
복장
유전
##려움
오빠
##어스
82
대우
바라보
떡밥
##lo
입력
그래픽
구현
편지
개통
생명력
호환
##드라
현지
97
니시
추락
신인
사자
천사
도달
아무런
고향
동부
닌자
사토
##덜란드
네덜란드
청년
86
창작
디아
경비
점차
반지
작동
맞이
콜라
콘서트
연관
프레임
교황
제이
엘프
종이
한국인
쓰레기
수송
출현
노예
스톤
기초
그치
##레나
모바
추격
해설
it
해체
69
##퍼스
다시피
몰래
달하
##어버리
구도
조용
충청
의상
##노스
심판
##크스
간격
공급
녹음
아티
is
주먹
아무것
##히로
식물
토리
막장
시위
조성
NPC
프리미
전투기
사쿠라
##오프
##IT
제자
조조
잉글
연사
둘러
##둥이
돌아다니
수술
무효
스마트
연애
검색
슬롯
실드
만든
##시코
마스
감시
##타로
레스
스카이
US
일제
블록
꼬리
헤이
법원
##스트라
동쪽
##특별
마리오
나루
경험치
구체
MS
고교
옛날
놓치
##오카
##보내
An
통상
총기
김정
##티나
범인
탱크
구속
베트남
라이더
진지
##모로
##버트
##ust
신분
대립
신규
장교
성과
은하
연락
국립
예외
쿠키
250
어깨
##주시
KT
강의
인근
##어도
입구
지도자
신성
다섯
차단
규칙
글자
##50
되찾
불편
대대
메카
이랑
마도
평타
프린
요정
언제나
바보
창조
박살
코인
마리아
안습
총선
유희
모바일
동작
토론
##도로
후기
전라
##비전
##일리
여러모로
환상
아크
에드
189
거짓말
##디아
노출
기여
의료
##파이어
##브리
권총
세월
소총
접하
이래
이리
이득
농구
어택
##자키
일원
자이언
무료
신호
가시
블레이드
202
서쪽
##영상
이날
1992
부위
출처
음성
정복
개혁
미술
폭주
극단
잠수
##스턴
고생
띄우
92
헌터
##BO
##ore
##저히
간부
##톨릭
Ar
참전
반발
전직
교전
고용
투어
대체로
양산
일자
보석
고문
폴란드
대량
키리
연도
상점
83
하고
글로
라이프
제법
호평
상상
제어
사마
길이
동영상
수영
정류장
승격
전대
Te
##보드
출력
사양
합격
89
기습
잖아
휘두르
터치
##FF
101
93
1993
공학
잉글랜드
반하
지휘관
북미
De
MAX
제작진
태우
기병
득표
윌리
중대
94
요괴
마루
합성
미디어
다이아
머신
환승
인증
법률
com
79
끼치
메인
적어도
##일드
탄약
조심
가량
박근
런던
회차
구출
요즘
탱커
##FC
파일럿
의혹
원소
re
매니
리얼
활성
사이드
동방
유령
포탑
하수인
알파
노멀
삼진
히데
침공
다면서
87
마이클
디지털
분기
이재
##란색
개정
서양
멋지
가톨릭
묘지
인공
의무
##우드
볼넷
훔치
이슬람
똑같이
네임
가속
결성
##one
예비
축제
대략
On
가게
블러
학자
패널
경고
레인저
계정
보고
##se
타케
이자
리아
##ip
헌법
소화
전면
이내
아일랜드
##AC
AI
부부
스키
DJ
특화
##RE
익숙
용사
상호
어지
##미야
나아가
미츠
었었
갤럭
##ere
캐스
##먼트
이시
스웨
##임스
문장
바이러스
메모리
슈트
도망가
워치
실리
근육
대항
커맨
불법
넘치
##PG
리메
BGM
MC
플레이오프
핸드
베스트
어둡
오가
플로
SN
자매
유행
묻히
한방
개체
##ity
도발
냐며
들어서
##ath
김영
##창기
보안
쿠로
육성
##조리
예측
빛나
어린이
예고
트로
소닉
이즈
자금
갤럭시
##라이언
신기
총리
으니까
루시
노르
검찰
취임
멕시코
형사
FIFA
터키
마냥
정면
결론
사제
길드
##end
국방
웬만
차리
리스트
스톰
고백
1991
##끄럽
루타
파크
구멍
캐리
식사
움직임
불러
마구
일시
레이스
리치
세이브
호텔
곧바로
상업
앞두
감옥
이명
!!
##펙트
저장
여유
절망
제임스
찾아보
개방
부서
진심
##워크
투구
사이즈
구원
틀리
유대
볼트
초창기
플랫
세르
THE
700
타마
플레
대가
FA
피부
너무나
와이
배차
##요시
박정
##고리
청소년
오랫
팀원
ㄴ다면
흥행
ㅕㅆ
강철
번개
바치
카타
착각
좌우
##특별시
전철
커플
##릭스
여지
1988
##구리
바위
파트너
발달
어떠
##레이터
세포
리메이크
MVP
소형
##로나
아끼
처벌
그동안
스미
서울특별시
떠오르
다스
현역
레이드
아기
신설
긍정
아빠
주식
융합
##데스
##네스
주간
원자
망치
외계
분량
차라리
프라이
정착
Ro
위장
물러나
미카
##OT
인정받
돼지
반사
챕터
카스
합의
##디언
식민
랭킹
내성
##성기
목격
인연
누적
커지
협박
전문가
내장
장악
단장
게스트
의뢰
화학
빌드
에다
CC
방지
에서부터
포스트
클리
야스
브레이크
잡지
박근혜
Wh
해병
영향력
공지
논리
대리
방출
안드로이드
동의
태그
국왕
사우
방사
는다면
AK
시즈
깨지
대지
타이거
먹히
조약
고지
포트
각자
그대
몰아
떠올리
요코
배트
한번
괴롭히
관할
저녁
지능
##ect
DLC
골든
국군
하필
칭하
htt
라면서
대폭
Se
1970
의존
##스키
최소한
양쪽
으려고
손가락
호주
토르
Le
악역
마침내
루이
스턴
##지마
동화
홀로
연맹
과목
변호사
실버
공무원
유치
'.
후속작
막차
기구
수련
본작
그럼
무역
섞이
수수
He
면역
소지
보관
소원
오랫동안
무덤
PD
##age
오사카
웹툰
주말
역임
##IS
귀신
오카
육체
연인
##밀리
크라
기원전
al
혐의
스튜디오
해리
내구
명중률
확대
재산
카오스
접촉
호감
어쨌
불교
다가오
적대
##구치
네트
kt
##잡이
노부
대처
명성
써먹
강남
스틸
태평
계단
올해
전후
비행기
Go
연료
예능
정비
Me
출마
통치
테일
간혹
슈팅
##페인
팔리
오늘날
합체
트레이드
피스
로즈
모모
예쁘
정치인
부장
컬러
마키
정원
퀄리티
흐름
개성
소장
블리
리드
시마
안내
놀랍
그로
학부
이지
오전
게시판
소스
GT
놓이
##다이
준수
휴대
접속
저그
수익
더라
권리
##베르
1989
떨어
##라드
KIA
권한
원수
특집
패하
연극
하우스
##og
외형
금융
##ake
##ide
필리
##어나오
박물
코미
선전
화제
김태
새벽
허리
윌리엄
상당수
##OM
Be
피격
이집
My
초간
이집트
주기
WW
무렵
따라가
공공
ᆫ다며
누나
담기
환영
편곡
페이즈
일기
130
최다
금속
포르투
갇히
꼽히
알아보
##려주
나치
AR
둘째
메르
고구
원칙
##ss
카미
결합
SC
##ark
##바라
##티아
##ime
깨닫
연타
##ire
알렉산
할아버지
치우
SM
편입
식당
시계
굴리
유물
개입
문재
캠퍼스
한동안
기도
인조
매직
어른
##세스
지진
거인
188
전신
으러
소중
아니면
극복
wh
116
블로그
전진
시선
까다
성립
영문
주사
my
Su
##ES
정찰
은근히
정글
헤비
회상
아바
기사단
##프레
사도
SD
협상
ㅓ도
캐스팅
메뉴
궤도
스웨덴
##ID
시내버스
팬덤
Tr
음원
는지라
대개
##닉스
작곡가
손해
##ite
##던가
익히
대충
구나
튀어나오
독특
재단
수십
동굴
##다랗
우위
더더
별다르
복무
무겁
##아시아
고수
안티
민주주의
용기
우라
식량
##부르크
털리
트럭
160
교차
종목
이익
해안
##회사
처형
##ound
조언
일찍
멀쩡
트랜
SR
아이스
클래식
과제
리듬
이끄
세이버
위상
##iv
원본
더더욱
HD
''
펀치
커맨드
신비
커스
##리그
김민
빼앗기
타인
박물관
까다롭
트윈
##가미
애플
##iz
##OP
삼국지
##쳐지
훗날
##ge
증언
해적
멘탈
천재
날짜
허나
절대로
적군
IC
자국
일격
살아가
마비
신앙
위원장
구사
##가리
신부
##큐어
##OW
갈수록
노인
재미있
각본
무릎
코우
중독
하얗
느라
##가시
기적
재정
죄다
바리
세종
주포
집행
양성
##무르
스승
철학
하락
참석
놀이
지위
##바르
마이너
캠페인
과연
비례
데모
유이
정수
개시
예산
결코
모자라
국적
적응
패션
교류
관중
호위
작화
크리스마스
한참
탄창
매체
이브
이중
##덩이
##LL
열쇠
안경
히메
##ome
하야
활발
시아
경기력
Gr
내세우
원주
어다
선출
투명
십자
##테르
해상
with
바퀴
우연히
김종
루수
체크
##BA
희귀
명단
비추
녹색
충성
##UN
화성
클레
##마디
진보
미안
스타크래프트
드레
데려오
이영
칭찬
개수
사막
개막
첫차
주일
로그
결말
##아웃
IS
위대
행적
##미니
전성기
##몬드
제정
으라
당일
의대
모래
기르
인지도
흔적
칼리
1987
상급
기종
챌린
흔들리
후방
업적
오스트리아
de
미터
강점
BE
px
임대
상성
140
농담
어지간
김동
웃음
포로
호수
계통
사유
도우
보라
##MA
Pr
버스터
재현
대학원
취미
면적
무작
새기
매년
##ord
스프링
어쨌든
Love
비상
오직
토끼
구리
어려움
체육관
클릭
##려나
심사
##ud
일반인
포항
고스트
개량
##가스
사후
신장
거점
프리큐어
생존자
유적
이정
남북
어마
강도
기아
자책
과장
니코
새끼
ch
본체
으시
모조리
##양함
자본
대수
괴수
자극
예수
이주
가을
##mp
부지
파츠
##사자
화물
##데미
울리
사라
##10
로우
부작
맥스
저작
전멸
##ame
기용
소위
UE
선고
##ance
아메리카
캡틴
연금
추구
기울
아티스트
SKT
##ax
##카드
미라
인격
자세히
에리
an
##치기
가짜
출입
행하
판매량
JR
공세
##ure
아카데미
유나이
유니폼
불타
##ix
어스
흥미
900
일치
차기
GS
승점
채택
시달리
포격
##코드
공룡
일방
단편
유나이티
취향
무지
##ick
소송
##mer
스마트폰
도주
덧붙이
포드
탈퇴
메리
카트
##이즈
코코
일본인
##ice
막대
사형
연패
기량
색깔
억지
타율
피아노
스트리
바깥
로고
몽골
귀찮
##our
제작자
잘리
한마디
Bo
유통
건조
노벨
코리아
상실
아즈
타선
화장실
할머니
드라이브
구경
후계
생겨나
영구
치유
집어
마린
라이온
측정
EP
식민지
비주
내지
미루
요금
##시로
아미
자전
보존
1986
거듭
날아오
다름
##공화국
선택지
쌍둥이
어드
무라
잠재
1960
아이콘
가요
##이너
OST
상인
무방
커피
##비드
빨갛
사신
강요
레이더
##랭크
메시지
##코토
인민공화국
KO
##{{
Un
간신
언스
이민
##고속
이슈
통산
동력
가상
고도
박히
##랑이
Ex
포수
신사
넥센
도끼
조연
색상
피터
다치
데드
캐논
##AD
명확
오타
몰락
연승
##qu
주택
화재
사원
여객
##멘트
루카
교장
네트워크
주소
타락
곡명
귀환
##oc
가루
냄새
브루
안타깝
{{{
외전
즐겁
초보
콜라보
##반도
유희왕
터뜨리
제갈
실망
판결
##80
구르
##시스트
소라
칭호
모토
등지
GB
##카리
대선
찾아내
경로
레알
수장
UEFA
항공기
이터
스페이스
광역시
남녀
위반
깔끔
매니저
거미
비치
포르투갈
DS
고구려
타수
연합군
186
##own
sh
##ys
아케
반동
아마도
라인업
순환
CPU
오라
##노우
혐오
##나카
교실
영주
##럼프
그만두
베네
법인
항복
백성
##라이트
##든가
너희
관찰
복지
타운
##라노
잠수함
미스터
##ber
단단
비서
주역
주자
적합
캠프
스터
배터리
매장
수류
We
관람
익스
AM
커다랗
예시
유효
강원도
커리어
드래프트
싱크
흘러
##저스
히어로즈
끊기
105
공성
카츠
공업
##av
아쿠
둘러싸
##OC
흑인
인치
하단
유학
벌레
트라이
이스라
승객
##old
예언
용량
김재
##정부
동성
.."
고작
본사
##로디
##시타
상단
승률
##일보
국경
추억
소프트웨어
CF
면모
천만
마약
포위
휴식
서구
티켓
관측
LI
철수
수출
일대
그러니까
##orld
도적
곤란
중립
자폭
카운트
생략
스텔
구글
개국
표지
적당히
수류탄
인디
터널
상술
변환
음모
조별
클랜
마드리
기생
좌석
허가
합병
다름없
추종
형상
##위대
고맙
소대
대인
시그
사이버
실전
오크
히나
치루
정기
후술
아랍
김대
문구
내전
마드리드
통계
1984
디스크
더럽
보험
인종
차이점
메달
마디
##ont
1985
글로벌
연예인
최신
근본
복구
##려들
지경
언더
액티브
입지
사명
187
서포터
증오
SH
지뢰
후손
이스라엘
스트라이크
후배
아시안
용서
##데이
에르
구석
담배
성남
3000
사정거리
위성
일족
시너지
타로
크리스탈
오마
떨어뜨리
AD
##ies
허락
LC
기숙
고위
더러
DF
급격
그랜드
자막
즉위
리타
숙련
##머스
함수
논의
부각
전주
하차
고개
텔레비전
구슬
공방
lo
꾸미
KBO
행보
어뢰
미묘
경주
##팩트
토벌
시노
쓸모
감각
모니
발행
해피
데려가
아츠
모노
네요
들키
언덕
서식
It
왕위
마그
##lay
연령
특전
튕기
XX
준우
중첩
태평양
부딪
취약
가만
뜬금
후원
오랜만
제약
쿼터
블러드
루나
베리
노동자
무척
침략
저렴
정화
간신히
##자드
총알
기관총
##OD
침입
##하면
눈치채
세븐
노스
MF
드롭
간접
일본군
생년
##US
아르헨
방어구
##블린
제트
워커
흡혈
분쟁
법정
입대
##어마
알아내
헬기
파르
학습
혹시
균형
드럼
맛있
가동
찍히
아테
전이
CV
사귀
진압
강자
##프리
카카
산하
WWE
.....
##PM
아르헨티나
##ann
잡아먹
곳곳
레슬
찬스
공용
텍스트
소방
평생
머무르
여우
조이
분열
스리
NE
아이언
SE
어마어마
주차
모시
비스
자이언츠
관점
##40
중세
네오
신전
동인
약화
악당
금방
정차
나리
125
##pe
깨어나
플라이
이토
잡아내
거울
##30
우르
트랜스
애정
부적
페널
결심
지리
이수
경상북도
딜링
반전
##말리
제작사
나폴
격추
내보내
제출
상기
##네임
성당
앨리스
##sh
라기
연고
보호막
your
니콜
이혼
되돌리
통화
양자
크림
스팀
토너
표면
호흡
##NA
폐쇄
##배우
사령부
금액
아저
##마크
결전
큐브
구축함
엘리트
미즈
아저씨
간주
코르
히토
악화
저택
보완
뮤지컬
창원
구름
이식
리온
세인트
얻어
인권
뽑히
충실
##VD
채팅
스크린
헤어지
CJ
김현
불사
선거구
착하
AS
용인
상관없
더군
참모
전파
초록
열매
가라
부자
주둔
지불
DE
발리
인용
하루카
유력
##은행
암시
대왕
천안
##ng
##키아
##io
낚시
긴장
정예
교과
지라
분해
물리치
묘하
##천시
해치
##베이
빠져
토니
프란
동양
유발
문재인
서서
보건
존재감
성별
공정
경남
체결
우에
남아
시인
배포
학력
상세
소유자
낮추
엮이
수석
##거지
후계자
;&
악기
언젠
언젠가
답변
드라이버
마주치
걸어
짜증
##리나
상영
##oo
토너먼트
에요
원리
수호자
재밌
도둑
전승
엑스트라
바이오
악명
안기
행운
로버트
개설
##라기
호기
170
이듬
도박
Pro
구미
본관
뜨겁
천하
업로드
잔뜩
미쿠
기인
선두
은신
견디
기숙사
##싱턴
##월일
##ave
뱀파이어
양식
실종
쏟아지
교도
중량
에다가
지팡
루비
##포트
릴리
요인
백인
##걸이
로리
탐험
정황
##LE
부임
임신
난입
중력
아동
처분
대책
임금
동점
비아
LV
관리자
캐스터
디지몬
미키
심심
##번트
건드리
만남
방송국
that
논문
야생
칼날
UP
항의
테라
관계자
헨리
미네
생년월일
해명
백작
##나미
시카
유독
탄환
##센트
분명히
베타
호칭
##우마
복합
도루
서번트
카와
##스럽
금메달
말투
윈도우
##ION
동명
생명체
진주
문단
발렌
자녀
##ream
와일드
할인
법칙
수백
가방
다이아몬드
려던
콜로
ED
1500
여야
단축
절차
정통
루이스
잃어버리
EN
해골
분신
외계인
무관
영광
기상
보드
운동장
하향
이드
온도
지치
시합
조리
라틴
이듬해
브레
주술
분대
프로필
인력
리뷰
##리스트
##ond
창고
1982
치즈
->
딜레이
부스터
##펴보
살펴보
이온
니스
그르
리오
끔찍
광장
##어하
로얄
기름
플래시
##게임
##iss
Com
5000
왠지
사살
의학
기둥
크레
창설
그린
뛰어넘
전동
건국
성질
울프
전북
도라
마블
한쪽
유인
막내
공허
엔젤
체험
레딧
장인
부드
##에르
퇴장
그렇지만
물고기
부사
유격
존경
민첩
집착
커녕
##태우
우정
##운서
삽입
디젤
아나운서
걸맞
웨스트
상식
참가자
아키라
승자
1950
공산당
##플레이
##IP
##11
깔리
창단
요약
휘말리
##카이
시상
감지
시원
작년
진학
모터
시공
그램
증상
전제
독재
수면
감추
##다나
1983
하츠
의장
불펜
##60
학기
샌드
출구
복제
##ian
??
by
##비치
##소녀
아틀
블라
부드럽
오디션
he
두르
싫어하
나츠
유산
##커스
께서
비전
철저
선제
덩치
발굴
가공
시라
BL
하이퍼
헤어
단원
스위스
투스
유전자
스폰
##도르
&#
반박
##유럽
go
##갈리
그럭
레지
트럼프
여주
항구
타석
리스크
코트
미만
##세대
돌입
##저럭
웃기
안녕
갑작
중형
스쿨
사인
콘텐츠
스위치
펼쳐지
##티스
다카
비주얼
그럭저럭
사법
그레
주니어
##쟁이
노바
기운
##Hz
통로
준우승
배정
##TV
수명
백제
마스크
##던지
사용자
대거
어필
출격
휘하
기재
상륙
라이플
논쟁
웨이브
나마
정교
이펙트
본진
단행
자전거
##투스
가죽
배트맨
보충
토마
##베스
##ory
신도
깨달
트리플
훈장
##필드
호소
##TE
시리아
##우리
식품
회담
스트레스
격차
라니
국장
축복
속이
인질
##ace
##rom
코미디
시트
##크라
Co
##세서
실책
##틀러
스펠
근대
완결
위안
Bl
옹호
학문
파편
##카이도
태국
케인
평양
##누스
공화
카를
지사
처지
싸이
유기
마우스
;&#
경전
공립
갈아
루스
워싱턴
팬텀
이글
부근
마케
적중
DVD
##필더
승인
미드필더
Br
원문
오키
토지
침묵
소음
피우
메이드
디즈
슬로
##부로
기갑
기동성
경직
소요
플래그
와타
Or
##무시
##게이
중국어
세부
빅토
##oth
두들
근거리
트롤
조기
축하
치킨
배출
##ows
내각
막판
결투
경상남도
신나
보이스
복선
##산시
시신
오염
솔직
파동
방위
##MP
연습생
마감
부실
남매
동계
리카
수능
내일
삼각
간단히
차체
과학자
급하
후퇴
동급
테츠
##그리
##아다니
기후
고객
임기
날카
##TS
고리
밀어
센스
넘버
##키지
슬라이
우세
헝가리
##먼스
무작위
수급
망가지
왜곡
무인
상담
학위
손상
##화점
##신교
국정
한반도
괜히
지향
규격
##IG
영지
장거리
노조
바쁘
##든지
야수
##셔널
CG
약탈
마법소녀
일당
##다보
중시
기세
철거
하마
##주교
무사히
##경기
##aw
끼우
선행
185
##하마
토크
라라
요한
유성
날카롭
##텐도
닌텐도
패키지
스즈
##타이
최상위
장탄
멜로디
과도
##포르
미나미
야구장
간간
신발
엔드
양상
록맨
대포
성전
##ale
SNS
출루
즈음
프리미엄
지칭
질리
타쿠
그날
변수
개발자
PV
킬러
스트리트
핑크
주류
##ike
대치
독일군
개별
페이스북
후자
안개
무산
##하시
##틀랜드
특별히
더군다나
여러분
영원히
뭉치
임팩트
전망
사키
초인
1945
입주
물체
Cl
챌린지
집권
##에이
업계
바디
농업
For
무시무시
데이비드
군수
리프
부착
원조
흰색
브로
동남
##키퍼
##야수
암살자
장사
첼시
매번
RPG
나미
왜냐
청주
만주
중복
##OU
브라운
계시
##자와
Dr
질병
손실
야마토
최적
악몽
##바닥
서서히
필리핀
##ep
선조
피트
취득
##irl
##man
폭행
##우치
동아리
##ach
##ile
175
동경
수비력
1981
슬프
Sc
인방
BB
호랑이
##여객
골키퍼
OP
서클
벨트
부동
올스타
해양
여인
구별
102
##공항
호시
잠입
117
지팡이
헤르
놀리
어이
고장
ㄴ지
진격
인피
나르
파생
##12
Team
106
며칠
배역
끌려가
모로
교토
##VA
LA
물량
해킹
##철도
##ink
플러스
Sk
선임
일람
제독
##아이
상한
퍼포
의외로
사회주의
Mo
체인지
퍼포먼스
감싸
페널티
직장
리라
GP
합계
권위
중장
가만히
오이
국당
기호
레코드
공수
청와
DD
##데드
마물
무술
115
##아키
ᄇ시오
응용
시크
메이커
김경
해내
##어놓
세팅
사립
데이트
코난
원형
이웃
평점
라그
이종
##플렉
약물
가디언
기동전
주행
귀국
언데드
신입
최우
연산
##ial
FM
##승부
청와대
건네
은지
밀도
투쟁
##토스
##메이
개장
##런트
##ish
엘리자
국어
장로
당대
에릭
SU
파란색
1979
서기
레일
냐면
후임
나비
여전
에디
긴급
집합
UN
만만
배달
##래시
이와
징역
챔피언십
억지로
스파이더
프로토
비틀
포즈
오스만
트릭
선사
합리
쇼핑
개신교
권장
분포
뽑아내
트루
장신
김상
기장
행방
폴리
추방
택시
##ower
저하
천연
다가가
공백
감동
회색
##네시아
안양
전무
프레이
해산
일화
궁금
프리미어
연구원
독점
증폭
신자
수동
즉사
모스크
확산
명의
##II
관여
야간
주관
Bla
면허
교단
여학생
공인
방치
스캔
재회
라우
임의
모집
폐기
듀오
##하르트
빌딩
유미
##오루
대단히
조상
잠들
혼돈
만일
명백
뱅크
김진
##GE
전남
썬더
##숭이
라이너
##운동
코멘트
감상
아레나
캘리
##버그
바둑
성경
렌즈
버섯
사무소
##크로
택하
CH
매출
분당
we
캐치
고블린
피닉스
끊임
발목
돌연
BS
##IM
출간
조명
타이거즈
처참
Ne
추리
##!!
불량
Star
장미
부서지
광산
깜짝
오메
광선
박지
로빈
##프리카
승무원
사리
김기
자비
##레일
전라남도
모듈
구성원
포켓몬스터
비웃
##벌레
무스
상관없이
복원
뚫리
PR
해머
우월
고소
실장
ID
우주선
고로
질투
히가시
목사
뒤지
만지
되게
스타디
통틀
평일
하인
계수
간호
기쁘
지연
와카
##번에
배급
##히코
##쿠라
드루
Wind
미국인
버드
수색
우드
화산
350
라이온즈
유출
대조
벌리
난사
협정
##99
유언
파이트
수립
탐정
엄격
시외
조롱
up
스탠드
풍부
##전자
운수
자꾸
서포트
LP
재학
파멸
심의
DC
골렘
한두
우익
##카락
국무
메이플
산맥
War
머리카락
fe
체감
And
정발
스텝
우유
의자
검술
온천
##체스터
도저히
##ass
바스
쿠라
당사자
##가드
청구
치열
나기
모험가
센트
합동
육상
토미
포장
국제공항
뒤늦
사이코
##ms
반부
히라
키타
##me
루크
젤리
##타카
360
Man
소용
실내
이라크
오로지
다운로드
에픽
본토
112
마코토
축소
토시
기력
권유
제네
특급
조용히
극도
규제
디즈니
승진
배수
##gh
##블로
따뜻
우치
##CG
낙하
##렐라
루머
비명
아쉬
시사
108
##도리
##릴라
All
거스
베를
러시
묶이
AKB
나노
티아
##tle
니아
하계
##pp
사이클
##ble
##amp
충청남도
반감
범죄자
지인
바르셀
루피
오락
파울
출범
바르셀로나
디바
비유
우즈
##ft
여섯
지목
수직
시바
베이징
알라
안쪽
토큰
중지
단종
오우
일요일
프렌
103
려다
수월
경북
세금
탐지
폭파
스테이
황후
능력자
전당
붙잡히
협의
꼬이
세라
리즈
어시스트
##yle
스타디움
서머
##70
아지
기리
실은
페리
이글스
여파
##ous
물품
중순
직선
막아내
##려받
세리
실현
배제
조우
##슬라
스태
모임
##now
##atch
베테
신학
##sp
넘어지
리버풀
카구
불행
분산
부딪히
당당
조커
One
넘어서
타르
아가씨
Mar
##orm
수염
생전
손자
드림
김해
평론
얻어맞
캐시
토키
유의
신용
나스
New
To
ON
명문
거북
기묘
드론
추세
바론
여고
무승부
조르
ex
막상
체중
낙선
##스티벌
나루토
나요
진상
페스티벌
수비수
IN
경악
##란히
살아나
토요일
던가
BR
##사이
로이
##민주
천문
까이
Part
맥주
스미스
수습
태풍
가난
더빙
채보
KR
기수
##구나
두렵
##나오
연봉
함락
마카
김용
Gam
강등
비극
센서
강사
되살
SF
주최
후회
패전
힙합
##ING
대성
극히
집어넣
잠실
산탄
고속도로
CS
좌절
엄밀
국판
듀스
명목
배려
동반
배드
타일
훼손
스핀
인접
유망
대시
노가
실시간
개척
힐러
코마
철권
##ment
리가
기부
PP
##방송
에반
사무실
##ae
빨간
반짝
케이블
##64
주체
하여
128
원시
스티븐
압력
모스
상반
고증
장탄수
꼬마
쇼크
##더라
스테이션
##불명
유재
혜택
스와
투척
도장
신속
포탄
닉네임
도리
인자
바지
##ase
혈액
쳐들
호남
중화민국
##사기
농장
마땅
아이러
각지
##ree
장성
이타
샤이
초콜
되돌
재개
##사리
조카
역습
다투
주교
걸즈
고시
음료
휴가
유니크
벤치
히틀러
반도
엑시
암호
구조물
소니
달려가
구장
날씨
샷건
##구장
때려
변동
##저리
번지
총장
En
캘리포
시로
네티
확장팩
퍼즐
##노리
제갈량
그라운드
에로
시상식
짐작
하프
1978
질서
1973
근원
레온
믹스
JT
함부로
트로피
해병대
동해
기뻐
기뻐하
어쩌면
야쿠
184
로맨
사퇴
거론
오브젝트
##az
여의
##bo
대행
##페라
캘리포니아
보라색
알바
ᄇ니까
슬라
제치
시비
찬성
라즈
갈색
첫째
짐승
AN
상사
가담
깊이
##블리
##러그
각오
인재
사로
World
##ason
양손
구동
##AY
111
그랑
##케이션
쿠데
220
여럿
ᆯ게
안심
호불
##iki
호불호
퇴각
##베리
무용
백화점
최저
혁신
거칠
공감
183
강림
키보드
정반
##돌이
##리온
결제
##키스탄
베기
감수
지수
JP
##저기
오더
포스터
##느리
사야
돌보
동서
프린세스
말기
트레이너
거든
진급
마계
전날
계층
베어스
고무
네티즌
알렉스
원더
동아
##ear
So
경호
중동
빨간색
대령
특별시
동행
산타
흡사
##hen
후반기
라크
빠져나가
장례
셔틀
노란색
여기저기
갤러
중부
장난감
마오
240
평하
흔들
사관
막강
타이탄
리처
##MS
뜬금없이
신선
당기
sp
수지
세뇌
핀란드
학생회
가두
피로
##are
포획
드레스
견해
밀어내
클린
려다가
FW
베를린
탐색
두들기
차갑
여서
요미
보좌
인과
유혹
GO
깎이
매주
선수단
날뛰
##기에
양반
교복
패밀리
유입
봉쇄
국도
영감
우호
강렬
원곡
스코틀랜드
연쇄
뮌헨
상주
입자
##직자
페어
케이드
선진
1974
##차기
돋보이
방송사
무공
문화재
마일
프랑스어
생체
끌리
재건
tv
클론
우측
박쥐
소재지
트라우마
도어
역명
점유
운송
토대
##브라
콤비
##루미
방탄
경찰서
아이러니
드로우
아베
위로
왕실
결계
김준
서바이
잭슨
후미
박살나
약자
와인
신중
공격수
무실
결혼식
세로
비스트
http
수여
##하나
침대
지부
1972
연금술
알레
복사
##90
##ven
래퍼
트윈스
##ife
포터
##아치
관료
제물
화폐
도덕
전락
집회
통칭
바나
윈드
https
##싸움
로이드
완공
튼튼
트랩
토하
##ade
허무
장판
순양함
프라임
엔지
리안
밀려나
##AP
Wi
취업
##베이터
디시
역량
스즈키
선장
오지
콘솔
소금
##박스
폭스
탐사
덴마크
세자
영양
출혈
##렉션
강경
우회
쓸데
빈도
나아지
라마
##act
도감
MB
하스
글씨
~!
도트
##데레
홀드
##ai
대타
일곱
##ank
아바타
##깨비
##gin
연설
억제
이순
간섭
여단
%/
관통력
상무
공대
낭비
do
단행본
##aby
루프
히든
홀리
부작용
노무
메이지
모형
신데
창문
104
영화제
디오
오노
청나라
승차
##out
전동차
인도네시아
책임지
소통
법무
Fate
no
트레일러
전격
침투
성씨
술사
재직
태클
워크래프트
페미니
손꼽
넘어오
당초
매니아
한창
블로
다큐
1975
##우트
커스텀
쿠데타
##지르
마트
마피아
##lect
시카고
신데렐라
실상
히로시
LIVE
간간히
부재
형편
백업
제재
파밍
123
설령
손오
출산
라가
성실
스탈
손쉽
깃발
끊임없이
범용
##ET
##에른
하하
##토니
공산주의
장애물
스나이
을수록
경연
강간
김일
스트라이커
##oll
NH
벨기에
우승자
끌어들이
전향
소득
비비
스타리그
시호
미미
검증
조종사
##UM
##모스
##른바
할리
토요
중점
Up
이른바
품질
왕비
OS
여타
카자
1976
라스트
소나
are
근접전
말레이
변이
항해
외곽
다지
III
##ork
딸리
워크
##천군
다스리
스피릿
파도
강릉
성분
최선
원주민
이스트
정석
마산
사악
대접
사사
혈통
섀도우
모니터
##추어
그러므로
발명
따라오
판사
유료
##바야
Do
단기
##ary
이어받
하급
구상
특공
선박
리코
리모
카더라
Oh
제왕
공통점
왜냐하면
검열
광물
하반
##way
티스
전생
왼손
끌어올리
##루션
동전
입문
119
브라이언
키라
유연
트리거
천천
포도
##바지
중상
메일
맞붙
명분
올드
탄핵
자네
##ey
마틴
##ich
명사
공헌
고종
스플
장남
원장
전송
사로잡
##께끼
135
수수께끼
급행
소모량
중심지
단검
109
##슈타인
##모함
초콜릿
우루
중고
박정희
바이에른
초상
우울
코스튬
미지
지선
##저우
중기
##타입
ES
중위
확신
대변
김수
##미터
올바르
Mk
공단
입증
으려는
베테랑
일체
한나라
모스크바
잔인
##으로
##능력
한나라당
관우
##키리
엘리베이터
검토
오페라
시모
수인
Ad
잉여
예약
시온
단발
조국
부패
질주
친절
불태우
손오공
대법
아이디어
lv
땅볼
부유
대동
히스
꿈꾸
부시
##벤처
교리
all
##동자
Day
어드벤처
씌우
시게
##니시
존스
강호
발판
보스턴
비기
성배
아스카
터스
유망주
천황
케빈
로보
콘스탄
AFC
시외버스
곡인
스태프
도쿠
부속
이병
##다운
천천히
nd
체코
버스트
압축
충족
학사
##pt
고는
182
##orn
과자
카카오
흩어지
메리트
이현
니혼
비리
고스
카시
굴욕
##페이
구독
무제
도깨비
##스레
에이지
앤드
그릇
갑작스럽
쓰리
##하루
프로게이
프로게이머
##르타
분할
동정
손님
##라미
크레이
오메가
강전
화상
군부
연수
자제
나폴레
루마
토마스
아아
친분
플랜
어색
후일
대박
라이언
지붕
민중
위엄
싱가
싱가포르
항공모함
디자이너
기하
평등
##가루
121
홋카이도
치카
미궁
레이디
나폴레옹
마운
지력
##레일리아
삼성전자
라그나
1971
일관
노르웨이
머니
Windows
고고
저자
레이블
##의자
메트로
##어드
##네마
왕복
박살내
와이번
달아나
FF
테이블
폭격기
스택
너머
발레
머물
동구
145
사촌
107
렉스
맹세
디펜
이모
망명
##테이션
바이올
극대
="
이경
현금
RA
기울이
열정
찰스
이틀
엑시즈
스케일
광기
합작
1977
점검
강점기
진에
##쿠스
대전차
##ah
김포
엔트리
퍼스트
##EM
터트리
그립
하이라이트
카리스
여포
질량
유탄
쫓겨나
창립
DP
변태
리틀
종결
할로
원숭이
##사스
촉수
후드
으라고
하사
지오
##군가
작위
마타
에버
ML
고집
사체
AA
##very
신동
자율
리퍼
블레이
##uck
화해
마술사
일가
보고서
저기
재배
존중
누군가
조화
츠카
본질
그레이트
독일어
##리스타
표절
무지막
사족
무지막지
##마치
오렌
챔프
총합
파스
외우
원전
ne
크라이
잊히
천장
선교
이대로
IT
공신
평행
엔지니어
보르
기차
br
석유
부스
쳐들어
중거리
자존
감탄
브라더스
임진
전라북도
##ph
Sw
DPS
호크
자책점
면하
피카
##슬리
BPM
게이머
JTBC
소집
정사
지분
농민
진단
물자
210
스포일러
메카닉
봉사
신지
노무현
연간
해소
178
인칭
란스
꺼리
##ero
몸통
스가
1969
다이스
떨치
과일
113
스티브
유가
관장
리처드
".
대위
유격수
어나
쿠스
교과서
오니
파랗
무실점
교차로
##ool
로키
사수
타구
서적
동속
검정
노가다
165
##바나
오스트레일리아
광명
브레이커
마유
시뮬
김지
##아들
1968
하치
맨체스터
동대
러스
냉정
1963
데빌
주식회사
임하
철저히
##ical
저렇
총독
토트
불쌍
빙판
명시
출판사
시골
손꼽히
NBA
부원
프랜
힘입
이오
입사
필름
장타
주축
다니엘
##urn
ㄹ까
부산광역시
가구
아깝
착륙
##퍼드
백만
##ype
Ph
병역
블리자드
오케
탄압
슬픔
실체
##ARD
부천
Con
##리안
말씀
에드워드
2021
윤리
모순
##구미
##anc
주사위
호의
##센스
스노우
매각
고아
광경
마당
제니
지장
깨끗
유치원
터보
미오
매드
불능
프론
마인드
카리
스폰서
페스
목걸이
{{{#
어벤
부스트
##은색
김유
155
서열
레이어
완화
겸하
지혜
용산
Cr
파운드
변장
##ung
참사
평론가
엄연히
줄기
유니버스
날아다니
이라도
내버리
물어
멍청
OVA
사우스
김승
수천
울트라맨
답답
아드
명명
나나
문양
하나하나
보편
개명
122
Qu
우타
서류
트윗
납득
상금
미러
초청
워프
##항공
배구
구로
모델링
씨앗
외국어
평상
##테일
미르
Station
181
까마
레인지
프로그래
제리
##업자
압권
TVA
뚜렷
이노
감자
치안
열혈
가설
144
정문
중구
난무
친척
진동
취재
닥치
엘레
집계
중원
엘리자베스
에미
박수
##소년
본능
수위
LO
발키리
도마
향후
##ww
절친
고사
좌익
이케
KOF
재앙
철갑
마케팅
서명
자산
리나
주석
츠바
헷갈리
성명
오죽
녹화
우연
고등학생
##끼리
##시피
도심
##iver
케이크
애칭
무늬
초능력
소생
작정
비우
어나더
at
패자
행진
서방
강민
매트
지로
국토
트래
카지
사연
사직
덤비
시조
##DD
곤충
신하
테스
##마르
어이없
152
서울대
일렉
아리아
시어
드래곤볼
용암
유아
골프
가이드
love
결의
로프
타츠
아마추어
경부
실용
액체
학대
실사
##폭탄
##ens
경사
국방부
정성
산소
발발
멋대로
자사
쿠니
표적
##리칸
전지
as
워터
편리
벙커
트릴
좌측
유엔
카레
##ost
스카우트
아스트
민간인
도색
##이동
##어트
TR
자칭
##드러지
카네
다케
자아
침몰
114
엄밀히
워즈
사투
주머니
마음대로
##워즈
##ence
일컫
1930
라이즈
거지
wiki
몰살
마하
이소
박성
만점
인성
미성
롤러
##려워하
IM
변명
##nt
의정부
이대
##이나
직책
때로
##마루
개교
초록색
망토
알아채
##변이
돌연변이
from
초점
항모
##드로
##ise
옥상
습니까
이이
각도
코토
각인
법사
##int
리본
##시스코
이진
기질
포크
모음
텍사스
플라스
이누
1920
개구리
원피스
템플
마모
아자
스컬
루리
179
방학
##이치로
만능
고의
유스
이념
정밀
달려들
!"
발급
일리
##AK
##베트
죄책
통째
등극
학급
풍기
Super
기스
브래
이원
포탈
매달리
에디션
적자
MG
Fr
격려
1940
이명박
BJ
can
이어서
##oy
##자치
로라
용자
##지능
인공지능
##하여
동성애
조항
방심
아담
생김
포병
슈퍼맨
미인
혼인
정신력
이빨
www
##ign
발탁
적절히
CM
##떨어지
선동
비키
오렌지
엉망
관직
종영
인벤
극한
연전
협동
##ans
스타트
177
북아
휩쓸
마찰
안동
대역
어설
##타운
남동생
들여
기소
죄책감
소비자
##과이
튜버
추후
네이션
리사
호러
##ug
포착
최순
Dream
헬멧
펌프
풍선
정반대
부러지
다거나
##바이트
장벽
##바야시
이태
쿠마
아케이드
공속
감당
덮치
124
은폐
이윤
##전차
블럭
억울
1967
금강
##야스
선로
너스
저서
유진
갱신
고가
원로
반경
127
다시금
USB
흘러가
마에
그해
아무튼
오른손
교역
협조
페어리
뛰어들
정점
도약
용이
ㄹ려
예의
오다
아사히
부동산
아쿠아
신곡
해운
this
시오
##IR
내기
유카
##나베
페르시아
스틱
1200
중국인
##코트
분홍
##vel
대차
쉴드
타치
450
잔혹
시타
고발
맞히
카운티
아이디
연동
왕족
기본기
사나
녹이
욕설
##철수
독립운동
ᆫ데다
##질랜드
컴백
ERA
##지사
##ode
군요
민감
뉴질랜드
출동
교도소
초과
필립
크래프트
누스
절벽
선원
바쿠
##uk
##VER
##젤레스
수신
에도
지역구
카마
게르
비단
호드
부채
시크릿
제사
수감
무도
후쿠오카
사방
프레스
베스
침착
사무라이
서리
Fl
발각
방침
스토어
덩어리
Pl
후유
회관
청춘
우마
대세
뺏기
로렌
물려받
팔라
카테
보강
Ver
스로
대피
##역사
마라
제의
CE
##생활
##나기
연이
그러면
피오
구형
급격히
키미
아랫
게끔
EC
종전
철도역
진에어
디스플레이
EXP
연소
카리스마
재즈
##공사
style
내외
애완
함장
측근
얽히
##민주당
발전소
방사능
도르
##헤이
스쿼
코스프레
애인
실존
선포
아울
레나
사와
유재석
히카
##ier
신한
궁합
마야
퇴치
반성
판도
가마
강대
가위
현자
카쿠
리바
격렬
하이드
기법
분자
워리어
가오
Sch
예방
잔류
나인
##페이스
김구
Girl
당국
Season
두드러지
사물
인문
미아
1962
##ash
징계
IP
오퍼
러쉬
ㄴ가
박자
문신
왕가
##속기
ar
자이언트
근로
La
모빌
이놈
코노
DM
모욕
전담
약혼
화기
강타
NO
반역
162
이카
흡혈귀
유동
이단
정조
흑마
tr
사치
중견
118
종로
흥분
친애
화석
WC
시종
점심
쿠바
퀴즈
불러오
고립
제주도
벗기
패트
노아
기동력
##믹스
그루
분배
##reat
1966
##IX
아처
유우키
잠기
브론
돌려주
이용자
피자
명나라
위쪽
부가
헬리
카피
레이싱
로스트
단백
황당
##ib
타이어
박진
경성
계곡
왕후
벌써
이행
314
##돌프
자존심
학술
생김새
##치아
제노
스나이퍼
한하
탈환
태생
##usic
월간
저글
Max
##사랑
##보기
중소
피지컬
##크리
남동
##탐정
관문
우두
실적
##시고
망설
모나
한양
750
##방울
1964
토우
##틀리
건지
금요일
노랗
대검
고인
입시
그간
능가
안무
적시타
불길
##리얼
Vol
TS
뱅가드
##수리
숙소
##마리
라미
소서
유고
DNA
그쪽
여태
정전
토트넘
내셔널
얼티
급속
스파이더맨
Ed
아오이
천상
##}}
--
궁전
시범
중재
요격
호리
##ose
ld
할로윈
통솔
레아
모종
성사
코파
스피어
대학생
중도
나이프
사슬
탈취
진술
갈라지
스타즈
AV
존슨
부끄럽
에메
직위
섬기
한꺼
한꺼번에
까마귀
소소
입원
두려워하
괴인
과시
치이
나이츠
황태
amp
욕망
계절
불참
##서스
청하
Col
거세
혼합
##시대
##부키
야당
##te
so
생태
기껏
아비
오만
학년도
항공사
GM
비자
저글링
점멸
HE
건너가
질환
##사르
미정
극심
다녀
##ail
##msys
페르소
##ition
ldmsys
원판
간판
머스
그란
스탈린
천국
충청북도
스탭
일지
히드라
이별
우지
도대
테르
필사
얼리
과금
시시
마기
rd
Night
각국
##닐라
##티노
욕심
##구니
BC
차장
마르코
테리
상냥
강인
나들
not
조립
레버
샘플
시안
회로
##우라
##키스
##당초
앨런
미녀
헤라
나들목
리버스
##워프
달려오
##IL
이사장
지루
김주
단자
스매
승패
지지율
요코하마
암컷
인텔
공국
##당기
##히토
##무지
##러브
##ild
하여금
168
김치
일일
김광
페르소나
오토바이
Let
수소
알렉산드
지크
물약
도미
스윙
마쓰
병행
희생자
디아블로
오사
키요
학회
고이
하지
피난
단백질
상부
난민
스크롤
##ody
돌려
바텀
만렙
테니스
등재
목욕
사탕
빙결
Black
들르
어원
펑크
159
##바리
일환
코끼리
밀리언
신작
무녀
이승만
##세지
##파이
도배
퍼펙트
BD
평택
##클린
무신
춤추
말레이시아
칼라
라인하르트
부처
아마존
미노
일어
내밀
리자
인쇄
여주인
보로
해변
##진호
해역
아리스
오즈
파고
아인
신생
화신
금발
부친
환생
둥지
마도카
대니
가해
직행
1948
mar
##ough
응답
해전
발사기
아메리칸
국기
아무렇
진흥
엉덩이
AF
MM
챔스
절단
1944
미소녀
세례
도대체
모의
무능
1965
성벽
OG
부제
히사
##33
삼키
##모습
간지
명장
두껍
맛보
쿠르
유머
중공
프롤
일조
##앤젤레스
로스앤젤레스
##레아
퓨전
스텔스
섬멸
노부나가
석사
충남
방언
##스카
프랑크
회계
불상
스쿼드
노릇
##멘터리
아카네
아포
주저
RE
섭취
아슬
울음
와이번스
수중
식스
수아
아유
약체
필라
4000
눈앞
토라
Op
##gr
데몬
일명
대국
안토니
스네
카일
스케이
좌파
전임
빅토리아
사임
동상
집필
고래
객관
출석
##aster
ㅔ요
접수
##스크림
빌보드
공교
외야수
##app
마을버스
그리스도
메디
##orts
##타리
평상시
목포
확립
비평
인피니티
이나마
선회
사이토
대안
##성군
그리핀
대승
연세대
두루
유메
##uc
보살
쿄코
꺼지
베이비
사천
교향
드워프
애용
혼혈
1946
걸어가
##고속도로
십자군
아수
신관
##은이
워드
아니하
공동체
성지
이계
##시티
주공
PK
에코
다큐멘터리
주입
##렉터
루미
장본
해고
알렉산더
무자
서울시
최상급
보우
컨디션
그랑프리
동북
위시
휴게
스카웃
김대중
이무
##CE
##와라
주파
제발
스기
대면
##ject
en
편의점
껍질
스타워즈
평판
교대
이니
##OO
EXT
탄소
##티니
침해
..?
블라디
득표율
가령
##ari
단련
폭로
math
믿음
카게
비로
자력
컴뱃
전도
방안
면제
수컷
사지
퍼시
##긋나
민폐
집사
le
휴대폰
AL
흑막
테이프
CR
독백
정답
아쉬움
크롬
라비
솔저
히로시마
정서
숙청
소마
섬광
아르바이트
EZ
두려움
리프트
막부
스모
벨라
뻔하
성대
##프란
리부
##각형
와타나베
구호
달콤
원한
큐어
경제학
항성
원자력
감성
##iel
##트론
##그라
떠돌
우미
둥글
프랭크
단서
강동
냉장
지각
남학생
공명
##퍼니
관광객
##디스
홈경기
151
찬양
보복
유즈
격퇴
138
타우
Gu
하와
신념
신조
으려면
SA
##미르
던지라
가해자
배리
장본인
티저
광복
남양
개업
사르
케리
320
하도
172
GSL
눈동자
은메달
로비
적이
##애나
점하
타카하시
샤를
권하
정우
휴먼
벡터
수성
##오피스
상시
무지개
남한
가이아
##TA
조수
김병
천주교
ATK
살아오
##ats
순천
##도전
##ye
지면
의의
강아지
어벤져
단역
보직
우기
EU
##eah
##바람
아폴
불화
동아시아
개막전
자루
주한
315
시네마
1961
##총장
컬렉션
##부인
풍경
GD
서바이벌
일각
천지
걸음
배후
##중간
얼티밋
투고
##운수
고난
트이
TOP
테레
Mag
오공
158
균열
##다드
동사
어기
대교
찔리
바닷
내정
그리하여
라이드
CL
표기법
상원
재질
도스
탁월
다녀오
깃털
흑역사
카사
손잡이
가왕
악행
캡슐
무한도전
통보
스칼
로크
마미
스톡
##이센
시련
추모
로맨스
AB
민병
NT
물리학
ver
리믹스
수확
치고
흉내
스파크
동메달
카이저
내면
숭배
일산
루마니아
UC
매그
여수
##oh
##eth
이순신
충고
표식
##ron
박스오피스
소꿉
이세
쿠사
슬라이드
동이
제대
독보
##성이
결과물
병살
금고
##ings
아이즈
주차장
이호
김일성
유마
구제
##내리
청사
##메리카
사범
신상
제인
어판
쿠리
그레이드
건립
레이지
176
공로
컴퍼니
도요
방정
크라운
다저스
##맥스
삽질
will
간파
운반
지미
Is
ME
재수
예고편
수라
보가
직무
##느님
병과
계략
으리
저항력
테란
호응
발톱
타리
##inal
궁수
군데
심정
##==
126
김윤
마수
차림
신임
1949
오로치
정의당
주의자
Am
과격
대명
완벽히
하느님
자작
기온
폴아웃
승려
상어
친일
우두머리
이점
10000
리볼
어그
보루
몸매
Don
테오
문법
감금
서원
타스
갈기
##ult
유라
겨루
인플
크로우
라이트닝
무선
마지
바이킹
응급
코로나
154
사망자
like
레시피
LE
패왕
세르비아
총사
쫓기
흉악
WH
방울
스치
맷집
{{{-
KB
뒤쪽
풀려나
Time
132
##총리
##MAN
주황
전법
총선거
법안
유해
드루이드
무비
자카
도사
웨폰
거꾸
김성근
표하
습하
##클리
레슬링
센트럴
아테나
new
##덕션
성폭
강서
성직자
멸종
##13
응시
##저래
##빨리
지배자
빗나가
이즈미
강습
천체
니트
저승
이래저래
반기
218
완성도
코프
이용객
테크닉
이리저리
르노
Mi
피드
##슬링
장신구
##GA
떨구
로열
코디
국민당
난리
##ov
취지
ㅂ니다
##oul
스콜
급식
충격파
트론
##18
상의
라이징
손목
선봉
리츠
##조합
엠블
이영호
안젤
탐구
유신
쥬얼
키노
당나라
노비
짝사랑
더미
지터
노라
##ob
ᆯ래
제너
##라이나
핑계
보트
태조
전염
무슬
리우스
야망
미남
##나르
과언
블랙홀
유능
후반전
어드밴
고조
##ould
이쿠
통틀어
156
##보우
마가
..!
iOS
무궁
Ser
##친구
one
마마
164
##alk
버거
진하
리리
##처럼
##tern
재벌
##yn
##레븐
카제
숙련도
139
나란히
배율
필두
렀다
##활약
놔두
유카리
##15
능하
몰려오
모에
시간대
미세
이인
##up
구청
153
매기
조던
네크로
하츠네
하우
교정
저격수
Gaming
먼지
플리
하나님
##레이크
##reak
반장
콜롬
감기
공격기
거꾸로
커플링
무슬림
양심
합법
초등학생
김두
나열
이광
##고사
##der
##able
GK
오키나
하드웨어
접전
##제스
ᆫ듯
리터
ᆫ가요
엉뚱
전두
청장
성숙
누이
후면
지성
상공
세미
##라이언스
##바스
최하
148
어제
디비전
가히
Car
맞먹
##ions
비즈
허브
신주
인천광역시
연달
##사고
진도
탄막
범하
실업
##엘라
스케줄
표창
동등
얼라이언스
Your
타키
셋째
오바
단의
벌금
주유
##문화
167
##널드
볼드
고우
김선
장시
냉장고
스마일
쟁이
대등
호스
맞대
203
동지
북서
봉하
달인
배열
지표
몰아넣
애드
쫓아내
로제
황혼
프로덕션
어긋나
애국
데미
SSR
창작물
##백과
##주의자
##PA
무색
사료
1958
브라우
가나
1941
음향
174
오역
주술사
야마모토
승급
영화배우
##ull
휴스턴
도모
공모
무죄
갈구
꾸리
사야카
##프란시스코
샌프란시스코
전례
라틴어
종말
여주인공
se
유타
타당
아수라
##시다
##재기
노하
동년
시끄럽
Min
설탕
법학
##전사
깨우
버블
번식
앞세우
무안
RO
##셉트
시뮬레이션
142
자키
##퀘어
통행
지지자
바이크
처녀
##상가
LTE
광범
레이븐
굳히
영등
##차리
문헌
사내
헤드샷
빈약
인명
##니코
염색
스페인어
쳐들어오
##타르
카인
주가
순간이동
##무네
163
혼동
런처
원화
과감
박탈
파이프
가라앉
한층
##기업
배상
수령
차일드
맹활약
토비
레인보우
득실
생각나
이오리
프로이센
##ube
##ECT
일련
러너
마스코트
꼴찌
1954
염두
우편
BGA
레바
리볼버
제자리
##아티아
졸업식
네스
크로아티아
강수
월요일
진로
드로
안보
##ll
전학
have
후쿠시마
사가
pr
태권
회견
맥락
제지
단식
찰나
황실
설마
out
레슨
절정
음력
오리온
밀레
수하
기관포
페미니즘
대목
연막
능숙
발현
대외
득표수
크리스토
장례식
상속
약칭
이만
카토
##ICE
##립트
##랄드
초상화
환호
카렌
단총
연고지
사소
NM
제프
복음
토론토
미트
##터스
##스티스
대군
파우
143
밀어붙이
137
##보라
대법원
공고
죄수
부호
##물리
앞면
##타니
당원
한강
무너
무너뜨리
소우
따내
너클
시흥
릴리스
방벽
공짜
쳐다보
##베르트
바나나
투사
창당
313
현직
노골
격하
혹평
Sum
무단
솔직히
망설이
평창
다지만
내뱉
한정판
##프라
소꿉친구
박종
사당
양국
빙의
북동
코레
차분
##바루
HS
외관
인체
ALL
플라스틱
오비
경찰청
가미
자포
테일즈
트러
두뇌
무식
CN
IV
추출
랜서
이력
##소수
1943
십자가
230
이준
앵커
전반기
알아차리
반란군
베어
오딘
아테네
뮤지션
태자
##대사
델타
북구
지요
순찰
맹독
키드
남미
난투
오케스트라
프로스트
기술력
플레임
개미
고질
우산
157
관계없이
해상도
##모어
강탈
극악
오쿠
숙주
133
##FL
슬슬
공자
기이
미시
브레스
거스르
갈리아
몰아내
코지
un
출제
146
팬티
##박이
129
극우
잔해
확고
구독자
##더슨
000000
폴리스
플레이버
1942
광범위
세키
별칭
지극
청룡
화약
##STER
비참
173
나카무라
카오루
BO
##트랙
워너
##결승
종사
설비
미쓰
진구
박명
발하
달래
치마
힌트
키즈
경선
채찍
리셋
리뉴
여장
기쁨
##천사
클리셰
원년
폐허
margin
실바
수영복
know
서치
카테고리
오디오
연안
멘붕
전수
해태
호출
##무게
텔레포트
몸무게
바티
후대
팀장
##MAX
끓이
set
##무이
방화
##DX
나락
생물학
청원
칠레
##날두
OF
통증
호날두
공천
공습
기행
136
Play
체스
생애
BT
사나이
팩션
ᆫ다거나
미하
테러리
파랑
바그
시초
##ica
정교회
CB
메테
##che
##소총
Of
서장
태종
##ock
히카루
라시
번갈
포니
##생기
얼터
As
la
개판
미모
##풀이
우크라
망상
크리스티
증기
##YP
제조사
메세지
빈번
저조
Red
##회장
럭키
Type
BM
하의
##제국
양대
##14
불문
섹스
ᆯ까요
##산역
오른팔
시에
애쓰
줄리
브루스
일러스트레이터
하비
잠그
심화
조력
클라우드
149
정준
바인
혼다
로지
라이센스
복도
캐슬
박영
우파
대패
친정
산탄총
##에몽
치바
##전설
교육청
유선
##스틴
때려잡
트랜스포
넓히
샤오
BA
포맷
오키나와
##ict
미끼
범주
##17
심야
134
1900
슬라임
1956
미숙
인터페이스
불쾌
미도리
맞물리
스트로
경지
해독
##지않
가의
야전
스나
TP
입국
냉동
가혹
지주
ᆫ단
목재
DI
라파
##ster
레슬러
신세계
진리
책상
공손
퍼센트
##ange
나사
##ater
대사관
EV
부흥
운항
가로막
거느리
깡패
진짜로
김천
##티넘
플래티넘
슈가
비꼬
왕관
High
태미
슬램
사일
오세
##ons
##권자
무수
구마
##메라
로그인
열세
심히
자부
파손
파괴력
트레이닝
제이슨
장갑차
pro
중후
##레슬링
분쇄
교양
스매시
초래
개개
무명
자켓
feat
진형
요우
입법
TE
원망
켄지
프로그래밍
NEW
펭귄
미들
섹시
수시로
외면
페이크
프로레슬링
슬러그
재림
찰리
축구단
##왜란
악곡
임진왜란
증인
##ple
열기
중급
랜스
싱어
경질
인트
방정식
퇴역
쇼트
사천왕
전두환
스바루
지난
시집
모어
주고
##교통
%.
뒷면
연말
##니스트
147
스팅
공과
골목
비로소
Light
웨일
##차례
아래쪽
패스트
앞뒤
미식
박해
호프
자회사
리플렉
퓨처
상대식
심상
AE
생선
안철수
##주군
##무늬
폐선
280
세일러
배우자
실로
##세서리
엄폐
최정
2500
소령
제우스
헐크
##카미
나뭇
하지메
저스티스
드리블
오프라인
MO
수용소
선인
##티지
GHz
철갑탄
세츠
착지
##지오
##텍스
직통
메구미
Gen
아랑
관절
222
차관
마켓
토막
##to
CO
의아
격리
테일러
##에트
히나타
보디
##구역
편견
##토랑
고추
##니즘
실천
##의회
레스토랑
가브리
굴러
따라잡
##나리
~"
더구나
보잉
강세
애쉬
클러
수상자
1939
수다
음색
불리우
##더기
김연
배속
브랜
##CC
개그맨
was
What
제단
소행
로브
꼼수
면접
템포
감행
레귤
프로세서
배신자
용의자
##산동
복용
Kor
거르
166
라든가
미호
립스
증권
고음
##고래
원종
##베리아
##컨드
연기력
1959
물어보
반론
도쿠가와
지문
##ics
1936
타고
프랜차
명탐정
세컨드
달라
동조
섬유
소설가
롤링
냉기
일삼
두목
##바다
##사관
신칸
준공
술집
탈당
하후
우물
재임
##ACK
화소
Heart
러닝
산화
##투아
레프
공영
Tw
종착
소노
스콧
조교
프랜차이즈
##les
케리건
내역
역학
LOVE
필터
웨인
oh
1955
GPU
삼촌
##레드
미스터리
##레이트
##ex
##사와
기피
병종
##BM
이아
트랜스포머
##데르
모함
골치
##어붙
어벤져스
퍼붓
체격
아이스크림
##모니
하카
투신
NHK
라임
##로프
AG
투성이
에그
반환
찌질
아이폰
성기
전광
위키백과
어린아이
Mr
파문
##니스탄
신칸센
책략
동문
루키
콘셉트
채취
토가
사모
기술자
Blo
동호
재활
둘러싸이
PL
하이브리
경보
속편
호무
영등포
참으로
이방
그제
물가
야마다
하이브리드
##lass
전열
가르침
시가
장학
##16
인구수
특훈
##테스
부도
냉각
응하
레귤러
자질
반군
FPS
틀어
MK
플루
##두리
깃들
##AND
부당
준결승
##무실
방호
장편
TO
스트리밍
쫓아가
최대치
봉기
좌표
방송인
주되
서민
마의
안드로
##아슬
아슬아슬
말년
Par
윈터
보행
정형
##전트
소사
메우
##nder
라구
##플러스
##규모
패드
인사이드
스크립트
로테이션
모던
1952
라바
상행
time
포식
뇌물
적립
수량
가와
닫히
악하
전반전
공존
범행
ll
330
되살리
내뿜
수도원
##교육
##더링
하반기
엣지
270
사슴
캔디
베일
카즈야
##ors
Fe
##볼루션
교통사고
얼어붙
패닉
노래방
도청
더하
도호
조그
##ME
접어들
##란트
표본
단과
죠죠
김도
LED
##단지
정계
카니
불가리아
경과
오타쿠
속력
유대인
몹시
서해
스텔라
담임
직속
중년
끝장
스윕
어미
카우
태극
순정
여배우
뚜껑
##드리히
버터
입양
에메랄드
매지
멋있
미수
발라드
교섭
테러리스트
함성
파키스탄
출고
소매
1947
GTA
파격
동로
원고
저거
춘천
#!
솜씨
##대기
헤일
225
르네
평안
모양새
Good
우체
두근
##콥터
전속
거품
박상
심문
방공
직격
상쇄
스퀘어
영동
짤리
곡선
우상
재빨리
저희
무고
발간
현존
세스
Per
유지비
적색
초코
현황
서두르
메이트
다이노스
프리드리히
사투리
핸드폰
쓰러트리
멜론
영남
로저
순교
자각
##려보
광대
배리어
호구
단말
자칫
이에
산악
하행
##글라스
오락실
스파이크
##수수
시가지
프랑스군
카를로스
마초
신흥
월등
그랜
벚꽃
다기
어워드
앤디
SL
am
##HT
마테
사탄
##파리
넉넉
성서
털어놓
석상
발렌타인
하시
신병
라프
레즈
적재
260
급히
마신
##eep
격전
우천
1800
래스터
유나
바닐라
요미우리
유니콘
미유키
하리
MSL
타이완
더욱이
선우
구절
부관
1919
리바운드
홀딩
##무기
갈라
본의
클레이
호투
실력자
브이
휩싸
IIDX
몰아붙이
고산
호박
새우
트렌
부사관
공약
추궁
중학생
보리
호르
불신
아홉
##ott
받치
원내
즉각
프로모
심연
질풍
비타
간호사
야만
기함
상용
차용
핸들
Kn
쳐내
ab
정정
상장
신정
일례
0900
유니온
군림
남작
소실
징크스
Li
로스터
ㅓㅆ었
눈빛
꿰뚫
시부
증발
카이사르
부류
선형
유방
운석
장원
##메다
이례
EBS
단정
고분
적성
다중
카탈
wid
유정
포워드
프로토타입
Wii
클라이
##수아
##문트
츤데레
에바
타고나
도시락
최우수
소리치
This
프롤로그
드레드
근력
##메스
안성
ㅏ야
브레인
호그
훈훈
미로
여관
미티
설화
성비
ᆯ지라도
하와이
악령
조준경
##산물
축적
저러
픽셀
길거리
##IV
헬리콥터
구타
##자동
양보
유무
지름
유승
회귀
더라면
Baby
##25
본가
소규모
##IK
페인
라던가
망원
후루
남서
##anna
격투기
허위
기관차
##두사
##파크
자본주의
프린스
교훈
트러블
실정
제보
페르난
전산
농사
켈리
정재
진수
카디
습관
HARD
Sm
바오
불평
신수
일레븐
ONE
스토커
탄탄
동요
충북
서정
유코
빈틈
히데요시
루터
킹덤
1953
대중교통
에필
에필로그
레이트
서태
하라
자문
게임즈
밀집
대진
샤워
중성
##포드
##델피아
필라델피아
GN
민정
##넘기
1938
심리학
##other
총괄
관념
리키
원작자
Rock
송출
격침
첫날
##행위
169
프렌즈
us
단속
줄어드
회화
##19
박용
청산
석방
##바키아
미팅
책정
독서
리부트
550
야외
우가
만료
만루
자격증
##앙스
총회
장풍
width
고토
양측
파벌
수수료
말미
수평
##icro
Live
밀어주
##케인
루루
고든
수복
요시다
일품
김원
호세
생산량
병장
노트북
Ac
특이점
온몸
뉘앙스
술탄
보증
죄송
##ins
황태자
여권
히카리
멀리서
유유
리우
클립
##토르
할리우드
##oss
미니언
##ru
DB
희대
결사
연금술사
플로리
동래
킬로
라나
그리드
대마
에일리
무르
좁히
미라이
결함
페이커
여당
가창
##하이
왕좌
독수리
장동
리조
완구
교내
의석
혜성
##플렉스
##받침
하부
협약
성수
요하
윌슨
자니
쇠퇴
나고
cc
살피
교시
유배
크롤
은혜
후안
구두
홈즈
OK
연의
캐스트
##gain
##ction
Blue
브릿
정체불명
경쟁자
잊어버리
Dark
누명
버릇
##EL
재위
1957
배송
도라에몽
사안
제작비
고성
체형
KTX
원활
가축
니카
갈아타
초교
프랭
##리케이션
우루과이
아르카
오리진
무사시
저술
라오
메모
서대
##0000
펠리
##킨스
머릿
전세
""
자크
보구
방과
게시물
토마토
셰프
편안
진행자
천마
강팀
주거
로컬
Champ
말소
자발
환수
더비
말아먹
소비에트
예배
속박
수강
특허
마차
포대
으리라
격기
원흉
경순
##na
발차기
분기점
RC
편찬
빠뜨리
Im
주파수
실루
유비트
분장
Sun
첨단
##ood
쫓아오
##agon
브론즈
오시
##UT
진군
진정하
##자재
트로이
게릴라
##버드
탯이
넥서스
타다
바이올린
++
##어쓰
친목
OCG
모친
닉스
돌아보
Can
직결
일일이
장제스
스케이팅
포럼
리액
아까
Bat
해적단
깨알
선곡
라트
수녀
MHz
back
타카시
소시
환사
텍스
자손
슬퍼
니나
요리사
북극
##ky
연루
코즈
##페르
DR
유영
205
거니
##토리얼
쓸데없이
재무
센티
매달
찢어지
경감
미성년
용감
통수
##지부
키트
기획사
본성
정동
튜토리얼
커트
이창
주고받
##통수
달라붙
유로파
na
박재
미즈키
열악
열람
무제한
기성
##코스
디렉터
불어
수식
데스티니
Summer
대출
금색
##놀이
RP
단선
권능
모범
니코니코
##일으키
요시노
##ty
불러일으키
플레어
김명
##irst
분홍색
야마구치
넘사
넘사벽
매수
오클
명곡
##DS
민영
상가
야심
농촌
당주
살상
연하
브레이브
빅토르
##기지
산책
자판
저것
도검
##ady
목동
양키스
야시
##land
Korea
##무소
밀치
흠좀
흠좀무
대대로
Music
탄도
원천
헌신
##소스
제스
피치
중추
항아리
창세
페니
동족
하워드
##박히
스파르타
비시
그래프
서초
아울러
남발
자처
엘리스
##코프
레이첼
레이너
##저드
휴게소
함재기
발광
소극
BEMAN
루이지
타나카
##균관
병합
급기
줄줄
1914
행렬
어느새
라드
개칭
노동당
토이
계란
프리즘
도마뱀
귀하
무진
안산
합하
카타르
기괴
슈터
필연
빼내
험하
베이스볼
강행
반대편
잠재력
합당
임원
##누르
BEMANI
장안
파산
악의
##현우
만행
화내
일렉트로
엿보
##OID
감전
토로
루팡
나레이션
Fire
##석민
무상
다이스케
설상가
리턴
윌리엄스
프로모션
설상가상
제휴
##스트림
피에르
금호
##마당
##현진
ㄹ라
인어
성모
재난
OB
피에
##세포
now
쪼개
학점
교관
김형
댄서
성균관
밀란
##커녕
유난
650
야기
하원
살인마
음악가
힐링
정벌
펜듈
펜듈럼
창업
글리
조직원
211
손톱
실습
주심
##곡동
목적지
마운트
화합
대각
문고
북방
입체
복면
위탁
이질
##리히
아타
총격
후궁
##프스
슬퍼하
악어
차선
포토
광속
지온
##ium
청동
호기심
달걀
여정
평원
휩싸이
미스트
정립
폭동
늦추
쐐기
농락
세션
##테이너
귀중
듀크
후예
치사
GG
시코
점사
Life
CA
뒤통수
서독
미끄
진나라
##혁명
계열사
가성
육지
사다
3164
##즈카
##ush
냉전
배기
해수
STR
고령
재판소
##메어
블래
양호
문어
반항
소동
한발
실명
실무
##로니
##기사
박찬
성도
퓨리
Ma
분화
피카츄
스냅
##ount
어설프
가급
모닝
스캔들
드릴
까닭
But
숙이
리엘
세탁
염려
별점
1951
세레
동탁
호노
Just
똑똑
어퍼
##크리트
로저스
풍속
증가량
204
로코
자수
총재
한탄
돌이
진성
투니
월급
내륙
동체
준하
대상자
쓸어버리
네이트
스킵
진료
##리우스
선제골
##따르
불로
선대
DX
##CH
나이트메어
고속도
지극히
창시
네코
대공포
사로잡히
시몬
플로리다
선방
Ste
##때로
끌어내
우아
이복
day
마요
캐리어
##노스케
향기
##년기
한숨
Sy
##ger
프로리그
박경
사면
##퍼런스
FFF
하타
##르기
pt
감히
남극
몬테
개개인
야드
Dance
##주리
에스파
강연
사찰
마운드
박명수
스완
일본식
개연
공익
노블
해임
행방불명
끼어들
츠바사
출근
파장
할당
##저것
이것저것
현상금
FB
상표
한도
발칸
Gold
여친
석탄
홍성
CON
지상파
실루엣
국산
호로
Grand
주황색
네놈
적료
스퍼
이노우
솔리
피츠
연회
테루
##그룹
지휘자
Pre
오의
회고
저상
Ev
민법
기복
음주
페루
##티콘
1600
나폴리
신대
광전사
VOC
구단주
효소
##레스트
암울
##ne
##블릿
##ally
##줌마
HK
##일라
아프가
채집
##ution
서지
이속
망가
바니
시간표
LCK
따라다니
예언자
성체
슬로우
##미스
대주
아르메
기타리스트
##준표
괴상
괴력
아줌마
차후
콘티
난감
슬리
영진
지중
화자
##pr
번트
일식
대표작
피고
관동
스네이크
가브리엘
##징어
매너
전교
접점
구급
파수
파업
열등
바비
수락
캐롤
##보그
반짝이
get
통신사
세일
부여받
카이토
사우루스
화나
##마침
논하
##클럽
다짐
아델
외롭
내걸
매스
##미즈
아부
정세
TW
Over
대본
##얼거리
목요일
케이지
군복
코다
이변
콘크리트
꽂히
내수
부평
교직
투하
램프
1937
카르마
##사이드
리마
##ator
ARM
추기
포효
호쿠
경찰관
정확도
아틀레
신축
정자
딸기
때마침
beat
##장난
해치우
출루율
미사키
출연진
소피아
전리
박치기
러셀
합창
일어서
한스
아이유
매출액
무궁화
UF
변질
##체스
금화
외래
차종
일진
##베르토
홍진호
DJMAX
서인
행정부
예지
선구
회오리
각기
##air
연발
자진
트리스
클레어
뷰티
Sec
코바야시
비장
어리석
남아프리카
퇴출
tvN
픽업
대부
챌린저
처절
크루즈
대쉬
일절
최영
##르드
##네이터
개인전
베네치아
백신
코카
세세
파인
##나드
카밀
출중
##토시
여진
아카리
교향곡
ᆫ들
아프가니스탄
그려
BBC
부과
동창
Out
지침
따돌리
아제
조영
커비
영리
사극
접근성
고릴라
느니
한성
마누
태수
##아라
신원
우습
만세
광부
##inc
간선
점거
상류
스릴
헤매
간략
회심
경매
뽐내
경희
딱딱
수험
코요
검은색
리에
이은
##장이
콜드
##축구
##포스
영조
완수
고요
부대원
스피커
파파
컨트롤러
##츠카
풍자
달빛
상체
리티
양주
El
Dis
but
책임자
Win
전년
미판
케이트
사이보그
##꿈치
강판
사스케
유난히
##동원
상하이
수요일
저렇게
VOCAL
조형
군함
베이더
총열
빅뱅
은밀
리브
캐서
##...
뒤덮
이용해
용맹
천공
후문
계좌
콜롬비아
다비
##휴일
총사령
연구실
소수자
##바시
##ART
백색
촉진
천둥
카구라
미술관
UI
소감
잔디
##use
평민
바우
고속버스
전류
sc
케로
정크
6000
##수스
런닝
##테이
못지않
미코토
자신감
Mon
예명
##베이스
혹사
노려보
기밀
웨어
HG
워낙에
제다이
김두한
영장
성형
안면
##ring
민원
앙리
중견수
판권
##XT
리베
페이트
man
조제
차남
퍼부
비즈니스
~~
매칭
##LS
이야말로
레이나
Af
역과
조류
오인
퓨어
이동하
권고
레몬
장기간
카가미
힘쓰
Power
막아
임관
태블릿
라자
샤프
학계
다툼
대문
타니
함포
사출
##여지
##ina
튜닝
##대교
Res
철회
매개
정렬
스님
##관총
집결
우체국
내야수
정거
##히트
소절
형편없
망령
380
퀄컴
매진
발전기
기합
오피스
At
호전
섀도
리전
무효화
##소문
체리
건전
OPS
도피
베인
}}}
바주
피스트
혈액형
지자
퇴사
경쟁력
여덟
노엘
256
솔라
입술
키무라
추첨
나고야
직구
SCP
캐서린
NG
욕구
웨이트
유서
전전
이성계
조달
제라
Fem
강성
금성
국사
##범죄
당첨
저리
베니
자취
동갑
때때로
카지노
공휴일
동참
속공
와이어
농협
섬세
아카이
존속
볼륨
지그
타치바나
어쌔
총탄
김영삼
어쌔신
증후
##ittle
무빙
코시
영미
타국
글래
적발
sm
빌라
에밀
경량
##아르
ㄹ려고
##카스
김택
유포
Fi
서사
MR
옵티
레기
오징어
직역
제르
색채
성역
아르메니아
MX
초고
##라이어
악용
##심장
채소
여사
명대사
궤적
가호
방어선
집중력
##베르크
내구력
애시
공성전
건재
부추
화가
허공
가급적
대인배
Sing
카노
조력자
낙인
거제
본국
1910
FL
등교
##부시
##하하
##숨에
단숨에
마에다
장병
도메
저널
페더
##ERO
츠나
SG
카즈마
코이
##de
노기
페가
가솔
패미
광탈
넥슨
타나
##be
피드백
gr
궁지
레닌
횡단
고안
랩터
젊은이
러시아어
허구
부식
에밀리
##ello
갈래
베토
괴리
이우
공방전
리트
재고
정거장
사육
MT
가명
태세
##reen
SV
쿠루
서진
##ual
피라미
김정은
창의
피처
승천
IG
적진
족장
생산력
견인
세조
예장
##대부
근성
로사
무전
증세
튀기
포지
##라비아
막바지
기미
복싱
절규
##코어
정명
줄거리
돌격소총
통용
군사력
소용돌이
노이즈
휴전
주재
MLB
##바퀴
동인지
데우스
Pv
모방
꺾이
디펜스
Rem
라지만
돌아서
맥도
바실
건축물
서킷
표방
에우
카오리
Ep
가뜩
친선
추적자
역병
##ational
##프레스
원격
999
연예계
군기
대파
돌려보내
어인
수군
##riend
발상
##af
아이작
히토미
##ars
파이브
##bs
신주쿠
하임
설계도
루카스
결장
소진
출몰
Vo
두부
깊숙
카에
둘러보
##IE
가뜩이나
초당
카바
슈퍼스타
베드
정은
홍준표
양파
##해군
스타팅
발악
이선
급기야
##ivers
주방
##퇴근
수비진
증후군
노드
네모
테이크
폭포
흐리
자유자재
길들이
인벤토리
조폭
VOCALOID
모호
양현
IDOL
아폴로
그려지
리쿠
악랄
초선
오로라
럼블
판서
타시
뒤이
포트리스
박격
고양시
Leg
King
수원시
상임
블래스트
##에이터
애교
중전차
고원
김희
연호
풋볼
##지리
베가
부럽
##리에
##회의
미야자키
마이어
병단
깽판
실황
HT
핵무기
##클레스
스위트
YOU
BF
강변
자유주의
벽돌
just
시스터
히노
이치고
무림
아몬
태그팀
에이전트
제시카
상회
엄지
##외선
물들
표출
세나
쏠쏠
징징
분경
응원가
코타로
추기경
억압
##SS
일자리
School
신시
왠만
지령
##MC
운운
Miss
선도
김창
CEO
키사
랜턴
1935
팔찌
##atic
간행
##질기
인맥
UFC
진가
Rec
GR
대제
삼거리
끈질기
##일본
바루
##니클
##토미
유토
what
배분
사사키
수고
옥타
고베
경유지
???
벅스
스티커
극소수
뒷받침
밀접
재사
1918
치명상
##ern
소피
티베트
마르크스
다단
자바
포고
##itch
블루스
코스타
조지아
당분
알고리
데카
이노우에
##ts
장타율
빨강
##스톤
STER
별자리
1934
운동가
반갑
레스터
Che
리플
허리케인
쿠파
창병
131
아이언맨
되살아나
본디
스타크
ADV
'''
기마
일보
국력
손아
임상
아의
##연합
##사전
여고생
플래닛
어드밴스
평면
게임기
천도
하르
##셔츠
고폭탄
##카즈
End
퍼시픽
프론트
방금
유하
자주포
천적
##날드
로만
시중
VR
##rain
Ge
Di
피겨
쿠시
##스트로
##그레
##큘라
위나라
이가
함경
도리어
독성
인내
어우
Air
쇼군
단골
##tr
마이너스
편대
세간
불러들이
##서야
##투르
방황
과부
군산
##루살
새로이
대명사
무성
입성
고어
##루살렘
넓이
노조미
도도
명령어
성문
알고리즘
헬스
##oot
Mod
줄곧
한심
마사키
올라서
강유
글러브
##노미야
군벌
메라
if
사부
전편
여도
마이트
종일
야쿠자
그리스어
교주
단조
##칼리
걸작
인프라
토네
멀쩡히
뒤집히
이과
자민
표명
예술가
실험실
바흐
안나
경신
정인
##재판
무언
흡연
교란
남구
##어먹
##의사
초사
드라큘라
서드
취직
위즈
포털
마커
##ren
굴복
에일리언
정유
이화
피리
박주
착수
남용
관악
시립
우크
송도
##슬러
솔로몬
col
담당자
요건
광신
욕하
##같이
체질
금전
작별
단절
타케시
샤크
첨가
비토
악장
##UE
상반기
EMP
아이리스
우크라이나
지망
##려드
카스미
##55
예비군
부풀
집정
예루살렘
해운대
여의도
저격총
PVP
직관
천계
왕궁
콘테
시드니
레지스
관제
이치로
학번
##UR
옵티머스
원호
휴일
성추
제후
##데아
초원
광석
로딩
추이
토오루
미성년자
메스
만류
다이나
##rist
night
매사
비늘
주범
사교
손녀
진흙
킹스
타노스
도미니
##ony
디디
청색
##ma
카린
##무스
Sound
토착
사쿠라이
POP
##쿠로
오디
느냐는
애틀
Hy
염소
지기
키워드
회복력
총대
화요일
##린스
##중국
양도
제식
뛰쳐
##사우
문과
정중
연희
광저우
##레오
메꾸
불멸
컨테이너
하세
백합
무작정
김전
부치
##세데스
메르세데스
##iew
쿠노
요동
고독
괴담
아역
프런트
거주지
DO
유소년
출퇴근
군중
상수
블라디미르
진작
연구자
팔라딘
작아지
don
벼슬
##ope
해커
행태
좌익수
양면
유교
##데기
조운
##시계
MASTER
빼돌리
노숙
대칭
오너
현명
요르
성채
아산
모터스
바주카
애틀랜
잉크
##수엘라
법무부
발트
신디
인테르
민족주의
바이스
시한
에티
MD
고려대
EM
ㅋㅋ
나날
퍼스
징병
##ana
손바닥
유목
미끄러지
아야카
게리온
후유증
빌헬
배지
먹방
##atale
드라군
선비
##어찌
과실
카무이
제멋
교육부
조장
커리
##던트
데이비스
프레데
스코프
골리
하야토
굳어지
Femme
##oon
베토벤
청량
로망
사업자
콜로니
볼리
효력
그닥
기한
SO
Cat
사에
칼럼
시그마
way
황족
액셀
##패스
명작
이마트
농어
##ox
BAS
애프
의거
이안
빈사
어찌어찌
레이터
무어
##ield
대용
재팬
언행
마도사
라지
브라더
금기
들려오
일부분
득점자
경인
박준
사우디아
얼핏
##천동
bl
내려지
피어
학업
텔레콤
ㄴ다거나
섭외
가치관
애당초
##22
티코
베르크
파고들
다나카
베네수엘라
역설
##먹이
EA
미토
1100
##티어
매복
수산
##안군
소심
우시
펄스
##노이
쟁탈
##무장
1932
극찬
타협
##야샤
이누야샤
WE
생사
흑백
각색
경장
한몫
리노
성주
즐거
친밀
활주
##의정
##레미
비오
##olog
알프레
트림
1931
그놈
피라미드
광학
1933
XP
수준급
링컨
민국
알코
초토
해인
선체
택배
미지수
대잠
보답
총통
겉보기
폴더
친위대
사바
이윽
이윽고
증원
재혼
##언정
확연히
아루
패기
되돌아가
양념
창원시
아그
일쑤
브릿지
조율
중앙선
광주광역시
강적
##변속기
스루
##Fatale
전리품
조선일보
설레
FemmeFatale
대두
아멜
With
든가
반말
병살타
Hard
자연스레
Run
다던가
스테이트
효과음
빅터
외출
위화
카도
안토니오
다정
마모루
건의
미타
##징가
시력
참패
피곤
##돼지
XXX
자잘
쾌속
지중해
다인
김전일
마징가
부회장
두께
바하
추석
##니치
임용
복종
CT
가든
칭송
연비
##AA
후타
탈옥
낯설
번영
##쿠버
반다이
##블랜드
무찌
수작
미셸
성폭행
미디
토머스
340
부화
클리블랜드
Not
정장
겨누
중령
커브
전념
폭발물
유수
봉황
게리
이스터
App
가토
카가
직감
셜록
신이치
진공
가솔린
손흥
승기
안테
##elf
Rev
슈타인
가산
여건
##암동
입맛
추대
##ouse
도전자
RS
설득력
말장난
프랑켄
살라
소이
1928
##선거
제정신
캡콤
214
##사의
기병대
CCTV
식신
스폰지
동봉
송구
흑화
압살
RG
충주
환원
무찌르
도널드
토탈
호대
##레트
성공회
셀프
제이스
dis
후세
부츠
명인
채무
술법
##저트
예리
키퍼
난전
악세
Da
꼭두
바늘
치중
환각
체조
게재
손흥민
사용법
든든
무의
쓸모없
스크래
들이대
박격포
듀엣
외무
아지트
서문
송이
쇼핑몰
##75
VIP
가출
뾰족
장래
시동
##인드
쓸데없
의병
페로
기와
접시
안도
서식지
순진
육식
충성심
키리토
마포
경위
##투수
SHOW
좀처럼
피신
미라클
유감
##무니
##거진
재사용
##폴리스
재해
허세
협곡
반칙
스왑
분사
고장나
마작
삼각형
메테오
서면
광양
도호쿠
완전체
공채
위생
선발투수
아종
변종
##아아
아즈사
##득점
상권
선진국
진과
사우디아라비아
UM
트린
시궁
계보
육박
##로이
Elect
임창
하코
관습
안치
오스카
꾀하
마음껏
사각
서북
기만
물려주
윈스턴
시구
RAW
북유럽
어처
온화
아치
시위대
리포트
초식
##방향
빌미
혼종
##마사
##라이즈
불가사의
종자
폭사
co
##ORE
##언스
미츠루
Ke
141
She
학창
##컨대
310
대강
동국
체이
사마의
순조
호노카
체가
##러드
8000
만회
데이브
제비
모라
잠복
스플래시
##투표
격돌
결별
사위
작살
액세서리
저번
카세
##we
##ecial
가가
석궁
최전
홈구장
도르트
아다
마니
동물원
에리카
연주자
백미
조세
현행
제구
향수
입학식
늘어지
구자
철학자
사과문
패트릭
Get
낙원
버지
김혜
입당
협의회
사다리
존댓
존댓말
대여
앞쪽
발산
옐로
퍼뜨리
수법
정적
탄종
풀백
##조각
단테
대관
디에
##요환
틀어지
홍대
가물
본문
##asy
제이크
호스트
##ane
아벨
포르노
라거나
수렴
##66
승부차기
콜라보레이션
불사조
##케이
넘쳐
가네
샌디
평정
##its
DT
Ang
스크래치
애플리케이션
world
상정
블레이즈
사설
치아
걸어오
비석
임요환
##28
##슬로
##네트
김세
오미
수레
와우
정제
어처구니
비정
오리콘
시엘
##테리
무자비
1924
정류소
##미사
열풍
까먹
김인
왼팔
유죄
프레디
최면
##히사
white
ㄹ지
크로니클
당당히
듀티
엑소
480
스튜어트
대담
속삭
송병
설사
식별
학파
베라
소인
스몰
##짜기
기각
##먼드
순교자
차세대
강당
볼텍스
제이드
거물
분수
양동
##EX
재선
느냐고
촉구
안장
##ze
밸리
손수
SW
알루미
앞장
영분
침체
007
##용차
원동
가까스로
밀라노
박병
더스트
수배
0000
Cy
##치오
로드리
다이브
탐욕
한조
대전광역시
추산
프리즈
부합
시애
하드코어
아픔
틀림
영락
헤딩
되돌아오
선공
부추기
열받
대변인
니키
스칼렛
##무진
우익수
콘스탄티노
su
노브
##ness
##그라드
망원경
난동
베른
지아
720
주주
사이퍼
기총
착공
플랫폼
어비스
##링크
네메
전태
##포로
에덴
ᆫ다면서
Song
목성
##지대
흘러나오
Big
다이어트
Comm
시저
호조
발렌시아
국무총리
##24
비약
자위대
편제
합방
Back
선명
처단
##인간
클로즈
만두
애리
동포
##appy
주작
데이빗
도르트문트
420
팔꿈치
강남구
신민
정무
Arm
류현진
##틱스
안드레아
##매매
마더
##도니아
선교사
##즈마
시애틀
의미심장
디트로
디트로이트
서점
교구
바시
광화
검찰청
빌헬름
레트
유한
커먼
승계
품종
황자
삽화
화수
방대
망자
익스프레스
유쾌
##ny
출입구
화장품
격노
이산
동대문
코리
코이치
대한항공
오버로드
매거진
##제리
조선인
자라나
리젠
##벨트
항로
목표물
##ke
교감
보태
##평가
히로유키
특권
창출
Order
유명세
##제품
늘어놓
두텁
##RAM
##sc
##슬라비아
유고슬라비아
적정
##부대
1929
떠들
으라는
대각선
##모자
바바
1911
브란
빡빡
##드래
##제이
민병대
와이드
포화
역기
로마자
노이
후일담
알루미늄
대장군
Skill
##부리
리액션
카야
테크노
기라
젤다
스케치
미련
나우
단신
전복
꼭대기
서재
정현
프리스트
송파
휩쓸리
방랑
야하
마티
커넥
인디언
con
주군
>,
이따
##35
김준호
대머리
괴로
법령
KS
플러그
배척
벌칙
선천
유추
집정관
독재자
농부
서커스
##chor
스탠다드
웨일스
매입
주성
씁쓸
TB
나주
케네
##평군
리조트
태연
사이오
퇴근
안드로메다
첩보
##공격
클락
허영
오드
인즈
차출
UR
##러미
마고
겸임
발효
1925
시즈카
문의
아론
열전
Every
페인트
사토시
자택
과반
행선
좀비
##느니
타라
##버린
##let
박세
김정일
토네이도
세균
버금
노후
새해
수분
일직
졸개
토의
무협
정규군
연기자
##실히
당분간
오재
보유자
PSP
cl
투르
서경
윤종
분교
국정원
디테일
병영
입상
조회
##푸스
난폭
장단
경이
내년
모티
##UC
태고
##예프
양아치
##AG
##니트
운전자
짤방
석화
영화판
리히
That
가즈
##빠르
비행선
사상자
나나미
위조
알코올
어휘
속옷
총사령관
##각시
상대편
마늘
수반
왕녀
난해
1917
성추행
커터
구이
다라
느긋
성취
##자카
qu
##파니
208
해협
화랑
빡세
이에야스
활주로
간식
내려놓
동거
##눅스
단거리
##양군
지독
전염병
생리
치타
##패드
가차
비숍
추월
##작전
합산
##타자
##페스트
노랑
조비
심포
헌데
공병
괴도
크래
갈고리
상경
펜스
선발전
프랭클린
te
국수
온전히
지체
라운
춘추
마장
자석
TCG
인민군
신종
##자루
##비우스
시노부
샤아
복권
홍수
자부심
##마이
단말기
스펙트
개화
숙종
거슬리
켄타
##버거
212
마는
서부터
츠카사
리눅스
공직
에프
출세
역전승
해저
마그마
비욘
원산
##정역
##애미
세이부
##나가와
관광지
유행어
##bps
Des
올라타
마이애미
최진
이어인
동남아시아
교재
대적
이관
제멋대로
Har
##운전
##레인지
갑판
위임
##바위
##ert
교원
##리즘
콩고
초급
잔당
토요타
낭만
불운
##ious
##정동
볼프
나츠미
FX
등산
171
##ient
라이터
NL
Top
끊이
앞마당
왕따
게이밍
타쿠미
구세
튜너
항쟁
235
자아내
모건
요일
침식
##단체
올리버
체이스
판본
##net
연방군
슈타
채굴
능동
##모사
스펙터
GL
##렉트
파열
엇갈리
산지
영창
자의
개종
850
유체
Tri
누마
법조
심부
##위치
의리
##비히
EXH
##유산
크리스토퍼
야채
중얼거리
하얀
##노기
##ret
사절
255
이제동
1927
조슈
FR
농도
조인
##ideo
비올
후작
NS
..'
서스
##리아나
패거리
##라이터
다이너
악보
리오스
##라이언트
어중간
일선
직계
키메라
푸드
##르바
관대
근래
정진
마츠모토
가변
##튀기
플레이트
들려주
심플
영기
장녀
##니지
레이크
일찍이
백악
비대
법정동
클라이언트
마드
래스
뻥튀기
##pl
주임
RF
해밀
구치
푸른
알아듣
##호도
##둘기
##olution
떨어트리
신한은행
Amer
골대
헌병
공전
는군
중산
와일드카드
내심
미완
매트릭스
어로
햇빛
어지간히
바트
왕건
##토록
Em
용품
초동
206
스플릿
가메
카멜
투기
##주곡
트리오
연평
특출
유니버
이의
상고
이승엽
유세
애틀랜타
부메
나탈
자며
안중
PO
텐션
DEF
드레이크
인신
##IST
##자스
LCD
작렬
off
삿포로
모기
##나들
##co
경호원
##버릇
소량
##ERS
각본가
유민
버디
오아
인스
정직
##비언
리바이
면은
사역
성남시
##피어
알파벳
중공업
구애
벨벳
이지스
##러기
우로
주스
켄이치
##교도
333
거듭나
게르만
장학금
피크
Act
프라이즈
기통
진해
UFO
부메랑
요크
타지
프레드
원제
가쿠
정경
후려
드리프트
치부
데뷔작
209
두드리
앨리
이메
메아리
이신
카터
파드
청주시
##ful
엘런
##mania
ve
판도라
절묘
과다
한가
부딪치
290
Pe
지바
kn
기겁
LS
케르
메소
우메
줄줄이
꼭두각시
남원
##노프
자드
작물
무난히
튜브
KG
사비
코지마
##렉스
리투아
암석
여리
토템
##틀링
리투아니아
동선
소아
정종
소음기
##ner
뇌격
##ham
##고쿠
TD
버니
형법
##사우루스
특공대
팔레스
토와
주름
츠루
##캐슬
인기투표
Bar
Fre
215
받침
진전
고모
선풍
친근
##어들이
오바마
가창력
트레이서
데프
성녀
외야
단단히
세단
치밀
Ext
소중히
##조선
비틀즈
루즈
런닝맨
브로드
##럭스
AMD
시정
이민자
시궁창
가로지르
God
자연수
데일리
Str
1926
생계
통역
데스크
송곳
희미
나루호도
되려
레미
다이묘
뉴캐슬
항우
독립운동가
##곡리
동산
##ning
GDP
괴멸
부두
나가사키
브라우저
탈리
때우
Hot
팩토리
Bea
재상
뒤틀리
##미아
가중
##마츠
Ab
경관
##캐스트
##ERT
STAR
오마주
규명
RAM
anchor
덩크
위화감
김제
우투
어린애
음양
##ump
아우구
샤이닝
가세
##서리
클라우
나츠키
Char
항소
성종
전폭
자정
보전
고스란히
러블리
버금가
'-
케네디
다구
ᆯ지도
레고
##ward
##그러지
심심찮
마카오
Met
Rain
심슨
시발
점포
##day
Sil
소셜
초중
every
대의
서남
주시
중소기업
공시
마천
최성
헛소리
알맞
##ATION
위인
인장
데이즈
FN
금하
##여행
경상도
랄까
무심
탄수
오일
최적화
간장
동유럽
산호
##레즈
박민
투여
**
뮤즈
만화가
해결책
수리검
시르
영재
체류
이시다
want
노사
아이리
성령
앵글
로페
##상스
이목
재화
FE
이분
White
##88
비하인드
Inf
옥스
헤라클레스
랜디
찬사
최우선
신촌
1400
단다
헌납
yout
세무
팔레스타인
채권
셔츠
경의
미얀
인피니트
##하늘
기판
대리인
레비
로버
문호
##매니아
카자흐
제각
십상
##내기
바사
수료
유우야
이송
계승자
사생활
코나미
KD
로니
명품
북두
루드
충동
성동
바람직
선하
##겨지
군단장
수영장
안테나
세토
조승
현수
밀러
역관
평지
앤더슨
김태균
down
최재
긴장감
more
멸자
과잉
황무지
오덕
May
불분
##트니
버지니아
길목
오피
애리조
##대표
건너편
정연
포이
207
마케도니아
그물
키바
감속
스트레이트
이치카
Pop
빈스
울부
잔여
시세
한인
찾아다니
IDOLM
다이렉트
주부
도보
개틀링
권역
오퍼레이터
발령
로로
##살이
저스틴
여행자
근로자
Master
청문
장막
주권
내무
흑룡
##소통
배럴
터무니
대한제국
##대군
의류
휘둘
의사소통
하렘
ᄇ시다
##son
지자체
한결
창세기
하데스
편집자
영국인
##드래곤
투항
##뮤직
부녀
분과
##au
서울역
유부
##ANC
체로
PA
외교관
우사
자음
##oud
과하
농어촌
냐면서
병맛
머들
박기
심리전
##ves
익명
아르테
사단장
감도
나이지
단연
나이지리아
몸체
포유
##피탈
앞장서
Game
대입
숙명
초연
나기사
공석
카프
불분명
이범
이라든가
무언가
대도
랄프
멧돼지
지갑
##실록
노동조합
무법
여객철도
OR
사병
촛불
플라워
스펙트럼
나시
는데도
로자
충실히
수년
분전
수뇌
안식
161
경희대
미분
며느리
어머
they
끝판
감시자
##지물
1922
사카모토
##ift
송라이터
티탄
행동력
몰아치
뛰어다니
여대
란트
체급
보단
만화책
재빠르
리비아
엠파이어
##ship
즉석
전용기
명확히
서유럽
호타
전과
##ape
애프터
COM
너구리
동독
쿠미
##블랑
유시
제품군
성검
중심부
울부짖
Are
경시
한중
카에데
신령
##감치
GAM
그토록
기공
##원군
공적
오반
##찌감치
피고인
체르
치세
미하일
들통
경합
리언
1923
열렬
##레인저
지출
체내
세츠나
TN
쏠리
행각
WAR
기생충
국물
무로
절약
역전패
간편
민지
터리
1921
고갈
구만
기린
자재
##현동
TG
외래어
김택용
##lock
좌석버스
아란
불가피
카트라이더
반자동
차마
메커
산출
요양
몸집
트레인
Bu
맞춤
무네
Bra
조로
520
나데
후하
only
로미
##쩌둥
언론사
마오쩌둥
##ien
뿜어내
아노
마우
크러
##도사
시프트
익스트림
천문학
Yeah
명하
부설
아킬
버즈
젠지
경전철
##관계
마비노기
애덤
DA
아만
단번에
의약
ㅏ요
필기
##less
사시
준장
쿼드
비둘기
이장
##ize
스노
특색
news
학부모
소망
짓밟
체하
크림슨
##산면
개드
라데
말라
요지
폐하
도타
순순
##뿌리
##zy
음식점
루시퍼
니콜라
Cont
마취
##LD
완패
절감
##니케이션
메이크
솔리드
피니시
리시
헤더
성급
커뮤니케이션
오스틴
pl
티나
터미네이터
걸스
신공
하얀색
등용
프란츠
제네시스
##EE
##형제
탤런트
밴시
산산
예하
Hea
창간
서약
친화
케어
트레버
제명
인분
가야
레베
##45
월터
르네상스
항속
장대
활기
##마드
##led
유스케
##고루
##omb
일갈
강령
섹터
전투원
자치구
당근
아세
궁정
극동
포괄
##준호
붙여지
비범
콘테스트
일생
영화관
남아공
다마
설문
##마트
##렁이
구스타
급여
노스케
무패
붉은색
종로구
뒤바
운임
간첩
구비
급제
치키
독설
위태
독도
포진
단간
댈러스
##기어
출생지
재차
##ited
Project
교직원
##HD
##법인
그지
락스
온게임
팀킬
온게임넷
와타루
7000
세련
리포
민속
##문화재
노마
복부
은가
##소타
Joh
나지
회자
##조작
##ALL
Off
온전
자위
Battle
불허
헤지
이상민
TEC
응징
붕대
생포
힘겹
##람쥐
1912
척하
TF
세실
플라잉
불안감
선상
정선
멀린
이유로
스릴러
다트
메츠
우동
계약자
순순히
백지
##ita
승부조작
빼놓
유다
다이빙
눈부시
발자
배고
회유
이어폰
##준혁
JC
선별
Open
톡톡
##ORM
성유
반죽
원상
태후
##ton
DDR
~'
정국
협공
빵빵
성품
조나
##29
순차
천연가스
wiz
칸나
우와
아이슬
Sky
돌풍
지못
##장구
지못미
패미컴
Moon
나뭇잎
브룩
전투복
조니
브리핑
휘둘리
케미
번거
우이
##플러
......
221
##ENT
날아오르
BASIC
이석
스켈
연장전
노원
조부
관건
기염
알비
미네소타
##선스
일직선
777
얀데레
맞대결
good
##23
카르타
힌두
저력
타츠야
전라도
하늘색
레코
##27
##row
1300
아쉬워하
꼼짝
섭정
야자
외침
짤막
급진
미카엘
넵튠
소주
##개골
네타
카즈키
감염자
Like
다듬
남짓
##com
##위원
내려찍
체구
아이슬란드
무모
성원
마코
청취
라이선스
초회
수족
WCS
##그마
벌어들이
##ling
라든지
매도
소탕
희박
경비원
김현수
Special
라리
이도
화속
2022
순항
오모
음란
흉터
성가시
여느
갱단
졸지
##의지
비밀리
beatmania
니즘
방어전
##타기
네메시스
개드립
Bad
눈썹
소프
류지
탈탈
노프
샌드박스
아틀라스
도메인
재주
비서관
강호동
##교회
마자
톱니
누락
검거
특촬
관현
둔화
막말
이나즈마
낙하산
중사
음모론
루리웹
경영학
디에고
하천
TT
탈주
티셔츠
일정량
산체스
악인
업자
이북
릭스
통학
데이터베이스
Soul
합금
바이올렛
##일관
파병
##레타
백수
쪽지
치과
다이크
밝혀
추위
팽창
부상자
Med
코팅
사납
파나
는구나
세이지
##rop
미달
줄리아
프라이드
급상
주립
탈것
##카르
성범죄
착취
##즐리
원로원
사죄
임프
브래드
벤츠
타가
213
드래곤즈
##방식
거창
조개
반대쪽
##어내리
이천
이시카와
크레이지
막아서
지폐
##트리스
호라이
진행하
칠흑
흐트
##UB
박태
사하
서스펜
형벌
end
Po
##vent
마사무네
티타
Hey
over
정관
눕히
피쳐
환불
생방송
대지진
FBI
##산리
모치
픽처
이메일
일간
##line
##ute
Now
WOR
무당
반납
일파
조현
자기장
시빌
Dragon
성희
Bur
여하
조원
223
유노
##play
죄인
페트
명백히
our
사카이
철벽
##xt
275
아브
밀양
밸브
##메르
가주
드미
해프
햄버거
히코
전갈
어우러지
메커니즘
스탠딩
막스
부통령
baby
관용
자자
##가요
파괴자
정부군
선지
래쉬
##stem
001
밝혀내
니즈
#,
신봉
이바
##oney
세속
Eng
미유
에테르
장동민
넘쳐나
매점
피버
순례
이끌리
버퍼
치히로
대장장이
이로
베풀
fl
성운
반달
브라이
왕립
급습
원나라
구스
거머
부끄
1907
헬로
##방사기
화염방사기
하시모토
만장
민심
연성
팬클럽
##96
스탠스
수차례
폭군
구루
마호
일찌감치
자선
본드
액트
ac
신탁
옥수수
손책
영령
에로게
비행장
개관
아카기
Way
코브라
##소니
##규어
일개
올리브
##아내리
제너럴
민사
급증
강서구
결선
인승
종속
##두근
슬쩍
Alb
##FFF
노보
##IGHT
골리앗
##미츠
결단
외환
패권
수당
원어
타오르
일컬
##eng
설립자
써니
해프닝
수납
레그
##닥치
see
겸비
볼일
마리사
라이브러리
1905
관전
바빌
암기
펠트
황소
미처
카논
연대기
케니
테슬라
행군
##벅지
새신
디비
설교
포자
럭스
문성
승하
##lt
번번
수퍼
참모총장
라파엘
제국주의
갈아입
DAY
튀김
러시아군
골짜기
아득
빈센트
뒤쳐지
태백
슬라이딩
Int
송신
##나우
365
##라트
##린더
고하
Cent
린다
방관
엠마
조문
max
스스
악질
속사
미나토
Comp
증진
향년
현무
사드
벨리
초전
전령
티모
모리스
일괄
##파르
쓸쓸
희생양
Match
타케루
앤드류
부기
##툭튀
선글라스
##시즘
##홍철
골고루
##영향
수송선
모로코
료마
클로버
Ass
갑툭튀
거행
극성
코일
코로
216
대구광역시
최형
두개골
백두
지탱
##26
보급품
바깥쪽
변모
제드
##나시
블루투스
반주
총구
명장면
검출
데니스
고마
탄두
"'
미용
사생
거니와
물음
Yes
불거지
욕먹
초필
충무
템플러
명실
밴쿠버
본거지
자결
##탕스
##건설
370
레지스탕스
언락
왕성
구라
다량
ㄴ다던가
동아일보
마공
프리드
막론
파기
내리치
리더십
say
블랑
시베리아
NAS
최하위
폴라
서프
여명
행세
Fla
증강
사업가
레프트
right
알제리
이남
자판기
복식
메두사
변함
어부
재규어
격납
매지컬
이문
암흑기
재발
사주
푸른색
덕택
미공
수속
정대
서유
##독부
정주
토토
만년
코칭
kr
매매
양육
##열차
##세이더
크루세이더
경전차
텐더
해발
세레나
소란
한복
##ude
교제
##데라
##혀가
포상
메르시
자릿
##맹이
이달
전위
CIA
블레
잡혀가
##원지
##천리
장기전
Ook
##내셔널
부르크
인터내셔널
사파이어
좌완
드래그
거머쥐
광동
하버드
포레스트
PvP
잠식
##ata
레오나
베이커
SUP
##공주
에어컨
해지
아츠시
사서
스투
왕세
토사
하남
구실
##큐버스
케로로
오카다
수혜
시오리
공안
사력
아날
연화
폐위
선역
시연
Last
몽땅
잘생기
XY
에러
총애
호우
상승세
시종일관
짊어지
우즈베
거미줄
덤벼
동맹군
IF
보호자
날라
척추
밀가루
이터널
개찰
장담
화판
##고스
TWICE
후진
무안타
란다
결투장
##부르
누님
현질
바드
부전
처방
어지럽
##ius
북서쪽
쟁탈전
거유
래리
명왕
크로노스
헤븐
##스코
카메오
소름
양지
쿠퍼
명은
화질
자멸
급상승
아랍어
플레인
야구단
도입부
440
가신
정윤
공중전
막시
미약
나카노
##III
빅토리
##이프
##red
부적절
수뇌부
배반
유족
마운틴
난장
적기
세비
자치령
하반신
퍼트
기어이
간직
의존도
추상
순삭
##오피아
에티오피아
팰리스
이강
불발
Core
BRV
졸리
무소
부러
##ets
퇴임
자백
크리에이터
정보원
지도부
한국군
Mir
Show
##76
##ated
납품
시라이
보이드
there
스맥
좌상
발병
##매치
##ara
두각
왕정
철퇴
카트리
관세
츠바키
감찰
본뜨
석가
아이젠
배급사
돌기
최장
필승
예매
원반
국내외
스맥다운
쌍용
공민
비잔
혼나
Nor
네로
데스매치
1908
##페어
편도
조선소
원성
백룡
센트리
엎드리
##cl
사이먼
깜빡
임페
신약
피칭
장려
##가타
his
아리사
HOT
정몽
##부수
프론티어
무서
나트
우대
크리드
박차
슬러
소모품
떨리
MI
동하
수전
저축
횡령
승낙
또래
보름
시어터
악수
얌전
퇴마
바이퍼
##44
##테리어
보좌관
대북
견고
묵직
테츠야
판과
리비
적도
아레스
호화
특출나
pe
##천역
가넷
오보
micro
신격
자가
필적
잔재
바운드
##일기
슬로건
성단
솔루션
물류
엘소드
에노
모탈
위아
##ely
반려
수박
슬래시
연못
tw
승승
원자로
몰입
통근
노태우
##산군
무방비
Mark
문인
쿠도
투석
시녀
이를
컨퍼런스
##거스
저항군
신빙
폰트
전문학교
변속기
비운
오산
##테면
미얀마
노획
후지와라
얼룩
커맨더
If
##이즈미
이를테면
##UST
빈곤
소나무
제복
충공
근위
컬링
비열
다크니스
에어리어
각별
뜬공
Art
지명타자
Best
레니
First
##영수
##임수
이니셜
팝픈
혈관
팝픈뮤직
쿠폰
RPM
수제
허술
난쟁이
##디난
이탈리아어
스케이트
Sur
블리츠
서태지
got
남산
##KO
오클랜드
김소
뛰어내리
악영향
터프
삼국사기
호르몬
How
ᆫ답
##더스트
가늠
맨날
베아
그제서야
##다오
첨부
액수
재미없
크리스티안
who
시미즈
츠치
틈새
##스기
잠자
##OCK
용왕
id
허벅지
식인
여운
큰일
칼리지
들여오
-.
부피
직면
통찰
금서
Sl
고뇌
베끼
어선
열광
Christ
언론인
##85
Ap
히이
근방
적시
인플레
219
##INE
이대호
위안부
감마
이형
피그
##니르
분출
샤르
간절
연합국
파주
후리
압둘
이규
가르시아
중론
페달
훈련소
구미호
##ga
발해
부토
푸쉬
아스타
알몸
웨딩
후카
자유당
##udio
해밀턴
어쩌다
틀어막
##ERF
문관
무리수
평의회
머릿속
토코
한족
시리우스
비타민
린치
Down
소폭
김신
난징
복각
급속도
RED
중화기
FFFFFF
임페리얼
저음
남친
후려치
곧장
정시
스피리
책봉
Never
NA
##푸르트
동급생
추론
##ric
유창
Sam
투르크
포메
950
벼락
키치
민트
전황
오자
Tour
겉모습
약수
키프
##지기
마키나
끊어지
말살
파탄
feel
군세
화전
##칠리아
송병구
밤중
백과
뛰어오르
##work
Free
NAT
티거
활약상
##통일
하이브
540
아유미
##ther
골수
금곡
닛산
덩달
시커
나오키
##ley
퍼니
내쫓
소홀
이조
용인시
고고학
매그넘
활발히
화룡
ᆫ데다가
Na
시술
김호
단타
미워하
Side
질질
검도
뚱뚱
전우
대나무
동결
장자
##세우스
마토
아이오
##ux
GX
화끈
416
GPS
미움
Magic
병신
환산
리벤
옵스
##NG
##HC
##럴드
전쟁터
독단
카츠키
하쿠
분비
중의원
키쿠
일기토
나리타
궤멸
그분
제동
사쿠야
사복
영수
개리
선후
이롭
##다듬
나선
##erm
미니게임
동성애자
yeah
##hy
엑셀
인테리어
투수진
페이퍼
Track
몸싸움
##황후
세가
전패
##요리
정치가
미완성
서동
판명
##제프
##사람
투표율
곡사
외장
유역
허니
탐험가
페미니스트
이반
엄폐물
덮이
토바
트라웃
개더링
다채
형주
지석
통영
Sim
그러다가
정승
##사관학교
동남아
갑주
개헌
9000
직진
창시자
상서
배틀필드
정착지
로토
픽처스
지하실
시속
##피드
KN
##총독부
조선총독부
부디
전곡
검색어
진범
페라리
해설자
체크카드
KCC
내공
라르
스커
##가르드
경비병
엠블럼
다발
끝없이
톰슨
제곱
거액
동그
아재
알프레드
윤성
충원
태양계
마크로스
신년
##ird
KA
랍시고
한미
공연장
바그너
어시
마라톤
앉히
한눈
##도스
Pol
주지
면도
야말로
퍼블
적어지
페드로
포식자
girl
보리스
사학
알트
성희롱
City
프리킥
노선도
PM
##생물
##전쟁
조공
##스부르크
##월드
걷어
화보
대영
조짐
245
##이인
드러머
오아시스
Happy
스턴트
방망
공황
불계
대구경
Party
##고생
##BOX
절제
축출
밧줄
##삭스
광화문
충공깽
슬립
우여
포섭
Edition
두근두근
##UL
##덱스
현종
지상군
이쁘
##리아스
김한
잠정
족보
플랑
##rew
끌어오
김하
##김없이
야마자키
Perf
메탈기어
AW
초계
##니컬
험악
곁들이
##21
골절
재결
능욕
평준
##소년단
비룡
야인
짱구
캄보
##슬쩍
090
라카
멘토
오도
##디우스
벤트
##UK
청문회
라다
어려
카르텔
의뢰인
##파일
Cap
낙동
버겁
BP
YG
클럭
넷째
쥬라기
Fall
숙지
234
고아원
굴러가
di
신천
물결
미코
샬롯
성시
이츠키
Final
실감
천왕
치프
옴니
초딩
콩두
엑스맨
아와
약사
코러스
##aka
선율
##코스터
로어
아날로그
RT
그리폰
끌어당기
##yes
퍼플
수사관
life
후후
EB
블룸
박병호
차우
삽입곡
엘릭
롤러코스터
토우마
온건
애니메이터
다비드
226
싱크로
Will
신드
##ris
난장판
우디
##미트
249
알바니아
거라
엠블렘
주화
로스쿨
야스오
동명이인
미식축구
송나라
아야노
규율
##거래
판단력
마사토
포구
즐거움
부우
출국
이어주
로렌스
풀이
블로킹
PT
다그
세바스
허다
부록
스트림
악평
안톤
메트
위닝
##레톤
방사선
망각
##오버
##분투
시프
카툰
호각
소방서
업종
북동쪽
넬슨
도봉
바알
사냥터
소나타
티라노
방탄소년단
만성
백병
Angel
호라이즌
생식
토카
켈트
우선시
메가트론
RX
저명
스켈레톤
소양
카자마
관현악
야구부
유승민
분양
Stage
Net
Spring
make
강진
흡입
##게스
효용
겁쟁이
이룩
적과
##린트
물러서
클라크
니퍼
재보
맥시
##que
##arius
최원
SEED
우먼
217
곧이어
보이즈
함유
짜이
스테이크
오리지날
WHIP
상소
퇴직
410
참수
컬럼
신태
점치
##하임
배수량
김은
방영일
BMW
증대
엘더스
제주특별
##자치도
제주특별자치도
##ONE
경순양함
카라스
##재욱
인삼
재일
동률
슈리
흉기
##tain
##곡절
사적
속주
린이
Boy
플랜트
보성
파비
Club
생몰
예민
우여곡절
루돌프
##헤치
##ision
자행
에이미
라티
웍스
그레이브
주루
애시당초
하강
괄호
반도체
기교
전자기
디럭스
호족
표준어
샌드위치
ff
올레
슬라이더
발사체
다다르
다이어
도래
##모델
경부선
요가
1906
월등히
228
ABC
BW
소품
Come
Great
사요
혼잡
##str
RR
남인
미상
빨아들이
압승
##걸음
233
매료
산전
중순양함
레바논
향토
잔존
##폴트
라이토
계약서
##보스
최연
애니플러스
가맹
익산
한승
##95
Cor
경멸
초라
토드
파커
아로
캠핑
마석
받아치
내용물
##ASS
검기
억양
아돌프
루기
##ader
김시
칼질
##ama
혈압
교무실
재래
차오르
##하니
##OWN
궁궐
치토
옥타브
유상
##부사
고철
미도
과열
이보
##ague
고드
기념일
발기
잡아
소대장
악단
양말
독살
여중
티르
보그
##신기
##블루
part
보아
수만
천진
캄보디아
골격
철자
사오
용호
중대장
미네랄
Class
미우
황폐
트렌드
별거
타원
##ause
진기
예컨대
차크라
##팔로
##IME
스팟
편애
흥하
224
IMF
평이
##올로
잔소리
파라오
Break
MY
Fly
투영
포커
##시장
속임수
약품
375
##ross
텐트
슬래
황색
##ival
실탄
연마
취항
역전재판
사우디
has
아르타
SKE
im
Legend
아디
염동
발열
설진
친왕
##보살
바티칸
발포
버크
신진
피파
초구
항일
리제
목조
카로
자릿수
cont
산림
서주
Little
하자드
PH
구가
##해야
티격
길래
경대
##바인
겐지
인원수
강대국
##브레
##ism
센고쿠
피노
사이비
##와르
##83
##로지
임재
들어올리
환율
최형우
멜리
##모트
aqu
기증
하인리히
허약
##관리
복수심
머독
힘내
시부야
기압
신승
청자
문경
조각상
위저드
코퍼
자서
레볼루션
##장치
광폭
양방향
##아오르
Girls
북벌
시우
ᆫ다든지
틀림없
용납
우등
##att
Univers
클러치
발족
코우지
집요
만우
예비역
황해
##테라
##IVE
코바
낙서
##날리
엘라
거든요
만악
보스니아
RB
세터
어설트
는커녕
##불리
세계수
Swe
구식
##erry
수송기
'~
ER
NFL
교황청
고참
서산
키사라기
정찰기
승용차
회원국
fr
코요미
##대왕
공평
초음
는다며
뮐러
사춘
김구라
시급
파워레인저
강정
이트
John
EXO
조동
프랑크푸르트
은색
모금
아누
APC
윤종신
폭언
수목
심복
김규
로젠
숨결
이완
치하
##피온
##네즈
연합회
##르슈
빙글
어르
대주교
아소
전주시
도네
##도어
카자흐스탄
겨냥
몬트리
박원
##슐리
never
몬트리올
출진
301
음료수
녹스
레인저스
셔먼
스틸러스
비방
##교사
코미디언
모차
출연자
글래스
포메이션
마이티
린드
남아메리카
우왕
목장
##uch
증표
냉혹
again
비야
에마
천자
초심
성우진
바이트
만우절
야나기
##래스카
순회
##구멍
##매김
평야
##트릭
heart
이바라
##티티
Gl
몰두
해부
허물
후사
빈민
추축
내비치
치솟
##헤드
우려먹
자객
컵스
자리매김
미스테리
CGV
개전
박하
오거
호위함
위아래
광해군
오정
스테판
크로스오버
시메
227
폭넓
하동
##ords
PRO
조그맣
브록
정민
헌트
Mem
Take
러스트
호문
매끄럽
악연
이면
올인
착안
하로
##시온
##전함
마사히로
도요토미
램지
봄버
##충류
레이카
히브리
성소
어웨이
국보
##서니
사츠키
사춘기
무예
헤엄
노홍철
실록
히다
담보
스탬
##샤인
인제
TBS
명지
쇼타
조슈아
강국
쇼코
390
1913
악세사리
대기실
##지우
비평가
em
##로그램
헤이세이
에버튼
통폐
건축가
기울어지
미공개
보류
지원군
눈보라
볶음
##람회
원사
인계
한판
모자이크
낙양
누비
로트
코만
사이다
라몬
512
교묘
숨지
화성시
괴이
니르
윤영
##ubl
강희
화합물
라이엇
우울증
요령
제때
##마니
매튜
1909
아토
차고
오우거
은신처
레티
루시안
캔자스
프렌드
건대
##베트남
동탄
##조림
##칼리버
징집
비견
휴지
지식인
제천
프로토콜
ㅕ야
생생
미시마
이여
숙박
sk
북위
브리지
정설
줄무늬
서신
점성
편향
##브론
대련
에라
임정
1915
마방
스미레
고야
교명
이리스
정치력
알라딘
중종
대니얼
남동쪽
##포동
은빛
011
무함
인턴
토치
xx
갈비
계엄
유권자
정근
##body
다나
Cry
mA
뻔뻔
##링턴
의약품
오승
오컬
큐트
저상버스
Hol
가온
도가
1700
타쿠야
근황
의결
##정리
각광
맹렬
북아메리카
마레
반입
나오미
견습
##토모
##ital
김종국
외지
유키노
크류
흑색
뜬금없
모하
철혈
제네레이션
에디터
대성공
##리언
사칭
총수
##apan
스냅드래곤
수첩
ㅏ라
뜻밖
돌변
종파
품목
##세움
##주니어
쌍검
재기
##말라
맹수
원가
정명훈
분파
식용
활력
시티즌
위드
페가수스
애착
양양
##로리
ISO
내분
뜯어
개표
##iny
크리스티나
시트콤
울산광역시
EPL
건너오
반공
쿄스케
타도
##넌트
껄끄럽
나크
마르셀
거래소
ad
장지
모사
반쪽
##ura
더듬
투덜
폐업
##뉴스
OO
예거
주선
##시간
##전대
서대문
통폐합
나성
비터
전압
시칠리아
##상부
##빠지
##ople
기권
둔기
아틀란
재계
키시
##ler
##cy
걷어차
김종민
귀속
숙제
##마을
here
폐인
##REME
Ho
간과
오컬트
마르티
Gal
꼬시
도맡
DSP
오사무
어썰
어썰트
뉴타입
담원
틈타
Sn
억누르
클레멘
니콜라스
1904
##DDR
오현
##펠러
문예
올려
이븐
크레인
##스틱
관람객
747
꼬박
푸시
Ind
OM
거침
무마
Mbps
##라이어티
HR
~?
경복
버라이어티
##oun
ᆫ답시고
테드
표류
슬로바키아
기금
둘째치
bb
정박
쾌락
펠릭스
남서쪽
군청
##ino
바닷가
데미안
##수염
게으
전조
카오
인기가요
##훈련
##irect
소외
손발
김장
naver
매크로
어려우
MUS
에너
##메이트
\]
동자
릴레이
##발리
내레이션
야요
##78
합숙
공소
풀타임
기념관
##TH
##IO
##팽이
요르단
로더
시제
엄연
일면
카즈미
GTX
도넛
자물
식구
입점
확진
모용
상층
231
다이노
단결
세이야
체이서
성북
역도
##십자
설리
##길이
전광판
고온
방아
벗겨지
떠나가
오라클
FO
루가
극하
트리니티
노미야
여차
증식
추격전
|[
우즈베키스탄
Real
프레데터
aquarius
사고방식
1916
일전
##가키
자물쇠
Rad
선샤인
마스터즈
##aker
bo
백스
운하
무트
NORM
상역
조경
252
SMG
when
류우
지효
##소연
급감
튀르크
어진
환장
꽃잎
금세
당부
단호
진중
가비
완주
##후미
타카히로
닛폰
사각형
섬뜩
염증
인가
라이덴
경비대
Sou
강급
그늘
##AE
##by
컬트
실물
암묵
교통부
닷컴
역적
짝퉁
238
서바이버
트롤링
특혜
##식물
백종
서강
아라시
나카지마
선단
장시간
gu
그딴
노노
주지사
수학자
let
툭하면
Aut
##lex
순전히
아오키
중용
##UD
NORMAL
친일파
코스모스
이동기
When
이따금
야요이
조만
질책
열대
협주곡
신뢰도
신해
##줄기
아이파크
430
any
구기
돌려받
##유예
주변인
계주
데이지
기대감
다리우스
다다
지저
가락
뿌요
주조
Park
만신
손길
명심
Single
##BY
ᆫ다든가
무함마드
새턴
스쿠
뒤바뀌
이코
세이프
고체
수없이
##너드
똑바로
로켓단
공모전
##36
조건부
웨스턴
담그
츳코
##숭아
성매매
##노트
에니
##리스크
카니발
송곳니
불러내
Who
샤이니
Esp
독소
등기
엑스포
나츠메
고영
멱살
EXTREME
play
마커스
##lection
근교
노미
##onder
머큐
PG
공표
신노스케
Hi
마일리
웬디
하룻
##anger
숙적
이그
##gy
스타킹
금정
집게
타사
폭투
롱주
방주
영도
탁구
실컷
양분
##48
농성
매춘
도키
향신
브리튼
냅다
우의
테디
하르트
원정대
선량
출토
피렌
가계
차차
타카오
##나타
카디널
고군
허드
##사노
Feel
퍼레이드
달려드
래빗
min
기요
육신
하가
##설수
이크
일루
카모
기념비
Du
레타
##raft
Album
Je
가늘
공구
무례
그랜트
mAh
루팅
수양
합격자
버팔로
JYP
광란
을시
프리퀄
북아프리카
무서워하
명제
어쩐
##립스
어쩐지
뜯어내
여제
전범
파헤치
##RO
##ONG
서슴
동맹국
아틀란티스
개요
진명
하즈
백웅
팔다리
한국식
Cal
Mix
낙사
ap
개머리
금단
사무총장
아카이브
우터
동시대
hp
데르
des
차츰
##방지
기형
타깃
플리트
Inv
스프레이
홍익
격분
파충류
볼링
업소
오웬
서스펜션
자오
부대장
하야테
분실
분광
지평
팽팽
##로니카
신스
열강
치요
##마르크
레베카
비어
풍습
##산부
SNK
외동
계책
포커스
##98
코스모
주점
##ya
이효
탄산
red
WWF
Ret
방콕
완승
안주
츠네
Hero
가도
박동
음파
##그래
Kim
규슈
도면
테두리
주유소
야유
수식어
광년
앙상
연정
##비슷
우치하
베가스
브리스
##타마
세인
조반
유괴
쿠보
##태격
티격태격
항공대
##ations
실권
재편
투지
Ult
껍데기
놀러
은혼
짓거리
근육질
QP
판다
236
공문
넥스트
대첩
저질
이광수
킬로미터
장민
감격
사보
##ouble
뭉개
바래
플롯
굳건
다테
##다주
껴안
단국
브렌
모차르트
##뮬러
공무
대서
면담
슈테
작자
계몽
뒤섞
성물
지네
##ball
##제비
눈길
서큐버스
Blood
소자
코아
##병기
뒤집어쓰
관내
윤석민
지브
Fun
some
은근슬쩍
역행
대장간
어떡
음절
STA
한신
로아
KE
배당
속출
경제력
자습
평온
불계승
치환
장문
지원자
국지
나자
보크
요절
##나르도
어정
엄하
통통
##정사
##uture
피시
Sol
수트
크래시
공예
난데
몽환
별장
루트비히
수비대
를르슈
터너
코타
##eck
셀레
최민
콜린
아구
이서
탄력
성화
자일
총무
##vil
보살피
스메
라이스
독일인
need
##르도
##푸르
##제트
이라든지
오기
원안
윤지
Sweet
지질
##더미
010
격납고
##eek
승승장구
매혹
악재
변기
##사태
##ocal
KBL
Ag
뒤떨어지
##ather
스콜피온
라디
앞부분
잭스
시게루
Val
원료
##배기
일렉트릭
스무
제련
횃불
Tech
피어스
화순
열화
중수
자서전
요요
피통
##TC
혹독
천안시
유니버설
다람쥐
신야
이견
코라
사타
햄튼
##더리
265
반열
사념
실격
홀수
실린더
하모니
##볼트
마리나
##로트
CBS
꼼꼼
##비어
들이닥치
잘나
워스
기시
유품
조련
스트롱
결번
돌고래
##리역
하룻밤
넷플
투자자
넷플릭스
강북
정액
희소
금천
앙쥬
개머리판
Say
밝기
왕권
내신
료코
한류
##HN
주둔지
로드리게스
스펜
조례
루디
##틀린
USS
전면전
돌이키
피쉬
순종
##암리
##날레
끌어안
##ANCED
재탕
##arth
3500
거처
봉건
초밥
명계
비화
치어리
한없이
격변
클라라
나돌
로데
가열
불륜
이윤열
설날
이언
최승
Def
테크놀
눈여
복판
야가미
##onna
교육감
510
Space
언뜻
도카이
왼발
호크스
802
컷인
야권
위너스
홍차
기색
난도
232
맥도날드
손대
다케다
충당
로밍
##티시
흑발
정신병
매카
반년
제이미
제이콥
말뚝
사루
##34
them
대항전
사이클론
노련
##뚜기
Beat
레터
##태인
옐로우
최준
##바탕
프리랜
##ours
빙하
앞머리
특별자치
노리코
특별자치시
공판
경계선
사들이
하루히
예선전
르블랑
이불
조시
상디
국한
메릴
기니
염기
시영
히타
굴림
페르디난
일제히
풀어내
her
훌쩍
레이브
다르크
산산조각
대항해
쓸리
이연
한문
기껏해야
메기
판례
타이베이
로빈슨
위그
가우스
명절
변칙
빗대
##사무소
##ena
실기
##클레
##hammer
작센
안드레
WORLD
셰이
엽기
잔치
태반
대덕
수교
원군
히로미
변속
알렌
##그로
640
안즈
외과
프랑켄슈타인
내던지
번성
##빙글
Orig
영정
컨버
##ames
클리프
제각각
ADVANCED
꼬맹이
딱지
메모리얼
몰아가
바카
부포
직사
희한
랠리
인위
내려치
GC
미우라
공식전
우라늄
애호
코니
하네
카리브
서초구
마니아
액스
향신료
만연
족족
팔아먹
견주
총체
펠레
##출력
스캇
이부키
그레이스
통솔력
얼른
오소
월트
Dest
나니
내치
파라과이
Mac
##토니아
이리야
세카
세습
##매기
스트링
불명예
마음먹
레드삭스
LCS
다던
칼데아
##ement
##thing
히데키
엘사
##세요
사일런트
외할
##게일
굴절
레테
이국
연막탄
분지
신영
Zero
발진
황녀
!!!
LOL
홍련
##rough
##aid
##노부
밀리터리
속죄
##욕장
고라
리크
세네
##ways
동떨어지
장영
아라비아
베네딕
밀짚
병풍
젠더
##투사
GOT
분단
결속
밀수
##입구역
자하
코피
포박
프로세스
한테서
독창
분담
##게이트
포뮬러
신재
카나코
고딕
번쩍
트란
Story
장발
종업
타타
무궁화호
워킹
황룡
푸딩
305
강좌
덴마
폭죽
파피
교량
심해
첩자
형용
##알라
325
들이받
she
쇼우
PERF
클라이맥스
Home
길가
모란
유린
장이
편차
##DER
아스가르드
##경민
##우옌
피의자
##UG
##자락
##느러미
공격진
프리랜서
고프
##ta
연장선
분하
한라
역마
이모티콘
뫼비우스
##ano
와해
오레
살포
수렵
실비아
안영
파이팅
철구
다는데
디스코
-!
깨뜨리
마즈
후추
##une
정근우
뒤따르
자초
등록금
러프
열도
쿠루미
동일본
다의
##so
불어넣
KC
이다
조병
##뉴얼
비지
이사벨
주저앉
달랑
더욱더
##테르담
수로
정변
머큐리
Ry
대방
케일
권력자
웅장
쿠즈
##ait
##ANG
##티모어
NASA
심볼
떠넘기
봉투
에인
전구
간수
잠자리
호모
근친
금빛
왕세자
고비
관례
뒤엎
못생기
상병
은둔
통치자
교외
몰려들
특례
피아니스트
동호회
IBM
가희
의과
##진구
수기
폐교
쫒아
호루스
##조사
##데시
조나단
Japan
유가족
Stri
인플레이션
교포
에비
조라
질럿
포세이
물어뜯
포세이돈
읽히
미야코
방수
셰퍼드
소굴
왓슨
기폭
리얼리티
김건
섬머
그릴
땅굴
로건
아라이
친숙
##self
##란다
행정동
포츈
김우
##드릭
##신문
##err
묵묵
수모
피스톨
메사
사회학
선호도
MAD
인디애나
굶주리
아키타
마츠다
기조
반신
다이애나
클레오
각주
고척
마개
직렬
괴로워하
치아키
우니
##bal
고압
오줌
마구잡이
Hel
붕어
함부르크
중앙일보
독주
딜런
위축
피렌체
엑스칼리버
Lee
##ASY
치우치
Fight
남코
스에
종식
비르
돼지고기
유흥
토성
##ML
이슬람교
국외
생소
재킷
##덴티티
아이덴티티
Bro
Gun
bit
강과
람보
에볼루션
허정
현저히
사이키
강민호
발랄
우한
줄리엣
기하학
괴짜
미니건
단수
드로이드
절실
##ands
동백
디나
신예
양천
클로이
문화유산
Young
BLACK
장화
##르바이
##jo
납부
마네
셀렉
증차
##arm
아키코
##르바이잔
앞당기
##그러
가요제
AAA
ph
에리스
##TER
토모코
여객기
니콜라이
묘소
캡쳐
항만
Wanna
페라
Champion
발자국
간담
사옥
위계
노무라
알려주
##65
##위성
SUV
경산
##iful
로미오
타코
Pla
수프
일회
에그맨
총점
갈망
국문
비들
장진
##light
동향
판교
##콜로
229
243
##osh
포터블
뜯기
아제르바이잔
가우
에지
개인차
이클
클래시
이클립스
망신
프록
##elie
핑거
##위원회
당진
##브로
무리뉴
수호신
페널티가
스탠리
감명
급소
단도
바가지
승선
##카타
경기관총
조성주
DL
대물
야오
리디
##잣집
660
이브스
##회전
클로드
##그럽
737
불굴
Storm
아오바
김학
뒤쫓
about
컬럼비아
에델
급수
용족
트와
블러디
박진영
없음
육아
펌웨어
##ortex
유희열
NXT
존기
##이라
이하일
과부하
워페어
방탄복
DIO
동강
마성
얌전히
공격대
아사쿠라
표지판
어항
이건
##리학
625
기로
버트
지마
##놀드
이케다
MIX
볼티모어
상반신
Pa
루시아
익사
Kill
가닥
교화
슬하
중남
EL
IEM
담장
돌출
바바리
유구
잔잔
정가
##다이스
경원
바퀴벌레
라키
미적
엘더
지방도
정상급
ᆯ게요
피츠버그
김홍
##eter
정훈
직종
##보레
560
마로
소고
##니발
한겨
##수원
Jo
TC
비닐
황산
노우
요법
봉화
차오
마르크
충신
터빈
sec
시그널
SUPER
노을
##lease
하야시
;/
옹립
결정력
래더
바운
천리
약혼자
동두
브뤼
티오
2400
정준하
Friend
백호
자연히
권혁
##벌이
타케우치
저속
##산성
##바꿈
콜로세움
심영
사토미
XBOX
다분
버들
카스티
##덕이
프라모델
불량배
양현종
건달
혹시나
목욕탕
컨트리
심부름
Line
본대
칩셋
목격자
태극기
##ume
Warhammer
헐리
##구석
자동변속기
공조
게이츠
공용어
명동
##센터
##ines
264
마담
##윤수
##77
There
낙태
이매
국악
프로페
클린턴
맥크리
응우옌
##구르
벽화
자상
정오
분대장
볼프강
##ATE
여군
FS
임종
현악
##일랜드
사이렌
come
오하
하오
##나크
주제가
미행
조예
티비
their
구매자
조종당
유주
의인
##OK
##현수
국공
청각
클러스터
나오토
##ene
거란
##학생회
신문사
모색
아카시
디언
요나
이데
포도주
니스트
미츠키
포이즌
가뭄
고트
밑바닥
침범
도하
래디
##ral
League
사이코패스
페르난도
체코슬로
체코슬로바키아
계룡
노장
도핑
무토
투혼
그리워하
사벨
전시회
스도
치료제
놀림
로디
학명
ATM
끼얹
노화
지겹
가차없이
밀짚모자
res
사오리
노하우
백종원
프리티
소각
##노세
EXTRA
도살
징수
프롬
##샤바
Road
황인
가장자리
Apple
ma
입각
Green
슬럼프
쿠페
나즈
스톨
쾌적
들어맞
지니어스
765
대격
전경
초신
포신
라오스
주리
##리카와
구룡
덤블
파나마
원만
부착물
힌두교
평시
헬싱
피콜로
히키
관행
당내
성산
안대
커밍
이재명
곡물
백설
집어던지
매뉴얼
사파
찬란
양의지
피지
한큐
##익스
요네
호적
연행
##zz
헤비급
##ODE
무구
과거사
우에노
명실상부
루니
##und
##무로
리빌
샤인
장정
Intern
서자
도원
선더
볼리비아
카롤
##드르
순발
효자
##ORA
두어
몸값
세리카
GE
체면
303
관리인
글로브
##수아비
가관
허수아비
노어
251
리차
총학생회
거주민
교활
은인
러시아인
데스노트
##일라잇
트와일라잇
디셉
유파
제타
사이킥
Death
성의
컬쳐
##utiful
탈락자
순발력
Tom
모성
케이스케
살벌
거들
종사자
참치
net
공의회
창법
##백호
덜하
백마
합스부르크
##ha
Dead
룰렛
양정
노기자카
르브론
##환경
호시노
단층
아코
티아라
슬라브
코퍼레이션
고쿠
구레
실례
어야지
타이가
##VEL
NATO
AO
SB
253
상록
색소
장난치
연어
장작
프로그래머
궁예
받들
청혼
뱃지
외상
피셔
##ible
슈퍼주니어
황천
##PN
##페르노
국영
남방
병자
펑펑
##플라이
316
정신기
뒤돌
하피
건만
완투
##동물
신룡
##INAL
부팅
인페르노
코만도
살육
알렉산드르
모조
모태
237
가격대
Champions
김남
제아
죠셉
NV
민수
안팎
완력
대대장
사변
Del
긍지
불곰
##대장
##창민
1896
미나모토
스코어링
-,
노다
레진
연구회
스트레인지
원내대표
지간
로맨틱
타츠미
원동력
바사라
."
공양
성자
##베다
239
프리덤
개찰구
니지
반반
소니아
글루
##rol
TEAM
김응
키네
##마이트
##리케
##독스
탐지기
대함
허접
궁중
후타바
노지
양평
원대
##AF
##송이
바크
스텐
피르
환기
냉철
지난해
조계
판독
사토루
씨름
입찰
구내
스타더스트
페널티킥
맨서
##기둥
드래건
살인범
앙상블
Mal
Que
거하
##END
보람
하키
친족
모니카
내포
삭스
니까요
460
앤서니
인대
디스트로
연두
콜트
크랭크
한니발
어정쩡
라울
고창
김문
항전
이방원
남대
##꼬리
제니퍼
군포
분식
##해머
##츠미
나토
샘플링
hats
눌리
발당
쿠토
해트
##루냐
뛰쳐나가
하세가와
<<
유네스
##가짐
중앙아시아
한겨레
미역
유이치
##신저
명치
사나다
분투
양조
환관
연산군
라벨
저편
아이카
루시우
느와르
김상수
물리학자
디스트로이어
비나
##uss
아사미
##OUR
범퇴
성악
성계
##총사
거북이
비호
보위
충이
##키오
이회
EXPERT
한수
##84
농어촌버스
베로니카
비료
은총
사카키
폐기물
끝마치
레츠
순화
솔트
촉매
펀드
##성장
전산망
가발
신검
오트
##oup
두루마리
DH
애원
원통
##vy
##융합
레이서
보안관
물방울
천성
##할시
바로잡
돌발
##에리
OC
의기
천수
힐러리
충청도
스노우볼
파우스트
어류
핵융합
Full
계투
그렌
문파
하나같이
번들
중퇴
##밀리아
##ental
낙동강
도자기
Pass
광교
옆집
코쿠
효고
아이코
발도
혐한
헤드폰
니라
아놀드
헤카
유투
파란
스트라
조준기
과대
##대상
제레미
필리프
다이너마이트
깨달음
hatsan
XC
골문
앤트
웬리
덤벼들
1895
이타치
인파
##??
빙글빙글
혈연
의구
풍미
곧잘
남궁
보헤
속국
픽션
혼내
TSM
아르테미스
서커
쌍방울
짜장
레전더리
무법자
안락
번화
석탑
페퍼
하구
##ily
다급
자궁
##우먼
명상
통장
올림피아
위크
짝수
손잡
시진
호도
백악관
프랑스인
아키야마
호가
위용
시즈쿠
낙타
왕창
협업
레일건
Tra
떠다니
양재
이큐
##aser
WCW
니티
모선
흑기사
Games
모나코
발주
브렛
안건
포옹
##보잡
들어주
칠곡
파스타
엔도
##ground
듣보잡
패럴
아서스
폭락
흉노
패러독스
부양
##글리
도화
##워지
차르
스타터
242
남해
숙부
탈바꿈
아귀
##OSS
시브
조셉
태아
##공원
501
태권도
팬더
황재
명맥
선점
징벌
통조림
Set
불어나
우루스
244
##에이고
샌디에이고
농림
잠재우
느슨
호라
##텍처
아키텍처
선구자
냄비
미화
휘발
히로키
떄문
스니
율리우스
설치류
차징
니케
##UND
left
아우라
나약
스레드
파치
타이머
사샤
샤먼
청계
로메
리어스
하체
##아프
요술
##awn
산란
공산주의자
FT
##간다
뼈아프
MAN
##메트
후원자
왜구
탈영
적외선
##볶이
와이파이
반대파
랜드마크
##ormal
OT
비문
Pack
감리
도지
모서리
샬럿
유형문화재
유대교
GAME
의구심
per
안산시
난데없이
IR
도류
와라
##아보
카이바
뿌리치
가위바위
가위바위보
SKY
MUSIC
방아쇠
##86
##ttack
포제
##드레
파라다이스
메이크업
알마
약초
##밍고
사냥감
권속
알렉산드리아
바오로
##에스
훈련장
위법
화이
##툴루
연장자
메이스
보육
##74
Mad
사스
원점
##사상
대통령령
마츠리
##IDE
개소
라피
sw
김보
신의
풍요
하산
##ISS
연꽃
구덩이
탑승자
속초
방전
입석
##gg
고귀
##ider
아우르
백병전
군용
글렌
무기고
속아
아그니
객차
어업
경화
라쿠
##하키
보통학교
부잣집
##네이션
역부
울릉
재우
공포증
괴뢰
동진
양팔
이시스
송지
승마
행크
530
무의미
베티
탄자
선거법
대림
박람회
부조리
항마
레이팅
##티움
##절로
성폭력
서귀
취역
##폭풍
짬뽕
고구마
스구
양수
지단
pop
소림
플루토
Ah
모국
안방
##야구
프랑코
자급
개원
두세
잇따르
우리나라
long
북경
퓨처스
사구
쉐보레
##빼미
세분
출소
##다이라
예견
아르마
뉴비
##leep
이동한
##OWER
역장
네기
특검
라이저
바르샤바
윤상
압수
츠지
환술
##레이브
어르신
헌정
246
재판부
wanna
촉한
##전력
블리치
비겁
선취
위급
##박사
##ouch
SDRAM
미겔
요제프
구축전차
실세
촌장
켄트
##화물
into
아즈텍
살림
크리스틴
실크
이비
핵폭탄
##코르
##ESS
승자전
##프리트
Bet
Long
규범
진풍
내비
##테인
참호
요코야마
김광현
경주시
왜냐면
op
기약
만담
변조
심도
분당선
저절로
제위
##리오스
쳐들어가
판넬
##onic
신학교
김봉
노카
동복
태초
254
치어리더
척도
##코리아
호타루
신변
주춤
초빙
다우
문하
유공
고층
##진우
석조
승조
어감
##ience
콘스탄티
불상사
빠져나오
강압
거너
금물
증축
갑작스레
Tem
발작
전륜
##버섯
단기간
유목민
소말
시디
윈도
##마음
동방신기
드럼매니아
약탈자
문건
반찬
코드네임
##ology
배고프
세르게이
다자
복서
초조
고글
니어
울타리
워해머
재량
##워키
바닥나
브금
##yo
##고르
재생성
트로트
GU
밀크
커널
뒷담
위선
경도
규탄
##니엄
사운드트랙
신세기
군장
재물
코사
구세주
기일
##덩어리
자이로
은평
중전
##reet
Step
Glo
한국사
##바라기
디바이스
크툴루
모모코
페러
MTV
바벨
알버트
릴리즈
NR
미흡
삼가
박건
흐지부
오토봇
벨라루스
흐지부지
남다르
타오
##임새
사이타마
종업원
거시
윤회
오피셜
너비
영덕
been
카나타
NMB
;,
Dem
지드
##폴리
방한
겁먹
묘비
폄하
##웨이트
려나
자경
카미조
##탄불
NCT
삼총사
진이
##도시
##저곳
1080
이곳저곳
봉지
##자위대
방망이
고군분투
기업인
watch
##괭이
야미
자대
##ting
연장포
비스마르크
##box
서투르
조끼
황궁
이블
헤치
##iet
##드런
마일리지
민망
오두
배틀로
Ele
난간
빗자루
에콰
USA
맹독충
에콰도르
AH
##꼬박
크라이시스
꼬박꼬박
금상
등대
라멘
요도
펜타
휴양
248
##ots
셀러
쿠사나기
도산
수세
외화
##get
##꺼이
##illa
쾰른
마르틴
스크랩
그지없
성불
애벌레
친부
크레용
Brave
구위
레토
마부
##비지
호밍
##네시
수완
신천지
nm
실재
진위
학군
카나메
프라이스
유적지
비주류
만물
오성
총검
하운드
##br
##자유
카루
지금껏
뛰어가
디어
보옥
맨손
카미야
유네스코
TRA
##셀러
VI
bla
국교
사채
엄호
Level
브루노
불시
소관
싸그리
거리낌
야쿠르트
쿠웨이트
##za
베레
적의
피사
##이야
Chap
666
해안가
Her
시발점
감축
굽히
다물
얼라
정산
박승
액자
##본부
306
우에다
디멘
가져다주
기아스
디멘션
노년
안구
##32
스테미
다승
단군
달력
레퀴
손질
안착
##리니
##저지
알래스카
##ander
제조업
박지성
nb
질타
박찬호
속칭
차질
통지
연구생
ATP
구청장
내림
에뮬
케이티
톡톡히
ㅓ요
번복
눈알
큐라
##GP
가쓰
수두
##국수
System
도난
허준
##들러
코코로
Cortex
금수
도우미
양복
##글라
신인왕
Call
프랑수아
285
스필
올빼미
포르쉐
유키코
Key
이홍
총칭
##너티브
얼터너티브
이신형
리지
이프
화살표
사카가미
페미
##노버
##mas
방향키
졸지에
근소
선착
김재환
귀걸이
법제
투옥
Spe
MOV
벌집
말버릇
흥국
극명
설원
신혼
뉴저지
에스토니아
충실하
남색
문무
샐러드
오랑
외로
포천
표범
타카미
미소년
Ant
레너드
##IAL
블로우
##체어
반역자
Direct
세밀
시험장
대금
아샤
부끄러
위스
코그
20000
해리슨
공손찬
적잖
커튼
Stand
불릿
서든
쿠지
오구
야마시타
까칠
경음
오열
ah
계양
주특
LPDDR
주특기
Mil
멸시
요시카
나코
순양
포톤
토리노
성대모사
데비
떡볶이
휠체어
##enn
GA
미주
외주
위스키
인조인간
나진
변호인
가샤
달구
자형
지만은
주희
크나크
넘어뜨리
Cha
외교부
po
가람
손견
와드
요충
이세이
팍팍
##ense
추력
해남
##함수
Mer
##렌스
이스탄불
레디
##94
##드기
곡괭이
뉴턴
몽키
소거
밀레니엄
월화
중랑
##천년
음주운전
단추
습지
잠잠
패트리
##WAR
도로시
미야모토
소송법
선술
스톱
의복
편파
이상일
##OTH
North
과묵
##ied
247
재수없
Eur
다네
애슐리
엑스박스
가타
기꺼이
##ka
##그램
번역본
새천년
야루
에토
카디널스
구와
비관
수진
수병
인술
잠적
동면
마귀
머나
##효과
전기톱
모의고사
머나멀
et
맥아
메즈
역이
디바인
Gener
구작
수이
##차원
포스코
LB
그렉
유년기
브라이트
에인절
사계
980
시라이시
구토
어의
키쿠치
Die
LM
화교
take
남주
미켈
아발
재결합
역부족
도인
송정
특무
BMS
시경
차명
##갈색
교배
다짜
##고짜
##뚤어지
크루저
다짜고짜
파출
몰아주
EASY
나래
산성
전고
활로
##프레소
무라카미
말려들
성행
정품
262
한자어
쿼터백
에스파냐
color
레논
밀워키
아드리
종양
##에미
코비
헤엄치
리세
명언
유틸
호신
보컬로이드
유토피아
유틸리티
##ILL
요금제
직설
##ki
##베니아
동차
메로
웅진
마츠이
HKT
둘레
린네
블랭크
이산화
단락
리만
모여
리그베다
농경
무가
심경
##미사일
연휴
쇄도
시이
TECHN
스펜서
권투
조광
호아
레이코
걸어다니
Mel
Mnet
무형
신명
패망
혼용
박석민
발성
부적합
던데
회식
##록스
결정타
철제
헤르메스
비잔티움
##레라
키프로스
종반
프루
본점
카빈
##ove
##쓸이
Hell
발단
바야
스캐
후크
수조
Heaven
나연
약국
##my
슬로베니아
옆구리
전근
구원자
마누엘
센다이
토기
함량
망언
승수
아데
총신
커크
현관
##원장
쿠우
렴구
실증
서귀포
근위대
어학
유유히
외로움
심기
콘스
필립스
김연아
로베르토
은어
축전
모면
애기
##ents
Port
UK
을까요
레오나르도
공범
외견
이양
장창
짧아지
470
관련자
##네이
아미타
열등감
음역
무기력
간결
마땅히
cr
셔터
하층
백발
##St
##도현
##누마
##go
308
무용지물
데일
세손
순번
##브르
상류층
문체
노이드
가로채
쓰레기통
비키니
알아주
680
뒤섞이
엘렌
공물
기념물
아람
홈플러스
제퍼
시멘트
현세
##바흐
##ember
대법관
결집
##프레이
수학여행
후지타
건국대
의왕
##구려
jp
성가
아이린
룰루
소켓
최용
##화당
Shad
김유진
다방
버나
점장
핸디
부담감
객실
명랑
탈피
라트비아
번작
어쿠스
환상향
송파구
어쿠스틱
에미야
오션
이마이
케이틀린
재판관
시공간
레퀴엠
절판
맛집
선종
이희
유의미
도안
말썽
절도
##umb
이륙
토모야
모교
서고
키예프
##합중국
구판
용접
ROX
겨자
대의원
##파치
메이슨
천차
혼수
##경찰
##ince
서해안
Hello
스칸
탄피
아키하
생물체
본업
착시
##IF
경쾌
##워커
dr
니치
적국
해바라기
하락세
배달부
QS
결핍
어윤수
!!"
묵시
비행단
KGC
당뇨
우후
리벤지
요마
일침
추앙
Rep
볼드모트
베누
손색
직급
로이스
색적
##yr
911
군량
영사
징표
구인
문정
필명
카트리지
Lun
덩굴
종용
팟캐스트
레이다
미네르바
숨통
##add
##핑크
황금기
단축키
관성
##uth
치즈루
야사
양날
적나라
아이스하키
구스타프
관상
일병
제츠
침수
노역
산물
솔러
조미
켄시로
##va
##레우스
산업단지
미합중국
한기
북아일랜드
사이퍼즈
도굴
둔갑
영산
오나라
박인
엘다
##생명
병음
신창
월광
자명
전권
인공위성
노르망
마진
용시
##에타
304
##ection
241
카카오톡
돌핀
부트
케이타
동위
카푸
템페스트
바이어
경마
드레이
만인
상동
부사장
구마모토
카키
디셉티콘
밤하늘
우진
##39
정신줄
##ures
사무엘
시즈오카
ᆯ세
쟈니
최태
신경전
오지환
위압
##iri
강가
난관
서일본
야타
에스프레소
강기
군정
김강
증설
##사슬
##바드
김성현
RGB
조디
##일치
네버
스카이워커
위니
한술
##ility
Fil
희극
##ates
김기태
Network
알폰
디폴트
오와
원서
Inc
헤이즈
1899
Cup
문항
영천
##ELL
##irc
맹장
슬기
진홍
유리창
가옥
대열
데인
저스트
도부
망가뜨리
Mach
ser
확충
ㅋㅋㅋ
날라가
Esports
길티
역순
중파
##보리
타카기
연평균
역동
인척
##갯소리
캘리포니아주
이덕
ZZ
이나바
##테르부르크
라칸
미륵
참신
쾌감
##고로
##aph
아즈마
University
##WA
##펙터
미츠루기
한림
311
##ometh
그레고리
선동열
기나
내란
순하
조종석
환승역
Again
구명
동치
처장
호송
후쿠다
구구
앰프
울림
타무라
이용규
아약
ᆯ지언정
매화
불빛
빙그레
개중
노량
##razy
look
아캄
암스
##궐선거
재보궐선거
rem
벤처
본심
자속
김해시
사미
##조부
##미디어
##ORPG
브랜든
상아
##블러
마이스터
맨몸
세주
제라드
##사병
사냥개
소행성
퇴화
##이시
EE
게오르
싹쓸이
칸자키
전소
펜싱
하디
샌즈
건방지
노쇠
##프로
##토크
문학상
세비야
##부상
기동대
거주자
미노루
타란
풍성
미니맵
울버린
철폐
번역가
군자
델라
##atter
영등포구
어는
##위안
이용한
아나톨
Only
몸길이
실화
짜내
##어머니
집행유예
무스메
컴플렉스
카르타고
Burst
bet
디온
샤우
소용없
별반
주니치
파시즘
해롭
##보트
mg
노하라
뒷부분
변방
아나스타
##bit
##집합
##hem
LPL
Dig
아린
은화
##태현
판타스틱
수축
인산
헬레나
모세
블라인
비축
우스갯소리
셔플
아모
에밀리아
반포
신차
홍문
방위군
##익스피어
백조
셰익스피어
##AKA
소고기
장흥
몬스터즈
Days
미어
양궁
##플로
##공화당
민주공화당
패자전
담담
오심
패티
관음
네이션스
##pm
비등
알리스타
키아
##림돌
고찰
콤플렉스
##해지
##전생
여신전생
##ether
무수히
패퇴
스터디
간담회
로케
내지르
MiG
디저트
따름
잡음
장윤
파가
##TN
##플린
##랑카
사업소
오토메
Winter
최단
##ips
점프력
모독
싸구려
##우로스
로바
리옹
영월
초안
최유
기나길
능통
힘드
섣불리
##에나
도란
튀니지
대소
자림
자립
think
브루클린
천문학자
랜딩
지코
302
합성수
LF
레반
여래
죄악
nbsp
랑그
수난
유화
트립
stay
불의
##LA
에스퍼
깨물
##레로
##갱이
은지원
해수욕장
Gh
필멸
토리코
머피
시들
신통
##평동
손아귀
"...
라흐
##더지
마음가짐
박용택
걸림돌
Jack
##uj
##영웅
##ids
IB
슈우
온의
이름값
고졸
시국
이공
##제르
그리스인
손아섭
아약스
구설수
디노
부조
태사
아리마
안양시
메신저
방청
##cess
뒤흔
아이비
알로
문화방송
##imes
##unk
INT
로군
##기수
군마
리토
육탄
키타로
송광
신음
시설물
잡아먹히
Va
수갑
##걸스
스크림
격발
두꺼
##자식
원심
##하고
Sports
name
스사노
##als
타마키
복음서
피에로
라사
바꿔
푸에르
노동력
사인회
뒷모습
차근
미카도
꾸짖
신형
외양
좌천
강시
원투
자장
흉부
1903
틀어박히
룩셈
수도사
비정규
굵직
범퍼
전액
골머리
빙빙
음질
##진보
보조금
Inter
WA
네프
들뜨
복숭아
산요
룩셈부르크
유예
##코인
서프라이즈
수회
체자
DEX
간사이
권수
송창
학설
헤임
##일비
따라붙
제리코
티타늄
Kar
부의
테레비
공관
드링크
믿기
##산업
##uman
630
쿠미코
가고
기승
고동
레일리
웨스
##진창
두들겨
Knight
House
대망
데어
##레프
카가미네
대참
속속
##톨레
##커버리
##그라운드
엘레나
출입문
색기
2100
밤새
필리스
사생아
린스
노르망디
오릭스
프로펠러
보수당
music
발췌
에루
게일
주박
##ald
전업
칠드런
말단
##XX
오사카부
누드
대모
불씨
적분
Wr
구금
만수
푸틴
##orce
관중석
이너
화풍
올라프
쇠사슬
종신
창건
푸치
##치히
코너킥
빼먹
하교
##ved
작품상
논산
토목
행선지
갖가지
착탄
##팔구
강구
수잔
저버리
오른발
북동부
당과
도태
유폐
잔상
크랙
슈퍼볼
안드레아스
그람
십중
원체
GF
번외
세타
##해하
십중팔구
타일러
페일
겸손
렌더링
승화
유골
플릭
##ico
계약금
붉히
불경
사선
케냐
##혜진
드미트리
시니어
iP
산드라
적장
제패
##37
개당
웰스
##거슨
둘러대
에인절스
헌팅
근간
##폭력
개인기
##isode
파밀리아
분개
어다가
자야
키카
아인슈타인
카탈루냐
조만간
Snow
니깐
종래
##수단
김미
선데이
##양이
##emy
네온
눈매
윤보
##REAM
엉망진창
CLG
초토화
바로크
포르투갈어
와다
전서
무한히
올가
다이나믹
More
천년기
철판
베르나
유세이
장료
증정
나가토
속마음
염라
착오
토레스
##VEN
도교
종군
##기념
##공업
쿠르드
##IKA
성조
파천
편집장
백두산
캐쉬
탈모
샌드백
초판
미국식
NCR
오키타
플러그인
잡담
오리엔
이사회
사나에
후우
##적으로
##거시
마포구
##lin
After
오유
객원
순천시
##31
타이거스
리허
수은
전단
##겨우
경부고속도로
객체
프리스
##버둥
에반스
달팽이
어김없이
출항
티온
파묻
획기
공민왕
##진보당
were
내력
덮개
뜻대로
##사업
탐험대
공백기
카이지
히데오
은지라
도선
중증
선승
나이스
오펜
일신
SSD
광명시
핸들링
요시코
##드라마
mod
산동
의성
다이버
Ice
영의정
한바탕
홀로그램
##내티
신시내티
기물
##BE
침략자
##국적
##ella
안상
##갈이
김동현
남양주시
길동
##림동
나뭇가지
서건
구약
깡통
서현
시식
일류
컨설
Year
속수
760
공기업
배틀로얄
럭비
기뢰
발화
질소
%]
가나가와
위구르
교의
김무
묵인
온리
아나키
##글러브
영화상
골든글러브
송시
정치학
조승우
귀인
보령
타파
포그
990
장로회
염원
용역
투게
학장
아이패드
그래미
아머드
xC
하청
보드게임
영통
주이
555
승산
##ori
데릭
봄이
파프
근거지
까치
발버둥
뺨치
석판
접착
처칠
현혹
아이샤
도합
보어
빈자리
빨래
에트
##fl
마사유키
번번히
이바라키
미개
아과
팝콘
하복
진구지
비이
총살
심포니
악녀
투게더
밀착
이징
##촌동
권법
렐름
메피스
백상
쟁취
##oph
him
아톰
장만
They
Lost
마그네
보일러
연필
##세어
유타카
전처
정호
토양
황건
##기니
에이브
960
우르스
공화정
강수량
PPV
라모스
매리
정태
항문
##72
헤일로
몽고
방글라
우버
저우
케스
핫토리
##어처
미니어처
방글라데시
맥스웰
중성자
~.
윤치
2200
부천시
음표
판자
하야미
구부
비니
빠름
영예
와스
야만인
game
놓아
섹션
수순
열폭
비웃음
날렵
Arc
매월
삼척
재방송
즈이
트랭크
##피디아
떠도
하진
TA
로엔
박제
소파
황도
##현실
공파
농산물
보나
히터
생활관
공생
위키피디아
##프레이즈
책임감
사유리
Under
대작
반증
알론
요스케
주택가
맘대로
최경
험난
점원
##마이오스
##othing
##남동
295
부지기수
독사
병실
수문
죠타
키르
투창
##나스
##덕지
바빌론
리차드
귀가
면세
통곡
굴곡
킬링
Rob
미마
합세
404
610
우에스기
면회
실각
Cur
##zer
에르난
소시지
Mc
프리츠
갈아엎
영력
카메룬
프린터
사마귀
대전차포
dream
초유
퍼거슨
후견
##만화
네이밍
Imp
관청
놀래
##....
자가용
아편
헬레
포르테
정공
제이나
Gra
몰이
상응
컬처
##치우
침입자
역이용
카봇
580
바닷물
율리
##ving
Anim
정복자
동양인
png
무투
축물
##호마
특별법
교통국
VC
용문
##ITE
펠리페
강우
##자마
미스틱
세바스찬
삭감
질투심
MMORPG
간사
도출
도무지
주세
조선왕
관심사
모루
##YS
Why
간간이
칼로리
흩뿌리
신기록
블라인드
명색
봉신
주상
stop
강승
마유미
테레사
수두룩
보더
##ARK
공언
도용
하류
당도
독신
로시
승전
장보
##캐피탈
단체전
남하
뱃속
재야
천정
피날레
top
880
##order
Kiss
자만
채색
이리나
자타
콜럼
탯은
405
강의실
어드밴티지
##omething
가독
다희
수심
야크
이라던가
캐치프레이즈
구걸
원탑
해답
##천면
##레르
Spir
색다르
소질
무참
체육복
기모
문선
브렉
장터
Enter
대천사
##그라들
##92
002
살라딘
연무
##fore
Secret
박한
비너스
쭉쭉
##베로스
##테라스
vol
기고
산재
공상
기흥
김범
풍신
여하튼
소말리아
걸프
대종
##WS
266
김대엽
파출소
자갈
즉흥
혁명군
전래
체온
##82
##구름
시뮬레이터
모녀
판인
남양주
거장
난이
언리얼
온통
형체
##차림
##쿨루스
##INK
미야기
결여
속기
외인
초소
##뱅이
현대캐피탈
귀도
여력
파주시
490
HL
사울
Ann
war
루갈
박현
왕도
위세
코네
##광이
##ANCE
ACT
크라켄
중기관총
갉아먹
마조
소미
사이언스
포스팅
TL
불복
##ury
아리랑
로카
머무
저쪽
혈전
달리기
쿠로사키
기민
##부림
애니맥스
away
개기
매듭
쑤시
중무장
혈족
유리카
마사시
아오야마
FINAL
blo
양세
아마테라스
블레이크
Pan
아레
##렁크
길쭉
변덕
제철
건과
쇠약
쟁쟁
파이크
서영
겨우겨우
미제
습성
악귀
의논
광신도
나팔
한진
부자연
수주
오닐
일주
박성준
머슬
오거리
하이스
매그너스
속삭임
가젯
마킹
말다
애비
윤정
카시오
쿠가
박형
본연
##mon
##중심
##시아키
Roy
성욕
퇴진
##터지
단면
상선
##URE
SNH
카밀라
Dan
베이시스트
425
Reg
합성어
김주찬
알렉산드로스
만찬
1890
생도
폐차
톱니바퀴
독실
드나들
레저
정읍
##라면
초심자
IZ
가부
미노리
일구
##일체
##Pa
##활성
가톨릭교회
Hun
Sal
동당
명소
##나츠
강남역
blue
JB
속보
수시
##병원
Remix
스러
##루가
코마츠
ed
뚜벅
연옥
의역
특대
시계탑
Normal
light
데저트
일색
찢기
타노
트렁크
햄스터
##미온
##반짝
세이렌
무더기
성룡
##부진
반짝반짝
서건창
Vir
반월
부엌
유모
강력히
##aking
아키토
비일비
통나무
##코지
끝장내
비일비재
넥타이
발가락
악취
전일
천룡
##지아
개정안
더럽히
민영화
From
되풀이
얼떨
Plus
쇼트트랙
속삭이
라플
Micro
문도
신교
실태
응모
해리스
현저
다이고
기저
열중
지민
태화
우주인
피부색
입김
훈련병
발터
장조
올리비아
토론회
글라스
로하
플라자
BEST
일일히
요충지
견훤
엎치
엎어지
API
str
무효표
##스턴트
display
변함없
Nat
영종
##틸러스
노틸러스
탄식
트램
폭염
로마인
밥상
신타로
연격
초장
타루
080
마사루
고분군
GRE
해결사
용산구
지름길
검문
##바겐
상급자
America
had
앵무
실과
##esh
사산
영유
인스턴트
퇴학
##르르
##뚝뚝
베이컨
HA
짤짤
##저버
두꺼비
Easy
리알
옵저버
##코타
##엔드
사치코
PERFECT
add
무표
도련
345
당파
뒤편
원탁
고심
명수
은거
점령지
By
LR
무릅
무뚝뚝
##ney
공격자
무릅쓰
작명
혼잣
##불복
005
JAP
과천
플로우
##급수
결탁
긴토
##잇감
시코쿠
마두
방진
복불복
비법
을래
재력
부풀리
혼잣말
로터스
우방
화사
엘리엇
Dri
상봉
창녕
Band
납작
유병
하긴
패스트볼
총대주교
형용사
검투사
진풍경
소정
지프
스테레오
박소
함양
##GO
글로리
수서
질색
당선자
크래쉬
셰리
심신
항시
자작곡
XI
드리스
식칼
칠성
##38
국과
더글라스
Ob
손패
Ha
능선
색감
810
정파
배신감
브레멘
퍼스널
##erson
소방관
288
동그랗
대보
모뎀
발암
##파시
##손자
ㄴ다는
안티오
경례
긴밀
재촉
##씌우
활기차
허드슨
잡아가
청순
##차근
##OLD
차근차근
산적
##히드
대학살
레이더스
Wol
##con
518
경복궁
달마
퀘이크
현란
##페리온
스테인
출품
한동
##연의
유니코드
들여다보
도미니카
동학
사이언
기대치
da
관구
수긍
일판
시마즈
준결승전
레코딩
##무책
참혹
루주
문희
영애
진시
코앞
토에이
##무트
임창용
PTS
고해
롤리
송은
식이
야지
휘감
272
Fant
권영
내쉬
볼거리
상트
오치
MSI
GIR
수훈
홍진
##기구
15000
미치광이
리아스
Series
모기업
사본
사흘
학실
##리크
##을리
아키오
유키오
땅콩
연명
무턱
택지
포티
##모으
마제
범람
이해도
780
##테이커
would
권선
담아내
독고
##게티
명종
##피오
평가전
고려사
신분증
AJ
##감독
bu
##orry
신학자
##메드
근현
##순환
미스코리아
유혈
언더테이커
모닝구
Video
재조
570
별세
영연
##협회
두건
막사
##반구
오가타
미혼
재경기
탐사선
GEN
소스케
상층부
ㄴ대
평평
##ublic
녹아내리
단언
명부
##도르프
고루
법규
시치
판박이
840
기프트
드가
소다
초승
##스타인
보주
폼페이
번화가
걸레
식단
특강
중개
스커트
액세스
편히
MED
고강
미자
아흐
왕래
차량기지
1901
하퍼
텔레파시
기득
박헌
태안
아이치
유야
탐탁
##wn
##idae
려니
마상
병법
척탄
탈진
가인
게인
꽃피
리니어
회랑
힘차
코우타
석재
에고
머스킷
PE
당수
동형
둔하
브롤
재외
아라타
대주자
다목
창구
##길동
OGN
메피스토
레거시
번뇌
주제곡
극단주의
속수무책
부총리
키보
국제선
MOD
민요
숟가락
af
쥐어
변화구
보건소
승룡
만장일치
용신
재연
진통
1860
멀록
아브라
카펠
함교
불타오르
쓰다듬
지청
##렁거리
401
연합뉴스
지선버스
오재원
가고시마
다재
##키치
286
GIT
복량
##ato
미사토
코스타리카
UB
영영
조쉬
SPEC
까맣
비스타
서연
경치
데바
톈진
오오타
중공군
응수
지구력
JK
xB
박희
사커
##높이
비트코인
Force
맹공
칵테일
호이
도이
화분
##지옥
##려고
문화사
ACE
##ITY
저기압
결점
절멸
이경규
매개체
인양
조엘
홍명
후부키
마나카
페르시
심상정
주문서
SHD
카카시
춘천시
하노이
작성자
명함
의수
토도
역사학
1898
신현
주정
지안
##케이크
레이튼
스파이럴
니퍼트
물의
카코
##ATA
ro
금주
장현
##MI
창조주
용기사
산토스
용지
##득이
321
난조
사민
플랭크
공학부
중독자
민선
분분
순이
정열
천명
299
스포츠카
하노버
##ison
아랑전설
가망
타쿠마
당직
독하
사황
##마키
동호인
국철
윗부분
장검
##쿠사
깔보
누설
동거리
센토
##외과
##umber
예감
위문
일그러지
트렉
!!!!
STAGE
620
뉴트
으르
번호판
제네바
##hn
고저
도나
파마
##TLE
RES
##파르트
모니터링
편법
픽시
1902
과반수
Div
안데르
용돈
코크
알레르기
슈마
##현희
싸늘
##미안
기계식
발송
정미
죽전
호문쿨루스
갈릴
상국
##세유
##기리
히트맨
FK
기단
폭우
##만별
ㅕ야지
천차만별
무턱대
기전
퍼트리
화단
##와라노
후지와라노
Lu
구획
쇠고기
아냐
치수
##디나
어쨌거나
본전
허점
GITAD
금광
몸소
체의
##다발
##러붙
우노
총력
향교
출자
이해관계
EF
논외
##권력
영웅전설
차례차례
삼국지연의
검법
헥터
재계약
질식
두더지
제논
##아부
1897
KV
발군
정윤종
짤짤이
##석희
몽둥이
##라시
구수
후한
완장
##BT
무신론
##페테르부르크
이동해
영업소
MOVIE
부의장
상트페테르부르크
바짝
와시
파티마
프란치
아자르
도성
먹잇감
퀘벡
Ta
강지
메오
레기온
무표정
고국
셋쇼
자생
312
셋쇼마루
린코
점막
JAPAN
개소리
성신
출정
타순
Future
오븐
타개
접목
야키
##tm
폭스바겐
나성범
세네갈
die
불스
준이치
357
유도탄
boy
링고
베르트
불패
자퇴
퍼블리
블랙리스트
ZERO
거진
건들
화원
##벌리
쏟아부
힘껏
##amb
than
조선왕조
820
얀다
천호
##비행
결방
비드
##마다
음식물
묵묵히
pre
녹슬
수저
엘튼
한상
##넨탈
국방군
총독부
건반
계파
신안
용광
북서부
하코다
장단점
곡사포
FD
노면
밥값
채광
307
355
출장소
리허설
Here
모지
엉터리
처우
호머
##방위
Fin
el
다느니
비안
수거
진언
행정학
디아스
수아레스
Championship
너트
Aq
꾸역
지스
무턱대고
cod
벽면
이랜드
케라
##다능
종착역
영암
스리랑카
다재다능
마틸
박철
블라드
막대기
발의
한지
der
역세
웨이드
면사무소
유자
발사관
##irth
카우보이
왈츠
이한
전량
피안
휴재
##어가
could
산티아
오대
중학
##read
335
International
가트
거만
안달
연약
원단
자우
##hed
마르세유
광자
유년
쿠타
##강하
네이비
소인수
##해튼
2600
무인역
교부
제끼
직함
까발리
빠트리
청도
##odu
코즈믹
초승달
기내
몬드
일축
##acy
선후배
Queen
퇴원
##ror
1894
간헐
반문
##46
경작
망나
Exper
이수근
프란시스
모티프
김하성
황재균
새천년민주당
기류
만하
프톨레
화승
프톨레마이오스
소변
애도
만주국
리자드
잣대
##분별
드라고
복역
스물
직경
말다툼
리콜
멩스
조나라
##브스
GITADORA
##아떨어지
계급장
섬광탄
급강하
리저
일수
자조
해파리
리포터
맞닿
양덕
뛰쳐나오
다레
묶음
전보
청라
##올라
나지완
쉽사리
열연
코볼트
##무쌍
메인보드
모덴
##테크
적재량
최전방
로또
추태
##토프
대성당
셔틀버스
power
교파
심층
역공
주신
트럼
테크니컬
Pat
알람
특사
매킨
왜건
육수
을지언정
엔지니어링
Old
만기
셀카
채식
첼로
태엽
##락스
증명서
관찰사
산티아고
마동
암스트
youtu
호른
아마노
숙성
황야
독립군
시비르
how
대합
옷차림
는데요
##ctor
페르난데스
중남미
Ill
앙코르
##맞춤
묵시록
끼이
노론
다윗
지략
##두고
이경우
호두
ᆫ다던
루이즈
아케치
FOR
떡칠
토아
Mor
금나라
전학생
경찰차
시에라
후열
##unch
벤자
##RC
##노르
강경파
세공
여과
##화기
Look
BLUE
미신
오수
##iw
오르페
710
Work
꼬꼬
미첼
틈틈
아나킨
유시민
pla
달달
봉우리
옥토
황급
##icle
카이로
테크놀로지
접대
지지부진
수백만
거구
라메
하울
##iant
파이어볼
VT
강백호
야포
사회당
앤드루
최연성
상이
오영
용모
칭기
고함
도수
본기
포항시
##리쿠
로도스
우키
컨벤
피력
이제야
강물
피코
핵전쟁
##아프리카
합창단
마아
모카
JD
호연
##티아스
도카이도
애런
애증
원주시
횡포
메이든
유례
암스트롱
미생물
손승
지노
코랄
호쾌
아야메
시리얼
정찰병
카츠라기
아우구스
Er
Fore
Give
##고양이
크레이그
선녀
##ces
이근
통행료
내무부
청취자
국세
비활성
장강
폭약
##타니아
세이라
이봉
주안
##QU
무분별
배양
유실
리빙
왕전
조아
화포
##메탈
플라톤
Dyn
츠요시
보보
애슬
나루미
공리
방통
효종
Cla
마셜
맨해튼
자카르타
궁녀
심취
##LY
##cal
##otion
갱생
문종
클라인
##els
프랜시스
피난민
Aqours
Ber
##su
##달프
김민철
후세인
각하
애너
일라이
장승
탈레
##라호마
##적거리
오클라호마
스털
##WC
마그나
강풍
국부
##가나
한국전력
고의로
문수
346
전화기
칸국
276
빌리지
급조
배낭
베리아
션트
여실히
와트
의용
음악중심
보컬리스트
구미시
스탬프
er
법관
유관
##브리지
Dav
번안
자해
주괴
영화사
맹주
백석
송환
알프스
치매
콜렉션
##불사
전국구
함종
##면체
대표자
근사
낱말
성리학
##글러스
구조대
케이코
리거
메들리
##파트라
아득히
클레오파트라
총액
퍼니셔
게으르
놀이터
브리오
진사
칸트
##인더
아랍에미
아랍에미리트
강박
공직자
원초
##ask
더글러스
청부
##혜원
##ender
속내
피타
하이트
##엉이
조선족
더라고
뒷목
만다
##ami
황금색
여수시
동귀
술래
제수
##레마
추축국
속곡
이철
에이핑크
이설
절로
ARC
Plan
np
마중
마오카
식감
키릴
휴고
##시원
라타
모레
##sy
##바스티
지원금
RNG
요직
충만
사조
히미
##와트
온천욕
루미너스
이그니스
Fort
금연
미요시
방독
슈이치
양민
아우디
TFT
키네시스
결렬
김밥
더디
카다
소비량
TBD
달서
학관
광주시
동해선
Player
구급차
개항
러커
CI
sy
친동생
##대신
그레이엄
넘버링
교신
글꼴
롭스
쿠쿠
파훼
##원숭이
육군사관학교
발명품
See
단가
말싸움
출가
##주석
high
치욕
나가노
애드온
전태양
간토
##ular
최지
효도
지지층
타임스
##여래
##elieve
PTSD
비교적
안젤라
초신성
모여들
국유
무드
세심
슈츠
접선
##재주
##젠더
art
MH
반야
우레
베이직
모모카
가마쿠라
WIN
관철
한껏
항체
프라하
예식
##SH
##사탕
낙점
변론
부비
펀딩
고흥
얽매
연중
포츠
##예스
Sub
반향
철인
침실
큐리
##테리아
선제공격
인내심
고상
도그
카톡
스타인
아폴론
hPa
상습
언어학
직장인
Ever
주성욱
컨벤션
배회
치치
흥덕
우치다
INF
오두막
남경
##뿔소
금관
매물
치닫
쾌거
포포
스털링
Dec
시일
최종병기
Another
시바타
Make
Squ
670
이정훈
사노
우성
자코
기어코
무쌍
선의
무전기
펀트
##EP
##tus
신해철
쿠와
258
이승기
IOC
덴오
슬링
진열
최동
Wonder
샌더스
안마
완치
트랙터
카나에
CU
ml
독스
필로
조석
##ICK
격상
골밑
분탕
큐티
감독관
707
940
론도
970
말미암
어메이
지검
##대원군
257
야마가타
미카사
레브
오블리
터틀
판별
승하차
벤자민
나잇
본즈
성호
Roll
rec
##버무리
##itt
385
포위망
##거미
에드가
비취
서운
선악
예금
정실
화음
열망
중생
히요리
##덴부르크
its
광둥
얼버무리
ㅏㅆ었
밀폐
상계
장합
APK
##호크
잡졸
하양
카를로
박지원
깁슨
독음
장항
클루
키리시마
끊임없
무진장
##부치
자유민주
흐트러지
군국
수혈
은하영웅
기상청
나트륨
은하영웅전설
솟아오르
##ddy
낌새
배웅
부차
용액
##비티
##쓰기
여객선
뉴올리
동군
탈리스
노블레스
츳코미
Ben
기입
맹목
설명서
얼떨결
석회
신참
심재
유원지
찬탈
##츠크
263
알론소
규합
데꿀
코스케
데꿀멍
San
아누비스
송은범
디그
죽창
중일
궁이
아타리
탯을
파사
##맞추
바이저
소매치기
건너뛰
류큐
후시
후륜
##포인트
철강
##지먼트
매니지먼트
간소
울트론
##OME
민자
발걸음
콘도
필하
##고치
각성기
왼손잡이
성왕
외벽
커티스
극회
김갑
대혁명
파즈
헛되
##93
##도바
525
org
가전
스패
탈의
하녀
##피언
LoL
세미나
징병제
Card
삼림
##vice
##버른
상륙작전
양부
즉발
팬서
##곡역
라이오
bbq
구릉
김부
떠돌이
서툴
학우
##저찌
어찌저찌
이승현
Sea
연유
##가야
##루아
이슈타르
무도회
딴지
류노스케
##미남
낙후
단시간
소르
##side
알아들
##ellow
구문
된장
메드
모체
요루
파블로
김포시
궁을
아워
알베르토
영차
타카야마
덜덜
들러붙
바스티
장도
토종
포틀랜드
일리노이
평택시
암스테르담
금동
리파
비결
##실신
에리나
오블리비언
Ko
내막
방종
추진력
hello
액정
페페
Mind
으세요
이교도
##루크
승리자
전임자
세제
자메이
지산
요시히로
프레이야
아리스토
자메이카
과외
무루
아네
##유리
매사추
군도
떡실신
잔느
##세츠
##any
##hes
미치루
방사성
##ava
브래들리
총격전
다키
대꾸
만리
조난
헤아리
호나우
##민턴
수리비
BY
리서
유표
좌회전
우승컵
스토크
데프콘
사륜
필리아
전문점
%~
버마
잉카
##카운
매사추세츠
반다
펜실
학도
##베이니아
한양대
펜실베이니아
듀란
발끈
방계
송금
하기
마다가스
기네스
사무국
백야
불도
토레
사대부
스푼
##ote
##PGA
매카트니
노먼
단맛
##가르트
##카가
시스터즈
도다
죠니
즐비
포가
배드민턴
AGE
당혹
삼중
종언
주현
클라리
팔레트
##셰비
유리코
칙령
후신
오퍼레이션
경의선
비정규직
문대
##원수
아주머니
국내선
730
로페즈
Pal
방귀
체임
타미
##form
니시노
라브
유즈키
진루
캐넌
황선
273
이시이
데코
소박
자청
산정
참판
##르디
급속히
Ra
조직력
소화기
실리콘
꿋꿋
모처럼
부름
영판
장렬
나나세
지난번
야인시대
독침
산군
양해
영생
폭주족
아미노
국면
병아리
수표
시작점
-'
양각
이펙터
##reas
고사하고
블락
성년
시보
흥선
##개미
운동회
리딩
야영
링크스
통신망
대참사
도지사
생쥐
에린
강신
셀레스
프로텍
마르스
투표수
star
그로기
under
뱌쿠
판테
부러뜨리
판테온
##ican
이즈모
서예
다양체
youtube
SPECIAL
황급히
골판
루아
반일
소연
에두
##ih
##ories
불꽃놀이
디펜더
도형
독기
역인
오호
원유
이색
일설
##구동
얻어먹
김석
발라
왜성
연예대상
푸르지오
오시리스
미비
컴파일
##YY
9999
카타리나
Beautiful
HIV
코딩
##마차
맥아더
Emp
고룡
본교
사피
쥬리
뒤덮이
구야
정영
캐럴
크론
##oto
True
GSM
볼드체
회고록
골칫
구시
군관
장구
친아버지
라이어
소유주
공대공
대양
대죄
##진군
##몬트
##ffer
yul
격자
멜버른
유강
##기름
##루이스
피로도
YTN
벌벌
요란
종국
청담
컴필
마리카
컴필레이션
배너
코소
다윈
시이나
402
gonna
오송
태커
애니멀
유사시
미즈노
애호가
교인
복속
소티
숱하
유랑
조민
핀치
어메이징
버로우
소치
수의
어니스트
에테
연립
온난
동일시
전반부
리버티
거룩
민회
웅덩이
##ollow
{{{#!
그루브
Electr
KM
글쎄
주영
##요한
프리트
고착
선미
잉어
##리지
토미노
다마스
다국적
뽀삐
상도
관입
구박
카산
##iness
국민회
소문나
리라는
칭기즈
피어나
흠집
324
Id
ep
마안
##콜라
##처리
정색
맞아떨어지
스위칭
나탈리
지저분
입소
유우나
MSM
Trans
시어머니
##미나
930
SI
건륭
등짝
정찬
정략
쫓아다니
경영자
트라이얼
미형
스팸
앵그리
양학
은커녕
##북자
벌점
집시
회생
##ific
커넥트
조연상
기척
독가스
전미
팀워크
283
가르드
트레이스
TOUR
볼로
위업
프리스타
##토메
크로즈
김민성
군부대
두고
등신
뽀뽀
시판
민경
비슈
총동원
타의
##재호
##난방
##ister
모질
에른
마요이
맞춤법
손익
하하하
검진
포세
혹자
흥원
마리코
유희관
라이프치히
결판
동티
리플레이
마나미
SSS
시타델
두고두고
급사
Bus
아연
최현
켄치
주마
타이트
해괴
##리시
##달리스트
여태껏
차우찬
방독면
로커
석권
행진곡
##press
사표
참회
헬렌
영웅전
리오넬
##scape
284
386
##워스
멍청이
국호
멜라
백동
##상하
플로어
네드
스타드
도플
피폭
아르고
플라밍고
김유신
넘나들
벅차
으뜸
진주시
카본
희석
261
박원순
픽스
하물
##리코
##자원
##스트리
004
Shadow
VF
꿀리
반점
추증
비비안
리븐
선례
지류
##ress
밋밋
엄친
##해방
##ada
정준영
오락가락
ㄹ려면
-.-
Av
VOD
극락
령우
소국
렐리아
종주
초석
흔드
##현상
##슈타
클로즈업
##태자
Arch
상세히
알비온
결산
카발
파니
아니마
아스널
불로불사
OFF
니다
로다
이학
이딴
##당당
##onight
금괴
유충
후폭풍
##프스키
sky
숙달
아스트라
Dep
배타
##las
발표회
시흥시
깊숙히
개근
무위
백승
윤서
정년
햇살
마사미
알렉산드라
엘자
##bow
아라키
정몽주
YES
원킬
##컬레이터
에스컬레이터
테이머
염색체
일렉트로닉
##afe
du
남군
더치
프로파
##amage
이지선
송시열
돌림
이등
히치
오르내리
보호법
용법
종단
플릿
##금속
가루다
프란시스코
여진족
번거롭
투석기
물들이
여간
피플
오벨
추하
대서양
TECHNIKA
직권
##민정
##ives
Ve
구력
비행사
김동준
델리
러버
터득
현은
황위
##oid
Two
방랑자
아만다
한식
항법
##APP
277
미스티
밟히
쓰시마
의례
##디슨
케이이치
무한대
Ka
did
유루
##뎅이
인민해방
근본주의
인민해방군
비엔
영상물
경쟁사
이정현
Hz
앞날
커서
##닥뜨리
사쿠마
개척자
라쿠텐
Fro
축구팀
Chapter
Tur
감화
시테
시럽
내통
마노
맞닥뜨리
보디가드
성교
이택
추악
항변
##어사
쇼지
앙골
야성
우림
지긋
페트로
해일
##MM
##누이
바렛
야후
고관
맨션
묘역
살생
강화도
015
파스칼
관저
노포
양준혁
용검
월경
조서
수동변속기
비빔
파급
레노
부영
정병
진천
주창
판국
##나물
요시유키
김태원
호수비
재조명
독려
스핑
##니파
##쿠젠
아발론
추존
##ini
Intel
습기
지양
남송
순혈
전군
스테파
870
병들
안일
율법
323
Leader
신동엽
전의
키코
인문학
금산
4500
미케
양키
코에이
통합진보당
하후돈
티라노사우루스
920
TK
꼬드기
디안
딜레마
상전
완충
타바
화염병
베스트셀러
부지런
Vi
군가
하루하루
Head
Cost
KK
덴버
민가
##디트
크리스티아
사가라
난타
불고기
테마파크
오디세이
프리스타일
동종
커세어
##회원
##쓰럽
주구장
CHA
노원구
주구장창
UD
멸칭
아탈
전상
총평
##비안
##갱어
민주자유
이종범
도플갱어
민주자유당
핵미사일
##ja
려는데
전망대
뻔히
신우
악동
왕릉
창녀
페티
희곡
캔자스시티
료타
##AMP
조그마
동갑내기
셧아웃
피살
무심코
프란치스코
생모
키오
Christmas
Earth
실베
파쿠
##97
금사
보패
치에
형광
##골목
아시카가
친선경기
Silver
Burn
양극
##무사
이범호
갔다오
군의
노토
미학
##먼지
294
특촬물
NBC
추신
##제철
발사대
대문자
옴니버스
Tok
에무
이왕
비서실
miss
녹턴
대청
현대인
Global
황보
##CO
레즈비언
내시
후지이
히데아키
공수부대
영락없
Double
모피
##베라
척탄병
북스
소체
수액
우러
레스큐
동력원
아드리아
리츠코
강정호
.?
냉소
노크
마닐라
빅스
세피
씨족
HERO
work
ㄹ수록
러일
베오
##ones
274
Street
다운타운
신일본
위너
세기말
리턴즈
효능
뉴올리언스
가꾸
끝자락
데포르
변변
악세서리
영하
위례
펜티
##Boy
##시설
펜티엄
Hand
JO
완행
##친왕
Want
XL
다든가
메노
학비
코코아
원산지
휘발유
##ASH
트랜스젠더
리의
식탁
이끼
##ery
고우키
터무니없
글귀
포인
하찮
050
Cloud
하물며
다현
버클리
예보
여성향
003
선덕
중흥
타카다
자시
2800
창립자
냅두
누에
무반
타령
Reb
===
네츠
증류
LD
랴오
리무진
어태
267
무한정
수색대
Techn
각개
경춘
담화
미발
노르드
거침없이
농지
리미터
한일
##상어
##보성
338
착실
##껍질
##충전
##앵글
소지품
지크프리트
감차
농가
아케미
메디치
나침
무디
백정
##KE
아웃사이
EDG
아웃사이더
김나
병마
쇼타로
##기아
라이노
박력
빼어나
치진
폴로
##과학
롯데월드
천문대
big
내키
라일
왜군
##미널
##aint
피스톤
아츠코
선왕
외판
##부쿠로
지법
치곤
ind
널널
머금
박선
음독
친히
캠벨
김정우
##ii
##막이
교도관
##카이저
등불
렌지
미주리
젊음
준말
##ues
##port
보헤미아
곰팡
김풍
리퀴
오차
재충전
정월
파시스트
동대구
맥시멈
Hal
이능
코메
현과
##코비치
경차
연작
황교
오르간
강석
번주
법대
순욱
어가
271
브루드
PART
궁사
대웅
미온
비누
샤드
영식
268
명목상
법조인
얽매이
기침
사간
실효
어림
아유무
단풍
미확
츠노
복직
여초
##67
트라이앵글
권세
조군
중간중간
스즈카
##OTHER
MOM
논평
동고
맞은
세르히
재원
##전등
##ating
유일무이
through
Thank
제퍼슨
불후
하버
할퀴
##ken
##탄두
의무병
싸이코
켄신
##거품
화물선
하이스쿨
꽁꽁
나일
성나
야고
임성
정단
참배
해동
##gen
경기병
경제학자
부득이
효성
전란
##쿠보
케이프
모터쇼
상환
아야네
바티스타
Second
점성술
Oper
##천후
금제
거성
베히
수풀
수원역
라던지
부군
조전
영연방
Pur
곡식
야코
위자
관계없
성장기
타임즈
맞은편
블럼
임박
##타스
체인지업
몰카
마츠오카
신앙심
마쿠
Studio
415
Cho
안치홍
표차
항렬
순양전함
박대
루시드
TUN
반미
수스
피니
##하타
응원단
풀어놓
고지대
DREAM
베일리
신겐
치장
로터
##HS
오선
##aa
해법
##iko
헤이안
카스티야
중문
혈투
수건
청정
환시
정의감
Vita
리보
어두
핏줄
##YO
##bert
서강대
give
답니다
박이
무지하
야쿠모
통찰력
MAR
반정부
서른
소이치로
액터
장부
초음파
AU
475
주사기
che
리암
시현
코야마
휘장
##KA
수력
자스
유럽연합
값싸
퀸시
퇴계
관서
주거지
징조
헥토르
287
카림
탄성
Hor
빵집
이발
학당
##jor
끌려오
문득
산개
##사건
엘리시
치료법
Group
Electrical
Water
병조
폴드
codice
RW
부산시
교문
귀순
노시
모텔
##화학
##딩크
Qual
외딴
스테파니
LIG
바꿔치기
라네
시무
마천루
당사
자파
촉발
##발트
1880
서사시
가평
괴한
성좌
손주
최수
헬름
하이드라
아차
자외선
천인
모이라
##트라이트
머스탱
대마초
Sign
XG
필중
##나도
레이프
블로거
석가모니
문산
쇠뇌
실프
현충
배재
##던스
불사신
맴돌
카스트
##ael
파이퍼
스위프트
트럼펫
매섭
##oman
프로그레
수집가
짜장면
곱하
우완
##도록
경향신문
이웃집
리네
##홀름
개의
기우
다항
뼈대
##stal
암살단
거실
라엘
무속
##쿠니
다이몬
Gre
XIII
이찬
잡이
##꾸역
##lad
자유도
악순환
호동
이태양
꾸역꾸역
Vers
피넛
##라마
부녀자
닭고기
데크
별빛
수줍
조식
패튼
홀더
##ior
##토쿠
기하급수
Jr
Wel
비버
아슈
끌어내리
Radio
떄문에
HC
백혈
신오
아낌
연시
국민정부
녹색당
다로
몰타
too
롯데마트
태양광
황건적
날조
앙드레
연신
요셉
히딩크
기능사
이효리
나방
츠키
##꾸러기
318
Bill
뻗치
리벨
지하철역
개정판
공덕
오명
청송
##개발
##ANT
에이즈
카스가
원더걸스
나경
대식
740
가나가와현
금리
피조
작업장
+,
바키
에이트
이부
현도
##imate
오프사이드
휴식기
포교
포용
##니카
자유투
레인즈
프로그레시브
송영
피나
넥톤
변국
완파
침례
폭풍우
조리개
모비스
소신
조진
축약
핏빛
국명
##uz
하이데
육손
켄타로
##미경
##대전
디스토
의문점
##ipp
노량진
소타
시역
##왕후
##하트
Right
꼬치
본색
샤라
서천
##만장
Know
모더
메뚜기
서핑
소독
Cross
타에
##uff
##호테
류중
묘호
오리아나
그러다
키리코
플랑크
Speed
티라
는다거나
309
590
이병규
##셰비키
몽크
바네
성심
여몽
절기
제프리
중보
##비나
애드립
마틸다
조소
Original
Sin
상작
알콜
압구
유급
히지
##포츠
##ters
대주주
노구
단두
마무
송강
식욕
일장
스티어
DOS
병무
윤석
캐터
코모
양산시
세리아
알토
플로라
탈레반
낚아
네빌
달렉
세하
쇼고
투병
휘어지
##axy
run
말벌
처자
가뿐
교동
##usion
으려다
스모크
##챙이
호그와트
음유
정강
흑자
옆면
최윤
##이스트
##세르크
##애자
##roid
모자르
초대장
END
god
밸류
중서
첫눈
화풀이
##come
타이라
대원군
카게야마
나침반
TM
강현
탐내
##수선
아야세
read
남동부
매립
묵살
바레
조타
##쿠르
Where
막심
인더스
슈퍼컵
국제법
이방인
리베로
Episode
#==
모랄
이레
케임
##당선
Extra
시진핑
##마켓
부르주
정우람
카탈로그
도저
바타
벨로
친형
##부아르
미치코
조지프
개역
월남
지와
포에
황성
259
유러
TRPG
Ki
급부상
신랑
kW
고승
대작전
비위
안재
알렉세이
호흡기
빠짐
샤론
인코
입안
자폐
기념품
VOL
배꼽
현수막
라일라
안쓰럽
연선
장권
질기
##ative
빠짐없이
pack
끈끈
소하
수려
요트
##겹살
보상금
타케다
치토세
South
노회
머리띠
김성주
일기장
일회용
video
보훈
픽시브
아트록스
해적선
모노레일
문물
원석
저수
##live
반지름
Lab
공론
문맥
호건
##68
바실리
디나모
Ju
네스트
슈미트
하중
힐데
전사자
Born
유장
관리국
지구인
야마노
채무자
유러피언
공법
노도
별관
불출
삼겹살
성내
씹히
쩔쩔
##키드
##버스터
little
size
올랜
인건
리시버
김효
야노
청록
##바오
##북면
중요도
브라보
물러가
와카야마
불시착
Mill
Us
지병
혹성
Shin
잡아당기
Land
신계
신판
역경
축산
##UMI
최전선
더위
친딸
팝업
Pres
유라시아
COL
신궁
전말
살인자
Walk
기정사
김옥
들먹이
역겹
환전
282
프레시
정규직
집단군
신조어
기정사실
동태
티엘
오카야마
굴러다니
검단
노총
배영수
원샷
##stic
POWER
TNA
결실
꼰대
우도
하아
##창호
느닷
뷰어
역수
진우
##저냥
오오츠카
개사
기말
누카
니켈
무득점
직류
할로우
휴학
나카타
Rel
승상
춘향
정상인
로버츠
스컴
##ji
류중일
FP
대손
도매
탈선
##펜하
해산물
PRE
슈투
이스타
전뇌
마사코
효고현
Some
물병
유종
수호천사
하후연
도킹
이마스
장어
##받아치
취약점
Mid
가나다
산신
투아
확연
##ks
##벼락
문호준
htm
답장
유생
기모노
friend
발원
부심
향로
니시무라
오카베
히다카
준코
주먹밥
흉내내
명회
인덕
Chall
노벨상
적출
펜던트
프로즌
ㄹ게
##마타
009
외삼
피폐
그레고
강태
아키모토
장태
점퍼
제제
종장
퇴위
호퍼
파이로
블리스
저전
조중
317
이성열
may
안목
약관
양승
##yl
중앙부
김재호
와카바
SoC
레더
론드
스탄
##티에
##룩스
마사오
바운스
홍시
후렴
그냥저냥
민병헌
청동기
Iron
민스
혹한
##**
세인트루이스
아우구스투스
바일
KL
발길
속어
##셔리
##웃음
이동국
마르쿠스
연주회
Ref
동질
럭셔리
런들
백금
식수
##바도르
낙오
남베트남
라던
샐리
콧수염
##ora
골자
부왕
##정보
##akes
West
car
다든지
동과
버틀러
##유사
##고시
아오모리
승조원
강선
상심
역주
티티
포우
279
창업주
미추
승단
오야
Forever
골판지
로치
수경
##리르
##깨우
298
네덜란드어
꼭지
재지
짜르
##다임
자유민주당
아라드
청소부
거사
부다
이카리
코넬
카즈토
카와이
##자치단체
수혜자
근절
성토
존엄
턱없이
패러다임
##REAK
black
난방
리도
장차
##vin
선양
이봐
일깨우
##풍선
핸드볼
기가
나위
댄싱
외신
탈북자
##here
##hel
File
VV
계명
정희
코보
폐렴
하태
가입자
##aeb
장원준
길버트
손재주
순애
이혜
츠츠
칼초
한나
하라다
매몰
명반
문지기
처박히
##공학
아프간
##aki
저작물
이회창
하코다테
Dynam
나베
룸메이트
불순
청탁
칸타
int
에스텔
세르히오
위헌
교통카드
융통
전병
찰지
폐역
##IZ
항공편
카운트다운
곤잘
급박
빨아먹
시의
##FE
##랄라
라운지
공권력
부엉이
##랜더
##ese
##raw
걸출
노자
성정
주치
아르토
협력자
가브
기급
성찬
유달리
헤로
스기타
people
개굴
데블
헌제
##부패
##HO
부정부패
WBC
느림
채영
##퉁이
COST
속담
현생
##of
##ault
##평리
##큘럼
제스처
고배
훌린
356
선인장
갈매기
해시
278
어벤저스
오승환
붙들
위도
호실
##유희
귀여
신보
인편
캐피탈
키라리
신대륙
도당
센텀
전근대
Ray
고열
구파
남초
제미니
다이쇼
020
ha
mind
김도우
드락
파쇄
##셔스
comp
Circ
렉터
윤희
이족
인부
전희
테트리스
함흥
##바바
289
##edia
올랜도
Lord
깨부수
쾌활
탐방
##IVER
##버러
컨버터
앙헬
참작
정전식
리니
단체장
커리큘럼
경시청
급작
루도
보이콧
극작
메키
전가
##돈나
하루나
수십만
미라쥬
그럴
대들
이데아
협소
=,
김천시
비무장
심성
용가
##주얼
Prot
사법부
동음
림프
미에
증서
2300
신분당선
검수
다와
조규
테트라
금강산
보름달
ElectricalBoy
Award
수현
키츠
고노
고명
칼집
폭장
카이사
지배하
크로마
소대원
아키하바라
뒤흔들
NFC
사대
##사메
일본도
LT
오를
체스터
패링
##삼키
미군정
Collection
아킬레스
대항해시대
아나톨리아
에르난데스
다혈
악성
##연기
이와타
선지자
바케
버질
히마
##cc
남서부
옥스퍼드
Pet
sl
츠구미
미하엘
박민우
미확인
OL
타테
후마
##실험
sur
장모
게임차
매니악
사형수
미성숙
소풍
##와키
스토킹
원균
월계
캐주얼
##날린
910
집어삼키
Gar
남장
방도
히비
조인성
라치오
벤제
산양
오파
위배
참새
백모
##승지
##맞이
안무가
아랑곳
경종
로랑
속셈
알베르
외질
008
실패작
1889
가디
냉면
##수소
##처치
269
총기류
JS
가레스
위연
입담
판치
한성부
이베이
학동
##텔레스
들판
차인
##라도나
하카타
앵무새
##킨슨
##춧가루
굴하
룩스
병약
텃밭
황충
플레이스
스완지
그럴싸
mon
건널
나이키
나이토
브리기
건널목
나포
식초
장마
파로
##사쿠
def
망정
상명
재치
정용
지존
책사
치비
카잔
카락스
핵탄두
작사가
TER
물거품
엄정
쿠소
마쓰다이라
LH
초롱
##네그로
APEX
후쿠오카현
mag
경영진
레버쿠젠
벤제마
Wild
고액
빙자
집념
핀잔
Plat
극치
돈독
시퀀
지휘부
청량리
아리스토텔레스
Ze
링링
온실
혼령
교육학
리카르도
군의관
구강
압록
다혈질
##ios
메르스
이케부쿠로
형량
##andy
스핑크스
입헌
하즈키
DRA
도재욱
보면
조총
골목길
예절
지느러미
##리치
##크림
##공신
스턴스
강병
지회
탈리아
선취점
##uh
##행성
##멜로
리호
바레인
벼랑
내리막
백과사전
홍천
마음속
가속도
쥐어짜
궁기
권외
예우
은닉
##놀림
폭발력
토모미
아드레
##이야기
급전
휴즈
##미리
##공산
내몰
백자
##이어티
이로하
||
독약
라피스
마론
민물
순경
주나라
##개토
296
리서치
fire
그나
유두
절충
초성
치노
##LV
히이라기
브뤼셀
곡예
도탄
명가
서너
차이나
득점력
주먹질
에른스트
간청
곤봉
루브
444
니시키
후견인
RK
둔감
마스터스
오카자키
##메이커
부축
비행대
아드레날린
ass
급급
답하
리튬
채태인
배기량
박시
##일점
##ouri
EXE
콤비네이션
음양사
자영
혹여
ᆫ대
로한
민호
용기병
1870
스톡홀름
슈가맨
소사이어티
구포
의태
프리깃
마이크로
순정만화
호지
화강
돌격대
김유정
감점
로베르
멜로
보시
안위
##lear
보수주의
미적분
양질
저마다
직각
협찬
홍지
다이어리
운전석
리벨리온
광개토
국화
물기
바움
외고
차역
##데자
##파인더
호소다
니모
띄어쓰
방조
스펀
국가원수
감염증
##데자네이
\[
닷지
레우스
빽빽
인회
트집
품위
##인명
Lim
지탄
보관소
##ISE
fun
쓰촨
일말
690
imp
국고
##스톱
del
font
고세이
##타나
1884
에디슨
Ban
빌더
자료실
MCU
백운
한데
행정관
리자몽
은발
적수
정모
##막히
명과
지어
##노동
##불교
박정현
데우
몸담
위버
전준
체벌
##물질
리우데자네이
외동딸
피조물
낚아채
리우데자네이루
닉슨
현우
IL
산역
자괴
조재
코츠
하소연
##샤오
단두대
TJ
제창
384
리스본
읍내
탁자
##동사
스카프
시아파
서성
소바
시찰
초속
피디
사이좋
006
삼성그룹
브리기테
Hall
면전
파하
281
충전기
측정기
토벌전
폴리곤
오현민
Mich
WD
wr
##xy
##루즈
still
지리산
Bon
광원
상큼
토고
헬륨
297
카즈오
코노미
Vf
군무
리소스
앙숙
온두
육전
코뿔소
##istory
와이즈
루스벨트
온두라스
##케이드
##심원
EG
KAC
구전
신마
코오
스포르
부응
여호
Child
관악구
푸아
##히메
몬테네그로
CONC
Jump
구심
영과
레이즈
토모에
미시시피
공보
옥황
임파
장경
아야지
336
포니테일
Round
몰수
옥좌
기슭
##폭스
사부로
우표
##푸리
##크론
##받이
오스트리
하여튼
교우
서한
손전등
용수
장고
히로아키
만신창
대권
만치
무주
뮤지
Mart
Nav
Wo
쿨러
카산드라
배설
산기
증산
##ba
##ising
베르나르
히라가나
ft
당구
듬뿍
랜더
샐러리
팩터
HAPP
스몬
윤하
전입
홍설
Guard
격화
롤스터
웨슬리
아무로
베르디
박해민
Eyes
강룡
과소
포춘
##uel
그리움
##cept
요금소
수필
##추리
브리타니아
모래시계
애덤스
##태평
770
레스테
약혼녀
센티넬
전년도
박건우
꿰차
비보
빛깔
음직
##TO
레드불
요오
워렌
헤비메탈
도일
북측
유현
하등
Dist
군소
씨스타
조스
##츠바
##잔치
동반자
농축
온과
입금
조안
##찌개
네이마르
투덜거리
경춘선
Bas
이지만
적설
츠시
콜리
합전
Rh
앞바다
우타이
쿠다
대법원장
경무
도축
수화
엿보이
음차
잇달
##타리오
30000
Ball
메구
봉선
세군
식히
컵라면
##ever
보이저
##reme
히토시
sub
공제
데자
무왕
역린
음악실
아울렛
낚이
##토무
하이바라
생활비
##oke
RD
독식
플렉스
where
어조
유리아
후쿠이
페르디난트
케임브리지
tell
대야
와리오
환하
아마미
녹아들
독학
만월
요츠바
프시
##아넘기
콘스탄티노폴리스
Royal
의향
적병
수족관
OH
고춧가루
전초
조윤
포경
호죠
##여왕
319
GDI
노파
으레
창백
휴머
익스플로
서장훈
나탈리아
익스플로러
par
비탄
옮겨
폭렬
유키나
골인
기선
노상
무희
합본
행패
다이얼
거상
낙엽
뇌신
빚어지
흐릿
Inst
삼국유사
떠맡
스벤
안부
종북
투데이
팔콘
품격
##호란
에뮬레이터
흥선대원군
가논
니이
산불
예프
종시
주무
코버
##inity
권위주의
LEVEL
파우더
American
two
온건파
낚싯
도큐
목판
장량
할애
홍백
화법
##ker
##푸드
깁스
밥줄
에타
제원
##리어스
##56
##cer
아라곤
켜지
핵실험
후훗
##캐롤
부여군
과달
마역
반투
양력
용마
이티
타크
휘청
파스텔
대합실
RM
가파르
우현
마스미
내동
새뮤
신월
양구
티미
##비에
교육자
김사
난항
로베르트
리링
미덕
생화학
잔나
860
고환
무브
배짱
파레
강동구
간선버스
송창식
오벨리스크
책자
합참
철조
커쇼
##교동
##쿠마
마사지
열람실
VO
김철
석양
에렌
와전
##하우스
##캐롤라이나
tri
리피
오데
리그컵
결정체
326
Style
헐리우드
노로
천거
히루
김재현
Parad
sing
번즈
스며
익룡
머릿수
산청
##닥거리
406
입장권
항해사
언동
##둥절
어리둥절
박은
카파
팀플레이
##ddle
어퍼컷
벤쳐
쿠치
##추얼
성전환
동공
들끓
제군
카포
도미노
네즈
쉬프
외식
제니스
Luc
야라
열거
저해
정청
호국
알베르트
##대성
##테우스
그래비티
##acle
보안법
마가렛
관현악단
가곡
덕아웃
평형
##비크
##가면
##산맥
마샬
안시
잡다
수감자
고출력
도토리
오목
##역학
##vers
요시키
호쿠토
##ugh
##BL
바이브
##akao
스테파노
Fa
산수
젓가락
충렬
코고로
292
올려놓
first
보노
신랄
심수
요이치
접히
레이건
참모장
살의
숭실
카고
##ㅋㅋ
Stop
디브
차녀
화정
real
아지므로
무브먼트
꽃미남
얕보
초이스
포부
##기병
##빌라이
욱일기
진서
##를로
타카유키
비올라
padd
광휘
닛타
대당
인품
자그
##라치
NEXT
넘나드
덕수
만무
일과
피오나
사디
장년
장외
##람스
함경남도
영능
보내오
Bell
HO
등부
브로드웨이
유공자
가모
재석
친환경
##alth
이치노세
~!!
롤백
신족
약소
데니
신이치로
흑사병
2030
사우론
바네사
루츠
커즈
타박
##르츠
교통수단
자책골
중재자
고물
리니지
비수
삼지
임산부
찬반
영남대
노안
##73
##악단
지상주의
곰팡이
마돈나
벤투
보궐
육사
칼리스타
하일
##배추
##걸리
크로커
시한부
OUT
니시오
돌프
미연
선라이즈
이간
##나항공
아시아나항공
Cast
앞발
언저리
##레온
1885
람다
펜리르
풍족
##즈미
##민당
##른베르크
##핸드
곤잘레스
사하라
엉성
영걸
적벽
양성소
홀딩스
더그
##ule
MSX
2023
명문가
극비
대졸
제노스
##글거리
##트르
##락부
엔드게임
Golden
와일리
폭정
군비
레카
배합
Alex
기간제
촬영장
해적판
라미아
알폰소
Our
겹쳐지
드니
은사
##rie
exp
##trl
서유기
박헌영
소희
수포
자구
모리슨
장타력
VII
순결
암드
스스무
시퀀스
공해
망전
##타주
바쿠간
섬멸전
교가
니노
작열
##43
##라이드
3200
STX
모우
설욕
외톨
카요
힐다
프리뷰
스파게티
네이팜
ref
떠돌아다니
성진
이씨
찬물
페스트
글로리아
Far
금품
남우
아뢰
천억
매킨토시
느닷없이
FU
then
재판장
얄짤
얄짤없
HMS
느릿
잽싸
테네시
퇴적
##림픽
##갈기
스트릭
Dear
카미유
##min
늘이
불우
요시아키
익주
대표단
기관지
모리타
이주민
카세트
멍하니
문턱
베츠
서당
축조
친위
코스터
판금
##석탑
##유행
##디부아르
김영철
코트디부아르
Flash
손승락
졸전
지피
##이츠
1001
육탄전
갑각
식료
우시오
호성
##데우스
##눈물
##ARE
파피루스
?"
고바야시
셰필드
애꿎
폐해
##레알
##클라
하수구
유성구
강릉시
가맹점
조반니
교지
레비아
아산시
은유
중신
페그
##층석탑
국민학교
위기감
연대장
이지영
레비아탄
rpm
군신
약학
토호
아서라도
스파르
요시타카
무인기
Mini
수나라
울먹이
장서
활짝
##애플
Stars
키노시타
독차
세크
시망
악덕
##인구
##시험
레이버
역사가
연주가
##ought
군체
아라카와
카시와
수성구
새뮤얼
Code
난바
내다보
분별
전유
에스페
허리띠
김수현
설레발
애절
이츠카
지소
최충
세계사
일단락
트레저
성전사
고을
대란
디렉
라헬
렛츠
블링
선화
정판
플린
화형
GOLD
MIN
논술
영세
카슈
상점가
황교안
Attack
간디
라간
말풍선
종편
회사원
남녀공학
뮤츠
철창
함의
##파스
트리스탄
대관식
콘스탄티노플
윤성환
컨설팅
류승
샤프트
왕왕
전등
정조준
html
고티
나영
대연
덕양
온타리오
##피카
##iter
오카모토
##ucky
other
갈증
깨우치
총상
형질
##por
##ko
블록버스터
must
song
겸직
노니
장충
##GN
휴게실
##ternal
디비시온
Ti
Ur
레다
배팅
불합
엔투스
영제
원당
취침
705
예종
##천하
간절히
염라대왕
pp
~,
집무실
헬리오스
##AV
ret
로킹
연개
예멘
증감
칼슘
343
공사장
BAT
단짝
염보성
##십리
도민
자업자
자업자득
bec
실신
위트
탄광
토니아
##amu
서양인
Rap
기주
815
사마소
구례
늘어
피눈물
##orrow
미야비
생몰년
사이타마현
의형제
투시
830
Mob
background
아탈란
공터
발드
성관
양아버지
인덱스
잦아지
채권자
총학
쿠르트
##문고
Ven
WOW
뉴타운
주니
##kn
##주머니
아카바
부르주아
답례
로큰
상연
야근
여분
##소디
##못하
##탈출
419
삼국전
그리스도교
Engine
padding
app
노모
노점
병동
점착
책장
출도
캐내
아키즈키
533
고고학자
NTR
친일인명
성북구
친일인명사전
군산시
도제
벌목
##예술
야구팬
331
나나코
트래비스
이택근
act
빈유
안가
파내
##bat
조용필
PVE
명기
쥬스
##gar
485
hellojo
가용
난국
무카이
산둥
선입
우솝
##po
히타치
나단
매국
음악회
계산기
line
타계
##under
291
송승
중의
지반
구자욱
TNT
모치즈키
Chaos
수구
이바지
##eca
검사장
평안북도
;;
Yo
마라도나
어딨
염주
행실
허스키
##Force
##패닉
모드레드
클로저
히스패닉
크리스티아누
곤살
극렬
변성
역자
탈리야
무소속
소홀히
break
뒷골목
마정
영자
외가
타전
퇴색
홍길동
오피스텔
뒷이야기
렌치
록키
아보
유익
이요
터로
흔쾌
##치산
##박쥐
가역
완다
요기
용례
미카미
여차하면
HYP
갈림
버나드
베개
정평
안타까
Princ
박주영
Fair
멤피스
npc
꿈속
담론
베크
서막
양배추
철기
##ORY
국소
레모
컴팩트
판문
국민은행
크리에이
실종자
##uke
크리에이티브
GUMI
차수
##도그
집안일
히메네스
하하하하
내재
되도록
미라지
사철
준주
322
요격기
모데
쁘띠
아하
모략
빗발
오에
의정
##프릭스
기타프릭스
always
Wave
곤경
도륙
잿빛
킬라
##피크
조선왕조실록
Got
료우
##42
435
중추원
난립
낭독
수마
아방
아칸
정순
캣츠
##셔닝
보병대
아사노
포지셔닝
LW
노진
양주시
원이
참견
쿠션
절박
케모
border
fall
가운
개점
노이어
덜렁
매디슨
번리
천신
커드
##드라이
겁나
몸부림
타이르
351
애완견
비대칭
CAN
DG
간만
레퍼
부이
부랴
빛내
하비에르
Galaxy
OZ
북송
불변
성냥
표제
ᆫ다던가
브리티시
가와사키
네리
노심
랩소디
러니
망고
소포
충칭
중국식
##olding
EVER
군락
비공
아난
혼신
##자르
##려내
도독
매터
삼보
체공
친아들
호통
##들레
성동구
##올로기
이데올로기
가부장
DN
갖은
문전
오존
잡스
좌지우
포카
##USH
좌지우지
Tell
free
게스
급유
페터
사용량
787
메다
성상
콩트
팔콤
##채기
야구팀
우스꽝
MID
북해
스탑
##스태
505
##ITION
히바
403
516
과감히
간다르
상파
준위
##러시
로리콘
간다르바
남도
펠로
##sung
342
후지모토
Face
어렴
특명
황정
신경질
드리우
방문객
상쾌
색인
주종
찌푸리
탯에
훼이크
흩날리
##ota
이브라
ESC
비올레
영유권
히지카타
구지
도레미
수증
도로공사
방청객
Ak
루퍼
쑨원
열량
오답
'"
무쇠
##연구
##려먹
##후무
다니까
전무후무
사절단
유민상
로큰롤
live
히가
##고비나
##체고비나
412
개최지
선제후
추신수
find
거병
검객
니트로
데이드
우발
주워
후각
평안남도
눈덩이
모씨
목도
봉승
상영관
박광
뿔뿔
연제
퇴보
ACL
lea
명군
소냐
화백
아리안
아카데미상
##aeboo
라벤
비술
샤나
성덕
음정
##영화
##전드
학살자
트래픽
갈림길
가결
골동
리시브
번뜩
본방
볼셰비키
영매
은의
적개
##sm
Dawn
설산
성군
습도
음각
##훈장
##/-
515
가독성
Ros
등수
시문
콜린스
##itter
곡도
교보
다리아
사그라들
적반
스테로이드
에어리얼
재정부
dark
노코
박서
추스
Caeboo
mp
네라
라보
랄라
새하
시물
앞길
##cat
395
키라라
이지훈
나치오
후루카와
골칫거리
year
ㅠㅠ
길리
밀림
쑥대
어버
억류
##티드
내려앉
und
형평
##하장
텍스처
유영혁
은평구
ROCK
남만
Adren
project
독차지
단판
신스케
엇비슷
코린
안중근
경품
극진
렌트
항생
상상력
마르크스주의
##그래피
IX
복병
사속
자학
적폐
홍석
328
이끌어내
show
Element
두리
앞지르
투박
##dom
##극상
##pha
제너레이션
흔쾌히
Pri
버벅
비클
빅리그
손보
##스윙
세계선
떠나보내
나카야마
김정민
함경북도
군국주의
포인터
WS
신구
응축
쟁점
##omet
야스히로
연세
장광
카멜레온
Tig
산도
식충
역효과
##ique
##사유
블레어
리퀴드
kill
비사
##사항
지상전
옥타비아
Crazy
깨트리
암약
이직
치기
##그네
##러레이터
##enz
현대차
사우전드
액셀러레이터
도살자
은월
더니만
##ript
MBT
이코마
패럴림픽
1850
제트기
당뇨병
Lady
RNA
다빈
사만
사별
선과
장석
절개
최병
캐럿
환희
##즈컨
마리우스
블리즈컨
숙련자
아킬레우스
GV
나바
뜯어먹
세레스
손등
이권
핍박
##의식
스트립
고성능
레퍼토리
LUK
형무소
##HA
프로야구
외삼촌
정일
타니아
팽이
감소량
##ima
고속철도
공주시
외할아버지
ND
이동식
눈여기
스펀지
노랫
참관
내려다보
재건축
경은
사아
소작
쌍방
야훼
얹히
자성
아야코
선풍기
이매진
스파르탄
가타카
민생
##abe
라쿤
성행위
##젤로
언어유희
토스카
카와사키
아낌없이
Away
과세
찬드라
안드레이
사오토메
라세
선식
신석
풍조
##라르
김종필
시가전
슬리퍼
파인애플
FTA
계진
혈청
HAPPY
##스태프
어렴풋
주얼
503
타카라
솟구치
옷장
항공전
inline
##카운터
새하얗
퀘이
##파람
원정군
이스즈
공작원
무라사키
head
마일즈
지부장
케르베로스
내보이
밤낮
통계학
##ruct
최준석
class
지고
컨티
##소득
선수상
399
컨티넨탈
금새
대미
무츠키
식판
침울
화웨이
타입문
Point
문답
배영
의술
이항
정봉
안타까워하
국인
##GM
페이탈
기부금
서대문구
#.
모코
유학생
플립
##FS
##새끼
쿠로다
박정석
Block
덮밥
안지
윤곽
토프
##iam
##iec
Missouri
당해
던컨
돈벌이
재심
오리사
일차
짜릿
클링
팔아넘기
한남
거제시
Armor
Train
매표
비만
연임
치켜
하바
##급부
지리학
까스
도야마
바스트
설전
철원
허탈
##만큼
##ffect
반대급부
해안선
이만수
구치소
바바라
헛스윙
이호준
괴성
인카운터
피즈
##뿌요
생각없이
5500
과도기
Evil
신태일
뿌요뿌요
"~
부검
유림
툭툭
현기
##중력
아이라
소방차
다카하시
TIME
검호
낙관
난파
목회
묠니르
가라테
가이드북
Bul
관공
뉘른베르크
밸런
외척
##제일
##만고
부담없이
밸런타인
BN
call
강재
맺히
차도
청천
파타
부산대
지우개
들여보내
서랍
폭소
허망
HTML
Low
잇세
체념
낙랑
세관
송현
추노
활자
하이네
나무라
현지인
응급실
Ring
밀키
범상
장호
회송
경성부
고충
소학교
숙녀
##47
##솔리니
##팔이
컨셉트
이준석
진시황
Wal
ever
개심
류세이
리미
백련
조잡
터닝
플레잉
가오슝
메디컬
Hon
친모
카베
하숙
##통행
##unt
코칭스태프
Lea
레조
문부
배성
양서
종가
파올로
070
아키히토
##apon
이시하라
고위직
호크아이
카시와기
"-
라일리
밀라
이채
##mar
레이아웃
부탄
외대
홍주
##트가르트
슈투트가르트
Count
GBA
반시
섭리
진부
349
박문
윤용
허기
전시관
마다가스카르
청양
헨더슨
##보르
겨울철
오비완
XM
hel
버추얼
이두
##지휘
##은성
##할라
##ste
##uts
신드롬
무참히
군종
금남
난처
염구
패주
서로마
기관사
배틀러
에스테
지형지물
브로커
연산자
대국민
파묻히
win
마경
얼추
최인
테임
포리
##세다
최신작
부평구
핸디캡
차태현
달성군
##IDIA
구로구
도니
백귀
필히
브리즈
매미
소카
오동
익산시
점토
선거관리
안정환
아자젤
선거관리위원회
Vis
##gu
타이푼
##comm
콜럼버스
군악
기막히
낸시
리신
만석
성황
하극상
해경
환마
##oday
이와테
미세먼지
적반하장
개고생
성간
세그
요아
잡아오
존칭
##악산
341
떠안
장유
처사
회선
드러눕
##earch
TI
적십자
##린내
502
신호장
거포
니카이도
터전
##NER
##케이트
##팔트
서양식
칼리파
아틀리에
가렌
성탄
예기
정육
##페아
##버니
##랭이
should
비아냥
시원찮
정성훈
쿠니오
이스케
평신
##르겐
##난만
뉴이스트
땅바닥
미란다
스자
슬림
폭뢰
##메리
마시멜로
광역버스
##ubeat
교구장
손석희
오행
편승
히포
스포트라이트
오버히트
경보병
역모
오작
우메다
##바이크
특수전
미카즈키
영문학
DIS
도금
복위
음침
해충
웬만큼
Bang
북로
##토리코
이재원
노루
사세
청렴
후송
스트로스
경전선
천진난만
노즈
떡하니
수유
아스팔트
사카타
공공연
Son
먹거리
상극
무라타
무솔리니
백기
성부
트윙
해왕
혈기
이소룡
괴로움
성시경
경산시
고성군
곤도
번역기
재단법인
Fest
독과
뒷문
민진
박보
헤메
##87
##갔다
##엑스
수도회
출입국
Pf
기신
떠받
##국사
##era
판매고
기억나
돌핀스
아나스타샤
푸에르토리코
Lin
아류
완봉
태왕
할배
##무가
353
뜯어보
Machine
세그먼트
도파
슈프
강화군
사업장
신청서
보관함
야간전
영수증
뒷담화
도노
알테
유약
##런드
MAG
다그치
국문학
카시오페아
mac
반가
부고
염화
##암역
이자벨
집행자
##berg
Jun
PUB
비츠
삼미
새미
신림
왔다
요람
임수
접종
쿠엔
##mo
##분해
카이리
##aken
헤르만
왔다갔다
##89
##죽이
스칸디나
스칸디나비아
네거
데브
리야
수선
일인
티타임
인코딩
고담
리샤
자지
지에
칼뱅
호되
프로페서
연두색
부로
훈독
##시네마
폼페이우스
Jin
르마
매운
숨어들
재봉
천주
스타스크림
코코넛
착실히
철근
키요시
##코로
##튠즈
아이튠즈
이치현
eyes
고각
반목
보검
왕징
죠지
입장료
United
대판
수역
##소프트
나카가와
그로스
부교
이승환
SideM
재래식
keep
관두
기출
다원
유원
찬밥
쿵푸
팔랑
##hone
##성어
아마데우스
노비타
David
그레고리오
역주행
섀시
숄더
헤헤
명성황후
가로우
니화
악사
포물
안전장치
ZEX
무정부
방선
핫도그
아르티
030
소개팅
세실리아
깎아내리
둥둥
보두
오물
외도
인비
점액
패딩
헌혈
터키어
동두천
만신창이
벌처
1871
에스페란
SAM
마창
외편
창천
코사카
##모르
##겨보
이름표
293
단죄
송수
코덱
타비
극작가
Honey
view
니엘
송하
재작
이재용
협동조합
경미
고단
김덕
노히트
참의원
후치
##비츠
MIT
}{
음운
최규
풍운
##lish
카도카와
허영무
!'
나체
생수
신서
옥천
입회
##ole
##나잇
이명기
PASS
Please
광무
빙고
세도
인드라
키야마
프래
나오코
김명운
미진
버젓
베데스
상법
요긴
우트
접합
프티
막시밀리
베데스다
강퇴
눈뜨
심시티
윙크
임계
##ca
##장군
SPOT
빠져들
##anced
꿀벌
루치아
사발
이블린
##매장
기억력
브라우닝
SY
바토리
방비
드래고
호스팅
Lie
고깃
구종
녹차
북대
실마리
완강
뷰티풀
술자리
임동
택틱스
허허
신기루
스프링필드
이민호
출고가
타나토스
광동어
불합격
도겸
토야마
##63
최신형
IW
강용
극상
서안
타타르
관군
균등
류이치
키호
Yout
해독제
검지
고카이저
에스트
용해
12000
판매자
고득점
꼬집
미레이
완도
자프
찝찝
##RAS
혁명가
라라라
헤르체고비나
연수원
보르도
공경
앙심
원스
##sw
요하네스
Kh
RTS
단양
덕선
비노
비앙
에치
재가
한영
##지방
##서기
Box
HYPER
눈꽃
유학자
취사
MBN
압록강
버클
서라
성곽
와치
입부
##몽골
##ener
하이스트
에리코
시사회
도미닉
병무청
전준우
바젤
발신
복고
쇼팽
야로
접두사
##41
##idge
도가니
구국
대뜸
면목
소명
종과
티파니
번역자
클린업
Wall
댄디
돈키
뒷심
우군
퉁퉁
455
압박감
마스다
돈키호테
bad
비크
트윙클
브링
와세다
원예
조이스
존나
고현
라니까
레게
비준
엄중
Log
##크라테스
골프장
아미노산
창피
팔달
##콘서트
다이치
##ira
jubeat
거금
파벨
운전사
토모카즈
무등
발부
삭발
코이즈미
라이카
1888
네크론
동수
일렬
진경
##기스
슈퍼카
아파치
Asia
벌크
에보
적법
회군
1111
살인죄
패스트푸드
그레이브즈
NVIDIA
사니
휘파람
타이베리
그럴싸하
타이베리움
권익
뇌전
디오스
삼양
##투리
PSY
교향악단
고난도
스구루
Mat
백경
벵거
상해
신아
심혈
앰버
직할시
home
패니
한별
##OB
##금니
##체스코
커넥션
바스크
위촉
##ook
모하메드
삼위
서럽
손짓
염체
##RS
##함대
얻어터지
범실
승소
허경민
알리사
김민우
예수회
중장거리
김선빈
근세
모반
서빙
세차
전기철도
아리엘
NX
경리
관도
매시
무우
프로메
루이지애나
포가튼
미후
바텐
티안
으려던
대교구
기욤
누아
대생
미조
비티
##광석
##ident
고은
실에
아웅
외박
털털
##gn
337
쿠로사와
응급처치
Kr
UL
##선언
##연장
대리석
삼위일체
Tim
수륙
##성사
##가을
##브리아
##릿사
##cho
486
jpg
랑그릿사
유강남
코소보
발할라
외눈
찬가
하루미
인도인
Tor
Wake
낙뢰
바울
소오
연심
절도사
##멘토
마음씨
조리법
시원시원
발명가
##태평양
에세이
여가
오베
잔기
Sa
개경
데메
레라
루지
아말
정철
최고령
기업가
이재호
Sword
무정
완만
타잔
이대형
부채꼴
Bal
건장
사헌
##장소
우월주의
이병렬
용광로
block
경색
기근
삼층석탑
행인
##민호
지배인
클라우스
기품
문중
북상
일순
피노키오
fuck
료스케
문란
엠버
옹주
전능
종묘
아이바
나타샤
start
낙법
야르
용하
지껄
카론
Alt
EDGE
코토미
Ham
양평군
울분
인솔
네이션스컵
바베
붙히
상비
유폭
찌들
초절
##착륙
##orean
PX
급성장
비글
한잔
해주
호오
후아
훈족
##ACE
김광석
Youtube
모병
세베
예린
요안
##모음
##슬란
Book
>>
DU
누더기
멸치
셰어
영성
제과
키친
태산
inf
CDMA
##바스티안
쩔쩔매
고학
광운
소도
유착
카무
호호
##amond
true
다드
동글
비뉴
##모비스
현대모비스
오래가
요시오
이천수
SUN
Tit
봉천
슈즈
양원
##식스
연락처
넘버원
경단
본판
현시
이가라시
마름
창업자
학벌
##궤도
하이에나
421
##스키스
스네이프
따스
사림
위클리
이운
탄지
##aper
아우렐
상한선
흥국생명
Deep
Five
불새
살살
애드리
우열
크랩
수용체
여전사
양천구
에페
##ua
감독상
프리징
비트매니아
going
지석진
Touch
식기
윤동
죄목
팰컨
##모닉
PSG
Any
개막식
리모컨
미나모토노
Spirit
앙골라
감량
브로스
사파리
연초
연연
의령
캡처
코헤이
히라노
##여대
332
카츠미
프란체스코
낭떠
애국심
지껄이
낭떠러지
롤랜드
머뭇
쌍욕
염력
상품권
SNL
박종훈
Paul
Adreno
VP
반딧
알카
타이치
아라라
우회전
막무가
사성
윤호
젝스키스
질감
헤이븐
막무가내
마세
예스
예문
자그마
타블로
EXID
동작구
변함없이
UAE
의제
주원
##다스
352
Stud
여름철
##iving
필하모닉
fight
kHz
견학
상현
의경
쿨라
풀럼
Stay
KING
결석
골반
분가
육안
369
가스트
김완
다던지
메시아
봉안
연혁
##ECTION
부다페스트
사헌부
ET
건내
드웨이
레리
유압
유우코
놓아주
걸이
놀려먹
워록
정신없이
종교인
커트라인
GeForce
플랑드르
PUBG
렝가
징후
켄터
쿠빌라이
연출가
에스파다
면세점
김관
르망
막걸리
사레
설과
##시카
##두스
하이엔드
하이랜더
##roy
ESPN
아브라함
부역
어금니
##nam
##OG
교통량
천하제일
비슈누
가타카나
turn
낮잠
미각
아성
팔뚝
현주
혼재
##티보
느냐며
Shift
라테
지파
##덜랜드
신속히
울릉도
Dom
시차
패도
##CS
##어씌우
그웬
답습
부락
클레멘스
SEC
대정
마지마
맛없
싸잡
패인
아스톤
송광민
반딧불
루소
유색
태상
##로니아
비슷비슷
사상가
으스
재소
편중
IA
노현
변혁
##iano
코다마
에노시마
아드리안
SAS
멸하
모후
묘기
호빵
##스타파
Offic
마르티네스
HM
들락
향연
##소이
1887
Monster
대용량
시무라
영체
청중
##시게
##곡면
##reeca
##dden
##lash
에이프
노르만
만주족
냉방
동중
아전
참담
펌핑
##ination
으니까요
엄격히
스케치북
개콘
364
511
Jour
Men
남문
동천
렉서스
마빈
브릭
수질
전인
##복지부
##메즈
공군기지
아수라장
끈적
넷마
신권
티치
그래피
언더그라운드
변절
워든
##문드
롯데시네마
KOO
흘러내리
##르기니
레콘
로나
비프
서산시
입소문
대마도
로사리오
금기시
람보르기니
교목
디아나
황진
##ergy
요구사항
Exp
박지훈
가재
메롱
연식
올랭
장희
진법
초면
추서
토마호크
샤를로트
막아주
Perfect
Sat
이키
허당
##도치
381
심리학자
2025
적개심
Bel
est
궁리
루블
별의
자칼
호재
##구이
##카테
프로브
전차포
바르바
소수점
Revolution
East
Name
번창
창가
제작소
##orning
유한준
Samsung
펜타곤
빗발치
범블
안토
옥션
##ns
##실론
Mov
##ension
SFC
야동
어군
저놈
오리온스
Ghost
족쇄
히페리온
우화
추장
표어
모국어
화강암
SOL
군위
나찰
로타
멀미
배추
전현
##누키
들이밀
별의별
Mom
rad
공력
사문
점진
하미
##경궁
##onely
우르르
신용카드
##제르맹
고슴
뷸라
윙스
접미사
콩쿠르
늑대인간
이질감
류진
암수
흉폭
##청역
아야토
에스카
##uster
놀러오
고슴도치
노에
생제르맹
채점
폭도
##따라
329
소년탐정
##르기스
쏘아
흑요
##ural
대공국
미용실
##soft
썰매
썸머
##eon
##코스트
##글러
327
히로코
일대기
슬래쉬
FOX
대좌
버진
볼펜
양용
츠토무
##보로스
##itz
절대다수
이무기
감방
대총
화공
그리피스
낙마
베컴
병문
위신
절연
출사
힉스
371
##ORTS
범블비
검신
떼거지
자두
040
발레리
Ca
낙천
등반
물총
폭시
피임
615
김성수
궁술
당명
쇠락
충주시
##EG
##무도
타이타
스페이드
##adient
자연사
파라곤
정착민
보두앵
Keep
똘똘
윽박
자인
전출
조호
##콘신
릴리에
위스콘신
김범수
엔비
키르기스
2700
Vict
복당
북베트남
송준
진선
후편
##DMA
##백제
엘리제
ㅕ라
가후
맹자
캄파
혜화
이상훈
파이즈
413
1882
오로치마루
Talk
계륵
불황
회력
휘날리
334
편집부
975
그로테
부원군
아사히나
고조선
공차
봉급
부커
서곡
하다
햇볕
아아아아
벤피카
육교
인포
평탄
##rel
광산구
윤치호
어투
퀴어
##GL
##지스
##유진
언쟁
유황
잇세이
##쿄우
피아트
레스너
예배당
넷마블
사돈
양석
장덕
김건모
vlive
라느니
먼로
온양
Fn
TBC
도령
동관
연일
유복
키쿄우
포시
폴나
허수
##예산
케이온
카페인
폴나레프
곤두
남조
아어
양녀
역정
직물
풍수
요시모토
추락사
노부유키
김태형
블레이블루
유부녀
송지효
불출마
네거티브
National
대일
록히드
무과
숨바
움켜
김경훈
데얀
독극
마흐
클록
킬리
파운
바이마르
귀양
브릴
쏘나타
아다치
JA
고타
곡옥
네브
새삼
수열
부산물
철조망
급락
유경
첨탑
체어
황홀
##코니
432
1886
후임자
고결
알현
다이키
데스크톱
Digital
파운더
쿠인
417
터치다운
정수빈
Eye
논스톱
닐슨
명망
미일
장장
해룡
허상
708
고질라
김갑환
BREAK
기탄
셰이드
총잡이
키도
767
켄타우로스
우로보로스
Strike
근심
마교
본받
예체
알렉시
BRT
예체능
Ax
dj
면부
측량
파국
페넌트
어쩌다가
기차역
외지인
UMP
날아라
선망
슬럼
이샤
최남
특보
##포화
지도력
실망감
콘스탄틴
플라스마
TOK
기무라
나태
야부키
존대
탈세
특능
##군데
##ops
김재규
제사장
Records
흑요석
데키
메루
미투
박신
운고
위즐리
천칭
톨킨
후천
타카야
로네
삼화
상설
소코
유람
이청
정숙
이태원
보미
지포스
진저
##촌리
408
오리올
로망스
##tainment
Tu
Van
야옹
회동
##사가
멀티미디어
웜홀
참살
프렌치
##iverse
오모이
말린스
본과
인화
백모래
Az
브리트
인즉
허덕이
화답
바이슨
유니티
적대감
가좌
김자
버락
서상
송진우
스윗
에어로
울주군
호치
화엄
올림푸스
667
Shoot
마누라
Hyper
빨치산
뺑소니
코덱스
팔자
휘젓
790
내한
반송
발짝
에헤
원혼
##란도
눈여겨보
Europe
SIG
권오
말랑
##포타
Doctor
청사진
선구안
Afreeca
MISS
김국
석기
섭섭
시해
풍월
##프랑
토시유키
Hom
산장
부족수
타카토
미즈호
메릴랜드
만사
총국
친우
큼지막
활강
후니
great
추계
##주나
50000
Danc
가일
발바닥
슈틸
키린
556
트로츠키
카스텔
보건복지부
Cool
Cre
main
마젤
신일
엘시
연줄
일광
코야
테라스
##질서
프랑스령
1883
백악기
로메로
깐깐
미구
회기
##gram
##기념물
OD
hy
옥시
철없
초탄
타트
##모프
스칼라
대진표
항생제
라토
바구니
실축
일탈
포악
##BLE
##VR
##장사
##맥상
예정자
광역철도
천상계
SOS
앨버트
중앙은행
자그마치
fly
김춘
부르고
##스티아
sch
다독
목차
어촌
표트르
알리바바
슬래셔
Return
Ultimate
수문장
구모
레시
옛말
인망
일평
##페리아
890
강일
심이
우고
주경
호에
##91
방문자
의료진
이재학
ZEXAL
검무
아무거
##웨이브
1892
드럼통
맨틀
슈와
야토
팰퍼
크라이슬러
팰퍼틴
기파
일문
자임
장하
촌스럽
포머
스타쉽
바그다드
Welcome
도경
쇼콜라
순탄
쌍수
염장
입학생
하북
혜리
##부단
이이다
메소포타
Beast
메소포타미아
징발
키세
한우
##르카
##돋움
1050
마나부
우에하라
우유부단
리히터
team
일본국
중앙동
원더러스
래시
로튼
바예
역삼
으으
은연
초크
808
브레이킹
##awa
사일러스
홍성흔
놀아나
당위
데시
로터리
발돋움
산인
원기
전집
절명
##루트
##롤터
저작권
대성전
지브롤터
경공
만재
무느
손시
워크스
장엄
짭짤
쿼크
푸념
##민수
##합성
7500
고지식
다항식
Soc
약어
최희
추수
##vp
파이리
전지훈련
목포시
이세돌
Fox
Gate
불매
파베
머리통
465
##ogle
##strum
모덴군
볼로냐
Ctrl
Ger
미샤
은하수
가상현실
슈틸리케
배스
울라
허도
히말라
AIR
광복군
군데군데
신태용
DIA
Dog
류성
만취
연민
푸이
후이
##위키
김기현
부유층
토우코
포물선
고행
뉘우치
답시고
신토
연가
호령
케이시
675
이정재
##투아네트
리베라
가시마
개과
성흔
어사
종회
창술
코펜하
키아라
##상현
##히데
##amily
유사쿠
지명도
자국민
원어민
코펜하겐
저울
347
기념식
##arden
엑스페리아
광안
목질
부파
비옥
서희
유턴
층수
##루이
##분열
인건비
계량
봉고
전단지
짐바
효린
##머드
AOA
Java
맥심
문민
밀려오
##IUM
##oro
알리바이
##lee
네이선
여대생
골동품
378
독립국
체육회
경매장
감회
갤리
앙투아네트
웅크리
철종
는다던가
노동부
아시타
코마치
Conf
매춘부
nhn
공학자
##에라
가득차
DMB
뇌격기
띄어쓰기
Watch
결핵
윤태
점호
힐스
최고위
last
빈티지
제레
포일
혼전
##개치
##트리체
연습장
##ARS
용산역
.!
권정
움짤
장준
현신
##보호
마무리지
iPhone
리저브
프로메테우스
가칭
불기둥
##xx
##레더
유니언
그로테스크
MMA
UX
공녀
도기
병렬
소토
테헤
그리즈
inc
조치원
정예병
페널티킥을
Turn
동승
린카
오드리
장력
포사
414
그레네
니체
두스
코튼
헤스티아
##주환
##ession
스며들
Tal
동키
명도
박계
염경
토부
##zen
##눕히
##ASE
적대시
이정후
도통
알란
##자실
카즈히로
수면제
히라타
갱스터
헬라
혼노
##okie
천연기념물
히말라야
CIN
박창
베니스
폭설
##카라
407
스파클
1893
##반도프스키
식료품
동키콩
레밍
린지
무이
볼보
염료
특제
##호리
##음악
##첼로
홍명보
Qualcomm
고병
낙찰
레반도프스키
로직
판관
드라마틱
바닷속
괴기
서하
어댑
495
Teaser
어댑터
\\
간통
금오
만덕
법전
심즈
주호
후버
훈계
문제아
가정부
##OSH
보행자
비속
새마을
요로
카누
한서
##뛰기
베르사유
하남시
견지
메리아
펴내
한민
##코모리
##YA
##등식
354
때려눕히
히키코모리
부르고뉴
식도
열흘
정력
##나귀
##당동
확고히
테임즈
##NO
Ready
단념
도의
신군
어수선
페스타
##yond
##임자
358
1891
이주하
고종욱
Color
##otta
계엄령
애너하임
청록색
ya
도자
보카
장음
정운
징시
핑키
##fly
대웅전
BAD
sol
슌스케
전해
점철
한자음
~!"
관사
덱스터
라빈
살모사
선산
칸토
##진영
전문의
이종욱
sun
예조
진아
유인원
필터링
##ALLEN
윤보선
요다
징그럽
찍어
천민
개인주의
고위급
마요네즈
라플라스
찍어누르
농작
농후
연차
장가
질리언
배상금
Human
계모
메데
물감
프릴
한산
##아노
KTF
Blade
베아트리스
Ultra
올랭피크
even
게레로
모미지
방불
아사카
이각
장재
타이토
엘리미
복귀전
##ELLA
AST
메구리
탬버린
Island
기말고사
bea
기예
릿지
미요
수재
오뎅
점쟁이
##푸아
ᆫ다기
디아즈
최하위권
best
바츠
소린
엄니
조무
포프
프릭스
해저드
호남선
SPOTV
sleep
새비지
여아
##UMP
##자매
601
GOOD
Det
꽃밭
덕지
벽안
어묵
우무
크리스천
ob
강산
난잡
시편
우규
진의
짬밥
##부랴
368
동정심
장원삼
포토샵
BIG
fps
가몬
우왁
점보
한시
회당
##Sp
스캐너
국밥
대천
부캐
야규
유레
키메
1250
##나이더
Devil
소지자
하네다
고메즈
셀린
오자키
지먼
직간
조사단
외할머니
UTC
가극
과테
모뉴
울버
이맥스
##SPA
에미넴
친화력
과테말라
모뉴먼트
Gro
갈취
마소
복어
선반
예니
정남
##사와라
##건건
전기장
컴퓨팅
사사건건
Disc
type
xD
교만
린타로
슈바르
특산
풍림
##레나이
어느덧
SPORTS
멕시코시티
시라카와
마카롱
수인선
자경단
김환
반파
베지
재스
접경
지랄
철교
맥라
박테리아
선주
에이드
우뚝
오가사와라
포격전
가산점
Crew
내딛
마들
배관
클로스
학산
회부
장식품
연극배우
압둘라
금천구
기안
라코
모가미
을사
판소리
항행
NPB
공대지
오재일
HQ
더리
점잖
취조
토박이
고등어
451
757
Prof
신중히
BK
맥길
민재
벌교
본당
싸대
티머니
황동
##iot
504
012
비틀거리
AND
명물
##ZZ
가정폭력
레닌그라드
나날이
aid
마곡
사뭇
생츄
456
그라비아
정정당당
생츄어리
much
수미
암초
와쿠
육중
362
BSC
WHO
히미코
IPS
구천
기왕
농심
당나귀
서황
실비
양초
으깨
정과
칼레
정은지
노와
부감
야치
웹진
파카
학식
##스카이
##브웨
도전장
around
함경도
부랴부랴
Cam
당고
자락
##정원
##소닉
##다일
##범근
수행원
운전병
탄수화물
506
시노비
레슬리
크로커다일
Hit
dest
덩이
알약
야야
와키
지누
##Re
##쳐가
리라고
헌병대
Rich
거쳐가
경동
니노미야
산스크
성하
실려가
용비
풍토
##초리
##포리
산스크리트
나그네
모디
무학
##VI
508
전체주의
348
카나리아
너덜
실랑이
접지
타투
##동역
강민수
갈레
급변
지렁이
##천외
양성자
기상천외
새마을호
브린
쟁반
주동자
지참
직영
##터면
align
SET
DEST
록스
발연기
베다
보기
웨버
유닉스
조급
천부
청바지
##렌트
509
##ett
가이우스
하마터면
크래커
보육원
덕양구
DPM
길잡이
양판
응변
차감
화북
후쿠자와
Android
스케이븐
고간
권순
매머드
우직
중주
##연대
1830
##방송공사
Py
걸려들
새장
외투
이충
##거루
##말년
##pport
CHAOS
시소
시군
앙금
이말년
타게
1112
제작법
361
으려다가
575
자치주
Conc
위압감
경솔
리디아
안배
약세
연천
키나
##촌역
갈비뼈
아나키스트
sum
우사기
켄고
타요
하대
신호기
##슬라프
Center
##ULT
지평선
호나우두
사룡
탄원
형국
라이코
고용주
OEC
list
미믹
본모습
슈지
치트
군주제
김민수
MOON
손수건
빈부
엘도
다이너스
NCAA
유즈루
##YPE
은밀히
항소심
드류
씨발
체첸
증오심
서기관
##ountain
KeSPA
뜯어고치
조련사
IQ
격주
마전
모닥
어장
현감
호황
한국일보
지휘봉
스키장
정예화
HSD
모닥불
KF
건수
굴레
진솔
총명
칼로스
퍼짐
##밴드
344
우규민
공훈
네일
예카테
팔로
폐간
헤일리
##aff
##골격
하여간
인신매매
스자쿠
각료
레크
선관
회중
##콜리
하루키
655
##quid
병자호란
타이타닉
녹서
사쓰
욕조
종소리
페네
366
LK
made
ㅓ라
경구
고연
누출
리아나
진척
항저우
히나코
NEO
##클리드
코디네이터
발비
이고르
##희정
Prince
NHL
피어싱
gl
두말
쿠란
Han
각시
개구
격식
고공
노병
독해
료타로
옥편
절체
하이드로
합법화
AOS
원령
##니언
##서블
##꼭질
스트롬
패스파인더
before
위안스카이
앨리슨
프로파간다
숨바꼭질
딴판
슬레이브
엘비스
헌장
##ui
701
427
NOV
호프만
##prise
DirectX
Mur
hand
대호
란티스
히아
##bye
##고도
저지력
플라이트
공영버스
소림사
몽고메리
레사
암모
대수롭
김현철
after
자유민주연합
Law
대곡
영전
옥사
육류
##메시
라이히
플래툰
트루먼
해부학
국자
북진
빨갱이
슈퍼마켓
수사대
재정난
파도타기
색소폰
Michael
가자
냉혈
모아
복소수
영희
##호텔
##탱크
마키노
아랍인
마르코스
궁내
꽃다발
수니파
암전
야금
은비
##치병
##결사
깨끗이
걸스데이
탄자니아
글라이더
엔더
월기
젠틀
행사장
미나세
신호탄
##ronic
그랜저
에지오
라고요
부르짖
히로세
프레젠
후지코
Adv
고마움
김무성
Rom
링거
025
비밀결사
396
한계점
회의감
라시드
직간접
GRA
방장
아작
온순
태진
##ju
동구권
스팅어
치사토
들통나
테헤란
ROM
Tot
해미
##멩이
다섯째
창조자
남북한
관찰자
진통제
빈정
암벽
토익
흐느
##적소
##텔링
스토리텔링
##스타일
오타니
건국훈장
##IGH
BH
과오
소나기
맥라렌
남중
설파
야차
주디
진태
친문
테테
복합체
CHALLEN
제노바
보디빌
다빈치
켄터키
룰라
실속
##ature
카메론
SPI
에버랜드
무의식
크러쉬
엄친아
나발
머레이
종횡
토시로
##기시
##ities
아크로
이등병
땡땡
성훈
엘보
오미야
인강
저돌
##ida
Ins
하수도
탐정단
동대문구
국채
인출
페코
형수
황국
##개지
##오르크
##부지
524
바리케이드
쿠라타
OCN
심형
원두
창안
사회민주당
CCC
포도당
총대장
그레인
뇌파
만끽
산학
왕신
이릉
##아비
##누엘
424
늑대개
바리에
번번이
머지않
충각
안동시
겨드
순백
압수수
허우
##포이
##귀비
##램프
오르골
우주전함
데포르티보
버젓이
압수수색
Ty
공홈
단비
돋아나
돌멩이
머플러
반바지
사보이
서수
수빈
원류
선거인
사물함
요시노부
만년필
노키아
말끔
불독
설인
##상제
##INY
오스본
리액터
난도질
짐바브웨
치트키
단합
어파
용덕
주법
##케스
##스크린
AMG
AGL
인신공격
황해도
나부
높히
아버
오경
오창
##UPA
노스캐롤라이나
UMTS
유부남
Well
거트
마대
술라
양위
역류
연적
피네
하순
##사촌
카자미
전륜구동
##known
경외
서임
세브
수생
시리어스
side
마한
산시
합중국
헥사
367
철도선
케이브
##OUL
사감
##플레
3600
조종수
제주시
머뭇거리
AX
Bre
XT
고레
귀향
병우
산고
축일
운동량
신비주의
셀레우
신들리
에브리
에닉스
##정제
요구량
State
Prim
감초
까딱
신단
총량
##마쓰
##필리아
상업지
와이프
Microsoft
귀축
늪지대
사교육
에나
은수
크릭
후광
##절명
프로스
크루거
메타크리
시집가
관공서
메타크리틱
Have
가군
고신
베베
삐뚤어지
쇼난
영사관
우서
조범
현안
황희
##티야
##테루
블랙박스
통합민주당
뉴스룸
마테오
규리
악부
화복
메인스트림
PvE
조로아
노보루
남단
만타
순응
슈나이더
유심히
why
평안도
OECD
Sand
레플
의전
차비
##어주
호소카와
ECW
레플리카
구니
르바
풍차
##증권
423
일가견
이만큼
커밍아웃
SIM
가다듬
냉담
도영
소어
총성
코멘
트레일
코르키
기장군
고추장
조미료
낙제
독감
문규
인스트
청두
오오시마
기갑병
WCG
루퍼스
샤샤
앤틱
앨라
주계
##가이
##대역
노리쇠
##ITH
해치백
블라스터
1848
바빌로니아
과속
버키
존치
캥거루
피비
하만
##da
대학원생
Brand
테츠오
야전군
NLB
NK
명주
실연
주급
캘러
히지리
MAP
미나코
Comple
불도저
##풍뎅이
##부인과
아멜리아
Entertainment
HSDPA
래드
발데
육도
현아
올리비에
인도자
소닉붐
암시장
Wood
old
레가
중엽
포비
호반
호엔
흡기
##댓값
경기고속
히로토
Next
Heavy
안두
토파
형조
리스토
이진영
노후화
겸사
광탄
디미
산파
약정
유보
쿠이
##포밍
꼼짝없이
버뮤
업과
파지
홀대
##국민당
카츠라
가나다순
버뮤다
DEC
넥스
누누
미포
윤도현
홍조
방법론
442
지대공
연령층
Quick
박경수
dec
드비
센타
판이
하멜
##루야
도망다니
Boys
단발머리
노수
지훈
찬송
투타
티무르
헤인
##재단
지배층
프린트
AIM
엑시노스
배고픔
롤린스
참극
##대포
대장인
마히
진노
표결
##gue
##가하라
세탁기
는군요
음란물
농작물
Vocal
건데
모멘트
우금
일동
일맥상
411
그레그
English
서유리
일맥상통
동적
맥거
토도로
파와
패킷
이스마
가부키
승희
애송이
엄두
##묘지
여행객
판타지아
죽도
콘트라
세계인
그라프
Shot
대원고속
김병만
구더기
류탄
비루스
원룸
족제비
촘촘
홍철
##내미
국립대
News
Bi
KH
ms
드와
북군
비실
실외
축구장
부활절
다방면
green
대광
말없이
셀틱스
##티마
017
수증기
어렴풋이
김어
매버
장제
청풍
쿠베라
##장성
ᆫ데요
372
어찌나
싸이클
다마스쿠스
건륭제
JJ
다용
스란
잿더미
호명
활전
##시니
경험담
HDD
자본가
헤르미온
헤르미온느
뒷배
브롬
사코
월하
후소
시대상
Pt
cal
결백
도바
순직
어플
##발디
매그니
Aw
Mis
간질
교미
노경
헤센
##도끼
##팅게일
##좌왕
아르민
##ief
2024
##ADA
블라스트
Need
우왕좌왕
face
악셀
엘린
우소
정각
즐라
지영
##구스
##현역
주최자
감녕
경갑
남측
코발트
쿼츠
설계자
Thr
법무법인
에듀
올림포스
PW
네루
분란
파직
##막음
정신없
현대식
노리치
사무관
ISU
카와시마
애국가
베아트리체
키르히
부령
생력
알바로
화목
아서야
##aps
청소기
오지오
남한산성
선착장
CY
긴박
블린
오하이
형세
후두
##uty
오토모
오하이오
귀결
샤리
천막
신호등
정통파
ㄹ게요
광활
마티아스
물색
신춘
세이코
도마뱀붙이
정중앙
정대현
Surv
better
김어준
차내
##법사
근무자
key
균일
장쑤
마사야
브라이언트
브리트니
면직
연우
토노
펩시
##리드
##청사
아마미야
##angu
PSV
이리하여
투덜대
프로페셔널
금메
세프
순대
저예산
함상
605
STAND
이승우
ALB
안젤로
절체절명
금메달리스트
입막음
팡이
##사위
불명확
건전지
왕징웨이
어플리케이션
머라이어
휘석
##라니
##티즈
##간지
저지대
회의실
다카라
이황
진호
치코
##mb
메이즈
공중분해
에어백
파르마
GIRLS
네바다
노른
봉수
조어
진인
쿠티
헤켄
다고요
야스다
ㅇㅇ
고평
롬바르
지모
통쾌
##62
##초롱
##blem
거북선
세키가하라
적재적소
신디케이트
부끄러움
Bye
pass
용두
플로이드
합천
잠실역
구심점
목도리
북면
사행
사가미
양강
##fr
##눌리
결정짓
014
탄약고
유메노
토도로키
영민
파계
013
문자열
서귀포시
"/
극본
무령
불모
##나래
이현승
무궁무진
Fnatic
게오르크
완산
용성
잡기
##ware
##붕어
우라라
에스페란토
OEM
던트
식빵
코테
허버트
험담
##펄트
마사아키
미카게
어지럽히
캐터펄트
낚싯대
판문점
거역
기발
입출력
패소
##폴드
##볼로
가드너
타르타
Lunatic
WR
라무
부마
앤젤
진양
현인
##안경
나카니시
845
Si
너그럽
마군
박효
오베르
테리아
페오
포문
화생
##어오르
웃음거리
세라믹
가로막히
붕어빵
득세
부결
잔루
절하
칠판
토속
##차도
이러면
363
060
로널드
본보기
외피
전한
줄창
##SE
##초프
유미르
가제트
뷔페
상투
여생
케플러
##울프
메카드
크레타
웨일즈
셀룰
열외
와의
지호
척후
코하루
한솔
고등교육
##ARY
독극물
Dar
달아오르
톱날
##view
부르봉
ICBM
쿠노이치
로하스
Zone
베키
조역
##시효
플루트
CINDER
타르타로스
논증
라야
부쉬
양군
인육
일라
정범
정혜
차등
##71
---
키노피오
토사구
List
버밀리
빅맨
심술
완고
창덕
##짓점
게을리
여학교
역풍
페기
장애인
CINDERELLA
꼭짓점
비탈
화로
##men
NGC
기강
펜더
##td
EDM
신평
##온지
##좌우
##emon
조준점
미야자와
Evolution
베네딕토
길가메시
결박
스다
중진
339
상징물
운전수
청구인
광택
윈체스터
##베이거스
PLAY
공들이
끄덕이
맞짱
머드
서창
알차
제빵
키티
패륜
화평
##GON
##치킨
머리칼
경찰대
라스베이거스
##OLED
1866
유미코
간이
모창민
썰리
차탄
##vo
##주림
고속정
요시무라
크롬웰
##드라이브
Add
넘보
버밍
실생활
영위
월리
정루
질의
티파
김제동
크러시
Ga
Korean
도농
서플라이
혈육
##따로
388
클로에
글래머
Pu
게놈
물망
콜레
큼직
##귀신
##몰이
##폭격
429
char
##101
TAG
로쿠
마쉬
집값
청아
##79
##공단
로키스
객관적으로
매리너스
강만
까불
몽상
새틀
젠장
허저
##클로스
##틸라
뉴욕주
##하마드
ESS
크리스토프
사에키
뉴잉
말레
박멸
시큐
언변
퀀텀
특위
오버드라이브
##ards
클레임
파울로
임창정
Jul
경박
로펌
머글
에레
원광
허들
홀릭
아르주나
이토록
셜리
처박
한옥
출연료
나이팅게일
더블린
신드바드
토사구팽
반물질
변제
임영
적혈
챔버
아이드
레이피어
체인점
Escape
IE
Pink
양희
에단
자화
채플린
##gan
##XC
두령
라켓
방역
붐비
살롱
음경
패트롤
##랏빛
##황제
데이비
여의ㅎ
박태민
초음속
선입견
방업
방위대
산골
삼합
채프
학내
##글랜드
##선교
소모전
383
##UNG
궁금해하
레퍼런스
시화
아이다
나가수
438
형제자매
카나미
부위원장
혐오감
세무서
남사
당적
망루
엔리케
##wood
##튀김
장수풍뎅이
HSUPA
Sens
날로
덤불
불이
훼방
활동가
##book
어머님
Joy
군경
극체
긁어
농수
물갈이
비씨
우우
월세
주어
채드
청해
##주크
이사오
가속기
Xen
누계
병참
포천시
풀숲
힐라
##MR
타이니
타이쿤
라도스
현대전
thing
시행령
프린스턴
LINE
선서
연해
폭등
##배마
Prime
앨라배마
문집
쓰임새
커싱
페이드
##SC
##어치
그라디우스
really
BEAT
레지나
Advent
백화
법상
브롱
삐걱
주피
척살
클라스
투전
워리어스
긁어모으
답안
신무
우바
인먼
##레틱스
에드먼드
조언자
애슬레틱스
다카라즈카
뉴잉글랜드
bg
강직
경강
민들레
보니
쌍두
열성
오닉스
지카
처남
히구치
##ashi
옮겨가
소론
에즈
외세
##슈바이크
1840
폴라리스
Ast
고주
고다이
영속
취리히
##night
##oe
##장미
##체인
359
스파키
브라운슈바이크
볶음밥
릴라
무해
소강
중역
카시마
평단
##지붕
##렐루야
사격장
Three
유비소프트
스나이더
##공산당
동맥
주둥이
트릭스
행시
##교구
##연맹
데이먼
진입로
나카이
키타무라
가라앉히
다독이
CHALLENGE
여울
여류
MAC
##가와라
Rainbow
김규식
자탄
한현희
##훼손
고대인
김응용
다미
던스
렐라
삼남
에결
##레지
관동군
도량
막간
place
Ky
mem
레르
오중
##uit
##크네
##게이션
##혐오
오르막
##rib
조용호
에리히
민지선
장민철
내비게이션
데몰
토다
##효진
기본법
##리오카
422
비상식
Boom
눈감
떡대
영호
최동원
##lude
명예훼손
내사
되묻
문라이트
주례
마이코
여지없이
후쿠시마현
DOWN
Hold
군웅
링어
사경
샴푸
원효
집약
##모닝
##카메라
홈런왕
휴양지
떠보
맞받아치
셀주크
앞다리
황하
##조노
431
장난기
아메리카노
블레이저
CNN
옥새
잡초
##시키
생성기
유키카
대역폭
남동구
스쿠터
try
가니
대축
순창
입교
주노
총감독
통달
성적표
885
운전기사
에드윈
1876
파르티아
##동사니
something
구어
구본
배심원
쉼터
사이고
##시아드
경계심
마유리
이창호
청량리역
브란덴부르크
오작동
TYPE
굶주림
멍멍
종친
##head
433
들이키
황금빛
베르너
1868
EVO
클레이모어
유니버시아드
라디에이터
야리
완주군
조일
후백제
##hind
##노소
##노비치
stand
맞이하
EMI
리쌍
부업
아반
어치
차로
선봉대
금정구
UT
빌어먹
실추
오제
호빗
후비
##key
##lege
로열스
own
굿모닝
다락
목수
천일
철로
풍산
##몰래
중앙역
논리학
Phil
독선
라모
얼간
초고속
크라스
파푸아
무아
바스타
백도어
테너
##언니
지원병
특별상
Stone
트레블
동년배
소프라노
open
셀레우코스
영공
유쿠
이시아
##보노
작업실
428
만만찮
Tokyo
광희
물방
우라노
살상력
아로마
##stink
김경호
cry
said
광진구
등애
성현
##정지
##erd
접착제
men
끈기
남고
몰도바
썸데이
압류
체증
##GS
##에로
youstink
dead
기혼
북인
445
버그스
마카베
General
MON
바렐
버너
불덩이
출병
피케
학생회관
..!"
거한
빈치
인법
임모
테타
파샤
후프
##수산부
어도비
426
내팽
대범
셰인
위층
참의
##왕국
관심없
ANIM
아토믹
YS
드나
머시
색이
심령
임현
찻집
##그림
환경부
골든벨
오라버니
쇼크웨이브
강상
동동
모항
브륀
새빨
어질
잡동사니
지박
하주석
향유
환골
##arch
오스왈
스티스
아바돈
현악기
XIV
곰돌이
면식
베슬
산토
스틴
십수
오무
화차
전투함
Thom
뿔뿔이
가석
경건
업보
오판
저소득
##일레븐
##annel
마쓰다
카펠라
스티어링
Fuck
두인
바투르
최국
훈련기
645
shall
ESP
BOX
다분히
난자
전매
찬미
사이온지
오버클
후쿠야마
고인돌
립스틱
루자
부들
오턴
참상
쿠레나이
##주제
분리주의
스위퍼
선덕여왕
국령
박카스
서역
의탁
특종
프랑스와
추진기
##ector
Diamond
후타미
Cos
mov
고덕
농단
도진
묘연
성찰
제반
테인
화톳
중장비
Cytus
화톳불
구면
김순
부안
삐지
입건
청진
캔버스
##uf
##새기
##탄올
##할린
마사히코
베르그
복제품
멜리사
리베리
상근
소구
요쿠
전야
조홍
헤이스
그리마
라이거
AMOLED
박성균
swe
광도
글쓰기
꿈틀
니마
량의
석고
썰렁
접견
채원
티베리
801
야마우치
에드거
Major
백동준
미친
반강
##AUST
##상도
1350
알렉시스
##ifle
AMX
센티미터
염경엽
설렁
스팬
을려고
##펄스
스카디
472
Scar
김승현
흑마술
Princess
가련
단칼
돈가스
목마
카보
타히
택견
휘어
##난성
##메데스
분류군
535
미소라
강단
문동
베나
392
티베리우스
그네
담백
명이
붕가
이베리아
절호
증손
EXHAUST
옥황상제
휘어잡
투레
품계
회개
흐뭇
정령왕
독방
발락
방열
불살
수탈
알프
중합
홈스
##CK
##49
##스텐
무리없이
1881
막시밀리안
Field
개천
앙투
##하쿠
##중근
##느릿
에이리언
분열기
이원석
마네킹
_{
악력
차일
공포심
집행관
안데르센
가뿐히
손시헌
구한
도와
석패
여라
통념
376
458
콘스탄티누스
즐라탄
가프
겸용
부계
생강
씨네
전치
##라이스
전환점
기어가
야스시
으리라는
People
끄트
남로
압송
장세
티노
후생
패스워드
-"
광시
금영
도표
딱정
였었
홍정
##로쿠
##재해
양상문
정종현
Week
도복
변천
왈드
요세
율리안
이네스
지레
##ILE
##코더
616
1864
빈번히
규현
논조
베로나
흉측
마리안
구석구석
두들겨맞
병문안
Oct
보랏빛
식객
실업자
코엑스
##레앙
##만만
정보국
그라드
모리안
JUST
folding
oid
개활
메마르
민혁
브렐
염마
조마
##테리오
결정지
##리어트
925
##URN
기뉴
동주
리무
물씬
페트라
##iro
으려나
MAT
박지윤
니토
야투
정약
한입
특수부대
고속철
보수파
which
카디프
세인츠
모데카이
도상
벨레
이마가와
쿠라마
서지수
지질학
Nod
봉사자
윤형
인리
1863
다자이
끄트머리
갈바
강주
도식
에비스
영해
페도
후나
##쇼프
545
파라미터
래디컬
산모
약제
창궐
히토리
##간드
805
자연재해
##emo
요시미
불쾌감
게오르기
남이
다득점
더스틴
살찌
윤활
임실
파노
헨드
##에즈
##데스크
##ado
궁금증
사모아
이간질
NDS
TAKA
dps
감형
닛코
라푼
연표
차륜
토스트
##월동
##ona
학생증
아키나
라푼젤
대경
일거
조작법
Base
Drop
그윈
명량
자미
정릉
정안
컨스
충무공
슈프림
속명
연천군
콤팩트
포레
환멸
에너지원
칠곡군
Expert
OVER
조악
아야나
##토리오
기틀
현판
##cle
##aze
두근거리
으르렁
혼노지
가래
비뚤어지
한카
##가족
현대사
##노우치
테라포밍
조르주
대디
바톤
암사
장쭤
짓궂
충정
츠다
히바리
##rap
연회비
MW
궁의
몰려드
완비
주앙
내리찍
오비탈
macOS
간발
율리아
음수
체액
##대비
바이탈
연속극
Seoul
Sorry
구시대
도읍
뒤따라
##민관
시라토리
유기체
Move
공감대
근신
담양
수개
쌍벽
텐진
##INS
세례명
클라리넷
금과
난점
서광
소부
신혜
유류
헬퍼
레이아
트레이시
ITX
Phant
Classic
Mass
bar
감미
그라인
울티마
##승원
##탈태
미야케
공공연히
적중률
스매쉬
로페스
물음표
환골탈태
Bird
hard
각서
미이라
밀실
올곧
험지
##좌석
##ista
주둔군
안녕히
##토니오
서거
쌍권
작문
키엘
타군
택티컬
##멜라
소총수
Arts
파르페
마르셀루
매표소
쌍권총
엘렉
영고
오군
차범근
총영
성장세
382
키리노
내셔널스
Tar
Yellow
맹신
신력
이구
##마시
세븐일레븐
김상현
Voice
아우구스트
Town
공증
연좌
행주
허스
##vi
##ced
comm
##azz
인텔리
달서구
Woo
램스
문교
본머스
증조부
##LR
하이패스
세이메이
전시장
이즈나
마그누스
신도림
산타클로스
이소라
광양시
강희제
양립
월영
일념
페텔
프렐
##너덜
##캠프
##isc
Start
스토브
카스카
김강민
PACK
동우
압사
탈라
최고봉
블랙번
신사동
의석수
주세페
너덜너덜
박동원
복근
상주시
엔하
적룡
폐단
##dr
25000
대리점
LEG
CBT
호르헤
독서실
HOL
James
mix
라무네
마애
반고
산만
콘돔
한전
##지긋
##추럴
##ala
아래층
현대건설
스티드
소이탄
지긋지긋
스포르팅
원이삭
과로
대백
락스타
암행
영단
총질
행상
모드리치
452
훌륭히
문규현
개활지
간언
보타
욕실
하안
##처분
471
주력함
##ipe
버터플라이
???:
틀림없이
윽박지르
대남
분발
안종
애꾸
약력
중등
치리
##독립
사쿠라코
느릿느릿
mode
고카
고다
기오
대낮
비급
젤라
쿠온
374
따로따로
동의어
EDITION
응시자
궁도
금붕어
나다
뒷좌석
알타이
잡일
토쿠
아카시아
Four
리커버리
멍하
버러
살균
정다
히히
태양신
라오우
이형종
박무
봉중근
채은성
퇴짜
##나비
##oria
김정훈
시커멓
고니
군번
##넬라
인터랙
세이비어
inter
김진우
돌연변이원
Active
Mas
NOT
mi
고되
광업
권사
시엔
지현
철산
퇴식
흥겹
very
고메스
모회사
사토리
잘츠
조모
차력
컴파
티니
최종회
크리스타
트릭스터
선민
시끌
아너
월북
진혼
출하
폴란드인
##ILD
안젤리카
갈대
몬트
성국
세모
종아리
좌초
##시엄
##시안
016
이민우
중형차
디모
못나
어쩧
진무
호마
##BN
##군주제
아마조
418
마일스
##AKE
ᆯ래요
Design
산부인과
서가
수의사
전영
지어내
코리안
콕스
탯과
품절
##칼라
##inum
825
미들급
Control
##클레어
직사각
집전
총포
최루
최북
아니메
생산품
가정교사
디아볼로
Meg
문화재청
컨버전
point
주피터
가석방
개회
난세
비브
애타
##오빠
##출산
이나호
과소평가
바텐더
rel
논산시
마영
살점
스탁
임차
코무네
티에리
파전
585
남녀노소
##프리드
면허증
병점
석연
아더
이입
크루스
한적
##수정
##악기
##동산
##사토
1110
번역판
391
동북부
주방장
기제
리엄
수해
울루
입영
지퍼
코하쿠
해탈
##델라
베트남어
김연경
타게팅
Camp
관원
권희
그라스
김철수
남정
목공
용궁
이예
이혁
임사
주동
페데
##누리
아프로디
요시미츠
분신술
박지호
맥거핀
아프로디테
ᆯ려
강윤
곱슬
나구
대너
봉합
시나이
원역
달기
우부
적함
축성
경기전
라이라
통일부
자괴감
ORAS
Rank
개변
공진
단상
만발
목화
서던
소크라테스
##그릇
##하리
당연지사
755
이오니아
스러우
스낵
정맥
주중
핑클
화친
these
스트레
아마네
디스커버리
고드름
규약
독촉
동심
땡기
소기
오태
찌그러지
휘트니
##메이드
##불성
PCI
실용음악
Destiny
Km
가버리
뒤처
록과
류자
맘루크
범타
생환
서체
속설
알랭
전분
펠라
허경
##hr
터키인
유엔군
뒤처지
DARK
가식
거동
기보
단심
라만
명석
사동
철십자
청일
파오
##갈비
야마하
금형
정려
준용
픽사
##안토니오
후원금
매국노
곽정
군축
굴지
기노
드이
모계
보초
아낙
원생
진안
지방산
389
오노데라
신승훈
산길
채리
크메르
포미
##찾기
##olt
024
작곡자
이오나
움켜쥐
Fast
단막
이탄
##게인
마이아
EXIT
양산박
도둑맞
김진호
결의안
HSPA
견과
벵골
##룸푸르
##볼라
##ants
쿠루루
York
겐트
소추
슈뢰
좌의정
준호
콰이
##하드
조합원
타카노
최진실
일평균
관위
밀매
베어내
빌바오
색출
에센
##bc
자동소총
##acc
메모리즈
릴리안
그랑블루
히사시
Record
브룩스
압구정
Jam
버럭
서늘
한국방송공사
리그전
합병증
계왕
맹인
해마
031
승강기
최진행
안식처
뜻밖에
국세청
루체
샛길
양치기
장내
진궁
콜레트
한약
호법
##통감
마그넷
그린란드
스윙스
불어오
침체기
포에버
내미
리필
선불
야츠
조위
허둥
##이의
##우진
##잡기
놀라움
심장부
카와카미
마카로프
꼼꼼히
컴파일러
sa
대현
말러
손호
쇄신
어종
웨이크
스프린트
모노리스
퍼블릭
ALBUM
AZ
Ba
RH
란도
별호
알터
주적
쫒기
카나이
허황
유격대
이화여대
일간지
Ryu
Movie
늘상
방산
송내
앙크
간지럽
Command
선술집
사쓰마
엘스
조양
##백화점
##urs
SRT
초콜렛
미망
소현
회합
##잔디
마이클스
Festival
아버님
que
요컨대
총각
케네스
플린트
032
대가리
WK
글라
매상
왜소
체전
쿄류
1101
단편집
쿄류저
":
SQ
진귀
파판
##제한
##연주
##꺼풀
##넬리
사카구치
파르테
남대문
오랑캐
유클리드
조한
토시오
문제삼
##ani
버스커
크리켓
스크램
취임식
비스킷
오케이
징징대
Birth
뒷다리
윔블
018
논란거리
387
es
교세
어록
징용
커닝
편수
피라
희열
##bi
##폭발
근무지
Ye
가평군
장각
조크
천리안
홍건
##퀘스트
지하차도
헤드셋
순환선
잘츠부르크
Link
Sav
심우
야경
약재
태동
##본기
축구공
##!!!!
가이드라인
Fact
경민
본고
성민
소액
실형
우경
최훈
##야구장
another
고위층
SAO
디디디
탈의실
간달프
굴착
술잔
일국
파토
##벌린
##더니
##호흡
수도자
Tele
구리시
포장마차
광명역
정유라
림보
석수
완제품
호랑
사이러스
아키히로
프레임워크
해양수산부
가레
안창호
엔카
원영
##back
##베인
##동네
레이시
715
Arena
제어기
대조영
장례식장
과태
굴뚝
내연
병용
최애
합주
##BR
이름나
##ette
476
클랜시
반투명
농노
막연
산다
솟아나
##bor
##디니
1861
집합체
김윤환
세일즈
드와이트
로슈
마룡
보문
부곡
안노
어게인
이업
일약
서비스업
프라우드
김성욱
1170
김경문
돌려놓
안토니우스
동북아
오와리
반스
시어도
조도
021
뛰어드
연수구
##uki
무로마치
Hur
ZONE
구질
능글
뱅크스
예티
우비
작과
해맑
프랑키
마이카
작업대
Brown
조명탄
아그네스
시어도어
메밀
주살
판정승
불가침
두들겨패
달갑
루벤
백범
이삭
키아나
틀기
폐막
힐드
##첨화
불행히
금상첨화
BATTLE
경수
기의
낭패
풍구
대하드라마
하나마루
고속화
인류학
카트린
총력전
PAR
교습
나디아
자애
처맞
청화
특산물
##러맨
카즈유키
미즈시마
격전지
Smile
노회찬
과태료
게츠
다프
봉래
샌안토니오
영겁
태사자
##bur
##터미널
여행지
532
플라티나
벌금형
딱정벌레
감청
라떼
루다
무릉
별동
요의
##no
##break
393
쓸모있
누수
롱기
천역
##완다
##umi
카시야스
Planet
괜하
긴가
털어먹
상대론
3300
브로치
외무부
논밭
대흥
도조
랍니다
리쉬
발정
보원
비디아
요나라
전급
츠리
##겸사
019
과학고
##rive
499
크라우
겸사겸사
Catch
Nothing
골탕
곽가
끄집
니미츠
퇴물
##호스
##만지
도봉구
Rol
XD
김이
액티
열의
윤아
저급
카서
##세키
##주현
정의윤
동남쪽
CAP
가업
처해지
첫해
##조라
들여놓
망나니
야영지
rien
소가
초아
##실라
은행나무
1865
파르티
김천역
##ext
체르노
장쭤린
fWAR
구대
누시
모식
술수
카렐
이나리
043
확장자
ATC
이와사키
Rising
당번
리다
봉작
세아
탯도
603
##iday
서기장
좌표계
급탄
사바나
에츠
진달
칠리
코브
화계
스트릿
령전
범고래
산조
실피
준이
775
##board
Mast
넓적
뒤치
들쭉
붙임
삐삐
시루
오상
유별
킹콩
레이라
이동녕
히데유키
낙차
료가
오시마
캐딜
379
도서실
사카자키
카츠야
height
조상우
캐딜락
남아시아
도몬
몰려가
트리스타
핵분열
##tty
비아냥거리
hit
구아
니콘
레서
물정
미집
선뜻
##down
##민스터
##박질
화물차
마지노
분광기
Jung
김찬
엽서
영신
주홍
##달라
스웨인
브루어스
Too
계집
대척
동식물
뒹굴
떠밀리
링네임
샐러맨
551
시나노
보나파르트
에두아르
샐러맨더
Bomb
Fan
두둔
루키아
면장
서아시아
시제품
야단
연투
하토
티모시
미켈란
FDD
슬레이
통감
패리
흑태자
마이니치
지하수
488
저널리스트
미야기현
오버클럭
His
Ion
won
렙업
심바
쵸파
콩콩
461
브리짓
조성호
시노미야
권태
알케
야역
폭식
##지뉴
##inger
클라우디우스
크러셔
교칙
무쿠로
별별
송유
602
새틀라이트
궤변
달링
발끝
보배
엿듣
진산
최명
콜슨
베르타
1867
위문서
나경원
미하루
볼록
엉클
화학자
후타로
저장고
미추홀
Mobile
NIGHT
Tonight
이휘
최주환
해럴드
호부
##스토
무도관
Bf
rock
노고
애자
원죄
##가슴
Science
티아마트
MLT
낭만주의
포그바
DRAGON
르완다
분구
유념
즈루
진국
컬투
탕수
화동
##쨋든
타이드
436
아베노
Liquid
퍼블리싱
구태
비류
스워드
어쨋든
입맞춤
중임
##olle
스포트
Begin
최재훈
류성룡
Mess
빙상
숙원
아씨
하악
MAS
기어스
코너링
후지사키
예수교
브루크
거뜬
고품
교학
권기
이착륙
재키
조인트
##웨인
409
임대료
Produ
보험금
Bay
셀틱
슈렉
유호
창사
친어머니
필러
##ruction
Jud
연탄
컨소
##MIX
##장식
##못해
우사미
매운맛
컨소시엄
칸다
탈로스
현가
035
의문사
미나리
홀로코스트
브랜디
윔블던
Lucky
Rose
도현
마스트
모구
사포
산행
소야
숭고
##도감
메이테
교섭단체
낙지
석영
풍각
그런대로
공항철도
군악대
발밑
봉제
소보
안트
엘지
오일러
요는
페레
보은
연나라
유에
접두
정돈
태공
##중앙
story
마루야마
OOO
Sir
다롄
울펜
##ram
어야만
531
오구라
비속어
Try
네비
무임
복스
실링
예토
정당방위
SCV
1878
마지못하
Prem
울펜슈타인
너리
세리스
##ni
##노미
##itor
1873
VPN
동신
베드로
아고
퍼싱
흑표
코스믹
최상층
고생물
망설임
##ounter
talk
부에
사할린
소공
우암
퍼즈
Still
만족도
오오카
통계청
이인임
란코
료헤이
오장
축사
화인
##어즈
##저장소
Express
공화주의
조형물
홍문관
누벨
방범
쇼기
순록
슈어
신간
아임
암투
후위
그라나다
끝장나
days
Fantasy
##민정음
CONCAC
반원
시지
일베
##star
금지법
##ONIC
공유기
AVGN
코카인
일베저장소
YE
강공
기즈
꽃가루
막료
액면
##VB
유명무실
##고속선
키요미
최북단
리쳐
발더스
봉산
운디
클롭
패이
활개
##헤임
ᆫ데도
줄기세포
프롤레타
호쿠리쿠
슈바르츠
프롤레타리아
GH
교두
뇌진
청군
탑신
##스테
##국장
##핵화
##디스크
기록물
교장실
시빌라
마젤란
OME
count
곡성
드얼
분말
정구
타조
허풍
##마킹
프리즌
접속자
Warri
DESTINY
wing
구정
명경
외골격
이체
흐루
##뭉치
다가서
들이박
##ATS
1872
수신기
CNG
최면술
비잔틴
시큐리티
Bit
모그
반나
비엘
아덴
통풍
##ray
아파하
승부수
##annon
라그랑
사각지대
스필버그
안티오키아
체르노빌
uh
디카
레메
산초
성충
위관
혼세
아카드
394
begin
공수도
타지키스탄
장보고
후시미
나대
로동
버저
싱겁
연모
카사이
훈민정음
##디치
파라디
이자나미
비상사태
웨스트민스터
구로다
오렌지색
Flower
CONCACAF
Und
곡면
관아
레딩
룬드
리엔
미란
바투
비핵화
정한
지은
##네프
을지로
브루나이
미디엄
Gri
겐신
금은
남포
몬태
불미
앙주
쿠알라
홍천군
수상기
441
베르세르크
아사드
##mph
##layer
비틀리
유감없이
Paradise
쿠알라룸푸르
매회
미필
세수
양털
일리아
한석
##면증
타이요
박정환
코지로
김신욱
임파서블
장년층
고니시
안희정
연체
탈착
혼마
##뭉개
전자레인지
Shield
신청자
벤치마킹
성명서
황선홍
Ru
fin
과녁
민아
상궁
송재
오하라
왕당
요조
일사
후르츠
##덜미
미야노
법원장
어린이집
로고스
줄기차
##iversary
개축
교착
몸짓
이춘
인시
칠하
페레스
현경
혼선
황가
브래디
동그라미
rest
고취
메디아
범선
여경
운휴
진평
회가
제아무리
Tank
cap
나한
다도
만국
모트
버시
산사
의안
진진
차드
##베가스
Always
라스베가스
미츠오
소형차
루미아
송승준
DK
류제국
카치
피망
홍성군
화도
후토
후유키
##직원
##려두
관리법
개그콘서트
군포시
전현무
미대
새싹
우간다
##토마
##손가락
513
조각가
612
김동주
진료소
한중일
Fairy
Jan
걷잡
버킷
성깔
쉬르
인족
현미경
##로메
##게니
##leg
ste
메가톤
ECM
Pen
__
따끔
몬티
우전
606
things
해석학
존경심
정사각형
서라벌
명찰
브르타
사혼
택트
##riri
##bl
이성질
이쿠타
rienriri
브르타뉴
거위
변현우
쌍발
애석
우석
음대
##버라
방송실
쥬얼리
복음주의
박재홍
spe
감응
발리스타
세입
심벌
쓰르
치아리
정신병자
쓰르라미
건즈
극좌
삼색
송은이
저공
채연
타역
포체
아르슬란
성장률
대기록
네이티브
징역형
does
Imm
HTC
care
곱셈
뇌장
소영
예사
울진
처신
혼고
홉킨스
이제껏
무라야마
미켈란젤로
가노
공갈
율곡
음지
주당
치역
회복기
법무관
선봉장
앙투안
논지
농간
니가타
믹서
병상
시험지
클라우디오
ABS
##계리
##슐린
모의전
깜빡이
고병재
인터랙티브
Dong
남파
묻어나
옹진군
영구히
유아기
##정보부
UH
WM
로모
종현
치력
현석
화만
MXM
창덕궁
땃쥐
볼프스
불임
차라
타블
##와리
##토레
계기판
855
불법행위
카리야
플루토늄
DANCE
기치
내몽골
베넷
샤쿠
스머
어째
원색
##여우
유사점
ready
브로큰
도깨비불
하우젠
스트로크
부끄러워하
잡종
졸라
탄착
타이슨
중간고사
마르타
인천시
398
마인츠
러시안
정동영
무신론자
강소
기립
리건
번스타인
야부
족치
직항
하정
항원
바르트
평화주의
##ounds
크롤러
빈민가
거둬
샛별
히브
##문제
통신부
체크포인트
SUMM
세자르
return
거둬들이
Tog
마태
복학
석호
양시
예속
거시기
Six
YB
dance
김흥
디파이
루차
맏형
전성
줄리안
쿠나이
히라이
##남면
##rian
하우징
##ches
Portable
Es
고만고
군필
니야
사브
소염
오금
특효
파더
폐점
행신
제노사이드
고만고만
bat
윤일
DDD
BU
마미야
방음
암만
##지중
실력파
LPG
구려
리시아
사창
요그
이젤
종지부
척박
핵폭발
##right
##도나도
뉴스데스크
감사원
##sson
ext
이사벨라
심수창
논설
명검
제고
호야
호너
##장어
875
파고드
모라타
Tak
마선
벤더
플뢰
횡사
##화음
##BER
##츠구
바람둥이
Theme
대장정
탑재량
주간지
교토부
비야레알
OMG
QR
벼르
서품
어트랙
영내
##cher
도망자
추격자
인질극
애국자
제각기
볼프스부르크
어트랙션
내과
만보
밀스
버무리
빗물
사중
세편
속행
호언
홍상
##좌동
##itar
##imo
마츠무라
왕년
하이힐
377
##aga
Web
블로섬
에노모토
이완용
구요
마우리
모유
아령
전언
최홍
카비
##구비
유대감
Mega
ART
김종서
Phase
현기증
Cut
Ol
들개
등단
불기
비경
진관
초의
##상간
이승훈
게릴라전
근친상간
새빨갛
헨드릭스
Dir
설거지
##oma
022
요시노리
514
불안해하
김민혁
1875
우연찮
리바이벌
age
ray
개간
남남
니버
옵시
추돌
퀸스
그리즐리
보드카
신동아
동광
로테
정곡
최서
##ering
1820
자유형
하이웨이
오이타
요동치
프록시
공각
볼튼
옷감
유태인
켈레
##루프
불가사리
725
아지지
fa
well
대산
명암
조강
증이
##세르
##버터
생산자
KNN
UHD
라리아
예편
치나츠
코렛
행해지
##치레
##전선
최고점
397
SSL
메탈리카
이병헌
CW
도고
서아프리카
셀라
양치
훤히
##씨름
##날쭉
##벡스
한국은행
##ANK
Expl
들쭉날쭉
급성
두만
수연
에크
찹쌀
카리나
페잔
홍염
##업소
레이디스
내선
바클리
우인
차치
하켄
황비
치료사
참전하
우즈마키
영양분
1592
조계종
헬레니즘
담력
미덥
산단
삼장
썩소
우렁
화근
음악상
대릴
뚝딱
성제
식자
어빙
콩나물
파이스
##재그
는데두
크리스털
전문직
033
목격담
지그재그
이과인
한가득
Friends
고흐
래미안
반정
찌꺼
캐나다인
Metal
Body
관목
기명
약실
화영
##craft
ㄴ다던지
635
##ists
국무부
백혈병
데즈카
로난
류트
무열
미관
호골
라는데
에이다
Unknown
Clos
캐롤라인
초계함
찌꺼기
Sleep
군내
도공
밀정
작인
피도
해물
##장교
창작자
without
부시장
Number
ZX
백선
산발
코모리
##가르
College
이복동생
이천웅
believe
라에
밴디트
번데기
비파
사라이
상감
아틸라
우츠미
타즈
##퍼프
462
마리오네트
정통성
스즈네
거물급
LSD
하다못해
광인
글레이브
명승부
백골
셰릴
중앙정보부
파워퍼프
023
슬러거
Pil
대추
루르
봉준호
신파
한빛
토모히로
라우라
알레산
북극곰
Everything
박한이
Wolf
모쿠
야산
테스터
Miracle
Kan
동도
바렌
후미카
클라우디아
Ly
겐무
노자키
대운
데타
등분
##field
##만금
그림책
미라주
루키우스
히마와리
르포
미선
법술
뺑뺑
스오
출원
텀블러
희화
##AH
##테쓰
이라던지
클리어링
굳건히
롤리팝
##폭격기
비녀
시성
영약
오셀
중하
찜질
피핀
##직할시
##자이
오브라이언
기업체
나이트런
##elly
북문
사멸
신풍
아찔
으음
히피
##gun
##maker
##바니아
##얼빈
ᆫ다니
604
457
블랙베리
##RESS
FG
공비
답사
대저
데마
반비
실라
양다리
요스
추문
##루엔
478
##boy
코메디
Ts
far
노츠
엘리아
용화
태영
프림
##강도
##덕왕
6500
동네북
이목구비
MJ
pol
모리카와
콘라트
토핑
피클
활공
##니히
565
Beyond
ASL
클린트
신생아
Flo
강영
위증
정이
터커
홈피
크리스찬
042
468
기어다니
롱기누스
반디
뼈저리
삼도
열병
행차
##롤드
434
몰래카메라
요코스카
권위자
Butter
Holy
게으름
Psy
니오
사석
집적
집속
포어
##상곡
스파이스
Thunder
웨이보
Volume
생리학
시즈오카현
오를레앙
Ok
SAT
기옥
롬멜
수르
엡실론
전횡
호걸
507
타카아키
페르세우스
Google
Myster
덕지덕지
델리아
러즈
시류
역무원
##사화
##클랜드
536
삼합회
GOD
민우
바란
발롱
사영
서피스
자토
챈들러
화천
흉흉
##포구
##ices
##ager
네이처
광역자치단체
시마자키
해변가
BABY
선거인단
발롱도르
Audio
Main
Russ
Sak
gold
긁히
뒤셀
샴페인
식상
원폭
익살
크레스
Heroes
삼지창
예카테리나
뒤셀도르프
Mus
김서
농약
능감
단색
시추
아콘
윤규
주몽
##LIGHT
중앙당
hear
뉴멕
도드
돌개
시유
싸가지
양전
어음
임펄스
장궁
토커
##마스터
##리쉬
##계역
오프로드
아사쿠사
홀리데이
Front
홍백가
뉴멕시코
승정원
##케라
군사령
타카츠키
김태호
평창군
BOY
Mine
기드
니들
담수
도정
듀나
먹물
성량
용장
저출산
##ench
대구시
몰아세우
LIFE
HEAT
기흥구
꺼림
롤스로
미트라
버츄
석관
중식
운동부
아키바
Room
플랑크톤
롤스로이스
GUN
Xbox
고풍
상일
애처
양화
전천후
츤츤
463
대수학
증폭기
김형준
프로텍트
pvp
랙스
루거
브베
성력
수몰
위츠
재채기
##프턴
##VF
##부미
##경비
552
가로등
플라스크
731
이원화
돗토리
영아
오그
원회
일출
진품
##vis
##포터
프리마
Boost
국경선
카와구치
김경수
연수생
Sab
간택
고부
뚝배기
사공
월부
줄루
공급원
영동고속도로
작살내
버밍엄
LU
가선
격수
산본
시미
신안군
프링
443
갤러가
Epic
STARS
근현대
가환
반출
사학자
살바
육로
이교
정소
통령
##천국
##elt
DEAD
서지훈
설리번
버밀리온
교위
바즈
슈베르트
여보
영관
이륜
칠면
탄로
톤즈
희롱
##라과
사회생활
우선권
523
522
크라임
MaxLV
갈라타
Army
콘스탄티노스
경강선
Hu
뉴기니
살수
천동
코빈
콜렉터
##volution
##PT
여성주의
세이크리
이스턴
루카쿠
인어공주
스커드
메트로이드
틈틈이
세이크리드
LL
광천
무스타파
사크
수달
염가
##orth
교통편
형제단
가스통
기독교인
해상자위대
정우영
결사대
의왕시
주치의
마히루
량도
서준
아돌
임지
파시
##디드
1862
코르테스
브라이튼
염기훈
다오
씨티
그치만
김동엽
mk
기화
목과
발코니
식성
키위
푹신
##ij
##ming
##언트
지배력
Gray
칼리프
사요코
FRE
Fish
cent
두통
변인
보로스
산사태
여시
천기
킨키
오버킬
918
하야부사
레지던트
스틱스
진중권
##strumental
범유행
블레스
점핑
들어내
##선거구
도치기
바질
스고
##지어
##olver
이승철
비스듬
발리언트
제후국
속사포
미도리카와
체임벌린
Kg
광수
다산
달이
씨알
장명
청학
##마뉴
이제서야
전자책
China
낙담
목련
웃어
음량
임찬
자운
접이
청결
킨지
##드리아
대사헌
706
환호성
동창회
근위병
Terr
공돌이
과천시
뚱보
래피드
맞바
십이지
윗사람
마음고생
고려인
517
##antic
디아루가
드레이븐
재소자
SIN
YO
메데이
발설
비바
사담
실의
올가미
족발
주익
혈당
##타페
##atus
프란체
깊숙이
등껍질
팔레
함평
휴업
##성경
메이코
스트라스
히로부미
618
이터니티
##velop
제라르
흡연자
진흙탕
##iece
Creat
라스타
모비
스이
요망
치어
카이트
##텐셜
##싱크
노리오
비엔나
왕당파
로버스
삼존
쌀쌀
유이치로
##로로
타카나시
수치심
건축학
샤를마뉴
안락사
Lonely
김예
열역학
투정
소문자
정수리
남원시
카롤루스
soul
갸루
겁탈
북돋
비뚤
장거
지당
초호
코무로
파루
합기
##피리
##ito
점프대
출발점
겨루기
Acc
ULT
Cle
광분
뒷산
보임
췌장
케테
퍼텐셜
아이크
지휘권
카르멘
교황령
##ISODE
와카나
타다시
토착종
Age
Jim
kanc
네바
시환
현진
##mare
595
포병대
SOUND
갈릴레오
연개소문
오스왈드
구양
웸블리
재역
포코
##구사
##톱스
437
EPISODE
애드리브
##케라톱스
개폐
에딘
윤기
확증
##각색
하루노
출판물
니카라과
Build
기백
무영
순우리
아민
안네
엄포
원더스
허블
황의
##여름
수지구
상용차
Extreme
퀘이사
슬레이어즈
순우리말
벨린
불공
용언
키케
##기술
SPE
세븐스
불사르
카와무라
스탈린그라드
nothing
발디
장국
최고참
those
유우지
이재성
아미르
스티븐스
알레포
낙인찍
사시하라
FAN
KFC
에아
투과
티토
##rome
##큐브
아라크네
게오르그
다이너스티
남조선
슈바
임병
최치
쿠사카
토어
평사
704
527
이승호
시트론
kancolle
구보
긴테쓰
뇌정
비어드
소제
연지
화술
##양동
ᆫ다던지
카이오
##OND
민족주의자
1869
에스파뇰
아야노코지
엎치락
고봉
아호
워런
정역
준동
청강
타슈
헬파이어
##부기
##enge
알리샤
이동은
증거물
sports
분화구
Kids
개박
리하르트
면죄
신카이
알짜
쥬리나
초수
홍일점
##화경
##전시
##딱지
453
##ORD
유전학
중고차
세군다
Yak
글록
민락
버몬트
별나
빠듯
원론
유식
철원군
##샤르
베트콩
아랫사람
엑소시스트
유별나
KP
루빈
민나
방방
왕기
현현
##한자
##ria
에디트
블라디보스
카사노
tra
과선교
광종
낭인
바브
배색
비원
우나
캐미
풍문
황량
전철역
동래구
페더레이션
자장가
ᆯ리
무츠미
배향
사츠
소견
악신
킨타로
파리스
##에이션
446
1105
Brit
불화살
어버이
Pac
Post
공도
날씬
데커
물타기
부등식
술자
우의정
인마
인선
전극
처먹
테베
##천선
##연수원
호시이
술탄국
네모나
키르기스스탄
그리즈만
CAT
NY
Rail
ZUN
namu
곤도르
나주시
동무
뒤틀
볼러
의주
제부
##평면
##부절
##살바도르
다이라
055
스피너
캐리비안
김현정
박세웅
코오롱
별동대
\"
body
train
굵기
본상
수일
온수
일요
태일
함덕
시구르드
PARTY
윤용태
파르티잔
Boss
도술
방증
압기
장곡
##모치
##치마
##시도
##우병
##특급
Change
정찰대
랴오닝
wait
김근
까놓
문지르
음산
죽지
하얼빈
휴이
##중독
베이가
##트로피
여신상
검문소
CQ
val
명복
새만금
482
915
사법연수원
동음이의
맥과
보필
술병
임나
점주
##VO
449
히메코
정전기
pres
Money
ent
단명
류소
물대포
슈고
야가
열사
영부인
이타이
힐즈
##카날
##촌면
박정진
하마다
무안군
워너비
그래피티
마릴
몰골
백서
안절
윌리스
음흉
제헌
카호
평촌
##iation
##루치
935
이슬람력
##endo
PRIME
스기모토
전도사
과달카날
맞바꾸
안절부절
rain
돌궐
론다
망국
시늉
어셈
제모
초특급
전자파
토모유키
사마사
매스컴
##슈타트
Pay
라덴
삐끗
우애
팩맨
호미
호탕
아이노
##thm
패션쇼
plus
군상
김만
로렐
맹약
분간
시폰
야나
코른
퇴로
휴우
여행사
최강전
Cherry
화이트데이
페네르바
Il
Kit
RAD
dont
랩퍼
음치
조향
턱걸이
##ZY
하이든
엘리사
고서라도
1877
로버트슨
감탄사
KSV
한결같이
간만에
GST
덮어씌우
##ho
##금자리
##팩스
##튜드
대체재
미스테리오
##ified
해리포터
여단장
대피소
BOF
정재헌
Joe
무반동
히비야
겔구
되새기
보금자리
어윈
엔트로피
영일
페카
##AB
##ille
496
아크메
요아힘
쿠티뉴
겔구그
각계
김좌
동민
땅거미
리퍼스
삼계
유조
캐러
푸홀
##과자
##슬기
##퓨터
담당관
448
##ries
945
프라이팬
사와코
시몬스
many
푸홀스
cle
내어주
덩샤오
덴트
신목
아단
월성
황권
플라이어
양현석
마르티네즈
하기와라
덩샤오핑
PF
궁주
승합
에이치
이곡
절이
토메
파면
편인
흉갑
히츠
##물산
카메라맨
김시진
Candy
렉싱턴
메론
백양
소류
신갈
오월
임이
초도
미치오
카라크
스펠링
평양성
PLUS
아크메이지
Cold
뱅킹
약진
천궁
칸지
혈안
휘몰
##EZ
##자국
##큐슈
사고사
요시오카
메데이아
군법
노런
면소
비연
위서
지브리
커팅
클랩
##웨스트
샤오미
super
연해주
렉시
먹통
약식
우류
##트럭
##슈나
시스코
Better
괴팍
신녀
일섬
츄츄
##일생
##연료
##데일
마사노리
##ISM
구사일생
똑똑히
문맹
수각
영천시
오필리아
와일
은은
척척
##노래
##체리
클라운
최남단
li
노림
루저
문방
불치병
야탑
우문
움찔
이린
인심
천시
투라
퓨즈
하야마
헥스
##학규
가르마
466
후지사
분당구
안젤리나
노치
도립
사네
진원
화두
히야마
힐트
571
Middle
자영업
flo
moon
객석
광검
보국
용은
유작
캐머
##극장
세계유산
Think
reg
히스토리
바실리스크
Ltd
woo
방기
병세
산투스
순사
##너리
동화책
우편국
##iction
김혜성
덜미
실토
은호
파트리
활달
##데즈
##슈티
609
##osa
남북조
회계사
Acad
김희철
뒷배경
GIG
cor
북마
삼부
성안
##for
##동맹
이용찬
정규전
비상시
메리다
임재범
Platinum
산술
하자
##징금
이동현
제조법
각별히
SUMMER
훈육
##복스
##브로스
하이파이
지하역
키타가와
BAB
틈틈히
흐루쇼프
가학
러스티
한울
##반정
##분방
자유분방
미야타
888
SCAR
나츠코
후미히토
트렌트
sweet
대척점
NWA
기거
레몽
반죠
안과
은상
코퍼스
황우
블랙잭
샤워실
Lake
sat
덕목
멋모르
무무
봄날
월희
이숙
칼륨
##에어
역사관
은하철도
우시지마
노르트
미그
운도
에이벡스
마츠나가
PDF
1024
SWAT
에이프릴
서윤
카스트로
##행사
702
623
러브크래프트
블록체인
중립국
남아도
에릭센
파란만장
뱌쿠야
HIT
가오리
강약
구부리
레예스
망연
애견
임경
폴스
뛰어오
으라며
무인도
전광석
시한폭탄
FNC
탕수육
Ir
NB
괭이
근근
박완
아목
안쥬
오나
옥산
재의
치와
##vern
next
만리장성
값지
꽃말
남몰래
봉담
인적
조아라
##LTE
##사장
901
조광조
Opt
Something
병설
성환
손학규
연변
즉결
특채
##erg
768
##aste
MLS
김화
레와
발등
설가
퍼러
풍화
##비싸
소리지르
##cha
439
가까우
광복절
Crystal
지브릴
강북구
생가
석불
역간
##티컷
클라시코
레지스터
Model
엑소더스
친부모
Film
코네티컷
디스토피아
남진
마벨
맨발
반값
토나
황조
아이피
강수진
김옥균
심오
어본
일변
켄수
##광선
유치원생
미식가
타니구치
값비싸
권신
오언
##To
909
스타일스
아사다
고문관
사유지
대동소이
##ootball
Anniversary
VER
꿍꿍
미캉
바덴
방덕
백장미
알테라
장포
##CORE
관리직
브라흐
수정구
생물학자
대구경북
William
HIGH
Kw
과르디
부랑
유채
케찰
풋살
헤집
오세훈
실습실
mir
개년
박미
삼산
속구
엘리오
오슬로
지근
타자기
##cient
##PD
1650
##edom
이해찬
등록증
프라자
필사본
광개토대왕
디너
문세
양제
예원
##옹주
나이젤
세리자와
JGP
TAS
쇼헤이
울브
일편
##테아
대사전
고문서
와이셔츠
무라사메
부화장
여운형
Cause
거름
국전
근면
딜리
묘미
박식
벨렌
소아시아
양당
지유
차크
항명
##량이
##arn
카라얀
MSV
DSLR
진흥왕
는걸
슈트라
에베
우하
육각형
익수
##제로
공포감
해방군
##드라실
야만족
니케아
Ter
Wait
^^
hea
간염
데릴
드문드
불바다
조너
철새
음악원
567
의자왕
카네코
HEART
Remember
위그드라실
의용군
드문드문
버링
허비
##장수
##갈로
bye
슈트라우스
가젤
로프트
상납
즈치
핵연료
##CA
선덜랜드
장직
캘빈
테사
흉포
##주부
##속구
##올림
유리병
부정행위
1011
DFB
김도훈
감바
모잠
박유
숭상
용포
일로
##자족
과학부
##cean
최강희
사와무라
데몬즈
Kingdom
php
GREAT
스크램블
모잠비크
Non
귓속
하뉴
헤스
##댄서
맥길리스
값어치
무타
엉금
추행
홍범
##omen
045
오이카와
PMC
갑상
뒷날
레자
배럭
태원
헛소문
후도
##이에
플로트
윤규진
Dam
갑부
문리
삼청
신파치
재로
칼바람
캡터
하영
##이면
지나다니
요리토모
더군요
SUB
콜롬비
GUI
선관위
가덕
맥그리
미실
박나래
신식
으름
일발
코민
##노이드
528
판결문
##aven
구한말
Map
방제
변두리
빗이
의적
조봉
퇴폐
##고라스
가로수
바스켓
COMBO
하이데른
분통
서훈
유어
유순
초나라
##ged
##개혁
##바티
##iner
##ried
인상깊
에드워즈
김민재
1879
화순군
동두천시
미망인
vo
수공
시니컬
왁스
집대성
페드
페시
포만
히무로
박지수
신격화
Memory
중랑구
반비례
Tn
깜찍
루오
마황
미방
해자
##sen
##마담
029
034
step
위상차
##UCK
Infinity
gun
가경
쇼룸
수억
028
##ago
파일러
인조잔디
소방대
NRG
개코
조희
청운
학칙
##착오
나이트로
시행착오
거침없
청계천
자급자족
그니
내자
당차
매끈
섭씨
역방향
왈라
툰드라
##베이어
##정변
1750
문화원
사라다
갑오
수어
워리
쭈욱
트랜드
538
오카리나
더듬이
베네딕트
박효신
use
고석
렸다
애틋
장생
진남
촉박
캅카스
##바타
##테제
레이커
터무니없이
사채업자
전광석화
GI
강속구
고밀
볼라
브람스
빌트
상암
예브
프로이트
행동거지
803
황태후
Pick
River
디제이
성규
위병
취주
##하르
부산진
선언문
테크니카
상품명
알렉산데르
아즈미
VoLTE
Media
프란체스카
갈퀴
당상
러키
롱소드
부성
파울리
##러햄
##청자
시대극
처리장
1102
프레이즈
산타나
도내
산간
아문
응석
일벌레
파운데
도요타
파운데이션
기토
노리스
본회의
친필
허베이
##르륵
##콘드리아
##투합
나이얼
얼굴마담
파이어폭스
김민식
이현우
입법부
후루야
미토콘드리아
프레드릭
에이브러햄
Garden
Made
damage
가느
광서
동현
매질
미심
쓰루
알력
우장
타현
퍼드
##찰청
##괄량이
##load
Bron
나기나타
학술지
아틀레틱
지그문트
김제시
pur
말괄량이
물증
산해
카토리
리드맨
while
대검찰청
으리라고
구구단
아마조네스
고금
버추어
언터
왕명
일거리
주미
팽배
홉스
##어어
##중미
##클로
경기만
아키히코
김태훈
히로시마현
의기투합
양석환
TU
김다
김헌
다각
둘리
신노
오묘
진왕
최은
##ners
##기계
에도가와
article
나구모
식중독
예천
윗선
이베르
##서동
027
김태우
제보자
파나소닉
봄버맨
Hong
pc
나바로
복자
새총
오펠
임은
호정
코스트코
에픽하이
희소성
흐느끼
교두보
더우먼
밀로
본따
봉착
여백
황규
##개비
##헌터
스트라이더
토시키
허구연
어부지리
오보에
IBK
hot
교민
네무
돈나
봉헌
쇼이치
아조
젖소
질러
창공
##Cl
##준영
##겟돈
아마겟돈
수도권
##ecs
개그우먼
727
감시탑
Dev
사리사
##중국해
나물
떠드
에레라
와사
태업
테토
할멈
##LECTION
##zh
부산역
프레슬리
오랫만
랭킹전
하야오
자본금
보충역
공문서
순방
아게
우랄
정학
정량
제석
##중기
출신자
chan
시노하라
천도교
저수지
조너선
attack
문주
북중미
장종
첨언
표고
라이베리아
학교장
036
1107
##ORN
스프리
경영난
원더랜드
MMD
단정짓
구스타브
부러워하
상록수
드팀
빌레
삼황
수메르
양친
인중
장훈
금지령
카나자와
##ments
스파르타쿠스
페로몬
Captain
동음이의어
눈독
반올림
베레타
산속
어구
여교사
주모자
지젤
홀랜드
아사이
베이비복스
매품
붕붕
수렁
위저
타릭
평전
##enix
이동과
Note
토치카
Duel
율리시스
곡조
김채
릴리아
보츠
북단
브란트
임직원
컬렉터
쿠에
효정
##하치
##충제
##언라이
026
장갑판
고기동
케이블카
페르디난드
저우언라이
aut
동편
서군
셧다운
참으
패잔
문학부
Sup
보험료
exe
종결자
놀러가
비지니스
배성재
vers
교본
기정
꿀꺽
맹호
쿠레이
합심
EVOL
뇌진탕
DOC
감면
대자
리페
소이치
심비
해신
해류
후타리
##쳐스
##메니스탄
회의소
창조신
투르크메니스탄
help
특산품
ps
도지마
모리오카
벽지
진균
큘러스
팩스
##윤호
##호른
##다귀
##iser
패배자
크리슈나
이사금
안기부
외관상
입항
직할
첩운
인기상
잖아요
막내딸
김기춘
Fix
air
마리스
원도
임마
픽쳐스
##LIVE
##래기
##동글
파이버
1104
카미시로
자극제
DTD
로데오
Daniel
동글동글
은연중
Fear
REM
갓나
지용
투철
핼리
알레한
##하이머
받침대
image
클레멘타인
Empire
MU
Uh
부티
신본기
열선
제나
천생
카나가와
포피
문제지
##ston
놀라워하
아담스
사당역
와스프
Mut
정심
지층
한준
함안
주전자
##ized
신도비
세이프티
Kur
sign
고름
광풍
난적
뉴런
무니
박규
심산
엘윈
위패
유태
텐서
현령
##chen
##벨레
설명문
해외여행
##ACT
아지랑이
안영명
ARE
광합성
근해
뚝뚝
못쓰
봉명
상면
허재
하울링
노랫소리
예니체리
EY
Sold
끼니
명륜
발로
색슨
유량
응집
테살
특방
합비
효원
##뉴기니
##ros
599
665
Blast
Phys
Darkness
이건희
Hub
검심
괴링
미야마
예법
이상호
3100
이탈리아인
리버럴
억제제
급행열차
소시에
요양원
시우바
frac
진달래
met
난지
냉대
박도
밝아지
순도
신희
용아
제럴드
체스트
초저
포석
학예
아르곤
ORIG
Auto
양서류
VJ
구민
싹트
처인구
최철
학제
##wa
자유의지
여행기
트레져
외무성
모하비
버나디
아나키즘
마그네슘
HB
몸놀림
무에
백댄서
양인
일소
홍어
##KI
계약직
481
467
사마염
1815
키요타카
Demon
Version
Dual
HY
고화
군무원
기현상
따귀
블링크
진조
피복
##백도
아이자와
LGD
우수수
##ibr
Goodbye
##ottom
현충원
LIT
간극
맥북
방탕
불협
어간
의종
인석
잠옷
천우
펄럭
##ined
세이빙
아라고
사단법인
895
시공사
산출량
마아야
베티스
속상하
악습
용제
참백도
철광석
추풍
쿠프
환대
##니다드
아야나미
트리니다드
576
수익금
혼합물
강용석
경정
곤욕
뒤죽
부선
샤흐
티키
홀트
##울루
051
수입원
전라선
939
안티테제
대류
링클
안수
의중
제설
##웨더
##하워
454
forever
나카하라
시흥군
아이젠하워
파비오
임찬규
밑줄
바삭
베시
빈축
살레
아련
역상
##이벤트
프로파일
대한축구
464
각본상
인디고
덤벼드
대한축구협회
고제
샤넬
세드릭
아님
언양
캐피
##섬유
스카이라인
바보짓
의무관
부지사
릴리프
MLG
Conn
엘레노
##hythm
선착순
마릴린
로르
로젤
보온
서먹
셰이크
식겁
아영
호관
##fer
공동묘지
##rab
##ization
데카르트
해운대구
Bec
군집
나나오
에스터
팬택
##를린
##ency
멤버십
4800
마사요시
키리야
오마이
클라이드
안성시
의병장
Drive
Ace
History
PB
교서
단초
덤프
목덜미
반자
석류
설레이
주무르
시간제한
정치국
니시다
메인이벤트
브라우니
박경완
고이즈미
무굴
춘계
콥스
크립
타냐
##명왕
##박죽
542
제갈각
싸이월드
아소카
ANIMATION
권희동
뒤죽박죽
Som
Sant
검소
저물
티아나
허름
##컴퓨터
우주복
조사원
SPD
586
포항제철
hey
##루엔자
로티
수산물
암암리
양모
양안
원경
잠행
정해
캐런
삼성물산
청년회
타케오
Combat
라미레즈
캐롤라
열렬히
Dim
Sen
경각
나강
낙성
닥스
심근
헬무트
##커트
아무르
자유로이
국민회의
583
919
토모요
강남스타일
와이어트
서재필
오웬스
비빔밥
HUD
격류
결재
괴벨
군견
롤플레
롱런
문병
아다가
외아들
증손자
콰트로
한낱
##당역
스피노
보유량
469
장기말
공작령
사우나
코르넬
테라다
하인츠
까마득
중구난방
arm
피난처
조수석
Geor
비욘세
이근호
부지런히
롤플레잉
레니아
원희
원담
축협
타악기
##민석
##회계
##발리에
053
가까워
스트라이프
골든디스크
Blu
영양소
Songs
파비안
소시에다드
cop
강권
랍토르
박빙
아길
아몬드
제방
진자
플란
연합체
..."
마츠우라
토모키
대립각
히메지
내추럴
당면
삼송
엠스
파상
풍력
한파
헌금
541
1175
정우성
WHITE
떠들썩
모레노
STANDARD
뺑뺑이
Wow
귀요
락다운
망우
산천
요염
우거지
테스타
플레시
##shine
검정고시
보증금
Peace
에보니
도너
도날드
예제
잉그램
칙칙
037
그레이즈
구도심
792
이브라힘
맥그리거
묘목
호민관
##렌더
##라이크
작살나
;"
깔깔
노즐
립싱크
벌판
허전
##재윤
1812
교육대
##ages
대항마
코우키
Steam
Endless
Mot
wik
방석
보성군
세경
의천
##지종
뒤집기
나루히토
Forest
사와다
놀래키
##fferent
남김없이
링커
샤토
웰링턴
은혁
최문
##kin
시나가와
685
사와타리
사탕수수
들추
메흐
발란
불호
피구
##공포
##막염
아도니스
직업인
기어오르
KEB
남해고속도로
새까
엘살바도르
우베
잇쇼
코엔
혜자
가리온
트라키아
##AME
아바스
이경민
아자미
인플루엔자
Deck
Giant
메소드
밀렵
섬나라
싹싹
액상
웬일
초짜
##시개
프리실라
714
##ITA
Bob
루즈벨트
수제자
원통형
망나뇽
저소득층
무에타이
Hill
put
굿바이
세진
윤길
최하급
kiw
비천
빙산
쇼인
왕십리
유피
쿠릴
쿵쿵
탬파
투닥거리
특파
화명
##승민
마리온
529
심형래
게토
난생
색조
암군
음영
폐암
공략전
우에키
##슬라브
때려부수
발레리안
찌질이
알트리아
blog
찬송가
RUN
눈금
단파
마속
명화
반유
뽀로로
선적
의창
코뮌
투약
하한
##이상
562
미야와키
##ocus
소득세
mom
공여
맹획
집편
김현우
영동군
VCR
Frost
상비군
세베루스
Tower
리퀘스트
매설
하니
##eless
484
인디아나
오마르
장로교
CHAMP
베오울프
과르디올라
JE
PI
고역
극소
세척
식탐
입방
테무르
미니스
447
아트홀
Soft
성실히
패잔병
몰라
소도시
승지
애지중
앨버
요헤이
인슐린
전민
채플
추미
케노
##oL
##시위
##ended
##베르투
애지중지
most
만과
숙모
어불성
장실
주라
차저
카셀
항거
황민
##oom
이성질체
GSTL
어불성설
계백
나하
수계
윤명
##가쿠
미나즈
프레이저
바우어
카라스마
Kid
권용
메트리
잉태
할양
##임금
##팔계
1002
tog
우스이
직선제
리플레
커넥터
##공포증
Lil
과업
서전트
솜사탕
알선
여흥
연환
지세
지린
트루스
하림
##지세
Alive
Exc
전지전
second
MEDIUM
NOVICE
빨대
오코
인현
탱고
##단심
835
솔트레이크
갑각류
바베큐
운디네
돌개바람
맥기
박노
심안
에볼라
용주
일리아스
저팔계
##코이
##타우로스
쿠로카와
해피니스
전동기
미노타우로스
보령시
저작권법
일편단심
전지전능
새드
자색
채병
태민
한비
합천군
혜원
전차전
김동수
데인저
Phantom
EFL
끝맺
막지
물개
보사
위수
키토
홧김
해군력
SSC
ATS
패트리어트
대식가
내팽개치
건우
덧대
드시
메틸
모크
산로
졸음
지롱
토루
여왕벌
플레처
death
김용의
자초지종
Was
당산
아식
##SA
##date
##상대
##인격
##카시
마리야
038
721
Service
양동근
발기인
레츠고
Piano
##ared
음악인
어리광
Seven
Unit
Rocket
##IVERS
가봉
발록
벽산
북조선
안국
증조
티그
할복
행체
환공
##베즈
사무직
경원선
아르티옴
ye
기담
메그
몸뚱
슈카
으아아
##화산
..!!
653
증거인
##ATH
아우크스
Liber
해수면
문성원
최원준
꿋꿋이
시무룩
여호와
아우크스부르크
Rac
내서
뒷전
멘션
밀랍
하달
3800
표준형
모성애
조디악
샐러리맨
적혈구
Aug
Mont
Yu
돈지
반피
엉키
울보
헤겔
##TT
##링겐
607
Mech
경인선
스트라토스
가느다랗
Wing
따먹
막기
뮬란
태안군
피보
##SM
##사정
##봉사
통일민주당
Its
다케시
오세아
ahq
슈마허
Aust
JIN
가처분
경진
목줄
액슬
유와
인단
촌락
해사
##노운
##니츠
##itree
산업체
김광수
임재덕
고약
모렐
법치
속전
자그레
창씨
최창
후난
##검사
나이다
473
스케어
김봉준
자그레브
Pain
구소
예일
제롬
조피
증여
퇴거
##장각
##arge
##ept
Steel
Bow
Dash
낙석
린트
마재윤
먼치킨
문현
초강
##RI
##ems
알라바
Dreams
이계형
안성맞춤
ROT
bp
cd
늙은이
생업
유천
유은
유안
참나무
크레이터
##타케
712
처참히
로보트
온리전
망연자실
Mult
리리카
세끼
제다
쥐과
회분
히에이
##문간드
##아스
##쿠레
##거리역
991
이성애자
cur
드밀
미쉘
서보
유중
준지
특선
##투기
052
남성향
을지라도
588
루시우스
오디세우스
요르문간드
일장일
암행어사
기다랗
라온
말포이
멘델
사목
생필
에든
오산시
컨베이어
타밀
팔각
표상
##face
##JECT
1005
크로포드
글씨체
버거킹
Japanese
일장일단
노팅
다임
성무
속물
안광
황토
##가치
##가다
##례문
inst
아슬란
프랭키
계양구
데어데
고해상도
문교부
생필품
move
개새끼
능히
부케
사량
언노운
장학생
##웍스
564
기원후
Into
스탠퍼드
##프레드
UED
walk
김조
닥쳐
소급
유임
GTO
김경란
티아고
Edward
방공호
Legendary
##Sports
정약용
JUMP
닐스
대나
덤핑
델론
머그
센추리
양기
양준
클루스
페북
하품
##론을
##학파
##부심
##참모
##ANGE
477
534
1108
도화선
에든버러
wind
베스터
양광
진갑
총책
캐니언
##데나
##꼭지
지속력
수호전
711
##ired
Poly
QPR
민경훈
블라디보스토크
Case
SJ
곤혹
공회
맥마
면상
삼바
샤카
잇키
자모
조은
철포
한의사
##core
##천자
스크루
1874
과대평가
메다카
데어데블
닥쳐오
Ni
Wish
개복
다연장
르미
밍크
발소리
범어
시큰
우롱
재커
타짜
포라
스타스
##트리히
546
리드보
Drag
NTT
공고히
CNo
Operation
cons
결부
다구리
말수
별똥
아첨
연과
온기
이령
켐프
콜론
퇴행
##ania
기술원
레이먼드
Chu
624
장악력
HTT
한가운데
control
eh
납세
단번
만도
썩이
알칼리
조충
주원장
포방
##yu
##백산
1150
독립선언
649
563
변형태
서대전
이코노미
##그러들
Depart
삼장법사
날아들
인왕
쫀득
##우로
##후이
문제없
인사말
리더스
Short
1109
니코틴
대피선
뮤지엄
Pict
yo
노구치
대홍
동침
린도
뼛속
진마
하메스
##사진
메타트론
##others
VAR
방파
스지
이판
이튼
쿠나
##은사
##방스
##굴라
##ulator
##프레임
스터링
테오도
Assault
문희준
system
괴벨스
kiwitree
VA
jo
wish
뻥뻥
신죠
열심
임자
##eder
651
김정호
##eph
뒤돌아보
베오그라드
VfL
배아
비담
세정
소래
테리어
함축
##몰로지
703
1106
Trick
카사네
질식사
POS
놀음
대간
몬도
부야
생방
양봉
콤바인
쿼트
헬프
##rin
시청각
041
수천만
천공기
레반트
MBA
XV
낄낄
운세
울드
팬케이크
휘슬
##다짐
토모카
성모병원
Ash
동제
어영
요타
키스트
풋풋
중심가
가슴팍
장성우
##CHO
이문세
sleeping
together
Believe
creat
mid
앞니
원미
총파
표도르
##아메리카
프로비
492
566
##ISH
폴리네시아
정밀도
휴전선
리플리
양조장
미심쩍
Action
OBS
VG
사테
요사
제피
크시
##ying
하루오
독립성
1103
617
적응력
카와라
김구현
전태규
피타고라스
휘몰아치
마거
법황
빙수
색칠
입버릇
폰티
합장
##분자
479
Quest
공소시효
아반떼
뒤따라오
접이식
불협화음
새까맣
경보기
교생
대못
도티
보네
의붓
켄토
화망
베르니
735
재배치
대승불교
##기념일
중생대
Together
슈피
이파
푸대
전략가
581
인디펜
기라티나
이스마일
금자
부용
불식
아싸
양철
제소
치달
친자식
코호
파혼
환청
북한산
##uma
조각나
드림캐스트
박종철
양세찬
오르페우스
TUNES
LITTLE
목축
사골
성고
여상
제닉스
제천시
지구대
553
미술품
면역력
시노다
스즈란
DMC
박재범
발주자
Object
ai
도단
미카와
입적
장과
태주
파머
##반지
1440
ASMR
주교좌
즐거워하
DW
Tre
디트리히
송치
예복
책망
콘월
테이지
##로라
##PL
##강호
##죽순
전차선
전자전
생일날
브로콜리
공신력
plan
우후죽순
구부러지
Morning
님프
로쿠로
벌거
엄숙
연단
연례
천교
팻말
활보
##호프
다크호스
레오네
쓰레기장
아비게일
노년층
록산
생원
서야
쌍놈
절세
촉망
##테른
##포역
##isk
EXC
스톤스
937
아기자기
##ected
UBW
최지성
예브게니
FGO
내색
아즈키
원양
##inn
##uring
국회의사
에이전시
마츠바라
Edge
블랑카
가보
각류
노타
딸내미
베이트
신센
조자
##이다
##cent
끝나가
##ANA
498
브레드
신정환
Freecs
동질감
신센구미
라니아
석학
앙고
위르겐
척수
홀연히
화체
ᆫ다지만
들어차
헤드라인
납치범
Apink
심창민
연골
푸조
흥부
원자핵
일방통행
Amaz
신석기
Dive
고별
따끈
말짱
몰드
바누
임태
토구
한밭
홍렬
##ika
유키에
Flow
정공법
BOSS
개나리
귀비
도림
롤랑
산문
세오
세율
원구
입가
취록
텐도
핸섬
##타라
지지대
출발지
자치통감
USD
때려치
박수호
흉악범
청부업자
고품질
Wings
hands
단사
방배
앰브로스
옹기
위약
유보트
킨조
##YU
후보자
494
Alone
좌우명
현역병
갈아치우
끓어오르
복희
비요
빨개지
알칸
움츠
재민
지스타
칼리아
티얼
힘러
##용준
##다람쥐
수상쩍
전국무쌍
537
녹음기
김태완
이주한
하층민
삼국전투기
곤지
마히로
무치
복소
순박
이이즈
황기
##NN
##시프
717
978
1010
삼각주
SLR
짓밟히
추스리
Masters
CHAMPION
이이즈카
결절
그을리
##aly
부탁드리
아사기
Quad
이와테현
총파업
삐딱
서글
슈슈
화투
1004
배틀넷
잉글리시
그란데
지주회사
그제야
Company
단디
백치
슈워
양가
요릭
줄지
척결
총지휘
판의
하자마
후부
039
489
로켓포
사쿠라바
Graph
Flame
로열티
정주영
김국진
Rifle
log
von
곧이
부경
빼닮
어용
일견
잡아들이
황주
##iance
##드름
##네세
','
신기동
1162
cho
구르메
김상훈
PPP
##키드나
Save
고초
깔아
꿇리
만호
만력
시당
악독
에키드나
잠비아
햄릿
##uri
레오폴트
아가리
시로코
게르마
MILL
영도구
사계절
순이익
화생방
깔아뭉개
Att
도롱
야식
에히메
인세
츠유
포르투나
분쇄기
##otten
야마구치현
휘청거리
Cop
계장
덕성
란카
무나카
빈즈
시저스
으냐
음계
작약
장쉐
##공간
메이헴
보호령
이슬비
플로피
상속자
무나카타
장쉐량
YF
cp
골탄
라돈
사색
킨텍스
##war
이동욱
##ARA
521
김민규
유언비어
이타미
KORE
게닛
반절
업주
호들
현대그룹
526
저격병
이카루스
사에코
프로텍터
메구리네
꿍꿍이
게닛츠
나스티
말갈
인동
철사
체사
후스
Lock
자의식
cat
ᆯ락
경포
다요
단박
민담
보가드
톱스타
##로역
##넥스
만화경
682
클레르
장성호
레온하르트
라구요
NEC
견우
군제
달라이
뒤엉
조음
캐트
##val
##튿날
##ides
##ANO
544
라즈베리
Everybody
Damage
Los
궁진
엔조
응력
정에
출두
측천
쿠오
판테라
획책
##넬로
트리트
치료비
936
승차감
조부모
고즈
수임
수압
실총
융단
캠퍼
##FT
마사카즈
Very
주름잡
Ren
Syn
교각
내국
외향
인두
초합
카가와
히카와
##태수
부산진구
049
미츠코
이오시프
DOHC
의인화
퍼블리셔
HAL
글레이
벌꿀
베노
비라
습윤
장산
장황
함자
호분
##재훈
##삼국
연합함대
루카리오
유언장
도쿠로
오리엔탈
뒤엉키
CZ
Danger
WN
경어
먹구름
성마
시터
온대
총감
##문왕
##심부
동서양
아랫부분
최유정
}}
견장
교무
도그마
비역
창힐
투장
평과
##로하
##kt
##슈인
##olf
NET
ONLY
ELS
text
글쓴
금욕
나모
뒤로하
범벅
쓴맛
어니
왼편
이낙
이튿날
잡화점
처세
탁하
튤립
##iac
##라는
카이엔
이중인격
으라면
우편물
글쓴이
검장
교로
귀금속
나드
버팀
페를
##RY
##장담
아르투
타카사키
갈라서
이선희
보아주
한일전
Eternal
Ten
same
서두
일월
주우
전사체
Chain
636
child
김승태
NGT
서동욱
귀여워하
호언장담
Times
hold
개고기
구개
구덕
되갚
리베르
은주
한경
해악
공항버스
STS
마츠오
이슬라
로그라이크
박성호
영등포역
Sunny
김세현
한카리아스
칠면조
Bass
Cour
겐타
김익
나군
대이
모가
아센
어법
##반장
lost
##운동장
Pho
##vely
\'
네거리
동춘
마튼
박남
분주
실러
언월
음소
풍년
##item
순찰대
Den
면박
순풍
친자
휴직
##COM
##조약
##데냐
##안전
레이센
대전역
사르데냐
PROJECT
OMR
강모
난수
뗏목
마관
방자
산뜻
송림
적다
정왕
켄파치
켈러
필수품
ISS
이인제
도미니크
모터스포츠
가쿠슈인
서슴없이
알렉시오스
아후
패색
부산항
절대자
554
474
Deemo
브레스트
디오니
카다피
궁니르
기브
꼬투리
말콤
배시
벙어리
연남
요점
윤무
타력
펄기아
##타이드
##라이야
마리크
바라기
트리케라톱스
613
식물원
갑론을
도신
반팔
불면증
셀렌
아앙
약골
카펜
풀돌
##정권
##다코타
주의보
이시노
우등생
선더랜드
갑론을박
Rade
개싸움
과민
교조
담뱃
드골
묵념
제례
지라이야
친가
##만다
ㅓ야지
제니트
김인식
정선군
순례자
쿠보타
Viv
YMC
외적
중리
차급
##선생
전용도로
056
075
피터슨
사이클링
IGN
후후후
장항선
FULL
주워먹
감내
더들리
점찍
##번뇌
어리버리
회의장
시토
예성
훈수
지방관
경호실
성숙기
초고층
혹여나
남면
리유
맘모스
배부
백산
용남
이괄
##iC
##UAL
##시리
하이츠
##astic
클레이튼
가중치
everything
아미타불
비앙카
문방구
눈깔
선견
위독
양동이
송신소
캐머런
Ell
Jon
YOSH
금포
듀이
디텍
바리스
부옇
브릭스
쇼타임
티즈
##라고
##탐탐
##지시
##베르데
호시탐탐
##IVAL
피에스타
와시즈
옥토퍼스
충렬왕
유레카
마거릿
나시오
단아
루치
변증
숙의
통기
피온
##lim
##결혼
머리장식
유일신
905
야마나카
아스테
998
519
피에트로
개화파
윤서인
차이나타운
으름장
나시오날
센세
토번
퇴단
상하좌우
그로브
김연우
냉각수
리히텐
김문호
몸부림치
파푸아뉴기니
센세이션
만전
매이
상온
송전
아퀴
웰터
장예
점술
정환
지동
중국집
오토나시
토모아키
진보신
이영한
1859
스머프
Ce
강건
기영
서령
읍성
졸렬
현풍
화고
##well
##토리아
대학가
야구공
Arr
방지법
1165
참석자
도쿠시마
김장훈
네네
둔전
똑딱
머서
불닭
이류
천세
튜링
##zi
##qw
기종점
Const
오른손잡이
##노세키
오세아니아
굳세
로케이션
몬스
일임
착발
친오빠
팝송
##fe
자주색
다이앤
프라이멀
trans
김주혁
막시무스
뇌졸
루틴
##빼기
##ili
##emies
peace
내리막길
Pok
넌지시
용적
저금
##li
행정병
048
마침표
##ante
누리꾼
야스쿠니
드림웍스
창의력
헤인즈
시큰둥
개론
겸업
귀부인
긴키
렌스
소호
스터리
와룡
라이온스
막내아들
Display
마흔
무천
솔지
씻기
이럼
폭심
##자살
##꾸라지
오른편
762
김동욱
제철소
계측
맥시마
무량
문책
손동
송산
시아버지
요와
퀘이드
047
데스몬드
플레디스
Coast
김원봉
Justice
장윤철
Thomas
밀봉
빼빼
야시로
장물
졸이
태만
##글라트
##수룩
이상용
마법부
머리핀
카즈히코
745
이자크
##사이저
시모노세키
상파울루
주계열
##글라트바흐
burn
기악
담요
덥스
묀헨
민현
비선
에탄올
영풍
오색
윤재
차베스
치도리
##벌식
##진진
##나루
##action
재가동
묀헨글라트바흐
XS
나유
샘물
야무
키어
##Te
995
876
테츠로
##ween
외톨이
LMS
라팔
서벌
콧물
호석
정치범
소년원
652
642
장난꾸러기
아시아인
보급선
무덤덤
로렌초
피오레
##ched
장영실
흥덕구
Tact
개동
레흐
면면
식견
유심
윤원
자용
저곳
전각
조망
차려
파브레
프테라
##놀즈
608
돌격포
청소년기
CCG
PDA
나르샤
최충헌
mine
건배
광각
레스타
수자
웰컴
주둥
피레
항암
호색
##교환
##태영
##트릭스
11000
게임큐브
##ffic
483
파랑새
years
남반구
덧셈
막막
에센스
엘마
운룡
재시
치하루
##둥글
##팔렌
알리시아
독립영화
1801
파파라치
몰트
영주시
퀴지
##CL
##stand
686
사명감
UNI
DIFF
최성훈
yes
개런드
너도나도
두문
섭렵
엄상현
조신
페타
획일
##GIN
##ICT
스티치
쿠로키
Guy
리브스
애시드
테크놀러지
알레한드로
kakao
{\
만개
백일
외손자
초경
페리아
##DB
##레이라
문제집
4200
합격률
1164
change
갤러거
소노코
패미통
분수대
Fal
Kong
VK
이동훈
지장보살
서북쪽
김한수
더킹
발만
방북
사재기
월면
헤이지
현제
홍영
횡성군
##카도
##해살이
##itas
완료시
청년층
유기물
반기문
밀양시
Mirror
감마선
##비행사
Dancing
매실
아악
중정
페예
향방
##OOD
##만두
우주비행사
프레지
평화상
568
1161
벤치마크
ANN
유영진
해인사
어처구니없
다구요
Legends
김문수
종주국
토파즈
렌탈
뱅뱅
보코
뼈다귀
사군
심폐
전연
코유키
##소개
네덜란드인
남아돌
카야노
정주현
츠치야
소구경
Fat
갬빗
비음
비밥
체흐
툴툴
##자전
##iles
733
모모타로
도네츠크
최태민
LIGHT
이스케이프
수개월
푸대접
Fu
노던
서용
성미
쥐속
체니
케익
##BB
##부들
##느질
타이핑
블루베리
시마무라
1174
인과율
HELL
NEWS
플로리다주
김춘추
반수
쏘우
옥수
절교
중과
출금
하민
##암사
##할머니
레이놀즈
시험관
베이커리
바캉
에곤
여종
예인
임선
천운
허스트
##에다
##우르
크리스트
세르세
꼬꼬마
바캉스
두정
러플
승무
싱클레어
조프
차주
##acter
스피디
레오파르트
관측선
ANOTHER
전자기파
모랄레스
Tro
found
상충
서이
유빈
일용
천태
청명
혈흔
흥정
##베스트
아마기
아르센
베르베르
573
724
이와시타
후루타
부들부들
CAR
Ya
^{
거츠
궁핍
극구
납북
동궁
마령
메어
변별
이퀄
형기
##상자
레드스톤
611
672
##ustom
ICA
성악가
격언
맨슨
미려
바코드
반석
부쿠레
북제
스판
에포
연륜
치경
커미
통사
티끌
혹하
화양
##피에르
##빌리
##uter
칼리굴라
VVVF
조로아스터
부쿠레슈티
구피
리히트
성직
야신
원뿔
직제
쿄야
킹왕
통짜
##rent
##면적
라이트급
626
김성태
~~~
정몽준
킹왕짱
att
간대
민규
박순
상훈
쇼어
어물
여직
푸젠
##주원
##목마
이론가
드롭킥
어이없이
IPTV
김주성
신상문
전소민
차려입
Jay
eng
검인
군들
귀차
맞아들이
송명
영작
캡스
바이블
회전목마
발렌슈타인
둥글둥글
광둥성
명일
무감
박중
복통
생매장
속세
송민호
신광
와이스
인외
제적
틸러
##ture
##보아
##팔방
044
##STA
지명자
965
네오플
1173
프레스턴
land
니우
벡스
사티
생후
설도
차곡
카브
##NY
##삼성
무한궤도
회전력
818
노조무
프레스티지
About
Perform
하동군
맹렬히
Term
ter
간곡
먹칠
무코
방직
백은
법리
섣부르
워스트
월레스
유바리
의성군
입출
좌전
츠보
##푸틴
##루기
955
메디슨
늘어서
쏘아붙이
귓속말
Tun
또라이
망량
비협
잔영
제격
줄타기
칼국수
##칠성
오오츠키
기리보이
Energy
박준형
양부모
츠키노
애꾸눈
Radeon
Pony
SONG
변주
보모
비거리
코야스
팔괘
##Lime
##room
트레이싱
라스푸틴
695
927
폴란드어
Glory
Rest
Saint
물줄기
버펄
불쑥
비봉
썩히
집어들
짝짓
타토
타살
타구치
패싸움
##론드
시나몬
543
Mario
야마노테
노림수
cos
센리
숭례문
압제
요상하
종성
헌종
혁혁
##PC
##다래
##브러
Chang
Sugar
Adam
마미코
나주환
Corpor
감리교
유람선
거늘
금시
덩그러
동역
수형
쨩이
테카
##암면
계획안
보호구역
기름지
사방팔방
Solo
일회성
거뜬히
Dun
Found
Hen
단성
데스트
듀란트
신애
알스
애신
오페
우쿄
준페이
집병
펜션
희수
##울림
아이어
브라스
개학
경내
덤덤
떳떳
입선
자웅
조업
진창
해원
레이테
흥미진진
Flight
세일럼
적잖이
Test
갈로
네우로
누라리
러링
로레인
부폰
안현
영안
위풍
쥬시
아니야
ICE
하타케
##ONEY
오치아이
컨버터블
Tiger
알레산드로
누라리횬
ke
남창
특설
영상미
후지무라
장수로
1167
SDXC
Lou
happ
그로우
날붙이
빈혈
어엿
지쿠
진희
추성
푸짐
호병
호찌
493
##ITO
아쿠아리
슬로프
와카바야시
파열음
Hunter
IWGP
능글맞
몬태나
Dol
Tab
간당
니클
오뚜기
유소
장춘
전재
철문
쾨니히
페럴
필자
일본풍
##unity
668
깔끔히
##마리노
동북쪽
아쿠아리움
sound
뉴클
려야
산마리노
##프셔
##URA
619
안내문
주체사상
베어링
FEVER
농경지
기공사
비굴
서량
용권
임윤
재평가
투광
행여
##pin
##에서
##바라지
##()
이사국
정비사
동해시
엄지손가락
##그래프
BAR
gener
버기
윤진
진찰
텔러
##커우
##추부사
골드버그
모병제
TnLime
Bronze
리히텐슈타인
개안
다일
베란다
비좁
사온
선영
오천
위나
천추
필력
##계동
##새우
##미치
##전동
##망상
##=#
##볶음
파라드
동대구역
날라오
월경지
말자
애스턴
유스티
장효
조혜
##저러
##긍긍
예능인
1172
전전긍긍
##레르모
GIRL
아오모리현
VIII
might
상제
상산
악물
알록
영점
옥탑
요주
처들
태릉
##메인
프로방스
##OTO
유력자
##사이클
레닌주의
피라냐
FV
TDD
vocal
랜섬
부촌
여혐
컴포
토관
헌재
호브
##경사
##우주
##차별
##픽스
##닷컴
선수협
데이모스
정상호
621
예산군
급료
원세
위건
재적
코세이
피닝
한지우
혜나
홍승
##AX
##ICULT
크레스트
오지랖
간행물
고화질
det
난다
리들리
아하하
연회장
올슨
패리스
##체육
선발대
##rip
577
코이시
기네스북
광배
문벌
신덕
연거
푸린
파르시
Cyber
DIFFICULT
내열
따분
소교
손맛
최호
캐비
##모비치
##저나
보호구
이스코
스킨십
CSI
삼척시
dist
네르
니가
다선
에오
윈저
육질
자숙
카마치
투모
파자마
##wan
795
1166
키타하라
이노센트
타키온
서남쪽
쿠사카베
테카맨
Pix
견적
도프
방생
백안
베텔
양공
오츠
옥중
죽림
##iff
##ias
##roll
우리말
요구르트
히로카즈
046
SPA
726
스웨덴어
리브레
아스타로트
SPEED
Sonic
XB
eM
게나
공체
광적
김숙
다대
명덕
염상
은성
잔학
특장
할렐루야
헬가
현청
##지수
##디브
메이브
054
being
클리닉
에르제
와타리
##코프스키
Mission
시정지
소염기
HN
base
매해
모도
부강
분립
실소
웨더
텅스텐
풋내기
흑석
##time
##따나
##복싱
##!"
느낌표
062
진실로
미카엘라
간호학
토미타
로드리고
TOKYO
현가장치
Mountain
남태
레빈
명료
수룡
천제
화하
FIG
718
클로징
1858
르노삼성
슬리피
문무왕
개과천선
Cosm
나스티카
상과
응고
이디
처소
특진
향남
##소송
안전벨트
심장병
서부극
아가사
소노다
Concert
Ape
김요한
배식
사월
중경
칩스
##nal
##asc
코즈에
비협조
HOME
MOTHER
갑신
고미
샤리아
시금
해박
##화수소
##오케
##ORT
사쿠라다
alone
1171
페더러
진해수
Os
dong
김의
눈엣
답글
무미
벼룩
염산
울컥
윤미
포브스
훌라
##미인
##위병
고르바
491
ang
Drum
중서부
돈지랄
눈엣가시
ᆯ려고
고와
노나라
던져
링스
몸살
뻣뻣
암술
팔짱
헝그리
희철
##어른
##orp
블랙캣
카타리
신세계백화점
그나저나
귀요미
HH
가택
간척
구술
붙박이
석실
설움
족인
칼리오
탈수
##조류
##박자
##omy
카이치
once
628
수용자
가라오케
acc
단막극
구세대
물레
위직
인노
참기름
칭다오
콘노
홍위병
##지스터
##에이지
안티고
크레이머
Crit
트러스트
산책로
쿠르드족
별똥별
리핑
몰디브
복리
상왕
지룡
치약
한태
확성기
신용우
이카루가
사슴벌레
부평역
갈릴레이
현시점
구불
금당
다모
두상
뜨리
레옹
인크
플렉
##지근
##부양
##양양
유우타
세라핌
야하기
윤영서
##레더블
고르바초프
인크레더블
Buster
LX
딸랑
미끄럽
벤틀리
본분
불나
비박
서평
선급
엔디
역하
##ZER
##라야
트랜지스터
이순철
Memories
Awards
내몰리
Martin
JAM
Mother
Rise
UoL
가감
베푸
북일
석장
을려
하성
684
수십억
사다하루
URL
오펜스
쓰촨성
쑥대밭
Der
Fel
가천
구색
구창
난제
붉어지
상형
수초
이임
째려보
찬동
타르트
허프
##파이스
아르고스
사업체
##osp
보라매
바스코
GLA
Castle
조범현
무령왕
공역
공분
보신
본청
운남
##센션
##rae
소프트볼
696
교차점
알프레도
신재영
놓아두
청담동
가엾
방목
배선
백부
시료
##스트리트
연구관
459
752
치명률
Mode
갓난
맨드
바느질
뷰트
영명
웃도
유광
##han
##band
사이공
##osed
547
띄우기
신선도
히스테리
TLC
계원
기븐
보비
이구치
협연
황현
##UP
미사오
063
귀족원
카자크
취재진
김병현
타키자와
황의조
다과
면밀
양귀비
유술
필즈
##구슬
##감도
##불허
##팬지
수행자
베르가
713
부전승
Generation
난파선
##anguage
나호
명불허
보부
설기
슈코
양사
크다
##는점
가끔가다
마츠야마
김영선
동아프리카
얼룩지
연거푸
김혁
북산
앞잡이
창궁
##티치
##며시
18000
스코트
Nightmare
level
소우타
성탄절
Phoenix
명불허전
Haw
눈멀
라마스
사심
어센션
코니시
##코노
끌어모으
프린팅
박영효
니키타
KGB
Mali
아탈란테
두만강
Sac
구렁
모히
성애
시빅
씌이
자나
장송
타츠키
##rd
크리퍼
신고식
김태군
Universe
사일런스
뒤바꾸
쓸쓸히
타타라
수마트라
크립톤
카펜터
뉴클레오
모히칸
괘씸
꾸러기
노히
모스트
생중
제홍
천보
치오
해먼드
후발
##딩거
##leas
운영비
바이올리
751
정원사
1163
HDMI
SHIN
바이올리니스트
Kat
기가스
김중
나디
마임
반구
병정
종인
지보
지판
침팬지
카펫
퍼퓸
##응보
059
아카디아
안드레스
집어먹
신입생
모욕죄
채식주의자
메구로
광견
다하
대실
마현
서호
원금
합사
회신
힐튼
##성당
##사회
comple
중력장
인과응보
##reng
Maybe
Tomorrow
스패로우
future
대런
동분
디마
라하
메나
양일
쟈크
##런치
일반직
##ading
Once
Prom
샌드맨
ge
개벽
노령
노름
단차
동장
발착
본원
유단
장한
크렘
타티
프릭
해롤드
건설사
아일린
잠수정
Trap
BX
Bee
Find
듬직
뭉뚱
미생
버려두
북조
수와
직시
천고
펑키
헛점
##mn
487
전기차
에스메
634
크루이프
도박장
오리엔트
XII
도나우
로번
리갈
창기병
환심
##래핑
위치스
##illed
평균치
오버래핑
814
사치품
특파원
cs
si
xi
격멸
귀부
매슈
반인
빈손
뻐꾸
알버스
윤여
잡화
쥐꼬리
찰떡
##fire
아카사카
648
김동률
Weapon
포위전
브라이스
부쩍
사재
시논
오투
탕진
포클랜드
피로스
흡족
##트린
Shine
제로원
교과목
하타노
알비노
브루크너
battle
뇌리
루어
메코
석과
셀타
스가와라
야욕
원봉
저온
파브
이동형
아가미
코토노
믿음직
지표면
고해성사
청도군
DQ
done
나초
배다르
볼가
천식
키튼
팔레르모
##키나
096
사이드암
오즈마
박용욱
공예품
##swer
채프먼
멍멍이
코민테른
ag
경국
경련
문짝
변전
지하도
548
1839
오다큐
##ucer
Smith
유세윤
자습실
하모니카
radius
셀룰러
emp
남해군
로테르담
무혐
비품
수자원
아네트
양발
역력
충직
행이
##수전
##고로드
하루코
스피카
해군사관학교
622
이슬이
MSG
Cover
우로부치
Din
Fur
Jae
각외
개다래
부머
상복
율자
인멸
타칸
헤즈
##IB
##시노
##변수
##현제
자치체
March
##ologue
party
KOREA
강역
나달
본서
읍사무소
이본
이리아
임베
##프링
##폴라
40000
평화통일
헤드램프
799
에리얼
텍사스주
올려다보
영암군
INFIN
다락방
버팀목
뻐꾸기
임베디드
ᆯ께
게양
나프
맥없이
성휘
오싹
865
전대웅
PPL
Playmaker
초계기
엄정화
Ram
눈높이
라부
로런
벌떡
비다
뻐끔
생머리
지태
체테
타네
오리코
##apons
메르헨
타쿠로
Wars
출산율
아타루
뉴로
분업
수통
영흥
영회
영묘
용봉
우거
일고
촉촉
##조치
얼마간
자연환경
바르바로
MAMA
브리검
통제력
아시나
우회로
호성적
허도환
논점
문공
토야
트롯
팔로우
플란트
ᄇ니다만
##aling
위키드
플라멩
카스카베
Academy
고후
남두
우당
일석
챙겨
콜먼
타나베
풀어지
플랩
해리어
##야금
##두부
더불어
961
하야사카
Press
더러워지
영양제
player
영월군
권선구
야금야금
Advanced
엔하위키
단부
발치
불지옥
성창
신극
장색
철쇄
아이누
아리요시
농구대
DMR
간략히
sleepingcat
Aven
fine
갯벌
아커
자회
전골
지제
진면
쫄깃
참되
퀴리
##돌림
아이고
##rik
이수현
카네다
난투극
Hearts
정민철
올림피아드
sin
괴산
나바스
린나
먹보
최일
카울
카샤
카쉬
##mi
##홍색
##내면
대전기
따라하
전차병
598
##angers
719
##ENTS
합성물
Beats
어뢰정
강경학
메트로폴리
소우지
슈타이너
군자금
스테인리스
휴머노이드
메트로폴리탄
Rod
각역
간병
군조
베스타
셰스
양고기
연경
절찬
지게
회골
##sa
##후보
소환권
코스닥
김민석
도심지
가마솥
##자동차
김세정
김소혜
Wolves
RU
수뢰
시라노
우츠
자축
천구
칼리스
##트리아
프리크
중앙군
661
원시인
##augh
신봉자
water
구교사
루세
벚나무
숙희
슈발리에
의족
채현
피언
회안
##효준
고용인
Gradient
바티스트
Knqw
수녀원
blood
슈뢰딩거
파브레가스
Knqweter
Lond
가림
경운
물살
산후
케첩
타지마
##isa
황태자비
Doll
내야
대내
래도
레아나
생판
선처
용담
윤두
케바
프타
##mir
##통치
바르톨
타카코
683
아스트리드
히사코
과격파
Division
Les
Lam
마따나
상책
예요
왜색
츠루미
##bb
##je
##]]
2900
646
정수기
##ocol
러닝백
국회의사당
Person
누라
법력
부루
사론
송가
윤봉
호봉
##폴리오
스타덤
집중포화
##OSE
하마사키
반감기
공로상
광신자
화이팅
Lot
TOM
VE
VERS
각대
거문고
도치
마함
샐비지
수플
외제
차서
차대
페의
이주해
조동찬
계엄군
반공주의
Lat
개똥
시랑
장우
즈리
팅커
파프리카
피켓
호사
##can
##ache
유령선
포트폴리오
지바현
NES
pd
겐타로
도국
도레
무뢰
비발디
상판
이응
전봉
토렌트
##키타
##단위
##네소스
##날락
하나무라
하이테크
에너지탄
김종인
올드팬
포크볼
아르카디아
MANIA
들락날락
노팅엄
호들갑
결벽
굼뜨
이페이
효모
에이코
Common
Commander
카루마
DISC
CRA
RUM
Vs
간석
능청
돌덩이
따돌림
쥐라기
집성
쳐먹
태현
호인
##에스타
1169
김진수
Frank
레네
무극
볼터
선군
술술
정아
카슨
험비
##즈브러
902
741
알파카
미들즈브러
Bank
드란
에워
엥겔
조현우
탄띠
기자단
이정표
반짝거리
열기구
프로비던스
웰터급
에워싸
기무
로잘
버논
변희
불충
에에
우보
이실
정토
처마
쿠몬
폐가
풍류
황사
##vity
전문대
스파다
기념사업
Inn
##illion
##ICA
Alice
FIRE
상업시설
동인도
김준현
쿠스오
이니에스타
조제프
Technology
Dynamix
권정민
궤간
눈초리
수안
열반
운트
중건
지좌동
팔씨름
스토리지
케이이치로
643
유흥업소
도노반
hope
괄목
노나카
어거
어슬
유녀
재블린
체재
초견
팍스
라이자
orange
암흑상
알바트
1818
절단기
무고죄
감리회
베레모
끄집어내
견자
라스크
명당
모창
문창
상보
슈토
왜관
윤시
저당
정나라
홍종
##퀴즈
##십리역
##컨데
806
스파이어
569
오오바
FIP
묘지기
서울특별시장
안내서
도루자
WCDMA
KDA
med
wRC
굼바
분동
비통
악착
음가
젖히
자기소개
559
미스즈
분석가
김대우
헤르타
육상자위대
무성의
뭉개지
걸레짝
고세이저
Nin
Tree
Vel
kcal
더샵
삼공사
제전
집들이
##ERATION
8500
리카코
손목시계
Lightning
미티어
SouL
가아라
격벽
봉구
삼신
수칙
술가
쌍성
영계
입도
재패
지신
팔렘
화비
##행동
자신만만
공중부양
베이퍼
토벌대
신동원
Honor
엘렉트라
팔렘방
Nam
Past
데쓰
러블
못가
선셋
성석
손정
요드
탯의
회춘
##100
농구장
김현욱
다카시
PRIDE
수양대군
매몰차
배영섭
다쿠
맹비
무오
백현
설현
쉐리
치하라
카티
킹크
##세코
##조프
##전용차
버스전용차
기타큐슈
도로로
744
Marc
버스전용차로
JG
Jes
ok
귀공
단대
두쿠
마메
못되
불펍
시약
유준
쿠루스
펑위
후불
##래드
549
Shock
우울하
스기야마
덜컥
무휼
반등
장건
카톨릭
호킨스
##ford
##긴스
##alt
계획서
846
로스트사가
수소문
옥타비아누스
동교동
렌터
뱃살
비마니
빠빠
장연
켄드릭
##AI
교육법
##asion
061
##rix
모터사이클
렌터카
king
다사
대급
레키
아그리
조관
짐머
청력
퇴소
포치
##차곡
907
수행평가
마무리짓
654
용병대
에니그마
차곡차곡
고딩
노환
동격
민스크
불똥
숙취
시냅
정여
젠트
탁상
토포
프랙
흥망
##aru
대원수
김정수
김승준
가야금
TOT
VHS
ta
강고
끄떡
생장
서위
장약
쫒아가
##승차
##허가
요시히코
사령탑
에르빈
단정지
Guardian
척후병
Rare
ᆫ걸
도룡
말엽
비신
정광
중미
켈빈
##리스모
076
웨이터
rep
##izer
이수영
1853
Scott
로보캅
Carl
브란도
BanG
뇌졸중
계림
난류
동업자
서편
슌지
열창
자와
종잇
찜찜
최첨
##200
프로젝
바이런
참가국
예정일
사업비
보물섬
김성대
해양경찰
무용수
테레지아
맞대응
KKK
조봉암
최첨단
Lum
Pap
sim
ㄹ래
악센트
오지마
청백
후사르
힘줄
##카제
##데바
##대주의
아르세우스
라디오스타
플로렌스
니코스
##quest
Program
ᆫ단다
접두어
키케로
Family
Raw
kors
개신
나투
비게
성야
손도끼
얄밉
우중
자빠지
플러드
혈맹
환석
##elle
알렉산드로
##gress
방화벽
세속주의
격동
괴산군
남지
미간
선계
스켓
안데스
월야
인주
작법
장땡
재인
##로즈
##자랑
##포도
플래티나
587
탑승객
창조물
이자나기
아르메니아인
##무스메
모닝구무스메
보보보
#====
시냅스
.'
Ocean
kiss
게라
녹두
족히
초한
한명
헤럴드
히마리
##서양
##itude
상위권
067
985
레오폴드
음성군
간부급
김진표
대행자
결혼식장
김승수
Imper
Silent
보헤미안
크레용팝
낙인찍히
어셈블리
우츠노미야
비눗
화각
##ban
##엽수
파이썬
살인귀
클로제
원자재
모모이
신시가지
에헤헤
군바리
류사
변비
상나라
타킨
특임
피소
험준
##공히
557
미드나잇
미나스
금속제
1855
브로켄
Switch
솔라리스
서커스단
다그온
브리스톨
BTS
HV
son
tem
교국
군민
동파
땅값
삼정
장공
측실
황남
##med
##풍기
##카노
##카쿠
##델릭
##볼그
STEP
문학가
그래픽스
GNU
against
지네딘
CERO
non
목마르
묵향
배부르
벌기
변색
소성
슬금
##르담
노트르담
돌파구
이자와
경사지
사타케
맹비난
JF
Pot
근엄
무연
아명
용의
죄질
토피
##DA
##레시아
생산지
##anda
##RAINS
후지마루
천하통일
대동강
프론탈
사이키델릭
윤길현
CK
Od
고삐
맹점
알자스
작풍
채워지
촉각
크란
##인상
##사슴
우리은행
579
Hex
기후현
김윤아
정찬헌
펑위샹
SAC
극의
날라리
비셔스
잠드
쪽수
초가
티크
펄서
플러
헛간
호서
##set
##aya
903
스키피오
카타기리
프라이데이
광선검
HGUC
Atl
Check
Midnight
CAS
곤륜
랜돌프
면책
미보
석면
성결
오테
완급
울러
자단
지드래곤
촌극
홍역
황상
##하운드
스트렐
572
614
트라이던트
위안거리
대치동
아리아드
명실공히
글래스고
홍시영
북대서양
bpick
각부
구혼
귀퉁이
규장각
라선
라비아
막하
비루
슈스케
인빈
##디스트
##aris
##ades
##chi
아카마츠
소유물
김진욱
##ption
apick
창녕군
반유대주의
길다랗
살갑
잔머리
지혈
짓누르
충치
히무라
##nant
##vate
조선공산당
문화제
이치조
629
785
헤이케
우라노스
어스름
그리스도인
additem
승합차
BMP
Dok
레위
발식
##니우스
##징계
디아츠
드레싱
오바메
성형외과
살바토레
Gang
녹지
불붙
서천군
신품
영물
테이트
##달로스
게임스
이사무
트레이딩
경고문
##izz
##브레히트
WT
겔리
도브
본처
살충제
양형
절치
중턱
##호르
##그너
##무적
1550
기사회
##andom
USUM
김정남
관측소
키미오
이카로스
구자철
Hope
난로
도관
미천
속절
쌍대
외손
입궁
함안군
힐리스
이상향
아키텐
539
유키히로
1168
우타우
토착민
미타마
Triple
박형석
COLLECTION
프로젝터
신묘
악천후
야누스
용구
최기
특목
상대역
754
오토마타
이집트인
HDR
마테리
GOTY
애슬론
===#
#===
Pent
마투
번치
보탄
볼모
용매
주근
지론
충의
태인
팜플
후베이
휠베이스
##니크
##소매
##팔리
개발비
요구치
##aku
돌파력
722
Ancient
아아아
일순간
유색인
알타이르
Wil
가론
굉음
넬리
매초
메텔
문상
미고
업화
코다이
하염
##세이드
##관광
##헤더
레이니
##igo
회전수
만족감
카츠유키
코바치
German
GW
Lion
hero
당권
동류
수근
임피
증평
청평
혼슈
##수트
##ERA
##agle
가요대전
배포판
고질병
Charl
mo
가임
기산
발차
복건
요식
윤수
캐노
코가
##서주
##폰네소스
사회부
다이달로스
출구조사
Blues
영장류
펠로폰네소스
퀴지터
Egg
word
강명
단전
잠꼬
천박
청교도
키쇼
타산
지하드
미리미리
트위스트
태평천국
호위병
코코네
김진성
##uka
영통구
Business
와사비
잠꼬대
TKO
VRAINS
거수
김가을
송탄
알베
자양
철가면
##노메
##클레인
##터널
이동진
시스티나
##omi
stage
가정사
578
오오하라
924
천하무적
미네기시
이글루스
##epp
분산도
프레데릭
Melody
의성어
남경필
Hop
cool
귀추
신시아
야행성
자무
정창
카심
베이브
양성애자
이력서
Squad
도사리
무근
신강
왈도
전립
토모리
하현
행량
##jin
상당구
어찌하
마사카
공교육
라일락
교익
랭커
숨쉬
월석
정욱
평년
홍무
흉하
더블헤더
오오카미
노부오
##include
Electric
WAVE
Wide
map
리저드
만달
안량
직교
키다
타결
##오제
##엔진
1020
대회전
세이나
스피치
농담삼
기울기
차선책
래이
만경
미싱
바자
보아하
상평
식비
식한
어려워하
전모
##기미야
아니꼽
파이낸
3400
1789
스로틀
보아하니
Hands
결빙
방부
부침
송대
예과
자필
제회
창신
코조
쿠기미야
판가
##그머니
##ication
철도청
5100
928
leg
##시장역
하이파이브
DAC
드넓
료의
리들
미동
붙들리
실버스
오용
차폐
카프리
##UI
##전도
##백서
644
574
Thin
MAXIM
몽골어
김재박
##메이슨
고분자
DAYS
Peter
변주곡
생동
석환
송진
악조건
양아들
에가
오므
요상
의체
페레이라
##her
##청정
813
823
청년단
는다면서
이누이
##engers
Help
추미애
pH
pain
겉옷
다람
성빈
완곡
절지
퀄리
통가
풀라
풀밭
황영
##프도
##불암
##불퉁
##퉁불퉁
엘리먼트
언어학자
497
632
유전체
윌리안
김지훈
Duo
자스민
디스토션
KMS
거취
신물
아쳐
양양군
오우치
옥천군
와리
울퉁불퉁
의롭
##IES
##토바
##asa
996
소총탄
지난주
탈영병
김양
라샤
메어리
바칼
밤샘
빌빌
산더미
아두
아그라
##Id
##남북
##소울
##무대
##타가와
##stone
클라리스
단장포
아쿠타가와
거리낌없이
최용수
매버릭
노른자
김좌진
가십
관개
광채
끼어드
리수
마오리
벨카
우모
원외
조림
초전자
치만
펄펄
하메
##inem
여성부
남성혐오
776
829
동서남북
유유코
곤살로
Pz
급등
뒷바라지
슐츠
시다
옷깃
유계
철골
##입국
Store
오버랩
582
스탠더
메모장
독설가
고창군
삼프도
철봉
##종기
##뮤지스
오리건
조직폭력
561
921
70000
나인뮤지스
DMZ
스콜라
##iety
데자뷰
삼프도리아
조직폭력배
happy
걷히
공복
구관
뒷조사
무하마드
성구
와코
와플
차사
체불
태성
툴루즈
##Ch
프로테
##iga
아르케
##irt
교환소
##ICAL
플라이스
미니스커트
구봉
무크
십계
싱커
입감
켄스케
통도사
헬리오
##슬롯
812
관측자
포츠머스
##첼로티
구창모
"&
Qi
VGA
돤치
로잔
비언
안첼로티
존스턴
징기스
특등
홀스
##iper
하이델
584
이마루
캐시비
돤치루이
Ay
Sd
tonight
광릉
남불
덧없
떠내
쥐약
탄발
태위
혼담
##야르
##통제
##alis
메이어
케이오
1857
Matt
곽사
박초롱
수부
순무
와이트
창부
##개명
066
그라함
젤리빈
수작업
tele
전유물
브리즈번
가책
견문
기현
란슬롯
상학
아멘
작은
전월
##쿠치
세트리스트
638
유배지
소인배
라데온
Temp
friends
곤살레스
도드라지
각급
날기
남제
맛깔
무라이
봉변
신탄
옐친
탐라
피델
필패
##사이트
로마노프
교통안전
성인식
Tears
오카무라
명사수
스타트업
Slow
면도기
인제군
역수입
프레젠테이션
관외
꽁치
디바이
부총장
우토
장평
지국
최무
카버
홍채
##수도
##무역
부여잡
페이튼
641
편집기
순환고
드레스덴
블로커
마쓰이
페니키아
고온저
영걸전
아칸소
에스메랄
Might
Must
게이드
뒷걸음
순국
영접
잎사
찻잔
천군
##ls
##베를린
정치부
진출권
교수진
타이틀전
광고판
914
836
이재영
이영표
포장지
통영시
잎사귀
녹말
두둑
딩고
병리
에런
충선
코알라
황신
##gas
##천만
##오가
##빌레
##레이스
스타게이트
스피어스
##una
MPEG
화물칸
구마모토현
London
hal
꼴통
동덕
비컨
샹크스
재하
탁발
티렉스
폐광
포서
##cript
##한시
조종자
예산안
폴리머
부재중
발레리나
##clips
생식기
분식집
전상욱
이휘재
창씨개명
wonder
고퀄
곽회
몽테
문지
신익
종적
카브레
콘래드
흠잡
##콥스키
기준점
오버홀
Through
모모타
Sund
Crim
브래지어
피어슨
Fighter
Republic
일변도
디오니소스
Zh
라베
로베
모퉁이
물통
브락
쉬크
염수
케시
형독
##감사
##하탄
이상형
에이린
그라시아
표준궤
슬라이스
반역죄
넉넉히
갈라놓
코요테
Died
디미트리
Mann
Rush
곱창
관선
김필
남유럽
납골
몰표
스자키
아렌
육근
폐비
##무야
##네오
##aria
세이이치
##ires
753
윈도우즈
1851
문하생
기저귀
유야무야
Shining
꺼림칙
Mic
sn
당인
방편
성주군
실레
에일
영격
종잡
중창
##마고
##점정
1450
##라이저
발생기
장난삼
자살행위
카트먼
승자승
우치야마
평상복
경인고속도로
화룡점정
사간원
나도
나당
막다르
모야
무종
어문
잡식
포심
향료
558
해군기지
##rif
오오쿠
단일팀
심판자
파수병
정중히
치요다
입헌군주제
아탈란타
암모니아
조일장
동분서주
김회
끌기
디퍼
연공
장양
조루
쨩의
칠색
학구
##비시
##가로
##달록
이치코
스티비
후쿠치
리버설
822
정은창
카리브해
장렬히
배설물
알록달록
동축
밀교
북반구
시파
오발
윤대
058
진보당
ISIL
##berry
1846
박진만
##yeong
기마병
크라우저
Warrior
급우
기철
멜빈
손민
오점
조속
##AST
##광성
756
드라이어
크리스티앙
Knock
사오정
Ner
Vision
dem
알브레히트
질산
치나미
투심
##처녀
탈출구
6600
Spr
테이저
912
전격전
윤리학
##ancer
Nights
루퍼트
##경비대
Aqu
WAY
눈가
리회
멸족
발굽
앞바퀴
이디스
인센
진땀
추도
쿼리
포보스
학성
##met
하이디
데이나
눈물겹
정지훈
##ENS
토리야마
833
이지현
김진태
enemies
조교수
혼잡도
아카바네
Gi
맞상대
서니
아물
아둔
엘빈
징베
헤프
##시어
##야행
##깃거리
##리아누스
방어율
야마나시
케이힐
스케이프
백지영
Place
PICK
eSports
gotta
굴드
꿰매
나니아
덕흥
빌스
완간
워윅
위령
장현우
지애
##주정
##아차
##데오
1810
나가오카
##itary
ins
Franc
홍대입구역
보노보노
bgm
하염없이
ce
성일
송인
수돗
안평
오렐
투리스모
홍제
훈제
인형사
라스칼
성조기
컬투쇼
AES
눈썰
암반
운정
진두
하승
사기업
대응책
군수품
김형석
성범죄자
Invit
EOS
괴사
얼빠지
오츠키
임채
재구
총관
최석
키자키
테즈카
##흐르
아르키
요리법
예술품
##pse
채찍질
RRR
봉화군
반트
별일
비합
상추
염전
우락부
쳐부수
퍼렇
혼례
##vet
##출혈
##처제
하이페리온
항공우주
방해물
688
이태준
우락부락
노발
락과
부일
흥업
##DE
##구요
병원장
눈물나
중계방송
나루세
개체군
자금력
하사관
1814
가나안
조병옥
키르케
개차
금마
누각
멀찍
쇼마
알피
조산
최불암
##yong
##정책
##연수
##펙스
기관장
592
트위스
여지껏
##ource
오이겐
생태계
이청용
아르키메데스
러지
부안군
선무
쿨리
##esis
States
##peror
789
해안경비대
아타고
넘쳐흐르
인덕원
번뜩이
Cel
Self
cv
낙향
뒷공
모타
비산
유요
자벨
줄넘기
철철
##NE
##스름
##인형
##무비
베르톨
지옥도
타락천사
오쿠보
Without
여중생
##천자문
tar
담양군
말로
번방
에시
지한
캔터
한국학
브라만
알파인
이시가미
김지용
eMMC
Happ
PU
부귀
에잇
##따리
START
혼란기
박근태
Form
고흥군
Burning
Won
gg
구직
모즈
벨파
비소
전순
정두
포백
##간당
##댄스
사망률
변경백
불가결
근무복
간당간당
벨파스트
경애
단강
맥퀸
법왕
심소
안간
자강
조노
쫄쫄
통닭
##스킹
##부동
##태스킹
##슬금
가슴살
멀티태스킹
##ellite
호스텔
FLY
베른하르트
girls
대덕구
키보디스트
걸핏
곡성군
구곡
민항
석식
석대
성금
전관
줄다리
크린
퍼먹
##망이
추가점
올라운드
다이시
국제기구
대비책
조성환
헤이그
리얼미터
필리포스
콜로라도
1849
피카소
Standard
leave
면죄부
근근히
뭉뚱그리
에스메랄다
객사
삼연
서도
엇나가
옹정제
쟁패
효우
##아드
##눈썹
플레이메이커
057
운전대
모음곡
Surprise
슬금슬금
VL
맞불
평방
호베르투
##Me
##가역
##PO
요한나
데미우르
페인팅
index
인즉슨
대자보
데미우르고스
ef
ni
nn
갈고
금장
네피
드높
디파
러서
바램
밴더
보따리
술주정
신숙
신제
유려
한대
나가시마
김성식
가시나무
시마다
정읍시
MILLION
mark
나나카
법학자
요들
페디
휘트
##ply
내리꽂
자면서
놀이공원
성수기
오시노
페데리코
따끈따
두억
반조
백국
북적
성묘
영선
우다
지이
추밀
페론
중반기
범죄인
593
장식물
838
INS
하리마
수레바퀴
옥스포드
식용유
장희빈
맥마흔
Yam
unt
가불
강토
도코로
우란
우량
원념
전회
킬로그램
토후
투리
##태호
##랑크
##롤라
민첩성
이순재
정재훈
산청군
##rength
Nice
국책
신출
원비
유덕
##bar
##다닥
##애애
##icy
9900
Spider
DDDD
오송역
불순물
beautiful
에즈라
그중
람세스
상우
율령
젠슨
중압
진종
핸슨
##tz
##플라
908
##rier
엔터테이너
이복형
나가사키현
신봉선
KAIST
REC
full
벽력
비제
점박이
지타
캠코더
파키
폴린
풀로
##비등
엔젤스
지붕돌
자민련
Strong
Killer
crazy
ㅎㅎ
가터
개운
더가
바쇼
시귀
에레나
원부
##mann
다이아나
스포어
탈출기
594
마츠노
816
이대휘
스칸다르
비등비등
Sony
human
lim
걀라르
관등
눈사태
다래
도슨
문영
예대
오귀
오소리
저프
현물
##No
##켄지
장기하
오오니시
631
사쿠라기
야스유키
그란돈
Central
skip
Works
아아아아아
Abs
Mike
다츠
벤슨
시거
연병
영왕
용원
인임
콜벳
화서
아이큐
지도층
inside
공사관
공장장
mean
821
헤이즐
역명판
build
완산구
<-
루실
바토
통설
##니오
##기간
##레도
##먹거리
##리아키
스테드
##avor
Journey
Sla
Sie
거소
대어
미명
방책
보현
상생
염분
울상
##och
##로틴
아리타
방사기
고시원
시모다
Mii
board
헬레네
경작지
가전제품
신도림역
Rag
갈팡
공융
과수원
근연
담판
신채
오룡
제넥스
즈베즈
최심부
해초
##겐슈타인
078
육군훈련
비트겐슈타인
NPU
coming
절망감
김태영
집행부
Ent
##EEE
백혈구
홍지원
호빵맨
육군훈련소
Vamp
ng
바글
어순
종기
헝거
현리
##lit
슈퍼컴퓨터
대기근
663
716
Finals
의기양양
신노열
안간힘
내진
노나
리큐
보즈
정처
##cast
##튀르크
선수촌
기준치
중심축
권력욕
864
자작극
하태경
보디빌더
최루탄
hsm
vi
군영
목전
승시
싫증
인전
혜진
##개구리
##코끼리
##노헤
인물상
##ilog
678
김민정
NEVER
##IKO
당첨자
시금치
줄다리기
Jos
Pure
gone
귀염
노천
농공
단양군
데루
레우
린터
민방
바싹
배임
외파
이심
타드
##SI
##민철
##미문
##속결
위험천만
파티션
대형차
FIBA
말라리아
NF
갤리온
내보
미기
얕잡
울창
이락
피피
허슬
흥얼거리
##조끼
과학관
773
866
프렌지
수목원
피시방
비행대대
버츄얼
맥과이어
속전속결
Kakao
덧씌우
염의
울레
일도
제온
크룩스
틸라
해성
##inae
589
##eeper
아트워크
크라우스
김경언
중고생
1795
최원태
왈라키아
tu
개색
나레이터
드나드
재목
정배
큰형
##구레
보호관
##ERE
특정인
사격전
전대미문
스와프
슈테른
호치민
조무래기
가극단
특목고
따끈따끈
pix
xp
관영
슬그머니
전왕
쪽팔리
추자
캐로
켄시
탈로
이루마
스페어
##anged
Before
##izon
불량품
극악무도
정진영
거창군
변변찮
김헌곤
YMCA
걀라르호른
DAM
메레
미금
변천사
비구니
속눈썹
영대
이차원
##나이트
라이치
졸업장
##uten
Robert
박진감
##거래소
Flying
Challenge
Total
Care
aw
난색
눈싸움
밀치기
범법
보광
빈볼
심동
악담
종별
트레스
##표지
지하상가
064
917
시마네
##USE
진도군
Resolver
공양왕
Knights
리하
병진
에투
여로
접사
해구
##농사
이영하
박종윤
굴러오
영동선
베니토
깜빡하
대소동
##clipse
Bt
Cannon
FHD
Nation
TIT
money
단공
도리아
류타
분청
중핵
착역
찬조
투투
특구
허창
힐더
##res
##디디
##엔젤레스
##inary
##ened
방어벽
inv
케이토
드리머
로스엔젤레스
관광업
이와이
##터스쿨
애프터스쿨
조세호
조원우
예식장
집성촌
즈베즈다
Clo
Kam
Kry
RIS
벤스
의화
주눅
준급
##마개
##총각
##이지마
065
대공전
849
아우성
에르메스
Twin
빙하기
푸이그
경각심
BV
CX
CORE
GAR
곱씹
수르트
언약
원진
이뭐
책무
##크롬
##뚜껑
##날쑥
##쑥날쑥
마츠다이라
627
카르네
832
야스코
헬싱키
우후후
다프네
보은군
인센티브
두억시니
이뭐병
PON
ca
과신
우분투
임오
팔코
푸리
화방
##Dance
##부담
##불출
##록대부
1060
기술사
##sters
프리먼
아마게
야마무라
아웃랜드
견제력
742
무라세
##타이거
prot
MN
cut
city
갑과
봐주
서간
선창
신당
위메이드
족적
쥬피
쥬베이
흠뻑
##부러지
##파고스
##펀츠
스타이너
엘리펀츠
카이다
에스티
야스노리
히메노
중구경
매너리즘
무형문화재
Visual
네피림
CRE
each
덕소
라케
멸살
방구석
색도
성층
스왈
알뜰
야매
의연
지열
화설
마르텔
결승점
##osition
774
916
고학력
임병욱
스왈로우
},
난공
덮히
멀뚱
본위
빼곡
서풍
스킴
엄태
오봉
오박사
조훈
착잡
편협
##rica
##유정
##그로스
진화론
STORY
662
##ORS
아크릴
모래바람
##ADE
asia
이아손
화승총
송영길
백귀야행
총책임자
호찌민
RV
가랑
광우병
들쑥날쑥
세렌
어식
위작
주옥
처가
킥복싱
토러스
팔방
##피나
904
페르세포
마주하
스틸러
말레이어
이윤석
화기애애
지석훈
비씨카드
MANIAC
페르세포네
%+
Sem
bro
격정
되물
롤프
멸문
인버터
자중
지트
진룡
짜깁
퍼거스
##두기
##너무
라이츠
마사하루
아사코
니시카와
698
1852
1854
탐사대
김승회
박세혁
석회암
Department
follow
관인
래핑
리밋
몰려
민권
생이
얼차
운서
종실
직공
콩가루
페소
##py
##바이스
##보쿠
위험부담
##urch
three
##utnant
시리아군
세자빈
제련소
반나절
얼차려
Est
MZ
반승
보일
새내기
에데
주태
짱박히
카불
토베
##예보
##버너
##절도사
너무너무
이기영
로드니
591
597
스타트렉
교보문고
메흐메트
Ai
Eric
Witch
kind
광맥
괴테
구데
급류
능수
니쿠
디엔
숙식
액화
여순
전비
턱수염
화시
##야누스
지역민
##owing
##uta
스파링
에드먼
김태희
타란티노
로렐라이
Graphics
FIGHT
구데리안
Bun
맞장구
미영
슈헤이
에모
이고
정론
진담
쾌도
포키
혓바닥
전용준
858
771
633
676
메가폰
시마바라
UCC
전교조
바운티
강혁
내의
다쓰
더스티
두류
망막
엘베
여드름
콧구멍
콰이어
통채
##콘다
1680
중앙아메리카
##oda
트라야누스
##LCS
아스트로
유메코
사교계
산전수전
Broken
오투잼
갤로
대업
란전
배서
삼익
석주
알반
채경
코르크
큰아버지
허목
화타
##코모
##더릭
로리타
키타노
bring
약소국
노점상
fact
검붉
근린
능률
매탄
신코
신미
진천군
친서
캉테
파렴
수도승
판정패
863
이재훈
##ADY
쾌속선
Officer
파렴치
Kir
lie
교범
남명
배격
변사
장형
호선
##이와
##유철도
##슬레이
072
inch
광고주
##ells
상실감
천안문
..?"
김선우
실무자
에치젠
일본국유철도
dl
매핑
손절
슈나
시클
주필
콥트
##가죽
ㄴ다든가
081
아시모프
타마시
이타노
##bove
such
츠보미
CAM
계율
공청
괘불
권성
꼬임
덕산
뒷자리
멜티
무중력
미레
방광
심청
애물
촐라
페넥
##Sh
##아트
##녕대군
##차일드
사용료
보물찾기
사토코
감시관
ㄹ려는
##케이노
스니커
유례없
아커만
종잇장
Mu
격군
높낮
다간
두기
러츠
소상
승락
야광
##apt
Alpha
터치스크린
예비대
마키아
동북아시아
리플렉터
발상지
로메오
PUC
논현
스텍
에펠
자보
파행
##켄트
##Hack
##Go
알렉사
마키시마
카미나
아즈나
제물포
해남군
LBX
강윤구
Rolster
아마게돈
fre
가압
건도
까대
닛맨
대분
두툼
세노
세면
외조부
코웃음
투우
항간
##nes
##지상
##가사키
##강식
##텐스
카르노
로그아웃
김용만
아이디얼
그랜버드
배기가스
Disco
전과자
strong
늘어뜨리
Whe
거저
건슬
급량
등락
마산시
봅슬레이
술통
스닉
오윤
적격
코나
태형
##ansp
초등학교
4400
박사모
구석기
1856
농민군
켄지로
대관령
속절없이
린저
베젤
볼케이노
삼단
상운
시놉
야습
여비
옥포
울진군
일레
케나
케트
화관
##라이징
나가타
기사도
732
ACP
사자성어
의료인
번쩍이
조이스틱
코르넬리우스
위약금
산이
[...]
