[PAD]	0
[UNK]	0
[BOS]	0
[EOS]	0
[CLS]	0
[SEP]	0
[MASK]	0
▁▃	-0
▁이	-1
▁하	-2
▁.	-3
▁에	-4
▁다	-5
▁의	-6
▁는	-7
▁ᆫ	-8
▁,	-9
▁을	-10
▁은	-11
▁가	-12
▁1	-13
▁으	-14
▁고	-15
▁되	-16
▁아	-17
▁를	-18
▁었	-19
▁지	-20
▁년	-21
▁로	-22
▁으로	-23
▁에서	-24
▁2	-25
▁있	-26
▁어	-27
▁대	-28
▁았	-29
▁기	-30
▁사	-31
▁그	-32
▁도	-33
▁시	-34
▁일	-35
▁과	-36
▁ᆫ다	-37
▁들	-38
▁수	-39
▁전	-40
▁적	-41
▁여	-42
▁자	-43
▁와	-44
▁20	-45
▁부	-46
▁월	-47
▁주	-48
▁제	-49
▁19	-50
▁라	-51
▁ᆯ	-52
▁정	-53
▁보	-54
▁중	-55
▁위	-56
▁인	-57
▁였	-58
▁나	-59
▁공	-60
▁세	-61
▁경	-62
▁것	-63
▁게	-64
▁개	-65
▁오	-66
▁유	-67
▁3	-68
▁"	-69
▁조	-70
▁등	-71
▁스	-72
▁선	-73
▁마	-74
▁성	-75
▁만	-76
▁미	-77
▁동	-78
▁연	-79
▁상	-80
▁서	-81
▁소	-82
▁한	-83
▁모	-84
▁V	-85
▁비	-86
▁구	-87
▁영	-88
▁국	-89
▁발	-90
▁면	-91
▁며	-92
▁으며	-93
▁201	-94
▁'	-95
▁4	-96
▁후	-97
▁관	-98
▁명	-99
▁신	-100
▁프	-101
▁5	-102
▁때	-103
▁200	-104
▁장	-105
▁던	-106
▁-	-107
▁거	-108
▁방	-109
▁바	-110
▁교	-111
▁리	-112
▁해	-113
▁문	-114
▁내	-115
▁역	-116
▁차	-117
▁당	-118
▁우	-119
▁무	-120
▁원	-121
▁통	-122
▁계	-123
▁현	-124
▁남	-125
▁노	-126
▁군	-127
▁포	-128
▁분	-129
▁6	-130
▁또	-131
▁화	-132
▁않	-133
▁까	-134
▁학	-135
▁생	-136
▁까지	-137
▁같	-138
▁작	-139
▁결	-140
▁강	-141
▁에게	-142
▁출	-143
▁파	-144
▁대하	-145
▁받	-146
▁진	-147
▁크	-148
▁단	-149
▁7	-150
▁번	-151
▁최	-152
▁반	-153
▁불	-154
▁10	-155
▁8	-156
▁알	-157
▁데	-158
▁위하	-159
▁두	-160
▁호	-161
▁회	-162
▁지만	-163
▁안	-164
▁배	-165
▁카	-166
▁실	-167
▁형	-168
▁초	-169
▁말	-170
▁따	-171
▁예	-172
▁재	-173
▁부터	-174
▁없	-175
▁타	-176
▁사용	-177
▁9	-178
▁미국	-179
▁음	-180
▁라고	-181
▁종	-182
▁요	-183
▁이후	-184
▁라는	-185
▁함	-186
▁설	-187
▁특	-188
▁면서	-189
▁일본	-190
▁는데	-191
▁코	-192
▁레	-193
▁산	-194
▁운	-195
▁권	-196
▁감	-197
▁더	-198
▁독	-199
▁활	-200
▁추	-201
▁행	-202
▁베	-203
▁왕	-204
▁처	-205
▁피	-206
민국	-207
▁김	-208
▁지역	-209
▁양	-210
▁으나	-211
▁매	-212
▁대한	-213
▁199	-214
▁다음	-215
▁그리	-216
▁민	-217
▁평	-218
▁태	-219
▁많	-220
▁건	-221
▁입	-222
▁12	-223
▁따르	-224
▁간	-225
▁참	-226
▁대한민국	-227
▁18	-228
▁및	-229
▁경기	-230
▁승	-231
▁다고	-232
▁가지	-233
▁열	-234
▁목	-235
▁드	-236
▁다른	-237
▁대학	-238
▁;	-239
▁의하	-240
리아	-241
00	-242
▁프로	-243
▁총	-244
▁속	-245
▁M	-246
스트	-247
▁북	-248
▁야	-249
▁S	-250
or	-251
▁집	-252
▁때문	-253
▁법	-254
▁11	-255
▁시작	-256
▁트	-257
▁물	-258
▁외	-259
▁체	-260
▁각	-261
▁시키	-262
▁달	-263
▁변	-264
▁천	-265
▁메	-266
▁직	-267
▁임	-268
▁표	-269
▁올	-270
▁ᄆ	-271
▁그러	-272
▁토	-273
▁사람	-274
▁본	-275
▁&	-276
▁점	-277
▁저	-278
▁쓰	-279
▁함께	-280
▁또한	-281
▁A	-282
▁아서	-283
어지	-284
▁박	-285
▁팀	-286
어나	-287
▁치	-288
▁투	-289
▁한국	-290
▁청	-291
▁선수	-292
▁항	-293
▁브	-294
▁사이	-295
▁세계	-296
▁)	-297
▁영화	-298
▁버	-299
▁자신	-300
▁새	-301
▁광	-302
▁약	-303
la	-304
▁C	-305
▁디	-306
▁경우	-307
▁통하	-308
▁네	-309
▁용	-310
▁판	-311
▁루	-312
▁f	-313
▁기록	-314
▁T	-315
▁축	-316
▁F	-317
▁현재	-318
▁복	-319
▁아니	-320
▁하나	-321
▁I	-322
▁국가	-323
시아	-324
▁존	-325
▁이름	-326
▁198	-327
▁다는	-328
▁편	-329
▁당시	-330
▁확	-331
▁가장	-332
▁삼	-333
▁위치	-334
▁_	-335
▁보이	-336
▁활동	-337
▁조선	-338
▁학교	-339
▁뒤	-340
▁이나	-341
▁철	-342
▁만들	-343
주의	-344
▁그러나	-345
▁리그	-346
▁필	-347
▁15	-348
▁(	-349
▁살	-350
▁금	-351
▁페	-352
▁증	-353
▁for	-354
▁합	-355
▁째	-356
mu	-357
▁플	-358
▁백	-359
▁테	-360
▁심	-361
▁창	-362
▁언	-363
▁애	-364
mula	-365
▁formula	-366
▁식	-367
▁16	-368
▁못	-369
▁대표	-370
레이	-371
▁병	-372
▁연구	-373
▁근	-374
▁또는	-375
▁프랑	-376
부터	-377
▁니	-378
▁그리고	-379
▁/	-380
▁황	-381
▁사회	-382
▁돌	-383
▁규	-384
▁m	-385
▁0	-386
▁D	-387
▁충	-388
▁17	-389
▁시즌	-390
▁어서	-391
▁패	-392
▁]	-393
▁첫	-394
▁순	-395
▁[	-396
▁197	-397
▁B	-398
▁보다	-399
▁러	-400
▁이루	-401
▁완	-402
▁다시	-403
▁히	-404
▁못하	-405
랜드	-406
▁높	-407
▁중국	-408
▁협	-409
▁알리	-410
▁길	-411
▁서울	-412
▁클	-413
▁정부	-414
▁프랑스	-415
▁채	-416
▁영국	-417
학교	-418
▁K	-419
▁시대	-420
▁:	-421
▁는다	-422
▁키	-423
▁도시	-424
▁포함	-425
▁k	-426
▁여러	-427
▁뜻	-428
▁196	-429
▁전쟁	-430
▁14	-431
▁아이	-432
▁독일	-433
▁다가	-434
▁로서	-435
▁죽	-436
er	-437
▁문화	-438
▁대회	-439
▁~	-440
▁g	-441
▁취	-442
▁13	-443
▁배우	-444
▁축구	-445
▁허	-446
▁모두	-447
▁가능	-448
▁위원	-449
▁별	-450
▁P	-451
▁동안	-452
▁뉴	-453
▁모든	-454
in	-455
▁이상	-456
▁친	-457
▁손	-458
▁곡	-459
▁감독	-460
▁정치	-461
▁환	-462
▁194	-463
▁일부	-464
▁문제	-465
▁l	-466
▁방송	-467
▁석	-468
▁처음	-469
▁대학교	-470
▁개발	-471
▁L	-472
▁지방	-473
▁제작	-474
▁%	-475
▁구성	-476
▁검	-477
▁캐	-478
▁인하	-479
▁국제	-480
▁농	-481
▁사건	-482
▁터	-483
라이	-484
▁골	-485
▁끝	-486
▁세기	-487
▁논	-488
▁시간	-489
▁씨	-490
▁이용	-491
▁일반	-492
▁부르	-493
▁존재	-494
▁향	-495
▁작품	-496
▁G	-497
▁날	-498
▁N	-499
▁밀	-500
▁게임	-501
▁정도	-502
▁운동	-503
▁폭	-504
▁주장	-505
▁티	-506
▁쿠	-507
▁급	-508
▁역사	-509
▁gt	-510
▁나오	-511
▁관계	-512
▁곳	-513
▁앞	-514
▁즉	-515
▁려	-516
▁섬	-517
니아	-518
▁인구	-519
▁교육	-520
▁음악	-521
▁효	-522
on	-523
▁195	-524
▁km	-525
▁거나	-526
▁접	-527
▁나타	-528
▁중심	-529
▁이러	-530
▁lt	-531
▁육	-532
▁맡	-533
리스	-534
▁U	-535
▁극	-536
▁귀	-537
▁맞	-538
▁30	-539
▁절	-540
▁R	-541
▁경제	-542
▁선거	-543
▁블	-544
부분	-545
통령	-546
▁발견	-547
▁민주	-548
▁전투	-549
▁담	-550
▁누	-551
▁H	-552
▁도록	-553
▁봉	-554
▁발표	-555
화국	-556
▁갖	-557
▁측	-558
▁홍	-559
▁글	-560
▁E	-561
▁기술	-562
▁슈	-563
▁막	-564
▁올림	-565
▁암	-566
▁아들	-567
이스	-568
▁책	-569
▁케	-570
▁우승	-571
▁로부터	-572
▁공격	-573
▁엔	-574
▁2010	-575
▁들어	-576
▁대통령	-577
▁ㄴ	-578
▁대부분	-579
▁잘	-580
▁영향	-581
▁걸	-582
▁사망	-583
▁올림픽	-584
an	-585
▁결과	-586
▁질	-587
▁헤	-588
▁밝	-589
▁여기	-590
000	-591
▁열리	-592
▁새롭	-593
▁불리	-594
▁송	-595
▁라이	-596
▁지원	-597
▁앨	-598
▁프로그	-599
리카	-600
▁과정	-601
▁잡	-602
▁193	-603
▁발생	-604
▁의미	-605
▁머	-606
▁참여	-607
▁관련	-608
▁중앙	-609
▁유럽	-610
▁업	-611
▁진행	-612
▁최초	-613
▁c	-614
▁얻	-615
란드	-616
▁범	-617
▁준	-618
20	-619
▁25	-620
▁부분	-621
지만	-622
▁고등	-623
▁특히	-624
▁독립	-625
▁자유	-626
▁제국	-627
▁결정	-628
▁태어나	-629
▁구조	-630
▁세우	-631
▁다양	-632
▁설립	-633
▁팔	-634
▁당하	-635
버지	-636
▁ᆫ다는	-637
▁설치	-638
▁속하	-639
▁상태	-640
나라	-641
▁폐	-642
▁형태	-643
▁발매	-644
▁악	-645
▁초등	-646
▁W	-647
▁탈	-648
▁벌	-649
▁탄	-650
▁온	-651
▁소속	-652
▁아야	-653
▁좌	-654
▁러시아	-655
▁같이	-656
▁2008	-657
▁사실	-658
▁하지만	-659
▁좋	-660
▁이전	-661
▁침	-662
▁그녀	-663
▁일어나	-664
▁21	-665
우스	-666
▁줄	-667
▁스타	-668
▁센	-669
▁르	-670
▁커	-671
▁로마	-672
디오	-673
▁이것	-674
▁으로서	-675
▁여성	-676
▁폴	-677
▁나라	-678
▁생각	-679
▁인민	-680
▁주로	-681
▁프로그램	-682
▁타이	-683
▁필요	-684
▁갈	-685
▁2011	-686
▁2012	-687
▁출신	-688
▁혼	-689
▁싱	-690
▁참가	-691
▁이탈	-692
▁조직	-693
▁관리	-694
▁보내	-695
▁100	-696
▁기준	-697
▁운영	-698
▁오르	-699
▁위원회	-700
▁중요	-701
▁윤	-702
en	-703
▁2009	-704
▁란	-705
▁생산	-706
므로	-707
▁여자	-708
▁계획	-709
▁2007	-710
▁기관	-711
▁2014	-712
▁t	-713
▁행정	-714
▁상대	-715
▁등장	-716
▁이르	-717
▁정보	-718
▁성공	-719
▁계속	-720
▁음반	-721
▁바이	-722
▁데이	-723
▁지나	-724
▁지정	-725
▁국민	-726
▁매우	-727
▁a	-728
▁콘	-729
▁넘	-730
▁데뷔	-731
▁밝히	-732
▁해당	-733
▁2013	-734
▁O	-735
he	-736
▁레이	-737
▁뿐	-738
▁과학	-739
▁철도	-740
▁아버지	-741
▁고려	-742
▁칼	-743
스터	-744
▁대전	-745
▁몇	-746
▁발전	-747
▁이탈리아	-748
리즈	-749
▁주요	-750
▁자리	-751
프트	-752
▁사업	-753
▁191	-754
▁찾	-755
▁시스	-756
▁묘	-757
▁24	-758
▁23	-759
▁억	-760
▁처럼	-761
▁지내	-762
▁차지	-763
▁방법	-764
▁000	-765
▁2015	-766
ar	-767
▁2018	-768
▁얼	-769
▁쇼	-770
남도	-771
▁헌	-772
▁월드	-773
라마	-774
▁능	-775
▁앨범	-776
▁돌아	-777
▁2016	-778
레스	-779
▁최고	-780
▁그룹	-781
▁인도	-782
▁빌	-783
▁결국	-784
▁후보	-785
▁관하	-786
▁마이	-787
르크	-788
▁출연	-789
▁아래	-790
▁시리즈	-791
▁엘	-792
▁생활	-793
이션	-794
▁전체	-795
▁J	-796
▁떨	-797
▁빠	-798
▁22	-799
es	-800
▁우리	-801
▁이루어지	-802
▁고등학교	-803
▁한편	-804
▁회사	-805
▁이유	-806
▁내용	-807
▁2006	-808
▁그리스	-809
▁ᆫ다고	-810
이트	-811
▁격	-812
▁거치	-813
FA	-814
▁192	-815
▁나가	-816
비아	-817
▁층	-818
▁제공	-819
▁풍	-820
▁인간	-821
▁연합	-822
▁힘	-823
▁스페	-824
▁방식	-825
▁의원	-826
▁공식	-827
▁2017	-828
▁많이	-829
운데	-830
▁인터	-831
▁항공	-832
▁시기	-833
▁희	-834
▁역할	-835
▁잠	-836
▁컴	-837
▁몸	-838
▁군사	-839
▁가운데	-840
▁조사	-841
▁드라마	-842
▁시스템	-843
▁초기	-844
▁류	-845
▁워	-846
▁거의	-847
▁출전	-848
▁기업	-849
▁제도	-850
▁유명	-851
▁반대	-852
▁민족	-853
▁놓	-854
▁나타나	-855
▁으로써	-856
▁s	-857
▁퍼	-858
▁둘	-859
▁지구	-860
▁쓰이	-861
▁교회	-862
▁울	-863
▁푸	-864
▁떠	-865
▁색	-866
▁수상	-867
▁텔	-868
▁대신	-869
▁평가	-870
▁유지	-871
▁달리	-872
▁표현	-873
비스	-874
▁느	-875
▁으로부터	-876
▁분류	-877
▁몰	-878
▁26	-879
▁동시	-880
▁홈	-881
▁올리	-882
▁대상	-883
▁특별	-884
▁!	-885
▁녹	-886
▁현대	-887
▁웨	-888
▁기능	-889
▁규모	-890
▁언어	-891
▁모습	-892
▁이미	-893
▁공개	-894
at	-895
▁프리	-896
▁응	-897
▁마지	-898
▁노동	-899
▁자연	-900
▁28	-901
▁승리	-902
▁어야	-903
야기	-904
▁개인	-905
▁졸	-906
▁각각	-907
▁들어가	-908
▁연결	-909
▁27	-910
▁이론	-911
▁전하	-912
▁인정	-913
▁밖	-914
▁뛰	-915
▁붙	-916
▁2019	-917
▁단체	-918
▁진출	-919
▁지도	-920
▁브라	-921
▁임명	-922
▁마지막	-923
북도	-924
▁핵	-925
▁떨어지	-926
▁시장	-927
▁2005	-928
▁2000	-929
▁목적	-930
▁상황	-931
머니	-932
▁시절	-933
▁샤	-934
▁너	-935
▁수도	-936
▁아르	-937
▁전문	-938
▁정책	-939
▁난	-940
▁눈	-941
▁멀	-942
▁메이	-943
▁정의	-944
▁기간	-945
▁경상	-946
▁직접	-947
▁목록	-948
▁족	-949
▁산업	-950
▁습	-951
▁이야기	-952
▁먹	-953
▁서로	-954
ic	-955
니다	-956
al	-957
▁계약	-958
▁혁	-959
▁압	-960
▁오스트	-961
스크	-962
▁야구	-963
▁추가	-964
▁밴	-965
▁슬	-966
▁기원	-967
▁으면	-968
▁건설	-969
▁공동	-970
BS	-971
▁모델	-972
▁2004	-973
▁콜	-974
▁개최	-975
▁경찰	-976
▁FC	-977
▁플레이	-978
▁건물	-979
▁공간	-980
▁망	-981
▁형성	-982
▁50	-983
▁활약	-984
▁그것	-985
▁자동	-986
▁결혼	-987
▁거리	-988
▁부산	-989
▁스페인	-990
▁훈	-991
▁31	-992
▁29	-993
▁변화	-994
학자	-995
▁노래	-996
▁사상	-997
▁졸업	-998
▁교수	-999
▁변경	-1000
으키	-1001
▁칸	-1002
▁나이	-1003
▁b	-1004
▁국회	-1005
▁TV	-1006
▁인물	-1007
▁완전	-1008
▁마을	-1009
is	-1010
▁다르	-1011
re	-1012
▁공화국	-1013
▁궁	-1014
it	-1015
▁텔레	-1016
▁벨	-1017
▁비롯	-1018
▁사랑	-1019
▁역시	-1020
▁190	-1021
▁낮	-1022
▁흐	-1023
▁노선	-1024
▁인민공	-1025
▁휴	-1026
▁인민공화국	-1027
비전	-1028
▁ㅏ	-1029
▁지지	-1030
▁2020	-1031
▁학생	-1032
▁실제	-1033
ou	-1034
▁맥	-1035
▁중학교	-1036
▁보통	-1037
▁최대	-1038
▁만나	-1039
▁요구	-1040
▁볼	-1041
▁따라	-1042
▁지금	-1043
이드	-1044
▁서비스	-1045
▁견	-1046
▁잉	-1047
대로	-1048
▁겠	-1049
▁싸	-1050
▁보호	-1051
▁탑	-1052
▁전국	-1053
▁일으키	-1054
프리카	-1055
▁소설	-1056
▁우주	-1057
▁의회	-1058
▁중화	-1059
▁딸	-1060
▁없이	-1061
▁겸	-1062
▁실시	-1063
▁기본	-1064
▁자기	-1065
▁판매	-1066
▁지하	-1067
▁혹	-1068
▁황제	-1069
▁다이	-1070
▁X	-1071
▁옥	-1072
운드	-1073
▁가수	-1074
▁비판	-1075
역시	-1076
▁전통	-1077
▁싱글	-1078
르트	-1079
▁차이	-1080
▁엄	-1081
▁높이	-1082
▁밴드	-1083
▁떠나	-1084
▁원래	-1085
▁기반	-1086
▁론	-1087
▁퇴	-1088
너지	-1089
▁종교	-1090
▁어떤	-1091
▁버리	-1092
▁세력	-1093
▁내리	-1094
▁2002	-1095
▁경기도	-1096
▁탐	-1097
로스	-1098
▁40	-1099
▁소련	-1100
▁이끌	-1101
▁자료	-1102
스탄	-1103
▁수행	-1104
▁환경	-1105
▁기타	-1106
▁2003	-1107
▁회의	-1108
▁전기	-1109
▁모양	-1110
▁풀	-1111
▁센터	-1112
▁월드컵	-1113
▁부대	-1114
▁시설	-1115
▁운행	-1116
▁나타내	-1117
▁전자	-1118
▁공연	-1119
▁그래	-1120
▁도쿄	-1121
러스	-1122
▁걸치	-1123
▁교황	-1124
▁설명	-1125
▁뮤	-1126
▁컵	-1127
▁기념	-1128
나다	-1129
▁통합	-1130
▁이동	-1131
▁예술	-1132
▁분야	-1133
▁기독	-1134
▁승강	-1135
▁명칭	-1136
▁작업	-1137
▁특징	-1138
le	-1139
▁득	-1140
mp	-1141
▁남자	-1142
▁텔레비전	-1143
▁염	-1144
▁행동	-1145
▁도입	-1146
▁동물	-1147
▁연방	-1148
▁따라서	-1149
▁구역	-1150
▁선정	-1151
▁바로	-1152
▁군대	-1153
▁숙	-1154
들이	-1155
▁전라	-1156
▁애니	-1157
▁능력	-1158
스타	-1159
▁출시	-1160
▁가족	-1161
▁작용	-1162
▁증가	-1163
▁넓	-1164
▁할	-1165
▁남쪽	-1166
▁확인	-1167
▁기존	-1168
▁방향	-1169
▁소프트	-1170
▁행위	-1171
▁북쪽	-1172
▁지휘	-1173
▁제외	-1174
▁이때	-1175
▁교통	-1176
▁기독교	-1177
▁문학	-1178
▁차량	-1179
▁착	-1180
▁옮	-1181
▁작가	-1182
▁=	-1183
의원	-1184
▁비슷	-1185
▁사고	-1186
▁국내	-1187
▁형식	-1188
▁십	-1189
▁므로	-1190
▁강하	-1191
▁클럽	-1192
▁어머니	-1193
▁혁명	-1194
▁그렇	-1195
▁윌	-1196
▁가리	-1197
▁작곡	-1198
▁도로	-1199
▁마르	-1200
▁빈	-1201
▁지배	-1202
▁효과	-1203
▁낙	-1204
▁런	-1205
▁마다	-1206
▁거두	-1207
▁몽	-1208
▁왕국	-1209
▁역임	-1210
▁태양	-1211
▁과거	-1212
▁유일	-1213
▁캐나다	-1214
▁컴퓨	-1215
▁승강장	-1216
▁FI	-1217
▁챔	-1218
▁옮기	-1219
▁사무	-1220
▁열차	-1221
▁이적	-1222
▁갑	-1223
BC	-1224
▁혹은	-1225
▁협회	-1226
▁남부	-1227
리오	-1228
▁비교	-1229
▁흥	-1230
▁추정	-1231
▁생기	-1232
▁공산	-1233
▁베이	-1234
▁정당	-1235
▁솔	-1236
▁뉴욕	-1237
▁흔	-1238
▁갖추	-1239
▁담당	-1240
▁이어지	-1241
자리	-1242
▁시민	-1243
▁이사	-1244
▁적용	-1245
▁동일	-1246
▁획	-1247
▁늘	-1248
▁육군	-1249
▁주변	-1250
▁1990	-1251
▁홀	-1252
▁인기	-1253
▁장관	-1254
▁즈	-1255
▁2001	-1256
▁대사	-1257
▁동쪽	-1258
▁물리	-1259
▁챔피	-1260
▁넣	-1261
▁스포	-1262
▁스트	-1263
▁쪽	-1264
▁세포	-1265
▁윈	-1266
▁곧	-1267
▁상당	-1268
▁건축	-1269
▁예정	-1270
▁ᆫ데	-1271
▁사단	-1272
▁공사	-1273
▁성장	-1274
▁마음	-1275
▁징	-1276
▁개념	-1277
▁맨	-1278
▁데이터	-1279
▁p	-1280
▁구간	-1281
▁오늘	-1282
▁컴퓨터	-1283
▁조지	-1284
▁차례	-1285
드리	-1286
▁품	-1287
▁움	-1288
▁크기	-1289
▁돈	-1290
▁에너지	-1291
▁비하	-1292
▁멤	-1293
▁서쪽	-1294
▁189	-1295
▁버스	-1296
▁흑	-1297
▁바꾸	-1298
▁어리	-1299
▁바르	-1300
이지	-1301
▁잔	-1302
▁치르	-1303
▁충청	-1304
▁록	-1305
▁액	-1306
▁자체	-1307
▁땅	-1308
▁칭	-1309
▁어느	-1310
▁작전	-1311
▁조건	-1312
▁실패	-1313
▁민주주의	-1314
▁연기	-1315
▁디자	-1316
▁이라	-1317
▁이런	-1318
▁율	-1319
▁반응	-1320
▁돌아오	-1321
▁덕	-1322
▁선언	-1323
▁연주	-1324
▁FIFA	-1325
▁쉽	-1326
▁부족	-1327
▁컨	-1328
▁d	-1329
▁버전	-1330
▁종류	-1331
▁특정	-1332
▁연속	-1333
▁페르	-1334
가지	-1335
▁선택	-1336
메이션	-1337
▁국립	-1338
▁익	-1339
▁피해	-1340
▁대체	-1341
▁쌍	-1342
카이	-1343
▁수록	-1344
▁방영	-1345
▁규정	-1346
el	-1347
▁다루	-1348
▁해군	-1349
거리	-1350
▁대구	-1351
▁공항	-1352
▁고대	-1353
라지	-1354
루스	-1355
▁내부	-1356
et	-1357
▁멤버	-1358
▁체제	-1359
▁속도	-1360
버스	-1361
▁조약	-1362
▁결승	-1363
▁정신	-1364
▁북부	-1365
▁아시아	-1366
▁명령	-1367
▁기원전	-1368
▁는지	-1369
▁연대	-1370
▁왜	-1371
글랜드	-1372
▁선출	-1373
▁헌법	-1374
▁인천	-1375
▁크리스	-1376
▁쥐	-1377
▁애니메이션	-1378
▁ㅓ	-1379
▁휘	-1380
▁옛	-1381
▁가치	-1382
▁단계	-1383
▁포르	-1384
▁개혁	-1385
▁링	-1386
▁먼	-1387
ion	-1388
▁친구	-1389
▁최종	-1390
▁물질	-1391
▁영어	-1392
웨어	-1393
▁자치	-1394
▁분석	-1395
▁달러	-1396
▁최근	-1397
ing	-1398
▁이어	-1399
▁나누	-1400
▁설계	-1401
▁밤	-1402
▁ᆫ지	-1403
▁척	-1404
트남	-1405
▁의사	-1406
▁가깝	-1407
▁강화	-1408
▁출판	-1409
▁더욱	-1410
▁평균	-1411
아가	-1412
▁비행	-1413
▁소비	-1414
시마	-1415
▁롭	-1416
▁지명	-1417
▁1999	-1418
▁체계	-1419
▁로스	-1420
▁술	-1421
널리	-1422
▁법원	-1423
▁북한	-1424
▁집단	-1425
ol	-1426
라스	-1427
▁배치	-1428
▁잉글랜드	-1429
▁머리	-1430
▁관심	-1431
▁남기	-1432
▁표준	-1433
▁곤	-1434
▁1998	-1435
메리카	-1436
▁언급	-1437
▁팬	-1438
▁개월	-1439
▁Y	-1440
▁치료	-1441
▁획득	-1442
▁씩	-1443
▁부문	-1444
▁엔진	-1445
▁파이	-1446
▁cm	-1447
▁하이	-1448
▁현상	-1449
21	-1450
▁겨	-1451
▁o	-1452
▁헬	-1453
▁지속	-1454
▁분리	-1455
▁실험	-1456
▁부상	-1457
▁지니	-1458
▁조정	-1459
▁고자	-1460
▁1980	-1461
▁맺	-1462
▁유사	-1463
▁함수	-1464
▁60	-1465
▁하계	-1466
▁선발	-1467
▁벤	-1468
▁처리	-1469
▁스테	-1470
▁확장	-1471
▁공원	-1472
▁스포츠	-1473
스코	-1474
▁챔피언	-1475
▁대중	-1476
▁베르	-1477
▁소유	-1478
▁제품	-1479
▁마리	-1480
▁35	-1481
▁입단	-1482
▁관할	-1483
▁시도	-1484
▁통일	-1485
▁어렵	-1486
▁목표	-1487
▁빠르	-1488
▁이해	-1489
▁자동차	-1490
▁도움	-1491
▁공립	-1492
▁요소	-1493
▁장군	-1494
▁향하	-1495
▁재판	-1496
리지	-1497
▁주도	-1498
▁정규	-1499
디어	-1500
▁mm	-1501
▁문자	-1502
▁에스	-1503
▁점령	-1504
▁후반	-1505
▁꽃	-1506
▁외국	-1507
▁요시	-1508
▁나무	-1509
▁거주	-1510
▁구단	-1511
▁파리	-1512
▁려고	-1513
▁주인	-1514
▁미치	-1515
▁편성	-1516
▁앙	-1517
▁주민	-1518
▁기사	-1519
▁바뀌	-1520
▁잃	-1521
▁시험	-1522
▁원자	-1523
▁네덜	-1524
▁네덜란드	-1525
▁가르	-1526
▁다면	-1527
▁학자	-1528
▁행사	-1529
▁스럽	-1530
▁괴	-1531
▁책임	-1532
▁끌	-1533
▁통신	-1534
▁n	-1535
▁안정	-1536
▁앤	-1537
광역시	-1538
▁동맹	-1539
▁사령	-1540
▁결합	-1541
▁투표	-1542
▁혈	-1543
▁일종	-1544
▁수준	-1545
▁웹	-1546
▁모르	-1547
▁고속	-1548
▁알렉	-1549
▁언론	-1550
▁깊	-1551
▁불구	-1552
▁끝나	-1553
▁잇	-1554
▁장치	-1555
▁불교	-1556
▁예선	-1557
▁듯	-1558
om	-1559
▁다니	-1560
▁길이	-1561
▁디자인	-1562
▁아프리카	-1563
▁ᄇ	-1564
▁개봉	-1565
야마	-1566
▁1997	-1567
▁준비	-1568
젝트	-1569
나무	-1570
▁정하	-1571
▁덴	-1572
▁베트남	-1573
▁문서	-1574
▁본선	-1575
▁촉	-1576
▁빛	-1577
▁방문	-1578
▁광주	-1579
▁칠	-1580
일랜드	-1581
▁사진	-1582
▁캠	-1583
▁신문	-1584
▁정권	-1585
▁가문	-1586
▁유전	-1587
▁경험	-1588
▁정확	-1589
▁믿	-1590
▁가정	-1591
▁드러	-1592
메달	-1593
▁구분	-1594
▁몬	-1595
st	-1596
▁성적	-1597
▁대로	-1598
▁폴란드	-1599
▁1996	-1600
▁요리	-1601
▁The	-1602
▁제조	-1603
▁그림	-1604
▁평화	-1605
▁1995	-1606
▁비디오	-1607
▁핀	-1608
▁오늘날	-1609
▁원인	-1610
▁amp	-1611
▁부인	-1612
▁통과	-1613
▁용어	-1614
▁부여	-1615
▁왕조	-1616
▁찬	-1617
▁아직	-1618
▁32	-1619
▁정리	-1620
▁70	-1621
▁려는	-1622
▁일제	-1623
▁값	-1624
▁추진	-1625
▁ㄹ	-1626
▁깨	-1627
▁아마	-1628
▁프로젝트	-1629
▁런던	-1630
스로	-1631
▁방어	-1632
특별	-1633
▁올라	-1634
▁병원	-1635
▁이곳	-1636
▁신라	-1637
▁종합	-1638
▁민주당	-1639
▁널리	-1640
▁은퇴	-1641
▁멸	-1642
스턴	-1643
▁해석	-1644
▁입장	-1645
▁프레	-1646
▁으므로	-1647
▁경쟁	-1648
▁통치	-1649
▁경영	-1650
인트	-1651
▁슈퍼	-1652
▁영역	-1653
▁끼	-1654
▁500	-1655
▁발달	-1656
▁이듬	-1657
▁폐지	-1658
▁노력	-1659
▁인터넷	-1660
▁훈련	-1661
아들이	-1662
▁보도	-1663
▁죽이	-1664
▁파괴	-1665
웨이	-1666
▁미사	-1667
▁츠	-1668
▁제주	-1669
▁주제	-1670
▁그런	-1671
▁제안	-1672
▁총리	-1673
▁꼬	-1674
▁the	-1675
▁부정	-1676
am	-1677
▁놀	-1678
레일	-1679
▁면적	-1680
▁회장	-1681
▁80	-1682
▁주연	-1683
▁기여	-1684
▁지키	-1685
▁완전히	-1686
▁미술	-1687
▁모으	-1688
▁서부	-1689
▁만화	-1690
▁유래	-1691
▁접하	-1692
▁이듬해	-1693
▁번호	-1694
▁요청	-1695
리트	-1696
▁국회의원	-1697
▁188	-1698
▁빅	-1699
▁경기장	-1700
▁정상	-1701
▁도서	-1702
▁야마	-1703
▁식민	-1704
▁남성	-1705
▁자주	-1706
▁생물	-1707
▁연맹	-1708
▁투수	-1709
▁UE	-1710
라인	-1711
▁법률	-1712
▁경계	-1713
▁궤	-1714
▁동부	-1715
▁벌이	-1716
▁+	-1717
▁폰	-1718
▁무기	-1719
▁1994	-1720
▁린	-1721
il	-1722
▁1970	-1723
▁행성	-1724
▁돕	-1725
▁나뉘	-1726
▁금지	-1727
▁움직	-1728
▁수용	-1729
▁UEFA	-1730
▁등록	-1731
▁소재	-1732
▁인식	-1733
▁제한	-1734
톨릭	-1735
▁삼성	-1736
▁ᄇ니다	-1737
▁철학	-1738
▁펼	-1739
▁연구소	-1740
▁무대	-1741
▁바탕	-1742
▁아시	-1743
▁외교	-1744
▁영토	-1745
ac	-1746
▁더불	-1747
▁빠지	-1748
▁라디오	-1749
머지	-1750
▁나머지	-1751
▁접근	-1752
▁반면	-1753
▁지진	-1754
▁스스로	-1755
▁지대	-1756
▁강원	-1757
▁KBS	-1758
▁노르	-1759
▁다리	-1760
▁발사	-1761
▁거부	-1762
▁뇌	-1763
▁조각	-1764
▁업무	-1765
▁박물	-1766
▁오래	-1767
▁돌아가	-1768
▁받아들이	-1769
▁뉴스	-1770
▁표기	-1771
▁정식	-1772
▁마찬	-1773
▁마찬가지	-1774
▁벽	-1775
▁오스	-1776
▁아일랜드	-1777
▁결성	-1778
▁붙이	-1779
▁상호	-1780
▁서식	-1781
▁은행	-1782
▁필리	-1783
▁논란	-1784
▁굴	-1785
▁펜	-1786
▁의식	-1787
▁1992	-1788
▁다수	-1789
▁보수	-1790
▁이렇	-1791
▁기초	-1792
▁소리	-1793
▁이기	-1794
▁짧	-1795
▁득점	-1796
▁ㅕ	-1797
▁공작	-1798
▁45	-1799
▁가톨릭	-1800
▁복귀	-1801
요일	-1802
▁주의	-1803
▁박사	-1804
▁성격	-1805
▁아카	-1806
▁트리	-1807
임스	-1808
▁아도	-1809
▁바다	-1810
▁임시	-1811
▁스웨	-1812
ro	-1813
▁실제로	-1814
시코	-1815
▁수학	-1816
▁로써	-1817
▁장애	-1818
▁해결	-1819
▁총선	-1820
▁36	-1821
▁패배	-1822
▁그대로	-1823
모토	-1824
▁윌리	-1825
▁of	-1826
ed	-1827
▁검사	-1828
워드	-1829
▁지도자	-1830
▁장소	-1831
▁느끼	-1832
▁초대	-1833
▁브라질	-1834
▁습니다	-1835
▁유로	-1836
▁긴	-1837
▁에이	-1838
▁마이크	-1839
▁이스	-1840
▁강력	-1841
트리	-1842
▁박물관	-1843
▁스위	-1844
▁여행	-1845
▁차원	-1846
▁제시	-1847
▁표시	-1848
▁여름	-1849
▁묘사	-1850
▁오브	-1851
▁카드	-1852
▁기구	-1853
▁식물	-1854
▁화학	-1855
▁단순	-1856
▁인사	-1857
▁1960	-1858
▁집합	-1859
ig	-1860
▁안전	-1861
▁차트	-1862
▁이외	-1863
▁계열	-1864
▁관측	-1865
▁유니	-1866
▁연극	-1867
▁권력	-1868
▁뛰어나	-1869
▁활용	-1870
▁1991	-1871
토리	-1872
▁스웨덴	-1873
▁무역	-1874
▁히로	-1875
▁싸우	-1876
▁멕	-1877
▁오스트리아	-1878
▁꾸	-1879
▁먼저	-1880
▁회원	-1881
▁지적	-1882
▁기계	-1883
▁디지	-1884
▁파일	-1885
▁자라	-1886
▁캐릭	-1887
▁개국	-1888
부르크	-1889
로나	-1890
▁취하	-1891
▁근처	-1892
▁형제	-1893
▁1993	-1894
▁가리키	-1895
▁33	-1896
▁반란	-1897
▁조성	-1898
레일리아	-1899
▁위험	-1900
▁중단	-1901
▁중간	-1902
▁붕	-1903
▁만큼	-1904
▁세대	-1905
▁소프트웨어	-1906
▁흡	-1907
▁발행	-1908
▁일정	-1909
▁분포	-1910
▁도착	-1911
▁시행	-1912
배우	-1913
베이	-1914
▁기자	-1915
▁협력	-1916
▁다만	-1917
▁스코	-1918
▁스튜	-1919
트로	-1920
▁량	-1921
▁띠	-1922
특별시	-1923
od	-1924
버트	-1925
▁여객	-1926
▁사이트	-1927
▁캐릭터	-1928
▁ᆫ가	-1929
▁서울특별시	-1930
▁죽음	-1931
▁죄	-1932
▁하루	-1933
▁단어	-1934
사카	-1935
▁들어오	-1936
▁186	-1937
▁해안	-1938
▁윈도	-1939
▁지하철	-1940
주시	-1941
▁파견	-1942
▁",	-1943
▁렌	-1944
ve	-1945
▁세상	-1946
▁수많	-1947
▁연장	-1948
워크	-1949
니스	-1950
▁삶	-1951
▁카이	-1952
▁혜	-1953
▁내려	-1954
▁순위	-1955
as	-1956
▁코드	-1957
▁겪	-1958
▁공장	-1959
▁투자	-1960
▁제기	-1961
▁태평	-1962
▁혐	-1963
나이	-1964
▁다카	-1965
▁감소	-1966
▁본부	-1967
▁전시	-1968
▁내각	-1969
▁뮤직	-1970
▁오스트레일리아	-1971
▁근거	-1972
▁후기	-1973
▁이라고	-1974
▁확대	-1975
▁경상남도	-1976
지션	-1977
▁번역	-1978
▁생성	-1979
▁케이	-1980
▁옹	-1981
소년	-1982
▁윌리엄	-1983
▁귀족	-1984
▁?	-1985
▁듣	-1986
▁지상	-1987
▁경상북도	-1988
▁지식	-1989
▁위기	-1990
▁네트	-1991
▁보유	-1992
▁보존	-1993
▁균	-1994
▁양식	-1995
▁유형	-1996
▁구하	-1997
▁달성	-1998
무원	-1999
▁숨	-2000
▁관광	-2001
▁1988	-2002
▁동생	-2003
▁상징	-2004
▁멜	-2005
▁촬	-2006
▁전략	-2007
▁유대	-2008
▁187	-2009
▁수사	-2010
▁멕시코	-2011
▁극장	-2012
▁래	-2013
▁h	-2014
▁당선	-2015
▁완성	-2016
▁유리	-2017
▁성립	-2018
▁캘	-2019
▁촌	-2020
▁상업	-2021
▁영상	-2022
▁원소	-2023
▁대응	-2024
▁학위	-2025
▁디지털	-2026
▁근무	-2027
▁이렇게	-2028
▁님	-2029
▁계승	-2030
▁특수	-2031
▁짓	-2032
▁촬영	-2033
▁34	-2034
▁단위	-2035
▁체포	-2036
티아	-2037
▁이슬	-2038
▁마치	-2039
아내	-2040
▁흐르	-2041
▁옆	-2042
▁나중	-2043
▁수비	-2044
▁권리	-2045
▁식민지	-2046
▁몇몇	-2047
▁싶	-2048
▁38	-2049
▁발매되	-2050
▁체결	-2051
▁코치	-2052
▁전달	-2053
▁이집	-2054
가리	-2055
회사	-2056
▁이집트	-2057
▁미래	-2058
id	-2059
▁마사	-2060
▁생명	-2061
▁벌어지	-2062
▁알렉산	-2063
▁판단	-2064
▁걸리	-2065
▁듀	-2066
▁낳	-2067
▁90	-2068
아시아	-2069
▁맹	-2070
▁국왕	-2071
▁타이틀	-2072
▁아내	-2073
▁이란	-2074
▁시티	-2075
▁종목	-2076
▁직후	-2077
가와	-2078
▁헨	-2079
▁승격	-2080
▁관찰	-2081
▁1989	-2082
▁이주	-2083
▁톤	-2084
▁시청	-2085
▁측정	-2086
▁자본	-2087
▁률	-2088
▁크로	-2089
▁펼치	-2090
▁주식	-2091
▁젊	-2092
▁맞추	-2093
▁틀	-2094
▁미군	-2095
모리	-2096
▁대륙	-2097
▁즐	-2098
▁소수	-2099
▁개통	-2100
▁전환	-2101
▁밑	-2102
▁도서관	-2103
▁48	-2104
▁2021	-2105
▁설정	-2106
ec	-2107
▁채널	-2108
▁동계	-2109
▁엘리	-2110
▁얼마	-2111
us	-2112
▁세르	-2113
▁스키	-2114
▁라인	-2115
▁의견	-2116
▁새로	-2117
▁특성	-2118
▁홍콩	-2119
▁정치인	-2120
▁쌓	-2121
▁',	-2122
▁납	-2123
NA	-2124
▁개정	-2125
▁문화재	-2126
▁시위	-2127
and	-2128
▁포르투	-2129
▁신경	-2130
▁종료	-2131
▁텍	-2132
▁지위	-2133
▁답	-2134
▁취임	-2135
▁셰	-2136
▁제정	-2137
▁미사일	-2138
▁상하	-2139
▁달하	-2140
▁1950	-2141
▁기획	-2142
▁|	-2143
▁헝	-2144
▁주어지	-2145
▁은하	-2146
▁300	-2147
▁교체	-2148
▁사회주의	-2149
▁결승전	-2150
▁아라	-2151
▁으면서	-2152
디아	-2153
▁후쿠	-2154
▁예수	-2155
▁주인공	-2156
▁본관	-2157
▁MBC	-2158
▁천황	-2159
스티	-2160
▁청년	-2161
▁범죄	-2162
▁빼	-2163
▁전차	-2164
▁주목	-2165
코드	-2166
▁소개	-2167
▁벗	-2168
▁출생	-2169
▁해외	-2170
▁충돌	-2171
ad	-2172
▁제임스	-2173
▁았었	-2174
▁녹음	-2175
▁장기	-2176
▁아키	-2177
▁수정	-2178
▁셀	-2179
▁춘	-2180
▁e	-2181
▁계산	-2182
▁비용	-2183
교회	-2184
▁개선	-2185
▁스티	-2186
▁전라남도	-2187
전히	-2188
▁본래	-2189
▁남북	-2190
▁1945	-2191
▁음식	-2192
▁모이	-2193
▁바이러스	-2194
▁즉위	-2195
▁비밀	-2196
▁계기	-2197
▁자격	-2198
▁합류	-2199
리학	-2200
▁공부	-2201
▁건강	-2202
▁소장	-2203
▁공급	-2204
▁건너	-2205
▁카운	-2206
▁부모	-2207
▁이래	-2208
ent	-2209
▁펠	-2210
▁원정	-2211
▁배경	-2212
▁누구	-2213
▁홈런	-2214
▁제거	-2215
▁네트워크	-2216
스카	-2217
▁체육	-2218
▁에드	-2219
▁궤도	-2220
▁털	-2221
50	-2222
▁각종	-2223
▁인근	-2224
▁ㅏㅆ	-2225
▁시내	-2226
▁거대	-2227
▁컬	-2228
▁오후	-2229
▁작성	-2230
보이	-2231
▁명예	-2232
▁신학	-2233
▁집중	-2234
▁자원	-2235
▁가입	-2236
▁감염	-2237
▁입학	-2238
▁가격	-2239
▁공군	-2240
▁왼	-2241
▁읽	-2242
▁베네	-2243
▁랑	-2244
▁객	-2245
▁피아	-2246
▁국경	-2247
▁군인	-2248
▁전사	-2249
▁롤	-2250
베르	-2251
▁병력	-2252
▁천문	-2253
라도	-2254
▁강조	-2255
▁저항	-2256
▁통제	-2257
▁성우	-2258
▁이슬람	-2259
티나	-2260
▁측면	-2261
▁울산	-2262
▁명단	-2263
▁아우	-2264
▁찰	-2265
▁농업	-2266
▁줄이	-2267
▁신호	-2268
▁포지션	-2269
▁소송	-2270
피아	-2271
▁인수	-2272
▁만약	-2273
▁병사	-2274
▁세이	-2275
▁학문	-2276
리포	-2277
▁기후	-2278
▁질량	-2279
▁블랙	-2280
▁실행	-2281
▁나서	-2282
▁너무	-2283
▁기회	-2284
▁St	-2285
▁플로	-2286
▁이번	-2287
▁아무	-2288
▁피하	-2289
▁터미	-2290
▁콩	-2291
ot	-2292
▁오른	-2293
▁터키	-2294
도로	-2295
▁증명	-2296
▁변호	-2297
▁최소	-2298
▁태평양	-2299
니어	-2300
▁겨울	-2301
▁광고	-2302
▁약간	-2303
▁강원도	-2304
▁정착	-2305
▁노동자	-2306
▁엑	-2307
▁x	-2308
▁마리아	-2309
▁쉬	-2310
동안	-2311
▁무장	-2312
▁잎	-2313
▁외부	-2314
▁미디어	-2315
▁해방	-2316
un	-2317
▁환자	-2318
▁몽골	-2319
▁쇠	-2320
▁37	-2321
▁바라	-2322
▁사라지	-2323
▁국방	-2324
▁바람	-2325
ow	-2326
▁전반	-2327
▁편집	-2328
▁제목	-2329
▁마쓰	-2330
▁냉	-2331
▁in	-2332
▁도중	-2333
▁터미널	-2334
▁ᆫ다면	-2335
▁무렵	-2336
▁표면	-2337
스키	-2338
▁마련	-2339
▁지점	-2340
철도	-2341
▁금융	-2342
▁허용	-2343
▁라운드	-2344
▁혐의	-2345
▁충분	-2346
▁밀도	-2347
▁재산	-2348
▁가스	-2349
소리	-2350
▁유도	-2351
▁카르	-2352
▁1987	-2353
▁여전히	-2354
▁빨	-2355
▁ㅕ서	-2356
오카	-2357
▁힐	-2358
▁그해	-2359
▁비트	-2360
▁학년	-2361
▁인디	-2362
▁루이	-2363
▁오리	-2364
▁합병	-2365
▁고전	-2366
▁가져	-2367
▁현실	-2368
▁전력	-2369
▁민간	-2370
▁보고	-2371
▁윈도우	-2372
▁헝가리	-2373
▁뒷	-2374
▁숲	-2375
▁재직	-2376
▁오사카	-2377
▁꼬리	-2378
▁충청남도	-2379
▁전역	-2380
▁양성	-2381
▁포르투갈	-2382
▁킹	-2383
▁41	-2384
▁영화배우	-2385
▁재정	-2386
▁령	-2387
▁w	-2388
▁등급	-2389
마크	-2390
▁붕괴	-2391
▁후지	-2392
▁계급	-2393
▁적극	-2394
▁행하	-2395
▁동료	-2396
▁선수단	-2397
드로	-2398
▁강제	-2399
▁51	-2400
▁공주	-2401
▁라이브	-2402
▁1986	-2403
▁위협	-2404
▁공공	-2405
▁엔터	-2406
▁대대	-2407
▁이하	-2408
ur	-2409
▁조치	-2410
▁위원장	-2411
▁1984	-2412
▁근대	-2413
▁스튜디오	-2414
▁승인	-2415
▁봄	-2416
▁전선	-2417
▁군주	-2418
▁캘리포	-2419
▁유엔	-2420
▁온도	-2421
▁수입	-2422
▁구축	-2423
▁이미지	-2424
▁범위	-2425
▁대수	-2426
▁이제	-2427
▁점차	-2428
▁샌	-2429
▁업체	-2430
▁꿈	-2431
▁논문	-2432
▁원칙	-2433
▁클라	-2434
▁임무	-2435
▁항상	-2436
▁둥	-2437
▁확보	-2438
▁출발	-2439
▁경력	-2440
▁위성	-2441
▁다섯	-2442
▁공산당	-2443
▁거래	-2444
▁양자	-2445
▁교사	-2446
▁앞서	-2447
러지	-2448
▁전개	-2449
▁고구	-2450
▁캘리포니아	-2451
▁채택	-2452
▁회복	-2453
▁대학원	-2454
▁잭	-2455
▁수단	-2456
▁성인	-2457
▁올라가	-2458
▁든	-2459
▁공업	-2460
▁증거	-2461
마스	-2462
▁토론	-2463
▁수립	-2464
▁핀란드	-2465
▁필리핀	-2466
▁섭	-2467
▁강의	-2468
▁잡지	-2469
주교	-2470
테르	-2471
▁드래	-2472
▁첨	-2473
▁합의	-2474
▁아시안	-2475
ch	-2476
▁어떻	-2477
▁그래서	-2478
▁남아	-2479
▁39	-2480
▁얼굴	-2481
▁남편	-2482
▁만족	-2483
▁사례	-2484
▁스파	-2485
▁개편	-2486
▁400	-2487
▁일원	-2488
▁의료	-2489
▁선생	-2490
▁부근	-2491
▁기지	-2492
▁라며	-2493
▁매년	-2494
▁폭발	-2495
바이	-2496
▁시인	-2497
▁나카	-2498
▁앞두	-2499
고리	-2500
▁욕	-2501
▁이스라	-2502
▁간주	-2503
▁이승	-2504
▁스위스	-2505
▁1985	-2506
▁장면	-2507
▁끊	-2508
▁모스크	-2509
▁붉	-2510
▁장비	-2511
▁64	-2512
▁대형	-2513
▁군단	-2514
▁종종	-2515
▁토지	-2516
▁튀	-2517
로드	-2518
다리	-2519
▁스리	-2520
▁아주	-2521
▁대기	-2522
▁불가	-2523
▁둘러	-2524
데미	-2525
▁뜨	-2526
▁규칙	-2527
▁경향	-2528
ay	-2529
▁이스라엘	-2530
▁움직이	-2531
ir	-2532
▁경주	-2533
▁기대	-2534
▁어린	-2535
▁분자	-2536
▁종이	-2537
▁ㅏ서	-2538
▁게이	-2539
키아	-2540
▁수원	-2541
▁항성	-2542
▁아름	-2543
▁캄	-2544
ut	-2545
▁라면	-2546
▁II	-2547
▁조합	-2548
▁기억	-2549
▁심하	-2550
▁낭	-2551
▁확실	-2552
▁진화	-2553
▁에게서	-2554
▁저지	-2555
▁아랍	-2556
▁그곳	-2557
▁해체	-2558
▁귀국	-2559
▁맛	-2560
백질	-2561
▁탑재	-2562
레이드	-2563
고기	-2564
우드	-2565
▁대장	-2566
▁43	-2567
▁레코드	-2568
um	-2569
▁좀	-2570
어들	-2571
▁강점	-2572
▁향상	-2573
▁서양	-2574
▁짐	-2575
▁장식	-2576
▁아카데미	-2577
▁스피	-2578
▁br	-2579
▁신화	-2580
▁평양	-2581
▁투어	-2582
▁변하	-2583
▁클래	-2584
▁고양	-2585
▁침공	-2586
▁아메리카	-2587
▁아름답	-2588
▁보장	-2589
▁청나라	-2590
▁융	-2591
im	-2592
▁청소년	-2593
▁불과	-2594
▁의학	-2595
▁폼	-2596
▁42	-2597
▁선고	-2598
▁박쥐	-2599
▁감정	-2600
요시	-2601
▁고구려	-2602
오스	-2603
▁남동	-2604
▁랭	-2605
▁자금	-2606
▁사후	-2607
▁켄	-2608
▁가로	-2609
▁가사	-2610
▁새기	-2611
▁성과	-2612
▁보병	-2613
▁잠시	-2614
보드	-2615
▁카운티	-2616
▁메이저	-2617
▁스타일	-2618
▁아나	-2619
▁에피	-2620
네스	-2621
▁카메	-2622
▁독자	-2623
ver	-2624
▁고문	-2625
▁소년	-2626
▁신설	-2627
▁우선	-2628
▁나치	-2629
▁살해	-2630
▁단지	-2631
▁1982	-2632
▁만주	-2633
▁55	-2634
▁확정	-2635
▁중화민국	-2636
타인	-2637
▁우수	-2638
▁단백질	-2639
▁숭	-2640
▁라틴	-2641
무르	-2642
에르	-2643
라노	-2644
▁스카	-2645
▁지시	-2646
▁편입	-2647
▁신앙	-2648
▁합치	-2649
▁함대	-2650
틀랜드	-2651
▁복잡	-2652
▁스케	-2653
▁철도역	-2654
▁삭	-2655
▁나폴	-2656
▁비율	-2657
▁예상	-2658
▁광역시	-2659
▁차별	-2660
네시아	-2661
▁왕위	-2662
▁태풍	-2663
▁구체	-2664
▁검찰	-2665
▁의장	-2666
▁44	-2667
▁마크	-2668
▁전화	-2669
▁덴마크	-2670
▁1983	-2671
다이	-2672
▁재단	-2673
누스	-2674
▁창설	-2675
▁냐	-2676
뜨리	-2677
▁i	-2678
▁세종	-2679
▁법인	-2680
▁고향	-2681
▁동의	-2682
▁LG	-2683
▁성당	-2684
▁온라인	-2685
일러	-2686
▁판결	-2687
▁대립	-2688
▁공유	-2689
▁역대	-2690
▁짜	-2691
트라	-2692
▁전설	-2693
FC	-2694
▁참석	-2695
▁브리	-2696
▁가하	-2697
▁묻	-2698
▁보급	-2699
▁선거구	-2700
▁반도	-2701
▁솔로	-2702
▁수출	-2703
▁47	-2704
▁육상	-2705
▁킬	-2706
▁삼국	-2707
▁하늘	-2708
▁둘러싸	-2709
▁브랜드	-2710
뿌리	-2711
운동	-2712
▁어도	-2713
▁유학	-2714
싱턴	-2715
▁고정	-2716
없이	-2717
▁노예	-2718
▁무엇	-2719
▁협상	-2720
의회	-2721
▁핵심	-2722
▁집행	-2723
▁본격	-2724
▁저장	-2725
▁후손	-2726
비드	-2727
이크	-2728
▁카를	-2729
▁애플	-2730
▁헤이	-2731
반도	-2732
▁75	-2733
오프	-2734
▁보안	-2735
▁탄생	-2736
하라	-2737
▁초반	-2738
▁자세	-2739
▁184	-2740
▁180	-2741
▁강점기	-2742
▁오픈	-2743
▁대비	-2744
▁산맥	-2745
▁중반	-2746
▁사전	-2747
▁옷	-2748
▁대항	-2749
▁마드리	-2750
▁Z	-2751
▁주교	-2752
▁암살	-2753
▁이성	-2754
▁회전	-2755
▁사우	-2756
▁숫	-2757
▁아르헨	-2758
원군	-2759
▁전혀	-2760
셔널	-2761
▁연고	-2762
각형	-2763
문화	-2764
▁플랫	-2765
▁로버트	-2766
▁마드리드	-2767
▁베이스	-2768
▁1972	-2769
▁법칙	-2770
▁권한	-2771
▁의무	-2772
▁이익	-2773
▁어린이	-2774
리스트	-2775
▁프란	-2776
▁단일	-2777
▁켈	-2778
▁공기	-2779
▁직원	-2780
▁조금	-2781
소드	-2782
▁인상	-2783
▁아르헨티나	-2784
▁46	-2785
바르	-2786
▁전용	-2787
▁공학	-2788
▁순서	-2789
▁1920	-2790
▁말기	-2791
▁베를	-2792
▁시각	-2793
레이션	-2794
▁운전	-2795
▁요한	-2796
터리	-2797
▁공포	-2798
▁가르치	-2799
▁유적	-2800
▁비난	-2801
▁잘못	-2802
▁모리	-2803
▁사항	-2804
▁수여	-2805
▁별도	-2806
▁중심지	-2807
▁아스	-2808
▁1979	-2809
CA	-2810
▁아미	-2811
▁상품	-2812
▁흔히	-2813
▁밀리	-2814
▁보조	-2815
▁원주	-2816
▁스크	-2817
▁협정	-2818
▁덮	-2819
▁전라북도	-2820
▁창조	-2821
▁변호사	-2822
▁워싱턴	-2823
▁효소	-2824
▁전후	-2825
▁롯	-2826
▁글로	-2827
▁아파	-2828
▁인권	-2829
▁기하	-2830
▁관료	-2831
▁kg	-2832
▁CD	-2833
정부	-2834
▁투입	-2835
▁통계	-2836
▁파크	-2837
▁마시	-2838
▁작곡가	-2839
▁방면	-2840
▁소식	-2841
퍼드	-2842
▁장착	-2843
▁1930	-2844
▁넘어	-2845
ra	-2846
▁우크	-2847
▁심각	-2848
▁현장	-2849
▁셋	-2850
▁레드	-2851
무라	-2852
▁정복	-2853
▁항복	-2854
▁저서	-2855
▁훨	-2856
▁1981	-2857
▁갈등	-2858
▁In	-2859
▁엠	-2860
▁150	-2861
▁아침	-2862
▁금메달	-2863
▁1973	-2864
▁오히	-2865
▁하드	-2866
▁중세	-2867
▁본인	-2868
▁놓이	-2869
▁어떻게	-2870
▁호텔	-2871
▁헨리	-2872
퍼스	-2873
▁공무원	-2874
사키	-2875
10	-2876
▁니콜	-2877
▁훨씬	-2878
▁물러	-2879
▁공산주의	-2880
▁벡	-2881
▁교류	-2882
▁출마	-2883
▁마이클	-2884
▁공화	-2885
▁논의	-2886
▁성경	-2887
▁플라	-2888
▁v	-2889
▁ㄴ다	-2890
▁요새	-2891
▁건국	-2892
▁교토	-2893
▁무리	-2894
▁오른쪽	-2895
▁노스	-2896
▁오랜	-2897
os	-2898
리어	-2899
▁택	-2900
▁중부	-2901
겨나	-2902
▁뿌리	-2903
▁건조	-2904
▁패하	-2905
▁인류	-2906
▁코미	-2907
▁유전자	-2908
▁김정	-2909
▁한때	-2910
▁연합군	-2911
▁산하	-2912
▁오토	-2913
▁인정받	-2914
▁빙	-2915
▁방출	-2916
▁플레이어	-2917
▁왼쪽	-2918
▁세인트	-2919
▁예산	-2920
▁추측	-2921
▁드러나	-2922
▁형사	-2923
▁라도	-2924
▁로드	-2925
▁금속	-2926
▁창립	-2927
▁서기	-2928
▁성질	-2929
▁벗어나	-2930
▁주위	-2931
▁1940	-2932
30	-2933
▁투쟁	-2934
▁찍	-2935
▁베이징	-2936
▁아프	-2937
▁던지	-2938
일보	-2939
▁태국	-2940
▁릴	-2941
▁에어	-2942
▁원작	-2943
▁사태	-2944
▁1974	-2945
▁185	-2946
▁오전	-2947
▁사령관	-2948
▁노르웨이	-2949
BO	-2950
▁절대	-2951
▁에피소드	-2952
em	-2953
▁북서	-2954
▁제자	-2955
▁코스	-2956
▁탁	-2957
▁복합	-2958
▁멸망	-2959
▁플레이오프	-2960
▁군수	-2961
ter	-2962
▁운용	-2963
▁효율	-2964
▁반복	-2965
▁논쟁	-2966
▁모스크바	-2967
▁가져오	-2968
▁뽑	-2969
▁제출	-2970
▁집안	-2971
▁구별	-2972
▁읍	-2973
▁SBS	-2974
▁정비	-2975
▁메시	-2976
▁입자	-2977
▁스코틀랜드	-2978
▁오히려	-2979
카와	-2980
▁해양	-2981
▁합성	-2982
▁전철	-2983
▁1948	-2984
▁마침	-2985
▁사법	-2986
▁노부	-2987
▁중대	-2988
▁숫자	-2989
▁거절	-2990
▁포위	-2991
붙이	-2992
▁인종	-2993
▁주기	-2994
▁흡수	-2995
▁미니	-2996
아오	-2997
듀서	-2998
▁프로듀서	-2999
▁인공	-3000
▁해상	-3001
▁연산	-3002
▁퍼지	-3003
▁블루	-3004
▁빌리	-3005
▁원리	-3006
머스	-3007
▁54	-3008
▁연관	-3009
▁출장	-3010
▁인조	-3011
▁댄	-3012
▁각본	-3013
▁시점	-3014
▁1968	-3015
▁활발	-3016
▁포기	-3017
▁델	-3018
▁목사	-3019
▁1976	-3020
▁웨스트	-3021
▁수송	-3022
▁슬로	-3023
▁베를린	-3024
▁인터뷰	-3025
▁신체	-3026
▁넘기	-3027
▁개시	-3028
▁밖에	-3029
▁이민	-3030
▁소녀	-3031
▁경성	-3032
▁우스	-3033
▁취급	-3034
▁북동	-3035
▁주전	-3036
▁출입	-3037
▁전공	-3038
▁건립	-3039
▁즐기	-3040
▁1975	-3041
▁고용	-3042
▁보스	-3043
▁명성	-3044
▁안타	-3045
▁분쟁	-3046
▁동원	-3047
▁디스	-3048
▁음력	-3049
▁실리	-3050
데스	-3051
▁히데	-3052
▁사령부	-3053
▁주택	-3054
도르	-3055
▁취득	-3056
op	-3057
▁장악	-3058
나이티	-3059
▁비록	-3060
▁축제	-3061
시스	-3062
▁트랙	-3063
▁신성	-3064
▁구속	-3065
▁활성	-3066
▁국도	-3067
▁유나이티	-3068
▁진보	-3069
▁농민	-3070
▁봉하	-3071
▁영화제	-3072
▁견해	-3073
▁보컬	-3074
▁전부	-3075
▁일치	-3076
▁하나님	-3077
▁1978	-3078
▁56	-3079
▁프라	-3080
▁총독	-3081
서트	-3082
▁1971	-3083
▁미드	-3084
▁국장	-3085
▁갤	-3086
▁불법	-3087
ag	-3088
▁고유	-3089
▁늘어나	-3090
▁부활	-3091
▁텐	-3092
▁1963	-3093
▁소스	-3094
▁직전	-3095
▁더라도	-3096
▁52	-3097
에트	-3098
▁보험	-3099
▁관점	-3100
▁북아	-3101
산시	-3102
▁유물	-3103
▁파라	-3104
▁후원	-3105
▁49	-3106
▁편지	-3107
▁대리	-3108
▁정체	-3109
▁약속	-3110
▁폭력	-3111
▁상당히	-3112
▁도달	-3113
▁자이	-3114
▁하위	-3115
▁65	-3116
▁혼란	-3117
▁코미디	-3118
키스탄	-3119
▁주관	-3120
다가	-3121
▁한자	-3122
▁교차	-3123
▁연료	-3124
▁학습	-3125
▁누리	-3126
▁항공기	-3127
비치	-3128
▁철수	-3129
▁포도	-3130
▁타이완	-3131
▁수술	-3132
▁시리아	-3133
▁닌	-3134
▁그리스도	-3135
▁스미	-3136
ce	-3137
▁여부	-3138
▁직업	-3139
세이	-3140
▁여객철도	-3141
▁1969	-3142
메리	-3143
▁다며	-3144
▁반영	-3145
▁아테	-3146
▁임금	-3147
▁선교	-3148
▁물러나	-3149
▁관직	-3150
기에	-3151
▁179	-3152
▁천체	-3153
릭스	-3154
▁Q	-3155
▁고종	-3156
자기	-3157
▁브레	-3158
▁한국어	-3159
젤레스	-3160
▁랜	-3161
▁백제	-3162
▁명명	-3163
▁상륙	-3164
쿠라	-3165
▁팝	-3166
▁수집	-3167
▁대화	-3168
▁논리	-3169
▁의존	-3170
▁장교	-3171
▁본사	-3172
▁넷	-3173
▁00	-3174
리케	-3175
▁성능	-3176
▁미나	-3177
▁모시	-3178
▁제어	-3179
▁심리	-3180
▁주간	-3181
▁테러	-3182
▁데이비드	-3183
어스	-3184
▁1946	-3185
▁교환	-3186
▁부임	-3187
▁화물	-3188
▁십자	-3189
▁아사	-3190
▁보관	-3191
▁일대	-3192
▁백작	-3193
▁학술	-3194
▁톰	-3195
▁프리미	-3196
▁영업	-3197
▁그런데	-3198
▁좁	-3199
▁콘서트	-3200
▁정지	-3201
▁주식회사	-3202
라비아	-3203
▁폴리	-3204
▁개체	-3205
▁도구	-3206
▁해산	-3207
▁판서	-3208
▁나아가	-3209
공항	-3210
▁허가	-3211
▁불상	-3212
▁소방	-3213
▁53	-3214
OS	-3215
▁전파	-3216
▁스마	-3217
▁자살	-3218
▁상승	-3219
▁반발	-3220
▁전문가	-3221
▁프로세	-3222
▁하우스	-3223
▁거기	-3224
▁연재	-3225
▁김영	-3226
▁제일	-3227
▁박정	-3228
▁방사	-3229
▁영향력	-3230
▁핑	-3231
▁그레	-3232
▁원하	-3233
▁코로나	-3234
▁진입	-3235
oc	-3236
▁살인	-3237
▁대략	-3238
▁1964	-3239
미터	-3240
병대	-3241
▁간단	-3242
▁정원	-3243
▁먹이	-3244
▁헤르	-3245
▁공통	-3246
▁고리	-3247
▁니시	-3248
▁드리	-3249
▁리스	-3250
▁화성	-3251
▁충청북도	-3252
▁보건	-3253
▁재료	-3254
▁영입	-3255
▁신분	-3256
▁베스트	-3257
▁미터	-3258
▁약하	-3259
▁겐	-3260
▁학부	-3261
▁US	-3262
▁스프	-3263
▁피아노	-3264
▁소비에트	-3265
이어	-3266
▁승진	-3267
▁파트	-3268
▁사장	-3269
▁항구	-3270
▁가을	-3271
▁벨기에	-3272
▁꼭	-3273
▁포트	-3274
▁외국인	-3275
▁서버	-3276
▁학원	-3277
▁도망	-3278
▁부장	-3279
▁고도	-3280
▁한반도	-3281
▁기도	-3282
▁and	-3283
노스	-3284
▁지붕	-3285
▁진압	-3286
▁국제공항	-3287
▁발언	-3288
ri	-3289
▁1000	-3290
▁58	-3291
▁99	-3292
▁인도네시아	-3293
▁학회	-3294
▁감사	-3295
▁사운드	-3296
오르	-3297
▁누르	-3298
▁탈출	-3299
▁그치	-3300
▁탈락	-3301
▁락	-3302
▁다스	-3303
▁횡	-3304
▁질병	-3305
▁현역	-3306
▁구성원	-3307
▁닥	-3308
▁시호	-3309
▁루이스	-3310
▁머무르	-3311
▁주년	-3312
▁채용	-3313
하마	-3314
▁리더	-3315
▁스토	-3316
▁의도	-3317
▁쫓	-3318
▁브루	-3319
▁참전	-3320
▁창단	-3321
▁콤	-3322
▁통상	-3323
▁트랜	-3324
▁공동체	-3325
▁식품	-3326
▁신청	-3327
▁픽	-3328
▁벼	-3329
▁합격	-3330
▁복무	-3331
▁PC	-3332
▁계통	-3333
▁장수	-3334
천군	-3335
▁임대	-3336
▁응용	-3337
▁변환	-3338
▁1977	-3339
▁모드	-3340
아버지	-3341
저우	-3342
▁조작	-3343
▁망명	-3344
▁포로	-3345
▁요코	-3346
▁SK	-3347
▁위반	-3348
▁임의	-3349
▁작사	-3350
▁민법	-3351
▁에도	-3352
▁문헌	-3353
▁1949	-3354
▁말레이	-3355
▁친일	-3356
▁롯데	-3357
▁화면	-3358
▁띄	-3359
▁마케	-3360
▁페이	-3361
프리	-3362
▁트라	-3363
▁부부	-3364
성군	-3365
▁청구	-3366
▁문장	-3367
▁..	-3368
▁라이트	-3369
▁로스앤	-3370
▁로스앤젤레스	-3371
▁동남	-3372
▁방송국	-3373
igh	-3374
▁절차	-3375
▁FA	-3376
▁요인	-3377
▁저작	-3378
려움	-3379
▁분열	-3380
▁트로	-3381
▁예측	-3382
▁탄소	-3383
▁학과	-3384
▁이치	-3385
▁수영	-3386
▁지급	-3387
▁배출	-3388
▁연출	-3389
▁변형	-3390
문화재	-3391
▁선조	-3392
▁1962	-3393
▁88	-3394
▁신인	-3395
드시	-3396
▁캠퍼스	-3397
▁상원	-3398
▁자녀	-3399
▁엑스	-3400
▁주둔	-3401
▁레오	-3402
정식	-3403
▁조절	-3404
▁수소	-3405
▁선전	-3406
▁시카	-3407
▁칭하	-3408
▁62	-3409
▁코파	-3410
▁메모리	-3411
▁이중	-3412
ation	-3413
▁1967	-3414
▁전동	-3415
▁국무	-3416
▁레스	-3417
▁막부	-3418
▁출간	-3419
▁흉	-3420
▁큐	-3421
▁정기	-3422
▁광장	-3423
▁처형	-3424
타르	-3425
▁기호	-3426
▁수리	-3427
▁화재	-3428
▁선보이	-3429
크스	-3430
▁이승만	-3431
▁실수	-3432
▁황금	-3433
▁서원	-3434
▁취소	-3435
▁힘들	-3436
▁오페	-3437
로그	-3438
카이도	-3439
▁등지	-3440
▁방지	-3441
천시	-3442
▁로켓	-3443
▁r	-3444
▁어떠	-3445
▁콘스탄	-3446
▁기법	-3447
▁생존	-3448
▁오스만	-3449
▁장르	-3450
▁이시	-3451
▁호수	-3452
▁57	-3453
▁증상	-3454
▁왕자	-3455
▁서구	-3456
▁남서	-3457
▁는가	-3458
▁You	-3459
▁흑인	-3460
▁동작	-3461
▁카메라	-3462
수록	-3463
▁동성	-3464
▁앵	-3465
▁연안	-3466
▁현지	-3467
▁루트	-3468
▁개조	-3469
브리	-3470
▁반드시	-3471
라드	-3472
▁예비	-3473
▁히트	-3474
▁늦	-3475
▁롱	-3476
▁희망	-3477
아나	-3478
▁제대로	-3479
▁Ch	-3480
▁고지	-3481
▁위상	-3482
▁좌우	-3483
포르	-3484
▁맞서	-3485
▁농구	-3486
▁여단	-3487
▁기체	-3488
▁고치	-3489
▁전주	-3490
▁무덤	-3491
▁싸움	-3492
▁임진	-3493
▁공정	-3494
▁분명	-3495
▁톱	-3496
▁크리	-3497
▁노리	-3498
▁일본군	-3499
▁진주	-3500
▁천연	-3501
▁도전	-3502
▁맞이	-3503
▁181	-3504
▁전면	-3505
▁파악	-3506
▁터널	-3507
▁동아	-3508
▁코르	-3509
▁엄청	-3510
▁둘째	-3511
▁으려	-3512
▁전형	-3513
▁꺾	-3514
▁흘	-3515
▁독특	-3516
▁압력	-3517
▁해리	-3518
▁1966	-3519
nd	-3520
▁스탠	-3521
▁묵	-3522
▁특이	-3523
▁돌리	-3524
▁목소리	-3525
방송	-3526
▁우려	-3527
▁이온	-3528
▁66	-3529
바라	-3530
라이언	-3531
▁%,	-3532
▁물체	-3533
▁미국인	-3534
▁녹색	-3535
▁리처	-3536
▁매일	-3537
▁법정	-3538
이치	-3539
▁경로	-3540
▁글자	-3541
▁그레이	-3542
▁드물	-3543
▁독립운동	-3544
▁동기	-3545
▁에르	-3546
▁성향	-3547
▁타임	-3548
▁노벨	-3549
▁1965	-3550
▁바둑	-3551
▁덧	-3552
▁부사	-3553
▁인지	-3554
▁68	-3555
▁아리	-3556
▁신뢰	-3557
▁유기	-3558
▁방정식	-3559
▁멘	-3560
▁어디	-3561
▁183	-3562
더스	-3563
▁체코	-3564
▁KBO	-3565
티브	-3566
▁지리	-3567
베스	-3568
▁처벌	-3569
▁묶	-3570
▁클레	-3571
▁가시	-3572
▁개신	-3573
▁추구	-3574
에이	-3575
▁알렉산드	-3576
▁61	-3577
▁방해	-3578
치아	-3579
▁실질	-3580
▁람	-3581
▁밥	-3582
▁분해	-3583
ST	-3584
▁타격	-3585
▁유행	-3586
▁일찍	-3587
▁일식	-3588
▁퀸	-3589
▁김일	-3590
▁완료	-3591
▁간행	-3592
▁웅	-3593
▁분할	-3594
▁찰스	-3595
▁풍부	-3596
르타	-3597
▁내전	-3598
질랜드	-3599
▁홋	-3600
▁화산	-3601
▁찌	-3602
▁아동	-3603
▁부진	-3604
▁사립	-3605
▁삽	-3606
▁빼앗	-3607
▁뉴질랜드	-3608
▁복지	-3609
▁손자	-3610
▁희생	-3611
▁순환	-3612
▁범주	-3613
▁평등	-3614
▁나들	-3615
▁아파트	-3616
▁마르크	-3617
▁나들목	-3618
먼트	-3619
▁마침내	-3620
▁대개	-3621
▁엄청나	-3622
▁별명	-3623
▁1961	-3624
▁비평	-3625
▁플래	-3626
▁집권	-3627
▁오프	-3628
ER	-3629
▁갈색	-3630
▁최다	-3631
▁800	-3632
art	-3633
▁점점	-3634
▁첼	-3635
▁한정	-3636
▁전원	-3637
▁파르	-3638
▁곱	-3639
▁흰	-3640
▁시조	-3641
▁86	-3642
▁으니	-3643
▁한계	-3644
▁분기	-3645
▁사냥	-3646
▁600	-3647
▁리가	-3648
▁가상	-3649
▁대법	-3650
▁판사	-3651
ice	-3652
▁창원	-3653
▁구현	-3654
▁부하	-3655
▁의지	-3656
유럽	-3657
▁기둥	-3658
▁120	-3659
▁근본	-3660
▁모형	-3661
▁분위	-3662
다르	-3663
▁테이	-3664
▁훗	-3665
투스	-3666
▁명확	-3667
▁바치	-3668
▁충격	-3669
▁사원	-3670
▁그라	-3671
ON	-3672
▁교향	-3673
▁완공	-3674
▁일본인	-3675
텐츠	-3676
▁IS	-3677
▁메리	-3678
▁웨이	-3679
▁중기	-3680
▁가까	-3681
▁사형	-3682
▁무게	-3683
▁벡터	-3684
▁사임	-3685
▁확산	-3686
▁들어서	-3687
▁스토리	-3688
▁오페라	-3689
▁프린	-3690
▁출범	-3691
▁날개	-3692
▁마법	-3693
디션	-3694
▁단독	-3695
▁드러내	-3696
▁1919	-3697
▁션	-3698
est	-3699
은행	-3700
▁대공	-3701
▁사마	-3702
▁제이	-3703
피스	-3704
틀러	-3705
▁호주	-3706
▁캔	-3707
▁물리학	-3708
▁레인	-3709
▁상위	-3710
▁적절	-3711
▁렀	-3712
▁뚜	-3713
▁의혹	-3714
▁악화	-3715
ia	-3716
▁통산	-3717
▁훌	-3718
세우	-3719
▁re	-3720
▁이자	-3721
▁의심	-3722
▁명나라	-3723
▁닛	-3724
▁모토	-3725
▁영웅	-3726
▁무시	-3727
▁회담	-3728
▁연구원	-3729
▁알파	-3730
TV	-3731
▁98	-3732
▁유치	-3733
▁당초	-3734
▁서명	-3735
▁굽	-3736
▁가나	-3737
ap	-3738
▁편찬	-3739
▁조종	-3740
▁키우	-3741
▁함락	-3742
▁1944	-3743
▁발굴	-3744
▁이닝	-3745
사자	-3746
▁문명	-3747
▁득표	-3748
사스	-3749
▁추천	-3750
▁쏘	-3751
▁인접	-3752
▁사실상	-3753
▁카라	-3754
ak	-3755
▁넓이	-3756
▁광복	-3757
▁연간	-3758
▁자극	-3759
▁샘	-3760
▁그때	-3761
▁포인트	-3762
▁모임	-3763
▁인증	-3764
라이나	-3765
▁징역	-3766
▁생겨나	-3767
▁개입	-3768
▁도쿠	-3769
▁저술	-3770
▁곽	-3771
▁순간	-3772
▁접촉	-3773
▁각지	-3774
▁진정	-3775
▁포항	-3776
아보	-3777
▁여론	-3778
▁순수	-3779
▁사정	-3780
▁등판	-3781
▁올해	-3782
▁홍보	-3783
연히	-3784
▁프리미어	-3785
▁동서	-3786
▁1941	-3787
▁기리	-3788
▁악기	-3789
▁구원	-3790
▁고속도로	-3791
▁세르비아	-3792
▁독일군	-3793
▁개막	-3794
▁63	-3795
▁골든	-3796
우리	-3797
▁언제	-3798
▁루스	-3799
▁드라이	-3800
▁95	-3801
▁뮤지	-3802
AR	-3803
나가	-3804
▁기기	-3805
▁기온	-3806
▁오랫	-3807
▁탐사	-3808
▁꼽	-3809
메이	-3810
시오	-3811
▁태도	-3812
▁학살	-3813
▁74	-3814
▁여야	-3815
▁DNA	-3816
▁팽	-3817
민주	-3818
버그	-3819
학생	-3820
▁백성	-3821
▁59	-3822
▁실현	-3823
▁공로	-3824
▁Lo	-3825
▁임기	-3826
일리	-3827
▁바위	-3828
무부	-3829
▁한국인	-3830
▁변수	-3831
▁시카고	-3832
믹스	-3833
▁수석	-3834
▁경전	-3835
숭이	-3836
▁성분	-3837
▁행렬	-3838
▁예전	-3839
▁178	-3840
▁네이	-3841
▁공헌	-3842
▁앤드	-3843
▁입법	-3844
▁줄어들	-3845
▁양쪽	-3846
▁추산	-3847
▁오랫동안	-3848
▁보고서	-3849
▁심사	-3850
▁훗날	-3851
▁스마트	-3852
ct	-3853
▁페르시아	-3854
▁닉	-3855
▁감시	-3856
▁아티	-3857
대부	-3858
▁확률	-3859
▁춤	-3860
▁뱅	-3861
▁혼합	-3862
▁자전	-3863
▁튜	-3864
▁균형	-3865
▁방위	-3866
▁1958	-3867
▁프로그래	-3868
▁매장	-3869
▁침략	-3870
▁미쓰	-3871
▁시사	-3872
ul	-3873
▁에드워드	-3874
▁왕실	-3875
▁특별시	-3876
▁분위기	-3877
▁영지	-3878
▁리처드	-3879
러리	-3880
▁IC	-3881
▁1947	-3882
▁출력	-3883
▁신부	-3884
리히	-3885
▁82	-3886
▁피터	-3887
▁160	-3888
▁커뮤	-3889
▁승부	-3890
▁조별	-3891
코스	-3892
▁to	-3893
▁대량	-3894
▁개신교	-3895
▁원형	-3896
▁저녁	-3897
▁멀리	-3898
▁무사	-3899
▁이라크	-3900
▁타자	-3901
▁팔리	-3902
▁76	-3903
▁단편	-3904
▁안토	-3905
▁1956	-3906
▁경남	-3907
▁대선	-3908
▁프라이	-3909
▁;/	-3910
▁다케	-3911
이너	-3912
▁줄기	-3913
▁기울	-3914
▁72	-3915
▁승객	-3916
▁권위	-3917
▁미야	-3918
▁에서부터	-3919
▁고르	-3920
▁여왕	-3921
▁시드	-3922
▁텍사스	-3923
▁랜드	-3924
▁제사	-3925
▁그래픽	-3926
▁흐름	-3927
▁발발	-3928
▁프랑크	-3929
▁아이돌	-3930
▁재건	-3931
▁SS	-3932
▁커뮤니	-3933
▁가와	-3934
▁점수	-3935
▁앉	-3936
▁확립	-3937
▁안동	-3938
ie	-3939
무리	-3940
▁우라	-3941
▁동명	-3942
▁바깥	-3943
▁77	-3944
▁복원	-3945
▁작위	-3946
▁긍	-3947
▁일상	-3948
▁데스	-3949
▁참고	-3950
▁석유	-3951
▁비치	-3952
▁교구	-3953
리노	-3954
▁과학자	-3955
▁원수	-3956
▁섞	-3957
▁입력	-3958
▁테스트	-3959
▁침입	-3960
▁복수	-3961
▁비상	-3962
▁1939	-3963
▁수익	-3964
▁잠수	-3965
▁폭탄	-3966
▁Th	-3967
▁어깨	-3968
▁시상	-3969
메리칸	-3970
▁67	-3971
레나	-3972
▁당국	-3973
▁리버	-3974
▁겹	-3975
▁젠	-3976
▁심지	-3977
▁브라운	-3978
▁축구단	-3979
▁신자	-3980
▁민중	-3981
▁복음	-3982
▁도요	-3983
▁사자	-3984
▁덜	-3985
▁일시	-3986
▁자식	-3987
레옹	-3988
▁본질	-3989
▁타워	-3990
▁포켓	-3991
ud	-3992
▁계층	-3993
▁기소	-3994
▁더블	-3995
일스	-3996
▁병합	-3997
▁재배	-3998
▁AFC	-3999
▁연예	-4000
▁나폴레옹	-4001
▁한글	-4002
▁시마	-4003
마르	-4004
▁주최	-4005
▁대왕	-4006
▁그렇게	-4007
▁가공	-4008
▁신고	-4009
▁혁신	-4010
▁부지	-4011
▁도모	-4012
ly	-4013
에른	-4014
▁가량	-4015
이센	-4016
▁끼치	-4017
▁다운	-4018
▁파워	-4019
▁정수	-4020
og	-4021
▁빅토	-4022
▁동양	-4023
▁빌보드	-4024
▁지형	-4025
▁85	-4026
▁사제	-4027
▁가담	-4028
▁보물	-4029
▁대성	-4030
▁창작	-4031
▁내셔널	-4032
th	-4033
▁공중	-4034
▁평안	-4035
▁거듭	-4036
▁힌	-4037
▁듯이	-4038
마니아	-4039
▁1954	-4040
▁움직임	-4041
ist	-4042
▁폐쇄	-4043
▁암호	-4044
▁깃	-4045
레인	-4046
▁가설	-4047
▁노출	-4048
▁인쇄	-4049
▁후계	-4050
아티아	-4051
▁크로아티아	-4052
▁훈장	-4053
▁국기	-4054
▁산화	-4055
▁쌀	-4056
▁구글	-4057
▁급제	-4058
▁총회	-4059
▁평론	-4060
ight	-4061
▁고통	-4062
왜란	-4063
▁비서	-4064
▁1952	-4065
▁임진왜란	-4066
▁고기	-4067
▁참모	-4068
아지	-4069
AS	-4070
▁력	-4071
▁다소	-4072
▁가이	-4073
▁세리	-4074
▁탱	-4075
▁들이	-4076
▁실력	-4077
▁채우	-4078
▁보상	-4079
▁전신	-4080
▁대지	-4081
▁73	-4082
▁후속	-4083
▁보살	-4084
▁상관	-4085
느리	-4086
▁오가	-4087
▁박정희	-4088
▁바닥	-4089
▁아테네	-4090
▁셔	-4091
▁동방	-4092
▁라스	-4093
조합	-4094
▁96	-4095
▁그만	-4096
▁김대	-4097
▁행복	-4098
▁발음	-4099
아하	-4100
▁따로	-4101
▁조조	-4102
▁탈퇴	-4103
▁절반	-4104
▁뮤지컬	-4105
▁스타디	-4106
▁오카	-4107
▁타운	-4108
▁국정	-4109
▁81	-4110
▁비례	-4111
바로	-4112
▁인용	-4113
▁*	-4114
▁무한	-4115
▁Al	-4116
필더	-4117
▁개설	-4118
▁도덕	-4119
▁미드필더	-4120
▁수도원	-4121
▁피해자	-4122
▁불만	-4123
▁소득	-4124
▁심장	-4125
▁뷰	-4126
▁뤼	-4127
하여	-4128
▁가까이	-4129
▁좋아하	-4130
▁ᆯ지	-4131
▁장남	-4132
▁78	-4133
▁부담	-4134
▁청주	-4135
AT	-4136
▁로봇	-4137
▁재학	-4138
▁살리	-4139
체스터	-4140
▁전남	-4141
▁전투기	-4142
▁화이트	-4143
▁손상	-4144
▁처하	-4145
▁화장	-4146
▁센트	-4147
▁안드로	-4148
의정	-4149
▁전직	-4150
▁바이에른	-4151
▁여섯	-4152
▁이혼	-4153
▁지향	-4154
▁뮌	-4155
▁중력	-4156
타이	-4157
▁김성	-4158
▁는다는	-4159
▁아트	-4160
▁하인	-4161
▁께	-4162
너스	-4163
▁포스트	-4164
▁녀	-4165
▁교리	-4166
▁천안	-4167
▁국군	-4168
▁주력	-4169
▁산소	-4170
▁블라	-4171
▁보르	-4172
▁작동	-4173
▁콘스탄티	-4174
▁인생	-4175
▁붓	-4176
▁1959	-4177
▁검토	-4178
▁202	-4179
▁NH	-4180
▁백만	-4181
▁총장	-4182
▁지사	-4183
▁레알	-4184
▁생물학	-4185
▁마무리	-4186
▁177	-4187
BA	-4188
▁당나라	-4189
ess	-4190
▁윗	-4191
▁관여	-4192
▁빌딩	-4193
직자	-4194
▁질환	-4195
▁와이	-4196
자치	-4197
인물	-4198
토스	-4199
▁사무소	-4200
▁심지어	-4201
▁Li	-4202
▁상실	-4203
▁기상	-4204
▁포스	-4205
▁화합	-4206
▁황후	-4207
▁91	-4208
▁71	-4209
▁호소	-4210
▁아웃	-4211
▁AT	-4212
▁문신	-4213
▁설득	-4214
▁패션	-4215
▁메시지	-4216
▁상역	-4217
▁피부	-4218
▁선박	-4219
▁사우스	-4220
▁사유	-4221
▁;,	-4222
가락	-4223
▁유통	-4224
▁DV	-4225
▁가마	-4226
▁개방	-4227
▁신사	-4228
클리	-4229
▁처분	-4230
▁일컫	-4231
스트라	-4232
세포	-4233
쿠스	-4234
▁수요	-4235
▁분노	-4236
▁오직	-4237
▁결의	-4238
▁프로이센	-4239
▁가슴	-4240
▁액션	-4241
▁골드	-4242
▁1942	-4243
▁승려	-4244
▁하원	-4245
▁의대	-4246
▁규제	-4247
▁햄	-4248
▁이명	-4249
▁가요	-4250
▁연습	-4251
▁넘어가	-4252
▁모터	-4253
▁내려오	-4254
▁역학	-4255
▁약물	-4256
▁혼인	-4257
▁적합	-4258
▁동해	-4259
▁글로벌	-4260
▁페이지	-4261
▁김일성	-4262
▁매체	-4263
▁조카	-4264
▁구매	-4265
▁디스크	-4266
▁선임	-4267
▁모바	-4268
▁위대	-4269
▁심판	-4270
▁좌상	-4271
▁그린	-4272
드리히	-4273
▁개성	-4274
▁왕비	-4275
▁87	-4276
IV	-4277
▁통화	-4278
▁잭슨	-4279
▁진단	-4280
▁위키	-4281
미야	-4282
ub	-4283
▁159	-4284
▁1943	-4285
▁st	-4286
▁소멸	-4287
▁프랭	-4288
▁지나가	-4289
▁1955	-4290
▁긍정	-4291
▁야스	-4292
▁부산광역시	-4293
▁서식지	-4294
IA	-4295
▁발탁	-4296
▁원년	-4297
▁말레이시아	-4298
▁쿠데	-4299
▁크루	-4300
가니	-4301
▁홋카이도	-4302
▁억제	-4303
▁일기	-4304
▁프리드리히	-4305
▁스타디움	-4306
▁퀴	-4307
▁1953	-4308
▁어려움	-4309
▁예방	-4310
▁주석	-4311
▁왕후	-4312
▁진영	-4313
▁음악가	-4314
▁드래프트	-4315
▁톨	-4316
▁테크	-4317
히로	-4318
▁\	-4319
▁불안	-4320
▁필드	-4321
▁무료	-4322
▁1936	-4323
ab	-4324
▁사도	-4325
▁조차	-4326
▁700	-4327
▁싱가	-4328
▁일체	-4329
▁싱가포르	-4330
▁나쁘	-4331
▁사격	-4332
▁굳	-4333
미르	-4334
▁84	-4335
▁사무실	-4336
▁시나	-4337
▁대책	-4338
▁자이언	-4339
▁AP	-4340
▁즉시	-4341
▁힙	-4342
▁유고	-4343
▁태조	-4344
▁폭격	-4345
▁타인	-4346
▁일본어	-4347
▁루마니아	-4348
▁디아	-4349
▁카스	-4350
▁궁전	-4351
▁티베	-4352
▁천주교	-4353
▁리드	-4354
▁유형문화재	-4355
▁인원	-4356
▁쿠데타	-4357
▁쾌	-4358
▁세자	-4359
▁조지아	-4360
▁여우	-4361
데이	-4362
▁막대	-4363
▁상속	-4364
▁1910	-4365
▁이와	-4366
버리	-4367
▁모바일	-4368
▁정차	-4369
▁기동	-4370
▁크로스	-4371
▁김종	-4372
▁자는	-4373
▁창당	-4374
▁몰리	-4375
▁전북	-4376
▁깊이	-4377
▁연설	-4378
▁대체로	-4379
▁스티븐	-4380
주군	-4381
▁사라	-4382
유산	-4383
ine	-4384
▁후쿠오카	-4385
▁닫	-4386
올리	-4387
▁전동차	-4388
▁히틀러	-4389
▁Re	-4390
▁오이	-4391
▁구입	-4392
▁딜	-4393
▁요금	-4394
▁97	-4395
▁학사	-4396
▁진격	-4397
▁전당	-4398
▁딘	-4399
▁개칭	-4400
▁챔피언십	-4401
달리	-4402
▁남아프리카	-4403
▁아메리칸	-4404
구리	-4405
▁독재	-4406
▁강릉	-4407
▁1957	-4408
▁원주민	-4409
란색	-4410
우치	-4411
▁알바	-4412
▁발명	-4413
▁자국	-4414
▁조상	-4415
▁대우	-4416
▁늘리	-4417
▁추방	-4418
▁검색	-4419
▁초점	-4420
▁알고리	-4421
▁느낌	-4422
구치	-4423
▁부동	-4424
머리	-4425
▁사과	-4426
▁필수	-4427
▁스미스	-4428
ew	-4429
▁본명	-4430
베르트	-4431
▁콘텐츠	-4432
▁광범	-4433
▁타이거	-4434
독부	-4435
▁휴대	-4436
▁수호	-4437
▁생태	-4438
▁음성	-4439
▁전송	-4440
▁흔하	-4441
▁담기	-4442
▁동북	-4443
▁기다리	-4444
▁1914	-4445
▁급격	-4446
▁세트	-4447
▁69	-4448
▁렀다	-4449
▁사기	-4450
원경	-4451
▁테마	-4452
▁신장	-4453
▁메이지	-4454
▁천만	-4455
다랗	-4456
▁빚	-4457
▁끝내	-4458
▁이즈	-4459
▁92	-4460
시스코	-4461
▁이마	-4462
▁덩	-4463
▁주소	-4464
▁인디언	-4465
▁알고리즘	-4466
ue	-4467
▁수업	-4468
▁="	-4469
미니	-4470
▁업적	-4471
▁포켓몬	-4472
▁잡히	-4473
▁핫	-4474
▁똑	-4475
▁연락	-4476
▁완벽	-4477
▁끌어	-4478
▁신도	-4479
▁이내	-4480
▁토론토	-4481
▁도마	-4482
▁게다가	-4483
▁게르	-4484
▁후임	-4485
▁최우	-4486
▁1900	-4487
▁불가리아	-4488
▁세부	-4489
▁1938	-4490
▁상인	-4491
▁코리아	-4492
▁클로	-4493
▁림	-4494
▁섹	-4495
▁서술	-4496
▁전술	-4497
▁랄	-4498
▁닥터	-4499
▁스프링	-4500
래프트	-4501
▁펑	-4502
▁려면	-4503
▁스탈	-4504
지사	-4505
▁부위	-4506
▁화려	-4507
▁유효	-4508
▁다스리	-4509
▁고급	-4510
▁물건	-4511
▁고시	-4512
▁라이프	-4513
▁미술관	-4514
EC	-4515
▁석사	-4516
▁숨기	-4517
다니	-4518
▁배포	-4519
▁주니어	-4520
▁언덕	-4521
▁재즈	-4522
▁101	-4523
▁노트	-4524
▁질문	-4525
▁소비자	-4526
비히	-4527
▁바르셀	-4528
▁연평	-4529
▁바르셀로나	-4530
▁암컷	-4531
▁각국	-4532
▁늑	-4533
총리	-4534
▁안드	-4535
▁오키	-4536
▁1918	-4537
▁HD	-4538
▁영양	-4539
▁마르크스	-4540
▁01	-4541
로지	-4542
▁해발	-4543
▁립	-4544
자키	-4545
▁라틴어	-4546
리그	-4547
▁개량	-4548
▁윙	-4549
▁내놓	-4550
▁소형	-4551
산화	-4552
▁손실	-4553
▁랩	-4554
▁느냐	-4555
▁마스터	-4556
▁선형	-4557
▁실천	-4558
▁료	-4559
▁고위	-4560
▁백인	-4561
▁일련	-4562
▁DVD	-4563
▁등장인물	-4564
여금	-4565
총독부	-4566
▁조선총독부	-4567
▁사퇴	-4568
▁언스	-4569
▁집회	-4570
▁웰	-4571
▁풋	-4572
▁유산	-4573
▁라우	-4574
▁상주	-4575
▁화석	-4576
▁1951	-4577
▁저자	-4578
▁프랑스군	-4579
▁갑자기	-4580
▁1932	-4581
▁시내버스	-4582
제국	-4583
▁감각	-4584
▁추기	-4585
▁경비	-4586
▁반사	-4587
▁운항	-4588
BM	-4589
▁미스	-4590
▁영주	-4591
▁주체	-4592
▁계곡	-4593
▁국적	-4594
▁알레	-4595
▁개별	-4596
▁메달	-4597
▁on	-4598
▁격파	-4599
▁결론	-4600
▁블록	-4601
▁1937	-4602
▁{	-4603
▁정교회	-4604
▁선포	-4605
▁의문	-4606
▁차단	-4607
무늬	-4608
▁짝	-4609
▁말리	-4610
▁번지	-4611
▁용인	-4612
▁거짓	-4613
▁고객	-4614
▁미시	-4615
▁자본주의	-4616
▁만든	-4617
▁마틴	-4618
민주당	-4619
▁상수	-4620
▁진학	-4621
필드	-4622
▁대만	-4623
▁부친	-4624
가시	-4625
▁설치류	-4626
▁엘리자	-4627
펙트	-4628
▁올스타	-4629
▁넥	-4630
▁흰색	-4631
▁이웃	-4632
▁89	-4633
▁첩	-4634
▁화제	-4635
▁둥글	-4636
▁광범위	-4637
▁재개	-4638
▁당원	-4639
바키아	-4640
▁방언	-4641
▁찬성	-4642
▁후계자	-4643
▁실업	-4644
▁182	-4645
▁1935	-4646
▁사양	-4647
▁환승	-4648
▁비스	-4649
▁칭호	-4650
▁타율	-4651
ect	-4652
▁우크라	-4653
▁되돌	-4654
▁항의	-4655
▁93	-4656
▁트레이드	-4657
▁수치	-4658
▁비행기	-4659
▁분교	-4660
▁크라	-4661
▁기부	-4662
▁뮌헨	-4663
▁이스트	-4664
▁데리	-4665
▁구상	-4666
▁고양이	-4667
▁꾸준	-4668
▁로렌	-4669
▁추기경	-4670
▁Be	-4671
▁사찰	-4672
동생	-4673
▁베리	-4674
▁허락	-4675
▁퀘	-4676
▁항공사	-4677
사전	-4678
▁탄압	-4679
▁파티	-4680
▁질서	-4681
▁수백	-4682
▁중추	-4683
▁커버	-4684
▁경제학	-4685
▁시트	-4686
▁싱어	-4687
▁증언	-4688
▁구멍	-4689
▁최후	-4690
▁발간	-4691
▁체험	-4692
▁웃	-4693
▁촉진	-4694
▁반지	-4695
▁겉	-4696
▁분화	-4697
▁면역	-4698
▁어요	-4699
▁자산	-4700
▁회로	-4701
▁극단	-4702
▁남녀	-4703
▁클리	-4704
▁덧붙이	-4705
▁이념	-4706
다수	-4707
▁목성	-4708
▁마주	-4709
센트	-4710
▁법학	-4711
▁화폐	-4712
▁곡선	-4713
▁공신	-4714
▁소문	-4715
▁소화	-4716
▁양산	-4717
▁마루	-4718
▁내세우	-4719
▁옵	-4720
▁습격	-4721
▁쿨	-4722
▁아티스트	-4723
▁푸르	-4724
▁성남	-4725
▁영원	-4726
저스	-4727
런스	-4728
▁소위	-4729
▁가속	-4730
▁개척	-4731
ore	-4732
▁기에	-4733
▁클래식	-4734
▁시모	-4735
▁대법원	-4736
리우스	-4737
슈타인	-4738
▁94	-4739
▁보편	-4740
▁축소	-4741
▁OS	-4742
▁1933	-4743
▁탄핵	-4744
▁강남	-4745
▁소집	-4746
▁잠수함	-4747
▁물고기	-4748
▁탕	-4749
▁FM	-4750
▁운송	-4751
▁티베트	-4752
▁수십	-4753
▁유배	-4754
our	-4755
▁쿼	-4756
▁툴	-4757
▁펴	-4758
리나	-4759
▁약화	-4760
IN	-4761
▁충분히	-4762
▁선호	-4763
▁아오	-4764
▁지수	-4765
▁1928	-4766
▁하여금	-4767
▁그리하여	-4768
▁핸	-4769
▁동화	-4770
▁혼자	-4771
▁원시	-4772
▁군부	-4773
▁CP	-4774
려가	-4775
돼지	-4776
른바	-4777
▁영구	-4778
▁태종	-4779
▁전적	-4780
▁무너지	-4781
도사	-4782
▁조항	-4783
▁경사	-4784
▁당신	-4785
▁주일	-4786
▁직무	-4787
▁동경	-4788
▁누스	-4789
▁어둡	-4790
▁지불	-4791
▁매치	-4792
▁지나치	-4793
▁팩	-4794
▁칠레	-4795
ell	-4796
▁이른바	-4797
▁1924	-4798
▁뼈	-4799
▁시신	-4800
▁프랑스어	-4801
▁걷	-4802
▁콜로	-4803
공사	-4804
▁국토	-4805
▁멈	-4806
▁용도	-4807
▁틈	-4808
▁이행	-4809
▁간부	-4810
▁세월	-4811
▁정통	-4812
프레	-4813
▁발레	-4814
▁개명	-4815
▁재능	-4816
▁상대식	-4817
▁79	-4818
▁정면	-4819
▁댄스	-4820
▁전망	-4821
▁조기	-4822
▁토대	-4823
▁익스	-4824
▁토마스	-4825
▁사막	-4826
들리	-4827
벤트	-4828
▁메트로	-4829
▁09	-4830
▁김해	-4831
▁반하	-4832
닉스	-4833
▁펀	-4834
▁실내	-4835
▁110	-4836
▁손해	-4837
▁형상	-4838
▁입대	-4839
▁콜롬	-4840
사이	-4841
▁따오	-4842
▁종사	-4843
▁이재	-4844
▁프로그래밍	-4845
▁의정부	-4846
▁개장	-4847
▁가난	-4848
▁대칭	-4849
▁회색	-4850
▁브로	-4851
▁단순히	-4852
슬링	-4853
티스	-4854
▁170	-4855
▁진실	-4856
▁쟁	-4857
end	-4858
▁러브	-4859
▁04	-4860
▁구름	-4861
▁동굴	-4862
▁판정	-4863
▁액체	-4864
▁열매	-4865
▁지중	-4866
▁합동	-4867
▁오버	-4868
▁수컷	-4869
▁존스	-4870
▁토착	-4871
▁파키스탄	-4872
▁ㅓㅆ	-4873
▁초상	-4874
과이	-4875
▁무력	-4876
어도	-4877
▁무용	-4878
▁베네치아	-4879
▁자랑	-4880
코프	-4881
▁안토니	-4882
▁해제	-4883
ill	-4884
▁유아	-4885
▁법안	-4886
브라	-4887
ain	-4888
▁경고	-4889
▁당대	-4890
▁흔적	-4891
▁뻗	-4892
▁엄격	-4893
▁하와	-4894
▁전제	-4895
▁사이드	-4896
▁로즈	-4897
▁자르	-4898
베리아	-4899
▁원자력	-4900
▁양국	-4901
테스	-4902
▁부리	-4903
▁고교	-4904
ID	-4905
▁총재	-4906
▁플로리	-4907
사르	-4908
▁08	-4909
▁재생	-4910
▁대승	-4911
▁불러	-4912
ers	-4913
▁우에	-4914
▁주문	-4915
▁인민군	-4916
▁틴	-4917
▁안티	-4918
▁퓨	-4919
▁멀티	-4920
▁일단	-4921
▁정류	-4922
▁세로	-4923
▁룸	-4924
▁Co	-4925
▁개찰	-4926
▁오케	-4927
▁부속	-4928
▁스카이	-4929
▁경북	-4930
▁늑대	-4931
▁강도	-4932
▁서방	-4933
▁스톤	-4934
▁장로	-4935
▁분산	-4936
▁힙합	-4937
▁프로토	-4938
▁부서	-4939
▁주재	-4940
▁다큐	-4941
▁대가	-4942
▁오류	-4943
▁83	-4944
▁비잔	-4945
▁마저	-4946
▁안쪽	-4947
▁맡기	-4948
▁쌓이	-4949
▁엉	-4950
▁배열	-4951
▁지표	-4952
페이스	-4953
데르	-4954
▁페리	-4955
▁레닌	-4956
▁벼슬	-4957
▁국방부	-4958
▁MS	-4959
▁한성	-4960
▁호흡	-4961
▁강요	-4962
▁동지	-4963
▁함경	-4964
▁스크린	-4965
▁찾아가	-4966
ard	-4967
▁메탈	-4968
▁혈액	-4969
▁경찰서	-4970
▁중동	-4971
▁추적	-4972
▁할아버지	-4973
▁선로	-4974
▁마감	-4975
▁평면	-4976
▁편의	-4977
▁포드	-4978
▁탓	-4979
▁주자	-4980
▁중지	-4981
고속	-4982
야스	-4983
조선	-4984
▁거스	-4985
▁이벤트	-4986
▁대원	-4987
▁메르	-4988
▁성서	-4989
▁느리	-4990
▁1934	-4991
AN	-4992
▁철거	-4993
▁대사관	-4994
어로	-4995
▁농장	-4996
워하	-4997
키퍼	-4998
▁아프가니	-4999
▁자매	-5000
▁골키퍼	-5001
▁북미	-5002
▁De	-5003
▁투스	-5004
▁입구	-5005
▁스케이	-5006
▁요코하마	-5007
▁빵	-5008
베르크	-5009
▁구사	-5010
▁스탈린	-5011
▁떼	-5012
▁놀이	-5013
▁멈추	-5014
▁보스턴	-5015
▁닐	-5016
▁가볍	-5017
세대	-5018
▁근육	-5019
▁쿠바	-5020
▁판타	-5021
▁거느리	-5022
유키	-5023
▁동구	-5024
▁히어로	-5025
▁장례	-5026
▁정확히	-5027
▁봉기	-5028
▁노동당	-5029
▁본토	-5030
▁광산	-5031
▁130	-5032
▁현존	-5033
공업	-5034
▁Me	-5035
▁페이스	-5036
레오	-5037
▁구로	-5038
▁정조	-5039
▁얀	-5040
▁대동	-5041
▁나이트	-5042
▁야당	-5043
▁토머스	-5044
▁밸	-5045
▁거점	-5046
▁식량	-5047
▁철학자	-5048
아르	-5049
제르	-5050
▁유키	-5051
▁동메달	-5052
드라	-5053
▁뱀	-5054
성기	-5055
▁은메달	-5056
▁젤	-5057
즈니	-5058
▁선물	-5059
▁글리	-5060
▁사망자	-5061
▁카리	-5062
▁항해	-5063
▁코어	-5064
ne	-5065
▁도쿠가와	-5066
▁시계	-5067
▁접속	-5068
▁140	-5069
▁관계자	-5070
▁중계	-5071
▁내려가	-5072
▁부처	-5073
▁대다수	-5074
▁남극	-5075
▁아프가니스탄	-5076
▁사카	-5077
▁맨체스터	-5078
하이	-5079
▁필립	-5080
▁돔	-5081
▁레지	-5082
보내	-5083
▁복사	-5084
▁알렉산더	-5085
▁초청	-5086
▁Sh	-5087
▁김구	-5088
▁모자	-5089
▁풍속	-5090
▁발전소	-5091
▁테르	-5092
▁새끼	-5093
레아	-5094
▁중성	-5095
▁특별히	-5096
▁재판소	-5097
▁칼리지	-5098
위대	-5099
▁안내	-5100
▁건너가	-5101
▁역전	-5102
▁독점	-5103
▁농촌	-5104
돌프	-5105
▁그러므로	-5106
▁훼	-5107
▁교향곡	-5108
▁증권	-5109
▁매주	-5110
안군	-5111
▁화합물	-5112
▁곤충	-5113
▁구리	-5114
▁커다랗	-5115
▁새벽	-5116
▁위안	-5117
▁휘하	-5118
▁겸하	-5119
▁세금	-5120
▁토너	-5121
▁르네	-5122
OR	-5123
▁th	-5124
▁로맨	-5125
크래프트	-5126
▁유력	-5127
▁1931	-5128
▁오염	-5129
▁재임	-5130
▁리아	-5131
▁합리	-5132
▁체육관	-5133
베리	-5134
▁부호	-5135
▁생애	-5136
▁이정	-5137
▁파울	-5138
▁물리치	-5139
▁비중	-5140
▁강등	-5141
▁히로시마	-5142
▁모노	-5143
▁일곱	-5144
▁달라지	-5145
▁간격	-5146
▁타점	-5147
▁코너	-5148
레이크	-5149
▁종전	-5150
▁훌륭	-5151
▁진동	-5152
▁석방	-5153
▁아비	-5154
▁펄	-5155
▁관객	-5156
▁기병	-5157
▁존슨	-5158
▁타카	-5159
▁뚜렷	-5160
▁그리스어	-5161
▁계수	-5162
▁금강	-5163
▁멸종	-5164
▁부품	-5165
▁클래스	-5166
▁감옥	-5167
▁대변	-5168
▁찾아오	-5169
▁명시	-5170
▁문재	-5171
▁미카	-5172
느님	-5173
▁기르	-5174
▁원조	-5175
▁도망치	-5176
밀리	-5177
all	-5178
▁ST	-5179
▁목포	-5180
▁하느님	-5181
▁박근	-5182
▁자유주의	-5183
게이	-5184
▁하사	-5185
▁cod	-5186
▁후퇴	-5187
▁타원	-5188
AM	-5189
▁무늬	-5190
▁1921	-5191
▁심리학	-5192
▁부드	-5193
▁꾼	-5194
▁폭풍	-5195
▁해협	-5196
나르	-5197
▁버지	-5198
▁176	-5199
▁좌파	-5200
▁An	-5201
▁숙종	-5202
▁장점	-5203
▁250	-5204
▁대결	-5205
▁교도	-5206
▁킬로	-5207
▁아이스	-5208
▁지휘관	-5209
▁가구	-5210
▁캠프	-5211
▁수비수	-5212
▁공룡	-5213
▁기생	-5214
▁유발	-5215
▁지칭	-5216
▁그래프	-5217
▁올라오	-5218
ang	-5219
▁마그	-5220
▁목숨	-5221
▁동성애	-5222
널드	-5223
▁유대인	-5224
▁윤리	-5225
▁부드럽	-5226
▁스트라이	-5227
▁토너먼트	-5228
▁덕분	-5229
▁하버	-5230
▁일환	-5231
▁1929	-5232
▁연호	-5233
▁착용	-5234
▁필라	-5235
▁닮	-5236
둥이	-5237
▁소요	-5238
▁첫째	-5239
▁공세	-5240
▁단장	-5241
▁코트	-5242
▁트랜스	-5243
▁빗	-5244
▁강전	-5245
▁비틀	-5246
▁성명	-5247
▁김대중	-5248
▁무겁	-5249
▁칙	-5250
▁조문	-5251
시스트	-5252
▁극복	-5253
▁특허	-5254
▁집필	-5255
수량	-5256
▁수반	-5257
▁아틀	-5258
▁약탈	-5259
▁사관	-5260
▁05	-5261
▁비즈	-5262
▁운동가	-5263
▁스테이션	-5264
▁캡	-5265
▁키스	-5266
▁자이언츠	-5267
▁도메	-5268
▁살아	-5269
▁쯤	-5270
▁기갑	-5271
▁y	-5272
▁는다고	-5273
▁연상	-5274
▁곰	-5275
▁부작	-5276
▁동반	-5277
▁평론가	-5278
▁다다	-5279
▁1923	-5280
▁1925	-5281
산물	-5282
투아	-5283
▁첸	-5284
▁갤럭	-5285
▁조화	-5286
▁라트	-5287
▁잠재	-5288
▁인터페이스	-5289
▁롬	-5290
▁공국	-5291
미아	-5292
슬리	-5293
▁성직자	-5294
▁의석	-5295
▁연평균	-5296
▁삼각	-5297
▁북아메리카	-5298
▁고고	-5299
▁매니	-5300
ss	-5301
▁입사	-5302
▁협약	-5303
▁가끔	-5304
▁건담	-5305
▁램	-5306
▁섬유	-5307
▁도호	-5308
▁지부	-5309
▁과일	-5310
▁요원	-5311
▁플로리다	-5312
마이	-5313
▁딱	-5314
클린	-5315
무게	-5316
▁몸무게	-5317
▁장갑	-5318
▁추대	-5319
▁갤럭시	-5320
▁틱	-5321
▁원장	-5322
타카	-5323
▁발휘	-5324
▁불화	-5325
▁영감	-5326
▁AC	-5327
▁모로	-5328
▁근로	-5329
▁연계	-5330
▁임신	-5331
▁발렌	-5332
▁압축	-5333
▁07	-5334
▁관리자	-5335
▁샤를	-5336
▁중립	-5337
▁고서	-5338
▁영혼	-5339
▁북서쪽	-5340
▁선교사	-5341
▁웨일스	-5342
▁디오	-5343
▁우드	-5344
▁이수	-5345
▁추락	-5346
▁시게	-5347
▁타입	-5348
▁대한제국	-5349
▁살아남	-5350
▁지역구	-5351
ity	-5352
대문	-5353
▁똑같	-5354
카스	-5355
▁모험	-5356
▁카페	-5357
베이스	-5358
추어	-5359
▁고분	-5360
▁유성	-5361
▁남아메리카	-5362
▁영광	-5363
▁트레이	-5364
▁갱	-5365
▁단선	-5366
▁사당	-5367
▁삭제	-5368
▁유비	-5369
▁일자	-5370
▁진술	-5371
키스	-5372
▁박스	-5373
▁망원경	-5374
▁캘리포니아주	-5375
▁수직	-5376
▁페루	-5377
▁161	-5378
▁레벨	-5379
▁둔	-5380
▁채권	-5381
▁리스트	-5382
▁하와이	-5383
▁미분	-5384
▁진흥	-5385
▁북극	-5386
▁필름	-5387
▁이조	-5388
▁서인	-5389
▁압도	-5390
▁주사	-5391
▁결심	-5392
▁꼽히	-5393
▁박근혜	-5394
▁기관차	-5395
▁동인	-5396
▁제약	-5397
▁종로	-5398
▁다이묘	-5399
▁SC	-5400
▁철저	-5401
▁돌파	-5402
▁그랜드	-5403
▁민속	-5404
▁사거리	-5405
▁준우	-5406
▁향토	-5407
▁변신	-5408
ff	-5409
▁부탁	-5410
▁카자	-5411
▁홀로	-5412
▁복구	-5413
▁빅토리아	-5414
▁EP	-5415
▁파운드	-5416
▁성씨	-5417
▁유가	-5418
▁도마뱀	-5419
▁주류	-5420
▁청동	-5421
▁때로	-5422
▁설비	-5423
▁175	-5424
▁교과	-5425
▁프로세서	-5426
▁1922	-5427
▁중시	-5428
▁codice	-5429
▁모음	-5430
▁바오	-5431
▁트럼	-5432
▁피트	-5433
▁청하	-5434
▁삼각형	-5435
▁칼리	-5436
▁엽	-5437
행성	-5438
▁문인	-5439
▁여인	-5440
즈키	-5441
▁수장	-5442
▁레이블	-5443
▁각자	-5444
▁틸	-5445
▁부유	-5446
부사	-5447
▁없애	-5448
▁평생	-5449
▁이날	-5450
▁화가	-5451
▁de	-5452
▁프레임	-5453
일본	-5454
▁명사	-5455
▁부수	-5456
▁중구	-5457
애나	-5458
▁서적	-5459
▁엘리자베스	-5460
▁모래	-5461
태우	-5462
▁My	-5463
▁규슈	-5464
▁윤치	-5465
▁버지니아	-5466
▁인천광역시	-5467
▁무릎	-5468
▁루트비히	-5469
▁고안	-5470
▁유역	-5471
▁투구	-5472
▁공격수	-5473
▁가톨릭교회	-5474
▁음모	-5475
▁1912	-5476
▁지연	-5477
▁토벌	-5478
▁황태	-5479
▁유용	-5480
▁도어	-5481
▁직선	-5482
▁리치	-5483
▁직위	-5484
▁최상	-5485
▁파트너	-5486
오리	-5487
프란	-5488
▁KT	-5489
▁아기	-5490
▁라마	-5491
▁표지	-5492
▁노무	-5493
▁아과	-5494
▁국민당	-5495
메니아	-5496
▁교차로	-5497
▁왕가	-5498
▁Love	-5499
▁164	-5500
▁자치구	-5501
니즘	-5502
▁무인	-5503
▁죠	-5504
양군	-5505
▁크레	-5506
▁무산	-5507
▁수상자	-5508
눅스	-5509
▁구미	-5510
▁간섭	-5511
▁글씨	-5512
▁어워드	-5513
▁네이션	-5514
▁문법	-5515
▁인력	-5516
▁왈	-5517
▁Go	-5518
▁봉사	-5519
▁사토	-5520
ong	-5521
▁포유	-5522
▁동일본	-5523
▁퍼시	-5524
▁""	-5525
▁납치	-5526
▁상처	-5527
▁패턴	-5528
▁리눅스	-5529
▁영조	-5530
▁아르메니아	-5531
▁소설가	-5532
▁블라디	-5533
▁1908	-5534
타운	-5535
▁노비	-5536
▁침해	-5537
▁릭	-5538
▁모니	-5539
멘트	-5540
▁베토	-5541
라이터	-5542
▁지중해	-5543
▁아마추어	-5544
▁장사	-5545
▁SM	-5546
▁벨라	-5547
▁MV	-5548
▁경유	-5549
▁랭킹	-5550
▁자책	-5551
▁1906	-5552
▁목조	-5553
▁호조	-5554
▁보통학교	-5555
야수	-5556
▁WW	-5557
▁실점	-5558
▁연령	-5559
▁건축물	-5560
▁사촌	-5561
▁스케이팅	-5562
▁06	-5563
▁이종	-5564
up	-5565
▁돼지	-5566
▁연소	-5567
▁교역	-5568
▁태자	-5569
보살	-5570
▁토르	-5571
▁전향	-5572
▁베타	-5573
멘터리	-5574
▁남동쪽	-5575
▁제주도	-5576
▁1917	-5577
슬로	-5578
▁과도	-5579
▁마카	-5580
아리	-5581
▁배상	-5582
▁아가	-5583
▁플레	-5584
▁매각	-5585
도니아	-5586
ip	-5587
▁준우승	-5588
사관	-5589
▁히가시	-5590
▁수지	-5591
▁정자	-5592
▁삽입	-5593
▁적응	-5594
▁1927	-5595
▁싫	-5596
▁적어도	-5597
▁크림	-5598
▁다양체	-5599
▁에스파	-5600
마치	-5601
▁JR	-5602
▁육성	-5603
▁조명	-5604
▁커피	-5605
ant	-5606
▁안양	-5607
▁통로	-5608
▁전승	-5609
▁시상식	-5610
IS	-5611
ld	-5612
▁명문	-5613
▁03	-5614
▁앨런	-5615
▁출현	-5616
스팅	-5617
▁쇠퇴	-5618
▁시집	-5619
▁우익	-5620
▁이토	-5621
▁북동쪽	-5622
▁모듈	-5623
▁시아	-5624
▁우루	-5625
▁1907	-5626
▁굿	-5627
ED	-5628
▁스와	-5629
▁과장	-5630
▁몬테	-5631
▁배급	-5632
▁유인	-5633
OM	-5634
▁정서	-5635
▁탐험	-5636
▁BBC	-5637
▁대행	-5638
▁보좌	-5639
▁커지	-5640
영상	-5641
▁호르	-5642
▁렉	-5643
▁옹호	-5644
▁외계	-5645
▁인자	-5646
▁럭	-5647
▁석조	-5648
▁노인	-5649
▁전작	-5650
▁색상	-5651
▁다큐멘터리	-5652
▁별로	-5653
▁폐기	-5654
▁표본	-5655
▁부동산	-5656
▁1926	-5657
▁흙	-5658
▁창간	-5659
▁우크라이나	-5660
▁밀라노	-5661
▁체인	-5662
▁관중	-5663
▁사신	-5664
▁항목	-5665
몬드	-5666
▁SN	-5667
▁앱	-5668
▁산타	-5669
▁단행	-5670
▁산악	-5671
▁의병	-5672
▁호남	-5673
▁종족	-5674
▁베토벤	-5675
▁협의회	-5676
▁꺼	-5677
▁험	-5678
▁왕립	-5679
av	-5680
▁168	-5681
▁슐	-5682
▁상하이	-5683
▁탑승	-5684
▁동아시아	-5685
▁송라이터	-5686
▁자문	-5687
페이지	-5688
▁아무런	-5689
▁He	-5690
▁문하	-5691
▁대교	-5692
▁무선	-5693
▁포크	-5694
생물	-5695
▁해설	-5696
▁유입	-5697
이즈	-5698
티움	-5699
▁노조	-5700
스토	-5701
▁머물	-5702
▁선제	-5703
▁수감	-5704
▁연금	-5705
▁내장	-5706
▁PD	-5707
▁지름	-5708
▁자전거	-5709
▁놀라	-5710
▁세조	-5711
▁패러	-5712
▁묘지	-5713
▁꾸미	-5714
ind	-5715
▁겨우	-5716
▁비전	-5717
▁상영	-5718
▁연고지	-5719
▁스틸	-5720
슬라	-5721
▁급속	-5722
▁안보	-5723
런트	-5724
튜브	-5725
▁디즈니	-5726
▁사료	-5727
다이라	-5728
▁진지	-5729
▁헤드	-5730
▁NHK	-5731
▁아울	-5732
▁에릭	-5733
▁162	-5734
▁꾸준히	-5735
로프	-5736
▁기종	-5737
▁동사	-5738
▁합계	-5739
▁166	-5740
▁레이다	-5741
▁기압	-5742
▁좌익	-5743
▁하천	-5744
▁최우수	-5745
▁1905	-5746
ame	-5747
▁정사	-5748
▁홈페이지	-5749
▁제후	-5750
se	-5751
▁기름	-5752
▁유튜브	-5753
AC	-5754
▁콩고	-5755
▁오리지	-5756
텐도	-5757
▁닌텐도	-5758
▁룩	-5759
▁물려	-5760
▁민족주의	-5761
▁시에	-5762
▁대조	-5763
▁원로	-5764
▁비평가	-5765
나카	-5766
▁Sp	-5767
▁||	-5768
▁엄마	-5769
▁예외	-5770
▁유신	-5771
▁기하학	-5772
▁비단	-5773
▁ㄴ다고	-5774
▁산지	-5775
▁151	-5776
▁묻히	-5777
▁바이올	-5778
▁문화유산	-5779
세스	-5780
▁독일어	-5781
려나	-5782
브스	-5783
▁버그	-5784
총장	-5785
페인	-5786
▁소니	-5787
▁조선인	-5788
▁뚫	-5789
▁스승	-5790
▁시외	-5791
▁가쓰	-5792
▁주말	-5793
▁색깔	-5794
▁바라보	-5795
▁증기	-5796
▁트럭	-5797
▁데이터베이스	-5798
ry	-5799
▁요미	-5800
▁흥미	-5801
▁158	-5802
ES	-5803
▁수천	-5804
▁참조	-5805
▁품질	-5806
▁사이클	-5807
▁수명	-5808
▁역과	-5809
▁곧바로	-5810
▁모집	-5811
▁목격	-5812
플레이	-5813
▁우르	-5814
▁스페셜	-5815
지마	-5816
▁도리	-5817
▁리듬	-5818
▁드래곤	-5819
▁셋째	-5820
▁운명	-5821
▁커뮤니티	-5822
무네	-5823
스케	-5824
▁마일	-5825
▁아크	-5826
▁쥬	-5827
어트	-5828
▁상소	-5829
▁광역	-5830
▁선진	-5831
▁칩	-5832
ith	-5833
▁정류장	-5834
▁크리스토	-5835
▁유고슬	-5836
▁유고슬라비아	-5837
엘라	-5838
▁문과	-5839
▁지바	-5840
▁리얼	-5841
▁조르	-5842
▁나폴리	-5843
▁주의자	-5844
▁원산	-5845
▁반환	-5846
▁대안	-5847
▁악장	-5848
▁점성	-5849
스티벌	-5850
▁십자군	-5851
▁랴	-5852
잡히	-5853
▁이오	-5854
▁주거	-5855
ort	-5856
▁02	-5857
▁신비	-5858
▁야생	-5859
▁옛날	-5860
▁자바	-5861
▁협의	-5862
▁라이온	-5863
▁가미	-5864
▁라이벌	-5865
▁빨리	-5866
▁입증	-5867
▁할리	-5868
▁페스티벌	-5869
▁구마	-5870
▁남서쪽	-5871
▁일행	-5872
▁방안	-5873
▁수수	-5874
▁유닛	-5875
▁주파	-5876
▁이리	-5877
▁레이스	-5878
▁주한	-5879
▁도심	-5880
▁사리	-5881
▁플루	-5882
▁입문	-5883
▁토니	-5884
▁브라이언	-5885
▁스피드	-5886
▁무관	-5887
프란시스코	-5888
ok	-5889
▁기점	-5890
▁되찾	-5891
▁향년	-5892
▁운반	-5893
▁오디션	-5894
▁샌프란시스코	-5895
▁인텔	-5896
▁기용	-5897
▁동치	-5898
▁재무	-5899
▁특급	-5900
▁사면	-5901
▁날리	-5902
▁베이스볼	-5903
▁사직	-5904
▁안드로이드	-5905
▁적색	-5906
해군	-5907
▁저지르	-5908
▁배제	-5909
▁한나라	-5910
▁서북	-5911
▁쿠르	-5912
▁디자이너	-5913
▁콜롬비아	-5914
▁한나라당	-5915
회의	-5916
▁단층	-5917
▁동영상	-5918
▁연주자	-5919
▁출판사	-5920
▁마라	-5921
▁미네	-5922
▁미만	-5923
▁인치	-5924
▁기념물	-5925
프스	-5926
▁케이블	-5927
▁마케도니아	-5928
▁와카	-5929
▁정교	-5930
▁오리지널	-5931
루살	-5932
▁렌즈	-5933
▁분배	-5934
▁마스	-5935
▁직장	-5936
▁초래	-5937
▁묘소	-5938
▁1904	-5939
▁신임	-5940
▁출산	-5941
▁부시	-5942
▁평소	-5943
▁프랜	-5944
▁복제	-5945
루살렘	-5946
▁지휘자	-5947
▁개수	-5948
▁석탑	-5949
▁알라	-5950
쳐지	-5951
▁부패	-5952
▁당사자	-5953
▁예술가	-5954
▁템	-5955
▁폭스	-5956
▁스테이지	-5957
▁예언	-5958
▁긴급	-5959
▁사로	-5960
▁왕족	-5961
▁관장	-5962
▁교전	-5963
▁서경	-5964
▁165	-5965
프라	-5966
▁진도	-5967
▁콘스탄티노	-5968
▁용기	-5969
▁기재	-5970
▁단종	-5971
▁의거	-5972
▁챌	-5973
▁Un	-5974
▁좌석	-5975
▁파생	-5976
▁마쓰다이라	-5977
▁센트럴	-5978
▁급행	-5979
▁모순	-5980
▁상무	-5981
▁자사	-5982
▁입히	-5983
▁판타지	-5984
▁신하	-5985
▁Wh	-5986
▁154	-5987
▁내륙	-5988
▁계단	-5989
리케이션	-5990
▁가게	-5991
ob	-5992
ord	-5993
▁여동생	-5994
▁수면	-5995
▁오타	-5996
▁트레	-5997
▁파나	-5998
▁Se	-5999
▁동전	-6000
문학	-6001
▁합작	-6002
▁무신	-6003
▁비즈니스	-6004
교육	-6005
▁무슬	-6006
▁예루살렘	-6007
qu	-6008
▁권고	-6009
▁받침	-6010
▁겹치	-6011
▁사르	-6012
터스	-6013
▁압박	-6014
페이	-6015
▁신용	-6016
▁용산	-6017
▁163	-6018
▁156	-6019
▁바이올린	-6020
▁항일	-6021
▁스펙트	-6022
▁정계	-6023
▁도메인	-6024
▁링크	-6025
▁연애	-6026
▁무슬림	-6027
가스	-6028
▁DJ	-6029
모니	-6030
우옌	-6031
▁사범	-6032
▁167	-6033
▁가득	-6034
▁그랑	-6035
▁크리스티	-6036
▁SF	-6037
디스	-6038
려오	-6039
▁여신	-6040
▁리투아	-6041
▁리투아니아	-6042
▁상임	-6043
▁진상	-6044
▁스펙트럼	-6045
ate	-6046
▁스쿨	-6047
▁호환	-6048
경기	-6049
▁끼리	-6050
▁회원국	-6051
▁깔	-6052
▁AM	-6053
▁훼손	-6054
▁900	-6055
식물	-6056
▁대단	-6057
▁아인	-6058
▁전염	-6059
▁타마	-6060
랑이	-6061
▁이지	-6062
▁밀접	-6063
▁서울시	-6064
PS	-6065
지르	-6066
▁비로	-6067
▁충남	-6068
▁시달리	-6069
▁자회사	-6070
카르	-6071
▁조국	-6072
▁스마트폰	-6073
▁조류	-6074
▁이명박	-6075
▁씌	-6076
▁챌린	-6077
▁한양	-6078
▁게시	-6079
▁노무현	-6080
▁장편	-6081
껍질	-6082
▁고립	-6083
▁니스	-6084
▁바그	-6085
▁번식	-6086
▁얼음	-6087
▁우지	-6088
▁발효	-6089
▁어항	-6090
▁혜성	-6091
▁샹	-6092
▁미얀	-6093
▁선사	-6094
▁자마	-6095
▁분지	-6096
▁지주	-6097
▁친정	-6098
▁애국	-6099
▁과제	-6100
▁었었	-6101
▁비잔티움	-6102
▁쇼군	-6103
▁끄	-6104
▁무라	-6105
▁교섭	-6106
▁ᆯ수록	-6107
킨스	-6108
▁착륙	-6109
▁일요일	-6110
▁팅	-6111
▁주립	-6112
▁참판	-6113
IC	-6114
▁기아	-6115
▁예능	-6116
▁오다	-6117
▁와중	-6118
▁지장	-6119
▁오케스트라	-6120
▁피렌	-6121
길이	-6122
▁UN	-6123
▁포맷	-6124
커스	-6125
▁식사	-6126
▁성종	-6127
▁시체	-6128
▁139	-6129
▁서브	-6130
잡이	-6131
▁진나라	-6132
▁농도	-6133
▁저기	-6134
▁피스	-6135
▁알바니아	-6136
▁구장	-6137
▁아베	-6138
▁옌	-6139
▁융합	-6140
▁파동	-6141
▁선두	-6142
▁차관	-6143
▁최신	-6144
▁요크	-6145
럼비아	-6146
▁AS	-6147
▁대령	-6148
▁부흥	-6149
▁145	-6150
▁행정부	-6151
▁하트	-6152
로디	-6153
예프	-6154
▁쿠스	-6155
▁디비전	-6156
▁낱	-6157
ET	-6158
▁바티	-6159
▁유하	-6160
▁기타리스트	-6161
▁뜨겁	-6162
부인	-6163
▁월간	-6164
▁련	-6165
▁강연	-6166
▁발족	-6167
▁소나	-6168
▁용량	-6169
▁아이디	-6170
▁잊	-6171
▁보전	-6172
▁부자	-6173
▁야기	-6174
▁위주	-6175
▁하드웨어	-6176
▁거인	-6177
▁충성	-6178
▁개발자	-6179
▁주머니	-6180
▁킬로미터	-6181
ast	-6182
▁전이	-6183
▁투명	-6184
▁마리오	-6185
▁해인	-6186
▁브라우	-6187
▁간접	-6188
▁공과	-6189
▁착수	-6190
▁학파	-6191
▁부통령	-6192
▁지질	-6193
▁스트리트	-6194
▁번주	-6195
▁MVP	-6196
DP	-6197
▁관찰사	-6198
▁부도	-6199
▁몸길이	-6200
▁피렌체	-6201
▁아이디어	-6202
▁고조	-6203
▁임상	-6204
▁사사	-6205
▁응우옌	-6206
▁굉	-6207
▁김동	-6208
랑크	-6209
▁전임	-6210
▁페어	-6211
▁관광객	-6212
▁마케팅	-6213
▁미나미	-6214
▁전지	-6215
▁측근	-6216
▁넬	-6217
수아	-6218
▁마산	-6219
▁제네	-6220
▁아세	-6221
데이트	-6222
▁중국어	-6223
▁규명	-6224
▁배정	-6225
▁완화	-6226
▁거스르	-6227
if	-6228
▁하노	-6229
▁업데이트	-6230
▁이에	-6231
▁전류	-6232
▁정벌	-6233
▁전두	-6234
▁1896	-6235
▁점유	-6236
▁HIV	-6237
▁맥스	-6238
트니	-6239
▁성공회	-6240
▁샬	-6241
레이터	-6242
▁피에르	-6243
▁권유	-6244
▁차체	-6245
ack	-6246
▁DS	-6247
▁공용	-6248
▁사바	-6249
▁귀환	-6250
란트	-6251
ive	-6252
▁경선	-6253
트롤	-6254
▁중도	-6255
▁형법	-6256
▁보드	-6257
▁공전	-6258
▁여덟	-6259
▁제의	-6260
▁출구	-6261
IT	-6262
균관	-6263
▁로빈	-6264
▁턴	-6265
ure	-6266
▁스콧	-6267
▁트윈	-6268
주곡	-6269
▁뱅크	-6270
▁친선	-6271
▁게이트	-6272
▁IP	-6273
▁구동	-6274
▁짙	-6275
어내	-6276
▁연수	-6277
▁성벽	-6278
▁둘러싸이	-6279
▁스타크래프트	-6280
▁젖	-6281
악기	-6282
▁중독	-6283
리티	-6284
▁검증	-6285
▁석탄	-6286
▁오렌	-6287
▁174	-6288
▁존경	-6289
▁살아가	-6290
▁수학자	-6291
▁마운	-6292
▁세례	-6293
▁152	-6294
▁애플리케이션	-6295
▁관습	-6296
▁노동조합	-6297
▁요미우리	-6298
루미	-6299
▁디젤	-6300
▁수산	-6301
▁우즈	-6302
▁지각	-6303
▁플라스	-6304
▁옐	-6305
▁미하	-6306
운서	-6307
츠키	-6308
ock	-6309
▁실용	-6310
▁5000	-6311
▁서열	-6312
▁정찰	-6313
▁피난	-6314
▁조용	-6315
iv	-6316
▁시드니	-6317
▁인과	-6318
▁청와	-6319
▁아나운서	-6320
▁메디	-6321
▁소송법	-6322
▁테일러	-6323
결승	-6324
문관	-6325
▁변동	-6326
▁사명	-6327
▁쇼핑	-6328
▁전장	-6329
▁157	-6330
▁서일본	-6331
▁행진	-6332
▁뷔	-6333
▁리오	-6334
▁청와대	-6335
▁얼마나	-6336
▁전문학교	-6337
▁곁	-6338
▁Ar	-6339
▁시라	-6340
▁꼴	-6341
토미	-6342
▁자면	-6343
▁전진	-6344
▁기울이	-6345
▁사인	-6346
▁밀양	-6347
▁테오	-6348
▁장성	-6349
ck	-6350
▁금성	-6351
▁규격	-6352
▁루수	-6353
▁자율	-6354
▁준공	-6355
▁한화	-6356
▁해전	-6357
▁한강	-6358
▁빌헬	-6359
▁퇴각	-6360
▁호평	-6361
폴리스	-6362
▁프로세스	-6363
▁고사	-6364
▁염색	-6365
▁뿔	-6366
▁고개	-6367
▁번뇌	-6368
▁수신	-6369
▁좌표	-6370
▁다이아	-6371
▁신전	-6372
▁책봉	-6373
▁미스터	-6374
▁하버드	-6375
▁킨	-6376
▁구제	-6377
▁쏟	-6378
▁적대	-6379
▁회수	-6380
가루	-6381
▁관현	-6382
▁상상	-6383
▁아울러	-6384
▁급진	-6385
▁신칸	-6386
▁이슈	-6387
▁카나	-6388
▁판매량	-6389
▁관념	-6390
▁여의	-6391
▁취약	-6392
▁저기압	-6393
▁성균관	-6394
▁가즈	-6395
▁백신	-6396
▁장인	-6397
▁연구자	-6398
외선	-6399
▁카시	-6400
▁힘쓰	-6401
산군	-6402
▁흥행	-6403
▁복소	-6404
▁지분	-6405
▁자손	-6406
트랙	-6407
▁무효	-6408
▁해임	-6409
원숭이	-6410
끄럽	-6411
▁비극	-6412
▁MP	-6413
전자	-6414
▁몰락	-6415
수수	-6416
니스트	-6417
▁국어	-6418
▁응답	-6419
▁제휴	-6420
▁연루	-6421
▁j	-6422
▁메가	-6423
▁상류	-6424
▁식당	-6425
▁125	-6426
카드	-6427
▁따위	-6428
▁이순	-6429
▁할당	-6430
▁쳐	-6431
포스	-6432
▁146	-6433
▁휩	-6434
▁소금	-6435
▁통행	-6436
▁들리	-6437
▁문재인	-6438
▁쇄	-6439
▁달아나	-6440
악단	-6441
▁서독	-6442
하르트	-6443
▁105	-6444
▁니아	-6445
▁소총	-6446
▁승차	-6447
▁천문학	-6448
메르	-6449
혁명	-6450
▁히스	-6451
▁1500	-6452
자와	-6453
▁악마	-6454
▁흩	-6455
▁김용	-6456
▁적히	-6457
▁마찰	-6458
▁문제점	-6459
▁남양	-6460
▁두드	-6461
▁패전	-6462
▁아니하	-6463
▁파스	-6464
▁끈	-6465
▁박영	-6466
▁창업	-6467
▁나미	-6468
▁남인	-6469
▁로고	-6470
▁루터	-6471
▁여수	-6472
▁3000	-6473
▁동남아시아	-6474
▁믿음	-6475
▁에티	-6476
▁강사	-6477
▁술탄	-6478
▁자고	-6479
12	-6480
▁충족	-6481
▁1911	-6482
▁마오	-6483
▁외무	-6484
▁우정	-6485
▁이노	-6486
▁착공	-6487
▁매출	-6488
▁유출	-6489
▁노드	-6490
▁저택	-6491
▁윌슨	-6492
ime	-6493
▁자책점	-6494
▁소지	-6495
▁히라	-6496
고속도로	-6497
▁민국	-6498
▁서서	-6499
▁신칸센	-6500
▁곳곳	-6501
▁이복	-6502
▁두르	-6503
▁성전	-6504
▁153	-6505
▁얇	-6506
▁나열	-6507
▁지지자	-6508
▁원나라	-6509
라트	-6510
▁소닉	-6511
▁조언	-6512
▁하마	-6513
▁갈라지	-6514
▁프로토콜	-6515
일드	-6516
▁고원	-6517
▁내내	-6518
▁단원	-6519
▁소관	-6520
▁떠오르	-6521
▁항공모	-6522
▁PS	-6523
▁여래	-6524
▁청사	-6525
▁석가	-6526
▁소재지	-6527
▁이이	-6528
▁일렉	-6529
one	-6530
▁순천	-6531
▁중점	-6532
▁WWE	-6533
▁Le	-6534
▁디비	-6535
▁지목	-6536
▁과목	-6537
서양	-6538
▁매개	-6539
▁사지	-6540
▁카트	-6541
▁찾아보	-6542
▁희극	-6543
▁빌헬름	-6544
▁예배	-6545
▁회견	-6546
제프	-6547
▁MC	-6548
▁유언	-6549
▁103	-6550
▁환원	-6551
▁시외버스	-6552
▁폴리스	-6553
▁강수량	-6554
▁고무	-6555
▁힌두	-6556
네이	-6557
▁증후	-6558
▁우주선	-6559
▁동위	-6560
▁매기	-6561
▁배구	-6562
▁환상	-6563
▁아즈	-6564
토시	-6565
▁눈물	-6566
대군	-6567
펴보	-6568
▁비아	-6569
▁편곡	-6570
▁살펴보	-6571
팩트	-6572
▁마천	-6573
▁보잉	-6574
▁중장	-6575
▁회계	-6576
▁셈	-6577
▁Pro	-6578
▁연인	-6579
▁이글	-6580
▁특유	-6581
▁후자	-6582
▁카자흐	-6583
▁미얀마	-6584
▁클린	-6585
▁비틀즈	-6586
▁법령	-6587
▁성모	-6588
▁주권	-6589
▁천사	-6590
▁ISO	-6591
▁오클	-6592
▁개업	-6593
▁공자	-6594
▁취재	-6595
▁터지	-6596
▁참가자	-6597
▁포장	-6598
▁고베	-6599
▁얘	-6600
▁가라	-6601
▁일관	-6602
델피아	-6603
▁필라델피아	-6604
▁기장	-6605
▁매사	-6606
노프	-6607
▁제트	-6608
▁채무	-6609
▁공략	-6610
▁나리	-6611
▁겸임	-6612
▁반격	-6613
▁선원	-6614
▁진리	-6615
▁해역	-6616
ML	-6617
즈카	-6618
▁친척	-6619
노리	-6620
▁공인	-6621
▁별개	-6622
▁시립	-6623
▁와인	-6624
▁점프	-6625
AP	-6626
▁우편	-6627
기니	-6628
▁굵	-6629
▁버튼	-6630
▁최적	-6631
▁오렌지	-6632
OC	-6633
▁패스	-6634
▁이어서	-6635
▁삿	-6636
어리	-6637
▁155	-6638
▁출입구	-6639
▁각기	-6640
▁상자	-6641
▁중종	-6642
▁추모	-6643
▁닭	-6644
▁근접	-6645
▁각본가	-6646
받침	-6647
▁회화	-6648
▁토크	-6649
▁독립운동가	-6650
▁대답	-6651
▁테스	-6652
▁빼앗기	-6653
마사	-6654
▁격렬	-6655
▁보충	-6656
▁협동	-6657
동물	-6658
리크	-6659
▁허브	-6660
▁아군	-6661
▁게재	-6662
▁카타	-6663
▁두드러지	-6664
▁나고	-6665
▁인격	-6666
▁주파수	-6667
▁유해	-6668
▁밭	-6669
▁유격	-6670
▁정치가	-6671
▁이원	-6672
▁태우	-6673
시온	-6674
▁Bo	-6675
▁위장	-6676
▁별자리	-6677
te	-6678
▁사가	-6679
▁컨트롤	-6680
소스	-6681
▁인형	-6682
▁담배	-6683
▁법무	-6684
▁사물	-6685
▁앞면	-6686
▁동등	-6687
▁지우	-6688
▁오키나	-6689
▁증후군	-6690
▁실종	-6691
▁토리	-6692
▁포수	-6693
▁민영	-6694
▁생일	-6695
▁108	-6696
▁성주	-6697
▁항공모함	-6698
▁리메	-6699
▁미소	-6700
▁북동부	-6701
▁매력	-6702
▁이바	-6703
▁이영	-6704
▁이인	-6705
▁평행	-6706
▁합법	-6707
▁금액	-6708
▁레전	-6709
▁오디오	-6710
▁민사	-6711
▁유교	-6712
▁감지	-6713
▁영동	-6714
▁토요일	-6715
▁트라이	-6716
▁미루	-6717
▁Con	-6718
플러	-6719
▁두산	-6720
▁룰	-6721
▁내지	-6722
▁아바	-6723
▁일찍이	-6724
▁자발	-6725
▁베르크	-6726
▁스파이	-6727
때로	-6728
Pa	-6729
▁양상	-6730
▁개찰구	-6731
▁아리스	-6732
▁사우디아	-6733
▁히데요시	-6734
▁건의	-6735
▁서해	-6736
▁준결승	-6737
산면	-6738
상스	-6739
▁전두환	-6740
▁외곽	-6741
▁하우	-6742
▁상대방	-6743
▁서서히	-6744
io	-6745
▁스터	-6746
▁박탈	-6747
▁상부	-6748
▁승무원	-6749
▁고체	-6750
항공	-6751
▁일족	-6752
▁에디	-6753
▁퍼시픽	-6754
▁쉐	-6755
▁에우	-6756
▁꾀	-6757
ber	-6758
▁아케	-6759
▁화살	-6760
산리	-6761
▁교장	-6762
▁추격	-6763
▁야간	-6764
▁이사장	-6765
▁브래	-6766
▁에이스	-6767
▁트럼프	-6768
▁크리스마스	-6769
▁나고야	-6770
▁때때로	-6771
▁드라이브	-6772
▁앙리	-6773
▁입상	-6774
▁전례	-6775
▁호세	-6776
▁시청자	-6777
▁하인리히	-6778
베이터	-6779
▁갓	-6780
▁상장	-6781
▁섞이	-6782
▁IT	-6783
▁생명체	-6784
러미	-6785
▁해운	-6786
▁홍수	-6787
▁아우구	-6788
▁1909	-6789
화점	-6790
▁교단	-6791
퍼니	-6792
▁만세	-6793
▁무려	-6794
▁김영삼	-6795
▁궁정	-6796
▁세균	-6797
▁고발	-6798
▁싸이	-6799
▁외국어	-6800
▁대주교	-6801
▁이슬람교	-6802
▁기금	-6803
▁사다	-6804
다드	-6805
▁부착	-6806
▁그만두	-6807
가타	-6808
▁128	-6809
▁149	-6810
▁물자	-6811
▁캠페인	-6812
▁톈	-6813
▁긴장	-6814
▁102	-6815
▁가르침	-6816
▁운동장	-6817
모어	-6818
▁명의	-6819
▁복장	-6820
▁향교	-6821
▁보스니아	-6822
▁맵	-6823
▁콜라	-6824
▁트위	-6825
▁사용자	-6826
구장	-6827
▁전도	-6828
▁메타	-6829
▁골프	-6830
▁대군	-6831
▁수성	-6832
▁트루	-6833
▁호칭	-6834
칠리아	-6835
▁#	-6836
라미	-6837
▁고가	-6838
▁연도	-6839
▁짜리	-6840
▁자마자	-6841
▁제작자	-6842
▁배틀	-6843
▁정밀	-6844
라이트	-6845
▁건축가	-6846
▁안장	-6847
▁르네상스	-6848
▁대외	-6849
▁집계	-6850
▁치세	-6851
▁후안	-6852
▁펼쳐지	-6853
람회	-6854
▁어드	-6855
▁ᆯ까	-6856
▁남한	-6857
▁슬라	-6858
▁피고	-6859
▁존중	-6860
▁에스파냐	-6861
▁발원	-6862
▁최저	-6863
▁사우디아라비아	-6864
▁중국인	-6865
▁텍스트	-6866
ge	-6867
▁중재	-6868
▁주지사	-6869
트릭	-6870
▁전대	-6871
▁레이저	-6872
▁계절	-6873
▁직책	-6874
▁송나라	-6875
▁발현	-6876
age	-6877
▁차남	-6878
먼드	-6879
▁셸	-6880
▁며칠	-6881
▁자유당	-6882
▁여주	-6883
▁섭취	-6884
▁시오	-6885
▁Bl	-6886
▁팽창	-6887
▁네이버	-6888
iz	-6889
▁포괄	-6890
집합	-6891
▁사절	-6892
▁세미	-6893
▁키프	-6894
▁레전드	-6895
▁강경	-6896
▁넓히	-6897
백과	-6898
▁최소한	-6899
생활	-6900
▁단기	-6901
▁문양	-6902
▁아미타	-6903
▁방침	-6904
▁상세	-6905
▁초창	-6906
▁향후	-6907
▁$	-6908
▁사이버	-6909
언스	-6910
▁손가락	-6911
▁원자로	-6912
▁포도주	-6913
▁댐	-6914
▁대니	-6915
▁턱	-6916
▁다중	-6917
▁수평	-6918
▁굉장	-6919
▁뽑히	-6920
▁프랭크	-6921
AD	-6922
차례	-6923
▁고래	-6924
▁청장	-6925
▁촉구	-6926
▁팔레스	-6927
▁갑작	-6928
▁캄보	-6929
▁탐지	-6930
사기	-6931
▁객관	-6932
▁147	-6933
▁룽	-6934
▁조반	-6935
▁충주	-6936
▁태생	-6937
▁유니폼	-6938
▁그랑프리	-6939
▁낙선	-6940
▁조리	-6941
▁토스	-6942
▁127	-6943
▁로프	-6944
▁수군	-6945
울리	-6946
▁블루스	-6947
▁동독	-6948
▁보리	-6949
▁토마	-6950
▁CPU	-6951
▁단점	-6952
▁명목	-6953
▁볼리	-6954
▁경부	-6955
▁속성	-6956
수엘라	-6957
▁딩	-6958
▁스릴	-6959
▁노란색	-6960
▁여진	-6961
▁아미노	-6962
▁1915	-6963
▁엘리베이터	-6964
▁뢰	-6965
▁기수	-6966
행위	-6967
▁무죄	-6968
▁왜성	-6969
▁초연	-6970
▁캐스팅	-6971
▁진군	-6972
▁케네	-6973
▁171	-6974
노부	-6975
▁입체	-6976
▁주축	-6977
▁하이드	-6978
▁숭배	-6979
▁음원	-6980
▁로맨스	-6981
▁역명	-6982
▁전함	-6983
▁컬러	-6984
▁1913	-6985
sp	-6986
두르	-6987
▁취지	-6988
▁협조	-6989
▁겔	-6990
▁난민	-6991
라리	-6992
▁심의	-6993
▁알코	-6994
▁오키나와	-6995
▁마비	-6996
▁북구	-6997
▁북방	-6998
▁침몰	-6999
▁황해	-7000
orld	-7001
▁윌리엄스	-7002
우라	-7003
▁제곱	-7004
▁유소년	-7005
▁이어받	-7006
▁추증	-7007
▁상당수	-7008
▁따뜻	-7009
▁라파	-7010
▁베네수엘라	-7011
▁부천	-7012
▁후일	-7013
서리	-7014
▁투르크	-7015
▁천문학자	-7016
▁동당	-7017
ik	-7018
▁원고	-7019
▁낮추	-7020
▁내주	-7021
창군	-7022
▁신흥	-7023
▁문학상	-7024
▁김재	-7025
▁마하	-7026
▁부과	-7027
▁옥스	-7028
▁언제나	-7029
▁테니스	-7030
▁분광	-7031
시티	-7032
▁재미	-7033
▁위키백과	-7034
▁광년	-7035
▁동년	-7036
▁수동	-7037
▁센서	-7038
▁창건	-7039
▁닿	-7040
▁김수	-7041
▁추상	-7042
▁출토	-7043
▁이민자	-7044
▁초창기	-7045
▁둘레	-7046
▁타르	-7047
▁서사	-7048
▁이틀	-7049
기지	-7050
▁동래	-7051
▁태수	-7052
▁팜	-7053
▁코프	-7054
▁강과	-7055
▁대포	-7056
▁기습	-7057
▁시그	-7058
▁탈환	-7059
▁쓰러지	-7060
▁개미	-7061
자치도	-7062
▁169	-7063
▁제주특별	-7064
▁제주특별자치도	-7065
▁수렴	-7066
▁머신	-7067
▁창시	-7068
▁울리	-7069
▁병역	-7070
▁원반	-7071
포구	-7072
▁GT	-7073
▁김진	-7074
▁수령	-7075
▁CE	-7076
명사전	-7077
▁디스플레이	-7078
▁대역	-7079
▁바흐	-7080
▁스파르타	-7081
▁어업	-7082
▁청원	-7083
▁찾아내	-7084
▁1895	-7085
▁든지	-7086
크리트	-7087
▁유수	-7088
▁카탈	-7089
여지	-7090
▁모스	-7091
▁hPa	-7092
▁나가사키	-7093
▁SP	-7094
▁광부	-7095
▁링컨	-7096
▁아폴	-7097
▁정말	-7098
▁리메이크	-7099
▁무제	-7100
▁총선거	-7101
▁프레스	-7102
▁흩어지	-7103
▁딴	-7104
▁al	-7105
▁인재	-7106
▁때리	-7107
▁141	-7108
▁팔레스타인	-7109
▁걱	-7110
▁남원	-7111
▁대처	-7112
평군	-7113
포트	-7114
▁계몽	-7115
▁유연	-7116
▁통칭	-7117
▁아사히	-7118
▁초상화	-7119
▁한동안	-7120
▁적자	-7121
▁언론인	-7122
▁대제	-7123
▁엔지	-7124
▁주차	-7125
▁효력	-7126
MS	-7127
▁께서	-7128
▁동력	-7129
▁반박	-7130
▁법제	-7131
▁비문	-7132
박쥐	-7133
▁국사	-7134
▁135	-7135
▁Tr	-7136
▁시공	-7137
▁끊임	-7138
▁총괄	-7139
▁다운로드	-7140
▁섭정	-7141
▁신세	-7142
공신	-7143
▁나주	-7144
네스코	-7145
▁북서부	-7146
석기	-7147
▁고백	-7148
▁후세	-7149
▁하부	-7150
▁온천	-7151
▁탤	-7152
벌레	-7153
▁메인	-7154
▁양주	-7155
무기	-7156
ust	-7157
▁소실	-7158
▁수용소	-7159
▁김태	-7160
▁번영	-7161
보기	-7162
자스	-7163
▁서머	-7164
▁도호쿠	-7165
와라	-7166
▁자기장	-7167
▁풋볼	-7168
▁십자가	-7169
ep	-7170
▁바실	-7171
▁차기	-7172
▁나르	-7173
▁삼진	-7174
▁이진	-7175
▁중순	-7176
▁111	-7177
선거	-7178
▁신중	-7179
▁문화방송	-7180
▁귀중	-7181
▁대위	-7182
▁오빠	-7183
▁해병대	-7184
▁어스	-7185
그라드	-7186
▁캄보디아	-7187
▁개관	-7188
▁면하	-7189
▁영리	-7190
▁144	-7191
▁서울대	-7192
▁더글	-7193
▁저명	-7194
▁종결	-7195
▁후대	-7196
▁몰아내	-7197
▁내외	-7198
▁첨가	-7199
▁큰	-7200
▁스핀	-7201
▁원내	-7202
▁폐위	-7203
▁풍경	-7204
▁날짜	-7205
▁스티브	-7206
▁그로	-7207
▁김포	-7208
▁명백	-7209
▁두루	-7210
▁식별	-7211
▁함유	-7212
따르	-7213
▁휴식	-7214
▁기요	-7215
▁정전	-7216
▁파업	-7217
▁전성기	-7218
▁컴퍼니	-7219
▁평하	-7220
▁리버풀	-7221
▁연세대	-7222
▁걱정	-7223
▁장미	-7224
▁아레나	-7225
int	-7226
▁조달	-7227
▁당일	-7228
▁무상	-7229
▁병조	-7230
▁불편	-7231
▁제수	-7232
▁It	-7233
▁교원	-7234
▁이광	-7235
▁정무	-7236
▁119	-7237
누엘	-7238
▁충실	-7239
▁스릴러	-7240
▁컬럼비아	-7241
▁캉	-7242
▁천도	-7243
▁평야	-7244
▁꽤	-7245
키지	-7246
▁TH	-7247
▁공채	-7248
▁편리	-7249
▁관통	-7250
▁드럼	-7251
▁에다	-7252
▁총사	-7253
▁신학교	-7254
▁CO	-7255
▁매카	-7256
▁소환	-7257
▁중소	-7258
▁우연히	-7259
▁교양	-7260
▁다니엘	-7261
트리올	-7262
▁몬트리올	-7263
▁간호	-7264
▁모방	-7265
▁위임	-7266
▁인산	-7267
▁172	-7268
▁케네디	-7269
▁카이사르	-7270
▁도스	-7271
▁별칭	-7272
▁언더	-7273
▁룡	-7274
▁신기	-7275
▁총대	-7276
GC	-7277
▁고민	-7278
▁북위	-7279
▁선구	-7280
▁요르	-7281
▁유니버	-7282
EN	-7283
스럽	-7284
푸스	-7285
▁사회학	-7286
릴라	-7287
▁아종	-7288
▁휴전	-7289
▁덤	-7290
시로	-7291
▁엔지니어	-7292
▁관람	-7293
▁드라	-7294
▁루시	-7295
▁테레	-7296
▁신학자	-7297
▁리어	-7298
▁이글스	-7299
▁껍질	-7300
▁미주	-7301
▁106	-7302
ib	-7303
▁베드	-7304
▁평일	-7305
▁장안	-7306
▁니콜라	-7307
▁바퀴	-7308
▁선종	-7309
▁해수	-7310
▁친일인	-7311
▁유네스코	-7312
▁친일인명사전	-7313
▁연패	-7314
▁의상	-7315
나리	-7316
ome	-7317
▁묘역	-7318
▁미즈	-7319
▁쇼트	-7320
▁애덤	-7321
▁증진	-7322
▁진짜	-7323
▁세계관	-7324
▁아틀레	-7325
▁아이템	-7326
▁스페이스	-7327
그로	-7328
니치	-7329
ian	-7330
▁공모	-7331
▁페르난	-7332
▁보완	-7333
▁카리브	-7334
ude	-7335
▁좌절	-7336
▁평범	-7337
▁김상	-7338
▁중량	-7339
▁표명	-7340
▁장난	-7341
케이션	-7342
▁한성부	-7343
▁서남	-7344
▁공직	-7345
▁미토	-7346
▁승점	-7347
▁아벨	-7348
▁초과	-7349
▁장려	-7350
▁마인	-7351
▁소통	-7352
▁슈트	-7353
▁제갈	-7354
▁케이스	-7355
▁멋	-7356
▁콘크리트	-7357
▁프랑수아	-7358
▁마츠	-7359
▁열대	-7360
▁영남	-7361
▁지혜	-7362
▁치열	-7363
▁항소	-7364
▁에스토	-7365
▁잦	-7366
▁콰	-7367
▁고수	-7368
▁등재	-7369
▁We	-7370
▁방패	-7371
▁아이슬	-7372
▁훔	-7373
▁돌연	-7374
▁생전	-7375
▁해변	-7376
▁책임자	-7377
▁정렬	-7378
▁차종	-7379
▁그루	-7380
▁낱말	-7381
▁배신	-7382
ere	-7383
▁포격	-7384
▁외교관	-7385
▁지폐	-7386
▁충북	-7387
▁닷	-7388
▁역설	-7389
▁전압	-7390
내셔널	-7391
▁인터내셔널	-7392
블로	-7393
세츠	-7394
페르	-7395
▁탱크	-7396
주의자	-7397
▁쿤	-7398
루션	-7399
▁영장	-7400
▁우울	-7401
▁일화	-7402
말라	-7403
선스	-7404
▁합창	-7405
▁공단	-7406
▁양도	-7407
▁투르	-7408
▁매사추	-7409
실록	-7410
ire	-7411
▁요하	-7412
▁입지	-7413
▁황태자	-7414
치오	-7415
▁단식	-7416
▁일조	-7417
▁매사추세츠	-7418
▁발트	-7419
▁부채	-7420
▁불명	-7421
▁상서	-7422
▁바리	-7423
▁퍼센트	-7424
▁아이슬란드	-7425
▁괴롭	-7426
▁대웅	-7427
▁업계	-7428
▁호위	-7429
▁우라늄	-7430
▁신속	-7431
▁암석	-7432
▁공의회	-7433
▁중추원	-7434
▁시나리오	-7435
▁나스	-7436
▁에버	-7437
라이더	-7438
▁밟	-7439
유행	-7440
▁다치	-7441
▁부재	-7442
▁소유자	-7443
▁도르	-7444
▁구이	-7445
▁레바	-7446
▁어쩌	-7447
ace	-7448
▁교외	-7449
▁친왕	-7450
▁내려지	-7451
▁오노	-7452
▁오비	-7453
▁스페인어	-7454
▁에스토니아	-7455
▁시흥	-7456
▁위탁	-7457
▁친하	-7458
▁호프	-7459
ment	-7460
▁도주	-7461
pe	-7462
▁견디	-7463
▁도루	-7464
▁실전	-7465
▁횟	-7466
▁마약	-7467
▁얘기	-7468
▁닝	-7469
▁고령	-7470
▁기인	-7471
▁김기	-7472
▁여지	-7473
▁지능	-7474
▁탈당	-7475
▁로열	-7476
▁봉쇄	-7477
▁육지	-7478
▁인연	-7479
▁라이선스	-7480
▁중심부	-7481
▁협주곡	-7482
▁물리학자	-7483
▁기어	-7484
▁상담	-7485
▁서정	-7486
▁조이	-7487
리케인	-7488
마드	-7489
▁오세	-7490
오피아	-7491
▁리비아	-7492
▁슬로바키아	-7493
▁에티오피아	-7494
ide	-7495
▁창고	-7496
▁통근	-7497
▁어다	-7498
▁오사	-7499
▁파장	-7500
▁평택	-7501
▁해소	-7502
▁시선	-7503
▁허리케인	-7504
▁대전광역시	-7505
▁푼	-7506
▁즈음	-7507
▁현금	-7508
바이잔	-7509
▁148	-7510
▁을지	-7511
▁도라	-7512
▁사슬	-7513
▁전라도	-7514
▁애틀	-7515
▁할리우드	-7516
석탑	-7517
야시	-7518
▁병행	-7519
▁의뢰	-7520
▁하락	-7521
▁흘리	-7522
▁NBA	-7523
층석탑	-7524
▁호기	-7525
▁이사회	-7526
▁1916	-7527
중국	-7528
하면	-7529
▁격투	-7530
▁가로지르	-7531
▁신생	-7532
▁추세	-7533
▁136	-7534
▁아제르	-7535
▁끓	-7536
▁어라	-7537
▁치즈	-7538
제리	-7539
▁덮이	-7540
▁부적	-7541
▁결혼식	-7542
▁극동	-7543
▁스튜어트	-7544
▁낭만	-7545
▁순회	-7546
▁마이너	-7547
▁실시간	-7548
▁아제르바이잔	-7549
▁바닷	-7550
▁알아내	-7551
▁HT	-7552
▁TO	-7553
▁닛폰	-7554
의자	-7555
▁추출	-7556
▁허리	-7557
▁앓	-7558
아이	-7559
▁갈리	-7560
▁서재	-7561
▁아드	-7562
▁배터리	-7563
▁막내	-7564
▁알아	-7565
▁우루과이	-7566
위원	-7567
▁성운	-7568
지리아	-7569
▁파이어	-7570
▁나이지리아	-7571
▁조연	-7572
▁입당	-7573
▁특집	-7574
▁급격히	-7575
▁동상	-7576
▁사헌	-7577
▁IBM	-7578
▁네이션스	-7579
IM	-7580
▁격퇴	-7581
▁솜	-7582
▁동이	-7583
▁우세	-7584
▁세션	-7585
▁주행	-7586
▁라이언	-7587
▁명제	-7588
▁작센	-7589
▁DC	-7590
▁구도	-7591
▁다항	-7592
▁바스	-7593
▁산림	-7594
▁원숭이	-7595
▁기단	-7596
▁신탁	-7597
▁패키지	-7598
▁국무총리	-7599
▁전념	-7600
시피	-7601
▁되게	-7602
▁의약	-7603
▁첼시	-7604
▁쌍둥이	-7605
▁아마도	-7606
▁데이비스	-7607
▁실장	-7608
바다	-7609
승지	-7610
▁거론	-7611
▁시초	-7612
▁138	-7613
▁수습	-7614
▁워드	-7615
▁유동	-7616
▁노부나가	-7617
람쥐	-7618
▁가동	-7619
▁개그	-7620
▁구릉	-7621
▁현종	-7622
▁딕	-7623
▁솟	-7624
▁면허	-7625
▁박해	-7626
▁저하	-7627
▁중위	-7628
▁한스	-7629
▁반감	-7630
▁안성	-7631
▁포터	-7632
▁객체	-7633
▁고소	-7634
▁페르디	-7635
▁돌려	-7636
▁약칭	-7637
▁평원	-7638
▁리우스	-7639
▁백화점	-7640
거지	-7641
▁구호	-7642
▁백색	-7643
▁지류	-7644
▁회고	-7645
▁브라우저	-7646
▁안기	-7647
▁극히	-7648
▁신규	-7649
cl	-7650
▁사헌부	-7651
▁리틀	-7652
▁섬기	-7653
▁치명	-7654
파르	-7655
▁la	-7656
▁분당	-7657
▁신한	-7658
▁외치	-7659
▁경연	-7660
▁레논	-7661
▁구조물	-7662
타로	-7663
▁거제	-7664
▁시즈	-7665
▁해밀	-7666
▁어울리	-7667
▁시칠리아	-7668
▁지선	-7669
▁360	-7670
▁펌	-7671
▁성숙	-7672
▁후쿠시마	-7673
▁혀	-7674
▁후방	-7675
▁거행	-7676
▁영의정	-7677
▁중성자	-7678
▁고성	-7679
▁상공	-7680
▁토성	-7681
▁탐구	-7682
▁뭉	-7683
▁냉각	-7684
▁도미	-7685
▁이세	-7686
▁재위	-7687
▁환영	-7688
양함	-7689
▁돌보	-7690
▁춘천	-7691
▁최상위	-7692
토모	-7693
▁복선	-7694
▁익히	-7695
▁104	-7696
▁아부	-7697
타나	-7698
▁오바	-7699
▁LP	-7700
▁가면	-7701
▁최악	-7702
▁한쪽	-7703
▁바이오	-7704
▁결선	-7705
▁그날	-7706
▁생식	-7707
▁피에	-7708
▁라이브러리	-7709
▁택시	-7710
▁해적	-7711
여래	-7712
▁재현	-7713
래스카	-7714
▁반도체	-7715
▁라트비아	-7716
▁감리	-7717
▁그램	-7718
▁임용	-7719
▁혈통	-7720
▁게르만	-7721
리에	-7722
▁En	-7723
▁동점	-7724
▁비시	-7725
▁횟수	-7726
곡리	-7727
리니	-7728
▁리라	-7729
▁비리	-7730
▁춘추	-7731
마쓰	-7732
▁장학	-7733
▁트래	-7734
베르토	-7735
▁별다르	-7736
▁도장	-7737
▁송시	-7738
▁애틀랜	-7739
▁릉	-7740
대신	-7741
▁차장	-7742
▁테이블	-7743
타고	-7744
회장	-7745
▁가짜	-7746
▁반경	-7747
▁성체	-7748
▁어휘	-7749
▁모니터	-7750
▁올바르	-7751
▁주가	-7752
어버리	-7753
ark	-7754
브레	-7755
▁나비	-7756
▁우위	-7757
▁제독	-7758
▁스트레스	-7759
은색	-7760
▁오피스	-7761
▁109	-7762
▁휴스턴	-7763
▁주름	-7764
푸르트	-7765
▁왜냐	-7766
▁잔류	-7767
데시	-7768
하시	-7769
▁고인	-7770
▁데모	-7771
▁Pr	-7772
▁개원	-7773
▁목판	-7774
▁행적	-7775
▁방송사	-7776
▁스톡	-7777
▁옴	-7778
▁축하	-7779
▁하워드	-7780
▁이케	-7781
▁현저	-7782
▁123	-7783
▁대학생	-7784
▁부당	-7785
▁정점	-7786
▁힘입	-7787
▁견제	-7788
▁칼라	-7789
▁교황청	-7790
▁호랑이	-7791
▁통증	-7792
▁억압	-7793
▁폭동	-7794
▁사우루스	-7795
▁아홉	-7796
▁코무네	-7797
▁공수	-7798
▁대표작	-7799
▁햇	-7800
▁성취	-7801
▁육체	-7802
▁주주	-7803
▁야구장	-7804
고쿠	-7805
차기	-7806
▁바나	-7807
▁공산주의자	-7808
▁소매	-7809
▁열정	-7810
더슨	-7811
포드	-7812
▁여당	-7813
▁루프	-7814
▁이식	-7815
▁한인	-7816
란히	-7817
▁민회	-7818
▁고장	-7819
▁매입	-7820
▁순교	-7821
▁아담	-7822
▁연하	-7823
▁적당	-7824
▁헐	-7825
랜트	-7826
▁NC	-7827
▁펜실	-7828
▁연합회	-7829
베이니아	-7830
▁타이거즈	-7831
▁펜실베이니아	-7832
▁시바	-7833
▁명령어	-7834
▁벌금	-7835
▁인플	-7836
▁축적	-7837
헤이	-7838
▁143	-7839
▁카자흐스탄	-7840
▁노바	-7841
▁발해	-7842
▁터치	-7843
은이	-7844
▁AK	-7845
▁종로구	-7846
▁AR	-7847
▁광물	-7848
▁응원	-7849
▁경관	-7850
▁너비	-7851
▁암시	-7852
▁주역	-7853
▁처녀	-7854
▁분기점	-7855
▁휠	-7856
▁분비	-7857
▁팔라	-7858
▁동아일보	-7859
글리	-7860
▁오해	-7861
법인	-7862
▁가죽	-7863
▁누이	-7864
▁상점	-7865
▁수련	-7866
▁리우	-7867
바시	-7868
▁공천	-7869
▁다발	-7870
▁청춘	-7871
▁베스	-7872
▁신조	-7873
▁부르크	-7874
▁롤링	-7875
▁사모	-7876
▁아예	-7877
▁해명	-7878
▁산란	-7879
▁상단	-7880
▁유한	-7881
▁이화	-7882
▁제하	-7883
▁돋	-7884
▁놀랍	-7885
▁성사	-7886
▁존속	-7887
▁피츠	-7888
▁이에야스	-7889
▁팡	-7890
▁토모	-7891
▁신주	-7892
▁히메	-7893
▁목재	-7894
▁염기	-7895
▁폭행	-7896
AL	-7897
▁비싸	-7898
▁자민	-7899
▁제프	-7900
스틴	-7901
▁CS	-7902
▁출처	-7903
▁기적	-7904
▁비자	-7905
▁이윤	-7906
▁차이점	-7907
▁플라이	-7908
▁계시	-7909
▁근교	-7910
▁마야	-7911
▁소나타	-7912
▁CC	-7913
▁상반	-7914
▁col	-7915
▁유로파	-7916
▁다이아몬드	-7917
▁킥	-7918
산동	-7919
▁컴파	-7920
▁펑크	-7921
▁블라디미르	-7922
나오	-7923
ile	-7924
▁다투	-7925
▁에미	-7926
▁남동부	-7927
▁조선일보	-7928
▁박람회	-7929
▁관구	-7930
▁김경	-7931
▁신념	-7932
▁음료	-7933
▁증대	-7934
▁지르	-7935
▁통영	-7936
▁그동안	-7937
▁부설	-7938
▁경상도	-7939
▁내보내	-7940
▁블로그	-7941
▁왓	-7942
▁광학	-7943
▁래퍼	-7944
▁유죄	-7945
▁시골	-7946
▁생산량	-7947
▁룬	-7948
▁상용	-7949
▁운하	-7950
▁충전	-7951
러스트	-7952
▁알코올	-7953
▁친일파	-7954
▁나트	-7955
브리지	-7956
▁누나	-7957
▁만남	-7958
ies	-7959
▁미라	-7960
▁이소	-7961
▁태양계	-7962
권자	-7963
▁법조	-7964
▁설탕	-7965
▁황실	-7966
▁Op	-7967
▁다녀	-7968
▁시어	-7969
▁갈라	-7970
▁규범	-7971
▁깨닫	-7972
▁보석	-7973
▁적분	-7974
▁무지	-7975
▁카롤	-7976
▁이타	-7977
▁티스	-7978
▁갇	-7979
▁단단	-7980
▁동국	-7981
▁사육	-7982
비나	-7983
기업	-7984
살이	-7985
▁흠	-7986
▁부제	-7987
▁거칠	-7988
▁조세	-7989
▁라오스	-7990
▁확신	-7991
▁공습	-7992
▁공익	-7993
▁말라	-7994
▁비유	-7995
▁상사	-7996
▁경찰청	-7997
▁히사	-7998
▁브라더스	-7999
▁왜냐하면	-8000
xt	-8001
수리	-8002
▁중의원	-8003
▁공관	-8004
▁CON	-8005
▁트위터	-8006
도리	-8007
▁합하	-8008
▁112	-8009
▁126	-8010
▁장거리	-8011
▁엿	-8012
▁신민	-8013
▁협박	-8014
▁베어스	-8015
▁헤라	-8016
▁루이지	-8017
▁카를로스	-8018
ite	-8019
▁마디	-8020
▁미르	-8021
▁어원	-8022
▁시베리아	-8023
▁대폭	-8024
▁빨간	-8025
▁후사	-8026
▁구축함	-8027
▁국소	-8028
▁107	-8029
▁RNA	-8030
▁트윈스	-8031
▁키프로스	-8032
레기	-8033
▁레일	-8034
▁우유	-8035
▁굉장히	-8036
▁이산화	-8037
▁이순신	-8038
▁거북	-8039
▁수법	-8040
▁언니	-8041
▁품종	-8042
▁사업자	-8043
▁창원시	-8044
▁Te	-8045
▁법무부	-8046
▁다지	-8047
▁제재	-8048
▁헤비	-8049
▁삼층석탑	-8050
▁is	-8051
▁구출	-8052
▁범인	-8053
▁우승자	-8054
▁왜곡	-8055
▁허위	-8056
▁가군	-8057
▁갇히	-8058
▁신선	-8059
▁우호	-8060
▁교과서	-8061
▁아랍어	-8062
▁플러스	-8063
고래	-8064
▁당주	-8065
▁성단	-8066
나스	-8067
▁경보	-8068
▁옆면	-8069
▁입원	-8070
▁할머니	-8071
▁세라	-8072
▁소셜	-8073
▁여파	-8074
스부르크	-8075
▁뉘	-8076
랑카	-8077
▁송시열	-8078
▁몰래	-8079
▁실체	-8080
▁천장	-8081
▁포럼	-8082
▁117	-8083
▁조종사	-8084
▁줄무늬	-8085
▁곡인	-8086
▁근원	-8087
▁맥락	-8088
▁탐사선	-8089
도바	-8090
▁보증	-8091
▁풀리	-8092
ft	-8093
▁임하	-8094
▁핸드	-8095
▁꾀하	-8096
▁맥주	-8097
▁연쇄	-8098
▁인문	-8099
▁대웅전	-8100
▁지평	-8101
▁결함	-8102
▁동문	-8103
▁드로	-8104
리안	-8105
지붕	-8106
▁소원	-8107
▁퐁	-8108
다지	-8109
▁거울	-8110
▁피우	-8111
▁평의회	-8112
▁도마뱀붙이	-8113
▁이경	-8114
▁릿	-8115
▁네스	-8116
▁인체	-8117
갈색	-8118
▁희생자	-8119
▁SE	-8120
▁진하	-8121
▁가마쿠라	-8122
▁제니	-8123
▁350	-8124
▁교정	-8125
▁빈곤	-8126
▁신약	-8127
▁com	-8128
▁일방	-8129
▁일반인	-8130
▁화장실	-8131
▁통틀	-8132
▁양키스	-8133
▁탐색	-8134
시타	-8135
▁날씨	-8136
▁성별	-8137
▁이브	-8138
▁제대	-8139
▁해고	-8140
▁121	-8141
▁테이프	-8142
▁아카데미상	-8143
▁후궁	-8144
ound	-8145
▁고속도	-8146
끼리	-8147
▁만일	-8148
▁빨간색	-8149
▁삼성전자	-8150
▁CF	-8151
▁173	-8152
▁맘	-8153
▁진급	-8154
▁택하	-8155
▁펠리	-8156
▁필터	-8157
승부	-8158
▁철회	-8159
▁137	-8160
▁전자기	-8161
▁ㅓ서	-8162
▁바오로	-8163
무스	-8164
ath	-8165
▁개교	-8166
▁승계	-8167
▁요동	-8168
▁자아	-8169
조부	-8170
▁가져가	-8171
의장	-8172
▁연합국	-8173
연합	-8174
ond	-8175
▁불타	-8176
▁비추	-8177
▁샘플	-8178
▁양측	-8179
▁킴	-8180
▁놓치	-8181
▁방화	-8182
▁비르	-8183
▁포병	-8184
▁필리프	-8185
OL	-8186
▁문예	-8187
▁라이너	-8188
▁1894	-8189
▁가축	-8190
▁결코	-8191
▁근로자	-8192
▁물려받	-8193
▁냄	-8194
▁왕복	-8195
▁총독부	-8196
▁헥	-8197
▁궁극	-8198
▁바우	-8199
게이머	-8200
▁프로게이머	-8201
마루	-8202
ory	-8203
▁가장자리	-8204
▁더니	-8205
▁투옥	-8206
베니아	-8207
▁수용체	-8208
▁뒤집	-8209
▁서진	-8210
▁워터	-8211
▁주이	-8212
▁진공	-8213
▁태권	-8214
▁다크	-8215
▁세속	-8216
▁최강	-8217
▁ㅁ	-8218
크라	-8219
▁문구	-8220
▁수색	-8221
▁일가	-8222
수소	-8223
▁지미	-8224
▁113	-8225
▁클라우드	-8226
▁붐	-8227
규모	-8228
▁공민	-8229
▁레온	-8230
▁믹스	-8231
그레이드	-8232
▁슬로베니아	-8233
man	-8234
▁공방	-8235
▁칭찬	-8236
▁크리스토퍼	-8237
▁쑤	-8238
대기	-8239
▁핵무기	-8240
▁극심	-8241
▁미션	-8242
▁업그레이드	-8243
▁용병	-8244
▁도미니	-8245
▁멜로디	-8246
ov	-8247
▁낫	-8248
▁뒷면	-8249
▁유년	-8250
▁IM	-8251
▁LC	-8252
▁대의원	-8253
▁바티칸	-8254
▁땃	-8255
톨레	-8256
▁농림	-8257
▁드레	-8258
▁서민	-8259
▁즉각	-8260
▁최대한	-8261
그리	-8262
단체	-8263
▁계정	-8264
▁적도	-8265
▁게스트	-8266
▁브로드	-8267
▁알제리	-8268
로이	-8269
번스	-8270
▁대피	-8271
▁성도	-8272
▁치안	-8273
▁화해	-8274
▁그냥	-8275
▁둥지	-8276
▁로이	-8277
▁군정	-8278
▁두껍	-8279
▁신시	-8280
▁하동	-8281
▁공백	-8282
▁124	-8283
▁코스타	-8284
▁강서	-8285
▁혈관	-8286
▁곤란	-8287
▁무어	-8288
▁프랑크푸르트	-8289
▁".	-8290
▁타당	-8291
퍼런스	-8292
iver	-8293
▁게이지	-8294
셰비	-8295
아키	-8296
▁먼지	-8297
▁미키	-8298
▁초월	-8299
▁개종	-8300
▁김현	-8301
▁명하	-8302
▁부딪	-8303
▁독일인	-8304
▁모친	-8305
▁제인	-8306
▁카카	-8307
▁몬스터	-8308
▁시뮬	-8309
▁z	-8310
▁넘치	-8311
▁캐시	-8312
▁On	-8313
▁횡단	-8314
▁국내외	-8315
▁관음	-8316
▁판본	-8317
아프리카	-8318
▁륙	-8319
박스	-8320
▁탤런트	-8321
mer	-8322
▁스캔	-8323
▁제치	-8324
▁구절	-8325
▁닫히	-8326
블리	-8327
▁상표	-8328
▁피오	-8329
▁자연수	-8330
로니	-8331
▁내정	-8332
▁서초	-8333
▁성문	-8334
▁욕구	-8335
▁항쟁	-8336
▁야마토	-8337
▁be	-8338
▁고고학	-8339
▁커뮤니케이션	-8340
▁가루	-8341
▁배후	-8342
▁일생	-8343
▁학계	-8344
▁오리콘	-8345
▁World	-8346
▁그대	-8347
▁이거	-8348
▁SU	-8349
▁돌격	-8350
린스	-8351
▁말씀	-8352
▁야쿠	-8353
▁초록	-8354
▁김정일	-8355
▁자선	-8356
▁자오	-8357
▁제압	-8358
▁체크	-8359
대원군	-8360
▁디렉	-8361
▁양호	-8362
▁원전	-8363
▁검찰청	-8364
▁남서부	-8365
▁베네딕	-8366
▁감자	-8367
▁유저	-8368
▁풍자	-8369
▁영산	-8370
▁New	-8371
▁아랫	-8372
ich	-8373
▁CR	-8374
▁우파	-8375
▁침투	-8376
▁다가오	-8377
▁1890	-8378
▁므	-8379
▁옵션	-8380
▁자비	-8381
▁소규모	-8382
줄기	-8383
▁기질	-8384
▁브리지	-8385
▁데르	-8386
▁러시	-8387
▁분명히	-8388
▁맑	-8389
축구	-8390
▁시위대	-8391
▁윤치호	-8392
▁어미	-8393
▁라이온즈	-8394
드르	-8395
▁예조	-8396
▁정세	-8397
▁평정	-8398
▁오프닝	-8399
▁베니	-8400
▁선비	-8401
▁오라	-8402
▁조부	-8403
▁114	-8404
▁냉전	-8405
▁다녀오	-8406
▁이준	-8407
▁안토니오	-8408
▁땃쥐	-8409
▁EC	-8410
▁과반	-8411
▁대거	-8412
▁떨치	-8413
▁은데	-8414
▁김규	-8415
▁시정	-8416
프레스	-8417
▁자택	-8418
▁기업인	-8419
▁깎	-8420
▁대명	-8421
▁매매	-8422
▁구스타	-8423
▁사상자	-8424
▁알루미	-8425
▁미노	-8426
▁정주	-8427
▁증손	-8428
▁블랙홀	-8429
▁알아보	-8430
▁발리	-8431
▁징계	-8432
▁뭐	-8433
▁어긋	-8434
▁봉건	-8435
▁연승	-8436
IP	-8437
▁관세	-8438
▁컷	-8439
▁빛나	-8440
▁이남	-8441
▁118	-8442
렉스	-8443
ign	-8444
▁가드	-8445
▁군중	-8446
ial	-8447
▁구와	-8448
▁지침	-8449
▁히어로즈	-8450
▁태극	-8451
타리오	-8452
▁방사선	-8453
▁일리노	-8454
▁파이널	-8455
▁드라이버	-8456
▁괴물	-8457
▁대부	-8458
▁이드	-8459
▁원로원	-8460
▁풀려나	-8461
▁경신	-8462
▁만료	-8463
▁악단	-8464
▁도청	-8465
▁요정	-8466
▁자음	-8467
조건	-8468
지스	-8469
▁뉴턴	-8470
▁예시	-8471
▁주부	-8472
▁플래시	-8473
▁일리노이	-8474
▁크리스티안	-8475
▁세이브	-8476
▁1898	-8477
▁승부차기	-8478
▁Sc	-8479
▁재상	-8480
▁프로덕	-8481
▁갑작스럽	-8482
▁답변	-8483
▁서자	-8484
▁학명	-8485
▁경찰관	-8486
▁비로소	-8487
▁본국	-8488
▁중형	-8489
▁진사	-8490
▁체스	-8491
▁파란색	-8492
저지	-8493
▁용이	-8494
▁저널	-8495
▁체조	-8496
▁115	-8497
▁매니저	-8498
▁미하일	-8499
러드	-8500
▁비기	-8501
▁스칼	-8502
hn	-8503
▁인명	-8504
▁빔	-8505
황후	-8506
▁공감	-8507
▁종착	-8508
▁디비시온	-8509
▁하르	-8510
▁통치자	-8511
▁럼	-8512
▁SD	-8513
▁벵	-8514
▁트로이	-8515
교도	-8516
▁공조	-8517
▁지인	-8518
▁헬리	-8519
벨트	-8520
▁변이	-8521
▁순조	-8522
▁우측	-8523
▁극장판	-8524
▁우즈베	-8525
닐라	-8526
려워하	-8527
▁엇	-8528
▁전년	-8529
▁컨셉	-8530
▁키르	-8531
▁반지름	-8532
하루	-8533
▁한족	-8534
아먹	-8535
▁남구	-8536
▁동정	-8537
▁밀집	-8538
▁축출	-8539
▁희귀	-8540
▁계열사	-8541
▁봉안	-8542
▁모로코	-8543
▁무승부	-8544
▁기각	-8545
▁직면	-8546
▁챌린지	-8547
히코	-8548
▁극작	-8549
▁로그	-8550
▁카우	-8551
▁하프	-8552
▁뉴저지	-8553
▁레바논	-8554
▁`	-8555
▁앵글	-8556
▁커널	-8557
▁시가지	-8558
▁웨스턴	-8559
▁통보	-8560
▁남미	-8561
▁무성	-8562
▁왕세	-8563
▁천하	-8564
마이오스	-8565
문트	-8566
보르	-8567
▁가옥	-8568
▁선도	-8569
▁JT	-8570
▁외모	-8571
▁필사	-8572
▁헬기	-8573
▁혜택	-8574
▁그레고	-8575
▁대변인	-8576
▁외야수	-8577
기념	-8578
바닥	-8579
▁소모	-8580
▁사위	-8581
▁성리학	-8582
▁기증	-8583
▁정변	-8584
▁취업	-8585
▁패럴	-8586
▁광해군	-8587
▁쫓겨나	-8588
▁체코슬로	-8589
▁체코슬로바키아	-8590
▁모나	-8591
▁부스	-8592
▁케냐	-8593
▁GS	-8594
▁129	-8595
타니	-8596
▁말미	-8597
▁센티	-8598
▁범유행	-8599
▁켈리	-8600
▁렐	-8601
레타	-8602
▁코카	-8603
▁믹	-8604
▁개막전	-8605
▁젊은이	-8606
▁ㅕㅆ	-8607
▁웹툰	-8608
▁핑크	-8609
▁닦	-8610
부리	-8611
쟁이	-8612
▁GP	-8613
▁폭넓	-8614
▁맏	-8615
▁비주	-8616
▁실망	-8617
▁의약품	-8618
먼스	-8619
▁글루	-8620
▁학업	-8621
▁캔자스	-8622
rom	-8623
▁러셀	-8624
▁맥도	-8625
▁연예인	-8626
미사	-8627
▁미세	-8628
▁종속	-8629
▁중산	-8630
▁천재	-8631
▁쾌속	-8632
▁흘러	-8633
▁뇌물	-8634
▁리뷰	-8635
▁척추	-8636
▁알루미늄	-8637
▁숙청	-8638
▁승자	-8639
▁총사령	-8640
▁스타리그	-8641
▁옳	-8642
개미	-8643
▁마력	-8644
▁호출	-8645
▁마운트	-8646
▁종래	-8647
▁예하	-8648
▁터뜨리	-8649
타리	-8650
▁바빌	-8651
▁첨단	-8652
▁케빈	-8653
▁기차	-8654
▁로비	-8655
▁발급	-8656
▁재혼	-8657
▁쯔	-8658
▁퉁	-8659
▁감싸	-8660
▁서신	-8661
▁유라	-8662
▁재선	-8663
▁퇴임	-8664
▁황족	-8665
▁회관	-8666
▁벨라루스	-8667
▁Ne	-8668
▁요건	-8669
▁사간	-8670
▁어른	-8671
ph	-8672
▁남작	-8673
▁넘어서	-8674
▁두려워하	-8675
▁밝기	-8676
▁창출	-8677
▁괘	-8678
니까	-8679
슬러	-8680
▁벽돌	-8681
▁화력	-8682
▁스크립	-8683
방송공사	-8684
▁끌어들이	-8685
TS	-8686
▁웬	-8687
▁예고	-8688
▁카디	-8689
▁토미	-8690
▁III	-8691
▁스트리	-8692
▁장례식	-8693
▁확실히	-8694
▁오오	-8695
▁유방	-8696
▁각도	-8697
▁전속	-8698
▁중공	-8699
▁파산	-8700
▁조지프	-8701
우트	-8702
천리	-8703
▁난징	-8704
▁부피	-8705
▁양반	-8706
▁옹립	-8707
▁응시	-8708
느러미	-8709
▁142	-8710
속기	-8711
▁무명	-8712
▁등기	-8713
▁브리튼	-8714
▁임원	-8715
▁기술자	-8716
▁부여받	-8717
▁월요일	-8718
▁천문대	-8719
▁1899	-8720
테르부르크	-8721
▁생체	-8722
▁토양	-8723
▁어긋나	-8724
▁타임스	-8725
화물	-8726
▁감행	-8727
▁대패	-8728
▁미들	-8729
▁워크	-8730
▁레슬링	-8731
▁세이부	-8732
▁청주시	-8733
▁프란츠	-8734
▁콕	-8735
urn	-8736
▁워너	-8737
▁케임	-8738
▁뒷받침	-8739
▁마르티	-8740
▁플라스틱	-8741
시즘	-8742
▁대치	-8743
▁토끼	-8744
▁폭포	-8745
포로	-8746
▁관제	-8747
▁저주	-8748
▁컴백	-8749
▁더글러스	-8750
진군	-8751
코딩	-8752
▁무함	-8753
▁배수	-8754
▁성폭	-8755
▁소생	-8756
▁ch	-8757
▁리프	-8758
▁발병	-8759
▁지출	-8760
셰비키	-8761
롤라이나	-8762
▁구경	-8763
▁설화	-8764
▁얹	-8765
▁룩셈	-8766
▁학기	-8767
▁형조	-8768
▁힌두교	-8769
▁유진	-8770
▁총칭	-8771
▁축물	-8772
▁하얗	-8773
▁프로덕션	-8774
▁룩셈부르크	-8775
▁거세	-8776
▁시범	-8777
▁자크	-8778
▁정려	-8779
▁사쿠라	-8780
함수	-8781
▁대서양	-8782
토르	-8783
틱스	-8784
▁사본	-8785
▁오크	-8786
▁지켜	-8787
▁청산	-8788
▁거래소	-8789
▁스즈키	-8790
럴드	-8791
▁신원	-8792
▁안테	-8793
▁페널	-8794
ction	-8795
▁설교	-8796
▁지옥	-8797
▁화상	-8798
▁CJ	-8799
▁혼동	-8800
▁1902	-8801
▁만성	-8802
▁화자	-8803
▁광주광역시	-8804
▁의자	-8805
▁지치	-8806
파이어	-8807
▁온타리오	-8808
▁잃어버리	-8809
▁가야	-8810
▁왼손	-8811
▁원천	-8812
▁찌르	-8813
▁희곡	-8814
▁부의장	-8815
두리	-8816
▁운수	-8817
▁중복	-8818
▁Man	-8819
▁그래미	-8820
▁금요일	-8821
브르	-8822
▁공적	-8823
▁동네	-8824
▁벨트	-8825
ens	-8826
▁ID	-8827
▁명종	-8828
▁프톨레	-8829
▁프톨레마이오스	-8830
덩이	-8831
▁광둥	-8832
▁붙잡히	-8833
▁플랫폼	-8834
▁보위	-8835
▁위쪽	-8836
lan	-8837
▁독서	-8838
▁물품	-8839
▁병기	-8840
▁스턴	-8841
▁피신	-8842
MA	-8843
치기	-8844
타주	-8845
▁발기	-8846
▁피겨	-8847
▁니코	-8848
▁연산자	-8849
▁끊임없이	-8850
▁쟈	-8851
▁대성당	-8852
▁키보드	-8853
pp	-8854
▁그릇	-8855
▁아리아	-8856
샤바	-8857
▁우체	-8858
▁체류	-8859
▁도카이	-8860
▁지식인	-8861
▁수분	-8862
▁혐오	-8863
▁바깥쪽	-8864
▁연꽃	-8865
▁정성	-8866
▁''	-8867
▁감마	-8868
▁강변	-8869
▁서류	-8870
▁채소	-8871
▁코시	-8872
▁포획	-8873
▁표적	-8874
▁BS	-8875
▁대손	-8876
▁시코	-8877
▁원종	-8878
▁의의	-8879
▁마녀	-8880
▁기사단	-8881
▁단절	-8882
▁시가	-8883
▁영등	-8884
▁간선	-8885
▁게리	-8886
▁드림	-8887
▁선배	-8888
TA	-8889
▁국영	-8890
▁사슴	-8891
▁코끼리	-8892
▁로라	-8893
▁촉매	-8894
▁앗	-8895
▁습지	-8896
▁외관	-8897
▁탄도	-8898
▁하단	-8899
▁개소	-8900
▁비석	-8901
▁응하	-8902
▁갈수록	-8903
▁아돌프	-8904
▁으려고	-8905
▁흔들리	-8906
lic	-8907
▁깃발	-8908
▁동행	-8909
▁고양시	-8910
▁영문	-8911
▁참의	-8912
글라	-8913
▁주조	-8914
▁밍	-8915
▁함정	-8916
▁비행장	-8917
▁버드	-8918
▁교통국	-8919
▁마스크	-8920
▁페르디난	-8921
▁얽	-8922
▁기니	-8923
폴리	-8924
▁태그	-8925
▁제네바	-8926
▁춥	-8927
크로	-8928
▁시리	-8929
▁유체	-8930
▁정적	-8931
▁소나무	-8932
▁매카트니	-8933
▁대합	-8934
▁매수	-8935
▁울프	-8936
▁헌신	-8937
▁부회장	-8938
▁강동	-8939
▁김창	-8940
▁단축	-8941
▁생생	-8942
▁선행	-8943
▁한테	-8944
▁이용자	-8945
▁몫	-8946
▁김지	-8947
▁빌라	-8948
▁제국주의	-8949
그룹	-8950
▁서리	-8951
▁스위치	-8952
▁익스프레스	-8953
국사	-8954
▁수확	-8955
▁입성	-8956
TC	-8957
▁단의	-8958
▁스폰	-8959
▁드러머	-8960
▁보이스	-8961
▁토착종	-8962
카가	-8963
▁광대	-8964
▁광명	-8965
▁동학	-8966
▁아산	-8967
▁정동	-8968
▁해밀턴	-8969
히토	-8970
▁가환	-8971
▁압둘	-8972
ary	-8973
▁간토	-8974
▁부가	-8975
▁폭격기	-8976
out	-8977
▁초신	-8978
▁경성부	-8979
▁포켓몬스터	-8980
▁면제	-8981
▁역량	-8982
▁직결	-8983
▁화강	-8984
▁서유럽	-8985
▁호르몬	-8986
▁러시아어	-8987
구르	-8988
▁고아	-8989
▁색채	-8990
▁어류	-8991
▁이단	-8992
▁코믹스	-8993
▁1901	-8994
▁브뤼	-8995
▁세비	-8996
▁입국	-8997
▁아이오	-8998
짓점	-8999
▁공리	-9000
▁생략	-9001
▁약자	-9002
▁부작용	-9003
▁사이토	-9004
▁나노	-9005
▁민감	-9006
▁열도	-9007
▁축조	-9008
▁꼭짓점	-9009
ach	-9010
ert	-9011
▁경과	-9012
▁논하	-9013
▁복용	-9014
▁본문	-9015
▁퀘벡	-9016
테인	-9017
▁조립	-9018
피어	-9019
▁성지	-9020
▁여운	-9021
▁일산	-9022
▁소시	-9023
▁전방	-9024
타임	-9025
▁No	-9026
▁임관	-9027
▁체르	-9028
모스	-9029
▁쓰촨	-9030
▁염증	-9031
▁크롬	-9032
▁알렉산드르	-9033
▁울산광역시	-9034
▁갱신	-9035
▁권총	-9036
▁보트	-9037
▁특권	-9038
▁하치	-9039
▁그다지	-9040
▁연기자	-9041
▁트리플	-9042
▁다항식	-9043
▁삿포로	-9044
▁영국인	-9045
미트	-9046
▁주되	-9047
ys	-9048
▁기숙	-9049
▁버티	-9050
▁수축	-9051
▁커스	-9052
▁코코	-9053
▁표방	-9054
▁지켜보	-9055
디나	-9056
▁입각	-9057
▁체중	-9058
▁염색체	-9059
▁렘	-9060
자르	-9061
▁갈릴	-9062
▁불꽃	-9063
▁자작	-9064
▁정문	-9065
▁점성술	-9066
▁무궁	-9067
▁손꼽	-9068
▁실버	-9069
▁현은	-9070
일으키	-9071
▁바이킹	-9072
▁불러일으키	-9073
▁쿄	-9074
▁MB	-9075
▁카미	-9076
▁간단히	-9077
▁아시카가	-9078
▁검열	-9079
▁김제	-9080
▁동조	-9081
▁서문	-9082
▁정립	-9083
LS	-9084
▁누적	-9085
▁엔딩	-9086
루아	-9087
▁보복	-9088
▁차르	-9089
▁치아	-9090
▁사회당	-9091
▁옥스퍼드	-9092
IG	-9093
LE	-9094
링턴	-9095
▁원료	-9096
▁이현	-9097
▁두께	-9098
▁페니	-9099
▁고산	-9100
▁토기	-9101
▁학대	-9102
▁134	-9103
▁개인전	-9104
▁선동	-9105
▁조수	-9106
▁호모	-9107
▁광저우	-9108
▁케임브리지	-9109
로우	-9110
▁공고	-9111
▁박지	-9112
▁보헤	-9113
▁슈팅	-9114
▁카프	-9115
▁장기간	-9116
▁크레이	-9117
▁}	-9118
▁례	-9119
▁썰	-9120
내리	-9121
▁원본	-9122
레슬링	-9123
▁쓰레기	-9124
▁요르단	-9125
▁무함마드	-9126
▁아라비아	-9127
▁어뢰	-9128
▁KIA	-9129
▁푸에르	-9130
사리	-9131
▁분수	-9132
베트남	-9133
▁모서리	-9134
▁파이터	-9135
▁마우	-9136
▁상금	-9137
▁스님	-9138
▁토요	-9139
노미야	-9140
▁대구광역시	-9141
ug	-9142
나우	-9143
펜하	-9144
▁불신	-9145
▁삼촌	-9146
▁연봉	-9147
▁하비	-9148
▁갈리아	-9149
▁대두	-9150
▁독성	-9151
▁All	-9152
▁THE	-9153
기스	-9154
▁좌측	-9155
▁노태우	-9156
▁1903	-9157
대장	-9158
▁가역	-9159
▁레즈	-9160
▁섹스	-9161
▁사업가	-9162
▁전염병	-9163
▁공예	-9164
▁직경	-9165
▁캐서	-9166
▁아리스토	-9167
ase	-9168
▁남매	-9169
▁미륵	-9170
▁산출	-9171
클레스	-9172
▁트로피	-9173
카미	-9174
▁개화	-9175
▁어찌	-9176
▁훔치	-9177
▁페널티	-9178
▁극대	-9179
▁루타	-9180
▁One	-9181
▁패밀리	-9182
▁1884	-9183
▁프로레슬링	-9184
▁노보	-9185
▁오쿠	-9186
▁회상	-9187
▁미시시피	-9188
▁Gr	-9189
▁타케	-9190
▁피고인	-9191
▁홈구장	-9192
▁패널	-9193
테르담	-9194
▁신도비	-9195
아웃	-9196
정리	-9197
▁교대	-9198
▁날카	-9199
▁당연히	-9200
▁만주국	-9201
▁이성계	-9202
카타	-9203
▁군산	-9204
▁다마	-9205
▁아브	-9206
▁날카롭	-9207
▁쓰시마	-9208
처스	-9209
퀘어	-9210
▁강간	-9211
▁구형	-9212
▁소말	-9213
▁이병	-9214
▁언어학	-9215
▁아인슈타인	-9216
▁알렉산드리아	-9217
▁라그	-9218
▁메커	-9219
▁어둠	-9220
▁정선	-9221
올로	-9222
▁EX	-9223
▁중령	-9224
▁퇴역	-9225
▁관광지	-9226
▁지도부	-9227
▁뛰어	-9228
▁하리	-9229
▁이관	-9230
▁쥐과	-9231
ke	-9232
▁AN	-9233
▁로저	-9234
▁스텔	-9235
▁터보	-9236
▁뮤지션	-9237
▁표기법	-9238
그라	-9239
▁에콰	-9240
▁드레스	-9241
▁프레드	-9242
▁에콰도르	-9243
▁질소	-9244
라이어	-9245
▁도널드	-9246
▁공명	-9247
▁니콜라이	-9248
▁군함	-9249
▁강대	-9250
▁퇴적	-9251
▁아폴로	-9252
▁클라이	-9253
▁야마구치	-9254
▁검출	-9255
▁깨지	-9256
▁이태	-9257
▁조형	-9258
도스	-9259
▁Cl	-9260
▁비타	-9261
▁헌정	-9262
▁히타	-9263
▁충청도	-9264
▁1800	-9265
고스	-9266
텍처	-9267
▁구스	-9268
▁우치	-9269
▁파병	-9270
▁아키텍처	-9271
▁LA	-9272
▁대문	-9273
▁함선	-9274
▁조반니	-9275
▁공황	-9276
▁기분	-9277
▁실재	-9278
▁원더	-9279
▁제로	-9280
▁꼭대기	-9281
▁프란체	-9282
▁도요토미	-9283
▁발렌시아	-9284
▁묶이	-9285
▁물가	-9286
▁더욱이	-9287
▁슬라브	-9288
▁뒤쪽	-9289
▁실무	-9290
▁우회	-9291
▁전위	-9292
▁복합체	-9293
▁농부	-9294
▁마르틴	-9295
▁히로시	-9296
라이언트	-9297
푸르	-9298
▁김홍	-9299
▁내걸	-9300
▁반공	-9301
리코	-9302
▁경작	-9303
▁도선	-9304
▁비뉴	-9305
▁의결	-9306
테이션	-9307
▁마르코	-9308
▁방글라	-9309
▁방글라데시	-9310
그레	-9311
▁인질	-9312
▁정유	-9313
▁클라이언트	-9314
방울	-9315
▁건륭	-9316
▁단면	-9317
▁달걀	-9318
▁마키	-9319
▁하차	-9320
사이드	-9321
▁삼국지	-9322
▁곡물	-9323
▁카사	-9324
사우	-9325
▁까닭	-9326
▁당수	-9327
▁발칸	-9328
▁철폐	-9329
▁기념관	-9330
▁컨트리	-9331
▁콤팩트	-9332
▁돌기	-9333
▁장벽	-9334
▁해남	-9335
ree	-9336
▁토시	-9337
▁회피	-9338
▁진전	-9339
▁득표율	-9340
▁소방서	-9341
니시	-9342
▁간신	-9343
▁흥선	-9344
▁거짓말	-9345
▁기념비	-9346
▁총대주교	-9347
▁선우	-9348
▁리더십	-9349
간지	-9350
아들	-9351
▁가오	-9352
▁밀란	-9353
▁방사성	-9354
▁염소	-9355
▁유부	-9356
▁분출	-9357
▁상가	-9358
▁상경	-9359
▁상고	-9360
▁가브리	-9361
▁소행성	-9362
▁일렉트로	-9363
▁강희	-9364
▁에밀	-9365
▁전복	-9366
▁소수자	-9367
개골	-9368
▁용서	-9369
▁취항	-9370
▁코믹	-9371
▁에디션	-9372
▁카를로	-9373
▁북아프리카	-9374
가르	-9375
▁IN	-9376
▁감안	-9377
▁경인	-9378
▁분량	-9379
▁전구	-9380
가와현	-9381
▁메커니즘	-9382
불교	-9383
산맥	-9384
하키	-9385
▁권장	-9386
▁기슭	-9387
▁우물	-9388
▁을까	-9389
▁자형	-9390
▁창녕	-9391
▁남동생	-9392
▁모리스	-9393
▁팟	-9394
▁팰	-9395
▁활주	-9396
▁중앙아시아	-9397
네마	-9398
▁CN	-9399
▁궁중	-9400
▁상응	-9401
▁복소수	-9402
▁가산	-9403
▁냄새	-9404
▁시야	-9405
▁신축	-9406
▁되돌리	-9407
▁with	-9408
ass	-9409
▁무슨	-9410
▁상트	-9411
▁이북	-9412
▁교도소	-9413
▁그레이트	-9414
▁발령	-9415
▁세바	-9416
▁민간인	-9417
▁스토어	-9418
▁깨끗	-9419
▁모모	-9420
▁소자	-9421
▁현감	-9422
▁다케다	-9423
▁견인	-9424
▁러스	-9425
▁맞붙	-9426
▁수목	-9427
▁줄리	-9428
▁기관총	-9429
▁뉴욕주	-9430
▁볼리비아	-9431
▁Br	-9432
▁관절	-9433
▁대출	-9434
▁등용	-9435
▁막스	-9436
▁한층	-9437
▁거주지	-9438
▁와일드	-9439
▁오사카부	-9440
구역	-9441
act	-9442
▁안경	-9443
▁정화	-9444
▁116	-9445
▁220	-9446
▁아나키	-9447
▁아미노산	-9448
▁반군	-9449
▁브란	-9450
▁세키	-9451
▁침체	-9452
곡동	-9453
▁기저	-9454
▁데카	-9455
▁준주	-9456
▁폭로	-9457
▁페이스북	-9458
번뇌	-9459
사업	-9460
▁Ad	-9461
▁각색	-9462
▁평창	-9463
▁일자리	-9464
▁전시회	-9465
▁1897	-9466
파리	-9467
▁가계	-9468
▁낙동	-9469
▁상법	-9470
▁추첨	-9471
▁후작	-9472
▁포스터	-9473
11	-9474
▁교량	-9475
▁홍문관	-9476
▁가의	-9477
▁리만	-9478
▁일파	-9479
▁장자	-9480
▁취미	-9481
▁일부분	-9482
▁요약	-9483
▁스트라이크	-9484
▁한국방송공사	-9485
쿠버	-9486
▁강남구	-9487
▁가열	-9488
▁반전	-9489
▁보성	-9490
▁티코	-9491
▁마가	-9492
▁샌드	-9493
▁심화	-9494
▁절단	-9495
▁캐서린	-9496
pt	-9497
▁갈래	-9498
▁태백	-9499
▁효고	-9500
ream	-9501
▁마카오	-9502
▁방송인	-9503
▁버클리	-9504
▁카스티	-9505
역학	-9506
▁라오	-9507
▁마니	-9508
▁안산	-9509
▁1860	-9510
▁구약	-9511
▁델타	-9512
▁리조	-9513
▁오로	-9514
▁홉	-9515
▁접수	-9516
▁추론	-9517
▁교육청	-9518
▁데스크	-9519
▁꿀	-9520
▁앰	-9521
▁나루	-9522
▁아소	-9523
▁음향	-9524
▁ㄴ지	-9525
▁마블	-9526
▁효종	-9527
▁쓸	-9528
벤처	-9529
▁네오	-9530
▁델라	-9531
▁르노	-9532
▁민정	-9533
▁북경	-9534
▁올드	-9535
▁연대기	-9536
▁어드벤처	-9537
▁;&	-9538
▁GO	-9539
▁체력	-9540
▁배우자	-9541
▁이주하	-9542
▁지지율	-9543
▁사살	-9544
▁장제	-9545
▁휴가	-9546
▁바르샤바	-9547
▁타우	-9548
▁Ex	-9549
▁격차	-9550
▁글래	-9551
▁대관	-9552
▁수료	-9553
▁찰리	-9554
▁확진	-9555
▁알프레	-9556
▁Is	-9557
▁고이	-9558
▁저렴	-9559
기념물	-9560
▁공약	-9561
▁샌디	-9562
▁적군	-9563
▁전산	-9564
▁카타르	-9565
▁후반기	-9566
▁랍	-9567
▁가신	-9568
▁농사	-9569
▁특색	-9570
▁안치	-9571
▁청색	-9572
▁122	-9573
▁중공업	-9574
▁스크립트	-9575
캐롤라이나	-9576
▁공손	-9577
▁메라	-9578
▁쿠니	-9579
▁살피	-9580
▁중원	-9581
▁카즈	-9582
▁경제학자	-9583
포터	-9584
▁돌입	-9585
▁청소	-9586
▁게릴라	-9587
▁사카이	-9588
▁안드레아	-9589
츠크	-9590
▁가가	-9591
▁리히	-9592
▁이반	-9593
▁집결	-9594
▁치우	-9595
▁합당	-9596
▁떡	-9597
▁석불	-9598
▁수중	-9599
스카르	-9600
▁미네소	-9601
산성	-9602
▁세네	-9603
▁신정	-9604
▁타협	-9605
반구	-9606
퍼슨	-9607
▁전격	-9608
▁마라톤	-9609
▁모티브	-9610
▁솔루션	-9611
▁이빨	-9612
▁쥐속	-9613
▁타지	-9614
▁마당	-9615
▁버마	-9616
▁짐작	-9617
▁2022	-9618
▁막시	-9619
▁브룩	-9620
▁소행	-9621
▁입주	-9622
▁클라크	-9623
▁보강	-9624
▁석회	-9625
▁스퀘어	-9626
▁유닉스	-9627
▁새로이	-9628
▁갑옷	-9629
▁고토	-9630
▁마애	-9631
▁실적	-9632
▁종파	-9633
▁괴롭히	-9634
▁돌아다니	-9635
▁눕	-9636
거진	-9637
푸아	-9638
▁동형	-9639
▁벽화	-9640
▁두개골	-9641
▁상트페	-9642
▁아마존	-9643
▁인테르	-9644
▁1880	-9645
▁상트페테르부르크	-9646
콥터	-9647
▁과실	-9648
▁루크	-9649
▁신동	-9650
▁애리	-9651
▁창의	-9652
▁호응	-9653
▁화순	-9654
▁감추	-9655
▁그레고리오	-9656
▁윤보	-9657
▁쳐들	-9658
▁나란히	-9659
▁옥수수	-9660
▁유대교	-9661
▁모용	-9662
▁con	-9663
▁설립자	-9664
▁BM	-9665
▁메릴	-9666
▁무술	-9667
▁사적	-9668
▁정경	-9669
▁ᆫ다며	-9670
ii	-9671
▁엮	-9672
▁강철	-9673
▁빈도	-9674
▁종말	-9675
▁처지	-9676
▁그리스인	-9677
▁흥선대원군	-9678
▁뻔	-9679
▁군청	-9680
▁무로	-9681
▁종점	-9682
▁팔레	-9683
▁갤러리	-9684
▁유정	-9685
▁호쿠	-9686
▁NGC	-9687
▁공용어	-9688
▁극작가	-9689
▁파라과이	-9690
▁셜	-9691
리즘	-9692
▁급수	-9693
▁복권	-9694
▁연동	-9695
▁용암	-9696
▁출석	-9697
▁확고	-9698
▁133	-9699
▁진행자	-9700
▁극도	-9701
▁노이	-9702
▁선장	-9703
▁장원	-9704
▁콘테	-9705
▁함양	-9706
▁손꼽히	-9707
▁함부르크	-9708
네시	-9709
▁어로	-9710
▁입양	-9711
▁제작사	-9712
▁기성	-9713
▁열심	-9714
▁예명	-9715
▁이언	-9716
▁제리	-9717
▁추리	-9718
▁경쟁력	-9719
▁붙여지	-9720
기구	-9721
▁무스	-9722
▁소령	-9723
▁야시	-9724
▁연못	-9725
▁일괄	-9726
▁제왕	-9727
▁이동하	-9728
▁키예프	-9729
▁그렇지만	-9730
나미	-9731
iss	-9732
▁수녀	-9733
▁그림자	-9734
▁가네	-9735
▁등극	-9736
▁번성	-9737
▁블리	-9738
▁자결	-9739
▁진료	-9740
▁디트로	-9741
▁디트로이트	-9742
니지	-9743
타케	-9744
ake	-9745
▁스노	-9746
▁오락	-9747
▁이장	-9748
▁천연기념물	-9749
own	-9750
▁왕정	-9751
▁프렌	-9752
▁준결승전	-9753
어뜨리	-9754
▁유령	-9755
▁추종	-9756
▁교육부	-9757
케이	-9758
자치시	-9759
▁특별자치시	-9760
▁몽고	-9761
▁숙주	-9762
▁심야	-9763
▁즐겁	-9764
몰로지	-9765
▁Mus	-9766
▁명분	-9767
▁엘리트	-9768
사관학교	-9769
▁프랭클린	-9770
▁오지	-9771
▁CBS	-9772
▁사쿠	-9773
▁프롤	-9774
▁CEO	-9775
▁국유	-9776
▁앞장	-9777
▁이규	-9778
▁이데	-9779
▁평민	-9780
▁사무총장	-9781
▁법정동	-9782
▁아래쪽	-9783
▁일러스트	-9784
▁낚	-9785
▁스로	-9786
▁우상	-9787
▁원격	-9788
▁위생	-9789
▁무궁화	-9790
▁싣	-9791
▁ES	-9792
▁미셸	-9793
▁아치	-9794
▁위나라	-9795
▁이득	-9796
▁장흥	-9797
▁탁월	-9798
▁파우	-9799
▁포도당	-9800
▁애틀랜타	-9801
해지	-9802
▁도사	-9803
▁수년	-9804
▁조계	-9805
▁펜싱	-9806
▁GDP	-9807
▁미생물	-9808
▁그레고리	-9809
세기	-9810
▁강풍	-9811
▁고추	-9812
▁농어	-9813
▁반역	-9814
▁재난	-9815
▁헬륨	-9816
▁앨리스	-9817
▁듀얼	-9818
▁문경	-9819
▁자카	-9820
▁겉보기	-9821
▁개항	-9822
▁온갖	-9823
▁대사헌	-9824
미스	-9825
▁자생	-9826
▁동성애자	-9827
▁스트라이커	-9828
▁섀	-9829
▁타석	-9830
clude	-9831
▁스리랑카	-9832
▁툰	-9833
타마	-9834
▁결핍	-9835
▁속편	-9836
▁132	-9837
▁기상청	-9838
▁무조건	-9839
Hz	-9840
UR	-9841
그래	-9842
멘스	-9843
▁빈번	-9844
▁정인	-9845
▁주지	-9846
▁지청	-9847
▁지방산	-9848
▁니카	-9849
▁워치	-9850
▁진수	-9851
▁대성전	-9852
HO	-9853
▁감동	-9854
▁더비	-9855
▁유스	-9856
▁칼뱅	-9857
림픽	-9858
원장	-9859
old	-9860
▁김민	-9861
▁속이	-9862
▁정관	-9863
▁해치	-9864
▁시뮬레이션	-9865
에미	-9866
▁듀오	-9867
▁수심	-9868
▁대지진	-9869
▁동요	-9870
▁상연	-9871
▁애칭	-9872
▁총무	-9873
▁글로브	-9874
▁인프라	-9875
▁삼국사기	-9876
버러	-9877
▁꿈꾸	-9878
▁아데	-9879
▁파이프	-9880
위성	-9881
헌영	-9882
▁결제	-9883
▁광양	-9884
▁동참	-9885
▁리모	-9886
▁기병대	-9887
스기	-9888
▁++	-9889
▁베른	-9890
미즈	-9891
▁막히	-9892
▁인디애나	-9893
메다	-9894
▁불행	-9895
▁초원	-9896
▁하고	-9897
거래	-9898
ork	-9899
▁NE	-9900
▁두렵	-9901
▁속주	-9902
▁시종	-9903
▁슛	-9904
▁주화	-9905
GA	-9906
▁빠져	-9907
▁조병	-9908
바야시	-9909
▁마다가	-9910
▁격자	-9911
▁현직	-9912
▁현행	-9913
▁자세히	-9914
ix	-9915
파크	-9916
▁대국	-9917
▁맹세	-9918
▁발각	-9919
▁암흑	-9920
▁호족	-9921
▁마우스	-9922
렉션	-9923
▁La	-9924
▁극락	-9925
▁상기	-9926
▁미주리	-9927
▁요제프	-9928
▁통틀어	-9929
▁보헤미아	-9930
▁쾰	-9931
▁헛	-9932
▁브랜	-9933
▁재해	-9934
ence	-9935
▁신상	-9936
▁호의	-9937
▁농산물	-9938
벨라	-9939
할시	-9940
▁or	-9941
▁가타	-9942
▁복음서	-9943
▁국수	-9944
러피	-9945
해튼	-9946
ick	-9947
▁kt	-9948
▁패럴림픽	-9949
변이	-9950
천사	-9951
▁파문	-9952
위원회	-9953
▁pro	-9954
▁돌연변이	-9955
▁Ro	-9956
▁vs	-9957
▁단과	-9958
▁무르	-9959
▁숨지	-9960
▁요법	-9961
▁해부	-9962
lo	-9963
▁른	-9964
▁대각	-9965
▁피로	-9966
▁현황	-9967
▁호리	-9968
▁저널리	-9969
()	-9970
▁감금	-9971
▁김옥	-9972
▁볼셰비키	-9973
▁평안남도	-9974
마리	-9975
▁공파	-9976
▁공표	-9977
▁아빠	-9978
▁청자	-9979
▁초고	-9980
▁투항	-9981
▁밀러	-9982
▁세손	-9983
▁의과	-9984
▁우체국	-9985
라기	-9986
루냐	-9987
▁낙하	-9988
▁1870	-9989
▁합스부르크	-9990
▁소울	-9991
▁따라가	-9992
▁후속작	-9993
를테	-9994
▁입수	-9995
▁저격	-9996
를테면	-9997
▁매거진	-9998
▁활주로	-9999
▁이를테면	-10000
▁댓	-10001
▁김병	-10002
▁총기	-10003
▁황도	-10004
CAF	-10005
▁만년	-10006
▁생계	-10007
▁서장	-10008
▁재질	-10009
▁포고	-10010
▁소피아	-10011
▁오로지	-10012
▁뾰	-10013
▁PR	-10014
▁페로	-10015
▁표창	-10016
브리아	-10017
▁양육	-10018
▁이븐	-10019
▁장대	-10020
▁정국	-10021
▁Mar	-10022
▁모터스	-10023
▁관동	-10024
▁난이	-10025
▁아요	-10026
▁틀리	-10027
▁창시자	-10028
▁숀	-10029
삭스	-10030
▁루비	-10031
▁우아	-10032
▁제너	-10033
▁휩쓸	-10034
▁단행본	-10035
▁아스널	-10036
▁중앙부	-10037
▁타이베이	-10038
▁비늘	-10039
ance	-10040
▁애리조	-10041
▁평안북도	-10042
플로	-10043
홀름	-10044
▁To	-10045
▁말년	-10046
▁머스	-10047
▁시국	-10048
▁왜구	-10049
▁매끄럽	-10050
▁1885	-10051
▁돌출	-10052
▁맞대	-10053
▁앞쪽	-10054
▁450	-10055
▁우즈베키스탄	-10056
▁엥	-10057
▁리터	-10058
▁NAS	-10059
▁un	-10060
▁국악	-10061
▁부조	-10062
▁대장군	-10063
▁청동기	-10064
▁활발히	-10065
▁1871	-10066
EM	-10067
▁DM	-10068
▁내면	-10069
▁로페	-10070
▁복식	-10071
▁성령	-10072
▁전날	-10073
▁프랜시스	-10074
▁아이스하키	-10075
▁마르크스주의	-10076
공산	-10077
▁감수	-10078
▁배속	-10079
▁아쿠	-10080
▁중상	-10081
▁Ph	-10082
테리아	-10083
십자	-10084
▁릴리	-10085
▁벤치	-10086
▁신종	-10087
▁지로	-10088
▁비주얼	-10089
▁세븐	-10090
▁수염	-10091
▁퇴장	-10092
▁USS	-10093
▁로렌스	-10094
▁짱	-10095
▁카바	-10096
▁원심	-10097
▁1600	-10098
쩌둥	-10099
▁리바	-10100
▁매직	-10101
▁이모	-10102
▁차리	-10103
▁다람쥐	-10104
▁편집자	-10105
▁마오쩌둥	-10106
▁알래스카	-10107
ection	-10108
ear	-10109
irl	-10110
▁끌려가	-10111
▁빅토르	-10112
▁맷	-10113
▁쿡	-10114
티시	-10115
▁경질	-10116
▁볼프	-10117
▁중생	-10118
▁케라	-10119
러피언	-10120
라고	-10121
제이	-10122
▁반성	-10123
▁수교	-10124
▁증인	-10125
▁참사	-10126
타이드	-10127
▁흉노	-10128
▁앤더슨	-10129
▁프레이	-10130
▁휴게	-10131
▁양성자	-10132
▁유러피언	-10133
▁자칭	-10134
▁지성	-10135
▁티켓	-10136
lass	-10137
▁내무부	-10138
▁오클랜드	-10139
어오	-10140
▁관행	-10141
▁시애	-10142
▁카터	-10143
▁즘	-10144
틀리	-10145
▁국당	-10146
▁내성	-10147
▁이양	-10148
▁콜레	-10149
▁only	-10150
돌리	-10151
▁수다	-10152
▁요지	-10153
▁위스	-10154
▁유료	-10155
▁화랑	-10156
▁수원시	-10157
▁콘스탄티노폴리스	-10158
ild	-10159
▁로리	-10160
▁청룡	-10161
▁테일	-10162
▁박헌영	-10163
▁센고쿠	-10164
▁1200	-10165
테쓰	-10166
▁스태	-10167
▁마닐라	-10168
▁반란군	-10169
파이	-10170
▁루카	-10171
▁이완	-10172
▁잡아먹	-10173
▁파나마	-10174
▁바디	-10175
▁수인	-10176
▁장단	-10177
▁제동	-10178
▁중서	-10179
▁240	-10180
▁불태우	-10181
▁알렉스	-10182
▁GN	-10183
▁능선	-10184
▁역도	-10185
▁조광	-10186
▁해저	-10187
▁케이프	-10188
▁냐는	-10189
▁민요	-10190
▁봉수	-10191
▁지오	-10192
▁친분	-10193
텔레스	-10194
▁다나카	-10195
▁프로리그	-10196
올라	-10197
▁SL	-10198
▁당내	-10199
▁이방	-10200
▁탑신	-10201
▁역사가	-10202
▁빨갛	-10203
▁성실	-10204
▁이룩	-10205
▁김정은	-10206
▁예정자	-10207
▁부각	-10208
▁부원군	-10209
▁시애틀	-10210
▁려던	-10211
▁카니	-10212
▁윤보선	-10213
▁마다가스카르	-10214
관리	-10215
▁재외	-10216
▁출가	-10217
▁플랜	-10218
▁오른손	-10219
▁왕세자	-10220
▁멍	-10221
체고	-10222
▁개개	-10223
▁교실	-10224
▁구니	-10225
▁무척	-10226
▁분과	-10227
▁초빙	-10228
▁김규식	-10229
▁앤드루	-10230
체고비나	-10231
▁궁궐	-10232
▁몸통	-10233
▁상급	-10234
▁실험실	-10235
▁제조업	-10236
▁프라하	-10237
▁하노이	-10238
맥스	-10239
▁섬세	-10240
▁조례	-10241
▁AD	-10242
▁남용	-10243
▁정제	-10244
▁맨해튼	-10245
▁구마모토	-10246
▁아리스토텔레스	-10247
▁리비	-10248
▁통역	-10249
▁공민왕	-10250
▁해리슨	-10251
▁생선	-10252
▁미군정	-10253
▁아무것	-10254
메스	-10255
ans	-10256
▁송도	-10257
▁징병	-10258
▁한하	-10259
▁동물원	-10260
▁루돌프	-10261
▁파인	-10262
OV	-10263
면체	-10264
▁재활	-10265
▁지쿠	-10266
▁차용	-10267
▁동대문	-10268
▁겁	-10269
사상	-10270
▁관문	-10271
▁서산	-10272
▁창문	-10273
▁헬리콥터	-10274
천면	-10275
▁오미	-10276
▁총애	-10277
▁호크	-10278
▁대대로	-10279
▁개헌	-10280
▁경시	-10281
▁경희	-10282
▁고쿠	-10283
▁실존	-10284
▁신문사	-10285
▁러시아인	-10286
▁괄	-10287
▁Sy	-10288
▁각성	-10289
▁농경	-10290
▁칼럼	-10291
▁줄거리	-10292
코토	-10293
▁국보	-10294
▁배려	-10295
▁허드	-10296
▁크라이	-10297
▁남산	-10298
▁독창	-10299
▁뾰족	-10300
▁커플	-10301
▁퍼스	-10302
▁퍼포	-10303
▁함자	-10304
▁EBS	-10305
▁경영자	-10306
▁리조트	-10307
ivers	-10308
무소	-10309
▁CM	-10310
▁수필	-10311
▁성남시	-10312
▁얕	-10313
▁유권자	-10314
▁퍼포먼스	-10315
ype	-10316
▁구청	-10317
▁하반	-10318
▁제퍼슨	-10319
▁시합	-10320
▁에프	-10321
▁포착	-10322
▁동유럽	-10323
▁남해	-10324
▁약혼	-10325
▁화기	-10326
▁위너스	-10327
▁퍼스트	-10328
▁브레이크	-10329
▁나선	-10330
▁총통	-10331
▁클린턴	-10332
▁드미	-10333
▁바트	-10334
▁클레이	-10335
include	-10336
▁경호	-10337
▁뉴클	-10338
▁학설	-10339
▁MTV	-10340
▁사각형	-10341
▁올림피아	-10342
▁칙령	-10343
▁통용	-10344
▁파도	-10345
▁브루스	-10346
▁서재필	-10347
▁솔로몬	-10348
어사	-10349
ish	-10350
▁효자	-10351
▁는다면	-10352
▁레이크	-10353
▁선거법	-10354
▁김원	-10355
▁시노	-10356
▁카지	-10357
▁유치원	-10358
▁해리스	-10359
▁가늘	-10360
▁안녕	-10361
GM	-10362
▁마차	-10363
▁모호	-10364
▁산호	-10365
▁유혹	-10366
▁주임	-10367
▁하류	-10368
▁나우	-10369
▁모의	-10370
▁스가	-10371
▁차갑	-10372
▁":	-10373
▁Jo	-10374
▁씨앗	-10375
▁욕망	-10376
▁전래	-10377
▁데려오	-10378
▁스테파	-10379
토랑	-10380
▁관청	-10381
▁들여	-10382
▁신발	-10383
▁일당	-10384
▁하키	-10385
▁화엄	-10386
▁케플러	-10387
▁레스토랑	-10388
▁광도	-10389
▁자제	-10390
▁주입	-10391
▁허정	-10392
▁자치체	-10393
▁총사령관	-10394
원수	-10395
oun	-10396
▁보로	-10397
▁대합실	-10398
에스	-10399
▁NT	-10400
▁성화	-10401
▁시부	-10402
▁천왕	-10403
OD	-10404
▁독도	-10405
▁반기	-10406
▁보행	-10407
▁수양	-10408
▁케인	-10409
▁테라	-10410
▁트릭	-10411
▁호스	-10412
▁분류군	-10413
통일	-10414
▁실정	-10415
▁진해	-10416
▁아키라	-10417
▁예수회	-10418
▁요시다	-10419
▁함경남도	-10420
▁@	-10421
히트	-10422
▁로버	-10423
▁절망	-10424
▁카테	-10425
▁예선전	-10426
AF	-10427
fe	-10428
▁만장	-10429
▁메뉴	-10430
▁찬사	-10431
▁포식	-10432
▁ex	-10433
▁보라	-10434
▁평형	-10435
▁전무	-10436
▁제물	-10437
▁긴테쓰	-10438
▁뛰어들	-10439
▁비밀리	-10440
신문	-10441
정원	-10442
▁마술	-10443
▁무실	-10444
▁분파	-10445
▁검정	-10446
▁극한	-10447
▁라서	-10448
▁폭파	-10449
▁메이커	-10450
▁정의당	-10451
are	-10452
▁나인	-10453
▁소음	-10454
▁테리	-10455
▁내야수	-10456
창호	-10457
▁고든	-10458
▁리보	-10459
▁메카	-10460
▁박종	-10461
▁침묵	-10462
▁sc	-10463
▁다테	-10464
▁이점	-10465
▁보수당	-10466
▁플라톤	-10467
라니	-10468
환경	-10469
▁가솔	-10470
▁블레	-10471
▁원통	-10472
▁방어선	-10473
▁네이션스컵	-10474
▁벅	-10475
바흐	-10476
▁당연	-10477
▁라자	-10478
▁문고	-10479
▁시몬	-10480
▁다저스	-10481
▁비타민	-10482
▁시중	-10483
▁아키타	-10484
▁스톡홀름	-10485
▁ㅓ야	-10486
▁매리	-10487
▁어군	-10488
▁천국	-10489
▁캐롤	-10490
▁서대문	-10491
▁컴퓨팅	-10492
▁뉴클레오	-10493
▁도둑	-10494
▁본성	-10495
▁블로	-10496
▁엄밀	-10497
▁카피	-10498
ical	-10499
▁ABC	-10500
▁알프스	-10501
등식	-10502
▁넷째	-10503
▁프론	-10504
▁드루	-10505
▁수복	-10506
러브	-10507
▁김유	-10508
▁마셜	-10509
▁색소	-10510
▁전담	-10511
▁타스	-10512
▁개구리	-10513
▁바이트	-10514
▁유아기	-10515
lat	-10516
▁강령	-10517
▁자치주	-10518
▁와이번스	-10519
▁도교	-10520
▁리베	-10521
▁묘비	-10522
▁방콕	-10523
▁파손	-10524
▁나트륨	-10525
▁오리온	-10526
▁친위대	-10527
▁동로	-10528
▁소극	-10529
▁웨인	-10530
▁황소	-10531
▁스폰서	-10532
▁프린스	-10533
TP	-10534
암동	-10535
▁노론	-10536
▁대본	-10537
▁북아일랜드	-10538
EG	-10539
IR	-10540
▁대북	-10541
▁모어	-10542
▁백두	-10543
▁소중	-10544
▁찬양	-10545
▁리프트	-10546
▁앞장서	-10547
▁멧	-10548
▁스텝	-10549
메드	-10550
▁럭비	-10551
▁리사	-10552
▁불변	-10553
▁마천루	-10554
▁샐	-10555
▁실권	-10556
▁장시	-10557
▁채취	-10558
▁천거	-10559
▁치과	-10560
▁홀리	-10561
▁ATP	-10562
▁대원군	-10563
▁로드리	-10564
▁투자자	-10565
▁피아니스트	-10566
매매	-10567
▁DD	-10568
▁구실	-10569
▁일리	-10570
▁추이	-10571
▁가브리엘	-10572
부르	-10573
▁CH	-10574
▁마켓	-10575
▁포토	-10576
▁화약	-10577
▁책임지	-10578
▁피라미	-10579
▁Fr	-10580
▁사방	-10581
▁상행	-10582
▁슬픔	-10583
▁야전	-10584
▁왕권	-10585
▁헬싱	-10586
군다	-10587
▁AV	-10588
▁결별	-10589
▁구내	-10590
▁국공	-10591
▁선천	-10592
▁야드	-10593
▁톈진	-10594
▁퇴직	-10595
▁한미	-10596
▁마누엘	-10597
▁연산군	-10598
▁토스카	-10599
▁튀르크	-10600
▁담보	-10601
▁벤처	-10602
▁여유	-10603
▁영유	-10604
▁정거	-10605
▁210	-10606
덴부르크	-10607
▁이의	-10608
▁특전	-10609
▁동시대	-10610
▁용인시	-10611
▁연극배우	-10612
대표	-10613
▁구두	-10614
▁따지	-10615
▁로우	-10616
▁삼존	-10617
▁제노	-10618
▁쾰른	-10619
▁선구자	-10620
▁정부군	-10621
말리	-10622
▁슬하	-10623
▁화강암	-10624
▁콘테스트	-10625
FL	-10626
놀이	-10627
▁유격수	-10628
▁적외선	-10629
티넘	-10630
▁Ma	-10631
▁로크	-10632
▁약사	-10633
▁어는	-10634
▁가이드	-10635
▁아나톨	-10636
▁플래티넘	-10637
▁헤르체고비나	-10638
ey	-10639
▁pr	-10640
▁감찰	-10641
▁방치	-10642
▁스칸	-10643
▁차출	-10644
▁알파벳	-10645
▁주차장	-10646
▁프레데	-10647
대교	-10648
▁별세	-10649
ica	-10650
▁간첩	-10651
▁강렬	-10652
▁마에	-10653
▁위그	-10654
▁유선	-10655
▁중퇴	-10656
▁펌프	-10657
▁잇따르	-10658
EL	-10659
▁왕건	-10660
▁목요일	-10661
사고	-10662
▁뭉치	-10663
▁본작	-10664
▁부치	-10665
▁준수	-10666
▁사로잡	-10667
▁오바마	-10668
▁딥	-10669
수스	-10670
▁가락	-10671
▁경전철	-10672
▁그저	-10673
▁리본	-10674
▁불참	-10675
▁삼림	-10676
▁he	-10677
▁봉화	-10678
▁실록	-10679
▁임정	-10680
▁종식	-10681
▁칸국	-10682
▁두려움	-10683
▁안테나	-10684
▁로얄	-10685
▁아날	-10686
▁유목	-10687
▁켈트	-10688
▁접어들	-10689
▁초신성	-10690
▁1889	-10691
클레	-10692
▁공존	-10693
▁밸리	-10694
▁엔트리	-10695
▁스카우트	-10696
60	-10697
▁영정	-10698
▁요충	-10699
▁이송	-10700
▁기관지	-10701
▁늙	-10702
난성	-10703
▁반포	-10704
▁산성	-10705
▁여권	-10706
▁예약	-10707
▁전전	-10708
▁직통	-10709
▁하시	-10710
공산당	-10711
와라노	-10712
▁도망가	-10713
▁아이폰	-10714
▁후지와라노	-10715
천동	-10716
▁가맹	-10717
▁건전	-10718
▁김형	-10719
▁사역	-10720
▁새우	-10721
▁송신	-10722
▁중합	-10723
▁말미암	-10724
▁고속버스	-10725
소통	-10726
▁갈아	-10727
▁로트	-10728
▁마땅	-10729
▁모금	-10730
▁모하	-10731
▁아끼	-10732
▁영예	-10733
▁정형	-10734
▁집정	-10735
▁형질	-10736
▁밴쿠버	-10737
▁패트릭	-10738
▁베트	-10739
▁여서	-10740
▁플리	-10741
부로	-10742
충류	-10743
▁다윈	-10744
▁대영	-10745
▁우림	-10746
▁투여	-10747
테이너	-10748
▁능하	-10749
▁호대	-10750
▁타이어	-10751
▁구르	-10752
▁불량	-10753
▁비엔	-10754
▁연말	-10755
▁치루	-10756
▁간신히	-10757
▁열심히	-10758
▁타이거스	-10759
▁So	-10760
▁니혼	-10761
▁사설	-10762
▁열강	-10763
▁의류	-10764
▁인가	-10765
▁절정	-10766
▁판례	-10767
▁드디어	-10768
▁떨어뜨리	-10769
▁의사소통	-10770
▁감성	-10771
▁똑같이	-10772
▁권하	-10773
▁매트	-10774
▁비야	-10775
▁주계	-10776
▁캐리	-10777
▁피지	-10778
▁For	-10779
▁메디치	-10780
▁스트로	-10781
바나	-10782
카리	-10783
▁발라드	-10784
▁챙	-10785
▁극우	-10786
▁김준	-10787
▁악보	-10788
▁종자	-10789
▁지자	-10790
▁쿠퍼	-10791
▁튼	-10792
위안	-10793
▁격리	-10794
▁라리	-10795
▁낙동강	-10796
▁엣	-10797
▁감상	-10798
▁미수	-10799
▁받치	-10800
▁사탕	-10801
▁수락	-10802
▁시크	-10803
▁정작	-10804
블랜드	-10805
▁CONCA	-10806
지능	-10807
▁사서	-10808
▁작물	-10809
▁중수	-10810
▁로마인	-10811
▁생존자	-10812
▁인공지능	-10813
▁애정	-10814
추부사	-10815
▁JTBC	-10816
▁Live	-10817
▁프란체스코	-10818
▁CONCACAF	-10819
가미	-10820
드레	-10821
▁무형	-10822
▁센티미터	-10823
bo	-10824
▁금호	-10825
▁서임	-10826
▁원군	-10827
▁의령	-10828
▁정읍	-10829
▁후배	-10830
▁클리블랜드	-10831
▁나카무라	-10832
▁소말리아	-10833
sh	-10834
유예	-10835
▁메소	-10836
▁정종	-10837
▁징수	-10838
▁미야자키	-10839
▁훙	-10840
▁도피	-10841
▁목회	-10842
▁앙골	-10843
▁요격	-10844
▁하야	-10845
휴일	-10846
▁고딕	-10847
▁모색	-10848
▁은거	-10849
▁부딪히	-10850
▁프랑스인	-10851
▁공소	-10852
▁잠정	-10853
▁제명	-10854
캐슬	-10855
▁가두	-10856
▁기이	-10857
▁Sou	-10858
에미리트	-10859
▁아랍에미리트	-10860
▁가도	-10861
▁바지	-10862
▁백과	-10863
▁송출	-10864
▁페트	-10865
▁시네마	-10866
IL	-10867
란토	-10868
망디	-10869
프로	-10870
▁금산	-10871
▁볼트	-10872
▁레이싱	-10873
▁가나가와현	-10874
풀이	-10875
▁비준	-10876
▁습윤	-10877
마르크	-10878
▁여배우	-10879
▁장학금	-10880
▁카탈루냐	-10881
▁자유민주당	-10882
▁깜	-10883
▁유의	-10884
▁치환	-10885
▁트렌	-10886
도르프	-10887
▁피라미드	-10888
EE	-10889
▁김명	-10890
▁당기	-10891
▁리옹	-10892
▁연정	-10893
바이트	-10894
하이오	-10895
▁오하이오	-10896
지기	-10897
▁EU	-10898
▁모욕	-10899
▁서태	-10900
▁익숙	-10901
▁광복군	-10902
▁교통부	-10903
▁유희	-10904
▁평평	-10905
▁Com	-10906
▁에이즈	-10907
다운	-10908
말로	-10909
▁벨리	-10910
tern	-10911
▁미야기	-10912
화문	-10913
▁격추	-10914
▁무네	-10915
▁레이더	-10916
▁Time	-10917
▁성곽	-10918
▁순종	-10919
▁자서	-10920
▁가솔린	-10921
▁검은색	-10922
▁캅	-10923
ood	-10924
▁거미	-10925
▁김광	-10926
▁워커	-10927
▁한중	-10928
▁항만	-10929
▁Col	-10930
▁마이어	-10931
▁유니버설	-10932
간다	-10933
대사	-10934
▁GB	-10935
▁AKB	-10936
▁스타트	-10937
▁츄	-10938
ost	-10939
▁"&	-10940
▁귀신	-10941
▁삼중	-10942
▁수로	-10943
▁암스	-10944
▁탄약	-10945
▁int	-10946
▁기숙사	-10947
▁카카오	-10948
▁1848	-10949
자루	-10950
▁매킨	-10951
▁문집	-10952
▁양심	-10953
▁여고	-10954
▁뉴캐슬	-10955
▁토리노	-10956
현동	-10957
▁추억	-10958
▁하구	-10959
▁라이더	-10960
▁레이트	-10961
▁Part	-10962
▁어시스트	-10963
▁프랑스령	-10964
찌르	-10965
▁무과	-10966
▁여사	-10967
▁우루스	-10968
나마	-10969
▁급여	-10970
▁사쓰	-10971
▁천주	-10972
▁티아	-10973
▁포털	-10974
▁한림	-10975
▁브레이	-10976
▁여의도	-10977
row	-10978
▁도래	-10979
▁해피	-10980
▁프란치	-10981
거스	-10982
▁사민	-10983
▁추력	-10984
▁최진	-10985
▁바그너	-10986
에몽	-10987
의사	-10988
지부	-10989
▁오만	-10990
▁해태	-10991
span	-10992
▁대리인	-10993
▁지상파	-10994
애미	-10995
▁국한	-10996
▁댄서	-10997
▁재팬	-10998
▁하행	-10999
▁공휴일	-11000
▁명확히	-11001
▁부총리	-11002
▁마이애미	-11003
▁TR	-11004
▁워즈	-11005
▁조인	-11006
▁토트	-11007
▁해독	-11008
▁onlyinclude	-11009
uc	-11010
정동	-11011
ous	-11012
▁가혹	-11013
▁남군	-11014
▁볼로	-11015
▁재일	-11016
▁절벽	-11017
▁우한	-11018
▁종군	-11019
▁코리	-11020
프랑크	-11021
▁지배자	-11022
▁튀니지	-11023
▁카스티야	-11024
lay	-11025
▁공대	-11026
▁공성	-11027
▁라르	-11028
▁모건	-11029
▁비정	-11030
▁셀레	-11031
▁무찌르	-11032
▁방대	-11033
▁병자	-11034
▁업자	-11035
▁총격	-11036
▁대니얼	-11037
▁정치학	-11038
▁클라우	-11039
orn	-11040
▁EM	-11041
▁무안	-11042
▁비토	-11043
▁클러	-11044
▁정거장	-11045
▁굴절	-11046
▁보령	-11047
▁안개	-11048
▁유식	-11049
▁특화	-11050
▁일본국	-11051
▁Your	-11052
▁대승불교	-11053
▁보수주의	-11054
▁로키	-11055
▁부합	-11056
파니아	-11057
▁고인돌	-11058
▁교의	-11059
▁비대	-11060
▁음절	-11061
페스트	-11062
▁법원장	-11063
▁페트로	-11064
▁산둥	-11065
▁제위	-11066
▁치카	-11067
▁국제법	-11068
▁대단히	-11069
▁대법관	-11070
▁마법사	-11071
▁리카	-11072
▁설문	-11073
ows	-11074
▁인칭	-11075
olog	-11076
▁SNS	-11077
▁관현악단	-11078
관계	-11079
메니	-11080
으로	-11081
ann	-11082
▁가쿠	-11083
▁경복	-11084
▁김인	-11085
▁단결	-11086
▁신곡	-11087
▁그랜트	-11088
▁시코쿠	-11089
▁아이즈	-11090
▁랴오	-11091
▁몰아	-11092
▁문단	-11093
▁부평	-11094
▁선명	-11095
▁시멘트	-11096
브로	-11097
▁사수	-11098
▁숙부	-11099
해살이	-11100
▁류큐	-11101
▁마테	-11102
▁용액	-11103
▁Bla	-11104
▁저지대	-11105
▁하노버	-11106
▁헤어지	-11107
az	-11108
▁고로	-11109
▁대마	-11110
▁모빌	-11111
▁선봉	-11112
▁케르	-11113
▁제우스	-11114
히사	-11115
▁BC	-11116
▁거란	-11117
▁공영	-11118
▁연립	-11119
▁131	-11120
OP	-11121
▁동산	-11122
▁지법	-11123
▁항체	-11124
메이카	-11125
▁OST	-11126
▁카메룬	-11127
▁자메이카	-11128
▁줄기세포	-11129
▁부다	-11130
▁오디	-11131
▁평지	-11132
▁황색	-11133
▁API	-11134
▁방사능	-11135
▁정보원	-11136
▁쪼	-11137
서스	-11138
▁검거	-11139
▁꺼내	-11140
▁메일	-11141
▁베어	-11142
▁서귀	-11143
▁진로	-11144
▁대나무	-11145
▁NASA	-11146
▁명소	-11147
▁초콜	-11148
클리드	-11149
▁레드삭스	-11150
▁도키	-11151
▁동진	-11152
▁소외	-11153
▁안방	-11154
▁적료	-11155
▁점포	-11156
드리아	-11157
▁줄리아	-11158
▁1883	-11159
▁쾨	-11160
▁재편	-11161
지아	-11162
▁at	-11163
▁모범	-11164
▁사림	-11165
▁종양	-11166
▁항우	-11167
▁형벌	-11168
빌라이	-11169
▁ref	-11170
▁부상자	-11171
▁욱	-11172
칼리	-11173
▁글꼴	-11174
▁메스	-11175
▁전보	-11176
▁지석	-11177
▁라파엘	-11178
▁영화상	-11179
▁제이슨	-11180
aw	-11181
▁가중	-11182
▁국교	-11183
▁남방	-11184
▁다듬	-11185
▁속력	-11186
▁최선	-11187
▁혼다	-11188
▁패러디	-11189
▁그라운드	-11190
▁GM	-11191
▁골격	-11192
▁다툼	-11193
▁하코	-11194
레스트	-11195
▁기와	-11196
▁전한	-11197
▁중엽	-11198
른스트	-11199
▁녕	-11200
시노	-11201
▁실증	-11202
▁응급	-11203
▁편견	-11204
▁한신	-11205
▁곶	-11206
▁가토	-11207
▁도박	-11208
▁라디	-11209
▁봉인	-11210
▁수식	-11211
▁연희	-11212
▁절감	-11213
▁평판	-11214
▁날아가	-11215
▁교향악단	-11216
▁기세	-11217
▁녹화	-11218
▁본뜨	-11219
▁탄자	-11220
네그로	-11221
▁판소리	-11222
용차	-11223
▁관상	-11224
▁무작	-11225
▁ㄴ다면	-11226
▁u	-11227
▁촛	-11228
합성	-11229
▁계주	-11230
▁산요	-11231
▁은혜	-11232
▁코소	-11233
▁타락	-11234
▁비서관	-11235
▁체인지	-11236
▁대좌	-11237
▁삽화	-11238
▁쌍대	-11239
▁후진	-11240
▁파일럿	-11241
▁노르망디	-11242
▁경위	-11243
▁식스	-11244
▁큐브	-11245
▁에스페	-11246
▁연구회	-11247
▁해상도	-11248
▁텍사스주	-11249
80	-11250
▁간략	-11251
▁리즈	-11252
▁송파	-11253
▁야외	-11254
▁열전	-11255
▁유우	-11256
▁피리	-11257
▁고분군	-11258
▁공무	-11259
▁근사	-11260
▁라바	-11261
▁범하	-11262
▁유공	-11263
센스	-11264
▁tv	-11265
▁이터	-11266
▁자명	-11267
▁조교	-11268
제품	-11269
▁가우	-11270
▁고생	-11271
▁라기	-11272
▁발상	-11273
▁병마	-11274
▁카네	-11275
▁콘솔	-11276
▁하남	-11277
▁프로그래머	-11278
▁단군	-11279
▁리마	-11280
▁무섭	-11281
▁세습	-11282
▁온난	-11283
▁위로	-11284
▁이회	-11285
▁카마	-11286
▁연장전	-11287
▁뫼	-11288
▁기량	-11289
▁유생	-11290
▁에이전	-11291
▁위구르	-11292
▁Ge	-11293
▁노면	-11294
▁니키	-11295
▁받들	-11296
▁우산	-11297
▁쿠빌라이	-11298
지로	-11299
▁간사	-11300
▁고의	-11301
▁도네	-11302
▁램프	-11303
▁배분	-11304
▁상어	-11305
▁수위	-11306
▁엔드	-11307
▁월터	-11308
▁토마토	-11309
▁단속	-11310
▁안나	-11311
▁요절	-11312
▁지극	-11313
▁이용객	-11314
▁전반기	-11315
치히	-11316
▁관례	-11317
▁부왕	-11318
▁함량	-11319
▁만화가	-11320
워스	-11321
ern	-11322
ink	-11323
▁권역	-11324
▁북군	-11325
▁학력	-11326
▁다이어	-11327
▁해안선	-11328
돌이	-11329
에고	-11330
▁국외	-11331
▁모세	-11332
▁성동	-11333
▁요양	-11334
▁1882	-11335
▁야마가타	-11336
▁RP	-11337
▁고흥	-11338
▁아유	-11339
▁왕궁	-11340
▁친족	-11341
▁Day	-11342
▁통신사	-11343
▁Wind	-11344
▁중소기업	-11345
40	-11346
▁봇	-11347
▁콥	-11348
버른	-11349
프턴	-11350
▁루키	-11351
▁멋지	-11352
▁사로잡히	-11353
▁거성	-11354
▁고노	-11355
▁내일	-11356
▁몰타	-11357
▁보루	-11358
▁부교	-11359
▁스루	-11360
▁주선	-11361
스트리	-11362
▁330	-11363
▁슈퍼컵	-11364
▁올리브	-11365
▁관계없이	-11366
토프	-11367
포시	-11368
▁기전	-11369
▁덮개	-11370
▁동포	-11371
▁사학	-11372
▁유서	-11373
▁헬레	-11374
CC	-11375
갈리	-11376
▁급증	-11377
▁세련	-11378
▁위조	-11379
▁파벌	-11380
▁단체전	-11381
▁스칼라	-11382
▁원산지	-11383
▁가고	-11384
▁관악	-11385
▁대표자	-11386
▁데니스	-11387
▁아이언	-11388
▁필립스	-11389
II	-11390
교통	-11391
여객	-11392
▁RS	-11393
▁SA	-11394
▁장덕	-11395
▁정월	-11396
▁조셉	-11397
▁공화정	-11398
▁아날로그	-11399
▁다우	-11400
▁붙잡	-11401
오르크	-11402
▁너무나	-11403
▁레오폴	-11404
▁결사	-11405
▁배달	-11406
▁범행	-11407
▁씨족	-11408
▁어기	-11409
▁국정원	-11410
▁부르주	-11411
▁선진국	-11412
▁카스트	-11413
▁Girl	-11414
▁몹	-11415
▁자수	-11416
▁플러	-11417
▁미토콘	-11418
▁영원히	-11419
▁미토콘드리아	-11420
▁FK	-11421
▁시안	-11422
▁우시	-11423
▁으리	-11424
▁정정	-11425
▁직속	-11426
▁최영	-11427
▁타수	-11428
▁베풀	-11429
▁성원	-11430
▁제천	-11431
▁Sch	-11432
▁강당	-11433
▁상록	-11434
▁재래	-11435
▁주창	-11436
▁태후	-11437
▁항원	-11438
▁후예	-11439
▁미스터리	-11440
서니	-11441
팡이	-11442
▁사영	-11443
▁아목	-11444
▁표정	-11445
▁군사력	-11446
▁북유럽	-11447
▁중공군	-11448
▁4000	-11449
▁관목	-11450
▁선대	-11451
▁염려	-11452
▁노벨상	-11453
▁해운대	-11454
▁시즈오카	-11455
▁강행	-11456
▁남하	-11457
▁산시	-11458
▁협업	-11459
▁형편	-11460
▁경주시	-11461
▁브루클린	-11462
▁넬슨	-11463
▁랭크	-11464
▁천수	-11465
▁무실점	-11466
▁테네시	-11467
▁호스트	-11468
▁괌	-11469
▁냥	-11470
▁딜런	-11471
▁양보	-11472
▁외래	-11473
▁조슈	-11474
▁독수리	-11475
게스	-11476
도라	-11477
▁규탄	-11478
▁발동	-11479
▁사치	-11480
▁서면	-11481
▁잠깐	-11482
▁정은	-11483
▁콜럼	-11484
▁신입	-11485
▁파푸아	-11486
본부	-11487
▁보름	-11488
▁얽히	-11489
▁안티오	-11490
▁지붕돌	-11491
▁파시즘	-11492
▁휴게소	-11493
데라	-11494
▁소프	-11495
▁제단	-11496
▁사업소	-11497
▁제갈량	-11498
▁1868	-11499
융합	-11500
▁단말	-11501
▁밝혀	-11502
▁빙하	-11503
▁영덕	-11504
▁일각	-11505
티모어	-11506
▁대상자	-11507
▁베이커	-11508
▁산티아	-11509
▁우의정	-11510
OT	-11511
US	-11512
▁노사	-11513
▁우월	-11514
▁하의	-11515
▁회귀	-11516
▁new	-11517
▁멜버른	-11518
▁메릴랜드	-11519
▁뇨	-11520
▁대인	-11521
▁번창	-11522
▁종영	-11523
▁급속히	-11524
▁데려가	-11525
▁라인업	-11526
▁컨테이너	-11527
▁Or	-11528
▁과테	-11529
▁라미	-11530
▁수열	-11531
▁과테말라	-11532
▁유클리드	-11533
해자	-11534
▁OB	-11535
▁겨루	-11536
▁사안	-11537
▁족보	-11538
▁할인	-11539
스탄불	-11540
▁핵융합	-11541
▁사이타마	-11542
▁이스탄불	-11543
oll	-11544
▁오아	-11545
▁LED	-11546
▁스캔들	-11547
▁요충지	-11548
▁이바지	-11549
▁컨트롤러	-11550
당기	-11551
협회	-11552
▁객차	-11553
▁고트	-11554
▁대도	-11555
▁어파	-11556
▁피핀	-11557
▁앙골라	-11558
▁오스틴	-11559
▁사회민주당	-11560
▁교부	-11561
▁군벌	-11562
▁동적	-11563
▁외형	-11564
▁증폭	-11565
▁청계	-11566
▁출자	-11567
▁밝혀내	-11568
▁몬테네그로	-11569
▁사운드트랙	-11570
▁샨	-11571
▁찢	-11572
지리	-11573
▁농지	-11574
▁영월	-11575
▁저조	-11576
▁전수	-11577
▁렛	-11578
▁충렬	-11579
▁프랜차	-11580
▁장병	-11581
▁절제	-11582
▁리믹스	-11583
▁망치	-11584
▁법관	-11585
▁성산	-11586
▁기념일	-11587
▁폐기물	-11588
▁너머	-11589
▁노후	-11590
▁사천	-11591
▁우왕	-11592
▁켄트	-11593
▁트이	-11594
▁항로	-11595
펜하겐	-11596
▁좌의정	-11597
▁코펜하겐	-11598
히드	-11599
▁복종	-11600
▁위력	-11601
▁잔인	-11602
▁초안	-11603
▁주계열	-11604
▁베르나르	-11605
▁야마모토	-11606
▁교직	-11607
▁라카	-11608
▁러일	-11609
▁버터	-11610
▁안무	-11611
▁위촉	-11612
▁증오	-11613
웨이트	-11614
▁커리어	-11615
▁거처	-11616
▁게끔	-11617
▁금전	-11618
▁밀레	-11619
▁배리	-11620
▁은신	-11621
▁차선	-11622
▁청도	-11623
▁아케이드	-11624
▁요하네스	-11625
▁부파	-11626
▁사비	-11627
▁스콜	-11628
▁양수	-11629
▁영암	-11630
▁320	-11631
▁히브리	-11632
▁프란시스코	-11633
바오	-11634
▁출동	-11635
▁타리	-11636
▁프랜차이즈	-11637
▁colspan	-11638
▁식용	-11639
▁외과	-11640
▁주심	-11641
▁카세	-11642
▁피드	-11643
▁신주쿠	-11644
▁암스테르담	-11645
▁동향	-11646
▁성악	-11647
▁이메	-11648
▁헌장	-11649
▁고온	-11650
▁내분	-11651
▁네티	-11652
▁치유	-11653
▁김옥균	-11654
▁사이먼	-11655
▁슌	-11656
공주	-11657
호란	-11658
▁끊기	-11659
▁대청	-11660
▁도상	-11661
▁우연	-11662
▁종신	-11663
▁추서	-11664
▁수요일	-11665
나드	-11666
▁DF	-11667
▁대덕	-11668
▁분단	-11669
▁습관	-11670
▁이항	-11671
▁준장	-11672
▁end	-11673
▁동맹국	-11674
▁자서전	-11675
▁게오르크	-11676
▁니콜라스	-11677
▁능동	-11678
▁상국	-11679
▁소아	-11680
▁슈테	-11681
▁시비	-11682
▁치하	-11683
▁카툰	-11684
▁피치	-11685
아다니	-11686
▁효고현	-11687
▁여성주의	-11688
▁놈	-11689
우에	-11690
익스	-11691
▁공안	-11692
▁분사	-11693
▁순차	-11694
▁전세	-11695
▁컨설	-11696
▁그만큼	-11697
디나비아	-11698
▁스칸디나비아	-11699
▁국철	-11700
▁바울	-11701
▁양대	-11702
▁자재	-11703
▁정령	-11704
▁첼로	-11705
▁축산	-11706
토리코	-11707
▁오일러	-11708
▁산티아고	-11709
▁정몽	-11710
▁조영	-11711
▁직행	-11712
▁타일	-11713
▁서해안	-11714
걸이	-11715
꼬리	-11716
▁by	-11717
▁김윤	-11718
▁모차	-11719
▁샤프	-11720
▁압록	-11721
▁톰슨	-11722
▁호아	-11723
amp	-11724
gin	-11725
▁긴밀	-11726
▁문종	-11727
▁데이브	-11728
▁헤이안	-11729
▁에른스트	-11730
▁쿠웨이트	-11731
니파	-11732
▁거지	-11733
▁노아	-11734
▁서주	-11735
▁전락	-11736
▁결과물	-11737
▁브뤼셀	-11738
▁김선	-11739
▁점거	-11740
▁차츰	-11741
▁타로	-11742
▁함흥	-11743
▁280	-11744
▁로마자	-11745
▁서사시	-11746
▁시트콤	-11747
▁루이지애나	-11748
▁늪	-11749
단지	-11750
독립	-11751
웍스	-11752
▁정반	-11753
▁칭송	-11754
▁퍼즐	-11755
▁한번	-11756
▁발전기	-11757
▁위안부	-11758
▁철저히	-11759
▁텔레콤	-11760
▁코스타리카	-11761
려들	-11762
셀러	-11763
어넣	-11764
▁브릿	-11765
▁아흐	-11766
▁주성	-11767
▁어웨이	-11768
▁윗부분	-11769
▁장로교	-11770
▁육군사관학교	-11771
▁푸에르토리코	-11772
LA	-11773
▁IR	-11774
▁내무	-11775
▁원활	-11776
▁전학	-11777
▁짐승	-11778
▁천천	-11779
▁가라앉	-11780
▁천안시	-11781
▁리코	-11782
▁흡사	-11783
▁법조인	-11784
▁펠릭스	-11785
▁함경북도	-11786
▁촐	-11787
계승	-11788
▁결핵	-11789
▁고집	-11790
▁정재	-11791
▁IOC	-11792
▁유학자	-11793
▁포르노	-11794
▁1893	-11795
▁각료	-11796
▁김승	-11797
▁데드	-11798
▁박성	-11799
▁백악	-11800
▁소대	-11801
▁수량	-11802
▁유족	-11803
▁척도	-11804
▁편향	-11805
▁후유	-11806
▁203	-11807
▁부르고	-11808
▁화장품	-11809
▁갯	-11810
▁격려	-11811
▁리튬	-11812
▁문무	-11813
▁앤디	-11814
▁온화	-11815
▁천마	-11816
▁축전	-11817
▁폐렴	-11818
▁피크	-11819
▁트리오	-11820
▁복음주의	-11821
OW	-11822
▁맬	-11823
게임	-11824
▁Fe	-11825
▁박상	-11826
▁배드	-11827
▁생리	-11828
▁코네	-11829
▁천천히	-11830
북구	-11831
▁레프	-11832
▁이아	-11833
▁이우	-11834
▁집착	-11835
▁측량	-11836
▁학장	-11837
▁민병대	-11838
퍼레이션	-11839
업자	-11840
▁과시	-11841
▁대종	-11842
▁충무	-11843
▁데일리	-11844
▁가고시마	-11845
gr	-11846
세유	-11847
▁영천	-11848
▁교육자	-11849
▁이탈리아어	-11850
ung	-11851
▁기쁨	-11852
▁단정	-11853
▁막판	-11854
▁서스	-11855
▁선인	-11856
▁이황	-11857
▁해왕	-11858
라이드	-11859
▁탄자니아	-11860
▁Mo	-11861
▁배양	-11862
▁자진	-11863
▁조니	-11864
▁조제	-11865
▁탈취	-11866
▁도자기	-11867
▁로베르	-11868
▁마이크로	-11869
상시	-11870
les	-11871
▁NP	-11872
▁le	-11873
▁심포	-11874
▁접종	-11875
▁하타	-11876
▁동맹군	-11877
▁해안가	-11878
▁갚	-11879
▁톡	-11880
▁김치	-11881
▁서초구	-11882
▁Rock	-11883
티에	-11884
화학	-11885
▁간직	-11886
▁여도	-11887
▁우두	-11888
▁헤로	-11889
로이드	-11890
▁관우	-11891
▁애인	-11892
▁하급	-11893
▁노미야	-11894
▁김천	-11895
▁도이	-11896
▁사귀	-11897
▁톱니	-11898
▁헌터	-11899
▁아라곤	-11900
▁초콜릿	-11901
▁후쿠오카현	-11902
들러	-11903
몬트	-11904
비크	-11905
eth	-11906
▁관성	-11907
▁금동	-11908
▁미성	-11909
▁불경	-11910
▁심상	-11911
▁유영	-11912
▁한문	-11913
▁한큐	-11914
▁아우르	-11915
▁유적지	-11916
익스피어	-11917
▁Comp	-11918
▁핏	-11919
▁공양	-11920
▁림프	-11921
▁플랑크	-11922
▁셰익스피어	-11923
레드	-11924
▁구금	-11925
▁도출	-11926
▁심부	-11927
▁주세	-11928
▁칼슘	-11929
▁비스타	-11930
▁격하	-11931
▁굳히	-11932
▁마타	-11933
▁전미	-11934
루이스	-11935
▁녹색당	-11936
▁컬렉션	-11937
▁레인저스	-11938
▁덥	-11939
▁끓이	-11940
▁아츠	-11941
▁점검	-11942
▁조롱	-11943
▁고려대	-11944
▁케이크	-11945
▁픽처스	-11946
▁견고	-11947
▁버섯	-11948
▁흥분	-11949
▁강화도	-11950
▁글래스	-11951
▁스포르	-11952
▁미나모토	-11953
▁부르고뉴	-11954
▁Univers	-11955
▁귀속	-11956
▁바비	-11957
▁오하	-11958
▁장녀	-11959
▁현판	-11960
▁도야마	-11961
▁구독	-11962
▁라흐	-11963
▁명인	-11964
▁버러	-11965
▁소사	-11966
▁아메	-11967
▁TBS	-11968
▁사상가	-11969
▁우울증	-11970
oth	-11971
▁AB	-11972
▁Am	-11973
▁대주	-11974
▁배역	-11975
▁시속	-11976
▁에마	-11977
▁페더	-11978
▁Rec	-11979
▁불계승	-11980
▁상관없이	-11981
▁까마	-11982
▁노랑	-11983
▁비지	-11984
▁에로	-11985
▁휴양	-11986
▁게오르	-11987
▁다면서	-11988
▁로스쿨	-11989
▁밀려나	-11990
▁발사체	-11991
▁휘말리	-11992
▁러시아군	-11993
▁구치	-11994
▁라즈	-11995
▁무단	-11996
▁물결	-11997
▁서바이	-11998
▁순양함	-11999
▁도카이도	-12000
▁인공위성	-12001
트르	-12002
▁대차	-12003
▁마트	-12004
▁배기	-12005
▁월트	-12006
▁낚시	-12007
▁미츠	-12008
▁발목	-12009
▁상정	-12010
▁심문	-12011
▁청량	-12012
▁특사	-12013
▁황산	-12014
▁230	-12015
▁참모총장	-12016
나기	-12017
▁반동	-12018
▁재차	-12019
▁지난	-12020
▁카레	-12021
▁후하	-12022
그마	-12023
태평	-12024
폭탄	-12025
▁노프	-12026
▁물려주	-12027
▁베르타	-12028
▁프리스	-12029
▁from	-12030
▁플로리다주	-12031
▁핼	-12032
▁끼우	-12033
▁대접	-12034
▁연회	-12035
▁온대	-12036
▁침례	-12037
▁파편	-12038
▁GNU	-12039
▁스탠리	-12040
▁가르시아	-12041
▁가와사키	-12042
▁에스페란토	-12043
▁Do	-12044
▁Sup	-12045
▁국제선	-12046
▁마르세유	-12047
국적	-12048
바리	-12049
▁강진	-12050
▁꾸리	-12051
▁나뭇	-12052
▁당뇨	-12053
▁미아	-12054
▁슈타	-12055
▁용품	-12056
▁향기	-12057
▁프로모	-12058
ublic	-12059
▁뮐	-12060
헤드	-12061
▁라가	-12062
▁스투	-12063
▁이범	-12064
▁평안도	-12065
▁가부	-12066
▁대진	-12067
▁동종	-12068
▁운임	-12069
▁유포	-12070
민스터	-12071
▁기업가	-12072
▁로빈슨	-12073
▁수차례	-12074
▁지바현	-12075
▁펠리페	-12076
▁중앙은행	-12077
▁Su	-12078
▁리차	-12079
▁산수	-12080
▁소용	-12081
▁재발	-12082
▁철강	-12083
▁피사	-12084
▁수나라	-12085
▁박테리아	-12086
▁IV	-12087
▁매달	-12088
▁스킴	-12089
▁애초	-12090
▁에바	-12091
▁웃음	-12092
▁제창	-12093
▁페오	-12094
▁으려는	-12095
▁조선왕	-12096
▁율리우스	-12097
유사	-12098
▁울릉	-12099
▁카야	-12100
▁하이퍼	-12101
▁1888	-12102
▁1892	-12103
▁네모	-12104
▁성기	-12105
▁청송	-12106
▁다이빙	-12107
▁로이드	-12108
▁이바라	-12109
▁쫓아내	-12110
▁노스캐롤라이나	-12111
▁깁	-12112
▁닉슨	-12113
▁명부	-12114
▁제철	-12115
▁경계선	-12116
▁사간원	-12117
▁세네갈	-12118
▁쇠고기	-12119
둘기	-12120
▁CG	-12121
▁시우	-12122
▁장래	-12123
▁재앙	-12124
▁Car	-12125
▁케이트	-12126
AI	-12127
▁Sw	-12128
▁공법	-12129
▁데미	-12130
▁메틸	-12131
▁소동	-12132
▁유무	-12133
▁세비야	-12134
▁자라나	-12135
연수	-12136
▁납부	-12137
▁백자	-12138
▁사커	-12139
▁아와	-12140
▁허드슨	-12141
▁활동가	-12142
▁우에스기	-12143
▁푹	-12144
▁군데	-12145
▁붕어	-12146
▁사변	-12147
▁사키	-12148
▁살라	-12149
▁원유	-12150
▁주먹	-12151
▁애덤스	-12152
▁절도사	-12153
AE	-12154
티노	-12155
홍색	-12156
▁ar	-12157
▁모던	-12158
▁순례	-12159
▁시문	-12160
▁옥타	-12161
▁입헌	-12162
▁관현악	-12163
▁굶	-12164
▁강성	-12165
▁고스	-12166
▁공시	-12167
▁새뮤	-12168
▁어의	-12169
▁펠트	-12170
로니아	-12171
▁소학교	-12172
▁스탠드	-12173
▁과잉	-12174
▁낙양	-12175
▁라드	-12176
▁불사	-12177
▁위계	-12178
▁레이디	-12179
▁뱃	-12180
▁맥아	-12181
▁으시	-12182
▁이봉	-12183
미디어	-12184
▁공방전	-12185
▁대명사	-12186
▁대전차	-12187
▁산스크	-12188
▁차세대	-12189
▁산스크리트	-12190
▁면모	-12191
▁반주	-12192
▁자립	-12193
▁코사	-12194
▁고려사	-12195
▁논리학	-12196
▁다카라	-12197
▁대공국	-12198
▁스테판	-12199
▁알렉산드로스	-12200
▁씻	-12201
네트	-12202
다보	-12203
암리	-12204
철수	-12205
▁농축	-12206
▁미미	-12207
▁미식	-12208
▁자코	-12209
▁직계	-12210
▁하임	-12211
▁해병	-12212
▁더블린	-12213
▁아브라	-12214
▁지리학	-12215
▁펩	-12216
사태	-12217
자동	-12218
▁계량	-12219
▁과연	-12220
▁산청	-12221
▁세레	-12222
▁필하	-12223
▁문자열	-12224
▁사절단	-12225
▁후원자	-12226
▁프린스턴	-12227
▁니켈	-12228
▁도르트	-12229
▁볼로냐	-12230
▁1876	-12231
▁데스크톱	-12232
▁펫	-12233
다오	-12234
클라	-12235
▁중고	-12236
▁북조선	-12237
▁올리버	-12238
▁전주시	-12239
▁나름	-12240
▁당황	-12241
▁대금	-12242
▁생모	-12243
▁선양	-12244
▁아다	-12245
▁USB	-12246
▁사단장	-12247
▁성매매	-12248
RT	-12249
ah	-12250
▁겟	-12251
보리	-12252
▁wh	-12253
▁댓글	-12254
▁두각	-12255
▁이산	-12256
▁앤서니	-12257
▁프레임워크	-12258
▁거룩	-12259
▁노랗	-12260
▁로브	-12261
▁손녀	-12262
▁수력	-12263
▁죄수	-12264
▁풍습	-12265
▁브래드	-12266
▁아무리	-12267
▁1866	-12268
▁페르난도	-12269
▁간혹	-12270
▁단조	-12271
▁부양	-12272
▁수하	-12273
▁완도	-12274
▁정진	-12275
▁조개	-12276
▁채색	-12277
▁축성	-12278
▁토이	-12279
▁통폐	-12280
리카락	-12281
▁카운트	-12282
▁1886	-12283
▁머리카락	-12284
▁가면라이더	-12285
▁베이시스트	-12286
▁덱	-12287
로쿠	-12288
▁물류	-12289
▁발의	-12290
▁복싱	-12291
▁알폰	-12292
▁포탄	-12293
▁송환	-12294
▁에반	-12295
▁전권	-12296
▁펴내	-12297
▁260	-12298
▁Gre	-12299
▁보좌관	-12300
▁서기관	-12301
▁집행유예	-12302
▁프란치스코	-12303
광성	-12304
너드	-12305
▁군관	-12306
▁비우	-12307
▁아디	-12308
▁이호	-12309
▁조현	-12310
▁게시판	-12311
▁장제스	-12312
▁베네딕토	-12313
네임	-12314
뮬러	-12315
코르	-12316
▁너스	-12317
▁앨리	-12318
▁일진	-12319
▁조소	-12320
▁파파	-12321
르타뉴	-12322
▁교구장	-12323
▁조나라	-12324
▁브르타뉴	-12325
▁인플레이션	-12326
▁꽂	-12327
▁도성	-12328
▁번갈	-12329
▁부류	-12330
▁유능	-12331
▁저우	-12332
EST	-12333
▁약점	-12334
▁합천	-12335
러뜨리	-12336
▁270	-12337
▁생리학	-12338
▁스테인	-12339
▁구스타프	-12340
분열	-12341
▁co	-12342
▁깃털	-12343
▁바시	-12344
▁박수	-12345
▁본체	-12346
▁아쉽	-12347
▁아지	-12348
▁얼룩	-12349
▁엘런	-12350
▁표하	-12351
▁바이어	-12352
▁코소보	-12353
▁웨스트민스터	-12354
라호	-12355
▁신진	-12356
▁잘리	-12357
▁펀드	-12358
▁덩어리	-12359
▁독립군	-12360
▁베이비	-12361
▁이즈미	-12362
▁드미트리	-12363
▁마린	-12364
▁무수	-12365
▁서예	-12366
▁원상	-12367
▁유다	-12368
▁민영화	-12369
▁페미니	-12370
▁Tour	-12371
꿈치	-12372
레시	-12373
▁긴키	-12374
▁배척	-12375
▁초전	-12376
▁파커	-12377
▁강서구	-12378
▁새뮤얼	-12379
▁해결책	-12380
큐어	-12381
▁도약	-12382
▁악곡	-12383
▁에리	-12384
▁임계	-12385
▁행방	-12386
▁역사학	-12387
▁용의자	-12388
▁통폐합	-12389
▁마르쿠스	-12390
▁카르타고	-12391
ron	-12392
▁도하	-12393
▁라니	-12394
▁제르	-12395
▁현과	-12396
▁간사이	-12397
▁서포터	-12398
▁주니치	-12399
▁1887	-12400
▁모차르트	-12401
우회	-12402
직경	-12403
▁마나	-12404
▁망하	-12405
▁빅뱅	-12406
▁산물	-12407
▁중개	-12408
▁퇴위	-12409
▁경영학	-12410
▁삼각주	-12411
▁쏟아지	-12412
▁KB	-12413
▁경무	-12414
▁위패	-12415
▁타구	-12416
▁프루	-12417
▁금나라	-12418
▁시직경	-12419
▁장난감	-12420
▁1861	-12421
▁프리미엄	-12422
▁펭	-12423
쓰기	-12424
지오	-12425
짜기	-12426
▁ML	-12427
▁모라	-12428
▁박자	-12429
▁아자	-12430
▁여타	-12431
▁음운	-12432
▁포츠	-12433
land	-12434
▁바람직	-12435
▁보살상	-12436
▁사쓰마	-12437
▁불러들이	-12438
▁브리티시	-12439
슈타	-12440
▁급히	-12441
▁동창	-12442
▁축구팀	-12443
ave	-12444
▁습득	-12445
▁출혈	-12446
▁근거지	-12447
▁유전학	-12448
▁화요일	-12449
▁Dream	-12450
19	-12451
왕후	-12452
ble	-12453
▁광선	-12454
▁슬램	-12455
▁페스	-12456
▁집정관	-12457
하임	-12458
▁Up	-12459
▁고창	-12460
▁도제	-12461
▁유머	-12462
▁지아	-12463
▁편안	-12464
▁Wii	-12465
른베르크	-12466
▁클레멘스	-12467
▁싹	-12468
제비	-12469
▁가닥	-12470
▁마구	-12471
▁무자	-12472
▁위시	-12473
▁자궁	-12474
▁펠로	-12475
▁장애물	-12476
▁도미니카	-12477
▁볼티모어	-12478
▁재단법인	-12479
▁오산	-12480
▁코호	-12481
▁홈경기	-12482
동자	-12483
비안	-12484
▁SV	-12485
▁레트	-12486
▁몰두	-12487
▁세분	-12488
▁1864	-12489
▁Life	-12490
▁it	-12491
▁버크	-12492
▁올레	-12493
▁정예	-12494
▁직사	-12495
▁특기	-12496
▁형용	-12497
▁환관	-12498
▁단거리	-12499
▁부분군	-12500
코타	-12501
▁라시	-12502
▁여건	-12503
▁유타	-12504
▁천지	-12505
▁돗	-12506
ult	-12507
▁슬프	-12508
▁외환	-12509
▁익명	-12510
▁촛불	-12511
▁꺼리	-12512
▁오대	-12513
▁황해도	-12514
▁다행	-12515
▁레버	-12516
▁만점	-12517
▁불분	-12518
▁파직	-12519
▁신세계	-12520
▁코스트	-12521
▁후세인	-12522
DA	-12523
▁모국	-12524
▁모닝	-12525
▁사내	-12526
▁양현	-12527
▁완결	-12528
▁자릿	-12529
▁뛰어넘	-12530
▁내포	-12531
▁수이	-12532
▁포화	-12533
▁바로크	-12534
▁1850	-12535
▁석가모니	-12536
열차	-12537
▁기밀	-12538
▁사하	-12539
▁에두	-12540
▁왕관	-12541
▁장전	-12542
솔리니	-12543
▁당선자	-12544
▁데이빗	-12545
린트	-12546
▁교지	-12547
▁발톱	-12548
▁세무	-12549
▁오메	-12550
▁착하	-12551
▁공연장	-12552
▁네티즌	-12553
▁음악원	-12554
▁프랑코	-12555
▁스트리밍	-12556
▁SH	-12557
▁경건	-12558
▁뒤늦	-12559
▁개정안	-12560
▁좌표계	-12561
▁카이로	-12562
▁휘두르	-12563
즐리	-12564
콘신	-12565
▁RT	-12566
▁구문	-12567
▁리트	-12568
▁스모	-12569
▁승단	-12570
▁재결	-12571
▁증세	-12572
▁지면	-12573
▁혼혈	-12574
▁백악기	-12575
▁보안법	-12576
▁위스콘신	-12577
디슨	-12578
▁복위	-12579
▁잔디	-12580
▁토목	-12581
▁가해자	-12582
▁모나코	-12583
예술	-12584
▁TC	-12585
▁건네	-12586
▁실각	-12587
▁예의	-12588
▁다카라즈카	-12589
▁홀딩	-12590
▁홍성	-12591
ition	-12592
▁남베트남	-12593
니오	-12594
▁근래	-12595
▁눈치	-12596
▁어우	-12597
▁이력	-12598
▁평탄	-12599
▁히토	-12600
▁노동력	-12601
orm	-12602
▁고모	-12603
▁라라	-12604
▁승하	-12605
▁암모	-12606
▁접합	-12607
▁주나라	-12608
▁토트넘	-12609
▁마을버스	-12610
ational	-12611
▁렙	-12612
플린	-12613
▁객원	-12614
▁쓰루	-12615
▁오일	-12616
▁하얀	-12617
▁허블	-12618
▁홈즈	-12619
라호마	-12620
▁보너스	-12621
▁재판부	-12622
▁컨텐츠	-12623
▁Music	-12624
▁오클라호마	-12625
▁관내	-12626
▁군세	-12627
▁추존	-12628
▁사들이	-12629
▁생성물	-12630
▁재판관	-12631
▁1881	-12632
EP	-12633
▁AG	-12634
▁공판	-12635
▁승지	-12636
▁헌납	-12637
바도르	-12638
▁사나이	-12639
▁아카이	-12640
▁헤라클레스	-12641
ton	-12642
▁계보	-12643
▁구례	-12644
▁더하	-12645
▁도산	-12646
▁마요	-12647
▁왕성	-12648
▁워킹	-12649
▁쿼크	-12650
▁푸아	-12651
▁참의원	-12652
▁행정동	-12653
▁1830	-12654
▁루스벨트	-12655
브웨	-12656
▁리에	-12657
▁이별	-12658
▁유니버스	-12659
▁강세	-12660
▁고하	-12661
▁방공	-12662
▁백업	-12663
▁부풀	-12664
▁삼척	-12665
▁잠실	-12666
▁조심	-12667
▁짐바	-12668
▁침대	-12669
▁황자	-12670
▁미네소타	-12671
▁크리에이	-12672
▁en	-12673
▁if	-12674
▁말단	-12675
▁매진	-12676
▁민물	-12677
▁발하	-12678
▁알맞	-12679
▁요괴	-12680
▁대표단	-12681
▁압록강	-12682
▁요금소	-12683
▁ㄹ라	-12684
▁나마	-12685
▁남송	-12686
▁재벌	-12687
▁차수	-12688
▁카와	-12689
▁편하	-12690
▁필연	-12691
▁대교구	-12692
▁구획	-12693
▁선율	-12694
▁아타	-12695
▁엿보	-12696
▁전리	-12697
▁정황	-12698
▁패권	-12699
▁관련자	-12700
▁무작위	-12701
▁여학생	-12702
▁DR	-12703
▁괘불	-12704
▁기통	-12705
▁배트	-12706
▁챙기	-12707
▁판관	-12708
▁남조	-12709
▁목욕	-12710
▁복직	-12711
▁산기	-12712
▁자판	-12713
▁돋보이	-12714
▁로맨틱	-12715
▁합창단	-12716
▁컴파일러	-12717
렌스	-12718
▁경도	-12719
▁러닝	-12720
▁마티	-12721
▁세간	-12722
▁전교	-12723
▁찍히	-12724
▁야구단	-12725
▁외무부	-12726
▁화성시	-12727
▁낭만주의	-12728
▁도라에몽	-12729
뛰기	-12730
화경	-12731
▁경매	-12732
▁관용	-12733
▁닛산	-12734
▁다비	-12735
▁동차	-12736
▁벌레	-12737
▁뷰티	-12738
▁소라	-12739
▁오우	-12740
▁현미	-12741
▁해석학	-12742
▁1872	-12743
▁대한항공	-12744
▁오스트리	-12745
▁Ed	-12746
▁발자	-12747
▁스몰	-12748
▁신봉	-12749
▁아편	-12750
▁조경	-12751
▁종업	-12752
ject	-12753
▁까마귀	-12754
▁반대파	-12755
라이어티	-12756
아메리카	-12757
▁버라이어티	-12758
타입	-12759
▁XP	-12760
▁딸리	-12761
▁익산	-12762
▁코난	-12763
▁흑백	-12764
▁iOS	-12765
▁마르셀	-12766
▁부르주아	-12767
▁트레이닝	-12768
▁꿰	-12769
▁대강	-12770
▁발포	-12771
▁별장	-12772
▁스기	-12773
▁스윙	-12774
▁이누	-12775
▁콘티	-12776
평리	-12777
▁ㄴ데	-12778
▁등등	-12779
▁로니	-12780
▁미상	-12781
▁삭스	-12782
▁쿠로	-12783
▁투하	-12784
▁파주	-12785
▁감리교	-12786
▁불분명	-12787
▁기고	-12788
▁시원	-12789
▁다비드	-12790
▁이메일	-12791
▁세르게이	-12792
▁이시카와	-12793
께끼	-12794
ION	-12795
▁레비	-12796
▁부전	-12797
▁양면	-12798
▁용사	-12799
▁의례	-12800
▁파열	-12801
▁750	-12802
▁피닉스	-12803
▁수수께끼	-12804
덕왕	-12805
▁교제	-12806
▁금고	-12807
▁루나	-12808
▁체하	-12809
▁팔작	-12810
▁다시금	-12811
▁선제골	-12812
▁무솔리니	-12813
림사	-12814
비오	-12815
▁an	-12816
▁김희	-12817
▁당진	-12818
▁야망	-12819
▁여호	-12820
▁인제	-12821
▁종묘	-12822
▁중랑	-12823
▁트란	-12824
슬라프	-12825
▁라치오	-12826
▁롬바르	-12827
▁범죄자	-12828
▁Open	-12829
▁엡	-12830
▁꼬마	-12831
▁두어	-12832
▁배아	-12833
▁애슬	-12834
▁지경	-12835
▁파기	-12836
브리드	-12837
▁난이도	-12838
▁도르트문트	-12839
나파	-12840
루크	-12841
▁교동	-12842
▁매스	-12843
▁베일	-12844
▁애완	-12845
▁이례	-12846
▁이은	-12847
▁진흙	-12848
▁친밀	-12849
▁켄터	-12850
▁햇빛	-12851
▁농어촌	-12852
▁라이스	-12853
▁화학자	-12854
▁대중교통	-12855
▁유라시아	-12856
달마	-12857
쿠니	-12858
▁BL	-12859
▁레아	-12860
▁메우	-12861
▁몸돌	-12862
▁생도	-12863
▁승상	-12864
▁양조	-12865
▁원동	-12866
▁주고	-12867
▁모멘트	-12868
클럽	-12869
▁배향	-12870
▁복역	-12871
▁캐피	-12872
▁기획사	-12873
▁아이콘	-12874
번에	-12875
▁te	-12876
▁그란	-12877
▁당과	-12878
▁반죽	-12879
▁변종	-12880
▁샤이	-12881
태평양	-12882
▁센다이	-12883
▁하얀색	-12884
▁부다페스트	-12885
▁경량	-12886
▁단국	-12887
▁도봉	-12888
▁음주	-12889
▁의용	-12890
▁페라	-12891
▁Don	-12892
▁개체군	-12893
▁앞세우	-12894
▁청년회	-12895
▁초록색	-12896
데자	-12897
▁Ab	-12898
▁조시	-12899
▁호크스	-12900
데자네이	-12901
▁1865	-12902
▁하이브리드	-12903
▁쵸	-12904
더지	-12905
ics	-12906
▁Sm	-12907
▁닌자	-12908
▁모란	-12909
▁발산	-12910
▁브렌	-12911
▁순항	-12912
▁청문	-12913
▁탄산	-12914
▁허목	-12915
▁격투기	-12916
▁유전체	-12917
ru	-12918
▁넥센	-12919
▁취향	-12920
▁통지	-12921
▁휩싸	-12922
리아스	-12923
올로기	-12924
▁파충류	-12925
▁1863	-12926
▁이데올로기	-12927
▁살짝	-12928
▁열렬	-12929
▁장쑤	-12930
▁계승자	-12931
▁세군다	-12932
▁승용차	-12933
▁폼페이	-12934
매김	-12935
바인	-12936
ier	-12937
▁가든	-12938
▁슈고	-12939
▁오트	-12940
▁인위	-12941
▁작년	-12942
▁탐험가	-12943
리야	-12944
워즈	-12945
▁가독	-12946
▁거꾸	-12947
▁기쁘	-12948
▁보정	-12949
▁옹주	-12950
▁티모	-12951
▁밀가루	-12952
▁박영효	-12953
▁시간대	-12954
▁작품상	-12955
▁과다	-12956
▁납작	-12957
▁잠기	-12958
▁토로	-12959
▁한창	-12960
▁그나마	-12961
▁타임즈	-12962
▁항아리	-12963
▁1873	-12964
▁"-	-12965
▁내재	-12966
▁대의	-12967
▁입시	-12968
▁처방	-12969
▁피카	-12970
▁경복궁	-12971
▁안산시	-12972
▁챌린저	-12973
▁AL	-12974
▁반항	-12975
▁봉황	-12976
▁부실	-12977
▁왓슨	-12978
▁조공	-12979
▁편제	-12980
▁피셔	-12981
변속기	-12982
▁고성군	-12983
단위	-12984
리쿠	-12985
▁덴쇼	-12986
▁코마	-12987
▁승정원	-12988
▁1891	-12989
▁HTML	-12990
▁교통사고	-12991
▁오카야마	-12992
데자네이루	-12993
▁Night	-12994
▁리우데자네이루	-12995
▁리브	-12996
▁벌리	-12997
▁조장	-12998
▁충당	-12999
▁클릭	-13000
▁탐정	-13001
▁포대	-13002
▁발기인	-13003
▁우간다	-13004
▁제프리	-13005
▁Good	-13006
▁공군기지	-13007
▁자리매김	-13008
친왕	-13009
▁고난	-13010
▁대목	-13011
▁볼넷	-13012
▁직관	-13013
▁킹스	-13014
▁유니언	-13015
라르	-13016
ool	-13017
▁곡면	-13018
▁메츠	-13019
▁태아	-13020
▁경지	-13021
▁계좌	-13022
▁곱셈	-13023
▁부추	-13024
▁어촌	-13025
▁요즘	-13026
▁정명	-13027
▁착취	-13028
▁공식전	-13029
▁앤드류	-13030
▁샵	-13031
스레	-13032
▁경마	-13033
▁구슬	-13034
▁굴복	-13035
▁두텁	-13036
▁란스	-13037
▁루즈	-13038
▁병단	-13039
▁야심	-13040
▁재고	-13041
▁페인	-13042
▁아이디얼	-13043
▁쩔	-13044
쿠르	-13045
훈장	-13046
▁가비	-13047
▁모함	-13048
▁박진	-13049
▁법전	-13050
▁입술	-13051
▁철종	-13052
▁조선소	-13053
▁켄터키	-13054
▁베스트셀러	-13055
▁괜	-13056
미쓰	-13057
▁걸작	-13058
▁머니	-13059
▁미인	-13060
▁신대	-13061
▁픽셀	-13062
▁ret	-13063
▁공통점	-13064
▁국민회	-13065
▁발가락	-13066
▁여진족	-13067
▁구강	-13068
▁급하	-13069
▁시진	-13070
▁완비	-13071
▁촉발	-13072
▁와이드	-13073
TE	-13074
UC	-13075
거나	-13076
타스	-13077
ise	-13078
▁--	-13079
▁과격	-13080
▁여대	-13081
▁자켓	-13082
▁카슈	-13083
▁해킹	-13084
이스케	-13085
▁수시로	-13086
▁세계유산	-13087
▁짐바브웨	-13088
린더	-13089
바지	-13090
che	-13091
▁고마	-13092
▁쇼크	-13093
▁적발	-13094
▁필두	-13095
▁후미	-13096
QL	-13097
▁반점	-13098
▁상파	-13099
▁다국적	-13100
▁받침돌	-13101
▁자유형	-13102
▁제너럴	-13103
▁테무르	-13104
참찬	-13105
▁단자	-13106
▁마모	-13107
▁튼튼	-13108
▁합금	-13109
▁매달리	-13110
▁포항시	-13111
ai	-13112
▁NS	-13113
▁극찬	-13114
▁도도	-13115
▁리자	-13116
▁매립	-13117
▁분경	-13118
▁불로	-13119
▁비키	-13120
▁위법	-13121
▁유태	-13122
▁코뮌	-13123
▁혈압	-13124
▁몰도바	-13125
▁시티즌	-13126
▁PM	-13127
▁국호	-13128
▁매도	-13129
▁외상	-13130
▁용감	-13131
stem	-13132
▁노르드	-13133
▁릴레이	-13134
▁백악관	-13135
▁온타리오주	-13136
NG	-13137
동맹	-13138
▁계엄	-13139
▁등단	-13140
▁라크	-13141
▁리키	-13142
▁아뢰	-13143
▁이야	-13144
▁최장	-13145
▁헤어	-13146
▁IMF	-13147
▁종업원	-13148
▁댈	-13149
레반	-13150
무제	-13151
▁당당	-13152
▁세단	-13153
▁소작	-13154
▁주저	-13155
플렉스	-13156
레타리아	-13157
▁프롤레타리아	-13158
ode	-13159
▁MA	-13160
▁신의	-13161
▁오즈	-13162
▁해시	-13163
▁Can	-13164
▁캐스트	-13165
▁Black	-13166
▁켜	-13167
성경	-13168
▁나탈	-13169
▁무고	-13170
▁에치	-13171
▁하스	-13172
▁흔들	-13173
▁거꾸로	-13174
▁다마스	-13175
▁하반기	-13176
▁야쿠르트	-13177
▁팔작지붕	-13178
▁간판	-13179
▁교서	-13180
▁구시	-13181
▁병과	-13182
▁연행	-13183
▁현무	-13184
부아르	-13185
합중국	-13186
▁슬로건	-13187
상어	-13188
세다	-13189
킨슨	-13190
▁네임	-13191
▁산책	-13192
▁서지	-13193
▁양궁	-13194
▁양양	-13195
▁연화	-13196
▁조준	-13197
▁체내	-13198
▁650	-13199
▁트로트	-13200
70	-13201
▁믈	-13202
▁샴	-13203
▁콧	-13204
▁서위	-13205
▁파랑	-13206
▁김성수	-13207
▁서두르	-13208
▁연주회	-13209
▁크루즈	-13210
▁을사	-13211
▁증강	-13212
▁채굴	-13213
▁키즈	-13214
ower	-13215
▁반정부	-13216
▁지자체	-13217
▁무로마치	-13218
▁삼국유사	-13219
▁스테이트	-13220
▁이바라키	-13221
▁페르디난트	-13222
▁삐	-13223
▁버펄	-13224
▁황폐	-13225
▁피츠버그	-13226
▁강호	-13227
▁광배	-13228
▁앵커	-13229
▁우마	-13230
▁이강	-13231
▁헌병	-13232
선거구	-13233
▁550	-13234
▁조선왕조	-13235
▁section	-13236
조리	-13237
▁qu	-13238
▁농성	-13239
▁부에	-13240
▁진원	-13241
▁토유	-13242
▁용산구	-13243
▁1867	-13244
▁국부	-13245
▁문정	-13246
▁터빈	-13247
타나베	-13248
▁705	-13249
▁Let	-13250
▁미카엘	-13251
▁취리히	-13252
▁아비달마	-13253
▁심정	-13254
▁아델	-13255
▁엘라	-13256
▁연달	-13257
▁전멸	-13258
▁진언	-13259
▁타도	-13260
▁피어	-13261
▁해지	-13262
▁스코어	-13263
▁1862	-13264
티야	-13265
ank	-13266
▁무도	-13267
▁송진	-13268
▁캐논	-13269
▁앨버트	-13270
▁자외선	-13271
▁빠져나가	-13272
▁q	-13273
고르	-13274
대전	-13275
진구	-13276
펠러	-13277
▁El	-13278
▁군자	-13279
▁대담	-13280
▁맞춤	-13281
▁사교	-13282
▁산신	-13283
▁열쇠	-13284
스코트	-13285
▁스테이	-13286
▁AI	-13287
▁MM	-13288
▁경은	-13289
▁독주	-13290
▁모반	-13291
▁온건	-13292
▁조어	-13293
▁증발	-13294
▁현도	-13295
▁활자	-13296
▁광업	-13297
▁국력	-13298
▁씌우	-13299
▁예종	-13300
드라마	-13301
▁아오모리	-13302
▁이노우에	-13303
▁코호몰로지	-13304
▁광자	-13305
▁접전	-13306
▁투신	-13307
▁경희대	-13308
▁노르만	-13309
▁언론사	-13310
▁엑스포	-13311
해살이풀	-13312
▁미합중국	-13313
▁라이프치히	-13314
방군	-13315
정사	-13316
▁루피	-13317
▁북벌	-13318
▁스킬	-13319
▁위헌	-13320
▁잔존	-13321
▁조서	-13322
ings	-13323
▁손잡이	-13324
▁알폰소	-13325
곡면	-13326
포타	-13327
▁수퍼	-13328
▁처장	-13329
▁흡연	-13330
▁다이노스	-13331
렐라	-13332
리언	-13333
활약	-13334
▁AU	-13335
▁저축	-13336
▁치이	-13337
▁MSL	-13338
▁증조부	-13339
▁프로모션	-13340
▁Ac	-13341
▁걸프	-13342
▁서한	-13343
▁유구	-13344
▁이니	-13345
▁지탱	-13346
▁처치	-13347
세우스	-13348
▁변광성	-13349
▁타이탄	-13350
중추부사	-13351
▁국민학교	-13352
▁노브	-13353
▁사드	-13354
▁양군	-13355
▁완수	-13356
▁코모	-13357
▁표절	-13358
▁맹활약	-13359
포타미아	-13360
▁6000	-13361
▁사이타마현	-13362
▁메소포타미아	-13363
▁간결	-13364
▁상선	-13365
▁증식	-13366
▁지그	-13367
▁연출가	-13368
▁페드로	-13369
DS	-13370
▁썩	-13371
투르	-13372
▁LS	-13373
▁변증	-13374
▁오보	-13375
▁옥시	-13376
▁유망	-13377
절도사	-13378
▁건륭제	-13379
▁낡	-13380
▁캣	-13381
▁UC	-13382
▁기묘	-13383
▁변모	-13384
▁보직	-13385
▁성수	-13386
▁레인저	-13387
▁사무국	-13388
▁사보이	-13389
비언	-13390
인구	-13391
▁도발	-13392
▁번개	-13393
▁장신	-13394
▁캐치	-13395
▁신한은행	-13396
센터	-13397
lar	-13398
▁신해	-13399
▁쿠라	-13400
▁티저	-13401
▁횡령	-13402
▁곁들이	-13403
▁-&	-13404
▁꽃잎	-13405
▁무너	-13406
▁온두	-13407
▁유림	-13408
▁조석	-13409
▁키릴	-13410
▁무너뜨리	-13411
▁온두라스	-13412
북면	-13413
▁가물	-13414
▁고찰	-13415
▁나사	-13416
▁자행	-13417
▁충칭	-13418
▁푸드	-13419
▁대리석	-13420
▁신기록	-13421
▁일본식	-13422
▁출입문	-13423
▁편집장	-13424
▁궐	-13425
디언	-13426
사화	-13427
위치	-13428
▁감염증	-13429
▁기원후	-13430
▁무사히	-13431
▁1878	-13432
▁미나모토노	-13433
ky	-13434
▁동자	-13435
▁세토	-13436
▁엘레	-13437
▁참패	-13438
▁협동조합	-13439
tr	-13440
젤로	-13441
▁그거	-13442
▁버진	-13443
▁작중	-13444
▁차림	-13445
▁표출	-13446
▁하중	-13447
▁회유	-13448
rist	-13449
▁라면서	-13450
▁웨이브	-13451
▁치료제	-13452
▁타타르	-13453
▁비스마르크	-13454
▁팍	-13455
퉁이	-13456
할린	-13457
▁동탁	-13458
▁스톰	-13459
▁절약	-13460
▁직교	-13461
▁경쟁자	-13462
▁제조사	-13463
▁고등학생	-13464
▁뵈	-13465
구나	-13466
▁당파	-13467
▁완만	-13468
▁지린	-13469
▁Ser	-13470
▁갈아타	-13471
▁마그네	-13472
▁부여군	-13473
▁자릿수	-13474
▁컴파일	-13475
▁프로테	-13476
▁되돌아가	-13477
ta	-13478
▁밋	-13479
▁Qu	-13480
▁시역	-13481
▁충신	-13482
▁필명	-13483
▁행군	-13484
▁주고받	-13485
▁백과사전	-13486
ee	-13487
▁가극	-13488
▁급성	-13489
▁내란	-13490
▁옥천	-13491
▁자부	-13492
▁적정	-13493
▁중용	-13494
▁히노	-13495
hem	-13496
▁국인	-13497
▁보류	-13498
▁시르	-13499
▁으러	-13500
▁후드	-13501
▁HMS	-13502
▁사대부	-13503
▁입법부	-13504
▁프리츠	-13505
▁해부학	-13506
빌리	-13507
일치	-13508
▁Ag	-13509
▁바쿠	-13510
▁손님	-13511
▁이끼	-13512
▁점진	-13513
▁정박	-13514
▁청각	-13515
플로러	-13516
▁홀딩스	-13517
▁익스플로러	-13518
▁널	-13519
시게	-13520
▁괄호	-13521
▁다량	-13522
▁라다	-13523
▁서거	-13524
▁영사	-13525
▁지체	-13526
시아드	-13527
▁And	-13528
▁이성질	-13529
▁인지도	-13530
▁플러그	-13531
▁개기	-13532
▁고국	-13533
▁길드	-13534
▁잉크	-13535
▁직물	-13536
▁불가피	-13537
▁유엔군	-13538
▁스케이트	-13539
▁유니버시아드	-13540
▁ㅣ	-13541
▁킷	-13542
내티	-13543
산부	-13544
▁부군	-13545
▁스에	-13546
▁일선	-13547
▁일설	-13548
▁저해	-13549
▁참수	-13550
▁현악	-13551
▁802	-13552
▁뉴기니	-13553
▁액세스	-13554
▁외교부	-13555
▁1869	-13556
▁신시내티	-13557
▁프라이즈	-13558
▁일리노이주	-13559
▁팻	-13560
▁맛보	-13561
▁매슈	-13562
▁서점	-13563
▁수레	-13564
▁용해	-13565
▁지문	-13566
뉴기니	-13567
▁수비대	-13568
▁이브스	-13569
▁특별법	-13570
사우루스	-13571
▁글로브상	-13572
▁요리토모	-13573
▁밧	-13574
니티	-13575
다발	-13576
루엔	-13577
▁과자	-13578
▁수당	-13579
▁유화	-13580
▁피처	-13581
▁제작진	-13582
▁플루토	-13583
▁핵분열	-13584
벤션	-13585
▁SO	-13586
▁부두	-13587
▁북대	-13588
▁상의	-13589
▁수급	-13590
▁애기	-13591
▁잔해	-13592
▁골짜기	-13593
▁베르나	-13594
▁봉우리	-13595
▁업로드	-13596
▁후지와라	-13597
▁썬	-13598
마디	-13599
▁tr	-13600
▁근방	-13601
▁기조	-13602
▁대타	-13603
▁몸체	-13604
▁벵골	-13605
▁소피	-13606
▁육식	-13607
▁폴라	-13608
▁행보	-13609
▁마포구	-13610
▁와타나베	-13611
▁코퍼레이션	-13612
정보	-13613
▁가방	-13614
▁객실	-13615
▁박원	-13616
▁이목	-13617
▁방위군	-13618
▁와세다	-13619
▁쿠르드	-13620
누마	-13621
▁강우	-13622
▁용수	-13623
▁추후	-13624
▁며느리	-13625
▁포뮬러	-13626
▁스파이더	-13627
▁프랑스와	-13628
▁쫓기	-13629
▁헤더	-13630
▁사생활	-13631
▁아이젠	-13632
▁페르미	-13633
셔주	-13634
▁솔라	-13635
▁자정	-13636
▁수도회	-13637
▁원자핵	-13638
▁아우구스	-13639
ae	-13640
▁로시	-13641
▁면직	-13642
▁민심	-13643
가르트	-13644
▁1840	-13645
▁낯	-13646
▁냐고	-13647
▁다목	-13648
▁모티	-13649
▁토키	-13650
▁포천	-13651
▁포탑	-13652
▁형주	-13653
▁기동전	-13654
▁1592	-13655
▁Song	-13656
▁키르기스	-13657
▁무비	-13658
▁무색	-13659
▁반입	-13660
▁변질	-13661
▁자처	-13662
▁텍스	-13663
▁패킷	-13664
스타인	-13665
▁강력히	-13666
▁글렌	-13667
▁목동	-13668
▁성품	-13669
▁오자	-13670
▁콜드	-13671
▁연예계	-13672
▁오스카	-13673
▁장로회	-13674
▁명성황후	-13675
▁친선경기	-13676
▁탬	-13677
세르	-13678
▁고을	-13679
▁귀인	-13680
▁부관	-13681
▁시시	-13682
▁축일	-13683
▁치사	-13684
▁항생	-13685
▁안동시	-13686
▁영유권	-13687
▁팔꿈치	-13688
▁프라임	-13689
▁PL	-13690
▁단서	-13691
▁물론	-13692
▁벤츠	-13693
▁소박	-13694
▁숙소	-13695
▁절친	-13696
▁토라	-13697
▁떠올리	-13698
▁생화학	-13699
노르	-13700
암사	-13701
▁AA	-13702
▁금색	-13703
▁단역	-13704
▁빈민	-13705
▁사소	-13706
▁위도	-13707
ount	-13708
▁516	-13709
▁바닷물	-13710
▁운동량	-13711
▁인코딩	-13712
▁매킨토시	-13713
▁사이언스	-13714
▁벳	-13715
▁가곡	-13716
▁사부	-13717
▁컴필	-13718
▁헤겔	-13719
▁금강산	-13720
▁목적지	-13721
▁파시스트	-13722
▁컴필레이션	-13723
자원	-13724
티컷	-13725
▁거사	-13726
▁그물	-13727
▁논산	-13728
▁린다	-13729
▁출국	-13730
▁포자	-13731
▁로타르	-13732
▁리차드	-13733
▁부등식	-13734
▁여객기	-13735
▁운전자	-13736
▁유년기	-13737
▁코네티컷	-13738
▁크리스티나	-13739
수염	-13740
찬성	-13741
▁RC	-13742
▁괜찮	-13743
▁넘버	-13744
▁분별	-13745
▁위즈	-13746
▁최하	-13747
▁지하역	-13748
▁데카르트	-13749
pr	-13750
네르	-13751
▁국세	-13752
▁렉스	-13753
▁바쁘	-13754
▁상식	-13755
▁자취	-13756
▁추축	-13757
▁쿼터	-13758
▁풍기	-13759
▁하수	-13760
▁Mon	-13761
▁맥아더	-13762
구스	-13763
작전	-13764
ade	-13765
per	-13766
▁공상	-13767
▁빅터	-13768
▁수만	-13769
▁자루	-13770
▁패망	-13771
▁채권자	-13772
▁로드리게스	-13773
▁랙	-13774
▁더러	-13775
▁성가	-13776
▁영미	-13777
▁그래도	-13778
▁네이트	-13779
▁예언자	-13780
▁패스트	-13781
▁레지스터	-13782
▁마스코트	-13783
ata	-13784
▁끌리	-13785
▁병풍	-13786
▁악명	-13787
▁영수	-13788
▁튜브	-13789
▁휘발	-13790
▁힐베르트	-13791
▁아나톨리아	-13792
▁닉스	-13793
▁다쓰	-13794
▁베라	-13795
▁아어	-13796
▁암수	-13797
▁어사	-13798
▁천상	-13799
▁캐슬	-13800
▁과반수	-13801
▁시니어	-13802
▁엇갈리	-13803
▁파주시	-13804
▁휩싸이	-13805
▁Heart	-13806
▁여우원숭이	-13807
블릿	-13808
▁거창	-13809
▁양파	-13810
▁유자	-13811
▁하라	-13812
▁구단주	-13813
크라테스	-13814
▁심리학자	-13815
부시	-13816
▁me	-13817
▁고제	-13818
▁디나	-13819
▁마레	-13820
▁블러	-13821
▁자질	-13822
▁헤일	-13823
▁댈러스	-13824
▁뒤따르	-13825
▁에이전트	-13826
▁볶	-13827
날드	-13828
효소	-13829
▁유이	-13830
▁인승	-13831
▁저그	-13832
▁출세	-13833
▁글러브	-13834
▁창립자	-13835
▁return	-13836
▁KN	-13837
▁강인	-13838
▁규율	-13839
▁란트	-13840
▁루도	-13841
▁박히	-13842
▁백조	-13843
▁삭감	-13844
▁심소	-13845
▁염화	-13846
▁스트림	-13847
▁필사본	-13848
90	-13849
히메	-13850
▁DB	-13851
▁Pe	-13852
▁ab	-13853
▁계룡	-13854
▁국화	-13855
▁능가	-13856
▁발착	-13857
▁성대	-13858
▁유골	-13859
▁입출	-13860
▁전단	-13861
▁청취	-13862
▁관심사	-13863
▁세미나	-13864
▁적십자	-13865
▁종착역	-13866
▁테크놀	-13867
▁히타치	-13868
▁8000	-13869
▁지장보살	-13870
선언	-13871
어하	-13872
테랑	-13873
▁반론	-13874
▁에트	-13875
▁오도	-13876
▁워스	-13877
▁중견	-13878
▁초음	-13879
▁탁구	-13880
이치로	-13881
▁나치오	-13882
▁농가	-13883
▁문중	-13884
▁미학	-13885
▁사주	-13886
▁시찰	-13887
▁실상	-13888
▁쌍성	-13889
▁의주	-13890
▁이카	-13891
▁지요	-13892
▁흥원	-13893
▁안타깝	-13894
▁Windows	-13895
▁펜실베이니아주	-13896
수단	-13897
ium	-13898
▁Gl	-13899
▁겸직	-13900
▁다름	-13901
▁뒤지	-13902
▁변혁	-13903
▁스택	-13904
▁이심	-13905
▁임종	-13906
▁직렬	-13907
▁페레	-13908
▁비둘기	-13909
▁지질학	-13910
▁되돌아오	-13911
▁와카야마	-13912
▁아나키스트	-13913
▁권익	-13914
▁김연	-13915
▁들르	-13916
▁바보	-13917
▁상과	-13918
▁온실	-13919
▁담당자	-13920
▁보유자	-13921
▁크메르	-13922
▁남아시아	-13923
▁영등포구	-13924
전선	-13925
히데	-13926
▁라프	-13927
▁여포	-13928
▁오시	-13929
▁퀴즈	-13930
▁어도비	-13931
▁그린란드	-13932
▁세인트루이스	-13933
IX	-13934
▁기행	-13935
▁바인	-13936
▁베오	-13937
▁사와	-13938
▁설리	-13939
▁어선	-13940
▁연중	-13941
▁왜군	-13942
▁질투	-13943
▁안창호	-13944
▁1875	-13945
▁고등교육	-13946
IF	-13947
던트	-13948
▁뉴런	-13949
▁니케	-13950
▁윤휴	-13951
▁침식	-13952
▁피살	-13953
▁호그	-13954
▁치료법	-13955
▁알프레드	-13956
넌트	-13957
조사	-13958
▁As	-13959
▁걸음	-13960
▁몹시	-13961
▁볼록	-13962
▁숙련	-13963
▁외면	-13964
▁은밀	-13965
▁의복	-13966
▁정오	-13967
▁토요타	-13968
놀드	-13969
링겐	-13970
뻐하	-13971
어가	-13972
욕장	-13973
테이	-13974
▁Aw	-13975
▁신지	-13976
▁외척	-13977
▁잠입	-13978
▁조비	-13979
▁호른	-13980
▁기뻐하	-13981
▁시미즈	-13982
▁예비역	-13983
▁진주시	-13984
▁헤르만	-13985
구니	-13986
▁동호	-13987
▁막강	-13988
▁위크	-13989
▁Out	-13990
▁집단군	-13991
계사	-13992
▁강습	-13993
▁귀엽	-13994
▁사각	-13995
▁상동	-13996
▁착각	-13997
▁컵스	-13998
▁키드	-13999
▁키리	-14000
▁파랗	-14001
▁해트	-14002
▁교파	-14003
▁수증	-14004
▁유카	-14005
▁준동	-14006
▁친화	-14007
▁KTX	-14008
▁고문서	-14009
▁나리타	-14010
▁모자이크	-14011
▁교훈	-14012
▁노현	-14013
▁디바	-14014
▁면담	-14015
▁미지	-14016
▁열세	-14017
▁오마	-14018
▁웍스	-14019
▁출품	-14020
▁Gen	-14021
▁강대국	-14022
▁보리스	-14023
▁이와테	-14024
▁뉘른베르크	-14025
▁랠	-14026
기즈	-14027
▁기린	-14028
▁독살	-14029
▁어부	-14030
▁콜린	-14031
▁타나	-14032
▁혼잡	-14033
세데스	-14034
▁이랜드	-14035
▁학술지	-14036
▁근본번뇌	-14037
기아	-14038
날레	-14039
탄두	-14040
▁도우	-14041
▁도적	-14042
▁예프	-14043
▁표제	-14044
▁종사자	-14045
▁표트르	-14046
▁회고록	-14047
▁메르세데스	-14048
보당	-14049
▁방울	-14050
▁슈투	-14051
▁일명	-14052
▁징집	-14053
▁철자	-14054
▁일부러	-14055
▁피의자	-14056
사유	-14057
이에	-14058
son	-14059
▁VS	-14060
▁노원	-14061
▁문체	-14062
▁선상	-14063
▁여럿	-14064
▁원단	-14065
▁이선	-14066
▁인먼	-14067
▁최남	-14068
▁취직	-14069
▁폐허	-14070
레이트	-14071
▁사이즈	-14072
▁클리어	-14073
▁쳐들어오	-14074
▁페널티킥	-14075
itt	-14076
▁로사	-14077
▁목장	-14078
▁불복	-14079
▁생원	-14080
▁셔틀	-14081
▁야수	-14082
▁한민	-14083
▁게임기	-14084
▁리스본	-14085
▁친환경	-14086
▁남양주시	-14087
▁김두	-14088
▁순식	-14089
▁용지	-14090
▁절충	-14091
▁첩보	-14092
▁터너	-14093
▁컨벤션	-14094
▁안드로메다	-14095
BI	-14096
세서	-14097
▁sh	-14098
▁다자	-14099
▁닥치	-14100
▁서약	-14101
▁월화	-14102
▁텐서	-14103
에이고	-14104
▁380	-14105
▁AMD	-14106
▁데이트	-14107
▁돌고래	-14108
▁매디슨	-14109
▁함경도	-14110
▁끌어올리	-14111
▁샌디에이고	-14112
▁리크	-14113
▁에레	-14114
▁의정	-14115
▁이희	-14116
▁집전	-14117
▁송파구	-14118
▁눌	-14119
▁땀	-14120
▁니까	-14121
▁달콤	-14122
▁실명	-14123
▁아노	-14124
▁율법	-14125
▁의성	-14126
▁태안	-14127
록대부	-14128
▁성폭행	-14129
▁스케치	-14130
▁스피커	-14131
▁칭기즈	-14132
▁테오도	-14133
▁통도사	-14134
▁몽고메리	-14135
▁병자호란	-14136
▁브란덴부르크	-14137
▁기운	-14138
▁로큰	-14139
▁특공	-14140
▁강희제	-14141
▁아세틸	-14142
▁통신망	-14143
▁파라오	-14144
PA	-14145
방향	-14146
▁디디	-14147
▁문관	-14148
▁버트	-14149
▁왕래	-14150
▁북극점	-14151
▁이사벨	-14152
▁장갑차	-14153
▁중앙선	-14154
▁채무자	-14155
▁클레어	-14156
▁항공대	-14157
더링	-14158
어류	-14159
ale	-14160
▁TS	-14161
▁금정	-14162
▁기판	-14163
▁단양	-14164
▁비료	-14165
▁선체	-14166
▁안중	-14167
▁예식	-14168
▁타쿠	-14169
▁활기	-14170
able	-14171
▁레스터	-14172
▁쇼핑몰	-14173
▁행해지	-14174
▁포르투갈어	-14175
은사	-14176
▁바늘	-14177
▁배반	-14178
▁성행	-14179
▁베르트	-14180
▁부적절	-14181
▁싫어하	-14182
▁크라운	-14183
▁싯	-14184
알라	-14185
엽수	-14186
▁생쥐	-14187
▁일차	-14188
▁체로	-14189
▁환율	-14190
▁획기	-14191
▁가환환	-14192
▁광둥성	-14193
▁다이쇼	-14194
▁로큰롤	-14195
▁마주치	-14196
▁상반기	-14197
▁슈타인	-14198
▁감기	-14199
▁구루	-14200
▁슬리	-14201
▁영락	-14202
▁원효	-14203
▁정언	-14204
해방군	-14205
▁꽃차례	-14206
▁신석기	-14207
▁연속극	-14208
▁프론트	-14209
▁쇼트트랙	-14210
▁바빌로니아	-14211
▁인민해방군	-14212
부대	-14213
세키	-14214
▁KO	-14215
▁결전	-14216
▁극소	-14217
▁레몬	-14218
▁명상	-14219
▁서당	-14220
▁세일	-14221
▁술라	-14222
▁칸트	-14223
▁포인	-14224
▁로버츠	-14225
▁야마다	-14226
▁파스칼	-14227
ng	-14228
윽고	-14229
크리	-14230
▁교관	-14231
▁동거	-14232
▁야권	-14233
▁양지	-14234
▁"()	-14235
▁아리랑	-14236
▁이윽고	-14237
▁저널리스트	-14238
UN	-14239
두사	-14240
르카	-14241
▁교화	-14242
▁모질	-14243
▁장정	-14244
▁바나나	-14245
▁코트디	-14246
▁코트디부아르	-14247
▁가세	-14248
▁구세	-14249
▁기공	-14250
▁기마	-14251
▁라울	-14252
▁방호	-14253
▁스펜	-14254
▁실은	-14255
▁안식	-14256
▁애착	-14257
▁중일	-14258
▁즐거	-14259
▁되풀이	-14260
▁비단털	-14261
▁최성기	-14262
▁오프라인	-14263
몽골	-14264
촌리	-14265
▁거머	-14266
▁구타	-14267
▁로바	-14268
▁모피	-14269
▁박재	-14270
▁안톤	-14271
▁엔젤	-14272
▁이질	-14273
▁출격	-14274
루엔자	-14275
▁Par	-14276
스코리아	-14277
▁비단털쥐	-14278
▁보컬리스트	-14279
▁벙	-14280
시대	-14281
▁가모	-14282
▁모체	-14283
▁보우	-14284
▁수마	-14285
▁수은	-14286
▁염두	-14287
▁차명	-14288
▁헤센	-14289
▁건너오	-14290
▁반감기	-14291
박사	-14292
우주	-14293
▁가명	-14294
▁래리	-14295
▁샤르	-14296
▁자장	-14297
▁대항전	-14298
▁보호법	-14299
▁순식간	-14300
▁정치국	-14301
▁WC	-14302
▁경의	-14303
▁기미	-14304
▁문수	-14305
▁보그	-14306
▁위트	-14307
▁잉카	-14308
▁정에	-14309
▁205	-14310
▁맥스웰	-14311
▁선거인	-14312
데기	-14313
▁구아	-14314
▁금하	-14315
▁금환	-14316
▁모사	-14317
▁열악	-14318
▁708	-14319
▁개그맨	-14320
▁데뷔작	-14321
▁사학자	-14322
▁관음보살	-14323
▁University	-14324
▁텅	-14325
연구	-14326
행파	-14327
▁서클	-14328
▁이홍	-14329
▁향신	-14330
▁후루	-14331
very	-14332
▁합성어	-14333
▁형용사	-14334
▁탭	-14335
▁경순	-14336
▁동군	-14337
▁무능	-14338
▁실사	-14339
▁에코	-14340
▁NBC	-14341
▁Vol	-14342
▁라이베리아	-14343
건설	-14344
▁대류	-14345
▁야코	-14346
▁정칙	-14347
▁ATC	-14348
▁보조금	-14349
▁스케줄	-14350
▁아우구스투스	-14351
▁At	-14352
▁경종	-14353
▁규약	-14354
▁배당	-14355
▁월남	-14356
▁사할린	-14357
▁콘라트	-14358
▁통계청	-14359
▁cc	-14360
▁라벨	-14361
▁미첼	-14362
▁안팎	-14363
▁외손	-14364
▁집사	-14365
▁케리	-14366
▁한겨	-14367
▁슈미트	-14368
쿠사	-14369
▁데일	-14370
▁복부	-14371
▁불쾌	-14372
▁시의	-14373
▁안심	-14374
▁외할	-14375
▁조봉	-14376
▁타시	-14377
▁캐스터	-14378
▁테두리	-14379
▁엑스박스	-14380
▁인플루엔자	-14381
▁GR	-14382
▁거시	-14383
▁군복	-14384
▁등산	-14385
▁띄우	-14386
▁뮐러	-14387
▁베티	-14388
▁양서	-14389
▁재화	-14390
▁김해시	-14391
▁조선공산당	-14392
▁JC	-14393
▁박용	-14394
▁상계	-14395
▁서안	-14396
▁아연	-14397
▁양극	-14398
▁치마	-14399
▁235	-14400
▁가이아	-14401
▁name	-14402
벌리	-14403
양이	-14404
anc	-14405
▁남단	-14406
▁웨어	-14407
▁자위	-14408
▁정글	-14409
▁족장	-14410
▁초계	-14411
▁칼륨	-14412
▁토피	-14413
▁후이	-14414
▁시마즈	-14415
▁로베르토	-14416
▁맴	-14417
루즈	-14418
모음	-14419
▁가뭄	-14420
▁나기	-14421
▁내림	-14422
▁비옥	-14423
▁수역	-14424
▁외삼	-14425
▁우기	-14426
▁재보	-14427
▁후한	-14428
▁DOS	-14429
▁스케일	-14430
▁호흡기	-14431
화당	-14432
ody	-14433
▁골절	-14434
▁에노	-14435
▁자키	-14436
▁줄곧	-14437
▁축복	-14438
▁포니	-14439
▁풀백	-14440
▁호로	-14441
폴리탄	-14442
▁다가가	-14443
▁안양시	-14444
▁메트로폴리탄	-14445
사와	-14446
IVE	-14447
▁균일	-14448
▁노카	-14449
▁세스	-14450
▁손목	-14451
▁솜씨	-14452
▁신병	-14453
▁이달	-14454
▁젠더	-14455
▁키트	-14456
▁하산	-14457
▁tvN	-14458
▁반대편	-14459
▁오르간	-14460
▁자격증	-14461
▁그레이엄	-14462
▁뤄	-14463
▁퀄	-14464
나들	-14465
보라	-14466
황색	-14467
▁기스	-14468
▁라지	-14469
▁마흐	-14470
▁사미	-14471
▁석기	-14472
▁창구	-14473
▁셴	-14474
net	-14475
▁경화	-14476
▁고층	-14477
▁나한	-14478
▁리나	-14479
▁실효	-14480
▁유충	-14481
▁코바	-14482
▁통솔	-14483
▁화승	-14484
▁간호사	-14485
▁남극점	-14486
▁사무관	-14487
▁열역학	-14488
▁조각상	-14489
▁This	-14490
▁지하철역	-14491
열대	-14492
▁바니	-14493
▁버니	-14494
▁병렬	-14495
▁일간	-14496
▁일삼	-14497
▁잔혹	-14498
▁카로	-14499
▁패치	-14500
▁교육감	-14501
▁서스펜	-14502
▁한겨레	-14503
▁1874	-14504
▁우두머리	-14505
▁브로드웨이	-14506
▁잼	-14507
에쓰	-14508
▁가온	-14509
▁노라	-14510
▁베크	-14511
▁시제	-14512
▁정승	-14513
▁확충	-14514
▁로페스	-14515
▁신호장	-14516
▁안드레	-14517
▁카디널	-14518
18	-14519
so	-14520
그램	-14521
르산	-14522
큐슈	-14523
▁종가	-14524
▁키타	-14525
▁거주자	-14526
▁당뇨병	-14527
▁동아리	-14528
▁일렉트릭	-14529
악산	-14530
주크	-14531
ATO	-14532
▁무가	-14533
▁부엌	-14534
▁소론	-14535
▁소양	-14536
▁요직	-14537
▁잔여	-14538
▁침범	-14539
▁코로	-14540
▁향수	-14541
▁조각가	-14542
▁천도교	-14543
▁미스코리아	-14544
▁알렉산데르	-14545
란다	-14546
▁뉴멕	-14547
▁발판	-14548
▁양평	-14549
▁일주	-14550
▁협곡	-14551
▁화원	-14552
▁시그마	-14553
▁뉴멕시코	-14554
▁중앙아메리카	-14555
▁파푸아뉴기니	-14556
▁낭비	-14557
▁동백	-14558
▁리시	-14559
▁마늘	-14560
▁몰수	-14561
▁석권	-14562
▁숙박	-14563
▁악당	-14564
▁은폐	-14565
▁잉여	-14566
▁칠성	-14567
▁공주시	-14568
▁라스트	-14569
▁무지개	-14570
▁재미있	-14571
▁오아시스	-14572
텐셜	-14573
▁리타	-14574
▁무예	-14575
▁볼드	-14576
▁빌드	-14577
▁산조	-14578
▁중남	-14579
▁한복	-14580
▁홍익	-14581
스크림	-14582
진보당	-14583
▁가요제	-14584
▁바그다드	-14585
▁슈퍼스타	-14586
▁스틸러스	-14587
▁유가행파	-14588
▁컨퍼런스	-14589
▁콘퍼런스	-14590
시험	-14591
신저	-14592
▁다쿠	-14593
▁발작	-14594
▁산문	-14595
▁이색	-14596
▁성폭력	-14597
▁저스틴	-14598
ala	-14599
▁강국	-14600
▁맞물	-14601
▁싱크	-14602
▁재회	-14603
▁점하	-14604
▁품목	-14605
▁아놀드	-14606
▁트레일	-14607
▁항공편	-14608
프랑	-14609
▁sp	-14610
▁기닿	-14611
▁메모	-14612
▁코크	-14613
▁판명	-14614
▁204	-14615
▁동남쪽	-14616
▁퍼텐셜	-14617
▁기울어지	-14618
▁호소카와	-14619
징어	-14620
▁넷플	-14621
▁라플	-14622
▁레나	-14623
▁읍성	-14624
▁인스	-14625
▁자네	-14626
▁조동	-14627
▁쿠마	-14628
▁클로드	-14629
▁넷플릭스	-14630
▁강좌	-14631
▁델리	-14632
▁묘호	-14633
▁미겔	-14634
▁인성	-14635
▁주군	-14636
▁학당	-14637
▁흐리	-14638
▁대수학	-14639
▁에스컬	-14640
▁휴대폰	-14641
▁1877	-14642
▁에스컬레이터	-14643
me	-14644
▁벚	-14645
▁격전	-14646
▁나일	-14647
▁벗기	-14648
▁사중	-14649
▁송이	-14650
▁앨라	-14651
▁옥사	-14652
▁캠벨	-14653
▁행선	-14654
야누스	-14655
어나오	-14656
▁게임즈	-14657
▁앞바다	-14658
▁지리산	-14659
▁핸드볼	-14660
▁후쿠이	-14661
▁바이마르	-14662
▁콜럼버스	-14663
운수	-14664
▁SR	-14665
▁YG	-14666
▁감축	-14667
▁결말	-14668
▁공문	-14669
▁깔리	-14670
▁너희	-14671
▁모치	-14672
▁이문	-14673
▁하지	-14674
▁Bab	-14675
▁뉴올리	-14676
ax	-14677
co	-14678
소문	-14679
▁AE	-14680
▁단발	-14681
▁법규	-14682
▁상한	-14683
▁선단	-14684
▁에페	-14685
▁클랜	-14686
▁참전하	-14687
▁프레슬리	-14688
▁트라야누스	-14689
더릭	-14690
▁그르	-14691
▁도형	-14692
▁되살	-14693
▁민원	-14694
▁복속	-14695
▁앞뒤	-14696
▁애드	-14697
▁예금	-14698
▁출사	-14699
▁퇴진	-14700
▁화염	-14701
▁화음	-14702
▁루이즈	-14703
▁여운형	-14704
▁청문회	-14705
▁포식자	-14706
▁7000	-14707
▁돌려보내	-14708
au	-14709
yn	-14710
비에	-14711
▁북측	-14712
▁교육학	-14713
▁사하라	-14714
▁중거리	-14715
▁서아프리카	-14716
▁쿰	-14717
민당	-14718
▁그립	-14719
▁엄지	-14720
▁예멘	-14721
▁차오	-14722
▁처마	-14723
▁Her	-14724
▁수백만	-14725
▁원주시	-14726
▁한국군	-14727
▁허베이	-14728
범죄	-14729
▁AF	-14730
▁곤살	-14731
▁아킬	-14732
▁양천	-14733
▁전조	-14734
▁지령	-14735
▁총영	-14736
▁탄수	-14737
▁셀주크	-14738
▁멀티미디어	-14739
▁끔	-14740
높이	-14741
를레	-14742
ash	-14743
oid	-14744
▁건지	-14745
▁본존	-14746
▁블랑	-14747
▁승낙	-14748
▁의제	-14749
▁지크	-14750
▁CIA	-14751
▁공학자	-14752
▁스타드	-14753
▁컨설팅	-14754
▁콘티넨	-14755
▁Best	-14756
▁갈릴레오	-14757
GB	-14758
▁툼	-14759
계약	-14760
▁고승	-14761
▁두뇌	-14762
▁무주	-14763
▁소인	-14764
▁요가	-14765
▁APG	-14766
▁비잔틴	-14767
▁오릭스	-14768
▁레닌주의	-14769
바드	-14770
혈구	-14771
▁결장	-14772
▁경내	-14773
▁김우	-14774
▁바야	-14775
▁밸브	-14776
▁산체	-14777
▁순찰	-14778
▁시발	-14779
▁에볼	-14780
▁우표	-14781
▁제지	-14782
▁토바	-14783
▁518	-14784
▁브리스	-14785
▁클러스터	-14786
ps	-14787
▁얄	-14788
양구	-14789
ose	-14790
▁로망	-14791
▁상환	-14792
▁추계	-14793
▁외계인	-14794
▁1859	-14795
변수	-14796
일기	-14797
ict	-14798
▁et	-14799
▁노하	-14800
▁도읍	-14801
▁소주	-14802
▁인계	-14803
▁카일	-14804
▁거머쥐	-14805
▁콜린스	-14806
▁1700	-14807
▁만장일치	-14808
22	-14809
▁나투	-14810
▁방학	-14811
▁사연	-14812
▁소르	-14813
▁숙명	-14814
▁승률	-14815
▁억울	-14816
▁유창	-14817
▁코린	-14818
▁하층	-14819
▁강화군	-14820
▁달려가	-14821
▁부르봉	-14822
▁Hell	-14823
▁다카하시	-14824
▁사무라이	-14825
▁플루토늄	-14826
HC	-14827
장사	-14828
피크	-14829
▁곡식	-14830
▁라임	-14831
▁문물	-14832
▁오구	-14833
▁통찰	-14834
▁쓰러뜨리	-14835
▁캄파니아	-14836
14	-14837
▁도안	-14838
▁맹렬	-14839
▁스펙	-14840
▁완장	-14841
▁원사	-14842
▁재물	-14843
▁경부선	-14844
▁곧이어	-14845
▁엘비스	-14846
제철	-14847
▁가선	-14848
▁관아	-14849
▁대입	-14850
▁뒤덮	-14851
▁문맥	-14852
▁자성	-14853
▁대사간	-14854
▁현미경	-14855
▁메모리얼	-14856
▁켐	-14857
의식	-14858
▁과세	-14859
▁레크	-14860
▁변론	-14861
▁보어	-14862
▁사병	-14863
▁산재	-14864
▁상감	-14865
▁오니	-14866
▁이씨	-14867
▁난쟁이	-14868
▁돌려주	-14869
▁루카스	-14870
▁연방군	-14871
▁이주민	-14872
▁클레오	-14873
▁스테파노	-14874
▁랏	-14875
남면	-14876
무장	-14877
토크	-14878
▁결여	-14879
▁만지	-14880
▁미켈	-14881
▁율리	-14882
▁제비	-14883
▁퇴치	-14884
▁게이밍	-14885
▁앙드레	-14886
▁전시관	-14887
배마	-14888
▁KS	-14889
▁se	-14890
▁경합	-14891
▁구가	-14892
▁니즈	-14893
▁뚜껑	-14894
▁서품	-14895
▁스플	-14896
▁중건	-14897
▁허물	-14898
▁후회	-14899
▁라이센스	-14900
▁앨라배마	-14901
▁챠	-14902
▁us	-14903
▁도부	-14904
▁미트	-14905
▁서체	-14906
▁선과	-14907
▁여정	-14908
▁요도	-14909
▁원문	-14910
▁타선	-14911
▁625	-14912
▁개화파	-14913
▁오리엔	-14914
▁혼합물	-14915
▁프리큐어	-14916
형제	-14917
▁블룸	-14918
▁쓰리	-14919
▁펭귄	-14920
▁플랑	-14921
▁불러오	-14922
▁사다리	-14923
▁아파치	-14924
▁울트라	-14925
▁이케다	-14926
▁멱	-14927
▁짚	-14928
EEE	-14929
▁ᆫ단	-14930
▁리안	-14931
▁명왕	-14932
▁일어	-14933
▁태화	-14934
▁투사	-14935
▁셰퍼드	-14936
▁순천시	-14937
▁아키텐	-14938
▁이론가	-14939
▁인류학	-14940
13	-14941
15	-14942
▁구전	-14943
▁네브	-14944
▁만류	-14945
▁모교	-14946
▁부식	-14947
▁결의안	-14948
▁길거리	-14949
▁억제제	-14950
▁긋	-14951
데일	-14952
버터	-14953
▁공병	-14954
▁적법	-14955
▁미트라	-14956
▁안철수	-14957
▁우에노	-14958
▁뮈	-14959
나시	-14960
로트	-14961
▁백운	-14962
▁북인	-14963
▁왕당	-14964
▁자갈	-14965
▁함장	-14966
▁후견	-14967
▁미야기현	-14968
▁소아시아	-14969
▁자이언트	-14970
▁자카르타	-14971
▁테크놀로지	-14972
▁샷	-14973
▁웜	-14974
고사	-14975
과학	-14976
동원	-14977
마을	-14978
매기	-14979
완다	-14980
▁원점	-14981
▁전범	-14982
▁츠카	-14983
▁푸젠	-14984
▁제니퍼	-14985
▁출장소	-14986
▁핵탄두	-14987
▁튀어나오	-14988
▁뉴클레오타이드	-14989
VA	-14990
주석	-14991
투리	-14992
▁관위	-14993
▁롤러	-14994
▁바젤	-14995
▁바투	-14996
▁베다	-14997
▁알로	-14998
▁원만	-14999
▁전서	-15000
▁화소	-15001
▁가치관	-15002
▁서태지	-15003
▁카리스	-15004
▁트레인	-15005
▁크리스틴	-15006
재판	-15007
uck	-15008
▁군기	-15009
▁근간	-15010
▁발터	-15011
▁일면	-15012
reak	-15013
▁빈센트	-15014
▁빌바오	-15015
▁아드리아	-15016
▁^	-15017
▁무공	-15018
▁박찬	-15019
▁백지	-15020
▁타파	-15021
▁후면	-15022
▁미성년	-15023
▁직사각	-15024
▁거병	-15025
▁다윗	-15026
▁레티	-15027
▁미러	-15028
▁속국	-15029
▁아누	-15030
▁이창	-15031
▁장경	-15032
▁헬스	-15033
▁페스트	-15034
▁환승역	-15035
▁아이스크림	-15036
de	-15037
장조	-15038
▁덮치	-15039
▁문건	-15040
▁산남	-15041
▁왕명	-15042
▁이만	-15043
▁테헤	-15044
▁희미	-15045
▁목표물	-15046
▁선제후	-15047
▁탈레반	-15048
▁IEEE	-15049
티지	-15050
▁관군	-15051
▁진심	-15052
▁피자	-15053
▁로저스	-15054
▁바스크	-15055
▁순교자	-15056
▁실린더	-15057
▁서바이벌	-15058
HL	-15059
소니	-15060
▁공석	-15061
▁김학	-15062
▁도끼	-15063
▁로보	-15064
▁사산	-15065
▁산술	-15066
▁오인	-15067
▁용맹	-15068
▁은지	-15069
▁자백	-15070
▁정청	-15071
▁총감	-15072
▁호투	-15073
▁홀수	-15074
▁기념장	-15075
▁쓰촨성	-15076
▁예문관	-15077
▁출판물	-15078
▁케이드	-15079
▁카디널스	-15080
르바	-15081
조류	-15082
▁경원	-15083
▁논증	-15084
▁로코	-15085
▁발광	-15086
▁수주	-15087
▁주포	-15088
▁퇴출	-15089
▁하후	-15090
▁호화	-15091
▁회차	-15092
▁340	-15093
▁아이치	-15094
▁이치현	-15095
▁정착지	-15096
▁통계학	-15097
▁아미타불	-15098
나주	-15099
주사	-15100
▁뉴잉	-15101
▁로디	-15102
▁리언	-15103
▁어지	-15104
▁코이	-15105
▁튜링	-15106
▁고바야시	-15107
oo	-15108
스톤	-15109
ail	-15110
▁FF	-15111
▁달력	-15112
▁상층	-15113
▁안주	-15114
▁오와	-15115
▁조회	-15116
▁특명	-15117
▁화풍	-15118
떨어지	-15119
하마드	-15120
▁마코토	-15121
▁아스카	-15122
스퍼	-15123
패드	-15124
▁발진	-15125
▁섹션	-15126
▁청정	-15127
▁교황령	-15128
▁대혁명	-15129
▁로스트	-15130
▁볼프강	-15131
▁향신료	-15132
▁Star	-15133
▁as	-15134
▁개경	-15135
▁담양	-15136
▁보국	-15137
▁보디	-15138
▁상설	-15139
▁수프	-15140
▁진천	-15141
▁타밀	-15142
▁통감	-15143
게이트	-15144
▁대제학	-15145
▁디에고	-15146
▁레이건	-15147
▁오토바이	-15148
▁펙	-15149
▁금관	-15150
▁도매	-15151
▁세제	-15152
▁유틸	-15153
▁의인	-15154
▁전봉	-15155
▁호적	-15156
▁310	-15157
▁아니면	-15158
▁지석묘	-15159
▁해인사	-15160
▁국가원수	-15161
▁유틸리티	-15162
▁사생	-15163
▁사탄	-15164
▁수문	-15165
▁양동	-15166
▁정역	-15167
▁폐차	-15168
▁Sun	-15169
▁개척자	-15170
▁국내선	-15171
▁오슬로	-15172
▁원정대	-15173
▁이광수	-15174
▁어우러지	-15175
▁매사추세츠주	-15176
팩스	-15177
▁구라	-15178
▁젤리	-15179
▁중앙일보	-15180
▁뽀	-15181
▁DO	-15182
▁거문	-15183
▁교인	-15184
▁나바	-15185
▁떠돌	-15186
▁베가	-15187
▁부락	-15188
▁손수	-15189
▁연해	-15190
▁입찰	-15191
▁짝수	-15192
▁추장	-15193
▁커브	-15194
▁터스	-15195
▁가우스	-15196
▁개막식	-15197
▁대관식	-15198
▁대대장	-15199
▁브레멘	-15200
▁Super	-15201
플레	-15202
▁my	-15203
▁김도	-15204
▁김주	-15205
▁동급	-15206
▁뚫리	-15207
▁멜라	-15208
▁센타	-15209
▁어학	-15210
▁호이	-15211
▁you	-15212
▁슈투트	-15213
▁여러분	-15214
▁슈투트가르트	-15215
댓값	-15216
▁교감	-15217
▁근세	-15218
▁모션	-15219
▁아칸	-15220
▁템플	-15221
▁209	-15222
▁무사시	-15223
▁에이브	-15224
▁울주군	-15225
▁1812	-15226
▁콘스탄티누스	-15227
구미	-15228
바퀴	-15229
vel	-15230
▁과달	-15231
▁수구	-15232
▁시력	-15233
▁평방	-15234
▁폐하	-15235
▁무신론	-15236
▁바빌론	-15237
▁셀레우	-15238
▁자본가	-15239
▁조르주	-15240
▁뉴잉글랜드	-15241
학파	-15242
▁강유	-15243
▁메드	-15244
▁비어	-15245
▁선별	-15246
▁소서	-15247
▁지검	-15248
▁추밀	-15249
▁충동	-15250
▁그래픽스	-15251
▁늦추	-15252
▁명륜	-15253
▁빨강	-15254
▁산정	-15255
▁속초	-15256
▁윤치영	-15257
▁모니터링	-15258
▁유니코드	-15259
▁안토니우스	-15260
▁후쿠시마현	-15261
TF	-15262
초프	-15263
▁ad	-15264
▁로컬	-15265
▁루드	-15266
▁무위	-15267
▁배타	-15268
▁장지	-15269
▁정실	-15270
▁카파	-15271
▁토프	-15272
▁항문	-15273
▁해커	-15274
▁리바이	-15275
▁자오선	-15276
▁자치현	-15277
▁클라리	-15278
▁Soul	-15279
▁아이파크	-15280
어놓	-15281
iel	-15282
▁Kn	-15283
▁걸스	-15284
▁근위	-15285
▁김덕	-15286
▁나시	-15287
▁닷컴	-15288
▁박경	-15289
▁산인	-15290
▁성조	-15291
▁손쉽	-15292
▁황위	-15293
▁르완다	-15294
▁송진우	-15295
▁에세이	-15296
▁에이지	-15297
▁선거관리	-15298
▁무형문화재	-15299
▁선거관리위원회	-15300
티어	-15301
▁Tw	-15302
▁맞배	-15303
▁세밀	-15304
▁수질	-15305
▁조던	-15306
▁지카	-15307
▁쪼개	-15308
▁탄두	-15309
▁피그	-15310
▁하강	-15311
▁호국	-15312
하우스	-15313
▁206	-15314
▁삼거리	-15315
▁주거지	-15316
▁서비스업	-15317
▁알렉세이	-15318
▁Christ	-15319
▁당상	-15320
▁루손	-15321
▁스쿼	-15322
▁안면	-15323
▁의논	-15324
▁장강	-15325
▁점토	-15326
▁단말기	-15327
▁여수시	-15328
▁음식점	-15329
▁접미사	-15330
▁조광조	-15331
▁한자어	-15332
▁ICBM	-15333
▁름	-15334
▁과감	-15335
▁로런	-15336
▁이건	-15337
▁주유	-15338
▁풀이	-15339
▁John	-15340
▁북대서양	-15341
59	-15342
샤오	-15343
▁고후	-15344
▁규합	-15345
▁그늘	-15346
▁끔찍	-15347
▁논평	-15348
▁산동	-15349
▁아호	-15350
▁천자	-15351
▁카보	-15352
▁코우	-15353
▁콘스	-15354
▁연대장	-15355
▁주제가	-15356
▁막시밀리	-15357
네오	-15358
디드	-15359
▁ON	-15360
▁교재	-15361
▁금천	-15362
▁니치	-15363
▁도자	-15364
▁동맥	-15365
▁로지	-15366
▁무진	-15367
▁법상	-15368
▁위축	-15369
▁투니	-15370
공화당	-15371
시아키	-15372
▁록히드	-15373
▁1879	-15374
▁민주공화당	-15375
▁쑹	-15376
버라	-15377
ute	-15378
▁Mi	-15379
▁귀순	-15380
▁샤오	-15381
▁영도	-15382
▁장이	-15383
▁철기	-15384
▁춘계	-15385
▁개개인	-15386
▁베르사유	-15387
TR	-15388
gh	-15389
도감	-15390
탄올	-15391
▁IF	-15392
▁Mr	-15393
▁솔리	-15394
▁집적	-15395
▁747	-15396
▁기생충	-15397
▁레코딩	-15398
▁로널드	-15399
▁보이즈	-15400
▁안데스	-15401
▁건국훈장	-15402
▁아브라함	-15403
▁썸	-15404
면적	-15405
▁가창	-15406
▁개표	-15407
▁버밍	-15408
▁수라	-15409
▁스완	-15410
▁포상	-15411
▁해주	-15412
▁휴일	-15413
▁슈트라	-15414
▁의병장	-15415
▁테헤란	-15416
▁파르마	-15417
EA	-15418
무지	-15419
▁구비	-15420
▁방탄	-15421
▁범람	-15422
▁변성	-15423
▁원한	-15424
▁유세	-15425
▁전열	-15426
▁차역	-15427
▁청일	-15428
▁초식	-15429
▁카토	-15430
▁콜론	-15431
▁사우디	-15432
▁에다가	-15433
▁리바운드	-15434
방스	-15435
▁농담	-15436
▁동대	-15437
▁소량	-15438
▁슬러	-15439
▁양원	-15440
▁카펠	-15441
▁타라	-15442
라이스	-15443
▁고지대	-15444
▁백두산	-15445
▁조봉암	-15446
▁파르티아	-15447
▁슈트라우스	-15448
▁일렉트로닉	-15449
태자	-15450
▁낯설	-15451
▁단수	-15452
▁딱딱	-15453
▁부기	-15454
▁상이	-15455
▁아람	-15456
▁양념	-15457
▁양정	-15458
▁울루	-15459
▁자각	-15460
▁정맥	-15461
▁그러면	-15462
▁독재자	-15463
▁바닷가	-15464
▁석회암	-15465
▁카지노	-15466
▁피어스	-15467
▁HP	-15468
▁공경	-15469
▁관개	-15470
▁도파	-15471
▁예보	-15472
▁풍요	-15473
▁제이크	-15474
분투	-15475
슐리	-15476
▁대방	-15477
▁리퍼	-15478
▁모태	-15479
▁불문	-15480
▁소포	-15481
▁유계	-15482
▁유보	-15483
▁유상	-15484
▁임실	-15485
▁자석	-15486
▁des	-15487
▁게이오	-15488
▁태블릿	-15489
▁군마	-15490
▁그릴	-15491
▁노역	-15492
▁듀스	-15493
▁보아	-15494
▁실베	-15495
▁용역	-15496
▁이코	-15497
▁일보	-15498
▁초회	-15499
▁쿠시	-15500
▁420	-15501
▁뉴올리언스	-15502
OK	-15503
▁쑨	-15504
네프	-15505
화산	-15506
▁감당	-15507
▁게놈	-15508
▁당장	-15509
▁대등	-15510
▁대여	-15511
▁비오	-15512
▁빛깔	-15513
▁수족	-15514
로세서	-15515
를레앙	-15516
▁CoA	-15517
▁라그랑	-15518
반정	-15519
블릭	-15520
▁기권	-15521
▁능숙	-15522
▁두부	-15523
▁불능	-15524
▁스킨	-15525
▁영종	-15526
▁차차	-15527
▁촐라	-15528
▁App	-15529
▁리그컵	-15530
▁변호인	-15531
▁사가미	-15532
▁여행자	-15533
▁영사관	-15534
▁트리스	-15535
▁뜯	-15536
신보	-15537
정변	-15538
▁국문	-15539
▁노마	-15540
▁부화	-15541
▁사체	-15542
▁사파	-15543
▁온전	-15544
▁조우	-15545
▁최용	-15546
▁클럭	-15547
▁Str	-15548
▁아이작	-15549
▁암스트	-15550
▁ᆯ지라도	-15551
▁불법행위	-15552
▁끊이	-15553
▁반달	-15554
▁열람	-15555
▁유민	-15556
▁전곡	-15557
▁제고	-15558
레틱스	-15559
▁국방군	-15560
▁즐거움	-15561
리아누스	-15562
▁애슬레틱스	-15563
▁Record	-15564
▁강가	-15565
▁반납	-15566
▁스텐	-15567
▁애호	-15568
▁인삼	-15569
▁중등	-15570
▁컬링	-15571
▁현수	-15572
▁호시	-15573
▁으리라	-15574
▁들어올리	-15575
연맹	-15576
자드	-15577
VID	-15578
▁광시	-15579
▁남경	-15580
▁두스	-15581
▁잇달	-15582
▁카다	-15583
▁글리제	-15584
▁본거지	-15585
▁최진실	-15586
▁테크노	-15587
▁원종공신	-15588
▁꽝	-15589
ull	-15590
▁Gu	-15591
▁권투	-15592
▁김시	-15593
▁노엘	-15594
▁도나	-15595
▁동하	-15596
▁머큐	-15597
▁앉히	-15598
▁인척	-15599
▁처칠	-15600
▁후추	-15601
▁440	-15602
▁니가타	-15603
▁수영장	-15604
▁알칼리	-15605
▁여주인	-15606
▁인산화	-15607
산업	-15608
▁수아	-15609
▁자존	-15610
▁접목	-15611
▁투기	-15612
▁흐트	-15613
▁군주제	-15614
▁부추기	-15615
▁엘리엇	-15616
▁오메가	-15617
▁유기체	-15618
▁조용히	-15619
▁주머니쥐	-15620
▁쿵	-15621
▁퀼	-15622
링크	-15623
수지	-15624
▁ㄹ로	-15625
▁소진	-15626
▁왕좌	-15627
▁유관	-15628
▁증축	-15629
▁체리	-15630
▁커리	-15631
▁항전	-15632
▁페르시	-15633
▁아우구스트	-15634
선교	-15635
장군	-15636
▁성자	-15637
▁시타	-15638
▁역동	-15639
▁제방	-15640
▁공성전	-15641
▁엘리스	-15642
▁잠비아	-15643
▁엔지니어링	-15644
박이	-15645
티보	-15646
▁"|	-15647
▁PA	-15648
▁부트	-15649
▁상회	-15650
▁압수	-15651
▁할구	-15652
▁Per	-15653
▁광합성	-15654
▁야구부	-15655
▁항생제	-15656
▁2500	-15657
▁print	-15658
▁다마스쿠스	-15659
▁금기	-15660
▁라쿠	-15661
▁양구	-15662
▁왕릉	-15663
▁용문	-15664
▁이석	-15665
▁폴로	-15666
▁환산	-15667
로그램	-15668
▁바실리	-15669
▁을수록	-15670
▁지극히	-15671
▁합병증	-15672
▁타지키스탄	-15673
▁public	-15674
길준	-15675
니에	-15676
덕궁	-15677
의금	-15678
▁CA	-15679
▁궁주	-15680
▁리지	-15681
▁무패	-15682
▁미타	-15683
▁신익	-15684
▁아로	-15685
▁앙상	-15686
▁열거	-15687
▁왕녀	-15688
▁요셉	-15689
▁쿠루	-15690
▁트림	-15691
▁256	-15692
▁매니아	-15693
▁스위트	-15694
▁실리콘	-15695
▁이회창	-15696
▁춘천시	-15697
▁플래닛	-15698
대비	-15699
▁po	-15700
▁리노	-15701
▁매복	-15702
▁종실	-15703
▁탈피	-15704
▁투병	-15705
▁부서지	-15706
▁불거지	-15707
▁양산시	-15708
▁엔리케	-15709
▁영화관	-15710
▁오토모	-15711
▁제시카	-15712
▁페이퍼	-15713
▁호기심	-15714
▁대법원장	-15715
▁헬레니즘	-15716
▁균등	-15717
▁기시	-15718
▁동두	-15719
▁콜리	-15720
▁Hot	-15721
▁바레인	-15722
▁살아오	-15723
▁허버트	-15724
바이러스	-15725
레미	-15726
발트	-15727
황제	-15728
▁nm	-15729
▁나토	-15730
▁명동	-15731
▁문어	-15732
▁성현	-15733
▁은평	-15734
▁이한	-15735
▁퀸스	-15736
▁헐리	-15737
▁화이	-15738
▁맞물리	-15739
▁산투스	-15740
▁습니까	-15741
▁카스텔	-15742
일체	-15743
자나	-15744
▁ER	-15745
▁광동	-15746
▁내시	-15747
▁더라	-15748
▁마거	-15749
▁바바	-15750
▁북마	-15751
▁사나	-15752
▁시영	-15753
▁이설	-15754
▁행운	-15755
▁버스터	-15756
▁부러지	-15757
16	-15758
25	-15759
▁앳	-15760
데오	-15761
빨리	-15762
▁고독	-15763
▁교학	-15764
▁담수	-15765
▁사목	-15766
▁식이	-15767
▁작자	-15768
▁향로	-15769
▁환초	-15770
▁기본법	-15771
▁오우치	-15772
▁왕당파	-15773
▁접근성	-15774
▁초고층	-15775
쿠치	-15776
▁고요	-15777
▁사스	-15778
▁셔츠	-15779
▁실책	-15780
▁워낙	-15781
▁정직	-15782
▁중신	-15783
▁코니	-15784
▁호찌	-15785
▁Win	-15786
▁고다이	-15787
▁깨어나	-15788
▁비행사	-15789
▁시에라	-15790
▁캅카스	-15791
▁판매고	-15792
▁천문단위	-15793
▁크리스탈	-15794
ty	-15795
▁가결	-15796
▁군도	-15797
▁담임	-15798
▁득실	-15799
▁성형	-15800
▁접시	-15801
▁코인	-15802
▁패자	-15803
다임	-15804
ual	-15805
▁레저	-15806
▁바타	-15807
▁반향	-15808
▁석재	-15809
▁성교	-15810
▁카츠	-15811
▁킬러	-15812
고로드	-15813
▁랴오닝	-15814
▁사이클론	-15815
포리	-15816
▁깊숙	-15817
▁동률	-15818
▁아역	-15819
▁오차	-15820
▁우타	-15821
▁피질	-15822
ogle	-15823
▁재결합	-15824
자락	-15825
▁Ke	-15826
▁농협	-15827
▁동체	-15828
▁미녀	-15829
▁유미	-15830
▁칠곡	-15831
▁렌더링	-15832
▁토론회	-15833
▁프리드	-15834
▁후유증	-15835
스틱	-15836
울루	-15837
▁HS	-15838
▁mu	-15839
▁강자	-15840
▁교명	-15841
▁기한	-15842
▁내기	-15843
▁노골	-15844
▁느슨	-15845
▁멘델	-15846
▁반정	-15847
▁브이	-15848
▁즉흥	-15849
▁체질	-15850
▁침수	-15851
▁할로	-15852
▁힐스	-15853
▁911	-15854
▁남북조	-15855
▁브루노	-15856
▁생산자	-15857
▁예비군	-15858
▁예수교	-15859
▁요나라	-15860
▁웨슬리	-15861
▁이세이	-15862
▁주둔지	-15863
▁리치먼드	-15864
▁패러다임	-15865
커우	-15866
▁금리	-15867
▁녹이	-15868
▁라사	-15869
▁쌍용	-15870
▁사무엘	-15871
▁스텔스	-15872
▁알베르	-15873
▁잠재력	-15874
▁조연상	-15875
▁1789	-15876
▁1801	-15877
▁Back	-15878
▁캥	-15879
는점	-15880
불명	-15881
▁겨냥	-15882
▁기피	-15883
▁대용	-15884
▁도화	-15885
▁사조	-15886
▁스팀	-15887
▁예쁘	-15888
▁응력	-15889
▁이보	-15890
▁준하	-15891
▁지브	-15892
▁코일	-15893
그래피	-15894
▁208	-15895
▁베이직	-15896
▁제주시	-15897
▁후반전	-15898
▁플랑드르	-15899
▁둠	-15900
무트	-15901
스텐	-15902
▁NM	-15903
▁봉분	-15904
▁부안	-15905
▁아구	-15906
▁악어	-15907
▁여관	-15908
▁유독	-15909
▁진성	-15910
▁초석	-15911
던지기	-15912
▁오이타	-15913
▁기타큐슈	-15914
▁아미타여래	-15915
▁강타	-15916
▁곱하	-15917
▁우니	-15918
▁정중	-15919
▁탄력	-15920
▁트램	-15921
▁다행히	-15922
▁유도탄	-15923
▁조제프	-15924
▁Kore	-15925
▁쐐	-15926
▁군림	-15927
▁누마	-15928
▁소노	-15929
▁솔직	-15930
▁시온	-15931
▁전과	-15932
▁치밀	-15933
▁치킨	-15934
▁히코	-15935
프리드	-15936
▁광주시	-15937
▁길버트	-15938
▁들여오	-15939
▁유길준	-15940
▁1400	-15941
▁포틀랜드	-15942
RNA	-15943
▁Fl	-15944
▁구애	-15945
▁군량	-15946
▁로만	-15947
▁원곡	-15948
▁조율	-15949
▁머큐리	-15950
▁방법론	-15951
▁암스트롱	-15952
▁폼페이우스	-15953
평면	-15954
▁KD	-15955
▁신천	-15956
▁쐐기	-15957
▁총생	-15958
▁폐교	-15959
리오스	-15960
▁아르테	-15961
▁흘러가	-15962
ll	-15963
다스	-15964
득점	-15965
로움	-15966
▁MD	-15967
▁성부	-15968
▁세타	-15969
▁에픽	-15970
▁우디	-15971
▁네바다	-15972
▁디아스	-15973
▁브릿지	-15974
▁영장류	-15975
▁NATO	-15976
▁독립선언	-15977
인산	-15978
▁교란	-15979
▁구부	-15980
▁궁수	-15981
▁기일	-15982
▁악의	-15983
▁안시	-15984
▁영성	-15985
▁파피	-15986
▁Get	-15987
▁MIT	-15988
▁마운틴	-15989
▁브루크	-15990
▁사망률	-15991
▁사천왕	-15992
▁앙상블	-15993
▁영문학	-15994
▁유물론	-15995
▁지배하	-15996
▁드래곤즈	-15997
▁뿜	-15998
제사	-15999
차리	-16000
▁NL	-16001
▁애프	-16002
▁윤곽	-16003
▁이가	-16004
▁이크	-16005
▁책정	-16006
▁첫날	-16007
▁동일시	-16008
▁로런스	-16009
▁선수상	-16010
▁인문학	-16011
▁남한산성	-16012
▁비로자나	-16013
ox	-16014
▁NA	-16015
▁가전	-16016
▁갑신	-16017
▁거품	-16018
▁관저	-16019
▁국산	-16020
▁균열	-16021
▁오웬	-16022
▁중학	-16023
▁채집	-16024
▁청중	-16025
▁총국	-16026
lect	-16027
▁370	-16028
▁급속도	-16029
▁마거릿	-16030
▁킵	-16031
라과	-16032
이상	-16033
▁고는	-16034
▁구명	-16035
▁발열	-16036
▁변천	-16037
▁약품	-16038
▁열기	-16039
▁내몽골	-16040
▁만주족	-16041
▁붉은색	-16042
▁스태프	-16043
▁양평군	-16044
▁작아지	-16045
▁추축국	-16046
▁트럼펫	-16047
▁가령	-16048
▁격화	-16049
▁다채	-16050
▁출정	-16051
▁트론	-16052
ames	-16053
▁225	-16054
▁이유로	-16055
▁Baby	-16056
▁미식축구	-16057
▁생물학자	-16058
▁프린세스	-16059
▁렬	-16060
▁극회	-16061
▁나날	-16062
▁만물	-16063
▁미디	-16064
▁장차	-16065
▁최순	-16066
▁코디	-16067
▁호전	-16068
▁클라인	-16069
▁항공우주	-16070
▁Intern	-16071
모닉	-16072
ove	-16073
▁관원	-16074
▁먼로	-16075
▁미로	-16076
▁민선	-16077
▁승선	-16078
▁신궁	-16079
▁안락	-16080
▁예편	-16081
▁유재	-16082
▁장승	-16083
▁청군	-16084
▁커넥	-16085
▁코딩	-16086
▁탄성	-16087
▁흑색	-16088
▁Mag	-16089
▁디렉터	-16090
▁요시카	-16091
ology	-16092
▁탄수화물	-16093
▁셀레우코스	-16094
GO	-16095
레븐	-16096
▁Cr	-16097
▁격침	-16098
▁고관	-16099
▁박태	-16100
▁수표	-16101
▁안건	-16102
▁오랑	-16103
▁유감	-16104
▁제헌	-16105
▁카인	-16106
▁현관	-16107
▁남아공	-16108
▁메신저	-16109
▁오리건	-16110
▁와이어	-16111
▁리하르트	-16112
▁이리하여	-16113
▁이마가와	-16114
▁해수욕장	-16115
YP	-16116
▁둑	-16117
남동	-16118
파니	-16119
▁공훈	-16120
▁군위	-16121
▁노름	-16122
▁다라	-16123
▁도식	-16124
▁명장	-16125
▁무소	-16126
▁생포	-16127
▁소마	-16128
▁승마	-16129
▁야만	-16130
▁얼리	-16131
▁유익	-16132
▁지회	-16133
▁타키	-16134
▁하세	-16135
▁황하	-16136
▁후난	-16137
▁거듭나	-16138
▁방문객	-16139
▁부사장	-16140
▁부천시	-16141
ature	-16142
▁레오나르	-16143
▁트로츠키	-16144
피카	-16145
▁가변	-16146
▁강구	-16147
▁진위	-16148
▁호지	-16149
▁기네스	-16150
▁나카노	-16151
▁베테랑	-16152
▁니카라과	-16153
▁서귀포시	-16154
백색	-16155
let	-16156
▁공평	-16157
▁배지	-16158
▁제타	-16159
▁조엘	-16160
▁출항	-16161
▁캔터	-16162
▁캡틴	-16163
▁케로	-16164
▁통킹	-16165
▁타일러	-16166
그라운드	-16167
▁로베르트	-16168
▁소크라테스	-16169
▁안티오키아	-16170
▁갸	-16171
능력	-16172
훈련	-16173
▁결렬	-16174
▁결투	-16175
▁교내	-16176
▁무쓰	-16177
▁초판	-16178
▁친히	-16179
▁탄광	-16180
▁흉내	-16181
피에르	-16182
▁고스트	-16183
▁미요시	-16184
▁블러드	-16185
▁시나노	-16186
▁콜라보	-16187
▁돼지고기	-16188
▁에두아르	-16189
▁베오그라드	-16190
17	-16191
심원	-16192
▁BO	-16193
▁그간	-16194
▁누에	-16195
▁니트	-16196
▁대소	-16197
▁듀엣	-16198
▁무루	-16199
▁비방	-16200
▁사일	-16201
▁수화	-16202
▁약수	-16203
▁양위	-16204
▁죄인	-16205
▁효성	-16206
스트림	-16207
inal	-16208
▁리카르	-16209
▁태양광	-16210
경찰	-16211
메랄	-16212
무실	-16213
▁개축	-16214
▁던전	-16215
▁알마	-16216
▁직각	-16217
▁카노	-16218
▁피시	-16219
▁Way	-16220
▁신안군	-16221
▁주세페	-16222
▁프레더릭	-16223
TN	-16224
▁씬	-16225
락부	-16226
enn	-16227
▁공지	-16228
▁굳이	-16229
▁명중	-16230
▁사옥	-16231
▁생장	-16232
▁외가	-16233
▁주스	-16234
▁합장	-16235
코비치	-16236
▁다카시	-16237
▁범어사	-16238
▁사법부	-16239
▁스트라	-16240
▁페라리	-16241
가요	-16242
가키	-16243
금속	-16244
처럼	-16245
▁BB	-16246
▁경산	-16247
▁고취	-16248
▁김장	-16249
▁도보	-16250
▁라테	-16251
▁베아	-16252
▁불길	-16253
▁서곡	-16254
▁인노	-16255
▁천태	-16256
▁총수	-16257
▁출병	-16258
▁카불	-16259
▁파출	-16260
▁한꺼	-16261
▁두더지	-16262
▁아열대	-16263
▁어드밴	-16264
▁이치로	-16265
▁태극기	-16266
▁함부로	-16267
▁해수면	-16268
▁혈액형	-16269
▁게오르기	-16270
▁한꺼번에	-16271
UM	-16272
ors	-16273
▁개리	-16274
▁레반	-16275
▁매튜	-16276
▁증류	-16277
▁춘향	-16278
▁하츠	-16279
▁효모	-16280
▁207	-16281
▁GPS	-16282
▁강릉시	-16283
▁김종직	-16284
▁알레산	-16285
▁압둘라	-16286
▁알아차리	-16287
▁MR	-16288
▁결단	-16289
▁깁슨	-16290
▁레르	-16291
▁미끄	-16292
▁연어	-16293
▁윈드	-16294
▁잔치	-16295
▁재심	-16296
▁철근	-16297
▁틈타	-16298
▁흡입	-16299
말라야	-16300
▁Res	-16301
▁스펜서	-16302
▁시아파	-16303
▁내역	-16304
▁봉헌	-16305
▁운석	-16306
▁조너	-16307
▁동북부	-16308
▁무정부	-16309
▁일제히	-16310
▁항소심	-16311
▁1820	-16312
갱이	-16313
▁DA	-16314
▁굴욕	-16315
▁미추	-16316
▁베컴	-16317
▁사계	-16318
▁살레	-16319
▁시편	-16320
▁이구	-16321
▁폭주	-16322
▁365	-16323
▁사이다	-16324
▁이지스	-16325
▁조합원	-16326
▁직할시	-16327
▁체육회	-16328
▁1815	-16329
▁서대문구	-16330
▁선거인단	-16331
▁이오니아	-16332
덱스	-16333
즈미	-16334
app	-16335
▁결실	-16336
▁기형	-16337
▁도량	-16338
▁맞닿	-16339
▁습도	-16340
▁에인	-16341
▁키치	-16342
▁페레스	-16343
노스아이	-16344
▁Amer	-16345
노스아이레스	-16346
▁부에노스아이레스	-16347
광사	-16348
나비	-16349
든가	-16350
시카	-16351
월드	-16352
▁OK	-16353
▁담그	-16354
▁박동	-16355
▁북송	-16356
▁비이	-16357
▁세도	-16358
▁천적	-16359
▁풋살	-16360
▁핼리	-16361
스티안	-16362
▁국무부	-16363
▁Cent	-16364
▁리얼리티	-16365
▁카롤루스	-16366
▁아르바이트	-16367
▁"'	-16368
▁공보	-16369
▁매듭	-16370
▁산마	-16371
▁설과	-16372
▁술집	-16373
▁신안	-16374
▁에든	-16375
▁토의	-16376
▁퇴계	-16377
▁화교	-16378
어들이	-16379
이즈미	-16380
▁유명세	-16381
▁지방도	-16382
▁프린터	-16383
▁라이온스	-16384
▁에든버러	-16385
▁히말라야	-16386
24	-16387
▁Dr	-16388
▁변조	-16389
▁토하	-16390
▁필로	-16391
▁허구	-16392
레이즈	-16393
▁감마선	-16394
▁노무라	-16395
▁일진회	-16396
▁유럽연합	-16397
▁낸	-16398
▁욘	-16399
ret	-16400
▁결집	-16401
▁김은	-16402
▁담장	-16403
▁로제	-16404
▁모잠	-16405
▁서역	-16406
▁시성	-16407
▁양분	-16408
▁좌랑	-16409
▁해내	-16410
▁해머	-16411
ange	-16412
▁리그전	-16413
▁야행성	-16414
▁오징어	-16415
▁전동기	-16416
▁모잠비크	-16417
로프로세서	-16418
▁레닌그라드	-16419
▁막시밀리안	-16420
▁마이크로프로세서	-16421
▁훅	-16422
오드	-16423
현실	-16424
ina	-16425
▁만수	-16426
▁스틱	-16427
▁으뜸	-16428
▁전극	-16429
▁조나	-16430
▁천리	-16431
▁충고	-16432
▁쿠사	-16433
▁표어	-16434
▁학도	-16435
▁한라	-16436
▁호박	-16437
ater	-16438
▁농민군	-16439
▁도나우	-16440
▁정몽주	-16441
▁제품군	-16442
의금부사	-16443
FS	-16444
▁김석	-16445
▁마취	-16446
▁분담	-16447
▁영위	-16448
▁트롤	-16449
▁피쳐	-16450
▁모터쇼	-16451
▁후베이	-16452
▁System	-16453
마니	-16454
▁격상	-16455
▁리서	-16456
▁본진	-16457
▁시차	-16458
▁어인	-16459
▁월경	-16460
▁테살	-16461
▁디나모	-16462
▁조병옥	-16463
▁지포스	-16464
▁혁명가	-16465
▁고고학자	-16466
▁마쓰모토	-16467
▁알베르트	-16468
▁알렉산드라	-16469
비츠	-16470
▁갑오	-16471
▁데니	-16472
▁본능	-16473
▁부이	-16474
▁성내	-16475
▁세실	-16476
▁위태	-16477
▁융기	-16478
▁지반	-16479
▁펜스	-16480
▁넘어지	-16481
▁아드리	-16482
▁연금술	-16483
▁지팡이	-16484
▁1858	-16485
베인	-16486
▁SW	-16487
▁기욤	-16488
▁노총	-16489
▁달마	-16490
▁당사	-16491
▁디펜	-16492
▁마초	-16493
▁슐레	-16494
▁이삭	-16495
▁허들	-16496
▁모델링	-16497
▁선데이	-16498
▁연습생	-16499
▁유공자	-16500
▁중심핵	-16501
▁모노이드	-16502
▁프로방스	-16503
za	-16504
거루	-16505
▁경구	-16506
▁광서	-16507
▁성찬	-16508
▁소정	-16509
▁소켓	-16510
▁실태	-16511
▁자막	-16512
▁장서	-16513
▁직류	-16514
▁출루	-16515
▁코넬	-16516
▁탈리	-16517
▁퍼플	-16518
▁전망대	-16519
▁총생산	-16520
▁오스트로	-16521
▁써	-16522
▁챈	-16523
쓰네	-16524
ons	-16525
▁만연	-16526
▁미완	-16527
▁벅스	-16528
▁사보	-16529
▁아토	-16530
▁장론	-16531
▁종단	-16532
▁특혜	-16533
▁형광	-16534
지먼트	-16535
▁Int	-16536
▁Mac	-16537
▁가디언	-16538
▁민의원	-16539
▁적절히	-16540
▁마그네슘	-16541
▁매니지먼트	-16542
니츠	-16543
입자	-16544
ley	-16545
▁급사	-16546
▁기주	-16547
▁달래	-16548
▁도난	-16549
▁매질	-16550
▁발라	-16551
▁엠마	-16552
▁옵티	-16553
▁지뢰	-16554
▁특위	-16555
▁합산	-16556
▁라이드	-16557
▁모조리	-16558
▁스와프	-16559
▁신익희	-16560
▁조너선	-16561
▁크레타	-16562
▁파블로	-16563
▁이성질체	-16564
▁필하모닉	-16565
러기	-16566
토바	-16567
퍼트	-16568
▁'-	-16569
▁갈비	-16570
▁관대	-16571
▁기민	-16572
▁녹말	-16573
▁새해	-16574
▁선서	-16575
▁위배	-16576
▁육박	-16577
▁음양	-16578
▁하카	-16579
▁날아오	-16580
▁도치기	-16581
▁제노바	-16582
▁알베르토	-16583
▁class	-16584
▁폴리네시아	-16585
ux	-16586
달음	-16587
동리	-16588
▁견지	-16589
▁납품	-16590
▁더빙	-16591
▁사악	-16592
▁에뮬	-16593
▁전액	-16594
▁정현	-16595
▁좌천	-16596
▁창씨	-16597
▁태상	-16598
▁테드	-16599
ions	-16600
▁Tra	-16601
▁군산시	-16602
▁대학살	-16603
▁필리스	-16604
▁맞배지붕	-16605
▁천연가스	-16606
▁기교	-16607
▁기근	-16608
▁니라	-16609
▁상해	-16610
▁수강	-16611
▁애쓰	-16612
▁완산	-16613
▁이철	-16614
▁장택	-16615
▁재주	-16616
▁정공	-16617
▁콘셉	-16618
▁포섭	-16619
▁프록	-16620
▁USA	-16621
▁관찰자	-16622
▁광화문	-16623
▁마에다	-16624
▁밀어내	-16625
▁봉수대	-16626
▁분홍색	-16627
▁시게루	-16628
▁High	-16629
정제	-16630
▁낙태	-16631
▁남궁	-16632
▁농작	-16633
▁니체	-16634
▁덕수	-16635
▁소탕	-16636
▁수선	-16637
▁의왕	-16638
▁토드	-16639
▁펠레	-16640
▁핑계	-16641
▁그리드	-16642
▁넘어오	-16643
▁노트북	-16644
▁마피아	-16645
▁안티고	-16646
▁포인터	-16647
▁무궁화호	-16648
던스	-16649
라나	-16650
사랑	-16651
실험	-16652
코인	-16653
att	-16654
▁귀하	-16655
▁대정	-16656
▁마도	-16657
▁정과	-16658
▁진구	-16659
▁푸틴	-16660
▁Not	-16661
▁목포시	-16662
▁유성구	-16663
▁전철역	-16664
▁진정하	-16665
▁평상시	-16666
▁서프랑크	-16667
▁엎	-16668
싸움	-16669
컨드	-16670
▁고택	-16671
▁궁내	-16672
▁독실	-16673
▁동티	-16674
▁말소	-16675
▁아루	-16676
▁총살	-16677
지스터	-16678
▁ᄇ니까	-16679
▁막아내	-16680
▁평의원	-16681
▁1300	-16682
▁1814	-16683
▁조선왕조실록	-16684
테일	-16685
▁SG	-16686
▁기악	-16687
▁마틸	-16688
▁미자	-16689
▁벨벳	-16690
▁아말	-16691
▁안재	-16692
▁예일	-16693
▁음역	-16694
▁증원	-16695
▁콤비	-16696
▁패퇴	-16697
▁헤지	-16698
▁비올라	-16699
▁트랜싯	-16700
▁티무르	-16701
▁피드백	-16702
▁동아프리카	-16703
▁귤	-16704
촌동	-16705
토쿠	-16706
▁공해	-16707
▁로타	-16708
▁마고	-16709
▁민가	-16710
▁성제	-16711
▁알렌	-16712
▁유승	-16713
▁헬렌	-16714
▁MHz	-16715
▁쌍방울	-16716
▁What	-16717
▁type	-16718
▁클라이맥스	-16719
당류	-16720
랭크	-16721
재단	-16722
▁군비	-16723
▁문성	-16724
▁소치	-16725
▁이덕	-16726
▁제보	-16727
▁주상	-16728
▁휴먼	-16729
▁건너편	-16730
▁맞대결	-16731
▁성명서	-16732
▁수도사	-16733
▁플래그	-16734
▁보호구역	-16735
▁트랜지스터	-16736
기둥	-16737
널목	-16738
자유	-16739
ART	-16740
▁Of	-16741
▁고갈	-16742
▁보육	-16743
▁비욘	-16744
▁스팅	-16745
▁아약	-16746
▁우도	-16747
▁우이	-16748
▁전집	-16749
▁키아	-16750
▁흥덕	-16751
▁IEC	-16752
▁건널목	-16753
▁겨울철	-16754
▁깨달음	-16755
▁세컨드	-16756
▁그래미상	-16757
거성	-16758
데냐	-16759
▁RA	-16760
▁목화	-16761
▁비호	-16762
▁완주	-16763
▁증직	-16764
▁쿠리	-16765
▁튀기	-16766
▁홍천	-16767
▁290	-16768
▁미우라	-16769
▁오나라	-16770
▁우승컵	-16771
▁충주시	-16772
▁평택시	-16773
▁사르데냐	-16774
▁산업단지	-16775
▁토스카나	-16776
▁Google	-16777
BN	-16778
림동	-16779
▁구석	-16780
▁급기	-16781
▁보카	-16782
▁수의	-16783
▁스쿠	-16784
▁신관	-16785
▁우대	-16786
▁전란	-16787
▁총액	-16788
▁War	-16789
▁베일리	-16790
▁액티브	-16791
▁연구실	-16792
▁재빨리	-16793
▁커티스	-16794
▁한정판	-16795
▁혁명군	-16796
▁암모니아	-16797
▁크리스천	-16798
마일	-16799
▁kW	-16800
▁간지	-16801
▁로어	-16802
▁면은	-16803
▁미에	-16804
▁바사	-16805
▁버거	-16806
▁부탄	-16807
▁석등	-16808
▁애매	-16809
▁윗면	-16810
▁이다	-16811
▁퀘이	-16812
▁포진	-16813
정보부	-16814
▁라쿠텐	-16815
▁성북구	-16816
▁패트리	-16817
▁1795	-16818
민정	-16819
▁견훤	-16820
▁바하	-16821
▁북상	-16822
▁아픔	-16823
▁열망	-16824
▁캐럴	-16825
▁할양	-16826
▁헤임	-16827
씨식물	-16828
▁WHO	-16829
▁니스트	-16830
▁프렌즈	-16831
▁석가여래	-16832
ger	-16833
▁FS	-16834
▁군집	-16835
▁규장	-16836
▁레미	-16837
▁려다	-16838
▁리온	-16839
▁선회	-16840
▁실크	-16841
▁앨버	-16842
▁열풍	-16843
▁정일	-16844
▁지층	-16845
▁직권	-16846
▁초당	-16847
▁페데	-16848
▁헨드	-16849
▁훈족	-16850
▁LCK	-16851
▁MLB	-16852
▁고조선	-16853
▁미시간	-16854
▁아약스	-16855
▁주교좌	-16856
▁포스코	-16857
▁프리킥	-16858
살바도르	-16859
▁부위원장	-16860
구멍	-16861
전차	-16862
▁구자	-16863
▁도표	-16864
▁루지	-16865
▁멘토	-16866
▁아난	-16867
▁켈빈	-16868
▁사이공	-16869
▁통신부	-16870
▁트루먼	-16871
▁플라자	-16872
▁다리우스	-16873
▁샌드위치	-16874
▁플레이스	-16875
▁그리스도인	-16876
▁윔	-16877
식스	-16878
회원	-16879
▁군락	-16880
▁발췌	-16881
▁스톨	-16882
▁암초	-16883
▁에린	-16884
▁원생	-16885
▁잊히	-16886
▁포교	-16887
▁국문학	-16888
▁리포트	-16889
▁원정군	-16890
▁익산시	-16891
▁프로이트	-16892
ye	-16893
▁밈	-16894
alk	-16895
▁NX	-16896
▁PH	-16897
▁괴뢰	-16898
▁도정	-16899
▁리츠	-16900
▁매춘	-16901
▁본초	-16902
▁아랑	-16903
▁에런	-16904
▁옥상	-16905
▁인대	-16906
▁춤추	-16907
▁패드	-16908
▁혼돈	-16909
▁850	-16910
▁대항해	-16911
▁홉킨스	-16912
▁With	-16913
▁렝	-16914
▁모식	-16915
▁몬태	-16916
▁세베	-16917
▁약학	-16918
▁우사	-16919
▁TBC	-16920
▁블루어	-16921
▁정확도	-16922
▁창업자	-16923
▁디렉터리	-16924
yle	-16925
▁로동	-16926
▁미숙	-16927
▁부녀	-16928
▁브람	-16929
▁쇠약	-16930
▁얼터	-16931
▁장조	-16932
▁풍수	-16933
▁480	-16934
▁Dis	-16935
▁남조선	-16936
▁선언문	-16937
▁창덕궁	-16938
▁하모니	-16939
▁뱌	-16940
▁쥘	-16941
부미	-16942
enc	-16943
▁보훈	-16944
▁코지	-16945
▁토비	-16946
▁함의	-16947
▁남해군	-16948
▁로렌초	-16949
▁스레드	-16950
▁스타즈	-16951
▁타블로	-16952
▁합천군	-16953
▁수마트라	-16954
NT	-16955
▁켓	-16956
니코	-16957
▁광택	-16958
▁보궐	-16959
▁아핀	-16960
▁웅진	-16961
▁유원	-16962
▁종친	-16963
디우스	-16964
주니어	-16965
▁Art	-16966
▁보행자	-16967
▁안드레이	-16968
▁카테고리	-16969
건적	-16970
고나	-16971
팽이	-16972
▁당명	-16973
▁미코	-16974
▁반야	-16975
▁웰스	-16976
▁장준	-16977
▁천정	-16978
▁첨부	-16979
▁학급	-16980
▁헬로	-16981
▁등록금	-16982
▁에히메	-16983
▁헬싱키	-16984
▁사탕수수	-16985
▁아틀레틱	-16986
▁COVID	-16987
▁그리스도교	-16988
스테	-16989
카라	-16990
▁Di	-16991
▁굶주	-16992
▁니나	-16993
▁승전	-16994
▁효용	-16995
▁238	-16996
▁개최지	-16997
▁공직자	-16998
▁북반구	-16999
▁충렬왕	-17000
▁Blue	-17001
▁드레이크	-17002
▁간디	-17003
▁경이	-17004
▁국지	-17005
▁김세	-17006
▁더럽	-17007
▁숭실	-17008
▁씨름	-17009
▁연유	-17010
▁영재	-17011
▁윈터	-17012
▁팀장	-17013
▁평신	-17014
▁돌아서	-17015
▁지방관	-17016
▁페테르	-17017
IO	-17018
블린	-17019
▁각광	-17020
▁교묘	-17021
▁논설	-17022
▁덩굴	-17023
▁데쓰	-17024
▁맛있	-17025
▁머피	-17026
▁소도	-17027
▁엄정	-17028
▁차분	-17029
플레잉	-17030
ough	-17031
▁남반구	-17032
▁바로잡	-17033
▁빅토리	-17034
▁학생회	-17035
▁가나자와	-17036
▁롤플레잉	-17037
▁요시아키	-17038
▁꼼	-17039
▁먀	-17040
레프	-17041
▁감탄	-17042
▁랜덤	-17043
▁박승	-17044
▁버시	-17045
▁불평	-17046
▁설사	-17047
▁율령	-17048
가하라	-17049
▁넥스트	-17050
▁보호관	-17051
▁산체스	-17052
▁스타인	-17053
▁1793	-17054
▁이베리아	-17055
뉴스	-17056
렁이	-17057
천국	-17058
▁골수	-17059
▁구토	-17060
▁남포	-17061
▁리저	-17062
▁민권	-17063
▁세탁	-17064
▁수렵	-17065
▁와해	-17066
▁정여	-17067
네소스	-17068
▁공기업	-17069
▁손바닥	-17070
▁안데르	-17071
▁이완용	-17072
▁자연주의	-17073
▁자유민주	-17074
▁중앙정보부	-17075
UI	-17076
에리	-17077
ING	-17078
▁교주	-17079
▁노화	-17080
▁당분	-17081
▁데메	-17082
▁묘법	-17083
▁신구	-17084
▁역모	-17085
▁이트	-17086
▁장항	-17087
▁쿠릴	-17088
▁하디	-17089
독립당	-17090
▁수번뇌	-17091
▁에밀리	-17092
▁여객선	-17093
▁취약점	-17094
▁페인트	-17095
▁한국독립당	-17096
▁키르기스스탄	-17097
que	-17098
▁ED	-17099
▁Vf	-17100
▁갤러	-17101
▁과부	-17102
▁국과	-17103
▁내구	-17104
▁만기	-17105
▁멜론	-17106
▁몸집	-17107
▁보츠	-17108
▁서강	-17109
▁올랭	-17110
▁용접	-17111
▁정병	-17112
▁존엄	-17113
▁직함	-17114
▁페터	-17115
▁하순	-17116
다람쥐	-17117
연화경	-17118
▁Rev	-17119
▁문하시	-17120
▁보라색	-17121
▁크라스	-17122
스트리트	-17123
▁1846	-17124
▁MPEG	-17125
▁물리학상	-17126
▁에드먼드	-17127
26	-17128
메트	-17129
적분	-17130
전쟁	-17131
OVE	-17132
▁괴멸	-17133
▁구룡	-17134
▁대뇌	-17135
▁무당	-17136
▁미묘	-17137
▁민생	-17138
▁유시	-17139
▁윤원	-17140
▁이국	-17141
▁천구	-17142
웨스트	-17143
▁노르트	-17144
▁아산시	-17145
▁아칸소	-17146
▁유격대	-17147
▁1839	-17148
▁브루나이	-17149
르모	-17150
ump	-17151
▁삼키	-17152
▁서보	-17153
▁오호	-17154
▁이효	-17155
▁참배	-17156
비우스	-17157
▁농작물	-17158
▁엉덩이	-17159
▁이브라	-17160
▁중서부	-17161
▁어드밴스	-17162
▁하시모토	-17163
운전	-17164
▁'.	-17165
▁느라	-17166
▁니콘	-17167
▁월북	-17168
▁인출	-17169
▁퇴단	-17170
▁펀치	-17171
시우스	-17172
▁가입자	-17173
▁메이트	-17174
▁버나드	-17175
▁변속기	-17176
▁시어터	-17177
▁지난해	-17178
▁추밀원	-17179
▁1854	-17180
▁time	-17181
▁기념사업	-17182
▁넉	-17183
▁뚱	-17184
나물	-17185
래시	-17186
바람	-17187
파스	-17188
▁경멸	-17189
▁귀양	-17190
▁낙타	-17191
▁산불	-17192
▁억류	-17193
▁총체	-17194
▁추위	-17195
▁표결	-17196
슬라브	-17197
▁LCD	-17198
▁배수량	-17199
▁베드로	-17200
▁아테나	-17201
▁체스터	-17202
▁최하위	-17203
▁테트라	-17204
▁여주인공	-17205
▁히로부미	-17206
▁시즈오카현	-17207
▁아오모리현	-17208
대성	-17209
질량	-17210
der	-17211
▁걸맞	-17212
▁공덕	-17213
▁구인	-17214
▁도색	-17215
▁망루	-17216
▁사흘	-17217
▁솔트	-17218
▁순정	-17219
▁잠들	-17220
▁해자	-17221
▁국무원	-17222
▁상속인	-17223
▁외무성	-17224
▁아나키즘	-17225
▁초등학생	-17226
▁갑각	-17227
▁게일	-17228
▁깜짝	-17229
▁독소	-17230
▁박기	-17231
▁심플	-17232
▁존상	-17233
▁클루	-17234
▁학창	-17235
▁휘트	-17236
▁아쿠아	-17237
▁전기장	-17238
▁황태후	-17239
▁후임자	-17240
▁기독교인	-17241
▁촘	-17242
모자	-17243
재란	-17244
후이	-17245
▁군국	-17246
▁마는	-17247
▁본당	-17248
▁부윤	-17249
▁심근	-17250
▁윤석	-17251
▁이견	-17252
▁이형	-17253
▁정강	-17254
▁톨킨	-17255
▁현충	-17256
니다드	-17257
티우스	-17258
학생회	-17259
▁214	-17260
▁737	-17261
▁대머리	-17262
▁수증기	-17263
▁알레르	-17264
▁하카타	-17265
▁정유재란	-17266
▁자동변속기	-17267
▁트리니다드	-17268
▁중앙아프리카	-17269
든지	-17270
▁개전	-17271
▁방조	-17272
▁분양	-17273
▁아민	-17274
▁여과	-17275
▁유폐	-17276
▁인신	-17277
▁치중	-17278
▁환기	-17279
코스트	-17280
▁가시마	-17281
▁기부금	-17282
▁분류학	-17283
▁상대론	-17284
▁시공간	-17285
▁윤리학	-17286
▁키워드	-17287
▁파트리	-17288
▁팩토리	-17289
▁평화상	-17290
▁언어학자	-17291
▁이해관계	-17292
▁총학생회	-17293
고트	-17294
우어	-17295
패스	-17296
▁ㄴ가	-17297
▁가니	-17298
▁구나	-17299
▁루머	-17300
▁미모	-17301
▁바일	-17302
▁범용	-17303
▁야로	-17304
▁칼레	-17305
▁특례	-17306
▁파드	-17307
▁필기	-17308
▁후시	-17309
▁낙하산	-17310
▁산둥성	-17311
총리대신	-17312
▁마음대로	-17313
▁세키가하라	-17314
▁내각총리대신	-17315
BT	-17316
▁내수	-17317
▁라몬	-17318
▁매번	-17319
▁매월	-17320
▁박준	-17321
▁브론	-17322
▁비참	-17323
▁상작	-17324
▁손책	-17325
▁오딘	-17326
▁웅장	-17327
▁육아	-17328
▁종주	-17329
▁찬탈	-17330
▁코레	-17331
▁COM	-17332
▁Min	-17333
▁경비대	-17334
▁돗토리	-17335
▁보나파	-17336
▁절대로	-17337
▁조계종	-17338
▁증명서	-17339
▁미성년자	-17340
▁비지니스	-17341
▁보나파르트	-17342
▁돛	-17343
▁BR	-17344
▁등대	-17345
▁마한	-17346
▁상투	-17347
▁새턴	-17348
▁석상	-17349
▁수류	-17350
▁이부	-17351
▁페드	-17352
캐스트	-17353
쿠스틱	-17354
프랑스	-17355
▁안중근	-17356
▁에리크	-17357
▁1849	-17358
▁Beat	-17359
▁어쿠스틱	-17360
▁플로이드	-17361
▁뺏	-17362
▁퓌	-17363
▁ME	-17364
▁광경	-17365
▁교포	-17366
▁분장	-17367
▁소홀	-17368
▁어이	-17369
▁오닐	-17370
▁장령	-17371
▁제식	-17372
▁팬아	-17373
▁가파르	-17374
▁교토부	-17375
▁북극해	-17376
▁비행대	-17377
▁갈릴레이	-17378
▁공화주의	-17379
▁비트코인	-17380
▁견습	-17381
▁고압	-17382
▁디온	-17383
▁바덴	-17384
▁베버	-17385
▁비크	-17386
▁실로	-17387
▁유품	-17388
▁태세	-17389
▁페가	-17390
▁갖가지	-17391
▁데포르	-17392
▁초대칭	-17393
▁파출소	-17394
▁하이든	-17395
▁1856	-17396
▁오브젝트	-17397
▁페더레이션	-17398
28	-17399
담회	-17400
사회	-17401
탐정	-17402
▁간염	-17403
▁계투	-17404
▁북해	-17405
▁사죄	-17406
▁시경	-17407
▁인피	-17408
▁적재	-17409
▁해일	-17410
▁화북	-17411
직할시	-17412
▁건국대	-17413
▁구청장	-17414
▁나가노	-17415
▁델라웨어	-17416
HD	-17417
▁깡	-17418
▁럴	-17419
▁줌	-17420
▁낙랑	-17421
▁남로	-17422
▁단성	-17423
▁담론	-17424
▁모기	-17425
▁본디	-17426
▁분쇄	-17427
▁소란	-17428
▁수배	-17429
▁시주	-17430
▁신작	-17431
▁엠블	-17432
▁철원	-17433
▁현령	-17434
▁찬드라	-17435
▁포위전	-17436
▁노동자당	-17437
▁소용돌이	-17438
▁네덜란드어	-17439
누아	-17440
오린	-17441
정권	-17442
호르	-17443
호프	-17444
▁대세	-17445
▁봉작	-17446
▁역습	-17447
▁연임	-17448
▁예속	-17449
▁오기	-17450
▁우동	-17451
▁웨일	-17452
▁이안	-17453
▁제학	-17454
▁파격	-17455
타니아	-17456
▁430	-17457
▁교직원	-17458
▁식물원	-17459
▁어리석	-17460
▁해럴드	-17461
베이거스	-17462
▁캐나다인	-17463
▁크레이그	-17464
▁하이웨이	-17465
23	-17466
섬유	-17467
케스	-17468
▁반열	-17469
▁배설	-17470
▁변방	-17471
▁악역	-17472
▁요아	-17473
▁추궁	-17474
▁헤엄	-17475
▁화전	-17476
▁효능	-17477
atch	-17478
▁장택상	-17479
▁1851	-17480
▁스탠퍼드	-17481
▁캔자스시티	-17482
▁라스베이거스	-17483
OU	-17484
▁녜	-17485
개혁	-17486
체어	-17487
▁드니	-17488
▁마자	-17489
▁만국	-17490
▁메사	-17491
▁밀스	-17492
▁반려	-17493
▁유장	-17494
▁적성	-17495
▁조승	-17496
▁촌은	-17497
▁한서	-17498
▁419	-17499
▁감염자	-17500
▁다이나	-17501
▁참모장	-17502
▁상파울루	-17503
▁차량기지	-17504
▁PP	-17505
▁간장	-17506
▁낙엽	-17507
▁단호	-17508
▁볼륨	-17509
▁셔먼	-17510
▁원성	-17511
▁윤영	-17512
▁후백	-17513
트로피	-17514
▁FBI	-17515
▁디스코	-17516
▁레인보	-17517
▁벤피카	-17518
▁보르도	-17519
▁입출력	-17520
▁테이크	-17521
▁투데이	-17522
▁사보이아	-17523
▁크리에이티브	-17524
처리	-17525
하스	-17526
▁계란	-17527
▁김문	-17528
▁단사	-17529
▁도독	-17530
▁라티	-17531
▁상체	-17532
▁알비	-17533
▁외동	-17534
▁치수	-17535
▁친절	-17536
▁Top	-17537
▁레이어	-17538
▁아가씨	-17539
▁오비탈	-17540
▁진보당	-17541
▁집어넣	-17542
▁하동군	-17543
츠부르크	-17544
▁블레이드	-17545
▁스티븐스	-17546
▁오하이오주	-17547
86	-17548
ery	-17549
▁결탁	-17550
▁경색	-17551
▁서천	-17552
▁쇼팽	-17553
▁수서	-17554
▁언약	-17555
▁주경	-17556
▁착안	-17557
▁히다	-17558
▁기념식	-17559
▁노스케	-17560
▁캥거루	-17561
▁핵폭탄	-17562
▁1855	-17563
▁1857	-17564
▁서스펜션	-17565
▁정사각형	-17566
▁폴란드인	-17567
▁프란시스	-17568
▁힉	-17569
전기	-17570
투안	-17571
하늘	-17572
▁TG	-17573
▁국면	-17574
▁대광	-17575
▁대열	-17576
▁보문	-17577
▁분개	-17578
▁여생	-17579
▁욕설	-17580
▁정시	-17581
▁카잔	-17582
▁페티	-17583
▁공사관	-17584
▁대주주	-17585
▁배트맨	-17586
▁상세히	-17587
▁수산물	-17588
▁시부야	-17589
▁애벌레	-17590
▁작사가	-17591
▁휠체어	-17592
▁다이스케	-17593
깨비	-17594
버거	-17595
봉사	-17596
산읍	-17597
일라	-17598
천년	-17599
카테	-17600
▁거액	-17601
▁랜디	-17602
▁명주	-17603
▁발송	-17604
▁벽면	-17605
▁빌미	-17606
▁조력	-17607
cess	-17608
▁Med	-17609
▁베르디	-17610
▁서북쪽	-17611
▁수수료	-17612
▁올라서	-17613
▁일간지	-17614
▁갑신정변	-17615
▁민족주의자	-17616
하르	-17617
▁YM	-17618
▁권세	-17619
▁무왕	-17620
▁서상	-17621
▁성채	-17622
▁수훈	-17623
▁아모	-17624
▁캔디	-17625
▁핵산	-17626
▁현명	-17627
icro	-17628
▁211	-17629
▁구미시	-17630
▁글리코	-17631
▁봉사자	-17632
▁시흥시	-17633
▁행정관	-17634
▁반공주의	-17635
▁여러해살이풀	-17636
▁좡	-17637
▁심슨	-17638
▁정년	-17639
▁택지	-17640
▁한참	-17641
고양이	-17642
콥스키	-17643
▁301	-17644
▁모자라	-17645
▁제이스	-17646
▁지평선	-17647
▁포천시	-17648
▁데포르티보	-17649
댄스	-17650
테른	-17651
▁롤리	-17652
▁압송	-17653
▁쟁점	-17654
▁주치	-17655
▁체첸	-17656
▁친목	-17657
▁템포	-17658
▁포구	-17659
▁해금	-17660
▁Pop	-17661
▁시우바	-17662
▁웨이트	-17663
▁저작물	-17664
▁펠로폰	-17665
▁포브스	-17666
▁Will	-17667
▁이와테현	-17668
▁병마절도사	-17669
▁펠로폰네소스	-17670
레토	-17671
버드	-17672
서구	-17673
재기	-17674
증권	-17675
지대	-17676
▁버퍼	-17677
▁셀룰	-17678
▁신영	-17679
▁인테	-17680
▁폰트	-17681
루리아	-17682
▁223	-17683
▁동의어	-17684
▁변증법	-17685
메니스탄	-17686
▁서아시아	-17687
▁투르크메니스탄	-17688
소득	-17689
왕국	-17690
흐트	-17691
▁변장	-17692
▁선하	-17693
▁소망	-17694
▁실습	-17695
▁임베	-17696
▁크세	-17697
▁탄원	-17698
▁팔자	-17699
▁려다가	-17700
▁스나이	-17701
▁은하단	-17702
▁카운터	-17703
▁컨디션	-17704
▁헤이스	-17705
▁임베디드	-17706
쇼프	-17707
연대	-17708
▁CL	-17709
▁간파	-17710
▁노회	-17711
▁대적	-17712
▁만리	-17713
▁수스	-17714
▁액수	-17715
▁외벽	-17716
▁지소	-17717
▁찬스	-17718
▁히나	-17719
▁NAD	-17720
▁그로스	-17721
▁나주시	-17722
▁비엔나	-17723
▁1776	-17724
▁Free	-17725
▁엔트로피	-17726
니엄	-17727
니크	-17728
바꿈	-17729
여들	-17730
▁돌핀	-17731
▁박격	-17732
▁벚꽃	-17733
▁성간	-17734
▁슈바	-17735
▁이학	-17736
▁늘어지	-17737
▁오카다	-17738
▁클라리넷	-17739
로아	-17740
ont	-17741
▁FR	-17742
▁IA	-17743
▁고증	-17744
▁급습	-17745
▁노다	-17746
▁신명	-17747
▁알론	-17748
▁열반	-17749
▁원제	-17750
▁율곡	-17751
▁음경	-17752
▁읽히	-17753
▁장구	-17754
▁지병	-17755
▁카렐	-17756
▁한도	-17757
시오날	-17758
▁대각선	-17759
▁뽑아내	-17760
▁핵실험	-17761
타고라스	-17762
▁나시오날	-17763
▁플루오린	-17764
day	-17765
▁김한	-17766
▁미안	-17767
▁이공	-17768
▁퇴사	-17769
▁현청	-17770
▁회부	-17771
▁다면체	-17772
▁모여들	-17773
▁보니파	-17774
▁수송기	-17775
▁하이델	-17776
▁가까스로	-17777
▁무라카미	-17778
▁미주리주	-17779
27	-17780
스탕	-17781
▁골목	-17782
▁버즈	-17783
▁요네	-17784
▁조식	-17785
▁총알	-17786
▁코민	-17787
▁항모	-17788
▁현생	-17789
▁독립국	-17790
▁루터교	-17791
▁마그마	-17792
▁바이스	-17793
▁타고나	-17794
▁형무소	-17795
▁사카모토	-17796
▁태평천국	-17797
광선	-17798
▁UR	-17799
▁과업	-17800
▁뇌졸	-17801
▁대흥	-17802
▁문교	-17803
▁방한	-17804
▁센스	-17805
▁윤선	-17806
▁잠복	-17807
▁타오	-17808
노벨라	-17809
리어스	-17810
중국해	-17811
▁거제시	-17812
▁레너드	-17813
▁이범석	-17814
▁올랭피크	-17815
▁원내대표	-17816
▁그레고리력	-17817
▁텔레노벨라	-17818
▁통합진보당	-17819
▁금광	-17820
▁부총	-17821
▁사극	-17822
▁와트	-17823
▁중첩	-17824
▁병원체	-17825
▁아세트	-17826
볼트	-17827
aut	-17828
▁MW	-17829
▁개요	-17830
▁누각	-17831
▁라데	-17832
▁상시	-17833
▁서던	-17834
▁양손	-17835
▁언젠	-17836
▁재원	-17837
▁조참	-17838
▁호가	-17839
레시브	-17840
▁XML	-17841
▁가속기	-17842
▁달라이	-17843
▁동북쪽	-17844
▁새천년	-17845
▁청교도	-17846
▁출생지	-17847
▁클라라	-17848
▁캄파니아주	-17849
▁프로그레시브	-17850
모습	-17851
활성	-17852
▁땅콩	-17853
▁몬트	-17854
▁성추	-17855
▁심신	-17856
▁영아	-17857
▁원가	-17858
▁장타	-17859
▁질리	-17860
▁케니	-17861
궐선거	-17862
▁다시피	-17863
▁비정규	-17864
▁어지럽	-17865
▁언젠가	-17866
▁국민회의	-17867
▁재보궐선거	-17868
29	-17869
ma	-17870
를린	-17871
쿠젠	-17872
평가	-17873
▁Po	-17874
▁명지	-17875
▁산탄	-17876
▁살림	-17877
▁준위	-17878
▁천명	-17879
▁타현	-17880
▁퇴화	-17881
▁급기야	-17882
▁김종필	-17883
▁마인드	-17884
▁심포니	-17885
▁영산회	-17886
▁청구인	-17887
▁피에트로	-17888
▁10000	-17889
▁레오나르도	-17890
마타	-17891
▁ne	-17892
▁간소	-17893
▁계파	-17894
▁괴팅	-17895
▁교복	-17896
▁기물	-17897
▁누락	-17898
▁로로	-17899
▁미망	-17900
▁미움	-17901
▁발주	-17902
▁방수	-17903
▁시왕	-17904
▁역행	-17905
▁지단	-17906
▁진안	-17907
▁파사	-17908
▁표상	-17909
▁하쿠	-17910
▁합체	-17911
▁혹독	-17912
▁가로막	-17913
▁굳어지	-17914
▁베르그	-17915
▁묘법연화경	-17916
연료	-17917
▁각별	-17918
▁로젠	-17919
▁본기	-17920
▁사성	-17921
▁셰이	-17922
▁수잔	-17923
▁연좌	-17924
▁음란	-17925
▁이로	-17926
▁이연	-17927
▁화신	-17928
들랜드	-17929
▁Bro	-17930
▁End	-17931
▁del	-17932
▁단기간	-17933
▁메이플	-17934
▁모티프	-17935
▁베리아	-17936
▁빠뜨리	-17937
▁사모아	-17938
▁살아나	-17939
▁영등포	-17940
▁황도대	-17941
▁조기어류	-17942
저민	-17943
페리	-17944
its	-17945
▁CV	-17946
▁가메	-17947
▁감명	-17948
▁국고	-17949
▁국채	-17950
▁세브	-17951
▁습성	-17952
▁어필	-17953
▁입안	-17954
▁직제	-17955
▁최경	-17956
▁홀드	-17957
메네스	-17958
메데스	-17959
▁215	-17960
▁벤저민	-17961
▁샘플링	-17962
▁서기장	-17963
▁에인절	-17964
▁치우치	-17965
▁팰리스	-17966
▁포위망	-17967
개발	-17968
다롭	-17969
▁로미	-17970
▁만다	-17971
▁반일	-17972
▁비비	-17973
▁콘월	-17974
▁포에	-17975
irst	-17976
▁Big	-17977
▁DFB	-17978
▁네브래스카	-17979
니발	-17980
슐린	-17981
▁나나	-17982
▁대양	-17983
▁배영	-17984
▁세가	-17985
▁에나	-17986
▁체임	-17987
▁퓨전	-17988
▁황보	-17989
▁까다롭	-17990
▁논산시	-17991
▁리서치	-17992
▁크리켓	-17993
▁캔터베리	-17994
BL	-17995
가야	-17996
계리	-17997
급시	-17998
미치	-17999
▁공녀	-18000
▁노미	-18001
▁로자	-18002
▁생사	-18003
▁우문	-18004
▁청화	-18005
▁포즈	-18006
▁포탈	-18007
▁픽업	-18008
▁게이츠	-18009
▁서남쪽	-18010
▁특공대	-18011
▁미시간주	-18012
▁스포르팅	-18013
▁코미디언	-18014
▁포레스트	-18015
빼미	-18016
▁DL	-18017
▁개간	-18018
▁노먼	-18019
▁독감	-18020
▁린드	-18021
▁마마	-18022
▁밑면	-18023
▁열광	-18024
▁요세	-18025
▁장보	-18026
▁정철	-18027
▁주둥	-18028
▁문화사	-18029
▁begin	-18030
▁WH	-18031
▁경치	-18032
▁니즘	-18033
▁라비	-18034
▁레베	-18035
▁몰입	-18036
▁미팅	-18037
▁시로	-18038
▁원화	-18039
▁위드	-18040
▁브레인	-18041
▁엑스선	-18042
▁프리랜	-18043
▁해설자	-18044
br	-18045
연의	-18046
지않	-18047
코바	-18048
▁가인	-18049
▁매드	-18050
▁메콩	-18051
▁브롱	-18052
▁살상	-18053
▁서드	-18054
▁서킷	-18055
▁실드	-18056
▁위아	-18057
▁유즈	-18058
▁정약	-18059
▁징후	-18060
▁추석	-18061
▁틈새	-18062
▁한방	-18063
더니즘	-18064
▁239	-18065
▁경기력	-18066
▁구석기	-18067
▁부활절	-18068
▁서로마	-18069
▁월리스	-18070
▁전년도	-18071
▁후반부	-18072
▁언더그라운드	-18073
▁다의	-18074
▁루소	-18075
▁우메	-18076
▁질레	-18077
▁코다	-18078
▁쿠키	-18079
▁패주	-18080
▁기장군	-18081
▁수메르	-18082
▁특이점	-18083
▁HK	-18084
▁경수	-18085
▁낭독	-18086
▁내쫓	-18087
▁비슈	-18088
▁연천	-18089
▁전갈	-18090
▁접착	-18091
▁정파	-18092
▁창안	-18093
▁픽션	-18094
▁510	-18095
▁계약금	-18096
▁계약서	-18097
▁권력자	-18098
▁미카사	-18099
▁사중주	-18100
▁유니온	-18101
▁1792	-18102
HS	-18103
▁젬	-18104
보스	-18105
aff	-18106
oss	-18107
▁KC	-18108
▁녀석	-18109
▁래스	-18110
▁루아	-18111
▁시동	-18112
▁시암	-18113
▁아그	-18114
▁우랄	-18115
▁종택	-18116
▁청탁	-18117
▁촌락	-18118
▁칸타	-18119
▁평년	-18120
▁향리	-18121
▁호치	-18122
파트라	-18123
▁BMW	-18124
▁목걸이	-18125
▁보호자	-18126
▁부제학	-18127
▁사생아	-18128
▁소선거구	-18129
▁프라이스	-18130
▁클레오파트라	-18131
▁까치	-18132
▁덤불	-18133
▁도기	-18134
▁듀크	-18135
▁명절	-18136
▁부원	-18137
▁세관	-18138
▁위니	-18139
▁유실	-18140
▁Rain	-18141
▁동대문구	-18142
▁아틀라스	-18143
▁프로토타입	-18144
▁감히	-18145
▁귀납	-18146
▁덧셈	-18147
▁시료	-18148
▁안상	-18149
▁영연	-18150
▁이족	-18151
▁제향	-18152
▁Des	-18153
▁set	-18154
▁게이머	-18155
▁다다르	-18156
▁미술가	-18157
▁브람스	-18158
▁외삼촌	-18159
▁재정난	-18160
▁퍼펙트	-18161
▁void	-18162
▁그려	-18163
▁금화	-18164
▁비츠	-18165
▁예천	-18166
▁정량	-18167
▁제반	-18168
▁함안	-18169
▁과선교	-18170
▁따돌리	-18171
▁목격자	-18172
▁파이브	-18173
▁1853	-18174
▁LIVE	-18175
▁Mnet	-18176
▁알레르기	-18177
▁슈퍼주니어	-18178
루이	-18179
막염	-18180
삼문	-18181
▁RE	-18182
▁do	-18183
▁난간	-18184
▁독신	-18185
▁버락	-18186
▁불황	-18187
▁산토	-18188
▁성년	-18189
▁시판	-18190
▁약정	-18191
▁욕심	-18192
▁잠그	-18193
▁카쿠	-18194
▁티르	-18195
▁호엔	-18196
너티브	-18197
제르맹	-18198
▁성추행	-18199
▁시설물	-18200
▁퍼뜨리	-18201
▁표준어	-18202
▁Show	-18203
▁권위주의	-18204
▁얼터너티브	-18205
버섯	-18206
타라	-18207
▁대검	-18208
▁도고	-18209
▁동복	-18210
▁라벤	-18211
▁박중	-18212
▁상피	-18213
▁섬멸	-18214
▁시구	-18215
▁아속	-18216
▁양력	-18217
▁오쓰	-18218
▁절멸	-18219
▁최북	-18220
▁쿠페	-18221
▁홍백	-18222
덜랜드	-18223
메이트	-18224
▁레일리	-18225
▁명백히	-18226
▁정말로	-18227
▁지도력	-18228
▁1791	-18229
▁1852	-18230
▁인테리어	-18231
▁플레이트	-18232
▁엘살바도르	-18233
▁퓰	-18234
그림	-18235
▁JP	-18236
▁SI	-18237
▁가평	-18238
▁바크	-18239
▁숙성	-18240
▁아쓰	-18241
▁입적	-18242
▁자락	-18243
▁최치	-18244
▁커트	-18245
▁케스	-18246
▁튀르	-18247
▁TOP	-18248
▁요리사	-18249
▁프레디	-18250
▁모하메드	-18251
▁테러리스트	-18252
얼빈	-18253
이인	-18254
행사	-18255
IDS	-18256
▁구급	-18257
▁만찬	-18258
▁모후	-18259
▁밥상	-18260
▁상권	-18261
▁수온	-18262
▁수첩	-18263
▁스커	-18264
▁영세	-18265
▁이면	-18266
▁일람	-18267
▁착오	-18268
▁캄포	-18269
▁탄환	-18270
▁검사장	-18271
▁꽃받침	-18272
▁무안군	-18273
▁무인역	-18274
▁버밍엄	-18275
▁아르카	-18276
▁양서류	-18277
▁프로파	-18278
▁호위함	-18279
▁벌어들이	-18280
▁사다하루	-18281
▁생제르맹	-18282
▁속씨식물	-18283
▁크래프트	-18284
▁콘스탄티노플	-18285
▁잣	-18286
노동	-18287
티드	-18288
▁CT	-18289
▁FN	-18290
▁갑판	-18291
▁강물	-18292
▁구면	-18293
▁메트	-18294
▁방과	-18295
▁사구	-18296
▁성하	-18297
▁수전	-18298
▁실화	-18299
▁제각	-18300
핵생물	-18301
▁에르난	-18302
▁중생대	-18303
▁경향신문	-18304
▁도네츠크	-18305
be	-18306
▁옅	-18307
경궁	-18308
바타	-18309
방식	-18310
이다	-18311
하워	-18312
vis	-18313
▁교우	-18314
▁매너	-18315
▁부름	-18316
▁부응	-18317
▁북제	-18318
▁비고	-18319
▁선방	-18320
▁에타	-18321
▁연작	-18322
▁월급	-18323
▁으라	-18324
▁친숙	-18325
▁회중	-18326
▁후신	-18327
▁그려지	-18328
▁끊어지	-18329
▁레프트	-18330
▁성동구	-18331
▁조나단	-18332
▁중학생	-18333
▁지원자	-18334
▁한마디	-18335
ement	-18336
▁퍼레이드	-18337
▁아이젠하워	-18338
▁빽	-18339
oup	-18340
▁관서	-18341
▁구보	-18342
▁근연	-18343
▁노던	-18344
▁도금	-18345
▁셰프	-18346
▁수뇌	-18347
▁슬럼	-18348
▁식료	-18349
▁신재	-18350
▁실황	-18351
▁음색	-18352
▁출소	-18353
▁희박	-18354
즐랜드	-18355
▁212	-18356
▁동인도	-18357
▁브리트	-18358
▁점성가	-18359
▁찻	-18360
귀비	-18361
팔렌	-18362
하트	-18363
▁EN	-18364
▁FX	-18365
▁ㄴ대	-18366
▁박인	-18367
▁예견	-18368
▁완투	-18369
▁우쓰	-18370
▁원망	-18371
▁장영	-18372
▁제법	-18373
▁플뢰	-18374
▁히브	-18375
▁233	-18376
▁게이초	-18377
▁관악구	-18378
▁부끄럽	-18379
▁재판장	-18380
▁좀처럼	-18381
▁퀸즐랜드	-18382
▁귀향	-18383
▁능통	-18384
▁벨레	-18385
▁불펜	-18386
▁색인	-18387
▁서하	-18388
▁아만	-18389
▁여태	-18390
▁오에	-18391
▁은둔	-18392
▁필살	-18393
▁해동	-18394
▁호감	-18395
▁경영진	-18396
▁분화구	-18397
▁상류층	-18398
▁앵글로	-18399
▁유목민	-18400
▁잎자루	-18401
▁1847	-18402
▁Like	-18403
▁다운타운	-18404
▁천주교회	-18405
▁히로시마현	-18406
▁뚝	-18407
▁즌	-18408
노헤	-18409
▁고작	-18410
▁국물	-18411
▁김호	-18412
▁남짓	-18413
▁독려	-18414
▁따내	-18415
▁보두	-18416
▁요트	-18417
▁윤상	-18418
▁장터	-18419
▁Bar	-18420
▁음악회	-18421
▁이스턴	-18422
▁최적화	-18423
▁퀘스트	-18424
▁현저히	-18425
▁황갈색	-18426
▁LOVE	-18427
▁도쿠시마	-18428
▁루키우스	-18429
▁뱀파이어	-18430
▁필리포스	-18431
▁롬바르디아	-18432
에어	-18433
▁EF	-18434
▁고질	-18435
▁고타	-18436
▁나니	-18437
▁망상	-18438
▁수난	-18439
▁수찬	-18440
▁쑨원	-18441
▁점심	-18442
▁청진	-18443
▁팔각	-18444
▁품계	-18445
하이머	-18446
▁개찰기	-18447
▁세례명	-18448
▁에버턴	-18449
▁옹진군	-18450
▁플랜트	-18451
▁현악기	-18452
▁옥타비아	-18453
▁콘티넨털	-18454
개명	-18455
▁기치	-18456
▁대파	-18457
▁마조	-18458
▁미일	-18459
▁박주	-18460
▁신숙	-18461
▁이계	-18462
▁릴리스	-18463
▁베이컨	-18464
▁올빼미	-18465
▁시트르산	-18466
▁프리랜서	-18467
▁Sound	-18468
▁똥	-18469
비어	-18470
way	-18471
▁OC	-18472
▁강압	-18473
▁경감	-18474
▁과천	-18475
▁버블	-18476
▁안젤	-18477
▁연일	-18478
▁최재	-18479
▁쾌락	-18480
▁학점	-18481
▁황성	-18482
▁강아지	-18483
▁김포시	-18484
▁다각형	-18485
▁이베이	-18486
▁저술가	-18487
▁핵연료	-18488
▁레인보우	-18489
▁은행나무	-18490
▁Light	-18491
▁안티고노스	-18492
무드	-18493
오세	-18494
▁NK	-18495
▁es	-18496
▁mg	-18497
▁가봉	-18498
▁공물	-18499
▁기노	-18500
▁나팔	-18501
▁냉동	-18502
▁마로	-18503
▁미신	-18504
▁밀턴	-18505
▁슬롯	-18506
▁야채	-18507
▁약국	-18508
▁영해	-18509
▁오목	-18510
▁유위	-18511
▁조만	-18512
▁주술	-18513
▁지드	-18514
▁초중	-18515
▁포리	-18516
▁회군	-18517
▁더구나	-18518
▁브룩스	-18519
▁생태학	-18520
▁유학생	-18521
▁인슐린	-18522
▁하얼빈	-18523
▁Over	-18524
▁옵티머스	-18525
▁버지니아주	-18526
WS	-18527
▁읊	-18528
▁젓	-18529
랄라	-18530
▁UK	-18531
▁골자	-18532
▁관사	-18533
▁궁금	-18534
▁낙인	-18535
▁마누	-18536
▁발화	-18537
▁수작	-18538
▁연사	-18539
▁왈라	-18540
▁음소	-18541
▁파니	-18542
리오카	-18543
▁221	-18544
▁뇌졸중	-18545
▁Sing	-18546
▁뿌	-18547
▁계명	-18548
▁궤멸	-18549
▁베레	-18550
▁서간	-18551
▁송금	-18552
▁신예	-18553
▁외화	-18554
▁우성	-18555
▁진과	-18556
▁차드	-18557
▁클론	-18558
▁푸시	-18559
▁호러	-18560
▁후각	-18561
자위대	-18562
ouse	-18563
▁Red	-18564
▁가오슝	-18565
▁레슬리	-18566
▁미망인	-18567
▁세일러	-18568
▁수류탄	-18569
▁중대장	-18570
▁편의점	-18571
▁해적단	-18572
루트	-18573
야구	-18574
임수	-18575
타바	-18576
▁강수	-18577
▁동족	-18578
▁라피	-18579
▁삼가	-18580
▁스벤	-18581
▁슬퍼	-18582
▁쓰가	-18583
▁자력	-18584
▁주어	-18585
▁커크	-18586
▁혈청	-18587
▁회기	-18588
▁Sec	-18589
▁탈수소	-18590
브레히트	-18591
▁가이우스	-18592
▁계몽주의	-18593
▁시라카와	-18594
▁카리브해	-18595
색슨	-18596
워키	-18597
▁계략	-18598
▁고부	-18599
▁명품	-18600
▁보현	-18601
▁비약	-18602
▁색조	-18603
▁신빙	-18604
▁추월	-18605
▁콕스	-18606
▁한류	-18607
▁나뭇잎	-18608
▁리히텐	-18609
▁배상금	-18610
▁세포막	-18611
▁정보국	-18612
▁1100	-18613
▁브래들리	-18614
▁창씨개명	-18615
▁앵글로색슨	-18616
거슨	-18617
시간	-18618
옹주	-18619
▁고해	-18620
▁굴리	-18621
▁나츠	-18622
▁선지	-18623
▁아워	-18624
▁앙주	-18625
▁유주	-18626
▁혹평	-18627
대주의	-18628
ason	-18629
▁231	-18630
▁Eng	-18631
▁여름철	-18632
▁유가족	-18633
▁참가국	-18634
▁카이저	-18635
▁피스톤	-18636
▁1844	-18637
▁동명이인	-18638
▁네덜란드인	-18639
▁즙	-18640
▁JS	-18641
▁ac	-18642
▁그랜	-18643
▁다키	-18644
▁동천	-18645
▁마왕	-18646
▁안구	-18647
▁업소	-18648
▁울음	-18649
▁크릭	-18650
▁판별	-18651
▁하체	-18652
하이드	-18653
▁산화물	-18654
▁곤살레스	-18655
▁사회단체	-18656
▁요코스카	-18657
▁갑상	-18658
▁과수	-18659
▁미약	-18660
▁비니	-18661
▁식년	-18662
▁오경	-18663
▁이등	-18664
▁장현	-18665
▁적시	-18666
▁정구	-18667
▁청풍	-18668
▁타코	-18669
▁티나	-18670
▁정착민	-18671
▁조교수	-18672
▁랜드마크	-18673
▁알레산드로	-18674
aj	-18675
프슨	-18676
iet	-18677
▁RO	-18678
▁간편	-18679
▁레딧	-18680
▁미오	-18681
▁아론	-18682
▁이도	-18683
▁재야	-18684
▁쟁취	-18685
▁정연	-18686
▁취락	-18687
▁토토	-18688
▁해류	-18689
▁갑각류	-18690
▁박격포	-18691
▁정찰기	-18692
▁평창군	-18693
▁하루카	-18694
▁1837	-18695
▁오를레앙	-18696
▁민속문화재	-18697
▁꽁	-18698
코로	-18699
▁TA	-18700
▁균류	-18701
▁맨틀	-18702
▁봉산	-18703
▁부결	-18704
▁북진	-18705
▁삼부	-18706
▁숙고	-18707
▁실바	-18708
▁어음	-18709
▁요안	-18710
▁원판	-18711
▁유루	-18712
▁정태	-18713
▁390	-18714
▁Net	-18715
▁반대쪽	-18716
▁발자국	-18717
▁콘셉트	-18718
▁프로필	-18719
▁현급시	-18720
▁후견인	-18721
▁개인주의	-18722
▁포리스트	-18723
▁삼국지연의	-18724
쿠로	-18725
red	-18726
▁교착	-18727
▁그람	-18728
▁북단	-18729
▁비명	-18730
▁폐간	-18731
▁독립성	-18732
▁부사관	-18733
▁예배당	-18734
▁자신감	-18735
보레	-18736
▁광종	-18737
▁면접	-18738
▁벙커	-18739
▁아저	-18740
▁운문	-18741
▁체온	-18742
▁카오	-18743
▁토사	-18744
▁판도	-18745
베를린	-18746
▁슬퍼하	-18747
▁화순군	-18748
▁북베트남	-18749
▁아시리아	-18750
▁오렌지색	-18751
▁뜰	-18752
교동	-18753
니언	-18754
승람	-18755
오밍	-18756
헤치	-18757
▁RD	-18758
▁디어	-18759
▁무방	-18760
▁바예	-18761
▁선승	-18762
▁수유	-18763
▁열등	-18764
▁오데	-18765
▁윤회	-18766
▁이서	-18767
▁전륜	-18768
▁주청	-18769
▁케어	-18770
▁코노	-18771
▁탄화	-18772
▁테츠	-18773
▁합방	-18774
슈타트	-18775
▁Har	-18776
▁가야금	-18777
▁비스트	-18778
▁아저씨	-18779
▁환경부	-18780
소시	-18781
▁Pa	-18782
▁걸즈	-18783
▁고군	-18784
▁담화	-18785
▁만경	-18786
▁반증	-18787
▁여순	-18788
▁우미	-18789
▁유예	-18790
▁유흥	-18791
▁차가	-18792
▁청렴	-18793
▁친형	-18794
▁호라	-18795
▁흡혈	-18796
▁히치	-18797
정대부	-18798
▁228	-18799
▁목판본	-18800
▁미스트	-18801
▁밀워키	-18802
▁서산시	-18803
▁연장선	-18804
▁프런트	-18805
▁트레이너	-18806
슈티	-18807
실론	-18808
ana	-18809
ric	-18810
▁경학	-18811
▁김응	-18812
▁다방	-18813
▁도핑	-18814
▁성직	-18815
▁송병	-18816
▁알현	-18817
▁예우	-18818
▁자니	-18819
▁장엄	-18820
▁치타	-18821
▁패미	-18822
▁도지사	-18823
▁제작소	-18824
▁글래스고	-18825
▁강판	-18826
▁개년	-18827
▁노년	-18828
▁노시	-18829
▁반민	-18830
▁반원	-18831
▁생김	-18832
▁악하	-18833
▁익주	-18834
▁일직	-18835
▁총지	-18836
▁프롬	-18837
▁한옥	-18838
자동차	-18839
echn	-18840
▁950	-18841
▁fun	-18842
▁앞당기	-18843
▁케네스	-18844
▁테레사	-18845
▁헤아리	-18846
개석	-18847
고도	-18848
호크	-18849
▁ro	-18850
▁거장	-18851
▁나방	-18852
▁린치	-18853
▁말러	-18854
▁상석	-18855
▁성녀	-18856
▁성왕	-18857
▁영흥	-18858
▁의금	-18859
▁정순	-18860
▁주앙	-18861
▁중흥	-18862
▁증서	-18863
▁지터	-18864
▁초보	-18865
노세키	-18866
▁군단장	-18867
▁노원구	-18868
▁모국어	-18869
▁무척추	-18870
[...]
